{"version":"1.0","truncation":null,"padding":null,"added_tokens":[{"id":0,"special":true,"content":"[UNK]","single_word":false,"lstrip":false,"rstrip":false,"normalized":false},{"id":1,"special":true,"content":"[CLS]","single_word":false,"lstrip":false,"rstrip":false,"normalized":false},{"id":2,"special":true,"content":"[SEP]","single_word":false,"lstrip":false,"rstrip":false,"normalized":false},{"id":3,"special":true,"content":"[PAD]","single_word":false,"lstrip":false,"rstrip":false,"normalized":false},{"id":4,"special":true,"content":"[MASK]","single_word":false,"lstrip":false,"rstrip":false,"normalized":false}],"normalizer":{"type":"Sequence","normalizers":[{"type":"StripAccents"}]},"pre_tokenizer":{"type":"WhitespaceSplit"},"post_processor":{"type":"TemplateProcessing","single":[{"SpecialToken":{"id":"[CLS]","type_id":0}},{"Sequence":{"id":"A","type_id":0}},{"SpecialToken":{"id":"[SEP]","type_id":0}}],"pair":[{"SpecialToken":{"id":"[CLS]","type_id":0}},{"Sequence":{"id":"A","type_id":0}},{"SpecialToken":{"id":"[SEP]","type_id":0}},{"Sequence":{"id":"B","type_id":1}},{"SpecialToken":{"id":"[SEP]","type_id":1}}],"special_tokens":{"[CLS]":{"id":"[CLS]","ids":[1],"tokens":["[CLS]"]},"[SEP]":{"id":"[SEP]","ids":[2],"tokens":["[SEP]"]}}},"decoder":null,"model":{"type":"WordPiece","unk_token":"[UNK]","continuing_subword_prefix":"##","max_input_chars_per_word":100,"vocab":{"[UNK]":0,"[CLS]":1,"[SEP]":2,"[PAD]":3,"[MASK]":4,"!":5,"\"":6,"#":7,"$":8,"%":9,"&":10,"'":11,"(":12,")":13,"*":14,"+":15,",":16,"-":17,".":18,"/":19,"0":20,"1":21,"2":22,"3":23,"4":24,"5":25,"6":26,"7":27,"8":28,"9":29,":":30,";":31,"<":32,"=":33,">":34,"?":35,"@":36,"A":37,"B":38,"C":39,"D":40,"E":41,"F":42,"G":43,"H":44,"I":45,"J":46,"K":47,"L":48,"M":49,"N":50,"O":51,"P":52,"Q":53,"R":54,"S":55,"T":56,"U":57,"V":58,"W":59,"X":60,"Y":61,"Z":62,"[":63,"\\":64,"]":65,"^":66,"_":67,"`":68,"a":69,"b":70,"c":71,"d":72,"e":73,"f":74,"g":75,"h":76,"i":77,"j":78,"k":79,"l":80,"m":81,"n":82,"o":83,"p":84,"q":85,"r":86,"s":87,"t":88,"u":89,"v":90,"w":91,"x":92,"y":93,"z":94,"{":95,"|":96,"}":97,"~":98,"":99,"ᄀ":100,"ᄆ":101,"ᄇ":102,"ᆫ":103,"ᆯ":104,"⫸":105,"⭧":106,"ㄱ":107,"ㄲ":108,"ㄳ":109,"ㄴ":110,"ㄵ":111,"ㄶ":112,"ㄷ":113,"ㄸ":114,"ㄹ":115,"ㄺ":116,"ㄻ":117,"ㄼ":118,"ㄽ":119,"ㄾ":120,"ㄿ":121,"ㅀ":122,"ㅁ":123,"ㅂ":124,"ㅃ":125,"ㅄ":126,"ㅅ":127,"ㅆ":128,"ㅇ":129,"ㅈ":130,"ㅉ":131,"ㅊ":132,"ㅋ":133,"ㅌ":134,"ㅍ":135,"ㅎ":136,"ㅏ":137,"ㅐ":138,"ㅑ":139,"ㅒ":140,"ㅓ":141,"ㅔ":142,"ㅕ":143,"ㅖ":144,"ㅗ":145,"ㅘ":146,"ㅙ":147,"ㅚ":148,"ㅛ":149,"ㅜ":150,"ㅝ":151,"ㅞ":152,"ㅟ":153,"ㅠ":154,"ㅡ":155,"ㅢ":156,"ㅣ":157,"가":158,"각":159,"갂":160,"갃":161,"간":162,"갅":163,"갆":164,"갇":165,"갈":166,"갉":167,"갊":168,"갋":169,"갌":170,"갍":171,"갎":172,"갏":173,"감":174,"갑":175,"값":176,"갓":177,"갔":178,"강":179,"갖":180,"갗":181,"갘":182,"같":183,"갚":184,"갛":185,"개":186,"객":187,"갞":188,"갟":189,"갠":190,"갡":191,"갢":192,"갣":193,"갤":194,"갥":195,"갦":196,"갧":197,"갨":198,"갩":199,"갪":200,"갫":201,"갬":202,"갭":203,"갮":204,"갯":205,"갰":206,"갱":207,"갲":208,"갳":209,"갴":210,"갵":211,"갶":212,"갷":213,"갸":214,"갹":215,"갺":216,"갻":217,"갽":218,"갾":219,"갿":220,"걀":221,"걁":222,"걂":223,"걃":224,"걄":225,"걅":226,"걆":227,"걇":228,"걈":229,"걉":230,"걊":231,"걋":232,"걌":233,"걍":234,"걎":235,"걏":236,"걐":237,"걑":238,"걒":239,"걓":240,"걔":241,"걕":242,"걖":243,"걗":244,"걙":245,"걚":246,"걛":247,"걝":248,"걞":249,"걟":250,"걠":251,"걡":252,"걢":253,"걣":254,"걤":255,"걥":256,"걦":257,"걧":258,"걨":259,"걩":260,"걪":261,"걫":262,"걬":263,"걭":264,"걮":265,"걯":266,"거":267,"걱":268,"걲":269,"걳":270,"건":271,"걵":272,"걶":273,"걷":274,"걸":275,"걹":276,"걺":277,"걻":278,"걼":279,"걽":280,"걾":281,"걿":282,"검":283,"겁":284,"겂":285,"것":286,"겄":287,"겅":288,"겆":289,"겇":290,"겈":291,"겉":292,"겊":293,"겋":294,"게":295,"겍":296,"겎":297,"겏":298,"겐":299,"겑":300,"겒":301,"겓":302,"겔":303,"겕":304,"겖":305,"겗":306,"겘":307,"겙":308,"겚":309,"겛":310,"겜":311,"겞":312,"겟":313,"겠":314,"겡":315,"겢":316,"겣":317,"겤":318,"겥":319,"겦":320,"겧":321,"겨":322,"격":323,"겪":324,"겫":325,"견":326,"겭":327,"겮":328,"겯":329,"결":330,"겱":331,"겲":332,"겳":333,"겴":334,"겵":335,"겶":336,"겷":337,"겸":338,"겹":339,"겺":340,"겻":341,"겼":342,"경":343,"겾":344,"겿":345,"곀":346,"곁":347,"곂":348,"곃":349,"계":350,"곅":351,"곆":352,"곇":353,"곈":354,"곉":355,"곊":356,"곋":357,"곌":358,"곍":359,"곎":360,"곏":361,"곐":362,"곑":363,"곒":364,"곓":365,"곔":366,"곕":367,"곖":368,"곗":369,"곘":370,"곙":371,"곚":372,"곛":373,"곜":374,"곝":375,"곞":376,"곟":377,"고":378,"곡":379,"곢":380,"곣":381,"곤":382,"곥":383,"곦":384,"곧":385,"골":386,"곩":387,"곪":388,"곫":389,"곬":390,"곭":391,"곮":392,"곯":393,"곰":394,"곱":395,"곲":396,"곳":397,"곴":398,"공":399,"곶":400,"곷":401,"곸":402,"곹":403,"곺":404,"곻":405,"과":406,"곽":407,"곾":408,"곿":409,"관":410,"괁":411,"괂":412,"괃":413,"괄":414,"괅":415,"괆":416,"괇":417,"괈":418,"괉":419,"괊":420,"괋":421,"괌":422,"괍":423,"괎":424,"괏":425,"괐":426,"광":427,"괒":428,"괓":429,"괔":430,"괕":431,"괖":432,"괗":433,"괘":434,"괙":435,"괚":436,"괛":437,"괜":438,"괝":439,"괞":440,"괟":441,"괠":442,"괡":443,"괢":444,"괣":445,"괤":446,"괥":447,"괦":448,"괧":449,"괨":450,"괩":451,"괪":452,"괫":453,"괬":454,"괭":455,"괮":456,"괯":457,"괰":458,"괱":459,"괲":460,"괳":461,"괴":462,"괵":463,"괶":464,"괷":465,"괸":466,"괹":467,"괺":468,"괻":469,"괼":470,"괽":471,"괾":472,"괿":473,"굀":474,"굁":475,"굂":476,"굃":477,"굄":478,"굅":479,"굆":480,"굇":481,"굈":482,"굉":483,"굊":484,"굋":485,"굌":486,"굍":487,"굎":488,"굏":489,"교":490,"굑":491,"굒":492,"굓":493,"굔":494,"굕":495,"굖":496,"굗":497,"굘":498,"굙":499,"굚":500,"굛":501,"굜":502,"굝":503,"굞":504,"굟":505,"굠":506,"굡":507,"굢":508,"굣":509,"굤":510,"굥":511,"굦":512,"굧":513,"굨":514,"굩":515,"굪":516,"굫":517,"구":518,"국":519,"굮":520,"굯":521,"군":522,"굱":523,"굲":524,"굳":525,"굴":526,"굵":527,"굶":528,"굷":529,"굸":530,"굹":531,"굺":532,"굻":533,"굼":534,"굽":535,"굾":536,"굿":537,"궀":538,"궁":539,"궂":540,"궃":541,"궄":542,"궅":543,"궆":544,"궇":545,"궈":546,"궉":547,"궊":548,"궋":549,"권":550,"궍":551,"궎":552,"궏":553,"궐":554,"궑":555,"궒":556,"궓":557,"궔":558,"궕":559,"궖":560,"궗":561,"궘":562,"궙":563,"궚":564,"궛":565,"궜":566,"궝":567,"궞":568,"궟":569,"궠":570,"궡":571,"궢":572,"궣":573,"궤":574,"궥":575,"궦":576,"궧":577,"궨":578,"궩":579,"궪":580,"궫":581,"궬":582,"궭":583,"궮":584,"궯":585,"궰":586,"궱":587,"궲":588,"궳":589,"궴":590,"궵":591,"궶":592,"궷":593,"궸":594,"궹":595,"궺":596,"궻":597,"궼":598,"궽":599,"궾":600,"궿":601,"귀":602,"귁":603,"귂":604,"귃":605,"귄":606,"귅":607,"귆":608,"귇":609,"귈":610,"귉":611,"귊":612,"귋":613,"귌":614,"귍":615,"귎":616,"귏":617,"귐":618,"귑":619,"귒":620,"귓":621,"귔":622,"귕":623,"귖":624,"귗":625,"귘":626,"귙":627,"귚":628,"귛":629,"규":630,"귝":631,"귞":632,"귟":633,"균":634,"귡":635,"귢":636,"귣":637,"귤":638,"귥":639,"귦":640,"귧":641,"귨":642,"귩":643,"귪":644,"귫":645,"귬":646,"귭":647,"귮":648,"귯":649,"귰":650,"귱":651,"귲":652,"귳":653,"귴":654,"귵":655,"귶":656,"귷":657,"그":658,"극":659,"귺":660,"귻":661,"근":662,"귽":663,"귾":664,"귿":665,"글":666,"긁":667,"긂":668,"긃":669,"긄":670,"긅":671,"긆":672,"긇":673,"금":674,"급":675,"긊":676,"긋":677,"긌":678,"긍":679,"긎":680,"긏":681,"긐":682,"긑":683,"긒":684,"긓":685,"긔":686,"긕":687,"긖":688,"긗":689,"긘":690,"긙":691,"긚":692,"긛":693,"긜":694,"긝":695,"긞":696,"긟":697,"긠":698,"긡":699,"긢":700,"긣":701,"긤":702,"긥":703,"긦":704,"긧":705,"긨":706,"긩":707,"긪":708,"긫":709,"긬":710,"긭":711,"긮":712,"긯":713,"기":714,"긱":715,"긲":716,"긳":717,"긴":718,"긵":719,"긶":720,"긷":721,"길":722,"긹":723,"긺":724,"긻":725,"긼":726,"긽":727,"긾":728,"긿":729,"김":730,"깁":731,"깂":732,"깃":733,"깄":734,"깅":735,"깆":736,"깇":737,"깈":738,"깉":739,"깊":740,"깋":741,"까":742,"깍":743,"깎":744,"깏":745,"깐":746,"깑":747,"깒":748,"깓":749,"깔":750,"깕":751,"깖":752,"깗":753,"깘":754,"깙":755,"깚":756,"깛":757,"깜":758,"깝":759,"깞":760,"깟":761,"깡":762,"깢":763,"깣":764,"깤":765,"깥":766,"깦":767,"깧":768,"깨":769,"깩":770,"깪":771,"깫":772,"깬":773,"깭":774,"깮":775,"깯":776,"깱":777,"깲":778,"깳":779,"깴":780,"깵":781,"깶":782,"깷":783,"깸":784,"깹":785,"깺":786,"깻":787,"깽":788,"깾":789,"깿":790,"꺀":791,"꺁":792,"꺂":793,"꺃":794,"꺄":795,"꺅":796,"꺆":797,"꺇":798,"꺈":799,"꺉":800,"꺊":801,"꺋":802,"꺌":803,"꺍":804,"꺎":805,"꺏":806,"꺐":807,"꺑":808,"꺒":809,"꺓":810,"꺔":811,"꺕":812,"꺖":813,"꺗":814,"꺘":815,"꺙":816,"꺚":817,"꺛":818,"꺜":819,"꺝":820,"꺞":821,"꺟":822,"꺠":823,"꺡":824,"꺢":825,"꺣":826,"꺤":827,"꺥":828,"꺦":829,"꺧":830,"꺨":831,"꺩":832,"꺪":833,"꺫":834,"꺬":835,"꺭":836,"꺮":837,"꺯":838,"꺰":839,"꺱":840,"꺲":841,"꺳":842,"꺴":843,"꺵":844,"꺶":845,"꺷":846,"꺸":847,"꺹":848,"꺺":849,"꺻":850,"꺼":851,"꺽":852,"꺾":853,"꺿":854,"껀":855,"껁":856,"껂":857,"껃":858,"껄":859,"껅":860,"껆":861,"껇":862,"껈":863,"껉":864,"껊":865,"껋":866,"껌":867,"껍":868,"껎":869,"껏":870,"껑":871,"껒":872,"껓":873,"껔":874,"껕":875,"껖":876,"껗":877,"께":878,"껙":879,"껚":880,"껛":881,"껝":882,"껞":883,"껟":884,"껠":885,"껡":886,"껢":887,"껣":888,"껤":889,"껥":890,"껦":891,"껧":892,"껨":893,"껩":894,"껪":895,"껫":896,"껬":897,"껭":898,"껮":899,"껯":900,"껰":901,"껱":902,"껲":903,"껳":904,"껴":905,"껵":906,"껶":907,"껷":908,"껸":909,"껹":910,"껺":911,"껻":912,"껼":913,"껽":914,"껾":915,"껿":916,"꼀":917,"꼁":918,"꼂":919,"꼃":920,"꼄":921,"꼅":922,"꼆":923,"꼇":924,"꼈":925,"꼉":926,"꼊":927,"꼋":928,"꼌":929,"꼍":930,"꼎":931,"꼏":932,"꼐":933,"꼑":934,"꼒":935,"꼓":936,"꼔":937,"꼕":938,"꼖":939,"꼗":940,"꼘":941,"꼙":942,"꼚":943,"꼛":944,"꼜":945,"꼝":946,"꼞":947,"꼟":948,"꼠":949,"꼡":950,"꼢":951,"꼣":952,"꼤":953,"꼥":954,"꼦":955,"꼧":956,"꼨":957,"꼩":958,"꼪":959,"꼫":960,"꼬":961,"꼭":962,"꼮":963,"꼯":964,"꼰":965,"꼱":966,"꼲":967,"꼳":968,"꼴":969,"꼵":970,"꼶":971,"꼷":972,"꼸":973,"꼹":974,"꼺":975,"꼻":976,"꼼":977,"꼽":978,"꼾":979,"꼿":980,"꽀":981,"꽁":982,"꽂":983,"꽃":984,"꽄":985,"꽅":986,"꽆":987,"꽇":988,"꽈":989,"꽉":990,"꽊":991,"꽋":992,"꽌":993,"꽍":994,"꽎":995,"꽏":996,"꽐":997,"꽑":998,"꽒":999,"꽓":1000,"꽔":1001,"꽕":1002,"꽖":1003,"꽗":1004,"꽘":1005,"꽙":1006,"꽚":1007,"꽛":1008,"꽜":1009,"꽝":1010,"꽞":1011,"꽟":1012,"꽠":1013,"꽡":1014,"꽢":1015,"꽣":1016,"꽤":1017,"꽥":1018,"꽦":1019,"꽧":1020,"꽨":1021,"꽩":1022,"꽪":1023,"꽫":1024,"꽬":1025,"꽭":1026,"꽮":1027,"꽯":1028,"꽰":1029,"꽱":1030,"꽲":1031,"꽳":1032,"꽴":1033,"꽵":1034,"꽶":1035,"꽷":1036,"꽸":1037,"꽹":1038,"꽺":1039,"꽻":1040,"꽼":1041,"꽽":1042,"꽾":1043,"꽿":1044,"꾀":1045,"꾁":1046,"꾂":1047,"꾃":1048,"꾄":1049,"꾅":1050,"꾆":1051,"꾇":1052,"꾈":1053,"꾉":1054,"꾊":1055,"꾋":1056,"꾌":1057,"꾍":1058,"꾎":1059,"꾏":1060,"꾐":1061,"꾑":1062,"꾒":1063,"꾓":1064,"꾔":1065,"꾕":1066,"꾖":1067,"꾗":1068,"꾘":1069,"꾙":1070,"꾚":1071,"꾛":1072,"꾜":1073,"꾝":1074,"꾞":1075,"꾟":1076,"꾠":1077,"꾡":1078,"꾢":1079,"꾣":1080,"꾤":1081,"꾥":1082,"꾦":1083,"꾧":1084,"꾨":1085,"꾩":1086,"꾪":1087,"꾫":1088,"꾬":1089,"꾭":1090,"꾮":1091,"꾯":1092,"꾰":1093,"꾱":1094,"꾲":1095,"꾳":1096,"꾴":1097,"꾵":1098,"꾶":1099,"꾷":1100,"꾸":1101,"꾹":1102,"꾺":1103,"꾻":1104,"꾼":1105,"꾽":1106,"꾾":1107,"꾿":1108,"꿀":1109,"꿁":1110,"꿂":1111,"꿃":1112,"꿄":1113,"꿅":1114,"꿆":1115,"꿇":1116,"꿈":1117,"꿉":1118,"꿊":1119,"꿋":1120,"꿌":1121,"꿍":1122,"꿎":1123,"꿏":1124,"꿐":1125,"꿑":1126,"꿒":1127,"꿓":1128,"꿔":1129,"꿕":1130,"꿖":1131,"꿗":1132,"꿘":1133,"꿙":1134,"꿚":1135,"꿛":1136,"꿜":1137,"꿝":1138,"꿞":1139,"꿟":1140,"꿠":1141,"꿡":1142,"꿢":1143,"꿣":1144,"꿤":1145,"꿥":1146,"꿦":1147,"꿧":1148,"꿨":1149,"꿩":1150,"꿪":1151,"꿫":1152,"꿬":1153,"꿭":1154,"꿮":1155,"꿯":1156,"꿰":1157,"꿱":1158,"꿲":1159,"꿳":1160,"꿵":1161,"꿶":1162,"꿷":1163,"꿹":1164,"꿺":1165,"꿻":1166,"꿼":1167,"꿽":1168,"꿾":1169,"꿿":1170,"뀀":1171,"뀁":1172,"뀂":1173,"뀃":1174,"뀅":1175,"뀆":1176,"뀇":1177,"뀈":1178,"뀉":1179,"뀊":1180,"뀋":1181,"뀌":1182,"뀍":1183,"뀎":1184,"뀏":1185,"뀐":1186,"뀑":1187,"뀒":1188,"뀓":1189,"뀕":1190,"뀖":1191,"뀗":1192,"뀘":1193,"뀙":1194,"뀚":1195,"뀛":1196,"뀜":1197,"뀝":1198,"뀞":1199,"뀟":1200,"뀠":1201,"뀡":1202,"뀢":1203,"뀣":1204,"뀤":1205,"뀥":1206,"뀦":1207,"뀧":1208,"뀨":1209,"뀩":1210,"뀪":1211,"뀫":1212,"뀬":1213,"뀭":1214,"뀮":1215,"뀯":1216,"뀰":1217,"뀱":1218,"뀲":1219,"뀳":1220,"뀴":1221,"뀵":1222,"뀶":1223,"뀷":1224,"뀸":1225,"뀹":1226,"뀺":1227,"뀻":1228,"뀼":1229,"뀽":1230,"뀾":1231,"뀿":1232,"끀":1233,"끁":1234,"끂":1235,"끃":1236,"끄":1237,"끅":1238,"끆":1239,"끇":1240,"끈":1241,"끉":1242,"끊":1243,"끋":1244,"끌":1245,"끍":1246,"끎":1247,"끏":1248,"끐":1249,"끑":1250,"끒":1251,"끓":1252,"끔":1253,"끕":1254,"끖":1255,"끗":1256,"끘":1257,"끙":1258,"끚":1259,"끛":1260,"끜":1261,"끝":1262,"끞":1263,"끟":1264,"끠":1265,"끡":1266,"끢":1267,"끣":1268,"끤":1269,"끥":1270,"끦":1271,"끧":1272,"끨":1273,"끩":1274,"끪":1275,"끫":1276,"끬":1277,"끭":1278,"끮":1279,"끯":1280,"끰":1281,"끱":1282,"끲":1283,"끳":1284,"끴":1285,"끵":1286,"끶":1287,"끷":1288,"끸":1289,"끹":1290,"끺":1291,"끻":1292,"끼":1293,"끽":1294,"끾":1295,"끿":1296,"낀":1297,"낁":1298,"낂":1299,"낃":1300,"낄":1301,"낅":1302,"낆":1303,"낇":1304,"낈":1305,"낉":1306,"낊":1307,"낋":1308,"낌":1309,"낍":1310,"낎":1311,"낏":1312,"낐":1313,"낑":1314,"낒":1315,"낓":1316,"낔":1317,"낕":1318,"낖":1319,"낗":1320,"나":1321,"낙":1322,"낚":1323,"낛":1324,"난":1325,"낝":1326,"낞":1327,"낟":1328,"날":1329,"낡":1330,"낢":1331,"낣":1332,"낤":1333,"낥":1334,"낦":1335,"낧":1336,"남":1337,"납":1338,"낪":1339,"낫":1340,"났":1341,"낭":1342,"낮":1343,"낯":1344,"낰":1345,"낱":1346,"낲":1347,"낳":1348,"내":1349,"낵":1350,"낶":1351,"낷":1352,"낸":1353,"낹":1354,"낺":1355,"낻":1356,"낼":1357,"낽":1358,"낾":1359,"낿":1360,"냀":1361,"냁":1362,"냂":1363,"냃":1364,"냄":1365,"냅":1366,"냆":1367,"냇":1368,"냈":1369,"냉":1370,"냊":1371,"냋":1372,"냌":1373,"냍":1374,"냎":1375,"냏":1376,"냐":1377,"냑":1378,"냒":1379,"냓":1380,"냔":1381,"냕":1382,"냖":1383,"냗":1384,"냘":1385,"냙":1386,"냚":1387,"냛":1388,"냜":1389,"냝":1390,"냞":1391,"냟":1392,"냠":1393,"냡":1394,"냢":1395,"냣":1396,"냤":1397,"냥":1398,"냦":1399,"냧":1400,"냨":1401,"냩":1402,"냪":1403,"냫":1404,"냬":1405,"냭":1406,"냮":1407,"냯":1408,"냰":1409,"냱":1410,"냲":1411,"냳":1412,"냴":1413,"냵":1414,"냶":1415,"냷":1416,"냸":1417,"냹":1418,"냺":1419,"냻":1420,"냼":1421,"냽":1422,"냾":1423,"냿":1424,"넀":1425,"넁":1426,"넂":1427,"넃":1428,"넄":1429,"넅":1430,"넆":1431,"넇":1432,"너":1433,"넉":1434,"넊":1435,"넋":1436,"넌":1437,"넍":1438,"넎":1439,"넏":1440,"널":1441,"넑":1442,"넒":1443,"넓":1444,"넔":1445,"넕":1446,"넖":1447,"넗":1448,"넘":1449,"넙":1450,"넚":1451,"넛":1452,"넜":1453,"넝":1454,"넞":1455,"넟":1456,"넠":1457,"넡":1458,"넢":1459,"넣":1460,"네":1461,"넥":1462,"넦":1463,"넧":1464,"넨":1465,"넩":1466,"넪":1467,"넫":1468,"넬":1469,"넭":1470,"넮":1471,"넯":1472,"넰":1473,"넱":1474,"넲":1475,"넳":1476,"넴":1477,"넵":1478,"넶":1479,"넷":1480,"넸":1481,"넹":1482,"넺":1483,"넻":1484,"넼":1485,"넽":1486,"넾":1487,"넿":1488,"녀":1489,"녁":1490,"녂":1491,"녃":1492,"년":1493,"녅":1494,"녆":1495,"녇":1496,"녈":1497,"녉":1498,"녊":1499,"녋":1500,"녌":1501,"녍":1502,"녎":1503,"녏":1504,"념":1505,"녑":1506,"녒":1507,"녓":1508,"녔":1509,"녕":1510,"녖":1511,"녗":1512,"녘":1513,"녙":1514,"녚":1515,"녛":1516,"녜":1517,"녝":1518,"녞":1519,"녟":1520,"녠":1521,"녡":1522,"녢":1523,"녣":1524,"녤":1525,"녥":1526,"녦":1527,"녧":1528,"녨":1529,"녩":1530,"녪":1531,"녫":1532,"녬":1533,"녭":1534,"녮":1535,"녯":1536,"녰":1537,"녱":1538,"녲":1539,"녳":1540,"녴":1541,"녵":1542,"녶":1543,"녷":1544,"노":1545,"녹":1546,"녺":1547,"녻":1548,"논":1549,"녽":1550,"녾":1551,"녿":1552,"놀":1553,"놁":1554,"놂":1555,"놃":1556,"놄":1557,"놅":1558,"놆":1559,"놇":1560,"놈":1561,"놉":1562,"놊":1563,"놋":1564,"놌":1565,"농":1566,"놎":1567,"놏":1568,"놐":1569,"놑":1570,"높":1571,"놓":1572,"놔":1573,"놕":1574,"놖":1575,"놗":1576,"놘":1577,"놙":1578,"놚":1579,"놛":1580,"놜":1581,"놝":1582,"놞":1583,"놟":1584,"놠":1585,"놡":1586,"놢":1587,"놣":1588,"놤":1589,"놥":1590,"놦":1591,"놧":1592,"놨":1593,"놩":1594,"놪":1595,"놫":1596,"놬":1597,"놭":1598,"놮":1599,"놯":1600,"놰":1601,"놱":1602,"놲":1603,"놳":1604,"놴":1605,"놵":1606,"놶":1607,"놷":1608,"놸":1609,"놹":1610,"놺":1611,"놻":1612,"놼":1613,"놽":1614,"놾":1615,"놿":1616,"뇀":1617,"뇁":1618,"뇂":1619,"뇃":1620,"뇄":1621,"뇅":1622,"뇆":1623,"뇇":1624,"뇈":1625,"뇉":1626,"뇊":1627,"뇋":1628,"뇌":1629,"뇍":1630,"뇎":1631,"뇏":1632,"뇐":1633,"뇑":1634,"뇒":1635,"뇓":1636,"뇔":1637,"뇕":1638,"뇖":1639,"뇗":1640,"뇘":1641,"뇙":1642,"뇚":1643,"뇛":1644,"뇜":1645,"뇝":1646,"뇞":1647,"뇟":1648,"뇠":1649,"뇡":1650,"뇢":1651,"뇣":1652,"뇤":1653,"뇥":1654,"뇦":1655,"뇧":1656,"뇨":1657,"뇩":1658,"뇪":1659,"뇫":1660,"뇬":1661,"뇭":1662,"뇮":1663,"뇯":1664,"뇰":1665,"뇱":1666,"뇲":1667,"뇳":1668,"뇴":1669,"뇵":1670,"뇶":1671,"뇷":1672,"뇸":1673,"뇹":1674,"뇺":1675,"뇻":1676,"뇼":1677,"뇽":1678,"뇾":1679,"뇿":1680,"눀":1681,"눁":1682,"눂":1683,"눃":1684,"누":1685,"눅":1686,"눆":1687,"눇":1688,"눈":1689,"눉":1690,"눊":1691,"눋":1692,"눌":1693,"눍":1694,"눎":1695,"눏":1696,"눐":1697,"눑":1698,"눒":1699,"눓":1700,"눔":1701,"눕":1702,"눖":1703,"눗":1704,"눘":1705,"눙":1706,"눚":1707,"눛":1708,"눜":1709,"눝":1710,"눞":1711,"눟":1712,"눡":1713,"눢":1714,"눣":1715,"눤":1716,"눥":1717,"눦":1718,"눧":1719,"눨":1720,"눩":1721,"눪":1722,"눫":1723,"눬":1724,"눭":1725,"눮":1726,"눯":1727,"눰":1728,"눱":1729,"눲":1730,"눳":1731,"눵":1732,"눶":1733,"눷":1734,"눸":1735,"눹":1736,"눺":1737,"눻":1738,"눼":1739,"눽":1740,"눾":1741,"눿":1742,"뉀":1743,"뉁":1744,"뉂":1745,"뉃":1746,"뉄":1747,"뉅":1748,"뉆":1749,"뉇":1750,"뉈":1751,"뉉":1752,"뉊":1753,"뉋":1754,"뉌":1755,"뉍":1756,"뉎":1757,"뉏":1758,"뉐":1759,"뉑":1760,"뉒":1761,"뉓":1762,"뉔":1763,"뉕":1764,"뉖":1765,"뉗":1766,"뉘":1767,"뉙":1768,"뉚":1769,"뉛":1770,"뉜":1771,"뉝":1772,"뉞":1773,"뉟":1774,"뉡":1775,"뉢":1776,"뉣":1777,"뉤":1778,"뉥":1779,"뉦":1780,"뉧":1781,"뉨":1782,"뉩":1783,"뉪":1784,"뉫":1785,"뉬":1786,"뉭":1787,"뉮":1788,"뉯":1789,"뉰":1790,"뉱":1791,"뉲":1792,"뉳":1793,"뉴":1794,"뉵":1795,"뉶":1796,"뉷":1797,"뉸":1798,"뉹":1799,"뉺":1800,"뉻":1801,"뉼":1802,"뉽":1803,"뉾":1804,"뉿":1805,"늀":1806,"늁":1807,"늂":1808,"늃":1809,"늄":1810,"늅":1811,"늆":1812,"늇":1813,"늈":1814,"늉":1815,"늊":1816,"늋":1817,"늌":1818,"늍":1819,"늎":1820,"늏":1821,"느":1822,"늑":1823,"늒":1824,"늓":1825,"는":1826,"늕":1827,"늖":1828,"늗":1829,"늘":1830,"늙":1831,"늚":1832,"늛":1833,"늜":1834,"늝":1835,"늞":1836,"늟":1837,"늠":1838,"늡":1839,"늢":1840,"늣":1841,"늤":1842,"능":1843,"늦":1844,"늧":1845,"늨":1846,"늩":1847,"늪":1848,"늫":1849,"늬":1850,"늭":1851,"늮":1852,"늯":1853,"늰":1854,"늱":1855,"늲":1856,"늳":1857,"늴":1858,"늵":1859,"늶":1860,"늷":1861,"늸":1862,"늹":1863,"늺":1864,"늻":1865,"늼":1866,"늽":1867,"늾":1868,"늿":1869,"닀":1870,"닁":1871,"닂":1872,"닃":1873,"닄":1874,"닅":1875,"닆":1876,"닇":1877,"니":1878,"닉":1879,"닊":1880,"닋":1881,"닌":1882,"닍":1883,"닎":1884,"닏":1885,"닐":1886,"닑":1887,"닒":1888,"닓":1889,"닔":1890,"닕":1891,"닖":1892,"닗":1893,"님":1894,"닙":1895,"닚":1896,"닛":1897,"닜":1898,"닝":1899,"닞":1900,"닟":1901,"닠":1902,"닡":1903,"닢":1904,"닣":1905,"다":1906,"닥":1907,"닦":1908,"닧":1909,"단":1910,"닩":1911,"닪":1912,"닫":1913,"달":1914,"닭":1915,"닮":1916,"닯":1917,"닰":1918,"닱":1919,"닲":1920,"닳":1921,"담":1922,"답":1923,"닶":1924,"닷":1925,"닸":1926,"당":1927,"닺":1928,"닻":1929,"닼":1930,"닽":1931,"닾":1932,"닿":1933,"대":1934,"댁":1935,"댂":1936,"댃":1937,"댄":1938,"댅":1939,"댆":1940,"댇":1941,"댈":1942,"댉":1943,"댊":1944,"댋":1945,"댌":1946,"댍":1947,"댎":1948,"댏":1949,"댐":1950,"댑":1951,"댒":1952,"댓":1953,"댔":1954,"댕":1955,"댖":1956,"댗":1957,"댘":1958,"댙":1959,"댚":1960,"댛":1961,"댜":1962,"댝":1963,"댞":1964,"댟":1965,"댠":1966,"댡":1967,"댢":1968,"댣":1969,"댤":1970,"댥":1971,"댦":1972,"댧":1973,"댨":1974,"댩":1975,"댪":1976,"댫":1977,"댬":1978,"댭":1979,"댮":1980,"댯":1981,"댰":1982,"댱":1983,"댲":1984,"댳":1985,"댴":1986,"댵":1987,"댶":1988,"댷":1989,"댸":1990,"댹":1991,"댺":1992,"댻":1993,"댼":1994,"댽":1995,"댾":1996,"댿":1997,"덀":1998,"덁":1999,"덂":2000,"덃":2001,"덄":2002,"덅":2003,"덆":2004,"덇":2005,"덈":2006,"덉":2007,"덊":2008,"덋":2009,"덌":2010,"덍":2011,"덎":2012,"덏":2013,"덐":2014,"덑":2015,"덒":2016,"덓":2017,"더":2018,"덕":2019,"덖":2020,"덗":2021,"던":2022,"덙":2023,"덚":2024,"덛":2025,"덜":2026,"덝":2027,"덞":2028,"덟":2029,"덠":2030,"덡":2031,"덢":2032,"덣":2033,"덤":2034,"덥":2035,"덦":2036,"덧":2037,"덨":2038,"덩":2039,"덪":2040,"덫":2041,"덬":2042,"덭":2043,"덮":2044,"덯":2045,"데":2046,"덱":2047,"덲":2048,"덳":2049,"덴":2050,"덵":2051,"덶":2052,"덷":2053,"델":2054,"덹":2055,"덺":2056,"덻":2057,"덼":2058,"덽":2059,"덾":2060,"덿":2061,"뎀":2062,"뎁":2063,"뎂":2064,"뎃":2065,"뎄":2066,"뎅":2067,"뎆":2068,"뎇":2069,"뎈":2070,"뎉":2071,"뎊":2072,"뎋":2073,"뎌":2074,"뎍":2075,"뎎":2076,"뎏":2077,"뎐":2078,"뎑":2079,"뎒":2080,"뎓":2081,"뎔":2082,"뎕":2083,"뎖":2084,"뎗":2085,"뎘":2086,"뎙":2087,"뎚":2088,"뎛":2089,"뎜":2090,"뎝":2091,"뎞":2092,"뎟":2093,"뎠":2094,"뎡":2095,"뎢":2096,"뎣":2097,"뎤":2098,"뎥":2099,"뎦":2100,"뎧":2101,"뎨":2102,"뎩":2103,"뎪":2104,"뎫":2105,"뎬":2106,"뎭":2107,"뎮":2108,"뎯":2109,"뎰":2110,"뎱":2111,"뎲":2112,"뎳":2113,"뎴":2114,"뎵":2115,"뎶":2116,"뎷":2117,"뎸":2118,"뎹":2119,"뎺":2120,"뎻":2121,"뎼":2122,"뎽":2123,"뎾":2124,"뎿":2125,"돀":2126,"돁":2127,"돂":2128,"돃":2129,"도":2130,"독":2131,"돆":2132,"돇":2133,"돈":2134,"돉":2135,"돊":2136,"돋":2137,"돌":2138,"돍":2139,"돎":2140,"돏":2141,"돐":2142,"돑":2143,"돒":2144,"돓":2145,"돔":2146,"돕":2147,"돖":2148,"돗":2149,"돘":2150,"동":2151,"돚":2152,"돛":2153,"돜":2154,"돝":2155,"돞":2156,"돟":2157,"돠":2158,"돡":2159,"돢":2160,"돣":2161,"돤":2162,"돥":2163,"돦":2164,"돧":2165,"돨":2166,"돩":2167,"돪":2168,"돫":2169,"돬":2170,"돭":2171,"돮":2172,"돯":2173,"돰":2174,"돱":2175,"돲":2176,"돳":2177,"돴":2178,"돵":2179,"돶":2180,"돷":2181,"돸":2182,"돹":2183,"돺":2184,"돻":2185,"돼":2186,"돽":2187,"돾":2188,"돿":2189,"됀":2190,"됁":2191,"됂":2192,"됃":2193,"됄":2194,"됅":2195,"됆":2196,"됇":2197,"됈":2198,"됉":2199,"됊":2200,"됋":2201,"됌":2202,"됍":2203,"됎":2204,"됏":2205,"됐":2206,"됑":2207,"됒":2208,"됓":2209,"됔":2210,"됕":2211,"됖":2212,"됗":2213,"되":2214,"됙":2215,"됚":2216,"됛":2217,"된":2218,"됝":2219,"됞":2220,"됟":2221,"될":2222,"됡":2223,"됢":2224,"됣":2225,"됤":2226,"됥":2227,"됦":2228,"됧":2229,"됨":2230,"됩":2231,"됪":2232,"됫":2233,"됬":2234,"됭":2235,"됮":2236,"됯":2237,"됰":2238,"됱":2239,"됲":2240,"됳":2241,"됴":2242,"됵":2243,"됶":2244,"됷":2245,"됸":2246,"됹":2247,"됺":2248,"됻":2249,"됼":2250,"됽":2251,"됾":2252,"됿":2253,"둀":2254,"둁":2255,"둂":2256,"둃":2257,"둄":2258,"둅":2259,"둆":2260,"둇":2261,"둈":2262,"둉":2263,"둊":2264,"둋":2265,"둌":2266,"둍":2267,"둎":2268,"둏":2269,"두":2270,"둑":2271,"둒":2272,"둓":2273,"둔":2274,"둕":2275,"둖":2276,"둗":2277,"둘":2278,"둙":2279,"둚":2280,"둛":2281,"둜":2282,"둝":2283,"둞":2284,"둟":2285,"둠":2286,"둡":2287,"둢":2288,"둣":2289,"둤":2290,"둥":2291,"둦":2292,"둧":2293,"둨":2294,"둩":2295,"둪":2296,"둫":2297,"둬":2298,"둭":2299,"둮":2300,"둯":2301,"둰":2302,"둱":2303,"둲":2304,"둳":2305,"둴":2306,"둵":2307,"둶":2308,"둷":2309,"둸":2310,"둹":2311,"둺":2312,"둻":2313,"둼":2314,"둽":2315,"둾":2316,"둿":2317,"뒁":2318,"뒂":2319,"뒃":2320,"뒄":2321,"뒅":2322,"뒆":2323,"뒇":2324,"뒈":2325,"뒉":2326,"뒊":2327,"뒋":2328,"뒌":2329,"뒍":2330,"뒎":2331,"뒏":2332,"뒐":2333,"뒑":2334,"뒒":2335,"뒓":2336,"뒔":2337,"뒕":2338,"뒖":2339,"뒗":2340,"뒘":2341,"뒙":2342,"뒚":2343,"뒛":2344,"뒜":2345,"뒝":2346,"뒞":2347,"뒟":2348,"뒠":2349,"뒡":2350,"뒢":2351,"뒣":2352,"뒤":2353,"뒥":2354,"뒦":2355,"뒧":2356,"뒨":2357,"뒩":2358,"뒪":2359,"뒫":2360,"뒬":2361,"뒭":2362,"뒮":2363,"뒯":2364,"뒰":2365,"뒱":2366,"뒲":2367,"뒳":2368,"뒴":2369,"뒵":2370,"뒶":2371,"뒷":2372,"뒸":2373,"뒹":2374,"뒺":2375,"뒻":2376,"뒼":2377,"뒽":2378,"뒾":2379,"뒿":2380,"듀":2381,"듁":2382,"듂":2383,"듃":2384,"듄":2385,"듅":2386,"듆":2387,"듇":2388,"듈":2389,"듉":2390,"듊":2391,"듋":2392,"듌":2393,"듍":2394,"듎":2395,"듏":2396,"듐":2397,"듑":2398,"듒":2399,"듓":2400,"듔":2401,"듕":2402,"듖":2403,"듗":2404,"듘":2405,"듙":2406,"듚":2407,"듛":2408,"드":2409,"득":2410,"듞":2411,"듟":2412,"든":2413,"듡":2414,"듢":2415,"듣":2416,"들":2417,"듥":2418,"듦":2419,"듧":2420,"듨":2421,"듩":2422,"듪":2423,"듫":2424,"듬":2425,"듭":2426,"듮":2427,"듯":2428,"듰":2429,"등":2430,"듲":2431,"듳":2432,"듴":2433,"듵":2434,"듶":2435,"듷":2436,"듸":2437,"듹":2438,"듺":2439,"듻":2440,"듼":2441,"듽":2442,"듾":2443,"듿":2444,"딀":2445,"딁":2446,"딂":2447,"딃":2448,"딄":2449,"딅":2450,"딆":2451,"딇":2452,"딈":2453,"딉":2454,"딊":2455,"딋":2456,"딌":2457,"딍":2458,"딎":2459,"딏":2460,"딐":2461,"딑":2462,"딒":2463,"딓":2464,"디":2465,"딕":2466,"딖":2467,"딗":2468,"딘":2469,"딙":2470,"딚":2471,"딛":2472,"딜":2473,"딝":2474,"딞":2475,"딟":2476,"딠":2477,"딡":2478,"딢":2479,"딣":2480,"딤":2481,"딥":2482,"딦":2483,"딧":2484,"딨":2485,"딩":2486,"딪":2487,"딫":2488,"딬":2489,"딭":2490,"딮":2491,"딯":2492,"따":2493,"딱":2494,"딲":2495,"딳":2496,"딴":2497,"딵":2498,"딶":2499,"딷":2500,"딸":2501,"딹":2502,"딺":2503,"딻":2504,"딼":2505,"딽":2506,"딾":2507,"딿":2508,"땀":2509,"땁":2510,"땂":2511,"땃":2512,"땅":2513,"땆":2514,"땇":2515,"땈":2516,"땉":2517,"땊":2518,"땋":2519,"때":2520,"땍":2521,"땎":2522,"땏":2523,"땐":2524,"땑":2525,"땒":2526,"땓":2527,"땔":2528,"땕":2529,"땖":2530,"땗":2531,"땘":2532,"땙":2533,"땚":2534,"땛":2535,"땜":2536,"땝":2537,"땞":2538,"땟":2539,"땠":2540,"땡":2541,"땢":2542,"땣":2543,"땤":2544,"땥":2545,"땦":2546,"땧":2547,"땨":2548,"땩":2549,"땪":2550,"땫":2551,"땬":2552,"땭":2553,"땮":2554,"땯":2555,"땰":2556,"땱":2557,"땲":2558,"땳":2559,"땴":2560,"땵":2561,"땶":2562,"땷":2563,"땸":2564,"땹":2565,"땺":2566,"땻":2567,"땼":2568,"땽":2569,"땾":2570,"땿":2571,"떀":2572,"떁":2573,"떂":2574,"떃":2575,"떄":2576,"떅":2577,"떆":2578,"떇":2579,"떈":2580,"떉":2581,"떊":2582,"떋":2583,"떌":2584,"떍":2585,"떎":2586,"떏":2587,"떐":2588,"떑":2589,"떒":2590,"떓":2591,"떔":2592,"떕":2593,"떖":2594,"떗":2595,"떘":2596,"떙":2597,"떚":2598,"떛":2599,"떜":2600,"떝":2601,"떞":2602,"떟":2603,"떠":2604,"떡":2605,"떢":2606,"떣":2607,"떤":2608,"떥":2609,"떦":2610,"떧":2611,"떨":2612,"떩":2613,"떪":2614,"떫":2615,"떬":2616,"떭":2617,"떮":2618,"떯":2619,"떰":2620,"떱":2621,"떲":2622,"떳":2623,"떵":2624,"떶":2625,"떷":2626,"떸":2627,"떹":2628,"떺":2629,"떻":2630,"떼":2631,"떽":2632,"떾":2633,"떿":2634,"뗀":2635,"뗁":2636,"뗂":2637,"뗃":2638,"뗄":2639,"뗅":2640,"뗆":2641,"뗇":2642,"뗈":2643,"뗉":2644,"뗊":2645,"뗋":2646,"뗌":2647,"뗍":2648,"뗎":2649,"뗏":2650,"뗑":2651,"뗒":2652,"뗓":2653,"뗔":2654,"뗕":2655,"뗖":2656,"뗗":2657,"뗘":2658,"뗙":2659,"뗚":2660,"뗛":2661,"뗜":2662,"뗝":2663,"뗞":2664,"뗟":2665,"뗠":2666,"뗡":2667,"뗢":2668,"뗣":2669,"뗤":2670,"뗥":2671,"뗦":2672,"뗧":2673,"뗨":2674,"뗩":2675,"뗪":2676,"뗫":2677,"뗭":2678,"뗮":2679,"뗯":2680,"뗰":2681,"뗱":2682,"뗲":2683,"뗳":2684,"뗴":2685,"뗵":2686,"뗶":2687,"뗷":2688,"뗸":2689,"뗹":2690,"뗺":2691,"뗻":2692,"뗼":2693,"뗽":2694,"뗾":2695,"뗿":2696,"똀":2697,"똁":2698,"똂":2699,"똃":2700,"똄":2701,"똅":2702,"똆":2703,"똇":2704,"똈":2705,"똉":2706,"똊":2707,"똋":2708,"똌":2709,"똍":2710,"똎":2711,"똏":2712,"또":2713,"똑":2714,"똒":2715,"똓":2716,"똔":2717,"똕":2718,"똖":2719,"똗":2720,"똘":2721,"똙":2722,"똚":2723,"똛":2724,"똜":2725,"똝":2726,"똞":2727,"똟":2728,"똠":2729,"똡":2730,"똢":2731,"똣":2732,"똤":2733,"똥":2734,"똦":2735,"똧":2736,"똨":2737,"똩":2738,"똪":2739,"똫":2740,"똬":2741,"똭":2742,"똮":2743,"똯":2744,"똰":2745,"똱":2746,"똲":2747,"똳":2748,"똴":2749,"똵":2750,"똶":2751,"똷":2752,"똸":2753,"똹":2754,"똺":2755,"똻":2756,"똼":2757,"똽":2758,"똾":2759,"똿":2760,"뙀":2761,"뙁":2762,"뙂":2763,"뙃":2764,"뙄":2765,"뙅":2766,"뙆":2767,"뙇":2768,"뙈":2769,"뙉":2770,"뙊":2771,"뙋":2772,"뙌":2773,"뙍":2774,"뙎":2775,"뙏":2776,"뙐":2777,"뙑":2778,"뙒":2779,"뙓":2780,"뙔":2781,"뙕":2782,"뙖":2783,"뙗":2784,"뙘":2785,"뙙":2786,"뙚":2787,"뙛":2788,"뙜":2789,"뙝":2790,"뙞":2791,"뙟":2792,"뙠":2793,"뙡":2794,"뙢":2795,"뙣":2796,"뙤":2797,"뙥":2798,"뙦":2799,"뙧":2800,"뙨":2801,"뙩":2802,"뙪":2803,"뙫":2804,"뙬":2805,"뙭":2806,"뙮":2807,"뙯":2808,"뙰":2809,"뙱":2810,"뙲":2811,"뙳":2812,"뙴":2813,"뙵":2814,"뙶":2815,"뙷":2816,"뙸":2817,"뙹":2818,"뙺":2819,"뙻":2820,"뙼":2821,"뙽":2822,"뙾":2823,"뙿":2824,"뚀":2825,"뚁":2826,"뚂":2827,"뚃":2828,"뚄":2829,"뚅":2830,"뚆":2831,"뚇":2832,"뚈":2833,"뚉":2834,"뚊":2835,"뚋":2836,"뚌":2837,"뚍":2838,"뚎":2839,"뚏":2840,"뚐":2841,"뚑":2842,"뚒":2843,"뚓":2844,"뚔":2845,"뚕":2846,"뚖":2847,"뚗":2848,"뚘":2849,"뚙":2850,"뚚":2851,"뚛":2852,"뚜":2853,"뚝":2854,"뚞":2855,"뚟":2856,"뚠":2857,"뚡":2858,"뚢":2859,"뚣":2860,"뚤":2861,"뚥":2862,"뚦":2863,"뚧":2864,"뚨":2865,"뚩":2866,"뚪":2867,"뚫":2868,"뚬":2869,"뚭":2870,"뚮":2871,"뚯":2872,"뚰":2873,"뚱":2874,"뚲":2875,"뚳":2876,"뚴":2877,"뚵":2878,"뚶":2879,"뚷":2880,"뚸":2881,"뚹":2882,"뚺":2883,"뚻":2884,"뚼":2885,"뚽":2886,"뚾":2887,"뚿":2888,"뛀":2889,"뛁":2890,"뛂":2891,"뛃":2892,"뛄":2893,"뛅":2894,"뛆":2895,"뛇":2896,"뛈":2897,"뛉":2898,"뛊":2899,"뛋":2900,"뛌":2901,"뛍":2902,"뛎":2903,"뛏":2904,"뛐":2905,"뛑":2906,"뛒":2907,"뛓":2908,"뛔":2909,"뛕":2910,"뛖":2911,"뛗":2912,"뛘":2913,"뛙":2914,"뛚":2915,"뛛":2916,"뛜":2917,"뛝":2918,"뛞":2919,"뛟":2920,"뛠":2921,"뛡":2922,"뛢":2923,"뛣":2924,"뛤":2925,"뛥":2926,"뛦":2927,"뛧":2928,"뛨":2929,"뛩":2930,"뛪":2931,"뛫":2932,"뛬":2933,"뛭":2934,"뛮":2935,"뛯":2936,"뛰":2937,"뛱":2938,"뛲":2939,"뛳":2940,"뛵":2941,"뛶":2942,"뛷":2943,"뛸":2944,"뛹":2945,"뛺":2946,"뛻":2947,"뛼":2948,"뛽":2949,"뛾":2950,"뛿":2951,"뜀":2952,"뜁":2953,"뜂":2954,"뜃":2955,"뜄":2956,"뜅":2957,"뜆":2958,"뜇":2959,"뜈":2960,"뜉":2961,"뜊":2962,"뜋":2963,"뜌":2964,"뜍":2965,"뜎":2966,"뜏":2967,"뜐":2968,"뜑":2969,"뜒":2970,"뜓":2971,"뜔":2972,"뜕":2973,"뜖":2974,"뜗":2975,"뜘":2976,"뜙":2977,"뜚":2978,"뜛":2979,"뜜":2980,"뜝":2981,"뜞":2982,"뜟":2983,"뜠":2984,"뜡":2985,"뜢":2986,"뜣":2987,"뜤":2988,"뜥":2989,"뜦":2990,"뜧":2991,"뜨":2992,"뜩":2993,"뜪":2994,"뜫":2995,"뜬":2996,"뜭":2997,"뜮":2998,"뜯":2999,"뜰":3000,"뜱":3001,"뜲":3002,"뜳":3003,"뜴":3004,"뜵":3005,"뜶":3006,"뜷":3007,"뜸":3008,"뜹":3009,"뜺":3010,"뜻":3011,"뜼":3012,"뜽":3013,"뜾":3014,"뜿":3015,"띀":3016,"띁":3017,"띂":3018,"띃":3019,"띄":3020,"띅":3021,"띆":3022,"띇":3023,"띉":3024,"띊":3025,"띋":3026,"띍":3027,"띎":3028,"띏":3029,"띐":3030,"띑":3031,"띒":3032,"띓":3033,"띔":3034,"띕":3035,"띖":3036,"띗":3037,"띘":3038,"띙":3039,"띚":3040,"띛":3041,"띜":3042,"띝":3043,"띞":3044,"띟":3045,"띠":3046,"띡":3047,"띢":3048,"띣":3049,"띤":3050,"띥":3051,"띦":3052,"띧":3053,"띨":3054,"띩":3055,"띪":3056,"띫":3057,"띬":3058,"띭":3059,"띮":3060,"띯":3061,"띰":3062,"띱":3063,"띲":3064,"띳":3065,"띴":3066,"띵":3067,"띶":3068,"띷":3069,"띸":3070,"띹":3071,"띺":3072,"띻":3073,"라":3074,"락":3075,"띾":3076,"띿":3077,"란":3078,"랁":3079,"랂":3080,"랃":3081,"랄":3082,"랅":3083,"랆":3084,"랇":3085,"랈":3086,"랉":3087,"랊":3088,"랋":3089,"람":3090,"랍":3091,"랎":3092,"랏":3093,"랐":3094,"랑":3095,"랒":3096,"랓":3097,"랔":3098,"랕":3099,"랖":3100,"랗":3101,"래":3102,"랙":3103,"랚":3104,"랛":3105,"랜":3106,"랝":3107,"랞":3108,"랟":3109,"랠":3110,"랡":3111,"랢":3112,"랣":3113,"랤":3114,"랥":3115,"랦":3116,"랧":3117,"램":3118,"랩":3119,"랪":3120,"랫":3121,"랬":3122,"랭":3123,"랮":3124,"랯":3125,"랰":3126,"랱":3127,"랲":3128,"랳":3129,"랴":3130,"략":3131,"랶":3132,"랷":3133,"랸":3134,"랹":3135,"랺":3136,"랻":3137,"랼":3138,"랽":3139,"랾":3140,"랿":3141,"럀":3142,"럁":3143,"럂":3144,"럃":3145,"럄":3146,"럅":3147,"럆":3148,"럇":3149,"럈":3150,"량":3151,"럊":3152,"럋":3153,"럌":3154,"럍":3155,"럎":3156,"럏":3157,"럐":3158,"럑":3159,"럒":3160,"럓":3161,"럔":3162,"럕":3163,"럖":3164,"럗":3165,"럘":3166,"럙":3167,"럚":3168,"럛":3169,"럜":3170,"럝":3171,"럞":3172,"럟":3173,"럠":3174,"럡":3175,"럢":3176,"럣":3177,"럤":3178,"럥":3179,"럦":3180,"럧":3181,"럨":3182,"럩":3183,"럪":3184,"럫":3185,"러":3186,"럭":3187,"럮":3188,"럯":3189,"런":3190,"럱":3191,"럲":3192,"럳":3193,"럴":3194,"럵":3195,"럶":3196,"럷":3197,"럸":3198,"럹":3199,"럺":3200,"럻":3201,"럼":3202,"럽":3203,"럾":3204,"럿":3205,"렀":3206,"렁":3207,"렂":3208,"렃":3209,"렄":3210,"렅":3211,"렆":3212,"렇":3213,"레":3214,"렉":3215,"렊":3216,"렋":3217,"렌":3218,"렍":3219,"렎":3220,"렏":3221,"렐":3222,"렑":3223,"렒":3224,"렓":3225,"렔":3226,"렕":3227,"렖":3228,"렗":3229,"렘":3230,"렙":3231,"렚":3232,"렛":3233,"렜":3234,"렝":3235,"렞":3236,"렟":3237,"렠":3238,"렡":3239,"렢":3240,"렣":3241,"려":3242,"력":3243,"렦":3244,"렧":3245,"련":3246,"렩":3247,"렪":3248,"렫":3249,"렬":3250,"렭":3251,"렮":3252,"렯":3253,"렰":3254,"렱":3255,"렲":3256,"렳":3257,"렴":3258,"렵":3259,"렶":3260,"렷":3261,"렸":3262,"령":3263,"렺":3264,"렻":3265,"렼":3266,"렽":3267,"렾":3268,"렿":3269,"례":3270,"롁":3271,"롂":3272,"롃":3273,"롄":3274,"롅":3275,"롆":3276,"롇":3277,"롈":3278,"롉":3279,"롊":3280,"롋":3281,"롌":3282,"롍":3283,"롎":3284,"롏":3285,"롐":3286,"롑":3287,"롒":3288,"롓":3289,"롔":3290,"롕":3291,"롖":3292,"롗":3293,"롘":3294,"롙":3295,"롚":3296,"롛":3297,"로":3298,"록":3299,"롞":3300,"롟":3301,"론":3302,"롡":3303,"롢":3304,"롣":3305,"롤":3306,"롥":3307,"롦":3308,"롧":3309,"롨":3310,"롩":3311,"롪":3312,"롫":3313,"롬":3314,"롭":3315,"롮":3316,"롯":3317,"롰":3318,"롱":3319,"롲":3320,"롳":3321,"롴":3322,"롵":3323,"롶":3324,"롷":3325,"롸":3326,"롹":3327,"롺":3328,"롻":3329,"롼":3330,"롽":3331,"롾":3332,"롿":3333,"뢀":3334,"뢁":3335,"뢂":3336,"뢃":3337,"뢄":3338,"뢅":3339,"뢆":3340,"뢇":3341,"뢈":3342,"뢉":3343,"뢊":3344,"뢋":3345,"뢌":3346,"뢍":3347,"뢎":3348,"뢏":3349,"뢐":3350,"뢑":3351,"뢒":3352,"뢓":3353,"뢔":3354,"뢕":3355,"뢖":3356,"뢗":3357,"뢘":3358,"뢙":3359,"뢚":3360,"뢛":3361,"뢜":3362,"뢝":3363,"뢞":3364,"뢟":3365,"뢠":3366,"뢡":3367,"뢢":3368,"뢣":3369,"뢤":3370,"뢥":3371,"뢦":3372,"뢧":3373,"뢨":3374,"뢩":3375,"뢪":3376,"뢫":3377,"뢬":3378,"뢭":3379,"뢮":3380,"뢯":3381,"뢰":3382,"뢱":3383,"뢲":3384,"뢳":3385,"뢴":3386,"뢵":3387,"뢶":3388,"뢷":3389,"뢸":3390,"뢹":3391,"뢺":3392,"뢻":3393,"뢼":3394,"뢽":3395,"뢾":3396,"뢿":3397,"룀":3398,"룁":3399,"룂":3400,"룃":3401,"룄":3402,"룅":3403,"룆":3404,"룇":3405,"룈":3406,"룉":3407,"룊":3408,"룋":3409,"료":3410,"룍":3411,"룎":3412,"룏":3413,"룐":3414,"룑":3415,"룒":3416,"룓":3417,"룔":3418,"룕":3419,"룖":3420,"룗":3421,"룘":3422,"룙":3423,"룚":3424,"룛":3425,"룜":3426,"룝":3427,"룞":3428,"룟":3429,"룠":3430,"룡":3431,"룢":3432,"룣":3433,"룤":3434,"룥":3435,"룦":3436,"룧":3437,"루":3438,"룩":3439,"룪":3440,"룫":3441,"룬":3442,"룭":3443,"룮":3444,"룯":3445,"룰":3446,"룱":3447,"룲":3448,"룳":3449,"룴":3450,"룵":3451,"룶":3452,"룷":3453,"룸":3454,"룹":3455,"룺":3456,"룻":3457,"룼":3458,"룽":3459,"룾":3460,"룿":3461,"뤀":3462,"뤁":3463,"뤂":3464,"뤃":3465,"뤄":3466,"뤅":3467,"뤆":3468,"뤇":3469,"뤈":3470,"뤉":3471,"뤊":3472,"뤋":3473,"뤌":3474,"뤍":3475,"뤎":3476,"뤏":3477,"뤐":3478,"뤑":3479,"뤒":3480,"뤓":3481,"뤔":3482,"뤕":3483,"뤖":3484,"뤗":3485,"뤘":3486,"뤙":3487,"뤚":3488,"뤛":3489,"뤜":3490,"뤝":3491,"뤞":3492,"뤟":3493,"뤠":3494,"뤡":3495,"뤢":3496,"뤣":3497,"뤤":3498,"뤥":3499,"뤦":3500,"뤧":3501,"뤨":3502,"뤩":3503,"뤪":3504,"뤫":3505,"뤬":3506,"뤭":3507,"뤮":3508,"뤯":3509,"뤰":3510,"뤱":3511,"뤲":3512,"뤳":3513,"뤴":3514,"뤵":3515,"뤶":3516,"뤷":3517,"뤸":3518,"뤹":3519,"뤺":3520,"뤻":3521,"뤼":3522,"뤽":3523,"뤾":3524,"뤿":3525,"륀":3526,"륁":3527,"륂":3528,"륃":3529,"륄":3530,"륅":3531,"륆":3532,"륇":3533,"륈":3534,"륉":3535,"륊":3536,"륋":3537,"륌":3538,"륍":3539,"륎":3540,"륏":3541,"륐":3542,"륑":3543,"륒":3544,"륓":3545,"륔":3546,"륕":3547,"륖":3548,"륗":3549,"류":3550,"륙":3551,"륚":3552,"륛":3553,"륜":3554,"륝":3555,"륞":3556,"륟":3557,"률":3558,"륡":3559,"륢":3560,"륣":3561,"륤":3562,"륥":3563,"륦":3564,"륧":3565,"륨":3566,"륩":3567,"륪":3568,"륫":3569,"륬":3570,"륭":3571,"륮":3572,"륯":3573,"륰":3574,"륱":3575,"륲":3576,"륳":3577,"르":3578,"륵":3579,"륶":3580,"륷":3581,"른":3582,"륹":3583,"륺":3584,"륻":3585,"를":3586,"륽":3587,"륾":3588,"륿":3589,"릀":3590,"릁":3591,"릂":3592,"릃":3593,"름":3594,"릅":3595,"릆":3596,"릇":3597,"릈":3598,"릉":3599,"릊":3600,"릋":3601,"릌":3602,"릍":3603,"릎":3604,"릏":3605,"릐":3606,"릑":3607,"릒":3608,"릓":3609,"릔":3610,"릕":3611,"릖":3612,"릗":3613,"릘":3614,"릙":3615,"릚":3616,"릛":3617,"릜":3618,"릝":3619,"릞":3620,"릟":3621,"릠":3622,"릡":3623,"릢":3624,"릣":3625,"릤":3626,"릥":3627,"릦":3628,"릧":3629,"릨":3630,"릩":3631,"릪":3632,"릫":3633,"리":3634,"릭":3635,"릮":3636,"릯":3637,"린":3638,"릱":3639,"릲":3640,"릳":3641,"릴":3642,"릵":3643,"릶":3644,"릷":3645,"릸":3646,"릹":3647,"릺":3648,"릻":3649,"림":3650,"립":3651,"릾":3652,"릿":3653,"맀":3654,"링":3655,"맂":3656,"맃":3657,"맄":3658,"맅":3659,"맆":3660,"맇":3661,"마":3662,"막":3663,"맊":3664,"맋":3665,"만":3666,"맍":3667,"많":3668,"맏":3669,"말":3670,"맑":3671,"맒":3672,"맓":3673,"맔":3674,"맕":3675,"맖":3676,"맗":3677,"맘":3678,"맙":3679,"맚":3680,"맛":3681,"맜":3682,"망":3683,"맞":3684,"맟":3685,"맠":3686,"맡":3687,"맢":3688,"맣":3689,"매":3690,"맥":3691,"맦":3692,"맧":3693,"맨":3694,"맩":3695,"맪":3696,"맫":3697,"맬":3698,"맭":3699,"맮":3700,"맯":3701,"맰":3702,"맱":3703,"맲":3704,"맳":3705,"맴":3706,"맵":3707,"맶":3708,"맷":3709,"맹":3710,"맺":3711,"맻":3712,"맼":3713,"맽":3714,"맾":3715,"맿":3716,"먀":3717,"먁":3718,"먂":3719,"먃":3720,"먄":3721,"먅":3722,"먆":3723,"먇":3724,"먈":3725,"먉":3726,"먊":3727,"먋":3728,"먌":3729,"먍":3730,"먎":3731,"먏":3732,"먐":3733,"먑":3734,"먒":3735,"먓":3736,"먔":3737,"먕":3738,"먖":3739,"먗":3740,"먘":3741,"먙":3742,"먚":3743,"먛":3744,"먜":3745,"먝":3746,"먞":3747,"먟":3748,"먠":3749,"먡":3750,"먢":3751,"먣":3752,"먤":3753,"먥":3754,"먦":3755,"먧":3756,"먨":3757,"먩":3758,"먪":3759,"먫":3760,"먬":3761,"먭":3762,"먮":3763,"먯":3764,"먰":3765,"먱":3766,"먲":3767,"먳":3768,"먴":3769,"먵":3770,"먶":3771,"먷":3772,"머":3773,"먹":3774,"먺":3775,"먻":3776,"먼":3777,"먽":3778,"먾":3779,"먿":3780,"멀":3781,"멁":3782,"멂":3783,"멃":3784,"멄":3785,"멅":3786,"멆":3787,"멇":3788,"멈":3789,"멉":3790,"멊":3791,"멋":3792,"멌":3793,"멍":3794,"멎":3795,"멏":3796,"멐":3797,"멑":3798,"멒":3799,"멓":3800,"메":3801,"멕":3802,"멖":3803,"멗":3804,"멘":3805,"멙":3806,"멚":3807,"멛":3808,"멜":3809,"멝":3810,"멞":3811,"멟":3812,"멠":3813,"멡":3814,"멢":3815,"멣":3816,"멤":3817,"멥":3818,"멦":3819,"멧":3820,"멨":3821,"멩":3822,"멪":3823,"멫":3824,"멬":3825,"멭":3826,"멮":3827,"멯":3828,"며":3829,"멱":3830,"멲":3831,"멳":3832,"면":3833,"멵":3834,"멶":3835,"멷":3836,"멸":3837,"멹":3838,"멺":3839,"멻":3840,"멼":3841,"멽":3842,"멾":3843,"멿":3844,"몀":3845,"몁":3846,"몂":3847,"몃":3848,"몄":3849,"명":3850,"몆":3851,"몇":3852,"몈":3853,"몉":3854,"몊":3855,"몋":3856,"몌":3857,"몍":3858,"몎":3859,"몏":3860,"몐":3861,"몑":3862,"몒":3863,"몓":3864,"몔":3865,"몕":3866,"몖":3867,"몗":3868,"몘":3869,"몙":3870,"몚":3871,"몛":3872,"몜":3873,"몝":3874,"몞":3875,"몟":3876,"몠":3877,"몡":3878,"몢":3879,"몣":3880,"몤":3881,"몥":3882,"몦":3883,"몧":3884,"모":3885,"목":3886,"몪":3887,"몫":3888,"몬":3889,"몭":3890,"몮":3891,"몯":3892,"몰":3893,"몱":3894,"몲":3895,"몳":3896,"몴":3897,"몵":3898,"몶":3899,"몷":3900,"몸":3901,"몹":3902,"몺":3903,"못":3904,"몼":3905,"몽":3906,"몾":3907,"몿":3908,"뫀":3909,"뫁":3910,"뫂":3911,"뫃":3912,"뫄":3913,"뫅":3914,"뫆":3915,"뫇":3916,"뫈":3917,"뫉":3918,"뫊":3919,"뫋":3920,"뫌":3921,"뫍":3922,"뫎":3923,"뫏":3924,"뫐":3925,"뫑":3926,"뫒":3927,"뫓":3928,"뫔":3929,"뫕":3930,"뫖":3931,"뫗":3932,"뫘":3933,"뫙":3934,"뫚":3935,"뫛":3936,"뫜":3937,"뫝":3938,"뫞":3939,"뫟":3940,"뫠":3941,"뫡":3942,"뫢":3943,"뫣":3944,"뫤":3945,"뫥":3946,"뫦":3947,"뫧":3948,"뫨":3949,"뫩":3950,"뫪":3951,"뫫":3952,"뫬":3953,"뫭":3954,"뫮":3955,"뫯":3956,"뫰":3957,"뫱":3958,"뫲":3959,"뫳":3960,"뫴":3961,"뫵":3962,"뫶":3963,"뫷":3964,"뫸":3965,"뫹":3966,"뫺":3967,"뫻":3968,"뫼":3969,"뫽":3970,"뫾":3971,"뫿":3972,"묀":3973,"묁":3974,"묂":3975,"묃":3976,"묄":3977,"묅":3978,"묆":3979,"묇":3980,"묈":3981,"묉":3982,"묊":3983,"묋":3984,"묌":3985,"묍":3986,"묎":3987,"묏":3988,"묐":3989,"묑":3990,"묒":3991,"묓":3992,"묔":3993,"묕":3994,"묖":3995,"묗":3996,"묘":3997,"묙":3998,"묚":3999,"묛":4000,"묜":4001,"묝":4002,"묞":4003,"묟":4004,"묠":4005,"묡":4006,"묢":4007,"묣":4008,"묤":4009,"묥":4010,"묦":4011,"묧":4012,"묨":4013,"묩":4014,"묪":4015,"묫":4016,"묬":4017,"묭":4018,"묮":4019,"묯":4020,"묰":4021,"묱":4022,"묲":4023,"묳":4024,"무":4025,"묵":4026,"묶":4027,"묷":4028,"문":4029,"묹":4030,"묺":4031,"묻":4032,"물":4033,"묽":4034,"묾":4035,"묿":4036,"뭀":4037,"뭁":4038,"뭂":4039,"뭃":4040,"뭄":4041,"뭅":4042,"뭆":4043,"뭇":4044,"뭈":4045,"뭉":4046,"뭊":4047,"뭋":4048,"뭌":4049,"뭍":4050,"뭎":4051,"뭏":4052,"뭐":4053,"뭑":4054,"뭒":4055,"뭓":4056,"뭔":4057,"뭕":4058,"뭖":4059,"뭗":4060,"뭘":4061,"뭙":4062,"뭚":4063,"뭛":4064,"뭜":4065,"뭝":4066,"뭞":4067,"뭟":4068,"뭠":4069,"뭡":4070,"뭢":4071,"뭣":4072,"뭤":4073,"뭥":4074,"뭦":4075,"뭧":4076,"뭨":4077,"뭩":4078,"뭪":4079,"뭫":4080,"뭬":4081,"뭭":4082,"뭮":4083,"뭯":4084,"뭰":4085,"뭱":4086,"뭲":4087,"뭳":4088,"뭴":4089,"뭵":4090,"뭶":4091,"뭷":4092,"뭸":4093,"뭹":4094,"뭺":4095,"뭻":4096,"뭼":4097,"뭽":4098,"뭾":4099,"뭿":4100,"뮀":4101,"뮁":4102,"뮂":4103,"뮃":4104,"뮄":4105,"뮅":4106,"뮆":4107,"뮇":4108,"뮈":4109,"뮉":4110,"뮊":4111,"뮋":4112,"뮌":4113,"뮍":4114,"뮎":4115,"뮏":4116,"뮐":4117,"뮑":4118,"뮒":4119,"뮓":4120,"뮔":4121,"뮕":4122,"뮖":4123,"뮗":4124,"뮘":4125,"뮙":4126,"뮚":4127,"뮛":4128,"뮜":4129,"뮝":4130,"뮞":4131,"뮟":4132,"뮠":4133,"뮡":4134,"뮢":4135,"뮣":4136,"뮤":4137,"뮥":4138,"뮦":4139,"뮧":4140,"뮨":4141,"뮩":4142,"뮪":4143,"뮫":4144,"뮬":4145,"뮭":4146,"뮮":4147,"뮯":4148,"뮰":4149,"뮱":4150,"뮲":4151,"뮳":4152,"뮴":4153,"뮵":4154,"뮶":4155,"뮷":4156,"뮸":4157,"뮹":4158,"뮺":4159,"뮻":4160,"뮼":4161,"뮽":4162,"뮾":4163,"뮿":4164,"므":4165,"믁":4166,"믂":4167,"믃":4168,"믄":4169,"믅":4170,"믆":4171,"믇":4172,"믈":4173,"믉":4174,"믊":4175,"믋":4176,"믌":4177,"믍":4178,"믎":4179,"믏":4180,"믐":4181,"믑":4182,"믒":4183,"믓":4184,"믔":4185,"믕":4186,"믖":4187,"믗":4188,"믘":4189,"믙":4190,"믚":4191,"믛":4192,"믜":4193,"믝":4194,"믞":4195,"믟":4196,"믠":4197,"믡":4198,"믢":4199,"믣":4200,"믤":4201,"믥":4202,"믦":4203,"믧":4204,"믨":4205,"믩":4206,"믪":4207,"믫":4208,"믬":4209,"믭":4210,"믮":4211,"믯":4212,"믰":4213,"믱":4214,"믲":4215,"믳":4216,"믴":4217,"믵":4218,"믶":4219,"믷":4220,"미":4221,"믹":4222,"믺":4223,"믻":4224,"민":4225,"믽":4226,"믾":4227,"믿":4228,"밀":4229,"밁":4230,"밂":4231,"밃":4232,"밄":4233,"밅":4234,"밆":4235,"밇":4236,"밈":4237,"밉":4238,"밊":4239,"밋":4240,"밌":4241,"밍":4242,"밎":4243,"및":4244,"밐":4245,"밑":4246,"밒":4247,"밓":4248,"바":4249,"박":4250,"밖":4251,"밗":4252,"반":4253,"밙":4254,"밚":4255,"받":4256,"발":4257,"밝":4258,"밞":4259,"밟":4260,"밠":4261,"밡":4262,"밢":4263,"밣":4264,"밤":4265,"밥":4266,"밦":4267,"밧":4268,"밨":4269,"방":4270,"밪":4271,"밫":4272,"밬":4273,"밭":4274,"밮":4275,"밯":4276,"배":4277,"백":4278,"밲":4279,"밳":4280,"밴":4281,"밵":4282,"밶":4283,"밷":4284,"밸":4285,"밹":4286,"밺":4287,"밻":4288,"밼":4289,"밽":4290,"밾":4291,"밿":4292,"뱀":4293,"뱁":4294,"뱂":4295,"뱃":4296,"뱅":4297,"뱆":4298,"뱇":4299,"뱈":4300,"뱉":4301,"뱊":4302,"뱋":4303,"뱌":4304,"뱍":4305,"뱎":4306,"뱏":4307,"뱐":4308,"뱑":4309,"뱒":4310,"뱓":4311,"뱔":4312,"뱕":4313,"뱖":4314,"뱗":4315,"뱘":4316,"뱙":4317,"뱚":4318,"뱛":4319,"뱜":4320,"뱝":4321,"뱞":4322,"뱟":4323,"뱠":4324,"뱡":4325,"뱢":4326,"뱣":4327,"뱤":4328,"뱥":4329,"뱦":4330,"뱧":4331,"뱨":4332,"뱩":4333,"뱪":4334,"뱫":4335,"뱬":4336,"뱭":4337,"뱮":4338,"뱯":4339,"뱰":4340,"뱱":4341,"뱲":4342,"뱳":4343,"뱴":4344,"뱵":4345,"뱶":4346,"뱷":4347,"뱸":4348,"뱹":4349,"뱺":4350,"뱻":4351,"뱼":4352,"뱽":4353,"뱾":4354,"뱿":4355,"벀":4356,"벁":4357,"벂":4358,"벃":4359,"버":4360,"벅":4361,"벆":4362,"벇":4363,"번":4364,"벉":4365,"벊":4366,"벋":4367,"벌":4368,"벍":4369,"벎":4370,"벏":4371,"벐":4372,"벑":4373,"벒":4374,"벓":4375,"범":4376,"법":4377,"벖":4378,"벗":4379,"벘":4380,"벙":4381,"벚":4382,"벛":4383,"벜":4384,"벝":4385,"벞":4386,"벟":4387,"베":4388,"벡":4389,"벢":4390,"벣":4391,"벤":4392,"벥":4393,"벦":4394,"벧":4395,"벨":4396,"벩":4397,"벪":4398,"벫":4399,"벬":4400,"벭":4401,"벮":4402,"벯":4403,"벰":4404,"벱":4405,"벲":4406,"벳":4407,"벴":4408,"벵":4409,"벶":4410,"벷":4411,"벸":4412,"벹":4413,"벺":4414,"벻":4415,"벼":4416,"벽":4417,"벾":4418,"벿":4419,"변":4420,"볁":4421,"볂":4422,"볃":4423,"별":4424,"볅":4425,"볆":4426,"볇":4427,"볈":4428,"볉":4429,"볊":4430,"볋":4431,"볌":4432,"볍":4433,"볎":4434,"볏":4435,"볐":4436,"병":4437,"볒":4438,"볓":4439,"볔":4440,"볕":4441,"볖":4442,"볗":4443,"볘":4444,"볙":4445,"볚":4446,"볛":4447,"볜":4448,"볝":4449,"볞":4450,"볟":4451,"볠":4452,"볡":4453,"볢":4454,"볣":4455,"볤":4456,"볥":4457,"볦":4458,"볧":4459,"볨":4460,"볩":4461,"볪":4462,"볫":4463,"볬":4464,"볭":4465,"볮":4466,"볯":4467,"볰":4468,"볱":4469,"볲":4470,"볳":4471,"보":4472,"복":4473,"볶":4474,"볷":4475,"본":4476,"볹":4477,"볺":4478,"볻":4479,"볼":4480,"볽":4481,"볾":4482,"볿":4483,"봀":4484,"봁":4485,"봂":4486,"봃":4487,"봄":4488,"봅":4489,"봆":4490,"봇":4491,"봈":4492,"봉":4493,"봊":4494,"봋":4495,"봌":4496,"봍":4497,"봎":4498,"봏":4499,"봐":4500,"봑":4501,"봒":4502,"봓":4503,"봔":4504,"봕":4505,"봖":4506,"봗":4507,"봘":4508,"봙":4509,"봚":4510,"봛":4511,"봜":4512,"봝":4513,"봞":4514,"봟":4515,"봠":4516,"봡":4517,"봢":4518,"봣":4519,"봤":4520,"봥":4521,"봦":4522,"봧":4523,"봨":4524,"봩":4525,"봪":4526,"봫":4527,"봬":4528,"봭":4529,"봮":4530,"봯":4531,"봰":4532,"봱":4533,"봲":4534,"봳":4535,"봴":4536,"봵":4537,"봶":4538,"봷":4539,"봸":4540,"봹":4541,"봺":4542,"봻":4543,"봼":4544,"봽":4545,"봾":4546,"봿":4547,"뵁":4548,"뵂":4549,"뵃":4550,"뵄":4551,"뵅":4552,"뵆":4553,"뵇":4554,"뵈":4555,"뵉":4556,"뵊":4557,"뵋":4558,"뵍":4559,"뵎":4560,"뵏":4561,"뵐":4562,"뵑":4563,"뵒":4564,"뵓":4565,"뵔":4566,"뵕":4567,"뵖":4568,"뵗":4569,"뵘":4570,"뵙":4571,"뵚":4572,"뵛":4573,"뵝":4574,"뵞":4575,"뵟":4576,"뵠":4577,"뵡":4578,"뵢":4579,"뵣":4580,"뵤":4581,"뵥":4582,"뵦":4583,"뵧":4584,"뵨":4585,"뵩":4586,"뵪":4587,"뵫":4588,"뵬":4589,"뵭":4590,"뵮":4591,"뵯":4592,"뵰":4593,"뵱":4594,"뵲":4595,"뵳":4596,"뵴":4597,"뵵":4598,"뵶":4599,"뵷":4600,"뵸":4601,"뵹":4602,"뵺":4603,"뵻":4604,"뵼":4605,"뵽":4606,"뵾":4607,"뵿":4608,"부":4609,"북":4610,"붂":4611,"붃":4612,"분":4613,"붅":4614,"붆":4615,"붇":4616,"불":4617,"붉":4618,"붊":4619,"붋":4620,"붌":4621,"붍":4622,"붎":4623,"붏":4624,"붐":4625,"붑":4626,"붒":4627,"붓":4628,"붔":4629,"붕":4630,"붖":4631,"붗":4632,"붘":4633,"붙":4634,"붚":4635,"붛":4636,"붜":4637,"붝":4638,"붞":4639,"붟":4640,"붠":4641,"붡":4642,"붢":4643,"붣":4644,"붤":4645,"붥":4646,"붦":4647,"붧":4648,"붨":4649,"붩":4650,"붪":4651,"붫":4652,"붬":4653,"붭":4654,"붮":4655,"붯":4656,"붰":4657,"붱":4658,"붲":4659,"붳":4660,"붴":4661,"붵":4662,"붶":4663,"붷":4664,"붸":4665,"붹":4666,"붺":4667,"붻":4668,"붼":4669,"붽":4670,"붾":4671,"붿":4672,"뷀":4673,"뷁":4674,"뷂":4675,"뷃":4676,"뷄":4677,"뷅":4678,"뷆":4679,"뷇":4680,"뷈":4681,"뷉":4682,"뷊":4683,"뷋":4684,"뷌":4685,"뷍":4686,"뷎":4687,"뷏":4688,"뷐":4689,"뷑":4690,"뷒":4691,"뷓":4692,"뷔":4693,"뷕":4694,"뷖":4695,"뷗":4696,"뷘":4697,"뷙":4698,"뷚":4699,"뷛":4700,"뷜":4701,"뷝":4702,"뷞":4703,"뷟":4704,"뷠":4705,"뷡":4706,"뷢":4707,"뷣":4708,"뷤":4709,"뷥":4710,"뷦":4711,"뷧":4712,"뷨":4713,"뷩":4714,"뷪":4715,"뷫":4716,"뷬":4717,"뷭":4718,"뷮":4719,"뷯":4720,"뷰":4721,"뷱":4722,"뷲":4723,"뷳":4724,"뷴":4725,"뷵":4726,"뷶":4727,"뷷":4728,"뷸":4729,"뷹":4730,"뷺":4731,"뷻":4732,"뷼":4733,"뷽":4734,"뷾":4735,"뷿":4736,"븀":4737,"븁":4738,"븂":4739,"븃":4740,"븄":4741,"븅":4742,"븆":4743,"븇":4744,"븈":4745,"븉":4746,"븊":4747,"븋":4748,"브":4749,"븍":4750,"븎":4751,"븏":4752,"븐":4753,"븑":4754,"븒":4755,"븓":4756,"블":4757,"븕":4758,"븖":4759,"븗":4760,"븘":4761,"븙":4762,"븚":4763,"븛":4764,"븜":4765,"븝":4766,"븞":4767,"븟":4768,"븠":4769,"븡":4770,"븢":4771,"븣":4772,"븤":4773,"븥":4774,"븦":4775,"븧":4776,"븨":4777,"븩":4778,"븪":4779,"븫":4780,"븬":4781,"븭":4782,"븮":4783,"븯":4784,"븰":4785,"븱":4786,"븲":4787,"븳":4788,"븴":4789,"븵":4790,"븶":4791,"븷":4792,"븸":4793,"븹":4794,"븺":4795,"븻":4796,"븼":4797,"븽":4798,"븾":4799,"븿":4800,"빀":4801,"빁":4802,"빂":4803,"빃":4804,"비":4805,"빅":4806,"빆":4807,"빇":4808,"빈":4809,"빉":4810,"빊":4811,"빋":4812,"빌":4813,"빍":4814,"빎":4815,"빏":4816,"빐":4817,"빑":4818,"빒":4819,"빓":4820,"빔":4821,"빕":4822,"빖":4823,"빗":4824,"빘":4825,"빙":4826,"빚":4827,"빛":4828,"빜":4829,"빝":4830,"빞":4831,"빟":4832,"빠":4833,"빡":4834,"빢":4835,"빣":4836,"빤":4837,"빥":4838,"빦":4839,"빧":4840,"빨":4841,"빩":4842,"빪":4843,"빫":4844,"빬":4845,"빭":4846,"빮":4847,"빯":4848,"빰":4849,"빱":4850,"빲":4851,"빳":4852,"빴":4853,"빵":4854,"빶":4855,"빷":4856,"빸":4857,"빹":4858,"빺":4859,"빻":4860,"빼":4861,"빽":4862,"빾":4863,"빿":4864,"뺀":4865,"뺁":4866,"뺂":4867,"뺃":4868,"뺄":4869,"뺅":4870,"뺆":4871,"뺇":4872,"뺈":4873,"뺉":4874,"뺊":4875,"뺋":4876,"뺌":4877,"뺍":4878,"뺎":4879,"뺏":4880,"뺐":4881,"뺑":4882,"뺒":4883,"뺓":4884,"뺔":4885,"뺕":4886,"뺖":4887,"뺗":4888,"뺘":4889,"뺙":4890,"뺚":4891,"뺛":4892,"뺜":4893,"뺝":4894,"뺞":4895,"뺟":4896,"뺠":4897,"뺡":4898,"뺢":4899,"뺣":4900,"뺤":4901,"뺥":4902,"뺦":4903,"뺧":4904,"뺨":4905,"뺩":4906,"뺪":4907,"뺫":4908,"뺬":4909,"뺭":4910,"뺮":4911,"뺯":4912,"뺰":4913,"뺱":4914,"뺲":4915,"뺳":4916,"뺴":4917,"뺵":4918,"뺶":4919,"뺷":4920,"뺸":4921,"뺹":4922,"뺺":4923,"뺻":4924,"뺼":4925,"뺽":4926,"뺾":4927,"뺿":4928,"뻀":4929,"뻁":4930,"뻂":4931,"뻃":4932,"뻄":4933,"뻅":4934,"뻆":4935,"뻇":4936,"뻈":4937,"뻉":4938,"뻊":4939,"뻋":4940,"뻌":4941,"뻍":4942,"뻎":4943,"뻏":4944,"뻐":4945,"뻑":4946,"뻒":4947,"뻓":4948,"뻔":4949,"뻕":4950,"뻖":4951,"뻗":4952,"뻘":4953,"뻙":4954,"뻚":4955,"뻛":4956,"뻜":4957,"뻝":4958,"뻞":4959,"뻟":4960,"뻠":4961,"뻡":4962,"뻢":4963,"뻣":4964,"뻤":4965,"뻥":4966,"뻦":4967,"뻧":4968,"뻨":4969,"뻩":4970,"뻪":4971,"뻫":4972,"뻬":4973,"뻭":4974,"뻮":4975,"뻯":4976,"뻰":4977,"뻱":4978,"뻲":4979,"뻳":4980,"뻴":4981,"뻵":4982,"뻶":4983,"뻷":4984,"뻸":4985,"뻹":4986,"뻺":4987,"뻻":4988,"뻼":4989,"뻽":4990,"뻾":4991,"뻿":4992,"뼀":4993,"뼁":4994,"뼂":4995,"뼃":4996,"뼄":4997,"뼅":4998,"뼆":4999,"뼇":5000,"뼈":5001,"뼉":5002,"뼊":5003,"뼋":5004,"뼌":5005,"뼍":5006,"뼎":5007,"뼏":5008,"뼐":5009,"뼑":5010,"뼒":5011,"뼓":5012,"뼔":5013,"뼕":5014,"뼖":5015,"뼗":5016,"뼘":5017,"뼙":5018,"뼚":5019,"뼛":5020,"뼜":5021,"뼝":5022,"뼞":5023,"뼟":5024,"뼠":5025,"뼡":5026,"뼢":5027,"뼣":5028,"뼤":5029,"뼥":5030,"뼦":5031,"뼧":5032,"뼨":5033,"뼩":5034,"뼪":5035,"뼫":5036,"뼬":5037,"뼭":5038,"뼮":5039,"뼯":5040,"뼰":5041,"뼱":5042,"뼲":5043,"뼳":5044,"뼴":5045,"뼵":5046,"뼶":5047,"뼷":5048,"뼸":5049,"뼹":5050,"뼺":5051,"뼻":5052,"뼼":5053,"뼽":5054,"뼾":5055,"뼿":5056,"뽀":5057,"뽁":5058,"뽂":5059,"뽃":5060,"뽄":5061,"뽅":5062,"뽆":5063,"뽇":5064,"뽈":5065,"뽉":5066,"뽊":5067,"뽋":5068,"뽌":5069,"뽍":5070,"뽎":5071,"뽏":5072,"뽐":5073,"뽑":5074,"뽒":5075,"뽓":5076,"뽔":5077,"뽕":5078,"뽖":5079,"뽗":5080,"뽘":5081,"뽙":5082,"뽚":5083,"뽛":5084,"뽜":5085,"뽝":5086,"뽞":5087,"뽟":5088,"뽠":5089,"뽡":5090,"뽢":5091,"뽣":5092,"뽤":5093,"뽥":5094,"뽦":5095,"뽧":5096,"뽨":5097,"뽩":5098,"뽪":5099,"뽫":5100,"뽬":5101,"뽭":5102,"뽮":5103,"뽯":5104,"뽰":5105,"뽱":5106,"뽲":5107,"뽳":5108,"뽴":5109,"뽵":5110,"뽶":5111,"뽷":5112,"뽸":5113,"뽹":5114,"뽺":5115,"뽻":5116,"뽼":5117,"뽽":5118,"뽾":5119,"뽿":5120,"뾀":5121,"뾁":5122,"뾂":5123,"뾃":5124,"뾄":5125,"뾅":5126,"뾆":5127,"뾇":5128,"뾈":5129,"뾉":5130,"뾊":5131,"뾋":5132,"뾌":5133,"뾍":5134,"뾎":5135,"뾏":5136,"뾐":5137,"뾑":5138,"뾒":5139,"뾓":5140,"뾔":5141,"뾕":5142,"뾖":5143,"뾗":5144,"뾘":5145,"뾙":5146,"뾚":5147,"뾛":5148,"뾜":5149,"뾝":5150,"뾞":5151,"뾟":5152,"뾠":5153,"뾡":5154,"뾢":5155,"뾣":5156,"뾤":5157,"뾥":5158,"뾦":5159,"뾧":5160,"뾨":5161,"뾩":5162,"뾪":5163,"뾫":5164,"뾬":5165,"뾭":5166,"뾮":5167,"뾯":5168,"뾰":5169,"뾱":5170,"뾲":5171,"뾳":5172,"뾴":5173,"뾵":5174,"뾶":5175,"뾷":5176,"뾸":5177,"뾹":5178,"뾺":5179,"뾻":5180,"뾼":5181,"뾽":5182,"뾾":5183,"뾿":5184,"뿀":5185,"뿁":5186,"뿂":5187,"뿃":5188,"뿄":5189,"뿅":5190,"뿆":5191,"뿇":5192,"뿈":5193,"뿉":5194,"뿊":5195,"뿋":5196,"뿌":5197,"뿍":5198,"뿎":5199,"뿏":5200,"뿐":5201,"뿑":5202,"뿒":5203,"뿓":5204,"뿔":5205,"뿕":5206,"뿖":5207,"뿗":5208,"뿘":5209,"뿙":5210,"뿚":5211,"뿛":5212,"뿜":5213,"뿝":5214,"뿞":5215,"뿟":5216,"뿡":5217,"뿢":5218,"뿣":5219,"뿤":5220,"뿥":5221,"뿦":5222,"뿧":5223,"뿨":5224,"뿩":5225,"뿪":5226,"뿫":5227,"뿬":5228,"뿭":5229,"뿮":5230,"뿯":5231,"뿰":5232,"뿱":5233,"뿲":5234,"뿳":5235,"뿴":5236,"뿵":5237,"뿶":5238,"뿷":5239,"뿸":5240,"뿹":5241,"뿺":5242,"뿻":5243,"뿼":5244,"뿽":5245,"뿾":5246,"뿿":5247,"쀀":5248,"쀁":5249,"쀂":5250,"쀃":5251,"쀄":5252,"쀅":5253,"쀆":5254,"쀇":5255,"쀈":5256,"쀉":5257,"쀊":5258,"쀋":5259,"쀌":5260,"쀍":5261,"쀎":5262,"쀏":5263,"쀐":5264,"쀑":5265,"쀒":5266,"쀓":5267,"쀔":5268,"쀕":5269,"쀖":5270,"쀗":5271,"쀘":5272,"쀙":5273,"쀚":5274,"쀛":5275,"쀜":5276,"쀝":5277,"쀞":5278,"쀟":5279,"쀠":5280,"쀡":5281,"쀢":5282,"쀣":5283,"쀤":5284,"쀥":5285,"쀦":5286,"쀧":5287,"쀨":5288,"쀩":5289,"쀪":5290,"쀫":5291,"쀬":5292,"쀭":5293,"쀮":5294,"쀯":5295,"쀰":5296,"쀱":5297,"쀲":5298,"쀳":5299,"쀴":5300,"쀵":5301,"쀶":5302,"쀷":5303,"쀸":5304,"쀹":5305,"쀺":5306,"쀻":5307,"쀼":5308,"쀽":5309,"쀾":5310,"쀿":5311,"쁀":5312,"쁁":5313,"쁂":5314,"쁃":5315,"쁄":5316,"쁅":5317,"쁆":5318,"쁇":5319,"쁈":5320,"쁉":5321,"쁊":5322,"쁋":5323,"쁌":5324,"쁍":5325,"쁎":5326,"쁏":5327,"쁐":5328,"쁑":5329,"쁒":5330,"쁓":5331,"쁔":5332,"쁕":5333,"쁖":5334,"쁗":5335,"쁘":5336,"쁙":5337,"쁚":5338,"쁛":5339,"쁜":5340,"쁝":5341,"쁞":5342,"쁟":5343,"쁠":5344,"쁡":5345,"쁢":5346,"쁣":5347,"쁤":5348,"쁥":5349,"쁦":5350,"쁧":5351,"쁨":5352,"쁩":5353,"쁪":5354,"쁫":5355,"쁬":5356,"쁭":5357,"쁮":5358,"쁯":5359,"쁰":5360,"쁱":5361,"쁲":5362,"쁳":5363,"쁴":5364,"쁵":5365,"쁶":5366,"쁷":5367,"쁸":5368,"쁹":5369,"쁺":5370,"쁻":5371,"쁼":5372,"쁽":5373,"쁾":5374,"쁿":5375,"삀":5376,"삁":5377,"삂":5378,"삃":5379,"삄":5380,"삅":5381,"삆":5382,"삇":5383,"삈":5384,"삉":5385,"삊":5386,"삋":5387,"삌":5388,"삍":5389,"삎":5390,"삏":5391,"삐":5392,"삑":5393,"삒":5394,"삓":5395,"삔":5396,"삕":5397,"삖":5398,"삗":5399,"삘":5400,"삙":5401,"삚":5402,"삛":5403,"삜":5404,"삝":5405,"삞":5406,"삟":5407,"삠":5408,"삡":5409,"삢":5410,"삣":5411,"삤":5412,"삥":5413,"삦":5414,"삧":5415,"삨":5416,"삩":5417,"삪":5418,"삫":5419,"사":5420,"삭":5421,"삮":5422,"삯":5423,"산":5424,"삱":5425,"삲":5426,"삳":5427,"살":5428,"삵":5429,"삶":5430,"삷":5431,"삸":5432,"삹":5433,"삺":5434,"삻":5435,"삼":5436,"삽":5437,"삾":5438,"삿":5439,"상":5440,"샂":5441,"샃":5442,"샄":5443,"샅":5444,"샆":5445,"샇":5446,"새":5447,"색":5448,"샊":5449,"샋":5450,"샌":5451,"샍":5452,"샎":5453,"샏":5454,"샐":5455,"샑":5456,"샒":5457,"샓":5458,"샔":5459,"샕":5460,"샖":5461,"샗":5462,"샘":5463,"샙":5464,"샚":5465,"샛":5466,"생":5467,"샞":5468,"샟":5469,"샠":5470,"샡":5471,"샢":5472,"샣":5473,"샤":5474,"샥":5475,"샦":5476,"샧":5477,"샨":5478,"샩":5479,"샪":5480,"샫":5481,"샬":5482,"샭":5483,"샮":5484,"샯":5485,"샰":5486,"샱":5487,"샲":5488,"샳":5489,"샴":5490,"샵":5491,"샶":5492,"샷":5493,"샸":5494,"샹":5495,"샺":5496,"샻":5497,"샼":5498,"샽":5499,"샾":5500,"샿":5501,"섀":5502,"섁":5503,"섂":5504,"섃":5505,"섄":5506,"섅":5507,"섆":5508,"섇":5509,"섈":5510,"섉":5511,"섊":5512,"섋":5513,"섌":5514,"섍":5515,"섎":5516,"섏":5517,"섐":5518,"섑":5519,"섒":5520,"섓":5521,"섔":5522,"섕":5523,"섖":5524,"섗":5525,"섘":5526,"섙":5527,"섚":5528,"섛":5529,"서":5530,"석":5531,"섞":5532,"섟":5533,"선":5534,"섡":5535,"섢":5536,"섣":5537,"설":5538,"섥":5539,"섦":5540,"섧":5541,"섨":5542,"섩":5543,"섪":5544,"섫":5545,"섬":5546,"섭":5547,"섮":5548,"섯":5549,"섰":5550,"성":5551,"섲":5552,"섳":5553,"섴":5554,"섵":5555,"섶":5556,"섷":5557,"세":5558,"섹":5559,"섺":5560,"섻":5561,"센":5562,"섽":5563,"섿":5564,"셀":5565,"셁":5566,"셂":5567,"셃":5568,"셄":5569,"셅":5570,"셆":5571,"셇":5572,"셈":5573,"셉":5574,"셊":5575,"셋":5576,"셍":5577,"셎":5578,"셏":5579,"셐":5580,"셑":5581,"셒":5582,"셓":5583,"셔":5584,"셕":5585,"셖":5586,"셗":5587,"션":5588,"셙":5589,"셚":5590,"셛":5591,"셜":5592,"셝":5593,"셞":5594,"셟":5595,"셠":5596,"셡":5597,"셢":5598,"셣":5599,"셤":5600,"셥":5601,"셦":5602,"셧":5603,"셨":5604,"셩":5605,"셪":5606,"셫":5607,"셬":5608,"셭":5609,"셮":5610,"셯":5611,"셰":5612,"셱":5613,"셲":5614,"셳":5615,"셴":5616,"셵":5617,"셶":5618,"셷":5619,"셸":5620,"셹":5621,"셺":5622,"셻":5623,"셼":5624,"셽":5625,"셾":5626,"셿":5627,"솀":5628,"솁":5629,"솂":5630,"솃":5631,"솄":5632,"솅":5633,"솆":5634,"솇":5635,"솈":5636,"솉":5637,"솊":5638,"솋":5639,"소":5640,"속":5641,"솎":5642,"솏":5643,"손":5644,"솑":5645,"솒":5646,"솓":5647,"솔":5648,"솕":5649,"솖":5650,"솗":5651,"솘":5652,"솙":5653,"솚":5654,"솛":5655,"솜":5656,"솝":5657,"솞":5658,"솟":5659,"솠":5660,"송":5661,"솢":5662,"솣":5663,"솤":5664,"솥":5665,"솦":5666,"솧":5667,"솨":5668,"솩":5669,"솪":5670,"솫":5671,"솬":5672,"솭":5673,"솮":5674,"솯":5675,"솰":5676,"솱":5677,"솲":5678,"솳":5679,"솴":5680,"솵":5681,"솶":5682,"솷":5683,"솸":5684,"솹":5685,"솺":5686,"솻":5687,"솼":5688,"솽":5689,"솾":5690,"솿":5691,"쇀":5692,"쇁":5693,"쇂":5694,"쇃":5695,"쇄":5696,"쇅":5697,"쇆":5698,"쇇":5699,"쇈":5700,"쇉":5701,"쇊":5702,"쇋":5703,"쇌":5704,"쇍":5705,"쇎":5706,"쇏":5707,"쇐":5708,"쇑":5709,"쇒":5710,"쇓":5711,"쇔":5712,"쇕":5713,"쇖":5714,"쇗":5715,"쇘":5716,"쇙":5717,"쇚":5718,"쇛":5719,"쇜":5720,"쇝":5721,"쇞":5722,"쇟":5723,"쇠":5724,"쇡":5725,"쇢":5726,"쇣":5727,"쇤":5728,"쇥":5729,"쇦":5730,"쇧":5731,"쇨":5732,"쇩":5733,"쇪":5734,"쇫":5735,"쇬":5736,"쇭":5737,"쇮":5738,"쇯":5739,"쇰":5740,"쇱":5741,"쇲":5742,"쇳":5743,"쇴":5744,"쇵":5745,"쇶":5746,"쇷":5747,"쇸":5748,"쇹":5749,"쇺":5750,"쇻":5751,"쇼":5752,"쇽":5753,"쇾":5754,"쇿":5755,"숀":5756,"숁":5757,"숂":5758,"숃":5759,"숄":5760,"숅":5761,"숆":5762,"숇":5763,"숈":5764,"숉":5765,"숊":5766,"숋":5767,"숌":5768,"숍":5769,"숎":5770,"숏":5771,"숐":5772,"숑":5773,"숒":5774,"숓":5775,"숔":5776,"숕":5777,"숖":5778,"숗":5779,"수":5780,"숙":5781,"숚":5782,"숛":5783,"순":5784,"숝":5785,"숞":5786,"숟":5787,"술":5788,"숡":5789,"숢":5790,"숣":5791,"숤":5792,"숥":5793,"숦":5794,"숧":5795,"숨":5796,"숩":5797,"숪":5798,"숫":5799,"숬":5800,"숭":5801,"숮":5802,"숯":5803,"숰":5804,"숱":5805,"숲":5806,"숳":5807,"숴":5808,"숵":5809,"숶":5810,"숷":5811,"숸":5812,"숹":5813,"숺":5814,"숻":5815,"숼":5816,"숽":5817,"숾":5818,"숿":5819,"쉀":5820,"쉁":5821,"쉂":5822,"쉃":5823,"쉄":5824,"쉅":5825,"쉆":5826,"쉇":5827,"쉈":5828,"쉉":5829,"쉊":5830,"쉋":5831,"쉌":5832,"쉍":5833,"쉎":5834,"쉏":5835,"쉐":5836,"쉑":5837,"쉒":5838,"쉓":5839,"쉔":5840,"쉕":5841,"쉖":5842,"쉗":5843,"쉘":5844,"쉙":5845,"쉚":5846,"쉛":5847,"쉜":5848,"쉝":5849,"쉞":5850,"쉟":5851,"쉠":5852,"쉡":5853,"쉢":5854,"쉣":5855,"쉤":5856,"쉥":5857,"쉦":5858,"쉧":5859,"쉨":5860,"쉩":5861,"쉪":5862,"쉫":5863,"쉬":5864,"쉭":5865,"쉮":5866,"쉯":5867,"쉰":5868,"쉱":5869,"쉲":5870,"쉳":5871,"쉴":5872,"쉵":5873,"쉶":5874,"쉷":5875,"쉸":5876,"쉹":5877,"쉺":5878,"쉻":5879,"쉼":5880,"쉽":5881,"쉾":5882,"쉿":5883,"슀":5884,"슁":5885,"슂":5886,"슃":5887,"슄":5888,"슅":5889,"슆":5890,"슇":5891,"슈":5892,"슉":5893,"슊":5894,"슋":5895,"슌":5896,"슍":5897,"슎":5898,"슏":5899,"슐":5900,"슑":5901,"슒":5902,"슓":5903,"슔":5904,"슕":5905,"슖":5906,"슗":5907,"슘":5908,"슙":5909,"슚":5910,"슛":5911,"슜":5912,"슝":5913,"슞":5914,"슟":5915,"슠":5916,"슡":5917,"슢":5918,"슣":5919,"스":5920,"슥":5921,"슦":5922,"슧":5923,"슨":5924,"슩":5925,"슪":5926,"슫":5927,"슬":5928,"슭":5929,"슮":5930,"슯":5931,"슰":5932,"슱":5933,"슲":5934,"슳":5935,"슴":5936,"습":5937,"슶":5938,"슷":5939,"슸":5940,"승":5941,"슺":5942,"슻":5943,"슼":5944,"슽":5945,"슾":5946,"슿":5947,"싀":5948,"싁":5949,"싂":5950,"싃":5951,"싄":5952,"싅":5953,"싆":5954,"싇":5955,"싈":5956,"싉":5957,"싊":5958,"싋":5959,"싌":5960,"싍":5961,"싎":5962,"싏":5963,"싐":5964,"싑":5965,"싒":5966,"싓":5967,"싔":5968,"싕":5969,"싖":5970,"싗":5971,"싘":5972,"싙":5973,"싚":5974,"싛":5975,"시":5976,"식":5977,"싞":5978,"싟":5979,"신":5980,"싡":5981,"싢":5982,"싣":5983,"실":5984,"싥":5985,"싦":5986,"싧":5987,"싨":5988,"싩":5989,"싪":5990,"싫":5991,"심":5992,"십":5993,"싮":5994,"싯":5995,"싰":5996,"싱":5997,"싲":5998,"싳":5999,"싴":6000,"싵":6001,"싶":6002,"싷":6003,"싸":6004,"싹":6005,"싺":6006,"싻":6007,"싼":6008,"싽":6009,"싾":6010,"싿":6011,"쌀":6012,"쌁":6013,"쌂":6014,"쌃":6015,"쌄":6016,"쌅":6017,"쌆":6018,"쌇":6019,"쌈":6020,"쌉":6021,"쌊":6022,"쌋":6023,"쌍":6024,"쌎":6025,"쌏":6026,"쌐":6027,"쌑":6028,"쌒":6029,"쌓":6030,"쌔":6031,"쌕":6032,"쌖":6033,"쌗":6034,"쌘":6035,"쌙":6036,"쌚":6037,"쌛":6038,"쌜":6039,"쌝":6040,"쌞":6041,"쌟":6042,"쌠":6043,"쌡":6044,"쌢":6045,"쌣":6046,"쌤":6047,"쌥":6048,"쌦":6049,"쌧":6050,"쌩":6051,"쌪":6052,"쌫":6053,"쌬":6054,"쌭":6055,"쌮":6056,"쌯":6057,"쌰":6058,"쌱":6059,"쌲":6060,"쌳":6061,"쌴":6062,"쌵":6063,"쌶":6064,"쌷":6065,"쌸":6066,"쌹":6067,"쌺":6068,"쌻":6069,"쌼":6070,"쌽":6071,"쌾":6072,"쌿":6073,"썀":6074,"썁":6075,"썂":6076,"썃":6077,"썄":6078,"썅":6079,"썆":6080,"썇":6081,"썈":6082,"썉":6083,"썊":6084,"썋":6085,"썌":6086,"썍":6087,"썎":6088,"썏":6089,"썐":6090,"썑":6091,"썒":6092,"썓":6093,"썔":6094,"썕":6095,"썖":6096,"썗":6097,"썘":6098,"썙":6099,"썚":6100,"썛":6101,"썜":6102,"썝":6103,"썞":6104,"썟":6105,"썠":6106,"썡":6107,"썢":6108,"썣":6109,"썤":6110,"썥":6111,"썦":6112,"썧":6113,"써":6114,"썩":6115,"썪":6116,"썫":6117,"썬":6118,"썭":6119,"썮":6120,"썯":6121,"썰":6122,"썱":6123,"썲":6124,"썳":6125,"썴":6126,"썵":6127,"썶":6128,"썷":6129,"썸":6130,"썹":6131,"썺":6132,"썻":6133,"썼":6134,"썽":6135,"썾":6136,"썿":6137,"쎀":6138,"쎁":6139,"쎂":6140,"쎃":6141,"쎄":6142,"쎅":6143,"쎆":6144,"쎇":6145,"쎈":6146,"쎉":6147,"쎊":6148,"쎋":6149,"쎌":6150,"쎍":6151,"쎎":6152,"쎏":6153,"쎐":6154,"쎑":6155,"쎒":6156,"쎓":6157,"쎔":6158,"쎕":6159,"쎖":6160,"쎗":6161,"쎙":6162,"쎚":6163,"쎛":6164,"쎜":6165,"쎝":6166,"쎞":6167,"쎟":6168,"쎠":6169,"쎡":6170,"쎢":6171,"쎣":6172,"쎤":6173,"쎥":6174,"쎦":6175,"쎧":6176,"쎨":6177,"쎩":6178,"쎪":6179,"쎫":6180,"쎬":6181,"쎭":6182,"쎮":6183,"쎯":6184,"쎰":6185,"쎱":6186,"쎲":6187,"쎳":6188,"쎴":6189,"쎵":6190,"쎶":6191,"쎷":6192,"쎸":6193,"쎹":6194,"쎺":6195,"쎻":6196,"쎼":6197,"쎽":6198,"쎾":6199,"쎿":6200,"쏀":6201,"쏁":6202,"쏂":6203,"쏃":6204,"쏄":6205,"쏅":6206,"쏆":6207,"쏇":6208,"쏈":6209,"쏉":6210,"쏊":6211,"쏋":6212,"쏌":6213,"쏍":6214,"쏎":6215,"쏏":6216,"쏐":6217,"쏑":6218,"쏒":6219,"쏓":6220,"쏔":6221,"쏕":6222,"쏖":6223,"쏗":6224,"쏘":6225,"쏙":6226,"쏚":6227,"쏛":6228,"쏜":6229,"쏝":6230,"쏞":6231,"쏟":6232,"쏠":6233,"쏡":6234,"쏢":6235,"쏣":6236,"쏤":6237,"쏥":6238,"쏦":6239,"쏧":6240,"쏨":6241,"쏩":6242,"쏪":6243,"쏫":6244,"쏬":6245,"쏭":6246,"쏮":6247,"쏯":6248,"쏰":6249,"쏱":6250,"쏲":6251,"쏳":6252,"쏴":6253,"쏵":6254,"쏶":6255,"쏷":6256,"쏸":6257,"쏹":6258,"쏺":6259,"쏻":6260,"쏼":6261,"쏽":6262,"쏾":6263,"쏿":6264,"쐀":6265,"쐁":6266,"쐂":6267,"쐃":6268,"쐄":6269,"쐅":6270,"쐆":6271,"쐇":6272,"쐉":6273,"쐊":6274,"쐋":6275,"쐌":6276,"쐍":6277,"쐎":6278,"쐏":6279,"쐐":6280,"쐑":6281,"쐒":6282,"쐓":6283,"쐔":6284,"쐕":6285,"쐖":6286,"쐗":6287,"쐘":6288,"쐙":6289,"쐚":6290,"쐛":6291,"쐜":6292,"쐝":6293,"쐞":6294,"쐟":6295,"쐠":6296,"쐡":6297,"쐢":6298,"쐣":6299,"쐤":6300,"쐥":6301,"쐦":6302,"쐧":6303,"쐨":6304,"쐩":6305,"쐪":6306,"쐫":6307,"쐬":6308,"쐭":6309,"쐮":6310,"쐯":6311,"쐱":6312,"쐲":6313,"쐳":6314,"쐵":6315,"쐶":6316,"쐷":6317,"쐸":6318,"쐹":6319,"쐺":6320,"쐻":6321,"쐼":6322,"쐽":6323,"쐾":6324,"쐿":6325,"쑀":6326,"쑁":6327,"쑂":6328,"쑃":6329,"쑄":6330,"쑅":6331,"쑆":6332,"쑇":6333,"쑈":6334,"쑉":6335,"쑊":6336,"쑋":6337,"쑌":6338,"쑍":6339,"쑎":6340,"쑏":6341,"쑐":6342,"쑑":6343,"쑒":6344,"쑓":6345,"쑔":6346,"쑕":6347,"쑖":6348,"쑗":6349,"쑘":6350,"쑙":6351,"쑚":6352,"쑛":6353,"쑜":6354,"쑝":6355,"쑞":6356,"쑟":6357,"쑠":6358,"쑡":6359,"쑢":6360,"쑣":6361,"쑤":6362,"쑥":6363,"쑦":6364,"쑧":6365,"쑨":6366,"쑩":6367,"쑪":6368,"쑫":6369,"쑭":6370,"쑮":6371,"쑯":6372,"쑰":6373,"쑱":6374,"쑲":6375,"쑳":6376,"쑴":6377,"쑵":6378,"쑶":6379,"쑷":6380,"쑸":6381,"쑹":6382,"쑺":6383,"쑻":6384,"쑼":6385,"쑽":6386,"쑾":6387,"쑿":6388,"쒀":6389,"쒁":6390,"쒂":6391,"쒃":6392,"쒄":6393,"쒅":6394,"쒆":6395,"쒇":6396,"쒈":6397,"쒉":6398,"쒊":6399,"쒋":6400,"쒌":6401,"쒍":6402,"쒎":6403,"쒏":6404,"쒐":6405,"쒑":6406,"쒒":6407,"쒓":6408,"쒕":6409,"쒖":6410,"쒗":6411,"쒘":6412,"쒙":6413,"쒚":6414,"쒛":6415,"쒜":6416,"쒝":6417,"쒞":6418,"쒟":6419,"쒠":6420,"쒡":6421,"쒢":6422,"쒣":6423,"쒤":6424,"쒥":6425,"쒦":6426,"쒧":6427,"쒨":6428,"쒩":6429,"쒪":6430,"쒫":6431,"쒬":6432,"쒭":6433,"쒮":6434,"쒯":6435,"쒰":6436,"쒱":6437,"쒲":6438,"쒳":6439,"쒴":6440,"쒵":6441,"쒶":6442,"쒷":6443,"쒸":6444,"쒹":6445,"쒺":6446,"쒻":6447,"쒽":6448,"쒾":6449,"쒿":6450,"쓀":6451,"쓁":6452,"쓂":6453,"쓃":6454,"쓄":6455,"쓅":6456,"쓆":6457,"쓇":6458,"쓈":6459,"쓉":6460,"쓊":6461,"쓋":6462,"쓌":6463,"쓍":6464,"쓎":6465,"쓏":6466,"쓐":6467,"쓑":6468,"쓒":6469,"쓓":6470,"쓔":6471,"쓕":6472,"쓖":6473,"쓗":6474,"쓘":6475,"쓙":6476,"쓚":6477,"쓛":6478,"쓜":6479,"쓝":6480,"쓞":6481,"쓟":6482,"쓠":6483,"쓡":6484,"쓢":6485,"쓣":6486,"쓤":6487,"쓥":6488,"쓦":6489,"쓧":6490,"쓨":6491,"쓩":6492,"쓪":6493,"쓫":6494,"쓬":6495,"쓭":6496,"쓮":6497,"쓯":6498,"쓰":6499,"쓱":6500,"쓲":6501,"쓳":6502,"쓴":6503,"쓵":6504,"쓶":6505,"쓷":6506,"쓸":6507,"쓹":6508,"쓺":6509,"쓻":6510,"쓼":6511,"쓽":6512,"쓾":6513,"쓿":6514,"씀":6515,"씁":6516,"씂":6517,"씃":6518,"씄":6519,"씅":6520,"씆":6521,"씇":6522,"씈":6523,"씉":6524,"씊":6525,"씋":6526,"씌":6527,"씍":6528,"씎":6529,"씏":6530,"씑":6531,"씒":6532,"씓":6533,"씔":6534,"씕":6535,"씖":6536,"씗":6537,"씘":6538,"씙":6539,"씚":6540,"씛":6541,"씜":6542,"씝":6543,"씞":6544,"씟":6545,"씠":6546,"씡":6547,"씢":6548,"씣":6549,"씤":6550,"씥":6551,"씦":6552,"씧":6553,"씨":6554,"씩":6555,"씪":6556,"씫":6557,"씬":6558,"씭":6559,"씮":6560,"씯":6561,"씰":6562,"씱":6563,"씲":6564,"씳":6565,"씴":6566,"씵":6567,"씶":6568,"씷":6569,"씸":6570,"씹":6571,"씺":6572,"씻":6573,"씼":6574,"씽":6575,"씾":6576,"씿":6577,"앀":6578,"앁":6579,"앂":6580,"앃":6581,"아":6582,"악":6583,"앆":6584,"앇":6585,"안":6586,"앉":6587,"않":6588,"앋":6589,"알":6590,"앍":6591,"앎":6592,"앏":6593,"앐":6594,"앑":6595,"앒":6596,"앓":6597,"암":6598,"압":6599,"앖":6600,"앗":6601,"았":6602,"앙":6603,"앚":6604,"앛":6605,"앜":6606,"앝":6607,"앞":6608,"앟":6609,"애":6610,"액":6611,"앢":6612,"앣":6613,"앤":6614,"앥":6615,"앦":6616,"앧":6617,"앨":6618,"앩":6619,"앪":6620,"앫":6621,"앬":6622,"앭":6623,"앮":6624,"앯":6625,"앰":6626,"앱":6627,"앲":6628,"앳":6629,"앴":6630,"앵":6631,"앶":6632,"앷":6633,"앸":6634,"앹":6635,"앺":6636,"앻":6637,"야":6638,"약":6639,"앾":6640,"앿":6641,"얀":6642,"얁":6643,"얂":6644,"얃":6645,"얄":6646,"얅":6647,"얆":6648,"얇":6649,"얈":6650,"얉":6651,"얊":6652,"얋":6653,"얌":6654,"얍":6655,"얎":6656,"얏":6657,"얐":6658,"양":6659,"얒":6660,"얓":6661,"얔":6662,"얕":6663,"얖":6664,"얗":6665,"얘":6666,"얙":6667,"얚":6668,"얛":6669,"얜":6670,"얝":6671,"얞":6672,"얟":6673,"얡":6674,"얢":6675,"얣":6676,"얤":6677,"얥":6678,"얦":6679,"얧":6680,"얨":6681,"얩":6682,"얪":6683,"얫":6684,"얬":6685,"얭":6686,"얮":6687,"얯":6688,"얰":6689,"얱":6690,"얲":6691,"얳":6692,"어":6693,"억":6694,"얶":6695,"얷":6696,"언":6697,"얹":6698,"얺":6699,"얻":6700,"얼":6701,"얽":6702,"얾":6703,"얿":6704,"엀":6705,"엁":6706,"엂":6707,"엃":6708,"엄":6709,"업":6710,"없":6711,"엇":6712,"었":6713,"엉":6714,"엊":6715,"엋":6716,"엌":6717,"엍":6718,"엎":6719,"엏":6720,"에":6721,"엑":6722,"엒":6723,"엓":6724,"엔":6725,"엕":6726,"엖":6727,"엗":6728,"엘":6729,"엙":6730,"엚":6731,"엛":6732,"엜":6733,"엝":6734,"엞":6735,"엟":6736,"엠":6737,"엡":6738,"엢":6739,"엣":6740,"엤":6741,"엥":6742,"엦":6743,"엧":6744,"엨":6745,"엩":6746,"엪":6747,"엫":6748,"여":6749,"역":6750,"엮":6751,"엯":6752,"연":6753,"엱":6754,"엲":6755,"엳":6756,"열":6757,"엵":6758,"엶":6759,"엷":6760,"엸":6761,"엹":6762,"엺":6763,"엻":6764,"염":6765,"엽":6766,"엾":6767,"엿":6768,"였":6769,"영":6770,"옂":6771,"옃":6772,"옄":6773,"옅":6774,"옆":6775,"옇":6776,"예":6777,"옉":6778,"옊":6779,"옋":6780,"옌":6781,"옍":6782,"옎":6783,"옏":6784,"옐":6785,"옑":6786,"옒":6787,"옓":6788,"옔":6789,"옕":6790,"옖":6791,"옗":6792,"옘":6793,"옙":6794,"옚":6795,"옛":6796,"옜":6797,"옝":6798,"옞":6799,"옟":6800,"옠":6801,"옡":6802,"옢":6803,"옣":6804,"오":6805,"옥":6806,"옦":6807,"옧":6808,"온":6809,"옩":6810,"옪":6811,"옫":6812,"올":6813,"옭":6814,"옮":6815,"옯":6816,"옰":6817,"옱":6818,"옲":6819,"옳":6820,"옴":6821,"옵":6822,"옶":6823,"옷":6824,"옸":6825,"옹":6826,"옺":6827,"옻":6828,"옼":6829,"옽":6830,"옾":6831,"옿":6832,"와":6833,"왁":6834,"왂":6835,"왃":6836,"완":6837,"왅":6838,"왆":6839,"왇":6840,"왈":6841,"왉":6842,"왊":6843,"왋":6844,"왌":6845,"왍":6846,"왎":6847,"왏":6848,"왐":6849,"왑":6850,"왒":6851,"왓":6852,"왔":6853,"왕":6854,"왖":6855,"왗":6856,"왘":6857,"왙":6858,"왚":6859,"왛":6860,"왜":6861,"왝":6862,"왞":6863,"왟":6864,"왠":6865,"왡":6866,"왢":6867,"왣":6868,"왤":6869,"왥":6870,"왦":6871,"왧":6872,"왨":6873,"왩":6874,"왪":6875,"왫":6876,"왬":6877,"왭":6878,"왮":6879,"왯":6880,"왰":6881,"왱":6882,"왲":6883,"왳":6884,"왴":6885,"왵":6886,"왶":6887,"왷":6888,"외":6889,"왹":6890,"왺":6891,"왻":6892,"왼":6893,"왽":6894,"왾":6895,"왿":6896,"욀":6897,"욁":6898,"욂":6899,"욃":6900,"욄":6901,"욅":6902,"욆":6903,"욇":6904,"욈":6905,"욉":6906,"욊":6907,"욋":6908,"욌":6909,"욍":6910,"욎":6911,"욏":6912,"욐":6913,"욑":6914,"욒":6915,"욓":6916,"요":6917,"욕":6918,"욖":6919,"욗":6920,"욘":6921,"욙":6922,"욚":6923,"욛":6924,"욜":6925,"욝":6926,"욞":6927,"욟":6928,"욠":6929,"욡":6930,"욢":6931,"욣":6932,"욤":6933,"욥":6934,"욦":6935,"욧":6936,"욨":6937,"용":6938,"욪":6939,"욫":6940,"욬":6941,"욭":6942,"욮":6943,"욯":6944,"우":6945,"욱":6946,"욲":6947,"욳":6948,"운":6949,"욵":6950,"욶":6951,"욷":6952,"울":6953,"욹":6954,"욺":6955,"욻":6956,"욼":6957,"욽":6958,"욾":6959,"욿":6960,"움":6961,"웁":6962,"웂":6963,"웃":6964,"웄":6965,"웅":6966,"웆":6967,"웇":6968,"웈":6969,"웉":6970,"웊":6971,"웋":6972,"워":6973,"웍":6974,"웎":6975,"웏":6976,"원":6977,"웑":6978,"웒":6979,"웓":6980,"월":6981,"웕":6982,"웖":6983,"웗":6984,"웘":6985,"웙":6986,"웚":6987,"웛":6988,"웜":6989,"웝":6990,"웞":6991,"웟":6992,"웠":6993,"웡":6994,"웢":6995,"웣":6996,"웤":6997,"웥":6998,"웦":6999,"웧":7000,"웨":7001,"웩":7002,"웪":7003,"웫":7004,"웬":7005,"웭":7006,"웮":7007,"웯":7008,"웰":7009,"웱":7010,"웲":7011,"웳":7012,"웴":7013,"웵":7014,"웶":7015,"웷":7016,"웸":7017,"웹":7018,"웺":7019,"웻":7020,"웼":7021,"웽":7022,"웾":7023,"웿":7024,"윀":7025,"윁":7026,"윂":7027,"윃":7028,"위":7029,"윅":7030,"윆":7031,"윇":7032,"윈":7033,"윉":7034,"윊":7035,"윋":7036,"윌":7037,"윍":7038,"윎":7039,"윏":7040,"윐":7041,"윑":7042,"윒":7043,"윓":7044,"윔":7045,"윕":7046,"윖":7047,"윗":7048,"윘":7049,"윙":7050,"윚":7051,"윛":7052,"윜":7053,"윝":7054,"윞":7055,"윟":7056,"유":7057,"육":7058,"윢":7059,"윣":7060,"윤":7061,"윥":7062,"윦":7063,"윧":7064,"율":7065,"윩":7066,"윪":7067,"윫":7068,"윬":7069,"윭":7070,"윮":7071,"윯":7072,"윰":7073,"윱":7074,"윲":7075,"윳":7076,"윴":7077,"융":7078,"윶":7079,"윷":7080,"윸":7081,"윹":7082,"윺":7083,"윻":7084,"으":7085,"윽":7086,"윾":7087,"윿":7088,"은":7089,"읁":7090,"읂":7091,"읃":7092,"을":7093,"읅":7094,"읆":7095,"읇":7096,"읈":7097,"읉":7098,"읊":7099,"읋":7100,"음":7101,"읍":7102,"읎":7103,"읏":7104,"읐":7105,"응":7106,"읒":7107,"읓":7108,"읔":7109,"읕":7110,"읖":7111,"읗":7112,"의":7113,"읙":7114,"읚":7115,"읛":7116,"읜":7117,"읝":7118,"읞":7119,"읟":7120,"읠":7121,"읡":7122,"읢":7123,"읣":7124,"읤":7125,"읥":7126,"읦":7127,"읧":7128,"읨":7129,"읩":7130,"읪":7131,"읫":7132,"읬":7133,"읭":7134,"읮":7135,"읯":7136,"읰":7137,"읱":7138,"읲":7139,"읳":7140,"이":7141,"익":7142,"읶":7143,"읷":7144,"인":7145,"읹":7146,"읺":7147,"읻":7148,"일":7149,"읽":7150,"읾":7151,"읿":7152,"잀":7153,"잁":7154,"잂":7155,"잃":7156,"임":7157,"입":7158,"잆":7159,"잇":7160,"있":7161,"잉":7162,"잊":7163,"잋":7164,"잌":7165,"잍":7166,"잎":7167,"잏":7168,"자":7169,"작":7170,"잒":7171,"잓":7172,"잔":7173,"잕":7174,"잖":7175,"잗":7176,"잘":7177,"잙":7178,"잚":7179,"잛":7180,"잜":7181,"잝":7182,"잞":7183,"잟":7184,"잠":7185,"잡":7186,"잢":7187,"잣":7188,"장":7189,"잦":7190,"잧":7191,"잨":7192,"잩":7193,"잪":7194,"잫":7195,"재":7196,"잭":7197,"잮":7198,"잯":7199,"잰":7200,"잱":7201,"잲":7202,"잳":7203,"잴":7204,"잵":7205,"잶":7206,"잷":7207,"잸":7208,"잹":7209,"잺":7210,"잻":7211,"잼":7212,"잽":7213,"잾":7214,"잿":7215,"쟁":7216,"쟂":7217,"쟃":7218,"쟄":7219,"쟅":7220,"쟆":7221,"쟇":7222,"쟈":7223,"쟉":7224,"쟊":7225,"쟋":7226,"쟌":7227,"쟍":7228,"쟎":7229,"쟏":7230,"쟐":7231,"쟑":7232,"쟒":7233,"쟓":7234,"쟔":7235,"쟕":7236,"쟖":7237,"쟗":7238,"쟘":7239,"쟙":7240,"쟚":7241,"쟛":7242,"쟜":7243,"쟝":7244,"쟞":7245,"쟟":7246,"쟠":7247,"쟡":7248,"쟢":7249,"쟣":7250,"쟤":7251,"쟥":7252,"쟦":7253,"쟧":7254,"쟩":7255,"쟪":7256,"쟫":7257,"쟬":7258,"쟭":7259,"쟮":7260,"쟯":7261,"쟰":7262,"쟱":7263,"쟲":7264,"쟳":7265,"쟴":7266,"쟵":7267,"쟶":7268,"쟷":7269,"쟸":7270,"쟹":7271,"쟺":7272,"쟻":7273,"쟼":7274,"쟽":7275,"쟾":7276,"쟿":7277,"저":7278,"적":7279,"젂":7280,"젃":7281,"전":7282,"젅":7283,"젆":7284,"젇":7285,"절":7286,"젉":7287,"젊":7288,"젋":7289,"젌":7290,"젍":7291,"젎":7292,"젏":7293,"점":7294,"접":7295,"젒":7296,"젓":7297,"젔":7298,"정":7299,"젖":7300,"젗":7301,"젘":7302,"젙":7303,"젚":7304,"젛":7305,"제":7306,"젝":7307,"젞":7308,"젟":7309,"젠":7310,"젡":7311,"젢":7312,"젣":7313,"젤":7314,"젥":7315,"젦":7316,"젧":7317,"젨":7318,"젩":7319,"젪":7320,"젫":7321,"젬":7322,"젭":7323,"젮":7324,"젯":7325,"젰":7326,"젱":7327,"젲":7328,"젳":7329,"젴":7330,"젵":7331,"젶":7332,"젷":7333,"져":7334,"젹":7335,"젺":7336,"젻":7337,"젼":7338,"젽":7339,"젾":7340,"젿":7341,"졀":7342,"졁":7343,"졂":7344,"졃":7345,"졄":7346,"졅":7347,"졆":7348,"졇":7349,"졈":7350,"졉":7351,"졊":7352,"졋":7353,"졌":7354,"졍":7355,"졎":7356,"졏":7357,"졐":7358,"졑":7359,"졒":7360,"졓":7361,"졔":7362,"졕":7363,"졖":7364,"졗":7365,"졘":7366,"졙":7367,"졚":7368,"졛":7369,"졜":7370,"졝":7371,"졞":7372,"졟":7373,"졠":7374,"졡":7375,"졢":7376,"졣":7377,"졤":7378,"졥":7379,"졦":7380,"졧":7381,"졨":7382,"졩":7383,"졪":7384,"졫":7385,"졬":7386,"졭":7387,"졮":7388,"졯":7389,"조":7390,"족":7391,"졲":7392,"졳":7393,"존":7394,"졵":7395,"졶":7396,"졷":7397,"졸":7398,"졹":7399,"졺":7400,"졻":7401,"졼":7402,"졽":7403,"졾":7404,"졿":7405,"좀":7406,"좁":7407,"좂":7408,"좃":7409,"좄":7410,"종":7411,"좆":7412,"좇":7413,"좈":7414,"좉":7415,"좊":7416,"좋":7417,"좌":7418,"좍":7419,"좎":7420,"좏":7421,"좐":7422,"좑":7423,"좒":7424,"좓":7425,"좔":7426,"좕":7427,"좖":7428,"좗":7429,"좘":7430,"좙":7431,"좚":7432,"좛":7433,"좜":7434,"좝":7435,"좞":7436,"좟":7437,"좠":7438,"좡":7439,"좢":7440,"좣":7441,"좤":7442,"좥":7443,"좦":7444,"좧":7445,"좨":7446,"좩":7447,"좪":7448,"좫":7449,"좬":7450,"좭":7451,"좮":7452,"좯":7453,"좰":7454,"좱":7455,"좲":7456,"좳":7457,"좴":7458,"좵":7459,"좶":7460,"좷":7461,"좸":7462,"좹":7463,"좺":7464,"좻":7465,"좼":7466,"좽":7467,"좾":7468,"좿":7469,"죀":7470,"죁":7471,"죂":7472,"죃":7473,"죄":7474,"죅":7475,"죆":7476,"죇":7477,"죈":7478,"죉":7479,"죊":7480,"죋":7481,"죌":7482,"죍":7483,"죎":7484,"죏":7485,"죐":7486,"죑":7487,"죒":7488,"죓":7489,"죔":7490,"죕":7491,"죖":7492,"죗":7493,"죙":7494,"죚":7495,"죛":7496,"죜":7497,"죝":7498,"죞":7499,"죟":7500,"죠":7501,"죡":7502,"죢":7503,"죣":7504,"죤":7505,"죥":7506,"죦":7507,"죧":7508,"죨":7509,"죩":7510,"죪":7511,"죫":7512,"죬":7513,"죭":7514,"죮":7515,"죯":7516,"죰":7517,"죱":7518,"죲":7519,"죳":7520,"죴":7521,"죵":7522,"죶":7523,"죷":7524,"죸":7525,"죹":7526,"죺":7527,"죻":7528,"주":7529,"죽":7530,"죾":7531,"죿":7532,"준":7533,"줁":7534,"줂":7535,"줃":7536,"줄":7537,"줅":7538,"줆":7539,"줇":7540,"줈":7541,"줉":7542,"줊":7543,"줋":7544,"줌":7545,"줍":7546,"줎":7547,"줏":7548,"줐":7549,"중":7550,"줒":7551,"줓":7552,"줔":7553,"줕":7554,"줖":7555,"줗":7556,"줘":7557,"줙":7558,"줚":7559,"줛":7560,"줜":7561,"줝":7562,"줞":7563,"줟":7564,"줠":7565,"줡":7566,"줢":7567,"줣":7568,"줤":7569,"줥":7570,"줦":7571,"줧":7572,"줨":7573,"줩":7574,"줪":7575,"줫":7576,"줬":7577,"줭":7578,"줮":7579,"줯":7580,"줰":7581,"줱":7582,"줲":7583,"줳":7584,"줴":7585,"줵":7586,"줶":7587,"줷":7588,"줸":7589,"줹":7590,"줺":7591,"줻":7592,"줼":7593,"줽":7594,"줾":7595,"줿":7596,"쥀":7597,"쥁":7598,"쥂":7599,"쥃":7600,"쥄":7601,"쥅":7602,"쥆":7603,"쥇":7604,"쥈":7605,"쥉":7606,"쥊":7607,"쥋":7608,"쥌":7609,"쥍":7610,"쥎":7611,"쥏":7612,"쥐":7613,"쥑":7614,"쥒":7615,"쥓":7616,"쥔":7617,"쥕":7618,"쥖":7619,"쥗":7620,"쥘":7621,"쥙":7622,"쥚":7623,"쥛":7624,"쥜":7625,"쥝":7626,"쥞":7627,"쥟":7628,"쥠":7629,"쥡":7630,"쥢":7631,"쥣":7632,"쥤":7633,"쥥":7634,"쥦":7635,"쥧":7636,"쥨":7637,"쥩":7638,"쥪":7639,"쥫":7640,"쥬":7641,"쥭":7642,"쥮":7643,"쥯":7644,"쥰":7645,"쥱":7646,"쥲":7647,"쥳":7648,"쥴":7649,"쥵":7650,"쥶":7651,"쥷":7652,"쥸":7653,"쥹":7654,"쥺":7655,"쥻":7656,"쥼":7657,"쥽":7658,"쥾":7659,"쥿":7660,"즀":7661,"즁":7662,"즂":7663,"즃":7664,"즄":7665,"즅":7666,"즆":7667,"즇":7668,"즈":7669,"즉":7670,"즊":7671,"즋":7672,"즌":7673,"즍":7674,"즎":7675,"즏":7676,"즐":7677,"즑":7678,"즒":7679,"즓":7680,"즔":7681,"즕":7682,"즖":7683,"즗":7684,"즘":7685,"즙":7686,"즚":7687,"즛":7688,"즜":7689,"증":7690,"즞":7691,"즟":7692,"즠":7693,"즡":7694,"즢":7695,"즣":7696,"즤":7697,"즥":7698,"즦":7699,"즧":7700,"즨":7701,"즩":7702,"즪":7703,"즫":7704,"즬":7705,"즭":7706,"즮":7707,"즯":7708,"즰":7709,"즱":7710,"즲":7711,"즳":7712,"즴":7713,"즵":7714,"즶":7715,"즷":7716,"즸":7717,"즹":7718,"즺":7719,"즻":7720,"즼":7721,"즽":7722,"즾":7723,"즿":7724,"지":7725,"직":7726,"짂":7727,"짃":7728,"진":7729,"짅":7730,"짆":7731,"짇":7732,"질":7733,"짉":7734,"짊":7735,"짋":7736,"짌":7737,"짍":7738,"짎":7739,"짏":7740,"짐":7741,"집":7742,"짒":7743,"짓":7744,"짔":7745,"징":7746,"짖":7747,"짗":7748,"짘":7749,"짙":7750,"짚":7751,"짛":7752,"짜":7753,"짝":7754,"짞":7755,"짟":7756,"짠":7757,"짡":7758,"짢":7759,"짣":7760,"짤":7761,"짥":7762,"짦":7763,"짧":7764,"짨":7765,"짩":7766,"짪":7767,"짫":7768,"짬":7769,"짭":7770,"짮":7771,"짯":7772,"짱":7773,"짲":7774,"짳":7775,"짴":7776,"짵":7777,"짶":7778,"짷":7779,"째":7780,"짹":7781,"짺":7782,"짻":7783,"짼":7784,"짽":7785,"짾":7786,"짿":7787,"쨀":7788,"쨁":7789,"쨂":7790,"쨃":7791,"쨄":7792,"쨅":7793,"쨆":7794,"쨇":7795,"쨈":7796,"쨉":7797,"쨊":7798,"쨋":7799,"쨌":7800,"쨍":7801,"쨎":7802,"쨏":7803,"쨐":7804,"쨑":7805,"쨒":7806,"쨓":7807,"쨔":7808,"쨕":7809,"쨖":7810,"쨗":7811,"쨘":7812,"쨙":7813,"쨚":7814,"쨛":7815,"쨜":7816,"쨝":7817,"쨞":7818,"쨟":7819,"쨠":7820,"쨡":7821,"쨢":7822,"쨣":7823,"쨤":7824,"쨥":7825,"쨦":7826,"쨧":7827,"쨨":7828,"쨩":7829,"쨪":7830,"쨫":7831,"쨬":7832,"쨭":7833,"쨮":7834,"쨯":7835,"쨰":7836,"쨱":7837,"쨲":7838,"쨳":7839,"쨴":7840,"쨵":7841,"쨶":7842,"쨷":7843,"쨸":7844,"쨹":7845,"쨺":7846,"쨻":7847,"쨼":7848,"쨽":7849,"쨾":7850,"쨿":7851,"쩀":7852,"쩁":7853,"쩂":7854,"쩃":7855,"쩄":7856,"쩅":7857,"쩆":7858,"쩇":7859,"쩈":7860,"쩉":7861,"쩊":7862,"쩋":7863,"쩌":7864,"쩍":7865,"쩎":7866,"쩏":7867,"쩐":7868,"쩑":7869,"쩒":7870,"쩓":7871,"쩔":7872,"쩕":7873,"쩖":7874,"쩗":7875,"쩘":7876,"쩙":7877,"쩚":7878,"쩛":7879,"쩜":7880,"쩝":7881,"쩞":7882,"쩟":7883,"쩠":7884,"쩡":7885,"쩢":7886,"쩣":7887,"쩤":7888,"쩥":7889,"쩦":7890,"쩧":7891,"쩨":7892,"쩩":7893,"쩪":7894,"쩫":7895,"쩬":7896,"쩭":7897,"쩮":7898,"쩯":7899,"쩰":7900,"쩱":7901,"쩲":7902,"쩳":7903,"쩴":7904,"쩵":7905,"쩶":7906,"쩷":7907,"쩸":7908,"쩹":7909,"쩺":7910,"쩻":7911,"쩼":7912,"쩽":7913,"쩾":7914,"쩿":7915,"쪀":7916,"쪁":7917,"쪂":7918,"쪃":7919,"쪄":7920,"쪅":7921,"쪆":7922,"쪇":7923,"쪈":7924,"쪉":7925,"쪊":7926,"쪋":7927,"쪌":7928,"쪍":7929,"쪎":7930,"쪏":7931,"쪐":7932,"쪑":7933,"쪒":7934,"쪓":7935,"쪔":7936,"쪕":7937,"쪖":7938,"쪗":7939,"쪘":7940,"쪙":7941,"쪚":7942,"쪛":7943,"쪜":7944,"쪝":7945,"쪞":7946,"쪟":7947,"쪠":7948,"쪡":7949,"쪢":7950,"쪣":7951,"쪤":7952,"쪥":7953,"쪦":7954,"쪧":7955,"쪨":7956,"쪩":7957,"쪪":7958,"쪫":7959,"쪬":7960,"쪭":7961,"쪮":7962,"쪯":7963,"쪰":7964,"쪱":7965,"쪲":7966,"쪳":7967,"쪴":7968,"쪵":7969,"쪶":7970,"쪷":7971,"쪸":7972,"쪹":7973,"쪺":7974,"쪻":7975,"쪼":7976,"쪽":7977,"쪾":7978,"쪿":7979,"쫀":7980,"쫁":7981,"쫂":7982,"쫃":7983,"쫄":7984,"쫅":7985,"쫆":7986,"쫇":7987,"쫈":7988,"쫉":7989,"쫊":7990,"쫋":7991,"쫌":7992,"쫍":7993,"쫎":7994,"쫏":7995,"쫐":7996,"쫑":7997,"쫒":7998,"쫓":7999,"쫔":8000,"쫕":8001,"쫖":8002,"쫗":8003,"쫘":8004,"쫙":8005,"쫚":8006,"쫛":8007,"쫜":8008,"쫝":8009,"쫞":8010,"쫟":8011,"쫠":8012,"쫡":8013,"쫢":8014,"쫣":8015,"쫤":8016,"쫥":8017,"쫦":8018,"쫧":8019,"쫨":8020,"쫩":8021,"쫪":8022,"쫫":8023,"쫭":8024,"쫮":8025,"쫯":8026,"쫰":8027,"쫱":8028,"쫲":8029,"쫳":8030,"쫴":8031,"쫵":8032,"쫶":8033,"쫷":8034,"쫸":8035,"쫹":8036,"쫺":8037,"쫻":8038,"쫼":8039,"쫽":8040,"쫾":8041,"쫿":8042,"쬀":8043,"쬁":8044,"쬂":8045,"쬃":8046,"쬄":8047,"쬅":8048,"쬆":8049,"쬇":8050,"쬈":8051,"쬉":8052,"쬊":8053,"쬋":8054,"쬌":8055,"쬍":8056,"쬎":8057,"쬏":8058,"쬐":8059,"쬑":8060,"쬒":8061,"쬓":8062,"쬔":8063,"쬕":8064,"쬖":8065,"쬗":8066,"쬙":8067,"쬚":8068,"쬛":8069,"쬜":8070,"쬝":8071,"쬞":8072,"쬟":8073,"쬡":8074,"쬢":8075,"쬣":8076,"쬤":8077,"쬥":8078,"쬦":8079,"쬧":8080,"쬨":8081,"쬩":8082,"쬪":8083,"쬫":8084,"쬬":8085,"쬭":8086,"쬮":8087,"쬯":8088,"쬰":8089,"쬱":8090,"쬲":8091,"쬳":8092,"쬴":8093,"쬵":8094,"쬶":8095,"쬷":8096,"쬸":8097,"쬹":8098,"쬺":8099,"쬻":8100,"쬼":8101,"쬽":8102,"쬾":8103,"쬿":8104,"쭀":8105,"쭁":8106,"쭂":8107,"쭃":8108,"쭄":8109,"쭅":8110,"쭆":8111,"쭇":8112,"쭈":8113,"쭉":8114,"쭊":8115,"쭋":8116,"쭌":8117,"쭍":8118,"쭎":8119,"쭏":8120,"쭐":8121,"쭑":8122,"쭒":8123,"쭓":8124,"쭔":8125,"쭕":8126,"쭖":8127,"쭗":8128,"쭘":8129,"쭙":8130,"쭚":8131,"쭛":8132,"쭜":8133,"쭝":8134,"쭞":8135,"쭟":8136,"쭠":8137,"쭡":8138,"쭢":8139,"쭣":8140,"쭤":8141,"쭥":8142,"쭦":8143,"쭧":8144,"쭨":8145,"쭩":8146,"쭪":8147,"쭫":8148,"쭬":8149,"쭭":8150,"쭮":8151,"쭯":8152,"쭰":8153,"쭱":8154,"쭲":8155,"쭳":8156,"쭴":8157,"쭵":8158,"쭶":8159,"쭷":8160,"쭸":8161,"쭹":8162,"쭺":8163,"쭻":8164,"쭼":8165,"쭽":8166,"쭾":8167,"쭿":8168,"쮀":8169,"쮁":8170,"쮂":8171,"쮃":8172,"쮄":8173,"쮅":8174,"쮆":8175,"쮇":8176,"쮈":8177,"쮉":8178,"쮊":8179,"쮋":8180,"쮌":8181,"쮍":8182,"쮎":8183,"쮏":8184,"쮐":8185,"쮑":8186,"쮒":8187,"쮓":8188,"쮔":8189,"쮕":8190,"쮖":8191,"쮗":8192,"쮘":8193,"쮙":8194,"쮚":8195,"쮛":8196,"쮜":8197,"쮝":8198,"쮞":8199,"쮟":8200,"쮠":8201,"쮡":8202,"쮢":8203,"쮣":8204,"쮤":8205,"쮥":8206,"쮦":8207,"쮧":8208,"쮨":8209,"쮩":8210,"쮪":8211,"쮫":8212,"쮬":8213,"쮭":8214,"쮮":8215,"쮯":8216,"쮰":8217,"쮱":8218,"쮲":8219,"쮳":8220,"쮴":8221,"쮵":8222,"쮶":8223,"쮷":8224,"쮸":8225,"쮹":8226,"쮺":8227,"쮻":8228,"쮼":8229,"쮽":8230,"쮾":8231,"쮿":8232,"쯀":8233,"쯁":8234,"쯂":8235,"쯃":8236,"쯄":8237,"쯅":8238,"쯆":8239,"쯇":8240,"쯈":8241,"쯉":8242,"쯊":8243,"쯋":8244,"쯌":8245,"쯍":8246,"쯎":8247,"쯏":8248,"쯐":8249,"쯑":8250,"쯒":8251,"쯓":8252,"쯔":8253,"쯕":8254,"쯖":8255,"쯗":8256,"쯘":8257,"쯙":8258,"쯚":8259,"쯛":8260,"쯜":8261,"쯝":8262,"쯞":8263,"쯟":8264,"쯠":8265,"쯡":8266,"쯢":8267,"쯣":8268,"쯤":8269,"쯥":8270,"쯦":8271,"쯧":8272,"쯨":8273,"쯩":8274,"쯪":8275,"쯫":8276,"쯬":8277,"쯭":8278,"쯮":8279,"쯯":8280,"쯰":8281,"쯱":8282,"쯲":8283,"쯳":8284,"쯴":8285,"쯵":8286,"쯶":8287,"쯷":8288,"쯸":8289,"쯹":8290,"쯺":8291,"쯻":8292,"쯼":8293,"쯽":8294,"쯾":8295,"쯿":8296,"찀":8297,"찁":8298,"찂":8299,"찃":8300,"찄":8301,"찅":8302,"찆":8303,"찇":8304,"찈":8305,"찉":8306,"찊":8307,"찋":8308,"찌":8309,"찍":8310,"찎":8311,"찏":8312,"찐":8313,"찑":8314,"찒":8315,"찓":8316,"찔":8317,"찕":8318,"찖":8319,"찗":8320,"찘":8321,"찙":8322,"찚":8323,"찛":8324,"찜":8325,"찝":8326,"찞":8327,"찟":8328,"찠":8329,"찡":8330,"찢":8331,"찣":8332,"찤":8333,"찥":8334,"찦":8335,"찧":8336,"차":8337,"착":8338,"찪":8339,"찫":8340,"찬":8341,"찭":8342,"찮":8343,"찯":8344,"찰":8345,"찱":8346,"찲":8347,"찳":8348,"찴":8349,"찵":8350,"찶":8351,"찷":8352,"참":8353,"찹":8354,"찺":8355,"찻":8356,"창":8357,"찾":8358,"찿":8359,"챀":8360,"챁":8361,"챂":8362,"챃":8363,"채":8364,"책":8365,"챆":8366,"챇":8367,"챈":8368,"챉":8369,"챊":8370,"챋":8371,"챌":8372,"챍":8373,"챎":8374,"챏":8375,"챐":8376,"챑":8377,"챒":8378,"챓":8379,"챔":8380,"챕":8381,"챖":8382,"챗":8383,"챘":8384,"챙":8385,"챚":8386,"챛":8387,"챜":8388,"챝":8389,"챞":8390,"챟":8391,"챠":8392,"챡":8393,"챢":8394,"챣":8395,"챤":8396,"챥":8397,"챦":8398,"챧":8399,"챨":8400,"챩":8401,"챪":8402,"챫":8403,"챬":8404,"챭":8405,"챮":8406,"챯":8407,"챰":8408,"챱":8409,"챲":8410,"챳":8411,"챴":8412,"챵":8413,"챶":8414,"챷":8415,"챸":8416,"챹":8417,"챺":8418,"챻":8419,"챼":8420,"챽":8421,"챾":8422,"챿":8423,"첀":8424,"첁":8425,"첂":8426,"첃":8427,"첄":8428,"첅":8429,"첆":8430,"첇":8431,"첈":8432,"첉":8433,"첊":8434,"첋":8435,"첌":8436,"첍":8437,"첎":8438,"첏":8439,"첐":8440,"첑":8441,"첒":8442,"첓":8443,"첔":8444,"첕":8445,"첖":8446,"첗":8447,"처":8448,"척":8449,"첚":8450,"첛":8451,"천":8452,"첝":8453,"첞":8454,"첟":8455,"철":8456,"첡":8457,"첢":8458,"첣":8459,"첤":8460,"첥":8461,"첦":8462,"첧":8463,"첨":8464,"첩":8465,"첪":8466,"첫":8467,"첬":8468,"청":8469,"첮":8470,"첯":8471,"첰":8472,"첱":8473,"첲":8474,"첳":8475,"체":8476,"첵":8477,"첶":8478,"첷":8479,"첸":8480,"첹":8481,"첺":8482,"첻":8483,"첼":8484,"첽":8485,"첾":8486,"첿":8487,"쳀":8488,"쳁":8489,"쳂":8490,"쳃":8491,"쳄":8492,"쳅":8493,"쳆":8494,"쳇":8495,"쳈":8496,"쳉":8497,"쳊":8498,"쳋":8499,"쳌":8500,"쳍":8501,"쳎":8502,"쳏":8503,"쳐":8504,"쳑":8505,"쳒":8506,"쳓":8507,"쳔":8508,"쳕":8509,"쳖":8510,"쳗":8511,"쳘":8512,"쳙":8513,"쳚":8514,"쳛":8515,"쳜":8516,"쳝":8517,"쳞":8518,"쳟":8519,"쳠":8520,"쳡":8521,"쳢":8522,"쳣":8523,"쳤":8524,"쳥":8525,"쳦":8526,"쳧":8527,"쳨":8528,"쳩":8529,"쳪":8530,"쳫":8531,"쳬":8532,"쳭":8533,"쳮":8534,"쳯":8535,"쳰":8536,"쳱":8537,"쳲":8538,"쳳":8539,"쳴":8540,"쳵":8541,"쳶":8542,"쳷":8543,"쳸":8544,"쳹":8545,"쳺":8546,"쳻":8547,"쳼":8548,"쳽":8549,"쳾":8550,"쳿":8551,"촀":8552,"촁":8553,"촂":8554,"촃":8555,"촄":8556,"촅":8557,"촆":8558,"촇":8559,"초":8560,"촉":8561,"촊":8562,"촋":8563,"촌":8564,"촍":8565,"촎":8566,"촏":8567,"촐":8568,"촑":8569,"촒":8570,"촓":8571,"촔":8572,"촕":8573,"촖":8574,"촗":8575,"촘":8576,"촙":8577,"촚":8578,"촛":8579,"촜":8580,"총":8581,"촞":8582,"촟":8583,"촠":8584,"촡":8585,"촢":8586,"촣":8587,"촤":8588,"촥":8589,"촦":8590,"촧":8591,"촨":8592,"촩":8593,"촪":8594,"촫":8595,"촬":8596,"촭":8597,"촮":8598,"촯":8599,"촰":8600,"촱":8601,"촲":8602,"촳":8603,"촴":8604,"촵":8605,"촶":8606,"촷":8607,"촸":8608,"촹":8609,"촺":8610,"촻":8611,"촼":8612,"촽":8613,"촾":8614,"촿":8615,"쵀":8616,"쵁":8617,"쵂":8618,"쵃":8619,"쵄":8620,"쵅":8621,"쵆":8622,"쵇":8623,"쵈":8624,"쵉":8625,"쵊":8626,"쵋":8627,"쵌":8628,"쵍":8629,"쵎":8630,"쵏":8631,"쵐":8632,"쵑":8633,"쵒":8634,"쵓":8635,"쵔":8636,"쵕":8637,"쵖":8638,"쵗":8639,"쵘":8640,"쵙":8641,"쵚":8642,"쵛":8643,"최":8644,"쵝":8645,"쵞":8646,"쵟":8647,"쵠":8648,"쵡":8649,"쵢":8650,"쵣":8651,"쵤":8652,"쵥":8653,"쵦":8654,"쵧":8655,"쵨":8656,"쵩":8657,"쵪":8658,"쵫":8659,"쵬":8660,"쵭":8661,"쵮":8662,"쵯":8663,"쵰":8664,"쵱":8665,"쵲":8666,"쵳":8667,"쵴":8668,"쵵":8669,"쵶":8670,"쵷":8671,"쵸":8672,"쵹":8673,"쵺":8674,"쵻":8675,"쵼":8676,"쵽":8677,"쵾":8678,"쵿":8679,"춀":8680,"춁":8681,"춂":8682,"춃":8683,"춄":8684,"춅":8685,"춆":8686,"춇":8687,"춈":8688,"춉":8689,"춊":8690,"춋":8691,"춌":8692,"춍":8693,"춎":8694,"춏":8695,"춐":8696,"춑":8697,"춒":8698,"춓":8699,"추":8700,"축":8701,"춖":8702,"춗":8703,"춘":8704,"춙":8705,"춚":8706,"춛":8707,"출":8708,"춝":8709,"춞":8710,"춟":8711,"춠":8712,"춡":8713,"춢":8714,"춣":8715,"춤":8716,"춥":8717,"춦":8718,"춧":8719,"춨":8720,"충":8721,"춪":8722,"춫":8723,"춬":8724,"춭":8725,"춮":8726,"춯":8727,"춰":8728,"춱":8729,"춲":8730,"춳":8731,"춴":8732,"춵":8733,"춶":8734,"춷":8735,"춸":8736,"춹":8737,"춺":8738,"춻":8739,"춼":8740,"춽":8741,"춾":8742,"춿":8743,"췀":8744,"췁":8745,"췂":8746,"췃":8747,"췄":8748,"췅":8749,"췆":8750,"췇":8751,"췈":8752,"췉":8753,"췊":8754,"췋":8755,"췌":8756,"췍":8757,"췎":8758,"췏":8759,"췐":8760,"췑":8761,"췒":8762,"췓":8763,"췔":8764,"췕":8765,"췖":8766,"췗":8767,"췘":8768,"췙":8769,"췚":8770,"췛":8771,"췜":8772,"췝":8773,"췞":8774,"췟":8775,"췠":8776,"췡":8777,"췢":8778,"췣":8779,"췤":8780,"췥":8781,"췦":8782,"췧":8783,"취":8784,"췩":8785,"췪":8786,"췫":8787,"췬":8788,"췭":8789,"췮":8790,"췯":8791,"췰":8792,"췱":8793,"췲":8794,"췳":8795,"췴":8796,"췵":8797,"췶":8798,"췷":8799,"췸":8800,"췹":8801,"췺":8802,"췻":8803,"췼":8804,"췽":8805,"췾":8806,"췿":8807,"츀":8808,"츁":8809,"츂":8810,"츃":8811,"츄":8812,"츅":8813,"츆":8814,"츇":8815,"츈":8816,"츉":8817,"츊":8818,"츋":8819,"츌":8820,"츍":8821,"츎":8822,"츏":8823,"츐":8824,"츑":8825,"츒":8826,"츓":8827,"츔":8828,"츕":8829,"츖":8830,"츗":8831,"츘":8832,"츙":8833,"츚":8834,"츛":8835,"츜":8836,"츝":8837,"츞":8838,"츟":8839,"츠":8840,"측":8841,"츢":8842,"츣":8843,"츤":8844,"츥":8845,"츦":8846,"츧":8847,"츨":8848,"츩":8849,"츪":8850,"츫":8851,"츬":8852,"츭":8853,"츮":8854,"츯":8855,"츰":8856,"츱":8857,"츲":8858,"츳":8859,"츴":8860,"층":8861,"츶":8862,"츷":8863,"츸":8864,"츹":8865,"츺":8866,"츻":8867,"츼":8868,"츽":8869,"츾":8870,"츿":8871,"칀":8872,"칁":8873,"칂":8874,"칃":8875,"칄":8876,"칅":8877,"칆":8878,"칇":8879,"칈":8880,"칉":8881,"칊":8882,"칋":8883,"칌":8884,"칍":8885,"칎":8886,"칏":8887,"칐":8888,"칑":8889,"칒":8890,"칓":8891,"칔":8892,"칕":8893,"칖":8894,"칗":8895,"치":8896,"칙":8897,"칚":8898,"칛":8899,"친":8900,"칝":8901,"칞":8902,"칟":8903,"칠":8904,"칡":8905,"칢":8906,"칣":8907,"칤":8908,"칥":8909,"칦":8910,"칧":8911,"침":8912,"칩":8913,"칪":8914,"칫":8915,"칬":8916,"칭":8917,"칮":8918,"칯":8919,"칰":8920,"칱":8921,"칲":8922,"칳":8923,"카":8924,"칵":8925,"칶":8926,"칷":8927,"칸":8928,"칹":8929,"칺":8930,"칻":8931,"칼":8932,"칽":8933,"칾":8934,"칿":8935,"캀":8936,"캁":8937,"캂":8938,"캃":8939,"캄":8940,"캅":8941,"캆":8942,"캇":8943,"캈":8944,"캉":8945,"캊":8946,"캋":8947,"캌":8948,"캍":8949,"캎":8950,"캏":8951,"캐":8952,"캑":8953,"캒":8954,"캓":8955,"캔":8956,"캕":8957,"캖":8958,"캗":8959,"캘":8960,"캙":8961,"캚":8962,"캛":8963,"캜":8964,"캝":8965,"캞":8966,"캟":8967,"캠":8968,"캡":8969,"캢":8970,"캣":8971,"캤":8972,"캥":8973,"캦":8974,"캧":8975,"캨":8976,"캩":8977,"캪":8978,"캫":8979,"캬":8980,"캭":8981,"캮":8982,"캯":8983,"캰":8984,"캱":8985,"캲":8986,"캳":8987,"캴":8988,"캵":8989,"캶":8990,"캷":8991,"캸":8992,"캹":8993,"캺":8994,"캻":8995,"캼":8996,"캽":8997,"캾":8998,"캿":8999,"컀":9000,"컁":9001,"컂":9002,"컃":9003,"컄":9004,"컅":9005,"컆":9006,"컇":9007,"컈":9008,"컉":9009,"컊":9010,"컋":9011,"컌":9012,"컍":9013,"컎":9014,"컏":9015,"컐":9016,"컑":9017,"컒":9018,"컓":9019,"컔":9020,"컕":9021,"컖":9022,"컗":9023,"컘":9024,"컙":9025,"컚":9026,"컛":9027,"컜":9028,"컝":9029,"컞":9030,"컟":9031,"컠":9032,"컡":9033,"컢":9034,"컣":9035,"커":9036,"컥":9037,"컦":9038,"컧":9039,"컨":9040,"컩":9041,"컪":9042,"컫":9043,"컬":9044,"컭":9045,"컮":9046,"컯":9047,"컰":9048,"컱":9049,"컲":9050,"컳":9051,"컴":9052,"컵":9053,"컶":9054,"컷":9055,"컹":9056,"컺":9057,"컻":9058,"컼":9059,"컽":9060,"컾":9061,"컿":9062,"케":9063,"켁":9064,"켂":9065,"켃":9066,"켄":9067,"켅":9068,"켆":9069,"켇":9070,"켈":9071,"켉":9072,"켊":9073,"켋":9074,"켌":9075,"켍":9076,"켎":9077,"켏":9078,"켐":9079,"켑":9080,"켒":9081,"켓":9082,"켔":9083,"켕":9084,"켖":9085,"켗":9086,"켘":9087,"켙":9088,"켚":9089,"켛":9090,"켜":9091,"켝":9092,"켞":9093,"켟":9094,"켠":9095,"켡":9096,"켢":9097,"켣":9098,"켤":9099,"켥":9100,"켦":9101,"켧":9102,"켨":9103,"켩":9104,"켪":9105,"켫":9106,"켬":9107,"켭":9108,"켮":9109,"켯":9110,"켰":9111,"켱":9112,"켲":9113,"켳":9114,"켴":9115,"켵":9116,"켶":9117,"켷":9118,"켸":9119,"켹":9120,"켺":9121,"켻":9122,"켼":9123,"켽":9124,"켾":9125,"켿":9126,"콀":9127,"콁":9128,"콂":9129,"콃":9130,"콄":9131,"콅":9132,"콆":9133,"콇":9134,"콈":9135,"콉":9136,"콊":9137,"콋":9138,"콌":9139,"콍":9140,"콎":9141,"콏":9142,"콐":9143,"콑":9144,"콒":9145,"콓":9146,"코":9147,"콕":9148,"콖":9149,"콗":9150,"콘":9151,"콙":9152,"콚":9153,"콛":9154,"콜":9155,"콝":9156,"콞":9157,"콟":9158,"콠":9159,"콡":9160,"콢":9161,"콣":9162,"콤":9163,"콥":9164,"콦":9165,"콧":9166,"콨":9167,"콩":9168,"콪":9169,"콫":9170,"콬":9171,"콭":9172,"콮":9173,"콯":9174,"콰":9175,"콱":9176,"콲":9177,"콳":9178,"콴":9179,"콵":9180,"콶":9181,"콷":9182,"콸":9183,"콹":9184,"콺":9185,"콻":9186,"콼":9187,"콽":9188,"콾":9189,"콿":9190,"쾀":9191,"쾁":9192,"쾂":9193,"쾃":9194,"쾄":9195,"쾅":9196,"쾆":9197,"쾇":9198,"쾈":9199,"쾉":9200,"쾊":9201,"쾋":9202,"쾌":9203,"쾍":9204,"쾎":9205,"쾏":9206,"쾐":9207,"쾑":9208,"쾒":9209,"쾓":9210,"쾔":9211,"쾕":9212,"쾖":9213,"쾗":9214,"쾘":9215,"쾙":9216,"쾚":9217,"쾛":9218,"쾜":9219,"쾝":9220,"쾞":9221,"쾟":9222,"쾠":9223,"쾡":9224,"쾢":9225,"쾣":9226,"쾤":9227,"쾥":9228,"쾦":9229,"쾧":9230,"쾨":9231,"쾩":9232,"쾪":9233,"쾫":9234,"쾬":9235,"쾭":9236,"쾮":9237,"쾯":9238,"쾰":9239,"쾱":9240,"쾲":9241,"쾳":9242,"쾴":9243,"쾵":9244,"쾶":9245,"쾷":9246,"쾸":9247,"쾹":9248,"쾺":9249,"쾻":9250,"쾼":9251,"쾽":9252,"쾾":9253,"쾿":9254,"쿀":9255,"쿁":9256,"쿂":9257,"쿃":9258,"쿄":9259,"쿅":9260,"쿆":9261,"쿇":9262,"쿈":9263,"쿉":9264,"쿊":9265,"쿋":9266,"쿌":9267,"쿍":9268,"쿎":9269,"쿏":9270,"쿐":9271,"쿑":9272,"쿒":9273,"쿓":9274,"쿔":9275,"쿕":9276,"쿖":9277,"쿗":9278,"쿘":9279,"쿙":9280,"쿚":9281,"쿛":9282,"쿜":9283,"쿝":9284,"쿞":9285,"쿟":9286,"쿠":9287,"쿡":9288,"쿢":9289,"쿣":9290,"쿤":9291,"쿥":9292,"쿦":9293,"쿧":9294,"쿨":9295,"쿩":9296,"쿪":9297,"쿫":9298,"쿬":9299,"쿭":9300,"쿮":9301,"쿯":9302,"쿰":9303,"쿱":9304,"쿲":9305,"쿳":9306,"쿴":9307,"쿵":9308,"쿶":9309,"쿷":9310,"쿸":9311,"쿹":9312,"쿺":9313,"쿻":9314,"쿼":9315,"쿽":9316,"쿾":9317,"쿿":9318,"퀀":9319,"퀁":9320,"퀂":9321,"퀃":9322,"퀄":9323,"퀅":9324,"퀆":9325,"퀇":9326,"퀈":9327,"퀉":9328,"퀊":9329,"퀋":9330,"퀌":9331,"퀍":9332,"퀎":9333,"퀏":9334,"퀐":9335,"퀑":9336,"퀒":9337,"퀓":9338,"퀔":9339,"퀕":9340,"퀖":9341,"퀗":9342,"퀘":9343,"퀙":9344,"퀚":9345,"퀛":9346,"퀜":9347,"퀝":9348,"퀞":9349,"퀟":9350,"퀠":9351,"퀡":9352,"퀢":9353,"퀣":9354,"퀤":9355,"퀥":9356,"퀦":9357,"퀧":9358,"퀨":9359,"퀩":9360,"퀪":9361,"퀫":9362,"퀬":9363,"퀭":9364,"퀮":9365,"퀯":9366,"퀰":9367,"퀱":9368,"퀲":9369,"퀳":9370,"퀴":9371,"퀵":9372,"퀶":9373,"퀷":9374,"퀸":9375,"퀹":9376,"퀺":9377,"퀻":9378,"퀼":9379,"퀽":9380,"퀾":9381,"퀿":9382,"큀":9383,"큁":9384,"큂":9385,"큃":9386,"큄":9387,"큅":9388,"큆":9389,"큇":9390,"큈":9391,"큉":9392,"큊":9393,"큋":9394,"큌":9395,"큍":9396,"큎":9397,"큏":9398,"큐":9399,"큑":9400,"큒":9401,"큓":9402,"큔":9403,"큕":9404,"큖":9405,"큗":9406,"큘":9407,"큙":9408,"큚":9409,"큛":9410,"큜":9411,"큝":9412,"큞":9413,"큟":9414,"큠":9415,"큡":9416,"큢":9417,"큣":9418,"큤":9419,"큥":9420,"큦":9421,"큧":9422,"큨":9423,"큩":9424,"큪":9425,"큫":9426,"크":9427,"큭":9428,"큮":9429,"큯":9430,"큰":9431,"큱":9432,"큲":9433,"큳":9434,"클":9435,"큵":9436,"큶":9437,"큷":9438,"큸":9439,"큹":9440,"큺":9441,"큻":9442,"큼":9443,"큽":9444,"큾":9445,"큿":9446,"킀":9447,"킁":9448,"킂":9449,"킃":9450,"킄":9451,"킅":9452,"킆":9453,"킇":9454,"킈":9455,"킉":9456,"킊":9457,"킋":9458,"킌":9459,"킍":9460,"킎":9461,"킏":9462,"킐":9463,"킑":9464,"킒":9465,"킓":9466,"킔":9467,"킕":9468,"킖":9469,"킗":9470,"킘":9471,"킙":9472,"킚":9473,"킛":9474,"킜":9475,"킝":9476,"킞":9477,"킟":9478,"킠":9479,"킡":9480,"킢":9481,"킣":9482,"키":9483,"킥":9484,"킦":9485,"킧":9486,"킨":9487,"킩":9488,"킪":9489,"킫":9490,"킬":9491,"킭":9492,"킮":9493,"킯":9494,"킰":9495,"킱":9496,"킲":9497,"킳":9498,"킴":9499,"킵":9500,"킶":9501,"킷":9502,"킸":9503,"킹":9504,"킺":9505,"킻":9506,"킼":9507,"킽":9508,"킾":9509,"킿":9510,"타":9511,"탁":9512,"탂":9513,"탃":9514,"탄":9515,"탅":9516,"탆":9517,"탇":9518,"탈":9519,"탉":9520,"탊":9521,"탋":9522,"탌":9523,"탍":9524,"탎":9525,"탏":9526,"탐":9527,"탑":9528,"탒":9529,"탓":9530,"탔":9531,"탕":9532,"탖":9533,"탗":9534,"탘":9535,"탙":9536,"탚":9537,"탛":9538,"태":9539,"택":9540,"탞":9541,"탟":9542,"탠":9543,"탡":9544,"탢":9545,"탣":9546,"탤":9547,"탥":9548,"탦":9549,"탧":9550,"탨":9551,"탩":9552,"탪":9553,"탫":9554,"탬":9555,"탭":9556,"탮":9557,"탯":9558,"탰":9559,"탱":9560,"탲":9561,"탳":9562,"탴":9563,"탵":9564,"탶":9565,"탷":9566,"탸":9567,"탹":9568,"탺":9569,"탻":9570,"탼":9571,"탽":9572,"탾":9573,"탿":9574,"턀":9575,"턁":9576,"턂":9577,"턃":9578,"턄":9579,"턅":9580,"턆":9581,"턇":9582,"턈":9583,"턉":9584,"턊":9585,"턋":9586,"턌":9587,"턍":9588,"턎":9589,"턏":9590,"턐":9591,"턑":9592,"턒":9593,"턓":9594,"턔":9595,"턕":9596,"턖":9597,"턗":9598,"턘":9599,"턙":9600,"턚":9601,"턛":9602,"턜":9603,"턝":9604,"턞":9605,"턟":9606,"턠":9607,"턡":9608,"턢":9609,"턣":9610,"턤":9611,"턥":9612,"턦":9613,"턧":9614,"턨":9615,"턩":9616,"턪":9617,"턫":9618,"턬":9619,"턭":9620,"턮":9621,"턯":9622,"터":9623,"턱":9624,"턲":9625,"턳":9626,"턴":9627,"턵":9628,"턶":9629,"턷":9630,"털":9631,"턹":9632,"턺":9633,"턻":9634,"턼":9635,"턽":9636,"턾":9637,"턿":9638,"텀":9639,"텁":9640,"텂":9641,"텃":9642,"텅":9643,"텆":9644,"텇":9645,"텈":9646,"텉":9647,"텊":9648,"텋":9649,"테":9650,"텍":9651,"텎":9652,"텏":9653,"텐":9654,"텑":9655,"텒":9656,"텓":9657,"텔":9658,"텕":9659,"텖":9660,"텗":9661,"텘":9662,"텙":9663,"텚":9664,"텛":9665,"템":9666,"텝":9667,"텞":9668,"텟":9669,"텠":9670,"텡":9671,"텢":9672,"텣":9673,"텤":9674,"텥":9675,"텦":9676,"텧":9677,"텨":9678,"텩":9679,"텪":9680,"텫":9681,"텬":9682,"텭":9683,"텮":9684,"텯":9685,"텰":9686,"텱":9687,"텲":9688,"텳":9689,"텴":9690,"텵":9691,"텶":9692,"텷":9693,"텸":9694,"텹":9695,"텺":9696,"텻":9697,"텼":9698,"텽":9699,"텾":9700,"텿":9701,"톀":9702,"톁":9703,"톂":9704,"톃":9705,"톄":9706,"톅":9707,"톆":9708,"톇":9709,"톈":9710,"톉":9711,"톊":9712,"톋":9713,"톌":9714,"톍":9715,"톎":9716,"톏":9717,"톐":9718,"톑":9719,"톒":9720,"톓":9721,"톔":9722,"톕":9723,"톖":9724,"톗":9725,"톘":9726,"톙":9727,"톚":9728,"톛":9729,"톜":9730,"톝":9731,"톞":9732,"톟":9733,"토":9734,"톡":9735,"톢":9736,"톣":9737,"톤":9738,"톥":9739,"톦":9740,"톧":9741,"톨":9742,"톩":9743,"톪":9744,"톫":9745,"톬":9746,"톭":9747,"톮":9748,"톯":9749,"톰":9750,"톱":9751,"톲":9752,"톳":9753,"톴":9754,"통":9755,"톶":9756,"톷":9757,"톸":9758,"톹":9759,"톺":9760,"톻":9761,"톼":9762,"톽":9763,"톾":9764,"톿":9765,"퇀":9766,"퇁":9767,"퇂":9768,"퇃":9769,"퇄":9770,"퇅":9771,"퇆":9772,"퇇":9773,"퇈":9774,"퇉":9775,"퇊":9776,"퇋":9777,"퇌":9778,"퇍":9779,"퇎":9780,"퇏":9781,"퇐":9782,"퇑":9783,"퇒":9784,"퇓":9785,"퇔":9786,"퇕":9787,"퇖":9788,"퇗":9789,"퇘":9790,"퇙":9791,"퇚":9792,"퇛":9793,"퇜":9794,"퇝":9795,"퇞":9796,"퇟":9797,"퇠":9798,"퇡":9799,"퇢":9800,"퇣":9801,"퇤":9802,"퇥":9803,"퇦":9804,"퇧":9805,"퇨":9806,"퇩":9807,"퇪":9808,"퇫":9809,"퇬":9810,"퇭":9811,"퇮":9812,"퇯":9813,"퇰":9814,"퇱":9815,"퇲":9816,"퇳":9817,"퇴":9818,"퇵":9819,"퇶":9820,"퇷":9821,"퇸":9822,"퇹":9823,"퇺":9824,"퇻":9825,"퇼":9826,"퇽":9827,"퇾":9828,"퇿":9829,"툀":9830,"툁":9831,"툂":9832,"툃":9833,"툄":9834,"툅":9835,"툆":9836,"툇":9837,"툈":9838,"툉":9839,"툊":9840,"툋":9841,"툌":9842,"툍":9843,"툎":9844,"툏":9845,"툐":9846,"툑":9847,"툒":9848,"툓":9849,"툔":9850,"툕":9851,"툖":9852,"툗":9853,"툘":9854,"툙":9855,"툚":9856,"툛":9857,"툜":9858,"툝":9859,"툞":9860,"툟":9861,"툠":9862,"툡":9863,"툢":9864,"툣":9865,"툤":9866,"툥":9867,"툦":9868,"툧":9869,"툨":9870,"툩":9871,"툪":9872,"툫":9873,"투":9874,"툭":9875,"툮":9876,"툯":9877,"툰":9878,"툱":9879,"툲":9880,"툳":9881,"툴":9882,"툵":9883,"툶":9884,"툷":9885,"툸":9886,"툹":9887,"툺":9888,"툻":9889,"툼":9890,"툽":9891,"툾":9892,"툿":9893,"퉀":9894,"퉁":9895,"퉂":9896,"퉃":9897,"퉄":9898,"퉅":9899,"퉆":9900,"퉇":9901,"퉈":9902,"퉉":9903,"퉊":9904,"퉋":9905,"퉌":9906,"퉍":9907,"퉎":9908,"퉏":9909,"퉐":9910,"퉑":9911,"퉒":9912,"퉓":9913,"퉔":9914,"퉕":9915,"퉖":9916,"퉗":9917,"퉘":9918,"퉙":9919,"퉚":9920,"퉛":9921,"퉜":9922,"퉝":9923,"퉞":9924,"퉟":9925,"퉠":9926,"퉡":9927,"퉢":9928,"퉣":9929,"퉤":9930,"퉥":9931,"퉦":9932,"퉧":9933,"퉨":9934,"퉩":9935,"퉪":9936,"퉫":9937,"퉬":9938,"퉭":9939,"퉮":9940,"퉯":9941,"퉰":9942,"퉱":9943,"퉲":9944,"퉳":9945,"퉴":9946,"퉵":9947,"퉶":9948,"퉷":9949,"퉸":9950,"퉹":9951,"퉺":9952,"퉻":9953,"퉼":9954,"퉽":9955,"퉾":9956,"퉿":9957,"튀":9958,"튁":9959,"튂":9960,"튃":9961,"튄":9962,"튅":9963,"튆":9964,"튇":9965,"튈":9966,"튉":9967,"튊":9968,"튋":9969,"튌":9970,"튍":9971,"튎":9972,"튏":9973,"튐":9974,"튑":9975,"튒":9976,"튓":9977,"튔":9978,"튕":9979,"튖":9980,"튗":9981,"튘":9982,"튙":9983,"튚":9984,"튛":9985,"튜":9986,"튝":9987,"튞":9988,"튟":9989,"튠":9990,"튡":9991,"튢":9992,"튣":9993,"튤":9994,"튥":9995,"튦":9996,"튧":9997,"튨":9998,"튩":9999,"튪":10000,"튫":10001,"튬":10002,"튭":10003,"튮":10004,"튯":10005,"튰":10006,"튱":10007,"튲":10008,"튳":10009,"튴":10010,"튵":10011,"튶":10012,"튷":10013,"트":10014,"특":10015,"튺":10016,"튻":10017,"튼":10018,"튽":10019,"튾":10020,"튿":10021,"틀":10022,"틁":10023,"틂":10024,"틃":10025,"틄":10026,"틅":10027,"틆":10028,"틇":10029,"틈":10030,"틉":10031,"틊":10032,"틋":10033,"틌":10034,"틍":10035,"틎":10036,"틏":10037,"틐":10038,"틑":10039,"틒":10040,"틓":10041,"틔":10042,"틕":10043,"틖":10044,"틗":10045,"틘":10046,"틙":10047,"틚":10048,"틛":10049,"틜":10050,"틝":10051,"틞":10052,"틟":10053,"틠":10054,"틡":10055,"틢":10056,"틣":10057,"틤":10058,"틥":10059,"틦":10060,"틧":10061,"틨":10062,"틩":10063,"틪":10064,"틫":10065,"틬":10066,"틭":10067,"틮":10068,"틯":10069,"티":10070,"틱":10071,"틲":10072,"틳":10073,"틴":10074,"틵":10075,"틶":10076,"틷":10077,"틸":10078,"틹":10079,"틺":10080,"틻":10081,"틼":10082,"틽":10083,"틾":10084,"틿":10085,"팀":10086,"팁":10087,"팂":10088,"팃":10089,"팄":10090,"팅":10091,"팆":10092,"팇":10093,"팈":10094,"팉":10095,"팊":10096,"팋":10097,"파":10098,"팍":10099,"팎":10100,"팏":10101,"판":10102,"팑":10103,"팒":10104,"팓":10105,"팔":10106,"팕":10107,"팖":10108,"팗":10109,"팘":10110,"팙":10111,"팚":10112,"팛":10113,"팜":10114,"팝":10115,"팞":10116,"팟":10117,"팠":10118,"팡":10119,"팢":10120,"팣":10121,"팤":10122,"팥":10123,"팦":10124,"팧":10125,"패":10126,"팩":10127,"팪":10128,"팫":10129,"팬":10130,"팭":10131,"팮":10132,"팯":10133,"팰":10134,"팱":10135,"팲":10136,"팳":10137,"팴":10138,"팵":10139,"팶":10140,"팷":10141,"팸":10142,"팹":10143,"팺":10144,"팻":10145,"팽":10146,"팾":10147,"팿":10148,"퍀":10149,"퍁":10150,"퍂":10151,"퍃":10152,"퍄":10153,"퍅":10154,"퍆":10155,"퍇":10156,"퍈":10157,"퍉":10158,"퍊":10159,"퍋":10160,"퍌":10161,"퍍":10162,"퍎":10163,"퍏":10164,"퍐":10165,"퍑":10166,"퍒":10167,"퍓":10168,"퍔":10169,"퍕":10170,"퍖":10171,"퍗":10172,"퍘":10173,"퍙":10174,"퍚":10175,"퍛":10176,"퍜":10177,"퍝":10178,"퍞":10179,"퍟":10180,"퍠":10181,"퍡":10182,"퍢":10183,"퍣":10184,"퍤":10185,"퍥":10186,"퍦":10187,"퍧":10188,"퍨":10189,"퍩":10190,"퍪":10191,"퍫":10192,"퍬":10193,"퍭":10194,"퍮":10195,"퍯":10196,"퍰":10197,"퍱":10198,"퍲":10199,"퍳":10200,"퍴":10201,"퍵":10202,"퍶":10203,"퍷":10204,"퍸":10205,"퍹":10206,"퍺":10207,"퍻":10208,"퍼":10209,"퍽":10210,"퍾":10211,"퍿":10212,"펀":10213,"펁":10214,"펂":10215,"펃":10216,"펄":10217,"펅":10218,"펆":10219,"펇":10220,"펈":10221,"펉":10222,"펊":10223,"펋":10224,"펌":10225,"펍":10226,"펎":10227,"펏":10228,"펐":10229,"펑":10230,"펒":10231,"펓":10232,"펔":10233,"펕":10234,"펖":10235,"펗":10236,"페":10237,"펙":10238,"펚":10239,"펛":10240,"펜":10241,"펝":10242,"펞":10243,"펟":10244,"펠":10245,"펡":10246,"펢":10247,"펣":10248,"펤":10249,"펥":10250,"펦":10251,"펧":10252,"펨":10253,"펩":10254,"펪":10255,"펫":10256,"펬":10257,"펭":10258,"펮":10259,"펯":10260,"펰":10261,"펱":10262,"펲":10263,"펳":10264,"펴":10265,"펵":10266,"펶":10267,"펷":10268,"편":10269,"펹":10270,"펺":10271,"펻":10272,"펼":10273,"펽":10274,"펾":10275,"펿":10276,"폀":10277,"폁":10278,"폂":10279,"폃":10280,"폄":10281,"폅":10282,"폆":10283,"폇":10284,"평":10285,"폊":10286,"폋":10287,"폌":10288,"폍":10289,"폎":10290,"폏":10291,"폐":10292,"폑":10293,"폒":10294,"폓":10295,"폔":10296,"폕":10297,"폖":10298,"폗":10299,"폘":10300,"폙":10301,"폚":10302,"폛":10303,"폜":10304,"폝":10305,"폞":10306,"폟":10307,"폠":10308,"폡":10309,"폢":10310,"폣":10311,"폤":10312,"폥":10313,"폦":10314,"폧":10315,"폨":10316,"폩":10317,"폪":10318,"폫":10319,"포":10320,"폭":10321,"폮":10322,"폯":10323,"폰":10324,"폱":10325,"폲":10326,"폳":10327,"폴":10328,"폵":10329,"폶":10330,"폷":10331,"폸":10332,"폹":10333,"폺":10334,"폻":10335,"폼":10336,"폽":10337,"폾":10338,"폿":10339,"퐀":10340,"퐁":10341,"퐂":10342,"퐃":10343,"퐄":10344,"퐅":10345,"퐆":10346,"퐇":10347,"퐈":10348,"퐉":10349,"퐊":10350,"퐋":10351,"퐌":10352,"퐍":10353,"퐎":10354,"퐏":10355,"퐐":10356,"퐑":10357,"퐒":10358,"퐓":10359,"퐔":10360,"퐕":10361,"퐖":10362,"퐗":10363,"퐘":10364,"퐙":10365,"퐚":10366,"퐛":10367,"퐜":10368,"퐝":10369,"퐞":10370,"퐟":10371,"퐠":10372,"퐡":10373,"퐢":10374,"퐣":10375,"퐤":10376,"퐥":10377,"퐦":10378,"퐧":10379,"퐨":10380,"퐩":10381,"퐪":10382,"퐫":10383,"퐬":10384,"퐭":10385,"퐮":10386,"퐯":10387,"퐰":10388,"퐱":10389,"퐲":10390,"퐳":10391,"퐴":10392,"퐵":10393,"퐶":10394,"퐷":10395,"퐸":10396,"퐹":10397,"퐺":10398,"퐻":10399,"퐼":10400,"퐽":10401,"퐾":10402,"퐿":10403,"푀":10404,"푁":10405,"푂":10406,"푃":10407,"푄":10408,"푅":10409,"푆":10410,"푇":10411,"푈":10412,"푉":10413,"푊":10414,"푋":10415,"푌":10416,"푍":10417,"푎":10418,"푏":10419,"푐":10420,"푑":10421,"푒":10422,"푓":10423,"푔":10424,"푕":10425,"푖":10426,"푗":10427,"푘":10428,"푙":10429,"푚":10430,"푛":10431,"표":10432,"푝":10433,"푞":10434,"푟":10435,"푠":10436,"푡":10437,"푢":10438,"푣":10439,"푤":10440,"푥":10441,"푦":10442,"푧":10443,"푨":10444,"푩":10445,"푪":10446,"푫":10447,"푬":10448,"푭":10449,"푮":10450,"푯":10451,"푰":10452,"푱":10453,"푲":10454,"푳":10455,"푴":10456,"푵":10457,"푶":10458,"푷":10459,"푸":10460,"푹":10461,"푺":10462,"푻":10463,"푼":10464,"푽":10465,"푾":10466,"푿":10467,"풀":10468,"풁":10469,"풂":10470,"풃":10471,"풄":10472,"풅":10473,"풆":10474,"풇":10475,"품":10476,"풉":10477,"풊":10478,"풋":10479,"풌":10480,"풍":10481,"풎":10482,"풏":10483,"풐":10484,"풑":10485,"풒":10486,"풓":10487,"풔":10488,"풕":10489,"풖":10490,"풗":10491,"풘":10492,"풙":10493,"풚":10494,"풛":10495,"풜":10496,"풝":10497,"풞":10498,"풟":10499,"풠":10500,"풡":10501,"풢":10502,"풣":10503,"풤":10504,"풥":10505,"풦":10506,"풧":10507,"풨":10508,"풩":10509,"풪":10510,"풫":10511,"풬":10512,"풭":10513,"풮":10514,"풯":10515,"풰":10516,"풱":10517,"풲":10518,"풳":10519,"풴":10520,"풵":10521,"풶":10522,"풷":10523,"풸":10524,"풹":10525,"풺":10526,"풻":10527,"풼":10528,"풽":10529,"풾":10530,"풿":10531,"퓀":10532,"퓁":10533,"퓂":10534,"퓃":10535,"퓄":10536,"퓅":10537,"퓆":10538,"퓇":10539,"퓈":10540,"퓉":10541,"퓊":10542,"퓋":10543,"퓌":10544,"퓍":10545,"퓎":10546,"퓏":10547,"퓐":10548,"퓑":10549,"퓒":10550,"퓓":10551,"퓔":10552,"퓕":10553,"퓖":10554,"퓗":10555,"퓘":10556,"퓙":10557,"퓚":10558,"퓛":10559,"퓜":10560,"퓝":10561,"퓞":10562,"퓟":10563,"퓠":10564,"퓡":10565,"퓢":10566,"퓣":10567,"퓤":10568,"퓥":10569,"퓦":10570,"퓧":10571,"퓨":10572,"퓩":10573,"퓪":10574,"퓫":10575,"퓬":10576,"퓭":10577,"퓮":10578,"퓯":10579,"퓰":10580,"퓱":10581,"퓲":10582,"퓳":10583,"퓴":10584,"퓵":10585,"퓶":10586,"퓷":10587,"퓸":10588,"퓹":10589,"퓺":10590,"퓻":10591,"퓼":10592,"퓽":10593,"퓾":10594,"퓿":10595,"픀":10596,"픁":10597,"픂":10598,"픃":10599,"프":10600,"픅":10601,"픆":10602,"픇":10603,"픈":10604,"픉":10605,"픊":10606,"픋":10607,"플":10608,"픍":10609,"픎":10610,"픏":10611,"픐":10612,"픑":10613,"픒":10614,"픓":10615,"픔":10616,"픕":10617,"픖":10618,"픗":10619,"픘":10620,"픙":10621,"픚":10622,"픛":10623,"픜":10624,"픝":10625,"픞":10626,"픟":10627,"픠":10628,"픡":10629,"픢":10630,"픣":10631,"픤":10632,"픥":10633,"픦":10634,"픧":10635,"픨":10636,"픩":10637,"픪":10638,"픫":10639,"픬":10640,"픭":10641,"픮":10642,"픯":10643,"픰":10644,"픱":10645,"픲":10646,"픳":10647,"픴":10648,"픵":10649,"픶":10650,"픷":10651,"픸":10652,"픹":10653,"픺":10654,"픻":10655,"피":10656,"픽":10657,"픾":10658,"픿":10659,"핀":10660,"핁":10661,"핂":10662,"핃":10663,"필":10664,"핅":10665,"핆":10666,"핇":10667,"핈":10668,"핉":10669,"핊":10670,"핋":10671,"핌":10672,"핍":10673,"핎":10674,"핏":10675,"핐":10676,"핑":10677,"핒":10678,"핓":10679,"핔":10680,"핕":10681,"핖":10682,"핗":10683,"하":10684,"학":10685,"핚":10686,"핛":10687,"한":10688,"핝":10689,"핞":10690,"핟":10691,"할":10692,"핡":10693,"핢":10694,"핣":10695,"핤":10696,"핥":10697,"핦":10698,"핧":10699,"함":10700,"합":10701,"핪":10702,"핫":10703,"핬":10704,"항":10705,"핮":10706,"핯":10707,"핰":10708,"핱":10709,"핲":10710,"핳":10711,"해":10712,"핵":10713,"핶":10714,"핷":10715,"핸":10716,"핹":10717,"핺":10718,"핻":10719,"핼":10720,"핽":10721,"핾":10722,"핿":10723,"햀":10724,"햁":10725,"햂":10726,"햃":10727,"햄":10728,"햅":10729,"햆":10730,"햇":10731,"했":10732,"행":10733,"햊":10734,"햋":10735,"햌":10736,"햍":10737,"햎":10738,"햏":10739,"햐":10740,"햑":10741,"햒":10742,"햓":10743,"햔":10744,"햕":10745,"햖":10746,"햗":10747,"햘":10748,"햙":10749,"햚":10750,"햛":10751,"햜":10752,"햝":10753,"햞":10754,"햟":10755,"햠":10756,"햡":10757,"햢":10758,"햣":10759,"햤":10760,"향":10761,"햦":10762,"햧":10763,"햨":10764,"햩":10765,"햪":10766,"햫":10767,"햬":10768,"햭":10769,"햮":10770,"햯":10771,"햰":10772,"햱":10773,"햲":10774,"햳":10775,"햴":10776,"햵":10777,"햶":10778,"햷":10779,"햸":10780,"햹":10781,"햺":10782,"햻":10783,"햼":10784,"햽":10785,"햾":10786,"햿":10787,"헁":10788,"헂":10789,"헃":10790,"헄":10791,"헅":10792,"헆":10793,"헇":10794,"허":10795,"헉":10796,"헊":10797,"헋":10798,"헌":10799,"헍":10800,"헎":10801,"헏":10802,"헐":10803,"헑":10804,"헒":10805,"헓":10806,"헔":10807,"헕":10808,"헖":10809,"헗":10810,"험":10811,"헙":10812,"헚":10813,"헛":10814,"헝":10815,"헞":10816,"헟":10817,"헠":10818,"헡":10819,"헢":10820,"헣":10821,"헤":10822,"헥":10823,"헦":10824,"헧":10825,"헨":10826,"헩":10827,"헪":10828,"헫":10829,"헬":10830,"헭":10831,"헮":10832,"헯":10833,"헰":10834,"헱":10835,"헲":10836,"헳":10837,"헴":10838,"헵":10839,"헶":10840,"헷":10841,"헹":10842,"헺":10843,"헻":10844,"헼":10845,"헽":10846,"헾":10847,"헿":10848,"혀":10849,"혁":10850,"혂":10851,"혃":10852,"현":10853,"혅":10854,"혆":10855,"혇":10856,"혈":10857,"혉":10858,"혊":10859,"혋":10860,"혌":10861,"혍":10862,"혎":10863,"혏":10864,"혐":10865,"협":10866,"혒":10867,"혓":10868,"혔":10869,"형":10870,"혖":10871,"혗":10872,"혘":10873,"혙":10874,"혚":10875,"혛":10876,"혜":10877,"혝":10878,"혞":10879,"혟":10880,"혠":10881,"혡":10882,"혢":10883,"혣":10884,"혤":10885,"혥":10886,"혦":10887,"혧":10888,"혨":10889,"혩":10890,"혪":10891,"혫":10892,"혬":10893,"혭":10894,"혮":10895,"혯":10896,"혰":10897,"혱":10898,"혲":10899,"혳":10900,"혴":10901,"혵":10902,"혶":10903,"혷":10904,"호":10905,"혹":10906,"혺":10907,"혻":10908,"혼":10909,"혽":10910,"혾":10911,"혿":10912,"홀":10913,"홁":10914,"홂":10915,"홃":10916,"홄":10917,"홅":10918,"홆":10919,"홇":10920,"홈":10921,"홉":10922,"홊":10923,"홋":10924,"홌":10925,"홍":10926,"홎":10927,"홏":10928,"홐":10929,"홑":10930,"홒":10931,"홓":10932,"화":10933,"확":10934,"홖":10935,"홗":10936,"환":10937,"홙":10938,"홚":10939,"홛":10940,"활":10941,"홝":10942,"홞":10943,"홟":10944,"홠":10945,"홡":10946,"홢":10947,"홣":10948,"홤":10949,"홥":10950,"홦":10951,"홧":10952,"홨":10953,"황":10954,"홪":10955,"홫":10956,"홬":10957,"홭":10958,"홮":10959,"홯":10960,"홰":10961,"홱":10962,"홲":10963,"홳":10964,"홴":10965,"홵":10966,"홶":10967,"홷":10968,"홸":10969,"홹":10970,"홺":10971,"홻":10972,"홼":10973,"홽":10974,"홾":10975,"홿":10976,"횀":10977,"횁":10978,"횂":10979,"횃":10980,"횄":10981,"횅":10982,"횆":10983,"횇":10984,"횈":10985,"횉":10986,"횊":10987,"횋":10988,"회":10989,"획":10990,"횎":10991,"횏":10992,"횐":10993,"횑":10994,"횒":10995,"횓":10996,"횔":10997,"횕":10998,"횖":10999,"횗":11000,"횘":11001,"횙":11002,"횚":11003,"횛":11004,"횜":11005,"횝":11006,"횞":11007,"횟":11008,"횠":11009,"횡":11010,"횢":11011,"횣":11012,"횤":11013,"횥":11014,"횦":11015,"횧":11016,"효":11017,"횩":11018,"횪":11019,"횫":11020,"횬":11021,"횭":11022,"횮":11023,"횯":11024,"횰":11025,"횱":11026,"횲":11027,"횳":11028,"횴":11029,"횵":11030,"횶":11031,"횷":11032,"횸":11033,"횹":11034,"횺":11035,"횻":11036,"횼":11037,"횽":11038,"횾":11039,"횿":11040,"훀":11041,"훁":11042,"훂":11043,"훃":11044,"후":11045,"훅":11046,"훆":11047,"훇":11048,"훈":11049,"훉":11050,"훊":11051,"훋":11052,"훌":11053,"훍":11054,"훎":11055,"훏":11056,"훐":11057,"훑":11058,"훒":11059,"훓":11060,"훔":11061,"훕":11062,"훖":11063,"훗":11064,"훘":11065,"훙":11066,"훚":11067,"훛":11068,"훜":11069,"훝":11070,"훞":11071,"훟":11072,"훠":11073,"훡":11074,"훢":11075,"훣":11076,"훤":11077,"훥":11078,"훦":11079,"훧":11080,"훨":11081,"훩":11082,"훪":11083,"훫":11084,"훬":11085,"훭":11086,"훮":11087,"훯":11088,"훰":11089,"훱":11090,"훲":11091,"훳":11092,"훴":11093,"훵":11094,"훶":11095,"훷":11096,"훸":11097,"훹":11098,"훺":11099,"훻":11100,"훼":11101,"훽":11102,"훾":11103,"훿":11104,"휀":11105,"휁":11106,"휂":11107,"휃":11108,"휄":11109,"휅":11110,"휆":11111,"휇":11112,"휈":11113,"휉":11114,"휊":11115,"휋":11116,"휌":11117,"휍":11118,"휎":11119,"휏":11120,"휐":11121,"휑":11122,"휒":11123,"휓":11124,"휔":11125,"휕":11126,"휖":11127,"휗":11128,"휘":11129,"휙":11130,"휚":11131,"휛":11132,"휜":11133,"휝":11134,"휞":11135,"휟":11136,"휠":11137,"휡":11138,"휢":11139,"휣":11140,"휤":11141,"휥":11142,"휦":11143,"휧":11144,"휨":11145,"휩":11146,"휪":11147,"휫":11148,"휬":11149,"휭":11150,"휮":11151,"휯":11152,"휰":11153,"휱":11154,"휲":11155,"휳":11156,"휴":11157,"휵":11158,"휶":11159,"휷":11160,"휸":11161,"휹":11162,"휺":11163,"휻":11164,"휼":11165,"휽":11166,"휾":11167,"휿":11168,"흀":11169,"흁":11170,"흂":11171,"흃":11172,"흄":11173,"흅":11174,"흆":11175,"흇":11176,"흈":11177,"흉":11178,"흊":11179,"흋":11180,"흌":11181,"흍":11182,"흎":11183,"흏":11184,"흐":11185,"흑":11186,"흒":11187,"흓":11188,"흔":11189,"흕":11190,"흖":11191,"흗":11192,"흘":11193,"흙":11194,"흚":11195,"흛":11196,"흜":11197,"흝":11198,"흞":11199,"흟":11200,"흠":11201,"흡":11202,"흢":11203,"흣":11204,"흤":11205,"흥":11206,"흦":11207,"흧":11208,"흨":11209,"흩":11210,"흪":11211,"흫":11212,"희":11213,"흭":11214,"흮":11215,"흯":11216,"흰":11217,"흱":11218,"흲":11219,"흳":11220,"흵":11221,"흶":11222,"흷":11223,"흸":11224,"흹":11225,"흺":11226,"흻":11227,"흼":11228,"흽":11229,"흾":11230,"흿":11231,"힀":11232,"힁":11233,"힂":11234,"힃":11235,"힄":11236,"힅":11237,"힆":11238,"힇":11239,"히":11240,"힉":11241,"힊":11242,"힋":11243,"힌":11244,"힍":11245,"힎":11246,"힏":11247,"힐":11248,"힑":11249,"힒":11250,"힓":11251,"힔":11252,"힕":11253,"힖":11254,"힗":11255,"힘":11256,"힙":11257,"힚":11258,"힛":11259,"힜":11260,"힝":11261,"힞":11262,"힟":11263,"힠":11264,"힡":11265,"힢":11266,"힣":11267,"##헤":11268,"##치":11269,"##굴":11270,"##이":11271,"##처":11272,"##럼":11273,"##달":11274,"##시":11275,"##M":11276,"##w":11277,"##a":11278,"##t":11279,"##c":11280,"##h":11281,"##e":11282,"##r":11283,"##i":11284,"##m":11285,"##o":11286,"##v":11287,"##길":11288,"##자":11289,"##하":11290,"##신":11291,"##년":11292,"##운":11293,"##즈":11294,"##뷰":11295,"##T":11296,"##P":11297,"##s":11298,"##y":11299,"##I":11300,"##S":11301,"##A":11302,"##U":11303,"##ㅝ":11304,"##ㄺ":11305,"##9":11306,"##8":11307,"##7":11308,"##0":11309,"##6":11310,"##2":11311,"##l":11312,"##n":11313,"##g":11314,"##d":11315,"##u":11316,"##전":11317,"##법":11318,"##1":11319,"##무":11320,"##k":11321,"##p":11322,"##종":11323,"##완":11324,"##q":11325,"##b":11326,"##5":11327,"##4":11328,"##B":11329,"##친":11330,"##f":11331,"##>":11332,"##형":11333,"##식":11334,"##탄":11335,"##재":11336,"##명":11337,"##할":11338,"##아":11339,"##비":11340,"##3":11341,"##콜":11342,"##리":11343,"##모":11344,"##프":11345,"##스":11346,"##키":11347,"##티":11348,"##브":11349,"##랜":11350,"##R":11351,"##의":11352,"##글":11353,"##콘":11354,"##ㄹ":11355,"##ㄱ":11356,"##N":11357,"##Y":11358,"##O":11359,"##ㅎ":11360,"##태":11361,"##룡":11362,"##네":11363,"##바":11364,"##호":11365,"##z":11366,"##C":11367,"##D":11368,"##L":11369,"##현":11370,"##노":11371,"##석":11372,"##주":11373,"##K":11374,"##E":11375,"##랑":11376,"##거":11377,"##철":11378,"##동":11379,"##으":11380,"##랴":11381,"##안":11382,"##한":11383,"##지":11384,"##나":11385,"##트":11386,"##가":11387,"##옥":11388,"##성":11389,"##x":11390,"##민":11391,"##상":11392,"##루":11393,"##ㅅ":11394,"##콧":11395,"##토":11396,"##멘":11397,"##쿠":11398,"##라":11399,"##인":11400,"##에":11401,"##판":11402,"##둔":11403,"##궈":11404,"##위":11405,"##G":11406,"##단":11407,"##히":11408,"##정":11409,"##톤":11410,"##울":11411,"##움":11412,"##H":11413,"##V":11414,"##X":11415,"##F":11416,"##흠":11417,"##속":11418,"##만":11419,"##서":11420,"##연":11421,"##란":11422,"##체":11423,"##카":11424,"##진":11425,"##관":11426,"##또":11427,"##기":11428,"##당":11429,"##천":11430,"##워":11431,"##츠":11432,"##오":11433,"##미":11434,"##커":11435,"##j":11436,"##산":11437,"##디":11438,"##케":11439,"##터":11440,"##영":11441,"##홍":11442,"##결":11443,"##르":11444,"##누":11445,"##곡":11446,"##선":11447,"##대":11448,"##며":11449,"##샤":11450,"##크":11451,"##례":11452,"##우":11453,"##켓":11454,"##권":11455,"##경":11456,"##드":11457,"##린":11458,"##벙":11459,"##텀":11460,"##W":11461,"##량":11462,"##윤":11463,"##국":11464,"##윽":11465,"##반":11466,"##파":11467,"##불":11468,"##는":11469,"##.":11470,"##?":11471,"##로":11472,"##부":11473,"##화":11474,"##Z":11475,"##갤":11476,"##러":11477,"##사":11478,"##발":11479,"##장":11480,"##댄":11481,"##릿":11482,"##매":11483,"##방":11484,"##악":11485,"##마":11486,"##보":11487,"##다":11488,"##어":11489,"##내":11490,"##데":11491,"##레":11492,"##소":11493,"##봉":11494,"##덕":11495,"##수":11496,"##껍":11497,"##질":11498,"##빔":11499,"##칙":11500,"##$":11501,"##병":11502,"##ㅋ":11503,"##혁":11504,"##령":11505,"##ㅡ":11506,"##와":11507,"##피":11508,"##물":11509,"##니":11510,"##뮌":11511,"##Q":11512,"##도":11513,"##슨":11514,"##젤":11515,"##클":11516,"##톡":11517,"##문":11518,"##버":11519,"##야":11520,"##합":11521,"##술":11522,"##%":11523,"##/":11524,"##+":11525,"##}":11526,"##*":11527,"##{":11528,"##요":11529,"##톰":11530,"##균":11531,"##강":11532,"##책":11533,"##테":11534,"##코":11535,"##걸":11536,"##창":11537,"##훈":11538,"##고":11539,"##앵":11540,"##일":11541,"##제":11542,"##염":11543,"##희":11544,"##든":11545,"##골":11546,"##효":11547,"##살":11548,"##님":11549,"##회":11550,"##폰":11551,"##건":11552,"##포":11553,"##후":11554,"##암":11555,"##언":11556,"##겸":11557,"##복":11558,"##플":11559,"##푸":11560,"##런":11561,"##군":11562,"##그":11563,"##웃":11564,"##람":11565,"##델":11566,"##넬":11567,"##메":11568,"##슈":11569,"##통":11570,"##청":11571,"##용":11572,"##독":11573,"##J":11574,"##맥":11575,"##힐":11576,"##떡":11577,"##세":11578,"##딱":11579,"##쓰":11580,"##널":11581,"##킥":11582,"##을":11583,"##왕":11584,"##색":11585,"##렌":11586,"##역":11587,"##링":11588,"##른":11589,"##필":11590,"##근":11591,"##심":11592,"##범":11593,"##절":11594,"##들":11595,"##펑":11596,"##택":11597,"##총":11598,"##조":11599,"##환":11600,"##쇄":11601,"##밀":11602,"##빌":11603,"##를":11604,"##극":11605,"##찰":11606,"##개":11607,"##원":11608,"##중":11609,"##배":11610,"##ㅘ":11611,"##ㅆ":11612,"##금":11613,"##까":11614,"##닥":11615,"##했":11616,"##래":11617,"##뇌":11618,"##냥":11619,"##돌":11620,"##찬":11621,"##새":11622,"##베":11623,"##긴":11624,"##페":11625,"##행":11626,"##쉬":11627,"##려":11628,"##침":11629,"##타":11630,"##해":11631,"##각":11632,"##뚝":11633,"##섯":11634,"##ㅈ":11635,"##득":11636,"##광":11637,"##규":11638,"##륀":11639,"##뒤":11640,"##쇼":11641,"##날":11642,"##육":11643,"##잔":11644,"##림":11645,"##혔":11646,"##감":11647,"##띠":11648,"##쑝":11649,"##구":11650,"##유":11651,"##순":11652,"##짐":11653,"##롱":11654,"##력":11655,"##욕":11656,"##탕":11657,"##ㅇ":11658,"##둥":11659,"##던":11660,"##말":11661,"##융":11662,"##웅":11663,"##께":11664,"##릉":11665,"##핑":11666,"##허":11667,"##입":11668,"##계":11669,"##면":11670,"##임":11671,"##엘":11672,"##업":11673,"##벨":11674,"##습":11675,"##과":11676,"##백":11677,"##힌":11678,"##익":11679,"##학":11680,"##간":11681,"##휴":11682,"##립":11683,"##촨":11684,"##능":11685,"##숙":11686,"##승":11687,"##월":11688,"##적":11689,"##추":11690,"##충":11691,"##킵":11692,"##갯":11693,"##머":11694,"##송":11695,"##은":11696,"##벌":11697,"##뢰":11698,"##혀":11699,"##째":11700,"##교":11701,"##흔":11702,"##램":11703,"##생":11704,"##(":11705,"##손":11706,"##빈":11707,"##셀":11708,"##&":11709,"###":11710,"##실":11711,"##엔":11712,"##젠":11713,"##ㅔ":11714,"##ㄳ":11715,"##\"":11716,"##:":11717,"##,":11718,"##렉":11719,"##갑":11720,"##횅":11721,"##론":11722,"##쟁":11723,"##목":11724,"##넨":11725,"##투":11726,"##ㅌ":11727,"##축":11728,"##셜":11729,"##센":11730,"##옹":11731,"##평":11732,"##검":11733,"##곳":11734,"##럽":11735,"##긍":11736,"##섭":11737,"##폭":11738,"##항":11739,"##류":11740,"##별":11741,"##숭":11742,"##열":11743,"##분":11744,"##낫":11745,"##흐":11746,"##측":11747,"##작":11748,"##릴":11749,"##춘":11750,"##얀":11751,"##딸":11752,"##삼":11753,"##음":11754,"##랃":11755,"##혐":11756,"##핀":11757,"##젓":11758,"##응":11759,"##ㄷ":11760,"##양":11761,"##렛":11762,"##납":11763,"##남":11764,"##션":11765,"##켄":11766,"##점":11767,"##꿩":11768,"##설":11769,"##존":11770,"##퇴":11771,"##잭":11772,"##변":11773,"##딜":11774,"##저":11775,"##|":11776,"##증":11777,"##셋":11778,"##ㅊ":11779,"##웨":11780,"##샨":11781,"##쓴":11782,"##취":11783,"##얼":11784,"##겨":11785,"##!":11786,"##직":11787,"##급":11788,"##빛":11789,"##략":11790,"##궁":11791,"##벽":11792,"##패":11793,"##게":11794,"##채":11795,"##떼":11796,"##틴":11797,"##졌":11798,"##족":11799,"##짭":11800,"##ㅞ":11801,"##ㄻ":11802,"##털":11803,"##칸":11804,"##차":11805,"##느":11806,"##름":11807,"##여":11808,"##롬":11809,"##애":11810,"##담":11811,"##몸":11812,"##뚱":11813,"##올":11814,"##약":11815,"##먼":11816,"##률":11817,"##헌":11818,"##롤":11819,"##-":11820,"##]":11821,"##공":11822,"##박":11823,"##ㅀ":11824,"##받":11825,"##닝":11826,"##풍":11827,"##땀":11828,"##퀘":11829,"##ㄽ":11830,"##곤":11831,"##헨":11832,"##ᆫ":11833,"##더":11834,"##초":11835,"##즌":11836,"##놀":11837,"##챤":11838,"##녕":11839,"##잉":11840,"##빨":11841,"##향":11842,"##껄":11843,"##알":11844,"##ㅟ":11845,"##튼":11846,"##룬":11847,"##꽃":11848,"##농":11849,"##힝":11850,"##랄":11851,"##온":11852,"##곰":11853,"##꾸":11854,"##쌍":11855,"##잖":11856,"##;":11857,"##뤼":11858,"##긋":11859,"##ㅓ":11860,"##좌":11861,"##픈":11862,"##랭":11863,"##멈":11864,"##두":11865,"##준":11866,"##흑":11867,"##격":11868,"##핰":11869,"##ㄴ":11870,"##쾅":11871,"##잠":11872,"##냐":11873,"##슬":11874,"##귀":11875,"##본":11876,"##돔":11877,"##망":11878,"##막":11879,"##겔":11880,"##첩":11881,"##집":11882,"##섬":11883,"##압":11884,"##벳":11885,"##@":11886,"##흥":11887,"##읍":11888,"##~":11889,"##웩":11890,"##특":11891,"##깽":11892,"##딘":11893,"##접":11894,"##낸":11895,"##숑":11896,"##텐":11897,"##겐":11898,"##)":11899,"##예":11900,"##황":11901,"##쪘":11902,"##블":11903,"##따":11904,"##팅":11905,"##밟":11906,"##았":11907,"##샹":11908,"##첨":11909,"##등":11910,"##팔":11911,"##활":11912,"##표":11913,"##옴":11914,"##출":11915,"##귤":11916,"##냔":11917,"##탁":11918,"##너":11919,"##긿":11920,"##탈":11921,"##퀴":11922,"##ㅖ":11923,"##'":11924,"##츄":11925,"##릅":11926,"##륵":11927,"##곽":11928,"##없":11929,"##낄":11930,"##틀":11931,"##객":11932,"##혈":11933,"##퍼":11934,"##엣":11935,"##겧":11936,"##빙":11937,"##므":11938,"##탓":11939,"##몬":11940,"##돈":11941,"##앙":11942,"##탑":11943,"##록":11944,"##콕":11945,"##액":11946,"##볕":11947,"##율":11948,"##ㅁ":11949,"##밖":11950,"##욱":11951,"##\\":11952,"##팽":11953,"##괄":11954,"##멸":11955,"##괵":11956,"##칠":11957,"##ᆯ":11958,"##쏘":11959,"##난":11960,"##팝":11961,"##료":11962,"##넣":11963,"##꺄":11964,"##혜":11965,"##붕":11966,"##앨":11967,"##묘":11968,"##텔":11969,"##었":11970,"##먹":11971,"##쥐":11972,"##착":11973,"##쿄":11974,"##협":11975,"##킼":11976,"##톈":11977,"##귖":11978,"##궺":11979,"##긲":11980,"##깒":11981,"##깛":11982,"##긛":11983,"##켈":11984,"##릇":11985,"##릭":11986,"##때":11987,"##첵":11988,"##팡":11989,"##ㅣ":11990,"##ㅗ":11991,"##ㅜ":11992,"##ㅕ":11993,"##ㅛ":11994,"##ㅑ":11995,"##ㅠ":11996,"##락":11997,"##엉":11998,"##겅":11999,"##촌":12000,"##씀":12001,"##땅":12002,"##꼬":12003,"##맹":12004,"##뼈":12005,"##쇠":12006,"##싸":12007,"##잇":12008,"##킹":12009,"##맨":12010,"##멀":12011,"##밈":12012,"##윌":12013,"##폴":12014,"##븐":12015,"##씨":12016,"##댜":12017,"##렐":12018,"##컬":12019,"##휘":12020,"##징":12021,"##층":12022,"##궐":12023,"##샘":12024,"##갈":12025,"##렁":12026,"##럴":12027,"##덤":12028,"##ㅂ":12029,"##윈":12030,"##엽":12031,"##눈":12032,"##뱃":12033,"##갓":12034,"##겟":12035,"##쪄":12036,"##칼":12037,"##묵":12038,"##밍":12039,"##큘":12040,"##캐":12041,"##늘":12042,"##덮":12043,"##밥":12044,"##낭":12045,"##쟝":12046,"##촬":12047,"##찌":12048,"##켐":12049,"##엇":12050,"##못":12051,"##옙":12052,"##늄":12053,"##왈":12054,"##짜":12055,"##섹":12056,"##뿌":12057,"##룹":12058,"##툼":12059,"##깔":12060,"##끼":12061,"##웰":12062,"##룩":12063,"##촉":12064,"##춤":12065,"##ㄾ":12066,"##ㅍ":12067,"##캠":12068,"##^":12069,"##외":12070,"##썬":12071,"##짱":12072,"##써":12073,"##턴":12074,"##륨":12075,"##웬":12076,"##펜":12077,"##힉":12078,"##퐁":12079,"##혼":12080,"##몰":12081,"##꽈":12082,"##삽":12083,"##편":12084,"##샵":12085,"##톱":12086,"##렬":12087,"##닌":12088,"##깃":12089,"##팍":12090,"##윾":12091,"##톨":12092,"##쳐":12093,"##롄":12094,"##숲":12095,"##앗":12096,"##띄":12097,"##퍄":12098,"##덴":12099,"##렇":12100,"##빼":12101,"##ㅒ":12102,"##몽":12103,"##넓":12104,"##걀":12105,"##둘":12106,"##춰":12107,"##_":12108,"##쁘":12109,"##뎌":12110,"##십":12111,"##컹":12112,"##굉":12113,"##룸":12114,"##뇨":12115,"##맛":12116,"##빵":12117,"##굿":12118,"##뇰":12119,"##쪼":12120,"##함":12121,"##빅":12122,"##큐":12123,"##릐":12124,"##핏":12125,"##쮸":12126,"##쾌":12127,"##ㅏ":12128,"##념":12129,"##쿨":12130,"##츤":12131,"##렸":12132,"##험":12133,"##밤":12134,"##볼":12135,"##뿔":12136,"##앤":12137,"##쿤":12138,"##끈":12139,"##ㄲ":12140,"##꿀":12141,"##꼴":12142,"##죽":12143,"##솥":12144,"##텅":12145,"##큰":12146,"##붓":12147,"##펠":12148,"##뿐":12149,"##챠":12150,"##옌":12151,"##퉁":12152,"##퀸":12153,"##김":12154,"##첸":12155,"##억":12156,"##엤":12157,"##랆":12158,"##툭":12159,"##튀":12160,"##챔":12161,"##눔":12162,"##킬":12163,"##닉":12164,"##딩":12165,"##틱":12166,"##뱔":12167,"##놨":12168,"##륜":12169,"##싯":12170,"##깨":12171,"##늅":12172,"##깐":12173,"##잡":12174,"##잣":12175,"##컥":12176,"##둠":12177,"##북":12178,"##둑":12179,"##져":12180,"##답":12181,"##웜":12182,"##깡":12183,"##펫":12184,"##핳":12185,"##폐":12186,"##듬":12187,"##왓":12188,"##틸":12189,"##듀":12190,"##잎":12191,"##쌈":12192,"##횡":12193,"##쯔":12194,"##랠":12195,"##롭":12196,"##왁":12197,"##찍":12198,"##짓":12199,"##멩":12200,"##뉴":12201,"##붙":12202,"##삐":12203,"##쿡":12204,"##즘":12205,"##렘":12206,"##겍":12207,"##쳤":12208,"##샷":12209,"##씹":12210,"##렴":12211,"##닷":12212,"##번":12213,"##엠":12214,"##줄":12215,"##풀":12216,"##삭":12217,"##좋":12218,"##였":12219,"##졸":12220,"##츨":12221,"##련":12222,"##뮤":12223,"##즉":12224,"##멍":12225,"##뙈":12226,"##꺽":12227,"##쩌":12228,"##팩":12229,"##넷":12230,"##콤":12231,"##탬":12232,"##칭":12233,"##넴":12234,"##확":12235,"##벤":12236,"##<":12237,"##랫":12238,"##컨":12239,"##룽":12240,"##셔":12241,"##쪽":12242,"##죄":12243,"##솔":12244,"##칫":12245,"##킷":12246,"##팟":12247,"##댕":12248,"##깅":12249,"##웡":12250,"##킨":12251,"##귡":12252,"##긮":12253,"##깑":12254,"##숍":12255,"##덜":12256,"##헑":12257,"##텍":12258,"##윗":12259,"##젭":12260,"##럭":12261,"##쟈":12262,"##ㄵ":12263,"##ㄿ":12264,"##슘":12265,"##릣":12266,"##캔":12267,"##[":12268,"##쑤":12269,"##흉":12270,"##셈":12271,"##=":12272,"##뻑":12273,"##녀":12274,"##멜":12275,"##놈":12276,"##뜨":12277,"##끔":12278,"##쭉":12279,"##낙":12280,"##ㅢ":12281,"##랍":12282,"##콩":12283,"##괘":12284,"##웹":12285,"##엄":12286,"##떠":12287,"##눌":12288,"##쯤":12289,"##쫩":12290,"##꼼":12291,"##홈":12292,"##ㅐ":12293,"##씬":12294,"##벵":12295,"##ㄶ":12296,"##옇":12297,"##핍":12298,"##탸":12299,"##몹":12300,"##벡":12301,"##척":12302,"##멕":12303,"##`":12304,"##품":12305,"##ㄼ":12306,"##늬":12307,"##괴":12308,"##밋":12309,"##놓":12310,"##깤":12311,"##돫":12312,"##똘":12313,"##폄":12314,"##논":12315,"##룻":12316,"##숀":12317,"##럿":12318,"##눼":12319,"##밭":12320,"##쭘":12321,"##핸":12322,"##ㅚ":12323,"##렝":12324,"##닿":12325,"##젝":12326,"##껏":12327,"##뜩":12328,"##툴":12329,"##쿼":12330,"##횻":12331,"##값":12332,"##꿨":12333,"##겼":12334,"##있":12335,"##넘":12336,"##튜":12337,"##볶":12338,"##쉐":12339,"##샥":12340,"##빠":12341,"##뵈":12342,"##ㄸ":12343,"##싱":12344,"##섀":12345,"##견":12346,"##덩":12347,"##뇽":12348,"##읓":12349,"##헝":12350,"##낚":12351,"##틍":12352,"##되":12353,"##뤠":12354,"##꾀":12355,"##쥬":12356,"##훠":12357,"##쌤":12358,"##찐":12359,"##짝":12360,"##쨔":12361,"##넌":12362,"##뚜":12363,"##쇽":12364,"##툰":12365,"##팀":12366,"##솜":12367,"##렷":12368,"##휼":12369,"##즐":12370,"##잘":12371,"##횔":12372,"##숄":12373,"##쉰":12374,"##벅":12375,"##맘":12376,"##렙":12377,"##셉":12378,"##슝":12379,"##뇓":12380,"##흘":12381,"##챙":12382,"##빗":12383,"##듯":12384,"##딕":12385,"##참":12386,"##걱":12387,"##냇":12388,"##녜":12389,"##랗":12390,"##뱅":12391,"##벗":12392,"##뭉":12393,"##깥":12394,"##옆":12395,"##된":12396,"##쉽":12397,"##냈":12398,"##ㅄ":12399,"##씻":12400,"##픽":12401,"##캉":12402,"##킁":12403,"##첼":12404,"##펀":12405,"##킴":12406,"##홀":12407,"##좀":12408,"##밸":12409,"##쳉":12410,"##뮐":12411,"##쥔":12412,"##잼":12413,"##븝":12414,"##셰":12415,"##얌":12416,"##멋":12417,"##즙":12418,"##쫑":12419,"##썰":12420,"##딤":12421,"##퓌":12422,"##닫":12423,"##먀":12424,"##쿙":12425,"##돠":12426,"##먐":12427,"##뻘":12428,"##슴":12429,"##깎":12430,"##녹":12431,"##닾":12432,"##뱀":12433,"##쭐":12434,"##쭙":12435,"##헣":12436,"##싹":12437,"##샛":12438,"##찻":12439,"##쉴":12440,"##켜":12441,"##륙":12442,"##흣":12443,"##홋":12444,"##턱":12445,"##획":12446,"##둬":12447,"##떨":12448,"##끗":12449,"##룰":12450,"##젼":12451,"##볘":12452,"##컴":12453,"##퓨":12454,"##듁":12455,"##햐":12456,"##죠":12457,"##랙":12458,"##똥":12459,"##쓸":12460,"##뵤":12461,"##뵹":12462,"##윳":12463,"##뻬":12464,"##갱":12465,"##닦":12466,"##쎄":12467,"##찜":12468,"##텝":12469,"##풋":12470,"##같":12471,"##닐":12472,"##템":12473,"##탠":12474,"##뎅":12475,"##뢸":12476,"##앉":12477,"##꿍":12478,"##셸":12479,"##쩍":12480,"##슐":12481,"##핟":12482,"##찮":12483,"##빽":12484,"##욜":12485,"##뀌":12486,"##냠":12487,"##꾿":12488,"##훅":12489,"##ㅙ":12490,"##많":12491,"##펙":12492,"##ㅉ":12493,"##덱":12494,"##끄":12495,"##핵":12496,"##캇":12497,"##댔":12498,"##뽀":12499,"##쏙":12500,"##헥":12501,"##퇘":12502,"##싮":12503,"##낰":12504,"##쉑":12505,"##것":12506,"##삿":12507,"##붐":12508,"##텃":12509,"##캣":12510,"##얐":12511,"##듣":12512,"##랏":12513,"##룀":12514,"##폿":12515,"##밑":12516,"##닛":12517,"##깍":12518,"##튠":12519,"##핌":12520,"##뚠":12521,"##낼":12522,"##숫":12523,"##밴":12524,"##뽕":12525,"##얄":12526,"##탐":12527,"##읽":12528,"##읅":12529,"##맞":12530,"##맷":12531,"##왑":12532,"##쩔":12533,"##콱":12534,"##헬":12535,"##왠":12536,"##훙":12537,"##쿵":12538,"##엑":12539,"##뫼":12540,"##땃":12541,"##퀑":12542,"##뜐":12543,"##훼":12544,"##놋":12545,"##줴":12546,"##덟":12547,"##줘":12548,"##궤":12549,"##큿":12550,"##캄":12551,"##욤":12552,"##빡":12553,"##떙":12554,"##썹":12555,"##겜":12556,"##쨩":12557,"##쑥":12558,"##볜":12559,"##윅":12560,"##싶":12561,"##슷":12562,"##낳":12563,"##짹":12564,"##웠":12565,"##섞":12566,"##푀":12567,"##딥":12568,"##났":12569,"##쌔":12570,"##똑":12571,"##컷":12572,"##뭇":12573,"##뷔":12574,"##숨":12575,"##텁":12576,"##딧":12577,"##꼈":12578,"##녘":12579,"##갛":12580,"##뾰":12581,"##솝":12582,"##굛":12583,"##댦":12584,"##뷁":12585,"##곱":12586,"##윙":12587,"##꼿":12588,"##곲":12589,"##횞":12590,"##삾":12591,"##꿔":12592,"##쑹":12593,"##튬":12594,"##삡":12595,"##꽁":12596,"##ᄆ":12597,"##빰":12598,"##묄":12599,"##솟":12600,"##벚":12601,"##콥":12602,"##쉼":12603,"##봐":12604,"##맙":12605,"##맵":12606,"##탱":12607,"##훌":12608,"##엿":12609,"##탯":12610,"##샌":12611,"##맣":12612,"##펌":12613,"##굽":12614,"##귁":12615,"##욘":12616,"##젯":12617,"##횽":12618,"##믕":12619,"##꼽":12620,"##눗":12621,"##쫓":12622,"##떻":12623,"##얗":12624,"##댓":12625,"##냅":12626,"##옷":12627,"##믿":12628,"##삠":12629,"##멧":12630,"##꾼":12631,"##퀼":12632,"##퍽":12633,"##웍":12634,"##귬":12635,"##늡":12636,"##쎔":12637,"##쫄":12638,"##깁":12639,"##뼛":12640,"##큼":12641,"##끝":12642,"##쑊":12643,"##쌀":12644,"##쭵":12645,"##롼":12646,"##뉼":12647,"##벼":12648,"##ᄇ":12649,"##탤":12650,"##믈":12651,"##걷":12652,"##캅":12653,"##듭":12654,"##닭":12655,"##롯":12656,"##냉":12657,"##찡":12658,"##췌":12659,"##챱":12660,"##빱":12661,"##놉":12662,"##꽝":12663,"##쁜":12664,"##꺼":12665,"##뤄":12666,"##짤":12667,"##떵":12668,"##흡":12669,"##셨":12670,"##쁨":12671,"##렵":12672,"##삮":12673,"##낱":12674,"##밐":12675,"##칵":12676,"##홓":12677,"##꾹":12678,"##쌐":12679,"##냄":12680,"##캡":12681,"##풔":12682,"##촘":12683,"##춉":12684,"##쉘":12685,"##칣":12686,"##좡":12687,"##앞":12688,"##갸":12689,"##믄":12690,"##뻥":12691,"##츙":12692,"##녁":12693,"##팬":12694,"##팥":12695,"##찔":12696,"##굼":12697,"##헴":12698,"##띵":12699,"##펩":12700,"##륭":12701,"##쩨":12702,"##갖":12703,"##몫":12704,"##띤":12705,"##땐":12706,"##껑":12707,"##캑":12708,"##댈":12709,"##쾰":12710,"##팰":12711,"##촾":12712,"##샬":12713,"##켰":12714,"##믹":12715,"##혹":12716,"##눙":12717,"##뭅":12718,"##븀":12719,"##냑":12720,"##튕":12721,"##픔":12722,"##뎬":12723,"##솬":12724,"##먁":12725,"##햄":12726,"##죡":12727,"##뎀":12728,"##릎":12729,"##꿇":12730,"##쒸":12731,"##썩":12732,"##눕":12733,"##놰":12734,"##뒈":12735,"##댁":12736,"##싼":12737,"##콸":12738,"##씅":12739,"##멱":12740,"##댐":12741,"##쭈":12742,"##콰":12743,"##쌉":12744,"##뎃":12745,"##뼜":12746,"##슥":12747,"##넛":12748,"##뉘":12749,"##쫙":12750,"##븨":12751,"##옻":12752,"##듐":12753,"##뗘":12754,"##썽":12755,"##푼":12756,"##땜":12757,"##쏜":12758,"##냬":12759,"##뀨":12760,"##텡":12761,"##퇸":12762,"##꿰":12763,"##뮴":12764,"##햣":12765,"##컵":12766,"##챈":12767,"##괭":12768,"##쿰":12769,"##곗":12770,"##엪":12771,"##엫":12772,"##짚":12773,"##윷":12774,"##쓱":12775,"##챦":12776,"##깝":12777,"##쿶":12778,"##옵":12779,"##촐":12780,"##빚":12781,"##껀":12782,"##줏":12783,"##랩":12784,"##틋":12785,"##폘":12786,"##엌":12787,"##뻔":12788,"##겠":12789,"##즛":12790,"##힛":12791,"##긔":12792,"##헐":12793,"##뷴":12794,"##옛":12795,"##쌰":12796,"##씌":12797,"##잿":12798,"##읗":12799,"##쌩":12800,"##쨋":12801,"##펔":12802,"##왔":12803,"##콬":12804,"##칽":12805,"##껴":12806,"##팁":12807,"##웆":12808,"##녈":12809,"##띔":12810,"##뼥":12811,"##뒷":12812,"##랸":12813,"##읏":12814,"##덧":12815,"##땗":12816,"##높":12817,"##뽑":12818,"##뮬":12819,"##콴":12820,"##햘":12821,"##헛":12822,"##즁":12823,"##껚":12824,"##끓":12825,"##햅":12826,"##쎠":12827,"##힘":12828,"##텟":12829,"##잰":12830,"##뿜":12831,"##슾":12832,"##펄":12833,"##헠":12834,"##땡":12835,"##툐":12836,"##츹":12837,"##쵸":12838,"##쩐":12839,"##돼":12840,"##깻":12841,"##둗":12842,"##퉅":12843,"##둩":12844,"##쌓":12845,"##몯":12846,"##닏":12847,"##챰":12848,"##캌":12849,"##휙":12850,"##몇":12851,"##몃":12852,"##엡":12853,"##겹":12854,"##뛰":12855,"##딛":12856,"##곁":12857,"##뜰":12858,"##낛":12859,"##읷":12860,"##덗":12861,"##뻣":12862,"##꽂":12863,"##딪":12864,"##얘":12865,"##훳":12866,"##흫":12867,"##깊":12868,"##갬":12869,"##젱":12870,"##킅":12871,"##최":12872,"##늰":12873,"##홥":12874,"##솎":12875,"##앰":12876,"##뿅":12877,"##깟":12878,"##믐":12879,"##덥":12880,"##뱌":12881,"##뱡":12882,"##곧":12883,"##쌕":12884,"##돋":12885,"##쟘":12886,"##떱":12887,"##슛":12888,"##훔":12889,"##봄":12890,"##흙":12891,"##왜":12892,"##젖":12893,"##꼭":12894,"##돗":12895,"##셴":12896,"##뜸":12897,"##홧":12898,"##틈":12899,"##쫭":12900,"##옘":12901,"##왼":12902,"##랋":12903,"##컁":12904,"##쿱":12905,"##넥":12906,"##쨕":12907,"##슶":12908,"##틊":12909,"##귱":12910,"##봇":12911,"##쯱":12912,"##낌":12913,"##딴":12914,"##늦":12915,"##셩":12916,"##둇":12917,"##쭝":12918,"##뷸":12919,"##겁":12920,"##꿈":12921,"##쨈":12922,"##휠":12923,"##솀":12924,"##퉷":12925,"##뼉":12926,"##훤":12927,"##앜":12928,"##흰":12929,"##뻐":12930,"##쀼":12931,"##뜳":12932,"##퍗":12933,"##킄":12934,"##앓":12935,"##캘":12936,"##될":12937,"##륄":12938,"##즤":12939,"##빤":12940,"##퓰":12941,"##끽":12942,"##켚":12943,"##튮":12944,"##벖":12945,"##엥":12946,"##쬐":12947,"##쵹":12948,"##춈":12949,"##뚤":12950,"##딍":12951,"##뽈":12952,"##홉":12953,"##숟":12954,"##헯":12955,"##젧":12956,"##셷":12957,"##곶":12958,"##훕":12959,"##앱":12960,"##엎":12961,"##뾱":12962,"##훑":12963,"##촤":12964,"##샴":12965,"##캬":12966,"##왱":12967,"##핻":12968,"##갔":12969,"##쭤":12970,"##읭":12971,"##뎐":12972,"##폼":12973,"##ㅃ":12974,"##춧":12975,"##괸":12976,"##럐":12977,"##쨰":12978,"##둣":12979,"##듈":12980,"##뉸":12981,"##헿":12982,"##졀":12983,"##덫":12984,"##괏":12985,"##셍":12986,"##캭":12987,"##샐":12988,"##캢":12989,"##욦":12990,"##쾨":12991,"##졔":12992,"##칩":12993,"##끨":12994,"##팃":12995,"##봙":12996,"##뮨":12997,"##웁":12998,"##좆":12999,"##펭":13000,"##쑈":13001,"##귄":13002,"##쩡":13003,"##짼":13004,"##펴":13005,"##푹":13006,"##졬":13007,"##볓":13008,"##롸":13009,"##뛟":13010,"##픋":13011,"##캥":13012,"##뮈":13013,"##쨌":13014,"##왇":13015,"##팜":13016,"##닙":13017,"##뉵":13018,"##밧":13019,"##귐":13020,"##츰":13021,"##듥":13022,"##뽄":13023,"##넝":13024,"##챗":13025,"##솨":13026,"##탉":13027,"##퀀":13028,"##릘":13029,"##퀄":13030,"##훗":13031,"##뜫":13032,"##캰":13033,"##떈":13034,"##껭":13035,"##묻":13036,"##톳":13037,"##쒹":13038,"##큭":13039,"##듕":13040,"##섴":13041,"##퉤":13042,"##큅":13043,"##읖":13044,"##돛":13045,"##떰":13046,"##뿡":13047,"##꺅":13048,"##숴":13049,"##놔":13050,"##뼝":13051,"##젬":13052,"##싴":13053,"##삘":13054,"##퓻":13055,"##뚮":13056,"##쐙":13057,"##뽟":13058,"##죤":13059,"##슙":13060,"##췻":13061,"##묭":13062,"##숩":13063,"##윰":13064,"##줜":13065,"##씽":13066,"##넙":13067,"##몌":13068,"##짬":13069,"##퀵":13070,"##욺":13071,"##떽":13072,"##횩":13073,"##돖":13074,"##캆":13075,"##왒":13076,"##닯":13077,"##쏠":13078,"##옾":13079,"##눞":13080,"##잌":13081,"##맴":13082,"##쨍":13083,"##쟙":13084,"##꼐":13085,"##겉":13086,"##늕":13087,"##흗":13088,"##헹":13089,"##떄":13090,"##쯋":13091,"##뙇":13092,"##롁":13093,"##쮹":13094,"##몐":13095,"##꼇":13096,"##혠":13097,"##둡":13098,"##쑜":13099,"##줛":13100,"##놗":13101,"##솫":13102,"##뗛":13103,"##몼":13104,"##돇":13105,"##돣":13106,"##뢐":13107,"##홳":13108,"##잓":13109,"##웫":13110,"##룫":13111,"##뺃":13112,"##뗣":13113,"##긇":13114,"##흟":13115,"##맑":13116,"##슼":13117,"##싀":13118,"##츼":13119,"##똬":13120,"##쟛":13121,"##숎":13122,"##앟":13123,"##넉":13124,"##옳":13125,"##엃":13126,"##짧":13127,"##봡":13128,"##힠":13129,"##쑨":13130,"##홰":13131,"##웻":13132,"##쬴":13133,"##됼":13134,"##굑":13135,"##뜽":13136,"##끌":13137,"##삯":13138,"##셱":13139,"##듳":13140,"##댑":13141,"##붏":13142,"##붇":13143,"##숏":13144,"##넵":13145,"##궂":13146,"##핫":13147,"##퓩":13148,"##풉":13149,"##퐈":13150,"##뷘":13151,"##줌":13152,"##꽦":13153,"##륍":13154,"##멉":13155,"##옐":13156,"##귯":13157,"##뙤":13158,"##돕":13159,"##넹":13160,"##뾸":13161,"##꿎":13162,"##샅":13163,"##좟":13164,"##쭨":13165,"##씩":13166,"##볏":13167,"##톄":13168,"##늙":13169,"##슭":13170,"##휏":13171,"##않":13172,"##츈":13173,"##윔":13174,"##뛃":13175,"##괧":13176,"##켁":13177,"##됭":13178,"##맆":13179,"##쳰":13180,"##돩":13181,"##됬":13182,"##똔":13183,"##뫙":13184,"##씁":13185,"##봊":13186,"##걍":13187,"##찹":13188,"##촵":13189,"##샙":13190,"##웳":13191,"##늑":13192,"##삥":13193,"##훍":13194,"##뚥":13195,"##뺑":13196,"##낮":13197,"##늠":13198,"##늪":13199,"##뚬":13200,"##꿉":13201,"##쀳":13202,"##쵠":13203,"##몆":13204,"##퉈":13205,"##뤽":13206,"##찝":13207,"##엏":13208,"##꾱":13209,"##쏭":13210,"##굵":13211,"##혬":13212,"##쾃":13213,"##붑":13214,"##튽":13215,"##긱":13216,"##됴":13217,"##쁑":13218,"##떤":13219,"##싁":13220,"##끕":13221,"##빳":13222,"##뿝":13223,"##냣":13224,"##넠":13225,"##핡":13226,"##딯":13227,"##앚":13228,"##뽁":13229,"##찢":13230,"##챕":13231,"##솰":13232,"##픠":13233,"##젹":13234,"##삒":13235,"##뺵":13236,"##쩜":13237,"##썄":13238,"##엊":13239,"##쟌":13240,"##닮":13241,"##찾":13242,"##뇸":13243,"##쳇":13244,"##뱐":13245,"##잫":13246,"##끊":13247,"##밣":13248,"##멬":13249,"##엨":13250,"##윱":13251,"##쳡":13252,"##뚫":13253,"##쉟":13254,"##렣":13255,"##큄":13256,"##뿍":13257,"##큠":13258,"##펨":13259,"##웤":13260,"##좇":13261,"##벱":13262,"##굇":13263,"##췽":13264,"##궶":13265,"##궫":13266,"##궻":13267,"##랤":13268,"##궢":13269,"##뺴":13270,"##앳":13271,"##쬷":13272,"##홅":13273,"##욿":13274,"##쌻":13275,"##풇":13276,"##샇":13277,"##밌":13278,"##먄":13279,"##퉹":13280,"##핼":13281,"##뜻":13282,"##퇵":13283,"##꼰":13284,"##꾜":13285,"##찧":13286,"##욋":13287,"##볫":13288,"##낵":13289,"##찟":13290,"##웉":13291,"##뺀":13292,"##겋":13293,"##쪙":13294,"##쿳":13295,"##굠":13296,"##헙":13297,"##놘":13298,"##츌":13299,"##얏":13300,"##":13301,"##녔":13302,"##밉":13303,"##햑":13304,"##펐":13305,"##왐":13306,"##밝":13307,"##씰":13308,"##쳄":13309,"##얶":13310,"##칯":13311,"##놏":13312,"##콫":13313,"##귿":13314,"##멤":13315,"##챡":13316,"##윹":13317,"##셧":13318,"##뺘":13319,"##믓":13320,"##쩧":13321,"##뿗":13322,"##뒑":13323,"##뭔":13324,"##긧":13325,"##헵":13326,"##쁠":13327,"##궖":13328,"##궋":13329,"##븟":13330,"##굥":13331,"##쏴":13332,"##뜯":13333,"##탭":13334,"##썸":13335,"##펍":13336,"##슌":13337,"##랔":13338,"##쩠":13339,"##곈":13340,"##컫":13341,"##좁":13342,"##똏":13343,"##갠":13344,"##쾡":13345,"##짢":13346,"##뒹":13347,"##벩":13348,"##펡":13349,"##뺏":13350,"##욀":13351,"##뽝":13352,"##쒜":13353,"##깄":13354,"##깜":13355,"##칡":13356,"##쫀":13357,"##뀽":13358,"##셒":13359,"##뤀":13360,"##앆":13361,"##풑":13362,"##쟤":13363,"##딨":13364,"##꿱":13365,"##녤":13366,"##껠":13367,"##텨":13368,"##픖":13369,"##릾":13370,"##섣":13371,"##먳":13372,"##맻":13373,"##뮻":13374,"##뭋":13375,"##됨":13376,"##얽":13377,"##씉":13378,"##뷜":13379,"##냘":13380,"##챘":13381,"##붸":13382,"##뽜":13383,"##쳔":13384,"##괼":13385,"##겴":13386,"##닢":13387,"##켤":13388,"##챸":13389,"##쬽":13390,"##뻡":13391,"##롮":13392,"##잆":13393,"##벲":13394,"##숱":13395,"##렞":13396,"##칰":13397,"##믜":13398,"##돚":13399,"##샄":13400,"##톹":13401,"##퐆":13402,"##뺭":13403,"##엮":13404,"##젴":13405,"##핥":13406,"##옺":13407,"##뿟":13408,"##촹":13409,"##뤨":13410,"##쮜":13411,"##뗑":13412,"##륷":13413,"##맡":13414,"##욷":13415,"##쀏":13416,"##맄":13417,"##뻴":13418,"##챃":13419,"##낏":13420,"##퀠":13421,"##짘":13422,"##췩":13423,"##뗏":13424,"##짖":13425,"##잽":13426,"##빧":13427,"##탹":13428,"##뤙":13429,"##컄":13430,"##끙":13431,"##쳅":13432,"##곖":13433,"##쵮":13434,"##읪":13435,"##꺾":13436,"##쥴":13437,"##갹":13438,"##챳":13439,"##떳":13440,"##릏":13441,"##젮":13442,"##앍":13443,"##헉":13444,"##흓":13445,"##얇":13446,"##얖":13447,"##쑴":13448,"##칟":13449,"##웈":13450,"##낯":13451,"##갰":13452,"##벜":13453,"##잨":13454,"##쌋":13455,"##빕":13456,"##꺆":13457,"##퐄":13458,"##및":13459,"##갇":13460,"##잋":13461,"##닳":13462,"##딈":13463,"##틷":13464,"##훟":13465,"##삑":13466,"##튄":13467,"##얹":13468,"##뭄":13469,"##쥣":13470,"##촥":13471,"##튝":13472,"##팸":13473,"##맓":13474,"##싧":13475,"##댋":13476,"##삷":13477,"##핿":13478,"##줊":13479,"##셟":13480,"##섧":13481,"##갊":13482,"##핣":13483,"##닚":13484,"##닧":13485,"##욹":13486,"##튿":13487,"##쯪":13488,"##횸":13489,"##켕":13490,"##툇":13491,"##쉔":13492,"##쨘":13493,"##멓":13494,"##짠":13495,"##얒":13496,"##랖":13497,"##샢":13498,"##쭓":13499,"##붉":13500,"##섶":13501,"##츺":13502,"##쁅":13503,"##뺡":13504,"##뗡":13505,"##췄":13506,"##퓍":13507,"##뀫":13508,"##뒿":13509,"##맢":13510,"##뉨":13511,"##땁":13512,"##뷇":13513,"##롈":13514,"##옮":13515,"##듶":13516,"##횬":13517,"##휭":13518,"##룔":13519,"##쒀":13520,"##쿸":13521,"##뺚":13522,"##힙":13523,"##롓":13524,"##겊":13525,"##낪":13526,"##밊":13527,"##헷":13528,"##왂":13529,"##줵":13530,"##옠":13531,"##쯕":13532,"##끅":13533,"##탼":13534,"##켬":13535,"##쁴":13536,"##덿":13537,"##턻":13538,"##껌":13539,"##곀":13540,"##즑":13541,"##쵼":13542,"##쯰":13543,"##삔":13544,"##쏼":13545,"##슉":13546,"##쬬":13547,"##훓":13548,"##뛣":13549,"##홣":13550,"##꾫":13551,"##볍":13552,"##듹":13553,"##뀪":13554,"##푝":13555,"##큥":13556,"##읒":13557,"##텤":13558,"##봤":13559,"##뎨":13560,"##뫄":13561,"##먏":13562,"##딫":13563,"##붱":13564,"##쉭":13565,"##켠":13566,"##뭬":13567,"##꺵":13568,"##풮":13569,"##띡":13570,"##벰":13571,"##휫":13572,"##쑁":13573,"##븞":13574,"##듮":13575,"##훨":13576,"##뿮":13577,"##뱦":13578,"##츩":13579,"##룺":13580,"##셥":13581,"##튱":13582,"##챵":13583,"##솽":13584,"##뿀":13585,"##뼤":13586,"##봑":13587,"##뽓":13588,"##룝":13589,"##툵":13590,"##뮺":13591,"##썼":13592,"##횟":13593,"##줍":13594,"##뗀":13595,"##녠":13596,"##핤":13597,"##뭭":13598,"##뫟":13599,"##쨉":13600,"##걔":13601,"##꽇":13602,"##벞":13603,"##꺘":13604,"##틔":13605,"##뻗":13606,"##늉":13607,"##쪨":13608,"##뒥":13609,"##핱":13610,"##띰":13611,"##퓔":13612,"##귓":13613,"##뎍":13614,"##낀":13615,"##뜝":13616,"##뇬":13617,"##뀜":13618,"##눅":13619,"##웽":13620,"##쉠":13621,"##퍙":13622,"##쵤":13623,"##갷":13624,"##뉻":13625,"##뒨":13626,"##뒓":13627,"##랬":13628,"##긑":13629,"##꽥":13630,"##쬲":13631,"##푠":13632,"##흨":13633,"##곻":13634,"##뻤":13635,"##뱉":13636,"##얻":13637,"##촛":13638,"##븍":13639,"##ᄀ":13640,"##쌘":13641,"##옅":13642,"##싣":13643,"##킈":13644,"##홑":13645,"##뀐":13646,"##뻉":13647,"##뀍":13648,"##삶":13649,"##읔":13650,"##탙":13651,"##꽊":13652,"##걲":13653,"##툠":13654,"##췛":13655,"##뿛":13656,"##뵐":13657,"##푈":13658,"##휀":13659,"##쇳":13660,"##촙":13661,"##뺨":13662,"##읳":13663,"##얅":13664,"##똠":13665,"##잍":13666,"##벍":13667,"##뎻":13668,"##썝":13669,"##뿉":13670,"##껰":13671,"##팠":13672,"##왘":13673,"##낲":13674,"##젔":13675,"##싫":13676,"##땝":13677,"##픨":13678,"##젋":13679,"##탘":13680,"##곺":13681,"##괜":13682,"##쎌":13683,"##빖":13684,"##맏":13685,"##텬":13686,"##읕":13687,"##솩":13688,"##겡":13689,"##룅":13690,"##펼":13691,"##뛸":13692,"##뜷":13693,"##뙗":13694,"##퀙":13695,"##돓":13696,"##틉":13697,"##뜬":13698,"##댱":13699,"##흿":13700,"##죳":13701,"##괂":13702,"##엙":13703,"##맠":13704,"##룟":13705,"##붝":13706,"##땍":13707,"##셕":13708,"##뵷":13709,"##좐":13710,"##깬":13711,"##덦":13712,"##몊":13713,"##쁶":13714,"##왧":13715,"##뷃":13716,"##륽":13717,"##휵":13718,"##끵":13719,"##풹":13720,"##랒":13721,"##닻":13722,"##뎋":13723,"##뭘":13724,"##돜":13725,"##냟":13726,"##쳣":13727,"##샻":13728,"##떅":13729,"##낑":13730,"##쭌":13731,"##쬰":13732,"##쇅":13733,"##컼":13734,"##벫":13735,"##뚀":13736,"##뎡":13737,"##뺙":13738,"##듦":13739,"##맬":13740,"##쯉":13741,"##죔":13742,"##꺢":13743,"##괳":13744,"##쥰":13745,"##쀠":13746,"##홐":13747,"##혻":13748,"##쎈":13749,"##쌜":13750,"##뺄":13751,"##쎅":13752,"##첬":13753,"##뗄":13754,"##귈":13755,"##퍝":13756,"##꽉":13757,"##꽐":13758,"##쫜":13759,"##픳":13760,"##봅":13761,"##몀":13762,"##얍":13763,"##곂":13764,"##췰":13765,"##껒":13766,"##쮝":13767,"##싐":13768,"##쩬":13769,"##쿜":13770,"##툽":13771,"##댠":13772,"##튐":13773,"##뚧":13774,"##얃":13775,"##팻":13776,"##햟":13777,"##뿨":13778,"##헼":13779,"##빻":13780,"##뭏":13781,"##붘":13782,"##쉥":13783,"##랕":13784,"##뒝":13785,"##넡":13786,"##윿":13787,"##엓":13788,"##겕":13789,"##깈":13790,"##붹":13791,"##줬":13792,"##읫":13793,"##힁":13794,"##씃":13795,"##햇":13796,"##벋":13797,"##쯧":13798,"##앸":13799,"##얭":13800,"##뭍":13801,"##쩝":13802,"##끜":13803,"##똟":13804,"##엾":13805,"##뎊":13806,"##굣":13807,"##퉱":13808,"##끍":13809,"##휽":13810,"##끠":13811,"##뚯":13812,"##릊":13813,"##됐":13814,"##웓":13815,"##듧":13816,"##큣":13817,"##꿝":13818,"##뒁":13819,"##읋":13820,"##컿":13821,"##먕":13822,"##긤":13823,"##츳":13824,"##죵":13825,"##퐐":13826,"##녑":13827,"##솅":13828,"##줆":13829,"##쉿":13830,"##볐":13831,"##쁙":13832,"##쨥":13833,"##뼸":13834,"##뫃":13835,"##뚷":13836,"##붖":13837,"##췬":13838,"##쌥":13839,"##됸":13840,"##쥽":13841,"##믌":13842,"##춱":13843,"##읃":13844,"##얫":13845,"##랰":13846,"##촷":13847,"##겻":13848,"##싰":13849,"##쭛":13850,"##흩":13851,"##숌":13852,"##뫅":13853,"##묑":13854,"##폕":13855,"##쯸":13856,"##믁":13857,"##짇":13858,"##몄":13859,"##챌":13860,"##괆":13861,"##넽":13862,"##욧":13863,"##툿":13864,"##꺕":13865,"##햏":13866,"##밦":13867,"##갉":13868,"##갚":13869,"##닊":13870,"##쓔":13871,"##쓩":13872,"##흄":13873,"##듸":13874,"##뵥":13875,"##굄":13876,"##엒":13877,"##퐝":13878,"##즹":13879,"##졋":13880,"##꽌":13881,"##뒬":13882,"##탵":13883,"##땽":13884,"##궃":13885,"##붚":13886,"##밬":13887,"##푷":13888,"##삣":13889,"##쥥":13890,"##숯":13891,"##픤":13892,"##좍":13893,"##뫀":13894,"##쥿":13895,"##큉":13896,"##끆":13897,"##웝":13898,"##곬":13899,"##쏀":13900,"##팈":13901,"##뺩":13902,"##뎂":13903,"##닶":13904,"##탇":13905,"##묜":13906,"##뺼":13907,"##돨":13908,"##읶":13909,"##댧":13910,"##댯":13911,"##탒":13912,"##땠":13913,"##몔":13914,"##뵙":13915,"##갗":13916,"##졈":13917,"##뎜":13918,"##렀":13919,"##솹":13920,"##큇":13921,"##뛩":13922,"##멦":13923,"##흧":13924,"##뿓":13925,"##묺":13926,"##붛":13927,"##룳":13928,"##렫":13929,"##쳑":13930,"##뭐":13931,"##삗":13932,"##쎃":13933,"##륑":13934,"##좹":13935,"##옿":13936,"##썀":13937,"##켑":13938,"##뎁":13939,"##쥭":13940,"##띙":13941,"##탔":13942,"##큽":13943,"##뀰":13944,"##윻":13945,"##뀩":13946,"##섕":13947,"##픗":13948,"##퀜":13949,"##랐":13950,"##뢔":13951,"##쌱":13952,"##좂":13953,"##꿋":13954,"##혯":13955,"##땛":13956,"##롹":13957,"##뢴":13958,"##쐐":13959,"##궬":13960,"##걋":13961,"##뙳":13962,"##홂":13963,"##껫":13964,"##뤂":13965,"##랣":13966,"##둅":13967,"##촡":13968,"##멨":13969,"##낻":13970,"##롷":13971,"##볽":13972,"##킳":13973,"##좔":13974,"##뜵":13975,"##랼":13976,"##씍":13977,"##잏":13978,"##뿎":13979,"##맺":13980,"##씸":13981,"##쭁":13982,"##욣":13983,"##헔":13984,"##쭀":13985,"##챝":13986,"##뽭":13987,"##녓":13988,"##뷉":13989,"##쏟":13990,"##웗":13991,"##꽯":13992,"##췁":13993,"##꼳":13994,"##꽤":13995,"##덯":13996,"##캎":13997,"##듫":13998,"##둙":13999,"##뗻":14000,"##띧":14001,"##귪":14002,"##궸":14003,"##궭":14004,"##궼":14005,"##퀌":14006,"##슽":14007,"##롇":14008,"##큮":14009,"##벓":14010,"##뢱":14011,"##헱":14012,"##롻":14013,"##댸":14014,"##쒕":14015,"##췅":14016,"##닜":14017,"##돤":14018,"##췃":14019,"##퍅":14020,"##챞":14021,"##졧":14022,"##덞":14023,"##싕":14024,"##툉":14025,"##꾁":14026,"##둉":14027,"##뤕":14028,"##쥘":14029,"##퇀":14030,"##롑":14031,"##겿":14032,"##닑":14033,"##풒":14034,"##죰":14035,"##쫣":14036,"##똵":14037,"##뽧":14038,"##꽑":14039,"##켸":14040,"##튤":14041,"##죌":14042,"##녯":14043,"##꺌":14044,"##뤵":14045,"##쯩":14046,"##벐":14047,"##긁":14048,"##컭":14049,"##혓":14050,"##꺙":14051,"##텽":14052,"##폯":14053,"##뼬":14054,"##꼍":14055,"##쁐":14056,"##셤":14057,"##킦":14058,"##끾":14059,"##얺":14060,"##팎":14061,"##쵁":14062,"##뢍":14063,"##꺠":14064,"##걕":14065,"##춸":14066,"##긞":14067,"##긏":14068,"##귺":14069,"##큔":14070,"##퓸":14071,"##밲":14072,"##롣":14073,"##캤":14074,"##쎼":14075,"##쑼":14076,"##숕":14077,"##긕":14078,"##쥩":14079,"##껨":14080,"##꺐":14081,"##쉡":14082,"##푯":14083,"##쏨":14084,"##횦":14085,"##튭":14086,"##냰":14087,"##짞":14088,"##뫌":14089,"##뤩":14090,"##엗":14091,"##딺":14092,"##핚":14093,"##븓":14094,"##럇":14095,"##땨":14096,"##묶":14097,"##롫":14098,"##콣":14099,"##뱁":14100,"##돘":14101,"##맫":14102,"##훽":14103,"##훁":14104,"##웸":14105,"##먗":14106,"##쪠":14107,"##톼":14108,"##겆":14109,"##핲":14110,"##싄":14111,"##눝":14112,"##돡":14113,"##쟣":14114,"##뺌":14115,"##홁":14116,"##츀":14117,"##콦":14118,"##팂":14119,"##뱨":14120,"##귶":14121,"##뙓":14122,"##봬":14123,"##쥉":14124,"##댬":14125,"##풱":14126,"##짙":14127,"##쏫":14128,"##꿏":14129,"##쉏":14130,"##둴":14131,"##찎":14132,"##젏":14133,"##폵":14134,"##숧":14135,"##큪":14136,"##핔":14137,"##삧":14138,"##앝":14139,"##푴":14140,"##뤌":14141,"##졷":14142,"##싟":14143,"##뷫":14144,"##큾":14145,"##텂":14146,"##겄":14147,"##뾲":14148,"##뇻":14149,"##뇾":14150,"##빋":14151,"##힗":14152,"##끎":14153,"##듄":14154,"##끤":14155,"##셭":14156,"##놑":14157,"##룍":14158,"##볈":14159,"##찓":14160,"##룐":14161,"##빎":14162,"##뒫":14163,"##뷀":14164,"##칞":14165,"##엷":14166,"##윕":14167,"##릵":14168,"##굳":14169,"##흇":14170,"##왉":14171,"##곯":14172,"##픓":14173,"##슆":14174,"##깏":14175,"##좨":14176,"##닼":14177,"##릯":14178,"##븅":14179,"##팉":14180,"##뷓":14181,"##섈":14182,"##쟉":14183,"##짒":14184,"##좸":14185,"##쁌":14186,"##띨":14187,"##썅":14188,"##냙":14189,"##얔":14190,"##귝":14191,"##눟":14192,"##뗔":14193,"##빩":14194,"##뚞":14195,"##뺅":14196,"##첫":14197,"##츔":14198,"##툥":14199,"##굘":14200,"##뮹":14201,"##맇":14202,"##뚸":14203,"##웟":14204,"##뽱":14205,"##뫞":14206,"##뿷":14207,"##땞":14208,"##밪":14209,"##뒗":14210,"##렜":14211,"##됵":14212,"##롊":14213,"##냌":14214,"##긶":14215,"##둈":14216,"##뾘":14217,"##뗠":14218,"##갭":14219,"##븃":14220,"##둍":14221,"##힡":14222,"##쬭":14223,"##밗":14224,"##뗶":14225,"##뗵":14226,"##콻":14227,"##툑":14228,"##폔":14229,"##꿘":14230,"##삵":14231,"##슢":14232,"##쳬":14233,"##뜀":14234,"##섰":14235,"##췍":14236,"##퐳":14237,"##푱":14238,"##륶":14239,"##죨":14240,"##졍":14241,"##싈":14242,"##뉜":14243,"##윘":14244,"##눤":14245,"##졉":14246,"##춋":14247,"##젊":14248,"##찷":14249,"##쫒":14250,"##픅":14251,"##죗":14252,"##훜":14253,"##쭊":14254,"##톻":14255,"##늿":14256,"##왷":14257,"##뀻":14258,"##냫":14259,"##꼮":14260,"##돵":14261,"##셣":14262,"##쏚":14263,"##렡":14264,"##씤":14265,"##좊":14266,"##줓":14267,"##늏":14268,"##앴":14269,"##듟":14270,"##낟":14271,"##꽹":14272,"##띾":14273,"##땩":14274,"##돿":14275,"##슁":14276,"##띱":14277,"##껸":14278,"##봫":14279,"##튺":14280,"##횢":14281,"##퇗":14282,"##챨":14283,"##홝":14284,"##깩":14285,"##썻":14286,"##믱":14287,"##껙":14288,"##휗":14289,"##쩅":14290,"##홱":14291,"##샠":14292,"##쳌":14293,"##퇼":14294,"##썷":14295,"##쥠":14296,"##휩":14297,"##핧":14298,"##삜":14299,"##줭":14300,"##뇩":14301,"##솁":14302,"##밻":14303,"##샒":14304,"##뿁":14305,"##쁟":14306,"##벧":14307,"##냏":14308,"##쏩":14309,"##뤯":14310,"##룱":14311,"##헗":14312,"##뜜":14313,"⭧ᆫ":14314,"⫸에":14315,"⭧다":14316,"⫸의":14317,"⫸을":14318,"⫸이":14319,"⭧는":14320,"⫸를":14321,"⫸는":14322,"⫸가":14323,"⭧고":14324,"⭧아":14325,"⭧어":14326,"⭧었":14327,"⫸에서":14328,"⫸은":14329,"⫸로":14330,"##으로":14331,"⫸으로":14332,"⭧ᆫ다":14333,"⭧았":14334,"⫸도":14335,"⭧ᆯ":14336,"⭧지":14337,"⭧기":14338,"⭧라":14339,"⫸과":14340,"⭧게":14341,"⭧면":14342,"⭧은":14343,"⫸와":14344,"20":14345,"⭧으":14346,"⭧지만":14347,"⫸에게":14348,"⭧며":14349,"⭧던":14350,"201":14351,"⫸ᆫ":14352,"⭧을":14353,"⫸만":14354,"⭧는데":14355,"때문":14356,"19":14357,"##까지":14358,"⫸까지":14359,"⭧아서":14360,"##00":14361,"아니":14362,"⭧라는":14363,"⭧자":14364,"나오":14365,"⭧다고":14366,"⭧으며":14367,"⭧면서":14368,"보이":14369,"⭧라고":14370,"경우":14371,"10":14372,"⭧여":14373,"사용":14374,"⭧어서":14375,"##부터":14376,"⭧다는":14377,"공격":14378,"이후":14379,"자신":14380,"그리":14381,"⭧였":14382,"##레이":14383,"사람":14384,"위하":14385,"정도":14386,"대하":14387,"⫸부터":14388,"##스트":14389,"⫸나":14390,"가능":14391,"⭧ᄆ":14392,"시키":14393,"다른":14394,"12":14395,"⭧으나":14396,"⫸이나":14397,"가지":14398,"⫸ᆯ":14399,"200":14400,"등장":14401,"⭧는다":14402,"아이":14403,"⫸보":14404,"11":14405,"⫸보다":14406,"그러":14407,"그리고":14408,"버리":14409,"##어지":14410,"게임":14411,"하나":14412,"경기":14413,"..":14414,"만들":14415,"못하":14416,"##er":14417,"사실":14418,"시간":14419,"##대로":14420,"사이":14421,"시작":14422,"⭧니":14423,"일본":14424,"이상":14425,"모습":14426,"이름":14427,"##니다":14428,"함께":14429,"##거나":14430,"따르":14431,"##지만":14432,"상대":14433,"⭧다가":14434,"⭧려":14435,"한국":14436,"##어나":14437,"문제":14438,"15":14439,"##in":14440,"⭧으면":14441,"⭧거나":14442,"하지만":14443,"프로":14444,"##스터":14445,"생각":14446,"다시":14447,"⭧겠":14448,"또한":14449,"가장":14450,"들어":14451,"캐릭":14452,"당시":14453,"시즌":14454,"##처럼":14455,"⭧ᆫ데":14456,"⭧아야":14457,"⫸처럼":14458,"캐릭터":14459,"당하":14460,"플레이":14461,"18":14462,"##on":14463,"능력":14464,"##이트":14465,"⭧ᆫ지":14466,"모두":14467,"상황":14468,"상태":14469,"그렇":14470,"⭧아도":14471,"모든":14472,"추가":14473,"결국":14474,"세계":14475,"선수":14476,"##an":14477,"16":14478,"##or":14479,"스킬":14480,"카드":14481,"##미지":14482,"현재":14483,"많이":14484,"⭧ᆫ다는":14485,"통하":14486,"전투":14487,"효과":14488,"다음":14489,"30":14490,"다만":14491,"그러나":14492,"존재":14493,"지역":14494,"13":14495,"미국":14496,"⭧ᄇ":14497,"여기":14498,"시리":14499,"14":14500,"199":14501,"⭧서":14502,"##라이":14503,"매우":14504,"##ar":14505,"라이":14506,"17":14507,"달리":14508,"대학":14509,"⭧ㅓ":14510,"그런":14511,"##므로":14512,"상당":14513,"⭧ᄇ니다":14514,"레벨":14515,"기록":14516,"##he":14517,"시리즈":14518,"##at":14519,"스타":14520,"인하":14521,"⭧야":14522,"기술":14523,"레이":14524,"##리아":14525,"물론":14526,"무기":14527,"이용":14528,"의하":14529,"처음":14530,"⭧다면":14531,"이유":14532,"자체":14533,"⭧시":14534,"부르":14535,"방송":14536,"100":14537,"이것":14538,"이런":14539,"필요":14540,"영화":14541,"실제":14542,"여러":14543,"해당":14544,"25":14545,"들어가":14546,"마법":14547,"모르":14548,"주인":14549,"##라고":14550,"일반":14551,"⭧ᆫ다고":14552,"⫸마":14553,"⫸서":14554,"돌아":14555,"⭧어야":14556,"거의":14557,"역시":14558,"##거리":14559,"바로":14560,"리그":14561,"##리스":14562,"학교":14563,"나가":14564,"사건":14565,"##이스":14566,"##en":14567,"다르":14568,"같이":14569,"특히":14570,"관련":14571,"기본":14572,"2017":14573,"부분":14574,"그래":14575,"##이지":14576,"위치":14577,"피해":14578,"##야기":14579,"⭧도":14580,"진행":14581,"##ou":14582,"아무":14583,"방어":14584,"2018":14585,"이야기":14586,"##부분":14587,"대표":14588,"국가":14589,"⭧는지":14590,"##다가":14591,"없이":14592,"##지막":14593,"⭧음":14594,"제작":14595,"⭧냐":14596,"활동":14597,"인간":14598,"동안":14599,"작품":14600,"증가":14601,"대부분":14602,"알리":14603,"##al":14604,"마지막":14605,"본인":14606,"자기":14607,"2019":14608,"일부":14609,"지나":14610,"계속":14611,"⭧ᆫ가":14612,"##시아":14613,"떨어지":14614,"21":14615,"서울":14616,"내용":14617,"##es":14618,"우리":14619,"올리":14620,"주인공":14621,"2016":14622,"감독":14623,"참고":14624,"속도":14625,"관계":14626,"50":14627,"##전히":14628,"생기":14629,"중국":14630,"대신":14631,"수준":14632,"이전":14633,"그냥":14634,"⭧어도":14635,"⭧습":14636,"비슷":14637,"어느":14638,"⭧으니":14639,"전쟁":14640,"타이":14641,"비하":14642,"지금":14643,"강하":14644,"⭧라면":14645,"만나":14646,"성공":14647,"22":14648,"기준":14649,"도시":14650,"밝히":14651,"인물":14652,"⭧습니다":14653,"이루":14654,"⭧도록":14655,"⫸라고":14656,"198":14657,"상당히":14658,"공격력":14659,"그녀":14660,"대한":14661,"24":14662,"배우":14663,"최대":14664,"기사":14665,"올라":14666,"##민국":14667,"결과":14668,"⭧더":14669,"지원":14670,"그대로":14671,"평가":14672,"시절":14673,"너무":14674,"빠르":14675,"자리":14676,"보스":14677,"제외":14678,"##it":14679,"⭧므로":14680,"죽이":14681,"##토리":14682,"연구":14683,"##버지":14684,"의미":14685,"나타":14686,"⭧ㅏ":14687,"실제로":14688,"소속":14689,"##라지":14690,"이미":14691,"⫸로서":14692,"승리":14693,"직접":14694,"전체":14695,"2015":14696,"영상":14697,"대한민국":14698,"보내":14699,"메이":14700,"23":14701,"어렵":14702,"원래":14703,"유닛":14704,"체력":14705,"여자":14706,"⫸마다":14707,"언급":14708,"그것":14709,"개발":14710,"데미지":14711,"멤버":14712,"##ing":14713,"유저":14714,"##st":14715,"##le":14716,"##학교":14717,"##ic":14718,"이동":14719,"마음":14720,"설정":14721,"40":14722,"싸우":14723,"정보":14724,"⭧ᆫ다면":14725,"방법":14726,"문서":14727,"선택":14728,"애니":14729,"##가지":14730,"##re":14731,"과거":14732,"차이":14733,"##운드":14734,"머리":14735,"몬스터":14736,"⭧나":14737,"출연":14738,"성우":14739,"친구":14740,"포함":14741,"⭧란":14742,"##랜드":14743,"##dd":14744,"##이션":14745,"불리":14746,"대상":14747,"설명":14748,"거리":14749,"엄청":14750,"사회":14751,"소리":14752,"바람":14753,"플레이어":14754,"장면":14755,"힘들":14756,"우승":14757,"최고":14758,"여성":14759,"버전":14760,"사랑":14761,"이러":14762,"바뀌":14763,"아버지":14764,"프리":14765,"동시":14766,"공식":14767,"유명":14768,"스럽":14769,"시대":14770,"2014":14771,"발생":14772,"영향":14773,"사망":14774,"이렇":14775,"주로":14776,"대회":14777,"프랑":14778,"##주의":14779,"남자":14780,"결정":14781,"조금":14782,"⭧려고":14783,"파이":14784,"발매":14785,"26":14786,"주장":14787,"출신":14788,"아이템":14789,"⭧러":14790,"##ff":14791,"초반":14792,"000":14793,"인터":14794,"일어나":14795,"학생":14796,"전부":14797,"나라":14798,"버스":14799,"마이":14800,"공개":14801,"역사":14802,"28":14803,"운영":14804,"오르":14805,"서로":14806,"유지":14807,"빠지":14808,"스토리":14809,"걸리":14810,"모드":14811,"##el":14812,"27":14813,"구성":14814,"대사":14815,"파괴":14816,"제대로":14817,"##am":14818,"정부":14819,"방식":14820,"만큼":14821,"음악":14822,"강화":14823,"##라도":14824,"31":14825,"자주":14826,"중요":14827,"아직":14828,"후반":14829,"이때":14830,"나타나":14831,"또는":14832,"월드":14833,"the":14834,"과정":14835,"##이드":14836,"형태":14837,"최종":14838,"정치":14839,"새롭":14840,"독일":14841,"시스":14842,"역할":14843,"나이":14844,"최초":14845,"노래":14846,"##벤트":14847,"다니":14848,"대전":14849,"쓰이":14850,"이벤트":14851,"누구":14852,"##om":14853,"강력":14854,"마리":14855,"스테":14856,"정말":14857,"변경":14858,"회복":14859,"##머니":14860,"##이도":14861,"기존":14862,"##우스":14863,"그런데":14864,"영국":14865,"보통":14866,"비교":14867,"드래":14868,"소환":14869,"느끼":14870,"정신":14871,"##아가":14872,"마찬":14873,"마찬가지":14874,"##la":14875,"⭧든":14876,"어떤":14877,"이기":14878,"조선":14879,"당연":14880,"특성":14881,"인기":14882,"##is":14883,"엄청나":14884,"성능":14885,"##프트":14886,"확률":14887,"속성":14888,"마을":14889,"⭧듯":14890,"행동":14891,"바꾸":14892,"⭧라도":14893,"2013":14894,"슈퍼":14895,"오히":14896,"노선":14897,"⫸대로":14898,"모양":14899,"오히려":14900,"##리어":14901,"어떻":14902,"아래":14903,"이제":14904,"가깝":14905,"자유":14906,"아들":14907,"교육":14908,"197":14909,"발견":14910,"차량":14911,"바이":14912,"라인":14913,"29":14914,"드라":14915,"사라지":14916,"##너지":14917,"게다가":14918,"32":14919,"부족":14920,"특수":14921,"프랑스":14922,"##et":14923,"이번":14924,"00":14925,"대학교":14926,"확인":14927,"성격":14928,"끝나":14929,"문화":14930,"유일":14931,"활약":14932,"차지":14933,"수록":14934,"##ol":14935,"2012":14936,"관리":14937,"장비":14938,"##ion":14939,"영웅":14940,"모델":14941,"일단":14942,"입장":14943,"아예":14944,"구하":14945,"내리":14946,"생산":14947,"맞추":14948,"스트":14949,"따라":14950,"시스템":14951,"이렇게":14952,"제국":14953,"고등":14954,"심지":14955,"다이":14956,"어리":14957,"돌아오":14958,"심지어":14959,"먼저":14960,"##디오":14961,"경찰":14962,"반대":14963,"계획":14964,"주변":14965,"거기":14966,"##레이드":14967,"운동":14968,"2010":14969,"앨범":14970,"자동":14971,"⭧어요":14972,"완전히":14973,"조건":14974,"드러":14975,"우주":14976,"기간":14977,"사진":14978,"##레스":14979,"난이도":14980,"들어오":14981,"부대":14982,"적용":14983,"발동":14984,"개인":14985,"기능":14986,"##ow":14987,"지구":14988,"건물":14989,"60":14990,"감소":14991,"위원":14992,"##nd":14993,"km":14994,"##20":14995,"축구":14996,"##통령":14997,"자세":14998,"##il":14999,"떠나":15000,"##ig":15001,"중심":15002,"⫸으로서":15003,"##인트":15004,"##ed":15005,"실패":15006,"애니메":15007,"그래서":15008,"하이":15009,"세트":15010,"혹은":15011,"중앙":15012,"선거":15013,"지키":15014,"어디":15015,"⭧라며":15016,"현대":15017,"35":15018,"회사":15019,"덕분":15020,"돌아가":15021,"초기":15022,"전혀":15023,"얼굴":15024,"데이":15025,"작가":15026,"시기":15027,"표현":15028,"국내":15029,"원작":15030,"민주":15031,"대통령":15032,"패배":15033,"물리":15034,"처리":15035,"오브":15036,"순간":15037,"TV":15038,"동일":15039,"##버스":15040,"모으":15041,"지속":15042,"프로그":15043,"드라마":15044,"반응":15045,"지방":15046,"무엇":15047,"얼마":15048,"날리":15049,"열리":15050,"도움":15051,"⭧더라도":15052,"인정":15053,"참여":15054,"기관":15055,"애니메이션":15056,"출시":15057,"##니아":15058,"명칭":15059,"##ac":15060,"판매":15061,"담당":15062,"데뷔":15063,"##as":15064,"##없이":15065,"##나마":15066,"##밖에":15067,"##BS":15068,"정확":15069,"요구":15070,"획득":15071,"196":15072,"##리카":15073,"굉장":15074,"스페":15075,"하루":15076,"생활":15077,"그렇게":15078,"of":15079,"⫸루":15080,"시점":15081,"2011":15082,"설치":15083,"작중":15084,"넘어":15085,"다양":15086,"⫸밖에":15087,"발표":15088,"후보":15089,"그룹":15090,"상승":15091,"진출":15092,"선발":15093,"아군":15094,"구조":15095,"기억":15096,"항목":15097,"##아내":15098,"Lv":15099,"영어":15100,"만화":15101,"가격":15102,"움직":15103,"단계":15104,"##소드":15105,"그림":15106,"특별":15107,"##들이":15108,"올라가":15109,"마스터":15110,"실력":15111,"##ve":15112,"그나마":15113,"⭧으므로":15114,"드래곤":15115,"아마":15116,"⭧다며":15117,"에피":15118,"세우":15119,"이거":15120,"01":15121,"야구":15122,"⭧았었":15123,"시장":15124,"The":15125,"가족":15126,"범위":15127,"사고":15128,"특징":15129,"경제":15130,"⭧려는":15131,"##소리":15132,"시청":15133,"방향":15134,"연기":15135,"대체":15136,"패치":15137,"경험":15138,"##뜨리":15139,"계약":15140,"미치":15141,"⫸한":15142,"수비":15143,"고려":15144,"##조차":15145,"##ot":15146,"⫸한테":15147,"⫸조차":15148,"아르":15149,"확실":15150,"참가":15151,"국제":15152,"지니":15153,"디자":15154,"에피소드":15155,"500":15156,"세대":15157,"발사":15158,"폭발":15159,"##로스":15160,"남기":15161,"묘사":15162,"브라":15163,"⫸로부터":15164,"##스크":15165,"밀리":15166,"주의":15167,"프로그램":15168,"고등학교":15169,"80":15170,"##비스":15171,"활용":15172,"2000":15173,"던지":15174,"어떻게":15175,"피하":15176,"어머니":15177,"상위":15178,"결혼":15179,"무시":15180,"⭧라서":15181,"⭧ㅕ":15182,"##으키":15183,"비판":15184,"목적":15185,"더욱":15186,"준비":15187,"중간":15188,"심하":15189,"각각":15190,"##ad":15191,"37":15192,"보호":15193,"러시아":15194,"45":15195,"아주":15196,"버프":15197,"챔피":15198,"오리":15199,"라운드":15200,"굉장히":15201,"이미지":15202,"⫸다":15203,"패턴":15204,"국민":15205,"히로":15206,"이어지":15207,"위험":15208,"진짜":15209,"참조":15210,"세이":15211,"내려":15212,"대미지":15213,"생명":15214,"조직":15215,"조사":15216,"단순":15217,"싸움":15218,"과학":15219,"여담":15220,"크리스":15221,"약하":15222,"이루어지":15223,"전하":15224,"나쁘":15225,"타입":15226,"다루":15227,"세력":15228,"현실":15229,"⭧ᆯ지":15230,"파워":15231,"St":15232,"안타":15233,"시도":15234,"소모":15235,"제공":15236,"주요":15237,"구간":15238,"194":15239,"유리":15240,"불구":15241,"전문":15242,"가리":15243,"지하":15244,"유럽":15245,"일으키":15246,"연속":15247,"부산":15248,"세기":15249,"##머지":15250,"나머지":15251,"혼자":15252,"순위":15253,"논란":15254,"조합":15255,"한정":15256,"포인트":15257,"사실상":15258,"약간":15259,"아프":15260,"동료":15261,"##아오":15262,"노리":15263,"##id":15264,"70":15265,"뛰어나":15266,"나무":15267,"분위":15268,"성장":15269,"09":15270,"##ay":15271,"무장":15272,"여전히":15273,"바라":15274,"디자인":15275,"⫸랑":15276,"분위기":15277,"당연히":15278,"취급":15279,"항공":15280,"출전":15281,"90":15282,"이해":15283,"⭧으면서":15284,"트리":15285,"학년":15286,"##스로":15287,"일정":15288,"규모":15289,"등급":15290,"훨씬":15291,"FC":15292,"##ER":15293,"지도":15294,"투수":15295,"소설":15296,"##나라":15297,"한편":15298,"예정":15299,"운행":15300,"블랙":15301,"성적":15302,"인구":15303,"##러지":15304,"부상":15305,"자연":15306,"엔딩":15307,"기타":15308,"그래도":15309,"⭧구":15310,"마치":15311,"삼성":15312,"기대":15313,"계열":15314,"mm":15315,"02":15316,"해결":15317,"2009":15318,"03":15319,"사업":15320,"가져":15321,"##ch":15322,"스테이지":15323,"향하":15324,"센터":15325,"방면":15326,"연결":15327,"미션":15328,"300":15329,"##이크":15330,"방영":15331,"최근":15332,"의견":15333,"⭧기에":15334,"연합":15335,"수정":15336,"##us":15337,"48":15338,"변화":15339,"도망":15340,"종류":15341,"##ir":15342,"⭧자면":15343,"⭧ᆯ까":15344,"그거":15345,"이탈":15346,"표기":15347,"잘못":15348,"⫸야":15349,"전용":15350,"이르":15351,"태어나":15352,"05":15353,"퀘스트":15354,"배치":15355,"195":15356,"추정":15357,"33":15358,"for":15359,"2008":15360,"⫸고":15361,"발전":15362,"터지":15363,"##다리":15364,"소녀":15365,"36":15366,"08":15367,"대화":15368,"변하":15369,"거대":15370,"정상":15371,"직업":15372,"안정":15373,"07":15374,"움직이":15375,"##ur":15376,"도중":15377,"⭧네":15378,"죽음":15379,"엔진":15380,"충분":15381,"올라오":15382,"스스로":15383,"종료":15384,"##스타":15385,"작전":15386,"넘어가":15387,"##티브":15388,"수상":15389,"챔피언":15390,"펼치":15391,"세상":15392,"오래":15393,"나중":15394,"붙이":15395,"독립":15396,"일행":15397,"비행":15398,"요소":15399,"느낌":15400,"속하":15401,"거치":15402,"당신":15403,"나누":15404,"HP":15405,"벌어지":15406,"벌이":15407,"보상":15408,"에너지":15409,"지내":15410,"방어력":15411,"달성":15412,"비롯":15413,"전설":15414,"수도":15415,"##..":15416,"공연":15417,"##od":15418,"무리":15419,"미사":15420,"06":15421,"만드":15422,"동물":15423,"⫸만큼":15424,"배틀":15425,"##러스":15426,"##BC":15427,"부활":15428,"특정":15429,"관하":15430,"장착":15431,"훈련":15432,"스피":15433,"절대":15434,"th":15435,"스카":15436,"졸업":15437,"철도":15438,"유니":15439,"지지":15440,"##im":15441,"##자기":15442,"기업":15443,"전기":15444,"포켓":15445,"위기":15446,"지휘":15447,"행정":15448,"싱글":15449,"번역":15450,"다리":15451,"번호":15452,"근접":15453,"##란드":15454,"더불":15455,"아이돌":15456,"제목":15457,"점수":15458,"건설":15459,"04":15460,"관심":15461,"만약":15462,"미래":15463,"##어들":15464,"황제":15465,"내부":15466,"남성":15467,"반면":15468,"따라서":15469,"득점":15470,"##un":15471,"충격":15472,"##ut":15473,"신경":15474,"SK":15475,"시험":15476,"전차":15477,"요리":15478,"군사":15479,"가르":15480,"목소리":15481,"목표":15482,"거두":15483,"##수록":15484,"홈런":15485,"소재":15486,"이끌":15487,"전사":15488,"2007":15489,"##데이트":15490,"업데이트":15491,"바르":15492,"정체":15493,"you":15494,"##리오":15495,"공간":15496,"##지션":15497,"똑같":15498,"가끔":15499,"저지":15500,"돌리":15501,"무대":15502,"스파":15503,"어찌":15504,"시설":15505,"사이트":15506,"올림":15507,"타격":15508,"로마":15509,"오늘":15510,"34":15511,"##인물":15512,"배경":15513,"링크":15514,"지정":15515,"⫸다가":15516,"장소":15517,"각성":15518,"전작":15519,"서비스":15520,"공중":15521,"마르":15522,"항상":15523,"##다니":15524,"##ro":15525,"최소":15526,"교체":15527,"그만":15528,"전국":15529,"파티":15530,"분노":15531,"⭧느":15532,"##너스":15533,"##트리":15534,"생존":15535,"작곡":15536,"북한":15537,"넘기":15538,"등장인물":15539,"정식":15540,"⭧으려":15541,"얘기":15542,"예상":15543,"⫸마저":15544,"자랑":15545,"의원":15546,"부여":15547,"⫸으로써":15548,"클래":15549,"작업":15550,"높이":15551,"도로":15552,"포켓몬":15553,"사냥":15554,"##디어":15555,"분류":15556,"종족":15557,"늘어나":15558,"스포":15559,"인사":15560,"인도":15561,"악마":15562,"##ag":15563,"##igh":15564,"소개":15565,"야마":15566,"38":15567,"스타일":15568,"비밀":15569,"##ver":15570,"엘리":15571,"단체":15572,"애초":15573,"제한":15574,"인터뷰":15575,"괜찮":15576,"⫸ᆯ로":15577,"가수":15578,"필드":15579,"##ec":15580,"결승":15581,"##동안":15582,"cm":15583,"판정":15584,"크리":15585,"⭧듯이":15586,"기계":15587,"이어":15588,"베이":15589,"클리어":15590,"75":15591,"목록":15592,"연출":15593,"각종":15594,"외국":15595,"카이":15596,"하늘":15597,"이외":15598,"타카":15599,"명령":15600,"정하":15601,"##ent":15602,"제일":15603,"2006":15604,"초등":15605,"##운데":15606,"기체":15607,"병력":15608,"지상":15609,"카운":15610,"로봇":15611,"개념":15612,"55":15613,"##보이":15614,"전반":15615,"확정":15616,"기동":15617,"in":15618,"교통":15619,"정작":15620,"193":15621,"건담":15622,"레어":15623,"비용":15624,"별로":15625,"##드리":15626,"파일":15627,"##ak":15628,"화력":15629,"장갑":15630,"올림픽":15631,"케이":15632,"수행":15633,"⫸뿐":15634,"⭧니까":15635,"군대":15636,"드러나":15637,"사항":15638,"갖추":15639,"표시":15640,"크기":15641,"가운데":15642,"프레":15643,"따로":15644,"인식":15645,"시티":15646,"행위":15647,"사격":15648,"수치":15649,"경쟁":15650,"라이브":15651,"##라인":15652,"2020":15653,"사거리":15654,"to":15655,"##um":15656,"⭧오":15657,"아카":15658,"기반":15659,"변신":15660,"갑자기":15661,"저항":15662,"감정":15663,"',":15664,"나름":15665,"포지션":15666,"##젝트":15667,"언제":15668,"누르":15669,"진화":15670,"이탈리아":15671,"완전":15672,"평균":15673,"왕국":15674,"아키":15675,"단점":15676,"집중":15677,"인천":15678,"보유":15679,"교수":15680,"근처":15681,"통합":15682,"기회":15683,"병원":15684,"살리":15685,"vs":15686,"직전":15687,"던전":15688,"노력":15689,"특이":15690,"임무":15691,"##아들이":15692,"의식":15693,"코스":15694,"드리":15695,"자원":15696,"전자":15697,"⭧냐고":15698,"국회":15699,"설립":15700,"탈출":15701,"레인":15702,"##화국":15703,"정의":15704,"오버":15705,"압도":15706,"##ST":15707,"오른":15708,"이닝":15709,"월드컵":15710,"부모":15711,"단어":15712,"다크":15713,"때리":15714,"부정":15715,"환경":15716,"##em":15717,"고양":15718,"현상":15719,"##ub":15720,"정리":15721,"마시":15722,"사례":15723,"잠시":15724,"사정":15725,"##비아":15726,"판단":15727,"효율":15728,"시전":15729,"제품":15730,"이쪽":15731,"어쩌":15732,"##라스":15733,"아파":15734,"극장":15735,"⭧더니":15736,"치명":15737,"본래":15738,"##르트":15739,"느리":15740,"나서":15741,"##말로":15742,"주제":15743,"무슨":15744,"촬영":15745,"아스":15746,"##000":15747,"삭제":15748,"상관":15749,"의외":15750,"주문":15751,"위원회":15752,"전력":15753,"가문":15754,"⭧ㅏㅆ":15755,"동생":15756,"고속":15757,"원인":15758,"주민":15759,"대구":15760,"여행":15761,"물건":15762,"옮기":15763,"제거":15764,"지배":15765,"강제":15766,"발언":15767,"키우":15768,"소련":15769,"연습":15770,"치료":15771,"병사":15772,"##어로":15773,"포기":15774,"스코":15775,"골드":15776,"위력":15777,"파트":15778,"요시":15779,"도전":15780,"##무리":15781,"전개":15782,"2005":15783,"기다리":15784,"이하":15785,"노트":15786,"역대":15787,"책임":15788,"해군":15789,"중학교":15790,"기념":15791,"##요일":15792,"사무":15793,"도입":15794,"정책":15795,"점프":15796,"나이트":15797,"완성":15798,"복귀":15799,"앞서":15800,"실험":15801,"##ight":15802,"화면":15803,"새로":15804,"42":15805,"##야마":15806,"루트":15807,"⭧려면":15808,"고정":15809,"공주":15810,"도쿄":15811,"살인":15812,"유사":15813,"바다":15814,"의사":15815,"음식":15816,"41":15817,"##학생":15818,"레드":15819,"페이":15820,"모이":15821,"별명":15822,"차원":15823,"직후":15824,"선생":15825,"끝내":15826,"이적":15827,"히어로":15828,"불가":15829,"다수":15830,"버티":15831,"사기":15832,"중반":15833,"39":15834,"받아들이":15835,"잡히":15836,"티어":15837,"전략":15838,"히트":15839,"어둠":15840,"밴드":15841,"⫸에게서":15842,"분명":15843,"마나":15844,"공동":15845,"숨기":15846,"도착":15847,"2004":15848,"무려":15849,"미니":15850,"##모토":15851,"접근":15852,"언어":15853,"녀석":15854,"가치":15855,"제도":15856,"##야말로":15857,"일러":15858,"EX":15859,"LG":15860,"⭧은데":15861,"정당":15862,"⫸으로부터":15863,"오프":15864,"회피":15865,"추천":15866,"##드시":15867,"타임":15868,"조종":15869,"⭧ㅓㅆ":15870,"정규":15871,"사상":15872,"시민":15873,"대기":15874,"빌리":15875,"로드":15876,"예전":15877,"##ce":15878,"살아":15879,"확장":15880,"아파트":15881,"신체":15882,"빨리":15883,"##루스":15884,"##그레이드":15885,"업그레이드":15886,"마사":15887,"구매":15888,"##AR":15889,"줄이":15890,"연장":15891,"롯데":15892,"리더":15893,"자료":15894,"랭크":15895,"이곳":15896,"반드시":15897,"폭탄":15898,"##os":15899,"투표":15900,"탈락":15901,"타이틀":15902,"인터넷":15903,"부탁":15904,"장치":15905,"학원":15906,"단지":15907,"완벽":15908,"크로":15909,"라이트":15910,"미사일":15911,"종교":15912,"44":15913,"우선":15914,"##ri":15915,"일러스트":15916,"소유":15917,"형식":15918,"해외":15919,"고대":15920,"##시마":15921,"##AN":15922,"구역":15923,"장점":15924,"사령":15925,"최강":15926,"데스":15927,"심각":15928,"산업":15929,"아내":15930,"##ula":15931,"Ch":15932,"금지":15933,"하드":15934,"##ON":15935,"##역시":15936,"⭧죠":15937,"추측":15938,"버그":15939,"##이치":15940,"실시":15941,"No":15942,"위키":15943,"마무리":15944,"##ap":15945,"43":15946,"99":15947,"⫸이라고":15948,"⭧곤":15949,"대장":15950,"클럽":15951,"몇몇":15952,"공포":15953,"가사":15954,"노동":15955,"##and":15956,"2002":15957,"연재":15958,"가드":15959,"구분":15960,"취하":15961,"st":15962,"검사":15963,"##마자":15964,"범죄":15965,"합류":15966,"점점":15967,"달러":15968,"즐기":15969,"서버":15970,"로스":15971,"조정":15972,"##아하":15973,"요청":15974,"이사":15975,"행사":15976,"차례":15977,"##트라":15978,"form":15979,"옵션":15980,"재료":15981,"보병":15982,"##러리":15983,"##이어":15984,"조작":15985,"선정":15986,"선언":15987,"수많":15988,"마법사":15989,"다소":15990,"전통":15991,"교회":15992,"타자":15993,"걱정":15994,"프로젝트":15995,"kg":15996,"그리스":15997,"종종":15998,"개그":15999,"47":16000,"스포츠":16001,"46":16002,"데이터":16003,"51":16004,"191":16005,"좋아하":16006,"컴퓨":16007,"개월":16008,"암살":16009,"부하":16010,"광고":16011,"입히":16012,"형제":16013,"열차":16014,"##르크":16015,"formula":16016,"에이":16017,"채우":16018,"성향":16019,"뉴스":16020,"대중":16021,"개최":16022,"평범":16023,"##나이":16024,"⭧자마자":16025,"KBS":16026,"포스":16027,"아쉽":16028,"##조건":16029,"그야말로":16030,"실점":16031,"한계":16032,"스페인":16033,"구단":16034,"고르":16035,"재미":16036,"채널":16037,"대결":16038,"설계":16039,"코드":16040,"##ter":16041,"거부":16042,"통신":16043,"언론":16044,"아무리":16045,"워낙":16046,"생물":16047,"다행":16048,"비중":16049,"보조":16050,"복수":16051,"종합":16052,"⭧고자":16053,"전화":16054,"행성":16055,"기지":16056,"컴퓨터":16057,"민족":16058,"디스":16059,"and":16060,"한글":16061,"무한":16062,"투입":16063,"개봉":16064,"해석":16065,"알아":16066,"무조건":16067,"##아지":16068,"본격":16069,"영혼":16070,"정확히":16071,"연주":16072,"⭧냐는":16073,"모자":16074,"운용":16075,"굳이":16076,"##ul":16077,"MA":16078,"평소":16079,"실수":16080,"회장":16081,"원정":16082,"광주":16083,"##IN":16084,"지적":16085,"소년":16086,"##타임":16087,"지명":16088,"와중":16089,"##무라":16090,"인상":16091,"1000":16092,"위협":16093,"미드":16094,"박사":16095,"##버리":16096,"2003":16097,"줄어들":16098,"회의":16099,"상징":16100,"충분히":16101,"##op":16102,"등록":16103,"⭧는가":16104,"사태":16105,"집단":16106,"대형":16107,"가정":16108,"대응":16109,"카메":16110,"대비":16111,"보너스":16112,"터미":16113,"아웃":16114,"자동차":16115,"소비":16116,"##ck":16117,"전원":16118,"보컬":16119,"대로":16120,"체제":16121,"공사":16122,"페르":16123,"시청자":16124,"%,":16125,"다운":16126,"##로드":16127,"태양":16128,"특유":16129,"희생":16130,"150":16131,"조각":16132,"플래":16133,"가면":16134,"개조":16135,"65":16136,"##FA":16137,"군단":16138,"##자리":16139,"##ation":16140,"무사":16141,"편성":16142,"뿌리":16143,"도망치":16144,"봉인":16145,"##리트":16146,"여름":16147,"MBC":16148,"마력":16149,"##니스":16150,"SP":16151,"일종":16152,"기자":16153,"##로그":16154,"##ra":16155,"##려가":16156,"192":16157,"육군":16158,"발음":16159,"장군":16160,"공항":16161,"네이":16162,"스크":16163,"생성":16164,"통과":16165,"벗어나":16166,"얼마나":16167,"##의원":16168,"분리":16169,"시나":16170,"방문":16171,"64":16172,"오리지":16173,"II":16174,"가하":16175,"⫸로써":16176,"드러내":16177,"장르":16178,"보다":16179,"동맹":16180,"빼앗":16181,"장기":16182,"간단":16183,"함정":16184,"⭧을지":16185,"고양이":16186,"반복":16187,"⭧ㅏ서":16188,"서술":16189,"##튜브":16190,"오랜":16191,"##일러":16192,"소식":16193,"의도":16194,"##려오":16195,"##오르":16196,"사쿠":16197,"분야":16198,"디지":16199,"전환":16200,"근데":16201,"52":16202,"불과":16203,"합치":16204,"유튜브":16205,"##니까":16206,"바닥":16207,"영입":16208,"먹이":16209,"안전":16210,"경기도":16211,"그때":16212,"치르":16213,"브레이":16214,"괴물":16215,"저격":16216,"마크":16217,"##텐츠":16218,"제안":16219,"흡수":16220,"점령":16221,"You":16222,"의지":16223,"##시스":16224,"⭧는다는":16225,"예선":16226,"초대":16227,"필살":16228,"미리":16229,"최후":16230,"##니티":16231,"따지":16232,"400":16233,"개선":16234,"공략":16235,"유도":16236,"##남도":16237,"화염":16238,"숫자":16239,"놀라":16240,"독자":16241,"전술":16242,"##art":16243,"코치":16244,"그저":16245,"방해":16246,"##나가":16247,"주력":16248,"원하":16249,"액션":16250,"확보":16251,"외모":16252,"인원":16253,"가져오":16254,"매일":16255,"평화":16256,"비트":16257,"진입":16258,"터미널":16259,"이론":16260,"##런스":16261,"규정":16262,"관통":16263,"VS":16264,"클래스":16265,"라디오":16266,"에스":16267,"오토":16268,"찾아오":16269,"장난":16270,"수사":16271,"##오스":16272,"49":16273,"들리":16274,"이치":16275,"투자":16276,"승부":16277,"컨셉":16278,"눈물":16279,"체육":16280,"목숨":16281,"형성":16282,"지나가":16283,"적극":16284,"⭧느냐":16285,"방패":16286,"AP":16287,"56":16288,"가스":16289,"패러":16290,"상자":16291,"음반":16292,"모험":16293,"사과":16294,"아름":16295,"서브":16296,"리어":16297,"왼쪽":16298,"적절":16299,"부수":16300,"흐르":16301,"인류":16302,"한국어":16303,"계기":16304,"보도":16305,"2001":16306,"##올리":16307,"함대":16308,"구축":16309,"##동생":16310,"거짓":16311,"저지르":16312,"살아남":16313,"의심":16314,"⭧ᆫ지라":16315,"약점":16316,"예술":16317,"공화국":16318,"들이":16319,"역전":16320,"##스케":16321,"인형":16322,"기원":16323,"53":16324,"오리지널":16325,"54":16326,"비디오":16327,"##페이지":16328,"작성":16329,"완료":16330,"더블":16331,"##모리":16332,"...":16333,"자라":16334,"공부":16335,"은퇴":16336,"수리":16337,"코어":16338,"솔로":16339,"회전":16340,"스위":16341,"##라이더":16342,"쓰러지":16343,"풀리":16344,"단순히":16345,"대단":16346,"질문":16347,"In":16348,"걸치":16349,"PC":16350,"편집":16351,"황금":16352,"끌어":16353,"민주당":16354,"마침":16355,"뮤직":16356,"##래프트":16357,"알렉":16358,"시내":16359,"##로우":16360,"안드":16361,"##시브":16362,"홈페이지":16363,"착용":16364,"필수":16365,"트랙":16366,"상대방":16367,"꾸준":16368,"85":16369,"보수":16370,"해제":16371,"미스":16372,"엄마":16373,"카페":16374,"아프리카":16375,"드라이":16376,"경상":16377,"##ia":16378,"사단":16379,"습격":16380,"장관":16381,"편하":16382,"1990":16383,"현장":16384,"날개":16385,"사장":16386,"코스트":16387,"비난":16388,"포르":16389,"희망":16390,"원거리":16391,"##ill":16392,"데리":16393,"오스":16394,"수원":16395,"##ie":16396,"재판":16397,"선보이":16398,"분석":16399,"하위":16400,"##레이션":16401,"명중":16402,"아시아":16403,"진정":16404,"무력":16405,"코믹":16406,"선물":16407,"##RA":16408,"##나다":16409,"인지":16410,"성인":16411,"수호":16412,"ST":16413,"모티브":16414,"##IA":16415,"비고":16416,"에이스":16417,"청소":16418,"확실히":16419,"블루":16420,"아름답":16421,"행복":16422,"경계":16423,"부리":16424,"저주":16425,"감안":16426,"카즈":16427,"중단":16428,"태도":16429,"가슴":16430,"190":16431,"##ik":16432,"임명":16433,"남편":16434,"공원":16435,"기획":16436,"지식":16437,"관광":16438,"표정":16439,"허용":16440,"승강":16441,"스마":16442,"쿨타임":16443,"장애":16444,"무섭":16445,"수단":16446,"지나치":16447,"오른쪽":16448,"탑재":16449,"바탕":16450,"본선":16451,"멈추":16452,"딱히":16453,"인민":16454,"제시":16455,"친하":16456,"소프트":16457,"상처":16458,"주도":16459,"##무원":16460,"당장":16461,"59":16462,"망하":16463,"##연히":16464,"가까":16465,"##북도":16466,"의문":16467,"영역":16468,"유래":16469,"기점":16470,"테마":16471,"소울":16472,"테크":16473,"고통":16474,"리스":16475,"보급":16476,"유우":16477,"##ab":16478,"직원":16479,"불명":16480,"날아가":16481,"비싸":16482,"돌파":16483,"기어":16484,"베이스":16485,"위주":16486,"멀티":16487,"작용":16488,"주목":16489,"제압":16490,"대답":16491,"챙기":16492,"120":16493,"58":16494,"나카":16495,"잠깐":16496,"##마스":16497,"##워드":16498,"주연":16499,"⭧아요":16500,"⭧을까":16501,"카운터":16502,"여부":16503,"##울리":16504,"고유":16505,"순서":16506,"제기":16507,"측면":16508,"꺼내":16509,"베르":16510,"체계":16511,"도서":16512,"##est":16513,"게이":16514,"57":16515,"업무":16516,"박스":16517,"진영":16518,"부인":16519,"우수":16520,"##th":16521,"MP":16522,"멀리":16523,"문명":16524,"이스":16525,"카메라":16526,"패스":16527,"횟수":16528,"드립":16529,"후속":16530,"멸망":16531,"통일":16532,"온라인":16533,"##all":16534,"버튼":16535,"공장":16536,"##트롤":16537,"텔레":16538,"시나리오":16539,"⫸아":16540,"⭧어라":16541,"지점":16542,"거주":16543,"케이스":16544,"귀족":16545,"나뉘":16546,"##ea":16547,"66":16548,"95":16549,"코너":16550,"문자":16551,"당선":16552,"내려가":16553,"에어":16554,"겨우":16555,"협력":16556,"차별":16557,"특기":16558,"계산":16559,"소수":16560,"지옥":16561,"후지":16562,"약속":16563,"듀얼":16564,"삼국":16565,"##시피":16566,"최악":16567,"눈치":16568,"마츠":16569,"크로스":16570,"건너":16571,"뉴욕":16572,"달라지":16573,"Sh":16574,"연계":16575,"⭧ᆯ수록":16576,"딜러":16577,"시체":16578,"은행":16579,"##붙이":16580,"다가":16581,"⭧건":16582,"##머리":16583,"Lo":16584,"##ct":16585,"스펙":16586,"늘리":16587,"살해":16588,"가볍":16589,"ddd":16590,"on":16591,"나타내":16592,"개편":16593,"상하":16594,"오후":16595,"유키":16596,"가져가":16597,"1999":16598,"퍼지":16599,"그라":16600,"##다르":16601,"스케":16602,"Re":16603,"붕괴":16604,"처치":16605,"##라리":16606,"배신":16607,"대놓":16608,"자격":16609,"혁명":16610,"게시":16611,"매치":16612,"군주":16613,"부담":16614,"110":16615,"##ddd":16616,"dddddd":16617,"Sp":16618,"컨트롤":16619,"게이지":16620,"1998":16621,"##AL":16622,"해금":16623,"##스티":16624,"그레이":16625,"겨울":16626,"국회의원":16627,"어울리":16628,"견제":16629,"증거":16630,"레이저":16631,"스탠":16632,"외부":16633,"최대한":16634,"군인":16635,"장전":16636,"⭧ㅓ서":16637,"교사":16638,"필살기":16639,"##AT":16640,"62":16641,"출발":16642,"진실":16643,"자살":16644,"제조":16645,"핵심":16646,"##바이":16647,"##PS":16648,"정권":16649,"##워하":16650,"어린":16651,"##피아":16652,"대원":16653,"여왕":16654,"전장":16655,"드물":16656,"##드라":16657,"궁극":16658,"미군":16659,"##OR":16660,"중화":16661,"연방":16662,"용병":16663,"마왕":16664,"##니어":16665,"스프":16666,"로켓":16667,"귀엽":16668,"아침":16669,"댄스":16670,"##VE":16671,"##레인":16672,"거절":16673,"제로":16674,"충전":16675,"##아리":16676,"한화":16677,"타이밍":16678,"출생":16679,"쓰러":16680,"자이":16681,"유용":16682,"가르치":16683,"공산":16684,"체인":16685,"SS":16686,"##래도":16687,"일본어":16688,"기분":16689,"SBS":16690,"이성":16691,"##터리":16692,"커뮤":16693,"조준":16694,"만족":16695,"충돌":16696,"고급":16697,"브랜드":16698,"도구":16699,"단위":16700,"취소":16701,"애매":16702,"교환":16703,"⭧는다고":16704,"스피드":16705,"부진":16706,"##달리":16707,"⭧고서":16708,"거래":16709,"##ate":16710,"스킨":16711,"⭧쿠":16712,"##로이드":16713,"미나":16714,"##사카":16715,"수학":16716,"가로":16717,"흔히":16718,"##ess":16719,"피해자":16720,"극장판":16721,"토스":16722,"Th":16723,"카르":16724,"##ell":16725,"61":16726,"반란":16727,"제주":16728,"##광역시":16729,"발휘":16730,"세계관":16731,"얼음":16732,"##ard":16733,"무게":16734,"76":16735,"오스트":16736,"끼리":16737,"장수":16738,"파악":16739,"후반부":16740,"하트":16741,"##ang":16742,"단독":16743,"아무래도":16744,"겹치":16745,"인생":16746,"모션":16747,"레전":16748,"홍콩":16749,"패시브":16750,"공통":16751,"##IC":16752,"갈리":16753,"근무":16754,"판타":16755,"자르":16756,"##ue":16757,"신화":16758,"비록":16759,"격투":16760,"아머":16761,"막히":16762,"한자":16763,"##ant":16764,"##ack":16765,"순수":16766,"##ers":16767,"따위":16768,"피아":16769,"몰리":16770,"Al":16771,"NP":16772,"웨이":16773,"77":16774,"구입":16775,"##두르":16776,"정령":16777,"파이터":16778,"브리":16779,"##ine":16780,"88":16781,"공군":16782,"1997":16783,"##다수":16784,"운전":16785,"72":16786,"등등":16787,"혼란":16788,"계급":16789,"자식":16790,"가입":16791,"수입":16792,"아라":16793,"##하라":16794,"아메":16795,"스코어":16796,"닥터":16797,"##심히":16798,"내주":16799,"트레이":16800,"회수":16801,"권력":16802,"⭧자고":16803,"경력":16804,"##어내":16805,"본부":16806,"채용":16807,"지시":16808,"공작":16809,"근거":16810,"마이크":16811,"커버":16812,"##피스":16813,"탄생":16814,"생일":16815,"밸런스":16816,"해방":16817,"조지":16818,"비율":16819,"헤드":16820,"누리":16821,"외치":16822,"기절":16823,"우려":16824,"건강":16825,"지하철":16826,"언니":16827,"용도":16828,"테러":16829,"남부":16830,"꾸준히":16831,"##가락":16832,"병기":16833,"엑스":16834,"표준":16835,"갤러리":16836,"BG":16837,"⭧ㅕ서":16838,"타워":16839,"실질":16840,"돌격":16841,"지대":16842,"##ok":16843,"##OS":16844,"납치":16845,"증명":16846,"협회":16847,"반영":16848,"홍보":16849,"모리":16850,"지급":16851,"무너지":16852,"프라":16853,"대공":16854,"강조":16855,"아사":16856,"입학":16857,"be":16858,"오오":16859,"업체":16860,"트위":16861,"불안":16862,"플라":16863,"랜덤":16864,"373":16865,"FI":16866,"유형":16867,"외교":16868,"요원":16869,"##디션":16870,"경영":16871,"왕자":16872,"##아나":16873,"or":16874,"##유키":16875,"감염":16876,"대륙":16877,"경향":16878,"##세이":16879,"98":16880,"fff":16881,"온갖":16882,"훌륭":16883,"광역":16884,"감사":16885,"CD":16886,"gt":16887,"연대":16888,"마녀":16889,"실행":16890,"맡기":16891,"장식":16892,"⭧아라":16893,"문학":16894,"##ive":16895,"패러디":16896,"##웨이":16897,"기독":16898,"페이스":16899,"메탈":16900,"찌르":16901,"물질":16902,"600":16903,"주어지":16904,"##오리":16905,"없애":16906,"내놓":16907,"입단":16908,"재생":16909,"가까이":16910,"##크래프트":16911,"아나":16912,"울트라":16913,"스페셜":16914,"화살":16915,"추진":16916,"주년":16917,"어차":16918,"찾아가":16919,"집안":16920,"고민":16921,"내내":16922,"설득":16923,"대다수":16924,"계승":16925,"1996":16926,"서포":16927,"선배":16928,"승강장":16929,"살짝":16930,"사카":16931,"##트로":16932,"어차피":16933,"부문":16934,"폐지":16935,"트라":16936,"##ast":16937,"이슬":16938,"캐나다":16939,"##고기":16940,"PS":16941,"##AS":16942,"영원":16943,"미야":16944,"정지":16945,"대놓고":16946,"##들리":16947,"신문":16948,"베트":16949,"1995":16950,"보물":16951,"적당":16952,"##메달":16953,"신뢰":16954,"사전":16955,"##바로":16956,"브라질":16957,"##어리":16958,"연예":16959,"작사":16960,"지우":16961,"즉시":16962,"아리":16963,"⭧ㅓ야":16964,"기기":16965,"파라":16966,"##uby":16967,"\",":16968,"전선":16969,"당황":16970,"##ED":16971,"미소":16972,"내려오":16973,"함선":16974,"흘리":16975,"괴롭":16976,"##tt":16977,"##즈키":16978,"##이터":16979,"68":16980,"뒤집":16981,"페이지":16982,"##ee":16983,"폭풍":16984,"등판":16985,"은근":16986,"lt":16987,"오픈":16988,"800":16989,"소문":16990,"탑승":16991,"명예":16992,"열심히":16993,"스파이":16994,"상품":16995,"화장":16996,"입수":16997,"레전드":16998,"오프닝":16999,"⭧군":17000,"갑옷":17001,"별도":17002,"경유":17003,"러브":17004,"심리":17005,"시행":17006,"경기장":17007,"단일":17008,"파리":17009,"63":17010,"아야":17011,"말리":17012,"의회":17013,"1980":17014,"변호":17015,"##시오":17016,"라스":17017,"통제":17018,"마련":17019,"##카와":17020,"댓글":17021,"반격":17022,"##ong":17023,"##AM":17024,"ruby":17025,"스티":17026,"운명":17027,"가면라이더":17028,"오류":17029,"정류":17030,"응원":17031,"푸르":17032,"트레":17033,"##세우":17034,"레오":17035,"후쿠":17036,"한때":17037,"커뮤니티":17038,"신청":17039,"쓰레":17040,"트위터":17041,"격파":17042,"라이벌":17043,"사령관":17044,"##ort":17045,"⭧리":17046,"김성":17047,"주전":17048,"고전":17049,"기독교":17050,"출판":17051,"습득":17052,"이승":17053,"##웨어":17054,"중계":17055,"공기":17056,"편의":17057,"##ith":17058,"수업":17059,"하수":17060,"심장":17061,"처하":17062,"##리티":17063,"오해":17064,"불만":17065,"신고":17066,"마인":17067,"마주":17068,"두산":17069,"울산":17070,"##아먹":17071,"71":17072,"##if":17073,"74":17074,"관객":17075,"##다지":17076,"외국인":17077,"카나":17078,"정말로":17079,"보정":17080,"주위":17081,"##ly":17082,"크루":17083,"##fff":17084,"건축":17085,"##아버지":17086,"출장":17087,"....":17088,"스트라이":17089,"랜드":17090,"##나무":17091,"용어":17092,"MV":17093,"##ld":17094,"고기":17095,"공유":17096,"그곳":17097,"전달":17098,"73":17099,"여론":17100,"67":17101,"아트":17102,"메이저":17103,"ffffff":17104,"민간":17105,"사운드":17106,"짜리":17107,"절반":17108,"가리키":17109,"조치":17110,"##티컬":17111,"고치":17112,"지형":17113,"갈등":17114,"여신":17115,"##도우":17116,"붙잡":17117,"임시":17118,"무적":17119,"자치":17120,"##학자":17121,"재능":17122,"가득":17123,"전함":17124,"아오":17125,"전공":17126,"요새":17127,"압박":17128,"NC":17129,"##ain":17130,"리버":17131,"별개":17132,"엔터":17133,"초월":17134,"##같이":17135,"##ist":17136,"96":17137,"##겨나":17138,"쌓이":17139,"종점":17140,"연구소":17141,"오로":17142,"네이버":17143,"스튜":17144,"1994":17145,"##ind":17146,"북쪽":17147,"카라":17148,"전형":17149,"추적":17150,"메가":17151,"TH":17152,"그다지":17153,"메타":17154,"시각":17155,"##타인":17156,"180":17157,"컨텐츠":17158,"남쪽":17159,"제하":17160,"늑대":17161,"보장":17162,"발매되":17163,"지켜":17164,"테이":17165,"AC":17166,"돌진":17167,"소멸":17168,"##서트":17169,"판타지":17170,"시야":17171,"81":17172,"AT":17173,"결승전":17174,"전시":17175,"널리":17176,"클라":17177,"타점":17178,"다행히":17179,"파이어":17180,"일부러":17181,"⫸하":17182,"##per":17183,"불꽃":17184,"그만큼":17185,"동네":17186,"화이트":17187,"환자":17188,"##듀서":17189,"프로듀서":17190,"##ps":17191,"강원":17192,"동기":17193,"가이":17194,"##지컬":17195,"##EN":17196,"서부":17197,"여동생":17198,"문제점":17199,"흔하":17200,"적히":17201,"화려":17202,"##츠키":17203,"쓰러뜨리":17204,"그림자":17205,"선호":17206,"왕조":17207,"동원":17208,"폭력":17209,"상향":17210,"우스":17211,"지켜보":17212,"파이널":17213,"회원":17214,"대만":17215,"뛰어":17216,"본명":17217,"치명타":17218,"유로":17219,"북부":17220,"유비":17221,"신세":17222,"맞서":17223,"물러":17224,"##EC":17225,"소드":17226,"⭧자는":17227,"따오":17228,"78":17229,"##가와":17230,"신라":17231,"##식간":17232,"91":17233,"##OL":17234,"##스탄":17235,"수요":17236,"순식간":17237,"연상":17238,"무난":17239,"##ew":17240,"도서관":17241,"테스트":17242,"향상":17243,"메시":17244,"전역":17245,"매력":17246,"클로":17247,"학과":17248,"##돌리":17249,"차트":17250,"전적":17251,"##더스":17252,"변형":17253,"스토":17254,"최상":17255,"전방":17256,"부품":17257,"찾아":17258,"지르":17259,"아시":17260,"84":17261,"CP":17262,"체포":17263,"영토":17264,"아일":17265,"일상":17266,"수집":17267,"크리티컬":17268,"암흑":17269,"전투력":17270,"시드":17271,"게이트":17272,"##사키":17273,"코믹스":17274,"아우":17275,"키스":17276,"영업":17277,"##LC":17278,"마술":17279,"me":17280,"인수":17281,"토모":17282,"##ry":17283,"수용":17284,"저런":17285,"조절":17286,"파견":17287,"드디어":17288,"이마":17289,"폭격":17290,"복잡":17291,"학살":17292,"복장":17293,"유전":17294,"##려움":17295,"오빠":17296,"##어스":17297,"82":17298,"바라보":17299,"대우":17300,"떡밥":17301,"##lo":17302,"입력":17303,"그래픽":17304,"구현":17305,"편지":17306,"개통":17307,"생명력":17308,"호환":17309,"현지":17310,"97":17311,"니시":17312,"추락":17313,"신인":17314,"사자":17315,"천사":17316,"도달":17317,"아무런":17318,"고향":17319,"동부":17320,"닌자":17321,"사토":17322,"##덜란드":17323,"네덜란드":17324,"청년":17325,"86":17326,"창작":17327,"아가":17328,"디아":17329,"경비":17330,"점차":17331,"반지":17332,"작동":17333,"맞이":17334,"콜라":17335,"콘서트":17336,"연관":17337,"프레임":17338,"교황":17339,"엘프":17340,"종이":17341,"한국인":17342,"쓰레기":17343,"수송":17344,"출현":17345,"노예":17346,"스톤":17347,"기초":17348,"그치":17349,"##레나":17350,"제이":17351,"모바":17352,"추격":17353,"⭧단":17354,"해설":17355,"it":17356,"해체":17357,"69":17358,"##퍼스":17359,"⭧다시피":17360,"몰래":17361,"달하":17362,"##어버리":17363,"구도":17364,"조용":17365,"충청":17366,"의상":17367,"##노스":17368,"심판":17369,"##크스":17370,"간격":17371,"공급":17372,"녹음":17373,"아티":17374,"is":17375,"주먹":17376,"아무것":17377,"##히로":17378,"식물":17379,"토리":17380,"막장":17381,"시위":17382,"조성":17383,"NPC":17384,"프리미":17385,"전투기":17386,"##어도":17387,"사쿠라":17388,"##오프":17389,"##IT":17390,"제자":17391,"조조":17392,"잉글":17393,"연사":17394,"둘러":17395,"##둥이":17396,"돌아다니":17397,"수술":17398,"무효":17399,"스마트":17400,"연애":17401,"검색":17402,"슬롯":17403,"⭧잖":17404,"실드":17405,"만든":17406,"##시코":17407,"마스":17408,"감시":17409,"##타로":17410,"레스":17411,"스카이":17412,"US":17413,"일제":17414,"블록":17415,"꼬리":17416,"헤이":17417,"법원":17418,"##스트라":17419,"동쪽":17420,"##특별":17421,"마리오":17422,"나루":17423,"⫸께":17424,"경험치":17425,"구체":17426,"MS":17427,"고교":17428,"옛날":17429,"놓치":17430,"##오카":17431,"##보내":17432,"An":17433,"통상":17434,"총기":17435,"김정":17436,"##모로":17437,"##티나":17438,"범인":17439,"탱크":17440,"구속":17441,"베트남":17442,"라이더":17443,"진지":17444,"##버트":17445,"##ust":17446,"신분":17447,"대립":17448,"신규":17449,"장교":17450,"성과":17451,"은하":17452,"연락":17453,"국립":17454,"예외":17455,"쿠키":17456,"250":17457,"어깨":17458,"##주시":17459,"KT":17460,"강의":17461,"인근":17462,"입구":17463,"지도자":17464,"신성":17465,"다섯":17466,"차단":17467,"규칙":17468,"글자":17469,"##50":17470,"되찾":17471,"불편":17472,"대대":17473,"메카":17474,"마도":17475,"평타":17476,"프린":17477,"요정":17478,"언제나":17479,"바보":17480,"창조":17481,"박살":17482,"코인":17483,"마리아":17484,"안습":17485,"총선":17486,"유희":17487,"모바일":17488,"동작":17489,"토론":17490,"##도로":17491,"후기":17492,"전라":17493,"##비전":17494,"##일리":17495,"여러모로":17496,"환상":17497,"아크":17498,"에드":17499,"189":17500,"거짓말":17501,"##디아":17502,"노출":17503,"기여":17504,"의료":17505,"##파이어":17506,"##브리":17507,"권총":17508,"세월":17509,"소총":17510,"접하":17511,"이래":17512,"이리":17513,"이득":17514,"농구":17515,"어택":17516,"일원":17517,"자이언":17518,"무료":17519,"신호":17520,"블레이드":17521,"202":17522,"서쪽":17523,"##영상":17524,"가시":17525,"이날":17526,"1992":17527,"부위":17528,"출처":17529,"정복":17530,"개혁":17531,"음성":17532,"미술":17533,"폭주":17534,"극단":17535,"잠수":17536,"##스턴":17537,"고생":17538,"띄우":17539,"92":17540,"헌터":17541,"##BO":17542,"##ore":17543,"##저히":17544,"간부":17545,"##톨릭":17546,"Ar":17547,"참전":17548,"반발":17549,"전직":17550,"교전":17551,"고용":17552,"투어":17553,"대체로":17554,"양산":17555,"일자":17556,"보석":17557,"고문":17558,"폴란드":17559,"대량":17560,"키리":17561,"연도":17562,"상점":17563,"83":17564,"글로":17565,"라이프":17566,"제법":17567,"호평":17568,"상상":17569,"제어":17570,"길이":17571,"동영상":17572,"수영":17573,"정류장":17574,"승격":17575,"전대":17576,"Te":17577,"##보드":17578,"출력":17579,"⭧랄":17580,"사양":17581,"합격":17582,"89":17583,"기습":17584,"⭧잖아":17585,"휘두르":17586,"터치":17587,"##FF":17588,"101":17589,"사마":17590,"93":17591,"1993":17592,"공학":17593,"잉글랜드":17594,"반하":17595,"지휘관":17596,"북미":17597,"De":17598,"MAX":17599,"제작진":17600,"태우":17601,"기병":17602,"득표":17603,"⫸하고":17604,"윌리":17605,"중대":17606,"94":17607,"요괴":17608,"마루":17609,"합성":17610,"미디어":17611,"⫸이랑":17612,"다이아":17613,"머신":17614,"환승":17615,"인증":17616,"⫸링":17617,"법률":17618,"com":17619,"79":17620,"끼치":17621,"메인":17622,"적어도":17623,"##일드":17624,"탄약":17625,"조심":17626,"가량":17627,"박근":17628,"런던":17629,"회차":17630,"구출":17631,"요즘":17632,"탱커":17633,"##FC":17634,"파일럿":17635,"의혹":17636,"원소":17637,"re":17638,"매니":17639,"이자":17640,"리얼":17641,"활성":17642,"사이드":17643,"동방":17644,"유령":17645,"포탑":17646,"하수인":17647,"알파":17648,"노멀":17649,"삼진":17650,"히데":17651,"침공":17652,"⭧다면서":17653,"87":17654,"마이클":17655,"디지털":17656,"분기":17657,"이재":17658,"##란색":17659,"개정":17660,"서양":17661,"멋지":17662,"가톨릭":17663,"묘지":17664,"인공":17665,"의무":17666,"##우드":17667,"볼넷":17668,"훔치":17669,"이슬람":17670,"똑같이":17671,"네임":17672,"가속":17673,"결성":17674,"##one":17675,"예비":17676,"축제":17677,"대략":17678,"On":17679,"가게":17680,"블러":17681,"학자":17682,"패널":17683,"경고":17684,"레인저":17685,"계정":17686,"⫸란":17687,"##se":17688,"타케":17689,"##ip":17690,"헌법":17691,"소화":17692,"전면":17693,"이내":17694,"아일랜드":17695,"##AC":17696,"AI":17697,"부부":17698,"스키":17699,"DJ":17700,"특화":17701,"##RE":17702,"익숙":17703,"##자키":17704,"용사":17705,"상호":17706,"##미야":17707,"나아가":17708,"⫸같이":17709,"미츠":17710,"⭧었었":17711,"갤럭":17712,"##ere":17713,"캐스":17714,"##먼트":17715,"스웨":17716,"##임스":17717,"문장":17718,"바이러스":17719,"메모리":17720,"슈트":17721,"도망가":17722,"어지":17723,"워치":17724,"실리":17725,"근육":17726,"대항":17727,"커맨":17728,"불법":17729,"넘치":17730,"##PG":17731,"리메":17732,"BGM":17733,"MC":17734,"플레이오프":17735,"핸드":17736,"베스트":17737,"어둡":17738,"오가":17739,"이시":17740,"플로":17741,"SN":17742,"자매":17743,"유행":17744,"묻히":17745,"한방":17746,"개체":17747,"##ity":17748,"도발":17749,"⭧냐며":17750,"들어서":17751,"##ath":17752,"김영":17753,"##창기":17754,"보안":17755,"쿠로":17756,"육성":17757,"##조리":17758,"예측":17759,"빛나":17760,"어린이":17761,"예고":17762,"트로":17763,"소닉":17764,"이즈":17765,"자금":17766,"갤럭시":17767,"##라이언":17768,"신기":17769,"총리":17770,"⭧으니까":17771,"루시":17772,"노르":17773,"검찰":17774,"취임":17775,"멕시코":17776,"형사":17777,"FIFA":17778,"터키":17779,"정면":17780,"결론":17781,"사제":17782,"길드":17783,"##end":17784,"국방":17785,"웬만":17786,"차리":17787,"리스트":17788,"스톰":17789,"고백":17790,"1991":17791,"##끄럽":17792,"루타":17793,"파크":17794,"구멍":17795,"캐리":17796,"식사":17797,"움직임":17798,"불러":17799,"마구":17800,"일시":17801,"레이스":17802,"리치":17803,"세이브":17804,"호텔":17805,"곧바로":17806,"상업":17807,"앞두":17808,"감옥":17809,"이명":17810,"!!":17811,"##펙트":17812,"저장":17813,"여유":17814,"절망":17815,"제임스":17816,"찾아보":17817,"개방":17818,"부서":17819,"진심":17820,"##워크":17821,"투구":17822,"사이즈":17823,"구원":17824,"틀리":17825,"유대":17826,"볼트":17827,"초창기":17828,"플랫":17829,"세르":17830,"THE":17831,"700":17832,"타마":17833,"플레":17834,"대가":17835,"FA":17836,"피부":17837,"너무나":17838,"와이":17839,"배차":17840,"##요시":17841,"##고리":17842,"박정":17843,"듯이":17844,"청소년":17845,"오랫":17846,"팀원":17847,"흥행":17848,"강철":17849,"⭧ㅕㅆ":17850,"번개":17851,"바치":17852,"카타":17853,"착각":17854,"좌우":17855,"##특별시":17856,"전철":17857,"커플":17858,"##릭스":17859,"여지":17860,"1988":17861,"##구리":17862,"바위":17863,"파트너":17864,"발달":17865,"어떠":17866,"##레이터":17867,"세포":17868,"리메이크":17869,"MVP":17870,"소형":17871,"##로나":17872,"아끼":17873,"처벌":17874,"그동안":17875,"스미":17876,"서울특별시":17877,"떠오르":17878,"현역":17879,"다스":17880,"레이드":17881,"아기":17882,"신설":17883,"긍정":17884,"아빠":17885,"주식":17886,"융합":17887,"##데스":17888,"##네스":17889,"주간":17890,"원자":17891,"망치":17892,"외계":17893,"분량":17894,"차라리":17895,"프라이":17896,"정착":17897,"Ro":17898,"위장":17899,"물러나":17900,"미카":17901,"##OT":17902,"인정받":17903,"돼지":17904,"반사":17905,"챕터":17906,"카스":17907,"합의":17908,"##디언":17909,"식민":17910,"랭킹":17911,"내성":17912,"##성기":17913,"목격":17914,"인연":17915,"누적":17916,"커지":17917,"협박":17918,"전문가":17919,"내장":17920,"장악":17921,"단장":17922,"게스트":17923,"의뢰":17924,"화학":17925,"빌드":17926,"보고":17927,"CC":17928,"방지":17929,"⫸에서부터":17930,"포스트":17931,"클리":17932,"야스":17933,"브레이크":17934,"잡지":17935,"박근혜":17936,"##든지":17937,"⭧거":17938,"Wh":17939,"해병":17940,"영향력":17941,"공지":17942,"논리":17943,"대리":17944,"방출":17945,"안드로이드":17946,"동의":17947,"태그":17948,"국왕":17949,"사우":17950,"방사":17951,"⭧는다면":17952,"AK":17953,"시즈":17954,"깨지":17955,"타이거":17956,"먹히":17957,"조약":17958,"고지":17959,"포트":17960,"각자":17961,"그대":17962,"몰아":17963,"떠올리":17964,"요코":17965,"배트":17966,"한번":17967,"괴롭히":17968,"관할":17969,"저녁":17970,"지능":17971,"##ect":17972,"DLC":17973,"골든":17974,"국군":17975,"하필":17976,"칭하":17977,"htt":17978,"⭧라면서":17979,"대폭":17980,"Se":17981,"1970":17982,"의존":17983,"##스키":17984,"최소한":17985,"양쪽":17986,"⭧으려고":17987,"손가락":17988,"호주":17989,"토르":17990,"Le":17991,"악역":17992,"마침내":17993,"루이":17994,"스턴":17995,"##지마":17996,"동화":17997,"홀로":17998,"연맹":17999,"과목":18000,"변호사":18001,"대지":18002,"실버":18003,"공무원":18004,"유치":18005,"'.":18006,"후속작":18007,"막차":18008,"기구":18009,"수련":18010,"본작":18011,"그럼":18012,"무역":18013,"섞이":18014,"수수":18015,"He":18016,"면역":18017,"소지":18018,"보관":18019,"소원":18020,"오랫동안":18021,"무덤":18022,"PD":18023,"##age":18024,"오사카":18025,"웹툰":18026,"주말":18027,"역임":18028,"##IS":18029,"귀신":18030,"오카":18031,"육체":18032,"연인":18033,"##밀리":18034,"크라":18035,"기원전":18036,"al":18037,"혐의":18038,"스튜디오":18039,"해리":18040,"내구":18041,"명중률":18042,"확대":18043,"재산":18044,"카오스":18045,"접촉":18046,"⫸레":18047,"호감":18048,"어쨌":18049,"불교":18050,"다가오":18051,"적대":18052,"##구치":18053,"네트":18054,"kt":18055,"##잡이":18056,"노부":18057,"대처":18058,"명성":18059,"써먹":18060,"강남":18061,"스틸":18062,"태평":18063,"계단":18064,"올해":18065,"전후":18066,"비행기":18067,"Go":18068,"연료":18069,"예능":18070,"정비":18071,"Me":18072,"출마":18073,"통치":18074,"테일":18075,"간혹":18076,"슈팅":18077,"##페인":18078,"팔리":18079,"오늘날":18080,"합체":18081,"트레이드":18082,"피스":18083,"로즈":18084,"모모":18085,"예쁘":18086,"정치인":18087,"부장":18088,"컬러":18089,"마키":18090,"정원":18091,"퀄리티":18092,"흐름":18093,"개성":18094,"⭧ᆫ다며":18095,"소장":18096,"블리":18097,"리드":18098,"안내":18099,"놀랍":18100,"학부":18101,"이지":18102,"오전":18103,"게시판":18104,"소스":18105,"GT":18106,"놓이":18107,"##다이":18108,"준수":18109,"휴대":18110,"접속":18111,"저그":18112,"수익":18113,"권리":18114,"##베르":18115,"1989":18116,"떨어":18117,"##라드":18118,"KIA":18119,"권한":18120,"원수":18121,"특집":18122,"패하":18123,"연극":18124,"하우스":18125,"##og":18126,"외형":18127,"금융":18128,"##ake":18129,"##ide":18130,"필리":18131,"##어나오":18132,"박물":18133,"코미":18134,"선전":18135,"화제":18136,"김태":18137,"새벽":18138,"허리":18139,"윌리엄":18140,"상당수":18141,"##OM":18142,"Be":18143,"피격":18144,"이집":18145,"⫸에다":18146,"My":18147,"초간":18148,"이집트":18149,"주기":18150,"WW":18151,"무렵":18152,"따라가":18153,"공공":18154,"담기":18155,"환영":18156,"편곡":18157,"페이즈":18158,"일기":18159,"130":18160,"최다":18161,"금속":18162,"포르투":18163,"갇히":18164,"꼽히":18165,"알아보":18166,"##려주":18167,"나치":18168,"AR":18169,"둘째":18170,"메르":18171,"고구":18172,"원칙":18173,"##ss":18174,"카미":18175,"결합":18176,"SC":18177,"##ark":18178,"##티아":18179,"##바라":18180,"누나":18181,"##ime":18182,"깨닫":18183,"연타":18184,"##ire":18185,"알렉산":18186,"할아버지":18187,"치우":18188,"SM":18189,"편입":18190,"식당":18191,"시계":18192,"굴리":18193,"유물":18194,"개입":18195,"문재":18196,"캠퍼스":18197,"한동안":18198,"기도":18199,"인조":18200,"매직":18201,"어른":18202,"##세스":18203,"지진":18204,"거인":18205,"188":18206,"전신":18207,"⭧으러":18208,"소중":18209,"아니면":18210,"극복":18211,"wh":18212,"116":18213,"블로그":18214,"전진":18215,"시선":18216,"까다":18217,"성립":18218,"영문":18219,"주사":18220,"my":18221,"Su":18222,"##ES":18223,"정찰":18224,"은근히":18225,"정글":18226,"헤비":18227,"회상":18228,"아바":18229,"기사단":18230,"##프레":18231,"사도":18232,"SD":18233,"협상":18234,"⭧ㅓ도":18235,"캐스팅":18236,"메뉴":18237,"궤도":18238,"스웨덴":18239,"##ID":18240,"그로":18241,"시내버스":18242,"팬덤":18243,"Tr":18244,"음원":18245,"⭧는지라":18246,"대개":18247,"##닉스":18248,"작곡가":18249,"손해":18250,"##ite":18251,"##던가":18252,"익히":18253,"대충":18254,"튀어나오":18255,"독특":18256,"재단":18257,"수십":18258,"동굴":18259,"##다랗":18260,"우위":18261,"더더":18262,"별다르":18263,"##아시아":18264,"복무":18265,"무겁":18266,"고수":18267,"안티":18268,"민주주의":18269,"용기":18270,"식량":18271,"##부르크":18272,"털리":18273,"트럭":18274,"160":18275,"교차":18276,"리아":18277,"종목":18278,"이익":18279,"해안":18280,"##회사":18281,"처형":18282,"##ound":18283,"조언":18284,"일찍":18285,"멀쩡":18286,"트랜":18287,"SR":18288,"아이스":18289,"클래식":18290,"과제":18291,"리듬":18292,"이끄":18293,"세이버":18294,"위상":18295,"##iv":18296,"원본":18297,"더더욱":18298,"HD":18299,"''":18300,"펀치":18301,"커맨드":18302,"신비":18303,"커스":18304,"##리그":18305,"김민":18306,"빼앗기":18307,"시마":18308,"타인":18309,"박물관":18310,"까다롭":18311,"트윈":18312,"##가미":18313,"⭧든지":18314,"애플":18315,"##iz":18316,"##OP":18317,"삼국지":18318,"##쳐지":18319,"훗날":18320,"##ge":18321,"증언":18322,"해적":18323,"멘탈":18324,"천재":18325,"날짜":18326,"허나":18327,"절대로":18328,"적군":18329,"IC":18330,"자국":18331,"일격":18332,"살아가":18333,"마비":18334,"신앙":18335,"위원장":18336,"구사":18337,"##가리":18338,"신부":18339,"##큐어":18340,"##OW":18341,"갈수록":18342,"⭧구나":18343,"##가시":18344,"노인":18345,"재미있":18346,"각본":18347,"무릎":18348,"코우":18349,"중독":18350,"하얗":18351,"기적":18352,"재정":18353,"죄다":18354,"바리":18355,"세종":18356,"주포":18357,"집행":18358,"양성":18359,"##무르":18360,"스승":18361,"철학":18362,"⫸요":18363,"하락":18364,"우라":18365,"참석":18366,"놀이":18367,"지위":18368,"##바르":18369,"마이너":18370,"캠페인":18371,"과연":18372,"비례":18373,"데모":18374,"유이":18375,"정수":18376,"개시":18377,"예산":18378,"결코":18379,"모자라":18380,"국적":18381,"적응":18382,"패션":18383,"교류":18384,"관중":18385,"호위":18386,"작화":18387,"크리스마스":18388,"한참":18389,"탄창":18390,"매체":18391,"이브":18392,"이중":18393,"##덩이":18394,"##LL":18395,"열쇠":18396,"안경":18397,"히메":18398,"##ome":18399,"하야":18400,"활발":18401,"시아":18402,"경기력":18403,"Gr":18404,"내세우":18405,"원주":18406,"⭧어다":18407,"선출":18408,"투명":18409,"십자":18410,"##테르":18411,"해상":18412,"with":18413,"바퀴":18414,"우연히":18415,"김종":18416,"루수":18417,"체크":18418,"##BA":18419,"희귀":18420,"명단":18421,"비추":18422,"녹색":18423,"충성":18424,"##UN":18425,"화성":18426,"클레":18427,"##마디":18428,"진보":18429,"미안":18430,"스타크래프트":18431,"드레":18432,"데려오":18433,"이영":18434,"칭찬":18435,"개수":18436,"사막":18437,"개막":18438,"첫차":18439,"주일":18440,"로그":18441,"결말":18442,"##아웃":18443,"IS":18444,"위대":18445,"행적":18446,"##든가":18447,"##미니":18448,"##지로":18449,"전성기":18450,"##몬드":18451,"제정":18452,"당일":18453,"의대":18454,"모래":18455,"기르":18456,"인지도":18457,"흔적":18458,"칼리":18459,"1987":18460,"상급":18461,"기종":18462,"챌린":18463,"흔들리":18464,"후방":18465,"업적":18466,"오스트리아":18467,"de":18468,"미터":18469,"강점":18470,"BE":18471,"px":18472,"임대":18473,"상성":18474,"140":18475,"농담":18476,"어지간":18477,"김동":18478,"웃음":18479,"포로":18480,"호수":18481,"계통":18482,"⭧겟":18483,"사유":18484,"⭧느라":18485,"도우":18486,"보라":18487,"##MA":18488,"Pr":18489,"버스터":18490,"재현":18491,"대학원":18492,"취미":18493,"면적":18494,"무작":18495,"새기":18496,"매년":18497,"##ord":18498,"스프링":18499,"Love":18500,"비상":18501,"오직":18502,"어쨌든":18503,"토끼":18504,"어려움":18505,"체육관":18506,"클릭":18507,"⭧더라":18508,"##려나":18509,"심사":18510,"##ud":18511,"일반인":18512,"포항":18513,"고스트":18514,"개량":18515,"사후":18516,"신장":18517,"거점":18518,"프리큐어":18519,"생존자":18520,"유적":18521,"이정":18522,"남북":18523,"어마":18524,"강도":18525,"기아":18526,"자책":18527,"과장":18528,"니코":18529,"새끼":18530,"ch":18531,"본체":18532,"모조리":18533,"##양함":18534,"자본":18535,"대수":18536,"괴수":18537,"자극":18538,"예수":18539,"⭧에":18540,"이주":18541,"가을":18542,"##mp":18543,"부지":18544,"⭧으시":18545,"파츠":18546,"##사자":18547,"화물":18548,"##데미":18549,"울리":18550,"##10":18551,"로우":18552,"부작":18553,"맥스":18554,"저작":18555,"전멸":18556,"##ame":18557,"기용":18558,"소위":18559,"UE":18560,"선고":18561,"##ance":18562,"아메리카":18563,"캡틴":18564,"연금":18565,"추구":18566,"기울":18567,"아티스트":18568,"SKT":18569,"##ax":18570,"##카드":18571,"미라":18572,"구리":18573,"인격":18574,"자세히":18575,"에리":18576,"an":18577,"##치기":18578,"가짜":18579,"출입":18580,"행하":18581,"판매량":18582,"JR":18583,"공세":18584,"##ure":18585,"아카데미":18586,"유나이":18587,"유니폼":18588,"불타":18589,"##ix":18590,"흥미":18591,"900":18592,"일치":18593,"차기":18594,"GS":18595,"승점":18596,"채택":18597,"어스":18598,"시달리":18599,"포격":18600,"##코드":18601,"공룡":18602,"일방":18603,"단편":18604,"유나이티":18605,"취향":18606,"무지":18607,"##ick":18608,"소송":18609,"##mer":18610,"스마트폰":18611,"도주":18612,"덧붙이":18613,"포드":18614,"탈퇴":18615,"메리":18616,"카트":18617,"##이즈":18618,"코코":18619,"일본인":18620,"##ice":18621,"막대":18622,"사형":18623,"연패":18624,"기량":18625,"색깔":18626,"타율":18627,"피아노":18628,"스트리":18629,"바깥":18630,"##랑이":18631,"몽골":18632,"귀찮":18633,"##our":18634,"제작자":18635,"잘리":18636,"한마디":18637,"Bo":18638,"유통":18639,"사라":18640,"건조":18641,"노벨":18642,"코리아":18643,"상실":18644,"아즈":18645,"타선":18646,"화장실":18647,"할머니":18648,"드라이브":18649,"⭧런":18650,"구경":18651,"후계":18652,"생겨나":18653,"영구":18654,"치유":18655,"집어":18656,"마린":18657,"라이온":18658,"측정":18659,"EP":18660,"식민지":18661,"비주":18662,"내지":18663,"미루":18664,"요금":18665,"##시로":18666,"아미":18667,"자전":18668,"보존":18669,"1986":18670,"거듭":18671,"로고":18672,"날아오":18673,"다름":18674,"##공화국":18675,"선택지":18676,"쌍둥이":18677,"어드":18678,"무라":18679,"잠재":18680,"1960":18681,"아이콘":18682,"##이너":18683,"OST":18684,"상인":18685,"무방":18686,"커피":18687,"##비드":18688,"빨갛":18689,"사신":18690,"강요":18691,"레이더":18692,"##랭크":18693,"메시지":18694,"##코토":18695,"인민공화국":18696,"KO":18697,"##{{":18698,"Un":18699,"간신":18700,"언스":18701,"이민":18702,"##고속":18703,"이슈":18704,"통산":18705,"가요":18706,"동력":18707,"가상":18708,"박히":18709,"Ex":18710,"포수":18711,"신사":18712,"넥센":18713,"도끼":18714,"조연":18715,"색상":18716,"피터":18717,"다치":18718,"데드":18719,"캐논":18720,"##AD":18721,"명확":18722,"오타":18723,"몰락":18724,"연승":18725,"##qu":18726,"주택":18727,"화재":18728,"사원":18729,"여객":18730,"##멘트":18731,"루카":18732,"교장":18733,"네트워크":18734,"주소":18735,"타락":18736,"곡명":18737,"귀환":18738,"##oc":18739,"가루":18740,"냄새":18741,"브루":18742,"안타깝":18743,"{{{":18744,"외전":18745,"즐겁":18746,"초보":18747,"콜라보":18748,"##반도":18749,"유희왕":18750,"터뜨리":18751,"제갈":18752,"실망":18753,"판결":18754,"##80":18755,"구르":18756,"##시스트":18757,"아서":18758,"칭호":18759,"모토":18760,"등지":18761,"GB":18762,"##카리":18763,"대선":18764,"찾아내":18765,"경로":18766,"레알":18767,"수장":18768,"UEFA":18769,"항공기":18770,"이터":18771,"스페이스":18772,"광역시":18773,"⭧슈":18774,"남녀":18775,"위반":18776,"깔끔":18777,"매니저":18778,"거미":18779,"비치":18780,"포르투갈":18781,"DS":18782,"고구려":18783,"타수":18784,"연합군":18785,"186":18786,"##own":18787,"sh":18788,"##ys":18789,"아케":18790,"반동":18791,"##나카":18792,"아마도":18793,"라인업":18794,"순환":18795,"CPU":18796,"##노우":18797,"혐오":18798,"교실":18799,"영주":18800,"##럼프":18801,"그만두":18802,"베네":18803,"법인":18804,"항복":18805,"백성":18806,"##라노":18807,"너희":18808,"관찰":18809,"복지":18810,"##데이":18811,"타운":18812,"잠수함":18813,"미스터":18814,"##ber":18815,"단단":18816,"비서":18817,"주역":18818,"주자":18819,"적합":18820,"캠프":18821,"스터":18822,"배터리":18823,"매장":18824,"수류":18825,"We":18826,"관람":18827,"익스":18828,"AM":18829,"소라":18830,"커다랗":18831,"예시":18832,"유효":18833,"강원도":18834,"커리어":18835,"드래프트":18836,"싱크":18837,"흘러":18838,"##저스":18839,"히어로즈":18840,"끊기":18841,"105":18842,"공성":18843,"카츠":18844,"공업":18845,"##av":18846,"아쿠":18847,"둘러싸":18848,"##OC":18849,"흑인":18850,"인치":18851,"하단":18852,"고도":18853,"유학":18854,"벌레":18855,"트라이":18856,"이스라":18857,"승객":18858,"##old":18859,"예언":18860,"용량":18861,"김재":18862,"##정부":18863,"동성":18864,"..\"":18865,"고작":18866,"본사":18867,"##로디":18868,"##시타":18869,"상단":18870,"승률":18871,"##일보":18872,"국경":18873,"추억":18874,"소프트웨어":18875,"CF":18876,"면모":18877,"천만":18878,"마약":18879,"포위":18880,"휴식":18881,"서구":18882,"티켓":18883,"관측":18884,"LI":18885,"철수":18886,"수출":18887,"일대":18888,"그러니까":18889,"##orld":18890,"도적":18891,"곤란":18892,"중립":18893,"자폭":18894,"카운트":18895,"생략":18896,"스텔":18897,"구글":18898,"개국":18899,"표지":18900,"적당히":18901,"수류탄":18902,"터널":18903,"상술":18904,"변환":18905,"음모":18906,"조별":18907,"클랜":18908,"인디":18909,"마드리":18910,"기생":18911,"좌석":18912,"허가":18913,"합병":18914,"다름없":18915,"추종":18916,"형상":18917,"##위대":18918,"고맙":18919,"소대":18920,"대인":18921,"시그":18922,"사이버":18923,"실전":18924,"오크":18925,"히나":18926,"치루":18927,"정기":18928,"후술":18929,"아랍":18930,"##가스":18931,"김대":18932,"문구":18933,"내전":18934,"마드리드":18935,"통계":18936,"1984":18937,"디스크":18938,"더럽":18939,"보험":18940,"인종":18941,"차이점":18942,"메달":18943,"마디":18944,"##ont":18945,"1985":18946,"글로벌":18947,"연예인":18948,"최신":18949,"근본":18950,"복구":18951,"##려들":18952,"지경":18953,"언더":18954,"액티브":18955,"입지":18956,"사명":18957,"187":18958,"서포터":18959,"증오":18960,"SH":18961,"지뢰":18962,"후손":18963,"이스라엘":18964,"스트라이크":18965,"후배":18966,"아시안":18967,"용서":18968,"에르":18969,"구석":18970,"담배":18971,"성남":18972,"##라이트":18973,"3000":18974,"사정거리":18975,"위성":18976,"일족":18977,"시너지":18978,"타로":18979,"크리스탈":18980,"떨어뜨리":18981,"AD":18982,"##ies":18983,"허락":18984,"LC":18985,"기숙":18986,"고위":18987,"DF":18988,"급격":18989,"그랜드":18990,"자막":18991,"즉위":18992,"리타":18993,"숙련":18994,"##머스":18995,"함수":18996,"논의":18997,"부각":18998,"전주":18999,"하차":19000,"고개":19001,"텔레비전":19002,"구슬":19003,"공방":19004,"lo":19005,"꾸미":19006,"KBO":19007,"행보":19008,"오라":19009,"어뢰":19010,"미묘":19011,"경주":19012,"##팩트":19013,"토벌":19014,"시노":19015,"쓸모":19016,"감각":19017,"모니":19018,"발행":19019,"해피":19020,"데려가":19021,"아츠":19022,"모노":19023,"들키":19024,"언덕":19025,"서식":19026,"It":19027,"왕위":19028,"마그":19029,"##lay":19030,"연령":19031,"특전":19032,"⭧네요":19033,"튕기":19034,"XX":19035,"준우":19036,"중첩":19037,"태평양":19038,"부딪":19039,"취약":19040,"가만":19041,"뜬금":19042,"후원":19043,"오랜만":19044,"제약":19045,"쿼터":19046,"블러드":19047,"루나":19048,"베리":19049,"노동자":19050,"무척":19051,"침략":19052,"저렴":19053,"정화":19054,"간신히":19055,"##자드":19056,"총알":19057,"기관총":19058,"##OD":19059,"침입":19060,"##하면":19061,"눈치채":19062,"세븐":19063,"노스":19064,"MF":19065,"드롭":19066,"간접":19067,"일본군":19068,"생년":19069,"오마":19070,"##US":19071,"아르헨":19072,"방어구":19073,"##블린":19074,"제트":19075,"워커":19076,"흡혈":19077,"분쟁":19078,"법정":19079,"입대":19080,"##어마":19081,"알아내":19082,"헬기":19083,"파르":19084,"학습":19085,"혹시":19086,"균형":19087,"드럼":19088,"맛있":19089,"가동":19090,"찍히":19091,"아테":19092,"전이":19093,"CV":19094,"⭧드":19095,"사귀":19096,"진압":19097,"강자":19098,"##프리":19099,"카카":19100,"산하":19101,"WWE":19102,".....":19103,"##PM":19104,"아르헨티나":19105,"##ann":19106,"잡아먹":19107,"곳곳":19108,"레슬":19109,"찬스":19110,"공용":19111,"텍스트":19112,"소방":19113,"평생":19114,"머무르":19115,"여우":19116,"조이":19117,"분열":19118,"스리":19119,"NE":19120,"아이언":19121,"SE":19122,"어마어마":19123,"주차":19124,"모시":19125,"비스":19126,"자이언츠":19127,"관점":19128,"##40":19129,"중세":19130,"네오":19131,"신전":19132,"동인":19133,"약화":19134,"악당":19135,"금방":19136,"정차":19137,"나리":19138,"125":19139,"##pe":19140,"깨어나":19141,"플라이":19142,"이토":19143,"잡아내":19144,"거울":19145,"##30":19146,"우르":19147,"트랜스":19148,"애정":19149,"부적":19150,"페널":19151,"결심":19152,"지리":19153,"이수":19154,"경상북도":19155,"딜링":19156,"반전":19157,"##말리":19158,"제작사":19159,"나폴":19160,"격추":19161,"내보내":19162,"제출":19163,"상기":19164,"##네임":19165,"성당":19166,"앨리스":19167,"##sh":19168,"연고":19169,"⭧라기":19170,"보호막":19171,"your":19172,"니콜":19173,"이혼":19174,"되돌리":19175,"통화":19176,"양자":19177,"크림":19178,"스팀":19179,"이란":19180,"⭧던지":19181,"토너":19182,"표면":19183,"호흡":19184,"##NA":19185,"폐쇄":19186,"##배우":19187,"사령부":19188,"금액":19189,"아저":19190,"##마크":19191,"결전":19192,"큐브":19193,"구축함":19194,"엘리트":19195,"미즈":19196,"아저씨":19197,"간주":19198,"코르":19199,"히토":19200,"악화":19201,"저택":19202,"보완":19203,"뮤지컬":19204,"창원":19205,"구름":19206,"이식":19207,"세인트":19208,"얻어":19209,"인권":19210,"⭧요":19211,"뽑히":19212,"충실":19213,"##VD":19214,"채팅":19215,"스크린":19216,"헤어지":19217,"CJ":19218,"김현":19219,"불사":19220,"선거구":19221,"착하":19222,"AS":19223,"용인":19224,"상관없":19225,"라면":19226,"참모":19227,"전파":19228,"초록":19229,"열매":19230,"##나미":19231,"부자":19232,"주둔":19233,"지불":19234,"DE":19235,"발리":19236,"인용":19237,"하루카":19238,"유력":19239,"##은행":19240,"암시":19241,"대왕":19242,"천안":19243,"##ng":19244,"##키아":19245,"##io":19246,"낚시":19247,"긴장":19248,"정예":19249,"교과":19250,"분해":19251,"물리치":19252,"묘하":19253,"##천시":19254,"해치":19255,"##베이":19256,"빠져":19257,"토니":19258,"프란":19259,"동양":19260,"유발":19261,"문재인":19262,"서서":19263,"보건":19264,"존재감":19265,"성별":19266,"공정":19267,"경남":19268,"체결":19269,"남아":19270,"시인":19271,"배포":19272,"학력":19273,"상세":19274,"소유자":19275,"낮추":19276,"엮이":19277,"수석":19278,"##거지":19279,"우에":19280,"후계자":19281,";&":19282,"악기":19283,"언젠":19284,"언젠가":19285,"답변":19286,"드라이버":19287,"마주치":19288,"걸어":19289,"짜증":19290,"##리나":19291,"상영":19292,"##oo":19293,"토너먼트":19294,"원리":19295,"수호자":19296,"재밌":19297,"도둑":19298,"전승":19299,"엑스트라":19300,"바이오":19301,"악명":19302,"안기":19303,"행운":19304,"로버트":19305,"개설":19306,"##라기":19307,"호기":19308,"170":19309,"이듬":19310,"도박":19311,"Pro":19312,"지라":19313,"구미":19314,"본관":19315,"뜨겁":19316,"천하":19317,"업로드":19318,"잔뜩":19319,"미쿠":19320,"기인":19321,"선두":19322,"은신":19323,"견디":19324,"기숙사":19325,"##싱턴":19326,"##월일":19327,"##ave":19328,"뱀파이어":19329,"양식":19330,"실종":19331,"쏟아지":19332,"교도":19333,"중량":19334,"지팡":19335,"루비":19336,"##포트":19337,"릴리":19338,"요인":19339,"백인":19340,"##걸이":19341,"⭧에요":19342,"로리":19343,"탐험":19344,"정황":19345,"##LE":19346,"부임":19347,"임신":19348,"⫸에다가":19349,"난입":19350,"중력":19351,"아동":19352,"처분":19353,"대책":19354,"임금":19355,"동점":19356,"비아":19357,"LV":19358,"관리자":19359,"캐스터":19360,"디지몬":19361,"미키":19362,"심심":19363,"##번트":19364,"건드리":19365,"만남":19366,"방송국":19367,"that":19368,"논문":19369,"야생":19370,"칼날":19371,"UP":19372,"항의":19373,"테라":19374,"관계자":19375,"헨리":19376,"미네":19377,"생년월일":19378,"해명":19379,"백작":19380,"시카":19381,"유독":19382,"탄환":19383,"##센트":19384,"분명히":19385,"베타":19386,"호칭":19387,"##우마":19388,"복합":19389,"도루":19390,"서번트":19391,"카와":19392,"##스럽":19393,"금메달":19394,"말투":19395,"윈도우":19396,"##ION":19397,"동명":19398,"생명체":19399,"진주":19400,"문단":19401,"이라":19402,"발렌":19403,"##ream":19404,"와일드":19405,"할인":19406,"법칙":19407,"수백":19408,"가방":19409,"다이아몬드":19410,"⭧려던":19411,"콜로":19412,"ED":19413,"1500":19414,"단축":19415,"자녀":19416,"절차":19417,"정통":19418,"루이스":19419,"잃어버리":19420,"EN":19421,"⭧다니":19422,"해골":19423,"분신":19424,"외계인":19425,"무관":19426,"영광":19427,"기상":19428,"보드":19429,"운동장":19430,"하향":19431,"이드":19432,"온도":19433,"지치":19434,"시합":19435,"조리":19436,"라틴":19437,"이듬해":19438,"브레":19439,"주술":19440,"분대":19441,"프로필":19442,"인력":19443,"리뷰":19444,"##리스트":19445,"##ond":19446,"창고":19447,"1982":19448,"치즈":19449,"->":19450,"딜레이":19451,"부스터":19452,"##펴보":19453,"살펴보":19454,"이온":19455,"니스":19456,"그르":19457,"끔찍":19458,"광장":19459,"##어하":19460,"로얄":19461,"기름":19462,"플래시":19463,"##게임":19464,"##iss":19465,"Com":19466,"5000":19467,"왠지":19468,"사살":19469,"의학":19470,"기둥":19471,"크레":19472,"창설":19473,"그린":19474,"뛰어넘":19475,"전동":19476,"⭧소":19477,"건국":19478,"성질":19479,"울프":19480,"전북":19481,"도라":19482,"마블":19483,"한쪽":19484,"유인":19485,"막내":19486,"공허":19487,"엔젤":19488,"체험":19489,"레딧":19490,"장인":19491,"부드":19492,"##에르":19493,"퇴장":19494,"그렇지만":19495,"물고기":19496,"부사":19497,"유격":19498,"존경":19499,"민첩":19500,"집착":19501,"##태우":19502,"우정":19503,"##운서":19504,"삽입":19505,"디젤":19506,"##군다":19507,"아나운서":19508,"걸맞":19509,"웨스트":19510,"상식":19511,"참가자":19512,"아키라":19513,"승자":19514,"1950":19515,"공산당":19516,"##플레이":19517,"##IP":19518,"##11":19519,"깔리":19520,"창단":19521,"요약":19522,"휘말리":19523,"##카이":19524,"시상":19525,"감지":19526,"시원":19527,"작년":19528,"진학":19529,"모터":19530,"시공":19531,"⭧래":19532,"그램":19533,"증상":19534,"전제":19535,"독재":19536,"수면":19537,"가라":19538,"감추":19539,"1983":19540,"하츠":19541,"의장":19542,"불펜":19543,"##60":19544,"학기":19545,"샌드":19546,"##도르":19547,"출구":19548,"복제":19549,"##ian":19550,"??":19551,"by":19552,"##비치":19553,"##소녀":19554,"아틀":19555,"부드럽":19556,"오디션":19557,"he":19558,"두르":19559,"싫어하":19560,"나츠":19561,"블라":19562,"유산":19563,"##커스":19564,"⫸께서":19565,"비전":19566,"철저":19567,"선제":19568,"덩치":19569,"발굴":19570,"가공":19571,"BL":19572,"하이퍼":19573,"헤어":19574,"시라":19575,"단원":19576,"스위스":19577,"투스":19578,"유전자":19579,"스폰":19580,"&#":19581,"반박":19582,
[...]
