[UNK]	0
[CLS]	1
[SEP]	2
[PAD]	3
[MASK]	4
!	5
"	6
#	7
$	8
%	9
&	10
'	11
(	12
)	13
*	14
+	15
,	16
-	17
.	18
/	19
0	20
1	21
2	22
3	23
4	24
5	25
6	26
7	27
8	28
9	29
:	30
;	31
<	32
=	33
>	34
?	35
@	36
A	37
B	38
C	39
D	40
E	41
F	42
G	43
H	44
I	45
J	46
K	47
L	48
M	49
N	50
O	51
P	52
Q	53
R	54
S	55
T	56
U	57
V	58
W	59
X	60
Y	61
Z	62
[	63
\	64
]	65
^	66
_	67
`	68
a	69
b	70
c	71
d	72
e	73
f	74
g	75
h	76
i	77
j	78
k	79
l	80
m	81
n	82
o	83
p	84
q	85
r	86
s	87
t	88
u	89
v	90
w	91
x	92
y	93
z	94
{	95
|	96
}	97
~	98
	99
ᄀ	100
ᄆ	101
ᄇ	102
ᆫ	103
ᆯ	104
ㄱ	105
ㄲ	106
ㄳ	107
ㄴ	108
ㄵ	109
ㄶ	110
ㄷ	111
ㄸ	112
ㄹ	113
ㄺ	114
ㄻ	115
ㄼ	116
ㄽ	117
ㄾ	118
ㄿ	119
ㅀ	120
ㅁ	121
ㅂ	122
ㅃ	123
ㅄ	124
ㅅ	125
ㅆ	126
ㅇ	127
ㅈ	128
ㅉ	129
ㅊ	130
ㅋ	131
ㅌ	132
ㅍ	133
ㅎ	134
ㅏ	135
ㅐ	136
ㅑ	137
ㅒ	138
ㅓ	139
ㅔ	140
ㅕ	141
ㅖ	142
ㅗ	143
ㅘ	144
ㅙ	145
ㅚ	146
ㅛ	147
ㅜ	148
ㅝ	149
ㅞ	150
ㅟ	151
ㅠ	152
ㅡ	153
ㅢ	154
ㅣ	155
가	156
각	157
갂	158
갃	159
간	160
갅	161
갆	162
갇	163
갈	164
갉	165
갊	166
갋	167
갌	168
갍	169
갎	170
갏	171
감	172
갑	173
값	174
갓	175
갔	176
강	177
갖	178
갗	179
갘	180
같	181
갚	182
갛	183
개	184
객	185
갞	186
갟	187
갠	188
갡	189
갢	190
갣	191
갤	192
갥	193
갦	194
갧	195
갨	196
갩	197
갪	198
갫	199
갬	200
갭	201
갮	202
갯	203
갰	204
갱	205
갲	206
갳	207
갴	208
갵	209
갶	210
갷	211
갸	212
갹	213
갺	214
갻	215
갽	216
갾	217
갿	218
걀	219
걁	220
걂	221
걃	222
걄	223
걅	224
걆	225
걇	226
걈	227
걉	228
걊	229
걋	230
걌	231
걍	232
걎	233
걏	234
걐	235
걑	236
걒	237
걓	238
걔	239
걕	240
걖	241
걗	242
걙	243
걚	244
걛	245
걝	246
걞	247
걟	248
걠	249
걡	250
걢	251
걣	252
걤	253
걥	254
걦	255
걧	256
걨	257
걩	258
걪	259
걫	260
걬	261
걭	262
걮	263
걯	264
거	265
걱	266
걲	267
걳	268
건	269
걵	270
걶	271
걷	272
걸	273
걹	274
걺	275
걻	276
걼	277
걽	278
걾	279
걿	280
검	281
겁	282
겂	283
것	284
겄	285
겅	286
겆	287
겇	288
겈	289
겉	290
겊	291
겋	292
게	293
겍	294
겎	295
겏	296
겐	297
겑	298
겒	299
겓	300
겔	301
겕	302
겖	303
겗	304
겘	305
겙	306
겚	307
겛	308
겜	309
겞	310
겟	311
겠	312
겡	313
겢	314
겣	315
겤	316
겥	317
겦	318
겧	319
겨	320
격	321
겪	322
겫	323
견	324
겭	325
겮	326
겯	327
결	328
겱	329
겲	330
겳	331
겴	332
겵	333
겶	334
겷	335
겸	336
겹	337
겺	338
겻	339
겼	340
경	341
겾	342
겿	343
곀	344
곁	345
곂	346
곃	347
계	348
곅	349
곆	350
곇	351
곈	352
곉	353
곊	354
곋	355
곌	356
곍	357
곎	358
곏	359
곐	360
곑	361
곒	362
곓	363
곔	364
곕	365
곖	366
곗	367
곘	368
곙	369
곚	370
곛	371
곜	372
곝	373
곞	374
곟	375
고	376
곡	377
곢	378
곣	379
곤	380
곥	381
곦	382
곧	383
골	384
곩	385
곪	386
곫	387
곬	388
곭	389
곮	390
곯	391
곰	392
곱	393
곲	394
곳	395
곴	396
공	397
곶	398
곷	399
곸	400
곹	401
곺	402
곻	403
과	404
곽	405
곾	406
곿	407
관	408
괁	409
괂	410
괃	411
괄	412
괅	413
괆	414
괇	415
괈	416
괉	417
괊	418
괋	419
괌	420
괍	421
괎	422
괏	423
괐	424
광	425
괒	426
괓	427
괔	428
괕	429
괖	430
괗	431
괘	432
괙	433
괚	434
괛	435
괜	436
괝	437
괞	438
괟	439
괠	440
괡	441
괢	442
괣	443
괤	444
괥	445
괦	446
괧	447
괨	448
괩	449
괪	450
괫	451
괬	452
괭	453
괮	454
괯	455
괰	456
괱	457
괲	458
괳	459
괴	460
괵	461
괶	462
괷	463
괸	464
괹	465
괺	466
괻	467
괼	468
괽	469
괾	470
괿	471
굀	472
굁	473
굂	474
굃	475
굄	476
굅	477
굆	478
굇	479
굈	480
굉	481
굊	482
굋	483
굌	484
굍	485
굎	486
굏	487
교	488
굑	489
굒	490
굓	491
굔	492
굕	493
굖	494
굗	495
굘	496
굙	497
굚	498
굛	499
굜	500
굝	501
굞	502
굟	503
굠	504
굡	505
굢	506
굣	507
굤	508
굥	509
굦	510
굧	511
굨	512
굩	513
굪	514
굫	515
구	516
국	517
굮	518
굯	519
군	520
굱	521
굲	522
굳	523
굴	524
굵	525
굶	526
굷	527
굸	528
굹	529
굺	530
굻	531
굼	532
굽	533
굾	534
굿	535
궀	536
궁	537
궂	538
궃	539
궄	540
궅	541
궆	542
궇	543
궈	544
궉	545
궊	546
궋	547
권	548
궍	549
궎	550
궏	551
궐	552
궑	553
궒	554
궓	555
궔	556
궕	557
궖	558
궗	559
궘	560
궙	561
궚	562
궛	563
궜	564
궝	565
궞	566
궟	567
궠	568
궡	569
궢	570
궣	571
궤	572
궥	573
궦	574
궧	575
궨	576
궩	577
궪	578
궫	579
궬	580
궭	581
궮	582
궯	583
궰	584
궱	585
궲	586
궳	587
궴	588
궵	589
궶	590
궷	591
궸	592
궹	593
궺	594
궻	595
궼	596
궽	597
궾	598
궿	599
귀	600
귁	601
귂	602
귃	603
귄	604
귅	605
귆	606
귇	607
귈	608
귉	609
귊	610
귋	611
귌	612
귍	613
귎	614
귏	615
귐	616
귑	617
귒	618
귓	619
귔	620
귕	621
귖	622
귗	623
귘	624
귙	625
귚	626
귛	627
규	628
귝	629
귞	630
귟	631
균	632
귡	633
귢	634
귣	635
귤	636
귥	637
귦	638
귧	639
귨	640
귩	641
귪	642
귫	643
귬	644
귭	645
귮	646
귯	647
귰	648
귱	649
귲	650
귳	651
귴	652
귵	653
귶	654
귷	655
그	656
극	657
귺	658
귻	659
근	660
귽	661
귾	662
귿	663
글	664
긁	665
긂	666
긃	667
긄	668
긅	669
긆	670
긇	671
금	672
급	673
긊	674
긋	675
긌	676
긍	677
긎	678
긏	679
긐	680
긑	681
긒	682
긓	683
긔	684
긕	685
긖	686
긗	687
긘	688
긙	689
긚	690
긛	691
긜	692
긝	693
긞	694
긟	695
긠	696
긡	697
긢	698
긣	699
긤	700
긥	701
긦	702
긧	703
긨	704
긩	705
긪	706
긫	707
긬	708
긭	709
긮	710
긯	711
기	712
긱	713
긲	714
긳	715
긴	716
긵	717
긶	718
긷	719
길	720
긹	721
긺	722
긻	723
긼	724
긽	725
긾	726
긿	727
김	728
깁	729
깂	730
깃	731
깄	732
깅	733
깆	734
깇	735
깈	736
깉	737
깊	738
깋	739
까	740
깍	741
깎	742
깏	743
깐	744
깑	745
깒	746
깓	747
깔	748
깕	749
깖	750
깗	751
깘	752
깙	753
깚	754
깛	755
깜	756
깝	757
깞	758
깟	759
깡	760
깢	761
깣	762
깤	763
깥	764
깦	765
깧	766
깨	767
깩	768
깪	769
깫	770
깬	771
깭	772
깮	773
깯	774
깱	775
깲	776
깳	777
깴	778
깵	779
깶	780
깷	781
깸	782
깹	783
깺	784
깻	785
깽	786
깾	787
깿	788
꺀	789
꺁	790
꺂	791
꺃	792
꺄	793
꺅	794
꺆	795
꺇	796
꺈	797
꺉	798
꺊	799
꺋	800
꺌	801
꺍	802
꺎	803
꺏	804
꺐	805
꺑	806
꺒	807
꺓	808
꺔	809
꺕	810
꺖	811
꺗	812
꺘	813
꺙	814
꺚	815
꺛	816
꺜	817
꺝	818
꺞	819
꺟	820
꺠	821
꺡	822
꺢	823
꺣	824
꺤	825
꺥	826
꺦	827
꺧	828
꺨	829
꺩	830
꺪	831
꺫	832
꺬	833
꺭	834
꺮	835
꺯	836
꺰	837
꺱	838
꺲	839
꺳	840
꺴	841
꺵	842
꺶	843
꺷	844
꺸	845
꺹	846
꺺	847
꺻	848
꺼	849
꺽	850
꺾	851
꺿	852
껀	853
껁	854
껂	855
껃	856
껄	857
껅	858
껆	859
껇	860
껈	861
껉	862
껊	863
껋	864
껌	865
껍	866
껎	867
껏	868
껑	869
껒	870
껓	871
껔	872
껕	873
껖	874
껗	875
께	876
껙	877
껚	878
껛	879
껝	880
껞	881
껟	882
껠	883
껡	884
껢	885
껣	886
껤	887
껥	888
껦	889
껧	890
껨	891
껩	892
껪	893
껫	894
껬	895
껭	896
껮	897
껯	898
껰	899
껱	900
껲	901
껳	902
껴	903
껵	904
껶	905
껷	906
껸	907
껹	908
껺	909
껻	910
껼	911
껽	912
껾	913
껿	914
꼀	915
꼁	916
꼂	917
꼃	918
꼄	919
꼅	920
꼆	921
꼇	922
꼈	923
꼉	924
꼊	925
꼋	926
꼌	927
꼍	928
꼎	929
꼏	930
꼐	931
꼑	932
꼒	933
꼓	934
꼔	935
꼕	936
꼖	937
꼗	938
꼘	939
꼙	940
꼚	941
꼛	942
꼜	943
꼝	944
꼞	945
꼟	946
꼠	947
꼡	948
꼢	949
꼣	950
꼤	951
꼥	952
꼦	953
꼧	954
꼨	955
꼩	956
꼪	957
꼫	958
꼬	959
꼭	960
꼮	961
꼯	962
꼰	963
꼱	964
꼲	965
꼳	966
꼴	967
꼵	968
꼶	969
꼷	970
꼸	971
꼹	972
꼺	973
꼻	974
꼼	975
꼽	976
꼾	977
꼿	978
꽀	979
꽁	980
꽂	981
꽃	982
꽄	983
꽅	984
꽆	985
꽇	986
꽈	987
꽉	988
꽊	989
꽋	990
꽌	991
꽍	992
꽎	993
꽏	994
꽐	995
꽑	996
꽒	997
꽓	998
꽔	999
꽕	1000
꽖	1001
꽗	1002
꽘	1003
꽙	1004
꽚	1005
꽛	1006
꽜	1007
꽝	1008
꽞	1009
꽟	1010
꽠	1011
꽡	1012
꽢	1013
꽣	1014
꽤	1015
꽥	1016
꽦	1017
꽧	1018
꽨	1019
꽩	1020
꽪	1021
꽫	1022
꽬	1023
꽭	1024
꽮	1025
꽯	1026
꽰	1027
꽱	1028
꽲	1029
꽳	1030
꽴	1031
꽵	1032
꽶	1033
꽷	1034
꽸	1035
꽹	1036
꽺	1037
꽻	1038
꽼	1039
꽽	1040
꽾	1041
꽿	1042
꾀	1043
꾁	1044
꾂	1045
꾃	1046
꾄	1047
꾅	1048
꾆	1049
꾇	1050
꾈	1051
꾉	1052
꾊	1053
꾋	1054
꾌	1055
꾍	1056
꾎	1057
꾏	1058
꾐	1059
꾑	1060
꾒	1061
꾓	1062
꾔	1063
꾕	1064
꾖	1065
꾗	1066
꾘	1067
꾙	1068
꾚	1069
꾛	1070
꾜	1071
꾝	1072
꾞	1073
꾟	1074
꾠	1075
꾡	1076
꾢	1077
꾣	1078
꾤	1079
꾥	1080
꾦	1081
꾧	1082
꾨	1083
꾩	1084
꾪	1085
꾫	1086
꾬	1087
꾭	1088
꾮	1089
꾯	1090
꾰	1091
꾱	1092
꾲	1093
꾳	1094
꾴	1095
꾵	1096
꾶	1097
꾷	1098
꾸	1099
꾹	1100
꾺	1101
꾻	1102
꾼	1103
꾽	1104
꾾	1105
꾿	1106
꿀	1107
꿁	1108
꿂	1109
꿃	1110
꿄	1111
꿅	1112
꿆	1113
꿇	1114
꿈	1115
꿉	1116
꿊	1117
꿋	1118
꿌	1119
꿍	1120
꿎	1121
꿏	1122
꿐	1123
꿑	1124
꿒	1125
꿓	1126
꿔	1127
꿕	1128
꿖	1129
꿗	1130
꿘	1131
꿙	1132
꿚	1133
꿛	1134
꿜	1135
꿝	1136
꿞	1137
꿟	1138
꿠	1139
꿡	1140
꿢	1141
꿣	1142
꿤	1143
꿥	1144
꿦	1145
꿧	1146
꿨	1147
꿩	1148
꿪	1149
꿫	1150
꿬	1151
꿭	1152
꿮	1153
꿯	1154
꿰	1155
꿱	1156
꿲	1157
꿳	1158
꿵	1159
꿶	1160
꿷	1161
꿹	1162
꿺	1163
꿻	1164
꿼	1165
꿽	1166
꿾	1167
꿿	1168
뀀	1169
뀁	1170
뀂	1171
뀃	1172
뀅	1173
뀆	1174
뀇	1175
뀈	1176
뀉	1177
뀊	1178
뀋	1179
뀌	1180
뀍	1181
뀎	1182
뀏	1183
뀐	1184
뀑	1185
뀒	1186
뀓	1187
뀕	1188
뀖	1189
뀗	1190
뀘	1191
뀙	1192
뀚	1193
뀛	1194
뀜	1195
뀝	1196
뀞	1197
뀟	1198
뀠	1199
뀡	1200
뀢	1201
뀣	1202
뀤	1203
뀥	1204
뀦	1205
뀧	1206
뀨	1207
뀩	1208
뀪	1209
뀫	1210
뀬	1211
뀭	1212
뀮	1213
뀯	1214
뀰	1215
뀱	1216
뀲	1217
뀳	1218
뀴	1219
뀵	1220
뀶	1221
뀷	1222
뀸	1223
뀹	1224
뀺	1225
뀻	1226
뀼	1227
뀽	1228
뀾	1229
뀿	1230
끀	1231
끁	1232
끂	1233
끃	1234
끄	1235
끅	1236
끆	1237
끇	1238
끈	1239
끉	1240
끊	1241
끋	1242
끌	1243
끍	1244
끎	1245
끏	1246
끐	1247
끑	1248
끒	1249
끓	1250
끔	1251
끕	1252
끖	1253
끗	1254
끘	1255
끙	1256
끚	1257
끛	1258
끜	1259
끝	1260
끞	1261
끟	1262
끠	1263
끡	1264
끢	1265
끣	1266
끤	1267
끥	1268
끦	1269
끧	1270
끨	1271
끩	1272
끪	1273
끫	1274
끬	1275
끭	1276
끮	1277
끯	1278
끰	1279
끱	1280
끲	1281
끳	1282
끴	1283
끵	1284
끶	1285
끷	1286
끸	1287
끹	1288
끺	1289
끻	1290
끼	1291
끽	1292
끾	1293
끿	1294
낀	1295
낁	1296
낂	1297
낃	1298
낄	1299
낅	1300
낆	1301
낇	1302
낈	1303
낉	1304
낊	1305
낋	1306
낌	1307
낍	1308
낎	1309
낏	1310
낐	1311
낑	1312
낒	1313
낓	1314
낔	1315
낕	1316
낖	1317
낗	1318
나	1319
낙	1320
낚	1321
낛	1322
난	1323
낝	1324
낞	1325
낟	1326
날	1327
낡	1328
낢	1329
낣	1330
낤	1331
낥	1332
낦	1333
낧	1334
남	1335
납	1336
낪	1337
낫	1338
났	1339
낭	1340
낮	1341
낯	1342
낰	1343
낱	1344
낲	1345
낳	1346
내	1347
낵	1348
낶	1349
낷	1350
낸	1351
낹	1352
낺	1353
낻	1354
낼	1355
낽	1356
낾	1357
낿	1358
냀	1359
냁	1360
냂	1361
냃	1362
냄	1363
냅	1364
냆	1365
냇	1366
냈	1367
냉	1368
냊	1369
냋	1370
냌	1371
냍	1372
냎	1373
냏	1374
냐	1375
냑	1376
냒	1377
냓	1378
냔	1379
냕	1380
냖	1381
냗	1382
냘	1383
냙	1384
냚	1385
냛	1386
냜	1387
냝	1388
냞	1389
냟	1390
냠	1391
냡	1392
냢	1393
냣	1394
냤	1395
냥	1396
냦	1397
냧	1398
냨	1399
냩	1400
냪	1401
냫	1402
냬	1403
냭	1404
냮	1405
냯	1406
냰	1407
냱	1408
냲	1409
냳	1410
냴	1411
냵	1412
냶	1413
냷	1414
냸	1415
냹	1416
냺	1417
냻	1418
냼	1419
냽	1420
냾	1421
냿	1422
넀	1423
넁	1424
넂	1425
넃	1426
넄	1427
넅	1428
넆	1429
넇	1430
너	1431
넉	1432
넊	1433
넋	1434
넌	1435
넍	1436
넎	1437
넏	1438
널	1439
넑	1440
넒	1441
넓	1442
넔	1443
넕	1444
넖	1445
넗	1446
넘	1447
넙	1448
넚	1449
넛	1450
넜	1451
넝	1452
넞	1453
넟	1454
넠	1455
넡	1456
넢	1457
넣	1458
네	1459
넥	1460
넦	1461
넧	1462
넨	1463
넩	1464
넪	1465
넫	1466
넬	1467
넭	1468
넮	1469
넯	1470
넰	1471
넱	1472
넲	1473
넳	1474
넴	1475
넵	1476
넶	1477
넷	1478
넸	1479
넹	1480
넺	1481
넻	1482
넼	1483
넽	1484
넾	1485
넿	1486
녀	1487
녁	1488
녂	1489
녃	1490
년	1491
녅	1492
녆	1493
녇	1494
녈	1495
녉	1496
녊	1497
녋	1498
녌	1499
녍	1500
녎	1501
녏	1502
념	1503
녑	1504
녒	1505
녓	1506
녔	1507
녕	1508
녖	1509
녗	1510
녘	1511
녙	1512
녚	1513
녛	1514
녜	1515
녝	1516
녞	1517
녟	1518
녠	1519
녡	1520
녢	1521
녣	1522
녤	1523
녥	1524
녦	1525
녧	1526
녨	1527
녩	1528
녪	1529
녫	1530
녬	1531
녭	1532
녮	1533
녯	1534
녰	1535
녱	1536
녲	1537
녳	1538
녴	1539
녵	1540
녶	1541
녷	1542
노	1543
녹	1544
녺	1545
녻	1546
논	1547
녽	1548
녾	1549
녿	1550
놀	1551
놁	1552
놂	1553
놃	1554
놄	1555
놅	1556
놆	1557
놇	1558
놈	1559
놉	1560
놊	1561
놋	1562
놌	1563
농	1564
놎	1565
놏	1566
놐	1567
놑	1568
높	1569
놓	1570
놔	1571
놕	1572
놖	1573
놗	1574
놘	1575
놙	1576
놚	1577
놛	1578
놜	1579
놝	1580
놞	1581
놟	1582
놠	1583
놡	1584
놢	1585
놣	1586
놤	1587
놥	1588
놦	1589
놧	1590
놨	1591
놩	1592
놪	1593
놫	1594
놬	1595
놭	1596
놮	1597
놯	1598
놰	1599
놱	1600
놲	1601
놳	1602
놴	1603
놵	1604
놶	1605
놷	1606
놸	1607
놹	1608
놺	1609
놻	1610
놼	1611
놽	1612
놾	1613
놿	1614
뇀	1615
뇁	1616
뇂	1617
뇃	1618
뇄	1619
뇅	1620
뇆	1621
뇇	1622
뇈	1623
뇉	1624
뇊	1625
뇋	1626
뇌	1627
뇍	1628
뇎	1629
뇏	1630
뇐	1631
뇑	1632
뇒	1633
뇓	1634
뇔	1635
뇕	1636
뇖	1637
뇗	1638
뇘	1639
뇙	1640
뇚	1641
뇛	1642
뇜	1643
뇝	1644
뇞	1645
뇟	1646
뇠	1647
뇡	1648
뇢	1649
뇣	1650
뇤	1651
뇥	1652
뇦	1653
뇧	1654
뇨	1655
뇩	1656
뇪	1657
뇫	1658
뇬	1659
뇭	1660
뇮	1661
뇯	1662
뇰	1663
뇱	1664
뇲	1665
뇳	1666
뇴	1667
뇵	1668
뇶	1669
뇷	1670
뇸	1671
뇹	1672
뇺	1673
뇻	1674
뇼	1675
뇽	1676
뇾	1677
뇿	1678
눀	1679
눁	1680
눂	1681
눃	1682
누	1683
눅	1684
눆	1685
눇	1686
눈	1687
눉	1688
눊	1689
눋	1690
눌	1691
눍	1692
눎	1693
눏	1694
눐	1695
눑	1696
눒	1697
눓	1698
눔	1699
눕	1700
눖	1701
눗	1702
눘	1703
눙	1704
눚	1705
눛	1706
눜	1707
눝	1708
눞	1709
눟	1710
눡	1711
눢	1712
눣	1713
눤	1714
눥	1715
눦	1716
눧	1717
눨	1718
눩	1719
눪	1720
눫	1721
눬	1722
눭	1723
눮	1724
눯	1725
눰	1726
눱	1727
눲	1728
눳	1729
눵	1730
눶	1731
눷	1732
눸	1733
눹	1734
눺	1735
눻	1736
눼	1737
눽	1738
눾	1739
눿	1740
뉀	1741
뉁	1742
뉂	1743
뉃	1744
뉄	1745
뉅	1746
뉆	1747
뉇	1748
뉈	1749
뉉	1750
뉊	1751
뉋	1752
뉌	1753
뉍	1754
뉎	1755
뉏	1756
뉐	1757
뉑	1758
뉒	1759
뉓	1760
뉔	1761
뉕	1762
뉖	1763
뉗	1764
뉘	1765
뉙	1766
뉚	1767
뉛	1768
뉜	1769
뉝	1770
뉞	1771
뉟	1772
뉡	1773
뉢	1774
뉣	1775
뉤	1776
뉥	1777
뉦	1778
뉧	1779
뉨	1780
뉩	1781
뉪	1782
뉫	1783
뉬	1784
뉭	1785
뉮	1786
뉯	1787
뉰	1788
뉱	1789
뉲	1790
뉳	1791
뉴	1792
뉵	1793
뉶	1794
뉷	1795
뉸	1796
뉹	1797
뉺	1798
뉻	1799
뉼	1800
뉽	1801
뉾	1802
뉿	1803
늀	1804
늁	1805
늂	1806
늃	1807
늄	1808
늅	1809
늆	1810
늇	1811
늈	1812
늉	1813
늊	1814
늋	1815
늌	1816
늍	1817
늎	1818
늏	1819
느	1820
늑	1821
늒	1822
늓	1823
는	1824
늕	1825
늖	1826
늗	1827
늘	1828
늙	1829
늚	1830
늛	1831
늜	1832
늝	1833
늞	1834
늟	1835
늠	1836
늡	1837
늢	1838
늣	1839
늤	1840
능	1841
늦	1842
늧	1843
늨	1844
늩	1845
늪	1846
늫	1847
늬	1848
늭	1849
늮	1850
늯	1851
늰	1852
늱	1853
늲	1854
늳	1855
늴	1856
늵	1857
늶	1858
늷	1859
늸	1860
늹	1861
늺	1862
늻	1863
늼	1864
늽	1865
늾	1866
늿	1867
닀	1868
닁	1869
닂	1870
닃	1871
닄	1872
닅	1873
닆	1874
닇	1875
니	1876
닉	1877
닊	1878
닋	1879
닌	1880
닍	1881
닎	1882
닏	1883
닐	1884
닑	1885
닒	1886
닓	1887
닔	1888
닕	1889
닖	1890
닗	1891
님	1892
닙	1893
닚	1894
닛	1895
닜	1896
닝	1897
닞	1898
닟	1899
닠	1900
닡	1901
닢	1902
닣	1903
다	1904
닥	1905
닦	1906
닧	1907
단	1908
닩	1909
닪	1910
닫	1911
달	1912
닭	1913
닮	1914
닯	1915
닰	1916
닱	1917
닲	1918
닳	1919
담	1920
답	1921
닶	1922
닷	1923
닸	1924
당	1925
닺	1926
닻	1927
닼	1928
닽	1929
닾	1930
닿	1931
대	1932
댁	1933
댂	1934
댃	1935
댄	1936
댅	1937
댆	1938
댇	1939
댈	1940
댉	1941
댊	1942
댋	1943
댌	1944
댍	1945
댎	1946
댏	1947
댐	1948
댑	1949
댒	1950
댓	1951
댔	1952
댕	1953
댖	1954
댗	1955
댘	1956
댙	1957
댚	1958
댛	1959
댜	1960
댝	1961
댞	1962
댟	1963
댠	1964
댡	1965
댢	1966
댣	1967
댤	1968
댥	1969
댦	1970
댧	1971
댨	1972
댩	1973
댪	1974
댫	1975
댬	1976
댭	1977
댮	1978
댯	1979
댰	1980
댱	1981
댲	1982
댳	1983
댴	1984
댵	1985
댶	1986
댷	1987
댸	1988
댹	1989
댺	1990
댻	1991
댼	1992
댽	1993
댾	1994
댿	1995
덀	1996
덁	1997
덂	1998
덃	1999
덄	2000
덅	2001
덆	2002
덇	2003
덈	2004
덉	2005
덊	2006
덋	2007
덌	2008
덍	2009
덎	2010
덏	2011
덐	2012
덑	2013
덒	2014
덓	2015
더	2016
덕	2017
덖	2018
덗	2019
던	2020
덙	2021
덚	2022
덛	2023
덜	2024
덝	2025
덞	2026
덟	2027
덠	2028
덡	2029
덢	2030
덣	2031
덤	2032
덥	2033
덦	2034
덧	2035
덨	2036
덩	2037
덪	2038
덫	2039
덬	2040
덭	2041
덮	2042
덯	2043
데	2044
덱	2045
덲	2046
덳	2047
덴	2048
덵	2049
덶	2050
덷	2051
델	2052
덹	2053
덺	2054
덻	2055
덼	2056
덽	2057
덾	2058
덿	2059
뎀	2060
뎁	2061
뎂	2062
뎃	2063
뎄	2064
뎅	2065
뎆	2066
뎇	2067
뎈	2068
뎉	2069
뎊	2070
뎋	2071
뎌	2072
뎍	2073
뎎	2074
뎏	2075
뎐	2076
뎑	2077
뎒	2078
뎓	2079
뎔	2080
뎕	2081
뎖	2082
뎗	2083
뎘	2084
뎙	2085
뎚	2086
뎛	2087
뎜	2088
뎝	2089
뎞	2090
뎟	2091
뎠	2092
뎡	2093
뎢	2094
뎣	2095
뎤	2096
뎥	2097
뎦	2098
뎧	2099
뎨	2100
뎩	2101
뎪	2102
뎫	2103
뎬	2104
뎭	2105
뎮	2106
뎯	2107
뎰	2108
뎱	2109
뎲	2110
뎳	2111
뎴	2112
뎵	2113
뎶	2114
뎷	2115
뎸	2116
뎹	2117
뎺	2118
뎻	2119
뎼	2120
뎽	2121
뎾	2122
뎿	2123
돀	2124
돁	2125
돂	2126
돃	2127
도	2128
독	2129
돆	2130
돇	2131
돈	2132
돉	2133
돊	2134
돋	2135
돌	2136
돍	2137
돎	2138
돏	2139
돐	2140
돑	2141
돒	2142
돓	2143
돔	2144
돕	2145
돖	2146
돗	2147
돘	2148
동	2149
돚	2150
돛	2151
돜	2152
돝	2153
돞	2154
돟	2155
돠	2156
돡	2157
돢	2158
돣	2159
돤	2160
돥	2161
돦	2162
돧	2163
돨	2164
돩	2165
돪	2166
돫	2167
돬	2168
돭	2169
돮	2170
돯	2171
돰	2172
돱	2173
돲	2174
돳	2175
돴	2176
돵	2177
돶	2178
돷	2179
돸	2180
돹	2181
돺	2182
돻	2183
돼	2184
돽	2185
돾	2186
돿	2187
됀	2188
됁	2189
됂	2190
됃	2191
됄	2192
됅	2193
됆	2194
됇	2195
됈	2196
됉	2197
됊	2198
됋	2199
됌	2200
됍	2201
됎	2202
됏	2203
됐	2204
됑	2205
됒	2206
됓	2207
됔	2208
됕	2209
됖	2210
됗	2211
되	2212
됙	2213
됚	2214
됛	2215
된	2216
됝	2217
됞	2218
됟	2219
될	2220
됡	2221
됢	2222
됣	2223
됤	2224
됥	2225
됦	2226
됧	2227
됨	2228
됩	2229
됪	2230
됫	2231
됬	2232
됭	2233
됮	2234
됯	2235
됰	2236
됱	2237
됲	2238
됳	2239
됴	2240
됵	2241
됶	2242
됷	2243
됸	2244
됹	2245
됺	2246
됻	2247
됼	2248
됽	2249
됾	2250
됿	2251
둀	2252
둁	2253
둂	2254
둃	2255
둄	2256
둅	2257
둆	2258
둇	2259
둈	2260
둉	2261
둊	2262
둋	2263
둌	2264
둍	2265
둎	2266
둏	2267
두	2268
둑	2269
둒	2270
둓	2271
둔	2272
둕	2273
둖	2274
둗	2275
둘	2276
둙	2277
둚	2278
둛	2279
둜	2280
둝	2281
둞	2282
둟	2283
둠	2284
둡	2285
둢	2286
둣	2287
둤	2288
둥	2289
둦	2290
둧	2291
둨	2292
둩	2293
둪	2294
둫	2295
둬	2296
둭	2297
둮	2298
둯	2299
둰	2300
둱	2301
둲	2302
둳	2303
둴	2304
둵	2305
둶	2306
둷	2307
둸	2308
둹	2309
둺	2310
둻	2311
둼	2312
둽	2313
둾	2314
둿	2315
뒁	2316
뒂	2317
뒃	2318
뒄	2319
뒅	2320
뒆	2321
뒇	2322
뒈	2323
뒉	2324
뒊	2325
뒋	2326
뒌	2327
뒍	2328
뒎	2329
뒏	2330
뒐	2331
뒑	2332
뒒	2333
뒓	2334
뒔	2335
뒕	2336
뒖	2337
뒗	2338
뒘	2339
뒙	2340
뒚	2341
뒛	2342
뒜	2343
뒝	2344
뒞	2345
뒟	2346
뒠	2347
뒡	2348
뒢	2349
뒣	2350
뒤	2351
뒥	2352
뒦	2353
뒧	2354
뒨	2355
뒩	2356
뒪	2357
뒫	2358
뒬	2359
뒭	2360
뒮	2361
뒯	2362
뒰	2363
뒱	2364
뒲	2365
뒳	2366
뒴	2367
뒵	2368
뒶	2369
뒷	2370
뒸	2371
뒹	2372
뒺	2373
뒻	2374
뒼	2375
뒽	2376
뒾	2377
뒿	2378
듀	2379
듁	2380
듂	2381
듃	2382
듄	2383
듅	2384
듆	2385
듇	2386
듈	2387
듉	2388
듊	2389
듋	2390
듌	2391
듍	2392
듎	2393
듏	2394
듐	2395
듑	2396
듒	2397
듓	2398
듔	2399
듕	2400
듖	2401
듗	2402
듘	2403
듙	2404
듚	2405
듛	2406
드	2407
득	2408
듞	2409
듟	2410
든	2411
듡	2412
듢	2413
듣	2414
들	2415
듥	2416
듦	2417
듧	2418
듨	2419
듩	2420
듪	2421
듫	2422
듬	2423
듭	2424
듮	2425
듯	2426
듰	2427
등	2428
듲	2429
듳	2430
듴	2431
듵	2432
듶	2433
듷	2434
듸	2435
듹	2436
듺	2437
듻	2438
듼	2439
듽	2440
듾	2441
듿	2442
딀	2443
딁	2444
딂	2445
딃	2446
딄	2447
딅	2448
딆	2449
딇	2450
딈	2451
딉	2452
딊	2453
딋	2454
딌	2455
딍	2456
딎	2457
딏	2458
딐	2459
딑	2460
딒	2461
딓	2462
디	2463
딕	2464
딖	2465
딗	2466
딘	2467
딙	2468
딚	2469
딛	2470
딜	2471
딝	2472
딞	2473
딟	2474
딠	2475
딡	2476
딢	2477
딣	2478
딤	2479
딥	2480
딦	2481
딧	2482
딨	2483
딩	2484
딪	2485
딫	2486
딬	2487
딭	2488
딮	2489
딯	2490
따	2491
딱	2492
딲	2493
딳	2494
딴	2495
딵	2496
딶	2497
딷	2498
딸	2499
딹	2500
딺	2501
딻	2502
딼	2503
딽	2504
딾	2505
딿	2506
땀	2507
땁	2508
땂	2509
땃	2510
땅	2511
땆	2512
땇	2513
땈	2514
땉	2515
땊	2516
땋	2517
때	2518
땍	2519
땎	2520
땏	2521
땐	2522
땑	2523
땒	2524
땓	2525
땔	2526
땕	2527
땖	2528
땗	2529
땘	2530
땙	2531
땚	2532
땛	2533
땜	2534
땝	2535
땞	2536
땟	2537
땠	2538
땡	2539
땢	2540
땣	2541
땤	2542
땥	2543
땦	2544
땧	2545
땨	2546
땩	2547
땪	2548
땫	2549
땬	2550
땭	2551
땮	2552
땯	2553
땰	2554
땱	2555
땲	2556
땳	2557
땴	2558
땵	2559
땶	2560
땷	2561
땸	2562
땹	2563
땺	2564
땻	2565
땼	2566
땽	2567
땾	2568
땿	2569
떀	2570
떁	2571
떂	2572
떃	2573
떄	2574
떅	2575
떆	2576
떇	2577
떈	2578
떉	2579
떊	2580
떋	2581
떌	2582
떍	2583
떎	2584
떏	2585
떐	2586
떑	2587
떒	2588
떓	2589
떔	2590
떕	2591
떖	2592
떗	2593
떘	2594
떙	2595
떚	2596
떛	2597
떜	2598
떝	2599
떞	2600
떟	2601
떠	2602
떡	2603
떢	2604
떣	2605
떤	2606
떥	2607
떦	2608
떧	2609
떨	2610
떩	2611
떪	2612
떫	2613
떬	2614
떭	2615
떮	2616
떯	2617
떰	2618
떱	2619
떲	2620
떳	2621
떵	2622
떶	2623
떷	2624
떸	2625
떹	2626
떺	2627
떻	2628
떼	2629
떽	2630
떾	2631
떿	2632
뗀	2633
뗁	2634
뗂	2635
뗃	2636
뗄	2637
뗅	2638
뗆	2639
뗇	2640
뗈	2641
뗉	2642
뗊	2643
뗋	2644
뗌	2645
뗍	2646
뗎	2647
뗏	2648
뗑	2649
뗒	2650
뗓	2651
뗔	2652
뗕	2653
뗖	2654
뗗	2655
뗘	2656
뗙	2657
뗚	2658
뗛	2659
뗜	2660
뗝	2661
뗞	2662
뗟	2663
뗠	2664
뗡	2665
뗢	2666
뗣	2667
뗤	2668
뗥	2669
뗦	2670
뗧	2671
뗨	2672
뗩	2673
뗪	2674
뗫	2675
뗭	2676
뗮	2677
뗯	2678
뗰	2679
뗱	2680
뗲	2681
뗳	2682
뗴	2683
뗵	2684
뗶	2685
뗷	2686
뗸	2687
뗹	2688
뗺	2689
뗻	2690
뗼	2691
뗽	2692
뗾	2693
뗿	2694
똀	2695
똁	2696
똂	2697
똃	2698
똄	2699
똅	2700
똆	2701
똇	2702
똈	2703
똉	2704
똊	2705
똋	2706
똌	2707
똍	2708
똎	2709
똏	2710
또	2711
똑	2712
똒	2713
똓	2714
똔	2715
똕	2716
똖	2717
똗	2718
똘	2719
똙	2720
똚	2721
똛	2722
똜	2723
똝	2724
똞	2725
똟	2726
똠	2727
똡	2728
똢	2729
똣	2730
똤	2731
똥	2732
똦	2733
똧	2734
똨	2735
똩	2736
똪	2737
똫	2738
똬	2739
똭	2740
똮	2741
똯	2742
똰	2743
똱	2744
똲	2745
똳	2746
똴	2747
똵	2748
똶	2749
똷	2750
똸	2751
똹	2752
똺	2753
똻	2754
똼	2755
똽	2756
똾	2757
똿	2758
뙀	2759
뙁	2760
뙂	2761
뙃	2762
뙄	2763
뙅	2764
뙆	2765
뙇	2766
뙈	2767
뙉	2768
뙊	2769
뙋	2770
뙌	2771
뙍	2772
뙎	2773
뙏	2774
뙐	2775
뙑	2776
뙒	2777
뙓	2778
뙔	2779
뙕	2780
뙖	2781
뙗	2782
뙘	2783
뙙	2784
뙚	2785
뙛	2786
뙜	2787
뙝	2788
뙞	2789
뙟	2790
뙠	2791
뙡	2792
뙢	2793
뙣	2794
뙤	2795
뙥	2796
뙦	2797
뙧	2798
뙨	2799
뙩	2800
뙪	2801
뙫	2802
뙬	2803
뙭	2804
뙮	2805
뙯	2806
뙰	2807
뙱	2808
뙲	2809
뙳	2810
뙴	2811
뙵	2812
뙶	2813
뙷	2814
뙸	2815
뙹	2816
뙺	2817
뙻	2818
뙼	2819
뙽	2820
뙾	2821
뙿	2822
뚀	2823
뚁	2824
뚂	2825
뚃	2826
뚄	2827
뚅	2828
뚆	2829
뚇	2830
뚈	2831
뚉	2832
뚊	2833
뚋	2834
뚌	2835
뚍	2836
뚎	2837
뚏	2838
뚐	2839
뚑	2840
뚒	2841
뚓	2842
뚔	2843
뚕	2844
뚖	2845
뚗	2846
뚘	2847
뚙	2848
뚚	2849
뚛	2850
뚜	2851
뚝	2852
뚞	2853
뚟	2854
뚠	2855
뚡	2856
뚢	2857
뚣	2858
뚤	2859
뚥	2860
뚦	2861
뚧	2862
뚨	2863
뚩	2864
뚪	2865
뚫	2866
뚬	2867
뚭	2868
뚮	2869
뚯	2870
뚰	2871
뚱	2872
뚲	2873
뚳	2874
뚴	2875
뚵	2876
뚶	2877
뚷	2878
뚸	2879
뚹	2880
뚺	2881
뚻	2882
뚼	2883
뚽	2884
뚾	2885
뚿	2886
뛀	2887
뛁	2888
뛂	2889
뛃	2890
뛄	2891
뛅	2892
뛆	2893
뛇	2894
뛈	2895
뛉	2896
뛊	2897
뛋	2898
뛌	2899
뛍	2900
뛎	2901
뛏	2902
뛐	2903
뛑	2904
뛒	2905
뛓	2906
뛔	2907
뛕	2908
뛖	2909
뛗	2910
뛘	2911
뛙	2912
뛚	2913
뛛	2914
뛜	2915
뛝	2916
뛞	2917
뛟	2918
뛠	2919
뛡	2920
뛢	2921
뛣	2922
뛤	2923
뛥	2924
뛦	2925
뛧	2926
뛨	2927
뛩	2928
뛪	2929
뛫	2930
뛬	2931
뛭	2932
뛮	2933
뛯	2934
뛰	2935
뛱	2936
뛲	2937
뛳	2938
뛵	2939
뛶	2940
뛷	2941
뛸	2942
뛹	2943
뛺	2944
뛻	2945
뛼	2946
뛽	2947
뛾	2948
뛿	2949
뜀	2950
뜁	2951
뜂	2952
뜃	2953
뜄	2954
뜅	2955
뜆	2956
뜇	2957
뜈	2958
뜉	2959
뜊	2960
뜋	2961
뜌	2962
뜍	2963
뜎	2964
뜏	2965
뜐	2966
뜑	2967
뜒	2968
뜓	2969
뜔	2970
뜕	2971
뜖	2972
뜗	2973
뜘	2974
뜙	2975
뜚	2976
뜛	2977
뜜	2978
뜝	2979
뜞	2980
뜟	2981
뜠	2982
뜡	2983
뜢	2984
뜣	2985
뜤	2986
뜥	2987
뜦	2988
뜧	2989
뜨	2990
뜩	2991
뜪	2992
뜫	2993
뜬	2994
뜭	2995
뜮	2996
뜯	2997
뜰	2998
뜱	2999
뜲	3000
뜳	3001
뜴	3002
뜵	3003
뜶	3004
뜷	3005
뜸	3006
뜹	3007
뜺	3008
뜻	3009
뜼	3010
뜽	3011
뜾	3012
뜿	3013
띀	3014
띁	3015
띂	3016
띃	3017
띄	3018
띅	3019
띆	3020
띇	3021
띉	3022
띊	3023
띋	3024
띍	3025
띎	3026
띏	3027
띐	3028
띑	3029
띒	3030
띓	3031
띔	3032
띕	3033
띖	3034
띗	3035
띘	3036
띙	3037
띚	3038
띛	3039
띜	3040
띝	3041
띞	3042
띟	3043
띠	3044
띡	3045
띢	3046
띣	3047
띤	3048
띥	3049
띦	3050
띧	3051
띨	3052
띩	3053
띪	3054
띫	3055
띬	3056
띭	3057
띮	3058
띯	3059
띰	3060
띱	3061
띲	3062
띳	3063
띴	3064
띵	3065
띶	3066
띷	3067
띸	3068
띹	3069
띺	3070
띻	3071
라	3072
락	3073
띾	3074
띿	3075
란	3076
랁	3077
랂	3078
랃	3079
랄	3080
랅	3081
랆	3082
랇	3083
랈	3084
랉	3085
랊	3086
랋	3087
람	3088
랍	3089
랎	3090
랏	3091
랐	3092
랑	3093
랒	3094
랓	3095
랔	3096
랕	3097
랖	3098
랗	3099
래	3100
랙	3101
랚	3102
랛	3103
랜	3104
랝	3105
랞	3106
랟	3107
랠	3108
랡	3109
랢	3110
랣	3111
랤	3112
랥	3113
랦	3114
랧	3115
램	3116
랩	3117
랪	3118
랫	3119
랬	3120
랭	3121
랮	3122
랯	3123
랰	3124
랱	3125
랲	3126
랳	3127
랴	3128
략	3129
랶	3130
랷	3131
랸	3132
랹	3133
랺	3134
랻	3135
랼	3136
랽	3137
랾	3138
랿	3139
럀	3140
럁	3141
럂	3142
럃	3143
럄	3144
럅	3145
럆	3146
럇	3147
럈	3148
량	3149
럊	3150
럋	3151
럌	3152
럍	3153
럎	3154
럏	3155
럐	3156
럑	3157
럒	3158
럓	3159
럔	3160
럕	3161
럖	3162
럗	3163
럘	3164
럙	3165
럚	3166
럛	3167
럜	3168
럝	3169
럞	3170
럟	3171
럠	3172
럡	3173
럢	3174
럣	3175
럤	3176
럥	3177
럦	3178
럧	3179
럨	3180
럩	3181
럪	3182
럫	3183
러	3184
럭	3185
럮	3186
럯	3187
런	3188
럱	3189
럲	3190
럳	3191
럴	3192
럵	3193
럶	3194
럷	3195
럸	3196
럹	3197
럺	3198
럻	3199
럼	3200
럽	3201
럾	3202
럿	3203
렀	3204
렁	3205
렂	3206
렃	3207
렄	3208
렅	3209
렆	3210
렇	3211
레	3212
렉	3213
렊	3214
렋	3215
렌	3216
렍	3217
렎	3218
렏	3219
렐	3220
렑	3221
렒	3222
렓	3223
렔	3224
렕	3225
렖	3226
렗	3227
렘	3228
렙	3229
렚	3230
렛	3231
렜	3232
렝	3233
렞	3234
렟	3235
렠	3236
렡	3237
렢	3238
렣	3239
려	3240
력	3241
렦	3242
렧	3243
련	3244
렩	3245
렪	3246
렫	3247
렬	3248
렭	3249
렮	3250
렯	3251
렰	3252
렱	3253
렲	3254
렳	3255
렴	3256
렵	3257
렶	3258
렷	3259
렸	3260
령	3261
렺	3262
렻	3263
렼	3264
렽	3265
렾	3266
렿	3267
례	3268
롁	3269
롂	3270
롃	3271
롄	3272
롅	3273
롆	3274
롇	3275
롈	3276
롉	3277
롊	3278
롋	3279
롌	3280
롍	3281
롎	3282
롏	3283
롐	3284
롑	3285
롒	3286
롓	3287
롔	3288
롕	3289
롖	3290
롗	3291
롘	3292
롙	3293
롚	3294
롛	3295
로	3296
록	3297
롞	3298
롟	3299
론	3300
롡	3301
롢	3302
롣	3303
롤	3304
롥	3305
롦	3306
롧	3307
롨	3308
롩	3309
롪	3310
롫	3311
롬	3312
롭	3313
롮	3314
롯	3315
롰	3316
롱	3317
롲	3318
롳	3319
롴	3320
롵	3321
롶	3322
롷	3323
롸	3324
롹	3325
롺	3326
롻	3327
롼	3328
롽	3329
롾	3330
롿	3331
뢀	3332
뢁	3333
뢂	3334
뢃	3335
뢄	3336
뢅	3337
뢆	3338
뢇	3339
뢈	3340
뢉	3341
뢊	3342
뢋	3343
뢌	3344
뢍	3345
뢎	3346
뢏	3347
뢐	3348
뢑	3349
뢒	3350
뢓	3351
뢔	3352
뢕	3353
뢖	3354
뢗	3355
뢘	3356
뢙	3357
뢚	3358
뢛	3359
뢜	3360
뢝	3361
뢞	3362
뢟	3363
뢠	3364
뢡	3365
뢢	3366
뢣	3367
뢤	3368
뢥	3369
뢦	3370
뢧	3371
뢨	3372
뢩	3373
뢪	3374
뢫	3375
뢬	3376
뢭	3377
뢮	3378
뢯	3379
뢰	3380
뢱	3381
뢲	3382
뢳	3383
뢴	3384
뢵	3385
뢶	3386
뢷	3387
뢸	3388
뢹	3389
뢺	3390
뢻	3391
뢼	3392
뢽	3393
뢾	3394
뢿	3395
룀	3396
룁	3397
룂	3398
룃	3399
룄	3400
룅	3401
룆	3402
룇	3403
룈	3404
룉	3405
룊	3406
룋	3407
료	3408
룍	3409
룎	3410
룏	3411
룐	3412
룑	3413
룒	3414
룓	3415
룔	3416
룕	3417
룖	3418
룗	3419
룘	3420
룙	3421
룚	3422
룛	3423
룜	3424
룝	3425
룞	3426
룟	3427
룠	3428
룡	3429
룢	3430
룣	3431
룤	3432
룥	3433
룦	3434
룧	3435
루	3436
룩	3437
룪	3438
룫	3439
룬	3440
룭	3441
룮	3442
룯	3443
룰	3444
룱	3445
룲	3446
룳	3447
룴	3448
룵	3449
룶	3450
룷	3451
룸	3452
룹	3453
룺	3454
룻	3455
룼	3456
룽	3457
룾	3458
룿	3459
뤀	3460
뤁	3461
뤂	3462
뤃	3463
뤄	3464
뤅	3465
뤆	3466
뤇	3467
뤈	3468
뤉	3469
뤊	3470
뤋	3471
뤌	3472
뤍	3473
뤎	3474
뤏	3475
뤐	3476
뤑	3477
뤒	3478
뤓	3479
뤔	3480
뤕	3481
뤖	3482
뤗	3483
뤘	3484
뤙	3485
뤚	3486
뤛	3487
뤜	3488
뤝	3489
뤞	3490
뤟	3491
뤠	3492
뤡	3493
뤢	3494
뤣	3495
뤤	3496
뤥	3497
뤦	3498
뤧	3499
뤨	3500
뤩	3501
뤪	3502
뤫	3503
뤬	3504
뤭	3505
뤮	3506
뤯	3507
뤰	3508
뤱	3509
뤲	3510
뤳	3511
뤴	3512
뤵	3513
뤶	3514
뤷	3515
뤸	3516
뤹	3517
뤺	3518
뤻	3519
뤼	3520
뤽	3521
뤾	3522
뤿	3523
륀	3524
륁	3525
륂	3526
륃	3527
륄	3528
륅	3529
륆	3530
륇	3531
륈	3532
륉	3533
륊	3534
륋	3535
륌	3536
륍	3537
륎	3538
륏	3539
륐	3540
륑	3541
륒	3542
륓	3543
륔	3544
륕	3545
륖	3546
륗	3547
류	3548
륙	3549
륚	3550
륛	3551
륜	3552
륝	3553
륞	3554
륟	3555
률	3556
륡	3557
륢	3558
륣	3559
륤	3560
륥	3561
륦	3562
륧	3563
륨	3564
륩	3565
륪	3566
륫	3567
륬	3568
륭	3569
륮	3570
륯	3571
륰	3572
륱	3573
륲	3574
륳	3575
르	3576
륵	3577
륶	3578
륷	3579
른	3580
륹	3581
륺	3582
륻	3583
를	3584
륽	3585
륾	3586
륿	3587
릀	3588
릁	3589
릂	3590
릃	3591
름	3592
릅	3593
릆	3594
릇	3595
릈	3596
릉	3597
릊	3598
릋	3599
릌	3600
릍	3601
릎	3602
릏	3603
릐	3604
릑	3605
릒	3606
릓	3607
릔	3608
릕	3609
릖	3610
릗	3611
릘	3612
릙	3613
릚	3614
릛	3615
릜	3616
릝	3617
릞	3618
릟	3619
릠	3620
릡	3621
릢	3622
릣	3623
릤	3624
릥	3625
릦	3626
릧	3627
릨	3628
릩	3629
릪	3630
릫	3631
리	3632
릭	3633
릮	3634
릯	3635
린	3636
릱	3637
릲	3638
릳	3639
릴	3640
릵	3641
릶	3642
릷	3643
릸	3644
릹	3645
릺	3646
릻	3647
림	3648
립	3649
릾	3650
릿	3651
맀	3652
링	3653
맂	3654
맃	3655
맄	3656
맅	3657
맆	3658
맇	3659
마	3660
막	3661
맊	3662
맋	3663
만	3664
맍	3665
많	3666
맏	3667
말	3668
맑	3669
맒	3670
맓	3671
맔	3672
맕	3673
맖	3674
맗	3675
맘	3676
맙	3677
맚	3678
맛	3679
맜	3680
망	3681
맞	3682
맟	3683
맠	3684
맡	3685
맢	3686
맣	3687
매	3688
맥	3689
맦	3690
맧	3691
맨	3692
맩	3693
맪	3694
맫	3695
맬	3696
맭	3697
맮	3698
맯	3699
맰	3700
맱	3701
맲	3702
맳	3703
맴	3704
맵	3705
맶	3706
맷	3707
맹	3708
맺	3709
맻	3710
맼	3711
맽	3712
맾	3713
맿	3714
먀	3715
먁	3716
먂	3717
먃	3718
먄	3719
먅	3720
먆	3721
먇	3722
먈	3723
먉	3724
먊	3725
먋	3726
먌	3727
먍	3728
먎	3729
먏	3730
먐	3731
먑	3732
먒	3733
먓	3734
먔	3735
먕	3736
먖	3737
먗	3738
먘	3739
먙	3740
먚	3741
먛	3742
먜	3743
먝	3744
먞	3745
먟	3746
먠	3747
먡	3748
먢	3749
먣	3750
먤	3751
먥	3752
먦	3753
먧	3754
먨	3755
먩	3756
먪	3757
먫	3758
먬	3759
먭	3760
먮	3761
먯	3762
먰	3763
먱	3764
먲	3765
먳	3766
먴	3767
먵	3768
먶	3769
먷	3770
머	3771
먹	3772
먺	3773
먻	3774
먼	3775
먽	3776
먾	3777
먿	3778
멀	3779
멁	3780
멂	3781
멃	3782
멄	3783
멅	3784
멆	3785
멇	3786
멈	3787
멉	3788
멊	3789
멋	3790
멌	3791
멍	3792
멎	3793
멏	3794
멐	3795
멑	3796
멒	3797
멓	3798
메	3799
멕	3800
멖	3801
멗	3802
멘	3803
멙	3804
멚	3805
멛	3806
멜	3807
멝	3808
멞	3809
멟	3810
멠	3811
멡	3812
멢	3813
멣	3814
멤	3815
멥	3816
멦	3817
멧	3818
멨	3819
멩	3820
멪	3821
멫	3822
멬	3823
멭	3824
멮	3825
멯	3826
며	3827
멱	3828
멲	3829
멳	3830
면	3831
멵	3832
멶	3833
멷	3834
멸	3835
멹	3836
멺	3837
멻	3838
멼	3839
멽	3840
멾	3841
멿	3842
몀	3843
몁	3844
몂	3845
몃	3846
몄	3847
명	3848
몆	3849
몇	3850
몈	3851
몉	3852
몊	3853
몋	3854
몌	3855
몍	3856
몎	3857
몏	3858
몐	3859
몑	3860
몒	3861
몓	3862
몔	3863
몕	3864
몖	3865
몗	3866
몘	3867
몙	3868
몚	3869
몛	3870
몜	3871
몝	3872
몞	3873
몟	3874
몠	3875
몡	3876
몢	3877
몣	3878
몤	3879
몥	3880
몦	3881
몧	3882
모	3883
목	3884
몪	3885
몫	3886
몬	3887
몭	3888
몮	3889
몯	3890
몰	3891
몱	3892
몲	3893
몳	3894
몴	3895
몵	3896
몶	3897
몷	3898
몸	3899
몹	3900
몺	3901
못	3902
몼	3903
몽	3904
몾	3905
몿	3906
뫀	3907
뫁	3908
뫂	3909
뫃	3910
뫄	3911
뫅	3912
뫆	3913
뫇	3914
뫈	3915
뫉	3916
뫊	3917
뫋	3918
뫌	3919
뫍	3920
뫎	3921
뫏	3922
뫐	3923
뫑	3924
뫒	3925
뫓	3926
뫔	3927
뫕	3928
뫖	3929
뫗	3930
뫘	3931
뫙	3932
뫚	3933
뫛	3934
뫜	3935
뫝	3936
뫞	3937
뫟	3938
뫠	3939
뫡	3940
뫢	3941
뫣	3942
뫤	3943
뫥	3944
뫦	3945
뫧	3946
뫨	3947
뫩	3948
뫪	3949
뫫	3950
뫬	3951
뫭	3952
뫮	3953
뫯	3954
뫰	3955
뫱	3956
뫲	3957
뫳	3958
뫴	3959
뫵	3960
뫶	3961
뫷	3962
뫸	3963
뫹	3964
뫺	3965
뫻	3966
뫼	3967
뫽	3968
뫾	3969
뫿	3970
묀	3971
묁	3972
묂	3973
묃	3974
묄	3975
묅	3976
묆	3977
묇	3978
묈	3979
묉	3980
묊	3981
묋	3982
묌	3983
묍	3984
묎	3985
묏	3986
묐	3987
묑	3988
묒	3989
묓	3990
묔	3991
묕	3992
묖	3993
묗	3994
묘	3995
묙	3996
묚	3997
묛	3998
묜	3999
묝	4000
묞	4001
묟	4002
묠	4003
묡	4004
묢	4005
묣	4006
묤	4007
묥	4008
묦	4009
묧	4010
묨	4011
묩	4012
묪	4013
묫	4014
묬	4015
묭	4016
묮	4017
묯	4018
묰	4019
묱	4020
묲	4021
묳	4022
무	4023
묵	4024
묶	4025
묷	4026
문	4027
묹	4028
묺	4029
묻	4030
물	4031
묽	4032
묾	4033
묿	4034
뭀	4035
뭁	4036
뭂	4037
뭃	4038
뭄	4039
뭅	4040
뭆	4041
뭇	4042
뭈	4043
뭉	4044
뭊	4045
뭋	4046
뭌	4047
뭍	4048
뭎	4049
뭏	4050
뭐	4051
뭑	4052
뭒	4053
뭓	4054
뭔	4055
뭕	4056
뭖	4057
뭗	4058
뭘	4059
뭙	4060
뭚	4061
뭛	4062
뭜	4063
뭝	4064
뭞	4065
뭟	4066
뭠	4067
뭡	4068
뭢	4069
뭣	4070
뭤	4071
뭥	4072
뭦	4073
뭧	4074
뭨	4075
뭩	4076
뭪	4077
뭫	4078
뭬	4079
뭭	4080
뭮	4081
뭯	4082
뭰	4083
뭱	4084
뭲	4085
뭳	4086
뭴	4087
뭵	4088
뭶	4089
뭷	4090
뭸	4091
뭹	4092
뭺	4093
뭻	4094
뭼	4095
뭽	4096
뭾	4097
뭿	4098
뮀	4099
뮁	4100
뮂	4101
뮃	4102
뮄	4103
뮅	4104
뮆	4105
뮇	4106
뮈	4107
뮉	4108
뮊	4109
뮋	4110
뮌	4111
뮍	4112
뮎	4113
뮏	4114
뮐	4115
뮑	4116
뮒	4117
뮓	4118
뮔	4119
뮕	4120
뮖	4121
뮗	4122
뮘	4123
뮙	4124
뮚	4125
뮛	4126
뮜	4127
뮝	4128
뮞	4129
뮟	4130
뮠	4131
뮡	4132
뮢	4133
뮣	4134
뮤	4135
뮥	4136
뮦	4137
뮧	4138
뮨	4139
뮩	4140
뮪	4141
뮫	4142
뮬	4143
뮭	4144
뮮	4145
뮯	4146
뮰	4147
뮱	4148
뮲	4149
뮳	4150
뮴	4151
뮵	4152
뮶	4153
뮷	4154
뮸	4155
뮹	4156
뮺	4157
뮻	4158
뮼	4159
뮽	4160
뮾	4161
뮿	4162
므	4163
믁	4164
믂	4165
믃	4166
믄	4167
믅	4168
믆	4169
믇	4170
믈	4171
믉	4172
믊	4173
믋	4174
믌	4175
믍	4176
믎	4177
믏	4178
믐	4179
믑	4180
믒	4181
믓	4182
믔	4183
믕	4184
믖	4185
믗	4186
믘	4187
믙	4188
믚	4189
믛	4190
믜	4191
믝	4192
믞	4193
믟	4194
믠	4195
믡	4196
믢	4197
믣	4198
믤	4199
믥	4200
믦	4201
믧	4202
믨	4203
믩	4204
믪	4205
믫	4206
믬	4207
믭	4208
믮	4209
믯	4210
믰	4211
믱	4212
믲	4213
믳	4214
믴	4215
믵	4216
믶	4217
믷	4218
미	4219
믹	4220
믺	4221
믻	4222
민	4223
믽	4224
믾	4225
믿	4226
밀	4227
밁	4228
밂	4229
밃	4230
밄	4231
밅	4232
밆	4233
밇	4234
밈	4235
밉	4236
밊	4237
밋	4238
밌	4239
밍	4240
밎	4241
및	4242
밐	4243
밑	4244
밒	4245
밓	4246
바	4247
박	4248
밖	4249
밗	4250
반	4251
밙	4252
밚	4253
받	4254
발	4255
밝	4256
밞	4257
밟	4258
밠	4259
밡	4260
밢	4261
밣	4262
밤	4263
밥	4264
밦	4265
밧	4266
밨	4267
방	4268
밪	4269
밫	4270
밬	4271
밭	4272
밮	4273
밯	4274
배	4275
백	4276
밲	4277
밳	4278
밴	4279
밵	4280
밶	4281
밷	4282
밸	4283
밹	4284
밺	4285
밻	4286
밼	4287
밽	4288
밾	4289
밿	4290
뱀	4291
뱁	4292
뱂	4293
뱃	4294
뱅	4295
뱆	4296
뱇	4297
뱈	4298
뱉	4299
뱊	4300
뱋	4301
뱌	4302
뱍	4303
뱎	4304
뱏	4305
뱐	4306
뱑	4307
뱒	4308
뱓	4309
뱔	4310
뱕	4311
뱖	4312
뱗	4313
뱘	4314
뱙	4315
뱚	4316
뱛	4317
뱜	4318
뱝	4319
뱞	4320
뱟	4321
뱠	4322
뱡	4323
뱢	4324
뱣	4325
뱤	4326
뱥	4327
뱦	4328
뱧	4329
뱨	4330
뱩	4331
뱪	4332
뱫	4333
뱬	4334
뱭	4335
뱮	4336
뱯	4337
뱰	4338
뱱	4339
뱲	4340
뱳	4341
뱴	4342
뱵	4343
뱶	4344
뱷	4345
뱸	4346
뱹	4347
뱺	4348
뱻	4349
뱼	4350
뱽	4351
뱾	4352
뱿	4353
벀	4354
벁	4355
벂	4356
벃	4357
버	4358
벅	4359
벆	4360
벇	4361
번	4362
벉	4363
벊	4364
벋	4365
벌	4366
벍	4367
벎	4368
벏	4369
벐	4370
벑	4371
벒	4372
벓	4373
범	4374
법	4375
벖	4376
벗	4377
벘	4378
벙	4379
벚	4380
벛	4381
벜	4382
벝	4383
벞	4384
벟	4385
베	4386
벡	4387
벢	4388
벣	4389
벤	4390
벥	4391
벦	4392
벧	4393
벨	4394
벩	4395
벪	4396
벫	4397
벬	4398
벭	4399
벮	4400
벯	4401
벰	4402
벱	4403
벲	4404
벳	4405
벴	4406
벵	4407
벶	4408
벷	4409
벸	4410
벹	4411
벺	4412
벻	4413
벼	4414
벽	4415
벾	4416
벿	4417
변	4418
볁	4419
볂	4420
볃	4421
별	4422
볅	4423
볆	4424
볇	4425
볈	4426
볉	4427
볊	4428
볋	4429
볌	4430
볍	4431
볎	4432
볏	4433
볐	4434
병	4435
볒	4436
볓	4437
볔	4438
볕	4439
볖	4440
볗	4441
볘	4442
볙	4443
볚	4444
볛	4445
볜	4446
볝	4447
볞	4448
볟	4449
볠	4450
볡	4451
볢	4452
볣	4453
볤	4454
볥	4455
볦	4456
볧	4457
볨	4458
볩	4459
볪	4460
볫	4461
볬	4462
볭	4463
볮	4464
볯	4465
볰	4466
볱	4467
볲	4468
볳	4469
보	4470
복	4471
볶	4472
볷	4473
본	4474
볹	4475
볺	4476
볻	4477
볼	4478
볽	4479
볾	4480
볿	4481
봀	4482
봁	4483
봂	4484
봃	4485
봄	4486
봅	4487
봆	4488
봇	4489
봈	4490
봉	4491
봊	4492
봋	4493
봌	4494
봍	4495
봎	4496
봏	4497
봐	4498
봑	4499
봒	4500
봓	4501
봔	4502
봕	4503
봖	4504
봗	4505
봘	4506
봙	4507
봚	4508
봛	4509
봜	4510
봝	4511
봞	4512
봟	4513
봠	4514
봡	4515
봢	4516
봣	4517
봤	4518
봥	4519
봦	4520
봧	4521
봨	4522
봩	4523
봪	4524
봫	4525
봬	4526
봭	4527
봮	4528
봯	4529
봰	4530
봱	4531
봲	4532
봳	4533
봴	4534
봵	4535
봶	4536
봷	4537
봸	4538
봹	4539
봺	4540
봻	4541
봼	4542
봽	4543
봾	4544
봿	4545
뵁	4546
뵂	4547
뵃	4548
뵄	4549
뵅	4550
뵆	4551
뵇	4552
뵈	4553
뵉	4554
뵊	4555
뵋	4556
뵍	4557
뵎	4558
뵏	4559
뵐	4560
뵑	4561
뵒	4562
뵓	4563
뵔	4564
뵕	4565
뵖	4566
뵗	4567
뵘	4568
뵙	4569
뵚	4570
뵛	4571
뵝	4572
뵞	4573
뵟	4574
뵠	4575
뵡	4576
뵢	4577
뵣	4578
뵤	4579
뵥	4580
뵦	4581
뵧	4582
뵨	4583
뵩	4584
뵪	4585
뵫	4586
뵬	4587
뵭	4588
뵮	4589
뵯	4590
뵰	4591
뵱	4592
뵲	4593
뵳	4594
뵴	4595
뵵	4596
뵶	4597
뵷	4598
뵸	4599
뵹	4600
뵺	4601
뵻	4602
뵼	4603
뵽	4604
뵾	4605
뵿	4606
부	4607
북	4608
붂	4609
붃	4610
분	4611
붅	4612
붆	4613
붇	4614
불	4615
붉	4616
붊	4617
붋	4618
붌	4619
붍	4620
붎	4621
붏	4622
붐	4623
붑	4624
붒	4625
붓	4626
붔	4627
붕	4628
붖	4629
붗	4630
붘	4631
붙	4632
붚	4633
붛	4634
붜	4635
붝	4636
붞	4637
붟	4638
붠	4639
붡	4640
붢	4641
붣	4642
붤	4643
붥	4644
붦	4645
붧	4646
붨	4647
붩	4648
붪	4649
붫	4650
붬	4651
붭	4652
붮	4653
붯	4654
붰	4655
붱	4656
붲	4657
붳	4658
붴	4659
붵	4660
붶	4661
붷	4662
붸	4663
붹	4664
붺	4665
붻	4666
붼	4667
붽	4668
붾	4669
붿	4670
뷀	4671
뷁	4672
뷂	4673
뷃	4674
뷄	4675
뷅	4676
뷆	4677
뷇	4678
뷈	4679
뷉	4680
뷊	4681
뷋	4682
뷌	4683
뷍	4684
뷎	4685
뷏	4686
뷐	4687
뷑	4688
뷒	4689
뷓	4690
뷔	4691
뷕	4692
뷖	4693
뷗	4694
뷘	4695
뷙	4696
뷚	4697
뷛	4698
뷜	4699
뷝	4700
뷞	4701
뷟	4702
뷠	4703
뷡	4704
뷢	4705
뷣	4706
뷤	4707
뷥	4708
뷦	4709
뷧	4710
뷨	4711
뷩	4712
뷪	4713
뷫	4714
뷬	4715
뷭	4716
뷮	4717
뷯	4718
뷰	4719
뷱	4720
뷲	4721
뷳	4722
뷴	4723
뷵	4724
뷶	4725
뷷	4726
뷸	4727
뷹	4728
뷺	4729
뷻	4730
뷼	4731
뷽	4732
뷾	4733
뷿	4734
븀	4735
븁	4736
븂	4737
븃	4738
븄	4739
븅	4740
븆	4741
븇	4742
븈	4743
븉	4744
븊	4745
븋	4746
브	4747
븍	4748
븎	4749
븏	4750
븐	4751
븑	4752
븒	4753
븓	4754
블	4755
븕	4756
븖	4757
븗	4758
븘	4759
븙	4760
븚	4761
븛	4762
븜	4763
븝	4764
븞	4765
븟	4766
븠	4767
븡	4768
븢	4769
븣	4770
븤	4771
븥	4772
븦	4773
븧	4774
븨	4775
븩	4776
븪	4777
븫	4778
븬	4779
븭	4780
븮	4781
븯	4782
븰	4783
븱	4784
븲	4785
븳	4786
븴	4787
븵	4788
븶	4789
븷	4790
븸	4791
븹	4792
븺	4793
븻	4794
븼	4795
븽	4796
븾	4797
븿	4798
빀	4799
빁	4800
빂	4801
빃	4802
비	4803
빅	4804
빆	4805
빇	4806
빈	4807
빉	4808
빊	4809
빋	4810
빌	4811
빍	4812
빎	4813
빏	4814
빐	4815
빑	4816
빒	4817
빓	4818
빔	4819
빕	4820
빖	4821
빗	4822
빘	4823
빙	4824
빚	4825
빛	4826
빜	4827
빝	4828
빞	4829
빟	4830
빠	4831
빡	4832
빢	4833
빣	4834
빤	4835
빥	4836
빦	4837
빧	4838
빨	4839
빩	4840
빪	4841
빫	4842
빬	4843
빭	4844
빮	4845
빯	4846
빰	4847
빱	4848
빲	4849
빳	4850
빴	4851
빵	4852
빶	4853
빷	4854
빸	4855
빹	4856
빺	4857
빻	4858
빼	4859
빽	4860
빾	4861
빿	4862
뺀	4863
뺁	4864
뺂	4865
뺃	4866
뺄	4867
뺅	4868
뺆	4869
뺇	4870
뺈	4871
뺉	4872
뺊	4873
뺋	4874
뺌	4875
뺍	4876
뺎	4877
뺏	4878
뺐	4879
뺑	4880
뺒	4881
뺓	4882
뺔	4883
뺕	4884
뺖	4885
뺗	4886
뺘	4887
뺙	4888
뺚	4889
뺛	4890
뺜	4891
뺝	4892
뺞	4893
뺟	4894
뺠	4895
뺡	4896
뺢	4897
뺣	4898
뺤	4899
뺥	4900
뺦	4901
뺧	4902
뺨	4903
뺩	4904
뺪	4905
뺫	4906
뺬	4907
뺭	4908
뺮	4909
뺯	4910
뺰	4911
뺱	4912
뺲	4913
뺳	4914
뺴	4915
뺵	4916
뺶	4917
뺷	4918
뺸	4919
뺹	4920
뺺	4921
뺻	4922
뺼	4923
뺽	4924
뺾	4925
뺿	4926
뻀	4927
뻁	4928
뻂	4929
뻃	4930
뻄	4931
뻅	4932
뻆	4933
뻇	4934
뻈	4935
뻉	4936
뻊	4937
뻋	4938
뻌	4939
뻍	4940
뻎	4941
뻏	4942
뻐	4943
뻑	4944
뻒	4945
뻓	4946
뻔	4947
뻕	4948
뻖	4949
뻗	4950
뻘	4951
뻙	4952
뻚	4953
뻛	4954
뻜	4955
뻝	4956
뻞	4957
뻟	4958
뻠	4959
뻡	4960
뻢	4961
뻣	4962
뻤	4963
뻥	4964
뻦	4965
뻧	4966
뻨	4967
뻩	4968
뻪	4969
뻫	4970
뻬	4971
뻭	4972
뻮	4973
뻯	4974
뻰	4975
뻱	4976
뻲	4977
뻳	4978
뻴	4979
뻵	4980
뻶	4981
뻷	4982
뻸	4983
뻹	4984
뻺	4985
뻻	4986
뻼	4987
뻽	4988
뻾	4989
뻿	4990
뼀	4991
뼁	4992
뼂	4993
뼃	4994
뼄	4995
뼅	4996
뼆	4997
뼇	4998
뼈	4999
뼉	5000
뼊	5001
뼋	5002
뼌	5003
뼍	5004
뼎	5005
뼏	5006
뼐	5007
뼑	5008
뼒	5009
뼓	5010
뼔	5011
뼕	5012
뼖	5013
뼗	5014
뼘	5015
뼙	5016
뼚	5017
뼛	5018
뼜	5019
뼝	5020
뼞	5021
뼟	5022
뼠	5023
뼡	5024
뼢	5025
뼣	5026
뼤	5027
뼥	5028
뼦	5029
뼧	5030
뼨	5031
뼩	5032
뼪	5033
뼫	5034
뼬	5035
뼭	5036
뼮	5037
뼯	5038
뼰	5039
뼱	5040
뼲	5041
뼳	5042
뼴	5043
뼵	5044
뼶	5045
뼷	5046
뼸	5047
뼹	5048
뼺	5049
뼻	5050
뼼	5051
뼽	5052
뼾	5053
뼿	5054
뽀	5055
뽁	5056
뽂	5057
뽃	5058
뽄	5059
뽅	5060
뽆	5061
뽇	5062
뽈	5063
뽉	5064
뽊	5065
뽋	5066
뽌	5067
뽍	5068
뽎	5069
뽏	5070
뽐	5071
뽑	5072
뽒	5073
뽓	5074
뽔	5075
뽕	5076
뽖	5077
뽗	5078
뽘	5079
뽙	5080
뽚	5081
뽛	5082
뽜	5083
뽝	5084
뽞	5085
뽟	5086
뽠	5087
뽡	5088
뽢	5089
뽣	5090
뽤	5091
뽥	5092
뽦	5093
뽧	5094
뽨	5095
뽩	5096
뽪	5097
뽫	5098
뽬	5099
뽭	5100
뽮	5101
뽯	5102
뽰	5103
뽱	5104
뽲	5105
뽳	5106
뽴	5107
뽵	5108
뽶	5109
뽷	5110
뽸	5111
뽹	5112
뽺	5113
뽻	5114
뽼	5115
뽽	5116
뽾	5117
뽿	5118
뾀	5119
뾁	5120
뾂	5121
뾃	5122
뾄	5123
뾅	5124
뾆	5125
뾇	5126
뾈	5127
뾉	5128
뾊	5129
뾋	5130
뾌	5131
뾍	5132
뾎	5133
뾏	5134
뾐	5135
뾑	5136
뾒	5137
뾓	5138
뾔	5139
뾕	5140
뾖	5141
뾗	5142
뾘	5143
뾙	5144
뾚	5145
뾛	5146
뾜	5147
뾝	5148
뾞	5149
뾟	5150
뾠	5151
뾡	5152
뾢	5153
뾣	5154
뾤	5155
뾥	5156
뾦	5157
뾧	5158
뾨	5159
뾩	5160
뾪	5161
뾫	5162
뾬	5163
뾭	5164
뾮	5165
뾯	5166
뾰	5167
뾱	5168
뾲	5169
뾳	5170
뾴	5171
뾵	5172
뾶	5173
뾷	5174
뾸	5175
뾹	5176
뾺	5177
뾻	5178
뾼	5179
뾽	5180
뾾	5181
뾿	5182
뿀	5183
뿁	5184
뿂	5185
뿃	5186
뿄	5187
뿅	5188
뿆	5189
뿇	5190
뿈	5191
뿉	5192
뿊	5193
뿋	5194
뿌	5195
뿍	5196
뿎	5197
뿏	5198
뿐	5199
뿑	5200
뿒	5201
뿓	5202
뿔	5203
뿕	5204
뿖	5205
뿗	5206
뿘	5207
뿙	5208
뿚	5209
뿛	5210
뿜	5211
뿝	5212
뿞	5213
뿟	5214
뿡	5215
뿢	5216
뿣	5217
뿤	5218
뿥	5219
뿦	5220
뿧	5221
뿨	5222
뿩	5223
뿪	5224
뿫	5225
뿬	5226
뿭	5227
뿮	5228
뿯	5229
뿰	5230
뿱	5231
뿲	5232
뿳	5233
뿴	5234
뿵	5235
뿶	5236
뿷	5237
뿸	5238
뿹	5239
뿺	5240
뿻	5241
뿼	5242
뿽	5243
뿾	5244
뿿	5245
쀀	5246
쀁	5247
쀂	5248
쀃	5249
쀄	5250
쀅	5251
쀆	5252
쀇	5253
쀈	5254
쀉	5255
쀊	5256
쀋	5257
쀌	5258
쀍	5259
쀎	5260
쀏	5261
쀐	5262
쀑	5263
쀒	5264
쀓	5265
쀔	5266
쀕	5267
쀖	5268
쀗	5269
쀘	5270
쀙	5271
쀚	5272
쀛	5273
쀜	5274
쀝	5275
쀞	5276
쀟	5277
쀠	5278
쀡	5279
쀢	5280
쀣	5281
쀤	5282
쀥	5283
쀦	5284
쀧	5285
쀨	5286
쀩	5287
쀪	5288
쀫	5289
쀬	5290
쀭	5291
쀮	5292
쀯	5293
쀰	5294
쀱	5295
쀲	5296
쀳	5297
쀴	5298
쀵	5299
쀶	5300
쀷	5301
쀸	5302
쀹	5303
쀺	5304
쀻	5305
쀼	5306
쀽	5307
쀾	5308
쀿	5309
쁀	5310
쁁	5311
쁂	5312
쁃	5313
쁄	5314
쁅	5315
쁆	5316
쁇	5317
쁈	5318
쁉	5319
쁊	5320
쁋	5321
쁌	5322
쁍	5323
쁎	5324
쁏	5325
쁐	5326
쁑	5327
쁒	5328
쁓	5329
쁔	5330
쁕	5331
쁖	5332
쁗	5333
쁘	5334
쁙	5335
쁚	5336
쁛	5337
쁜	5338
쁝	5339
쁞	5340
쁟	5341
쁠	5342
쁡	5343
쁢	5344
쁣	5345
쁤	5346
쁥	5347
쁦	5348
쁧	5349
쁨	5350
쁩	5351
쁪	5352
쁫	5353
쁬	5354
쁭	5355
쁮	5356
쁯	5357
쁰	5358
쁱	5359
쁲	5360
쁳	5361
쁴	5362
쁵	5363
쁶	5364
쁷	5365
쁸	5366
쁹	5367
쁺	5368
쁻	5369
쁼	5370
쁽	5371
쁾	5372
쁿	5373
삀	5374
삁	5375
삂	5376
삃	5377
삄	5378
삅	5379
삆	5380
삇	5381
삈	5382
삉	5383
삊	5384
삋	5385
삌	5386
삍	5387
삎	5388
삏	5389
삐	5390
삑	5391
삒	5392
삓	5393
삔	5394
삕	5395
삖	5396
삗	5397
삘	5398
삙	5399
삚	5400
삛	5401
삜	5402
삝	5403
삞	5404
삟	5405
삠	5406
삡	5407
삢	5408
삣	5409
삤	5410
삥	5411
삦	5412
삧	5413
삨	5414
삩	5415
삪	5416
삫	5417
사	5418
삭	5419
삮	5420
삯	5421
산	5422
삱	5423
삲	5424
삳	5425
살	5426
삵	5427
삶	5428
삷	5429
삸	5430
삹	5431
삺	5432
삻	5433
삼	5434
삽	5435
삾	5436
삿	5437
상	5438
샂	5439
샃	5440
샄	5441
샅	5442
샆	5443
샇	5444
새	5445
색	5446
샊	5447
샋	5448
샌	5449
샍	5450
샎	5451
샏	5452
샐	5453
샑	5454
샒	5455
샓	5456
샔	5457
샕	5458
샖	5459
샗	5460
샘	5461
샙	5462
샚	5463
샛	5464
생	5465
샞	5466
샟	5467
샠	5468
샡	5469
샢	5470
샣	5471
샤	5472
샥	5473
샦	5474
샧	5475
샨	5476
샩	5477
샪	5478
샫	5479
샬	5480
샭	5481
샮	5482
샯	5483
샰	5484
샱	5485
샲	5486
샳	5487
샴	5488
샵	5489
샶	5490
샷	5491
샸	5492
샹	5493
샺	5494
샻	5495
샼	5496
샽	5497
샾	5498
샿	5499
섀	5500
섁	5501
섂	5502
섃	5503
섄	5504
섅	5505
섆	5506
섇	5507
섈	5508
섉	5509
섊	5510
섋	5511
섌	5512
섍	5513
섎	5514
섏	5515
섐	5516
섑	5517
섒	5518
섓	5519
섔	5520
섕	5521
섖	5522
섗	5523
섘	5524
섙	5525
섚	5526
섛	5527
서	5528
석	5529
섞	5530
섟	5531
선	5532
섡	5533
섢	5534
섣	5535
설	5536
섥	5537
섦	5538
섧	5539
섨	5540
섩	5541
섪	5542
섫	5543
섬	5544
섭	5545
섮	5546
섯	5547
섰	5548
성	5549
섲	5550
섳	5551
섴	5552
섵	5553
섶	5554
섷	5555
세	5556
섹	5557
섺	5558
섻	5559
센	5560
섽	5561
섿	5562
셀	5563
셁	5564
셂	5565
셃	5566
셄	5567
셅	5568
셆	5569
셇	5570
셈	5571
셉	5572
셊	5573
셋	5574
셍	5575
셎	5576
셏	5577
셐	5578
셑	5579
셒	5580
셓	5581
셔	5582
셕	5583
셖	5584
셗	5585
션	5586
셙	5587
셚	5588
셛	5589
셜	5590
셝	5591
셞	5592
셟	5593
셠	5594
셡	5595
셢	5596
셣	5597
셤	5598
셥	5599
셦	5600
셧	5601
셨	5602
셩	5603
셪	5604
셫	5605
셬	5606
셭	5607
셮	5608
셯	5609
셰	5610
셱	5611
셲	5612
셳	5613
셴	5614
셵	5615
셶	5616
셷	5617
셸	5618
셹	5619
셺	5620
셻	5621
셼	5622
셽	5623
셾	5624
셿	5625
솀	5626
솁	5627
솂	5628
솃	5629
솄	5630
솅	5631
솆	5632
솇	5633
솈	5634
솉	5635
솊	5636
솋	5637
소	5638
속	5639
솎	5640
솏	5641
손	5642
솑	5643
솒	5644
솓	5645
솔	5646
솕	5647
솖	5648
솗	5649
솘	5650
솙	5651
솚	5652
솛	5653
솜	5654
솝	5655
솞	5656
솟	5657
솠	5658
송	5659
솢	5660
솣	5661
솤	5662
솥	5663
솦	5664
솧	5665
솨	5666
솩	5667
솪	5668
솫	5669
솬	5670
솭	5671
솮	5672
솯	5673
솰	5674
솱	5675
솲	5676
솳	5677
솴	5678
솵	5679
솶	5680
솷	5681
솸	5682
솹	5683
솺	5684
솻	5685
솼	5686
솽	5687
솾	5688
솿	5689
쇀	5690
쇁	5691
쇂	5692
쇃	5693
쇄	5694
쇅	5695
쇆	5696
쇇	5697
쇈	5698
쇉	5699
쇊	5700
쇋	5701
쇌	5702
쇍	5703
쇎	5704
쇏	5705
쇐	5706
쇑	5707
쇒	5708
쇓	5709
쇔	5710
쇕	5711
쇖	5712
쇗	5713
쇘	5714
쇙	5715
쇚	5716
쇛	5717
쇜	5718
쇝	5719
쇞	5720
쇟	5721
쇠	5722
쇡	5723
쇢	5724
쇣	5725
쇤	5726
쇥	5727
쇦	5728
쇧	5729
쇨	5730
쇩	5731
쇪	5732
쇫	5733
쇬	5734
쇭	5735
쇮	5736
쇯	5737
쇰	5738
쇱	5739
쇲	5740
쇳	5741
쇴	5742
쇵	5743
쇶	5744
쇷	5745
쇸	5746
쇹	5747
쇺	5748
쇻	5749
쇼	5750
쇽	5751
쇾	5752
쇿	5753
숀	5754
숁	5755
숂	5756
숃	5757
숄	5758
숅	5759
숆	5760
숇	5761
숈	5762
숉	5763
숊	5764
숋	5765
숌	5766
숍	5767
숎	5768
숏	5769
숐	5770
숑	5771
숒	5772
숓	5773
숔	5774
숕	5775
숖	5776
숗	5777
수	5778
숙	5779
숚	5780
숛	5781
순	5782
숝	5783
숞	5784
숟	5785
술	5786
숡	5787
숢	5788
숣	5789
숤	5790
숥	5791
숦	5792
숧	5793
숨	5794
숩	5795
숪	5796
숫	5797
숬	5798
숭	5799
숮	5800
숯	5801
숰	5802
숱	5803
숲	5804
숳	5805
숴	5806
숵	5807
숶	5808
숷	5809
숸	5810
숹	5811
숺	5812
숻	5813
숼	5814
숽	5815
숾	5816
숿	5817
쉀	5818
쉁	5819
쉂	5820
쉃	5821
쉄	5822
쉅	5823
쉆	5824
쉇	5825
쉈	5826
쉉	5827
쉊	5828
쉋	5829
쉌	5830
쉍	5831
쉎	5832
쉏	5833
쉐	5834
쉑	5835
쉒	5836
쉓	5837
쉔	5838
쉕	5839
쉖	5840
쉗	5841
쉘	5842
쉙	5843
쉚	5844
쉛	5845
쉜	5846
쉝	5847
쉞	5848
쉟	5849
쉠	5850
쉡	5851
쉢	5852
쉣	5853
쉤	5854
쉥	5855
쉦	5856
쉧	5857
쉨	5858
쉩	5859
쉪	5860
쉫	5861
쉬	5862
쉭	5863
쉮	5864
쉯	5865
쉰	5866
쉱	5867
쉲	5868
쉳	5869
쉴	5870
쉵	5871
쉶	5872
쉷	5873
쉸	5874
쉹	5875
쉺	5876
쉻	5877
쉼	5878
쉽	5879
쉾	5880
쉿	5881
슀	5882
슁	5883
슂	5884
슃	5885
슄	5886
슅	5887
슆	5888
슇	5889
슈	5890
슉	5891
슊	5892
슋	5893
슌	5894
슍	5895
슎	5896
슏	5897
슐	5898
슑	5899
슒	5900
슓	5901
슔	5902
슕	5903
슖	5904
슗	5905
슘	5906
슙	5907
슚	5908
슛	5909
슜	5910
슝	5911
슞	5912
슟	5913
슠	5914
슡	5915
슢	5916
슣	5917
스	5918
슥	5919
슦	5920
슧	5921
슨	5922
슩	5923
슪	5924
슫	5925
슬	5926
슭	5927
슮	5928
슯	5929
슰	5930
슱	5931
슲	5932
슳	5933
슴	5934
습	5935
슶	5936
슷	5937
슸	5938
승	5939
슺	5940
슻	5941
슼	5942
슽	5943
슾	5944
슿	5945
싀	5946
싁	5947
싂	5948
싃	5949
싄	5950
싅	5951
싆	5952
싇	5953
싈	5954
싉	5955
싊	5956
싋	5957
싌	5958
싍	5959
싎	5960
싏	5961
싐	5962
싑	5963
싒	5964
싓	5965
싔	5966
싕	5967
싖	5968
싗	5969
싘	5970
싙	5971
싚	5972
싛	5973
시	5974
식	5975
싞	5976
싟	5977
신	5978
싡	5979
싢	5980
싣	5981
실	5982
싥	5983
싦	5984
싧	5985
싨	5986
싩	5987
싪	5988
싫	5989
심	5990
십	5991
싮	5992
싯	5993
싰	5994
싱	5995
싲	5996
싳	5997
싴	5998
싵	5999
싶	6000
싷	6001
싸	6002
싹	6003
싺	6004
싻	6005
싼	6006
싽	6007
싾	6008
싿	6009
쌀	6010
쌁	6011
쌂	6012
쌃	6013
쌄	6014
쌅	6015
쌆	6016
쌇	6017
쌈	6018
쌉	6019
쌊	6020
쌋	6021
쌍	6022
쌎	6023
쌏	6024
쌐	6025
쌑	6026
쌒	6027
쌓	6028
쌔	6029
쌕	6030
쌖	6031
쌗	6032
쌘	6033
쌙	6034
쌚	6035
쌛	6036
쌜	6037
쌝	6038
쌞	6039
쌟	6040
쌠	6041
쌡	6042
쌢	6043
쌣	6044
쌤	6045
쌥	6046
쌦	6047
쌧	6048
쌩	6049
쌪	6050
쌫	6051
쌬	6052
쌭	6053
쌮	6054
쌯	6055
쌰	6056
쌱	6057
쌲	6058
쌳	6059
쌴	6060
쌵	6061
쌶	6062
쌷	6063
쌸	6064
쌹	6065
쌺	6066
쌻	6067
쌼	6068
쌽	6069
쌾	6070
쌿	6071
썀	6072
썁	6073
썂	6074
썃	6075
썄	6076
썅	6077
썆	6078
썇	6079
썈	6080
썉	6081
썊	6082
썋	6083
썌	6084
썍	6085
썎	6086
썏	6087
썐	6088
썑	6089
썒	6090
썓	6091
썔	6092
썕	6093
썖	6094
썗	6095
썘	6096
썙	6097
썚	6098
썛	6099
썜	6100
썝	6101
썞	6102
썟	6103
썠	6104
썡	6105
썢	6106
썣	6107
썤	6108
썥	6109
썦	6110
썧	6111
써	6112
썩	6113
썪	6114
썫	6115
썬	6116
썭	6117
썮	6118
썯	6119
썰	6120
썱	6121
썲	6122
썳	6123
썴	6124
썵	6125
썶	6126
썷	6127
썸	6128
썹	6129
썺	6130
썻	6131
썼	6132
썽	6133
썾	6134
썿	6135
쎀	6136
쎁	6137
쎂	6138
쎃	6139
쎄	6140
쎅	6141
쎆	6142
쎇	6143
쎈	6144
쎉	6145
쎊	6146
쎋	6147
쎌	6148
쎍	6149
쎎	6150
쎏	6151
쎐	6152
쎑	6153
쎒	6154
쎓	6155
쎔	6156
쎕	6157
쎖	6158
쎗	6159
쎙	6160
쎚	6161
쎛	6162
쎜	6163
쎝	6164
쎞	6165
쎟	6166
쎠	6167
쎡	6168
쎢	6169
쎣	6170
쎤	6171
쎥	6172
쎦	6173
쎧	6174
쎨	6175
쎩	6176
쎪	6177
쎫	6178
쎬	6179
쎭	6180
쎮	6181
쎯	6182
쎰	6183
쎱	6184
쎲	6185
쎳	6186
쎴	6187
쎵	6188
쎶	6189
쎷	6190
쎸	6191
쎹	6192
쎺	6193
쎻	6194
쎼	6195
쎽	6196
쎾	6197
쎿	6198
쏀	6199
쏁	6200
쏂	6201
쏃	6202
쏄	6203
쏅	6204
쏆	6205
쏇	6206
쏈	6207
쏉	6208
쏊	6209
쏋	6210
쏌	6211
쏍	6212
쏎	6213
쏏	6214
쏐	6215
쏑	6216
쏒	6217
쏓	6218
쏔	6219
쏕	6220
쏖	6221
쏗	6222
쏘	6223
쏙	6224
쏚	6225
쏛	6226
쏜	6227
쏝	6228
쏞	6229
쏟	6230
쏠	6231
쏡	6232
쏢	6233
쏣	6234
쏤	6235
쏥	6236
쏦	6237
쏧	6238
쏨	6239
쏩	6240
쏪	6241
쏫	6242
쏬	6243
쏭	6244
쏮	6245
쏯	6246
쏰	6247
쏱	6248
쏲	6249
쏳	6250
쏴	6251
쏵	6252
쏶	6253
쏷	6254
쏸	6255
쏹	6256
쏺	6257
쏻	6258
쏼	6259
쏽	6260
쏾	6261
쏿	6262
쐀	6263
쐁	6264
쐂	6265
쐃	6266
쐄	6267
쐅	6268
쐆	6269
쐇	6270
쐉	6271
쐊	6272
쐋	6273
쐌	6274
쐍	6275
쐎	6276
쐏	6277
쐐	6278
쐑	6279
쐒	6280
쐓	6281
쐔	6282
쐕	6283
쐖	6284
쐗	6285
쐘	6286
쐙	6287
쐚	6288
쐛	6289
쐜	6290
쐝	6291
쐞	6292
쐟	6293
쐠	6294
쐡	6295
쐢	6296
쐣	6297
쐤	6298
쐥	6299
쐦	6300
쐧	6301
쐨	6302
쐩	6303
쐪	6304
쐫	6305
쐬	6306
쐭	6307
쐮	6308
쐯	6309
쐱	6310
쐲	6311
쐳	6312
쐵	6313
쐶	6314
쐷	6315
쐸	6316
쐹	6317
쐺	6318
쐻	6319
쐼	6320
쐽	6321
쐾	6322
쐿	6323
쑀	6324
쑁	6325
쑂	6326
쑃	6327
쑄	6328
쑅	6329
쑆	6330
쑇	6331
쑈	6332
쑉	6333
쑊	6334
쑋	6335
쑌	6336
쑍	6337
쑎	6338
쑏	6339
쑐	6340
쑑	6341
쑒	6342
쑓	6343
쑔	6344
쑕	6345
쑖	6346
쑗	6347
쑘	6348
쑙	6349
쑚	6350
쑛	6351
쑜	6352
쑝	6353
쑞	6354
쑟	6355
쑠	6356
쑡	6357
쑢	6358
쑣	6359
쑤	6360
쑥	6361
쑦	6362
쑧	6363
쑨	6364
쑩	6365
쑪	6366
쑫	6367
쑭	6368
쑮	6369
쑯	6370
쑰	6371
쑱	6372
쑲	6373
쑳	6374
쑴	6375
쑵	6376
쑶	6377
쑷	6378
쑸	6379
쑹	6380
쑺	6381
쑻	6382
쑼	6383
쑽	6384
쑾	6385
쑿	6386
쒀	6387
쒁	6388
쒂	6389
쒃	6390
쒄	6391
쒅	6392
쒆	6393
쒇	6394
쒈	6395
쒉	6396
쒊	6397
쒋	6398
쒌	6399
쒍	6400
쒎	6401
쒏	6402
쒐	6403
쒑	6404
쒒	6405
쒓	6406
쒕	6407
쒖	6408
쒗	6409
쒘	6410
쒙	6411
쒚	6412
쒛	6413
쒜	6414
쒝	6415
쒞	6416
쒟	6417
쒠	6418
쒡	6419
쒢	6420
쒣	6421
쒤	6422
쒥	6423
쒦	6424
쒧	6425
쒨	6426
쒩	6427
쒪	6428
쒫	6429
쒬	6430
쒭	6431
쒮	6432
쒯	6433
쒰	6434
쒱	6435
쒲	6436
쒳	6437
쒴	6438
쒵	6439
쒶	6440
쒷	6441
쒸	6442
쒹	6443
쒺	6444
쒻	6445
쒽	6446
쒾	6447
쒿	6448
쓀	6449
쓁	6450
쓂	6451
쓃	6452
쓄	6453
쓅	6454
쓆	6455
쓇	6456
쓈	6457
쓉	6458
쓊	6459
쓋	6460
쓌	6461
쓍	6462
쓎	6463
쓏	6464
쓐	6465
쓑	6466
쓒	6467
쓓	6468
쓔	6469
쓕	6470
쓖	6471
쓗	6472
쓘	6473
쓙	6474
쓚	6475
쓛	6476
쓜	6477
쓝	6478
쓞	6479
쓟	6480
쓠	6481
쓡	6482
쓢	6483
쓣	6484
쓤	6485
쓥	6486
쓦	6487
쓧	6488
쓨	6489
쓩	6490
쓪	6491
쓫	6492
쓬	6493
쓭	6494
쓮	6495
쓯	6496
쓰	6497
쓱	6498
쓲	6499
쓳	6500
쓴	6501
쓵	6502
쓶	6503
쓷	6504
쓸	6505
쓹	6506
쓺	6507
쓻	6508
쓼	6509
쓽	6510
쓾	6511
쓿	6512
씀	6513
씁	6514
씂	6515
씃	6516
씄	6517
씅	6518
씆	6519
씇	6520
씈	6521
씉	6522
씊	6523
씋	6524
씌	6525
씍	6526
씎	6527
씏	6528
씑	6529
씒	6530
씓	6531
씔	6532
씕	6533
씖	6534
씗	6535
씘	6536
씙	6537
씚	6538
씛	6539
씜	6540
씝	6541
씞	6542
씟	6543
씠	6544
씡	6545
씢	6546
씣	6547
씤	6548
씥	6549
씦	6550
씧	6551
씨	6552
씩	6553
씪	6554
씫	6555
씬	6556
씭	6557
씮	6558
씯	6559
씰	6560
씱	6561
씲	6562
씳	6563
씴	6564
씵	6565
씶	6566
씷	6567
씸	6568
씹	6569
씺	6570
씻	6571
씼	6572
씽	6573
씾	6574
씿	6575
앀	6576
앁	6577
앂	6578
앃	6579
아	6580
악	6581
앆	6582
앇	6583
안	6584
앉	6585
않	6586
앋	6587
알	6588
앍	6589
앎	6590
앏	6591
앐	6592
앑	6593
앒	6594
앓	6595
암	6596
압	6597
앖	6598
앗	6599
았	6600
앙	6601
앚	6602
앛	6603
앜	6604
앝	6605
앞	6606
앟	6607
애	6608
액	6609
앢	6610
앣	6611
앤	6612
앥	6613
앦	6614
앧	6615
앨	6616
앩	6617
앪	6618
앫	6619
앬	6620
앭	6621
앮	6622
앯	6623
앰	6624
앱	6625
앲	6626
앳	6627
앴	6628
앵	6629
앶	6630
앷	6631
앸	6632
앹	6633
앺	6634
앻	6635
야	6636
약	6637
앾	6638
앿	6639
얀	6640
얁	6641
얂	6642
얃	6643
얄	6644
얅	6645
얆	6646
얇	6647
얈	6648
얉	6649
얊	6650
얋	6651
얌	6652
얍	6653
얎	6654
얏	6655
얐	6656
양	6657
얒	6658
얓	6659
얔	6660
얕	6661
얖	6662
얗	6663
얘	6664
얙	6665
얚	6666
얛	6667
얜	6668
얝	6669
얞	6670
얟	6671
얡	6672
얢	6673
얣	6674
얤	6675
얥	6676
얦	6677
얧	6678
얨	6679
얩	6680
얪	6681
얫	6682
얬	6683
얭	6684
얮	6685
얯	6686
얰	6687
얱	6688
얲	6689
얳	6690
어	6691
억	6692
얶	6693
얷	6694
언	6695
얹	6696
얺	6697
얻	6698
얼	6699
얽	6700
얾	6701
얿	6702
엀	6703
엁	6704
엂	6705
엃	6706
엄	6707
업	6708
없	6709
엇	6710
었	6711
엉	6712
엊	6713
엋	6714
엌	6715
엍	6716
엎	6717
엏	6718
에	6719
엑	6720
엒	6721
엓	6722
엔	6723
엕	6724
엖	6725
엗	6726
엘	6727
엙	6728
엚	6729
엛	6730
엜	6731
엝	6732
엞	6733
엟	6734
엠	6735
엡	6736
엢	6737
엣	6738
엤	6739
엥	6740
엦	6741
엧	6742
엨	6743
엩	6744
엪	6745
엫	6746
여	6747
역	6748
엮	6749
엯	6750
연	6751
엱	6752
엲	6753
엳	6754
열	6755
엵	6756
엶	6757
엷	6758
엸	6759
엹	6760
엺	6761
엻	6762
염	6763
엽	6764
엾	6765
엿	6766
였	6767
영	6768
옂	6769
옃	6770
옄	6771
옅	6772
옆	6773
옇	6774
예	6775
옉	6776
옊	6777
옋	6778
옌	6779
옍	6780
옎	6781
옏	6782
옐	6783
옑	6784
옒	6785
옓	6786
옔	6787
옕	6788
옖	6789
옗	6790
옘	6791
옙	6792
옚	6793
옛	6794
옜	6795
옝	6796
옞	6797
옟	6798
옠	6799
옡	6800
옢	6801
옣	6802
오	6803
옥	6804
옦	6805
옧	6806
온	6807
옩	6808
옪	6809
옫	6810
올	6811
옭	6812
옮	6813
옯	6814
옰	6815
옱	6816
옲	6817
옳	6818
옴	6819
옵	6820
옶	6821
옷	6822
옸	6823
옹	6824
옺	6825
옻	6826
옼	6827
옽	6828
옾	6829
옿	6830
와	6831
왁	6832
왂	6833
왃	6834
완	6835
왅	6836
왆	6837
왇	6838
왈	6839
왉	6840
왊	6841
왋	6842
왌	6843
왍	6844
왎	6845
왏	6846
왐	6847
왑	6848
왒	6849
왓	6850
왔	6851
왕	6852
왖	6853
왗	6854
왘	6855
왙	6856
왚	6857
왛	6858
왜	6859
왝	6860
왞	6861
왟	6862
왠	6863
왡	6864
왢	6865
왣	6866
왤	6867
왥	6868
왦	6869
왧	6870
왨	6871
왩	6872
왪	6873
왫	6874
왬	6875
왭	6876
왮	6877
왯	6878
왰	6879
왱	6880
왲	6881
왳	6882
왴	6883
왵	6884
왶	6885
왷	6886
외	6887
왹	6888
왺	6889
왻	6890
왼	6891
왽	6892
왾	6893
왿	6894
욀	6895
욁	6896
욂	6897
욃	6898
욄	6899
욅	6900
욆	6901
욇	6902
욈	6903
욉	6904
욊	6905
욋	6906
욌	6907
욍	6908
욎	6909
욏	6910
욐	6911
욑	6912
욒	6913
욓	6914
요	6915
욕	6916
욖	6917
욗	6918
욘	6919
욙	6920
욚	6921
욛	6922
욜	6923
욝	6924
욞	6925
욟	6926
욠	6927
욡	6928
욢	6929
욣	6930
욤	6931
욥	6932
욦	6933
욧	6934
욨	6935
용	6936
욪	6937
욫	6938
욬	6939
욭	6940
욮	6941
욯	6942
우	6943
욱	6944
욲	6945
욳	6946
운	6947
욵	6948
욶	6949
욷	6950
울	6951
욹	6952
욺	6953
욻	6954
욼	6955
욽	6956
욾	6957
욿	6958
움	6959
웁	6960
웂	6961
웃	6962
웄	6963
웅	6964
웆	6965
웇	6966
웈	6967
웉	6968
웊	6969
웋	6970
워	6971
웍	6972
웎	6973
웏	6974
원	6975
웑	6976
웒	6977
웓	6978
월	6979
웕	6980
웖	6981
웗	6982
웘	6983
웙	6984
웚	6985
웛	6986
웜	6987
웝	6988
웞	6989
웟	6990
웠	6991
웡	6992
웢	6993
웣	6994
웤	6995
웥	6996
웦	6997
웧	6998
웨	6999
웩	7000
웪	7001
웫	7002
웬	7003
웭	7004
웮	7005
웯	7006
웰	7007
웱	7008
웲	7009
웳	7010
웴	7011
웵	7012
웶	7013
웷	7014
웸	7015
웹	7016
웺	7017
웻	7018
웼	7019
웽	7020
웾	7021
웿	7022
윀	7023
윁	7024
윂	7025
윃	7026
위	7027
윅	7028
윆	7029
윇	7030
윈	7031
윉	7032
윊	7033
윋	7034
윌	7035
윍	7036
윎	7037
윏	7038
윐	7039
윑	7040
윒	7041
윓	7042
윔	7043
윕	7044
윖	7045
윗	7046
윘	7047
윙	7048
윚	7049
윛	7050
윜	7051
윝	7052
윞	7053
윟	7054
유	7055
육	7056
윢	7057
윣	7058
윤	7059
윥	7060
윦	7061
윧	7062
율	7063
윩	7064
윪	7065
윫	7066
윬	7067
윭	7068
윮	7069
윯	7070
윰	7071
윱	7072
윲	7073
윳	7074
윴	7075
융	7076
윶	7077
윷	7078
윸	7079
윹	7080
윺	7081
윻	7082
으	7083
윽	7084
윾	7085
윿	7086
은	7087
읁	7088
읂	7089
읃	7090
을	7091
읅	7092
읆	7093
읇	7094
읈	7095
읉	7096
읊	7097
읋	7098
음	7099
읍	7100
읎	7101
읏	7102
읐	7103
응	7104
읒	7105
읓	7106
읔	7107
읕	7108
읖	7109
읗	7110
의	7111
읙	7112
읚	7113
읛	7114
읜	7115
읝	7116
읞	7117
읟	7118
읠	7119
읡	7120
읢	7121
읣	7122
읤	7123
읥	7124
읦	7125
읧	7126
읨	7127
읩	7128
읪	7129
읫	7130
읬	7131
읭	7132
읮	7133
읯	7134
읰	7135
읱	7136
읲	7137
읳	7138
이	7139
익	7140
읶	7141
읷	7142
인	7143
읹	7144
읺	7145
읻	7146
일	7147
읽	7148
읾	7149
읿	7150
잀	7151
잁	7152
잂	7153
잃	7154
임	7155
입	7156
잆	7157
잇	7158
있	7159
잉	7160
잊	7161
잋	7162
잌	7163
잍	7164
잎	7165
잏	7166
자	7167
작	7168
잒	7169
잓	7170
잔	7171
잕	7172
잖	7173
잗	7174
잘	7175
잙	7176
잚	7177
잛	7178
잜	7179
잝	7180
잞	7181
잟	7182
잠	7183
잡	7184
잢	7185
잣	7186
장	7187
잦	7188
잧	7189
잨	7190
잩	7191
잪	7192
잫	7193
재	7194
잭	7195
잮	7196
잯	7197
잰	7198
잱	7199
잲	7200
잳	7201
잴	7202
잵	7203
잶	7204
잷	7205
잸	7206
잹	7207
잺	7208
잻	7209
잼	7210
잽	7211
잾	7212
잿	7213
쟁	7214
쟂	7215
쟃	7216
쟄	7217
쟅	7218
쟆	7219
쟇	7220
쟈	7221
쟉	7222
쟊	7223
쟋	7224
쟌	7225
쟍	7226
쟎	7227
쟏	7228
쟐	7229
쟑	7230
쟒	7231
쟓	7232
쟔	7233
쟕	7234
쟖	7235
쟗	7236
쟘	7237
쟙	7238
쟚	7239
쟛	7240
쟜	7241
쟝	7242
쟞	7243
쟟	7244
쟠	7245
쟡	7246
쟢	7247
쟣	7248
쟤	7249
쟥	7250
쟦	7251
쟧	7252
쟩	7253
쟪	7254
쟫	7255
쟬	7256
쟭	7257
쟮	7258
쟯	7259
쟰	7260
쟱	7261
쟲	7262
쟳	7263
쟴	7264
쟵	7265
쟶	7266
쟷	7267
쟸	7268
쟹	7269
쟺	7270
쟻	7271
쟼	7272
쟽	7273
쟾	7274
쟿	7275
저	7276
적	7277
젂	7278
젃	7279
전	7280
젅	7281
젆	7282
젇	7283
절	7284
젉	7285
젊	7286
젋	7287
젌	7288
젍	7289
젎	7290
젏	7291
점	7292
접	7293
젒	7294
젓	7295
젔	7296
정	7297
젖	7298
젗	7299
젘	7300
젙	7301
젚	7302
젛	7303
제	7304
젝	7305
젞	7306
젟	7307
젠	7308
젡	7309
젢	7310
젣	7311
젤	7312
젥	7313
젦	7314
젧	7315
젨	7316
젩	7317
젪	7318
젫	7319
젬	7320
젭	7321
젮	7322
젯	7323
젰	7324
젱	7325
젲	7326
젳	7327
젴	7328
젵	7329
젶	7330
젷	7331
져	7332
젹	7333
젺	7334
젻	7335
젼	7336
젽	7337
젾	7338
젿	7339
졀	7340
졁	7341
졂	7342
졃	7343
졄	7344
졅	7345
졆	7346
졇	7347
졈	7348
졉	7349
졊	7350
졋	7351
졌	7352
졍	7353
졎	7354
졏	7355
졐	7356
졑	7357
졒	7358
졓	7359
졔	7360
졕	7361
졖	7362
졗	7363
졘	7364
졙	7365
졚	7366
졛	7367
졜	7368
졝	7369
졞	7370
졟	7371
졠	7372
졡	7373
졢	7374
졣	7375
졤	7376
졥	7377
졦	7378
졧	7379
졨	7380
졩	7381
졪	7382
졫	7383
졬	7384
졭	7385
졮	7386
졯	7387
조	7388
족	7389
졲	7390
졳	7391
존	7392
졵	7393
졶	7394
졷	7395
졸	7396
졹	7397
졺	7398
졻	7399
졼	7400
졽	7401
졾	7402
졿	7403
좀	7404
좁	7405
좂	7406
좃	7407
좄	7408
종	7409
좆	7410
좇	7411
좈	7412
좉	7413
좊	7414
좋	7415
좌	7416
좍	7417
좎	7418
좏	7419
좐	7420
좑	7421
좒	7422
좓	7423
좔	7424
좕	7425
좖	7426
좗	7427
좘	7428
좙	7429
좚	7430
좛	7431
좜	7432
좝	7433
좞	7434
좟	7435
좠	7436
좡	7437
좢	7438
좣	7439
좤	7440
좥	7441
좦	7442
좧	7443
좨	7444
좩	7445
좪	7446
좫	7447
좬	7448
좭	7449
좮	7450
좯	7451
좰	7452
좱	7453
좲	7454
좳	7455
좴	7456
좵	7457
좶	7458
좷	7459
좸	7460
좹	7461
좺	7462
좻	7463
좼	7464
좽	7465
좾	7466
좿	7467
죀	7468
죁	7469
죂	7470
죃	7471
죄	7472
죅	7473
죆	7474
죇	7475
죈	7476
죉	7477
죊	7478
죋	7479
죌	7480
죍	7481
죎	7482
죏	7483
죐	7484
죑	7485
죒	7486
죓	7487
죔	7488
죕	7489
죖	7490
죗	7491
죙	7492
죚	7493
죛	7494
죜	7495
죝	7496
죞	7497
죟	7498
죠	7499
죡	7500
죢	7501
죣	7502
죤	7503
죥	7504
죦	7505
죧	7506
죨	7507
죩	7508
죪	7509
죫	7510
죬	7511
죭	7512
죮	7513
죯	7514
죰	7515
죱	7516
죲	7517
죳	7518
죴	7519
죵	7520
죶	7521
죷	7522
죸	7523
죹	7524
죺	7525
죻	7526
주	7527
죽	7528
죾	7529
죿	7530
준	7531
줁	7532
줂	7533
줃	7534
줄	7535
줅	7536
줆	7537
줇	7538
줈	7539
줉	7540
줊	7541
줋	7542
줌	7543
줍	7544
줎	7545
줏	7546
줐	7547
중	7548
줒	7549
줓	7550
줔	7551
줕	7552
줖	7553
줗	7554
줘	7555
줙	7556
줚	7557
줛	7558
줜	7559
줝	7560
줞	7561
줟	7562
줠	7563
줡	7564
줢	7565
줣	7566
줤	7567
줥	7568
줦	7569
줧	7570
줨	7571
줩	7572
줪	7573
줫	7574
줬	7575
줭	7576
줮	7577
줯	7578
줰	7579
줱	7580
줲	7581
줳	7582
줴	7583
줵	7584
줶	7585
줷	7586
줸	7587
줹	7588
줺	7589
줻	7590
줼	7591
줽	7592
줾	7593
줿	7594
쥀	7595
쥁	7596
쥂	7597
쥃	7598
쥄	7599
쥅	7600
쥆	7601
쥇	7602
쥈	7603
쥉	7604
쥊	7605
쥋	7606
쥌	7607
쥍	7608
쥎	7609
쥏	7610
쥐	7611
쥑	7612
쥒	7613
쥓	7614
쥔	7615
쥕	7616
쥖	7617
쥗	7618
쥘	7619
쥙	7620
쥚	7621
쥛	7622
쥜	7623
쥝	7624
쥞	7625
쥟	7626
쥠	7627
쥡	7628
쥢	7629
쥣	7630
쥤	7631
쥥	7632
쥦	7633
쥧	7634
쥨	7635
쥩	7636
쥪	7637
쥫	7638
쥬	7639
쥭	7640
쥮	7641
쥯	7642
쥰	7643
쥱	7644
쥲	7645
쥳	7646
쥴	7647
쥵	7648
쥶	7649
쥷	7650
쥸	7651
쥹	7652
쥺	7653
쥻	7654
쥼	7655
쥽	7656
쥾	7657
쥿	7658
즀	7659
즁	7660
즂	7661
즃	7662
즄	7663
즅	7664
즆	7665
즇	7666
즈	7667
즉	7668
즊	7669
즋	7670
즌	7671
즍	7672
즎	7673
즏	7674
즐	7675
즑	7676
즒	7677
즓	7678
즔	7679
즕	7680
즖	7681
즗	7682
즘	7683
즙	7684
즚	7685
즛	7686
즜	7687
증	7688
즞	7689
즟	7690
즠	7691
즡	7692
즢	7693
즣	7694
즤	7695
즥	7696
즦	7697
즧	7698
즨	7699
즩	7700
즪	7701
즫	7702
즬	7703
즭	7704
즮	7705
즯	7706
즰	7707
즱	7708
즲	7709
즳	7710
즴	7711
즵	7712
즶	7713
즷	7714
즸	7715
즹	7716
즺	7717
즻	7718
즼	7719
즽	7720
즾	7721
즿	7722
지	7723
직	7724
짂	7725
짃	7726
진	7727
짅	7728
짆	7729
짇	7730
질	7731
짉	7732
짊	7733
짋	7734
짌	7735
짍	7736
짎	7737
짏	7738
짐	7739
집	7740
짒	7741
짓	7742
짔	7743
징	7744
짖	7745
짗	7746
짘	7747
짙	7748
짚	7749
짛	7750
짜	7751
짝	7752
짞	7753
짟	7754
짠	7755
짡	7756
짢	7757
짣	7758
짤	7759
짥	7760
짦	7761
짧	7762
짨	7763
짩	7764
짪	7765
짫	7766
짬	7767
짭	7768
짮	7769
짯	7770
짱	7771
짲	7772
짳	7773
짴	7774
짵	7775
짶	7776
짷	7777
째	7778
짹	7779
짺	7780
짻	7781
짼	7782
짽	7783
짾	7784
짿	7785
쨀	7786
쨁	7787
쨂	7788
쨃	7789
쨄	7790
쨅	7791
쨆	7792
쨇	7793
쨈	7794
쨉	7795
쨊	7796
쨋	7797
쨌	7798
쨍	7799
쨎	7800
쨏	7801
쨐	7802
쨑	7803
쨒	7804
쨓	7805
쨔	7806
쨕	7807
쨖	7808
쨗	7809
쨘	7810
쨙	7811
쨚	7812
쨛	7813
쨜	7814
쨝	7815
쨞	7816
쨟	7817
쨠	7818
쨡	7819
쨢	7820
쨣	7821
쨤	7822
쨥	7823
쨦	7824
쨧	7825
쨨	7826
쨩	7827
쨪	7828
쨫	7829
쨬	7830
쨭	7831
쨮	7832
쨯	7833
쨰	7834
쨱	7835
쨲	7836
쨳	7837
쨴	7838
쨵	7839
쨶	7840
쨷	7841
쨸	7842
쨹	7843
쨺	7844
쨻	7845
쨼	7846
쨽	7847
쨾	7848
쨿	7849
쩀	7850
쩁	7851
쩂	7852
쩃	7853
쩄	7854
쩅	7855
쩆	7856
쩇	7857
쩈	7858
쩉	7859
쩊	7860
쩋	7861
쩌	7862
쩍	7863
쩎	7864
쩏	7865
쩐	7866
쩑	7867
쩒	7868
쩓	7869
쩔	7870
쩕	7871
쩖	7872
쩗	7873
쩘	7874
쩙	7875
쩚	7876
쩛	7877
쩜	7878
쩝	7879
쩞	7880
쩟	7881
쩠	7882
쩡	7883
쩢	7884
쩣	7885
쩤	7886
쩥	7887
쩦	7888
쩧	7889
쩨	7890
쩩	7891
쩪	7892
쩫	7893
쩬	7894
쩭	7895
쩮	7896
쩯	7897
쩰	7898
쩱	7899
쩲	7900
쩳	7901
쩴	7902
쩵	7903
쩶	7904
쩷	7905
쩸	7906
쩹	7907
쩺	7908
쩻	7909
쩼	7910
쩽	7911
쩾	7912
쩿	7913
쪀	7914
쪁	7915
쪂	7916
쪃	7917
쪄	7918
쪅	7919
쪆	7920
쪇	7921
쪈	7922
쪉	7923
쪊	7924
쪋	7925
쪌	7926
쪍	7927
쪎	7928
쪏	7929
쪐	7930
쪑	7931
쪒	7932
쪓	7933
쪔	7934
쪕	7935
쪖	7936
쪗	7937
쪘	7938
쪙	7939
쪚	7940
쪛	7941
쪜	7942
쪝	7943
쪞	7944
쪟	7945
쪠	7946
쪡	7947
쪢	7948
쪣	7949
쪤	7950
쪥	7951
쪦	7952
쪧	7953
쪨	7954
쪩	7955
쪪	7956
쪫	7957
쪬	7958
쪭	7959
쪮	7960
쪯	7961
쪰	7962
쪱	7963
쪲	7964
쪳	7965
쪴	7966
쪵	7967
쪶	7968
쪷	7969
쪸	7970
쪹	7971
쪺	7972
쪻	7973
쪼	7974
쪽	7975
쪾	7976
쪿	7977
쫀	7978
쫁	7979
쫂	7980
쫃	7981
쫄	7982
쫅	7983
쫆	7984
쫇	7985
쫈	7986
쫉	7987
쫊	7988
쫋	7989
쫌	7990
쫍	7991
쫎	7992
쫏	7993
쫐	7994
쫑	7995
쫒	7996
쫓	7997
쫔	7998
쫕	7999
쫖	8000
쫗	8001
쫘	8002
쫙	8003
쫚	8004
쫛	8005
쫜	8006
쫝	8007
쫞	8008
쫟	8009
쫠	8010
쫡	8011
쫢	8012
쫣	8013
쫤	8014
쫥	8015
쫦	8016
쫧	8017
쫨	8018
쫩	8019
쫪	8020
쫫	8021
쫭	8022
쫮	8023
쫯	8024
쫰	8025
쫱	8026
쫲	8027
쫳	8028
쫴	8029
쫵	8030
쫶	8031
쫷	8032
쫸	8033
쫹	8034
쫺	8035
쫻	8036
쫼	8037
쫽	8038
쫾	8039
쫿	8040
쬀	8041
쬁	8042
쬂	8043
쬃	8044
쬄	8045
쬅	8046
쬆	8047
쬇	8048
쬈	8049
쬉	8050
쬊	8051
쬋	8052
쬌	8053
쬍	8054
쬎	8055
쬏	8056
쬐	8057
쬑	8058
쬒	8059
쬓	8060
쬔	8061
쬕	8062
쬖	8063
쬗	8064
쬙	8065
쬚	8066
쬛	8067
쬜	8068
쬝	8069
쬞	8070
쬟	8071
쬡	8072
쬢	8073
쬣	8074
쬤	8075
쬥	8076
쬦	8077
쬧	8078
쬨	8079
쬩	8080
쬪	8081
쬫	8082
쬬	8083
쬭	8084
쬮	8085
쬯	8086
쬰	8087
쬱	8088
쬲	8089
쬳	8090
쬴	8091
쬵	8092
쬶	8093
쬷	8094
쬸	8095
쬹	8096
쬺	8097
쬻	8098
쬼	8099
쬽	8100
쬾	8101
쬿	8102
쭀	8103
쭁	8104
쭂	8105
쭃	8106
쭄	8107
쭅	8108
쭆	8109
쭇	8110
쭈	8111
쭉	8112
쭊	8113
쭋	8114
쭌	8115
쭍	8116
쭎	8117
쭏	8118
쭐	8119
쭑	8120
쭒	8121
쭓	8122
쭔	8123
쭕	8124
쭖	8125
쭗	8126
쭘	8127
쭙	8128
쭚	8129
쭛	8130
쭜	8131
쭝	8132
쭞	8133
쭟	8134
쭠	8135
쭡	8136
쭢	8137
쭣	8138
쭤	8139
쭥	8140
쭦	8141
쭧	8142
쭨	8143
쭩	8144
쭪	8145
쭫	8146
쭬	8147
쭭	8148
쭮	8149
쭯	8150
쭰	8151
쭱	8152
쭲	8153
쭳	8154
쭴	8155
쭵	8156
쭶	8157
쭷	8158
쭸	8159
쭹	8160
쭺	8161
쭻	8162
쭼	8163
쭽	8164
쭾	8165
쭿	8166
쮀	8167
쮁	8168
쮂	8169
쮃	8170
쮄	8171
쮅	8172
쮆	8173
쮇	8174
쮈	8175
쮉	8176
쮊	8177
쮋	8178
쮌	8179
쮍	8180
쮎	8181
쮏	8182
쮐	8183
쮑	8184
쮒	8185
쮓	8186
쮔	8187
쮕	8188
쮖	8189
쮗	8190
쮘	8191
쮙	8192
쮚	8193
쮛	8194
쮜	8195
쮝	8196
쮞	8197
쮟	8198
쮠	8199
쮡	8200
쮢	8201
쮣	8202
쮤	8203
쮥	8204
쮦	8205
쮧	8206
쮨	8207
쮩	8208
쮪	8209
쮫	8210
쮬	8211
쮭	8212
쮮	8213
쮯	8214
쮰	8215
쮱	8216
쮲	8217
쮳	8218
쮴	8219
쮵	8220
쮶	8221
쮷	8222
쮸	8223
쮹	8224
쮺	8225
쮻	8226
쮼	8227
쮽	8228
쮾	8229
쮿	8230
쯀	8231
쯁	8232
쯂	8233
쯃	8234
쯄	8235
쯅	8236
쯆	8237
쯇	8238
쯈	8239
쯉	8240
쯊	8241
쯋	8242
쯌	8243
쯍	8244
쯎	8245
쯏	8246
쯐	8247
쯑	8248
쯒	8249
쯓	8250
쯔	8251
쯕	8252
쯖	8253
쯗	8254
쯘	8255
쯙	8256
쯚	8257
쯛	8258
쯜	8259
쯝	8260
쯞	8261
쯟	8262
쯠	8263
쯡	8264
쯢	8265
쯣	8266
쯤	8267
쯥	8268
쯦	8269
쯧	8270
쯨	8271
쯩	8272
쯪	8273
쯫	8274
쯬	8275
쯭	8276
쯮	8277
쯯	8278
쯰	8279
쯱	8280
쯲	8281
쯳	8282
쯴	8283
쯵	8284
쯶	8285
쯷	8286
쯸	8287
쯹	8288
쯺	8289
쯻	8290
쯼	8291
쯽	8292
쯾	8293
쯿	8294
찀	8295
찁	8296
찂	8297
찃	8298
찄	8299
찅	8300
찆	8301
찇	8302
찈	8303
찉	8304
찊	8305
찋	8306
찌	8307
찍	8308
찎	8309
찏	8310
찐	8311
찑	8312
찒	8313
찓	8314
찔	8315
찕	8316
찖	8317
찗	8318
찘	8319
찙	8320
찚	8321
찛	8322
찜	8323
찝	8324
찞	8325
찟	8326
찠	8327
찡	8328
찢	8329
찣	8330
찤	8331
찥	8332
찦	8333
찧	8334
차	8335
착	8336
찪	8337
찫	8338
찬	8339
찭	8340
찮	8341
찯	8342
찰	8343
찱	8344
찲	8345
찳	8346
찴	8347
찵	8348
찶	8349
찷	8350
참	8351
찹	8352
찺	8353
찻	8354
창	8355
찾	8356
찿	8357
챀	8358
챁	8359
챂	8360
챃	8361
채	8362
책	8363
챆	8364
챇	8365
챈	8366
챉	8367
챊	8368
챋	8369
챌	8370
챍	8371
챎	8372
챏	8373
챐	8374
챑	8375
챒	8376
챓	8377
챔	8378
챕	8379
챖	8380
챗	8381
챘	8382
챙	8383
챚	8384
챛	8385
챜	8386
챝	8387
챞	8388
챟	8389
챠	8390
챡	8391
챢	8392
챣	8393
챤	8394
챥	8395
챦	8396
챧	8397
챨	8398
챩	8399
챪	8400
챫	8401
챬	8402
챭	8403
챮	8404
챯	8405
챰	8406
챱	8407
챲	8408
챳	8409
챴	8410
챵	8411
챶	8412
챷	8413
챸	8414
챹	8415
챺	8416
챻	8417
챼	8418
챽	8419
챾	8420
챿	8421
첀	8422
첁	8423
첂	8424
첃	8425
첄	8426
첅	8427
첆	8428
첇	8429
첈	8430
첉	8431
첊	8432
첋	8433
첌	8434
첍	8435
첎	8436
첏	8437
첐	8438
첑	8439
첒	8440
첓	8441
첔	8442
첕	8443
첖	8444
첗	8445
처	8446
척	8447
첚	8448
첛	8449
천	8450
첝	8451
첞	8452
첟	8453
철	8454
첡	8455
첢	8456
첣	8457
첤	8458
첥	8459
첦	8460
첧	8461
첨	8462
첩	8463
첪	8464
첫	8465
첬	8466
청	8467
첮	8468
첯	8469
첰	8470
첱	8471
첲	8472
첳	8473
체	8474
첵	8475
첶	8476
첷	8477
첸	8478
첹	8479
첺	8480
첻	8481
첼	8482
첽	8483
첾	8484
첿	8485
쳀	8486
쳁	8487
쳂	8488
쳃	8489
쳄	8490
쳅	8491
쳆	8492
쳇	8493
쳈	8494
쳉	8495
쳊	8496
쳋	8497
쳌	8498
쳍	8499
쳎	8500
쳏	8501
쳐	8502
쳑	8503
쳒	8504
쳓	8505
쳔	8506
쳕	8507
쳖	8508
쳗	8509
쳘	8510
쳙	8511
쳚	8512
쳛	8513
쳜	8514
쳝	8515
쳞	8516
쳟	8517
쳠	8518
쳡	8519
쳢	8520
쳣	8521
쳤	8522
쳥	8523
쳦	8524
쳧	8525
쳨	8526
쳩	8527
쳪	8528
쳫	8529
쳬	8530
쳭	8531
쳮	8532
쳯	8533
쳰	8534
쳱	8535
쳲	8536
쳳	8537
쳴	8538
쳵	8539
쳶	8540
쳷	8541
쳸	8542
쳹	8543
쳺	8544
쳻	8545
쳼	8546
쳽	8547
쳾	8548
쳿	8549
촀	8550
촁	8551
촂	8552
촃	8553
촄	8554
촅	8555
촆	8556
촇	8557
초	8558
촉	8559
촊	8560
촋	8561
촌	8562
촍	8563
촎	8564
촏	8565
촐	8566
촑	8567
촒	8568
촓	8569
촔	8570
촕	8571
촖	8572
촗	8573
촘	8574
촙	8575
촚	8576
촛	8577
촜	8578
총	8579
촞	8580
촟	8581
촠	8582
촡	8583
촢	8584
촣	8585
촤	8586
촥	8587
촦	8588
촧	8589
촨	8590
촩	8591
촪	8592
촫	8593
촬	8594
촭	8595
촮	8596
촯	8597
촰	8598
촱	8599
촲	8600
촳	8601
촴	8602
촵	8603
촶	8604
촷	8605
촸	8606
촹	8607
촺	8608
촻	8609
촼	8610
촽	8611
촾	8612
촿	8613
쵀	8614
쵁	8615
쵂	8616
쵃	8617
쵄	8618
쵅	8619
쵆	8620
쵇	8621
쵈	8622
쵉	8623
쵊	8624
쵋	8625
쵌	8626
쵍	8627
쵎	8628
쵏	8629
쵐	8630
쵑	8631
쵒	8632
쵓	8633
쵔	8634
쵕	8635
쵖	8636
쵗	8637
쵘	8638
쵙	8639
쵚	8640
쵛	8641
최	8642
쵝	8643
쵞	8644
쵟	8645
쵠	8646
쵡	8647
쵢	8648
쵣	8649
쵤	8650
쵥	8651
쵦	8652
쵧	8653
쵨	8654
쵩	8655
쵪	8656
쵫	8657
쵬	8658
쵭	8659
쵮	8660
쵯	8661
쵰	8662
쵱	8663
쵲	8664
쵳	8665
쵴	8666
쵵	8667
쵶	8668
쵷	8669
쵸	8670
쵹	8671
쵺	8672
쵻	8673
쵼	8674
쵽	8675
쵾	8676
쵿	8677
춀	8678
춁	8679
춂	8680
춃	8681
춄	8682
춅	8683
춆	8684
춇	8685
춈	8686
춉	8687
춊	8688
춋	8689
춌	8690
춍	8691
춎	8692
춏	8693
춐	8694
춑	8695
춒	8696
춓	8697
추	8698
축	8699
춖	8700
춗	8701
춘	8702
춙	8703
춚	8704
춛	8705
출	8706
춝	8707
춞	8708
춟	8709
춠	8710
춡	8711
춢	8712
춣	8713
춤	8714
춥	8715
춦	8716
춧	8717
춨	8718
충	8719
춪	8720
춫	8721
춬	8722
춭	8723
춮	8724
춯	8725
춰	8726
춱	8727
춲	8728
춳	8729
춴	8730
춵	8731
춶	8732
춷	8733
춸	8734
춹	8735
춺	8736
춻	8737
춼	8738
춽	8739
춾	8740
춿	8741
췀	8742
췁	8743
췂	8744
췃	8745
췄	8746
췅	8747
췆	8748
췇	8749
췈	8750
췉	8751
췊	8752
췋	8753
췌	8754
췍	8755
췎	8756
췏	8757
췐	8758
췑	8759
췒	8760
췓	8761
췔	8762
췕	8763
췖	8764
췗	8765
췘	8766
췙	8767
췚	8768
췛	8769
췜	8770
췝	8771
췞	8772
췟	8773
췠	8774
췡	8775
췢	8776
췣	8777
췤	8778
췥	8779
췦	8780
췧	8781
취	8782
췩	8783
췪	8784
췫	8785
췬	8786
췭	8787
췮	8788
췯	8789
췰	8790
췱	8791
췲	8792
췳	8793
췴	8794
췵	8795
췶	8796
췷	8797
췸	8798
췹	8799
췺	8800
췻	8801
췼	8802
췽	8803
췾	8804
췿	8805
츀	8806
츁	8807
츂	8808
츃	8809
츄	8810
츅	8811
츆	8812
츇	8813
츈	8814
츉	8815
츊	8816
츋	8817
츌	8818
츍	8819
츎	8820
츏	8821
츐	8822
츑	8823
츒	8824
츓	8825
츔	8826
츕	8827
츖	8828
츗	8829
츘	8830
츙	8831
츚	8832
츛	8833
츜	8834
츝	8835
츞	8836
츟	8837
츠	8838
측	8839
츢	8840
츣	8841
츤	8842
츥	8843
츦	8844
츧	8845
츨	8846
츩	8847
츪	8848
츫	8849
츬	8850
츭	8851
츮	8852
츯	8853
츰	8854
츱	8855
츲	8856
츳	8857
츴	8858
층	8859
츶	8860
츷	8861
츸	8862
츹	8863
츺	8864
츻	8865
츼	8866
츽	8867
츾	8868
츿	8869
칀	8870
칁	8871
칂	8872
칃	8873
칄	8874
칅	8875
칆	8876
칇	8877
칈	8878
칉	8879
칊	8880
칋	8881
칌	8882
칍	8883
칎	8884
칏	8885
칐	8886
칑	8887
칒	8888
칓	8889
칔	8890
칕	8891
칖	8892
칗	8893
치	8894
칙	8895
칚	8896
칛	8897
친	8898
칝	8899
칞	8900
칟	8901
칠	8902
칡	8903
칢	8904
칣	8905
칤	8906
칥	8907
칦	8908
칧	8909
침	8910
칩	8911
칪	8912
칫	8913
칬	8914
칭	8915
칮	8916
칯	8917
칰	8918
칱	8919
칲	8920
칳	8921
카	8922
칵	8923
칶	8924
칷	8925
칸	8926
칹	8927
칺	8928
칻	8929
칼	8930
칽	8931
칾	8932
칿	8933
캀	8934
캁	8935
캂	8936
캃	8937
캄	8938
캅	8939
캆	8940
캇	8941
캈	8942
캉	8943
캊	8944
캋	8945
캌	8946
캍	8947
캎	8948
캏	8949
캐	8950
캑	8951
캒	8952
캓	8953
캔	8954
캕	8955
캖	8956
캗	8957
캘	8958
캙	8959
캚	8960
캛	8961
캜	8962
캝	8963
캞	8964
캟	8965
캠	8966
캡	8967
캢	8968
캣	8969
캤	8970
캥	8971
캦	8972
캧	8973
캨	8974
캩	8975
캪	8976
캫	8977
캬	8978
캭	8979
캮	8980
캯	8981
캰	8982
캱	8983
캲	8984
캳	8985
캴	8986
캵	8987
캶	8988
캷	8989
캸	8990
캹	8991
캺	8992
캻	8993
캼	8994
캽	8995
캾	8996
캿	8997
컀	8998
컁	8999
컂	9000
컃	9001
컄	9002
컅	9003
컆	9004
컇	9005
컈	9006
컉	9007
컊	9008
컋	9009
컌	9010
컍	9011
컎	9012
컏	9013
컐	9014
컑	9015
컒	9016
컓	9017
컔	9018
컕	9019
컖	9020
컗	9021
컘	9022
컙	9023
컚	9024
컛	9025
컜	9026
컝	9027
컞	9028
컟	9029
컠	9030
컡	9031
컢	9032
컣	9033
커	9034
컥	9035
컦	9036
컧	9037
컨	9038
컩	9039
컪	9040
컫	9041
컬	9042
컭	9043
컮	9044
컯	9045
컰	9046
컱	9047
컲	9048
컳	9049
컴	9050
컵	9051
컶	9052
컷	9053
컹	9054
컺	9055
컻	9056
컼	9057
컽	9058
컾	9059
컿	9060
케	9061
켁	9062
켂	9063
켃	9064
켄	9065
켅	9066
켆	9067
켇	9068
켈	9069
켉	9070
켊	9071
켋	9072
켌	9073
켍	9074
켎	9075
켏	9076
켐	9077
켑	9078
켒	9079
켓	9080
켔	9081
켕	9082
켖	9083
켗	9084
켘	9085
켙	9086
켚	9087
켛	9088
켜	9089
켝	9090
켞	9091
켟	9092
켠	9093
켡	9094
켢	9095
켣	9096
켤	9097
켥	9098
켦	9099
켧	9100
켨	9101
켩	9102
켪	9103
켫	9104
켬	9105
켭	9106
켮	9107
켯	9108
켰	9109
켱	9110
켲	9111
켳	9112
켴	9113
켵	9114
켶	9115
켷	9116
켸	9117
켹	9118
켺	9119
켻	9120
켼	9121
켽	9122
켾	9123
켿	9124
콀	9125
콁	9126
콂	9127
콃	9128
콄	9129
콅	9130
콆	9131
콇	9132
콈	9133
콉	9134
콊	9135
콋	9136
콌	9137
콍	9138
콎	9139
콏	9140
콐	9141
콑	9142
콒	9143
콓	9144
코	9145
콕	9146
콖	9147
콗	9148
콘	9149
콙	9150
콚	9151
콛	9152
콜	9153
콝	9154
콞	9155
콟	9156
콠	9157
콡	9158
콢	9159
콣	9160
콤	9161
콥	9162
콦	9163
콧	9164
콨	9165
콩	9166
콪	9167
콫	9168
콬	9169
콭	9170
콮	9171
콯	9172
콰	9173
콱	9174
콲	9175
콳	9176
콴	9177
콵	9178
콶	9179
콷	9180
콸	9181
콹	9182
콺	9183
콻	9184
콼	9185
콽	9186
콾	9187
콿	9188
쾀	9189
쾁	9190
쾂	9191
쾃	9192
쾄	9193
쾅	9194
쾆	9195
쾇	9196
쾈	9197
쾉	9198
쾊	9199
쾋	9200
쾌	9201
쾍	9202
쾎	9203
쾏	9204
쾐	9205
쾑	9206
쾒	9207
쾓	9208
쾔	9209
쾕	9210
쾖	9211
쾗	9212
쾘	9213
쾙	9214
쾚	9215
쾛	9216
쾜	9217
쾝	9218
쾞	9219
쾟	9220
쾠	9221
쾡	9222
쾢	9223
쾣	9224
쾤	9225
쾥	9226
쾦	9227
쾧	9228
쾨	9229
쾩	9230
쾪	9231
쾫	9232
쾬	9233
쾭	9234
쾮	9235
쾯	9236
쾰	9237
쾱	9238
쾲	9239
쾳	9240
쾴	9241
쾵	9242
쾶	9243
쾷	9244
쾸	9245
쾹	9246
쾺	9247
쾻	9248
쾼	9249
쾽	9250
쾾	9251
쾿	9252
쿀	9253
쿁	9254
쿂	9255
쿃	9256
쿄	9257
쿅	9258
쿆	9259
쿇	9260
쿈	9261
쿉	9262
쿊	9263
쿋	9264
쿌	9265
쿍	9266
쿎	9267
쿏	9268
쿐	9269
쿑	9270
쿒	9271
쿓	9272
쿔	9273
쿕	9274
쿖	9275
쿗	9276
쿘	9277
쿙	9278
쿚	9279
쿛	9280
쿜	9281
쿝	9282
쿞	9283
쿟	9284
쿠	9285
쿡	9286
쿢	9287
쿣	9288
쿤	9289
쿥	9290
쿦	9291
쿧	9292
쿨	9293
쿩	9294
쿪	9295
쿫	9296
쿬	9297
쿭	9298
쿮	9299
쿯	9300
쿰	9301
쿱	9302
쿲	9303
쿳	9304
쿴	9305
쿵	9306
쿶	9307
쿷	9308
쿸	9309
쿹	9310
쿺	9311
쿻	9312
쿼	9313
쿽	9314
쿾	9315
쿿	9316
퀀	9317
퀁	9318
퀂	9319
퀃	9320
퀄	9321
퀅	9322
퀆	9323
퀇	9324
퀈	9325
퀉	9326
퀊	9327
퀋	9328
퀌	9329
퀍	9330
퀎	9331
퀏	9332
퀐	9333
퀑	9334
퀒	9335
퀓	9336
퀔	9337
퀕	9338
퀖	9339
퀗	9340
퀘	9341
퀙	9342
퀚	9343
퀛	9344
퀜	9345
퀝	9346
퀞	9347
퀟	9348
퀠	9349
퀡	9350
퀢	9351
퀣	9352
퀤	9353
퀥	9354
퀦	9355
퀧	9356
퀨	9357
퀩	9358
퀪	9359
퀫	9360
퀬	9361
퀭	9362
퀮	9363
퀯	9364
퀰	9365
퀱	9366
퀲	9367
퀳	9368
퀴	9369
퀵	9370
퀶	9371
퀷	9372
퀸	9373
퀹	9374
퀺	9375
퀻	9376
퀼	9377
퀽	9378
퀾	9379
퀿	9380
큀	9381
큁	9382
큂	9383
큃	9384
큄	9385
큅	9386
큆	9387
큇	9388
큈	9389
큉	9390
큊	9391
큋	9392
큌	9393
큍	9394
큎	9395
큏	9396
큐	9397
큑	9398
큒	9399
큓	9400
큔	9401
큕	9402
큖	9403
큗	9404
큘	9405
큙	9406
큚	9407
큛	9408
큜	9409
큝	9410
큞	9411
큟	9412
큠	9413
큡	9414
큢	9415
큣	9416
큤	9417
큥	9418
큦	9419
큧	9420
큨	9421
큩	9422
큪	9423
큫	9424
크	9425
큭	9426
큮	9427
큯	9428
큰	9429
큱	9430
큲	9431
큳	9432
클	9433
큵	9434
큶	9435
큷	9436
큸	9437
큹	9438
큺	9439
큻	9440
큼	9441
큽	9442
큾	9443
큿	9444
킀	9445
킁	9446
킂	9447
킃	9448
킄	9449
킅	9450
킆	9451
킇	9452
킈	9453
킉	9454
킊	9455
킋	9456
킌	9457
킍	9458
킎	9459
킏	9460
킐	9461
킑	9462
킒	9463
킓	9464
킔	9465
킕	9466
킖	9467
킗	9468
킘	9469
킙	9470
킚	9471
킛	9472
킜	9473
킝	9474
킞	9475
킟	9476
킠	9477
킡	9478
킢	9479
킣	9480
키	9481
킥	9482
킦	9483
킧	9484
킨	9485
킩	9486
킪	9487
킫	9488
킬	9489
킭	9490
킮	9491
킯	9492
킰	9493
킱	9494
킲	9495
킳	9496
킴	9497
킵	9498
킶	9499
킷	9500
킸	9501
킹	9502
킺	9503
킻	9504
킼	9505
킽	9506
킾	9507
킿	9508
타	9509
탁	9510
탂	9511
탃	9512
탄	9513
탅	9514
탆	9515
탇	9516
탈	9517
탉	9518
탊	9519
탋	9520
탌	9521
탍	9522
탎	9523
탏	9524
탐	9525
탑	9526
탒	9527
탓	9528
탔	9529
탕	9530
탖	9531
탗	9532
탘	9533
탙	9534
탚	9535
탛	9536
태	9537
택	9538
탞	9539
탟	9540
탠	9541
탡	9542
탢	9543
탣	9544
탤	9545
탥	9546
탦	9547
탧	9548
탨	9549
탩	9550
탪	9551
탫	9552
탬	9553
탭	9554
탮	9555
탯	9556
탰	9557
탱	9558
탲	9559
탳	9560
탴	9561
탵	9562
탶	9563
탷	9564
탸	9565
탹	9566
탺	9567
탻	9568
탼	9569
탽	9570
탾	9571
탿	9572
턀	9573
턁	9574
턂	9575
턃	9576
턄	9577
턅	9578
턆	9579
턇	9580
턈	9581
턉	9582
턊	9583
턋	9584
턌	9585
턍	9586
턎	9587
턏	9588
턐	9589
턑	9590
턒	9591
턓	9592
턔	9593
턕	9594
턖	9595
턗	9596
턘	9597
턙	9598
턚	9599
턛	9600
턜	9601
턝	9602
턞	9603
턟	9604
턠	9605
턡	9606
턢	9607
턣	9608
턤	9609
턥	9610
턦	9611
턧	9612
턨	9613
턩	9614
턪	9615
턫	9616
턬	9617
턭	9618
턮	9619
턯	9620
터	9621
턱	9622
턲	9623
턳	9624
턴	9625
턵	9626
턶	9627
턷	9628
털	9629
턹	9630
턺	9631
턻	9632
턼	9633
턽	9634
턾	9635
턿	9636
텀	9637
텁	9638
텂	9639
텃	9640
텅	9641
텆	9642
텇	9643
텈	9644
텉	9645
텊	9646
텋	9647
테	9648
텍	9649
텎	9650
텏	9651
텐	9652
텑	9653
텒	9654
텓	9655
텔	9656
텕	9657
텖	9658
텗	9659
텘	9660
텙	9661
텚	9662
텛	9663
템	9664
텝	9665
텞	9666
텟	9667
텠	9668
텡	9669
텢	9670
텣	9671
텤	9672
텥	9673
텦	9674
텧	9675
텨	9676
텩	9677
텪	9678
텫	9679
텬	9680
텭	9681
텮	9682
텯	9683
텰	9684
텱	9685
텲	9686
텳	9687
텴	9688
텵	9689
텶	9690
텷	9691
텸	9692
텹	9693
텺	9694
텻	9695
텼	9696
텽	9697
텾	9698
텿	9699
톀	9700
톁	9701
톂	9702
톃	9703
톄	9704
톅	9705
톆	9706
톇	9707
톈	9708
톉	9709
톊	9710
톋	9711
톌	9712
톍	9713
톎	9714
톏	9715
톐	9716
톑	9717
톒	9718
톓	9719
톔	9720
톕	9721
톖	9722
톗	9723
톘	9724
톙	9725
톚	9726
톛	9727
톜	9728
톝	9729
톞	9730
톟	9731
토	9732
톡	9733
톢	9734
톣	9735
톤	9736
톥	9737
톦	9738
톧	9739
톨	9740
톩	9741
톪	9742
톫	9743
톬	9744
톭	9745
톮	9746
톯	9747
톰	9748
톱	9749
톲	9750
톳	9751
톴	9752
통	9753
톶	9754
톷	9755
톸	9756
톹	9757
톺	9758
톻	9759
톼	9760
톽	9761
톾	9762
톿	9763
퇀	9764
퇁	9765
퇂	9766
퇃	9767
퇄	9768
퇅	9769
퇆	9770
퇇	9771
퇈	9772
퇉	9773
퇊	9774
퇋	9775
퇌	9776
퇍	9777
퇎	9778
퇏	9779
퇐	9780
퇑	9781
퇒	9782
퇓	9783
퇔	9784
퇕	9785
퇖	9786
퇗	9787
퇘	9788
퇙	9789
퇚	9790
퇛	9791
퇜	9792
퇝	9793
퇞	9794
퇟	9795
퇠	9796
퇡	9797
퇢	9798
퇣	9799
퇤	9800
퇥	9801
퇦	9802
퇧	9803
퇨	9804
퇩	9805
퇪	9806
퇫	9807
퇬	9808
퇭	9809
퇮	9810
퇯	9811
퇰	9812
퇱	9813
퇲	9814
퇳	9815
퇴	9816
퇵	9817
퇶	9818
퇷	9819
퇸	9820
퇹	9821
퇺	9822
퇻	9823
퇼	9824
퇽	9825
퇾	9826
퇿	9827
툀	9828
툁	9829
툂	9830
툃	9831
툄	9832
툅	9833
툆	9834
툇	9835
툈	9836
툉	9837
툊	9838
툋	9839
툌	9840
툍	9841
툎	9842
툏	9843
툐	9844
툑	9845
툒	9846
툓	9847
툔	9848
툕	9849
툖	9850
툗	9851
툘	9852
툙	9853
툚	9854
툛	9855
툜	9856
툝	9857
툞	9858
툟	9859
툠	9860
툡	9861
툢	9862
툣	9863
툤	9864
툥	9865
툦	9866
툧	9867
툨	9868
툩	9869
툪	9870
툫	9871
투	9872
툭	9873
툮	9874
툯	9875
툰	9876
툱	9877
툲	9878
툳	9879
툴	9880
툵	9881
툶	9882
툷	9883
툸	9884
툹	9885
툺	9886
툻	9887
툼	9888
툽	9889
툾	9890
툿	9891
퉀	9892
퉁	9893
퉂	9894
퉃	9895
퉄	9896
퉅	9897
퉆	9898
퉇	9899
퉈	9900
퉉	9901
퉊	9902
퉋	9903
퉌	9904
퉍	9905
퉎	9906
퉏	9907
퉐	9908
퉑	9909
퉒	9910
퉓	9911
퉔	9912
퉕	9913
퉖	9914
퉗	9915
퉘	9916
퉙	9917
퉚	9918
퉛	9919
퉜	9920
퉝	9921
퉞	9922
퉟	9923
퉠	9924
퉡	9925
퉢	9926
퉣	9927
퉤	9928
퉥	9929
퉦	9930
퉧	9931
퉨	9932
퉩	9933
퉪	9934
퉫	9935
퉬	9936
퉭	9937
퉮	9938
퉯	9939
퉰	9940
퉱	9941
퉲	9942
퉳	9943
퉴	9944
퉵	9945
퉶	9946
퉷	9947
퉸	9948
퉹	9949
퉺	9950
퉻	9951
퉼	9952
퉽	9953
퉾	9954
퉿	9955
튀	9956
튁	9957
튂	9958
튃	9959
튄	9960
튅	9961
튆	9962
튇	9963
튈	9964
튉	9965
튊	9966
튋	9967
튌	9968
튍	9969
튎	9970
튏	9971
튐	9972
튑	9973
튒	9974
튓	9975
튔	9976
튕	9977
튖	9978
튗	9979
튘	9980
튙	9981
튚	9982
튛	9983
튜	9984
튝	9985
튞	9986
튟	9987
튠	9988
튡	9989
튢	9990
튣	9991
튤	9992
튥	9993
튦	9994
튧	9995
튨	9996
튩	9997
튪	9998
튫	9999
튬	10000
튭	10001
튮	10002
튯	10003
튰	10004
튱	10005
튲	10006
튳	10007
튴	10008
튵	10009
튶	10010
튷	10011
트	10012
특	10013
튺	10014
튻	10015
튼	10016
튽	10017
튾	10018
튿	10019
틀	10020
틁	10021
틂	10022
틃	10023
틄	10024
틅	10025
틆	10026
틇	10027
틈	10028
틉	10029
틊	10030
틋	10031
틌	10032
틍	10033
틎	10034
틏	10035
틐	10036
틑	10037
틒	10038
틓	10039
틔	10040
틕	10041
틖	10042
틗	10043
틘	10044
틙	10045
틚	10046
틛	10047
틜	10048
틝	10049
틞	10050
틟	10051
틠	10052
틡	10053
틢	10054
틣	10055
틤	10056
틥	10057
틦	10058
틧	10059
틨	10060
틩	10061
틪	10062
틫	10063
틬	10064
틭	10065
틮	10066
틯	10067
티	10068
틱	10069
틲	10070
틳	10071
틴	10072
틵	10073
틶	10074
틷	10075
틸	10076
틹	10077
틺	10078
틻	10079
틼	10080
틽	10081
틾	10082
틿	10083
팀	10084
팁	10085
팂	10086
팃	10087
팄	10088
팅	10089
팆	10090
팇	10091
팈	10092
팉	10093
팊	10094
팋	10095
파	10096
팍	10097
팎	10098
팏	10099
판	10100
팑	10101
팒	10102
팓	10103
팔	10104
팕	10105
팖	10106
팗	10107
팘	10108
팙	10109
팚	10110
팛	10111
팜	10112
팝	10113
팞	10114
팟	10115
팠	10116
팡	10117
팢	10118
팣	10119
팤	10120
팥	10121
팦	10122
팧	10123
패	10124
팩	10125
팪	10126
팫	10127
팬	10128
팭	10129
팮	10130
팯	10131
팰	10132
팱	10133
팲	10134
팳	10135
팴	10136
팵	10137
팶	10138
팷	10139
팸	10140
팹	10141
팺	10142
팻	10143
팽	10144
팾	10145
팿	10146
퍀	10147
퍁	10148
퍂	10149
퍃	10150
퍄	10151
퍅	10152
퍆	10153
퍇	10154
퍈	10155
퍉	10156
퍊	10157
퍋	10158
퍌	10159
퍍	10160
퍎	10161
퍏	10162
퍐	10163
퍑	10164
퍒	10165
퍓	10166
퍔	10167
퍕	10168
퍖	10169
퍗	10170
퍘	10171
퍙	10172
퍚	10173
퍛	10174
퍜	10175
퍝	10176
퍞	10177
퍟	10178
퍠	10179
퍡	10180
퍢	10181
퍣	10182
퍤	10183
퍥	10184
퍦	10185
퍧	10186
퍨	10187
퍩	10188
퍪	10189
퍫	10190
퍬	10191
퍭	10192
퍮	10193
퍯	10194
퍰	10195
퍱	10196
퍲	10197
퍳	10198
퍴	10199
퍵	10200
퍶	10201
퍷	10202
퍸	10203
퍹	10204
퍺	10205
퍻	10206
퍼	10207
퍽	10208
퍾	10209
퍿	10210
펀	10211
펁	10212
펂	10213
펃	10214
펄	10215
펅	10216
펆	10217
펇	10218
펈	10219
펉	10220
펊	10221
펋	10222
펌	10223
펍	10224
펎	10225
펏	10226
펐	10227
펑	10228
펒	10229
펓	10230
펔	10231
펕	10232
펖	10233
펗	10234
페	10235
펙	10236
펚	10237
펛	10238
펜	10239
펝	10240
펞	10241
펟	10242
펠	10243
펡	10244
펢	10245
펣	10246
펤	10247
펥	10248
펦	10249
펧	10250
펨	10251
펩	10252
펪	10253
펫	10254
펬	10255
펭	10256
펮	10257
펯	10258
펰	10259
펱	10260
펲	10261
펳	10262
펴	10263
펵	10264
펶	10265
펷	10266
편	10267
펹	10268
펺	10269
펻	10270
펼	10271
펽	10272
펾	10273
펿	10274
폀	10275
폁	10276
폂	10277
폃	10278
폄	10279
폅	10280
폆	10281
폇	10282
평	10283
폊	10284
폋	10285
폌	10286
폍	10287
폎	10288
폏	10289
폐	10290
폑	10291
폒	10292
폓	10293
폔	10294
폕	10295
폖	10296
폗	10297
폘	10298
폙	10299
폚	10300
폛	10301
폜	10302
폝	10303
폞	10304
폟	10305
폠	10306
폡	10307
폢	10308
폣	10309
폤	10310
폥	10311
폦	10312
폧	10313
폨	10314
폩	10315
폪	10316
폫	10317
포	10318
폭	10319
폮	10320
폯	10321
폰	10322
폱	10323
폲	10324
폳	10325
폴	10326
폵	10327
폶	10328
폷	10329
폸	10330
폹	10331
폺	10332
폻	10333
폼	10334
폽	10335
폾	10336
폿	10337
퐀	10338
퐁	10339
퐂	10340
퐃	10341
퐄	10342
퐅	10343
퐆	10344
퐇	10345
퐈	10346
퐉	10347
퐊	10348
퐋	10349
퐌	10350
퐍	10351
퐎	10352
퐏	10353
퐐	10354
퐑	10355
퐒	10356
퐓	10357
퐔	10358
퐕	10359
퐖	10360
퐗	10361
퐘	10362
퐙	10363
퐚	10364
퐛	10365
퐜	10366
퐝	10367
퐞	10368
퐟	10369
퐠	10370
퐡	10371
퐢	10372
퐣	10373
퐤	10374
퐥	10375
퐦	10376
퐧	10377
퐨	10378
퐩	10379
퐪	10380
퐫	10381
퐬	10382
퐭	10383
퐮	10384
퐯	10385
퐰	10386
퐱	10387
퐲	10388
퐳	10389
퐴	10390
퐵	10391
퐶	10392
퐷	10393
퐸	10394
퐹	10395
퐺	10396
퐻	10397
퐼	10398
퐽	10399
퐾	10400
퐿	10401
푀	10402
푁	10403
푂	10404
푃	10405
푄	10406
푅	10407
푆	10408
푇	10409
푈	10410
푉	10411
푊	10412
푋	10413
푌	10414
푍	10415
푎	10416
푏	10417
푐	10418
푑	10419
푒	10420
푓	10421
푔	10422
푕	10423
푖	10424
푗	10425
푘	10426
푙	10427
푚	10428
푛	10429
표	10430
푝	10431
푞	10432
푟	10433
푠	10434
푡	10435
푢	10436
푣	10437
푤	10438
푥	10439
푦	10440
푧	10441
푨	10442
푩	10443
푪	10444
푫	10445
푬	10446
푭	10447
푮	10448
푯	10449
푰	10450
푱	10451
푲	10452
푳	10453
푴	10454
푵	10455
푶	10456
푷	10457
푸	10458
푹	10459
푺	10460
푻	10461
푼	10462
푽	10463
푾	10464
푿	10465
풀	10466
풁	10467
풂	10468
풃	10469
풄	10470
풅	10471
풆	10472
풇	10473
품	10474
풉	10475
풊	10476
풋	10477
풌	10478
풍	10479
풎	10480
풏	10481
풐	10482
풑	10483
풒	10484
풓	10485
풔	10486
풕	10487
풖	10488
풗	10489
풘	10490
풙	10491
풚	10492
풛	10493
풜	10494
풝	10495
풞	10496
풟	10497
풠	10498
풡	10499
풢	10500
풣	10501
풤	10502
풥	10503
풦	10504
풧	10505
풨	10506
풩	10507
풪	10508
풫	10509
풬	10510
풭	10511
풮	10512
풯	10513
풰	10514
풱	10515
풲	10516
풳	10517
풴	10518
풵	10519
풶	10520
풷	10521
풸	10522
풹	10523
풺	10524
풻	10525
풼	10526
풽	10527
풾	10528
풿	10529
퓀	10530
퓁	10531
퓂	10532
퓃	10533
퓄	10534
퓅	10535
퓆	10536
퓇	10537
퓈	10538
퓉	10539
퓊	10540
퓋	10541
퓌	10542
퓍	10543
퓎	10544
퓏	10545
퓐	10546
퓑	10547
퓒	10548
퓓	10549
퓔	10550
퓕	10551
퓖	10552
퓗	10553
퓘	10554
퓙	10555
퓚	10556
퓛	10557
퓜	10558
퓝	10559
퓞	10560
퓟	10561
퓠	10562
퓡	10563
퓢	10564
퓣	10565
퓤	10566
퓥	10567
퓦	10568
퓧	10569
퓨	10570
퓩	10571
퓪	10572
퓫	10573
퓬	10574
퓭	10575
퓮	10576
퓯	10577
퓰	10578
퓱	10579
퓲	10580
퓳	10581
퓴	10582
퓵	10583
퓶	10584
퓷	10585
퓸	10586
퓹	10587
퓺	10588
퓻	10589
퓼	10590
퓽	10591
퓾	10592
퓿	10593
픀	10594
픁	10595
픂	10596
픃	10597
프	10598
픅	10599
픆	10600
픇	10601
픈	10602
픉	10603
픊	10604
픋	10605
플	10606
픍	10607
픎	10608
픏	10609
픐	10610
픑	10611
픒	10612
픓	10613
픔	10614
픕	10615
픖	10616
픗	10617
픘	10618
픙	10619
픚	10620
픛	10621
픜	10622
픝	10623
픞	10624
픟	10625
픠	10626
픡	10627
픢	10628
픣	10629
픤	10630
픥	10631
픦	10632
픧	10633
픨	10634
픩	10635
픪	10636
픫	10637
픬	10638
픭	10639
픮	10640
픯	10641
픰	10642
픱	10643
픲	10644
픳	10645
픴	10646
픵	10647
픶	10648
픷	10649
픸	10650
픹	10651
픺	10652
픻	10653
피	10654
픽	10655
픾	10656
픿	10657
핀	10658
핁	10659
핂	10660
핃	10661
필	10662
핅	10663
핆	10664
핇	10665
핈	10666
핉	10667
핊	10668
핋	10669
핌	10670
핍	10671
핎	10672
핏	10673
핐	10674
핑	10675
핒	10676
핓	10677
핔	10678
핕	10679
핖	10680
핗	10681
하	10682
학	10683
핚	10684
핛	10685
한	10686
핝	10687
핞	10688
핟	10689
할	10690
핡	10691
핢	10692
핣	10693
핤	10694
핥	10695
핦	10696
핧	10697
함	10698
합	10699
핪	10700
핫	10701
핬	10702
항	10703
핮	10704
핯	10705
핰	10706
핱	10707
핲	10708
핳	10709
해	10710
핵	10711
핶	10712
핷	10713
핸	10714
핹	10715
핺	10716
핻	10717
핼	10718
핽	10719
핾	10720
핿	10721
햀	10722
햁	10723
햂	10724
햃	10725
햄	10726
햅	10727
햆	10728
햇	10729
했	10730
행	10731
햊	10732
햋	10733
햌	10734
햍	10735
햎	10736
햏	10737
햐	10738
햑	10739
햒	10740
햓	10741
햔	10742
햕	10743
햖	10744
햗	10745
햘	10746
햙	10747
햚	10748
햛	10749
햜	10750
햝	10751
햞	10752
햟	10753
햠	10754
햡	10755
햢	10756
햣	10757
햤	10758
향	10759
햦	10760
햧	10761
햨	10762
햩	10763
햪	10764
햫	10765
햬	10766
햭	10767
햮	10768
햯	10769
햰	10770
햱	10771
햲	10772
햳	10773
햴	10774
햵	10775
햶	10776
햷	10777
햸	10778
햹	10779
햺	10780
햻	10781
햼	10782
햽	10783
햾	10784
햿	10785
헁	10786
헂	10787
헃	10788
헄	10789
헅	10790
헆	10791
헇	10792
허	10793
헉	10794
헊	10795
헋	10796
헌	10797
헍	10798
헎	10799
헏	10800
헐	10801
헑	10802
헒	10803
헓	10804
헔	10805
헕	10806
헖	10807
헗	10808
험	10809
헙	10810
헚	10811
헛	10812
헝	10813
헞	10814
헟	10815
헠	10816
헡	10817
헢	10818
헣	10819
헤	10820
헥	10821
헦	10822
헧	10823
헨	10824
헩	10825
헪	10826
헫	10827
헬	10828
헭	10829
헮	10830
헯	10831
헰	10832
헱	10833
헲	10834
헳	10835
헴	10836
헵	10837
헶	10838
헷	10839
헹	10840
헺	10841
헻	10842
헼	10843
헽	10844
헾	10845
헿	10846
혀	10847
혁	10848
혂	10849
혃	10850
현	10851
혅	10852
혆	10853
혇	10854
혈	10855
혉	10856
혊	10857
혋	10858
혌	10859
혍	10860
혎	10861
혏	10862
혐	10863
협	10864
혒	10865
혓	10866
혔	10867
형	10868
혖	10869
혗	10870
혘	10871
혙	10872
혚	10873
혛	10874
혜	10875
혝	10876
혞	10877
혟	10878
혠	10879
혡	10880
혢	10881
혣	10882
혤	10883
혥	10884
혦	10885
혧	10886
혨	10887
혩	10888
혪	10889
혫	10890
혬	10891
혭	10892
혮	10893
혯	10894
혰	10895
혱	10896
혲	10897
혳	10898
혴	10899
혵	10900
혶	10901
혷	10902
호	10903
혹	10904
혺	10905
혻	10906
혼	10907
혽	10908
혾	10909
혿	10910
홀	10911
홁	10912
홂	10913
홃	10914
홄	10915
홅	10916
홆	10917
홇	10918
홈	10919
홉	10920
홊	10921
홋	10922
홌	10923
홍	10924
홎	10925
홏	10926
홐	10927
홑	10928
홒	10929
홓	10930
화	10931
확	10932
홖	10933
홗	10934
환	10935
홙	10936
홚	10937
홛	10938
활	10939
홝	10940
홞	10941
홟	10942
홠	10943
홡	10944
홢	10945
홣	10946
홤	10947
홥	10948
홦	10949
홧	10950
홨	10951
황	10952
홪	10953
홫	10954
홬	10955
홭	10956
홮	10957
홯	10958
홰	10959
홱	10960
홲	10961
홳	10962
홴	10963
홵	10964
홶	10965
홷	10966
홸	10967
홹	10968
홺	10969
홻	10970
홼	10971
홽	10972
홾	10973
홿	10974
횀	10975
횁	10976
횂	10977
횃	10978
횄	10979
횅	10980
횆	10981
횇	10982
횈	10983
횉	10984
횊	10985
횋	10986
회	10987
획	10988
횎	10989
횏	10990
횐	10991
횑	10992
횒	10993
횓	10994
횔	10995
횕	10996
횖	10997
횗	10998
횘	10999
횙	11000
횚	11001
횛	11002
횜	11003
횝	11004
횞	11005
횟	11006
횠	11007
횡	11008
횢	11009
횣	11010
횤	11011
횥	11012
횦	11013
횧	11014
효	11015
횩	11016
횪	11017
횫	11018
횬	11019
횭	11020
횮	11021
횯	11022
횰	11023
횱	11024
횲	11025
횳	11026
횴	11027
횵	11028
횶	11029
횷	11030
횸	11031
횹	11032
횺	11033
횻	11034
횼	11035
횽	11036
횾	11037
횿	11038
훀	11039
훁	11040
훂	11041
훃	11042
후	11043
훅	11044
훆	11045
훇	11046
훈	11047
훉	11048
훊	11049
훋	11050
훌	11051
훍	11052
훎	11053
훏	11054
훐	11055
훑	11056
훒	11057
훓	11058
훔	11059
훕	11060
훖	11061
훗	11062
훘	11063
훙	11064
훚	11065
훛	11066
훜	11067
훝	11068
훞	11069
훟	11070
훠	11071
훡	11072
훢	11073
훣	11074
훤	11075
훥	11076
훦	11077
훧	11078
훨	11079
훩	11080
훪	11081
훫	11082
훬	11083
훭	11084
훮	11085
훯	11086
훰	11087
훱	11088
훲	11089
훳	11090
훴	11091
훵	11092
훶	11093
훷	11094
훸	11095
훹	11096
훺	11097
훻	11098
훼	11099
훽	11100
훾	11101
훿	11102
휀	11103
휁	11104
휂	11105
휃	11106
휄	11107
휅	11108
휆	11109
휇	11110
휈	11111
휉	11112
휊	11113
휋	11114
휌	11115
휍	11116
휎	11117
휏	11118
휐	11119
휑	11120
휒	11121
휓	11122
휔	11123
휕	11124
휖	11125
휗	11126
휘	11127
휙	11128
휚	11129
휛	11130
휜	11131
휝	11132
휞	11133
휟	11134
휠	11135
휡	11136
휢	11137
휣	11138
휤	11139
휥	11140
휦	11141
휧	11142
휨	11143
휩	11144
휪	11145
휫	11146
휬	11147
휭	11148
휮	11149
휯	11150
휰	11151
휱	11152
휲	11153
휳	11154
휴	11155
휵	11156
휶	11157
휷	11158
휸	11159
휹	11160
휺	11161
휻	11162
휼	11163
휽	11164
휾	11165
휿	11166
흀	11167
흁	11168
흂	11169
흃	11170
흄	11171
흅	11172
흆	11173
흇	11174
흈	11175
흉	11176
흊	11177
흋	11178
흌	11179
흍	11180
흎	11181
흏	11182
흐	11183
흑	11184
흒	11185
흓	11186
흔	11187
흕	11188
흖	11189
흗	11190
흘	11191
흙	11192
흚	11193
흛	11194
흜	11195
흝	11196
흞	11197
흟	11198
흠	11199
흡	11200
흢	11201
흣	11202
흤	11203
흥	11204
흦	11205
흧	11206
흨	11207
흩	11208
흪	11209
흫	11210
희	11211
흭	11212
흮	11213
흯	11214
흰	11215
흱	11216
흲	11217
흳	11218
흵	11219
흶	11220
흷	11221
흸	11222
흹	11223
흺	11224
흻	11225
흼	11226
흽	11227
흾	11228
흿	11229
힀	11230
힁	11231
힂	11232
힃	11233
힄	11234
힅	11235
힆	11236
힇	11237
히	11238
힉	11239
힊	11240
힋	11241
힌	11242
힍	11243
힎	11244
힏	11245
힐	11246
힑	11247
힒	11248
힓	11249
힔	11250
힕	11251
힖	11252
힗	11253
힘	11254
힙	11255
힚	11256
힛	11257
힜	11258
힝	11259
힞	11260
힟	11261
힠	11262
힡	11263
힢	11264
힣	11265
##수	11266
##완	11267
##흥	11268
##상	11269
##업	11270
##국	11271
##드	11272
##시	11273
##층	11274
##뷰	11275
##육	11276
##팔	11277
##면	11278
##체	11279
##어	11280
##불	11281
##과	11282
##화	11283
##운	11284
##동	11285
##서	11286
##접	11287
##후	11288
##소	11289
##속	11290
##구	11291
##단	11292
##비	11293
##에	11294
##로	11295
##공	11296
##정	11297
##지	11298
##천	11299
##티	11300
##착	11301
##용	11302
##여	11303
##부	11304
##성	11305
##조	11306
##무	11307
##사	11308
##바	11309
##카	11310
##및	11311
##등	11312
##교	11313
##재	11314
##금	11315
##대	11316
##도	11317
##미	11318
##크	11319
##라	11320
##하	11321
##계	11322
##올	11323
##림	11324
##픽	11325
##스	11326
##위	11327
##선	11328
##t	11329
##s	11330
##e	11331
##l	11332
##o	11333
##v	11334
##a	11335
##y	11336
##이	11337
##점	11338
##축	11339
##형	11340
##옷	11341
##연	11342
##발	11343
##p	11344
##g	11345
##m	11346
##i	11347
##n	11348
##울	11349
##제	11350
##만	11351
##페	11352
##벌	11353
##양	11354
##호	11355
##깨	11356
##쓰	11357
##쉬	11358
##프	11359
##렌	11360
##츠	11361
##군	11362
##J	11363
##O	11364
##U	11365
##원	11366
##일	11367
##애	11368
##숙	11369
##의	11370
##룡	11371
##레	11372
##머	11373
##들	11374
##랭	11375
##치	11376
##기	11377
##차	11378
##폐	11379
##자	11380
##리	11381
##급	11382
##뽀	11383
##히	11384
##병	11385
##팅	11386
##킬	11387
##경	11388
##가	11389
##데	11390
##해	11391
##관	11392
##3	11393
##2	11394
##9	11395
##8	11396
##뉴	11397
##질	11398
##랜	11399
##장	11400
##청	11401
##찰	11402
##산	11403
##왕	11404
##u	11405
##S	11406
##G	11407
##녕	11408
##f	11409
##w	11410
##포	11411
##는	11412
##d	11413
##r	11414
##너	11415
##야	11416
##x	11417
##식	11418
##마	11419
##법	11420
##작	11421
##글	11422
##브	11423
##심	11424
##반	11425
##생	11426
##쳐	11427
##폰	11428
##같	11429
##테	11430
##커	11431
##민	11432
##열	11433
##름	11434
##캔	11435
##령	11436
##M	11437
##q	11438
##z	11439
##디	11440
##컨	11441
##별	11442
##챔	11443
##피	11444
##언	11445
##벡	11446
##홀	11447
##갈	11448
##현	11449
##틀	11450
##블	11451
##랑	11452
##세	11453
##븐	11454
##란	11455
##회	11456
##색	11457
##르	11458
##문	11459
##합	11460
##방	11461
##잡	11462
##응	11463
##그	11464
##램	11465
##명	11466
##우	11467
##패	11468
##변	11469
##게	11470
##토	11471
##론	11472
##협	11473
##함	11474
##매	11475
##달	11476
##나	11477
##보	11478
##역	11479
##아	11480
##주	11481
##격	11482
##유	11483
##좀	11484
##석	11485
##확	11486
##인	11487
##은	11488
##행	11489
##풍	11490
##물	11491
##설	11492
##므	11493
##전	11494
##투	11495
##표	11496
##꿀	11497
##칸	11498
##트	11499
##룹	11500
##요	11501
##메	11502
##킹	11503
##폼	11504
##규	11505
##칙	11506
##깔	11507
##훈	11508
##력	11509
##값	11510
##향	11511
##개	11512
##때	11513
##다	11514
##핫	11515
##쵸	11516
##타	11517
##학	11518
##째	11519
##L	11520
##A	11521
##E	11522
##터	11523
##내	11524
##셔	11525
##널	11526
##충	11527
##증	11528
##콘	11529
##당	11530
##료	11531
##모	11532
##릴	11533
##베	11534
##즈	11535
##갑	11536
##파	11537
##통	11538
##절	11539
##걱	11540
##턱	11541
##직	11542
##탄	11543
##c	11544
##h	11545
##뢰	11546
##필	11547
##살	11548
##빔	11549
##컵	11550
##더	11551
##견	11552
##노	11553
##I	11554
##Y	11555
##괄	11556
##니	11557
##록	11558
##루	11559
##송	11560
##액	11561
##션	11562
##쿨	11563
##씨	11564
##0	11565
##1	11566
##간	11567
##광	11568
##닌	11569
##텐	11570
##헤	11571
##키	11572
##으	11573
##오	11574
##녀	11575
##논	11576
##탈	11577
##백	11578
##흔	11579
##섯	11580
##탐	11581
##k	11582
##딩	11583
##고	11584
##많	11585
##헨	11586
##환	11587
##킴	11588
##저	11589
##플	11590
##뱃	11591
##따	11592
##N	11593
##H	11594
##총	11595
##C	11596
##음	11597
##징	11598
##초	11599
##평	11600
##밀	11601
##중	11602
##결	11603
##악	11604
##봄	11605
##P	11606
##R	11607
##턴	11608
##셀	11609
##웨	11610
##뮤	11611
##칭	11612
##쯔	11613
##안	11614
##잠	11615
##}	11616
##룽	11617
##래	11618
##쪽	11619
##외	11620
##택	11621
##망	11622
##삼	11623
##폴	11624
##옥	11625
##맨	11626
##봉	11627
##분	11628
##앞	11629
##쿠	11630
##?	11631
##-	11632
##거	11633
##건	11634
##5	11635
##처	11636
##폭	11637
##창	11638
##임	11639
##혈	11640
##두	11641
##입	11642
##항	11643
##ㅣ	11644
##ㅈ	11645
##ㅔ	11646
##4	11647
##덕	11648
##숭	11649
##효	11650
##황	11651
##퍼	11652
##길	11653
##셉	11654
##V	11655
##날	11656
##손	11657
##칼	11658
##집	11659
##진	11660
##되	11661
##든	11662
##검	11663
##샵	11664
##신	11665
##ㅕ	11666
##ㄹ	11667
##뜨	11668
##닉	11669
##척	11670
##목	11671
##없	11672
##술	11673
##압	11674
##슈	11675
##린	11676
##느	11677
##판	11678
##십	11679
##채	11680
##센	11681
##태	11682
##러	11683
##텀	11684
##한	11685
##코	11686
##뤼	11687
##클	11688
##펠	11689
##족	11690
##잔	11691
##랙	11692
##친	11693
##벨	11694
##류	11695
##종	11696
##융	11697
##쉼	11698
##빙	11699
##난	11700
##각	11701
##실	11702
##톡	11703
##획	11704
##쿵	11705
##b	11706
##6	11707
##추	11708
##승	11709
##홍	11710
##담	11711
##T	11712
##F	11713
##K	11714
##둘	11715
##영	11716
##퀀	11717
##흐	11718
##예	11719
##갹	11720
##출	11721
##념	11722
##펀	11723
##람	11724
##뿔	11725
##슬	11726
##량	11727
##궁	11728
##템	11729
##품	11730
##섬	11731
##D	11732
##런	11733
##박	11734
##복	11735
##샘	11736
##촌	11737
##활	11738
##꽁	11739
##7	11740
##읍	11741
##혼	11742
##온	11743
##샌	11744
##퇴	11745
##철	11746
##딘	11747
##칫	11748
##것	11749
##존	11750
##네	11751
##강	11752
##와	11753
##델	11754
##흘	11755
##돈	11756
##쥐	11757
##퐁	11758
##톨	11759
##버	11760
##웹	11761
##툰	11762
##B	11763
##캉	11764
##댄	11765
##본	11766
##락	11767
##볼	11768
##듀	11769
##누	11770
##번	11771
##첩	11772
##남	11773
##련	11774
##Z	11775
##X	11776
##겁	11777
##희	11778
##끝	11779
##탁	11780
##암	11781
##젠	11782
##놀	11783
##엄	11784
##퀸	11785
##케	11786
##빨	11787
##적	11788
##편	11789
##춘	11790
##겔	11791
##덱	11792
##배	11793
##벽	11794
##렬	11795
##참	11796
##극	11797
##넷	11798
##탱	11799
##할	11800
##맹	11801
##펫	11802
##옛	11803
##첨	11804
##쇄	11805
##범	11806
##쇼	11807
##굴	11808
##염	11809
##덤	11810
##쿼	11811
##롤	11812
##감	11813
##틸	11814
##벤	11815
##져	11816
##틴	11817
##킨	11818
##앙	11819
##엘	11820
##립	11821
##농	11822
##춧	11823
##맞	11824
##곡	11825
##휘	11826
##를	11827
##률	11828
##링	11829
##괴	11830
##습	11831
##막	11832
##근	11833
##허	11834
##횟	11835
##익	11836
##권	11837
##알	11838
##을	11839
##닛	11840
##젼	11841
##균	11842
##측	11843
##멸	11844
##북	11845
##취	11846
##꾸	11847
##돗	11848
##ㅋ	11849
##벅	11850
##걸	11851
##먹	11852
##렴	11853
##잘	11854
##몽	11855
##김	11856
##윤	11857
##최	11858
##골	11859
##털	11860
##멜	11861
##엔	11862
##려	11863
##핑	11864
##객	11865
##끼	11866
##풀	11867
##능	11868
##옹	11869
##믹	11870
##슨	11871
##샤	11872
##흑	11873
##캐	11874
##팀	11875
##켜	11876
##뱅	11877
##월	11878
##탠	11879
##듈	11880
##럼	11881
##독	11882
##웃	11883
##묘	11884
##년	11885
##말	11886
##먼	11887
##큐	11888
##흠	11889
##좌	11890
##팝	11891
##콩	11892
##찬	11893
##던	11894
##욱	11895
##순	11896
##왜	11897
##앤	11898
##텔	11899
##핵	11900
##워	11901
##잊	11902
##렛	11903
##빠	11904
##빼	11905
##챠	11906
##딕	11907
##괘	11908
##준	11909
##혐	11910
##캠	11911
##솨	11912
##랫	11913
##롭	11914
##솜	11915
##W	11916
##푸	11917
##특	11918
##릉	11919
##약	11920
##돌	11921
##랄	11922
##듕	11923
##험	11924
##넛	11925
##궐	11926
##밖	11927
##녹	11928
##릿	11929
##튜	11930
##옳	11931
##둔	11932
##틱	11933
##밋	11934
##j	11935
##섭	11936
##왐	11937
##돼	11938
##억	11939
##즉	11940
##못	11941
##또	11942
##냥	11943
##짝	11944
##듬	11945
##둑	11946
##팩	11947
##셰	11948
##짜	11949
##앨	11950
##훙	11951
##탑	11952
##즌	11953
##례	11954
##뚱	11955
##멀	11956
##있	11957
##롬	11958
##쟁	11959
##웅	11960
##텝	11961
##겜	11962
##귀	11963
##냄	11964
##새	11965
##책	11966
##낭	11967
##뱀	11968
##얼	11969
##깎	11970
##탕	11971
##씹	11972
##쌔	11973
##떤	11974
##첼	11975
##펙	11976
##렐	11977
##딜	11978
##멧	11979
##숀	11980
##텍	11981
##짓	11982
##곽	11983
##셋	11984
##쩌	11985
##밥	11986
##겸	11987
##욕	11988
##룬	11989
##쿄	11990
##넬	11991
##겐	11992
##빛	11993
##줄	11994
##웰	11995
##윈	11996
##젯	11997
##펜	11998
##싱	11999
##솔	12000
##갤	12001
##럭	12002
##컬	12003
##킷	12004
##몰	12005
##륜	12006
##낳	12007
##헌	12008
##칵	12009
##찌	12010
##땡	12011
##쉰	12012
##붕	12013
##움	12014
##ㄼ	12015
##팟	12016
##럴	12017
##빌	12018
##룰	12019
##닝	12020
##몬	12021
##셈	12022
##늘	12023
##렉	12024
##떼	12025
##릭	12026
##썰	12027
##혁	12028
##맴	12029
##략	12030
##멍	12031
##뒤	12032
##맥	12033
##납	12034
##침	12035
##꽃	12036
##밍	12037
##꿩	12038
##뚝	12039
##멤	12040
##렙	12041
##ㅝ	12042
##ㄴ	12043
##륭	12044
##*	12045
##=	12046
##껍	12047
##댐	12048
##봇	12049
##잼	12050
##펌	12051
##왓	12052
##혜	12053
##혹	12054
##맺	12055
##뚜	12056
##뿌	12057
##돕	12058
##즘	12059
##옐	12060
##찍	12061
##넘	12062
##쉐	12063
##받	12064
##졸	12065
##빈	12066
##곤	12067
##갛	12068
##몸	12069
##빵	12070
##섞	12071
##컴	12072
##콜	12073
##씻	12074
##댓	12075
##른	12076
##팬	12077
##룩	12078
##밸	12079
##켄	12080
##늬	12081
##둥	12082
##뵷	12083
##짱	12084
##싸	12085
##붐	12086
##딱	12087
##칠	12088
##밝	12089
##쏘	12090
##츄	12091
##ㅊ	12092
##퀘	12093
##Q	12094
##펄	12095
###	12096
##엉	12097
##헬	12098
##ㅁ	12099
##앉	12100
##팡	12101
##첵	12102
##뛰	12103
##촬	12104
##랍	12105
##잉	12106
##똥	12107
##뿐	12108
##홈	12109
##랏	12110
##옆	12111
##콤	12112
##룸	12113
##님	12114
##쌓	12115
##윅	12116
##긔	12117
##숍	12118
##횡	12119
##썸	12120
##깃	12121
##얄	12122
##컷	12123
##쾅	12124
##숑	12125
##삐	12126
##눈	12127
##떡	12128
##휴	12129
##었	12130
##죄	12131
##까	12132
##캡	12133
##슐	12134
##밭	12135
##~	12136
##^	12137
##놈	12138
##퓨	12139
##랗	12140
##첸	12141
##럽	12142
##붙	12143
##굿	12144
##쌉	12145
##윕	12146
##팜	12147
##핀	12148
##켓	12149
##롱	12150
##콕	12151
##냉	12152
##죠	12153
##"	12154
##,	12155
##툴	12156
##촉	12157
##낮	12158
##큼	12159
##숯	12160
##핍	12161
##'	12162
##.	12163
##뜩	12164
##앵	12165
##홉	12166
##톤	12167
##땅	12168
##슘	12169
##낌	12170
##꼬	12171
##낫	12172
##씬	12173
##슛	12174
##뇌	12175
##펑	12176
##멋	12177
##멘	12178
##꼽	12179
##튼	12180
##젤	12181
##엠	12182
##혀	12183
##퀴	12184
##묵	12185
##윌	12186
##쇠	12187
##답	12188
##뽕	12189
##늑	12190
##튀	12191
##즙	12192
##슌	12193
##좋	12194
##팰	12195
##맛	12196
##윳	12197
##풋	12198
##힝	12199
##꼴	12200
##얀	12201
##랖	12202
##쥬	12203
##롯	12204
##쭉	12205
##죽	12206
##얗	12207
##ㅍ	12208
##툼	12209
##삽	12210
##둠	12211
##겹	12212
##된	12213
##륙	12214
##득	12215
##율	12216
##삭	12217
##렘	12218
##팽	12219
##퓰	12220
##뱉	12221
##맵	12222
##왑	12223
##힐	12224
##엥	12225
##밤	12226
##탓	12227
##햄	12228
##줌	12229
##짐	12230
##뽑	12231
##잇	12232
##몹	12233
##낙	12234
##랩	12235
##녘	12236
##쉘	12237
##늄	12238
##엌	12239
##ㅖ	12240
##ㄷ	12241
##젝	12242
##ㄱ	12243
##ㅅ	12244
##ㅇ	12245
##겟	12246
##톱	12247
##쿤	12248
##넌	12249
##쑤	12250
##덧	12251
##텅	12252
##쎄	12253
##잭	12254
##댁	12255
##꺼	12256
##앱	12257
##렁	12258
##핏	12259
##컹	12260
##햐	12261
##돔	12262
##<	12263
##엽	12264
##께	12265
##샷	12266
##궤	12267
##뭉	12268
##ㄲ	12269
##ㄸ	12270
##킵	12271
##슴	12272
##핸	12273
##뭐	12274
##꿈	12275
##쌈	12276
##꼭	12277
##캬	12278
##퀵	12279
##쿱	12280
##흡	12281
##넣	12282
##빡	12283
##웡	12284
##휠	12285
##뎀	12286
##뮬	12287
##띄	12288
##곧	12289
##핌	12290
##듣	12291
##셜	12292
##곶	12293
##옌	12294
##펭	12295
##귄	12296
##왁	12297
##닭	12298
##ㅂ	12299
##넨	12300
##뜸	12301
##며	12302
##`	12303
##븀	12304
##셴	12305
##좡	12306
##짤	12307
##닐	12308
##톰	12309
##겨	12310
##딧	12311
##톳	12312
##쩨	12313
##끄	12314
##즐	12315
##찡	12316
##쌀	12317
##긴	12318
##쟤	12319
##묭	12320
##쫄	12321
##곱	12322
##욋	12323
##엑	12324
##ㅒ	12325
##쌍	12326
##캇	12327
##뼈	12328
##톈	12329
##숲	12330
##맷	12331
##!	12332
##앰	12333
##ㅞ	12334
##ㅚ	12335
##ㅀ	12336
##ㅎ	12337
##얘	12338
##콥	12339
##쳉	12340
##춤	12341
##탤	12342
##쌩	12343
##웜	12344
##칩	12345
##띠	12346
##삶	12347
##륄	12348
##덩	12349
##넥	12350
##퉁	12351
##댑	12352
##덴	12353
##켈	12354
##윙	12355
##꽝	12356
##슭	12357
##좆	12358
##귤	12359
##뭇	12360
##웬	12361
##셤	12362
##벳	12363
##큰	12364
##ㅃ	12365
##뷔	12366
##캅	12367
##콧	12368
##볶	12369
##숨	12370
##뷴	12371
##꽉	12372
##뽝	12373
##봑	12374
##빗	12375
##껑	12376
##잣	12377
##둣	12378
##긋	12379
##쾌	12380
##눌	12381
##놔	12382
##벵	12383
##빅	12384
##곰	12385
##픔	12386
##캄	12387
##눗	12388
##냈	12389
##딴	12390
##펴	12391
##옮	12392
##덟	12393
##챌	12394
##쟈	12395
##밴	12396
##곳	12397
##딈	12398
##삿	12399
##괭	12400
##캣	12401
##샐	12402
##>	12403
##낚	12404
##롄	12405
##탭	12406
##썽	12407
##냠	12408
##찾	12409
##굽	12410
##넴	12411
##흙	12412
##갱	12413
##텁	12414
##:	12415
##앗	12416
##깡	12417
##텟	12418
##/	12419
##륀	12420
##싹	12421
##옵	12422
##끌	12423
##킁	12424
##닦	12425
##핥	12426
##쩍	12427
##웍	12428
##)	12429
##앳	12430
##닥	12431
##덫	12432
##ㅌ	12433
##얽	12434
##몌	12435
##앍	12436
##끈	12437
##좃	12438
##잎	12439
##갯	12440
##캘	12441
##짹	12442
##얏	12443
##힌	12444
##몇	12445
##벗	12446
##댕	12447
##훗	12448
##앆	12449
##덜	12450
##딸	12451
##솝	12452
##킥	12453
##짖	12454
##ㄻ	12455
##팸	12456
##섹	12457
##묶	12458
##씽	12459
##졍	12460
##팁	12461
##텡	12462
##윽	12463
##렷	12464
##곗	12465
##욘	12466
##@	12467
##돤	12468
##빤	12469
##썬	12470
##륵	12471
##깅	12472
##젓	12473
##휼	12474
##쟝	12475
##쉴	12476
##굵	12477
##첫	12478
##쉽	12479
##ㅏ	12480
##닷	12481
##쿡	12482
##갓	12483
##뎅	12484
##떨	12485
##벼	12486
##굳	12487
##탬	12488
##싯	12489
##ㄳ	12490
##뺌	12491
##쿰	12492
##몫	12493
##렵	12494
##눅	12495
##뻥	12496
##_	12497
##솟	12498
##궈	12499
##녠	12500
##쓸	12501
##힛	12502
##샴	12503
##푼	12504
##냘	12505
##룻	12506
##숫	12507
##셸	12508
##샨	12509
##힘	12510
##틔	12511
##뜰	12512
##냐	12513
##]	12514
##넓	12515
##덮	12516
##뵈	12517
##튬	12518
##멕	12519
##넉	12520
##끔	12521
##왼	12522
##퀼	12523
##릇	12524
##멩	12525
##헴	12526
##맘	12527
##땐	12528
##[	12529
##뇨	12530
##옙	12531
##숴	12532
##쾡	12533
##엇	12534
##$	12535
##&	12536
##%	12537
##깊	12538
##믈	12539
##붓	12540
##놋	12541
##엣	12542
##뷸	12543
##껌	12544
##녜	12545
##뒷	12546
##뭄	12547
##깍	12548
##콸	12549
##퍽	12550
##ㅐ	12551
##찻	12552
##뻘	12553
##겋	12554
##믐	12555
##짚	12556
##픈	12557
##럿	12558
##늪	12559
##뫼	12560
##쾨	12561
##넙	12562
##뎁	12563
##쥰	12564
##샬	12565
##ㅙ	12566
##긍	12567
##튠	12568
##{	12569
##쐐	12570
##듐	12571
##벚	12572
##ㅡ	12573
##섀	12574
##윗	12575
##+	12576
##륨	12577
##휙	12578
##쑥	12579
##쌤	12580
##겼	12581
##랴	12582
##삵	12583
##띔	12584
##;	12585
##높	12586
##꾼	12587
##닫	12588
##꺄	12589
##힙	12590
##셩	12591
##였	12592
##얌	12593
##폿	12594
##뎌	12595
##갠	12596
##낸	12597
##긱	12598
##싼	12599
##땃	12600
##ㄿ	12601
##꾹	12602
##녁	12603
##탯	12604
##뺑	12605
##헥	12606
##떠	12607
##멈	12608
##웩	12609
##뚫	12610
##벙	12611
##찮	12612
##엡	12613
##갸	12614
##솥	12615
##곁	12616
##옴	12617
##돋	12618
##믿	12619
##갔	12620
##\	12621
##맬	12622
##늙	12623
##뗀	12624
##쭈	12625
##쩔	12626
##찢	12627
##놓	12628
##샹	12629
##슝	12630
##챙	12631
##딥	12632
##뎬	12633
##흰	12634
##땀	12635
##싀	12636
##ㅠ	12637
##ㅑ	12638
##껄	12639
##썩	12640
##짊	12641
##덞	12642
##않	12643
##깐	12644
##땜	12645
##쁨	12646
##찜	12647
##끊	12648
##볍	12649
##깟	12650
##홑	12651
##ㄶ	12652
##짠	12653
##챗	12654
##뇽	12655
##ㄵ	12656
##ㅟ	12657
##낱	12658
##밈	12659
##퉤	12660
##ㅗ	12661
##밯	12662
##켕	12663
##츨	12664
##뤄	12665
##췌	12666
##콰	12667
##밧	12668
##쪼	12669
##켁	12670
##셍	12671
##깝	12672
##팻	12673
##폄	12674
##깥	12675
##ㅆ	12676
##씌	12677
##꺾	12678
##헉	12679
##왈	12680
##굼	12681
##젬	12682
##젖	12683
##쀼	12684
##켐	12685
##꿉	12686
##쯤	12687
##뻐	12688
##렸	12689
##솅	12690
##껏	12691
##췁	12692
##딪	12693
##볜	12694
##틈	12695
##웁	12696
##퀄	12697
##닼	12698
##릏	12699
##쩡	12700
##늦	12701
##컥	12702
##걷	12703
##릎	12704
##욜	12705
##촤	12706
##촥	12707
##셱	12708
##봅	12709
##냅	12710
##꿍	12711
##갭	12712
##뼛	12713
##츙	12714
##걀	12715
##밑	12716
##쏠	12717
##깽	12718
##ㅛ	12719
##큭	12720
##뻔	12721
##넵	12722
##샅	12723
##겉	12724
##듸	12725
##랠	12726
##훅	12727
##앓	12728
##텨	12729
##잽	12730
##ㄽ	12731
##했	12732
##쥴	12733
##푀	12734
##낄	12735
##뇬	12736
##훌	12737
##닙	12738
##듭	12739
##ㄺ	12740
##뉘	12741
##렇	12742
##쭐	12743
##묄	12744
##썹	12745
##뒨	12746
##돛	12747
##꽈	12748
##콱	12749
##쮸	12750
##렝	12751
##잰	12752
##믄	12753
##뻬	12754
##웸	12755
##펩	12756
##찝	12757
##뵤	12758
##뵹	12759
##쯩	12760
##햇	12761
##았	12762
##깁	12763
##쳄	12764
##딤	12765
##듄	12766
##ㅄ	12767
##듯	12768
##밟	12769
##넝	12770
##(	12771
##뻗	12772
##춥	12773
##ㅓ	12774
##삑	12775
##짢	12776
##홓	12777
##젭	12778
##써	12779
##뮐	12780
##헐	12781
##뀌	12782
##꺽	12783
##팥	12784
##핼	12785
##뢴	12786
##눕	12787
##훠	12788
##큅	12789
##꼼	12790
##헝	12791
##뜬	12792
##놉	12793
##탸	12794
##뜯	12795
##푹	12796
##늠	12797
##쉿	12798
##흣	12799
##팍	12800
##젱	12801
##훽	12802
##엿	12803
##좁	12804
##뮌	12805
##뺏	12806
##칰	12807
##헛	12808
##깜	12809
##훼	12810
##줍	12811
##끙	12812
##굉	12813
##흉	12814
##뎐	12815
##씀	12816
##갖	12817
##뺨	12818
##퓸	12819
##딛	12820
##낵	12821
##몃	12822
##꽂	12823
##띵	12824
##짧	12825
##ㅢ	12826
##ㅜ	12827
##촘	12828
##쪄	12829
##뽁	12830
##헹	12831
##죤	12832
##숄	12833
##겍	12834
##볕	12835
##싫	12836
##먐	12837
##맻	12838
##끗	12839
##잦	12840
##읗	12841
##쑈	12842
##뢸	12843
##챕	12844
##읏	12845
##쎼	12846
##붉	12847
##썅	12848
##긑	12849
##씸	12850
##쁘	12851
##섧	12852
##옭	12853
##떻	12854
##봐	12855
##뗏	12856
##삥	12857
##얻	12858
##쳔	12859
##넹	12860
##휫	12861
##뜻	12862
##뻑	12863
##얇	12864
##릅	12865
##츤	12866
##퓌	12867
##뮴	12868
##훤	12869
##컁	12870
##튐	12871
##껫	12872
##펍	12873
##찔	12874
##찹	12875
##텰	12876
##슷	12877
##뱁	12878
##꽥	12879
##끓	12880
##쩝	12881
##밌	12882
##툭	12883
##츈	12884
##퀑	12885
##똘	12886
##뇰	12887
##몐	12888
##셧	12889
##큔	12890
##꼰	12891
##ㅘ	12892
##ㄾ	12893
##겅	12894
##뒹	12895
##홋	12896
##웻	12897
##쥔	12898
##뺵	12899
##묻	12900
##윰	12901
##잃	12902
##숩	12903
##랬	12904
##뮨	12905
##낑	12906
##눔	12907
##콴	12908
##뿜	12909
##졌	12910
##큘	12911
##뚠	12912
##뿡	12913
##솁	12914
##훔	12915
##챈	12916
##잌	12917
##뽐	12918
##삒	12919
##쑹	12920
##쯧	12921
##쭛	12922
##춰	12923
##줘	12924
##짬	12925
##뼘	12926
##찐	12927
##띤	12928
##툐	12929
##멱	12930
##쳇	12931
##텹	12932
##괌	12933
##챦	12934
##쉏	12935
##옇	12936
##갰	12937
##얃	12938
##샛	12939
##갚	12940
##촛	12941
##컫	12942
##좍	12943
##묠	12944
##똑	12945
##뷁	12946
##뼉	12947
##닮	12948
##뿅	12949
##흇	12950
##싣	12951
##덥	12952
##쨍	12953
##냔	12954
##짙	12955
##뼝	12956
##씰	12957
##읽	12958
##튕	12959
##꿰	12960
##긁	12961
##뚤	12962
##쨩	12963
##숟	12964
##뽈	12965
##뷜	12966
##쟌	12967
##챤	12968
##젹	12969
##휩	12970
##쟉	12971
##겡	12972
##낏	12973
##솹	12974
##뎃	12975
##펼	12976
##샥	12977
##꽤	12978
##욤	12979
##뭍	12980
##벰	12981
##눼	12982
##쉔	12983
##쭀	12984
##났	12985
##떈	12986
##즛	12987
##슥	12988
##욧	12989
##샙	12990
##핡	12991
##챱	12992
##닿	12993
##싶	12994
##핳	12995
##맡	12996
##껨	12997
##쨋	12998
##퀠	12999
##줏	13000
##쥘	13001
##첬	13002
##읋	13003
##촐	13004
##꿔	13005
##솀	13006
##뇸	13007
##ㅉ	13008
##|	13009
##챳	13010
##횃	13011
##곬	13012
##쥠	13013
##떵	13014
##믜	13015
##캥	13016
##졀	13017
##숏	13018
##냇	13019
##빱	13020
##뷘	13021
##귈	13022
##빰	13023
##뉨	13024
##쓴	13025
##촨	13026
##귓	13027
##귁	13028
##읭	13029
##왠	13030
##잿	13031
##횔	13032
##쫑	13033
##텃	13034
##낪	13035
##잆	13036
##덦	13037
##빚	13038
##뵙	13039
##둡	13040
##켚	13041
##칽	13042
##쟛	13043
##낻	13044
##맑	13045
##뙤	13046
##섴	13047
##쉭	13048
##힣	13049
##녯	13050
##빕	13051
##엾	13052
##췐	13053
##됭	13054
##쌕	13055
##쏭	13056
##짭	13057
##킈	13058
##쁠	13059
##윔	13060
##얍	13061
##쏴	13062
##뜀	13063
##웽	13064
##퍝	13065
##쫓	13066
##겻	13067
##멬	13068
##햅	13069
##륌	13070
##둇	13071
##끽	13072
##걔	13073
##쳤	13074
##씩	13075
##큄	13076
##찟	13077
##팎	13078
##쬬	13079
##볘	13080
##겊	13081
##쏟	13082
##췩	13083
##춍	13084
##냑	13085
##갗	13086
##훨	13087
##땋	13088
##휵	13089
##뱌	13090
##뉸	13091
##챵	13092
##귿	13093
##뺼	13094
##돨	13095
##맙	13096
##왝	13097
##싕	13098
##왔	13099
##뫄	13100
##슉	13101
##겕	13102
##봤	13103
##낰	13104
##괜	13105
##끎	13106
##뺩	13107
##햣	13108
##햑	13109
##몆	13110
##섕	13111
##썻	13112
##곷	13113
##엎	13114
##챰	13115
##뀍	13116
##땠	13117
##좨	13118
##닢	13119
##왱	13120
##삯	13121
##퍄	13122
##녑	13123
##뿛	13124
##뛣	13125
##홣	13126
##꾫	13127
##뽄	13128
##촙	13129
##펨	13130
##뿍	13131
##섄	13132
##쳘	13133
##둏	13134
##켣	13135
##낼	13136
##셕	13137
##댈	13138
##쯋	13139
##훑	13140
##촹	13141
##휀	13142
##갬	13143
##쨉	13144
##옻	13145
##츀	13146
##쑝	13147
##붚	13148
##쌰	13149
##듥	13150
##뎊	13151
##힉	13152
##쭤	13153
##삘	13154
##쭝	13155
##뛔	13156
##뮈	13157
##앜	13158
##쇳	13159
##꼿	13160
##볏	13161
##즤	13162
##떄	13163
##뤽	13164
##룀	13165
##쳅	13166
##흩	13167
##꽹	13168
##맣	13169
##뤠	13170
##롸	13171
##눙	13172
##퀜	13173
##듶	13174
##쒸	13175
##횅	13176
##늅	13177
##홰	13178
##풉	13179
##얹	13180
##쎔	13181
##깻	13182
##혓	13183
##븝	13184
##붇	13185
##곀	13186
##왘	13187
##빽	13188
##탉	13189
##굇	13190
##뎡	13191
##긧	13192
##휭	13193
##괵	13194
##닻	13195
##잖	13196
##뗘	13197
##넋	13198
##쓱	13199
##붘	13200
##핻	13201
##팃	13202
##읔	13203
##엨	13204
##쓔	13205
##쒀	13206
##솽	13207
##먄	13208
##듳	13209
##븨	13210
##꿇	13211
##쩜	13212
##딨	13213
##앎	13214
##틋	13215
##툇	13216
##쨌	13217
##꼈	13218
##섐	13219
##튭	13220
##췄	13221
##쏵	13222
##뻣	13223
##랸	13224
##쫘	13225
##땍	13226
##츔	13227
##삜	13228
##늣	13229
##봫	13230
##밉	13231
##뒑	13232
##댱	13233
##묺	13234
##홥	13235
##붛	13236
##퐝	13237
##껚	13238
##떽	13239
##쏜	13240
##퐅	13241
##큥	13242
##퉈	13243
##띡	13244
##쒜	13245
##뎨	13246
##켬	13247
##쁴	13248
##뾰	13249
##턻	13250
##쑨	13251
##뗔	13252
##쩐	13253
##붏	13254
##눝	13255
##윷	13256
##섶	13257
##궃	13258
##댔	13259
##쫒	13260
##룔	13261
##꿘	13262
##풹	13263
##읫	13264
##뭣	13265
##끅	13266
##쭘	13267
##댜	13268
##훓	13269
##굶	13270
##꺘	13271
##낟	13272
##릐	13273
##캭	13274
##빋	13275
##쌋	13276
##즹	13277
##푯	13278
##숳	13279
##겪	13280
##칟	13281
##쿙	13282
##쾰	13283
##팹	13284
##엻	13285
##켰	13286
##툽	13287
##껴	13288
##깸	13289
##늉	13290
##헵	13291
##퓬	13292
##춉	13293
##씅	13294
##혔	13295
##빻	13296
##쫌	13297
##뜽	13298
##홝	13299
##줴	13300
##셒	13301
##슾	13302
##슁	13303
##섁	13304
##뛃	13305
##괧	13306
##쭵	13307
##낯	13308
##삣	13309
##돖	13310
##캆	13311
##왒	13312
##쮜	13313
##뼤	13314
##솰	13315
##쵤	13316
##뱔	13317
##뷫	13318
##믕	13319
##잫	13320
##됴	13321
##뿟	13322
##좔	13323
##뗑	13324
##얔	13325
##챃	13326
##둬	13327
##귡	13328
##긮	13329
##깑	13330
##뚧	13331
##튤	13332
##욿	13333
##먀	13334
##뽓	13335
##쁜	13336
##븟	13337
##왯	13338
##캰	13339
##퇼	13340
##흨	13341
##꾀	13342
##홧	13343
##쯱	13344
##뀨	13345
##슙	13346
##톄	13347
##겠	13348
##툠	13349
##욥	13350
##깄	13351
##헣	13352
##뺭	13353
##넒	13354
##욣	13355
##푱	13356
##쏙	13357
##걍	13358
##얭	13359
##쟐	13360
##뉼	13361
##퐐	13362
##쥭	13363
##붑	13364
##츰	13365
##읕	13366
##뒬	13367
##벜	13368
##잨	13369
##봬	13370
##끨	13371
##튽	13372
##읓	13373
##껸	13374
##닳	13375
##쌥	13376
##엮	13377
##헠	13378
##뾱	13379
##읅	13380
##켤	13381
##챨	13382
##슶	13383
##틊	13384
##쫙	13385
##쨘	13386
##믓	13387
##뺘	13388
##흫	13389
##쐬	13390
##휏	13391
##녔	13392
##쪘	13393
##쩠	13394
##훛	13395
##롹	13396
##읃	13397
##죨	13398
##읖	13399
##짼	13400
##칡	13401
##맏	13402
##딍	13403
##멓	13404
##죡	13405
##쬐	13406
##뤯	13407
##룱	13408
##즑	13409
##챡	13410
##앸	13411
##쫜	13412
##덛	13413
##좊	13414
##줆	13415
##굄	13416
##쫀	13417
##될	13418
##뀽	13419
##캑	13420
##킅	13421
##헷	13422
##묜	13423
##헑	13424
##긇	13425
##흟	13426
##꽐	13427
##컼	13428
##툵	13429
##짘	13430
##땨	13431
##폽	13432
##읎	13433
##얕	13434
##룳	13435
##휨	13436
##볫	13437
##쇤	13438
##빳	13439
##핰	13440
##곈	13441
##딫	13442
##밐	13443
##쿸	13444
##읊	13445
##뀩	13446
##픠	13447
##촵	13448
##츩	13449
##먕	13450
##킼	13451
##츼	13452
##긞	13453
##긏	13454
##긤	13455
##귺	13456
##릯	13457
##뀪	13458
##냣	13459
##흄	13460
##꿎	13461
##굥	13462
##픅	13463
##쏩	13464
##꺅	13465
##롼	13466
##삡	13467
##됨	13468
##뿝	13469
##쑴	13470
##닊	13471
##궭	13472
##뺙	13473
##됀	13474
##쏨	13475
##숌	13476
##늡	13477
##앟	13478
##뚬	13479
##븞	13480
##릾	13481
##듮	13482
##셣	13483
##먁	13484
##쌘	13485
##엒	13486
##쨔	13487
##좇	13488
##껠	13489
##훍	13490
##뚥	13491
##쎌	13492
##셥	13493
##쿈	13494
##긿	13495
##딮	13496
##켠	13497
##쯉	13498
##캌	13499
##쎠	13500
##꼐	13501
##꿏	13502
##횦	13503
##곯	13504
##픓	13505
##뚀	13506
##섣	13507
##돠	13508
##띰	13509
##륷	13510
##찷	13511
##돵	13512
##뺴	13513
##섰	13514
##텤	13515
##찧	13516
##헙	13517
##엳	13518
##귯	13519
##몯	13520
##픖	13521
##쵮	13522
##곲	13523
##읪	13524
##빖	13525
##젮	13526
##롮	13527
##좂	13528
##둉	13529
##젊	13530
##삧	13531
##슼	13532
##뚮	13533
##쐙	13534
##뽟	13535
##멎	13536
##옅	13537
##앝	13538
##틍	13539
##튈	13540
##쇽	13541
##줵	13542
##쳑	13543
##쳣	13544
##뺐	13545
##숱	13546
##퐈	13547
##릘	13548
##갇	13549
##땽	13550
##잍	13551
##퉅	13552
##듁	13553
##셨	13554
##줛	13555
##놗	13556
##괏	13557
##솫	13558
##뗛	13559
##몼	13560
##돇	13561
##돣	13562
##뢐	13563
##홳	13564
##잓	13565
##웫	13566
##룫	13567
##뺃	13568
##뗣	13569
##켸	13570
##횽	13571
##껰	13572
##믯	13573
##쫏	13574
##녈	13575
##뷉	13576
##솬	13577
##낡	13578
##쯸	13579
##촷	13580
##뗄	13581
##쁙	13582
##헿	13583
##궨	13584
##펔	13585
##젧	13586
##쎈	13587
##큠	13588
##됬	13589
##굠	13590
##슢	13591
##켑	13592
##뵐	13593
##튄	13594
##뜫	13595
##낀	13596
##뀻	13597
##햝	13598
##웋	13599
##햘	13600
##뭔	13601
##럐	13602
##쁌	13603
##솃	13604
##혠	13605
##웈	13606
##퍅	13607
##짇	13608
##쯥	13609
##뭭	13610
##뫟	13611
##졧	13612
##괂	13613
##읳	13614
##찓	13615
##벋	13616
##괼	13617
##뺀	13618
##뎍	13619
##쉥	13620
##랔	13621
##걲	13622
##옾	13623
##눞	13624
##귶	13625
##뙓	13626
##쉑	13627
##횢	13628
##큉	13629
##뺄	13630
##욹	13631
##뛟	13632
##쭊	13633
##좐	13634
##웠	13635
##큣	13636
##웉	13637
##좟	13638
##궖	13639
##궫	13640
##궋	13641
##튝	13642
##흓	13643
##튿	13644
##씁	13645
##솩	13646
##궉	13647
##젴	13648
##랒	13649
##뙈	13650
##팈	13651
##셷	13652
##튺	13653
##햟	13654
##쌜	13655
##곖	13656
##횞	13657
##삾	13658
##콦	13659
##밊	13660
##텬	13661
##떙	13662
##뉻	13663
##캢	13664
##욦	13665
##햏	13666
##붹	13667
##챘	13668
##즁	13669
##걋	13670
##뙳	13671
##홂	13672
##궂	13673
##샆	13674
##퇀	13675
##윾	13676
##퓻	13677
##닯	13678
##귪	13679
##궸	13680
##궼	13681
##쭙	13682
##됩	13683
##횬	13684
##똏	13685
##껀	13686
##깆	13687
##궬	13688
##뿗	13689
##욷	13690
##쯪	13691
##읒	13692
##칞	13693
##볈	13694
##뎧	13695
##뒝	13696
##긕	13697
##왹	13698
##묑	13699
##잋	13700
##벴	13701
##뱡	13702
##텽	13703
##앛	13704
##똔	13705
##삠	13706
##핤	13707
##띨	13708
##픗	13709
##츳	13710
##쾃	13711
##뭬	13712
##귬	13713
##푄	13714
##탒	13715
##굣	13716
##묀	13717
##믁	13718
##힠	13719
##뀐	13720
##퓐	13721
##쀳	13722
##욍	13723
##볓	13724
##죵	13725
##쐑	13726
##핟	13727
##벲	13728
##틉	13729
##츌	13730
##쎅	13731
##릊	13732
##퇗	13733
##싄	13734
##깬	13735
##삷	13736
##궝	13737
##듹	13738
##폘	13739
##뼥	13740
##뒈	13741
##꿋	13742
##뤀	13743
##꺢	13744
##갉	13745
##췃	13746
##곺	13747
##룅	13748
##봙	13749
##틷	13750
##쨈	13751
##훰	13752
##훵	13753
##왂	13754
##쨰	13755
##홁	13756
##죌	13757
##끕	13758
##쓩	13759
##뗶	13760
##뗵	13761
##뽜	13762
##놨	13763
##젋	13764
##홐	13765
##큮	13766
##볐	13767
##쌐	13768
##겆	13769
##둴	13770
##슆	13771
##녓	13772
##댠	13773
##톼	13774
##욀	13775
##쥥	13776
##깈	13777
##슽	13778
##탼	13779
##쥽	13780
##죈	13781
##겄	13782
##쭁	13783
##푝	13784
##윘	13785
##눤	13786
##뤕	13787
##돝	13788
##횻	13789
##왷	13790
##쫍	13791
##쪙	13792
##벞	13793
##겿	13794
##뀰	13795
##믌	13796
##흗	13797
##듦	13798
##퐳	13799
##똬	13800
##겯	13801
##퇘	13802
##쨥	13803
##둗	13804
##깤	13805
##돫	13806
##웗	13807
##꽯	13808
##랋	13809
##횸	13810
##젔	13811
##웳	13812
##졔	13813
##륑	13814
##댧	13815
##댯	13816
##롈	13817
##냬	13818
##엊	13819
##꺙	13820
##섥	13821
##랃	13822
##헯	13823
##쩅	13824
##쀏	13825
##뽂	13826
##냫	13827
##룝	13828
##뷓	13829
##먳	13830
##뮻	13831
##뭋	13832
##귕	13833
##떅	13834
##덿	13835
##젏	13836
##폵	13837
##숧	13838
##쬲	13839
##꾿	13840
##쥿	13841
##웆	13842
##꽌	13843
##졷	13844
##쏚	13845
##떳	13846
##엪	13847
##뢍	13848
##뚞	13849
##숡	13850
##몊	13851
##눟	13852
##핧	13853
##쿳	13854
##넸	13855
##줭	13856
##댸	13857
##맠	13858
##볌	13859
##놏	13860
##싴	13861
##헼	13862
##녤	13863
##옘	13864
##뼬	13865
##쁅	13866
##뺡	13867
##뗡	13868
##맆	13869
##큪	13870
##핔	13871
##냌	13872
##닑	13873
##퉷	13874
##콬	13875
##찣	13876
##뉜	13877
##놘	13878
##롑	13879
##롇	13880
##뫃	13881
##뚷	13882
##뭏	13883
##붖	13884
##랼	13885
##벐	13886
##콣	13887
##륍	13888
##럯	13889
##잩	13890
##믱	13891
##컄	13892
##챸	13893
##탘	13894
##뢱	13895
##훟	13896
##볽	13897
##옿	13898
##뾸	13899
##떰	13900
##됐	13901
##뵘	13902
##풑	13903
##벱	13904
##헔	13905
##삔	13906
##졉	13907
##끠	13908
##밣	13909
##밇	13910
##늧	13911
##봊	13912
##뾲	13913
##혬	13914
##쟣	13915
##뉵	13916
##쫭	13917
##뻡	13918
##쏼	13919
##뿎	13920
##봡	13921
##됸	13922
##돩	13923
##뒫	13924
##뒓	13925
##뚯	13926
##탙	13927
##얅	13928
##닽	13929
##몀	13930
##퍙	13931
##윱	13932
##쥑	13933
##쯕	13934
##툿	13935
##꼳	13936
##욺	13937
##뜜	13938
##퓔	13939
##뭅	13940
##뎜	13941
##꿝	13942
##엷	13943
##룟	13944
##잴	13945
##멥	13946
##꾜	13947
##닜	13948
##풱	13949
##맇	13950
##뚸	13951
##솎	13952
##뻉	13953
##뜐	13954
##팣	13955
##윿	13956
##엓	13957
##띱	13958
##꺆	13959
##괆	13960
##곂	13961
##씍	13962
##륶	13963
##몄	13964
##긶	13965
##싐	13966
##뗻	13967
##빧	13968
##띧	13969
##쫣	13970
##똵	13971
##뽧	13972
##꽑	13973
##뽭	13974
##쉡	13975
##폕	13976
##잏	13977
##챞	13978
##툉	13979
##귱	13980
##꺌	13981
##큽	13982
##싮	13983
##밦	13984
##쿜	13985
##엙	13986
##낲	13987
##쁟	13988
##짗	13989
##엗	13990
##혯	13991
##얺	13992
##풔	13993
##넡	13994
##뒿	13995
##랐	13996
##띙	13997
##칯	13998
##롣	13999
##꽇	14000
##뎔	14001
##휗	14002
##퓽	14003
##끍	14004
##붸	14005
##쨕	14006
##픳	14007
##훕	14008
##엤	14009
##큇	14010
##뫙	14011
##샄	14012
##둍	14013
##튮	14014
##벖	14015
##엏	14016
##뼜	14017
##헱	14018
##롻	14019
##큿	14020
##끜	14021
##킦	14022
##끾	14023
##쥉	14024
##숕	14025
##묏	14026
##삮	14027
##좸	14028
##힡	14029
##캎	14030
##챝	14031
##힗	14032
##퉹	14033
##잙	14034
##얖	14035
##뤩	14036
##넠	14037
##멦	14038
##꼉	14039
##썷	14040
##맓	14041
##싧	14042
##댋	14043
##핿	14044
##줊	14045
##셟	14046
##갊	14047
##핣	14048
##닚	14049
##닧	14050
##렫	14051
##샻	14052
##쩟	14053
##콫	14054
##뮺	14055
##썼	14056
##돚	14057
##쭌	14058
##딯	14059
##휑	14060
##빩	14061
##짞	14062
##읶	14063
##츺	14064
##쯰	14065
##꾁	14066
##뛩	14067
##떫	14068
##꼍	14069
##쵹	14070
##낛	14071
##썝	14072
##뿉	14073
##딺	14074
##핚	14075
##쬰	14076
##딲	14077
##뇩	14078
##쳰	14079
##팉	14080
##넽	14081
##괳	14082
##펐	14083
##줬	14084
##궶	14085
##궻	14086
##랤	14087
##궢	14088
##븅	14089
##쩧	14090
##뱐	14091
##쀠	14092
##덭	14093
##뷀	14094
##깩	14095
##꺕	14096
##곻	14097
##퉱	14098
##휽	14099
##깣	14100
##씤	14101
##돐	14102
##쒕	14103
##췅	14104
##꽦	14105
##맗	14106
##롓	14107
##뀫	14108
##룐	14109
##빎	14110
##앚	14111
##웟	14112
##젂	14113
##쥩	14114
##귖	14115
##궺	14116
##긲	14117
##깒	14118
##깛	14119
##긛	14120
##튱	14121
##퇵	14122
##뭘	14123
##돜	14124
##뒥	14125
##탇	14126
##굛	14127
##댦	14128
##렡	14129
##듟	14130
##츹	14131
##랣	14132
##땗	14133
##꽊	14134
##밗	14135
##쭨	14136
##죔	14137
##뺚	14138
##큾	14139
##텂	14140
##쳡	14141
##븓	14142
##촾	14143
##랕	14144
##싁	14145
##쵼	14146
##쫩	14147
##늰	14148
##뒁	14149
##슻	14150
##	14151
##엫	14152
##쵠	14153
##팂	14154
##푠	14155
##돓	14156
##뎋	14157
##쟙	14158
##엃	14159
##헗	14160
##뫀	14161
##뜝	14162
##푴	14163
##얶	14164
##쉟	14165
##렣	14166
##컭	14167
##닾	14168
##툑	14169
##긷	14170
##쁑	14171
##꿱	14172
##풮	14173
##닺	14174
##옺	14175
##렞	14176
##돿	14177
##촡	14178
##멨	14179
##쬴	14180
##됼	14181
##굑	14182
##졈	14183
##캤	14184
##벍	14185
##뱨	14186
##쏫	14187
##뫞	14188
##뿷	14189
##땞	14190
##밪	14191
##뒗	14192
##렜	14193
##됵	14194
##롊	14195
##퓩	14196
##싰	14197
##뇻	14198
##뇾	14199
##얜	14200
##쏀	14201
##맢	14202
##샠	14203
##췍	14204
##뤨	14205
##쮹	14206
##붝	14207
##뎻	14208
##줜	14209
##쥣	14210
##썀	14211
##섈	14212
##찿	14213
##쀽	14214
##뵥	14215
##탵	14216
##춋	14217
##덯	14218
##쪨	14219
##듫	14220
##뜳	14221
##릣	14222
##갋	14223
##븰	14224
##뿀	14225
##솧	14226
##핲	14227
##붴	14228
##롷	14229
##롫	14230
##줓	14231
##끤	14232
##탔	14233
##둅	14234
##톻	14235
##썄	14236
##맫	14237
##픋	14238
##폔	14239
##렀	14240
##뿁	14241
##닏	14242
##뎂	14243
##닶	14244
##췻	14245
##뤂	14246
##훳	14247
##끵	14248
##뙇	14249
##삗	14250
##꼇	14251
##벓	14252
##꼮	14253
##쑼	14254
##픨	14255
##땛	14256
##땁	14257
##팠	14258
##윻	14259
##슳	14260
##뷇	14261
##꺠	14262
##휜	14263
##둩	14264
##섟	14265
##읷	14266
##덗	14267
##펏	14268
##괸	14269
##늴	14270
##홱	14271
##겴	14272
##됫	14273
##똟	14274
##졬	14275
##숎	14276
##둙	14277
##벫	14278
##꿨	14279
##웤	14280
##뿨	14281
##멉	14282
##땔	14283
##븍	14284
##퓍	14285
##킄	14286
##쌱	14287
##쁐	14288
##꺵	14289
##쳬	14290
##뤙	14291
##퐄	14292
##푈	14293
##밻	14294
##샒	14295
##걕	14296
##윹	14297
##뤵	14298
##싟	14299
##좹	14300
##왧	14301
##뷃	14302
##찎	14303
##힁	14304
##둈	14305
##뾘	14306
##죰	14307
##먗	14308
##흧	14309
##칣	14310
##쁶	14311
##냙	14312
##뱍	14313
##쟘	14314
##쒹	14315
##랆	14316
##쬽	14317
##죳	14318
##쵁	14319
##쿶	14320
##놰	14321
##뫌	14322
##떱	14323
##뻴	14324
##쑁	14325
##탹	14326
##껙	14327
##샢	14328
##돘	14329
##냏	14330
##꾱	14331
##왇	14332
##뤌	14333
##왉	14334
##췽	14335
##얐	14336
##뢔	14337
##뿓	14338
##짒	14339
##씉	14340
##쩬	14341
##췬	14342
##웝	14343
##묽	14344
##쎃	14345
##풒	14346
##쳌	14347
##흿	14348
##늿	14349
##뫅	14350
##폯	14351
##쪠	14352
##퇸	14353
##졋	14354
##뛸	14355
##뜷	14356
##뙗	14357
##퀙	14358
##훜	14359
##씃	14360
##콻	14361
##곪	14362
##춈	14363
##붱	14364
##뺅	14365
##뮹	14366
##륽	14367
##뜵	14368
##맄	14369
##옠	14370
##픤	14371
##쉠	14372
##쬷	14373
##홅	14374
##쌻	14375
##풇	14376
##졎	14377
##쬭	14378
##랰	14379
##뗠	14380
##껒	14381
##먏	14382
##춸	14383
##럇	14384
##댬	14385
##벩	14386
##펡	14387
##횩	14388
##쑜	14389
##얒	14390
##셭	14391
##놑	14392
##룍	14393
##죗	14394
##롁	14395
##몔	14396
##귝	14397
##뻤	14398
##톹	14399
##퐆	14400
##띾	14401
##굘	14402
##핱	14403
##뽱	14404
##뼸	14405
##쇅	14406
##컿	14407
##킳	14408
##룺	14409
##땝	14410
##뇓	14411
##췰	14412
##밬	14413
##푷	14414
##퍗	14415
##춱	14416
##썪	14417
##깏	14418
##듧	14419
##샇	14420
##벧	14421
##똠	14422
##퀌	14423
##돡	14424
##귐	14425
##븃	14426
##혻	14427
##뀜	14428
##냟	14429
##꺐	14430
##툥	14431
##얫	14432
##늏	14433
##훁	14434
##릵	14435
##갷	14436
##쑊	14437
##뿮	14438
##뱦	14439
##겧	14440
##싈	14441
##췛	14442
##늕	14443
##쭓	14444
##끆	14445
##쮝	14446
##땩	14447
에서	14448
으로	14449
ᆫ다	14450
20	14451
지만	14452
에게	14453
201	14454
는데	14455
19	14456
까지	14457
아서	14458
때문	14459
##00	14460
아니	14461
라고	14462
라는	14463
다고	14464
나오	14465
으며	14466
면서	14467
보이	14468
10	14469
경우	14470
어서	14471
사용	14472
다는	14473
##레이	14474
이후	14475
자신	14476
그리	14477
공격	14478
사람	14479
위하	14480
##스트	14481
대하	14482
부터	14483
정도	14484
시키	14485
가능	14486
다른	14487
보다	14488
이나	14489
12	14490
못하	14491
으나	14492
200	14493
등장	14494
는다	14495
11	14496
그리고	14497
##어지	14498
그러	14499
버리	14500
아이	14501
..	14502
ㄴ다	14503
가지	14504
다가	14505
만들	14506
경기	14507
##er	14508
하나	14509
사실	14510
게임	14511
시작	14512
일본	14513
##니다	14514
모습	14515
이름	14516
함께	14517
한국	14518
##지만	14519
따르	14520
##스터	14521
사이	14522
상대	14523
##어나	14524
15	14525
거나	14526
이상	14527
##in	14528
으면	14529
하지만	14530
문제	14531
생각	14532
다시	14533
또한	14534
시간	14535
아야	14536
프로	14537
가장	14538
##학교	14539
들어	14540
##대로	14541
##라이	14542
당시	14543
캐릭	14544
처럼	14545
18	14546
당하	14547
ᆫ데	14548
##on	14549
캐릭터	14550
모두	14551
아도	14552
ᆫ지	14553
그렇	14554
시즌	14555
플레이	14556
상황	14557
모든	14558
##이트	14559
결국	14560
추가	14561
##an	14562
16	14563
##미지	14564
##or	14565
현재	14566
상태	14567
다만	14568
많이	14569
통하	14570
30	14571
그러나	14572
스킬	14573
다음	14574
##리아	14575
존재	14576
전투	14577
13	14578
미국	14579
능력	14580
여기	14581
카드	14582
14	14583
199	14584
##리즈	14585
세계	14586
ᆫ다는	14587
매우	14588
선수	14589
효과	14590
##ar	14591
17	14592
그런	14593
상당	14594
달리	14595
##he	14596
##거리	14597
##리스	14598
##at	14599
인하	14600
지역	14601
다면	14602
ᄇ니다	14603
물론	14604
이용	14605
##이스	14606
의하	14607
처음	14608
기록	14609
이유	14610
레벨	14611
100	14612
이것	14613
이런	14614
필요	14615
실제	14616
자체	14617
시리즈	14618
여러	14619
부르	14620
25	14621
해당	14622
일반	14623
들어가	14624
같이	14625
라이	14626
어야	14627
돌아	14628
모르	14629
##부분	14630
역시	14631
주인	14632
거의	14633
##이지	14634
기술	14635
바로	14636
##en	14637
마법	14638
특히	14639
영화	14640
2017	14641
무기	14642
기본	14643
이야	14644
ᆫ다고	14645
다르	14646
관련	14647
##ou	14648
아무	14649
그래	14650
2018	14651
진행	14652
방송	14653
##시아	14654
는지	14655
이야기	14656
##지막	14657
스타	14658
나가	14659
피해	14660
위치	14661
방어	14662
제작	14663
부분	14664
사건	14665
##가지	14666
대부분	14667
##al	14668
작품	14669
레이	14670
알리	14671
마지막	14672
증가	14673
본인	14674
2019	14675
일부	14676
계속	14677
인간	14678
자기	14679
지나	14680
21	14681
떨어지	14682
##es	14683
라면	14684
서울	14685
만큼	14686
ᆫ가	14687
2016	14688
국가	14689
올리	14690
50	14691
참고	14692
주인공	14693
내용	14694
활동	14695
##전히	14696
우리	14697
어도	14698
그냥	14699
중국	14700
이전	14701
비슷	14702
어느	14703
으니	14704
생기	14705
지금	14706
비하	14707
강하	14708
대신	14709
22	14710
성공	14711
##토리	14712
만나	14713
수준	14714
타이	14715
밝히	14716
습니다	14717
이루	14718
감독	14719
도록	14720
그녀	14721
198	14722
상당히	14723
24	14724
대한	14725
올라	14726
##민국	14727
최대	14728
마다	14729
대표	14730
이동	14731
없이	14732
기준	14733
공격력	14734
너무	14735
##it	14736
므로	14737
배우	14738
제외	14739
##버지	14740
빠르	14741
인물	14742
죽이	14743
의미	14744
그대로	14745
나타	14746
리그	14747
결과	14748
실제로	14749
##라지	14750
로서	14751
직접	14752
2015	14753
##랜드	14754
23	14755
대한민국	14756
어렵	14757
소속	14758
원래	14759
전체	14760
##부터	14761
이미	14762
평가	14763
승리	14764
보내	14765
그것	14766
언급	14767
체력	14768
동안	14769
대로	14770
##ing	14771
애니	14772
##st	14773
전쟁	14774
##le	14775
시절	14776
##이드	14777
자리	14778
##ic	14779
관계	14780
40	14781
싸우	14782
마음	14783
설정	14784
도시	14785
##다가	14786
##re	14787
멤버	14788
과거	14789
영상	14790
##메이	14791
##주의	14792
유저	14793
##운드	14794
지원	14795
데미지	14796
선택	14797
문서	14798
유닛	14799
발매	14800
ᆫ다면	14801
포함	14802
몬스터	14803
##dd	14804
끝나	14805
여자	14806
불리	14807
성우	14808
개발	14809
엄청	14810
힘들	14811
설명	14812
##등학교	14813
방법	14814
출연	14815
머리	14816
바뀌	14817
플레이어	14818
아버지	14819
최고	14820
연구	14821
보스	14822
우승	14823
차이	14824
이러	14825
기사	14826
##우스	14827
유명	14828
여성	14829
스럽	14830
공식	14831
2014	14832
다니	14833
장면	14834
##없이	14835
속도	14836
사망	14837
영향	14838
이렇	14839
려고	14840
메이	14841
발생	14842
이때	14843
조금	14844
사랑	14845
프랑	14846
26	14847
##ff	14848
000	14849
주장	14850
일어나	14851
주로	14852
남자	14853
28	14854
##스타	14855
인터	14856
전부	14857
##el	14858
아이템	14859
27	14860
초반	14861
출신	14862
##리어	14863
##am	14864
제대로	14865
운영	14866
동시	14867
##머니	14868
빠지	14869
31	14870
##라도	14871
결정	14872
아직	14873
중요	14874
자주	14875
프리	14876
나타나	14877
오르	14878
the	14879
##벤트	14880
걸리	14881
정보	14882
공개	14883
서로	14884
또는	14885
버전	14886
최종	14887
새롭	14888
강화	14889
친구	14890
대상	14891
독일	14892
학교	14893
##이도	14894
구성	14895
##아가	14896
학생	14897
유지	14898
최초	14899
##om	14900
강력	14901
소리	14902
##프트	14903
역할	14904
##버스	14905
파괴	14906
노래	14907
사회	14908
이벤트	14909
정말	14910
역사	14911
누구	14912
그런데	14913
마이	14914
기존	14915
쓰이	14916
스토리	14917
영국	14918
비교	14919
마찬	14920
마찬가지	14921
라도	14922
느끼	14923
##la	14924
형태	14925
어떤	14926
바람	14927
당연	14928
소환	14929
엄청나	14930
##is	14931
후반	14932
인기	14933
보통	14934
회복	14935
변경	14936
이기	14937
대사	14938
2013	14939
오히	14940
바꾸	14941
조선	14942
특성	14943
정신	14944
슈퍼	14945
오히려	14946
##시간	14947
거리	14948
파이	14949
어떻	14950
방식	14951
정치	14952
가깝	14953
197	14954
드래	14955
월드	14956
음악	14957
이번	14958
발견	14959
29	14960
##너지	14961
사라지	14962
드라	14963
아래	14964
스테	14965
##나라	14966
게다가	14967
32	14968
아들	14969
##동안	14970
이제	14971
나이	14972
자유	14973
##et	14974
00	14975
성능	14976
프랑스	14977
행동	14978
특수	14979
확률	14980
성격	14981
유일	14982
활약	14983
##ol	14984
다이	14985
마리	14986
2012	14987
일단	14988
모양	14989
##ion	14990
##지어	14991
확인	14992
아예	14993
시스	14994
구하	14995
##레이드	14996
##레스	14997
따라	14998
이렇게	14999
수록	15000
부족	15001
차지	15002
정부	15003
##디오	15004
입장	15005
노선	15006
맞추	15007
내리	15008
스트	15009
##소리	15010
돌아오	15011
심지어	15012
주변	15013
##로스	15014
모드	15015
먼저	15016
영웅	15017
##리카	15018
##니아	15019
발동	15020
2010	15021
거기	15022
어리	15023
과정	15024
어요	15025
완전히	15026
반대	15027
드러	15028
생산	15029
##ow	15030
들어오	15031
##그램	15032
##인트	15033
개인	15034
60	15035
##통령	15036
대회	15037
##nd	15038
적용	15039
km	15040
모델	15041
바이	15042
##20	15043
##il	15044
제국	15045
##ig	15046
##므로	15047
떠나	15048
으로서	15049
속성	15050
##ed	15051
시스템	15052
대학	15053
그래서	15054
난이도	15055
한번	15056
라며	15057
혹은	15058
자세	15059
35	15060
##메이션	15061
실패	15062
어디	15063
지키	15064
전혀	15065
돌아가	15066
차량	15067
하이	15068
던지	15069
장비	15070
감소	15071
원작	15072
패배	15073
##리그	15074
덕분	15075
현대	15076
국내	15077
사진	15078
얼굴	15079
##스크	15080
TV	15081
건물	15082
동일	15083
대통령	15084
##소드	15085
얼마	15086
열리	15087
더라도	15088
도움	15089
초기	15090
무엇	15091
마을	15092
##나마	15093
중심	15094
앨범	15095
우주	15096
지속	15097
##ac	15098
데뷔	15099
날리	15100
##as	15101
오브	15102
인정	15103
조차	15104
표현	15105
모으	15106
애니메이션	15107
##BS	15108
출시	15109
참여	15110
나라	15111
##어가	15112
버스	15113
196	15114
굉장	15115
획득	15116
물리	15117
세트	15118
그렇게	15119
of	15120
2011	15121
밖에	15122
작중	15123
계획	15124
시대	15125
데이	15126
설치	15127
다양	15128
요구	15129
순간	15130
스페	15131
반응	15132
##아내	15133
안되	15134
Lv	15135
정확	15136
기능	15137
자동	15138
움직	15139
##들이	15140
기억	15141
발표	15142
축구	15143
하루	15144
드라마	15145
선발	15146
올라가	15147
시점	15148
##ve	15149
그나마	15150
영어	15151
라인	15152
아마	15153
에피	15154
아군	15155
담당	15156
명칭	15157
##대학교	15158
상승	15159
##비스	15160
으므로	15161
판매	15162
다며	15163
작가	15164
중앙	15165
시기	15166
진출	15167
01	15168
그림	15169
경찰	15170
세우	15171
았었	15172
##속도	15173
The	15174
조건	15175
가격	15176
특징	15177
려는	15178
##뜨리	15179
대체	15180
상위	15181
##파이	15182
대전	15183
한테	15184
##ot	15185
고려	15186
지구	15187
관리	15188
확실	15189
드래곤	15190
##위기	15191
참가	15192
500	15193
##리오	15194
수비	15195
에피소드	15196
로부터	15197
지니	15198
이거	15199
남기	15200
80	15201
단계	15202
##피언	15203
2000	15204
어떻게	15205
항목	15206
라서	15207
실력	15208
##으키	15209
아르	15210
어머니	15211
더욱	15212
묘사	15213
피하	15214
활용	15215
연기	15216
경험	15217
각각	15218
##ad	15219
미치	15220
37	15221
처리	15222
러시아	15223
패치	15224
비판	15225
심하	15226
45	15227
밀리	15228
후보	15229
가족	15230
만화	15231
폭발	15232
회사	15233
문화	15234
굉장히	15235
세대	15236
디자	15237
결혼	15238
##스로	15239
이미지	15240
교육	15241
이어지	15242
구조	15243
##라인	15244
진짜	15245
프로그램	15246
아주	15247
내려	15248
라운드	15249
##위원	15250
위험	15251
챔피언	15252
단순	15253
선거	15254
듯이	15255
약하	15256
여담	15257
이루어지	15258
발사	15259
참조	15260
오리	15261
무시	15262
St	15263
다루	15264
목적	15265
히로	15266
현실	15267
준비	15268
주요	15269
194	15270
##아오	15271
크리스	15272
민주	15273
기간	15274
불구	15275
##머지	15276
사실상	15277
나쁘	15278
나머지	15279
일으키	15280
마스터	15281
대미지	15282
방영	15283
제공	15284
삼성	15285
계약	15286
약간	15287
혼자	15288
시청	15289
##id	15290
부산	15291
70	15292
중간	15293
뛰어나	15294
##다리	15295
시도	15296
패턴	15297
09	15298
방향	15299
세이	15300
논란	15301
일정	15302
ᆯ지	15303
##ay	15304
지하	15305
범위	15306
동료	15307
유럽	15308
여전히	15309
연속	15310
당연히	15311
한정	15312
90	15313
으면서	15314
한편	15315
이해	15316
분위기	15317
성장	15318
아프	15319
소모	15320
훨씬	15321
FC	15322
##ER	15323
##러지	15324
##보이	15325
그룹	15326
국민	15327
유리	15328
세기	15329
보호	15330
특별	15331
노리	15332
파워	15333
학년	15334
그래도	15335
##인물	15336
블랙	15337
mm	15338
##러스	15339
02	15340
2009	15341
03	15342
바라	15343
##ch	15344
##트리	15345
가져	15346
조합	15347
향하	15348
기대	15349
운동	15350
잘못	15351
자연	15352
300	15353
경제	15354
기에	15355
브라	15356
가리	15357
출전	15358
기타	15359
생명	15360
디자인	15361
최근	15362
##드리	15363
싸움	15364
해결	15365
취급	15366
##us	15367
48	15368
국제	15369
도망	15370
##ir	15371
자면	15372
##티브	15373
스테이지	15374
부상	15375
그거	15376
성적	15377
사고	15378
부대	15379
태어나	15380
05	15381
195	15382
33	15383
나무	15384
연결	15385
for	15386
지방	15387
이르	15388
이라	15389
2008	15390
생활	15391
##자기	15392
의견	15393
예정	15394
규모	15395
36	15396
추정	15397
운행	15398
주의	15399
이탈	15400
08	15401
ᆯ까	15402
순위	15403
변하	15404
수정	15405
타입	15406
종류	15407
마치	15408
07	15409
##ur	15410
인구	15411
충분	15412
거대	15413
움직이	15414
방면	15415
스스로	15416
구간	15417
아이돌	15418
올라오	15419
죽음	15420
대화	15421
수상	15422
펼치	15423
##리티	15424
넘어가	15425
오래	15426
나중	15427
야구	15428
조직	15429
안정	15430
속하	15431
전용	15432
세력	15433
마저	15434
거치	15435
표기	15436
변화	15437
느낌	15438
지도	15439
HP	15440
##너스	15441
터지	15442
당신	15443
장착	15444
벌어지	15445
미션	15446
퀘스트	15447
도중	15448
전문	15449
나누	15450
비롯	15451
등급	15452
##..	15453
##od	15454
세상	15455
##지션	15456
절대	15457
유니	15458
06	15459
항공	15460
붙이	15461
달성	15462
##BC	15463
직업	15464
벌이	15465
안타	15466
특정	15467
만드	15468
지내	15469
일행	15470
관하	15471
엔딩	15472
th	15473
부활	15474
##수록	15475
##능력	15476
##im	15477
##란드	15478
##비아	15479
독립	15480
포인트	15481
무장	15482
발전	15483
종료	15484
지지	15485
근접	15486
전하	15487
더불	15488
졸업	15489
관심	15490
방어력	15491
04	15492
만약	15493
케이	15494
포켓	15495
##라스	15496
##어들	15497
##다니	15498
수도	15499
반면	15500
미사	15501
따라서	15502
##un	15503
##ut	15504
SK	15505
스피	15506
번역	15507
싱글	15508
제목	15509
보상	15510
엔진	15511
##데이트	15512
소설	15513
내부	15514
이끌	15515
거두	15516
에너지	15517
목소리	15518
투수	15519
남성	15520
2007	15521
배틀	15522
you	15523
업데이트	15524
배경	15525
똑같	15526
가끔	15527
정상	15528
##디어	15529
미래	15530
어찌	15531
저지	15532
충격	15533
##카이	15534
무리	15535
34	15536
##정도	15537
타격	15538
계열	15539
득점	15540
전설	15541
정체	15542
##리트	15543
오늘	15544
비행	15545
지휘	15546
목표	15547
황제	15548
##게임	15549
공중	15550
그만	15551
항상	15552
분노	15553
##ro	15554
##나이	15555
최소	15556
각성	15557
공연	15558
배치	15559
예상	15560
조사	15561
등장인물	15562
으려	15563
이어	15564
돌리	15565
소재	15566
북한	15567
##공격	15568
으로써	15569
전국	15570
정식	15571
아라	15572
위기	15573
넘기	15574
생존	15575
얘기	15576
##대학	15577
##조건	15578
로마	15579
늘어나	15580
전작	15581
포켓몬	15582
군사	15583
신경	15584
##ag	15585
##igh	15586
38	15587
높이	15588
##ver	15589
작곡	15590
##림픽	15591
애초	15592
스포	15593
지정	15594
괜찮	15595
##ec	15596
버프	15597
가르	15598
인터뷰	15599
cm	15600
##르크	15601
다리	15602
##나가	15603
시전	15604
자랑	15605
지상	15606
ᆯ로	15607
기관	15608
75	15609
결승	15610
점수	15611
각종	15612
악마	15613
비밀	15614
요소	15615
전사	15616
##운데	15617
건설	15618
분류	15619
##ent	15620
2006	15621
인도	15622
##시스	15623
요리	15624
과학	15625
소녀	15626
##시마	15627
교체	15628
##르트	15629
55	15630
연출	15631
정하	15632
in	15633
이외	15634
##야마	15635
무대	15636
전기	15637
전차	15638
부여	15639
전반	15640
##학생	15641
193	15642
하늘	15643
레어	15644
정작	15645
수치	15646
클래	15647
##ak	15648
클리어	15649
확정	15650
##로드	15651
별로	15652
니까	15653
작전	15654
드러나	15655
홈런	15656
갖추	15657
개념	15658
행정	15659
##회의	15660
훈련	15661
소개	15662
건담	15663
링크	15664
야마	15665
제일	15666
따로	15667
2020	15668
to	15669
##um	15670
타카	15671
종족	15672
외국	15673
이적	15674
아키	15675
##자리	15676
군대	15677
갑자기	15678
##젝트	15679
##무리	15680
변신	15681
',	15682
##루스	15683
카이	15684
나름	15685
언제	15686
이탈리아	15687
제한	15688
단점	15689
##스티	15690
기업	15691
##화국	15692
바르	15693
완전	15694
##파트	15695
vs	15696
장소	15697
크기	15698
누르	15699
인천	15700
기계	15701
##이즈	15702
명령	15703
냐고	15704
##타임	15705
서비스	15706
##아들이	15707
평균	15708
##시대	15709
기체	15710
노력	15711
근처	15712
##어로	15713
동물	15714
가수	15715
수행	15716
포지션	15717
사냥	15718
파티	15719
아카	15720
작업	15721
보유	15722
트리	15723
압도	15724
표시	15725
다크	15726
##ST	15727
##모토	15728
기동	15729
집중	15730
연합	15731
특이	15732
오른	15733
화력	15734
##em	15735
##ub	15736
살리	15737
시장	15738
끝내	15739
병력	15740
##니스	15741
이하	15742
어쩌	15743
사업	15744
설립	15745
이쪽	15746
잠시	15747
기회	15748
베이	15749
더니	15750
부모	15751
부정	15752
기반	15753
공간	15754
##레인	15755
본래	15756
필드	15757
파일	15758
경쟁	15759
치명	15760
##말로	15761
판단	15762
느리	15763
카운	15764
##이치	15765
무슨	15766
감정	15767
가운데	15768
직전	15769
##000	15770
목록	15771
##카드	15772
이닝	15773
물건	15774
나서	15775
의외	15776
ㅏㅆ	15777
인식	15778
단어	15779
고양	15780
상관	15781
탈출	15782
월드컵	15783
판정	15784
사례	15785
옮기	15786
기다리	15787
소련	15788
주문	15789
##요일	15790
던전	15791
2005	15792
주제	15793
효율	15794
차원	15795
포기	15796
제거	15797
강제	15798
정리	15799
가문	15800
키우	15801
앞서	15802
##역시	15803
임무	15804
##ight	15805
진화	15806
마르	15807
42	15808
려면	15809
다수	15810
대구	15811
새로	15812
위력	15813
도전	15814
41	15815
##고등학교	15816
도입	15817
프레	15818
때리	15819
라이브	15820
##세계	15821
도쿄	15822
별명	15823
##러스트	15824
원인	15825
중반	15826
호선	15827
정의	15828
레드	15829
완성	15830
제품	15831
##그레이드	15832
발언	15833
고정	15834
스타일	15835
39	15836
지배	15837
##이션	15838
##기사	15839
받아들이	15840
유사	15841
촬영	15842
에게서	15843
##드시	15844
숨기	15845
2004	15846
골드	15847
무려	15848
복귀	15849
사이트	15850
동생	15851
어둠	15852
시험	15853
##대표	15854
연습	15855
직후	15856
분명	15857
도착	15858
EX	15859
아스	15860
LG	15861
역대	15862
은데	15863
버티	15864
전개	15865
삭제	15866
으로부터	15867
접근	15868
모이	15869
ㅓㅆ	15870
바다	15871
인사	15872
요시	15873
고자	15874
사정	15875
해군	15876
랭크	15877
현상	15878
추천	15879
마시	15880
##ce	15881
예전	15882
왕국	15883
정규	15884
살아	15885
음식	15886
확장	15887
교수	15888
##로우	15889
회피	15890
마나	15891
해외	15892
##AR	15893
안전	15894
코스	15895
빨리	15896
업그레이드	15897
책임	15898
오버	15899
병사	15900
이곳	15901
반드시	15902
##os	15903
##바이	15904
줄이	15905
일러스트	15906
조종	15907
유튜	15908
완벽	15909
자원	15910
부탁	15911
점프	15912
저항	15913
44	15914
타이틀	15915
올림픽	15916
##방송	15917
롯데	15918
##ri	15919
##트라	15920
도로	15921
극장	15922
고대	15923
##AN	15924
장점	15925
심각	15926
잡히	15927
비용	15928
탈락	15929
차전	15930
우선	15931
##ula	15932
Ch	15933
##무라	15934
인터넷	15935
신체	15936
아내	15937
자마	15938
파트	15939
##ON	15940
의사	15941
통합	15942
##하나	15943
언어	15944
리더	15945
추측	15946
공동	15947
##대전	15948
전력	15949
의원	15950
##아하	15951
No	15952
전략	15953
##ap	15954
43	15955
주민	15956
치료	15957
99	15958
이라고	15959
실험	15960
환경	15961
몇몇	15962
미니	15963
의식	15964
연장	15965
히어로	15966
마무리	15967
합류	15968
연재	15969
##and	15970
구매	15971
2002	15972
소유	15973
st	15974
점점	15975
스코	15976
즐기	15977
##버리	15978
살인	15979
장갑	15980
##러리	15981
사격	15982
최강	15983
form	15984
철도	15985
대기	15986
종교	15987
사기	15988
##광역시	15989
전자	15990
그야	15991
화면	15992
취하	15993
수많	15994
다소	15995
마법사	15996
기념	15997
구분	15998
좋아하	15999
공포	16000
티어	16001
kg	16002
에이	16003
종종	16004
엘리	16005
47	16006
46	16007
개최	16008
51	16009
191	16010
사거리	16011
마사	16012
암살	16013
걱정	16014
오프	16015
formula	16016
평범	16017
가치	16018
##퓨터	16019
전통	16020
가사	16021
스크	16022
자마자	16023
형식	16024
KBS	16025
개봉	16026
아쉽	16027
##무기	16028
부하	16029
그야말로	16030
##아지	16031
그리스	16032
개월	16033
선정	16034
녀석	16035
사상	16036
채우	16037
스페인	16038
여행	16039
##ter	16040
재미	16041
##위원회	16042
워낙	16043
아무리	16044
##선수	16045
다행	16046
미드	16047
복수	16048
입히	16049
루트	16050
##오르	16051
##아보	16052
##메라	16053
and	16054
##스케	16055
요청	16056
미사일	16057
한계	16058
프로젝트	16059
무조건	16060
본격	16061
정당	16062
정확히	16063
대중	16064
냐는	16065
한글	16066
##ul	16067
개그	16068
MA	16069
평소	16070
사무	16071
영혼	16072
실점	16073
시청자	16074
##시장	16075
밴드	16076
거부	16077
비중	16078
굳이	16079
##IN	16080
##운동	16081
지적	16082
무한	16083
공주	16084
옵션	16085
1000	16086
로봇	16087
2003	16088
데이터	16089
줄어들	16090
하드	16091
##모리	16092
컴퓨터	16093
충분히	16094
고르	16095
##op	16096
위협	16097
투입	16098
상징	16099
버그	16100
는가	16101
##니티	16102
##관계	16103
시설	16104
히트	16105
달러	16106
연주	16107
행위	16108
범죄	16109
##ck	16110
도망치	16111
선언	16112
##쿠라	16113
대형	16114
불가	16115
%,	16116
명중	16117
실수	16118
모자	16119
설계	16120
네이	16121
폭탄	16122
150	16123
콤보	16124
드리	16125
형제	16126
을지	16127
65	16128
특유	16129
##FA	16130
대결	16131
언론	16132
##ation	16133
원정	16134
트위	16135
해석	16136
선생	16137
성향	16138
##로그	16139
조작	16140
운용	16141
희생	16142
시민	16143
##오스	16144
##일러	16145
MBC	16146
##정부	16147
광주	16148
스포츠	16149
SP	16150
행사	16151
##려가	16152
전원	16153
일종	16154
##아이	16155
인상	16156
대응	16157
##ra	16158
192	16159
보병	16160
태양	16161
보조	16162
##이상	16163
이사	16164
봉인	16165
##남도	16166
광고	16167
행성	16168
##다르	16169
나이트	16170
##페이지	16171
얼마나	16172
가면	16173
벗어나	16174
개조	16175
플래	16176
##이크	16177
오리지	16178
단지	16179
로써	16180
64	16181
II	16182
##시브	16183
그때	16184
마력	16185
드러내	16186
##기관	16187
차례	16188
##동생	16189
##미널	16190
##경기	16191
와중	16192
##특별	16193
##머리	16194
구단	16195
보너스	16196
단체	16197
화염	16198
빼앗	16199
노트	16200
간단	16201
점령	16202
시나	16203
통과	16204
프로듀	16205
소비	16206
경기도	16207
##려오	16208
ㅏ서	16209
치르	16210
오랜	16211
육군	16212
발음	16213
생성	16214
서술	16215
뿌리	16216
##올리	16217
가하	16218
근데	16219
52	16220
방문	16221
##라이더	16222
클럽	16223
합치	16224
서버	16225
유튜브	16226
조정	16227
장르	16228
##텐츠	16229
불과	16230
의도	16231
재료	16232
투표	16233
소년	16234
금지	16235
반복	16236
가정	16237
You	16238
의지	16239
정책	16240
함정	16241
지명	16242
한국어	16243
는다는	16244
년대	16245
저격	16246
영입	16247
디지	16248
400	16249
최후	16250
##레이션	16251
에어	16252
보컬	16253
분리	16254
초대	16255
제안	16256
##마스	16257
따지	16258
##드로	16259
##웨이	16260
채널	16261
##세이	16262
##art	16263
##래프트	16264
원하	16265
박사	16266
##교육	16267
무사	16268
그저	16269
대비	16270
##런스	16271
사태	16272
편성	16273
##지역	16274
여름	16275
외모	16276
가져오	16277
놀라	16278
VS	16279
음반	16280
일차	16281
장기	16282
후속	16283
센터	16284
찾아오	16285
소식	16286
##학자	16287
##부대	16288
49	16289
두번	16290
숫자	16291
고양이	16292
##도우	16293
##사이	16294
흡수	16295
##니까	16296
적극	16297
느냐	16298
목숨	16299
뉴스	16300
지나가	16301
AP	16302
독자	16303
56	16304
눈물	16305
공략	16306
진입	16307
데스	16308
장난	16309
스위	16310
모험	16311
바닥	16312
디스	16313
##센터	16314
패러	16315
은퇴	16316
적절	16317
##사카	16318
생물	16319
왼쪽	16320
크로	16321
괴물	16322
군단	16323
주력	16324
오토	16325
2001	16326
고등학교	16327
오오	16328
대학교	16329
##마트	16330
컨셉	16331
거짓	16332
아름	16333
##이터	16334
저지르	16335
살아남	16336
기자	16337
흐르	16338
의심	16339
확보	16340
자료	16341
서브	16342
전화	16343
ᆫ지라	16344
미리	16345
53	16346
약점	16347
노동	16348
원거리	16349
54	16350
개선	16351
코드	16352
필살	16353
더블	16354
오리지널	16355
제도	16356
...	16357
사과	16358
형성	16359
대단	16360
쓰러지	16361
##달리	16362
관통	16363
단순히	16364
In	16365
PC	16366
걸치	16367
교통	16368
대장	16369
##어내	16370
다운	16371
수호	16372
저주	16373
전술	16374
황금	16375
##피아	16376
페르	16377
계기	16378
만원	16379
마침	16380
들이	16381
잘하	16382
질문	16383
부수	16384
조각	16385
브레이	16386
구축	16387
알렉	16388
##피스	16389
착용	16390
꾸준	16391
85	16392
상대방	16393
작성	16394
유도	16395
시티	16396
솔로	16397
풀리	16398
##ia	16399
타임	16400
1990	16401
방해	16402
기원	16403
집단	16404
##문화	16405
##즈키	16406
비난	16407
##믹스	16408
삼국	16409
역전	16410
인류	16411
먹이	16412
##ill	16413
##무원	16414
전환	16415
편하	16416
아프리카	16417
습격	16418
##워드	16419
필수	16420
경상	16421
열차	16422
##ie	16423
##전자	16424
선보이	16425
승부	16426
아나	16427
##소년	16428
라디오	16429
규정	16430
##나다	16431
##북도	16432
홈페이지	16433
어라	16434
##RA	16435
진정	16436
ST	16437
실시	16438
유우	16439
라이트	16440
##회사	16441
클래스	16442
##IA	16443
공부	16444
확실히	16445
회전	16446
모티브	16447
아름답	16448
무력	16449
감안	16450
들리	16451
190	16452
##ik	16453
엄마	16454
경계	16455
수원	16456
등록	16457
블루	16458
병원	16459
##영상	16460
##스테	16461
완료	16462
편집	16463
어느정도	16464
##전사	16465
남편	16466
비고	16467
승강	16468
스카	16469
번호	16470
표정	16471
무섭	16472
쿨타임	16473
##플레이	16474
임명	16475
지나치	16476
기지	16477
오른쪽	16478
비트	16479
딱히	16480
행복	16481
##술사	16482
멈추	16483
허용	16484
본선	16485
친하	16486
희망	16487
사장	16488
##드라	16489
##붙이	16490
59	16491
방패	16492
상처	16493
##연히	16494
바탕	16495
코스트	16496
포스	16497
당장	16498
##울리	16499
의문	16500
데리	16501
태도	16502
고통	16503
탑재	16504
유래	16505
이스	16506
장군	16507
에이스	16508
##트롤	16509
유키	16510
##ab	16511
아시아	16512
인지	16513
##라이트	16514
날아가	16515
아요	16516
기점	16517
평화	16518
국회의	16519
가까	16520
비싸	16521
분야	16522
120	16523
선물	16524
##시오	16525
제압	16526
고유	16527
58	16528
민주당	16529
##아리	16530
트랙	16531
대답	16532
성인	16533
을까	16534
제시	16535
멸망	16536
그레이	16537
하위	16538
레인	16539
로드	16540
##est	16541
챙기	16542
가슴	16543
##크래프트	16544
##대회	16545
주목	16546
빌리	16547
57	16548
꺼내	16549
수리	16550
잠깐	16551
자라	16552
아웃	16553
후지	16554
##th	16555
MP	16556
중단	16557
마크	16558
##all	16559
날개	16560
이론	16561
멀티	16562
##라리	16563
나뉘	16564
##ea	16565
거주	16566
사령	16567
66	16568
한화	16569
95	16570
##니어	16571
측면	16572
사항	16573
##터리	16574
회장	16575
당선	16576
##나미	16577
검사	16578
시나리오	16579
주도	16580
멀리	16581
겨우	16582
포르	16583
##디아	16584
뮤직	16585
내려가	16586
액션	16587
##소녀	16588
스파이	16589
##전쟁	16590
투자	16591
년간	16592
주연	16593
공화국	16594
고서	16595
뉴욕	16596
눈치	16597
동맹	16598
보급	16599
일본어	16600
##철도	16601
달라지	16602
약속	16603
Sh	16604
듀얼	16605
학원	16606
우수	16607
교회	16608
테마	16609
드라이	16610
보수	16611
궁극	16612
Lo	16613
텔레	16614
온라인	16615
##ct	16616
가볍	16617
##나무	16618
최악	16619
ddd	16620
on	16621
##보스	16622
시체	16623
##토스	16624
나타내	16625
카운터	16626
늘리	16627
크리	16628
1999	16629
망하	16630
##하라	16631
Re	16632
가져가	16633
순서	16634
위주	16635
배신	16636
좀비	16637
##스키	16638
종합	16639
소울	16640
대놓	16641
##초등학교	16642
가드	16643
해제	16644
견제	16645
퍼지	16646
110	16647
함대	16648
##ddd	16649
dddddd	16650
Sp	16651
##바로	16652
1998	16653
현장	16654
오후	16655
보도	16656
##두르	16657
카메라	16658
##AL	16659
##타로	16660
산업	16661
지식	16662
코너	16663
처치	16664
계산	16665
연계	16666
핵심	16667
베이스	16668
##지원	16669
최대한	16670
살해	16671
##어리	16672
ㅓ서	16673
##오리	16674
##AT	16675
62	16676
##다이	16677
##PS	16678
예선	16679
귀족	16680
##워하	16681
나카	16682
자이	16683
해금	16684
국회의원	16685
직원	16686
인원	16687
필살기	16688
중화	16689
##OR	16690
에스	16691
전장	16692
진실	16693
##VE	16694
귀엽	16695
외부	16696
분석	16697
거절	16698
컨트롤	16699
##어스	16700
##트로	16701
국가대표	16702
드물	16703
##라우	16704
##유키	16705
건너	16706
쓰러	16707
특기	16708
이성	16709
이치	16710
스케	16711
##고기	16712
##주시	16713
유용	16714
출생	16715
SS	16716
용병	16717
제조	16718
SBS	16719
가르치	16720
어울리	16721
소프트	16722
출발	16723
ᆯ수록	16724
통일	16725
상하	16726
수사	16727
증거	16728
개편	16729
부리	16730
인형	16731
애매	16732
는다고	16733
##들리	16734
기분	16735
부담	16736
##시즌	16737
스탠	16738
##ate	16739
지옥	16740
광역	16741
##선거	16742
레이저	16743
##래도	16744
극장판	16745
흔히	16746
##ess	16747
한자	16748
커뮤	16749
겨울	16750
안하	16751
Th	16752
##ell	16753
##번호	16754
61	16755
세계관	16756
불명	16757
어린	16758
민족	16759
##ard	16760
76	16761
진영	16762
타자	16763
##사키	16764
끼리	16765
단독	16766
버튼	16767
자살	16768
영역	16769
타이밍	16770
##ang	16771
얼음	16772
피해자	16773
발휘	16774
아무래도	16775
서울특별	16776
겹치	16777
##IC	16778
카즈	16779
자동차	16780
##민주	16781
크로스	16782
레전	16783
##바람	16784
##다수	16785
##연구	16786
아침	16787
오스트	16788
홍콩	16789
##ue	16790
조준	16791
무게	16792
자고	16793
고급	16794
순수	16795
##기술	16796
##ant	16797
##ack	16798
제로	16799
비록	16800
##대장	16801
공통	16802
##츠키	16803
##ers	16804
스펙	16805
부진	16806
패시브	16807
Al	16808
NP	16809
코치	16810
77	16811
우려	16812
장전	16813
시내	16814
##ine	16815
로켓	16816
소수	16817
88	16818
케이스	16819
두산	16820
1997	16821
구입	16822
72	16823
반란	16824
##아나	16825
##서관	16826
##생활	16827
##심히	16828
브랜드	16829
여왕	16830
##가락	16831
카페	16832
게이	16833
탑승	16834
충돌	16835
한명	16836
혼란	16837
스피드	16838
몰리	16839
후반부	16840
상자	16841
통신	16842
장치	16843
##오프	16844
##나오	16845
##시티	16846
기획	16847
기절	16848
만족	16849
서울특별시	16850
문자	16851
내주	16852
협력	16853
외치	16854
인생	16855
파악	16856
군인	16857
테크	16858
탄생	16859
끌어	16860
막히	16861
꾸준히	16862
조지	16863
게이지	16864
생일	16865
판타	16866
BG	16867
ㅕ서	16868
왕자	16869
##디션	16870
근거	16871
##웨어	16872
##ok	16873
코어	16874
아오	16875
##OS	16876
부인	16877
안습	16878
업무	16879
닥터	16880
무너지	16881
실질	16882
##카와	16883
관광	16884
be	16885
납치	16886
강조	16887
##포트	16888
등등	16889
게시	16890
373	16891
FI	16892
채용	16893
반영	16894
붕괴	16895
공산	16896
더하	16897
스프	16898
or	16899
##자키	16900
자르	16901
위키	16902
돌격	16903
미군	16904
##노스	16905
98	16906
fff	16907
훌륭	16908
온갖	16909
CD	16910
gt	16911
장수	16912
브라질	16913
마이크	16914
대공	16915
점차	16916
마왕	16917
갈리	16918
스킨	16919
맡기	16920
밸런스	16921
##ive	16922
수단	16923
랜덤	16924
##파이어	16925
없애	16926
600	16927
반격	16928
자격	16929
패러디	16930
##상태	16931
주어지	16932
##메달	16933
##사건	16934
용도	16935
경향	16936
댄스	16937
홍보	16938
구역	16939
지하철	16940
아메	16941
공군	16942
대다수	16943
울트라	16944
##리안	16945
##스카	16946
찾아가	16947
##도시	16948
내놓	16949
##정보	16950
공항	16951
1996	16952
설득	16953
위원	16954
아사	16955
권력	16956
어차	16957
살짝	16958
##스코	16959
제주	16960
입학	16961
##시코	16962
고민	16963
어차피	16964
주년	16965
##ast	16966
승강장	16967
언니	16968
체제	16969
지시	16970
PS	16971
돌파	16972
표준	16973
##세우	16974
##AS	16975
가까이	16976
대놓고	16977
가로	16978
1995	16979
지급	16980
커버	16981
화살	16982
영원	16983
감염	16984
실행	16985
가입	16986
또다	16987
적당	16988
엑스	16989
가스	16990
대륙	16991
입수	16992
충전	16993
##중학교	16994
응원	16995
그다	16996
작사	16997
ㅓ야	16998
제기	16999
##uby	17000
",	17001
베르	17002
캐나다	17003
집안	17004
##가능	17005
그라	17006
##은행	17007
##ED	17008
##tt	17009
당황	17010
갤러리	17011
68	17012
즉시	17013
##ee	17014
내려오	17015
자식	17016
은근	17017
lt	17018
800	17019
불안	17020
신화	17021
열심히	17022
연방	17023
##교통	17024
체인	17025
스페셜	17026
뒤집	17027
리어	17028
별도	17029
##거나	17030
여러가지	17031
여부	17032
오프닝	17033
##시지	17034
신뢰	17035
폐지	17036
북미	17037
63	17038
매치	17039
증명	17040
1980	17041
명예	17042
유형	17043
경력	17044
##아먹	17045
돌진	17046
정령	17047
한때	17048
##친구	17049
##ong	17050
보물	17051
##호사	17052
##AM	17053
ruby	17054
괴롭	17055
단일	17056
##독교	17057
도구	17058
운명	17059
##돌리	17060
이승	17061
찌르	17062
가면라이더	17063
후쿠	17064
이슬	17065
모션	17066
마련	17067
##오카	17068
##ort	17069
김성	17070
선배	17071
군주	17072
##레기	17073
라이벌	17074
교환	17075
플라	17076
비율	17077
##데스	17078
카르	17079
계승	17080
흘리	17081
##미야	17082
마녀	17083
##트남	17084
댓글	17085
##효과	17086
##관리	17087
##ith	17088
근무	17089
횟수	17090
재생	17091
##스트라	17092
오해	17093
경유	17094
중계	17095
71	17096
##if	17097
##아버지	17098
74	17099
트레이	17100
습득	17101
드랍	17102
수입	17103
주전	17104
함선	17105
불만	17106
정말로	17107
내내	17108
##ly	17109
트위터	17110
##스탄	17111
커뮤니티	17112
##비전	17113
##브리	17114
시행	17115
##fff	17116
오픈	17117
조조	17118
....	17119
MV	17120
##ld	17121
하수	17122
재판	17123
장식	17124
마츠	17125
##히로	17126
그곳	17127
73	17128
67	17129
고속	17130
ffffff	17131
혁명	17132
고전	17133
레전드	17134
박살	17135
지우	17136
절반	17137
가리키	17138
추진	17139
격투	17140
딜러	17141
짜리	17142
메이저	17143
주위	17144
아우	17145
붙잡	17146
테러	17147
울산	17148
로스	17149
##보내	17150
외국인	17151
심장	17152
단위	17153
아시	17154
별개	17155
계급	17156
취소	17157
NC	17158
처하	17159
##ain	17160
메탈	17161
일대	17162
##ist	17163
96	17164
##겨나	17165
민간	17166
##공사	17167
파이터	17168
회의	17169
등판	17170
남부	17171
암흑	17172
##버트	17173
1994	17174
##ind	17175
소문	17176
이란	17177
가득	17178
재능	17179
##보드	17180
TH	17181
정권	17182
북쪽	17183
그다지	17184
연예	17185
쌓이	17186
안드로	17187
##퍼스	17188
예술	17189
감사	17190
##서트	17191
마주	17192
180	17193
고치	17194
공유	17195
해방	17196
피해량	17197
격파	17198
##기간	17199
지켜	17200
지점	17201
남쪽	17202
AC	17203
건강	17204
##지컬	17205
문명	17206
##스턴	17207
그동안	17208
외교	17209
스코어	17210
스트라이	17211
미야	17212
##레나	17213
81	17214
AT	17215
##베르	17216
네이버	17217
초월	17218
장애	17219
강원	17220
사운드	17221
든지	17222
아리	17223
파리	17224
발매되	17225
공작	17226
일부러	17227
그만큼	17228
결승전	17229
##타이	17230
다행히	17231
차별	17232
크리티	17233
전방	17234
##티나	17235
##per	17236
##바르	17237
압박	17238
임시	17239
소멸	17240
널리	17241
전달	17242
##아웃	17243
하트	17244
##ps	17245
##구역	17246
기독교	17247
화장	17248
공장	17249
##EN	17250
##가리	17251
레오	17252
##워크	17253
입단	17254
문제점	17255
흔하	17256
쓰러뜨리	17257
그림자	17258
##가와	17259
적히	17260
지켜보	17261
피아	17262
카나	17263
판타지	17264
타점	17265
##식간	17266
공사	17267
페이	17268
무적	17269
따위	17270
맞서	17271
화려	17272
##EC	17273
물러	17274
갑옷	17275
헤드	17276
자는	17277
치명타	17278
##마을	17279
78	17280
91	17281
스튜	17282
프로듀서	17283
##OL	17284
거래	17285
갈등	17286
순식간	17287
말리	17288
본명	17289
지형	17290
여동생	17291
따오	17292
무난	17293
##ew	17294
오로	17295
건축	17296
여론	17297
선호	17298
##때문	17299
일상	17300
유비	17301
트레	17302
공기	17303
연사	17304
컨텐츠	17305
폭풍	17306
여신	17307
드립	17308
러브	17309
시야	17310
패스	17311
##투스	17312
##모드	17313
84	17314
CP	17315
체육	17316
##일랜드	17317
최상	17318
체포	17319
사단	17320
##LC	17321
관객	17322
me	17323
##ry	17324
크리티컬	17325
스파	17326
용어	17327
첫번	17328
드디어	17329
유로	17330
전투력	17331
아케	17332
##려움	17333
수있	17334
체계	17335
##레이터	17336
82	17337
불꽃	17338
바라보	17339
삼진	17340
##lo	17341
페이스	17342
전역	17343
추적	17344
복잡	17345
##타인	17346
##영화	17347
매력	17348
늑대	17349
제이	17350
97	17351
파이널	17352
대만	17353
한국인	17354
아무런	17355
##사항	17356
경영	17357
##덜란드	17358
전함	17359
86	17360
도달	17361
고향	17362
화이트	17363
영토	17364
맞이	17365
상향	17366
사쿠라	17367
대원	17368
파견	17369
##공항	17370
폭주	17371
해설	17372
크루	17373
##병대	17374
##프로	17375
떡밥	17376
작동	17377
##둥이	17378
동원	17379
사전	17380
네덜란드	17381
테이	17382
##모로	17383
it	17384
변형	17385
푸르	17386
현지	17387
69	17388
다시피	17389
##어버리	17390
한방	17391
##프레	17392
추락	17393
메가	17394
인수	17395
수용	17396
조용	17397
그치	17398
요새	17399
몰래	17400
연관	17401
페이지	17402
아무것	17403
쿠로	17404
수학	17405
참전	17406
개통	17407
is	17408
추격	17409
아티	17410
NPC	17411
출판	17412
막장	17413
달하	17414
생명력	17415
##어오	17416
출현	17417
##IT	17418
상품	17419
##더스	17420
충청	17421
교황	17422
일제	17423
고기	17424
##동차	17425
작용	17426
##릭스	17427
둘러	17428
##바일	17429
돌아다니	17430
해체	17431
프라	17432
파라	17433
매일	17434
잉글	17435
만든	17436
US	17437
프리미	17438
##과학	17439
미스	17440
##아파트	17441
##디언	17442
향상	17443
통제	17444
박스	17445
경험치	17446
스카이	17447
MS	17448
중학교	17449
복장	17450
신인	17451
놓치	17452
##티드	17453
리버	17454
An	17455
옛날	17456
구현	17457
왕조	17458
녹음	17459
동쪽	17460
##가스	17461
아파트	17462
입력	17463
김정	17464
##어도	17465
알아	17466
북부	17467
##먼트	17468
조성	17469
##ust	17470
오빠	17471
환상	17472
교사	17473
오류	17474
스마트	17475
와이	17476
베트남	17477
##교회	17478
크레	17479
오스	17480
신규	17481
##고리	17482
##일리	17483
수업	17484
예외	17485
언제나	17486
보정	17487
환자	17488
노출	17489
##크스	17490
##국가	17491
범인	17492
250	17493
기초	17494
종점	17495
총기	17496
KT	17497
출장	17498
연애	17499
이시	17500
구체	17501
##연합	17502
##50	17503
나루	17504
되찾	17505
메타	17506
##단체	17507
일원	17508
회원	17509
서부	17510
에드	17511
토모	17512
인근	17513
##구리	17514
심리	17515
이랑	17516
타워	17517
시각	17518
편지	17519
##병원	17520
영문	17521
##티아	17522
##리스트	17523
여러모로	17524
기어	17525
신고	17526
##류장	17527
189	17528
대립	17529
쓰레기	17530
거짓말	17531
수요	17532
가이	17533
제자	17534
한마	17535
쿠키	17536
##과정	17537
보장	17538
전라	17539
마인	17540
사토	17541
의상	17542
##요시	17543
불편	17544
불과하	17545
신청	17546
전형	17547
연락	17548
수집	17549
신라	17550
202	17551
그래픽	17552
접하	17553
편의	17554
신분	17555
1992	17556
##전차	17557
어깨	17558
##야구	17559
평타	17560
전면	17561
유희	17562
양산	17563
무료	17564
##사기	17565
##조리	17566
창작	17567
천사	17568
차단	17569
서쪽	17570
##버프	17571
신성	17572
기여	17573
92	17574
##BO	17575
검색	17576
##ore	17577
##톨릭	17578
##저히	17579
모바일	17580
부품	17581
영업	17582
이중	17583
Ar	17584
##펙트	17585
띄우	17586
반지	17587
대체로	17588
노예	17589
세월	17590
전직	17591
진지	17592
반발	17593
동부	17594
학살	17595
감시	17596
자이언	17597
하고	17598
83	17599
고생	17600
이날	17601
주먹	17602
마리오	17603
##코드	17604
심판	17605
폴란드	17606
##일드	17607
마리아	17608
대량	17609
Te	17610
##베이	17611
구속	17612
호평	17613
##조사	17614
상상	17615
대우	17616
제하	17617
89	17618
잖아	17619
제작진	17620
블록	17621
클로	17622
내구	17623
##FF	17624
101	17625
휘두르	17626
93	17627
반하	17628
정지	17629
기기	17630
1993	17631
다섯	17632
제법	17633
브리	17634
출처	17635
무효	17636
승격	17637
##사고	17638
프린	17639
De	17640
MAX	17641
테스트	17642
##라드	17643
콘서트	17644
침공	17645
식물	17646
기습	17647
닌자	17648
동영상	17649
이득	17650
94	17651
스폰	17652
한타	17653
잉글랜드	17654
##시설	17655
더빙	17656
이래	17657
##스팅	17658
보석	17659
창조	17660
##성기	17661
어그	17662
잠수	17663
경기장	17664
코믹스	17665
com	17666
79	17667
적어도	17668
알파	17669
마도	17670
연상	17671
지도자	17672
은하	17673
요즘	17674
폭력	17675
조심	17676
##FC	17677
저장	17678
실드	17679
re	17680
동방	17681
합격	17682
꼬리	17683
##구치	17684
다이아	17685
비디오	17686
다면서	17687
87	17688
엔터	17689
##란색	17690
이리	17691
메카	17692
##가미	17693
극단	17694
##사업	17695
볼넷	17696
헌터	17697
뛰어	17698
멋지	17699
##로나	17700
마이클	17701
하수인	17702
공급	17703
통상	17704
ㄴ다는	17705
노멀	17706
박근	17707
##라이언	17708
음성	17709
글로	17710
똑같이	17711
##사자	17712
##데이	17713
구출	17714
##one	17715
대략	17716
훔치	17717
On	17718
시위	17719
파일럿	17720
이재	17721
교전	17722
회차	17723
##시타	17724
##공원	17725
동작	17726
##se	17727
##그룹	17728
전투기	17729
런던	17730
결성	17731
경비	17732
##ip	17733
##활동	17734
합성	17735
길이	17736
토론	17737
상점	17738
지휘관	17739
어지	17740
후기	17741
사령관	17742
##AC	17743
유령	17744
국립	17745
도망가	17746
AI	17747
DJ	17748
물질	17749
고용	17750
어드	17751
아크	17752
##RE	17753
익숙	17754
운전	17755
아머	17756
이슬람	17757
##임스	17758
바보	17759
었었	17760
서양	17761
수영	17762
##ere	17763
##창기	17764
##바라	17765
나아가	17766
탄약	17767
득표	17768
모리	17769
윌리	17770
동네	17771
##PG	17772
폭격	17773
갤럭	17774
소화	17775
##널티	17776
프레임	17777
BGM	17778
MC	17779
회수	17780
인공	17781
신경쓰	17782
장관	17783
사마	17784
어둡	17785
SN	17786
경고	17787
이내	17788
활성	17789
##의원	17790
의혹	17791
법률	17792
묻히	17793
##ity	17794
권총	17795
불법	17796
냐며	17797
##ath	17798
조절	17799
태우	17800
규칙	17801
##지마	17802
콜라	17803
##가드	17804
조치	17805
플레이오프	17806
디지털	17807
##미스	17808
성과	17809
전적	17810
스웨	17811
타케	17812
라이더	17813
동기	17814
유행	17815
수송	17816
김영	17817
들어서	17818
엘프	17819
으니까	17820
호감	17821
부문	17822
간부	17823
투구	17824
##공화국	17825
문장	17826
FIFA	17827
요괴	17828
지르	17829
##사회	17830
##인민	17831
웬만	17832
##스킬	17833
##부장	17834
##스토	17835
##end	17836
##부르크	17837
##마이	17838
결론	17839
##마루	17840
##끄럽	17841
1991	17842
##마법	17843
종이	17844
이명	17845
마냥	17846
취임	17847
불러	17848
빛나	17849
움직임	17850
터키	17851
스티	17852
원소	17853
자매	17854
다하	17855
앞두	17856
##리온	17857
글자	17858
멕시코	17859
가톨릭	17860
곧바로	17861
저그	17862
매니	17863
제어	17864
!!	17865
##메이크	17866
에다	17867
탱커	17868
정면	17869
찾아보	17870
일시	17871
키스	17872
포탑	17873
특화	17874
진심	17875
키리	17876
##장치	17877
##대사	17878
여유	17879
너무나	17880
THE	17881
700	17882
FA	17883
소닉	17884
예측	17885
문학	17886
메인	17887
##프리	17888
##배우	17889
오랫	17890
박정	17891
절망	17892
소드	17893
신문	17894
흥행	17895
수술	17896
ㅕㅆ	17897
도발	17898
가시	17899
전공	17900
구원	17901
근육	17902
신호	17903
착각	17904
정복	17905
커맨	17906
사자	17907
시드	17908
총리	17909
끼치	17910
1988	17911
의무	17912
유대	17913
어떠	17914
제임스	17915
개체	17916
개정	17917
MVP	17918
외계	17919
리메이크	17920
국방	17921
홀로	17922
요정	17923
연대	17924
##지방	17925
아끼	17926
떠오르	17927
육성	17928
넘치	17929
##타자	17930
그대	17931
초창기	17932
좌우	17933
고백	17934
출력	17935
소형	17936
##라노	17937
루시	17938
강철	17939
여지	17940
##커스	17941
팀원	17942
##네스	17943
차라리	17944
##페인	17945
실리	17946
Ro	17947
물러나	17948
긍정	17949
##OT	17950
인정받	17951
베스트	17952
아기	17953
스토	17954
피부	17955
초등학교	17956
인연	17957
목격	17958
니시	17959
파트너	17960
예비	17961
##러드	17962
정착	17963
##팩트	17964
##행위	17965
##아시아	17966
번개	17967
챕터	17968
탱크	17969
연도	17970
아일랜드	17971
요코	17972
CC	17973
에서부터	17974
계정	17975
상호	17976
플랫	17977
바치	17978
##속도로	17979
전시	17980
Wh	17981
타이거	17982
플레	17983
어린이	17984
발달	17985
위장	17986
헤이	17987
안드로이드	17988
파이어	17989
##작용	17990
영향력	17991
길드	17992
이주	17993
는다면	17994
AK	17995
예고	17996
묘지	17997
식민	17998
신설	17999
갤럭시	18000
슬롯	18001
세이브	18002
내장	18003
대항	18004
헌법	18005
##세스	18006
떠올리	18007
몰아	18008
미츠	18009
##자드	18010
##마크	18011
박근혜	18012
##ect	18013
차트	18014
각자	18015
DLC	18016
오사카	18017
하필	18018
깨지	18019
대폭	18020
라면서	18021
명중률	18022
htt	18023
고문	18024
Se	18025
##포터	18026
1970	18027
##카리	18028
카라	18029
코인	18030
##평가	18031
청년	18032
사양	18033
예능	18034
농구	18035
양쪽	18036
##잡이	18037
후속작	18038
으려고	18039
히데	18040
최소한	18041
Le	18042
##저스	18043
마침내	18044
##티스	18045
호주	18046
수록곡	18047
분기	18048
의뢰	18049
아바	18050
'.	18051
본작	18052
강의	18053
게스트	18054
악역	18055
관할	18056
##대상	18057
주간	18058
전후	18059
##시리즈	18060
##위키	18061
협박	18062
현역	18063
##닉스	18064
누적	18065
국왕	18066
공지	18067
용사	18068
저녁	18069
He	18070
인증	18071
##무장	18072
오랫동안	18073
세르	18074
그럼	18075
PD	18076
막차	18077
골든	18078
루타	18079
안내	18080
##age	18081
##의회	18082
##IS	18083
##그리	18084
아빠	18085
미카	18086
우리나라	18087
신기	18088
기원전	18089
##미니	18090
주말	18091
부서	18092
al	18093
트로	18094
역임	18095
일자	18096
방출	18097
육체	18098
의존	18099
구멍	18100
가속	18101
괴롭히	18102
##필드	18103
전선	18104
메모리	18105
카오스	18106
분량	18107
적대	18108
웨이	18109
어쨌	18110
세종	18111
kt	18112
감옥	18113
부부	18114
망치	18115
##어나오	18116
커플	18117
##지대	18118
연인	18119
##나카	18120
장교	18121
올해	18122
Go	18123
다가오	18124
##도르	18125
터치	18126
해리	18127
Me	18128
##브라	18129
아가	18130
이지	18131
간혹	18132
비행기	18133
장악	18134
오늘날	18135
이끄	18136
요원	18137
##크로	18138
##밀리	18139
실버	18140
명성	18141
년만	18142
강남	18143
##무르	18144
코미	18145
##박스	18146
빌드	18147
개방	18148
일본군	18149
융합	18150
##물관	18151
정글	18152
노부	18153
원자	18154
예쁘	18155
틀리	18156
정치인	18157
놀랍	18158
노르	18159
보고	18160
##워치	18161
더라	18162
GT	18163
대지	18164
처벌	18165
가량	18166
대처	18167
출마	18168
오가	18169
김태	18170
1989	18171
형사	18172
KIA	18173
떨어	18174
투어	18175
마구	18176
써먹	18177
놓이	18178
은행	18179
지능	18180
##og	18181
포스트	18182
##ake	18183
##몬드	18184
##ide	18185
배트	18186
상당수	18187
한동안	18188
트레이드	18189
개성	18190
이집	18191
희귀	18192
스튜디오	18193
외형	18194
재미있	18195
자치	18196
오전	18197
전문가	18198
먹히	18199
##OM	18200
Be	18201
십자	18202
My	18203
무덤	18204
피격	18205
##경찰	18206
WW	18207
커지	18208
패하	18209
사제	18210
호텔	18211
준수	18212
이즈	18213
접촉	18214
##타입	18215
환승	18216
섞이	18217
부위	18218
소지	18219
의료	18220
130	18221
##제국	18222
환영	18223
갇히	18224
고교	18225
가게	18226
윌리엄	18227
##려주	18228
꼽히	18229
소원	18230
담기	18231
포르투	18232
대표팀	18233
바위	18234
AR	18235
##ss	18236
둘째	18237
허리	18238
SC	18239
이집트	18240
최다	18241
##ark	18242
합의	18243
소총	18244
오스트리아	18245
초간	18246
플로	18247
##ime	18248
인조	18249
필리	18250
깨닫	18251
##ire	18252
따라가	18253
안티	18254
SM	18255
##천시	18256
편곡	18257
선전	18258
##문제	18259
화제	18260
##우드	18261
정류장	18262
국회	18263
##가시	18264
##치기	18265
수련	18266
188	18267
논리	18268
웹툰	18269
으러	18270
wh	18271
아니면	18272
116	18273
손가락	18274
확대	18275
알렉산	18276
까다	18277
구도	18278
전진	18279
my	18280
Su	18281
문재	18282
##랭크	18283
##네임	18284
##ES	18285
핸드	18286
은근히	18287
전신	18288
삼국지	18289
ㄴ다고	18290
##누스	18291
스톰	18292
SD	18293
어른	18294
귀신	18295
ㅓ도	18296
알아보	18297
상업	18298
##노우	18299
흐름	18300
##산업	18301
##ID	18302
입구	18303
극복	18304
고등	18305
##안타	18306
성립	18307
태그	18308
소중	18309
더더	18310
권리	18311
대개	18312
치우	18313
연타	18314
Tr	18315
미디어	18316
는지라	18317
스웨덴	18318
국가대표팀	18319
청소년	18320
##ite	18321
##던가	18322
축제	18323
새벽	18324
접속	18325
독특	18326
별다르	18327
##지로	18328
고구	18329
튀어나오	18330
##다랗	18331
변호사	18332
무렵	18333
할아버지	18334
수수	18335
익히	18336
구나	18337
##덩이	18338
무겁	18339
모모	18340
일격	18341
태평	18342
ᆫ다며	18343
라이프	18344
굴리	18345
조언	18346
수십	18347
160	18348
##ound	18349
블레이드	18350
작곡가	18351
편입	18352
리치	18353
연극	18354
멀쩡	18355
SR	18356
페이즈	18357
칭하	18358
##iv	18359
동의	18360
일찍	18361
바이러스	18362
더더욱	18363
HD	18364
일일	18365
''	18366
팬덤	18367
퀄리티	18368
평가받	18369
사카	18370
차리	18371
##쳐지	18372
빼앗기	18373
병기	18374
까다롭	18375
원수	18376
음원	18377
보안	18378
팔리	18379
혐의	18380
원본	18381
블로그	18382
##협회	18383
##큐어	18384
시즈	18385
##iz	18386
##OP	18387
카타	18388
##ge	18389
한마디	18390
훗날	18391
권한	18392
위상	18393
기사단	18394
트윈	18395
허나	18396
랭킹	18397
검찰	18398
첫차	18399
적군	18400
절대로	18401
IC	18402
돼지	18403
##항공	18404
##속성	18405
클래식	18406
손해	18407
살아가	18408
##리얼	18409
챔피언스	18410
브레이크	18411
주식	18412
대가	18413
##지구	18414
클리	18415
식사	18416
##OW	18417
대충	18418
보관	18419
##스톤	18420
합체	18421
느라	18422
면역	18423
##주인	18424
증언	18425
##사관	18426
애플	18427
주포	18428
처형	18429
갈수록	18430
죄다	18431
##감독	18432
##시로	18433
각본	18434
시선	18435
적응	18436
하얗	18437
누나	18438
계단	18439
한쪽	18440
무릎	18441
미술	18442
참석	18443
금속	18444
##아프	18445
아트	18446
리듬	18447
공공	18448
매직	18449
##리나	18450
과연	18451
##키아	18452
신세	18453
결코	18454
모자라	18455
개시	18456
네임	18457
우위	18458
##사령	18459
마이너	18460
한참	18461
내성	18462
개입	18463
결합	18464
##무시	18465
카미	18466
전철	18467
스승	18468
##코토	18469
후방	18470
기적	18471
##법원	18472
##LL	18473
유이	18474
해안	18475
토르	18476
##ome	18477
활발	18478
동화	18479
지진	18480
미소	18481
헤비	18482
사도	18483
수익	18484
슈팅	18485
다음날	18486
천재	18487
정수	18488
Gr	18489
불교	18490
##공학	18491
연구소	18492
어다	18493
해상	18494
##고속	18495
경기력	18496
내세우	18497
##머스	18498
크리스마스	18499
치유	18500
with	18501
김민	18502
우연히	18503
##전대	18504
사이즈	18505
원칙	18506
스태	18507
##BA	18508
최종보스	18509
유물	18510
디버프	18511
##지사	18512
이영	18513
##그마	18514
털리	18515
##UN	18516
시계	18517
루수	18518
캐스팅	18519
자금	18520
유치	18521
캠페인	18522
개막	18523
트랜	18524
통치	18525
커맨드	18526
연료	18527
김종	18528
오래되	18529
스타크래프트	18530
사막	18531
데려오	18532
이민	18533
세포	18534
이글	18535
비추	18536
디아	18537
##범위	18538
컬러	18539
##싸움	18540
##비드	18541
선출	18542
위대	18543
IS	18544
##마리	18545
지위	18546
투명	18547
칭찬	18548
의회	18549
으라	18550
인지도	18551
게이트	18552
##타카	18553
결말	18554
##일보	18555
회상	18556
메뉴	18557
충성	18558
하야	18559
전성기	18560
이자	18561
해적	18562
##양함	18563
1987	18564
플랫폼	18565
업체	18566
추가바람	18567
de	18568
##데미	18569
녹색	18570
##리우스	18571
전멸	18572
##비치	18573
BE	18574
##우리	18575
흔들리	18576
##방식	18577
px	18578
정찰	18579
어지간	18580
140	18581
열쇠	18582
김동	18583
오카	18584
나치	18585
정비	18586
이정	18587
눈치채	18588
##MA	18589
구사	18590
Pr	18591
도서관	18592
미나	18593
흔적	18594
##말리	18595
##테르	18596
거인	18597
이식	18598
상태이상	18599
신비	18600
##ord	18601
무작	18602
Love	18603
방사	18604
##어서	18605
상급	18606
어쨌든	18607
자국	18608
오직	18609
일반인	18610
새기	18611
호위	18612
웃음	18613
##ud	18614
주기	18615
어마	18616
취미	18617
작화	18618
구경	18619
##주의자	18620
지속시간	18621
포트	18622
제정	18623
고수	18624
네오	18625
농담	18626
후계	18627
대대	18628
프리큐어	18629
안경	18630
어려움	18631
레이드	18632
사이드	18633
ch	18634
날짜	18635
화성	18636
도주	18637
으시	18638
##멘트	18639
챌린	18640
행적	18641
본체	18642
패션	18643
회말	18644
개량	18645
불타	18646
##mp	18647
##주민	18648
고스트	18649
모조리	18650
##려나	18651
매년	18652
##사람	18653
스틸	18654
거점	18655
하락	18656
대리	18657
##10	18658
사후	18659
당일	18660
생존자	18661
모래	18662
##ame	18663
UE	18664
##반도	18665
##ance	18666
개수	18667
의대	18668
니코	18669
SKT	18670
##ax	18671
남북	18672
네트	18673
로그	18674
상성	18675
진보	18676
코우	18677
동굴	18678
자세히	18679
an	18680
코코	18681
스마트폰	18682
아이스	18683
JR	18684
가짜	18685
##ure	18686
기울	18687
일본인	18688
흥미	18689
##ix	18690
900	18691
##회장	18692
GS	18693
관중	18694
시달리	18695
##시스트	18696
기르	18697
##문학	18698
메르	18699
##기업	18700
##ick	18701
누리	18702
##mer	18703
비례	18704
브루	18705
채택	18706
캡틴	18707
일방	18708
덧붙이	18709
국적	18710
개혁	18711
식량	18712
몽골	18713
##ice	18714
포격	18715
아티스트	18716
가을	18717
예시	18718
임대	18719
아미	18720
스프링	18721
##게이	18722
업적	18723
재현	18724
##our	18725
화학	18726
##음악	18727
Bo	18728
행하	18729
레이스	18730
유나이	18731
유니폼	18732
##월드	18733
궤도	18734
귀찮	18735
방지	18736
기용	18737
영구	18738
바깥	18739
잘못되	18740
울리	18741
루이	18742
집어	18743
생겨나	18744
피아노	18745
승점	18746
##버스터	18747
연패	18748
스톤	18749
##아다니	18750
EP	18751
노인	18752
식민지	18753
소속사	18754
1986	18755
추구	18756
##지르	18757
협상	18758
##그라	18759
거듭	18760
##위대	18761
날아오	18762
리드	18763
볼트	18764
##로디	18765
미안	18766
자리잡	18767
##인민공화국	18768
##랑이	18769
잠재	18770
자극	18771
##투수	18772
사형	18773
선택지	18774
1960	18775
다름	18776
단편	18777
특집	18778
##역사	18779
OST	18780
양성	18781
신부	18782
무방	18783
신앙	18784
##류탄	18785
데모	18786
저작	18787
잡지	18788
이익	18789
엔터테	18790
빨갛	18791
KO	18792
야스	18793
##{{	18794
Un	18795
제갈	18796
예수	18797
취향	18798
공원	18799
종목	18800
할머니	18801
##차량	18802
쌍둥이	18803
간신	18804
중장	18805
스턴	18806
##버그	18807
보라	18808
라이온	18809
Ex	18810
아즈	18811
##시험	18812
비주	18813
출입	18814
제작자	18815
일치	18816
프라이	18817
기병	18818
소장	18819
스트리	18820
넥센	18821
##개발	18822
소위	18823
명확	18824
##AD	18825
정원	18826
##qu	18827
타인	18828
전주	18829
무역	18830
캐리	18831
강요	18832
어택	18833
몰락	18834
포항	18835
##럼프	18836
예산	18837
##oc	18838
다치	18839
총선	18840
사신	18841
{{{	18842
콜라보	18843
안타깝	18844
잘리	18845
판매량	18846
유희왕	18847
즐겁	18848
그만두	18849
사우	18850
##처리	18851
막대	18852
크라	18853
포로	18854
##80	18855
타락	18856
조약	18857
##우승	18858
가상	18859
실망	18860
터뜨리	18861
GB	18862
##학원	18863
재산	18864
색깔	18865
곡명	18866
찾아내	18867
##라엘	18868
UEFA	18869
##자치	18870
##센트	18871
연승	18872
단단	18873
화물	18874
세이버	18875
##레벨	18876
깔끔	18877
기도	18878
즉위	18879
##병기	18880
휴대	18881
유나이티드	18882
DS	18883
##버전	18884
귀환	18885
비상	18886
186	18887
##own	18888
칼리	18889
초보	18890
##도로	18891
sh	18892
##거지	18893
##ys	18894
##블린	18895
##작전	18896
포르투갈	18897
백성	18898
너희	18899
신장	18900
챔피언십	18901
아마도	18902
CPU	18903
중독	18904
미루	18905
색상	18906
로고	18907
##터스	18908
클레	18909
게시판	18910
블리	18911
##테일	18912
##든가	18913
명단	18914
아카데미	18915
항복	18916
##수사	18917
공성	18918
##ber	18919
식당	18920
고구려	18921
외전	18922
미스터	18923
##레일	18924
김재	18925
강원도	18926
통산	18927
인격	18928
등지	18929
베네	18930
##레드	18931
유적	18932
칭호	18933
항공기	18934
조별	18935
##이너	18936
적합	18937
We	18938
AM	18939
구석	18940
##슬러	18941
커다랗	18942
사라	18943
##교사	18944
아쿠	18945
교장	18946
중대	18947
타율	18948
대선	18949
김대	18950
105	18951
하단	18952
새끼	18953
건조	18954
##av	18955
##OC	18956
둘러싸	18957
일명	18958
수장	18959
오타	18960
유효	18961
탈퇴	18962
교류	18963
카트	18964
끊기	18965
레알	18966
##old	18967
커리어	18968
포위	18969
탄창	18970
커피	18971
무지	18972
시내버스	18973
.."	18974
타수	18975
로즈	18976
인치	18977
체크	18978
호수	18979
고작	18980
개국	18981
CF	18982
흑인	18983
면모	18984
공무원	18985
반사	18986
마키	18987
LI	18988
추억	18989
측정	18990
그러니까	18991
##orld	18992
예언	18993
##인간	18994
나무위키	18995
##로봇	18996
박히	18997
구글	18998
포수	18999
라스	19000
라인업	19001
기종	19002
주사	19003
후술	19004
자폭	19005
기생	19006
트라이	19007
히어로즈	19008
휴식	19009
지대	19010
상술	19011
아저	19012
##드리드	19013
적당히	19014
다름없	19015
용기	19016
##학과	19017
##시절	19018
흘러	19019
저런	19020
배터리	19021
화장실	19022
마약	19023
고맙	19024
사유	19025
메시지	19026
과목	19027
실전	19028
일기	19029
##여자	19030
미라	19031
면적	19032
데드	19033
승객	19034
다스	19035
성남	19036
1984	19037
##같이	19038
##고지	19039
아메리카	19040
형상	19041
차이점	19042
선고	19043
주소	19044
##ont	19045
1985	19046
마비	19047
더럽	19048
반동	19049
리얼	19050
최신	19051
어이	19052
국경	19053
철수	19054
##려들	19055
남녀	19056
아랍	19057
매니저	19058
근본	19059
##포르	19060
187	19061
도적	19062
보존	19063
##번트	19064
SH	19065
추종	19066
##유럽	19067
##어마	19068
증오	19069
피터	19070
3000	19071
승률	19072
용서	19073
강도	19074
매장	19075
한글판	19076
소프트웨어	19077
##축구	19078
하차	19079
##폭탄	19080
AD	19081
##ies	19082
떨어뜨리	19083
LC	19084
사정거리	19085
DF	19086
급격	19087
입지	19088
메리	19089
서포터	19090
유통	19091
크리스탈	19092
만명	19093
후원	19094
또다시	19095
##에르	19096
이슈	19097
마드리드	19098
lo	19099
치루	19100
KBO	19101
본사	19102
##베스	19103
관람	19104
부각	19105
도끼	19106
서구	19107
더러	19108
미묘	19109
영주	19110
연예인	19111
시너지	19112
##동물	19113
아르헨	19114
후배	19115
토끼	19116
생략	19117
쓸모	19118
아이콘	19119
아테	19120
집행	19121
##통신	19122
루카	19123
잠수함	19124
네요	19125
데려가	19126
후손	19127
액티브	19128
It	19129
부지	19130
##lay	19131
주역	19132
자전	19133
XX	19134
중첩	19135
이스라엘	19136
##경제	19137
꾸미	19138
왕위	19139
허락	19140
##여객	19141
언더	19142
그랜드	19143
천만	19144
저렴	19145
##기지	19146
마린	19147
##비디오	19148
중립	19149
##본부	19150
기아	19151
##사무	19152
동성	19153
뜬금	19154
오랜만	19155
네트워크	19156
공세	19157
상단	19158
클랜	19159
기량	19160
들키	19161
튕기	19162
소라	19163
총알	19164
##하면	19165
이수	19166
아케이드	19167
간신히	19168
##페이	19169
음모	19170
##OD	19171
신사	19172
무척	19173
MF	19174
##니시	19175
##크라	19176
##걸이	19177
숙련	19178
수류탄	19179
##포스	19180
방어구	19181
발행	19182
마술	19183
##US	19184
서식	19185
##슬링	19186
글로벌	19187
부딪	19188
거미	19189
배차	19190
생년	19191
취약	19192
##모스	19193
관측	19194
구르	19195
##산시	19196
터미널	19197
상인	19198
텔레비전	19199
알아내	19200
해피	19201
물리치	19202
혹시	19203
마주치	19204
흡혈	19205
CV	19206
가만	19207
회초	19208
블러드	19209
##카오	19210
자막	19211
맛있	19212
상실	19213
##라기	19214
아이언	19215
WWE	19216
창원	19217
행보	19218
곤란	19219
일족	19220
##디스	19221
##다운	19222
.....	19223
학자	19224
##PM	19225
법정	19226
##ann	19227
관찰	19228
아틀	19229
공룡	19230
논의	19231
지경	19232
금융	19233
바퀴	19234
머무르	19235
##사이드	19236
스페이스	19237
NE	19238
사귀	19239
라기	19240
수출	19241
애정	19242
아르헨티나	19243
재정	19244
어마어마	19245
SE	19246
나폴	19247
자본	19248
강등	19249
아시안	19250
곳곳	19251
##40	19252
##타운	19253
오버워치	19254
타마	19255
##사랑	19256
잡아먹	19257
고위	19258
파크	19259
이마	19260
##마스터	19261
125	19262
##pe	19263
멘탈	19264
텍스트	19265
##30	19266
##태우	19267
깨어나	19268
대수	19269
슈트	19270
인종	19271
잡아내	19272
간접	19273
공방	19274
내보내	19275
관점	19276
자이언츠	19277
침략	19278
경상북도	19279
##체육	19280
결심	19281
스트라이크	19282
구리	19283
철학	19284
시노	19285
문구	19286
차기	19287
격추	19288
오라	19289
단장	19290
토벌	19291
리스	19292
시마	19293
##sh	19294
유학	19295
표지	19296
your	19297
##하마	19298
되돌리	19299
산하	19300
더군	19301
##불명	19302
##전기	19303
악당	19304
##그나	19305
기숙	19306
하루카	19307
##그래	19308
##NA	19309
중세	19310
##도리	19311
위반	19312
##노트	19313
오크	19314
앨리스	19315
##신교	19316
트랜스	19317
가동	19318
상관없	19319
소스	19320
김현	19321
백제	19322
##기구	19323
정화	19324
찍히	19325
평생	19326
상영	19327
헤어지	19328
얻어	19329
약화	19330
##VD	19331
##던지	19332
정차	19333
연합군	19334
냄새	19335
CJ	19336
연금	19337
메달	19338
미터	19339
AS	19340
니콜	19341
##에이	19342
충실	19343
타선	19344
이혼	19345
안기	19346
드라이브	19347
언덕	19348
쿼터	19349
금방	19350
파츠	19351
거울	19352
##어하	19353
드래프트	19354
##벌레	19355
에리	19356
엘리트	19357
DE	19358
##월일	19359
##승부	19360
동인	19361
간주	19362
와타	19363
##싱턴	19364
담배	19365
서서	19366
##ng	19367
보호막	19368
강자	19369
낮추	19370
##io	19371
스플	19372
성별	19373
초록	19374
문재인	19375
배포	19376
##사이트	19377
우라	19378
침입	19379
뽑히	19380
빠져	19381
긴장	19382
묘하	19383
상기	19384
스팀	19385
제작사	19386
반전	19387
존재감	19388
인민	19389
루나	19390
다카	19391
주둔	19392
본부	19393
호기	19394
내전	19395
##검사	19396
상세	19397
로우	19398
야생	19399
##젠가	19400
기관총	19401
마법소녀	19402
복구	19403
##너먼트	19404
;&	19405
엮이	19406
백작	19407
##아키	19408
##바닥	19409
정기	19410
##공간	19411
언젠가	19412
해치	19413
제출	19414
티켓	19415
판결	19416
폐쇄	19417
에요	19418
모시	19419
##oo	19420
양자	19421
제약	19422
화재	19423
##팡이	19424
동양	19425
천안	19426
균형	19427
레이더	19428
지불	19429
후계자	19430
재밌	19431
악명	19432
짜증	19433
170	19434
뮤직비디오	19435
Pro	19436
이듬	19437
엑스트라	19438
조연	19439
##누리	19440
로버트	19441
부적	19442
은신	19443
잔뜩	19444
##히코	19445
심사	19446
표면	19447
두개	19448
전세계	19449
펀치	19450
유력	19451
지뢰	19452
##바나	19453
불사	19454
##열차	19455
##하르트	19456
에르	19457
세인트	19458
저택	19459
##ave	19460
##전선	19461
뮤지컬	19462
##포인트	19463
맥스	19464
행운	19465
백인	19466
업로드	19467
변환	19468
프로필	19469
에다가	19470
답변	19471
쏟아지	19472
경주	19473
매체	19474
##LE	19475
##구장	19476
뱀파이어	19477
사쿠	19478
소유자	19479
##스럽	19480
프란	19481
휘말리	19482
인용	19483
LV	19484
계통	19485
윈도우	19486
합병	19487
##훈련	19488
위성	19489
심심	19490
스키	19491
that	19492
##운서	19493
뜨겁	19494
본관	19495
천하	19496
체결	19497
UP	19498
해명	19499
##방향	19500
태평양	19501
프로토스	19502
난입	19503
정황	19504
생년월일	19505
헨리	19506
부임	19507
##방어	19508
분명히	19509
바리	19510
브로	19511
코리아	19512
창단	19513
유독	19514
히나	19515
임신	19516
##ION	19517
라인전	19518
동점	19519
##주교	19520
##쿠스	19521
건드리	19522
노동자	19523
금메달	19524
상관없이	19525
캐논	19526
부자	19527
##ream	19528
선두	19529
보완	19530
##플렉	19531
려던	19532
ED	19533
1500	19534
##가루	19535
구축함	19536
견디	19537
괴수	19538
호칭	19539
EN	19540
잃어버리	19541
용인	19542
디지몬	19543
내지	19544
와일드	19545
여야	19546
수백	19547
한나라	19548
공허	19549
대인	19550
말투	19551
악화	19552
서번트	19553
해골	19554
정예	19555
이듬해	19556
항의	19557
다이아몬드	19558
외계인	19559
하향	19560
##갈리	19561
전승	19562
개설	19563
준우승	19564
##부로	19565
##ond	19566
##다나	19567
1982	19568
영광	19569
전파	19570
호흡	19571
어뢰	19572
->	19573
살펴	19574
미쿠	19575
선거구	19576
##르타	19577
여우	19578
찬스	19579
살펴보	19580
바이오	19581
발렌	19582
끔찍	19583
유발	19584
통계	19585
착하	19586
경로	19587
##체제	19588
##iss	19589
Com	19590
머신	19591
5000	19592
딜링	19593
##국제	19594
도루	19595
칼날	19596
왠지	19597
삽입	19598
##마르	19599
기믹	19600
뛰어넘	19601
카스	19602
실종	19603
창설	19604
##하시	19605
##드레	19606
민첩	19607
스크린	19608
지치	19609
돌입	19610
부드	19611
##재판	19612
##레인저	19613
파르	19614
##슈타인	19615
##이동	19616
고도	19617
참가자	19618
인디	19619
유인	19620
아저씨	19621
혐오	19622
막내	19623
마루	19624
##마치	19625
호환	19626
##코어	19627
간격	19628
커녕	19629
존경	19630
그렇지만	19631
수호자	19632
##대원	19633
##중간	19634
집착	19635
걸맞	19636
여객	19637
시라	19638
사살	19639
성질	19640
1950	19641
법원	19642
도박	19643
미키	19644
##블로	19645
시상	19646
##IP	19647
##11	19648
정통	19649
청소	19650
채팅	19651
기숙사	19652
단축	19653
토너먼트	19654
트럭	19655
허가	19656
사원	19657
반박	19658
경남	19659
##전투	19660
아츠	19661
수면	19662
주차	19663
배트맨	19664
드럼	19665
##중앙	19666
낚시	19667
1983	19668
깔리	19669
우정	19670
##니카	19671
감추	19672
##즈마	19673
전북	19674
##60	19675
이종	19676
##드립	19677
##ian	19678
??	19679
by	19680
동명	19681
시원	19682
아나운서	19683
디젤	19684
he	19685
##다보	19686
싫어하	19687
##쟁이	19688
드라이버	19689
사용자	19690
세븐	19691
께서	19692
부드럽	19693
기상	19694
분쟁	19695
##디움	19696
문단	19697
요약	19698
무라	19699
버스터	19700
기름	19701
##레이크	19702
퇴장	19703
##장비	19704
철저	19705
라틴	19706
진압	19707
용량	19708
BL	19709
자녀	19710
##키스	19711
물고기	19712
건국	19713
탄환	19714
플래시	19715
분신	19716
&#	19717
완결	19718
로얄	19719
##고속도로	19720
작년	19721
##페이스	19722
##카이도	19723
go	19724
입대	19725
전제	19726
덩치	19727
##토르	19728
불펜	19729
그럭	19730
미네	19731
##파크	19732
중력	19733
탐험	19734
관계자	19735
스텔	19736
##저럭	19737
경상남도	19738
공정	19739
만남	19740
선제	19741
원딜	19742
트럼프	19743
조이	19744
리뷰	19745
갑작	19746
분열	19747
스위스	19748
##런트	19749
펼쳐지	19750
##세서	19751
그럭저럭	19752
오디션	19753
배정	19754
중형	19755
웃기	19756
제트	19757
##Hz	19758
모노	19759
이토	19760
안녕	19761
노벨	19762
##TV	19763
미만	19764
카와	19765
##토미	19766
국군	19767
적중	19768
##노리	19769
사이버	19770
##후반	19771
아키라	19772
아동	19773
##사리	19774
학과	19775
평양	19776
나츠	19777
그린	19778
##틀러	19779
클라	19780
벌레	19781
유격	19782
호소	19783
##터미널	19784
##유닛	19785
헝가리	19786
##세대	19787
더이상	19788
##ory	19789
소속팀	19790
깨달	19791
축복	19792
비주얼	19793
##TE	19794
피안타	19795
이와	19796
구름	19797
태국	19798
##ace	19799
단행	19800
손상	19801
##rom	19802
또다른	19803
어빌	19804
##키지	19805
신전	19806
Co	19807
유전자	19808
리타	19809
웨스트	19810
콜로	19811
무관	19812
샌드	19813
인질	19814
도둑	19815
Bl	19816
스트레스	19817
배역	19818
신나	19819
##동자	19820
##텐도	19821
발리	19822
침묵	19823
익스	19824
코르	19825
어필	19826
;&#	19827
휘하	19828
기운	19829
##시즈	19830
나마	19831
대거	19832
##필더	19833
야수	19834
DVD	19835
##정책	19836
Br	19837
감각	19838
트롤	19839
##베리	19840
안전하	19841
급하	19842
워싱턴	19843
교차	19844
토니	19845
어그로	19846
##먼스	19847
발굴	19848
학력	19849
하이퍼	19850
스위치	19851
기동성	19852
트리플	19853
지라	19854
드롭	19855
승자	19856
##야수	19857
##계열	19858
옹호	19859
진학	19860
##키퍼	19861
위안	19862
상식	19863
주자	19864
Or	19865
근거리	19866
##패스	19867
##화점	19868
본진	19869
두르	19870
속이	19871
암시	19872
갈아	19873
영어판	19874
##oth	19875
공격속도	19876
부스터	19877
복제	19878
##ows	19879
두들	19880
##데드	19881
결투	19882
라니	19883
무시무시	19884
크림	19885
장거리	19886
솔직	19887
카를	19888
안나	19889
마디	19890
##셔널	19891
동남	19892
##MP	19893
재단	19894
요인	19895
날카	19896
세부	19897
삼각	19898
미드필더	19899
이펙트	19900
##사거리	19901
간단히	19902
비치	19903
팬텀	19904
##돌이	19905
##우치	19906
##투표	19907
후퇴	19908
##차기	19909
파동	19910
철거	19911
협회	19912
시신	19913
감지	19914
가라	19915
##TS	19916
처지	19917
우에	19918
보스전	19919
밀어	19920
주니어	19921
시카	19922
할인	19923
망가지	19924
##미터	19925
관리자	19926
무작위	19927
치즈	19928
큐브	19929
공산당	19930
요금	19931
차체	19932
동급	19933
기둥	19934
##크리	19935
출격	19936
마블	19937
##워즈	19938
##예술	19939
루비	19940
괜히	19941
##제도	19942
한반도	19943
열매	19944
##IG	19945
##마츠	19946
논문	19947
개발자	19948
##든지	19949
##틀랜드	19950
함수	19951
##단지	19952
항구	19953
CG	19954
바쁘	19955
하우스	19956
무사히	19957
##aw	19958
185	19959
날카롭	19960
발매일	19961
올스타	19962
블라	19963
테일	19964
##코스	19965
##조직	19966
파편	19967
##지수	19968
기재	19969
##공업	19970
최상위	19971
그레	19972
독일군	19973
##라이드	19974
마감	19975
수능	19976
실책	19977
간간	19978
야마토	19979
레지	19980
즉사	19981
연습생	19982
끼우	19983
과도	19984
국정	19985
##ale	19986
SNS	19987
보충	19988
리오	19989
##기어	19990
지칭	19991
부근	19992
마케	19993
PV	19994
##미르	19995
파생	19996
원리	19997
장탄	19998
록맨	19999
논쟁	20000
##ike	20001
##자동차	20002
타쿠	20003
온도	20004
기세	20005
특별히	20006
더군다나	20007
아쉬	20008
약탈	20009
상륙	20010
##즈니	20011
영원히	20012
개별	20013
1945	20014
후자	20015
증상	20016
루이스	20017
유성	20018
Cl	20019
성당	20020
임기	20021
선행	20022
페이스북	20023
인피	20024
For	20025
구미	20026
소요	20027
무인	20028
진주	20029
대치	20030
##나리	20031
자전거	20032
막판	20033
무산	20034
내일	20035
축하	20036
퍼포	20037
피우	20038
RPG	20039
부장	20040
학문	20041
##사우	20042
매번	20043
왜냐	20044
안양	20045
세계대전	20046
흰색	20047
##래시	20048
##OU	20049
여러분	20050
오키	20051
##메가	20052
방송국	20053
Dr	20054
##하루	20055
만주	20056
데이비드	20057
유산	20058
모토	20059
요한	20060
첼시	20061
암살자	20062
서서히	20063
배출	20064
놀이	20065
##ep	20066
##종합	20067
중복	20068
출루	20069
소음	20070
중시	20071
##기록	20072
에그	20073
구슬	20074
##irl	20075
선조	20076
동경	20077
악몽	20078
##자와	20079
##man	20080
임팩트	20081
근대	20082
주류	20083
최적	20084
중국어	20085
신도	20086
##ach	20087
##ile	20088
175	20089
영지	20090
에반	20091
1981	20092
우세	20093
Sc	20094
BB	20095
##부인	20096
수비력	20097
OP	20098
슬프	20099
승인	20100
과장	20101
102	20102
그날	20103
교과	20104
교실	20105
필리핀	20106
스즈	20107
117	20108
조리	20109
신발	20110
##히트	20111
##피해	20112
부착	20113
골키퍼	20114
세번	20115
베이징	20116
코미디	20117
노스	20118
##12	20119
Team	20120
106	20121
만일	20122
##하이	20123
프리미엄	20124
끌려가	20125
이브	20126
미즈	20127
과학자	20128
##VA	20129
수명	20130
##네시아	20131
LA	20132
일당	20133
플래그	20134
##ink	20135
Sk	20136
잠입	20137
며칠	20138
사사	20139
고객	20140
브라운	20141
##타마	20142
의외로	20143
Mo	20144
금액	20145
페널티	20146
복무	20147
악기	20148
GP	20149
감싸	20150
오마	20151
멜로디	20152
권위	20153
가만히	20154
교토	20155
라이플	20156
헬기	20157
지리	20158
챌린지	20159
프로토	20160
코난	20161
천연	20162
DD	20163
##어놓	20164
위원회	20165
싱크	20166
115	20167
권장	20168
##이어	20169
김경	20170
베타	20171
연맹	20172
퍼포먼스	20173
물량	20174
미나미	20175
##법인	20176
구별	20177
청와	20178
닌텐도	20179
카츠	20180
스트리트	20181
원형	20182
고개	20183
질병	20184
공용	20185
소방	20186
ᆯ게	20187
진격	20188
잠들	20189
장인	20190
##모함	20191
##ial	20192
해킹	20193
전망	20194
FM	20195
##페라	20196
##숭이	20197
건네	20198
놀리	20199
##렐라	20200
##ish	20201
가방	20202
언데드	20203
귀국	20204
##클럽	20205
SU	20206
여인	20207
1979	20208
부실	20209
엘리자	20210
가공	20211
냐면	20212
규격	20213
청와대	20214
개신교	20215
좌석	20216
UN	20217
디스크	20218
대조	20219
파란색	20220
##의식	20221
##아트	20222
엔젤	20223
직장	20224
타석	20225
##릴라	20226
만만	20227
최우	20228
응용	20229
선임	20230
오스만	20231
당대	20232
한두	20233
에릭	20234
억지로	20235
김진	20236
시그	20237
억제	20238
법칙	20239
한일	20240
육상	20241
##루미	20242
새누리	20243
합계	20244
뽑아내	20245
프렌	20246
##우라	20247
인권	20248
##ower	20249
안개	20250
취득	20251
신입	20252
학부	20253
가루	20254
치킨	20255
다가가	20256
가죽	20257
통화	20258
왜곡	20259
토리	20260
양상	20261
행방	20262
지팡이	20263
궁금	20264
여자친구	20265
입주	20266
이웃	20267
##라이브	20268
가디언	20269
헤어	20270
##II	20271
##오루	20272
Bla	20273
아이러	20274
##슬라	20275
사립	20276
패널	20277
독재	20278
긴급	20279
시리아	20280
명백	20281
ᄇ시오	20282
일화	20283
제독	20284
회색	20285
김상	20286
방치	20287
콘텐츠	20288
체험	20289
연령	20290
계시	20291
이터	20292
##바야	20293
후임	20294
야간	20295
혼돈	20296
##키리	20297
대단히	20298
마물	20299
기갑	20300
공백	20301
즈음	20302
##GE	20303
캐스터	20304
동계	20305
프리미어	20306
##여행	20307
##우트	20308
모로	20309
##로이드	20310
양식	20311
야구장	20312
출구	20313
##계획	20314
해내	20315
고장	20316
강점	20317
원조	20318
하츠	20319
커스	20320
##공주	20321
##호환	20322
수동	20323
부동	20324
주관	20325
수급	20326
##계약	20327
CH	20328
김기	20329
일람	20330
전무	20331
##조합	20332
변수	20333
고지	20334
경직	20335
we	20336
임금	20337
확산	20338
재회	20339
클릭	20340
모스크	20341
끊임	20342
BS	20343
##IM	20344
부서지	20345
Ne	20346
공수	20347
처참	20348
##!!	20349
우르	20350
감동	20351
Star	20352
##업체	20353
관여	20354
여학생	20355
마우스	20356
##체스터	20357
가요	20358
랜드	20359
평점	20360
발목	20361
싸이	20362
코멘트	20363
나나	20364
오염	20365
시합	20366
부산광역시	20367
##포드	20368
비틀	20369
기후	20370
조상	20371
리라	20372
독점	20373
슬로	20374
비웃	20375
로빈	20376
##저기	20377
돌연	20378
##천군	20379
전라남도	20380
포켓몬스터	20381
PR	20382
기동전사	20383
미국인	20384
##차례	20385
장신	20386
ID	20387
##노선	20388
사법	20389
##베이터	20390
뒤지	20391
호랑이	20392
질투	20393
##어드	20394
타이거즈	20395
조롱	20396
생명체	20397
스파이더	20398
화산	20399
사이코	20400
통틀	20401
##만화	20402
##저리	20403
##번에	20404
Wind	20405
공화	20406
기쁘	20407
##전설	20408
대포	20409
안좋	20410
감상	20411
350	20412
##리포	20413
##카락	20414
깜짝	20415
에디	20416
##슬리	20417
##99	20418
일본판	20419
임의	20420
##소설	20421
과제	20422
내각	20423
공립	20424
교도	20425
손오	20426
엄격	20427
택하	20428
up	20429
##민족	20430
평일	20431
우주선	20432
카운트	20433
데이트	20434
풍부	20435
분당	20436
소송	20437
유언	20438
폭행	20439
출간	20440
청주	20441
개장	20442
피닉스	20443
LP	20444
등번호	20445
함께하	20446
##자료	20447
##라이즈	20448
마스크	20449
서클	20450
##야스	20451
DC	20452
노바	20453
승무원	20454
파멸	20455
나비	20456
War	20457
격차	20458
##배치	20459
분해	20460
fe	20461
And	20462
약물	20463
복원	20464
전남	20465
체감	20466
##사단	20467
신자	20468
어떻게들	20469
남매	20470
서포트	20471
배달	20472
메이플	20473
상한	20474
##세력	20475
카구	20476
머리카락	20477
##구미	20478
도저히	20479
정발	20480
##ass	20481
##나이트	20482
조기	20483
어드벤	20484
테라	20485
뚫리	20486
추방	20487
##티어	20488
손실	20489
토지	20490
##구조	20491
라이온즈	20492
뒤늦	20493
##ms	20494
##me	20495
모험가	20496
성경	20497
자꾸	20498
세라	20499
360	20500
Man	20501
치열	20502
아레나	20503
만지	20504
오로지	20505
에픽	20506
시크	20507
재학	20508
원더	20509
112	20510
투사	20511
바르셀	20512
질리	20513
장미	20514
고소	20515
조용히	20516
배급	20517
특전	20518
극도	20519
##기능	20520
##정치	20521
디바	20522
##전문	20523
마코토	20524
##gh	20525
구성원	20526
나노	20527
중량	20528
따뜻	20529
사용시	20530
이라크	20531
리버풀	20532
조명	20533
##CG	20534
천년	20535
##렉션	20536
다운로드	20537
시인	20538
##진영	20539
프레이	20540
##리스타	20541
뭉치	20542
108	20543
##모델	20544
##하하	20545
All	20546
박물관	20547
유기	20548
아지	20549
인력	20550
집합	20551
그중	20552
AKB	20553
권유	20554
##아프리카	20555
소용	20556
캠프	20557
##tle	20558
스탠드	20559
##pp	20560
디즈니	20561
고블린	20562
##ble	20563
분포	20564
##amp	20565
경북	20566
##업자	20567
묶이	20568
스펠	20569
일요일	20570
##를린	20571
중순	20572
넘버	20573
반감	20574
바르셀로나	20575
##려받	20576
##ft	20577
충청남도	20578
패전	20579
추리	20580
##천사	20581
창고	20582
안쪽	20583
##바지	20584
해산	20585
증폭	20586
지목	20587
단종	20588
려다	20589
##소총	20590
103	20591
상하이	20592
합리	20593
하마	20594
극중	20595
보이스	20596
레스	20597
루머	20598
수월	20599
붙잡히	20600
##데타	20601
비유	20602
트위치	20603
출범	20604
축소	20605
##yle	20606
딜레이	20607
##센스	20608
##70	20609
인방	20610
루피	20611
##ous	20612
폐기	20613
##코프	20614
당사자	20615
학기	20616
기력	20617
어시스트	20618
막아내	20619
조우	20620
##코치	20621
##상황	20622
세금	20623
수직	20624
타츠	20625
##now	20626
##제한	20627
##atch	20628
서머	20629
##후보	20630
##sp	20631
전대	20632
##혁명	20633
##케이션	20634
넘어지	20635
One	20636
##구나	20637
킬러	20638
넘어서	20639
투척	20640
Mar	20641
집권	20642
본토	20643
불행	20644
##orm	20645
기묘	20646
##스티벌	20647
전당	20648
벌리	20649
자비	20650
얻어맞	20651
수색	20652
폭파	20653
New	20654
To	20655
학습	20656
ON	20657
##민주당	20658
여파	20659
직선	20660
승진	20661
##수리	20662
##히토	20663
세팅	20664
##방법	20665
주최	20666
키타	20667
##란히	20668
김용	20669
ex	20670
무승부	20671
##사격	20672
세뇌	20673
패키지	20674
꼬이	20675
장사	20676
##차이	20677
낙선	20678
나루토	20679
대기시간	20680
나요	20681
IN	20682
야쿠	20683
순환	20684
막상	20685
물체	20686
범죄자	20687
##간격	20688
던가	20689
BR	20690
모집	20691
농업	20692
경악	20693
Part	20694
절차	20695
후회	20696
되살	20697
유의	20698
##블리	20699
KR	20700
부딪히	20701
반짝	20702
수석	20703
가난	20704
두렵	20705
배제	20706
Gam	20707
##레인지	20708
채보	20709
살아나	20710
SF	20711
##모어	20712
실현	20713
토요일	20714
비명	20715
국당	20716
유출	20717
까이	20718
하나하나	20719
오이	20720
복선	20721
##ING	20722
광산	20723
당당	20724
함락	20725
수립	20726
잠실	20727
집어넣	20728
극히	20729
헤르	20730
CS	20731
##반기	20732
손자	20733
우호	20734
##비용	20735
엄밀	20736
워커	20737
모듈	20738
좌절	20739
일렉	20740
##트론	20741
포드	20742
리스트	20743
##위원장	20744
토큰	20745
비극	20746
우월	20747
우익	20748
파울	20749
결전	20750
산탄	20751
선사	20752
복합	20753
##장갑	20754
##더라	20755
##ment	20756
##생기	20757
PP	20758
하여	20759
##테스	20760
해병대	20761
명목	20762
블래	20763
실시간	20764
##ae	20765
중동	20766
##관광	20767
무술	20768
인접	20769
제네	20770
##64	20771
수비수	20772
유재	20773
자책	20774
##자체	20775
메이드	20776
128	20777
이동속도	20778
지향	20779
빨간	20780
##트릭	20781
장탄수	20782
배려	20783
나르	20784
한국판	20785
택시	20786
##ase	20787
기호	20788
동아리	20789
하인	20790
지연	20791
레코드	20792
스티븐	20793
##카미	20794
마땅	20795
##ree	20796
피트	20797
조커	20798
중화민국	20799
쳐들	20800
유망	20801
ᆫ다거나	20802
되돌	20803
생전	20804
##아들	20805
안심	20806
분산	20807
닉네임	20808
루크	20809
수염	20810
##토니	20811
달려가	20812
신속	20813
동반	20814
짐작	20815
김해	20816
##버드	20817
히틀러	20818
핑크	20819
철권	20820
불량	20821
엔드	20822
의자	20823
En	20824
##장면	20825
태풍	20826
울프	20827
서울시	20828
제갈량	20829
크레딧	20830
와카	20831
때려	20832
##느리	20833
##게이트	20834
드루	20835
슈퍼로봇	20836
알바	20837
사회주의	20838
양손	20839
캠퍼스	20840
연산	20841
확장팩	20842
1978	20843
기부	20844
네티	20845
1973	20846
각오	20847
상담	20848
##리포니아	20849
주택	20850
JT	20851
웨이브	20852
여섯	20853
날씨	20854
함부로	20855
각지	20856
##미네	20857
히메	20858
암호	20859
역습	20860
바론	20861
##뻐하	20862
기뻐하	20863
합동	20864
어쩌면	20865
184	20866
근원	20867
조카	20868
##az	20869
케인	20870
##bo	20871
돌보	20872
마스	20873
유니크	20874
거론	20875
처분	20876
센스	20877
제치	20878
동해	20879
벤치	20880
##키스탄	20881
그외	20882
##깨비	20883
아가씨	20884
스타디움	20885
저하	20886
보라색	20887
뜬금없이	20888
첫째	20889
AN	20890
오락	20891
유전	20892
공격수	20893
호남	20894
World	20895
##기에	20896
##ason	20897
구장	20898
호불	20899
##사스	20900
중후반	20901
##AY	20902
111	20903
매출	20904
방탄	20905
수습	20906
체중	20907
##놀이	20908
220	20909
이글스	20910
힙합	20911
도시철도	20912
##데레	20913
오브젝트	20914
##iki	20915
초콜	20916
고증	20917
호불호	20918
여럿	20919
명의	20920
트라	20921
캐시	20922
##저우	20923
교단	20924
183	20925
사인	20926
대성	20927
배드	20928
말레이	20929
공업	20930
샷건	20931
ㄴ데	20932
퇴각	20933
거칠	20934
로이	20935
여전	20936
짐승	20937
스캔	20938
JP	20939
트라우	20940
시상식	20941
혈액	20942
사무실	20943
낙하	20944
거든	20945
여의	20946
깊이	20947
유미	20948
온천	20949
난사	20950
##아아	20951
##르드	20952
사키	20953
원시	20954
중상	20955
##스레	20956
여기저기	20957
##ear	20958
So	20959
##실점	20960
##성군	20961
추세	20962
사야	20963
##장군	20964
검술	20965
네티즌	20966
마계	20967
꼬마	20968
##규모	20969
공인	20970
##러브	20971
##hen	20972
카자	20973
흡사	20974
갈색	20975
보드	20976
캘리포니아	20977
빨간색	20978
스나이	20979
240	20980
조르	20981
빠져나가	20982
##운트	20983
##스타일	20984
노란색	20985
하계	20986
동서	20987
##나기	20988
레일	20989
찬성	20990
탐사	20991
막강	20992
##아치	20993
##MS	20994
##생명	20995
조회	20996
명문	20997
sp	20998
평하	20999
##립스	21000
장난감	21001
퍼즐	21002
심의	21003
모니	21004
네임드	21005
##토리아	21006
사이클	21007
박살내	21008
전날	21009
날뛰	21010
시공	21011
##사르	21012
##are	21013
프린세스	21014
노조	21015
케이블	21016
려다가	21017
FW	21018
토우	21019
장례	21020
공감	21021
밀어내	21022
포장	21023
두들기	21024
맥주	21025
차갑	21026
장로	21027
하프	21028
토미	21029
체인지	21030
GO	21031
골렘	21032
썬더	21033
트루	21034
올드	21035
포획	21036
##직자	21037
견해	21038
유혹	21039
이세	21040
소니	21041
베를린	21042
아베	21043
터널	21044
매주	21045
원문	21046
인자	21047
##신문	21048
키보드	21049
강렬	21050
경호	21051
세리	21052
연봉	21053
스미스	21054
##가다	21055
번지	21056
알라	21057
ᄇ니까	21058
타이탄	21059
훈장	21060
##추어	21061
개척	21062
핀란드	21063
드론	21064
1974	21065
구조물	21066
가두	21067
돋보이	21068
스쿨	21069
##헤이	21070
감수	21071
우유	21072
인재	21073
샤이	21074
오메가	21075
뮌헨	21076
스코틀랜드	21077
tv	21078
프랑스어	21079
이모	21080
사로	21081
통로	21082
포스터	21083
당기	21084
물품	21085
일가	21086
베어스	21087
호시	21088
그랑	21089
아이러니	21090
베테	21091
마오	21092
벨트	21093
트라우마	21094
고로	21095
##환경	21096
후반기	21097
http	21098
우측	21099
트레이너	21100
##범죄	21101
##주인공	21102
진상	21103
김준	21104
주행	21105
1972	21106
신용	21107
조선시대	21108
키미	21109
보건	21110
책임지	21111
끌리	21112
##90	21113
##반대	21114
트로피	21115
##ven	21116
비스	21117
성씨	21118
힐러	21119
다지	21120
##ife	21121
시종	21122
완공	21123
리아	21124
흔들	21125
##스토리	21126
전락	21127
통칭	21128
토마	21129
말기	21130
https	21131
##의자	21132
사퇴	21133
위로	21134
결혼식	21135
토대	21136
콘솔	21137
##건설	21138
서바이	21139
튼튼	21140
진급	21141
ᆯ려	21142
원곡	21143
허무	21144
배수	21145
##ade	21146
가담	21147
혜택	21148
왕실	21149
히가시	21150
왕복	21151
코트	21152
학생회	21153
##AP	21154
##맥스	21155
##상자	21156
Wi	21157
트리거	21158
##연구소	21159
체육관	21160
강경	21161
밀려나	21162
##츠카	21163
이순	21164
신데	21165
토크	21166
로맨	21167
중지	21168
##차리	21169
##머신	21170
시카고	21171
이경	21172
##구간	21173
다투	21174
스즈키	21175
##무부	21176
##요소	21177
행정구역	21178
트윈스	21179
대령	21180
##미사	21181
잭슨	21182
스텝	21183
연쇄	21184
중부	21185
##요원	21186
동행	21187
베리	21188
쓸데	21189
##act	21190
##버스터미널	21191
MB	21192
~!	21193
나아지	21194
##레오	21195
##ai	21196
##게이머	21197
##ank	21198
반도	21199
##gin	21200
드로우	21201
##어트	21202
버섯	21203
%/	21204
덴마크	21205
유입	21206
박살나	21207
포스트시즌	21208
바둑	21209
do	21210
시비	21211
압력	21212
고리	21213
센서	21214
##aby	21215
플라이	21216
목사	21217
최저	21218
천천	21219
산타	21220
리즈	21221
아바타	21222
##소수	21223
부작용	21224
국도	21225
코믹	21226
재개	21227
인도네시아	21228
104	21229
한창	21230
##out	21231
수여	21232
단행본	21233
탐정	21234
##캐릭	21235
사악	21236
청나라	21237
##아메	21238
상주	21239
Fate	21240
no	21241
이점	21242
영감	21243
교복	21244
소재지	21245
##도사	21246
손꼽	21247
대시	21248
시바	21249
타일	21250
##선생	21251
렌즈	21252
백업	21253
히든	21254
##산역	21255
##무스	21256
##에른	21257
실내	21258
##퍼드	21259
깎이	21260
넘어오	21261
손쉽	21262
제물	21263
김일	21264
시로	21265
워크래프트	21266
이누	21267
1975	21268
배차간격	21269
민주주의	21270
프로듀스	21271
##보호	21272
##타리	21273
##명사	21274
##테이	21275
대책	21276
##lect	21277
어벤	21278
##그르	21279
트레일러	21280
LIVE	21281
간간히	21282
##미아	21283
도덕	21284
넉백	21285
##저런	21286
123	21287
기수	21288
벨기에	21289
징역	21290
설령	21291
리처	21292
신데렐라	21293
세월호	21294
##페르	21295
쿠데타	21296
탐색	21297
##보우	21298
##총장	21299
침대	21300
끊임없이	21301
##ET	21302
포탄	21303
등극	21304
범용	21305
을수록	21306
입자	21307
폴리	21308
해양	21309
##oll	21310
전동차	21311
약자	21312
실상	21313
NH	21314
페스티벌	21315
끌어들이	21316
##바야시	21317
입문	21318
관통력	21319
일주	21320
##치아	21321
##른바	21322
대타	21323
##UM	21324
Up	21325
##루션	21326
디시	21327
OS	21328
노무	21329
이른바	21330
그레이트	21331
업계	21332
##탐정	21333
장애물	21334
##액션	21335
1976	21336
필요없	21337
여타	21338
##사우루스	21339
마피아	21340
are	21341
재직	21342
알렉스	21343
레온	21344
전향	21345
스타리그	21346
신중	21347
III	21348
##ork	21349
년도	21350
다스리	21351
성실	21352
이런저런	21353
우승자	21354
오우	21355
토키	21356
원주민	21357
여서	21358
소금	21359
이어받	21360
섀도우	21361
최선	21362
노르웨이	21363
창문	21364
그러므로	21365
깃발	21366
클린	21367
알레	21368
##소스	21369
Do	21370
듀오	21371
##ary	21372
##에어	21373
왼손	21374
콤비	21375
장성	21376
커스텀	21377
거북	21378
Oh	21379
공통점	21380
왜냐하면	21381
ㄴ지	21382
부재	21383
##way	21384
침투	21385
우치	21386
##타르	21387
아스카	21388
카더라	21389
피스	21390
신선	21391
홀리	21392
마일	21393
##이치로	21394
이병	21395
일간	21396
캐치	21397
119	21398
끌어올리	21399
##프라	21400
밀도	21401
츠바	21402
따라오	21403
전격	21404
초등	21405
슬라	21406
참모	21407
후일	21408
브라이언	21409
맞붙	21410
탐지	21411
불태우	21412
##조선	21413
##틀리	21414
특급	21415
##ey	21416
관우	21417
##ich	21418
할리	21419
모스크바	21420
이현	21421
해머	21422
동력	21423
사로잡	21424
##께끼	21425
135	21426
스트라이커	21427
딸리	21428
109	21429
베테랑	21430
은지	21431
엔지	21432
시호	21433
올바르	21434
수수께끼	21435
장남	21436
승차	21437
ES	21438
발명	21439
##조각	21440
박정희	21441
주교	21442
##시기	21443
강릉	21444
##대교	21445
Mk	21446
으려는	21447
김수	21448
비전	21449
##장애	21450
아이디어	21451
##생물	21452
##세기	21453
왕비	21454
탄핵	21455
저자	21456
##상시	21457
중화인민공화국	21458
초인	21459
우스	21460
중고	21461
변동	21462
이대	21463
바이올	21464
확신	21465
잔인	21466
##으로	21467
보험	21468
콘스탄	21469
##대기	21470
복사	21471
바이에른	21472
소통	21473
릴리	21474
##요리	21475
스핀	21476
입증	21477
Ad	21478
꿈꾸	21479
사천	21480
계수	21481
##그러	21482
능력자	21483
어나	21484
당초	21485
다큐	21486
단발	21487
페미니	21488
기구	21489
손오공	21490
땅볼	21491
lv	21492
형편	21493
라라	21494
한나라당	21495
대학원	21496
재건	21497
프라임	21498
유연	21499
클라우	21500
도라	21501
##레일리아	21502
코스튬	21503
all	21504
##물리	21505
Day	21506
##체계	21507
규제	21508
드림	21509
패널티	21510
포즈	21511
명분	21512
친절	21513
피로	21514
AFC	21515
##루트	21516
와이번	21517
유망주	21518
구동	21519
##무지	21520
보스턴	21521
전송	21522
광선	21523
고종	21524
점유	21525
중위	21526
##군가	21527
##로프	21528
후미	21529
##아라	21530
##란트	21531
위엄	21532
부유	21533
##올림픽	21534
아비	21535
nd	21536
천천히	21537
우울	21538
##변이	21539
실은	21540
굴욕	21541
##pt	21542
고는	21543
182	21544
##리칸	21545
##대문	21546
어드벤처	21547
##orn	21548
흩어지	21549
오더	21550
초상	21551
폭스	21552
브레	21553
비비	21554
대전차	21555
선수단	21556
슈퍼로봇대전	21557
고무	21558
대접	21559
소대	21560
갑작스럽	21561
쇼핑	21562
모니터	21563
##레옹	21564
##통합	21565
중거리	21566
스피릿	21567
상무	21568
선장	21569
억원	21570
강간	21571
조종사	21572
도트	21573
쇼크	21574
##가포르	21575
레인저	21576
글씨	21577
양반	21578
근접전	21579
##이사	21580
##라가	21581
주일	21582
토요	21583
프로게이머	21584
어색	21585
친분	21586
구상	21587
우루	21588
아스트	21589
##운수	21590
##지오	21591
클론	21592
중심지	21593
충족	21594
케빈	21595
수하	21596
휴가	21597
센트	21598
##시피	21599
##지능	21600
121	21601
삼성전자	21602
취업	21603
오페라	21604
초콜릿	21605
리카	21606
영양	21607
일곱	21608
##나베	21609
1971	21610
싱가포르	21611
마틴	21612
Windows	21613
나폴레옹	21614
홋카이도	21615
##사령관	21616
항해	21617
광물	21618
##링크	21619
토마스	21620
##마사	21621
FF	21622
라그나	21623
달아나	21624
방송사	21625
대동	21626
검토	21627
광장	21628
소련군	21629
머물	21630
스탈	21631
145	21632
##로마	21633
열정	21634
개교	21635
107	21636
##부키	21637
파밍	21638
일관	21639
##렌지	21640
무공	21641
레벨업	21642
유료	21643
하급	21644
검열	21645
패밀리	21646
##토시	21647
="	21648
결제	21649
세로	21650
RA	21651
##모노	21652
광기	21653
우회	21654
독일어	21655
강전	21656
크라이	21657
비서	21658
강림	21659
도쿠	21660
구독	21661
무지막	21662
스마	21663
1977	21664
엑시즈	21665
##ah	21666
##EM	21667
##민주주의	21668
단검	21669
기울이	21670
동전	21671
##연맹	21672
크레이	21673
선박	21674
맹세	21675
##구청	21676
DP	21677
천황	21678
##도라	21679
으라고	21680
쫓겨나	21681
##뉴스	21682
산맥	21683
하이라이트	21684
##바시	21685
##바이트	21686
공헌	21687
발레	21688
잉여	21689
ML	21690
##사장	21691
##노동	21692
씌우	21693
사촌	21694
출산	21695
AA	21696
망명	21697
터트리	21698
연설	21699
키라	21700
엘리베이터	21701
비기	21702
손님	21703
의학	21704
##복지	21705
##very	21706
##론가	21707
##네마	21708
무지막지	21709
모임	21710
표절	21711
##uck	21712
부패	21713
게이머	21714
총합	21715
그후	21716
발판	21717
봉쇄	21718
임진	21719
보좌	21720
타이틀곡	21721
##불가	21722
누군가	21723
흑역사	21724
현금	21725
##떨어지	21726
관료	21727
자제	21728
고집	21729
해병	21730
여포	21731
대왕	21732
황후	21733
겸하	21734
찰스	21735
ne	21736
엔트리	21737
##사용	21738
극대	21739
잊히	21740
국제공항	21741
IT	21742
성배	21743
이대로	21744
본질	21745
##뉴얼	21746
생체	21747
토시	21748
경연	21749
지역구	21750
소모량	21751
김포	21752
할로	21753
br	21754
감탄	21755
##ph	21756
##모습	21757
Sw	21758
지붕	21759
##이나	21760
DPS	21761
포도	21762
##정지	21763
에이지	21764
BPM	21765
농장	21766
도깨비	21767
디펜	21768
JTBC	21769
창립	21770
자존	21771
시뮬	21772
제왕	21773
리틀	21774
대변	21775
210	21776
토하	21777
평행	21778
조국	21779
간섭	21780
전라북도	21781
인게임	21782
178	21783
멍청	21784
떨치	21785
질서	21786
##ero	21787
페어	21788
화해	21789
지인	21790
##인드	21791
##성능	21792
스태프	21793
몸통	21794
프로리그	21795
1969	21796
로리	21797
면하	21798
113	21799
그릇	21800
인칭	21801
".	21802
##플러스	21803
카리스	21804
오스트레일리아	21805
대박	21806
안동	21807
트릭	21808
노무현	21809
무실점	21810
##테이션	21811
##ool	21812
토트	21813
레이블	21814
압축	21815
##마귀	21816
천장	21817
외우	21818
음료	21819
동아	21820
165	21821
리처드	21822
스포일러	21823
##서스	21824
##세포	21825
##왕국	21826
러시	21827
##지점	21828
1968	21829
품질	21830
유격수	21831
1963	21832
##라미	21833
일리	21834
메카닉	21835
맨체스터	21836
##ical	21837
철저히	21838
##오버	21839
스티브	21840
라이언	21841
손꼽히	21842
분대	21843
여러번	21844
힘입	21845
불쌍	21846
바나	21847
중점	21848
민중	21849
주축	21850
역량	21851
NBA	21852
태클	21853
시골	21854
냉정	21855
카카오	21856
김유	21857
혈통	21858
저렇	21859
체코	21860
##urn	21861
꺼리	21862
마그	21863
디자이너	21864
##ype	21865
Ph	21866
##ARD	21867
##클리	21868
인천광역시	21869
##방울	21870
##드래	21871
Con	21872
홀드	21873
안나오	21874
2021	21875
정석	21876
파랗	21877
페르시아	21878
슬픔	21879
바지	21880
##anc	21881
고고	21882
블리자드	21883
아깝	21884
변태	21885
데빌	21886
걸즈	21887
에버	21888
군수	21889
카메	21890
나리	21891
임하	21892
깨끗	21893
다이스	21894
정사	21895
에드워드	21896
##작가	21897
드레	21898
##대왕	21899
수인	21900
매니아	21901
병역	21902
조화	21903
{{{#	21904
##거래	21905
박지	21906
실체	21907
광경	21908
히로시	21909
변이	21910
동정	21911
##은색	21912
155	21913
도장	21914
신동	21915
파티원	21916
타운	21917
입사	21918
존중	21919
운송	21920
제재	21921
Cr	21922
와인	21923
##ung	21924
출혈	21925
닥치	21926
엄연히	21927
위원장	21928
사우스	21929
열혈	21930
날아다니	21931
이라도	21932
명시	21933
호의	21934
의장	21935
김승	21936
물어	21937
OVA	21938
##조작	21939
답답	21940
울트라맨	21941
변장	21942
코토	21943
##태자	21944
국어	21945
하스	21946
예약	21947
앤드	21948
방위	21949
종결	21950
사리	21951
##세트	21952
122	21953
Qu	21954
납득	21955
연간	21956
초능력	21957
마유	21958
모순	21959
서울대학교	21960
조별리그	21961
매드	21962
말씀	21963
##소나	21964
##티노	21965
이오	21966
##아메리카	21967
Station	21968
단원	21969
181	21970
##드컵	21971
개명	21972
주체	21973
##행정	21974
##끼리	21975
시게	21976
TVA	21977
뚜렷	21978
압권	21979
##미나	21980
##히메	21981
훼손	21982
너머	21983
##저항	21984
스택	21985
모형	21986
광명	21987
144	21988
결계	21989
마산	21990
##속기	21991
주사위	21992
초청	21993
미궁	21994
얼티	21995
파도	21996
명명	21997
시사	21998
이단	21999
##위치	22000
엔지니어	22001
수천	22002
스폰서	22003
드레스	22004
오지	22005
보편	22006
LO	22007
애니판	22008
존스	22009
스노우	22010
프로레	22011
질량	22012
##ww	22013
엘리자베스	22014
카지	22015
절친	22016
한가	22017
미미	22018
아인	22019
KOF	22020
주목받	22021
강민	22022
소집	22023
##즈카	22024
촉수	22025
##앨범	22026
해소	22027
강호	22028
금강	22029
플러스	22030
헷갈리	22031
청구	22032
아오이	22033
##iver	22034
제노	22035
오죽	22036
치안	22037
##판정	22038
친척	22039
챔피언스리그	22040
장타	22041
at	22042
메이지	22043
애칭	22044
이원	22045
지분	22046
방심	22047
작정	22048
쓰리	22049
사투	22050
##사무소	22051
셔틀	22052
##철수	22053
토스	22054
투쟁	22055
##DD	22056
##텍스	22057
그립	22058
152	22059
가설	22060
마에	22061
테이블	22062
덤비	22063
화상	22064
박성	22065
어이없	22066
타구	22067
에로	22068
패자	22069
드래곤볼	22070
프로그래	22071
love	22072
프랜	22073
지력	22074
##멘터리	22075
이틀	22076
##주자	22077
##모션	22078
##ens	22079
이동속	22080
과자	22081
##노스케	22082
좌측	22083
스케일	22084
이명박	22085
강사	22086
좌익	22087
퍼스트	22088
일주일	22089
as	22090
민간인	22091
롤드컵	22092
신학	22093
교리	22094
편리	22095
##시스코	22096
##ost	22097
##중심	22098
액체	22099
사연	22100
신하	22101
기하	22102
재앙	22103
향후	22104
##드러지	22105
TR	22106
자칭	22107
트래	22108
테츠	22109
포터	22110
항공모함	22111
블로	22112
직책	22113
턴간	22114
도색	22115
부속	22116
빌딩	22117
마술사	22118
매각	22119
114	22120
미성	22121
멋대로	22122
엄밀히	22123
낭비	22124
검증	22125
용암	22126
유니버스	22127
##ence	22128
##마니아	22129
1930	22130
일컫	22131
스쿼	22132
인스타	22133
wiki	22134
애쉬	22135
아마추어	22136
이케	22137
##트랙	22138
학위	22139
어나더	22140
지혜	22141
과일	22142
##리스크	22143
##운동장	22144
##려워하	22145
스미	22146
IM	22147
##nt	22148
시간대	22149
##산동	22150
마음대로	22151
사명	22152
##극장	22153
녹화	22154
디오	22155
변명	22156
오니	22157
발발	22158
백만	22159
선진	22160
초록색	22161
##리코	22162
사무라이	22163
에도	22164
##과이	22165
##비행	22166
신지	22167
외곽	22168
from	22169
노가다	22170
##ise	22171
습니까	22172
로보	22173
##가요	22174
##젤레스	22175
##int	22176
히카	22177
돌연변이	22178
모델링	22179
우연	22180
옥상	22181
완화	22182
몰살	22183
알아채	22184
나미	22185
1920	22186
브래	22187
작위	22188
정성	22189
둘다	22190
라스트	22191
##상가	22192
##동맹	22193
에미	22194
179	22195
분할	22196
시조	22197
기차	22198
선회	22199
실사	22200
어스	22201
!"	22202
달려들	22203
성분	22204
텍사스	22205
##AK	22206
##하여	22207
석유	22208
죄책	22209
##돌프	22210
잘못하	22211
원피스	22212
씨앗	22213
의정부	22214
통째	22215
##국민	22216
인공지능	22217
Super	22218
오케	22219
거스	22220
국토	22221
아쿠아	22222
##의사	22223
총독	22224
MG	22225
매달리	22226
자아	22227
Fr	22228
1940	22229
BJ	22230
##시민	22231
can	22232
엉망	22233
##oy	22234
고등학생	22235
##엔딩	22236
불참	22237
아자	22238
버스트	22239
집계	22240
##진호	22241
유엔	22242
슈퍼맨	22243
제주도	22244
www	22245
##ign	22246
정반대	22247
CM	22248
플라스	22249
몇번	22250
라우	22251
침몰	22252
적절히	22253
한국시리즈	22254
리스크	22255
기본기	22256
미오	22257
정신력	22258
##르도	22259
##ans	22260
아담	22261
비스트	22262
유튜버	22263
계층	22264
어설	22265
이어서	22266
177	22267
은폐	22268
발탁	22269
아처	22270
카네	22271
휩쓸	22272
##도전	22273
##시스템	22274
중원	22275
##아머	22276
죄책감	22277
피카	22278
##수단	22279
목걸이	22280
최종전	22281
저기	22282
##ug	22283
전생	22284
Dream	22285
들여	22286
이소	22287
##가수	22288
코노	22289
덮치	22290
탄압	22291
다거나	22292
식품	22293
실용	22294
남동생	22295
혼인	22296
스카우트	22297
워프	22298
##스크림	22299
124	22300
추후	22301
상사	22302
##바스	22303
1967	22304
중구	22305
때로	22306
다시금	22307
생김	22308
총장	22309
착륙	22310
##바다	22311
참사	22312
억울	22313
좀더	22314
##인사	22315
이윤	22316
오른손	22317
##물질	22318
127	22319
그해	22320
원숭이	22321
##직원	22322
USB	22323
챔프	22324
감자	22325
##이후	22326
감당	22327
흘러가	22328
아무튼	22329
격려	22330
극한	22331
대구광역시	22332
뛰어들	22333
오노	22334
인벤	22335
지장	22336
플랜	22337
아리아	22338
갱신	22339
##보병	22340
발키리	22341
인성	22342
수위	22343
this	22344
##IR	22345
##캠퍼스	22346
##대신	22347
##질랜드	22348
오렌지	22349
이태	22350
##등급	22351
1200	22352
최순	22353
##공장	22354
아스날	22355
##vel	22356
수감	22357
##워프	22358
##레이트	22359
450	22360
만능	22361
무용	22362
##자원	22363
안무	22364
투기	22365
연전	22366
리퍼	22367
도심	22368
저서	22369
##차별	22370
원전	22371
동성애	22372
빈도	22373
중국인	22374
대위	22375
용이	22376
구형	22377
더빙판	22378
민감	22379
고아	22380
문양	22381
마케팅	22382
내버리	22383
히로시마	22384
욕설	22385
각인	22386
ERA	22387
##ode	22388
폭격기	22389
곤충	22390
신곡	22391
비우	22392
##결과	22393
##uk	22394
##대학원	22395
컴백	22396
##VER	22397
##엘라	22398
분홍	22399
##시고	22400
이세계	22401
바디	22402
##매치	22403
##뱅크	22404
##시청	22405
##고생	22406
유탄	22407
발각	22408
메시	22409
이타	22410
지오	22411
이별	22412
Fl	22413
사직	22414
Pl	22415
오다	22416
산소	22417
천명	22418
##고사	22419
풍기	22420
표적	22421
군요	22422
잔혹	22423
마하	22424
물려받	22425
Ver	22426
##부르	22427
상금	22428
성전	22429
공속	22430
망토	22431
제니	22432
시크릿	22433
녹이	22434
##부리	22435
##베트	22436
CE	22437
내외	22438
진에어	22439
이노	22440
뉴질랜드	22441
관장	22442
왕족	22443
합작	22444
터보	22445
그러면	22446
스컬	22447
자네	22448
정밀	22449
이온	22450
##클린	22451
급격히	22452
##베르크	22453
애완	22454
ᆫ데다	22455
궁극기	22456
가구	22457
블레이	22458
시외	22459
뺏기	22460
전이	22461
진동	22462
리프	22463
소비자	22464
박수	22465
게끔	22466
##모르	22467
EC	22468
메일	22469
특공	22470
마찰	22471
시트	22472
취재	22473
리모	22474
발급	22475
EXP	22476
카리스마	22477
아사히	22478
결의	22479
용자	22480
style	22481
##하우스	22482
##치오	22483
에디션	22484
##사진	22485
젤리	22486
##파티	22487
가이드	22488
서방	22489
대세	22490
유재석	22491
초점	22492
정점	22493
일체	22494
실존	22495
리나	22496
##당초	22497
##ier	22498
얽히	22499
개구리	22500
맞히	22501
도약	22502
경사	22503
면허	22504
부스트	22505
측근	22506
코스프레	22507
##기스	22508
방사능	22509
호러	22510
독립운동	22511
신한	22512
##와라	22513
김구	22514
경부	22515
Sch	22516
##일본	22517
격렬	22518
선포	22519
Girl	22520
Season	22521
두드러지	22522
##카스	22523
오죽하	22524
대차	22525
골프	22526
포탈	22527
명나라	22528
1962	22529
##먹이	22530
##ash	22531
IP	22532
만점	22533
##아스	22534
협조	22535
##우주	22536
##기준	22537
##도서관	22538
유우키	22539
ar	22540
맨유	22541
카테	22542
메이저리그	22543
##도어	22544
잔류	22545
La	22546
농민	22547
요미	22548
후쿠오카	22549
DM	22550
헬멧	22551
청춘	22552
##학부	22553
연소	22554
NO	22555
162	22556
약혼	22557
피지컬	22558
##테크	22559
##스트로	22560
선동	22561
미러	22562
이빨	22563
절벽	22564
황당	22565
tr	22566
서명	22567
##스틴	22568
118	22569
##폭력	22570
##박물관	22571
##와이	22572
연동	22573
궁합	22574
페어리	22575
그루	22576
반성	22577
WC	22578
##군주	22579
수신	22580
이놈	22581
아이디	22582
이사장	22583
##장소	22584
한양	22585
불러오	22586
호드	22587
##reat	22588
1966	22589
##IX	22590
##순위	22591
##노미야	22592
정규시즌	22593
종전	22594
친애	22595
흡혈귀	22596
아유	22597
선로	22598
기질	22599
복지	22600
벙커	22601
아랫	22602
고립	22603
##헤드	22604
기동력	22605
유카	22606
잠기	22607
##ib	22608
혁신	22609
벗기	22610
리온	22611
미정	22612
##왕후	22613
자존심	22614
점심	22615
중견	22616
에메	22617
철도역	22618
한하	22619
314	22620
돌려주	22621
##보기	22622
벌써	22623
오퍼	22624
부작	22625
지선	22626
생김새	22627
기리	22628
그로	22629
유진	22630
##usic	22631
모욕	22632
Max	22633
위쪽	22634
질주	22635
흥분	22636
일조	22637
유아	22638
반역	22639
정조	22640
거세	22641
사방	22642
대피	22643
할로윈	22644
트릴	22645
사수	22646
##구니	22647
##베리아	22648
##밴드	22649
고난	22650
하사	22651
750	22652
모종	22653
##무늬	22654
##렉터	22655
징계	22656
레이디	22657
##백질	22658
춤추	22659
스매	22660
예의	22661
1964	22662
##백과	22663
디스플레이	22664
##당기	22665
미인	22666
국방부	22667
로렌	22668
쉴드	22669
부천	22670
래퍼	22671
##제품	22672
마야	22673
주석	22674
미노	22675
리본	22676
그간	22677
한강	22678
이이	22679
##글링	22680
정문	22681
부러지	22682
한꺼	22683
##금지	22684
월간	22685
Vol	22686
TS	22687
금요일	22688
아포	22689
##그레	22690
수중	22691
이용자	22692
DNA	22693
##국어	22694
가위	22695
리사	22696
망설	22697
문신	22698
침착	22699
##드라마	22700
스파이더맨	22701
다니엘	22702
##세지	22703
토트넘	22704
파운드	22705
능가	22706
집회	22707
교과서	22708
사치	22709
루프	22710
##폴리스	22711
스나이퍼	22712
필름	22713
Ed	22714
화폐	22715
##전력	22716
##캐릭터	22717
기소	22718
각도	22719
##}}	22720
무지개	22721
--	22722
남동	22723
빙결	22724
강대	22725
##ose	22726
ld	22727
##대체	22728
그쪽	22729
서류	22730
천상	22731
서열	22732
교역	22733
카운티	22734
우두	22735
탱킹	22736
김지	22737
건지	22738
##바퀴	22739
##니즘	22740
리코	22741
적시타	22742
AV	22743
자이언트	22744
갈라지	22745
한꺼번에	22746
트윗	22747
두려워하	22748
##다드	22749
부동산	22750
##데미지	22751
노랗	22752
김주	22753
방안	22754
원로	22755
amp	22756
소생	22757
왕가	22758
자율	22759
모터	22760
Col	22761
서적	22762
오만	22763
종로	22764
통솔	22765
##니스트	22766
블럭	22767
##te	22768
so	22769
기껏	22770
현자	22771
GM	22772
경성	22773
중소	22774
네크로	22775
여자아이	22776
서기	22777
HE	22778
홈경기	22779
도감	22780
진단	22781
##해자	22782
샤오	22783
여태	22784
극심	22785
선원	22786
##우지	22787
욕망	22788
츠키	22789
##ail	22790
##msys	22791
##플러	22792
부끄럽	22793
영국군	22794
##ition	22795
ldmsys	22796
##발전	22797
##닐라	22798
불길	22799
내셔널	22800
섬기	22801
팔레	22802
사물	22803
모음	22804
테마곡	22805
함장	22806
유고	22807
애인	22808
구로	22809
출판사	22810
학급	22811
평등	22812
환생	22813
다녀	22814
rd	22815
서울대	22816
탈환	22817
숙소	22818
##안전	22819
##시내	22820
Night	22821
##현상	22822
태생	22823
충청북도	22824
##칼리	22825
바텀	22826
판사	22827
##공개	22828
BC	22829
혼합	22830
##들목	22831
초과	22832
워리어	22833
상냥	22834
스탈린	22835
키요	22836
학년도	22837
직위	22838
not	22839
특수능력	22840
##기념	22841
필사	22842
알렉산드	22843
##오피스	22844
재즈	22845
계절	22846
줄기	22847
고인	22848
말레이시아	22849
제의	22850
##IL	22851
##자카	22852
달려오	22853
협동	22854
김광	22855
학대	22856
##타니	22857
소나	22858
지루	22859
공대	22860
프론	22861
앨런	22862
아마존	22863
중간중간	22864
항공사	22865
메트로	22866
암컷	22867
##ild	22868
이니	22869
유니콘	22870
뻔하	22871
168	22872
하여금	22873
정그르	22874
한정판	22875
강인	22876
##베르트	22877
##파일	22878
Let	22879
유메	22880
탈취	22881
##제스	22882
청하	22883
##정당	22884
살인사건	22885
저글링	22886
등재	22887
과시	22888
소소	22889
페르소나	22890
##사령부	22891
인텔	22892
유틸	22893
안쓰	22894
월호	22895
보강	22896
스텟	22897
급행	22898
병행	22899
시범	22900
##ody	22901
프로야구	22902
돌려	22903
유동	22904
##바루	22905
남양	22906
##프란	22907
관직	22908
Black	22909
팔라	22910
간판	22911
##수준	22912
법인	22913
##아니	22914
159	22915
오토바이	22916
각국	22917
요격	22918
입원	22919
시온	22920
일환	22921
##수라	22922
존슨	22923
희생자	22924
##가족	22925
퇴치	22926
지지율	22927
이행	22928
도서	22929
스네	22930
박쥐	22931
BD	22932
##해군	22933
라마	22934
요코하마	22935
##리건	22936
대검	22937
케이크	22938
전지	22939
##본인	22940
보고서	22941
재배	22942
##항목	22943
라인하르트	22944
리버스	22945
만렙	22946
문화재	22947
도배	22948
##등록	22949
이념	22950
소서	22951
윤리	22952
연고	22953
맛보	22954
##총리	22955
브론	22956
이승만	22957
로키	22958
라틴어	22959
##베이스	22960
출동	22961
마도카	22962
어원	22963
노부나가	22964
승패	22965
빅토리아	22966
##바리	22967
매그	22968
부친	22969
1948	22970
디아블로	22971
mar	22972
##ough	22973
아무렇	22974
종영	22975
##각형	22976
야당	22977
원판	22978
중재	22979
집필	22980
##기병	22981
동구	22982
이천	22983
AF	22984
욕심	22985
##볼트	22986
MM	22987
챔스	22988
포션	22989
1944	22990
신작	22991
1965	22992
##수수	22993
아카네	22994
OG	22995
##33	22996
두껍	22997
히드라	22998
삼키	22999
ᆯ래	23000
##파리	23001
교도소	23002
로스앤	23003
##카라	23004
인쇄	23005
카피	23006
검정	23007
##통수	23008
대니	23009
퍼펙트	23010
전담	23011
포착	23012
##지도	23013
##재료	23014
엉덩이	23015
##ㅋㅋ	23016
RE	23017
카일	23018
협정	23019
배구	23020
무능	23021
연이	23022
##메스	23023
와이번스	23024
눈앞	23025
프랑크	23026
로스앤젤레스	23027
##보라	23028
밀리언	23029
4000	23030
도대체	23031
아메리칸	23032
섭취	23033
미소녀	23034
애용	23035
Op	23036
부채	23037
##실장	23038
##이센	23039
신생	23040
다케	23041
##gr	23042
##결정	23043
##플렉스	23044
성사	23045
리바	23046
세자	23047
피자	23048
피난	23049
진술	23050
본능	23051
성벽	23052
레이싱	23053
멸종	23054
객관	23055
포크	23056
##aster	23057
ㅔ요	23058
##데르	23059
외야수	23060
지크	23061
아니하	23062
내밀	23063
점검	23064
아슬	23065
##app	23066
스텔스	23067
평상시	23068
##orts	23069
사이토	23070
이계	23071
##퍼니	23072
게르	23073
빌보드	23074
목욕	23075
그리핀	23076
쿄코	23077
해운	23078
바닷	23079
그란	23080
프롤	23081
해전	23082
주저	23083
그림체	23084
괴인	23085
유스	23086
##지기	23087
##uc	23088
##은이	23089
인피니티	23090
목포	23091
소득	23092
사용가능	23093
국무	23094
테니스	23095
헤라	23096
조립	23097
1946	23098
##회담	23099
##연대	23100
계곡	23101
물자	23102
화석	23103
동북	23104
걸어가	23105
##서비스	23106
세르비아	23107
레버	23108
학사	23109
화신	23110
PK	23111
##작업	23112
성명	23113
페리	23114
##예선	23115
흑막	23116
성지	23117
헬리	23118
대학생	23119
열대	23120
난민	23121
##삼거리	23122
원한	23123
부시	23124
수성	23125
##CE	23126
박자	23127
##소문	23128
울음	23129
대승	23130
최상급	23131
독백	23132
##형제	23133
##ject	23134
달콤	23135
en	23136
##어택	23137
드워프	23138
타로	23139
그리스도	23140
역명	23141
##OO	23142
강동	23143
EXT	23144
제발	23145
부제	23146
폭로	23147
##애나	23148
##개혁	23149
..?	23150
스타워즈	23151
##확률	23152
김대중	23153
##ari	23154
##뮤직	23155
math	23156
##긋나	23157
컨디션	23158
약체	23159
나이프	23160
##래스	23161
평택	23162
##시다	23163
레나	23164
믿음	23165
무신	23166
블라디	23167
민폐	23168
단백질	23169
##행성	23170
##플레	23171
##스티스	23172
le	23173
AL	23174
테란	23175
장판	23176
CR	23177
과금	23178
금발	23179
순간이동	23180
아쉬움	23181
아울	23182
다큐멘터리	23183
메디	23184
편의점	23185
##마당	23186
휴대폰	23187
EZ	23188
확립	23189
스타트	23190
아르바이트	23191
두려움	23192
하이드	23193
바쿠	23194
펌프	23195
꺼지	23196
수컷	23197
알렉산더	23198
모빌	23199
점멸	23200
필라	23201
와타나베	23202
전임	23203
##iel	23204
떠돌	23205
궁전	23206
라이너	23207
마인드	23208
사임	23209
유머	23210
##공단	23211
##미트	23212
가오	23213
적이	23214
테오	23215
한신	23216
적자	23217
151	23218
##국장	23219
분배	23220
##장고	23221
로스트	23222
아리스	23223
남학생	23224
개막전	23225
##형태	23226
138	23227
권하	23228
뭐하	23229
Gu	23230
출석	23231
장본인	23232
프랭크	23233
으려면	23234
평판	23235
SA	23236
##인원	23237
두루	23238
던지라	23239
스카웃	23240
숙청	23241
##부족	23242
한대	23243
격퇴	23244
##무네	23245
타치	23246
조회수	23247
남한	23248
##주군	23249
320	23250
172	23251
회복량	23252
직행	23253
고사	23254
모나	23255
##교수	23256
동아시아	23257
##타스	23258
GSL	23259
가해자	23260
가마	23261
에코	23262
ㅂ니다	23263
이쿠	23264
히라	23265
마쓰	23266
##어인	23267
코끼리	23268
신념	23269
득표율	23270
눈동자	23271
년전	23272
막부	23273
무도	23274
철갑	23275
순천	23276
##TA	23277
##테스트	23278
##성이	23279
우즈	23280
퀴즈	23281
배후	23282
주입	23283
개업	23284
마라	23285
자사	23286
ATK	23287
가령	23288
##ats	23289
단자	23290
해변	23291
##ye	23292
살아오	23293
호크	23294
고의	23295
메이커	23296
단서	23297
무한도전	23298
축구선수	23299
아폴	23300
점하	23301
##로소	23302
타카하시	23303
EU	23304
##eah	23305
안토니	23306
샘플	23307
김치	23308
천국	23309
##회관	23310
315	23311
시련	23312
혼혈	23313
##스피	23314
1961	23315
빡치	23316
고가	23317
대면	23318
평론가	23319
##따르	23320
둥글	23321
##슈트	23322
GD	23323
티저	23324
최순실	23325
대안	23326
어벤져	23327
##문서	23328
TOP	23329
Mag	23330
158	23331
동상	23332
기인	23333
##순환	23334
내정	23335
##그라운드	23336
주머니	23337
추모	23338
엘레	23339
카시	23340
얼티밋	23341
##무대	23342
강서	23343
그리하여	23344
CL	23345
##라이나	23346
##스테이션	23347
##미즈	23348
##모니	23349
탁월	23350
란스	23351
정답	23352
큐어	23353
마타	23354
찔리	23355
얼리	23356
항성	23357
으리	23358
강아지	23359
변호	23360
배리	23361
방언	23362
AB	23363
영화제	23364
NT	23365
섬멸	23366
경찰서	23367
치고	23368
관광객	23369
ver	23370
##박사	23371
오비	23372
건너가	23373
오공	23374
응답	23375
##재단	23376
사나	23377
##모양	23378
UC	23379
엠블	23380
##oh	23381
##eth	23382
악행	23383
호리	23384
투고	23385
다녀오	23386
비단	23387
하지	23388
어기	23389
##ron	23390
샤를	23391
하느	23392
##상승	23393
##재기	23394
퓨전	23395
둥지	23396
##회복	23397
박스오피스	23398
관계없이	23399
##카타	23400
찬양	23401
여수	23402
충고	23403
사가	23404
소꿉	23405
중도	23406
##ings	23407
짜증나	23408
파고	23409
공명	23410
리믹스	23411
이순신	23412
우승팀	23413
경전	23414
##홈런	23415
노릇	23416
공학	23417
조항	23418
베이비	23419
독보	23420
시아	23421
스쿼드	23422
데미	23423
쿠바	23424
##고래	23425
뒤쪽	23426
공산주의	23427
광복	23428
루마니아	23429
##빨리	23430
도리	23431
##강화	23432
자작	23433
##시키	23434
176	23435
총선거	23436
마을버스	23437
##리오스	23438
천지	23439
결과물	23440
그랑프리	23441
단역	23442
데몬	23443
##정식	23444
병살	23445
카사	23446
##풀이	23447
will	23448
다저스	23449
섬광	23450
김일성	23451
저승	23452
Is	23453
ME	23454
감성	23455
##무이	23456
성대	23457
바이킹	23458
믹스	23459
흉내	23460
솔저	23461
김병	23462
##inal	23463
유치원	23464
로비	23465
유즈	23466
용산	23467
##==	23468
126	23469
상대팀	23470
폴아웃	23471
1949	23472
지면	23473
십자군	23474
유마	23475
예고편	23476
##주로	23477
Am	23478
반경	23479
완벽히	23480
사관	23481
##과대학	23482
##활약	23483
김윤	23484
과격	23485
##내리	23486
고이	23487
후면	23488
10000	23489
응급	23490
하느님	23491
김씨	23492
Don	23493
우두머리	23494
도요	23495
조수	23496
균열	23497
전두	23498
학술	23499
##순양함	23500
##ult	23501
국장	23502
계략	23503
미녀	23504
##네트	23505
소마	23506
비리	23507
친일	23508
##스타인	23509
김성근	23510
고속도로	23511
무녀	23512
일각	23513
상시	23514
154	23515
봉사	23516
like	23517
수확	23518
LE	23519
##부문	23520
거꾸	23521
이광	23522
접수	23523
공국	23524
##부지	23525
WH	23526
흉악	23527
후유	23528
도마	23529
트랩	23530
##티지	23531
몸매	23532
##박이	23533
{{{-	23534
KB	23535
간파	23536
깃털	23537
연수	23538
Time	23539
생태	23540
무늬	23541
132	23542
충남	23543
건립	23544
끌어내	23545
##MAN	23546
물약	23547
보루	23548
##덕션	23549
이나마	23550
사슬	23551
##자책	23552
주황	23553
##일기	23554
이래저	23555
사망자	23556
삽질	23557
##행동	23558
관문	23559
카레	23560
표하	23561
고발	23562
빗나가	23563
안젤	23564
신조	23565
아테나	23566
new	23567
절단	23568
브레이커	23569
군부	23570
오세	23571
세컨	23572
강타	23573
##서쪽	23574
표기법	23575
##시안	23576
타키	23577
##포머	23578
##13	23579
컬렉션	23580
서바이벌	23581
쫓기	23582
##과제	23583
크로아	23584
이용객	23585
응시	23586
반기	23587
스윙	23588
지수	23589
은메달	23590
이리저리	23591
이래저래	23592
218	23593
라이트닝	23594
손목	23595
역시나	23596
Mi	23597
주식회사	23598
감금	23599
완성도	23600
##GA	23601
##교차	23602
풀려나	23603
##레븐	23604
지상역	23605
##ov	23606
##oul	23607
좌파	23608
급식	23609
로열	23610
시어	23611
##하임	23612
어찌되	23613
안보	23614
##18	23615
호응	23616
##니버스	23617
보복	23618
지로	23619
브레이브	23620
두뇌	23621
이영호	23622
거듭하	23623
짝사랑	23624
어느새	23625
서리	23626
양심	23627
##ob	23628
당나라	23629
##처럼	23630
코로나	23631
스터	23632
야망	23633
##슬림	23634
사와	23635
성직자	23636
신임	23637
##리드	23638
거지	23639
과언	23640
##ould	23641
후쿠시마	23642
##리언	23643
동메달	23644
마르크	23645
156	23646
드루이드	23647
##방지	23648
유능	23649
..!	23650
iOS	23651
승려	23652
안드레	23653
##조정	23654
##라이언스	23655
통행	23656
마족	23657
순양함	23658
##시드	23659
##셉트	23660
통틀어	23661
Ser	23662
##루기	23663
불상	23664
one	23665
164	23666
벡터	23667
##alk	23668
예방	23669
나들목	23670
정우	23671
[...]
