▁▃ -0
▁ㅇ -1
▁ㄴ -2
▁ㅇㅡ -3
▁하 -4
ㄷㅏ -5
▁. -6
▁ㅇㅔ -7
▁ㄱ -8
▁이 -9
▁ㅇㅡㄹ -10
ㅡㄴ -11
▁ㄹ -12
▁ㄷㅏ -13
▁ㅇㅢ -14
▁ㄴㅡㄴ -15
▁, -16
▁ㅇㅓ -17
▁ㅇㅏ -18
▁ㅇㅡㄴ -19
▁1 -20
ㅅㅓ -21
ㅡㄹ -22
▁되 -23
▁ㅇㅣ -24
▁ㄹㅡㄹ -25
▁ㅇㅓㅆ -26
▁ㄱㅗ -27
▁년 -28
▁ㅇㅡㄹㅗ -29
▁ㅇㅔㅅㅓ -30
▁2 -31
▁있 -32
▁ㅇㅏㅆ -33
▁대 -34
▁ㄹㅗ -35
▁ㄱㅏ -36
▁사 -37
▁지 -38
▁그 -39
ㅁㅕ -40
▁일 -41
▁시 -42
▁ㄷ -43
▁ㅇㅕ -44
▁ㄴㄷㅏ -45
▁들 -46
▁ㄱㅘ -47
▁수 -48
▁가 -49
▁기 -50
▁전 -51
ㅈㅣ -52
▁적 -53
▁아 -54
▁20 -55
▁ㅇㅘ -56
▁ㄷㅗ -57
▁월 -58
▁주 -59
▁제 -60
▁ㅁㅕ -61
▁19 -62
▁다 -63
▁정 -64
▁자 -65
▁중 -66
▁위 -67
▁인 -68
▁ㅇㅕㅆ -69
▁공 -70
▁보 -71
▁세 -72
▁경 -73
▁것 -74
ㅏㄴ -75
▁ㅈㅣ -76
▁개 -77
▁부 -78
▁ㄱㅣ -79
▁오 -80
▁유 -81
▁3 -82
▁" -83
▁조 -84
▁나 -85
▁등 -86
▁ㄱㅔ -87
▁스 -88
▁선 -89
▁성 -90
▁미 -91
▁동 -92
▁연 -93
▁마 -94
▁상 -95
▁소 -96
▁모 -97
▁한 -98
▁고 -99
▁비 -100
▁ㅇㅡㅁㅕ -101
▁영 -102
▁의 -103
▁구 -104
▁국 -105
▁도 -106
ㄱㅗ -107
▁발 -108
▁여 -109
▁서 -110
▁201 -111
▁' -112
ㅓㄴ -113
▁4 -114
▁후 -115
▁관 -116
▁명 -117
ㅁㅏㄴ -118
▁ㄹㅏ -119
▁신 -120
▁만 -121
▁프 -122
▁5 -123
▁때 -124
▁ㅁㅕㄴ -125
▁200 -126
▁장 -127
▁- -128
▁방 -129
▁ㄷㅓㄴ -130
▁바 -131
▁교 -132
▁리 -133
▁해 -134
▁문 -135
▁역 -136
▁내 -137
▁차 -138
▁ㅂ -139
ㅌㅓ -140
ㅜㅌㅓ -141
▁당 -142
▁무 -143
▁우 -144
▁원 -145
▁통 -146
▁계 -147
▁현 -148
▁남 -149
▁군 -150
▁노 -151
▁포 -152
▁분 -153
▁어 -154
▁6 -155
▁또 -156
▁화 -157
▁않 -158
▁거 -159
ㄲㅏ -160
▁학 -161
▁생 -162
▁ㄲㅏ -163
▁작 -164
▁ㄲㅏㅈㅣ -165
▁같 -166
▁결 -167
▁강 -168
▁출 -169
ㄱㅔ -170
▁파 -171
▁ㅇㅔㄱㅔ -172
▁받 -173
▁대하 -174
▁진 -175
▁크 -176
▁단 -177
▁7 -178
▁번 -179
▁최 -180
▁반 -181
▁10 -182
▁불 -183
▁8 -184
▁알 -185
▁데 -186
▁위하 -187
▁호 -188
▁ㄹㅏㄴ -189
▁두 -190
▁회 -191
▁배 -192
▁ㅈㅣㅁㅏㄴ -193
▁안 -194
▁카 -195
▁실 -196
▁형 -197
▁초 -198
▁말 -199
▁따 -200
▁예 -201
▁에 -202
▁재 -203
▁ㅂㅜㅌㅓ -204
▁없 -205
▁로 -206
▁타 -207
ㄷㅔ -208
▁사용 -209
▁9 -210
▁미국 -211
▁종 -212
▁ㄹㅏㄱㅗ -213
▁라 -214
▁이후 -215
▁ㄹㅏㄴㅡㄴ -216
▁요 -217
▁함 -218
▁설 -219
▁과 -220
▁특 -221
▁ㅁㅕㄴㅅㅓ -222
ㅈㅏ -223
▁일본 -224
▁코 -225
ㄴㅡㄴ -226
▁ㄴㅡㄴㄷㅔ -227
▁산 -228
▁운 -229
▁권 -230
▁감 -231
▁독 -232
▁레 -233
▁활 -234
▁추 -235
▁베 -236
▁행 -237
▁왕 -238
▁피 -239
민국 -240
▁김 -241
▁그리 -242
▁ㅈㅏ -243
▁지역 -244
▁음 -245
▁더 -246
▁양 -247
▁대한 -248
▁199 -249
▁ㅇㅡㄴㅏ -250
▁매 -251
▁다음 -252
▁민 -253
▁평 -254
▁태 -255
▁많 -256
▁입 -257
▁12 -258
▁따르 -259
▁건 -260
▁대한민국 -261
▁참 -262
▁간 -263
▁18 -264
▁및 -265
▁경기 -266
▁승 -267
▁가지 -268
▁열 -269
▁ㄷㅏㄱㅗ -270
▁목 -271
▁대학 -272
▁다른 -273
▁; -274
▁의하 -275
리아 -276
00 -277
▁프로 -278
▁드 -279
▁총 -280
▁속 -281
▁ㅁㅏㄴ -282
스트 -283
▁북 -284
or -285
▁S -286
▁집 -287
▁법 -288
▁11 -289
▁때문 -290
▁시작 -291
▁트 -292
▁체 -293
▁각 -294
▁물 -295
▁외 -296
▁달 -297
▁변 -298
▁천 -299
▁시키 -300
▁메 -301
▁임 -302
▁직 -303
▁표 -304
▁올 -305
▁처 -306
▁ᄆ -307
▁토 -308
▁그러 -309
▁본 -310
▁사람 -311
▁& -312
▁점 -313
▁쓰 -314
▁저 -315
▁함께 -316
▁A -317
▁또한 -318
어지 -319
▁팀 -320
▁박 -321
어나 -322
▁치 -323
▁투 -324
▁선수 -325
▁청 -326
▁한국 -327
▁항 -328
▁ㅇㅏㅅㅓ -329
▁브 -330
▁) -331
▁세계 -332
▁사이 -333
▁영화 -334
▁버 -335
▁광 -336
▁새 -337
▁자신 -338
▁약 -339
la -340
▁C -341
▁게 -342
▁M -343
▁경우 -344
▁통하 -345
▁용 -346
▁판 -347
▁f -348
▁ㄴㅏ -349
▁디 -350
▁T -351
▁축 -352
▁현재 -353
▁기록 -354
▁F -355
▁복 -356
▁하나 -357
▁야 -358
▁국가 -359
▁아니 -360
시아 -361
▁존 -362
▁네 -363
▁이름 -364
▁198 -365
▁ㄷㅏㄴㅡㄴ -366
▁편 -367
▁당시 -368
▁가장 -369
▁확 -370
▁삼 -371
▁위치 -372
▁_ -373
▁보이 -374
▁활동 -375
▁조선 -376
▁학교 -377
▁뒤 -378
▁철 -379
▁만들 -380
주의 -381
ㄴㅏ -382
▁리그 -383
▁그러나 -384
▁필 -385
▁( -386
▁15 -387
▁ㅇㅣㄴㅏ -388
▁살 -389
▁금 -390
▁for -391
▁페 -392
▁증 -393
▁합 -394
▁째 -395
▁루 -396
mu -397
▁플 -398
▁백 -399
▁테 -400
▁심 -401
▁창 -402
mula -403
▁애 -404
▁언 -405
▁formula -406
ㄱㅏ -407
▁식 -408
▁16 -409
▁대표 -410
레이 -411
▁연구 -412
▁병 -413
▁못 -414
▁근 -415
▁또는 -416
▁프랑 -417
ㅂㅜㅌㅓ -418
▁그리고 -419
▁/ -420
▁황 -421
▁사회 -422
▁돌 -423
▁m -424
▁규 -425
▁0 -426
▁D -427
▁충 -428
▁17 -429
▁시즌 -430
▁패 -431
▁ㅇㅓㅅㅓ -432
▁순 -433
▁첫 -434
▁] -435
▁[ -436
ㅇㅑ -437
▁197 -438
▁B -439
▁완 -440
▁히 -441
랜드 -442
▁이루 -443
▁못하 -444
▁높 -445
▁다시 -446
▁중국 -447
▁알리 -448
▁협 -449
▁길 -450
▁서울 -451
▁클 -452
▁정부 -453
▁프랑스 -454
학교 -455
▁영국 -456
▁K -457
▁채 -458
▁I -459
▁: -460
▁시대 -461
▁ㄴㅡㄴㄷㅏ -462
▁키 -463
▁도시 -464
▁k -465
▁포함 -466
▁여러 -467
▁뜻 -468
▁196 -469
▁은 -470
▁전쟁 -471
▁14 -472
▁아이 -473
▁독일 -474
ㄹㅗ -475
▁ㄹㅗㅅㅓ -476
▁면 -477
▁죽 -478
er -479
▁문화 -480
▁대회 -481
▁~ -482
▁g -483
▁취 -484
▁배우 -485
▁13 -486
▁축구 -487
▁위원 -488
▁별 -489
▁허 -490
▁가능 -491
▁모두 -492
▁P -493
▁ㅅㅓ -494
▁ㄷㅏㄱㅏ -495
▁동안 -496
▁뉴 -497
in -498
▁ㅂㅗ -499
▁모든 -500
▁ㅂㅗㄷㅏ -501
▁이상 -502
▁친 -503
▁손 -504
▁곡 -505
▁감독 -506
▁정치 -507
▁194 -508
▁환 -509
▁일부 -510
▁방송 -511
▁l -512
▁석 -513
▁문제 -514
▁처음 -515
▁대학교 -516
▁개발 -517
▁지방 -518
▁L -519
▁제작 -520
▁% -521
▁구성 -522
▁검 -523
▁캐 -524
▁인하 -525
▁국제 -526
▁러 -527
▁농 -528
라이 -529
▁터 -530
▁사건 -531
▁골 -532
▁니 -533
▁세기 -534
▁끝 -535
▁시간 -536
▁논 -537
▁이용 -538
▁일반 -539
▁씨 -540
▁부르 -541
▁존재 -542
▁ㄱㅓㄴ -543
▁향 -544
▁G -545
▁작품 -546
▁게임 -547
▁밀 -548
▁날 -549
▁정도 -550
▁운동 -551
▁폭 -552
▁주장 -553
▁급 -554
▁역사 -555
▁gt -556
▁나오 -557
ㄹㅗㄱ -558
▁곳 -559
▁N -560
▁관계 -561
▁즉 -562
▁앞 -563
▁ㅅ -564
▁섬 -565
니아 -566
▁인구 -567
▁티 -568
on -569
▁효 -570
▁195 -571
▁교육 -572
▁음악 -573
▁km -574
▁접 -575
▁ㄱㅓㄴㅏ -576
▁나타 -577
▁중심 -578
▁ㄹㅕ -579
▁lt -580
▁육 -581
▁이러 -582
▁맡 -583
리스 -584
▁U -585
▁극 -586
▁귀 -587
▁30 -588
▁쿠 -589
▁R -590
▁절 -591
▁맞 -592
▁선거 -593
▁경제 -594
▁블 -595
부분 -596
▁발견 -597
통령 -598
▁전투 -599
▁민주 -600
▁담 -601
▁H -602
화국 -603
▁봉 -604
▁ㄷㅗㄹㅗㄱ -605
▁발표 -606
▁글 -607
▁갖 -608
▁홍 -609
▁E -610
▁측 -611
▁기술 -612
▁누 -613
▁올림 -614
▁막 -615
▁암 -616
▁ㅁ -617
▁아들 -618
이스 -619
▁책 -620
▁우승 -621
▁ㄹㅗㅂㅜㅌㅓ -622
▁2010 -623
▁공격 -624
▁엔 -625
▁대통령 -626
▁들어 -627
▁대부분 -628
▁잘 -629
▁영향 -630
▁사망 -631
▁올림픽 -632
an -633
▁걸 -634
▁ㅇㅡㅁ -635
▁케 -636
▁질 -637
▁결과 -638
▁헤 -639
000 -640
▁불리 -641
▁여기 -642
▁밝 -643
▁슈 -644
▁열리 -645
▁송 -646
▁새롭 -647
▁라이 -648
▁지원 -649
▁앨 -650
▁프로그 -651
리카 -652
▁193 -653
▁과정 -654
▁잡 -655
▁발생 -656
▁의미 -657
▁관련 -658
▁참여 -659
▁중앙 -660
▁유럽 -661
▁업 -662
▁진행 -663
▁최초 -664
▁c -665
▁머 -666
란드 -667
▁얻 -668
▁범 -669
20 -670
▁준 -671
▁25 -672
▁고등 -673
▁부분 -674
ㅆㅓ -675
▁독립 -676
▁특히 -677
▁자유 -678
ㅓㄹ -679
▁태어나 -680
▁결정 -681
지만 -682
▁제국 -683
▁세우 -684
▁구조 -685
▁다양 -686
▁설립 -687
▁팔 -688
▁당하 -689
▁설치 -690
▁속하 -691
버지 -692
▁ㄴㄷㅏㄴㅡㄴ -693
▁초등 -694
▁형태 -695
▁폐 -696
나라 -697
▁발매 -698
▁상태 -699
ㅁㅕㄴ -700
▁악 -701
▁탄 -702
▁탈 -703
▁W -704
▁벌 -705
▁소속 -706
▁온 -707
▁좌 -708
▁러시아 -709
▁2008 -710
▁이전 -711
▁사실 -712
▁하지만 -713
▁좋 -714
▁침 -715
▁21 -716
▁그녀 -717
▁일어나 -718
우스 -719
▁센 -720
▁줄 -721
▁스타 -722
▁르 -723
▁커 -724
디오 -725
▁같이 -726
▁로마 -727
▁ㅇㅡㄹㅗㅅㅓ -728
▁폴 -729
▁이것 -730
▁여성 -731
▁인민 -732
▁주로 -733
▁프로그램 -734
▁나라 -735
▁타이 -736
▁생각 -737
▁ㅇㅏㅇㅑ -738
▁필요 -739
▁갈 -740
▁2012 -741
▁2011 -742
▁출신 -743
▁혼 -744
▁싱 -745
▁참가 -746
▁이탈 -747
▁관리 -748
▁조직 -749
▁기준 -750
▁100 -751
▁보내 -752
▁운영 -753
▁위원회 -754
en -755
▁2009 -756
▁오르 -757
▁중요 -758
▁여자 -759
▁윤 -760
▁생산 -761
▁2007 -762
▁계획 -763
▁기관 -764
▁2014 -765
▁t -766
▁행정 -767
▁등장 -768
▁상대 -769
▁정보 -770
▁이르 -771
▁음반 -772
▁계속 -773
▁성공 -774
▁바이 -775
▁지정 -776
▁데이 -777
▁a -778
▁매우 -779
▁지나 -780
▁국민 -781
▁콘 -782
▁데뷔 -783
▁넘 -784
▁2013 -785
▁해당 -786
▁O -787
▁밝히 -788
he -789
▁레이 -790
▁철도 -791
▁아버지 -792
▁과학 -793
ㄷㅗ -794
▁칼 -795
스터 -796
▁고려 -797
▁대전 -798
▁이탈리아 -799
리즈 -800
▁발전 -801
▁ㄴㄷㅏㄱㅗ -802
▁몇 -803
▁주요 -804
프트 -805
▁자리 -806
▁사업 -807
▁191 -808
▁시스 -809
ㅓㄹㅓ -810
▁묘 -811
▁ㅊ -812
▁찾 -813
▁와 -814
▁23 -815
▁24 -816
▁지내 -817
ㅡㄹㅗ -818
▁000 -819
▁억 -820
▁차지 -821
ar -822
▁방법 -823
▁2015 -824
ㅓㄹㅓㅁ -825
▁ㅊㅓㄹㅓㅁ -826
남도 -827
▁2018 -828
▁헌 -829
라마 -830
▁월드 -831
▁앨범 -832
▁얼 -833
▁2016 -834
▁능 -835
레스 -836
▁최고 -837
▁그룹 -838
▁쇼 -839
▁돌아 -840
▁인도 -841
▁빌 -842
▁결국 -843
▁후보 -844
▁마이 -845
▁아래 -846
▁출연 -847
르크 -848
▁관하 -849
▁시리즈 -850
이션 -851
▁엘 -852
▁J -853
▁전체 -854
▁생활 -855
es -856
▁떨 -857
▁고등학교 -858
▁22 -859
▁빠 -860
▁이루어지 -861
▁회사 -862
▁한편 -863
▁2006 -864
▁이유 -865
이트 -866
▁우리 -867
▁내용 -868
▁그리스 -869
FA -870
▁192 -871
▁거치 -872
▁격 -873
비아 -874
▁나가 -875
▁층 -876
▁제공 -877
▁연합 -878
▁스페 -879
▁풍 -880
▁방식 -881
▁힘 -882
▁인간 -883
▁의원 -884
▁2017 -885
▁공식 -886
운데 -887
▁많이 -888
▁인터 -889
▁항공 -890
▁시기 -891
▁컴 -892
▁역할 -893
▁희 -894
▁몸 -895
▁잠 -896
▁가운데 -897
▁드라마 -898
▁군사 -899
▁조사 -900
▁시스템 -901
▁초기 -902
▁워 -903
▁출전 -904
▁유명 -905
▁거의 -906
▁제도 -907
▁반대 -908
▁기업 -909
▁민족 -910
▁놓 -911
▁류 -912
▁나타나 -913
▁s -914
▁ㅇㅡㄹㅗㅆㅓ -915
▁퍼 -916
▁쓰이 -917
▁지구 -918
▁둘 -919
▁교회 -920
▁푸 -921
▁가리 -922
▁텔 -923
▁색 -924
▁수상 -925
▁떠 -926
▁대신 -927
▁달리 -928
▁유지 -929
비스 -930
▁평가 -931
▁표현 -932
▁울 -933
▁분류 -934
▁ㅇㅡㄹㅗㅂㅜㅌㅓ -935
▁26 -936
▁몰 -937
▁올리 -938
▁대상 -939
▁홈 -940
▁! -941
▁특별 -942
▁동시 -943
▁녹 -944
▁언어 -945
▁기능 -946
▁현대 -947
▁규모 -948
at -949
ㄴㅣ -950
▁공개 -951
▁프리 -952
▁응 -953
▁모습 -954
▁마지 -955
▁28 -956
▁ㅇㅑ -957
▁이미 -958
▁자연 -959
▁노동 -960
▁졸 -961
▁각각 -962
▁연결 -963
▁웨 -964
야기 -965
▁개인 -966
▁승리 -967
▁ㅇㅓㅇㅑ -968
▁들어가 -969
▁27 -970
▁이론 -971
▁전하 -972
▁2019 -973
▁뛰 -974
▁인정 -975
▁붙 -976
▁단체 -977
▁지도 -978
▁진출 -979
▁ㅅㅣ -980
▁브라 -981
북도 -982
▁임명 -983
▁핵 -984
▁마지막 -985
▁2005 -986
▁V -987
▁떨어지 -988
▁2000 -989
▁시장 -990
▁목적 -991
머니 -992
▁수도 -993
▁시절 -994
▁아르 -995
▁전문 -996
▁메이 -997
▁상황 -998
▁정의 -999
▁경상 -1000
▁정책 -1001
▁멀 -1002
▁난 -1003
▁눈 -1004
▁너 -1005
▁기간 -1006
▁목록 -1007
▁족 -1008
▁직접 -1009
▁산업 -1010
ic -1011
▁이야기 -1012
▁먹 -1013
▁서로 -1014
al -1015
스크 -1016
▁압 -1017
▁혁 -1018
▁야구 -1019
▁계약 -1020
▁오스트 -1021
▁밴 -1022
▁기원 -1023
▁슬 -1024
▁추가 -1025
▁건설 -1026
BS -1027
▁공동 -1028
▁모델 -1029
▁2004 -1030
▁ㅇㅡㅁㅕㄴ -1031
▁콜 -1032
▁개최 -1033
▁샤 -1034
▁FC -1035
▁건물 -1036
▁플레이 -1037
▁공간 -1038
▁경찰 -1039
▁망 -1040
▁형성 -1041
▁50 -1042
▁활약 -1043
▁결혼 -1044
▁거리 -1045
ㄴㅣㄷㅏ -1046
▁스페인 -1047
▁자동 -1048
▁부산 -1049
▁그것 -1050
▁31 -1051
▁훈 -1052
▁29 -1053
학자 -1054
▁졸업 -1055
▁변화 -1056
▁노래 -1057
▁사상 -1058
▁교수 -1059
▁칸 -1060
▁변경 -1061
▁b -1062
으키 -1063
▁ㄴㅣ -1064
▁국회 -1065
▁TV -1066
▁뿐 -1067
▁인물 -1068
is -1069
▁나이 -1070
▁마을 -1071
ㄹㅏ -1072
▁완전 -1073
re -1074
▁공화국 -1075
it -1076
▁다르 -1077
▁텔레 -1078
▁궁 -1079
▁벨 -1080
▁비롯 -1081
▁190 -1082
▁사랑 -1083
▁흐 -1084
▁노선 -1085
▁낮 -1086
▁역시 -1087
▁인민공 -1088
▁휴 -1089
▁인민공화국 -1090
비전 -1091
▁2020 -1092
▁느 -1093
▁학생 -1094
▁ㅏ -1095
▁중학교 -1096
▁지지 -1097
ou -1098
▁맥 -1099
▁실제 -1100
▁보통 -1101
▁최대 -1102
▁만나 -1103
이드 -1104
▁서비스 -1105
▁요구 -1106
▁볼 -1107
▁따라 -1108
▁지금 -1109
▁견 -1110
▁잉 -1111
▁탑 -1112
대로 -1113
▁보호 -1114
▁전국 -1115
프리카 -1116
▁싸 -1117
▁일으키 -1118
▁소설 -1119
▁의회 -1120
▁ㄱㅔㅆ -1121
▁우주 -1122
▁중화 -1123
▁딸 -1124
▁겸 -1125
▁실시 -1126
▁없이 -1127
▁지하 -1128
▁기본 -1129
▁혹 -1130
▁황제 -1131
▁자기 -1132
역시 -1133
▁판매 -1134
▁다이 -1135
운드 -1136
▁가수 -1137
▁전통 -1138
▁싱글 -1139
▁비판 -1140
르트 -1141
▁밴드 -1142
▁높이 -1143
▁원래 -1144
▁옥 -1145
▁차이 -1146
▁기반 -1147
▁엄 -1148
▁떠나 -1149
▁퇴 -1150
▁론 -1151
▁종교 -1152
너지 -1153
▁2002 -1154
▁어떤 -1155
▁세력 -1156
▁경기도 -1157
▁내리 -1158
▁버리 -1159
▁탐 -1160
로스 -1161
▁40 -1162
▁자료 -1163
▁소련 -1164
▁ㅁㅏ -1165
스탄 -1166
▁이끌 -1167
▁수행 -1168
▁환경 -1169
▁2003 -1170
▁가리키 -1171
▁기타 -1172
▁회의 -1173
▁센터 -1174
▁모양 -1175
▁전기 -1176
▁풀 -1177
▁월드컵 -1178
▁운행 -1179
▁시설 -1180
▁부대 -1181
▁밖 -1182
▁도쿄 -1183
▁전자 -1184
▁나타내 -1185
▁특징 -1186
러스 -1187
▁공연 -1188
▁그래 -1189
나다 -1190
▁걸치 -1191
▁교황 -1192
▁기념 -1193
▁컵 -1194
▁승강 -1195
▁분야 -1196
▁뮤 -1197
▁설명 -1198
▁명칭 -1199
▁예술 -1200
▁이동 -1201
▁기독 -1202
▁통합 -1203
le -1204
▁텔레비전 -1205
▁작업 -1206
mp -1207
▁남자 -1208
▁연방 -1209
▁도입 -1210
▁염 -1211
▁동물 -1212
▁득 -1213
▁구역 -1214
▁행동 -1215
▁따라서 -1216
▁선정 -1217
▁숙 -1218
▁전라 -1219
▁애니 -1220
▁바로 -1221
▁군대 -1222
스타 -1223
▁능력 -1224
들이 -1225
▁작용 -1226
▁가족 -1227
▁넓 -1228
▁남쪽 -1229
▁출시 -1230
▁소프트 -1231
▁할 -1232
▁증가 -1233
▁확인 -1234
▁방향 -1235
▁북쪽 -1236
▁기존 -1237
▁지휘 -1238
▁행위 -1239
▁제외 -1240
▁문학 -1241
▁= -1242
▁교통 -1243
▁차량 -1244
▁이때 -1245
▁기독교 -1246
▁옮 -1247
의원 -1248
▁착 -1249
▁작가 -1250
▁비슷 -1251
▁사고 -1252
▁형식 -1253
▁국내 -1254
▁클럽 -1255
▁십 -1256
▁어머니 -1257
▁ㅁㅡㄹㅗ -1258
▁윌 -1259
▁혁명 -1260
▁강하 -1261
▁도로 -1262
▁작곡 -1263
▁마르 -1264
▁빈 -1265
▁그렇 -1266
▁지배 -1267
▁효과 -1268
▁낙 -1269
▁역임 -1270
▁태양 -1271
▁승강장 -1272
▁몽 -1273
▁캐나다 -1274
▁왕국 -1275
▁유일 -1276
▁거두 -1277
▁컴퓨 -1278
▁FI -1279
▁과거 -1280
▁열차 -1281
▁옮기 -1282
▁사무 -1283
▁챔 -1284
▁이적 -1285
▁갑 -1286
BC -1287
▁ㄴㄷㅔ -1288
▁협회 -1289
▁혹은 -1290
▁남부 -1291
리오 -1292
▁추정 -1293
▁흥 -1294
▁비교 -1295
▁뉴욕 -1296
▁베이 -1297
▁솔 -1298
▁생기 -1299
▁공산 -1300
▁흔 -1301
▁정당 -1302
자리 -1303
▁갖추 -1304
▁담당 -1305
▁이어지 -1306
▁육군 -1307
▁이사 -1308
▁시민 -1309
▁동일 -1310
▁주변 -1311
▁획 -1312
▁런 -1313
▁늘 -1314
▁1990 -1315
▁2001 -1316
▁홀 -1317
▁즈 -1318
▁적용 -1319
▁동쪽 -1320
▁인기 -1321
▁장관 -1322
▁대사 -1323
▁물리 -1324
▁스포 -1325
▁넣 -1326
▁스트 -1327
▁챔피 -1328
▁X -1329
▁세포 -1330
▁윈 -1331
▁쪽 -1332
▁건축 -1333
▁예정 -1334
▁사단 -1335
▁공사 -1336
▁p -1337
▁데이터 -1338
▁구간 -1339
▁개념 -1340
▁곧 -1341
▁상당 -1342
▁성장 -1343
▁마음 -1344
▁컴퓨터 -1345
▁조지 -1346
▁오늘 -1347
▁징 -1348
▁차례 -1349
▁크기 -1350
드리 -1351
▁품 -1352
▁서쪽 -1353
▁에너지 -1354
▁189 -1355
▁버스 -1356
▁돈 -1357
▁맨 -1358
▁멤 -1359
▁비하 -1360
▁흑 -1361
▁충청 -1362
▁ㄴㅈㅣ -1363
▁바르 -1364
▁바꾸 -1365
이지 -1366
▁어리 -1367
▁치르 -1368
▁록 -1369
▁액 -1370
▁칭 -1371
▁작전 -1372
▁땅 -1373
▁자체 -1374
▁민주주의 -1375
▁조건 -1376
▁어느 -1377
▁실패 -1378
▁연기 -1379
▁디자 -1380
ㅓㅆ -1381
▁잔 -1382
▁반응 -1383
▁율 -1384
▁이런 -1385
▁덕 -1386
▁돌아오 -1387
▁선언 -1388
▁FIFA -1389
▁이어 -1390
▁d -1391
▁연주 -1392
▁버전 -1393
▁종류 -1394
▁부족 -1395
▁특정 -1396
▁움 -1397
▁쉽 -1398
▁피해 -1399
▁컨 -1400
▁애니메 -1401
▁페르 -1402
가지 -1403
▁국립 -1404
▁연속 -1405
▁ㅁㅏㄷㅏ -1406
▁익 -1407
▁방영 -1408
카이 -1409
▁쌍 -1410
▁대체 -1411
▁선택 -1412
el -1413
▁공항 -1414
▁규정 -1415
▁해군 -1416
▁다루 -1417
▁대구 -1418
▁고대 -1419
거리 -1420
et -1421
라지 -1422
▁내부 -1423
버스 -1424
▁체제 -1425
▁멤버 -1426
▁조약 -1427
▁속도 -1428
▁북부 -1429
▁결승 -1430
▁수록 -1431
루스 -1432
▁기원전 -1433
▁정신 -1434
▁명령 -1435
▁아시아 -1436
▁연대 -1437
▁선출 -1438
▁헌법 -1439
글랜드 -1440
▁애니메이션 -1441
▁ㄴㅡㄴㅈㅣ -1442
▁쥐 -1443
▁왜 -1444
▁크리스 -1445
▁인천 -1446
▁휘 -1447
▁포르 -1448
▁옛 -1449
▁가치 -1450
▁개혁 -1451
▁단계 -1452
ion -1453
▁영어 -1454
웨어 -1455
▁최종 -1456
▁물질 -1457
▁친구 -1458
▁자치 -1459
▁달러 -1460
ing -1461
▁최근 -1462
▁나누 -1463
▁설계 -1464
▁분석 -1465
▁밤 -1466
▁척 -1467
▁가깝 -1468
▁의사 -1469
▁출판 -1470
▁비행 -1471
트남 -1472
▁강화 -1473
▁평균 -1474
시마 -1475
아가 -1476
▁1999 -1477
▁더욱 -1478
▁지명 -1479
▁소비 -1480
▁로스 -1481
▁체계 -1482
▁롭 -1483
널리 -1484
▁술 -1485
ol -1486
라스 -1487
▁표준 -1488
▁배치 -1489
▁법원 -1490
메리카 -1491
▁1998 -1492
▁잉글랜드 -1493
▁집단 -1494
▁ㄹㅓ -1495
▁머리 -1496
▁치료 -1497
▁남기 -1498
▁Y -1499
▁북한 -1500
▁팬 -1501
▁관심 -1502
▁언급 -1503
▁씩 -1504
▁개월 -1505
▁획득 -1506
▁cm -1507
21 -1508
▁부문 -1509
▁o -1510
▁파이 -1511
▁하이 -1512
▁겨 -1513
▁헬 -1514
▁분리 -1515
▁현상 -1516
▁함수 -1517
▁먼 -1518
▁하계 -1519
▁지속 -1520
▁1980 -1521
▁엔진 -1522
▁유사 -1523
▁부상 -1524
▁공원 -1525
▁실험 -1526
▁파리 -1527
▁맺 -1528
▁조정 -1529
▁벤 -1530
▁60 -1531
▁스테 -1532
스코 -1533
▁처리 -1534
▁스포츠 -1535
▁확장 -1536
▁선발 -1537
▁지니 -1538
▁베르 -1539
리지 -1540
▁마치 -1541
▁대중 -1542
▁제품 -1543
▁입단 -1544
▁관할 -1545
▁35 -1546
▁챔피언 -1547
▁소유 -1548
▁마리 -1549
▁공립 -1550
▁통일 -1551
▁빠르 -1552
▁목표 -1553
▁장군 -1554
▁어렵 -1555
▁도움 -1556
▁시도 -1557
▁요소 -1558
▁이해 -1559
▁재판 -1560
▁자동차 -1561
▁문자 -1562
▁주도 -1563
▁꽃 -1564
디어 -1565
▁요시 -1566
▁에스 -1567
▁향하 -1568
▁정규 -1569
▁mm -1570
▁나무 -1571
▁외국 -1572
▁점령 -1573
▁거주 -1574
▁ㄱㅗㅈㅏ -1575
▁후반 -1576
▁구단 -1577
▁주인 -1578
▁기사 -1579
▁편성 -1580
▁바뀌 -1581
▁시험 -1582
▁미치 -1583
▁원자 -1584
▁네덜 -1585
▁네덜란드 -1586
▁주민 -1587
▁학자 -1588
▁괴 -1589
▁잃 -1590
▁n -1591
▁가르 -1592
▁행사 -1593
▁ㄹㅕㄱㅗ -1594
광역시 -1595
▁앤 -1596
▁책임 -1597
▁통신 -1598
▁스럽 -1599
▁사령 -1600
▁결합 -1601
▁동맹 -1602
▁일종 -1603
▁안정 -1604
▁혈 -1605
▁끌 -1606
▁투표 -1607
▁웹 -1608
▁고속 -1609
▁수준 -1610
▁알렉 -1611
▁잇 -1612
▁불교 -1613
▁예선 -1614
▁앙 -1615
om -1616
▁깊 -1617
▁길이 -1618
▁장치 -1619
▁언론 -1620
▁개봉 -1621
▁끝나 -1622
▁모르 -1623
야마 -1624
나무 -1625
▁아프리카 -1626
젝트 -1627
▁불구 -1628
▁1997 -1629
▁디자인 -1630
▁문서 -1631
▁본선 -1632
▁준비 -1633
▁정하 -1634
▁광주 -1635
▁촉 -1636
▁칠 -1637
일랜드 -1638
▁방문 -1639
▁베트남 -1640
▁사진 -1641
▁캠 -1642
▁신문 -1643
▁빛 -1644
▁가문 -1645
▁ㄱㅜ -1646
▁다니 -1647
▁유전 -1648
▁정권 -1649
메달 -1650
st -1651
▁가정 -1652
▁정확 -1653
▁구분 -1654
▁폴란드 -1655
▁1996 -1656
▁경험 -1657
▁The -1658
▁제조 -1659
▁드러 -1660
▁그림 -1661
▁성적 -1662
▁1995 -1663
▁믿 -1664
▁요리 -1665
▁비디오 -1666
▁평화 -1667
▁핀 -1668
▁용어 -1669
▁amp -1670
▁오늘날 -1671
▁부인 -1672
▁원인 -1673
▁통과 -1674
▁정리 -1675
▁32 -1676
▁부여 -1677
▁70 -1678
▁일제 -1679
▁값 -1680
▁찬 -1681
▁아직 -1682
▁왕조 -1683
▁프로젝트 -1684
특별 -1685
▁아마 -1686
▁ㄷㅏㅁㅕㄴ -1687
▁추진 -1688
▁런던 -1689
▁ㄹㅕㄴㅡㄴ -1690
▁병원 -1691
▁덴 -1692
스로 -1693
▁이곳 -1694
▁방어 -1695
▁깨 -1696
ㅇㅓㅆ -1697
▁은퇴 -1698
▁올라 -1699
▁종합 -1700
▁널리 -1701
▁신라 -1702
▁멸 -1703
스턴 -1704
▁프레 -1705
▁해석 -1706
인트 -1707
▁슈퍼 -1708
▁ㅇㅡㅁㅡㄹㅗ -1709
▁500 -1710
▁통치 -1711
▁영역 -1712
▁습 -1713
▁경쟁 -1714
▁폐지 -1715
▁끼 -1716
▁이듬 -1717
▁몬 -1718
▁인터넷 -1719
▁입장 -1720
▁민주당 -1721
▁경영 -1722
▁훈련 -1723
▁발달 -1724
웨이 -1725
▁미사 -1726
▁노력 -1727
▁보도 -1728
▁제주 -1729
▁츠 -1730
아들이 -1731
▁파괴 -1732
▁the -1733
▁총리 -1734
▁제안 -1735
▁죽이 -1736
▁면적 -1737
레일 -1738
▁주제 -1739
am -1740
▁주연 -1741
▁기여 -1742
▁부정 -1743
▁80 -1744
▁회장 -1745
▁만화 -1746
▁미술 -1747
▁접하 -1748
▁모으 -1749
▁번호 -1750
▁서부 -1751
▁유래 -1752
▁놀 -1753
▁이듬해 -1754
▁그런 -1755
▁지키 -1756
▁완전히 -1757
▁도서 -1758
▁야마 -1759
▁188 -1760
▁국회의원 -1761
▁경기장 -1762
리트 -1763
▁생물 -1764
▁남성 -1765
▁식민 -1766
▁빅 -1767
▁연맹 -1768
▁UE -1769
▁요청 -1770
▁자주 -1771
라인 -1772
▁경계 -1773
▁동부 -1774
▁정상 -1775
▁궤 -1776
▁투수 -1777
▁법률 -1778
▁+ -1779
▁폰 -1780
▁ㄹㅜ -1781
▁벌이 -1782
il -1783
▁1994 -1784
▁행성 -1785
▁1970 -1786
▁ㅅㅡ -1787
▁나뉘 -1788
▁무기 -1789
▁UEFA -1790
▁수용 -1791
▁금지 -1792
▁돕 -1793
▁소재 -1794
▁ㅂㄴㅣㄷㅏ -1795
▁등록 -1796
▁움직 -1797
▁삼성 -1798
▁인식 -1799
톨릭 -1800
▁연구소 -1801
▁제한 -1802
▁펼 -1803
ac -1804
▁바탕 -1805
▁링 -1806
▁무대 -1807
▁라디오 -1808
▁지진 -1809
▁ㅅㅡㅂ -1810
▁철학 -1811
▁영토 -1812
머지 -1813
▁꼬 -1814
▁외교 -1815
▁강원 -1816
▁나머지 -1817
▁발사 -1818
▁아시 -1819
▁박물 -1820
▁노르 -1821
▁접근 -1822
▁지대 -1823
▁ㅓ -1824
▁반면 -1825
▁빠지 -1826
▁KBS -1827
▁스스로 -1828
▁조각 -1829
▁업무 -1830
▁거부 -1831
▁더불 -1832
▁린 -1833
▁오래 -1834
▁표기 -1835
▁뉴스 -1836
▁뇌 -1837
▁정식 -1838
▁다리 -1839
▁돌아가 -1840
▁마찬 -1841
▁마찬가지 -1842
▁아일랜드 -1843
▁결성 -1844
▁오스 -1845
▁벽 -1846
▁받아들이 -1847
▁서식 -1848
▁필리 -1849
▁붙이 -1850
▁상호 -1851
▁1992 -1852
▁은행 -1853
▁펜 -1854
▁굴 -1855
▁다수 -1856
요일 -1857
▁짧 -1858
▁기초 -1859
▁45 -1860
▁가톨릭 -1861
▁공작 -1862
▁의식 -1863
▁소리 -1864
▁보수 -1865
▁논란 -1866
▁아카 -1867
▁복귀 -1868
▁박사 -1869
임스 -1870
▁주의 -1871
▁ㅕ -1872
ro -1873
▁이렇 -1874
▁득점 -1875
▁이기 -1876
▁바다 -1877
▁스웨 -1878
▁임시 -1879
▁성격 -1880
▁트리 -1881
▁수학 -1882
시코 -1883
▁ㅇㅣㄹㅏ -1884
▁장애 -1885
▁36 -1886
▁실제로 -1887
▁of -1888
ed -1889
모토 -1890
▁윌리 -1891
▁지도자 -1892
▁ㄹㅗㅆㅓ -1893
▁해결 -1894
▁그대로 -1895
▁장소 -1896
▁브라질 -1897
▁초대 -1898
▁총선 -1899
워드 -1900
▁검사 -1901
▁박물관 -1902
▁에이 -1903
▁마이크 -1904
▁유로 -1905
▁이스 -1906
▁스위 -1907
▁패배 -1908
▁긴 -1909
▁여행 -1910
▁느끼 -1911
트리 -1912
▁강력 -1913
▁카드 -1914
▁표시 -1915
▁여름 -1916
▁차원 -1917
▁식물 -1918
▁집합 -1919
▁묘사 -1920
▁화학 -1921
▁오브 -1922
▁기구 -1923
▁ㅅㅡㅂㄴㅣㄷㅏ -1924
▁제시 -1925
▁ㄴㄱㅏ -1926
▁ㅈ -1927
▁1960 -1928
▁계열 -1929
▁관측 -1930
ig -1931
▁인사 -1932
▁이외 -1933
▁단순 -1934
▁연극 -1935
▁차트 -1936
▁안전 -1937
▁1991 -1938
▁유니 -1939
토리 -1940
▁뛰어나 -1941
▁스웨덴 -1942
▁활용 -1943
로나 -1944
▁권력 -1945
▁무역 -1946
▁곤 -1947
▁멕 -1948
▁디지 -1949
▁파일 -1950
▁회원 -1951
▁꾸 -1952
▁싸우 -1953
▁오스트리아 -1954
▁개국 -1955
▁히로 -1956
부르크 -1957
▁자라 -1958
▁기계 -1959
▁1993 -1960
▁형제 -1961
▁근처 -1962
레일리아 -1963
▁33 -1964
▁먼저 -1965
▁캐릭 -1966
▁취하 -1967
▁보다 -1968
▁반란 -1969
▁조성 -1970
▁지적 -1971
▁아무 -1972
▁소프트웨어 -1973
▁중간 -1974
▁붕 -1975
▁분포 -1976
▁ㅇㅏㄷㅗ -1977
▁위험 -1978
▁중단 -1979
▁흡 -1980
배우 -1981
베이 -1982
▁세대 -1983
▁발행 -1984
▁일정 -1985
▁시행 -1986
▁도착 -1987
▁량 -1988
트로 -1989
▁기자 -1990
▁스코 -1991
▁스튜 -1992
▁협력 -1993
▁띠 -1994
특별시 -1995
▁여객 -1996
od -1997
버트 -1998
▁서울특별시 -1999
▁사이트 -2000
사카 -2001
▁다만 -2002
▁윈도 -2003
▁단어 -2004
▁캐릭터 -2005
▁하루 -2006
주시 -2007
▁해안 -2008
▁지하철 -2009
▁186 -2010
▁죽음 -2011
▁", -2012
▁렌 -2013
ve -2014
니스 -2015
▁파견 -2016
워크 -2017
▁수많 -2018
▁들어오 -2019
▁세상 -2020
▁코드 -2021
▁연장 -2022
▁죄 -2023
as -2024
▁혜 -2025
▁순위 -2026
▁내려 -2027
▁태평 -2028
▁다카 -2029
▁내각 -2030
▁공장 -2031
▁전시 -2032
▁오스트레일리아 -2033
▁투자 -2034
▁본부 -2035
▁경상남도 -2036
▁삶 -2037
▁겪 -2038
나이 -2039
▁후기 -2040
지션 -2041
▁감소 -2042
▁혐 -2043
▁생성 -2044
▁카이 -2045
▁번역 -2046
▁케이 -2047
▁근거 -2048
소년 -2049
▁뮤직 -2050
▁윌리엄 -2051
▁제기 -2052
▁옹 -2053
▁확대 -2054
▁경상북도 -2055
▁ㅇㅣㄹㅏㄱㅗ -2056
▁네트 -2057
▁귀족 -2058
▁지상 -2059
▁보유 -2060
▁듣 -2061
▁지식 -2062
▁유형 -2063
▁보존 -2064
▁양식 -2065
▁? -2066
▁균 -2067
▁관광 -2068
▁위기 -2069
무원 -2070
▁1988 -2071
▁구하 -2072
▁동생 -2073
▁멜 -2074
▁달성 -2075
▁상징 -2076
▁숨 -2077
▁187 -2078
▁촬 -2079
▁유대 -2080
▁전략 -2081
▁멕시코 -2082
▁극장 -2083
▁캘 -2084
▁수사 -2085
▁촌 -2086
▁h -2087
ㅜㄴ -2088
▁원소 -2089
▁당선 -2090
▁상업 -2091
▁완성 -2092
▁유리 -2093
▁성립 -2094
▁근무 -2095
▁디지털 -2096
▁영상 -2097
▁학위 -2098
▁대응 -2099
▁짓 -2100
▁단위 -2101
▁34 -2102
▁특수 -2103
▁이렇게 -2104
▁계승 -2105
▁체포 -2106
▁촬영 -2107
▁이슬 -2108
티아 -2109
▁옆 -2110
▁님 -2111
▁흐르 -2112
▁발매되 -2113
▁나중 -2114
▁몇몇 -2115
▁수비 -2116
▁식민지 -2117
▁체결 -2118
아내 -2119
▁38 -2120
▁권리 -2121
▁코치 -2122
id -2123
▁전달 -2124
▁이집 -2125
▁마사 -2126
회사 -2127
▁이집트 -2128
▁ㅇㅗ -2129
▁싶 -2130
▁알렉산 -2131
가리 -2132
▁생명 -2133
▁듀 -2134
▁벌어지 -2135
▁90 -2136
▁국왕 -2137
가와 -2138
▁종목 -2139
아시아 -2140
▁걸리 -2141
▁ㄷㅐ -2142
▁맹 -2143
▁낳 -2144
▁시티 -2145
▁아내 -2146
▁판단 -2147
▁미래 -2148
▁직후 -2149
▁승격 -2150
▁톤 -2151
▁헨 -2152
▁타이틀 -2153
▁1989 -2154
▁이주 -2155
▁크로 -2156
▁관찰 -2157
▁주식 -2158
모리 -2159
▁시청 -2160
▁률 -2161
▁측정 -2162
▁펼치 -2163
▁틀 -2164
▁대륙 -2165
▁도서관 -2166
▁개통 -2167
▁미군 -2168
▁2021 -2169
▁소수 -2170
▁맞추 -2171
▁젊 -2172
▁즐 -2173
▁48 -2174
ec -2175
▁밑 -2176
▁자본 -2177
▁동계 -2178
▁엘리 -2179
▁전환 -2180
▁채널 -2181
us -2182
▁세르 -2183
▁홍콩 -2184
▁설정 -2185
▁스키 -2186
▁정치인 -2187
▁문화재 -2188
▁ㄴㄷㅏㅁㅕㄴ -2189
▁라인 -2190
NA -2191
▁ㄷㅐㄹㅗ -2192
▁얼마 -2193
▁쌓 -2194
▁개정 -2195
▁특성 -2196
▁새로 -2197
and -2198
▁포르투 -2199
▁', -2200
▁납 -2201
▁시위 -2202
▁의견 -2203
▁텍 -2204
▁미사일 -2205
▁신경 -2206
▁종료 -2207
ㅇㅔ -2208
▁취임 -2209
▁상하 -2210
▁제정 -2211
▁지위 -2212
▁달하 -2213
▁기획 -2214
▁1950 -2215
▁| -2216
▁300 -2217
▁주어지 -2218
▁후쿠 -2219
▁은하 -2220
▁본관 -2221
▁결승전 -2222
▁천황 -2223
▁사회주의 -2224
▁교체 -2225
▁전차 -2226
▁청년 -2227
▁헝 -2228
디아 -2229
스티 -2230
▁MBC -2231
▁답 -2232
▁범죄 -2233
▁주인공 -2234
코드 -2235
▁ㅇㅡㅁㅕㄴㅅㅓ -2236
▁출생 -2237
▁ㅃ -2238
▁아키 -2239
▁제임스 -2240
▁e -2241
▁예수 -2242
ad -2243
▁주목 -2244
▁충돌 -2245
▁셀 -2246
▁해외 -2247
▁빼 -2248
▁ㅃㅜㄴ -2249
▁소개 -2250
▁수정 -2251
▁계산 -2252
▁전라남도 -2253
▁녹음 -2254
▁장기 -2255
▁춘 -2256
▁ㅇㅏㅆㅇㅓㅆ -2257
교회 -2258
▁벗 -2259
▁바이러스 -2260
▁비용 -2261
▁스티 -2262
▁1945 -2263
▁개선 -2264
▁음식 -2265
▁즉위 -2266
▁본래 -2267
▁모이 -2268
▁남북 -2269
전히 -2270
▁비밀 -2271
▁소장 -2272
▁자격 -2273
리학 -2274
▁공부 -2275
▁카운 -2276
▁건강 -2277
▁합류 -2278
▁건너 -2279
ent -2280
▁계기 -2281
▁공급 -2282
▁이래 -2283
▁부모 -2284
▁펠 -2285
▁네트워크 -2286
▁만드 -2287
▁배경 -2288
스카 -2289
▁체육 -2290
▁궤도 -2291
▁에드 -2292
▁제거 -2293
▁시내 -2294
▁인근 -2295
50 -2296
▁털 -2297
▁원정 -2298
▁셰 -2299
▁누구 -2300
▁컬 -2301
▁홈런 -2302
▁각종 -2303
▁ㅏㅆ -2304
▁오후 -2305
▁거대 -2306
▁작성 -2307
▁물론 -2308
▁감염 -2309
▁명예 -2310
▁공군 -2311
▁신학 -2312
▁자원 -2313
▁입학 -2314
▁집중 -2315
▁왼 -2316
▁가입 -2317
▁읽 -2318
▁국경 -2319
▁피아 -2320
보이 -2321
▁군인 -2322
▁가격 -2323
▁베네 -2324
▁객 -2325
▁전사 -2326
▁천문 -2327
▁성우 -2328
▁병력 -2329
베르 -2330
▁명단 -2331
▁통제 -2332
▁저항 -2333
▁울산 -2334
▁포지션 -2335
▁이슬람 -2336
티나 -2337
▁강조 -2338
▁줄이 -2339
▁아우 -2340
▁농업 -2341
▁신호 -2342
▁찰 -2343
▁측면 -2344
피아 -2345
리포 -2346
▁소송 -2347
▁기후 -2348
▁인수 -2349
▁질량 -2350
▁만약 -2351
▁학문 -2352
▁실행 -2353
▁St -2354
▁터미 -2355
▁블랙 -2356
▁병사 -2357
▁세이 -2358
▁플로 -2359
▁던 -2360
▁나서 -2361
▁콩 -2362
▁피하 -2363
▁오른 -2364
ot -2365
▁터키 -2366
도로 -2367
▁태평양 -2368
▁강원도 -2369
▁기회 -2370
니어 -2371
▁너무 -2372
▁겨울 -2373
▁최소 -2374
▁약간 -2375
▁증명 -2376
▁정착 -2377
▁변호 -2378
▁x -2379
▁비트 -2380
▁엑 -2381
▁이번 -2382
▁잎 -2383
▁광고 -2384
▁미디어 -2385
▁쉬 -2386
▁무장 -2387
동안 -2388
▁노동자 -2389
▁외부 -2390
▁마리아 -2391
un -2392
▁환자 -2393
▁해방 -2394
▁몽골 -2395
▁37 -2396
ow -2397
▁쇠 -2398
▁국방 -2399
▁in -2400
▁편집 -2401
▁터미널 -2402
▁마쓰 -2403
▁제목 -2404
▁사라지 -2405
철도 -2406
▁바라 -2407
▁냉 -2408
▁무렵 -2409
스키 -2410
▁지점 -2411
▁전반 -2412
▁도중 -2413
▁표면 -2414
▁바람 -2415
▁밀도 -2416
▁ㄹㅣ -2417
▁금융 -2418
▁라운드 -2419
▁마련 -2420
▁혐의 -2421
▁허용 -2422
▁유도 -2423
▁1987 -2424
오카 -2425
▁가스 -2426
▁충분 -2427
▁카르 -2428
▁빨 -2429
소리 -2430
▁그해 -2431
▁재산 -2432
▁힐 -2433
▁학년 -2434
▁루이 -2435
▁여전히 -2436
▁합병 -2437
▁인디 -2438
▁ㅕㅅㅓ -2439
▁윈도우 -2440
▁래 -2441
▁충청남도 -2442
▁전력 -2443
▁민간 -2444
▁오사카 -2445
▁고전 -2446
▁꼬리 -2447
▁재직 -2448
▁숲 -2449
▁포르투갈 -2450
▁영화배우 -2451
▁양성 -2452
▁전역 -2453
▁가져 -2454
▁뒷 -2455
▁현실 -2456
▁등급 -2457
▁w -2458
마크 -2459
▁킹 -2460
▁헝가리 -2461
▁41 -2462
▁선수단 -2463
▁령 -2464
▁오리 -2465
드로 -2466
▁붕괴 -2467
▁후지 -2468
▁재정 -2469
▁라이브 -2470
▁계급 -2471
▁행하 -2472
▁51 -2473
▁1986 -2474
▁공주 -2475
▁동료 -2476
▁공공 -2477
▁강제 -2478
ur -2479
▁보고 -2480
▁1984 -2481
▁이하 -2482
▁적극 -2483
▁엔터 -2484
▁위원장 -2485
▁캘리포 -2486
▁스튜디오 -2487
▁ㄷㅡ -2488
▁승인 -2489
▁봄 -2490
▁위협 -2491
▁전선 -2492
▁대대 -2493
▁군주 -2494
▁조치 -2495
▁대수 -2496
▁근대 -2497
▁구축 -2498
▁온도 -2499
▁롤 -2500
▁샌 -2501
▁수입 -2502
▁범위 -2503
▁유엔 -2504
▁업체 -2505
▁둥 -2506
▁임무 -2507
▁이제 -2508
▁꿈 -2509
▁이미지 -2510
▁점차 -2511
▁클라 -2512
▁논문 -2513
▁출발 -2514
▁캘리포니아 -2515
▁위성 -2516
▁경력 -2517
▁교사 -2518
▁양자 -2519
▁대학원 -2520
▁고구 -2521
▁원칙 -2522
▁공산당 -2523
▁다섯 -2524
▁항상 -2525
▁전개 -2526
▁거래 -2527
▁핀란드 -2528
▁확보 -2529
▁채택 -2530
▁성인 -2531
▁토론 -2532
▁수단 -2533
러지 -2534
▁잭 -2535
▁회복 -2536
▁필리핀 -2537
▁올라가 -2538
▁공업 -2539
마스 -2540
▁섭 -2541
▁앞서 -2542
▁수립 -2543
▁증거 -2544
▁ㄷㅡㄴ -2545
▁강의 -2546
▁잡지 -2547
▁아시안 -2548
테르 -2549
ㅇㅛ -2550
▁드래 -2551
▁남아 -2552
주교 -2553
ch -2554
▁첨 -2555
▁39 -2556
▁남편 -2557
▁400 -2558
▁개편 -2559
▁매년 -2560
▁얼굴 -2561
▁합의 -2562
▁그래서 -2563
▁스파 -2564
▁기지 -2565
▁만족 -2566
▁선생 -2567
▁일원 -2568
▁의료 -2569
▁사례 -2570
▁어떻 -2571
고리 -2572
바이 -2573
▁시인 -2574
▁폭발 -2575
▁나카 -2576
▁앞두 -2577
▁부근 -2578
▁스위스 -2579
▁이스라 -2580
▁모스크 -2581
▁간주 -2582
▁1985 -2583
▁붉 -2584
▁장비 -2585
▁64 -2586
▁욕 -2587
▁이승 -2588
▁대형 -2589
로드 -2590
▁끊 -2591
▁종종 -2592
▁튀 -2593
▁ㄹㅏㅁㅕ -2594
데미 -2595
▁아름 -2596
▁대기 -2597
▁군단 -2598
▁토지 -2599
▁둘러 -2600
▁스리 -2601
다리 -2602
▁경주 -2603
▁장면 -2604
▁불가 -2605
ir -2606
▁아주 -2607
ay -2608
▁뜨 -2609
▁규칙 -2610
▁이스라엘 -2611
▁분자 -2612
▁종이 -2613
▁경향 -2614
▁항성 -2615
▁어린 -2616
▁움직이 -2617
▁게이 -2618
▁II -2619
▁ㅏㅅㅓ -2620
ut -2621
▁수원 -2622
▁까 -2623
▁기대 -2624
▁낭 -2625
▁조합 -2626
▁캄 -2627
백질 -2628
▁아랍 -2629
키아 -2630
▁해체 -2631
▁귀국 -2632
▁맛 -2633
▁심하 -2634
▁진화 -2635
▁ㅇㅔㄱㅔㅅㅓ -2636
고기 -2637
▁탑재 -2638
▁확실 -2639
▁저지 -2640
um -2641
▁그곳 -2642
▁레코드 -2643
▁강점 -2644
레이드 -2645
우드 -2646
▁대장 -2647
▁기억 -2648
▁43 -2649
▁아카데미 -2650
▁서양 -2651
▁향상 -2652
▁br -2653
▁짐 -2654
▁장식 -2655
▁신화 -2656
▁평양 -2657
어들 -2658
▁아나 -2659
▁스피 -2660
▁좀 -2661
▁클래 -2662
▁투어 -2663
▁고양 -2664
▁아메리카 -2665
im -2666
▁변하 -2667
▁청소년 -2668
▁침공 -2669
▁란 -2670
▁보장 -2671
▁융 -2672
▁의학 -2673
▁아름답 -2674
▁박쥐 -2675
▁42 -2676
▁청나라 -2677
▁만큼 -2678
요시 -2679
▁폼 -2680
▁고구려 -2681
▁사후 -2682
▁새기 -2683
▁랭 -2684
오스 -2685
▁불과 -2686
▁카운티 -2687
▁남동 -2688
▁선고 -2689
▁보병 -2690
▁메이저 -2691
▁가로 -2692
▁자금 -2693
▁켄 -2694
▁가사 -2695
▁에피 -2696
▁카메 -2697
보드 -2698
네스 -2699
▁성과 -2700
▁잠시 -2701
ver -2702
▁소년 -2703
▁신설 -2704
▁스타일 -2705
▁감정 -2706
▁나치 -2707
▁이끄 -2708
라비아 -2709
▁독자 -2710
▁1982 -2711
▁고문 -2712
▁단백질 -2713
▁만주 -2714
타인 -2715
▁55 -2716
▁살해 -2717
▁우선 -2718
에르 -2719
▁중화민국 -2720
▁숭 -2721
▁라틴 -2722
▁단지 -2723
▁우수 -2724
▁확정 -2725
무르 -2726
▁편입 -2727
▁합치 -2728
▁ㅂㅏ -2729
▁스카 -2730
라노 -2731
▁철도역 -2732
틀랜드 -2733
▁함대 -2734
▁신앙 -2735
▁복잡 -2736
▁지시 -2737
네시아 -2738
▁스케 -2739
▁광역시 -2740
▁나폴 -2741
▁비율 -2742
▁차별 -2743
▁의장 -2744
▁삭 -2745
▁예상 -2746
▁덴마크 -2747
▁1983 -2748
▁왕위 -2749
다이 -2750
▁44 -2751
▁i -2752
▁태풍 -2753
▁세종 -2754
▁재단 -2755
▁마크 -2756
▁창설 -2757
▁구체 -2758
▁온라인 -2759
누스 -2760
일러 -2761
▁법인 -2762
▁LG -2763
▁고향 -2764
▁전화 -2765
▁검찰 -2766
▁공유 -2767
뜨리 -2768
▁성당 -2769
▁전설 -2770
FC -2771
▁동의 -2772
▁역대 -2773
▁짜 -2774
▁브리 -2775
▁선거구 -2776
▁참석 -2777
▁대립 -2778
▁반도 -2779
▁보급 -2780
▁솔로 -2781
▁판결 -2782
트라 -2783
▁육상 -2784
▁47 -2785
▁킬 -2786
▁삼국 -2787
▁묻 -2788
▁가하 -2789
▁브랜드 -2790
▁하늘 -2791
운동 -2792
▁둘러싸 -2793
▁수출 -2794
▁유학 -2795
뿌리 -2796
싱턴 -2797
▁듯 -2798
▁고정 -2799
의회 -2800
▁노예 -2801
▁ㄴㅑ -2802
ㅓㄹㅏ -2803
이크 -2804
▁저장 -2805
비드 -2806
▁협상 -2807
▁핵심 -2808
▁후손 -2809
▁집행 -2810
▁카를 -2811
▁애플 -2812
▁헤이 -2813
▁본격 -2814
없이 -2815
▁75 -2816
하라 -2817
▁보안 -2818
▁무엇 -2819
▁강점기 -2820
▁180 -2821
▁오픈 -2822
▁산맥 -2823
▁184 -2824
오프 -2825
▁초반 -2826
▁탄생 -2827
▁자세 -2828
▁Z -2829
▁마드리 -2830
▁회전 -2831
▁대비 -2832
▁중반 -2833
▁대항 -2834
▁사전 -2835
▁암살 -2836
셔널 -2837
반도 -2838
원군 -2839
▁숫 -2840
각형 -2841
▁주교 -2842
▁옷 -2843
▁연고 -2844
▁이성 -2845
문화 -2846
▁로버트 -2847
▁1972 -2848
▁마드리드 -2849
▁아르헨 -2850
▁베이스 -2851
▁법칙 -2852
▁플랫 -2853
▁권한 -2854
▁전혀 -2855
리스트 -2856
▁어린이 -2857
▁켈 -2858
▁프란 -2859
소드 -2860
▁공학 -2861
▁단일 -2862
▁전용 -2863
▁46 -2864
▁이익 -2865
▁사우 -2866
▁순서 -2867
▁의무 -2868
▁1920 -2869
▁공기 -2870
▁말기 -2871
바르 -2872
▁이란 -2873
▁베를 -2874
▁직원 -2875
▁조금 -2876
▁아르헨티나 -2877
▁인상 -2878
레이션 -2879
▁유적 -2880
▁요한 -2881
▁시각 -2882
▁공포 -2883
▁수여 -2884
▁중심지 -2885
▁운전 -2886
CA -2887
터리 -2888
▁가르치 -2889
▁1979 -2890
▁별도 -2891
▁ㄹㅏㅁㅕㄴ -2892
▁사항 -2893
▁아스 -2894
▁아미 -2895
▁비난 -2896
▁흔히 -2897
▁모리 -2898
▁덮 -2899
▁보조 -2900
▁스크 -2901
▁잘못 -2902
▁효소 -2903
▁전라북도 -2904
▁원주 -2905
▁상품 -2906
▁워싱턴 -2907
▁밀리 -2908
▁협정 -2909
▁ㄷㅓㄹㅏ -2910
▁글로 -2911
▁롯 -2912
▁전후 -2913
▁아파 -2914
▁변호사 -2915
▁을 -2916
▁CD -2917
▁kg -2918
▁기하 -2919
▁관료 -2920
▁통계 -2921
▁파크 -2922
▁인권 -2923
▁창조 -2924
▁방면 -2925
▁우크 -2926
정부 -2927
퍼드 -2928
▁1930 -2929
▁작곡가 -2930
ra -2931
▁마시 -2932
▁투입 -2933
▁레드 -2934
▁소식 -2935
▁장착 -2936
▁In -2937
▁1981 -2938
▁저서 -2939
▁금메달 -2940
▁심각 -2941
▁넘어 -2942
▁셋 -2943
무라 -2944
▁현장 -2945
▁1973 -2946
▁항복 -2947
▁정복 -2948
▁아침 -2949
▁놓이 -2950
▁150 -2951
▁하드 -2952
▁훨 -2953
▁호텔 -2954
▁공무원 -2955
▁벡 -2956
▁엠 -2957
사키 -2958
▁중세 -2959
10 -2960
퍼스 -2961
▁니콜 -2962
▁본인 -2963
▁갈등 -2964
▁헨리 -2965
▁ㄷㅡㅅ -2966
▁오히 -2967
▁교류 -2968
▁공화 -2969
▁공산주의 -2970
▁건국 -2971
▁물러 -2972
▁오른쪽 -2973
▁교토 -2974
▁노스 -2975
▁훨씬 -2976
▁마이클 -2977
▁어떻게 -2978
os -2979
▁요새 -2980
▁논의 -2981
겨나 -2982
▁중부 -2983
▁성경 -2984
▁출마 -2985
▁코미 -2986
▁오랜 -2987
▁v -2988
▁김정 -2989
리어 -2990
▁무리 -2991
▁산하 -2992
▁빙 -2993
▁택 -2994
▁플레이어 -2995
▁뿌리 -2996
▁건조 -2997
▁유전자 -2998
▁한때 -2999
▁세인트 -3000
▁왼쪽 -3001
▁플라 -3002
▁인정받 -3003
▁인류 -3004
▁패하 -3005
▁연합군 -3006
▁오토 -3007
▁형사 -3008
▁추측 -3009
▁ㄹㅏㅇ -3010
▁창립 -3011
▁서기 -3012
▁방출 -3013
▁금속 -3014
▁로드 -3015
▁1940 -3016
30 -3017
▁베이징 -3018
▁아프 -3019
▁투쟁 -3020
▁성질 -3021
▁원작 -3022
▁예산 -3023
▁주위 -3024
▁드러나 -3025
▁1974 -3026
▁태국 -3027
▁찍 -3028
▁185 -3029
BO -3030
▁릴 -3031
▁노르웨이 -3032
em -3033
일보 -3034
▁에피소드 -3035
▁북서 -3036
▁벗어나 -3037
▁에어 -3038
▁복합 -3039
▁제자 -3040
▁탁 -3041
▁군수 -3042
▁사령관 -3043
▁사태 -3044
▁코스 -3045
ter -3046
▁효율 -3047
▁플레이오프 -3048
▁운용 -3049
▁모스크바 -3050
▁오전 -3051
▁논쟁 -3052
▁멸망 -3053
▁절대 -3054
▁반복 -3055
▁입자 -3056
▁정비 -3057
▁SBS -3058
▁집안 -3059
▁뽑 -3060
▁구별 -3061
▁전철 -3062
▁제출 -3063
카와 -3064
▁스코틀랜드 -3065
▁노부 -3066
▁해양 -3067
▁가져오 -3068
▁합성 -3069
▁1948 -3070
▁메시 -3071
▁숫자 -3072
▁인종 -3073
▁사법 -3074
▁주기 -3075
▁연산 -3076
▁포위 -3077
▁거절 -3078
▁미니 -3079
▁블루 -3080
▁흡수 -3081
듀서 -3082
▁54 -3083
▁프로듀서 -3084
▁퍼지 -3085
머스 -3086
▁각본 -3087
붙이 -3088
▁중대 -3089
▁오히려 -3090
▁출장 -3091
▁1968 -3092
아오 -3093
▁인조 -3094
▁댄 -3095
▁연관 -3096
▁빌리 -3097
▁원리 -3098
▁델 -3099
▁마침 -3100
▁인공 -3101
▁목사 -3102
▁활발 -3103
▁1976 -3104
▁시점 -3105
▁웨스트 -3106
▁베를린 -3107
▁슬로 -3108
▁수송 -3109
도르 -3110
▁포기 -3111
▁경성 -3112
▁해상 -3113
▁신체 -3114
▁개시 -3115
▁소녀 -3116
▁전공 -3117
▁이민 -3118
▁북동 -3119
▁출입 -3120
▁건립 -3121
▁취급 -3122
▁인터뷰 -3123
▁넘기 -3124
▁주전 -3125
▁ㅂㅏㄲ -3126
▁ㅂㅏㄲㅇㅔ -3127
▁보스 -3128
▁우스 -3129
▁1975 -3130
▁즐기 -3131
▁프라 -3132
▁음력 -3133
▁읍 -3134
▁명성 -3135
▁사령부 -3136
▁디스 -3137
▁고용 -3138
▁실리 -3139
▁히데 -3140
데스 -3141
op -3142
▁국도 -3143
▁던지 -3144
▁축제 -3145
▁동원 -3146
▁파라 -3147
▁취득 -3148
▁트랙 -3149
▁분쟁 -3150
▁활성 -3151
나이티 -3152
▁농민 -3153
▁주택 -3154
▁영화제 -3155
▁ㄹㅏㄷㅗ -3156
시스 -3157
▁안타 -3158
▁장악 -3159
▁봉하 -3160
▁비록 -3161
▁유나이티 -3162
▁신성 -3163
▁1978 -3164
▁1971 -3165
▁56 -3166
▁구속 -3167
▁총독 -3168
▁갤 -3169
▁국장 -3170
▁미드 -3171
▁ㅇㅓㄷㅗ -3172
ag -3173
▁진보 -3174
▁일치 -3175
▁보컬 -3176
▁텐 -3177
▁견해 -3178
▁고유 -3179
▁소스 -3180
▁전부 -3181
▁1963 -3182
서트 -3183
에트 -3184
▁끝내 -3185
▁52 -3186
라크 -3187
산시 -3188
▁북아 -3189
▁불법 -3190
▁유물 -3191
▁직전 -3192
▁부활 -3193
▁49 -3194
▁후원 -3195
▁늘어나 -3196
▁관점 -3197
▁보험 -3198
▁하위 -3199
▁한자 -3200
▁자이 -3201
▁대리 -3202
▁코미디 -3203
▁ㄷㅓㄹㅏㄷㅗ -3204
▁폭력 -3205
▁65 -3206
▁연료 -3207
▁정체 -3208
키스탄 -3209
▁포도 -3210
▁교차 -3211
▁학습 -3212
▁편지 -3213
비치 -3214
▁주관 -3215
▁도달 -3216
▁혼란 -3217
▁여객철도 -3218
▁타이완 -3219
▁닌 -3220
▁약속 -3221
▁수술 -3222
ce -3223
▁상당히 -3224
메리 -3225
세이 -3226
▁철수 -3227
▁스미 -3228
▁항공기 -3229
▁아테 -3230
▁1969 -3231
▁관직 -3232
▁시리아 -3233
▁천체 -3234
▁179 -3235
▁Q -3236
▁누리 -3237
▁반영 -3238
▁여부 -3239
▁한국어 -3240
기에 -3241
▁직업 -3242
▁물러나 -3243
릭스 -3244
▁하나님 -3245
젤레스 -3246
▁고종 -3247
▁선교 -3248
자기 -3249
쿠라 -3250
ㅇㅣ -3251
▁본사 -3252
▁수집 -3253
▁그리스도 -3254
▁임금 -3255
▁백제 -3256
▁미나 -3257
▁명명 -3258
▁00 -3259
▁모시 -3260
▁장교 -3261
▁브레 -3262
리케 -3263
▁상륙 -3264
▁제어 -3265
▁넷 -3266
▁팝 -3267
▁데이비드 -3268
▁의존 -3269
▁논리 -3270
▁ㄷㅏㅁㅕ -3271
▁테러 -3272
▁성능 -3273
어스 -3274
▁1946 -3275
▁주간 -3276
▁대화 -3277
▁보관 -3278
▁아사 -3279
▁화물 -3280
▁심리 -3281
▁백작 -3282
▁일대 -3283
▁부임 -3284
▁영업 -3285
▁학술 -3286
▁프리미 -3287
▁톰 -3288
▁폴리 -3289
공항 -3290
OS -3291
▁콘서트 -3292
▁소방 -3293
▁주식회사 -3294
▁도구 -3295
▁불상 -3296
▁해산 -3297
▁좁 -3298
▁십자 -3299
▁교환 -3300
▁정지 -3301
▁53 -3302
▁전파 -3303
▁개체 -3304
▁연재 -3305
▁프로세 -3306
▁허가 -3307
▁나아가 -3308
▁스마 -3309
▁하우스 -3310
▁전문가 -3311
▁자살 -3312
▁제일 -3313
▁코로나 -3314
▁박정 -3315
미터 -3316
▁김영 -3317
oc -3318
▁반발 -3319
▁1964 -3320
▁정원 -3321
▁대략 -3322
▁핑 -3323
▁그런데 -3324
▁방사 -3325
▁영향력 -3326
▁간단 -3327
▁판서 -3328
▁니시 -3329
▁충청북도 -3330
▁살인 -3331
▁헤르 -3332
▁거기 -3333
▁진입 -3334
▁고리 -3335
▁화성 -3336
▁상승 -3337
▁보건 -3338
▁먹이 -3339
▁원하 -3340
▁재료 -3341
▁공통 -3342
▁베스트 -3343
▁드리 -3344
▁리스 -3345
병대 -3346
▁학부 -3347
▁미터 -3348
▁소비에트 -3349
▁겐 -3350
▁신분 -3351
▁US -3352
▁벨기에 -3353
▁항구 -3354
▁포트 -3355
이어 -3356
▁피아노 -3357
▁서버 -3358
▁영입 -3359
▁스프 -3360
▁약하 -3361
▁승진 -3362
▁and -3363
▁국제공항 -3364
▁사장 -3365
ri -3366
▁가을 -3367
▁학원 -3368
▁지붕 -3369
▁파트 -3370
▁꼭 -3371
▁인도네시아 -3372
▁부장 -3373
▁58 -3374
▁외국인 -3375
▁그레 -3376
▁진압 -3377
▁기도 -3378
▁학회 -3379
▁99 -3380
▁1000 -3381
▁시호 -3382
노스 -3383
▁ㄹㅔ -3384
▁질병 -3385
▁루이스 -3386
▁도망 -3387
▁랜 -3388
▁사운드 -3389
▁횡 -3390
▁발언 -3391
▁스토 -3392
▁다스 -3393
▁구성원 -3394
▁브루 -3395
하마 -3396
오르 -3397
▁아라 -3398
▁탈출 -3399
▁현역 -3400
▁콤 -3401
▁창단 -3402
▁누르 -3403
▁머무르 -3404
▁공동체 -3405
▁주년 -3406
▁참전 -3407
▁채용 -3408
▁식품 -3409
▁트랜 -3410
▁계통 -3411
▁복무 -3412
▁닥 -3413
▁그치 -3414
▁변환 -3415
▁리더 -3416
▁한반도 -3417
▁탈락 -3418
▁감사 -3419
▁응용 -3420
▁픽 -3421
▁임대 -3422
▁PC -3423
▁의도 -3424
▁쫓 -3425
▁통상 -3426
저우 -3427
▁1977 -3428
▁합격 -3429
▁요코 -3430
▁모드 -3431
▁장수 -3432
▁벼 -3433
▁작사 -3434
▁임의 -3435
▁민법 -3436
천군 -3437
▁고도 -3438
다가 -3439
아버지 -3440
▁망명 -3441
▁조작 -3442
▁친일 -3443
▁포로 -3444
▁문헌 -3445
▁신청 -3446
▁위반 -3447
▁말레이 -3448
▁SK -3449
▁페이 -3450
▁롯데 -3451
▁화면 -3452
▁1949 -3453
▁로스앤 -3454
▁로스앤젤레스 -3455
성군 -3456
▁마케 -3457
▁띄 -3458
▁에도 -3459
▁문장 -3460
▁트라 -3461
▁방송국 -3462
▁부부 -3463
▁라이트 -3464
프리 -3465
▁동남 -3466
▁저작 -3467
▁탄소 -3468
▁학과 -3469
igh -3470
▁FA -3471
▁이치 -3472
문화재 -3473
▁ㅋ -3474
▁트로 -3475
▁변형 -3476
▁배출 -3477
▁88 -3478
▁분열 -3479
▁선조 -3480
▁연출 -3481
▁수영 -3482
▁예측 -3483
▁절차 -3484
▁1962 -3485
▁청구 -3486
▁캠퍼스 -3487
▁상원 -3488
정식 -3489
▁수소 -3490
려움 -3491
▁엑스 -3492
▁자녀 -3493
▁요인 -3494
▁.. -3495
▁시카 -3496
▁메모리 -3497
▁주둔 -3498
▁62 -3499
▁칭하 -3500
ation -3501
▁조절 -3502
▁코파 -3503
▁신인 -3504
▁레오 -3505
▁1967 -3506
▁전동 -3507
▁이중 -3508
드시 -3509
▁레스 -3510
▁큐 -3511
▁기호 -3512
▁선전 -3513
▁정기 -3514
▁막부 -3515
▁흉 -3516
▁화재 -3517
타르 -3518
▁서원 -3519
▁처형 -3520
카이도 -3521
▁국무 -3522
▁로켓 -3523
▁출간 -3524
▁등지 -3525
▁r -3526
▁수리 -3527
페라 -3528
▁호수 -3529
크스 -3530
▁이승만 -3531
로그 -3532
천시 -3533
▁57 -3534
▁광장 -3535
▁실수 -3536
▁황금 -3537
▁남서 -3538
▁방지 -3539
▁증상 -3540
▁기법 -3541
▁이시 -3542
▁힘들 -3543
▁동작 -3544
▁어떠 -3545
▁취소 -3546
▁오스만 -3547
▁루트 -3548
▁카메라 -3549
▁왕자 -3550
▁지급 -3551
▁흑인 -3552
▁연안 -3553
▁동성 -3554
▁앵 -3555
▁선보이 -3556
▁생존 -3557
▁You -3558
▁장르 -3559
▁콘스탄 -3560
라드 -3561
브리 -3562
▁개조 -3563
▁서구 -3564
▁예비 -3565
▁ㄴㅡㄴㄱㅏ -3566
▁현지 -3567
▁Ch -3568
▁롱 -3569
포르 -3570
▁히트 -3571
▁위상 -3572
▁늦 -3573
▁고지 -3574
▁좌우 -3575
▁반드시 -3576
▁농구 -3577
▁기체 -3578
▁여단 -3579
아나 -3580
▁희망 -3581
▁전주 -3582
▁임진 -3583
▁고치 -3584
▁진주 -3585
▁천연 -3586
▁공정 -3587
▁제대로 -3588
▁크리 -3589
▁일본군 -3590
▁맞서 -3591
▁무덤 -3592
▁181 -3593
▁터널 -3594
▁톱 -3595
▁노리 -3596
▁동아 -3597
▁도전 -3598
▁전면 -3599
▁분명 -3600
▁싸움 -3601
▁코르 -3602
▁맞이 -3603
▁파악 -3604
방송 -3605
▁ㅇㅡㄹㅕ -3606
▁둘째 -3607
▁스탠 -3608
▁전형 -3609
▁1966 -3610
▁특이 -3611
▁압력 -3612
nd -3613
▁묵 -3614
▁이온 -3615
▁%, -3616
▁녹색 -3617
▁흘 -3618
▁66 -3619
라이언 -3620
▁독특 -3621
▁그레이 -3622
▁글자 -3623
▁미국인 -3624
▁독립운동 -3625
▁경로 -3626
▁리처 -3627
▁바둑 -3628
▁매일 -3629
▁법정 -3630
▁노벨 -3631
▁엄청 -3632
이치 -3633
▁드물 -3634
▁꺾 -3635
▁해리 -3636
▁1965 -3637
▁방정식 -3638
▁돌리 -3639
▁에르 -3640
▁KBO -3641
▁목소리 -3642
▁68 -3643
▁부사 -3644
▁타임 -3645
▁183 -3646
티브 -3647
▁아리 -3648
▁유기 -3649
▁물체 -3650
▁성향 -3651
▁인지 -3652
더스 -3653
▁신뢰 -3654
▁체코 -3655
▁덧 -3656
▁지리 -3657
▁개신 -3658
▁가시 -3659
▁동기 -3660
▁61 -3661
▁클레 -3662
▁어디 -3663
▁알렉산드 -3664
▁우려 -3665
▁일식 -3666
▁분해 -3667
▁묶 -3668
▁처벌 -3669
▁밥 -3670
치아 -3671
ST -3672
베스 -3673
에이 -3674
▁간행 -3675
ㅏㄴㅡㄴ -3676
▁일찍 -3677
▁퀸 -3678
▁유행 -3679
▁김일 -3680
▁타격 -3681
르타 -3682
▁찰스 -3683
▁분할 -3684
▁홋 -3685
▁방해 -3686
▁실질 -3687
▁화산 -3688
▁완료 -3689
▁추구 -3690
▁풍부 -3691
▁웅 -3692
▁내전 -3693
▁나들 -3694
바라 -3695
▁사립 -3696
▁손자 -3697
▁범주 -3698
▁나들목 -3699
질랜드 -3700
▁찌 -3701
▁평등 -3702
▁뉴질랜드 -3703
▁순환 -3704
▁아파트 -3705
▁아동 -3706
▁1961 -3707
▁삽 -3708
▁대개 -3709
▁복지 -3710
먼트 -3711
▁별명 -3712
▁희생 -3713
▁갈색 -3714
▁마르크 -3715
▁빼앗 -3716
▁플래 -3717
ER -3718
▁비평 -3719
▁오프 -3720
▁800 -3721
art -3722
▁부진 -3723
▁흰 -3724
▁곱 -3725
▁최다 -3726
▁마침내 -3727
▁가까 -3728
▁분기 -3729
ice -3730
▁리가 -3731
▁시조 -3732
▁집권 -3733
▁파르 -3734
▁가상 -3735
▁600 -3736
▁점점 -3737
▁전원 -3738
▁창원 -3739
▁한정 -3740
▁시드 -3741
▁엄청나 -3742
▁사냥 -3743
▁86 -3744
▁첼 -3745
▁기둥 -3746
▁모형 -3747
▁구현 -3748
ON -3749
▁대법 -3750
▁한계 -3751
▁판사 -3752
▁120 -3753
▁근본 -3754
▁완공 -3755
▁IS -3756
▁벡터 -3757
유럽 -3758
▁테이 -3759
▁메리 -3760
다르 -3761
텐츠 -3762
▁훗 -3763
▁바치 -3764
▁부하 -3765
▁중기 -3766
▁명확 -3767
▁ㅇㅡㄴㅣ -3768
▁웨이 -3769
▁사임 -3770
투스 -3771
▁프린 -3772
▁스토리 -3773
▁의지 -3774
▁충격 -3775
▁확산 -3776
▁일본인 -3777
▁교향 -3778
▁날개 -3779
▁분위 -3780
▁들어서 -3781
est -3782
▁오페라 -3783
틀러 -3784
▁무게 -3785
피스 -3786
▁사원 -3787
은행 -3788
▁출범 -3789
▁사형 -3790
▁1919 -3791
▁대공 -3792
▁물리학 -3793
▁단독 -3794
ia -3795
▁사마 -3796
▁re -3797
▁호주 -3798
▁레인 -3799
▁캔 -3800
▁닛 -3801
디션 -3802
▁마법 -3803
▁명나라 -3804
▁뚜 -3805
▁상위 -3806
▁이자 -3807
▁드러내 -3808
▁가나 -3809
▁통산 -3810
▁알파 -3811
▁제이 -3812
▁적절 -3813
ap -3814
▁렀 -3815
▁훌 -3816
▁의혹 -3817
▁연구원 -3818
▁98 -3819
TV -3820
▁편찬 -3821
▁악화 -3822
▁서명 -3823
▁1944 -3824
▁모토 -3825
▁영웅 -3826
▁의심 -3827
▁당초 -3828
▁유치 -3829
▁조종 -3830
▁굽 -3831
세우 -3832
사스 -3833
나가 -3834
▁넓이 -3835
▁인접 -3836
▁무시 -3837
▁문명 -3838
▁키우 -3839
▁발굴 -3840
ak -3841
라이나 -3842
▁도쿠 -3843
▁인증 -3844
▁회담 -3845
▁포인트 -3846
▁샘 -3847
▁모임 -3848
▁연간 -3849
▁추천 -3850
▁함락 -3851
▁곽 -3852
▁저술 -3853
▁사실상 -3854
▁쏘 -3855
▁생겨나 -3856
사자 -3857
▁자극 -3858
▁광복 -3859
▁각지 -3860
▁카라 -3861
▁접촉 -3862
▁개입 -3863
▁징역 -3864
▁동서 -3865
▁고속도로 -3866
▁기리 -3867
▁득표 -3868
▁프리미어 -3869
▁포항 -3870
▁1941 -3871
▁63 -3872
▁홍보 -3873
아보 -3874
▁독일군 -3875
▁사정 -3876
▁진정 -3877
▁순수 -3878
▁순간 -3879
우리 -3880
▁세르비아 -3881
▁그때 -3882
▁골든 -3883
▁드라이 -3884
연히 -3885
▁95 -3886
▁악기 -3887
▁기온 -3888
AR -3889
▁멘 -3890
▁기기 -3891
▁올해 -3892
▁루스 -3893
▁개막 -3894
▁탐사 -3895
▁뮤지 -3896
▁오랫 -3897
▁구원 -3898
▁74 -3899
▁여론 -3900
▁학살 -3901
▁공로 -3902
▁DNA -3903
▁등판 -3904
▁임기 -3905
민주 -3906
숭이 -3907
▁바위 -3908
버그 -3909
▁시카고 -3910
▁59 -3911
▁언제 -3912
▁경전 -3913
▁꼽 -3914
▁성분 -3915
▁178 -3916
▁행렬 -3917
학생 -3918
▁한국인 -3919
믹스 -3920
▁이닝 -3921
▁팽 -3922
▁Lo -3923
▁변수 -3924
▁락 -3925
▁그라 -3926
▁추산 -3927
무부 -3928
▁수석 -3929
▁실현 -3930
▁앤드 -3931
▁태도 -3932
▁백성 -3933
▁예전 -3934
ct -3935
▁닉 -3936
일리 -3937
▁공헌 -3938
▁입법 -3939
▁보고서 -3940
대부 -3941
▁네이 -3942
▁자전 -3943
▁확률 -3944
▁훗날 -3945
▁오랫동안 -3946
▁아티 -3947
▁양쪽 -3948
▁스마트 -3949
▁혼합 -3950
▁줄어들 -3951
▁감시 -3952
▁페르시아 -3953
▁춤 -3954
▁심사 -3955
▁튜 -3956
▁1958 -3957
▁프로그래 -3958
▁미쓰 -3959
▁방위 -3960
▁매장 -3961
▁IC -3962
▁균형 -3963
ul -3964
▁뱅 -3965
▁특별시 -3966
러리 -3967
리히 -3968
▁1947 -3969
▁왕실 -3970
▁에드워드 -3971
▁피터 -3972
▁리처드 -3973
▁출력 -3974
▁160 -3975
▁to -3976
▁침략 -3977
▁82 -3978
▁영지 -3979
코스 -3980
▁개신교 -3981
▁원형 -3982
▁커뮤 -3983
ㅡㅁ -3984
▁;/ -3985
▁신부 -3986
▁조별 -3987
▁줄기 -3988
▁대량 -3989
▁다케 -3990
▁저녁 -3991
▁76 -3992
▁경남 -3993
▁분위기 -3994
▁단편 -3995
▁1956 -3996
▁시사 -3997
▁멀리 -3998
▁안토 -3999
▁프라이 -4000
이너 -4001
▁승객 -4002
▁72 -4003
▁여왕 -4004
▁팔리 -4005
▁텍사스 -4006
▁랜드 -4007
▁승부 -4008
▁그래픽 -4009
▁ㅇㅔㅅㅓㅂㅜㅌㅓ -4010
▁SS -4011
▁제사 -4012
▁이라크 -4013
▁권위 -4014
▁고르 -4015
▁발발 -4016
▁무사 -4017
▁대선 -4018
▁미야 -4019
▁가와 -4020
▁아이돌 -4021
▁기울 -4022
▁타자 -4023
▁흐름 -4024
▁안동 -4025
▁ㄲ -4026
▁커뮤니 -4027
ie -4028
▁재건 -4029
▁작위 -4030
▁동명 -4031
▁마무 -4032
▁프랑크 -4033
▁점수 -4034
▁바깥 -4035
▁확립 -4036
▁교구 -4037
▁복원 -4038
▁데스 -4039
▁앉 -4040
리노 -4041
▁77 -4042
▁참고 -4043
▁석유 -4044
▁일상 -4045
▁입력 -4046
▁과학자 -4047
▁비치 -4048
▁1939 -4049
▁테스트 -4050
▁섞 -4051
▁원수 -4052
▁긍 -4053
▁잠수 -4054
▁ㄹㅈㅣ -4055
▁67 -4056
▁축구단 -4057
메리칸 -4058
레나 -4059
▁폭탄 -4060
▁Th -4061
▁리버 -4062
▁수익 -4063
▁시상 -4064
▁침입 -4065
▁민중 -4066
▁어깨 -4067
▁겹 -4068
▁도요 -4069
▁비상 -4070
▁복수 -4071
▁포켓 -4072
▁타워 -4073
▁당국 -4074
ud -4075
▁신자 -4076
▁복음 -4077
▁기소 -4078
▁병합 -4079
▁일시 -4080
▁사자 -4081
▁AFC -4082
▁브라운 -4083
▁자식 -4084
▁한글 -4085
일스 -4086
▁시마 -4087
▁재배 -4088
▁주최 -4089
ly -4090
▁더블 -4091
레옹 -4092
▁본질 -4093
▁혁신 -4094
og -4095
▁부지 -4096
▁다운 -4097
▁도모 -4098
▁대왕 -4099
메이 -4100
▁신고 -4101
▁정수 -4102
▁연예 -4103
마르 -4104
▁빅토 -4105
▁심지 -4106
▁가공 -4107
▁계층 -4108
▁보물 -4109
▁나폴레옹 -4110
▁덜 -4111
▁85 -4112
▁대성 -4113
▁동양 -4114
에른 -4115
ist -4116
▁가량 -4117
▁사제 -4118
▁지형 -4119
▁내셔널 -4120
▁끼치 -4121
▁1954 -4122
th -4123
▁공중 -4124
▁가담 -4125
▁평안 -4126
▁암호 -4127
▁창작 -4128
이센 -4129
▁힌 -4130
▁파워 -4131
▁훈장 -4132
마니아 -4133
▁ㄴㅔ -4134
▁빌보드 -4135
레인 -4136
▁국기 -4137
▁거듭 -4138
▁우라 -4139
▁깃 -4140
▁인쇄 -4141
▁구글 -4142
▁폐쇄 -4143
▁후계 -4144
▁쌀 -4145
▁그렇게 -4146
왜란 -4147
▁노출 -4148
▁임진왜란 -4149
▁산화 -4150
아티아 -4151
▁크로아티아 -4152
AS -4153
▁고기 -4154
▁참모 -4155
▁평론 -4156
▁움직임 -4157
ight -4158
▁1952 -4159
▁총회 -4160
▁들이 -4161
▁가설 -4162
▁급제 -4163
▁비서 -4164
▁탱 -4165
▁력 -4166
▁세리 -4167
아지 -4168
▁다소 -4169
▁보살 -4170
▁73 -4171
▁가이 -4172
▁실력 -4173
▁아테네 -4174
▁고통 -4175
▁전신 -4176
▁조조 -4177
▁오가 -4178
▁발음 -4179
▁바닥 -4180
▁박정희 -4181
▁대지 -4182
▁채우 -4183
▁후속 -4184
▁스타디 -4185
▁동방 -4186
조합 -4187
▁보상 -4188
▁ㅇㅜ -4189
▁오카 -4190
▁라스 -4191
▁람 -4192
▁96 -4193
▁상관 -4194
느리 -4195
▁따로 -4196
▁타운 -4197
▁* -4198
▁탈퇴 -4199
아하 -4200
▁81 -4201
▁뮤지컬 -4202
필더 -4203
▁뷰 -4204
▁수도원 -4205
▁절반 -4206
▁행복 -4207
▁미드필더 -4208
▁무한 -4209
▁그만 -4210
▁셔 -4211
바로 -4212
▁Al -4213
AT -4214
▁국정 -4215
▁비례 -4216
▁뤼 -4217
▁장남 -4218
▁인용 -4219
▁78 -4220
▁청주 -4221
▁개설 -4222
▁로봇 -4223
▁김대 -4224
▁피해자 -4225
시오 -4226
▁재학 -4227
▁화이트 -4228
▁좋아하 -4229
▁도덕 -4230
▁센트 -4231
▁가까이 -4232
▁전투기 -4233
▁안드로 -4234
▁심장 -4235
▁이혼 -4236
▁소득 -4237
▁화장 -4238
▁젠 -4239
▁김성 -4240
▁하인 -4241
▁뮌 -4242
ㅁㅏ -4243
▁중력 -4244
▁전남 -4245
▁불만 -4246
▁아트 -4247
너스 -4248
▁전직 -4249
▁손상 -4250
▁여섯 -4251
▁천안 -4252
체스터 -4253
의정 -4254
▁바이에른 -4255
▁보르 -4256
타이 -4257
▁살리 -4258
▁산소 -4259
▁지향 -4260
▁처하 -4261
▁202 -4262
▁NH -4263
▁지사 -4264
▁1959 -4265
▁국군 -4266
▁생물학 -4267
▁포스트 -4268
하여 -4269
▁177 -4270
▁교리 -4271
▁붓 -4272
▁빌딩 -4273
▁레알 -4274
▁블라 -4275
ess -4276
▁질환 -4277
▁주력 -4278
▁윗 -4279
▁당나라 -4280
▁사무소 -4281
▁Li -4282
▁백만 -4283
자치 -4284
BA -4285
▁작동 -4286
▁문신 -4287
인물 -4288
▁ㄴㅡㄴㄷㅏㄴㅡㄴ -4289
토스 -4290
▁검토 -4291
▁상역 -4292
▁콘스탄티 -4293
▁녀 -4294
▁인생 -4295
▁71 -4296
▁포스 -4297
▁부담 -4298
▁관여 -4299
▁와이 -4300
▁황후 -4301
직자 -4302
▁91 -4303
▁AT -4304
▁패션 -4305
▁피부 -4306
▁화합 -4307
▁사우스 -4308
▁기상 -4309
▁마무리 -4310
▁총장 -4311
▁DV -4312
▁호소 -4313
▁선박 -4314
클리 -4315
▁ㄹㅣㅇ -4316
▁메시지 -4317
▁일컫 -4318
▁신사 -4319
▁유통 -4320
세포 -4321
▁결론 -4322
▁;, -4323
▁상실 -4324
▁가마 -4325
▁사유 -4326
▁액션 -4327
▁승려 -4328
▁설득 -4329
▁아웃 -4330
▁1942 -4331
▁하원 -4332
▁가슴 -4333
가락 -4334
▁골드 -4335
▁의대 -4336
쿠스 -4337
스트라 -4338
▁약물 -4339
▁개방 -4340
▁심지어 -4341
▁역학 -4342
▁혼인 -4343
▁오직 -4344
▁프로이센 -4345
▁결의 -4346
▁페이지 -4347
▁수요 -4348
▁처분 -4349
▁내려오 -4350
▁분노 -4351
▁글로벌 -4352
▁ㅇㅕㅇㅑ -4353
▁햄 -4354
▁동해 -4355
▁조카 -4356
▁모바 -4357
▁모터 -4358
▁좌상 -4359
▁규제 -4360
▁김일성 -4361
▁연습 -4362
▁적합 -4363
▁디스크 -4364
▁가요 -4365
▁매체 -4366
▁위키 -4367
▁넘어가 -4368
▁그린 -4369
▁87 -4370
미야 -4371
▁이명 -4372
IV -4373
ub -4374
▁왕비 -4375
▁구매 -4376
▁진단 -4377
▁1943 -4378
▁st -4379
▁선임 -4380
▁심판 -4381
▁159 -4382
▁ㅎ -4383
▁통화 -4384
▁위대 -4385
▁부산광역시 -4386
▁개성 -4387
▁1955 -4388
▁홋카이도 -4389
가니 -4390
▁말레이시아 -4391
▁야스 -4392
▁원년 -4393
드리히 -4394
▁서식지 -4395
▁잭슨 -4396
▁발탁 -4397
▁억제 -4398
▁지나가 -4399
▁스타디움 -4400
IA -4401
▁1953 -4402
▁소멸 -4403
▁쿠데 -4404
▁\ -4405
▁드래프트 -4406
▁퀴 -4407
▁일기 -4408
▁예방 -4409
▁프랭 -4410
▁테크 -4411
▁주석 -4412
▁왕후 -4413
▁크루 -4414
▁1936 -4415
▁긍정 -4416
▁무료 -4417
히로 -4418
▁싱가 -4419
▁싱가포르 -4420
▁음악가 -4421
미르 -4422
▁AP -4423
▁어려움 -4424
▁톨 -4425
ab -4426
▁84 -4427
▁사도 -4428
▁프리드리히 -4429
▁필드 -4430
▁700 -4431
▁일체 -4432
▁사격 -4433
▁사무실 -4434
▁일본어 -4435
▁자이언 -4436
▁진영 -4437
▁나쁘 -4438
▁폭격 -4439
▁유형문화재 -4440
▁카스 -4441
▁티베 -4442
▁힙 -4443
▁태조 -4444
▁여우 -4445
▁굳 -4446
▁즉시 -4447
▁유고 -4448
▁조지아 -4449
▁루마니아 -4450
▁궁전 -4451
▁이와 -4452
▁정차 -4453
▁모바일 -4454
▁대책 -4455
▁타인 -4456
▁리드 -4457
▁불안 -4458
▁인원 -4459
▁천주교 -4460
데이 -4461
▁쾌 -4462
▁디아 -4463
▁세자 -4464
▁쿠데타 -4465
▁1910 -4466
▁기동 -4467
주군 -4468
유산 -4469
▁창당 -4470
▁시나 -4471
▁후쿠오카 -4472
버리 -4473
▁크로스 -4474
ine -4475
▁김종 -4476
▁전동차 -4477
▁깊이 -4478
▁전북 -4479
▁히틀러 -4480
▁스티븐 -4481
▁막대 -4482
▁사라 -4483
▁연설 -4484
▁대체로 -4485
▁Re -4486
▁ㅈㅏㄴㅡㄴ -4487
▁닫 -4488
▁에서 -4489
▁몰리 -4490
▁학사 -4491
▁개칭 -4492
▁딜 -4493
▁상속 -4494
▁오이 -4495
올리 -4496
▁구입 -4497
▁전당 -4498
구리 -4499
▁97 -4500
란색 -4501
▁남아프리카 -4502
▁1957 -4503
▁챔피언십 -4504
▁아메리칸 -4505
▁강릉 -4506
▁진격 -4507
▁딘 -4508
▁원주민 -4509
▁알고리 -4510
우치 -4511
달리 -4512
ㅜㄹㅗㄱ -4513
▁요금 -4514
구치 -4515
▁독재 -4516
▁본명 -4517
베르트 -4518
ew -4519
▁자국 -4520
▁조상 -4521
▁콘텐츠 -4522
독부 -4523
▁발명 -4524
▁추방 -4525
▁타이거 -4526
▁초점 -4527
▁대우 -4528
▁필수 -4529
▁휴대 -4530
머리 -4531
▁늘리 -4532
▁생태 -4533
▁스미스 -4534
▁광범 -4535
▁부동 -4536
▁검색 -4537
▁1914 -4538
▁흔하 -4539
▁수호 -4540
▁메이지 -4541
원경 -4542
▁69 -4543
▁음성 -4544
▁전송 -4545
▁세트 -4546
▁동북 -4547
▁사과 -4548
▁담기 -4549
▁느낌 -4550
▁이즈 -4551
▁테마 -4552
미니 -4553
▁사기 -4554
▁알고리즘 -4555
▁기다리 -4556
▁92 -4557
▁덩 -4558
▁렀다 -4559
ue -4560
▁=" -4561
▁이마 -4562
▁급격 -4563
▁천만 -4564
▁주소 -4565
▁인디언 -4566
▁포켓몬 -4567
시스코 -4568
▁신장 -4569
▁도마 -4570
▁수업 -4571
▁토론토 -4572
▁알바 -4573
▁신도 -4574
다랗 -4575
▁빚 -4576
▁업적 -4577
▁후임 -4578
▁클로 -4579
▁1900 -4580
▁1938 -4581
▁불가리아 -4582
▁미리 -4583
▁최우 -4584
▁림 -4585
▁코리아 -4586
▁핫 -4587
▁세부 -4588
▁랑 -4589
▁연락 -4590
▁잡히 -4591
▁완벽 -4592
▁이내 -4593
▁섹 -4594
▁서술 -4595
래프트 -4596
▁끌어 -4597
▁상인 -4598
▁똑 -4599
▁부위 -4600
▁펑 -4601
▁미술관 -4602
지사 -4603
▁게다가 -4604
▁전술 -4605
▁석사 -4606
EC -4607
▁스탈 -4608
▁화려 -4609
▁스프링 -4610
자키 -4611
▁고급 -4612
▁유효 -4613
▁다스리 -4614
▁주니어 -4615
▁101 -4616
▁배포 -4617
비히 -4618
▁라이프 -4619
▁고시 -4620
▁ㄹㅕㅁㅕㄴ -4621
▁ㄲㅔ -4622
▁노트 -4623
▁바르셀 -4624
▁닥터 -4625
▁바르셀로나 -4626
▁언덕 -4627
▁재즈 -4628
▁늑 -4629
▁해발 -4630
▁HD -4631
총리 -4632
▁영양 -4633
▁오키 -4634
다니 -4635
▁숨기 -4636
▁01 -4637
▁안드 -4638
▁물건 -4639
▁라틴어 -4640
▁립 -4641
로지 -4642
▁연평 -4643
▁1918 -4644
▁암컷 -4645
리그 -4646
▁선형 -4647
▁각국 -4648
▁윙 -4649
▁소비자 -4650
▁마르크스 -4651
▁소형 -4652
▁마스터 -4653
산화 -4654
▁개량 -4655
▁DVD -4656
▁션 -4657
▁웰 -4658
▁랩 -4659
▁등장인물 -4660
▁질문 -4661
총독부 -4662
▁조선총독부 -4663
▁ㄷㅡㅅㅇㅣ -4664
▁풋 -4665
▁1951 -4666
▁실천 -4667
▁유산 -4668
▁내놓 -4669
▁일련 -4670
▁저자 -4671
▁백인 -4672
▁손실 -4673
▁시내버스 -4674
▁상주 -4675
▁1932 -4676
제국 -4677
▁고위 -4678
▁언스 -4679
BM -4680
▁집회 -4681
▁운항 -4682
▁화석 -4683
▁사퇴 -4684
▁on -4685
▁반사 -4686
여금 -4687
▁게르 -4688
▁{ -4689
▁계곡 -4690
▁추기 -4691
▁1937 -4692
▁알레 -4693
▁감각 -4694
▁국적 -4695
▁정교회 -4696
▁메달 -4697
▁갑자기 -4698
무늬 -4699
▁경비 -4700
▁블록 -4701
▁영주 -4702
▁미스 -4703
▁ㄴㅡㄴㅑ -4704
▁미시 -4705
▁번지 -4706
▁주체 -4707
▁개별 -4708
▁짝 -4709
▁프랑스군 -4710
▁말리 -4711
▁격파 -4712
▁만든 -4713
▁설치류 -4714
▁선포 -4715
▁진학 -4716
▁차단 -4717
가시 -4718
▁흰색 -4719
민주당 -4720
▁상수 -4721
▁대만 -4722
▁의문 -4723
▁마틴 -4724
▁용인 -4725
▁첩 -4726
▁고객 -4727
▁부친 -4728
▁방언 -4729
▁둥글 -4730
▁엘리자 -4731
필드 -4732
▁자본주의 -4733
펙트 -4734
▁89 -4735
▁광범위 -4736
▁1935 -4737
▁환승 -4738
▁이웃 -4739
▁올스타 -4740
ect -4741
▁실업 -4742
▁182 -4743
▁넥 -4744
▁우크라 -4745
▁재개 -4746
▁거짓 -4747
▁찬성 -4748
▁후계자 -4749
▁분교 -4750
▁타율 -4751
▁칭호 -4752
▁ㅇㅣㄹ -4753
▁화제 -4754
▁ㄱㅗㄴ -4755
▁이스트 -4756
▁비스 -4757
▁비행기 -4758
▁93 -4759
▁사찰 -4760
▁크라 -4761
▁트레이드 -4762
사전 -4763
▁뮌헨 -4764
바키아 -4765
▁로렌 -4766
▁당원 -4767
▁중추 -4768
▁경제학 -4769
▁수치 -4770
ㅅㅜㄹㅗㄱ -4771
▁Be -4772
▁퀘 -4773
▁구상 -4774
▁베리 -4775
▁항의 -4776
▁추기경 -4777
동생 -4778
▁되돌 -4779
브라 -4780
▁기부 -4781
▁고양이 -4782
▁싱어 -4783
▁커버 -4784
▁데리 -4785
▁항공사 -4786
▁탄압 -4787
▁면역 -4788
▁사양 -4789
▁수백 -4790
▁파티 -4791
▁질서 -4792
▁발간 -4793
▁꾸준 -4794
▁체험 -4795
▁촉진 -4796
▁증언 -4797
▁허락 -4798
▁회로 -4799
▁겉 -4800
▁분화 -4801
▁최후 -4802
▁자산 -4803
▁클리 -4804
▁반지 -4805
▁남녀 -4806
▁법학 -4807
▁이념 -4808
▁웃 -4809
▁화폐 -4810
▁목성 -4811
▁푸르 -4812
▁마주 -4813
▁양산 -4814
▁구멍 -4815
▁쿨 -4816
▁곡선 -4817
▁마루 -4818
▁공신 -4819
런스 -4820
▁소문 -4821
▁시트 -4822
센트 -4823
▁OS -4824
▁영원 -4825
▁아티스트 -4826
▁성남 -4827
다수 -4828
저스 -4829
▁소화 -4830
▁클래식 -4831
ore -4832
슈타인 -4833
▁덧붙이 -4834
▁ㅇㅓㅇㅛ -4835
▁시모 -4836
▁습격 -4837
▁대법원 -4838
▁94 -4839
▁FM -4840
▁1933 -4841
▁가속 -4842
▁극단 -4843
▁소위 -4844
▁물고기 -4845
▁개척 -4846
▁내세우 -4847
▁잠수함 -4848
▁보편 -4849
▁탕 -4850
▁티베트 -4851
리우스 -4852
▁강남 -4853
▁소집 -4854
▁툴 -4855
▁수십 -4856
▁축소 -4857
IN -4858
our -4859
▁지수 -4860
▁탄핵 -4861
▁쿼 -4862
리나 -4863
▁1928 -4864
▁선호 -4865
▁아오 -4866
▁운송 -4867
▁펴 -4868
▁유배 -4869
▁CP -4870
돼지 -4871
▁군부 -4872
도사 -4873
▁원시 -4874
▁동화 -4875
▁경사 -4876
▁영구 -4877
▁동경 -4878
▁프랑스어 -4879
▁팩 -4880
▁태종 -4881
▁혼자 -4882
▁1924 -4883
▁전적 -4884
▁조항 -4885
▁하여금 -4886
▁핸 -4887
ell -4888
▁시신 -4889
▁료 -4890
▁약화 -4891
▁충분히 -4892
▁어둡 -4893
▁콜로 -4894
▁ㅈㅗ -4895
▁상대식 -4896
공사 -4897
▁누스 -4898
▁지불 -4899
▁칠레 -4900
▁무너지 -4901
프레 -4902
▁국토 -4903
▁대로 -4904
▁용도 -4905
▁주일 -4906
려가 -4907
▁79 -4908
▁개명 -4909
른바 -4910
▁간부 -4911
▁틈 -4912
ㅊㅏ -4913
▁당신 -4914
▁ㅈㅗㅊㅏ -4915
▁세월 -4916
▁익스 -4917
▁정면 -4918
▁그리하여 -4919
▁멈 -4920
▁뼈 -4921
▁사막 -4922
▁조기 -4923
▁걷 -4924
▁댄스 -4925
▁이행 -4926
▁전망 -4927
▁직무 -4928
▁김해 -4929
▁메트로 -4930
▁발레 -4931
▁이른바 -4932
닉스 -4933
▁재능 -4934
들리 -4935
▁09 -4936
벤트 -4937
▁토대 -4938
▁따오 -4939
▁정통 -4940
▁콜롬 -4941
▁회색 -4942
▁펀 -4943
▁110 -4944
▁지나치 -4945
▁개장 -4946
▁프로그래밍 -4947
▁형상 -4948
슬링 -4949
▁입대 -4950
사이 -4951
▁실내 -4952
▁대칭 -4953
▁토마스 -4954
end -4955
▁러브 -4956
▁종사 -4957
▁열매 -4958
▁액체 -4959
▁의정부 -4960
▁이재 -4961
티스 -4962
▁합동 -4963
▁동굴 -4964
▁존스 -4965
▁브로 -4966
▁구름 -4967
▁파키스탄 -4968
▁04 -4969
▁반하 -4970
▁토착 -4971
▁오버 -4972
▁진실 -4973
코프 -4974
▁가난 -4975
▁지중 -4976
▁쟁 -4977
▁170 -4978
▁법안 -4979
▁손해 -4980
▁매치 -4981
▁단순히 -4982
▁판정 -4983
ill -4984
▁초상 -4985
▁원자력 -4986
▁무용 -4987
어도 -4988
베리아 -4989
ain -4990
▁총재 -4991
▁수컷 -4992
▁해제 -4993
▁안토니 -4994
ID -4995
▁플로리 -4996
▁08 -4997
▁베네치아 -4998
▁뻗 -4999
과이 -5000
▁고교 -5001
▁정류 -5002
▁하와 -5003
▁자르 -5004
▁흔적 -5005
▁퓨 -5006
▁대승 -5007
▁자랑 -5008
▁Co -5009
▁ㅓㅆ -5010
▁재생 -5011
▁틴 -5012
테스 -5013
▁무력 -5014
▁개찰 -5015
ㅋㅡㅁ -5016
▁당대 -5017
▁부리 -5018
▁세로 -5019
▁유아 -5020
ers -5021
▁멀티 -5022
▁부속 -5023
▁엄격 -5024
▁스카이 -5025
▁안티 -5026
▁늑대 -5027
▁우에 -5028
▁프로토 -5029
▁룸 -5030
▁전제 -5031
▁경북 -5032
▁스톤 -5033
▁사이드 -5034
▁인민군 -5035
▁83 -5036
▁경고 -5037
▁주문 -5038
▁안쪽 -5039
▁오케 -5040
▁부서 -5041
▁서방 -5042
▁불러 -5043
▁로즈 -5044
▁힙합 -5045
▁장로 -5046
▁배열 -5047
▁비잔 -5048
▁오류 -5049
▁지표 -5050
페이스 -5051
▁다큐 -5052
▁일단 -5053
▁벼슬 -5054
▁주재 -5055
데르 -5056
▁강도 -5057
▁함경 -5058
▁혈액 -5059
▁국방부 -5060
▁레닌 -5061
ard -5062
▁쌓이 -5063
▁분산 -5064
▁메탈 -5065
▁양국 -5066
▁평면 -5067
▁페리 -5068
▁경찰서 -5069
▁스크린 -5070
▁맡기 -5071
▁할아버지 -5072
▁한성 -5073
▁호흡 -5074
고속 -5075
▁대가 -5076
▁아프가니 -5077
▁강요 -5078
어로 -5079
▁마감 -5080
▁성서 -5081
▁중동 -5082
▁선로 -5083
▁1934 -5084
조선 -5085
▁대원 -5086
▁편의 -5087
▁동지 -5088
▁메르 -5089
▁이벤트 -5090
▁추적 -5091
▁ㅁㅏㄴㅋㅡㅁ -5092
▁MS -5093
▁거스 -5094
AN -5095
▁주자 -5096
야스 -5097
▁De -5098
▁철거 -5099
▁요코하마 -5100
▁빵 -5101
▁중지 -5102
▁대사관 -5103
▁닐 -5104
▁탓 -5105
▁자매 -5106
키퍼 -5107
▁농장 -5108
▁포드 -5109
▁찾아가 -5110
▁입구 -5111
▁골키퍼 -5112
유키 -5113
▁구사 -5114
▁느리 -5115
▁보스턴 -5116
▁놀이 -5117
▁판타 -5118
▁히어로 -5119
세대 -5120
▁근육 -5121
▁북미 -5122
▁장례 -5123
▁투스 -5124
▁스케이 -5125
사르 -5126
▁ㄱㅣㅇㅔ -5127
▁노동당 -5128
▁스탈린 -5129
▁떼 -5130
▁광산 -5131
▁동구 -5132
▁거느리 -5133
레오 -5134
워하 -5135
▁봉기 -5136
아르 -5137
▁멈추 -5138
▁유키 -5139
▁쿠바 -5140
▁본토 -5141
▁현존 -5142
▁Me -5143
▁130 -5144
▁대동 -5145
▁정확히 -5146
▁토머스 -5147
▁가볍 -5148
▁글리 -5149
▁동메달 -5150
▁정조 -5151
드라 -5152
즈니 -5153
▁카리 -5154
베르크 -5155
▁나이트 -5156
공업 -5157
▁뱀 -5158
▁거점 -5159
▁은메달 -5160
▁도쿠가와 -5161
▁밸 -5162
제르 -5163
▁코어 -5164
▁140 -5165
▁젤 -5166
▁남극 -5167
▁항해 -5168
▁아프가니스탄 -5169
▁접속 -5170
ne -5171
▁식량 -5172
▁선물 -5173
▁부처 -5174
▁사카 -5175
▁시계 -5176
▁레지 -5177
▁야당 -5178
▁사망자 -5179
▁철학자 -5180
▁페이스 -5181
▁복사 -5182
▁중계 -5183
▁돔 -5184
하이 -5185
▁Sh -5186
▁내려가 -5187
▁알렉산더 -5188
▁테르 -5189
▁새끼 -5190
▁김구 -5191
▁필립 -5192
▁대다수 -5193
▁초청 -5194
▁발전소 -5195
레아 -5196
보내 -5197
▁중성 -5198
▁모자 -5199
▁칼리지 -5200
▁재판소 -5201
▁맨체스터 -5202
위대 -5203
성기 -5204
▁곤충 -5205
▁농촌 -5206
▁안내 -5207
▁매주 -5208
▁관계자 -5209
돌프 -5210
▁독점 -5211
▁특별히 -5212
▁건너가 -5213
안군 -5214
▁화합물 -5215
▁증권 -5216
므로 -5217
▁th -5218
OR -5219
▁구로 -5220
▁로맨 -5221
▁새벽 -5222
▁역전 -5223
▁교향곡 -5224
크래프트 -5225
▁1931 -5226
▁세금 -5227
▁토너 -5228
▁르네 -5229
▁훼 -5230
▁구리 -5231
▁위안 -5232
▁유력 -5233
▁재임 -5234
▁겸하 -5235
▁풍속 -5236
▁오염 -5237
▁강등 -5238
▁커다랗 -5239
▁생애 -5240
▁휘하 -5241
▁체육관 -5242
▁타카 -5243
▁부호 -5244
▁아비 -5245
▁일곱 -5246
▁파울 -5247
베리 -5248
▁간격 -5249
▁존슨 -5250
▁펄 -5251
▁그러므로 -5252
▁금강 -5253
▁멸종 -5254
▁부드 -5255
▁그리스어 -5256
▁히로시마 -5257
▁종전 -5258
▁이정 -5259
▁계수 -5260
▁석방 -5261
▁물리치 -5262
▁목포 -5263
▁클래스 -5264
▁명시 -5265
▁진동 -5266
▁부품 -5267
▁달라지 -5268
▁cod -5269
▁기병 -5270
▁모노 -5271
▁ㄷㅜ -5272
▁기르 -5273
▁대변 -5274
▁비중 -5275
all -5276
▁뚜렷 -5277
▁코너 -5278
게이 -5279
▁훌륭 -5280
▁자유주의 -5281
▁감옥 -5282
▁관객 -5283
▁미카 -5284
▁타원 -5285
▁무늬 -5286
▁타점 -5287
▁합리 -5288
▁ST -5289
▁버지 -5290
레이크 -5291
▁찾아오 -5292
▁1921 -5293
▁하사 -5294
▁원조 -5295
▁176 -5296
▁An -5297
AM -5298
나르 -5299
▁해협 -5300
▁꾼 -5301
▁킬로 -5302
▁좌파 -5303
▁도망치 -5304
밀리 -5305
▁250 -5306
▁숙종 -5307
▁아이스 -5308
▁심리학 -5309
▁그래프 -5310
▁가구 -5311
▁기생 -5312
▁장점 -5313
느님 -5314
▁지휘관 -5315
▁마그 -5316
▁지칭 -5317
▁캠프 -5318
▁하버 -5319
ang -5320
▁교도 -5321
▁수비수 -5322
▁하느님 -5323
▁연호 -5324
▁유발 -5325
▁공룡 -5326
▁1929 -5327
▁코트 -5328
널드 -5329
▁박근 -5330
▁후퇴 -5331
▁윤리 -5332
▁필라 -5333
▁스트라이 -5334
▁트랜스 -5335
▁토너먼트 -5336
▁특허 -5337
▁동성애 -5338
▁부드럽 -5339
둥이 -5340
▁닮 -5341
수량 -5342
▁소요 -5343
▁조문 -5344
▁폭풍 -5345
▁유대인 -5346
▁비즈 -5347
▁목숨 -5348
▁빗 -5349
▁강전 -5350
▁아틀 -5351
▁사관 -5352
▁스테이션 -5353
▁무겁 -5354
▁문재 -5355
▁운동가 -5356
▁단장 -5357
▁도메 -5358
▁수반 -5359
▁일환 -5360
▁집필 -5361
▁착용 -5362
▁올라오 -5363
▁성명 -5364
▁공세 -5365
▁대결 -5366
▁캡 -5367
▁05 -5368
▁칙 -5369
▁덕분 -5370
▁비틀 -5371
▁키스 -5372
▁y -5373
▁첫째 -5374
▁기갑 -5375
시스트 -5376
▁극복 -5377
▁자이언츠 -5378
▁갤럭 -5379
▁다다 -5380
▁약탈 -5381
▁1925 -5382
▁라트 -5383
▁부작 -5384
▁마라 -5385
▁1923 -5386
투아 -5387
▁연상 -5388
▁김대중 -5389
산물 -5390
▁인터페이스 -5391
▁쯤 -5392
▁동반 -5393
▁살아 -5394
▁연평균 -5395
▁평론가 -5396
▁롬 -5397
▁첸 -5398
슬리 -5399
ss -5400
미아 -5401
▁입사 -5402
▁삼각 -5403
▁조화 -5404
▁건담 -5405
▁공국 -5406
▁지부 -5407
▁잠재 -5408
▁매니 -5409
▁북아메리카 -5410
▁ㄴㅡㄴㄷㅏㄱㅗ -5411
▁도호 -5412
▁갤럭시 -5413
▁성직자 -5414
▁협약 -5415
▁고고 -5416
▁과일 -5417
▁플로리다 -5418
무게 -5419
▁몸무게 -5420
▁추대 -5421
마이 -5422
▁가끔 -5423
▁압축 -5424
▁AC -5425
▁요원 -5426
▁원장 -5427
▁틱 -5428
▁섬유 -5429
▁장갑 -5430
타카 -5431
▁의석 -5432
▁샤를 -5433
▁연계 -5434
▁07 -5435
▁딱 -5436
▁관리자 -5437
클린 -5438
▁북서쪽 -5439
▁대한제국 -5440
ity -5441
▁발렌 -5442
▁며 -5443
▁불화 -5444
▁시게 -5445
▁램 -5446
베이스 -5447
▁추락 -5448
▁웨일스 -5449
▁남아메리카 -5450
▁유성 -5451
▁임신 -5452
▁단선 -5453
▁유비 -5454
▁얀 -5455
카스 -5456
▁영감 -5457
▁이수 -5458
▁우드 -5459
▁ㅇㅛ -5460
▁캘리포니아주 -5461
▁ㅅㅠ -5462
▁모험 -5463
▁사당 -5464
▁선교사 -5465
대문 -5466
▁발휘 -5467
▁영혼 -5468
추어 -5469
▁망원경 -5470
▁근로 -5471
▁미분 -5472
▁트레이 -5473
▁중립 -5474
▁카페 -5475
▁타입 -5476
▁페루 -5477
▁살아남 -5478
▁갱 -5479
키스 -5480
▁ㅋㅜ -5481
▁북극 -5482
▁주사 -5483
▁161 -5484
▁박스 -5485
▁하와이 -5486
▁진흥 -5487
▁고분 -5488
▁필름 -5489
▁리스트 -5490
▁SC -5491
▁삭제 -5492
▁수직 -5493
▁진술 -5494
▁다이묘 -5495
▁똑같 -5496
▁서인 -5497
▁종로 -5498
▁모로 -5499
▁일자 -5500
▁향토 -5501
▁지역구 -5502
▁민속 -5503
▁기관차 -5504
▁레벨 -5505
▁사거리 -5506
▁동인 -5507
▁채권 -5508
▁꼽히 -5509
▁영광 -5510
▁준우 -5511
▁카자 -5512
ff -5513
▁그랜드 -5514
▁도마뱀 -5515
▁빅토리아 -5516
▁압도 -5517
▁codice -5518
▁결심 -5519
▁제약 -5520
ㅅㅣ -5521
▁1922 -5522
▁복구 -5523
▁EP -5524
▁모음 -5525
▁삼각형 -5526
▁돌파 -5527
▁청동 -5528
▁프로세서 -5529
즈키 -5530
행성 -5531
▁변신 -5532
▁유가 -5533
▁교과 -5534
▁박근혜 -5535
▁파운드 -5536
▁홀로 -5537
▁문인 -5538
▁175 -5539
▁이조 -5540
▁엽 -5541
▁성씨 -5542
▁청하 -5543
▁레이블 -5544
▁de -5545
▁칼리 -5546
▁수장 -5547
▁철저 -5548
▁명사 -5549
▁주류 -5550
▁중시 -5551
▁곰 -5552
▁화가 -5553
▁부탁 -5554
일본 -5555
▁바오 -5556
▁윤치 -5557
▁평생 -5558
▁루트비히 -5559
▁버지니아 -5560
▁ㅇㅣㄹㅏㄴ -5561
▁틸 -5562
▁무릎 -5563
▁중구 -5564
▁피트 -5565
애나 -5566
▁때로 -5567
▁규슈 -5568
▁모래 -5569
▁프레임 -5570
오리 -5571
▁서적 -5572
▁My -5573
▁부유 -5574
▁인천광역시 -5575
▁가톨릭교회 -5576
▁엘리자베스 -5577
▁공격수 -5578
▁각자 -5579
▁없애 -5580
▁투구 -5581
▁고안 -5582
▁부수 -5583
▁유역 -5584
▁1912 -5585
▁둔 -5586
▁여인 -5587
▁이날 -5588
▁토벌 -5589
▁표지 -5590
▁황태 -5591
▁직선 -5592
▁직위 -5593
▁최상 -5594
▁트럼 -5595
▁리치 -5596
▁교차로 -5597
▁설비 -5598
▁아과 -5599
▁지연 -5600
프란 -5601
▁유용 -5602
태우 -5603
▁음모 -5604
▁자치구 -5605
양군 -5606
▁왕가 -5607
▁파트너 -5608
메니아 -5609
▁164 -5610
▁국민당 -5611
▁수상자 -5612
▁글씨 -5613
니즘 -5614
▁구미 -5615
▁KT -5616
▁동일본 -5617
눅스 -5618
부사 -5619
▁문법 -5620
▁아기 -5621
▁네이션 -5622
▁Love -5623
▁사토 -5624
▁포유 -5625
ㅈㅓ -5626
▁무산 -5627
▁크레 -5628
▁왈 -5629
▁Go -5630
▁봉사 -5631
▁퍼시 -5632
▁노무 -5633
▁도어 -5634
▁벨라 -5635
▁블라디 -5636
ong -5637
▁리눅스 -5638
▁"" -5639
타운 -5640
▁소설가 -5641
▁1908 -5642
▁영조 -5643
▁간섭 -5644
▁납치 -5645
멘트 -5646
▁아르메니아 -5647
라이터 -5648
▁목조 -5649
▁지중해 -5650
▁1906 -5651
야수 -5652
▁노비 -5653
▁모니 -5654
▁보통학교 -5655
▁경유 -5656
▁무인 -5657
▁릭 -5658
▁상처 -5659
▁인력 -5660
up -5661
▁랭킹 -5662
▁돼지 -5663
▁어워드 -5664
▁아마추어 -5665
▁06 -5666
보살 -5667
▁건축물 -5668
▁패턴 -5669
▁사촌 -5670
▁자책 -5671
▁베타 -5672
▁장사 -5673
▁태자 -5674
▁토르 -5675
▁MV -5676
▁마카 -5677
▁침해 -5678
▁남동쪽 -5679
▁SM -5680
▁플레 -5681
▁교역 -5682
▁스케이팅 -5683
▁연소 -5684
▁1917 -5685
ip -5686
▁연령 -5687
▁이종 -5688
멘터리 -5689
▁ㄹㅅㅜㄹㅗㄱ -5690
▁히가시 -5691
아리 -5692
▁베토 -5693
▁정자 -5694
▁준우승 -5695
▁다양체 -5696
사관 -5697
▁전향 -5698
▁제주도 -5699
▁호조 -5700
▁크림 -5701
슬로 -5702
▁1927 -5703
▁JR -5704
▁과도 -5705
도니아 -5706
▁배상 -5707
▁에스파 -5708
▁적응 -5709
▁커피 -5710
IS -5711
ld -5712
▁삽입 -5713
▁모듈 -5714
마치 -5715
▁앨런 -5716
▁이토 -5717
▁통로 -5718
▁안양 -5719
▁03 -5720
▁명문 -5721
▁북동쪽 -5722
▁매각 -5723
▁적어도 -5724
▁조명 -5725
ant -5726
▁우익 -5727
▁굿 -5728
▁호르 -5729
▁배급 -5730
▁스와 -5731
▁육성 -5732
▁BBC -5733
▁시상식 -5734
▁과장 -5735
▁몬테 -5736
▁수지 -5737
▁전승 -5738
▁탐험 -5739
▁1907 -5740
OM -5741
▁싫 -5742
다드 -5743
▁우크라이나 -5744
▁출현 -5745
▁석조 -5746
▁럭 -5747
▁대행 -5748
▁보좌 -5749
▁창간 -5750
▁1926 -5751
영상 -5752
▁라우 -5753
▁쇠퇴 -5754
▁시아 -5755
▁인자 -5756
▁전작 -5757
▁외계 -5758
▁흙 -5759
스팅 -5760
▁유인 -5761
▁정서 -5762
▁옹호 -5763
▁리아 -5764
▁옵 -5765
▁밀라노 -5766
▁산악 -5767
▁시집 -5768
▁항목 -5769
ED -5770
▁산타 -5771
▁다큐멘터리 -5772
▁노인 -5773
▁앱 -5774
▁폐기 -5775
▁부동산 -5776
▁SN -5777
▁색상 -5778
▁별로 -5779
▁체인 -5780
▁상하이 -5781
▁협의회 -5782
▁표본 -5783
몬드 -5784
▁대교 -5785
▁문하 -5786
▁의병 -5787
▁슐 -5788
▁단행 -5789
▁커지 -5790
▁송라이터 -5791
생물 -5792
▁왕립 -5793
av -5794
▁관중 -5795
▁자문 -5796
이즈 -5797
▁168 -5798
▁탑승 -5799
▁포크 -5800
▁렉 -5801
▁험 -5802
스토 -5803
▁사신 -5804
▁종족 -5805
▁해설 -5806
페이지 -5807
▁자전거 -5808
▁He -5809
▁지름 -5810
티움 -5811
▁수감 -5812
▁동아시아 -5813
▁무선 -5814
▁묘지 -5815
▁세조 -5816
▁유입 -5817
슬라 -5818
▁비전 -5819
▁호남 -5820
다이라 -5821
▁연고지 -5822
▁패러 -5823
▁PD -5824
▁머물 -5825
▁상영 -5826
▁ㅁㅏㅈㅓ -5827
▁꺼 -5828
ind -5829
▁디즈니 -5830
▁아가 -5831
▁NHK -5832
▁베토벤 -5833
런트 -5834
▁내장 -5835
▁꾸미 -5836
▁노조 -5837
▁스틸 -5838
▁1905 -5839
▁놀라 -5840
▁동사 -5841
로프 -5842
▁실점 -5843
▁아무런 -5844
튜브 -5845
▁사료 -5846
▁166 -5847
텐도 -5848
▁닌텐도 -5849
▁레이다 -5850
se -5851
▁콩고 -5852
▁하천 -5853
▁162 -5854
▁기종 -5855
▁선제 -5856
▁좌익 -5857
ame -5858
▁|| -5859
▁시에 -5860
▁에릭 -5861
▁오리지 -5862
▁최우수 -5863
AC -5864
▁급속 -5865
▁합계 -5866
▁룩 -5867
▁겨우 -5868
▁진지 -5869
▁산지 -5870
▁안보 -5871
▁제후 -5872
▁문화유산 -5873
▁홈페이지 -5874
▁다가 -5875
▁연금 -5876
▁엄마 -5877
▁유튜브 -5878
▁물려 -5879
▁정사 -5880
▁기름 -5881
▁독일어 -5882
▁민족주의 -5883
세스 -5884
▁Sp -5885
▁버그 -5886
브스 -5887
▁아울 -5888
▁151 -5889
▁비평가 -5890
▁비단 -5891
▁기하학 -5892
▁꾸준히 -5893
▁헤드 -5894
▁유신 -5895
▁묻히 -5896
▁원로 -5897
페인 -5898
총장 -5899
▁시외 -5900
▁예외 -5901
▁데이터베이스 -5902
▁주말 -5903
▁가쓰 -5904
▁대조 -5905
▁역과 -5906
▁참조 -5907
▁엉 -5908
▁사이클 -5909
ry -5910
려나 -5911
ES -5912
▁바이올 -5913
▁스승 -5914
▁우르 -5915
▁158 -5916
▁조선인 -5917
나카 -5918
무네 -5919
▁수명 -5920
▁증기 -5921
▁정류장 -5922
▁요미 -5923
▁트럭 -5924
▁드래곤 -5925
▁색깔 -5926
플레이 -5927
▁스페셜 -5928
▁품질 -5929
▁목격 -5930
▁상소 -5931
▁크리스토 -5932
지마 -5933
어트 -5934
ith -5935
▁지바 -5936
▁아크 -5937
▁원산 -5938
▁리듬 -5939
▁모집 -5940
▁수천 -5941
▁커뮤니티 -5942
▁점성 -5943
▁나폴리 -5944
▁도리 -5945
▁곧바로 -5946
스케 -5947
ort -5948
▁광역 -5949
▁선진 -5950
▁바라보 -5951
▁뚫 -5952
▁마일 -5953
▁셋째 -5954
▁주거 -5955
▁칩 -5956
▁문과 -5957
▁유고슬 -5958
▁유고슬라비아 -5959
▁기압 -5960
▁반환 -5961
▁주의자 -5962
▁자바 -5963
▁남서쪽 -5964
▁02 -5965
▁리얼 -5966
▁악장 -5967
▁라마 -5968
▁신비 -5969
▁흥미 -5970
엘라 -5971
▁대안 -5972
▁야생 -5973
▁주파 -5974
스티벌 -5975
▁할리 -5976
▁라이온 -5977
▁가미 -5978
▁옛날 -5979
▁플루 -5980
▁라이벌 -5981
▁수수 -5982
▁조르 -5983
▁레이스 -5984
▁페스티벌 -5985
잡히 -5986
▁향년 -5987
▁무관 -5988
▁빨리 -5989
▁입문 -5990
▁브라이언 -5991
ok -5992
▁유닛 -5993
▁협의 -5994
▁사리 -5995
▁이오 -5996
▁이리 -5997
▁특급 -5998
▁베이스볼 -5999
▁구마 -6000
▁기점 -6001
▁토니 -6002
▁방안 -6003
▁인텔 -6004
▁도심 -6005
▁운명 -6006
▁운반 -6007
프란시스코 -6008
▁동치 -6009
▁십자군 -6010
▁안드로이드 -6011
▁재무 -6012
▁주한 -6013
▁샌프란시스코 -6014
▁입증 -6015
▁스피드 -6016
▁소니 -6017
▁사직 -6018
▁되찾 -6019
▁일행 -6020
▁기념물 -6021
▁단층 -6022
▁쿠르 -6023
▁디자이너 -6024
▁콜롬비아 -6025
▁오디션 -6026
▁한나라 -6027
▁미네 -6028
프스 -6029
▁적색 -6030
회의 -6031
▁사면 -6032
▁서북 -6033
▁한나라당 -6034
▁동영상 -6035
▁와카 -6036
해군 -6037
▁기용 -6038
▁렌즈 -6039
▁묘소 -6040
▁오리지널 -6041
▁마스 -6042
▁부시 -6043
▁1904 -6044
▁석탑 -6045
▁프랜 -6046
▁미만 -6047
▁저지르 -6048
▁직장 -6049
▁출산 -6050
▁출판사 -6051
▁연주자 -6052
▁마케도니아 -6053
▁케이블 -6054
▁날리 -6055
▁배제 -6056
▁정교 -6057
▁지휘자 -6058
▁알라 -6059
▁인치 -6060
▁개수 -6061
▁분배 -6062
▁신임 -6063
▁평소 -6064
▁복제 -6065
▁서경 -6066
▁왕족 -6067
▁진도 -6068
▁초래 -6069
▁템 -6070
루살 -6071
쳐지 -6072
▁관장 -6073
▁마쓰다이라 -6074
▁165 -6075
▁Un -6076
▁예술가 -6077
루살렘 -6078
▁교전 -6079
▁급행 -6080
▁상무 -6081
▁파생 -6082
▁아서 -6083
▁의거 -6084
▁센트럴 -6085
▁챌 -6086
프라 -6087
▁사로 -6088
▁부패 -6089
▁154 -6090
▁스테이지 -6091
▁예언 -6092
▁기재 -6093
▁판타지 -6094
리케이션 -6095
▁WW -6096
▁용기 -6097
▁긴급 -6098
▁계단 -6099
▁내륙 -6100
▁자사 -6101
▁동전 -6102
▁폭스 -6103
▁무신 -6104
▁비즈니스 -6105
▁콘스탄티노 -6106
ob -6107
▁수면 -6108
ord -6109
▁단종 -6110
▁오타 -6111
▁파나 -6112
▁당사자 -6113
▁Se -6114
▁Wh -6115
▁받침 -6116
▁합작 -6117
▁모순 -6118
qu -6119
▁신하 -6120
▁좌석 -6121
▁여동생 -6122
터스 -6123
▁가게 -6124
▁사르 -6125
▁입히 -6126
▁권고 -6127
▁트레 -6128
▁156 -6129
▁겹치 -6130
▁163 -6131
▁도메인 -6132
문학 -6133
▁용산 -6134
모니 -6135
▁연애 -6136
▁167 -6137
▁사범 -6138
▁예루살렘 -6139
▁SF -6140
▁링크 -6141
▁항일 -6142
▁스펙트 -6143
가스 -6144
▁신용 -6145
디스 -6146
우옌 -6147
▁무슬 -6148
▁DJ -6149
▁압박 -6150
ate -6151
▁리투아 -6152
▁리투아니아 -6153
▁스쿨 -6154
▁그랑 -6155
▁진상 -6156
▁정계 -6157
▁바이올린 -6158
▁크리스티 -6159
▁상임 -6160
▁여신 -6161
▁호환 -6162
▁타마 -6163
▁스펙트럼 -6164
식물 -6165
▁가득 -6166
PS -6167
교육 -6168
▁끼리 -6169
▁900 -6170
▁무슬림 -6171
▁회원국 -6172
경기 -6173
▁AM -6174
▁충남 -6175
▁아인 -6176
▁스마트폰 -6177
카르 -6178
페이 -6179
려오 -6180
▁밀접 -6181
▁자회사 -6182
▁발효 -6183
▁분지 -6184
▁어항 -6185
▁조류 -6186
▁챌린 -6187
▁한양 -6188
▁혜성 -6189
▁깔 -6190
▁니스 -6191
▁이지 -6192
▁우지 -6193
▁전염 -6194
껍질 -6195
▁비로 -6196
▁선사 -6197
지르 -6198
▁장편 -6199
▁서울시 -6200
▁번식 -6201
▁샹 -6202
▁게시 -6203
▁대단 -6204
▁미얀 -6205
▁바그 -6206
▁착륙 -6207
▁시달리 -6208
▁지주 -6209
▁씌 -6210
▁조국 -6211
길이 -6212
▁무라 -6213
▁오다 -6214
▁포맷 -6215
▁피렌 -6216
▁훼손 -6217
▁비잔티움 -6218
IC -6219
▁팅 -6220
▁교섭 -6221
▁주립 -6222
▁지장 -6223
▁친정 -6224
커스 -6225
킨스 -6226
▁우루 -6227
▁일요일 -6228
▁고립 -6229
▁ㄹㅏㄱ -6230
▁노무현 -6231
▁끄 -6232
▁애국 -6233
▁얼음 -6234
▁서브 -6235
랑이 -6236
▁UN -6237
▁피스 -6238
▁진나라 -6239
▁식사 -6240
▁예능 -6241
▁오케스트라 -6242
▁ㅇㅓㅆㅇㅓㅆ -6243
▁쇼군 -6244
▁농도 -6245
잡이 -6246
▁요크 -6247
럼비아 -6248
▁아베 -6249
▁융합 -6250
▁최신 -6251
▁139 -6252
▁옌 -6253
▁AS -6254
▁기아 -6255
예프 -6256
▁이명박 -6257
▁낱 -6258
▁구장 -6259
▁행정부 -6260
▁유하 -6261
▁과제 -6262
▁대령 -6263
▁참판 -6264
▁하트 -6265
▁알바니아 -6266
▁바티 -6267
▁아이디 -6268
부인 -6269
▁와중 -6270
ET -6271
▁성종 -6272
▁시체 -6273
▁하드웨어 -6274
▁브라우 -6275
▁부흥 -6276
▁개발자 -6277
▁월간 -6278
▁차관 -6279
▁쿠스 -6280
▁145 -6281
▁주머니 -6282
▁킬로미터 -6283
▁기타리스트 -6284
▁강연 -6285
▁소나 -6286
▁용량 -6287
▁디비전 -6288
▁마리오 -6289
ast -6290
▁뜨겁 -6291
▁선두 -6292
▁전이 -6293
로디 -6294
▁공과 -6295
▁발족 -6296
▁번주 -6297
▁지질 -6298
▁ㄱㅗㅅㅓ -6299
▁투명 -6300
▁부통령 -6301
DP -6302
▁파동 -6303
▁스트리트 -6304
▁학파 -6305
▁몸길이 -6306
▁피렌체 -6307
▁부자 -6308
▁임상 -6309
▁미나미 -6310
▁해인 -6311
▁보전 -6312
▁위주 -6313
▁관광객 -6314
▁야기 -6315
▁아세 -6316
▁페어 -6317
▁중국어 -6318
▁응우옌 -6319
수아 -6320
데이트 -6321
▁부도 -6322
▁규명 -6323
▁김동 -6324
▁저기 -6325
▁착수 -6326
▁고조 -6327
▁충성 -6328
▁잊 -6329
▁MVP -6330
▁업데이트 -6331
▁거인 -6332
▁배정 -6333
▁전지 -6334
▁관찰사 -6335
▁마케팅 -6336
▁사사 -6337
▁전임 -6338
▁성공회 -6339
▁아이디어 -6340
▁간접 -6341
▁이에 -6342
레이터 -6343
if -6344
▁1896 -6345
랑크 -6346
▁디오 -6347
▁마산 -6348
▁정벌 -6349
▁HIV -6350
▁거스르 -6351
▁피에르 -6352
▁굉 -6353
▁넬 -6354
▁DS -6355
▁사바 -6356
▁제네 -6357
▁측근 -6358
▁공용 -6359
트니 -6360
▁전류 -6361
▁하노 -6362
ack -6363
▁형법 -6364
ive -6365
▁맥스 -6366
▁공전 -6367
▁전두 -6368
▁점유 -6369
▁귀환 -6370
▁권유 -6371
▁로빈 -6372
▁완화 -6373
▁스콧 -6374
ure -6375
어내 -6376
▁여덟 -6377
▁출구 -6378
▁짙 -6379
▁IP -6380
▁경선 -6381
▁중도 -6382
IT -6383
▁보드 -6384
▁차체 -6385
트롤 -6386
▁제의 -6387
란트 -6388
▁중독 -6389
▁젖 -6390
▁친선 -6391
▁게이트 -6392
▁수학자 -6393
▁둘러싸이 -6394
▁연수 -6395
▁스타크래프트 -6396
악기 -6397
▁성벽 -6398
▁애플리케이션 -6399
▁요미우리 -6400
▁샬 -6401
▁턴 -6402
▁히라 -6403
▁174 -6404
균관 -6405
▁152 -6406
운서 -6407
▁미하 -6408
▁옐 -6409
▁트윈 -6410
리티 -6411
ock -6412
▁서열 -6413
▁아나운서 -6414
루미 -6415
▁마운 -6416
▁수산 -6417
▁우즈 -6418
▁살아가 -6419
▁5000 -6420
iv -6421
▁플라스 -6422
▁관습 -6423
▁소송법 -6424
▁오렌 -6425
▁시드니 -6426
▁테일러 -6427
▁구동 -6428
▁세례 -6429
▁지각 -6430
주곡 -6431
▁검증 -6432
▁노동조합 -6433
▁메디 -6434
▁존경 -6435
▁서일본 -6436
▁석탄 -6437
▁정찰 -6438
▁조용 -6439
▁피난 -6440
▁뱅크 -6441
▁쇼핑 -6442
결승 -6443
▁157 -6444
▁Ar -6445
토미 -6446
▁전문학교 -6447
▁으 -6448
▁변동 -6449
▁사명 -6450
▁뷔 -6451
▁장성 -6452
▁련 -6453
▁밀양 -6454
츠키 -6455
▁규격 -6456
▁금성 -6457
▁사인 -6458
▁실용 -6459
ck -6460
▁전장 -6461
▁행진 -6462
▁꼴 -6463
▁곁 -6464
▁번뇌 -6465
▁전진 -6466
▁한화 -6467
▁프로세스 -6468
▁인과 -6469
▁수신 -6470
▁좌표 -6471
▁청와 -6472
▁한강 -6473
문관 -6474
▁루수 -6475
▁ㄹㄲㅏ -6476
▁하버드 -6477
▁고개 -6478
▁디젤 -6479
▁준공 -6480
▁얼마나 -6481
▁신칸 -6482
▁빌헬 -6483
▁테오 -6484
▁미스터 -6485
▁책봉 -6486
▁청와대 -6487
가루 -6488
▁백신 -6489
▁카나 -6490
▁기울이 -6491
▁염색 -6492
▁자율 -6493
▁ㅈㅏㅁㅕㄴ -6494
사기 -6495
▁급진 -6496
폴리스 -6497
▁다이아 -6498
▁복소 -6499
▁이슈 -6500
▁해전 -6501
▁킨 -6502
▁관현 -6503
▁신전 -6504
▁여의 -6505
▁장인 -6506
▁퇴각 -6507
▁호평 -6508
▁뿔 -6509
▁가즈 -6510
▁구제 -6511
원숭이 -6512
▁취약 -6513
외선 -6514
▁회수 -6515
▁상상 -6516
▁힘쓰 -6517
▁j -6518
포스 -6519
▁국어 -6520
▁카시 -6521
▁MP -6522
▁메가 -6523
▁적대 -6524
▁해임 -6525
▁자손 -6526
▁할당 -6527
▁성균관 -6528
전자 -6529
▁아울러 -6530
산군 -6531
니스트 -6532
▁연구자 -6533
끄럽 -6534
▁관념 -6535
▁흥행 -6536
▁판매량 -6537
카드 -6538
▁쏟 -6539
▁105 -6540
자와 -6541
▁몰락 -6542
▁무효 -6543
▁비극 -6544
▁연루 -6545
▁제휴 -6546
▁소총 -6547
▁식당 -6548
악단 -6549
▁소금 -6550
▁통행 -6551
하르트 -6552
트랙 -6553
▁따위 -6554
▁상류 -6555
▁히스 -6556
▁125 -6557
▁지분 -6558
▁승차 -6559
▁이순 -6560
▁146 -6561
▁1500 -6562
수수 -6563
혁명 -6564
▁남양 -6565
▁박영 -6566
▁파스 -6567
▁남인 -6568
▁적히 -6569
▁천문학 -6570
▁쥬 -6571
▁서독 -6572
▁여수 -6573
▁김용 -6574
▁루터 -6575
▁악마 -6576
▁응답 -6577
▁달아나 -6578
▁1911 -6579
▁이노 -6580
▁쳐 -6581
▁강사 -6582
▁술탄 -6583
12 -6584
▁휩 -6585
▁흩 -6586
▁나미 -6587
▁윌슨 -6588
▁착공 -6589
▁저기압 -6590
▁3000 -6591
▁들리 -6592
▁에티 -6593
▁창업 -6594
▁패전 -6595
▁동남아시아 -6596
▁마찰 -6597
▁외무 -6598
▁신칸센 -6599
ime -6600
▁두드 -6601
▁두르 -6602
▁유출 -6603
▁쇄 -6604
▁이복 -6605
▁끈 -6606
▁우정 -6607
▁153 -6608
▁문제점 -6609
▁자책점 -6610
▁민국 -6611
▁성전 -6612
고속도로 -6613
▁나열 -6614
▁원나라 -6615
메르 -6616
▁마오 -6617
▁충족 -6618
▁프로토콜 -6619
라트 -6620
▁노드 -6621
▁믿음 -6622
▁여래 -6623
▁얇 -6624
▁매출 -6625
▁소관 -6626
▁저택 -6627
▁석가 -6628
▁소닉 -6629
▁아니하 -6630
▁항공모 -6631
▁하마 -6632
one -6633
▁고원 -6634
▁곳곳 -6635
▁사지 -6636
▁순천 -6637
▁갈라지 -6638
▁PS -6639
▁소재지 -6640
▁Le -6641
▁디비 -6642
▁과목 -6643
▁조언 -6644
▁청사 -6645
일드 -6646
▁일렉 -6647
▁시외버스 -6648
▁단원 -6649
▁로고 -6650
▁카트 -6651
서양 -6652
제프 -6653
▁매개 -6654
▁희극 -6655
▁배구 -6656
▁서서 -6657
▁예배 -6658
▁이이 -6659
▁강수량 -6660
▁문재인 -6661
▁유언 -6662
▁증후 -6663
▁103 -6664
▁우주선 -6665
▁내내 -6666
▁동위 -6667
▁마천 -6668
팩트 -6669
▁아즈 -6670
▁폴리스 -6671
▁중점 -6672
▁지목 -6673
▁소지 -6674
▁떠오르 -6675
▁빌헬름 -6676
▁지지자 -6677
대군 -6678
▁비아 -6679
네이 -6680
▁보잉 -6681
▁환원 -6682
▁힌두 -6683
▁ISO -6684
▁이글 -6685
▁Pro -6686
▁찾아보 -6687
▁카자흐 -6688
토시 -6689
▁고무 -6690
▁환상 -6691
펴보 -6692
▁회견 -6693
▁살펴보 -6694
▁미얀마 -6695
▁고베 -6696
▁중장 -6697
▁천사 -6698
▁클린 -6699
▁MC -6700
▁주권 -6701
▁특유 -6702
델피아 -6703
▁필라델피아 -6704
▁연인 -6705
▁회계 -6706
▁개업 -6707
▁공자 -6708
▁매사 -6709
▁눈물 -6710
▁법령 -6711
▁취재 -6712
▁편곡 -6713
▁셈 -6714
▁매기 -6715
▁선원 -6716
▁오클 -6717
ML -6718
▁시립 -6719
▁비틀즈 -6720
AP -6721
노리 -6722
▁기장 -6723
▁포장 -6724
▁해역 -6725
▁제트 -6726
▁후자 -6727
▁참가자 -6728
기니 -6729
노프 -6730
▁성모 -6731
▁나리 -6732
즈카 -6733
▁출입구 -6734
▁굵 -6735
▁155 -6736
▁겸임 -6737
▁공인 -6738
▁각본가 -6739
어리 -6740
▁친척 -6741
▁삿 -6742
▁중종 -6743
OC -6744
▁닭 -6745
▁별개 -6746
▁일관 -6747
▁최적 -6748
▁진리 -6749
▁근접 -6750
▁터지 -6751
▁독립운동가 -6752
▁반격 -6753
마사 -6754
▁토크 -6755
▁협동 -6756
▁각기 -6757
▁공략 -6758
▁우편 -6759
▁보충 -6760
받침 -6761
▁카타 -6762
▁버튼 -6763
▁추모 -6764
시온 -6765
▁회화 -6766
▁오렌지 -6767
▁주파수 -6768
▁사가 -6769
▁와인 -6770
▁유해 -6771
▁점프 -6772
▁정치가 -6773
te -6774
▁밭 -6775
▁앞면 -6776
▁별자리 -6777
▁증후군 -6778
동물 -6779
소스 -6780
▁이원 -6781
▁토리 -6782
▁허브 -6783
리크 -6784
▁게재 -6785
▁상자 -6786
▁격렬 -6787
▁법무 -6788
▁위장 -6789
▁유격 -6790
▁포수 -6791
▁108 -6792
▁이어서 -6793
▁항공모함 -6794
▁패스 -6795
▁빼앗기 -6796
▁동등 -6797
▁리메 -6798
▁민영 -6799
▁성주 -6800
▁생일 -6801
▁오키나 -6802
▁Bo -6803
▁북동부 -6804
▁두드러지 -6805
▁미소 -6806
▁태우 -6807
▁컨트롤 -6808
▁사물 -6809
▁인형 -6810
▁트라이 -6811
▁실종 -6812
▁영동 -6813
▁이바 -6814
▁가라 -6815
▁아군 -6816
▁평행 -6817
▁두산 -6818
▁Con -6819
▁개찰구 -6820
▁오디오 -6821
▁토요일 -6822
산면 -6823
▁나고 -6824
▁대답 -6825
▁유교 -6826
▁채무 -6827
▁담배 -6828
▁민사 -6829
▁아바 -6830
▁인격 -6831
▁합법 -6832
▁베르크 -6833
플러 -6834
▁매력 -6835
▁감지 -6836
▁일찍이 -6837
▁사우디아 -6838
▁이인 -6839
▁룰 -6840
때로 -6841
▁레전 -6842
▁지우 -6843
▁테스 -6844
▁준결승 -6845
▁금액 -6846
▁미루 -6847
▁서해 -6848
▁하우 -6849
▁승무원 -6850
▁스파이 -6851
산리 -6852
io -6853
▁내지 -6854
▁상부 -6855
▁외곽 -6856
▁아리스 -6857
상스 -6858
▁퍼시픽 -6859
▁히데요시 -6860
▁에디 -6861
▁일족 -6862
ber -6863
▁고체 -6864
▁야간 -6865
▁양상 -6866
▁나고야 -6867
▁건의 -6868
▁교장 -6869
▁에우 -6870
▁자발 -6871
▁하인리히 -6872
▁이영 -6873
▁입상 -6874
▁박탈 -6875
▁스터 -6876
▁아케 -6877
▁화살 -6878
▁이사장 -6879
▁전두환 -6880
▁IT -6881
베이터 -6882
▁상대방 -6883
▁드라이브 -6884
러미 -6885
▁브래 -6886
▁전례 -6887
▁에이스 -6888
▁해운 -6889
▁때때로 -6890
▁크리스마스 -6891
▁갓 -6892
▁상장 -6893
▁세균 -6894
▁꾀 -6895
▁얘 -6896
▁호세 -6897
▁앙리 -6898
▁생명체 -6899
▁서서히 -6900
▁1909 -6901
▁교단 -6902
▁섞이 -6903
▁외국어 -6904
가타 -6905
항공 -6906
화점 -6907
▁사다 -6908
▁트럼프 -6909
퍼니 -6910
▁싸이 -6911
▁대주교 -6912
▁시청자 -6913
▁ㅈㅏㄱㅗ -6914
▁이슬람교 -6915
▁추격 -6916
▁김영삼 -6917
▁아우구 -6918
▁만세 -6919
▁149 -6920
▁128 -6921
▁캠페인 -6922
▁궁정 -6923
▁기금 -6924
▁복장 -6925
Pa -6926
▁톈 -6927
▁부착 -6928
▁102 -6929
▁맵 -6930
▁콜라 -6931
▁향교 -6932
▁보스니아 -6933
모어 -6934
▁홍수 -6935
▁메타 -6936
▁물자 -6937
▁명의 -6938
▁무려 -6939
▁수성 -6940
▁연도 -6941
람회 -6942
▁고발 -6943
▁그만두 -6944
▁사용자 -6945
▁시라 -6946
▁전도 -6947
▁건축가 -6948
라이트 -6949
칠리아 -6950
▁제작자 -6951
▁안장 -6952
▁운동장 -6953
구장 -6954
▁골프 -6955
▁대군 -6956
▁# -6957
▁치세 -6958
▁가르침 -6959
▁ㅈㅏㅁㅏ -6960
▁배틀 -6961
▁어드 -6962
▁트위 -6963
▁호칭 -6964
▁후안 -6965
▁고가 -6966
▁짜리 -6967
▁트루 -6968
▁펼쳐지 -6969
▁발원 -6970
▁정밀 -6971
▁최저 -6972
▁르네상스 -6973
▁사우디아라비아 -6974
ge -6975
age -6976
▁긴장 -6977
▁대외 -6978
▁주지사 -6979
▁텍스트 -6980
▁에스파냐 -6981
▁집계 -6982
▁차남 -6983
먼드 -6984
▁계절 -6985
▁남한 -6986
▁발현 -6987
트릭 -6988
▁슬라 -6989
▁직책 -6990
▁셸 -6991
라미 -6992
▁전대 -6993
iz -6994
집합 -6995
▁쉐 -6996
백과 -6997
▁여주 -6998
▁키프 -6999
▁중재 -7000
▁중국인 -7001
▁아미타 -7002
▁ㅈㅏㅁㅏㅈㅏ -7003
▁$ -7004
▁Bl -7005
▁섭취 -7006
▁존중 -7007
▁사이버 -7008
▁문양 -7009
▁네이버 -7010
▁자유당 -7011
▁ㅇㅏㄹㅏ -7012
▁송나라 -7013
▁세미 -7014
▁흘러 -7015
▁ㅇㅓㄷㅏ -7016
▁포도주 -7017
나리 -7018
▁대니 -7019
▁시오 -7020
▁팽창 -7021
▁포괄 -7022
▁턱 -7023
▁원자로 -7024
▁피고 -7025
▁초창 -7026
▁향후 -7027
▁고래 -7028
▁레이저 -7029
▁강경 -7030
▁다중 -7031
▁리오 -7032
AD -7033
▁며칠 -7034
▁상세 -7035
▁룽 -7036
▁단기 -7037
▁레전드 -7038
언스 -7039
▁넓히 -7040
▁조반 -7041
▁팔레스 -7042
▁청장 -7043
▁충주 -7044
▁최소한 -7045
생활 -7046
차례 -7047
▁조리 -7048
▁뽑히 -7049
▁사절 -7050
▁수평 -7051
▁태생 -7052
▁토마 -7053
▁127 -7054
▁탐지 -7055
▁블루스 -7056
▁로프 -7057
▁보리 -7058
▁CPU -7059
▁노란색 -7060
▁댐 -7061
▁여진 -7062
▁아미노 -7063
▁고사 -7064
▁스릴 -7065
▁손가락 -7066
▁프랭크 -7067
▁왜성 -7068
▁토스 -7069
▁그랑프리 -7070
▁경부 -7071
▁147 -7072
▁엘리베이터 -7073
▁수군 -7074
▁1915 -7075
▁갑작 -7076
▁굉장 -7077
▁단점 -7078
▁방침 -7079
▁기수 -7080
▁볼리 -7081
▁케네 -7082
▁속성 -7083
▁역명 -7084
▁명목 -7085
▁하이드 -7086
sp -7087
서리 -7088
울리 -7089
노부 -7090
▁객관 -7091
▁무죄 -7092
수엘라 -7093
▁난민 -7094
▁메인 -7095
▁동독 -7096
▁초연 -7097
▁로맨스 -7098
▁겔 -7099
▁1913 -7100
▁딩 -7101
▁알코 -7102
▁캄보 -7103
행위 -7104
▁촉구 -7105
▁마비 -7106
▁전함 -7107
orld -7108
▁제곱 -7109
▁추증 -7110
▁황해 -7111
▁숭배 -7112
우라 -7113
▁북구 -7114
▁주축 -7115
▁171 -7116
▁동당 -7117
▁진군 -7118
▁취지 -7119
▁유소년 -7120
▁부천 -7121
▁오키나와 -7122
라리 -7123
▁윌리엄스 -7124
▁라파 -7125
▁낙선 -7126
▁입체 -7127
▁협조 -7128
▁후일 -7129
▁이어받 -7130
▁캐스팅 -7131
▁북방 -7132
▁분광 -7133
▁심의 -7134
▁테니스 -7135
▁위키백과 -7136
ik -7137
▁음원 -7138
▁천문학자 -7139
두르 -7140
창군 -7141
▁따뜻 -7142
▁신흥 -7143
▁김재 -7144
▁동년 -7145
▁둘레 -7146
▁침몰 -7147
▁문학상 -7148
▁상당수 -7149
▁유니폼 -7150
▁베네수엘라 -7151
▁광년 -7152
▁김수 -7153
▁투르크 -7154
▁동래 -7155
▁부과 -7156
▁창건 -7157
기지 -7158
▁마하 -7159
▁출토 -7160
▁타르 -7161
▁추상 -7162
시티 -7163
▁태수 -7164
▁강과 -7165
▁낮추 -7166
▁대포 -7167
▁옥스 -7168
▁시그 -7169
▁초창기 -7170
▁개미 -7171
▁컬러 -7172
▁닿 -7173
▁팜 -7174
▁서사 -7175
▁재미 -7176
▁창시 -7177
▁센서 -7178
명사전 -7179
자치도 -7180
▁제주특별 -7181
▁제주특별자치도 -7182
▁원고 -7183
▁원반 -7184
▁언제나 -7185
포구 -7186
▁대역 -7187
▁이민자 -7188
▁수령 -7189
▁GT -7190
▁수렴 -7191
▁이틀 -7192
▁169 -7193
▁CE -7194
▁병역 -7195
▁카탈 -7196
▁코프 -7197
▁탈환 -7198
▁1895 -7199
▁수동 -7200
크리트 -7201
▁스파르타 -7202
▁어업 -7203
▁디스플레이 -7204
▁나가사키 -7205
▁바흐 -7206
▁al -7207
▁머신 -7208
▁남원 -7209
▁링컨 -7210
▁무제 -7211
▁리메이크 -7212
▁딴 -7213
평군 -7214
▁SP -7215
▁프레스 -7216
여지 -7217
▁내주 -7218
▁울리 -7219
▁WWE -7220
▁기습 -7221
▁아폴 -7222
▁통칭 -7223
▁141 -7224
▁총선거 -7225
▁팔레스타인 -7226
▁모스 -7227
▁ㅇㅔㄷㅏ -7228
▁광부 -7229
박쥐 -7230
▁쓰러지 -7231
▁인재 -7232
▁아사히 -7233
▁김진 -7234
▁흩어지 -7235
포트 -7236
▁Tr -7237
▁동력 -7238
▁법제 -7239
▁종결 -7240
▁언론인 -7241
▁대처 -7242
▁유수 -7243
▁총괄 -7244
네스코 -7245
▁135 -7246
▁나주 -7247
▁적자 -7248
MS -7249
공신 -7250
▁국사 -7251
▁주차 -7252
▁하부 -7253
▁ㄹㅐ -7254
▁때리 -7255
▁비문 -7256
▁찾아내 -7257
▁다운로드 -7258
벌레 -7259
▁유연 -7260
▁초상화 -7261
▁한동안 -7262
▁엔지 -7263
▁온천 -7264
▁북서부 -7265
무기 -7266
그라드 -7267
▁탤 -7268
▁섭정 -7269
▁도호쿠 -7270
▁자기장 -7271
▁걱 -7272
보기 -7273
▁풋볼 -7274
ust -7275
자스 -7276
▁계몽 -7277
▁소실 -7278
▁수용소 -7279
석기 -7280
▁대제 -7281
▁양주 -7282
▁문화방송 -7283
▁시공 -7284
▁ㄷㅡㄴㅈㅣ -7285
와라 -7286
▁서머 -7287
▁신세 -7288
▁이진 -7289
▁후세 -7290
▁111 -7291
ep -7292
▁해병대 -7293
▁어스 -7294
▁효력 -7295
▁144 -7296
선거 -7297
▁정말 -7298
▁청원 -7299
▁개관 -7300
▁귀중 -7301
▁반박 -7302
▁고백 -7303
▁끊임 -7304
▁나르 -7305
▁서울대 -7306
▁번영 -7307
▁후대 -7308
▁영리 -7309
▁저명 -7310
▁차기 -7311
▁더글 -7312
▁신중 -7313
▁중순 -7314
▁오빠 -7315
▁바실 -7316
▁몰아내 -7317
▁hPa -7318
▁김태 -7319
▁김포 -7320
▁면하 -7321
▁스핀 -7322
▁스티브 -7323
▁폐위 -7324
▁함유 -7325
▁식별 -7326
▁첨가 -7327
▁풍경 -7328
▁아레나 -7329
▁대위 -7330
▁십자가 -7331
▁큰 -7332
int -7333
▁장미 -7334
▁연세대 -7335
▁제수 -7336
▁기요 -7337
▁내외 -7338
▁평야 -7339
▁119 -7340
▁스릴러 -7341
▁컬럼비아 -7342
누엘 -7343
▁두루 -7344
▁무상 -7345
▁정전 -7346
▁리버풀 -7347
▁컴퍼니 -7348
▁파업 -7349
▁휴식 -7350
▁TH -7351
▁공채 -7352
▁날짜 -7353
▁정무 -7354
▁조달 -7355
▁천도 -7356
▁캄보디아 -7357
▁인산 -7358
▁It -7359
▁불편 -7360
▁신학교 -7361
▁이광 -7362
트리올 -7363
▁다니엘 -7364
▁케네디 -7365
▁몬트리올 -7366
▁도스 -7367
▁언더 -7368
따르 -7369
▁매카 -7370
▁별칭 -7371
키지 -7372
▁삼진 -7373
▁충실 -7374
▁172 -7375
▁교양 -7376
▁드럼 -7377
▁원내 -7378
▁CO -7379
▁간호 -7380
▁아종 -7381
▁요르 -7382
▁중소 -7383
▁편리 -7384
GC -7385
푸스 -7386
▁소환 -7387
EN -7388
▁관통 -7389
▁총사 -7390
▁유니버 -7391
▁걱정 -7392
▁루시 -7393
▁병조 -7394
▁전성기 -7395
▁평일 -7396
▁꽤 -7397
시로 -7398
▁북위 -7399
▁사회학 -7400
▁우연히 -7401
▁친일인 -7402
▁친일인명사전 -7403
ib -7404
▁룡 -7405
▁이글스 -7406
▁유네스코 -7407
▁껍질 -7408
▁명백 -7409
▁묘역 -7410
▁신기 -7411
▁장안 -7412
▁신학자 -7413
▁교원 -7414
▁선구 -7415
▁애덤 -7416
▁106 -7417
릴라 -7418
▁미주 -7419
▁바퀴 -7420
▁평하 -7421
▁니콜라 -7422
▁아틀레 -7423
▁페르난 -7424
스럽 -7425
ome -7426
▁총대 -7427
▁테레 -7428
▁카리브 -7429
▁ㄲㅔㅅㅓ -7430
▁베드 -7431
▁선종 -7432
▁해수 -7433
▁휴전 -7434
▁엔지니어 -7435
ian -7436
ude -7437
▁덤 -7438
그로 -7439
▁당일 -7440
▁위임 -7441
▁스페이스 -7442
니치 -7443
▁관람 -7444
▁리어 -7445
▁모방 -7446
▁아벨 -7447
▁공모 -7448
▁중량 -7449
▁김상 -7450
▁의상 -7451
▁고민 -7452
▁제갈 -7453
▁증진 -7454
▁공직 -7455
▁미즈 -7456
▁연패 -7457
케이션 -7458
▁프랑수아 -7459
▁슈트 -7460
▁승점 -7461
▁콰 -7462
▁초과 -7463
▁표명 -7464
▁콘크리트 -7465
▁등재 -7466
▁평범 -7467
▁아이슬 -7468
▁We -7469
▁도주 -7470
▁보완 -7471
▁서남 -7472
▁알아 -7473
▁좌절 -7474
▁지혜 -7475
▁세계관 -7476
▁에스토 -7477
▁한성부 -7478
▁마츠 -7479
▁낱말 -7480
▁미토 -7481
▁정렬 -7482
▁지폐 -7483
▁소통 -7484
▁쇼트 -7485
▁생전 -7486
▁장려 -7487
내셔널 -7488
▁아이템 -7489
▁인터내셔널 -7490
▁멋 -7491
세츠 -7492
▁마인 -7493
▁열대 -7494
페르 -7495
ere -7496
▁충북 -7497
▁케이스 -7498
선스 -7499
▁진짜 -7500
▁해변 -7501
▁잦 -7502
▁훔 -7503
▁돌연 -7504
▁방패 -7505
▁책임자 -7506
말라 -7507
▁영남 -7508
▁매사추 -7509
▁우울 -7510
▁전압 -7511
▁고수 -7512
▁배신 -7513
▁일화 -7514
▁합창 -7515
▁외교관 -7516
▁매사추세츠 -7517
▁대웅 -7518
▁상서 -7519
▁아이슬란드 -7520
블로 -7521
▁그루 -7522
▁탱크 -7523
주의자 -7524
▁우라늄 -7525
▁공단 -7526
▁중추원 -7527
치오 -7528
▁단식 -7529
ire -7530
▁발트 -7531
▁암석 -7532
▁양도 -7533
▁황태자 -7534
루션 -7535
실록 -7536
▁치열 -7537
▁불명 -7538
▁일조 -7539
▁입지 -7540
▁투르 -7541
유행 -7542
▁도라 -7543
▁요하 -7544
▁포격 -7545
라이더 -7546
▁나스 -7547
▁바리 -7548
▁공의회 -7549
▁역설 -7550
▁부채 -7551
▁시흥 -7552
▁퍼센트 -7553
▁스페인어 -7554
▁교외 -7555
▁구이 -7556
▁다치 -7557
▁영장 -7558
ment -7559
▁소유자 -7560
pe -7561
ace -7562
▁레바 -7563
▁호위 -7564
▁도르 -7565
▁도루 -7566
▁호프 -7567
▁시나리오 -7568
▁에스토니아 -7569
▁라이선스 -7570
▁횟 -7571
▁기어 -7572
▁신속 -7573
▁상담 -7574
▁실전 -7575
▁내려지 -7576
▁카이사르 -7577
▁장난 -7578
▁괴롭 -7579
▁에버 -7580
▁친왕 -7581
야시 -7582
▁로열 -7583
▁업계 -7584
▁조이 -7585
▁서정 -7586
▁통근 -7587
▁닝 -7588
ide -7589
▁평택 -7590
▁밟 -7591
▁쿤 -7592
▁오사 -7593
▁김기 -7594
▁오세 -7595
마드 -7596
▁인연 -7597
▁중심부 -7598
▁물리학자 -7599
▁고령 -7600
▁사슬 -7601
▁오비 -7602
▁육지 -7603
▁창고 -7604
▁친하 -7605
▁대전광역시 -7606
석탑 -7607
▁견디 -7608
▁마약 -7609
▁봉쇄 -7610
▁오노 -7611
▁항소 -7612
오피아 -7613
층석탑 -7614
▁에티오피아 -7615
▁푼 -7616
▁애틀 -7617
▁기인 -7618
▁여지 -7619
▁차종 -7620
▁리비아 -7621
▁어쩌 -7622
▁치즈 -7623
리케인 -7624
바이잔 -7625
▁148 -7626
▁덮이 -7627
▁시선 -7628
▁즈음 -7629
▁현금 -7630
▁할리우드 -7631
▁전라도 -7632
▁슬로바키아 -7633
▁부재 -7634
▁탈당 -7635
▁1916 -7636
▁가로지르 -7637
제리 -7638
▁HT -7639
▁협주곡 -7640
▁허리케인 -7641
▁신생 -7642
▁지능 -7643
▁136 -7644
▁끓 -7645
▁격투 -7646
▁파장 -7647
▁마이너 -7648
▁스튜어트 -7649
▁닛폰 -7650
▁해소 -7651
▁NBA -7652
▁아제르 -7653
▁극동 -7654
▁의뢰 -7655
▁실시간 -7656
중국 -7657
▁병행 -7658
▁서재 -7659
▁그로 -7660
▁바닷 -7661
▁순회 -7662
▁얘기 -7663
▁위탁 -7664
지리아 -7665
▁나이지리아 -7666
▁TO -7667
▁아드 -7668
▁네이션스 -7669
▁아제르바이잔 -7670
위원 -7671
▁낭만 -7672
▁성운 -7673
▁흘리 -7674
▁파이어 -7675
IM -7676
▁추출 -7677
▁하락 -7678
▁IBM -7679
아이 -7680
▁동상 -7681
▁입당 -7682
▁조연 -7683
▁갈리 -7684
▁명제 -7685
▁원숭이 -7686
▁이사회 -7687
하면 -7688
▁기단 -7689
▁다항 -7690
▁작센 -7691
▁솜 -7692
▁앓 -7693
▁동이 -7694
▁바스 -7695
▁산림 -7696
▁추세 -7697
▁특집 -7698
▁호기 -7699
▁결혼식 -7700
▁배터리 -7701
시피 -7702
▁막내 -7703
▁알아내 -7704
의자 -7705
▁부적 -7706
▁허리 -7707
▁라이언 -7708
바다 -7709
▁노부나가 -7710
▁시초 -7711
▁워드 -7712
▁의약 -7713
▁급격히 -7714
람쥐 -7715
▁우루과이 -7716
▁쌍둥이 -7717
▁국무총리 -7718
▁패키지 -7719
▁ㄷㅚ -7720
▁구릉 -7721
▁안성 -7722
▁138 -7723
▁구도 -7724
▁DC -7725
▁세션 -7726
▁신탁 -7727
▁약칭 -7728
▁전념 -7729
▁한스 -7730
▁실장 -7731
▁평원 -7732
▁브라우저 -7733
▁닷 -7734
▁니아 -7735
▁되게 -7736
▁사헌 -7737
▁유동 -7738
▁면허 -7739
▁반감 -7740
▁지류 -7741
▁데이비스 -7742
cl -7743
▁솟 -7744
▁가동 -7745
▁격퇴 -7746
▁아마도 -7747
▁딕 -7748
▁구호 -7749
▁중위 -7750
▁현종 -7751
▁페르디 -7752
▁리틀 -7753
▁저하 -7754
▁주행 -7755
▁리우스 -7756
▁백화점 -7757
▁박해 -7758
▁섬기 -7759
▁해밀 -7760
타로 -7761
▁거론 -7762
▁백색 -7763
▁수습 -7764
▁신한 -7765
▁우세 -7766
▁회고 -7767
▁거제 -7768
▁경연 -7769
▁분당 -7770
▁시즈 -7771
▁후쿠시마 -7772
나오 -7773
▁la -7774
▁객체 -7775
▁돌려 -7776
▁첼시 -7777
▁지선 -7778
▁360 -7779
▁구조물 -7780
파르 -7781
▁레논 -7782
▁신규 -7783
▁안기 -7784
▁이세 -7785
승지 -7786
▁개그 -7787
▁토성 -7788
▁고성 -7789
▁치명 -7790
▁중성자 -7791
▁시칠리아 -7792
▁상공 -7793
▁극히 -7794
▁오바 -7795
▁포터 -7796
▁거행 -7797
▁재위 -7798
▁춘천 -7799
▁바이오 -7800
▁영의정 -7801
▁ㅇㅓㄹㅏ -7802
토모 -7803
▁최상위 -7804
▁뭉 -7805
타나 -7806
▁복선 -7807
▁라이브러리 -7808
여래 -7809
▁결선 -7810
▁고소 -7811
▁냉각 -7812
▁성숙 -7813
▁탐구 -7814
▁104 -7815
거지 -7816
▁익히 -7817
래스카 -7818
▁사헌부 -7819
▁어울리 -7820
▁도미 -7821
▁생식 -7822
▁외치 -7823
▁라트비아 -7824
▁깨달 -7825
▁아부 -7826
곡리 -7827
▁피에 -7828
마쓰 -7829
▁릉 -7830
대신 -7831
▁En -7832
▁가면 -7833
▁한쪽 -7834
▁횟수 -7835
▁LP -7836
▁감리 -7837
▁트래 -7838
▁펌 -7839
▁그램 -7840
▁도장 -7841
▁장학 -7842
▁애틀랜 -7843
▁비시 -7844
▁후방 -7845
▁게르만 -7846
양함 -7847
▁송시 -7848
▁어휘 -7849
▁임용 -7850
▁택시 -7851
ㅏㄱㅗ -7852
▁오피스 -7853
▁랄 -7854
▁해적 -7855
▁혈통 -7856
▁테이블 -7857
리에 -7858
브레 -7859
ark -7860
▁나비 -7861
▁돌보 -7862
▁모니터 -7863
▁혀 -7864
▁주가 -7865
▁춘추 -7866
리니 -7867
▁주름 -7868
은색 -7869
▁109 -7870
하시 -7871
▁성체 -7872
▁제독 -7873
▁차장 -7874
회장 -7875
▁그날 -7876
▁행적 -7877
▁환영 -7878
▁반도체 -7879
▁Pr -7880
▁개원 -7881
▁고인 -7882
▁목판 -7883
▁스톡 -7884
▁재현 -7885
▁최악 -7886
▁잔류 -7887
어버리 -7888
▁스트레스 -7889
▁교황청 -7890
데시 -7891
▁ㅅㅗ -7892
▁데모 -7893
▁비리 -7894
▁이케 -7895
▁칼라 -7896
▁방송사 -7897
▁별다르 -7898
▁올바르 -7899
▁123 -7900
베르토 -7901
▁ㄹㅏㄹ -7902
▁코무네 -7903
타고 -7904
▁가짜 -7905
▁정점 -7906
▁휴스턴 -7907
▁대학생 -7908
▁뢰 -7909
▁옴 -7910
▁우위 -7911
▁반경 -7912
▁공수 -7913
▁동점 -7914
▁축하 -7915
▁대표작 -7916
▁하워드 -7917
더슨 -7918
▁아홉 -7919
고쿠 -7920
▁민회 -7921
▁바나 -7922
▁소매 -7923
▁햇 -7924
▁왜냐 -7925
▁통증 -7926
푸르트 -7927
▁억압 -7928
▁부당 -7929
▁펜실 -7930
▁폭동 -7931
베이니아 -7932
▁공산주의자 -7933
▁펜실베이니아 -7934
▁견제 -7935
▁명령어 -7936
▁매입 -7937
▁현저 -7938
ㄷㅓㄴ -7939
▁루프 -7940
▁성취 -7941
포드 -7942
헤이 -7943
▁시바 -7944
▁인플 -7945
▁적당 -7946
▁종로구 -7947
▁타이거즈 -7948
▁순교 -7949
▁연하 -7950
▁AK -7951
▁고장 -7952
▁광물 -7953
▁주주 -7954
▁한인 -7955
▁힘입 -7956
▁헐 -7957
란히 -7958
▁분비 -7959
▁아담 -7960
▁143 -7961
▁분기점 -7962
▁연합회 -7963
▁카자흐스탄 -7964
▁터치 -7965
▁야구장 -7966
▁너비 -7967
▁노바 -7968
차기 -7969
▁NC -7970
▁벌금 -7971
▁주역 -7972
랜트 -7973
▁열정 -7974
▁AR -7975
▁경관 -7976
▁여당 -7977
▁처녀 -7978
바시 -7979
▁다발 -7980
▁상점 -7981
▁수련 -7982
▁청춘 -7983
법인 -7984
▁리우 -7985
▁산란 -7986
▁신조 -7987
▁육체 -7988
▁동아일보 -7989
은이 -7990
▁누이 -7991
▁상단 -7992
▁이식 -7993
▁베스 -7994
▁사모 -7995
▁부르크 -7996
▁호랑이 -7997
▁이화 -7998
▁축적 -7999
글리 -8000
▁암시 -8001
▁팡 -8002
▁유한 -8003
▁토모 -8004
▁히메 -8005
AL -8006
▁CS -8007
▁염기 -8008
▁존속 -8009
▁피츠 -8010
▁이에야스 -8011
▁돋 -8012
▁성사 -8013
▁신주 -8014
▁제하 -8015
▁출처 -8016
▁마야 -8017
▁응원 -8018
▁col -8019
▁롤링 -8020
▁비자 -8021
산동 -8022
▁컴파 -8023
▁팔라 -8024
▁자민 -8025
▁제프 -8026
▁박람회 -8027
ile -8028
▁근교 -8029
▁블라디미르 -8030
▁휠 -8031
▁CC -8032
▁목재 -8033
▁남동부 -8034
▁펑크 -8035
▁소나타 -8036
▁플라이 -8037
▁관구 -8038
▁통영 -8039
▁왓 -8040
▁에미 -8041
▁오해 -8042
▁폭행 -8043
▁김경 -8044
러스트 -8045
스틴 -8046
▁해명 -8047
▁룬 -8048
▁래퍼 -8049
▁비싸 -8050
▁음료 -8051
▁이윤 -8052
브리지 -8053
▁알코올 -8054
▁아예 -8055
▁유로파 -8056
▁친일파 -8057
▁다이아몬드 -8058
▁기적 -8059
▁부설 -8060
▁상반 -8061
▁차이점 -8062
▁경상도 -8063
▁태양계 -8064
▁계시 -8065
▁광학 -8066
▁블로그 -8067
▁갈라 -8068
▁법조 -8069
▁설탕 -8070
▁보석 -8071
▁상용 -8072
▁티스 -8073
▁Op -8074
▁나트 -8075
▁적분 -8076
ies -8077
▁운하 -8078
▁충전 -8079
▁황실 -8080
▁가죽 -8081
▁놀랍 -8082
▁시골 -8083
▁유죄 -8084
비나 -8085
▁조선일보 -8086
면체 -8087
살이 -8088
▁다녀 -8089
▁사육 -8090
▁신념 -8091
▁생산량 -8092
▁킥 -8093
▁규범 -8094
▁지르 -8095
▁그동안 -8096
▁내보내 -8097
라클 -8098
▁다투 -8099
xt -8100
기업 -8101
▁만남 -8102
▁이타 -8103
▁증대 -8104
▁CON -8105
▁말라 -8106
▁무지 -8107
▁경찰청 -8108
▁흠 -8109
▁동국 -8110
▁카롤 -8111
▁중의원 -8112
▁라오스 -8113
▁베어스 -8114
▁브라더스 -8115
도리 -8116
▁공익 -8117
▁단단 -8118
▁112 -8119
▁공습 -8120
▁히사 -8121
▁RNA -8122
▁국소 -8123
▁빨간 -8124
▁합하 -8125
나스 -8126
▁부제 -8127
▁상사 -8128
▁어원 -8129
▁키프로스 -8130
▁거칠 -8131
▁107 -8132
▁공관 -8133
▁미르 -8134
▁시베리아 -8135
▁갇 -8136
ite -8137
▁시어 -8138
▁우유 -8139
▁사업자 -8140
▁공천 -8141
▁비유 -8142
▁구축함 -8143
▁루이지 -8144
▁트윈스 -8145
▁삼층석탑 -8146
▁후사 -8147
▁깨닫 -8148
▁누나 -8149
▁레일 -8150
▁126 -8151
▁장거리 -8152
▁창원시 -8153
권자 -8154
▁가군 -8155
▁아랍어 -8156
▁우승자 -8157
▁is -8158
▁신민 -8159
▁조세 -8160
고래 -8161
▁Te -8162
▁발해 -8163
▁언니 -8164
▁카를로스 -8165
▁당주 -8166
▁성단 -8167
▁수법 -8168
▁옆면 -8169
▁트위터 -8170
▁거북 -8171
▁왜냐하면 -8172
도바 -8173
▁협박 -8174
▁확신 -8175
▁이산화 -8176
레기 -8177
스부르크 -8178
▁사우루스 -8179
▁이순신 -8180
▁줄무늬 -8181
▁신선 -8182
▁품종 -8183
▁탐사선 -8184
랑카 -8185
▁소셜 -8186
▁송시열 -8187
▁범인 -8188
▁헤비 -8189
▁117 -8190
▁교과서 -8191
▁대웅전 -8192
ft -8193
▁맥락 -8194
▁구출 -8195
▁맥주 -8196
▁굉장히 -8197
▁조종사 -8198
▁플러스 -8199
지붕 -8200
▁대폭 -8201
▁실체 -8202
▁여파 -8203
▁연쇄 -8204
▁제재 -8205
▁동문 -8206
▁천장 -8207
▁할머니 -8208
▁도마뱀붙이 -8209
▁퐁 -8210
수리 -8211
▁왜곡 -8212
▁포럼 -8213
갈색 -8214
▁허위 -8215
▁드로 -8216
▁핸드 -8217
▁법무부 -8218
▁갇히 -8219
▁풀리 -8220
▁평의회 -8221
▁근원 -8222
▁네스 -8223
▁뉘 -8224
▁교정 -8225
▁소원 -8226
▁지평 -8227
▁우호 -8228
▁SE -8229
▁마디 -8230
▁경보 -8231
▁꾀하 -8232
▁입원 -8233
▁제니 -8234
▁곡인 -8235
▁이경 -8236
▁피우 -8237
▁빈곤 -8238
▁인체 -8239
▁희생자 -8240
▁가마쿠라 -8241
▁아카데미상 -8242
▁인문 -8243
▁임하 -8244
다지 -8245
▁양키스 -8246
▁다지 -8247
▁고속도 -8248
▁빨간색 -8249
▁날씨 -8250
▁탐색 -8251
▁121 -8252
▁350 -8253
▁화장실 -8254
ath -8255
▁몰래 -8256
▁줄리 -8257
▁진급 -8258
▁진하 -8259
▁com -8260
▁신약 -8261
▁전자기 -8262
무스 -8263
조부 -8264
▁세라 -8265
▁펠리 -8266
▁137 -8267
▁일반인 -8268
▁통틀 -8269
▁필터 -8270
▁173 -8271
▁바오로 -8272
▁삼성전자 -8273
의장 -8274
▁거울 -8275
▁요동 -8276
▁제대 -8277
ound -8278
ond -8279
▁이브 -8280
▁연합국 -8281
▁필리프 -8282
▁CF -8283
▁비르 -8284
▁일방 -8285
▁테이프 -8286
▁킴 -8287
시타 -8288
▁가축 -8289
OL -8290
▁방화 -8291
▁후궁 -8292
▁성별 -8293
▁ㄴㅗ -8294
▁문예 -8295
▁해고 -8296
▁수용체 -8297
▁맘 -8298
연합 -8299
▁결함 -8300
▁불타 -8301
▁샘플 -8302
▁라이너 -8303
▁총독부 -8304
▁1894 -8305
마루 -8306
승부 -8307
ㄷㅡㄴ -8308
게이머 -8309
▁프로게이머 -8310
ory -8311
▁승계 -8312
▁자아 -8313
▁주이 -8314
▁냄 -8315
▁양측 -8316
▁왕복 -8317
▁포병 -8318
▁물려받 -8319
▁헥 -8320
▁워터 -8321
▁엿 -8322
수소 -8323
▁믹스 -8324
베니아 -8325
▁113 -8326
▁가장자리 -8327
▁클라우드 -8328
끼리 -8329
▁다크 -8330
▁태권 -8331
▁개교 -8332
▁지미 -8333
▁진공 -8334
▁택하 -8335
▁철회 -8336
▁근로자 -8337
▁크리스토퍼 -8338
대기 -8339
▁만일 -8340
▁아야 -8341
▁핵무기 -8342
그레이드 -8343
▁궁극 -8344
▁레온 -8345
▁투옥 -8346
ov -8347
▁놓치 -8348
▁문구 -8349
▁세속 -8350
▁수색 -8351
▁슬로베니아 -8352
▁땃 -8353
▁대의원 -8354
▁바티칸 -8355
▁브로드 -8356
▁업그레이드 -8357
▁드레 -8358
▁미션 -8359
▁적도 -8360
▁낫 -8361
▁뒷면 -8362
▁붐 -8363
단체 -8364
▁극심 -8365
▁뒤집 -8366
▁보증 -8367
▁화해 -8368
man -8369
▁공민 -8370
▁공방 -8371
▁둥지 -8372
▁일가 -8373
▁알제리 -8374
번스 -8375
▁계정 -8376
▁대피 -8377
▁바우 -8378
▁가져가 -8379
로이 -8380
▁로이 -8381
▁서민 -8382
▁도미니 -8383
규모 -8384
▁코스타 -8385
톨레 -8386
▁최강 -8387
▁치안 -8388
그리 -8389
▁비추 -8390
▁혈관 -8391
▁농림 -8392
▁성도 -8393
▁유년 -8394
▁하동 -8395
크라 -8396
▁무어 -8397
▁용병 -8398
아키 -8399
▁먼지 -8400
▁게스트 -8401
▁몬스터 -8402
▁캐시 -8403
▁ㅓㅅㅓ -8404
▁z -8405
▁LC -8406
▁강서 -8407
▁서진 -8408
▁제인 -8409
iver -8410
▁124 -8411
▁멜로디 -8412
▁최대한 -8413
셰비 -8414
▁On -8415
▁개종 -8416
▁결코 -8417
퍼런스 -8418
▁IM -8419
▁신시 -8420
▁칭찬 -8421
▁게이지 -8422
아프리카 -8423
▁관음 -8424
▁군정 -8425
▁시뮬 -8426
▁즉각 -8427
▁판본 -8428
▁독일인 -8429
▁". -8430
▁로우 -8431
▁공백 -8432
▁횡단 -8433
▁자연수 -8434
▁탤런트 -8435
▁명하 -8436
▁국내외 -8437
박스 -8438
▁be -8439
▁모친 -8440
▁카카 -8441
▁타당 -8442
▁륙 -8443
▁김현 -8444
▁상표 -8445
▁두껍 -8446
▁스캔 -8447
mer -8448
▁가루 -8449
▁넘치 -8450
▁성문 -8451
▁야마토 -8452
블리 -8453
▁그냥 -8454
대원군 -8455
▁World -8456
▁쑤 -8457
로니 -8458
▁그대 -8459
▁피오 -8460
▁남서부 -8461
▁곤란 -8462
▁구절 -8463
▁서초 -8464
▁고고학 -8465
▁커뮤니케이션 -8466
▁제치 -8467
▁체크 -8468
▁학계 -8469
▁김정일 -8470
린스 -8471
▁닫히 -8472
▁초록 -8473
▁프랑크푸르트 -8474
▁내정 -8475
▁미키 -8476
▁욕구 -8477
▁항쟁 -8478
▁SU -8479
▁일생 -8480
▁베네딕 -8481
▁CR -8482
▁감자 -8483
▁디렉 -8484
▁야쿠 -8485
▁양호 -8486
▁1890 -8487
▁아랫 -8488
▁원전 -8489
▁풍자 -8490
▁New -8491
▁영산 -8492
▁데르 -8493
▁우파 -8494
▁초월 -8495
ich -8496
▁브리지 -8497
드르 -8498
▁러시 -8499
▁자선 -8500
▁오리콘 -8501
▁윤치호 -8502
줄기 -8503
축구 -8504
▁어미 -8505
▁배후 -8506
▁유저 -8507
▁검찰청 -8508
▁114 -8509
▁돌격 -8510
▁발리 -8511
▁땃쥐 -8512
▁자비 -8513
▁조부 -8514
▁시위대 -8515
▁오프닝 -8516
▁이거 -8517
▁제압 -8518
▁라이온즈 -8519
▁맑 -8520
▁부딪 -8521
▁선비 -8522
▁평정 -8523
프레스 -8524
▁기질 -8525
▁정세 -8526
▁침투 -8527
▁기업인 -8528
▁김규 -8529
▁소규모 -8530
▁안토니오 -8531
▁ㄷㅣ -8532
▁미노 -8533
▁베니 -8534
▁이소 -8535
▁자오 -8536
▁다녀오 -8537
▁EC -8538
▁대명 -8539
▁정주 -8540
▁므 -8541
▁증손 -8542
▁구스타 -8543
▁이준 -8544
▁분명히 -8545
▁과반 -8546
▁사상자 -8547
▁냉전 -8548
▁떨치 -8549
▁자택 -8550
▁알루미 -8551
▁알아보 -8552
ial -8553
▁다가오 -8554
▁옵션 -8555
타리오 -8556
렉스 -8557
▁구와 -8558
▁어긋 -8559
▁지침 -8560
▁118 -8561
▁깎 -8562
러드 -8563
▁관세 -8564
▁자음 -8565
▁일리노 -8566
▁드라이버 -8567
IP -8568
▁예조 -8569
▁블랙홀 -8570
▁히어로즈 -8571
▁가드 -8572
▁악단 -8573
▁이남 -8574
▁파이널 -8575
▁ㅇㅡㄹㅈㅣ -8576
▁시정 -8577
▁이드 -8578
▁플래시 -8579
▁군중 -8580
▁대거 -8581
▁학명 -8582
▁일리노이 -8583
▁만료 -8584
▁징계 -8585
▁프로덕 -8586
▁도청 -8587
▁빛나 -8588
▁대부 -8589
▁서자 -8590
▁연이 -8591
▁예시 -8592
▁주부 -8593
▁미하일 -8594
▁파란색 -8595
▁Sc -8596
▁말씀 -8597
▁원로원 -8598
▁풀려나 -8599
▁1898 -8600
ign -8601
▁봉건 -8602
▁스칼 -8603
▁체스 -8604
▁체조 -8605
▁크리스티안 -8606
▁요정 -8607
▁종착 -8608
▁디비시온 -8609
hn -8610
황후 -8611
▁재상 -8612
▁저널 -8613
▁하르 -8614
▁115 -8615
▁매니저 -8616
▁경신 -8617
▁괴물 -8618
▁연승 -8619
▁태극 -8620
▁용이 -8621
▁진사 -8622
▁경찰관 -8623
▁극장판 -8624
▁트로이 -8625
▁빔 -8626
▁컷 -8627
▁헬리 -8628
▁갑작스럽 -8629
▁인명 -8630
▁벵 -8631
하루 -8632
▁순조 -8633
▁지인 -8634
닐라 -8635
▁남구 -8636
▁봉안 -8637
▁중형 -8638
▁방사선 -8639
▁비로소 -8640
▁승부차기 -8641
저지 -8642
▁모로코 -8643
▁반지름 -8644
▁통치자 -8645
교도 -8646
▁우측 -8647
▁계열사 -8648
▁우즈베 -8649
▁뭐 -8650
벨트 -8651
히코 -8652
▁로그 -8653
조건 -8654
▁커널 -8655
▁두려 -8656
▁시가지 -8657
고스 -8658
아먹 -8659
▁SD -8660
▁밀집 -8661
▁세이브 -8662
▁챌린지 -8663
지스 -8664
▁카우 -8665
▁희귀 -8666
▁앵글 -8667
▁헬기 -8668
▁ㅋㅔ -8669
▁공조 -8670
▁남미 -8671
▁축출 -8672
▁키르 -8673
▁레바논 -8674
▁웨스턴 -8675
▁공감 -8676
▁매매 -8677
▁본국 -8678
▁필사 -8679
▁외야수 -8680
▁무성 -8681
기념 -8682
▁가옥 -8683
▁극작 -8684
▁비기 -8685
▁선도 -8686
▁패럴 -8687
보르 -8688
▁변이 -8689
▁GS -8690
▁동정 -8691
▁전년 -8692
▁무승부 -8693
▁범유행 -8694
▁` -8695
▁센티 -8696
마이오스 -8697
▁JT -8698
▁통보 -8699
▁129 -8700
▁뉴저지 -8701
▁성리학 -8702
타니 -8703
▁직면 -8704
▁하프 -8705
▁부스 -8706
▁소모 -8707
▁웹툰 -8708
▁케냐 -8709
▁쫓겨나 -8710
▁렐 -8711
▁GP -8712
▁답변 -8713
▁모나 -8714
▁사위 -8715
▁정변 -8716
▁컨셉 -8717
부리 -8718
▁외모 -8719
▁취업 -8720
▁켈리 -8721
▁혜택 -8722
▁대변인 -8723
▁캉 -8724
▁기증 -8725
▁왕세 -8726
▁그레고 -8727
▁글루 -8728
▁핑크 -8729
▁기각 -8730
▁뉴턴 -8731
▁천하 -8732
▁맏 -8733
바닥 -8734
▁의약품 -8735
타리 -8736
rom -8737
▁코카 -8738
▁광해군 -8739
▁스타리그 -8740
▁럼 -8741
▁믹 -8742
개미 -8743
▁비주 -8744
▁개막전 -8745
▁캔자스 -8746
▁ㅌ -8747
미사 -8748
▁젊은이 -8749
▁폭넓 -8750
▁체코슬로 -8751
▁체코슬로바키아 -8752
▁말미 -8753
▁숙청 -8754
▁쯔 -8755
▁러셀 -8756
▁예하 -8757
▁중산 -8758
▁쾌속 -8759
▁한족 -8760
▁닦 -8761
▁ㅕㅆ -8762
▁미세 -8763
▁재혼 -8764
▁학업 -8765
▁벨라루스 -8766
레타 -8767
문트 -8768
▁맥도 -8769
▁발급 -8770
▁종속 -8771
▁황족 -8772
▁알루미늄 -8773
▁Ne -8774
▁뇌물 -8775
▁첨단 -8776
▁연예인 -8777
▁ㅇㅡㄴㄷㅔ -8778
▁호출 -8779
▁회관 -8780
▁마운트 -8781
▁괘 -8782
▁퉁 -8783
쟁이 -8784
▁리뷰 -8785
▁바빌 -8786
▁승자 -8787
▁퇴임 -8788
▁옳 -8789
▁스크립 -8790
▁총사령 -8791
▁밝기 -8792
▁빌라 -8793
방송공사 -8794
▁ㄷㅓㄴㅣ -8795
먼스 -8796
▁로비 -8797
▁오오 -8798
▁스트리 -8799
▁장례식 -8800
느러미 -8801
▁터뜨리 -8802
ph -8803
▁벽돌 -8804
▁요건 -8805
▁III -8806
▁중공 -8807
▁창출 -8808
▁천재 -8809
▁조지프 -8810
▁종래 -8811
▁척추 -8812
▁천문대 -8813
▁끌어들이 -8814
▁남작 -8815
▁무명 -8816
▁1899 -8817
▁웬 -8818
수록 -8819
우트 -8820
천리 -8821
▁부피 -8822
▁재선 -8823
▁카디 -8824
▁월요일 -8825
▁감싸 -8826
▁서신 -8827
▁실망 -8828
▁어른 -8829
▁142 -8830
▁난징 -8831
TS -8832
슬러 -8833
▁각도 -8834
▁기차 -8835
▁유라 -8836
▁일컬 -8837
▁케빈 -8838
▁넘어서 -8839
▁레슬링 -8840
▁부여받 -8841
▁생체 -8842
▁양반 -8843
▁응시 -8844
▁임원 -8845
▁케임 -8846
▁화력 -8847
▁브리튼 -8848
▁옹립 -8849
▁워너 -8850
▁토끼 -8851
▁토양 -8852
▁세이부 -8853
▁청주시 -8854
테르부르크 -8855
▁콕 -8856
▁배수 -8857
▁어긋나 -8858
▁두려워하 -8859
진군 -8860
urn -8861
▁토미 -8862
▁폭포 -8863
▁기술자 -8864
화물 -8865
▁예고 -8866
코딩 -8867
▁룩셈 -8868
▁발병 -8869
▁설화 -8870
▁워크 -8871
▁관제 -8872
▁유방 -8873
▁저주 -8874
▁전속 -8875
롤라이나 -8876
▁프로덕션 -8877
▁룩셈부르크 -8878
포로 -8879
▁대치 -8880
▁대패 -8881
▁소생 -8882
▁총칭 -8883
▁축물 -8884
▁마르티 -8885
▁사쿠라 -8886
▁플라스틱 -8887
▁얹 -8888
함수 -8889
▁구경 -8890
▁리프 -8891
▁마력 -8892
▁무함 -8893
셰비키 -8894
▁더글러스 -8895
▁미들 -8896
▁사간 -8897
▁성폭 -8898
▁하얗 -8899
▁학기 -8900
▁뒷받침 -8901
▁타임스 -8902
▁확실히 -8903
▁사본 -8904
▁자크 -8905
▁정려 -8906
▁파산 -8907
ction -8908
틱스 -8909
▁유진 -8910
▁대서양 -8911
▁스즈키 -8912
▁힌두교 -8913
로우 -8914
토르 -8915
▁거래소 -8916
▁프란츠 -8917
시즘 -8918
▁안테 -8919
▁광주광역시 -8920
도스 -8921
럴드 -8922
▁CJ -8923
▁온타리오 -8924
▁감행 -8925
▁오크 -8926
파이어 -8927
▁ch -8928
▁시범 -8929
▁금요일 -8930
▁부의장 -8931
▁1902 -8932
▁만성 -8933
▁혼동 -8934
브르 -8935
▁컴백 -8936
▁ID -8937
▁가야 -8938
▁왼손 -8939
▁중복 -8940
▁지옥 -8941
▁지출 -8942
덩이 -8943
▁거세 -8944
▁보위 -8945
▁화상 -8946
▁플랫폼 -8947
ens -8948
▁공적 -8949
▁광둥 -8950
▁연산자 -8951
▁잃어버리 -8952
▁등기 -8953
▁명종 -8954
MA -8955
타주 -8956
▁동네 -8957
▁발기 -8958
pp -8959
두리 -8960
▁독서 -8961
▁신원 -8962
▁운수 -8963
▁의자 -8964
▁찌르 -8965
▁Man -8966
▁도카이 -8967
▁우체 -8968
▁화자 -8969
▁대성당 -8970
▁키보드 -8971
▁프톨레 -8972
▁프톨레마이오스 -8973
▁병기 -8974
▁연꽃 -8975
▁위쪽 -8976
▁지치 -8977
lan -8978
▁설교 -8979
▁수분 -8980
▁그래미 -8981
▁'' -8982
▁니코 -8983
▁채소 -8984
▁피겨 -8985
▁원천 -8986
▁기사단 -8987
▁붙잡히 -8988
▁시코 -8989
▁청산 -8990
▁코시 -8991
▁형조 -8992
치기 -8993
▁물품 -8994
▁피신 -8995
▁지식인 -8996
▁그릇 -8997
▁대손 -8998
▁영등 -8999
▁바깥쪽 -9000
TA -9001
▁강변 -9002
▁드림 -9003
▁스턴 -9004
▁아리아 -9005
▁사슴 -9006
▁체류 -9007
▁희곡 -9008
▁마녀 -9009
▁시가 -9010
▁원종 -9011
▁지켜 -9012
▁촉매 -9013
▁탄도 -9014
▁포획 -9015
▁감마 -9016
▁페널 -9017
샤바 -9018
lic -9019
▁개소 -9020
▁게리 -9021
▁국영 -9022
▁비석 -9023
▁표적 -9024
▁뛰어 -9025
▁서류 -9026
▁하단 -9027
▁고양시 -9028
▁아돌프 -9029
▁벨트 -9030
▁교통국 -9031
▁비행장 -9032
▁끊임없이 -9033
▁BS -9034
▁버드 -9035
▁선배 -9036
▁외관 -9037
▁정성 -9038
폴리 -9039
▁갈수록 -9040
크로 -9041
▁깃발 -9042
▁영문 -9043
▁참의 -9044
▁흔들리 -9045
▁단절 -9046
▁대합 -9047
▁간선 -9048
▁기니 -9049
▁정적 -9050
▁소나무 -9051
▁밍 -9052
글라 -9053
▁강동 -9054
▁마스크 -9055
▁춥 -9056
▁동행 -9057
▁생생 -9058
▁유체 -9059
▁페르디난 -9060
국사 -9061
▁의의 -9062
▁익스프레스 -9063
TC -9064
▁얽 -9065
▁김지 -9066
▁습지 -9067
▁토착종 -9068
▁단축 -9069
▁스폰 -9070
▁주조 -9071
▁드러머 -9072
▁가환 -9073
▁동학 -9074
▁응하 -9075
▁해밀턴 -9076
▁매카트니 -9077
카가 -9078
▁김창 -9079
▁울프 -9080
▁혐오 -9081
▁ㅇㅡㄹㅕㄱㅗ -9082
▁몫 -9083
ary -9084
▁광명 -9085
▁단의 -9086
▁아산 -9087
▁입성 -9088
▁경성부 -9089
▁부회장 -9090
▁이용자 -9091
▁코끼리 -9092
▁서리 -9093
▁압둘 -9094
▁함정 -9095
▁스위치 -9096
▁제국주의 -9097
▁포켓몬스터 -9098
ㅌㅔ -9099
▁제네바 -9100
▁코믹스 -9101
▁호르몬 -9102
▁선행 -9103
▁세비 -9104
▁화강 -9105
▁ㅎㅏㄴ -9106
▁러시아어 -9107
구르 -9108
그룹 -9109
▁브뤼 -9110
▁수확 -9111
▁헌신 -9112
▁사이토 -9113
히토 -9114
▁공리 -9115
▁직결 -9116
▁폭격기 -9117
▁1901 -9118
ach -9119
▁광대 -9120
▁본문 -9121
▁어류 -9122
▁정동 -9123
▁초신 -9124
▁보이스 -9125
▁간토 -9126
▁나노 -9127
▁아이오 -9128
▁여운 -9129
▁이단 -9130
속기 -9131
테인 -9132
▁ㅈㅛ -9133
▁고아 -9134
▁복용 -9135
out -9136
▁생략 -9137
▁소시 -9138
▁열도 -9139
▁축조 -9140
▁색채 -9141
▁약자 -9142
ert -9143
▁쓰촨 -9144
▁알렉산드르 -9145
▁No -9146
▁부가 -9147
▁일산 -9148
▁임관 -9149
▁퀘벡 -9150
▁울산광역시 -9151
▁입국 -9152
▁서유럽 -9153
짓점 -9154
피어 -9155
▁논하 -9156
▁면제 -9157
▁민감 -9158
▁보트 -9159
▁역량 -9160
▁염증 -9161
▁다항식 -9162
▁부작용 -9163
▁ㅎㅏㄴㅌㅔ -9164
모스 -9165
▁코코 -9166
▁꼭짓점 -9167
미트 -9168
▁조립 -9169
▁하치 -9170
디나 -9171
▁권총 -9172
▁매수 -9173
▁수축 -9174
▁체르 -9175
▁현은 -9176
▁연기자 -9177
자르 -9178
▁바이킹 -9179
▁삿포로 -9180
▁렘 -9181
▁갱신 -9182
▁경과 -9183
▁무궁 -9184
▁자작 -9185
▁영국인 -9186
▁점성술 -9187
▁쿄 -9188
▁성지 -9189
▁손꼽 -9190
▁정문 -9191
▁체중 -9192
▁커스 -9193
▁아시카가 -9194
▁기숙 -9195
▁드라 -9196
▁표방 -9197
나우 -9198
루아 -9199
타임 -9200
▁서문 -9201
▁카미 -9202
LE -9203
▁날카 -9204
▁보복 -9205
▁주되 -9206
▁치아 -9207
▁갈릴 -9208
▁이현 -9209
▁사회당 -9210
IG -9211
링턴 -9212
▁MB -9213
▁엔딩 -9214
▁크롬 -9215
▁간단히 -9216
▁그다지 -9217
ys -9218
▁고산 -9219
▁실버 -9220
▁입각 -9221
▁정립 -9222
LS -9223
▁전방 -9224
▁페니 -9225
▁검열 -9226
▁동조 -9227
▁특권 -9228
▁134 -9229
▁염색체 -9230
▁케임브리지 -9231
▁누적 -9232
▁버티 -9233
▁토기 -9234
일으키 -9235
▁불러일으키 -9236
▁례 -9237
▁아라비아 -9238
▁} -9239
▁두께 -9240
▁조수 -9241
레슬링 -9242
▁광저우 -9243
▁푸에르 -9244
▁대구광역시 -9245
▁호모 -9246
노미야 -9247
▁요르단 -9248
▁장기간 -9249
ug -9250
▁썰 -9251
▁보헤 -9252
▁스님 -9253
▁차르 -9254
▁크레이 -9255
▁옥스퍼드 -9256
그라 -9257
내리 -9258
▁김제 -9259
▁분수 -9260
▁원료 -9261
베트남 -9262
▁파이터 -9263
▁가역 -9264
▁상금 -9265
▁학대 -9266
▁트리플 -9267
▁무함마드 -9268
▁캐서 -9269
▁태그 -9270
▁KIA -9271
펜하 -9272
▁독성 -9273
▁사업가 -9274
▁남매 -9275
▁THE -9276
▁모서리 -9277
ase -9278
▁대두 -9279
▁마우 -9280
▁미륵 -9281
▁박지 -9282
▁연봉 -9283
카미 -9284
▁시리 -9285
▁오쿠 -9286
▁갈리아 -9287
사리 -9288
▁원본 -9289
▁카프 -9290
▁All -9291
▁미시시피 -9292
기스 -9293
▁공명 -9294
▁삼촌 -9295
▁직경 -9296
▁토요 -9297
▁쓰레기 -9298
▁지켜보 -9299
▁1903 -9300
▁프로레슬링 -9301
정리 -9302
▁레즈 -9303
▁불꽃 -9304
▁섹스 -9305
▁1884 -9306
▁Gr -9307
▁ㅅㅑ -9308
▁공예 -9309
▁노보 -9310
▁다마 -9311
▁소말 -9312
▁아브 -9313
▁만주국 -9314
▁신도비 -9315
대장 -9316
▁공고 -9317
▁불신 -9318
▁개인전 -9319
▁홈구장 -9320
▁쟈 -9321
퀘어 -9322
▁극대 -9323
▁산출 -9324
▁좌측 -9325
테르담 -9326
▁One -9327
▁언어학 -9328
▁아인슈타인 -9329
▁이병 -9330
▁퇴역 -9331
▁관광지 -9332
▁이성계 -9333
▁교대 -9334
▁구형 -9335
▁라그 -9336
▁선동 -9337
▁쥐과 -9338
▁패널 -9339
▁하리 -9340
▁훔치 -9341
처스 -9342
▁강간 -9343
▁트로피 -9344
▁표기법 -9345
▁아리스토 -9346
▁EX -9347
▁중령 -9348
▁하비 -9349
ke -9350
카타 -9351
▁로저 -9352
▁이관 -9353
▁쓰시마 -9354
▁전염병 -9355
▁알렉산드리아 -9356
아웃 -9357
▁AN -9358
▁개화 -9359
▁군산 -9360
▁슈팅 -9361
▁질소 -9362
▁니콜라이 -9363
▁루타 -9364
▁에콰 -9365
▁노태우 -9366
▁에콰도르 -9367
▁메커 -9368
▁타케 -9369
▁회상 -9370
▁도널드 -9371
▁어둠 -9372
▁패밀리 -9373
▁야마구치 -9374
▁정선 -9375
▁날카롭 -9376
▁피고인 -9377
텍처 -9378
▁Cl -9379
▁퇴적 -9380
▁아키텍처 -9381
▁릿 -9382
▁아폴로 -9383
▁클라이 -9384
▁비타 -9385
▁스텔 -9386
▁히타 -9387
▁당연히 -9388
▁구스 -9389
▁꼭대기 -9390
▁도요토미 -9391
▁어뢰 -9392
▁제로 -9393
▁헌정 -9394
▁조반니 -9395
▁프란체 -9396
▁발렌시아 -9397
▁대문 -9398
▁우치 -9399
▁드레스 -9400
▁충청도 -9401
푸르 -9402
▁검출 -9403
▁뮤지션 -9404
▁복합체 -9405
▁깨지 -9406
▁페널티 -9407
▁1800 -9408
▁LA -9409
▁공황 -9410
▁마키 -9411
▁실재 -9412
▁지도부 -9413
올로 -9414
▁비뉴 -9415
▁마르틴 -9416
방울 -9417
▁군함 -9418
▁어찌 -9419
▁정유 -9420
▁조형 -9421
▁함선 -9422
▁콤팩트 -9423
리코 -9424
▁달걀 -9425
▁뒤쪽 -9426
▁실무 -9427
▁철폐 -9428
▁삼국지 -9429
라이언트 -9430
그레 -9431
▁원더 -9432
라이어 -9433
▁마르코 -9434
▁히로시 -9435
ree -9436
▁의결 -9437
▁해남 -9438
▁소방서 -9439
▁슬라브 -9440
▁곡물 -9441
▁기분 -9442
▁농부 -9443
▁당수 -9444
▁이태 -9445
▁장벽 -9446
▁터보 -9447
▁흥선 -9448
테이션 -9449
▁기념관 -9450
▁방글라 -9451
▁프레드 -9452
▁방글라데시 -9453
▁클라이언트 -9454
▁반공 -9455
▁발칸 -9456
▁전위 -9457
▁가오 -9458
▁토시 -9459
사이드 -9460
▁강대 -9461
▁까닭 -9462
▁도선 -9463
▁선우 -9464
▁인질 -9465
니시 -9466
▁경작 -9467
▁내걸 -9468
▁염소 -9469
▁유부 -9470
▁소행성 -9471
나미 -9472
▁강희 -9473
▁우회 -9474
▁카사 -9475
▁기념비 -9476
▁더욱이 -9477
▁카를로 -9478
간지 -9479
▁건륭 -9480
▁김홍 -9481
▁단면 -9482
▁묶이 -9483
▁밀란 -9484
▁분출 -9485
▁상가 -9486
▁하차 -9487
가와현 -9488
▁방사성 -9489
▁일렉트로 -9490
▁북아프리카 -9491
아들 -9492
▁경인 -9493
가르 -9494
▁자형 -9495
▁코믹 -9496
▁팟 -9497
▁물가 -9498
▁상경 -9499
▁전복 -9500
▁복소수 -9501
불교 -9502
▁로라 -9503
▁분량 -9504
▁에밀 -9505
▁우물 -9506
▁전구 -9507
▁활주 -9508
네마 -9509
▁IN -9510
▁남동생 -9511
▁with -9512
▁팰 -9513
산맥 -9514
▁기슭 -9515
▁진전 -9516
▁리더십 -9517
▁소수자 -9518
▁가브리 -9519
하키 -9520
▁권장 -9521
▁모모 -9522
▁발령 -9523
▁상응 -9524
▁현감 -9525
▁뉴욕주 -9526
▁다케다 -9527
▁스토어 -9528
▁그레이트 -9529
▁총대주교 -9530
개골 -9531
▁가산 -9532
▁파병 -9533
▁기관총 -9534
▁모리스 -9535
▁메커니즘 -9536
▁오사카부 -9537
▁궁중 -9538
▁상트 -9539
▁세바 -9540
▁수목 -9541
▁회피 -9542
▁아미노산 -9543
act -9544
▁감안 -9545
▁냄새 -9546
▁중앙아시아 -9547
▁러스 -9548
▁브란 -9549
▁취항 -9550
▁220 -9551
구역 -9552
번뇌 -9553
ass -9554
▁미라 -9555
▁116 -9556
▁거짓말 -9557
▁견인 -9558
▁관절 -9559
▁막스 -9560
▁세키 -9561
▁용서 -9562
▁창녕 -9563
▁에디션 -9564
▁Ad -9565
▁대출 -9566
▁후작 -9567
▁교도소 -9568
▁아나키 -9569
11 -9570
▁Br -9571
▁교량 -9572
▁등용 -9573
▁이북 -9574
▁준주 -9575
▁민간인 -9576
▁전시회 -9577
곡동 -9578
▁소자 -9579
▁안경 -9580
사우 -9581
▁CN -9582
▁반군 -9583
▁신축 -9584
▁정화 -9585
▁추첨 -9586
▁거주지 -9587
▁각색 -9588
▁기저 -9589
▁맞붙 -9590
▁평창 -9591
▁와일드 -9592
▁포스터 -9593
▁ㅇㅡㄹㄲㅏ -9594
▁한국방송공사 -9595
사업 -9596
▁농사 -9597
▁돌기 -9598
▁보성 -9599
▁되돌리 -9600
▁캐서린 -9601
▁1897 -9602
▁볼리비아 -9603
▁가계 -9604
▁장자 -9605
▁티코 -9606
▁컨트리 -9607
▁페이스북 -9608
pt -9609
▁가열 -9610
▁낙동 -9611
▁상법 -9612
▁시야 -9613
▁취미 -9614
▁효고 -9615
▁간신 -9616
▁무슨 -9617
▁샌드 -9618
▁요약 -9619
▁마카오 -9620
▁스트라이크 -9621
▁강남구 -9622
▁방송인 -9623
▁버클리 -9624
▁일자리 -9625
역학 -9626
쿠버 -9627
▁갈래 -9628
▁델타 -9629
▁안산 -9630
▁절단 -9631
▁침체 -9632
▁태백 -9633
▁폭로 -9634
ream -9635
▁일부분 -9636
▁카스티 -9637
▁일파 -9638
▁한층 -9639
▁교육청 -9640
▁데스크 -9641
▁1860 -9642
▁홉 -9643
▁반전 -9644
▁상고 -9645
▁아소 -9646
▁효종 -9647
벤처 -9648
▁깨끗 -9649
▁델라 -9650
▁올드 -9651
▁어드벤처 -9652
▁꿀 -9653
▁르노 -9654
▁오로 -9655
▁배우자 -9656
▁GO -9657
▁마블 -9658
▁데카 -9659
▁마니 -9660
▁사살 -9661
▁연대기 -9662
파리 -9663
▁나루 -9664
▁리조 -9665
▁음향 -9666
▁확진 -9667
▁득표율 -9668
▁이주하 -9669
▁장제 -9670
▁휴가 -9671
기념물 -9672
▁가의 -9673
▁수료 -9674
▁알프레 -9675
▁고이 -9676
▁타우 -9677
▁쓸 -9678
▁Is -9679
▁구약 -9680
▁마가 -9681
▁홍문관 -9682
▁Ex -9683
▁네오 -9684
▁전산 -9685
▁접수 -9686
▁엇 -9687
▁대관 -9688
▁저렴 -9689
▁추론 -9690
▁스크립트 -9691
▁;& -9692
▁공손 -9693
▁민정 -9694
▁심화 -9695
▁청색 -9696
▁카즈 -9697
▁카타르 -9698
▁샌디 -9699
▁체력 -9700
▁쿠니 -9701
캐롤라이나 -9702
▁앰 -9703
▁리히 -9704
▁북경 -9705
▁안치 -9706
▁사카이 -9707
▁경제학자 -9708
▁석불 -9709
스카르 -9710
▁122 -9711
츠크 -9712
▁가신 -9713
▁중공업 -9714
나드 -9715
▁글래 -9716
▁미네소 -9717
▁바르샤바 -9718
▁이반 -9719
▁쥐속 -9720
▁타지 -9721
▁모티브 -9722
▁떡 -9723
반구 -9724
▁적군 -9725
산성 -9726
▁이빨 -9727
▁안드레아 -9728
▁유닉스 -9729
도비 -9730
퍼슨 -9731
포터 -9732
▁소행 -9733
▁중원 -9734
▁2022 -9735
▁마애 -9736
▁석회 -9737
▁수중 -9738
▁입주 -9739
▁전격 -9740
▁집결 -9741
▁스퀘어 -9742
▁후반기 -9743
▁동형 -9744
▁막시 -9745
▁살피 -9746
▁게릴라 -9747
▁아마존 -9748
▁ㄴㄷㅏㅁㅕ -9749
▁죠 -9750
▁타협 -9751
▁클라크 -9752
▁버마 -9753
▁종파 -9754
▁화순 -9755
▁갑옷 -9756
▁윤보 -9757
▁짐작 -9758
▁치우 -9759
▁합당 -9760
콥터 -9761
▁고토 -9762
▁브룩 -9763
▁솔루션 -9764
▁인테르 -9765
▁지지율 -9766
푸아 -9767
▁모용 -9768
▁특색 -9769
▁상트페 -9770
▁상트페테르부르크 -9771
ii -9772
▁돌입 -9773
▁보강 -9774
▁신정 -9775
▁찰리 -9776
▁흥선대원군 -9777
▁무술 -9778
▁사적 -9779
▁창의 -9780
▁con -9781
▁설립자 -9782
▁군청 -9783
▁메릴 -9784
▁세네 -9785
▁신동 -9786
▁종점 -9787
▁청소 -9788
▁공용어 -9789
▁1880 -9790
거진 -9791
▁애리 -9792
▁호쿠 -9793
▁NGC -9794
▁급수 -9795
▁리만 -9796
▁갤러리 -9797
▁두개골 -9798
▁그리스인 -9799
▁눕 -9800
▁BM -9801
▁강철 -9802
▁격차 -9803
▁과실 -9804
▁무로 -9805
▁정경 -9806
▁옥수수 -9807
▁유대교 -9808
▁감추 -9809
▁메라 -9810
▁용암 -9811
▁마라톤 -9812
▁새로이 -9813
네시 -9814
▁마당 -9815
▁빈도 -9816
▁유정 -9817
▁쳐들 -9818
▁호응 -9819
▁나란히 -9820
▁손꼽히 -9821
▁진행자 -9822
▁셜 -9823
▁어로 -9824
▁예명 -9825
▁장원 -9826
▁제작사 -9827
▁엮 -9828
▁공약 -9829
▁벽화 -9830
▁제리 -9831
▁콘테 -9832
▁함양 -9833
▁133 -9834
▁키예프 -9835
▁돌아다니 -9836
▁함부르크 -9837
▁그레고리오 -9838
▁실적 -9839
리즘 -9840
iss -9841
▁루크 -9842
▁복권 -9843
▁이장 -9844
▁종말 -9845
▁처지 -9846
▁극작가 -9847
▁천연기념물 -9848
▁가네 -9849
▁노이 -9850
▁스노 -9851
▁추리 -9852
▁괴롭히 -9853
▁붙여지 -9854
▁기성 -9855
▁번성 -9856
▁이언 -9857
▁입양 -9858
▁자결 -9859
▁뻔 -9860
니지 -9861
타케 -9862
ake -9863
▁ㄷㅔ -9864
▁소령 -9865
▁일괄 -9866
▁프렌 -9867
▁확고 -9868
▁파라과이 -9869
기구 -9870
▁제왕 -9871
▁팔레 -9872
own -9873
▁등극 -9874
▁선장 -9875
몰로지 -9876
▁디트로 -9877
▁이동하 -9878
▁디트로이트 -9879
▁가가 -9880
▁블리 -9881
▁왕정 -9882
▁출석 -9883
자치시 -9884
▁그림자 -9885
사관학교 -9886
▁특별자치시 -9887
▁연동 -9888
▁연못 -9889
▁그렇지만 -9890
케이 -9891
▁사쿠 -9892
▁준결승전 -9893
리안 -9894
▁수녀 -9895
▁심야 -9896
어뜨리 -9897
▁Mus -9898
▁극도 -9899
▁몽고 -9900
▁이규 -9901
▁교육부 -9902
▁법정동 -9903
▁일러스트 -9904
▁오지 -9905
▁유령 -9906
▁랍 -9907
▁진료 -9908
▁경쟁력 -9909
▁무궁화 -9910
▁오락 -9911
▁즐겁 -9912
▁추종 -9913
▁평민 -9914
▁CBS -9915
▁포도당 -9916
▁조계 -9917
▁펜싱 -9918
▁랴 -9919
▁농어 -9920
▁장흥 -9921
▁헬륨 -9922
▁미생물 -9923
▁고추 -9924
▁열심 -9925
▁CEO -9926
▁GDP -9927
▁아래쪽 -9928
▁그레고리 -9929
▁애틀랜타 -9930
▁무스 -9931
▁파우 -9932
▁위나라 -9933
▁사무총장 -9934
▁국유 -9935
▁명분 -9936
▁자생 -9937
▁자카 -9938
▁엘리트 -9939
▁낚 -9940
▁ES -9941
▁스로 -9942
▁우상 -9943
▁겉보기 -9944
clude -9945
▁싣 -9946
▁개항 -9947
▁도사 -9948
▁문경 -9949
▁아치 -9950
▁위생 -9951
▁앨리스 -9952
▁미셸 -9953
▁숙주 -9954
▁탁월 -9955
▁132 -9956
▁지방산 -9957
미스 -9958
▁수년 -9959
▁프랭클린 -9960
그래 -9961
타마 -9962
해지 -9963
▁니카 -9964
▁이득 -9965
▁칼뱅 -9966
▁주지 -9967
▁지청 -9968
▁스리랑카 -9969
▁스트라이커 -9970
HO -9971
림픽 -9972
원장 -9973
old -9974
▁결핍 -9975
▁듀얼 -9976
▁수심 -9977
▁진수 -9978
UR -9979
▁유스 -9980
▁이데 -9981
▁정인 -9982
▁총무 -9983
▁대성전 -9984
멘스 -9985
▁더비 -9986
▁반역 -9987
Hz -9988
▁툰 -9989
세기 -9990
▁재난 -9991
▁프롤 -9992
▁동성애자 -9993
▁섀 -9994
▁감동 -9995
▁까지 -9996
▁아데 -9997
▁앞장 -9998
▁글로브 -9999
▁인프라 -10000
▁시뮬레이션 -10001
에미 -10002
헌영 -10003
▁듀오 -10004
▁리모 -10005
▁++ -10006
▁광양 -10007
▁동요 -10008
▁애칭 -10009
▁삼국사기 -10010
위성 -10011
▁빈번 -10012
▁상연 -10013
▁정관 -10014
▁인디애나 -10015
스기 -10016
▁대지진 -10017
▁결제 -10018
▁김민 -10019
미즈 -10020
▁NE -10021
▁ㄹㅑ -10022
▁꿈꾸 -10023
▁원격 -10024
▁초원 -10025
▁온갖 -10026
▁워치 -10027
바야시 -10028
▁마다가 -10029
ㄴㅣㄲㅏ -10030
ork -10031
▁주화 -10032
▁해치 -10033
버러 -10034
▁격자 -10035
▁속편 -10036
▁조병 -10037
▁파이프 -10038
▁극락 -10039
▁베른 -10040
▁속이 -10041
▁무조건 -10042
ix -10043
▁동참 -10044
▁시종 -10045
▁타석 -10046
▁마우스 -10047
거래 -10048
렉션 -10049
▁브랜 -10050
▁현직 -10051
▁호족 -10052
▁기상청 -10053
▁미주리 -10054
▁쾰 -10055
벨라 -10056
파크 -10057
▁강풍 -10058
▁복음서 -10059
▁요제프 -10060
GA -10061
메다 -10062
▁or -10063
▁재해 -10064
ㅇㅗ -10065
▁현행 -10066
ence -10067
▁국수 -10068
▁대사헌 -10069
▁보헤미아 -10070
▁패럴림픽 -10071
▁막히 -10072
▁상기 -10073
▁속주 -10074
▁pro -10075
해튼 -10076
▁대국 -10077
▁현황 -10078
▁농산물 -10079
▁자세히 -10080
() -10081
lo -10082
천사 -10083
▁가타 -10084
▁김옥 -10085
▁신상 -10086
▁암흑 -10087
▁호리 -10088
▁저널리 -10089
▁대각 -10090
▁두렵 -10091
▁발각 -10092
▁요법 -10093
위원회 -10094
▁ㅎㅏㄱㅗ -10095
러피 -10096
▁Ro -10097
▁단과 -10098
▁맹세 -10099
▁청자 -10100
▁우체국 -10101
▁평안남도 -10102
▁kt -10103
▁빠져 -10104
▁숨지 -10105
▁통틀어 -10106
루냐 -10107
ick -10108
▁라오 -10109
▁피로 -10110
▁볼셰비키 -10111
▁무르 -10112
▁불행 -10113
▁투항 -10114
▁파문 -10115
마리 -10116
변이 -10117
▁후속작 -10118
▁돌연변이 -10119
▁합스부르크 -10120
▁슛 -10121
CAF -10122
▁La -10123
▁총기 -10124
▁호의 -10125
▁활주로 -10126
를테 -10127
▁PR -10128
▁낙하 -10129
▁페로 -10130
▁황도 -10131
를테면 -10132
▁1870 -10133
▁이를테면 -10134
▁감금 -10135
▁공파 -10136
▁세손 -10137
▁해부 -10138
▁뾰 -10139
▁재질 -10140
▁초고 -10141
▁헛 -10142
▁공표 -10143
▁밀러 -10144
▁아빠 -10145
▁의과 -10146
▁장대 -10147
브리아 -10148
▁Mar -10149
▁단행본 -10150
▁매거진 -10151
▁평안북도 -10152
▁숀 -10153
라기 -10154
▁서장 -10155
▁소울 -10156
▁표창 -10157
▁중앙부 -10158
▁창시자 -10159
삭스 -10160
홀름 -10161
▁관동 -10162
▁만년 -10163
▁생계 -10164
▁왜구 -10165
▁저격 -10166
▁모터스 -10167
▁트리니 -10168
▁우아 -10169
▁정국 -10170
▁To -10171
▁시국 -10172
▁제너 -10173
▁타이베이 -10174
▁댓 -10175
▁DM -10176
▁말년 -10177
▁따라가 -10178
▁매끄럽 -10179
▁소피아 -10180
플로 -10181
할시 -10182
▁루비 -10183
▁머스 -10184
▁양육 -10185
ance -10186
▁450 -10187
▁NAS -10188
공산 -10189
▁김병 -10190
▁복식 -10191
▁아쿠 -10192
▁청동기 -10193
▁1885 -10194
▁프랜시스 -10195
EM -10196
▁엥 -10197
▁돌출 -10198
▁맞대 -10199
▁비늘 -10200
▁이븐 -10201
▁입수 -10202
▁대장군 -10203
▁애리조 -10204
▁국악 -10205
▁로페 -10206
▁배속 -10207
▁기병대 -10208
▁아스널 -10209
▁오로지 -10210
▁우즈베키스탄 -10211
▁른 -10212
▁Ph -10213
▁포고 -10214
▁USS -10215
▁1871 -10216
▁짱 -10217
▁앞쪽 -10218
▁리터 -10219
▁세븐 -10220
▁카바 -10221
▁비주얼 -10222
ection -10223
▁아이스하키 -10224
십자 -10225
▁성령 -10226
▁수염 -10227
▁틀리 -10228
▁다람쥐 -10229
▁활발히 -10230
▁알래스카 -10231
티시 -10232
ear -10233
▁un -10234
▁난이 -10235
▁신종 -10236
타이드 -10237
테리아 -10238
▁로렌스 -10239
▁전날 -10240
▁앤더슨 -10241
▁1600 -10242
▁마르크스주의 -10243
제이 -10244
▁이모 -10245
▁중생 -10246
▁휩쓸 -10247
▁양성자 -10248
▁프레이 -10249
▁쿡 -10250
▁참사 -10251
▁맷 -10252
▁감수 -10253
lass -10254
▁내면 -10255
▁차리 -10256
▁휴게 -10257
러피언 -10258
▁내무부 -10259
▁편집자 -10260
▁only -10261
▁오클랜드 -10262
▁벤치 -10263
▁카터 -10264
▁경질 -10265
▁로리 -10266
▁요지 -10267
▁원심 -10268
▁중상 -10269
▁흉노 -10270
▁빅토르 -10271
틀리 -10272
ild -10273
▁내성 -10274
▁매직 -10275
▁위스 -10276
▁이양 -10277
▁센고쿠 -10278
▁수원시 -10279
▁유러피언 -10280
▁부조 -10281
▁시애 -10282
▁자칭 -10283
▁박헌영 -10284
▁1200 -10285
쩌둥 -10286
irl -10287
▁테일 -10288
▁퇴장 -10289
▁끌려가 -10290
▁파나마 -10291
▁마오쩌둥 -10292
▁능선 -10293
▁릴리 -10294
▁오라 -10295
▁유료 -10296
▁청룡 -10297
테쓰 -10298
▁역도 -10299
▁화랑 -10300
▁마닐라 -10301
▁케이프 -10302
돌리 -10303
▁GN -10304
▁관행 -10305
▁봉수 -10306
▁중서 -10307
▁지성 -10308
▁콜레 -10309
▁해저 -10310
▁루카 -10311
▁반성 -10312
▁볼프 -10313
▁장단 -10314
▁탑신 -10315
▁예정자 -10316
▁잡아먹 -10317
▁조광 -10318
어오 -10319
▁수인 -10320
▁친분 -10321
▁240 -10322
▁윤보선 -10323
▁마다가스카르 -10324
▁즘 -10325
▁민요 -10326
▁바디 -10327
▁케라 -10328
▁반란군 -10329
체고 -10330
파이 -10331
▁리바 -10332
▁재외 -10333
▁카니 -10334
▁티켓 -10335
▁김정은 -10336
체고비나 -10337
▁SL -10338
▁구니 -10339
▁출가 -10340
▁ㄹㄹㅏ -10341
▁김규식 -10342
▁불태우 -10343
▁교실 -10344
▁스태 -10345
▁플랜 -10346
▁다나카 -10347
▁부원군 -10348
▁시애틀 -10349
▁오른손 -10350
▁이방 -10351
▁증인 -10352
▁실험실 -10353
올라 -10354
▁국당 -10355
▁빨갛 -10356
▁성실 -10357
▁구마모토 -10358
관리 -10359
맥스 -10360
▁vs -10361
▁조례 -10362
▁초빙 -10363
▁알렉스 -10364
▁앤드루 -10365
▁프로리그 -10366
▁콘스탄티노폴리스 -10367
▁당내 -10368
▁생선 -10369
▁맨해튼 -10370
▁역사가 -10371
▁해리슨 -10372
▁ㄹㅕㄷㅓㄴ -10373
▁수교 -10374
텔레스 -10375
▁프라하 -10376
▁AD -10377
▁정제 -10378
▁제동 -10379
▁파인 -10380
OV -10381
▁서산 -10382
▁지쿠 -10383
▁통역 -10384
▁제조업 -10385
메스 -10386
▁관문 -10387
▁리비 -10388
▁시중 -10389
▁이완 -10390
▁징병 -10391
천면 -10392
▁궁궐 -10393
▁무척 -10394
▁상급 -10395
▁송도 -10396
▁재활 -10397
ㅡㄹㅏ -10398
▁동물원 -10399
▁미군정 -10400
▁헬리콥터 -10401
코토 -10402
▁Sy -10403
▁개헌 -10404
▁경시 -10405
▁섬세 -10406
▁루돌프 -10407
▁왕세자 -10408
ans -10409
▁경희 -10410
▁몸통 -10411
▁부각 -10412
▁함자 -10413
ivers -10414
▁ㄴㅑㄴㅡㄴ -10415
▁괄 -10416
지로 -10417
▁국보 -10418
▁남용 -10419
▁오미 -10420
▁허드 -10421
▁공민왕 -10422
▁고쿠 -10423
▁겁 -10424
ype -10425
▁CM -10426
▁남산 -10427
▁뾰족 -10428
▁창문 -10429
▁호크 -10430
▁대대로 -10431
▁동대문 -10432
▁성남시 -10433
▁신문사 -10434
▁하노이 -10435
▁아리스토텔레스 -10436
무소 -10437
▁이룩 -10438
▁커플 -10439
▁EBS -10440
▁아무것 -10441
▁제퍼슨 -10442
사상 -10443
▁구청 -10444
▁분과 -10445
▁차용 -10446
▁한하 -10447
어사 -10448
▁줄거리 -10449
▁개개 -10450
▁총통 -10451
include -10452
▁얕 -10453
▁남해 -10454
▁뉴클 -10455
▁드미 -10456
▁바트 -10457
▁위너스 -10458
▁클레이 -10459
▁클린턴 -10460
▁ㄴㄷ -10461
▁경영자 -10462
▁리조트 -10463
▁러시아인 -10464
▁ㅌㅣ -10465
▁각성 -10466
▁농경 -10467
▁에프 -10468
▁총애 -10469
▁동유럽 -10470
▁사각형 -10471
▁서재필 -10472
ish -10473
▁배려 -10474
▁카지 -10475
▁칼럼 -10476
▁화기 -10477
▁레이크 -10478
▁솔로몬 -10479
▁퍼스트 -10480
▁김원 -10481
▁통용 -10482
컨대 -10483
▁가늘 -10484
▁시합 -10485
▁하반 -10486
▁크라이 -10487
▁안녕 -10488
▁주임 -10489
▁퍼스 -10490
▁MTV -10491
▁": -10492
▁산호 -10493
▁시노 -10494
▁학설 -10495
▁선거법 -10496
▁나우 -10497
▁수필 -10498
▁약혼 -10499
▁하키 -10500
▁화엄 -10501
라니 -10502
▁나선 -10503
▁씨앗 -10504
▁포착 -10505
▁효자 -10506
▁자치체 -10507
▁해리스 -10508
GM -10509
▁독창 -10510
▁지오 -10511
▁대합실 -10512
▁브루스 -10513
▁브레이크 -10514
oun -10515
▁NT -10516
▁보로 -10517
▁스가 -10518
▁주입 -10519
▁퍼포 -10520
▁케플러 -10521
▁관청 -10522
▁광도 -10523
▁모의 -10524
▁실존 -10525
▁천왕 -10526
▁허정 -10527
▁올림피아 -10528
에스 -10529
▁시부 -10530
▁하류 -10531
▁퍼포먼스 -10532
▁함경남도 -10533
▁ㄴㅡㄴㄷㅏㅁㅕㄴ -10534
▁모호 -10535
▁진해 -10536
▁아키라 -10537
▁@ -10538
원수 -10539
▁독도 -10540
▁성화 -10541
▁수양 -10542
▁전래 -10543
▁차갑 -10544
▁칙령 -10545
▁예선전 -10546
RA -10547
▁유혹 -10548
▁일당 -10549
▁Jo -10550
▁ex -10551
▁들여 -10552
▁메뉴 -10553
▁자제 -10554
▁파도 -10555
▁스테파 -10556
▁요시다 -10557
▁유치원 -10558
▁총사령관 -10559
OD -10560
fe -10561
토랑 -10562
▁보라 -10563
▁분류군 -10564
▁레스토랑 -10565
▁경호 -10566
▁반기 -10567
▁지로 -10568
▁케인 -10569
▁테라 -10570
▁검정 -10571
▁로버 -10572
▁평형 -10573
▁내야수 -10574
▁데려오 -10575
▁멍 -10576
정원 -10577
▁극한 -10578
▁메카 -10579
▁트릭 -10580
▁긴테쓰 -10581
▁비밀리 -10582
▁유권자 -10583
ey -10584
통일 -10585
▁다테 -10586
▁마차 -10587
▁분파 -10588
▁카테 -10589
▁호스 -10590
▁예수회 -10591
▁sc -10592
▁만장 -10593
▁욕망 -10594
▁네이션스컵 -10595
▁리보 -10596
▁문고 -10597
▁보행 -10598
▁신발 -10599
▁전무 -10600
▁제물 -10601
히트 -10602
▁찬사 -10603
▁테리 -10604
▁아키타 -10605
▁어군 -10606
▁메이커 -10607
▁뉴클레오 -10608
▁스톡홀름 -10609
바흐 -10610
신문 -10611
창호 -10612
▁블로 -10613
▁실정 -10614
ical -10615
▁뛰어들 -10616
▁비타민 -10617
▁알프스 -10618
등식 -10619
▁카피 -10620
▁컴퓨팅 -10621
환경 -10622
▁마술 -10623
▁원통 -10624
▁서대문 -10625
▁캐롤 -10626
▁벅 -10627
lat -10628
▁포식 -10629
▁김유 -10630
▁소음 -10631
▁타스 -10632
▁보수당 -10633
▁자치주 -10634
▁플라톤 -10635
러브 -10636
▁드루 -10637
▁매리 -10638
▁박종 -10639
▁엄밀 -10640
▁이점 -10641
▁절망 -10642
▁개구리 -10643
▁다저스 -10644
▁오리온 -10645
TP -10646
▁도교 -10647
▁스폰서 -10648
▁친위대 -10649
EG -10650
▁넷째 -10651
▁도둑 -10652
▁마셜 -10653
▁묘비 -10654
▁방콕 -10655
▁블레 -10656
▁수복 -10657
▁프론 -10658
▁유아기 -10659
▁와이번스 -10660
암동 -10661
▁강령 -10662
▁리베 -10663
▁바이트 -10664
▁방어선 -10665
▁프린스 -10666
▁ㅇㅏㅇㅛ -10667
▁모어 -10668
▁색소 -10669
▁ABC -10670
▁마천루 -10671
메드 -10672
▁고든 -10673
▁본성 -10674
▁북아일랜드 -10675
▁럭비 -10676
▁천국 -10677
▁치과 -10678
▁파손 -10679
▁홀리 -10680
▁황소 -10681
▁ATP -10682
▁멧 -10683
▁CH -10684
▁DD -10685
▁나인 -10686
▁불변 -10687
▁웨인 -10688
▁장시 -10689
▁전담 -10690
▁로드리 -10691
▁투자자 -10692
▁샐 -10693
▁천거 -10694
▁헬싱 -10695
▁나트륨 -10696
▁대원군 -10697
▁정의당 -10698
▁AV -10699
▁구내 -10700
▁구실 -10701
▁노론 -10702
▁동로 -10703
▁일리 -10704
▁추이 -10705
▁톈진 -10706
▁폭파 -10707
▁피라미 -10708
▁피아니스트 -10709
▁마켓 -10710
▁무실 -10711
▁상행 -10712
▁실권 -10713
▁야드 -10714
▁포토 -10715
덴부르크 -10716
▁벤처 -10717
▁시몬 -10718
▁연산군 -10719
매매 -10720
▁당연 -10721
▁침묵 -10722
▁210 -10723
▁마누엘 -10724
▁연극배우 -10725
▁대본 -10726
▁리사 -10727
▁소극 -10728
▁영유 -10729
▁정거 -10730
▁ㄹㅏㅅㅓ -10731
▁Fr -10732
▁삼존 -10733
▁선천 -10734
▁쾰른 -10735
▁정부군 -10736
▁튀르크 -10737
▁콘테스트 -10738
▁국공 -10739
▁슬하 -10740
▁제노 -10741
▁찬양 -10742
▁퇴직 -10743
▁화약 -10744
▁용인시 -10745
▁화강암 -10746
▁헤르체고비나 -10747
군다 -10748
are -10749
▁스텝 -10750
▁적외선 -10751
▁토스카 -10752
▁가브리엘 -10753
놀이 -10754
대교 -10755
부르 -10756
▁pr -10757
▁소중 -10758
▁야전 -10759
▁약사 -10760
▁왕권 -10761
▁특전 -10762
▁앞장서 -10763
▁책임지 -10764
▁프레데 -10765
FL -10766
티넘 -10767
▁백두 -10768
▁스칸 -10769
▁선구자 -10770
▁알파벳 -10771
▁주차장 -10772
▁플래티넘 -10773
ica -10774
▁결별 -10775
▁마에 -10776
▁아나톨 -10777
EL -10778
▁Ma -10779
▁본작 -10780
▁사방 -10781
▁여유 -10782
▁중퇴 -10783
▁목요일 -10784
▁오바마 -10785
▁가솔 -10786
▁따지 -10787
▁이의 -10788
▁차출 -10789
▁채취 -10790
▁가이드 -10791
▁경전철 -10792
▁유격수 -10793
사고 -10794
수스 -10795
▁동시대 -10796
▁별세 -10797
▁부치 -10798
▁위그 -10799
▁he -10800
▁리본 -10801
▁유선 -10802
▁준수 -10803
대표 -10804
▁감찰 -10805
▁대북 -10806
▁로크 -10807
▁뭉치 -10808
▁방치 -10809
▁봉화 -10810
▁1889 -10811
▁ㄹㅕㄷㅏ -10812
▁가락 -10813
▁담보 -10814
▁밸리 -10815
▁삼림 -10816
▁영정 -10817
▁한미 -10818
▁안테나 -10819
말리 -10820
▁반포 -10821
▁아날 -10822
▁요충 -10823
공산당 -10824
▁리프트 -10825
난성 -10826
▁가맹 -10827
▁강렬 -10828
▁송신 -10829
▁슬픔 -10830
▁임정 -10831
▁모하 -10832
▁새우 -10833
▁종식 -10834
▁초신성 -10835
▁고속버스 -10836
▁스카우트 -10837
클레 -10838
▁실록 -10839
▁사로잡 -10840
60 -10841
소통 -10842
천동 -10843
▁불참 -10844
▁여권 -10845
▁유목 -10846
▁켈트 -10847
▁아이폰 -10848
▁잇따르 -10849
▁베트 -10850
▁우림 -10851
▁직통 -10852
▁하시 -10853
▁호대 -10854
▁기관지 -10855
▁패트릭 -10856
▁공존 -10857
▁딥 -10858
충류 -10859
▁비엔 -10860
▁중합 -10861
▁투여 -10862
▁갈아 -10863
▁정형 -10864
테이너 -10865
▁늙 -10866
▁So -10867
▁대영 -10868
▁아끼 -10869
▁전전 -10870
▁도망가 -10871
▁밴쿠버 -10872
▁의사소통 -10873
▁간첩 -10874
▁니혼 -10875
▁산성 -10876
▁영예 -10877
▁왕건 -10878
▁의류 -10879
▁이송 -10880
▁주계 -10881
▁칸국 -10882
▁엔트리 -10883
카리 -10884
▁구르 -10885
▁능하 -10886
▁다윈 -10887
▁모금 -10888
▁불량 -10889
▁야시 -10890
▁집정 -10891
▁말미암 -10892
▁타이거스 -10893
▁구두 -10894
와라노 -10895
▁후지와라노 -10896
▁건전 -10897
▁김형 -10898
▁연말 -10899
▁메디치 -10900
▁CONCA -10901
부로 -10902
위안 -10903
▁매트 -10904
▁미수 -10905
▁비야 -10906
▁사설 -10907
▁시크 -10908
▁플리 -10909
▁접어들 -10910
▁떨어뜨리 -10911
▁감상 -10912
▁중수 -10913
▁치루 -10914
▁판례 -10915
▁펌프 -10916
▁감성 -10917
▁격리 -10918
▁받치 -10919
▁예약 -10920
▁작물 -10921
▁절정 -10922
▁종자 -10923
▁형질 -10924
▁For -10925
▁두려움 -10926
▁타이어 -10927
▁Live -10928
▁CONCACAF -10929
드레 -10930
▁그저 -10931
▁로트 -10932
▁열강 -10933
▁인가 -10934
▁피지 -10935
▁똑같이 -10936
▁센티미터 -10937
AF -10938
바나 -10939
▁권하 -10940
▁김준 -10941
▁사서 -10942
▁지자 -10943
▁프란체스코 -10944
▁금호 -10945
▁라자 -10946
▁서임 -10947
▁수락 -10948
▁정읍 -10949
▁로마인 -10950
▁소말리아 -10951
▁라리 -10952
▁무형 -10953
▁의령 -10954
▁후배 -10955
▁ㅓㅇㅑ -10956
▁낙동강 -10957
▁발라드 -10958
sh -10959
▁앙골 -10960
▁JTBC -10961
▁훙 -10962
▁원군 -10963
▁캐리 -10964
▁생존자 -10965
▁미야자키 -10966
▁마땅 -10967
▁사탕 -10968
▁애정 -10969
▁정종 -10970
▁하야 -10971
▁드디어 -10972
bo -10973
▁극우 -10974
▁사역 -10975
▁쿠퍼 -10976
▁열심히 -10977
휴일 -10978
▁메소 -10979
▁목회 -10980
▁은거 -10981
블랜드 -10982
▁시네마 -10983
▁챙 -10984
란토 -10985
유예 -10986
▁가도 -10987
▁백과 -10988
▁스트로 -10989
▁가나가와현 -10990
망디 -10991
▁잠정 -10992
▁정작 -10993
▁제명 -10994
▁Sou -10995
▁레이싱 -10996
▁나카무라 -10997
▁카탈루냐 -10998
가미 -10999
프로 -11000
▁기이 -11001
▁도피 -11002
▁송출 -11003
도르프 -11004
캐슬 -11005
▁고딕 -11006
▁리옹 -11007
▁징수 -11008
▁치환 -11009
에미리트 -11010
▁자유민주당 -11011
▁아랍에미리트 -11012
지기 -11013
▁공소 -11014
▁금산 -11015
▁바지 -11016
▁습윤 -11017
▁요격 -11018
바이트 -11019
▁장학금 -11020
▁피라미드 -11021
▁클리블랜드 -11022
EE -11023
▁모색 -11024
▁연정 -11025
IL -11026
▁가두 -11027
tern -11028
▁간신히 -11029
▁미야기 -11030
▁볼트 -11031
▁유의 -11032
하이오 -11033
▁여배우 -11034
▁오하이오 -11035
▁프랑스인 -11036
▁비준 -11037
▁트렌 -11038
마르크 -11039
▁캅 -11040
▁로얄 -11041
▁평평 -11042
추부사 -11043
▁Com -11044
지능 -11045
▁GB -11046
▁거미 -11047
▁유희 -11048
▁AKB -11049
▁광복군 -11050
▁교통부 -11051
▁유니버설 -11052
▁인공지능 -11053
▁김명 -11054
▁벨리 -11055
▁순종 -11056
▁항만 -11057
▁int -11058
간다 -11059
대사 -11060
자루 -11061
ood -11062
▁"& -11063
▁당기 -11064
▁무네 -11065
▁악보 -11066
▁워커 -11067
▁검은색 -11068
▁카카오 -11069
▁츄 -11070
▁격추 -11071
▁삼중 -11072
▁Col -11073
▁레이트 -11074
▁마이어 -11075
▁Part -11076
▁깜 -11077
풀이 -11078
현동 -11079
ost -11080
▁성곽 -11081
▁여고 -11082
▁자서 -11083
▁에이즈 -11084
▁Time -11085
▁EU -11086
▁무과 -11087
▁암스 -11088
▁1848 -11089
▁수로 -11090
▁페트 -11091
찌르 -11092
▁모욕 -11093
▁문집 -11094
▁사쓰 -11095
▁서태 -11096
▁뉴캐슬 -11097
▁토리노 -11098
나마 -11099
▁익숙 -11100
▁추력 -11101
▁탄약 -11102
▁티아 -11103
▁한림 -11104
▁한중 -11105
▁기숙사 -11106
▁레이더 -11107
화문 -11108
▁추억 -11109
에몽 -11110
row -11111
▁포털 -11112
▁해태 -11113
span -11114
거스 -11115
지부 -11116
▁부총리 -11117
▁급여 -11118
▁댄서 -11119
▁여의도 -11120
▁onlyinclude -11121
▁재팬 -11122
▁하행 -11123
▁해피 -11124
uc -11125
애미 -11126
정동 -11127
▁김광 -11128
▁오만 -11129
프랑크 -11130
▁공휴일 -11131
▁마이애미 -11132
의사 -11133
▁라이더 -11134
▁부딪히 -11135
▁브레이 -11136
▁튀니지 -11137
▁도래 -11138
▁라르 -11139
▁매킨 -11140
▁볼로 -11141
▁양심 -11142
▁여사 -11143
▁토트 -11144
▁바그너 -11145
▁프랑스령 -11146
lay -11147
▁남군 -11148
▁셀레 -11149
▁우한 -11150
▁종군 -11151
▁지상파 -11152
▁카스티야 -11153
▁병자 -11154
▁보령 -11155
▁재일 -11156
▁절벽 -11157
▁조인 -11158
▁해독 -11159
▁대니얼 -11160
▁무찌르 -11161
▁스타트 -11162
▁어시스트 -11163
ous -11164
▁공대 -11165
▁국한 -11166
▁워즈 -11167
▁특화 -11168
▁고인돌 -11169
▁대리인 -11170
▁클라우 -11171
▁프란치 -11172
▁대승불교 -11173
▁사민 -11174
▁유식 -11175
▁음절 -11176
▁우루스 -11177
▁일본국 -11178
▁정거장 -11179
▁페트로 -11180
▁가혹 -11181
▁교의 -11182
▁모건 -11183
▁비토 -11184
▁천주 -11185
페스트 -11186
▁무안 -11187
▁산둥 -11188
▁업자 -11189
▁코리 -11190
▁국제법 -11191
▁법원장 -11192
▁정치학 -11193
▁치카 -11194
파니아 -11195
ows -11196
▁EM -11197
▁방대 -11198
olog -11199
▁지배자 -11200
메니 -11201
orn -11202
▁굴절 -11203
▁인칭 -11204
▁제위 -11205
▁총격 -11206
▁클러 -11207
▁SNS -11208
▁시멘트 -11209
▁시코쿠 -11210
▁관현악단 -11211
▁랴오 -11212
▁리카 -11213
▁비대 -11214
▁안개 -11215
해살이 -11216
▁그랜트 -11217
▁마법사 -11218
▁명확히 -11219
▁아이즈 -11220
▁공성 -11221
▁로키 -11222
▁비정 -11223
▁보수주의 -11224
▁가쿠 -11225
▁단결 -11226
▁마테 -11227
▁부평 -11228
▁Bla -11229
▁숙부 -11230
▁케르 -11231
▁가솔린 -11232
▁하노버 -11233
브로 -11234
히사 -11235
ann -11236
▁경복 -11237
▁선명 -11238
▁항체 -11239
▁저지대 -11240
▁제우스 -11241
▁카메룬 -11242
OP -11243
▁거란 -11244
▁문단 -11245
▁최진 -11246
메이카 -11247
▁API -11248
▁자메이카 -11249
▁줄기세포 -11250
az -11251
도라 -11252
▁김인 -11253
▁사수 -11254
▁신곡 -11255
▁용액 -11256
▁평지 -11257
▁황색 -11258
▁Your -11259
▁류큐 -11260
▁명소 -11261
▁연립 -11262
▁오디 -11263
클리드 -11264
▁131 -11265
▁대단히 -11266
▁부다 -11267
드리아 -11268
서스 -11269
▁BC -11270
▁귀신 -11271
▁대마 -11272
▁몰아 -11273
▁부합 -11274
▁안방 -11275
▁대나무 -11276
▁정보원 -11277
▁헤어지 -11278
▁NASA -11279
▁at -11280
▁메일 -11281
▁베어 -11282
▁서귀 -11283
▁설문 -11284
▁점포 -11285
▁지법 -11286
▁대법관 -11287
▁레드삭스 -11288
▁고로 -11289
▁도키 -11290
▁선봉 -11291
▁적료 -11292
▁쪼 -11293
▁쾨 -11294
▁검거 -11295
▁글꼴 -11296
▁동산 -11297
빌라이 -11298
▁ref -11299
▁욱 -11300
▁모범 -11301
▁모빌 -11302
▁종양 -11303
▁하코 -11304
▁항우 -11305
관계 -11306
칼리 -11307
▁메스 -11308
▁재편 -11309
▁전한 -11310
시노 -11311
▁속력 -11312
▁응급 -11313
른스트 -11314
▁제이슨 -11315
▁1883 -11316
▁녕 -11317
▁공영 -11318
▁기와 -11319
▁사림 -11320
▁지석 -11321
▁패러디 -11322
▁곶 -11323
으로 -11324
▁골격 -11325
▁남방 -11326
▁초콜 -11327
▁혼다 -11328
▁OST -11329
▁영화상 -11330
▁동진 -11331
▁소외 -11332
▁전보 -11333
네그로 -11334
레스트 -11335
▁라파엘 -11336
▁u -11337
▁계주 -11338
▁관상 -11339
▁기세 -11340
▁다툼 -11341
▁수식 -11342
▁연희 -11343
▁중엽 -11344
▁한신 -11345
▁방사능 -11346
▁줄리아 -11347
지아 -11348
▁다듬 -11349
▁무작 -11350
▁탄자 -11351
▁날아가 -11352
▁ㄹㅏㄱㅣ -11353
▁그라운드 -11354
▁녹화 -11355
▁식스 -11356
▁진로 -11357
▁노르망디 -11358
▁텍사스주 -11359
▁본뜨 -11360
▁부상자 -11361
▁판소리 -11362
▁교향악단 -11363
▁대좌 -11364
▁도박 -11365
▁쌍대 -11366
▁코소 -11367
▁큐브 -11368
▁형벌 -11369
▁비서관 -11370
80 -11371
▁GM -11372
▁경위 -11373
▁실증 -11374
▁피리 -11375
▁연구회 -11376
▁간략 -11377
▁근사 -11378
▁봉인 -11379
▁삽화 -11380
▁유공 -11381
▁이터 -11382
▁평판 -11383
▁tv -11384
▁가우 -11385
▁가토 -11386
▁병마 -11387
▁산요 -11388
▁자명 -11389
▁에스페 -11390
▁해상도 -11391
▁공무 -11392
▁라바 -11393
▁타락 -11394
▁하남 -11395
▁프로그래머 -11396
▁뫼 -11397
▁리즈 -11398
▁야외 -11399
▁유우 -11400
▁절감 -11401
▁카네 -11402
▁카마 -11403
▁편견 -11404
▁꺼내 -11405
▁리마 -11406
▁온난 -11407
▁은혜 -11408
▁조교 -11409
▁최선 -11410
▁고분군 -11411
센스 -11412
▁가중 -11413
▁우산 -11414
▁에이전 -11415
▁위구르 -11416
▁파일럿 -11417
▁촛 -11418
▁Ge -11419
▁니키 -11420
▁단군 -11421
▁송파 -11422
▁콘솔 -11423
▁이용객 -11424
▁체인지 -11425
▁토마토 -11426
▁쿠빌라이 -11427
합성 -11428
▁노면 -11429
▁발상 -11430
▁상어 -11431
▁열전 -11432
▁요절 -11433
▁만화가 -11434
용차 -11435
▁고생 -11436
▁월터 -11437
ern -11438
▁라디 -11439
▁받들 -11440
▁야마가타 -11441
▁RP -11442
▁기량 -11443
▁부왕 -11444
▁성동 -11445
▁안나 -11446
▁유생 -11447
▁함량 -11448
▁후진 -11449
▁해안선 -11450
▁콥 -11451
제품 -11452
▁고흥 -11453
▁권역 -11454
▁수위 -11455
▁1882 -11456
▁봇 -11457
버른 -11458
▁관례 -11459
▁북군 -11460
▁스루 -11461
▁엔드 -11462
▁친족 -11463
▁학력 -11464
▁Day -11465
▁Wind -11466
40 -11467
▁고노 -11468
▁국교 -11469
▁국외 -11470
▁모세 -11471
▁범하 -11472
▁세습 -11473
▁위로 -11474
워스 -11475
프턴 -11476
▁간사 -11477
▁거성 -11478
▁기전 -11479
스트리 -11480
▁슈퍼컵 -11481
▁스칼라 -11482
▁연장전 -11483
▁원산지 -11484
▁중소기업 -11485
II -11486
포시 -11487
▁고의 -11488
▁덮개 -11489
▁루키 -11490
▁헬레 -11491
▁다이어 -11492
▁예컨대 -11493
▁올리브 -11494
▁통신사 -11495
에고 -11496
ink -11497
▁RS -11498
▁SA -11499
▁가고 -11500
▁무섭 -11501
▁아이언 -11502
CC -11503
돌이 -11504
▁몰타 -11505
토프 -11506
▁내일 -11507
▁단정 -11508
▁배분 -11509
▁왕궁 -11510
▁유서 -11511
▁주선 -11512
▁데니스 -11513
치히 -11514
▁정월 -11515
▁조셉 -11516
▁미토콘 -11517
▁전반기 -11518
▁사로잡히 -11519
▁아날로그 -11520
▁미토콘드리아 -11521
교통 -11522
여객 -11523
▁FK -11524
▁보루 -11525
▁우시 -11526
▁지극 -11527
다운 -11528
▁ㅅㅕ -11529
▁멋지 -11530
▁수다 -11531
▁요양 -11532
▁이회 -11533
▁파벌 -11534
▁플러 -11535
오르크 -11536
▁330 -11537
▁공화정 -11538
▁카스트 -11539
▁관계없이 -11540
RT -11541
▁장덕 -11542
▁직속 -11543
▁항원 -11544
▁단체전 -11545
▁대표자 -11546
▁앗 -11547
▁관악 -11548
▁도네 -11549
▁자수 -11550
▁Sch -11551
▁강당 -11552
▁결사 -11553
▁급증 -11554
▁단속 -11555
▁부교 -11556
▁붙잡 -11557
▁사영 -11558
▁세련 -11559
▁아목 -11560
▁제천 -11561
갈리 -11562
▁관목 -11563
▁램프 -11564
▁상록 -11565
▁정정 -11566
▁선진국 -11567
▁해운대 -11568
▁미스터리 -11569
▁동포 -11570
▁씨족 -11571
▁타수 -11572
▁국정원 -11573
▁중공군 -11574
데라 -11575
▁배달 -11576
▁성원 -11577
▁시안 -11578
▁위조 -11579
▁재래 -11580
▁노벨상 -11581
▁ㅇㅡㄹㅣ -11582
▁브루클린 -11583
▁시즈오카 -11584
▁몹 -11585
서니 -11586
▁딜런 -11587
▁사학 -11588
▁최영 -11589
▁협업 -11590
▁경주시 -11591
▁영원히 -11592
▁테네시 -11593
▁호스트 -11594
▁산시 -11595
▁외래 -11596
▁조슈 -11597
▁주창 -11598
▁후예 -11599
▁4000 -11600
▁정은 -11601
▁Girl -11602
게스 -11603
▁랭크 -11604
▁베풀 -11605
▁어기 -11606
▁염려 -11607
▁북유럽 -11608
▁지붕돌 -11609
▁파푸아 -11610
▁필립스 -11611
본부 -11612
팡이 -11613
▁부르주 -11614
▁사업소 -11615
▁제갈량 -11616
▁휴게소 -11617
▁보름 -11618
▁레오폴 -11619
▁안티오 -11620
▁ㅇㅕㅅㅓ -11621
▁넬슨 -11622
▁빙하 -11623
▁사치 -11624
▁소프 -11625
▁제단 -11626
▁천수 -11627
▁콜럼 -11628
▁new -11629
▁베이커 -11630
▁괌 -11631
▁단말 -11632
▁영덕 -11633
▁잠깐 -11634
▁군사력 -11635
▁너무나 -11636
▁대상자 -11637
▁멜버른 -11638
융합 -11639
▁규탄 -11640
▁남하 -11641
▁발동 -11642
▁수열 -11643
▁표정 -11644
▁산티아 -11645
▁메릴랜드 -11646
▁유클리드 -11647
▁컨테이너 -11648
US -11649
▁라미 -11650
▁번창 -11651
▁서면 -11652
▁선대 -11653
스탄불 -11654
▁1868 -11655
▁이스탄불 -11656
OT -11657
▁Or -11658
▁범행 -11659
▁얽히 -11660
▁일각 -11661
▁형편 -11662
▁회귀 -11663
▁OB -11664
▁과테 -11665
▁밝혀 -11666
▁양보 -11667
▁어파 -11668
▁할인 -11669
▁앙골라 -11670
▁요충지 -11671
▁과테말라 -11672
▁컨트롤러 -11673
▁냥 -11674
▁대인 -11675
▁종영 -11676
▁태후 -11677
▁피핀 -11678
티모어 -11679
▁핵융합 -11680
▁사이타마 -11681
oll -11682
▁군벌 -11683
▁사안 -11684
▁신입 -11685
▁사회민주당 -11686
▁동적 -11687
▁스캔들 -11688
▁오스틴 -11689
▁몬테네그로 -11690
▁급속히 -11691
▁노사 -11692
▁전수 -11693
▁라인업 -11694
▁우의정 -11695
▁겨루 -11696
▁충렬 -11697
▁파시즘 -11698
해자 -11699
▁농지 -11700
▁이바지 -11701
협회 -11702
▁객차 -11703
▁고트 -11704
▁사천 -11705
▁우월 -11706
펜하겐 -11707
▁밝혀내 -11708
▁주계열 -11709
▁폐기물 -11710
▁코펜하겐 -11711
▁노후 -11712
▁뒤이 -11713
▁버터 -11714
▁트이 -11715
▁기념일 -11716
▁프랜차 -11717
▁영월 -11718
▁오아 -11719
▁청도 -11720
히드 -11721
▁강행 -11722
▁배리 -11723
▁법관 -11724
▁장병 -11725
▁하의 -11726
웨이트 -11727
▁데려가 -11728
지리 -11729
▁부파 -11730
▁성산 -11731
▁영암 -11732
▁초안 -11733
▁항로 -11734
▁아케이드 -11735
▁사운드트랙 -11736
▁colspan -11737
▁교직 -11738
▁너머 -11739
▁다우 -11740
▁우왕 -11741
▁위촉 -11742
▁저조 -11743
▁독수리 -11744
▁무실점 -11745
▁커리어 -11746
▁히브리 -11747
당기 -11748
▁러일 -11749
▁식용 -11750
▁카세 -11751
▁320 -11752
▁LED -11753
▁ㅅㅕㄴ -11754
▁신주쿠 -11755
▁요하네스 -11756
▁프란시스코 -11757
▁양수 -11758
▁외과 -11759
▁외형 -11760
▁차선 -11761
ㄲㅡㅁ -11762
▁김옥균 -11763
▁베르나르 -11764
▁ㄱㅔㄲㅡㅁ -11765
▁찢 -11766
▁대청 -11767
▁사비 -11768
▁아유 -11769
▁이메 -11770
▁절제 -11771
▁청계 -11772
▁사이먼 -11773
▁좌의정 -11774
호란 -11775
▁교부 -11776
▁망치 -11777
▁복종 -11778
▁추서 -11779
▁피드 -11780
▁헌장 -11781
▁수요일 -11782
▁야마모토 -11783
▁암스테르담 -11784
▁프랜차이즈 -11785
▁밀레 -11786
▁은신 -11787
▁족보 -11788
▁종신 -11789
▁준장 -11790
▁증폭 -11791
▁카툰 -11792
▁end -11793
공주 -11794
우에 -11795
▁대덕 -11796
▁상국 -11797
▁소아 -11798
▁안무 -11799
▁치유 -11800
▁타리 -11801
▁효고현 -11802
바오 -11803
▁거처 -11804
▁끊기 -11805
▁우연 -11806
▁증오 -11807
▁치하 -11808
▁리믹스 -11809
디나비아 -11810
▁스칸디나비아 -11811
▁렛 -11812
▁슌 -11813
▁고온 -11814
▁금전 -11815
▁내분 -11816
▁대도 -11817
▁도상 -11818
▁스콜 -11819
▁위력 -11820
▁이항 -11821
▁정령 -11822
▁컨설 -11823
▁오일러 -11824
▁게오르크 -11825
▁DF -11826
▁성악 -11827
▁시비 -11828
▁직행 -11829
▁출동 -11830
토리코 -11831
▁니콜라스 -11832
▁여성주의 -11833
꼬리 -11834
▁네티 -11835
▁샤프 -11836
▁양대 -11837
▁전세 -11838
▁조영 -11839
▁타일 -11840
▁피치 -11841
▁자서전 -11842
▁산티아고 -11843
걸이 -11844
gin -11845
▁순차 -11846
▁슈테 -11847
▁자재 -11848
▁축산 -11849
▁출자 -11850
▁데이브 -11851
▁서해안 -11852
▁에른스트 -11853
amp -11854
▁by -11855
▁공안 -11856
▁국철 -11857
▁노아 -11858
▁동향 -11859
▁분사 -11860
▁습관 -11861
▁타로 -11862
아다니 -11863
▁로마자 -11864
▁브뤼셀 -11865
▁헤이안 -11866
▁쿠웨이트 -11867
▁놈 -11868
익스 -11869
▁TR -11870
▁압록 -11871
▁코스타리카 -11872
▁능동 -11873
▁문종 -11874
▁정몽 -11875
ㄹㅏㄷㅗ -11876
▁육군사관학교 -11877
LA -11878
단지 -11879
▁김윤 -11880
▁아흐 -11881
▁첼로 -11882
▁어웨이 -11883
▁천안시 -11884
니파 -11885
려들 -11886
셀러 -11887
어넣 -11888
▁거지 -11889
▁김선 -11890
▁리코 -11891
▁바울 -11892
▁시트콤 -11893
▁함경북도 -11894
▁푸에르토리코 -11895
계승 -11896
웍스 -11897
▁잔인 -11898
▁정반 -11899
▁호아 -11900
▁결과물 -11901
▁발전기 -11902
▁법조인 -11903
▁각료 -11904
▁모차 -11905
▁브릿 -11906
▁주성 -11907
▁주심 -11908
▁퍼즐 -11909
▁함흥 -11910
▁280 -11911
▁그만큼 -11912
▁윗부분 -11913
▁텔레콤 -11914
aw -11915
▁갯 -11916
▁결핵 -11917
▁긴밀 -11918
▁내무 -11919
▁데드 -11920
▁라카 -11921
▁서주 -11922
▁켄트 -11923
▁동맹국 -11924
▁서사시 -11925
▁위안부 -11926
▁유학자 -11927
▁복음주의 -11928
▁맬 -11929
▁온화 -11930
▁천마 -11931
▁칭송 -11932
▁코네 -11933
▁피크 -11934
▁포르노 -11935
▁화장품 -11936
▁루이지애나 -11937
▁늪 -11938
▁수량 -11939
▁이아 -11940
▁전락 -11941
▁점거 -11942
▁짐승 -11943
▁폐렴 -11944
▁펠릭스 -11945
▁문무 -11946
▁박성 -11947
▁백악 -11948
▁이우 -11949
▁전학 -11950
▁측량 -11951
▁편향 -11952
▁흡사 -11953
▁203 -11954
▁IOC -11955
▁장로교 -11956
▁1893 -11957
북구 -11958
▁Fe -11959
▁김승 -11960
▁리튬 -11961
▁배드 -11962
▁유족 -11963
▁정재 -11964
▁차츰 -11965
▁톰슨 -11966
▁학장 -11967
▁후유 -11968
▁가고시마 -11969
gr -11970
▁영천 -11971
▁원활 -11972
▁척도 -11973
▁한번 -11974
퍼레이션 -11975
▁이탈리아어 -11976
게임 -11977
나기 -11978
▁이황 -11979
▁집착 -11980
▁천천 -11981
▁축전 -11982
▁해왕 -11983
▁철저히 -11984
OW -11985
세유 -11986
▁le -11987
▁배양 -11988
▁생리 -11989
▁심포 -11990
▁하타 -11991
▁가라앉 -11992
▁교육자 -11993
▁민병대 -11994
▁부르고 -11995
▁해안가 -11996
▁탄자니아 -11997
▁고집 -11998
▁선인 -11999
▁소대 -12000
▁조제 -12001
▁트리오 -12002
▁마이크로 -12003
les -12004
▁Mo -12005
▁분단 -12006
▁접종 -12007
▁충무 -12008
로이드 -12009
▁도자기 -12010
▁로베르 -12011
독립 -12012
상시 -12013
ung -12014
▁관우 -12015
▁레프 -12016
▁우두 -12017
라이드 -12018
▁데일리 -12019
화학 -12020
▁김치 -12021
▁도우 -12022
▁천천히 -12023
▁Rock -12024
몬트 -12025
▁격려 -12026
▁금동 -12027
▁대종 -12028
▁톱니 -12029
▁하급 -12030
▁헤로 -12031
▁노미야 -12032
▁서초구 -12033
▁아라곤 -12034
▁유적지 -12035
▁Comp -12036
▁톡 -12037
▁간직 -12038
▁림프 -12039
▁박상 -12040
▁조니 -12041
▁한문 -12042
▁후쿠오카현 -12043
▁NP -12044
▁과시 -12045
▁관성 -12046
▁김천 -12047
▁한큐 -12048
▁비스타 -12049
▁아우르 -12050
▁불경 -12051
▁앤디 -12052
▁자진 -12053
▁주세 -12054
▁탈취 -12055
▁헌터 -12056
▁녹색당 -12057
티에 -12058
eth -12059
▁마타 -12060
▁미성 -12061
▁칼슘 -12062
▁동맹군 -12063
▁컬렉션 -12064
▁플랑크 -12065
▁덥 -12066
레드 -12067
▁서스 -12068
▁아츠 -12069
▁전미 -12070
▁Univers -12071
▁핏 -12072
▁버섯 -12073
▁애인 -12074
▁장녀 -12075
▁Car -12076
업자 -12077
▁끓이 -12078
▁도출 -12079
▁심부 -12080
▁강화도 -12081
▁도야마 -12082
▁스포르 -12083
익스피어 -12084
▁레인저스 -12085
▁갚 -12086
▁버러 -12087
▁아메 -12088
▁에마 -12089
▁불계승 -12090
▁픽처스 -12091
▁미나모토 -12092
▁셰익스피어 -12093
들러 -12094
▁격하 -12095
▁구금 -12096
▁노랑 -12097
▁라흐 -12098
▁사귀 -12099
▁오하 -12100
루이스 -12101
▁TBS -12102
▁ㄹㅓㄴ -12103
▁초콜릿 -12104
▁촐 -12105
▁Am -12106
▁도이 -12107
▁막판 -12108
▁시속 -12109
▁심상 -12110
▁발사체 -12111
▁우울증 -12112
▁케이크 -12113
▁도카이도 -12114
IR -12115
▁공양 -12116
▁라즈 -12117
▁바비 -12118
▁휴양 -12119
▁명인 -12120
▁소사 -12121
▁Rec -12122
▁게오르 -12123
▁참모총장 -12124
oth -12125
▁굳히 -12126
▁까마 -12127
▁미츠 -12128
▁비지 -12129
▁월트 -12130
▁점검 -12131
▁페더 -12132
▁황산 -12133
▁후하 -12134
▁고려대 -12135
▁로스쿨 -12136
▁부르고뉴 -12137
태평 -12138
▁AB -12139
▁기쁨 -12140
▁에로 -12141
▁현판 -12142
▁230 -12143
▁순양함 -12144
▁인공위성 -12145
▁반동 -12146
▁유영 -12147
▁카레 -12148
▁GNU -12149
▁베르타 -12150
▁스탠리 -12151
▁from -12152
▁에스페란토 -12153
▁플로리다주 -12154
트르 -12155
폭탄 -12156
▁구치 -12157
▁대차 -12158
▁Sup -12159
▁글래스 -12160
▁상관없이 -12161
▁핼 -12162
국적 -12163
▁강진 -12164
▁낚시 -12165
▁노프 -12166
▁당뇨 -12167
▁대주 -12168
▁배역 -12169
▁상정 -12170
▁조롱 -12171
▁특사 -12172
▁물려주 -12173
▁가와사키 -12174
▁견고 -12175
▁귀속 -12176
▁무단 -12177
▁사상가 -12178
▁서바이 -12179
ublic -12180
▁가르시아 -12181
▁러시아군 -12182
▁구독 -12183
▁마트 -12184
▁심문 -12185
▁용품 -12186
▁운임 -12187
▁향기 -12188
민스터 -12189
▁ㄹㅏㅁ -12190
▁밀려나 -12191
▁마르세유 -12192
▁중앙은행 -12193
▁슈타 -12194
▁이범 -12195
▁청량 -12196
▁파편 -12197
▁로빈슨 -12198
▁지바현 -12199
▁프리스 -12200
▁Do -12201
▁미아 -12202
▁발목 -12203
▁스킴 -12204
▁피사 -12205
▁흥분 -12206
▁휘말리 -12207
▁IV -12208
▁가부 -12209
▁대진 -12210
▁스투 -12211
▁재차 -12212
▁기업가 -12213
▁수나라 -12214
그마 -12215
바리 -12216
▁꾸리 -12217
▁끼우 -12218
▁동종 -12219
▁배기 -12220
▁청송 -12221
▁1888 -12222
유사 -12223
헤드 -12224
▁네모 -12225
▁대접 -12226
▁울릉 -12227
▁유포 -12228
▁쇠고기 -12229
▁펠리페 -12230
▁율리우스 -12231
▁Su -12232
▁시우 -12233
▁페오 -12234
▁이바라 -12235
▁노스캐롤라이나 -12236
▁닉슨 -12237
▁명부 -12238
▁온대 -12239
▁경계선 -12240
▁세비야 -12241
▁수차례 -12242
▁하이퍼 -12243
▁매달 -12244
▁물결 -12245
▁백자 -12246
▁성기 -12247
▁국제선 -12248
▁로이드 -12249
▁ㄷㅏㅁㅕㄴㅅㅓ -12250
둘기 -12251
▁리차 -12252
▁사커 -12253
▁아와 -12254
▁카야 -12255
▁애덤스 -12256
▁1892 -12257
▁박테리아 -12258
▁Sw -12259
▁붕어 -12260
▁사키 -12261
▁산수 -12262
▁웃음 -12263
▁재발 -12264
▁지난 -12265
▁다이빙 -12266
▁케이트 -12267
▁평안도 -12268
▁허드슨 -12269
▁깁 -12270
▁푹 -12271
▁ar -12272
▁데미 -12273
▁메틸 -12274
▁시문 -12275
▁입헌 -12276
▁제철 -12277
▁쫓아내 -12278
▁우에스기 -12279
▁공법 -12280
▁사변 -12281
▁어의 -12282
▁에바 -12283
▁유무 -12284
▁제창 -12285
▁프로모 -12286
연수 -12287
홍색 -12288
▁이봉 -12289
▁주먹 -12290
▁펠트 -12291
▁대전차 -12292
▁산스크 -12293
▁소학교 -12294
▁자라나 -12295
▁절도사 -12296
▁산스크리트 -12297
▁납부 -12298
▁모던 -12299
▁새뮤 -12300
▁연회 -12301
▁원유 -12302
▁코사 -12303
▁다카라 -12304
▁활동가 -12305
AI -12306
▁고스 -12307
▁나뭇 -12308
▁낙양 -12309
▁농축 -12310
▁재앙 -12311
▁조선왕 -12312
▁펩 -12313
자동 -12314
▁계량 -12315
▁미식 -12316
▁산청 -12317
미디어 -12318
▁대공국 -12319
▁대명사 -12320
▁문자열 -12321
▁ㅇㅡㄹㅕㄴㅡㄴ -12322
AE -12323
비크 -12324
암리 -12325
▁강성 -12326
▁군데 -12327
▁옥타 -12328
▁위계 -12329
▁자립 -12330
▁해병 -12331
▁볼로냐 -12332
▁스탠드 -12333
▁스테판 -12334
▁아브라 -12335
▁차세대 -12336
다오 -12337
티노 -12338
▁공시 -12339
▁니켈 -12340
▁라드 -12341
▁순례 -12342
▁자코 -12343
▁공방전 -12344
▁관현악 -12345
▁데스크톱 -12346
▁소동 -12347
▁필하 -12348
▁하임 -12349
▁더블린 -12350
▁레이디 -12351
▁지리학 -12352
▁1876 -12353
보리 -12354
▁wh -12355
▁선양 -12356
▁애초 -12357
▁직계 -12358
▁논리학 -12359
▁북조선 -12360
▁사간원 -12361
▁굶 -12362
▁씻 -12363
사태 -12364
▁CG -12365
▁불사 -12366
▁생모 -12367
▁장래 -12368
▁중고 -12369
▁침례 -12370
로니아 -12371
▁USB -12372
▁세네갈 -12373
▁앤서니 -12374
▁후원자 -12375
네트 -12376
▁완도 -12377
▁조개 -12378
▁축성 -12379
▁고려사 -12380
▁성매매 -12381
▁페르난도 -12382
▁프레임워크 -12383
ah -12384
▁맥아 -12385
▁반주 -12386
▁복싱 -12387
▁손녀 -12388
▁이나 -12389
▁토이 -12390
▁통폐 -12391
▁사단장 -12392
▁올리버 -12393
▁1866 -12394
▁가면라이더 -12395
▁뱃 -12396
▁노랗 -12397
▁이산 -12398
▁ㅇㅡㅅㅣ -12399
▁알렉산드로스 -12400
광성 -12401
▁간혹 -12402
▁로브 -12403
▁세레 -12404
▁소용 -12405
▁알폰 -12406
▁채색 -12407
▁전주시 -12408
▁1886 -12409
▁베네딕토 -12410
▁프린스턴 -12411
너드 -12412
로쿠 -12413
▁대금 -12414
▁미미 -12415
▁발의 -12416
▁수력 -12417
▁전권 -12418
▁정진 -12419
▁포탄 -12420
르타뉴 -12421
▁260 -12422
▁사절단 -12423
▁서기관 -12424
▁헤라클 -12425
▁브르타뉴 -12426
▁펫 -12427
▁군관 -12428
▁두각 -12429
▁송환 -12430
▁Gre -12431
▁보좌관 -12432
▁덱 -12433
다보 -12434
뮬러 -12435
▁거룩 -12436
▁면모 -12437
▁부양 -12438
▁죄수 -12439
▁파파 -12440
▁펴내 -12441
▁장제스 -12442
네임 -12443
분열 -12444
▁저우 -12445
▁교구장 -12446
▁도르트 -12447
▁구스타프 -12448
▁베이시스트 -12449
▁웨스트민스터 -12450
EST -12451
▁co -12452
▁당황 -12453
▁댓글 -12454
▁아디 -12455
▁앨리 -12456
▁조소 -12457
▁풍습 -12458
▁생리학 -12459
▁이즈미 -12460
▁카운트 -12461
▁집행유예 -12462
▁인플레이션 -12463
철수 -12464
▁너스 -12465
▁바시 -12466
▁번갈 -12467
▁비우 -12468
▁살라 -12469
▁원상 -12470
리카락 -12471
▁게시판 -12472
▁브래드 -12473
▁조나라 -12474
▁드미트리 -12475
▁머리카락 -12476
▁얼룩 -12477
▁잘리 -12478
▁덩어리 -12479
▁바이어 -12480
▁꽂 -12481
▁뮐 -12482
큐어 -12483
▁과연 -12484
▁마린 -12485
▁부류 -12486
▁유능 -12487
▁임계 -12488
▁초전 -12489
▁파커 -12490
▁펀드 -12491
▁합천 -12492
▁민영화 -12493
▁코소보 -12494
레시 -12495
코르 -12496
▁서예 -12497
▁신진 -12498
▁약점 -12499
▁에리 -12500
▁270 -12501
▁새뮤얼 -12502
▁스테인 -12503
▁통폐합 -12504
▁페미니 -12505
▁Tour -12506
직경 -12507
▁긴키 -12508
▁단조 -12509
▁마나 -12510
▁본체 -12511
▁엘런 -12512
▁현과 -12513
▁간사이 -12514
우회 -12515
ron -12516
▁깃털 -12517
▁위패 -12518
▁이호 -12519
▁조현 -12520
▁퇴위 -12521
▁경영학 -12522
▁독립군 -12523
▁시직경 -12524
▁프란치스코 -12525
▁펭 -12526
▁경무 -12527
▁나름 -12528
▁도성 -12529
▁도약 -12530
▁아자 -12531
▁유다 -12532
▁보살상 -12533
▁삼각주 -12534
▁1887 -12535
▁브리티시 -12536
▁도하 -12537
▁수하 -12538
▁음운 -12539
▁일진 -12540
▁제르 -12541
▁포츠 -12542
▁프루 -12543
꿈치 -12544
▁모라 -12545
▁박수 -12546
▁산물 -12547
▁표하 -12548
▁강서구 -12549
▁금나라 -12550
▁사쓰마 -12551
▁서포터 -12552
▁역사학 -12553
▁주니치 -12554
▁축구팀 -12555
▁마르쿠스 -12556
ble -12557
러뜨리 -12558
라호 -12559
슈타 -12560
쓰기 -12561
▁동창 -12562
▁박자 -12563
land -12564
▁Wii -12565
▁근거지 -12566
▁이어주 -12567
▁화요일 -12568
지오 -12569
ave -12570
▁ML -12571
▁고창 -12572
▁도제 -12573
▁망하 -12574
▁물류 -12575
▁배척 -12576
▁중개 -12577
▁출혈 -12578
▁편안 -12579
▁행방 -12580
▁도미니카 -12581
왕후 -12582
▁KB -12583
▁Up -12584
▁무수 -12585
▁악곡 -12586
▁여타 -12587
▁오산 -12588
▁자궁 -12589
▁코호 -12590
▁타구 -12591
▁펠로 -12592
▁용의자 -12593
▁유전학 -12594
▁1861 -12595
▁모차르트 -12596
▁프리미엄 -12597
▁Dream -12598
비안 -12599
제비 -12600
클라 -12601
하임 -12602
▁과잉 -12603
▁레트 -12604
▁지아 -12605
19 -12606
▁단거리 -12607
▁베이비 -12608
▁부분군 -12609
▁쏟아지 -12610
▁Life -12611
▁재단법인 -12612
코타 -12613
▁it -12614
▁올레 -12615
▁유머 -12616
▁유타 -12617
▁직사 -12618
▁해결책 -12619
▁클레멘스 -12620
▁버크 -12621
▁형용 -12622
짜기 -12623
▁SV -12624
▁광선 -12625
▁급히 -12626
▁습득 -12627
▁집정관 -12628
▁1864 -12629
▁볼티모어 -12630
▁불러들이 -12631
▁세분 -12632
▁신세계 -12633
라르 -12634
▁가닥 -12635
▁슬램 -12636
▁특기 -12637
▁아무리 -12638
▁모닝 -12639
▁수이 -12640
▁오대 -12641
▁완결 -12642
▁장애물 -12643
▁황해도 -12644
▁석가모니 -12645
▁카르타고 -12646
ult -12647
▁기밀 -12648
▁불분 -12649
▁왕관 -12650
▁위시 -12651
▁익명 -12652
솔리니 -12653
▁후세인 -12654
DA -12655
▁몰두 -12656
▁장전 -12657
▁천지 -12658
▁환관 -12659
▁당선자 -12660
▁데이빗 -12661
▁홈경기 -12662
▁SH -12663
▁교지 -12664
▁모국 -12665
▁사하 -12666
▁세무 -12667
▁아쉽 -12668
▁오메 -12669
▁외환 -12670
▁정예 -12671
▁공연장 -12672
▁바로크 -12673
▁음악원 -12674
▁좌표계 -12675
▁프랑코 -12676
▁스트리밍 -12677
콘신 -12678
▁구문 -12679
▁꺼리 -12680
▁라시 -12681
▁마구 -12682
▁빅뱅 -12683
▁사내 -12684
▁슬프 -12685
▁승단 -12686
▁양현 -12687
▁뛰어넘 -12688
▁백악기 -12689
▁코스트 -12690
▁위스콘신 -12691
즐리 -12692
플린 -12693
▁내포 -12694
▁리트 -12695
▁에두 -12696
▁페스 -12697
▁1850 -12698
▁싹 -12699
디슨 -12700
▁RT -12701
▁경건 -12702
▁지면 -12703
▁포화 -12704
▁다카라즈카 -12705
동자 -12706
열차 -12707
▁TC -12708
▁ㄴㅛ -12709
▁철강 -12710
▁혼혈 -12711
▁홀딩 -12712
▁다행 -12713
▁무자 -12714
▁발톱 -12715
▁촛불 -12716
▁파직 -12717
▁홍성 -12718
▁남베트남 -12719
▁레버 -12720
▁실각 -12721
▁여건 -12722
▁착하 -12723
▁평탄 -12724
▁개정안 -12725
▁모나코 -12726
ational -12727
▁렙 -12728
orm -12729
▁만점 -12730
▁복위 -12731
▁암모 -12732
▁허블 -12733
▁네티즌 -12734
▁휘두르 -12735
ition -12736
▁마을버스 -12737
▁고모 -12738
▁스모 -12739
▁어우 -12740
▁오일 -12741
▁잔디 -12742
▁추존 -12743
▁카이로 -12744
▁컨텐츠 -12745
▁1881 -12746
EP -12747
▁승하 -12748
▁증세 -12749
▁보너스 -12750
▁토트넘 -12751
▁건네 -12752
▁공판 -12753
▁에반 -12754
▁접합 -12755
▁쿼크 -12756
▁토목 -12757
▁푸아 -12758
▁하얀 -12759
▁히토 -12760
바도르 -12761
▁바람직 -12762
▁생성물 -12763
▁참의원 -12764
▁행정동 -12765
브웨 -12766
▁워킹 -12767
▁자릿 -12768
▁홈즈 -12769
▁가해자 -12770
▁사나이 -12771
▁Music -12772
니오 -12773
▁구례 -12774
▁리에 -12775
▁백업 -12776
▁부풀 -12777
▁예의 -12778
▁재결 -12779
▁짐바 -12780
▁노동력 -12781
▁보안법 -12782
▁사들이 -12783
▁재판관 -12784
▁if -12785
▁객원 -12786
▁군세 -12787
▁근래 -12788
▁도산 -12789
▁마요 -12790
▁요금소 -12791
ton -12792
▁en -12793
▁관내 -12794
▁삼척 -12795
▁쓰루 -12796
▁황자 -12797
▁아카이 -12798
▁재판부 -12799
▁미네소타 -12800
예술 -12801
▁AG -12802
▁구획 -12803
▁눈치 -12804
▁요괴 -12805
▁잠실 -12806
▁차수 -12807
▁카와 -12808
▁대교구 -12809
▁대표단 -12810
▁1830 -12811
▁루스벨트 -12812
▁크리에이 -12813
▁계보 -12814
▁괘불 -12815
▁뒤늦 -12816
▁방공 -12817
▁침대 -12818
▁무작위 -12819
▁유니버스 -12820
▁돗 -12821
린트 -12822
▁고하 -12823
▁남조 -12824
▁더하 -12825
▁매진 -12826
▁민물 -12827
▁아타 -12828
▁왕성 -12829
▁이력 -12830
▁자판 -12831
라호마 -12832
▁압록강 -12833
▁주나라 -12834
른베르크 -12835
▁오클라호마 -12836
렌스 -12837
▁산기 -12838
▁승지 -12839
▁헌납 -12840
▁로맨틱 -12841
▁합창단 -12842
▁도라에몽 -12843
▁컴파일러 -12844
뛰기 -12845
▁강세 -12846
▁목욕 -12847
▁뷰티 -12848
▁전리 -12849
▁판관 -12850
▁관련자 -12851
▁외무부 -12852
▁장난감 -12853
▁닛산 -12854
▁동차 -12855
▁말단 -12856
▁오우 -12857
▁패권 -12858
▁편하 -12859
▁화성시 -12860
아메리카 -12861
▁소라 -12862
▁이별 -12863
▁익산 -12864
▁재벌 -12865
▁전교 -12866
▁코난 -12867
ject -12868
▁iOS -12869
▁XP -12870
▁관용 -12871
▁러닝 -12872
▁벌레 -12873
▁세간 -12874
▁스몰 -12875
▁이누 -12876
▁현미 -12877
▁마르셀 -12878
▁야구단 -12879
화경 -12880
▁경도 -12881
▁스기 -12882
▁아편 -12883
▁쿠로 -12884
▁돋보이 -12885
라이어티 -12886
▁버라이어티 -12887
▁헤라클레스 -12888
▁Ed -12889
▁다비 -12890
▁미상 -12891
▁발포 -12892
▁별장 -12893
▁정황 -12894
▁파주 -12895
▁까마귀 -12896
▁반대파 -12897
▁여학생 -12898
▁1872 -12899
평리 -12900
▁경매 -12901
▁남송 -12902
▁부전 -12903
▁스윙 -12904
▁엿보 -12905
▁감리교 -12906
▁해석학 -12907
▁세르게이 -12908
ION -12909
▁딸리 -12910
▁시원 -12911
▁알맞 -12912
▁조심 -12913
▁종업 -12914
▁찍히 -12915
▁파열 -12916
▁팔작 -12917
▁불분명 -12918
▁이메일 -12919
▁낭만주의 -12920
▁무솔리니 -12921
▁이시카와 -12922
▁꿰 -12923
▁an -12924
▁신봉 -12925
▁챙기 -12926
▁라치오 -12927
▁Open -12928
▁트레이닝 -12929
께끼 -12930
림사 -12931
비오 -12932
타입 -12933
▁금고 -12934
▁기고 -12935
▁김희 -12936
▁당진 -12937
▁등등 -12938
▁레비 -12939
▁발자 -12940
▁배트 -12941
▁삭스 -12942
▁의례 -12943
▁조경 -12944
▁흑백 -12945
슬라프 -12946
▁피닉스 -12947
▁수수께끼 -12948
▁루나 -12949
▁마티 -12950
▁애슬 -12951
▁체하 -12952
▁농어촌 -12953
달마 -12954
▁몸돌 -12955
▁양조 -12956
▁용사 -12957
▁이은 -12958
▁켄터 -12959
▁트란 -12960
▁750 -12961
▁다비드 -12962
▁라이스 -12963
▁모멘트 -12964
▁베일 -12965
▁복직 -12966
▁승상 -12967
▁여호 -12968
▁인제 -12969
▁종묘 -12970
▁중랑 -12971
브리드 -12972
▁롬바르 -12973
▁유라시아 -12974
▁엡 -12975
나파 -12976
덕왕 -12977
▁BL -12978
▁te -12979
▁교동 -12980
▁꼬마 -12981
▁양면 -12982
▁필연 -12983
태평양 -12984
▁대중교통 -12985
▁대한항공 -12986
▁교제 -12987
▁기통 -12988
▁두어 -12989
▁야망 -12990
▁원동 -12991
▁의용 -12992
▁주고 -12993
▁콘티 -12994
ㅌㅇㅣ -12995
▁범죄자 -12996
▁센다이 -12997
▁ㄱㅏㅌㅇㅣ -12998
▁부다페스트 -12999
어드 -13000
▁그란 -13001
▁선율 -13002
▁음주 -13003
▁청년회 -13004
▁부르주아 -13005
더지 -13006
데자 -13007
ics -13008
▁경량 -13009
▁레아 -13010
▁모란 -13011
▁변종 -13012
▁샤이 -13013
▁진흙 -13014
▁캐피 -13015
▁햇빛 -13016
▁허목 -13017
▁Don -13018
▁아이콘 -13019
▁초록색 -13020
▁하얀색 -13021
▁화학자 -13022
데자네이 -13023
ru -13024
쿠니 -13025
▁도봉 -13026
▁발산 -13027
▁복역 -13028
▁브렌 -13029
▁오스트리 -13030
▁튼 -13031
번에 -13032
클럽 -13033
▁메우 -13034
▁발하 -13035
▁생도 -13036
▁지경 -13037
▁친밀 -13038
▁격투기 -13039
▁세군다 -13040
▁호크스 -13041
▁하이브리드 -13042
ier -13043
▁가든 -13044
▁탄산 -13045
▁Sm -13046
▁넥센 -13047
▁대강 -13048
▁반죽 -13049
▁순항 -13050
▁오트 -13051
▁이례 -13052
▁장쑤 -13053
▁투하 -13054
▁티모 -13055
▁계승자 -13056
▁다시금 -13057
▁파충류 -13058
▁1863 -13059
▁도르트문트 -13060
바인 -13061
▁Ab -13062
▁가독 -13063
▁배향 -13064
▁보정 -13065
▁슈고 -13066
▁옹주 -13067
▁작품상 -13068
▁탐험가 -13069
▁1865 -13070
▁"- -13071
▁납작 -13072
▁당과 -13073
▁매스 -13074
▁파기 -13075
리아스 -13076
▁개체군 -13077
▁밀가루 -13078
▁박영효 -13079
▁항아리 -13080
매김 -13081
워즈 -13082
▁과다 -13083
▁닌자 -13084
▁단국 -13085
▁봉황 -13086
▁피셔 -13087
▁휩싸 -13088
▁기획사 -13089
▁시간대 -13090
▁타임즈 -13091
▁쵸 -13092
리쿠 -13093
▁덴쇼 -13094
▁이니 -13095
▁작년 -13096
▁편제 -13097
▁피카 -13098
▁난이도 -13099
▁HTML -13100
▁교통사고 -13101
단위 -13102
루크 -13103
▁왓슨 -13104
▁코마 -13105
▁탐정 -13106
▁페라 -13107
▁앞세우 -13108
▁유전체 -13109
▁챌린저 -13110
▁공군기지 -13111
데자네이루 -13112
▁리우데자네이루 -13113
▁거꾸 -13114
▁조공 -13115
▁청문 -13116
▁클릭 -13117
▁고성군 -13118
▁승정원 -13119
▁1891 -13120
▁오카야마 -13121
▁Night -13122
친왕 -13123
▁살짝 -13124
▁잠기 -13125
▁조시 -13126
▁발기인 -13127
▁우간다 -13128
리야 -13129
ode -13130
▁곱셈 -13131
▁대의 -13132
▁어촌 -13133
▁경복궁 -13134
▁유니언 -13135
ool -13136
▁AL -13137
▁곡면 -13138
▁란스 -13139
▁처방 -13140
▁취향 -13141
▁아이디얼 -13142
▁자리매김 -13143
▁경마 -13144
▁고난 -13145
▁구슬 -13146
▁메츠 -13147
▁애완 -13148
▁태아 -13149
▁안산시 -13150
▁1873 -13151
미쓰 -13152
훈장 -13153
▁대목 -13154
▁미인 -13155
▁법전 -13156
▁철종 -13157
▁포대 -13158
▁한창 -13159
▁ret -13160
▁선제골 -13161
▁앤드류 -13162
▁여진족 -13163
▁조선소 -13164
▁켄터키 -13165
▁쩔 -13166
▁박진 -13167
▁완비 -13168
▁요즘 -13169
▁직관 -13170
올로기 -13171
▁베스트셀러 -13172
▁이데올로기 -13173
TE -13174
쿠르 -13175
▁경지 -13176
▁벌리 -13177
▁열렬 -13178
▁조장 -13179
▁카슈 -13180
▁킹스 -13181
▁승용차 -13182
▁세계유산 -13183
▁짐바브웨 -13184
타스 -13185
ise -13186
▁굴복 -13187
▁내재 -13188
▁두텁 -13189
▁루즈 -13190
▁배아 -13191
▁충당 -13192
▁픽셀 -13193
▁해킹 -13194
▁와이드 -13195
QL -13196
UC -13197
▁-- -13198
▁고마 -13199
▁구강 -13200
▁반점 -13201
▁쇼크 -13202
▁입시 -13203
▁재고 -13204
▁정명 -13205
▁후미 -13206
▁다국적 -13207
▁받침돌 -13208
▁수시로 -13209
▁자유형 -13210
▁려 -13211
스레 -13212
▁계좌 -13213
▁상파 -13214
▁시진 -13215
▁어는 -13216
▁여대 -13217
이스케 -13218
▁단자 -13219
▁리브 -13220
▁부실 -13221
▁부추 -13222
▁코뮌 -13223
▁혈압 -13224
▁몰도바 -13225
▁발가락 -13226
▁포항시 -13227
ai -13228
▁PM -13229
▁걸작 -13230
▁도도 -13231
▁매립 -13232
▁모함 -13233
▁촉발 -13234
▁노르드 -13235
▁릴레이 -13236
▁ㅇㅕㄷㅗ -13237
▁온타리오주 -13238
▁샨 -13239
린더 -13240
▁NS -13241
▁기쁘 -13242
▁마모 -13243
▁공통점 -13244
▁그나마 -13245
▁제너럴 -13246
▁테무르 -13247
동맹 -13248
che -13249
▁과격 -13250
▁리키 -13251
▁비키 -13252
▁자켓 -13253
▁착취 -13254
▁필두 -13255
stem -13256
▁국민회 -13257
▁MA -13258
▁급하 -13259
▁등단 -13260
▁반항 -13261
▁신대 -13262
▁외상 -13263
▁위법 -13264
▁토로 -13265
▁튼튼 -13266
플렉스 -13267
▁시티즌 -13268
▁샵 -13269
레반 -13270
▁볼넷 -13271
▁입술 -13272
▁합금 -13273
▁매달리 -13274
▁백악관 -13275
▁제프리 -13276
▁팔작지붕 -13277
▁Black -13278
무제 -13279
▁계엄 -13280
▁리자 -13281
▁신의 -13282
▁야심 -13283
▁헤어 -13284
▁현무 -13285
부아르 -13286
합중국 -13287
▁괜 -13288
▁국호 -13289
▁양궁 -13290
▁인위 -13291
▁최장 -13292
▁통지 -13293
▁페인 -13294
▁하스 -13295
▁Can -13296
▁공식전 -13297
▁슬로건 -13298
▁종업원 -13299
▁야쿠르트 -13300
성경 -13301
▁교서 -13302
▁극찬 -13303
▁라크 -13304
▁분경 -13305
▁불로 -13306
▁유태 -13307
▁해시 -13308
▁김성수 -13309
70 -13310
바지 -13311
세다 -13312
▁당당 -13313
▁라면 -13314
▁에치 -13315
▁연화 -13316
▁적발 -13317
▁조준 -13318
▁체내 -13319
▁키즈 -13320
ower -13321
▁Good -13322
NG -13323
▁믈 -13324
▁켜 -13325
킨슨 -13326
▁간판 -13327
▁병단 -13328
▁서위 -13329
▁아뢰 -13330
▁용감 -13331
▁스테이트 -13332
▁구시 -13333
▁버펄 -13334
▁산책 -13335
▁거꾸로 -13336
▁삼국유사 -13337
▁이바라키 -13338
▁section -13339
▁콧 -13340
▁광배 -13341
▁네임 -13342
▁병과 -13343
▁소작 -13344
▁양양 -13345
▁을사 -13346
▁이강 -13347
▁토유 -13348
▁헌병 -13349
선거구 -13350
▁550 -13351
▁다마스 -13352
▁트로트 -13353
▁ㄹㅣㄹㅏ -13354
▁무로마치 -13355
▁머니 -13356
▁문정 -13357
▁부에 -13358
▁우마 -13359
▁파랑 -13360
타나베 -13361
▁하반기 -13362
▁아비달마 -13363
▁피츠버그 -13364
상어 -13365
▁qu -13366
▁증강 -13367
▁터빈 -13368
▁705 -13369
▁Let -13370
▁댈 -13371
▁나탈 -13372
▁무고 -13373
▁아델 -13374
▁앵커 -13375
▁연행 -13376
▁주저 -13377
▁캐논 -13378
▁지자체 -13379
▁취리히 -13380
▁1862 -13381
▁페르디난트 -13382
▁q -13383
티야 -13384
펠러 -13385
▁산신 -13386
▁오즈 -13387
▁흔들 -13388
▁반정부 -13389
▁캐스트 -13390
▁1867 -13391
▁El -13392
▁MM -13393
▁국부 -13394
▁무도 -13395
▁진언 -13396
▁진원 -13397
▁채굴 -13398
▁피어 -13399
▁현도 -13400
스코트 -13401
▁650 -13402
▁앨버트 -13403
▁폼페이 -13404
▁삐 -13405
진구 -13406
ank -13407
▁독주 -13408
▁모반 -13409
▁서지 -13410
▁황폐 -13411
드라마 -13412
▁크루즈 -13413
▁아오모리 -13414
▁이노우에 -13415
▁코호몰로지 -13416
▁광자 -13417
▁농성 -13418
▁맞춤 -13419
▁타도 -13420
▁미카엘 -13421
▁스테이 -13422
레타리아 -13423
해살이풀 -13424
▁미합중국 -13425
▁프롤레타리아 -13426
대전 -13427
방군 -13428
정사 -13429
▁AI -13430
▁경은 -13431
▁조어 -13432
▁증발 -13433
▁해지 -13434
▁IMF -13435
▁연주회 -13436
▁용산구 -13437
▁자외선 -13438
▁온건 -13439
▁투신 -13440
▁활자 -13441
ings -13442
▁스코어 -13443
▁알폰소 -13444
곡면 -13445
▁가비 -13446
▁북벌 -13447
▁세단 -13448
▁송진 -13449
▁수퍼 -13450
▁열쇠 -13451
▁전멸 -13452
▁흡연 -13453
▁경희대 -13454
▁서두르 -13455
조리 -13456
▁대담 -13457
▁사교 -13458
▁심정 -13459
세우스 -13460
▁변광성 -13461
▁증조부 -13462
리언 -13463
▁스킬 -13464
▁손잡이 -13465
▁언론사 -13466
▁엑스포 -13467
▁조선왕조 -13468
포타 -13469
▁AU -13470
▁광업 -13471
▁완수 -13472
▁잔존 -13473
▁조서 -13474
▁국민학교 -13475
DS -13476
고르 -13477
▁노브 -13478
▁연달 -13479
▁증식 -13480
절도사 -13481
▁사이타마현 -13482
투르 -13483
활약 -13484
▁Ac -13485
▁군자 -13486
▁양군 -13487
▁예종 -13488
▁옥시 -13489
▁유구 -13490
▁접전 -13491
▁사보이 -13492
▁연출가 -13493
▁타이탄 -13494
▁캣 -13495
렐라 -13496
참찬 -13497
▁걸프 -13498
▁엘라 -13499
▁MSL -13500
▁레인저 -13501
포타미아 -13502
▁신한은행 -13503
▁메소포타미아 -13504
센터 -13505
▁LS -13506
▁UC -13507
▁보직 -13508
▁장신 -13509
▁저축 -13510
▁쿠라 -13511
▁노르만 -13512
▁맹활약 -13513
▁6000 -13514
▁빠져나가 -13515
▁라이프치히 -13516
▁썩 -13517
▁기묘 -13518
▁성수 -13519
▁씌우 -13520
▁온두 -13521
▁위헌 -13522
▁처치 -13523
▁캐치 -13524
▁코모 -13525
▁키릴 -13526
▁페드로 -13527
▁온두라스 -13528
북면 -13529
lar -13530
▁치이 -13531
▁푸드 -13532
▁횡령 -13533
▁곁들이 -13534
▁대리석 -13535
▁사무국 -13536
비언 -13537
인구 -13538
▁국력 -13539
▁꽃잎 -13540
▁나사 -13541
▁처장 -13542
▁감염증 -13543
▁일본식 -13544
▁출입문 -13545
▁편집장 -13546
▁궐 -13547
▁낡 -13548
▁-& -13549
▁간결 -13550
▁상선 -13551
▁서한 -13552
▁충칭 -13553
▁기원후 -13554
▁다이노스 -13555
디언 -13556
▁변증 -13557
▁엘레 -13558
▁오보 -13559
▁조석 -13560
▁협동조합 -13561
tr -13562
▁강호 -13563
▁동탁 -13564
▁버진 -13565
▁세토 -13566
▁신해 -13567
▁1878 -13568
▁미나모토노 -13569
ky -13570
할린 -13571
▁루피 -13572
▁유림 -13573
▁유망 -13574
▁차림 -13575
▁마그네 -13576
▁부여군 -13577
▁신기록 -13578
▁치료제 -13579
▁컴파일 -13580
▁타타르 -13581
중추부사 -13582
▁프로모션 -13583
▁밋 -13584
사화 -13585
위치 -13586
▁Qu -13587
▁동자 -13588
▁변모 -13589
▁스톰 -13590
▁시역 -13591
▁작중 -13592
rist -13593
▁갈아타 -13594
▁건륭제 -13595
▁웨이브 -13596
▁백과사전 -13597
▁샴 -13598
젤로 -13599
▁ㅁㅗ -13600
▁당파 -13601
▁도발 -13602
▁매도 -13603
▁번개 -13604
▁자행 -13605
▁지그 -13606
▁지탱 -13607
▁직교 -13608
▁필명 -13609
▁Ser -13610
▁제조사 -13611
ta -13612
퉁이 -13613
hem -13614
▁가극 -13615
▁고찰 -13616
▁무너 -13617
▁사드 -13618
▁옥천 -13619
▁절약 -13620
▁참패 -13621
▁사대부 -13622
▁프리츠 -13623
▁되돌아가 -13624
▁무너뜨리 -13625
▁뵈 -13626
▁완만 -13627
▁이끼 -13628
▁표출 -13629
플로러 -13630
▁주고받 -13631
▁홀딩스 -13632
▁익스플로러 -13633
▁팍 -13634
시게 -13635
▁괄호 -13636
▁자부 -13637
▁중용 -13638
▁충신 -13639
▁하중 -13640
▁HMS -13641
▁이성질 -13642
▁고등학생 -13643
▁비스마르크 -13644
빌리 -13645
▁개기 -13646
▁국인 -13647
▁급성 -13648
▁회유 -13649
▁후드 -13650
▁입법부 -13651
▁프로테 -13652
▁DR -13653
▁바쿠 -13654
▁지린 -13655
▁히노 -13656
▁802 -13657
▁And -13658
▁경쟁자 -13659
▁뉴기니 -13660
▁무사히 -13661
▁플러그 -13662
ee -13663
▁ㅣ -13664
▁킷 -13665
▁팻 -13666
산부 -13667
▁가물 -13668
▁다량 -13669
▁라다 -13670
▁부군 -13671
▁시르 -13672
▁영사 -13673
▁일설 -13674
▁적정 -13675
▁청각 -13676
▁행군 -13677
▁글로브상 -13678
▁스케이트 -13679
▁요리토모 -13680
▁프라이즈 -13681
▁일리노이주 -13682
루엔 -13683
일치 -13684
▁길드 -13685
▁보류 -13686
▁참수 -13687
뉴기니 -13688
▁액세스 -13689
▁플루토 -13690
▁핵분열 -13691
다발 -13692
벤션 -13693
▁매슈 -13694
▁손님 -13695
▁스에 -13696
▁정박 -13697
▁널 -13698
▁밧 -13699
▁부두 -13700
▁애기 -13701
▁용해 -13702
▁육식 -13703
▁일선 -13704
▁직물 -13705
변속기 -13706
시아드 -13707
▁해부학 -13708
▁와타나베 -13709
다스 -13710
▁tr -13711
▁과자 -13712
▁서점 -13713
▁소피 -13714
▁잉크 -13715
▁저해 -13716
▁점진 -13717
▁와세다 -13718
▁이브스 -13719
▁1869 -13720
▁유니버시아드 -13721
▁ㄹㅏㅁㅕㄴㅅㅓ -13722
▁Ag -13723
▁수레 -13724
▁피처 -13725
▁마포구 -13726
▁불가피 -13727
▁업로드 -13728
▁자릿수 -13729
▁특별법 -13730
▁포뮬러 -13731
누마 -13732
▁고국 -13733
▁몸체 -13734
▁현악 -13735
▁페르미 -13736
▁코퍼레이션 -13737
내티 -13738
셔주 -13739
▁객실 -13740
▁북대 -13741
▁수급 -13742
▁방위군 -13743
▁봉우리 -13744
▁수비대 -13745
▁외교부 -13746
▁쿠르드 -13747
▁ㅇㅡㄹㅓ -13748
▁신시내티 -13749
▁근방 -13750
▁면직 -13751
▁벵골 -13752
▁솔라 -13753
▁잔해 -13754
▁아이젠 -13755
▁원자핵 -13756
▁그거 -13757
▁기조 -13758
▁다목 -13759
▁맛보 -13760
▁지체 -13761
▁추후 -13762
▁표절 -13763
▁형주 -13764
ㅓㄴㅏ -13765
▁베르나 -13766
▁인지도 -13767
▁제작진 -13768
▁키르기스 -13769
▁후지와라 -13770
ae -13771
정보 -13772
▁SO -13773
▁무비 -13774
▁서거 -13775
▁패킷 -13776
▁포천 -13777
▁포탑 -13778
▁행보 -13779
▁썬 -13780
▁대타 -13781
▁로시 -13782
▁용수 -13783
▁텍스 -13784
▁기동전 -13785
▁1592 -13786
▁명성황후 -13787
▁강우 -13788
▁모티 -13789
▁목동 -13790
▁박원 -13791
▁항생 -13792
▁사생활 -13793
▁안동시 -13794
▁영유권 -13795
▁장로회 -13796
마디 -13797
▁고을 -13798
▁성품 -13799
▁오자 -13800
▁유화 -13801
▁축일 -13802
▁골짜기 -13803
▁수도회 -13804
▁스파이더 -13805
▁친선경기 -13806
▁AA -13807
▁반입 -13808
▁부관 -13809
▁시시 -13810
▁이목 -13811
스타인 -13812
ount -13813
▁운동량 -13814
▁인코딩 -13815
▁프라임 -13816
▁탬 -13817
노르 -13818
▁무색 -13819
▁사부 -13820
▁수당 -13821
▁위도 -13822
▁자처 -13823
▁토라 -13824
▁생화학 -13825
▁오스카 -13826
암사 -13827
티컷 -13828
▁글렌 -13829
▁금색 -13830
▁논산 -13831
▁빈민 -13832
▁쫓기 -13833
▁치사 -13834
▁콜드 -13835
▁포자 -13836
▁헤더 -13837
▁부등식 -13838
▁유엔군 -13839
▁코네티컷 -13840
세르 -13841
▁그물 -13842
▁민심 -13843
▁상의 -13844
▁컴필 -13845
▁로타르 -13846
▁며느리 -13847
▁목적지 -13848
▁연예계 -13849
▁지하역 -13850
▁Song -13851
▁컴필레이션 -13852
▁크리스티나 -13853
수염 -13854
▁국세 -13855
▁내란 -13856
▁사소 -13857
▁소박 -13858
▁자정 -13859
▁토키 -13860
가르트 -13861
▁금강산 -13862
▁여객기 -13863
▁팔꿈치 -13864
▁1840 -13865
자원 -13866
▁PL -13867
▁숙소 -13868
▁위즈 -13869
▁절친 -13870
▁바닷물 -13871
▁파시스트 -13872
▁프랑스와 -13873
BI -13874
▁낯 -13875
네르 -13876
작전 -13877
▁단역 -13878
▁린다 -13879
▁빅터 -13880
▁폴라 -13881
▁516 -13882
▁Mon -13883
▁리차드 -13884
▁ㄴㅑㄱㅗ -13885
ata -13886
▁RC -13887
▁가방 -13888
▁지문 -13889
▁출국 -13890
▁헤겔 -13891
▁강력히 -13892
▁네이트 -13893
▁유년기 -13894
▁마스코트 -13895
▁힐베르트 -13896
▁로드리게스 -13897
구스 -13898
▁가곡 -13899
▁귀인 -13900
▁분별 -13901
▁아어 -13902
▁암수 -13903
▁캐슬 -13904
▁쿼터 -13905
▁아우구스 -13906
▁여우원숭이 -13907
pr -13908
per -13909
▁닉스 -13910
▁변질 -13911
▁추축 -13912
▁티저 -13913
▁풍기 -13914
▁하수 -13915
▁레지스터 -13916
▁랙 -13917
블릿 -13918
ade -13919
▁me -13920
▁고제 -13921
▁디나 -13922
▁벤츠 -13923
▁병풍 -13924
▁자루 -13925
▁자취 -13926
▁튜브 -13927
▁하라 -13928
▁헤일 -13929
▁사이언스 -13930
▁에이전트 -13931
▁볶 -13932
효소 -13933
▁공상 -13934
▁넘버 -13935
▁다쓰 -13936
▁단서 -13937
▁상식 -13938
▁휘발 -13939
▁과반수 -13940
▁시니어 -13941
▁창립자 -13942
▁심리학자 -13943
▁Heart -13944
▁아나톨리아 -13945
▁return -13946
▁KN -13947
▁바쁘 -13948
▁블러 -13949
▁심소 -13950
▁영수 -13951
▁유이 -13952
▁최하 -13953
▁패망 -13954
▁떠올리 -13955
▁패스트 -13956
▁필사본 -13957
▁벳 -13958
부시 -13959
히메 -13960
▁거창 -13961
▁국화 -13962
▁백조 -13963
▁영미 -13964
▁유자 -13965
▁입출 -13966
ㅇㅡㄴ -13967
▁그래도 -13968
▁글러브 -13969
▁종착역 -13970
▁히타치 -13971
▁매킨토시 -13972
▁지장보살 -13973
▁Pe -13974
▁ab -13975
▁계룡 -13976
▁성가 -13977
▁수만 -13978
▁자질 -13979
▁천상 -13980
▁출세 -13981
▁탁구 -13982
이치로 -13983
▁맥아더 -13984
▁휩싸이 -13985
90 -13986
찬성 -13987
▁란트 -13988
▁발착 -13989
▁성대 -13990
▁워스 -13991
▁유골 -13992
▁전단 -13993
▁구단주 -13994
▁테크놀 -13995
▁파주시 -13996
사우루스 -13997
▁펜실베이니아주 -13998
테랑 -13999
▁괜찮 -14000
▁렉스 -14001
▁염화 -14002
▁나치오 -14003
▁스트림 -14004
▁예언자 -14005
▁와카야마 -14006
▁Windows -14007
날드 -14008
ium -14009
▁농가 -14010
▁쌍성 -14011
▁이카 -14012
▁뒤따르 -14013
▁8000 -14014
히데 -14015
▁거사 -14016
▁겸직 -14017
▁끌리 -14018
▁라라 -14019
▁미학 -14020
▁악명 -14021
▁여포 -14022
▁보유자 -14023
▁세미나 -14024
▁어도비 -14025
▁적십자 -14026
▁ㄴㄷㅏㄴ -14027
▁그린란드 -14028
IX -14029
▁강인 -14030
▁권익 -14031
▁능가 -14032
▁라프 -14033
▁상과 -14034
▁스택 -14035
▁온실 -14036
▁청취 -14037
▁퀴즈 -14038
▁비둘기 -14039
▁엇갈리 -14040
▁지질학 -14041
▁ㄹㅏㅇㅜ -14042
▁영등포구 -14043
어하 -14044
전선 -14045
▁Gl -14046
▁베오 -14047
▁실상 -14048
▁오시 -14049
▁윤휴 -14050
▁페레 -14051
▁흥원 -14052
▁관심사 -14053
▁남아시아 -14054
넌트 -14055
선언 -14056
▁바보 -14057
▁바인 -14058
▁에트 -14059
▁의주 -14060
▁중견 -14061
▁초음 -14062
▁하구 -14063
크라테스 -14064
▁알프레드 -14065
▁아나키스트 -14066
▁세인트루이스 -14067
IF -14068
욕장 -14069
▁규율 -14070
▁기행 -14071
▁문중 -14072
▁반론 -14073
▁의복 -14074
▁조비 -14075
▁댈러스 -14076
▁1875 -14077
던트 -14078
▁As -14079
▁뉴런 -14080
▁박히 -14081
▁시찰 -14082
▁연중 -14083
▁피살 -14084
▁시미즈 -14085
▁운전자 -14086
▁데카르트 -14087
계사 -14088
테이 -14089
▁동호 -14090
▁왜군 -14091
▁임종 -14092
▁저그 -14093
▁Out -14094
▁채권자 -14095
▁헤르만 -14096
▁되돌아오 -14097
링겐 -14098
수단 -14099
▁상동 -14100
▁숙련 -14101
▁준동 -14102
▁침식 -14103
▁고문서 -14104
▁안창호 -14105
▁진주시 -14106
▁집단군 -14107
▁Aw -14108
▁노현 -14109
▁삭감 -14110
▁유카 -14111
▁이심 -14112
▁나리타 -14113
▁이와테 -14114
▁모자이크 -14115
▁강습 -14116
▁니케 -14117
▁다름 -14118
▁들르 -14119
▁볼록 -14120
▁사각 -14121
▁신지 -14122
▁외척 -14123
▁콜린 -14124
▁담당자 -14125
▁보리스 -14126
▁근본번뇌 -14127
기즈 -14128
탄두 -14129
▁도적 -14130
▁독살 -14131
▁마레 -14132
▁양파 -14133
▁은밀 -14134
▁직렬 -14135
▁질투 -14136
▁친화 -14137
▁안타깝 -14138
구니 -14139
기아 -14140
▁뒤지 -14141
▁디바 -14142
▁웍스 -14143
▁징집 -14144
▁키리 -14145
▁표제 -14146
▁토요타 -14147
▁회고록 -14148
어가 -14149
▁귀엽 -14150
▁기린 -14151
▁몹시 -14152
▁미지 -14153
▁수증 -14154
▁호른 -14155
▁Gen -14156
▁예비역 -14157
▁치료법 -14158
▁고등교육 -14159
이에 -14160
itt -14161
▁VS -14162
▁김연 -14163
▁설리 -14164
▁아다 -14165
▁예프 -14166
▁원단 -14167
▁철자 -14168
▁최남 -14169
▁타나 -14170
▁호그 -14171
▁게임기 -14172
▁사이즈 -14173
▁표트르 -14174
▁남양주시 -14175
보당 -14176
사유 -14177
▁걸음 -14178
▁교파 -14179
▁노원 -14180
▁선상 -14181
▁여럿 -14182
▁용지 -14183
▁위크 -14184
▁이선 -14185
▁잠입 -14186
▁정오 -14187
▁파랗 -14188
▁한민 -14189
▁혼잡 -14190
레이트 -14191
▁KTX -14192
▁친환경 -14193
▁컨벤션 -14194
뻐하 -14195
son -14196
▁김두 -14197
▁로사 -14198
▁문체 -14199
▁어사 -14200
▁월화 -14201
▁일명 -14202
▁텐서 -14203
▁해트 -14204
▁AMD -14205
▁기뻐하 -14206
▁리스본 -14207
▁매디슨 -14208
▁일부러 -14209
▁학술지 -14210
▁DB -14211
▁sh -14212
▁교훈 -14213
▁면담 -14214
▁방울 -14215
▁셔틀 -14216
▁이희 -14217
▁인승 -14218
▁컵스 -14219
▁키드 -14220
▁돌고래 -14221
날레 -14222
▁다자 -14223
▁변혁 -14224
▁열세 -14225
▁의정 -14226
▁절충 -14227
▁착각 -14228
▁출품 -14229
▁통도사 -14230
▁피의자 -14231
▁뉘른베르크 -14232
▁브란덴부르크 -14233
▁막강 -14234
▁목장 -14235
▁생원 -14236
▁첩보 -14237
세데스 -14238
▁아세틸 -14239
▁칭기즈 -14240
▁파라오 -14241
▁함경도 -14242
▁병자호란 -14243
▁쳐들어오 -14244
▁땀 -14245
놀드 -14246
세서 -14247
▁닥치 -14248
▁달콤 -14249
▁서약 -14250
▁아노 -14251
▁에레 -14252
▁외면 -14253
▁취직 -14254
▁터너 -14255
▁강희제 -14256
▁북극점 -14257
▁장갑차 -14258
▁몽고메리 -14259
▁메르세데스 -14260
▁눌 -14261
더링 -14262
어류 -14263
조사 -14264
▁기운 -14265
▁단양 -14266
▁리크 -14267
▁문관 -14268
▁순식 -14269
▁어부 -14270
▁집전 -14271
▁타쿠 -14272
에이고 -14273
▁강대국 -14274
▁테오도 -14275
▁샌디에이고 -14276
▁포르투갈어 -14277
PA -14278
방향 -14279
은사 -14280
▁금정 -14281
▁비료 -14282
▁선체 -14283
▁슈투 -14284
▁안중 -14285
▁야수 -14286
▁레스터 -14287
▁이사벨 -14288
▁크메르 -14289
알라 -14290
엽수 -14291
▁TS -14292
▁로큰 -14293
▁바늘 -14294
▁배반 -14295
▁아지 -14296
▁의성 -14297
▁태안 -14298
able -14299
▁380 -14300
▁가환환 -14301
▁광둥성 -14302
▁다이쇼 -14303
▁성폭행 -14304
▁통신망 -14305
▁항공대 -14306
▁구루 -14307
▁생쥐 -14308
▁실명 -14309
▁체로 -14310
▁특공 -14311
해방군 -14312
▁꽃차례 -14313
▁데이트 -14314
▁슈타인 -14315
▁스케치 -14316
▁연속극 -14317
▁클리어 -14318
▁인민해방군 -14319
▁디디 -14320
▁버트 -14321
▁서당 -14322
▁원효 -14323
록대부 -14324
▁야마다 -14325
▁중앙선 -14326
▁안드로메다 -14327
▁교관 -14328
▁양지 -14329
▁포인 -14330
▁"() -14331
▁송파구 -14332
▁신석기 -14333
▁이랜드 -14334
▁저널리스트 -14335
두사 -14336
부대 -14337
ale -14338
▁기판 -14339
▁레몬 -14340
▁율법 -14341
▁즐거 -14342
▁폐허 -14343
▁로큰롤 -14344
▁바나나 -14345
▁베르트 -14346
▁부적절 -14347
▁쇼핑몰 -14348
▁스피커 -14349
▁종사자 -14350
▁코트디 -14351
▁클레어 -14352
▁행해지 -14353
▁페널티킥 -14354
▁코트디부아르 -14355
ng -14356
세키 -14357
▁모질 -14358
▁방호 -14359
▁세일 -14360
▁예식 -14361
▁왕래 -14362
▁인먼 -14363
▁로버츠 -14364
▁비단털 -14365
▁싫어하 -14366
▁크라운 -14367
몽골 -14368
촌리 -14369
▁KO -14370
▁감기 -14371
▁동거 -14372
▁라울 -14373
▁로바 -14374
▁성행 -14375
▁애착 -14376
▁영락 -14377
▁칸트 -14378
루엔자 -14379
▁Par -14380
▁아리랑 -14381
스코리아 -14382
▁비단털쥐 -14383
▁오프라인 -14384
▁기공 -14385
▁명상 -14386
▁슬리 -14387
▁일차 -14388
▁반감기 -14389
▁상반기 -14390
▁파스칼 -14391
르카 -14392
▁교화 -14393
▁래리 -14394
▁수마 -14395
▁술라 -14396
▁스펜 -14397
▁안식 -14398
▁자장 -14399
▁마주치 -14400
▁프론트 -14401
▁끌어올리 -14402
▁바빌로니아 -14403
니에 -14404
우주 -14405
크리 -14406
▁가모 -14407
▁기마 -14408
▁모피 -14409
▁수은 -14410
▁실은 -14411
▁헤센 -14412
▁환율 -14413
▁활기 -14414
▁ㄹㅗㄹ -14415
▁맥스웰 -14416
▁정치국 -14417
▁ㄴㅣㄲㅏ -14418
▁WC -14419
▁결전 -14420
▁구아 -14421
▁금환 -14422
▁보그 -14423
▁보우 -14424
▁야권 -14425
▁장정 -14426
▁정에 -14427
▁중일 -14428
▁708 -14429
▁선거인 -14430
▁University -14431
UN -14432
데기 -14433
박사 -14434
시대 -14435
행파 -14436
▁극소 -14437
▁모사 -14438
▁사주 -14439
▁서클 -14440
▁엔젤 -14441
▁이홍 -14442
▁잉카 -14443
▁향신 -14444
▁대항전 -14445
▁형용사 -14446
▁관음보살 -14447
▁보컬리스트 -14448
▁가세 -14449
▁모체 -14450
▁문수 -14451
▁위트 -14452
▁출격 -14453
▁205 -14454
▁Vol -14455
▁건너오 -14456
▁라이베리아 -14457
▁탭 -14458
▁가명 -14459
▁거머 -14460
▁구세 -14461
▁동군 -14462
▁정언 -14463
▁정칙 -14464
▁후루 -14465
▁ATC -14466
▁데뷔작 -14467
▁보호법 -14468
▁합성어 -14469
건설 -14470
▁At -14471
▁규약 -14472
▁야코 -14473
▁열악 -14474
▁순식간 -14475
▁콘라트 -14476
▁벙 -14477
▁경순 -14478
▁경의 -14479
▁라벨 -14480
▁샤르 -14481
▁실사 -14482
▁이질 -14483
▁획기 -14484
▁ㅂㅅㅣ -14485
▁되풀이 -14486
▁보조금 -14487
▁사할린 -14488
▁싯 -14489
연구 -14490
▁데일 -14491
▁로니 -14492
▁복부 -14493
▁조봉 -14494
▁집사 -14495
very -14496
▁통계청 -14497
▁쇼트트랙 -14498
▁엑스박스 -14499
▁인플루엔자 -14500
쿠사 -14501
▁미첼 -14502
▁ㄷㅏㄴ -14503
▁사학자 -14504
▁슈미트 -14505
▁캐스터 -14506
▁조선공산당 -14507
▁텅 -14508
윽고 -14509
▁JC -14510
▁경종 -14511
▁구타 -14512
▁기미 -14513
▁박용 -14514
▁박재 -14515
▁외손 -14516
▁월남 -14517
▁치마 -14518
▁NBC -14519
▁김해시 -14520
▁이윽고 -14521
▁IR -14522
▁금하 -14523
▁배당 -14524
▁베티 -14525
▁불쾌 -14526
▁상계 -14527
▁시의 -14528
▁아연 -14529
▁안톤 -14530
▁에코 -14531
▁염두 -14532
▁외할 -14533
▁토피 -14534
▁235 -14535
▁개그맨 -14536
▁스케줄 -14537
▁시마즈 -14538
▁name -14539
▁로베르토 -14540
루즈 -14541
모음 -14542
벌리 -14543
양이 -14544
▁군복 -14545
▁등산 -14546
▁자위 -14547
▁초계 -14548
▁후한 -14549
▁DOS -14550
▁가이아 -14551
▁호흡기 -14552
▁엣 -14553
▁서안 -14554
▁수역 -14555
▁양극 -14556
▁양서 -14557
▁에노 -14558
▁자키 -14559
▁재화 -14560
▁칼륨 -14561
▁호로 -14562
폴리탄 -14563
▁메트로폴리탄 -14564
사와 -14565
▁남단 -14566
▁내림 -14567
▁노카 -14568
▁비옥 -14569
▁정글 -14570
▁풀백 -14571
co -14572
▁뤄 -14573
▁골절 -14574
▁나기 -14575
▁마흐 -14576
▁사미 -14577
▁안팎 -14578
▁외삼 -14579
▁우기 -14580
▁하산 -14581
▁후이 -14582
▁스케일 -14583
▁최성기 -14584
▁그레이엄 -14585
▁셴 -14586
화당 -14587
▁리나 -14588
▁불복 -14589
▁석기 -14590
▁솜씨 -14591
▁신병 -14592
▁유충 -14593
▁족장 -14594
▁타시 -14595
▁tvN -14596
▁남극점 -14597
▁자격증 -14598
▁테두리 -14599
▁지하철역 -14600
▁랠 -14601
▁cc -14602
▁경화 -14603
▁대류 -14604
▁라가 -14605
▁무능 -14606
▁병렬 -14607
▁안심 -14608
▁웨어 -14609
▁케리 -14610
▁코바 -14611
▁포니 -14612
▁화승 -14613
▁브로드웨이 -14614
에쓰 -14615
황색 -14616
▁실효 -14617
▁재보 -14618
▁카로 -14619
▁한겨 -14620
▁사무관 -14621
▁열역학 -14622
▁조각상 -14623
▁채무자 -14624
▁우두머리 -14625
so -14626
그램 -14627
보라 -14628
큐슈 -14629
▁띄우 -14630
▁버니 -14631
▁종가 -14632
▁통솔 -14633
▁간호사 -14634
▁당뇨병 -14635
▁로페스 -14636
▁안드레 -14637
18 -14638
르산 -14639
▁가뭄 -14640
▁균일 -14641
▁나한 -14642
▁세스 -14643
▁소론 -14644
▁오마 -14645
▁축복 -14646
▁패치 -14647
▁반대편 -14648
▁안양시 -14649
▁천도교 -14650
▁This -14651
▁미스코리아 -14652
▁아우구스투스 -14653
▁맴 -14654
IVE -14655
▁결말 -14656
▁고층 -14657
▁뉴멕 -14658
▁부엌 -14659
▁요직 -14660
▁이달 -14661
▁일간 -14662
▁창구 -14663
▁키타 -14664
▁키트 -14665
▁협곡 -14666
▁화원 -14667
▁동아리 -14668
▁시그마 -14669
▁신호장 -14670
▁뉴멕시코 -14671
▁중앙아메리카 -14672
yn -14673
▁잼 -14674
▁동백 -14675
▁리시 -14676
▁무가 -14677
▁시제 -14678
▁양평 -14679
▁정승 -14680
▁줄곧 -14681
▁공주시 -14682
▁파푸아뉴기니 -14683
나들 -14684
열대 -14685
텐셜 -14686
ATO -14687
▁마늘 -14688
▁무예 -14689
▁산조 -14690
▁악당 -14691
▁은폐 -14692
▁일주 -14693
▁칠성 -14694
▁침범 -14695
스크림 -14696
▁거주자 -14697
▁조각가 -14698
▁카디널 -14699
▁유가행파 -14700
▁일삼 -14701
▁잔혹 -14702
▁확충 -14703
▁다가가 -14704
▁라스트 -14705
▁스틸러스 -14706
신저 -14707
악산 -14708
주크 -14709
ala -14710
▁기스 -14711
▁숙박 -14712
▁중남 -14713
▁한복 -14714
▁홍익 -14715
▁교육감 -14716
▁무지개 -14717
▁트레일 -14718
▁1874 -14719
▁일렉트릭 -14720
▁sp -14721
▁기닿 -14722
▁다쿠 -14723
▁몰수 -14724
▁이색 -14725
진보당 -14726
▁재미있 -14727
▁퍼텐셜 -14728
▁컨퍼런스 -14729
시험 -14730
▁넷플 -14731
▁레나 -14732
▁발작 -14733
▁베크 -14734
▁잔여 -14735
▁성폭력 -14736
▁저스틴 -14737
▁넷플릭스 -14738
▁콘퍼런스 -14739
징어 -14740
net -14741
▁메모 -14742
▁묘호 -14743
▁빌드 -14744
▁판명 -14745
▁향수 -14746
▁가요제 -14747
▁동남쪽 -14748
▁에스컬 -14749
▁클로드 -14750
▁한겨레 -14751
▁항공편 -14752
▁휴대폰 -14753
▁바그다드 -14754
▁호소카와 -14755
▁알렉산데르 -14756
▁에스컬레이터 -14757
프랑 -14758
▁가온 -14759
▁라플 -14760
▁송이 -14761
▁읍성 -14762
▁인스 -14763
▁젠더 -14764
▁조동 -14765
▁캠벨 -14766
▁학당 -14767
▁204 -14768
▁대수학 -14769
▁서스펜 -14770
▁앞바다 -14771
▁후쿠이 -14772
▁벚 -14773
운수 -14774
▁낭비 -14775
▁미겔 -14776
▁발판 -14777
▁소양 -14778
▁손목 -14779
▁싱크 -14780
▁이문 -14781
▁잉여 -14782
▁쿠마 -14783
▁게임즈 -14784
▁지리산 -14785
▁1877 -14786
▁바이마르 -14787
▁퀄 -14788
소문 -14789
ody -14790
▁리타 -14791
▁맞물 -14792
▁옥사 -14793
▁품목 -14794
야누스 -14795
▁뉴올리 -14796
▁오르간 -14797
▁프레슬리 -14798
ax -14799
me -14800
▁흐리 -14801
▁여운형 -14802
▁기울어지 -14803
▁슈퍼스타 -14804
▁콜럼버스 -14805
anc -14806
▁단발 -14807
▁애드 -14808
▁점하 -14809
▁차명 -14810
▁코크 -14811
▁루이즈 -14812
▁사하라 -14813
▁참전하 -14814
▁7000 -14815
▁오아시스 -14816
▁트라야누스 -14817
더릭 -14818
▁SR -14819
▁강좌 -14820
▁사중 -14821
▁상한 -14822
▁예멘 -14823
▁주군 -14824
▁코로 -14825
▁하지 -14826
▁허베이 -14827
▁서아프리카 -14828
▁격전 -14829
▁복속 -14830
▁산문 -14831
▁선단 -14832
▁에페 -14833
▁재회 -14834
▁차오 -14835
▁클랜 -14836
▁탄수 -14837
▁원주시 -14838
▁멀티미디어 -14839
민당 -14840
ash -14841
oid -14842
▁도형 -14843
▁아킬 -14844
▁행선 -14845
어나오 -14846
▁Bab -14847
▁공학자 -14848
▁돌려보내 -14849
▁쿰 -14850
▁AF -14851
▁GR -14852
▁강국 -14853
▁그립 -14854
▁델리 -14855
▁민원 -14856
▁본존 -14857
▁앞뒤 -14858
▁양천 -14859
▁APG -14860
▁중거리 -14861
▁핸드볼 -14862
GB -14863
au -14864
혈구 -14865
▁그르 -14866
▁두뇌 -14867
▁모치 -14868
▁무주 -14869
▁바니 -14870
▁석권 -14871
▁순찰 -14872
▁엄지 -14873
▁출사 -14874
▁토바 -14875
▁화염 -14876
▁컨설팅 -14877
▁Best -14878
높이 -14879
바드 -14880
양구 -14881
ose -14882
▁경내 -14883
▁고승 -14884
▁곤살 -14885
▁너희 -14886
▁바야 -14887
▁전조 -14888
▁지령 -14889
▁지크 -14890
▁처마 -14891
▁총영 -14892
▁추계 -14893
▁518 -14894
▁교육학 -14895
▁브리스 -14896
▁수백만 -14897
▁클러스터 -14898
ps -14899
▁툼 -14900
변수 -14901
▁et -14902
▁깔리 -14903
▁우표 -14904
▁인성 -14905
▁카일 -14906
▁퇴진 -14907
▁Her -14908
▁비잔틴 -14909
▁셀주크 -14910
▁스타드 -14911
▁아놀드 -14912
▁콜린스 -14913
일기 -14914
▁나일 -14915
▁로망 -14916
▁산체 -14917
▁요가 -14918
▁부르봉 -14919
▁플루토늄 -14920
22 -14921
계약 -14922
를레 -14923
비에 -14924
▁노하 -14925
▁밸브 -14926
▁시발 -14927
▁에볼 -14928
▁오구 -14929
▁오릭스 -14930
▁청문회 -14931
▁한국군 -14932
▁갈릴레오 -14933
▁다카하시 -14934
14 -14935
피크 -14936
ict -14937
▁건지 -14938
▁결장 -14939
▁공문 -14940
▁뮐러 -14941
▁블랑 -14942
▁숙명 -14943
▁예금 -14944
▁코린 -14945
▁만장일치 -14946
▁캄파니아 -14947
범죄 -14948
▁AE -14949
▁가선 -14950
▁감축 -14951
▁거시 -14952
▁도안 -14953
▁라임 -14954
▁소르 -14955
▁소인 -14956
▁소주 -14957
▁유창 -14958
▁인계 -14959
▁자성 -14960
▁제지 -14961
▁강화군 -14962
▁경부선 -14963
▁엘비스 -14964
▁포식자 -14965
▁1859 -14966
▁ㅁㅓ -14967
▁관아 -14968
▁나투 -14969
▁문맥 -14970
▁방학 -14971
▁벗기 -14972
▁상감 -14973
▁승률 -14974
▁완장 -14975
▁1700 -14976
▁Hell -14977
▁메모리얼 -14978
남면 -14979
토크 -14980
▁YG -14981
▁도읍 -14982
▁레크 -14983
▁사연 -14984
▁원사 -14985
▁앙드레 -14986
▁레닌주의 -14987
▁스테파노 -14988
▁KS -14989
▁곡식 -14990
▁대입 -14991
▁뚜껑 -14992
▁중건 -14993
▁CIA -14994
▁거머쥐 -14995
▁곧이어 -14996
▁전시관 -14997
▁콘티넨 -14998
▁현미경 -14999
▁사무라이 -15000
▁us -15001
▁니즈 -15002
▁문물 -15003
▁볼드 -15004
▁북측 -15005
▁사병 -15006
▁산재 -15007
▁선과 -15008
▁스펙 -15009
▁요도 -15010
▁원문 -15011
▁율리 -15012
▁재물 -15013
▁루카스 -15014
▁외계인 -15015
▁프리큐어 -15016
장사 -15017
제철 -15018
형제 -15019
▁되살 -15020
▁미켈 -15021
▁미트 -15022
▁서체 -15023
▁스플 -15024
▁의제 -15025
▁퇴치 -15026
▁펭귄 -15027
▁아파치 -15028
▁연방군 -15029
▁클레오 -15030
▁혼합물 -15031
▁도부 -15032
▁뒤덮 -15033
▁명왕 -15034
▁법규 -15035
▁이씨 -15036
▁태화 -15037
▁플랑 -15038
▁게이밍 -15039
▁사다리 -15040
▁아키텐 -15041
▁오리엔 -15042
▁인류학 -15043
13 -15044
15 -15045
▁켐 -15046
EEE -15047
▁네브 -15048
▁서품 -15049
▁쓰리 -15050
▁억울 -15051
▁통찰 -15052
▁화음 -15053
▁개화파 -15054
▁돌려주 -15055
▁울트라 -15056
▁라이센스 -15057
▁쓰러뜨리 -15058
란다 -15059
▁과세 -15060
▁리안 -15061
▁제비 -15062
▁허물 -15063
▁625 -15064
▁셰퍼드 -15065
▁우에노 -15066
나시 -15067
데일 -15068
로트 -15069
무장 -15070
▁공병 -15071
▁구가 -15072
▁맹렬 -15073
▁모교 -15074
▁부식 -15075
▁블룸 -15076
▁투사 -15077
▁순천시 -15078
▁이론가 -15079
▁이케다 -15080
▁미야기현 -15081
▁자이언트 -15082
▁자카르타 -15083
고사 -15084
마을 -15085
매기 -15086
완다 -15087
▁전범 -15088
▁푸젠 -15089
▁함장 -15090
▁달려가 -15091
▁억제제 -15092
▁핵탄두 -15093
▁테크놀로지 -15094
▁뉴클레오타이드 -15095
VA -15096
▁멱 -15097
주석 -15098
▁se -15099
▁경합 -15100
▁롤러 -15101
▁바투 -15102
▁앨라 -15103
▁화소 -15104
▁대사간 -15105
▁제니퍼 -15106
투리 -15107
▁구전 -15108
▁만지 -15109
▁바젤 -15110
▁백운 -15111
▁왕당 -15112
▁전서 -15113
▁후회 -15114
▁ㄴㄷㅐ -15115
▁서태지 -15116
▁^ -15117
▁웜 -15118
▁챠 -15119
uck -15120
▁김우 -15121
▁만류 -15122
▁베다 -15123
▁원점 -15124
▁츠카 -15125
▁하층 -15126
▁가치관 -15127
▁빌바오 -15128
▁이주민 -15129
▁출장소 -15130
▁뮈 -15131
동원 -15132
버터 -15133
▁박찬 -15134
▁발터 -15135
▁상환 -15136
▁원만 -15137
▁일어 -15138
▁ㅇㅜㄹ -15139
▁길거리 -15140
▁직사각 -15141
▁환승역 -15142
▁아드리아 -15143
▁아이스크림 -15144
de -15145
▁거병 -15146
▁관위 -15147
▁레티 -15148
▁산남 -15149
▁아누 -15150
▁후견 -15151
▁난쟁이 -15152
▁불러오 -15153
▁소아시아 -15154
▁크리스틴 -15155
과학 -15156
재판 -15157
▁결여 -15158
▁무공 -15159
▁속국 -15160
▁자갈 -15161
▁적법 -15162
▁결의안 -15163
▁목표물 -15164
▁미성년 -15165
▁바스크 -15166
▁선제후 -15167
▁카리스 -15168
▁IEEE -15169
HC -15170
HL -15171
▁샷 -15172
나주 -15173
▁군기 -15174
▁사와 -15175
▁여정 -15176
▁총감 -15177
▁피자 -15178
reak -15179
▁기념장 -15180
▁쓰촨성 -15181
▁출판물 -15182
▁탈레반 -15183
▁트레인 -15184
▁튀어나오 -15185
▁긋 -15186
▁끔 -15187
장조 -15188
▁근간 -15189
▁다윗 -15190
▁덮치 -15191
▁로코 -15192
▁백지 -15193
▁변론 -15194
▁왕명 -15195
▁이창 -15196
▁정청 -15197
▁주포 -15198
▁테헤 -15199
▁후면 -15200
▁순교자 -15201
▁아이치 -15202
▁이치현 -15203
조류 -15204
주사 -15205
▁로보 -15206
▁리언 -15207
▁발광 -15208
▁보어 -15209
▁북인 -15210
▁사산 -15211
▁산술 -15212
▁코이 -15213
▁하후 -15214
▁회차 -15215
▁희미 -15216
▁340 -15217
▁통계학 -15218
▁고바야시 -15219
oo -15220
▁짚 -15221
스톤 -15222
티지 -15223
ail -15224
▁FF -15225
▁경원 -15226
▁수주 -15227
▁오와 -15228
▁자백 -15229
▁조회 -15230
▁튜링 -15231
▁특명 -15232
▁로저스 -15233
▁마코토 -15234
▁미트라 -15235
▁케이드 -15236
▁서바이벌 -15237
▁아미타불 -15238
르바 -15239
어놓 -15240
패드 -15241
▁김학 -15242
▁뉴잉 -15243
▁도끼 -15244
▁알로 -15245
▁용맹 -15246
▁자네 -15247
▁빈센트 -15248
▁실린더 -15249
▁향신료 -15250
▁as -15251
▁개경 -15252
▁관군 -15253
▁논증 -15254
▁달력 -15255
▁담양 -15256
▁로디 -15257
▁승낙 -15258
▁이만 -15259
▁일면 -15260
▁장경 -15261
▁대혁명 -15262
▁볼프강 -15263
▁Star -15264
▁카디널스 -15265
ㄱㅜ -15266
의식 -15267
▁섹션 -15268
▁안주 -15269
▁전봉 -15270
▁진천 -15271
▁청정 -15272
▁헬스 -15273
▁화풍 -15274
게이트 -15275
▁레이건 -15276
▁지석묘 -15277
▁펙 -15278
스퍼 -15279
▁ㅅㅏ -15280
▁발진 -15281
▁보국 -15282
▁양동 -15283
▁오인 -15284
▁유틸 -15285
▁정역 -15286
▁퇴출 -15287
▁폐차 -15288
▁헤라 -15289
▁Sun -15290
▁로스트 -15291
▁안철수 -15292
▁이광수 -15293
▁정착지 -15294
▁해인사 -15295
▁국가원수 -15296
▁유틸리티 -15297
▁매사추세츠주 -15298
▁공석 -15299
▁도매 -15300
▁문건 -15301
▁미러 -15302
▁보디 -15303
▁상설 -15304
▁어선 -15305
▁홀수 -15306
하마드 -15307
▁교황령 -15308
▁오슬로 -15309
▁거문 -15310
▁금관 -15311
▁나바 -15312
▁베가 -15313
▁사생 -15314
▁상층 -15315
▁수프 -15316
▁우니 -15317
▁입찰 -15318
▁젤리 -15319
▁진심 -15320
▁310 -15321
▁가우스 -15322
▁개척자 -15323
ㄱㅓㄴㅏ -15324
▁오토바이 -15325
▁Super -15326
ㅇㅏ -15327
팩스 -15328
플레 -15329
▁구라 -15330
▁부락 -15331
▁세제 -15332
▁손수 -15333
▁추장 -15334
▁타파 -15335
▁통감 -15336
▁개막식 -15337
▁예문관 -15338
▁페스트 -15339
▁어우러지 -15340
댓값 -15341
소니 -15342
▁my -15343
▁떠돌 -15344
▁아칸 -15345
▁호화 -15346
떨어지 -15347
▁울주군 -15348
▁원정대 -15349
▁얄 -15350
배마 -15351
▁교감 -15352
▁사탄 -15353
▁연해 -15354
▁짝수 -15355
▁커브 -15356
▁타밀 -15357
▁평방 -15358
▁폐하 -15359
▁209 -15360
▁국내선 -15361
▁디에고 -15362
▁아니면 -15363
▁아스카 -15364
▁앨라배마 -15365
구미 -15366
바퀴 -15367
vel -15368
▁교인 -15369
▁멜라 -15370
▁모션 -15371
▁어학 -15372
▁추밀 -15373
▁템플 -15374
▁you -15375
▁무신론 -15376
▁바빌론 -15377
▁브레멘 -15378
학파 -15379
▁과달 -15380
▁김도 -15381
▁김주 -15382
▁수문 -15383
▁시력 -15384
▁대관식 -15385
▁셀레우 -15386
▁윤치영 -15387
▁그래픽스 -15388
▁유니코드 -15389
▁뉴잉글랜드 -15390
▁후쿠시마현 -15391
▁콘스탄티누스 -15392
▁ad -15393
▁근세 -15394
▁늦추 -15395
▁뚫리 -15396
▁명륜 -15397
▁산정 -15398
▁토프 -15399
▁항문 -15400
▁대대장 -15401
▁대제학 -15402
▁에이브 -15403
▁자오선 -15404
▁자치현 -15405
▁1812 -15406
▁ㅇㅡㄹㅣㄹㅏ -15407
▁뽀 -15408
iel -15409
▁닷컴 -15410
▁산인 -15411
▁속초 -15412
▁정실 -15413
▁타선 -15414
▁르완다 -15415
▁송진우 -15416
▁Soul -15417
▁중앙일보 -15418
TF -15419
▁DO -15420
▁강유 -15421
▁동급 -15422
▁로컬 -15423
▁맞배 -15424
▁박경 -15425
▁선별 -15426
▁성조 -15427
▁수라 -15428
▁의인 -15429
▁지카 -15430
▁충동 -15431
▁탄두 -15432
▁피그 -15433
▁삼거리 -15434
▁에이지 -15435
구나 -15436
초프 -15437
티어 -15438
▁Kn -15439
▁김덕 -15440
▁루드 -15441
▁메드 -15442
▁장강 -15443
▁지검 -15444
▁터스 -15445
▁호국 -15446
▁206 -15447
▁한자어 -15448
▁ICBM -15449
▁모니터링 -15450
▁알렉세이 -15451
▁무형문화재 -15452
▁근위 -15453
▁나시 -15454
▁로런 -15455
▁센타 -15456
▁수구 -15457
▁안면 -15458
▁어지 -15459
▁장지 -15460
▁호이 -15461
▁단말기 -15462
▁에세이 -15463
▁음식점 -15464
▁자본가 -15465
▁접미사 -15466
▁조광조 -15467
▁주거지 -15468
▁선거관리 -15469
▁아이파크 -15470
▁선거관리위원회 -15471
59 -15472
▁름 -15473
▁루손 -15474
▁산동 -15475
▁아호 -15476
▁풀이 -15477
▁슈투트 -15478
▁여수시 -15479
▁John -15480
▁Christ -15481
▁슈투트가르트 -15482
샤오 -15483
▁동맥 -15484
▁마다 -15485
▁무위 -15486
▁무진 -15487
▁빨강 -15488
▁손쉽 -15489
▁수질 -15490
▁스쿼 -15491
▁이건 -15492
▁점토 -15493
▁주유 -15494
▁코우 -15495
▁투니 -15496
하우스 -15497
▁서비스업 -15498
▁안토니우스 -15499
▁쑹 -15500
디드 -15501
▁Mi -15502
▁Tw -15503
▁금천 -15504
▁도자 -15505
▁법상 -15506
▁샤오 -15507
▁의논 -15508
▁장이 -15509
▁조던 -15510
▁쪼개 -15511
▁황위 -15512
시아키 -15513
▁조르주 -15514
▁주제가 -15515
네오 -15516
도감 -15517
ute -15518
▁IF -15519
▁ON -15520
▁걸스 -15521
▁매듭 -15522
▁배타 -15523
▁세밀 -15524
▁연대장 -15525
▁북대서양 -15526
면적 -15527
탄올 -15528
▁교재 -15529
▁집적 -15530
▁천자 -15531
▁춘계 -15532
▁카보 -15533
공화당 -15534
▁747 -15535
▁기생충 -15536
▁록히드 -15537
▁안데스 -15538
▁1879 -15539
▁건국훈장 -15540
▁막시밀리 -15541
▁베르사유 -15542
▁민주공화당 -15543
EA -15544
gh -15545
버라 -15546
▁귀순 -15547
▁그늘 -15548
▁당상 -15549
▁변성 -15550
▁솔리 -15551
▁차역 -15552
▁철기 -15553
▁초식 -15554
▁콘스 -15555
▁콜론 -15556
▁포상 -15557
▁해주 -15558
▁로널드 -15559
▁아브라함 -15560
▁과감 -15561
▁구비 -15562
▁규합 -15563
▁로지 -15564
▁버밍 -15565
▁범람 -15566
▁양원 -15567
▁하강 -15568
▁보이즈 -15569
▁조봉암 -15570
▁파르마 -15571
태자 -15572
▁스완 -15573
▁정맥 -15574
▁카토 -15575
라이스 -15576
▁고지대 -15577
▁레코딩 -15578
▁석회암 -15579
▁의병장 -15580
▁카지노 -15581
▁테헤란 -15582
▁피어스 -15583
▁ㄴㅏㅁㅏ -15584
무지 -15585
방스 -15586
▁HP -15587
▁슬러 -15588
▁아람 -15589
▁영도 -15590
▁청일 -15591
▁카펠 -15592
▁바닷가 -15593
▁제이크 -15594
▁일렉트로닉 -15595
슐리 -15596
▁Mr -15597
▁고후 -15598
▁공경 -15599
▁논평 -15600
▁니치 -15601
▁대방 -15602
▁도파 -15603
▁딱딱 -15604
▁양념 -15605
▁울루 -15606
▁위축 -15607
▁백두산 -15608
▁사우디 -15609
▁여러분 -15610
▁끔찍 -15611
▁동대 -15612
▁유계 -15613
▁임실 -15614
▁자석 -15615
▁초회 -15616
▁해커 -15617
▁호투 -15618
▁휴일 -15619
▁개개인 -15620
▁게이오 -15621
▁독재자 -15622
▁태블릿 -15623
▁ㅇㅔㄷㅏㄱㅏ -15624
OK -15625
▁관개 -15626
▁농담 -15627
▁듀스 -15628
▁리퍼 -15629
▁부기 -15630
▁CoA -15631
▁des -15632
▁뉴올리언스 -15633
RI -15634
네프 -15635
분투 -15636
화산 -15637
▁대여 -15638
▁모태 -15639
▁유세 -15640
▁이코 -15641
▁풍요 -15642
▁App -15643
▁라그랑 -15644
▁리그컵 -15645
▁여행자 -15646
블릭 -15647
▁국문 -15648
▁노역 -15649
▁소량 -15650
▁소포 -15651
▁수족 -15652
▁원한 -15653
▁유보 -15654
▁일보 -15655
▁카파 -15656
▁쿠시 -15657
▁호적 -15658
로세서 -15659
▁420 -15660
▁무사시 -15661
▁아이작 -15662
▁가창 -15663
▁군마 -15664
▁노마 -15665
▁단수 -15666
▁두부 -15667
▁방탄 -15668
▁부화 -15669
▁불문 -15670
▁사파 -15671
▁양정 -15672
▁영종 -15673
▁예보 -15674
▁클럭 -15675
▁리바이 -15676
▁사가미 -15677
리아누스 -15678
신보 -15679
정변 -15680
▁능숙 -15681
▁비오 -15682
▁상이 -15683
▁스킨 -15684
▁스텐 -15685
▁전열 -15686
▁컬링 -15687
▁호시 -15688
레틱스 -15689
▁그러면 -15690
▁암스트 -15691
▁애슬레틱스 -15692
연맹 -15693
▁기권 -15694
▁낯설 -15695
▁두스 -15696
▁반납 -15697
▁보아 -15698
▁불능 -15699
▁빛깔 -15700
▁용역 -15701
▁조우 -15702
▁카다 -15703
▁글리제 -15704
▁썸 -15705
▁개표 -15706
▁권투 -15707
▁끊이 -15708
▁머큐 -15709
▁반달 -15710
▁열람 -15711
▁유상 -15712
▁차차 -15713
▁최용 -15714
▁현수 -15715
를레앙 -15716
▁Str -15717
▁국방군 -15718
▁니가타 -15719
▁변호인 -15720
▁영사관 -15721
▁인산화 -15722
▁트리스 -15723
▁원종공신 -15724
▁파르티아 -15725
▁꽝 -15726
▁Gu -15727
▁강가 -15728
▁인삼 -15729
▁중등 -15730
▁오메가 -15731
▁테크노 -15732
▁주머니쥐 -15733
▁Record -15734
링크 -15735
반정 -15736
ull -15737
▁김시 -15738
▁인척 -15739
▁자각 -15740
▁처칠 -15741
▁체리 -15742
▁알칼리 -15743
▁들어올리 -15744
▁쿵 -15745
산업 -15746
VID -15747
▁감당 -15748
▁애호 -15749
▁후추 -15750
▁440 -15751
▁클라리 -15752
▁아우구스트 -15753
▁퀼 -15754
박이 -15755
자드 -15756
장군 -15757
▁"| -15758
▁PA -15759
▁광시 -15760
▁대등 -15761
▁부트 -15762
▁수아 -15763
▁시타 -15764
▁잇달 -15765
▁제고 -15766
▁타라 -15767
▁할구 -15768
▁수영장 -15769
▁잠비아 -15770
▁항생제 -15771
▁print -15772
▁ㄹㅈㅣㄹㅏㄷㅗ -15773
티보 -15774
▁게놈 -15775
▁남경 -15776
▁도나 -15777
▁동하 -15778
▁용문 -15779
▁유민 -15780
▁군주제 -15781
▁본거지 -15782
▁엘리엇 -15783
▁유기체 -15784
▁타지키스탄 -15785
▁public -15786
▁뜯 -15787
선교 -15788
▁당장 -15789
▁성자 -15790
▁신익 -15791
▁실베 -15792
▁압수 -15793
▁왕녀 -15794
▁커리 -15795
▁폴로 -15796
▁항전 -15797
▁Per -15798
▁바실리 -15799
▁스위트 -15800
▁야구부 -15801
▁여주인 -15802
▁조용히 -15803
▁즐거움 -15804
▁불법행위 -15805
▁쑨 -15806
길준 -15807
덕궁 -15808
수지 -15809
▁po -15810
▁궁주 -15811
▁금기 -15812
▁미타 -15813
▁소진 -15814
▁아로 -15815
▁전곡 -15816
▁접목 -15817
▁투병 -15818
▁실리콘 -15819
▁엘리스 -15820
▁오토모 -15821
▁합병증 -15822
대비 -15823
▁노엘 -15824
▁리노 -15825
▁사체 -15826
▁상회 -15827
▁앉히 -15828
▁앙상 -15829
▁역동 -15830
▁이석 -15831
▁자존 -15832
▁제방 -15833
▁종실 -15834
▁쿠루 -15835
▁투기 -15836
▁환산 -15837
▁페이퍼 -15838
▁허버트 -15839
▁리바운드 -15840
▁엔지니어링 -15841
▁ㅇㅡㄹㅅㅜㄹㅗㄱ -15842
▁CA -15843
▁nm -15844
▁나토 -15845
▁동두 -15846
▁라쿠 -15847
▁성현 -15848
▁열거 -15849
▁유관 -15850
▁은평 -15851
▁이한 -15852
▁증축 -15853
▁화이 -15854
▁흐트 -15855
▁Hot -15856
▁ㄹㄹㅗ -15857
▁공성전 -15858
▁산투스 -15859
▁슈트라 -15860
▁양산시 -15861
▁엔리케 -15862
▁영화관 -15863
바이러스 -15864
▁헬레니즘 -15865
레미 -15866
자나 -15867
▁균등 -15868
▁명동 -15869
▁무패 -15870
▁문어 -15871
▁사나 -15872
▁아루 -15873
▁퀸스 -15874
로그램 -15875
▁바레인 -15876
▁부추기 -15877
▁제시카 -15878
▁카스텔 -15879
▁2500 -15880
25 -15881
데오 -15882
황제 -15883
▁교학 -15884
▁그릴 -15885
▁기시 -15886
▁담수 -15887
▁리지 -15888
▁마거 -15889
▁북마 -15890
▁시영 -15891
▁식이 -15892
▁온전 -15893
▁왕좌 -15894
▁요셉 -15895
▁콜리 -15896
▁파고 -15897
▁환초 -15898
▁256 -15899
▁살아오 -15900
▁오우치 -15901
▁대법원장 -15902
▁다마스쿠스 -15903
▁슈트라우스 -15904
쿠치 -15905
▁매복 -15906
▁바바 -15907
▁이설 -15908
▁코니 -15909
ㄹㄹㅗ -15910
▁고다이 -15911
▁기본법 -15912
▁부서지 -15913
▁시에라 -15914
▁캅카스 -15915
▁플래닛 -15916
▁천문단위 -15917
ㅁㅏㄹㄹㅗ -15918
ty -15919
발트 -15920
▁내시 -15921
▁사목 -15922
▁접시 -15923
▁중신 -15924
▁코인 -15925
▁Win -15926
▁맞물리 -15927
▁비행사 -15928
▁초고층 -15929
16 -15930
일체 -15931
ual -15932
▁군도 -15933
▁사스 -15934
▁정직 -15935
▁헐리 -15936
고로드 -15937
▁ㅁㅓㄴ -15938
▁버스터 -15939
▁왕당파 -15940
포리 -15941
▁광동 -15942
▁성교 -15943
▁성형 -15944
▁우타 -15945
▁탈피 -15946
▁향로 -15947
ogle -15948
▁광합성 -15949
▁랴오닝 -15950
▁부러지 -15951
▁접근성 -15952
▁페르시 -15953
▁사이클론 -15954
▁크리스탈 -15955
▁동체 -15956
▁셔츠 -15957
▁아역 -15958
▁왕릉 -15959
▁유미 -15960
▁카츠 -15961
▁피질 -15962
▁호찌 -15963
▁렌더링 -15964
▁지극히 -15965
▁최진실 -15966
빨리 -15967
스틱 -15968
▁고독 -15969
▁반정 -15970
▁반향 -15971
▁오차 -15972
▁패자 -15973
▁힐스 -15974
▁예수교 -15975
▁이세이 -15976
▁프리드 -15977
울루 -15978
자락 -15979
▁가결 -15980
▁교명 -15981
▁농협 -15982
▁라사 -15983
▁석재 -15984
▁실책 -15985
▁양구 -15986
▁행운 -15987
▁깨어나 -15988
▁남북조 -15989
▁매니아 -15990
▁브루노 -15991
▁요나라 -15992
▁리치먼드 -15993
▁캥 -15994
다임 -15995
커우 -15996
▁Ke -15997
▁금리 -15998
▁깊숙 -15999
▁담임 -16000
▁바타 -16001
▁응력 -16002
그래피 -16003
▁예비군 -16004
▁제주시 -16005
▁조연상 -16006
▁주둔지 -16007
▁1789 -16008
▁HS -16009
▁아구 -16010
▁체질 -16011
▁코일 -16012
▁킬러 -16013
던지기 -16014
▁208 -16015
▁베이직 -16016
▁춘천시 -16017
▁기타큐슈 -16018
▁플랑드르 -16019
▁아미타여래 -16020
무트 -16021
▁NM -16022
▁녹이 -16023
▁득실 -16024
▁미녀 -16025
▁봉분 -16026
▁부안 -16027
▁여관 -16028
▁예쁘 -16029
▁워낙 -16030
▁이보 -16031
▁칠곡 -16032
▁트램 -16033
▁생산자 -16034
▁오이타 -16035
▁유도탄 -16036
▁토론회 -16037
▁호기심 -16038
▁후유증 -16039
▁1801 -16040
▁Back -16041
는점 -16042
▁mu -16043
▁노골 -16044
▁느슨 -16045
▁스팀 -16046
▁시온 -16047
▁즉흥 -16048
▁지브 -16049
▁촐라 -16050
▁할로 -16051
프리드 -16052
▁911 -16053
▁사무엘 -16054
▁스텔스 -16055
▁웨슬리 -16056
▁조제프 -16057
▁패러다임 -16058
불명 -16059
RNA -16060
▁강타 -16061
▁곱하 -16062
▁기피 -16063
▁유독 -16064
▁히코 -16065
▁머큐리 -16066
▁유길준 -16067
▁잠재력 -16068
▁재결합 -16069
▁1400 -16070
▁Kore -16071
▁포틀랜드 -16072
▁ㅅㅡㅂㄴㅣㄲㅏ -16073
▁둠 -16074
평면 -16075
▁강자 -16076
▁사조 -16077
▁소노 -16078
▁총생 -16079
▁폐교 -16080
▁다행히 -16081
▁아르테 -16082
ll -16083
▁기한 -16084
▁내기 -16085
▁누마 -16086
▁멘델 -16087
▁신천 -16088
▁쌍용 -16089
▁악어 -16090
▁전과 -16091
▁정중 -16092
▁준하 -16093
▁진성 -16094
▁초석 -16095
▁침수 -16096
리오스 -16097
▁네바다 -16098
▁들여오 -16099
▁불거지 -16100
▁이회창 -16101
▁판매고 -16102
▁암스트롱 -16103
인산 -16104
▁Fl -16105
▁MD -16106
▁동률 -16107
▁안시 -16108
▁영성 -16109
▁원곡 -16110
▁작자 -16111
▁치밀 -16112
▁Get -16113
▁MIT -16114
▁길버트 -16115
▁사천왕 -16116
▁영문학 -16117
▁ㄹㅏㄴㅣ -16118
제사 -16119
▁KD -16120
▁구애 -16121
▁대용 -16122
▁에픽 -16123
▁이크 -16124
▁치킨 -16125
▁파피 -16126
▁광주시 -16127
▁디아스 -16128
▁로런스 -16129
▁사망률 -16130
▁지배하 -16131
▁남한산성 -16132
▁비로자나 -16133
로움 -16134
스텐 -16135
▁겨냥 -16136
▁교란 -16137
▁국산 -16138
▁군량 -16139
▁애프 -16140
▁윤곽 -16141
▁조율 -16142
▁중학 -16143
▁탄력 -16144
▁브릿지 -16145
▁앙상블 -16146
▁NATO -16147
ox -16148
▁NL -16149
▁오웬 -16150
▁청중 -16151
▁370 -16152
▁ㅇㅗㅂ -16153
▁내몽골 -16154
▁마거릿 -16155
▁방법론 -16156
▁브루크 -16157
▁양평군 -16158
▁영장류 -16159
▁유물론 -16160
▁쐐 -16161
▁킵 -16162
라과 -16163
▁NA -16164
▁가전 -16165
▁갑신 -16166
▁거품 -16167
▁구부 -16168
▁군림 -16169
▁기일 -16170
▁발열 -16171
▁약품 -16172
▁채집 -16173
▁첫날 -16174
ames -16175
▁생물학자 -16176
▁프린세스 -16177
▁궁수 -16178
▁균열 -16179
▁변천 -16180
▁총국 -16181
▁225 -16182
▁마운틴 -16183
▁붉은색 -16184
▁드래곤즈 -16185
▁미식축구 -16186
▁Intern -16187
▁렬 -16188
이상 -16189
▁관저 -16190
▁구명 -16191
▁도화 -16192
▁레저 -16193
▁미로 -16194
▁신궁 -16195
▁쐐기 -16196
▁악의 -16197
lect -16198
▁Mag -16199
▁급속도 -16200
▁동일시 -16201
▁선수상 -16202
▁독립선언 -16203
▁탄수화물 -16204
▁항공우주 -16205
모닉 -16206
▁극회 -16207
▁먼로 -16208
▁미디 -16209
▁민선 -16210
▁승선 -16211
▁예편 -16212
▁우디 -16213
▁출정 -16214
▁카인 -16215
▁흘러가 -16216
ology -16217
▁이마가와 -16218
▁해수욕장 -16219
GO -16220
▁관원 -16221
▁성부 -16222
▁세타 -16223
▁승마 -16224
▁안건 -16225
▁얼리 -16226
▁장승 -16227
▁제헌 -16228
▁커넥 -16229
▁코딩 -16230
▁타키 -16231
▁탄성 -16232
▁트론 -16233
▁하세 -16234
▁현관 -16235
▁후난 -16236
▁남아공 -16237
▁디렉터 -16238
▁메신저 -16239
▁알베르 -16240
▁오리건 -16241
▁추축국 -16242
▁후반전 -16243
▁리하르트 -16244
▁셀레우코스 -16245
YP -16246
▁가변 -16247
▁노름 -16248
▁로만 -16249
▁무소 -16250
▁솔직 -16251
▁유재 -16252
▁책정 -16253
▁코디 -16254
▁호지 -16255
▁방문객 -16256
▁요시카 -16257
▁ㄱㅗㄴㅡㄴ -16258
의금 -16259
피카 -16260
let -16261
▁군위 -16262
▁다채 -16263
▁만물 -16264
▁열기 -16265
▁제타 -16266
▁나카노 -16267
▁부천시 -16268
▁와이어 -16269
▁작아지 -16270
▁클라인 -16271
그라운드 -16272
ature -16273
▁Baby -16274
▁니카라과 -16275
▁트로츠키 -16276
▁나날 -16277
▁무쓰 -16278
▁생포 -16279
▁오랑 -16280
▁유익 -16281
▁장차 -16282
▁지회 -16283
▁캡틴 -16284
▁케로 -16285
▁호전 -16286
피에르 -16287
▁미요시 -16288
▁베테랑 -16289
▁부사장 -16290
▁레오나르 -16291
▁서귀포시 -16292
▁안티오키아 -16293
17 -16294
▁갸 -16295
▁뿜 -16296
레븐 -16297
백색 -16298
파니 -16299
ove -16300
▁누에 -16301
▁니트 -16302
▁무루 -16303
▁진위 -16304
▁최순 -16305
▁캔터 -16306
▁효성 -16307
▁시나노 -16308
▁콜라보 -16309
▁태양광 -16310
▁돼지고기 -16311
▁에두아르 -16312
▁베오그라드 -16313
남동 -16314
능력 -16315
득점 -16316
▁격화 -16317
▁사일 -16318
▁안락 -16319
▁황하 -16320
▁흉내 -16321
▁거듭나 -16322
▁블러드 -16323
▁신안군 -16324
▁이유로 -16325
경찰 -16326
락부 -16327
무실 -16328
enn -16329
▁가령 -16330
▁고관 -16331
▁공훈 -16332
▁리라 -16333
▁생장 -16334
▁소마 -16335
▁주스 -16336
▁초판 -16337
▁친히 -16338
▁탄광 -16339
코비치 -16340
▁기네스 -16341
▁범어사 -16342
▁스태프 -16343
▁주세페 -16344
심원 -16345
차리 -16346
▁BB -16347
▁BO -16348
▁Cr -16349
▁강구 -16350
▁박태 -16351
▁베아 -16352
▁불길 -16353
▁서곡 -16354
▁외가 -16355
▁조엘 -16356
▁카노 -16357
▁카불 -16358
▁파출 -16359
▁피시 -16360
▁합장 -16361
inal -16362
▁고스트 -16363
▁다카시 -16364
▁두더지 -16365
▁리카르 -16366
▁페라리 -16367
▁게오르기 -16368
▁프레더릭 -16369
UM -16370
▁씬 -16371
ors -16372
▁개축 -16373
▁경산 -16374
▁고취 -16375
▁김장 -16376
▁대소 -16377
▁도보 -16378
▁레반 -16379
▁매튜 -16380
▁비방 -16381
▁사옥 -16382
▁수화 -16383
▁출항 -16384
스트림 -16385
▁GPS -16386
▁강릉시 -16387
▁만주족 -16388
▁타일러 -16389
▁로베르트 -16390
ㄹㅏㄴㅡㄴ -16391
▁개리 -16392
▁공지 -16393
▁도식 -16394
▁명장 -16395
▁연어 -16396
▁유감 -16397
▁천태 -16398
▁철근 -16399
▁출병 -16400
▁포메 -16401
▁효모 -16402
말라야 -16403
▁Res -16404
▁김종직 -16405
▁압둘라 -16406
▁이치로 -16407
▁인문학 -16408
▁혈액형 -16409
TN -16410
▁결투 -16411
▁깁슨 -16412
▁듀엣 -16413
▁라테 -16414
▁브이 -16415
▁야만 -16416
▁약수 -16417
▁틈타 -16418
▁하츠 -16419
▁흡입 -16420
▁Way -16421
▁스트라 -16422
▁해수면 -16423
▁이리하여 -16424
금속 -16425
메랄 -16426
훈련 -16427
▁DA -16428
▁공평 -16429
▁레르 -16430
▁봉헌 -16431
▁잔치 -16432
▁조너 -16433
▁폭주 -16434
▁한꺼 -16435
▁207 -16436
▁365 -16437
▁알레산 -16438
▁체육회 -16439
▁태극기 -16440
▁서대문구 -16441
▁선거인단 -16442
▁한꺼번에 -16443
갱이 -16444
덱스 -16445
▁교내 -16446
▁굳이 -16447
▁기형 -16448
▁미끄 -16449
▁베라 -16450
▁베컴 -16451
▁알마 -16452
▁운석 -16453
▁직각 -16454
▁춘향 -16455
▁키치 -16456
▁동북부 -16457
▁스펜서 -16458
▁아열대 -16459
▁이지스 -16460
▁Amer -16461
광사 -16462
즈미 -16463
▁명중 -16464
▁미추 -16465
▁살레 -16466
▁양위 -16467
▁증류 -16468
▁천적 -16469
▁통킹 -16470
▁풋살 -16471
▁흑색 -16472
▁일제히 -16473
노스아이 -16474
▁1815 -16475
▁1820 -16476
▁아르바이트 -16477
노스아이레스 -16478
▁부에노스아이레스 -16479
▁둑 -16480
마니 -16481
시카 -16482
app -16483
▁OK -16484
▁결렬 -16485
▁도량 -16486
▁맞닿 -16487
▁박동 -16488
▁설과 -16489
▁신안 -16490
▁핼리 -16491
▁화교 -16492
스티안 -16493
이즈미 -16494
▁무정부 -16495
▁어드밴 -16496
▁지방도 -16497
▁페레스 -16498
▁프린터 -16499
▁히말라야 -16500
▁소크라테스 -16501
24 -16502
▁공보 -16503
▁그간 -16504
▁북송 -16505
▁사계 -16506
▁세도 -16507
▁습도 -16508
▁에든 -16509
▁청군 -16510
▁감마선 -16511
▁노무라 -16512
▁조합원 -16513
▁Cent -16514
▁에든버러 -16515
FS -16516
처럼 -16517
▁격침 -16518
▁결단 -16519
▁내역 -16520
▁비이 -16521
▁시성 -16522
▁인노 -16523
▁총수 -16524
▁퇴계 -16525
▁야행성 -16526
▁라이온스 -16527
▁리얼리티 -16528
▁레닌그라드 -16529
▁낸 -16530
가요 -16531
나비 -16532
오드 -16533
월드 -16534
ina -16535
▁담장 -16536
▁모잠 -16537
▁변조 -16538
▁시편 -16539
▁전극 -16540
▁죄인 -16541
▁한라 -16542
▁호박 -16543
ange -16544
▁국무부 -16545
▁농민군 -16546
▁사법부 -16547
▁오징어 -16548
▁전동기 -16549
▁함부로 -16550
▁모잠비크 -16551
현실 -16552
▁던전 -16553
▁만수 -16554
▁서역 -16555
▁술집 -16556
▁표어 -16557
▁해머 -16558
ater -16559
▁ㄱㅜㄴ -16560
▁시아파 -16561
▁제품군 -16562
▁후베이 -16563
로프로세서 -16564
▁System -16565
▁마이크로프로세서 -16566
▁Dr -16567
▁격상 -16568
▁김석 -16569
▁스틱 -16570
▁양분 -16571
▁월경 -16572
▁천리 -16573
▁필로 -16574
▁도나우 -16575
▁디나모 -16576
▁리그전 -16577
▁유명세 -16578
▁정몽주 -16579
▁지포스 -16580
▁트럼펫 -16581
▁마쓰모토 -16582
▁결실 -16583
▁굴욕 -16584
▁김은 -16585
▁담그 -16586
▁데니 -16587
▁로제 -16588
▁부이 -16589
▁에다 -16590
▁윈드 -16591
▁토하 -16592
▁트롤 -16593
레이즈 -16594
어들이 -16595
▁조병옥 -16596
▁알베르트 -16597
▁유럽연합 -16598
▁카롤루스 -16599
▁막시밀리안 -16600
니츠 -16601
▁SW -16602
▁마취 -16603
▁세실 -16604
▁에인 -16605
▁재심 -16606
▁지반 -16607
▁트림 -16608
▁피쳐 -16609
▁허들 -16610
▁넘어지 -16611
▁아드리 -16612
▁모노이드 -16613
▁이오니아 -16614
▁알렉산드라 -16615
▁폼페이우스 -16616
za -16617
▁앳 -16618
거루 -16619
▁결집 -16620
▁노총 -16621
▁당사 -16622
▁리서 -16623
▁마초 -16624
▁소켓 -16625
▁어인 -16626
▁위태 -16627
▁으뜸 -16628
▁조나 -16629
▁직류 -16630
▁쿠사 -16631
▁학도 -16632
▁유공자 -16633
▁전망대 -16634
▁총생산 -16635
▁1858 -16636
▁알아차리 -16637
▁오스트로 -16638
쓰네 -16639
▁"' -16640
▁미완 -16641
▁본진 -16642
▁산마 -16643
▁성내 -16644
▁아토 -16645
▁융기 -16646
▁장론 -16647
▁장서 -16648
▁좌랑 -16649
▁코넬 -16650
▁모델링 -16651
▁혁명가 -16652
▁마그네슘 -16653
▁프로방스 -16654
ret -16655
▁갑오 -16656
▁기주 -16657
▁달마 -16658
▁벅스 -16659
▁성찬 -16660
▁슐레 -16661
▁영위 -16662
▁옵티 -16663
▁이구 -16664
▁충고 -16665
▁탈리 -16666
▁특위 -16667
▁펜스 -16668
▁Mac -16669
▁신익희 -16670
▁연습생 -16671
▁일진회 -16672
▁파블로 -16673
▁고고학자 -16674
▁이성질체 -16675
▁챈 -16676
비츠 -16677
입자 -16678
▁'- -16679
▁갈비 -16680
▁경구 -16681
▁녹말 -16682
▁배지 -16683
▁분담 -16684
▁하카 -16685
▁해내 -16686
▁가디언 -16687
▁민의원 -16688
▁조너선 -16689
▁필하모닉 -16690
▁class -16691
▁폴리네시아 -16692
동리 -16693
러기 -16694
토바 -16695
ons -16696
▁기욤 -16697
▁납품 -16698
▁본능 -16699
▁소정 -16700
▁에뮬 -16701
▁엠마 -16702
▁자막 -16703
▁창씨 -16704
▁테살 -16705
▁특혜 -16706
▁형광 -16707
▁날아오 -16708
▁도치기 -16709
▁제노바 -16710
▁중심핵 -16711
▁맞배지붕 -16712
가라 -16713
▁더빙 -16714
▁디펜 -16715
▁만연 -16716
▁사보 -16717
▁완산 -16718
▁장택 -16719
▁좌천 -16720
▁지뢰 -16721
▁합산 -16722
지먼트 -16723
ions -16724
▁라이드 -16725
▁마에다 -16726
▁봉수대 -16727
▁지팡이 -16728
▁크레타 -16729
▁필리스 -16730
▁천연가스 -16731
▁매니지먼트 -16732
ley -16733
▁의왕 -16734
▁이삭 -16735
▁이철 -16736
▁태상 -16737
▁토의 -16738
▁군산시 -16739
▁그리드 -16740
▁선데이 -16741
▁포인터 -16742
▁무궁화호 -16743
▁써 -16744
코인 -16745
▁낙태 -16746
▁농작 -16747
▁달래 -16748
▁상해 -16749
▁선서 -16750
▁소탕 -16751
▁육박 -16752
▁재주 -16753
▁종단 -16754
▁출루 -16755
▁Tra -16756
▁노트북 -16757
▁목포시 -16758
▁분홍색 -16759
▁스와프 -16760
▁시게루 -16761
▁유성구 -16762
▁적절히 -16763
▁전철역 -16764
▁항소심 -16765
▁서프랑크 -16766
att -16767
▁고택 -16768
▁광서 -16769
▁기민 -16770
▁동티 -16771
▁새해 -16772
▁수강 -16773
▁정공 -16774
▁진구 -16775
▁콘셉 -16776
▁토드 -16777
▁펠레 -16778
▁포섭 -16779
▁푸틴 -16780
▁Int -16781
▁USA -16782
▁넘어오 -16783
▁대학살 -16784
▁모터쇼 -16785
▁평의원 -16786
▁1814 -16787
라나 -16788
▁SG -16789
▁급사 -16790
▁대정 -16791
▁도난 -16792
▁매질 -16793
▁모여 -16794
▁사악 -16795
▁수선 -16796
▁실태 -16797
▁아말 -16798
▁Not -16799
▁ㄱㅔㅅ -16800
▁안티고 -16801
▁트랜싯 -16802
▁동아프리카 -16803
ux -16804
사랑 -16805
정제 -16806
▁견지 -16807
▁궁내 -16808
▁기교 -16809
▁남궁 -16810
▁니체 -16811
▁로타 -16812
▁마도 -16813
▁성제 -16814
▁안재 -16815
▁정현 -16816
▁테드 -16817
▁헬렌 -16818
▁쌍방울 -16819
▁평상시 -16820
▁type -16821
▁귤 -16822
당류 -16823
촌동 -16824
컨드 -16825
테일 -16826
▁말소 -16827
▁문성 -16828
▁미자 -16829
▁벨벳 -16830
▁위배 -16831
▁정과 -16832
▁총살 -16833
▁모조리 -16834
▁비올라 -16835
▁직할시 -16836
▁1300 -16837
널목 -16838
실험 -16839
자유 -16840
토쿠 -16841
ART -16842
▁귀하 -16843
▁덕수 -16844
▁독실 -16845
▁민가 -16846
▁음양 -16847
▁음역 -16848
▁핑계 -16849
▁헤지 -16850
▁흥덕 -16851
▁IEC -16852
▁MHz -16853
▁건너편 -16854
▁건널목 -16855
▁피드백 -16856
▁High -16857
NT -16858
거성 -16859
싸움 -16860
재단 -16861
▁Of -16862
▁아약 -16863
▁이덕 -16864
▁전집 -16865
▁증직 -16866
▁키아 -16867
▁튀기 -16868
▁휴먼 -16869
▁겨울철 -16870
▁수도사 -16871
▁충주시 -16872
▁보호구역 -16873
▁산업단지 -16874
▁알베르토 -16875
▁클라이맥스 -16876
▁Google -16877
BN -16878
▁엎 -16879
기둥 -16880
림동 -16881
▁기근 -16882
▁마틸 -16883
▁소치 -16884
▁우도 -16885
▁콤비 -16886
▁퍼플 -16887
▁War -16888
▁광화문 -16889
▁깨달음 -16890
▁마피아 -16891
▁미우라 -16892
▁밀어내 -16893
▁연구실 -16894
▁오나라 -16895
▁티무르 -16896
▁평택시 -16897
▁ㅂㄴㅣㄲㅏ -16898
니코 -16899
랭크 -16900
마일 -16901
▁kW -16902
▁바사 -16903
▁버거 -16904
▁부탄 -16905
▁석등 -16906
▁시차 -16907
▁신관 -16908
▁전액 -16909
▁퀘이 -16910
▁맞대결 -16911
▁성북구 -16912
▁세컨드 -16913
▁액티브 -16914
▁플래그 -16915
▁What -16916
▁암모니아 -16917
데냐 -16918
민정 -16919
▁간지 -16920
▁견훤 -16921
▁고갈 -16922
▁미에 -16923
▁비호 -16924
▁윗면 -16925
▁유승 -16926
▁전란 -16927
▁제보 -16928
▁주상 -16929
▁캐럴 -16930
▁헤임 -16931
▁홍천 -16932
씨식물 -16933
▁WHO -16934
▁니스트 -16935
▁막아내 -16936
▁패트리 -16937
▁프렌즈 -16938
▁그래미상 -16939
▁사르데냐 -16940
▁석가여래 -16941
ㄷㅡㄴㄱㅏ -16942
▁고요 -16943
▁공해 -16944
▁군비 -16945
▁군집 -16946
▁라지 -16947
▁레미 -16948
▁목화 -16949
▁스팅 -16950
▁애쓰 -16951
▁증원 -16952
▁쿠리 -16953
▁진정하 -16954
▁한정판 -16955
살바도르 -16956
▁1795 -16957
▁부위원장 -16958
▁조선왕조실록 -16959
▁규장 -16960
▁바하 -16961
▁보카 -16962
▁열망 -16963
▁예일 -16964
▁완주 -16965
▁패퇴 -16966
▁페데 -16967
▁헨드 -16968
▁미시간 -16969
▁아약스 -16970
▁혁명군 -16971
▁플레이스 -16972
퍼트 -16973
회원 -16974
ger -16975
▁FS -16976
▁군락 -16977
▁도표 -16978
▁수의 -16979
▁스쿠 -16980
▁우대 -16981
▁지층 -16982
▁포진 -16983
정보부 -16984
▁290 -16985
▁LCK -16986
▁국문학 -16987
▁라쿠텐 -16988
▁성명서 -16989
▁연금술 -16990
▁우승컵 -16991
▁익산시 -16992
▁통신부 -16993
▁플라자 -16994
▁다리우스 -16995
▁토스카나 -16996
▁밈 -16997
▁윔 -16998
베인 -16999
식스 -17000
전차 -17001
▁루지 -17002
▁리츠 -17003
▁발췌 -17004
▁보육 -17005
▁본초 -17006
▁애매 -17007
▁원생 -17008
▁초당 -17009
▁재빨리 -17010
구멍 -17011
alk -17012
▁PH -17013
▁멘토 -17014
▁스톨 -17015
▁암초 -17016
▁약학 -17017
▁에런 -17018
▁우사 -17019
▁춤추 -17020
▁패드 -17021
▁TBC -17022
▁블루어 -17023
▁주교좌 -17024
▁커티스 -17025
▁With -17026
▁디렉터리 -17027
▁샌드위치 -17028
▁크리스천 -17029
▁구석 -17030
▁도정 -17031
▁로동 -17032
▁로어 -17033
▁브람 -17034
▁아난 -17035
▁앨버 -17036
▁인대 -17037
▁잊히 -17038
▁정일 -17039
▁켈빈 -17040
▁프록 -17041
▁할양 -17042
▁허구 -17043
▁혼돈 -17044
지스터 -17045
▁MLB -17046
▁관찰자 -17047
▁홉킨스 -17048
ye -17049
▁렝 -17050
부미 -17051
▁RA -17052
▁북상 -17053
▁얼터 -17054
▁총액 -17055
▁코지 -17056
▁Dis -17057
▁로렌초 -17058
▁스레드 -17059
▁원정군 -17060
▁창덕궁 -17061
▁하모니 -17062
▁켓 -17063
고나 -17064
yle -17065
▁모식 -17066
▁몬태 -17067
▁보훈 -17068
▁비욘 -17069
▁실크 -17070
▁아랑 -17071
▁아핀 -17072
▁열풍 -17073
▁포교 -17074
디우스 -17075
▁480 -17076
▁ㅇㅓㅇ -17077
▁남조선 -17078
▁리포트 -17079
▁선언문 -17080
▁수마트라 -17081
▁ㅁㅕㄴㅇㅡㄴ -17082
▁쥘 -17083
건적 -17084
라도 -17085
카라 -17086
▁부녀 -17087
▁아픔 -17088
▁알렌 -17089
▁에린 -17090
▁장준 -17091
▁함의 -17092
▁헬로 -17093
▁850 -17094
▁Art -17095
▁남해군 -17096
▁대항해 -17097
▁스타즈 -17098
▁에히메 -17099
▁창업자 -17100
▁트루먼 -17101
▁헬싱키 -17102
의금부사 -17103
▁안드레이 -17104
▁프로이트 -17105
▁트랜지스터 -17106
▁괴뢰 -17107
▁당명 -17108
▁매춘 -17109
▁보궐 -17110
▁선회 -17111
▁세베 -17112
▁우이 -17113
▁웰스 -17114
▁종친 -17115
▁풍수 -17116
▁238 -17117
▁북반구 -17118
▁정확도 -17119
▁합천군 -17120
▁아틀레틱 -17121
▁그리스도인 -17122
스테 -17123
팽이 -17124
enc -17125
▁급기 -17126
▁김세 -17127
▁니나 -17128
▁미숙 -17129
▁반야 -17130
▁숭실 -17131
▁천정 -17132
주니어 -17133
▁고조선 -17134
▁보행자 -17135
▁드레이크 -17136
▁관대 -17137
▁광택 -17138
▁데쓰 -17139
▁승전 -17140
▁영재 -17141
▁옥상 -17142
▁유원 -17143
▁장조 -17144
▁토비 -17145
▁평신 -17146
▁훈족 -17147
플레잉 -17148
▁ㄷㅔㄴ -17149
▁개최지 -17150
▁충렬왕 -17151
▁페테르 -17152
▁프리킥 -17153
▁가나자와 -17154
▁롤플레잉 -17155
레프 -17156
▁논설 -17157
▁덩굴 -17158
▁랜덤 -17159
▁버시 -17160
▁연유 -17161
▁윈터 -17162
▁첨부 -17163
가하라 -17164
ough -17165
▁빅토리 -17166
▁요시아키 -17167
▁COVID -17168
▁Di -17169
▁각광 -17170
▁구토 -17171
▁기악 -17172
▁머피 -17173
▁비어 -17174
▁직권 -17175
▁팀장 -17176
▁남반구 -17177
▁보호관 -17178
▁안데르 -17179
▁지방관 -17180
▁Blue -17181
UI -17182
렁이 -17183
▁ㄹㄹ -17184
▁경이 -17185
▁교주 -17186
▁노화 -17187
▁더럽 -17188
▁민권 -17189
▁박승 -17190
▁웅진 -17191
▁장항 -17192
▁정여 -17193
네소스 -17194
▁공직자 -17195
▁수번뇌 -17196
▁타블로 -17197
▁포스코 -17198
▁1793 -17199
▁카테고리 -17200
▁그리스도교 -17201
▁키르기스스탄 -17202
던스 -17203
천국 -17204
▁골수 -17205
▁국지 -17206
▁굶주 -17207
▁보츠 -17208
▁불평 -17209
▁서강 -17210
▁소도 -17211
▁효용 -17212
다람쥐 -17213
▁Rev -17214
▁바로잡 -17215
▁사이공 -17216
▁산체스 -17217
▁스타인 -17218
▁이완용 -17219
▁취약점 -17220
▁크라스 -17221
▁1846 -17222
▁MPEG -17223
▁사탕수수 -17224
▁이베리아 -17225
메트 -17226
블린 -17227
적분 -17228
que -17229
▁ㄲㅗ -17230
▁구룡 -17231
▁대뇌 -17232
▁데메 -17233
▁리저 -17234
▁묘법 -17235
▁쇠약 -17236
▁수렵 -17237
▁신구 -17238
▁올랭 -17239
▁율령 -17240
▁이트 -17241
▁정병 -17242
▁차분 -17243
▁천구 -17244
▁공기업 -17245
▁노르트 -17246
▁문하시 -17247
▁보라색 -17248
▁아산시 -17249
▁아칸소 -17250
▁페인트 -17251
▁물리학상 -17252
▁브루나이 -17253
26 -17254
▁뱌 -17255
ING -17256
OVE -17257
▁ED -17258
▁괴멸 -17259
▁구자 -17260
▁멜론 -17261
▁미코 -17262
▁서보 -17263
▁설사 -17264
▁용접 -17265
▁쿠릴 -17266
▁하순 -17267
연화경 -17268
웨스트 -17269
▁돌아서 -17270
▁등록금 -17271
▁유격대 -17272
▁학생회 -17273
▁1839 -17274
▁에드먼드 -17275
▁자유민주 -17276
▁중앙정보부 -17277
ump -17278
▁갤러 -17279
▁국과 -17280
▁남포 -17281
▁니콘 -17282
▁당분 -17283
▁맛있 -17284
▁역모 -17285
▁오호 -17286
▁와해 -17287
▁월북 -17288
▁직함 -17289
▁페터 -17290
▁학급 -17291
▁농작물 -17292
▁손바닥 -17293
▁엉덩이 -17294
▁추밀원 -17295
▁time -17296
▁하시모토 -17297
뉴스 -17298
르모 -17299
전쟁 -17300
파스 -17301
▁'. -17302
▁간디 -17303
▁과부 -17304
▁만기 -17305
▁무당 -17306
▁이효 -17307
▁퇴단 -17308
비우스 -17309
슬라브 -17310
시우스 -17311
▁배수량 -17312
▁시어터 -17313
▁여객선 -17314
▁중서부 -17315
▁1854 -17316
▁히로부미 -17317
▁시즈오카현 -17318
▁아오모리현 -17319
나물 -17320
바람 -17321
▁NX -17322
▁ㄱㅓ -17323
▁공덕 -17324
▁교묘 -17325
▁산불 -17326
▁삼키 -17327
▁순정 -17328
▁이국 -17329
▁국무원 -17330
▁아테나 -17331
▁에밀리 -17332
▁테트라 -17333
▁아나키즘 -17334
IO -17335
▁꼼 -17336
▁훅 -17337
고트 -17338
운전 -17339
질량 -17340
▁MT -17341
▁감탄 -17342
▁갑각 -17343
▁낙타 -17344
▁독소 -17345
▁몸집 -17346
▁유시 -17347
▁존상 -17348
▁펀치 -17349
▁표결 -17350
▁해자 -17351
▁휘트 -17352
▁베드로 -17353
▁아쿠아 -17354
▁전기장 -17355
▁촘 -17356
래시 -17357
der -17358
▁Vf -17359
▁걸맞 -17360
▁게일 -17361
▁군국 -17362
▁도색 -17363
▁망루 -17364
▁미묘 -17365
▁본당 -17366
▁부윤 -17367
▁심근 -17368
▁심플 -17369
▁엄정 -17370
▁정강 -17371
▁총체 -17372
▁추위 -17373
▁학창 -17374
▁737 -17375
▁대머리 -17376
▁외무성 -17377
▁체스터 -17378
▁트리니다드 -17379
▁중앙아프리카 -17380
모자 -17381
▁경멸 -17382
▁윤원 -17383
▁클루 -17384
▁현충 -17385
티우스 -17386
▁214 -17387
▁가시마 -17388
▁가입자 -17389
▁버나드 -17390
▁상대론 -17391
▁수증기 -17392
▁알레르 -17393
▁기념사업 -17394
▁언어학자 -17395
▁초등학생 -17396
대성 -17397
재란 -17398
후이 -17399
▁바일 -17400
▁범용 -17401
▁분양 -17402
▁세탁 -17403
▁아민 -17404
▁억류 -17405
▁베일리 -17406
▁분류학 -17407
▁산둥성 -17408
▁이브라 -17409
▁파트리 -17410
▁팩토리 -17411
총리대신 -17412
▁기독교인 -17413
▁어드밴스 -17414
▁자연주의 -17415
▁정유재란 -17416
▁세키가하라 -17417
▁내각총리대신 -17418
▁뚱 -17419
패스 -17420
▁구인 -17421
▁방조 -17422
▁손책 -17423
▁솔트 -17424
▁여과 -17425
▁인신 -17426
▁필기 -17427
▁환기 -17428
▁COM -17429
▁기부금 -17430
▁윤리학 -17431
▁조계종 -17432
▁최하위 -17433
▁평화상 -17434
▁하카타 -17435
▁후임자 -17436
스트리트 -17437
▁비지니스 -17438
▁여주인공 -17439
▁등대 -17440
▁마한 -17441
▁야로 -17442
▁이형 -17443
▁인출 -17444
▁잠들 -17445
▁칼레 -17446
▁Min -17447
▁메이트 -17448
▁안중근 -17449
▁키워드 -17450
▁황태후 -17451
▁개전 -17452
▁내구 -17453
▁박준 -17454
▁브론 -17455
▁상작 -17456
▁이부 -17457
▁제식 -17458
▁참배 -17459
▁코레 -17460
▁페드 -17461
학생회 -17462
▁LCD -17463
▁교토부 -17464
▁낙하산 -17465
▁비행대 -17466
▁갈릴레이 -17467
▁비트코인 -17468
우어 -17469
▁ME -17470
▁ㅇㅠ -17471
▁고압 -17472
▁디온 -17473
▁라몬 -17474
▁루머 -17475
▁매번 -17476
▁박기 -17477
▁비크 -17478
▁상투 -17479
▁석상 -17480
▁오닐 -17481
▁오딘 -17482
▁유폐 -17483
▁찬탈 -17484
▁치중 -17485
▁특례 -17486
▁팬아 -17487
▁페가 -17488
▁후시 -17489
독립당 -17490
▁경비대 -17491
▁돗토리 -17492
▁보나파 -17493
▁북극해 -17494
▁증명서 -17495
▁초대칭 -17496
▁파출소 -17497
▁1849 -17498
▁공화주의 -17499
▁미성년자 -17500
▁오브젝트 -17501
▁총학생회 -17502
▁ㅁㅏㄴㅡㄴ -17503
▁보나파르트 -17504
▁한국독립당 -17505
28 -17506
▁돛 -17507
▁퓌 -17508
탐정 -17509
▁간염 -17510
▁베버 -17511
▁북해 -17512
▁새턴 -17513
▁수표 -17514
▁이견 -17515
▁종주 -17516
▁파드 -17517
▁하디 -17518
캐스트 -17519
프랑스 -17520
▁넥스트 -17521
▁데포르 -17522
▁델라웨어 -17523
▁플로이드 -17524
▁넉 -17525
▁견습 -17526
▁교포 -17527
▁낙랑 -17528
▁내수 -17529
▁매월 -17530
▁바덴 -17531
▁시경 -17532
▁시주 -17533
▁웅장 -17534
▁존엄 -17535
▁화북 -17536
▁가파르 -17537
▁구청장 -17538
▁나가노 -17539
▁시공간 -17540
▁지난해 -17541
▁1856 -17542
▁Beat -17543
▁ㄴㅡㄹㅏ -17544
▁네덜란드어 -17545
HD -17546
사회 -17547
정권 -17548
호프 -17549
▁계투 -17550
▁광경 -17551
▁귀양 -17552
▁깜짝 -17553
▁남로 -17554
▁미모 -17555
▁분장 -17556
▁수류 -17557
▁신작 -17558
▁어이 -17559
▁오기 -17560
▁우동 -17561
▁웨일 -17562
▁육아 -17563
▁인피 -17564
▁장령 -17565
▁철원 -17566
▁태세 -17567
직할시 -17568
코스트 -17569
쿠스틱 -17570
▁변속기 -17571
▁식물원 -17572
▁에리크 -17573
베이거스 -17574
▁어쿠스틱 -17575
누아 -17576
▁분쇄 -17577
▁소란 -17578
▁이안 -17579
▁적재 -17580
atch -17581
▁장택상 -17582
▁절대로 -17583
▁포위전 -17584
▁하이든 -17585
▁1851 -17586
▁크레이그 -17587
▁하이웨이 -17588
▁라스베이거스 -17589
23 -17590
▁깡 -17591
▁줌 -17592
담회 -17593
오린 -17594
케스 -17595
호르 -17596
▁만국 -17597
▁밀스 -17598
▁변방 -17599
▁본디 -17600
▁사죄 -17601
▁사흘 -17602
▁소홀 -17603
▁씨름 -17604
▁요아 -17605
▁해일 -17606
▁헤엄 -17607
타니아 -17608
▁430 -17609
▁감염자 -17610
▁스탠퍼드 -17611
▁페더레이션 -17612
OU -17613
체어 -17614
▁낙엽 -17615
▁모기 -17616
▁민생 -17617
▁배설 -17618
▁비참 -17619
▁실로 -17620
▁연임 -17621
▁예속 -17622
▁유장 -17623
▁윤영 -17624
▁촌은 -17625
▁419 -17626
▁갖가지 -17627
▁건국대 -17628
▁교직원 -17629
▁디스코 -17630
▁레인보 -17631
▁입출력 -17632
▁해럴드 -17633
▁마음대로 -17634
▁사보이아 -17635
▁상파울루 -17636
▁이해관계 -17637
▁차량기지 -17638
▁PP -17639
▁도독 -17640
▁셔먼 -17641
▁수배 -17642
▁효능 -17643
▁후백 -17644
▁벤피카 -17645
▁보르도 -17646
▁참모장 -17647
▁스티븐스 -17648
▁캐나다인 -17649
▁캔자스시티 -17650
86 -17651
▁럴 -17652
처리 -17653
▁김문 -17654
▁단사 -17655
▁라티 -17656
▁볼륨 -17657
▁상체 -17658
▁서천 -17659
▁수서 -17660
▁원성 -17661
▁주경 -17662
▁추궁 -17663
▁FBI -17664
▁Top -17665
▁다이나 -17666
▁어리석 -17667
▁진보당 -17668
▁찬드라 -17669
▁캥거루 -17670
▁하동군 -17671
▁1855 -17672
▁1857 -17673
▁블레이드 -17674
▁소용돌이 -17675
▁오하이오주 -17676
개혁 -17677
하늘 -17678
▁계란 -17679
▁대세 -17680
▁메사 -17681
▁보문 -17682
▁생가 -17683
▁쇼팽 -17684
▁알비 -17685
▁톨킨 -17686
▁현령 -17687
▁상속인 -17688
▁시부야 -17689
▁애벌레 -17690
▁핵폭탄 -17691
▁크리에이티브 -17692
산읍 -17693
섬유 -17694
▁간장 -17695
▁경색 -17696
▁적성 -17697
▁한서 -17698
▁서북쪽 -17699
▁수산물 -17700
▁휠체어 -17701
▁노동자당 -17702
봉사 -17703
하르 -17704
▁결탁 -17705
▁단성 -17706
▁담론 -17707
▁반려 -17708
▁벽면 -17709
▁서상 -17710
▁수훈 -17711
▁정시 -17712
▁착안 -17713
▁카잔 -17714
트로피 -17715
cess -17716
icro -17717
▁공사관 -17718
▁글리코 -17719
▁기념식 -17720
▁시흥시 -17721
▁아가씨 -17722
▁오비탈 -17723
▁작사가 -17724
▁폴란드인 -17725
▁여러해살이풀 -17726
▁뺏 -17727
▁좡 -17728
▁힉 -17729
버거 -17730
ery -17731
▁봉작 -17732
▁아모 -17733
▁엠블 -17734
▁여생 -17735
▁외동 -17736
▁캔디 -17737
고양이 -17738
콥스키 -17739
▁301 -17740
▁Med -17741
▁구미시 -17742
▁노스케 -17743
▁테이크 -17744
▁포천시 -17745
▁갑신정변 -17746
▁다이스케 -17747
▁정사각형 -17748
▁프란시스 -17749
BT -17750
깨비 -17751
댄스 -17752
카테 -17753
▁단호 -17754
▁분개 -17755
▁압송 -17756
▁제학 -17757
▁체첸 -17758
▁치수 -17759
▁페티 -17760
▁베르디 -17761
▁봉사자 -17762
▁시우바 -17763
▁지평선 -17764
▁투데이 -17765
▁포브스 -17766
츠부르크 -17767
▁이와테현 -17768
▁데포르티보 -17769
▁민족주의자 -17770
▁병마절도사 -17771
서구 -17772
일라 -17773
재기 -17774
천년 -17775
▁YM -17776
▁대광 -17777
▁신영 -17778
▁심슨 -17779
▁정년 -17780
▁주치 -17781
▁핵산 -17782
▁211 -17783
▁223 -17784
▁대주주 -17785
▁상세히 -17786
▁수수료 -17787
▁올라서 -17788
▁일간지 -17789
▁펠로폰 -17790
ㅇㅣㄷㅏ -17791
메니스탄 -17792
▁반공주의 -17793
▁펠로폰네소스 -17794
▁투르크메니스탄 -17795
전기 -17796
▁TG -17797
▁국면 -17798
▁롤리 -17799
▁명주 -17800
▁버퍼 -17801
▁셀룰 -17802
▁악역 -17803
▁유품 -17804
▁임베 -17805
▁팔자 -17806
▁해금 -17807
▁동의어 -17808
▁은하단 -17809
▁저작물 -17810
▁임베디드 -17811
레토 -17812
테른 -17813
▁CL -17814
▁거액 -17815
▁랜디 -17816
▁조력 -17817
▁지소 -17818
▁크세 -17819
▁탄원 -17820
▁택지 -17821
▁포구 -17822
▁NAD -17823
▁Pop -17824
▁나주시 -17825
▁비엔나 -17826
▁집어넣 -17827
▁헤이스 -17828
니엄 -17829
증권 -17830
흐트 -17831
▁반열 -17832
▁성간 -17833
▁성채 -17834
▁소망 -17835
▁수스 -17836
▁실습 -17837
▁역습 -17838
▁외벽 -17839
▁욕설 -17840
▁이학 -17841
▁쟁점 -17842
▁친절 -17843
▁폰트 -17844
▁현명 -17845
▁화전 -17846
▁히나 -17847
▁그로스 -17848
▁카운터 -17849
▁Free -17850
▁Will -17851
쇼프 -17852
ont -17853
▁IA -17854
▁권세 -17855
▁노회 -17856
▁만리 -17857
▁무왕 -17858
▁박격 -17859
▁벚꽃 -17860
▁슈바 -17861
▁원제 -17862
▁음경 -17863
▁인테 -17864
▁지병 -17865
▁카렐 -17866
▁대각선 -17867
▁모자라 -17868
▁1776 -17869
▁서아시아 -17870
▁ㄹㅕㄷㅏㄱㅏ -17871
로아 -17872
day -17873
▁돌핀 -17874
▁변장 -17875
▁빌미 -17876
▁열반 -17877
▁현청 -17878
▁늘어지 -17879
▁보니파 -17880
▁컨디션 -17881
▁행정관 -17882
▁서스펜션 -17883
니크 -17884
▁고증 -17885
▁대적 -17886
▁요네 -17887
▁율곡 -17888
▁읽히 -17889
▁조식 -17890
▁친목 -17891
▁템포 -17892
▁파격 -17893
▁루터교 -17894
▁마그마 -17895
▁배트맨 -17896
▁수송기 -17897
▁제이스 -17898
타고라스 -17899
▁무라카미 -17900
▁사카모토 -17901
▁플루오린 -17902
광선 -17903
소득 -17904
스탕 -17905
왕국 -17906
지대 -17907
▁CT -17908
▁대흥 -17909
▁코민 -17910
▁퇴사 -17911
▁한참 -17912
노벨라 -17913
루리아 -17914
시오날 -17915
▁레너드 -17916
▁모여들 -17917
▁바이스 -17918
▁변증법 -17919
▁하이델 -17920
▁형무소 -17921
▁나시오날 -17922
▁미주리주 -17923
▁엔트로피 -17924
▁그레고리력 -17925
▁텔레노벨라 -17926
27 -17927
바꿈 -17928
▁간파 -17929
▁급습 -17930
▁방한 -17931
▁선하 -17932
▁윤선 -17933
▁장구 -17934
▁타오 -17935
▁다면체 -17936
▁병원체 -17937
▁아세트 -17938
▁오카다 -17939
▁웨이트 -17940
▁이범석 -17941
▁핵실험 -17942
▁올랭피크 -17943
▁태평천국 -17944
볼트 -17945
투안 -17946
하스 -17947
▁골목 -17948
▁금광 -17949
▁까다 -17950
▁뇌졸 -17951
▁문교 -17952
▁미안 -17953
▁부총 -17954
▁서던 -17955
▁알론 -17956
▁언약 -17957
▁중첩 -17958
▁회부 -17959
▁XML -17960
▁가속기 -17961
▁달라이 -17962
▁클라라 -17963
▁캄파니아주 -17964
가야 -17965
연대 -17966
▁개요 -17967
▁발송 -17968
▁센스 -17969
▁오도 -17970
▁항모 -17971
▁현생 -17972
리어스 -17973
▁독립국 -17974
▁뽑아내 -17975
▁스나이 -17976
▁통합진보당 -17977
ma -17978
모습 -17979
▁MW -17980
▁누각 -17981
▁땅콩 -17982
▁살림 -17983
▁상시 -17984
▁성추 -17985
▁액수 -17986
▁잠복 -17987
▁타현 -17988
▁한도 -17989
레시브 -17990
▁거제시 -17991
▁동북쪽 -17992
▁심포니 -17993
▁영산회 -17994
▁청구인 -17995
▁출생지 -17996
▁가까스로 -17997
▁국민회의 -17998
▁10000 -17999
▁프로그레시브 -18000
29 -18001
고도 -18002
를린 -18003
마타 -18004
▁Po -18005
▁ne -18006
▁괴팅 -18007
▁김한 -18008
▁버즈 -18009
▁양손 -18010
▁윤석 -18011
▁진안 -18012
▁찬스 -18013
▁퇴화 -18014
▁하쿠 -18015
▁호가 -18016
중국해 -18017
▁베르그 -18018
▁청교도 -18019
▁타고나 -18020
버드 -18021
▁간소 -18022
▁누락 -18023
▁로젠 -18024
▁마고 -18025
▁산탄 -18026
▁셰이 -18027
▁시왕 -18028
▁연좌 -18029
▁이로 -18030
▁히다 -18031
▁del -18032
▁김종필 -18033
▁마인드 -18034
▁새천년 -18035
▁영등포 -18036
▁황도대 -18037
▁조기어류 -18038
▁피에트로 -18039
▁레오나르도 -18040
연료 -18041
▁가메 -18042
▁교복 -18043
▁국채 -18044
▁듯이 -18045
▁로로 -18046
▁명지 -18047
▁미망 -18048
▁미움 -18049
▁사극 -18050
▁심신 -18051
▁역행 -18052
▁와트 -18053
▁장타 -18054
▁최경 -18055
▁합체 -18056
들랜드 -18057
▁Bro -18058
▁굳어지 -18059
▁사모아 -18060
▁서기장 -18061
▁어지럽 -18062
▁묘법연화경 -18063
저민 -18064
활성 -18065
its -18066
▁각별 -18067
▁과업 -18068
▁기물 -18069
▁대열 -18070
▁몬트 -18071
▁사성 -18072
▁수잔 -18073
▁입안 -18074
▁질리 -18075
▁총알 -18076
▁혹독 -18077
▁홀드 -18078
irst -18079
▁메이플 -18080
▁벤저민 -18081
▁샘플링 -18082
▁네브래스카 -18083
슐린 -18084
쿠젠 -18085
페리 -18086
평가 -18087
aut -18088
▁로미 -18089
▁본기 -18090
▁습성 -18091
▁에나 -18092
▁이연 -18093
▁직제 -18094
▁케니 -18095
▁화신 -18096
궐선거 -18097
▁가로막 -18098
▁논산시 -18099
▁모티프 -18100
▁크리켓 -18101
▁원내대표 -18102
▁재보궐선거 -18103
급시 -18104
미치 -18105
▁BR -18106
▁CV -18107
▁감명 -18108
▁공녀 -18109
▁발주 -18110
▁비비 -18111
▁음란 -18112
▁재원 -18113
▁청화 -18114
▁콘월 -18115
▁파사 -18116
▁포에 -18117
▁Big -18118
▁End -18119
▁단기간 -18120
▁베리아 -18121
▁서남쪽 -18122
▁팰리스 -18123
ㅔㄴ -18124
개발 -18125
▁ER -18126
▁나나 -18127
▁노미 -18128
▁독감 -18129
▁마마 -18130
▁밑면 -18131
▁반일 -18132
▁배영 -18133
▁신명 -18134
▁요세 -18135
▁우문 -18136
▁정철 -18137
▁주둥 -18138
▁포탈 -18139
▁퓨전 -18140
▁215 -18141
▁ㅇㅣㅇㅑ -18142
▁미시간주 -18143
▁스포르팅 -18144
▁캔터베리 -18145
▁코미디언 -18146
▁begin -18147
▁DL -18148
▁경치 -18149
▁대양 -18150
▁로자 -18151
▁린드 -18152
▁세브 -18153
▁시로 -18154
▁언젠 -18155
▁원가 -18156
▁이공 -18157
▁장보 -18158
▁지단 -18159
▁천명 -18160
메데스 -18161
▁리서치 -18162
▁치우치 -18163
빼미 -18164
연의 -18165
▁노먼 -18166
▁레베 -18167
▁브롱 -18168
▁위드 -18169
▁유즈 -18170
▁준위 -18171
메네스 -18172
▁DFB -18173
▁빠뜨리 -18174
▁언젠가 -18175
▁엑스선 -18176
▁프리랜 -18177
▁해설자 -18178
▁포레스트 -18179
▁언더그라운드 -18180
BL -18181
니발 -18182
▁개간 -18183
▁다의 -18184
▁라비 -18185
▁생사 -18186
▁우메 -18187
▁원화 -18188
더니즘 -18189
▁239 -18190
▁레이어 -18191
▁문화사 -18192
▁비정규 -18193
▁특공대 -18194
▁포위망 -18195
ㅍㅣ -18196
▁미팅 -18197
▁방수 -18198
▁서킷 -18199
▁어필 -18200
▁연천 -18201
▁위아 -18202
▁징후 -18203
▁체임 -18204
▁쿠키 -18205
▁틈새 -18206
▁픽업 -18207
▁510 -18208
▁기장군 -18209
▁살아나 -18210
▁유니온 -18211
ㅅㅣㅍㅣ -18212
▁ㄷㅏㅅㅣㅍㅣ -18213
HS -18214
▁젬 -18215
가키 -18216
계리 -18217
코바 -18218
aff -18219
▁HK -18220
▁KC -18221
▁SI -18222
▁WH -18223
▁낭독 -18224
▁루아 -18225
▁열광 -18226
▁전갈 -18227
▁종택 -18228
▁질레 -18229
▁창안 -18230
▁코다 -18231
▁평년 -18232
▁픽션 -18233
▁구석기 -18234
▁에인절 -18235
▁특이점 -18236
▁1792 -18237
▁프라이스 -18238
보스 -18239
▁가인 -18240
▁국고 -18241
▁니즘 -18242
▁듀크 -18243
▁서드 -18244
▁실드 -18245
▁아그 -18246
▁위니 -18247
▁조참 -18248
▁칸타 -18249
▁한방 -18250
▁황보 -18251
파트라 -18252
▁BMW -18253
▁권력자 -18254
▁급기야 -18255
▁목걸이 -18256
▁월리스 -18257
▁전년도 -18258
▁소선거구 -18259
▁아틀라스 -18260
▁자동변속기 -18261
▁클레오파트라 -18262
br -18263
▁까치 -18264
▁녀석 -18265
▁덧셈 -18266
▁도기 -18267
▁몰입 -18268
▁부원 -18269
▁살상 -18270
▁시료 -18271
▁시암 -18272
▁안상 -18273
▁영아 -18274
▁접착 -18275
▁정파 -18276
▁촌락 -18277
▁포즈 -18278
▁set -18279
▁계약서 -18280
▁까다롭 -18281
▁부활절 -18282
▁브람스 -18283
▁사생아 -18284
▁void -18285
▁ㅇㅣㄹㅜ -18286
oss -18287
▁내쫓 -18288
▁덤불 -18289
▁루소 -18290
▁메콩 -18291
▁명절 -18292
▁비슈 -18293
▁우랄 -18294
▁정약 -18295
▁제향 -18296
▁추석 -18297
▁패주 -18298
▁표상 -18299
▁함안 -18300
▁향리 -18301
▁Des -18302
▁게이츠 -18303
▁과선교 -18304
▁서로마 -18305
▁Rain -18306
▁프로토타입 -18307
▁랏 -18308
루이 -18309
삼문 -18310
지않 -18311
▁RE -18312
▁경수 -18313
▁매드 -18314
▁바크 -18315
▁버락 -18316
▁세관 -18317
▁예천 -18318
▁유실 -18319
▁호엔 -18320
▁계약금 -18321
▁목격자 -18322
▁사중주 -18323
▁성추행 -18324
▁수메르 -18325
▁표준어 -18326
▁1853 -18327
▁알레르기 -18328
ㄷㅡㄴㅈㅣ -18329
버섯 -18330
▁ㄴㅜ -18331
▁감히 -18332
▁난간 -18333
▁동복 -18334
▁마자 -18335
▁상피 -18336
▁시구 -18337
▁시동 -18338
▁양력 -18339
▁영연 -18340
▁오쓰 -18341
▁최북 -18342
너티브 -18343
덜랜드 -18344
▁ㅇㅜㅁ -18345
▁다다르 -18346
▁미술가 -18347
▁부제학 -18348
▁외삼촌 -18349
▁파이브 -18350
▁동대문구 -18351
▁클라리넷 -18352
▁얼터너티브 -18353
▁엘살바도르 -18354
▁JP -18355
▁do -18356
▁가평 -18357
▁그려 -18358
▁금화 -18359
▁다라 -18360
▁도고 -18361
▁박중 -18362
▁산토 -18363
▁성년 -18364
▁아속 -18365
▁티르 -18366
▁ㅇㅏㄴ -18367
▁게이머 -18368
▁경기력 -18369
▁레일리 -18370
▁브레인 -18371
▁시설물 -18372
▁퍼뜨리 -18373
▁Show -18374
▁모하메드 -18375
▁슈퍼주니어 -18376
막염 -18377
이인 -18378
행사 -18379
▁구급 -18380
▁모후 -18381
▁스커 -18382
▁으로 -18383
▁입적 -18384
▁자락 -18385
▁정량 -18386
▁청탁 -18387
▁탄환 -18388
▁튀르 -18389
▁홍백 -18390
▁꽃받침 -18391
▁무안군 -18392
▁무인역 -18393
▁미카사 -18394
▁퍼펙트 -18395
▁프레디 -18396
▁프로파 -18397
▁후반부 -18398
▁1791 -18399
▁1852 -18400
▁ㅅㅗㅅㅓ -18401
▁권위주의 -18402
▁사다하루 -18403
▁속씨식물 -18404
▁크래프트 -18405
▁퓰 -18406
그림 -18407
서면 -18408
▁독신 -18409
▁밥상 -18410
▁방과 -18411
▁비츠 -18412
▁상권 -18413
▁시판 -18414
▁실화 -18415
▁아쓰 -18416
▁일람 -18417
▁절멸 -18418
▁조승 -18419
▁최치 -18420
핵생물 -18421
▁TOP -18422
▁버밍엄 -18423
▁보호자 -18424
▁아르카 -18425
▁요리사 -18426
▁중생대 -18427
▁도네츠크 -18428
경궁 -18429
노동 -18430
바타 -18431
vis -18432
▁교우 -18433
▁수전 -18434
▁오에 -18435
▁잠그 -18436
▁카쿠 -18437
▁캄포 -18438
▁커트 -18439
▁회중 -18440
▁따돌리 -18441
▁성동구 -18442
▁지도력 -18443
▁호위함 -18444
▁LIVE -18445
▁인테리어 -18446
▁옅 -18447
얼빈 -18448
타라 -18449
IDS -18450
oup -18451
▁갑판 -18452
▁노던 -18453
▁도금 -18454
▁메트 -18455
▁부름 -18456
▁북제 -18457
▁비고 -18458
▁사구 -18459
▁셰프 -18460
▁숙성 -18461
▁약정 -18462
▁욕심 -18463
▁제반 -18464
▁후신 -18465
제르맹 -18466
▁끊어지 -18467
▁레프트 -18468
▁점성가 -18469
ement -18470
▁Mnet -18471
▁ㄴㅗㄹㅏ -18472
▁플레이트 -18473
be -18474
하워 -18475
▁FN -18476
▁관서 -18477
▁귀납 -18478
▁근연 -18479
▁래스 -18480
▁만다 -18481
▁박인 -18482
▁수첩 -18483
▁식료 -18484
▁실황 -18485
▁에타 -18486
▁연작 -18487
▁장영 -18488
▁제법 -18489
▁착오 -18490
▁플뢰 -18491
▁212 -18492
▁233 -18493
▁그려지 -18494
▁양서류 -18495
▁재정난 -18496
▁벌어들이 -18497
▁퍼레이드 -18498
▁아이젠하워 -18499
▁테러리스트 -18500
▁잣 -18501
팔렌 -18502
▁구보 -18503
▁능통 -18504
▁불황 -18505
▁색인 -18506
▁성하 -18507
▁신재 -18508
▁우쓰 -18509
▁케스 -18510
▁해동 -18511
즐랜드 -18512
▁동인도 -18513
▁분화구 -18514
▁에르난 -18515
▁잎자루 -18516
▁다운타운 -18517
▁빽 -18518
▁찻 -18519
노헤 -18520
티드 -18521
▁EN -18522
▁FX -18523
▁국물 -18524
▁대검 -18525
▁영세 -18526
▁장터 -18527
▁히브 -18528
▁검사장 -18529
▁유목민 -18530
▁음악회 -18531
▁정말로 -18532
▁황갈색 -18533
▁1847 -18534
▁Like -18535
▁도쿠시마 -18536
▁생제르맹 -18537
▁퀸즐랜드 -18538
▁필리포스 -18539
▁히로시마현 -18540
▁뚝 -18541
▁강물 -18542
▁벨레 -18543
▁서하 -18544
▁수온 -18545
▁여태 -18546
▁원망 -18547
▁차가 -18548
▁친숙 -18549
▁팔각 -18550
▁호치 -18551
▁희박 -18552
▁개찰기 -18553
▁게이초 -18554
▁세례명 -18555
▁앵글로 -18556
▁조나단 -18557
▁지원자 -18558
▁LOVE -18559
▁루키우스 -18560
▁뱀파이어 -18561
개명 -18562
에어 -18563
하트 -18564
▁EF -18565
▁고타 -18566
▁귀향 -18567
▁독려 -18568
▁라벤 -18569
▁매너 -18570
▁수찬 -18571
▁슬럼 -18572
▁신숙 -18573
▁쑨원 -18574
▁예견 -18575
▁완투 -18576
▁요트 -18577
▁월급 -18578
▁윤상 -18579
▁은둔 -18580
▁이족 -18581
▁청진 -18582
▁상류층 -18583
▁이스턴 -18584
▁재판장 -18585
▁중학생 -18586
▁현악기 -18587
▁경향신문 -18588
▁천주교회 -18589
▁롬바르디아 -18590
▁콘스탄티노플 -18591
▁고작 -18592
▁김호 -18593
▁망상 -18594
▁보두 -18595
▁수뇌 -18596
▁출소 -18597
▁김포시 -18598
▁릴리스 -18599
▁옹진군 -18600
▁이베이 -18601
▁저술가 -18602
▁최적화 -18603
▁퀘스트 -18604
▁레인보우 -18605
▁시트르산 -18606
▁옥타비아 -18607
▁프리랜서 -18608
▁OC -18609
▁mg -18610
▁가봉 -18611
▁경감 -18612
▁계파 -18613
▁과천 -18614
▁기노 -18615
▁마로 -18616
▁밀턴 -18617
▁버블 -18618
▁섬멸 -18619
▁세가 -18620
▁안젤 -18621
▁야채 -18622
▁여야 -18623
▁영해 -18624
▁음색 -18625
▁이계 -18626
▁제각 -18627
▁쿠페 -18628
▁포리 -18629
▁호감 -18630
하이머 -18631
▁관악구 -18632
▁다각형 -18633
▁올빼미 -18634
▁인슐린 -18635
▁핵연료 -18636
▁옵티머스 -18637
▁은행나무 -18638
▁버지니아주 -18639
▁즌 -18640
방식 -18641
오세 -18642
▁NK -18643
▁UK -18644
▁고질 -18645
▁공물 -18646
▁관사 -18647
▁기치 -18648
▁마누 -18649
▁만찬 -18650
▁약국 -18651
▁유위 -18652
▁음소 -18653
▁점심 -18654
▁주술 -18655
▁초중 -18656
▁황성 -18657
▁회군 -18658
리오카 -18659
▁강아지 -18660
▁명백히 -18661
▁부끄럽 -18662
▁생태학 -18663
▁유학생 -18664
▁똥 -18665
▁젓 -18666
랄라 -18667
비어 -18668
way -18669
▁구면 -18670
▁남짓 -18671
▁마조 -18672
▁불펜 -18673
▁수난 -18674
▁연사 -18675
▁조만 -18676
▁최재 -18677
▁품계 -18678
▁호러 -18679
자위대 -18680
▁221 -18681
▁Bar -18682
▁Red -18683
▁가오슝 -18684
▁레슬리 -18685
▁레오니 -18686
▁브룩스 -18687
▁세일러 -18688
▁중대장 -18689
▁편의점 -18690
▁한마디 -18691
▁현저히 -18692
▁Sound -18693
▁안티고노스 -18694
▁뿌 -18695
귀비 -18696
야구 -18697
▁es -18698
▁계명 -18699
▁나팔 -18700
▁냉동 -18701
▁미신 -18702
▁미일 -18703
▁발화 -18704
▁서간 -18705
▁송금 -18706
▁쓰가 -18707
▁차드 -18708
▁회기 -18709
ouse -18710
▁Sec -18711
▁뇌졸중 -18712
▁좀처럼 -18713
▁탈수소 -18714
▁하얼빈 -18715
▁Over -18716
▁가이우스 -18717
▁Light -18718
WS -18719
▁읊 -18720
▁골자 -18721
▁궁금 -18722
▁대파 -18723
▁라피 -18724
▁명품 -18725
▁발라 -18726
▁보현 -18727
▁선방 -18728
▁스벤 -18729
▁연일 -18730
▁왈라 -18731
▁우성 -18732
▁주어 -18733
▁진과 -18734
▁콕스 -18735
▁푸시 -18736
▁혈청 -18737
▁리히텐 -18738
▁미망인 -18739
▁에버턴 -18740
브레히트 -18741
▁1100 -18742
▁Sing -18743
▁브래들리 -18744
▁창씨개명 -18745
▁카리브해 -18746
▁콘티넨털 -18747
워키 -18748
▁나츠 -18749
▁따내 -18750
▁부응 -18751
▁슬롯 -18752
▁커크 -18753
▁클론 -18754
▁231 -18755
▁세포막 -18756
▁정보국 -18757
▁1844 -18758
▁동명이인 -18759
색슨 -18760
▁ac -18761
▁낙인 -18762
▁동족 -18763
▁삼가 -18764
▁수작 -18765
▁슬퍼 -18766
▁신빙 -18767
▁오목 -18768
▁외화 -18769
▁크릭 -18770
대주의 -18771
하이드 -18772
ason -18773
▁Eng -18774
▁배상금 -18775
▁여름철 -18776
▁피스톤 -18777
▁요코스카 -18778
▁앵글로색슨 -18779
▁즙 -18780
옹주 -18781
▁갑상 -18782
▁굴리 -18783
▁베레 -18784
▁식년 -18785
▁신예 -18786
▁안구 -18787
▁앙주 -18788
▁울음 -18789
▁유주 -18790
▁이등 -18791
▁자력 -18792
▁정구 -18793
▁쾌락 -18794
▁파니 -18795
▁한류 -18796
▁후각 -18797
▁산화물 -18798
▁수류탄 -18799
▁계몽주의 -18800
▁곤살레스 -18801
▁랜드마크 -18802
aj -18803
거슨 -18804
프슨 -18805
▁JS -18806
▁간편 -18807
▁고부 -18808
▁과수 -18809
▁다키 -18810
▁색조 -18811
▁아워 -18812
▁오경 -18813
▁이면 -18814
▁재야 -18815
▁지드 -18816
▁하체 -18817
▁학점 -18818
▁갑각류 -18819
▁경영진 -18820
▁사이다 -18821
▁참가국 -18822
▁카이저 -18823
▁플랜트 -18824
▁하루카 -18825
▁사회단체 -18826
▁민속문화재 -18827
니언 -18828
루트 -18829
타바 -18830
▁RO -18831
▁TA -18832
▁강수 -18833
▁균류 -18834
▁마왕 -18835
▁미오 -18836
▁박주 -18837
▁아론 -18838
▁요안 -18839
▁유루 -18840
▁취락 -18841
▁토토 -18842
▁티나 -18843
[...]
