▁▃ -0
▁ㅇ -1
▁ㄱ -2
▁ㄷ -3
▁ㅎ -4
ㅡㄹ -5
▁ㅇㅣ -6
▁ㅈ -7
▁ㅅ -8
ㅡㄴ -9
▁ㄴ -10
ㅏㄴ -11
▁. -12
ㅏㅇ -13
▁ㅂ -14
▁ㅇㅔ -15
▁ㅁ -16
▁ㄹ -17
▁ㄷㅏ -18
▁ㅇㅢ -19
▁ㅇㅡㄹ -20
▁ㄴㅡㄴ -21
ㅓㄴ -22
ㅕㄴ -23
▁ㅎㅏ -24
ㅗㅇ -25
▁, -26
ㅣㄴ -27
ㅅㅓ -28
ㅏㄹ -29
▁ㅊ -30
ㅕㅇ -31
ㅏㄱ -32
ㅜㄴ -33
▁ㅇㅡㄴ -34
ㅓㅇ -35
▁ㄱㅏ -36
ㅗㄱ -37
▁ㅇㅓ -38
▁ㅍ -39
ㅜㄱ -40
▁1 -41
▁ㄱㅗ -42
▁ㅎㅏㄴ -43
▁ㅇㅕ -44
ㅜㄹ -45
▁ㄹㅡㄹ -46
▁ㄷㅚ -47
ㅣㄹ -48
ㅣㅇ -49
ㅅㅡ -50
▁ㅌ -51
ㅜㅇ -52
ㅣㄱ -53
ㅐㅇ -54
▁ㄴㅕㄴ -55
ㅗㄴ -56
ㅏㅁ -57
▁ㄹㅗ -58
▁ㄱㅘ -59
▁ㅇㅡㄹㅗ -60
▁ㅇㅔㅅㅓ -61
▁2 -62
ㅣㅁ -63
▁ㅇㅣㄹ -64
▁ㅇㅣㅆ -65
ㅡㅁ -66
▁ㄷㅐ -67
▁ㅎㅐ -68
ㅡㅇ -69
▁ㅇㅣㄴ -70
ㅓㄱ -71
▁ㅋ -72
ㅗㄹ -73
ㄷㅏ -74
ㅈㅣ -75
▁ㅇㅓㅆ -76
ㅓㄹ -77
ㅝㄴ -78
▁ㅇㅏ -79
▁ㅇㅘ -80
▁ㄷㅡㄹ -81
▁ㄸ -82
▁ㅈㅣ -83
ㅕㄱ -84
▁ㄱㅣ -85
ㅓㅂ -86
▁ㄷㅗ -87
ㄹㅣ -88
▁ㅅㅣ -89
ㅅㅏ -90
ㅓㅁ -91
▁ㅎㅐㅆ -92
▁ㅈㅓㄴ -93
ㅔㅇ -94
ㅓㅅ -95
ㅅㅣ -96
▁ㅈㅓㄱ -97
▁ㅅㅏㅇ -98
▁ㄱㅡ -99
▁ㅇㅕㅆ -100
▁20 -101
ㅝㄹ -102
ㅎㅘ -103
▁ㅈㅜㅇ -104
ㅐㄱ -105
ㅈㅏㅇ -106
▁ㅅㅜ -107
ㄷㅗ -108
ㅈㅏ -109
ㅎㅏㄴ -110
ㅛㅇ -111
ㅎㅐ -112
ㄱㅜㄱ -113
▁ㅇㅝㄹ -114
ㄱㅣ -115
ㅈㅓㅇ -116
ㅑㅇ -117
▁19 -118
▁ㅈㅓㅇ -119
▁ㅇㅟ -120
ㅂㅜ -121
ㅕㄹ -122
▁ㅎㅘ -123
ㄷㅐ -124
ㅔㄹ -125
▁ㄱㅗㅇ -126
▁ㅇㅠ -127
ㄷㅡ -128
▁ㅈㅔ -129
▁ㅂㅜ -130
ㅅㅜ -131
ㅅㅏㅇ -132
ㅎㅏ -133
▁ㄱㅕㅇ -134
▁ㄷㅚㄴ -135
ㅅㅓㅇ -136
▁ㅅㅓㅇ -137
ㅈㅓㄴ -138
▁ㅈㅏ -139
ㄷㅗㅇ -140
ㅌㅡ -141
▁ㄱㅓㅅ -142
ㅈㅔ -143
▁3 -144
▁" -145
▁ㄷㅗㅇ -146
▁ㅅㅔ -147
ㅎㅏㄱ -148
ㅊㅣ -149
▁ㄷㅏㅇ -150
▁ㅁㅏ -151
▁ㄱㅔ -152
ㄱㅏ -153
ㅌㅓ -154
ㅗㅅ -155
▁ㅅㅓㄴ -156
ㅎㅚ -157
▁ㄷㅡㅇ -158
▁ㅅㅏ -159
▁ㅂㅏ -160
▁ㄱㅐ -161
▁ㅁㅏㄴ -162
▁ㄲ -163
▁ㄱㅡㄹ -164
ㅡㄱ -165
ㅇㅣ -166
▁ㅂㅏㄹ -167
▁ㅇㅕㄴ -168
ㄱㅜ -169
ㅈㅜ -170
▁ㅈㅜ -171
▁ㅎㅏㄴㄷㅏ -172
▁ㅇㅡㅁ -173
▁ㅇㅕㅇ -174
▁ㄱㅜㄱ -175
ㄱㅘ -176
▁ㅁㅕ -177
▁ㅈㅏㅇ -178
▁ㅅㅡ -179
▁ㅍㅡㄹ -180
ㅇㅝㄴ -181
ㅣㅇㅏ -182
ㅔㄴ -183
▁ㅁㅕㄴ -184
ㅐㄴ -185
ㅏㅇㅣ -186
ㄱㅛ -187
ㅁㅜㄴ -188
ㅔㅇㅣ -189
▁ㅂㅗ -190
▁ㄴㅏ -191
▁201 -192
▁' -193
ㅅㅏㄴ -194
▁ㅅㅣㄴ -195
ㅅㅣㄴ -196
ㅕㅆ -197
▁ㅈㅣㄴ -198
ㅈㅣㄴ -199
▁4 -200
▁ㅇㅕㄱ -201
▁ㄱㅘㄴ -202
▁ㅁㅣ -203
ㄱㅖ -204
▁ㅂㅏㅇ -205
▁ㅈㅗ -206
ㅁㅣㄴ -207
▁ㄷㅏㄴ -208
ㄷㅏㄴ -209
▁ㅁㅕㅇ -210
ㅇㅓ -211
▁ㄱㅜ -212
▁ㅇㅏㄴ -213
▁ㅎㅏㄹ -214
▁ㅁㅗ -215
▁ㅇㅏㄹ -216
▁5 -217
▁ㄸㅐ -218
▁200 -219
ㅅㅣㄱ -220
▁ㅇㅗ -221
▁ㅎㅜ -222
▁ㄷㅏㄹ -223
▁- -224
▁ㅈㅏㄱ -225
▁ㄷㅓㄴ -226
▁ㄱㅏㅇ -227
ㅈㅏㄱ -228
ㅡㄹㄹ -229
▁ㅁㅜㄴ -230
ㅊㅔ -231
ㅇㅣㄴ -232
ㅏㅈㅣ -233
▁ㄷㅐㅎㅏㄴ -234
▁ㅅㅏㄹ -235
ㅈㅐ -236
▁ㄴㅏㅁ -237
ㅜㅁ -238
ㄱㅗ -239
▁ㅂㅜㄹ -240
▁ㅂㅣ -241
▁ㅅㅐㅇ -242
ㅎㅐㅇ -243
▁ㅌㅗㅇ -244
ㅎㅜ -245
ㅑㄱ -246
ㄷㅔ -247
▁ㅆ -248
ㅅㅗ -249
▁ㅁㅏㄹ -250
▁ㅇㅝㄴ -251
ㅏㄱㅗ -252
ㅈㅗ -253
ㄷㅏㅇ -254
▁ㄱㅖ -255
ㅁㅕㅇ -256
▁ㅎㅕㄴ -257
▁ㅂㅜㄴ -258
ㄱㅔ -259
▁ㄱㅜㄴ -260
ㅗㄹㄹ -261
ㅅㅓㄴ -262
ㅂㅗㄴ -263
▁ㅅㅣㄹ -264
ㅓㄴㅏ -265
▁ㄱㅏㅌ -266
ㅣㅁㅏㄴ -267
ㄷㅡㄹ -268
ㅂㅣ -269
ㅋㅡ -270
▁ㅎㅏㄱ -271
▁6 -272
ㅏㄹㅏ -273
▁ㅇㅏㄶ -274
▁ㅊㅜㄹ -275
▁ㅈㅣㅇ -276
ㅈㅜㅇ -277
ㄱㅗㅇ -278
▁ㄱㅕㄹ -279
ㅁㅜㄹ -280
▁ㅂㅏㄷ -281
▁ㅇㅏㅆ -282
ㅂㅏㄴ -283
▁ㄲㅏㅈㅣ -284
▁ㅎㅐㅇ -285
▁ㄴㅗ -286
▁ㅎㅏㅁ -287
▁ㅎㅚ -288
▁ㅇㅔㄱㅔ -289
▁ㄱㅏㄴ -290
ㅐㄹ -291
ㄱㅜㄴ -292
▁ㅈㅣㅂ -293
▁ㅈㅗㅇ -294
▁ㅇㅕㄹ -295
▁ㅅㅗ -296
▁ㅂㅏㄴ -297
ㅇㅡㅁ -298
▁ㄱㅛ -299
▁ㅂㅓㄴ -300
▁ㅇㅖ -301
▁ㅇㅡㅁㅕ -302
ㅋㅣ -303
▁ㅊㅚ -304
▁7 -305
ㅎㅣ -306
▁ㄹㅏㄴ -307
▁10 -308
▁8 -309
ㅌㅏ -310
ㅇㅣㄹ -311
▁ㅅㅓㄹ -312
▁ㅇㅣㅇ -313
▁ㅅㅣㄱ -314
▁ㄹㅏ -315
ㅇㅢ -316
ㄹㅕㄱ -317
ㅍㅛ -318
ㄹㅣㅂ -319
▁ㅁㅣㄱ -320
▁ㄷㅚㄴㄷㅏ -321
▁ㅎㅕㅇ -322
▁ㅈㅣㅁㅏㄴ -323
ㅌㅗㅇ -324
ㅋㅏ -325
ㅂㅗ -326
ㅅㅐㅇ -327
ㅣㅅㅡ -328
▁ㅈㅣㄱ -329
▁ㅎㅗ -330
▁ㅍㅗ -331
▁ㅇㅓㅄ -332
▁ㅂㅜㅌㅓ -333
ㅈㅗㅇ -334
▁ㅅㅏㅁ -335
▁ㅇㅣㅂ -336
ㅎㅗ -337
ㅁㅏ -338
ㅍㅡ -339
▁ㄱㅣㄹ -340
▁ㅅㅏㅇㅛㅇ -341
ㅡㅂ -342
▁9 -343
ㅂㅜㄴ -344
ㄱㅘㄴ -345
▁ㅁㅣㄱㅜㄱ -346
▁ㅂㅗㄴ -347
▁ㅊㅏ -348
▁ㅅㅏㄴ -349
ㅁㅣ -350
ㅂㅏㄹ -351
▁ㄹㅏㄱㅗ -352
▁ㅇㅜ -353
▁ㅌㅡㄱ -354
ㅌㅗ -355
▁ㅇㅣㅎㅜ -356
ㄹㅠ -357
ㅅㅗㄱ -358
▁ㅂㅗㅇ -359
ㅈㅓㄱ -360
▁ㄴㅐ -361
▁ㄹㅏㄴㅡㄴ -362
▁ㄷㅜ -363
▁ㅇㅛ -364
▁ㄷㅗㄱ -365
ㄹㅗ -366
ㅣㅂ -367
▁ㅅㅡㅇ -368
▁ㅊㅓㅇ -369
ㅎㅏㅂ -370
ㅂㅓㅂ -371
▁ㅁㅣㄴ -372
▁ㄱㅏㅁ -373
▁ㅁㅕㄴㅅㅓ -374
▁ㅇㅣㄹㅂㅗㄴ -375
ㅇㅟ -376
▁ㅉ -377
▁ㅎㅘㄹ -378
▁ㅇㅜㄴ -379
ㅅㅡㅇ -380
ㅈㅣㄱ -381
ㅇㅏㄴ -382
▁ㅁㅜㄹ -383
▁ㅎㅏㅇ -384
▁ㄸㅗ -385
ㅇㅜ -386
▁ㄴㅡㄴㄷㅔ -387
▁ㄷㅗㄹ -388
▁ㅅㅓ -389
▁ㄱㅝㄴ -390
ㅁㅕㄴ -391
▁ㅅㅗㄱ -392
ㄱㅕㅇ -393
▁ㅁㅗㄷ -394
ㅅㅡㅌ -395
ㅍㅗ -396
ㅇㅓㅂ -397
▁ㅁㅜ -398
▁ㄱㅣㅁ -399
▁ㄱㅏㄱ -400
ㅇㅡㅁㅕ -401
ㅇㅕㅇ -402
▁ㄱㅓㄴ -403
ㅁㅣㄴㄱㅜㄱ -404
▁ㅁㅣㅊ -405
▁ㅇㅘㅇ -406
▁ㄷㅔ -407
ㅅㅓㄹ -408
▁ㄷㅏㅇㅡㅁ -409
▁ㅇㅑㅇ -410
ㅂㅏㅇ -411
▁ㅂㅜㄱ -412
▁ㅈㅐ -413
ㅅㅣㄹ -414
ㄹㅕ -415
ㅏㄹㅣ -416
ㄱㅕㄱ -417
▁ㅈㅣㅇㅕㄱ -418
▁ㅍㅕㅇ -419
ㄱㅏㄴ -420
▁ㄷㅐㅎㅏㄴㅁㅣㄴㄱㅜㄱ -421
ㅅㅣㅁ -422
▁ㅁㅗㄱ -423
ㅈㅗㄱ -424
▁199 -425
ㅋㅗ -426
ㅈㅓㅁ -427
ㅇㅛㅇ -428
ㅈㅡ -429
▁ㅇㅣㅁ -430
▁ㅊㅓㄹ -431
▁ㅊㅗㅇ -432
▁ㅊㅏㅁ -433
ㅅㅜㄹ -434
▁ㅊㅜㄱ -435
▁ㅁㅏㄶ -436
ㅊㅏ -437
▁12 -438
ㄹㅕㅇ -439
ㅏㅂ -440
ㄷㅡㅇ -441
▁18 -442
▁ㄱㅕㅇㄱㅣ -443
ㅈㅣㄹ -444
▁ㅂㅗㄱ -445
ㄷㅗㄱ -446
▁ㄷㅏㄹㅡㄴ -447
▁ㅇㅚ -448
▁ㄷㅏㄱㅗ -449
▁ㅊㅗ -450
ㅊㅜㄹ -451
▁ㄷㅐㅎㅏㄱ -452
▁ㄱㅓ -453
ㅌㅐ -454
▁; -455
ㅎㅕㅇ -456
ㅅㅔ -457
00 -458
▁ㄱㅡㄴ -459
ㅇㅡㄴ -460
ㅕㅁ -461
ㄱㅓ -462
▁ㅇㅑ -463
▁ㅇㅟㅎㅐ -464
ㅉㅗㄱ -465
ㅇㅕㄱ -466
▁ㅃ -467
ㅎㅕㄴ -468
ㅗㅅㅓㄴ -469
ㅐㅁ -470
ㅏㄹㅡ -471
▁S -472
ㅅㅓㄱ -473
ㄱㅏㄱ -474
▁ㅋㅗ -475
ㅎㅑㅇ -476
▁ㅂㅓㅂ -477
▁) -478
▁ㅅㅣㅁ -479
or -480
ㅍㅏ -481
▁ㅂㅕㄴ -482
▁ㅊㅓㄴ -483
ㅕㅂ -484
ㅍㅏㄴ -485
▁11 -486
▁ㄸㅐㅁㅜㄴ -487
ㅏㄹㄹ -488
▁ㅅㅣㅈㅏㄱ -489
▁ㅇㅗㄹ -490
ㅣㄹㄹ -491
ㅘㄴ -492
▁ㅇㅛㅇ -493
ㅍㅜㅁ -494
▁ㅍㅛ -495
ㅐㅇㅜ -496
ㅁㅜ -497
ㅊㅓㄴ -498
▁ㅅㅣㅈ -499
ㅓㅅㅡ -500
▁ㄱㅣㅇ -501
ㅇㅛ -502
▁ㅌㅣㅁ -503
ㅈㅐㅇ -504
ㅌㅡㄹ -505
▁ㅈㅓㅁ -506
▁ㅂㅏㄱ -507
▁ㅅㅏㄹㅏㅁ -508
ㄲㅔ -509
▁& -510
ㅡㅅ -511
▁A -512
▁( -513
ㅎㅏㅁ -514
▁ㅅㅓㄴㅅㅜ -515
▁ㄸㅏㄹㅏ -516
ㅣㅇㅗ -517
▁ㄹㅣ -518
ㅎㅏㅇ -519
▁ㅎㅏㅁㄲㅔ -520
▁ㅇㅑㄱ -521
ㅔㄱ -522
▁ㅂㅐㄱ -523
▁ㄸㅗㅎㅏㄴ -524
ㅇㅏㄱ -525
▁ㅎㅏㄴㄱㅜㄱ -526
▁ㅍㅏㄴ -527
▁ㄱㅘㅇ -528
▁ㅇㅓㄴ -529
▁ㅈㅜㄹ -530
▁ㄱㅣㄱ -531
ㅁㅗ -532
▁ㄷㅓ -533
▁ㅈㅜㄱ -534
ㅈㅜㄴ -535
ㅓㄹㅣ -536
▁ㅅㅔㄱㅖ -537
ㅇㅕㄴ -538
▁ㅇㅕㅇㅎㅘ -539
ㅌㅏㄴ -540
▁ㅊㅏㅇ -541
▁ㅈㅏㅅㅣㄴ -542
▁ㅇㅏㅁ -543
▁ㅁㅏㅇ -544
▁C -545
▁ㄱㅗㄱ -546
▁ㅂㅡㄹ -547
la -548
▁ㅂㅐ -549
▁M -550
ㅊㅓㅇ -551
▁ㄹㅣㄱ -552
ㅇㅠ -553
ㅅㅗㅇ -554
ㅓㅈㅣ -555
▁ㅈㅗㄴ -556
▁ㅇㅗㄹㄹ -557
▁ㄱㅕㅇㅇㅜ -558
▁ㅅㅏㄱ -559
▁ㄱㅜㄱㄱㅏ -560
▁ㅋㅏ -561
▁ㄱㅣㄹㅗㄱ -562
▁T -563
▁ㄷㅟ -564
ㅗㄹㅣ -565
▁f -566
▁F -567
▁ㅎㅕㄴㅈㅐ -568
▁ㅍㅕㄴ -569
ㅐㄴㄷㅡ -570
▁ㅅㅏㅇㅣ -571
ㄹㅏㄴ -572
▁ㅎㅏㅂ -573
ㅌㅣ -574
▁ㅎㅘㄱ -575
▁ㅇㅣㄹㅡㅁ -576
▁ㅎㅘㄹㄷㅗㅇ -577
ㅔㅅㅡ -578
▁198 -579
▁ㄷㅏㄴㅡㄴ -580
ㅈㅕ -581
▁ㄷㅏㅇㅅㅣ -582
▁ㅇㅟㅊㅣ -583
ㅂㅏ -584
▁ㅍㅣㄹ -585
▁ㄱㅏㅈㅏㅇ -586
ㅜㅅㅡ -587
▁ㄱㅡㅁ -588
ㅔㅁ -589
ㅔㅅ -590
ㅇㅕ -591
▁ㅁㅗㅅ -592
ㅅㅕㄴ -593
ㅇㅑㄱ -594
▁ㅍㅏ -595
▁ㅍㅣ -596
ㅊㅗ -597
▁ㄱㅐㅇ -598
ㅈㅜㅇㅢ -599
▁_ -600
▁ㅈㅡㅇ -601
▁ㅈㅗㅅㅓㄴ -602
▁ㅊㅜ -603
▁ㅎㅏㄱㄱㅛ -604
▁ㄱㅠ -605
▁ㄱㅏㅈㅣ -606
▁ㅎㅏㄴㅏ -607
ㅘㅇ -608
▁ㄹㅣㄱㅡ -609
▁ㄱㅡㄹㅓㄴㅏ -610
ㄹㅣㄴ -611
▁ㅇㅣㄴㅏ -612
▁15 -613
ㅡㅌ -614
▁ㅅㅗㄴ -615
▁ㅇㅣㄱ -616
ㅈㅕㅆ -617
ㄷㅏㄹ -618
▁ㅇㅗㄴ -619
ㅔㄹㄹ -620
▁ㅉㅐ -621
ㅣㄱㅗ -622
▁for -623
ㄷㅣ -624
▁ㅇㅠㄹ -625
ㅂㅕㅇ -626
▁ㅅㅡㅌ -627
▁ㄷㅐㅍㅛ -628
▁ㅁㅐ -629
ㄴㅏㅁ -630
ㅍㅕㄴ -631
▁ㅌㅡㄹ -632
mu -633
ㅂㅗㄱ -634
ㅇㅣㅁ -635
ㅁㅐ -636
▁ㄱㅡㄱ -637
ㅔㅇㅣㅁ -638
▁ㅅㅜㅇ -639
▁ㅇㅜㄹ -640
▁ㅅㅗㅇ -641
▁ㅇㅔㄴ -642
▁ㅅㅜㄴ -643
▁ㅇㅢㅎㅐ -644
▁ㄱㅣㄴ -645
▁ㅌㅗ -646
▁ㅍㅡㄹㅏㅇ -647
▁ㅈㅗㄱ -648
ㅔㅇㅣㄴ -649
mula -650
▁formula -651
▁ㅁㅏㅈ -652
▁ㅊㅜㅇ -653
▁16 -654
ㅇㅑㅇ -655
▁ㅂㅕㅇ -656
ㅗㄴㅡㄴ -657
▁ㅇㅕㄱㅅㅏ -658
▁ㅅㅓㄱ -659
ㅎㅘㅇ -660
▁ㅎㅘㅇ -661
▁ㅅㅣㅇ -662
ㅇㅏㅇ -663
▁ㅇㅏㅇ -664
ㅂㅕㄹ -665
▁ㅈㅓ -666
ㅠㄱ -667
▁ㄸㅗㄴㅡㄴ -668
ㅍㅡㄹ -669
ㅂㅜㅌㅓ -670
▁ㅈㅏㄹ -671
▁ㅁㅗㅇ -672
▁/ -673
▁ㅊㅔ -674
▁ㅅㅏㅎㅚ -675
▁ㅌㅗㅇㅎㅐ -676
ㅎㅘㄴ -677
▁ㄱㅡㄹㅣㄱㅗ -678
ㅔㄹㅡ -679
ㅇㅓㄴ -680
▁ㅅㅣㅋ -681
ㅅㅐㄱ -682
▁ㄴㅔ -683
▁ㅌㅏ -684
ㅈㅣㅇ -685
▁D -686
▁ㅌㅐㅇ -687
ㅎㅓㅁ -688
▁ㅋㅡㄹ -689
▁ㅅㅣㅈㅡㄴ -690
▁0 -691
ㅇㅡㄴㅏ -692
▁ㄴㅏㅇ -693
ㄱㅕㄴ -694
▁m -695
▁ㄴㅗㅇ -696
ㄱㅏㅇ -697
ㅁㅏㄴ -698
▁ㅇㅕㄴㄱㅜ -699
▁ㅍㅡㄹㄹ -700
▁ㅈㅜㄴ -701
▁ㄴㅏㄴ -702
▁ㅂㅣㄹ -703
▁17 -704
▁ㅊㅓㅅ -705
ㄱㅕㄹ -706
▁ㄹㅔ -707
▁[ -708
ㅊㅏㄹ -709
ㄱㅡㅂ -710
▁ㅋㅡ -711
▁B -712
▁] -713
▁ㄱㅜㅇ -714
▁ㄴㅗㄹ -715
ㅊㅣㅇ -716
▁197 -717
ㅎㅏㄹ -718
ㅏㅆ -719
▁ㅇㅘㄴ -720
▁ㅂㅗㄷㅏ -721
ㅁㅗㄱ -722
▁ㅈㅜㅇㄱㅜㄱ -723
▁ㄴㅗㅍ -724
ㅣㄴㄷㅏ -725
ㅅㅡㅂ -726
▁ㅁㅏㄴㄷㅡㄹ -727
ㄹㅕㄴ -728
▁ㅇㅏㄴㅣ -729
ㅇㅏ -730
ㅣㅇㅓ -731
▁ㅎㅕㅂ -732
ㅊㅡ -733
▁ㄷㅏㅅㅣ -734
▁ㅇㅏㅂ -735
▁ㅅㅣㄷㅐ -736
▁ㅍㅡㄹㅗ -737
▁ㄴㅣ -738
▁: -739
▁K -740
▁ㅅㅓㅇㅜㄹ -741
▁ㅍㅗㄱ -742
▁ㅇㅕㅇㄱㅜㄱ -743
▁I -744
ㅈㅣㅂ -745
▁ㅋㅡㄹㄹ -746
▁ㄱㅛㅇ -747
▁ㅂㅜㅇ -748
▁ㅈㅓㅇㅂㅜ -749
▁ㅁㅣㄹ -750
ㅌㅜ -751
▁ㄷㅐㅎㅐ -752
▁ㄱㅓㄹ -753
ㅎㅏㄱㄱㅛ -754
▁ㅅㅗㅅ -755
▁ㅇㅠㄴ -756
▁ㄷㅣ -757
▁ㅍㅡㄹㅏㅇㅅㅡ -758
▁ㅌㅜ -759
ㄹㅓ -760
▁ㅅㅜㄹ -761
▁k -762
ㄱㅐ -763
▁ㅈㅓㄴㅈㅐㅇ -764
ㄱㅡㄴ -765
▁ㄱㅗㄹ -766
ㅂㅓㅁ -767
▁ㅅㅓㅁ -768
▁ㅅㅓㅂ -769
▁ㄸㅡㅅ -770
▁ㅍㅗㅎㅏㅁ -771
▁ㄷㅗㅅㅣ -772
▁196 -773
▁ㄷㅗㄱㅇㅣㄹ -774
▁ㅁㅜㄴㅎㅘ -775
▁ㅇㅕㄹㅓ -776
▁14 -777
ㅎㅐㅆ -778
▁ㅋㅡㄴ -779
▁ㅂㅏㄲ -780
ㅠㄹ -781
▁ㅊㅣㄴ -782
ㄹㅛ -783
▁ㄹㅗㅅㅓ -784
▁ㅂㅕㄹ -785
▁~ -786
ㄱㅗㄱ -787
▁ㄷㅐㅎㅚ -788
▁ㄹㅜ -789
▁ㅈㅣㄹ -790
er -791
▁ㅇㅡㄴㅏ -792
ㅍㅣ -793
ㅡㄹㅗ -794
ㄷㅜ -795
ㅈㅓ -796
▁ㅊㅟ -797
▁ㅂㅗㄹ -798
▁ㄴㅗㄴ -799
ㅏㅇㅣㄴ -800
▁ㅊㅜㄱㄱㅜ -801
▁g -802
▁ㅇㅣㄹㅓ -803
▁13 -804
▁ㅇㅏㅍ -805
▁P -806
ㄱㅠ -807
▁ㅍㅐ -808
ㅊㅕ -809
▁ㄱㅏㄴㅡㅇ -810
ㅂㅜㄱ -811
▁ㅎㅘㄴ -812
▁ㅇㅟㅇㅝㄴ -813
▁ㄱㅏㅈ -814
▁ㄱㅓㅁ -815
▁ㅁㅗㄷㅜ -816
▁ㅁㅏㄱ -817
in -818
ㅇㅐ -819
▁ㅇㅣㅅㅏㅇ -820
▁ㅁㅔ -821
▁ㄷㅗㅇㅇㅏㄴ -822
▁ㅁㅗㄷㅡㄴ -823
▁ㄷㅏㄱㅏ -824
▁ㄴㅠ -825
▁ㄱㅏㅁㄷㅗㄱ -826
ㅈㅗㄴ -827
▁ㅁㅜㄴㅈㅔ -828
ㅊㅜㄱ -829
▁ㅎㅗㅇ -830
▁ㅇㅠㄱ -831
▁ㅂㅏㅇㅅㅗㅇ -832
▁ㄴㅏㄹ -833
▁ㄱㅜㅅㅓㅇ -834
▁ㅈㅔㅇ -835
▁ㅂㅐㅇㅜ -836
ㅂㅗㅇ -837
▁194 -838
▁ㄱㅐㅂㅏㄹ -839
▁ㅌㅐ -840
▁L -841
ㄹㅗㄱ -842
▁ㅇㅏㄱ -843
ㅂㅓ -844
▁l -845
ㄱㅝㄴ -846
▁ㅈㅣㅂㅏㅇ -847
▁ㅁㅏㅌ -848
▁ㅊㅓㅇㅡㅁ -849
▁ㅈㅔㅈㅏㄱ -850
▁ㅅㅏㄱㅓㄴ -851
▁ㄴㅡㄴㄷㅏ -852
▁ㄷㅐㅎㅏㄱㄱㅛ -853
ㄷㅗㄹ -854
▁ㅇㅣㄹㅂㅜ -855
ㅏㅇㅜㄴ -856
▁ㅇㅟㅎㅏㄴ -857
▁ㅇㅏㄹㄹㅕ -858
▁% -859
ㄱㅡㅁ -860
▁ㅇㅏㅇㅣ -861
▁ㄱㅔㅇㅣㅁ -862
▁ㄱㅜㄱㅈㅔ -863
ㅍㅣㄱ -864
ㄷㅏㅁ -865
▁ㅅㅐㄹ -866
▁ㅈㅏㄱㅍㅜㅁ -867
▁ㅊㅗㄱ -868
ㅇㅣㅂ -869
▁ㄱㅘㄴㄱㅖ -870
ㄹㅗㄴ -871
▁ㄷㅏㅁ -872
▁ㄱㅏㄹ -873
▁ㅇㅣㅇㅛㅇ -874
ㅍㅕㅇ -875
▁ㅂㅔ -876
ㄹㅏ -877
▁ㅇㅕㅆㅇㅡㅁㅕ -878
▁ㄷㅚㄹ -879
ㅊㅓㄹ -880
▁ㅅㅣㄱㅏㄴ -881
▁ㄲㅡㅌ -882
▁ㅅㅔㄱㅣ -883
▁ㅂㅓㄹ -884
ㄴㅐ -885
▁ㅅㅡㅍ -886
▁ㅇㅣㄹㅂㅏㄴ -887
▁ㄱㅗㅅ -888
ㅈㅓㄹ -889
▁ㄱㅛㅇㅠㄱ -890
▁G -891
▁ㄴㅏㄱ -892
ㄱㅘㅇ -893
▁ㅇㅣㄴㄱㅜ -894
▁ㅇㅜㄴㄷㅗㅇ -895
ㅎㅚㄱ -896
▁ㅎㅑㅇ -897
▁ㅈㅗㄴㅈㅐ -898
ㅓㄴㅏㅆ -899
▁ㄱㅡㅂ -900
▁ㄷㅙ -901
▁ㅈㅓㅇㄷㅗ -902
▁ㅈㅓㅂ -903
▁ㅈㅜㅈㅏㅇ -904
▁N -905
ㅂㅡ -906
▁ㅇㅡㅁㅇㅏㄱ -907
▁ㅈㅡㄱ -908
▁gt -909
▁ㅆㅣ -910
ㅏㅁㅏ -911
▁ㅈㅓㄹ -912
▁ㅊㅐㄱ -913
on -914
ㅌㅐㄱ -915
▁km -916
▁195 -917
ㅊㅏㅇ -918
▁ㅈㅜㅇㅅㅣㅁ -919
ㅈㅡㅇ -920
▁ㅊㅏㄹ -921
ㅊㅐㄱ -922
▁ㄱㅟ -923
ㅎㅘㄹ -924
▁ㄴㅐㅇ -925
▁ㄱㅕㅇㅈㅔ -926
▁ㄱㅓㄴㅏ -927
▁lt -928
ㅌㅓㄴ -929
▁ㄴㅏㅌㅏㄴ -930
▁ㅅㅔㅇ -931
ㅋㅡㄹ -932
▁R -933
ㅊㅏㄱ -934
▁ㅇㅐ -935
ㄴㅕㄴ -936
▁ㅅㅠ -937
▁U -938
▁ㅇㅞ -939
ㄹㅑㅇ -940
▁30 -941
ㅅㅗㄴ -942
ㅂㅕㄴ -943
ㅂㅐ -944
▁ㅂㅏㄹㄱㅕㄴ -945
ㄴㅣ -946
ㅌㅗㅇㄹㅕㅇ -947
▁ㅋㅏㄹ -948
▁ㅎㅐㅆㅇㅡㅁㅕ -949
▁ㄱㅣㅅㅜㄹ -950
▁H -951
ㅎㅘㄱㅜㄱ -952
ㄷㅡㄴ -953
ㅂㅜㅂㅜㄴ -954
ㅁㅏㅇ -955
ㅊㅓ -956
▁ㅇㅏㄷㅡㄹ -957
▁ㅅㅔㄹ -958
▁E -959
▁ㅊㅡㄱ -960
ㅗㅇㅜㄴ -961
▁ㅇㅗㄹㄹㅣㅁ -962
▁ㅂㅏㄹㅍㅛ -963
ㅅㅏㄹ -964
▁ㄷㅐㅇ -965
ㅗㄱㅡㄹ -966
▁ㅁㅣㄴㅈㅜ -967
ㅣㅇㅓㄴ -968
▁ㅇㅣㄹㅇ -969
▁ㅇㅓㄷ -970
▁ㄱㅕㄹㄱㅘ -971
▁ㅈㅓㅇㅊㅣ -972
▁ㅈㅏㅁ -973
▁ㄷㅗㄹㅗㄱ -974
▁ㅅㅏㅁㅏㅇ -975
▁ㅊㅣㄹ -976
▁ㄷㅡ -977
ㄹㅐ -978
▁ㄱㅜㅈㅗ -979
▁ㅊㅣ -980
▁ㅇㅕㅇㅎㅑㅇ -981
▁ㅌㅏㄴ -982
▁ㄴㅓ -983
▁ㅅㅣㅋㅣ -984
▁ㅂㅓ -985
ㄷㅓ -986
▁ㅇㅔㄹ -987
▁ㅍㅗㄹ -988
▁ㅅㅔㄴ -989
ㅅㅡㄴ -990
▁ㅇㅜㅅㅡㅇ -991
ㅈㅓㅂ -992
▁2010 -993
ㅅㅡㅌㅡ -994
▁ㅌㅔ -995
▁ㅂㅓㅁ -996
▁ㄱㅗㅇㄱㅕㄱ -997
▁ㄹㅗㅂㅜㅌㅓ -998
▁ㅇㅢㅁㅣ -999
▁ㄷㅐㅌㅗㅇㄹㅕㅇ -1000
ㅋㅜ -1001
▁ㄴㅓㅁ -1002
▁ㅋㅗㄴ -1003
▁ㄱㅘㅈㅓㅇ -1004
▁ㅇㅓㅂ -1005
▁ㅇㅐㄹ -1006
▁ㅋㅣ -1007
▁ㅇㅣㅅ -1008
▁ㄷㅐㅂㅜㅂㅜㄴ -1009
an -1010
ㄷㅏㄴㅡㄴ -1011
ㅍㅓ -1012
▁ㄹㅓㅅ -1013
▁ㅈㅏㅂ -1014
▁ㄱㅘㄴㄹㅕㄴ -1015
▁ㅇㅗㄹㄹㅣㅁㅍㅣㄱ -1016
▁ㅈㅓㄴㅌㅜ -1017
▁ㅂㅏㄺ -1018
ㅗㄱㅡㄹㅐㅁ -1019
▁ㅊㅣㅁ -1020
000 -1021
▁ㅈㅣㅇㅝㄴ -1022
ㅆㅓ -1023
▁ㅌㅏㅇ -1024
ㄱㅡㄱ -1025
▁ㅎㅛ -1026
ㅊㅜ -1027
ㅎㅗㄴ -1028
▁ㅁㅗㄹ -1029
ㄱㅡㄹ -1030
▁ㅂㅏㄹㅅㅐㅇ -1031
▁ㅍㅡㄹㅗㄱㅡㄹㅐㅁ -1032
ㅇㅘㅇ -1033
▁193 -1034
ㄷㅡㄱ -1035
▁ㅎㅗㄴ -1036
ㄴㅏ -1037
▁ㅊㅏㅁㅇㅕ -1038
▁ㅇㅠㄹㅓㅂ -1039
▁ㅈㅣㄴㅎㅐㅇ -1040
▁ㅈㅜㅇㅇㅏㅇ -1041
ㅈㅣㅁㅏㄴ -1042
▁ㄸㅏㄹ -1043
▁ㅇㅓㅁ -1044
ㅜㄹㅡ -1045
▁ㅎㅐㅇㅈㅓㅇ -1046
▁ㅊㅚㅊㅗ -1047
▁ㄷㅗㄱㄹㅣㅂ -1048
20 -1049
▁c -1050
▁ㅅㅓㄹㄹㅣㅂ -1051
ㅣㅇㅏㄴ -1052
▁ㅈㅗㅎ -1053
▁ㅂㅣㄱ -1054
▁ㄷㅡㄹㅇ -1055
▁25 -1056
▁ㅂㅡㄹㄹ -1057
▁ㄱㅕㄹㅈㅓㅇ -1058
▁W -1059
▁ㅂㅜㅂㅜㄴ -1060
ㅌㅡㄴ -1061
▁ㅈㅏㅇㅠ -1062
▁ㅌㅡㄱㅎㅣ -1063
▁ㅈㅔㄱㅜㄱ -1064
ㅊㅣㄱ -1065
▁ㅎㅕㅇㅌㅐ -1066
▁ㄱㅗㄷㅡㅇ -1067
▁ㄷㅏㅇㅑㅇ -1068
▁ㄷㅙㅆ -1069
ㄱㅏㅁ -1070
▁ㄷㅜㄹ -1071
▁ㅇㅐㄴ -1072
▁ㅂㅣㅇ -1073
▁ㅂㅏㄹㅁㅐ -1074
▁ㅍㅖ -1075
ㅔㅇㅣㅅㅕㄴ -1076
▁ㅂㅔㄹ -1077
▁ㅅㅏㅇㅌㅐ -1078
▁ㅎㅏㅈㅣㅁㅏㄴ -1079
▁ㅇㅓㅅㅓ -1080
▁ㅆㅡ -1081
▁ㅈㅗㄹ -1082
▁ㅇㅣㅈㅓㄴ -1083
ㅜㅂ -1084
▁ㅍㅏㄹ -1085
▁ㅂㅣㄴ -1086
▁ㄱㅏㅌㅇㅣ -1087
▁ㅇㅣㅌ -1088
ㅜㅇㅓ -1089
▁ㅇㅓㄹ -1090
▁2008 -1091
▁ㅅㅗㅅㅗㄱ -1092
▁ㅅㅏㅅㅣㄹ -1093
ㅂㅐㄱ -1094
▁ㅊㅗㄷㅡㅇ -1095
▁ㅇㅓㅇ -1096
▁21 -1097
ㅅㅣㅇㅏ -1098
ㄷㅣㅇㅗ -1099
▁ㅊㅐ -1100
▁ㅅㅐㄹㅗㅇㅜㄴ -1101
▁ㅅㅡㄹ -1102
▁ㅅㅓㄴㄱㅓ -1103
▁ㄱㅡㄴㅕ -1104
▁ㅁㅜㄱ -1105
▁ㅇㅣㄴㅎㅐ -1106
▁ㅍㅏㅇ -1107
▁ㅈㅗㅈㅣㄱ -1108
▁ㅇㅡㄹㅗㅅㅓ -1109
▁ㅇㅣㄴㅁㅣㄴ -1110
▁ㄴㅏㄹㅏ -1111
▁ㅅㅗㄹ -1112
▁ㅅㅐㅇㄱㅏㄱ -1113
▁ㅇㅕㅅㅓㅇ -1114
▁ㄷㅡㅇㅈㅏㅇ -1115
▁ㅈㅜㄹㅗ -1116
ㅍㅐ -1117
▁2011 -1118
ㅐㅆ -1119
▁2012 -1120
▁ㅍㅣㄹㅇㅛ -1121
ㄷㅓㄱ -1122
ㅜㄹㅣ -1123
ㅣㅈㅡ -1124
▁ㅈㅜㅇㅛ -1125
ㄷㅏㄱㅗ -1126
▁ㅅㅐㄱ -1127
▁ㅇㅜㄴㅇㅕㅇ -1128
▁ㅊㅜㄹㅅㅣㄴ -1129
▁ㅇㅣㄱㅓㅅ -1130
▁ㄱㅣㅈㅜㄴ -1131
▁ㅊㅏㅁㄱㅏ -1132
▁ㅋㅓㅁ -1133
▁ㅅㅐㅇㅅㅏㄴ -1134
▁ㄱㅖㅎㅚㄱ -1135
ㅋㅔ -1136
▁ㅁㅜㅇ -1137
ㅏㄹㄹㅣㅇㅏ -1138
▁ㄷㅔㅂ -1139
en -1140
▁2009 -1141
▁100 -1142
▁ㄱㅣㄱㅘㄴ -1143
▁ㅎㅓㄴ -1144
▁ㅈㅜㅇㅇㅛ -1145
▁2014 -1146
▁ㅇㅟㅇㅝㄴㅎㅚ -1147
ㅌㅚ -1148
▁ㅈㅣㅈㅓㅇ -1149
▁2007 -1150
ㅅㅜㄴ -1151
ㅇㅑ -1152
▁ㅇㅕㅈㅏ -1153
▁ㅇㅓㄱ -1154
▁ㄹㅏㅇㅣ -1155
▁ㅅㅓㄹㅊㅣ -1156
▁ㅎㅣ -1157
▁ㅇㅡㅁㅂㅏㄴ -1158
▁t -1159
▁ㄴㅐㄹ -1160
ㅂㅏㄱ -1161
▁ㅁㅕㅊ -1162
▁ㅇㅓㄸ -1163
▁ㄱㅓㅇ -1164
▁ㅌㅏㄹ -1165
ㅊㅏㄴ -1166
▁ㅈㅓㅇㅂㅗ -1167
▁ㅅㅓㅇㄱㅗㅇ -1168
▁ㄹㅗㅁㅏ -1169
▁ㅈㅘ -1170
ㅅㅡㅌㅡㄹ -1171
▁ㄱㅖㅅㅗㄱ -1172
ㅏㄱㅏ -1173
▁ㅅㅜㄱ -1174
▁ㅅㅣㅈㅓㄹ -1175
▁ㅅㅏㅇㄷㅐ -1176
ㅎㅢ -1177
▁ㄱㅜㄱㅁㅣㄴ -1178
ㅝㅆ -1179
▁a -1180
ㅌㅣㄴ -1181
ㅊㅣㄴ -1182
▁ㅍㅜㅇ -1183
ㅊㅣㅁ -1184
▁ㅎㅢ -1185
▁ㄹㅓㅅㅣㅇㅏ -1186
▁ㄱㅘㄴㄹㅣ -1187
▁O -1188
▁ㄷㅔㅂㅟ -1189
▁ㅁㅐㅇㅜ -1190
▁ㅇㅗㅇ -1191
▁2013 -1192
ㅂㅓㄹ -1193
ㅂㅡㄹ -1194
▁ㅅㅛ -1195
▁ㄱㅘㅎㅏㄱ -1196
▁ㅋㅏㄴ -1197
▁ㄷㅐㅈㅓㄴ -1198
▁ㄹㅣㅇ -1199
▁ㅎㅐㅅㅓ -1200
▁ㅅㅏㅇㅓㅂ -1201
▁ㅁㅐㄱ -1202
▁ㅎㅐㄷㅏㅇ -1203
▁ㅂㅏㄹㅈㅓㄴ -1204
▁ㄱㅐㄱ -1205
▁ㄷㅔㅇㅣ -1206
he -1207
ㄴㅏㄹㅏ -1208
▁ㅇㅗㄱ -1209
▁ㅅㅐ -1210
▁ㅅㅐㅇㅎㅘㄹ -1211
▁ㅂㅏㅇㅂㅓㅂ -1212
▁ㅃㅜㄴ -1213
▁ㅈㅣㅁ -1214
▁ㅌㅡ -1215
▁ㅆㅏㅇ -1216
ㅇㅕㄹ -1217
ㅊㅡㄱ -1218
▁ㅇㅏㅂㅓㅈㅣ -1219
▁ㅎㅣㅁ -1220
ㅓㄴㅣ -1221
▁ㅅㅡㅋ -1222
▁ㅈㅏㄹㅣ -1223
▁ㅊㅏㅈ -1224
▁191 -1225
▁ㄸㅏㄹㅡ -1226
▁ㄱㅗㄹㅕ -1227
▁ㅅㅐㅇㅇㅐ -1228
ㅁㅐㅇ -1229
▁ㅊㅗㄱㅣ -1230
▁ㅇㅣㅇㅠ -1231
▁2015 -1232
▁23 -1233
▁2018 -1234
▁24 -1235
ㅌㅏㄹ -1236
ar -1237
▁ㅇㅏㄹㅐ -1238
▁ㄴㅡㅇ -1239
▁ㄴㅐㅇㅛㅇ -1240
▁ㅇㅝㄹㄷㅡ -1241
ㅘㅆ -1242
▁ㅌㅣ -1243
▁ㅊㅓㄹㅓㅁ -1244
ㅔㄹㅣ -1245
▁ㅇㅐㄹㅂㅓㅁ -1246
▁ㅊㅏㅈㅣ -1247
▁000 -1248
▁ㅊㅜㄹㅇㅕㄴ -1249
▁2016 -1250
▁ㄹㅔㅇㅣ -1251
▁ㅇㅣㅇㅓ -1252
▁ㅇㅣㅌㅏㄹㄹㅣㅇㅏ -1253
ㅟㄴ -1254
▁ㅎㅜㅂㅗ -1255
▁ㄱㅡㄹㅓ -1256
▁ㄱㅡㄹㅜㅂ -1257
▁ㄴㅗㄱ -1258
▁ㅅㅣㄹㅣㅈㅡ -1259
▁ㅋㅜ -1260
ㄹㅣㅇ -1261
▁ㄱㅕㄹㄱㅜㄱ -1262
▁ㅍㅕㅇㄱㅏ -1263
▁ㅇㅜㅇ -1264
▁J -1265
es -1266
▁ㅁㅐㄴ -1267
ㄸㅐ -1268
▁ㅁㅗㅁ -1269
ㅎㅕ -1270
▁ㅂㅗㅇㅣ -1271
▁ㅊㅚㄱㅗ -1272
▁22 -1273
▁ㅈㅓㄴㅊㅔ -1274
ㄱㅠㄴ -1275
▁ㄱㅡㄹㅣㅅㅡ -1276
▁ㄱㅏㄹㅣ -1277
▁ㅆㅡㅇ -1278
▁ㅂㅏㅇㅅㅣㄱ -1279
▁2006 -1280
FA -1281
▁ㅎㅚㅅㅏ -1282
▁ㄱㅕㄱ -1283
▁ㅎㅏㄴㅍㅕㄴ -1284
▁ㄸㅓㄹ -1285
▁ㅂㅜㅌ -1286
▁ㅁㅛ -1287
ㅗㅇㅣ -1288
▁ㅇㅣㄴㄱㅏㄴ -1289
▁ㅈㅕㅆ -1290
▁ㅈㅏㄴ -1291
ㅇㅏㅁ -1292
▁ㅅㅣㅅㅡㅌ -1293
▁ㅊㅡㅇ -1294
▁ㅅㅜㅅㅏㅇ -1295
▁ㅂㅔㄴ -1296
▁192 -1297
▁ㅋㅗㄹ -1298
▁2017 -1299
▁ㅂㅜㄴㄹㅠ -1300
▁ㄱㅗㄷㅡㅇㅎㅏㄱㄱㅛ -1301
▁ㅌㅐㅇㅓㄴㅏㅆ -1302
▁ㅇㅕㄴㅎㅏㅂ -1303
▁ㄱㅗㅇㅅㅣㄱ -1304
▁ㅅㅣㄱㅣ -1305
▁ㄱㅐㅇㅛ -1306
ㄴㅏㄹ -1307
▁ㅎㅏㅇㄱㅗㅇ -1308
▁ㅈㅔㄱㅗㅇ -1309
ㅈㅣㄴㄷㅏ -1310
▁ㅇㅕㅆㅇㅡㄴㅏ -1311
▁ㅇㅕㄱㅎㅏㄹ -1312
▁ㄷㅡㄹㅏㅁㅏ -1313
▁ㅎㅗㄱ -1314
ㅊㅚ -1315
▁ㅇㅢㅇㅝㄴ -1316
▁ㅅㅣㅅㅡㅌㅔㅁ -1317
ㅗㅊ -1318
▁ㅈㅓㅇㅇㅢ -1319
ㅜㄴㄷㅔ -1320
ㄷㅣㅇ -1321
▁ㅎㅗㅁ -1322
▁ㅁㅗㅅㅎㅏ -1323
▁ㅁㅏㄶㅇㅣ -1324
▁ㄱㅣㅇㅓㅂ -1325
▁ㄹㅠ -1326
▁ㅈㅔㄷㅗ -1327
ㅍㅜㅇ -1328
▁ㅇㅜㄹㅣ -1329
▁ㅅㅑ -1330
▁ㅇㅣㄲ -1331
▁ㄱㅏㅇㅜㄴㄷㅔ -1332
▁ㄷㅗㅋ -1333
▁ㅊㅜㄹㅈㅓㄴ -1334
▁ㅈㅗㅅㅏ -1335
▁ㅇㅠㅁㅕㅇ -1336
▁ㅁㅣㄴㅈㅗㄱ -1337
▁ㄱㅣㄴㅡㅇ -1338
▁ㅁㅓㄴ -1339
▁ㅎㅠ -1340
ㅍㅡㄹㅣ -1341
▁ㄱㅛㅎㅚ -1342
▁ㄱㅓㅇㅢ -1343
ㄹㅑㄱ -1344
ㅇㅖ -1345
▁s -1346
▁ㅂㅏㄴㄷㅐ -1347
ㅎㅓㄴ -1348
ㅅㅣㅇ -1349
ㅈㅜㄱ -1350
▁ㅇㅡㄹㅗㅆㅓ -1351
▁ㄹㅏㅇ -1352
▁ㅍㅔㄹ -1353
▁ㄴㅜㄴ -1354
▁ㅍㅛㅎㅕㄴ -1355
ㅎㅕㄱ -1356
▁ㅇㅓㄴㅇㅓ -1357
▁ㅇㅡㅇ -1358
▁ㄹㅡ -1359
ㅡㄹㄹㅐㄴㄷㅡ -1360
▁ㅍㅏㄱ -1361
▁ㅈㅣㄱㅜ -1362
▁ㄷㅐㅅㅣㄴ -1363
▁ㅁㅗㄱㄹㅗㄱ -1364
ㅜㅇㅝㄴ -1365
▁ㄱㅐㅇㅣㄴ -1366
▁ㅇㅣㄹㅜ -1367
ㅌㅏㅇ -1368
▁ㅎㅐㅇㅑ -1369
▁ㄷㅐㅅㅏㅇ -1370
▁ㅇㅡㄹㅗㅂㅜㅌㅓ -1371
ㅍㅣㄹ -1372
▁ㅌㅡㄱㅂㅕㄹ -1373
▁ㅇㅣㄹㅗㄴ -1374
ㅌㅔ -1375
▁ㄷㅗㅇㅅㅣ -1376
▁26 -1377
at -1378
ㄱㅕ -1379
▁ㅇㅠㅈㅣ -1380
▁ㅈㅏㅇㅕㄴ -1381
▁ㅁㅗㅅㅡㅂ -1382
▁ㄱㅠㅁㅗ -1383
▁! -1384
▁ㄱㅜㄴㅅㅏ -1385
ㅑㄱㅣ -1386
▁ㄸㅓㄹㅇㅓ -1387
▁ㄴㅗㄷㅗㅇ -1388
ㄴㅏㄴ -1389
▁ㄱㅗㅇㄱㅐ -1390
ㅎㅟ -1391
▁ㄸㅏㄹㅏㅅㅓ -1392
▁ㄴㅗㅎ -1393
▁ㅇㅕㄴㄱㅕㄹ -1394
ㅗㅅㅡ -1395
▁ㅎㅕㄴㄷㅐ -1396
▁ㅅㅡㅇㄹㅣ -1397
▁ㅇㅣㄹㅡ -1398
▁ㅇㅑㄱㅜ -1399
▁ㅇㅝ -1400
▁ㅅㅡㅂ -1401
▁ㅇㅏㄹㄹ -1402
▁28 -1403
ㅣㅁㅏㄱ -1404
▁ㅇㅣㅁㅣ -1405
▁ㅇㅕㄹㄹㅣㄴ -1406
ㅓㄱㅏ -1407
▁2019 -1408
ㅋㅓㅂ -1409
▁ㅌㅡㄱㅈㅣㅇ -1410
▁ㅈㅣㄴㅊㅜㄹ -1411
▁ㄴㅏㅇㅣ -1412
▁ㅎㅐㄱ -1413
▁27 -1414
ㅔㄹㄹㅔ -1415
▁ㄷㅏㄴㅊㅔ -1416
▁ㄱㅏㄱㄱㅏㄱ -1417
▁ㄹㅏㅁ -1418
ㄴㅕㅁ -1419
▁ㅈㅓㅇㅊㅐㄱ -1420
▁ㅇㅕㄱㅣ -1421
▁ㅁㅗㄱㅈㅓㄱ -1422
ㅅㅡㅌㅓ -1423
▁ㅇㅣㄴㅈㅓㅇ -1424
▁ㅋㅐㄹ -1425
▁ㅅㅡㅌㅏ -1426
ㅗㅂ -1427
ㅋㅓ -1428
▁ㅅㅏㅇㅎㅘㅇ -1429
▁ㅁㅗㄴ -1430
▁ㅅㅏㄴㅇㅓㅂ -1431
▁ㅈㅣㄷㅗ -1432
▁ㅊㅏㄱ -1433
▁ㅇㅣㄴㅁㅜㄹ -1434
▁V -1435
▁ㅌㅏㅇㅣ -1436
▁ㅊㅓㄹㄷㅗ -1437
▁ㄱㅜㄹ -1438
▁ㅅㅣㅈㅏㅇ -1439
▁ㅅㅟ -1440
▁ㅋㅐㄴ -1441
▁ㅅㅣㅋㅕㅆ -1442
ㅇㅡㅇ -1443
▁ㅁㅓㄱ -1444
ㅎㅏㄴㄷㅏ -1445
▁ㅌㅓ -1446
▁ㅊㅣㅇ -1447
ㅌㅣㅇ -1448
ㅊㅗㅇ -1449
▁2005 -1450
▁2000 -1451
▁ㄱㅣㅇㅝㄴ -1452
▁ㅁㅏㅈㅣㅁㅏㄱ -1453
▁ㅇㅣㅁㅁㅕㅇ -1454
▁ㅇㅣㅇㅑㄱㅣ -1455
▁ㅈㅓㄴㅁㅜㄴ -1456
▁ㄸㅟ -1457
▁ㄱㅣㄱㅏㄴ -1458
▁ㅋㅓㅂ -1459
▁ㄱㅜㅇㅕㄱ -1460
▁ㅎㅜㄴ -1461
▁ㅇㅘㅆ -1462
▁ㅈㅣㄱㅈㅓㅂ -1463
▁ㅇㅏㄹㄹㅕㅈㅕ -1464
ic -1465
al -1466
ㅔㄹㅏ -1467
▁ㅋㅓ -1468
▁ㅎㅕㄱ -1469
ㅐㅁㅍ -1470
▁ㄷㅗㄴ -1471
▁ㄱㅕㅇㅅㅏㅇ -1472
ㅇㅏㅂ -1473
ㅊㅜㅇ -1474
ㅌㅡㅇ -1475
ㅁㅏㄹ -1476
ㅎㅡㅇ -1477
▁ㄹㅗㄴ -1478
▁ㄱㅖㅇㅑㄱ -1479
▁ㄴㅡ -1480
▁ㅎㅐㅆㅇㅡㄴㅏ -1481
▁ㅂㅜㄹㄹㅣ -1482
▁ㅅㅓㄹㅗ -1483
ㅊㅡㅇ -1484
▁ㅊㅜㄱㅏ -1485
▁ㅋㅓㅁㅍ -1486
▁ㄱㅓㄴㅅㅓㄹ -1487
ㅡㄴㄷㅏ -1488
▁ㄱㅗㅇㄷㅗㅇ -1489
ㅔㄹㅗ -1490
▁ㅂㅣㄹㅗㅅ -1491
▁ㅁㅗㄷㅔㄹ -1492
▁FC -1493
▁ㄱㅐㅊㅚ -1494
▁2004 -1495
BS -1496
▁ㅅㅏㅅㅏㅇ -1497
▁ㅎㅕㅇㅅㅓㅇ -1498
▁ㄱㅗㅇㄱㅏㄴ -1499
▁ㄱㅕㅇㅊㅏㄹ -1500
ㅂㅜㄹ -1501
ㅅㅜㄱ -1502
▁ㅇㅣㄴㄷㅗ -1503
ㄷㅡㅁ -1504
▁ㄱㅕㄹㅎㅗㄴ -1505
▁ㄱㅓㄴㅁㅜㄹ -1506
▁ㅈㅏㄷㅗㅇ -1507
▁ㄴㅗㅅㅓㄴ -1508
ㅏㄴㄷㅏ -1509
▁ㅁㅏㅇㅣ -1510
▁ㅂㅕㄴㅎㅘ -1511
ㄹㅠㄹ -1512
ㄴㅣㄷㅏ -1513
▁ㄴㅗㄹㅐ -1514
▁50 -1515
▁ㅎㅘㄹㅇㅑㄱ -1516
ㅗㄹㅡ -1517
▁ㄱㅘㄴㅎㅏㄴ -1518
▁ㅅㅡㅍㅔㅇㅣㄴ -1519
▁ㅌㅏㅂ -1520
▁ㅇㅗㅅㅡㅌㅡㄹ -1521
ㅜㅅ -1522
ㅎㅕㅆ -1523
▁ㄱㅏㄲ -1524
▁TV -1525
▁ㅂㅔㅇㅣ -1526
ㅈㅏㅂ -1527
▁31 -1528
▁ㅂㅕㄴㄱㅕㅇ -1529
▁ㅂㅜㅅㅏㄴ -1530
ㅎㅏㄱㅈㅏ -1531
▁ㄱㅜㄱㅎㅚ -1532
▁ㅂㅗㅇㅕ -1533
▁ㅅㅏㄹㅏㅇ -1534
▁29 -1535
ㅆㅡ -1536
▁ㅂㅣㅅㅡ -1537
▁ㄱㅡㄱㅓㅅ -1538
▁ㄱㅓㄹㅣ -1539
▁ㅍㅜㄹ -1540
ㅗㄹㄹㅗ -1541
▁ㄱㅛㅅㅜ -1542
▁ㅅㅓㅅ -1543
▁ㅇㅡㅁㅕㄴ -1544
▁ㅅㅣㅂ -1545
ㅊㅕㅆ -1546
▁ㅈㅐㄱ -1547
▁ㅌㅏㅁ -1548
ㄹㅏㄱ -1549
is -1550
▁ㅈㅗㄹㅇㅓㅂ -1551
ㅇㅜㄴ -1552
ㅓㄹㄹㅣ -1553
it -1554
▁ㅁㅣㄷ -1555
▁ㄱㅗㅇㅎㅘㄱㅜㄱ -1556
▁ㄹㅓ -1557
▁ㅇㅢㅎㅏ -1558
ㄱㅓㄴ -1559
▁ㅇㅘㄴㅈㅓㄴ -1560
▁b -1561
▁ㅁㅔㅁ -1562
ㅅㅠ -1563
ㅏㄷㅏ -1564
re -1565
▁ㄱㅕㄴ -1566
▁ㄴㅏㅈ -1567
▁ㅁㅏㅇㅡㄹ -1568
ㅔㅇㅣㄹ -1569
ㄷㅓㄴ -1570
ㅌㅔㄴ -1571
▁ㅇㅣㄴㅁㅣㄴㄱㅗㅇ -1572
▁ㄱㅕㅇㄹㅕㄱ -1573
▁ㅇㅣㄴㅁㅣㄴㄱㅗㅇㅎㅘㄱㅜㄱ -1574
▁ㅋㅡㄹㄹㅓㅂ -1575
ㅂㅣㅈㅓㄴ -1576
▁2020 -1577
▁ㅇㅕㄱㅅㅣ -1578
▁ㄸㅏㅇ -1579
▁190 -1580
▁ㅂㅣㅍㅏㄴ -1581
ㅍㅗㄴ -1582
▁ㅅㅓㅂㅣㅅㅡ -1583
▁ㅎㅏㄱㅅㅐㅇ -1584
▁ㅈㅣㄱㅡㅁ -1585
▁ㅌㅔㄹㄹㅔ -1586
ou -1587
▁ㅍㅔ -1588
ㅈㅡㅁ -1589
▁ㅇㅜㅁ -1590
ㄱㅗㄹ -1591
▁ㅎㅓㅇ -1592
ㅇㅛㄱ -1593
ㅅㅡㄹ -1594
ㅅㅏㄱ -1595
▁ㅅㅗㅅㅓㄹ -1596
▁ㅂㅜㄹㅡ -1597
▁ㅂㅗㅌㅗㅇ -1598
▁ㅊㅚㄷㅐ -1599
▁ㅎㅣㄹ -1600
▁ㅋㅐ -1601
▁ㄱㅔㅆ -1602
▁ㅈㅜㅇㅎㅏㄱㄱㅛ -1603
ㄷㅐㄹㅗ -1604
▁ㄱㅏㅅㅜ -1605
▁ㄱㅣㅂㅗㄴ -1606
▁ㄹㅗㄱ -1607
▁ㅇㅢㅎㅚ -1608
▁ㅈㅜㅇㅎㅘ -1609
▁ㅇㅛㄱㅜ -1610
▁ㅈㅓㄴㄱㅜㄱ -1611
ㄹㅏㄴㄷㅡ -1612
▁ㅁㅔㅇㅣ -1613
▁ㅅㅗㄱㅎㅏ -1614
▁ㅇㅣㄹㅇㅡ -1615
▁ㅎㅗㄹ -1616
ㄴㅏㅁㄷㅗ -1617
ㅍㅡㄹㅣㅋㅏ -1618
▁ㄱㅏㅈㅣㄴ -1619
ㅎㅘㄱ -1620
▁ㅌㅚ -1621
▁ㅈㅗㅇㄱㅛ -1622
▁ㅅㅣㅇㄱㅡㄹ -1623
▁ㅇㅓㅄㅇㅣ -1624
▁ㅇㅐㄱ -1625
▁ㅈㅓㄴㅌㅗㅇ -1626
▁ㄱㅕㅁ -1627
ㅎㄱㅔ -1628
ㅂㅣㄴ -1629
▁ㄹㅕ -1630
▁ㅅㅣㅅㅓㄹ -1631
ㅍㅡㅌㅡ -1632
▁ㅎㅘㅇㅈㅔ -1633
ㅜㄱㅣ -1634
ㅣㅇㅔ -1635
▁ㅍㅣㄴ -1636
▁ㅍㅗㅇ -1637
ㅇㅕㄱㅅㅣ -1638
▁ㅈㅏㄱㅣ -1639
▁ㅂㅐㄴㄷㅡ -1640
▁ㄱㅣㅂㅏㄴ -1641
▁ㅊㅓ -1642
ㅌㅔㄹ -1643
▁ㅎㅏㄴㄷㅏㄴㅡㄴ -1644
ㅏㅇㅘ -1645
▁ㅇㅜㅈㅜ -1646
▁ㅇㅝㄴㄹㅐ -1647
▁ㄹㅣㅂ -1648
▁ㅇㅓㄸㅓㄴ -1649
ㅣㅇㅑ -1650
▁ㅊㅏㅇㅣ -1651
▁ㅁㅏㄴㄷㅡㄴ -1652
ㅈㅚ -1653
ㄱㅣㄹ -1654
▁ㅅㅜㄷㅗ -1655
▁2002 -1656
▁ㅅㅔㄹㅕㄱ -1657
ㅋㅏㄴ -1658
▁ㅇㅜㄴㅎㅐㅇ -1659
▁ㅁㅕㅇㅊㅣㅇ -1660
▁ㄱㅓㅊㅕ -1661
▁ㅎㅘㄴㄱㅕㅇ -1662
▁ㄱㅛㅌㅗㅇ -1663
▁ㅋㅔ -1664
▁ㅈㅏㄹㅛ -1665
▁ㄷㅏㄹㄹㅣ -1666
▁ㄱㅏㅈㅗㄱ -1667
▁ㄱㅡㄹㅐ -1668
▁ㅇㅟㅎㅏ -1669
ㅌㅡㄱ -1670
▁ㅅㅓㄹㅁㅕㅇ -1671
ㅁㅔ -1672
▁40 -1673
▁ㄱㅕㅇㄱㅣㄷㅗ -1674
▁ㅈㅣㅎㅏ -1675
ㄹㅓㄴ -1676
▁ㅅㅗㄹㅕㄴ -1677
▁ㅁㅗㅅㅎㅐㅆ -1678
▁ㄱㅣㅌㅏ -1679
ㅅㅔㄴ -1680
▁ㅇㅝㄹㄷㅡㅋㅓㅂ -1681
ㅋㅣㄴ -1682
▁ㅂㅐㅇ -1683
▁ㅁㅠ -1684
▁ㄷㅓㅇ -1685
ㄹㅠㄱ -1686
▁ㅅㅔㄴㅌㅓ -1687
▁2003 -1688
▁ㄱㅗㅇㅇㅕㄴ -1689
▁ㅅㅜㅎㅐㅇ -1690
▁ㄷㅡㄱ -1691
▁ㅎㅚㅇㅢ -1692
▁ㄹㅜㅇ -1693
▁ㅇㅏㄴㅣㄴ -1694
▁ㄱㅏㅂ -1695
ㅊㅗㄴ -1696
▁ㄹㅓㄴ -1697
▁ㅅㅡㅇㄱㅏㅇ -1698
ㄹㅓㅆ -1699
▁ㅁㅗㅇㅑㅇ -1700
▁ㅈㅣㅈㅣ -1701
▁ㄷㅗㅋㅛ -1702
ㄱㅜㄹ -1703
▁ㅈㅓㄴㄱㅣ -1704
▁ㅇㅣㄷㅗㅇ -1705
▁ㅂㅜㄴㅇㅑ -1706
ㄹㅣㅁ -1707
▁ㄷㅓㄱ -1708
▁ㄱㅣㄷㅗㄱ -1709
ㄷㅜㅇ -1710
▁ㅇㅕㅁ -1711
▁ㅇㅖㅅㅜㄹ -1712
▁ㅋㅏㅁ -1713
▁ㄱㅣㄴㅕㅁ -1714
▁ㄱㅛㅎㅘㅇ -1715
▁ㅌㅗㅇㅎㅏㅂ -1716
▁ㅎㅟ -1717
ㄹㅖ -1718
ㄷㅔㄴ -1719
▁ㄹㅔㄴ -1720
mp -1721
▁ㅇㅣㄹㅜㅇㅓ -1722
ㄱㅟ -1723
ㅠㅁ -1724
▁ㄷㅗㅇㅣㅂ -1725
▁ㅂㅗㅎㅗ -1726
▁ㅌㅔㄹㄹㅔㅂㅣㅈㅓㄴ -1727
▁ㅋㅓㄴ -1728
le -1729
▁ㄷㅗㅇㅁㅜㄹ -1730
ㄹㅕㄹ -1731
▁ㄴㅏㅁㅈㅏ -1732
▁ㅎㅐㅇㄷㅗㅇ -1733
ㅌㅓㄹ -1734
▁ㅈㅏㄱㅇㅓㅂ -1735
ㄱㅏㄹ -1736
▁ㅅㅓㄴㅈㅓㅇ -1737
▁ㄷㅓㅂ -1738
▁ㅇㅕㄴㅂㅏㅇ -1739
▁ㅅㅏㄱㅗ -1740
▁ㅌㅐㄱ -1741
▁ㄷㅐㅎㅐㅅㅓ -1742
▁ㅂㅜㄷㅐ -1743
▁ㅇㅢㅎㅏㄴ -1744
▁ㅊㅏㄹㅑㅇ -1745
▁ㄴㅏㅇㅗ -1746
▁ㅅㅣㄹㅅㅣ -1747
▁ㄴㅡㅇㄹㅕㄱ -1748
▁ㄷㅔㄴ -1749
▁ㅈㅏㄱㅇㅛㅇ -1750
▁ㅊㅜㄹㅅㅣ -1751
▁ㅁㅜㄴㅎㅏㄱ -1752
▁ㅊㅏㄴ -1753
▁= -1754
▁ㅂㅏㄹㅗ -1755
▁ㅇㅟㄴ -1756
▁ㄱㅗㄷ -1757
▁ㄱㅜㄴㄷㅐ -1758
ㄷㅗㄴ -1759
▁ㅁㅐㅇ -1760
ㅎㅜㄴ -1761
▁ㅇㅟㄹ -1762
ㄱㅕㅆ -1763
▁ㅈㅡㅇㄱㅏ -1764
▁ㅎㅕㅇㅅㅣㄱ -1765
▁ㅂㅏㅇㅎㅑㅇ -1766
▁ㄱㅣㅈㅗㄴ -1767
ㅎㅕㅂ -1768
▁ㅎㅐㅇㅇㅟ -1769
ㄷㅓㄹ -1770
ㅊㅜㄴ -1771
▁ㄱㅗㄴ -1772
▁ㅎㅘㄱㅇㅣㄴ -1773
▁ㄴㅓㄼ -1774
▁ㅈㅣㅎㅟ -1775
▁ㅈㅏㄱㄱㅏ -1776
▁ㄴㅏㅁㅉㅗㄱ -1777
▁ㅎㅛㄱㅘ -1778
▁ㅎㅕㄱㅁㅕㅇ -1779
▁ㅂㅜㄱㅉㅗㄱ -1780
▁ㅌㅗㄹ -1781
▁ㄱㅘㄱㅓ -1782
▁ㅈㅏㄱㄱㅗㄱ -1783
ㅂㅜㄱㄷㅗ -1784
▁ㅇㅣㄸㅐ -1785
▁ㅈㅔㅇㅚ -1786
ㄹㅕㅆ -1787
▁ㄹㅕㄱ -1788
▁ㅂㅣㅅㅡㅅ -1789
▁ㅅㅡㅇㄱㅏㅇㅈㅏㅇ -1790
▁ㄹㅣㄴ -1791
▁ㅍㅣㅎㅐ -1792
▁ㅇㅗㄻ -1793
▁ㅁㅡㄹㅗ -1794
▁FI -1795
ㅌㅏㄱ -1796
▁ㅋㅓㅁㅍㅠ -1797
▁ㄷㅗㄹㅗ -1798
▁ㅈㅜㅂㅕㄴ -1799
ㅂㅔㄹ -1800
▁ㅇㅓㅁㅓㄴㅣ -1801
▁ㄱㅣㄷㅗㄱㄱㅛ -1802
▁ㅇㅘㅇㄱㅜㄱ -1803
▁ㄴㅡㄹ -1804
▁ㅈㅗㅇㄹㅠ -1805
▁ㅌㅐㅇㅑㅇ -1806
▁ㅇㅕㄹㅊㅏ -1807
ㄹㅡ -1808
▁ㅇㅣㄲㅡㄹ -1809
▁ㅋㅗㅇ -1810
▁ㅂㅓㅅㅡ -1811
ㅇㅓㄴㅏㄴ -1812
▁ㅍㅔㄴ -1813
▁ㅇㅠㅇㅣㄹ -1814
▁ㅈㅓㅇㄷㅏㅇ -1815
▁ㅇㅠㅇ -1816
▁ㄹㅔㅇ -1817
▁ㅂㅣㄱㅛ -1818
ㅇㅕㅁ -1819
▁ㅇㅕㄱㅇㅣㅁ -1820
▁ㅎㅡㅇ -1821
▁ㅎㅏㄴㄷㅏㄱㅗ -1822
ㅇㅕㅆ -1823
▁ㄴㅠㅇㅛㄱ -1824
▁ㅍㅗㄹㄹ -1825
▁ㅇㅣㅈㅓㄱ -1826
▁ㅅㅡㅁ -1827
▁ㅇㅗㅍ -1828
ㅂㅕㄱ -1829
ㄱㅓㄹㅣ -1830
ㅌㅗㄴ -1831
▁ㅂㅡㄹㅏ -1832
▁ㅍㅐㄴ -1833
BC -1834
▁ㄴㅗㅍㅇㅣ -1835
ㅎㅛ -1836
▁ㅇㅓㄹㅣㄴ -1837
▁ㄴㅏㅁㅂㅜ -1838
▁ㅎㅕㅂㅎㅚ -1839
ㅁㅏㄱ -1840
▁ㅈㅓㄱㅇㅛㅇ -1841
ㅈㅟ -1842
▁ㅎㅗㄱㅇㅡㄴ -1843
▁ㅈㅓㄴㅈㅏ -1844
▁ㅉㅗㄱ -1845
▁ㅍㅏㄴㅁㅐ -1846
▁ㅎㅡㄴ -1847
▁ㄱㅗㅇㅅㅏㄴ -1848
▁ㅈㅣㅂㅐ -1849
▁ㅋㅐㄴㅏㄷㅏ -1850
▁ㅇㅐㄴㅣㅁ -1851
▁ㅂㅏㄴㅇㅡㅇ -1852
▁ㅊㅜㅈㅓㅇ -1853
▁ㅅㅓㅇㅈㅏㅇ -1854
ㄹㅣㅅㅡ -1855
▁ㄷㅏㅁㄷㅏㅇ -1856
▁ㅅㅣㅁㅣㄴ -1857
▁ㄱㅓㄴㅊㅜㄱ -1858
▁ㄷㅗㅇㅇㅣㄹ -1859
ㅞㅇㅓ -1860
ㅋㅗㅇ -1861
▁ㄱㅐㄴㅕㅁ -1862
ㅈㅏㄹㅣ -1863
▁1990 -1864
▁ㅈㅏㅇㄱㅘㄴ -1865
▁ㅇㅠㄱㄱㅜㄴ -1866
ㅡㄹㄹㅓ -1867
▁ㅍㅜㅁ -1868
▁ㅎㅚㄱ -1869
▁2001 -1870
▁ㅅㅡㅌㅡㄹ -1871
▁ㅂㅗㄴㅐ -1872
▁X -1873
▁ㅍㅡㄹㅣ -1874
▁ㅋㅣㅇ -1875
ㄷㅐㄱ -1876
▁ㅋㅓㅁㅍㅠㅌㅓ -1877
▁ㄷㅗㅇㅉㅗㄱ -1878
ㅋㅔㅅ -1879
ㅔㅇㅣㅅㅡ -1880
▁ㅇㅔㄴㅈㅣㄴ -1881
▁ㅌㅗㄴ -1882
ㅈㅏㅇㅣㄴ -1883
▁ㅇㅗㅅ -1884
ㅜㄹㅏ -1885
▁ㄱㅜㄱㅏㄴ -1886
▁p -1887
▁ㅇㅗㄴㅡㄹ -1888
ㅁㅣㄹ -1889
▁ㅁㅏㅇㅡㅁ -1890
▁ㄱㅚ -1891
ㅇㅢㅇㅝㄴ -1892
▁ㅅㅏㄷㅏㄴ -1893
▁ㄷㅣㅈㅏㅇㅣㄴ -1894
▁ㅅㅏㅇㄷㅏㅇ -1895
▁ㄱㅜㄱㄴㅐ -1896
▁ㅇㅖㅈㅓㅇ -1897
ㅣㅅㅡㅌㅡ -1898
ㅋㅓㄹ -1899
▁ㅋㅡㄱㅣ -1900
▁ㅈㅏㄱㅈㅓㄴ -1901
▁ㅁㅏㄷㅏ -1902
ㅁㅐㄱ -1903
▁ㅈㅗㄱㅓㄴ -1904
ㅣㄱㅅㅡ -1905
▁ㅎㅡㄱ -1906
▁ㅁㅣㄴㅈㅜㅈㅜㅇㅢ -1907
▁ㅅㅔㅍㅗ -1908
▁ㄷㅐㅎㅏ -1909
▁ㄱㅓㅂ -1910
▁189 -1911
▁ㄴㅏㄱㅏ -1912
▁ㅊㅏㄹㅖ -1913
▁ㄴㅓㅎ -1914
▁ㅇㅣㄴㄱㅣ -1915
▁ㅅㅣㄹㅍㅐ -1916
ㄱㅐㄱ -1917
ㅆㅣ -1918
ㄹㅔ -1919
▁ㅅㅓㅉㅗㄱ -1920
▁ㅂㅓㅈㅓㄴ -1921
▁FIFA -1922
▁ㅈㅏㅊㅔ -1923
▁ㅇㅐㄴㅣㅁㅔㅇㅣㅅㅕㄴ -1924
ㅅㅡㅌㅏㄴ -1925
ㅊㅟ -1926
▁ㅅㅜㄹㅗㄱ -1927
▁ㅇㅔㄴㅓㅈㅣ -1928
ㅏㄹㄹㅏ -1929
▁ㄴㅐㄱ -1930
▁d -1931
▁ㅁㅜㄹㄹㅣ -1932
▁ㅊㅜㅇㅊㅓㅇ -1933
▁ㄱㅗㅇㅅㅏ -1934
▁ㅌㅡㄱㅈㅓㅇ -1935
▁ㅅㅓㄴㅇㅓㄴ -1936
▁ㅇㅣㄹㅓㄴ -1937
▁ㅈㅣㄴㅏ -1938
▁ㄹㅗㅂ -1939
▁ㅇㅓㄴㅡ -1940
ㅅㅡㅋㅡ -1941
ㅅㅐ -1942
▁ㄷㅗㄹㅇㅏㅇ -1943
▁ㅇㅗㄹㅐ -1944
ㄱㅜㅇ -1945
▁ㄷㅏㄹㅡ -1946
▁ㅇㅕㄴㅅㅗㄱ -1947
▁ㅊㅔㅈㅔ -1948
▁ㅍㅣㅇ -1949
▁ㅂㅜㅈㅗㄱ -1950
ㅏㄴㄷㅡ -1951
▁ㅂㅏㅇㅇㅕㅇ -1952
▁ㄱㅗㄷㅐ -1953
▁ㅅㅓㄴㅌㅐㄱ -1954
▁ㅇㅕㄴㄱㅣ -1955
▁ㄱㅕㄹㅅㅡㅇ -1956
▁ㅌㅏㄱ -1957
▁ㅁㅓㄹㅣ -1958
▁ㄱㅜㄱㄹㅣㅂ -1959
▁ㄱㅠㅈㅓㅇ -1960
el -1961
▁ㄴㅐㄴ -1962
▁ㅎㅐㄱㅜㄴ -1963
▁ㄱㅗㅇㅎㅏㅇ -1964
▁ㄴㅐㅂㅜ -1965
▁ㄱㅐㅎㅕㄱ -1966
▁ㅇㅙ -1967
et -1968
▁ㅁㅔㅁㅂㅓ -1969
ㅋㅣㄴㄷㅏ -1970
ㅎㅗㄱ -1971
▁ㅅㅡㅍㅗ -1972
▁ㅎㅔ -1973
ㄴㅗ -1974
▁ㅅㅣㅋㅕ -1975
▁ㄹㅕㄴ -1976
▁ㅈㅓㅇㅅㅣㄴ -1977
▁ㅈㅗㅇㅑㄱ -1978
▁ㄷㅏㄴㄱㅖ -1979
▁ㅅㅗㄱㄷㅗ -1980
ㅔㅅㅡㅌㅡ -1981
ㅓㅆ -1982
ㄱㅣㄴ -1983
▁ㅎㅓㄴㅂㅓㅂ -1984
▁ㅇㅟㅎㅐㅅㅓ -1985
▁ㅊㅚㅈㅗㅇ -1986
▁ㅁㅕㅇㄹㅕㅇ -1987
ㄹㅜ -1988
ion -1989
▁ㅂㅜㄱㅂㅜ -1990
ㅈㅘ -1991
▁ㅈㅟ -1992
▁ㄱㅣㅇㅝㄴㅈㅓㄴ -1993
▁ㅇㅣㅅㅏ -1994
▁ㅅㅓㄴㅊㅜㄹ -1995
▁ㅂㅜㄴㅅㅓㄱ -1996
▁ㅂㅏㄺㅎㅕㅆ -1997
▁ㅇㅕㅇㅇㅓ -1998
▁ㄷㅔㄹ -1999
▁ㅈㅣㄴㅐㅆ -2000
▁ㄹㅗㅇ -2001
▁ㅈㅣㅁㅕㅇ -2002
▁ㅇㅕㄴㅈㅜ -2003
▁ㅇㅖㅅ -2004
▁ㅎㅡㄹ -2005
▁ㅋㅡㄹㅣㅅㅡ -2006
▁ㅅㅓㄹㄱㅖ -2007
▁ㅇㅣㄴㅌㅓㄴ -2008
ㅌㅡㄴㅏㅁ -2009
▁ㅍㅓ -2010
▁ㅁㅜㄹㅈㅣㄹ -2011
▁ㄴㅡㄴㅈㅣ -2012
▁ㅇㅣㄴㅈㅣ -2013
▁ㅊㅣㄹㅛ -2014
▁ㅇㅣㄴㅊㅓㄴ -2015
▁ㅊㅜㄹㅍㅏㄴ -2016
ㄱㅡㄹㄹㅐㄴㄷㅡ -2017
▁ㅇㅣㅂㄷㅏㄴ -2018
▁ㄴㅡㄲ -2019
▁ㅊㅚㄱㅡㄴ -2020
▁ㅊㅣㄴㄱㅜ -2021
ㅓㅇㅜㄴ -2022
▁ㄱㅓㄹㅊㅕ -2023
ㅡㄹㄹㅣㄴ -2024
▁ㅊㅔㄱㅖ -2025
ㅅㅏㅁ -2026
ing -2027
▁ㅈㅐㅇ -2028
ㅊㅐ -2029
▁ㅊㅓㄱ -2030
ㅈㅏㄴ -2031
▁ㅇㅏㄹㅡ -2032
▁ㄴㅗㄴㄹㅏㄴ -2033
▁ㅂㅏㅁ -2034
▁ㄱㅘㄴㅎㅏㄹ -2035
▁ㄷㅏㄹㄹㅓ -2036
ㅅㅜㅇ -2037
▁ㅇㅢㅅㅏ -2038
▁ㅇㅏㅅㅣㅇㅏ -2039
▁ㅂㅣㅎㅐㅇ -2040
▁ㄷㅓㅇㅜㄱ -2041
▁ㅇㅣㄹㅇㅓㄴㅏ -2042
▁ㅍㅕㅇㄱㅠㄴ -2043
▁ㄱㅏㅇㅎㅘ -2044
▁ㅈㅣㅂㄷㅏㄴ -2045
▁ㄷㅐㅈㅜㅇ -2046
ol -2047
▁1999 -2048
▁ㅂㅜㄱㅎㅏㄴ -2049
ㅏㅇㅜㄴㄷㅡ -2050
▁ㅂㅣㅁ -2051
▁ㅍㅛㅈㅜㄴ -2052
▁ㄱㅏㅆ -2053
ㅎㅐㄱ -2054
▁ㅎㅜㅂㅏㄴ -2055
▁ㅍㅜ -2056
ㅊㅓㄱ -2057
▁ㅎㅜㅇ -2058
21 -2059
▁ㅊㅐㅁㅍ -2060
ㅍㅖ -2061
ㅣㅁㅏ -2062
ㅊㅣㄹ -2063
▁ㅈㅔㅍㅜㅁ -2064
▁ㅂㅜㅁㅜㄴ -2065
▁ㅇㅓㄴㄱㅡㅂ -2066
▁ㅂㅓㅂㅇㅝㄴ -2067
▁ㅂㅐㅊㅣ -2068
▁ㅂㅣㅊ -2069
▁ㄱㅘㄴㅅㅣㅁ -2070
▁ㅎㅕㄴㅅㅏㅇ -2071
ㅗㄹㄹㅏ -2072
▁1998 -2073
▁Y -2074
ㅂㅏㄷ -2075
ㅔㅇㅣㄹㄹ -2076
▁ㅅㅣㄹㅎㅓㅁ -2077
ㅔㄹㅣㅋㅏ -2078
▁ㅊㅐㅁㅍㅣㅇㅓㄴ -2079
▁ㄱㅏㅊㅣ -2080
▁ㅅㅡㅍㅗㅊㅡ -2081
▁ㅈㅗㅈㅓㅇ -2082
▁o -2083
▁ㅎㅏㅁㅅㅜ -2084
▁ㅇㅖㅅㅓㄴ -2085
▁ㅆㅣㄱ -2086
▁ㅎㅘㄱㅈㅏㅇ -2087
▁ㄱㅐㅇㅝㄹ -2088
▁ㄷㅗㅇㅜㅁ -2089
▁ㅇㅣㅇㄱㅡㄹㄹㅐㄴㄷㅡ -2090
▁ㅎㅚㄱㄷㅡㄱ -2091
▁ㄱㅗㅇㅇㅝㄴ -2092
▁1980 -2093
▁ㅂㅜㅅㅏㅇ -2094
▁ㅅㅓㄴㅂㅏㄹ -2095
▁ㅎㅔㄹ -2096
▁ㅅㅗㅇㅠ -2097
▁ㅇㅛㅅㅗ -2098
▁ㅊㅓㄹㅣ -2099
▁ㅂㅐㄱㅕㅇ -2100
ㅍㅣㄴ -2101
▁ㅈㅣㅅㅗㄱ -2102
ㅞㅇㅣ -2103
▁ㅁㅗㄱㅍㅛ -2104
▁cm -2105
▁ㅅㅡㄹㄹ -2106
ㅋㅡㅁ -2107
▁ㅈㅐㅍㅏㄴ -2108
▁ㅈㅜㄷㅗ -2109
▁ㅇㅠㅅㅏ -2110
▁60 -2111
▁ㅂㅜㄴㄹㅣ -2112
▁ㅎㅏㄱㅖ -2113
ㅅㅙ -2114
▁ㅁㅏㄹㅡ -2115
▁ㅌㅗㅇㅇㅣㄹ -2116
▁ㄷㅏㅇㅎㅏ -2117
▁ㅈㅏㄷㅗㅇㅊㅏ -2118
▁ㅅㅏㅁㅜ -2119
▁ㅇㅏㄹㄹㅔㄱ -2120
▁ㅈㅜㅁㅣㄴ -2121
ㅍㅔ -2122
▁ㅁㅐㅈ -2123
▁35 -2124
▁ㄱㅏㄹㅣㅋㅣㄴㄷㅏ -2125
▁ㅍㅕㄴㅅㅓㅇ -2126
▁ㅇㅠㄹㅐ -2127
ㅉㅐ -2128
▁ㅌㅔㄹ -2129
▁ㅇㅓㅇㅑ -2130
▁ㅈㅓㅇㄱㅠ -2131
▁ㅍㅡㄹㄹㅔㅇ -2132
ㅎㅣㄹ -2133
▁ㅅㅣㄷㅗ -2134
ㅔㅇㅣㅌㅡ -2135
▁ㅍㅏㄹㅣ -2136
▁ㄱㅜㄷㅏㄴ -2137
▁ㅂㅗㅇㅣㄴㄷㅏ -2138
ㅇㅔ -2139
▁ㅇㅚㄱㅜㄱ -2140
▁ㅉㅏ -2141
▁ㅈㅏㅇㄱㅜㄴ -2142
ㅎㅖ -2143
ㅂㅔ -2144
▁ㄲㅗㅊ -2145
ㅎㅗㅇ -2146
▁ㅎㅗㅅ -2147
ㅈㅔㄱ -2148
▁ㅈㅡ -2149
▁ㅎㅏㅇㅣ -2150
▁ㅈㅜㅇㅣㄴ -2151
▁ㄱㅗㅈㅏ -2152
▁ㄱㅓㅈㅜ -2153
▁ㅈㅓㅁㄹㅕㅇ -2154
ㅘㄹ -2155
▁ㅅㅣㅎㅓㅁ -2156
▁ㄱㅏㅁㅜㄴ -2157
ㄷㅡㄹㅣ -2158
▁ㅇㅕㄴㄷㅐ -2159
▁ㄱㅗㅇㄹㅣㅂ -2160
▁ㅊㅓㅂ -2161
ㅣㄹㄹㅐㄴㄷㅡ -2162
▁ㅎㅐㅇㅅㅏ -2163
ㅅㅓㅅ -2164
▁ㄷㅔㅇㅣㅌㅓ -2165
▁ㄹㅕㄱㅗ -2166
▁mm -2167
▁ㅌㅗㅇㅅㅣㄴ -2168
▁ㄹㅗㄹ -2169
▁ㄴㅔㄷㅓㄹ -2170
▁ㅇㅝㄴㅇㅣㄴ -2171
▁ㄷㅡㄹㅇㅓㄱㅏ -2172
▁ㅇㅓㄴㄹㅗㄴ -2173
ㅎㅡ -2174
▁ㅇㅏㄴㅈㅓㅇ -2175
▁ㅃㅏㄹ -2176
▁ㄱㅣㅍ -2177
▁ㄱㅕ -2178
ㅋㅗㄴ -2179
ㅋㅣㅇ -2180
▁ㅊㅐㄱㅇㅣㅁ -2181
▁ㄷㅏㅁㅕㄴ -2182
▁ㅇㅣㅀ -2183
▁ㄱㅕㄹㅎㅏㅂ -2184
▁ㄷㅗㅇㅁㅐㅇ -2185
ㅔㄹㄹㅏ -2186
▁n -2187
▁ㅇㅞㅂ -2188
▁ㄱㅣㅅㅏ -2189
▁ㄱㅗㅅㅗㄱ -2190
▁ㅅㅏㄹㅕㅇ -2191
▁ㅂㅗㄴㅅㅓㄴ -2192
ㅏㅌ -2193
▁ㅇㅣㄴㄷㅔ -2194
▁ㅂㅔㅌㅡㄴㅏㅁ -2195
▁ㅎㅕㄹ -2196
▁ㄱㅐㅂㅗㅇ -2197
▁ㅅㅜㅈㅜㄴ -2198
▁ㅇㅣㄹㅈㅗㅇ -2199
▁ㅎㅏㄱㅈㅏ -2200
▁ㅈㅏㅇㅊㅣ -2201
▁ㅂㅜㄹㄱㅛ -2202
ㅏㅇㅣㄹ -2203
ㅇㅏㄷㅡㄹ -2204
▁ㅈㅔㅎㅏㄴ -2205
ㅍㅗㄱ -2206
▁ㅇㅛㅇㅇㅓ -2207
▁ㄹㅐ -2208
om -2209
ㅈㅔㄱㅌㅡ -2210
▁ㄷㅡㅅ -2211
▁ㅇㅡㄴㅌㅚ -2212
ㅔㅇㅗ -2213
▁ㅈㅜㄴㅂㅣ -2214
▁ㅂㅜㄹㄱㅜ -2215
ㅍㅡㄹㄹ -2216
▁ㅅㅓㅇㅈㅓㄱ -2217
▁1997 -2218
▁ㄱㅜㅂㅜㄴ -2219
ㅍㅗㄹ -2220
ㅂㅓㅅㅡ -2221
▁ㅂㅣㄷㅣㅇㅗ -2222
▁ㅇㅣㅎㅐ -2223
▁ㄱㅣㄹㅇㅣ -2224
ㄱㅏㅈㅣ -2225
▁ㄴㅏㅌㅏㄴㅏ -2226
▁ㄷㅐㄱㅜ -2227
▁ㅁㅜㄴㅅㅓ -2228
▁ㅌㅗㅇㅊㅣ -2229
▁ㅌㅜㅇ -2230
▁ㅂㅏㅇㅁㅜㄴ -2231
▁ㅅㅏㅈㅣㄴ -2232
▁ㅇㅠㅈㅓㄴ -2233
▁ㅈㅓㅇㄱㅝㄴ -2234
ㄴㅡㅇ -2235
▁ㅌㅜㅍㅛ -2236
▁ㅅㅖ -2237
▁ㄱㅡㄹㅣㅁ -2238
▁ㄱㅏㅈㅓㅇ -2239
▁ㅅㅣㄴㅁㅜㄴ -2240
▁ㅁㅜㄴㅈㅏ -2241
▁ㅁㅏㄴㄴㅏ -2242
▁ㅍㅗㄴ -2243
▁ㅇㅏㅍㅡㄹㅣㅋㅏ -2244
▁ㄴㅏㅁㅜ -2245
st -2246
▁ㅅㅜㅇㅛㅇ -2247
▁ㄷㅐㄹㅗ -2248
▁ㅂㅣㅎㅐ -2249
▁ㄸㅏ -2250
▁ㅎㅐㅅㅓㄱ -2251
ㅅㅡㅌㅓㄴ -2252
▁ㄱㅕㅇㅎㅓㅁ -2253
ㅔㅇㅣㅈㅣ -2254
▁ㅈㅓㅇㄹㅣ -2255
▁ㅌㅗㅇㄱㅘ -2256
▁amp -2257
▁ㅈㅓㅇㅎㅘㄱ -2258
▁The -2259
▁ㅇㅣㄹㅈㅔ -2260
▁1996 -2261
▁ㄷㅓㄹ -2262
▁ㅇㅘㅇㅈㅗ -2263
▁ㅍㅕㅇㅎㅘ -2264
ㅇㅓㅆ -2265
▁ㅇㅗㄴㅡㄹㄴㅏㄹ -2266
▁ㅁㅣㅇ -2267
▁1995 -2268
▁32 -2269
ㅁㅔㄷㅏㄹ -2270
▁ㅂㅜㄴㅍㅗ -2271
▁ㅊㅜㅈㅣㄴ -2272
▁ㅁㅕㄴㅈㅓㄱ -2273
▁ㅇㅗㄹㄹㅏㅆ -2274
▁ㅍㅡㄹㅗㅈㅔㄱㅌㅡ -2275
▁ㄷㅡㄴ -2276
▁ㅇㅣㅂㅈㅏㅇ -2277
▁ㄱㅡㄹㅓㄴ -2278
ㄷㅚ -2279
▁ㄱㅕㅇㅇㅕㅇ -2280
▁ㅂㅜㅇㅣㄴ -2281
▁ㅂㅏㄷㅏ -2282
▁ㅅㅓㅅㅣㄱ -2283
▁ㄹㅓㄴㄷㅓㄴ -2284
▁ㅇㅛㄹㅣ -2285
▁ㄹㅕㄴㅡㄴ -2286
▁ㅈㅗㅇㅎㅏㅂ -2287
▁ㅇㅏㄹㄹㅕㅈㅣㄴ -2288
▁ㅁㅕㄹ -2289
▁ㅋㅔㄴ -2290
▁70 -2291
▁ㄱㅏㅄ -2292
▁ㅇㅏㅈㅣㄱ -2293
▁ㄱㅕㅇㅈㅐㅇ -2294
▁ㅇㅏㅅ -2295
▁ㅁㅏㄴㅎㅘ -2296
▁ㄱㅓㄷㅜ -2297
▁ㅅㅟㅂ -2298
▁ㅇㅓㄸㅓ -2299
▁ㄱㅏㅇㅣ -2300
▁ㅇㅣㄴㅌㅓㄴㅔㅅ -2301
▁ㅂㅕㅇㅇㅝㄴ -2302
▁ㅂㅏㄹㄷㅏㄹ -2303
▁ㄱㅕㅇㄱㅣㅈㅏㅇ -2304
ㅇㅗㄱ -2305
▁ㅇㅕㅇㅇㅕㄱ -2306
▁ㅈㅜㅈㅔ -2307
▁ㄴㅔㄷㅓㄹㄹㅏㄴㄷㅡ -2308
ㅌㅡㄱㅂㅕㄹ -2309
ㅏㅁㅣ -2310
▁ㅇㅣㄱㅗㅅ -2311
▁ㅅㅡㅇㅟ -2312
ㅗㄴㅏ -2313
▁ㄴㅗㄹㅕㄱ -2314
▁ㅎㅓ -2315
▁ㅎㅜㄴㄹㅕㄴ -2316
ㅇㅐㄱ -2317
ㄷㅣㄴ -2318
ㅏㅇㅜ -2319
▁ㄱㅡㄹㅣ -2320
▁ㅂㅜㅈㅓㅇ -2321
▁500 -2322
▁ㅁㅣㄴㅈㅜㄷㅏㅇ -2323
▁ㅍㅏㅂ -2324
▁ㅁㅔㄹ -2325
▁ㅅㅓㅂㅜ -2326
▁ㅍㅖㅈㅣ -2327
▁ㄴㅓㄹㄹㅣ -2328
▁ㅍㅏㄱㅚ -2329
▁ㅇㅣㄷㅡㅁ -2330
ㅈㅔㄹ -2331
▁ㅅㅐㅇㅁㅜㄹ -2332
ㅅㅡㄹㅗ -2333
▁ㅇㅓㄹㅕㅇ -2334
am -2335
▁ㄷㅐㅅㅏ -2336
▁ㅁㅣㅅㅜㄹ -2337
▁ㅈㅔㅇㅏㄴ -2338
▁ㄱㅏㅅㅡ -2339
ㅂㅓㄴ -2340
▁ㅊㅗㅇㄹㅣ -2341
▁ㅅㅣㄴㄹㅏ -2342
▁ㅋㅣㄹ -2343
▁ㄷㅗㅅㅓ -2344
▁ㅁㅓㅁ -2345
▁ㅈㅓㅇㅅㅏㅇ -2346
ㅂㅣㅇㅏ -2347
▁ㄱㅜㄱㅎㅚㅇㅢㅇㅝㄴ -2348
▁80 -2349
▁the -2350
▁ㅁㅔㄱ -2351
▁ㅂㅗㄱㄱㅟ -2352
▁ㄱㅞ -2353
▁ㅅㅣㄱㅁㅣㄴ -2354
ㅇㅗ -2355
▁ㅊㅓㄹㅎㅏㄱ -2356
▁ㅎㅚㅈㅏㅇ -2357
▁ㄴㅏㅁㅅㅓㅇ -2358
▁ㅈㅔㅈㅜ -2359
▁ㅂㅓㄴㅎㅗ -2360
ㅜㄹㅡㅋㅡ -2361
▁ㅇㅏㄹㅡㅁ -2362
▁ㅂㅓㅂㄹㅠㄹ -2363
ㅎㅔㄴ -2364
▁ㅂㅗㄷㅗ -2365
ㅇㅏㄱㅏ -2366
▁ㅇㅘㄴㅈㅓㄴㅎㅣ -2367
▁ㅅㅏㅁㅅㅓㅇ -2368
▁ㅃㅏ -2369
▁ㅅㅔㅇㅝ -2370
▁ㄱㅣㅇㅕ -2371
▁188 -2372
▁ㅇㅚㄱㅛ -2373
▁ㅈㅜㅇㅕㄴ -2374
▁ㅇㅛㅊㅓㅇ -2375
▁ㅎㅐㅇㅅㅓㅇ -2376
▁ㅁㅜㄷ -2377
▁ㅍㅗㄹㄹㅏㄴㄷㅡ -2378
▁ㅈㅏㅈㅜ -2379
▁ㄴㅏㅇㅗㄴ -2380
ㅗㄹㄹㅣㄱ -2381
▁ㄱㅕㅇㄱㅖ -2382
▁ㅅㅔㄷㅐ -2383
▁UE -2384
▁ㅇㅣㄷㅡㅁㅎㅐ -2385
▁1970 -2386
▁ㅅㅗㅈㅐ -2387
ㅝㄷㅡ -2388
▁ㅇㅕㄴㅁㅐㅇ -2389
▁ㄹㅏㄷㅣㅇㅗ -2390
▁ㅇㅣㄴㅅㅣㄱ -2391
il -2392
▁+ -2393
▁ㄹㅏㅇㅣㄴ -2394
▁ㅈㅗㅈㅣ -2395
▁ㅌㅜㅅㅜ -2396
▁ㄷㅜㄴ -2397
ㅜㄹㅕ -2398
▁ㅇㅏㅅㅓ -2399
▁ㄷㅡㅇㄹㅗㄱ -2400
▁1994 -2401
▁ㅁㅜㄷㅐ -2402
▁ㅇㅜㅁㅈㅣㄱ -2403
▁ㅇㅗㄹㅡㄴ -2404
▁UEFA -2405
▁ㅇㅕㄱㅕ -2406
▁ㅈㅏㅊㅣ -2407
ㅣㅅ -2408
▁ㅈㅣㅈㅣㄴ -2409
▁ㅍㅕㄹ -2410
▁ㅍㅛㄱㅣ -2411
ㅏㅎ -2412
ㅣㅇㅗㄴ -2413
▁ㄷㅗㅇㅂㅜ -2414
▁ㅇㅓㅂㅁㅜ -2415
ac -2416
ㅌㅏㅂ -2417
▁ㅈㅓㅂㄱㅡㄴ -2418
▁ㅈㅔㅈㅗ -2419
ㄴㅕ -2420
▁ㄷㅓㅂㅜㄹ -2421
▁ㅇㅕㄴㄱㅜㅅㅗ -2422
▁ㄹㅑㅇ -2423
▁ㅂㅏㅌㅏㅇ -2424
▁ㄴㅚ -2425
▁ㅇㅕㅇㅌㅗ -2426
▁ㅂㅕㄱ -2427
▁ㅂㅏㄱㅁㅜㄹ -2428
▁ㄱㅏㄹㅡ -2429
▁ㅈㅣㄷㅗㅈㅏ -2430
ㄹㅛㅇ -2431
▁ㄱㅕㄹㅅㅓㅇ -2432
▁ㄷㅡㄹㅇㅓㄱ -2433
▁ㅂㅏㄲㅟ -2434
▁ㅅㅓㅇㄱㅕㄱ -2435
▁ㄷㅡㄱㅈㅓㅁ -2436
▁ㄷㅐㅊㅔ -2437
ㅅㅡㅋ -2438
ㄷㅜㄴ -2439
▁ㄴㅏㅁㅓㅈㅣ -2440
▁ㅅㅡㅅㅡㄹㅗ -2441
▁KBS -2442
▁ㅈㅗㄱㅏㄱ -2443
▁ㄱㅓㅂㅜ -2444
▁ㅅㅗㅍㅡ -2445
▁ㅂㅏㄴㅁㅕㄴ -2446
▁ㅈㅓㄴㅎㅐ -2447
▁ㅅㅜㅎㅏㄱ -2448
▁ㅊㅔㅇ -2449
▁ㅂㅏㄷㅇㅏㄷㅡㄹ -2450
▁ㄱㅏㅇㅇㅝㄴ -2451
▁ㅈㅓㅇㅅㅣㄱ -2452
▁ㅆㅡㄹ -2453
▁ㅇㅔㅇㅣ -2454
▁ㅇㅢㅅㅣㄱ -2455
▁ㅌㅔㄴ -2456
ㅈㅔㄴ -2457
ㅎㅓ -2458
▁ㅇㅡㄴㅎㅐㅇ -2459
▁ㄱㅡㄹㅣㄴ -2460
▁ㄱㅣㅊㅗ -2461
▁ㅈㅜㅇㅢ -2462
ㅝㅋㅡ -2463
▁ㅁㅏㅊㅏㄴ -2464
▁ㅁㅏㅊㅏㄴㄱㅏㅈㅣ -2465
ㅑㅁㅏ -2466
▁ㅂㅗㅅㅜ -2467
▁ㄱㅗㅇㅈㅏㄱ -2468
▁ㅈㅣㄴㅏㄴ -2469
ro -2470
▁ㅅㅏㅇㅎㅗ -2471
▁ㅍㅣㄹㄹㅣ -2472
▁ㅋㅐㄹㅣㄱ -2473
▁ㄷㅏㅇㅎㅐㅆ -2474
▁1992 -2475
▁ㄱㅏㅌㅗㄹㄹㅣㄱ -2476
▁ㄴㅠㅅㅡ -2477
ㅅㅣㅋㅗ -2478
▁ㄱㅡㅁㅈㅣ -2479
▁ㅇㅣㅁㅅㅣ -2480
▁45 -2481
▁ㅉㅏㄼ -2482
▁ㅎㅘㅎㅏㄱ -2483
▁ㄷㅡㄹㅇㅓㅇ -2484
▁ㅋㅔㅇㅣ -2485
▁ㅈㅣㄹㅣ -2486
▁ㅍㅐㅂㅐ -2487
▁ㅁㅜㄱㅣ -2488
▁ㅈㅣㄷㅐ -2489
▁ㅅㅡㅇㅞ -2490
▁ㅎㅐㄱㅕㄹ -2491
▁ㅈㅜㄱㅇㅡㅁ -2492
▁ㅅㅣㄹㅈ -2493
▁ㅊㅏㅌㅡ -2494
ed -2495
▁36 -2496
ㅋㅡㄹㄹ -2497
▁ㅂㅡㄹㅏㅈㅣㄹ -2498
▁ㅅㅗㄹㅣ -2499
▁ㅊㅏㅇㅝㄴ -2500
▁ㅂㅏㄱㅅㅏ -2501
▁ㅈㅏㅇㅅㅗ -2502
▁ㄹㅗㅆㅓ -2503
▁of -2504
▁ㄷㅣㅅㅡ -2505
▁ㅂㅏㄹㅅㅏ -2506
▁ㄱㅡㄷㅐㄹㅗ -2507
▁ㅂㅏㄱㅁㅜㄹㄱㅘㄴ -2508
▁ㄷㅏㅅㅜ -2509
▁ㅊㅗㄷㅐ -2510
ㄷㅔㄹ -2511
▁ㅎㅘㄹㅇㅛㅇ -2512
▁ㅅㅣㄹㅈㅔㄹㅗ -2513
▁ㅊㅗㅇㅅㅓㄴ -2514
▁ㅇㅠㄹㅗ -2515
ㅣㅂㅡ -2516
▁ㅋㅐㄹㅣㄱㅌㅓ -2517
▁ㄱㅘㄴㅊㅡㄱ -2518
▁ㅊㅗㄴ -2519
▁ㄱㅣㄱㅜ -2520
ㅣㄹㄹㅏ -2521
▁ㄱㅖㅇㅕㄹ -2522
▁ㅇㅕㅎㅐㅇ -2523
▁ㅅㅜㄴㅇㅟ -2524
▁ㅅㅜㅁㅏ -2525
▁ㅅㅣㄱㅁㅜㄹ -2526
ㅌㅓㅂ -2527
▁ㅇㅏㄴㅈㅓㄴ -2528
ㅅㅡㅌㅏ -2529
▁ㅅㅜㅁ -2530
▁ㅁㅛㅅㅏ -2531
▁ㅅㅡㅂㄴㅣㄷㅏ -2532
▁ㄲㅡ -2533
▁ㄱㅏㅇㄹㅕㄱ -2534
▁ㅋㅗㅁ -2535
▁ㅈㅣㅂㅎㅏㅂ -2536
ㅌㅡㅇㅞㅇㅓ -2537
ㅇㅠㅇ -2538
▁1960 -2539
▁ㄷㅏㄴㅅㅜㄴ -2540
▁ㅅㅗㅍㅡㅌㅡㅇㅞㅇㅓ -2541
▁ㅈㅔㅅㅣ -2542
ig -2543
▁ㅇㅣㄹㅈㅓㅇ -2544
▁ㅁㅜㅇㅕㄱ -2545
▁ㄱㅓㅁㅅㅏ -2546
▁ㅇㅣㅇㅚ -2547
▁ㅁㅏㅅ -2548
▁ㄱㅝㄴㄹㅕㄱ -2549
ㅅㅣㅂ -2550
▁ㅇㅕㄹㅡㅁ -2551
ㅈㅜㅅㅣ -2552
▁ㅁㅏㄹㅣ -2553
▁ㅇㅕㄴㄱㅡㄱ -2554
ㄷㅏㅁㅕㄴ -2555
▁ㅅㅠㅍㅓ -2556
▁ㅅㅡㅇㅞㄷㅔㄴ -2557
▁ㅈㅔㄴ -2558
▁ㅎㅚㅇㅝㄴ -2559
▁1991 -2560
▁ㄱㅣㄱㅖ -2561
▁ㅈㅣㅈㅓㄱ -2562
▁ㅂㅔㄹㅡ -2563
▁ㅋㅏㄷㅡ -2564
ㄹㅏㅇ -2565
▁ㅈㅏㅇㅇㅐ -2566
▁ㅆㅡㅇㅣ -2567
▁ㅇㅣㄹㅇㅡㅋ -2568
▁ㅇㅏㅇㅣㄹㄹㅐㄴㄷㅡ -2569
▁ㅂㅏㄹㅎㅐㅇ -2570
▁ㅇㅟㅎㅓㅁ -2571
ㅠㄴ -2572
▁ㅅㅏㄻ -2573
▁ㅂㅏㄴㄹㅏㄴ -2574
ㄹㅣㄴㄷㅏ -2575
▁ㅁㅓㄴㅈㅓ -2576
ㅔㅇㅣㄹㄹㅣㅇㅏ -2577
▁ㄲㅡㄹ -2578
▁ㅈㅗㅅㅓㅇ -2579
▁ㄱㅓㄴㄴ -2580
▁1993 -2581
ㅈㅏㄹ -2582
▁33 -2583
▁ㅇㅏㅁㅏ -2584
▁ㅁㅣㄹㄹ -2585
▁ㄱㅐㄱㅜㄱ -2586
▁ㅈㅜㅇㄱㅏㄴ -2587
▁ㅎㅕㅇㅈㅔ -2588
▁ㅂㅏㅇㅣㄹ -2589
▁ㄱㅘㄴㄱㅘㅇ -2590
▁ㅍㅛㅅㅣ -2591
▁ㅇㅗㅅㅡㅌㅡㄹㅣㅇㅏ -2592
▁ㅎㅡㅂ -2593
▁ㄱㅣㅈㅏ -2594
▁ㅊㅔㄱ -2595
▁ㄱㅡㄴㅊㅓ -2596
ㅋㅏㅇ -2597
ㄱㅚ -2598
ㅅㅓㅂ -2599
▁ㅈㅜㅇㄷㅏㄴ -2600
▁ㅈㅣㄹㄹ -2601
▁ㅊㅐㄴ -2602
▁ㅁㅏㄴㅋㅡㅁ -2603
▁ㅎㅕㅂㄹㅕㄱ -2604
▁ㄱㅣㅎㅚㄱ -2605
▁ㅁㅠㅈㅣㄱ -2606
▁ㅅㅣㅎㅐㅇ -2607
ㅓㄴㅏㄴ -2608
▁ㅇㅕㄱㅐㄱ -2609
ㄹㅡㅇ -2610
▁ㅊㅡ -2611
▁ㅈㅣㅎㅏㅊㅓㄹ -2612
ㅅㅗㄴㅕㄴ -2613
▁ㄷㅗㅊㅏㄱ -2614
▁ㄷㅏㅁㅏㄴ -2615
▁ㅋㅓㄹ -2616
▁ㅇㅚㅂㅜ -2617
▁ㅇㅟㄹㄹㅣㅇ -2618
▁ㅅㅡㅌㅠ -2619
▁ㅅㅏㅇㅣㅌㅡ -2620
ㅔㅇㅓ -2621
▁ㅆㅡㄴ -2622
▁ㄴㅏㅌㅏㄴㅐ -2623
od -2624
▁ㅅㅓㄴㄱ -2625
ㅇㅜㅇ -2626
▁ㄴㅣㅁ -2627
▁ㅅㅗㄱㅐ -2628
ㅂㅐㅇㅜ -2629
▁ㅈㅚ -2630
▁ㄷㅏㄹㅣ -2631
▁ㅇㅗㄹㅡ -2632
▁ㅂㅓㄴㅇㅕㄱ -2633
▁ㅍㅏㅇㅣㄹ -2634
▁ㄷㅏㄴㅇㅓ -2635
▁ㄲㅜㅁ -2636
▁ㅌㅓㄴ -2637
▁ㅂㅏㅇㅇㅓ -2638
▁", -2639
▁ㄲㅐ -2640
▁ㅇㅕㄴㅈㅏㅇ -2641
▁ㅅㅣㄹㅈㅔ -2642
▁ㅇㅠㅎㅕㅇ -2643
▁186 -2644
▁ㅁㅣㅅㅏㅇ -2645
ㅔㄴㅌㅡ -2646
▁ㅌㅐㅍㅕㅇ -2647
ve -2648
▁ㅎㅐㅇㅏㄴ -2649
ㅌㅡㄱㅂㅕㄹㅅㅣ -2650
ㅈㅡㄴ -2651
▁ㅎㅖ -2652
▁ㅎㅜㄱㅣ -2653
▁ㄷㅣㅈㅣ -2654
▁ㅅㅓㅇㄹㅣㅂ -2655
as -2656
▁ㄱㅡㄴㄱㅓ -2657
ㅅㅏㅋㅏ -2658
▁ㅅㅓㅇㅜㄹㅌㅡㄱㅂㅕㄹㅅㅣ -2659
ㄱㅘㅇㅇㅕㄱㅅㅣ -2660
▁ㅅㅔㅅㅏㅇ -2661
▁ㅇㅗㅂㅡ -2662
▁ㅅㅏㅇㅈㅣㅇ -2663
ㅁㅕ -2664
ㅁㅕㄹ -2665
▁ㅌㅗㅇㅎㅏ -2666
▁ㅍㅣㄱ -2667
▁ㅎㅘㄱㄷㅐ -2668
▁ㄱㅗㅇㅈㅏㅇ -2669
▁ㅇㅗㅅㅡㅌㅡㄹㅔㅇㅣㄹㄹㅣㅇㅏ -2670
▁ㄴㅐㄱㅏㄱ -2671
▁ㅎㅕㅁ -2672
▁ㅍㅏㄱㅕㄴ -2673
▁ㅊㅜㄴ -2674
▁ㅌㅜㅈㅏ -2675
ㅜㄱㅜ -2676
▁ㅅㅜㅁㅏㄶ -2677
▁ㄱㅣㅎㅜ -2678
ㅁㅜㅇㅝㄴ -2679
▁ㅈㅔㄱㅣ -2680
▁ㄱㅕㄲ -2681
▁ㅅㅐㅇㅅㅓㅇ -2682
▁ㄹㅣㅁ -2683
ㅇㅣㄱ -2684
▁ㅈㅣㅅㅣㄱ -2685
ㅈㅣㅅㅕㄴ -2686
▁ㅍㅡㄹㄹㅐ -2687
ㅂㅗㄹ -2688
▁ㅇㅑㅇㅅㅣㄱ -2689
▁ㄴㅏㅂ -2690
▁ㅂㅗㄴㅂㅜ -2691
ㅇㅚ -2692
▁ㅂㅏㅇㅣ -2693
ㄷㅐㅇ -2694
▁ㄱㅡㄱㅈㅏㅇ -2695
ㅔㅇㅣㄷㅡ -2696
▁ㅂㅗㅈㅗㄴ -2697
▁ㄱㅘㅇㅈㅜ -2698
▁ㅂㅗㅇㅠ -2699
▁ㅈㅣㅅㅏㅇ -2700
▁ㄱㅠㄴ -2701
▁? -2702
▁ㅈㅓㄴㄹㅑㄱ -2703
ㅎㅣㄴ -2704
▁ㅇㅣㄴㅅㅏ -2705
▁ㅂㅓㄹㅇㅓ -2706
▁ㄱㅏㅁㅅㅗ -2707
ㅡㄹㅣ -2708
▁ㄱㅟㅈㅗㄱ -2709
ㅗㅅㅔ -2710
▁ㅊㅘㄹ -2711
▁ㅇㅟㄹㄹㅣㅇㅓㅁ -2712
▁ㄱㅕㅇㅅㅏㅇㄴㅏㅁㄷㅗ -2713
▁ㅅㅏㅇㅇㅓㅂ -2714
▁ㅋㅗㄷㅡ -2715
▁ㄸㅏㄹㅡㄴ -2716
▁ㄷㅏㄹㅅㅓㅇ -2717
▁ㅍㅡㄹㄹㅔㅇㅣ -2718
ㅅㅣㅅㅡ -2719
▁ㅌㅡㄱㅅㅓㅇ -2720
▁ㄱㅕㅇㅅㅏㅇㅂㅜㄱㄷㅗ -2721
▁ㄷㅡㄷ -2722
▁h -2723
▁ㄷㅐㅇㅡㅇ -2724
▁1988 -2725
▁ㅂㅏㄲㅜ -2726
▁ㄸㅓㄴㅏ -2727
▁ㅇㅏㅋㅏ -2728
▁ㅊㅐㅇ -2729
▁ㅊㅜㄹㅅㅐㅇ -2730
▁ㅇㅘㄴㅅㅓㅇ -2731
▁187 -2732
▁ㅇㅔㅅㅡ -2733
▁ㅁㅗㅅㅎㅏㄴ -2734
▁ㅇㅝㄴㅅㅗ -2735
▁ㅇㅕㅇㅅㅏㅇ -2736
▁ㄷㅗㅇㅅㅐㅇ -2737
▁ㅍㅗㄹㅡㅌ -2738
▁ㅂㅜㅇㅕ -2739
▁ㄷㅣㅈㅣㅌㅓㄹ -2740
▁ㄷㅏㄴㅇㅟ -2741
▁ㅅㅔㅇㅝㅆ -2742
ㅋㅏㄹ -2743
▁ㅁㅔㄱㅅㅣㅋㅗ -2744
▁ㅌㅡㄱㅅㅜ -2745
▁ㅊㅘㄹㅇㅕㅇ -2746
▁ㄷㅏㅇㅅㅓㄴ -2747
ㄹㄹ -2748
▁ㅂㅓㅅ -2749
▁ㅇㅟㄱㅣ -2750
▁ㅇㅣㄹㅓㅎㄱㅔ -2751
▁ㅎㅔㄴ -2752
▁ㅂㅡ -2753
▁ㄴㅏㅎ -2754
ㅂㅔㄹㅡ -2755
▁ㅂㅗㅇㅕㅆ -2756
ㅗㄹㄹㅣㄴ -2757
▁ㄱㅖㅅㅡㅇ -2758
▁ㅎㅏㄱㅇㅟ -2759
▁ㄹㅠㄹ -2760
▁ㅅㅣㅍ -2761
▁34 -2762
▁ㅇㅣㄹㅏㄴ -2763
▁ㅅㅣㄱㅁㅣㄴㅈㅣ -2764
▁ㅂㅏㄺㅎㅕ -2765
ㅍㅜㄹ -2766
▁ㅌㅏㅇㅣㅌㅡㄹ -2767
▁ㅁㅣㄹㅐ -2768
▁ㅎㅜㄱ -2769
▁ㅅㅣㅌㅣ -2770
▁ㅈㅓㄻ -2771
▁ㅈㅗㅇㅁㅗㄱ -2772
▁ㅈㅔㅇㅣㅁ -2773
▁ㄱㅡㄴㅁㅜ -2774
▁ㅇㅔㄱ -2775
ㅎㅚㅅㅏ -2776
▁ㄱㅡㄹㅓㅎ -2777
▁ㅈㅓㄴㄷㅏㄹ -2778
▁ㅈㅏㅂㅗㄴ -2779
▁ㅎㅏㄹㅜ -2780
ㅊㅣㅇㅣㄴ -2781
▁ㅅㅐㅇㅁㅕㅇ -2782
▁38 -2783
▁ㅇㅣㅈㅣㅂ -2784
ㄹㅏㅁ -2785
id -2786
ㅇㅓㄴㅏ -2787
▁ㅅㅜㅅㅏ -2788
▁ㅂㅗㅅ -2789
▁ㅇㅕㅍ -2790
▁ㅊㅔㄱㅕㄹ -2791
▁ㄴㅏㅈㅜㅇ -2792
▁ㅅㅣㅊㅓㅇ -2793
▁ㅊㅡㄱㅈㅓㅇ -2794
ㅊㅗㄱ -2795
▁ㅅㅓㄹㅈㅓㅇ -2796
▁ㅈㅣㄱㅎㅜ -2797
▁90 -2798
▁ㅁㅣㅌ -2799
▁ㅈㅜㅅㅣㄱ -2800
▁ㅅㅡㅇㄱㅕㄱ -2801
▁ㅍㅏㄴㄷㅏㄴ -2802
▁ㅈㅓㄴㄹㅏㄴ -2803
▁ㄱㅝㄴㄹㅣ -2804
ㅁㅕㅊ -2805
▁ㅁㅕㅊㅁㅕㅊ -2806
ㅎㅕㄹ -2807
▁ㅈㅓㅇㅊㅣㅇㅣㄴ -2808
▁2021 -2809
▁ㅊㅔㅍㅗ -2810
▁ㅅㅣㅋㅣㄴ -2811
▁ㅇㅣㄹㅏㄱㅗ -2812
▁ㅋㅗㅊㅣ -2813
▁ㅁㅜㄴㅎㅘㅈㅐ -2814
▁ㅇㅏㄹㄹㅔㄱㅅㅏㄴ -2815
▁ㄹㅏㄱ -2816
▁ㄷㅐㄹㅠㄱ -2817
▁48 -2818
ㅇㅡㅂ -2819
▁ㅌㅔㄱ -2820
ㅗㅁ -2821
▁ㅁㅓㄹ -2822
▁ㄱㅜㄱㅇㅘㅇ -2823
ㅣㄹㅏ -2824
▁ㅈㅓㄴㅎㅘㄴ -2825
▁1989 -2826
▁ㅊㅐㄴㅓㄹ -2827
▁ㅇㅡㅁㅡㄹㅗ -2828
▁ㅅㅗㅅㅜ -2829
▁1950 -2830
▁ㄱㅐㅈㅓㅇ -2831
▁ㅇㅏㄴㅐ -2832
▁ㄷㅗㅅㅓㄱㅘㄴ -2833
▁ㄱㅘㄴㅊㅏㄹ -2834
▁ㅌㅓㅁ -2835
▁ㅂㅏㄹㅁㅐㄷㅚ -2836
▁ㅇㅗㅅㅡ -2837
▁ㅁㅣㄱㅜㄴ -2838
NA -2839
▁ㅂㅗㄴㄱㅘㄴ -2840
ㅏㅅㅡ -2841
us -2842
ㅜㄴㄷㅏ -2843
ㅣㅌㅡ -2844
▁ㅅㅣㄴㅐ -2845
ec -2846
▁ㅅㅣㄴㄱㅕㅇ -2847
ㅂㅓㅌㅡ -2848
▁ㄱㅐㅌㅗㅇ -2849
▁ㅇㅢㄱㅕㄴ -2850
▁ㄷㅠ -2851
▁ㅁㅔㄴ -2852
▁ㅇㅠㄹㅣ -2853
▁ㄴㅗㄱㅇㅡㅁ -2854
▁ㅌㅗㅁ -2855
▁ㅊㅓㅇㄴㅕㄴ -2856
▁ㅈㅣㅇㅟ -2857
▁ㅅㅣㅇㅟ -2858
▁ㅎㅗㅇㅋㅗㅇ -2859
▁ㄱㅕㄹㅅㅡㅇㅈㅓㄴ -2860
ㅈㅜㄹ -2861
▁ㅈㅔㅈㅓㅇ -2862
▁ㅈㅓㄴㅅㅣ -2863
ㅁㅜㄱ -2864
ㅁㅗㅅ -2865
▁ㅎㅐㅇㅚ -2866
▁ㅁㅏㅇㅣㅋㅡ -2867
ㅣㅇㅓㄹ -2868
▁ㅅㅡㅋㅗ -2869
▁ㅈㅡㄹ -2870
▁', -2871
▁ㅈㅗㅇㄹㅛ -2872
and -2873
▁ㅊㅟㅇㅣㅁ -2874
▁ㄷㅗㅇㄱㅖ -2875
▁ㅁㅣㅅㅏㅇㅣㄹ -2876
▁ㅍㅗㅁ -2877
▁ㅈㅡㄱㅇㅟ -2878
▁ㅈㅜㅇㅣㄴㄱㅗㅇ -2879
▁ㄱㅖㅅㅏㄴ -2880
ㅅㅣㅁㅏ -2881
▁ㅂㅓㅁㅈㅚ -2882
▁ㄱㅛㅊㅔ -2883
▁ㅅㅏㅎㅚㅈㅜㅇㅢ -2884
▁ㅇㅡㅁㅅㅣㄱ -2885
▁ㅇㅏㄹㅏㅂ -2886
▁ㅅㅣㄴㅎㅏㄱ -2887
▁ㅂㅜㄹㅡㄴㄷㅏ -2888
▁ㅇㅣㅍ -2889
▁ㄷㅏㄹㅜ -2890
ㅣㅇㅔㄹ -2891
▁ㅇㅔㅁ -2892
▁ㅊㅜㅇㄷㅗㄹ -2893
▁300 -2894
ㅋㅗㄷㅡ -2895
▁ㅊㅓㄴㅎㅘㅇ -2896
▁ㅍㅏㅇㅣ -2897
▁ㄴㅏㅁㅂㅜㄱ -2898
ad -2899
▁ㄷㅜㅇ -2900
ㅣㄴㅗ -2901
▁e -2902
▁ㅇㅡㄴㅎㅏ -2903
▁ㅆㅏㅎ -2904
ㅇㅓㅄ -2905
▁ㅅㅜㅂㅣ -2906
▁ㅁㅏㄴㄷㅡ -2907
▁ㅈㅜㅁㅗㄱ -2908
▁ㄱㅐㅅㅓㄴ -2909
ㅍㅣㅇ -2910
▁ㅂㅣㅇㅛㅇ -2911
▁ㄷㅐㄴ -2912
▁ㄸㅓㄹㅇㅓㅈㅣㄴ -2913
▁MBC -2914
ㅏㅁㄷㅗ -2915
▁ㅅㅜㅈㅓㅇ -2916
▁ㅇㅣㅈㅣㅂㅌㅡ -2917
▁ㄱㅏㅇㅎㅏㄴ -2918
▁ㅈㅏㄱㅕㄱ -2919
▁ㅇㅝㄴㅈㅓㅇ -2920
▁ㄹㅜㅁ -2921
▁ㄴㅜ -2922
ㅌㅡㅇㅝㅋㅡ -2923
ㅖㄴ -2924
▁ㅅㅏㅎㅜ -2925
▁ㅋㅏㅇㅜㄴ -2926
▁ㅂㅏㅇㅣㄹㅓㅅㅡ -2927
▁ㄱㅓㄴㄱㅏㅇ -2928
▁ㄱㅗㅇㄱㅡㅂ -2929
▁| -2930
▁ㅅㅡㅋㅣ -2931
▁ㅈㅔㅇㅣㅁㅅㅡ -2932
▁ㄱㅖㄱㅣ -2933
▁ㅇㅣㅅㅡㄹㄹ -2934
▁ㅂㅗㄴㄹㅐ -2935
▁ㅇㅣㄹㅐ -2936
▁ㅅㅗㅈㅏㅇ -2937
▁1945 -2938
▁ㅍㅡ -2939
ent -2940
▁ㅈㅓㄴㅊㅏ -2941
ㅈㅓㄴㅎㅣ -2942
▁ㄱㅏㄱㅕㄱ -2943
▁ㄴㅔㅌㅡㅇㅝㅋㅡ -2944
ㄲㅣ -2945
ㅏㄴㅗ -2946
▁ㅌㅡㄹㅣ -2947
▁ㅈㅓㄴㄹㅏㄴㅏㅁㄷㅗ -2948
▁ㅁㅕㅇㄷㅏㄴ -2949
ㅅㅏㄱㅘㄴ -2950
▁ㄱㅗㅇㅂㅜ -2951
▁ㅇㅣㄹㅇㅓㄴㅏㄴ -2952
ㅅㅡㄹㄹ -2953
▁ㅂㅗㄴㅐㅆ -2954
ㅑㄴ -2955
▁ㅁㅜㄹㄹㅗㄴ -2956
▁ㅎㅏㅂㄹㅠ -2957
▁ㄹㅏㅇㅜㄴㄷㅡ -2958
ㅓㄱㅜ -2959
▁ㅅㅣㅁㄹㅣ -2960
▁ㅅㅚ -2961
▁ㅎㅗㅁㄹㅓㄴ -2962
▁ㄱㅞㄷㅗ -2963
▁ㅈㅔㄱㅓ -2964
▁ㄴㅗㅇㅇㅓㅂ -2965
▁ㅈㅏㅇㅝㄴ -2966
▁ㅇㅣㅅㅡㄹㄹㅏㅁ -2967
▁ㅁㅕㅇㅇㅖ -2968
▁ㅊㅔㅇㅠㄱ -2969
▁ㅈㅣㅂㅈㅜㅇ -2970
▁ㅅㅓㅇㅇㅜ -2971
50 -2972
▁ㄱㅏㄱㅈㅗㅇ -2973
▁ㅇㅣㅂㅎㅏㄱ -2974
▁ㄹㅜㅇㅣ -2975
ㅋㅡㅅㅡ -2976
▁ㄱㅏㅁㅇㅕㅁ -2977
▁ㄱㅓㄷㅐ -2978
▁ㄷㅔㅇㅣㅂㅣ -2979
▁ㅇㅚㄴ -2980
▁ㄹㅗㅁ -2981
ㄷㅗㅇㅜ -2982
ㅏㅇㅔㄹ -2983
▁ㅈㅡㅇㅁㅕㅇ -2984
▁ㅈㅏㄱㅅㅓㅇ -2985
▁ㅇㅡㅁㅕㄴㅅㅓ -2986
▁ㅋㅏㅇㅣ -2987
▁ㄱㅏㅇㅣㅂ -2988
ㅊㅏㅁ -2989
ㅓㅈㅣㄴ -2990
▁ㅇㅣㄴㄱㅡㄴ -2991
▁ㅊㅓㄴㅁㅜㄴ -2992
▁ㅂㅣㅁㅣㄹ -2993
▁ㅇㅣㄺ -2994
▁ㄱㅜㄴㅇㅣㄴ -2995
▁ㅈㅓㅎㅏㅇ -2996
▁ㅅㅗㅅㅗㅇ -2997
▁ㄱㅜㄱㄱㅕㅇ -2998
▁ㅎㅏㄱㅁㅜㄴ -2999
▁ㅂㅜㅁㅗ -3000
▁ㅇㅣㅈㅜ -3001
▁ㄱㅗㅇㄱㅜㄴ -3002
▁ㅅㅗㅂㅣ -3003
▁ㅊㅡㄱㅁㅕㄴ -3004
▁ㅇㅗㅎㅜ -3005
▁ㅇㅛㅅㅣ -3006
▁ㄱㅏㄹㅣㅋㅣ -3007
ㅇㅝㄹ -3008
▁ㄱㅏㅇㅈㅗ -3009
ㄷㅏㅂ -3010
▁ㅂㅕㅇㄹㅕㄱ -3011
ㅋㅏㅇㅣ -3012
▁ㅌㅓㅁㅣㄴ -3013
ㅏㄷㅗ -3014
▁ㅆㅓㅆ -3015
▁ㅇㅏㅌ -3016
ㄷㅗㅇㅇㅏㄴ -3017
ㅣㄹㄹㅓ -3018
▁ㅈㅓㄴㅅㅏ -3019
▁ㅇㅜㄹㅅㅏㄴ -3020
ㅋㅗㄹ -3021
▁ㅂㅡㄹㅣ -3022
▁ㅈㅐㄹ -3023
▁ㅅㅜㅍ -3024
▁ㅂㅡㄹㄹㅐㄱ -3025
▁ㄷㅟㅅ -3026
ㅋㅓㅅ -3027
▁ㅇㅣㅂㅓㄴ -3028
▁ㅍㅗㅈㅣㅅㅕㄴ -3029
▁ㅅㅓㅇㄱㅘ -3030
▁ㄴㅏㄴㅜ -3031
▁St -3032
▁ㅅㅣㄹㅎㅐㅇ -3033
▁ㅌㅓㄹ -3034
▁ㄱㅏㄲㅏㅇㅜㄴ -3035
ㅣㄴㅏ -3036
▁ㅌㅐㅍㅕㅇㅇㅑㅇ -3037
▁ㅁㅣㄷㅣㅇㅓ -3038
▁ㅈㅣㄹㄹㅑㅇ -3039
▁ㅈㅣㅅ -3040
▁ㅎㅐㅂㅏㅇ -3041
ot -3042
▁ㅁㅏㄴㅇㅑㄱ -3043
▁ㅂㅏㄹㅏㅁ -3044
▁ㅁㅗㄹㄹ -3045
ㅁㅗㅇ -3046
ㅗㅌㅗ -3047
▁ㄱㅘㅇㄱㅗ -3048
▁ㅈㅓㅇㅊㅏㄱ -3049
▁ㅇㅣㄴㅅㅜ -3050
▁ㅁㅜㅈㅏㅇ -3051
▁ㅊㅓㅁ -3052
▁ㅈㅕ -3053
▁ㄱㅣㅎㅚ -3054
▁ㅅㅐㄴ -3055
▁ㅂㅕㅇㅅㅏ -3056
▁ㅇㅗㅍㅡㄴ -3057
▁ㄱㅕㅇㅜㄹ -3058
▁ㅌㅓㅁㅣㄴㅓㄹ -3059
ㅁㅗㄴ -3060
▁ㅈㅣㄴㅐ -3061
ㄷㅗㄹㅗ -3062
▁ㄴㅗㄷㅗㅇㅈㅏ -3063
▁ㅈㅓㄴㅂㅏㄴ -3064
▁ㅈㅔㅁㅗㄱ -3065
ㅍㅣㅇㅏ -3066
▁ㅊㅚㅅㅗ -3067
▁x -3068
▁ㄱㅡㅁㅇㅠㅇ -3069
un -3070
▁ㅇㅑㄱㄱㅏㄴ -3071
▁ㅇㅣㅅㅡㄹ -3072
ㅊㅓㄹㄷㅗ -3073
▁ㅇㅖㅅㅜ -3074
▁ㅁㅗㅇㄱㅗㄹ -3075
▁ㅁㅏㅊㅣ -3076
▁ㅌㅗㅇㅈㅔ -3077
▁ㅍㅕㄴㅈㅣㅂ -3078
▁ㄱㅏㅇㅇㅝㄴㄷㅗ -3079
▁37 -3080
ㅣㅇㅜㅅㅡ -3081
ow -3082
ㅜㄱㅏㄹ -3083
▁ㄱㅜㄱㅂㅏㅇ -3084
▁in -3085
▁ㄱㅏㅈㅕㅆ -3086
▁ㄱㅗㅈㅓㄴ -3087
▁ㅇㅠㄷㅗ -3088
▁ㅈㅓㄴㄱㅐ -3089
▁ㅅㅏㄹㅖ -3090
▁ㅎㅘㄴㅈㅏ -3091
ㅌㅣㄴㅏ -3092
▁ㄱㅔㄴ -3093
ㅈㅣㅁ -3094
▁ㅈㅣㅈㅓㅁ -3095
▁ㅍㅛㅁㅕㄴ -3096
▁ㄷㅗㅈㅜㅇ -3097
▁ㅇㅣㄴㅎㅏㄴ -3098
▁ㄴㅏㅇㅘㅆ -3099
▁ㅎㅓㅇㅛㅇ -3100
▁ㅎㅕㅁㅇㅢ -3101
▁ㅈㅐㅅㅏㄴ -3102
ㄱㅏㄹㅣ -3103
▁ㅋㅐㄹㄹㅣ -3104
▁ㅁㅏㄹㅕㄴ -3105
ㅇㅡㄹ -3106
▁ㅎㅏㅂㅂㅕㅇ -3107
▁ㅈㅐㅈㅓㅇ -3108
ㅔㄹㄹㅔㅅㅡ -3109
ㄷㅡㅂ -3110
▁ㅁㅣㄹㄷㅗ -3111
▁ㅊㅜㅇㅂㅜㄴ -3112
▁ㅁㅜㄹㅕㅂ -3113
▁ㅇㅐㅇ -3114
▁ㅎㅏㄱㄴㅕㄴ -3115
▁ㅈㅓㄴㄹㅕㄱ -3116
▁ㅇㅣㄹㅜㅇㅓㅈㅕ -3117
▁1987 -3118
▁ㄹㅕㅇ -3119
▁ㅇㅟㄴㄷㅗㅇㅜ -3120
▁ㅇㅗㅅㅏㅋㅏ -3121
▁ㅅㅓㄴㅅㅜㄷㅏㄴ -3122
▁ㅇㅏㄴㄷㅡㄹ -3123
▁ㄱㅡㄴㄷㅐ -3124
▁ㅂㅗㅁ -3125
ㅇㅏㅅㅣㅇㅏ -3126
▁ㅍㅗㄹㅡㅌㅜㄱㅏㄹ -3127
ㅏㄹㄹㅣㄴ -3128
▁ㅎㅕㄴㅅㅣㄹ -3129
▁ㅁㅣㄴㄱㅏㄴ -3130
▁ㅇㅕㅈㅓㄴㅎㅣ -3131
▁ㅇㅏㅅㅣㅇㅏㄴ -3132
ra -3133
▁ㅂㅜㅇㄱㅚ -3134
▁ㄷㅡㅇㄱㅡㅂ -3135
▁ㅇㅠㅇㅔㄴ -3136
▁ㄱㅖㄱㅡㅂ -3137
▁ㅈㅓㄴㅇㅕㄱ -3138
▁ㄲㅗㄹㅣ -3139
▁ㅅㅏㄹㅏ -3140
▁ㄷㅏㅂ -3141
▁ㅋㅐㅁㅍ -3142
▁ㄱㅡㅎㅐ -3143
▁ㅇㅑㅇㅅㅓㅇ -3144
▁ㅎㅢㄴ -3145
▁ㅂㅗㄱㅗ -3146
▁ㅂㅓㅁㅇㅟ -3147
▁w -3148
ㅇㅠㄹ -3149
ㅈㅜㄱㅛ -3150
▁ㅊㅔㄹ -3151
▁41 -3152
▁ㄱㅏㅈㅊㅜ -3153
▁ㅇㅝㄴㅊㅣㄱ -3154
▁51 -3155
▁ㅈㅐㅈㅣㄱ -3156
▁ㄱㅓㄱ -3157
▁ㅅㅣㄴㅎㅗ -3158
▁ㅍㅡㄹㅔ -3159
▁ㄱㅗㅇㄱㅗㅇ -3160
▁ㄷㅐㅅㅜ -3161
ㅓㄱㅡ -3162
▁ㅅㅓㅇㅈㅣㄹ -3163
▁ㅇㅔㄴㅌㅓ -3164
▁ㅈㅓㄱㄱㅡㄱ -3165
▁ㅇㅟㅎㅕㅂ -3166
▁ㅅㅜㅇㅣㅂ -3167
ㄹㅚ -3168
▁ㅊㅜㅇㅊㅓㅇㄴㅏㅁㄷㅗ -3169
▁1986 -3170
▁ㅇㅗㄻㄱㅕ -3171
▁ㅇㅣㅁㅁㅜ -3172
▁ㅎㅡ -3173
▁ㅈㅓㄴㅅㅓㄴ -3174
▁ㄷㅗㅇㄹㅛ -3175
▁ㅇㅣㅁㅣㅈㅣ -3176
▁ㅂㅜㄹㄹㅣㄴㄷㅏ -3177
▁ㅇㅕㅇㅎㅘㅂㅐㅇㅜ -3178
▁ㅇㅣㄴㅎㅏ -3179
▁ㅅㅡㅌㅠㄷㅣㅇㅗ -3180
▁ㅅㅔㅇㅣ -3181
▁ㄴㅗㄴㅁㅜㄴ -3182
ㅐㄴㄷㅏ -3183
▁1984 -3184
▁ㅌㅗㄹㅗㄴ -3185
▁ㄷㅐㄷㅐ -3186
▁ㅋㅐㄹㄹㅣㅍㅗㄴ -3187
▁ㅇㅓㅂㅊㅔ -3188
▁ㅅㅜㄹㅣㅂ -3189
▁ㅅㅡㅇㅇㅣㄴ -3190
▁ㅇㅟㅇㅝㄴㅈㅏㅇ -3191
ㅅㅗㄹㅣ -3192
▁ㄱㅜㅊㅜㄱ -3193
▁ㅊㅜㅁ -3194
▁ㄷㅐㅎㅏㄱㅇㅝㄴ -3195
▁ㄱㅗㅇㅇㅓㅂ -3196
ㅌㅡㄹㅣ -3197
▁ㅇㅛㄱ -3198
ㅣㄹㅡ -3199
ㅣㄴㅣ -3200
▁ㅅㅐㄹㅗ -3201
▁ㅇㅟㅅㅓㅇ -3202
▁ㄱㅏㅇㅈㅔ -3203
ㅇㅛㅇㅣㄹ -3204
▁ㄱㅗㅇㅈㅜ -3205
ㅂㅜㅌ -3206
ㅇㅠㄱ -3207
▁ㅊㅜㄹㅂㅏㄹ -3208
▁ㅈㅓㅁㅊㅏ -3209
ㅔㅅㅣㅇㅏ -3210
▁ㅅㅜㄷㅏㄴ -3211
▁ㅎㅚㅂㅗㄱ -3212
▁ㄱㅛㅅㅏ -3213
▁ㅁㅏㄹㅣㅇㅏ -3214
ㄱㅛㅎㅚ -3215
▁ㅅㅓㅇㅇㅣㄴ -3216
▁ㅎㅏㅇㅅㅏㅇ -3217
▁ㅁㅏㅁ -3218
▁ㅎㅘㄱㅂㅗ -3219
ㅓㄴㅌㅡ -3220
ㅈㅣㅅ -3221
▁ㄷㅏㅅㅓㅅ -3222
▁ㅅㅣㄴㅎㅘ -3223
▁ㅍㅣㄹㄹㅣㅍㅣㄴ -3224
▁ㅌㅓㅋㅣ -3225
ㅇㅠㄴ -3226
▁ㄱㅗㅇㅅㅏㄴㄷㅏㅇ -3227
▁ㅈㅏㅇㅅㅣㄱ -3228
▁ㅋㅐㄹㄹㅣㅍㅗㄴㅣㅇㅏ -3229
▁ㅂㅕㄴㅎㅗ -3230
ㅡㅁㅏㄴ -3231
ch -3232
▁ㅊㅐㅌㅐㄱ -3233
▁ㅇㅑㅇㅈㅏ -3234
▁ㅈㅗㅊㅣ -3235
▁ㄱㅠㅊㅣㄱ -3236
▁ㄱㅣㄷㅐ -3237
▁ㄱㅏㅇㅇㅢ -3238
▁ㅈㅏㅇㅂㅣ -3239
▁ㅇㅕㄱㄷㅐ -3240
ㅛㅇㅠㄹ -3241
▁ㅈㅏㅂㅈㅣ -3242
▁ㄱㅓㄹㅐ -3243
▁ㄷㅚㅁ -3244
ㄴㅏㅁㅜ -3245
ㄹㅏㅇㅣㄴ -3246
▁ㄱㅡㄹㅐㅅㅓ -3247
ur -3248
ㅗㅋㅏ -3249
▁ㅇㅗㄴㄷㅗ -3250
▁ㅅㅣㅇㅣㄴ -3251
▁ㅂㅏㅂ -3252
ㅐㅍㅡㅌㅡ -3253
▁39 -3254
ㄱㅏㅂ -3255
▁ㅇㅏㅈㅜ -3256
▁ㅎㅏㅂㅇㅢ -3257
ㅋㅜㅇ -3258
▁ㅍㅗㄱㅂㅏㄹ -3259
ㅌㅡㄹㅗ -3260
▁ㅌㅟ -3261
▁ㄹㅏㅁㅕ -3262
ㅅㅓㅁ -3263
▁ㅁㅏㄴㅈㅗㄱ -3264
ㅌㅗㅂ -3265
▁ㅇㅛㅎㅏㄴ -3266
▁ㅂㅜㄱㅡㄴ -3267
ㅗㅇㅣㄷㅡ -3268
▁ㅅㅗㅍㅡㅌㅡ -3269
▁ㅇㅓㄹㄱㅜㄹ -3270
ㅋㅓㄴ -3271
▁ㅇㅣㅎㅏ -3272
▁ㅁㅗㅅㅡㅋㅡ -3273
▁ㄱㅐㅍㅕㄴ -3274
▁ㄱㅡㄹㅕ -3275
ㅁㅛ -3276
▁ㅅㅓㄴㅅㅐㅇ -3277
▁400 -3278
▁ㄴㅐㅆ -3279
▁ㄴㅏㅁㅍㅕㄴ -3280
▁ㅅㅡㅇㅟㅅㅡ -3281
▁ㅇㅓㄹㅕ -3282
▁ㅈㅣㄴㅎㅘ -3283
▁ㅇㅣㄹㅇㅝㄴ -3284
▁ㅁㅐㄴㅕㄴ -3285
▁ㅅㅡㅌㅏㅇㅣㄹ -3286
▁ㅇㅣㅅㅡㅇ -3287
▁ㅈㅏㅇㅁㅕㄴ -3288
ㅏㅋㅡ -3289
ㅁㅣㅇ -3290
▁ㄱㅕㅇㅎㅑㅇ -3291
ㅣㄹㅣ -3292
▁64 -3293
▁ㄱㅜㄴㄷㅏㄴ -3294
▁1985 -3295
▁ㅇㅣㅅㅡㄹㅏㅇㅔㄹ -3296
▁ㄷㅐㅎㅕㅇ -3297
ㄱㅣㄱ -3298
▁ㅈㅓㄴㅎㅏ -3299
▁ㅅㅡㄴ -3300
▁ㅇㅝㄴㅈㅏ -3301
▁II -3302
▁ㅎㅓㅇㄱㅏㄹㅣ -3303
▁ㅌㅗㅇㄱㅖ -3304
▁ㅎㅐㅊㅔ -3305
ㅂㅜㅇ -3306
ㄹㅏㅂ -3307
▁ㄱㅏㅇㅈㅓㅁ -3308
▁ㄲㅡㄶ -3309
▁ㅌㅐㅍㅜㅇ -3310
▁ㅇㅢㄹㅛ -3311
▁ㅂㅜㄺ -3312
▁ㅋㅡㄹㄹㅐ -3313
ㅇㅓㄷㅡㄹ -3314
ㅔㅇㅣㅋㅡ -3315
▁ㅈㅗㅇㅇㅣ -3316
ut -3317
▁ㄱㅣㅇㅓㄱ -3318
▁ㅈㅗㅇㅈㅗㅇ -3319
ㅌㅗㄹ -3320
▁ㅈㅏㄱㅡㅁ -3321
ㄷㅏㄱㅏ -3322
ㄷㅔㅁㅣ -3323
▁ㄱㅟㄱㅜㄱ -3324
▁ㅈㅗㅁ -3325
ㅂㅐㄱㅈㅣㄹ -3326
▁ㄹㅐㅇ -3327
▁ㅅㅓㅇㅑㅇ -3328
▁ㅎㅏㅇㅅㅓㅇ -3329
▁ㅈㅗㅎㅏㅂ -3330
▁ㅌㅏㅇㅣㅁ -3331
▁ㄱㅏㄴㅈㅜ -3332
▁ㄴㅓㅁㅜ -3333
▁ㅎㅐㄷㅗ -3334
▁ㄹㅏㅁㅕㄴ -3335
▁ㅂㅣㅌㅡ -3336
▁ㅁㅣㅊㅣ -3337
▁ㅈㅏㅇㄱㅣ -3338
▁ㅂㅜㄹㄹㅓㅆ -3339
▁ㅇㅢㅎㅏㄱ -3340
▁ㅅㅜㅇㅝㄴ -3341
▁ㄱㅜㄴㅈㅜ -3342
▁ㅊㅓㅇㅅㅗㄴㅕㄴ -3343
▁ㅂㅓㄹㅣ -3344
ㅍㅔㄴ -3345
▁ㅇㅔㅍㅣ -3346
▁ㅎㅘㄱㅅㅣㄹ -3347
▁ㄱㅏㅁㅈㅓㅇ -3348
▁i -3349
▁ㅋㅔㄹ -3350
▁ㅅㅏㅎㅏㅇ -3351
ㅅㅡㅋㅣ -3352
▁ㅊㅗㅂㅏㄴ -3353
▁ㄸㅣ -3354
▁ㅇㅔㄱㅔㅅㅓ -3355
▁ㄷㅏㅋ -3356
▁ㅇㅣㄴㅅㅏㅇ -3357
▁ㄹㅔㅋㅗㄷㅡ -3358
▁ㄱㅏㅅㅏ -3359
▁ㄷㅐㅈㅏㅇ -3360
▁ㅂㅗㅈㅏㅇ -3361
▁ㅎㅑㅇㅅㅏㅇ -3362
▁43 -3363
um -3364
▁ㄷㅜㄹㄹㅓㅆ -3365
▁ㅇㅕㄹㄹㅕㅆ -3366
▁ㅅㅏㅁㄱㅜㄱ -3367
▁ㅁㅓ -3368
▁ㅌㅜㅇㅓ -3369
▁ㄱㅡㄱㅗㅅ -3370
▁ㄹㅗㅅ -3371
▁ㄹㅗㅅㅡ -3372
ㅈㅏㄱㅣ -3373
▁ㅈㅓㅅ -3374
▁ㅊㅣㅁㄱㅗㅇ -3375
▁ㅇㅣㄹㅇㅓㄴㅏㅆ -3376
▁ㄱㅗㅇㅑㅇ -3377
▁ㅇㅏㅋㅏㄷㅔㅁㅣ -3378
▁ㅇㅏㅁㅔㄹㅣㅋㅏ -3379
▁ㅅㅗㄴㅕㄴ -3380
▁LG -3381
▁ㅌㅗㅈㅣ -3382
▁ㅌㅏㅂㅈㅐ -3383
ㅘㅇㅣ -3384
▁ㅅㅔㅇㅜ -3385
▁ㅇㅣㅈㅔ -3386
▁ㄱㅣㅈㅣ -3387
▁ㅇㅢㅈㅏㅇ -3388
ㄹㅗㅇ -3389
ㅁㅓㄴ -3390
▁ㄲㅣ -3391
ㅣㄹㄹㅣ -3392
▁ㅊㅓㅇㄴㅏㄹㅏ -3393
ㅣㅇㅏㄴㅗ -3394
▁ㅍㅣㄴㄹㅏㄴㄷㅡ -3395
ㅌㅣㅁ -3396
▁ㅍㅕㅇㅇㅑㅇ -3397
▁ㄱㅕㅇㅈㅜ -3398
▁ㄹㅏㅌㅣㄴ -3399
▁ㅂㅜㄹㄱㅘ -3400
▁ㅅㅣㄴㅇㅏㅇ -3401
▁ㅂㅜㄴㅈㅏ -3402
▁42 -3403
▁ㄴㅏㅁㄷㅗㅇ -3404
▁ㅁㅔㅇㅣㅈㅓ -3405
ㅛㅅㅣ -3406
ㅜㄴㄷㅡ -3407
▁ㅈㅡㅇㄱㅓ -3408
ㅂㅗㄷㅡ -3409
▁ㅈㅜㅇㅎㅘㅁㅣㄴㄱㅜㄱ -3410
▁ㄷㅐㄹㅣㅂ -3411
▁ㅇㅏㅇㅑ -3412
▁ㅂㅗㅂㅕㅇ -3413
▁ㄱㅗㄱㅜㄹㅕ -3414
▁ㄱㅗㅁㅜㄴ -3415
▁ㄷㅏㄴㅂㅐㄱㅈㅣㄹ -3416
▁ㅈㅜㄹㄱㅓㄹㅣ -3417
ㄷㅗㅇㅕㄱ -3418
ir -3419
ver -3420
ㅔㅇㅏ -3421
▁ㅈㅓㄴㅅㅓㄹ -3422
▁ㅇㅜㅅㅓㄴ -3423
ㅡㄹㄹㅗ -3424
ㅅㅓㅆ -3425
▁ㄷㅗㄱㅈㅏ -3426
▁ㅎㅘㄱㅈㅓㅇ -3427
▁ㄸㅓㄹㅇㅓㅈㅕ -3428
▁ㅌㅡㅇ -3429
▁ㅅㅓㄴㄱㅗ -3430
▁ㄱㅡㄹㅓㅁ -3431
▁br -3432
▁ㅂㅏㄱㅈㅟ -3433
▁ㅈㅏㅁㅅㅣ -3434
▁55 -3435
▁ㅅㅓㄴㄱㅓㄱㅜ -3436
ㅏㄷ -3437
▁ㅅㅣㄴㅅㅓㄹ -3438
▁ㅂㅔㄱ -3439
▁1982 -3440
▁ㅃㅏㄹㅡ -3441
▁ㅋㅏㅇㅜㄴㅌㅣ -3442
▁ㅈㅓㅇㅂㅗㄱ -3443
▁ㄷㅏㄴㅈㅣ -3444
▁ㅇㅣㄹㅜㅇㅓㅈㅣㄴ -3445
▁ㅅㅏㄹㅎㅐ -3446
ㅅㅗㄷㅡ -3447
▁ㄴㅏㄴㅟ -3448
▁ㅊㅏㅂㅕㄹ -3449
▁ㅎㅜㄹ -3450
▁ㅇㅣㄲㅡ -3451
▁ㅁㅗㄹㅣ -3452
▁ㅂㅗㄱㅈㅏㅂ -3453
ㅏㄹㅡㅌㅡ -3454
▁ㅊㅓㄹㄷㅗㅇㅕㄱ -3455
▁ㅇㅠㄱㅅㅏㅇ -3456
▁ㄱㅜㅊㅔ -3457
▁ㅌㅏㄴㅅㅐㅇ -3458
▁ㅈㅗㄱㅡㅁ -3459
▁ㅇㅢㅎㅐㅅㅓ -3460
▁ㅂㅣㅇㅠㄹ -3461
▁ㅈㅓㄴㅎㅘ -3462
▁ㅍㅏㄴㄱㅕㄹ -3463
▁ㅊㅏㅇㅅㅓㄹ -3464
▁ㅅㅓㅇㄷㅏㅇ -3465
▁ㅇㅖㅅㅏㅇ -3466
▁ㅈㅜㄴㄷㅏ -3467
▁ㅎㅏㅁㄷㅐ -3468
▁ㅌㅏㄹㄹ -3469
▁ㄷㅔㄴㅁㅏ -3470
▁ㅇㅔㄹㄹㅣ -3471
▁ㄱㅘㅇㅇㅕㄱㅅㅣ -3472
▁ㄱㅓㅁㅊㅏㄹ -3473
im -3474
▁ㄱㅏㅈㅊㅜㄴ -3475
FC -3476
▁ㅇㅗㄴㄹㅏㅇㅣㄴ -3477
ㄹㅔㅇㅣ -3478
▁ㅍㅕㄴㅇㅣㅂ -3479
▁ㅈㅣㅋ -3480
▁ㅂㅓㅂㅇㅣㄴ -3481
▁ㅈㅜㄱㅛ -3482
▁ㅋㅜㄹ -3483
▁ㅂㅡㄹㅐㄴㄷㅡ -3484
▁ㅇㅘㅇㅇㅟ -3485
▁ㅇㅏㄹㄹㅕㅈㅕㅆ -3486
▁44 -3487
ㅋㅣㅇㅏ -3488
▁ㅇㅣㅅㅓㅇ -3489
ㅎㅗㄹ -3490
▁ㅈㅐㄷㅏㄴ -3491
ㅣㄱㅏ -3492
▁ㄱㅏㄹㄹ -3493
ㅅㅏㅋㅣ -3494
▁ㅅㅜㅊㅜㄹ -3495
▁ㅈㅓㅅㅓ -3496
▁ㄱㅔㄹ -3497
▁ㅌㅐㅇㅓㄴㅏㄴ -3498
▁ㄷㅡㅁ -3499
▁1983 -3500
ㅓㅂㅡ -3501
▁ㄸㅟㅇㅓㄴㅏㄴ -3502
▁ㄱㅗㅇㅇㅠ -3503
▁ㅇㅏㅋ -3504
▁ㄷㅗㅇㅇㅢ -3505
ㅌㅡㄹㄹㅐㄴㄷㅡ -3506
▁ㄱㅏㅇㅈㅓㅁㄱㅣ -3507
▁ㅅㅔㅈㅗㅇ -3508
▁ㅇㅠㅎㅏㄱ -3509
▁ㅂㅗㄱㅡㅂ -3510
▁ㅈㅣㅅㅣ -3511
▁ㄱㅗㅎㅑㅇ -3512
▁ㄷㅐㄱㅣ -3513
▁ㅌㅗㅇㅎㅏㄴ -3514
▁ㅅㅗㄹㄹㅗ -3515
▁ㅇㅏㄹㄹㅣ -3516
ㅇㅢㅎㅚ -3517
▁ㅅㅜㅅ -3518
▁ㅈㅏㄹㅏ -3519
▁47 -3520
▁ㅁㅣㅇㅑ -3521
▁ㅅㅣㅋㅣㄹ -3522
ㅅㅑ -3523
▁ㅎㅐㄱㅅㅣㅁ -3524
▁ㄴㅗㅇㅖ -3525
▁ㅊㅏㅁㅅㅓㄱ -3526
ㅅㅣㅇㅌㅓㄴ -3527
▁Z -3528
ㅉㅣㄱ -3529
▁ㅇㅗㄹㅣ -3530
▁ㅇㅣㄹㅜㅇ -3531
▁ㅈㅣㅂㅎㅐㅇ -3532
CA -3533
▁ㅇㅏㅁㅅㅏㄹ -3534
ㅣㅇㅏㅂ -3535
▁ㅎㅏㄴㅡㄹ -3536
▁ㄱㅗㅈㅓㅇ -3537
▁ㅎㅕㅂㅅㅏㅇ -3538
ay -3539
ㅇㅜㄴㄷㅗㅇ -3540
▁ㅂㅏㄴㄷㅗ -3541
▁ㅇㅣㄹㅜㅇㅓㅈㅣ -3542
▁ㅅㅔㅇㅣㄴ -3543
▁ㅆㅡㅇㅣㄴㄷㅏ -3544
▁ㅇㅜㅅㅜ -3545
▁ㅂㅓㅂㅊㅣㄱ -3546
ㄷㅡㄹㅣㄷㅡ -3547
▁ㅁㅏㄷㅡㄹㅣㄷㅡ -3548
▁ㅅㅏㅈㅓㄴ -3549
▁ㅂㅗㄴㄱㅕㄱ -3550
ㅐㄴㅅㅡ -3551
▁ㅎㅜㅅㅗㄴ -3552
▁ㅈㅓㅈㅏㅇ -3553
▁ㅎㅚㅈㅓㄴ -3554
▁ㅎㅐㅆㅇㅓㅆ -3555
▁ㅂㅗㅇㅏㄴ -3556
▁ㅈㅜㅇㅂㅏㄴ -3557
▁ㄴㅏㅇㅘ -3558
ㅇㅏㅁㅔㄹㅣㅋㅏ -3559
▁ㅍㅏㄹㄹ -3560
▁ㅇㅗㄹㄹㅕㅆ -3561
ㅏㄴㅣㅇㅏ -3562
ㅣㅇㅗㅍㅡ -3563
▁ㄱㅝㄴㅎㅏㄴ -3564
ㅂㅏㄴㄷㅗ -3565
▁ㅇㅏㄹㅡㅎㅔㄴ -3566
▁ㅍㅡㄹㄹㅐㅅ -3567
ㅉㅏ -3568
ㅋㅠ -3569
▁ㅈㅓㄴㅎㅜ -3570
▁ㄱㅘㄴㄹㅛ -3571
▁ㅈㅏㅅㅔ -3572
ㅇㅏㅍㅡㄹㅣㅋㅏ -3573
▁184 -3574
▁ㄷㅐㅂㅣ -3575
▁75 -3576
▁ㅈㅓㄴㅇㅛㅇ -3577
▁ㅅㅏㄴㅁㅐㄱ -3578
▁ㄷㅐㅎㅏㅇ -3579
ㅂㅣㅇ -3580
ㅇㅓㅁ -3581
▁ㅇㅕㄴㄱㅗ -3582
▁ㄱㅗㅇㅎㅏㄱ -3583
▁180 -3584
▁ㅌㅐㅇㅓㄴㅏ -3585
▁ㅍㅡㄹㅣㅁ -3586
▁ㅇㅣㅇㅣㄱ -3587
ㄷㅣㅇㅏ -3588
▁ㅅㅏㅇㅍㅜㅁ -3589
▁ㅇㅓㄹㅣㄴㅇㅣ -3590
ㅆㅣㄴ -3591
▁ㅎㅏㅇㅟ -3592
▁ㅇㅓㄹㅁㅏ -3593
▁ㅈㅓㄴㅎㅕ -3594
▁v -3595
▁ㅇㅏㅍㄷㅜ -3596
▁ㅍㅡㄹㅏㄴ -3597
▁ㄴㅗㄴㄹㅣ -3598
▁ㅈㅜㅇㅅㅔ -3599
▁ㅇㅠㅈㅓㄱ -3600
ㄲㅏ -3601
▁ㅇㅏㄹㅡㅎㅔㄴㅌㅣㄴㅏ -3602
▁ㄹㅡㄴ -3603
▁1972 -3604
▁ㅍㅡㄹㄹㅔㅇㅣㅇㅗㅍㅡ -3605
▁ㅈㅣㅋㅣ -3606
▁ㄷㅏㄴㅇㅣㄹ -3607
▁ㅅㅣㄱㅏㄱ -3608
▁ㄱㅏㄹㄷㅡㅇ -3609
ㄹㅏㅇㅣ -3610
▁ㄷㅔㄴㅁㅏㅋㅡ -3611
ㄹㅐㄴㄷㅡ -3612
▁ㅅㅔㅅ -3613
▁ㅈㅣㄱㅇㅝㄴ -3614
▁1920 -3615
▁ㅇㅔㅍㅣㅅㅗㄷㅡ -3616
▁ㅇㅢㅁㅜ -3617
▁46 -3618
▁ㄱㅏㄹㅗ -3619
▁ㅁㅏㄹㄱㅣ -3620
ㅣㄴㅌㅡ -3621
▁CD -3622
▁ㅇㅢㄷㅗ -3623
▁ㅋㅗㄹㄹ -3624
▁ㅇㅔㅅㅓㄴ -3625
▁ㅅㅡㅋㅡㄹ -3626
▁ㅈㅜㅇㅅㅣㅁㅈㅣ -3627
▁ㄹㅗㅂㅓㅌㅡ -3628
▁ㄴㅣㅋ -3629
▁ㅇㅣㄴㅌㅓ -3630
▁ㅅㅔㅇㅜㄴ -3631
▁ㅇㅜㄴㅈㅓㄴ -3632
▁ㅎㅕㅂㅈㅓㅇ -3633
ㅁㅜㄴㅎㅘ -3634
▁ㅇㅐㅍㅡㄹ -3635
ㄷㅠ -3636
▁ㅈㅏㄹㅁㅗㅅ -3637
▁ㅎㅡㄴㅎㅣ -3638
▁ㄱㅏㅈㅕㅇ -3639
▁ㅂㅕㄴㅎㅗㅅㅏ -3640
▁ㄷㅓㅍ -3641
▁ㅇㅝㅅㅣㅇㅌㅓㄴ -3642
ㅌㅓㄹㅣ -3643
▁ㄱㅗㅇㅁㅜㅇㅝㄴ -3644
▁ㅂㅣㄴㅏㄴ -3645
▁ㅉㅣㄱ -3646
▁ㅇㅣㄴㄱㅝㄴ -3647
▁ㅋㅏㅌ -3648
▁ㅍㅐㄹ -3649
▁ㅅㅜㅇㅕ -3650
▁ㅅㅜㄴㅅㅓ -3651
▁ㅅㅓㅇㄱㅕㅇ -3652
▁1979 -3653
▁ㅍㅔㅇㅣ -3654
ㅏㅌㅡ -3655
▁ㅅㅐㅁ -3656
ㅊㅓㅂ -3657
▁ㅈㅗㅅ -3658
ㅎㅐㅈㅕㅆ -3659
▁ㅋㅏㅇ -3660
▁ㅂㅕㄹㄷㅗ -3661
ㅜㄱㄷㅗ -3662
▁ㅎㅛㅅㅗ -3663
▁ㅇㅝㄴㄹㅣ -3664
ㅗㅎ -3665
ㅁㅏㅅㅡ -3666
▁ㅇㅏㅋㅣ -3667
ㅏㅅ -3668
▁ㅇㅠㄴㅣ -3669
ㅌㅏㅇㅣ -3670
ㄱㅗㅂ -3671
▁In -3672
▁ㅈㅏㅇㅊㅏㄱ -3673
▁ㅈㅓㄴㄹㅏㅂ -3674
▁ㅈㅓㄴㄹㅏㅂㅜㄱㄷㅗ -3675
▁ㅈㅏㄱㄱㅗㄱㄱㅏ -3676
▁ㅇㅝㄴㅈㅏㄱ -3677
▁ㅈㅓㄹㄷㅐ -3678
▁ㄷㅗㅁ -3679
▁1930 -3680
▁ㅌㅜㅇㅣㅂ -3681
▁ㄱㅛㄹㅠ -3682
ㅅㅔㅇ -3683
▁ㅂㅔㄴㅔ -3684
ㄲㅗㅊ -3685
ㅍㅏㄹ -3686
▁ㅇㅜㅋㅡㄹ -3687
▁ㅅㅗㅅㅣㄱ -3688
▁ㅇㅣㄴㄹㅠ -3689
▁ㅇㅏㅍㅏ -3690
▁ㄴㅗㄴㅈㅐㅇ -3691
▁ㅂㅏㅇㅁㅕㄴ -3692
▁ㅂㅏㄹㅡ -3693
▁kg -3694
▁ㅁㅜㄴㅈㅏㅇ -3695
ㅈㅓㅇㅂㅜ -3696
▁ㅇㅏㅍㅅㅓ -3697
▁ㅂㅐㄹ -3698
▁ㄴㅐㄹㅕ -3699
▁ㅁㅏㅇㅣㅋㅡㄹ -3700
▁ㅅㅓㄴㅂㅗㅇ -3701
▁ㅋㅏㄹㅡ -3702
▁ㄴㅏㅊㅣ -3703
▁ㄱㅗㅇㅎㅘ -3704
▁ㅂㅗㄴㅇㅣㄴ -3705
▁ㄱㅓㄴㄱㅜㄱ -3706
▁ㅎㅕㄴㅈㅏㅇ -3707
▁ㄴㅗㄴㅇㅢ -3708
▁ㅅㅣㅁㄱㅏㄱ -3709
▁ㅎㅗㅌㅔㄹ -3710
▁ㅎㅏㅇㅂㅗㄱ -3711
ㅍㅓㄷㅡ -3712
▁1981 -3713
▁ㅇㅓㄸㅓㅎㄱㅔ -3714
▁150 -3715
▁ㅁㅓㅁㅜㄹ -3716
▁ㅇㅏㅊㅣㅁ -3717
10 -3718
▁ㅎㅝㄹ -3719
▁1973 -3720
▁ㄱㅗㅇㅅㅏㄴㅈㅜㅇㅢ -3721
▁ㅅㅜㄷㅗㅇ -3722
▁ㅇㅗㅎㅣㄹ -3723
▁ㅅㅜㅅㅜㄹ -3724
ㄷㅓㅁ -3725
▁ㄷㅗㄹㅇㅏㄱㅏ -3726
os -3727
▁ㅈㅔㄹ -3728
▁ㅊㅜㄹㅁㅏ -3729
▁ㄱㅗㅇㅍㅗ -3730
▁ㄱㅛㅌㅗ -3731
ㅔㅌㅡ -3732
ㅡㅁㅏ -3733
▁ㄹㅣㅅㅡ -3734
▁ㄴㅗㄹㅡㅇ -3735
ㅋㅏㅇㅘ -3736
▁ㄱㅏㅇㅎㅏ -3737
▁ㅇㅗㄹㅐㄴ -3738
▁ㄱㅡㅁㅁㅔㄷㅏㄹ -3739
▁ㅇㅜㄴㅇㅛㅇ -3740
▁ㅇㅛㅅㅐ -3741
▁ㅁㅗㄹㅡ -3742
▁ㄲㅜ -3743
▁ㅅㅗㅂ -3744
▁ㅌㅜㅈㅐㅇ -3745
▁ㅎㅝㄹㅆㅣㄴ -3746
▁ㅅㅏㅌㅐ -3747
▁ㅊㅏㅇㄹㅣㅂ -3748
▁ㅇㅕㄴㅎㅏㅂㄱㅜㄴ -3749
▁ㅇㅗㄹㄹㅣ -3750
▁ㅊㅏㅇㅈㅗ -3751
▁ㅎㅏㅂㅅㅓㅇ -3752
▁ㅇㅕㄴㅅㅏㄴ -3753
ㅅㅕㄴㅓㄹ -3754
▁ㄴㅣㄴ -3755
ㅎㅠ -3756
▁ㅇㅣㄴㅈㅗㅇ -3757
▁ㅁㅏㅋㅡ -3758
▁ㅇㅗㄹㅡㄴㅉㅗㄱ -3759
▁ㅇㅖㅅㅏㄴ -3760
▁ㅊㅜㅊㅡㄱ -3761
▁ㅇㅠㅈㅓㄴㅈㅏ -3762
▁ㄹㅏㅇㅣㅂㅡ -3763
▁ㅂㅔㅇㅣㅈㅣㅇ -3764
▁ㄱㅡㅁㅅㅗㄱ -3765
▁ㅁㅕㄹㅁㅏㅇ -3766
▁ㅍㅡㄹㄹㅔㅇㅣㅇㅓ -3767
▁ㄱㅣㅁㅈㅓㅇ -3768
ㅋㅡㄴ -3769
▁ㅂㅏㅇㅊㅜㄹ -3770
▁ㄹㅗㅅㅡㅇ -3771
▁ㅌㅐㄱㅜㄱ -3772
▁ㅁㅜㄹㅣ -3773
▁1940 -3774
ㅏㅁㅜ -3775
▁ㄹㅐㄴ -3776
▁ㄷㅏㄴㅣ -3777
▁ㅅㅏㄴㅎㅏ -3778
▁ㅇㅑㅁㅏ -3779
▁ㅇㅣㄴㄱㅗㅇ -3780
30 -3781
em -3782
▁ㅇㅚㄴㅉㅗㄱ -3783
▁ㅇㅣㄴㅈㅓㅇㅂㅏㄷ -3784
ter -3785
▁ㅎㅏㄴㄸㅐ -3786
▁ㅋㅗㅁㅣ -3787
ㅔㄴㅏ -3788
▁ㅂㅗㄱㅎㅏㅂ -3789
▁ㄱㅜㅂㅕㄹ -3790
▁ㄱㅗㅇㅠ -3791
▁ㄹㅏㄷㅗ -3792
▁ㅁㅗㅅㅡㅋㅡㅂㅏ -3793
▁ㅌㅡㄹㅐㄱ -3794
ㄱㅗㄱㅣ -3795
ㅍㅏㅇ -3796
▁1974 -3797
▁ㅈㅜㅇㅟ -3798
BO -3799
▁ㅅㅏㄹㅕㅇㄱㅘㄴ -3800
▁ㅇㅝㄴㅈㅜ -3801
▁ㅂㅔㄹㅡㄹㄹㅣㄴ -3802
▁ㅂㅔㅇ -3803
▁ㅎㅛㅇㅠㄹ -3804
▁ㅂㅜㄱㅅㅓ -3805
▁ㅇㅣㄹㅇㅡㅋㅣ -3806
ㅌㅐㅇ -3807
▁ㅎㅐㅇㅑㅇ -3808
▁ㄱㅏㄱㅂㅗㄴ -3809
ㅏㄴㅣㅁ -3810
▁ㅈㅔㅈㅏ -3811
▁185 -3812
▁ㅂㅏㄴㅂㅗㄱ -3813
▁ㅈㅜㅇㅂㅜ -3814
▁ㅎㅕㅇㅅㅏ -3815
▁ㅇㅗㅎㅣㄹㅕ -3816
▁ㅈㅓㄴㅊㅓㄹ -3817
▁ㅇㅗㅈㅓㄴ -3818
▁ㅎㅔㄴㄹㅣ -3819
▁ㅇㅕㄴㄱㅘㄴ -3820
▁ㅌㅏㅇㅣㅇ -3821
▁ㅇㅣㅂㅈㅏ -3822
▁ㅇㅕㄹㄹㅣ -3823
▁ㅊㅜㄹㅈㅏㅇ -3824
▁ㅇㅣㄴㄱㅏ -3825
▁ㅎㅐㅅㅏㅇ -3826
▁ㅅㅏㅂㅓㅂ -3827
ㅈㅔㄹㄹㅔㅅㅡ -3828
▁ㄷㅏㄱ -3829
▁ㅈㅔㅊㅜㄹ -3830
▁ㅃㅗㅂ -3831
▁ㅇㅣㄴㅌㅓㅂ -3832
▁ㅅㅜㅅㅈㅏ -3833
▁ㅈㅣㅂㅇㅏㄴ -3834
▁ㅇㅡㅂ -3835
▁ㄴㅐㄹㅕㅆ -3836
▁ㅅㅣㄴㅊㅔ -3837
▁ㅁㅏㅊㅣㅁ -3838
ㅜㅊㅣ -3839
▁ㅍㅔㄹㅡ -3840
▁ㄱㅡㄹㄹㅗ -3841
▁SBS -3842
▁ㅍㅏㅋㅡ -3843
▁ㅂㅗㅎㅓㅁ -3844
▁ㅅㅗㅂㅏㅇ -3845
ㅏㅇㅣㅌㅣ -3846
▁ㅂㅜㄴㅈㅐㅇ -3847
▁54 -3848
ㅔㄷㅡ -3849
▁ㅇㅣㄴㅌㅓㅂㅠ -3850
ㅇㅓㅄㅇㅣ -3851
▁ㄷㅏㅇㅜㄴ -3852
▁ㅍㅗㅇㅟ -3853
▁ㅁㅗㄱㅅㅏ -3854
ㅓㅅㅡㄴ -3855
▁ㅇㅣㅁㅣㄴ -3856
▁ㅅㅏㅁㄱㅏㄱ -3857
▁ㅎㅏㄴㅏㄴㅣㅁ -3858
ㄷㅠㅅㅓ -3859
▁ㅇㅠㄴㅏㅇㅣㅌㅣ -3860
▁ㅍㅡㄹㅗㄷㅠㅅㅓ -3861
▁ㄷㅏㅋㅏ -3862
▁ㅅㅜㅅㅗㅇ -3863
ㅇㅕㅂ -3864
ㅓㅈㅕㅆ -3865
▁1948 -3866
▁ㄱㅓㅈㅓㄹ -3867
▁ㅎㅣㄹㅗ -3868
▁ㅇㅣㅇㅓㅈㅣ -3869
▁ㅅㅏㅇㅣㅁ -3870
▁ㅈㅣㄴㅣ -3871
▁ㅅㅡㄹㅣ -3872
▁ㄱㅜㄴㅅㅜ -3873
▁ㅅㅣㅈㅓㅁ -3874
▁ㅁㅗㅂㅏㅇ -3875
▁ㅂㅜㄹㄹㅕㅆ -3876
▁ㅇㅜㅅㅡ -3877
▁ㅈㅓㅇㅂㅣ -3878
ㅐㅁㅍㅡ -3879
▁ㄹㅔㄷㅡ -3880
▁ㅊㅟㄱㅡㅂ -3881
▁1968 -3882
▁ㅍㅗㄱㅣ -3883
▁ㅎㅘㄹㅂㅏㄹ -3884
▁ㅅㅡㅋㅗㅌㅡㄹㄹㅐㄴㄷㅡ -3885
▁ㅂㅜㄱㄷㅗㅇ -3886
ㅣㅇㅏㅇ -3887
▁1976 -3888
▁ㄱㅘㄴㅈㅓㅁ -3889
▁ㄱㅐㅅㅣ -3890
▁ㄱㅜㅅㅗㄱ -3891
ㅎㅏㄹㅏ -3892
▁ㅅㅗㄴㅕ -3893
▁ㅁㅕㅇㅅㅓㅇ -3894
▁ㅊㅜㄱㅈㅔ -3895
▁ㅇㅏㄹㅡㅁㄷㅏㅇ -3896
▁ㅈㅓㄴㄱㅗㅇ -3897
▁ㄱㅓㄴㄹㅣㅂ -3898
▁ㅇㅑㄱㅅㅗㄱ -3899
▁ㅊㅜㄹㅇㅣㅂ -3900
▁ㅈㅜㅇㄷㅐ -3901
▁ㅇㅝㄴㅈㅏㄹ -3902
▁ㄱㅗㅇㅛㅇ -3903
▁ㄱㅕㄴㅎㅐ -3904
op -3905
▁ㅍㅡㄹㄹㅏ -3906
▁ㅅㅏㄹㅕㅇㅂㅜ -3907
▁ㅈㅣㄱㅇㅓㅂ -3908
▁ㅂㅏㄲㅇㅔ -3909
▁1975 -3910
▁ㅎㅡㅂㅅㅜ -3911
▁ㄱㅓㄴㅈㅗ -3912
▁ㄱㅗㅇㄱㅣ -3913
▁ㄴㅔㅅ -3914
▁ㄱㅕㅇㅅㅓㅇ -3915
▁ㅎㅓㄹ -3916
▁ㅇㅡㅇㅇㅛㅇ -3917
▁ㅎㅘㄹㅅㅓㅇ -3918
ㅜㄷㅡ -3919
▁ㅂㅜㅎㅘㄹ -3920
▁ㅌㅗㅇㅎㅐㅅㅓ -3921
▁ㄷㅡㄹㅇㅓㄱㅏㅆ -3922
▁ㅅㅓㅇㄴㅡㅇ -3923
▁ㅎㅏㄱㅅㅡㅂ -3924
▁ㄱㅜㄱㄷㅗ -3925
ㄷㅗㄹㅡ -3926
▁ㅅㅣㄴㅅㅓㅇ -3927
ㅍㅔㄹ -3928
▁ㅎㅣㅂ -3929
▁ㅈㅜㅌㅐㄱ -3930
▁ㄷㅗㅇㅇㅝㄴ -3931
ㄷㅔㅅㅡ -3932
▁ㄹㅔㅇㅣㄴ -3933
▁ㅈㅏㅇㅇㅏㄱ -3934
▁ㅈㅜㅈㅓㄴ -3935
▁ㄴㅗㅇㅁㅣㄴ -3936
▁ㅂㅜㅌㅇㅕ -3937
▁ㅇㅕㅇㅎㅘㅈㅔ -3938
▁ㅅㅐㅇㄱㅣ -3939
ㅅㅓㅌㅡ -3940
▁ㅇㅓㄹㅕㅂ -3941
▁ㅎㅏㄴㄱㅜㄱㅇㅓ -3942
▁ㅎㅓㅁ -3943
▁ㅊㅟㄷㅡㄱ -3944
▁ㅇㅡㅁㄹㅕㄱ -3945
▁ㅂㅜㄹㅂㅓㅂ -3946
▁ㅇㅣㄴㅈㅗ -3947
▁ㄴㅗㄹㅡㅇㅞㅇㅣ -3948
▁ㅈㅓㅇㅊㅔ -3949
ㅅㅔㄹ -3950
▁ㅇㅣㄹㅊㅣ -3951
▁ㅁㅕㅇㅁㅕㅇ -3952
▁56 -3953
▁ㄱㅡㅇ -3954
▁ㅇㅕㅂㅜ -3955
▁ㅈㅣㄱㅈㅓㄴ -3956
▁ㅂㅣㄹㅗㄱ -3957
▁ㅇㅣㅈㅜㅇ -3958
▁ㅋㅗㅅㅡ -3959
ㅕㅇㅑ -3960
▁ㅊㅗㅇㄷㅗㄱ -3961
ㅣㄹㄹㅔ -3962
ag -3963
▁ㅈㅜㄱㅇㅣ -3964
▁ㅅㅗㅅㅡ -3965
▁ㅇㅠㅁㅜㄹ -3966
▁ㅎㅜㅇㅝㄴ -3967
▁1978 -3968
ㅂㅜㄹㅡㅋㅡ -3969
ㅌㅜㅇ -3970
▁1971 -3971
▁52 -3972
▁Q -3973
▁1963 -3974
▁ㅎㅜㅅ -3975
▁ㄱㅜㄱㅈㅏㅇ -3976
▁ㅈㅓㄴㅂㅜ -3977
▁ㅍㅗㄱㄹㅕㄱ -3978
▁ㅇㅕㄱㅐㄱㅊㅓㄹㄷㅗ -3979
▁ㅁㅔㅅㅣ -3980
ㅣㄱㅡ -3981
▁ㅇㅣㅇㅗㄴ -3982
▁ㅎㅗㄴㄹㅏㄴ -3983
▁ㄴㅑ -3984
ㅁㅗㄹ -3985
▁ㄷㅓㄹㅏㄷㅗ -3986
▁ㅇㅕㄴㄹㅛ -3987
ㅋㅣㅅㅡㅌㅏㄴ -3988
▁ㅎㅏㅇㄱㅗㅇㄱㅣ -3989
▁ㄲㅡㅌㄴㅏㄴ -3990
▁ㅁㅜㄴㅎㅓㄴ -3991
▁65 -3992
▁ㅍㅕㄴㅈㅣ -3993
▁ㅅㅓㄴㄱㅛ -3994
▁ㅌㅏㅇㅣㅇㅘㄴ -3995
▁49 -3996
▁ㅇㅜㄱ -3997
ㅇㅏㄴㅐ -3998
▁ㅈㅜㄱㅣ -3999
▁ㅁㅏㅅㅏ -4000
▁ㅇㅣㄹㅡㄴ -4001
▁ㅇㅗㅂ -4002
▁ㅊㅓㄴㅊㅔ -4003
▁ㅅㅏㅇㄷㅏㅇㅎㅣ -4004
▁ㅎㅐㅈㅕㅆ -4005
ce -4006
▁ㅈㅜㄱㅘㄴ -4007
▁ㅇㅣㅁㄱㅡㅁ -4008
▁ㄷㅗㄷㅏㄹ -4009
ㄱㅗㅅ -4010
▁ㄷㅐㅅㅓㅇ -4011
▁ㄱㅘㄴㅈㅣㄱ -4012
▁ㅂㅗㄴㅅㅏ -4013
▁ㄹㅗㅅㅡㅇㅐㄴ -4014
▁ㄹㅗㅅㅡㅇㅐㄴㅈㅔㄹㄹㅔㅅㅡ -4015
▁ㅂㅡㄹㄹㅗㄱ -4016
▁ㅊㅓㄹㅅㅜ -4017
▁ㅎㅘㅁㅜㄹ -4018
▁ㅈㅣㄴㅐㄴ -4019
▁ㅂㅏㄴㅇㅕㅇ -4020
▁ㅅㅏㅇㄹㅠㄱ -4021
▁ㅅㅜㅈㅣㅂ -4022
▁ㅅㅡㅌㅗㄹㅣ -4023
▁1969 -4024
▁ㅊㅟㅎㅏ -4025
▁ㅁㅜㅇㅓㅅ -4026
▁ㅈㅜㄱㅏㄴ -4027
ㄹㅔㄴ -4028
▁ㄴㅐㄹㅣ -4029
▁ㅇㅢㅈㅗㄴ -4030
▁ㄴㅜㄹ -4031
▁ㄱㅗㅈㅗㅇ -4032
▁ㅇㅣㄹㅇㅡㅋㅕㅆ -4033
▁179 -4034
▁ㄱㅛㅎㅘㄴ -4035
▁ㅇㅕㅇㅇㅓㅂ -4036
▁ㄷㅐㅎㅘ -4037
▁ㅋㅐㅁㅍㅓㅅㅡ -4038
▁00 -4039
▁ㄷㅏㅁㅕ -4040
▁ㅎㅏㄱㅅㅜㄹ -4041
▁ㅇㅣㄱㅣ -4042
ㅈㅣㅇㅏ -4043
▁ㄱㅖㅌㅗㅇ -4044
▁ㅇㅏㄴㅌㅏ -4045
OS -4046
▁ㅍㅗㄷㅗ -4047
▁ㅈㅏㅇㄱㅛ -4048
▁ㅋㅗㄴㅅㅓㅌㅡ -4049
▁ㅈㅡㅇㅅㅏㅇ -4050
▁ㄹㅗㄷㅡ -4051
▁ㅂㅐㄱㅈㅔ -4052
▁ㅅㅑㅇ -4053
ㅜㅁㅏ -4054
▁ㅂㅜㅈㅏㅇ -4055
▁ㅎㅐㅅㅏㄴ -4056
▁ㄱㅡㄹㅓㄴㄷㅔ -4057
▁ㅈㅗㅂ -4058
▁ㅂㅗㄱㅘㄴ -4059
▁ㄷㅗㄱㅜ -4060
▁ㅎㅏㄱㅂㅜ -4061
▁ㅈㅐㄹㅛ -4062
▁ㅈㅓㅇㅇㅝㄴ -4063
▁ㄱㅜㅅㅓㅇㅇㅝㄴ -4064
▁ㅈㅏㅅㅏㄹ -4065
▁ㄸㅓㄴㅏㅆ -4066
▁53 -4067
▁ㅅㅏㅇㅜㄴㄷㅡ -4068
▁ㅅㅏㅇㅅㅡㅇ -4069
▁ㅈㅓㄴㅁㅜㄴㄱㅏ -4070
▁ㅈㅜㅅㅣㄱㅎㅚㅅㅏ -4071
▁ㄱㅐㅊㅔ -4072
▁ㅇㅕㄴㅈㅐ -4073
▁.. -4074
▁ㄷㅡㄹㅓㄴ -4075
▁ㄱㅏㄴㄷㅏㄴ -4076
▁1946 -4077
▁ㅂㅐㄱㅈㅏㄱ -4078
▁ㅇㅕㅇㅎㅑㅇㄹㅕㄱ -4079
▁ㅂㅜㄹㅅㅏㅇ -4080
▁ㅋㅗㄹㅗㄴㅏ -4081
▁ㅁㅣㄷㅡ -4082
▁SK -4083
ㄷㅏㄹㅣ -4084
▁ㄲㅓ -4085
▁ㅎㅚㅇ -4086
▁ㄱㅣㅁㅇㅕㅇ -4087
▁ㅂㅏㄱㅈㅓㅇ -4088
▁ㄹㅗㅇㅜㄴ -4089
▁ㄷㅔㅇㅣㅂㅣㄷㅡ -4090
▁ㅂㅏㄴㅂㅏㄹ -4091
▁ㅍㅏㄴㅅㅓ -4092
▁ㅅㅗㄱㅎㅏㄴㄷㅏ -4093
▁ㅎㅏㅇㅜㅅㅡ -4094
oc -4095
▁ㅅㅏㄹㅇㅣㄴ -4096
▁ㄱㅓㄱㅣ -4097
▁ㅂㅏㄹㅇㅓㄴ -4098
▁ㅁㅗㄷㅡ -4099
▁ㅂㅜㅇㅣㅁ -4100
ㄷㅣㅇㅓㄴ -4101
▁ㄱㅗㅇㅌㅗㅇ -4102
▁ㅇㅕㅇㅇㅣㅂ -4103
ㄴㅏㅆ -4104
▁ㅍㅏㅁ -4105
▁ㅅㅏㅈㅏㅇ -4106
▁ㅂㅔㄹㄱ -4107
▁ㅃㅏㄹㅡㄴ -4108
▁ㅎㅓㄱㅏ -4109
▁ㅈㅣㄹㅂㅕㅇ -4110
▁ㅈㅣㄴㅇㅣㅂ -4111
▁ㅋㅏㄹㄹㅣ -4112
▁ㅊㅗㄹ -4113
ㅣㅇㅔㅌㅡ -4114
▁ㅁㅏㅇㅁㅕㅇ -4115
▁ㅈㅔㅇㅣㄹ -4116
▁ㅈㅓㅂㅎㅏ -4117
ㄱㅗㅇㅎㅏㅇ -4118
▁ㅂㅏㄹㅏ -4119
▁ㅈㅐㄴ -4120
▁1964 -4121
ㅈㅡㅂ -4122
ㅂㅣㅊㅣ -4123
▁ㅅㅏㅇㅠ -4124
▁ㅇㅚㄱㅜㄱㅇㅣㄴ -4125
ㅂㅕㅇㄷㅐ -4126
▁99 -4127
▁ㅋㅗㄹㄹㅗ -4128
▁ㅎㅘㅅㅓㅇ -4129
▁ㅅㅣㄴㅂㅜㄴ -4130
ㅇㅓㄹ -4131
▁ㄷㅏㅇㅎㅏㄴ -4132
▁ㅃㅐㅇ -4133
▁ㅇㅔㄷㅡㅇ -4134
▁ㅈㅓㄴㅍㅏ -4135
▁ㅇㅟㅂㅏㄴ -4136
▁ㅈㅓㄹㅊㅏ -4137
▁US -4138
▁ㅈㅏㄴㅕ -4139
▁ㅂㅗㄱㅓㄴ -4140
▁ㅊㅏㅁㅈㅓㄴ -4141
▁ㅇㅣㄴㄷㅗㄴ -4142
▁ㅁㅜㄹㄹ -4143
▁ㅂㅔㅅㅡㅌㅡ -4144
ㅏㄷㅡ -4145
▁ㅎㅏㄱㅇㅝㄴ -4146
▁ㄹㅓㅆ -4147
▁ㅌㅗㅂ -4148
ri -4149
▁ㄷㅐㄹㅑㄱ -4150
▁ㅈㅓㅈㅏㄱ -4151
▁ㅍㅐㅇ -4152
▁ㅂㅕㄴㅎㅕㅇ -4153
▁ㅅㅣㅎㅗ -4154
▁ㄱㅣㄷㅗ -4155
▁ㅈㅣㄴㅂㅗ -4156
▁ㅌㅏㄹㄹㅏㄱ -4157
▁ㅅㅗㅂㅣㅇㅔㅌㅡ -4158
▁ㅂㅕㄴㅎㅘㄴ -4159
▁ㅊㅏㅇㄷㅏㄴ -4160
▁ㄲㅗㄱ -4161
ㅌㅏㅁ -4162
▁ㅊㅜㅇㅊㅓㅇㅂㅜㄱㄷㅗ -4163
▁ㅊㅐㅁ -4164
▁58 -4165
▁ㅈㅣㄴㅇㅏㅂ -4166
▁ㅈㅗㅈㅏㄱ -4167
ㅏㄱㅣ -4168
ㅋㅜㄹㅏ -4169
▁ㅇㅔㄷㅗ -4170
▁ㅎㅏㄴㅂㅏㄴㄷㅗ -4171
▁ㅅㅡㅇㅈㅣㄴ -4172
▁ㅍㅔㄹㅡㅅ -4173
▁ㅍㅓㅅ -4174
ㅅㅡㅋㅏ -4175
▁ㅍㅣㅇㅏㄴㅗ -4176
▁ㅅㅓㅂㅓ -4177
▁ㄱㅏㅇㅡㄹ -4178
▁1000 -4179
▁ㅌㅗㅇㅅㅏㅇ -4180
ㅈㅓㅇㅅㅣㄱ -4181
▁ㅅㅣㄹㅣㅇㅏ -4182
▁PC -4183
▁and -4184
ㅜㅇㅣ -4185
▁ㅎㅏㄱㅎㅚ -4186
▁ㅌㅏㄹㅊㅜㄹ -4187
ㄴㅕㅇ -4188
▁ㄷㅗㅁㅏㅇ -4189
▁ㄱㅜㄱㅈㅔㄱㅗㅇㅎㅏㅇ -4190
▁ㅅㅡㅋㅏ -4191
▁ㅊㅐㅇㅛㅇ -4192
▁ㅁㅗㅇㅕ -4193
▁ㄱㅜㅁ -4194
ㄲㅐ -4195
▁ㅅㅣㄱㅍㅜㅁ -4196
▁ㄹㅜㅇㅣㅅㅡ -4197
▁ㅇㅛㅇㅣㄴ -4198
▁ㅎㅕㄴㅇㅕㄱ -4199
ㅓㄷㅡ -4200
▁ㅅㅣㄴㅊㅓㅇ -4201
▁ㄱㅗㅇㄷㅗㅇㅊㅔ -4202
▁ㅁㅏㅋㅔ -4203
▁ㅈㅜㄴㅕㄴ -4204
▁ㅈㅓㄴㄷㅗㅇ -4205
ㅅㅕ -4206
▁ㅅㅡㅍㅡㄹ -4207
▁ㅈㅣㅂㅜㅇ -4208
▁ㅋㅟㄴ -4209
▁ㅂㅗㄱㅁㅜ -4210
ㅔㅇㅣㅌㅓ -4211
▁ㅂㅜㄴㅇㅕㄹ -4212
ㅁㅓㄴㅣ -4213
▁ㅈㅔㅇㅓ -4214
ㅈㅜㄴㄷㅏ -4215
▁ㄷㅗㅇㄴㅏㅁ -4216
▁ㅁㅔㅇㅣㄴ -4217
▁ㄷㅗㅇㅅㅓㅇ -4218
▁ㅂㅏㅇㅅㅗㅇㄱㅜㄱ -4219
▁ㅈㅣㄴㄷㅏ -4220
▁ㅌㅡㄱㅇㅣ -4221
ation -4222
▁ㅁㅏㄴㅈㅜ -4223
ㅅㅡㅋㅗ -4224
▁ㅅㅡㄹㅓㅇㅜㄴ -4225
▁ㅉㅗㅊ -4226
ㅓㄴㅅㅡ -4227
▁ㅁㅓㄱㅇㅣ -4228
▁ㅎㅏㅂㄱㅕㄱ -4229
▁1977 -4230
▁ㅈㅗㅈㅓㄹ -4231
▁ㅁㅏㅆㅡ -4232
▁ㅇㅠㄷㅐ -4233
▁ㅇㅕㄴㅊㅜㄹ -4234
ㅌㅏㅇㅣㄴ -4235
▁ㅇㅖㅊㅡㄱ -4236
▁FA -4237
ㅣㅇㅗㅅㅡ -4238
▁ㅎㅘㅁㅕㄴ -4239
▁ㅁㅣㄴㅂㅓㅂ -4240
▁ㅅㅜㅇㅕㅇ -4241
▁ㅎㅏㄱㄱㅘ -4242
▁ㅂㅔㄹㄱㅣㅇㅔ -4243
▁ㄲㅏ -4244
▁1949 -4245
▁ㅂㅜㄹㄹㅓ -4246
ㅊㅓㄴㄱㅜㄴ -4247
▁ㄸㅢ -4248
▁ㅁㅣㅌㅓ -4249
▁ㅎㅗㅅㅜ -4250
ㄱㅓㄹ -4251
▁ㄱㅣㅎㅗ -4252
▁ㅇㅣㅁㅇㅢ -4253
igh -4254
▁ㅅㅣㄴㅇㅣㄴ -4255
▁ㄷㅗㄹㄹ -4256
▁ㅁㅏㄱㅂㅜ -4257
▁ㄷㅗㅇㅈㅏㄱ -4258
▁ㅊㅣㄴㅇㅣㄹ -4259
▁ㅅㅏㅇㅇㅝㄴ -4260
▁ㄱㅔㅇㅣ -4261
▁ㅅㅏㅂ -4262
▁ㅂㅗㄴㅐㄴ -4263
▁ㄱㅣㅂㅓㅂ -4264
▁ㅇㅟㅅㅏㅇ -4265
▁ㅈㅣㄱㅡㅂ -4266
▁ㅎㅡㄹㅡ -4267
▁ㄱㅗㄷㅗ -4268
▁ㄱㅜㄱㅁㅜ -4269
ㄷㅓㅅㅡ -4270
▁88 -4271
▁ㅇㅣㅁㄷㅐ -4272
▁ㅈㅏㅇㄹㅡ -4273
▁ㄱㅓㄷ -4274
▁ㄱㅗㄹㅣ -4275
▁ㅂㅏㄴㄷㅡ -4276
▁ㅌㅏㄴㅅㅗ -4277
▁ㄴㅜㄱㅜ -4278
▁ㅊㅣㄱ -4279
▁ㅇㅣㄴㄷㅗㄴㅔㅅㅣㅇㅏ -4280
▁62 -4281
ㅅㅓㅇㄱㅜㄴ -4282
▁ㄹㅗㅅㄷㅔ -4283
▁1962 -4284
▁ㅅㅓㅅㅣㄱㅈㅣ -4285
▁ㅊㅜㄹㄱㅏㄴ -4286
▁ㅎㅘㅇㄱㅡㅁ -4287
▁ㅈㅓㅇㅈㅣ -4288
▁ㅅㅣㅋㅣㄴㄷㅏ -4289
ㅇㅜㄹ -4290
▁ㅂㅐㅊㅜㄹ -4291
▁ㄱㅘㅇㅈㅏㅇ -4292
▁ㅎㅠㅇ -4293
▁ㅊㅟㅅㅗ -4294
ㄱㅓㅁ -4295
▁ㄷㅗㄱㄹㅣㅂㅇㅜㄴㄷㅗㅇ -4296
▁ㅅㅓㄴㅈㅓㄴ -4297
ㅅㅗㄹ -4298
ㅌㅣㄱ -4299
▁ㅇㅏㄹㄹㅔㄱㅅㅏㄴㄷㅡㄹ -4300
▁ㅆㅗ -4301
ㅁㅜㄴㅎㅘㅈㅐ -4302
ㅌㅡㄹㅏ -4303
▁ㅇㅣㄹㅉㅣㄱ -4304
▁ㅅㅣㄹㅅㅜ -4305
▁ㅁㅗㅇㅏ -4306
▁ㅊㅓㅎㅕㅇ -4307
▁1967 -4308
▁ㅎㅘㅈㅐ -4309
▁Ch -4310
▁ㄱㅣㅊㅔ -4311
▁ㅅㅐㅇㅈㅗㄴ -4312
▁ㅋㅗㅍㅏ -4313
▁ㅂㅜㅂㅜ -4314
ㄷㅔㅇ -4315
▁ㅁㅣㄴㅣ -4316
▁ㅇㅣㅅㅡㅇㅁㅏㄴ -4317
▁57 -4318
▁ㅋㅗㅁㅣㄷㅣ -4319
▁ㅈㅜㄷㅜㄴ -4320
▁ㅅㅡㄹㅓㅂ -4321
▁ㄷㅗㅈㅓㄴ -4322
▁ㅇㅞㅇㅣ -4323
▁ㅇㅕㄴㅇㅏㄴ -4324
▁ㅂㅏㅇㅈㅣ -4325
▁ㅇㅗㅅㅡㅁㅏㄴ -4326
▁ㅎㅡㄱㅇㅣㄴ -4327
▁ㄴㅏㄱㅏㅆ -4328
▁ㄴㅡㄴㄱㅏ -4329
▁ㄹㅗㅋㅔㅅ -4330
▁ㄷㅣㄴ -4331
▁ㅇㅣㄹㅂㅗㄴㄱㅜㄴ -4332
▁ㄲㅡㅌㄴㅐ -4333
ㅠㅂㅡ -4334
▁ㅇㅣㄹㄷㅐ -4335
▁ㅇㅣㅁㅈㅣㄴ -4336
▁ㄷㅓㅅ -4337
▁ㅋㅏㅁㅔㄹㅏ -4338
▁ㅋㅗㄴㅅㅡㅌㅏㄴ -4339
▁ㅂㅏㄹㅡㅅ -4340
▁ㅅㅑㄹ -4341
▁ㄱㅗㅇㅈㅓㅇ -4342
▁ㄱㅕㅇㄹㅗ -4343
▁ㅇㅗㅌㅗ -4344
▁ㅅㅓㅇㅝㄴ -4345
▁ㅍㅐㄱ -4346
▁ㄷㅏㄹㅎㅏ -4347
▁ㅎㅢㅁㅏㅇ -4348
▁ㄱㅐㅈㅗ -4349
▁ㄹㅜㅌㅡ -4350
▁You -4351
▁ㅂㅗㅈㅗ -4352
▁ㅅㅏㅇㅎㅏ -4353
▁ㅂㅏㅇㅈㅓㅇㅅㅣㄱ -4354
▁ㄷㅗㄹㅇㅏㄱ -4355
▁ㄴㅗㅇㄱㅜ -4356
▁ㅊㅓㄴㅇㅕㄴ -4357
ㅅㅜㄹㅗㄱ -4358
▁ㅅㅓㄱㅣ -4359
▁ㅆㅏㅇㅜㅁ -4360
▁ㅌㅐㅇㅓㄴㅏㅆㅇㅡㅁㅕ -4361
▁ㄴㅣㅅ -4362
▁ㅈㅔㄷㅐㄹㅗ -4363
ㅊㅓㄴㅅㅣ -4364
▁ㅇㅕㄷㅏㄴ -4365
▁ㅂㅏㄴㄷㅡㅅㅣ -4366
▁ㅇㅢㅎㅗㄱ -4367
▁ㅊㅕ -4368
▁ㄴㅏㅁㅅㅓ -4369
▁ㄴㅏㅌㅏㄴㅏㅆ -4370
▁ㅇㅘㅇㅈㅏ -4371
▁ㅅㅓㄴㅈㅗ -4372
▁ㅅㅓㅇㅎㅑㅇ -4373
▁ㄱㅣㅎㅏ -4374
▁ㅅㅓㄱㅜ -4375
▁ㄴㅏㅁㄱㅕㅆ -4376
▁ㄴㅡㅈ -4377
▁ㅋㅏㅂ -4378
ㅎㅏㅇㅣ -4379
▁ㅅㅜㅅㅗ -4380
▁ㅇㅣㅂㄴㅣㄷㅏ -4381
ㅇㅏㅂㅓㅈㅣ -4382
▁ㅂㅜㄴㅁㅕㅇ -4383
▁ㄷㅚㄴㄷㅏㄴㅡㄴ -4384
▁ㅁㅜㄷㅓㅁ -4385
▁ㅎㅜㅋㅜㅇ -4386
▁ㄱㅐㄹㄹ -4387
ㅈㅓㅇㅜ -4388
ㅌㅜㄱㅣ -4389
nd -4390
▁ㅇㅕㅇㅑ -4391
▁ㅅㅐㅇㅌㅐ -4392
ㅗㄴㅣ -4393
▁ㅌㅓㄴㅓㄹ -4394
▁ㅅㅔㅇㅣㄴㅌㅡ -4395
▁ㅈㅓㅇㄱㅣ -4396
ㅇㅣㄴㅁㅜㄹ -4397
▁ㄷㅗㅇㄱㅣ -4398
▁ㅍㅗㄹㅗ -4399
▁ㅁㅏㅈㅇㅣ -4400
▁181 -4401
ㅟㄴㄷㅏ -4402
▁ㅁㅣㄱㅜㄱㅇㅣㄴ -4403
▁ㅂㅗㅋㅓㄹ -4404
▁ㅎㅏㅇㄱㅜ -4405
▁ㅇㅏㅂㄹㅕㄱ -4406
ㅍㅗㄹㅡ -4407
▁ㅍㅏㅇㅏㄱ -4408
▁ㅎㅏㄴㄱㅖ -4409
▁ㅈㅓㄴㅁㅕㄴ -4410
▁ㅎㅣㅌㅡ -4411
▁ㄹㅏㅇㅣㅌㅡ -4412
▁ㄴㅐㅈㅓㄴ -4413
▁ㄷㅜㄹㅉㅐ -4414
▁ㅎㅕㄴㅈㅣ -4415
ㅍㅗㄹㄹ -4416
▁ㅁㅗㄱㅅㅗㄹㅣ -4417
▁ㅈㅓㄴㅎㅕㅇ -4418
▁ㄲㅓㄲ -4419
▁ㅂㅓㅂㅈㅓㅇ -4420
▁ㅅㅣㄴㄹㅚ -4421
▁ㅇㅓㅁㅊㅓㅇ -4422
ㅈㅗㄹ -4423
ㅂㅣㄹ -4424
▁66 -4425
▁ㄴㅗㅂㅔㄹ -4426
▁1966 -4427
▁ㅎㅐㅁ -4428
ㅜㅁㅕㅇ -4429
▁ㅊㅏㅁㄱㅗ -4430
▁ㄷㅗㄱㅌㅡㄱ -4431
▁r -4432
▁ㅊㅣㄹㅓㅆ -4433
▁ㄴㅗㄱㅅㅐㄱ -4434
▁ㄱㅐㅅㅣㄴ -4435
ㅌㅣㅂㅡ -4436
ST -4437
▁ㄴㅓㅁㅇ -4438
▁ㅇㅜㄹㅕ -4439
▁ㅎㅐㄹㅣ -4440
ㅅㅏㄴㅅㅣ -4441
▁%, -4442
▁ㅇㅠㅎㅐㅇ -4443
▁ㅊㅓㅂㅓㄹ -4444
▁ㅂㅣㅍㅕㅇ -4445
▁ㄴㅜㄱ -4446
▁ㄱㅡㄹㅈㅏ -4447
▁ㅅㅣㄹㅈㅣㄹ -4448
▁ㅁㅜㄹㅊㅔ -4449
▁68 -4450
ON -4451
ㅡㄱㅏㄴ -4452
▁ㅇㅏㄷㅗㅇ -4453
▁ㅂㅕㄹㅁㅕㅇ -4454
ㅅㅏㅅㅡ -4455
▁ㅇㅛㅋㅗ -4456
▁1965 -4457
▁ㅅㅜㄴㅎㅘㄴ -4458
▁ㅇㅏㅌㅔㄴ -4459
▁ㅇㅏㅍㅏㅌㅡ -4460
ㅗㄱㅣ -4461
ㅗㅅㅣㅁㅏ -4462
▁ㄹㅣㅊㅓ -4463
▁ㅂㅜㄴㅎㅏㄹ -4464
▁61 -4465
▁ㅊㅏㅇㅇㅝㄴ -4466
▁ㅇㅣㄹㅝ -4467
▁ㅁㅐㅇㅣㄹ -4468
▁ㅂㅜㄴㅎㅐ -4469
ㅂㅏㅇㅅㅗㅇ -4470
▁ㅂㅗㄱㅈㅣ -4471
▁ㅊㅜㄱㅜ -4472
▁KBO -4473
▁ㅅㅏㄹㅣㅂ -4474
▁ㅈㅣㄴㅈㅜ -4475
▁ㅁㅗㅎㅕㅇ -4476
▁ㅂㅏㅇㅎㅐ -4477
▁ㅍㅕㅇㄷㅡㅇ -4478
ㄴㅔ -4479
▁183 -4480
ㅅㅖ -4481
▁ㅌㅏㄱㅕㄱ -4482
ㅅㅏㅈㅏ -4483
▁ㅂㅏㄷㅜㄱ -4484
▁ㅈㅣㅂㄱㅝㄴ -4485
▁ㅈㅣㄴㅣㄴ -4486
▁ㄱㅏㄴㅎㅐㅇ -4487
▁ㅇㅜㅁㅈㅣㄱㅇㅣㅁ -4488
▁ㅋㅟ -4489
▁ㅂㅐㄴ -4490
▁ㄱㅜㅎㅕㄴ -4491
▁ㅌㅣㅂ -4492
▁ㄱㅜㅎㅏ -4493
ㄱㅜㅇㅝㄴ -4494
▁ㅎㅘㅅㅏㄴ -4495
▁ㅁㅜㄲ -4496
▁ㄴㅠㅈㅣㄹ -4497
▁ㅇㅏㄴㅌㅗㄴ -4498
▁ㅁㅐㄹ -4499
▁ㅊㅗㅅ -4500
ㅊㅝ -4501
▁ㅌㅔㄹㅓ -4502
▁ㄱㅏㅅㅏㅇ -4503
▁ㅎㅏㄴㅈㅓㅇ -4504
ER -4505
ㄹㅠㅇ -4506
▁ㄱㅣㅁㅇㅣㄹ -4507
▁ㅆㅏㅇㅜ -4508
▁ㅎㅢㅅㅐㅇ -4509
▁ㅂㅜㅈㅣㄴ -4510
▁ㄱㅘㅇㅂㅗㄱ -4511
▁ㅍㅜㅇㅂㅜ -4512
ㅅㅛ -4513
▁ㄴㅠㅈㅣㄹㄹㅐㄴㄷㅡ -4514
▁ㅊㅏㄹㅅㅡ -4515
▁ㅇㅣㄹㅅㅣㄱ -4516
art -4517
▁ㅈㅘㅇㅜ -4518
▁ㄴㅏㄷㅡㄹ -4519
▁ㅊㅚㄷㅏ -4520
▁ㅂㅓㅁㅈㅜ -4521
▁ㅇㅘㄴㄹㅛ -4522
▁ㅎㅏㅇㅣㄴ -4523
ㅌㅔㄴㅊㅡ -4524
▁ㅅㅕ -4525
▁ㅅㅣㅂㅈㅏㄱ -4526
▁ㅃㅐㅇㅏㅅ -4527
▁ㅂㅓㄹㅕㅆ -4528
▁1961 -4529
▁ㄲㅡㅌㄴㅏ -4530
ㄷㅣㅅㅕㄴ -4531
▁ㅈㅓㅅㅜㄹ -4532
▁800 -4533
▁86 -4534
▁ㄴㅏㅆ -4535
▁ㅁㅏㅊㅣㅁㄴㅐ -4536
▁ㅅㅏㅇㅝㄴ -4537
▁ㅅㅕㄴ -4538
ㅣㄱㅕㅇ -4539
▁ㅇㅓㄷㅗ -4540
▁ㅁㅏㅂㅓㅂ -4541
▁ㅁㅜㄹㄹㅣㅎㅏㄱ -4542
▁ㅌㅗㅇㅅㅏㄴ -4543
▁ㄹㅔㅅㅡ -4544
▁ㅅㅏㄴㅑㅇ -4545
▁ㅂㅜㄴㅇㅟ -4546
▁ㅈㅓㄴㅇㅝㄴ -4547
▁ㅇㅏㄱㄱㅣ -4548
▁ㅈㅓㅁㅈㅓㅁ -4549
▁ㄱㅡㄴㅂㅗㄴ -4550
▁ㅅㅔㄹㅡㅂ -4551
▁ㅎㅑㅇㅎㅐ -4552
▁ㄱㅗㅈㅣ -4553
▁ㅇㅗㅍㅔㄹㅏ -4554
▁ㅎㅘㄱㅅㅏㄴ -4555
▁ㄷㅐㄱㅐ -4556
▁ㅇㅣㄹㅂㅗㄴㅇㅣㄴ -4557
▁ㅇㅖㄹ -4558
▁600 -4559
▁120 -4560
▁ㅅㅗㄴㅈㅏ -4561
▁ㄷㅐㅂㅓㅂ -4562
▁ㅇㅗㄹㄹㅏ -4563
▁ㅊㅜㄹㅂㅓㅁ -4564
▁ㄴㅏㄷㅡㄹㅁㅗㄱ -4565
ice -4566
ㅡㄹㄹㅣ -4567
▁ㄱㅏㄹㅅㅐㄱ -4568
▁ㅎㅑㅇㅎㅏ -4569
▁ㅃㅜㄹㅣ -4570
ㅂㅣㅊ -4571
▁ㅅㅏㅎㅕㅇ -4572
▁ㄱㅏㅁㅅㅏ -4573
est -4574
ㅗㄹㅗ -4575
▁ㅇㅢㅈㅣ -4576
▁IS -4577
▁ㅅㅣㅈㅗ -4578
▁ㅎㅚㄷㅏㅁ -4579
▁ㅇㅕㄹㅗㄴ -4580
▁ㅇㅕㅇㅇㅜㅇ -4581
▁ㄹㅜㅅㅡ -4582
▁ㅍㅏㄴㅅㅏ -4583
▁ㅊㅜㅇㄱㅕㄱ -4584
▁ㅇㅘㄴㄱㅗㅇ -4585
ㅋㅗㅁ -4586
▁ㅅㅣㅋㅏㄱㅗ -4587
▁ㅎㅏㄴㅈㅏ -4588
ㅈㅣㅋㅓㄹ -4589
▁ㄱㅣㄷㅜㅇ -4590
▁ㄱㅐㅇㅣㅂ -4591
▁ㅁㅕㅇㅎㅘㄱ -4592
▁ㅁㅏㄹㄹㅔㅇㅣ -4593
▁ㅁㅏㅇㅣㄴ -4594
▁ㅎㅗㅈㅜ -4595
▁ㅅㅡㅍㅣ -4596
ia -4597
▁ㅁㅓㅅ -4598
▁ㄱㅛㅎㅑㅇ -4599
▁ㅂㅔㄱㅌㅓ -4600
ㅓㄹㄷㅡ -4601
▁ㄷㅏㄴㄷㅗㄱ -4602
▁ㅁㅏㅈㅊㅜ -4603
▁ㄷㅐㄱㅗㅇ -4604
▁ㅅㅗㄱㅎㅏㄴ -4605
▁ㅁㅜㄱㅔ -4606
▁ㅇㅣㄴㅈㅓㅂ -4607
▁ㅍㅗㅇㅣㄴㅌㅡ -4608
ㅃㅏ -4609
▁ㅇㅏㄱㅎㅘ -4610
▁ㅇㅣㄴㅣㅇ -4611
▁ㅎㅘㅇㅣ -4612
▁ㅂㅏㄹㄱㅜㄹ -4613
▁ㅈㅓㄱㅈㅓㄹ -4614
▁ㅂㅡㄹㅏㅇㅜㄴ -4615
▁ㅍㅕㄴㅊㅏㄴ -4616
▁98 -4617
▁ㅈㅗㅂㅕㄹ -4618
▁ㅇㅣㄴㅈㅡㅇ -4619
▁1919 -4620
▁ㅅㅜㄴㄱㅏㄴ -4621
▁ㅈㅓㅈㅣ -4622
ㅋㅔㅇㅣㅅㅕㄴ -4623
ㄱㅣㅁ -4624
▁ㅇㅣㄹㅜㄴㄷㅏ -4625
▁ㅊㅓㅇㄱㅜ -4626
ㅈㅏㅁ -4627
▁ㅌㅔㅇㅣ -4628
ㅌㅡㄹㄹㅓ -4629
▁ㅁㅜㄴㅁㅕㅇ -4630
▁ㅅㅏㅇㅇㅟ -4631
▁ㄱㅜㅇㅝㄴ -4632
▁ㅈㅓㄴㅈㅜ -4633
▁ㅎㅗㅇㅂㅗ -4634
▁ㅈㅗㅈㅗㅇ -4635
▁ㅇㅣㄹㅇㅓㄴ -4636
▁ㅂㅔㄹㅡㄴ -4637
▁ㄹㅣㄱㅏ -4638
ap -4639
▁re -4640
▁ㅇㅢㅅㅣㅁ -4641
TV -4642
▁ㄷㅚㄴㄷㅏㄱㅗ -4643
▁ㅎㅏㅁㄹㅏㄱ -4644
▁ㄱㅘㄱ -4645
▁ㅌㅏㅁㅅㅏ -4646
▁ㅈㅏㄱㅅㅏ -4647
▁ㅁㅕㅇㄴㅏㄹㅏ -4648
▁ㄹㅟ -4649
▁ㅂㅜㅎㅏ -4650
AR -4651
ㅑㄹ -4652
▁ㅅㅓㅇㅂㅜㄴ -4653
▁ㄷㅡㅇㅈㅣ -4654
▁ㄷㅡㅇㅈㅏㅇㅇㅣㄴㅁㅜㄹ -4655
ㄷㅜㄹ -4656
▁ㅇㅕㄴㄱㅏㄴ -4657
▁ㅍㅡㄹㅗㅇㅣ -4658
▁ㄷㅏㅇㅊㅗ -4659
▁ㅂㅏㄺㅎㅣ -4660
▁ㅈㅏㄱㅡㄱ -4661
▁ㄴㅏㄹㄱㅐ -4662
▁ㅅㅓㅁㅕㅇ -4663
▁ㅈㅓㅂㅊㅗㄱ -4664
▁ㄱㅐㅁㅏㄱ -4665
ak -4666
ㅎㅏㅁㅏ -4667
▁ㄱㅏㄱㅈㅣ -4668
▁ㅎㅏㄱㅅㅏㄹ -4669
▁ㄱㅣㄱㅣ -4670
▁ㄱㅡㄸㅐ -4671
▁ㅅㅐㄹㅗㅂ -4672
▁ㄴㅏㅇㅏㄱㅏ -4673
▁ㄴㅡㄲㅣ -4674
▁ㅇㅕㄴㄱㅜㅇㅝㄴ -4675
▁1944 -4676
▁ㅈㅣㅇㅇㅕㄱ -4677
▁ㅊㅜㅊㅓㄴ -4678
ㅠㄴㅣ -4679
▁ㄷㅗㅇㅘ -4680
▁ㄹㅏㄹ -4681
▁ㅈㅣㄴㅈㅓㅇ -4682
▁ㄴㅓㄼㅇㅣ -4683
▁ㅁㅗㅇㅣㅁ -4684
ㅡㄹㄹㅣㅇ -4685
▁ㅅㅐㅇㄱㅕㄴ -4686
▁ㅂㅣㅅㅏㅇ -4687
▁ㄷㅗㄱㅇㅣㄹㄱㅜㄴ -4688
▁ㅇㅣㅂㅂㅓㅂ -4689
▁ㅅㅐㄱㅕ -4690
▁ㅇㅣㅁㄱㅣ -4691
▁ㅅㅜㄴㅅㅜ -4692
▁ㅂㅡㄹㄹㅜ -4693
▁ㅅㅏㅈㅓㅇ -4694
ㄷㅜㄱ -4695
▁ㅋㅡㄹㅗㅇ -4696
▁63 -4697
▁ㅎㅐㅇㄹㅕㄹ -4698
ㅝㄴㄱㅜㄴ -4699
▁ㅅㅡㅁㅏㅌㅡ -4700
▁ㅇㅗㄹㅎㅐ -4701
▁ㅌㅐㄷㅗ -4702
▁95 -4703
ㅇㅜㄱ -4704
▁DNA -4705
▁ㄱㅗㄹㄷㅡㄴ -4706
▁ㄹㅣㅇㅋㅡ -4707
▁ㄱㅗㅅㅗㄱㄷㅗㄹㅗ -4708
▁ㄲㅗㅂ -4709
▁1941 -4710
▁ㅅㅏㅅㅣㄹㅅㅏㅇ -4711
▁ㅍㅗㅎㅏㅇ -4712
▁ㅂㅕㄴㅅㅜ -4713
▁ㅍㅡㄹㅣㅁㅣㅇㅓ -4714
ㅍㅓㄹ -4715
▁ㅁㅔㅁㅗㄹㅣ -4716
▁ㅅㅣㄹㅎㅕㄴ -4717
▁74 -4718
▁ㅆㅓ -4719
ㄹㅔㄱ -4720
ㅍㅗㅁ -4721
▁59 -4722
ㅔㄹㅣㅋㅏㄴ -4723
▁ㅇㅞㅅㅡㅌㅡ -4724
▁ㄷㅡㅇㅍㅏㄴ -4725
▁ㅇㅖㅈㅓㄴ -4726
ㅎㅏㄱㅅㅐㅇ -4727
ㅞㄹ -4728
▁ㅈㅏㅈㅓㄴ -4729
▁ㅈㅜㅇㄱㅣ -4730
▁ㄱㅕㅇㅈㅓㄴ -4731
▁ㅎㅏㄴㄱㅜㄱㅇㅣㄴ -4732
▁ㄱㅗㅇㅎㅓㄴ -4733
▁ㄱㅠㄴㅎㅕㅇ -4734
ct -4735
▁ㅎㅗㄴㅎㅏㅂ -4736
▁ㄴㅏㅌㅏㄴㅏㄴㄷㅏ -4737
▁ㄱㅣㅇㅗㄴ -4738
▁ㅇㅗㄹㅐㅅ -4739
ㅏㅇㅣㅇㅓㄴ -4740
▁ㅎㅘㄱㄹㅠㄹ -4741
ㄴㅚ -4742
▁ㅂㅗㄱㅗㅅㅓ -4743
▁ㅂㅐㄱㅅㅓㅇ -4744
▁Lo -4745
ㅋㅓㅁ -4746
▁ㅋㅏㄹㄹ -4747
▁ㅇㅑㄴ -4748
▁ㅂㅣㅈㅜㅇ -4749
▁ㄱㅗㅇㄹㅗ -4750
▁ㅇㅓㄴㅈㅔ -4751
▁ㅍㅡㄹㅣㄴ -4752
ㄴㅏㅂ -4753
▁ㄷㅡㄹㅏㅇㅣ -4754
▁ㅇㅗㄹㄹㅕ -4755
▁178 -4756
▁ㅈㅓㅇㅎㅏ -4757
ㅁㅜㅂㅜ -4758
▁ㅂㅏㅇㅟ -4759
▁ㅅㅜㅅㅓㄱ -4760
▁ㅂㅜㄴㄱㅣ -4761
▁ㅁㅔㄹㅣ -4762
ㅍㅗㄹㄹㅣ -4763
▁ㅁㅐㅈㅏㅇ -4764
▁ㅂㅏㅇㅇㅟ -4765
▁ㄱㅐㅅㅣㄴㄱㅛ -4766
ㅎㅡㅂ -4767
ul -4768
▁ㄷㅐㅅㅓㄴ -4769
▁ㄸㅓㄹㅇㅓㅈㅣ -4770
▁ㅊㅜㄹㄹㅕㄱ -4771
▁ㅊㅣㅁㄹㅑㄱ -4772
ㅈㅜㄱㅜㄴ -4773
▁ㅂㅜㄴㅇㅟㄱㅣ -4774
▁IC -4775
▁ㅇㅑㅇㅉㅗㄱ -4776
▁ㄱㅡㅂㅈㅔ -4777
▁ㄷㅡㄹㅇㅓ -4778
▁ㅎㅜㅅㄴㅏㄹ -4779
▁ㅎㅡㄹㅡㅁ -4780
ㄱㅗㄹㅣ -4781
ㅔㄴㅅㅡ -4782
▁ㅇㅗㄹㅐㅅㄷㅗㅇㅇㅏㄴ -4783
▁ㄱㅗㅂ -4784
▁ㄷㅏㄴㅍㅕㄴ -4785
▁ㅇㅘㅇㅅㅣㄹ -4786
▁72 -4787
▁ㅇㅣㄹㅏㅋㅡ -4788
▁ㅅㅣㅅㅏㅇ -4789
▁ㄱㅜㄷ -4790
ㅏㅇㅗ -4791
▁ㅈㅐㄱㅓㄴ -4792
▁ㄷㅐㄹㅑㅇ -4793
▁ㅈㅐㅂㅐ -4794
▁ㅈㅣㅎㅕㅇ -4795
▁ㅌㅡㄱㅂㅕㄹㅅㅣ -4796
ㅇㅙ -4797
▁ㅊㅜㅅㅏㄴ -4798
▁ㅋㅓㅁㅠㄴㅣ -4799
ㅅㅟ -4800
▁ㅇㅕㅇㅈㅣ -4801
▁ㅅㅓㄲ -4802
▁ㅌㅔㄱㅅㅏㅅㅡ -4803
▁82 -4804
▁160 -4805
▁ㅅㅏㅇㅜ -4806
▁1947 -4807
▁SS -4808
▁ㅅㅡㅇㅂㅜ -4809
▁1958 -4810
▁ㄹㅔㄱ -4811
▁76 -4812
▁ㅍㅗㅌㅡ -4813
▁ㅋㅣㄴ -4814
ㅓㅁㅍㅡ -4815
▁ㅇㅝㄴㅎㅕㅇ -4816
▁ㄱㅡㄹㅐㅍㅣㄱ -4817
▁ㅎㅏㄴㄷㅏㅁㅕㄴ -4818
▁ㅅㅣㄴㅂㅜ -4819
▁ㅋㅗㄴㅅㅡㅌㅏㄴㅌㅣㄴ -4820
▁ㄷㅜㄱ -4821
▁ㅂㅏㄹㅂㅏㄹ -4822
▁ㅇㅔㄷㅡㅇㅝㄷㅡ -4823
▁ㄱㅝㄴㅇㅟ -4824
▁ㄷㅏㅇㅣ -4825
▁ㅅㅡㅌㅔ -4826
▁ㄱㅣㅅ -4827
▁ㅌㅜㄹ -4828
▁ㅁㅠㅈㅣㅋㅓㄹ -4829
ㅋㅟ -4830
▁ㄴㅔㄱ -4831
▁ㅅㅜㄹㅣ -4832
ㅔㅇㅗㅇ -4833
▁ㅂㅗㄱㅇㅝㄴ -4834
▁to -4835
▁ㅋㅏㄹㅏ -4836
▁ㅈㅓㅁㅅㅜ -4837
▁ㅎㅏㅂㅊㅕ -4838
▁ㅎㅘㄱㄹㅣㅂ -4839
▁1956 -4840
▁ㅇㅏㅁㅜ -4841
▁ㅇㅕㅇㅘㅇ -4842
▁ㅊㅔㄴ -4843
▁ㄷㅗㅇㅁㅕㅇ -4844
ㅜㄴㅣ -4845
▁ㅍㅡㄹㅏㅇㅋㅡ -4846
ie -4847
▁ㄹㅣㅊㅓㄷㅡ -4848
▁ㅈㅓㄴㅕㄱ -4849
▁ㄴㅗㅅㅡ -4850
▁ㅇㅔㅅㅓㅂㅜㅌㅓ -4851
ㅣㄷㅡ -4852
▁ㅂㅏㄷㅏㄱ -4853
▁ㄱㅕㅇㄴㅏㅁ -4854
▁ㅅㅡㅇㄱㅐㄱ -4855
▁ㅅㅓㄱㅇㅠ -4856
▁ㅇㅣㄹㅅㅏㅇ -4857
ㅋㅗㅅㅡ -4858
ㅂㅏㄹㅡ -4859
▁ㅁㅜㅅㅏ -4860
▁ㅈㅔㅅㅏ -4861
▁ㅌㅏㅇㅣㅂ -4862
▁AFC -4863
▁77 -4864
▁ㅌㅣㅇ -4865
▁ㅁㅜㅅㅣ -4866
▁ㅈㅜㄹㄱㅣ -4867
▁ㅊㅣㅁㅇㅣㅂ -4868
▁ㅇㅣㅂㄹㅕㄱ -4869
▁;/ -4870
▁ㅂㅗㅁㅜㄹ -4871
▁ㅌㅏㅈㅏ -4872
▁ㄹㅔㅅ -4873
▁ㅂㅗㄱㅇㅡㅁ -4874
▁ㅈㅏㄱㅇㅟ -4875
▁ㅇㅏㅇㅣㄷㅗㄹ -4876
▁ㅇㅏㄵ -4877
▁ㅅㅣㅁㅅㅏ -4878
▁ㅈㅏㅇㅅㅜ -4879
▁ㅍㅗㅋㅔㅅ -4880
ㅏㅂㅣㅇㅏ -4881
▁ㅇㅓㄹㅕㅇㅜㄴ -4882
▁ㄱㅛㄱㅜ -4883
▁ㅈㅣㄴㄷㅏㄴ -4884
▁ㄷㅏㄷ -4885
▁ㄷㅣㅇ -4886
▁ㅇㅏㅅㅏ -4887
▁ㅅㅜㅇㅣㄱ -4888
ㅊㅣㅇㅏ -4889
▁ㅅㅜㅇㅛ -4890
ㅇㅡㄴㅎㅐㅇ -4891
▁ㄱㅘㅎㅏㄱㅈㅏ -4892
▁1939 -4893
▁ㅇㅓㅂㅈㅓㄱ -4894
▁ㅂㅕ -4895
▁ㅌㅏㅇㅝ -4896
▁ㄱㅏㅁㅅㅣ -4897
▁ㄱㅐㅅㅓㄹ -4898
▁ㄷㅗㅂ -4899
▁ㅇㅔㅇㅓ -4900
▁ㄱㅏㅅㅓㄹ -4901
▁ㅂㅏㄲㅏㅌ -4902
▁ㄴㅏㅍㅗㄹㄹ -4903
▁ㅂㅗㄱㅅㅜ -4904
▁ㅅㅣㅅㅏ -4905
▁ㅇㅏㄴㄷㅗㅇ -4906
▁ㅊㅏㅇㅈㅏㄱ -4907
▁Th -4908
ㅅㅔㅁ -4909
▁ㅆㅏㄹ -4910
ㅈㅣㅇㅓ -4911
▁ㅇㅕㄴㅇㅖ -4912
▁ㅎㅏㄴㄱㅡㄹ -4913
▁ㄱㅏㄱㅗㅇ -4914
▁ㅂㅡㄹㅗ -4915
▁67 -4916
▁ㅇㅏㅁㅎㅗ -4917
▁ㅎㅕㄱㅅㅣㄴ -4918
▁ㅁㅓㄹㄹㅣ -4919
▁ㅌㅔㅅㅡㅌㅡ -4920
ㅅㅜㅇㅇㅣ -4921
▁ㄷㅏㅇㄱㅜㄱ -4922
▁ㅁㅣㄴㅈㅜㅇ -4923
ㅏㅌㅏ -4924
▁ㄷㅐㄹㅣ -4925
ud -4926
▁ㅂㅗㄴㅈㅣㄹ -4927
▁ㄱㅖㅊㅡㅇ -4928
▁ㅁㅏㅅㅣ -4929
▁ㄱㅏㄹㄹㅏ -4930
▁ㅂㅏㄺㅎㅕㅈㅕㅆ -4931
▁ㄴㅏㅍㅗㄹㄹㅔㅇㅗㅇ -4932
▁ㄱㅣㅇㅜㄹ -4933
og -4934
▁ㅍㅗㄱㅌㅏㄴ -4935
▁ㄱㅡㄹㅣㅅㅡㄷㅗ -4936
▁ㅎㅐㄴ -4937
▁ㅇㅣㄹㅅㅣ -4938
▁ㅈㅏㅅㅣㄱ -4939
▁ㅇㅓㄷㅣ -4940
▁ㅅㅗㄷㅡㄱ -4941
▁ㅌㅏㅇㅣㄴ -4942
▁ㄱㅡㄹㅓㅎㄱㅔ -4943
▁ㅇㅏㅅㅡ -4944
▁ㅂㅏㅇㅅㅏ -4945
IA -4946
▁ㄱㅣㅇㅔ -4947
▁ㅈㅏㅁㅅㅜ -4948
ㅇㅙㄹㅏㄴ -4949
▁ㅇㅣㅁㅈㅣㄴㅇㅙㄹㅏㄴ -4950
▁ㅅㅣㄹㄹㅕㄱ -4951
▁ㄷㅗㅇㅇㅑㅇ -4952
▁ㄱㅕㅂ -4953
▁85 -4954
▁ㅂㅕㅇㅎㅏㅂ -4955
▁ㅊㅜㄱㄱㅜㄷㅏㄴ -4956
ㄷㅐㅂㅜ -4957
▁ㅍㅕㅇㄹㅗㄴ -4958
ist -4959
▁ㅇㅏㅇㅜㅅ -4960
ㄷㅔㅌㅏ -4961
▁ㅂㅗㄹㄹ -4962
▁ㅇㅜㅁㅈㅣㄱㅇㅣ -4963
ㅕㄱㅏ -4964
▁ㄷㅐㅇㅘㅇ -4965
▁ㅂㅓㄹㅇㅕㅆ -4966
▁ㄱㅗㅇㅈㅜㅇ -4967
▁ㅂㅏㄹㅇㅡㅁ -4968
▁ㅂㅣㄹㅂㅗㄷㅡ -4969
▁ㅎㅣㄴ -4970
▁ㅈㅜㅊㅚ -4971
▁ㄱㅓㄷㅡㅂ -4972
ㅣㅅㅡㅌㅏㄴ -4973
ㅣㅇㅏㅇㅓ -4974
ly -4975
▁ㅇㅠㄱㅣ -4976
▁ㅎㅜㄱㅖ -4977
th -4978
▁ㅎㅜㅅㅗㄱ -4979
▁ㅇㅣㄴㅅㅙ -4980
▁ㅂㅏㅇㅣㅇㅔㄹ -4981
▁ㅍㅖㅅㅙ -4982
▁ㄷㅡㅅㅇㅣ -4983
▁ㄴㅕ -4984
ㅋㅏㅁ -4985
▁ㄱㅔㅇ -4986
▁ㅎㅜㄴㅈㅏㅇ -4987
ㅈㅣㅅㅏ -4988
▁ㅅㅏㅈㅔ -4989
▁ㄱㅓㄴㄴㅓ -4990
ㅁㅣㄴㅈㅜ -4991
▁ㄱㅗㅌㅗㅇ -4992
▁ㅇㅓㄴㄷㅓㄱ -4993
▁ㄱㅏㄹㅑㅇ -4994
▁ㅈㅏㅇㅣㅇㅓㄴ -4995
▁ㄴㅐㅅㅕㄴㅓㄹ -4996
▁1954 -4997
▁ㄱㅏㄷㅏㅁ -4998
▁ㅂㅗㅅㅏㅇ -4999
▁ㄴㅗㅊㅜㄹ -5000
▁ㅁㅏㅁㅜㄹㅣ -5001
▁ㅍㅏㅇㅝ -5002
ㅊㅔㅅㅡㅌㅓ -5003
▁ㅂㅓㅅㅇㅓㄴㅏ -5004
ㅏㅌㅣㅇㅏ -5005
▁ㄷㅗㄹㅇㅏㅇㅘㅆ -5006
ㅋㅏㅇㅣㄷㅗ -5007
▁ㄷㅗㅇㅂㅏㅇ -5008
ㅣㅂㅓ -5009
ㅜㄴㅏ -5010
▁ㄱㅜㄱㅡㄹ -5011
▁ㅊㅗㅇㅎㅚ -5012
▁ㅊㅓㄴㅈㅜㄱㅛ -5013
ight -5014
▁ㅌㅏㅇㅜㄴ -5015
▁ㅇㅏㄹㅡㅁㄷㅏㅇㅜㄴ -5016
▁ㄱㅜㄱㅈㅓㅇ -5017
▁ㅍㅕㅇㅇㅏㄴ -5018
BA -5019
▁ㅍㅕㄹㅊㅕ -5020
▁ㄷㅗㅇㅛ -5021
▁96 -5022
ㅏㅇㅣㄴㅏ -5023
▁ㅅㅐㅇㅁㅜㄹㅎㅏㄱ -5024
▁73 -5025
▁ㅂㅜㅅㅏ -5026
▁ㅁㅐㅊㅔ -5027
▁Al -5028
▁ㅂㅏㄷㅇㅏㄷㅡㄹㅇㅕ -5029
▁ㄱㅣㅅㅗ -5030
▁1952 -5031
▁ㅈㅓㅇㅊㅣㄱ -5032
▁ㅂㅏㄱㅈㅓㅇㅎㅢ -5033
ㅣㅇㅏㅇㅣㄴ -5034
▁ㅇㅣㄴㅇㅛㅇ -5035
▁ㅈㅓㄴㅅㅣㄴ -5036
ㅡㄹㄹㅏ -5037
▁ㅊㅏㅁㅁㅗ -5038
▁DV -5039
ㅈㅗㅎㅏㅂ -5040
▁ㄱㅕㄹㄹㅗㄴ -5041
▁ㅇㅟㅇ -5042
▁ㅎㅐㅇㅂㅗㄱ -5043
▁ㅇㅏㅌㅔㄴㅔ -5044
▁ㅅㅏㅇㄱㅘㄴ -5045
▁ㄲㅔ -5046
▁ㄷㅗㄷㅓㄱ -5047
▁ㅌㅏㅇㅣㄱ -5048
▁ㅁㅜㅎㅏㄴ -5049
▁ㄱㅛㄹㅣ -5050
▁ㅇㅗㅁ -5051
▁ㄹㅗㅂㅗㅅ -5052
ㅏㅋㅣ -5053
▁ㅇㅣㅎㅗㄴ -5054
▁ㅇㅓㄲㅐ -5055
▁ㅌㅏㄹㅌㅚ -5056
▁ㅇㅕㄱㅎㅏㄱ -5057
▁ㅁㅟㄴ -5058
▁ㄷㅏㅅㅗ -5059
▁ㅅㅔㄹㅣ -5060
▁ㅅㅏㄴㅎㅘ -5061
▁ㄷㅜㄹㅕㅇ -5062
▁ㄹㅔㅇㅏㄹ -5063
▁ㅅㅣㄴㅈㅏ -5064
▁ㅇㅖㅂㅏㅇ -5065
▁ㅈㅏㄱㄷㅗㅇ -5066
▁ㅍㅔㄹㅡㅅㅣㅇㅏ -5067
▁81 -5068
▁ㄱㅡㅁㅏㄴ -5069
▁ㅈㅓㅇㅎㅐ -5070
ㅔㄴㅣㅇㅏ -5071
▁ㅈㅗㅈㅗ -5072
▁ㅅㅜㄷㅗㅇㅝㄴ -5073
▁ㅎㅔㅇ -5074
▁ㅂㅣㄹㅖ -5075
▁ㄱㅣㅅㅏㅇ -5076
▁* -5077
▁ㅅㅣㅁㅈㅏㅇ -5078
ㅎㅏㅇㅕ -5079
▁ㅇㅔㄱㅅㅡ -5080
▁78 -5081
ㅌㅓㅅㅡ -5082
▁ㅂㅗㅅㅏㄹ -5083
▁ㅊㅚㅎㅜ -5084
▁ㅂㅜㄷㅏㅁ -5085
▁ㄷㅐㅈㅣ -5086
▁ㅈㅜㅇㄹㅕㄱ -5087
▁ㅎㅘㄴㅅㅡㅇ -5088
ㄹㅣㄱ -5089
▁ㅇㅣㄴㅅㅐㅇ -5090
▁ㅈㅓㄹㅂㅏㄴ -5091
▁ㅂㅏㅇㅣㅇㅔㄹㅡㄴ -5092
▁ㅎㅘㅎㅏㅂ -5093
▁ㅅㅡㅌㅏㄷㅣㅇ -5094
▁ㄴㅔㅇㅣ -5095
AS -5096
▁ㅍㅣㄹㄹ -5097
ㅇㅓㅇ -5098
▁ㅂㅣㅅㅓ -5099
▁ㄱㅣㅁㅅㅓㅇ -5100
▁ㅂㅏㅇㅣㅇ -5101
ㅜㄱㅅㅡ -5102
▁ㄸㅏㄹㅗ -5103
▁ㅈㅣㅎㅑㅇ -5104
▁ㅈㅗㅎㅇㅏ -5105
▁ㅅㅐㅇㄱㅣㄴ -5106
▁ㅍㅣㅎㅐㅈㅏ -5107
▁ㅈㅐㅎㅏㄱ -5108
▁ㅋㅡㄹㅗㅇㅏㅌㅣㅇㅏ -5109
ㄱㅣㅇ -5110
▁ㅎㅘㅇㅣㅌㅡ -5111
AT -5112
▁ㄴㅐㄹㅕㅇ -5113
ㄷㅡㄹㅣㅎㅣ -5114
ㅌㅔㄹㅡ -5115
▁ㄱㅠㅈㅔ -5116
▁ㅇㅠㅎㅏㄴ -5117
▁ㅂㅜㄹㅁㅏㄴ -5118
▁ㅎㅘㅈㅏㅇ -5119
▁ㅈㅏㅇㄴㅏㅁ -5120
▁ㅅㅗㄴㅅㅏㅇ -5121
ㅍㅣㄹㄷㅓ -5122
▁ㄱㅏㄲㅏㅇㅣ -5123
▁ㅈㅣㄹㅎㅘㄴ -5124
▁ㅁㅣㄷㅡㅍㅣㄹㄷㅓ -5125
▁ㅈㅓㄴㅌㅜㄱㅣ -5126
ㅈㅏㅊㅣ -5127
▁ㄱㅐㅂㅏㅇ -5128
▁ㅅㅣㅁㅍㅏㄴ -5129
▁ㅈㅓㄴㄴㅏㅁ -5130
▁ㅇㅠㅌㅗㅇ -5131
▁ㅁㅔㄷㅏㄹ -5132
▁ㅇㅠㅅㅏㄴ -5133
▁ㅊㅓㄴㅇㅏㄴ -5134
ess -5135
ㄷㅐㄱㅣ -5136
▁ㅅㅏㅈㅏ -5137
▁ㅇㅐㄱㅅㅕㄴ -5138
▁ㄸㅜ -5139
▁ㅇㅕㅅㅓㅅ -5140
▁ㅅㅏㅁㅜㅅㅗ -5141
▁ㅇㅏㅇㅜ -5142
ㅇㅣㄹㅂㅗ -5143
▁ㄱㅜㄱㄱㅜㄴ -5144
▁ㅇㅑㄱㅁㅜㄹ -5145
▁ㅊㅗㅇㅈㅏㅇ -5146
▁ㄴㅡㄴㄷㅏㄴㅡㄴ -5147
▁ㅁㅔㅅㅣㅈㅣ -5148
▁ㅈㅜㄹㅕㄱ -5149
▁ㅇㅗㄻㄱㅕㅆ -5150
▁ㄴㅏㄴㅟㄴㄷㅏ -5151
▁91 -5152
▁ㅈㅘㅇ -5153
▁ㅃㅏㅈㅕ -5154
▁71 -5155
▁ㅎㅔㅇㅣ -5156
▁ㅂㅓㄹㅇㅣ -5157
▁ㅇㅕㄴㅅㅡㅂ -5158
▁ㄱㅏㅅㅡㅁ -5159
▁ㄱㅡㅇㅈㅓㅇ -5160
▁ㅍㅣㅎㅏ -5161
▁1959 -5162
▁ㅍㅐㅅㅕㄴ -5163
▁202 -5164
▁ㅂㅣㄹㄷㅣㅇ -5165
▁ㅅㅏㅇㅇㅕㄱ -5166
▁ㅅㅓㄴㅂㅏㄱ -5167
▁ㄷㅗㅁㅏ -5168
▁AT -5169
▁ㅈㅓㄴㅈㅣㄱ -5170
▁Li -5171
▁ㅅㅏㅇㅅㅣㄹ -5172
▁NH -5173
▁ㅂㅐㄱㅁㅏㄴ -5174
▁ㅎㅗㄴㅇㅣㄴ -5175
▁ㅇㅣㅁㅕㅇ -5176
▁ㄱㅕㄹㅇㅢ -5177
▁ㄷㅗㅇㅎㅐ -5178
▁ㅊㅓㅂㅜㄴ -5179
▁ㅁㅗㅌㅗ -5180
▁ㄷㅗㅇㅅㅓ -5181
▁ㅎㅘㅇㅎㅜ -5182
▁ㅈㅣㅅㅏ -5183
▁ㄷㅏㅇㄴㅏㄹㅏ -5184
ㅈㅣㄱㅈㅏ -5185
ㄹㅓㅁ -5186
▁ㅊㅓㅇㅈㅜ -5187
▁ㅍㅡㄹㅗㅇㅣㅅㅔㄴ -5188
ㅇㅘ -5189
▁ㄷㅣㄹ -5190
▁ㄱㅡㄹㄹㅗㅂㅓㄹ -5191
▁ㅇㅟㅅ -5192
▁ㄴㅗㄹㄹ -5193
▁ㅇㅣㄴㅇㅝㄴ -5194
▁177 -5195
▁ㄱㅘㄴㅇㅕ -5196
▁ㄱㅏㅇㅛ -5197
▁ㅇㅜㅅ -5198
ㄱㅘㄹ -5199
▁ㅅㅣㅁㅈㅣㅇㅓ -5200
▁ㅂㅜㄴㄴㅗ -5201
ㄹㅣㅎㅣ -5202
ㄱㅏㄹㅏㄱ -5203
▁ㅁㅏㄹㄹㅔㅇㅣㅅㅣㅇㅏ -5204
▁ㅂㅠ -5205
▁ㄷㅐㅊㅐㄱ -5206
IV -5207
▁ㅂㅣㅈ -5208
▁ㅅㅗㅁㅕㄹ -5209
▁ㅅㅓㄹㄷㅡㄱ -5210
▁ㅇㅗㅈㅣㄱ -5211
▁ㅇㅓㅁㅊㅓㅇㄴㅏㄴ -5212
▁ㅁㅜㄴㅅㅣㄴ -5213
▁ㅎㅐㅂㅏㄹ -5214
▁ㄷㅣㅅㅡㅋㅡ -5215
▁ㅇㅏㅁㅔㄹㅣㅋㅏㄴ -5216
▁ㅎㅏㅇㅝㄴ -5217
▁ㅇㅓㄹㅕㅇㅜㅁ -5218
▁ㅅㅡㅇㄹㅕ -5219
▁ㅇㅛㄱㅡㅁ -5220
ㄸㅡㄹ -5221
▁ㅇㅟㄷㅐ -5222
▁ㅇㅣㅇㅓㅈㅕㅆ -5223
▁1942 -5224
▁ㄱㅣㄹㅣ -5225
▁ㅊㅏㅇㄷㅏㅇ -5226
▁ㅎㅗㅅㅋㅏㅇㅣㄷㅗ -5227
▁ㄷㅏㅇㅣㅇ -5228
▁ㄱㅓㅁㅌㅗ -5229
▁ㅅㅏㄴㅅㅗ -5230
ㅏㄴㅏ -5231
ㄹㅣㄹ -5232
▁ㄱㅏㅇㅘ -5233
▁ㅇㅘㅇㅂㅣ -5234
▁ㅅㅔㅂㅜ -5235
▁ㅋㅙ -5236
▁ㄱㅜㄱㄱㅣ -5237
▁ㄴㅣㄱ -5238
ub -5239
▁ㄱㅐㅅㅓㅇ -5240
ㅓㄷ -5241
▁;, -5242
▁ㅈㅓㄱㅎㅏㅂ -5243
ㅓㅅㅡㅌㅡ -5244
▁ㄱㅣㅁㅇㅣㄹㅅㅓㅇ -5245
▁ㄱㅕㅇㅂㅜㄱ -5246
▁ㅍㅡㄹㅏ -5247
▁ㅍㅜㅅ -5248
▁ㅅㅠㄹ -5249
▁87 -5250
ㅋㅓㄷ -5251
▁ㅎㅓㅅ -5252
▁ㅈㅐㄱㅅㅡㄴ -5253
▁ㅍㅔㅇㅣㅈㅣ -5254
ㄹㅣㅎㅏㄱ -5255
▁ㅅㅓㄴㅇㅣㅁ -5256
▁ㅁㅗㅂㅏㅇㅣㄹ -5257
▁ㅈㅘㅅㅏㅇ -5258
ㅊㅔㄹㅗ -5259
▁ㅎㅜㅈㅣ -5260
▁AP -5261
▁ㅅㅏㄱㅕㄱ -5262
▁ㅂㅜㅊㅣㄴ -5263
▁ㅍㅗㅅㅡㅌㅡ -5264
ㅣㅂㅡㄴ -5265
▁1943 -5266
ㅅㅡㅌㅣㄴ -5267
▁st -5268
▁ㅇㅣㄹㄱㅣ -5269
▁ㅇㅡㅁㅇㅏㄱㄱㅏ -5270
▁ㅁㅣㅁ -5271
▁ㅂㅔㅇㅣㅅㅡ -5272
▁ㅇㅣㄹㅋㅓㄷ -5273
▁ㅌㅗㅇㅎㅘ -5274
▁ㅂㅜㄹㅇㅏㄴ -5275
▁ㅇㅕㄱㅕㅈㅣㄴㄷㅏ -5276
▁ㅎㅓㄹㅣ -5277
▁ㅈㅗㅅㅏㅇ -5278
▁ㅈㅔㅇㅣ -5279
▁ㄴㅜㄹㅡ -5280
▁ㅇㅗㄹㄹㅏㄱㅏ -5281
▁1955 -5282
▁ㅅㅣㅇㄱㅏ -5283
ㅔㄹㄹㅓ -5284
▁ㅋㅜㄷㅔㅌㅏ -5285
▁ㅇㅓㄱㅈㅔ -5286
▁ㅇㅏㅌㅡ -5287
▁ㄱㅣㄷㅗㅇ -5288
▁ㅍㅣㄹㄷㅡ -5289
▁ㅂㅣㅊㅣ -5290
▁159 -5291
▁ㅍㅡㄹㅐㅇ -5292
▁ㅈㅓㄴㄷㅏㅇ -5293
▁ㄷㅡㄹㅐㅍㅡㅌㅡ -5294
▁ㅈㅜㅅㅓㄱ -5295
▁ㅁㅏㅈㅅㅓ -5296
▁ㅇㅕㅆㅇㅡㄹ -5297
▁ㅈㅣㄴㅇㅕㅇ -5298
▁ㅋㅠ -5299
▁ㅍㅡㄹㅣㄷㅡㄹㅣㅎㅣ -5300
▁700 -5301
▁ㅇㅏㄹㄱㅗㄹㅣ -5302
▁ㅇㅣㄹㅊㅔ -5303
▁84 -5304
▁ㄱㅣㅁㅈㅗㅇ -5305
▁1953 -5306
ab -5307
ㅅㅡㅌㅡㄹㅏ -5308
▁ㅇㅝㄴㄴㅕㄴ -5309
▁ㅅㅔㄹㅡㅂㅣㅇㅏ -5310
ㅋㅡㄹㄹㅣ -5311
▁ㅅㅡㅌㅏㄷㅣㅇㅜㅁ -5312
▁ㅅㅏㅇㅅㅗㄱ -5313
ㅌㅗㅅㅡ -5314
▁ㅁㅜㄹㅛ -5315
ㅍㅜ -5316
▁ㅂㅏㄹㅌㅏㄱ -5317
▁ㅊㅐㅁㅍㅣㅇㅓㄴㅅㅣㅂ -5318
▁ㅅㅣㅇㄱㅏㅍㅗㄹㅡ -5319
▁ㄴㅡㄱ -5320
▁ㄱㅏㅈㅣㄴㄷㅏ -5321
▁ㅂㅜㅅㅏㄴㄱㅘㅇㅇㅕㄱㅅㅣ -5322
▁ㄷㅔㅅㅡ -5323
▁1936 -5324
▁ㄴㅏㅌㅏㄴㅐㄴㄷㅏ -5325
▁ㅅㅣㄴㄱㅗ -5326
▁ㅂㅗㄴㅁㅕㅇ -5327
ㄱㅛㅇ -5328
▁ㄷㅏㄹㄹㅏ -5329
ㅎㅐㅅㅓ -5330
▁ㅇㅏㅇㅣㄴ -5331
ㄱㅅㅡ -5332
▁ㅌㅔㅁㅏ -5333
▁ㅍㅗㄹㄹㅣ -5334
▁Re -5335
▁ㅍㅗㄱㄱㅕㄱ -5336
▁ㅍㅏㅇㅣㄴ -5337
▁ㅇㅣㄹㅂㅗㄴㅇㅓ -5338
▁ㅌㅗㄹㅗㄴㅌㅗ -5339
▁ㅅㅏㄷㅗ -5340
▁ㅈㅡㄱㅅㅣ -5341
▁ㅇㅏㄹㄱㅗㄹㅣㅈㅡㅁ -5342
▁ㄷㅗㄹㅇㅏㅇㅘ -5343
▁ㅎㅜㅋㅜㅇㅗㅋㅏ -5344
▁ㄷㅗㅁㅗ -5345
▁ㄱㅜㅇㅈㅓㄴ -5346
▁ㄹㅣㄹ -5347
▁ㅋㅗㄴㅌㅔㄴㅊㅡ -5348
ㅇㅠㅅㅏㄴ -5349
▁ㅎㅜㅋㅜ -5350
▁1910 -5351
▁ㅅㅏㅁㅜㅅㅣㄹ -5352
▁ㅍㅡㄹㅏㅇㅣ -5353
ㅊㅣㄹㅠ -5354
▁\ -5355
▁ㄹㅣㄷㅓ -5356
▁ㅇㅘㅇㅎㅜ -5357
▁ㅁㅔㅇㅣㅈㅣ -5358
▁ㅂㅏㄹㅁㅕㅇ -5359
▁ㅇㅕㄴㅅㅓㄹ -5360
▁ㄱㅣㅍㅇㅣ -5361
▁ㅈㅓㄴㄷㅗㅇㅊㅏ -5362
ine -5363
▁ㄱㅏㄱㄱㅜㄱ -5364
▁ㄷㅐㅊㅔㄹㅗ -5365
▁ㅇㅛㅇㄷㅗ -5366
▁ㄷㅗㅇㅂㅜㄱ -5367
▁ㅍㅓㄹ -5368
ㅌㅔㅁ -5369
▁97 -5370
▁ㅅㅏㅇㅑㅇ -5371
▁ㅇㅟㅋㅣ -5372
▁ㅂㅜㄷㅗㅇ -5373
▁ㅈㅕㅆㅇㅡㅁㅕ -5374
▁ㄲㅗ -5375
▁ㅅㅣㄴㅈㅏㅇ -5376
▁1900 -5377
▁ㄱㅜㅇㅣㅂ -5378
▁ㄱㅓㅁㅅㅐㄱ -5379
ㅅㅡㅌㅣㅇ -5380
▁ㅈㅓㅇㅊㅏ -5381
▁ㅈㅓㄴㅂㅜㄱ -5382
▁ㅅㅡㅌㅣㅂㅡㄴ -5383
▁ㅇㅠㅎㅕㅇㅁㅜㄴㅎㅘㅈㅐ -5384
▁ㅇㅡㅁㅅㅓㅇ -5385
▁ㅇㅝㄴㅈㅜㅁㅣㄴ -5386
▁ㅎㅣㅌㅡㄹㄹㅓ -5387
ㄷㅏㄱ -5388
ㅎㅣㄹㅗ -5389
ㄷㅐㅇㅣㄴ -5390
▁ㄱㅏㅁㅏ -5391
▁ㅈㅣㄴㄱㅕㄱ -5392
▁ㅈㅗㅊㅏ -5393
▁ㅂㅓㅈㅣㄴ -5394
▁ㄱㅏㅅㅣ -5395
▁ㅊㅜㅂㅏㅇ -5396
▁ㅈㅓㅇㅅㅜ -5397
ㅌㅗㄹㅣ -5398
▁ㄴㅏㅁㅇㅏㅍㅡㄹㅣㅋㅏ -5399
▁ㅈㅗㅋㅏ -5400
▁ㄴㅡㄲㅣㅁ -5401
▁ㅂㅣㄹㄹㅣ -5402
▁ㄹㅐㄴㄷㅡ -5403
▁ㅈㅓㄴㅅㅜㄹ -5404
ㅅㅣㅅㅡㅋㅗ -5405
▁ㅇㅕㅇㅇㅑㅇ -5406
▁1957 -5407
▁ㅍㅓㅇ -5408
▁ㅎㅏㅅ -5409
ㅅㅡㅌㅗㄴ -5410
▁ㄷㅏㅅㅡㄹ -5411
▁ㅈㅏㄱㅜㄱ -5412
ㅇㅝㄴㄱㅕㅇ -5413
ㄲㅏㄹ -5414
▁ㅎㅗㅅㅗ -5415
▁ㅇㅣㄹㅡㄴㄷㅏ -5416
▁DVD -5417
ew -5418
▁ㄱㅐㅊㅣㅇ -5419
▁ㅍㅗㅋㅔㅅㅁㅗㄴ -5420
▁ㅆㅡㅇㅕ -5421
▁ㅊㅗㅈㅓㅁ -5422
ㅔㄹㄹㅗㄴㅏ -5423
ㅂㅗㅅ -5424
▁ㅅㅔㅌㅡ -5425
▁ㄱㅏㅇㄹㅡㅇ -5426
ㅈㅔㄱㅜㄱ -5427
ㅏㄴㅅㅐㄱ -5428
▁ㅂㅜㄹㄱㅏㄹ -5429
ㅂㅐㅇ -5430
▁ㅅㅗㄱㅎㅐ -5431
▁ㅍㅣㄹㅅㅜ -5432
▁ㄴㅜㄹㅣ -5433
ㄷㅣㅇㅓ -5434
▁ㅅㅜㅇㅓㅂ -5435
▁ㄹㅣㅂㅓ -5436
▁ㅈㅓㄴㅅㅗㅇ -5437
▁ㅋㅜㅇ -5438
▁ㄱㅗㄱㅣ -5439
▁ㅎㅠㄷㅐ -5440
▁ㄱㅘㅇㅂㅓㅁ -5441
▁ㅅㅡㅁㅣㅅㅡ -5442
▁ㅇㅣㄴㄷㅣㅇㅓㄴ -5443
ㅂㅏㄹㅗ -5444
▁ㅇㅣㅊㅣ -5445
ue -5446
▁69 -5447
▁ㅌㅣㄱ -5448
▁ㄱㅡㅂㄱㅕㄱ -5449
▁1914 -5450
▁ㄴㅏㅇㅗㄴㄷㅏ -5451
▁ㅅㅏㅁㅏㄱ -5452
▁ㅂㅗㅇㅕㅈㅜㄴㄷㅏ -5453
▁92 -5454
▁ㅇㅗㄹㄹㅏㄱ -5455
▁ㅊㅚㅇㅜ -5456
▁ㄱㅜㅁㅐ -5457
▁ㅇㅘㄴㅂㅕㄱ -5458
▁ㄱㅗㅁ -5459
▁ㅍㅗㅅㅡ -5460
ㄷㅗㄱㅂㅜ -5461
▁ㅇㅞㅇㅣㄹ -5462
▁ㄱㅔㄷㅏㄱㅏ -5463
▁ㄱㅐㄹㅑㅇ -5464
▁ㅇㅓㅉ -5465
▁ㅂㅏㄹㅡㅅㅔㄹㄹㅗㄴㅏ -5466
ㅋㅡㄹㅗ -5467
EC -5468
ㅇㅣㅍ -5469
▁ㄸㅗㄱ -5470
▁ㅋㅗㄹㅡ -5471
▁ㅅㅓㅅㅜㄹ -5472
▁ㅈㅓㅈㅏ -5473
ㄷㅏㄹㅏㄴ -5474
ㅣㅊㅣ -5475
▁ㄷㅗㄱㅈㅐ -5476
▁ㅊㅓㄴㅁㅏㄴ -5477
▁WW -5478
▁ㅈㅣㄹㅁㅜㄴ -5479
▁ㅇㅝㄴㅅㅜ -5480
▁ㅅㅓㄴㅎㅕㅇ -5481
▁ㅇㅕㄴㄹㅏㄱ -5482
▁ㅈㅜㅅㅗ -5483
▁ㅈㅏㄴㅡㄴ -5484
▁ㅍㅏㄹㅡ -5485
▁ㄱㅗㄱㅡㅂ -5486
ㅂㅏㅂ -5487
▁ㅈㅗㅈㅣㅇㅏ -5488
ㄷㅏㅇㅣ -5489
▁ㅍㅣㅂㅜ -5490
▁ㅅㅏㄱㅘ -5491
▁101 -5492
▁ㅈㅐㅈㅡ -5493
ㄹㅣㅅ -5494
ㅅㅔㅍㅗ -5495
▁ㅁㅣㅅㅜㄹㄱㅘㄴ -5496
ㅜㅇㅏ -5497
ㅌㅡㄹㄹ -5498
▁ㄹㅏㅌㅣㄴㅇㅓ -5499
▁ㅎㅜㅇㅣㅁ -5500
▁ㅅㅡㅍㅡㄹㅣㅇ -5501
▁ㅉㅏㄱ -5502
▁ㅁㅏㄹㅡㅋㅡㅅㅡ -5503
ㅊㅗㅇㄹㅣ -5504
ㅗㅅㅔㅅㅓ -5505
▁ㅅㅏㅇㅇㅣㄴ -5506
▁ㅍㅣㅌㅓ -5507
▁1938 -5508
▁ㅂㅜㅇㅟ -5509
▁ㅌㅐㅈㅗ -5510
▁=" -5511
▁ㅂㅐㅍㅗ -5512
▁ㅅㅏㅇㅜㅅㅡ -5513
▁ㅇㅏㅍㅡㄱㅏㄴ -5514
▁ㄹㅐㅂ -5515
▁ㅅㅗㄴㅅㅣㄹ -5516
▁ㄴㅏㅋㅏ -5517
▁ㅅㅗㅂㅣㅈㅏ -5518
ㅅㅜㅁ -5519
ㅋㅔㄴ -5520
▁ㅁㅜㄹㄱㅓㄴ -5521
▁ㄹㅣㄷㅡ -5522
▁01 -5523
▁ㅇㅜㄴㅎㅏㅇ -5524
▁ㄴㅔㄹ -5525
▁ㅇㅣㄴㅐ -5526
▁ㅎㅘㄹㅕ -5527
▁ㅎㅏㄱㅅㅏ -5528
▁HD -5529
▁ㄷㅡㄹㅐㄱ -5530
ㅇㅣㅇ -5531
▁ㄹㅕㅁㅕㄴ -5532
▁ㅈㅜㅊㅔ -5533
▁ㅎㅏㅇㅕㄱ -5534
▁ㅅㅣㄹㅊㅓㄴ -5535
ㅅㅏㄴㅎㅘ -5536
▁ㄱㅡㄹㅔㄱ -5537
▁ㅅㅡㅌㅐㄴ -5538
▁1918 -5539
▁ㅁㅗㅇㅡㅁ -5540
▁ㄷㅏㄱㅌㅓ -5541
▁ㅅㅗㅎㅕㅇ -5542
▁ㅁㅏㄴㄴㅏㄴ -5543
▁ㅅㅣㄴㅐㅂㅓㅅㅡ -5544
▁ㄱㅜㅅㅏㅇ -5545
▁ㅇㅓㄴㅅㅡ -5546
▁ㅎㅘㅅㅓㄱ -5547
ㅈㅏㅋㅣ -5548
▁ㅅㅏㅌㅚ -5549
▁ㅅㅓㄱㅅㅏ -5550
▁ㄱㅗㅇㅟ -5551
▁ㅋㅗㄹㅣㅇㅏ -5552
▁ㅅㅗㅁ -5553
▁ㅇㅕㄴㅍㅕㅇ -5554
▁ㅂㅐㄱㅇㅣㄴ -5555
▁ㅇㅏㅁㅋㅓㅅ -5556
▁ㄱㅏㅂㅈㅏㄱㅣ -5557
▁ㅇㅢㅁㅜㄴ -5558
ㅂㅣㅎㅣ -5559
▁ㅇㅣㄴㅕㅁ -5560
▁ㅌㅣㄴ -5561
▁ㅅㅔㄱㅡㅁ -5562
▁ㅇㅏㅇㅜㄹ -5563
▁ㅂㅏㅇㅇㅓㄴ -5564
▁ㅇㅣㄹㄹㅕㄴ -5565
▁ㅈㅏㅂㅗㄴㅈㅜㅇㅢ -5566
▁ㄱㅜㄱㅈㅓㄱ -5567
▁ㄱㅐㅂㅕㄹ -5568
▁ㄷㅐㅁㅏㄴ -5569
▁ㅇㅠㅎㅛ -5570
▁ㄹㅔㅁ -5571
▁ㅈㅓㅇㄱㅛㅎㅚ -5572
▁ㄹㅜㄱ -5573
▁ㄹㅓㅆㄷㅏ -5574
▁ㅁㅏㄴㄴㅏㅆ -5575
BM -5576
▁ㅈㅣㅂㅎㅚ -5577
▁ㄱㅏㅁㄱㅏㄱ -5578
ㅁㅣㄴㅈㅜㄷㅏㅇ -5579
ㅅㅔㅂ -5580
▁ㅇㅖㅂㅣ -5581
▁ㅇㅗㄹㅅㅡㅌㅏ -5582
ㄱㅘㄱ -5583
ㅗㅍㅡ -5584
▁ㅇㅑㅇㄱㅜㄱ -5585
▁ㄱㅏㅅ -5586
▁ㅊㅏㄷㅏㄴ -5587
▁ㄱㅗㄱㅐㄱ -5588
▁ㅁㅐㅊㅣ -5589
ㅌㅏㄹㅡ -5590
▁1951 -5591
▁ㅂㅓㄹㅇㅓㅈㅣㄴ -5592
▁ㅂㅏㄹㄱㅏㄴ -5593
▁ㄸㅓㅇ -5594
▁ㄱㅖㄱㅗㄱ -5595
▁ㅅㅣㄴㅅㅏ -5596
ㅅㅔㅇㅣ -5597
▁ㅎㅘㅈㅔ -5598
▁ㅈㅜㄹㅇㅓㄷㅡㄹ -5599
▁ㅂㅜㄴㅎㅘ -5600
▁ㅈㅗㅅㅓㄴㅊㅗㅇ -5601
▁ㅇㅞㄹ -5602
▁ㅎㅘㅍㅖ -5603
▁ㅁㅏㅌㅣㄴ -5604
▁ㅅㅓㄴㅍㅗ -5605
ㅍㅣㄹㄷㅡ -5606
▁ㅅㅣㄹㅇㅓㅂ -5607
▁ㄱㅕㅇㅈㅔㅎㅏㄱ -5608
▁ㅈㅗㅅㅓㄴㅊㅗㅇㄷㅗㄱㅂㅜ -5609
▁on -5610
▁ㄱㅓㅈㅣㅅ -5611
▁ㅅㅐㅇㄱㅕㅆ -5612
▁ㅌㅏㄴㅇㅏㅂ -5613
ㅂㅐㅁ -5614
▁89 -5615
▁1937 -5616
ㅜㄴㅌㅡ -5617
▁1932 -5618
ㅈㅜㄱㅜㄱ -5619
▁ㅁㅟㄴㅎㅔㄴ -5620
▁ㅍㅡㄹㅏㅇㅅㅡㄱㅜㄴ -5621
▁ㄷㅡㄹㅓㅁ -5622
▁ㅁㅏㄹㅡㅌ -5623
▁ㅅㅓㅇㄴㅏㅁ -5624
▁ㅇㅜㅋㅡㄹㅏ -5625
▁ㄱㅕㄱㅍㅏ -5626
▁ㅇㅛㅇㅇㅣㄴ -5627
▁ㅂㅏㄷㅇㅏㄷㅡㄹㅇㅣ -5628
▁ㄷㅏㅇㅇㅝㄴ -5629
▁ㅅㅏㄹㅇㅏㄴ -5630
▁ㅈㅐㄱㅐ -5631
▁ㄷㅐㅇㅜ -5632
▁ㅎㅏㅇㄱㅗㅇㅅㅏ -5633
▁ㅇㅣㅇㅜㅅ -5634
▁ㅎㅜㄱㅖㅈㅏ -5635
▁93 -5636
▁ㄱㅣㅁㄷㅐ -5637
ㅐㄴㅏ -5638
▁ㅇㅘㅅㅓ -5639
▁ㅊㅣㅇㅎㅗ -5640
▁182 -5641
▁ㅂㅕㄴㅎㅏ -5642
ㄲㅡㄹ -5643
▁ㅈㅣㄴㅎㅏㄱ -5644
▁ㅊㅏㄴㅅㅓㅇ -5645
▁ㅊㅔㅎㅓㅁ -5646
▁ㅎㅚㄹㅗ -5647
▁ㄷㅏㅇㅣㅁ -5648
▁ㅅㅣㅇㅇㅓ -5649
▁ㅊㅜㄱㅣㄱㅕㅇ -5650
▁ㄱㅓㅌ -5651
▁ㅋㅓㅂㅓ -5652
▁ㅁㅕㄴㅇㅕㄱ -5653
▁ㅋㅡㄹㅗ -5654
▁ㅋㅡㄹㄹㅗ -5655
▁1935 -5656
ect -5657
ㅇㅓㄴㅏㅆ -5658
▁ㄱㅗㅇㅑㅇㅇㅣ -5659
ㅜㄹㅡㅌㅡ -5660
▁ㅈㅣㄹㅅㅓ -5661
▁ㄱㅗㄱㅅㅓㄴ -5662
▁ㅇㅏㅇㅣㅅㅡ -5663
▁ㅎㅢㄴㅅㅐㄱ -5664
▁ㅂㅣㅎㅐㅇㄱㅣ -5665
▁ㅎㅏㅂㄴㅣㄷㅏ -5666
▁ㄱㅘㅇㅂㅓㅁㅇㅟ -5667
ㅐㅁㅐ -5668
▁ㅇㅣㅎㅐㅇ -5669
ㅋㅐ -5670
▁ㅇㅠㅌ -5671
▁ㅂㅜㅈㅣ -5672
▁ㄴㅐㄴㅗㅎ -5673
▁ㅍㅗㄹㅡ -5674
▁ㅎㅏㅇㅇㅢ -5675
▁ㅈㅏㅅㅏㄴ -5676
▁ㅈㅓㅂㅎㅏㄴㄷㅏ -5677
▁ㅅㅏㅊㅏㄹ -5678
▁ㅅㅔㅇㅝㄹ -5679
▁ㄱㅗㅇㅅㅣㄴ -5680
▁Be -5681
▁ㅇㅣㅈㅏ -5682
▁ㅁㅏㄱㄷㅐ -5683
▁ㄷㅓㅅㅂㅜㅌ -5684
▁ㅅㅏㄱㅣ -5685
ㅂㅔㄴ -5686
▁ㅇㅏㅌㅣㅅㅡㅌㅡ -5687
▁ㅊㅗㄱㅈㅣㄴ -5688
ㅅㅠㅌㅏㅇㅣㄴ -5689
▁ㅇㅕㅇㅇㅝㄴ -5690
▁ㅅㅓㄹㅊㅣㄹㅠ -5691
▁ㅋㅡㄹㄹㅐㅅㅣㄱ -5692
▁ㅌㅡㄹㅔㅇㅣㄷㅡ -5693
ㅅㅏㅈㅓㄴ -5694
▁ㄲㅜㅈㅜㄴ -5695
ㄷㅡㄹㅗ -5696
ㅌㅣㅅㅡ -5697
▁ㄱㅜㅁㅓㅇ -5698
▁ㅌㅏㅇㅠㄹ -5699
▁ㅈㅡㅇㅇㅓㄴ -5700
▁ㄹㅜㅁㅏㄴㅣㅇㅏ -5701
▁ㅁㅣㄹㅣ -5702
▁ㄱㅐㅊㅓㄱ -5703
▁ㅁㅜㄹㅡ -5704
▁ㄱㅡㄱㄷㅏㄴ -5705
ㅏㅇㅣㅌㅡ -5706
▁ㄱㅏㅅㅗㄱ -5707
ㄷㅗㅇㅅㅐㅇ -5708
▁ㄷㅏㅇㅎㅐ -5709
▁ㅇㅜㄴㅅㅗㅇ -5710
▁ㅂㅗㅅㅡ -5711
▁ㅈㅜㄹㅇㅣ -5712
▁ㅇㅠㅂㅐ -5713
▁ㅅㅜㅊㅣ -5714
▁ㅂㅗㅍㅕㄴ -5715
▁ㅂㅓㅂㅎㅏㄱ -5716
ㅗㅅㅏㄴ -5717
▁ㅅㅡㅂㄱㅕㄱ -5718
▁OS -5719
▁ㅂㅜㄴㄱㅛ -5720
▁ㅈㅓㄴㅁㅏㅇ -5721
▁ㅇㅕㅇㅈㅜ -5722
▁ㅈㅓㄴㅈㅓㄱ -5723
▁ㅎㅓㄹㅏㄱ -5724
ore -5725
▁ㅅㅗㅁㅜㄴ -5726
▁ㅅㅜㅂㅐㄱ -5727
▁ㅇㅑㅇㅅㅏㄴ -5728
ㅣㅇㅓㄹㅗ -5729
▁94 -5730
▁ㅅㅗㅎㅘ -5731
▁ㅊㅜㄱㅅㅗ -5732
ㅣㅇㅏㅅㅡ -5733
ㄱㅗㄴ -5734
▁ㅅㅗㅇㅟ -5735
▁ㅅㅏㅇㅅㅜ -5736
▁ㄴㅐㅅㅔㅇ -5737
ㅌㅗㄹㅣㅇㅏ -5738
▁ㅌㅏㄴㅎㅐㄱ -5739
our -5740
▁ㅁㅗㄱㅅㅓㅇ -5741
▁ㄷㅏㅋㅔ -5742
ㄷㅏㅅㅜ -5743
▁ㅁㅜㄹㄱㅗㄱㅣ -5744
ㅈㅐㄱ -5745
▁ㅎㅗㄴㅈㅏ -5746
▁ㅁㅏㅅㅡㅌㅓ -5747
▁ㅎㅣㅇㅓㄹㅗ -5748
IN -5749
ㅁㅏㄴㅏ -5750
▁ㅂㅣㅈㅏㄴ -5751
▁ㅅㅡㅋㅡㄹㅣㄴ -5752
▁ㅈㅏㅁㅅㅜㅎㅏㅁ -5753
ell -5754
▁ㅈㅣㅅㅜ -5755
▁ㅌㅡㄹㅏ -5756
▁ㅅㅣㄴㄷㅗ -5757
▁ㄱㅏㅇㄴㅏㅁ -5758
▁ㅂㅜㄹㄱㅏㄹㅣㅇㅏ -5759
▁ㅎㅓㅂ -5760
▁ㅎㅣㅁㄷㅡㄹ -5761
▁ㅇㅑㄱㅎㅘ -5762
▁ㅋㅡㄹㅗㅅㅡ -5763
▁ㄷㅐㅂㅓㅂㅇㅝㄴ -5764
ㅈㅓㅅㅡ -5765
▁ㅅㅡㅌㅗㄴ -5766
▁1933 -5767
▁ㄱㅓㅊㅣ -5768
▁ㄴㅗㄹㅡ -5769
▁ㄹㅛ -5770
ㅗㅇㅓ -5771
▁ㅈㅣㄱㅁㅜ -5772
▁ㅇㅣㄹㅇㅡㅋㅕ -5773
▁ㅅㅗㅈㅣㅂ -5774
▁CP -5775
ㅅㅡㅌㅣㄱ -5776
▁ㄷㅐㅊㅣㅇ -5777
▁FM -5778
▁ㅌㅐㅈㅗㅇ -5779
ㅁㅜㄴㅢ -5780
ㅁㅣㅌㅓ -5781
ㅈㅗㅅㅓㄴ -5782
▁ㅈㅗㅎㅏㅇ -5783
ㅌㅜㅅㅡ -5784
ㅏㄱㅏㅇㅘ -5785
▁ㄷㅗㅇㅎㅘ -5786
ㅂㅏㅋㅣㅇㅏ -5787
▁ㄱㅡㄹㅣㅎㅏㅇㅕ -5788
▁ㄷㅗㅇㄱㅜㄹ -5789
▁ㅇㅕㅇㄱㅜ -5790
ㅎㅜㄱ -5791
▁ㅊㅜㅇㅂㅜㄴㅎㅣ -5792
▁ㅃㅕ -5793
▁ㅁㅜㅇㅛㅇ -5794
▁ㅍㅡㄹㅗㄱㅡㄹㅐㅁㅣㅇ -5795
▁ㄴㅜㅅㅡ -5796
ㄷㅗㅅㅏ -5797
▁ㅅㅓㄴㅎㅗ -5798
▁ㅅㅜㅅㅣㅂ -5799
▁ㅇㅣㄹㅡㄴㅂㅏ -5800
▁ㅈㅓㅇㅌㅗㅇ -5801
▁ㅅㅣㅅㅣㄴ -5802
ㅊㅜㅇㅓ -5803
▁ㄴㅏㅁㄱㅣ -5804
▁ㅈㅜㅇㅣㄹ -5805
▁1928 -5806
▁ㄷㅗㄹㅇㅏㅇㅗ -5807
▁ㅅㅡㅌㅗ -5808
▁ㅈㅓㅇㄹㅠ -5809
▁ㅎㅏㅇㅕㄱㅡㅁ -5810
▁ㄴㅗㄹㅣ -5811
▁ㅆㅡㅇㅕㅆ -5812
▁ㅌㅡㅁ -5813
▁ㅅㅏㅇㅈㅜ -5814
ers -5815
▁ㅍㅏㄹㅏ -5816
▁ㄱㅐㄹㄹㅓㄱ -5817
▁ㄷㅏㅇㅅㅣㄴ -5818
▁ㄱㅐㅁㅕㅇ -5819
▁ㅅㅏㄴㅈㅣ -5820
ID -5821
▁ㄴㅣㅇ -5822
▁ㅍㅓㄴ -5823
▁ㅊㅣㄹㅡ -5824
▁ㅅㅔㄹㅡ -5825
▁ㄷㅗㅇㄱㅕㅇ -5826
▁ㅎㅕㅇㅅㅏㅇ -5827
▁ㄷㅗㄹㅇㅏㅇㅗㄴ -5828
▁ㅍㅏㄴㅈㅓㅇ -5829
▁09 -5830
▁ㅋㅗㄹㄹㅗㅁ -5831
▁ㅎㅐㅈㅔ -5832
▁ㅅㅡㅍㅔㄱ -5833
▁79 -5834
▁ㅈㅐㄴㅡㅇ -5835
▁1924 -5836
▁ㅊㅣㄹㄹㅔ -5837
▁ㄷㅐㄴㅅㅡ -5838
▁ㅇㅐㄱㅊㅔ -5839
▁04 -5840
▁ㅌㅜㅅㅡ -5841
▁ㅈㅣㅂㅜㄹ -5842
▁ㄱㅜㄹㅡㅁ -5843
▁ㅂㅜㅅㅗㄱ -5844
ㅋㅗㅍㅡ -5845
▁ㄱㅐㅈㅏㅇ -5846
▁ㅈㅏㅇㅣㅇㅓㄴㅊㅡ -5847
▁ㅈㅣㄴㅅㅣㄹ -5848
ㅜㄱㅏㅇㅘ -5849
▁110 -5850
▁ㅂㅜㄹㄱㅏ -5851
ㅓㅅㅓㄴ -5852
▁ㅌㅗㄷㅐ -5853
▁ㄷㅏㄴㅅㅜㄴㅎㅣ -5854
▁ㅇㅣㅂㄷㅐ -5855
▁ㅈㅣㅈㅜㅇ -5856
▁ㅌㅗㅁㅏㅅㅡ -5857
▁ㅇㅣㄱㅅㅡ -5858
end -5859
▁ㄱㅏㅇㅈㅓㄴ -5860
▁ㅇㅣㅂㅔㄴㅌㅡ -5861
▁ㅇㅝㄴㅈㅏㄹㅕㄱ -5862
▁ㅇㅕㄹㅁㅐ -5863
▁ㅎㅏㅂㄷㅗㅇ -5864
▁ㄱㅗㅅㅣ -5865
▁ㅍㅏㅋㅣㅅㅡㅌㅏㄴ -5866
▁ㅇㅏㅁㅜㄹ -5867
▁ㄷㅗㅇㅇㅣㄴ -5868
▁ㅇㅗㄹㅠ -5869
▁ㅈㅓㅇㅁㅕㄴ -5870
ㅣㅇㅓㅁ -5871
ㅍㅐㄱ -5872
▁08 -5873
▁ㅅㅣㅁㅏ -5874
ㅅㅣㅇㅗ -5875
▁ㄱㅏㄴㅂㅜ -5876
▁ㅇㅡㄴㅣ -5877
▁ㅈㅓㄴㅈㅔ -5878
▁ㅈㅣㅍㅛ -5879
▁170 -5880
▁ㅌㅡㄹㅗ -5881
▁ㅍㅡㄹㅗㅌㅗ -5882
▁ㄴㅣㄹ -5883
▁ㄷㅐㅅㅡㅇ -5884
▁ㄱㅓㄹㅊㅣㄴ -5885
▁ㅂㅜㄴㅅㅏㄴ -5886
ill -5887
▁ㄴㅗㅌㅡ -5888
▁ㅇㅣㅇㅘ -5889
ㅂㅡㄴ -5890
▁ㅈㅜㅁㅜㄴ -5891
▁ㄱㅕㅇㄱㅗ -5892
▁ㅅㅏㅇㄷㅐㅅㅣㄱ -5893
▁ㅇㅏㅁㅏㅊㅜㅇㅓ -5894
ㅌㅔㄱ -5895
▁ㅈㅜㄴㅣㅇㅓ -5896
▁ㅅㅓㅂㅏㅇ -5897
▁ㅍㅡㄹㅏㅇㅅㅡㅇㅓ -5898
ㅍㅔㅇㅣㅅㅡ -5899
▁ㅌㅗㅊㅏㄱ -5900
▁Co -5901
▁ㅁㅜㄹㅕㄱ -5902
▁ㄱㅏㄴㅏㄴ -5903
▁ㅎㅚㅅㅐㄱ -5904
▁ㅅㅜㅈㅏㅇ -5905
▁ㅈㅐㅅㅐㅇ -5906
▁MS -5907
▁ㅇㅓㅁㄱㅕㄱ -5908
▁ㅈㅏㅇㅈㅓㅁ -5909
▁ㅎㅗㅎㅡㅂ -5910
ㅔㄴㅗ -5911
▁ㄱㅜㄱㅌㅗ -5912
▁ㅅㅜㅋㅓㅅ -5913
▁ㅂㅗㅅㅡㅌㅓㄴ -5914
▁ㅈㅜㅇㅓㅈㅕㅆ -5915
▁ㄷㅐㄱㅜㄱ -5916
▁ㅅㅗㄴㅎㅐ -5917
▁ㅊㅗㅅㅏㅇ -5918
▁ㅂㅓㅂㅇㅏㄴ -5919
ain -5920
▁ㄹㅏㅅㅡ -5921
▁ㅂㅐㅇㅕㄹ -5922
▁ㄱㅗㄱㅛ -5923
▁ㅇㅠㅊㅣ -5924
▁ㅈㅏㄹㅏㅇ -5925
▁ㅈㅜㅇㄷㅗㅇ -5926
▁ㅃㅓㄷ -5927
▁ㄷㅡㄹㅇㅓㅇㅗ -5928
▁ㅇㅢㅈㅓㅇㅂㅜ -5929
▁ㅎㅏㄷㅡ -5930
▁ㄱㅏㄲㅏㅂ -5931
▁ㅇㅏㅁㅣ -5932
▁ㅊㅣㅂ -5933
▁ㅎㅡㄴㅈㅓㄱ -5934
▁ㅅㅓㅇㅅㅓ -5935
▁ㅎㅐㅇㅈㅓㄱ -5936
▁ㅂㅔㄴㅔㅊㅣㅇㅏ -5937
▁ㅍㅕㄴㅇㅢ -5938
▁ㅂㅜㅅㅓ -5939
▁ㅎㅐㅅㅓㄹ -5940
▁ㅇㅣㄹㄷㅏㄴ -5941
AN -5942
▁{ -5943
▁ㅎㅔㄹㅡ -5944
ㅓㅁㅓㄴㅌㅡ -5945
ard -5946
ㅏㅇㅑ -5947
▁ㅁㅏㅈㅜ -5948
▁ㅍㅕㅇㅁㅕㄴ -5949
▁ㅁㅐㄴㅊㅔㅅㅡㅌㅓ -5950
ㅉㅏㄱ -5951
▁ㅂㅜㄱㅁㅣ -5952
▁ㅇㅣㄴㅁㅣㄴㄱㅜㄴ -5953
ㄱㅏㅄ -5954
▁ㅃㅏㅇ -5955
▁ㄷㅏㅇㄷㅐ -5956
▁83 -5957
▁ㅈㅣㅈㅣㄹ -5958
▁ㄹㅔㅇㅗ -5959
ㅅㅓㅇㄱㅣ -5960
▁ㅎㅣㅂㅎㅏㅂ -5961
ㅡㄴㅗ -5962
▁ㅌㅗㄴㅓㅁㅓㄴㅌㅡ -5963
▁De -5964
ㅌㅡㅁ -5965
▁ㅇㅛㅋㅗㅎㅏㅁㅏ -5966
▁ㅁㅔㅌㅏㄹ -5967
ㅈㅣㅁㅏ -5968
▁ㅈㅜㅇㄱㅖ -5969
ㅂㅜㅇㅣㄴ -5970
▁ㅇㅑㄷㅏㅇ -5971
▁ㅎㅐㅇㅎㅏ -5972
▁ㅅㅡㅋㅔㅇㅣ -5973
▁ㄱㅕㅇㅂㅣ -5974
▁ㅁㅣㅆㅡ -5975
▁ㅍㅔㄹㅣ -5976
▁ㄱㅏㅇㅇㅛ -5977
▁ㄷㅐㅇㅝㄴ -5978
▁ㄹㅔㄴㅣㄴ -5979
▁ㅁㅏㄱㅏㅁ -5980
▁ㅈㅐㅇㅣㅁ -5981
▁ㄹㅏㅇㅣㅍㅡ -5982
▁ㅅㅔㅇㅝㅈㅕㅆ -5983
▁ㅃㅜㄹ -5984
ㅇㅗㄴ -5985
▁ㅋㅡㄹㅣ -5986
ㄱㅏㅌ -5987
ㅅㅡㅁ -5988
▁ㅅㅏㄷㅏㅇ -5989
▁ㅍㅠ -5990
ㄹㅠㄴ -5991
ㄸㅡㄹㅣ -5992
▁ㅊㅗㅇㅈㅐ -5993
▁ㅅㅔㄹㅗ -5994
▁ㅋㅡㄹㅜ -5995
▁ㅅㅓㄴㄹㅗ -5996
▁ㅊㅜㅈㅓㄱ -5997
ㅟㄹ -5998
▁1934 -5999
▁ㄱㅐㅊㅏㄹ -6000
▁ㅎㅏㄴㅅㅓㅇ -6001
▁ㅎㅕㄹㅇㅐㄱ -6002
▁ㄷㅡㅁㅜㄹ -6003
▁ㅂㅏㄴㅅㅏ -6004
▁ㄱㅜㄱㅂㅏㅇㅂㅜ -6005
▁ㄱㅡㄴㅇㅠㄱ -6006
▁ㄷㅐㅅㅏㄱㅘㄴ -6007
▁ㅇㅏㄴㅉㅗㄱ -6008
▁ㄸㅏㄴ -6009
ㅋㅏㅇㅗ -6010
▁ㄴㅏㅅㅓㅆ -6011
▁ㄴㅡㄱㄷㅐ -6012
▁ㅂㅕㅅㅡㄹ -6013
▁ㅍㅜㅇㅅㅗㄱ -6014
ㅋㅜㄹ -6015
▁ㅅㅓㄴㅁㅜㄹ -6016
▁ㅂㅏㄹㅈㅓㄴㅅㅗ -6017
▁ㅇㅣㅂㄱㅜ -6018
▁ㅈㅏㅇㄹㅖ -6019
▁ㄴㅗㅇㅈㅏㅇ -6020
▁ㅎㅏㄹㅇㅏㅂㅓㅈㅣ -6021
▁ㄴㅗㄹㅇㅣ -6022
▁ㄱㅘㄴㄱㅖㅈㅏ -6023
ㅋㅣㅍㅓ -6024
▁ㅁㅔㅌㅡㄹㅗ -6025
▁ㅅㅡㅌㅏㄹㄹㅣㄴ -6026
▁ㅌㅏㅅ -6027
ㅡㄹㄹㅔ -6028
▁ㅎㅏㅁㄱㅕㅇ -6029
▁ㄱㅗㄹㅋㅣㅍㅓ -6030
▁ㄱㅕㅇㅊㅏㄹㅅㅓ -6031
▁ㅋㅗㅇㅓ -6032
▁ㅂㅗㄴㄷㅏ -6033
▁ㅎㅘㅎㅏㅂㅁㅜㄹ -6034
▁ㄴㅣㅅㅣ -6035
▁ㄹㅡㄴㅔ -6036
▁ㅈㅓㅂㅅㅗㄱ -6037
▁ㅅㅣㄱㅖ -6038
ㅠㅋㅣ -6039
▁ㄷㅗㅋㅜㄱㅏㅇㅘ -6040
▁ㅂㅜㅈㅏㄱ -6041
▁ㅁㅏㅈㅓ -6042
▁ㅎㅕㄴㅈㅗㄴ -6043
▁ㅋㅗㄴㅓ -6044
▁ㅈㅜㅇㅈㅣ -6045
▁ㄴㅗㅇㅊㅗㄴ -6046
ㅗㅇㅑ -6047
▁ㄴㅗㅎㅇㅕ -6048
▁ㅊㅓㄹㅎㅏㄱㅈㅏ -6049
▁ㄱㅏㅇㄷㅗ -6050
▁ㅌㅣㅂㅔㅌㅡ -6051
▁ㄴㅗㄷㅗㅇㄷㅏㅇ -6052
▁ㅅㅣㅁㄹㅣㅎㅏㄱ -6053
▁ㅇㅕㄱㅈㅓㄴ -6054
▁ㄱㅘㅇㅅㅏㄴ -6055
▁ㅍㅣㄹㄹㅣㅂ -6056
ㅋㅡㄹㅐㅍㅡㅌㅡ -6057
▁ㄴㅡㄴㅑ -6058
▁ㄱㅘㄴㄱㅐㄱ -6059
▁ㅈㅡㅇㄱㅝㄴ -6060
▁ㄱㅓㅈㅓㅁ -6061
▁ㅅㅏㅁㅏㅇㅈㅏ -6062
▁ㄹㅣㅅㅡㅌㅡ -6063
ㅅㅔㄷㅐ -6064
ㄹㅓㅇ -6065
▁ㄱㅗㄴㅊㅜㅇ -6066
▁130 -6067
▁ㅇㅗㅇㅕㅁ -6068
ne -6069
▁Me -6070
▁ㄷㅐㄷㅗㅇ -6071
ㅇㅘㄴ -6072
▁ㅇㅠㅂㅏㄹ -6073
ㅆㅡㅁ -6074
▁ㅇㅝㄴㅅㅣ -6075
▁ㅅㅜㅈㅣㄱ -6076
▁ㄹㅓㅂㅡ -6077
▁ㅈㅗㅁㅜㄴ -6078
▁ㅈㅓㅇㅎㅘㄱㅎㅣ -6079
▁ㄴㅏㅁㄱㅡㄱ -6080
▁ㅅㅏㅇㅣㄷㅡ -6081
▁ㅅㅣㄱㄹㅑㅇ -6082
▁ㅍㅡㄹㄹㅗㄹㅣ -6083
▁ㅈㅗㄴㅅㅡ -6084
▁ㅍㅗㄷㅡ -6085
▁ㄷㅗㅇㅁㅔㄷㅏㄹ -6086
▁ㅌㅗㅁㅓㅅㅡ -6087
▁ㅈㅐㅍㅏㄴㅅㅗ -6088
▁ㅁㅏㅅㅏㄴ -6089
▁ㅍㅗㄱㅍㅜㅇ -6090
▁ㄷㅡㄱㅍㅛ -6091
▁ㅎㅏㅇㅎㅐ -6092
▁ㅈㅣㄴㄷㅗㅇ -6093
▁ㄴㅏㅅㅓㄴ -6094
▁Sh -6095
▁ㅈㅜㅈㅐ -6096
▁ㄷㅗㄱㅈㅓㅁ -6097
▁140 -6098
▁ㅈㅗㅇㅈㅓㄴ -6099
ㅣㅇㅗㄹ -6100
▁ㄱㅡㄹㅓㅁㅡㄹㅗ -6101
▁ㄱㅡㄹㅣㅅㅡㅇㅓ -6102
ㅊㅏㄹㅗ -6103
▁ㅋㅜㅂㅏ -6104
▁ㄲㅜㄴ -6105
▁ㅇㅣㄴㅌㅔㄹ -6106
▁ㅈㅜㅇㅅㅓㅇ -6107
▁ㄷㅐㄷㅏㅅㅜ -6108
▁ㅋㅐㅂ -6109
▁ㅂㅗㄴㅌㅗ -6110
▁ㄷㅐㄱㅕㄹ -6111
▁ㅌㅣㄹ -6112
▁ㄷㅓㅂㅡㄹ -6113
▁ㅊㅗㅊㅓㅇ -6114
▁ㅂㅗㅇㄱㅣ -6115
▁ㄷㅐㅁ -6116
▁ㅇㅣㅈㅓㅇ -6117
▁ㅇㅗㄹㄹㅣㅂ -6118
▁ㅇㅏㅍㅡㄱㅏㄴㅣㅅㅡㅌㅏㄴ -6119
▁ㅂㅜㅊㅓ -6120
▁ㅇㅡㄴㅁㅔㄷㅏㄹ -6121
▁ㅇㅗㄱㅏ -6122
▁ㅈㅏㅁㅐ -6123
▁ㅎㅟㅎㅏ -6124
▁ㄴㅏㅁㄴㅕ -6125
▁ㅋㅡㄹㄹㅐㅅㅡ -6126
▁WWE -6127
▁ㅎㅣㄹㅗㅅㅣㅁㅏ -6128
ㅇㅔㄷㅗ -6129
▁ㅇㅠㄷㅐㅇㅣㄴ -6130
▁ㅇㅣㅅㅡ -6131
▁ㅋㅏㄹㄹㅣㅈㅣ -6132
▁ㅌㅡㄱㅂㅕㄹㅎㅣ -6133
OR -6134
ㅌㅡㄴㅣ -6135
▁ㅇㅏㄱㅘ -6136
▁ㅈㅓㅇㅈㅗ -6137
▁ㅊㅓㄹㄱㅓ -6138
▁ㅋㅣㅅㅡ -6139
▁ㅎㅣㄱㅏ -6140
▁ㄱㅗㄹㄷㅡ -6141
▁ㅅㅓㄱㅂㅏㅇ -6142
▁ㅂㅣㅅ -6143
▁ㄹㅏㅇㅣㅇㅗㄴ -6144
▁ㄱㅛㅎㅑㅇㄱㅗㄱ -6145
▁ㅎㅞ -6146
▁ㅁㅕㄹㅈㅗㅇ -6147
ㄷㅗㄹㅍㅡ -6148
▁ㅅㅏㄱㅘㄴ -6149
▁ㅍㅏㅇㅜㄹ -6150
▁ㅊㅔㅇㅠㄱㄱㅘㄴ -6151
▁ㄸㅏㄱ -6152
▁ㅅㅐㄲㅣ -6153
▁ㅂㅜㄷㅡㄹ -6154
▁ㅂㅏㄱㄱㅡㄴ -6155
▁ㄷㅐㅎㅏㄴㅈㅔㄱㅜㄱ -6156
▁ㄱㅣㄱㅏㅂ -6157
▁ㅂㅜㅍㅜㅁ -6158
▁ㅅㅐㅂㅕㄱ -6159
▁ㅈㅏㅇㅠㅈㅜㅇㅢ -6160
▁ST -6161
▁ㅁㅐㅈㅜ -6162
▁ㅂㅔㄹㅣ -6163
▁ㅂㅗㄹㅡ -6164
▁ㄲㅡㄴ -6165
▁ㅇㅣㅇㅓㅅㅓ -6166
ㅡㄹㅏ -6167
ㅡㄴㅣㅁ -6168
▁th -6169
AM -6170
ㅋㅡㄹㄹㅣㄴ -6171
ㅏㄹㅡㅌㅏ -6172
▁ㄴㅗㅂㅜ -6173
▁ㅍㅏㅌㅣ -6174
▁ㅇㅟㅇㅏㄴ -6175
▁ㅅㅏㅅㅣㄴ -6176
▁ㅎㅜㄹㄹㅠㅇ -6177
▁ㄱㅡㄹㅐㅍㅡ -6178
ㄴㅗㅇ -6179
▁ㅇㅠㄹㅕㄱ -6180
▁ㅈㅗㅇㅅㅏ -6181
▁ㅅㅓㅇㅁㅕㅇ -6182
▁ㄷㅗㄹㄹㅕ -6183
▁ㅇㅝㄴㅈㅗ -6184
▁ㅍㅔㅇ -6185
▁1931 -6186
▁ㅇㅣㅅㅡㅌㅡ -6187
all -6188
▁ㄱㅡㄹㄹㅣ -6189
▁ㅈㅓㄴㅎㅏㄴ -6190
▁ㅍㅕㄹㅊㅕㅆ -6191
ㅇㅠㄹㅓㅂ -6192
▁ㅎㅏㅂㄹㅣ -6193
▁ㅈㅓㄴㅈㅏㄱ -6194
▁ㅂㅗㅇㅎㅐㅈㅕㅆ -6195
▁ㄱㅏㄴㄱㅕㄱ -6196
▁ㅋㅐㅁㅍㅡ -6197
▁ㄱㅡㅁㄱㅏㅇ -6198
▁ㅇㅣㄹㄱㅗㅂ -6199
▁ㅌㅏㅈㅓㅁ -6200
ㅗㄱㅡ -6201
▁ㄱㅣㅅㅐㅇ -6202
▁ㅌㅏㅇㅝㄴ -6203
▁ㄱㅏㅁㅇㅗㄱ -6204
▁ㅈㅓㄱㅇㅓ -6205
▁ㅎㅏㄴㅡㄴㅣㅁ -6206
▁ㄱㅏㅇㄷㅡㅇ -6207
▁ㅈㅗㄴㅅㅡㄴ -6208
▁ㅌㅡㄹㅐㄴㅅㅡ -6209
▁ㅁㅜㄴㅂㅓㅂ -6210
▁An -6211
ㅜㄹㅕㅅ -6212
▁ㄱㅣㅂㅕㅇ -6213
▁ㄸㅜㄹㅕㅅ -6214
ang -6215
▁ㅊㅏㅈㅇㅏㅇ -6216
▁ㅁㅕㅇㅅㅣ -6217
ㅋㅡㄹㅣㅌㅡ -6218
▁ㄷㅏㄴㅈㅏㅇ -6219
ㅏㅇㅝ -6220
▁ㄱㅗㅇㅅㅔ -6221
▁ㅇㅠㄴㄹㅣ -6222
▁ㅇㅣㄴㅌㅓㅍㅔㅇㅣㅅㅡ -6223
▁ㄷㅐㅂㅕㄴ -6224
ㅌㅣㅇㅗ -6225
▁ㅎㅜㅌㅚ -6226
▁ㅈㅣㅊㅣㅇ -6227
ㄹㅗㅅㅡ -6228
▁ㅎㅐㅎㅕㅂ -6229
▁ㅅㅗㅇㅛ -6230
▁250 -6231
▁ㅅㅔㅈㅏ -6232
▁ㄴㅔㅇㅣㅅㅕㄴ -6233
▁ㅈㅘㅍㅏ -6234
▁ㅈㅣㅎㅟㄱㅘㄴ -6235
▁ㅅㅡㅌㅡㄹㅏㅇㅣ -6236
ㅔㄷㅏ -6237
▁ㄱㅗㅇㄹㅛㅇ -6238
ㄱㅝㄹ -6239
ㅌㅣㄹ -6240
▁1921 -6241
▁ㅈㅜㅈㅏ -6242
ㅇㅣㄴㄷㅏ -6243
ㄹㅗㄷㅡ -6244
▁ㅋㅓㄷㅏㄹㅏㄴ -6245
▁ㅅㅜㅂㅏㄴ -6246
▁ㅊㅓㅅㅉㅐ -6247
▁ㅈㅣㅂㅍㅣㄹ -6248
▁ㄱㅡㄱㅂㅗㄱ -6249
▁ㅅㅡㅌㅔㅇㅣㅅㅕㄴ -6250
▁ㅍㅕㅇㄹㅗㄴㄱㅏ -6251
▁cod -6252
ㅎㅣㄴㄷㅏ -6253
▁ㅇㅕㅇㅎㅗㄴ -6254
▁ㄴㅏㅌ -6255
▁ㅁㅜㄴㅢ -6256
▁ㅁㅣㅅㅡ -6257
▁176 -6258
▁ㅅㅜㅅㅏㄴ -6259
▁ㅇㅕㄴㅎㅗ -6260
▁ㄷㅐㄱㅏ -6261
▁ㅇㅗㅇㅣ -6262
▁ㅈㅣㅋㅕ -6263
ㅊㅓㅁ -6264
▁ㄷㅏㄻ -6265
▁ㄷㅗㅇㅅㅓㅇㅇㅐ -6266
▁ㅂㅐㅇㅝㅆ -6267
ㅅㅐㅇㅎㅘㄹ -6268
▁ㄷㅓㄱㅂㅜㄴ -6269
▁ㄷㅗㅇㅂㅏㄴ -6270
▁ㅇㅝㄴㅈㅏㅇ -6271
▁ㅎㅕㅂㅇㅑㄱ -6272
▁ㅅㅏㅁㅜㄹ -6273
▁ㄱㅣㅁㄷㅐㅈㅜㅇ -6274
▁05 -6275
ㅋㅣㅅ -6276
▁ㄱㅜㅂ -6277
▁ㅁㅗㄱㅅㅜㅁ -6278
▁1929 -6279
▁ㅈㅗㅎㅘ -6280
ss -6281
▁ㅇㅑㅁ -6282
ㅅㅣㅅㅡㅌㅡ -6283
▁ㅅㅜㄱㅈㅗㅇ -6284
▁ㄴㅏㅃ -6285
▁ㅇㅜㅇㅕㄴ -6286
▁ㅇㅑㄱㅌㅏㄹ -6287
▁ㅊㅐㄹ -6288
▁ㄱㅓㄴㄷㅏㅁ -6289
▁ㅅㅜㅂㅣㅅㅜ -6290
ㅡㅂㅏ -6291
▁ㅁㅣㅂㅜㄴ -6292
▁ㄱㅜㄴㅂㅜ -6293
▁ㅇㅣㄹㅎㅘㄴ -6294
▁ㅊㅏㄱㅇㅛㅇ -6295
▁ㅁㅜㄹㄹㅕ -6296
▁ㅍㅡㄹㅗㄹ -6297
ㅋㅗㅂ -6298
▁ㄱㅣㅁㄱㅜ -6299
▁de -6300
▁ㅈㅣㅂㅜ -6301
▁ㅅㅓㅇㅆㅣ -6302
▁ㅇㅢㅅㅓㄱ -6303
▁ㅇㅕㄴㄱㅖ -6304
▁ㄱㅗㅇㄱㅜㄱ -6305
▁ㅇㅕㅆㅇㅡㅁ -6306
▁y -6307
ㅅㅣㄱㅏㄴ -6308
ㅑㅅㅡ -6309
▁AC -6310
▁ㅈㅏㅊㅣㄱ -6311
▁ㅇㅜㄴㄷㅗㅇㄱㅏ -6312
▁ㅇㅔㄹㄹㅣㅈㅏㅂ -6313
▁ㅇㅕㄴㅅㅏㅇ -6314
ㅠㅁㅔㄴ -6315
▁ㅈㅜㅇㄹㅣㅂ -6316
▁ㅅㅓㄹㅂㅣ -6317
▁1923 -6318
▁ㅈㅜㅇㄱㅗㅇ -6319
▁ㅉㅡㅁ -6320
▁ㅅㅓㅁㅇㅠ -6321
▁ㅂㅏㄹㄹㅔㄴ -6322
▁ㄱㅕㅇㅇㅠ -6323
▁ㄹㅔㅂㅔㄹ -6324
▁ㅂㅏㄹㅎㅟ -6325
▁07 -6326
▁1925 -6327
▁ㅍㅡㄹㄹㅗㄹㅣㄷㅏ -6328
▁ㅃㅏㅈㅣ -6329
▁ㅁㅏㅇㅇㅝㄴㄱㅕㅇ -6330
ity -6331
▁ㄷㅗㅎㅗ -6332
▁ㅅㅣㄹㄴㅐ -6333
▁ㅇㅏㅂㅊㅜㄱ -6334
▁ㄱㅐㄹㄹㅓㄱㅅㅣ -6335
▁ㅅㅓㅈㅓㄱ -6336
▁ㅋㅡㄹㅣㅁ -6337
▁ㅇㅣㅁㅅㅣㄴ -6338
▁ㄷㅣㅂ -6339
▁ㄱㅗㄱㅗ -6340
▁ㄱㅘㅇㅣㄹ -6341
▁ㄴㅡㄴㄷㅏㄱㅗ -6342
▁ㅂㅜㄹㅎㅘ -6343
▁ㅅㅜㅎㅗ -6344
▁ㅇㅞㅇㅣㄹㅅㅡ -6345
▁ㅂㅣㅌㅡㄹ -6346
▁ㅊㅜㄹㅏㄱ -6347
▁ㅍㅏㅌㅡㄴ -6348
▁ㅇㅏㄴㄷㅡㄹㅗㅇㅣㄷㅡ -6349
▁ㅇㅕㅇㄱㅏㅁ -6350
▁ㄹㅏㅇㅜ -6351
▁ㅁㅗㅎㅓㅁ -6352
▁ㅇㅏㄹㅇㅏ -6353
▁ㅅㅏㄹㅇㅏㄴㅏㅁ -6354
▁ㅍㅏㄹㄹㅔ -6355
▁ㄷㅏㅇㅣㅁㅛ -6356
▁ㅍㅡㄹㅔㅇㅣㅁ -6357
▁SC -6358
ㄷㅡㄴㅣ -6359
ㅘㅇㅇㅕㄱㅅㅣ -6360
ㄱㅔㄴ -6361
ㅂㅣㅅㅡ -6362
▁ㅇㅠㅅㅓㅇ -6363
ㅇㅕㅅㅓ -6364
▁ㅍㅣㅅㅡ -6365
▁ㅇㅏㄴㄴㅐ -6366
▁ㄴㅏㅌㅏㄴㅏㄴ -6367
▁ㅈㅣㄴㅎㅡㅇ -6368
▁ㅅㅓㅇㅈㅣㄱㅈㅏ -6369
▁ㅇㅐㅂ -6370
▁ㄴㅏㅁㅇㅏㅁㅔㄹㅣㅋㅏ -6371
▁ㅇㅕㅇㅜ -6372
▁ㅇㅛㅇㅝㄴ -6373
ㅔㅇㅣㄹㄹㅓ -6374
▁ㅂㅏㄱㄱㅡㄴㅎㅖ -6375
ㄹㅠㅁ -6376
▁ㅁㅏㅇㅣㄹ -6377
▁ㅋㅐㄹㄹㅣㅍㅗㄴㅣㅇㅏㅈㅜ -6378
▁ㅇㅡ -6379
▁ㅂㅕㄴㅅㅣㄴ -6380
▁ㅊㅓㅇㄷㅗㅇ -6381
▁ㅇㅕㄴㅍㅕㅇㄱㅠㄴ -6382
▁ㅇㅏㄹㄹㅔㄱㅅㅏㄴㄷㅓ -6383
▁ㅅㅏㄱㅈㅔ -6384
▁ㄱㅗㅂㅜㄴ -6385
▁ㄱㅏㄱㅜ -6386
▁ㄷㅔㄹㅣ -6387
▁ㅈㅏㅇㄱㅏㅂ -6388
▁ㄱㅜㄹㅣ -6389
▁ㅈㅣㅇㅕㄱㄱㅜ -6390
▁ㅈㅔㅇㅑㄱ -6391
▁ㄱㅘㄴㄹㅣㅈㅏ -6392
ㅈㅡㄴㅣ -6393
▁ㅌㅡㄱㅎㅓ -6394
▁ㄱㅗㅅㅓ -6395
ㅍㅡㄹㅏㄴ -6396
▁ㄱㅏㄲㅡㅁ -6397
▁ㅅㅓㄴㄱㅛㅅㅏ -6398
▁ㅇㅣㅈ -6399
▁ㅁㅗㄱㅍㅗ -6400
ㅁㅜㄱㅔ -6401
▁ㅁㅣㄴㅅㅗㄱ -6402
▁ㅇㅕㅇㄱㅘㅇ -6403
▁ㅁㅗㅁㅁㅜㄱㅔ -6404
▁ㅇㅗㄹㅣㅈㅣㄴ -6405
▁ㅂㅜㄱㅅㅓㅉㅗㄱ -6406
▁ㅍㅡㄹㅗㅅㅔㅅㅓ -6407
ㅊㅣㅇㅗ -6408
▁ㄱㅖㅅㅜ -6409
▁ㅇㅓㅇㅝㄴ -6410
▁ㅊㅐㄱㅝㄴ -6411
▁ㄸㅗㄱㄱㅏㅌ -6412
▁ㅇㅠㅂㅣ -6413
▁ㄱㅣㅁㅎㅐ -6414
▁ㄹㅔㅇㅗㄴ -6415
▁ㅇㅏㄱㅈㅏㅇ -6416
▁ㅅㅗㅅㅓㄹㄱㅏ -6417
▁ㅋㅗㅅ -6418
ㅅㅜㄹㅑㅇ -6419
▁ㅎㅡㄹㄹㅓ -6420
▁ㄱㅛㄱㅘ -6421
▁ㄷㅡㄹㅓㄴㅏ -6422
▁ㅂㅓㄴㅈㅣ -6423
▁ㅈㅣㄴㅅㅜㄹ -6424
▁161 -6425
▁ㅊㅔㅋㅗ -6426
▁ㅂㅕㄴㄷㅗㅇ -6427
▁ㅇㅏㄹㅏ -6428
ㅣㅌㅓ -6429
▁ㅊㅜㄷㅐ -6430
▁ㅌㅗㄱ -6431
ㅍㅣㅅㅡ -6432
▁EP -6433
▁ㅇㅣㅂㅅㅏ -6434
▁ㅍㅣㄹㄹㅡㅁ -6435
▁ㅅㅜㅁㅕㅇ -6436
ff -6437
ㄷㅜㅇㅇㅣ -6438
ㅔㄹㄹㅔㄴ -6439
ㄷㅐㅁㅜㄴ -6440
▁ㄷㅗㅇㅈㅣ -6441
▁ㅇㅣㄴㅏㄹ -6442
up -6443
▁ㅇㅏㄹㅍㅏ -6444
▁ㅋㅏㅅㅡㅌ -6445
▁ㅁㅐㄴㅣ -6446
▁ㅇㅏㅂㄷㅗ -6447
▁ㅈㅜㄹㅠ -6448
▁ㅇㅣㄹㅈㅏ -6449
ㅔㅇㅣㄹㄹㅣ -6450
▁ㄱㅣㄱㅘㄴㅊㅏ -6451
▁ㅋㅣㄹㄹㅗ -6452
▁ㅌㅓㅂ -6453
▁ㅇㅓㅇㅝㄷㅡ -6454
▁ㄱㅣㅂㅜ -6455
▁ㅇㅑㅅㅡ -6456
ㄷㅡㄹㅏ -6457
ㅇㅢㅈㅓㅇ -6458
▁ㅂㅜㄱㄱㅡㄱ -6459
ㅗㅇㅜ -6460
▁ㄹㅏㅌㅡ -6461
▁ㄱㅕㄹㅅㅣㅁ -6462
▁ㄷㅗㄹㅇㅏㄱㅏㅆ -6463
▁ㅅㅓㅇㅣㄴ -6464
▁ㅈㅜㅇㅅㅣ -6465
ㅎㅐㅇㅅㅓㅇ -6466
▁ㅅㅜㅅㅏㅇㅈㅏ -6467
▁ㅍㅏㅅㅐㅇ -6468
ㅆㅡㅇ -6469
▁ㅂㅗㄱㄱㅜ -6470
▁ㄷㅏㄴㅅㅓㄴ -6471
▁ㄸㅓ -6472
▁ㅊㅓㄹㅈㅓ -6473
▁ㅇㅕㅂ -6474
▁ㅋㅣㅁ -6475
▁KT -6476
▁ㅂㅗㄱㅅㅏ -6477
▁ㄹㅔㅇㅣㅂㅡㄹ -6478
▁ㅅㅏㅁㄱㅏㄱㅎㅕㅇ -6479
▁175 -6480
▁ㅅㅚㅌㅚ -6481
▁ㅇㅓㅎㅏㅇ -6482
▁ㅅㅏㄱㅓㄹㅣ -6483
▁ㄱㅏㅌㅗㄹㄹㅣㄱㄱㅛㅎㅚ -6484
▁ㄷㅗㅁㅏㅂㅐㅁ -6485
▁ㅂㅜㅌㅏㄱ -6486
▁ㅂㅜㅎㅗ -6487
ㅜㄹㅜㅅㅡ -6488
▁ㅈㅛ -6489
▁ㅅㅔㄴㅌㅡㄹ -6490
ㅅㅡㅌㅏㅇㅣㄴ -6491
▁ㄷㅗㅇㅇㅣㄹㅂㅗㄴ -6492
▁ㄱㅠㅅㅠ -6493
ㅋㅣㅅㅡ -6494
▁ㅊㅚㅅㅏㅇ -6495
▁ㅇㅗㄹㄹㅣㄴ -6496
▁ㄱㅡㄹㅐㄴㄷㅡ -6497
ㅋㅓㅅㅡ -6498
▁ㄱㅡㄹㅕㅈㅕ -6499
▁ㄷㅗㅅㅣㅁ -6500
▁ㄱㅓㄴㅊㅜㄱㅁㅜㄹ -6501
▁ㅇㅠㄱㅏ -6502
▁ㅍㅛㅈㅣ -6503
▁ㅂㅜㄱㅇㅏㅁㅔㄹㅣㅋㅏ -6504
▁ㄹㅐㅇㅋㅣㅇ -6505
▁ㅌㅔㅁ -6506
▁ㅁㅜㄹㅡㅍ -6507
▁ㅍㅕㅇㅅㅐㅇ -6508
▁ㄴㅏㅍㅗㄹㄹㅣ -6509
▁ㅍㅔㄹㅜ -6510
ㅎㅚㅇㅢ -6511
▁ㅇㅕㅇㅣㄴ -6512
▁ㅂㅜㅇㅠ -6513
▁ㅇㅣㅅㅣ -6514
▁ㄱㅏㄱㅈㅏ -6515
▁ㅇㅠㅇㅕㄱ -6516
▁ㅈㅏㅊㅣㄱㅜ -6517
▁My -6518
▁ㄸㅔ -6519
▁ㅈㅣㅇㅕㄴ -6520
▁ㅂㅣㄱㅌㅗㄹㅣㅇㅏ -6521
▁ㄷㅗㅇㅓ -6522
▁ㅈㅜㄴㅇㅜ -6523
▁ㅃㅏㄹㄱㅏㄴ -6524
▁ㄴㅗㅁㅜ -6525
▁codice -6526
▁ㅈㅓㄴㅅㅡㅇ -6527
▁ㅇㅠㅇㅛㅇ -6528
▁ㅇㅔㄹㄹㅣㅈㅏㅂㅔㅅㅡ -6529
▁1922 -6530
▁ㄱㅗㅇㅏㄴ -6531
▁ㅁㅜㅇㅣㄴ -6532
▁SM -6533
▁ㄴㅏㅅㅓ -6534
▁ㅎㅘㅇㅌㅐ -6535
▁ㅂㅏㅇㅣㅇㅗㄹㄹㅣㄴ -6536
▁ㅈㅣㄱㅅㅓㄴ -6537
▁ㅅㅡㄹㄹㅗ -6538
▁ㅂㅓㅈㅣㄴㅣㅇㅏ -6539
▁ㅎㅘㄱㅏ -6540
▁ㅇㅣㅈㅗㅇ -6541
ㅁㅓ -6542
▁ㅌㅗㅅㅡ -6543
IS -6544
ㅗㅅㅡㄹㄹ -6545
▁ㅂㅡㄹㅜ -6546
▁ㅌㅗㅂㅓㄹ -6547
▁ㅋㅗㅌㅡ -6548
▁1912 -6549
▁ㄱㅗㅇㄱㅕㄱㅅㅜ -6550
▁"" -6551
▁ㄱㅡㄴㄹㅗ -6552
▁JR -6553
▁ㅁㅜㄴㅇㅣㄴ -6554
▁ㄱㅜㄱㅁㅣㄴㄷㅏㅇ -6555
▁ㄱㅛㄷㅗ -6556
▁ㅇㅕㄴㄹㅕㅇ -6557
▁ㅎㅐㅈㅣㄴ -6558
▁ㅇㅗㅋㅔ -6559
▁ㅇㅘㅇㄱㅏ -6560
▁ㅁㅔㄹㅡ -6561
▁ㄴㅏㅂㅊㅣ -6562
▁ㅍㅡㄹㅗㅅ -6563
▁ㄷㅏㄴㅎㅐㅇ -6564
▁ㅍㅐㅌㅓㄴ -6565
▁ㅅㅐㄱㅅㅏㅇ -6566
ㅣㄹㄹㅣㅇㅏ -6567
▁ㄱㅏㄴㅅㅓㅂ -6568
▁ㅇㅣㄴㅊㅓㄴㄱㅘㅇㅇㅕㄱㅅㅣ -6569
▁ㅌㅜㄱㅜ -6570
▁ㄷㅜㄷㅡㄹ -6571
ㅅㅅㅜ -6572
▁ㅁㅜㅅㅏㄴ -6573
▁ㄷㅏㅇㅑㅇㅊㅔ -6574
▁ㅁㅗㅅㅣ -6575
▁ㄱㅣㅈㅗㅇ -6576
▁ㅊㅣㅁㅎㅐ -6577
▁ㄹㅜㅌㅡㅂㅣㅎㅣ -6578
▁ㅃㅐ -6579
▁ㅍㅣㅌㅡ -6580
▁ㅅㅡㅍㅏㅇㅣ -6581
▁ㄹㅣㄴㅜㄱㅅㅡ -6582
▁MV -6583
ㅣㅂㅓㄹ -6584
▁ㅂㅗㅇㅅㅏ -6585
▁ㅁㅗㄷㅠㄹ -6586
▁ㅈㅓㄱㅇㅡㅇ -6587
▁ㅅㅡㅋㅔㅇㅣㅌㅣㅇ -6588
▁ㅇㅣㄴㄹㅕㄱ -6589
▁ㅈㅣㅈㅜㅇㅎㅐ -6590
▁ㄹㅣㄷㅡㅁ -6591
▁ㅇㅏㄹㅂㅏㄴ -6592
▁ㅌㅏㅁㅎㅓㅁ -6593
▁ㅌㅏㅇㅣㄱㅓ -6594
▁06 -6595
▁ㄹㅡㅇ -6596
▁ㅁㅣㅅㅣ -6597
▁ㅇㅣㄹㅇㅡㅋㅣㄴ -6598
ㅈㅡㅋㅣ -6599
▁ㅇㅔㄹㅡ -6600
▁ㅈㅣㄱㅇㅟ -6601
▁ㄷㅗㅇㅇㅏㅅㅣㅇㅏ -6602
ㅅㅚ -6603
▁ㅅㅣㅌㅡ -6604
▁ㄴㅏㅇㅣㅌㅡ -6605
▁Go -6606
▁Love -6607
▁ㅅㅏㅇㅊㅓ -6608
▁ㅊㅜㄹㅎㅕㄴ -6609
ip -6610
▁ㅇㅘㄹ -6611
▁ㅋㅏㄹㅡㄹ -6612
▁ㄱㅛㅊㅏㄹㅗ -6613
▁ㅎㅏㅇㅁㅗㄱ -6614
ㅔㄷㅣ -6615
ㅅㅣㅇㅗㄴ -6616
▁ㄱㅛㅇㅕㄱ -6617
ㅅㅏㅇㅣ -6618
▁ㄱㅜㅅ -6619
ong -6620
▁ㅍㅗㅇㅠ -6621
ant -6622
▁ㅅㅏㅂㅇㅣㅂ -6623
▁164 -6624
▁ㄹㅓㄱ -6625
ㅔㄹㅣㅇㅏ -6626
ㅂㅔㄹㅡㅋㅡ -6627
▁ㄱㅡㄹㅆㅣ -6628
▁ㄴㅓㅁㄱㅕ -6629
▁ㅇㅣㅈㅗ -6630
ㅇㅑㅇㄱㅜㄴ -6631
▁ㅅㅣㄹㅈㅓㅁ -6632
ED -6633
▁ㅅㅣㅅㅏㅇㅅㅣㄱ -6634
ld -6635
▁ㅋㅞ -6636
▁1908 -6637
▁ㅁㅐㄱㅏㄱ -6638
▁ㅈㅓㄴㅎㅑㅇ -6639
▁ㅋㅡㄹㄹㅏㅇㅜ -6640
▁ㅂㅔㄹㄹ -6641
ㅋㅏㅅㅡ -6642
▁ㅈㅗㅅㅔ -6643
ㅡㄴㅔ -6644
▁ㄱㅜㅁㅣ -6645
▁ㅂㅔㅌㅏ -6646
ㅔㄹㄹㅡㅁ -6647
▁ㅇㅕㄴㄱㅡㅁ -6648
ㅜㅁㅣ -6649
ㅅㅏㄱㅣ -6650
▁ㄱㅏㄴㄷㅏ -6651
ㅁㅜㅇ -6652
▁ㅈㅏㅊㅐㄱ -6653
▁ㅊㅔㅇㅣㄴ -6654
▁ㄴㅗㅂㅣ -6655
▁ㄴㅏㅁㄷㅗㅇㅉㅗㄱ -6656
▁03 -6657
▁ㄱㅣㅁㄷㅗㅇ -6658
▁ㅁㅗㄹㅐ -6659
▁ㅈㅗㅁㅕㅇ -6660
▁ㅇㅠㄱㅅㅓㅇ -6661
ㅠㅁㅔㄴㅌㅓㄹㅣ -6662
▁ㅂㅜㄷㅗㅇㅅㅏㄴ -6663
OM -6664
▁ㅅㅣㅀ -6665
ㄷㅏㄹㄹ -6666
▁1917 -6667
▁ㅈㅔㅈㅜㄷㅗ -6668
▁ㅎㅏㅇㅘㅇㅣ -6669
▁ㅂㅜㅅ -6670
▁ㄴㅏㅁㄱㅕ -6671
▁ㅇㅗㄻㄱㅣ -6672
▁1906 -6673
▁ㅇㅚㄱㅖ -6674
▁ㅂㅐㄱㅡㅂ -6675
▁ㅊㅏㅁㅈㅗ -6676
▁SN -6677
▁ㅅㅡㅇㅘ -6678
▁ㅎㅗㅈㅗ -6679
▁ㅅㅣㅈㅣㅂ -6680
▁ㄱㅣㅎㅏㅎㅏㄱ -6681
▁ㅇㅣㄴㅈㅏ -6682
▁ㅅㅏㅊㅗㄴ -6683
▁ㅇㅕㅇㅈㅗ -6684
▁ㄱㅘㄴㅈㅜㅇ -6685
▁ㄹㅗㅈㅡ -6686
▁ㅂㅐㅅㅏㅇ -6687
▁ㅂㅣㅈㅓㄴ -6688
▁ㅁㅕㅇㅁㅜㄴ -6689
▁ㅁㅏㄹㅜ -6690
▁ㅁㅣㄹㄹㅏㄴㅗ -6691
▁ㅎㅑㅇㅌㅗ -6692
▁ㅈㅗㅇㅈㅗㄱ -6693
▁ㅅㅣㅇㅚ -6694
▁ㄱㅘㄴㅎㅏ -6695
▁ㅅㅓㅂㅜㄱ -6696
▁ㅈㅓㅇㅅㅓ -6697
▁ㅇㅣㅂㅁㅜㄴ -6698
▁ㅈㅜㅇㄱㅜ -6699
▁ㅎㅏㄷㅡㅇ -6700
▁ㅌㅗㅇㄹㅗ -6701
▁ㅁㅕㅇㅅㅏ -6702
▁ㅁㅗㄱㅈㅗ -6703
▁ㅂㅏㄹㄹㅏ -6704
▁ㅇㅓㄷㅜㅇ -6705
▁ㅍㅛㅂㅗㄴ -6706
ㅊㅏㅈ -6707
ㅇㅝ -6708
ㅔㅅㅕㄹ -6709
▁ㅇㅏㄴㅇㅑㅇ -6710
▁ㄷㅐㅇㅢ -6711
▁ㄴㅗㅇㅣㄴ -6712
▁ㅇㅠㅇㅣㄴ -6713
▁ㅈㅓㄴㄹㅏ -6714
▁ㅈㅓㄱㅇㅓㄷㅗ -6715
▁ㄷㅐㅎㅐㅇ -6716
▁ㅇㅗㅇㅎㅗ -6717
▁ㅇㅜㅇㅣㄱ -6718
ㄷㅏㄹㅡㄴ -6719
▁ㄷㅏㅇㅣㄴ -6720
▁ㄸㅡ -6721
▁ㅁㅜㅅㅓㄴ -6722
▁ㅇㅐㄹㄹㅓㄴ -6723
▁ㅂㅗㅌㅗㅇㅎㅏㄱㄱㅛ -6724
▁1927 -6725
ㅂㅣㄱ -6726
av -6727
ㅊㅡㅁ -6728
▁ㅇㅢㅂㅕㅇ -6729
ㄹㅏㅇㅣㅌㅓ -6730
▁ㅅㅗㅇㄹㅏㅇㅣㅌㅓ -6731
▁ㅂㅓㄱ -6732
▁ㅍㅔㅅㅡㅌ -6733
▁ㅂㅜㄱㄷㅗㅇㅉㅗㄱ -6734
▁ㅎㅣㅅㅡ -6735
▁ㅅㅔㅇㅝㅈㅣㄴ -6736
▁ㅂㅗㅈㅘ -6737
▁ㅌㅐㅈㅏ -6738
▁ㄱㅘㅈㅏㅇ -6739
▁ㅊㅏㅇㄱㅏㄴ -6740
▁ㅁㅔㅇ -6741
▁ㅎㅗㄹㄹㅗ -6742
▁ㄷㅏㅋㅠㅁㅔㄴㅌㅓㄹㅣ -6743
▁ㅅㅓㄴㅈㅔ -6744
▁ㅈㅜㄴㅇㅜㅅㅡㅇ -6745
ㄷㅔㅇㅣ -6746
▁ㅇㅣㅌㅏㄹ -6747
▁ㅅㅏㄴㅇㅏㄱ -6748
ㅔㅂㅏ -6749
▁ㄱㅣㅇㅏㅂ -6750
▁ㅈㅏㅁㅜㄴ -6751
▁ㅌㅡㅇㅟㄴ -6752
▁1907 -6753
▁ㄴㅐㅈㅏㅇ -6754
▁ㅇㅠㅅㅣㄴ -6755
▁1926 -6756
ㅌㅣㅇㅜㅁ -6757
ㅇㅕㅇㅅㅏㅇ -6758
▁ㅈㅓㅇㄹㅠㅈㅏㅇ -6759
▁ㅈㅏㅁㅈㅐ -6760
▁ㅅㅏㄹㅏㅈㅣ -6761
▁ㅋㅓㅍㅣ -6762
▁ㅂㅕㄹㄹㅗ -6763
▁ㅇㅠㅇㅣㅂ -6764
▁ㄷㅣㅈㅡㄴㅣ -6765
▁ㅊㅚㅇㅜㅅㅜ -6766
▁ㄱㅛㅊㅏ -6767
▁ㄸㅓㄴ -6768
▁ㅎㅏㅅㅏ -6769
▁ㅎㅡㄺ -6770
▁ㅍㅜㄹㅡㄴ -6771
▁ㅍㅡㄹㄹㅗ -6772
▁ㅌㅏㅂㅅㅡㅇ -6773
▁ㅇㅖㅇㅚ -6774
ㅎㅐㄱㅜㄴ -6775
▁ㅅㅡㅍㅔㅅㅕㄹ -6776
▁ㅅㅜㄱㅏㅁ -6777
▁ㅎㅐㅇㅎㅐ -6778
▁ㅇㅠㄴㅣㅅ -6779
▁ㅇㅘㅇㄹㅣㅂ -6780
▁168 -6781
▁ㅅㅓㄱㅈㅗ -6782
▁BBC -6783
▁ㄱㅏㅎㅐ -6784
▁ㅁㅗㄹㅗ -6785
▁ㄷㅡㄹㅐㄱㅗㄴ -6786
▁ㅇㅏㅁㅜㄹㅓㄴ -6787
▁ㅎㅕㅂㅇㅢㅎㅚ -6788
▁PD -6789
▁ㅈㅗㄱㅣ -6790
AC -6791
▁ㅎㅗㄴㅏㅁ -6792
▁ㅅㅏㅇㅇㅕㅇ -6793
▁ㄸㅐㄹㅗ -6794
▁ㅈㅏㅇㅠㄹ -6795
▁ㅇㅕㄴㄱㅗㅈㅣ -6796
ㅂㅜㅅㅏ -6797
▁ㅁㅏㅈㅊㅝ -6798
▁ㅇㅠㅌㅠㅂㅡ -6799
ㄴㅐㅇ -6800
ㅌㅗㅂㅔㄴ -6801
▁ㅈㅓㅈㅣㄹ -6802
▁He -6803
ㅅㅏㄹㅡ -6804
▁ㅂㅔㅌㅗㅂㅔㄴ -6805
▁ㄱㅣㄹㅡㅁ -6806
▁ㄱㅡㅂㅅㅗㄱ -6807
▁ㅍㅡㄹㄹㅐㄴ -6808
▁ㄱㅣㅃ -6809
▁ㅎㅏㅊㅓㄴ -6810
▁ㅂㅓㄴㅅㅣㄱ -6811
ㅏㄴㅌㅡ -6812
▁ㄷㅐㅇㅏㄴ -6813
ㅛㄱ -6814
▁ㅅㅏㄹㅍ -6815
▁ㅇㅔㄹㅣㄱ -6816
▁ㄱㅘㅇㅇㅕㄱ -6817
▁ㅍㅏㅇㅜㄴㄷㅡ -6818
ㅍㅔㅇㅣㅈㅣ -6819
ㅌㅓㅂㅔㅇㅣㅅㅡ -6820
ㄷㅏㅇㅣㄹㅏ -6821
▁ㄷㅗㄱㅇㅣㄹㅇㅓ -6822
ind -6823
▁ㄷㅔㅇㅣㅌㅓㅂㅔㅇㅣㅅㅡ -6824
▁Sp -6825
▁ㅍㅏㄴㅌ -6826
▁ㄹㅏㅇㅣㅂㅓㄹ -6827
ㄷㅗㄴㅣㅇㅏ -6828
▁ㅅㅏㅇㅎㅏㅇㅣ -6829
▁ㄷㅐㄱㅛ -6830
▁ㅈㅣㄹㅡㅁ -6831
se -6832
▁ㅎㅏㅂㄱㅖ -6833
▁ㅅㅐㄱㄲㅏㄹ -6834
▁ㅈㅓㅁㅅㅓㅇ -6835
ㅡㄴㅏ -6836
▁ㅂㅐㅁ -6837
▁ㅋㅓㅁㅠㄴㅣㅌㅣ -6838
▁ㅅㅏㄹㅛ -6839
▁ㅅㅓㄴㅈㅣㄴ -6840
▁ㅈㅏㅇㅅㅏ -6841
▁ㅎㅗㅁㅍㅔㅇㅣㅈㅣ -6842
▁ㅇㅗㅂㅓ -6843
▁ㄱㅡㄹㅏㅇ -6844
▁ㅎㅡㅇㅁㅣ -6845
▁ㅇㅘㅇㅣ -6846
▁ㅋㅜㅅㅡ -6847
ame -6848
ㅂㅡㄹㅣ -6849
ㅌㅔㄴㄷㅗ -6850
▁ㅈㅏㅈㅓㄴㄱㅓ -6851
▁ㄴㅣㄴㅌㅔㄴㄷㅗ -6852
▁NHK -6853
▁ㅍㅓㅅㅣ -6854
▁ㅅㅡㅋㅏㅇㅣ -6855
▁ㅈㅝㅆ -6856
▁ㅁㅣㄴㅈㅗㄱㅈㅜㅇㅢ -6857
ㄷㅓㅇ -6858
ㅋㅣㄱ -6859
▁ㅈㅘㅇㅣㄱ -6860
ㅊㅗㅇㅈㅏㅇ -6861
▁ㅁㅜㄴㅎㅏ -6862
▁ㅌㅡㄱㄱㅡㅂ -6863
ㅍㅡㄹㅏㄴㅅㅣㅅㅡㅋㅗ -6864
ㅋㅗㄱ -6865
▁ㅍㅜㅁㅈㅣㄹ -6866
▁ㄲㅜㅈㅜㄴㅎㅣ -6867
▁1905 -6868
▁ㄷㅗㅇㄱㅜ -6869
▁ㅅㅏㅇㅅㅔ -6870
ㅅㅐㅇㅁㅜㄹ -6871
▁ㅂㅏㅇㅇㅏㄴ -6872
▁ㅅㅐㄴㅍㅡㄹㅏㄴㅅㅣㅅㅡㅋㅗ -6873
▁166 -6874
▁ㅁㅜㄴㅎㅘㅇㅠㅅㅏㄴ -6875
▁ㄹㅔㅇㅣㄷㅏ -6876
▁162 -6877
▁ㄷㅡㄹㅇㅓㅅㅓ -6878
ort -6879
ㅆㅏㅇ -6880
▁151 -6881
ㅌㅗㅅㅣ -6882
▁ㅊㅣㅇㅎㅏ -6883
▁ㅇㅝㄴㅅㅏㄴ -6884
▁ㅇㅣㄴㄷㅣ -6885
▁ㅌㅡㄹㅓㄱ -6886
▁ㄷㅏㅇㅇㅕㄴ -6887
▁ㅂㅏㄴㅎㅘㄴ -6888
ry -6889
▁ㄷㅗㄹㅍㅏ -6890
▁ㅇㅜㄴㅁㅕㅇ -6891
▁ㅅㅣㅂㅈㅏㄱㅜㄴ -6892
▁ㅅㅡㅅㅡㅇ -6893
▁ㄹㅔㅇㅣㅅㅡ -6894
▁ㅂㅣㅍㅕㅇㄱㅏ -6895
▁ㅁㅗㅈㅣㅂ -6896
▁ㅂㅏㄱㅅㅡ -6897
▁ㄱㅏㄹㅡㅊㅣ -6898
ㅐㄹㅑㅇ -6899
▁ㅈㅜㅇㅢㅈㅏ -6900
▁ㄸㅜㅀ -6901
▁ㅇㅕㄱㄱㅘ -6902
▁ㅍㅔㅅㅡㅌㅣㅂㅓㄹ -6903
▁02 -6904
ㅁㅐㅅ -6905
▁ㅎㅡㄹㄹ -6906
▁ㅊㅜㄹㅅㅏㄴ -6907
ith -6908
ㄱㅗㅇㅅㅏ -6909
▁ㅎㅕㄴㅎㅘㅇ -6910
▁ㅂㅣㄷㅏㄴ -6911
▁ㄴㅗㅅ -6912
▁ㅌㅡㅇㅟ -6913
ㅏㅁㅗㅌㅗ -6914
▁ㅅㅔㅅㅉㅐ -6915
▁ㅎㅕㅂㅇㅢ -6916
▁ㅋㅏㅅㅡ -6917
▁ㅍㅗㅋㅡ -6918
▁ㅍㅕㄹㅊㅣ -6919
▁ㅈㅗㅅㅓㄴㅇㅣㄴ -6920
ES -6921
▁ㅈㅜㅎㅏㄴ -6922
▁ㅇㅣㄹㅎㅐㅇ -6923
▁ㅇㅠㄱㅗㅅㅡㄹㄹ -6924
▁ㅇㅠㄱㅗㅅㅡㄹㄹㅏㅂㅣㅇㅏ -6925
▁ㅍㅐㅁ -6926
ㄷㅐㄱㅛ -6927
ㅈㅜㄱㅗㄱ -6928
▁ㅇㅓㅁㅁㅏ -6929
▁ㅁㅗㄱㄱㅕㄱ -6930
▁ㅎㅔㄱ -6931
▁ㄱㅕㅇㅜ -6932
▁ㅂㅣㅎㅏ -6933
▁ㅈㅜㅁㅏㄹ -6934
▁ㄴㅡㄹㅇㅓㄴㅏ -6935
▁ㄱㅣㅇㅛ -6936
▁ㄱㅡㅊㅕㅆ -6937
▁ㅇㅔㅇ -6938
▁ㅍㅗㅅ -6939
ㅋㅜㅅㅡ -6940
▁ㅂㅗㅇㅣㄴ -6941
▁158 -6942
▁ㅁㅛㅅㅗ -6943
▁ㄱㅓㄷㅜㄴ -6944
▁ㅋㅐㅁ -6945
▁ㄱㅗㄷㅂㅏㄹㅗ -6946
▁ㅈㅜㅍㅏ -6947
▁ㅋㅡㄹㅣㅅㅡㅌㅗ -6948
ㅡㄴㅣ -6949
▁ㅇㅑㅅㅐㅇ -6950
▁ㅇㅗㄹㅣㅈㅣㄴㅓㄹ -6951
▁ㅁㅏㄹㅏ -6952
▁ㅂㅐㅈㅓㅇ -6953
▁ㄷㅏㄴㅊㅡㅇ -6954
▁ㅈㅓㅇㄱㅖ -6955
ㅅㅔㅅㅡ -6956
▁ㄱㅣㅈㅓㅁ -6957
▁ㅋㅜㄴ -6958
▁ㅇㅗㄷㅣㅅㅕㄴ -6959
▁|| -6960
ㅗㄴㄷㅡ -6961
▁ㅈㅣㅂㅏ -6962
▁ㅂㅗㅈㅓㄴ -6963
▁ㅎㅏㄴㄴㅏㄹㅏ -6964
▁ㅈㅏㅂㅏ -6965
▁ㅋㅏㅍㅔ -6966
▁ㅇㅓㅇㅜㄹ -6967
ㅍㅡㄹㄹㅔㅇㅣ -6968
▁ㅈㅓㄴㅎㅐㅈㅣㄴㄷㅏ -6969
ㄷㅏㄴㅣ -6970
▁ㅁㅜㄴㄱㅘ -6971
▁ㅇㅕㄴㅅㅗ -6972
▁ㅅㅣㄴㅇㅣㅁ -6973
ㅏㅁㅗ -6974
ㅓㅁㅣ -6975
▁ㅇㅖㅅㄴㅏㄹ -6976
▁ㄴㅏㅁㅅㅓㅉㅗㄱ -6977
▁ㅅㅡㅌㅔㅇㅣㅈㅣ -6978
▁ㄴㅗㅈㅗ -6979
▁ㄹㅔㄴㅈㅡ -6980
▁ㅈㅣㄴㅈㅣ -6981
▁ㅎㅏㄴㄴㅏㄹㅏㄷㅏㅇ -6982
ㅌㅗㅁㅣ -6983
▁ㅅㅜㅊㅓㄴ -6984
ㄱㅕㄹㅅㅡㅇ -6985
▁ㅂㅜㄴㅂㅐ -6986
▁ㅅㅗㄴㅣ -6987
▁ㅈㅣㄱㅈㅏㅇ -6988
▁ㄷㅗㅇㅈㅓㄴ -6989
▁ㅅㅔㅈㅗ -6990
ㅏㄹㄹㅔㅁ -6991
▁ㄸㅡㄱ -6992
▁ㅂㅏㅌ -6993
▁ㄱㅓㅊㅣㄴ -6994
▁ㄱㅣㅇㅛㅇ -6995
▁ㅂㅣㅈㅡㄴ -6996
▁ㄷㅡㄹㅣㅁ -6997
▁ㅁㅜㄱㅘㄴ -6998
▁ㅇㅖㄴ -6999
▁ㅂㅗㄱㅈㅔ -7000
▁ㅇㅜㄴㅂㅏㄴ -7001
ㄱㅣㄴㄷㅏ -7002
▁ㅅㅏㅁㅕㄴ -7003
▁ㅇㅣㅂㅈㅡㅇ -7004
▁ㅁㅜㄴㅈㅔㅈㅓㅁ -7005
▁ㅂㅓㄱㅡ -7006
▁ㄷㅚㅊㅏㅈ -7007
▁ㄱㅡㅂㅎㅐㅇ -7008
ㄹㅣㅋㅔㅇㅣㅅㅕㄴ -7009
▁ㄷㅗㅇㅇㅕㅇㅅㅏㅇ -7010
▁ㅁㅏㅅㅡ -7011
▁ㅇㅏㄱㅣ -7012
▁ㅈㅓㄱㅅㅐㄱ -7013
▁ㅊㅜㄹㅍㅏㄴㅅㅏ -7014
▁ㅂㅡㄹㅏㅇㅣㅇㅓㄴ -7015
▁ㄱㅙ -7016
ㅅㅡㅂㅗㄹ -7017
▁ㅅㅣㄴㅂㅣ -7018
▁ㅋㅔㅇㅣㅂㅡㄹ -7019
ok -7020
▁Un -7021
ㅁㅣㄴㅣ -7022
▁ㄷㅣㅈㅏㅇㅣㄴㅓ -7023
ㅋㅗㅅ -7024
ㅔㅅㅣ -7025
▁ㅁㅜㅅㅓㅇ -7026
▁ㅇㅣㄴㅊㅣ -7027
▁ㅌㅔㅋㅡㄴ -7028
▁ㅎㅏㄴㅎㅘ -7029
ㅌㅡㄹㅓㅁ -7030
ㅌㅣㅇㅏㄴ -7031
▁ㅎㅗㅎㅘㄴ -7032
▁ㅅㅣㅁㅎㅏ -7033
▁ㄱㅣㄴㄱㅡㅂ -7034
▁ㅈㅣㅎㅟㅈㅏ -7035
▁ㅂㅔㅇㅣㅅㅡㅂㅗㄹ -7036
▁ㅎㅏㅂㅈㅏㄱ -7037
▁ㅂㅐㅈㅔ -7038
▁ㅇㅖㅇㅓㄴ -7039
▁ㅍㅡㄹㅐㄴ -7040
▁ㄷㅡㄹㅓㄴㅐ -7041
ㅡㄴㅏㄴ -7042
ㅌㅏㅇㅜㄴ -7043
▁ㅍㅣㄹㄹㅏ -7044
▁ㅂㅓㄴㅈㅜ -7045
▁ㅅㅏㅇㅅㅗ -7046
▁ㄱㅣㄴㅕㅁㅁㅜㄹ -7047
▁ㅋㅗㄹㄹㅗㅁㅂㅣㅇㅏ -7048
ㅋㅙ -7049
▁ㅇㅕㄴㅈㅜㅈㅏ -7050
▁ㄱㅛㅈㅓㄴ -7051
▁ㄱㅣㄷㅏㄴ -7052
▁ㅁㅣㄹㄹㅕ -7053
▁ㄷㅏㄴㅈㅗㅇ -7054
▁ㅎㅑㅇㄴㅕㄴ -7055
▁ㅋㅏㅈㅏ -7056
▁ㅅㅏㅈㅣㄱ -7057
ㅔㅇㅜㅅㅡ -7058
▁ㄹㅚ -7059
▁ㅎㅚㅇㅝㄴㄱㅜㄱ -7060
▁ㅁㅜㅅㅣㄴ -7061
▁ㅇㅔㅅㅡㅍㅏㄴ -7062
▁ㄱㅡㄹㅓㅁㅇㅔㄷㅗ -7063
▁ㅇㅡㅁㅁㅗ -7064
▁ㅂㅣㅈㅡㄴㅣㅅㅡ -7065
▁ㅅㅜㅈㅣ -7066
▁ㅁㅓㄹㅌㅣ -7067
▁ㅁㅗㅅㅜㄴ -7068
▁ㅊㅗㄹㅐ -7069
▁ㄱㅘㄴㅈㅏㅇ -7070
▁ㅇㅖㅅㅜㄹㄱㅏ -7071
▁ㅈㅘㅅㅓㄱ -7072
ㄷㅣㅅㅡ -7073
▁ㄱㅏㅎㅏ -7074
▁ㅂㅜㅍㅐ -7075
▁ㅁㅣㅁㅏㄴ -7076
▁ㅎㅏㄷㅡㅇㅞㅇㅓ -7077
▁ㄹㅜㄹ -7078
ㅜㅅㅏㄹㄹㅔㅁ -7079
▁ㄷㅗㅁㅔㅇㅣㄴ -7080
qu -7081
▁ㄱㅣㅈㅐ -7082
▁ㅅㅜㅁㅕㄴ -7083
▁ㅈㅣㅂㄱㅖ -7084
▁ㅂㅜㅌㅈㅏㅂ -7085
▁ㅇㅕㄱㅁㅕㅇ -7086
▁ㅍㅗㅁㅐㅅ -7087
▁ㅁㅏㅆㅡㄷㅏㅇㅣㄹㅏ -7088
▁AM -7089
▁ㄷㅏㅇㅅㅏㅈㅏ -7090
▁165 -7091
▁ㄲㅗㄹ -7092
▁ㅎㅣㄷㅔㅇ -7093
▁ㅅㅔㄴㅌㅡㄹㅓㄹ -7094
▁ㅅㅓㄱㅕㅇ -7095
▁ㅍㅕㅇㅅㅗ -7096
▁ㅇㅣㅇㅓㅈㅕ -7097
▁ㅋㅗㄴㅅㅡㅌㅏㄴㅌㅣㄴㅗ -7098
▁154 -7099
▁ㅇㅛㅇㄱㅣ -7100
ㅌㅗㄹㅡ -7101
▁ㄴㅐㄹㅠㄱ -7102
▁1904 -7103
▁ㅇㅜㄷㅡ -7104
▁ㅈㅏㅎㅚㅅㅏ -7105
ㅈㅐㅇㅣㄴ -7106
▁ㅅㅓㅇㅣㄹ -7107
▁ㄱㅜㅅㅏ -7108
▁ㅇㅢㄱㅓ -7109
ㅂㅗㅅㅏㄹ -7110
▁ㅈㅓㅇㄱㅛ -7111
▁ㄱㅏㄱㅔ -7112
▁ㄷㅏㄴㅕㅆ -7113
ord -7114
▁ㅅㅓㄴㅅㅏ -7115
▁ㅅㅓㄱㅌㅏㅂ -7116
▁ㄱㅜㅈㅏㅇ -7117
ㅅㅗㅅ -7118
▁ㅅㅣㄴㅇㅛㅇ -7119
▁ㅇㅘㅇㅈㅗㄱ -7120
▁ㅎㅏㅇㅇㅣㄹ -7121
ㅌㅡㄹㅡ -7122
ㅜㅇㅔㄹ -7123
▁ㅅㅡㅋㅗㅅ -7124
▁ㅍㅏㄷㅗㅇ -7125
▁ㅅㅡㅍㅔㄱㅌㅡㄹㅓㅁ -7126
▁Se -7127
▁ㄱㅐㅅㅜ -7128
▁ㄱㅘㅈㅔ -7129
PS -7130
▁ㅇㅣㄹㅕㄱ -7131
▁ㅇㅣㅁㅅㅏㅇ -7132
▁Wh -7133
▁ㅇㅏㅂㅂㅏㄱ -7134
ob -7135
▁ㅈㅏㅅㅏ -7136
▁ㄷㅗㅋㅏㅇㅣ -7137
▁ㅈㅓㄴㅇㅕㅁ -7138
▁ㅇㅕㅅㅣㄴ -7139
▁ㅊㅐㄹㄹㅣㄴ -7140
▁ㅇㅕㄷㅗㅇㅅㅐㅇ -7141
▁ㄱㅝㄴㄱㅗ -7142
▁DJ -7143
▁ㄷㅗㅇㅅㅏ -7144
▁ㅇㅛㅇㅅㅏㄴ -7145
▁ㅈㅏㅇㅍㅕㄴ -7146
▁ㅁㅏㅋㅔㅌㅣㅇ -7147
▁ㄱㅖㄷㅏㄴ -7148
▁ㅇㅖㄹㅜㅅㅏㄹㄹㅔㅁ -7149
▁ㄲㅜㄹ -7150
▁ㅈㅐㅁㅜ -7151
▁SF -7152
▁ㅇㅐㄴㄷㅡㄹ -7153
▁ㅅㅏㅇㅣㄴ -7154
▁ㅈㅣㄴㅅㅏㅇ -7155
▁ㅈㅓㅇㅈㅏ -7156
▁ㅅㅓㄴㅂㅗㅇㅕㅆ -7157
▁ㅇㅣㅁㅕㅇㅂㅏㄱ -7158
IC -7159
ㄷㅣㄱ -7160
ㅓㅂㅣ -7161
▁900 -7162
▁ㅌㅜㄹㅡ -7163
▁ㅁㅜㅅㅡㄹㄹ -7164
▁163 -7165
▁167 -7166
▁ㅎㅖㅅㅓㅇ -7167
▁ㄷㅡㄹㅇㅓㄱㅏㄴ -7168
▁ㅅㅡㅁㅏㅌㅡㅍㅗㄴ -7169
ㅇㅜㅇㅖㄴ -7170
ate -7171
▁ㅈㅜㅇㅓㅈㅣㄴ -7172
ㅍㅐㅇ -7173
ㅏㅅㅣㅇㅏ -7174
▁ㅊㅏㄱㅘㄴ -7175
▁ㅅㅡㅋㅜㄹ -7176
▁ㅌㅔㅅㅡ -7177
▁ㅁㅣㅇㅑㄴ -7178
▁ㅎㅡㅇㅎㅐㅇ -7179
▁ㄱㅏㄷㅡㄱ -7180
▁ㄷㅐㄷㅏㄴ -7181
▁ㄷㅜㄹㅕㅇㅝ -7182
▁ㅅㅡㅍㅣㄷㅡ -7183
▁ㅅㅣㅅㅡ -7184
▁ㅈㅗㄹㅠ -7185
▁156 -7186
▁ㄹㅣㅌㅜㅇ -7187
▁ㅅㅏㅂㅓㅁ -7188
▁ㅅㅏㅇㅇㅣㅁ -7189
▁ㅍㅣㄹㅔㄴ -7190
▁ㅂㅏㄷㅊㅣㅁ -7191
▁ㅁㅏㅋㅔㄷㅗㄴㅣㅇㅏ -7192
▁ㅁㅜㅅㅡㄹㄹㅣㅁ -7193
▁ㄱㅛㅅㅓㅂ -7194
▁ㄴㅗㅁㅜㅎㅕㄴ -7195
▁ㅇㅓㄹㅇㅡㅁ -7196
ㅊㅣㄴㄷㅏ -7197
ㅏㅇㅇㅣ -7198
▁ㄲㅣㄹㅣ -7199
▁ㅊㅏㅊㅔ -7200
▁ㅎㅞㅅㅗㄴ -7201
ㅏㄴㅎㅣ -7202
ㅁㅜㄴㅎㅏㄱ -7203
▁ㄴㅣㅅㅡ -7204
▁ㅅㅡㅍㅣㄴ -7205
▁ㅂㅣㅈㅏㄴㅌㅣㅇㅜㅁ -7206
▁ㅅㅣㄴㅎㅏ -7207
▁ㄷㅣㅂㅣㅈㅓㄴ -7208
▁ㄷㅐㅈㅗ -7209
▁ㄱㅗㄹㅣㅂ -7210
▁ㅂㅜㅎㅡㅇ -7211
▁ㅅㅛㄱㅜㄴ -7212
ㅌㅓㄱ -7213
▁ㄹㅏㅁㅏ -7214
▁ㅂㅜㅅㅜ -7215
▁ㅅㅓㅇㅜㄹㅅㅣ -7216
▁AS -7217
▁ㄱㅠㄱㅕㄱ -7218
ㅏㅇㅜㄴㅅㅓ -7219
▁ㅎㅐㅇㅈㅓㅇㅂㅜ -7220
▁ㅇㅏㄴㅏㅇㅜㄴㅅㅓ -7221
ㅆㅏ -7222
▁ㅇㅖㄴㅡㅇ -7223
▁ㅁㅣㄹㅈㅓㅂ -7224
▁ㅊㅏㄱㄹㅠㄱ -7225
▁ㅁㅏㅊㅕㅆ -7226
▁ㅅㅣㄱㅅㅏ -7227
▁ㅂㅔㄴㅔㅅ -7228
▁ㄱㅓㄹㄹㅕ -7229
ㅓㅂㅈㅣㄹ -7230
▁ㅈㅗㄱㅜㄱ -7231
▁ㅅㅓㅇㄱㅗㅇㅎㅚ -7232
ㅋㅔㄹ -7233
ㅖㅍㅡ -7234
ㅔㄱㅅㅡ -7235
▁ㄷㅚㄷㅗㄹ -7236
▁ㅎㅏㄴㅇㅑㅇ -7237
▁ㄱㅏㄴㅈㅓㅂ -7238
▁ㅈㅓㅇㅂㅓㄹ -7239
▁UN -7240
▁ㅈㅣㅈㅜ -7241
▁ㅊㅣㄴㅈㅓㅇ -7242
ㄸㅡㅅ -7243
▁ㅎㅏㄴㄱㅏㅇ -7244
▁ㅁㅓㅁㅜㄹㄹㅓㅆ -7245
▁ㅈㅜㄹㅣㅂ -7246
ㅂㅔㄹㅡㅌㅡ -7247
ㄲㅗㄹ -7248
ㅋㅔㅇㅣㄴ -7249
▁ㄱㅏㅈㅣㄹ -7250
▁ㅈㅡㅇㄱㅣ -7251
▁ㅈㅓㅁㅇㅠ -7252
▁ㅇㅣㄹㅇㅓㄴㅏㄴㄷㅏ -7253
▁ㅋㅗㅇㄱㅗ -7254
▁ㅍㅜㄴ -7255
▁ㅇㅝㄹㄱㅏㄴ -7256
ET -7257
▁ㅈㅣㅌ -7258
▁ㅇㅐㄱㅜㄱ -7259
▁ㅊㅜㄹㄱㅜ -7260
ㅈㅡㅁㅣ -7261
▁ㅇㅠㅇㅎㅏㅂ -7262
▁ㄱㅏㄴㅏ -7263
▁ㅇㅘㅈㅜㅇ -7264
▁ㅊㅜㅇㄴㅏㅁ -7265
▁ㅈㅗㅎㅇㅏㅎㅏ -7266
▁ㅊㅐㅁㅍㅣ -7267
▁ㅇㅏㅎㅗ -7268
▁ㄷㅏㄹㅜㄴ -7269
▁ㅎㅏㄱㅍㅏ -7270
ㅍㅐㄴ -7271
▁ㅆㅡㄴㄷㅏ -7272
▁ㅍㅏㅌㅡㄴㅓ -7273
▁ㅇㅣㄹㅜㅇㅓㅈㅣㄴㄷㅏ -7274
ast -7275
▁ㅅㅡㅍㅏ -7276
▁ㅂㅐㅇㅋㅡ -7277
▁ㅇㅛㅇㄹㅑㅇ -7278
▁ㅂㅜㅌㅗㅇㄹㅕㅇ -7279
▁ㄱㅣㅌㅏㄹ -7280
▁ㄱㅓㅇㅣㄴ -7281
▁ㅇㅣㄹㅇㅛㅇㅣㄹ -7282
▁ㅇㅗㅋㅔㅅㅡㅌㅡㄹㅏ -7283
▁ㅅㅡㅌㅏㅋㅡㄹㅐㅍㅡㅌㅡ -7284
▁ㅆㅏㅇㅝㅆ -7285
▁ㅈㅏㅁㅏ -7286
▁ㅇㅛㅋㅡ -7287
▁ㄴㅗㅇㄷㅗ -7288
▁ㅂㅏㄹㅎㅛ -7289
▁ㅁㅗㄹㄹㅏㄱ -7290
▁ㅅㅓㄴㄷㅜ -7291
ㅃㅕ -7292
▁ㄷㅜㅅㅏㄴ -7293
▁ㅂㅜㄴㅈㅣ -7294
▁ㅊㅚㅅㅣㄴ -7295
▁ㅂㅓㄹㅇㅓㅈㅣ -7296
▁ㅈㅣㄴㄴㅏㄹㅏ -7297
ㅌㅜㄴ -7298
ㅏㅂㅏ -7299
▁ㄱㅚㅇ -7300
▁ㄱㅟㅎㅘㄴ -7301
▁ㅈㅣㅈㅏㅇ -7302
▁ㅊㅏㅁㅍㅏㄴ -7303
▁ㅅㅣㅊㅔ -7304
▁ㅌㅜㅁㅕㅇ -7305
▁ㅅㅏㄹㅗ -7306
▁ㄱㅐㅂㅏㄹㅈㅏ -7307
▁MVP -7308
ㅈㅏㅂㅇㅣ -7309
ㅗㄹㄹㅣ -7310
▁ㅂㅡㄹㅔ -7311
▁ㄱㅗㅇㄱㅘ -7312
▁ㅂㅏㄹㅈㅗㄱ -7313
▁ㅉㅣ -7314
▁ㅅㅏㄹㅡ -7315
ㄷㅔㅇㅣㅌㅡ -7316
▁ㅈㅜㅇㄱㅜㄱㅇㅓ -7317
▁ㅅㅡㅌㅡㄹㅣㅌㅡ -7318
▁139 -7319
▁ㄱㅏㅇㅇㅕㄴ -7320
▁ㅇㅟㅈㅜ -7321
▁ㄱㅓㄹㄹㅣ -7322
▁ㅁㅏㅊㅓㄴ -7323
▁ㅅㅓㅇㅈㅗㅇ -7324
▁ㅇㅓㅂㄷㅔㅇㅣㅌㅡ -7325
▁ㅇㅐㅍㅡㄹㄹㅣㅋㅔㅇㅣㅅㅕㄴ -7326
▁DS -7327
ㄹㅣㅇㅏ -7328
▁ㅇㅘㄴㅎㅘ -7329
▁ㅈㅓㄴㅈㅏㅇ -7330
▁ㄷㅐㄹㅕㅇ -7331
▁ㅇㅓㅄㅇㅐ -7332
▁ㅇㅕㄴㅇㅐ -7333
▁HIV -7334
ㅌㅏㅋㅏ -7335
ㄹㅓㅁㅂㅣㅇㅏ -7336
▁ㅊㅜㅇㅅㅓㅇ -7337
▁145 -7338
▁ㄱㅕㅇㅅㅏ -7339
▁ㄱㅗㄱㅐ -7340
▁ㅂㅜㅅㅣ -7341
ㄱㅣㄹㅇㅣ -7342
▁ㄴㅐㄴㄷㅏ -7343
▁ㅅㅏㅇㅁㅜ -7344
▁ㅅㅓㅇㅕㄹ -7345
▁ㄱㅗㅇㅇㅛㅇ -7346
▁ㅇㅡㅇㅇㅜㅇㅖㄴ -7347
if -7348
▁ㅍㅏㄴㅁ -7349
▁ㅃㅏㄹㄹㅣ -7350
▁ㅇㅏㅂㅣ -7351
▁ㅇㅣㅅㅠ -7352
▁ㄷㅣㅈㅔㄹ -7353
▁ㅍㅣㄹㅔㄴㅊㅔ -7354
▁ㅋㅣㄹㄹㅗㅁㅣㅌㅓ -7355
ㅡㄹㅅㅡ -7356
AD -7357
ㅌㅡㄹㅐㄱ -7358
▁ㄱㅕㅇㅅㅓㄴ -7359
▁ㅅㅣㄷㅡㄴㅣ -7360
▁ㅊㅡㄱㄱㅡㄴ -7361
▁ㅅㅏㄹㅏㅈㅕㅆ -7362
▁ㅅㅓㅇㅣㄹㅂㅗㄴ -7363
▁ㅅㅣㄷㅡ -7364
▁ㅅㅣㅁㅎㅏㄴ -7365
▁ㅋㅡㄹㄹㅣㄴ -7366
▁ㄱㅣㅌㅏㄹㅣㅅㅡㅌㅡ -7367
▁ㅂㅓㄹㅇㅓㅈㅕㅆ -7368
▁ㅇㅕㄷㅓ -7369
▁ㄱㅜㄷㅗㅇ -7370
▁ㄱㅓㅁㅈㅡㅇ -7371
▁ㄸㅟㅇㅓㄴㅏ -7372
▁ㅅㅣㅇㅏ -7373
ㅌㅡㄹㅣㄱ -7374
▁ㅎㅐㅇㅣㄴ -7375
▁ㅈㅜㅇㄷㅗㄱ -7376
▁ㅈㅜㄴㄱㅕㄹㅅㅡㅇ -7377
▁ㅋㅚ -7378
▁ㄱㅘㄴㅊㅏㄹㅅㅏ -7379
ive -7380
ㅁㅏㅈ -7381
▁ㅅㅏㅁㅕㅇ -7382
▁ㅈㅓㄴㅇㅣ -7383
▁ㅎㅜㅈㅣㅇ -7384
▁ㅇㅘㅇㅣㄴ -7385
▁ㅇㅏㅇㅣㄷㅣㅇㅓ -7386
ㅓㅇㅝ -7387
▁ㄷㅗㄹㅇㅏ -7388
IT -7389
ㅇㅓㄱ -7390
▁ㅇㅑㄱㅣ -7391
▁ㅊㅏㄱㅅㅜ -7392
▁ㅎㅕㅇㅂㅓㅂ -7393
▁ㅇㅛㅁㅣㅇ -7394
▁ㅇㅛㅁㅣㅇㅜㄹㅣ -7395
▁ㄱㅗㅈㅗ -7396
▁ㅇㅏㅈㅗㅇ -7397
▁ㅎㅐㅈㅓㄴ -7398
▁ㅈㅓㄴㄹㅠ -7399
ㅔㄴㅈㅣ -7400
▁174 -7401
▁ㄱㅗㅇㅈㅓㄴ -7402
▁ㅌㅗㅇㅎㅐㅇ -7403
▁ㄱㅘㄴㄱㅘㅇㄱㅐㄱ -7404
▁ㅇㅏㄹㄹㅕㅆ -7405
▁ㅁㅗㅅㅎㅏㄴㄷㅏ -7406
▁ㅌㅗㄹㅡ -7407
▁ㅅㅓㄱㅌㅏㄴ -7408
▁ㅅㅣㄴㅋㅏㄴ -7409
▁ㅁㅗㅁㄱㅣㄹㅇㅣ -7410
▁ㅈㅣㄱㅏㄱ -7411
ack -7412
ure -7413
▁ㅌㅔㄹㅡ -7414
▁ㄱㅝㄴㅇㅠ -7415
▁ㅈㅓㄴㅇㅣㅁ -7416
▁ㅅㅜㅎㅏㄱㅈㅏ -7417
▁ㅈㅔㅇㅢ -7418
▁ㄱㅠㅁㅕㅇ -7419
▁IP -7420
▁ㄱㅘㄴㅅㅡㅂ -7421
▁1896 -7422
▁ㅈㅘㅍㅛ -7423
▁ㅇㅏㅇㅜㄹㄹㅓ -7424
▁ㄹㅣㅌㅜㅇㅏㄴㅣㅇㅏ -7425
▁ㄹㅗㅂㅔㄹㅡ -7426
▁ㅊㅓㄴㅁㅜㄴㅎㅏㄱ -7427
▁ㅅㅗㅈㅐㅈㅣ -7428
▁ㅅㅗㅅㅗㅇㅂㅓㅂ -7429
▁ㄹㅗㅂㅣㄴ -7430
▁ㅅㅣㄹㅇㅛㅇ -7431
▁ㅇㅣㅌㅗ -7432
▁Ar -7433
▁ㅅㅏㅇㅅㅏㅇ -7434
▁ㅅㅔㄱ -7435
▁ㅈㅓㅈ -7436
ㄷㅡㅇㅣㄴ -7437
▁ㅊㅓㅇㅇㅘ -7438
▁ㅍㅏㄴㅁㅐㄹㅑㅇ -7439
▁ㄴㅗㄷㅗㅇㅈㅗㅎㅏㅂ -7440
ㅓㅈㅕ -7441
▁ㅂㅜㄷㅗ -7442
▁ㅇㅏㄷㅗ -7443
▁ㅇㅕㄷㅓㄼ -7444
▁ㅈㅓㅇㅊㅏㄹ -7445
▁ㅊㅐㄱㅂㅗㅇ -7446
▁ㅅㅛㅍㅣㅇ -7447
▁ㅌㅡㄹㅔ -7448
▁ㅎㅗㅍㅕㅇ -7449
▁ㅁㅛㅈㅣ -7450
▁ㅅㅔㄹㅖ -7451
ㄱㅠㄴㄱㅘㄴ -7452
▁ㅂㅐㄱㅅㅣㄴ -7453
▁ㅈㅗㄴㄱㅕㅇ -7454
iv -7455
▁ㅁㅣㅅㅏ -7456
▁ㅈㅏㅁㅕㄴ -7457
▁ㅅㅓㅇㅂㅕㄱ -7458
▁ㅊㅓㅇㅇㅘㄷㅐ -7459
ock -7460
▁5000 -7461
▁ㅂㅜㅌㅇㅣ -7462
▁ㅊㅣㄴㅅㅓㄴ -7463
▁ㅈㅓㄱㅣㅇㅏㅂ -7464
▁ㅇㅗㄷㅏ -7465
▁ㅍㅣㄴㅏㄴ -7466
▁152 -7467
▁ㅌㅔㅇㅗ -7468
▁ㅅㅜㅅㅣㄴ -7469
▁ㅊㅏㅈㅇㅏㄱㅏ -7470
▁ㄱㅣㅇㅏ -7471
▁ㅈㅗㅇㅛㅇ -7472
▁ㅅㅔㅁ -7473
▁ㅍㅡㄹㅗㅅㅔㅅㅡ -7474
▁ㅇㅏㄹㅣ -7475
▁ㅎㅏㅌㅡ -7476
▁ㅈㅏㅇㅅㅓㅇ -7477
▁ㅎㅐㅇㅈㅣㄴ -7478
ck -7479
▁ㅇㅔㄹㅣ -7480
ㅋㅏㅇㅑㅁㅏ -7481
▁ㅌㅐㄹ -7482
▁ㅁㅏㄹㅣㅇㅗ -7483
▁ㅁㅜㄴㅈㅐㅇㅣㄴ -7484
▁ㅂㅗㄱㅅㅗ -7485
ㅣㅇㅓㄴㅅㅡ -7486
▁ㅍㅡㄹㄹㅏㅇ -7487
▁ㅍㅏㄴㅌㅏㅈㅣ -7488
ㅇㅗㅅ -7489
ㅈㅡㅋㅏ -7490
▁ㅇㅕㅁㅅㅐㄱ -7491
▁ㅈㅓㄴㅈㅣㄴ -7492
▁ㅌㅠ -7493
ㅏㅂㅡ -7494
ㅐㄹㅗ -7495
▁ㅂㅜㅈㅏ -7496
▁ㅅㅣㄴㅈㅓㄴ -7497
ㅅㅡㅂㅜㄹㅡㅋㅡ -7498
▁157 -7499
ㅔㅅㅡㅋㅗ -7500
▁ㅅㅣㅇㅚㅂㅓㅅㅡ -7501
▁ㅍㅡㄹㅗㄱ -7502
▁ㅌㅗㄴㅣ -7503
▁ㅇㅏㄱㅁㅏ -7504
▁ㅊㅟㅇㅑㄱ -7505
▁ㅆㅗㄷ -7506
▁ㅈㅓㄴㅈㅣ -7507
ㅅㅏㄴㅁㅜㄹ -7508
▁ㄷㅡㄹㅇㅓㅇㅘ -7509
▁ㅈㅓㄴㅁㅜㄴㅎㅏㄱㄱㅛ -7510
▁ㄷㅏㄹㄹ -7511
▁ㅌㅔㅇㅣㄹㄹㅓ -7512
ㅇㅓㅈㅕ -7513
▁ㅂㅣㄱㅡㄱ -7514
▁ㅇㅕㄴㄱㅜㅈㅏ -7515
▁ㄱㅗㄹㅕㅇ -7516
▁ㄷㅗㅇㅊㅣ -7517
▁ㅈㅏㅅㅗㄴ -7518
▁ㄱㅘㄴㄴㅕㅁ -7519
▁ㄷㅐㅇㅚ -7520
▁MP -7521
▁ㄴㅗㅁ -7522
▁ㅇㅑㅇㅅㅏㅇ -7523
▁ㅂㅣㄹㅎ -7524
▁ㄱㅘㅁㅗㄱ -7525
▁ㅇㅣㄴㄱㅘ -7526
ㄹㅣㅇㅜㄷㅡ -7527
ㅎㅕㄱㅁㅕㅇ -7528
ㅔㄱㅣ -7529
▁ㄱㅡㅂㅈㅣㄴ -7530
ㅋㅏㄷㅡ -7531
▁ㅈㅣㅂㅜㄴ -7532
▁ㅂㅜㄹㄹㅓㅇ -7533
▁ㅈㅜㄴㄱㅗㅇ -7534
▁ㅎㅏㄹㄷㅏㅇ -7535
ㅡㅂㅜㄹㅡㅋㅡ -7536
▁ㅇㅓㄹㅁㅏㄴㅏ -7537
▁ㅅㅙ -7538
▁ㅇㅠㄴㅕㄴ -7539
▁ㄱㅡㅁㅅㅓㅇ -7540
▁ㄷㅗㅇㄴㅏㅁㅇㅏㅅㅣㅇㅏ -7541
▁ㄲㅏㅁ -7542
▁ㅇㅠㅊㅜㄹ -7543
▁ㅇㅓㄹㅣㄹ -7544
▁ㅁㅣㄹㅇㅑㅇ -7545
▁ㅍㅣㅇㅔㄹㅡ -7546
▁ㄱㅕㅌ -7547
ㅊㅏㅇㄱㅣ -7548
▁ㅂㅓㄴㄴㅚ -7549
▁ㅌㅚㄱㅏㄱ -7550
▁ㄱㅘㄴㅎㅕㄴ -7551
▁ㅅㅣㄱㄷㅏㅇ -7552
▁ㅈㅔㅎㅠ -7553
▁ㅌㅡㄹㅐ -7554
▁ㅁㅣㄷㅇㅡㅁ -7555
▁ㅊㅏㅇㅇㅓㅂ -7556
▁ㅎㅚㅅㅜ -7557
▁ㅁㅏㅊㅏㄹ -7558
▁ㄷㅗㄱㄹㅣㅂㅇㅜㄴㄷㅗㅇㄱㅏ -7559
▁ㄹㅜㅅㅜ -7560
▁ㅇㅣㄹㅎㅘ -7561
ㅌㅜㅁ -7562
▁ㅁㅜㅎㅛ -7563
ㄴㅏㄱ -7564
▁ㅅㅣㄴㅋㅏㄴㅅㅔㄴ -7565
▁ㅁㅏㄷ -7566
ㅈㅏㅇㅘ -7567
ㅋㅡㅇ -7568
▁ㅅㅓㄷㅗㄱ -7569
▁ㅎㅐㅇㅣㅁ -7570
ㅁㅜㄴㄱㅘㄴ -7571
▁ㅈㅏㅇㅇㅣㄴ -7572
▁ㅇㅡㅇㄷㅏㅂ -7573
ㅅㅜㅅㅜ -7574
12 -7575
▁ㅊㅓㅇㅇㅝㄴ -7576
▁ㅎㅏㅂㅓㄷㅡ -7577
ㅏㄹㅏㅂㅣㅇㅏ -7578
▁ㅂㅜㄹㅣ -7579
ㅂㅔㅇㅣㄴ -7580
▁ㄱㅘㄷㅗ -7581
▁ㅇㅣㅅㅜㄴ -7582
▁j -7583
▁ㅊㅔㅅㅡ -7584
▁ㅅㅏㅇㄹㅠ -7585
▁ㅁㅜㄹㄹㅓㄴㅏ -7586
ㅕㄱㅏㅆ -7587
▁ㄱㅣㅁㅇㅛㅇ -7588
▁ㅍㅗㄹㄹㅣㅅㅡ -7589
▁ㅇㅗㅋㅣㄴ -7590
▁ㅇㅏㅅㅣ -7591
▁ㄷㅏㅁㅂㅐ -7592
▁ㄸㅓㄴㅏㄴ -7593
▁ㅅㅗㄱㅡㅁ -7594
▁ㅇㅕㅇㅢ -7595
▁ㅍㅡㄹㅗㅌㅗㅋㅗㄹ -7596
▁ㅎㅢㄱㅡㄱ -7597
▁105 -7598
▁ㅇㅕㄴㄹㅜ -7599
▁ㅁㅛㅇ -7600
ㅓㅂㅏㄷ -7601
▁ㄱㅡㄹㅏ -7602
▁ㅅㅗㄹㄹ -7603
▁ㅅㅓㅇㄱㅠㄴㄱㅘㄴ -7604
▁ㅁㅐㅊㅜㄹ -7605
ㅗㄹㄹㅗㅈㅣ -7606
▁PS -7607
▁ㄷㅗㅇㅇㅟ -7608
▁ㅅㅗㅊㅗㅇ -7609
ㄷㅔㄹㅍㅣㅇㅏ -7610
ㅍㅗㄹㄹㅣㅅㅡ -7611
▁ㅍㅣㄹㄹㅏㄷㅔㄹㅍㅣㅇㅏ -7612
ㅇㅏㄹㅣ -7613
▁ㅅㅗㄴㅣㄱ -7614
▁ㅎㅟㅂ -7615
▁1500 -7616
▁3000 -7617
▁ㅍㅐㅈㅓㄴ -7618
▁ㄷㅏㄹㅇㅏㄴ -7619
▁ㅊㅜㅇㅈㅗㄱ -7620
ㅣㅁㅔ -7621
▁ㅇㅣㅂㅡ -7622
▁ㅁㅣㄴㅏㅁㅣ -7623
▁ㅅㅓㅇㅈㅓㄴ -7624
▁ㅈㅜㅇㅈㅓㅁ -7625
ㅣㄱㅓㄴ -7626
▁ㄴㅗㄷㅡ -7627
▁ㅈㅓㅌㅐㄱ -7628
▁ㅎㅏㅇㄱㅗㅇㅁㅗ -7629
▁ㄷㅓㄴㅈㅣ -7630
ㅎㅏㄹㅡㅌㅡ -7631
ㄷㅐㄱㅜㄴ -7632
ㅈㅓㄴㅈㅏ -7633
▁125 -7634
▁ㅇㅏㄴㅂㅗ -7635
▁ㅇㅜㅈㅓㅇ -7636
▁ㄷㅡㄹㅣ -7637
▁ㅇㅣㅇㅣ -7638
▁ㅂㅗㅇㅣㅇ -7639
▁1911 -7640
ㄷㅡㄹㄹㅣ -7641
▁146 -7642
▁ㅇㅣㄹㅣ -7643
▁MC -7644
▁ㅂㅏㄱㅇㅕㅇ -7645
ㅁㅐㄴ -7646
▁ㅎㅡㅌ -7647
▁ㅂㅣㅇㅏ -7648
▁ㅅㅞ -7649
▁Le -7650
ㅂㅏㅌ -7651
ㅅㅣㄱㅁㅜㄹ -7652
▁ㅇㅒ -7653
▁ㅅㅏㅅ -7654
▁ㅇㅟㄱ -7655
▁ㄷㅏㄴㅈㅓㅁ -7656
ㅊㅡㅋㅣ -7657
▁ㅇㅖㅂㅐ -7658
▁ㅈㅗㅇㅓㄴ -7659
▁ㄴㅏㅁㅇㅣㄴ -7660
▁ㅍㅕㄴㄱㅗㄱ -7661
▁ㅇㅚㅁㅜ -7662
▁ㅅㅣㄹㅣㅂ -7663
▁ㅇㅑㄼ -7664
▁ㄱㅜㄱㅇㅓ -7665
▁ㅈㅜㄱㅝㄴ -7666
▁ㅅㅜㄹㅌㅏㄴ -7667
ㅎㅔ -7668
▁ㅅㅓㅂㅡ -7669
ㅋㅣㄴㅅㅡ -7670
▁ㅍㅗㅈㅏㅇ -7671
ㅛㅇㅣㄹ -7672
▁ㅁㅐㄱㅐ -7673
▁ㅇㅣㅈㅐ -7674
▁ㅁㅣㄴㄱㅜㄱ -7675
▁ㅎㅘㄴㅇㅝㄴ -7676
▁ㅇㅝㄴㄴㅏㄹㅏ -7677
ML -7678
one -7679
▁ㅂㅘㅆ -7680
ㄷㅏㄷㅡ -7681
▁ㅌㅡㄹㅏㅇ -7682
▁ㅇㅜㅈㅜㅅㅓㄴ -7683
▁Pro -7684
▁ㄱㅐㅇㅝㄴ -7685
▁ㄴㅣㅋㅗㄹㄹㅏ -7686
▁153 -7687
▁ㅅㅓㅅㅓ -7688
▁ㅇㅗㅋㅏ -7689
▁ㄴㅏㅁㅇㅑㅇ -7690
ㅗㅇㅣㄴ -7691
▁ㅇㅕㅅㅓ -7692
▁ㄷㅏㄹㄹㅕ -7693
▁ㄷㅏㄴㅇㅝㄴ -7694
▁ㅂㅏㄴㄱㅕㄱ -7695
▁ㅊㅏㄱㄱㅗㅇ -7696
▁ㅊㅗㅊㅏㅇㄱㅣ -7697
▁ㄱㅜㄹㅗ -7698
▁ㅊㅓㄴㅅㅏ -7699
ㅈㅡㄹ -7700
ㅍㅡㅅㅡ -7701
▁ㅎㅚㄱㅖ -7702
▁ㅎㅚㅎㅘ -7703
▁ㅂㅏㄹㄹㅔ -7704
▁ㅇㅣㅂㅗㄱ -7705
▁ㅂㅓㅂㄹㅕㅇ -7706
▁ㅊㅏㅁㄱㅏㅈㅏ -7707
▁ㅈㅏㅊㅐㄱㅈㅓㅁ -7708
▁ㅍㅐㄹㅓ -7709
▁ㄱㅗㅇㅝㄴ -7710
▁ㅇㅣㅇㅝㄴ -7711
▁ㄱㅗㅅㄱㅗㅅ -7712
▁ㅇㅟㄹㅅㅡㄴ -7713
▁ㅎㅘㄴㅅㅏㅇ -7714
▁ㅎㅚㄱㅕㄴ -7715
▁ㅈㅣㅈㅣㅈㅏ -7716
ime -7717
ㄷㅏㄷ -7718
▁ㄲㅏㄹ -7719
▁ㅊㅓㅇㅅㅏ -7720
▁ㄷㅙㅆㅇㅡㅁㅕ -7721
▁ㄴㅐㄴㅐ -7722
▁ㄱㅏㅇㅅㅏ -7723
AP -7724
▁ㅇㅕㅈㅣㄴ -7725
▁ㅇㅜㄹㅏㄴ -7726
▁ㅇㅠㅇㅓㄴ -7727
▁ㅇㅕㄴㅇㅣㄴ -7728
ㅅㅏㅇㅅㅡ -7729
▁ㄴㅏㅇㅕㄹ -7730
▁ㅇㅣㄹㄹㅔㄱ -7731
▁ㄱㅏㅈㅕ -7732
▁ㅈㅔㅌㅡ -7733
ㅗㄱㄷㅗㄹㅗ -7734
▁ㅂㅕㄹㅈㅏㄹㅣ -7735
▁ㄴㅜㄴㅁㅜㄹ -7736
▁ㅁㅣㅇㅑㄴㅁㅏ -7737
▁ㄱㅣㅈㅏㅇ -7738
▁ㅊㅚㅈㅓㄱ -7739
▁ㅂㅣㄹㅎㅔㄹㄹㅡㅁ -7740
▁103 -7741
▁ㅊㅣㄴㅊㅓㄱ -7742
▁ㅂㅟ -7743
ㅏㄱㅎㅕㅇ -7744
▁ㅈㅣㅁㅗㄱ -7745
▁ㅌㅡㄱㅇㅠ -7746
▁ㄷㅏㄺ -7747
▁ㄱㅗㅂㅔ -7748
▁ㅇㅕㄹㅐ -7749
ㄷㅜㅎㅘㄴ -7750
▁ㄱㅡㄴㅈㅓㅂ -7751
▁ㅎㅜㅈㅏ -7752
▁ㄹㅣㅇㅏ -7753
▁ㅂㅐㄱㅜ -7754
▁ㅅㅗㄱㅘㄴ -7755
▁ㄸㅓㄹㅇㅓㅈㅕㅆ -7756
▁ㅊㅜㄹㅇㅣㅂㄱㅜ -7757
OC -7758
▁ㄱㅐㅇㅓㅂ -7759
▁ㄸㅏㅇㅟ -7760
ㅈㅔㅍㅡ -7761
▁ㄷㅣㅂㅣ -7762
▁ㅅㅜㄴㅊㅓㄴ -7763
▁ㅇㅣㄴㄱㅕㄱ -7764
▁ㄴㅓㄹ -7765
▁ㅇㅣㄹㄱㅘㄴ -7766
ㅊㅔㄹ -7767
▁ㅇㅜㄹㅡ -7768
▁ㅅㅓㅇㅁㅗ -7769
ㅇㅏㄱㄷㅏㄴ -7770
▁ㅌㅡㄹㅐㄴ -7771
▁ㅇㅏㄹㅡㅁㅔㄴㅣㅇㅏ -7772
ㅁㅜㄹㅏ -7773
▁ㅅㅣㄱㅗㅇ -7774
▁ㄱㅗㅇㄹㅑㄱ -7775
▁ㄷㅐㄷㅏㅂ -7776
▁ㅁㅣㄴㅅㅏ -7777
▁ㅇㅗㄷㅣㅇㅗ -7778
▁ㅎㅣㄱㅏㅅㅣ -7779
▁ㅂㅣㅌㅡㄹㅈㅡ -7780
▁ㅈㅓㅇㅊㅣㄱㅏ -7781
▁ㅂㅜㄱㄷㅗㅇㅂㅜ -7782
▁ㅇㅠㅎㅐ -7783
▁ㄱㅗㅇㅇㅣㄴ -7784
▁ㅈㅜㅇㅈㅏㅇ -7785
▁ㄱㅏㅇㅅㅜㄹㅑㅇ -7786
▁ㄷㅣㅇㅏ -7787
▁ㅇㅜㅍㅕㄴ -7788
▁ㅇㅣㄴㅎㅕㅇ -7789
▁ㅈㅜㅁㅓㄴㅣ -7790
▁ㅅㅏㅈㅣ -7791
▁ㅇㅟㅈㅏㅇ -7792
▁ㅋㅓㄴㅌㅡㄹ -7793
▁ㄴㅣㅇㅏ -7794
▁ㅈㅔㅎㅜ -7795
te -7796
▁ㄹㅔㅂㅏㄴ -7797
▁ㅅㅣㄹㅈㅗㅇ -7798
▁ㅎㅐㄹ -7799
▁ㄷㅗㄹㅣ -7800
▁ㅈㅜㅅㅏ -7801
▁ㅇㅏㅁㅣㄴ -7802
▁ㅈㅣㄴㄹㅣ -7803
▁ㅎㅕㅂㄷㅗㅇ -7804
▁ㄱㅔㄹㅡㅁㅏㄴ -7805
▁ㅇㅣㄱㅡㄹㅅㅡ -7806
ㄴㅓ -7807
ㅎㅜㄱㅜㄴ -7808
▁ㅁㅐㄹㅕㄱ -7809
▁ㅁㅗㅅㅎㅐ -7810
▁ㅂㅗㅊㅜㅇ -7811
▁ㅎㅐㅇㅕㄱ -7812
▁ㅎㅏㄴㄷㅔ -7813
ㄷㅗㅇㅁㅜㄹ -7814
▁ㅇㅣㅇㅕㅇ -7815
▁ㅅㅏㄹㅗㅈㅏㅂ -7816
▁ㅎㅏㅇㄱㅗㅇㅁㅗㅎㅏㅁ -7817
▁ㅅㅓㄴㅇㅝㄴ -7818
▁ㅈㅜㅍㅏㅅㅜ -7819
▁ㅍㅕㅇㅎㅐㅇ -7820
Pa -7821
▁ㅌㅗㅋㅡ -7822
▁ㅎㅓㅂㅡ -7823
▁ㄹㅔㅈㅓㄴ -7824
▁ㅂㅓㄹㅣㄴ -7825
▁ㅈㅡㅇㅎㅜㄱㅜㄴ -7826
▁ISO -7827
▁155 -7828
▁ㄱㅔㅈㅐ -7829
▁ㅁㅣㄴㅇㅕㅇ -7830
▁ㅇㅑㄱㅎㅏㄴ -7831
▁ㅇㅣㄹㅈㅗㄱ -7832
▁ㅇㅣㅇㅣㄴ -7833
▁ㅅㅔㄹㄹ -7834
▁ㅇㅣㅅㅜ -7835
▁ㅂㅕㄹㄱㅐ -7836
ㅣㄹㅏㅇ -7837
▁ㄱㅜㄺ -7838
▁ㅁㅏㅊㅣㄴ -7839
▁ㅂㅓㅌㅡㄴ -7840
▁ㅈㅓㄴㄹㅖ -7841
▁ㅇㅠㄱㅕㄱ -7842
▁ㅇㅣㅂㅏㄴ -7843
▁ㅈㅣㄴㄷㅗ -7844
▁ㅅㅏㅁㅏ -7845
▁ㅇㅏㄱㅜㄴ -7846
ㅃㅏㄹ -7847
▁ㅅㅏㅇㅈㅏ -7848
ㅎㅏㅇㄱㅗㅇ -7849
▁ㅎㅏㅂㅂㅓㅂ -7850
ㅂㅏㄷㅊㅣㅁ -7851
▁ㅋㅏㄹㅡㄹㄹ -7852
▁ㄹㅡㄴㅔㅅㅏㅇㅅㅡ -7853
▁ㄹㅛㅇ -7854
▁ㅇㅕㅅㅜ -7855
▁ㄱㅕㅁㅇㅣㅁ -7856
▁ㅅㅡㅇㅁㅜㅇㅝㄴ -7857
▁ㅅㅑㄹㅡㄹ -7858
▁ㄱㅏㄱㅂㅗㄴㄱㅏ -7859
▁ㄱㅏㄱㄱㅣ -7860
▁ㅎㅗㅊㅣㅇ -7861
io -7862
▁Con -7863
▁ㄱㅜㅈㅔ -7864
▁ㅋㅜㄹㅡ -7865
▁ㅈㅜㅇㅈㅗㅇ -7866
▁# -7867
▁ㅇㅣㅅㅣㄱ -7868
ㅊㅜㅁ -7869
▁ㄱㅡㄹㅔㅇㅣ -7870
ㄱㅛㅇㅠㄱ -7871
▁ㅅㅜㅅㅓㅇ -7872
▁ㄴㅜㅇ -7873
▁ㄴㅐㅈㅣ -7874
▁ㄲㅚ -7875
ㅡㄴㅣㅇㅏ -7876
▁Bo -7877
▁ㅈㅏㅂㅏㄹ -7878
▁ㅈㅡㄹㄱㅣ -7879
ㅗㄹㅏ -7880
▁ㅇㅠㄱㅛ -7881
▁ㅈㅏㄱㅗ -7882
ㅅㅏㄹㅕㅇ -7883
▁ㄱㅕㄱㄹㅕㄹ -7884
▁ㅈㅣㄴㅏㄱㅏ -7885
ㅍㅗㅅㅡ -7886
▁ㅉㅏㄹㅣ -7887
▁ㄱㅡㅁㅇㅐㄱ -7888
▁108 -7889
▁ㄷㅗㅇㄷㅡㅇ -7890
▁ㅇㅏㄹㅣㅅㅡ -7891
▁ㄷㅜㄹㄹㅓㅆㅏ -7892
▁ㅋㅐㅅㅡㅌㅣㅇ -7893
▁ㅎㅣㄷㅔㅇㅛㅅㅣ -7894
▁ㅊㅟㅈㅐ -7895
▁ㄱㅔㅅㅣ -7896
▁ㅅㅏㄴㅌㅏ -7897
▁ㅂㅔㄹㅡㅋㅡ -7898
▁ㅇㅗㄹㅔㄴㅈㅣ -7899
ㅍㅡㄹㅏ -7900
▁ㅁㅗㅇㅡ -7901
▁ㅎㅔㄷㅡ -7902
▁ㅇㅕㄴㄷㅗ -7903
▁ㅇㅜㅈㅣ -7904
▁ㅇㅡㄹㅕ -7905
▁ㅋㅐㅁㅍㅔㅇㅣㄴ -7906
ber -7907
▁ㅅㅏㅇㅈㅏㅇ -7908
ㅅㅗㅅㅡ -7909
▁ㄱㅗㅂㅏㄹ -7910
▁ㄱㅏㄹㅡㅊㅣㅁ -7911
▁ㅋㅓㅆ -7912
ㄸㅐㄹㅗ -7913
▁ㅅㅐㅇㅇㅣㄹ -7914
▁ㅅㅔㄱㅠㄴ -7915
▁ㄹㅔㅇㅣㅈㅓ -7916
ㅈㅣㅅㅡ -7917
▁ㅇㅣㅌㅡㄹ -7918
▁ㅇㅣㅅㅡㄹㄹㅏㅁㄱㅛ -7919
▁ㅊㅣㅅㅔ -7920
▁ㅎㅣㄷㅔ -7921
▁ㅈㅓㄱㅈㅏ -7922
▁ㅎㅏㅇㅑㄴ -7923
▁ㅇㅓㄷㅜㅇㅜㄴ -7924
▁ㅈㅓㄴㄷㅜㅎㅘㄴ -7925
▁ㅅㅗㅈㅣ -7926
▁ㅇㅔㅇㅣㅅㅡ -7927
▁ㅍㅗㅅㅜ -7928
▁ㅈㅠ -7929
▁ㅇㅔㅂ -7930
▁ㅎㅐㅇㅜㄴ -7931
▁ㅎㅜㅁ -7932
▁ㄷㅣㅇㅗ -7933
▁ㅇㅕㅇㄷㅗㅇ -7934
▁ㄷㅡㄹㅏㅇㅣㅂㅡ -7935
ㅅㅠㄹ -7936
▁ㄴㅏㄱㅗㅇㅑ -7937
▁ㅂㅏㄱㅌㅏㄹ -7938
▁ㅇㅏㅍㅁㅕㄴ -7939
pe -7940
▁IT -7941
▁ㅈㅓㅁㅍㅡ -7942
▁ㅍㅓㅅㅣㅍㅣㄱ -7943
▁ㅅㅐㅇㅁㅕㅇㅊㅔ -7944
▁ㅇㅣㄹㅉㅣㄱㅇㅣ -7945
▁ㄹㅜㄴ -7946
▁ㅂㅗㄱㅈㅏㅇ -7947
▁ㅌㅡㄹㅔㅇㅣㄴ -7948
▁ㅍㅐㅅㅡ -7949
▁ㅎㅘㅅㅏㄹ -7950
▁ㅊㅜㅁㅗ -7951
▁ㄷㅗㅇㄱㅜㄱ -7952
▁ㅇㅏㄴㅈㅏㅇ -7953
▁ㄴㅏㅁㄱㅣㄴ -7954
▁ㅅㅣㅊㅓㅇㅈㅏ -7955
▁ㅇㅚㄱㅘㄱ -7956
▁ㅅㅓㅅㅓㅎㅣ -7957
▁ㅅㅏㅇㅜㄷㅣㅇ -7958
▁ㅅㅏㅇㄷㅐㅂㅏㅇ -7959
▁ㅅㅏㅇㅜㄷㅣㅇㅏㄹㅏㅂㅣㅇㅏ -7960
▁ㅍㅏㅌㅡ -7961
▁ㅁㅏㄹㅡㅅ -7962
▁ㄸㅐㄸㅐㄹㅗ -7963
▁ㅌㅗㅇㅛㅇㅣㄹ -7964
▁ㄹㅗㄹㅔㄴ -7965
▁ㅇㅑㄱㅏㄴ -7966
▁ㄱㅔㅇㅣㅌㅡ -7967
▁ㄱㅜㅇㅈㅓㅇ -7968
▁ㅇㅕㄴㅎㅕㄱ -7969
▁ㄱㅛㄷㅏㄴ -7970
ㄷㅡㄹㅣㄱ -7971
▁ㅊㅜㄱㅕㄱ -7972
▁ㄱㅏㄱㅖ -7973
▁ㄱㅛㅈㅏㅇ -7974
▁ㅎㅑㅇㅎㅜ -7975
▁ㅅㅏㅇㄱㅗㅇ -7976
▁ㅌㅡㄹㅓㅁㅍㅡ -7977
▁1909 -7978
▁ㅅㅡㅇㅊㅏ -7979
▁ㅅㅡㅌㅔㅍㅏㄴ -7980
▁ㄱㅗㅇㅈㅏ -7981
▁ㅇㅟㄴㄷㅗ -7982
ㄱㅣㄱㅏㄴ -7983
▁ㅇㅣㅅㅏㅈㅏㅇ -7984
ge -7985
▁ㅇㅣㅂㅅㅏㅇ -7986
▁ㅋㅡㄹㅣㅅㅡㅁㅏㅅㅡ -7987
▁ㄱㅓㄴㅇㅢ -7988
▁ㅈㅗㅂㅏㄴ -7989
▁ㅎㅏㅇㅣㄴㄹㅣㅎㅣ -7990
▁ㄴㅔㄴ -7991
ㅎㅘㅈㅓㅁ -7992
▁ㄱㅣㄱㅡㅁ -7993
▁ㄱㅣㅁㅇㅕㅇㅅㅏㅁ -7994
ㅅㅣㄴㅗ -7995
▁ㅁㅜㄹㅕ -7996
▁ㅅㅏㅇㅂㅜ -7997
▁ㅅㅗㄱㅅㅓㅇ -7998
ㅓㄴㄷㅡ -7999
▁ㄱㅐㅊㅏㄹㄱㅜ -8000
▁ㅈㅓㄴㅎㅏㅁ -8001
ㅅㅣㅌㅣ -8002
▁ㅊㅗㅇㅕㄴ -8003
▁ㅇㅣㄹㅅㅐㅇ -8004
▁ㄱㅣㄴㅈㅏㅇ -8005
▁ㄴㅣㅋㅗㄹㄹ -8006
▁ㅂㅏㄹㅎㅕㄴ -8007
▁ㅇㅠㄴㅣㅍㅗㅁ -8008
▁ㅎㅜㅇㅏㄴ -8009
▁ㅍㅗㄱㅅㅡ -8010
▁ㅂㅜㄹㅡㄴ -8011
▁ㅂㅏㅇㅊㅣㅁ -8012
▁ㄱㅣㅅㅡ -8013
▁ㅇㅏㅇㄹㅣ -8014
▁128 -8015
▁ㄹㅔㅈㅓㄴㄷㅡ -8016
▁ㅅㅏㅆ -8017
▁ㄷㅏㅈㅜㅇ -8018
▁ㅇㅜㅋㅡㄹㅏㅇㅣㄴㅏ -8019
▁ㅎㅑㅇㅎㅏㄴ -8020
▁ㅇㅚㄱㅜㄱㅇㅓ -8021
▁ㄱㅓㄴㅊㅜㄱㄱㅏ -8022
ㅊㅔㄴ -8023
▁ㄱㅐㄱㅘㄴ -8024
▁ㅁㅣㄹㄹㅣ -8025
▁ㄴㅔㅇㅣㅂㅓ -8026
▁ㅌㅖㄴ -8027
▁ㄱㅗㄹㅡ -8028
ㄹㅏㅁㅎㅚ -8029
▁ㅎㅗㅇㅟ -8030
ㅎㅐㅇㅇㅟ -8031
▁102 -8032
▁149 -8033
▁ㅅㅖㄹ -8034
ㅜㅇㅔㄹㄹㅏ -8035
▁ㅈㅓㅇㅁㅣㄹ -8036
▁ㄷㅐㅈㅜㄱㅛ -8037
▁ㅈㅏㅁㅏㅈㅏ -8038
▁ㅍㅗㄷㅗㅈㅜ -8039
ㅣㅇㅓㅅㅡ -8040
▁Bl -8041
▁ㅁㅏㅇㅗ -8042
▁ㅁㅕㅇㅇㅢ -8043
▁ㄲㅡㄶㅇㅣㅁ -8044
▁ㄴㅏㅁㅎㅏㄴ -8045
▁ㅈㅔㅈㅏㄱㅈㅏ -8046
▁GT -8047
▁ㅈㅜㅁ -8048
▁ㅋㅏㅁㅂㅗ -8049
▁ㅅㅗㅇㄴㅏㄹㅏ -8050
▁ㅇㅜㄴㄷㅗㅇㅈㅏㅇ -8051
▁ㅅㅓㅂㅊㅟ -8052
▁ㅍㅐㅇㅊㅏㅇ -8053
▁ㅇㅠㅅㅗㄴㅕㄴ -8054
▁ㄱㅓㅅㅡㄹㄹㅓ -8055
▁ㅌㅔㄱㅅㅡㅌㅡ -8056
▁ㅈㅜㅇㄷㅗ -8057
▁ㅁㅔㄷㅣ -8058
▁ㄷㅐㄱㅜㄴ -8059
▁ㅁㅜㄹㅈㅏ -8060
▁ㅈㅗㄴㅈㅜㅇ -8061
▁ㅈㅜㅈㅣㅅㅏ -8062
▁ㅁㅐㅅㅏ -8063
ㅏㅇㅣㅇㅓ -8064
ㅍㅏㄱ -8065
▁ㅇㅔㅅㅡㅍㅏㄴㅑ -8066
▁ㅇㅖㅅㅣ -8067
▁ㄱㅚㅇㅈㅏㅇ -8068
▁ㅌㅓㄱ -8069
▁ㅂㅣㄹㄹ -8070
ㄱㅜㅈㅏㅇ -8071
▁ㅂㅜㅊㅏㄱ -8072
▁ㅈㅗㄹㅡ -8073
▁ㄱㅣㄷㅏㄹㅣ -8074
▁ㅂㅏㄹㅇㅝㄴ -8075
▁ㅈㅏㅇㅠㄷㅏㅇ -8076
ㅏㄹㅣㅇㅗ -8077
▁ㅂㅡㄹㄹㅜㅅㅡ -8078
▁ㅈㅣㄴㅏㅊㅣ -8079
▁ㅇㅏㄹㅂㅏㄴㅣㅇㅏ -8080
▁ㄴㅏㅁㅇㅝㄴ -8081
▁ㄱㅣㅅㅜ -8082
▁ㅈㅡㄹㄱ -8083
▁ㅍㅗㄱㅘㄹ -8084
ㅅㅏㄴㅁㅕㄴ -8085
▁ㅁㅔㄱㅏ -8086
▁ㄱㅖㅈㅓㄹ -8087
▁ㅁㅓㅅㅣㄴ -8088
▁ㅈㅣㄱㅊㅐㄱ -8089
ㅊㅣㄹㄹㅣㅇㅏ -8090
▁ㅇㅔㄷㅣ -8091
▁ㅅㅜㅇㅂㅐ -8092
ㅏㅋㅏ -8093
▁ㅈㅜㅇㄱㅜㄱㅇㅣㄴ -8094
iz -8095
▁ㄱㅗㅊㅔ -8096
▁ㅅㅏㄹㅣ -8097
▁ㅎㅑㅇㄱㅛ -8098
▁ㅇㅝㄴㅈㅏㄹㅗ -8099
ㄱㅏㅅㅡ -8100
▁ㄱㅏㅇㄱㅕㅇ -8101
ㅅㅡㅋㅔ -8102
DP -8103
ㅈㅣㅂㅎㅏㅂ -8104
▁ㅁㅜㄹㄹㅓㄴㅏㅆ -8105
▁ㅁㅔㅌㅏ -8106
▁ㅈㅓㄴㄷㅐ -8107
▁ㅁㅜㄴㅇㅑㅇ -8108
▁ㄱㅐㄱㄱㅘㄴ -8109
▁ㅊㅓㅇㅈㅏㅇ -8110
▁ㅇㅗㅋㅣㄴㅏㅇㅘ -8111
▁ㅅㅓㅇㅈㅜ -8112
▁ㅊㅏㄴㅏㅁ -8113
▁ㄱㅗㄹㅍㅡ -8114
▁ㄷㅗㅇㄷㅗㄱ -8115
▁ㄱㅖㅁㅗㅇ -8116
▁ㅊㅗㄱㄱㅜ -8117
ㄹㅗㅂ -8118
ㅂㅐㄱㄱㅘ -8119
▁ㅂㅕㅇㅇㅕㄱ -8120
orld -8121
▁ㄱㅏㅁㅣ -8122
▁ㅌㅏㄹㅡ -8123
ㄸㅏㄹ -8124
▁ㅅㅜㅍㅕㅇ -8125
▁ㄴㅏㄱㅅㅓㄴ -8126
▁ㅌㅗㅇㅊㅣㅇ -8127
▁ㅊㅚㅅㅗㅎㅏㄴ -8128
age -8129
▁ㅅㅏㅈㅓㄹ -8130
ㅍㅗㅌㅡ -8131
▁ㅇㅣㅂㅊㅔ -8132
▁ㅌㅐㅅㅐㅇ -8133
▁ㅅㅜㅅㅜ -8134
▁ㅇㅗㄹㅗ -8135
▁CPU -8136
▁ㄹㅔㅈㅣ -8137
▁ㅊㅟㅈㅣ -8138
▁ㅊㅜㅅㅏㅇ -8139
▁ㄱㅣㅁㅈㅣㄴ -8140
▁ㅇㅡㅁㅇㅝㄴ -8141
▁ㅅㅗㄴㄱㅏㄹㅏㄱ -8142
▁ㅌㅡㄴ -8143
▁ㅌㅗㄹㅣ -8144
▁ㅅㅜㄱㅜㄴ -8145
▁ㅂㅜㄱㅂㅏㅇ -8146
▁ㄷㅏㅎ -8147
▁ㅈㅣㄴㄱㅜㄴ -8148
▁ㄷㅣㅅㅡㅍㅡㄹㄹㅔㅇㅣ -8149
▁$ -8150
▁ㅍㅐㅎㅏ -8151
▁ㅇㅓㅇㅓㅂ -8152
▁ㅅㅔㄴㅅㅓ -8153
▁ㄱㅕㅇㄱㅘ -8154
▁ㅁㅏㄹㄹㅣ -8155
▁ㅇㅝㄴㅎㅏ -8156
▁ㄹㅣㅁㅔㅇㅣㅋㅡ -8157
▁ㄱㅡㄹㅏㅇㅍㅡㄹㅣ -8158
ㅅㅜㄹㅣ -8159
▁ㄱㅗㅁㅜ -8160
▁ㄴㅏㄹㅣ -8161
▁ㄷㅐㅇㅕㄱ -8162
▁ㄱㅏㅂㅈㅏㄱ -8163
▁ㄷㅜㅇㄱㅡㄴ -8164
▁ㅁㅏㄹㅡㅌㅣㄴ -8165
▁ㅋㅓㄹㄹㅓ -8166
▁ㅈㅓㅇㅁㅏㄹ -8167
▁147 -8168
ㅊㅏㄹㅖ -8169
▁ㅊㅣㅁㅁㅗㄹ -8170
ㅁㅏㄹㅡ -8171
▁ㅅㅣㅁㅇㅢ -8172
▁ㅋㅏㅈㅏㅎㅡ -8173
▁ㅇㅗㅋ -8174
ㅅㅓㄹㅣ -8175
▁ㅁㅣㅎㅏㅇ -8176
▁ㅎㅛㄹㅕㄱ -8177
▁ㄷㅏㄹㄹㅣㄴ -8178
▁ㅇㅔㄹㄹㅣㅂ -8179
ㅅㅓㄱㄱㅣ -8180
▁ㅁㅕㅇㅁㅗㄱ -8181
▁ㅇㅔㄹㄹㅣㅂㅔㅇㅣㅌㅓ -8182
ㅌㅣㅇㅏ -8183
▁ㅇㅗㅍㅡ -8184
ㅓㅅㅣㅂ -8185
▁ㅇㅙㅅㅓㅇ -8186
ㅅㅏㄴㄱㅜㄴ -8187
▁ㄲㅡㄹㄹ -8188
▁ㅅㅏㄹㅍㅕ -8189
▁127 -8190
▁ㄱㅓㄴㄴㅓㄱㅏ -8191
ㅎㅡㅁ -8192
▁171 -8193
▁ㅁㅜㅈㅚ -8194
ㄱㅕㅇㄱㅣ -8195
▁ㅈㅔㄱㅗㅂ -8196
▁ㄴㅏㄴㅁㅣㄴ -8197
▁ㅈㅗㅇㄱㅕㄹ -8198
▁ㅍㅡㄹㅐㅇㅋㅡ -8199
▁hPa -8200
ㅌㅐㅇㅜ -8201
▁ㅈㅓㅁㅕㅇ -8202
▁ㅂㅐㅌㅡㄹ -8203
▁ㅎㅕㅂㅈㅗ -8204
▁ㅈㅜㄱㅇㅕㅆ -8205
▁ㅌㅏㅇㅣㄱㅓㅈㅡ -8206
ik -8207
▁1915 -8208
▁ㄷㅗㅅㅡ -8209
▁ㅅㅜㄹㅕㅁ -8210
▁ㅊㅜㅇㅈㅜ -8211
▁ㄴㅗㄹㅏㄴㅅㅐㄱ -8212
ㅅㅜㅇㅏ -8213
▁ㅌㅏㅋㅏ -8214
▁ㅌㅔㄴㅣㅅㅡ -8215
▁ㄹㅗㅁㅐㄴㅅㅡ -8216
▁ㅁㅏㄴㅅㅔ -8217
▁ㅈㅓㄱㄷㅐ -8218
ㅣㅇㅜ -8219
▁ㅂㅔㄴㅔㅅㅜㅇㅔㄹㄹㅏ -8220
▁ㅅㅣㅁㅗ -8221
ㅇㅏㅂㅗㄹ -8222
▁ㅂㅜㅊㅓㄴ -8223
▁ㅅㅣㄴㅈㅜㅇ -8224
▁ㅅㅣㄴㅎㅡㅇ -8225
▁ㅅㅔㄱㅖㄱㅘㄴ -8226
▁ㅌㅗㅁㅏ -8227
▁ㅊㅜㅈㅡㅇ -8228
▁ㅎㅜㅇㅣㄹ -8229
▁ㅌㅡㅇㅟㄴㅅㅡ -8230
▁ㅇㅓㄴㄹㅗㄴㅇㅣㄴ -8231
ㅅㅣㄹㅗ -8232
▁ㅂㅏㄴㅂㅏㄱ -8233
▁ㅂㅜㄴㄱㅘㅇ -8234
EN -8235
▁ㄲㅙ -8236
▁ㅂㅜㄱㅘ -8237
▁ㅎㅟㄹ -8238
ㅈㅏㅅㅡ -8239
▁1913 -8240
▁ㄷㅐㅊㅓ -8241
▁ㅅㅡㅌㅣ -8242
▁ㅊㅐㅁㅜ -8243
▁ㅈㅜㅊㅜㄱ -8244
ㅍㅡㄹㅗㅅㅡ -8245
▁ㅈㅓㄴㅅㅓㅇㄱㅣ -8246
▁ㅅㅓㅅㅏ -8247
▁ㅍㅓㅈㅕ -8248
ㅏㅂㅔ -8249
▁ㄱㅡㄷㅗㅇㅇㅏㄴ -8250
▁ㅂㅏㄹㅎㅐ -8251
▁ㅇㅣㅇㅓㅂㅏㄷ -8252
ㅓㄱㅏㅆ -8253
▁ㄱㅡㄹㅔㄱㅗㄹ -8254
▁ㅊㅏㅇㅅㅣ -8255
▁ㅍㅜㅇㄱㅕㅇ -8256
▁ㅁㅜㄴㅎㅏㄱㅅㅏㅇ -8257
ㅗㄴㄷㅏ -8258
▁ㅇㅠㅋㅣ -8259
▁ㅇㅓㄴㅈㅔㄴㅏ -8260
▁ㅇㅣㅁㅣㄴㅈㅏ -8261
▁al -8262
▁ㅂㅗㄷㅡ -8263
▁ㅇㅣㅈㅣㄴ -8264
▁ㅌㅏㄹㅎㅘㄴ -8265
ㅍㅗㅇ -8266
▁ㄷㅗㅇㄴㅕㄴ -8267
▁ㅁㅗㄴㅌㅡㄹ -8268
▁ㄴㅏㄱㅏㅅㅏㅋㅣ -8269
▁ㅅㅏㅇㄷㅏㅇㅅㅜ -8270
▁ㄱㅣㅅㅡㅂ -8271
▁ㅊㅜㄹㅌㅗ -8272
▁ㅎㅘㅇㅎㅐ -8273
▁ㅇㅝㄴㅂㅏㄴ -8274
▁ㅇㅟㅋㅣㅂㅐㄱㄱㅘ -8275
▁ㅊㅓㄴㅁㅜㄴㅎㅏㄱㅈㅏ -8276
▁ㄸㅏㄸㅡㅅ -8277
▁ㅇㅓㄷㅡㅂ -8278
▁ㄷㅗㅇㄹㅕㄱ -8279
▁ㄱㅗㅇㅈㅣㄱ -8280
▁ㄱㅏㅈㅕㅇㅘㅆ -8281
▁SP -8282
▁ㅂㅜㄱㄱㅜ -8283
ㅍㅡㅁ -8284
▁ㅎㅗㅇㅅㅜ -8285
▁ㅁㅗㄴㅌㅡㄹㅣㅇㅗㄹ -8286
ㄱㅗㅁ -8287
ㅣㅇㅐ -8288
▁ㄱㅏㄷ -8289
▁ㅊㅏㅈㅗㅇ -8290
▁ㄷㅗㅇㄷㅏㅇ -8291
▁ㄱㅏㅇㄱㅘ -8292
▁ㅊㅏㅇㄱㅓㄴ -8293
▁ㅇㅣㄴㅈㅐ -8294
▁ㄱㅘㅇㄴㅕㄴ -8295
▁ㄴㅔㅇㅣㅅㅕㄴㅅㅡ -8296
▁Tr -8297
▁ㄱㅕㄹㅅㅓㄴ -8298
▁ㅅㅏㅇㅣㅂㅓ -8299
▁ㅅㅓㅂㅈㅓㅇ -8300
▁ㅂㅜㄱㅅㅓㅂㅜ -8301
▁ㅁㅣㅊㅕㅆ -8302
ㅊㅏㅇㄱㅜㄴ -8303
▁ㅋㅏㅁㅂㅗㄷㅣㅇㅏ -8304
▁169 -8305
▁ㄹㅣㅇㅋㅓㄴ -8306
▁ㅇㅠㅇㅕㄴ -8307
▁ㄱㅣㅁㅅㅏㅇ -8308
▁ㅂㅕㄹㅊㅣㅇ -8309
▁ㅅㅡㅍㅏㄹㅡㅌㅏ -8310
▁ㅍㅏㄹㄹㅔㅅㅡㅌㅏㅇㅣㄴ -8311
sp -8312
ㅈㅗㅅ -8313
ㅘㄹㅏ -8314
▁ㅇㅏㄷㅏㅁ -8315
▁ㅁㅜㅅㅏㅇ -8316
▁ㅌㅐㅅㅜ -8317
▁ㅇㅏㅇㅣㅌㅔㅁ -8318
▁ㅅㅏㅋㅏ -8319
▁ㅂㅜㄱㅇㅟ -8320
▁ㅅㅣㄱㅂㅕㄹ -8321
▁ㅇㅓㅇㅛ -8322
▁ㅂㅏㅅㅣㄹ -8323
▁ㄲㅔㅅㅓ -8324
▁ㅇㅟㄹㄹㅣㅇㅓㅁㅅㅡ -8325
▁ㄱㅐㅁㅣ -8326
▁ㄷㅏㅁㅏ -8327
▁ㄱㅗㅂㅐㄱ -8328
ㅓㄴㅣㅈㅡㅁ -8329
▁ㅈㅜㅊㅏ -8330
▁ㅅㅜㄹㅕㅇ -8331
▁ㅈㅜㅇㅈㅐ -8332
▁ㄷㅗㅎㅗㅋㅜ -8333
▁ㄷㅡㄴㅈㅣ -8334
ㅈㅏㅊㅣㄷㅗ -8335
▁ㅈㅔㅈㅜㅌㅡㄱㅂㅕㄹ -8336
▁ㄷㅐㅈㅔ -8337
▁ㅎㅗㅅㅔ -8338
▁ㅇㅗㄴㅊㅓㄴ -8339
▁ㄱㅏㄹㅡㅊㅕㅆ -8340
▁ㅂㅔㅅㅡ -8341
▁ㅊㅏㄱㅣ -8342
ㅊㅣㅇㅝㄴ -8343
ㅌㅔㅇㅣㄴ -8344
▁ㅍㅜㅅㅂㅗㄹ -8345
MS -8346
▁ㅅㅠㅍ -8347
▁ㄱㅘㅇㅂㅜ -8348
ㅍㅗㄱㅜ -8349
▁1895 -8350
ㅓㅈㅣㄴㄷㅏ -8351
▁ㅈㅏㄱㅣㅈㅏㅇ -8352
▁ㄹㅗㄱㅗ -8353
▁ㅎㅜㄷㅐ -8354
▁ㅅㅏㅎㅚㅎㅏㄱ -8355
▁ㅈㅣㅍㅖ -8356
▁ㅂㅣㅁㅜㄴ -8357
ㅌㅡㄹㄹㅐㄴ -8358
▁ㅊㅗㅇㄱㅘㄹ -8359
▁ㅇㅕㅇㄹㅣ -8360
▁ㅈㅓㄴㄷㅗ -8361
▁ㄹㅣㅂㅓㅍㅜㄹ -8362
▁NC -8363
▁ㄴㅐㅁ -8364
▁ㅁㅜㅈㅔ -8365
▁135 -8366
▁141 -8367
▁ㄷㅣㄱ -8368
ㅣㅇㅏㄱ -8369
▁ㄱㅡㄹㄹ -8370
▁ㅇㅗㄱㅅㅡ -8371
▁ㅂㅓㄴㅇㅕㅇ -8372
▁ㅂㅔㅇㅓㅅㅡ -8373
▁ㅊㅗㅅㅏㅇㅎㅘ -8374
▁ㅅㅗㅌㅗㅇ -8375
▁ㅈㅏㅇㅎㅏㄱ -8376
▁ㄷㅏㅇㅜㄴㄹㅗㄷㅡ -8377
▁ㅍㅖㅇㅟ -8378
▁ㄱㅗㅁㅣㄴ -8379
▁ㄷㅙㅈㅣ -8380
▁ㄴㅏㄹㅉㅏ -8381
▁ㅁㅓㅁㅊㅜ -8382
▁ㅇㅢㅅㅏㅇ -8383
ㅁㅕㅇㅅㅏㅈㅓㄴ -8384
ㅍㅡㄹㄹㅓ -8385
▁ㄷㅜㄹㄹㅓㅆㅏㄴ -8386
▁ㄷㅐㅇㅟ -8387
▁ㄱㅛㅇㅝㄴ -8388
▁ㅅㅣㅂㅈㅏㄱㅏ -8389
▁ㅊㅗㅇㅅㅓㄴㄱㅓ -8390
▁ㄷㅜㅁ -8391
▁ㅇㅝㄴㄱㅗ -8392
▁ㄱㅓㄴㅡㄹㅣ -8393
▁ㅆㅡㅇㅣㄴ -8394
▁ㅅㅏㅁㅈㅣㄴ -8395
▁ㅇㅏㅌㅡㄹㄹㅔ -8396
▁ㅎㅐㅂㅕㅇㄷㅐ -8397
▁ㅎㅏㄴㄷㅗㅇㅇㅏㄴ -8398
▁ㅈㅗㄷㅏㄹ -8399
ust -8400
▁ㅂㅓㅂㅈㅔ -8401
▁ㅅㅜㅇㅛㅇㅅㅗ -8402
▁ㅋㅝ -8403
▁111 -8404
▁ㅂㅏㄹㅣ -8405
▁ㅎㅠㅈㅓㄴ -8406
ㅂㅗㄱㅣ -8407
▁ㄴㅏㅈㅜ -8408
▁ㅇㅕㅍㅏ -8409
▁ㅅㅗㅎㅘㄴ -8410
ㅍㅕㅇㄱㅜㄴ -8411
▁ㄱㅘㄴㄹㅏㅁ -8412
▁ㅇㅣㄴㅅㅏㄴ -8413
▁ㅈㅓㄴㅎㅏㄴㄷㅏ -8414
▁ㄱㅛㅇㅚ -8415
▁ㄹㅗㅍㅡ -8416
ㅊㅜㅇㅝㄴ -8417
▁ㄷㅏㅅ -8418
ㅇㅓㅈㅣ -8419
▁ㅇㅝㄴㄴㅐ -8420
▁ㅋㅓㅁㅍㅓㄴㅣ -8421
▁ㅅㅟㅇㅜㄴ -8422
▁ㅅㅓㅇㅜㄹㄷㅐ -8423
ㄹㅕㅁ -8424
▁144 -8425
▁ㄷㅜㄹㄹㅔ -8426
▁ㅂㅏㄹㅡㄴ -8427
▁ㅅㅗㅅㅣㄹ -8428
▁ㅅㅡㅌㅏㄹ -8429
▁ㅂㅡㄹㅏㅇㅜ -8430
▁ㅍㅕㅇㅇㅝㄴ -8431
ㄷㅚㄴ -8432
ㅅㅓㄴㅅㅡ -8433
▁ㅁㅔㄹㄹㅗ -8434
ㅓㅇㅜ -8435
▁ㅅㅣㄹㄹㅣ -8436
▁ㅋㅏㄹㅣㅂㅡ -8437
▁CO -8438
▁119 -8439
▁ㅍㅏㅇㅓㅂ -8440
▁ㄱㅓㄱㅈㅓㅇ -8441
▁ㅈㅓㅇㅈㅓㄴ -8442
▁ㅉㅏㅇ -8443
ㅣㅇㅓㅂ -8444
▁ㄱㅜㄱㅅㅏ -8445
▁ㅇㅟㅇㅣㅁ -8446
▁ㅈㅜㅇㅅㅜㄴ -8447
GC -8448
ep -8449
▁ㅁㅗㅅㅡ -8450
▁ㅎㅠㅅㅣㄱ -8451
▁ㅂㅜㄹㅍㅕㄴ -8452
ㅣㄹㅂㅗ -8453
▁ㅅㅣㄴㅎㅏㄱㅈㅏ -8454
▁CE -8455
ㅈㅣㅇㅗ -8456
▁ㅎㅏㅂㅜ -8457
▁ㅅㅡㅌㅔㄹ -8458
ib -8459
▁ㄹㅣㅊㅣ -8460
▁ㅁㅣㄴㅎㅚ -8461
▁ㅇㅑㅇㅈㅜ -8462
▁ㅇㅕㄱㅕㅆ -8463
▁ㅁㅕㅇㅂㅐㄱ -8464
▁ㅊㅜㅇㅅㅣㄹ -8465
▁ㅇㅗㅃㅏ -8466
ㅅㅏㄴㄹㅣ -8467
ㅡㅂㅏㅇㅣ -8468
▁ㅇㅣㄱㅘㅇ -8469
▁ㅌㅜㄱ -8470
▁ㅎㅏㅁㅇㅠ -8471
▁ㄷㅏㅇㅇㅣㄹ -8472
ㅗㄹㄹㅔ -8473
▁ㄷㅐㅍㅗ -8474
▁ㄷㅗㄹㅇㅕㄴ -8475
▁ㅁㅜㄴㅎㅘㅂㅏㅇㅅㅗㅇ -8476
ian -8477
▁ㄴㅐㅇㅚ -8478
▁ㅅㅡㅋㅐㄴ -8479
▁ㄷㅓㄱㅡㄹㄹ -8480
▁ㅈㅣㄴㅐㅆㅇㅡㅁㅕ -8481
ㅋㅣㅈㅣ -8482
int -8483
▁ㅇㅘㅅ -8484
ㅂㅔㄱ -8485
▁ㅅㅣㄴㅅㅔ -8486
▁ㅅㅣㄹㅈㅓㄴ -8487
▁TH -8488
▁TO -8489
▁172 -8490
▁ㅇㅏㅅㅏㅎㅣ -8491
▁ㅋㅓㅅ -8492
▁ㅇㅏㅂㅔ -8493
▁ㄱㅗㅇㅣㄴ -8494
▁ㄱㅟㅈㅜㅇ -8495
▁ㅇㅠㅅㅜ -8496
▁ㅈㅜㄱㅓ -8497
▁ㅅㅣㄴㅏㄹㅣㅇㅗ -8498
▁ㅎㅏㅇㅜ -8499
▁ㄱㅛㅇㅑㅇ -8500
▁ㅈㅏㅇㄴㅏㄴ -8501
ㅍㅐㄱㅌㅡ -8502
▁ㄱㅏㅂㅕㅇ -8503
▁ㅇㅙㄴ -8504
▁ㅈㅣㄴㅡㅇ -8505
▁ㅅㅣㄴㅎㅏㄱㄱㅛ -8506
ㅋㅕ -8507
▁ㅅㅡㅌㅐ -8508
▁ㅅㅡㅌㅗㅇ -8509
▁ㅇㅔㅁㅣㄹ -8510
▁ㅈㅏㄹㅏㅆ -8511
▁ㄱㅘㄴㅌㅗㅇ -8512
▁ㅅㅓㅇㅅㅜㄱ -8513
▁ㄹㅏㅇㅣㅅㅓㄴㅅㅡ -8514
▁ㅆㅓㅅㅓ -8515
▁ㅍㅕㅇㅇㅑ -8516
▁ㅎㅓㄹㅣㅋㅔㅇㅣㄴ -8517
ㄷㅔㄹㅡ -8518
▁ㄴㅐㄹㅣㄴ -8519
▁ㅇㅕㄴㅅㅔㄷㅐ -8520
▁It -8521
▁ㅇㅚㄱㅛㄱㅘㄴ -8522
ㅎㅏㅁㅕㄴ -8523
▁ㄱㅗㅇㅁㅗ -8524
▁ㅈㅓㅇㄹㅕㄹ -8525
▁ㄴㅓㅁㅇㅓㄱㅏ -8526
▁ㅂㅏㅋㅟ -8527
▁ㅎㅏㄹㄹㅣㅇㅜㄷㅡ -8528
▁ㅇㅓㅅㅡ -8529
▁ㅌㅏㅁㅏ -8530
▁ㅅㅓㄴㅈㅗㅇ -8531
▁ㅈㅡㅇㅈㅣㄴ -8532
ome -8533
▁ㅂㅏㅊㅣ -8534
▁ㅇㅏㅅㅔ -8535
▁ㅈㅔㅅㅜ -8536
▁ㅁㅕㅊㅣㄹ -8537
▁ㅅㅣㄴㅌㅏㄱ -8538
ire -8539
▁ㅅㅣㄹㄹㅣㄴ -8540
▁ㅋㅏㅇㅣㅅㅏㄹㅡ -8541
▁106 -8542
▁ㅊㅗㅇㄷㅐ -8543
▁ㅇㅑㄱㅊㅣㅇ -8544
▁ㅇㅠㄴㅔㅅㅡㅋㅗ -8545
▁We -8546
▁ㄱㅗㄹㅐ -8547
▁ㅂㅐㅅㅣㄴ -8548
▁ㅇㅘㅇㅣㄹ -8549
▁ㅈㅘㅈㅓㄹ -8550
▁ㅇㅏㅇㅣㅅㅡㄹㄹ -8551
▁NBA -8552
ㅂㅜㅌㅇㅣ -8553
▁ㄴㅗㅂㅜㄴ -8554
▁ㅍㅕㄴㄹㅣ -8555
▁ㄲㅓㅂㅈㅣㄹ -8556
▁ㅁㅏㅇㅣㄴㅓ -8557
▁ㅁㅐㅋㅏ -8558
▁ㅇㅚㅇㅑ -8559
▁ㅅㅡㄹㅣㄹㄹㅓ -8560
▁ㅇㅜㅇㅕㄴㅎㅣ -8561
▁ㄱㅗㅇㅊㅐ -8562
▁ㅇㅕㄴㅍㅐ -8563
▁ㅋㅔㅇㅣㅅㅡ -8564
▁ㅈㅏㅈ -8565
▁ㅊㅗㄱㅘ -8566
▁ㄴㅏㅌㅁㅏㄹ -8567
▁ㅋㅗㄴㅋㅡㄹㅣㅌㅡ -8568
▁ㄹㅐㅁ -8569
▁ㅍㅛㅁㅕㅇ -8570
▁ㅍㅕㅇㅂㅓㅁ -8571
▁ㄱㅜㅈㅗㅁㅜㄹ -8572
ㅔㅈㅡ -8573
▁ㄱㅡㄹㅕㅆ -8574
▁ㅅㅓㄴㅏㅁ -8575
▁ㅅㅡㅌㅣㅂㅡ -8576
▁ㅇㅕㄱㅅㅓㄹ -8577
▁ㅋㅔㄴㅔㄷㅣ -8578
▁ㄹㅏㅇㅣㅂㅡㄹ -8579
▁ㅋㅓㄹㄹㅓㅁㅂㅣㅇㅏ -8580
▁ㅊㅚㅈㅓ -8581
▁ㅅㅡㅌㅠㅇㅓ -8582
▁ㅇㅣㄴㅇㅕㄴ -8583
▁ㅇㅢㅇㅢ -8584
▁ㄱㅕㅁㅎㅏ -8585
▁ㅅㅡㅇㅈㅓㅁ -8586
▁ㅇㅣㅁㅏ -8587
ㅜㅅㅕㄴ -8588
▁ㅂㅏㄲㅝ -8589
▁ㅈㅣㅎㅖ -8590
▁ㅂㅗㅇㅘㄴ -8591
▁ㅈㅜㅇㄹㅑㅇ -8592
▁ㅍㅕㅇㅇㅣㄹ -8593
▁ㅅㅛㅌㅡ -8594
▁ㅇㅕㅇㄴㅏㅁ -8595
▁ㅂㅏㄹㄹ -8596
ㅇㅏㄱㄱㅣ -8597
▁ㄱㅏㅁㅈㅣ -8598
ㅏㄷㅣㅁ -8599
▁ㅋㅏㅌㅏㄹㄹ -8600
▁ㄱㅗㅇㅇㅢㅎㅚ -8601
▁ㅂㅡㄹㄹㅏㄷㅣㅁ -8602
▁ㅅㅡㅍㅔㅇㅣㅅㅡ -8603
ㅏㅆㅡ -8604
ㅏㄱㅏㅆ -8605
▁ㄹㅣㅇㅓ -8606
▁ㅇㅐㄷㅓㅁ -8607
▁ㅎㅏㄹㅏㄱ -8608
▁ㅊㅏㅇㅣㅈㅓㅁ -8609
▁ㅇㅐㄴㅣ -8610
ㅏㅇㅜㅅㅡ -8611
▁ㅁㅛㅇㅕㄱ -8612
▁ㅋㅡㄹㄹㅣ -8613
▁ㅎㅐㅂㅕㄴ -8614
▁ㅎㅏㅂㅊㅏㅇ -8615
▁ㅂㅜㅈㅐ -8616
▁ㅂㅜㅊㅐ -8617
▁ㅇㅏㅂㅏ -8618
ㅍㅡㄹㅏㅇ -8619
ㅣㄴㅅㅓㅇ -8620
▁ㅅㅏㅅㅡㄹ -8621
▁ㅇㅓㅂㄱㅖ -8622
▁ㅈㅓㄴㅇㅏㅂ -8623
▁ㅂㅕㅇㅈㅗ -8624
▁ㅍㅗㄱㅕㄱ -8625
▁ㅂㅡㄹㅐ -8626
▁ㄷㅡㅇㅈㅐ -8627
ㅐㅅㅕㄴㅓㄹ -8628
▁ㄱㅗㅇㄷㅏㄴ -8629
▁ㅇㅕㅇㅈㅏㅇ -8630
▁ㅇㅣㄴㅌㅓㄴㅐㅅㅕㄴㅓㄹ -8631
ㅔㅇㅗㄴ -8632
▁ㅇㅜㅇㅜㄹ -8633
ㅅㅏㄱㅏ -8634
▁ㅇㅜㄹㅏ -8635
▁ㄴㅜㄱㅜㄴ -8636
▁ㅇㅣㅂㅈㅣ -8637
▁ㅊㅣㅇㅕㄹ -8638
▁ㅈㅏㅇㅇㅏㄴ -8639
▁ㅁㅣㅌㅗ -8640
ㅡㄴㅓ -8641
▁ㅇㅠㅇㅏ -8642
▁ㅇㅠㄷㅗㅇ -8643
▁ㅇㅜㄹㅏㄴㅠㅁ -8644
▁ㅊㅐㄱㅇㅣㅁㅈㅏ -8645
▁ㅇㅔㄷㅏ -8646
▁ㄷㅏㅎㅏㅇ -8647
▁ㄷㅏㄴㅅㅣㄱ -8648
▁ㅂㅐㅌㅓㄹㅣ -8649
▁ㅎㅏㄴㅅㅓㅇㅂㅜ -8650
ㅅㅡㅌㅣ -8651
ㅈㅣㄱㅣ -8652
▁ㅁㅏㅂㅣ -8653
▁ㅊㅣㄴㅇㅣㄹㅇㅣㄴ -8654
▁ㅂㅏㄹㅏㅂㅗ -8655
▁ㄷㅗㅇㅘㅆ -8656
▁ㅊㅔㄹㅅㅣ -8657
▁ㅅㅐㅇㅈㅓㄴ -8658
ude -8659
▁ㄷㅜㄲ -8660
▁ㄹㅗㅇㅕㄹ -8661
▁ㅁㅏㅇㅑㄱ -8662
▁ㅎㅘㅇㅌㅐㅈㅏ -8663
▁ㄷㅡㄹㅇㅓㅇㅘㅆ -8664
ere -8665
▁ㅅㅡㅍㅔㅇㅣㄴㅇㅓ -8666
ㅈㅜㅇㅢㅈㅏ -8667
▁ㅇㅣㄹㅇㅓㄴㅏㄹ -8668
▁ㅂㅗㅇㅅㅙ -8669
▁ㄹㅏㅇㅣㅇㅗㄴㅈㅡ -8670
ㅇㅓㅈㅣㄴ -8671
▁ㅍㅏㅈㅏㅇ -8672
ㅅㅔㅊㅡ -8673
▁ㅇㅔㅅㅡㅌㅗㄴ -8674
▁ㅍㅡㄹㅏㅇㅅㅜㅇㅏ -8675
▁ㅌㅗㅇㄱㅡㄴ -8676
ㅐㅇㅣㄴ -8677
▁ㅅㅓㄴㄱㅜ -8678
▁ㅁㅐㅅㅏㅊㅜ -8679
▁ㅅㅣㄴㅅㅗㄱ -8680
▁ㅈㅜㅎㅐㅇ -8681
▁ㅇㅏㅁㅅㅓㄱ -8682
▁ㅁㅐㅅㅏㅊㅜㅅㅔㅊㅡ -8683
▁ㄷㅐㅈㅓㄴㄱㅘㅇㅇㅕㄱㅅㅣ -8684
▁HT -8685
▁ㅎㅡㅁ -8686
▁ㄷㅗㅇㅁㅜㄴ -8687
▁ㅈㅐㅇㅟ -8688
▁ㅎㅔㄹㅏ -8689
▁ㅂㅜㄹㅁㅕㅇ -8690
ㅂㅗㅇㅣ -8691
▁ㅂㅏㅌㅣ -8692
▁ㅍㅔㅇㅓ -8693
▁ㄹㅣㅂㅣㅇㅏ -8694
▁ㅇㅔㅌㅣㅇㅗ -8695
▁ㅇㅗㅍㅣㅅㅡ -8696
▁ㄷㅐㅇㅜㅇ -8697
▁ㅈㅣㄴㅉㅏ -8698
▁ㅅㅏㅇㄷㅏㅁ -8699
▁ㅊㅜㅇㅂㅜㄱ -8700
▁DC -8701
▁ㅇㅏㅈㅔㄹ -8702
▁ㅇㅐㄴㄷㅡ -8703
▁ㅈㅏㅇㄹㅗ -8704
ide -8705
ment -8706
ㅂㅡㄹㄹ -8707
▁ㅇㅡㅇㅇㅝㄴ -8708
▁ㄴㅗㄹㅡㅁ -8709
▁ㅅㅐㅇㅅㅣㄱ -8710
ㄱㅣㅈㅣ -8711
▁ㄴㅏㅇㅁㅏㄴ -8712
▁ㅅㅣㄴㅅㅐㅇ -8713
▁ㅎㅕㅂㅈㅜㄱㅗㄱ -8714
▁ㅇㅓㅎㅟ -8715
▁ㅂㅏㅇㅍㅐ -8716
ace -8717
▁CON -8718
▁ㅂㅏㄼ -8719
▁ㅈㅣㅅㅓㄴ -8720
ㅡㅂㅏㅇㅣㅈㅏㄴ -8721
▁ㄱㅏㄴㅎㅗ -8722
▁ㅅㅣㅎㅡㅇ -8723
ㅈㅜㅇㄱㅜㄱ -8724
▁ㅋㅏㄱ -8725
ㅇㅟㄷㅐ -8726
▁ㅊㅜㅅㅔ -8727
▁ㅇㅟㅌㅏㄱ -8728
▁ㅋㅏㅇㅣㄹ -8729
▁ㅈㅜㅇㅅㅣㅁㅂㅜ -8730
▁ㅎㅐㅅㅗ -8731
▁ㅅㅓㅈㅓㅇ -8732
▁ㄷㅏㅇㅣㅇㅏㅁ -8733
▁". -8734
▁ㅁㅕㅇㅈㅔ -8735
▁ㅇㅜㄹㅜㄱ -8736
▁ㅌㅏㄹㄷㅏㅇ -8737
▁ㅇㅔㅌㅣㅇㅗㅍㅣㅇㅏ -8738
▁ㄱㅣㅇㅣㄴ -8739
▁ㅅㅣㅅㅓㄴ -8740
IM -8741
▁ㄲㅡㅀ -8742
▁ㄱㅏㅁㅕㄴ -8743
▁ㄴㅏㅃㅡㄴ -8744
ㅡㄹㅔ -8745
▁ㅂㅏㄹㅌㅡ -8746
▁ㅂㅡㄹㅜㄴ -8747
▁ㅊㅜㅊㅜㄹ -8748
▁ㅎㅕㄴㄱㅡㅁ -8749
▁ㅁㅜㄹㄹㅣㅎㅏㄱㅈㅏ -8750
▁ㅅㅗㅇㅠㅈㅏ -8751
▁ㅈㅜㅇㅊㅜㅇㅝㄴ -8752
▁ㅇㅏㄹㅔㄴㅏ -8753
▁ㅊㅣㄴㅇㅘㅇ -8754
▁ㅁㅜㄱㅓㅇㅜㄴ -8755
▁ㅋㅡㄹㅣㅅㅡㅌㅣㅇㅏㄴ -8756
▁ㅁㅜㅎㅏㅁ -8757
▁ㅍㅕㅇㅌㅐㄱ -8758
▁ㅂㅔㄷㅡ -8759
▁ㅈㅗㅇㅕㄴ -8760
▁ㅌㅡㄱㅈㅣㅂ -8761
▁ㅅㅣㄹㅅㅣㄱㅏㄴ -8762
▁ㅁㅐㅂ -8763
▁ㅊㅜㄹㅊㅓ -8764
▁ㄴㅣㅅㅍㅗㄴ -8765
▁ㅍㅓㅅㅔㄴㅌㅡ -8766
▁ㅈㅏㅇㄹㅕ -8767
▁ㅂㅕㅇㅎㅐㅇ -8768
▁ㅇㅏㅈㅔㄹㅡㅂㅏㅇㅣㅈㅏㄴ -8769
ㅇㅏㄹ -8770
▁ㅂㅓㄹㅕ -8771
▁ㅈㅓㅇㅁㅜ -8772
▁ㅇㅜㄹㅜㄱㅘㅇㅣ -8773
▁ㄱㅜㄱㅁㅜㅊㅗㅇㄹㅣ -8774
▁ㅋㅣㄱ -8775
ㄱㅏㄹㅜ -8776
▁ㅍㅐㅋㅣㅈㅣ -8777
ㅈㅕㅅㅓ -8778
▁ㄴㅡㄹㄹ -8779
▁ㅇㅢㄹㅚ -8780
▁ㅇㅒㄱㅣ -8781
▁ㅎㅗㄱㅣ -8782
▁ㄱㅐㄱㅊㅔ -8783
▁ㅌㅐㅇㅋㅡ -8784
▁ㅅㅓㅇㅇㅜㄴ -8785
▁ㄱㅗㅅㅜ -8786
▁ㄷㅗㅈㅜ -8787
ㅔㅇㅣㅁㅓ -8788
▁ㅅㅣㅊㅗ -8789
▁ㅂㅏㄷㅏㅅ -8790
▁ㅂㅗㅇㅣㄹ -8791
▁ㅂㅜㅈㅓㄱ -8792
▁ㅅㅓㅅㅏㄴ -8793
▁ㅈㅡㅇㅡㅁ -8794
▁ㄱㅡㄱㄷㅗㅇ -8795
ㅈㅣㄹㅣㅇㅏ -8796
▁ㄴㅗㅂㅜㄴㅏㄱㅏ -8797
▁ㄴㅏㅇㅣㅈㅣㄹㅣㅇㅏ -8798
▁ㅂㅡㄹㅏㅇㅜㅈㅓ -8799
ㅁㅜㄱㅣ -8800
ㅔㅁㅔㄴ -8801
▁ㅈㅣㄹㅠ -8802
▁ㄷㅗㄹㄹㅣ -8803
▁ㅇㅠㄴㅊㅣ -8804
ㅂㅏㅇㅣ -8805
▁ㅅㅏㅂㅏ -8806
▁ㅅㅜㄴㅎㅚ -8807
▁ㅅㅣㅁㅗㄴ -8808
▁ㅈㅓㄴㄹㅏㄷㅗ -8809
▁ㄱㅣㅈㅓㄱ -8810
▁1916 -8811
▁ㅊㅓㅇㅎㅏ -8812
▁ㅎㅐㅅ -8813
▁ㅅㅣㄴㄴㅕㅁ -8814
▁ㄱㅏㄹㅗㅈㅣㄹ -8815
▁ㅎㅠㅅㅡㅌㅓㄴ -8816
▁ㅆㅏㅇㄷㅜㅇㅇㅣ -8817
ㄲㅡㅁ -8818
▁ㅃㅏㅈㅕㅆ -8819
▁ㅅㅔㅅㅕㄴ -8820
▁ㅇㅏㅅㅏㄴ -8821
▁ㅇㅑㅇㄷㅗ -8822
▁ㅈㅏㄱㅅㅔㄴ -8823
▁ㄹㅏㅇㅣㅇㅓㄴ -8824
▁ㅇㅏㅂㅔㄹ -8825
▁ㄷㅗㅇㅅㅏㅇ -8826
▁ㄱㅕㄹㅎㅗㄴㅅㅣㄱ -8827
▁136 -8828
▁148 -8829
▁ㅇㅣㅅㅏㅎㅚ -8830
▁ㅍㅡㄹㄹㅜ -8831
▁ㅇㅣㅂㄷㅏㅇ -8832
ㅍㅗㄷㅡ -8833
▁ㅇㅢㅇㅑㄱ -8834
ㅅㅓㄱㅌㅏㅂ -8835
ㅓㅎ -8836
ㅍㅏㅂ -8837
▁IBM -8838
ㅈㅔㄹㅣ -8839
▁ㅈㅜㅇㅇㅟ -8840
ㅊㅡㅇㅅㅓㄱㅌㅏㅂ -8841
▁ㄹㅣㅌㅡㄹ -8842
▁ㅂㅗㅅㅡㄴㅣㅇㅏ -8843
▁ㄲㅐㄷㅏㄹ -8844
▁ㄴㅏㄴㄷㅏ -8845
▁ㅅㅣㄴㄱㅠ -8846
▁ㅈㅏㅇㅁㅣ -8847
▁ㄱㅜㄷㅗ -8848
▁ㄱㅏㄷㅗㅇ -8849
▁ㅅㅜㅅㅡㅂ -8850
ㅎㅏㅅㅣ -8851
▁ㅎㅐㅈㅓㄱ -8852
▁ㅈㅓㅇㅎㅏㄴ -8853
▁ㅇㅐㅌㅡㄹㄹㅐㄴ -8854
ㅁㅗㅌㅗ -8855
▁ㅅㅣㄹㅏ -8856
▁ㄱㅕㄱㅌㅚ -8857
▁ㅅㅣㄹㅈㅏㅇ -8858
▁ㅅㅡㅌㅠㅇㅓㅌㅡ -8859
▁ㄱㅡㅂㄱㅕㄱㅎㅣ -8860
ㅔㅁㅏ -8861
ㅓㅇㅜㅁ -8862
▁ㄷㅚㄱㅔ -8863
ㅋㅏㄹㅡ -8864
▁ㄱㅡㄹㅜ -8865
▁ㅇㅕㅈㅣ -8866
▁ㅇㅏㄴㅅㅓㅇ -8867
▁138 -8868
▁ㄴㅐㅇㄱㅏㄱ -8869
▁ㅅㅏㄴㄹㅣㅁ -8870
▁ㅂㅜㅁ -8871
▁ㅈㅓㅎㅏ -8872
▁ㄱㅕㅇㅇㅕㄴ -8873
▁ㅂㅐㄱㅅㅐㄱ -8874
▁ㅂㅜㄴㄷㅏㅇ -8875
▁ㅋㅗㅍㅡ -8876
▁ㄷㅏㄴㅣㅇㅔㄹ -8877
ㅌㅏㄹㅗ -8878
▁ㄱㅓㄹㅗㄴ -8879
▁ㅎㅐㅁㅣㄹ -8880
▁ㄷㅓㅁ -8881
▁ㄷㅗㅇㅎㅐㅇ -8882
▁ㄹㅏㅇㅣㅂㅡㄹㅓㄹㅣ -8883
▁la -8884
▁ㅇㅝㄷㅡ -8885
▁ㄷㅗㅈㅏㅇ -8886
▁ㅇㅠㄱㅈㅣ -8887
▁LP -8888
▁ㅁㅏㄴㄴㅏㅁ -8889
▁ㅅㅣㄴㅎㅏㄴ -8890
▁ㅇㅏㅁㅏㄷㅗ -8891
▁ㄷㅐㅇㅢㅇㅝㄴ -8892
▁ㅇㅗㅌㅏ -8893
ㅅㅡㅇㅈㅣ -8894
▁ㅇㅣㄴㅍㅡㄹㄹ -8895
▁ㅇㅏㅀ -8896
▁ㄱㅗㅅㅏ -8897
▁ㄱㅡㄱㅎㅣ -8898
▁ㄴㅐㄹㅕㄱㅏ -8899
ㄷㅡㅇㅓ -8900
ㅌㅏㄴㅣ -8901
▁ㅌㅐㄱㅅㅣ -8902
▁ㅂㅐㄱㅎㅘㅈㅓㅁ -8903
▁ㅇㅝㄴㅅㅜㅇㅇㅣ -8904
▁ㅎㅜㅋㅜㅅㅣㅁㅏ -8905
▁ㅂㅘ -8906
▁ㅈㅜㅇㅣ -8907
▁ㅇㅣㄹㅡㄹ -8908
ㅍㅣㅂ -8909
▁ㅇㅔㅇㅜ -8910
▁ㄷㅗㅇㅈㅓㅁ -8911
▁ㅈㅓㄴㄴㅕㅁ -8912
ㄲㅜ -8913
▁ㅂㅏㄴㄱㅏㅁ -8914
▁ㄷㅐㅍㅛㅈㅏㄱ -8915
▁ㅌㅔㅇㅣㅂㅡㄹ -8916
ㅅㅖㄹ -8917
▁ㅊㅚㅅㅏㅇㅇㅟ -8918
▁360 -8919
▁ㅂㅜㄷㅣ -8920
▁ㅂㅏㄴㄱㅕㅇ -8921
▁ㅎㅕㄴㅈㅗㅇ -8922
▁ㄱㅡㄹㅔ -8923
ㅏㄴㅣ -8924
ㅁㅜㄴㅔ -8925
▁ㅊㅏㅇㄱㅗ -8926
▁ㅋㅗㅁㅜㄴㅔ -8927
▁ㄹㅔㅇㅣㄹ -8928
ㅏㅁㅈㅟ -8929
▁ㄴㅏㅁㅣ -8930
▁ㄹㅣㅇㅜㅅㅡ -8931
▁ㅂㅏㄴㅈㅣ -8932
▁ㅅㅡㅌㅗㄱ -8933
▁ㅌㅏㅁㄱㅜ -8934
▁ㅎㅘㄴㅇㅕㅇ -8935
▁ㅋㅡㄹㅏ -8936
▁ㅁㅕㄴㅎㅓ -8937
▁ㅅㅏㅎㅓㄴ -8938
▁ㅈㅗㄹㅣㅂ -8939
▁ㅈㅓㄴㅎㅐㅆ -8940
ㅗㅇㅏ -8941
▁ㅇㅜㅅㅔ -8942
▁ㅊㅚㅇㅏㄱ -8943
▁ㅌㅗㅅㅓㅇ -8944
▁ㅎㅚㅅㅅㅜ -8945
▁ㅎㅏㄴㅉㅗㄱ -8946
▁ㅂㅏㄱㅎㅐ -8947
▁ㅅㅏㄹㄹㅣ -8948
▁ㅂㅜㅌㅇㅕㅆ -8949
ㅔㅅㅗ -8950
▁ㄱㅗㅅㅓㅇ -8951
▁ㅊㅣㅁㅕㅇ -8952
▁ㅎㅕㄹㅌㅗㅇ -8953
▁ㅂㅏㄴㄷㅗㅊㅔ -8954
▁ㄹㅣㅅ -8955
ㅏㅇㅣㄷㅡ -8956
▁ㄱㅜㄹㅡㅇ -8957
▁ㅎㅜㅎㅏㄴ -8958
▁ㄷㅔㅇㅣㅂㅣㅅㅡ -8959
ㅠㄹㄹ -8960
▁ㅍㅣㅇㅏ -8961
ㅋㅗㅇㅗㄹ -8962
ㅔㅇㅑㅅㅡ -8963
▁ㅇㅕㄹㄷㅐ -8964
▁ㅅㅏㄷㅏ -8965
▁ㅂㅓㄹㅣㄴㄷㅏ -8966
▁ㅅㅏㅇㅜㄹㅜㅅㅡ -8967
▁En -8968
▁104 -8969
▁ㅎㅏㅇㅑ -8970
ㄷㅐㅅㅣㄴ -8971
▁ㅇㅗㅎㅐ -8972
▁ㅈㅔㄷㅗㄱ -8973
▁ㅇㅑㄱㅜㅈㅏㅇ -8974
▁ㅎㅜㅂㅏㅇ -8975
▁ㅇㅕㅇㅇㅢㅈㅓㅇ -8976
▁ㅅㅓㅇㅊㅔ -8977
▁ㅂㅏㅇㅣㅇㅗ -8978
cl -8979
ㅣㄹㄹㅗㄴ -8980
ㅂㅓㄱㅡ -8981
▁ㄱㅡㄴㅏㄹ -8982
▁ㅅㅏㄴㄹㅏㄴ -8983
▁ㄴㅏㅌㅏㄴㅐㄹ -8984
▁ㄱㅗㅇㅊㅓㄴ -8985
▁ㅊㅣㄹㅓㅈㅣㄴ -8986
▁ㅍㅔㄹㅡㄴㅏㄴ -8987
ㅊㅘㄴ -8988
▁ㅈㅐㅎㅕㄴ -8989
▁ㄹㅔㄴㅗㄴ -8990
▁ㅂㅗㄱㅅㅓㄴ -8991
▁ㅇㅣㅁㅇㅛㅇ -8992
▁ㅅㅣㅊㅣㄹㄹㅣㅇㅏ -8993
▁ㅅㅜㄴㄱㅛ -8994
ㅂㅅㅡ -8995
ㅕㅂㅏㄷ -8996
▁ㅅㅏㅌㅗ -8997
▁ㄱㅗㅈㅏㅇ -8998
▁ㅇㅕㄷㅏㅇ -8999
▁ㄱㅓㅎㅐㅇ -9000
▁ㄷㅐㅎㅏㄱㅅㅐㅇ -9001
ㅎㅔㅁ -9002
▁ㄷㅏㅂㅣ -9003
▁ㅅㅡㅌㅓ -9004
ㅣㅇㅏㅈㅜ -9005
▁ㅅㅓㅇㅊㅟ -9006
▁ㅈㅏㄴㄹㅠ -9007
▁ㅇㅕㄱㅕㅈㅕㅆ -9008
▁AK -9009
▁109 -9010
▁ㅇㅏㄹㄹㅜ -9011
▁Mar -9012
▁ㄷㅗㄹㅜ -9013
▁ㅁㅏㅎㅏ -9014
▁ㅈㅜㅈㅜ -9015
▁ㅇㅡㅁㄹㅛ -9016
▁ㅎㅣㅁㅇㅣㅂ -9017
▁ㅁㅕㅇㄹㅕㅇㅇㅓ -9018
▁ㅂㅏㅎㅡ -9019
▁ㅂㅜㄷㅏㅇ -9020
▁ㅊㅜㄴㅊㅓㄴ -9021
▁ㅅㅏㅎㅓㄴㅂㅜ -9022
▁ㅅㅡㅌㅡㄹㅔㅅㅡ -9023
▁ㄱㅏㅂㅈㅏㄱㅅㅡㄹ -9024
▁ㅊㅣㅈㅡ -9025
▁ㅈㅜㅇㅅㅓㅇㅈㅏ -9026
▁ㄷㅏㅅㅡㄹㅣ -9027
ㅔㅁㅏㅇ -9028
▁ㄹㅜㅍㅡ -9029
▁ㅅㅏㄴㄷㅏ -9030
▁ㅂㅏㅇㅅㅗㅇㅅㅏ -9031
▁ㅁㅗㅎㅏㅁ -9032
▁ㅎㅏㄴㅅㅡ -9033
▁ㅇㅜㅇㅟ -9034
▁ㄷㅏㅂㅏㄹ -9035
▁ㅈㅓㄱㅂㅜㄴ -9036
▁ㅍㅜㅁㅈㅗㅇ -9037
▁ㅇㅔㅅㅡㅌㅗㄴㅣㅇㅏ -9038
ㅂㅏㅇㅑ -9039
▁ㄱㅏㅉㅏ -9040
▁ㅇㅙㄴㅑ -9041
▁ㅅㅜㅁㄱㅕ -9042
ㅎㅚㅈㅏㅇ -9043
▁ㄱㅕㄴㅈㅔ -9044
▁ㅇㅣㄱㅕㅇ -9045
▁ㅎㅕㄴㅈㅓ -9046
ㅇㅡㄴㅅㅐㄱ -9047
▁ㅍㅗㄱㄷㅗㅇ -9048
▁ㄱㅛㅎㅘㅇㅊㅓㅇ -9049
▁ㅇㅣㅇㅔㅇㅑㅅㅡ -9050
ㅜㄹㅗ -9051
▁ㅁㅗㄱㅍㅏㄴ -9052
ㅔㅇㅜ -9053
▁ㄱㅗㄱㅏ -9054
▁ㄱㅗㅊㅣ -9055
▁ㅂㅗㄹㅣ -9056
▁ㅂㅣㅅㅣ -9057
▁ㅊㅜㄱㅈㅓㄱ -9058
▁ㅋㅗㄱ -9059
▁ㅁㅏㅅㅏㅇ -9060
ㅇㅑㅇㅎㅏㅁ -9061
▁ㅅㅐㄱㅕㅈㅕ -9062
▁CS -9063
▁ㅇㅏㅎㅗㅂ -9064
▁ㅊㅏㅈㅏㅇ -9065
▁ㅇㅕㄹㅈㅓㅇ -9066
▁ㅎㅏㄴㅇㅣㄴ -9067
ㅣㅇㅏㄴㅜㅅㅡ -9068
▁AR -9069
▁123 -9070
▁ㅁㅐㅇㅣㅂ -9071
▁ㅊㅓㅁㄱㅏ -9072
▁ㅇㅣㅇㅠㄴ -9073
▁ㅈㅜㅇㅕㄱ -9074
▁ㅈㅓㅇㅈㅓㅁ -9075
▁ㄱㅓㅈㅔ -9076
▁ㄱㅜㅎㅗ -9077
▁ㄱㅣㅁㅍㅗ -9078
▁ㅇㅠㄱㅊㅔ -9079
▁ㄹㅗㅁㅏㄴ -9080
▁ㅅㅜㄹㅕㄴ -9081
▁ㅈㅡㅇㄷㅐ -9082
▁ㅎㅗㄹㅏㅇㅇㅣ -9083
▁ㅂㅕㄹㄷㅏㄹㅡㄴ -9084
▁ㅍㅗㄱㅎㅐㅇ -9085
▁ㅋㅏㅈㅏㅎㅡㅅㅡㅌㅏㄴ -9086
ㅌㅡㄹㅗㄴ -9087
▁ㅎㅏㅇㅝㄷㅡ -9088
▁ㅍㅔㄹㄹ -9089
▁ㄱㅘㅇㅎㅏㄱ -9090
▁ㅇㅓㄱㅇㅏㅂ -9091
▁ㅎㅣㅇㅓㄹㅗㅈㅡ -9092
▁ㅅㅣㅇㅗ -9093
ㅅㅏㄹㅇㅣ -9094
▁ㅌㅗㅇㅈㅡㅇ -9095
▁ㅍㅓㅂ -9096
▁ㅈㅜㄹㅡㅁ -9097
▁ㄷㅗㅇㅇㅏㅇ -9098
ㅊㅏㄱㅣ -9099
▁ㅊㅜㅇㅈㅓㄴ -9100
▁ㄱㅗㅇㅅㅏㄴㅈㅜㅇㅢㅈㅏ -9101
AL -9102
▁ㄹㅐㅍㅓ -9103
▁ㄷㅏㅇㅣㅇㅏㅁㅗㄴㄷㅡ -9104
▁ㅂㅣㄹㅣ -9105
▁ㅇㅕㄴㅎㅏㅂㅎㅚ -9106
ㅍㅡㄴ -9107
▁ㅇㅠㄴㅣㅂ -9108
▁ㅎㅐㅁㅕㅇ -9109
▁ㄱㅕㅇㄱㅘㄴ -9110
ㅅㅣㄹㅂㅔㅇㅣㄴ -9111
▁ㅍㅔㄴㅅㅣㄹㅂㅔㅇㅣㄴ -9112
ㅇㅏㅈㅣ -9113
▁ㄱㅘㅇㅁㅜㄹ -9114
ㅂㅓㄹㄹㅔ -9115
▁ㄱㅘㄴㅎㅐ -9116
▁ㅇㅏㄹㄹㅔ -9117
ㄷㅔㅅㅣ -9118
▁ㄷㅗㄷ -9119
▁ㅂㅓㅂㅁㅜ -9120
ies -9121
▁Op -9122
▁ㅅㅓㅈㅐ -9123
▁ㄱㅡㄹㅐㅁ -9124
▁ㅇㅣㅈㅜㄴ -9125
ㅅㅠㅁ -9126
ㄷㅓㅅㅡㄴ -9127
ㅈㅣㄹㅡㅁ -9128
▁ㄴㅏㅋㅏㅁ -9129
▁ㅇㅏㅁㅅㅣ -9130
▁ㅁㅣㅋㅏ -9131
▁ㅁㅗㅅㅎㅏㄹ -9132
▁ㅊㅓㅇㅊㅜㄴ -9133
▁ㅅㅐㅇㅅㅏㄴㄹㅑㅇ -9134
▁ㄴㅏㅅ -9135
▁ㅂㅡㄹㄹㅏ -9136
▁ㅈㅔㅇㅣㄴ -9137
▁ㅅㅏㅇㅇㅛㅇ -9138
▁ㅅㅏㅇㅓㅂㅈㅏ -9139
▁ㄱㅠㅂㅓㅁ -9140
▁ㅂㅜㄹㅡㅋㅡ -9141
▁ㄴㅏㅁㄷㅗㅇㅂㅜ -9142
ㅂㅓㅂㅇㅣㄴ -9143
▁ㅂㅓㄹㄱㅡㅁ -9144
▁ㄱㅘㄴㅎㅐㅅㅓ -9145
▁ㅅㅏㅅㅏ -9146
▁ㅌㅣㅅㅡ -9147
▁ㅅㅡㅌㅣㄹ -9148
▁ㅅㅏㅇㅈㅓㅁ -9149
▁ㅅㅡㄹㄹㅗㅂㅏㅋㅣㅇㅏ -9150
▁CC -9151
▁143 -9152
▁ㄴㅏㄴㅜㄹ -9153
▁ㅇㅕㅁㄱㅣ -9154
▁ㅌㅐㅇㅑㅇㄱㅖ -9155
▁ㅅㅠㅌㅡ -9156
▁ㅈㅗㄴㅅㅗㄱ -9157
▁ㅍㅓㅇㅋㅡ -9158
▁ㅂㅏㄱㄹㅏㅁㅎㅚ -9159
▁ㅅㅡㅋㅔ -9160
▁ㅈㅏㅁㅣㄴ -9161
▁ㅅㅏㅇㅂㅏㄴ -9162
▁ㅅㅗㄴㅏㅌㅏ -9163
▁ㄴㅓㅂㅣ -9164
▁ㅌㅏㅁㅈㅣ -9165
ㄴㅔㅅ -9166
ㅡㅁㅣ -9167
▁ㄱㅗㅅㅗ -9168
▁ㅅㅣㅇㅓ -9169
▁ㅇㅏㅇㅖ -9170
▁ㄱㅏㅈㅜㄱ -9171
▁ㄷㅗㅇㅇㅏㅇㅣㄹㅂㅗ -9172
▁ㄱㅕㅇㅅㅏㅇㄷㅗ -9173
▁ㄹㅜㅌㅓ -9174
▁ㅈㅔㄹㅗ -9175
▁ㄱㅗㅇㅅㅜ -9176
▁ㅁㅗㄱㅈㅐ -9177
▁ㄱㅗㅇㅅㅡㅂ -9178
▁ㅂㅗㅅㅓㄱ -9179
▁ㅃㅏㅈㅣㄴ -9180
▁ㅅㅏㅇㅠㄱ -9181
ㅌㅗㅁㅗ -9182
▁ㄱㅏㅁㅅㅏㅇ -9183
▁ㄱㅣㅁㄱㅕㅇ -9184
▁ㅅㅣㄴㅇㅑㄱ -9185
▁ㅂㅗㅈㅡㅇ -9186
▁ㄱㅗㅇㄱㅘㄴ -9187
▁ㅂㅜㄴㄱㅣㅈㅓㅁ -9188
ㄹㅗㄱㅜ -9189
ㅍㅜㅅㅡ -9190
▁ㅌㅔㄹㅔ -9191
▁ㄹㅗㄹㄹㅣㅇ -9192
▁ㅈㅗㅇㄹㅗㄱㅜ -9193
▁ㅍㅕㅇㅇㅢㅎㅚ -9194
▁ㄷㅓㅅㅂㅜㅌㅇㅕ -9195
ile -9196
▁ㄱㅜㄱㅅㅗ -9197
▁ㄹㅏㅇㅗㅅㅡ -9198
▁ㅇㅔㅋ -9199
▁ㄱㅏㄱㅜㄴ -9200
▁ㅅㅓㅇㅅㅏ -9201
▁ㅈㅓㄱㄷㅏㅇ -9202
▁ㅂㅜㅅㅓㄹ -9203
▁ㅇㅛㄱㅓㄴ -9204
▁ㅈㅗㅅㅓㄴㅇㅣㄹㅂㅗ -9205
▁ㅇㅠㄹㅗㅍㅏ -9206
▁ㅊㅣㄴㅇㅣㄹㅍㅏ -9207
▁ㅇㅏㅇㅣㅅㅡㄹㄹㅏㄴㄷㅡ -9208
▁ㅍㅣㅂ -9209
▁ㄱㅡㄴㄱㅛ -9210
▁ㅇㅙㄱㅗㄱ -9211
▁ㅂㅜㅈㅔ -9212
▁ㅇㅕㅅ -9213
▁ㅅㅓㅈㅣㄴ -9214
▁ㅅㅏㅇㄷㅏㄴ -9215
▁ㅍㅔㅇㅣㅅㅡ -9216
▁ㅅㅣㄴㅁㅣㄴ -9217
▁ㅇㅏㄹㅋㅗㅇㅗㄹ -9218
▁ㅎㅓㅇㅟ -9219
▁ㅇㅣㄱㅣㄴ -9220
▁ㅋㅡㄹㅗㅁ -9221
ㅣㅇㅏㄴㅏ -9222
▁ㅁㅐㄱㄹㅏㄱ -9223
▁ㅁㅗㄴㅗ -9224
▁ㅂㅣㅇㅠ -9225
▁ㅇㅔㅇㅣㄹ -9226
▁ㅌㅐㄱㅝㄴ -9227
▁ㅎㅗㄹㅡㅁ -9228
ㅅㅡㅋㅏㄹㅡ -9229
ㅏㄹㄹㅔ -9230
▁ㅅㅓㄹㅌㅏㅇ -9231
▁ㅎㅘㅇㅅㅣㄹ -9232
▁RNA -9233
▁ㄴㅏㄹㅆㅣ -9234
▁ㄴㅐㅂㅗㄴ -9235
▁ㅂㅓㅁㅇㅣㄴ -9236
▁ㅌㅗㅇㅇㅕㅇ -9237
▁ㅅㅡㅌㅡㄹㅣㅁ -9238
▁ㄴㅡㄹㅇㅓㄴㅏㅆ -9239
▁ㅈㅜㄱㅏ -9240
▁ㅁㅗㅇㅏㅆ -9241
▁ㅂㅡㄹㄹㅏㄷㅣㅁㅣㄹㅡ -9242
▁ㅇㅜㅇㅠ -9243
▁ㅋㅡㄹㅔ -9244
▁ㄱㅗㅇㅇㅣㄱ -9245
▁ㅌㅡㅇㅟㅌㅓ -9246
▁ㅎㅕㅂㅂㅏㄱ -9247
▁Pr -9248
▁col -9249
▁ㄷㅐㅍㅗㄱ -9250
▁ㄱㅚㅇㅈㅏㅇㅎㅣ -9251
▁ㄹㅠㄱ -9252
▁ㄹㅗㅇㅣ -9253
▁ㅂㅡㄹㄹㅗㄱㅡ -9254
ite -9255
▁ㅅㅣㄱㅗㄹ -9256
▁ㅎㅘㄱㅅㅣㄴ -9257
▁ㄴㅜㄱㅜㄴㄱㅏ -9258
▁ㅎㅘㅎㅐ -9259
▁ㅁㅣㅅㅕㄴ -9260
▁ㅂㅗㄹㄹㅣㅂ -9261
▁ㅇㅝㄴㅎㅐㅆ -9262
▁ㄸㅡㄱㅓㅇㅜㄴ -9263
▁112 -9264
▁ㅅㅓㅇㄷㅏㄴ -9265
▁ㅇㅣㄴㅁㅜㄴ -9266
▁ㅍㅡㄹㄹㅓㅅㅡ -9267
▁ㅁㅐㄱㅈㅜ -9268
▁ㅇㅣㄴㅊㅔ -9269
▁ㄷㅏㄴㄷㅏㄴ -9270
▁ㅊㅕㅆ -9271
▁ㄹㅏㅌㅡㅂㅣㅇㅏ -9272
▁Te -9273
▁ㅋㅡㄹㄹㅣㅂ -9274
▁ㅈㅏㅇㄱㅓㄹㅣ -9275
▁ㅂㅡㄹㅏㄷㅓㅅㅡ -9276
▁ㅇㅠㅈㅚ -9277
ㅅㅣㅍㅣ -9278
▁ㅇㅜㄴㅎㅏ -9279
▁ㄷㅏㄹㅎㅐㅆ -9280
xt -9281
ㄴㅡ -9282
▁ㄱㅜㅊㅜㄹ -9283
▁ㄲㅐㄷㅏㄷ -9284
▁ㅇㅛㄷㅗㅇ -9285
▁ㅇㅜㅅㅡㅇㅈㅏ -9286
▁ㅇㅙㄴㅑㅎㅏㅁㅕㄴ -9287
▁ㅇㅏㄹㅏㅂㅇㅓ -9288
▁ㅈㅜㅇㅇㅢㅇㅝㄴ -9289
▁ㄱㅜㅇㅣ -9290
▁ㄴㅜㅇㅣ -9291
▁ㅌㅓㅊㅣ -9292
▁ㄱㅕㅇㅂㅗ -9293
▁ㅇㅑㅇㅋㅣㅅㅡ -9294
▁ㄱㅓㅂㅜㄱ -9295
▁ㅅㅗㅅㅕㄹ -9296
▁ㅍㅗㄹㅓㅁ -9297
▁ㄱㅕㅇㅊㅏㄹㅊㅓㅇ -9298
▁CF -9299
▁ㄷㅏㄱㅏㄱ -9300
▁ㅅㅓㅇㅂㅕㄹ -9301
ㄲㅗㅂ -9302
▁ㄱㅡㄴㅇㅝㄴ -9303
▁ㅇㅕㄴㅅㅙ -9304
▁ㅊㅏㅇㅇㅝㄴㅅㅣ -9305
▁ㅋㅣㅍㅡㄹㅗㅅㅡ -9306
▁ㅅㅓㅁㅓ -9307
ㅅㅡㅌㅔㄹ -9308
ㅃㅜㄹ -9309
▁126 -9310
▁ㅇㅗㅂㅣ -9311
▁ㄷㅗㅇㅇㅏ -9312
▁ㅅㅗㄱㅎㅐㅆ -9313
▁ㅇㅣㅅㅜㄴㅅㅣㄴ -9314
▁107 -9315
▁ㄱㅐㄱㅛ -9316
▁ㄷㅏㅇㅈㅜ -9317
▁ㅂㅓㅂㅁㅜㅂㅜ -9318
ㅗㅂㅓ -9319
▁ㅅㅜㅂㅓㅂ -9320
▁ㅈㅏㅅㅓㄴ -9321
▁ㅌㅏㅁㅅㅏㅅㅓㄴ -9322
▁ㅋㅏㅁㅔㄹ -9323
▁ㄱㅛㄱㅘㅅㅓ -9324
▁ㄱㅏㅁㅏㅋㅜㄹㅏ -9325
▁ㅋㅏㄹㅡㄹㄹㅗㅅㅡ -9326
▁117 -9327
▁ㅇㅣㅅㅏㄴㅎㅘ -9328
▁SE -9329
▁ㅇㅔㄷㅡ -9330
▁ㅌㅏㄷㅏㅇ -9331
ㅇㅏㄴㄱㅜㄴ -9332
▁ㅅㅣㅂㅔㄹㅣㅇㅏ -9333
ㅁㅏㅊㅣ -9334
▁ㅇㅣㅎㅘ -9335
ㄹㅗㅇㅝㄴ -9336
▁ㅅㅣㄴㅅㅓㄴ -9337
▁ㄱㅜㅊㅜㄱㅎㅏㅁ -9338
▁ㄱㅡㄹㅐㄴ -9339
▁ㅅㅣㄹㅊㅔ -9340
▁ㅌㅏㅁㅅㅐㄱ -9341
▁ㅅㅗㅇㅝㄴ -9342
▁ㅊㅣㅇㅏㄴ -9343
ㅊㅣㄹㅗ -9344
▁ㅈㅔㅈㅐ -9345
ㅇㅡㄴㅇㅣ -9346
▁ㅎㅢㅅㅐㅇㅈㅏ -9347
() -9348
▁ㅊㅓㄴㅕ -9349
▁ㅂㅣㄴㄱㅗㄴ -9350
▁ㄴㅏㅅㅡ -9351
▁ㄱㅓㅇㅜㄹ -9352
▁ㄴㅐㅇㅈㅓㄴ -9353
▁ㅅㅣㄹㄹㅕ -9354
▁ㄱㅕㄹㅎㅏㅁ -9355
▁ㅅㅗㅇㅅㅣㅇ -9356
▁ㅇㅑㅇㅊㅡㄱ -9357
▁ㅇㅣㅂㅇㅝㄴ -9358
▁ㄷㅡㄹㅓㄴㅏㅆ -9359
ath -9360
▁ㅁㅚ -9361
ound -9362
▁ㅇㅣㅇㅗ -9363
▁ㅇㅣㄹㅂㅏㅇ -9364
▁ㅈㅗㅈㅗㅇㅅㅏ -9365
ft -9366
▁ㅍㅡㅌ -9367
▁ㄴㅜㄴㅏ -9368
▁ㄷㅡㅁㅜㄴ -9369
▁ㄱㅗㄱㅇㅣㄴ -9370
▁is -9371
▁KIA -9372
▁ㅊㅓㄴㅈㅏㅇ -9373
ㅑㄴㅡㄴ -9374
▁ㅇㅣㄴㅁㅕㅇ -9375
▁ㅇㅏㅋㅡ -9376
▁ㄱㅗㅇㅂㅏㅇ -9377
▁ㅎㅏㄹㅁㅓㄴㅣ -9378
ㄱㅡㄹㅔㅇㅣㄷㅡ -9379
▁ㅅㅜㅅㅐㄱ -9380
▁ㅇㅓㄴㄴㅣ -9381
▁ㅈㅏㄹㅏㄴ -9382
▁ㅎㅜㄱㅜㅇ -9383
▁ㅁㅗㄹㄹㅐ -9384
▁ㅈㅣㅍㅕㅇ -9385
▁ㅌㅜㅇㅗㄱ -9386
ㅍㅜㄹㅡㅌㅡ -9387
▁350 -9388
▁ㅅㅏㄹㅇㅏㄱㅏ -9389
▁ㅅㅜㅇㅛㅇㅊㅔ -9390
ㅔㅇㅣㄹㅜ -9391
▁ㄱㅛㅈㅓㅇ -9392
▁ㄱㅔㅅㅡㅌㅡ -9393
▁ㅂㅏㄷㅇㅏㄷㅡㄹㅇㅕㅆ -9394
▁ㅇㅓㅂㄱㅡㄹㅔㅇㅣㄷㅡ -9395
▁ㅅㅏㅁㅊㅡㅇㅅㅓㄱㅌㅏㅂ -9396
ㅕㄹㅐ -9397
▁ㄹㅣㅇㅗ -9398
▁ㄷㅏㄱㅏㅇ -9399
▁ㅁㅜㄴㅇㅖ -9400
▁ㅎㅏㄴㅈㅣ -9401
▁ㅅㅡㄹㄹㅗㅂ -9402
▁ㅊㅣㅇㅏ -9403
▁ㅈㅓㅇㅅㅏ -9404
▁ㅈㅔㄷㅐ -9405
▁ㅅㅗㅇㅅㅣㅇㅕㄹ -9406
▁com -9407
ㅅㅡㅇㅂㅜ -9408
▁ㅂㅗㅎㅗㄱ -9409
▁ㅅㅡㅇㄱㅖ -9410
▁ㄷㅗㅁㅏㅂㅐㅁㅂㅜㅌㅇㅣ -9411
OL -9412
▁ㅇㅏㅂㅜ -9413
ㅁㅓㄹㅣ -9414
▁ㄷㅡㄹㅇㅕ -9415
▁ㅇㅏㄹㄹㅏ -9416
▁ㅇㅣㄴㅏㅁ -9417
▁ㅊㅏㅈㅇㅏㅂㅗㄹ -9418
▁ㅊㅓㄹㅎㅚ -9419
▁ㅊㅜㄱㅎㅏ -9420
▁ㄱㅡㅁㅏㄴㄷㅜ -9421
▁ㅆㅓㄴ -9422
▁ㅌㅗㅇㅌㅡㄹ -9423
▁ㅍㅏㅇㅣㅇㅓ -9424
▁ㅈㅜㄹㅁㅜㄴㅢ -9425
▁ㅋㅡㄹㄹㅏㅇㅜㄷㅡ -9426
ㄷㅡㄹㄹ -9427
▁ㅅㅏㅇㅅㅓ -9428
▁ㅎㅐㄱㅁㅜㄱㅣ -9429
▁ㄷㅐㅇㅜㅇㅈㅓㄴ -9430
▁ㅅㅐㅇㄱㅕㄴㅏㅆ -9431
▁ㅅㅏㅁㅅㅓㅇㅈㅓㄴㅈㅏ -9432
▁ㅈㅔㅍㅡ -9433
▁ㅍㅖㄱㅣ -9434
▁ㅎㅐㄴㄷㅡ -9435
▁ㅈㅣㄴㄱㅗㅇ -9436
▁ㅍㅏㄴㅂㅗㄴ -9437
▁ㅇㅜㅎㅗ -9438
▁ㄷㅗㅊㅓㅇ -9439
▁ㅊㅣㅇㅊㅏㄴ -9440
▁ㄱㅡㄱㅈㅏㅇㅍㅏㄴ -9441
▁IM -9442
▁ㅁㅜㄴㄱㅜ -9443
▁ㅅㅓㅇㄷㅗ -9444
▁ㅇㅕㅍㅁㅕㄴ -9445
ㄴㅓㄼ -9446
ㄸㅜㄱ -9447
▁ㅇㅛㅇㅑㄱ -9448
▁ㅌㅔㅇㅣㅍㅡ -9449
▁ㄱㅗㅅㅗㄱㄷㅗ -9450
▁ㅇㅏㅋㅏㄷㅔㅁㅣㅅㅏㅇ -9451
▁CR -9452
▁173 -9453
▁ㄹㅓㅁ -9454
▁ㅅㅏㅇㅍㅛ -9455
▁ㄴㅐㄹㅕㅇㅗ -9456
▁ㄷㅏㅁㄱㅣㄴ -9457
▁ㄹㅏㅂ -9458
▁ㅅㅔㅅㅗㄱ -9459
▁ㅁㅏㄹㅆㅡㅁ -9460
▁ㅇㅕㄴㅎㅏㅂㄱㅜㄱ -9461
ond -9462
▁121 -9463
ㅗㅅㅣㄴ -9464
▁ㅋㅣㅇㅜ -9465
▁ㅎㅐㄱㅗ -9466
▁ㄹㅏㅇㅣㄴㅓ -9467
▁ㅇㅏㄹㅈㅔㄹㅣ -9468
▁LC -9469
ㄲㅣㄹㅣ -9470
▁ㄷㅏㅁㄱㅕ -9471
▁ㅅㅣㄴㅈㅜ -9472
▁ㅍㅗㅂㅕㅇ -9473
▁ㄱㅜㅇㄱㅡㄱ -9474
▁ㄱㅗㄱㅗㅎㅏㄱ -9475
▁ㄱㅕㄹㅋㅗ -9476
▁ㅅㅏㅇㅅㅏ -9477
▁ㅅㅏㅅㅐㅇㅎㅘㄹ -9478
▁Am -9479
▁ㅎㅘㅈㅏㅇㅅㅣㄹ -9480
ㅔㅌㅣ -9481
▁113 -9482
▁137 -9483
ㄷㅏㄹㄹㅣ -9484
ㅈㅣㅂㅜㅇ -9485
▁ㅎㅏㅇㅈㅐㅇ -9486
ㅣㅁㅐㄱ -9487
▁ㅂㅜㅇㅢ -9488
▁ㅇㅣㄹㅂㅏㄴㅇㅣㄴ -9489
▁ㅈㅔㄴㅣ -9490
▁ㄱㅏㅊㅜㄱ -9491
▁ㅂㅏㅇㅎㅘ -9492
▁ㄱㅣㅇㅓㅂㅇㅣㄴ -9493
▁1894 -9494
▁ㅁㅣㄹㅏ -9495
▁ㅅㅣㅂㅏ -9496
▁ㄱㅏㅅㅣㄴ -9497
▁ㄱㅡㄴㅑㅇ -9498
▁ㄱㅣㅁㅎㅕㄴ -9499
▁ㅇㅑㄱㄹㅕㄱ -9500
▁ㅈㅓㄴㅂㅗㄱ -9501
▁ㅅㅒ -9502
ㄱㅡㄹㄹ -9503
ㄷㅜㄱㅛ -9504
▁ㄴㅜㄱㅏ -9505
▁ㄷㅐㅁㅕㅇ -9506
▁ㄹㅣㅇㅓㄹ -9507
▁ㅇㅣㅇㅓㅈㅣㄴ -9508
▁ㅃㅏㄹㄱㅏㄴㅅㅐㄱ -9509
ov -9510
ory -9511
ㅈㅕㄴ -9512
▁ㄷㅟㅈㅣㅂ -9513
▁ㄱㅗㅇㅂㅐㄱ -9514
▁ㅁㅏㄴㅇㅣㄹ -9515
▁ㅇㅘㅆㅇㅡㅁㅕ -9516
ㅈㅗㅂㅜ -9517
ㅡㄱㅗㄴ -9518
▁ㅎㅣㅁㄷㅡㄴ -9519
ㅌㅓㅁ -9520
▁ㄴㅏㄴㅝ -9521
▁ㄷㅔㅁㅗ -9522
ㄱㅏㄹㅅㅐㄱ -9523
▁ㅈㅣㄴㄱㅡㅂ -9524
▁ㅂㅏㅌㅣㅋㅏㄴ -9525
▁ㅁㅗㅇㅣ -9526
▁ㅇㅣㄹㄹㅣㄴ -9527
▁ㄱㅡㄴㄹㅗㅈㅏ -9528
▁ㄱㅣㅈㅣㄹ -9529
▁ㅊㅚㄱㅏㅇ -9530
▁ㅁㅏㄹㄴㅕㄴ -9531
▁ㅇㅘㅇㅂㅗㄱ -9532
▁z -9533
▁ㄴㅗㅂㅏ -9534
▁ㅁㅗㄴㅅㅡㅌㅓ -9535
▁ㅍㅡㄹㅗㄱㅔㅇㅣㅁㅓ -9536
▁SU -9537
▁ㅂㅏㅇㅗㄹㅗ -9538
ㅊㅣㄱㅣ -9539
▁ㄴㅗㅇㄹㅣㅁ -9540
▁ㅁㅔㄹㄹㅗㄷㅣ -9541
▁ㅇㅗㅍㅡㄴㅣㅇ -9542
▁ㅊㅗㅇㄷㅗㄱㅂㅜ -9543
▁ㄴㅡㄲㅕ -9544
▁ㅊㅗㅇㅝㄹ -9545
▁ㅇㅝㄴㅈㅓㄴ -9546
▁ㅁㅣㄹㅡ -9547
▁ㄱㅖㅈㅓㅇ -9548
▁ㅅㅓㅁㅣㄴ -9549
▁ㅇㅣㄹㅋㅓㄹ -9550
▁ㅁㅜㄹㄹㅕㅂㅏㄷ -9551
ㅋㅏㅁㅣ -9552
▁ㅇㅗㅂㅅㅕㄴ -9553
▁ㅇㅛㅇㅂㅕㅇ -9554
man -9555
ㄸㅏㄱ -9556
ㅠㄹㅓㅂ -9557
▁ㄱㅓㅊㅕㅆ -9558
▁ㄱㅜㅈㅓㄹ -9559
▁ㄷㅜㅇㅈㅣ -9560
▁ㅅㅏㅁㅜㄱ -9561
▁ㄱㅗㅇㅁㅣㄴ -9562
▁ㅅㅣㄴㅈㅗㅇ -9563
▁ㅅㅏㅅㅏㅇㅈㅏ -9564
ㄷㅗㄹㄹ -9565
▁ㅎㅏㄹㅡ -9566
▁ㄸㅣㄴㄷㅏ -9567
▁ㅎㅕㄹㄱㅘㄴ -9568
ㅣㅇㅔㄴ -9569
ㅇㅓㅂㅓㄹ -9570
ㅔㅇㅣㄹㅏ -9571
▁ㄱㅐㅈㅗㅇ -9572
▁ㅂㅜㅌㅇㅣㄴ -9573
▁ㅈㅜㅇㅓㅈㅣ -9574
▁ㄱㅜㄴㅈㅓㅇ -9575
▁ㅎㅏㄱㅁㅕㅇ -9576
▁ㄴㅏㅁㅅㅓㅂㅜ -9577
ㄷㅗㄱㅛ -9578
ㄷㅏㄴㅊㅔ -9579
▁ㄴㅐㅈㅓㅇ -9580
▁ㅍㅣㄹㄹㅣㅍㅡ -9581
ㅂㅏㄷㅏ -9582
ㅎㅏㄹㅜ -9583
▁ㅁㅗㅈㅏ -9584
▁ㅈㅣㅁㅣ -9585
▁ㅎㅏㄱㄱㅖ -9586
iver -9587
ㅠㄱㅣㄴㅣ -9588
▁World -9589
▁ㅊㅚㄷㅐㅎㅏㄴ -9590
▁ㄱㅏㅈㅏㅇㅈㅏㄹㅣ -9591
ㅍㅓㄹㅓㄴㅅㅡ -9592
▁ㄷㅡㄹㅇㅓㅇㅗㄴ -9593
▁ㅋㅓㅁㅠㄴㅣㅋㅔㅇㅣㅅㅕㄴ -9594
▁ㄱㅡㄱㅅㅣㅁ -9595
▁ㅈㅡㄱㄱㅏㄱ -9596
▁ㅎㅚㅇㄷㅏㄴ -9597
▁ㄴㅐㄹㅕㄱ -9598
▁ㅇㅣㄹㅈㅗ -9599
▁ㄷㅟㅅㅁㅕㄴ -9600
▁ㅁㅜㄹㄹㅣㅊㅣ -9601
▁ㅇㅛㄱㄱㅜ -9602
▁ㄷㅗㄹㄱㅕㄱ -9603
▁124 -9604
▁ㄷㅐㅍㅣ -9605
▁ㅁㅐㄱㅅㅡ -9606
▁ㄱㅗㄴㄹㅏㄴ -9607
ㅅㅖㅂㅣ -9608
ㄴㅐㅇㅚ -9609
▁ㅂㅜㄷㅣㅈ -9610
▁ㅅㅓㅇㅁㅜㄴ -9611
▁ㄱㅜㄱㄴㅐㅇㅚ -9612
ㅇㅡ -9613
ㅅㅑㅇ -9614
▁ㄷㅗㄱㅇㅣㄹㅇㅣㄴ -9615
▁ㅂㅐㅎㅜ -9616
▁ㅋㅗㄹㄹㅏ -9617
▁ㅎㅚㅅㅏㅇ -9618
ㄷㅡㄹㅡ -9619
▁ㅁㅗㅊㅣㄴ -9620
▁ㅎㅏㄷㅗㅇ -9621
▁1890 -9622
▁ㅍㅕㅇㅈㅓㅇ -9623
▁ㅍㅏㅇㅣㄴㅓㄹ -9624
ㅂㅣㄴㅏ -9625
▁ㅇㅕㄴㅅㅜ -9626
▁ㄱㅔㅇㅣㅈㅣ -9627
▁ㅇㅣㅌㅏㄹㄹ -9628
▁On -9629
▁ㅇㅚㅁㅗ -9630
▁ㅎㅗㄹㄹ -9631
▁ㅂㅣㄹㄹㅕ -9632
ㅍㅡㄹㅔㅅㅡ -9633
▁ㅌㅐㄹㄹㅓㄴ -9634
▁ㅍㅡㄹㅗㄷㅓㄱ -9635
ㄱㅗㄹㅐ -9636
▁ㅍㅔㄹㄹㅣ -9637
▁ㅁㅣㅅㅗ -9638
▁ㅊㅣㅁㅌㅜ -9639
▁ㄱㅡㄷㅐ -9640
▁ㄴㅐㅈㅜ -9641
▁ㅂㅏㅅㅡ -9642
ㅋㅏㄹㅏㄱ -9643
▁New -9644
▁ㄸㅏㅅ -9645
▁ㅅㅕㅆ -9646
▁ㅋㅐㅅㅣ -9647
▁ㅌㅐㄹㄹㅓㄴㅌㅡ -9648
▁ㅁㅏㄷㅣ -9649
ㅈㅜㄹㄱㅣ -9650
▁ㅂㅜㄴㅁㅕㅇㅎㅣ -9651
▁EC -9652
ㅅㅣㅌㅏ -9653
▁ㅂㅣㄹㅡ -9654
ㅅㅡㅌㅗㄹ -9655
ㅅㅏㄴㄷㅗㅇ -9656
▁ㅁㅜㅇㅏㄴ -9657
▁ㅈㅔㅇㅏㅂ -9658
▁ㅇㅗㄹㅣㅋㅗㄴ -9659
▁ㄷㅡㄹㅏㅇㅣㅂㅓ -9660
▁ㅇㅣㄹㅜㄴ -9661
▁ㅊㅗㄹㅗㄱ -9662
IP -9663
▁ㅊㅔㅈㅗ -9664
▁ㄱㅖㅇㅕㄹㅅㅏ -9665
▁ㅍㅔㄹㅡㄷㅣㄴ -9666
ich -9667
ㅠㅁㅗ -9668
▁ㄷㅣㄹㅔㄱ -9669
▁ㅅㅏㅂㅗㄴ -9670
▁ㅈㅣㅇㄱㅖ -9671
▁ㅊㅐㄹㄹㅣㄴㅈㅣ -9672
▁be -9673
▁ㄸㅏㅆ -9674
▁ㅁㅓㄴㅈㅣ -9675
▁ㅅㅓㄹㅎㅘ -9676
▁ㄱㅘㄴㅇㅡㅁ -9677
▁ㅂㅗㅇㄱㅓㄴ -9678
▁vs -9679
▁ㅎㅜㅅㅏ -9680
▁ㅂㅜㅈㅏㄱㅇㅛㅇ -9681
▁SD -9682
▁ㅁㅐㅁㅐ -9683
▁ㄴㅠㅌㅓㄴ -9684
▁ㅈㅓㅇㅂㅕㄴ -9685
▁ㅋㅡㄹㅣㅅㅡㅌㅗㅍㅓ -9686
ㅎㅔㄹ -9687
▁ㅅㅓㄴㅂㅣ -9688
▁ㅋㅙㅅㅗㄱ -9689
▁ㅈㅜㄹㅇㅕㅅㅓ -9690
▁ㅇㅠㅈㅓ -9691
ㅗㅇㅣㅌㅡ -9692
▁ㅅㅣㄴㅅㅏㅇ -9693
▁ㅈㅏㅇㅕㄴㅅㅜ -9694
▁114 -9695
▁ㄱㅡㄹㅗ -9696
▁ㅇㅏㄴㅏ -9697
▁ㅂㅡㄹㄹㅐㄱㅎㅗㄹ -9698
▁ㄱㅚㅁㅜㄹ -9699
▁ㅇㅣㄹㄱㅏ -9700
▁ㄱㅘㄴㄱㅜ -9701
▁ㅅㅗㄱㅠㅁㅗ -9702
▁ㅂㅔㄴㅔㄷㅣㄱ -9703
▁ㅅㅡㄹㄹㅗㅂㅔㄴㅣㅇㅏ -9704
▁ㅁㅏㄺ -9705
▁ㅁㅗㄴㅣ -9706
ㅇㅏㄴㅐㅆ -9707
ㄷㅐㅇㅝㄴㄱㅜㄴ -9708
▁ㅂㅏㅇㅅㅏㅅㅓㄴ -9709
ial -9710
▁ㅎㅓㄱ -9711
▁ㅈㅏㅇㅏ -9712
▁ㅌㅐㄱㅡㄱ -9713
▁ㅁㅐㄴㅣㅈㅓ -9714
▁ㅋㅗㅁㅣㄱㅅㅡ -9715
▁ㄱㅣㅁㅈㅓㅇㅇㅣㄹ -9716
▁ㄲㅏㄲ -9717
▁ㄱㅡㅊㅣ -9718
▁ㅈㅏㅇㅡㅁ -9719
▁ㅇㅕㅇㅅㅏㄴ -9720
▁ㅇㅏㄹㄹㅜㅁㅣㄴ -9721
ㄴㅗㄹ -9722
▁ㅇㅏㄹㅐㅅ -9723
▁ㅎㅔㄹㄹㅣ -9724
▁ㅋㅓㄴㅅㅔㅂ -9725
▁ㅎㅏㄱㅇㅓㅂ -9726
▁ㄱㅗㅇㄱㅏㅁ -9727
▁ㅂㅔㄹㄹㅏㄹ -9728
▁ㄴㅏㅂㅣ -9729
▁ㅋㅗㄹㄹㅣㄴ -9730
▁ㅇㅖㅈㅗ -9731
▁ㄱㅕㅇㅅㅣㄴ -9732
hn -9733
▁ㄱㅜㄴㅈㅜㅇ -9734
▁ㅇㅕㄴㅇㅣ -9735
▁ㅈㅐㅅㅏㅇ -9736
▁ㅋㅐㄴㅈㅏㅅㅡ -9737
▁ㄱㅓㅁㅊㅏㄹㅊㅓㅇ -9738
▁ㅅㅣㅈㅓㅇ -9739
▁ㅇㅣㅇㅓㅈㅣㄴㄷㅏ -9740
▁ㅌㅟㄹㅡ -9741
▁ㅇㅛㅈㅓㅇ -9742
▁ㅅㅏㄹㅍㅕㅂㅗ -9743
▁ㅅㅡㅋㅡㄹㅣㅂ -9744
▁Sc -9745
ㅈㅏㅇㅣ -9746
▁ㄹㅗㅇㅜ -9747
▁ㅅㅏㅅㅏㄹ -9748
▁ㅈㅣㅊㅣㅁ -9749
ㄷㅏㅁㅕ -9750
▁ㅌㅚㅇㅣㅁ -9751
▁ㄷㅏㅂㅂㅕㄴ -9752
▁115 -9753
▁ㅁㅣㅋㅣ -9754
▁ㅇㅓㅁㅣ -9755
▁ㅇㅏㄱㄷㅏㄴ -9756
ign -9757
▁ㄱㅣㅇㅓ -9758
ㅈㅗㄱㅓㄴ -9759
▁118 -9760
▁ㄱㅣㅁㄱㅠ -9761
▁ㅈㅏㅌㅐㄱ -9762
▁ㄱㅜㅅㅡㅌㅏ -9763
▁ㅅㅣㅇㅟㄷㅐ -9764
▁ㅈㅜㅇㅎㅕㅇ -9765
ㅆㅏㄴ -9766
▁ㄷㅏㅋㅡ -9767
▁ㄷㅏㄴㅕㅇ -9768
ㅔㄱㅌㅡ -9769
▁ㅁㅣㄱㅅㅡ -9770
▁ㅋㅔㅇㅣㅁ -9771
▁ㅇㅕㄴㅅㅡㅇ -9772
▁ㅌㅗㅇㅊㅣㅈㅏ -9773
▁ㅈㅐㅅㅓㄴ -9774
ㄹㅣㅅㅡㅌㅡ -9775
ㅌㅏㄹㅣㅇㅗ -9776
▁ㅅㅔㅇㅣㅂㅡ -9777
▁ㅇㅠㄴㅊㅣㅎㅗ -9778
ㅈㅓㅈㅣ -9779
▁ㄷㅓㄴㅣ -9780
▁ㅂㅣㄹㅗㅅㅗ -9781
▁ㅇㅝㄴㄹㅗㅇㅝㄴ -9782
TS -9783
▁ㅇㅝㅋㅡ -9784
ㅎㅘㅇㅎㅜ -9785
▁ㅌㅜㄴ -9786
▁ㅈㅗㅂㅜ -9787
▁ㄱㅘㅂㅏㄴ -9788
▁ㅇㅡㄴㄷㅔ -9789
▁ㄷㅗㅁㅣㄴㅣ -9790
▁ㄹㅣㅇㅜ -9791
▁ㅈㅓㄴㅓㄹ -9792
▁` -9793
▁ㄷㅐㄱㅓ -9794
▁ㅁㅣㄹㅜ -9795
▁ㅁㅏㄹㅣㄴ -9796
▁ㅅㅏㅇㅎㅐ -9797
▁ㅇㅑㅇㅎㅗ -9798
▁ㅇㅗㄹㄹㅏㅇ -9799
▁ㅈㅗㅇㅊㅏㄱ -9800
▁ㅇㅣㄹㄹㅣㄴㅗㅇㅣ -9801
▁ㅌㅔㅅ -9802
▁ㅍㅓㅈㅣ -9803
▁ㄱㅗㅇㅈㅗ -9804
▁ㅈㅓㄴㅈㅏㄱㅣ -9805
ㅈㅡㅂㅔ -9806
ㅗㄴㅌㅡ -9807
ㅂㅏㄷㅏㄱ -9808
▁ㄴㅏㅇㅗㄹ -9809
▁ㅇㅛㅇㅇㅣ -9810
▁ㅎㅖㅌㅐㄱ -9811
▁ㅇㅜㅈㅡㅂㅔ -9812
▁ㅈㅡㅇㅅㅗㄴ -9813
ㅓㄹㄹㅣㅅㅡㅌㅡ -9814
▁ㅎㅟㅂㅆ -9815
▁ㄸㅏㅅㅈㅟ -9816
▁ㅇㅓㄱㅡㅅ -9817
▁ㅈㅣㅇㅣㄴ -9818
▁ㅁㅜㅅㅡㅇㅂㅜ -9819
▁ㅅㅡㅇㅂㅜㅊㅏㄱㅣ -9820
ㅂㅔㅇㅣ -9821
▁ㅋㅓㄴㅓㄹ -9822
▁ㄷㅗㅇㅈㅓㅇ -9823
▁ㅍㅜㄹㄹㅕㄴ -9824
ㄱㅣㄴㅕㅁ -9825
ㄹㅣㅇㅣㄴ -9826
▁ㅎㅡㄴㅎㅏ -9827
▁ㅅㅜㄱㅊㅓㅇ -9828
▁ㄷㅏㄹㅜㄴㄷㅏ -9829
▁ㄹㅔㅂㅏㄴㅗㄴ -9830
▁1898 -9831
▁ㅁㅏㄹㅕㄱ -9832
▁ㅊㅟㅇㅓㅂ -9833
▁ㄴㅠㅈㅓㅈㅣ -9834
▁ㅎㅣㄴㄷㅜㄱㅛ -9835
▁ㅎㅔㅇㅓ -9836
▁ㅂㅏㄴㅎㅐ -9837
▁ㅂㅏㄺㄱㅣ -9838
▁GP -9839
▁ㄷㅏㅅㅡ -9840
▁ㄷㅗㄹㅡ -9841
ㅇㅠㅎㅐㅇ -9842
▁ㄱㅡㄱㅈㅏㄱ -9843
▁ㅂㅗㄴㄱㅜㄱ -9844
▁ㅅㅗㅂㅏㅇㅅㅓ -9845
▁ㅈㅗㄹㅣ -9846
▁ㅅㅣㄱㅏㅈㅣ -9847
▁ㅈㅗㅇㅅㅗㄱ -9848
ㅅㅣㅈㅡㅁ -9849
▁ㅁㅗㄹㅗㅋㅗ -9850
ㅇㅣㅊㅣ -9851
▁ㄴㅏㅁㅁㅣ -9852
▁ㅁㅣㄹㅈㅣㅂ -9853
▁ㅍㅏㄹㅏㄴㅅㅐㄱ -9854
▁GS -9855
ㅓㅂㅓㅂ -9856
▁ㄷㅔㄹㅡ -9857
▁ㄱㅣㄱㅏㄱ -9858
▁ㅇㅚㄱㅘㄴ -9859
▁ㅇㅠㅈㅣㄴ -9860
▁ㅎㅔㄹㄱㅣ -9861
ㅂㅡㄹㅣㅈㅣ -9862
▁ㅁㅣㅎㅏㅇㅣㄹ -9863
ㅈㅜㄹㅗ -9864
▁ㄴㅏㅁㄱㅜ -9865
▁ㅅㅐㅇㅊㅔ -9866
▁ㄴㅔㅅㅡ -9867
▁ㅍㅡㄹㄹㅐㅅㅣ -9868
▁ㅍㅜㅇㅈㅏ -9869
▁ㄷㅜㅇㄱㅡㄹ -9870
▁ㅊㅜㄱㅊㅜㄹ -9871
▁III -9872
▁ㅂㅔㅅ -9873
▁ㅇㅓㄹㅕㅆ -9874
▁ㅇㅜㅊㅡㄱ -9875
▁ㅎㅔㄹㄹㅔㄴ -9876
▁ㅂㅏㄴㅈㅣㄹㅡㅁ -9877
▁ㅇㅏㄴㅌㅗㄴㅣㅇㅗ -9878
▁ㄱㅏㅇㅗㄱ -9879
▁ㅅㅡㅍㅗㄴ -9880
▁ㅈㅓㄴㄴㅕㄴ -9881
▁ㅅㅓㅇㄹㅣㅎㅏㄱ -9882
ㄷㅐㅅㅓㅇ -9883
▁ㄴㅚㅁㅜㄹ -9884
▁ㅊㅔㅋㅗㅅ -9885
▁ㅇㅑㅁㅏㅌㅗ -9886
▁ㅇㅣㄴㅈㅣㄹ -9887
▁ㅈㅣㄱㅁㅕㄴ -9888
▁ㅇㅞㅅㅡㅌㅓㄴ -9889
▁ㄱㅕㅇㅊㅏㄹㄱㅘㄴ -9890
▁ㅊㅔㅋㅗㅅㅡㄹㄹㅗ -9891
▁ㅊㅔㅋㅗㅅㅡㄹㄹㅗㅂㅏㅋㅣㅇㅏ -9892
▁ㅅㅓㅈㅏ -9893
▁ㅇㅣㄲㅡㄴ -9894
▁ㅍㅣㄹㅅㅏ -9895
▁ㅎㅏㄴㅈㅗㄱ -9896
▁ㄹㅣㅂㅠ -9897
▁ㅇㅘㅇㅅㅔ -9898
▁ㅎㅢㄱㅟ -9899
▁ㅅㅏㅈㅓㄱ -9900
▁ㅅㅔㅂ -9901
ph -9902
▁ㄱㅘㄴㅈㅔ -9903
▁ㅌㅗㅇㅂㅗ -9904
▁ㅇㅞㅂㅌㅜㄴ -9905
▁ㄹㅔㅅㅡㄹㄹㅣㅇ -9906
▁ㄷㅣㅂㅣㅅㅣㅇㅗㄴ -9907
▁ㅍㅡㄹㅗㄷㅓㄱㅅㅕㄴ -9908
▁ㅇㅏㅇㅣㄹ -9909
▁ㅋㅔㅂㅣㄴ -9910
▁ㅂㅓㅁㅇㅠㅎㅐㅇ -9911
▁ㅁㅣㅅㅔ -9912
ㅎㅏㅁㅅㅜ -9913
▁ㄱㅣㅈㅡㅇ -9914
ㄷㅗㅂㅏ -9915
ㅇㅏㅁㅓㄱ -9916
▁129 -9917
▁ㅇㅗㄴㅗ -9918
▁ㅅㅓㅅㅣㄴ -9919
▁ㅈㅣㅊㅜㄹ -9920
▁ㅍㅏㅅㅏㄴ -9921
▁ㅎㅗㅊㅜㄹ -9922
▁ㄷㅜㄹㅜ -9923
▁ㅋㅔㄴㅑ -9924
ㅈㅜㄹㅣ -9925
▁ㅇㅢㅇㅑㄱㅍㅜㅁ -9926
▁ㅈㅓㄻㅇㅡㄴㅇㅣ -9927
▁ㄱㅏㅇㅅㅓ -9928
▁ㅂㅏㄹㄱㅡㅂ -9929
▁ㄱㅘㅇㅎㅐㄱㅜㄴ -9930
ㄱㅣㅅㅡ -9931
ㅅㅜㅅㅗ -9932
ㅈㅐㅇㅇㅣ -9933
ㅎㅘㅁㅜㄹ -9934
▁ㅎㅘㄹㅕㄱ -9935
▁ㄷㅐㅂㅕㄴㅇㅣㄴ -9936
▁ㅇㅕㄴㅇㅖㅇㅣㄴ -9937
ㅌㅔㄹㅡㅂㅜㄹㅡㅋㅡ -9938
▁ㅇㅏㄹㄹㅜㅁㅣㄴㅠㅁ -9939
▁ㅅㅏㅇㅟ -9940
▁ㅅㅡㅇㅈㅏ -9941
▁ㅈㅗㅇㄹㅐ -9942
▁ㅇㅞㄴ -9943
▁ㅇㅚㅇㅑㅅㅜ -9944
ㅎㅐㅁ -9945
▁ㅂㅕㄴㅇㅣ -9946
▁ㅂㅏㄹㅂㅕㅇ -9947
▁ㅂㅗㅇㅇㅏㄴ -9948
▁ㅇㅣㅁㅇㅝㄴ -9949
▁ㄹㅠㄴ -9950
▁ㄱㅏㅁㅈㅏ -9951
▁ㅍㅔㄴㅓㄹ -9952
▁Ne -9953
ㄲㅜㅁ -9954
▁ㅋㅣㄹㅡ -9955
ㅡㄹㅓㅁㅣ -9956
▁ㅁㅏㄱㄴㅐ -9957
▁ㅈㅐㅎㅗㄴ -9958
▁ㅈㅣㅇㅗㄱ -9959
▁ㅋㅓㅁㅂㅐㄱ -9960
▁ㅎㅘㅇㅈㅗㄱ -9961
▁ㄱㅐㅁㅏㄱㅈㅓㄴ -9962
▁ㅁㅏㅇㅣㅋㅡㄹㅗ -9963
▁ㅆㅏ -9964
▁ㄱㅗㅊㅕ -9965
▁ㅅㅓㄴㄷㅗ -9966
▁ㅇㅓㄹㅡㄴ -9967
▁ㅅㅡㅌㅏㄹㅣㄱㅡ -9968
▁ㅊㅏㅇㅊㅜㄹ -9969
▁ㄷㅏㄲ -9970
▁ㄱㅣㄷㅏㄹ -9971
▁ㅅㅣㅁㅎㅐ -9972
▁ㅅㅣㄹㅁㅏㅇ -9973
▁ㅈㅜㅇㅅㅏㄴ -9974
▁ㅍㅗㄱㄴㅓㄼ -9975
ㅆㅜ -9976
▁1899 -9977
▁ㅇㅣㄷㅡ -9978
▁ㅈㅣㄴㅏㄱ -9979
▁ㄴㅏㄴㅈㅣㅇ -9980
▁ㅂㅔㄹㄹㅏㄹㅜㅅㅡ -9981
ㅎㅣㅋㅗ -9982
▁ㅇㅡㅇㅅㅣ -9983
ㅣㄹㄹㅔㅇㅣ -9984
▁ㅇㅔㄹㄹ -9985
ㅅㅗㄱㄱㅣ -9986
▁ㅁㅜㅁㅕㅇ -9987
▁ㅇㅓㄹㅕㅇㅝ -9988
▁ㅇㅝㄴㅊㅓㄴ -9989
▁ㅊㅓㅁㄷㅏㄴ -9990
▁ㅇㅕㄴㅅㅏㄴㅈㅏ -9991
▁ㅇㅗㅀ -9992
▁ㄷㅐㅂㅜ -9993
▁ㅅㅗㅁㅐ -9994
▁ㅈㅓㅈㅜ -9995
▁ㅊㅗㅇㅅㅏㄹㅕㅇ -9996
ㅍㅗㅌㅓ -9997
▁ㅂㅜㅍㅣ -9998
▁ㅂㅜㅇㅢㅈㅏㅇ -9999
▁ㅂㅡㄹㅣㅌㅡㄴ -10000
▁ㄹㅓㅅㅔㄹ -10001
▁ㅅㅜㄴㅈㅗ -10002
▁ㅌㅗㅇㅑㅇ -10003
▁ㅊㅓㅇㅅㅏㄴ -10004
ㅔㄴㅣ -10005
ㅋㅗㄷㅣㅇ -10006
▁ㄷㅏㄴㄱㅣ -10007
▁ㅈㅓㄴㅅㅗㄱ -10008
▁ㅊㅗㅇㅊㅣㅇ -10009
▁ㅊㅓㄴㅁㅜㄴㄷㅐ -10010
TA -10011
▁ㅎㅚㄱㅘㄴ -10012
▁ㅅㅓㅇㅍㅗㄱ -10013
▁ㅋㅣㅂㅗㄷㅡ -10014
▁ㅅㅏㅇㅛㅇㅈㅏ -10015
▁ㅈㅏㅇㄹㅖㅅㅣㄱ -10016
ㅋㅛ -10017
▁ㄱㅏㄹㅜ -10018
▁ㄷㅏㄷㅏ -10019
ㅎㅏㅇㅣㅁ -10020
▁ㅍㅡㄹㄹㅏㅅㅡㅌㅣㄱ -10021
rom -10022
▁ㅋㅓㅈㅣ -10023
▁ㅁㅏㄴㄹㅛ -10024
▁ㅎㅢㄱㅗㄱ -10025
ㅏㅇㅣㅈㅡ -10026
▁ㅎㅏㄴㅌㅔ -10027
▁ㅉㅗㅊㄱㅕㄴ -10028
▁ㅎㅗㄴㄷㅗㅇ -10029
▁ㄱㅣㅅㅜㄹㅈㅏ -10030
▁ㅎㅘㄱㅅㅣㄹㅎㅣ -10031
▁ㅍㅡㄹㅏㅇㅋㅡㅍㅜㄹㅡㅌㅡ -10032
ㅇㅓㄴㅐ -10033
▁ㅇㅏㅈㅡ -10034
▁ㅅㅏㅇㅣㅋㅡㄹ -10035
▁ㅈㅜㅂㅜ -10036
▁ㄱㅜㅎㅐ -10037
▁ㄱㅡㄱㅎㅏㄴ -10038
▁ㄴㅏㅁㅈㅏㄱ -10039
▁ㅁㅏㅇㅜㄴㅌㅡ -10040
▁ㄷㅟㅅㅂㅏㄷㅊㅣㅁ -10041
ㅁㅏㄷㅡ -10042
▁ㄱㅣㅁㄱㅣ -10043
▁ch -10044
ㅌㅏㅈㅜ -10045
▁ㅊㅓㄴㅈㅐ -10046
▁ㅇㅠㅂㅏㅇ -10047
▁ㅇㅏㅇㅣㄷㅣ -10048
ㅍㅗㄹㅗ -10049
▁ㅇㅖㅎㅏ -10050
▁ㅅㅏㄱㅏㄴ -10051
▁ㅎㅡㄴㅎㅏㄴ -10052
▁ㄲㅡㄹㅇㅓㄷㅡㄹ -10053
▁142 -10054
ㄷㅏㅈㅣ -10055
▁ㄷㅐㅍㅐ -10056
▁ㄱㅜㄱㅕㅇ -10057
▁ㄱㅜㅎㅏㄹ -10058
▁ㅅㅣㅂㅓㅁ -10059
▁ㄱㅏㅁㅎㅐㅇ -10060
▁ㅂㅕㄱㄷㅗㄹ -10061
▁ㅇㅓㄵ -10062
ㅍㅛㅇㅠㄹ -10063
▁ㅈㅓㄱㅎㅕ -10064
▁ㄱㅔㅇㅗㄹㅡ -10065
▁ㅇㅑㅇㅂㅏㄴ -10066
MA -10067
▁ID -10068
▁ㄱㅓㄹㅐㅅㅗ -10069
▁ㅇㅗㅇㄹㅣㅂ -10070
ㅡㄱㅏㅇ -10071
▁ㅇㅖㄱㅗ -10072
▁ㄲㅣㅊㅕㅆ -10073
▁ㅋㅔㄹㄹㅣ -10074
▁ㅋㅛ -10075
▁ㅅㅓㄹㄱㅛ -10076
ㅠㄹㄹㅔㅇㅣㅅㅕㄴ -10077
▁ㄹㅗㅂㅣ -10078
▁ㅅㅗㅅㅐㅇ -10079
▁ㅍㅐㄹㅓㄹ -10080
▁ㄱㅛㅌㅗㅇㄱㅜㄱ -10081
ens -10082
▁ㄴㅏㄹㅡ -10083
ㅌㅏㅁㅣㄴ -10084
▁ㅍㅡㄹㄹㅏㅇㅣ -10085
▁ㅇㅝㄹㅇㅛㅇㅣㄹ -10086
▁ㄱㅏㅁㅁㅏ -10087
▁ㅁㅏㄴㅅㅓㅇ -10088
▁ㅈㅓㅇㅅㅓㅇ -10089
pp -10090
ㅍㅔㅅ -10091
▁ㄹㅣㄷ -10092
▁ㅈㅗㅈㅣㅍㅡ -10093
ㅂㅏㅇㅅㅗㅇㄱㅗㅇㅅㅏ -10094
▁BS -10095
▁CJ -10096
▁ㄱㅏㄱㄷㅗ -10097
▁ㅍㅗㄱㅍㅗ -10098
ㅅㅖㅂㅣㅋㅣ -10099
ㅈㅣㄴㄱㅜㄴ -10100
▁ㄱㅗㅇㅈㅓㄱ -10101
▁ㅅㅔㅇㅣㅂㅜ -10102
▁ㅈㅔㄱㅜㄱㅈㅜㅇㅢ -10103
ction -10104
▁ㅁㅜㅇㅓ -10105
▁ㅎㅘㅈㅏ -10106
▁ㅂㅜㄴㅂㅣ -10107
▁ㅈㅓㅇㅅㅔ -10108
▁ㄱㅘㅇㄷㅜㅇ -10109
▁ㅅㅣㄴㅇㅝㄴ -10110
urn -10111
▁ㅈㅜㅇㅊㅜ -10112
▁ㅂㅡㄹㅣㅈㅣ -10113
ㅏㄹㄷㅡ -10114
▁ㅍㅣㄱㅕ -10115
▁ㅎㅏㅊㅏ -10116
▁ㅁㅏㅆㅡㅇ -10117
▁ㅍㅡㅌㅗㄹㄹ -10118
ㅔㅁㅏㅇㅣㅇㅗㅅㅡ -10119
▁ㅍㅡㅌㅗㄹㄹㅔㅁㅏㅇㅣㅇㅗㅅㅡ -10120
▁ㅊㅐㅅㅗ -10121
▁ㅎㅘㅅㅏㅇ -10122
▁ㄱㅏㄴㅅㅓㄴ -10123
▁ㅍㅡㄹㅏㄴㅊㅡ -10124
▁ㄹㅜㄱㅅㅔㅁ -10125
▁ㅂㅗㄴㅁㅜㄴ -10126
lan -10127
ㄷㅗㄱㅜㄴ -10128
▁ㅂㅣㅅㅓㄱ -10129
▁JT -10130
▁ㅅㅜㅂㅜㄴ -10131
▁ㄷㅓㄱㅡㄹㄹㅓㅅㅡ -10132
▁Man -10133
ㄹㅡㄷㅏㄴ -10134
▁ㄷㅗㄱㅅㅓㅇ -10135
▁ㅇㅣㅀㅇㅓㅂㅓㄹ -10136
▁ㅇㅗㄴㅌㅏㄹㅣㅇㅗ -10137
▁ㅎㅕㅇㅈㅗ -10138
▁ㄷㅐㅅㅓㅇㅑㅇ -10139
▁ㅂㅜㅇㅕㅂㅏㄷ -10140
ert -10141
▁ㅊㅐㅇㅝ -10142
▁ㅊㅔㄹㅠ -10143
▁ㅂㅔㄹㄹㅣ -10144
▁ㅇㅜㄴㅅㅜ -10145
▁ㅍㅏㄹㄹㅣ -10146
▁ㄱㅘㅇㅈㅜㄱ -10147
▁ㅈㅔㄴㅔㅂㅏ -10148
ㅗㄹㅜ -10149
▁ㅇㅚㄴㅅㅗㄴ -10150
▁ㅇㅣㅈㅡ -10151
▁ㅈㅣㄴㅅㅏ -10152
▁ㅇㅕㅇㅁㅜㄴ -10153
▁ㅈㅜㅇㅂㅗㄱ -10154
▁ㅊㅜㄱㅁㅜㄹ -10155
▁ㅊㅓㅇㅈㅜㅅㅣ -10156
ㅗㄹㄹㅏㅇㅣㄴㅏ -10157
▁ㄷㅐㅅ -10158
ㄱㅗㅋㅜ -10159
ㄱㅛㄷㅗ -10160
▁ㅇㅣㅅㅔ -10161
▁ㅁㅏㄱㅅㅣㅁ -10162
▁ㄱㅡㅁㅇㅛㅇㅣㄹ -10163
▁ㅅㅓㄹㅠ -10164
▁ㄷㅗㄱㅅㅓ -10165
▁ㅈㅓㅁㅅㅓㅇㅅㅜㄹ -10166
▁ㄲㅡㄶㅇㅣㅁㅇㅓㅄㅇㅣ -10167
▁ㅇㅏㅅㅟ -10168
ㅎㅐㅇㅏㄴ -10169
▁ㄴㅏㄱㅏㄹ -10170
▁ㄷㅡㅇㄱㅣ -10171
▁ㅅㅓㅈㅏㅇ -10172
▁ㅊㅗㄱㅁㅐ -10173
▁ㄱㅡㄹㅐㅁㅣ -10174
▁ㅅㅓㄴㅂㅐ -10175
▁ㅇㅑㅁㅏㄱ -10176
▁ㅊㅓㄱㅊㅜ -10177
▁ㅍㅡㄹㄹㅐㅅㅍㅗㅁ -10178
▁ㅍㅣㅅㅣㄴ -10179
▁ㅅㅓㄴㅎㅐㅇ -10180
▁ㅈㅓㅇㅈㅓㄱ -10181
▁ㅇㅣㄱㅅㅡㅍㅡㄹㅔㅅㅡ -10182
▁ㄱㅘㅇㅈㅜㄱㅘㅇㅇㅕㄱㅅㅣ -10183
▁1902 -10184
▁ㅁㅏㄹㄹ -10185
▁ㄷㅗㅇㅎㅏㄱ -10186
▁ㅁㅏㄴㅕ -10187
▁ㅂㅕㅇㄱㅣ -10188
▁ㅂㅜㄹㅡㄹ -10189
▁ㅎㅏㅁㅈㅓㅇ -10190
▁ㄹㅓㅇ -10191
▁ㅌㅗㄲㅣ -10192
▁ㅁㅜㄹㅍㅜㅁ -10193
▁ㄱㅏㅂㅕㅇㅜㄴ -10194
▁ㄱㅣㅅㅏㄷㅏㄴ -10195
▁ㅌㅏㅇㅣㅁㅅㅡ -10196
▁ㅇㅘㅇㅣㅂ -10197
▁ㅇㅣㅂㅡㄴ -10198
▁ㅎㅏㄷㅏㄴ -10199
▁ㄱㅓㄹㄹㅕㅆ -10200
▁ㅎㅗㄹㅡㅁㅗㄴ -10201
▁ㄷㅏㅎㅏㅇㅅㅣㄱ -10202
▁ㅂㅏㅂㅣㄹㄹㅗㄴ -10203
▁ㄱㅏㄴㅌㅗ -10204
▁ㄴㅡㄹㄹㅣ -10205
▁ㅍㅗㅎㅚㄱ -10206
▁ㅅㅡㅈㅡㅋㅣ -10207
▁ㅍㅛㄱㅣㅂㅓㅂ -10208
▁'' -10209
▁ㅇㅘㅋㅏ -10210
ㅣㅇㅑㅁㅏ -10211
▁ㄱㅏㅎㅘㄴ -10212
▁ㅍㅛㅈㅓㄱ -10213
▁ㅎㅏㄱㄱㅣ -10214
▁ㄱㅣㅅㅂㅏㄹ -10215
▁ㅁㅕㅇㅈㅗㅇ -10216
▁ㅂㅗㅇㅣㅅㅡ -10217
ㅕㄱㅗ -10218
▁ㄹㅓㅅㅡ -10219
▁ㅍㅏㄹㄹㅏ -10220
▁ㄱㅏㅇㅂㅕㄴ -10221
ㅎㅡㄱ -10222
▁ㅌㅗㅁㅗ -10223
▁ㅇㅛㅅㅣㅁ -10224
▁ㅈㅓㄱㄷㅗ -10225
▁ㄹㅑ -10226
ㅎㅣㅁ -10227
▁ㄹㅔㄹ -10228
▁ㄷㅏㄹㄱ -10229
▁ㅂㅔㄴㅣ -10230
▁ㅂㅗㅇㅟ -10231
▁ㅇㅜㅊㅔ -10232
ㅈㅣㅇㅝㄴ -10233
▁ㅂㅏㄹㄹㅣ -10234
▁ㅅㅡㅇㅟㅊㅣ -10235
▁ㅈㅜㄴㄱㅕㄹㅅㅡㅇㅈㅓㄴ -10236
▁ㄴㅡㄲㅕㅆ -10237
▁ㄱㅜㄱㅇㅕㅇ -10238
ㅌㅠㅁ -10239
▁ㅁㅗㄳ -10240
▁ㄸㅏㅇㅗㄴ -10241
▁ㄷㅏㄴㅈㅓㄹ -10242
▁ㅅㅓㅇㅠㄹㅓㅂ -10243
lic -10244
▁ㅁㅏㅇㅑ -10245
▁ㅅㅣㄱㅏ -10246
▁ㄱㅡㄹㅡㅅ -10247
▁ㄷㅗㅇㄹㅐ -10248
▁ㅅㅏㅅㅡㅁ -10249
▁ㅇㅣㄱㅘㄴ -10250
▁ㄱㅣㅁㅎㅗㅇ -10251
▁ㅇㅔㄴㄷㅣㅇ -10252
▁ㅇㅕㅇㄷㅡㅇ -10253
▁ㄱㅘㄴㄱㅘㅇㅈㅣ -10254
▁ㅂㅏㄲㅏㅌㅉㅗㄱ -10255
▁ㄹㅜㄱㅅㅔㅁㅂㅜㄹㅡㅋㅡ -10256
ㄷㅣㄹ -10257
▁ㅅㅜㅎㅘㄱ -10258
▁ㅇㅟㅉㅗㄱ -10259
▁ㅈㅣㅅㅣㄱㅇㅣㄴ -10260
aw -10261
ㅋㅏㄱㅏ -10262
ㅏㄱㅗㄴ -10263
▁ㄱㅏㅇㄷㅗㅇ -10264
▁ㄷㅡㄹㅇㅓㄱㅏㄴㄷㅏ -10265
▁ㄴㅏㄴㅗ -10266
▁ㅇㅑㄱㅈㅏ -10267
▁ㅈㅓㅇㄹㅕ -10268
▁ㅁㅓㅁㅜㄹㅡ -10269
▁ㅋㅗㄲㅣㄹㅣ -10270
▁ㅇㅓㄺ -10271
▁ㄴㅓㅁㅇㅓ -10272
▁ㄱㅏㄲㅏㅇㅝ -10273
▁ㅈㅓㅇㄷㅗㅇ -10274
▁ㅌㅡㄹㅣㅍㅡㄹ -10275
▁ㄱㅏㄹㅅㅜㄹㅗㄱ -10276
▁ㅈㅓㄴㅂㅏㅇ -10277
ㅇㅏㅆ -10278
ㅎㅔㅇㅣ -10279
▁ㄷㅐㅊㅣ -10280
▁ㅎㅐㅁㅣㄹㅌㅓㄴ -10281
ㅊㅓㄴㄹㅣ -10282
▁ㄹㅣㄹㄹㅣ -10283
▁ㅇㅣㄱㅕㅆ -10284
▁ㅅㅗㄴㅏㅁㅜ -10285
▁ㅇㅝㄴㅈㅗㅇ -10286
▁ㅈㅓㅇㄹㅣㅂ -10287
ㅅㅔㅅ -10288
▁ㅊㅏㅁㅇㅢ -10289
ys -10290
ach -10291
▁ㅇㅝㅌㅓ -10292
▁ㄷㅗㅇㄴㅔ -10293
▁ㅎㅜㅈㅣㄴ -10294
▁ㅇㅕㄴㄲㅗㅊ -10295
▁ㅋㅜㄱ -10296
▁ㅈㅐㅁㅣ -10297
ㅈㅣㅇㅕㄴ -10298
▁ㅁㅕㄴㅈㅔ -10299
▁ㅅㅠㅌㅣㅇ -10300
▁ㅅㅡㅂㅈㅣ -10301
▁ㅂㅜㄹㄲㅗㅊ -10302
▁ㅅㅏㅇㄱㅡㅁ -10303
▁ㅇㅜㅇㅢ -10304
▁ㄷㅐㅎㅏㅂ -10305
▁ㅇㅞㅅㅡㅌ -10306
▁ㅌㅏㄴㄷㅗ -10307
▁ㄱㅘㅇㅁㅕㅇ -10308
▁ㅇㅣㅂㄱㅏㄱ -10309
▁ㄹㅓㅅㅣㅇㅏㅇㅓ -10310
▁ㅍㅏㄴㄹㅖ -10311
▁ㅂㅣㅎㅐㅇㅈㅏㅇ -10312
ㅈㅣㅅㅈㅓㅁ -10313
▁ㄱㅓㅁㅇㅕㄹ -10314
▁ㅂㅗㄱㅇㅛㅇ -10315
▁ㅇㅏㄷㅗㄹㅍㅡ -10316
▁ㅎㅔㅁ -10317
ㅇㅝㄴㅎㅚ -10318
▁ㄱㅣㅅㅜㄱ -10319
▁ㄷㅐㅅㅗㄴ -10320
▁ㅇㅣㄱㅓㄴ -10321
▁ㄲㅗㄱㅈㅣㅅㅈㅓㅁ -10322
▁ㄱㅔㄹㅡ -10323
ㄷㅐㅈㅏㅇ -10324
▁ㅋㅞㅂㅔㄱ -10325
▁ㅍㅣㄹㅌㅓ -10326
▁ㄷㅏㄴㅊㅜㄱ -10327
▁ㅇㅕㄱㄹㅑㅇ -10328
▁ㅇㅕㅁㅈㅡㅇ -10329
TC -10330
ㅌㅜㄹ -10331
▁ㄹㅗㄹㅏ -10332
▁ㅇㅏㅂㄷㅜㄹ -10333
▁ㅇㅣㅂㄱㅜㄱ -10334
ㅔㅅㅡㄹㄹㅣㅇ -10335
▁ㅂㅗㅂㅗㄱ -10336
▁ㅇㅣㄷㅏㄴ -10337
▁ㅍㅔㅇㅣㄴ -10338
▁ㅎㅓㄴㅅㅣㄴ -10339
▁ㅂㅜㅎㅚㅈㅏㅇ -10340
▁ㅇㅣㅇㅛㅇㅈㅏ -10341
ㅌㅔㄱㅊㅓ -10342
▁ㅇㅝㄴㄹㅛ -10343
▁ㄱㅐㅇㅅㅣㄴ -10344
▁ㅇㅣㅂㅅㅓㅇ -10345
▁ㄱㅗㅇㅑㅇㅅㅣ -10346
▁ㅇㅏㅋㅣㅌㅔㄱㅊㅓ -10347
▁ㅇㅕㄹㄷㅗ -10348
▁ㄱㅏㄴㄷㅏㄴㅎㅣ -10349
LS -10350
▁ㅈㅔㅍ -10351
ㅎㅣㅌㅗ -10352
▁ㅇㅏㅇㅣㄴㅅㅠㅌㅏㅇㅣㄴ -10353
▁ㅍㅗㅋㅔㅅㅁㅗㄴㅅㅡㅌㅓ -10354
▁No -10355
▁1901 -10356
▁ㅌㅔㄹㅏ -10357
▁ㅆㅡㅊㅘㄴ -10358
▁ㅈㅣㄱㄱㅕㄹ -10359
▁ㅁㅠㅈㅣㅅㅕㄴ -10360
▁ㅇㅔㄷㅣㅅㅕㄴ -10361
ㅣㅇㅝ -10362
▁ㅊㅐㅇㅜ -10363
▁ㅊㅣㄹㅓ -10364
▁ㅇㅏㄹㅡㅌ -10365
▁ㅅㅐㅇㅅㅐㅇ -10366
▁ㅇㅕㄴㄱㅣㅈㅏ -10367
▁ㅇㅕㅁㅅㅐㄱㅊㅔ -10368
out -10369
▁ㅇㅠㅊㅔ -10370
▁ㅅㅓㅇㅈㅣ -10371
▁ㅌㅡㄹㅣㄱ -10372
▁ㅆㅏㅎㅇㅏㅆ -10373
▁ㅌㅗㅊㅏㄱㅈㅗㅇ -10374
▁ㅈㅔㄱ -10375
▁ㅂㅡㄹㅐㄴ -10376
▁ㅌㅡㄱㄱㅝㄴ -10377
▁ㅍㅗㄱㄱㅕㄱㄱㅣ -10378
▁ㅁㅣㄴㄱㅏㅁ -10379
▁ㅍㅐㅁㅣㄹㄹㅣ -10380
▁ㄷㅏㄴㅇㅢ -10381
▁ㅎㅣㅁㅆㅓ -10382
▁ㄷㅡㄹㅓㅁㅓ -10383
▁ㅅㅏㄴㅊㅜㄹ -10384
▁ㄴㅜㅈㅓㄱ -10385
▁ㄱㅣㅁㅊㅏㅇ -10386
▁ㅅㅏㅅㅍㅗㄹㅗ -10387
▁ㅇㅛㄹㅡㄷㅏㄴ -10388
▁ㅁㅐㅋㅏㅌㅡㄴㅣ -10389
ㅂㅡㅅㅡ -10390
▁ㅁㅜㄹㅏ -10391
▁ㅂㅔㄹㅡㄱ -10392
▁ㅇㅏㅁㅜㄱ -10393
▁ㅊㅜㄱㅈㅗ -10394
▁ㅍㅛㅂㅏㅇ -10395
▁ㄱㅝㄴㅊㅗㅇ -10396
▁ㅂㅏㅇㅅㅏㄴ -10397
▁ㄱㅣㄴㅣ -10398
ㄷㅗㅇㅣㄴ -10399
ㅈㅜㅇㅣㄴ -10400
▁ㄱㅗㅇㅁㅕㅇ -10401
▁ㅍㅡㄹㅗㄹㅔㅅㅡㄹㄹㅣㅇ -10402
ㅌㅗㄱ -10403
▁ㅁㅔㅅ -10404
▁ㅇㅓㄹㅠ -10405
▁ㅇㅣㅎㅕㄴ -10406
ㅅㅡㅌㅔㄹㅡ -10407
▁ㅅㅐㅇㄹㅑㄱ -10408
▁ㅁㅔㅋ -10409
ㅍㅣㅇㅓ -10410
▁ㅅㅓㅁㅜㄴ -10411
▁ㅅㅜㅊㅜㄱ -10412
▁ㅇㅣㅁㄱㅘㄴ -10413
▁ㅇㅕㅇㄱㅜㄱㅇㅣㄴ -10414
▁ㄱㅐㅅㅗ -10415
▁ㄹㅣㄷㅓㅅㅣㅂ -10416
LE -10417
▁ㄱㅗㅇㅇㅖ -10418
▁ㄱㅘㅇㄷㅐ -10419
▁ㄷㅏㄹㄹㅕㄱ -10420
▁ㅂㅏㅇㄱ -10421
▁ㅇㅣㅇㅘㄴ -10422
▁ㅇㅣㄹㅅㅏㄴ -10423
▁ㄷㅏㄹㅎㅏㄴㄷㅏ -10424
▁ㅈㅏㅈㅏㄱ -10425
▁ㅂㅏㅇㅣㅋㅣㅇ -10426
▁ㅇㅣㄹㅇㅡㅋㅣㄹ -10427
▁ㅇㅜㄹㅅㅏㄴㄱㅘㅇㅇㅕㄱㅅㅣ -10428
ㄸㅏㅇ -10429
▁ㅈㅏㅋㅡ -10430
▁ㅇㅕㅇㅜㄴ -10431
▁ㄱㅕㅇㅅㅓㅇㅂㅜ -10432
▁ㅁㅔㅋㅓㄴㅣㅈㅡㅁ -10433
IG -10434
▁ㄹㅣㅍㅡ -10435
▁ㅁㅗㄹㄹㅕ -10436
▁ㄷㅗㅇㅛㅌㅗㅁㅣ -10437
ㅣㄹㅇㅡ -10438
▁ㅎㅗㅁㅗ -10439
ㄱㅗㅇㅅㅣㄴ -10440
▁ㅅㅣㄹㅈㅓㄱ -10441
▁ㅇㅏㄴㄱㅕㅇ -10442
▁ㅅㅏㅎㅚㄷㅏㅇ -10443
▁ㅂㅜㄹㄹㅓㅇㅣㄹㅇㅡ -10444
ug -10445
▁ㄹㅜㅅㅣ -10446
▁ㅊㅏㄹㅡ -10447
▁ㅁㅏㅂㅡㄹ -10448
▁ㅋㅏㄹㄹㅏ -10449
ㅏㄵ -10450
▁kt -10451
▁ㅈㅑ -10452
▁ㄱㅗㅅㅏㄴ -10453
▁ㄱㅚㄹㅗㅂ -10454
▁ㅂㅗㅎㅔㅁ -10455
▁ㅊㅔㅈㅜㅇ -10456
▁ㅎㅘㄱㅏㅇ -10457
▁ㅈㅓㅇㅁㅜㄴ -10458
▁ㅇㅓㄴㅇㅓㅎㅏㄱ -10459
▁ㅇㅜㅍㅏ -10460
ㅅㅔㄴㅌㅡ -10461
▁ㅍㅐㅎㅐㅆ -10462
ㅈㅣㄹㅗ -10463
▁ㅁㅜㄱㅜㅇ -10464
▁ㅁㅏㅅㅡㅋㅡ -10465
▁ㅇㅓㄹㅕㅅㅓ -10466
▁ㅇㅝㄴㅂㅗㄴ -10467
▁ㅌㅡㄱㅅㅐㄱ -10468
▁ㅇㅏㄹㅣㅅㅡㅌㅗ -10469
▁ㅇㅏㅅㅣㅋㅏㄱㅏ -10470
▁ㅇㅗㄱㅅㅡㅍㅓㄷㅡ -10471
▁ㅋㅘ -10472
ㅂㅔㅅㅡ -10473
▁ㄷㅐㄷㅜ -10474
▁ㄱㅡㄷㅏㅈㅣ -10475
▁ㄴㅏㄹㅋㅏㄹ -10476
▁ㅆㅡㄹㅔㄱㅣ -10477
▁ㄷㅓㄴㅈㅕ -10478
▁MB -10479
▁ㅍㅏㅅ -10480
▁ㅎㅏㄱㄷㅐ -10481
▁ㄴㅗㅌㅐㅇㅜ -10482
▁ㅎㅗㅁㄱㅜㅈㅏㅇ -10483
▁ㅅㅐㄱㅊㅐ -10484
▁ㅇㅓㄷㅜㅁ -10485
▁ㅌㅚㅇㅕㄱ -10486
▁ㅍㅣㅇㅏㄴ -10487
▁ㅌㅡㄹㅗㅍㅣ -10488
▁ㅅㅏㅇㅓㅂㄱㅏ -10489
▁ㅈㅏㅇㄱㅣㄱㅏㄴ -10490
▁ㄴㅔㅇㅗ -10491
▁ㅈㅔㅊㅣ -10492
▁ㅂㅣㄹㄹㅏ -10493
▁ㅇㅣㅅㅏㄱ -10494
▁ㅅㅗㄴㄲㅗㅂ -10495
▁ㄱㅐㅇㅣㄴㅈㅓㄴ -10496
▁All -10497
ㅋㅜㅂㅓ -10498
▁ㅇㅣㅂㅕㅇ -10499
▁ㅂㅜㄹㅅㅣㄴ -10500
▁ㅁㅗㅌㅓ -10501
ㅠㄹㄹㅓ -10502
▁ㄴㅗㄹㄹㅏ -10503
▁ㅂㅓㄹㅇㅣㄴ -10504
▁ㅍㅏㅇㅣㅌㅓ -10505
▁ㅇㅏㅁㅏㅈㅗㄴ -10506
▁ㄹㅖ -10507
ㄲㅡㅅ -10508
▁ㅌㅗㄱㅣ -10509
▁ㄷㅗㄹㅂㅗ -10510
▁ㅅㅓㄴㄷㅗㅇ -10511
▁ㅇㅕㄴㅂㅗㅇ -10512
ㅋㅡㄹㄹㅔㅅㅡ -10513
▁ㅈㅓㅇㅎㅐㅈㅣㄴ -10514
▁ㅇㅏㄹㄹㅔㄱㅅㅏㄴㄷㅡㄹㅡ -10515
ype -10516
▁134 -10517
▁ㄱㅐㅎㅘ -10518
▁ㄱㅣㄹㅡ -10519
▁ㄷㅜㄲㅔ -10520
▁ㅎㅕㄴㅇㅡㄴ -10521
▁ㅂㅏㅇㅅㅗㅇㅇㅣㄴ -10522
▁ㅈㅓㄴㅇㅕㅁㅂㅕㅇ -10523
ㅁㅏㅅ -10524
▁ㅅㅡㄴㅣㅁ -10525
▁ㅊㅟㅎㅏㅇ -10526
▁ㅇㅏㄹㅏㅂㅣㅇㅏ -10527
▁ㅇㅏㄹㄹㅔㄱㅅㅏㄴㄷㅡㄹㅣㅇㅏ -10528
▁Cl -10529
▁EX -10530
▁THE -10531
▁ㅇㅓㅅ -10532
▁ㅇㅏㅇㄱ -10533
▁ㅅㅠㄴ -10534
▁ㅇㅓㄹㅚ -10535
▁ㅈㅗㅎㅕㅇ -10536
▁ㄱㅓㅁㅊㅜㄹ -10537
▁ㄱㅘㅇㅈㅓㅇㅜ -10538
▁ㄷㅣㅁ -10539
ㅈㅣㄹㅣ -10540
▁ㄹㅜㅌㅏ -10541
▁ㄷㅜㄴㄷㅏ -10542
▁ㅈㅜㅇㅇㅝㄴ -10543
▁ㅈㅣㄷㅗㅂㅜ -10544
▁ㄷㅏㅇㅇㅕㄴㅎㅣ -10545
ke -10546
ase -10547
ㄴㅜㄴ -10548
▁1903 -10549
▁ㅍㅐㅎㅏㄴ -10550
▁ㄱㅗㅇㅎㅘㅇ -10551
ㅂㅏㄴㅏ -10552
▁ㄹㅣㅁㅏㄴ -10553
▁ㅁㅗㅅㅓㄹㅣ -10554
▁AN -10555
ㅠㅇㅓㄹ -10556
▁ㅈㅜㅈㅗ -10557
▁ㄱㅏㅇㅕㄱ -10558
▁ㅈㅘㅊㅡㄱ -10559
▁ㅍㅐㄴㅓㄹ -10560
▁ㅎㅓㄴㅈㅓㅇ -10561
ㅂㅔㅌㅡㄴㅏㅁ -10562
▁ㅁㅏㄴㅈㅜㄱㅜㄱ -10563
ㅎㅏㅋㅣ -10564
▁ㄱㅡㄹㄹㅜ -10565
▁ㅂㅡㄹㅏㄴ -10566
▁ㅈㅓㄴㅇㅟ -10567
▁ㅁㅜㅎㅏㅁㅁㅏㄷㅡ -10568
▁1884 -10569
▁ㅂㅏㄴㄱㅗㅇ -10570
ㅡㄹㄹㅏㄷㅔㅅㅣ -10571
▁ㅂㅏㅇㄱㅡㄹㄹㅏㄷㅔㅅㅣ -10572
ㄷㅜㄹㅣ -10573
▁ㅁㅣㄹㅡㄱ -10574
▁ㄱㅏㅇㄱㅏㄴ -10575
▁ㅇㅣㅅㅓㅇㄱㅖ -10576
▁ㅋㅓㄴㅌㅡㄹㅣ -10577
ㅇㅓㄹㅣ -10578
▁ㅁㅕㅇㅎㅏ -10579
▁ㅈㅣㄹㅅㅗ -10580
▁ㅊㅜㄴㅊㅜ -10581
▁ㅍㅏㅂㅕㅇ -10582
▁ㅅㅏㅁㅊㅗㄴ -10583
▁ㅈㅣㄱㄱㅕㅇ -10584
ㄱㅞ -10585
ㅈㅓㅇㄹㅣ -10586
ㅘㄷㅗㄹㅡ -10587
▁ㅂㅔㄹㄹㅏ -10588
▁ㅂㅐㅇㅜㅈㅏ -10589
▁ㅆㅡㅅㅣㅁㅏ -10590
▁ㅇㅑㅁㅏㄱㅜㅊㅣ -10591
▁Gr -10592
ㅊㅓㅅㅡ -10593
▁ㅊㅟㅁㅣ -10594
▁ㄱㅗㅇㄱㅗ -10595
▁ㄱㅜㅎㅕㅇ -10596
▁ㄱㅣㅂㅜㄴ -10597
▁ㅋㅗㅁㅣㄱ -10598
▁ㅍㅡㄹㅔㄴ -10599
▁ㄱㅏㄱㅅㅐㄱ -10600
▁ㄷㅏㄴㅁㅕㄴ -10601
▁ㅇㅔㅋㅘㄷㅗㄹㅡ -10602
▁One -10603
▁ㅍㅔㄴㅣ -10604
▁ㅈㅗㅇㅣ -10605
ㅈㅗㅇㅓㅂ -10606
▁ㅂㅜㄹㅌㅏ -10607
▁ㅎㅏㅁㅅㅓㄴ -10608
CAF -10609
▁ㅁㅜㄹㄱㅏ -10610
▁ㅈㅓㅇㅇㅠ -10611
▁LA -10612
ㅈㅏㄹㅡ -10613
ㅊㅓㄴㅅㅏ -10614
▁ㅁㅗㄹㄹㅣ -10615
▁ㅅㅡㄹㄹㅏㅂㅡ -10616
▁ㅎㅚㅍㅣ -10617
▁ㄷㅐㄱㅜㄱㅘㅇㅇㅕㄱㅅㅣ -10618
ㅑㅂㅏ -10619
▁ㅌㅗㅇㅛ -10620
▁ㅁㅣㅊㅣㄴ -10621
▁ㅈㅓㅇㅅㅓㄴ -10622
▁ㄱㅣㄴㅕㅁㅂㅣ -10623
▁ㅍㅣㄱㅗㅇㅣㄴ -10624
▁ㄱㅣㄴㅕㅁㄱㅘㄴ -10625
▁1800 -10626
ㅌㅏㅇㅣㅁ -10627
ㅏㅌㅔㅅㅡ -10628
▁ㅂㅏㅇㅣㄴ -10629
▁ㅇㅣㅈㅏㅇ -10630
▁ㅁㅣㄹㄹㅏㄴ -10631
▁ㅂㅏㄹㅋㅏㄴ -10632
▁ㄷㅓㅇㅜㄱㅇㅣ -10633
▁ㅅㅗㅁㅗ -10634
▁ㅎㅏㅍㅡ -10635
ㅏㅇㅣㅅㅡ -10636
ㅇㅕㄱㅎㅏㄱ -10637
▁ㄱㅜㄴㅅㅏㄴ -10638
▁ㅈㅏㅇㅂㅕㄱ -10639
ㅏㅇㅣㅇㅓㄴㅌㅡ -10640
▁ㅂㅗㄱㅎㅏㅂㅊㅔ -10641
▁ㄷㅐㅊㅜㄹ -10642
▁ㄸㅏㅇㅘㅆ -10643
▁ㅂㅏㄺㅎㅣㄴ -10644
▁ㅇㅏㄴㅏㅋㅣ -10645
▁ㅅㅣㄴㄷㅗㅂㅣ -10646
▁ㅈㅣㅈㅣㅇ -10647
▁ㅇㅗㅅㅏㅋㅏㅂㅜ -10648
▁ㅇㅘㅇㅣㅂㅓㄴㅅㅡ -10649
▁ㄴㅡㄲㅣㄴ -10650
▁ㅇㅢㄱㅕㄹ -10651
▁ㄷㅡㄹㅔㅅㅡ -10652
▁ㄷㅏㅇㅎㅏㄴㄷㅏ -10653
▁ㅋㅡㄹㄹㅏㅇㅣㅇㅓㄴㅌㅡ -10654
ㅅㅕㄹ -10655
▁ㅂㅜㅅㅡ -10656
▁ㅌㅓㅂㅗ -10657
▁ㅇㅏㅁㅣㄴㅗㅅㅏㄴ -10658
▁ㄷㅡㄹㅏ -10659
ㅂㅜㄹㄱㅛ -10660
▁ㅈㅜㄴㅈㅜ -10661
▁ㅈㅣㄴㅕㅆ -10662
▁ㅈㅜㅇㄹㅕㅇ -10663
▁ㅈㅣㄴㅈㅓㄴ -10664
▁ㅍㅡㄹㅏㄴㅊㅔ -10665
▁ㅈㅜㅇㅇㅏㅇㅇㅏㅅㅣㅇㅏ -10666
ㅔㄹㄹㅣ -10667
▁ㄱㅜㄴㅎㅏㅁ -10668
▁ㅎㅣㄹㅗㅅㅣ -10669
▁ㅇㅘㅇㅣㄹㄷㅡ -10670
▁ㄷㅡㄹㅇㅓㄱㅏㄹ -10671
▁ㅈㅏㅂㅣ -10672
▁ㄷㅏㄹㅡㅁ -10673
▁ㅅㅏㅇㅇㅡㅇ -10674
▁ㅋㅗㅁㅍㅐㄱㅌㅡ -10675
▁ㅂㅜㄱㅇㅏㅍㅡㄹㅣㅋㅏ -10676
▁IN -10677
▁ㅇㅜㅎㅚ -10678
▁ㄱㅕㅇㅈㅏㄱ -10679
11 -10680
▁ㅌㅣㅋㅗ -10681
▁ㅇㅜㄹㅍㅡ -10682
▁ㅌㅚㅈㅓㄱ -10683
▁ㄷㅗㄴㅓㄹㄷㅡ -10684
▁ㄱㅜㅇㅘ -10685
▁ㅊㅜㅊㅓㅁ -10686
▁ㅎㅏㄹㅈㅣ -10687
▁ㅇㅣㅋㅔ -10688
▁ㅈㅗㅅㅡㅇ -10689
ㅂㅏㅇㅇㅜㄹ -10690
▁ㄹㅗㅈㅓ -10691
▁ㄷㅐㅁㅜㄴ -10692
▁ㅇㅡㅁㅎㅑㅇ -10693
▁} -10694
ㅉㅓ -10695
▁CN -10696
▁ㄴㅏㅌㅏㄴㅐㄴ -10697
▁ㅂㅗㄱㅅㅗㅅㅜ -10698
▁ㄹㅡㅁ -10699
▁ㅅㅗㅈㅏ -10700
▁ㅈㅣㄴㄹㅛ -10701
▁ㅍㅣㅇㅋㅡ -10702
▁ㄱㅏㄴㅅㅣㄴ -10703
▁ㅂㅜㄴㄹㅑㅇ -10704
▁ㄱㅡㄹㅔㅇㅣㅌㅡ -10705
▁ㅋㅔㅇㅣㅁㅂㅡㄹㅣㅈㅣ -10706
▁ㅈㅔㄹㅣ -10707
▁ㅎㅛㄱㅗ -10708
▁ㅇㅣㅂㅜㄱ -10709
▁ㅁㅜㄴㅓㅈㅣ -10710
▁ㄲㅗㄱㄷㅐㄱㅣ -10711
▁ㅈㅗㅂㅏㄴㄴㅣ -10712
ree -10713
▁ㄱㅜㅇㅑㄱ -10714
▁ㄱㅗㄱㅁㅜㄹ -10715
▁ㅋㅏㄹㅡㄹㄹㅗ -10716
▁ㄴㅣㅋㅗㄹㄹㅏㅇㅣ -10717
▁ㄷㅗㅅㅓㄴ -10718
▁ㅈㅓㄴㄱㅜ -10719
▁ㄷㅏㄹㄱㅑㄹ -10720
▁ㄱㅗㅊㅜ -10721
▁ㅂㅣㄴㅠ -10722
ㅂㅓㄴㄴㅚ -10723
▁ㅅㅣㄹㅈㅐ -10724
▁ㄱㅘㄴㅈㅓㄹ -10725
▁ㅂㅜㄹㄹㅣㄴ -10726
▁ㅌㅡㄹㅔㅇㅣ -10727
▁ㅊㅜㅇㅊㅓㅇㄷㅗ -10728
▁ㅂㅏㄹㄹㅔㄴㅅㅣㅇㅏ -10729
▁ㅅㅣㅋㅗ -10730
ㅝㄴㅈㅏ -10731
▁ㅈㅟㄱㅘ -10732
▁ㄷㅏㅇㅅㅜ -10733
▁ㅅㅣㅁㅎㅘ -10734
▁ㅊㅓㄹㅍㅖ -10735
▁ㅊㅜㄹㅗㄴ -10736
▁ㄱㅏㄴㅏㄱㅏㅇㅘ -10737
▁ㅅㅗㅎㅐㅇㅅㅓㅇ -10738
ㅐㄱㅗㄹ -10739
▁ㄱㅡㄹㅏㄴ -10740
▁ㄱㅗㅇㅇㅑㄱ -10741
▁ㄱㅐㄹㄹㅓㄹㅣ -10742
▁ㅇㅣㄹㅈㅏㄹㅣ -10743
▁ㅊㅗㅇㄷㅐㅈㅜㄱㅛ -10744
ㅇㅓㅅㅓㄴ -10745
▁ㅂㅜㄴㅊㅜㄹ -10746
pt -10747
▁ㅁㅜㅅㅡㄴ -10748
▁ㅅㅣㄹㅁㅜ -10749
▁ㅇㅠㄷㅐㄱㅛ -10750
ary -10751
▁ㅅㅖㅇ -10752
▁ㄱㅏㅅㅏㄴ -10753
▁ㄷㅔㅅㅡㅋㅡ -10754
▁ㅈㅓㄴㅅㅣㅎㅚ -10755
▁ㄱㅓㅈㅣㅅㅁㅏㄹ -10756
▁ㅂㅏㅇㅅㅏㅅㅓㅇ -10757
▁GO -10758
ㅏㄹㅗ -10759
ㅅㅏㅇㅓㅂ -10760
▁ㄱㅏㅇㅕㄹ -10761
▁ㅁㅔㅇㅣㄹ -10762
▁ㅁㅐㄱㄷㅗㄴ -10763
▁ㅅㅏㅇㄱㅕㅇ -10764
ass -10765
▁ㅇㅕㅈㅜ -10766
▁ㄴㅗㅇㅂㅜ -10767
▁ㅊㅣㅁㅊㅔ -10768
▁ㄱㅓㄴㄹㅠㅇ -10769
▁ㄱㅝㄴㅈㅏㅇ -10770
▁ㅅㅣㄴㅊㅜㄱ -10771
▁ㅎㅏㄴㅊㅡㅇ -10772
▁ㄷㅡㄱㅍㅛㅇㅠㄹ -10773
act -10774
▁Ad -10775
▁ㄱㅕㅇㅂㅜ -10776
▁ㄱㅛㄹㅑㅇ -10777
▁ㅅㅗㅅㅜㅈㅏ -10778
▁ㅅㅡㅌㅗㅇㅓ -10779
▁ㄴㅠㅇㅛㄱㅈㅜ -10780
▁ㄷㅐㅅㅓㅇㄷㅏㅇ -10781
▁Br -10782
ㅏㄷㅏㄺ -10783
▁ㅎㅣㅁㅔ -10784
▁ㄱㅏㄹㄹㅐ -10785
▁ㄲㅏㄷㅏㄺ -10786
▁ㄷㅟㅉㅗㄱ -10787
▁ㅂㅏㄴㅈㅓㄴ -10788
▁with -10789
▁ㅇㅝㄴㅓ -10790
▁ㅂㅡㄹㄹㅣ -10791
▁ㅇㅛㅇㅅㅓ -10792
▁ㅎㅐㄴㅏㅁ -10793
▁ㅎㅡㅇㅅㅓㄴ -10794
▁ㅇㅓㄷㅡㅂㅔㄴ -10795
▁ㄱㅏㅇㅎㅢ -10796
▁ㄱㅕㄱㅊㅏ -10797
▁ㄷㅣㅌㅡㄹ -10798
▁ㄱㅏㅁㅇㅏㄴ -10799
▁ㄷㅏㅋㅔㄷㅏ -10800
▁ㄹㅏㅍ -10801
▁ㅅㅛㅇ -10802
▁ㅎㅔㅅ -10803
▁ㄴㅏㅁㅁㅐ -10804
▁ㅅㅜㅁㅗㄱ -10805
▁ㅈㅡㄹㄱㅕ -10806
▁ㅅㅣㄹㄱㅝㄴ -10807
▁ㄹㅔㅂ -10808
▁ㅈㅏㅎㅕㅇ -10809
▁ㅋㅐㅅㅓㄹ -10810
▁ㅁㅗㄹㅣㅅㅡ -10811
▁ㄱㅕㄴㅇㅣㄴ -10812
▁ㄱㅛㄷㅗㅅㅗ -10813
▁ㄱㅜㅇㅈㅜㅇ -10814
▁ㅆㅢ -10815
▁ㄷㅗㄹㄱㅣ -10816
▁ㄷㅗㅇㅈㅗ -10817
▁ㅅㅣㅋㅣㅁ -10818
▁ㅇㅜㅁㅜㄹ -10819
▁ㄱㅓㄹㄹㅣㄴ -10820
▁ㅂㅗㄱㄱㅝㄴ -10821
▁116 -10822
▁ㅇㅜㄹㄹㅣ -10823
▁ㅂㅏㄴㄱㅜㄴ -10824
▁ㅇㅡㄹㅕㄱㅗ -10825
▁ㅈㅣㅈㅣㅇㅠㄹ -10826
▁ㅎㅔㅇㅣㄹ -10827
▁ㅅㅏㅇㅂㅓㅂ -10828
▁ㅂㅗㄹㄹㅣㅂㅣㅇㅏ -10829
▁ㅂㅜㄷㅡㄹㅓㅇㅜㄴ -10830
▁220 -10831
▁ㅇㅣㄹㄹ -10832
▁ㄷㅔㄹㅌㅏ -10833
▁ㄱㅓㅈㅜㅈㅣ -10834
▁ㅊㅏㅇㄴㅕㅇ -10835
▁ㅋㅏㄹㅂㅐㅇ -10836
▁ㅎㅕㄴㄱㅏㅁ -10837
▁ㄱㅣㄱㅘㄴㅊㅗㅇ -10838
▁ㄴㅏㅁㄷㅗㅇㅅㅐㅇ -10839
▁ㅁㅓㅇ -10840
▁ㅁㅏㅈㅂㅜㅌ -10841
▁ㅈㅣㄴㅎㅐㅇㅈㅏ -10842
▁1860 -10843
ㅅㅡㅂㅜㄱ -10844
▁ㄷㅡㅇㅇㅛㅇ -10845
▁ㅍㅔㅇㅣㅅㅡㅂㅜㄱ -10846
ark -10847
▁ㅅㅣㄷ -10848
▁ㄱㅗㅇㄹㅣ -10849
▁ㄲㅐㄲㅡㅅ -10850
▁ㄱㅕㅇㅇㅣㄴ -10851
▁ㅅㅣㄴㄷㅗㅇ -10852
▁ㅈㅓㄹㄷㅏㄴ -10853
▁ㅁㅣㄴㄱㅏㄴㅇㅣㄴ -10854
▁ㅅㅡㅌㅡㄹㅏㅇㅣㅋㅡ -10855
ㅏㄱㅅㅡ -10856
ㅂㅏㄱㅈㅟ -10857
▁ㄱㅡㄱㄷㅐ -10858
▁ㅍㅏㄹㅏㄱ -10859
▁ㅅㅡㅋㅡㄹㅣㅂㅌㅡ -10860
▁ㄱㅣㅅㅡㄺ -10861
▁ㄴㅐㅁㅅㅐ -10862
▁ㅁㅣㄴㅈㅓㅇ -10863
▁ㅇㅕㄴㄷㅐㄱㅣ -10864
▁ㅇㅣㄴㅌㅔㄹㅡ -10865
▁ㄷㅣㅌㅡㄹㅗㅇㅣㅌㅡ -10866
▁ㅅㅣㄱㅔ -10867
▁ㅋㅏㅇㅜ -10868
▁ㅍㅗㅌㅓ -10869
▁ㅇㅗㄴㄱㅏ -10870
▁ㅂㅏㄹㄹㅕㅇ -10871
▁ㅇㅏㅁㅣㅌㅏ -10872
▁ㅍㅗㅅㅡㅌㅓ -10873
▁ㅂㅓㅋㅡㄹㄹㅣ -10874
ㄱㅣㄴㅕㅁㅁㅜㄹ -10875
▁ㅇㅓㄷㅡㅂㅔㄴㅊㅓ -10876
▁ㅊㅔㄹㅕㄱ -10877
▁ㅍㅗㄱㄹㅗ -10878
▁ㅅㅏㅎ -10879
▁ㄱㅡㅂㅅㅜ -10880
▁ㅇㅜㅅㅏㅇ -10881
▁ㅅㅐㄱㅕㅈㅣㄴ -10882
▁1897 -10883
▁ㅅㅣㄴㅈㅗ -10884
▁ㅇㅏㄴㅣㅁ -10885
▁ㄴㅏㄱㄷㅗㅇ -10886
▁ㅅㅣㅋㅕㅆㅇㅡㅁㅕ -10887
▁Ex -10888
▁ㅈㅗㅅㅜ -10889
▁ㅅㅣㄴㅈㅓㅇ -10890
▁ㄸㅏㄹㅡㄴㄷㅏ -10891
ream -10892
ㄱㅐㅁㅣ -10893
ㅎㅗㄹㄹ -10894
▁ㅂㅣㅈㅏ -10895
▁ㄹㅣㅂㅗㄴ -10896
▁ㅎㅜㅂㅏㄴㄱㅣ -10897
▁ㅈㅜㅇㄱㅗㅇㅇㅓㅂ -10898
▁ㄸㅓㄱ -10899
▁ㅊㅔㅋㅡ -10900
▁ㄷㅐㄱㅘㄴ -10901
▁ㅎㅜㅈㅏㄱ -10902
▁ㅍㅕㅇㅊㅏㅇ -10903
▁ㄷㅏㄴㅎㅐㅇㅂㅗㄴ -10904
▁ㅁㅏㄱㅅㅡ -10905
▁ㅅㅣㄹㅂㅓ -10906
▁ㅋㅗㅅㅡㅌ -10907
▁ㅎㅕㅁㅇㅗ -10908
▁ㅁㅗㅌㅣㅂㅡ -10909
▁ㅋㅏㅌㅏㄹㅡ -10910
▁ㅁㅗㄹㅇㅏㄴㅐ -10911
▁ㅍㅔㅅ -10912
▁ㄱㅏㅇㅢ -10913
▁ㄱㅛㄷㅐ -10914
▁ㅁㅗㄴㅏ -10915
▁ㅇㅐㅊㅣㅇ -10916
▁ㅈㅗㅇㅍㅏ -10917
▁ㅇㅣㄹㅂㅜㅂㅜㄴ -10918
ㅌㅡㅍㅔ -10919
▁ㄱㅣㅁㅈㅔ -10920
▁ㅂㅗㅅㅓㅇ -10921
▁ㅅㅏㅇㅌㅡㅍㅔ -10922
ㅗㄹㄹㅓ -10923
▁ㅁㅓㅅㅡ -10924
▁ㅂㅕㄱㅎㅘ -10925
▁ㅅㅐㅇㄱㅕㄴㅏ -10926
▁ㅅㅗㄹㄹㅜㅅㅕㄴ -10927
▁ㅎㅠㄱㅏ -10928
▁ㅈㅓㅇㄱㅕㅇ -10929
▁ㅁㅏㄷㅏㅇ -10930
▁ㅌㅐㅂㅐㄱ -10931
ㅅㅏㄴㅁㅐㄱ -10932
▁ㅁㅏㅋㅏㅇㅗ -10933
ㅁㅔㄴ -10934
▁ㄹㅣㅈㅗ -10935
▁ㅅㅏㅇㄱㅏ -10936
▁ㅈㅓㅇㅎㅘ -10937
▁ㄷㅗㅇㅎㅕㅇ -10938
▁ㅇㅘㅇㅈㅓㅇ -10939
▁ㄱㅡㄹㅕㅈㅣㄴ -10940
▁ㄱㅏㅇㄴㅏㅁㄱㅜ -10941
▁ㅇㅣㅂㅈㅜ -10942
▁ㅊㅏㄹㄹㅣ -10943
▁ㅈㅓㄱㄱㅜㄴ -10944
▁ㅋㅐㅅㅓㄹㅣㄴ -10945
▁ㅂㅏㄹㅡㅅㅑㅂㅏ -10946
▁ㅇㅏㄹㅡㅁㄷㅏㅂ -10947
ㅐㅌㅡㄹ -10948
▁ㅌㅗㅁㅣ -10949
▁ㅂㅜㄱㄱㅕㅇ -10950
▁ㅂㅡㄹㅜㅅㅡ -10951
▁ㅈㅓㄴㄱㅕㄱ -10952
▁ㅈㅓㄴㅅㅏㄴ -10953
▁ㅂㅔㄹㅌㅡ -10954
▁ㅇㅕㅁㅅㅗ -10955
▁ㅁㅣㄴㅔㅅㅗ -10956
▁ㅎㅏㄱㄹㅕㄱ -10957
▁ㅇㅏㅍㅗㄹㄹㅗ -10958
▁ㅅㅕㄹ -10959
▁ㅉㅣㄴ -10960
▁ㅂㅡㄹㅟ -10961
ㅣㄹㄹㅓㄴ -10962
▁ㅅㅗㄱㅍㅕㄴ -10963
▁ㅎㅏㅂㄷㅏㅇ -10964
▁ㅅㅜㅈㅜㅇ -10965
▁ㅇㅏㄴㅅㅏㄴ -10966
▁ㅇㅐㅌㅡㄹㄹㅐㄴㅌㅏ -10967
ㄹㅜㄱ -10968
▁ㄴㅏㄹㅜ -10969
▁ㄱㅗㅇㅅㅗㄴ -10970
▁ㅈㅔㅈㅏㄱㅅㅏ -10971
▁ㅋㅡㄹㄹㅏㅋㅡ -10972
▁Is -10973
▁ㅅㅜㄹㅛ -10974
▁ㅇㅏㄴㅌㅣ -10975
▁ㅇㅣㅅㅗㅇ -10976
▁ㅈㅓㄹㅕㅁ -10977
▁ㅎㅛㅈㅗㅇ -10978
▁ㄷㅗㄹㅇㅣㅂ -10979
▁ㄱㅛㅇㅠㄱㅊㅓㅇ -10980
ㅂㅏㄹㅡㄴ -10981
▁ㄱㅗㅇㅇㅛㅇㅇㅓ -10982
▁ㄱㅕㅇㅈㅔㅎㅏㄱㅈㅏ -10983
▁ㅁㅣㅈㅡ -10984
▁ㄴㅓㅁㄱㅣ -10985
▁con -10986
▁ㅇㅕㄲ -10987
▁ㅈㅏㄹㄹㅏ -10988
▁ㅈㅓㅇㅈㅜ -10989
▁;& -10990
▁ㅌㅐㅁ -10991
▁ㅅㅔㅂㅏ -10992
ㅓㅅㅣ -10993
▁ㅆㅏㅇㅝ -10994
▁ㅅㅡㅋㅞㅇㅓ -10995
▁ㅇㅏㄹㅍㅡㄹ -10996
▁ㅈㅣㅂㄱㅕㄹ -10997
▁ㅎㅗㅇㅁㅜㄴㄱㅘㄴ -10998
▁1880 -10999
▁ㅅㅓㄹㅣ -11000
▁ㅇㅐㄹㅣ -11001
▁ㅂㅗㄱㅏㅇ -11002
▁ㄱㅏㅈㅕㅇㅗ -11003
▁ㅎㅘㄱㅈㅣㄴ -11004
▁BM -11005
▁122 -11006
ㅅㅔㄱㅣ -11007
▁ㅁㅜㅅㅜㄹ -11008
▁ㅅㅗㅎㅐㅇ -11009
▁ㅇㅣㅃㅏㄹ -11010
▁ㄴㅡㄹㅣ -11011
▁ㄹㅣㅎㅣ -11012
▁ㄱㅣㅁㅅㅜ -11013
▁ㅂㅜㄴㅍㅏ -11014
▁ㅈㅟㅅㅗㄱ -11015
▁ㄱㅣㅁㅁㅣㄴ -11016
▁ㅁㅏㄹㅏㅌㅗㄴ -11017
▁ㅇㅗㄱㅅㅜㅅㅜ -11018
▁ㅎㅏㅁㅂㅜㄹㅡㅋㅡ -11019
▁ㄱㅘㄴㅅㅔ -11020
▁ㄷㅏㄹㅡㄹ -11021
▁ㅂㅣㄴㄷㅗ -11022
▁ㅊㅏㅇㅇㅢ -11023
▁ㅇㅕㄴㄷㅗㅇ -11024
▁ㅅㅛㄴ -11025
▁ㅇㅐㅁ -11026
▁ㅂㅗㅌㅡ -11027
ㅅㅜㅇㅝㄴ -11028
▁ㄱㅕㅇㅇㅟ -11029
▁ㅊㅓㅇㅅㅐㄱ -11030
iss -11031
ㄷㅗㅅㅡ -11032
▁ㅌㅏㅎㅕㅂ -11033
▁ㄱㅔㄹㅣㄹㄹㅏ -11034
▁ㅇㅠㄴㅣㄱㅅㅡ -11035
ㅇㅔㅁ -11036
▁ㅁㅔㄹㄹ -11037
▁ㅇㅔㅂㅓ -11038
▁ㄱㅏㅂㅇㅗㅅ -11039
▁ㅇㅣㅈㅜㅎㅏ -11040
▁ㅈㅝ -11041
▁2022 -11042
▁ㄱㅓㅊㅓ -11043
▁ㄱㅓㄷㅝㅆ -11044
▁ㄷㅗㅇㅇㅣ -11045
ㄷㅗㅁ -11046
▁ㅅㅠㅅ -11047
▁ㅅㅐㄹㅗㅇㅣ -11048
▁ㅃㅓㄴ -11049
▁ㅁㅔㄹㅏ -11050
▁ㅇㅖㅁㅕㅇ -11051
▁ㅇㅗㄴㄷㅐ -11052
▁ㅍㅏㄹㅏㄱㅘㅇㅣ -11053
▁ㅊㅓㄴㅇㅕㄴㄱㅣㄴㅕㅁㅁㅜㄹ -11054
UR -11055
▁ㄴㅏㄲ -11056
▁ㄷㅠㅇㅓㄹ -11057
▁ㅅㅓㄱㅎㅚ -11058
▁ㅇㅗㄹㅏㄱ -11059
▁ㅇㅠㄹㅕㅇ -11060
▁ㅈㅓㅂㅅㅜ -11061
▁ㄱㅏㅇㅍㅜㅇ -11062
▁ㅇㅕㄹㅅㅣㅁ -11063
▁ㄱㅡㄱㅈㅏㄱㄱㅏ -11064
ii -11065
ㅋㅏㅌㅏ -11066
▁ㄷㅏㅌㅜㅁ -11067
▁ㄷㅗㅇㅇㅛ -11068
▁ㄱㅜㄴㅊㅓㅇ -11069
▁ㅇㅣㅂㅇㅑㅇ -11070
▁ㅈㅔㅈㅗㅇㅓㅂ -11071
▁ㅅㅓㄹㄹㅣㅂㅈㅏ -11072
▁ES -11073
▁133 -11074
ㅋㅗㅂㅌㅓ -11075
▁ㅇㅔㄹㅡㄴ -11076
▁ㅅㅓㄱㅂㅜㄹ -11077
▁ㄱㅡㄹㅔㄱㅗㄹㅣㅇㅗ -11078
▁ㅋㅡㅁ -11079
▁ㅎㅛㅇ -11080
▁ㅈㅐㅎㅐ -11081
ㄱㅏㄴㅈㅣ -11082
▁ㄱㅏㅇㅊㅓㄹ -11083
▁ㄱㅡㄹㅣㅁㅈㅏ -11084
ㅂㅗㄹㅣ -11085
▁ㄹㅗㄹㅓㄴ -11086
▁ㅊㅣㄹㅡㄴ -11087
▁ㅈㅏㅇㅇㅝㄴ -11088
▁ㅊㅜㄹㅅㅓㄱ -11089
ake -11090
▁NGC -11091
▁ㅋㅜㅂ -11092
ㅌㅡㄹㅠㅁ -11093
▁ㅇㅣㄹㅍㅏ -11094
▁ㅇㅣㅇㅓㄴ -11095
▁++ -11096
▁ㅅㅏㅋㅏㅇㅣ -11097
▁ㅇㅛㅇㅇㅏㅁ -11098
▁ㅈㅣㅁㅈㅏㄱ -11099
ㅅㅏㅇㅣㄷㅡ -11100
▁ㄴㅏㄹㅏㄴㅎㅣ -11101
ㅉㅣ -11102
▁ㅅㅟㄹ -11103
ㅇㅚㅅㅓㄴ -11104
▁ㄱㅏㅂㅡㄹ -11105
▁ㅎㅗㅇㅡㅇ -11106
▁ㄷㅜㄱㅐㄱㅗㄹ -11107
▁ㅍㅔㄴㅓㄹㅌㅣ -11108
ㅗㅂㅜ -11109
▁ㅅㅑㄴ -11110
▁ㄱㅘㅅㅣㄹ -11111
▁ㄷㅡㅇㄱㅡㄱ -11112
▁ㅋㅣㅇㅖㅍㅡ -11113
▁ㄱㅛㅇㅠㄱㅂㅜ -11114
▁ㄱㅐㄹ -11115
▁ㅋㅜㅁ -11116
ㄷㅗㄹㅣ -11117
ㅅㄱㅏㅄ -11118
▁ㅅㅏㅎㅏㄱ -11119
ㅅㅏㄴㅅㅓㅇ -11120
▁ㅇㅝㄴㄱㅕㄱ -11121
▁ㄱㅕㅇㅈㅐㅇㄹㅕㄱ -11122
▁ㄴㅓㄴ -11123
ㅊㅡㅋㅡ -11124
▁ㅅㅔㄹㅏ -11125
▁ㅇㅑㄱㅎㅏ -11126
▁ㅎㅘㄱㄱㅗ -11127
▁ㄱㅏㄹㄹㅣㅇㅏ -11128
▁ㅇㅔㄹㄹㅣㅌㅡ -11129
▁ㅇㅣㅇㅛㅇㄱㅐㄱ -11130
▁ㅇㅕㅆㅇㅡㅁㅡㄹㅗ -11131
▁ㄹㅗㅍ -11132
▁ㅁㅏㅇㅐ -11133
▁ㅁㅗㄴㅌㅔ -11134
▁ㅊㅜㅈㅗㅇ -11135
▁ㅈㅓㅇㅂㅗㅇ -11136
▁ㅈㅣㅂㅏㅇㅅㅏㄴ -11137
▁ㅎㅡㅇㅅㅓㄴㄷㅐㅇㅝㄴㄱㅜㄴ -11138
ㅎㅐㅌㅡㄴ -11139
▁ㅈㅔㅇㅘㅇ -11140
▁ㅊㅕㄷㅡㄹ -11141
▁ㅎㅘㅅㅜㄴ -11142
▁ㅅㅓㄴㅈㅏㅇ -11143
▁ㅈㅓㅇㅂㅜㄱ -11144
▁ㅎㅣㅅㅏ -11145
▁ㄴㅣㅋㅗㄹ -11146
ㅈㅏㅊㅣㅅㅣ -11147
▁ㅂㅓㄴㅅㅓㅇ -11148
▁ㅅㅏㅁㅜㅊㅗㅇㅈㅏㅇ -11149
▁ㅌㅡㄱㅂㅕㄹㅈㅏㅊㅣㅅㅣ -11150
▁ㅇㅓㄹㅗ -11151
ㅏㅇㅜㅌㅡ -11152
▁ㄱㅣㅅㅓㅇ -11153
▁ㅇㅜㄹㅣㅁ -11154
▁ㄱㅣㅅㅏㅇㅊㅓㅇ -11155
▁ㄱㅡㄹㅓㅎㅈㅣㅁㅏㄴ -11156
▁DM -11157
ㅜㅇㅑ -11158
▁ㄱㅡㄱㄷㅗ -11159
▁ㅇㅛㅂㅓㅂ -11160
▁ㅈㅣㅊㅓㅇ -11161
▁ㅇㅕㄴㅁㅗㅅ -11162
ㅐㄹㅗㄹㄹㅏㅇㅣㄴㅏ -11163
ㄱㅡ -11164
▁ㅂㅗㅇㅎㅐ -11165
▁ㅇㅟㅅㅐㅇ -11166
▁ㅌㅔㅇㅣㄹ -11167
▁ㅈㅗㅇㅁㅏㄹ -11168
▁ㄷㅜㄹㄹㅓㅆㅏㅇ -11169
▁ㅅㅡㅌㅡㄹㅏㅇㅣㅋㅓ -11170
▁ㄷㅡㄹㅇㅣ -11171
▁ㄸㅏㄹㅏㅆ -11172
▁ㅅㅗㄹㅕㅇ -11173
▁ㅇㅠㅈㅓㅇ -11174
▁ㅂㅜㅌㅇㅕㅈㅣㄴ -11175
old -11176
▁ㅂㅣㅊㄴㅏ -11177
▁ㅅㅔㄱㅅㅡ -11178
▁ㅈㅐㄴㅏㄴ -11179
▁ㅊㅓㄴㅎㅏ -11180
▁ㅈㅗㅇㅈㅓㅁ -11181
▁ㅎㅏㅁㅇㅑㅇ -11182
▁ㅇㅣㄷㅗㅇㅎㅏ -11183
HO -11184
ㄴㅡㄴ -11185
▁ㅅㅣㅁㅇㅑ -11186
▁ㅈㅏㅇㄷㅏㄴ -11187
▁ㅇㅣㄴㅍㅡㄹㅏ -11188
▁ㅍㅗㄷㅗㄷㅏㅇ -11189
▁ㅁㅣㅅㅐㅇㅁㅜㄹ -11190
▁Mus -11191
▁ㄱㅜㄱㅇㅠ -11192
▁ㅇㅣㄷㅡㄱ -11193
▁ㅈㅗㅇㅣㄴ -11194
▁ㅈㅣㅋㅕㅆ -11195
▁ㅂㅏㄴㅇㅕㄱ -11196
▁ㅇㅣㄹㄱㅘㄹ -11197
▁ㅇㅗㄻㄱㅕㅈㅕㅆ -11198
ㅅㅏㄱㅘㄴㅎㅏㄱㄱㅛ -11199
GA -11200
▁ㅁㅗㅇㅛㅇ -11201
▁ㅁㅗㅇㅣㄴ -11202
▁ㅈㅏㄱㅕㄹ -11203
ㄹㅔㅇㅣㅌㅓ -11204
▁ㄱㅕㄹㅍㅣㅂ -11205
▁ㅎㅕㄴㅎㅐㅇ -11206
▁CEO -11207
ㅊㅜㄱㄱㅜ -11208
▁ㄱㅕㄹㅈㅔ -11209
own -11210
▁CBS -11211
▁ㅁㅗㅂ -11212
ㄱㅣㄱㅜ -11213
▁ㅅㅣㅇㅑ -11214
▁ㅎㅗㅍㅡ -11215
▁ㄱㅏㅂㅕㅂ -11216
▁ㄷㅐㅂㅗㄴ -11217
▁ㅈㅓㅇㄱㅘㄴ -11218
▁ㅎㅔㄹㄹㅠㅁ -11219
▁ㄷㅐㅈㅣㅈㅣㄴ -11220
▁ㅅㅡㄹㅣㄹㅏㅇ -11221
▁ㅂㅓㅂㅈㅓㅇㄷㅗㅇ -11222
▁ㅅㅣㅁㅠㄹㄹㅔㅇㅣㅅㅕㄴ -11223
ㅠㅇ -11224
▁Ro -11225
▁ㅈㅏㅇㄹㅗㄱ -11226
▁ㅍㅔㄴㅅㅣㅇ -11227
▁ㅅㅡㄹㅣㄹㅏㅇㅋㅏ -11228
ㅏㄹㅜ -11229
▁ㄱㅗㅇㅣ -11230
▁ㄱㅏㅁㄷㅗㅇ -11231
▁ㅁㅕㅇㅂㅜㄴ -11232
▁ㅍㅡㄹㅐㅇㅋㅡㄹㄹㅣㄴ -11233
ㅍㅏㄹㅡ -11234
ㅔㄹㄹㅗ -11235
ㅅㅡㄴㅓㄹ -11236
▁ㄱㅐㅎㅏㅇ -11237
▁ㅁㅣㅅㅡㅌ -11238
▁ㅅㅏㅇㅣㅌㅗ -11239
▁ㅈㅏㅊㅣㅊㅔ -11240
▁ㅈㅓㅇㅇㅣㄴ -11241
▁ㅇㅏㅅㅡㄴㅓㄹ -11242
ㅔㄹㅡㅌ -11243
▁ㅈㅏㅇㅈㅔ -11244
▁ㅇㅏㅁㅎㅡㄱ -11245
ork -11246
▁ㄲㅓㄴ -11247
▁ㅇㅝㅊㅣ -11248
ㄷㅏㅇㅜㄴ -11249
ㄸㅡㄹㅕㅆ -11250
▁ㅍㅏㅁㅜㄴ -11251
▁ㅍㅕㅇㅁㅣㄴ -11252
ㄲㅡㄹㅓㅇㅜㄴ -11253
▁ㄷㅚㄴㄷㅏㅁㅕㄴ -11254
▁ㅈㅏㅅㅐㅇ -11255
▁ㅇㅣㄴㄷㅣㅇ -11256
▁ㅇㅣㄱㅠ -11257
▁ㄱㅜㄱㅇㅏㄱ -11258
▁ㅌㅏㄱㅇㅝㄹ -11259
▁ㄱㅓㅌㅂㅗㄱㅣ -11260
▁ㅁㅜㄱㅜㅇㅎㅘ -11261
▁ㅉㅡ -11262
ㅂㄴㅣㄷㅏ -11263
▁ㅅㅓㅇㄹㅕㅇ -11264
▁ㅇㅏㄹㅐㅉㅗㄱ -11265
▁ㅇㅗㄹㄹㅏㄱㅏㄴㄷㅏ -11266
▁GDP -11267
ㅇㅡㄴㅣ -11268
▁ㄷㅓㅍㅇㅕ -11269
▁ㅈㅣㄴㅅㅜ -11270
▁ㅇㅏㅍㅈㅏㅇ -11271
ㅐㅂ -11272
▁NE -11273
▁ㅈㅗㄱㅖ -11274
▁ㅇㅣㅎㅏㅇ -11275
▁ㅁㅏㄴㄴㅕㄴ -11276
lo -11277
▁ㄴㅐㅅㅓㅇ -11278
▁ㅅㅜㄱㅈㅜ -11279
▁ㅁㅜㄴㄱㅕㅇ -11280
▁ㅇㅗㅅㅏㄴ -11281
▁ㅁㅏㅇㅜㅅㅡ -11282
▁ㅁㅗㅌㅓㅅㅡ -11283
▁ㅇㅗㄴㄱㅏㅈ -11284
▁ㅁㅜㅈㅗㄱㅓㄴ -11285
▁132 -11286
▁ㅅㅜㄴㅕㄴ -11287
▁ㄷㅗㅇㅅㅓㅇㅇㅐㅈㅏ -11288
▁ㅇㅏㄴㅣㄹ -11289
▁ㅇㅏㅇㅣㅅㅡㅎㅏㅋㅣ -11290
ick -11291
▁PR -11292
▁ㄷㅠㅇㅗ -11293
▁ㅎㅏㄱㅗ -11294
ㅇㅟㅅㅓㅇ -11295
▁ㅅㅓㄴㅇㅜ -11296
▁ㅅㅣㅈㅗㅇ -11297
▁ㅇㅑㅁㅏㅇ -11298
▁ㅌㅏㅅㅓㄱ -11299
▁ㄷㅏㄷㅎㅣㄴ -11300
▁ㅁㅣㅅㅣㅅㅣㅍㅣ -11301
▁ㅅㅓㄴㄱㅓㅂㅓㅂ -11302
▁ㅇㅟㄴㅏㄹㅏ -11303
▁ㅈㅏㅇㅎㅡㅇ -11304
▁ㅍㅡㄹㅔㅅㅡ -11305
▁ㄷㅐㅅㅏㅎㅓㄴ -11306
▁ㅅㅏㅁㄱㅜㄱㅅㅏㄱㅣ -11307
▁ㅁㅜㅅㅡ -11308
▁ㅌㅏㅈㅣ -11309
▁ㅅㅗㄱㅈㅜ -11310
▁ㅎㅜㅅㅗㄱㅈㅏㄱ -11311
▁ㅇㅑㅅㅣ -11312
▁ㅋㅔㅇㅣㄴ -11313
ㅇㅕㄴㅎㅏㅂ -11314
▁ㄷㅗㅇㅊㅏㅁ -11315
▁ㅂㅜㄹㅎㅐㅇ -11316
▁ㅂㅗㄱㅇㅡㅁㅅㅓ -11317
▁ㅇㅣㄴㄷㅣㅇㅐㄴㅏ -11318
▁or -11319
▁ㅈㅜㅎㅘ -11320
▁ㅁㅣㅅㅖㄹ -11321
▁ㅌㅚㅈㅏㅇ -11322
▁ㅈㅓㅇㄱㅜㄱ -11323
▁ㅇㅕㄹㄹㅣㄴㄷㅏ -11324
▁ㄱㅏㄷㅗ -11325
ㅗㄹㅣㅇㅏ -11326
▁ㄴㅏㄱㅎㅏ -11327
▁ㅂㅣㄴㅂㅓㄴ -11328
▁ㅅㅏㅇㅇㅕㄴ -11329
ㅞㄴ -11330
▁CONCA -11331
▁ㅁㅐㄷㅏㄹ -11332
▁ㄱㅡㄹㅣㅅㅡㅇㅣㄴ -11333
ㅗㄴㅔ -11334
▁ㅂㅜㅇㅕㄱ -11335
▁ㅅㅜㅅㅣㅁ -11336
▁ㄱㅡㄹㄹㅗㅂㅡ -11337
▁ㅈㅡㅁ -11338
ㅌㅔㄴㅏ -11339
▁ㅅㅣㄱㅜㄱ -11340
▁ㅎㅏㅇㅣㄷㅡ -11341
▁ㅅㅔㄴㄱㅗㅋㅜ -11342
▁ㄷㅗㄹㅇㅕㄴㅂㅕㄴ -11343
Hz -11344
▁ㅁㅣㄴㅏ -11345
▁ㅂㅜㄱㅏ -11346
ㅌㅣㄱㅅㅡ -11347
▁ㄷㅐㄱㅏㄱ -11348
▁ㅊㅗㅇㅝㄴ -11349
▁ㅂㅣㅈㅜㅇㅓㄹ -11350
▁CONCACAF -11351
▁ㅂㅗㅎㅔㅁㅣㅇㅏ -11352
▁ㅇㅡㄹㄲㅏ -11353
▁ㅎㅗㅈㅗㄱ -11354
▁ㄷㅏㄴㄱㅘ -11355
▁ㅈㅗㅂㅕㅇ -11356
▁ㄱㅜㄱㄷㅏㅇ -11357
▁ㅁㅐㄱㅓㅈㅣㄴ -11358
▁ㄱㅣㅈㅓ -11359
▁ㅇㅗㅋㅣ -11360
▁ㅁㅏㄹㅡㅋㅗ -11361
ence -11362
▁ㄹㅣㅁㅗ -11363
▁ㄷㅐㅅㅓㅇㅈㅓㄴ -11364
ix -11365
clude -11366
▁ㅅㅏㄱㅏ -11367
▁ㄱㅘㅇㅇㅑㅇ -11368
▁ㅎㅕㄴㅈㅣㄱ -11369
▁ㅇㅏㄴㄷㅡㄹㅗ -11370
▁ㄴㅓㄱ -11371
▁ㄱㅗㅌㅗ -11372
ㅏㅇㅣㄷㅓ -11373
▁ㄱㅗㅇㅍㅏ -11374
ㅌㅏㅇㅣㄷㅡ -11375
▁ㅇㅏㄴㅣㅎㅏ -11376
▁ㅌㅗㅇㅌㅡㄹㅇㅓ -11377
▁ㄱㅜㅅㅡ -11378
ㅅㅡㅋㅜㄹ -11379
▁ㅍㅛㅊㅏㅇ -11380
▁ㅁㅏㄷㅏㄱㅏ -11381
▁ㅈㅏㅇㄹㅗㄱㅛ -11382
▁ㅇㅢㅈㅏ -11383
▁ㅁㅐㅇㅅㅔ -11384
▁ㅂㅏㄹㄱㅏㄱ -11385
▁ㅇㅗㅋㅡㄹㄹㅐㄴㄷㅡ -11386
ㅓㅍ -11387
▁pro -11388
▁ㄱㅣㅂㅕㅇㄷㅐ -11389
ㅍㅜㄹㅡ -11390
▁ㅎㅣㄹㅏ -11391
▁ㅂㅏㄱㅎㅓㄴ -11392
▁ㅇㅑㅇㅇㅠㄱ -11393
▁SL -11394
ㅂㅡㄹㅏ -11395
▁ㅋㅏㅌㅏ -11396
▁ㅋㅣㄹㄹ -11397
ㅅㅏㅅㅏㅇ -11398
▁ㄴㅏㄴㅇㅣ -11399
▁ㅇㅏㄴㅊㅣ -11400
▁ㅈㅓㄱㅕㄱ -11401
▁ㅅㅣㅇㅐㅌㅡㄹ -11402
▁ㅎㅏㅂㅅㅡㅂㅜㄹㅡㅋㅡ -11403
ㅎㅏㄹㅅㅣ -11404
▁ㅌㅏㅇㅣㅂㅔㅇㅣ -11405
▁ㅇㅔㄴㅈㅣㄴㅣㅇㅓ -11406
ㅁㅓㄴㅅㅡ -11407
▁ㅈㅐㅈㅣㄹ -11408
ㅎㅗㄹㄹㅡㅁ -11409
▁ㄷㅜㄹㄹㅓㅆㅏㅇㅕ -11410
ance -11411
ㄴㅣㄲㅏ -11412
▁ㄴㅏㅈㅊㅜ -11413
▁ㅌㅜㅎㅏㅇ -11414
ㅏㄹㄹㅗㄱㅡ -11415
▁ㅈㅏㅅㅔㅎㅣ -11416
▁ㅁㅏㄹㅡㅋㅡㅅㅡㅈㅜㅇㅢ -11417
▁ㅎㅗㅇㅢ -11418
▁ㅅㅏㅇㄱㅣ -11419
▁ㅅㅓㄴㄷㅐ -11420
▁ㅇㅛㅈㅔㅍㅡ -11421
▁ㅅㅓㄴㅂㅗㅇㅣ -11422
▁ㅁㅐㄴㅎㅐㅌㅡㄴ -11423
▁ㄴㅗㅇㅅㅏㄴㅁㅜㄹ -11424
EM -11425
▁ㄱㅘㄴㄷㅗㅇ -11426
▁ㄱㅣㅁㅂㅕㅇ -11427
▁ㅂㅗㄱㅅㅣㄱ -11428
ear -11429
▁ㅁㅗㅇㅡㄴ -11430
▁ㅂㅣㄴㅡㄹ -11431
▁ㅅㅗㅇㅜㄹ -11432
▁ㅊㅓㅇㄷㅗㅇㄱㅣ -11433
ㅌㅏㅁㅏ -11434
▁ㅁㅜㄹㅗ -11435
ㅏㄹㅣㅇㅏ -11436
▁ㄱㅡㄱㄹㅏㄱ -11437
▁ㄱㅣㅁㅇㅗㄱ -11438
▁ㄷㅗㄹㅇㅕㄴㅂㅕㄴㅇㅣ -11439
▁ㅅㅡㄹㅗ -11440
ㅗㅁㅣㅇㅑ -11441
▁ㅁㅣㄴㅇㅛ -11442
▁ㅌㅣㅋㅔㅅ -11443
ㄹㅣㅁㅍㅣㄱ -11444
▁ㅂㅜㅌㅇㅕㅈㅕㅆ -11445
▁ㅂㅗㄹㅅㅖㅂㅣㅋㅣ -11446
▁ㅍㅐㄹㅓㄹㄹㅣㅁㅍㅣㄱ -11447
▁ㅇㅜㅈㅡㅂㅔㅋㅣㅅㅡㅌㅏㄴ -11448
▁1885 -11449
▁ㅇㅏㅃㅏ -11450
▁ㅇㅢㄱㅘ -11451
▁ㅌㅗㅅㅣ -11452
▁ㅎㅘㄹㅈㅜㄹㅗ -11453
▁ㅈㅜㅇㅓㅈㅣㄴㄷㅏ -11454
▁GN -11455
▁Ph -11456
▁ㄷㅗㅅㅏ -11457
ㄷㅐㄱㅜㄱ -11458
ㅌㅔㅁㅕㄴ -11459
▁ㄱㅐㅎㅓㄴ -11460
▁ㄱㅗㅇㅍㅛ -11461
▁ㅂㅐㅅㅗㄱ -11462
▁ㅈㅏㅇㄷㅐ -11463
▁ㅅㅏㅋㅜㄹㅏ -11464
▁ㅅㅗㅍㅣㅇㅏ -11465
▁ㅈㅜㅇㅇㅏㅇㅂㅜ -11466
▁ㅇㅣㄹㅡㄹㅌㅔㅁㅕㄴ -11467
▁ㅎㅐㅂㅜ -11468
▁ㄴㅐㅁㅕㄴ -11469
▁ㅁㅐㅈㅣㄱ -11470
▁ㅁㅣㄹㄹㅓ -11471
▁ㄱㅏㅁㄱㅡㅁ -11472
▁ㅂㅏㄴㅅㅓㅇ -11473
▁ㅇㅏㅇㅜㄱㅜ -11474
▁ㄹㅓㅂ -11475
▁ㄴㅐㅇㅑ -11476
▁ㅅㅜㅇㅕㅁ -11477
ㅅㅡㅌㅔ -11478
▁1870 -11479
ㅅㅣㅂㅈㅏ -11480
▁ㄴㅗㅇㅅㅏ -11481
▁ㅍㅡㄹㄹㅔ -11482
▁ㅇㅑㄱㅜㄷㅏㄴ -11483
▁ㅊㅏㅇㅅㅣㅈㅏ -11484
▁NAS -11485
▁ㄱㅔㄴㅈㅣ -11486
▁ㅅㅐㅇㄱㅕ -11487
▁ㅅㅡㅍㅗㄴㅅㅓ -11488
▁ㄹㅜㅋㅡ -11489
▁ㄱㅕㄱㅈㅏ -11490
▁ㅅㅔㅂㅡㄴ -11491
▁ㅁㅣㅅㅡㅌㅓ -11492
▁ㅅㅣㄹㅈㅗㄴ -11493
▁ㅇㅗㄹㅂㅏㄹㅡㄴ -11494
▁ㄹㅓㅅㅣ -11495
▁ㅍㅓㅍㅗ -11496
ㅉㅓㄷㅜㅇ -11497
▁ㅅㅐㅇㄱㅖ -11498
▁ㅅㅔㅅㅗㄴ -11499
▁ㅁㅏㅇㅗㅉㅓㄷㅜㅇ -11500
▁ㅍㅓㅍㅗㅁㅓㄴㅅㅡ -11501
▁ㄱㅜㄱㅅㅜ -11502
▁ㅈㅔㄷㅗㅇ -11503
▁ㅇㅏㅇㅣㅇㅗ -11504
▁ㅇㅖㅅㅓㄴㅈㅓㄴ -11505
▁ㅍㅡㄹㄹㅏㅌㅗㄴ -11506
ㄴㅗㄴ -11507
ㅋㅣㄹ -11508
ㅍㅓㅇ -11509
ㅅㅏㄱㅅㅡ -11510
▁ㅅㅔㅇㅝㅈㅕ -11511
▁ㅌㅡㄹㅣㄴㅣ -11512
▁ㅇㅜㅊㅔㄱㅜㄱ -11513
▁ㅇㅠㄱㅝㄴㅈㅏ -11514
▁un -11515
▁ㅇㅙㄱㅜ -11516
▁ㄱㅕㅇㅈㅣㄹ -11517
▁ㅁㅣㅈㅜㄹㅣ -11518
▁ㅇㅗㄹㅗㅈㅣ -11519
▁450 -11520
▁1871 -11521
▁ㅅㅜㄱㅛ -11522
▁ㅇㅠㅅㅡ -11523
▁To -11524
▁ㅃㅛ -11525
▁240 -11526
▁ㅍㅡㄹㅐㄴㅅㅣㅅㅡ -11527
▁ㄷㅗㄹㅊㅜㄹ -11528
▁ㅎㅏㄴㅗㅇㅣ -11529
▁ㄷㅐㅈㅏㅇㄱㅜㄴ -11530
▁ㄴㅔㅇㅣㅅㅕㄴㅅㅡㅋㅓㅂ -11531
ㅍㅡㄹㅗ -11532
▁ㅈㅜㅇㅅㅏㅇ -11533
▁ㅇㅐㄹㄹㅣㅅㅡ -11534
ㄷㅣㅂ -11535
ㅁㅏㄹㅜ -11536
▁ㄷㅓㅂㅣ -11537
▁ㅋㅏㅍㅡ -11538
▁ㄴㅔㅇㅣㅁ -11539
▁ㅍㅕㅇㅇㅏㄴㄴㅏㅁㄷㅗ -11540
OV -11541
ㅎㅡㄴ -11542
▁ㅂㅐㅅㅜ -11543
▁ㄴㅑㄴㅡㄴ -11544
▁ㄸㅟㅇㅓㄴ -11545
▁ㅇㅏㄹㄹㅐ -11546
▁ㅎㅏㅇㅅㅗ -11547
▁ㅈㅓㄴㄴㅏㄹ -11548
▁ㅈㅓㄴㄷㅏㄴ -11549
▁ㅎㅏㄱㅅㅓㄹ -11550
▁ㅎㅘㄹㅂㅏㄹㅎㅣ -11551
irl -11552
▁ㅋㅏㅌㅓ -11553
▁ㅂㅏㄹㅈㅏㄱ -11554
▁ㅌㅜㄹㅡㅋㅡ -11555
ㅌㅔㄹㄹㅔㅅㅡ -11556
ㅂㅏㅁ -11557
▁ㄱㅘㄹ -11558
▁ㅁㅐㅅ -11559
▁ㅇㅠㄹㅛ -11560
▁ㄱㅡㄹㄹㅐ -11561
▁ㅈㅣㅅㅓㅇ -11562
▁ㄱㅘㄴㅎㅐㅇ -11563
▁ㅈㅓㅇㅈㅏㄱ -11564
▁ㅈㅡㅇㅇㅣㄴ -11565
▁ㄲㅗㅂㅎㅣㄴㄷㅏ -11566
ㅜㄴㅑ -11567
ㅣㄱㅘㄴ -11568
▁ㅊㅓㅇㄹㅛㅇ -11569
▁ㅈㅜㅈㅣ -11570
▁ㅊㅏㅁㅅㅏ -11571
▁ㅎㅘㅇㄷㅗ -11572
▁ㅇㅝㄴㅅㅣㅁ -11573
▁ㅈㅜㅇㅅㅐㅇ -11574
lass -11575
▁ㅁㅣㄷㅡㄹ -11576
▁ㅎㅏㅁㅈㅏ -11577
▁ㅎㅘㄹㅏㅇ -11578
▁1600 -11579
▁ㅈㅜㄷㅚㄴ -11580
▁ㄴㅠㅋㅡㄹㄹ -11581
▁ㅍㅕㄴㅈㅣㅂㅈㅏ -11582
ild -11583
ㅗㅂㅗ -11584
ㅍㅏㅋㅡ -11585
ㅗㅇㅑㅁㅏ -11586
▁ㅊㅓㅇㅈㅏ -11587
▁ㅅㅣㄴㅂㅏㄹ -11588
▁ㅇㅏㅍㅉㅗㄱ -11589
▁ㅅㅜㅇㅝㄴㅅㅣ -11590
▁ㅅㅣㄹㅎㅓㅁㅅㅣㄹ -11591
▁ㅍㅕㅇㅇㅏㄴㅂㅜㄱㄷㅗ -11592
▁AD -11593
▁ㅇㅣㅇㅑㅇ -11594
ㅂㅏㅇㅑㅅㅣ -11595
▁USS -11596
ㄱㅗㄱㄹㅣ -11597
ㅂㅏㄴㄱㅜ -11598
ㅋㅓㄴㄷㅐ -11599
ㅏㄹㅡㄷㅗ -11600
▁ㅇㅣㅂㅅㅜ -11601
▁ㄱㅏㄱㅅㅓㅇ -11602
ㅌㅔㅆㅡ -11603
▁ㅊㅓㅇㅅㅗ -11604
▁ㄴㅏㅁㅇㅛㅇ -11605
▁ㄴㅐㅁㅜㅂㅜ -11606
▁CM -11607
▁ㅈㅏㅇㅟ -11608
▁ㅍㅣㅊㅣ -11609
▁ㄷㅏㅇㄴㅐ -11610
▁ㅂㅜㄴㄱㅘ -11611
▁ㅅㅜㅇㅣㄴ -11612
▁ㅎㅠㅇㄴㅗ -11613
ㄷㅡㅇㅅㅣㄱ -11614
▁ㅅㅐㅇㅅㅓㄴ -11615
▁ㄷㅏㄹㅏㅁㅈㅟ -11616
▁ㅇㅏㄹㅣㅅㅡㅌㅗㅌㅔㄹㄹㅔㅅㅡ -11617
ㅛㄹ -11618
ㅊㅡㅂ -11619
▁ㅁㅏㄴㅣㄹㄹㅏ -11620
▁ㅇㅑㅇㅅㅓㅇㅈㅏ -11621
▁ㅍㅡㄹㅗㄹㅣㄱㅡ -11622
▁ㄹㅏㅇㅗ -11623
▁ㅇㅣㅌㅏ -11624
ection -11625
▁ㅁㅜㄴㄱㅗ -11626
▁ㅅㅏㄹㄹㅕ -11627
▁ㅇㅗㄹㄷㅡ -11628
▁ㅍㅡㄹㅏㅎㅏ -11629
ans -11630
▁ㅂㅜㄱㅏㄱ -11631
▁ㅅㅣㅎㅏㅂ -11632
▁ㅇㅕㄱㄷㅗ -11633
▁ㅈㅜㄹㅇㅓ -11634
ㅌㅔㄹㅣㅇㅏ -11635
▁ㄹㅗㄹㅔㄴㅅㅡ -11636
▁ㄹㅣㄹㅏ -11637
▁ㅎㅠㄱㅔ -11638
▁ㅅㅏㅇㄱㅡㅂ -11639
▁ㅇㅠㅊㅣㅇㅝㄴ -11640
▁ㅇㅐㄴㄷㅓㅅㅡㄴ -11641
ㄷㅡㄹㅇㅣ -11642
ㅁㅜㄱㅘㄴ -11643
ㅣㅇㅔㄹㅡ -11644
▁ㅈㅏㅊㅣㅇ -11645
ㅓㅍㅣㅇㅓㄴ -11646
▁ㄴㅡㅇㅅㅓㄴ -11647
ㄹㅏㄴㅗ -11648
▁ㅅㅓㅇㅅㅣㄹ -11649
▁ㄹㅓㅅㅣㅇㅏㅇㅣㄴ -11650
▁ㅂㅏㄱㅎㅓㄴㅇㅕㅇ -11651
ㅇㅏㄱㅣ -11652
▁1200 -11653
▁ㄱㅜㅊㅓㅇ -11654
▁ㄷㅐㅂㅜㄱ -11655
▁ㅁㅜㅊㅓㄱ -11656
▁ㄱㅜㅇㄱㅝㄹ -11657
▁ㅇㅏㄹㄹㅔㄱㅅㅡ -11658
▁ㅇㅏㄹㄹㅐㅅㅡㅋㅏ -11659
▁ㅇㅟㅅㅡ -11660
▁ㅂㅏㄴㅎㅏ -11661
▁ㄲㅡㅌㄴㅏㅆ -11662
▁ㅇㅠㄹㅓㅍㅣㅇㅓㄴ -11663
ㅍㅏㄹㅣ -11664
ㅜㅅㅡㅌㅡ -11665
▁ㄷㅏㄷㅏㅇ -11666
▁ㅇㅣㄹㅜㄱ -11667
▁ㅈㅏㅇㅈㅏ -11668
▁ㅇㅕㄱㅅㅏㄱㅏ -11669
▁ㅇㅓㄹㅣ -11670
ㅂㅗㅅㅓㄴ -11671
▁ㄱㅛㅅㅣㄹ -11672
▁ㅍㅏㄴㅏㅁㅏ -11673
ㄸㅟ -11674
ㅏㅇㅓ -11675
ㅎㅣㅌㅡ -11676
▁ㅎㅐㅅㅜ -11677
▁ㄱㅜㄱㅂㅗ -11678
▁ㄷㅗㄱㄷㅗ -11679
▁ㅊㅣㄴㅂㅜㄴ -11680
▁ㅌㅡㄹㅏㅇㅣ -11681
▁ㅇㅗㄹㄹㅣㅁㅍㅣㅇㅏ -11682
▁ㄷㅏㅌㅜ -11683
▁ㅇㅏㅊㅣ -11684
▁ㅈㅗㄹㅖ -11685
▁ㅈㅣㄹㅗ -11686
ㅅㅡㄹㄹㅣ -11687
▁ㅊㅜㄹㄱㅏ -11688
ㅇㅡㅁㅡㄹㅗ -11689
▁ㅅㅏㄹㅏㅈㅣㄴ -11690
▁Sy -11691
▁ㄴㅏㄹㄹ -11692
▁ㅇㅠㅂㅜ -11693
▁ㅎㅐㅈㅓ -11694
▁ㄷㅗㅇㄹㅗ -11695
▁ㅇㅏㅁㅜㄱㅓㅅ -11696
▁ㅈㅏㅂㅇㅏㅁㅓㄱ -11697
▁ㅁㅐㅁ -11698
▁ㄱㅓㄴㅡㄹ -11699
▁ㅇㅔㄷㅡㅁ -11700
▁ㅈㅗㄱㅘㅇ -11701
▁ㅂㅣㄱㅌㅗㄹㅡ -11702
▁ㄷㅗㅇㅇㅠㄹㅓㅂ -11703
▁ㅇㅗㄹㅡㄴㅅㅗㄴ -11704
▁ㅇㅗㄹㄹㅏㅆㅇㅡㅁㅕ -11705
▁ㅍㅏㄴㅏ -11706
▁ㅋㅏㄹㄹㅓㅁ -11707
▁ㄱㅕㅇㅇㅕㅇㅈㅏ -11708
▁ㅁㅏㄷㅏㄱㅏㅅㅡㅋㅏㄹㅡ -11709
▁ㅇㅔㅅ -11710
▁only -11711
▁ㄹㅕㄷㅓㄴ -11712
▁ㄱㅜㅁㅏㅁㅗㅌㅗ -11713
▁ㄷㅗㅇㅁㅜㄹㅇㅝㄴ -11714
ㅊㅔㄱㅗ -11715
▁ㅈㅐㅇㅚ -11716
▁ㅇㅑㅁㅏㄱㅏ -11717
ㅊㅔㄱㅗㅂㅣㄴㅏ -11718
▁ㅅㅣㄴㅁㅜㄴㅅㅏ -11719
ㅌㅓㅅ -11720
▁EBS -11721
▁ㅅㅓㅇㅎㅘ -11722
▁ㅈㅓㅇㅈㅔ -11723
▁ㄹㅔㅇㅣㅅㅣㅇ -11724
▁ㅅㅣㄷㅏㄹㄹㅣ -11725
▁ㄱㅣㅁㅈㅓㅇㅇㅡㄴ -11726
ㅓㅇㅣㄴ -11727
▁ㅅㅓㅁㅅㅔ -11728
▁ㅇㅣㅂㅏㅇ -11729
▁ㅊㅏㅇㅛㅇ -11730
▁ㅁㅗㅁㅌㅗㅇ -11731
▁ㄹㅜㄷㅗㄹㅍㅡ -11732
▁ㅁㅣㄱㅜㄴㅈㅓㅇ -11733
ㅋㅏㄹㅣ -11734
ㅣㄹㄹㅗ -11735
▁ㅅㅣㅈㅜㅇ -11736
▁ㅎㅏㅂㅏㄴ -11737
▁ㄱㅏㅇㄹㅕㅇ -11738
▁ㅈㅣㅇㅂㅕㅇ -11739
▁ㅍㅕㅇㅎㅕㅇ -11740
▁ㅂㅏㄴㄹㅏㄴㄱㅜㄴ -11741
ivers -11742
▁ㅁㅏㅅㅜㄹ -11743
▁ㄷㅏㅈㅓㅅㅡ -11744
▁ㅅㅏㅇㅎㅐㅇ -11745
▁ㅇㅑㄱㅎㅗㄴ -11746
▁ㅂㅜㄷㅡㄹㅓㅂ -11747
▁ㅇㅐㄴㄷㅡㄹㅜ -11748
▁ㄱㅗㅇㅁㅣㄴㅇㅘㅇ -11749
▁ㄱㅏㅁㅅㅜ -11750
▁ㅅㅜㅍㅣㄹ -11751
▁ㄴㅗㅇㄱㅕㅇ -11752
▁ㄷㅏㄴㅏㅋㅏ -11753
▁ㅊㅣㄱㄹㅕㅇ -11754
▁ㅌㅗㅇㅇㅛㅇ -11755
ish -11756
▁ㅋㅔㄹㅏ -11757
▁ㅈㅐㅎㅘㄹ -11758
▁ㅊㅓㄴㄷㅗ -11759
▁ㅊㅗㅂㅣㅇ -11760
▁ㅂㅐㄴㅋㅜㅂㅓ -11761
▁ㅈㅏㄹㅏㄴㄷㅏ -11762
OD -11763
ㅇㅡㄹㅗ -11764
▁ㅂㅗㄴㄸ -11765
▁ㅋㅓㅅㅡ -11766
▁ㄴㅏㄱㅏㄴ -11767
▁ㅌㅗㅇㅇㅕㄱ -11768
▁ㅇㅠㄴㅂㅗㅅㅓㄴ -11769
GM -11770
ㅁㅣㄴㅏ -11771
ㅎㅘㄴㄱㅕㅇ -11772
▁ㄱㅣㅁㄱㅠㅅㅣㄱ -11773
▁ㅎㅔㄹㄹㅣㅋㅗㅂㅌㅓ -11774
ㄹㄹㅡㄴ -11775
▁ㄱㅏㅈㅡ -11776
▁ㅂㅐㄹㅕ -11777
▁ㄴㅏㅇㅣㄴ -11778
▁ㄱㅘㄴㅁㅜㄴ -11779
▁ㅌㅡㄱㅈㅓㄴ -11780
▁ㅇㅠㄴㅕㄴㄱㅣ -11781
▁ㄷㅗㅇㄷㅐㅁㅜㄴ -11782
▁ㄴㅟ -11783
▁ㅎㅕ -11784
▁ㅆㅣㅇㅏ -11785
▁ㅋㅏㄴㅏ -11786
▁ㅎㅏㄹㅠ -11787
▁ㅂㅕㅇㅁㅏ -11788
▁ㅇㅕㅇㅇㅖ -11789
ㅣㅇㅏㄱㅜㄴ -11790
▁ㅊㅏㅇㅁㅜㄴ -11791
▁ㅌㅏㅂㅅㅣㄴ -11792
▁ㅍㅓㅅㅡㅌㅡ -11793
▁ㄴㅓㅁㅇㅓㄱㅏㅆ -11794
▁MTV -11795
▁ㅍㅜㄱ -11796
▁ㄹㅗㅇㅑㄹ -11797
▁ㅈㅓㄴㄹㅐ -11798
▁ㅈㅜㅇㅣㅂ -11799
▁ㅊㅗㅇㅁㅜ -11800
▁ㅍㅗㅅㅣㄱ -11801
▁ㄱㅣㅁㅇㅝㄴ -11802
▁ㅈㅓㄹㅁㅏㅇ -11803
▁ㅇㅖㅈㅓㅇㅈㅏ -11804
▁ㅎㅐㅈㅣㄴㄷㅏ -11805
▁ㅁㅔㄴㅠ -11806
▁ㅂㅏㄷㅣ -11807
▁ㅍㅏㄷㅗ -11808
▁ㄱㅕㅇㅅㅣ -11809
▁ㄱㅕㅇㅎㅢ -11810
▁ㅊㅗㅇㅇㅐ -11811
▁ㅇㅣㄹㄷㅏㅇ -11812
▁ㅋㅡㄹㄹㅔㅁ -11813
▁ㅊㅣㄴㅇㅟㄷㅐ -11814
▁ㅅㅗㄹㄹㅗㅁㅗㄴ -11815
▁ㅈㅓㅇㅇㅢㄷㅏㅇ -11816
▁Jo -11817
▁ㄱㅏㄷㅡ -11818
▁ㅇㅗㅅㅔ -11819
ㅌㅗㅇㅇㅣㄹ -11820
▁ㅂㅣㅌㅏㅁㅣㄴ -11821
ㄷㅠㅁ -11822
ㅂㅣㅅ -11823
ㅌㅣㅅㅣ -11824
▁ㄹㅣㅌㅓ -11825
▁ㄷㅗㄱㅊㅏㅇ -11826
▁ㅇㅖㅅㅜㅎㅚ -11827
▁ㅎㅐㄹㅣㅅㅡㄴ -11828
ㅋㅗㅌㅗ -11829
▁ㅊㅗㅇㄱㅣ -11830
▁ㄴㅏㅁㅅㅏㄴ -11831
▁ㄹㅣㅈㅗㅌㅡ -11832
▁ㅊㅗㅇㅌㅗㅇ -11833
▁ㄴㅏㅌㅏㄴㅐㅆ -11834
▁NT -11835
▁ㅇㅜㅇㅏ -11836
▁ㅁㅕㅇㅅㅗ -11837
ㄹㅏㅇㅣㄷㅓ -11838
▁ㅋㅔㅍㅡㄹㄹㅓ -11839
▁ㄴㅡㄴㄷㅏㅁㅕㄴ -11840
▁ㅅㅓㅇㄴㅏㅁㅅㅣ -11841
▁ㅊㅓㅎㅏ -11842
▁ㅍㅕㄴㅈㅔ -11843
▁ㅇㅛㄱㅁㅏㅇ -11844
▁ㅂㅜㅇㅝㄴㄱㅜㄴ -11845
▁ex -11846
▁ㅋㅗㅋㅏ -11847
▁ㄱㅓㅁㅈㅓㅇ -11848
ㅇㅏㅇㅣㄹㄹㅐㄴㄷㅡ -11849
▁ㅁㅗㅇㅢ -11850
▁ㅇㅛㅈㅣ -11851
▁ㅎㅘㄱㅣ -11852
▁ㅅㅏㄹㄹㅏ -11853
▁ㅇㅏㄴㅏㅌ -11854
▁ㅍㅗㅊㅏㄱ -11855
▁ㅇㅓㄹㅕㅇㅝㅆ -11856
ㄲㅏㄴ -11857
▁ㅂㅗㅎㅐㅇ -11858
▁ㅇㅞㅇㅣㄴ -11859
ㅅㅡㅌㅗㄹㅏㅇ -11860
▁ㄴㅏㄱㅏㄴㄷㅏ -11861
▁ㅅㅏㄱㅏㄱㅎㅕㅇ -11862
▁ㄹㅔㅅㅡㅌㅗㄹㅏㅇ -11863
ㅍㅔㅇㅣ -11864
▁ㄷㅔㄹㅕㅇ -11865
▁ㅂㅜㄴㅅㅜ -11866
▁ㄷㅐㄷㅐㄹㅗ -11867
▁ㅇㅑㅌ -11868
▁ㄱㅗㅋㅜ -11869
▁ㄷㅗㄱㅛ -11870
▁ㅁㅐㅅㅜ -11871
▁ㅇㅠㅎㅗㄱ -11872
▁ㅈㅜㄱㅇㅣㄴ -11873
▁ㅊㅏㄴㅇㅑㅇ -11874
▁ㅈㅔㅍㅓㅅㅡㄴ -11875
▁ㅋㅓㅁㅍㅠㅌㅣㅇ -11876
ㅘㅇㅑ -11877
▁ㅅㅡㄱ -11878
ㅅㅏㄹㅣ -11879
ㅏㅁㅣㄷㅡ -11880
▁ㅍㅡㄹㅔㅅ -11881
▁ㄱㅏㅈㅕㅇㅗㄴ -11882
▁ㅂㅡㄹㅔㅇㅣㅋㅡ -11883
▁ㄱㅗㅅㅗㄱㅂㅓㅅㅡ -11884
RA -11885
▁ㅇㅡㄹㅈㅣ -11886
▁ㅋㅗㄹㄹㅔ -11887
▁ㅎㅘㅇㅓㅁ -11888
oun -11889
▁ㅃㅛㅈㅗㄱ -11890
▁ㅇㅏㄴㄴㅕㅇ -11891
ㅋㅡㄹㄹㅏ -11892
▁ㅅㅗㅇㅡㅁ -11893
▁ㅅㅣㄹㅈㅓㅇ -11894
▁ㅇㅏㅋㅣㄹㅏ -11895
ㄸㅏㄹㅏ -11896
ㅁㅐㅁㅐ -11897
ㄷㅡㄹㅇㅕ -11898
▁ㅅㅗㄱㅡㄱ -11899
▁ㄷㅐㅎㅏㅂㅅㅣㄹ -11900
▁ㄱㅔㄹㅣ -11901
▁ㅇㅏㅅㅗ -11902
▁ㅁㅐㅋㅣㄴ -11903
▁ㅅㅣㅇㅏㄴ -11904
ㄱㅗㅅㅗㄱㄷㅗㄹㅗ -11905
▁ㅋㅡㄹㄹㅣㄴㅌㅓㄴ -11906
lat -11907
ㄴㅐㅆ -11908
▁ㅈㅜㄱㅗ -11909
▁ㄱㅏㅁㅐㅇ -11910
▁ㅇㅓㅉㅓㄹ -11911
▁ㄱㅘㄴㅊㅓㅇ -11912
▁ㅇㅕㄴㅎㅏㄴ -11913
▁ㅊㅓㄴㅇㅘㅇ -11914
▁ㄱㅣㄴㅌㅔㅆㅡ -11915
EL -11916
fe -11917
▁ㄱㅏㄷㅡㄴ -11918
▁ㅅㅏㅇㅕㄱ -11919
▁ㅅㅜㅇㅑㅇ -11920
▁ㅊㅏㄴㅅㅏ -11921
ㄲㅓㅇ -11922
▁ㅈㅏㄹㅡ -11923
▁ㅂㅏㄱㅈㅗㅇ -11924
▁ㅇㅏㅋㅣㅌㅏ -11925
▁ㅊㅣㅁㅁㅜㄱ -11926
▁ㅅㅡㅌㅗㄱㅎㅗㄹㄹㅡㅁ -11927
az -11928
are -11929
▁ㅍㅓㅁㅍㅡ -11930
ㅅㅣㄴㅁㅜㄴ -11931
▁Fr -11932
ical -11933
ㄷㅡㅅㅡㄴ -11934
▁ㅆㅣㅇㅏㅅ -11935
▁ㅊㅚㅈㅣㄴ -11936
▁ㄱㅜㄱㄱㅗㅇ -11937
▁ㅂㅚ -11938
▁ㄹㅗㄱㅡ -11939
▁ㅎㅓㅈㅓㅇ -11940
▁ㅂㅜㄹㅂㅕㄴ -11941
▁ㅅㅓㅈㅐㅍㅣㄹ -11942
EG -11943
ㅡㅁㅗ -11944
▁ㄹㅗㅂㅓ -11945
▁ㅅㅜㄷㅏ -11946
▁ㅊㅜㅇㅣ -11947
▁ㅅㅓㄴㅊㅓㄴ -11948
▁ㅇㅏㄹㅍㅡㅅㅡ -11949
▁ㅂㅏㅇㅇㅓㅅㅓㄴ -11950
▁ㅍㅕ -11951
ㅗㅅㅗ -11952
ㅌㅔㅅㅡ -11953
▁ㄹㅡㄴㅗ -11954
ㅈㅣㄴㅡㅇ -11955
▁ㄱㅏㄴㅡㄹ -11956
▁ㅁㅏㅋㅔㅅ -11957
▁ㅁㅜㅅㅣㄹ -11958
▁ㅇㅗㄹㅣㅇㅗㄴ -11959
▁@ -11960
▁ㄹㅏㅅㅓ -11961
▁ㅇㅣㄹㅓㅎ -11962
▁ㅇㅣㅈㅓㅁ -11963
▁ㅇㅓㅁㅁㅣㄹ -11964
▁ㅇㅣㄴㄱㅗㅇㅈㅣㄴㅡㅇ -11965
▁sc -11966
▁ㅍㅗㄱㅍㅏ -11967
include -11968
▁ㄹㅣㅍㅡㅌㅡ -11969
▁ㅂㅏㅇㅣㅌㅡ -11970
▁ㅊㅗㅇㅅㅏㄹㅕㅇㄱㅘㄴ -11971
▁ㅆㅏㄴ -11972
▁ㅇㅏㄹㅡㄴ -11973
▁ㅌㅡㄹㅗㅇㅣ -11974
▁ㄴㅐㄹㅕㅈㅕㅆ -11975
ㅕㅅㅓ -11976
▁ㅈㅔㅁㅜㄹ -11977
▁ㅌㅏㅇㅣㄹ -11978
ㅊㅓㄴㅁㅕㄴ -11979
▁ㅂㅜㄴㄹㅠㄱㅜㄴ -11980
▁ㄴㅠㅋㅡㄹㄹㅔㅇㅗ -11981
▁ABC -11982
▁ㅇㅣㅇㅢ -11983
▁ㄷㅏㅁㅂㅗ -11984
▁ㅅㅐㄱㅅㅗ -11985
▁ㅅㅜㅂㅗㄱ -11986
▁ㅅㅡㅌㅔㅂ -11987
▁ㅈㅜㅇㅣㅁ -11988
▁ㅎㅏㅇㅣㅁ -11989
▁ㅁㅏㄴㅈㅏㅇ -11990
▁ㅂㅗㄴㅅㅓㅇ -11991
▁ㅊㅐㅊㅟ -11992
▁ㅌㅏㅅㅡ -11993
▁ㅌㅔㄹㅣ -11994
▁ㄴㅔㅅㅉㅐ -11995
▁ㅇㅛㅅㅣㄷㅏ -11996
▁ㅇㅏㄷㅔㄴ -11997
▁ㅎㅘㅇㅑㄱ -11998
▁ㄱㅕㄹㅂㅕㄹ -11999
▁ㄱㅡㄹㅐㄷㅗ -12000
▁ㅅㅐㅁㅍㅡㄹ -12001
▁ㅂㅗㅅㅜㄷㅏㅇ -12002
▁ㅌㅏㅇㅣㅌㅏㄴ -12003
▁ㅂㅜㄱㅇㅏㅇㅣㄹㄹㅐㄴㄷㅡ -12004
TP -12005
▁": -12006
▁CH -12007
▁ㅎㅏㅋㅣ -12008
▁ㄱㅣㅁㅇㅠ -12009
▁ㅁㅏㅅㅕㄹ -12010
▁ㅂㅕㄹㅅㅔ -12011
▁ㅅㅣㅈㅡㅇ -12012
▁ㅇㅓㄱㅜㄴ -12013
▁ㅋㅡㄹㄹㅣㅂㅡㄹㄹㅐㄴㄷㅡ -12014
▁ㄷㅡㅁㅣ -12015
▁ㅁㅗㅎㅗ -12016
▁ㅇㅏㅇㅗ -12017
▁ㄷㅗㄷㅜㄱ -12018
ㄷㅔㄴㅂㅜㄹㅡㅋㅡ -12019
▁DD -12020
ㅜㅈㅣ -12021
▁ㅋㅔㅇㅣㅍㅡ -12022
▁ㅍㅡㄹㄹㅗㄹ -12023
▁ㅅㅏㅇㅣㅋㅡㄹㄹ -12024
▁AV -12025
▁ㄱㅗㄷㅡㄴ -12026
▁ㅂㅗㅇㅅㅜ -12027
▁ㅇㅕㅇㅇㅠ -12028
ㅌㅔㅅㅡㅌㅡ -12029
▁ㄴㅏㅌㅡㄹㅠㅁ -12030
▁ㅁㅏㅊㅓㄴㄹㅜ -12031
▁ㄹㅗㄹㅣ -12032
ㅊㅏㅇㅎㅗ -12033
▁ㅈㅓㅇㄱㅓ -12034
ㅈㅓㅇㅇㅝㄴ -12035
▁ㅋㅡㄹㅏㅇㅣ -12036
▁ㅌㅜㅈㅏㅈㅏ -12037
▁ㅎㅏㅁㄱㅕㅇㄴㅏㅁㄷㅗ -12038
ㅐㅇㅇㅣ -12039
▁ㄴㅓㅁㅊㅣ -12040
▁ㅂㅔㄴㅊㅓ -12041
▁ㅇㅝㄴㅌㅗㅇ -12042
▁ㅆㅡㅇㅕㅈㅣㄴ -12043
▁ㅃㅐㄴ -12044
▁ㅊㅓㄴㄱㅜㄱ -12045
▁ㅊㅗㅅㅣㄴㅅㅓㅇ -12046
ㅎㅗㅁ -12047
▁210 -12048
ㅜㄹㄹㅜ -12049
▁ㄱㅏㄹㄹㅣ -12050
▁ㅇㅔㅇㅣㅂ -12051
ㅔㅇㅣㅇ -12052
▁ㅅㅗㅈㅜㅇ -12053
▁ㅇㅑㅈㅓㄴ -12054
▁ㅈㅓㄴㅁㅜ -12055
▁ㅌㅚㅈㅣㄱ -12056
▁ㄴㅐㅇㅑㅅㅜ -12057
▁ㅈㅓㄴㄷㅏㅁ -12058
▁ㅋㅚㄹㄹㅡㄴ -12059
▁ㅎㅑㅇㅎㅐㅆ -12060
▁ㅂㅣㅁㅣㄹㄹㅣ -12061
▁ㅌㅏㅇㅣㄱㅓㅅㅡ -12062
ㅣㅂㅏ -12063
▁ㅇㅗㅎㅏㅇ -12064
▁ㅅㅡㄹㅍㅡㅁ -12065
▁ㅈㅏㅊㅣㅈㅜ -12066
ㄷㅐㅍㅛ -12067
▁ㅂㅏㄲㅟㄴ -12068
▁ㅂㅏㅇㅋㅗㄱ -12069
▁ㅅㅓㄴㄱㅜㅈㅏ -12070
▁ㄹㅜㅋㅏ -12071
▁ㅊㅣㄱㅘ -12072
ㅍㅏㅂㅔㅅ -12073
▁ㅇㅗㄴㄷㅏ -12074
▁ㅇㅠㅅㅓㄴ -12075
▁ㄷㅗㅇㅎㅑㅇ -12076
▁ㅇㅝㄴㅎㅏㄴ -12077
▁ㅇㅏㄹㅍㅏㅂㅔㅅ -12078
ㅣㄹㅣㅌㅡ -12079
▁ㄱㅡㄱㅇㅜ -12080
▁ㅊㅏㅊㅜㄹ -12081
▁ㅁㅜㄴㅓ -12082
▁ㅈㅔㅁㅕㅇ -12083
▁ㅅㅓㄷㅐㅁㅜㄴ -12084
ㄴㅛ -12085
▁ㅎㅏㄴㅁㅣ -12086
▁ㅁㅔㅇㅣㅋㅓ -12087
▁ㅇㅏㄴㅌㅔㄴㅏ -12088
▁ㄷㅐㅇㅝㄴㄱㅜㄴ -12089
▁ATP -12090
ㅏㄴㅌㅗ -12091
▁ㅁㅗㅈ -12092
▁ㅌㅔㅋㅡ -12093
▁ㄱㅜㅅㅣㄹ -12094
▁ㅈㅓㅇㅎㅕㅇ -12095
▁ㄱㅕㅇㅈㅓㄴㅊㅓㄹ -12096
▁ㅅㅏㅂㅏㅇ -12097
▁ㅇㅘㅇㄱㅝㄴ -12098
▁ㅇㅠㄱㅕㄱㅅㅜ -12099
ㅔㅁㅗㅇ -12100
▁ㅂㅐㄱㄷㅜ -12101
▁ㅊㅓㄴㄱㅓ -12102
▁ㅅㅔㄴㅌㅣㅁ -12103
▁ㅈㅜㅇㅎㅏㅂ -12104
▁ㅈㅜㅊㅏㅈㅏㅇ -12105
▁ㅇㅗㄹㄹㅏㄱㅏㅆ -12106
▁ㅍㅣㅇㅏㄴㅣㅅㅡㅌㅡ -12107
▁ㄴㅗㄹㅗㄴ -12108
ㅅㅏㄴㄷㅏㅇ -12109
▁ㅅㅏㅁㄹㅣㅁ -12110
▁ㅇㅘㅇㄱㅓㄴ -12111
▁ㅈㅗㅇㅅㅣㄱ -12112
▁ㅌㅏㅇㅣㅇㅓ -12113
▁ㅌㅟㄹㅡㅋㅡ -12114
▁ㅇㅏㅇㅣㅍㅗㄴ -12115
FL -12116
ㄷㅐㅅㅏ -12117
ㅅㅏㄱㅏㄱ -12118
▁ㄷㅐㅈㅗㅇ -12119
▁ㄹㅓㄱㅂㅣ -12120
▁ㅇㅠㅇㅏㄱㅣ -12121
▁ㅎㅏㅂㅊㅣㄴ -12122
▁ㅈㅓㄱㅇㅚㅅㅓㄴ -12123
▁ㅋㅓㄴㅌㅡㄹㅗㄹ -12124
▁ㅁㅗㅇㅓ -12125
▁ㄱㅏㄹㅏㄱ -12126
▁ㅍㅏㅅㅗㄴ -12127
▁ㅎㅘㅇㅅㅗ -12128
▁ㅎㅕㅇㅈㅣㄹ -12129
ㅓㅌㅡ -12130
▁ㄷㅡㄹㅗ -12131
▁ㅇㅕㅇㅠ -12132
▁ㅁㅗㄱㅎㅚ -12133
▁ㅂㅣㅇㅔㄴ -12134
▁ㄱㅣㅁㅎㅕㅇ -12135
▁ㅌㅖㄴㅈㅣㄴ -12136
▁ㅎㅔㄹㅅㅣㅇ -12137
▁ㅍㅡㄹㅏㅇㅣㅁ -12138
▁ㅇㅛㅇㅇㅣㄴㅅㅣ -12139
▁ㅈㅓㅇㅂㅜㄱㅜㄴ -12140
▁ㅇㅏㄹㅡㅁㄷㅏㅇㅜㅁ -12141
▁ㄱㅏㅁㅆㅏ -12142
▁ㅍㅏㄹㅏㄴ -12143
▁ㄱㅏㅇㄹㅕㄹ -12144
ica -12145
▁ㄱㅘㅇㄷㅗ -12146
▁ㅁㅏㄹㄹㅏ -12147
▁ㄷㅡㄷㅣㅇㅓ -12148
ㅊㅏㄶ -12149
ㅓㄹㅓㄹ -12150
▁ㄷㅗㅁㅣ -12151
▁ㅇㅠㅁㅗㄱ -12152
▁ㄱㅏㅁㅊㅏㄹ -12153
▁ㅁㅜㅅ -12154
ㅂㅗㅅㅡ -12155
ㅅㅜㅅㅡ -12156
▁ㄹㅜㅂㅣ -12157
▁ㅁㅗㅅㅔ -12158
ㅅㅗㅌㅗㅇ -12159
▁ㅇㅘㅇㅅㅔㅈㅏ -12160
▁ㅂㅓㄷㅡ -12161
ㅊㅜㅇㄹㅠ -12162
▁ㄱㅗㄷㅣㄱ -12163
▁ㅅㅏㅅㅓㄹ -12164
▁ㅊㅣㄴㅈㅗㄱ -12165
▁ㅇㅕㄴㄱㅡㄱㅂㅐㅇㅜ -12166
ㄷㅏㄹㅡ -12167
ㅂㅏㄹㅏ -12168
▁ㄱㅏㄹㅏ -12169
▁ㄱㅡㅈㅓ -12170
▁ㅇㅗㅋㅡ -12171
▁ㄱㅏㄴㅊㅓㅂ -12172
▁ㄱㅏㅁㅅㅓㅇ -12173
▁ㅂㅜㄹㅊㅏㅁ -12174
ㅎㅐㅅㅏㄹㅇㅣ -12175
▁ㅋㅗㄴㅌㅔㅅㅡㅌㅡ -12176
▁ㅎㅔㄹㅡㅊㅔㄱㅗㅂㅣㄴㅏ -12177
▁ㅁㅏㅊㅏ -12178
▁ㅅㅏㅂㅎㅘ -12179
▁ㅅㅏㅌㅏㅇ -12180
▁ㅇㅣㅁㅈㅓㅇ -12181
▁ㅅㅗㅁㅏㄹㄹㅣㅇㅏ -12182
ey -12183
▁ㄲㅣㅊㅣ -12184
▁ㅈㅜㄴㅅㅜ -12185
▁ㅋㅏㄴㄱㅜㄱ -12186
▁he -12187
ㄴㅗㅁ -12188
▁ㅈㅕㅅㅓ -12189
▁ㅅㅜㄹㅏㄱ -12190
▁ㅇㅐㅈㅓㅇ -12191
▁ㅅㅣㄹㄹㅗㄱ -12192
▁ㅈㅡㄹㄱㅣㄹ -12193
▁ㅎㅜㅈㅣㅇㅘ -12194
▁ㅇㅕㄴㅅㅏㄴㄱㅜㄴ -12195
▁ㅇㅢㅅㅏㅅㅗㅌㅗㅇ -12196
▁1889 -12197
▁ㅂㅏㅇㅊㅣ -12198
▁ㅇㅏㄱㅂㅗ -12199
▁ㅇㅕㄱㅝㄴ -12200
▁ㅇㅖㅇㅑㄱ -12201
▁ㄱㅗㅇㅈㅗㄴ -12202
▁ㅅㅏㄴㅅㅓㅇ -12203
▁ㅅㅗㅇㅅㅣㄴ -12204
▁ㅇㅕㄴㅁㅏㄹ -12205
▁ㅇㅜㄴㅇㅣㅁ -12206
▁ㅂㅡㄹㅜㅋㅡㄹㄹㅣㄴ -12207
▁ㅎㅜㅈㅣㅇㅘㄹㅏㄴㅗ -12208
60 -12209
ㅌㅣㄴㅓㅁ -12210
▁ㅇㅓㄴㅡㄴ -12211
▁ㅅㅏㅁㅈㅗㄴ -12212
▁ㅈㅓㄹㅈㅓㅇ -12213
▁ㅁㅏㄴㅜㅇㅔㄹ -12214
▁ㅍㅡㄹㄹㅐㅌㅣㄴㅓㅁ -12215
ㅜㅇㅔ -12216
▁ㅇㅑㄷㅡ -12217
▁ㅂㅜㄹㄹㅑㅇ -12218
▁ㅈㅣㄱㅌㅗㅇ -12219
▁ㄱㅏㄴㅅㅣㄴㅎㅣ -12220
ㅇㅝㅋㅡ -12221
▁ㅇㅏㄱㅏ -12222
▁ㅈㅣㅈㅏ -12223
ㅈㅗㅇㅣㄴ -12224
▁ㄱㅗㅇㅎㅠ -12225
ㅎㅏㅂㅅㅓㅇ -12226
▁ㅈㅓㄴㅈㅓㄴ -12227
▁ㅋㅏㅋㅏㅇㅗ -12228
▁ㅇㅕㄹㅅㅣㅁㅎㅣ -12229
tern -12230
▁ㅅㅓㅇㅣㅁ -12231
▁ㅇㅚㅎㅕㅇ -12232
▁ㅊㅣㅎㅘㄴ -12233
▁ㄹㅔㅇㅣㅋㅡ -12234
▁ㅍㅐㅌㅡㄹㅣㄱ -12235
▁ㄱㅏㅅㅗㄹㄹㅣㄴ -12236
▁ㅎㅘㄱㅏㅇㅇㅏㅁ -12237
ㅂㅜㄹㅗ -12238
ㅌㅏㅋㅔ -12239
▁ㅇㅢㄹㅠ -12240
ㅋㅐㅅㅡㄹ -12241
ㅜㅇㅏㄹㅡ -12242
▁ㄴㅣㅎㅗㄴ -12243
▁ㅁㅗㄱㅡㅁ -12244
▁ㅂㅗㄴㅈㅏㄱ -12245
▁ㅈㅣㅂㅈㅓㅇ -12246
▁ㅁㅗㄱㅇㅛㅇㅣㄹ -12247
▁ㅅㅡㅋㅏㅇㅜㅌㅡ -12248
▁ㄱㅏㄴㅏㄱㅏㅇㅘㅎㅕㄴ -12249
ㄷㅜㅁ -12250
▁ㄹㅣㅅㅏ -12251
ㅣㄹㄹㅓㅅ -12252
▁ㄷㅐㅇㅕㅇ -12253
▁ㅋㅡㄹㄹㅏ -12254
▁ㄷㅜㄹㅕㅇㅜㅁ -12255
▁AKB -12256
ㅜㄹㅣㅇㅏ -12257
▁ㅁㅜㅎㅕㅇ -12258
▁ㅅㅡㄹㅎㅏ -12259
▁ㅎㅐㄷㅗㄱ -12260
▁ㄱㅓㄴㅈㅓㄴ -12261
▁For -12262
ㅏㄹㅣㄴ -12263
▁ㅇㅘㄹㅏ -12264
ㄱㅣㅁㅜㄹ -12265
▁ㅂㅐㄹㄹㅣ -12266
▁ㅅㅔㄴㅌㅡ -12267
▁ㅎㅏㄴㅈㅜㅇ -12268
▁ㅂㅏㄹㄹㅏㄷㅡ -12269
sh -12270
ㅏㅇㄷㅣ -12271
▁ㄹㅏㅇㅣㄷㅓ -12272
▁ㅇㅗㅂㅏㅁㅏ -12273
▁OST -12274
▁ㄴㅡㄺ -12275
ㅣㄹㅕㄱ -12276
▁ㅊㅓㅈㅣ -12277
▁ㅂㅐㄱㄱㅘ -12278
▁ㄱㅣㅁㅈㅜㄴ -12279
▁ㅇㅕㅇㅈㅓㅇ -12280
▁ㅇㅣㄹㅝㅈㅕㅆ -12281
▁So -12282
▁ㄱㅣㅊㅏ -12283
▁ㄴㅔㅌㅡ -12284
▁ㄱㅣㅁㅈㅐ -12285
▁ㅈㅜㅇㅌㅚ -12286
▁ㅊㅟㅎㅐㅆ -12287
▁ㅊㅏㅈㅇㅏㄴㅐ -12288
▁ㄱㅖㅅㅣ -12289
▁ㅈㅣㅇㅜ -12290
▁ㄷㅏㅇㅟㄴ -12291
▁ㄴㅠㅋㅐㅅㅡㄹ -12292
AF -12293
▁Com -12294
▁ㅇㅠㅎㅢ -12295
ㄷㅓㅇㅇㅣ -12296
▁pr -12297
▁ㅇㅑㄹ -12298
▁ㄱㅕㄱㄹㅣ -12299
▁ㅁㅗㅅㅐㄱ -12300
▁ㅇㅛㅊㅜㅇ -12301
ㅊㅓㄴㄷㅗㅇ -12302
▁ㅅㅣㅁㅅㅏㅇ -12303
▁ㄹㅗㅁㅏㅇㅣㄴ -12304
ㅁㅣㅇㅏㅁ -12305
▁ㅂㅏㄲㅝㅆ -12306
▁ㅈㅏㄱㅁㅜㄹ -12307
▁ㅁㅏㄹㅁㅣㅇㅏㅁ -12308
▁ㅍㅣㄹㅏㅁㅣㄷㅡ -12309
bo -12310
▁ㄹㅣㅇㅗㅇ -12311
IL -12312
▁ㅁㅏㄸㅏㅇ -12313
▁ㅅㅏㅁㅈㅜㅇ -12314
▁ㅇㅣㄹㅝㅈㅣㄴ -12315
▁ㅅㅣㅇㅔ -12316
▁ㅇㅗㅅㅏ -12317
▁ㅈㅏㅈㅔ -12318
▁ㅎㅗㄷㅐ -12319
▁ㅅㅡㅋㅏㄴ -12320
▁ㅇㅠㅇㅢ -12321
▁ㄷㅣㅇㅗㄴ -12322
▁ㅈㅣㅇㅅㅜ -12323
▁ㅅㅗㅇㅊㅜㄹ -12324
▁ㄱㅣㅅㅜㄱㅅㅏ -12325
▁ㄴㅏㄱㄷㅗㅇㄱㅏㅇ -12326
▁Ma -12327
ㅆㅡㄴ -12328
▁Part -12329
▁ㅈㅜㄹㄹ -12330
ㅏㄹㅣㅋㅏ -12331
ㅣㅇㅐㅁㅣ -12332
▁ㄴㅗㅁㅕㄴ -12333
▁ㅂㅗㄹㅌㅡ -12334
▁ㅂㅣㅈㅜㄴ -12335
▁ㄱㅗㅇㅅㅓㅇ -12336
▁ㅎㅏㅇㅁㅏㄴ -12337
▁ㄸㅗㄱㄱㅏㅌㅇㅣ -12338
▁ㅁㅏㅇㅣㅇㅐㅁㅣ -12339
▁Mo -12340
ㅅㅏㄱㅗ -12341
▁ㅌㅜㅇㅕ -12342
▁ㅍㅡㄹㄹㅣ -12343
▁ㅈㅣㅅㅏㅇㅍㅏ -12344
▁ㅅㅐㅇㅈㅗㄴㅈㅏ -12345
▁ㅈㅏㅇㅎㅏㄱㄱㅡㅁ -12346
ㅇㅏㄱㅏㅆ -12347
▁ㄱㅕㅂㅊㅕ -12348
▁ㅇㅛㄱㅕㄱ -12349
▁Live -12350
▁ㅇㅢㄹㅕㅇ -12351
▁ㅇㅡㅁㅇㅜㄴ -12352
▁ㅈㅓㅇㅈㅗㅇ -12353
▁ㅌㅗㄹㅣㄴㅗ -12354
▁ㄱㅗㅇㅎㅠㅇㅣㄹ -12355
▁ㄴㅏㅋㅏㅁㅜㄹㅏ -12356
▁ㄱㅜㄴㅐ -12357
▁ㅁㅣㅅㅜ -12358
ㄱㅜㄱㅅㅏ -12359
ㅌㅡㄴㅓㅁ -12360
▁ㅇㅕㄹㄱㅏㅇ -12361
▁ㅇㅣㄹㅂㅗㄴㄱㅜㄱ -12362
▁ㅈㅏㅇㅠㅁㅣㄴㅈㅜㄷㅏㅇ -12363
▁EU -12364
▁ㅈㅜㄱㅖ -12365
▁ㅇㅡㄴㄱㅓ -12366
▁ㅁㅏㄹㅡㅋㅡ -12367
▁ㅍㅡㄹㅏㄴㅊㅔㅅㅡㅋㅗ -12368
▁Sou -12369
ㅓㅇㅇㅣ -12370
▁ㅈㅗㅇㅈㅏ -12371
▁ㅈㅜㄹㅇㅕ -12372
▁ㅍㅣㅍㅣㄴ -12373
ㅊㅜㅂㅜㅅㅏ -12374
▁ㅎㅏㄴㅅㅣㄴ -12375
▁ㅎㅣㅁㅆㅓㅆ -12376
ㅇㅔㅁㅣㄹㅣㅌㅡ -12377
▁ㅁㅣㅇㅑㅈㅏㅋㅣ -12378
▁ㅇㅏㄹㅏㅂㅇㅔㅁㅣㄹㅣㅌㅡ -12379
ㅁㅓㄱ -12380
▁ㅂㅏㅌㅡ -12381
▁ㄱㅗㅊㅕㅆ -12382
▁ㅇㅛㅇㅇㅢ -12383
▁ㄱㅣㅁㅇㅣㄴ -12384
▁ㅎㅐㄹㅣㅅㅡ -12385
▁ㅊㅠ -12386
▁1848 -12387
ㅍㅜㄹㅇㅣ -12388
▁ㅁㅜㅈㅏㄱ -12389
▁ㄷㅡㄹㅓㄴㅐㅆ -12390
▁ㅂㅕㅇㅈㅏ -12391
▁ㄱㅣㅁㅁㅕㅇ -12392
▁ㅇㅓㅅㅣㅅㅡㅌㅡ -12393
ㄴㅣㅈㅣ -12394
▁JTBC -12395
▁ㄱㅏㄱㅏ -12396
▁ㄱㅣㅇㅣ -12397
ㄷㅡㄹㄹㅓ -12398
▁ㄱㅡㄴㅅㅏ -12399
▁ㅇㅕㅂㅐㅇㅜ -12400
▁ㅇㅝㄴㄱㅜㄴ -12401
▁ㅈㅓㅇㅇㅡㅂ -12402
▁ㅌㅟㄴㅣㅈㅣ -12403
▁ㅍㅡㄹㅏㅇㅅㅡㅇㅣㄴ -12404
▁ㅌㅜㅁ -12405
▁ㅂㅓㅁㅏ -12406
▁ㅋㅜㅍㅓ -12407
ㅅㅡㄹㅕㅇ -12408
▁ㄱㅓㄹㅏㄴ -12409
▁ㅂㅏㄴㅍㅗ -12410
▁ㅇㅑㅇㅅㅣㅁ -12411
▁ㅇㅕㄴㅈㅓㅇ -12412
▁ㅈㅏㅁㅈㅓㅇ -12413
▁ㅍㅡㄹㅏㅇㅅㅡㄹㅕㅇ -12414
▁ㅅㅓㅇㄱㅘㄱ -12415
EE -12416
▁ㅎㅗㄹㅣ -12417
▁ㅁㅗㅇㅛㄱ -12418
ㄷㅗㄹㅡㅍㅡ -12419
▁ㅇㅔㄴㅌㅡㄹㅣ -12420
▁ㄴㅗㄹㄹㅏㅇㅜㄴ -12421
▁ㅅㅔㄴㅌㅣㅁㅣㅌㅓ -12422
▁Col -12423
ㄷㅡㅇㅟ -12424
ㅔㄱㅡㄹㅗ -12425
▁ㄱㅕㄱㅊㅜ -12426
▁ㅂㅗㅈㅗㄱ -12427
▁ㅍㅕㅇㅍㅏㄴ -12428
ㅓㄹㄹㅣㅈㅡㅁ -12429
ㅇㅞㄹ -12430
▁ㅂㅏㅇㅜ -12431
▁ㅇㅠㄱㅗ -12432
▁ㅈㅏㅅㅓ -12433
▁ㅎㅜㅂㅐ -12434
▁ㄱㅟㅅㅣㄴ -12435
▁ㅅㅏㅇㄱㅗ -12436
ㅣㅂㅓㅅㅓㄹ -12437
▁ㅅㅜㄴㅈㅗㅇ -12438
▁ㅇㅣㄴㅊㅣㅇ -12439
▁ㅇㅠㄴㅣㅂㅓㅅㅓㄹ -12440
▁ㅇㅗㄷㅣ -12441
▁ㅌㅡㄹㅜ -12442
▁ㅎㅛㅈㅏ -12443
ㅎㅘㅁㅜㄴ -12444
▁ㄱㅏㅇㅎㅐ -12445
▁ㅍㅗㅌㅓㄹ -12446
▁ㄷㅐㄹㅣㅇㅣㄴ -12447
▁ㅂㅗㅅㅜㅈㅜㅇㅢ -12448
uc -12449
▁ㅅㅓㅌㅐ -12450
▁ㅍㅗㄱㅗ -12451
▁ㅅㅗㅇㄷㅗ -12452
▁ㅇㅑㅁㅏㄴ -12453
▁ㄱㅜㄹㅈㅓㄹ -12454
▁ㄱㅡㅁㅅㅏㄴ -12455
▁ㅅㅡㅂㅇㅠㄴ -12456
▁ㅌㅏㄴㅇㅑㄱ -12457
▁ㄷㅐㅅㅡㅇㅂㅜㄹㄱㅛ -12458
▁"& -12459
▁ㅁㅜㄱㅘ -12460
ㅌㅡㄹㄹㅣ -12461
▁ㄱㅏㄹㅏㅇ -12462
▁ㅌㅐㅇㅏㄴ -12463
▁ㅇㅡㅇㄱㅡㅂ -12464
▁ㅁㅏㄴㅎㅘㄱㅏ -12465
ㅡㅇㅣㄴ -12466
▁ㄱㅏㅆㅡ -12467
▁ㄱㅛㅇㅢ -12468
▁ㅁㅔㅅㅡ -12469
▁ㅎㅐㅌㅐ -12470
ㄹㅣㅇㅌㅓㄴ -12471
▁ㄱㅣㅁㄱㅘㅇ -12472
▁ㅂㅡㄹㅔㅇㅣ -12473
▁ㅇㅣㄱㅅㅜㄱ -12474
▁ㅁㅏㅂㅓㅂㅅㅏ -12475
▁ㄱㅜㄱㅈㅔㅂㅓㅂ -12476
▁ㅈㅜㄹㄱㅣㅅㅔㅍㅗ -12477
ㄷㅗㅇㅓ -12478
▁ㄹㅏㄹㅣ -12479
▁ㅇㅣㅈㅣ -12480
▁ㄱㅣㅁㅌㅐ -12481
▁ㅋㅡㄹㄹㅔㅇㅣ -12482
▁ㅋㅏㅅㅡㅌㅣㅇㅑ -12483
▁API -12484
ㅋㅏㄴㅗ -12485
ㅜㅇㅕㄱ -12486
▁ㅇㅠㅅㅣㄱ -12487
▁ㅁㅗㄴㅣㅌㅓ -12488
▁ㄸㅟㅇㅓㄴㅏㅆ -12489
▁ㄹㅔㄷㅡㅅㅏㄱㅅㅡ -12490
▁ㄴㅛ -12491
▁ㄴㅐㄱㅓㄹ -12492
▁ㅈㅜㅇㅅㅓ -12493
▁ㅅㅣㄴㄱㅗㄱ -12494
ㅍㅡㄹㅏㅇㅣㄴ -12495
▁ㄱㅓㅁㅇㅡㄴㅅㅐㄱ -12496
ㅔㅇㅠ -12497
▁ㅇㅝㅋㅓ -12498
▁ㅁㅗㄱㅓㄴ -12499
▁ㅁㅜㄴㅈㅣㅂ -12500
▁ㅅㅏㅇㅜㄴㄷㅡㅌㅡㄹㅐㄱ -12501
ann -12502
▁ㄹㅠㅋㅠ -12503
▁ㅈㅣㅇㅗ -12504
▁ㅁㅗㄹㅡㄴ -12505
▁ㅂㅐㅂㅜㄴ -12506
▁ㅍㅐㄹㅓㄷㅣ -12507
▁ㅍㅕㅇㅍㅕㅇ -12508
▁ㅈㅓㅇㄱㅓㅈㅏㅇ -12509
▁ㄱㅘㅇㅂㅗㄱㄱㅜㄴ -12510
▁ㄱㅗㅇㅏ -12511
▁ㄱㅣㅇㅘ -12512
▁ㄱㅡㅂㅇㅕ -12513
▁ㅈㅣㄴㄹㅗ -12514
▁ㅇㅜㄹㅜㅅㅡ -12515
▁ㅈㅣㅂㅐㅈㅏ -12516
▁ㅎㅏㄴㄱㅕㄹ -12517
ㅡㄹㅜ -12518
▁Time -12519
▁ㅈㅏㅁㅕㅇ -12520
▁ㅇㅔㅇㅣㅈㅡ -12521
▁ㄷㅐㅂㅓㅂㄱㅘㄴ -12522
ㅓㄹㅅㅡ -12523
ㅅㅏㄹㅕㄱ -12524
▁ㄱㅗㅊㅏㅇ -12525
ㅍㅔㅅㅡㅌㅡ -12526
▁int -12527
▁ㅎㅐㅈㅕ -12528
▁ㅅㅔㄹㅡㄱ -12529
▁ㅊㅜㄹㅕㄱ -12530
▁ㅎㅏㄴㅏㅁ -12531
▁ㅇㅡㅁㅈㅓㄹ -12532
▁BC -12533
ㅅㅐㅁ -12534
▁ㄴㅜㅂ -12535
▁ㅂㅏㄱㅡ -12536
▁ㅍㅣㅇㅗ -12537
▁ㅎㅗㄴㄷㅏ -12538
▁ㄱㅝㄴㅇㅕㄱ -12539
▁ㅇㅠㄹㄹㅣㅇ -12540
▁ㅋㅓㄹㄹㅔㄱ -12541
▁ㅎㅏㄴㄹㅣㅁ -12542
▁ㄱㅛㅌㅗㅇㅂㅜ -12543
ㅓㄱㅣ -12544
▁ㅇㅜㅊㅣ -12545
▁ㅎㅏㅁㅏ -12546
▁ㅂㅗㅇㅎㅘ -12547
▁ㅂㅜㅎㅏㅂ -12548
▁ㄱㅗㅇㅇㅕㅇ -12549
▁ㅁㅣㅇㅑㄱㅣ -12550
▁ㅅㅣㅋㅗㅋㅜ -12551
▁ㅇㅕㅇㅢㄷㅗ -12552
▁ㄷㅓㅂㅡㄹㄹㅣㄴ -12553
▁ㄱㅡㄹㅏㅇㅜㄴㄷㅡ -12554
lay -12555
▁EM -12556
olog -12557
ㅅㅡㅌㅔㄴ -12558
▁ㄱㅣㅈㅓㄴ -12559
▁ㄲㅗㅂㅎㅣ -12560
▁ㅁㅗㅌㅓㅅ -12561
▁ㅈㅐㅇㅣㄹ -12562
▁ㄱㅜㄱㅎㅏㄴ -12563
▁ㅂㅏㄱㅡㄴㅓ -12564
▁ㅇㅏㄹㅂㅔㄹㅡ -12565
row -12566
▁SNS -12567
▁ㄱㅗㅈ -12568
ㄱㅓㄹㅐ -12569
▁ㅇㅣㅁㅗ -12570
▁ㅂㅣㅈㅓㅇ -12571
▁ㅅㅏㅁㅣㄴ -12572
▁ㅈㅐㅍㅐㄴ -12573
▁ㅈㅓㅁㅍㅗ -12574
▁ㅊㅜㅇㅓㄱ -12575
▁ㄷㅗㅇㅈㅣㄴ -12576
▁ㅁㅔㄷㅣㅊㅣ -12577
▁ㅎㅏㄴㅗㅂㅓ -12578
▁ㅂㅜㅊㅗㅇㄹㅣ -12579
▁ㅈㅓㅇㅊㅣㅎㅏㄱ -12580
▁ㅇㅏㄴㅏㄹㄹㅗㄱㅡ -12581
ㅏㄴㅡㄴ -12582
▁ㅍㅔㅅㅡ -12583
▁ㅇㅗㅁㅏㄴ -12584
▁ㅎㅏㅎㅐㅇ -12585
▁ㅅㅣㄴㅔㅁㅏ -12586
▁ㅅㅓㅎㅐ -12587
▁ㄴㅡㄹㅣㄴ -12588
▁ㅁㅏㅈㅊㅜㄴ -12589
▁ㅅㅏㄴㄷㅜㅇ -12590
▁ㅁㅕㅇㅎㅘㄱㅎㅣ -12591
OP -12592
▁ㅎㅔㅂㅣ -12593
ㄱㅣㄹㅗㄱ -12594
▁ㄱㅜㄱㅇㅚ -12595
▁ㄹㅔㅇㅣㄷㅓ -12596
▁ㅇㅏㄹㅣㅇㅏ -12597
▁ㄷㅐㄷㅏㄴㅎㅣ -12598
▁ㅍㅡㄹㅏㄴㅊㅣ -12599
▁ㅅㅐㅇㄱㅕㄴㅏㄴ -12600
▁ㅅㅐㅇㄱㅣㄴㄷㅏ -12601
▁ㅇㅗㅎㅏㅇㅣㅇㅗ -12602
orn -12603
ous -12604
ows -12605
▁ㅋㅜㄴㅣ -12606
▁ㄷㅐㄴㅅㅓ -12607
▁ㅇㅏㄴㄱㅐ -12608
▁ㅇㅓㅂㅈㅏ -12609
▁ㅅㅣㅋㅕㅅㅓ -12610
▁ㅈㅜㅇㅅㅗㄱ -12611
▁ㅊㅗㅇㄱㅕㄱ -12612
▁ㄷㅐㄴㅣㅇㅓㄹ -12613
▁ㅂㅏㅇㅅㅏㄴㅡㅇ -12614
ㅈㅣㅂㅜ -12615
▁ㄷㅗㅋㅜ -12616
ㄱㅛㅌㅗㅇ -12617
ㄱㅣㄹㅕㄱ -12618
▁ㄱㅗㅅㅐㅇ -12619
▁ㅇㅏㄴㄴㅏ -12620
▁ㅅㅓㄹㅁㅜㄴ -12621
▁ㅅㅣㄹㅈㅡㅇ -12622
▁ㅂㅗㄴㅐㄴㄷㅏ -12623
▁ㄴㅜㄹㅕㅆ -12624
▁ㄷㅗㅂㅏㄱ -12625
▁ㄹㅏㅇㅣㅁ -12626
▁ㅃㅏㅈㅕㄴ -12627
▁ㅈㅗㅇㄱㅜㄴ -12628
▁ㅅㅣㅁㅔㄴㅌㅡ -12629
▁GB -12630
▁ㅁㅏㄴㅣ -12631
▁ㅈㅔㅇㅟ -12632
▁ㅌㅡㄱㅎㅘ -12633
▁ㄱㅗㄹㄱㅕㄱ -12634
▁ㄴㅏㅁㅂㅏㅇ -12635
▁ㅋㅓㄹㅣㅇㅓ -12636
▁ㄷㅗㅍㅣ -12637
ㅏㅁㅏㅆㅡ -12638
ㅔㄹㄹㅣㅇ -12639
▁ㄱㅏㅎㅗㄱ -12640
▁ㅈㅣㅂㅓㅂ -12641
▁ㅌㅏㄹㅏㄱ -12642
ㅎㅕㄴㄷㅗㅇ -12643
▁ㄷㅗㅇㅅㅏㄴ -12644
▁ㄱㅡㄹㅐㄴㅌㅡ -12645
▁ㅈㅓㄹㅂㅕㄱ -12646
▁ㅈㅕㅆㅇㅡㄴㅏ -12647
▁ㅅㅓㅆ -12648
▁ㅇㅗㅇㅗ -12649
▁ㅊㅜㄹㅣ -12650
▁ㅌㅏㅇㅜ -12651
▁ㅇㅜㅎㅏㄴ -12652
▁ㅋㅔㄹㅌㅡ -12653
ㅍㅡㄹㅏㅇㅋㅡ -12654
▁ㅋㅏㅁㅔㄹㅜㄴ -12655
▁ㄱㅗㅇㅣㄴㄷㅗㄹ -12656
▁ㄴㅔㄷㅓㄹㄹㅏㄴ -12657
▁ㅂㅗㄹㅏ -12658
▁ㄷㅗㄹㅏㅇ -12659
▁ㄴㅏㅁㄱㅜㄴ -12660
▁ㄷㅏㄴㄱㅕㄹ -12661
▁ㅅㅓㄴㅁㅕㅇ -12662
▁ㅇㅛㅇㅇㅐㄱ -12663
▁ㄱㅜㄷㅜ -12664
▁ㅇㅕㅅㅏ -12665
▁ㅂㅏㄲㅜㄹ -12666
ㅌㅔㅇㅣㄴㅓ -12667
▁ㅁㅜㄴㄷㅏㄴ -12668
▁ㅎㅣㅇ -12669
ㅔㄹㅏㄹ -12670
ㅁㅏㄹㄹㅗ -12671
▁ㅂㅏㅇㄷㅐ -12672
▁ㅈㅗㅇㄹㅗ -12673
▁ㅊㅚㅅㅓㄴ -12674
▁ㄱㅕㅇㅂㅗㄱ -12675
▁ㅁㅏㅇㅣㅇㅓ -12676
ㄹㅐㅇ -12677
▁Bla -12678
▁ㅁㅜㅉ -12679
▁ㅋㅐㅅ -12680
ㅅㅓㅅㅡ -12681
▁ㄱㅏㄲㅏㅇ -12682
▁ㄱㅡㄹㄲㅗㄹ -12683
▁ㄴㅗㄹㅡㅁㅏㅇㄷㅣ -12684
▁ㄱㅘㄴㅎㅕㄴㅇㅏㄱㄷㅏㄴ -12685
▁Your -12686
▁ㄴㅣㅋㅣ -12687
▁ㄱㅗㅇㅅㅗ -12688
▁ㅂㅜㅍㅕㅇ -12689
▁ㅅㅏㄹㅣㅁ -12690
ㅈㅓㅇㄷㅗㅇ -12691
▁ㅇㅔㅅㅡㅍㅔㄹ -12692
▁ㄱㅜㄱㄱㅛ -12693
▁ㅎㅏㅂㅊㅣ -12694
▁ㄱㅘㄴㅅㅏㅇ -12695
▁ㅈㅔㅇㅜㅅㅡ -12696
▁ㅈㅗㅇㅇㅑㅇ -12697
▁ㄹㅏㅇㅣㄴㅇㅓㅂ -12698
▁ㅂㅓㅂㅇㅝㄴㅈㅏㅇ -12699
span -12700
ㅂㅓㄹㅡㄴ -12701
ㅈㅔㅍㅜㅁ -12702
▁ㄱㅏㅈㅜㅇ -12703
▁ㅎㅏㅇㅊㅔ -12704
▁131 -12705
▁ㄴㅕㅇ -12706
▁ㄹㅗㅋㅣ -12707
ㄷㅡㄹㅣㅇㅏ -12708
▁ㄷㅐㄴㅏㅁㅜ -12709
▁ㅅㅣㅋㅕㅇㅑ -12710
▁ㅇㅕㄴㄹㅣㅂ -12711
▁ㅇㅣㄹㄱㅏㄱ -12712
▁ㅈㅓㅈㅣㄷㅐ -12713
▁ㅎㅘㅇㅅㅐㄱ -12714
▁ㅍㅏㅇㅣㄹㄹㅓㅅ -12715
▁onlyinclude -12716
▁GM -12717
▁NASA -12718
ㅂㅔㄹㅌㅡ -12719
ㅔㅇㅣㅋㅏ -12720
▁ㅂㅗㄹㅕㅇ -12721
▁ㄷㅏㄴㄱㅜㄴ -12722
▁ㄹㅔㅇㅣㅌㅡ -12723
▁ㅍㅕㄴㄱㅕㄴ -12724
ㅁㅣㄹㅡ -12725
ㅗㄹㄷㅡ -12726
▁ㅇㅓㅉㅣ -12727
▁ㅋㅓㅅㅓ -12728
ㅋㅏㅇㅣㄴ -12729
▁ㄴㅗㅇㅇㅓ -12730
▁ㄷㅐㄱㅏㅇ -12731
▁ㄱㅏㄴㄹㅑㄱ -12732
▁ㅈㅏㅁㅔㅇㅣㅋㅏ -12733
▁ㅈㅓㅇㅂㅗㅇㅝㄴ -12734
▁Sch -12735
▁ㅆㅏㄱ -12736
▁ㅎㅗㅂ -12737
▁ㅅㅗㅇㅚ -12738
▁ㅅㅜㅅㅣㄱ -12739
ㅣㄹㄹㅏㅇㅣ -12740
▁ㅇㅟㄴㅓㅅㅡ -12741
▁ㅋㅗㄴㅅㅗㄹ -12742
▁ㄱㅏㅂㅡㄹㅣㅇㅔㄹ -12743
▁ㄱㅓㅅㅔ -12744
▁ㄷㅏㅊㅣ -12745
ㅐㄴㅌㅣㄱ -12746
▁ㄱㅓㅁㄱㅓ -12747
▁ㅂㅓㅁㅎㅐㅇ -12748
▁ㅂㅗㅇㅇㅣㄴ -12749
▁ㅎㅕㅇㅂㅓㄹ -12750
▁ㅇㅖㅋㅓㄴㄷㅐ -12751
▁1883 -12752
▁ㅇㅡㄴㅎㅖ -12753
▁ㅈㅜㅅㅏㅇ -12754
▁ㅇㅏㄹㅏㄱㅗㄴ -12755
▁ㅈㅜㅇㅅㅗㄱㅣㅇㅓㅂ -12756
ㅋㅗㄹㅡ -12757
▁ㅂㅏㄲㅜㄴ -12758
▁ㅅㅜㄱㅂㅜ -12759
▁ㅇㅣㅅㅡㅌㅏㄴ -12760
▁ㅇㅕㅇㅎㅘㅅㅏㅇ -12761
▁at -12762
ㅂㅓㄹㅓ -12763
▁ㄱㅗㅁㅏ -12764
▁ㅁㅗㅂㅓㅁ -12765
▁ㄷㅏㄹㄹㅏㅈㅣ -12766
ㄴㅗㄹㅇㅣ -12767
▁ㄱㅐㄱㅊㅏ -12768
▁ㅂㅡㄹㅏㅁ -12769
▁ㅈㅐㅍㅕㄴ -12770
▁ㄱㅏㅇㅎㅐㅇ -12771
▁ㅂㅏㄹㅅㅏㅇ -12772
▁ㅅㅗㄱㄹㅕㄱ -12773
▁ㅈㅓㄹㄱㅏㅁ -12774
▁ㅈㅜㅇㅇㅕㅂ -12775
▁ㅇㅝㄴㅅㅏㄴㅈㅣ -12776
ㅅㅡㅌㅔㄹㅡㄷㅏㅁ -12777
ㅡㅁㅣㄴ -12778
▁ㄴㅣㅋㅗ -12779
▁ㅅㅏㅅㅜ -12780
▁ㅇㅚㅊㅣ -12781
▁ㅈㅜㅇㅅㅜ -12782
▁ㅈㅓㅇㅂㅏㄴ -12783
ㅌㅔㅇㅣㅅㅕㄴ -12784
▁ㅈㅔㅇㅣㅅㅡㄴ -12785
▁ㄱㅗㅇㅎㅘㅈㅓㅇ -12786
▁u -12787
ㅍㅔㅇ -12788
▁ㄱㅜㄴㅣ -12789
▁ㅋㅏㅅㅏ -12790
▁ㄱㅏㅈㅕㄷㅏ -12791
▁ㄱㅣㅁㅇㅠㄴ -12792
▁ㅂㅏㄱㅅㅓㅇ -12793
amp -12794
▁ㄷㅐㅁㅏ -12795
▁ㅇㅑㅇㅚ -12796
▁ㅂㅔㅇㅣㄹ -12797
▁ㅇㅕㄴㅎㅢ -12798
▁ㅇㅕㄴㄱㅜㅎㅚ -12799
▁ㅇㅣㅀㅇㅓㅂㅓㄹㅣㄴ -12800
ㅟㅍㅗ -12801
ㅝㄴㅅㅜ -12802
▁ㄸㅐㄹㅕ -12803
ㅣㄹㄹㅓㅅㅡ -12804
▁ㅈㅓㅂㅎㅏㄴ -12805
▁ㄸㅣㄴ -12806
▁ㅂㅜㄷㅏ -12807
▁ㅇㅏㅇㅣㅈㅡ -12808
▁ㅇㅔㅇㅣㅈㅓㄴ -12809
ㄴㅣㅁ -12810
ㅎㅣㅅㅏ -12811
ㅇㅓㅈㅕㅆ -12812
▁ㄴㅗㄱㅎㅘ -12813
▁ㅁㅏㅈㅊㅜㅁ -12814
▁ㅍㅏㄴㅅㅗㄹㅣ -12815
▁ㅈㅓㄴㅂㅏㄴㄱㅣ -12816
▁ㄱㅜㄱㅈㅓㅇㅇㅝㄴ -12817
▁SA -12818
ㄲㅓㅅ -12819
▁ㄱㅣㅅㅔ -12820
▁ㅅㅣㄴㅗ -12821
▁ㄱㅣㄹㅑㅇ -12822
▁ㄷㅏㄷㅡㅁ -12823
▁ㅈㅓㄱㄹㅛ -12824
▁ㅎㅏㄹㅇㅣㄴ -12825
▁ㅎㅐㅅㅏㅇㄷㅗ -12826
ㅈㅏㄹㅜ -12827
▁ㄹㅏㄱㅣ -12828
▁ㄴㅏㄲㅅㅣ -12829
▁ㅇㅠㄱㅗㅇ -12830
▁ㄱㅐㄱㅜㄹㅣ -12831
ㅋㅡㄹㄹㅣㄷㅡ -12832
▁ㄱㅗㅂㅜㄴㄱㅜㄴ -12833
▁ㅇㅠㅋㅡㄹㄹㅣㄷㅡ -12834
▁ref -12835
▁ㅂㅗㄹㅜ -12836
▁ㅇㅕㄹㅈㅓㄴ -12837
▁ㅍㅏㄹㄹㅕㅆ -12838
▁ㄸㅟㅇㅓㄷㅡㄹ -12839
▁ㅂㅜㅅㅏㅇㅈㅏ -12840
CC -12841
ㅏㄱㅟ -12842
▁ㅎㅜㅅㅔ -12843
▁ㄹㅐㅁㅍㅡ -12844
▁ㅍㅡㄹㅣㄴㅅㅡ -12845
80 -12846
▁Ge -12847
▁ㄴㅑㅇ -12848
ㅌㅓㄹㅣㅇ -12849
▁ㅇㅏㄴㅂㅏㅇ -12850
▁ㅂㅜㄱㅇㅠㄹㅓㅂ -12851
▁ㅌㅔㄱㅅㅏㅅㅡㅈㅜ -12852
▁ㄱㅛㅎㅑㅇㅇㅏㄱㄷㅏㄴ -12853
ink -12854
ood -12855
ㅇㅜㅁ -12856
ㅡㅅㅔㄴ -12857
▁ㅇㅗㄴㄴㅏㄴ -12858
▁ㅊㅓㄹㅇㅝㄴ -12859
▁ㅂㅣㅅㅓㄱㅘㄴ -12860
ern -12861
ㅗㅌㅡ -12862
▁ㅇㅟㅈㅗ -12863
ㄱㅜㅇㅕㄱ -12864
▁ㄱㅗㅇㅁㅜ -12865
▁ㅆㅣㅈㅗㄱ -12866
ㅌㅣㅁㅗㅇㅓ -12867
▁Or -12868
▁ㄴㅓㅁㅓ -12869
▁ㅇㅣㅎㅚ -12870
▁ㅈㅗㄱㅛ -12871
▁ㅂㅏㅊㅕㅆ -12872
▁ㅅㅏㅇㅕㅇ -12873
▁ㅅㅣㄴㅈㅣ -12874
▁ㅈㅣㅅㅓㄱ -12875
▁ㄱㅓㄹㅊㅕㅅㅓ -12876
▁ㅁㅔㄹㅂㅓㄹㅡㄴ -12877
▁ㅇㅕㄴㅈㅏㅇㅈㅓㄴ -12878
▁Wind -12879
▁ㄱㅗㅇㅢ -12880
▁ㅂㅔㅌㅡ -12881
▁ㅅㅜㅇㅟ -12882
▁ㅋㅏㅅㅣ -12883
▁ㄲㅜㅁㄲㅜ -12884
▁ㅁㅜㄹㄹㅓㄴ -12885
▁ㅅㅡㅋㅐㄴㄷㅡㄹ -12886
▁ㅅㅓㄴㅈㅣㄴㄱㅜㄱ -12887
▁RS -12888
ㄷㅣㅅ -12889
▁1882 -12890
▁ㄷㅗㄹㅐ -12891
▁ㅎㅏㅊㅣ -12892
▁ㅇㅟㄱㅜㄹㅡ -12893
▁ㅋㅗㄹㄹㅓㅁ -12894
▁ㄴㅗㅂㅔㄹㅅㅏㅇ -12895
RT -12896
▁ㄱㅖㅈㅜ -12897
ㄷㅗㄹㅇㅣ -12898
▁ㅅㅣㄱㅅㅡ -12899
▁ㅇㅑㄱㅎㅐ -12900
▁ㅇㅓㄴㄷㅓ -12901
▁ㅂㅜㄴㄷㅏㄴ -12902
▁ㅎㅔㅇㅣㅇㅏㄴ -12903
ㅏㅁㅣㄴ -12904
ㅠㄹㅓㄴ -12905
▁ㄱㅗㄹㅗ -12906
▁ㅅㅔㅅㅡㅂ -12907
▁ㅇㅜㅅㅏㄴ -12908
▁ㄷㅏㄴㅅㅗㄱ -12909
▁ㅋㅏㄹㅗㄹㄹ -12910
▁ㅌㅗㅇㅅㅣㄴㅅㅏ -12911
▁ㅁㅛㅂㅣ -12912
▁ㄷㅏㅇㅣㄴㅗㅅㅡ -12913
II -12914
▁RP -12915
ㅎㅘㅎㅏㄱ -12916
▁ㅅㅏㄴㅇㅛ -12917
▁ㅇㅛㅇㅑㅇ -12918
▁ㄲㅡㄹㅇㅓㅇ -12919
▁ㅅㅏㄴㅌㅣㅇ -12920
ost -12921
▁tv -12922
ㅊㅣㅎㅣ -12923
▁ㅌㅏㄹㅣ -12924
▁ㄱㅘㄴㄹㅖ -12925
▁ㅁㅏㄱㅡㄴ -12926
▁ㅈㅗㄱㅂㅗ -12927
▁ㄷㅏㄹㄹㅏㅆ -12928
▁ㅇㅕㄴㄱㅜㄱ -12929
▁ㅎㅏㅁㄹㅑㅇ -12930
US -12931
ㄷㅗㄹㅏ -12932
ㅂㅡㄹㅡ -12933
▁ㄹㅣㅁㅏ -12934
▁ㅈㅣㄴㅎㅐ -12935
▁ㅇㅘㅇㄱㅜㅇ -12936
▁OB -12937
▁ㄷㅐㅈㅘ -12938
▁ㅆㅏㅇㅣ -12939
ㅂㅣㄱㅜㄴ -12940
ㅡㄹㄹㅏㄴ -12941
▁ㄱㅕㄹㅅㅏ -12942
▁ㅇㅛㅈㅓㄹ -12943
▁ㅈㅏㅂㅎㅕ -12944
▁ㅈㅣㄱㅡㄱ -12945
▁ㅍㅏㅂㅓㄹ -12946
▁ㄱㅘㄴㅇㅏㄱ -12947
▁ㄷㅗㅇㅈㅓㄱ -12948
▁ㅇㅗㄻㄱㅣㄴ -12949
▁ㅍㅡㄹㅗㄱㅡㄹㅐㅁㅓ -12950
▁ㅆㅣㄴ -12951
ㅋㅏㄴㅏ -12952
▁ㅂㅜㄱㅛ -12953
▁ㄱㅓㅅㅓㅇ -12954
▁ㄱㅜㅎㅏㄴ -12955
▁ㅇㅝㄴㄹㅗ -12956
▁ㅍㅛㅈㅓㅇ -12957
▁ㄴㅓㅁㅜㄴㅏ -12958
▁ㅇㅏㅇㅣㅇㅓㄴ -12959
▁ㄱㅜㄴㅅㅏㄹㅕㄱ -12960
40 -12961
▁330 -12962
▁ㅈㅐㄹㅐ -12963
▁ㄴㅐㅇㅣㄹ -12964
▁ㅇㅠㅅㅐㅇ -12965
▁ㅅㅓㅇㅇㅝㄴ -12966
ㅅㅏㄹㄹ -12967
▁ㄹㅣㅈㅡ -12968
▁ㅂㅣㅊㅜ -12969
▁ㅇㅕㄷㅗ -12970
▁ㅎㅚㄱㅟ -12971
▁ㅇㅝㄹㅌㅓ -12972
▁ㅂㅜㄱㄱㅜㄴ -12973
▁ㅇㅑㅁㅏㄱㅏㅌㅏ -12974
▁ㅎㅐㅇㅏㄴㅅㅓㄴ -12975
▁Day -12976
▁ㅅㅔㅇㅛ -12977
▁ㄷㅐㅇㅣㄴ -12978
▁ㅁㅣㅌㅗㅋㅗㄴ -12979
▁ㅁㅣㅌㅗㅋㅗㄴㄷㅡㄹㅣㅇㅏ -12980
ㄱㅡㄹㄹㅣ -12981
ㅎㅕㅂㅎㅚ -12982
ㅞㅇㅣㅌㅡ -12983
▁ㄱㅜㄴㄷㅔ -12984
▁ㅅㅔㄹㅕㄴ -12985
▁ㅊㅚㅇㅕㅇ -12986
▁ㄴㅐㅅㅔㅇㅜ -12987
▁ㄷㅏㄴㅈㅓㅇ -12988
▁ㅈㅓㅇㅈㅓㅇ -12989
ㅉㅜㄱ -12990
▁Girl -12991
▁ㅅㅏㅅㅓ -12992
▁ㄱㅗㅎㅡㅇ -12993
▁ㅂㅡㄹㅣㅅ -12994
▁ㅈㅜㅅㅓㄴ -12995
ㅏㅇㅣㄹㄹㅓ -12996
▁ㄱㅡㅂㅈㅡㅇ -12997
▁ㅌㅗㅁㅏㅌㅗ -12998
▁ㄷㅗㅇㅅㅣㄷㅐ -12999
▁ㅈㅜㅇㄱㅗㅇㄱㅜㄴ -13000
▁La -13001
ㅣㄱㅗㅇ -13002
▁ㅅㅏㄴㅅㅡ -13003
▁ㅈㅏㅇㄷㅓㄱ -13004
▁ㅈㅓㅇㅇㅝㄹ -13005
▁ㅎㅏㅇㅇㅝㄴ -13006
▁ㅇㅓㄱㅡㅅㄴㅏ -13007
▁ㅍㅏㅅㅣㅈㅡㅁ -13008
▁ㅋㅜㅂㅣㄹㄹㅏㅇㅣ -13009
▁ㄱㅘㄴㄱㅖㅇㅓㅄㅇㅣ -13010
▁ㅂㅐㄷㅏㄹ -13011
▁ㅅㅏㅇㅏㄴ -13012
▁ㅊㅟㅎㅏㄴ -13013
▁ㅂㅡㄹㄹㅜㅁ -13014
▁ㅈㅓㅇㅇㅡㄴ -13015
▁ㅎㅕㅂㅇㅓㅂ -13016
▁ㅎㅣㅂㅡㄹㅣ -13017
▁ㄱㅣㄴㅕㅁㅇㅣㄹ -13018
▁ㅅㅣㅈㅡㅇㅗㅋㅏ -13019
▁ㅇㅕㅇㅇㅝㄴㅎㅣ -13020
▁ㅍㅣㄹㄹㅣㅂㅅㅡ -13021
▁ㅇㅗㅁㅣ -13022
ㅋㅏㄹㄹㅣ -13023
▁ㄹㅐㅇㅋㅡ -13024
▁ㅂㅓㅂㄱㅘㄴ -13025
▁ㄷㅏㄹㅇㅏㄴㅏㅆ -13026
▁ㅁㅣㅅㅡㅌㅓㄹㅣ -13027
▁ㅇㅣㅅㅡㅌㅏㄴㅂㅜㄹ -13028
ㅛㄴ -13029
ㄹㅔㅅㅡ -13030
ㅎㅐㅇㅑ -13031
▁ㄴㅡㄲㅣㄹ -13032
▁ㄷㅓㅍㄱㅐ -13033
ㅇㅠㅇㅎㅏㅂ -13034
▁ㄷㅐㅍㅛㅈㅏ -13035
▁ㄹㅣㅁㅣㄱㅅㅡ -13036
▁ㅍㅖㄱㅣㅁㅜㄹ -13037
▁ㅂㅜㅍㅏ -13038
▁ㅋㅗㅅㅣ -13039
ㅎㅏㄱㅔㄴ -13040
▁ㅂㅜㅇㅘㅇ -13041
▁ㅅㅓㅇㄷㅗㅇ -13042
▁ㄷㅐㅅㅏㅇㅈㅏ -13043
▁ㅅㅏㅇㅣㅌㅏㅁㅏ -13044
ㅌㅗㅋㅡ -13045
▁ㅇㅓㅍㅏ -13046
▁ㅇㅠㅅㅓ -13047
▁ㄱㅛㅈㅣㄱ -13048
▁ㅎㅏㅇㄹㅗ -13049
▁ㅈㅣㄱㅅㅗㄱ -13050
▁ㄷㅗㄱㅅㅜㄹㅣ -13051
▁ㅎㅛㄱㅗㅎㅕㄴ -13052
▁ㅎㅐㄱㅇㅠㅇㅎㅏㅂ -13053
▁ㅍㅔㅂ -13054
ㅎㅗㄹㅏㄴ -13055
▁ㄷㅡㄹㄹㅕ -13056
▁ㅅㅜㅇㅕㄹ -13057
▁ㅇㅜㅇㅝㄹ -13058
▁ㅈㅜㅊㅏㅇ -13059
▁ㅅㅣㄱㅇㅛㅇ -13060
▁ㄹㅏㅍㅏㅇㅔㄹ -13061
▁ㅅㅠㅍㅓㅋㅓㅂ -13062
▁LED -13063
▁ㅍㅛㅇ -13064
▁ㅍㅗㅌㅗ -13065
▁ㅎㅏㅋㅗ -13066
▁ㅋㅗㅍㅔㄴ -13067
▁ㄱㅏㅇㅅㅓㅇ -13068
▁ㅅㅏㅇㄹㅗㄱ -13069
▁ㅈㅏㅁㄲㅏㄴ -13070
▁ㅈㅗㅇㅇㅕㅇ -13071
▁ㄷㅏㄴㅊㅔㅈㅓㄴ -13072
▁FK -13073
▁ㅅㅓㅁㅕㄴ -13074
▁ㅇㅏㅁㅗㄱ -13075
▁ㅈㅗㅅㅔㅂ -13076
▁ㄷㅔㄴㅣㅅㅡ -13077
▁ㅍㅡㄹㅐㄴㅊ -13078
▁ㅎㅕㅇㅍㅕㄴ -13079
ㅈㅣㄴㅡㄹㅓㅁㅣ -13080
▁ㅋㅓㄴㅌㅡㄹㅗㄹㄹㅓ -13081
▁ㄱㅣㅎㅐ -13082
▁ㅌㅐㄱㅡ -13083
▁ㄷㅗㅇㅍㅗ -13084
▁ㄴㅗㅎㅇㅣㄴ -13085
▁ㄹㅔㅇㅗㅍㅗㄹ -13086
▁ㅇㅓㅇㅜㄹㄹㅣ -13087
▁ㅁㅜㅅㅣㄹㅈㅓㅁ -13088
▁ㄷㅡㅂ -13089
▁ㅈㅗㅅㅠ -13090
▁ㅈㅣㄹㅡ -13091
▁ㅁㅏㅌㄱㅣ -13092
▁ㄱㅏㅇㄷㅏㅇ -13093
▁ㅂㅏㄹㄷㅗㅇ -13094
▁4000 -13095
▁ㄷㅡㄹㅔ -13096
▁ㅌㅏㅅㅜ -13097
▁ㅎㅜㅇㅖ -13098
▁ㄷㅏㄴㅁㅏㄹ -13099
▁ㅂㅏㄷㄷㅡㄹ -13100
▁ㅅㅏㅎㅚㅁㅣㄴㅈㅜㄷㅏㅇ -13101
OT -13102
ㅣㄱㅐ -13103
ㅗㄱㅓㄴ -13104
▁ㅂㅗㄹㅡㅁ -13105
▁ㅂㅜㅇㅏㄴ -13106
▁ㅈㅔㅊㅓㄴ -13107
▁ㅍㅕㅇㅈㅣ -13108
▁ㄱㅜㄴㅂㅓㄹ -13109
▁ㅈㅣㄴㅎㅏㄴ -13110
▁ㅇㅏㄹㅇㅏㅂㅗ -13111
oll -13112
▁ㄹㅓㅇㅣㄹ -13113
▁ㄹㅔㅇㅣㅁ -13114
▁ㅎㅗㄹㄹㅣ -13115
▁ㅂㅣㅎㅐㅅㅓ -13116
▁ㅇㅏㅍㅅㅓㄴ -13117
▁ㅈㅡㅇㅍㅗㄱ -13118
▁1868 -13119
▁ㄱㅏㄴㅅㅏ -13120
▁ㄷㅐㅈㅣㄴ -13121
▁ㅈㅗㅇㅕㅇ -13122
▁ㅍㅏㅍㅜㅇ -13123
▁ㄴㅔㄹㅅㅡㄴ -13124
▁ㅂㅓㄴㅊㅏㅇ -13125
▁ㅇㅐㅇㄱㅡㄹ -13126
▁ㅈㅣㄴㅣㄴㄷㅏ -13127
▁ㅁㅜㄷㅎㅕㅆ -13128
▁ㅅㅓㅅㅏㅅㅣ -13129
▁ㅅㅏㅇㅓㅂㅅㅗ -13130
▁ㅇㅗㅅㅡㅌㅣㄴ -13131
▁ㅅㅏㅊㅣ -13132
▁ㅌㅐㅎㅜ -13133
▁ㄱㅠㅌㅏㄴ -13134
▁ㅅㅏㅊㅓㄴ -13135
▁ㄱㅘㄴㅁㅗㄱ -13136
▁ㄸㅓㅇㅗㄹㅡ -13137
▁ㅇㅏㄴㅌㅣㅇㅗ -13138
▁ㅇㅏㅋㅔㅇㅣㄷㅡ -13139
▁ㅍㅡㄹㅐㄴㅊㅏㅇㅣㅈㅡ -13140
▁ㄱㅘㅁ -13141
▁ㅉㅓㄴ -13142
▁ㅇㅜㅅㅣ -13143
▁ㅅㅏㄴㅅㅣ -13144
▁ㅇㅟㄹㅕㄱ -13145
ㅈㅏㄴㅣㅇㅏ -13146
▁ㅅㅣㄴㅇㅣㅂ -13147
▁ㅇㅗㅇㅣㄹㄹㅓ -13148
ㄱㅗㅇㅅㅏㄴㄷㅏㅇ -13149
▁ㅇㅕㅅㅓㅇㅈㅜㅇㅢ -13150
ㅣㅍㅏ -13151
ㅏㄹㄹㅑㅇ -13152
▁ㄴㅐㅂㅜㄴ -13153
▁ㅁㅗㄴㅌㅔㄴ -13154
ㅡㅇㅣ -13155
ㅇㅓㅅㅏ -13156
▁ㅅㅐㅇㅜ -13157
ㅂㅡㄹㄹㅣ -13158
▁ㅈㅔㄷㅏㄴ -13159
▁ㅈㅓㅇㄹㅕㅇ -13160
▁ㅎㅠㄱㅔㅅㅗ -13161
▁ㅂㅓㅂㅈㅗㅇㅣㄴ -13162
▁ㅇㅏㅇㄱㅗㄹㄹㅏ -13163
▁ㅈㅔㄱㅏㄹㄹㅑㅇ -13164
▁ㄱㅏㅌㅗ -13165
▁ㅍㅔㄹㅗ -13166
▁ㅎㅚㄱㅗ -13167
▁ㅇㅕㅁㄹㅕ -13168
▁ㅇㅠㅇㅕㅇ -13169
▁ㅋㅡㄹㅣㅇ -13170
▁ㄷㅣㄹㄹㅓㄴ -13171
ㅗㅅㅗㄱㄷㅗㄹㅗ -13172
▁ㅁㅔㄹㅣㄹㄹㅐㄴㄷㅡ -13173
ㅅㅓㄴㅣ -13174
ㅂㅗㄴㅂㅜ -13175
ㅍㅏㅇㅇㅣ -13176
▁ㄱㅘㅌㅔㅁ -13177
▁ㅇㅔㄴㄹㅣ -13178
▁ㅋㅔㄴㅌㅡ -13179
▁ㅅㅓㅇㅇㅏㄱ -13180
▁ㄱㅘㅌㅔㅁㅏㄹㄹㅏ -13181
▁ㅇㅜㅇㅔ -13182
▁ㅇㅑㅇㅂㅗ -13183
▁ㄱㅡㅁㅈㅓㄴ -13184
▁ㄴㅡㅇㄷㅗㅇ -13185
▁ㄱㅡㅂㅅㅗㄱㅎㅣ -13186
ㅜㅌㅡ -13187
▁ㅎㅏㅇㅢ -13188
▁ㅂㅐㅇㅕㄱ -13189
▁ㅍㅓㅈㅡㄹ -13190
▁ㅂㅏㄺㅎㅕㄴ -13191
▁ㅍㅜㅇㅔㄹㅡㅌ -13192
▁320 -13193
▁ㄱㅏㄱㄹㅛ -13194
▁ㄷㅏㅇㅣㄹ -13195
▁ㅅㅓㅊㅗㄱ -13196
▁ㅈㅓㅁㄱㅓ -13197
▁ㅂㅏㄱㅅㅏㅇ -13198
▁ㄱㅕㅇㅈㅜㅅㅣ -13199
▁ㅍㅣㅅ -13200
ㄱㅓㅈㅣ -13201
▁ㅊㅓㅇㄱㅖ -13202
▁ㄹㅗㅁㅏㅈㅏ -13203
▁ㅈㅓㅂㅇㅓㄷㅡㄹ -13204
▁ㄴㅠㅁ -13205
▁ㅆㅏㅇㅜㄴ -13206
▁ㅈㅓㄹㅈㅔ -13207
▁ㄱㅜㄱㅊㅓㄹ -13208
▁ㅅㅡㅂㄱㅘㄴ -13209
▁ㅇㅕㅇㄷㅓㄱ -13210
▁ㅈㅓㅂㅈㅗㅇ -13211
▁ㄹㅜㅇㅣㅈㅣㅇ -13212
▁new -13213
▁ㄱㅕㄱㅌㅜ -13214
▁ㄹㅏㅇㅜㄹ -13215
▁ㅂㅏㄹㅈㅓㄴㄱㅣ -13216
▁ㄹㅔㅇㅣㄴㅈㅓㅅㅡ -13217
▁ㅋㅗㅍㅔㄴㅎㅏㄱㅔㄴ -13218
▁ㅁㅗㄴㅌㅔㄴㅔㄱㅡㄹㅗ -13219
▁ㅉㅣㅈ -13220
▁ㅈㅓㅈㅗ -13221
▁ㅊㅜㄱㅈㅓㄴ -13222
▁ㅇㅏㅁㅅㅡㅌㅔㄹㅡㄷㅏㅁ -13223
▁ㅇㅑㅋ -13224
ㅎㅣㄷㅡ -13225
ㅔㄱㅏㄹ -13226
▁ㄹㅏㄱㅏ -13227
▁ㅂㅡㄹㅡ -13228
▁ㅇㅚㄱㅘ -13229
▁ㅂㅏㅇㅜㄹ -13230
▁ㅂㅜㄴㅅㅏ -13231
▁ㅊㅗㅇㅏㄴ -13232
▁ㄷㅐㅁㅕㅇㅅㅏ -13233
▁ㅁㅗㅅㅕ -13234
ㅗㅁㅗㄹㅣ -13235
▁ㄷㅡㄴㄷㅏ -13236
▁ㅋㅓㄴㅅㅓㄹ -13237
▁ㅂㅗㅇㅕㅈㅜㄴ -13238
ㅎㅡㄺ -13239
▁ㄴㅗㅎㅜ -13240
▁ㄹㅣㅋㅏ -13241
▁ㄱㅗㅇㅗㄴ -13242
▁ㅅㅐㅇㄹㅣ -13243
▁ㅇㅔㄴㄷㅡ -13244
▁ㅇㅔㅇㅣㄴ -13245
▁ㅇㅜㅇㅘㅇ -13246
ㄱㅡㄹㅏㄷㅡ -13247
▁ㄱㅗㅇㅇㅏㄴ -13248
▁ㄴㅔㄱㅅㅔㄴ -13249
▁ㅎㅓㄴㅈㅏㅇ -13250
▁ㅅㅏㅇㅣㅁㅓㄴ -13251
▁ㄱㅏㄱㅗㅅㅣㅁㅏ -13252
▁ㅂㅗㄱㅇㅡㅁㅈㅜㅇㅢ -13253
▁ㅇㅣㄹㅇㅡㅋㅣㄴㄷㅏ -13254
▁TR -13255
ㅣㅁㅗ -13256
▁ㅊㅣㅎㅏ -13257
▁ㄷㅗㅅㅏㅇ -13258
▁ㅅㅏㅇㅇㅓ -13259
▁ㅇㅏㅆㅇㅓㅆ -13260
▁ㅊㅣㄹㅓㅈㅕㅆ -13261
▁ㅈㅣㅂㅜㅇㄷㅗㄹ -13262
▁ㅋㅏㅅ -13263
▁ㅈㅔㄴㅗ -13264
▁ㅋㅏㅁㅣ -13265
▁ㅅㅜㄹㅑㅇ -13266
▁ㅍㅣㅎㅏㄹ -13267
▁ㅈㅗㅇㅅㅣㄴ -13268
▁ㅇㅔㅅㅡㅍㅔㄹㅏㄴㅌㅗ -13269
▁ㅎㅜㅋㅜㅇㅗㅋㅏㅎㅕㄴ -13270
▁ㅇㅔㅍㅡ -13271
▁ㅈㅏㅅㅜ -13272
▁ㄴㅏㅁㅎㅏ -13273
▁ㅁㅗㄷㅓㄴ -13274
▁ㅅㅐㄴㄷㅣㅇ -13275
▁ㅈㅏㅇㅂㅕㅇ -13276
▁ㅊㅜㄹㄷㅗㅇ -13277
▁ㅍㅕㄴㅎㅑㅇ -13278
▁ㅇㅛㅊㅜㅇㅈㅣ -13279
▁ㅋㅗㅅㅡㅌㅏㄹㅣㅋㅏ -13280
▁DF -13281
▁ㄴㅡㅍ -13282
▁ㅊㅣㅇㅠ -13283
ㅔㅇㅑㅁㅏ -13284
▁ㅈㅓㄴㅅㅔ -13285
▁ㅇㅣㅂㅏㅈㅣ -13286
▁ㅈㅏㄴㅇㅣㄴ -13287
▁ㅇㅜㅇㅢㅈㅓㅇ -13288
▁ㅎㅡㄹㅡㄴㄷㅏ -13289
▁ㅅㅏㄴㅌㅣㅇㅏㄱㅗ -13290
19 -13291
ㄷㅔㄹㅣ -13292
▁ㅇㅟㄹㅗ -13293
▁ㄱㅔㄲㅡㅁ -13294
▁ㅂㅗㄱㅈㅗㅇ -13295
▁ㅅㅓㅇㅅㅏㄴ -13296
▁ㅇㅑㅁㅏㅁㅗㅌㅗ -13297
LA -13298
les -13299
▁ㄲㅚㅎㅏ -13300
▁ㅅㅗㅅㅣ -13301
▁ㅈㅜㅅㅣㅁ -13302
▁ㅈㅓㅇㅁㅗㅇ -13303
▁ㅈㅏㅅㅓㅈㅓㄴ -13304
ㅌㅏㄱㅗ -13305
▁ㅎㅣㅌㅏ -13306
ㄷㅗㄱㄹㅣㅂ -13307
▁ㅅㅏㅇㄱㅜㄱ -13308
▁ㅇㅕㅇㅇㅝㄹ -13309
▁ㅁㅗㄹㅡㄴㄷㅏ -13310
▁ㄹㅜㅇㅣㅈㅣㅇㅐㄴㅏ -13311
▁ㅍㅡㄹㅏㄴㅅㅣㅅㅡㅋㅗ -13312
ㅔㅌㅏ -13313
▁ㅈㅏㅈㅣㄴ -13314
▁ㅊㅏㅅㅓㄴ -13315
▁ㅅㅓㅂㅏㅇㅣ -13316
▁ㅇㅜㅇㅔㅅㅡ -13317
▁ㅊㅜㅇㄹㅕㄹ -13318
ㄷㅣㄴㅏㅂㅣㅇㅏ -13319
▁ㅎㅘㅈㅏㅇㅍㅜㅁ -13320
▁ㅅㅡㅋㅏㄴㄷㅣㄴㅏㅂㅣㅇㅏ -13321
gr -13322
ㅊㅝㅆ -13323
ㅗㄹㅣㅋㅗ -13324
▁ㄱㅣㅁㅅㅓㄴ -13325
▁ㅌㅔㄴㅔㅅㅣ -13326
▁ㅎㅏㄴㅈㅏㅇ -13327
▁ㅇㅟㅇㅏㄴㅂㅜ -13328
▁ㅈㅜㄱㅖㅇㅕㄹ -13329
▁ㄱㅡㅁㅏㄴㅋㅡㅁ -13330
▁end -13331
▁ㅎㅐㅍㅣ -13332
▁ㅌㅗㅁㅅㅡㄴ -13333
▁ㅅㅜㅇㅛㅇㅣㄹ -13334
ung -13335
ㅕㄴㅡㄴ -13336
▁ㅋㅏㅍㅣ -13337
▁ㅂㅔㄴㅊㅣ -13338
▁ㅇㅟㅊㅗㄱ -13339
▁ㅈㅘㅇㅢㅈㅓㅇ -13340
▁ㅇㅛㅎㅏㄴㅔㅅㅡ -13341
▁ㅋㅜㅇㅞㅇㅣㅌㅡ -13342
▁ㅅㅑㅍㅡ -13343
▁ㅇㅏㅇㅜㄱ -13344
▁ㅇㅟㅎㅏㅁ -13345
▁ㄲㅡㅌㄴㅏㄹ -13346
▁ㅊㅓㄹㄱㅏㅇ -13347
▁ㅍㅡㄹㅣㅅㅡ -13348
▁ㅇㅣㅌㅏㄹㄹㅣㅇㅏㅇㅓ -13349
▁ㄴㅔㅌㅣ -13350
▁ㅊㅜㅅㅓ -13351
▁ㅅㅔㅇㅣㄴㅌㅡㄹ -13352
▁ㄷㅗㅇㅁㅐㅇㄱㅜㄱ -13353
▁"() -13354
▁ㅇㅗㅋㅜ -13355
▁ㅅㅜㄴㅊㅏ -13356
▁ㅎㅓㄴㅌㅓ -13357
▁ㅊㅜㄱㅅㅏㄴ -13358
▁ㅅㅣㄴㅈㅜㅋㅜ -13359
▁ㄱㅕㄹㄱㅘㅁㅜㄹ -13360
▁ㅌㅔㄹㄹㅔㅋㅗㅁ -13361
▁ㄱㅏㅁㅕㄴㄹㅏㅇㅣㄷㅓ -13362
▁NP -13363
▁le -13364
ㅍㅏㄱㅜ -13365
▁ㄱㅓㅈㅣ -13366
▁ㅇㅠㅇㅜ -13367
▁ㅇㅕㅇㅇㅏㅁ -13368
▁ㅇㅡㄴㅅㅣㄴ -13369
▁ㅈㅣㄱㅎㅐㅇ -13370
▁ㅅㅓㅎㅐㅇㅏㄴ -13371
▁ㅅㅡㅋㅏㄹㄹㅏ -13372
▁ㄱㅣㅁㅇㅗㄱㄱㅠㄴ -13373
▁ㅇㅔㄹㅡㄴㅅㅡㅌㅡ -13374
▁ㅎㅐㅇㅘㅇ -13375
▁ㄱㅕㄹㅎㅐㄱ -13376
▁ㄷㅏㅇㅣㅇㅓ -13377
▁ㅂㅜㄹㅡㅈㅜㅇ -13378
▁ㄷㅐㅊㅓㅇ -13379
▁ㅁㅜㅇㅓㄴ -13380
▁ㅅㅐㄱㅣㄴ -13381
▁ㅋㅏㅌㅜㄴ -13382
▁ㄷㅏㅇㅎㅏㄹ -13383
▁ㄷㅗㅈㅏㄱㅣ -13384
▁ㅂㅡㄹㅟㅅㅔㄹ -13385
▁ㅅㅣㅌㅡㅋㅗㅁ -13386
ㅈㅣㄱㅐ -13387
▁ㄹㅔㅍㅡ -13388
▁ㅇㅗㄹㅏ -13389
▁ㄱㅗㅈㅣㅂ -13390
▁ㄷㅐㄷㅓㄱ -13391
▁ㅈㅜㅅㅓㅇ -13392
▁ㅌㅐㅇㅓㄴ -13393
▁ㅈㅓㄴㄹㅏㄱ -13394
▁ㅎㅡㅌㅇㅓㅈㅕ -13395
OW -13396
ㅟㄹㅡ -13397
▁ㄱㅐㅅ -13398
▁Comp -13399
▁ㄴㅗㅂㅗ -13400
▁ㄷㅐㄷㅗ -13401
▁ㄹㅣㅋㅗ -13402
▁ㅎㅜㅇㅠ -13403
▁ㅂㅐㅇㅑㅇ -13404
▁ㅎㅏㅁㅎㅡㅇ -13405
▁ㄱㅔㅇㅗㄹㅡㅋㅡ -13406
ㅜㄴㅔ -13407
▁203 -13408
▁ㄱㅏㅍ -13409
▁ㄱㅏㅇㅜ -13410
▁ㅌㅏㄹㅗ -13411
▁ㄹㅣㅌㅠㅁ -13412
▁ㅁㅏㅆㅡㅁ -13413
▁ㄱㅣㄴㅁㅣㄹ -13414
▁ㅈㅓㄴㅎㅏㄱ -13415
▁ㅊㅣㅇㅅㅗㅇ -13416
▁ㅎㅗㅅㅡㅌㅡ -13417
▁colspan -13418
▁ㄱㅛㅇㅠㄱㅈㅏ -13419
▁ㅇㅠㅈㅓㄱㅈㅣ -13420
▁ㅊㅓㄹㅈㅓㅎㅣ -13421
ㅁㅣㅅㅏ -13422
▁ㄱㅛㅂㅜ -13423
▁ㄱㅜㅁㅏ -13424
▁ㅊㅏㅊㅡㅁ -13425
▁ㅊㅗㅋㅗㄹ -13426
▁ㅌㅏㄹㅊㅟ -13427
▁ㅁㅜㄴㅈㅗㅇ -13428
▁ㅇㅏㅂㄹㅗㄱ -13429
▁ㅈㅜㄴㅈㅏㅇ -13430
▁ㅊㅡㄱㄹㅑㅇ -13431
▁ㅊㅗㅋㅗㄹㄹㅣㅅ -13432
▁by -13433
ㄹㅗㄹ -13434
▁ㅈㅗㄹㅗㅇ -13435
▁ㅊㅔㄹㄹㅗ -13436
▁ㅋㅓㄹㄹㅔㄱㅅㅕㄴ -13437
▁ㅍㅜㅇㅔㄹㅡㅌㅗㄹㅣㅋㅗ -13438
▁ㄹㅣㅂㅡ -13439
ㅇㅓㄴㅓㅎ -13440
▁ㄷㅏㅇㅣㅂ -13441
▁ㅂㅓㄹㅇㅕ -13442
▁ㅊㅓㄱㄷㅗ -13443
▁ㄱㅣㅁㅅㅡㅇ -13444
▁ㅇㅝㄴㅎㅘㄹ -13445
▁ㅈㅣㅁㅅㅡㅇ -13446
▁ㄹㅗㅅㅡㅋㅜㄹ -13447
▁ㄷㅗㅋㅏㅇㅣㄷㅗ -13448
ㄱㅏㄹㅡ -13449
▁1893 -13450
▁ㅅㅡㅋㅣㅁ -13451
▁ㅈㅐㅂㅏㄹ -13452
▁ㄴㅗㅍㅇㅕㅆ -13453
▁ㅈㅣㅂㅊㅏㄱ -13454
gin -13455
▁Fe -13456
▁280 -13457
▁ㅋㅔㅁ -13458
▁ㅌㅗㅅ -13459
▁ㅂㅣㄷㅐ -13460
▁ㅍㅔㅇㅗ -13461
▁ㄱㅣㅃㅡㅁ -13462
▁ㅁㅣㅅㅓㅇ -13463
▁ㅇㅑㅇㄷㅐ -13464
▁ㅎㅏㄴㅋㅠ -13465
▁ㄱㅗㅇㅇㅑㅇ -13466
▁ㄱㅏㄹㅏㅇㅏㄵ -13467
▁ㄱㅣㅇㅓㅂㄱㅏ -13468
eth -13469
▁ㄹㅗㅋㅡ -13470
▁ㄴㅏㄹㅡㅁ -13471
▁ㅇㅗㄴㅎㅘ -13472
▁ㅊㅓㄴㅁㅏ -13473
▁ㅎㅡㅂㅅㅏ -13474
▁ㄱㅘㄴㅅㅓㅇ -13475
▁ㅍㅗㄹㄹㅏㄴ -13476
▁ㄴㅣㅋㅗㄹㄹㅏㅅㅡ -13477
ㅈㅔㅇ -13478
ㅅㅏㅇㅜ -13479
ㅇㅞㅇㅣ -13480
▁ㄷㅐㅊㅏ -13481
▁ㅊㅜㄹㅈㅏ -13482
▁ㅍㅖㄹㅕㅁ -13483
ㅋㅏㅁㅗㅌㅗ -13484
▁ㅇㅓㅆㅇㅓㅆ -13485
▁ㅈㅓㅇㅎㅐㅆ -13486
▁ㅎㅡㅇㅂㅜㄴ -13487
▁ㅈㅣㄹㅣㅎㅏㄱ -13488
ㅌㅏㄹㅣ -13489
▁ㄴㅗㅇㅏ -13490
▁ㅅㅓㅈㅜ -13491
▁ㅈㅗㄴㅣ -13492
▁ㅎㅏㄱㅡㅂ -13493
ㅌㅡㄹㅣㅅㅡ -13494
▁ㅁㅣㄹㄹㅕㄴ -13495
▁ㅂㅐㄱㅇㅏㄱ -13496
▁ㅅㅓㄱㅟㅍㅗ -13497
▁ㅅㅓㄴㅇㅣㄴ -13498
▁ㅎㅏㄱㅈㅏㅇ -13499
▁ㄱㅡㄹㄹㅐㅅㅡ -13500
▁ㅎㅐㅇㅏㄴㄱㅏ -13501
▁ㅍㅡㄹㄹㅏㅇㅋㅡ -13502
▁ㅍㅡㄹㄹㅗㄹㅣㄷㅏㅈㅜ -13503
ㅂㅣㅋㅡ -13504
▁ㅎㅏㄱㅜ -13505
ㅅㅏㅇㅅㅣ -13506
ㅣㅇㅓㄹㅣㅇ -13507
▁ㅁㅏㄱㅍㅏㄴ -13508
▁ㅅㅡㅇㅇㅛㅇ -13509
▁ㄴㅏㅌㅏㄴㅏㄹ -13510
▁ㅅㅠㅌㅏㅇㅣㄴ -13511
▁ㅈㅣㅂㅏㅎㅕㄴ -13512
▁ㅍㅔㄹㄹㅣㄱㅅㅡ -13513
▁ㅁㅔㅅㅗ -13514
ㅣㄹㄹㅗㄱ -13515
▁ㄴㅗㅇㅈㅣ -13516
▁ㅇㅓㅇㅞㅇㅣ -13517
▁ㅇㅕㅇㅊㅓㄴ -13518
▁ㅊㅓㄴㅊㅓㄴ -13519
IR -13520
ㅐㄱㅡ -13521
▁IOC -13522
▁ㅇㅣㄴㅗ -13523
▁ㅋㅐㄹㅣ -13524
ㅜㅇㅣㅅㅡ -13525
▁ㄷㅗㅊㅜㄹ -13526
▁ㅂㅏㄴㄷㅗㅇ -13527
▁ㅅㅐㅇㄹㅣㅎㅏㄱ -13528
▁ㅇㅟㅅㅂㅜㅂㅜㄴ -13529
▁ㅊㅓㄴㅇㅏㄴㅅㅣ -13530
▁AB -13531
ㅂㅏㅇㅗ -13532
ㅇㅜㄹㅣ -13533
▁ㄱㅘㅅㅣ -13534
▁ㄱㅏㅎㅐㅆ -13535
▁ㅇㅝㄹㅌㅡ -13536
▁ㅇㅠㅈㅗㄱ -13537
▁TBS -13538
▁ㅇㅣㅎㅘㅇ -13539
▁ㅊㅗㅈㅓㄴ -13540
▁ㅊㅣㅁㄹㅖ -13541
▁ㄱㅡㅁㄷㅗㅇ -13542
▁ㄴㅗㅁㅣㅇㅑ -13543
▁ㅂㅣㅅㅡㅌㅏ -13544
▁ㅁㅣㄴㅂㅕㅇㄷㅐ -13545
▁ㅎㅏㅁㄱㅕㅇㅂㅜㄱㄷㅗ -13546
▁ㅇㅐㅇㅣㄴ -13547
▁ㄷㅗㅇㅑㅁㅏ -13548
▁ㄸㅓㅇㅗㄹㄹ -13549
▁ㅇㅣㅂㅎㅓㄴ -13550
▁ㅋㅏㄹㅅㅠㅁ -13551
▁Univers -13552
▁ㅇㅘㅆㅇㅡㄴㅏ -13553
▁ㄴㅗㄴㄹㅣㅎㅏㄱ -13554
▁ㅈㅗㅈㅔ -13555
ㅂㅜㄱㄱㅜ -13556
▁ㄱㅘㄴㅇㅜ -13557
▁ㅅㅡㅌㅔㅇㅣ -13558
▁ㅈㅓㅁㄱㅓㅁ -13559
▁ㅊㅓㄴㅊㅓㄴㅎㅣ -13560
ㅇㅗㄹ -13561
▁Rock -13562
▁ㅇㅗㅇㅏ -13563
▁ㅈㅔㅊㅓㄹ -13564
▁ㅌㅡㄱㄱㅣ -13565
▁ㅈㅣㅋㅕㅂㅗ -13566
▁ㅌㅏㄴㅈㅏㄴㅣㅇㅏ -13567
ㄷㅟ -13568
▁Rec -13569
▁ㄴㅐㅁㅜ -13570
▁ㅂㅏㅈㅣ -13571
▁ㅅㅡㄱㅏ -13572
ㅡㄱㅗㄴㅠ -13573
▁ㅁㅗㄹㅌㅏ -13574
▁ㅇㅛㅅㅣㄴㅗ -13575
▁ㅇㅠㅎㅏㄱㅈㅏ -13576
▁ㄱㅜㄱㅈㅔㅅㅓㄴ -13577
▁ㅂㅏㄺㅎㅕㅈㅣㄴ -13578
▁ㅂㅜㄹㅡㄱㅗㄴㅠ -13579
▁ㅇㅐㄴㄷㅣ -13580
▁ㅎㅏㄴㅁㅜㄴ -13581
▁ㅍㅣㄱㅊㅓㅅㅡ -13582
▁ㅇㅟㅈㅡ -13583
▁ㅌㅏㅋㅔ -13584
▁ㅅㅜㅁㄱㅣ -13585
▁ㅇㅔㅂㅏㄴ -13586
▁ㅇㅕㄴㅎㅚ -13587
▁ㅌㅡㄹㅔㄴ -13588
▁ㄷㅚㄷㅗㄹㄹ -13589
▁ㅂㅏㄹㅁㅗㄱ -13590
▁ㄷㅏㅅㅡㄹㅕㅆ -13591
▁ㅂㅏㄹㅅㅏㅊㅔ -13592
ㅣㄱㅅㅡㅍㅣㅇㅓ -13593
▁ㅈㅏㅈㅐ -13594
▁ㅅㅣㅁㅜㄴ -13595
▁ㅅㅏㅅㅏㅇㄱㅏ -13596
▁ㄱㅏㄹㅡㅅㅣㅇㅏ -13597
▁ㄱㅗㅇㅂㅏㅇㅈㅓㄴ -13598
▁ㄷㅗㅇㅁㅐㅇㄱㅜㄴ -13599
▁ㅅㅖㅇㅣㄱㅅㅡㅍㅣㅇㅓ -13600
▁ㅁㅜㅁ -13601
▁ㄱㅟㅅㅗㄱ -13602
▁ㅂㅜㄹㄱㅖ -13603
▁ㅅㅗㄷㅗㅇ -13604
▁ㄱㅏㄴㅈㅣㄱ -13605
▁ㄷㅔㅇㅣㄹㄹㅣ -13606
▁ㅇㅜㅇㅜㄹㅈㅡㅇ -13607
▁Sup -13608
▁ㄴㅠㅇ -13609
ㄹㅣㄱㅛ -13610
▁ㅂㅓㅌㅓ -13611
▁ㄴㅏㅁㅜㅅ -13612
▁ㅂㅓㅅㅓㅅ -13613
▁ㅅㅡㄹㅓㄴ -13614
▁ㅇㅛㅇㅍㅜㅁ -13615
▁ㄴㅗㄱㅅㅐㄱㄷㅏㅇ -13616
▁ㅊㅏㅁㅁㅗㅊㅗㅇㅈㅏㅇ -13617
oth -13618
▁Su -13619
▁ㅍㅣㄷㅡ -13620
▁ㄱㅕㅂㅊㅣ -13621
▁ㄱㅘㅇㅣㅇ -13622
▁ㄱㅜㄷㅗㄱ -13623
▁ㅎㅠㅇㅑㅇ -13624
▁ㅇㅏㅁㅁㅗㄴ -13625
▁ㅇㅣㄴㅍㅡㄹㄹㅔㅇㅣㅅㅕㄴ -13626
▁ㄱㅣㅃㅓ -13627
▁ㅇㅟㄱㅖ -13628
▁ㅎㅗㅅㅡ -13629
▁ㅌㅡㄱㅅㅏ -13630
▁ㅅㅓㅊㅗㄱㅜ -13631
▁ㅋㅔㅇㅣㅋㅡ -13632
▁ㅈㅗㅅㅓㄴㅇㅘㅇ -13633
▁ㅅㅜㄴㅇㅑㅇㅎㅏㅁ -13634
▁ㄷㅗㅇㅣ -13635
▁ㅎㅐㅊㅣ -13636
▁ㅇㅣㅂㅗㅇ -13637
ㄱㅗㅇㅇㅓㅂ -13638
▁ㅁㅕㅇㅇㅣㄴ -13639
▁ㅅㅏㅇㅈㅓㅇ -13640
▁ㄱㅏㅇㅘㅅㅏㅋㅣ -13641
▁ㅋㅓㄴㅌㅔㅇㅣㄴㅓ -13642
▁ㅇㅣㄴㄱㅗㅇㅇㅟㅅㅓㅇ -13643
▁IV -13644
▁ㄷㅐㅈㅜ -13645
▁ㅅㅜㄹㅗ -13646
▁ㅈㅐㅊㅏ -13647
▁ㅁㅜㄷㅏㄴ -13648
▁ㄱㅣㅁㅊㅓㄴ -13649
▁ㅅㅓㅍㅗㅌㅓ -13650
▁ㅅㅜㄴㅏㄹㅏ -13651
▁ㄷㅗㄹㅗㄴㅡㄴ -13652
▁ㅈㅜㅇㅇㅏㅇㅇㅡㄴㅎㅐㅇ -13653
▁ㄲㅐㅇ -13654
ㅋㅣㄴㅗ -13655
▁ㅋㅏㅁㅏ -13656
ㅌㅐㅍㅕㅇ -13657
▁ㄱㅕㄱㄹㅕ -13658
▁ㄱㅕㄴㄱㅗ -13659
▁ㄱㅜㄱㅡㅁ -13660
▁ㅅㅣㅅㅗㄱ -13661
▁ㄱㅗㅇㅂㅓㅂ -13662
▁ㅁㅏㄹㄹㅣㄴ -13663
▁ㅊㅓㅇㄹㅑㅇ -13664
▁ㅎㅏㄴㅂㅓㄴ -13665
▁ㅎㅘㅇㅅㅏㄴ -13666
▁ㅋㅏㅌㅏㄹㄹㅜㄴㅑ -13667
ㄷㅔㅇㅗ -13668
▁ㄷㅏㅇㄴㅛ -13669
▁ㅁㅕㅇㅂㅜ -13670
▁ㅈㅏㄹㅣㅂ -13671
▁ㅈㅏㅇㄴㅕ -13672
▁ㅈㅓㄴㅅㅜ -13673
▁ㅍㅏㅍㅕㄴ -13674
▁ㄱㅗㄹㅕㅅㅏ -13675
▁ㅁㅜㄹㄱㅕㄹ -13676
▁ㅂㅜㄹㄱㅕㅇ -13677
▁ㅇㅏㄱㄱㅗㄱ -13678
▁ㅈㅓㄹㄷㅗㅅㅏ -13679
ㅇㅝㄴㅅㅜㅇㅇㅣ -13680
▁ㅁㅐㄲㅡㄹㅓㅇㅜㄴ -13681
ㅅㅜㄹㅗ -13682
ㅅㅡㅇㅘ -13683
▁ㄱㅏㄹㅕ -13684
▁ㄱㅏㅂㅜ -13685
▁ㅎㅗㅋㅡ -13686
▁ㅇㅜㅅㅇㅡㅁ -13687
▁ㅈㅓㅇㅈㅣㄴ -13688
▁ㄱㅏㅇㅎㅘㄷㅗ -13689
▁ㄱㅕㅇㄱㅖㅅㅓㄴ -13690
▁ㄷㅔㅅㅡㅋㅡㅌㅗㅂ -13691
mer -13692
ㅗㄹㅔ -13693
▁ㅁㅏㅋㅏ -13694
▁ㅂㅗㄴㅐㄹ -13695
ㅍㅗㄱㅌㅏㄴ -13696
▁ㅅㅚㄱㅗㄱㅣ -13697
▁ㅅㅣㅁㅁㅜㄴ -13698
▁ㅇㅣㅂㅏㄹㅏ -13699
▁ㅅㅓㅇㅁㅐㅁㅐ -13700
ㅡㄹㅏㅇ -13701
▁ㅁㅏㅋㅣ -13702
▁ㅈㅗㅎㅕㄴ -13703
▁ㅈㅣㄱㄱㅖ -13704
▁ㅅㅡㄹㄹㅐㅁ -13705
▁ㅊㅏㅅㅔㄷㅐ -13706
▁ㅍㅜㅇㅅㅡㅂ -13707
▁ㅎㅕㄴㅍㅏㄴ -13708
▁ㅋㅏㅇㅜㄴㅌㅡ -13709
▁ㅍㅕㅇㅇㅏㄴㄷㅗ -13710
▁230 -13711
▁GNU -13712
▁ㄴㅗㄹㅏㅇ -13713
▁ㅁㅣㅅㅣㄱ -13714
▁ㅂㅔㅌㅔㄹ -13715
▁ㅈㅔㅊㅏㅇ -13716
▁ㅎㅏㅇㅣㄹ -13717
▁CG -13718
ㅣㅇㅣ -13719
▁ㅈㅜㅅㅔ -13720
▁ㅊㅣㅋㅏ -13721
ㅅㅡㅋㅏㄹ -13722
▁ㅅㅗㅇㅛㅇ -13723
▁ㅇㅝㄴㅇㅠ -13724
▁ㅅㅏㄴㅅㅡㅋㅡㄹㅣㅌㅡ -13725
▁Do -13726
▁USB -13727
▁ㅁㅣㅅ -13728
▁1892 -13729
▁ㄴㅗㅍㅡ -13730
▁ㅅㅡㅌㅡㄹㅗ -13731
▁ㅊㅜㄱㅅㅓㅇ -13732
▁ㄷㅏㅇㅣㅂㅣㅇ -13733
▁ㄹㅓㅅㅣㅇㅏㄱㅜㄴ -13734
ㅃㅏㅇ -13735
ㅣㅈㅡㅁ -13736
▁ㄷㅐㅈㅓㅂ -13737
▁ㅈㅜㅁㅓㄱ -13738
▁ㅂㅔㄹㅡㅌㅏ -13739
▁ㅍㅡㄹㅔㅇㅣ -13740
▁ㅁㅏㄹㅡㅅㅔㅇㅠ -13741
▁ㅅㅏㅇㄱㅘㄴㅇㅓㅄㅇㅣ -13742
▁ㅍㅡㄹㅔㅇㅣㅁㅇㅝㅋㅡ -13743
ㅗㄴㅑ -13744
▁Car -13745
▁ㅆㅜㄴ -13746
▁1888 -13747
ㅈㅏㄷㅗㅇ -13748
▁ㅇㅣㅂㅓㅁ -13749
▁ㄲㅡㅌㄴㅐㅆ -13750
▁ㅅㅓㄱㄱㅏㅁ -13751
▁ㅇㅣㅈㅡㅁㅣ -13752
▁ㅍㅏㅇㅣㅍㅡ -13753
▁ㅂㅏㄱㅌㅔㄹㅣㅇㅏ -13754
▁ㄱㅗㅇㅅㅣ -13755
▁ㅁㅕㄴㅁㅗ -13756
▁ㄷㅔㅇㅣㅂㅡ -13757
▁ㅈㅜㅇㅇㅣㄹ -13758
ㅡㅇㅞ -13759
ㅋㅔㅇㅣ -13760
▁ㅋㅠㅂㅡ -13761
▁ㅎㅏㅂㅣ -13762
ㅇㅕㄴㅎㅣ -13763
▁ㅅㅏㅂㅕㄴ -13764
▁ㅇㅣㅇㅡㄴ -13765
▁ㅈㅓㄴㅁㅣ -13766
▁ㅎㅏㅂㅎㅏ -13767
▁ㅇㅝㄴㅅㅏㅇ -13768
▁ㅂㅏㅅ -13769
ublic -13770
▁ㄱㅗㄴㅗ -13771
▁ㅂㅓㄹㅓ -13772
▁ㅈㅏㅇㄹㅐ -13773
▁ㅇㅜㄹㄹㅡㅇ -13774
▁ㅎㅕㅇㅇㅛㅇ -13775
▁ㄱㅡㅁㄴㅏㄹㅏ -13776
▁ㄱㅣㄱㅘㄴㅈㅣ -13777
▁ㄷㅜㄹㄹㅓㅆㅏㅇㅣㄴ -13778
▁from -13779
▁ㅂㅏㅇㅗ -13780
▁ㄱㅕㄴㄷㅣ -13781
▁ㄱㅖㄹㅑㅇ -13782
▁ㄷㅗㅁㅣㄴ -13783
▁ㅈㅐㅇㅏㅇ -13784
▁ㅎㅑㅇㄱㅣ -13785
▁ㄴㅣㄱㅅㅡㄴ -13786
▁ㅅㅔㅂㅣㅇㅑ -13787
▁ㅅㅜㅊㅏㄹㅖ -13788
▁ㅂㅜㄹㄱㅖㅅㅡㅇ -13789
▁ㄷㅓㅅㅂㅜㅌㅇㅕㅆ -13790
ah -13791
▁Sw -13792
ㅇㅢㅅㅏ -13793
▁ㄱㅖㅂㅗ -13794
▁ㅇㅠㅁㅜ -13795
▁ㅇㅣㅅㅏㄴ -13796
▁ㄱㅏㅇㅈㅣㄴ -13797
▁ㅅㅓㄱㅣㄱㅘㄴ -13798
▁ㅅㅔㄴㅔㄱㅏㄹ -13799
▁ㅎㅓㄷㅡㅅㅡㄴ -13800
ㅈㅗㅅㅣㄹㄹㅗㄱ -13801
▁ㄱㅘㄴㅎㅕㄴㅇㅏㄱ -13802
▁ㄱㅗㅌㅡ -13803
▁ㅇㅓㅇㅢ -13804
▁ㅍㅔㄹㅌㅡ -13805
▁ㄹㅗㅇㅣㄷㅡ -13806
▁ㅇㅣㄴㅌㅓㄹ -13807
▁ㅊㅓㅇㅅㅗㅇ -13808
▁ㄷㅏㅁㅕㄴㅅㅓ -13809
▁ㅁㅜㄴㅈㅏㅇㅕㄹ -13810
▁ㄷㅐㅈㅜㅇㄱㅛㅌㅗㅇ -13811
▁ar -13812
▁ㅇㅐㅊㅗ -13813
▁ㅇㅗㄴㄱㅓㄴ -13814
▁ㄷㅡㄹㅇㅓㅅㅓㅆ -13815
▁ㅂㅗㄹㅌㅣㅁㅗㅇㅓ -13816
▁ㅅㅣㅇㅜ -13817
▁ㅌㅚㅇㅟ -13818
▁ㄱㅓㄹㅜㄱ -13819
▁ㅅㅜㄴㄹㅖ -13820
▁ㅅㅜㄹㅕㄱ -13821
▁ㄷㅗㅇㅈㅗㅇ -13822
▁ㅍㅗㄹㅡㅌㅜ -13823
▁ㅍㅔㄹㄹㅣㅍㅔ -13824
ㄷㅡㄹㅔ -13825
▁ㄹㅣㅊㅏ -13826
▁ㅌㅓㅈㅣ -13827
ㄱㅡㄹㅜㅂ -13828
▁ㄱㅏㄱㅗㄱ -13829
▁ㅈㅘㅍㅛㄱㅖ -13830
▁ㅅㅗㅎㅏㄱㄱㅛ -13831
▁ㄹㅗㅂㅣㄴㅅㅡㄴ -13832
▁ㅇㅠㅈㅓㄴㅎㅏㄱ -13833
▁ㅍㅔㄴㅅㅣㄹㅂㅔㅇㅣㄴㅣㅇㅏ -13834
▁ㅋㅏㅇㅘ -13835
ㅓㅅㅣㅇㅏ -13836
▁ㄴㅗㅅㅡㅋ -13837
▁ㅆㅏㅇㄷㅐ -13838
▁ㄴㅗㅇㅊㅜㄱ -13839
▁ㄷㅐㄱㅗㅇㄱㅜㄱ -13840
▁ㅎㅘㄹㄷㅗㅇㄱㅏ -13841
ron -13842
ㅌㅗㅍㅡ -13843
ㅣㅇㅅㅡ -13844
▁ㄷㅏㅌㅔ -13845
▁ㄱㅐㄱㅡㅁ -13846
▁ㄱㅣㅇㅛㅁ -13847
ㄷㅡㄹㅏㅁㅏ -13848
▁ㅂㅗㄱㅅㅣㅇ -13849
▁ㅅㅡㅌㅐㄴㄹㅣ -13850
AE -13851
▁ㅁㅝ -13852
▁1876 -13853
▁ㄱㅏㄴㅔ -13854
ㄱㅓㄹㅇㅣ -13855
▁ㄱㅘㅇㅕㄴ -13856
▁ㄱㅣㅁㅈㅣ -13857
▁ㄷㅏㅅㅣㄱ -13858
▁ㅇㅓㄸㅓㅎ -13859
▁ㅍㅣㅅㅏㄹ -13860
ㅎㅗㅇㅅㅐㄱ -13861
ㅗㄹㄹㅣㄴㅣ -13862
ㅅㅏㅌㅐ -13863
▁ㅂㅗㄹㄹㅗㄴㅑ -13864
DA -13865
▁ㅁㅟㄹ -13866
▁ㅂㅐㅅ -13867
▁ㅋㅣㅇㅝ -13868
ㅅㅣㄱㅘㄴ -13869
▁ㄷㅐㄱㅡㅁ -13870
▁ㅁㅐㄱㅇㅏ -13871
▁ㅇㅗㄹㅡㅁ -13872
▁ㅈㅐㄱㅕㄹ -13873
▁ㅇㅜㅇㅔㅅㅡㄱㅣ -13874
▁ㅍㅡㄹㅣㄴㅅㅡㅌㅓㄴ -13875
▁ㄱㅔㅅ -13876
ㅌㅏㄴㅗ -13877
▁ㅅㅏㅋㅓ -13878
▁ㅍㅓㄴㄷㅡ -13879
▁ㄷㅏㅇㅎㅘㅇ -13880
▁ㄷㅏㅋㅏㄹㅏ -13881
▁ㅇㅣㄹㅈㅣㄴ -13882
▁ㄱㅔㅅㅣㅍㅏㄴ -13883
▁ㅊㅏㅁㅇㅢㅇㅝㄴ -13884
▁ㅎㅐㄱㅕㄹㅊㅐㄱ -13885
▁ㅇㅏㄹㄹㅔㄱㅅㅏㄴㄷㅡㄹㅗㅅㅡ -13886
▁ㄱㅓㅁㅣ -13887
▁ㅁㅔㅋㅏ -13888
▁ㅂㅜㄹㅠ -13889
▁ㅂㅜㄹㅅㅏ -13890
▁ㅎㅐㅂㅕㅇ -13891
▁ㅂㅕㄴㅈㅗㅇ -13892
▁ㅅㅓㄴㅇㅑㅇ -13893
▁ㅇㅑㄱㅈㅓㅁ -13894
▁ㅋㅔㅇㅣㅌㅡ -13895
▁ㅂㅗㅈㅘㄱㅘㄴ -13896
▁co -13897
▁ㄱㅜㄻ -13898
▁ㄷㅗㅈㅔ -13899
▁ㅅㅓㅇㅖ -13900
▁ㅍㅓㅅㅡ -13901
▁ㅍㅣㅇㅜ -13902
▁ㅎㅗㅇㅏ -13903
▁ㅊㅐㅅㅐㄱ -13904
▁ㄷㅐㅈㅓㄴㅊㅏ -13905
▁ㅎㅜㅇㅝㄴㅈㅏ -13906
ㅂㅔㅅ -13907
▁ㅆㅣㅅ -13908
▁ㅍㅔㄱ -13909
ㄷㅜㄹㅏ -13910
▁ㅇㅗㅎㅏ -13911
▁ㅇㅝㅈㅡ -13912
▁ㅍㅏㅇㅜ -13913
▁ㄱㅡㄹㅣㄹ -13914
▁ㅈㅓㅂㅎㅐ -13915
▁ㄱㅗㄹㅕㄷㅐ -13916
▁ㅇㅐㄷㅓㅁㅅㅡ -13917
▁ㅇㅡㄹㅕㄴㅡㄴ -13918
▁ㄴㅗㅅㅡㅋㅐㄹㅗㄹㄹㅏㅇㅣㄴㅏ -13919
▁ㅋㅣㅅ -13920
ㅁㅐㄱㅣ -13921
▁ㄱㅜㅊㅣ -13922
▁ㄷㅔㄷㅡ -13923
▁ㄱㅜㅁㅜㄴ -13924
▁ㅇㅣㅁㄱㅖ -13925
ㅍㅏㅇㅣㅇㅓ -13926
▁ㄱㅜㄴㄱㅘㄴ -13927
▁ㄴㅏㄱㅇㅑㅇ -13928
▁ㅇㅏㅁㅜㄹㅣ -13929
▁ㅍㅡㄹㅣㅁㅣㅇㅓㅁ -13930
▁ㅂㅜㅇㅑㅇ -13931
▁ㅅㅣㄴㅈㅣㄴ -13932
▁ㄷㅓㅇㅇㅓㄹㅣ -13933
ㅡㅁㅣㄴㅅㅡㅌㅓ -13934
▁ㅅㅏㅈㅓㄹㄷㅏㄴ -13935
▁ㅇㅞㅅㅡㅌㅡㅁㅣㄴㅅㅡㅌㅓ -13936
ㅏㅇㅛ -13937
▁Gre -13938
▁1866 -13939
▁ㅅㅡㅁㅣ -13940
ㄱㅛㅇㅣㄴ -13941
ㅁㅗㅅㅕㄴ -13942
ㅂㅏㅇㅣㄴ -13943
ㅅㅔㄹㄹㅓ -13944
▁ㅅㅔㄱㅜㄴ -13945
▁ㅌㅗㅇㅍㅖ -13946
ㅊㅡㅂㅓㄱㅡ -13947
▁ㅇㅛㅇㅇㅢㅈㅏ -13948
▁ㅌㅗㅌㅡㄴㅓㅁ -13949
▁ㅂㅜㄱㅈㅗㅅㅓㄴ -13950
▁ㅅㅏㄱㅏㄴㅇㅝㄴ -13951
▁ㅈㅏㅇㄴㅏㄴㄱㅏㅁ -13952
ㅂㅏㅅㅣ -13953
ㅇㅣㅇㅓ -13954
▁ㄹㅏㄷㅡ -13955
▁ㅅㅑㄹㄹ -13956
▁ㄷㅗㅇㅑㄱ -13957
▁ㅂㅏㄱㅈㅏ -13958
▁ㅋㅗㄴㄹㅏ -13959
ational -13960
▁ㄷㅐㅅㄱㅡㄹ -13961
▁ㄱㅛㄱㅜㅈㅏㅇ -13962
▁ㅅㅡㅌㅔㅇㅣㄴ -13963
▁ㅁㅣㄴㅇㅕㅇㅎㅘ -13964
▁ㅅㅏㄷㅏㄴㅈㅏㅇ -13965
▁ML -13966
ㅌㅏㄴㅠ -13967
▁ㅁㅣㅁㅣ -13968
▁ㅎㅏㄹㅣ -13969
▁ㄱㅣㄴㅋㅣ -13970
▁ㅇㅠㄴㅡㅇ -13971
▁ㅋㅏㅌㅡㄹ -13972
▁ㄱㅣㅅㅌㅓㄹ -13973
▁ㅈㅜㄴㅣㅊㅣ -13974
▁SH -13975
▁ㄲㅗㅈ -13976
▁ㅌㅠㄹ -13977
▁1886 -13978
▁ㅇㅔㅁㅣ -13979
▁ㅈㅚㅅㅜ -13980
▁ㅅㅏㄴㅎㅗ -13981
ㅗㄹㄹㅣㅇㅏ -13982
▁ㅅㅗㅇㅎㅘㄴ -13983
▁SV -13984
ㄴㅡㅈ -13985
ㅇㅠㅇㅖ -13986
▁ㅇㅏㅊㅡ -13987
ㄷㅜㄹㄱㅣ -13988
▁ㅇㅏㄹㅍㅗㄴ -13989
▁ㅈㅓㄴㄱㅝㄴ -13990
▁ㄱㅏㄴㅅㅏㅇㅣ -13991
▁ㅇㅗㄹㄹㅣㅂㅓ -13992
▁ㅈㅏㅇㅈㅔㅅㅡ -13993
▁ㅁㅓㄹㅣㅋㅏㄹㅏㄱ -13994
▁wh -13995
▁ㅋㅔㅅ -13996
▁ㄴㅓㅅㅡ -13997
▁ㄹㅏㄹㅡ -13998
▁ㅍㅜㄹㅡ -13999
▁ㅁㅜㄹㄹㅠ -14000
▁ㅈㅣㅁㅕㄴ -14001
▁ㅍㅗㅌㅏㄴ -14002
▁ㅅㅣㄹㄱㅏㄱ -14003
▁ㅇㅐㅅㅡㄹㄹ -14004
▁ㅈㅗㅅㅡㅇㅇㅜ -14005
▁ㅁㅏㄴㄴㅏㄴㄷㅏ -14006
▁ㅈㅣㅂㅎㅐㅇㅇㅠㅇㅖ -14007
▁260 -14008
ㅌㅏㅅㅡ -14009
▁ㄴㅏㄹㄹㅕ -14010
▁ㄷㅜㄱㅏㄱ -14011
▁ㅂㅐㄱㅈㅏ -14012
▁ㅈㅡㅇㅇㅗ -14013
▁ㅈㅣㄱㅕㅇ -14014
▁ㅁㅗㄹㄹㅏㅆ -14015
▁ㅂㅔㅇㅣㅂㅣ -14016
▁ㅅㅏㄴㅊㅓㅇ -14017
▁ㅅㅡㅂㄷㅡㄱ -14018
▁ㅇㅣㄱㅁㅕㅇ -14019
▁ㅇㅣㅇㅓㅈㅜ -14020
ble -14021
ㅌㅏㄴㅏ -14022
▁Tour -14023
▁ㄷㅗㅎㅏ -14024
▁ㅁㅣㅋㅏㅇ -14025
▁ㅍㅓㅈㅕㅆ -14026
▁ㄱㅏㄴㅎㅗㄱ -14027
▁ㅋㅗㅅㅗㅂㅗ -14028
▁ㅈㅓㄴㅈㅜㅅㅣ -14029
▁ㄱㅜㅅㅡㅌㅏㅍㅡ -14030
▁ㅂㅡㄹㅣㅌㅣㅅㅣ -14031
▁ㅁㅣㅇㅏ -14032
▁ㅋㅏㄴㅣ -14033
▁ㅇㅕㄱㅓㄴ -14034
ㄱㅘㅇㅅㅓㅇ -14035
ㅂㅜㄴㅇㅕㄹ -14036
▁ㅈㅏㄱㅈㅜㅇ -14037
▁ㄱㅕㅇㅇㅕㅇㅎㅏㄱ -14038
▁ㄷㅗㄱㄹㅣㅂㄱㅜㄴ -14039
▁ㅍㅡㄹㅏㄴㅊㅣㅅㅡㅋㅗ -14040
▁ㄷㅗㅅ -14041
ㅣㄹㄷㅡ -14042
▁ㅅㅗㄴㄴㅕ -14043
▁ㄱㅘㅇㅅㅓㄴ -14044
▁ㅈㅗㄴㅏㄹㅏ -14045
▁ㅇㅐㄴㅅㅓㄴㅣ -14046
▁ㅂㅏㄹㅏㅁㅈㅣㄱ -14047
▁ㅂㅡㄹㅡㅌㅏㄴㅠ -14048
▁ㅂㅔㅇㅣㅅㅣㅅㅡㅌㅡ -14049
EST -14050
ㄸㅓㄹ -14051
▁270 -14052
ㅈㅣㄴㅗ -14053
▁ㅇㅛㄱㅚ -14054
ㄲㅜㅁㅊㅣ -14055
▁ㅇㅣㅅㅣㅁ -14056
▁ㅈㅏㄱㅜㅇ -14057
land -14058
ㅈㅕㅇㅑ -14059
▁ㄱㅜㅎㅚㄱ -14060
▁ㅂㅏㄴㅈㅜ -14061
▁ㅂㅏㄹㅇㅢ -14062
ㅊㅏㄹㅡㅌㅡ -14063
▁ㅅㅏㄴㅁㅜㄹ -14064
▁ㅇㅓㄹㄹㅜㄱ -14065
▁ㅈㅓㅇㅎㅘㅇ -14066
▁ㅊㅜㄹㅎㅕㄹ -14067
▁ㅎㅐㅇㅂㅏㅇ -14068
▁ㅎㅗㅇㅅㅓㅇ -14069
ㅅㅡㅇㅞㄹ -14070
▁ㅂㅐㅇㅜㄴ -14071
▁ㅌㅗㅇㅍㅖㅎㅏㅂ -14072
▁KB -14073
ㅋㅡㄹㅣ -14074
ㅓㅇㅝㅆ -14075
ㅣㅁㅜㄹ -14076
▁1887 -14077
▁ㅍㅏㅋㅓ -14078
▁ㄱㅡㅁㅎㅗ -14079
▁ㅅㅐㅇㅁㅗ -14080
ㅅㅡㅌㅜㅅㅡ -14081
▁ㅂㅓㄴㄱㅏㄹ -14082
▁ㅇㅔㄹㄹㅓㄴ -14083
▁ㅊㅗㅅㅂㅜㄹ -14084
▁ㅅㅏㅁㄱㅏㄱㅈㅜ -14085
▁ㅇㅕㄱㅅㅏㅎㅏㄱ -14086
▁ㄷㅗㄹㅇㅏㄷㅏㄴㅣ -14087
▁ㅂㅔㄴㅔㄷㅣㄱㅌㅗ -14088
▁ㅅㅜㅎ -14089
ㅅㅡㅇㅞ -14090
▁1861 -14091
▁ㄹㅔㅌㅡ -14092
▁ㅅㅣㅂㅣ -14093
▁ㅁㅗㄴㅣㅇ -14094
▁ㅎㅐㄴㅐㅆ -14095
▁ㄷㅐㅎㅏㄴㅎㅏㅇㄱㅗㅇ -14096
ㅗㄴㅗ -14097
▁Wii -14098
ㅈㅔㅇㅣ -14099
ㅈㅡㅁㅏ -14100
▁ㄱㅓㅊㅣㄹ -14101
▁ㅅㅔㅂㅜㄴ -14102
▁ㅎㅕㄴㄱㅘ -14103
▁ㅂㅏㄹㅗㅋㅡ -14104
ㅈㅣㅇㅕㄴㅇㅢ -14105
▁ㅇㅏㅇㅣㅋㅗㄴ -14106
▁ㄷㅗㅁㅣㄴㅣㅋㅏ -14107
▁ㅈㅏㅇㅇㅐㅁㅜㄹ -14108
▁ㅅㅏㅁㄱㅜㄱㅈㅣㅇㅕㄴㅇㅢ -14109
▁ㄴㅔㅁ -14110
▁ㄴㅗㅂ -14111
▁ㅋㅏㅇㅑ -14112
▁ㄱㅏㅆㅡㅇ -14113
▁ㅂㅐㅊㅓㄱ -14114
▁ㅂㅗㄴㅊㅔ -14115
▁ㅅㅏㅆㅡㅁㅏ -14116
▁ㅁㅗㅊㅏㄹㅡㅌㅡ -14117
▁ㅊㅜㄱㄱㅜㅌㅣㅁ -14118
▁ㅈㅐㄷㅏㄴㅂㅓㅂㅇㅣㄴ -14119
ㅎㅗㅁㅏ -14120
ㅡㅌㅡㅁ -14121
ition -14122
▁ㄴㅏㅇㅜ -14123
▁ㅂㅏㅂㅣ -14124
▁ㅇㅕㅌㅏ -14125
ㅊㅓㄹㅅㅜ -14126
▁Dream -14127
▁ㅂㅜㅇㅇㅓ -14128
▁ㅂㅣㄱㅂㅐㅇ -14129
▁ㄱㅏㄹㅗㅈㅣㄹㅡ -14130
▁1850 -14131
▁Life -14132
▁ㅅㅏㄴㅐ -14133
▁ㅇㅟㅅㅣ -14134
▁ㅋㅝㅋㅡ -14135
▁ㅍㅗㅎㅘ -14136
▁ㄴㅏㄴㅜㄴ -14137
▁ㄹㅣㅇㅗㄴ -14138
▁ㅇㅣㄹㄹㅓ -14139
▁ㄷㅗㅇㅊㅏㅇ -14140
▁ㄹㅔㅇㅣㄷㅣ -14141
▁ㅎㅏㅂㅊㅓㄴ -14142
▁ㄱㅏㅇㅅㅓㄱㅜ -14143
▁ㄱㅡㄴㄱㅓㅈㅣ -14144
▁ㅂㅜㅂㅜㄴㄱㅜㄴ -14145
▁ㅎㅗㅁㄱㅕㅇㄱㅣ -14146
▁ㅍㅡㄹㅗㅁㅗㅅㅕㄴ -14147
AI -14148
ult -14149
▁ㅇㅠㅍㅗ -14150
▁ㅇㅚㅎㅘㄴ -14151
▁ㄱㅘㄴㅇㅛㅇ -14152
▁ㅅㅐㅁㅠㅇㅓㄹ -14153
▁ㅇㅠㄴㅣㅂㅓㅅㅡ -14154
▁ㅅㅐㅇㅅㅓㅇㅁㅜㄹ -14155
▁ㅍㅔㄹㅡㄴㅏㄴㄷㅗ -14156
▁ㅇㅗㅁㅔ -14157
▁ㅁㅣㅊㅣㄹ -14158
▁ㅈㅏㅍㅏㄴ -14159
▁ㅍㅔㄹㄹㅗ -14160
ㅅㅣㄹㄹㅗㄱ -14161
▁ㅂㅏㄱㅅㅡㅇ -14162
▁ㅎㅘㅇㅛㅇㅣㄹ -14163
▁ㅋㅏㄹㅡㅌㅏㄱㅗ -14164
▁ㅎㅐㅅㅓㄱㅎㅏㄱ -14165
▁ㄱㅗㅇㅇㅕㄴㅈㅏㅇ -14166
▁RT -14167
ㅇㅗㅇ -14168
ㅔㅇㅏㄴ -14169
ㄱㅣㅇㅣㄴ -14170
ㅂㅡㄹㅣㄷㅡ -14171
▁ㅇㅘㄴㄱㅕㄹ -14172
▁ㅋㅓㄴㅌㅔㄴㅊㅡ -14173
▁it -14174
ㄱㅔㄹ -14175
▁ㄹㅔㅈㅡ -14176
▁ㅂㅐㄹㅣ -14177
▁ㄱㅏㄷㅏㄱ -14178
▁ㄴㅗㅎㅇㅣ -14179
▁ㄷㅗㅅㅓㅇ -14180
▁ㅈㅓㅇㅇㅖ -14181
▁ㅍㅣㄴㅣㄱㅅㅡ -14182
orm -14183
▁AG -14184
▁Up -14185
ㅇㅣㅂㅡ -14186
ㅋㅗㅌㅏ -14187
▁ㅁㅗㄱㅜㄱ -14188
▁ㅌㅗㅁㅗㄱ -14189
▁ㅎㅗㄹㄷㅣㅇ -14190
▁ㅇㅛㄱㅡㅁㅅㅗ -14191
▁ㄱㅐㅈㅓㅇㅇㅏㄴ -14192
▁ㄷㅏㅇㅅㅓㄴㅈㅏ -14193
▁ㅁㅏㄹㅡㅋㅜㅅㅡ -14194
▁TC -14195
▁ㅅㅑㅁ -14196
ㅇㅏㅂㅗ -14197
▁ㄴㅣㅋㅗㄴ -14198
▁ㅈㅓㄴㄱㅘ -14199
▁ㅈㅡㅇㅅㅔ -14200
▁ㅂㅗㄴㅓㅅㅡ -14201
▁ㅈㅓㅂㅎㅏㅂ -14202
▁ㅈㅣㅂㅈㅓㅇㄱㅘㄴ -14203
▁ㄹㅐㄱ -14204
▁ㅁㅜㅅㅜ -14205
▁ㅂㅜㄹㅡㅁ -14206
▁ㅂㅜㅅㅣㄹ -14207
▁ㅈㅓㅊㅜㄱ -14208
▁ㅁㅗㄴㅏㅋㅗ -14209
▁ㅅㅣㄴㅅㅣㄴ -14210
▁ㄸㅟㅇㅓㄴㅓㅁ -14211
▁ㅂㅗㅅㅏㄹㅅㅏㅇ -14212
▁ㅅㅓㄴㅈㅔㄱㅗㄹ -14213
ㅣㄱㅣ -14214
▁ㅁㅓㄴㅣ -14215
▁ㅊㅏㅅㅜ -14216
▁ㄱㅏㅇㅅㅔ -14217
▁ㄴㅗㅍㅇㅕ -14218
▁ㅁㅗㄹㄷㅜ -14219
▁ㅂㅗㄱㅇㅟ -14220
▁ㅇㅕㄹㄹㅕㄹ -14221
▁ㅇㅗㅋㅡㄹㄹㅏ -14222
▁ㄴㅏㅇㅁㅏㄴㅈㅜㅇㅢ -14223
▁ㅇㅗㅋㅡㄹㄹㅏㅎㅗㅁㅏ -14224
ㄴㅏㅇ -14225
ㅁㅗㅁ -14226
ㅇㅠㅅㅏ -14227
ㅓㄹㅣㅇ -14228
▁ㄱㅡㅂㅎㅣ -14229
▁ㅇㅣㅂㅕㄹ -14230
▁ㅍㅛㅈㅓㄹ -14231
▁ㅍㅕㄴㅇㅏㄴ -14232
▁ㅎㅘㄴㄱㅘㄴ -14233
▁ㄷㅏㄹㅇㅏㄴㅏ -14234
▁ㄴㅗㄷㅗㅇㄹㅕㄱ -14235
▁ㅎㅏㅇㅣㅂㅡㄹㅣㄷㅡ -14236
▁ㅇㅠㅌㅏ -14237
▁ㅂㅓㅍㅓㄹ -14238
▁ㅇㅣㄴㅗㅇ -14239
▁ㅇㅣㅎㅗㅇ -14240
ㅈㅣㄱㄱㅕㅇ -14241
▁ㄱㅕㅇㅈㅗㅇ -14242
▁ㅍㅕㅇㅎㅐㅆ -14243
▁Ed -14244
ㅋㅕㅆ -14245
ㅗㄴㅣㅇ -14246
▁ㅅㅔㅁㅣ -14247
▁ㅇㅟㅍㅐ -14248
ㄷㅣㅇㅓㄹ -14249
▁ㄱㅕㅇㄱㅓㄴ -14250
▁ㅅㅣㅈㅣㄱㄱㅕㅇ -14251
▁ㄹㅏㅅㅣ -14252
▁ㅇㅏㅇㅠ -14253
▁ㄷㅏㅎㅐㅇ -14254
▁ㅅㅣㄴㅅㅔㄱㅖ -14255
▁ㅋㅡㄹㄹㅔㅁㅔㄴㅅㅡ -14256
▁ㅎㅔㄹㅏㅋㅡㄹㄹㅔㅅㅡ -14257
ㅣㄹㅑㅇ -14258
▁ㅅㅡㄹㅜ -14259
▁ㅇㅣㄱㅕ -14260
▁ㄱㅏㅈㅊㅝ -14261
▁ㅅㅏㄱㅅㅡ -14262
▁ㅍㅐㄱㅝㄴ -14263
▁ㅂㅏㄴㅈㅜㄱ -14264
▁ㄸㅓㄴㅏㄴㄷㅏ -14265
▁ㅇㅏㄹㅇㅏㄴㅐ -14266
▁ㅂㅗㅇㅏㄴㅂㅓㅂ -14267
▁ㅇㅗㅅㅡㅌㅡㄹㅣ -14268
▁ㅅㅡㅌㅡㄹㅣㅁㅣㅇ -14269
ㅓㅁㅏ -14270
▁1864 -14271
▁Open -14272
▁ㄴㅐㅍㅗ -14273
ㄹㅣㅇㅓㅅ -14274
▁ㄱㅘㄴㄴㅐ -14275
▁ㄱㅣㅁㅣㄹ -14276
▁ㅅㅏㄴㅅㅜ -14277
ㄷㅡㅇㅞㅇㅣ -14278
▁ㄱㅘㅇㅇㅓㅂ -14279
▁ㅁㅏㄴㅈㅓㅁ -14280
▁ㅁㅏㅅㅡㅋㅗ -14281
▁ㅍㅣㄹㅇㅕㄴ -14282
▁ㄷㅏㄴㄱㅓㄹㅣ -14283
▁"- -14284
ㅎㅔㄷㅡ -14285
ㅣㅇㅝㄴ -14286
▁1830 -14287
▁ㅇㅐㅇㅘㄴ -14288
▁ㅇㅝㅋㅣㅇ -14289
▁ㅈㅗㄱㅕㅇ -14290
ㅋㅗㄴㅅㅣㄴ -14291
▁ㅁㅏㄴㄴㅏㄹ -14292
▁ㅁㅏㄹㄷㅏㄴ -14293
▁ㅇㅟㅅㅡㅋㅗㄴㅅㅣㄴ -14294
▁ㅇㅖㅇㅢ -14295
▁ㅎㅗㄹㅡ -14296
ㅈㅔㄹㅕㄱ -14297
▁ㄴㅜㄴㅊㅣ -14298
▁ㅅㅡㅍㅣㄹ -14299
▁ㄱㅏㅎㅐㅈㅏ -14300
▁ㅇㅘㅇㄱㅘㄴ -14301
▁ㅍㅡㄹㅏㅇㅋㅗ -14302
▁ㄷㅗㄹㅏㅇㅔㅁㅗㅇ -14303
▁ㅇㅡㅁㅇㅏㄱㅇㅝㄴ -14304
▁ㄹㅏㅈㅏ -14305
▁ㅊㅣㅇㅜ -14306
▁ㅈㅓㄴㄱㅛ -14307
ㅌㅏㄴㅣㅇㅏ -14308
▁ㅈㅜㄱㅇㅣㅁ -14309
▁ㅈㅜㄹㄹㅣㅇ -14310
▁ㅂㅐㄱㅇㅏㄱㄱㅣ -14311
EP -14312
ton -14313
▁ㄴㅗㅇㅣ -14314
▁ㅇㅔㅂㅏ -14315
ㄷㅗㅇㅈㅏ -14316
ㅌㅏㅇㅣㅂ -14317
▁ㄱㅏㄷㅗㄱ -14318
▁ㅍㅏㅈㅣㄱ -14319
▁ㅂㅗㅇㅎㅘㅇ -14320
▁ㄷㅗㄹㅡㅌㅡㅁ -14321
▁ㅈㅐㅍㅏㄴㅂㅜ -14322
▁ㅎㅜㅅㅔㅇㅣㄴ -14323
▁ㅁㅏㅇㅡㄹㅂㅓㅅㅡ -14324
▁ㅋㅓㅁㅍㅏㅇㅣㄹㄹㅓ -14325
▁ㄷㅗㄹㅡㅌㅡㅁㅜㄴㅌㅡ -14326
▁en -14327
ㅅㅣㄷㅐ -14328
ㅉㅏㄱㅣ -14329
▁ㅅㅠㅁㅣ -14330
ㄷㅐㅇㅝㄴ -14331
ㄷㅣㅅㅡㄴ -14332
▁ㄱㅕㅇㅁㅐ -14333
▁ㄱㅡㄴㄹㅐ -14334
▁ㅍㅡㄹㅣㄹ -14335
▁ㅎㅓㅂㅡㄹ -14336
▁ㅎㅚㄱㅗㄹ -14337
▁ㅇㅑㅇㅎㅕㄴ -14338
▁ㅍㅕㅇㅌㅏㄴ -14339
▁ㅎㅗㄴㅎㅕㄹ -14340
ㅏㅇㅣㅇㅓㅌㅣ -14341
▁ㄱㅏㅁㄹㅣㄱㅛ -14342
▁ㅇㅣㄴㅎㅐㅅㅓ -14343
▁ㅁㅣㄴㅔㅅㅗㅌㅏ -14344
▁ㅂㅓㄹㅏㅇㅣㅇㅓㅌㅣ -14345
▁ㅅㅏㅋㅣ -14346
▁ㄷㅟㄴㅡㅈ -14347
▁ㅁㅐㅈㅣㄴ -14348
▁ㅅㅡㅇㄷㅏㄴ -14349
▁ㅇㅣㄴㄷㅗㅇ -14350
▁ㅈㅏㅇㅈㅓㄴ -14351
▁ㄴㅔㅌㅣㅈㅡㄴ -14352
▁ㄷㅔㅇㅣㅂㅣㅅ -14353
▁ㄷㅏㅋㅏㄹㅏㅈㅡㅋㅏ -14354
ㅜㅇㅔㄴ -14355
▁ㅅㅡㅌㅜ -14356
ㅣㄹㄹㅔㄴ -14357
▁ㄱㅏㅁㄹㅣ -14358
▁ㅎㅗㅁㅈㅡ -14359
▁ㅂㅏㄹㅌㅗㅂ -14360
▁ㅂㅏㅇㄱㅗㅇ -14361
▁ㅅㅏㄴㅏㅇㅣ -14362
▁ㄹㅗㅁㅐㄴㅌㅣㄱ -14363
▁ㅇㅏㅇㅣㄷㅣㅇㅓㄹ -14364
▁ㅇㅏㅍㅡ -14365
▁ㅇㅏㅍㅕㄴ -14366
▁ㅊㅜㅈㅗㄴ -14367
▁ㄱㅗㅇㅍㅏㄴ -14368
▁ㄱㅣㅁㅇㅕㄴ -14369
▁ㅂㅜㄹㅂㅜㄴ -14370
▁ㅇㅏㅇㅣㄹㄹ -14371
▁ㄱㅕㄱㅌㅜㄱㅣ -14372
▁ㅅㅔㄴㄷㅏㅇㅣ -14373
▁ㅈㅐㅍㅏㄴㄱㅘㄴ -14374
ㅎㅐㅅㅏㄹㅇㅣㅍㅜㄹ -14375
▁ㅍㅣㄹㅣ -14376
▁ㄴㅏㅂㅂㅜ -14377
▁ㅎㅡㄹㄹㅣ -14378
▁ㄲㅏㅁㅏㄱㅟ -14379
▁ㅂㅐㄱㅇㅓㅂ -14380
▁ㅈㅜㄴㅏㄹㅏ -14381
▁ㅎㅘㅇㅎㅐㄷㅗ -14382
▁ㄱㅘㄴㄹㅕㄴㅈㅏ -14383
ㅡㄹㅓ -14384
ㅣㅇㅠ -14385
▁ㅁㅔㅌㅣㄹ -14386
▁ㅇㅣㄷㅔㅇ -14387
▁ㅈㅐㅂㅓㄹ -14388
▁ㅁㅣㄴㅁㅜㄹ -14389
▁an -14390
▁ㄱㅓㄲ -14391
▁1881 -14392
▁ㅇㅏㅌㅗ -14393
▁ㅅㅡㅇㅟㅇ -14394
ㅂㅏㄷㅗㄹㅡ -14395
▁ㄹㅏㅊㅣㅇㅗ -14396
▁ㅇㅠㅈㅓㄴㅊㅔ -14397
▁ㅇㅣㅅㅣㅋㅏㅇㅘ -14398
ION -14399
ㅋㅣㅁ -14400
▁ㅅㅜㄴㅕ -14401
ㅌㅜㅇㅏㄴ -14402
▁ㅅㅓㄲㅇㅕ -14403
▁ㄴㅐㅂㅗㄴㅐ -14404
▁ㄷㅡㅇㄷㅡㅇ -14405
▁ㄴㅏㄴㅇㅣㄷㅗ -14406
▁ㄴㅏㅁㅂㅔㅌㅡㄴㅏㅁ -14407
▁iOS -14408
▁ㄱㅛㅈㅣ -14409
▁ㅌㅗㅇㅣ -14410
▁ㅌㅡㄹㄹ -14411
ㄱㅗㅇㅈㅜ -14412
▁ㄷㅗㅇㅊㅏ -14413
▁ㅅㅡㅇㅎㅏ -14414
▁ㅅㅓㄴㅇㅠㄹ -14415
▁ㅌㅡㄹㅔㅇㅣㄴㅣㅇ -14416
ave -14417
▁Ab -14418
ㅍㅓㄴ -14419
▁ㄱㅜㄹㅖ -14420
ㅗㄴㅗㅅㅡ -14421
▁ㄹㅓㄴㅣㅇ -14422
▁ㅎㅘㅇㅈㅏ -14423
▁ㄱㅐㄱㅇㅝㄴ -14424
▁ㄴㅏㅁㅅㅗㅇ -14425
▁ㅎㅓㄴㄴㅏㅂ -14426
ㄲㅔㄲㅣ -14427
▁ㅁㅏㅇㅛ -14428
ㅅㅔㄴㅅㅡ -14429
▁ㅂㅗㅈㅓㅇ -14430
▁ㅂㅡㄹㅜㄱ -14431
▁ㅅㅣㄴㄱㅣ -14432
▁ㅈㅓㄴㄹㅣ -14433
▁ㅋㅗㄴㅏㄴ -14434
▁ㅌㅡㄹㅏㄴ -14435
▁ㅇㅏㄹㅁㅏㅈ -14436
▁ㅊㅓㅇㅁㅜㄴ -14437
▁ㅁㅜㅈㅏㄱㅇㅟ -14438
▁ㄷㅜㄹㅕㅇㅝㅎㅏ -14439
▁ㅅㅜㅅㅜㄲㅔㄲㅣ -14440
▁ㅇㅣㄷㅔㅇㅗㄹㄹ -14441
▁ㅍㅣㅊㅡㅂㅓㄱㅡ -14442
▁ㅎㅐㅇㅈㅓㅇㄷㅗㅇ -14443
ㄹㅏㄹ -14444
▁Music -14445
▁ㅇㅠㄹㅣㅁ -14446
▁ㅇㅡㅇㅎㅏ -14447
▁ㅂㅗㄱㅈㅣㄱ -14448
▁ㅇㅑㅇㄱㅜㅇ -14449
▁ㅈㅏㅁㅅㅣㄹ -14450
TE -14451
ject -14452
▁1872 -14453
▁ㅅㅗㄷㅐ -14454
▁ㅌㅏㄱㅜ -14455
▁ㄱㅣㅌㅗㅇ -14456
▁ㅋㅡㄹㅔㅇ -14457
▁ㅁㅗㄱㅇㅛㄱ -14458
▁ㅂㅡㄹㄹㅏㅇ -14459
▁ㅇㅚㅁㅜㅂㅜ -14460
▁ㄷㅗㅁㅏㅇㄱㅏ -14461
▁ㄹㅗㅁㅂㅏㄹㅡ -14462
▁ㅁㅗㅁㅔㄴㅌㅡ -14463
▁ㅂㅏㄴㄷㅐㅍㅏ -14464
▁ㄴㅗㅅㅏ -14465
▁ㅂㅐㅇㅏ -14466
▁ㄷㅗㅅㅏㄴ -14467
▁ㅅㅐㅇㄷㅗ -14468
▁ㅅㅔㄱㅏㄴ -14469
▁ㅇㅗㅇㅣㄹ -14470
▁ㅈㅗㅅㅣㅁ -14471
▁ㅇㅘㅇㅅㅓㅇ -14472
▁XP -14473
ㅂㅏㅎㅡ -14474
ㅅㅏㅇㅘ -14475
▁ㄱㅜㄴㅅㅔ -14476
▁ㅊㅣㅁㄷㅐ -14477
▁ㅋㅗㅁㅟㄴ -14478
▁ㅇㅏㅂㅣㄷㅏㄹ -14479
▁ㄹㅜㅅㅡㅂㅔㄹㅌㅡ -14480
ㅚㅅㅓㄴ -14481
▁ㄱㅛㅈㅔ -14482
▁ㅂㅜㅈㅗ -14483
▁ㄱㅏㄹㅇㅏ -14484
▁ㅇㅏㅋㅏㄴ -14485
▁ㅈㅜㅇㄱㅗ -14486
▁ㅂㅕㄹㅈㅏㅇ -14487
▁ㅅㅏㅇㅎㅏㄴ -14488
▁ㄷㅐㅍㅛㄷㅏㄴ -14489
▁ㅇㅣㅁㅔㅇㅣㄹ -14490
▁ㅇㅏㅂㄹㅗㄱㄱㅏㅇ -14491
▁ㅂㅜㄷㅏㅍㅔㅅㅡㅌㅡ -14492
▁ㅅㅑㅂ -14493
▁ㅇㅢㄹㅖ -14494
▁ㅇㅛㅇㅅㅏ -14495
ㄷㅡㄹㅇㅕㅆ -14496
ㅣㄹㄹㅣㅌㅣ -14497
▁ㅇㅑㅇㅁㅕㄴ -14498
▁ㅇㅕㅎㅏㄱㅅㅐㅇ -14499
▁ㅎㅏㅂㅊㅏㅇㄷㅏㄴ -14500
▁ㄴㅏㄹㅋㅏㄹㅗㅇㅜㄴ -14501
ㅐㄱㅣ -14502
▁750 -14503
▁ㄷㅗㄹㅏ -14504
▁ㅂㅣㄹㅗ -14505
▁ㅋㅐㅍㅣ -14506
▁ㄴㅣㄴㅈㅏ -14507
▁ㅅㅡㅇㅈㅣ -14508
▁ㅎㅡㄱㅂㅐㄱ -14509
▁ㅇㅣㄹㄹㅔㄱㅌㅡㄹㅗㄴ -14510
▁BL -14511
ㅇㅜㅎㅚ -14512
ㅌㅗㄴㅗ -14513
▁ㅇㅠㄷㅏ -14514
▁ㄱㅣㅁㅎㅢ -14515
▁ㅂㅜㅈㅓㄴ -14516
▁ㅇㅐㄹㄹㅣ -14517
▁ㅇㅓㅊㅗㄴ -14518
▁ㅌㅗㅇㅈㅣ -14519
ㄷㅓㄱㅇㅘㅇ -14520
▁ㅍㅏㄴㄱㅘㄴ -14521
▁ㄴㅗㅇㅇㅓㅊㅗㄴ -14522
ics -14523
▁if -14524
ㅐㅅㅣ -14525
▁ㅌㅜㅎㅏ -14526
▁ㄱㅜㄱㅎㅗ -14527
▁ㄷㅐㄱㅛㄱㅜ -14528
▁ㅅㅏㅁㅊㅓㄱ -14529
▁ㄱㅏㅆㅇㅡㅁㅕ -14530
▁ㄱㅣㅎㅚㄱㅅㅏ -14531
▁ㅍㅏㅊㅜㅇㄹㅠ -14532
▁ㅎㅘㅅㅓㅇㅅㅣ -14533
▁ㅂㅜㄹㅡㅈㅜㅇㅏ -14534
▁ㅅㅔㄱㅖㅇㅠㅅㅏㄴ -14535
▁ㄹㅜㄴㅏ -14536
▁ㅌㅐㅇㅜ -14537
▁ㄷㅜㄹㄹㅓ -14538
▁ㄱㅗㄱㅁㅕㄴ -14539
▁ㅇㅝㄴㄷㅗㅇ -14540
▁ㅈㅔㅍㅡㄹㅣ -14541
▁ㅈㅣㄱㄱㅘㄴ -14542
▁ㄹㅗㄷㅡㄹㅣㄱ -14543
▁ㅅㅏㅁㄱㅜㄱㅈㅣ -14544
▁ㅇㅣㄷㅔㅇㅗㄹㄹㅗㄱㅣ -14545
ㅊㅕㅇㅑ -14546
▁ㅇㅔㄹㅗ -14547
▁ㅇㅣㄹㅖ -14548
▁ㅈㅣㅋㅜ -14549
ㅔㅇㅣㄱㅗ -14550
ㅁㅏㄹㅡㅋㅡ -14551
▁ㄱㅗㅂㅅㅔㅁ -14552
▁ㅇㅏㅂㅡㄹㅏ -14553
▁ㅈㅗㅇㅇㅓㅂ -14554
▁ㅊㅔㅇㅣㄴㅈㅣ -14555
▁ㅈㅔㅁ -14556
ㅂㅜㄹㅣ -14557
▁1863 -14558
▁ㅅㅣㅇㅝㄴ -14559
ㅅㅓㅇㄱㅕㅇ -14560
▁ㄱㅡㄱㅊㅏㄴ -14561
▁ㄴㅣㅅㅅㅏㄴ -14562
▁ㅅㅣㄴㅂㅗㅇ -14563
▁ㅈㅓㅇㅈㅜㅇ -14564
▁ㅂㅓㅁㅈㅚㅈㅏ -14565
▁ㅁㅜㅅㅗㄹㄹㅣㄴㅣ -14566
ㄸㅟㄱㅣ -14567
▁HTML -14568
▁ㅁㅏㅌㅡ -14569
ㅁㅕㄴㅊㅔ -14570
ㅌㅣㄴㅔㄴ -14571
▁ㄷㅏㅇㄱㅘ -14572
▁ㅂㅏㄹㅅㅏㄴ -14573
▁ㅂㅡㄹㅐㄷㅡ -14574
▁ㅈㅣㄴㅎㅡㄺ -14575
▁ㅋㅏㅁㅍㅏㄴ -14576
▁ㅌㅏㄴㅅㅏㄴ -14577
▁ㄷㅏㅅㅣㄱㅡㅁ -14578
▁ㄷㅗㅁㅏㅇㅊㅣ -14579
▁ㅁㅣㄹㄱㅏㄹㅜ -14580
ㅎㅘㄱㅕㅇ -14581
▁ㄱㅙㅂㅜㄹ -14582
▁ㅂㅡㄹㄹㅗ -14583
▁ㅍㅏㅇㅕㄹ -14584
ㅅㅣㅇㅜㅅㅡ -14585
▁ㄱㅕㅇㄹㅑㅇ -14586
▁ㅂㅜㄱㅂㅓㄹ -14587
▁ㅃㅗㅂㅎㅕㅆ -14588
ㅂㅕㄴㅅㅗㄱㄱㅣ -14589
▁ㅅㅡㄹㄹㅗㄱㅓㄴ -14590
▁ㄷㅏㄹㄹㅏㅈㅣㄴㄷㅏ -14591
ier -14592
ool -14593
▁ㅊㅛ -14594
ㄱㅕㅁ -14595
▁ㅂㅗㄹㅗ -14596
▁ㅂㅐㅎㅑㅇ -14597
▁ㅊㅟㅎㅑㅇ -14598
▁ㄱㅜㄱㄱㅏㅇ -14599
▁ㅈㅓㅇㅁㅕㅇ -14600
▁ㅈㅜㅇㄹㅏㅇ -14601
▁ㄴㅐㅈㅐ -14602
▁ㅅㅜㅇㅣ -14603
▁ㅂㅔㅍㅜㄹ -14604
▁ㅈㅜㅇㅅㅗ -14605
▁ㅅㅜㄴㅎㅏㅇ -14606
▁ㅇㅏㄴㅌㅏㄲ -14607
▁ㅇㅣㄱㅅㅏㄴ -14608
▁ㅊㅣㄴㅁㅣㄹ -14609
▁ㄹㅗㄴㅣ -14610
▁ㅅㅡㄴㅗ -14611
▁ㅅㅓㅇㄱㅏ -14612
▁ㅇㅣㄱㅏㅇ -14613
▁ㅎㅐㅋㅣㅇ -14614
ㅋㅏㄹㅡㅌㅡ -14615
▁ㄱㅐㅊㅔㄱㅜㄴ -14616
▁ㅎㅘㅎㅏㄱㅈㅏ -14617
ㅌㅐㅍㅕㅇㅇㅑㅇ -14618
▁ㅁㅜㄹㅗㅁㅏㅊㅣ -14619
▁ㅇㅏㄴㄷㅡㄹㅔㅇㅏ -14620
▁ㅈㅣㄴㅏㄱㅏㄴㄷㅏ -14621
QL -14622
▁Sm -14623
ㅁㅜㄹㅡ -14624
ㅎㅗㅇㅣㄴ -14625
▁ㄱㅕㅇㄷㅗ -14626
▁ㅂㅏㄹㅍㅗ -14627
▁ㄱㅓㄹㅇㅡㅁ -14628
▁ㄴㅡㄹㅇㅓㄴ -14629
▁ㅅㅡㅇㅇㅛㅇㅊㅏ -14630
▁AL -14631
▁Don -14632
▁ㄷㅡㄹㅜ -14633
ㄱㅏㄱㅜㄱ -14634
ㅍㅕㅇㄹㅣ -14635
▁ㅋㅗㅎㅗㅁ -14636
▁ㅂㅕㅇㄷㅏㄴ -14637
▁ㅊㅟㄹㅣㅎㅣ -14638
▁ㄱㅖㅅㅡㅇㅈㅏ -14639
▁ㄷㅡㅁㅣㅌㅡㄹㅣ -14640
▁ㅊㅏㅁㄱㅏㄱㅜㄱ -14641
▁ㅋㅗㅎㅗㅁㅗㄹㄹㅗㅈㅣ -14642
ru -14643
ㅉㅗㅊ -14644
▁ㅅㅖㅇㅣ -14645
▁ㅇㅏㅇㅘ -14646
▁ㅁㅗㅂㅣㄹ -14647
▁ㅇㅣㄴㅇㅟ -14648
▁ㅋㅔㄴㅌㅓ -14649
▁ㅅㅏㄹㅉㅏㄱ -14650
▁ㅌㅏㅁㅈㅓㅇ -14651
▁ㅎㅗㅋㅡㅅㅡ -14652
▁ㅂㅓㅅㅇㅓㄴㅏㄴ -14653
▁te -14654
▁ㅋㅗㅂ -14655
▁ㄱㅖㅈㅘ -14656
▁ㅅㅠㅌㅡㄹ -14657
▁ㅇㅢㅇㅛㅇ -14658
▁ㄴㅏㅂㅈㅏㄱ -14659
▁ㄷㅏㄴㄱㅜㄱ -14660
▁ㄷㅏㅂㅣㄷㅡ -14661
▁ㄷㅏㅇㅈㅣㄴ -14662
▁ㅇㅏㅍㅅㅔㅇ -14663
▁ㅈㅓㄴㅎㅐㅈㅕㅆ -14664
▁ㅊㅗㄹㅗㄱㅅㅐㄱ -14665
ㅎㅞ -14666
▁1873 -14667
▁ㄷㅜㅇㅓ -14668
ㄷㅔㅈㅏㄴ -14669
ㅔㄹㅡㅌㅡ -14670
▁ㄱㅗㄴㅏㄴ -14671
▁ㅇㅚㅅㅏㅇ -14672
▁ㅋㅓㅍㅡㄹ -14673
▁ㅅㅣㄷㅏㄹㄹ -14674
▁ㄴㅐㄹㅣㄴㄷㅏ -14675
▁ㅇㅠㄹㅏㅅㅣㅇㅏ -14676
▁ㅂㅜㄹㅂㅜㄴㅁㅕㅇ -14677
che -14678
▁ㄹㅔㅇㅏ -14679
▁ㅁㅗㄹㅏㄴ -14680
▁ㅇㅣㅂㅅㅣ -14681
ㄱㅜㄱㅈㅓㄱ -14682
▁ㅂㅗㄱㅇㅕㄱ -14683
▁ㅅㅡㅇㅅㅏㅇ -14684
▁ㅋㅡㄹㄹㅣㄱ -14685
▁ㅎㅐㅅㅂㅣㅊ -14686
▁ㅌㅏㅇㅣㅁㅈㅡ -14687
▁ㅈㅏㄱㅍㅜㅁㅅㅏㅇ -14688
ㅜㅁㅓㄴ -14689
▁1865 -14690
▁ㄱㅏㅇㅑ -14691
▁ㄱㅐㄱㅡ -14692
▁ㅁㅐㄹㅣㅂ -14693
▁ㅂㅜㄹㅡㅂ -14694
▁ㄱㅗㅇㅌㅗㅇㅈㅓㅁ -14695
▁ㄱㅛㅌㅗㅇㅅㅏㄱㅗ -14696
ㅓㅅㅡㅌㅓ -14697
▁ㅇㅘㄴㅂㅣ -14698
▁ㅇㅣㅈㅣㄹ -14699
▁ㅈㅔㄱㅏㄹ -14700
▁ㅅㅣㄱㅏㄴㄷㅐ -14701
▁ㅎㅏㅇㅑㄴㅅㅐㄱ -14702
ise -14703
▁ㅁㅔㅊㅡ -14704
▁ㅁㅜㄴㅔ -14705
ㅁㅣㄱㅕㅇ -14706
▁ㄱㅏㅁㅊㅜ -14707
▁ㄱㅛㄷㅗㅇ -14708
▁ㅂㅓㄹㄹㅔ -14709
▁ㅅㅡㅋㅣㄴ -14710
▁ㅂㅏㄱㅈㅣㄴ -14711
▁ㅍㅏㄹㅈㅏㄱ -14712
▁ㅇㅕㅈㅣㄴㅈㅗㄱ -14713
ode -14714
▁ㅍㅏㄱㅣ -14715
▁ㅍㅣㄹㅗ -14716
▁ㅈㅏㅂㅎㅣ -14717
ㅋㅡㄹㄹㅓㅂ -14718
▁ㅈㅏㄱㄴㅕㄴ -14719
▁ㅍㅣㄹㅎㅏㅁ -14720
▁ㅁㅜㅇㅓㄴㄱㅏ -14721
▁ㅊㅓㅇㄴㅕㄴㅎㅚ -14722
ㅖㅅㅡ -14723
ㅗㄹㅓ -14724
▁ㅂㅏㅅㅣ -14725
▁ㅅㅠㅌㅔ -14726
▁ㄱㅕㅇㅁㅏ -14727
▁ㅁㅜㄷㅎㅕ -14728
▁ㅊㅚㅈㅏㅇ -14729
▁ㅎㅏㅇㅇㅜ -14730
▁ㅇㅕㄹㄹㅣㄹ -14731
▁ㅇㅘㅅㅅㅡㄴ -14732
▁ㅍㅣㄱㅅㅔㄹ -14733
▁ㅎㅡㄹㄹㅓㄴ -14734
▁ㅁㅏㅅㅡㅋㅗㅌㅡ -14735
▁ㅊㅐㄹㄹㅣㄴㅈㅓ -14736
▁ㅌㅏㅁㅎㅓㅁㄱㅏ -14737
ㅣㅅㅣ -14738
▁ㄹㅔㅂㅓ -14739
▁ㅇㅗㅇㅈㅜ -14740
▁ㅈㅏㅇㅆㅜ -14741
▁ㅈㅏㅈㅣㄹ -14742
▁ㅈㅗㅈㅏㅇ -14743
▁ㄱㅡㄴㅏㅁㅏ -14744
▁ㅎㅏㅇㅇㅏㄹㅣ -14745
▁ㅇㅗㅋㅏㅇㅑㅁㅏ -14746
▁ㄱㅕㅇㅂㅗㄱㄱㅜㅇ -14747
▁ㅆㅜ -14748
▁IMF -14749
ㅣㅁㅅㅐ -14750
▁1891 -14751
ㅏㅇㅑㅁㅏ -14752
▁ㄱㅖㅇㅓㅁ -14753
▁ㅋㅗㅇㅣㄴ -14754
▁ㅇㅑㅁㅏㄴㅏ -14755
▁ㅊㅜㅇㄷㅏㅇ -14756
▁ㅈㅔㄴㅓㄹㅓㄹ -14757
▁ㅇㅕㅆㅇㅡㅁㅇㅡㄹ -14758
▁PM -14759
▁ㄷㅗㄷㅗ -14760
ㅔㄹㅡㅋㅡ -14761
▁ㅊㅏㄱㅊㅟ -14762
▁ㅎㅓㅁㅗㄱ -14763
▁ㅁㅏㅌㄱㅕㅆ -14764
▁ㅁㅗㅁㄷㅗㄹ -14765
▁ㅎㅏㄴㅊㅏㅇ -14766
▁ㄱㅜㄱㅁㅣㄴㅎㅚ -14767
▁ㅅㅔㄹㅡㄱㅔㅇㅣ -14768
▁ㅇㅏㄴㅅㅏㄴㅅㅣ -14769
▁ㅇㅑㅋㅜㄹㅡㅌㅡ -14770
▁ㄹㅣㅇㅜㄷㅔㅈㅏㄴ -14771
▁ㄹㅣㅇㅜㄷㅔㅈㅏㄴㅔㅇㅣㄹㅜ -14772
▁ㄷㅐㅁㅗㄱ -14773
▁ㅇㅟㅂㅓㅂ -14774
▁ㄷㅡㅇㄷㅏㄴ -14775
▁ㄸㅏㄹㅏㄱㅏ -14776
▁ㅋㅏㅇㅣㄹㅗ -14777
▁ㅍㅔㅌㅡㄹㅗ -14778
▁ㅇㅠㄴㅣㅇㅓㄴ -14779
stem -14780
ㄱㅓㄱㅜ -14781
ㄷㅓㅈㅣ -14782
▁ㅈㅐㄱㅗ -14783
ㅅㅓㄴㄱㅓ -14784
▁Night -14785
▁ㄱㅜㄱㅏㅇ -14786
▁ㄴㅏㅁㅈㅗ -14787
▁ㅂㅣㅆㅏㄴ -14788
▁ㅈㅗㄱㅗㅇ -14789
▁ㅊㅓㅂㅏㅇ -14790
▁ㄱㅓㄹㅈㅏㄱ -14791
▁ㅂㅏㄱㅇㅕㅇㅎㅛ -14792
▁ㅍㅏㅌ -14793
▁ㄱㅘㄷㅏ -14794
▁ㄹㅏㄴㅅㅡ -14795
▁ㅅㅓㅁㄱㅣ -14796
▁ㅅㅔㄷㅏㄴ -14797
▁ㅇㅛㅈㅡㅁ -14798
▁ㅂㅏㄴㅎㅏㅇ -14799
▁ㅂㅓㅂㅈㅓㄴ -14800
▁ㅈㅔㅈㅗㅅㅏ -14801
▁ㅋㅡㄹㅜㅈㅡ -14802
▁ㅈㅗㅅㅓㄴㅅㅗ -14803
▁ㄷㅏㄱㅜㄱㅈㅓㄱ -14804
▁ㅅㅐㅇㅎㅘㅎㅏㄱ -14805
▁ㅇㅏㅇㅗㅁㅗㄹㅣ -14806
▁ㅇㅏㄲ -14807
ㅡㄱㅗㅅㅡ -14808
▁ㄱㅡㅁㄱㅗ -14809
▁ㅇㅑㅅㅣㅁ -14810
▁ㅇㅓㅅㅓㄴ -14811
▁ㅇㅣㄴㅈㅔ -14812
▁ㅈㅗㅇㅁㅛ -14813
▁ㅇㅣㅂㅅㅜㄹ -14814
▁ㅋㅡㄹㄹㅏㅇ -14815
▁ㅎㅏㅂㄱㅡㅁ -14816
ㅅㅡㅂㅏㄱㅅㅡ -14817
▁ㅂㅏㄹㄱㅣㅇㅣㄴ -14818
▁ㄱㅏㄷㅜ -14819
▁ㅅㅜㅈㅜ -14820
▁ㅇㅏㄷㅣ -14821
ㅇㅕㄹㅊㅏ -14822
▁ㄱㅕㅇㅈㅣ -14823
▁ㅂㅏㄴㄱㅣ -14824
▁ㅅㅓㅎㅏㄴ -14825
ㅌㅏㄹㅣㅇㅏ -14826
▁ㅂㅔㅇㅣㅋㅓ -14827
▁ㅈㅓㄱㅂㅏㄹ -14828
▁ㅈㅣㅈㅏㅊㅔ -14829
▁ㅅㅣㅌㅣㅈㅡㄴ -14830
▁ㅇㅏㄴㅣㄴㄱㅏ -14831
▁ㄱㅗㅇㄱㅜㄴㄱㅣㅈㅣ -14832
UC -14833
▁MA -14834
ㅏㄹㅔ -14835
▁ㅋㅗㄹㅣ -14836
ㅇㅕㄱㅐㄱ -14837
▁ㄷㅗㅂㅗㅇ -14838
▁ㅅㅓㅇㄱㅣ -14839
ㅊㅣㄴㅇㅘㅇ -14840
▁ㅅㅏㄴㅊㅐㄱ -14841
▁ㅎㅕㄹㅇㅏㅂ -14842
▁ㅂㅏㅅㅣㄹㄹㅣ -14843
▁ㅇㅜㄱㅏㄴㄷㅏ -14844
▁ㄱㅗㅅㅓㅇㄱㅜㄴ -14845
▁ㅇㅗㄴㅌㅏㄹㅣㅇㅗㅈㅜ -14846
▁-- -14847
▁NS -14848
▁ㄱㅙㄴ -14849
▁ㅊㅔㅅ -14850
ㅅㅏㅎㅘ -14851
▁ㄱㅜㄹㅡ -14852
▁ㄹㅗㅂㅡ -14853
▁ㅂㅜㅇㅓ -14854
▁ㅇㅗㄷㅐ -14855
ㄷㅏㄴㅇㅟ -14856
ㅋㅗㅇㅣㄴ -14857
▁ㅂㅜㄴㄱㅕㅇ -14858
▁ㅊㅗㄱㅂㅏㄹ -14859
▁ㅅㅔㄱㅜㄴㄷㅏ -14860
▁ㅈㅗㅇㅅㅏㅈㅏ -14861
▁ㄱㅗㅇㅅㅣㄱㅈㅓㄴ -14862
ㄹㄹㅓㅅㅡ -14863
▁ㄱㅜㅅㅡㄹ -14864
▁ㄷㅏㄴㅈㅗ -14865
ㅎㅜㄴㅈㅏㅇ -14866
ㅣㅁㅐㄱㅣㅁ -14867
▁ㅂㅗㄹㄴㅔㅅ -14868
▁ㅈㅡㅇㅂㅏㄹ -14869
ㅎㅏㅂㅈㅜㅇㄱㅜㄱ -14870
▁ㅈㅏㄹㅣㅁㅐㄱㅣㅁ -14871
▁ㄸㅡㄹ -14872
▁ㅍㅏㄹㅏㅇ -14873
ㅅㅣㅁㅗㅌㅗ -14874
ㅡㄹㄹㅏㅍㅡ -14875
▁ㅊㅓㄹㅈㅗㅇ -14876
▁ㅇㅐㄴㄷㅡㄹㅠ -14877
▁ㅎㅐㅂㅜㅎㅏㄱ -14878
▁ㅅㅡㅇㅈㅓㅇㅇㅝㄴ -14879
▁ㅁㅜㅈㅏ -14880
▁ㅅㅠㄱㅗ -14881
▁ㅊㅓㅎㅐ -14882
▁ㅌㅏㄷㅗ -14883
ㅓㅅㅡㅌㅏ -14884
▁ㅍㅣㄹㄷㅜ -14885
▁ㅎㅏㅇㅣㅇ -14886
▁ㅋㅐㅅㅡㅌㅡ -14887
▁ㄷㅜㄲㅓㅇㅜㄴ -14888
▁ㅋㅔㄴㅌㅓㅋㅣ -14889
▁ㄷㅜㄷㅡㄹㅓㅈㅣ -14890
▁ㅂㅏㄹㄱㅏㄹㅏㄱ -14891
▁650 -14892
▁ㅆㅡㄹㅓ -14893
▁ㅇㅣㅇㅜ -14894
ㅗㄴㅣㅋㅏ -14895
▁ㅊㅐㄱㅜㄹ -14896
ㅂㅏㅂㅡㅇㅞ -14897
▁ㅇㅕㄴㅎㅐㅇ -14898
▁ㅈㅣㄴㅇㅝㄴ -14899
▁ㅈㅔㅈㅏㄱㅈㅣㄴ -14900
▁ㅈㅣㅁㅂㅏㅂㅡㅇㅞ -14901
NG -14902
ㄸㅣ -14903
▁MM -14904
▁ㄲㅗㅇ -14905
ㅣㅇㅗㅋㅏ -14906
▁ㄷㅔㄴㅅㅛ -14907
▁ㅁㅣㅇㅣㄴ -14908
ㄷㅗㅇㅁㅐㅇ -14909
▁ㄱㅏㄹㅣㅋㅕ -14910
▁ㅂㅏㄴㅈㅓㅁ -14911
▁ㅍㅡㄹㅗㄹㄹㅔ -14912
▁ㅍㅡㄹㅗㄹㄹㅔㅌㅏㄹㅣㅇㅏ -14913
ㄲㅗㄹㅣ -14914
ㅂㅏㅈㅣ -14915
▁ㄹㅏㅋㅏ -14916
▁ㅅㅏㄱㅛ -14917
▁ㅅㅏㄷㅡ -14918
▁ㅅㅔㅁㅜ -14919
▁ㄱㅘㄱㅕㄱ -14920
▁ㄷㅗㅂㅏㄹ -14921
ㄱㅏㄱㅎㅕㅇ -14922
▁ㅅㅗㅇㅈㅣㄴ -14923
▁ㅈㅡㅇㄱㅏㅇ -14924
▁ㅍㅡㄹㅔㄷㅡ -14925
▁ㅇㅣㅂㅏㄹㅏㅋㅣ -14926
▁ㅂㅔㅅㅡㅌㅡㅅㅔㄹㄹㅓ -14927
ai -14928
▁ㄹㅐㄹ -14929
▁Good -14930
▁ㄹㅏㄹㅏ -14931
▁ㅊㅔㄴㅐ -14932
▁Black -14933
▁ㄱㅓㄲㅜㄹㅗ -14934
▁ㄱㅜㄹㅂㅗㄱ -14935
▁ㅋㅗㄹㄹㅗㄴ -14936
▁ㅎㅓㄴㅂㅕㅇ -14937
ㅋㅜㄴ -14938
▁ㅅㅗㅈㅏㄱ -14939
▁ㅇㅔㄷㅜㅇ -14940
▁ㅇㅕㄹㄹㅕ -14941
▁ㅋㅐㄴㅗㄴ -14942
▁ㄴㅗㅇㅅㅓㅇ -14943
ㅏㅍㅡㄹㅣㅋㅏ -14944
▁ㄹㅣㄹㄹㅔㅇㅣ -14945
▁ㅇㅕㄴㅊㅜㄹㄱㅏ -14946
ank -14947
▁qu -14948
ower -14949
▁ㄱㅣㄱㅗ -14950
▁ㅇㅏㅅㅣㄹ -14951
▁ㅈㅏㅋㅔㅅ -14952
▁ㅈㅣㄴㅇㅣ -14953
▁ㅌㅓㅂㅣㄴ -14954
▁ㅂㅏㄴㄹㅗㄴ -14955
▁ㅈㅓㅂㅈㅓㄴ -14956
ㄸㅓㄱ -14957
▁Can -14958
ㅅㅣㄴㅣ -14959
▁ㅅㅣㄹㅣ -14960
▁ㅇㅕㄷㅐ -14961
▁ㅅㅡㅌㅗㅁ -14962
▁ㅅㅣㅈㅣㄴ -14963
▁ㅈㅣㄱㄱㅛ -14964
▁ㅌㅡㄴㅌㅡㄴ -14965
▁ㄴㅗㄹㅡㅁㅏㄴ -14966
▁ㅅㅡㅌㅐㄴㄷㅡ -14967
▁ㅍㅗㅎㅏㅇㅅㅣ -14968
▁ㅅㅏㅁㄱㅜㄱㅇㅠㅅㅏ -14969
▁ㅅㅏㅇㅣㅌㅏㅁㅏㅎㅕㄴ -14970
ㅟㅅ -14971
▁ret -14972
▁ㄱㅣㅁㅛ -14973
▁ㄷㅣㅇㅔ -14974
▁ㅁㅜㄱㅗ -14975
▁ㅇㅏㄷㅡ -14976
▁ㅌㅗㄹㅗ -14977
▁ㄱㅣㅇㅜㄴ -14978
ㅊㅏㅁㅊㅏㄴ -14979
▁ㄱㅏㅇㅣㄷㅡ -14980
▁ㄹㅏㅇㅣㅅㅡ -14981
▁ㄷㅐㄹㄹㅓㅅㅡ -14982
▁AI -14983
ㄷㅏㅂㅏㄹ -14984
▁ㅇㅟㅎㅓㄴ -14985
▁ㅌㅗㄹㅗㄱ -14986
▁ㄴㅏㅁㅇㅏㄱ -14987
▁ㄷㅏㅇㅣㅅㅡ -14988
▁ㅇㅏㅍㄷㅜㄴ -14989
▁ㅇㅛㅇㄱㅏㅁ -14990
▁ㅂㅐㄱㅇㅏㄱㄱㅘㄴ -14991
▁ㅈㅗㅇㅇㅓㅂㅇㅝㄴ -14992
ㄲㅡㄴ -14993
ㅡㄹㅡ -14994
▁NAD -14995
▁ㅌㅏㅋ -14996
▁ㄱㅏㄴㅍㅏㄴ -14997
▁ㄱㅡㄹㄹㅔㄴ -14998
▁ㅌㅡㄹㅗㅌㅡ -14999
▁ㅁㅣㅎㅏㅂㅈㅜㅇㄱㅜㄱ -15000
▁550 -15001
▁ㄴㅏㅁㅏ -15002
▁ㄹㅏㅂㅏ -15003
▁ㅁㅏㅌㅏ -15004
▁ㅌㅐㅇㅏ -15005
ㅅㅜㅅㅏㄴ -15006
▁ㄴㅗㄹㅏㄴ -15007
ㅂㅔㄹㅣㅇㅏ -15008
ㅋㅣㄴㅅㅡㄴ -15009
▁ㅅㅏㄴㅅㅣㄴ -15010
▁ㅌㅔㅁㅜㄹㅡ -15011
ㅐㅌㅣ -15012
ㅅㅔㄷㅏ -15013
ㅅㅜㄱㅛ -15014
ㅋㅠㅇㅓ -15015
▁ㅇㅏㄹㅚ -15016
▁ㅈㅓㅎㅐ -15017
▁ㅂㅕㅇㄱㅘ -15018
▁ㅇㅕㄹㅅㅚ -15019
▁ㅈㅗㅈㅜㄴ -15020
▁ㅌㅜㅅㅣㄴ -15021
▁ㄷㅏㅇㄷㅏㅇ -15022
▁ㅁㅜㄴㅈㅓㅇ -15023
▁ㅅㅜㅅㅣㄹㅗ -15024
▁ㅈㅓㄱㅈㅓㅇ -15025
▁ㅎㅚㅇㄹㅕㅇ -15026
▁ㅈㅏㅇㅚㅅㅓㄴ -15027
▁ㅈㅏㅇㅠㅎㅕㅇ -15028
70 -15029
▁1862 -15030
▁ㄷㅐㄷㅏㅁ -15031
▁ㅁㅏㅇㅜㄴ -15032
▁ㅎㅐㅇㅂㅗ -15033
ㅌㅏㅁㅣㅇㅏ -15034
▁ㄱㅓㅊㅕㅅㅓ -15035
▁ㅎㅡㅂㅇㅕㄴ -15036
▁ㅎㅏㅂㅏㄴㄱㅣ -15037
▁ㅂㅏㄴㅈㅓㅇㅂㅜ -15038
▁ㅇㅣㅅㅓㅇㅈㅣㄹ -15039
DS -15040
▁El -15041
ㅈㅔㅂㅣ -15042
▁ㄹㅔㅂㅣ -15043
▁ㅋㅣㅈㅡ -15044
▁ㅍㅗㄷㅐ -15045
▁ㅎㅣㄹㄹ -15046
▁ㅁㅔㅅㅗㅍㅗ -15047
▁ㅂㅏㄷㅊㅣㅁㄷㅗㄹ -15048
▁ㅅㅣㄴㅅㅣㄴㅐㅌㅣ -15049
▁ㅁㅔㅅㅗㅍㅗㅌㅏㅁㅣㅇㅏ -15050
▁q -15051
ㅐㅍㅣ -15052
ㅓㅇㅑ -15053
ㅜㄱㅏ -15054
ㅣㄹㅡㅁ -15055
▁ㅈㅗㅇㅓ -15056
▁ㅊㅏㅁㅅㅜ -15057
▁ㅂㅕㄴㅈㅡㅇ -15058
▁ㅂㅜㄴㅂㅕㄹ -15059
▁ㅇㅕㄴㄷㅏㄹ -15060
▁ㅇㅘㅇㅣㄷㅡ -15061
▁ㅈㅓㄴㅁㅕㄹ -15062
▁ㅇㅛㅇㅅㅏㄴㄱㅜ -15063
▁Qu -15064
ㅔㄴㅔ -15065
▁Ser -15066
▁ㅌㅣㅈㅓ -15067
ㅋㅡㄹㅣㅁ -15068
▁ㄴㅐㄹㅏㄴ -15069
▁ㄴㅐㅇㅕㄱ -15070
▁ㅅㅣㄴㅇㅢ -15071
▁ㅊㅓㅎㅏㄴ -15072
▁ㅋㅓㅈㅕㅆ -15073
▁ㅎㅘㄹㅈㅏ -15074
▁ㅁㅣㅋㅏㅇㅔㄹ -15075
▁ㅋㅣㅂ -15076
▁ㅅㅓㅇㅟ -15077
▁ㅍㅏㅈㅜ -15078
▁ㅇㅕㄴㅎㅘ -15079
▁ㅇㅘㄴㅅㅜ -15080
▁ㄱㅜㄱㄹㅕㄱ -15081
▁ㅇㅑㅇㅇㅑㅇ -15082
▁ㅈㅏㅇㅅㅣㄴ -15083
▁ㅈㅡㅇㅅㅣㄱ -15084
▁ㅈㅣㄴㅇㅓㄴ -15085
▁ㅍㅣㄹㅁㅕㅇ -15086
▁ㄱㅣㅁㅅㅓㅇㅅㅜ -15087
▁ㅅㅜㅁㄱㅕㅈㅣㄴ -15088
▁LS -15089
ㅢㅈㅏ -15090
▁ㅈㅗㅅㅓㄱ -15091
▁ㅈㅣㅁㅜㄴ -15092
▁ㅅㅣㅁㅈㅓㅇ -15093
▁ㅇㅕㄴㅈㅜㅎㅚ -15094
▁ㅇㅣㅂㅂㅓㅂㅂㅜ -15095
▁ㄷㅔㄱ -15096
▁1867 -15097
▁ㄴㅏㅃㅏ -15098
▁ㅅㅏㅋㅜㄹ -15099
▁ㅅㅜㄷㅏㅇ -15100
▁ㅅㅡㅌㅏㄴ -15101
▁ㅎㅏㅈㅜㅇ -15102
▁ㅂㅗㄹㄹㅗㄱ -15103
▁ㅇㅔㄱㅅㅡㅍㅗ -15104
▁ㅁㅗㅂㅏㄴ -15105
▁ㅎㅘㅇㅍㅖ -15106
ㄷㅜㄹㅏㅅㅡ -15107
▁ㄹㅔㅇㅣㄴㅈㅓ -15108
▁ㅇㅓㄴㄹㅗㄴㅅㅏ -15109
ㅜㅇㅝㄴㅅㅜㅇㅇㅣ -15110
▁ㅇㅗㄴㄷㅜㄹㅏㅅㅡ -15111
▁ㅍㅕㄴㅈㅣㅂㅈㅏㅇ -15112
▁ㅍㅔㄹㅡㄷㅣㄴㅏㄴㅌㅡ -15113
▁UC -15114
▁Let -15115
▁ㄹㅡㅂ -15116
▁ㅆㅜㅇ -15117
ㅗㄴㅏㄴ -15118
▁ㅂㅐㅇㅝ -15119
▁ㄱㅘㅇㅈㅏ -15120
▁ㅇㅔㄱㅔㄴ -15121
▁ㅇㅣㅅㅓㄴ -15122
▁ㅁㅜㄴㅈㅜㅇ -15123
▁ㄹㅏㅇㅣㅍㅡㅊㅣㅎㅣ -15124
▁ㅍㅏㄹㅈㅏㄱㅈㅣㅂㅜㅇ -15125
▁Ac -15126
▁705 -15127
▁6000 -15128
▁ㅈㅏㅇㅗ -15129
▁ㅍㅜㄷㅡ -15130
▁ㅍㅣㅅㅕ -15131
▁ㄱㅛㅎㅜㄴ -15132
▁ㅂㅓㄴㄱㅐ -15133
ㅡㄹㄹㅏㅅㅡ -15134
▁ㄱㅏㄴㄱㅕㄹ -15135
ㅘㄱ -15136
▁DR -15137
▁ㅈㅟㄹ -15138
ㅇㅏㅇㅣ -15139
ㅍㅏㄹㄹ -15140
▁ㄱㅗㅊㅏㄹ -15141
▁ㄷㅏㄴㅈㅏ -15142
ㅈㅣㄹㅏㄷㅗ -15143
▁ㅅㅐㅇㄱㅣㄹ -15144
▁ㅇㅑㅇㄱㅜㄴ -15145
▁ㅅㅏㅁㅜㄱㅜㄱ -15146
▁ㅂㅕㄴㄱㅘㅇㅅㅓㅇ -15147
▁AU -15148
▁ㄲㅓㄴㅐ -15149
▁ㅇㅠㅇㅣ -15150
▁ㅈㅏㅇㅣ -15151
▁ㅊㅓㅈㅏㅇ -15152
ㅌㅏㄴㅏㅂㅔ -15153
▁ㅍㅗㄹㄹㅣㄴ -15154
▁ㄱㅏㄹㄹㅏㅈㅕ -15155
▁ㄱㅕㅇㅎㅢㄷㅐ -15156
▁ㅈㅡㅇㅈㅗㅂㅜ -15157
lar -15158
ings -15159
▁ㅍㅐㅎㅐ -15160
▁ㄹㅣㅊㅣㅁ -15161
ㅎㅘㄹㅇㅑㄱ -15162
▁MSL -15163
▁ㅌㅗㅇㅠ -15164
▁ㅎㅣㄴㅗ -15165
ㄷㅐㅈㅓㄴ -15166
ㅈㅣㄴㄱㅜ -15167
▁ㅁㅗㅅㅣㄴ -15168
▁ㅈㅣㅎㅏㅇ -15169
▁ㅍㅛㅊㅜㄹ -15170
▁ㄷㅔㅋㅏㄹㅡㅌㅡ -15171
▁ㅅㅗㄴㅈㅏㅂㅇㅣ -15172
ㅝㅅㅡ -15173
▁ㅌㅓㅇ -15174
▁ㅋㅔㄹㅡ -15175
▁ㅎㅚㅇㅠ -15176
▁ㅂㅕㄴㅁㅗ -15177
▁ㅇㅖㅈㅗㅇ -15178
▁section -15179
▁ㅁㅐㅇㅎㅘㄹㅇㅑㄱ -15180
▁ㅂㅐㄱㄱㅘㅅㅏㅈㅓㄴ -15181
▁ㅈㅗㅅㅓ -15182
▁ㅋㅐㅊㅣ -15183
ㅈㅓㅇㅅㅏ -15184
▁ㄴㅐㄹㅣㅁ -15185
▁ㅈㅣㅌㅐㅇ -15186
▁ㄱㅐㄱㅅㅣㄹ -15187
▁ㅈㅏㄴㅈㅗㄴ -15188
▁ㄲㅡㅌㄴㅏㄴㄷㅏ -15189
▁ㅇㅏㄹㅍㅗㄴㅅㅗ -15190
ㅇㅣㅆ -15191
▁ㄱㅝㄹ -15192
ㄷㅜㄹㅡ -15193
ㅅㅣㄱㅔ -15194
▁ㄷㅗㄴㅔ -15195
▁ㅅㅣㄴㅎㅐ -15196
▁ㅊㅣㄹㅛㅈㅔ -15197
▁ㅋㅗㅅㅡㅌㅡ -15198
▁ㅍㅡㄹㅏㅇㅣㅈㅡ -15199
▁ㅇㅜㅁㅈㅣㄱㅇㅣㄹ -15200
▁ㅎㅕㅂㄷㅗㅇㅈㅗㅎㅏㅂ -15201
ta -15202
▁-& -15203
▁ㅂㅣㅂ -15204
▁ㅍㅏㅅㅡ -15205
ㅅㅜㅇㅕㅁ -15206
▁ㄷㅗㄱㅈㅜ -15207
▁ㄱㅕㅇㅇㅡㄴ -15208
▁ㅅㅏㅇㅅㅓㄹ -15209
▁ㅂㅜㄷㅡㅇㅅㅣㄱ -15210
▁ㅎㅗㄹㄷㅣㅇㅅㅡ -15211
▁ㄲㅞ -15212
ㄱㅟㄴ -15213
▁ㄴㅏㅊ -15214
▁ㅆㅓㄱ -15215
▁ㅇㅣㅇㅋㅡ -15216
ㅂㅏㅇㄱㅜㄴ -15217
▁ㅊㅓㅇㄱㅏㄱ -15218
ㅈㅓㄹㄷㅗㅅㅏ -15219
▁ㅇㅐㄹㅂㅓㅌㅡ -15220
▁ㅈㅓㅈㅣㄹㅡㄴ -15221
ㅈㅜㅇㅊㅜㅂㅜㅅㅏ -15222
▁ㄱㅏㅁㅇㅕㅁㅈㅡㅇ -15223
▁ㄴㅏㄺ -15224
ㅌㅣㅇㅑ -15225
▁ㄷㅔㄹㄹ -15226
▁ㅅㅛㅋㅡ -15227
▁ㅊㅔㅎㅏ -15228
▁ㄷㅓㄴㅈㅕㅆ -15229
▁ㅅㅏㅇㅅㅓㄴ -15230
▁ㅅㅓㅇㅍㅜㅁ -15231
▁ㅇㅣㅂㅡㅅㅡ -15232
▁ㅈㅓㄹㅇㅑㄱ -15233
▁ㄱㅣㅇㅝㄴㅎㅜ -15234
▁ㅇㅣㄹㅂㅗㄴㅅㅣㄱ -15235
rist -15236
▁And -15237
▁ㄸㅏㅁ -15238
ㄷㅏㅇㅗ -15239
▁ㅇㅏㅌㅔ -15240
▁ㄷㅏㅇㅍㅏ -15241
▁ㅂㅗㅈㅣㄱ -15242
▁ㅅㅣㅁㅅㅗ -15243
▁ㅋㅗㅍㅓㄹ -15244
▁ㅎㅔㄱㅔㄹ -15245
▁ㅁㅏㄹㄹㅏㅇ -15246
▁ㅁㅜㅅㅏㅎㅣ -15247
▁ㅂㅏㄱㅇㅝㄴ -15248
▁ㅍㅡㄹㄹㅣㄴ -15249
▁ㅎㅏㅇㅣㅍㅓ -15250
▁ㄱㅏㄹㄹㅏㅈㅣ -15251
▁ㅇㅣㄹㄹㅓㅅㅡㅌㅡ -15252
▁ㅌㅡㄱㅂㅕㄹㅂㅓㅂ -15253
▁ㅁㅕㅇㅅㅓㅇㅎㅘㅇㅎㅜ -15254
tr -15255
▁ㅅㅖㄴ -15256
ㅍㅡㄹㅔ -15257
▁ㅍㅣㅊㅓ -15258
ㅣㅁㅏㄹㅡ -15259
▁ㄱㅏㄱㅡㄱ -15260
▁ㅇㅠㅁㅏㅇ -15261
▁ㅂㅔㅇㄱㅗㄹ -15262
▁ㅂㅡㄹㄹㅏㄷㅣ -15263
ㅡㄴㅂㅔㄹㅡㅋㅡ -15264
▁ㅇㅣㄴㅗㅇㅜㅇㅔ -15265
▁ㅅㅣㄴㅎㅏㄴㅇㅡㄴㅎㅐㅇ -15266
▁Ag -15267
▁1878 -15268
▁ㄹㅏㄴㅣ -15269
▁ㄴㅗㄴㅎㅏ -15270
▁ㄷㅏㄹㅑㅇ -15271
▁ㅅㅜㄱㅡㅂ -15272
▁ㅊㅜㅇㅊㅣㅇ -15273
▁ㄹㅏㅁㅕㄴㅅㅓ -15274
▁ㅂㅗㅇㅇㅜㄹㅣ -15275
▁ㅍㅡㄹㄹㅏㅅㅡ -15276
▁ㄹㅣㅌㅡ -15277
ㅈㅔㄹㄹㅗ -15278
▁ㅇㅛㅇㅎㅐ -15279
▁ㅇㅣㅁㅗㄱ -15280
▁ㅊㅏㅁㅍㅐ -15281
▁ㅁㅣㄴㅏㅁㅗ -15282
▁ㅋㅓㅁㅍㅏㅇㅣㄹ -15283
▁ㄱㅜㄱㅁㅣㄴㅎㅏㄱㄱㅛ -15284
ee -15285
ky -15286
▁PL -15287
▁ㅇㅣㅇㅑ -15288
ㅇㅓㅂㅈㅏ -15289
▁ㄷㅏㅁㅗㄱ -15290
▁ㅂㅗㄹㅍㅡ -15291
▁ㅇㅕㅇㅁㅣ -15292
▁ㅇㅣㅁㅏㄴ -15293
ㅋㅏㄹㅡㅌㅏ -15294
▁ㅇㅞㅇㅣㅂㅡ -15295
▁ㅈㅜㅇㅇㅛㅇ -15296
▁ㅇㅣㄴㅈㅣㄷㅗ -15297
▁ㅁㅣㄴㅏㅁㅗㅌㅗㄴㅗ -15298
▁ㄱㅗㄷㅡㅇㅎㅏㄱㅅㅐㅇ -15299
▁ㅋㅗㅍㅓㄹㅔㅇㅣㅅㅕㄴ -15300
▁SO -15301
ㅐㅇㅋㅡ -15302
▁ㅎㅜㄷㅡ -15303
▁ㄱㅏㅂㅏㅇ -15304
▁ㅇㅢㅈㅓㅇ -15305
▁ㄷㅗㅇㅌㅏㄱ -15306
▁ㅅㅜㄷㅗㅎㅚ -15307
▁ㅍㅏㄹㄹㅣㄴ -15308
▁ㅎㅐㅇㅎㅐㅈㅕㅆ -15309
ㄴㅣㅇ -15310
ㅋㅣㄴㅏ -15311
▁ㄷㅗㅋㅣ -15312
▁ㄱㅣㄹㄷㅡ -15313
▁ㅇㅗㅌㅗㅂ -15314
▁ㅇㅕㄴㅇㅖㄱㅖ -15315
▁ㅈㅏㄹㅣㅅㅅㅜ -15316
▁ㄱㅓㄴㄹㅠㅇㅈㅔ -15317
▁ㄱㅕㅇㅈㅐㅇㅈㅏ -15318
▁ㅈㅣㅈㅣㄹㅎㅏㄱ -15319
▁ㅎㅜㅈㅣㅇㅘㄹㅏ -15320
▁ㅂㅣㅅㅡㅁㅏㄹㅡㅋㅡ -15321
▁ㅇㅣㄹㄹㅣㄴㅗㅇㅣㅈㅜ -15322
▁ㄱㅛㅅㅓ -15323
▁ㅁㅣㄴㅗ -15324
▁ㅂㅗㄹㅠ -15325
▁ㅅㅑㄹㅡ -15326
▁ㅅㅓㄱㅓ -15327
ㅈㅣㅇㅕㅇ -15328
ㅣㄹㅓㅅㅡ -15329
▁ㄸㅓㄴㅏㄹ -15330
▁ㄲㅗㅊㅇㅣㅍ -15331
▁ㅂㅕㄴㅈㅣㄹ -15332
▁ㅈㅣㄱㅁㅜㄹ -15333
▁ㄷㅐㄹㅣㅅㅓㄱ -15334
ㅁㅜㅅㅡ -15335
▁ㄱㅛㅎㅘ -15336
▁ㅅㅡㅋㅣㄹ -15337
▁ㅈㅏㅎㅐㅇ -15338
▁ㅊㅜㅊㅜㄱ -15339
▁ㄴㅏㅊㅣㅇㅗ -15340
▁ㄷㅡㄹㅇㅕㅇ -15341
▁ㅈㅓㅁㅈㅣㄴ -15342
ㅍㅡㄹㄹㅗㄹㅓ -15343
▁ㅈㅜㄱㅗㅂㅏㄷ -15344
▁ㅅㅣㄴㄱㅣㄹㅗㄱ -15345
▁ㅊㅜㄹㅇㅣㅂㅁㅜㄴ -15346
▁ㅇㅏㄴㅏㅌㅗㄹㄹㅣㅇㅏ -15347
▁ㅇㅣㄱㅅㅡㅍㅡㄹㄹㅗㄹㅓ -15348
ㄲㅗ -15349
ㅈㅣㅈ -15350
▁802 -15351
▁ㄱㅏㅌㅏ -15352
▁ㅈㅏㅂㅜ -15353
▁ㄱㅘㄹㅎㅗ -15354
▁ㅁㅣㅎㅏㄱ -15355
▁ㅅㅓㅈㅓㅁ -15356
▁ㅇㅣㅈㅡㅁ -15357
▁ㄱㅓㄴㄴㅓㄹ -15358
▁ㅊㅜㅇㅅㅣㄴ -15359
▁ㅍㅐㅅㅡㅌㅡ -15360
▁ㅎㅐㅇㄱㅜㄴ -15361
▁ㅎㅕㄴㅇㅏㄱ -15362
▁ㅅㅡㅋㅔㅇㅣㅌㅡ -15363
▁ㅅㅡㅌㅔㅇㅣㅌㅡ -15364
▁tr -15365
ㄹㅏㅅㅡ -15366
[...]
