▁▃ -0
▁ㅇ -1
ㅡㄴ -2
▁⊸ -3
▁⊸⊸ -4
▁하 -5
▁ㄱ -6
▁. -7
▁ㄷ -8
ㅡㄹ -9
ㄴㅡㄴ -10
▁이 -11
▁ㄴㅡㄴ -12
▁ㅇㅔ -13
▁ㄹ -14
▁ㄷㅏ -15
▁ㅇㅢ -16
▁ㅇㅡㄹ -17
▁ㅇㅓ -18
▁ㅇㅣ -19
▁ㅇㅏ -20
▁, -21
ㅅㅓ -22
▁ㄹㅡㄹ -23
▁ㄱㅏ -24
▁ㅇㅡㄴ -25
▁ㅇㅡ -26
▁ㄱㅗ -27
ㄷㅏ -28
ㅁㅕ -29
▁있 -30
▁되 -31
ㅈㅣ -32
▁1 -33
ㄹㅗ -34
▁ㄷㅗ -35
▁ㅇㅓㅆ -36
ㄴㄷㅏ -37
▁ㄹㅗ -38
▁그 -39
▁사 -40
▁2 -41
▁ㅇㅏㅆ -42
▁들 -43
▁아 -44
▁시 -45
▁ㅈㅣ -46
▁ㅁㅕ -47
▁대 -48
▁가 -49
▁수 -50
▁보 -51
▁것 -52
▁지 -53
▁ㄹㅏ -54
▁ㄱㅣ -55
ㅁㅏ -56
▁전 -57
▁일 -58
▁나 -59
▁기 -60
▁ㄱㅔ -61
ㅁㅏㄴ -62
▁주 -63
▁다 -64
▁자 -65
▁적 -66
▁ㅁㅕㄴ -67
▁- -68
▁스 -69
▁ㄱㅘ -70
▁마 -71
▁정 -72
▁ㅇㅘ -73
▁상 -74
▁때 -75
ㄱㅗ -76
▁' -77
▁모 -78
▁오 -79
ㄴㅏ -80
▁3 -81
▁년 -82
▁공 -83
▁인 -84
▁중 -85
▁20 -86
▁부 -87
▁유 -88
▁경 -89
▁제 -90
▁한 -91
▁없 -92
▁위 -93
▁등 -94
▁비 -95
▁무 -96
▁성 -97
▁소 -98
▁: -99
▁어 -100
▁않 -101
▁ㄷㅓ -102
▁만 -103
ㄷㅔ -104
▁미 -105
ㄱㅔ -106
▁개 -107
▁여 -108
▁ㄷㅓㄴ -109
▁4 -110
▁세 -111
▁바 -112
▁고 -113
▁" -114
▁내 -115
▁거 -116
▁조 -117
▁장 -118
▁5 -119
▁동 -120
▁방 -121
▁카 -122
▁도 -123
▁타 -124
▁월 -125
▁연 -126
▁신 -127
▁말 -128
ㄲㅏ -129
▁선 -130
▁ㅂ -131
▁ㅁㅏㄴ -132
▁안 -133
▁구 -134
▁당 -135
▁영 -136
▁후 -137
▁때문 -138
▁201 -139
▁생 -140
▁화 -141
▁버 -142
▁ㄴㅡㄴㄷㅔ -143
▁/ -144
▁발 -145
ㅁㅕㄴ -146
▁리 -147
▁차 -148
▁레 -149
▁크 -150
▁아니 -151
▁원 -152
▁0 -153
ㄴㅣ -154
▁파 -155
▁ㄲㅏ -156
▁ㅇㅕ -157
▁강 -158
▁ㅈ -159
▁우 -160
▁실 -161
▁노 -162
▁의 -163
▁최 -164
▁나오 -165
▁데 -166
▁서 -167
▁명 -168
▁문 -169
▁같 -170
▁많 -171
▁더 -172
▁해 -173
▁번 -174
▁불 -175
▁단 -176
▁포 -177
▁관 -178
▁특 -179
▁작 -180
▁6 -181
▁받 -182
▁역 -183
▁경우 -184
▁쓰 -185
▁결 -186
▁반 -187
▁진 -188
▁게 -189
▁프 -190
▁ㅈㅏ -191
▁10 -192
▁라 -193
▁알 -194
▁초 -195
▁드 -196
▁배 -197
▁계 -198
▁ㅁㅕㄴㅅㅓ -199
▁보이 -200
▁S -201
▁회 -202
▁7 -203
▁코 -204
ㄱㅏ -205
ㄷㅗ -206
▁19 -207
▁남 -208
▁ㄴㅏ -209
▁! -210
▁8 -211
▁물 -212
▁분 -213
▁피 -214
▁편 -215
▁현 -216
▁에 -217
▁사용 -218
▁국 -219
▁출 -220
▁치 -221
▁못 -222
▁정도 -223
▁그리 -224
▁사람 -225
▁두 -226
▁매 -227
▁추 -228
▁이후 -229
▁공격 -230
▁달 -231
▁자신 -232
ㅌㅓ -233
▁좋 -234
▁9 -235
▁따 -236
레이 -237
▁점 -238
▁호 -239
▁저 -240
▁로 -241
▁패 -242
▁A -243
▁트 -244
▁감 -245
▁메 -246
▁요 -247
▁재 -248
▁캐 -249
▁M -250
▁통 -251
▁교 -252
▁등장 -253
▁학 -254
▁또 -255
▁참 -256
▁예 -257
▁가능 -258
▁입 -259
▁형 -260
▁설 -261
ㅇㅑ -262
▁위하 -263
▁속 -264
스트 -265
▁본 -266
▁플 -267
▁ㅂㅜ -268
▁함 -269
▁과 -270
▁군 -271
▁죽 -272
▁T -273
▁다른 -274
▁C -275
▁대하 -276
▁평 -277
▁ᄆ -278
▁시키 -279
▁외 -280
▁판 -281
▁권 -282
▁게임 -283
▁ㅂㅗ -284
▁애 -285
▁버리 -286
▁200 -287
▁종 -288
▁살 -289
▁돌 -290
▁용 -291
▁.. -292
▁토 -293
▁아이 -294
▁D -295
▁ㄴㅡㄴㄷㅏ -296
▁김 -297
▁가지 -298
▁그리고 -299
▁B -300
▁사실 -301
▁% -302
▁체 -303
▁직 -304
▁~ -305
▁키 -306
▁심 -307
▁ㅅㅓ -308
▁잘 -309
▁처 -310
▁하나 -311
▁맞 -312
▁만들 -313
▁그러 -314
어지 -315
▁변 -316
▁승 -317
▁운 -318
▁못하 -319
▁행 -320
▁올 -321
▁ㄱㅓ -322
▁ㄴㅣ -323
▁확 -324
▁필 -325
▁히 -326
▁+ -327
ㄹㅏ -328
▁디 -329
▁베 -330
▁뒤 -331
▁? -332
▁간 -333
▁사이 -334
▁일본 -335
▁팀 -336
er -337
▁이름 -338
▁높 -339
▁12 -340
▁모습 -341
▁박 -342
▁P -343
▁약 -344
▁건 -345
▁야 -346
▁투 -347
▁네 -348
▁시간 -349
▁집 -350
▁목 -351
지만 -352
00 -353
▁이상 -354
▁날 -355
▁ㅇㅕㅆ -356
▁존 -357
▁ㅅ -358
▁활 -359
▁표 -360
스터 -361
▁언 -362
▁L -363
▁능 -364
▁캐릭 -365
▁양 -366
▁한국 -367
▁하지만 -368
▁문제 -369
▁루 -370
▁각 -371
▁ㄹㅕ -372
▁상대 -373
▁테 -374
▁캐릭터 -375
▁F -376
▁왕 -377
▁듯 -378
▁생각 -379
▁G -380
▁별 -381
▁힘 -382
▁병 -383
ㄹㅓ -384
▁함께 -385
▁잡 -386
▁순 -387
in -388
▁터 -389
ㄴㄷㅔ -390
▁손 -391
▁시작 -392
▁천 -393
▁11 -394
대로 -395
▁따르 -396
어나 -397
▁항 -398
▁E -399
▁열 -400
▁완 -401
ㄴㅈㅣ -402
▁경기 -403
▁독 -404
▁ㅊ -405
▁브 -406
▁프로 -407
▁당시 -408
▁막 -409
▁들어 -410
▁능력 -411
▁ㄱㅔㅆ -412
▁블 -413
▁먹 -414
▁폭 -415
▁식 -416
▁ㅊㅓ -417
ㄹㅓㅁ -418
▁효 -419
▁근 -420
▁너 -421
▁끝 -422
▁가장 -423
▁당하 -424
▁K -425
이트 -426
▁복 -427
▁그렇 -428
▁음 -429
▁다시 -430
▁시리 -431
▁또한 -432
on -433
▁증 -434
▁총 -435
▁ㄴ -436
▁클 -437
▁삼 -438
▁광 -439
▁검 -440
▁빠 -441
ㅂㄴㅣ -442
▁페 -443
▁태 -444
▁다만 -445
an -446
▁15 -447
▁플레이 -448
▁새 -449
▁얼 -450
▁H -451
▁상황 -452
▁결국 -453
▁상태 -454
▁걸 -455
▁시리즈 -456
▁R -457
▁시즌 -458
▁많이 -459
▁카드 -460
▁I -461
미지 -462
▁악 -463
▁누 -464
▁N -465
▁채 -466
▁모두 -467
▁충 -468
▁쿠 -469
▁백 -470
▁길 -471
▁싸 -472
▁넘 -473
▁ㅇㅑ -474
▁세계 -475
▁곡 -476
▁m -477
▁급 -478
▁존재 -479
▁친 -480
▁물론 -481
▁금 -482
▁전투 -483
▁추가 -484
▁커 -485
▁모든 -486
▁업 -487
▁앞 -488
▁엔 -489
▁상당 -490
or -491
▁그런 -492
▁눈 -493
▁t -494
▁여기 -495
라이 -496
▁슈 -497
▁산 -498
▁스킬 -499
▁기술 -500
▁머 -501
▁임 -502
▁현재 -503
▁매우 -504
▁라이 -505
▁티 -506
▁이런 -507
▁극 -508
▁자체 -509
▁달리 -510
▁취 -511
▁실제 -512
▁효과 -513
▁및 -514
▁그러나 -515
▁# -516
▁무기 -517
▁선수 -518
▁합 -519
▁O -520
▁절 -521
▁느 -522
▁엄 -523
▁레이 -524
▁레벨 -525
▁이것 -526
▁팬 -527
ar -528
▁스타 -529
▁민 -530
▁이유 -531
ㅁㅡ -532
▁거의 -533
▁W -534
▁통하 -535
▁마법 -536
▁난 -537
▁이용 -538
▁놓 -539
▁주인 -540
▁창 -541
▁벌 -542
▁철 -543
▁니 -544
▁모르 -545
▁부르 -546
▁황 -547
▁16 -548
▁관련 -549
▁허 -550
▁30 -551
▁줄 -552
▁찾 -553
▁역시 -554
▁ㅁㅏ -555
▁밀 -556
▁떨 -557
▁인하 -558
at -559
▁얻 -560
▁환 -561
▁미국 -562
▁들어가 -563
▁케 -564
▁그래 -565
he -566
거리 -567
▁일반 -568
▁바로 -569
▁처음 -570
▁18 -571
▁첫 -572
▁다르 -573
▁해당 -574
▁지역 -575
▁13 -576
▁북 -577
▁작품 -578
▁은 -579
▁곳 -580
▁붙 -581
▁참고 -582
▁청 -583
▁골 -584
이지 -585
▁워 -586
이스 -587
▁기본 -588
▁탈 -589
▁특히 -590
▁여러 -591
▁아무 -592
▁귀 -593
▁격 -594
▁ㅅㅣ -595
▁199 -596
▁나가 -597
▁이야 -598
▁필요 -599
▁돌아 -600
▁인간 -601
▁100 -602
▁혼 -603
▁다음 -604
▁좀 -605
▁부분 -606
▁c -607
▁몬 -608
ㄴㄱㅏ -609
▁이야기 -610
▁14 -611
부분 -612
▁영화 -613
▁잠 -614
▁s -615
▁같이 -616
▁대학 -617
en -618
리스 -619
▁ㄴㅡㄴㅈㅣ -620
▁사건 -621
▁법 -622
▁그냥 -623
▁즉 -624
▁팔 -625
▁V -626
▁없이 -627
▁기록 -628
▁의하 -629
▁뿐 -630
▁방송 -631
▁대부분 -632
▁탄 -633
▁범 -634
▁덕 -635
지막 -636
리아 -637
▁인물 -638
▁쉽 -639
▁주인공 -640
▁면 -641
▁째 -642
▁수준 -643
▁자기 -644
▁비슷 -645
▁글 -646
▁둘 -647
▁본인 -648
ㅇㅛ -649
▁엘 -650
▁몸 -651
▁ㅇㅡㅁ -652
▁ㄴㅑ -653
▁몇 -654
ㄹㅗㄱ -655
▁담 -656
▁17 -657
▁제작 -658
▁25 -659
▁생기 -660
▁풀 -661
▁싶 -662
▁방어 -663
▁몰 -664
▁쪽 -665
▁마지막 -666
▁비하 -667
▁헤 -668
▁k -669
al -670
▁U -671
▁떨어지 -672
▁상당히 -673
▁내용 -674
전히 -675
▁암 -676
▁일부 -677
▁와 -678
▁어느 -679
▁강하 -680
▁리그 -681
▁진행 -682
▁00 -683
▁시절 -684
▁관계 -685
▁실제로 -686
▁X -687
▁학교 -688
▁국가 -689
▁갈 -690
▁대신 -691
▁성우 -692
▁슬 -693
▁넣 -694
▁이전 -695
▁그대로 -696
▁지나 -697
▁대표 -698
▁맡 -699
▁설정 -700
▁질 -701
▁계속 -702
▁밝 -703
▁애니 -704
▁속도 -705
▁지금 -706
ou -707
▁접 -708
▁준 -709
토리 -710
▁전쟁 -711
▁괴 -712
es -713
▁올리 -714
▁알리 -715
▁축 -716
▁죽이 -717
▁보스 -718
▁ㄹㅏㄴ -719
▁타이 -720
▁규 -721
▁활동 -722
▁낮 -723
ㅇㅔ -724
시아 -725
▁위치 -726
▁원래 -727
▁러 -728
▁울 -729
▁몬스터 -730
▁서울 -731
▁제외 -732
▁2015 -733
▁동안 -734
▁뛰 -735
▁기사 -736
▁멀 -737
▁ㅁㅡ -738
▁피해 -739
▁만나 -740
▁감독 -741
▁우리 -742
▁너무 -743
▁츠 -744
▁기준 -745
it -746
▁의미 -747
▁평가 -748
▁망 -749
▁올라 -750
▁육 -751
버지 -752
▁] -753
▁묘 -754
▁싸우 -755
▁배우 -756
라지 -757
▁언급 -758
▁홈 -759
▁공격력 -760
▁이미 -761
▁중국 -762
▁떠 -763
▁도시 -764
▁50 -765
▁직접 -766
▁온 -767
▁J -768
▁성공 -769
▁어렵 -770
▁그녀 -771
▁문서 -772
▁증가 -773
▁메이 -774
가지 -775
▁맨 -776
▁빠르 -777
이션 -778
▁그것 -779
▁유저 -780
▁홍 -781
▁데미지 -782
▁과거 -783
▁엄청 -784
▁장면 -785
▁밝히 -786
▁퍼 -787
▁차이 -788
▁머리 -789
▁[ -790
▁칼 -791
▁꽤 -792
▁자리 -793
is -794
▁여자 -795
▁논 -796
▁던 -797
▁& -798
▁유명 -799
▁희 -800
▁최대 -801
▁정보 -802
▁멤 -803
▁유닛 -804
▁바람 -805
▁돈 -806
▁지원 -807
▁버전 -808
▁봉 -809
▁힘들 -810
▁2016 -811
▁2014 -812
▁늘 -813
▁ㄷㅡ -814
▁개요 -815
▁멤버 -816
re -817
▁설명 -818
▁출연 -819
▁보내 -820
▁개발 -821
▁씩 -822
le -823
▁이루 -824
▁뭐 -825
랜드 -826
▁듣 -827
▁바뀌 -828
▁결과 -829
▁전체 -830
▁까 -831
▁깨 -832
▁체력 -833
▁류 -834
▁21 -835
▁혹 -836
▁ㄹㅓ -837
▁소속 -838
▁측 -839
▁ㄷㅡㄴ -840
▁나타 -841
▁거리 -842
▁님 -843
▁마음 -844
▁d -845
▁방법 -846
▁소리 -847
▁친구 -848
▁딜 -849
▁파이 -850
ic -851
▁뉴 -852
▁이렇 -853
▁역사 -854
▁즈 -855
▁스토리 -856
▁스럽 -857
▁영상 -858
▁협 -859
▁갖 -860
▁선택 -861
▁당연 -862
▁컨 -863
▁198 -864
다가 -865
▁프리 -866
as -867
▁아버지 -868
▁22 -869
▁그런데 -870
▁센 -871
▁불리 -872
▁씨 -873
▁제대로 -874
▁남자 -875
▁드래 -876
▁갑 -877
▁자주 -878
▁조금 -879
▁전부 -880
▁ㅅㅡ -881
▁아이템 -882
▁이동 -883
▁놀 -884
▁< -885
▁노선 -886
▁플레이어 -887
▁답 -888
▁최고 -889
▁공식 -890
▁압 -891
▁탑 -892
▁책 -893
▁w -894
▁주로 -895
▁인기 -896
▁ㅅㅡㅂㄴㅣ -897
▁대전 -898
▁슈퍼 -899
▁여성 -900
▁빌 -901
▁발매 -902
▁게다가 -903
▁24 -904
▁엄청나 -905
▁보통 -906
▁다니 -907
▁2017 -908
▁침 -909
▁대사 -910
▁나이 -911
▁나라 -912
▁빼 -913
▁40 -914
▁최종 -915
▁걸리 -916
▁정말 -917
▁초반 -918
▁2013 -919
▁향 -920
▁파괴 -921
▁인터 -922
▁송 -923
▁빠지 -924
▁사랑 -925
▁쓰이 -926
▁출신 -927
▁승리 -928
▁이러 -929
ing -930
▁시스 -931
▁농 -932
▁만큼 -933
ㅇㅓ -934
▁2018 -935
▁버스 -936
▁영향 -937
▁색 -938
▁모드 -939
▁찍 -940
▁마찬 -941
▁마찬가지 -942
▁기타 -943
▁대상 -944
▁쇼 -945
▁방식 -946
▁ㄷㅐ -947
▁성능 -948
▁연구 -949
▁작중 -950
▁ㄷㅡㅅ -951
▁동시 -952
이드 -953
▁비교 -954
▁끼 -955
▁아예 -956
▁성격 -957
▁사망 -958
▁항목 -959
이도 -960
▁시대 -961
▁이때 -962
운드 -963
▁후반 -964
▁오히 -965
▁정신 -966
⊸⊸ -967
⊸⊸⊸ -968
▁뜻 -969
▁샤 -970
▁오히려 -971
▁우승 -972
▁서로 -973
▁궁 -974
▁일단 -975
▁아직 -976
▁착 -977
▁가깝 -978
▁볼 -979
ㅇㅓㅆ -980
▁형태 -981
▁왜 -982
▁a -983
ㅂㅜ -984
▁일어나 -985
▁강력 -986
▁b -987
▁f -988
▁차량 -989
ㅁㅕㄴㅅㅓ -990
▁유지 -991
▁마이 -992
▁23 -993
▁심지 -994
▁앨 -995
▁드라 -996
▁ㅎ -997
▁역할 -998
프트 -999
▁밖 -1000
▁수록 -1001
▁느끼 -1002
▁스테 -1003
▁발생 -1004
학교 -1005
▁심지어 -1006
▁학생 -1007
▁특성 -1008
▁애니메 -1009
▁콘 -1010
▁속성 -1011
▁포함 -1012
▁링 -1013
▁끌 -1014
▁마리 -1015
▁소환 -1016
머니 -1017
▁누구 -1018
▁모양 -1019
▁노래 -1020
▁술 -1021
▁만화 -1022
▁운영 -1023
▁2012 -1024
▁월드 -1025
▁원작 -1026
▁특수 -1027
om -1028
▁오르 -1029
▁기존 -1030
벤트 -1031
▁바꾸 -1032
▁짓 -1033
우스 -1034
▁잔 -1035
아가 -1036
▁사라지 -1037
▁어떤 -1038
▁중요 -1039
▁나타나 -1040
▁h -1041
▁o -1042
▁ㅎㅏ -1043
▁자세 -1044
▁변경 -1045
▁사회 -1046
▁억 -1047
▁최초 -1048
▁르 -1049
▁애니메이션 -1050
▁좌 -1051
▁섬 -1052
▁이기 -1053
▁풍 -1054
▁액 -1055
▁유일 -1056
▁층 -1057
▁석 -1058
▁음악 -1059
▁결정 -1060
▁폐 -1061
▁흑 -1062
▁빨 -1063
▁이렇게 -1064
▁거기 -1065
el -1066
▁덕분 -1067
▁어떻 -1068
▁과정 -1069
▁구하 -1070
▁그래서 -1071
▁푸 -1072
▁이벤트 -1073
▁움 -1074
▁회복 -1075
리어 -1076
▁시스템 -1077
▁마을 -1078
▁우주 -1079
▁모델 -1080
▁먼 -1081
버스 -1082
am -1083
▁강화 -1084
▁장비 -1085
▁행동 -1086
▁주장 -1087
▁부대 -1088
ion -1089
▁p -1090
▁솔 -1091
▁싱 -1092
▁참조 -1093
▁흔 -1094
▁독일 -1095
▁국내 -1096
▁여담 -1097
▁어리 -1098
레이드 -1099
▁맞추 -1100
▁부족 -1101
▁대한 -1102
▁영어 -1103
▁명칭 -1104
▁난이도 -1105
▁라인 -1106
▁완전히 -1107
▁2019 -1108
소드 -1109
▁프랑 -1110
▁지구 -1111
▁구성 -1112
▁휴 -1113
▁작가 -1114
▁바이 -1115
나마 -1116
▁드래곤 -1117
▁스트 -1118
▁확률 -1119
▁훈 -1120
▁굉 -1121
▁이제 -1122
민국 -1123
▁아래 -1124
▁전혀 -1125
▁뜨 -1126
▁ㅂㅏ -1127
▁발동 -1128
주의 -1129
▁사진 -1130
▁끝나 -1131
▁입장 -1132
▁활약 -1133
▁에피 -1134
▁n -1135
▁the -1136
▁오브 -1137
▁새롭 -1138
▁특징 -1139
▁현대 -1140
▁혹은 -1141
▁숨 -1142
▁26 -1143
▁그나마 -1144
▁가격 -1145
▁짜 -1146
▁뽑 -1147
▁따라 -1148
▁아들 -1149
▁어디 -1150
▁이거 -1151
▁정치 -1152
▁2010 -1153
▁주변 -1154
▁날리 -1155
▁콜 -1156
▁대회 -1157
▁영국 -1158
▁다이 -1159
▁들어오 -1160
▁얼굴 -1161
▁굉장 -1162
▁하이 -1163
▁에피소드 -1164
▁내리 -1165
▁28 -1166
너지 -1167
ac -1168
▁먼저 -1169
▁자동 -1170
ol -1171
▁맵 -1172
▁녹 -1173
▁차지 -1174
▁드러 -1175
▁할 -1176
▁TV -1177
▁영웅 -1178
▁응 -1179
▁빛 -1180
▁드라마 -1181
▁27 -1182
▁제국 -1183
없이 -1184
▁돌아오 -1185
▁잃 -1186
▁정확 -1187
ㄲㅇㅔ -1188
▁ㅂㅏㄲㅇㅔ -1189
▁하루 -1190
▁히로 -1191
▁확인 -1192
▁대한민국 -1193
▁묘사 -1194
▁넘어 -1195
▁시점 -1196
▁공개 -1197
▁마스터 -1198
▁회사 -1199
▁반대 -1200
▁휘 -1201
▁얼마 -1202
▁윤 -1203
▁2011 -1204
▁시기 -1205
디오 -1206
▁표현 -1207
▁초기 -1208
▁견 -1209
▁담당 -1210
▁익 -1211
▁돌아가 -1212
▁웨 -1213
▁기능 -1214
인트 -1215
▁000 -1216
▁연기 -1217
ㅇㅣ -1218
▁아마 -1219
레스 -1220
▁동일 -1221
▁실력 -1222
▁관리 -1223
▁폴 -1224
인물 -1225
▁ㅈㅗ -1226
ㅊㅏ -1227
▁계획 -1228
▁생산 -1229
▁딱 -1230
▁쏘 -1231
▁지키 -1232
▁= -1233
▁무엇 -1234
ㅜㄴ -1235
et -1236
▁딸 -1237
▁맥 -1238
▁자유 -1239
▁듀 -1240
▁모으 -1241
▁판매 -1242
▁실패 -1243
▁정부 -1244
▁엔딩 -1245
▁야구 -1246
▁건물 -1247
▁등장인물 -1248
▁그렇게 -1249
▁습 -1250
▁맛 -1251
▁순간 -1252
▁사고 -1253
▁헬 -1254
▁ㅇㅏㅆㅇㅓㅆ -1255
▁기관 -1256
▁개인 -1257
il -1258
▁컴 -1259
ig -1260
▁뮤 -1261
ed -1262
▁그림 -1263
▁이미지 -1264
▁Y -1265
▁틀 -1266
▁적용 -1267
▁교육 -1268
▁심하 -1269
▁인정 -1270
▁당연히 -1271
▁스페 -1272
▁앨범 -1273
▁고등 -1274
▁세대 -1275
▁경찰 -1276
▁떠나 -1277
▁반응 -1278
▁조건 -1279
ow -1280
▁km -1281
▁세이 -1282
▁60 -1283
▁올라가 -1284
▁파워 -1285
▁엑 -1286
▁챔 -1287
▁벨 -1288
▁기억 -1289
▁ㄹㅜ -1290
▁오리 -1291
소리 -1292
▁패치 -1293
▁족 -1294
us -1295
▁문화 -1296
▁기간 -1297
▁퀘 -1298
▁진짜 -1299
BS -1300
▁표기 -1301
▁미치 -1302
▁발견 -1303
▁방면 -1304
▁움직 -1305
▁디자 -1306
▁생활 -1307
▁확실 -1308
▁of -1309
▁굉장히 -1310
▁패턴 -1311
▁취급 -1312
ㅌㅔ -1313
▁퇴 -1314
▁프랑스 -1315
▁도움 -1316
▁타입 -1317
▁땅 -1318
로스 -1319
▁ㅎㅏㄴ -1320
▁ㅎㅏㄴㅌㅔ -1321
▁29 -1322
▁출시 -1323
▁현실 -1324
▁무시 -1325
▁처리 -1326
▁아주 -1327
▁소개 -1328
▁롭 -1329
▁홀 -1330
▁무장 -1331
▁패배 -1332
▁데이 -1333
들이 -1334
뜨리 -1335
ㅆㅓ -1336
▁칸 -1337
▁또는 -1338
▁킹 -1339
▁대체 -1340
▁건담 -1341
▁Z -1342
▁헌 -1343
▁약하 -1344
▁폭발 -1345
▁지니 -1346
▁굴 -1347
▁중간 -1348
▁소설 -1349
▁프로그 -1350
▁197 -1351
▁단순 -1352
▁겨 -1353
▁구간 -1354
▁그래도 -1355
▁지속 -1356
▁결혼 -1357
▁한정 -1358
▁던지 -1359
▁훨 -1360
▁단계 -1361
▁계열 -1362
▁가족 -1363
▁대학교 -1364
아내 -1365
▁35 -1366
▁콤 -1367
▁싸움 -1368
스크 -1369
▁꾸 -1370
▁주의 -1371
▁흡 -1372
▁31 -1373
▁발사 -1374
▁랭 -1375
▁나쁘 -1376
▁약간 -1377
▁사실상 -1378
▁방향 -1379
▁v -1380
▁조선 -1381
▁The -1382
▁밀리 -1383
▁어머니 -1384
▁이번 -1385
▁구조 -1386
▁훨씬 -1387
▁아르 -1388
▁어떻게 -1389
▁빈 -1390
▁상승 -1391
▁경험 -1392
▁중심 -1393
ad -1394
ㅈㅏ -1395
▁다루 -1396
▁세트 -1397
▁쉬 -1398
▁위험 -1399
▁아군 -1400
ㄹㅈㅣ -1401
▁블랙 -1402
▁덱 -1403
▁죄 -1404
▁노리 -1405
▁운동 -1406
▁동료 -1407
▁싫 -1408
▁특별 -1409
▁믿 -1410
▁피하 -1411
▁남기 -1412
▁활용 -1413
▁상위 -1414
▁더욱 -1415
▁분위 -1416
▁2000 -1417
▁린 -1418
▁운행 -1419
▁졸 -1420
▁범위 -1421
▁r -1422
▁포켓 -1423
▁읽 -1424
▁욕 -1425
▁요구 -1426
▁낙 -1427
ㅡㅁ -1428
▁80 -1429
▁쿨 -1430
으키 -1431
이크 -1432
▁숙 -1433
▁분위기 -1434
▁똑 -1435
▁쌍 -1436
▁탐 -1437
▁디자인 -1438
▁핵 -1439
▁감소 -1440
니아 -1441
▁물리 -1442
▁수비 -1443
▁탓 -1444
▁ㄹㅏㅇ -1445
▁St -1446
▁소모 -1447
▁불구 -1448
▁혼자 -1449
ER -1450
▁시장 -1451
▁중앙 -1452
▁유리 -1453
▁목적 -1454
▁옆 -1455
▁지하 -1456
▁여전히 -1457
▁그룹 -1458
비스 -1459
▁뛰어나 -1460
▁얘 -1461
▁트리 -1462
▁37 -1463
▁밤 -1464
▁흐 -1465
▁500 -1466
id -1467
▁웃 -1468
▁나중 -1469
ot -1470
▁다양 -1471
▁염 -1472
머지 -1473
and -1474
▁나머지 -1475
▁론 -1476
▁진출 -1477
▁내려 -1478
▁켄 -1479
▁항공 -1480
▁율 -1481
ay -1482
▁설치 -1483
▁브라 -1484
▁묻 -1485
▁전용 -1486
▁방영 -1487
ㅅㅣ -1488
▁기체 -1489
▁흥 -1490
▁괜 -1491
스로 -1492
▁세력 -1493
ㄹㅕ -1494
▁프로그램 -1495
▁그거 -1496
▁전차 -1497
아오 -1498
▁부산 -1499
▁꿈 -1500
ve -1501
▁축구 -1502
▁포인트 -1503
▁갤 -1504
▁이어지 -1505
▁즐 -1506
ch -1507
▁일으키 -1508
ㄹㄹㅗ -1509
리카 -1510
▁잘못 -1511
▁번역 -1512
▁미사 -1513
▁선발 -1514
▁러시아 -1515
러지 -1516
▁고려 -1517
▁느낌 -1518
▁세우 -1519
▁종족 -1520
▁포켓몬 -1521
▁넘어가 -1522
▁90 -1523
▁미션 -1524
▁시청 -1525
▁퀘스트 -1526
▁성장 -1527
▁변하 -1528
un -1529
▁스테이지 -1530
▁붙이 -1531
▁각각 -1532
▁꼬 -1533
▁대미지 -1534
▁스피 -1535
티브 -1536
▁주요 -1537
20 -1538
▁계약 -1539
▁득 -1540
▁시도 -1541
▁크리스 -1542
▁mm -1543
▁획 -1544
▁굳 -1545
▁참여 -1546
▁l -1547
▁비판 -1548
▁열리 -1549
▁성적 -1550
▁고등학교 -1551
dd -1552
▁로봇 -1553
▁타카 -1554
▁어찌 -1555
▁돕 -1556
▁턴 -1557
▁도망 -1558
▁데뷔 -1559
▁투수 -1560
ㄹㄲㅏ -1561
▁짧 -1562
▁가리 -1563
▁전문 -1564
ㅋㅡㅁ -1565
▁거대 -1566
▁과학 -1567
▁유니 -1568
▁절대 -1569
▁부활 -1570
▁녀 -1571
▁벗 -1572
▁70 -1573
▁나무 -1574
▁ㅇㅗ -1575
▁척 -1576
▁애초 -1577
▁셈 -1578
▁렌 -1579
▁훈련 -1580
▁배틀 -1581
▁만드 -1582
▁지방 -1583
▁충격 -1584
▁준비 -1585
▁해결 -1586
▁논란 -1587
▁털 -1588
▁챔피 -1589
▁이해 -1590
▁g -1591
▁가끔 -1592
▁ㅁㅏㄴㅋㅡㅁ -1593
▁칭 -1594
▁생명 -1595
▁배경 -1596
▁비행 -1597
▁스스로 -1598
▁바라 -1599
▁터지 -1600
▁경제 -1601
▁일행 -1602
▁소녀 -1603
▁펼 -1604
ㅈㅓ -1605
▁오래 -1606
▁전설 -1607
▁철도 -1608
▁삭 -1609
▁요소 -1610
▁전작 -1611
ro -1612
▁엔진 -1613
▁야마 -1614
▁량 -1615
▁률 -1616
▁조직 -1617
▁부상 -1618
▁똑같 -1619
통령 -1620
▁규모 -1621
▁2009 -1622
▁징 -1623
▁정상 -1624
▁발표 -1625
▁큐 -1626
▁벌이 -1627
▁자랑 -1628
▁도중 -1629
▁움직이 -1630
▁삼성 -1631
▁이루어지 -1632
▁벌어지 -1633
▁끊 -1634
▁01 -1635
▁일정 -1636
▁학년 -1637
▁의견 -1638
▁무리 -1639
▁덤 -1640
▁스파 -1641
▁벽 -1642
▁기대 -1643
▁변화 -1644
▁충분 -1645
▁밴 -1646
▁죽음 -1647
▁스카 -1648
▁팩 -1649
▁사이트 -1650
▁직업 -1651
▁혈 -1652
▁45 -1653
▁최근 -1654
▁... -1655
▁스타일 -1656
▁빅 -1657
▁정체 -1658
▁기동 -1659
▁옥 -1660
▁유럽 -1661
어들 -1662
▁마치 -1663
▁종류 -1664
▁예정 -1665
▁작전 -1666
▁이쪽 -1667
▁공중 -1668
▁보호 -1669
▁랜 -1670
▁300 -1671
▁대통령 -1672
▁목소리 -1673
▁제목 -1674
▁아프 -1675
▁록 -1676
▁조합 -1677
▁연속 -1678
▁품 -1679
▁전하 -1680
다니 -1681
▁근접 -1682
▁올라오 -1683
▁정작 -1684
스타 -1685
다리 -1686
▁전사 -1687
▁버프 -1688
▁별로 -1689
▁십 -1690
ir -1691
▁력 -1692
▁장착 -1693
▁ㄷㅡㅅㅇㅣ -1694
▁안타 -1695
▁신경 -1696
▁지도 -1697
▁요리 -1698
▁연출 -1699
▁빙 -1700
▁아키 -1701
▁32 -1702
▁세상 -1703
▁추정 -1704
▁나름 -1705
▁반면 -1706
▁다리 -1707
▁자연 -1708
▁악마 -1709
▁캠 -1710
▁소재 -1711
▁카이 -1712
▁냉 -1713
▁번호 -1714
ter -1715
▁라운드 -1716
▁란 -1717
▁대화 -1718
▁전기 -1719
▁수도 -1720
▁타격 -1721
▁그만 -1722
▁남성 -1723
▁등급 -1724
▁국제 -1725
▁ㄴㅡ -1726
▁196 -1727
▁탱 -1728
▁제공 -1729
▁참가 -1730
▁획득 -1731
▁다크 -1732
▁뒷 -1733
▁방어력 -1734
▁ㄱㅜ -1735
▁멸 -1736
▁링크 -1737
▁연합 -1738
▁저지 -1739
▁판정 -1740
▁동물 -1741
▁늘어나 -1742
im -1743
▁따로 -1744
▁후보 -1745
▁) -1746
▁수정 -1747
▁비롯 -1748
▁정식 -1749
▁아이돌 -1750
▁의외 -1751
▁롯 -1752
▁레어 -1753
▁당신 -1754
▁교통 -1755
▁각종 -1756
▁48 -1757
▁극장 -1758
▁배치 -1759
디어 -1760
▁연결 -1761
▁케이 -1762
▁던전 -1763
▁곧 -1764
▁만약 -1765
자기 -1766
▁관심 -1767
▁위기 -1768
▁안정 -1769
▁센터 -1770
▁가르 -1771
▁개념 -1772
▁수상 -1773
▁나누 -1774
▁항상 -1775
▁사업 -1776
▁특정 -1777
▁시험 -1778
▁사례 -1779
▁레인 -1780
▁2008 -1781
▁찌 -1782
지션 -1783
▁내부 -1784
러스 -1785
▁에너지 -1786
▁이외 -1787
▁얘기 -1788
▁민주 -1789
▁분노 -1790
▁황제 -1791
▁가져 -1792
▁맹 -1793
리오 -1794
▁변신 -1795
BC -1796
▁북한 -1797
ub -1798
▁돌리 -1799
▁단점 -1800
▁파일 -1801
▁ㄴㅔ -1802
▁옵 -1803
▁단어 -1804
▁종료 -1805
▁필드 -1806
▁롤 -1807
▁사격 -1808
▁cm -1809
▁지휘 -1810
ag -1811
▁제일 -1812
▁나이트 -1813
나라 -1814
▁36 -1815
▁힐 -1816
▁ㄹㅣ -1817
▁크리 -1818
▁루트 -1819
▁조사 -1820
▁놈 -1821
▁발전 -1822
▁y -1823
▁공연 -1824
▁장갑 -1825
▁따라서 -1826
▁쯤 -1827
▁더불 -1828
▁지상 -1829
▁향하 -1830
▁넓 -1831
▁물건 -1832
▁스포 -1833
너스 -1834
▁미래 -1835
▁33 -1836
▁사정 -1837
▁넘기 -1838
▁인터뷰 -1839
▁챔피언 -1840
▁한편 -1841
동안 -1842
▁클래 -1843
▁런 -1844
▁서비스 -1845
▁괜찮 -1846
▁이르 -1847
▁각성 -1848
▁엘리 -1849
▁사냥 -1850
▁선거 -1851
▁기계 -1852
▁x -1853
▁외국 -1854
▁거치 -1855
▁점수 -1856
▁* -1857
라인 -1858
▁Lv -1859
▁펼치 -1860
데이트 -1861
▁특이 -1862
▁업데이트 -1863
이치 -1864
▁군사 -1865
▁기업 -1866
▁아카 -1867
▁파티 -1868
▁최소 -1869
▁ㅃ -1870
▁별명 -1871
▁옷 -1872
믹스 -1873
▁ㅃㅜㄴ -1874
▁e -1875
트리 -1876
▁이탈 -1877
▁닥 -1878
▁사항 -1879
▁인구 -1880
▁살리 -1881
▁코스 -1882
▁인식 -1883
▁완전 -1884
ur -1885
▁시티 -1886
▁05 -1887
▁시설 -1888
od -1889
▁어쩌 -1890
▁깔 -1891
▁시전 -1892
▁일러 -1893
▁해군 -1894
야마 -1895
▁국민 -1896
▁튀 -1897
▁도로 -1898
▁세기 -1899
▁띄 -1900
os -1901
▁고속 -1902
▁바르 -1903
어로 -1904
▁화력 -1905
▁히트 -1906
▁하늘 -1907
▁로드 -1908
▁조종 -1909
▁납 -1910
▁제한 -1911
▁02 -1912
▁위력 -1913
▁달성 -1914
▁닌 -1915
▁프레 -1916
▁제품 -1917
▁최강 -1918
▁가수 -1919
▁th -1920
▁직전 -1921
▁개그 -1922
▁SK -1923
▁생존 -1924
▁비밀 -1925
▁상관 -1926
▁마나 -1927
▁03 -1928
▁오프 -1929
▁쌓 -1930
ST -1931
▁죠 -1932
▁그야 -1933
▁점프 -1934
▁삭제 -1935
▁순위 -1936
▁', -1937
▁마시 -1938
▁드러나 -1939
▁교체 -1940
▁일러스트 -1941
▁히어로 -1942
▁싱글 -1943
▁옛 -1944
▁감정 -1945
▁위원 -1946
▁홈런 -1947
▁때리 -1948
▁EX -1949
▁벤 -1950
▁사기 -1951
▁장소 -1952
▁보유 -1953
▁전국 -1954
▁역대 -1955
말로 -1956
▁녀석 -1957
▁학원 -1958
▁목록 -1959
▁본래 -1960
▁언제 -1961
▁목표 -1962
▁몽 -1963
▁그야말로 -1964
▁요시 -1965
ㄷㅓ -1966
▁왼 -1967
▁부모 -1968
▁압도 -1969
▁분류 -1970
▁군대 -1971
▁뇌 -1972
▁명령 -1973
▁이끌 -1974
▁출전 -1975
▁가드 -1976
▁깊 -1977
▁주제 -1978
▁꽃 -1979
보이 -1980
▁2007 -1981
▁펜 -1982
▁느리 -1983
▁ㅇㅡㄴㄷㅔ -1984
▁독립 -1985
▁잇 -1986
▁붕 -1987
모토 -1988
▁픽 -1989
▁마사 -1990
▁잉 -1991
▁포지션 -1992
▁누르 -1993
um -1994
▁무슨 -1995
▁예전 -1996
▁연재 -1997
▁갑자기 -1998
▁공간 -1999
▁위키 -2000
▁진화 -2001
igh -2002
▁사거리 -2003
▁34 -2004
▁데스 -2005
▁워낙 -2006
▁속하 -2007
▁어둠 -2008
ff -2009
▁아스 -2010
라스 -2011
▁표시 -2012
▁라이트 -2013
▁HP -2014
▁작곡 -2015
▁전개 -2016
▁탈출 -2017
▁폰 -2018
ut -2019
ent -2020
▁작업 -2021
▁지내 -2022
▁병원 -2023
▁고양 -2024
▁떡 -2025
▁중반 -2026
▁태어나 -2027
50 -2028
▁크기 -2029
▁병력 -2030
▁09 -2031
▁예상 -2032
아들이 -2033
▁베이 -2034
▁레드 -2035
▁가문 -2036
▁곤 -2037
▁04 -2038
▁컬 -2039
▁소련 -2040
▁수치 -2041
▁ㄱㅗㄴ -2042
▁톤 -2043
▁포기 -2044
▁의식 -2045
▁원인 -2046
▁건설 -2047
▁꺼 -2048
ak -2049
▁낫 -2050
▁텐 -2051
▁밑 -2052
▁노트 -2053
▁겸 -2054
▁보상 -2055
트라 -2056
▁현상 -2057
ㄴㅑ -2058
▁병사 -2059
▁살인 -2060
▁겪 -2061
ver -2062
AR -2063
▁멘 -2064
▁노력 -2065
▁높이 -2066
▁정하 -2067
▁거두 -2068
▁07 -2069
▁무대 -2070
▁키우 -2071
▁살아 -2072
▁08 -2073
▁포스 -2074
시마 -2075
▁장점 -2076
▁행위 -2077
▁마르 -2078
▁전력 -2079
▁졸업 -2080
▁강제 -2081
▁갖추 -2082
▁클리어 -2083
▁06 -2084
▁윈 -2085
▁카운 -2086
▁미사일 -2087
▁웹 -2088
학생 -2089
▁도쿄 -2090
▁찬 -2091
ec -2092
▁오른 -2093
▁전자 -2094
▁동생 -2095
▁아파 -2096
▁무려 -2097
▁칠 -2098
▁롯데 -2099
▁비중 -2100
▁효율 -2101
▁부정 -2102
젝트 -2103
▁경쟁 -2104
▁194 -2105
▁ㅋ -2106
▁임무 -2107
▁차원 -2108
▁확정 -2109
▁Q -2110
▁인천 -2111
▁숨기 -2112
▁뿌 -2113
▁크로 -2114
▁고정 -2115
▁도입 -2116
▁쥬 -2117
▁발음 -2118
▁새로 -2119
▁티어 -2120
▁드리 -2121
▁이어 -2122
▁짐 -2123
▁이하 -2124
▁2006 -2125
무라 -2126
▁가면 -2127
▁해외 -2128
▁전반 -2129
▁필살 -2130
▁화면 -2131
▁관하 -2132
▁근처 -2133
AN -2134
▁부하 -2135
▁주문 -2136
▁인터넷 -2137
▁완성 -2138
▁잠시 -2139
▁음식 -2140
▁촬 -2141
▁오리지 -2142
▁집중 -2143
▁신체 -2144
▁덜 -2145
▁무한 -2146
▁꼭 -2147
▁보병 -2148
▁파트 -2149
▁공주 -2150
▁래 -2151
▁인사 -2152
▁셋 -2153
▁지지 -2154
▁정확히 -2155
▁평균 -2156
▁하드 -2157
▁결승 -2158
ㄷㅡㄴ -2159
▁인도 -2160
▁38 -2161
▁라이브 -2162
▁마법사 -2163
▁가사 -2164
▁한글 -2165
▁아무리 -2166
▁분명 -2167
▁평범 -2168
▁션 -2169
▁잡히 -2170
▁타임 -2171
▁근데 -2172
▁쫓 -2173
▁> -2174
▁밸 -2175
▁붉 -2176
▁빌리 -2177
▁쓸 -2178
▁택 -2179
▁여행 -2180
▁재미 -2181
▁유사 -2182
▁행정 -2183
▁판단 -2184
▁버티 -2185
▁환경 -2186
▁굳이 -2187
▁옮 -2188
▁주민 -2189
▁kg -2190
▁수행 -2191
▁나서 -2192
루스 -2193
▁종종 -2194
▁종교 -2195
▁촬영 -2196
▁캡 -2197
▁꾼 -2198
페이지 -2199
▁몇몇 -2200
이어 -2201
란드 -2202
▁폭탄 -2203
▁비용 -2204
▁기반 -2205
▁줄이 -2206
아하 -2207
▁발언 -2208
▁완벽 -2209
▁반드 -2210
▁홈페이지 -2211
▁대장 -2212
▁반드시 -2213
▁랭크 -2214
▁선생 -2215
▁단체 -2216
▁로마 -2217
▁광고 -2218
▁패러 -2219
▁제거 -2220
▁실험 -2221
▁플래 -2222
▁받아들이 -2223
▁즐기 -2224
조건 -2225
▁다수 -2226
▁봉인 -2227
▁직후 -2228
래프트 -2229
▁성향 -2230
르트 -2231
▁심각 -2232
▁뻔 -2233
▁아내 -2234
▁공포 -2235
▁운용 -2236
▁좋아하 -2237
▁페이 -2238
▁밴드 -2239
▁버그 -2240
▁옵션 -2241
▁미니 -2242
▁in -2243
▁빨리 -2244
▁FC -2245
▁오버 -2246
▁LG -2247
▁치료 -2248
▁킬 -2249
▁자원 -2250
▁아파트 -2251
▁잭 -2252
▁대구 -2253
▁점점 -2254
▁기다리 -2255
▁조작 -2256
▁무조건 -2257
▁암살 -2258
▁전략 -2259
러리 -2260
무리 -2261
▁코드 -2262
▁도전 -2263
▁단지 -2264
▁함정 -2265
▁앞서 -2266
▁지배 -2267
▁디스 -2268
▁구분 -2269
▁컵 -2270
▁특유 -2271
▁샷 -2272
▁다소 -2273
▁대중 -2274
▁옮기 -2275
▁바다 -2276
▁대결 -2277
▁본격 -2278
▁통합 -2279
로그 -2280
▁한계 -2281
▁끝내 -2282
▁골드 -2283
▁개조 -2284
그레이드 -2285
▁업그레이드 -2286
▁기회 -2287
▁소년 -2288
▁왕국 -2289
▁다행 -2290
▁모이 -2291
▁월드컵 -2292
▁연장 -2293
▁접근 -2294
▁흘 -2295
▁사쿠 -2296
▁따지 -2297
▁저항 -2298
▁늦 -2299
▁you -2300
▁외모 -2301
em -2302
▁밥 -2303
▁금지 -2304
▁시나 -2305
▁추측 -2306
▁모자 -2307
운데 -2308
▁의사 -2309
▁군단 -2310
스케 -2311
▁쿄 -2312
▁빵 -2313
▁앙 -2314
▁수많 -2315
▁최후 -2316
▁오늘 -2317
▁템 -2318
▁오리지널 -2319
▁정리 -2320
▁확장 -2321
ON -2322
▁열차 -2323
▁책임 -2324
▁복수 -2325
아보 -2326
▁범죄 -2327
▁복귀 -2328
▁장치 -2329
▁타이틀 -2330
▁다운 -2331
▁치명 -2332
▁일본어 -2333
▁MA -2334
▁디지 -2335
▁구매 -2336
▁소유 -2337
라이더 -2338
▁스코 -2339
▁2005 -2340
▁ㄴㅡㄴㄱㅏ -2341
▁멋 -2342
▁부탁 -2343
▁언어 -2344
▁웬 -2345
▁줄어들 -2346
▁멜 -2347
▁형제 -2348
▁부여 -2349
▁에이 -2350
▁광역 -2351
▁교수 -2352
▁젊 -2353
▁브레이 -2354
▁고대 -2355
ight -2356
▁대기 -2357
▁득점 -2358
▁vs -2359
▁to -2360
버리 -2361
요일 -2362
ation -2363
▁상징 -2364
▁우선 -2365
▁55 -2366
▁삼국 -2367
▁평소 -2368
▁투입 -2369
ㅅㅜ -2370
▁터미 -2371
▁혁 -2372
▁75 -2373
▁불가 -2374
▁인상 -2375
드리 -2376
▁II -2377
▁가운데 -2378
▁사령 -2379
▁99 -2380
▁흉 -2381
▁스포츠 -2382
▁장르 -2383
▁대단 -2384
▁달러 -2385
아지 -2386
▁간단 -2387
▁형식 -2388
▁추천 -2389
▁영혼 -2390
▁ㅇㅡㄹㅈㅣ -2391
▁유우 -2392
▁2004 -2393
▁고르 -2394
▁해석 -2395
▁이곳 -2396
▁ㅈㅛ -2397
▁앤 -2398
퓨터 -2399
ce -2400
▁숫 -2401
▁정의 -2402
▁대로 -2403
▁가치 -2404
▁자동차 -2405
▁대형 -2406
▁기념 -2407
▁Ch -2408
▁사무 -2409
▁이닝 -2410
▁희생 -2411
IN -2412
▁걱 -2413
리트 -2414
▁충분히 -2415
▁리더 -2416
▁생물 -2417
▁걱정 -2418
▁주력 -2419
▁일종 -2420
▁카오 -2421
▁입히 -2422
▁아쉽 -2423
▁얼마나 -2424
▁사상 -2425
▁탈락 -2426
▁와중 -2427
▁카즈 -2428
ap -2429
▁마크 -2430
▁망하 -2431
▁뚫 -2432
▁KBS -2433
▁극장판 -2434
▁스크 -2435
▁불명 -2436
▁이탈리아 -2437
비아 -2438
런스 -2439
▁42 -2440
▁마력 -2441
▁컴퓨터 -2442
▁행성 -2443
▁마무리 -2444
▁사태 -2445
▁비싸 -2446
▁이치 -2447
▁인류 -2448
▁채우 -2449
▁도착 -2450
▁폼 -2451
▁네이 -2452
▁전화 -2453
000 -2454
▁필살기 -2455
▁재료 -2456
▁취하 -2457
▁공화 -2458
▁39 -2459
▁1000 -2460
▁섞 -2461
▁통신 -2462
▁PC -2463
▁지정 -2464
▁MBC -2465
▁육군 -2466
▁회피 -2467
▁잊 -2468
▁서버 -2469
▁무사 -2470
▁닉 -2471
▁기지 -2472
▁프로젝트 -2473
▁그저 -2474
ul -2475
▁셀 -2476
▁전통 -2477
▁엠 -2478
▁액션 -2479
▁공략 -2480
▁거부 -2481
일러 -2482
▁2002 -2483
▁가정 -2484
▁행사 -2485
▁먹이 -2486
▁쥐 -2487
▁끄 -2488
▁로스 -2489
▁도망치 -2490
▁서술 -2491
▁올림 -2492
▁비트 -2493
▁구단 -2494
▁빼앗 -2495
▁한국어 -2496
▁시민 -2497
▁단순히 -2498
▁장난 -2499
▁자료 -2500
▁41 -2501
니티 -2502
▁대비 -2503
▁보너스 -2504
▁_ -2505
▁목숨 -2506
▁보조 -2507
▁넥 -2508
▁더블 -2509
▁닮 -2510
▁살아남 -2511
▁값 -2512
▁의도 -2513
▁드립 -2514
동생 -2515
▁뿌리 -2516
▁데이터 -2517
▁집단 -2518
▁불과 -2519
▁박사 -2520
▁전원 -2521
▁아웃 -2522
▁덩 -2523
▁연주 -2524
▁합류 -2525
▁구역 -2526
▁제로 -2527
레이션 -2528
나가 -2529
▁괴물 -2530
▁의지 -2531
▁료 -2532
▁컨셉 -2533
▁전술 -2534
▁검사 -2535
▁눈물 -2536
▁합치 -2537
▁저지르 -2538
▁카메 -2539
▁라디오 -2540
▁흡수 -2541
▁딱히 -2542
▁실수 -2543
▁빔 -2544
ri -2545
▁윌 -2546
▁벗어나 -2547
▁제도 -2548
▁겹 -2549
▁장군 -2550
▁숫자 -2551
▁적절 -2552
▁클럽 -2553
▁후속 -2554
▁화염 -2555
▁오토 -2556
▁고양이 -2557
▁유키 -2558
▁상대방 -2559
▁맺 -2560
▁조정 -2561
▁44 -2562
▁정규 -2563
▁함대 -2564
▁마츠 -2565
▁텔 -2566
▁대응 -2567
▁드러내 -2568
▁타자 -2569
▁위협 -2570
▁모티브 -2571
▁편하 -2572
▁수리 -2573
▁장기 -2574
▁연습 -2575
▁드라이 -2576
▁듀얼 -2577
▁독자 -2578
▁시내 -2579
크래프트 -2580
▁케이스 -2581
▁감안 -2582
려가 -2583
▁저격 -2584
자리 -2585
▁앉 -2586
▁릴 -2587
▁꼴 -2588
려오 -2589
▁날개 -2590
▁보컬 -2591
▁약점 -2592
▁테마 -2593
▁격투 -2594
▁기어 -2595
▁무섭 -2596
▁반복 -2597
▁43 -2598
▁몹 -2599
▁터미널 -2600
니스 -2601
모리 -2602
▁떼 -2603
▁지나가 -2604
▁에이스 -2605
나이 -2606
RA -2607
▁풀리 -2608
▁테크 -2609
▁개월 -2610
nd -2611
▁들이 -2612
▁꾸준 -2613
▁상세 -2614
▁닥터 -2615
▁들리 -2616
▁대놓 -2617
▁분리 -2618
▁설계 -2619
▁바닥 -2620
▁공항 -2621
▁이적 -2622
▁시나리오 -2623
▁종합 -2624
▁회전 -2625
▁BG -2626
▁확실히 -2627
▁보다 -2628
▁공동 -2629
▁오랜 -2630
▁이사 -2631
▁2003 -2632
타임 -2633
▁서브 -2634
all -2635
▁코어 -2636
▁댄 -2637
▁에어 -2638
▁그때 -2639
▁친하 -2640
▁패러디 -2641
▁숲 -2642
▁투표 -2643
▁미리 -2644
▁성인 -2645
▁페르 -2646
▁ㄱㅓㄴ -2647
▁지나치 -2648
AL -2649
▁필수 -2650
▁세계관 -2651
▁ST -2652
ia -2653
▁유도 -2654
▁51 -2655
▁지명 -2656
▁체제 -2657
▁클래스 -2658
▁가하 -2659
▁컷 -2660
▁스탠 -2661
▁병기 -2662
▁요청 -2663
▁메탈 -2664
ack -2665
st -2666
▁계기 -2667
▁훌 -2668
▁인지 -2669
▁소식 -2670
▁지옥 -2671
tt -2672
로드 -2673
▁정책 -2674
▁착용 -2675
▁날아가 -2676
▁펀 -2677
▁광주 -2678
로우 -2679
▁쓰러지 -2680
▁오오 -2681
uby -2682
▁채널 -2683
연히 -2684
▁꼽 -2685
▁전환 -2686
▁스페인 -2687
▁150 -2688
▁쳐 -2689
▁지적 -2690
▁195 -2691
▁당장 -2692
오르 -2693
시스 -2694
▁초등 -2695
▁미스 -2696
▁스마 -2697
▁인원 -2698
▁파이터 -2699
▁아머 -2700
▁부수 -2701
oc -2702
▁긴 -2703
▁47 -2704
▁뉴스 -2705
▁소울 -2706
▁촉 -2707
▁편성 -2708
▁부리 -2709
▁온라인 -2710
▁산업 -2711
▁방패 -2712
▁선언 -2713
▁승부 -2714
▁진정 -2715
▁SP -2716
▁가슴 -2717
▁관통 -2718
▁베이스 -2719
▁중학교 -2720
▁ruby -2721
▁궤 -2722
▁회장 -2723
▁나카 -2724
▁방해 -2725
▁VS -2726
▁한자 -2727
▁배신 -2728
▁크로스 -2729
▁보급 -2730
▁모험 -2731
▁찾아오 -2732
▁공사 -2733
▁등등 -2734
▁PS -2735
▁무력 -2736
▁원거리 -2737
▁소비 -2738
▁차례 -2739
▁46 -2740
어내 -2741
art -2742
▁핑 -2743
▁리어 -2744
▁원하 -2745
▁은퇴 -2746
래도 -2747
▁아무래도 -2748
▁등록 -2749
▁울트라 -2750
▁에스 -2751
▁올림픽 -2752
▁가면라이더 -2753
▁습격 -2754
▁그리스 -2755
▁관광 -2756
▁안습 -2757
▁st -2758
▁64 -2759
▁언론 -2760
▁원정 -2761
▁특기 -2762
▁셰 -2763
▁상처 -2764
▁잠깐 -2765
올리 -2766
▁걷 -2767
ra -2768
▁드물 -2769
▁연계 -2770
▁묶 -2771
▁카페 -2772
▁저주 -2773
▁흔히 -2774
▁안전 -2775
▁판타 -2776
▁적극 -2777
▁혐 -2778
PC -2779
울리 -2780
▁놀라 -2781
▁통과 -2782
▁후지 -2783
▁버튼 -2784
▁인형 -2785
▁엉 -2786
▁토스 -2787
▁실시 -2788
▁공부 -2789
▁여름 -2790
▁마왕 -2791
▁무게 -2792
▁후반부 -2793
▁i -2794
▁구축 -2795
▁가스 -2796
▁MP -2797
▁승강 -2798
라리 -2799
▁동맹 -2800
▁유래 -2801
▁멸망 -2802
▁의심 -2803
▁데리 -2804
▁위주 -2805
▁아사 -2806
▁선정 -2807
▁미군 -2808
▁명중 -2809
▁국회 -2810
▁or -2811
▁블루 -2812
유키 -2813
▁and -2814
▁혜 -2815
▁마침 -2816
▁카운터 -2817
▁No -2818
▁실점 -2819
▁핸 -2820
▁게이 -2821
▁오프닝 -2822
▁거짓 -2823
▁가볍 -2824
ㄱㅓ -2825
▁초대 -2826
▁흐르 -2827
▁교회 -2828
▁ㅁ -2829
▁공군 -2830
▁역전 -2831
▁겨우 -2832
▁코치 -2833
▁뱀 -2834
▁In -2835
▁엄마 -2836
▁퓨 -2837
AT -2838
▁진입 -2839
▁달라지 -2840
▁스펙 -2841
▁아름 -2842
▁게시 -2843
▁레이저 -2844
▁개선 -2845
▁락 -2846
▁정당 -2847
시브 -2848
레인 -2849
▁코스트 -2850
▁밸런스 -2851
op -2852
▁체인 -2853
▁사장 -2854
▁태도 -2855
▁수호 -2856
▁민족 -2857
▁영입 -2858
▁최악 -2859
▁투자 -2860
▁리스 -2861
▁자라 -2862
▁왼쪽 -2863
▁희망 -2864
▁그레이 -2865
▁태양 -2866
▁코믹스 -2867
▁373 -2868
▁안드 -2869
▁계급 -2870
ㄹㅅㅜ -2871
▁코너 -2872
하라 -2873
ie -2874
▁400 -2875
▁질문 -2876
▁시체 -2877
▁눈치 -2878
▁표정 -2879
▁미야 -2880
▁설립 -2881
▁어울리 -2882
▁가까 -2883
▁멀티 -2884
▁고통 -2885
▁챙 -2886
▁텍 -2887
▁은근 -2888
▁모션 -2889
▁조각 -2890
▁미나 -2891
르크 -2892
est -2893
▁dd -2894
▁스위 -2895
▁쓰러 -2896
▁깎 -2897
▁삽 -2898
▁하트 -2899
▁갓 -2900
▁수단 -2901
▁탑재 -2902
▁솔로 -2903
▁황금 -2904
▁퍼지 -2905
▁분야 -2906
▁룰 -2907
▁하위 -2908
▁킥 -2909
트롤 -2910
▁대원 -2911
▁스피드 -2912
▁2001 -2913
▁CD -2914
▁사단 -2915
OR -2916
▁비디오 -2917
▁따위 -2918
IA -2919
▁남편 -2920
▁소드 -2921
무원 -2922
▁매일 -2923
▁군인 -2924
▁방문 -2925
▁끼리 -2926
▁막장 -2927
▁프라 -2928
▁경력 -2929
▁셔 -2930
▁제압 -2931
▁귀엽 -2932
▁의문 -2933
ill -2934
▁대놓고 -2935
▁콩 -2936
▁진영 -2937
▁용병 -2938
다수 -2939
▁애매 -2940
▁주연 -2941
머리 -2942
▁가져오 -2943
▁견제 -2944
▁행적 -2945
▁기자 -2946
▁기점 -2947
붙이 -2948
▁확보 -2949
▁193 -2950
▁튜 -2951
▁멈 -2952
▁수원 -2953
▁엑스 -2954
▁선보이 -2955
▁아름답 -2956
▁중단 -2957
▁대답 -2958
▁비난 -2959
▁자식 -2960
▁본선 -2961
▁아라 -2962
▁좁 -2963
OS -2964
▁차별 -2965
▁구입 -2966
▁개봉 -2967
▁청소 -2968
dddd -2969
▁오스 -2970
▁dddddd -2971
▁고급 -2972
▁사카 -2973
▁지식 -2974
▁자살 -2975
▁온갖 -2976
▁탯 -2977
▁사과 -2978
세이 -2979
▁겹치 -2980
▁꺼내 -2981
▁노동 -2982
▁ㅋㅜ -2983
워하 -2984
▁해제 -2985
▁돌파 -2986
▁롱 -2987
▁52 -2988
▁유용 -2989
▁1990 -2990
ik -2991
▁패스 -2992
▁라이벌 -2993
▁어린 -2994
▁ㅇㅡㄹㄲㅏ -2995
▁브랜드 -2996
▁살해 -2997
▁로켓 -2998
▁낳 -2999
▁메가 -3000
▁기획 -3001
▁트랙 -3002
▁외치 -3003
▁아시아 -3004
▁Re -3005
▁개편 -3006
▁ㅇㅛ -3007
PS -3008
▁장전 -3009
▁닌자 -3010
▁융 -3011
ate -3012
▁%, -3013
▁선물 -3014
▁그라 -3015
▁공통 -3016
▁예선 -3017
다르 -3018
▁진실 -3019
▁조준 -3020
▁렉 -3021
▁편집 -3022
▁체계 -3023
▁단위 -3024
▁컨트롤 -3025
▁은행 -3026
▁스파이 -3027
▁내려가 -3028
▁자이 -3029
워드 -3030
▁늘리 -3031
▁멀리 -3032
▁장애 -3033
터리 -3034
▁아야 -3035
▁이스 -3036
다지 -3037
▁어차 -3038
▁미드 -3039
▁시청자 -3040
▁전장 -3041
▁발휘 -3042
달리 -3043
▁65 -3044
▁어차피 -3045
▁붕괴 -3046
▁용도 -3047
즈키 -3048
▁멈추 -3049
▁신화 -3050
▁계산 -3051
▁경계 -3052
th -3053
▁Sh -3054
▁룡 -3055
▁오른쪽 -3056
사카 -3057
▁랩 -3058
▁경유 -3059
▁틈 -3060
▁인생 -3061
IC -3062
▁연예 -3063
▁부담 -3064
▁납치 -3065
▁건너 -3066
▁스트라이 -3067
▁순수 -3068
▁행복 -3069
▁외부 -3070
▁평화 -3071
▁대다수 -3072
▁널 -3073
▁창작 -3074
▁실질 -3075
▁의원 -3076
▁펠 -3077
▁횟 -3078
▁떡밥 -3079
▁궁극 -3080
▁가르치 -3081
▁가이 -3082
▁소프트 -3083
ttp -3084
▁정령 -3085
▁우수 -3086
▁현장 -3087
▁도서 -3088
▁갱 -3089
▁http -3090
▁56 -3091
▁여왕 -3092
▁내놓 -3093
▁젤 -3094
▁귀족 -3095
▁스케 -3096
▁최대한 -3097
▁게이지 -3098
▁그다지 -3099
▁점령 -3100
▁포르 -3101
▁탄생 -3102
▁측면 -3103
▁챙기 -3104
▁영역 -3105
▁작성 -3106
▁주목 -3107
▁탑승 -3108
▁헤드 -3109
▁커뮤 -3110
▁갤러리 -3111
바이 -3112
▁니시 -3113
ED -3114
▁체육 -3115
▁승강장 -3116
카와 -3117
▁규정 -3118
▁찌르 -3119
▁여부 -3120
리티 -3121
▁순서 -3122
▁제안 -3123
▁바탕 -3124
▁러브 -3125
로이드 -3126
▁갈리 -3127
▁경향 -3128
▁생성 -3129
▁정류 -3130
▁꾸준히 -3131
가락 -3132
▁얼음 -3133
▁Sp -3134
▁업체 -3135
어리 -3136
▁도구 -3137
▁치르 -3138
▁몰리 -3139
▁상자 -3140
▁넷 -3141
▁요원 -3142
▁모리 -3143
▁카메라 -3144
▁박스 -3145
두르 -3146
▁판타지 -3147
▁개최 -3148
▁살짝 -3149
▁유희 -3150
▁완료 -3151
▁릭 -3152
▁54 -3153
▁오해 -3154
▁120 -3155
▁횟수 -3156
▁2020 -3157
▁운전 -3158
▁트위 -3159
▁공화국 -3160
▁부인 -3161
▁타이밍 -3162
▁쿨타임 -3163
▁돌격 -3164
▁막히 -3165
▁동네 -3166
AS -3167
▁테러 -3168
▁이성 -3169
▁고유 -3170
마스 -3171
▁49 -3172
▁저런 -3173
▁훌륭 -3174
▁선배 -3175
▁짜리 -3176
▁뮤직 -3177
▁마녀 -3178
▁제시 -3179
▁랍 -3180
▁지하철 -3181
▁53 -3182
▁정말로 -3183
▁장수 -3184
▁통일 -3185
▁반영 -3186
▁블레이드 -3187
▁전대 -3188
▁레전 -3189
▁비고 -3190
▁나뉘 -3191
아먹 -3192
▁뱅 -3193
▁디아 -3194
▁생일 -3195
▁보정 -3196
▁춤 -3197
▁SBS -3198
▁약속 -3199
▁카나 -3200
▁자르 -3201
▁삶 -3202
▁문명 -3203
▁습득 -3204
ess -3205
ab -3206
▁You -3207
EN -3208
▁갑옷 -3209
▁회의 -3210
▁기분 -3211
▁한화 -3212
▁퀄 -3213
▁파이어 -3214
▁문자 -3215
▁동방 -3216
▁왕자 -3217
▁일부러 -3218
▁편의 -3219
▁교사 -3220
▁공원 -3221
▁집안 -3222
▁미츠 -3223
▁아오 -3224
▁자격 -3225
▁페이지 -3226
▁수요 -3227
▁신세 -3228
▁폭풍 -3229
▁짝 -3230
▁ㄹㅔ -3231
▁공장 -3232
▁윙 -3233
▁Bl -3234
스티 -3235
심히 -3236
▁군주 -3237
▁85 -3238
▁스프 -3239
▁대우 -3240
▁라스 -3241
▁허용 -3242
▁마도 -3243
▁예술 -3244
▁캔 -3245
▁커버 -3246
▁플라 -3247
▁응원 -3248
피스 -3249
▁걸치 -3250
▁지점 -3251
▁베르 -3252
▁없애 -3253
▁괴롭 -3254
▁업무 -3255
▁유비 -3256
▁키리 -3257
▁천사 -3258
▁상품 -3259
▁토모 -3260
▁알렉 -3261
▁마인 -3262
▁여신 -3263
▁한때 -3264
▁노멀 -3265
▁흔하 -3266
▁써 -3267
▁대공 -3268
▁비록 -3269
▁짱 -3270
▁낚 -3271
튜브 -3272
▁홍보 -3273
▁유튜브 -3274
▁출발 -3275
▁이론 -3276
▁공기 -3277
▁적당 -3278
▁커맨 -3279
ct -3280
▁파일럿 -3281
▁직원 -3282
▁스페셜 -3283
▁쏟 -3284
▁끌어 -3285
아리 -3286
▁단독 -3287
▁비율 -3288
eat -3289
▁소수 -3290
▁기기 -3291
▁다가 -3292
▁후쿠 -3293
▁보수 -3294
▁재생 -3295
▁지우 -3296
▁레오 -3297
▁소문 -3298
▁그래픽 -3299
ard -3300
▁협력 -3301
▁가로 -3302
ㅇㅏ -3303
▁거주 -3304
▁충돌 -3305
▁보도 -3306
▁설득 -3307
텐츠 -3308
▁겨울 -3309
▁뒤집 -3310
ㅍㅣ -3311
▁거절 -3312
▁혼란 -3313
▁환승 -3314
▁회수 -3315
▁미소 -3316
▁여동생 -3317
이터 -3318
▁대륙 -3319
▁문제점 -3320
▁댓 -3321
▁57 -3322
▁트레이 -3323
▁무적 -3324
▁전함 -3325
▁파악 -3326
up -3327
▁그만큼 -3328
▁출처 -3329
▁근무 -3330
▁따오 -3331
▁수사 -3332
▁이슬 -3333
▁AT -3334
▁트위터 -3335
▁취소 -3336
▁66 -3337
▁쓰레 -3338
▁영원 -3339
▁충전 -3340
▁격파 -3341
▁봄 -3342
▁MS -3343
▁용어 -3344
▁맡기 -3345
▁팝 -3346
▁메이저 -3347
▁패시브 -3348
▁DJ -3349
▁본명 -3350
▁ㄷㅡㄴㅈㅣ -3351
▁흘리 -3352
▁아리 -3353
▁사이즈 -3354
▁가입 -3355
▁랜덤 -3356
LC -3357
▁반란 -3358
▁1999 -3359
트로 -3360
▁NPC -3361
▁우려 -3362
▁AC -3363
▁묵 -3364
▁실행 -3365
▁건강 -3366
▁전형 -3367
▁커뮤니티 -3368
ine -3369
▁운명 -3370
▁언니 -3371
▁나루 -3372
▁사쿠라 -3373
▁사운드 -3374
티컬 -3375
EC -3376
▁오류 -3377
▁핵심 -3378
▁사토 -3379
▁분석 -3380
▁가까이 -3381
▁수입 -3382
▁박살 -3383
ant -3384
▁장교 -3385
니어 -3386
ist -3387
▁수학 -3388
▁밟 -3389
▁별개 -3390
▁연상 -3391
아버지 -3392
▁내려오 -3393
가와 -3394
▁76 -3395
▁주년 -3396
▁타케 -3397
▁웨이 -3398
히로 -3399
▁ㅇㅜ -3400
▁예외 -3401
▁형성 -3402
▁화살 -3403
▁전투력 -3404
▁머신 -3405
▁샌 -3406
▁아침 -3407
▁95 -3408
▁아메 -3409
자키 -3410
▁섹 -3411
OL -3412
▁거래 -3413
▁증거 -3414
▁카미 -3415
▁BGM -3416
▁AP -3417
▁제조 -3418
▁열심히 -3419
▁쓰러뜨리 -3420
▁초월 -3421
▁바보 -3422
▁내내 -3423
▁섭 -3424
▁심장 -3425
▁서포 -3426
▁상하 -3427
▁CP -3428
▁연애 -3429
▁연방 -3430
모로 -3431
▁카르 -3432
▁58 -3433
▁암흑 -3434
▁상향 -3435
▁이마 -3436
▁개통 -3437
▁신뢰 -3438
▁만족 -3439
▁레전드 -3440
▁전투기 -3441
▁강조 -3442
▁헌터 -3443
▁스코어 -3444
사키 -3445
▁처하 -3446
▁ㄲ -3447
▁권력 -3448
▁제법 -3449
▁고기 -3450
▁본부 -3451
▁피아 -3452
▁변형 -3453
디션 -3454
▁붙잡 -3455
▁피해자 -3456
▁늑 -3457
▁화이트 -3458
▁위원회 -3459
▁77 -3460
▁푸르 -3461
▁정권 -3462
▁여러모로 -3463
나다 -3464
▁복장 -3465
피아 -3466
▁고교 -3467
▁TH -3468
파이어 -3469
▁연사 -3470
▁re -3471
▁아나 -3472
▁오로 -3473
ue -3474
▁다행히 -3475
타인 -3476
▁재능 -3477
▁기절 -3478
▁매치 -3479
▁마스 -3480
▁72 -3481
▁주먹 -3482
▁찾아가 -3483
▁뛰어 -3484
▁옛날 -3485
▁주도 -3486
▁페이스 -3487
▁쿠로 -3488
▁고민 -3489
PG -3490
더스 -3491
▁말리 -3492
▁불꽃 -3493
ip -3494
▁키스 -3495
▁파이널 -3496
▁1998 -3497
타로 -3498
▁민간 -3499
▁찰 -3500
▁com -3501
도우 -3502
▁62 -3503
▁트라 -3504
▁우스 -3505
▁댄스 -3506
AM -3507
▁별도 -3508
ind -3509
▁대만 -3510
▁네이버 -3511
▁마술 -3512
▁엘프 -3513
▁98 -3514
▁실드 -3515
▁88 -3516
▁제기 -3517
▁발매되 -3518
▁전공 -3519
▁무너지 -3520
▁부진 -3521
▁Al -3522
▁삼국지 -3523
ore -3524
▁게이트 -3525
▁덴 -3526
▁총기 -3527
▁절반 -3528
▁함선 -3529
▁옹 -3530
겨나 -3531
▁고생 -3532
▁심리 -3533
▁가져가 -3534
츠키 -3535
▁크루 -3536
▁채용 -3537
돼지 -3538
▁스티 -3539
one -3540
▁사전 -3541
오리 -3542
아나 -3543
▁지급 -3544
ang -3545
▁검색 -3546
▁프레임 -3547
▁Th -3548
▁적히 -3549
▁아프리카 -3550
고기 -3551
▁덮 -3552
▁간부 -3553
▁레인저 -3554
▁후속작 -3555
▁낭 -3556
▁해방 -3557
▁추적 -3558
▁라이더 -3559
▁화장 -3560
▁폭주 -3561
▁표준 -3562
▁선호 -3563
▁동영 -3564
▁웬만 -3565
▁입력 -3566
▁재판 -3567
▁불만 -3568
▁블러 -3569
▁고전 -3570
▁한국인 -3571
▁요즘 -3572
▁당황 -3573
IT -3574
▁합체 -3575
▁학살 -3576
▁계승 -3577
▁히데 -3578
▁경기도 -3579
▁근거 -3580
▁조조 -3581
▁동원 -3582
▁'. -3583
▁고치 -3584
▁쇠 -3585
▁크리티컬 -3586
세우 -3587
▁800 -3588
▁아가 -3589
▁작용 -3590
▁마이크 -3591
▁균 -3592
▁돌아다니 -3593
▁추락 -3594
▁화려 -3595
▁동영상 -3596
▁커플 -3597
▁어택 -3598
▁진지 -3599
스트라 -3600
▁SS -3601
ell -3602
▁학과 -3603
▁카오스 -3604
▁랜드 -3605
▁띄우 -3606
▁믹 -3607
식간 -3608
▁명예 -3609
▁아트 -3610
▁지형 -3611
▁.... -3612
어스 -3613
▁틱 -3614
▁테이 -3615
▁순식간 -3616
▁대대 -3617
▁오빠 -3618
▁통제 -3619
▁요새 -3620
▁곰 -3621
▁일상 -3622
▁외국인 -3623
▁늑대 -3624
▁누리 -3625
▁600 -3626
▁제하 -3627
▁교환 -3628
▁현지 -3629
▁쓰레기 -3630
▁전철 -3631
의원 -3632
▁카라 -3633
▁권총 -3634
▁59 -3635
바로 -3636
▁최상 -3637
▁해병 -3638
▁메카 -3639
▁핀 -3640
▁환상 -3641
▁양산 -3642
▁시야 -3643
▁해설 -3644
▁젠 -3645
▁지르 -3646
▁부품 -3647
▁반지 -3648
▁닿 -3649
▁미디어 -3650
▁클라 -3651
어버리 -3652
둥이 -3653
▁사마 -3654
들리 -3655
if -3656
▁드디어 -3657
▁토리 -3658
▁구현 -3659
▁요괴 -3660
▁제작진 -3661
▁덧 -3662
▁혁명 -3663
▁김성 -3664
▁타워 -3665
▁수술 -3666
창기 -3667
▁사자 -3668
▁!! -3669
▁ㄱㅜㄴ -3670
▁지대 -3671
▁증명 -3672
▁시드 -3673
▁불편 -3674
돌리 -3675
▁정류장 -3676
▁시각 -3677
▁트레 -3678
▁전선 -3679
▁지시 -3680
▁소멸 -3681
▁퀸 -3682
▁정지 -3683
▁소총 -3684
▁제자 -3685
▁수송 -3686
▁1997 -3687
▁리메 -3688
▁호환 -3689
▁탱크 -3690
FA -3691
▁매체 -3692
▁파라 -3693
▁처치 -3694
▁유형 -3695
▁대체로 -3696
ort -3697
▁61 -3698
▁영업 -3699
▁레스 -3700
▁캐스 -3701
▁쌓이 -3702
▁아무런 -3703
▁근육 -3704
▁갈등 -3705
▁이승 -3706
▁중계 -3707
ㄱㅣ -3708
▁연대 -3709
▁소닉 -3710
▁스토 -3711
▁매력 -3712
▁폐지 -3713
▁마구 -3714
▁리버 -3715
▁전적 -3716
퍼스 -3717
▁마련 -3718
▁전직 -3719
▁초창기 -3720
▁쾌 -3721
▁네임 -3722
▁테스트 -3723
▁겉 -3724
이즈 -3725
▁즉시 -3726
▁클로 -3727
▁스카이 -3728
▁령 -3729
▁복잡 -3730
▁어지 -3731
▁불안 -3732
▁배트 -3733
ive -3734
▁깃 -3735
▁반격 -3736
▁수업 -3737
큐어 -3738
▁191 -3739
▁프린 -3740
▁테일 -3741
도로 -3742
▁경비 -3743
▁알아 -3744
▁경영 -3745
▁몰래 -3746
▁작사 -3747
▁폭격 -3748
ld -3749
ok -3750
▁공작 -3751
▁출현 -3752
▁묘지 -3753
▁두산 -3754
▁상상 -3755
▁해금 -3756
▁신장 -3757
저히 -3758
▁동기 -3759
▁마루 -3760
▁굽 -3761
▁스마트 -3762
▁커맨드 -3763
▁공유 -3764
▁출판 -3765
▁둘러 -3766
▁볼트 -3767
VE -3768
▁텔레 -3769
어도 -3770
▁극단 -3771
▁신고 -3772
▁스톰 -3773
▁작동 -3774
▁지켜 -3775
▁", -3776
ers -3777
▁탁 -3778
▁조절 -3779
▁콜라 -3780
▁룬 -3781
▁잠수 -3782
▁KO -3783
▁배차 -3784
▁리메이크 -3785
▁맞서 -3786
▁인수 -3787
▁폭력 -3788
▁아티 -3789
▁1980 -3790
▁연관 -3791
▁참전 -3792
▁브리 -3793
▁장관 -3794
지컬 -3795
▁압박 -3796
▁구도 -3797
▁요정 -3798
▁국적 -3799
▁휘두르 -3800
▁연도 -3801
▁태우 -3802
▁동작 -3803
▁악역 -3804
▁조지 -3805
▁마주 -3806
▁그림자 -3807
▁알파 -3808
▁가득 -3809
▁농구 -3810
▁장식 -3811
ove -3812
ㅌㅇㅣ -3813
▁ㄱㅏㅌㅇㅣ -3814
▁조용 -3815
▁반하 -3816
▁오픈 -3817
▁An -3818
▁렙 -3819
▁전방 -3820
▁이리 -3821
▁묻히 -3822
▁NC -3823
▁한방 -3824
▁공산 -3825
▁신분 -3826
▁언제나 -3827
▁뉴욕 -3828
▁널리 -3829
▁외계 -3830
▁사령관 -3831
ain -3832
▁환자 -3833
▁등판 -3834
▁출생 -3835
▁프리큐어 -3836
▁평타 -3837
▁왠 -3838
일리 -3839
▁어깨 -3840
▁지켜보 -3841
▁서양 -3842
▁브라질 -3843
▁흥행 -3844
▁찾아보 -3845
▁엮 -3846
▁똑같이 -3847
▁74 -3848
▁출장 -3849
▁물질 -3850
지마 -3851
▁절망 -3852
▁아크 -3853
▁나타내 -3854
▁모바 -3855
조리 -3856
▁분기 -3857
▁돌진 -3858
▁시행 -3859
드라 -3860
▁간격 -3861
▁익숙 -3862
▁스타크래프트 -3863
오카 -3864
▁Se -3865
▁은근히 -3866
▁간혹 -3867
▁게시판 -3868
▁착각 -3869
▁사양 -3870
▁63 -3871
▁적어도 -3872
▁노출 -3873
▁노예 -3874
▁글자 -3875
▁신청 -3876
▁남부 -3877
▁미카 -3878
▁유령 -3879
▁팅 -3880
▁프리미 -3881
▁코우 -3882
광역 -3883
▁내주 -3884
서트 -3885
▁겐 -3886
웨이 -3887
▁중대 -3888
ong -3889
▁신문 -3890
▁96 -3891
▁경험치 -3892
MA -3893
▁어쨌 -3894
▁입학 -3895
▁사이드 -3896
▁범인 -3897
▁슈트 -3898
▁1996 -3899
▁주위 -3900
▁종점 -3901
▁자이언 -3902
ㅂㅅㅣ -3903
▁강철 -3904
▁고향 -3905
▁유희왕 -3906
ㄹㅏㅇ -3907
▁되찾 -3908
▁브레이크 -3909
▁DLC -3910
▁메모리 -3911
▁저그 -3912
▁무난 -3913
▁으 -3914
▁탄약 -3915
▁71 -3916
▁68 -3917
전자 -3918
▁an -3919
▁추진 -3920
▁훔 -3921
ith -3922
▁유행 -3923
▁전시 -3924
▁써먹 -3925
▁MAX -3926
▁스톤 -3927
▁보장 -3928
▁주어지 -3929
▁AK -3930
▁구출 -3931
▁대량 -3932
▁챠 -3933
▁KT -3934
▁97 -3935
▁보물 -3936
▁이시 -3937
보내 -3938
▁딜러 -3939
▁썰 -3940
▁부위 -3941
▁출력 -3942
▁전역 -3943
▁이즈 -3944
▁아무것 -3945
▁스킨 -3946
▁통상 -3947
▁세월 -3948
광역시 -3949
▁틀리 -3950
웨어 -3951
ast -3952
▁문장 -3953
▁주소 -3954
EM -3955
▁ㅇㅓㅆㅇㅓㅆ -3956
▁감사 -3957
성기 -3958
▁흠 -3959
▁감염 -3960
▁당선 -3961
▁창조 -3962
▁객 -3963
▁시즈 -3964
▁해체 -3965
▁도서관 -3966
펙트 -3967
▁제이 -3968
▁매직 -3969
▁핸드 -3970
end -3971
▁공학 -3972
▁북미 -3973
▁대략 -3974
▁멋지 -3975
▁맞이 -3976
▁댓글 -3977
▁하야 -3978
ㄷㅡㄴㄱㅏ -3979
▁끼치 -3980
▁대립 -3981
og -3982
▁호평 -3983
▁차라리 -3984
▁기독 -3985
▁만든 -3986
▁넘치 -3987
▁73 -3988
▁베트 -3989
▁부문 -3990
▁US -3991
▁은하 -3992
▁하필 -3993
▁상당수 -3994
▁기습 -3995
▁중화 -3996
▁겁 -3997
▁샘 -3998
▁스튜 -3999
▁플레 -4000
▁1995 -4001
ew -4002
레이터 -4003
톨릭 -4004
▁융합 -4005
▁제주 -4006
위대 -4007
▁ㄹㅣㅇ -4008
▁종이 -4009
▁실리 -4010
▁리얼 -4011
▁리치 -4012
▁듯이 -4013
▁인증 -4014
▁김정 -4015
▁무료 -4016
▁멕 -4017
▁빗 -4018
라이언 -4019
▁돼지 -4020
▁라이프 -4021
▁모바일 -4022
▁서부 -4023
ㄷㅓㄴㄱㅏ -4024
▁거짓말 -4025
▁신성 -4026
요시 -4027
▁도망가 -4028
▁용사 -4029
▁번개 -4030
▁타마 -4031
▁대충 -4032
▁회원 -4033
▁결말 -4034
▁둥 -4035
▁ㅈㅏㄶ -4036
▁앱 -4037
▁유이 -4038
▁이슬람 -4039
▁67 -4040
▁멀쩡 -4041
▁빡 -4042
▁녹음 -4043
▁입수 -4044
▁외교 -4045
▁갤럭 -4046
▁이자 -4047
▁추격 -4048
▁고백 -4049
▁둔 -4050
▁엔터 -4051
▁꺾 -4052
▁점차 -4053
▁퀄리티 -4054
▁음성 -4055
▁오카 -4056
▁앵 -4057
▁육체 -4058
려움 -4059
▁야스 -4060
▁ff -4061
▁세이버 -4062
▁편지 -4063
▁달하 -4064
▁결론 -4065
▁블로그 -4066
▁타점 -4067
▁관객 -4068
▁수련 -4069
미야 -4070
▁기원 -4071
▁He -4072
▁; -4073
▁메시 -4074
▁78 -4075
▁신인 -4076
▁ㄷㅏㄴ -4077
▁특화 -4078
▁81 -4079
▁훔치 -4080
▁향상 -4081
▁이래 -4082
▁요코 -4083
▁콘서트 -4084
▁먹히 -4085
▁츄 -4086
▁죄다 -4087
▁가톨릭 -4088
av -4089
▁예비 -4090
구치 -4091
▁가속 -4092
▁THE -4093
▁루시 -4094
▁긍 -4095
▁단일 -4096
▁정복 -4097
▁공급 -4098
▁유로 -4099
▁카타 -4100
▁음반 -4101
듀서 -4102
디아 -4103
▁프로듀서 -4104
▁캐스팅 -4105
▁맘 -4106
▁협회 -4107
▁동화 -4108
▁아기 -4109
▁기독교 -4110
▁JR -4111
▁조치 -4112
▁너무나 -4113
▁ㄲㅔ -4114
▁헨 -4115
버트 -4116
▁놓치 -4117
▁192 -4118
▁마리아 -4119
▁신기 -4120
▁위장 -4121
▁슛 -4122
▁가게 -4123
▁들어서 -4124
▁아우 -4125
▁기병 -4126
▁그곳 -4127
리그 -4128
▁갤럭시 -4129
PM -4130
▁훗 -4131
▁무효 -4132
▁180 -4133
▁91 -4134
레나 -4135
▁가상 -4136
▁펀치 -4137
▁프라이 -4138
▁전달 -4139
▁소화 -4140
▁현역 -4141
▁바라보 -4142
▁} -4143
▁웹툰 -4144
ly -4145
▁게스트 -4146
▁반발 -4147
▁블리 -4148
▁깨지 -4149
▁메인 -4150
▁피부 -4151
▁국회의원 -4152
▁마키 -4153
▁과목 -4154
▁가량 -4155
▁뭉 -4156
▁주전 -4157
▁세이브 -4158
▁오가 -4159
▁HD -4160
▁일원 -4161
▁고용 -4162
▁썩 -4163
▁쟈 -4164
러나 -4165
▁꼬리 -4166
쟁이 -4167
▁오후 -4168
▁횡 -4169
▁리스트 -4170
▁마리오 -4171
▁입구 -4172
▁국군 -4173
▁문학 -4174
가시 -4175
▁신규 -4176
▁태그 -4177
se -4178
나무 -4179
▁바리 -4180
OT -4181
▁기사단 -4182
▁울산 -4183
보드 -4184
▁메타 -4185
▁SD -4186
▁수집 -4187
▁팔리 -4188
▁임시 -4189
▁250 -4190
▁진심 -4191
▁홍콩 -4192
▁짤 -4193
▁뜯 -4194
▁섀 -4195
▁헤이 -4196
▁털리 -4197
▁베스트 -4198
▁조심 -4199
▁후기 -4200
▁1994 -4201
▁내구 -4202
▁청년 -4203
▁내장 -4204
▁연구소 -4205
IS -4206
▁심판 -4207
▁전면 -4208
▁이득 -4209
란색 -4210
AC -4211
▁84 -4212
▁신라 -4213
▁파리 -4214
▁차리 -4215
BO -4216
▁길드 -4217
▁제어 -4218
▁잡지 -4219
▁상점 -4220
▁지능 -4221
아웃 -4222
▁킨 -4223
▁대개 -4224
▁수영 -4225
▁j -4226
▁고문 -4227
▁쿼 -4228
▁켈 -4229
▁립 -4230
▁ㄹㅏㄹ -4231
▁익히 -4232
▁부부 -4233
▁작화 -4234
▁파트너 -4235
▁카스 -4236
▁MV -4237
▁인공 -4238
▁뼈 -4239
ㄷㅓㄴ -4240
▁괴롭히 -4241
티나 -4242
▁침공 -4243
▁섞이 -4244
잡이 -4245
▁육성 -4246
▁슬롯 -4247
▁구멍 -4248
구리 -4249
▁기종 -4250
▁의무 -4251
▁디지몬 -4252
▁아일 -4253
▁헤비 -4254
▁경상 -4255
▁톱 -4256
▁시마 -4257
▁불러 -4258
▁자매 -4259
▁Le -4260
▁Ar -4261
▁쿠키 -4262
▁타이거 -4263
▁SN -4264
▁아끼 -4265
▁여론 -4266
▁강의 -4267
코토 -4268
▁어른 -4269
▁노부 -4270
▁연타 -4271
▁그치 -4272
▁손가락 -4273
▁영토 -4274
▁망치 -4275
▁De -4276
FC -4277
▁본작 -4278
▁원수 -4279
▁외전 -4280
▁어린이 -4281
▁한번 -4282
▁여지 -4283
릭스 -4284
▁예능 -4285
▁지휘관 -4286
▁연인 -4287
▁아시 -4288
▁MC -4289
크스 -4290
▁인근 -4291
▁69 -4292
▁사우 -4293
브리 -4294
▁명중률 -4295
▁정면 -4296
▁일반인 -4297
▁에드 -4298
▁82 -4299
▁한마 -4300
어나오 -4301
▁방사 -4302
▁190 -4303
▁인지도 -4304
▁터키 -4305
▁ㅈㅏㄶㅇㅏ -4306
▁파견 -4307
호사 -4308
▁최소한 -4309
▁몰아 -4310
▁감시 -4311
▁특집 -4312
▁소형 -4313
▁성과 -4314
끄럽 -4315
▁대항 -4316
▁시내버스 -4317
▁86 -4318
▁회차 -4319
▁안경 -4320
▁오랫 -4321
▁결승전 -4322
▁가시 -4323
▁터치 -4324
▁식사 -4325
▁아바 -4326
▁클리 -4327
▁포탑 -4328
▁여유 -4329
▁교전 -4330
▁왕조 -4331
▁고지 -4332
▁기초 -4333
▁트윈 -4334
▁사도 -4335
▁규칙 -4336
ry -4337
▁PD -4338
ES -4339
▁대폭 -4340
▁아니면 -4341
▁어쨌든 -4342
▁실버 -4343
▁어둡 -4344
가미 -4345
▁더더 -4346
▁한동안 -4347
▁강남 -4348
▁요금 -4349
▁어지간 -4350
▁국어 -4351
▁허나 -4352
▁험 -4353
▁합성 -4354
▁is -4355
▁칭하 -4356
▁반사 -4357
▁잦 -4358
▁해적 -4359
▁왈 -4360
▁컬러 -4361
▁연락 -4362
▁의상 -4363
▁림 -4364
▁더더욱 -4365
▁스미 -4366
▁AI -4367
▁스페이스 -4368
▁{ -4369
▁차단 -4370
▁매니 -4371
▁동부 -4372
▁레이스 -4373
▁냄 -4374
우드 -4375
▁전성기 -4376
▁프로필 -4377
▁바치 -4378
▁괴수 -4379
▁첨 -4380
지로 -4381
▁버스터 -4382
▁경기장 -4383
▁주포 -4384
▁분량 -4385
▁재미있 -4386
▁입단 -4387
▁렛 -4388
▁국방 -4389
▁절대로 -4390
▁휴대 -4391
▁좌우 -4392
▁협박 -4393
▁의료 -4394
▁치명타 -4395
▁한참 -4396
▁럭 -4397
▁핫 -4398
▁아빠 -4399
▁고수 -4400
▁로즈 -4401
▁움직임 -4402
▁떠올리 -4403
▁for -4404
▁천재 -4405
▁튀어나오 -4406
▁안티 -4407
▁예고 -4408
▁굴리 -4409
오프 -4410
▁민주당 -4411
▁부서 -4412
▁다스 -4413
▁블록 -4414
▁캐논 -4415
▁GS -4416
▁허리 -4417
▁비행기 -4418
▁체포 -4419
▁다섯 -4420
▁식물 -4421
▁히메 -4422
▁영문 -4423
▁웅 -4424
노스 -4425
▁카츠 -4426
▁인정받 -4427
ity -4428
▁누나 -4429
▁'' -4430
▁로우 -4431
▁주말 -4432
▁농담 -4433
▁감옥 -4434
▁구체 -4435
▁일자 -4436
먼트 -4437
▁수십 -4438
▁대가 -4439
▁트랜 -4440
▁챕 -4441
밀리 -4442
카드 -4443
▁비아 -4444
▁쉐 -4445
▁꼽히 -4446
▁아즈 -4447
▁FI -4448
▁데모 -4449
▁수수 -4450
▁체크 -4451
▁깡 -4452
▁뷰 -4453
▁처벌 -4454
▁일제 -4455
▁도달 -4456
▁갈수 -4457
▁한마디 -4458
▁92 -4459
▁취미 -4460
▁커지 -4461
▁불법 -4462
시로 -4463
▁신호 -4464
▁싱크 -4465
▁레이드 -4466
▁드레 -4467
▁임명 -4468
▁목격 -4469
▁합격 -4470
▁갈수록 -4471
▁소지 -4472
▁챕터 -4473
▁치우 -4474
▁귀신 -4475
▁해리 -4476
▁멍 -4477
바라 -4478
▁오사카 -4479
▁마비 -4480
▁110 -4481
▁크라 -4482
▁씌 -4483
▁모자라 -4484
ㄴㄷ -4485
▁멘탈 -4486
▁양쪽 -4487
▁김영 -4488
▁안내 -4489
▁이지 -4490
▁AR -4491
▁자치 -4492
▁be -4493
▁재현 -4494
▁그동안 -4495
▁구속 -4496
▁떠오르 -4497
▁트레이드 -4498
▁전신 -4499
▁컨텐츠 -4500
▁뚜 -4501
고속 -4502
▁적대 -4503
▁뺏 -4504
▁봇 -4505
▁소원 -4506
▁안드로이드 -4507
닉스 -4508
▁상성 -4509
남도 -4510
프레 -4511
▁취향 -4512
▁복무 -4513
▁오랫동안 -4514
▁캐나다 -4515
▁할아버지 -4516
▁모모 -4517
▁상업 -4518
▁훗날 -4519
▁놀랍 -4520
▁94 -4521
▁개체 -4522
▁의뢰 -4523
▁뜬 -4524
▁구사 -4525
▁기아 -4526
▁접하 -4527
▁79 -4528
▁홀로 -4529
▁혀 -4530
▁까다 -4531
▁대지 -4532
▁가리키 -4533
▁촌 -4534
▁글로 -4535
▁춘 -4536
▁일격 -4537
▁개량 -4538
페인 -4539
▁씹 -4540
▁캠퍼스 -4541
▁예시 -4542
▁깨닫 -4543
▁나아가 -4544
▁북부 -4545
▁별다르 -4546
▁다이아 -4547
▁상급 -4548
▁지도자 -4549
▁이식 -4550
▁퀴 -4551
▁스턴 -4552
▁93 -4553
▁회상 -4554
▁떨어 -4555
▁투어 -4556
▁디지털 -4557
▁전후 -4558
▁IC -4559
▁바퀴 -4560
▁원본 -4561
▁결코 -4562
▁수용 -4563
▁클래식 -4564
디언 -4565
▁83 -4566
▁명성 -4567
▁삼진 -4568
▁SC -4569
▁데드 -4570
▁포트 -4571
OM -4572
▁랭킹 -4573
ㅇㅗ -4574
라드 -4575
▁딩 -4576
▁모조리 -4577
▁공지 -4578
▁플로 -4579
▁켜 -4580
시코 -4581
▁미묘 -4582
ass -4583
▁베트남 -4584
▁예쁘 -4585
▁알아보 -4586
▁귀찮 -4587
▁FA -4588
▁박정 -4589
▁무겁 -4590
▁조성 -4591
▁축제 -4592
▁마린 -4593
▁바위 -4594
▁어스 -4595
▁700 -4596
▁경고 -4597
▁도발 -4598
▁일시 -4599
▁까다롭 -4600
▁일기 -4601
▁갇 -4602
▁편입 -4603
▁노인 -4604
다이 -4605
▁각자 -4606
▁정비 -4607
▁토르 -4608
▁따라가 -4609
▁외형 -4610
▁수익 -4611
▁빚 -4612
스탄 -4613
▁ffff -4614
▁팬덤 -4615
▁접속 -4616
▁구원 -4617
▁승격 -4618
her -4619
▁갇히 -4620
▁영향력 -4621
▁89 -4622
▁파츠 -4623
▁트로 -4624
▁유니폼 -4625
려주 -4626
▁GB -4627
▁긍정 -4628
▁꽂 -4629
▁노벨 -4630
데스 -4631
▁룸 -4632
age -4633
▁커스 -4634
▁내성 -4635
▁아케 -4636
▁어드 -4637
구려 -4638
▁청소년 -4639
▁동인 -4640
▁형사 -4641
▁유통 -4642
▁OST -4643
덜란드 -4644
▁네덜란드 -4645
▁스승 -4646
▁방지 -4647
▁유대 -4648
▁시계 -4649
▁건축 -4650
▁연료 -4651
▁곧바로 -4652
▁개성 -4653
▁무덤 -4654
▁스틸 -4655
▁바이러스 -4656
임스 -4657
▁메뉴 -4658
▁리듬 -4659
ide -4660
▁무라 -4661
ID -4662
▁ffffff -4663
▁87 -4664
▁하우스 -4665
▁거인 -4666
▁성별 -4667
▁펫 -4668
▁하얗 -4669
▁니코 -4670
▁전멸 -4671
▁보안 -4672
치기 -4673
▁레이더 -4674
▁곁 -4675
▁빼앗기 -4676
▁대인 -4677
▁햄 -4678
▁CC -4679
▁환영 -4680
▁이명 -4681
UN -4682
▁빛나 -4683
▁이터 -4684
▁집어 -4685
메달 -4686
▁투구 -4687
▁자국 -4688
▁GT -4689
▁깜 -4690
▁정찰 -4691
▁단장 -4692
VA -4693
▁사정거리 -4694
▁리아 -4695
ark -4696
▁이내 -4697
▁이영 -4698
▁주식 -4699
▁헛 -4700
▁부작 -4701
▁DS -4702
▁개방 -4703
▁어떠 -4704
▁패널 -4705
▁딘 -4706
▁보석 -4707
▁Tr -4708
▁로고 -4709
▁코미 -4710
▁오타 -4711
▁드라이브 -4712
▁나치 -4713
▁저장 -4714
▁그럼 -4715
▁이날 -4716
▁메르 -4717
▁톰 -4718
▁자세히 -4719
▁윌리 -4720
▁쵸 -4721
▁김태 -4722
▁KIA -4723
▁타인 -4724
세스 -4725
▁논리 -4726
▁연금 -4727
▁소중 -4728
▁호주 -4729
▁블러드 -4730
▁원소 -4731
▁식당 -4732
▁빌드 -4733
▁생략 -4734
▁곽 -4735
▁스키 -4736
▁와이 -4737
▁자금 -4738
▁놀이 -4739
▁계통 -4740
▁오스트 -4741
▁마침내 -4742
▁과연 -4743
▁학부 -4744
▁칩 -4745
▁인격 -4746
ep -4747
▁플레이오프 -4748
▁기르 -4749
▁주역 -4750
ax -4751
나미 -4752
▁플랫 -4753
▁WW -4754
▁제임스 -4755
▁맥스 -4756
▁우라 -4757
▁사이버 -4758
▁스트라이크 -4759
스키 -4760
▁똥 -4761
▁어마 -4762
▁다름 -4763
▁의존 -4764
▁우연히 -4765
▁골든 -4766
▁마이클 -4767
▁탄창 -4768
▁계단 -4769
▁극복 -4770
▁인연 -4771
▁도우 -4772
▁미술 -4773
▁전진 -4774
▁사라 -4775
▁예측 -4776
▁개정 -4777
▁사신 -4778
▁전문가 -4779
▁악당 -4780
▁호텔 -4781
▁테츠 -4782
ire -4783
▁On -4784
▁트럭 -4785
▁아일랜드 -4786
▁이브 -4787
▁판매량 -4788
북도 -4789
▁캠페인 -4790
▁타로 -4791
▁그러니 -4792
▁차트 -4793
▁1992 -4794
▁on -4795
▁더럽 -4796
▁무릎 -4797
▁준수 -4798
▁연예인 -4799
▁좌석 -4800
▁살아가 -4801
ood -4802
▁사형 -4803
▁보관 -4804
▁차기 -4805
▁충성 -4806
▁제갈 -4807
▁모토 -4808
아다니 -4809
▁사제 -4810
ge -4811
▁조언 -4812
▁캡틴 -4813
▁독특 -4814
▁소위 -4815
▁기적 -4816
▁무방 -4817
▁화제 -4818
▁탱커 -4819
▁저작 -4820
▁혈액 -4821
▁실전 -4822
▁대처 -4823
▁유치 -4824
▁록맨 -4825
▁접촉 -4826
▁구경 -4827
▁CPU -4828
▁잘리 -4829
▁용기 -4830
ust -4831
▁내지 -4832
ect -4833
▁결성 -4834
▁고스트 -4835
ob -4836
ock -4837
▁단편 -4838
▁램 -4839
ㄱㅜ -4840
▁특전 -4841
▁학자 -4842
▁조연 -4843
▁포스트 -4844
▁네오 -4845
일드 -4846
가스 -4847
▁스마트폰 -4848
▁피스 -4849
▁피격 -4850
덩이 -4851
▁숭 -4852
▁강원 -4853
▁박히 -4854
▁하루카 -4855
▁길이 -4856
▁시선 -4857
AD -4858
▁흐름 -4859
▁드럼 -4860
▁화학 -4861
▁제작자 -4862
▁인조 -4863
▁삐 -4864
▁몰락 -4865
▁커피 -4866
▁1993 -4867
▁아키라 -4868
▁커리어 -4869
▁하차 -4870
고리 -4871
▁생명력 -4872
▁왠지 -4873
▁덧붙이 -4874
▁호감 -4875
▁호위 -4876
▁130 -4877
▁툴 -4878
자드 -4879
▁신설 -4880
▁아이스 -4881
▁저렴 -4882
▁슈팅 -4883
▁발달 -4884
▁it -4885
▁후배 -4886
▁람 -4887
▁불타 -4888
멘트 -4889
▁오크 -4890
다랗 -4891
▁묘하 -4892
▁본체 -4893
▁타락 -4894
▁안타깝 -4895
▁델 -4896
▁파크 -4897
▁시달리 -4898
▁스텔 -4899
▁하락 -4900
스턴 -4901
▁원주 -4902
▁카와 -4903
▁일람 -4904
▁내세우 -4905
mer -4906
워크 -4907
▁Be -4908
▁가짜 -4909
▁냄새 -4910
▁자전 -4911
▁익스 -4912
▁해상 -4913
▁결전 -4914
▁아마도 -4915
▁우위 -4916
▁IS -4917
▁국립 -4918
▁중독 -4919
▁처형 -4920
▁초보 -4921
▁아티스트 -4922
▁소스 -4923
▁미라 -4924
▁증오 -4925
▁활성 -4926
▁그러니까 -4927
▁SM -4928
▁음모 -4929
▁북쪽 -4930
▁후방 -4931
▁금속 -4932
▁미터 -4933
▁닫 -4934
▁둘째 -4935
▁계정 -4936
▁장악 -4937
▁위상 -4938
▁트랜스 -4939
▁노르 -4940
▁지경 -4941
▁다름없 -4942
▁닭 -4943
▁펴 -4944
▁가루 -4945
아시아 -4946
▁고작 -4947
▁포수 -4948
▁AM -4949
팩트 -4950
▁무지 -4951
▁시노 -4952
▁의대 -4953
▁신부 -4954
▁구리 -4955
▁ㅅㅠ -4956
▁외계인 -4957
▁패션 -4958
▁일본인 -4959
▁핏 -4960
양함 -4961
▁과제 -4962
▁플래그 -4963
▁표지 -4964
▁공무원 -4965
▁뜬금 -4966
▁업적 -4967
▁루타 -4968
▁디스크 -4969
▁.." -4970
▁인민 -4971
▁남쪽 -4972
▁미스터 -4973
▁투명 -4974
▁보라 -4975
▁쌍둥이 -4976
▁| -4977
▁동굴 -4978
▁EN -4979
▁주사 -4980
▁자폭 -4981
▁일족 -4982
▁Te -4983
▁터널 -4984
▁데려오 -4985
▁me -4986
▁음원 -4987
▁선전 -4988
네스 -4989
are -4990
▁로리 -4991
▁폴란드 -4992
▁편곡 -4993
▁세르 -4994
▁그로 -4995
▁펄 -4996
▁기동전 -4997
▁포로 -4998
▁금융 -4999
▁정차 -5000
나카 -5001
▁바이오 -5002
▁아쿠 -5003
▁동력 -5004
▁강도 -5005
몬드 -5006
▁아저 -5007
▁에리 -5008
▁날아오 -5009
▁찢 -5010
▁체중 -5011
▁자막 -5012
▁아저씨 -5013
▁기도 -5014
▁1988 -5015
▁개수 -5016
VD -5017
▁차이점 -5018
▁완결 -5019
▁트라이 -5020
▁신비 -5021
▁라이온 -5022
▁열쇠 -5023
▁행보 -5024
▁히어로즈 -5025
▁다가오 -5026
▁ㄷㅓㄴㅈㅣ -5027
▁아이언 -5028
▁무척 -5029
▁연령 -5030
▁잉글 -5031
▁구르 -5032
▁넉 -5033
▁전라 -5034
학자 -5035
▁Me -5036
▁비상 -5037
카리 -5038
▁101 -5039
iv -5040
▁부각 -5041
▁액티브 -5042
▁눕 -5043
CG -5044
▁심심 -5045
▁공룡 -5046
▁캐리 -5047
▁..... -5048
▁웃음 -5049
그마 -5050
▁적응 -5051
랑이 -5052
▁격추 -5053
▁멕시코 -5054
▁면모 -5055
ance -5056
▁팽 -5057
▁최신 -5058
▁ch -5059
▁엮이 -5060
▁지라 -5061
▁미즈 -5062
▁적당히 -5063
▁인치 -5064
▁간신 -5065
▁벌레 -5066
▁의혹 -5067
▁제작사 -5068
▁이집 -5069
▁이집트 -5070
▁SR -5071
▁정글 -5072
▁승객 -5073
▁@ -5074
▁색깔 -5075
ㄷㅡㄴㅈㅣ -5076
▁천하 -5077
▁할머니 -5078
▁코인 -5079
▁부장 -5080
▁칭호 -5081
▁나츠 -5082
▁볼넷 -5083
특별 -5084
▁흡혈 -5085
▁상술 -5086
▁담기 -5087
▁헬기 -5088
▁ㄱㅔㅅ -5089
▁잠수함 -5090
▁대리 -5091
▁후계 -5092
▁과장 -5093
▁돋 -5094
▁교황 -5095
▁개입 -5096
▁스터 -5097
▁시아 -5098
▁담배 -5099
qu -5100
▁저녁 -5101
▁튕 -5102
▁일방 -5103
▁후술 -5104
▁냥 -5105
▁일찍 -5106
▁첼 -5107
▁각본 -5108
▁위대 -5109
▁예언 -5110
our -5111
ound -5112
LL -5113
▁리타 -5114
US -5115
iz -5116
▁로그 -5117
▁방출 -5118
▁귀환 -5119
▁My -5120
▁새벽 -5121
▁십자 -5122
로디 -5123
▁해피 -5124
ord -5125
▁생겨나 -5126
려나 -5127
▁물러나 -5128
▁페이즈 -5129
▁스튜디오 -5130
▁공성 -5131
▁화성 -5132
▁총알 -5133
▁도끼 -5134
▁정착 -5135
▁넥센 -5136
▁광역시 -5137
▁모래 -5138
▁라이플 -5139
▁클레 -5140
▁네트 -5141
▁팀원 -5142
▁이중 -5143
▁어판 -5144
▁신사 -5145
이너 -5146
▁사귀 -5147
▁마디 -5148
▁흥미 -5149
▁썬 -5150
▁정발 -5151
라기 -5152
▁도라 -5153
▁비추 -5154
▁ㅣ -5155
▁곤란 -5156
▁원칙 -5157
팡이 -5158
▁수장 -5159
▁식량 -5160
▁악명 -5161
쳐지 -5162
▁깔끔 -5163
▁새끼 -5164
▁이정 -5165
ime -5166
▁소라 -5167
▁ㅌ -5168
▁활발 -5169
▁식민 -5170
▁이노 -5171
▁무렵 -5172
▁사후 -5173
▁호기 -5174
▁동의 -5175
▁교류 -5176
ix -5177
▁XX -5178
▁반동 -5179
▁토끼 -5180
▁라면 -5181
▁Cl -5182
▁녹색 -5183
▁다치 -5184
▁마약 -5185
▁Com -5186
▁애플 -5187
▁1970 -5188
▁하단 -5189
▁손해 -5190
▁항공기 -5191
▁레슬 -5192
▁패하 -5193
▁비주 -5194
▁제트 -5195
▁상관없 -5196
▁1991 -5197
pe -5198
▁드롭 -5199
▁엿 -5200
▁재산 -5201
▁토론 -5202
▁크리스마스 -5203
▁펌 -5204
▁사막 -5205
▁구석 -5206
▁원자 -5207
▁쓸모 -5208
▁칭찬 -5209
▁주일 -5210
▁중국어 -5211
▁바깥 -5212
▁증언 -5213
▁뱀파이어 -5214
▁리플 -5215
▁릿 -5216
▁배터리 -5217
▁엔젤 -5218
우마 -5219
▁작곡가 -5220
▁이드 -5221
▁SE -5222
▁루카 -5223
▁수류 -5224
▁애정 -5225
▁자극 -5226
▁태평 -5227
▁상기 -5228
▁잠재 -5229
▁부지 -5230
▁모노 -5231
▁정원 -5232
▁포항 -5233
▁막대 -5234
▁그만두 -5235
▁최다 -5236
▁튕기 -5237
▁등지 -5238
▁끊기 -5239
▁주기 -5240
▁도주 -5241
▁미안 -5242
▁엑스트라 -5243
▁턱 -5244
▁MVP -5245
OP -5246
▁팬텀 -5247
어마 -5248
▁올해 -5249
▁놓이 -5250
▁흑인 -5251
▁추구 -5252
▁배트맨 -5253
▁씬 -5254
uc -5255
회사 -5256
저스 -5257
▁펑 -5258
▁이재 -5259
▁호칭 -5260
ite -5261
▁그럭 -5262
▁흔적 -5263
▁할인 -5264
▁앞두 -5265
▁동쪽 -5266
▁AD -5267
▁어마어마 -5268
▁막차 -5269
▁궤도 -5270
▁첩 -5271
▁국왕 -5272
▁CV -5273
▁스웨 -5274
▁강자 -5275
▁그대 -5276
저럭 -5277
▁상실 -5278
▁미루 -5279
▁얻어 -5280
▁마이너 -5281
▁클릭 -5282
하면 -5283
▁충실 -5284
▁플래시 -5285
▁불교 -5286
▁거미 -5287
▁승점 -5288
주시 -5289
▁면역 -5290
▁언더 -5291
▁그럭저럭 -5292
▁용량 -5293
OW -5294
▁코코 -5295
▁가동 -5296
▁참모 -5297
▁뿔 -5298
▁아이콘 -5299
▁분대 -5300
▁160 -5301
▁고구려 -5302
▁스즈 -5303
▁기숙 -5304
▁결합 -5305
▁시라 -5306
▁탈퇴 -5307
▁시합 -5308
▁이익 -5309
▁140 -5310
▁김동 -5311
게임 -5312
▁거듭 -5313
▁남녀 -5314
▁히나 -5315
▁앨리스 -5316
▁타율 -5317
▁수류탄 -5318
▁SH -5319
▁포격 -5320
▁신앙 -5321
▁강요 -5322
▁찍히 -5323
▁관중 -5324
▁용서 -5325
▁무술 -5326
말리 -5327
▁숙련 -5328
▁예산 -5329
▁나리 -5330
▁이토 -5331
▁화장실 -5332
▁기생 -5333
ure -5334
▁미키 -5335
▁BPM -5336
▁소대 -5337
▁디젤 -5338
▁테라 -5339
▁짜증 -5340
▁아메리카 -5341
려들 -5342
▁오늘날 -5343
▁의회 -5344
▁자책 -5345
▁루수 -5346
▁고도 -5347
▁런던 -5348
▁입지 -5349
▁구슬 -5350
▁아츠 -5351
▁윌리엄 -5352
▁단행 -5353
▁딴 -5354
▁영구 -5355
▁통산 -5356
▁눈치채 -5357
OD -5358
▁매장 -5359
▁잡아먹 -5360
▁교차 -5361
▁종목 -5362
▁적군 -5363
▁혐오 -5364
바르 -5365
▁900 -5366
▁문구 -5367
▁입대 -5368
▁성립 -5369
▁오직 -5370
▁예수 -5371
사관 -5372
▁옳 -5373
▁공방 -5374
▁간접 -5375
▁빨갛 -5376
▁사키 -5377
▁잉글랜드 -5378
▁포켓몬스터 -5379
▁가요 -5380
▁기구 -5381
▁DVD -5382
▁출구 -5383
▁우에 -5384
▁하향 -5385
▁구글 -5386
▁기여 -5387
▁동급 -5388
▁모니 -5389
▁토시 -5390
▁도박 -5391
▁일본군 -5392
여객 -5393
▁형상 -5394
▁쪼 -5395
▁1989 -5396
▁$ -5397
▁공공 -5398
▁클랜 -5399
▁하이퍼 -5400
▁리오 -5401
▁지뢰 -5402
▁힙 -5403
▁철권 -5404
▁낚시 -5405
▁덩치 -5406
▁Pr -5407
▁웃기 -5408
▁오라 -5409
BA -5410
▁존재감 -5411
▁말투 -5412
▁Wh -5413
▁ㄹㅐ -5414
▁백성 -5415
ake -5416
▁아미 -5417
▁부자 -5418
▁딕 -5419
▁야마토 -5420
▁실망 -5421
▁며 -5422
▁Pl -5423
▁KR -5424
▁제약 -5425
▁민첩 -5426
▁아서 -5427
▁떨어뜨리 -5428
▁Ex -5429
어하 -5430
▁윗 -5431
▁크림 -5432
▁발리 -5433
▁Un -5434
▁소유자 -5435
머스 -5436
▁Pro -5437
▁찾아내 -5438
소녀 -5439
▁보고 -5440
▁백인 -5441
▁피터 -5442
RE -5443
▁일치 -5444
▁간신히 -5445
▁주간 -5446
▁서쪽 -5447
▁금방 -5448
러가 -5449
ION -5450
▁기관총 -5451
▁착하 -5452
▁히가시 -5453
▁중량 -5454
▁연합군 -5455
▁상인 -5456
▁본사 -5457
▁초인 -5458
▁울리 -5459
▁이슈 -5460
▁치루 -5461
▁추억 -5462
▁뎀 -5463
▁칼날 -5464
▁흔들리 -5465
▁일대 -5466
▁동성 -5467
▁쭉 -5468
▁몽골 -5469
▁어려움 -5470
▁천만 -5471
▁매년 -5472
▁들키 -5473
▁단단 -5474
베르 -5475
▁NE -5476
▁이스라 -5477
▁사유 -5478
▁붓 -5479
▁RPG -5480
▁힌 -5481
▁순환 -5482
▁콜라보 -5483
▁포드 -5484
▁총리 -5485
▁와타 -5486
▁내전 -5487
▁의외로 -5488
▁법률 -5489
▁유독 -5490
▁임팩트 -5491
▁화물 -5492
군다 -5493
▁수비력 -5494
Hz -5495
▁아랍 -5496
▁싫어하 -5497
무시 -5498
▁근본 -5499
▁그렇지만 -5500
▁분신 -5501
특별시 -5502
▁믹스 -5503
▁메이드 -5504
▁건조 -5505
▁호수 -5506
▁시공 -5507
▁난입 -5508
▁오마 -5509
▁개혁 -5510
▁스크린 -5511
시즈 -5512
▁권한 -5513
▁너희 -5514
▁지위 -5515
oy -5516
▁세븐 -5517
▁심사 -5518
은행 -5519
▁스탠드 -5520
▁선택지 -5521
▁리드 -5522
▁이끄 -5523
▁가만 -5524
▁전동 -5525
▁재단 -5526
▁개막 -5527
▁유물 -5528
▁평생 -5529
▁침략 -5530
▁타선 -5531
▁비스 -5532
▁색상 -5533
ows -5534
▁연극 -5535
▁괜히 -5536
▁소장 -5537
화점 -5538
ud -5539
▁Gr -5540
▁상식 -5541
▁스펠 -5542
▁란스 -5543
▁뛰어넘 -5544
▁명확 -5545
▁서울특별시 -5546
▁건드리 -5547
▁커다랗 -5548
▁우르 -5549
▁불사 -5550
▁인종 -5551
▁메달 -5552
▁세종 -5553
▁악기 -5554
▁with -5555
IG -5556
▁반전 -5557
OC -5558
▁끈 -5559
▁곡명 -5560
▁합의 -5561
▁개업 -5562
▁집착 -5563
▁기숙사 -5564
▁생존자 -5565
▁되돌리 -5566
▁맛있 -5567
▁뿜 -5568
▁그랜드 -5569
신교 -5570
▁히토 -5571
▁크리스탈 -5572
▁유적 -5573
▁변호사 -5574
▁정통 -5575
▁ㅅㅗ -5576
▁협상 -5577
▁양성 -5578
▁BL -5579
▁스팀 -5580
▁헐 -5581
▁헤어지 -5582
사자 -5583
▁딜레이 -5584
▁잔뜩 -5585
▁터뜨리 -5586
▁복선 -5587
▁서구 -5588
▁센스 -5589
갈리 -5590
▁브루 -5591
▁승률 -5592
▁인디 -5593
▁재정 -5594
▁렐 -5595
▁휘말리 -5596
▁복지 -5597
▁단축 -5598
▁암시 -5599
▁울프 -5600
▁해치 -5601
▁일화 -5602
▁걸맞 -5603
▁집행 -5604
▁복구 -5605
▁총선 -5606
▁카카 -5607
랭크 -5608
▁기인 -5609
▁엘리트 -5610
orld -5611
▁메리 -5612
▁신나 -5613
▁이스라엘 -5614
▁교과 -5615
▁열매 -5616
▁영주 -5617
▁흰 -5618
▁동양 -5619
▁KOF -5620
전차 -5621
▁걸어 -5622
▁출입 -5623
▁기울 -5624
무르 -5625
▁김종 -5626
▁항복 -5627
▁무시무시 -5628
▁he -5629
▁포르투 -5630
▁체육관 -5631
데레 -5632
▁임신 -5633
▁고위 -5634
▁정수 -5635
▁타쿠 -5636
▁휩 -5637
히코 -5638
▁구축함 -5639
▁스트리트 -5640
▁부딪 -5641
▁무역 -5642
▁상단 -5643
▁레지 -5644
▁즐겁 -5645
▁비례 -5646
▁105 -5647
▁미나미 -5648
▁정치인 -5649
▁자전거 -5650
▁치즈 -5651
▁채택 -5652
▁급격 -5653
▁고로 -5654
그리 -5655
▁라인업 -5656
▁치킨 -5657
▁빠져 -5658
군다나 -5659
▁BS -5660
▁꾸미 -5661
▁수출 -5662
▁코난 -5663
▁진보 -5664
▁깨어나 -5665
부로 -5666
▁경직 -5667
▁성남 -5668
▁당일 -5669
aw -5670
▁기량 -5671
▁국판 -5672
▁김민 -5673
▁간단히 -5674
▁이펙트 -5675
▁존경 -5676
▁확대 -5677
▁굿 -5678
▁War -5679
▁깔리 -5680
▁꼼 -5681
▁부스터 -5682
▁더군다나 -5683
▁망가지 -5684
▁두들 -5685
▁넘버 -5686
▁사이코 -5687
▁을 -5688
▁적합 -5689
▁끔 -5690
▁금액 -5691
▁대단히 -5692
▁코리아 -5693
▁OVA -5694
▁재밌 -5695
▁도둑 -5696
▁에로 -5697
▁누적 -5698
▁칼리 -5699
▁강점 -5700
라이트 -5701
ace -5702
▁스파이더 -5703
▁ED -5704
▁사령부 -5705
▁키타 -5706
▁갈아 -5707
▁랄 -5708
▁상호 -5709
▁EP -5710
▁화재 -5711
▁스폰 -5712
▁사살 -5713
▁통계 -5714
데이 -5715
▁철저 -5716
▁비치 -5717
▁정화 -5718
우치 -5719
80 -5720
▁후손 -5721
▁메이플 -5722
ave -5723
▁전이 -5724
▁콜로 -5725
▁DD -5726
▁유학 -5727
▁CG -5728
▁Love -5729
▁서포터 -5730
티아 -5731
ame -5732
▁제독 -5733
▁우정 -5734
▁메시지 -5735
▁뻗 -5736
▁썬더 -5737
▁알아내 -5738
데드 -5739
▁이민 -5740
▁자이언츠 -5741
▁띠 -5742
▁혹시 -5743
▁뽑히 -5744
▁원문 -5745
▁허락 -5746
▁내보내 -5747
▁이혼 -5748
아키 -5749
▁대수 -5750
▁간간 -5751
▁마블 -5752
▁마법소녀 -5753
▁치유 -5754
▁언데드 -5755
▁가공 -5756
▁가을 -5757
ㄹㅏㄴ -5758
▁잃어버리 -5759
▁한쪽 -5760
▁행하 -5761
▁권리 -5762
▁우타 -5763
▁대거 -5764
▁토너 -5765
▁가라 -5766
▁끔찍 -5767
▁후계자 -5768
▁기갑 -5769
▁탄환 -5770
▁수능 -5771
▁LV -5772
▁견디 -5773
▁검술 -5774
▁사원 -5775
▁변환 -5776
▁수백 -5777
▁천안 -5778
▁오락 -5779
▁까이 -5780
▁통치 -5781
▁ㄹㅓㄴ -5782
▁철수 -5783
▁면허 -5784
▁수명 -5785
▁업계 -5786
▁1987 -5787
▁루이 -5788
▁부적 -5789
▁능력자 -5790
▁토마 -5791
▁쏟아지 -5792
▁주택 -5793
▁해머 -5794
▁피아노 -5795
▁드라이버 -5796
▁헤어 -5797
▁고개 -5798
▁하츠 -5799
유럽 -5800
▁노가 -5801
▁언스 -5802
▁커녕 -5803
▁코멘트 -5804
▁나루토 -5805
▁루나 -5806
▁워크래프트 -5807
▁실존 -5808
▁개신교 -5809
▁초간 -5810
자와 -5811
▁분명히 -5812
▁독재 -5813
▁매니저 -5814
▁알렉산 -5815
▁끼우 -5816
▁동명 -5817
▁삽입 -5818
▁트롤 -5819
▁쟁 -5820
ice -5821
▁지불 -5822
▁박물 -5823
▁물리치 -5824
▁낮추 -5825
▁맷 -5826
▁3000 -5827
ies -5828
▁타운 -5829
chor -5830
▁202 -5831
▁WWE -5832
▁소음 -5833
▁오랜만 -5834
▁싸이 -5835
▁크레 -5836
▁제정 -5837
▁히라 -5838
▁생명체 -5839
▁읍 -5840
▁세인트 -5841
▁거울 -5842
▁배역 -5843
▁마코토 -5844
▁중립 -5845
▁프리미엄 -5846
포트 -5847
▁곳곳 -5848
▁유효 -5849
데미 -5850
▁해안 -5851
▁Wind -5852
▁파생 -5853
▁데려가 -5854
▁캐치 -5855
own -5856
▁자본 -5857
IM -5858
▁싹 -5859
▁기용 -5860
▁폐쇄 -5861
▁sh -5862
▁원조 -5863
▁시위 -5864
▁언젠 -5865
▁구미 -5866
▁약화 -5867
▁플러스 -5868
▁중첩 -5869
▁언젠가 -5870
▁뮤지컬 -5871
▁루비 -5872
▁마스크 -5873
로나 -5874
거지 -5875
▁보험 -5876
▁감각 -5877
▁대왕 -5878
▁레딧 -5879
▁결투 -5880
▁지리 -5881
▁큐브 -5882
▁충청 -5883
per -5884
▁서서 -5885
▁원리 -5886
▁실종 -5887
▁지팡이 -5888
▁코믹 -5889
▁요약 -5890
▁체인지 -5891
게이 -5892
▁니혼 -5893
▁스프링 -5894
▁인질 -5895
▁주자 -5896
▁아카데미 -5897
▁킬러 -5898
▁?? -5899
▁중세 -5900
▁엔드 -5901
▁우월 -5902
▁무관 -5903
▁토너먼트 -5904
▁만남 -5905
걸이 -5906
▁워커 -5907
▁여객 -5908
▁하마 -5909
▁철학 -5910
하시 -5911
ath -5912
▁보드 -5913
TE -5914
반도 -5915
▁성전 -5916
▁리카 -5917
▁취약 -5918
▁anchor -5919
▁리스크 -5920
man -5921
▁더빙 -5922
▁TVA -5923
▁리프 -5924
▁니스 -5925
▁이라 -5926
▁기동성 -5927
▁전파 -5928
가드 -5929
▁처지 -5930
▁de -5931
▁정기 -5932
리온 -5933
▁카트 -5934
▁사야 -5935
▁날짜 -5936
▁유산 -5937
▁방위 -5938
▁새기 -5939
▁이나 -5940
▁KBO -5941
▁무공 -5942
▁속이 -5943
▁곱 -5944
▁나미 -5945
▁시크 -5946
▁중형 -5947
▁드래프트 -5948
▁호시 -5949
▁배포 -5950
틀러 -5951
운서 -5952
▁밀어 -5953
▁아나운서 -5954
▁딜링 -5955
▁장탄 -5956
▁결심 -5957
▁시바 -5958
▁추종 -5959
▁베타 -5960
▁PV -5961
▁티켓 -5962
▁고맙 -5963
▁도적 -5964
▁개시 -5965
old -5966
ere -5967
▁나기 -5968
▁베리 -5969
▁왜곡 -5970
▁사명 -5971
▁We -5972
▁허가 -5973
▁마주치 -5974
▁측정 -5975
▁와일드 -5976
▁해병대 -5977
▁대학원 -5978
▁줍 -5979
▁PR -5980
▁여우 -5981
▁보충 -5982
▁틸 -5983
▁스트레스 -5984
▁돌입 -5985
▁1986 -5986
카이 -5987
센트 -5988
시스트 -5989
▁시원 -5990
▁휘하 -5991
▁야구장 -5992
▁필리 -5993
▁마우스 -5994
▁연패 -5995
▁ID -5996
▁무인 -5997
▁복제 -5998
▁시외 -5999
▁유격 -6000
▁헌법 -6001
술사 -6002
▁용인 -6003
▁저택 -6004
▁네트워크 -6005
스럽 -6006
▁관할 -6007
텐도 -6008
▁AS -6009
▁보완 -6010
▁닌텐도 -6011
▁분당 -6012
▁이글 -6013
▁승무원 -6014
▁고장 -6015
▁파이트 -6016
▁부실 -6017
▁후자 -6018
▁장거리 -6019
▁억지로 -6020
▁중시 -6021
10 -6022
▁조리 -6023
▁인피 -6024
ick -6025
▁관점 -6026
▁수호자 -6027
▁박물관 -6028
ber -6029
▁토미 -6030
▁안기 -6031
▁희귀 -6032
▁서클 -6033
▁언덕 -6034
▁셜 -6035
▁주둔 -6036
▁우치 -6037
▁". -6038
▁문단 -6039
▁혐의 -6040
▁악화 -6041
▁엄밀 -6042
▁쿠라 -6043
▁막내 -6044
▁미네 -6045
▁연고 -6046
▁조약 -6047
▁불량 -6048
▁당대 -6049
▁캠프 -6050
▁기묘 -6051
▁세포 -6052
▁톨 -6053
▁법원 -6054
네임 -6055
▁꿀 -6056
▁유니크 -6057
▁학력 -6058
▁엑시즈 -6059
▁롬 -6060
▁여전 -6061
▁잠입 -6062
GE -6063
▁-> -6064
▁오키 -6065
▁기상 -6066
▁감추 -6067
ory -6068
▁유발 -6069
▁모로 -6070
▁방송국 -6071
▁조이 -6072
▁단원 -6073
▁지칭 -6074
▁식민지 -6075
▁럼 -6076
ov -6077
▁버드 -6078
▁인용 -6079
▁다이아몬드 -6080
▁그린 -6081
▁페널 -6082
▁카구 -6083
▁단행본 -6084
▁채보 -6085
▁취임 -6086
▁김대 -6087
▁로얄 -6088
▁지진 -6089
래시 -6090
▁연맹 -6091
▁인방 -6092
▁스웨덴 -6093
▁오메 -6094
▁코마 -6095
▁AKB -6096
▁데이트 -6097
▁남매 -6098
▁프라임 -6099
▁벨트 -6100
▁울트라맨 -6101
▁기름 -6102
▁챌 -6103
ond -6104
▁레일 -6105
▁만만 -6106
▁반부 -6107
▁my -6108
▁멜로디 -6109
▁즈음 -6110
TS -6111
부르크 -6112
▁면적 -6113
▁가죽 -6114
▁피우 -6115
▁고증 -6116
▁웰 -6117
펴보 -6118
▁살펴보 -6119
▁캐스터 -6120
▁흩 -6121
▁En -6122
▁도루 -6123
필드 -6124
▁GP -6125
가리 -6126
▁디즈 -6127
▁택시 -6128
▁법정 -6129
▁근거리 -6130
▁케이드 -6131
▁부드 -6132
▁선행 -6133
▁매번 -6134
▁자비 -6135
그나 -6136
▁ㅁㅗ -6137
▁배달 -6138
▁질리 -6139
▁거점 -6140
비드 -6141
▁중장 -6142
▁포위 -6143
▁아르헨 -6144
▁중복 -6145
ream -6146
▁혈액형 -6147
▁아테 -6148
▁공수 -6149
프리 -6150
▁방어구 -6151
▁이주 -6152
▁준우 -6153
▁신도 -6154
▁진압 -6155
▁스텝 -6156
▁FIFA -6157
▁분쟁 -6158
▁굵 -6159
▁교도 -6160
▁레알 -6161
▁웨이브 -6162
▁CJ -6163
▁파르 -6164
▁득표 -6165
ah -6166
▁라틴 -6167
▁미쿠 -6168
▁소요 -6169
▁호랑이 -6170
▁꿰 -6171
▁실은 -6172
▁이수 -6173
티스 -6174
out -6175
▁Dr -6176
▁차체 -6177
태우 -6178
▁일당 -6179
▁전승 -6180
▁행방 -6181
▁독일군 -6182
▁아이러 -6183
▁연승 -6184
크로 -6185
▁도저히 -6186
시타 -6187
블린 -6188
▁아르헨티나 -6189
미니 -6190
▁깨달 -6191
▁참석 -6192
▁189 -6193
▁용자 -6194
커스 -6195
▁wh -6196
카락 -6197
▁답변 -6198
▁휴식 -6199
▁DC -6200
▁머리카락 -6201
▁릴리 -6202
▁균형 -6203
▁법칙 -6204
▁부드럽 -6205
IP -6206
▁미만 -6207
▁첫차 -6208
타카 -6209
▁헝 -6210
▁공인 -6211
▁케인 -6212
▁창원 -6213
▁오전 -6214
ost -6215
▁1500 -6216
▁때려 -6217
세서 -6218
▁암살자 -6219
▁kt -6220
아이 -6221
▁시로 -6222
▁셔틀 -6223
▁비전 -6224
▁마계 -6225
▁이온 -6226
▁로이 -6227
▁유인 -6228
▁관람 -6229
▁한두 -6230
▁무작 -6231
▁학기 -6232
▁주류 -6233
▁발렌 -6234
▁초록 -6235
▁챌린 -6236
▁토키 -6237
▁코트 -6238
▁규격 -6239
▁슬라이 -6240
60 -6241
▁포탄 -6242
▁스위치 -6243
▁중력 -6244
▁리뷰 -6245
베스 -6246
러그 -6247
▁비틀 -6248
바닥 -6249
▁본진 -6250
▁트리플 -6251
▁\ -6252
UM -6253
▁평일 -6254
▁피닉스 -6255
런트 -6256
▁에반 -6257
▁주차 -6258
▁왜냐 -6259
▁질투 -6260
LE -6261
▁전주 -6262
▁1985 -6263
렐라 -6264
▁솔직 -6265
▁에르 -6266
▁둘러싸 -6267
▁쇼크 -6268
▁에이지 -6269
▁루머 -6270
▁닛 -6271
▁토벌 -6272
▁For -6273
▁드래곤볼 -6274
▁전제 -6275
▁영원히 -6276
▁침입 -6277
▁김재 -6278
▁통틀 -6279
▁유력 -6280
▁무사히 -6281
▁식품 -6282
▁클론 -6283
▁장인 -6284
▁교실 -6285
▁남북 -6286
▁모시 -6287
▁글로벌 -6288
▁훼 -6289
▁ㄷㅓㄴㄱㅏ -6290
▁조커 -6291
▁비주얼 -6292
▁격차 -6293
테르 -6294
▁스테이션 -6295
ile -6296
▁트루 -6297
▁포르투갈 -6298
블로 -6299
▁박근 -6300
▁소방 -6301
▁시너지 -6302
▁개설 -6303
▁공업 -6304
▁스태 -6305
▁바쁘 -6306
▁오디션 -6307
야수 -6308
▁ㅌㅣ -6309
▁안개 -6310
▁1984 -6311
▁경로 -6312
▁구름 -6313
▁베기 -6314
▁김경 -6315
▁합병 -6316
▁보이스 -6317
▁전무 -6318
▁놀리 -6319
▁항의 -6320
▁법인 -6321
▁히로시 -6322
▁조기 -6323
▁재회 -6324
코드 -6325
▁이종 -6326
▁인력 -6327
▁창고 -6328
▁집어넣 -6329
▁아틀 -6330
▁은신 -6331
▁감지 -6332
▁탐정 -6333
▁노바 -6334
▁지치 -6335
▁배수 -6336
▁돔 -6337
▁유성 -6338
▁급하 -6339
▁정황 -6340
▁아가씨 -6341
▁논쟁 -6342
ont -6343
▁확장팩 -6344
▁아동 -6345
▁벼 -6346
▁유미 -6347
▁진학 -6348
▁파동 -6349
▁선고 -6350
▁백화점 -6351
리나 -6352
▁긴장 -6353
▁무스 -6354
▁주행 -6355
▁뜨겁 -6356
▁트릭 -6357
▁어뢰 -6358
▁신전 -6359
▁공허 -6360
▁추리 -6361
쿠라 -6362
▁제네 -6363
▁토크 -6364
▁그르 -6365
▁안녕 -6366
▁어필 -6367
▁호흡 -6368
▁하수 -6369
▁난사 -6370
▁얀 -6371
▁우즈 -6372
▁쓸데 -6373
▁감동 -6374
더라 -6375
▁통화 -6376
▁양반 -6377
▁기운 -6378
▁윈드 -6379
▁막판 -6380
▁코르 -6381
▁단종 -6382
ome -6383
▁사인 -6384
▁카더라 -6385
▁여주 -6386
▁소송 -6387
▁시카 -6388
▁역명 -6389
▁배드 -6390
▁토니 -6391
▁리온 -6392
▁가방 -6393
▁신용 -6394
▁급행 -6395
하르트 -6396
▁생년 -6397
번에 -6398
▁It -6399
▁어이 -6400
▁감상 -6401
▁범죄자 -6402
▁수염 -6403
▁변태 -6404
▁왕위 -6405
▁위성 -6406
▁특별히 -6407
▁바디 -6408
▁마물 -6409
세대 -6410
▁김현 -6411
▁보존 -6412
▁5000 -6413
▁뭉치 -6414
▁메이커 -6415
▁스쿨 -6416
▁장미 -6417
▁과도 -6418
▁명의 -6419
▁신자 -6420
▁학습 -6421
▁뽑아내 -6422
▁프란 -6423
키지 -6424
▁비유 -6425
▁Star -6426
▁개발자 -6427
정부 -6428
투스 -6429
노리 -6430
▁요인 -6431
▁손오 -6432
▁박살나 -6433
▁자녀 -6434
▁서포트 -6435
▁분열 -6436
io -6437
▁갑작 -6438
▁패키지 -6439
▁벙 -6440
▁섀도우 -6441
▁블라 -6442
▁직장 -6443
▁막상 -6444
▁슬프 -6445
▁수면 -6446
▁진주 -6447
▁창단 -6448
▁운동장 -6449
▁추세 -6450
▁백제 -6451
타입 -6452
▁과학자 -6453
▁노스 -6454
▁DE -6455
▁FM -6456
▁영광 -6457
▁의학 -6458
▁야쿠 -6459
▁만지 -6460
▁가디언 -6461
▁에디 -6462
▁제갈량 -6463
▁발굴 -6464
▁성당 -6465
▁신발 -6466
▁뚫리 -6467
▁광선 -6468
▁잉여 -6469
▁아이러니 -6470
▁스캔 -6471
▁태평양 -6472
▁경기력 -6473
▁팟 -6474
▁정예 -6475
▁끌려가 -6476
az -6477
▁106 -6478
▁1960 -6479
▁비웃 -6480
▁매니아 -6481
▁성질 -6482
▁오우 -6483
▁라이온즈 -6484
▁ww -6485
▁SNS -6486
▁극히 -6487
▁EZ -6488
▁나폴 -6489
▁카운트 -6490
▁기재 -6491
에이 -6492
▁기력 -6493
▁유재 -6494
▁라라 -6495
▁쇼핑 -6496
▁복합 -6497
▁임금 -6498
▁상관없이 -6499
▁체감 -6500
▁오노 -6501
도르 -6502
▁산하 -6503
▁최상위 -6504
▁타이거즈 -6505
▁준우승 -6506
▁탐험 -6507
▁진급 -6508
▁몫 -6509
▁우유 -6510
▁로버트 -6511
▁170 -6512
▁프린세스 -6513
▁로보 -6514
▁대책 -6515
▁러시 -6516
▁루스 -6517
▁세라 -6518
▁룩 -6519
▁라즈 -6520
크라 -6521
▁Fl -6522
▁윈도우 -6523
사기 -6524
▁극도 -6525
▁서서히 -6526
▁도감 -6527
▁스타리그 -6528
▁얻어맞 -6529
▁판결 -6530
▁만일 -6531
▁위엄 -6532
▁걸즈 -6533
▁행운 -6534
▁시상 -6535
불명 -6536
▁마냥 -6537
ian -6538
▁양자 -6539
30 -6540
▁에서 -6541
▁물량 -6542
▁데빌 -6543
▁Station -6544
벌레 -6545
▁공정 -6546
저리 -6547
▁대조 -6548
▁손상 -6549
▁여인 -6550
▁샌드 -6551
▁www -6552
일보 -6553
▁피트 -6554
▁우주선 -6555
▁워치 -6556
▁카시 -6557
▁국경 -6558
▁천연 -6559
▁해골 -6560
▁사관 -6561
▁오스트리아 -6562
▁와카 -6563
▁헷 -6564
▁티아 -6565
능력 -6566
▁대치 -6567
▁야수 -6568
▁출격 -6569
▁Sc -6570
▁여학생 -6571
▁체험 -6572
▁플라이 -6573
▁AN -6574
ade -6575
▁늙 -6576
▁Or -6577
▁관계자 -6578
▁무산 -6579
▁콤비 -6580
▁통로 -6581
▁증상 -6582
▁사족 -6583
▁야간 -6584
▁하프 -6585
▁처참 -6586
▁ㄴㅗ -6587
▁꼬이 -6588
▁소프트웨어 -6589
▁퇴장 -6590
▁키라 -6591
▁엘리자 -6592
▁빙판 -6593
▁가만히 -6594
릴라 -6595
▁머무르 -6596
▁뜬금없이 -6597
▁불행 -6598
▁그레 -6599
어놓 -6600
▁상담 -6601
▁드림 -6602
▁조상 -6603
▁오염 -6604
▁경주 -6605
▁손오공 -6606
▁장로 -6607
▁결제 -6608
▁바스 -6609
▁부서지 -6610
▁Fate -6611
▁고객 -6612
▁택하 -6613
▁LC -6614
▁캐시 -6615
▁투스 -6616
▁Go -6617
▁리즈 -6618
▁포장 -6619
▁타수 -6620
▁심의 -6621
▁출간 -6622
▁흡사 -6623
▁간주 -6624
▁상륙 -6625
▁ㅈㅠ -6626
▁캣 -6627
▁포터 -6628
▁원피스 -6629
저기 -6630
▁스핀 -6631
▁쳐들 -6632
▁약물 -6633
▁중고 -6634
▁즉사 -6635
▁세뇌 -6636
▁연봉 -6637
▁오로지 -6638
구미 -6639
▁디바 -6640
▁마케 -6641
▁모터 -6642
▁파란색 -6643
▁날카 -6644
ason -6645
▁CF -6646
▁아바타 -6647
▁Br -6648
▁태클 -6649
▁사립 -6650
▁나르 -6651
▁마유 -6652
▁SF -6653
리스트 -6654
▁베테 -6655
▁위반 -6656
▁남아 -6657
▁아시안 -6658
▁시온 -6659
▁여기저기 -6660
▁함부로 -6661
▁렌즈 -6662
▁파편 -6663
▁Windows -6664
▁백작 -6665
▁철거 -6666
▁브로 -6667
▁콘솔 -6668
▁배정 -6669
▁샤이 -6670
▁이웃 -6671
40 -6672
▁BR -6673
▁난무 -6674
▁뱃 -6675
▁비극 -6676
▁동아리 -6677
▁붙잡히 -6678
▁뒤지 -6679
▁비스트 -6680
▁루크 -6681
▁당당 -6682
▁되살 -6683
▁불펜 -6684
▁창작물 -6685
▁본토 -6686
▁이와 -6687
▁처분 -6688
▁폐기 -6689
▁파멸 -6690
▁캘 -6691
▁대령 -6692
▁지력 -6693
토스 -6694
▁교장 -6695
▁니콜 -6696
▁실상 -6697
▁역습 -6698
▁맥주 -6699
키아 -6700
▁갤러 -6701
▁두들기 -6702
▁수색 -6703
▁코미디 -6704
sh -6705
▁악몽 -6706
▁혜택 -6707
메이 -6708
▁날카롭 -6709
▁지향 -6710
베이 -6711
▁후미 -6712
▁해킹 -6713
▁명목 -6714
▁이타 -6715
▁나스 -6716
▁유전자 -6717
도리 -6718
▁거북 -6719
▁스포일러 -6720
려받 -6721
▁동남 -6722
▁후퇴 -6723
▁이란 -6724
▁즉위 -6725
▁125 -6726
▁JP -6727
▁경남 -6728
▁시신 -6729
▁CH -6730
카이도 -6731
▁전동차 -6732
▁프로토 -6733
하마 -6734
▁핑크 -6735
▁키보드 -6736
▁도장 -6737
▁동경 -6738
▁시트 -6739
▁경악 -6740
▁상사 -6741
tle -6742
ㄴㅑㅇ -6743
▁타르 -6744
비전 -6745
▁두르 -6746
▁여럿 -6747
▁고리 -6748
▁장사 -6749
▁제왕 -6750
ug -6751
▁창설 -6752
▁대포 -6753
▁360 -6754
▁신데 -6755
▁헨리 -6756
▁조우 -6757
▁UN -6758
▁물체 -6759
▁교단 -6760
▁짐작 -6761
▁디즈니 -6762
▁감싸 -6763
▁케이블 -6764
▁교토 -6765
▁원곡 -6766
불호 -6767
▁호불호 -6768
▁혼돈 -6769
▁잡아내 -6770
▁양손 -6771
다보 -6772
▁OP -6773
▁발행 -6774
▁휴가 -6775
▁랑 -6776
먼스 -6777
▁스테이 -6778
▁샷건 -6779
▁기둥 -6780
▁해내 -6781
▁장탄수 -6782
▁엄격 -6783
▁승차 -6784
▁선조 -6785
▁흰색 -6786
▁기세 -6787
▁LA -6788
▁막강 -6789
▁노조 -6790
▁https -6791
▁반박 -6792
▁권위 -6793
▁야생 -6794
▁나노 -6795
▁뒤늦 -6796
▁한반도 -6797
▁얽 -6798
▁폭파 -6799
▁신입 -6800
▁손실 -6801
▁조종사 -6802
▁잠들 -6803
▁며칠 -6804
▁타석 -6805
▁신데렐라 -6806
브라 -6807
▁축복 -6808
▁최적 -6809
▁노가다 -6810
렉스 -6811
▁지선 -6812
▁광장 -6813
▁내일 -6814
우리 -6815
▁포즈 -6816
▁풋 -6817
▁프랑스어 -6818
▁개국 -6819
▁정교 -6820
▁배출 -6821
▁하급 -6822
▁스트라이커 -6823
▁낙하 -6824
▁모스 -6825
▁부착 -6826
월일 -6827
▁BE -6828
▁미오 -6829
▁트라우마 -6830
▁버섯 -6831
▁임대 -6832
▁프레이 -6833
▁츤 -6834
ower -6835
ach -6836
▁회색 -6837
▁딸리 -6838
▁승자 -6839
▁복원 -6840
▁텍스트 -6841
▁기장 -6842
▁펼쳐지 -6843
▁실사 -6844
▁커스텀 -6845
▁표면 -6846
▁패밀리 -6847
▁채팅 -6848
천시 -6849
▁공세 -6850
▁베네 -6851
▁여파 -6852
▁응용 -6853
▁근접전 -6854
▁오이 -6855
▁옹호 -6856
나기 -6857
▁대시 -6858
▁어쩌면 -6859
▁대전차 -6860
iss -6861
▁근원 -6862
▁넘어서 -6863
▁조별 -6864
▁바지 -6865
▁히틀러 -6866
▁잠실 -6867
▁유기 -6868
▁세팅 -6869
▁생년월일 -6870
▁구동 -6871
▁여고 -6872
▁유언 -6873
▁Wi -6874
▁뽀 -6875
▁장신 -6876
▁전북 -6877
▁개장 -6878
▁끊임 -6879
▁물고기 -6880
▁통칭 -6881
▁열혈 -6882
MP -6883
▁첼시 -6884
▁방치 -6885
▁올스타 -6886
▁루이스 -6887
▁투척 -6888
▁초능력 -6889
▁전락 -6890
▁브레 -6891
▁ㅅㅕ -6892
▁명백 -6893
▁신지 -6894
▁팡 -6895
▁마다 -6896
▁호소 -6897
▁김상 -6898
▁미국인 -6899
▁관우 -6900
▁이순 -6901
▁밍 -6902
▁궁금 -6903
▁출루 -6904
▁솜 -6905
ash -6906
▁소용 -6907
▁대접 -6908
▁굴욕 -6909
▁이글스 -6910
▁비명 -6911
▁배려 -6912
▁시인 -6913
ARD -6914
▁반감 -6915
▁이라크 -6916
▁카자 -6917
▁건네 -6918
라딘 -6919
▁장성 -6920
ㄹㅐ -6921
▁쌀 -6922
▁마드리 -6923
▁되게 -6924
▁좌절 -6925
▁간간히 -6926
▁그램 -6927
▁뻥 -6928
▁저하 -6929
▁카리스 -6930
ㄹㅣ -6931
▁탕 -6932
▁부작용 -6933
▁마드리드 -6934
▁꽉 -6935
ook -6936
▁약자 -6937
▁타츠 -6938
▁결계 -6939
▁1982 -6940
▁엽 -6941
▁살아나 -6942
▁대차 -6943
▁상영 -6944
▁여타 -6945
▁양상 -6946
산역 -6947
ial -6948
OU -6949
▁선사 -6950
▁성씨 -6951
▁여의 -6952
▁논의 -6953
▁디시 -6954
▁진격 -6955
▁틴 -6956
▁스태프 -6957
▁마감 -6958
▁빌딩 -6959
▁올드 -6960
▁기수 -6961
▁민주주의 -6962
▁스케일 -6963
▁묶이 -6964
▁정반 -6965
지막지 -6966
▁무지막지 -6967
▁갚 -6968
▁스나이 -6969
▁로이드 -6970
▁아스카 -6971
▁긁 -6972
▁발목 -6973
▁여러분 -6974
▁계시 -6975
▁센트 -6976
▁축하 -6977
▁근대 -6978
▁스노 -6979
▁거스 -6980
▁공대 -6981
▁모빌 -6982
사이 -6983
▁다운로드 -6984
▁수월 -6985
▁지인 -6986
▁엎 -6987
▁프론 -6988
▁해명 -6989
▁마트 -6990
▁공백 -6991
▁깜짝 -6992
ann -6993
▁사이클 -6994
▁가난 -6995
▁하하 -6996
▁수동 -6997
돌이 -6998
▁약탈 -6999
▁기본기 -7000
▁합리 -7001
▁wik -7002
▁인자 -7003
▁최우 -7004
▁그날 -7005
▁레온 -7006
▁ㅅㅕㄴ -7007
ps -7008
▁사악 -7009
▁집권 -7010
▁텟 -7011
TV -7012
포르 -7013
▁퍼포 -7014
▁고소 -7015
▁생전 -7016
▁퍼포먼스 -7017
▁하인 -7018
ss -7019
▁나나 -7020
▁다투 -7021
▁브라운 -7022
▁강렬 -7023
▁세금 -7024
럼프 -7025
▁넘어지 -7026
철도 -7027
▁특급 -7028
▁손꼽 -7029
▁개별 -7030
▁시외버스 -7031
▁이누 -7032
▁박살내 -7033
▁중동 -7034
▁둠 -7035
▁구별 -7036
▁꼬마 -7037
▁실책 -7038
▁대박 -7039
▁후일 -7040
버그 -7041
▁한창 -7042
▁엄밀히 -7043
▁독일어 -7044
▁폴아웃 -7045
▁로빈 -7046
▁보건 -7047
▁닐 -7048
▁우세 -7049
▁노동자 -7050
▁1983 -7051
▁설령 -7052
▁조용히 -7053
▁오메가 -7054
▁교복 -7055
ky -7056
▁조롱 -7057
▁MB -7058
▁라크 -7059
▁슬로 -7060
란히 -7061
▁깎이 -7062
▁이용객 -7063
irl -7064
▁우드 -7065
▁스즈키 -7066
누스 -7067
▁권장 -7068
▁아쉬 -7069
▁삼각 -7070
▁성경 -7071
모함 -7072
▁단검 -7073
▁에픽 -7074
▁사리 -7075
▁대선 -7076
센스 -7077
▁업로드 -7078
▁검찰 -7079
ib -7080
▁음료 -7081
역사 -7082
▁Mk -7083
▁왼손 -7084
▁훈장 -7085
▁토하 -7086
▁마도카 -7087
70 -7088
▁전격 -7089
▁라이너 -7090
▁조명 -7091
ish -7092
▁비서 -7093
▁페널티 -7094
비치 -7095
▁your -7096
바야 -7097
▁그레이트 -7098
▁폭행 -7099
▁토요 -7100
▁나아지 -7101
▁불쌍 -7102
▁페이스북 -7103
▁스피릿 -7104
▁감수 -7105
▁원전 -7106
▁웨스트 -7107
▁명문 -7108
▁선제 -7109
▁산탄 -7110
ㄹㄹㅕ -7111
▁사사 -7112
▁CS -7113
▁닝 -7114
▁GO -7115
▁that -7116
우트 -7117
▁포획 -7118
▁세부 -7119
▁고속도로 -7120
▁튼 -7121
▁빠져나가 -7122
▁제물 -7123
숭이 -7124
▁지사 -7125
▁소니 -7126
▁넘어오 -7127
▁형편 -7128
▁호크 -7129
▁독점 -7130
▁인권 -7131
▁다가가 -7132
▁트랩 -7133
오스 -7134
하나 -7135
▁건국 -7136
▁온도 -7137
▁명사 -7138
▁아스트 -7139
▁도리 -7140
▁직선 -7141
▁휠 -7142
▁PP -7143
▁선진 -7144
▁분해 -7145
rom -7146
▁홀리 -7147
▁위안 -7148
▁항구 -7149
▁마땅 -7150
▁공통점 -7151
▁수직 -7152
▁날뛰 -7153
▁루프 -7154
▁상반 -7155
▁중지 -7156
공항 -7157
▁저렇 -7158
▁에릭 -7159
▁카를 -7160
▁유망 -7161
▁도트 -7162
▁구장 -7163
▁학생회 -7164
▁블레이 -7165
▁벡 -7166
▁유혹 -7167
▁질병 -7168
▁후임 -7169
루미 -7170
탐정 -7171
▁김해 -7172
▁페리 -7173
진호 -7174
▁le -7175
▁팁 -7176
▁겟 -7177
▁츠바 -7178
▁주니어 -7179
▁강간 -7180
orm -7181
▁신선 -7182
▁혈통 -7183
라노 -7184
▁Ne -7185
▁ON -7186
▁잔인 -7187
▁각오 -7188
▁경부 -7189
▁평양 -7190
▁유나이 -7191
게이머 -7192
▁프로게이머 -7193
▁술사 -7194
▁부딪히 -7195
▁매드 -7196
▁범용 -7197
▁타치 -7198
▁샵 -7199
▁오죽 -7200
▁후원 -7201
차기 -7202
▁찬스 -7203
▁부동 -7204
▁물품 -7205
블리 -7206
▁추방 -7207
▁적중 -7208
▁토요일 -7209
▁라스트 -7210
▁엄연히 -7211
▁항공모함 -7212
▁고무 -7213
▁축소 -7214
▁루피 -7215
▁헷갈리 -7216
▁350 -7217
▁스컬 -7218
▁ML -7219
▁유나이티 -7220
▁원더 -7221
▁스와 -7222
▁강원도 -7223
▁레인지 -7224
▁동행 -7225
▁베테랑 -7226
▁ㄷㅜ -7227
▁{{ -7228
사리 -7229
▁압권 -7230
▁증폭 -7231
▁진상 -7232
▁엔지 -7233
▁하치 -7234
경기 -7235
▁검열 -7236
▁두렵 -7237
벤처 -7238
▁어드벤처 -7239
▁거론 -7240
싱턴 -7241
▁메리트 -7242
▁쿠마 -7243
이치로 -7244
▁후회 -7245
▁스폰서 -7246
테일 -7247
▁원형 -7248
▁선두 -7249
▁트윈스 -7250
▁관찰 -7251
▁하반 -7252
▁젖 -7253
으로 -7254
▁기후 -7255
▁TR -7256
▁성배 -7257
▁킷 -7258
▁김기 -7259
▁출마 -7260
▁지연 -7261
▁경전 -7262
▁땡 -7263
전설 -7264
▁마카 -7265
▁{{{ -7266
▁이어받 -7267
▁변이 -7268
▁인칭 -7269
▁논문 -7270
▁허무 -7271
에르 -7272
▁골렘 -7273
▁주체 -7274
▁스리 -7275
▁합동 -7276
amp -7277
▁운수 -7278
▁메트로 -7279
▁부임 -7280
▁쨩 -7281
▁요한 -7282
▁교과서 -7283
▁해양 -7284
ft -7285
▁장난감 -7286
▁표절 -7287
▁도색 -7288
▁중순 -7289
▁유니버스 -7290
구장 -7291
▁쿄코 -7292
▁쓰리 -7293
▁평하 -7294
▁바나 -7295
▁유출 -7296
▁SKT -7297
▁흡혈귀 -7298
▁히든 -7299
▁영지 -7300
ype -7301
▁베어스 -7302
▁친절 -7303
▁UE -7304
▁유의 -7305
▁붐 -7306
▁기쁘 -7307
▁슌 -7308
▁블로 -7309
▁쉴 -7310
▁하여 -7311
▁쿤 -7312
루션 -7313
▁거칠 -7314
▁지목 -7315
▁ㅁㅗㄴ -7316
▁피카 -7317
▁구성원 -7318
▁결혼식 -7319
▁보라색 -7320
▁권유 -7321
▁초콜 -7322
마크 -7323
▁쿠데 -7324
▁사무라이 -7325
▁타이탄 -7326
▁전망 -7327
▁다이스 -7328
▁Mar -7329
▁코스튬 -7330
▁시게 -7331
▁!" -7332
▁절차 -7333
페라 -7334
▁박근혜 -7335
ous -7336
▁역량 -7337
▁잊히 -7338
▁우익 -7339
니시 -7340
▁벌리 -7341
배우 -7342
아치 -7343
▁어색 -7344
▁특공 -7345
▁컴뱃 -7346
▁헤르 -7347
▁동대 -7348
▁니아 -7349
▁과자 -7350
▁치열 -7351
▁폴리 -7352
▁우울 -7353
▁버스트 -7354
▁뱅크 -7355
▁빈도 -7356
▁마술사 -7357
▁줄거리 -7358
▁페르소 -7359
▁by -7360
▁여단 -7361
▁취업 -7362
▁당기 -7363
▁유료 -7364
▁안양 -7365
TR -7366
▁긴급 -7367
▁애칭 -7368
▁시리아 -7369
▁엇 -7370
▁이케 -7371
베리 -7372
싸움 -7373
▁자네 -7374
▁ex -7375
▁되돌 -7376
▁제치 -7377
▁끓 -7378
▁카네 -7379
▁돌보 -7380
▁의자 -7381
트론 -7382
▁다큐 -7383
▁기호 -7384
▁서기 -7385
▁사투 -7386
▁청주 -7387
▁조르 -7388
▁동서 -7389
▁공용 -7390
▁튼튼 -7391
▁히카 -7392
▁Sup -7393
▁막아내 -7394
▁손자 -7395
▁나이프 -7396
▁캄 -7397
▁상한 -7398
▁토우 -7399
시대 -7400
추어 -7401
▁리나 -7402
▁어설 -7403
▁고블린 -7404
산시 -7405
▁명단 -7406
▁수습 -7407
▁나비 -7408
뻐하 -7409
▁기뻐하 -7410
▁관여 -7411
▁우회 -7412
▁빨간 -7413
▁유탄 -7414
▁we -7415
▁LP -7416
▁징역 -7417
▁수급 -7418
▁GSL -7419
▁센서 -7420
!! -7421
▁터스 -7422
▁강호 -7423
▁광명 -7424
▁번지 -7425
▁히스 -7426
FF -7427
플레이 -7428
▁침묵 -7429
▁퍼즐 -7430
▁젼 -7431
▁유전 -7432
▁풍부 -7433
▁관통력 -7434
▁일요일 -7435
▁규제 -7436
▁보호막 -7437
▁대성 -7438
▁고스 -7439
▁자꾸 -7440
▁bl -7441
▁가두 -7442
▁정사 -7443
슈타인 -7444
▁동점 -7445
▁외우 -7446
▁가오 -7447
▁드레스 -7448
▁순양함 -7449
▁중상 -7450
▁의장 -7451
▁학문 -7452
▁페어리 -7453
바나 -7454
▁큐어 -7455
▁짙 -7456
▁쳐들어 -7457
▁이놈 -7458
▁포스터 -7459
▁스플 -7460
▁평행 -7461
▁우승자 -7462
▁전생 -7463
▁호드 -7464
▁페르소나 -7465
▁겔 -7466
▁웜 -7467
▁102 -7468
▁오브젝트 -7469
ey -7470
▁촉수 -7471
▁오스만 -7472
▁특별시 -7473
승부 -7474
▁앰 -7475
▁태국 -7476
▁카마 -7477
▁프렌 -7478
▁미미 -7479
▁아무튼 -7480
▁불능 -7481
▁인재 -7482
▁손꼽히 -7483
ING -7484
▁부스트 -7485
▁도어 -7486
도전 -7487
▁분산 -7488
▁침대 -7489
▁끌어들이 -7490
▁기스 -7491
▁마인드 -7492
▁크라이 -7493
▁서바이 -7494
▁시모 -7495
▁III -7496
▁선장 -7497
▁메카닉 -7498
▁밀려나 -7499
▁트레이너 -7500
▁생김 -7501
▁러스 -7502
▁후반기 -7503
▁인과 -7504
키퍼 -7505
▁동반 -7506
▁평상 -7507
▁동해 -7508
▁금메달 -7509
▁관측 -7510
▁배제 -7511
▁아케이드 -7512
▁강림 -7513
▁철갑 -7514
▁모집 -7515
▁오지 -7516
▁달려가 -7517
MS -7518
렉션 -7519
▁수석 -7520
AK -7521
▁백업 -7522
▁관리자 -7523
▁워리어 -7524
▁아깝 -7525
▁지부 -7526
▁참가자 -7527
▁쏠 -7528
▁빅토 -7529
▁World -7530
폭탄 -7531
▁출산 -7532
▁신속 -7533
▁시상식 -7534
▁날아다니 -7535
▁스위스 -7536
▁취득 -7537
▁날씨 -7538
하루 -7539
▁모에 -7540
▁정석 -7541
▁현금 -7542
▁낭비 -7543
▁안심 -7544
▁유우키 -7545
▁토라 -7546
▁박지 -7547
▁무한도전 -7548
▁레이디 -7549
▁스탭 -7550
필더 -7551
▁미드필더 -7552
▁패전 -7553
▁마타 -7554
▁시그 -7555
▁간지 -7556
▁모니터 -7557
▁껍 -7558
▁짐승 -7559
▁ㅇㅡㄹㅅㅜ -7560
대사 -7561
▁꺼리 -7562
der -7563
▁왜냐하면 -7564
▁원판 -7565
oll -7566
▁블리자드 -7567
워즈 -7568
▁유재석 -7569
▁화산 -7570
▁김용 -7571
NA -7572
▁리모 -7573
▁모험가 -7574
▁장타 -7575
▁벤치 -7576
▁스피어 -7577
▁플랜 -7578
▁시비 -7579
▁성실 -7580
▁연산 -7581
▁통째 -7582
▁New -7583
▁옐 -7584
ink -7585
▁씌우 -7586
▁se -7587
▁친분 -7588
▁골키퍼 -7589
▁피로 -7590
▁All -7591
▁공감 -7592
ET -7593
▁대세 -7594
▁리틀 -7595
▁역임 -7596
▁조카 -7597
▁대위 -7598
▁뱅가드 -7599
▁최저 -7600
▁슬라 -7601
▁원주민 -7602
▁책임지 -7603
▁워프 -7604
▁프리미어 -7605
▁냉정 -7606
▁111 -7607
▁강사 -7608
▁데몬 -7609
▁al -7610
▁만주 -7611
▁덤비 -7612
▁OG -7613
▁방송사 -7614
코트 -7615
▁카리스마 -7616
▁미소녀 -7617
▁사무소 -7618
▁스기 -7619
▁108 -7620
▁일가 -7621
▁작년 -7622
▁DP -7623
항공 -7624
▁미인 -7625
▁쿼터 -7626
▁호러 -7627
▁흑역사 -7628
▁강등 -7629
▁따뜻 -7630
▁생체 -7631
▁품질 -7632
▁노란색 -7633
어드 -7634
▁IM -7635
▁IN -7636
▁단발 -7637
▁변장 -7638
▁생애 -7639
▁포병 -7640
▁빨간색 -7641
▁유카 -7642
▁워즈 -7643
리안 -7644
▁Season -7645
▁메일 -7646
▁광산 -7647
▁미지 -7648
▁영양 -7649
▁뉘 -7650
▁카지 -7651
▁리버스 -7652
▁호남 -7653
▁스미스 -7654
▁출판사 -7655
▁오즈 -7656
▁후드 -7657
▁절친 -7658
▁국무 -7659
▁재개 -7660
▁무용 -7661
▁당사자 -7662
▁소모량 -7663
▁SU -7664
▁닥치 -7665
▁루리 -7666
▁풍기 -7667
주교 -7668
▁여포 -7669
▁un -7670
▁손쉽 -7671
▁하나하나 -7672
▁ㅇㅡㄴㅈㅣ -7673
▁트릴 -7674
▁국제공항 -7675
▁카레 -7676
▁방사능 -7677
▁명분 -7678
▁슈퍼맨 -7679
▁디펜 -7680
▁115 -7681
▁넬 -7682
▁OS -7683
▁단기 -7684
▁자제 -7685
▁클린 -7686
▁사로 -7687
▁각지 -7688
▁유입 -7689
▁연쇄 -7690
▁폭스 -7691
▁마모 -7692
느리 -7693
▁안쪽 -7694
▁무도 -7695
▁장판 -7696
▁코스프레 -7697
▁봉쇄 -7698
▁장례 -7699
▁김포 -7700
▁발급 -7701
▁전당 -7702
▁애인 -7703
▁차갑 -7704
▁쿠데타 -7705
▁몰살 -7706
▁선임 -7707
▁위원장 -7708
모스 -7709
▁리안 -7710
이나 -7711
▁MF -7712
▁스네 -7713
IX -7714
떨어지 -7715
▁자칭 -7716
페이 -7717
▁미러 -7718
▁마운 -7719
▁워크 -7720
▁수라 -7721
▁마오 -7722
▁항해 -7723
▁와인 -7724
▁카쿠 -7725
▁해산 -7726
▁워싱턴 -7727
▁동정 -7728
께끼 -7729
네마 -7730
▁수인 -7731
▁수수께끼 -7732
▁임기 -7733
▁리처 -7734
▁끌리 -7735
▁국장 -7736
▁왕복 -7737
▁스티븐 -7738
DX -7739
▁마음대로 -7740
▁시크릿 -7741
당초 -7742
▁아베 -7743
▁자존 -7744
▁곡인 -7745
▁트론 -7746
▁동속 -7747
▁수위 -7748
▁고등학생 -7749
▁레이지 -7750
▁퍼스트 -7751
▁부근 -7752
▁실현 -7753
▁병역 -7754
▁자책점 -7755
▁게이머 -7756
▁사와 -7757
베이터 -7758
▁바르셀 -7759
▁브레이커 -7760
▁바르셀로나 -7761
35 -7762
▁디자이너 -7763
▁렘 -7764
▁DF -7765
▁불태우 -7766
▁멋대로 -7767
셔널 -7768
▁공단 -7769
▁lv -7770
▁엉망 -7771
▁마그 -7772
▁어벤 -7773
▁드로우 -7774
▁제출 -7775
▁데이비드 -7776
▁문재 -7777
▁메이지 -7778
▁1981 -7779
▁구형 -7780
▁끊임없이 -7781
▁라이징 -7782
▁1950 -7783
▁확산 -7784
▁And -7785
▁흔들 -7786
▁유망주 -7787
▁할리 -7788
▁멍청 -7789
▁스텔스 -7790
▁188 -7791
▁BGA -7792
▁NM -7793
동자 -7794
ank -7795
▁생김새 -7796
▁쿠리 -7797
▁탐지 -7798
▁우호 -7799
▁쫓겨나 -7800
▁스탈 -7801
▁닦 -7802
▁원시 -7803
▁비기 -7804
▁개구리 -7805
▁존스 -7806
▁양식 -7807
▁돋보이 -7808
▁To -7809
▁부원 -7810
ai -7811
▁민간인 -7812
▁힙합 -7813
▁만능 -7814
▁종영 -7815
▁침투 -7816
▁터보 -7817
▁고집 -7818
▁아아 -7819
▁기부 -7820
▁목사 -7821
▁z -7822
운수 -7823
▁레이어 -7824
▁맞붙 -7825
▁경호 -7826
▁그랑 -7827
▁어원 -7828
▁얇 -7829
▁1979 -7830
MAX -7831
▁동전 -7832
▁방탄 -7833
▁수지 -7834
▁디아블로 -7835
▁정반대 -7836
틀랜드 -7837
▁철저히 -7838
▁전남 -7839
▁px -7840
▁카게 -7841
▁아수 -7842
우라 -7843
▁렉스 -7844
▁엘레 -7845
▁후유 -7846
▁산맥 -7847
▁엔지니어 -7848
▁함장 -7849
▁카피 -7850
▁내버리 -7851
▁작정 -7852
▁머니 -7853
▁따라오 -7854
▁니트 -7855
▁브라이언 -7856
스티벌 -7857
▁페스티벌 -7858
▁실체 -7859
▁자사 -7860
▁이스트 -7861
▁변동 -7862
▁애완 -7863
▁화해 -7864
▁정신력 -7865
ary -7866
▁로맨 -7867
▁농장 -7868
ero -7869
▁치안 -7870
▁투쟁 -7871
▁유비트 -7872
▁밀어내 -7873
▁리본 -7874
▁알렉스 -7875
▁ㄷㅚ -7876
▁쇄 -7877
▁몸통 -7878
▁부스 -7879
▁첫째 -7880
▁가이아 -7881
나베 -7882
▁매그 -7883
▁오렌 -7884
▁라그나 -7885
▁원숭이 -7886
▁요미 -7887
▁능가 -7888
▁중위 -7889
▁간섭 -7890
바야시 -7891
▁까지 -7892
▁군부 -7893
▁대역 -7894
▁실내 -7895
므로 -7896
▁sp -7897
▁미르 -7898
▁압력 -7899
▁Cr -7900
▁세자 -7901
▁춥 -7902
▁하스 -7903
▁트랜스포 -7904
▁Bo -7905
▁재학 -7906
▁함락 -7907
▁김준 -7908
▁모형 -7909
▁토지 -7910
▁다카 -7911
▁떨치 -7912
▁운송 -7913
▁트레일러 -7914
ng -7915
스레 -7916
▁세리 -7917
▁폭격기 -7918
▁크레이 -7919
▁쿠스 -7920
▁입주 -7921
▁이즈미 -7922
▁마하 -7923
바이트 -7924
▁사야카 -7925
▁광기 -7926
▁종결 -7927
▁예약 -7928
▁템플 -7929
군가 -7930
▁티스 -7931
▁오더 -7932
▁스나이퍼 -7933
▁고가 -7934
▁금발 -7935
▁여섯 -7936
▁테스 -7937
▁홀드 -7938
레븐 -7939
▁시골 -7940
▁뻘 -7941
▁실시간 -7942
▁물자 -7943
▁헬멧 -7944
▁거지 -7945
▁쿵 -7946
▁Vol -7947
ife -7948
▁세로 -7949
▁전향 -7950
▁이모 -7951
▁퍽 -7952
▁출범 -7953
저래 -7954
▁마미 -7955
AY -7956
ich -7957
바지 -7958
▁계층 -7959
▁스카우트 -7960
▁비비 -7961
▁아자 -7962
▁사수 -7963
▁이래저래 -7964
▁올바르 -7965
▁UEFA -7966
▁압축 -7967
aster -7968
IVE -7969
▁입문 -7970
▁탐색 -7971
▁128 -7972
▁습하 -7973
▁펌프 -7974
▁그러므로 -7975
네시아 -7976
▁콘텐츠 -7977
▁누군가 -7978
▁광경 -7979
▁삽질 -7980
▁주관 -7981
▁통솔 -7982
▁고고 -7983
▁Day -7984
▁겜 -7985
ree -7986
▁납득 -7987
▁쿠사 -7988
▁반역 -7989
▁잔혹 -7990
▁밀도 -7991
▁젬 -7992
▁나폴레 -7993
▁베를 -7994
▁신하 -7995
▁스크롤 -7996
▁깃발 -7997
ons -7998
▁Ad -7999
끼리 -8000
▁시사 -8001
▁죄책 -8002
▁오른손 -8003
▁플라스 -8004
▁임의 -8005
▁표기법 -8006
▁항모 -8007
아들 -8008
▁민폐 -8009
▁en -8010
▁반짝 -8011
▁ㅇㅗㅂ -8012
▁그립 -8013
▁기질 -8014
▁대타 -8015
▁마산 -8016
▁영감 -8017
▁젤리 -8018
▁학대 -8019
▁소금 -8020
▁트리거 -8021
▁마라 -8022
른바 -8023
▁부러지 -8024
▁김유 -8025
▁이른바 -8026
▁나폴레옹 -8027
▁커플링 -8028
▁얄 -8029
▁군수 -8030
▁초콜릿 -8031
▁서적 -8032
▁직통 -8033
▁갈색 -8034
▁부유 -8035
▁캡슐 -8036
▁파도 -8037
▁소생 -8038
▁대행 -8039
▁강경 -8040
▁드론 -8041
▁망토 -8042
ans -8043
▁무승부 -8044
▁닉네임 -8045
▁죄책감 -8046
▁엘리베이터 -8047
▁파스 -8048
▁동아 -8049
▁흑막 -8050
▁스파이더맨 -8051
라미 -8052
▁관장 -8053
▁황당 -8054
▁기리 -8055
▁기껏 -8056
▁친척 -8057
무지 -8058
▁라이언 -8059
pl -8060
리얼 -8061
act -8062
▁일렉 -8063
▁수비수 -8064
▁고사 -8065
▁그란 -8066
▁간판 -8067
▁감탄 -8068
부키 -8069
▁시시 -8070
▁부재 -8071
▁큰 -8072
▁아오이 -8073
▁어나 -8074
▁트랜스포머 -8075
▁매출 -8076
▁신중 -8077
▁하사 -8078
▁WC -8079
▁실적 -8080
▁김일 -8081
▁외국어 -8082
▁깨끗 -8083
▁착륙 -8084
▁도덕 -8085
▁러쉬 -8086
▁프랜 -8087
▁화기 -8088
▁스타즈 -8089
▁김진 -8090
▁챔프 -8091
러브 -8092
ase -8093
▁개척 -8094
▁방학 -8095
▁강대 -8096
▁애용 -8097
▁챌린지 -8098
렉터 -8099
▁카이저 -8100
▁GD -8101
▁선로 -8102
▁호의 -8103
▁죠죠 -8104
▁정문 -8105
▁페어 -8106
▁엘리자베스 -8107
▁코토 -8108
▁가령 -8109
▁판도 -8110
▁김치 -8111
▁입시 -8112
▁육상 -8113
▁위로 -8114
▁고아 -8115
▁승진 -8116
▁미궁 -8117
▁그쪽 -8118
▁목걸이 -8119
▁신작 -8120
ple -8121
▁츤데레 -8122
▁아이디어 -8123
▁에미 -8124
▁힐러 -8125
uk -8126
▁어나더 -8127
▁탭 -8128
▁오다 -8129
▁깊이 -8130
▁얽히 -8131
▁덩어리 -8132
▁스가 -8133
▁ㅊㅣ -8134
12 -8135
▁들여 -8136
▁IIDX -8137
고속도로 -8138
▁케빈 -8139
▁리리 -8140
▁성분 -8141
ear -8142
▁알바 -8143
▁부시 -8144
▁출혈 -8145
리드 -8146
▁미녀 -8147
▁예의 -8148
▁마케팅 -8149
▁공산당 -8150
▁서방 -8151
▁스타워즈 -8152
ment -8153
▁감자 -8154
▁퇴각 -8155
▁-- -8156
▁시뮬 -8157
▁와이번 -8158
▁이소 -8159
▁왕비 -8160
▁레아 -8161
▁아리아 -8162
▁하도 -8163
▁짬 -8164
▁만점 -8165
▁지수 -8166
▁끌어올리 -8167
▁가위 -8168
▁워터 -8169
▁침몰 -8170
▁극대 -8171
▁이오 -8172
▁고시 -8173
▁창문 -8174
▁슬픔 -8175
▁가이드 -8176
▁발레 -8177
▁오락실 -8178
▁쫒 -8179
▁자이언트 -8180
▁마피아 -8181
▁필리핀 -8182
▁검증 -8183
ction -8184
▁오페라 -8185
▁혼혈 -8186
▁리사 -8187
▁적절히 -8188
▁매트 -8189
▁이병 -8190
▁카리 -8191
▁샐 -8192
어트 -8193
▁제노 -8194
▁AV -8195
▁DM -8196
▁김수 -8197
▁괴인 -8198
▁쉴드 -8199
▁앓 -8200
▁AA -8201
▁머스 -8202
▁쿠니 -8203
업자 -8204
▁디오 -8205
▁라이트닝 -8206
▁박자 -8207
▁츠카 -8208
▁비키 -8209
90 -8210
▁우마 -8211
슬라 -8212
▁모음 -8213
▁레이븐 -8214
ㄹㄹㅐ -8215
▁Part -8216
▁치카 -8217
▁합작 -8218
▁크래프트 -8219
▁tv -8220
▁마에 -8221
▁무제 -8222
▁연수 -8223
▁레이블 -8224
▁매각 -8225
▁토대 -8226
▁사로잡 -8227
▁마기 -8228
▁사촌 -8229
▁구상 -8230
▁뚱 -8231
▁찔 -8232
▁소꿉 -8233
▁어이없 -8234
▁드루 -8235
▁존중 -8236
▁닷 -8237
▁노부나가 -8238
▁질서 -8239
좀무 -8240
▁흠좀무 -8241
▁만렙 -8242
ool -8243
▁현자 -8244
▁바쿠 -8245
oon -8246
▁천국 -8247
▁One -8248
▁구조물 -8249
▁주축 -8250
▁아카네 -8251
▁모임 -8252
▁총합 -8253
▁호리 -8254
ode -8255
▁시타 -8256
▁개명 -8257
▁모델링 -8258
▁여주인 -8259
▁중거리 -8260
지르 -8261
▁리버풀 -8262
▁터트리 -8263
▁at -8264
▁라미 -8265
▁복사 -8266
▁리퍼 -8267
▁우연 -8268
▁유머 -8269
▁외곽 -8270
▁해운 -8271
▁도쿠 -8272
▁220 -8273
번트 -8274
▁로키 -8275
▁편리 -8276
▁런처 -8277
▁원로 -8278
야스 -8279
▁초상 -8280
▁공속 -8281
▁너스 -8282
사랑 -8283
▁유연 -8284
▁글씨 -8285
▁103 -8286
▁도심 -8287
▁고의 -8288
▁오케 -8289
▁박수 -8290
▁왕실 -8291
▁우측 -8292
▁175 -8293
▁웨폰 -8294
헤이 -8295
▁실용 -8296
▁부사관 -8297
▁변명 -8298
▁연구원 -8299
▁톡 -8300
▁물려받 -8301
VER -8302
▁사천 -8303
▁갑작스럽 -8304
▁승인 -8305
▁등극 -8306
▁지분 -8307
▁찌질 -8308
▁최선 -8309
▁삼성전자 -8310
▁화폐 -8311
▁부천 -8312
▁장애물 -8313
▁NBA -8314
▁명대사 -8315
▁서번트 -8316
▁240 -8317
▁다스리 -8318
▁잭슨 -8319
▁스카웃 -8320
▁Ap -8321
▁아사히 -8322
▁오역 -8323
▁포탈 -8324
▁매달리 -8325
▁황후 -8326
▁레코드 -8327
▁전지 -8328
▁출동 -8329
▁직책 -8330
▁타일 -8331
▁표적 -8332
▁FF -8333
▁경찰서 -8334
▁타이어 -8335
▁ES -8336
▁이카 -8337
▁보좌 -8338
▁모듈 -8339
▁달려들 -8340
▁면하 -8341
▁감당 -8342
▁테이블 -8343
▁전담 -8344
▁적자 -8345
▁명장 -8346
▁일일 -8347
▁전날 -8348
▁각도 -8349
▁파울 -8350
▁참사 -8351
▁서식 -8352
▁체결 -8353
▁LO -8354
▁중부 -8355
▁마야 -8356
▁지로 -8357
▁무녀 -8358
▁어시스트 -8359
ㅆㅇㅓㅆ -8360
▁재건 -8361
▁힘입 -8362
▁비리 -8363
▁1945 -8364
▁노릇 -8365
IR -8366
▁교리 -8367
▁듀오 -8368
AP -8369
▁돌연 -8370
▁이무 -8371
▁아수라 -8372
▁암호 -8373
▁선동 -8374
▁검정 -8375
▁자력 -8376
▁완공 -8377
▁자존심 -8378
▁네티 -8379
▁워드 -8380
▁아마추어 -8381
프리카 -8382
▁물어 -8383
▁사연 -8384
▁그릇 -8385
▁본능 -8386
▁천천 -8387
▁싱가 -8388
▁패자 -8389
▁흩어지 -8390
라이언스 -8391
▁싱가포르 -8392
▁첸 -8393
▁NH -8394
▁오토바이 -8395
▁약혼 -8396
▁Sw -8397
▁가담 -8398
▁기차 -8399
깨비 -8400
▁보가 -8401
▁마찰 -8402
▁아담 -8403
슬리 -8404
이동 -8405
▁미남 -8406
▁변수 -8407
▁평상시 -8408
▁얼라이언스 -8409
▁뮌 -8410
▁모순 -8411
▁브라더스 -8412
▁철도역 -8413
은색 -8414
▁오니 -8415
▁리코 -8416
▁마일 -8417
▁해소 -8418
▁신동 -8419
▁아드 -8420
▁수천 -8421
▁모종 -8422
▁리믹스 -8423
친구 -8424
▁민감 -8425
▁베스 -8426
▁점유 -8427
▁사법 -8428
▁사치 -8429
▁마을버스 -8430
▁본관 -8431
▁무능 -8432
▁답답 -8433
bs -8434
시오 -8435
▁유가 -8436
ㅡㅅ -8437
▁벅 -8438
▁이단 -8439
▁함수 -8440
▁소우 -8441
▁CM -8442
▁라인하르트 -8443
▁달인 -8444
▁타카하시 -8445
▁온천 -8446
▁트로피 -8447
▁선출 -8448
▁테일즈 -8449
▁씻 -8450
▁농업 -8451
▁알아채 -8452
▁흙 -8453
▁몸매 -8454
▁해전 -8455
▁오공 -8456
▁크로우 -8457
▁대동 -8458
▁말기 -8459
▁서열 -8460
▁견해 -8461
▁퇴치 -8462
▁알레 -8463
▁보직 -8464
▁천장 -8465
▁벗기 -8466
려워하 -8467
▁아르바이트 -8468
▁열정 -8469
▁꿈꾸 -8470
▁화상 -8471
사와 -8472
▁nd -8473
▁뺏기 -8474
▁남동생 -8475
▁후쿠시마 -8476
▁레귤 -8477
▁건지 -8478
▁파랗 -8479
▁평론 -8480
▁이경 -8481
▁프로스트 -8482
▁한꺼 -8483
▁불러오 -8484
▁한꺼번에 -8485
▁발명 -8486
▁브래 -8487
드러지 -8488
▁오로치 -8489
▁아유 -8490
▁타우 -8491
▁바둑 -8492
▁산타 -8493
▁그라운드 -8494
▁입자 -8495
▁박정희 -8496
▁테리 -8497
▁발판 -8498
▁부속 -8499
▁맹세 -8500
▁ㅁㅓ -8501
▁자키 -8502
▁어드밴 -8503
▁전법 -8504
▁가히 -8505
▁사무실 -8506
▁일관 -8507
▁112 -8508
▁스트리 -8509
▁천천히 -8510
마루 -8511
▁확신 -8512
▁소마 -8513
▁공신 -8514
yle -8515
▁카카오 -8516
▁일체 -8517
▁단역 -8518
II -8519
▁덮치 -8520
▁비우 -8521
▁요격 -8522
워프 -8523
▁오렌지 -8524
▁카테 -8525
ike -8526
▁레나 -8527
▁트래 -8528
▁리처드 -8529
▁Man -8530
orn -8531
atch -8532
▁이오리 -8533
▁너클 -8534
▁Up -8535
▁재수 -8536
▁너머 -8537
▁소나 -8538
▁헬리 -8539
▁로프 -8540
▁보편 -8541
▁아레나 -8542
▁휴먼 -8543
▁세일러 -8544
▁툭 -8545
▁펭 -8546
▁보로 -8547
ence -8548
▁상냥 -8549
▁에디션 -8550
▁로스트 -8551
▁최상급 -8552
리스타 -8553
▁곤충 -8554
운동 -8555
▁일컫 -8556
▁마스코트 -8557
▁테란 -8558
생활 -8559
▁바이올 -8560
▁장벽 -8561
▁서울대 -8562
▁정점 -8563
▁케리 -8564
▁필름 -8565
▁에메 -8566
다운 -8567
▁모스크 -8568
▁상무 -8569
▁네티즌 -8570
▁아무렇 -8571
▁EC -8572
▁둘러보 -8573
▁천지 -8574
▁NO -8575
직자 -8576
▁한하 -8577
키스탄 -8578
▁유격수 -8579
▁기동력 -8580
hen -8581
▁국도 -8582
▁홋 -8583
▁인접 -8584
키리 -8585
▁연동 -8586
스크림 -8587
▁피자 -8588
▁메구미 -8589
▁퀵 -8590
▁매주 -8591
▁지혜 -8592
▁억울 -8593
▁극한 -8594
▁클리셰 -8595
▁흉악 -8596
ens -8597
▁혁신 -8598
▁협정 -8599
▁서류 -8600
▁레이싱 -8601
▁면제 -8602
▁다지 -8603
▁시카고 -8604
▁얼티 -8605
iver -8606
▁레귤러 -8607
▁Ed -8608
▁일명 -8609
▁인문 -8610
▁저글 -8611
▁밀레 -8612
now -8613
▁까마 -8614
▁로크 -8615
▁지장 -8616
▁1978 -8617
▁노아 -8618
▁상주 -8619
ph -8620
▁와타나베 -8621
▁루미 -8622
▁임하 -8623
▁탄압 -8624
▁미아 -8625
▁선박 -8626
▁인피니티 -8627
▁용이 -8628
▁휩쓸 -8629
▁소득 -8630
니코 -8631
▁겸하 -8632
▁도르 -8633
▁베를린 -8634
▁이순신 -8635
▁다시금 -8636
▁이영호 -8637
▁작위 -8638
타운 -8639
▁미노 -8640
타이 -8641
▁마틴 -8642
▁신한 -8643
▁회담 -8644
▁히카루 -8645
▁우루 -8646
▁청춘 -8647
▁우기 -8648
▁강민 -8649
▁키요 -8650
▁들르 -8651
▁페스 -8652
▁엉덩이 -8653
▁계수 -8654
▁손님 -8655
▁아쿠아 -8656
▁떠돌 -8657
▁욕설 -8658
▁트윗 -8659
▁USB -8660
▁입증 -8661
▁이빨 -8662
▁팬티 -8663
박스 -8664
▁GM -8665
▁장남 -8666
▁페이크 -8667
▁So -8668
▁솔저 -8669
▁퍼펙트 -8670
ㄷㅓㄴㅈㅣ -8671
▁지터 -8672
ㄴㄷㅡㅅ -8673
▁탈취 -8674
▁사나 -8675
▁사회주의 -8676
▁정밀 -8677
▁섬광 -8678
▁헝가리 -8679
▁수신 -8680
▁자아 -8681
▁아포 -8682
▁옥상 -8683
▁드워프 -8684
▁백만 -8685
▁선거구 -8686
▁일곱 -8687
▁크롬 -8688
▁격려 -8689
민주 -8690
▁프레스 -8691
pt -8692
▁일지 -8693
▁Mag -8694
ail -8695
▁발사기 -8696
▁과시 -8697
▁장본 -8698
▁스틱 -8699
▁배구 -8700
▁기울이 -8701
▁그레이드 -8702
▁녹이 -8703
구니 -8704
▁스티브 -8705
▁IT -8706
▁쯔 -8707
▁리가 -8708
▁점검 -8709
▁시호 -8710
▁공격수 -8711
▁부패 -8712
▁슬러그 -8713
▁과언 -8714
▁학사 -8715
▁저글링 -8716
ork -8717
▁전송 -8718
▁얹 -8719
케이션 -8720
▁트럼프 -8721
▁에드워드 -8722
▁멘붕 -8723
▁미성 -8724
▁블럭 -8725
▁소꿉친구 -8726
▁연설 -8727
▁궁합 -8728
ition -8729
▁RE -8730
▁뛰어들 -8731
▁재앙 -8732
▁Super -8733
▁사방 -8734
▁귀국 -8735
마리 -8736
▁신곡 -8737
▁파운드 -8738
▁한정판 -8739
토니 -8740
▁이현 -8741
99 -8742
▁절단 -8743
▁펑크 -8744
▁주사위 -8745
▁골프 -8746
▁녹화 -8747
▁OCG -8748
▁학년도 -8749
▁솟 -8750
체스터 -8751
▁RA -8752
▁보우 -8753
ㄲㅡㅁ -8754
▁공헌 -8755
디움 -8756
▁석유 -8757
▁임진 -8758
▁맛보 -8759
▁시오 -8760
▁인명 -8761
가루 -8762
▁up -8763
덕션 -8764
▁갈구 -8765
▁머물 -8766
▁장본인 -8767
▁테니스 -8768
▁토큰 -8769
▁오사 -8770
▁DJMAX -8771
▁맞먹 -8772
스카 -8773
▁호무 -8774
▁Ph -8775
▁아지 -8776
▁BD -8777
▁Fr -8778
▁엔트리 -8779
▁희생자 -8780
▁노하 -8781
▁pl -8782
▁야망 -8783
▁무비 -8784
▁퀴즈 -8785
▁테크닉 -8786
바람 -8787
▁박성 -8788
▁도깨비 -8789
▁봉사 -8790
▁시간대 -8791
▁이대로 -8792
방송 -8793
▁햇 -8794
▁박명 -8795
▁오만 -8796
▁충족 -8797
▁히사 -8798
▁리부 -8799
▁자루 -8800
▁치이 -8801
▁카오루 -8802
▁돌려주 -8803
▁코레 -8804
▁주최 -8805
▁얌 -8806
▁풍선 -8807
▁루마 -8808
▁마당 -8809
▁에일리 -8810
▁샬 -8811
▁TP -8812
▁억제 -8813
▁원한 -8814
▁유동 -8815
페이스 -8816
▁당초 -8817
▁화신 -8818
볼루션 -8819
세지 -8820
▁광물 -8821
ㅁㅏㄹㄹㅗ -8822
▁놔 -8823
▁네크로 -8824
틀리 -8825
▁라이즈 -8826
▁스모 -8827
▁카인 -8828
▁환생 -8829
▁프로그래 -8830
▁신관 -8831
▁편의점 -8832
▁질주 -8833
▁대학생 -8834
▁자포 -8835
inal -8836
▁저상 -8837
▁위시 -8838
▁가설 -8839
▁무식 -8840
▁소재지 -8841
▁모의 -8842
▁아리스 -8843
▁과일 -8844
▁라이센스 -8845
▁유즈 -8846
서스 -8847
▁스칼 -8848
▁흥분 -8849
▁련 -8850
▁제재 -8851
▁김승 -8852
▁달아나 -8853
▁무실 -8854
▁스윙 -8855
▁플레임 -8856
▁벙커 -8857
▁조화 -8858
▁찬양 -8859
▁정성 -8860
▁킴 -8861
▁씨앗 -8862
▁이이 -8863
▁엣 -8864
▁방심 -8865
▁123 -8866
▁경북 -8867
▁리뉴 -8868
▁굶 -8869
▁제리 -8870
▁고자 -8871
▁대검 -8872
▁인벤 -8873
▁동성애 -8874
▁강전 -8875
▁내기 -8876
▁스콜 -8877
▁직행 -8878
수리 -8879
usic -8880
ble -8881
▁그러면 -8882
▁기술력 -8883
▁김성근 -8884
▁목욕 -8885
▁선회 -8886
▁스타트 -8887
▁초록색 -8888
▁SA -8889
▁비단 -8890
▁타키 -8891
▁캘리 -8892
▁국토 -8893
▁보르 -8894
▁이호 -8895
▁Qu -8896
te -8897
모습 -8898
▁중기 -8899
▁일어 -8900
▁일러스트레이터 -8901
▁104 -8902
▁스마일 -8903
지능 -8904
▁인공지능 -8905
▁치바 -8906
▁코끼리 -8907
▁반도 -8908
▁야마모토 -8909
▁Dream -8910
▁옴 -8911
▁두껍 -8912
▁일산 -8913
▁두드러지 -8914
▁제니 -8915
▁멧 -8916
▁레버 -8917
▁프로덕션 -8918
▁시종 -8919
▁are -8920
▁갈기 -8921
바리 -8922
▁고우 -8923
▁유아 -8924
▁국방부 -8925
▁1973 -8926
▁도미 -8927
▁롤러 -8928
▁재질 -8929
▁흘러가 -8930
▁쥰 -8931
다드 -8932
▁지루 -8933
▁급격히 -8934
▁교대 -8935
▁평판 -8936
▁일레븐 -8937
▁109 -8938
그라 -8939
▁포크 -8940
▁리츠 -8941
▁문양 -8942
▁계략 -8943
▁덥 -8944
▁아랫 -8945
▁이리저리 -8946
▁대명 -8947
▁나락 -8948
▁병과 -8949
▁동이 -8950
▁맷집 -8951
▁마지 -8952
▁분홍 -8953
▁원화 -8954
▁프롤 -8955
▁소소 -8956
▁카제 -8957
▁스타디움 -8958
▁스코틀랜드 -8959
▁뺨 -8960
▁발각 -8961
▁이윤 -8962
▁DPS -8963
▁수중 -8964
▁숙청 -8965
▁의의 -8966
▁케이크 -8967
▁달려오 -8968
전사 -8969
▁세키 -8970
▁칼라 -8971
▁사이토 -8972
▁동구 -8973
▁이쿠 -8974
▁강릉 -8975
▁대면 -8976
▁무자 -8977
▁중원 -8978
▁차림 -8979
▁오타쿠 -8980
▁제너 -8981
▁135 -8982
▁갸 -8983
▁쥬얼 -8984
▁완성도 -8985
▁흉내 -8986
▁밀리언 -8987
▁이력 -8988
▁발전소 -8989
사르 -8990
▁Mi -8991
▁진동 -8992
▁히드라 -8993
▁집계 -8994
▁샘플 -8995
▁총장 -8996
▁명시 -8997
▁강인 -8998
▁게르 -8999
▁거꾸 -9000
▁앤드 -9001
▁에버 -9002
▁스토어 -9003
▁토마스 -9004
▁트러 -9005
▁레슬러 -9006
▁중점 -9007
▁완화 -9008
▁떨구 -9009
기에 -9010
▁카토 -9011
▁155 -9012
▁순천 -9013
▁상금 -9014
IK -9015
▁여주인공 -9016
ㄱㅜㄴ -9017
▁바이크 -9018
▁김두 -9019
▁친애 -9020
▁고인 -9021
▁도대 -9022
▁무신 -9023
▁공교 -9024
▁여장 -9025
▁자율 -9026
▁학위 -9027
▁무궁 -9028
▁과격 -9029
▁여태 -9030
▁피오 -9031
▁라이드 -9032
▁외야수 -9033
▁갱신 -9034
▁관료 -9035
▁반경 -9036
anc -9037
▁무늬 -9038
▁인도네시아 -9039
▁챔피언십 -9040
▁다케 -9041
▁킹덤 -9042
▁도배 -9043
▁완구 -9044
▁툰 -9045
▁때려잡 -9046
▁침착 -9047
▁배리 -9048
▁난리 -9049
▁항공사 -9050
▁중견 -9051
▁지오 -9052
▁뚜렷 -9053
▁젝 -9054
히토 -9055
▁리볼 -9056
▁관문 -9057
천사 -9058
▁AB -9059
▁해태 -9060
ㄹㄱㅔ -9061
▁갯 -9062
▁하이드 -9063
▁스페인어 -9064
▁체코 -9065
uck -9066
▁악행 -9067
▁휴게 -9068
▁짝사랑 -9069
▁국정 -9070
▁이듬 -9071
▁불리우 -9072
티니 -9073
▁단련 -9074
▁걸어가 -9075
▁남한 -9076
테이션 -9077
▁발키리 -9078
▁각인 -9079
▁독보 -9080
▁1200 -9081
▁두려워하 -9082
IL -9083
▁퓨전 -9084
▁185 -9085
못미 -9086
▁지못미 -9087
TA -9088
PER -9089
▁사가 -9090
▁정전 -9091
▁태권 -9092
▁이대 -9093
▁go -9094
▁스파크 -9095
ise -9096
▁부가 -9097
▁명탐정 -9098
방울 -9099
▁조립 -9100
▁wiki -9101
▁심히 -9102
▁강타 -9103
▁이틀 -9104
의자 -9105
의회 -9106
▁MM -9107
▁도스 -9108
▁찔리 -9109
▁켄지 -9110
▁손잡이 -9111
▁부끄럽 -9112
▁내밀 -9113
▁몰아넣 -9114
▁뮌헨 -9115
▁제의 -9116
▁천상 -9117
▁휴대폰 -9118
▁신주 -9119
▁Ver -9120
▁스탈린 -9121
▁아이즈 -9122
▁스로 -9123
▁UP -9124
▁아타 -9125
▁맞히 -9126
▁1974 -9127
▁방언 -9128
▁중구 -9129
▁거꾸로 -9130
▁연기력 -9131
▁팍 -9132
▁민국 -9133
▁사체 -9134
▁무작위 -9135
▁내외 -9136
▁공산주의 -9137
▁울음 -9138
▁지온 -9139
쿠스 -9140
텍스 -9141
▁성지 -9142
▁iOS -9143
▁하수인 -9144
▁시안 -9145
▁놔두 -9146
▁단자 -9147
▁AL -9148
▁HE -9149
▁교역 -9150
▁교도소 -9151
▁중소 -9152
▁반성 -9153
▁찰스 -9154
▁부제 -9155
▁창세 -9156
▁바인 -9157
▁시네마 -9158
▁썸 -9159
▁세츠 -9160
▁모욕 -9161
▁섬기 -9162
▁나이츠 -9163
ung -9164
▁보강 -9165
▁지크 -9166
▁포니 -9167
무이 -9168
▁예고편 -9169
▁꾀 -9170
▁JT -9171
▁강동 -9172
▁기관포 -9173
▁DI -9174
▁유니콘 -9175
▁뻔하 -9176
▁얼리 -9177
▁초등학생 -9178
▁경사 -9179
▁코노 -9180
스티스 -9181
▁이계 -9182
▁좌측 -9183
▁라마 -9184
▁기행 -9185
▁릴리스 -9186
리칸 -9187
▁MG -9188
▁구로 -9189
▁극심 -9190
▁개판 -9191
▁냉장 -9192
▁tr -9193
▁주석 -9194
백과 -9195
▁아폴 -9196
▁도대체 -9197
▁사천왕 -9198
▁입사 -9199
▁향후 -9200
▁장갑차 -9201
▁부채 -9202
▁분할 -9203
▁야마다 -9204
▁ㄹㅗㄹ -9205
▁레슬링 -9206
▁간파 -9207
▁도약 -9208
▁찬성 -9209
▁성대 -9210
멘터리 -9211
▁이듬해 -9212
▁적이 -9213
▁패왕 -9214
vel -9215
▁뤼 -9216
▁미유키 -9217
▁살아오 -9218
▁엉뚱 -9219
▁버블 -9220
▁공격기 -9221
▁종전 -9222
oun -9223
▁극악 -9224
▁배급 -9225
에른 -9226
▁심정 -9227
▁폐선 -9228
▁필사 -9229
▁보스턴 -9230
▁권하 -9231
▁겨루 -9232
▁CL -9233
▁가구 -9234
파이 -9235
▁격렬 -9236
▁마징 -9237
보기 -9238
▁노무 -9239
▁마징가 -9240
▁소통 -9241
▁돌려 -9242
11 -9243
▁깽 -9244
▁르노 -9245
▁앗 -9246
▁노랗 -9247
▁107 -9248
▁테이프 -9249
▁신생 -9250
▁훼손 -9251
▁CR -9252
▁서머 -9253
▁유메 -9254
▁채찍 -9255
느님 -9256
oo -9257
▁as -9258
▁동아시아 -9259
▁Team -9260
▁186 -9261
▁깡패 -9262
▁유능 -9263
▁플리 -9264
▁결과물 -9265
▁래퍼 -9266
▁벨기에 -9267
▁은폐 -9268
에몽 -9269
▁BB -9270
▁망설 -9271
▁내각 -9272
▁장풍 -9273
▁비참 -9274
▁중공 -9275
▁때로 -9276
▁이니 -9277
▁눈앞 -9278
▁양대 -9279
▁그간 -9280
▁하느님 -9281
▁할로 -9282
▁주술 -9283
▁미판 -9284
▁다큐멘터리 -9285
▁잼 -9286
▁일리 -9287
▁와이번스 -9288
▁빈약 -9289
way -9290
urn -9291
▁자산 -9292
▁재벌 -9293
▁헤라 -9294
보우 -9295
▁소비자 -9296
▁신학 -9297
▁119 -9298
▁반장 -9299
▁헥 -9300
▁김병 -9301
▁불길 -9302
▁갈라지 -9303
▁엠블 -9304
▁레시 -9305
▁all -9306
사스 -9307
▁유스 -9308
▁브레스 -9309
▁지면 -9310
▁모던 -9311
▁인텔 -9312
르타 -9313
▁초과 -9314
▁눈동자 -9315
▁욕망 -9316
▁ㅋㅔ -9317
▁왕족 -9318
▁잎 -9319
사벽 -9320
▁넘사벽 -9321
▁얼티밋 -9322
▁Black -9323
▁원작자 -9324
▁탐사 -9325
▁1975 -9326
▁모기 -9327
▁충고 -9328
▁no -9329
구역 -9330
▁대등 -9331
▁중국인 -9332
▁진짜로 -9333
▁나카무라 -9334
▁116 -9335
과이 -9336
▁오퍼 -9337
▁취재 -9338
0000 -9339
은이 -9340
▁이념 -9341
▁파괴력 -9342
▁산소 -9343
▁용산 -9344
▁헤일 -9345
▁LTE -9346
▁필립 -9347
▁바이에른 -9348
▁인성 -9349
▁정형 -9350
▁조국 -9351
▁홍진호 -9352
▁주유 -9353
gh -9354
▁후대 -9355
▁신조 -9356
▁출고 -9357
세서리 -9358
▁망명 -9359
▁스노우 -9360
▁챔스 -9361
▁주입 -9362
▁리우스 -9363
▁이원 -9364
▁삼키 -9365
구나 -9366
▁Col -9367
▁주머니 -9368
▁냉동 -9369
▁사지 -9370
더링 -9371
▁아울 -9372
▁집사 -9373
▁숙련도 -9374
▁상부 -9375
▁나인 -9376
▁문재인 -9377
▁사나이 -9378
▁버거 -9379
▁식스 -9380
▁187 -9381
ale -9382
▁케리건 -9383
노스케 -9384
진영 -9385
▁델타 -9386
▁math -9387
▁일례 -9388
FL -9389
▁시범 -9390
▁유라 -9391
▁소령 -9392
▁망상 -9393
▁대피 -9394
▁라가 -9395
▁재즈 -9396
▁추후 -9397
▁쓸데없이 -9398
▁do -9399
▁Night -9400
▁저항력 -9401
▁청룡 -9402
▁메테 -9403
▁근로 -9404
▁충격파 -9405
▁수립 -9406
티어 -9407
ject -9408
▁순정 -9409
▁유치원 -9410
속기 -9411
▁종착 -9412
▁( -9413
▁MO -9414
▁남학생 -9415
▁성사 -9416
▁ERA -9417
▁비자 -9418
▁혼동 -9419
▁종로 -9420
시티 -9421
▁경상북도 -9422
ier -9423
▁금강 -9424
중간 -9425
▁주교 -9426
▁FPS -9427
▁구호 -9428
▁에코 -9429
▁주저 -9430
▁리플렉 -9431
▁요코하마 -9432
▁HS -9433
▁퇴역 -9434
▁투니 -9435
▁병행 -9436
▁통틀어 -9437
▁Type -9438
▁아처 -9439
ult -9440
▁말년 -9441
▁트러블 -9442
▁협조 -9443
▁어벤져 -9444
▁동사 -9445
▁고래 -9446
▁그루 -9447
▁도사 -9448
▁키드 -9449
▁절정 -9450
▁쳐들어오 -9451
▁군데 -9452
▁앨런 -9453
▁한양 -9454
▁not -9455
▁피난 -9456
ㄴㄷㅡㄹ -9457
▁니코니코 -9458
▁리볼버 -9459
▁750 -9460
▁입원 -9461
▁대목 -9462
▁직위 -9463
▁욱 -9464
▁욕심 -9465
▁마가 -9466
▁플라스틱 -9467
▁저스티스 -9468
▁독백 -9469
▁영등 -9470
▁해고 -9471
▁TS -9472
들목 -9473
키스 -9474
▁ㅅㅑ -9475
▁122 -9476
▁~" -9477
▁짤리 -9478
▁나들목 -9479
▁Girl -9480
▁마작 -9481
▁중년 -9482
▁절벽 -9483
▁투고 -9484
▁용암 -9485
▁연전 -9486
▁중심지 -9487
메다 -9488
▁질풍 -9489
▁중화민국 -9490
긋나 -9491
▁고립 -9492
▁시어 -9493
▁게리온 -9494
▁소서 -9495
▁113 -9496
▁서리 -9497
▁포도 -9498
드립 -9499
▁고이 -9500
▁연간 -9501
DD -9502
▁동계 -9503
▁재배 -9504
▁적립 -9505
▁약칭 -9506
▁평택 -9507
▁레인보우 -9508
돌프 -9509
▁국기 -9510
▁급속 -9511
▁퍼시 -9512
니발 -9513
▁오른팔 -9514
▁왕가 -9515
▁노블 -9516
생기 -9517
▁카사 -9518
▁홋카이도 -9519
▁이용자 -9520
▁아인 -9521
▁말씀 -9522
▁쿠바 -9523
▁진단 -9524
▁집필 -9525
▁카즈야 -9526
▁빙의 -9527
▁초청 -9528
▁미코토 -9529
▁1977 -9530
▁까마귀 -9531
슬링 -9532
▁두목 -9533
▁누스 -9534
▁손목 -9535
▁beat -9536
ose -9537
▁불문 -9538
▁내역 -9539
▁병장 -9540
▁유카리 -9541
▁어기 -9542
▁격투기 -9543
▁Gam -9544
▁사탄 -9545
▁트이 -9546
▁제자리 -9547
▁1976 -9548
▁이만 -9549
▁144 -9550
▁미식 -9551
▁렀 -9552
▁방공 -9553
▁완벽히 -9554
▁강탈 -9555
▁섭취 -9556
▁끌어내 -9557
▁실로 -9558
▁사투리 -9559
▁인체 -9560
▁포착 -9561
▁450 -9562
▁합계 -9563
▁희대 -9564
성이 -9565
▁일각 -9566
▁본질 -9567
▁스나 -9568
▁꼼수 -9569
▁대교 -9570
▁옵티 -9571
▁Con -9572
▁잠기 -9573
▁전수 -9574
▁쫓기 -9575
상가 -9576
▁긋 -9577
▁불참 -9578
▁야전 -9579
▁존슨 -9580
▁4000 -9581
ox -9582
▁교향 -9583
▁캇 -9584
자치 -9585
▁승패 -9586
▁크롤 -9587
▁하후 -9588
▁두루 -9589
▁헐크 -9590
▁정조 -9591
▁한나라 -9592
▁공짜 -9593
▁저격수 -9594
GA -9595
▁인플 -9596
▁지극 -9597
▁조던 -9598
마치 -9599
▁한나라당 -9600
▁뮤지션 -9601
▁브레이브 -9602
▁안젤 -9603
▁무실점 -9604
▁누이 -9605
▁딥 -9606
▁베이비 -9607
▁차장 -9608
▁Max -9609
▁Do -9610
▁퉁 -9611
▁히로시마 -9612
▁미트 -9613
able -9614
▁공명 -9615
▁동상 -9616
▁민중 -9617
▁염두 -9618
▁점심 -9619
▁탈환 -9620
▁320 -9621
뮤직 -9622
▁무지개 -9623
▁악하 -9624
▁감기 -9625
▁숭배 -9626
▁ne -9627
▁호구 -9628
▁훈훈 -9629
▁래스터 -9630
▁토오 -9631
▁의정부 -9632
▁일조 -9633
네이터 -9634
▁Op -9635
▁팜 -9636
▁부산광역시 -9637
▁MSL -9638
터스 -9639
ron -9640
▁도마 -9641
▁하행 -9642
▁서치 -9643
▁도검 -9644
▁핑계 -9645
▁검토 -9646
▁행진 -9647
▁능하 -9648
▁리터 -9649
▁로렌 -9650
very -9651
▁이태 -9652
▁EV -9653
▁키노 -9654
▁리셋 -9655
ign -9656
▁단총 -9657
▁속편 -9658
▁152 -9659
▁철갑탄 -9660
▁동인지 -9661
int -9662
▁오딘 -9663
▁제인 -9664
▁패미 -9665
▁위쪽 -9666
▁김광 -9667
▁OF -9668
▁제발 -9669
▁기원전 -9670
▁대인배 -9671
지않 -9672
▁하지 -9673
물리 -9674
▁교차로 -9675
▁145 -9676
▁패트 -9677
▁립스 -9678
▁상행 -9679
ㄴㅡㄴㄷㅔ -9680
▁사퇴 -9681
▁처녀 -9682
▁주식회사 -9683
▁사내 -9684
▁세례 -9685
PA -9686
▁계곡 -9687
▁아랑 -9688
▁평점 -9689
▁격하 -9690
▁스톡 -9691
▁후쿠오카 -9692
▁BC -9693
▁동호 -9694
▁경지 -9695
▁벌써 -9696
▁월간 -9697
▁배신자 -9698
▁원자력 -9699
▁스치 -9700
▁제주도 -9701
EL -9702
▁삿 -9703
큘라 -9704
▁액체 -9705
▁자켓 -9706
▁측근 -9707
▁거세 -9708
▁회관 -9709
ㅇㅡㄴ -9710
▁냉장고 -9711
▁베이징 -9712
태자 -9713
▁각국 -9714
▁ㄷㅔ -9715
고사 -9716
▁꺼지 -9717
▁화약 -9718
▁도라에몽 -9719
▁사직 -9720
박이 -9721
▁신칸 -9722
▁신세계 -9723
카미 -9724
▁일품 -9725
▁앞면 -9726
▁텔레포트 -9727
▁데미 -9728
▁응급 -9729
▁춤추 -9730
▁콰 -9731
▁에일리언 -9732
▁조교 -9733
사고 -9734
▁맹독 -9735
▁김전 -9736
▁사일 -9737
▁남양 -9738
▁황혼 -9739
▁1972 -9740
▁내뱉 -9741
퍼드 -9742
▁건너가 -9743
▁우지 -9744
▁쿠르 -9745
▁패닉 -9746
▁전도 -9747
▁레이너 -9748
▁팰 -9749
▁신칸센 -9750
▁사물 -9751
▁테러리 -9752
▁참으로 -9753
미터 -9754
▁태풍 -9755
▁초필 -9756
▁아이디 -9757
▁금요일 -9758
▁물약 -9759
▁시조 -9760
▁토비 -9761
▁생각나 -9762
▁궤적 -9763
▁베어 -9764
▁KTX -9765
▁토가 -9766
▁사소 -9767
▁솔직히 -9768
▁청나라 -9769
▁마초 -9770
▁타구 -9771
▁수하 -9772
타니 -9773
▁남미 -9774
▁노골 -9775
▁수감 -9776
▁시초 -9777
▁콧 -9778
ild -9779
▁인사이드 -9780
당기 -9781
▁랜서 -9782
닐라 -9783
▁키미 -9784
▁토막 -9785
▁210 -9786
▁메디 -9787
▁법사 -9788
▁김전일 -9789
▁연이 -9790
▁페르시아 -9791
▁총사 -9792
▁투사 -9793
▁밭 -9794
▁줄기 -9795
▁더미 -9796
15 -9797
▁파고 -9798
▁김구 -9799
▁더구나 -9800
iel -9801
▁판권 -9802
▁La -9803
▁PSP -9804
▁정우 -9805
▁{{{# -9806
▁주파 -9807
▁초점 -9808
▁대변 -9809
▁서태 -9810
▁일환 -9811
▁Gre -9812
드로 -9813
▁아슬 -9814
▁브루스 -9815
퀘어 -9816
▁BJ -9817
▁설마 -9818
▁영화제 -9819
▁고난 -9820
▁음향 -9821
▁카일 -9822
▁부동산 -9823
▁Am -9824
▁사탕 -9825
▁볼드 -9826
▁두려움 -9827
▁스매 -9828
▁장동 -9829
▁스바 -9830
▁해상도 -9831
▁코즈 -9832
▁연소 -9833
▁윤리 -9834
▁태생 -9835
▁김지 -9836
▁관광객 -9837
▁상의 -9838
▁비꼬 -9839
랄드 -9840
▁등재 -9841
▁서울시 -9842
▁격기 -9843
▁저승 -9844
▁타리 -9845
▁껍질 -9846
▁라틴어 -9847
▁이점 -9848
▁나레이션 -9849
▁다니엘 -9850
▁프랜차 -9851
▁캘리포 -9852
▁사극 -9853
하여 -9854
▁객관 -9855
▁깨알 -9856
▁프랭크 -9857
▁맑 -9858
▁피지컬 -9859
▁심야 -9860
▁랜스 -9861
▁쟁이 -9862
▁접수 -9863
▁텍사스 -9864
▁감금 -9865
▁과금 -9866
▁보트 -9867
▁안드로 -9868
▁럭키 -9869
▁프랜차이즈 -9870
ANC -9871
▁안동 -9872
▁어퍼 -9873
▁정준 -9874
▁메이트 -9875
▁바닷 -9876
▁슬램 -9877
▁알라 -9878
▁왕후 -9879
▁탁월 -9880
▁핀란드 -9881
▁본의 -9882
▁연금술사 -9883
▁다이스케 -9884
컨드 -9885
▁디스플레이 -9886
▁리키 -9887
▁어서 -9888
▁박명수 -9889
▁~! -9890
▁파밍 -9891
▁우두 -9892
▁타스 -9893
▁세컨드 -9894
▁BM -9895
▁선원 -9896
▁우미 -9897
▁환호 -9898
▁주황 -9899
▁컬렉션 -9900
▁암컷 -9901
▁에필 -9902
▁에필로그 -9903
▁약체 -9904
부인 -9905
▁사우스 -9906
ae -9907
▁치마 -9908
▁목동 -9909
▁무색 -9910
▁시뮬레이션 -9911
▁보복 -9912
▁스팅 -9913
▁캘리포니아 -9914
▁발발 -9915
▁중급 -9916
▁165 -9917
▁별칭 -9918
▁전학 -9919
▁DR -9920
▁고질 -9921
▁이별 -9922
▁공국 -9923
▁바이킹 -9924
▁명나라 -9925
▁아쉬움 -9926
▁팝픈 -9927
▁옵티머스 -9928
▁팝픈뮤직 -9929
▁주한 -9930
▁밀어붙이 -9931
▁개그맨 -9932
▁맞물리 -9933
▁무단 -9934
▁GHz -9935
▁보디 -9936
▁브레인 -9937
▁히나타 -9938
▁골치 -9939
▁탄막 -9940
▁Wii -9941
▁스택 -9942
▁아테나 -9943
▁feat -9944
▁잔류 -9945
▁타카시 -9946
▁시끄럽 -9947
▁어린아이 -9948
▁섹스 -9949
▁장시 -9950
▁십자가 -9951
▁노무현 -9952
▁강습 -9953
▁외관 -9954
▁지미 -9955
▁배후 -9956
▁구청 -9957
▁능숙 -9958
▁슬슬 -9959
▁강점기 -9960
▁카구라 -9961
▁카이토 -9962
▁사슬 -9963
AND -9964
▁조준경 -9965
차리 -9966
▁마수 -9967
▁마의 -9968
▁노르웨이 -9969
▁진하 -9970
ANI -9971
▁마켓 -9972
▁경제학 -9973
▁몰려오 -9974
▁시흥 -9975
▁요우 -9976
▁아메리칸 -9977
▁CN -9978
▁청구 -9979
▁저자 -9980
▁내면 -9981
▁오리진 -9982
▁저거 -9983
▁유해 -9984
▁바나나 -9985
▁혼인 -9986
교사 -9987
▁호응 -9988
▁점하 -9989
▁방침 -9990
▁저러 -9991
▁1969 -9992
aby -9993
▁무수 -9994
▁서바이벌 -9995
▁개미 -9996
▁Time -9997
▁UC -9998
소총 -9999
▁신상 -10000
▁월등 -10001
레이크 -10002
▁평론가 -10003
▁..? -10004
▁네이션 -10005
▁rd -10006
▁달라 -10007
보라 -10008
▁스네이크 -10009
▁화석 -10010
매니아 -10011
▁가라앉 -10012
▁스토커 -10013
메라 -10014
▁끝장 -10015
▁술집 -10016
▁파우 -10017
▁바론 -10018
▁토오루 -10019
ull -10020
gin -10021
▁고종 -10022
▁좌익 -10023
▁나란히 -10024
▁교정 -10025
▁점멸 -10026
▁음색 -10027
ical -10028
나리 -10029
티지 -10030
▁편견 -10031
▁1971 -10032
▁무슬 -10033
▁드라큘라 -10034
▁자작 -10035
▁전두 -10036
▁체격 -10037
▁}} -10038
▁수컷 -10039
STER -10040
▁무사시 -10041
▁10000 -10042
▁문법 -10043
▁빗나가 -10044
.. -10045
▁모어 -10046
마르 -10047
▁투신 -10048
앙스 -10049
▁GN -10050
▁캔디 -10051
▁필두 -10052
▁계절 -10053
▁낯 -10054
▁뚝 -10055
▁퓨처 -10056
▁중후 -10057
총장 -10058
▁격퇴 -10059
▁방울 -10060
▁선인 -10061
▁드리블 -10062
▁인트 -10063
▁직격 -10064
▁협동 -10065
▁MHz -10066
▁from -10067
▁로지 -10068
▁반기 -10069
▁질환 -10070
맥스 -10071
▁관절 -10072
▁본가 -10073
▁유코 -10074
▁댐 -10075
▁단의 -10076
▁신념 -10077
ㄹㄹㅏ -10078
▁응원가 -10079
레일 -10080
▁평등 -10081
▁마저 -10082
▁풀려나 -10083
▁엣지 -10084
▁라비 -10085
▁순간이동 -10086
▁후루 -10087
▁타치바나 -10088
▁모스크바 -10089
▁궁수 -10090
▁주차장 -10091
▁펭귄 -10092
▁반론 -10093
▁최하 -10094
▁덴마크 -10095
▁인구수 -10096
▁늪 -10097
▁비로 -10098
▁무슬림 -10099
▁컨디션 -10100
▁뉘앙스 -10101
철수 -10102
▁멸종 -10103
▁자부 -10104
▁가해 -10105
▁정서 -10106
▁강아지 -10107
▁미도리 -10108
▁쫓아내 -10109
▁두뇌 -10110
▁빙결 -10111
▁레기 -10112
oul -10113
▁마르코 -10114
▁마신 -10115
▁주공 -10116
▁BEM -10117
▁테레 -10118
빨리 -10119
▁냅 -10120
▁상장 -10121
▁종말 -10122
▁일본식 -10123
베트 -10124
▁부관 -10125
▁조수 -10126
▁아카리 -10127
소수 -10128
▁관계없이 -10129
콥터 -10130
공사 -10131
▁천문 -10132
▁KB -10133
▁센트럴 -10134
▁테러리스트 -10135
▁빈번 -10136
▁생태 -10137
▁김주 -10138
▁가혹 -10139
던지 -10140
▁양심 -10141
▁차분 -10142
▁위키백과 -10143
▁오키나 -10144
▁에메랄드 -10145
▁다녀 -10146
▁현황 -10147
▁반란군 -10148
▁헤드샷 -10149
▁유고 -10150
▁저기 -10151
플렉스 -10152
▁프로토타입 -10153
▁동등 -10154
▁목포 -10155
▁징계 -10156
▁NEW -10157
▁말레이 -10158
▁DX -10159
▁분포 -10160
▁스파이크 -10161
▁성숙 -10162
▁제조사 -10163
▁Gu -10164
▁벚 -10165
▁Gl -10166
▁상어 -10167
천군 -10168
▁우투 -10169
▁HARD -10170
▁알아차리 -10171
▁슬라이드 -10172
▁수령 -10173
▁혼다 -10174
▁AFC -10175
▁스케줄 -10176
▁아르카 -10177
▁멋있 -10178
▁카렌 -10179
▁꼴찌 -10180
▁미모 -10181
▁타당 -10182
ㄴㅕ -10183
▁아마존 -10184
▁JTBC -10185
▁서명 -10186
▁굳히 -10187
▁파문 -10188
▁하라 -10189
바스 -10190
▁영등포 -10191
▁정답 -10192
▁웨인 -10193
▁ATK -10194
▁솜씨 -10195
▁ㅡ -10196
레슬링 -10197
▁유진 -10198
▁콘스탄 -10199
tern -10200
▁발차기 -10201
▁어긋나 -10202
▁Ro -10203
▁샤아 -10204
▁유유 -10205
▁수여 -10206
▁국산 -10207
▁스바루 -10208
▁대쉬 -10209
▁숙소 -10210
▁프롤로그 -10211
▁샹 -10212
▁벨라 -10213
▁유마 -10214
▁확고 -10215
재기 -10216
▁숙주 -10217
▁TCG -10218
▁신병 -10219
▁흑마 -10220
▁ㄱㅜㄴㅇㅛ -10221
▁라우 -10222
▁복용 -10223
▁프로레슬링 -10224
▁레오나 -10225
▁수수료 -10226
▁이방 -10227
▁워낙에 -10228
▁나사 -10229
▁new -10230
▁갈아타 -10231
TC -10232
▁폐허 -10233
▁하드웨어 -10234
▁로열 -10235
▁타고 -10236
▁극우 -10237
ㄴㅕㅇ -10238
▁리부트 -10239
▁고음 -10240
▁네스 -10241
▁케로 -10242
▁별자리 -10243
idth -10244
▁발톱 -10245
▁이어서 -10246
▁모함 -10247
▁매지 -10248
▁몹시 -10249
▁에그 -10250
▁근성 -10251
▁맥락 -10252
▁예방 -10253
▁카테고리 -10254
▁Co -10255
▁메세지 -10256
▁하와 -10257
▁궁전 -10258
▁미끼 -10259
gr -10260
▁구제 -10261
▁패드 -10262
▁단말 -10263
▁미숙 -10264
▁보행 -10265
▁회계 -10266
▁cl -10267
▁EU -10268
▁관직 -10269
▁에도 -10270
▁가해자 -10271
▁BEMANI -10272
▁싣 -10273
▁마마 -10274
▁상대식 -10275
▁헬리콥터 -10276
▁체형 -10277
▁가의 -10278
▁합법 -10279
▁간호 -10280
▁믿음 -10281
▁응시 -10282
▁군림 -10283
▁우편 -10284
▁시가 -10285
▁집합 -10286
플러스 -10287
▁섬멸 -10288
▁외래 -10289
▁콕 -10290
▁동체 -10291
▁로컬 -10292
▁고발 -10293
▁실장 -10294
▁파손 -10295
▁모양새 -10296
레이트 -10297
▁Mr -10298
▁드릴 -10299
▁미스트 -10300
▁사르 -10301
▁이광 -10302
시스코 -10303
▁풍경 -10304
▁그랜 -10305
▁선봉 -10306
▁노비 -10307
▁천마 -10308
▁미즈키 -10309
▁분배 -10310
▁유신 -10311
▁샤워 -10312
▁기법 -10313
▁파격 -10314
▁러시아어 -10315
▁코지 -10316
▁할로윈 -10317
▁수성 -10318
▁지붕 -10319
app -10320
▁생선 -10321
▁피카츄 -10322
▁밧 -10323
▁오케스트라 -10324
▁전염 -10325
ough -10326
▁경상남도 -10327
▁Ser -10328
▁꿇 -10329
▁IP -10330
▁연의 -10331
13 -10332
▁기하 -10333
▁브론 -10334
▁도시락 -10335
메어 -10336
ERO -10337
▁에바 -10338
▁기피 -10339
교통 -10340
▁난민 -10341
▁출제 -10342
▁연고지 -10343
▁중도 -10344
▁원장 -10345
▁이세 -10346
▁환수 -10347
▁유정 -10348
▁IV -10349
▁직속 -10350
▁청사 -10351
대교 -10352
▁유방 -10353
▁단서 -10354
▁하이라이트 -10355
▁Sk -10356
▁캐스트 -10357
eel -10358
▁소집 -10359
▁기함 -10360
▁깨우 -10361
▁루루 -10362
▁114 -10363
▁스트로 -10364
▁제우스 -10365
▁액셀 -10366
▁크라운 -10367
▁유선 -10368
▁후면 -10369
▁UM -10370
▁캐슬 -10371
▁ㄹㅏㄱ -10372
▁오디오 -10373
▁LE -10374
▁조력 -10375
▁인쇄 -10376
▁width -10377
▁가창 -10378
▁뒤쪽 -10379
▁나이트메어 -10380
▁격침 -10381
▁매기 -10382
▁오쿠 -10383
▁can -10384
▁제사 -10385
▁내뿜 -10386
▁창립 -10387
▁성명 -10388
글라스 -10389
▁노래방 -10390
▁다저스 -10391
▁랙 -10392
▁CE -10393
▁농민 -10394
▁배송 -10395
▁스쿼 -10396
▁소노 -10397
▁한층 -10398
▁미사키 -10399
▁밀어주 -10400
현우 -10401
▁가미 -10402
▁부류 -10403
▁AF -10404
▁박쥐 -10405
▁제작비 -10406
▁NT -10407
▁장례식 -10408
퍼니 -10409
▁개교 -10410
▁Heart -10411
▁성비 -10412
▁이에 -10413
▁Dark -10414
▁하이브리 -10415
▁부사 -10416
▁하이브리드 -10417
▁컴백 -10418
me -10419
▁쓰러트리 -10420
▁명곡 -10421
▁차용 -10422
▁Sch -10423
▁추모 -10424
▁츠바사 -10425
▁이인 -10426
쳐나 -10427
▁키사 -10428
지오 -10429
▁Car -10430
▁거품 -10431
▁무선 -10432
▁걸음 -10433
▁ㅅㅜ -10434
▁뒷면 -10435
▁츠나 -10436
▁해변 -10437
ll -10438
통수 -10439
▁레바 -10440
▁수시로 -10441
▁드로 -10442
▁오바 -10443
▁응답 -10444
▁통수 -10445
▁파이프 -10446
▁히데요시 -10447
와라 -10448
▁일삼 -10449
▁안토니 -10450
처럼 -10451
▁대니 -10452
▁앞뒤 -10453
전트 -10454
▁지배자 -10455
▁낙선 -10456
▁불쾌 -10457
▁상시 -10458
▁방호 -10459
▁섹시 -10460
▁페인 -10461
활약 -10462
▁라드 -10463
▁자각 -10464
▁길거리 -10465
▁상쇄 -10466
▁홈즈 -10467
ye -10468
▁버릇 -10469
▁레이트 -10470
▁알렉산드 -10471
▁아비 -10472
▁하의 -10473
▁브릿 -10474
▁난감 -10475
▁명명 -10476
▁전례 -10477
▁가브리 -10478
▁괴상 -10479
▁불화 -10480
▁오비 -10481
▁연세대 -10482
소문 -10483
▁사각 -10484
▁되살리 -10485
▁결의 -10486
▁보루 -10487
ution -10488
▁주의자 -10489
▁이노우 -10490
▁로브 -10491
▁리프트 -10492
▁타다 -10493
저것 -10494
▁블랙홀 -10495
▁이것저것 -10496
▁패스트 -10497
▁PK -10498
▁보고서 -10499
▁땀 -10500
▁말아먹 -10501
▁투성이 -10502
츠카 -10503
▁그제 -10504
▁로저 -10505
지사 -10506
▁가마 -10507
▁Em -10508
▁발하 -10509
쌔신 -10510
▁조항 -10511
▁어쌔신 -10512
▁중학생 -10513
줌마 -10514
▁UFC -10515
▁손톱 -10516
▁코요 -10517
▁깃털 -10518
▁클라우드 -10519
▁부친 -10520
▁}}} -10521
바시 -10522
▁연회 -10523
▁튜닝 -10524
▁내구력 -10525
무게 -10526
▁몸무게 -10527
▁아줌마 -10528
박히 -10529
▁슈터 -10530
저드 -10531
▁간선 -10532
▁배리어 -10533
ee -10534
▁윈터 -10535
▁천주교 -10536
▁카이사르 -10537
▁Is -10538
▁커먼 -10539
▁하시 -10540
▁노트북 -10541
▁하여금 -10542
▁BT -10543
▁교관 -10544
▁폴리스 -10545
▁악령 -10546
▁원흉 -10547
▁아이작 -10548
▁제이슨 -10549
▁Bat -10550
▁기이 -10551
▁콜로니 -10552
공화 -10553
▁this -10554
oh -10555
▁강서 -10556
▁공존 -10557
▁키무라 -10558
▁1968 -10559
▁벌금 -10560
▁타고나 -10561
보그 -10562
▁성역 -10563
▁지각 -10564
▁지성 -10565
▁산탄총 -10566
▁혹평 -10567
ings -10568
▁프로리그 -10569
▁꾸리 -10570
▁전광 -10571
▁강세 -10572
▁김두한 -10573
자재 -10574
▁마모루 -10575
▁SL -10576
▁발탁 -10577
▁포대 -10578
▁네코 -10579
▁줄줄 -10580
▁김대중 -10581
▁미호 -10582
▁비타 -10583
▁뚜껑 -10584
▁시에 -10585
▁원망 -10586
▁공영 -10587
▁교양 -10588
▁여배우 -10589
▁민병 -10590
▁아이폰 -10591
reak -10592
▁홈경기 -10593
▁쑤 -10594
▁한강 -10595
▁컴퍼니 -10596
▁플레어 -10597
▁괴력 -10598
▁뒤통수 -10599
▁배우자 -10600
▁발현 -10601
▁문신 -10602
▁가로막 -10603
▁코타로 -10604
풀이 -10605
▁로라 -10606
▁라프 -10607
▁심화 -10608
▁로비 -10609
▁자주포 -10610
▁라임 -10611
▁상공 -10612
▁시궁 -10613
▁오시 -10614
▁주가 -10615
▁초상화 -10616
▁미들 -10617
▁일일이 -10618
▁발렌타인 -10619
듈럼 -10620
▁시스터 -10621
▁코바야시 -10622
▁동북 -10623
▁오프라인 -10624
▁보잉 -10625
▁북아 -10626
▁망설이 -10627
▁깽판 -10628
▁무림 -10629
▁듀크 -10630
▁면접 -10631
▁끓이 -10632
▁핸들 -10633
▁EBS -10634
▁사범 -10635
▁적성 -10636
▁하우 -10637
▁전라남도 -10638
▁감성 -10639
▁리자 -10640
▁센티 -10641
▁행방불명 -10642
▁선포 -10643
▁무너 -10644
▁재활 -10645
▁타케시 -10646
▁무너뜨리 -10647
▁방화 -10648
▁우가 -10649
▁틀어 -10650
▁고토 -10651
▁TO -10652
▁표하 -10653
▁빅토리아 -10654
▁폭로 -10655
▁저서 -10656
▁꽁 -10657
▁포맷 -10658
단지 -10659
icro -10660
▁달라붙 -10661
두사 -10662
어쓰 -10663
▁Su -10664
▁기합 -10665
▁총독 -10666
▁슬라임 -10667
▁암울 -10668
▁캐리어 -10669
▁저것 -10670
▁증발 -10671
▁김일성 -10672
ict -10673
▁유난 -10674
▁테루 -10675
▁직결 -10676
▁열악 -10677
니클 -10678
▁문고 -10679
▁전두환 -10680
▁펜듈럼 -10681
▁져 -10682
▁로맨스 -10683
▁친목 -10684
▁그랑프리 -10685
▁맨체스터 -10686
CH -10687
▁남발 -10688
▁캡콤 -10689
▁시코 -10690
▁연달 -10691
▁허브 -10692
▁저조 -10693
▁~~ -10694
▁랜턴 -10695
▁처절 -10696
▁당나라 -10697
▁교통사고 -10698
▁나열 -10699
▁앵커 -10700
▁203 -10701
▁Light -10702
▁환사 -10703
▁십자군 -10704
▁니나 -10705
▁실력자 -10706
▁뱉 -10707
노기 -10708
▁야만 -10709
▁둥지 -10710
▁짤방 -10711
▁자위대 -10712
▁꿰뚫 -10713
▁운석 -10714
▁성직자 -10715
▁계란 -10716
▁미세 -10717
▁외면 -10718
▁맹활약 -10719
▁우두머리 -10720
▁이행 -10721
▁요리사 -10722
▁오키나와 -10723
▁도타 -10724
▁대외 -10725
▁듀스 -10726
▁스텔라 -10727
▁침해 -10728
▁안무 -10729
▁무협 -10730
▁회로 -10731
▁Kore -10732
▁ver -10733
ors -10734
▁둥글 -10735
▁요시노 -10736
▁Im -10737
▁달래 -10738
▁사이보그 -10739
▁요시다 -10740
▁이치고 -10741
▁개막전 -10742
▁레즈 -10743
▁퍼붓 -10744
장난 -10745
▁직역 -10746
▁박치기 -10747
▁애쓰 -10748
▁수영복 -10749
▁단식 -10750
▁LED -10751
▁테오 -10752
▁ADV -10753
mania -10754
▁구절 -10755
▁북두 -10756
▁연막 -10757
▁쫄 -10758
▁샤프 -10759
▁부처 -10760
▁따라잡 -10761
▁애국 -10762
▁힌트 -10763
▁켄이치 -10764
▁마사키 -10765
▁험하 -10766
▁럴 -10767
▁넉넉 -10768
▁다녀오 -10769
▁Sy -10770
▁코디 -10771
▁117 -10772
▁GTA -10773
레드 -10774
▁127 -10775
▁BO -10776
▁자칫 -10777
▁접어들 -10778
▁공고 -10779
▁신수 -10780
▁프랑켄 -10781
▁어드밴스 -10782
셉트 -10783
▁변호 -10784
▁개개 -10785
▁뉴질 -10786
▁뉴질랜드 -10787
▁냉전 -10788
▁적재 -10789
▁케이지 -10790
▁Ev -10791
▁파랑 -10792
▁사료 -10793
▁볶 -10794
▁어미 -10795
▁AE -10796
▁성수 -10797
▁착지 -10798
스트림 -10799
▁126 -10800
무네 -10801
▁롤링 -10802
▁배속 -10803
▁고속버스 -10804
▁184 -10805
▁주되 -10806
▁혼합 -10807
▁진정하 -10808
▁괴리 -10809
▁물가 -10810
▁pro -10811
▁죄수 -10812
▁도요 -10813
▁그리하여 -10814
▁실바 -10815
▁므 -10816
▁푼 -10817
▁잔해 -10818
▁깃들 -10819
민주당 -10820
ACK -10821
▁여관 -10822
▁메모 -10823
▁줄어드 -10824
▁쳐다보 -10825
▁공모 -10826
▁추적자 -10827
▁영미 -10828
▁호쿠 -10829
▁타나카 -10830
▁뭔 -10831
▁고조 -10832
▁번갈 -10833
▁확립 -10834
▁사쿠라이 -10835
▁아이스크림 -10836
▁스퀘어 -10837
▁야쿠자 -10838
▁대안 -10839
▁우습 -10840
▁장신구 -10841
▁이사장 -10842
모어 -10843
▁땅볼 -10844
▁기쁨 -10845
▁고든 -10846
▁김윤 -10847
토랑 -10848
▁야마구치 -10849
▁제지 -10850
▁레스토랑 -10851
14 -10852
▁담임 -10853
▁라파 -10854
▁특훈 -10855
▁왓 -10856
▁찢어지 -10857
ics -10858
▁그려 -10859
▁찰나 -10860
▁드레드 -10861
더슨 -10862
▁플래닛 -10863
▁빈틈 -10864
▁우상 -10865
▁수용소 -10866
▁자회사 -10867
▁max -10868
▁먼지 -10869
▁실루 -10870
▁신이치 -10871
▁지극히 -10872
▁진로 -10873
▁동족 -10874
▁속력 -10875
▁자격증 -10876
▁범하 -10877
▁ar -10878
▁수확 -10879
▁대법 -10880
▁시부 -10881
▁앤디 -10882
▁어벤져스 -10883
▁하반기 -10884
▁will -10885
치아 -10886
▁금고 -10887
▁니카 -10888
▁줌 -10889
▁군복 -10890
▁비로소 -10891
일라 -10892
▁좌파 -10893
▁블라디 -10894
▁몰아붙이 -10895
▁병종 -10896
▁설화 -10897
▁정체불명 -10898
▁크리스토 -10899
▁만행 -10900
▁셸 -10901
▁유토 -10902
▁무진 -10903
▁설탕 -10904
▁휴게소 -10905
▁간호사 -10906
▁중앙선 -10907
▁유무 -10908
▁유타 -10909
▁183 -10910
▁GPU -10911
▁온몸 -10912
▁해역 -10913
디스 -10914
▁청하 -10915
▁화소 -10916
니카 -10917
▁테르 -10918
▁DNA -10919
▁저렇게 -10920
야샤 -10921
▁가브리엘 -10922
▁이누야샤 -10923
휴일 -10924
▁가나 -10925
주의자 -10926
▁178 -10927
▁스크래 -10928
▁인어 -10929
▁성기 -10930
▁공손 -10931
▁준하 -10932
▁호프 -10933
▁As -10934
▁버터 -10935
▁쪼개 -10936
▁실업 -10937
▁중전차 -10938
▁광전사 -10939
▁기괴 -10940
▁불평 -10941
▁아이유 -10942
산동 -10943
▁영화판 -10944
▁이준 -10945
▁김연 -10946
▁지주 -10947
▁명작 -10948
▁내셔널 -10949
▁1967 -10950
▁스쿼드 -10951
▁퓨리 -10952
▁사스케 -10953
▁오덕 -10954
▁대대로 -10955
요환 -10956
▁쾌속 -10957
▁리쿠 -10958
▁미수 -10959
▁팩션 -10960
코어 -10961
▁연말 -10962
▁후타 -10963
▁Let -10964
▁동년 -10965
ex -10966
▁트레이닝 -10967
af -10968
▁텀 -10969
▁실정 -10970
▁중재 -10971
▁심상 -10972
▁클레이 -10973
▁잊어버리 -10974
▁과감 -10975
▁섀도 -10976
▁통보 -10977
▁HG -10978
▁마비노기 -10979
▁당국 -10980
▁못지않 -10981
▁창세기 -10982
무기 -10983
▁데스티니 -10984
▁무궁화 -10985
▁여수 -10986
▁시가지 -10987
▁포트리스 -10988
▁WH -10989
▁마장 -10990
▁접점 -10991
ammer -10992
소년 -10993
▁프린스 -10994
▁us -10995
▁슈가 -10996
즈마 -10997
▁Of -10998
▁상용 -10999
▁샤크 -11000
넘기 -11001
▁몰아내 -11002
▁물리학 -11003
▁임요환 -11004
▁사망자 -11005
▁세미 -11006
▁Red -11007
▁로코 -11008
ㅇㅘ -11009
▁Your -11010
▁책상 -11011
▁태조 -11012
▁182 -11013
▁코이치 -11014
요이 -11015
▁넵 -11016
▁사모 -11017
▁운반 -11018
▁이성계 -11019
IGH -11020
▁농협 -11021
▁토트 -11022
▁호스 -11023
▁신주쿠 -11024
▁어설프 -11025
▁수량 -11026
퇴근 -11027
▁MX -11028
▁출루율 -11029
▁괴담 -11030
▁오의 -11031
▁총선거 -11032
▁무명 -11033
▁부평 -11034
▁급기 -11035
▁거르 -11036
▁냉기 -11037
▁순찰 -11038
▁게임기 -11039
▁사교 -11040
▁루터 -11041
▁샤를 -11042
▁시엘 -11043
▁우체 -11044
트랙 -11045
▁페이트 -11046
▁농락 -11047
▁168 -11048
▁골목 -11049
▁제프 -11050
▁대중교통 -11051
▁리바 -11052
▁자판 -11053
▁진수 -11054
▁Rock -11055
▁엄폐 -11056
▁인터페이스 -11057
▁카우 -11058
▁베이더 -11059
▁스크래치 -11060
▁른 -11061
▁호로 -11062
▁쎄 -11063
▁키즈 -11064
▁계열사 -11065
▁레시피 -11066
▁사이퍼 -11067
르도 -11068
▁단과 -11069
▁매스 -11070
▁황실 -11071
▁고속도 -11072
▁예비군 -11073
▁해치우 -11074
▁타니 -11075
▁바티 -11076
▁LIVE -11077
che -11078
▁Tw -11079
▁단속 -11080
▁아몬 -11081
ㄴㄷㅏㄴ -11082
▁법무 -11083
▁빠뜨리 -11084
ica -11085
▁내정 -11086
▁하비 -11087
▁..! -11088
other -11089
ody -11090
▁공휴일 -11091
▁FW -11092
▁농사 -11093
▁이선 -11094
▁박종 -11095
▁후일담 -11096
▁찰리 -11097
▁더욱이 -11098
쿠로 -11099
▁밈 -11100
테이 -11101
▁사출 -11102
▁쫓아가 -11103
▁플루 -11104
▁습관 -11105
▁오세 -11106
▁시궁창 -11107
규모 -11108
▁1963 -11109
▁세세 -11110
▁통행 -11111
▁330 -11112
▁키바 -11113
▁슬퍼 -11114
▁배기 -11115
▁서해 -11116
▁염색 -11117
▁브라더 -11118
▁유난히 -11119
▁이노우에 -11120
고래 -11121
▁페가 -11122
▁한도 -11123
크리 -11124
▁타국 -11125
LS -11126
▁거스르 -11127
▁셋째 -11128
▁고성 -11129
▁제스 -11130
▁Don -11131
ㅋㅓ -11132
▁성형 -11133
▁출중 -11134
▁해적단 -11135
▁전임 -11136
▁달콤 -11137
아슬 -11138
▁관동 -11139
▁망가 -11140
▁브랜 -11141
▁아슬아슬 -11142
▁리턴 -11143
▁Min -11144
▁주고 -11145
▁열등 -11146
16 -11147
▁다면 -11148
▁통신사 -11149
▁낡 -11150
애나 -11151
▁막부 -11152
▁신임 -11153
▁커트 -11154
▁경찰청 -11155
▁카노 -11156
oth -11157
▁시련 -11158
▁코다 -11159
▁코프 -11160
▁유니온 -11161
▁본디 -11162
▁수식 -11163
▁파수 -11164
▁러너 -11165
▁진리 -11166
▁추출 -11167
▁Sun -11168
▁징징 -11169
▁끼어들 -11170
변이 -11171
▁돌연변이 -11172
자동 -11173
▁졸개 -11174
▁듀티 -11175
▁부흥 -11176
▁키트 -11177
▁클레어 -11178
▁애쉬 -11179
▁하세 -11180
▁소설가 -11181
▁륙 -11182
▁아즈사 -11183
▁하야토 -11184
▁have -11185
▁피드 -11186
▁혹사 -11187
▁용의자 -11188
▁카오리 -11189
▁나뭇 -11190
▁분장 -11191
ins -11192
▁오인 -11193
▁고릴라 -11194
▁클러 -11195
▁라바 -11196
▁이명박 -11197
▁빼내 -11198
▁불로 -11199
정역 -11200
▁블래 -11201
▁이질 -11202
▁장편 -11203
▁정립 -11204
▁통증 -11205
▁2500 -11206
▁복싱 -11207
▁핸드폰 -11208
▁코나미 -11209
현진 -11210
▁단테 -11211
▁탄탄 -11212
▁학점 -11213
▁SCP -11214
▁치사 -11215
▁쓸어버리 -11216
투표 -11217
▁쿠루 -11218
▁선수단 -11219
▁그려지 -11220
▁가르침 -11221
▁신대 -11222
▁미하 -11223
▁결사 -11224
▁독립운동 -11225
▁줄리 -11226
레인저 -11227
▁MK -11228
▁도호 -11229
▁메우 -11230
▁스캔들 -11231
▁멀쩡히 -11232
▁고폭탄 -11233
▁162 -11234
▁접근성 -11235
더기 -11236
▁브라우 -11237
▁모범 -11238
▁조폭 -11239
▁공습 -11240
▁탐구 -11241
▁TOP -11242
▁앞세우 -11243
▁푹 -11244
미르 -11245
▁BAS -11246
▁자질 -11247
▁좌석버스 -11248
▁진구 -11249
카즈 -11250
▁동탁 -11251
▁퐁 -11252
▁Rev -11253
▁귀하 -11254
▁OB -11255
▁감행 -11256
▁방안 -11257
▁정명 -11258
▁ㄷㅡㄴㄱㅏ -11259
▁미티 -11260
▁클라이 -11261
티콘 -11262
▁애프 -11263
▁제대 -11264
▁정교회 -11265
▁출연진 -11266
▁야심 -11267
▁함포 -11268
▁전속 -11269
▁연예계 -11270
▁대국 -11271
▁극소수 -11272
▁단정 -11273
▁브이 -11274
▁임관 -11275
▁필터 -11276
▁후예 -11277
▁애당초 -11278
▁UF -11279
▁진도 -11280
▁통용 -11281
▁군기 -11282
▁따내 -11283
▁미스터리 -11284
▁근력 -11285
▁하타 -11286
기어 -11287
▁가급 -11288
▁자유자재 -11289
로프 -11290
▁리전 -11291
▁카무이 -11292
agon -11293
▁매너 -11294
▁증권 -11295
▁호출 -11296
▁158 -11297
▁에로게 -11298
스틴 -11299
▁Per -11300
▁세일 -11301
▁대명사 -11302
▁미성년 -11303
▁악곡 -11304
▁Sum -11305
▁슬퍼하 -11306
▁트로이 -11307
▁물어보 -11308
▁판사 -11309
▁구타 -11310
▁한발 -11311
▁실루엣 -11312
▁석상 -11313
▁승려 -11314
케인 -11315
▁재빨리 -11316
프라 -11317
▁월요일 -11318
▁소매 -11319
▁프로모 -11320
▁STER -11321
GB -11322
▁인맥 -11323
▁장학 -11324
▁연방군 -11325
재판 -11326
▁형편없 -11327
▁뽐 -11328
평가 -11329
▁샤오 -11330
상가상 -11331
▁마이어 -11332
▁카가미 -11333
▁사우루스 -11334
▁설상가상 -11335
▁월급 -11336
▁Gen -11337
17 -11338
▁어인 -11339
▁TEC -11340
▁am -11341
▁살상 -11342
▁볼텍스 -11343
▁호박 -11344
▁바닐라 -11345
▁beatmania -11346
▁Sl -11347
▁바주 -11348
▁특촬 -11349
▁태자 -11350
ECT -11351
▁교내 -11352
▁넓히 -11353
▁연발 -11354
▁패기 -11355
▁출퇴근 -11356
▁노기 -11357
▁토이 -11358
▁후문 -11359
▁제다이 -11360
▁딱딱 -11361
▁부도 -11362
▁더하 -11363
▁비즈 -11364
▁성폭 -11365
▁애시 -11366
▁1944 -11367
▁서킷 -11368
토시 -11369
▁이례 -11370
ater -11371
▁one -11372
▁게임즈 -11373
▁책정 -11374
▁박탈 -11375
▁시몬 -11376
▁충남 -11377
▁트렌 -11378
▁DO -11379
▁경연 -11380
▁수강 -11381
▁하지메 -11382
▁장병 -11383
▁격전 -11384
▁루키 -11385
▁숏 -11386
▁누명 -11387
기지 -11388
테리 -11389
▁어그 -11390
▁파벌 -11391
▁마이트 -11392
▁디렉터 -11393
▁1966 -11394
▁삼촌 -11395
▁동래 -11396
▁신흥 -11397
▁동봉 -11398
▁멀리서 -11399
▁커비 -11400
▁발칸 -11401
▁태종 -11402
▁레지스 -11403
▁일절 -11404
▁독수리 -11405
ium -11406
▁이치로 -11407
▁고어 -11408
▁가토 -11409
▁복음 -11410
▁단골 -11411
▁세스 -11412
▁우파 -11413
▁열세 -11414
▁분기점 -11415
▁소규모 -11416
▁베인 -11417
▁얼터 -11418
티노 -11419
▁신정 -11420
▁저리 -11421
▁태극 -11422
▁love -11423
▁닉스 -11424
▁홍성 -11425
패스 -11426
▁OK -11427
▁132 -11428
▁벡터 -11429
ions -11430
▁세탁 -11431
▁사사키 -11432
▁하워드 -11433
▁대군 -11434
▁사에 -11435
▁재고 -11436
▁선우 -11437
클린 -11438
▁벚꽃 -11439
▁한몫 -11440
▁갈리아 -11441
▁패미컴 -11442
▁도쿠가와 -11443
▁레이터 -11444
DS -11445
▁부럽 -11446
▁LOVE -11447
기사 -11448
▁꽂히 -11449
▁자처 -11450
▁토네 -11451
그룹 -11452
▁영동 -11453
▁전열 -11454
▁질량 -11455
▁당주 -11456
▁소사 -11457
▁음주 -11458
▁자카 -11459
▁ㄷㅣ -11460
심장 -11461
UR -11462
▁전세 -11463
▁징크스 -11464
▁승급 -11465
▁159 -11466
▁리티 -11467
▁빅뱅 -11468
▁ㅇㅠ -11469
▁대공포 -11470
▁청와 -11471
▁서대 -11472
▁입양 -11473
▁따라다니 -11474
▁탄소 -11475
▁히카리 -11476
▁네놈 -11477
▁하카 -11478
▁받치 -11479
▁절규 -11480
▁입국 -11481
▁카를로스 -11482
▁공성전 -11483
▁로저스 -11484
▁셉 -11485
▁그리스도 -11486
니즘 -11487
▁샴 -11488
▁건재 -11489
▁133 -11490
▁반다이 -11491
▁카린 -11492
▁와이어 -11493
▁유대인 -11494
▁DT -11495
▁성벽 -11496
ould -11497
▁뽕 -11498
▁출근 -11499
▁반군 -11500
▁얼핏 -11501
▁집회 -11502
▁리엘 -11503
▁최정 -11504
▁사용자 -11505
려보 -11506
▁뜯어 -11507
▁발악 -11508
port -11509
▁High -11510
▁천둥 -11511
▁Oh -11512
▁말장난 -11513
▁동조 -11514
▁박찬 -11515
▁술법 -11516
▁124 -11517
▁아래쪽 -11518
▁PL -11519
▁오너 -11520
파크 -11521
▁필연 -11522
▁EXT -11523
▁시그마 -11524
▁아폴로 -11525
▁리에 -11526
ange -11527
미즈 -11528
▁배율 -11529
▁퇴사 -11530
▁동갑 -11531
▁구단주 -11532
▁바주카 -11533
▁액세서리 -11534
▁나고 -11535
▁IDOL -11536
▁가변 -11537
▁동문 -11538
▁사당 -11539
▁러닝 -11540
▁대본 -11541
▁번식 -11542
▁냉각 -11543
▁제식 -11544
▁김택 -11545
▁시즈카 -11546
▁FX -11547
▁경보 -11548
▁맞대 -11549
▁쩔 -11550
▁휩싸 -11551
바다 -11552
ott -11553
▁공방전 -11554
▁게릴라 -11555
▁본성 -11556
▁인천광역시 -11557
▁악어 -11558
▁데우스 -11559
▁베가 -11560
▁기온 -11561
▁서민 -11562
▁HK -11563
▁태미 -11564
▁블레이즈 -11565
▁픽셀 -11566
▁마크로스 -11567
▁퇴출 -11568
▁크로니클 -11569
프란 -11570
▁우물 -11571
▁학급 -11572
▁모닝 -11573
▁방송인 -11574
les -11575
▁상가 -11576
▁직구 -11577
▁슈퍼스타 -11578
▁얕 -11579
▁셰프 -11580
▁사다 -11581
▁마운트 -11582
▁Par -11583
▁마이너스 -11584
▁프로그래밍 -11585
▁미로 -11586
▁허공 -11587
▁광대 -11588
▁구급 -11589
▁280 -11590
▁박영 -11591
▁흑화 -11592
어붙 -11593
▁동요 -11594
▁조직원 -11595
▁최대치 -11596
부지 -11597
▁BW -11598
▁1962 -11599
▁짚 -11600
▁EM -11601
▁보살 -11602
▁파이브 -11603
▁반항 -11604
▁비장 -11605
니스트 -11606
ator -11607
▁MLB -11608
파리 -11609
▁세레 -11610
▁주술사 -11611
▁의아 -11612
노미야 -11613
▁156 -11614
▁분쇄 -11615
▁차선 -11616
▁밀집 -11617
IE -11618
▁악용 -11619
▁1940 -11620
▁결함 -11621
▁굳어지 -11622
▁경질 -11623
▁데카 -11624
▁배상 -11625
▁br -11626
▁계좌 -11627
▁인기투표 -11628
▁드루이드 -11629
▁El -11630
▁볼륨 -11631
▁연비 -11632
▁힐링 -11633
▁스칼렛 -11634
▁악랄 -11635
▁학번 -11636
▁Ang -11637
▁was -11638
▁Master -11639
어찌 -11640
▁광복 -11641
▁기소 -11642
▁새우 -11643
▁Arm -11644
▁반말 -11645
▁복도 -11646
▁총열 -11647
▁일렉트로 -11648
▁무죄 -11649
▁청와대 -11650
▁뷔 -11651
▁코카 -11652
▁지그 -11653
즈카 -11654
▁원호 -11655
▁헌데 -11656
▁함재기 -11657
▁런닝 -11658
▁퍼센트 -11659
UT -11660
▁한탄 -11661
▁구두 -11662
▁파인 -11663
▁230 -11664
▁다이노스 -11665
▁심슨 -11666
▁흡연 -11667
▁엿보 -11668
▁필라 -11669
▁전편 -11670
▁무안 -11671
란트 -11672
▁GG -11673
▁시간표 -11674
▁RP -11675
▁금색 -11676
▁실습 -11677
▁허세 -11678
▁나츠미 -11679
▁쫓아오 -11680
▁쑥 -11681
▁체질 -11682
▁여고생 -11683
▁이승만 -11684
▁기라 -11685
▁118 -11686
▁성서 -11687
▁제시카 -11688
▁어찌어찌 -11689
인간 -11690
▁관념 -11691
▁매달 -11692
징어 -11693
▁실황 -11694
▁체스 -11695
▁현상금 -11696
▁카도 -11697
▁토로 -11698
18 -11699
▁무르 -11700
▁배열 -11701
▁정재 -11702
▁가성 -11703
▁추궁 -11704
▁아이언맨 -11705
두리 -11706
▁광속 -11707
▁운운 -11708
▁ARM -11709
댓말 -11710
▁존댓말 -11711
▁감히 -11712
▁광탈 -11713
▁메테오 -11714
▁장타율 -11715
나드 -11716
널드 -11717
▁화내 -11718
▁138 -11719
▁밋 -11720
▁터미네이터 -11721
▁콜드 -11722
▁경쟁자 -11723
▁접전 -11724
프레스 -11725
▁펠리 -11726
▁기술자 -11727
▁자드 -11728
▁취지 -11729
▁퓨어 -11730
▁화자 -11731
ICE -11732
▁소실 -11733
▁포워드 -11734
▁스매시 -11735
▁텅 -11736
▁열풍 -11737
▁노이즈 -11738
19 -11739
▁대패 -11740
▁베일 -11741
▁성도 -11742
▁남작 -11743
꿈치 -11744
▁미끄 -11745
▁네이트 -11746
립트 -11747
▁웨어 -11748
▁문어 -11749
▁게시물 -11750
▁전반기 -11751
▁훅 -11752
▁똑똑 -11753
▁이용해 -11754
▁히노 -11755
▁팔라딘 -11756
▁페미니 -11757
▁동로 -11758
▁비시 -11759
▁장안 -11760
▁회오리 -11761
▁치명상 -11762
▁라오 -11763
▁탯이 -11764
▁강수 -11765
▁바우 -11766
▁탄도 -11767
▁리조 -11768
▁심문 -11769
▁허구 -11770
▁콘셉트 -11771
▁시집 -11772
▁Sec -11773
▁경성 -11774
▁148 -11775
▁알렉산더 -11776
▁수험 -11777
▁수상자 -11778
▁공로 -11779
▁당첨 -11780
▁불신 -11781
▁시저 -11782
▁악세 -11783
▁마에다 -11784
▁점사 -11785
▁차후 -11786
▁카탈 -11787
▁어느새 -11788
조합 -11789
▁이진 -11790
▁운항 -11791
▁얼어붙 -11792
▁말레이시아 -11793
▁호노 -11794
▁토마토 -11795
▁국당 -11796
▁Fire -11797
lect -11798
▁효과음 -11799
▁1930 -11800
▁억지 -11801
▁학술 -11802
▁까닭 -11803
▁안산 -11804
▁소시 -11805
▁해독 -11806
날드 -11807
▁하렘 -11808
alk -11809
▁제르 -11810
▁거느리 -11811
▁경유지 -11812
▁서울역 -11813
▁스콧 -11814
▁위화 -11815
▁교시 -11816
▁안면 -11817
ㅈㅓㅇ -11818
▁로망 -11819
▁넥서스 -11820
▁빌보드 -11821
▁분홍색 -11822
▁제정신 -11823
▁스플래시 -11824
▁메소 -11825
▁콜롬 -11826
밀리아 -11827
▁호전 -11828
▁원활 -11829
▁성모 -11830
▁드라군 -11831
▁cc -11832
▁급기야 -11833
▁550 -11834
▁수준급 -11835
▁CA -11836
▁반대편 -11837
▁영남 -11838
▁말미 -11839
▁지상파 -11840
칼리 -11841
▁스타팅 -11842
▁구마 -11843
▁소동 -11844
olution -11845
▁상권 -11846
▁가명 -11847
▁자손 -11848
▁하츠네 -11849
▁급히 -11850
▁대출 -11851
▁돌이 -11852
▁이마트 -11853
▁김선 -11854
니스탄 -11855
▁렀다 -11856
▁풍자 -11857
▁조운 -11858
▁바이올린 -11859
▁셜록 -11860
▁007 -11861
▁넥슨 -11862
▁북구 -11863
▁일쑤 -11864
▁제라 -11865
ty -11866
▁균열 -11867
리우스 -11868
▁지휘자 -11869
▁축적 -11870
▁랩터 -11871
▁시중 -11872
▁대표작 -11873
▁루마니아 -11874
▁간략 -11875
land -11876
▁일보 -11877
▁가뜩 -11878
▁호르 -11879
▁pr -11880
▁스피커 -11881
▁왕관 -11882
▁원고 -11883
▁군사력 -11884
▁정류소 -11885
테스 -11886
▁270 -11887
▁되살아나 -11888
엘라 -11889
▁제멋 -11890
베리아 -11891
▁머릿 -11892
▁제단 -11893
▁초래 -11894
▁kr -11895
▁부호 -11896
▁염려 -11897
젤레스 -11898
▁아야카 -11899
▁style -11900
▁고추 -11901
▁백합 -11902
▁프로세서 -11903
▁악의 -11904
▁체이 -11905
▁나나미 -11906
▁레프 -11907
▁보증 -11908
▁야시 -11909
▁나고야 -11910
▁"" -11911
▁모친 -11912
▁이아 -11913
▁팔찌 -11914
누르 -11915
▁불어 -11916
▁개개인 -11917
▁이시다 -11918
▁발광 -11919
▁김원 -11920
▁털어놓 -11921
▁스피리 -11922
▁172 -11923
ony -11924
▁채취 -11925
▁최면 -11926
▁가뜩이나 -11927
▁외래어 -11928
▁발라드 -11929
▁에이전트 -11930
▁주황색 -11931
▁1964 -11932
▁금호 -11933
▁피처 -11934
▁디펜스 -11935
▁테이크 -11936
▁딸기 -11937
▁창시 -11938
▁숀 -11939
▁그놈 -11940
▁서초 -11941
일으키 -11942
▁불러일으키 -11943
▁sm -11944
▁가축 -11945
▁경과 -11946
▁병단 -11947
방향 -11948
▁FB -11949
▁대용 -11950
▁전폭 -11951
▁양보 -11952
▁안드로메다 -11953
▁제원 -11954
▁Li -11955
▁so -11956
▁급식 -11957
▁춘천 -11958
▁레이첼 -11959
▁에리카 -11960
▁커터 -11961
▁키리토 -11962
▁일련 -11963
▁피에 -11964
▁오징어 -11965
▁열받 -11966
축구 -11967
▁진행자 -11968
▁국력 -11969
▁궁지 -11970
▁안성 -11971
▁투하 -11972
▁프리즘 -11973
▁해운대 -11974
▁할리우드 -11975
수스 -11976
▁리브 -11977
▁예언자 -11978
▁다단 -11979
▁도피 -11980
▁안드레 -11981
▁고산 -11982
▁대마 -11983
▁바비 -11984
▁BRV -11985
pr -11986
▁라시 -11987
▁파파 -11988
▁항아리 -11989
▁컨트롤러 -11990
▁프로모션 -11991
▁초교 -11992
테이너 -11993
▁일어서 -11994
▁메탈기어 -11995
▁껄 -11996
▁쿠시 -11997
▁호투 -11998
▁스탠다드 -11999
▁튜너 -12000
▁회화 -12001
▁회고 -12002
마침 -12003
▁우산 -12004
▁정정 -12005
▁우크라 -12006
▁이나즈마 -12007
▁뮬 -12008
놀이 -12009
▁브릿지 -12010
▁조력자 -12011
▁양국 -12012
▁우천 -12013
▁마츠모토 -12014
▁자잘 -12015
▁Rem -12016
▁가넷 -12017
▁설비 -12018
▁연하 -12019
▁임원 -12020
▁체가 -12021
▁카지노 -12022
▁편대 -12023
▁Dis -12024
▁정확도 -12025
▁테일러 -12026
▁닫히 -12027
▁열전 -12028
▁가급적 -12029
▁병맛 -12030
▁Blue -12031
▁메가트론 -12032
르기 -12033
▁노숙 -12034
▁유나 -12035
▁때마침 -12036
▁샤이닝 -12037
▁코파 -12038
▁시력 -12039
▁와우 -12040
▁153 -12041
▁1965 -12042
▁Power -12043
▁블래스트 -12044
BM -12045
ert -12046
▁바하 -12047
▁무작정 -12048
▁아테네 -12049
▁체크카드 -12050
▁천공 -12051
▁포효 -12052
▁Fi -12053
▁보리 -12054
▁덩크 -12055
클럽 -12056
▁피치 -12057
비우스 -12058
▁XY -12059
▁떄 -12060
▁주범 -12061
▁초코 -12062
▁개드립 -12063
▁무제한 -12064
▁프론트 -12065
▁Good -12066
▁열람 -12067
홍철 -12068
▁FL -12069
▁177 -12070
▁들이대 -12071
▁로그인 -12072
▁Champ -12073
▁천적 -12074
▁군함 -12075
▁로딩 -12076
▁지표 -12077
▁스위트 -12078
차례 -12079
ㄴㅈㅓㅇ -12080
▁솔리드 -12081
▁로제 -12082
▁야외 -12083
이프 -12084
▁하드코어 -12085
메스 -12086
▁은혜 -12087
▁칠레 -12088
▁히로유키 -12089
▁증세 -12090
▁스타크 -12091
▁복면 -12092
▁갈라 -12093
▁쇠퇴 -12094
▁나기사 -12095
▁둘러싸이 -12096
▁논하 -12097
▁주고받 -12098
▁양키스 -12099
▁깁 -12100
ㄴㅡ -12101
▁카디 -12102
▁오버로드 -12103
포드 -12104
▁na -12105
▁외롭 -12106
▁주거 -12107
▁제휴 -12108
▁프런트 -12109
▁사로잡히 -12110
▁귀도 -12111
▁도리어 -12112
ㅇㅓㄴㅈㅓㅇ -12113
▁예지 -12114
▁총격 -12115
게임넷 -12116
▁온게임넷 -12117
▁뇌물 -12118
▁마도사 -12119
▁목적지 -12120
▁두근 -12121
▁증기 -12122
▁창업 -12123
▁바사 -12124
▁대주 -12125
▁체리 -12126
▁우체국 -12127
▁건전 -12128
▁여의도 -12129
▁요하 -12130
▁공과 -12131
▁영진 -12132
▁Pv -12133
▁기총 -12134
▁도청 -12135
▁메스 -12136
▁바니 -12137
▁슬리 -12138
▁응하 -12139
▁넵튠 -12140
▁바그 -12141
▁ALL -12142
행위 -12143
▁SO -12144
▁휴일 -12145
▁충청남도 -12146
▁자취 -12147
▁쓸데없 -12148
OID -12149
▁코시 -12150
▁주파수 -12151
▁교향곡 -12152
관총 -12153
▁생물학 -12154
▁용감 -12155
▁얀데레 -12156
▁경매 -12157
▁여권 -12158
▁저격총 -12159
▁발상 -12160
▁리마 -12161
▁진에 -12162
▁사용법 -12163
▁ME -12164
라이즈 -12165
▁타쿠미 -12166
▁BA -12167
▁소행 -12168
▁쏠쏠 -12169
▁STR -12170
▁수작 -12171
▁mar -12172
이센 -12173
▁Sm -12174
▁민원 -12175
▁집정 -12176
▁우루과이 -12177
왜란 -12178
▁르네 -12179
▁완전체 -12180
▁%. -12181
▁동창 -12182
▁개연 -12183
▁천계 -12184
▁프리스트 -12185
▁원제 -12186
▁해수 -12187
▁임진왜란 -12188
▁적색 -12189
석민 -12190
▁소극 -12191
토리얼 -12192
▁방황 -12193
▁서장 -12194
▁레이나 -12195
▁상표 -12196
▁그리드 -12197
▁부대원 -12198
ART -12199
▁재직 -12200
▁코이 -12201
라이나 -12202
▁Play -12203
▁종사 -12204
tr -12205
▁강유 -12206
▁야당 -12207
▁출석 -12208
▁튜토리얼 -12209
▁글러브 -12210
▁열기 -12211
▁슬로우 -12212
▁방정 -12213
▁탄핵 -12214
▁스파르타 -12215
▁260 -12216
▁맥도 -12217
▁GDP -12218
▁눈빛 -12219
▁미정 -12220
▁박재 -12221
▁산악 -12222
▁빼돌리 -12223
부대 -12224
▁기성 -12225
▁서드 -12226
▁생산량 -12227
▁기미 -12228
▁박경 -12229
▁병살 -12230
▁엑소 -12231
▁폴더 -12232
▁단백 -12233
▁횡단 -12234
▁북유럽 -12235
▁경량 -12236
▁입체 -12237
▁카스미 -12238
▁프론티어 -12239
▁상속 -12240
▁지망 -12241
▁??? -12242
▁러셀 -12243
▁바이스 -12244
▁EMP -12245
▁양측 -12246
▁포식 -12247
▁미츠루 -12248
히사 -12249
▁초사 -12250
▁사슴 -12251
▁미시 -12252
▁갭 -12253
▁카타르 -12254
▁학계 -12255
▁아니하 -12256
▁적진 -12257
같이 -12258
▁청량 -12259
스트로 -12260
▁샌프란 -12261
▁샌프란시스코 -12262
마당 -12263
▁다이어트 -12264
▁헤매 -12265
▁괄 -12266
▁금화 -12267
▁첨단 -12268
▁프리즈 -12269
▁리트 -12270
▁아의 -12271
▁야하 -12272
▁합하 -12273
▁적시타 -12274
버릇 -12275
▁송도 -12276
▁친정 -12277
▁심심찮 -12278
▁후유증 -12279
▁휩싸이 -12280
▁650 -12281
토르 -12282
내리 -12283
▁감전 -12284
▁정벌 -12285
▁팀장 -12286
▁호기심 -12287
▁독재자 -12288
무장 -12289
▁내수 -12290
▁다이나 -12291
ERS -12292
얼거리 -12293
▁어리석 -12294
▁밀란 -12295
▁페더 -12296
▁막아 -12297
▁다툼 -12298
▁나데 -12299
▁마커 -12300
▁송출 -12301
▁137 -12302
25 -12303
▁아카이 -12304
▁돌격소총 -12305
▁지문 -12306
▁WCS -12307
▁개더링 -12308
▁Dance -12309
▁실명 -12310
▁당당히 -12311
▁연금술 -12312
숨에 -12313
장이 -12314
▁마더 -12315
▁지령 -12316
▁단숨에 -12317
▁루시퍼 -12318
▁토네이도 -12319
▁선대 -12320
▁소심 -12321
▁엘더스 -12322
▁화나 -12323
▁Over -12324
▁동지 -12325
▁늦추 -12326
▁만화책 -12327
▁부메 -12328
▁원천 -12329
▁유목 -12330
▁레몬 -12331
▁작살 -12332
▁초토 -12333
▁매수 -12334
의사 -12335
▁부츠 -12336
▁크루즈 -12337
▁텔레비전 -12338
▁157 -12339
▁충공 -12340
▁서독 -12341
▁속옷 -12342
▁적발 -12343
▁부메랑 -12344
▁카르마 -12345
▁원종 -12346
버드 -12347
▁154 -12348
▁179 -12349
▁대사관 -12350
air -12351
▁Ac -12352
▁CO -12353
▁슈타인 -12354
▁부당 -12355
▁중성 -12356
▁Str -12357
페르 -12358
베르트 -12359
▁Ke -12360
▁경감 -12361
▁토트넘 -12362
▁대문 -12363
▁메꾸 -12364
▁세르비아 -12365
저우 -12366
▁정장 -12367
▁내야수 -12368
▁미니언 -12369
▁광신 -12370
▁파산 -12371
▁164 -12372
▁확연히 -12373
대기 -12374
틀링 -12375
▁스윕 -12376
▁취직 -12377
▁공립 -12378
▁금곡 -12379
▁황무지 -12380
▁카즈키 -12381
▁금서 -12382
▁독서 -12383
▁섬유 -12384
▁미성년자 -12385
▁사임 -12386
▁박상 -12387
▁회귀 -12388
▁공동체 -12389
▁연습생 -12390
▁장기간 -12391
▁징병 -12392
▁무전 -12393
무실 -12394
▁생사 -12395
▁Music -12396
oot -12397
▁단간 -12398
▁미디 -12399
▁텔레콤 -12400
라이어 -12401
▁Ep -12402
▁출몰 -12403
▁왼팔 -12404
▁Kn -12405
▁삽화 -12406
▁우메 -12407
▁129 -12408
▁DDR -12409
▁입맛 -12410
▁가출 -12411
ittle -12412
려드 -12413
▁유서 -12414
▁고장나 -12415
▁뫼 -12416
▁양주 -12417
▁어처 -12418
▁최우수 -12419
ern -12420
▁기판 -12421
▁표식 -12422
▁친일 -12423
▁금기 -12424
▁쇼트 -12425
▁드리프트 -12426
▁225 -12427
▁파워레인저 -12428
▁편안 -12429
▁광범 -12430
▁직무 -12431
▁트리스 -12432
▁팀킬 -12433
▁와타루 -12434
▁맴 -12435
▁민영 -12436
매치 -12437
▁기밀 -12438
▁잖 -12439
▁NL -12440
▁돌아보 -12441
▁데스매치 -12442
▁빡세 -12443
▁창병 -12444
▁설득력 -12445
▁현명 -12446
▁양호 -12447
레트 -12448
▁심리학 -12449
▁본국 -12450
▁오리온 -12451
▁교란 -12452
산물 -12453
▁NHK -12454
▁만료 -12455
▁씁 -12456
▁공병 -12457
▁괴도 -12458
▁은혼 -12459
▁초식 -12460
▁오반 -12461
▁콘티 -12462
▁아이리 -12463
▁김형 -12464
▁세간 -12465
▁폭사 -12466
▁한심 -12467
▁망령 -12468
▁택배 -12469
▁전용기 -12470
▁콜라보레이션 -12471
▁대각 -12472
▁NS -12473
▁툼 -12474
▁바시 -12475
▁퍼부 -12476
▁''' -12477
▁쓸모없 -12478
▁서점 -12479
▁켄타 -12480
▁지역구 -12481
▁ㄱㅡ -12482
▁수복 -12483
▁우로 -12484
▁최영 -12485
▁쐐 -12486
▁내걸 -12487
▁발간 -12488
▁텍스 -12489
▁만화가 -12490
AG -12491
셔츠 -12492
▁왠만 -12493
▁손바닥 -12494
▁네타 -12495
▁저상버스 -12496
▁홀딩 -12497
▁순진 -12498
▁천황 -12499
▁내륙 -12500
▁때우 -12501
▁타나 -12502
▁강적 -12503
▁역과 -12504
▁윌리엄스 -12505
▁두부 -12506
▁Pre -12507
▁개틀링 -12508
▁선진국 -12509
▁펙 -12510
▁>, -12511
▁고령 -12512
▁북방 -12513
▁불멸 -12514
▁젊은이 -12515
▁Comm -12516
▁솔라 -12517
천역 -12518
▁어처구니 -12519
▁그닥 -12520
▁티탄 -12521
▁스코프 -12522
▁중령 -12523
▁광범위 -12524
▁1800 -12525
▁글래 -12526
▁박격 -12527
▁평민 -12528
▁후궁 -12529
▁크리스티 -12530
▁걸스 -12531
바위 -12532
▁비범 -12533
▁Korea -12534
▁변질 -12535
▁기타리스트 -12536
▁서정 -12537
▁256 -12538
hammer -12539
▁뽐내 -12540
▁밉 -12541
▁RC -12542
▁리액 -12543
▁장동민 -12544
▁포지 -12545
▁돌아서 -12546
▁산책 -12547
▁허리케인 -12548
▁똘 -12549
▁예명 -12550
▁카자마 -12551
▁모호 -12552
oss -12553
▁방벽 -12554
▁유행어 -12555
▁클로즈 -12556
▁MR -12557
▁대진 -12558
▁포토 -12559
▁이승엽 -12560
▁에덴 -12561
▁좌표 -12562
▁FR -12563
▁곡선 -12564
▁End -12565
마츠 -12566
▁욕하 -12567
▁육박 -12568
▁진료 -12569
▁사이언 -12570
▁핵무기 -12571
ield -12572
▁알아듣 -12573
▁베이스볼 -12574
▁백미 -12575
▁하와이 -12576
▁공익 -12577
▁서커스 -12578
ENT -12579
▁낙인 -12580
▁라이터 -12581
▁재위 -12582
▁화수 -12583
동원 -12584
▁Leg -12585
▁out -12586
▁칙 -12587
아라 -12588
▁범행 -12589
▁케이트 -12590
▁가솔 -12591
▁김명 -12592
▁검은색 -12593
▁충성심 -12594
▁파장 -12595
▁아란 -12596
▁134 -12597
▁139 -12598
▁쿄스케 -12599
자카 -12600
▁불사조 -12601
▁마차 -12602
▁자진 -12603
▁코지마 -12604
▁목재 -12605
▁Life -12606
▁스냅 -12607
RAM -12608
▁LCD -12609
eng -12610
▁색채 -12611
▁신디 -12612
▁점거 -12613
▁163 -12614
▁VOC -12615
▁EXH -12616
▁중사 -12617
결승 -12618
▁견인 -12619
▁136 -12620
▁사토시 -12621
슬러 -12622
edia -12623
평균 -12624
▁999 -12625
▁가창력 -12626
▁기관차 -12627
▁작아지 -12628
▁Gold -12629
외선 -12630
▁JC -12631
▁첫날 -12632
▁yout -12633
▁트린 -12634
레미 -12635
▁설사 -12636
▁잠그 -12637
▁숙이 -12638
▁스님 -12639
▁정계 -12640
▁헛소리 -12641
▁Cy -12642
▁거유 -12643
▁모나 -12644
▁살피 -12645
▁분자 -12646
▁BASIC -12647
▁앙쥬 -12648
▁진작 -12649
▁176 -12650
▁선풍 -12651
▁강성 -12652
▁오미 -12653
▁man -12654
▁충공깽 -12655
▁대여 -12656
▁방과 -12657
▁엘소드 -12658
▁협의 -12659
▁173 -12660
▁단말기 -12661
▁자연스레 -12662
IST -12663
▁XXX -12664
▁뉴타입 -12665
▁피리 -12666
▁UFO -12667
▁노홍철 -12668
▁헌신 -12669
▁무빙 -12670
▁지독 -12671
▁하리 -12672
▁경인 -12673
▁토탈 -12674
▁하자드 -12675
ek -12676
▁바트 -12677
▁무고 -12678
▁167 -12679
▁나츠키 -12680
▁142 -12681
▁토우마 -12682
리에 -12683
▁애프터 -12684
▁XP -12685
▁MT -12686
▁펄스 -12687
▁선곡 -12688
▁즉각 -12689
사우 -12690
▁초딩 -12691
▁이스터 -12692
▁전라북도 -12693
inc -12694
▁MD -12695
▁까먹 -12696
▁전전 -12697
▁에우 -12698
▁SW -12699
▁카가 -12700
▁환각 -12701
▁꺾이 -12702
▁존속 -12703
▁SG -12704
▁뒤덮 -12705
▁}{ -12706
▁스왑 -12707
러나오 -12708
▁양아치 -12709
▁대승 -12710
▁라자 -12711
▁초선 -12712
▁헬스 -12713
▁램프 -12714
▁로마자 -12715
▁집정관 -12716
▁강행 -12717
▁초고 -12718
▁테크노 -12719
▁co -12720
▁왕좌 -12721
▁포르노 -12722
▁더비 -12723
▁6000 -12724
▁어지간히 -12725
▁고양시 -12726
▁Summer -12727
▁경전철 -12728
러드 -12729
▁단백질 -12730
▁세츠나 -12731
무니 -12732
▁신공 -12733
▁충북 -12734
▁경순 -12735
▁루리웹 -12736
▁...... -12737
▁강변 -12738
▁부추 -12739
▁손녀 -12740
▁용맹 -12741
미스 -12742
▁키워드 -12743
▁후반전 -12744
▁책략 -12745
irst -12746
▁149 -12747
▁말소 -12748
▁위탁 -12749
받침 -12750
범죄 -12751
▁야드 -12752
▁시노부 -12753
▁케로로 -12754
▁파고들 -12755
▁기획사 -12756
▁수리검 -12757
▁수원시 -12758
▁국사 -12759
▁행태 -12760
▁뒤집히 -12761
▁자크 -12762
거진 -12763
▁OR -12764
▁격리 -12765
▁로자 -12766
▁애드 -12767
▁380 -12768
▁미지수 -12769
질기 -12770
▁에스파 -12771
▁IDOLM -12772
수아 -12773
카스 -12774
▁백신 -12775
▁본드 -12776
▁영창 -12777
▁왕따 -12778
▁청산 -12779
▁끈질기 -12780
▁아치 -12781
▁프레데 -12782
▁요미우리 -12783
▁서두르 -12784
▁고베 -12785
▁정거 -12786
▁퍼니 -12787
▁천연가스 -12788
서야 -12789
▁페달 -12790
▁행선 -12791
▁제멋대로 -12792
▁권능 -12793
▁뷰티 -12794
▁여사 -12795
▁수군 -12796
▁수평 -12797
▁캐서 -12798
▁King -12799
▁번트 -12800
▁관제 -12801
▁1961 -12802
용차 -12803
ual -12804
▁AG -12805
gain -12806
운전 -12807
▁박해 -12808
▁살인마 -12809
제국 -12810
YP -12811
▁흑룡 -12812
비언 -12813
▁남동 -12814
▁미쓰 -12815
▁총괄 -12816
▁위화감 -12817
▁다인 -12818
▁은밀 -12819
세데스 -12820
▁막바지 -12821
▁메르세데스 -12822
문트 -12823
▁단선 -12824
▁스퍼 -12825
▁하부 -12826
▁피스트 -12827
▁쳐내 -12828
▁버금 -12829
▁지자 -12830
▁UI -12831
▁강판 -12832
▁특공대 -12833
▁판본 -12834
▁학창 -12835
▁..' -12836
▁파키스탄 -12837
▁ONE -12838
▁위나라 -12839
던트 -12840
▁성체 -12841
▁튀기 -12842
▁류현진 -12843
▁Win -12844
▁유명세 -12845
데기 -12846
패드 -12847
▁봉황 -12848
▁키퍼 -12849
▁143 -12850
▁입술 -12851
▁전년 -12852
▁회견 -12853
▁완수 -12854
▁전교 -12855
▁디비전 -12856
토미 -12857
▁멜론 -12858
▁아홉 -12859
▁틀어지 -12860
준혁 -12861
▁노이 -12862
▁옐로 -12863
▁한숨 -12864
▁댄서 -12865
▁가치관 -12866
▁어린애 -12867
▁가차 -12868
▁표방 -12869
▁게리 -12870
▁깊숙 -12871
▁원격 -12872
▁이안 -12873
▁스티커 -12874
▁치부 -12875
▁뢰 -12876
▁영분 -12877
OO -12878
aj -12879
▁바오 -12880
▁상회 -12881
▁기와 -12882
▁정중 -12883
▁현존 -12884
▁헤븐 -12885
▁Can -12886
▁어비스 -12887
▁그리스어 -12888
▁무언 -12889
▁타케루 -12890
▁타츠야 -12891
▁무상 -12892
▁이과 -12893
▁기마 -12894
▁세나 -12895
▁VOCAL -12896
▁역학 -12897
▁캐서린 -12898
▁코우지 -12899
▁오리지날 -12900
미츠 -12901
▁계보 -12902
▁황태자 -12903
▁포럼 -12904
▁돌려보내 -12905
▁경의 -12906
▁마누 -12907
▁첨가 -12908
▁u -12909
▁유노 -12910
▁차종 -12911
▁리우 -12912
▁조형 -12913
▁인내 -12914
▁정거장 -12915
▁리히 -12916
크리트 -12917
▁키메라 -12918
▁사파이어 -12919
▁수고 -12920
▁제비 -12921
▁노려보 -12922
▁봉기 -12923
▁선형 -12924
▁청색 -12925
▁백색 -12926
▁진공 -12927
▁표본 -12928
▁한스 -12929
▁진가 -12930
▁휴스턴 -12931
령관 -12932
툭튀 -12933
▁테츠야 -12934
▁쉘 -12935
▁흑백 -12936
▁준장 -12937
▁카논 -12938
▁Out -12939
▁This -12940
▁미끄러지 -12941
yn -12942
▁Vo -12943
▁따돌리 -12944
▁프랑크 -12945
▁아제 -12946
▁페니 -12947
▁현직 -12948
▁오피스 -12949
▁커맨더 -12950
▁단신 -12951
▁백룡 -12952
먹이 -12953
▁골리 -12954
▁속공 -12955
▁갑툭튀 -12956
▁부풀 -12957
▁카에 -12958
▁합창 -12959
▁친위대 -12960
▁타시 -12961
▁물려주 -12962
▁본문 -12963
ube -12964
▁시동 -12965
▁걸작 -12966
▁단조 -12967
▁이분 -12968
▁크래 -12969
▁Int -12970
▁1942 -12971
▁What -12972
하이 -12973
▁무의 -12974
▁서지 -12975
▁다짐 -12976
▁무효화 -12977
▁커브 -12978
▁SEED -12979
▁아멜 -12980
▁잔당 -12981
IV -12982
▁우사 -12983
▁프로이센 -12984
▁베니 -12985
▁실무 -12986
▁최전 -12987
▁여하 -12988
▁추월 -12989
▁매진 -12990
▁빡빡 -12991
▁거리표 -12992
▁사마의 -12993
▁세션 -12994
▁죄송 -12995
▁1943 -12996
▁두께 -12997
▁Da -12998
▁어워드 -12999
▁후려 -13000
▁우시 -13001
▁마리사 -13002
▁아카기 -13003
▁분사 -13004
▁미야자키 -13005
▁OPS -13006
▁플러그 -13007
타르 -13008
▁세이지 -13009
▁tvN -13010
▁바바 -13011
▁속박 -13012
▁츠루 -13013
조작 -13014
▁육지 -13015
▁가든 -13016
▁어중간 -13017
▁모탈 -13018
▁빨강 -13019
▁애교 -13020
▁배수량 -13021
▁이터널 -13022
▁각색 -13023
▁치프 -13024
▁끝판 -13025
▁리젠 -13026
▁유지비 -13027
▁승부조작 -13028
▁난폭 -13029
▁섬세 -13030
▁지아 -13031
▁스크립트 -13032
▁제이크 -13033
▁대두 -13034
▁등교 -13035
▁MASTER -13036
▁심포 -13037
▁121 -13038
ady -13039
▁Live -13040
▁오마주 -13041
▁의미심장 -13042
▁자발 -13043
▁활주 -13044
▁뭣 -13045
레스트 -13046
▁사이오 -13047
▁설계도 -13048
▁재팬 -13049
▁판과 -13050
▁신시 -13051
▁씁쓸 -13052
▁피어 -13053
▁레미 -13054
▁디테일 -13055
▁소진 -13056
▁ㅇㅜㅁ -13057
▁고독 -13058
▁교훈 -13059
ATION -13060
▁TD -13061
▁안보 -13062
▁재난 -13063
▁미라이 -13064
▁사카모토 -13065
▁교주 -13066
▁대부 -13067
▁Hard -13068
시계 -13069
▁장원 -13070
▁뾰 -13071
▁가가 -13072
▁초중 -13073
▁Act -13074
▁대머리 -13075
▁치중 -13076
▁매거진 -13077
▁콘크리트 -13078
▁연희 -13079
▁석사 -13080
▁네모 -13081
▁선구 -13082
▁시르 -13083
튀기 -13084
▁김도 -13085
let -13086
▁성녀 -13087
▁왕건 -13088
▁처단 -13089
작전 -13090
▁무성 -13091
▁강팀 -13092
riend -13093
▁잉크 -13094
전대 -13095
▁구독 -13096
▁세가 -13097
ush -13098
▁격돌 -13099
▁관대 -13100
▁요동 -13101
▁재임 -13102
▁칭송 -13103
▁뻥튀기 -13104
▁매트릭스 -13105
▁경장 -13106
▁관악 -13107
▁신축 -13108
로리 -13109
▁배지 -13110
▁서인 -13111
▁득표율 -13112
▁로스앤 -13113
▁로스앤젤레스 -13114
▁튜버 -13115
▁노브 -13116
▁당분 -13117
▁폭발물 -13118
iew -13119
▁독설 -13120
▁되려 -13121
▁174 -13122
미사 -13123
킨스 -13124
▁1920 -13125
▁수다 -13126
▁언행 -13127
▁매그넘 -13128
▁군산 -13129
▁수녀 -13130
▁십상 -13131
▁흘러나오 -13132
▁양면 -13133
▁괴멸 -13134
▁수소 -13135
▁문화재 -13136
▁인벤토리 -13137
▁역관 -13138
테나 -13139
▁능욕 -13140
▁이속 -13141
▁좁히 -13142
▁혜성 -13143
▁배틀필드 -13144
중국 -13145
▁시세 -13146
▁음모론 -13147
eet -13148
▁유우야 -13149
▁가물 -13150
UC -13151
▁베드 -13152
▁욕구 -13153
▁루팡 -13154
▁조비 -13155
베르토 -13156
▁자신감 -13157
▁바늘 -13158
▁엄지 -13159
▁205 -13160
▁쇼핑몰 -13161
▁잠재력 -13162
▁ㄹㅏㄹㄲㅏ -13163
▁콥 -13164
▁비약 -13165
bps -13166
ational -13167
▁아역 -13168
▁호세 -13169
▁나우 -13170
▁볼프 -13171
▁이어인 -13172
▁이제동 -13173
▁크리드 -13174
▁소용돌이 -13175
▁이상민 -13176
▁워너 -13177
▁BF -13178
▁섭외 -13179
▁송병 -13180
▁호그 -13181
▁아프가 -13182
▁피에르 -13183
▁출세 -13184
rain -13185
▁나오키 -13186
▁라이토 -13187
▁누님 -13188
▁어제 -13189
▁엑스맨 -13190
ORE -13191
▁버금가 -13192
▁준결승 -13193
▁EA -13194
▁TG -13195
▁성검 -13196
▁겉보기 -13197
▁족장 -13198
▁조인 -13199
ESS -13200
▁난해 -13201
▁반칙 -13202
▁Air -13203
조각 -13204
▁CB -13205
▁꼭두 -13206
▁부치 -13207
▁여건 -13208
▁제구 -13209
▁도호쿠 -13210
총리 -13211
▁종일 -13212
페어 -13213
▁베가스 -13214
▁표출 -13215
사이드 -13216
여지 -13217
ita -13218
▁줄곧 -13219
▁반환 -13220
▁폭동 -13221
▁난동 -13222
▁법안 -13223
▁느긋 -13224
▁다중 -13225
▁포털 -13226
▁성우진 -13227
▁1946 -13228
UE -13229
ane -13230
▁쐐기 -13231
▁유포 -13232
▁이에야스 -13233
▁솔로몬 -13234
▁자부심 -13235
▁줄줄이 -13236
▁송이 -13237
▁호대 -13238
▁작별 -13239
▁퍼스 -13240
▁히코 -13241
▁보유자 -13242
▁문헌 -13243
▁배럴 -13244
▁앙리 -13245
▁템포 -13246
니트 -13247
무진 -13248
▁박용 -13249
▁틀림 -13250
버린 -13251
▁덕택 -13252
▁늘어놓 -13253
무소 -13254
▁검도 -13255
▁레슨 -13256
▁루기 -13257
▁임페 -13258
▁평원 -13259
▁미상 -13260
▁하르 -13261
ㅇㅗㄴ -13262
▁은메달 -13263
▁아프가니스탄 -13264
▁만루 -13265
▁양념 -13266
▁언락 -13267
▁외출 -13268
▁조그 -13269
▁VOCALOID -13270
▁승기 -13271
▁밀치 -13272
▁켈리 -13273
▁Warhammer -13274
케이 -13275
▁무자비 -13276
도스 -13277
▁sc -13278
▁박격포 -13279
▁소리치 -13280
▁time -13281
▁하데스 -13282
▁즘 -13283
때로 -13284
▁거물 -13285
▁비오 -13286
▁부우 -13287
▁유쾌 -13288
▁홍대 -13289
모델 -13290
▁국물 -13291
▁웍 -13292
▁부토 -13293
▁윌슨 -13294
▁주작 -13295
▁심리전 -13296
▁꽝 -13297
▁유영 -13298
블릿 -13299
▁가네 -13300
▁병신 -13301
▁달빛 -13302
▁사병 -13303
▁동대문 -13304
▁담당자 -13305
▁왕궁 -13306
▁폭포 -13307
▁새로이 -13308
주리 -13309
▁예배 -13310
▁임페리얼 -13311
▁만세 -13312
▁총통 -13313
▁카메오 -13314
▁이신 -13315
▁역전재판 -13316
▁웨이트 -13317
▁히토미 -13318
▁되돌아가 -13319
▁여친 -13320
▁리바이 -13321
▁지지자 -13322
▁교섭 -13323
▁료마 -13324
▁데뷔작 -13325
▁도모 -13326
퍼런스 -13327
▁아부 -13328
▁겨누 -13329
▁흐리 -13330
▁빈사 -13331
▁상반기 -13332
클레스 -13333
▁Cat -13334
▁유로파 -13335
▁준공 -13336
공화국 -13337
here -13338
▁블루스 -13339
▁피라미 -13340
▁교재 -13341
▁단절 -13342
▁세토 -13343
▁졸지 -13344
ness -13345
▁츠카사 -13346
▁Hell -13347
▁각기 -13348
▁용호 -13349
제스 -13350
▁남극 -13351
▁퀄컴 -13352
▁사부 -13353
▁수락 -13354
▁부여받 -13355
▁대한항공 -13356
▁빵빵 -13357
▁벌어 -13358
▁비토 -13359
▁굴복 -13360
▁김정일 -13361
▁GR -13362
▁기한 -13363
▁랜디 -13364
▁채집 -13365
▁1941 -13366
▁` -13367
eth -13368
▁법학 -13369
▁퍼뜨리 -13370
▁q -13371
▁At -13372
▁ll -13373
▁타지 -13374
▁단거리 -13375
▁판도라 -13376
▁컨테이너 -13377
▁전류 -13378
▁킬로 -13379
▁티거 -13380
▁벵 -13381
▁김창 -13382
▁노엘 -13383
▁조제 -13384
▁팔꿈치 -13385
▁밴시 -13386
▁증후 -13387
▁Res -13388
EX -13389
소스 -13390
▁la -13391
▁불상 -13392
▁산화 -13393
▁페인트 -13394
▁싱크로 -13395
▁나날 -13396
▁내심 -13397
▁허영 -13398
▁미완 -13399
▁탈옥 -13400
▁호타 -13401
유리 -13402
▁한조 -13403
▁자본주의 -13404
▁GX -13405
▁마니 -13406
▁성균 -13407
▁진술 -13408
▁센트리 -13409
▁대제 -13410
ne -13411
▁괴로 -13412
▁킹스 -13413
▁연구실 -13414
▁자치령 -13415
ret -13416
▁피곤 -13417
▁학회 -13418
▁이동하 -13419
▁손아 -13420
▁파업 -13421
itch -13422
▁심연 -13423
▁진형 -13424
▁Sound -13425
▁빅터 -13426
▁작렬 -13427
▁치아 -13428
▁도미니 -13429
▁성균관 -13430
▁유스케 -13431
▁총탄 -13432
▁비정 -13433
▁익스트림 -13434
▁래스 -13435
▁든 -13436
아아 -13437
▁id -13438
▁벤트 -13439
▁유년 -13440
▁스탠스 -13441
컨대 -13442
▁김택용 -13443
▁삼거리 -13444
▁창원시 -13445
▁아까 -13446
▁주군 -13447
▁물들 -13448
▁이니셜 -13449
▁내공 -13450
▁만두 -13451
▁추석 -13452
▁명인 -13453
▁염소 -13454
▁이은 -13455
▁베라 -13456
▁레베 -13457
▁부녀 -13458
▁마음껏 -13459
▁단연 -13460
▁듀엣 -13461
▁야기 -13462
▁보단 -13463
▁역병 -13464
▁이복 -13465
▁대장군 -13466
▁우려먹 -13467
신기 -13468
▁유엔 -13469
▁미타 -13470
▁레볼루션 -13471
▁늘어지 -13472
▁오로라 -13473
▁참모총장 -13474
▁신원 -13475
▁코브라 -13476
▁사바 -13477
▁직감 -13478
▁지지율 -13479
무늬 -13480
▁알코 -13481
▁듬 -13482
▁장래 -13483
▁자수 -13484
▁퇴마 -13485
▁포고 -13486
▁SKE -13487
▁동메달 -13488
코스 -13489
▁사안 -13490
▁어설트 -13491
▁도도 -13492
사우루스 -13493
▁불러들이 -13494
▁리베 -13495
▁차세대 -13496
▁조달 -13497
▁아울러 -13498
▁미련 -13499
▁태연 -13500
▁night -13501
제품 -13502
▁들통 -13503
▁옥타 -13504
▁유키노 -13505
▁만류 -13506
▁셀프 -13507
▁Rec -13508
▁대상자 -13509
▁휩쓸리 -13510
na -13511
▁항우 -13512
▁신노스케 -13513
열차 -13514
▁서원 -13515
▁시발 -13516
럭스 -13517
▁대적 -13518
▁147 -13519
▁해저 -13520
▁조장 -13521
▁세이야 -13522
▁직관 -13523
▁백수 -13524
▁연루 -13525
▁김정은 -13526
▁떠들 -13527
▁빌미 -13528
▁채소 -13529
▁제너럴 -13530
▁Hy -13531
▁시구 -13532
▁적료 -13533
▁146 -13534
▁과실 -13535
▁사육 -13536
더스트 -13537
▁가주 -13538
▁후세 -13539
▁후안 -13540
▁경쟁력 -13541
▁증후군 -13542
▁인민공화국 -13543
▁ㄲㅗ -13544
▁파드 -13545
▁진흥 -13546
IGHT -13547
▁김영삼 -13548
▁오디 -13549
▁슈타 -13550
▁할당 -13551
▁와이드 -13552
eath -13553
▁Big -13554
▁스케치 -13555
▁상원 -13556
▁편제 -13557
▁피츠 -13558
▁익스프레스 -13559
▁이변 -13560
▁크림슨 -13561
ㄴㅔ -13562
▁ㅅㅏ -13563
▁서태지 -13564
▁방대 -13565
▁집결 -13566
▁미팅 -13567
▁차남 -13568
▁특허 -13569
▁복종 -13570
▁몽땅 -13571
▁화랑 -13572
▁org -13573
▁낙원 -13574
▁민정 -13575
▁뿌요 -13576
▁성채 -13577
아티아 -13578
▁크로아티아 -13579
▁갈래 -13580
▁근래 -13581
▁Heav -13582
▁플레이트 -13583
▁기겁 -13584
교육 -13585
▁노스케 -13586
▁그지 -13587
▁노후 -13588
▁1600 -13589
▁스트레이트 -13590
▁싱어 -13591
▁교감 -13592
▁빼놓 -13593
▁클립 -13594
▁스펙터 -13595
▁서면 -13596
▁난전 -13597
▁매개 -13598
▁자문 -13599
▁GK -13600
▁제각 -13601
▁222 -13602
▁Des -13603
▁고원 -13604
▁피니시 -13605
▁술탄 -13606
▁아유미 -13607
버거 -13608
▁오클 -13609
▁가솔린 -13610
▁미라클 -13611
▁동참 -13612
▁고모 -13613
▁정크 -13614
▁like -13615
▁일직 -13616
▁진군 -13617
▁RAM -13618
▁부록 -13619
▁증원 -13620
▁news -13621
asy -13622
▁의리 -13623
모니 -13624
▁상류 -13625
▁Mod -13626
▁Battle -13627
▁대담 -13628
▁맥시 -13629
▁회자 -13630
▁페르난 -13631
▁1954 -13632
▁정종 -13633
▁하코 -13634
▁가왕 -13635
▁마토 -13636
▁북극 -13637
▁연안 -13638
▁체급 -13639
▁트리오 -13640
▁조류 -13641
▁체이스 -13642
▁휴전 -13643
▁204 -13644
▁뒷받침 -13645
여행 -13646
▁스탠딩 -13647
수수 -13648
포스 -13649
▁스킵 -13650
▁태세 -13651
ny -13652
▁구치 -13653
캐스트 -13654
▁구미호 -13655
▁티저 -13656
▁헤지 -13657
▁166 -13658
고쿠 -13659
▁아지트 -13660
▁무찌 -13661
▁위생 -13662
▁재혼 -13663
▁Che -13664
OK -13665
▁박준 -13666
▁주성 -13667
방사기 -13668
▁전투복 -13669
▁1958 -13670
▁인피니트 -13671
▁키사라기 -13672
▁화염방사기 -13673
▁스루 -13674
▁저희 -13675
▁차관 -13676
ven -13677
▁결별 -13678
ORM -13679
▁과부 -13680
▁극찬 -13681
▁명왕 -13682
▁유교 -13683
▁지름 -13684
▁캐롤 -13685
▁행각 -13686
▁정의당 -13687
▁옌 -13688
▁천도 -13689
▁클락 -13690
▁좆 -13691
르슈 -13692
린스 -13693
▁미도 -13694
▁유배 -13695
▁호우 -13696
▁fl -13697
▁구세 -13698
▁시오리 -13699
르드 -13700
▁친근 -13701
▁밸리 -13702
▁커리 -13703
▁탤 -13704
▁동거 -13705
▁득실 -13706
▁인프라 -13707
▁한국군 -13708
▁태블릿 -13709
피온 -13710
▁등산 -13711
▁아킬 -13712
▁츠바키 -13713
▁노마 -13714
▁칼럼 -13715
▁명장면 -13716
▁대잠 -13717
▁배분 -13718
▁향기 -13719
▁다정 -13720
▁웨일 -13721
▁럼블 -13722
▁온화 -13723
▁인즈 -13724
▁간편 -13725
▁박병 -13726
▁전산 -13727
▁협약 -13728
▁동유럽 -13729
arm -13730
▁우이 -13731
▁트림 -13732
▁세레나 -13733
▁타협 -13734
▁들려오 -13735
틱스 -13736
▁난투 -13737
▁변종 -13738
▁영락 -13739
사의 -13740
▁ㅋㅋ -13741
▁SSR -13742
▁원어 -13743
티넘 -13744
ALL -13745
▁호노카 -13746
▁플래티넘 -13747
▁엠블렘 -13748
▁일부분 -13749
▁DB -13750
▁수전 -13751
▁를 -13752
저트 -13753
▁승하 -13754
ouse -13755
▁반갑 -13756
▁베른 -13757
▁상정 -13758
▁손수 -13759
▁특출 -13760
▁로테이션 -13761
날두 -13762
모사 -13763
▁철벽 -13764
▁부추기 -13765
▁연기자 -13766
▁1948 -13767
각시 -13768
▁SV -13769
▁공자 -13770
▁마그마 -13771
▁호날두 -13772
▁웬리 -13773
▁아이리스 -13774
▁부두 -13775
▁유감 -13776
내기 -13777
벨트 -13778
▁치타 -13779
▁대각선 -13780
▁기복 -13781
▁두텁 -13782
▁매칭 -13783
무스 -13784
방식 -13785
타리 -13786
▁누마 -13787
▁대파 -13788
▁한가 -13789
파니 -13790
▁동포 -13791
▁이창 -13792
▁무찌르 -13793
▁대입 -13794
▁플라잉 -13795
코프 -13796
▁마테 -13797
▁하반신 -13798
▁자위 -13799
▁진흙 -13800
▁8000 -13801
▁KD -13802
▁병영 -13803
▁선체 -13804
▁아이젠 -13805
▁뒤틀리 -13806
렉트 -13807
▁일선 -13808
▁절묘 -13809
▁짝퉁 -13810
▁이가 -13811
▁회복력 -13812
이팅 -13813
▁쇼군 -13814
▁진과 -13815
▁평창 -13816
▁제네시스 -13817
ru -13818
▁츳 -13819
▁퍼시픽 -13820
▁레트 -13821
▁청동 -13822
▁1949 -13823
▁프라이즈 -13824
바퀴 -13825
▁소중히 -13826
▁범주 -13827
▁운임 -13828
▁정신기 -13829
▁예리 -13830
▁용품 -13831
▁종자 -13832
▁알프레 -13833
▁갑판 -13834
▁넘쳐나 -13835
▁Sing -13836
▁잔재 -13837
▁사생활 -13838
이인 -13839
▁안도 -13840
▁영리 -13841
겨지 -13842
곡동 -13843
▁라트 -13844
▁프렌즈 -13845
▁활주로 -13846
▁유추 -13847
▁참패 -13848
▁but -13849
▁소음기 -13850
▁잽 -13851
▁액트 -13852
▁올라서 -13853
▁선천 -13854
▁에노 -13855
▁런닝맨 -13856
▁자의 -13857
▁목요일 -13858
▁불가사의 -13859
▁엠파이어 -13860
▁석화 -13861
▁바실 -13862
▁발트 -13863
▁직계 -13864
▁사단장 -13865
따르 -13866
권자 -13867
러기 -13868
▁동급생 -13869
▁가메 -13870
▁세이부 -13871
▁동맹군 -13872
영수 -13873
▁외환 -13874
▁무어 -13875
▁생몰 -13876
▁안중 -13877
▁엘리스 -13878
▁코요미 -13879
▁대강 -13880
▁아종 -13881
▁평안 -13882
칼리버 -13883
▁쌩 -13884
▁주방 -13885
▁남아공 -13886
▁카멜 -13887
▁BBC -13888
데르 -13889
▁수뇌 -13890
▁육식 -13891
▁귀중 -13892
▁다나카 -13893
▁마운드 -13894
▁화장품 -13895
회장 -13896
▁푸른 -13897
▁책임자 -13898
▁카트리 -13899
▁박진 -13900
▁하임 -13901
▁하쿠 -13902
▁리포트 -13903
▁동명이인 -13904
▁걸어오 -13905
ari -13906
▁예하 -13907
▁음양 -13908
▁랫 -13909
링크 -13910
▁부과 -13911
▁사츠키 -13912
▁Edition -13913
▁뛰어다니 -13914
혁명 -13915
ina -13916
▁~' -13917
▁탈것 -13918
ount -13919
▁노선도 -13920
▁제네레이션 -13921
지원 -13922
토록 -13923
▁금전 -13924
▁즐거 -13925
▁탄두 -13926
해군 -13927
▁욕먹 -13928
▁하야테 -13929
▁프레디 -13930
▁벽돌 -13931
▁표창 -13932
▁현행 -13933
자루 -13934
▁총대 -13935
클리 -13936
▁터무니 -13937
▁토론토 -13938
▁불가리아 -13939
▁슬쩍 -13940
▁유승 -13941
▁특이점 -13942
드래 -13943
▁기만 -13944
▁신촌 -13945
▁구애 -13946
▁지중 -13947
▁NG -13948
▁사위 -13949
▁성원 -13950
▁이문 -13951
▁치히로 -13952
ivers -13953
▁선하 -13954
▁저력 -13955
▁콘테 -13956
▁빅토리 -13957
모자 -13958
▁if -13959
▁태수 -13960
▁수비진 -13961
▁로로 -13962
▁박차 -13963
▁외야 -13964
▁충실히 -13965
▁빌라 -13966
▁일진 -13967
▁카바 -13968
▁운전자 -13969
▁하루히 -13970
▁XC -13971
▁루즈 -13972
▁매복 -13973
▁템플러 -13974
▁1900 -13975
cl -13976
▁끊이 -13977
▁마호 -13978
▁제보 -13979
▁차마 -13980
▁문의 -13981
▁경부선 -13982
▁노조미 -13983
▁Song -13984
▁과다 -13985
▁공중전 -13986
▁양동 -13987
▁교육청 -13988
마사 -13989
▁가산 -13990
▁독도 -13991
▁히이 -13992
▁베끼 -13993
▁스몰 -13994
▁체구 -13995
▁드럼매니아 -13996
▁향수 -13997
▁경전차 -13998
▁know -13999
▁뮤즈 -14000
▁340 -14001
▁기염 -14002
▁석궁 -14003
▁안나 -14004
▁조슈 -14005
▁친밀 -14006
▁알몸 -14007
▁고스란히 -14008
▁위조 -14009
▁목표물 -14010
▁쩌 -14011
▁거제 -14012
▁젤다 -14013
▁리언 -14014
▁칸나 -14015
▁모방 -14016
▁보답 -14017
▁비올 -14018
▁재해 -14019
▁점포 -14020
▁멸자 -14021
▁짱구 -14022
▁떨어트리 -14023
▁막론 -14024
투아 -14025
지대 -14026
▁알코올 -14027
▁스스 -14028
▁군단장 -14029
▁때때로 -14030
▁이따 -14031
▁카야 -14032
▁폭군 -14033
▁Run -14034
▁im -14035
▁방랑 -14036
▁키치 -14037
▁나리타 -14038
▁쥴 -14039
▁길들이 -14040
▁초전 -14041
▁배척 -14042
ters -14043
▁실험실 -14044
▁중공업 -14045
▁맏 -14046
실히 -14047
▁라운 -14048
▁RAW -14049
HN -14050
▁미토 -14051
▁설레 -14052
▁잔디 -14053
▁태고 -14054
▁소감 -14055
▁포이 -14056
▁But -14057
▁사쿠야 -14058
▁눌 -14059
use -14060
▁도메 -14061
▁퇴근 -14062
▁황족 -14063
▁부딪치 -14064
▁Magic -14065
▁카운티 -14066
천동 -14067
▁발산 -14068
▁디스코 -14069
▁신한은행 -14070
▁덫 -14071
▁체조 -14072
▁품종 -14073
▁WAR -14074
▁CEO -14075
▁데이브 -14076
고생 -14077
▁정자 -14078
▁를르슈 -14079
▁토와 -14080
▁성공회 -14081
▁안철수 -14082
공격 -14083
▁090 -14084
피어 -14085
▁원년 -14086
기업 -14087
▁국수 -14088
▁사역 -14089
▁악질 -14090
▁우아 -14091
지물 -14092
▁부합 -14093
▁신령 -14094
▁여진 -14095
▁AMD -14096
▁왕녀 -14097
▁하이브 -14098
▁'- -14099
▁서문 -14100
▁천체 -14101
▁방정식 -14102
▁프라이드 -14103
▁선방 -14104
▁송파 -14105
▁333 -14106
ars -14107
▁공약 -14108
▁코일 -14109
▁HOT -14110
▁이지스 -14111
▁료코 -14112
▁레이브 -14113
▁위저드 -14114
▁뿜어내 -14115
▁피라미드 -14116
스기 -14117
▁Ab -14118
▁란트 -14119
▁삼국사기 -14120
나들 -14121
▁소피아 -14122
▁되돌아오 -14123
▁거슬리 -14124
▁국민당 -14125
▁반자동 -14126
ke -14127
▁랄프 -14128
▁선역 -14129
▁원사 -14130
덱스 -14131
▁츠치 -14132
스톤 -14133
erm -14134
▁마키나 -14135
▁방어선 -14136
▁프리드 -14137
▁슬래 -14138
▁관용 -14139
▁섹터 -14140
▁720 -14141
▁아그 -14142
▁득표수 -14143
▁프랑스군 -14144
OUR -14145
▁성문 -14146
▁정대 -14147
▁치토 -14148
▁민족주의 -14149
▁올리버 -14150
▁송곳 -14151
▁심플 -14152
▁지난 -14153
▁RS -14154
▁보태 -14155
▁경시 -14156
▁day -14157
나시 -14158
▁침체 -14159
▁에러 -14160
바키아 -14161
▁고려대 -14162
▁선글라스 -14163
XT -14164
르바 -14165
▁휘둘 -14166
▁SNK -14167
▁경찰관 -14168
su -14169
▁든든 -14170
리케이션 -14171
▁로스터 -14172
고루 -14173
▁오컬 -14174
▁쟁탈 -14175
▁꼭두각시 -14176
▁토의 -14177
▁펜스 -14178
▁차크라 -14179
블루 -14180
▁터프 -14181
▁문성 -14182
▁랏 -14183
규어 -14184
▁헌병 -14185
매매 -14186
▁명실 -14187
▁민병대 -14188
▁홈구장 -14189
▁번거 -14190
▁좀비 -14191
단체 -14192
하하 -14193
▁에티 -14194
▁바운드 -14195
▁경위 -14196
▁로만 -14197
▁칼질 -14198
▁명령어 -14199
▁에밀리 -14200
▁동물원 -14201
▁사업자 -14202
▁아츠시 -14203
LD -14204
▁Not -14205
▁드래그 -14206
▁암흑기 -14207
▁거듭나 -14208
탕스 -14209
▁인스 -14210
▁Tri -14211
▁패거리 -14212
▁레지스탕스 -14213
위치 -14214
▁소주 -14215
▁GAM -14216
▁여명 -14217
▁칠흑 -14218
▁비운 -14219
▁요르 -14220
▁시한 -14221
▁악보 -14222
▁치밀 -14223
▁행군 -14224
ecial -14225
▁네기 -14226
▁야채 -14227
▁알파벳 -14228
▁인신 -14229
디우스 -14230
▁Grand -14231
▁뒤바 -14232
▁만악 -14233
▁원동 -14234
▁조율 -14235
EME -14236
▁음란 -14237
▁Boy -14238
▁PVP -14239
▁비룡 -14240
▁스완 -14241
▁시프 -14242
▁아델 -14243
▁월터 -14244
▁전과 -14245
▁초당 -14246
▁올라타 -14247
▁ㅁㅐ -14248
▁네메 -14249
▁체내 -14250
▁임창 -14251
▁정동 -14252
▁더스트 -14253
▁호라이 -14254
▁얌전 -14255
▁추첨 -14256
▁퍼트 -14257
▁며느리 -14258
▁야구단 -14259
▁오스카 -14260
▁가호 -14261
▁순순 -14262
▁터리 -14263
▁화판 -14264
▁격변 -14265
사람 -14266
▁첩보 -14267
▁스폰지 -14268
레오 -14269
▁허다 -14270
▁증가량 -14271
▁래쉬 -14272
▁짤막 -14273
▁양방향 -14274
▁오우거 -14275
▁비즈니스 -14276
주군 -14277
▁성추 -14278
▁카터 -14279
▁덤벼 -14280
▁진에어 -14281
▁오컬트 -14282
}} -14283
▁TF -14284
▁루카스 -14285
▁1959 -14286
▁시빌 -14287
▁탐욕 -14288
▁프랭 -14289
그러지 -14290
ship -14291
AA -14292
▁수레 -14293
▁옴니 -14294
▁울부 -14295
▁바람직 -14296
▁KC -14297
▁비평 -14298
▁슬러 -14299
▁슐 -14300
연합 -14301
▁츳코 -14302
▁격노 -14303
▁수족 -14304
▁통학 -14305
▁이탈리아어 -14306
▁코팅 -14307
▁단번에 -14308
▁빌헬 -14309
▁희생양 -14310
▁벌어들이 -14311
▁Dragon -14312
▁PO -14313
▁Baby -14314
▁압살 -14315
▁God -14316
▁명품 -14317
▁브란 -14318
▁수분 -14319
▁아르메 -14320
▁가까스로 -14321
UL -14322
▁시애 -14323
▁오드 -14324
나가와 -14325
세우스 -14326
▁개인전 -14327
▁김혜 -14328
▁픽업 -14329
▁화룡 -14330
노트 -14331
▁김희 -14332
ana -14333
rop -14334
▁실천 -14335
▁체이서 -14336
▁도마뱀 -14337
▁현질 -14338
▁결장 -14339
▁장녀 -14340
▁김인 -14341
▁승천 -14342
형제 -14343
▁슬라이딩 -14344
▁ㄴㅡㄴㄱㅜ -14345
▁농촌 -14346
▁바이퍼 -14347
▁1955 -14348
▁'~ -14349
▁마티 -14350
▁조나 -14351
▁재규어 -14352
레일리아 -14353
▁드레이크 -14354
ift -14355
▁업종 -14356
▁MAN -14357
▁볼일 -14358
▁무궁화호 -14359
▁고갈 -14360
▁디셉 -14361
▁역설 -14362
▁영조 -14363
▁청장 -14364
▁대법원 -14365
▁정몽 -14366
▁탈탈 -14367
립스 -14368
▁수법 -14369
▁해임 -14370
▁단단히 -14371
▁성폭행 -14372
▁일평균 -14373
▁크러 -14374
메리카 -14375
오피스 -14376
▁151 -14377
▁거주지 -14378
▁Beat -14379
▁창의 -14380
▁쌈 -14381
▁수요일 -14382
▁젯 -14383
▁ab -14384
▁광양 -14385
▁양파 -14386
▁입성 -14387
▁평정 -14388
▁POP -14389
▁다이너 -14390
유기 -14391
▁경희 -14392
▁광화 -14393
ys -14394
▁수아 -14395
▁OM -14396
▁뾰족 -14397
▁어휘 -14398
▁일개 -14399
▁비행선 -14400
▁시애틀 -14401
▁불운 -14402
▁지침 -14403
▁케르 -14404
라비아 -14405
▁순순히 -14406
▁그토록 -14407
▁Spr -14408
▁마사토 -14409
▁훈련소 -14410
▁1956 -14411
▁애시당초 -14412
45 -14413
ㅅㅔ -14414
elf -14415
▁억양 -14416
▁이어폰 -14417
▁토리코 -14418
▁노어 -14419
▁아득 -14420
omb -14421
▁아날 -14422
▁미카엘 -14423
▁야요이 -14424
▁악장 -14425
▁전고 -14426
▁다이브 -14427
▁가와 -14428
▁건립 -14429
둘기 -14430
▁둔화 -14431
▁뒤이 -14432
▁푸쉬 -14433
▁ㅇㅜㄹ -14434
▁아랍어 -14435
▁니즈 -14436
▁뚱뚱 -14437
베다 -14438
소니 -14439
▁강급 -14440
▁서유럽 -14441
▁아틀라스 -14442
▁엘런 -14443
▁키쿠 -14444
▁페루 -14445
▁졸업식 -14446
▁탄수 -14447
▁NAS -14448
▁오리콘 -14449
▁염동 -14450
ally -14451
▁리바운드 -14452
▁RO -14453
▁장단 -14454
▁주임 -14455
▁앞마당 -14456
투르 -14457
▁게르만 -14458
▁상대편 -14459
▁울부짖 -14460
▁온전히 -14461
▁무심 -14462
▁추기 -14463
▁교직 -14464
▁마취 -14465
▁이바 -14466
▁블라디미르 -14467
▁부러 -14468
▁일갈 -14469
▁전염병 -14470
▁남용 -14471
▁불허 -14472
▁서진 -14473
▁초계 -14474
▁ㄹㅏㅂㅅㅣ -14475
ren -14476
▁파열 -14477
▁001 -14478
▁디트로 -14479
▁페이커 -14480
▁중얼거리 -14481
▁총사령관 -14482
▁디트로이트 -14483
▁아르메니아 -14484
▁려 -14485
▁도보 -14486
▁버디 -14487
▁좀처럼 -14488
▁챌린저 -14489
▁릉 -14490
▁Es -14491
▁송구 -14492
▁김준호 -14493
벅지 -14494
▁GL -14495
▁괴이 -14496
▁산산 -14497
▁바사라 -14498
▁쇼타 -14499
▁들려주 -14500
▁카츠키 -14501
▁화질 -14502
▁페라리 -14503
▁다이렉트 -14504
▁남짓 -14505
▁앞쪽 -14506
리아스 -14507
IF -14508
▁찾아다니 -14509
▁백지 -14510
▁식인 -14511
▁제복 -14512
▁밀접 -14513
▁169 -14514
▁트레인 -14515
니지 -14516
olog -14517
슬쩍 -14518
▁Lo -14519
▁학업 -14520
▁난쟁이 -14521
▁짓밟 -14522
▁사벨 -14523
▁쌍용 -14524
▁당분간 -14525
▁Cont -14526
▁구자 -14527
▁눕히 -14528
▁Bar -14529
▁릭스 -14530
▁포커 -14531
▁포화 -14532
▁건너편 -14533
▁에어컨 -14534
▁부화 -14535
▁수납 -14536
▁연성 -14537
▁케네 -14538
빠르 -14539
▁관습 -14540
▁성품 -14541
▁피버 -14542
▁NAT -14543
▁클라우 -14544
▁휘둘리 -14545
▁간식 -14546
▁덩달 -14547
▁푸드 -14548
장구 -14549
▁포터블 -14550
데라 -14551
▁정은 -14552
▁토코 -14553
▁불분 -14554
▁여정 -14555
▁죠셉 -14556
▁항쟁 -14557
▁시프트 -14558
▁전반전 -14559
▁활약상 -14560
영웅 -14561
▁제품군 -14562
▁후려치 -14563
포로 -14564
▁전태 -14565
▁풋볼 -14566
▁블리치 -14567
히트 -14568
▁메라 -14569
▁미셸 -14570
▁세무 -14571
▁필적 -14572
▁광학 -14573
▁어우 -14574
▁마공 -14575
▁수박 -14576
변속기 -14577
▁김태균 -14578
▁qu -14579
▁루드 -14580
▁자판기 -14581
▁선도 -14582
병기 -14583
▁야마자키 -14584
▁IF -14585
▁침식 -14586
▁토토 -14587
ited -14588
▁다트 -14589
▁외장 -14590
▁임상 -14591
▁Inf -14592
▁음식점 -14593
▁이유로 -14594
▁전갈 -14595
▁체로 -14596
▁삽입곡 -14597
▁불분명 -14598
▁쿠도 -14599
입구역 -14600
▁WOR -14601
▁카즈마 -14602
▁프라모델 -14603
III -14604
▁나시 -14605
▁오일 -14606
▁들여오 -14607
▁양현 -14608
▁주스 -14609
▁필기 -14610
리아나 -14611
▁박주 -14612
▁저음 -14613
▁허위 -14614
▁알루미 -14615
▁Gaming -14616
▁일직선 -14617
▁중견수 -14618
▁선교 -14619
▁오스트레일리아 -14620
▁몬테 -14621
▁럽 -14622
▁투항 -14623
▁XBO -14624
▁world -14625
HD -14626
부시 -14627
▁지기 -14628
호도 -14629
▁사면 -14630
▁야인 -14631
▁수배 -14632
▁악인 -14633
▁아르테 -14634
▁글리 -14635
▁라이덴 -14636
▁루이지 -14637
▁스트리밍 -14638
▁과하 -14639
▁권역 -14640
▁백병 -14641
▁000000 -14642
▁정적 -14643
▁With -14644
▁Angel -14645
그래 -14646
모트 -14647
▁DA -14648
▁로사 -14649
마트 -14650
▁310 -14651
▁레닌 -14652
▁밀러 -14653
▁발전기 -14654
▁마포 -14655
▁유부 -14656
▁소피 -14657
▁츠네 -14658
▁잘생기 -14659
▁나루호도 -14660
▁흉터 -14661
▁집중력 -14662
▁경이 -14663
▁꾀하 -14664
▁맨날 -14665
▁차출 -14666
▁코리 -14667
▁COM -14668
▁중화기 -14669
▁박스오피스 -14670
▁요건 -14671
▁진해 -14672
appy -14673
▁이시카와 -14674
row -14675
▁충동 -14676
▁VIP -14677
▁라지 -14678
▁말살 -14679
▁지갑 -14680
▁메두사 -14681
▁빅토르 -14682
▁금성 -14683
▁방금 -14684
▁소량 -14685
짜기 -14686
▁미유 -14687
▁예비역 -14688
▁사설 -14689
▁셔츠 -14690
▁정세 -14691
▁무언가 -14692
▁스콜피온 -14693
▁충청북도 -14694
▁수영장 -14695
▁나탈 -14696
▁즉석 -14697
▁아쉬워하 -14698
▁폐하 -14699
▁미나토 -14700
▁열렬 -14701
▁접시 -14702
미코 -14703
▁VR -14704
▁그물 -14705
▁임용 -14706
▁컷인 -14707
▁con -14708
▁재미없 -14709
▁플리트 -14710
▁엇갈리 -14711
▁중대장 -14712
▁리그베다 -14713
▁비늘 -14714
▁시립 -14715
▁수뇌부 -14716
▁데스크 -14717
▁마코 -14718
▁다크니스 -14719
▁빽 -14720
▁기린 -14721
▁형벌 -14722
▁하르트 -14723
▁봉하 -14724
▁사다리 -14725
▁사납 -14726
▁임재 -14727
▁해커 -14728
▁진나라 -14729
▁사우디아 -14730
▁희박 -14731
▁후리 -14732
▁법정동 -14733
▁아라시 -14734
▁분화 -14735
▁특권 -14736
▁131 -14737
▁진성 -14738
▁코로 -14739
▁micro -14740
▁=" -14741
▁ER -14742
▁총재 -14743
콜로 -14744
혀가 -14745
▁경비원 -14746
▁명은 -14747
▁행세 -14748
▁흥하 -14749
ious -14750
▁잡혀가 -14751
▁마사무네 -14752
▁폿 -14753
ful -14754
▁배반 -14755
▁복부 -14756
▁항로 -14757
▁손책 -14758
▁파탄 -14759
▁폐인 -14760
▁협곡 -14761
▁환장 -14762
제리 -14763
▁FE -14764
▁강연 -14765
▁붕대 -14766
▁악평 -14767
▁She -14768
▁자라나 -14769
로이 -14770
전함 -14771
▁옵스 -14772
▁하얀 -14773
▁Ste -14774
▁사카이 -14775
보잡 -14776
atic -14777
만다 -14778
타기 -14779
▁PvP -14780
▁골고루 -14781
▁능동 -14782
▁항속 -14783
▁동남아 -14784
해야 -14785
▁쇼우 -14786
▁재사 -14787
그라드 -14788
▁관광지 -14789
▁반짝이 -14790
▁RX -14791
▁255 -14792
▁듣보잡 -14793
▁신빙 -14794
드리히 -14795
▁CIA -14796
▁자자 -14797
감치 -14798
▁몸집 -14799
▁무모 -14800
▁밸브 -14801
▁슬립 -14802
▁카이지 -14803
▁구라 -14804
찌감치 -14805
▁최우선 -14806
▁내레이션 -14807
▁스테이트 -14808
▁어로 -14809
▁강호동 -14810
▁젓 -14811
▁피드백 -14812
▁가쿠 -14813
▁외화 -14814
▁마스터즈 -14815
▁알루미늄 -14816
▁이관 -14817
그레 -14818
▁부식 -14819
▁철회 -14820
▁기생충 -14821
▁1939 -14822
▁더러 -14823
▁또래 -14824
▁낙하산 -14825
▁피콜로 -14826
▁STAR -14827
▁윳 -14828
▁영국인 -14829
▁이클 -14830
▁하나님 -14831
aut -14832
▁이데 -14833
▁베르크 -14834
▁토요타 -14835
▁만회 -14836
▁헬로 -14837
▁카에데 -14838
▁1952 -14839
▁White -14840
▁다마 -14841
▁사오 -14842
▁성령 -14843
▁매지컬 -14844
▁호위함 -14845
TREME -14846
▁TW -14847
▁잠복 -14848
▁중산 -14849
▁햄버거 -14850
▁짊 -14851
▁아픔 -14852
▁티타 -14853
▁오바마 -14854
▁카라스 -14855
▁성시 -14856
▁조공 -14857
▁청취 -14858
▁키시 -14859
ㄴㄷㅐ -14860
▁암기 -14861
▁기아스 -14862
▁안테나 -14863
▁연호 -14864
▁플레인 -14865
시장 -14866
▁볼리 -14867
▁류우 -14868
▁NCR -14869
▁강남구 -14870
▁러시아군 -14871
MC -14872
전쟁 -14873
▁컬트 -14874
▁힘쓰 -14875
▁NFL -14876
day -14877
▁둔기 -14878
▁선상 -14879
▁쿠폰 -14880
▁미시마 -14881
▁사과문 -14882
▁티셔츠 -14883
▁노원 -14884
▁몸체 -14885
▁장막 -14886
▁계승자 -14887
▁브래드 -14888
일기 -14889
▁달걀 -14890
▁묵직 -14891
▁위인 -14892
▁쿠루미 -14893
▁복권 -14894
▁청원 -14895
▁한성 -14896
▁FBI -14897
▁비틀즈 -14898
사포 -14899
▁임프 -14900
▁프랑켄슈타인 -14901
▁라다 -14902
▁비욘 -14903
▁내려지 -14904
▁지자체 -14905
▁한니발 -14906
▁프리드리히 -14907
▁세실 -14908
▁여당 -14909
▁뒤쳐지 -14910
오버 -14911
▁라니 -14912
▁오자 -14913
▁치과 -14914
ara -14915
▁Pe -14916
세이더 -14917
▁Sky -14918
▁미식축구 -14919
▁크루세이더 -14920
bl -14921
▁폰트 -14922
▁오토봇 -14923
▁스튜어트 -14924
▁ㅇㅡㄴㄱㅏ -14925
부수 -14926
▁햇빛 -14927
세포 -14928
▁420 -14929
▁인플레 -14930
리히 -14931
▁재주 -14932
▁장학금 -14933
델피아 -14934
▁필라델피아 -14935
▁환불 -14936
▁무리수 -14937
▁Project -14938
INE -14939
▁해프 -14940
▁콜롬비아 -14941
▁FN -14942
▁쏠리 -14943
▁증인 -14944
▁ㄹㅏㅁ -14945
▁850 -14946
▁소모품 -14947
▁레그 -14948
▁재상 -14949
▁ㅇㅣㄴ -14950
▁긴장감 -14951
영향 -14952
▁노획 -14953
▁구비 -14954
▁사시 -14955
▁여행자 -14956
▁일기토 -14957
▁자유주의 -14958
이즈미 -14959
▁DIO -14960
▁그래프 -14961
▁호스트 -14962
▁보구 -14963
▁쿠토 -14964
▁포진 -14965
▁타츠미 -14966
리역 -14967
▁베레 -14968
▁세단 -14969
▁용왕 -14970
▁EXTREME -14971
▁눈썹 -14972
▁동산 -14973
▁마개 -14974
▁샌디 -14975
▁정렬 -14976
▁후하 -14977
▁클라라 -14978
▁타카오 -14979
▁이클립스 -14980
▁급상 -14981
▁서사 -14982
▁141 -14983
75 -14984
▁아론 -14985
▁나츠메 -14986
▁안토니오 -14987
와르 -14988
▁친화 -14989
▁모터스 -14990
▁슬래시 -14991
▁로젠 -14992
▁유다 -14993
▁카나코 -14994
▁OO -14995
▁골수 -14996
▁소프 -14997
▁헤라클레스 -14998
▁시술 -14999
▁척하 -15000
트리스 -15001
▁코스타 -15002
▁대관 -15003
▁선공 -15004
▁커넥 -15005
민수 -15006
▁농부 -15007
▁억압 -15008
▁신세기 -15009
▁패트릭 -15010
▁RR -15011
▁치아키 -15012
▁부기 -15013
▁새턴 -15014
▁투타 -15015
▁원상 -15016
▁호각 -15017
▁비둘기 -15018
▁조선소 -15019
▁부전 -15020
▁토사 -15021
▁아벨 -15022
▁슬레이 -15023
▁읊 -15024
▁오사무 -15025
▁Just -15026
▁고뇌 -15027
▁기시 -15028
▁Get -15029
▁아날로그 -15030
▁ㅁㅕㄴㅇㅡㄴ -15031
▁주부 -15032
▁도입부 -15033
맹이 -15034
▁개종 -15035
▁반납 -15036
▁양도 -15037
▁Gun -15038
▁ㅇㅏㅅ -15039
▁겁쟁이 -15040
▁워페어 -15041
▁리시 -15042
▁최진 -15043
아내리 -15044
▁파괴자 -15045
넌트 -15046
▁진기 -15047
▁정치력 -15048
나타 -15049
▁사생 -15050
▁어르 -15051
▁자석 -15052
큐버스 -15053
▁브론즈 -15054
▁플랜트 -15055
▁해프닝 -15056
▁망원 -15057
▁그딴 -15058
▁디에 -15059
▁로미 -15060
▁본거지 -15061
▁원로원 -15062
▁타카히로 -15063
▁ㄴㅜ -15064
▁블레 -15065
어내리 -15066
즐리 -15067
▁정인 -15068
▁앤더슨 -15069
▁가세 -15070
▁고안 -15071
▁금하 -15072
▁길목 -15073
▁머독 -15074
▁데이빗 -15075
▁레니 -15076
▁셔먼 -15077
▁여대 -15078
▁이우 -15079
▁팩토리 -15080
ger -15081
▁겸비 -15082
▁꼼짝 -15083
▁낯설 -15084
▁벌칙 -15085
▁앞장 -15086
스코 -15087
▁응징 -15088
reat -15089
▁중추 -15090
▁대의 -15091
▁유수 -15092
▁저널 -15093
▁환율 -15094
▁대항해 -15095
▁붉은색 -15096
▁생리 -15097
수엘라 -15098
▁PRO -15099
▁사일런트 -15100
▁경신 -15101
▁그해 -15102
▁스릴 -15103
▁허니 -15104
▁축구단 -15105
▁크리스토퍼 -15106
▁777 -15107
▁노랑 -15108
▁변함 -15109
▁신드 -15110
▁여느 -15111
▁잠자 -15112
▁토카 -15113
다카 -15114
▁선명 -15115
▁실탄 -15116
▁뫼비우스 -15117
▁우대 -15118
▁항성 -15119
▁해결책 -15120
uch -15121
▁상병 -15122
▁유하 -15123
▁정설 -15124
▁한결 -15125
전생 -15126
▁권고 -15127
▁코만 -15128
▁리조트 -15129
준호 -15130
▁이화 -15131
▁마운틴 -15132
▁수도원 -15133
▁크류 -15134
▁기공 -15135
▁납품 -15136
▁철퇴 -15137
▁대지진 -15138
▁티라노 -15139
▁사우디아라비아 -15140
ㄸㅏ -15141
장치 -15142
▁카세 -15143
▁로드리 -15144
치오 -15145
▁니즘 -15146
▁쓸쓸 -15147
▁한복 -15148
▁군중 -15149
▁자가 -15150
▁정시 -15151
리카와 -15152
▁막아서 -15153
▁무당 -15154
▁초원 -15155
▁함경 -15156
▁환원 -15157
▁디럭스 -15158
▁야가미 -15159
▁Game -15160
애미 -15161
▁바알 -15162
▁우등 -15163
▁사이킥 -15164
▁코미디언 -15165
▁공채 -15166
▁네로 -15167
▁마이애미 -15168
무로 -15169
▁리오스 -15170
▁악영향 -15171
ric -15172
▁사대 -15173
▁520 -15174
▁꼬박 -15175
▁바흐 -15176
▁겉모습 -15177
▁레이카 -15178
▁월등히 -15179
▁투기 -15180
▁현무 -15181
▁시라이 -15182
ㅇㅜ -15183
공주 -15184
▁보성 -15185
▁신검 -15186
▁정윤 -15187
▁노사 -15188
▁라몬 -15189
▁백두 -15190
▁제드 -15191
▁화요일 -15192
▁LS -15193
▁레비 -15194
▁혼나 -15195
▁적정 -15196
▁정직 -15197
▁잿 -15198
타자 -15199
▁위즈 -15200
▁클로버 -15201
▁검기 -15202
▁그러다가 -15203
갔다 -15204
▁류지 -15205
▁반달 -15206
▁평준 -15207
▁사력 -15208
▁CCTV -15209
▁개리 -15210
▁생계 -15211
▁재래 -15212
▁조니 -15213
▁우치하 -15214
▁악세사리 -15215
▁자대 -15216
암동 -15217
▁앨리 -15218
▁재무 -15219
▁후작 -15220
▁ㅅㅡㅁ -15221
▁자아내 -15222
▁Back -15223
▁Side -15224
▁카이바 -15225
▁케네디 -15226
니치 -15227
▁레이크 -15228
▁요지 -15229
▁처방 -15230
▁나뭇잎 -15231
▁최적화 -15232
▁특출나 -15233
▁허벅지 -15234
윽고 -15235
▁감도 -15236
▁초급 -15237
▁이윽고 -15238
▁소대장 -15239
▁Last -15240
▁베네수엘라 -15241
▁박기 -15242
▁벤츠 -15243
▁조현 -15244
▁평지 -15245
less -15246
▁빈센트 -15247
▁절감 -15248
하임 -15249
▁절약 -15250
▁뜬금없 -15251
▁back -15252
▁크로스오버 -15253
▁School -15254
리즘 -15255
▁레코 -15256
▁선비 -15257
▁자민 -15258
▁중론 -15259
▁off -15260
▁아스타 -15261
aka -15262
▁Ge -15263
▁480 -15264
▁엽기 -15265
툴루 -15266
▁개칭 -15267
▁나크 -15268
▁미약 -15269
▁열광 -15270
▁외침 -15271
▁이북 -15272
▁정경 -15273
▁제이드 -15274
드래곤 -15275
▁통솔력 -15276
▁지중해 -15277
▁총구 -15278
▁Zero -15279
▁대장장이 -15280
▁꼬시 -15281
▁냉혹 -15282
▁제후 -15283
▁피쳐 -15284
▁TECHN -15285
▁naver -15286
▁우크 -15287
▁샨 -15288
bsp -15289
▁모티 -15290
▁벅스 -15291
▁Ass -15292
▁연대기 -15293
▁우크라이나 -15294
▁죄인 -15295
▁페가수스 -15296
co -15297
▁다그 -15298
▁결투장 -15299
펙터 -15300
▁KS -15301
▁xx -15302
▁석방 -15303
▁셀렉 -15304
▁크레이지 -15305
▁동남아시아 -15306
▁귤 -15307
후미 -15308
▁타가 -15309
▁ATM -15310
▁가늠 -15311
▁근친 -15312
▁우동 -15313
▁좌완 -15314
▁토치 -15315
▁펠트 -15316
▁남구 -15317
▁알맞 -15318
▁Sil -15319
▁짊어지 -15320
ㄴㄷㅏㅂㅅㅣ -15321
일관 -15322
▁초동 -15323
▁탈당 -15324
▁전우 -15325
▁비숍 -15326
▁상고 -15327
▁시부야 -15328
▁가즈 -15329
▁춘추 -15330
▁히지 -15331
▁기병대 -15332
▁리액션 -15333
레스타인 -15334
IME -15335
▁미처 -15336
▁편애 -15337
▁합당 -15338
푸스 -15339
▁모치 -15340
▁이를 -15341
▁nbsp -15342
▁소탕 -15343
▁서스 -15344
▁이의 -15345
▁쿼드 -15346
▁텐션 -15347
▁화가 -15348
▁예술가 -15349
▁발렌시아 -15350
테면 -15351
▁간장 -15352
▁일생 -15353
▁212 -15354
▁빌헬름 -15355
▁송병구 -15356
▁팬클럽 -15357
▁퀑 -15358
▁오토메 -15359
관계 -15360
▁라티 -15361
▁심부 -15362
▁멧돼지 -15363
▁스플릿 -15364
▁리벤 -15365
▁바루 -15366
페스트 -15367
▁하늘색 -15368
▁이를테면 -15369
▁텝 -15370
▁급여 -15371
▁무서 -15372
▁알비 -15373
베이스 -15374
▁정명훈 -15375
▁Chr -15376
▁사이퍼즈 -15377
▁캬 -15378
▁광석 -15379
▁무네 -15380
▁톡톡 -15381
사전 -15382
소통 -15383
▁페로 -15384
▁도널드 -15385
▁의사소통 -15386
▁잣 -15387
이라 -15388
▁세균 -15389
부리 -15390
▁개화 -15391
▁디디 -15392
▁틈새 -15393
bo -15394
▁WE -15395
▁노프 -15396
▁에프 -15397
▁증차 -15398
레인지 -15399
▁날라 -15400
▁맞춤 -15401
▁써니 -15402
라이언트 -15403
▁하시모토 -15404
▁클라이언트 -15405
▁ㄹㅑ -15406
▁290 -15407
▁결번 -15408
▁우의 -15409
▁전념 -15410
▁골리앗 -15411
▁좌익수 -15412
▁사죄 -15413
▁수혜 -15414
▁조로 -15415
▁경호원 -15416
▁삿포로 -15417
▁추기경 -15418
▁프레드 -15419
▁성추행 -15420
▁스타킹 -15421
▁Open -15422
▁강령 -15423
▁순삭 -15424
▁통근 -15425
▁디셉티콘 -15426
▁jp -15427
▁학파 -15428
▁합금 -15429
▁급상승 -15430
▁전투원 -15431
▁승부차기 -15432
▁승승 -15433
▁절판 -15434
▁Amer -15435
▁Di -15436
▁고참 -15437
▁오승 -15438
렁이 -15439
▁티격 -15440
▁재빠르 -15441
▁XBOX -15442
▁소름 -15443
▁검색어 -15444
▁유세이 -15445
▁사루 -15446
▁유상 -15447
▁철자 -15448
에이터 -15449
▁룽 -15450
▁피신 -15451
▁블리츠 -15452
▁야나기 -15453
▁뇌격 -15454
▁미달 -15455
팔로 -15456
▁빈스 -15457
▁심복 -15458
▁사요 -15459
▁전황 -15460
▁갈고리 -15461
니컬 -15462
레즈 -15463
ORA -15464
▁자바 -15465
▁무난히 -15466
▁Blood -15467
▁수당 -15468
▁웨딩 -15469
▁협공 -15470
▁브라우저 -15471
▁엑스칼리버 -15472
UST -15473
▁우와 -15474
▁너구리 -15475
▁프레데터 -15476
▁멩 -15477
투수 -15478
▁베아 -15479
▁유원 -15480
▁조회 -15481
▁편도 -15482
▁몰아치 -15483
▁야구부 -15484
▁켄시로 -15485
▁동독 -15486
▁연주자 -15487
▁Moon -15488
▁중소기업 -15489
▁군벌 -15490
▁불발 -15491
▁경비병 -15492
▁라파엘 -15493
▁재사용 -15494
▁크툴루 -15495
▁소아 -15496
▁원성 -15497
▁한중 -15498
▁1400 -15499
▁경대 -15500
▁대도 -15501
▁의류 -15502
▁통역 -15503
▁피그 -15504
자위대 -15505
코스터 -15506
▁시미즈 -15507
▁중순양함 -15508
▁생포 -15509
▁파나 -15510
▁음악가 -15511
▁미니게임 -15512
▁선발투수 -15513
ely -15514
▁전복 -15515
▁적어지 -15516
▁타쿠야 -15517
▁장담 -15518
▁전쟁터 -15519
▁소림 -15520
▁저스틴 -15521
▁에볼루션 -15522
▁강정 -15523
▁스커 -15524
▁해밀 -15525
▁두드리 -15526
▁인승 -15527
▁정준하 -15528
▁그렌 -15529
▁주주 -15530
▁하네 -15531
▁소수자 -15532
▁롤러코스터 -15533
니르 -15534
▁액수 -15535
▁족보 -15536
▁성남시 -15537
▁일정량 -15538
▁툭하면 -15539
▁팔레스타인 -15540
▁찜 -15541
▁분과 -15542
▁TB -15543
▁명백히 -15544
▁데스노트 -15545
▁트와 -15546
ideo -15547
▁일자리 -15548
▁margin -15549
▁맹수 -15550
▁착공 -15551
▁엄연 -15552
▁질질 -15553
▁APC -15554
▁Final -15555
▁낭만 -15556
▁배고 -15557
▁나오미 -15558
▁Soul -15559
▁화끈 -15560
▁대구경 -15561
▁가신 -15562
▁모선 -15563
▁보호자 -15564
▁선제골 -15565
▁스턴트 -15566
▁나카지마 -15567
▁껌 -15568
▁성동 -15569
▁지방도 -15570
▁태그팀 -15571
▁마즈 -15572
▁비견 -15573
▁절도 -15574
▁휴지 -15575
▁Yes -15576
▁파이팅 -15577
▁촛 -15578
득점 -15579
▁극성 -15580
▁시커 -15581
▁탈주 -15582
▁미워하 -15583
▁사이비 -15584
▁사복 -15585
▁Art -15586
▁아리사 -15587
▁쥬라기 -15588
▁카미조 -15589
▁박태 -15590
▁엑셀 -15591
▁타라 -15592
▁효용 -15593
▁마사히로 -15594
au -15595
▁1953 -15596
▁버즈 -15597
▁실감 -15598
▁치요 -15599
▁급습 -15600
▁내년 -15601
▁신격 -15602
▁건의 -15603
▁기교 -15604
▁일파 -15605
ning -15606
▁미완성 -15607
▁프리퀄 -15608
DER -15609
▁일찌감치 -15610
▁석탄 -15611
▁간첩 -15612
▁홍준 -15613
▁거미줄 -15614
▁공격대 -15615
▁분당선 -15616
ism -15617
▁고분 -15618
▁남산 -15619
▁엘다 -15620
▁생산력 -15621
▁미용 -15622
▁오아 -15623
▁7000 -15624
▁크라이시스 -15625
비슷 -15626
▁웬디 -15627
▁승계 -15628
▁플로리 -15629
▁헤이세이 -15630
▁만년 -15631
▁밤중 -15632
▁Mix -15633
▁교육부 -15634
▁수송기 -15635
▁방망 -15636
▁에너 -15637
HC -15638
파치 -15639
▁BMW -15640
▁비화 -15641
▁투르 -15642
▁흉기 -15643
▁모건 -15644
▁쌍검 -15645
▁험악 -15646
고스 -15647
▁Du -15648
▁아사쿠라 -15649
▁매도 -15650
▁소망 -15651
▁회유 -15652
▁내려놓 -15653
▁트리니티 -15654
IKA -15655
▁변모 -15656
▁요요 -15657
▁유세 -15658
▁Met -15659
▁명확히 -15660
▁사상자 -15661
▁어쩌다 -15662
85 -15663
▁리노 -15664
▁졸리 -15665
▁찬사 -15666
▁내려찍 -15667
▁유이치 -15668
▁크로노스 -15669
정동 -15670
▁재일 -15671
▁냅다 -15672
ward -15673
▁경상도 -15674
▁구식 -15675
▁오현 -15676
stem -15677
▁박병호 -15678
▁빨아들이 -15679
▁호라이즌 -15680
▁공시 -15681
32 -15682
▁pt -15683
▁Top -15684
▁김구라 -15685
▁미술관 -15686
▁익명 -15687
▁개전 -15688
▁애틀 -15689
▁히데키 -15690
▁뛰어내리 -15691
▁미우 -15692
▁소이 -15693
▁스쿠 -15694
▁반대쪽 -15695
▁블루투스 -15696
▁문관 -15697
▁부끄 -15698
▁천진 -15699
▁쿠즈 -15700
▁부회장 -15701
▁후지와라 -15702
▁뺑 -15703
▁무방비 -15704
▁이치카 -15705
▁푸른색 -15706
▁1947 -15707
▁멀린 -15708
▁체하 -15709
▁내용물 -15710
▁둘째치 -15711
▁선발전 -15712
▁동국 -15713
▁완급 -15714
▁미스테리 -15715
사노 -15716
led -15717
▁아산 -15718
▁폐업 -15719
▁불가피 -15720
▁여신전생 -15721
▁시속 -15722
▁양평 -15723
▁헤딩 -15724
to -15725
▁망각 -15726
▁수제 -15727
▁MiG -15728
▁기어이 -15729
▁래리 -15730
일라잇 -15731
▁브로드 -15732
▁영화관 -15733
▁해설자 -15734
▁페미니즘 -15735
▁트와일라잇 -15736
▁쭈 -15737
▁착취 -15738
▁피노 -15739
▁배달부 -15740
▁유민 -15741
▁Eng -15742
▁그제서야 -15743
▁네메시스 -15744
▁피겨 -15745
▁방어전 -15746
▁투표율 -15747
▁도가 -15748
▁마로 -15749
▁버니 -15750
▁MIX -15751
월드 -15752
▁구판 -15753
▁대격 -15754
▁면도 -15755
▁아키야마 -15756
▁어시 -15757
▁붙여지 -15758
▁ㄷㅏㄴㄷㅏ -15759
▁마늘 -15760
▁선후 -15761
▁어정 -15762
▁야자 -15763
▁표준어 -15764
▁제이스 -15765
▁서남 -15766
▁역마 -15767
▁way -15768
▁하얀색 -15769
▁홍준표 -15770
폴트 -15771
▁손발 -15772
▁근육질 -15773
▁이츠키 -15774
▁짓거리 -15775
대왕 -15776
▁가야 -15777
▁매사 -15778
▁액스 -15779
▁지체 -15780
▁애틀랜 -15781
▁테슬라 -15782
욕장 -15783
▁달랑 -15784
▁무로 -15785
▁미움 -15786
▁장대 -15787
▁최재 -15788
▁레베카 -15789
▁로켓단 -15790
ute -15791
▁TE -15792
▁저축 -15793
▁파치 -15794
▁허약 -15795
ㄲㅏㄴ -15796
▁페이퍼 -15797
▁Core -15798
▁끌어오 -15799
▁토템 -15800
▁한족 -15801
▁출입구 -15802
▁시종일관 -15803
ata -15804
▁벼락 -15805
▁이큐 -15806
▁조영 -15807
▁Off -15808
▁문파 -15809
▁시게루 -15810
ision -15811
eah -15812
▁ZZ -15813
▁뭉개 -15814
▁EXP -15815
드런 -15816
뿌리 -15817
현동 -15818
▁올인 -15819
요리 -15820
ump -15821
▁te -15822
▁순항 -15823
▁오보 -15824
▁내리치 -15825
▁반쪽 -15826
▁사나다 -15827
사관학교 -15828
▁1957 -15829
▁스타더스트 -15830
린트 -15831
▁악연 -15832
▁영웅전설 -15833
▁쿠사나기 -15834
▁신봉 -15835
▁교제 -15836
▁슈우 -15837
▁케니 -15838
▁타사 -15839
▁포톤 -15840
아스 -15841
▁CT -15842
▁박세 -15843
▁조세 -15844
▁IMF -15845
▁Track -15846
ㄷㅐ -15847
쩐지 -15848
▁난장 -15849
▁매입 -15850
▁어진 -15851
▁허술 -15852
▁어쩐지 -15853
네트 -15854
▁수년 -15855
▁태권도 -15856
▁메트 -15857
▁새신 -15858
▁천왕 -15859
▁폴라 -15860
▁에디터 -15861
▁프란츠 -15862
▁별거 -15863
▁영재 -15864
▁위아 -15865
▁희한 -15866
▁RPM -15867
▁병합 -15868
▁쪽지 -15869
▁끊어지 -15870
▁호루스 -15871
▁쁘 -15872
▁메츠 -15873
▁테드 -15874
▁데이즈 -15875
▁팔아먹 -15876
▁밀리터리 -15877
▁켓 -15878
▁바퀴벌레 -15879
▁^ -15880
▁탬 -15881
세움 -15882
▁로더 -15883
▁수렴 -15884
▁스미레 -15885
괭이 -15886
하니 -15887
▁합산 -15888
▁각본가 -15889
빠지 -15890
▁걷어 -15891
▁숙명 -15892
▁참수 -15893
▁치키 -15894
▁개인차 -15895
▁카프 -15896
▁카미야 -15897
▁신민 -15898
▁안식 -15899
▁이산 -15900
▁구스타 -15901
GN -15902
▁랑그 -15903
▁에이미 -15904
지우 -15905
▁농어 -15906
▁요금제 -15907
▁식별 -15908
▁정현 -15909
▁투석 -15910
블랜드 -15911
▁209 -15912
▁나카노 -15913
▁보리스 -15914
▁ㄴㅡㄴㄱㅜㄴ -15915
▁BP -15916
▁비대 -15917
▁요일 -15918
▁천자 -15919
▁충주 -15920
▁클리블랜드 -15921
▁린치 -15922
▁저질 -15923
▁정액 -15924
▁토바 -15925
▁황자 -15926
▁Ext -15927
비안 -15928
▁베토 -15929
▁정제 -15930
▁{{{- -15931
▁북서 -15932
▁수퍼 -15933
oney -15934
▁연구자 -15935
▁Mark -15936
제트 -15937
▁ve -15938
▁리제 -15939
▁적기 -15940
▁포제 -15941
▁Cap -15942
▁김종국 -15943
▁아사미 -15944
선스 -15945
악기 -15946
▁공적 -15947
▁원산 -15948
▁에어리어 -15949
▁ADVANC -15950
BY -15951
▁다듬 -15952
▁대첩 -15953
▁갈아입 -15954
눅스 -15955
▁독단 -15956
▁문과 -15957
▁카니발 -15958
▁튜브 -15959
▁환산 -15960
▁사냥터 -15961
▁크레용 -15962
▁공전 -15963
▁급속도 -15964
▁진전 -15965
▁첨부 -15966
▁학부모 -15967
▁튀김 -15968
▁티베트 -15969
▁1914 -15970
▁라이선스 -15971
▁은근슬쩍 -15972
▁Little -15973
▁이끌리 -15974
▁긴토 -15975
▁증강 -15976
▁Special -15977
▁모라 -15978
▁큰일 -15979
▁맹장 -15980
▁링컨 -15981
▁서재 -15982
▁음력 -15983
▁애니메이터 -15984
▁홉 -15985
▁쇼코 -15986
▁아노 -15987
▁1938 -15988
▁동방신기 -15989
뮬러 -15990
▁린다 -15991
▁회심 -15992
▁ph -15993
▁의뢰인 -15994
▁신약 -15995
▁셰퍼드 -15996
▁엔도 -15997
▁도전자 -15998
▁급증 -15999
▁발효 -16000
▁우여 -16001
▁후카 -16002
▁사카키 -16003
▁호르몬 -16004
린더 -16005
▁UR -16006
▁번번 -16007
▁업자 -16008
▁입점 -16009
▁자멸 -16010
▁조짐 -16011
▁사토미 -16012
▁우선시 -16013
▁갱단 -16014
▁송신 -16015
▁경영학 -16016
▁느와르 -16017
▁러블리 -16018
▁TT -16019
▁경선 -16020
▁상체 -16021
▁형주 -16022
▁하야시 -16023
▁켐 -16024
▁계책 -16025
▁막말 -16026
▁홍수 -16027
▁그분 -16028
▁성가시 -16029
▁gr -16030
▁광교 -16031
▁방관 -16032
▁보그 -16033
▁체르 -16034
▁평이 -16035
ross -16036
▁리눅스 -16037
▁역전승 -16038
▁That -16039
▁기껏해야 -16040
▁초음 -16041
▁Free -16042
메일 -16043
▁우먼 -16044
▁아오키 -16045
▁모용 -16046
▁위태 -16047
▁레이코 -16048
▁음료수 -16049
▁가중 -16050
▁블러디 -16051
red -16052
▁포메 -16053
▁아틀레 -16054
▁Comp -16055
실록 -16056
▁세속 -16057
▁재선 -16058
▁파병 -16059
▁황소 -16060
테리어 -16061
▁칸자키 -16062
▁날아오르 -16063
▁ㄹㅏㄴㄷㅏ -16064
▁격납 -16065
▁이남 -16066
▁근황 -16067
▁누락 -16068
▁변속 -16069
▁희미 -16070
▁now -16071
▁ap -16072
▁순례 -16073
▁시녀 -16074
▁성취 -16075
▁숙지 -16076
▁식신 -16077
▁해인 -16078
▁지니어스 -16079
파일 -16080
▁아캄 -16081
▁한국식 -16082
두근 -16083
▁ac -16084
▁사주 -16085
▁최연 -16086
▁카툰 -16087
▁수송선 -16088
CE -16089
▁구스 -16090
▁암묵 -16091
▁짜이 -16092
▁토드 -16093
▁힘겹 -16094
▁조슈아 -16095
▁주변인 -16096
프스 -16097
▁++ -16098
ocal -16099
▁만우 -16100
▁정유 -16101
▁구축전차 -16102
▁장민 -16103
▁체류 -16104
▁화합 -16105
▁net -16106
▁껄끄럽 -16107
▁지폐 -16108
▁피칭 -16109
▁뜯어내 -16110
▁업소 -16111
▁호화 -16112
▁이민자 -16113
ner -16114
▁굴러 -16115
▁태반 -16116
▁순전히 -16117
▁아레스 -16118
주곡 -16119
▁서프 -16120
닥치 -16121
▁멜리 -16122
▁고철 -16123
▁도류 -16124
▁버팔로 -16125
▁학군 -16126
▁1100 -16127
▁스팟 -16128
▁사념 -16129
▁성급 -16130
▁심영 -16131
▁재기 -16132
▁불안감 -16133
▁비밀리 -16134
▁em -16135
▁티나 -16136
▁상경 -16137
▁일루 -16138
▁마르크스 -16139
▁PT -16140
▁구가 -16141
▁Bad -16142
aid -16143
▁데프 -16144
▁치세 -16145
▁레프트 -16146
ird -16147
▁요양 -16148
▁무예 -16149
▁아키코 -16150
▁제국주의 -16151
▁팻 -16152
▁베풀 -16153
▁일컬 -16154
▁판명 -16155
▁왕성 -16156
▁꾹 -16157
▁독성 -16158
▁못생기 -16159
▁대전광역시 -16160
▁악단 -16161
▁열화 -16162
▁의거 -16163
▁지저 -16164
▁MOV -16165
▁츠지 -16166
방지 -16167
▁친선 -16168
▁틀림없 -16169
▁땜 -16170
ASS -16171
▁구작 -16172
▁기통 -16173
▁대함 -16174
▁지탱 -16175
▁토착 -16176
▁의존도 -16177
▁1300 -16178
OCK -16179
▁자객 -16180
▁512 -16181
▁코스모스 -16182
▁플롯 -16183
▁앞장서 -16184
▁샌드위치 -16185
▁쿠보 -16186
▁만우절 -16187
▁도르트 -16188
▁양양 -16189
▁다량 -16190
▁의석 -16191
▁추이 -16192
▁가격대 -16193
▁콘테스트 -16194
투사 -16195
▁FO -16196
▁섣 -16197
▁화속 -16198
▁Rob -16199
▁Every -16200
뚜기 -16201
▁경원 -16202
▁무법 -16203
▁적과 -16204
▁아이카 -16205
▁난데 -16206
▁이강 -16207
▁풀백 -16208
▁야스오 -16209
▁정규군 -16210
▁주름 -16211
▁!!! -16212
▁팔다리 -16213
▁피스톨 -16214
▁블랑 -16215
▁어도 -16216
▁get -16217
▁마츠다 -16218
▁궤멸 -16219
▁반주 -16220
▁퍼플 -16221
▁#, -16222
▁서바이버 -16223
▁KA -16224
▁컬쳐 -16225
▁카르타 -16226
▁크레인 -16227
곡절 -16228
상부 -16229
ton -16230
▁부피 -16231
▁매점 -16232
▁어려 -16233
▁흡입 -16234
▁우여곡절 -16235
▁설문 -16236
▁각별 -16237
▁센고쿠 -16238
▁평면 -16239
▁픽션 -16240
▁카자흐 -16241
▁토모야 -16242
▁유파 -16243
▁한눈 -16244
▁바가지 -16245
▁코스모 -16246
소연 -16247
▁실컷 -16248
▁540 -16249
▁경제력 -16250
▁mA -16251
▁Orig -16252
▁스케이팅 -16253
▁ㄴㅡㄴㅋㅓ -16254
lection -16255
먼드 -16256
▁불곰 -16257
▁이트 -16258
▁자재 -16259
▁호조 -16260
▁365 -16261
▁HR -16262
▁공석 -16263
▁나돌 -16264
▁사찰 -16265
▁자음 -16266
▁착안 -16267
▁평시 -16268
▁유한 -16269
▁작물 -16270
▁쟁탈전 -16271
스부르크 -16272
▁로어 -16273
▁말라 -16274
▁경비대 -16275
▁서스펜 -16276
▁프리티 -16277
▁what -16278
24 -16279
▁거액 -16280
▁소품 -16281
▁연화 -16282
▁이쁘 -16283
▁분대장 -16284
▁뛰어오르 -16285
▁게재 -16286
▁무패 -16287
▁초밥 -16288
▁포뮬러 -16289
▁강대국 -16290
its -16291
▁명심 -16292
▁사서 -16293
트릭 -16294
▁저번 -16295
▁호문 -16296
▁ADVANCED -16297
일본 -16298
▁매뉴 -16299
▁스켈 -16300
▁고하 -16301
▁아디 -16302
▁복수심 -16303
▁시트콤 -16304
▁어지럽 -16305
▁남아프리카 -16306
시간 -16307
▁이범 -16308
▁창시자 -16309
▁Rain -16310
▁사고방식 -16311
어먹 -16312
▁망자 -16313
▁번영 -16314
▁여차 -16315
▁옥스 -16316
▁초라 -16317
▁돌풍 -16318
▁카나메 -16319
▁맥도날드 -16320
▁폄 -16321
▁Af -16322
▁노라 -16323
▁NA -16324
▁아틀란 -16325
▁카르텔 -16326
▁투수진 -16327
▁플랫폼 -16328
▁광부 -16329
▁윤영 -16330
▁하오 -16331
▁짭 -16332
▁세바스 -16333
▁하세가와 -16334
▁벨벳 -16335
티티 -16336
▁거창 -16337
▁추위 -16338
▁Order -16339
▁라리 -16340
▁그리핀 -16341
▁슬로건 -16342
▁사이코패스 -16343
▁민지 -16344
▁티코 -16345
▁May -16346
▁다이빙 -16347
▁암석 -16348
▁카밀 -16349
vent -16350
▁206 -16351
▁변속기 -16352
영웅전설 -16353
▁은하영웅전설 -16354
▁입법 -16355
▁창당 -16356
▁하계 -16357
베르크 -16358
tm -16359
마을 -16360
▁언뜻 -16361
▁투덜 -16362
▁꼭대기 -16363
▁Po -16364
▁재탕 -16365
▁TBS -16366
▁비열 -16367
▁애리 -16368
▁에지 -16369
▁오피 -16370
▁껴 -16371
캐슬 -16372
▁sw -16373
▁노보 -16374
▁베토벤 -16375
바인 -16376
▁don -16377
▁플로리다 -16378
▁멘토 -16379
▁선별 -16380
▁태백 -16381
▁디바인 -16382
▁코러스 -16383
▁라이브러리 -16384
▁봄버 -16385
살렘 -16386
▁방아 -16387
▁비타민 -16388
▁수식어 -16389
▁멱 -16390
▁블룸 -16391
▁필승 -16392
orts -16393
▁공구 -16394
▁소홀 -16395
▁판넬 -16396
▁아랑전설 -16397
마니 -16398
▁수만 -16399
▁특색 -16400
루살렘 -16401
▁근위 -16402
▁어감 -16403
▁벗겨지 -16404
트니 -16405
▁편집자 -16406
▁새해 -16407
▁앵글 -16408
▁아카시 -16409
▁오거 -16410
▁온건 -16411
ura -16412
▁바빌 -16413
▁스투 -16414
▁뉴캐슬 -16415
▁각광 -16416
▁색기 -16417
▁뱌 -16418
▁당원 -16419
▁바드 -16420
▁파충 -16421
▁노동당 -16422
▁아우구 -16423
▁수산 -16424
▁숙적 -16425
▁전범 -16426
▁코피 -16427
▁공천 -16428
▁재판소 -16429
▁틀어막 -16430
▁동결 -16431
▁등용 -16432
▁오모 -16433
▁오산 -16434
▁인테르 -16435
▁행정부 -16436
▁굴림 -16437
▁세련 -16438
▁순조 -16439
▁안톤 -16440
▁포신 -16441
▁잔소리 -16442
▁가맹 -16443
▁역적 -16444
▁PA -16445
▁온전 -16446
▁초회 -16447
▁스트롱 -16448
▁이리야 -16449
▁카즈미 -16450
▁트렌드 -16451
태격 -16452
▁수료 -16453
▁장발 -16454
▁최성 -16455
▁Are -16456
▁티격태격 -16457
▁자선 -16458
▁패권 -16459
▁스트림 -16460
▁알라딘 -16461
▁고드 -16462
▁낙서 -16463
▁요령 -16464
▁레고 -16465
▁서슴 -16466
▁징집 -16467
▁포섭 -16468
▁운동가 -16469
▁활기 -16470
▁후진 -16471
리스크 -16472
▁게으 -16473
▁럿 -16474
▁여덟 -16475
▁자결 -16476
▁채굴 -16477
▁효력 -16478
▁구루 -16479
▁조동 -16480
▁흑발 -16481
▁성범죄 -16482
▁캅 -16483
▁분수 -16484
▁풍속 -16485
김없이 -16486
▁아머드 -16487
▁나선 -16488
▁여객기 -16489
▁뒤떨어지 -16490
▁인테리어 -16491
▁표류 -16492
▁아브 -16493
▁성주 -16494
▁성희 -16495
▁png -16496
▁미소년 -16497
▁정신병 -16498
▁도르트문트 -16499
▁소셜 -16500
▁야미 -16501
▁역기 -16502
▁깐 -16503
son -16504
▁자서 -16505
▁재림 -16506
▁최장 -16507
니엄 -16508
▁농도 -16509
▁허접 -16510
▁Best -16511
스틱 -16512
▁괴짜 -16513
▁동선 -16514
▁만장 -16515
▁레일건 -16516
▁9000 -16517
▁밀레니엄 -16518
▁콜로세움 -16519
살이 -16520
▁민트 -16521
▁근로자 -16522
▁Stri -16523
ape -16524
▁골격 -16525
▁골대 -16526
▁마성 -16527
▁고아원 -16528
▁사오리 -16529
▁아르타 -16530
▁난장판 -16531
▁베네치아 -16532
xt -16533
▁남친 -16534
▁로버 -16535
▁린이 -16536
▁메이크 -16537
▁코우타 -16538
▁진범 -16539
▁형법 -16540
▁호족 -16541
▁굴러가 -16542
▁판단력 -16543
▁단타 -16544
▁신차 -16545
▁티모 -16546
▁아서스 -16547
▁아토 -16548
▁MI -16549
▁길티 -16550
▁소양 -16551
▁예매 -16552
▁카로 -16553
ster -16554
▁Pack -16555
ize -16556
▁제각각 -16557
▁아틀란티스 -16558
▁힛 -16559
▁내쫓 -16560
anna -16561
▁제명 -16562
▁티르 -16563
▁뒤집어쓰 -16564
▁예루살렘 -16565
교도 -16566
▁pe -16567
▁밝혀 -16568
▁버겁 -16569
▁착수 -16570
▁미하일 -16571
▁GA -16572
▁근방 -16573
▁조부 -16574
▁주시 -16575
▁정부군 -16576
▁트롤링 -16577
▁kn -16578
▁다라 -16579
▁아즈텍 -16580
▁NP -16581
▁무토 -16582
▁파커 -16583
▁리비아 -16584
▁마쓰 -16585
▁슈리 -16586
▁통찰 -16587
▁파기 -16588
▁프리덤 -16589
▁원안 -16590
▁호밍 -16591
▁매뉴얼 -16592
▁경멸 -16593
▁오카다 -16594
너드 -16595
▁간과 -16596
▁물류 -16597
▁서동 -16598
▁웍스 -16599
▁사비 -16600
▁초심 -16601
▁디언 -16602
▁히로미 -16603
err -16604
▁리포 -16605
▁악수 -16606
▁미우라 -16607
문화 -16608
▁대련 -16609
▁쿠우 -16610
▁포자 -16611
임수 -16612
▁고온 -16613
▁마자 -16614
▁재결 -16615
▁줄리아 -16616
▁항공대 -16617
포동 -16618
▁동탄 -16619
▁그레이브 -16620
▁행동력 -16621
▁옅 -16622
네즈 -16623
황후 -16624
▁유체 -16625
▁앞머리 -16626
AKA -16627
▁상임 -16628
▁미니건 -16629
▁1951 -16630
▁PH -16631
▁여리 -16632
▁짬뽕 -16633
▁370 -16634
▁밝혀내 -16635
▁동떨어지 -16636
▁스코어링 -16637
▁슬라이더 -16638
28 -16639
슬로 -16640
▁진중 -16641
▁전면전 -16642
▁니퍼 -16643
▁독소 -16644
▁은어 -16645
▁탤런트 -16646
oud -16647
▁남코 -16648
▁한판 -16649
▁his -16650
▁칠드런 -16651
▁tw -16652
▁유족 -16653
▁조종당 -16654
▁조그맣 -16655
▁타오르 -16656
피탈 -16657
▁결단 -16658
▁대칭 -16659
▁불륜 -16660
▁they -16661
▁이매 -16662
▁ㅇㅏㄴ -16663
▁노리코 -16664
▁타노스 -16665
▁기형 -16666
▁윤성 -16667
▁차우 -16668
▁Joh -16669
▁마일리 -16670
개골 -16671
▁마고 -16672
▁은색 -16673
▁Mir -16674
▁정찰기 -16675
▁식구 -16676
▁잡아 -16677
▁사이먼 -16678
▁역전패 -16679
▁Mbps -16680
▁인조인간 -16681
상스 -16682
▁쿠파 -16683
▁메커 -16684
▁하남 -16685
▁끝없이 -16686
▁뒤바뀌 -16687
잣집 -16688
▁원가 -16689
자국 -16690
▁앤드류 -16691
▁자일 -16692
▁클러치 -16693
▁두각 -16694
▁람보 -16695
▁설교 -16696
▁걷어차 -16697
▁코만도 -16698
OSS -16699
▁교원 -16700
▁무쌍 -16701
자스 -16702
IDE -16703
▁쿠노 -16704
▁달려드 -16705
▁다채 -16706
▁말뚝 -16707
▁벼슬 -16708
▁앉히 -16709
▁피크 -16710
▁하가 -16711
▁홍차 -16712
▁747 -16713
▁mAh -16714
▁흑색 -16715
▁조선인 -16716
ma -16717
불리 -16718
▁관현 -16719
▁깜빡 -16720
▁".. -16721
▁크래시 -16722
▁경순양함 -16723
UG -16724
지기 -16725
▁미분 -16726
▁캐쉬 -16727
▁통장 -16728
폴리스 -16729
▁미츠키 -16730
나오 -16731
▁이장 -16732
▁표명 -16733
▁갑주 -16734
▁당근 -16735
▁무소 -16736
ze -16737
ama -16738
▁노노 -16739
▁서북 -16740
▁직종 -16741
▁초연 -16742
▁노하라 -16743
▁레이서 -16744
▁불량배 -16745
zy -16746
썰트 -16747
▁몰입 -16748
▁어썰트 -16749
▁유괴 -16750
▁세계수 -16751
▁장시간 -16752
▁대물 -16753
▁인분 -16754
hy -16755
▁외지 -16756
▁척추 -16757
▁171 -16758
▁울버린 -16759
▁토머스 -16760
▁반열 -16761
▁ㅁㅐㄴ -16762
▁나오토 -16763
▁왕정 -16764
▁촉한 -16765
▁미카도 -16766
▁주점 -16767
▁이방원 -16768
▁극동 -16769
▁창법 -16770
▁이부키 -16771
▁First -16772
▁국지 -16773
▁총회 -16774
▁215 -16775
▁나이지 -16776
▁나이지리아 -16777
SS -16778
▁광화문 -16779
▁앰프 -16780
▁선량 -16781
▁마라톤 -16782
▁우익수 -16783
▁브룩 -16784
▁양지 -16785
▁텐트 -16786
▁아돌프 -16787
▁아오바 -16788
▁데이비스 -16789
▁즌 -16790
▁거머 -16791
▁신야 -16792
▁어머 -16793
▁음파 -16794
▁NORM -16795
▁파밀리아 -16796
▁캉 -16797
END -16798
▁도요토미 -16799
▁도키 -16800
▁분파 -16801
▁에라 -16802
▁오기 -16803
▁이연 -16804
▁히키 -16805
▁이세이 -16806
헤드 -16807
▁교구 -16808
▁카모 -16809
▁컨버 -16810
▁니티 -16811
▁순차 -16812
▁지출 -16813
▁철구 -16814
▁아라이 -16815
▁도부 -16816
▁불거지 -16817
▁덴마 -16818
▁발령 -16819
▁치솟 -16820
▁애틀랜타 -16821
▁천리 -16822
▁충원 -16823
▁혈압 -16824
▁동하 -16825
▁부설 -16826
▁161 -16827
▁게이밍 -16828
훈련 -16829
▁금정 -16830
▁미코 -16831
▁복식 -16832
▁실비아 -16833
▁정신줄 -16834
▁저술 -16835
▁강서구 -16836
▁독살 -16837
▁사학 -16838
▁여군 -16839
▁피고 -16840
▁181 -16841
▁기념일 -16842
▁HT -16843
▁속삭 -16844
▁아로 -16845
▁넬슨 -16846
▁발도 -16847
▁벳 -16848
어처 -16849
▁유창 -16850
▁이목 -16851
▁호머 -16852
▁미니어처 -16853
기수 -16854
너티브 -16855
▁포메이션 -16856
▁얼터너티브 -16857
▁잔존 -16858
▁전광판 -16859
라이어티 -16860
로트 -16861
▁맨손 -16862
▁손대 -16863
▁아루 -16864
▁추축 -16865
▁MAD -16866
▁라이저 -16867
▁1936 -16868
▁Perf -16869
▁타케우치 -16870
▁버라이어티 -16871
▁급감 -16872
▁골짜기 -16873
▁상반신 -16874
▁각주 -16875
▁우터 -16876
▁익산 -16877
레마 -16878
▁분전 -16879
▁오재 -16880
▁유죄 -16881
▁코타 -16882
▁NORMAL -16883
▁수기 -16884
▁자행 -16885
▁탄피 -16886
▁승용차 -16887
▁Down -16888
▁피파 -16889
▁235 -16890
▁Miss -16891
▁브라이트 -16892
▁거침 -16893
▁교포 -16894
▁마천 -16895
▁NMB -16896
시즘 -16897
▁용납 -16898
▁요시카 -16899
특기 -16900
▁비터 -16901
▁은빛 -16902
▁주특기 -16903
ume -16904
▁쳇 -16905
▁로데 -16906
▁시연 -16907
▁City -16908
yes -16909
▁실물 -16910
▁정선 -16911
▁사우디 -16912
▁프렌드 -16913
▁오퍼레이터 -16914
▁전곡 -16915
▁허준 -16916
슬라비아 -16917
▁유고슬라비아 -16918
▁물음 -16919
▁탄종 -16920
▁데니스 -16921
▁메사 -16922
▁박하 -16923
▁포상 -16924
▁Hot -16925
▁Mem -16926
▁토미노 -16927
▁Char -16928
▁승승장구 -16929
▁사하 -16930
▁선단 -16931
▁총애 -16932
▁통폐 -16933
▁미노리 -16934
▁수없이 -16935
▁알제리 -16936
▁북동 -16937
▁예민 -16938
▁wiz -16939
▁데미안 -16940
▁자연히 -16941
36 -16942
net -16943
▁뻔뻔 -16944
▁육신 -16945
▁출생지 -16946
▁AGE -16947
▁에그맨 -16948
▁페러 -16949
▁한류 -16950
▁한없이 -16951
ga -16952
▁여제 -16953
▁일면 -16954
▁향신 -16955
▁안장 -16956
▁파주 -16957
▁판교 -16958
▁275 -16959
▁이케다 -16960
▁카트리지 -16961
▁공안 -16962
▁벨리 -16963
▁약사 -16964
▁열폭 -16965
▁동그 -16966
▁혐한 -16967
▁데일리 -16968
▁시베리아 -16969
▁엄하 -16970
▁칵 -16971
설수 -16972
▁시급 -16973
▁마카오 -16974
▁엎드리 -16975
▁Happy -16976
UD -16977
▁나즈 -16978
▁시영 -16979
▁케미 -16980
▁DEF -16981
▁207 -16982
▁억누르 -16983
회전 -16984
▁매춘 -16985
▁명절 -16986
▁역행 -16987
▁횡령 -16988
만화 -16989
▁낙양 -16990
▁돌변 -16991
▁발병 -16992
▁알트 -16993
▁집게 -16994
▁대성공 -16995
▁이메일 -16996
▁왕창 -16997
▁어정쩡 -16998
▁단도 -16999
▁서경 -17000
▁얼룩 -17001
▁강국 -17002
▁김천 -17003
▁완력 -17004
▁몬스터즈 -17005
▁Break -17006
▁Class -17007
▁관건 -17008
▁거머쥐 -17009
▁넥스트 -17010
▁NATO -17011
▁마구잡이 -17012
독스 -17013
▁Ret -17014
▁조나단 -17015
▁세인 -17016
▁약품 -17017
▁RED -17018
▁다이크 -17019
▁탑승자 -17020
▁겸임 -17021
▁도맡 -17022
▁재발 -17023
▁컬처 -17024
▁dis -17025
▁눈보라 -17026
▁재수없 -17027
awn -17028
▁뜯기 -17029
▁이송 -17030
▁제때 -17031
▁종파 -17032
▁Und -17033
▁곁들이 -17034
▁백병전 -17035
▁풍습 -17036
▁스트라 -17037
▁ㄱㅓㄴㅁㅏㄴ -17038
▁신종 -17039
▁일병 -17040
▁어르신 -17041
▁우울증 -17042
▁헤일로 -17043
▁규율 -17044
▁분실 -17045
▁치즈루 -17046
▁유토피아 -17047
조림 -17048
▁골절 -17049
▁궁예 -17050
▁올레 -17051
▁잘나 -17052
▁유리카 -17053
▁just -17054
▁뻐 -17055
▁교묘 -17056
▁니르 -17057
▁잭스 -17058
▁몸싸움 -17059
나우 -17060
▁옥수수 -17061
분투 -17062
▁MUS -17063
▁다다르 -17064
▁펩 -17065
▁가발 -17066
▁ㄱㅣㄹㄹㅐ -17067
샤인 -17068
▁#! -17069
▁도봉 -17070
▁베로 -17071
▁전경 -17072
▁211 -17073
▁르네상스 -17074
48 -17075
덴티티 -17076
▁SHD -17077
▁아이덴티티 -17078
▁샤르 -17079
▁첩자 -17080
26 -17081
▁TN -17082
▁북벌 -17083
▁Dec -17084
▁선동열 -17085
▁Stage -17086
꼬박 -17087
▁발해 -17088
▁헌트 -17089
▁꼬박꼬박 -17090
▁감마 -17091
▁구기 -17092
▁사옥 -17093
▁스톨 -17094
제이 -17095
▁버크 -17096
▁머릿속 -17097
▁앞부분 -17098
▁헤드폰 -17099
▁관전 -17100
▁성의 -17101
▁토모코 -17102
IAL -17103
▁순발 -17104
▁요가 -17105
▁가차없이 -17106
▁뜸 -17107
▁콴 -17108
▁친숙 -17109
▁호시노 -17110
▁외교관 -17111
▁말버릇 -17112
▁만담 -17113
▁역도 -17114
▁지겹 -17115
▁러스트 -17116
▁위아래 -17117
▁쿼터백 -17118
ius -17119
▁기폭 -17120
▁수렵 -17121
▁순화 -17122
▁스테이크 -17123
ONE -17124
▁오소 -17125
▁입석 -17126
▁전위 -17127
▁아키하 -17128
▁자그마 -17129
▁철학자 -17130
▁단수 -17131
▁망신 -17132
▁풍미 -17133
▁동호회 -17134
▁머들 -17135
▁실록 -17136
▁총검 -17137
▁하로 -17138
▁순발력 -17139
27 -17140
가키 -17141
▁경관 -17142
▁본뜨 -17143
▁정품 -17144
▁유키코 -17145
▁견습 -17146
▁코퍼 -17147
▁성희롱 -17148
▁Elect -17149
▁폭언 -17150
▁핑거 -17151
▁프리랜 -17152
▁과반 -17153
▁STA -17154
▁노하우 -17155
▁클라크 -17156
▁분비 -17157
▁합숙 -17158
▁힌두 -17159
ORPG -17160
▁통폐합 -17161
람쥐 -17162
▁감속 -17163
▁승낙 -17164
▁조개 -17165
로그램 -17166
ole -17167
▁주재 -17168
▁황폐 -17169
▁드래곤즈 -17170
▁경산 -17171
▁덜하 -17172
▁마니아 -17173
▁엄폐물 -17174
▁GAME -17175
대상 -17176
que -17177
▁노화 -17178
▁혈관 -17179
▁레기온 -17180
▁전라도 -17181
▁동성애자 -17182
▁닷컴 -17183
▁로페 -17184
▁개머리 -17185
▁over -17186
▁떨리 -17187
▁바카 -17188
▁선지 -17189
▁키네 -17190
▁950 -17191
▁포이즌 -17192
▁행렬 -17193
▁드러머 -17194
▁시드니 -17195
att -17196
▁레스터 -17197
▁재생성 -17198
▁요코야마 -17199
▁막스 -17200
▁한신 -17201
▁혼잡 -17202
▁방영일 -17203
플러 -17204
비야 -17205
▁매매 -17206
▁나폴리 -17207
▁다케다 -17208
▁두개골 -17209
▁최하위 -17210
▁예거 -17211
▁우왕 -17212
▁우에노 -17213
▁패러독스 -17214
▁포레스트 -17215
▁애니플러스 -17216
▁곧장 -17217
▁로니 -17218
▁매튜 -17219
▁촉진 -17220
▁화보 -17221
▁베르나 -17222
▁랠 -17223
▁무서워하 -17224
95 -17225
▁퀀 -17226
▁노미 -17227
▁빙글 -17228
▁765 -17229
▁돼지고기 -17230
▁찻 -17231
날리 -17232
▁!!" -17233
▁플라워 -17234
▁콩고 -17235
▁판다 -17236
▁440 -17237
▁ESP -17238
▁예컨대 -17239
▁일렉트릭 -17240
구멍 -17241
▁레츠 -17242
▁반죽 -17243
▁디에고 -17244
▁부상자 -17245
▁코즈믹 -17246
▁어우러지 -17247
▁빗대 -17248
▁풀이 -17249
▁Cor -17250
▁샤이니 -17251
▁주둔지 -17252
▁두근두근 -17253
▁Legend -17254
멘션 -17255
삭스 -17256
▁ㅇㅜㄴ -17257
▁디멘션 -17258
▁윈스턴 -17259
블랑 -17260
▁소란 -17261
오피아 -17262
▁MOD -17263
▁수차례 -17264
▁every -17265
▁에티오피아 -17266
▁가관 -17267
▁숙박 -17268
▁양말 -17269
▁진행하 -17270
▁다리우스 -17271
▁중남 -17272
▁수사관 -17273
▁2021 -17274
▁oh -17275
▁왕세 -17276
▁최형 -17277
▁이로 -17278
▁전리 -17279
▁Fly -17280
▁EXTRA -17281
▁군세 -17282
▁동강 -17283
▁반신 -17284
▁훌쩍 -17285
▁Rad -17286
▁our -17287
▁속임수 -17288
▁경음 -17289
▁다분 -17290
▁로트 -17291
▁세카 -17292
▁족족 -17293
▁208 -17294
▁주유소 -17295
▁쿠로사키 -17296
▁광주광역시 -17297
▁래빗 -17298
▁애착 -17299
▁Fre -17300
▁htm -17301
▁알고리 -17302
▁알프레드 -17303
▁코드네임 -17304
com -17305
▁약혼자 -17306
▁컨퍼런스 -17307
▁넛 -17308
▁에비 -17309
▁산호 -17310
▁불러내 -17311
irect -17312
▁어려우 -17313
마드 -17314
▁덤블 -17315
▁잠식 -17316
▁주루 -17317
▁탈영 -17318
▁내던지 -17319
▁다이묘 -17320
▁단축키 -17321
▁대대장 -17322
▁마사루 -17323
▁부잣집 -17324
▁과열 -17325
▁영장 -17326
▁다이노 -17327
GM -17328
▁명언 -17329
▁아발 -17330
▁엘더 -17331
▁짜장 -17332
▁TRA -17333
▁타이완 -17334
▁유니버 -17335
▁히로키 -17336
▁명실상부 -17337
▁고마 -17338
▁양재 -17339
▁Aut -17340
▁니키 -17341
get -17342
▁** -17343
▁보름 -17344
▁이도 -17345
▁Dest -17346
▁포유 -17347
arth -17348
▁EXPER -17349
▁구실 -17350
▁물러 -17351
▁천차 -17352
▁팬더 -17353
▁메커니즘 -17354
▁차고 -17355
▁EXO -17356
▁한국사 -17357
레톤 -17358
▁기로 -17359
▁딱지 -17360
▁박진영 -17361
▁Level -17362
▁볶음 -17363
▁역장 -17364
▁Mac -17365
각형 -17366
발리 -17367
벌이 -17368
▁Ry -17369
▁죠타 -17370
▁지간 -17371
▁스켈레톤 -17372
IO -17373
▁올려 -17374
▁펑펑 -17375
▁황색 -17376
▁이정훈 -17377
▁출연자 -17378
▁클리프 -17379
▁향신료 -17380
▁치하 -17381
▁페트 -17382
▁214 -17383
▁닳 -17384
▁내치 -17385
▁이크 -17386
카이저 -17387
▁NASA -17388
노부 -17389
▁사칭 -17390
▁생소 -17391
▁위스키 -17392
▁시리우스 -17393
▁브라이 -17394
▁제타 -17395
▁풍신 -17396
▁헤더 -17397
▁건너오 -17398
▁미야코 -17399
바탕 -17400
▁교활 -17401
INAL -17402
▁CGV -17403
▁프리랜서 -17404
OTH -17405
▁양분 -17406
▁대나무 -17407
▁down -17408
23 -17409
▁섬뜩 -17410
▁스메 -17411
▁자속 -17412
▁포구 -17413
▁Tech -17414
▁노기자카 -17415
다듬 -17416
▁검거 -17417
▁작자 -17418
▁사업가 -17419
▁알고리즘 -17420
▁냉철 -17421
▁역세 -17422
▁잔여 -17423
▁집요 -17424
▁ㅈㅔ -17425
▁노년 -17426
▁보옥 -17427
▁위드 -17428
▁한인 -17429
글러브 -17430
▁노미야 -17431
▁골든글러브 -17432
▁건축물 -17433
▁이따금 -17434
▁자서전 -17435
▁파충류 -17436
▁산산조각 -17437
▁TECHNIKA -17438
▁분경 -17439
▁사보 -17440
▁이비 -17441
▁훈련병 -17442
▁셰이 -17443
▁301 -17444
▁곧잘 -17445
▁취항 -17446
해머 -17447
▁미적 -17448
▁적도 -17449
▁정관 -17450
▁클럭 -17451
▁혈연 -17452
가르드 -17453
▁보이드 -17454
▁피어스 -17455
▁Port -17456
▁김응 -17457
▁탄산 -17458
▁공연장 -17459
▁이승현 -17460
▁자이로 -17461
▁하야미 -17462
▁more -17463
▁백마 -17464
▁Ul -17465
▁대영 -17466
▁제동 -17467
▁화전 -17468
▁Pol -17469
▁컴플렉스 -17470
리언 -17471
▁경합 -17472
▁백스 -17473
▁빈민 -17474
▁윤종 -17475
숭아 -17476
▁기각 -17477
▁수병 -17478
▁에뮬 -17479
▁그랜트 -17480
TER -17481
▁요네 -17482
거스 -17483
우먼 -17484
▁과잉 -17485
▁복서 -17486
▁아재 -17487
▁최순 -17488
▁언론사 -17489
▁카트라이더 -17490
선거 -17491
▁외동 -17492
▁EXPERT -17493
enc -17494
▁구이 -17495
▁권법 -17496
▁권력자 -17497
▁가르시아 -17498
▁나주 -17499
▁어웨이 -17500
▁개머리판 -17501
▁모자이크 -17502
동물 -17503
▁마이티 -17504
▁된 -17505
헤치 -17506
ano -17507
▁이어주 -17508
▁지명타자 -17509
▁AO -17510
▁노우 -17511
▁이롭 -17512
▁타타 -17513
▁410 -17514
노프 -17515
피드 -17516
▁누비 -17517
▁주제가 -17518
▁지상군 -17519
▁헤비급 -17520
▁난데없이 -17521
▁=, -17522
▁차차 -17523
▁켄신 -17524
▁RGB -17525
▁등록금 -17526
▁물러서 -17527
펠러 -17528
▁닛산 -17529
▁국교 -17530
▁편찬 -17531
▁환술 -17532
ya -17533
▁페널티가 -17534
▁자백 -17535
▁쿠퍼 -17536
ated -17537
▁싸구려 -17538
▁애리조 -17539
▁여중 -17540
▁마츠이 -17541
도나 -17542
▁덴오 -17543
▁아와 -17544
뚤어지 -17545
▁블로우 -17546
▁쏙 -17547
▁공황 -17548
▁Hol -17549
▁생몰년 -17550
▁올리브 -17551
▁아소 -17552
▁펠레 -17553
▁푸시 -17554
▁하피 -17555
▁도카이 -17556
▁아키오 -17557
▁제이미 -17558
▁AW -17559
▁켈트 -17560
▁놀림 -17561
▁모차 -17562
▁송곳니 -17563
▁공문 -17564
▁담그 -17565
▁레토 -17566
▁홍련 -17567
▁오레 -17568
▁자릿 -17569
▁카니 -17570
▁투지 -17571
▁떠넘기 -17572
▁하이스 -17573
무쌍 -17574
▁ABC -17575
▁방탄복 -17576
▁파라오 -17577
소타 -17578
▁렐름 -17579
▁밧줄 -17580
▁포박 -17581
▁농어촌 -17582
▁라이스 -17583
니케이션 -17584
▁마이스터 -17585
▁조선일보 -17586
tor -17587
▁ㅈㅑ -17588
▁광저우 -17589
▁동시대 -17590
▁물어뜯 -17591
▁WHIP -17592
▁독립운동가 -17593
▁위용 -17594
▁특촬물 -17595
▁Line -17596
▁괴로워하 -17597
▁커뮤니케이션 -17598
▁다의 -17599
▁원대 -17600
▁이면 -17601
▁정가 -17602
바위보 -17603
▁노태우 -17604
▁스사노 -17605
▁가위바위보 -17606
▁선더 -17607
▁쾌락 -17608
▁이나바 -17609
▁송지 -17610
▁돌려받 -17611
▁선샤인 -17612
에트 -17613
uro -17614
▁이윤열 -17615
▁미네소타 -17616
수염 -17617
ouble -17618
▁해부 -17619
▁졸지에 -17620
▁즐거움 -17621
▁레인저스 -17622
▁댁 -17623
매기 -17624
▁방주 -17625
▁진풍 -17626
▁Hey -17627
▁비행장 -17628
▁Fall -17629
▁호연 -17630
▁GPS -17631
▁거북이 -17632
▁서큐버스 -17633
▁자정 -17634
▁코칭 -17635
▁도메인 -17636
▁타카미 -17637
▁활발히 -17638
▁강당 -17639
▁속출 -17640
▁채무 -17641
▁하긴 -17642
▁안치 -17643
▁증식 -17644
도니아 -17645
ague -17646
▁AAA -17647
▁내려치 -17648
▁good -17649
성어 -17650
피디아 -17651
▁볼드모트 -17652
▁레터 -17653
▁들어맞 -17654
▁베이커 -17655
▁명맥 -17656
▁위키피디아 -17657
▁다테 -17658
▁몬드 -17659
▁Val -17660
▁보급품 -17661
▁뒤엎 -17662
▁품목 -17663
아오르 -17664
비지 -17665
▁마리나 -17666
▁바이트 -17667
▁집어던지 -17668
▁산전 -17669
▁요마 -17670
▁라르 -17671
▁이룩 -17672
ther -17673
▁경희대 -17674
▁차오르 -17675
be -17676
▁명계 -17677
▁모성 -17678
▁오줌 -17679
▁팽창 -17680
▁소스케 -17681
▁아이슬 -17682
▁장기전 -17683
▁watch -17684
츠미 -17685
▁뒤섞 -17686
▁티오 -17687
▁노이드 -17688
▁덤벼들 -17689
▁반입 -17690
▁Ant -17691
96 -17692
▁갈비 -17693
▁고구 -17694
▁코라 -17695
▁고라 -17696
▁타무라 -17697
we -17698
▁급소 -17699
▁영령 -17700
▁라이엇 -17701
▁연장선 -17702
▁"' -17703
▁메모리얼 -17704
▁케이스케 -17705
▁번쩍 -17706
▁일전 -17707
▁후지타 -17708
▁개중 -17709
▁내무 -17710
▁레너드 -17711
▁살포 -17712
▁완투 -17713
▁지바 -17714
▁유희열 -17715
▁Kill -17716
▁하나같이 -17717
▁white -17718
걸음 -17719
▁감격 -17720
▁남서 -17721
▁인계 -17722
▁흐트 -17723
▁Show -17724
▁강북 -17725
▁노드 -17726
▁복판 -17727
▁방사선 -17728
▁요스케 -17729
팽이 -17730
▁앤트 -17731
▁이펙터 -17732
도어 -17733
UND -17734
▁OT -17735
▁소굴 -17736
ITAD -17737
und -17738
▁간직 -17739
▁보크 -17740
▁속주 -17741
▁투여 -17742
▁희소 -17743
▁병살타 -17744
▁녹스 -17745
▁피통 -17746
line -17747
▁설립자 -17748
▁우즈베 -17749
▁Spring -17750
▁쿡 -17751
타마 -17752
▁낙동 -17753
▁발랄 -17754
▁영수 -17755
▁008 -17756
▁Pop -17757
▁매크로 -17758
부르 -17759
▁EL -17760
▁오스틴 -17761
▁해밀턴 -17762
▁목성 -17763
▁장문 -17764
▁가락 -17765
▁머큐 -17766
▁황천 -17767
배기 -17768
키오 -17769
▁견주 -17770
▁몽환 -17771
▁가요제 -17772
▁장제스 -17773
ck -17774
▁꼼꼼 -17775
▁펌웨어 -17776
▁투영 -17777
▁팍팍 -17778
▁010 -17779
▁스타터 -17780
▁튠 -17781
▁라카 -17782
▁리라 -17783
▁조련 -17784
▁취역 -17785
▁Cal -17786
▁박지성 -17787
조선 -17788
▁괄호 -17789
▁봉지 -17790
▁총수 -17791
▁호신 -17792
▁바티칸 -17793
▁아이슬란드 -17794
▁Ind -17795
▁공모전 -17796
▁연합국 -17797
▁한자어 -17798
비어 -17799
▁마요 -17800
▁알버트 -17801
▁정상급 -17802
▁트랭크 -17803
▁디스트로 -17804
ㅓㄴ -17805
▁에니 -17806
▁구세주 -17807
▁도래 -17808
▁의약 -17809
▁깍 -17810
▁상층 -17811
▁청혼 -17812
▁캠핑 -17813
▁Way -17814
▁중심부 -17815
▁동자 -17816
▁발열 -17817
▁조종석 -17818
▁Dead -17819
▁디스트로이어 -17820
▁소폭 -17821
▁Girls -17822
구석 -17823
럴드 -17824
▁내신 -17825
▁묵시 -17826
▁외견 -17827
▁인파 -17828
▁포괄 -17829
▁EPL -17830
▁천문학 -17831
매김 -17832
▁와해 -17833
▁한술 -17834
▁헤엄 -17835
▁마츠리 -17836
▁인민군 -17837
▁카디널 -17838
▁수두 -17839
▁포츈 -17840
▁동해선 -17841
▁국무총리 -17842
그러 -17843
▁아다 -17844
▁꼬맹이 -17845
▁받아치 -17846
▁은지원 -17847
▁자리매김 -17848
▁GITAD -17849
▁상수 -17850
▁목욕탕 -17851
▁Club -17852
▁들어올리 -17853
▁바이올렛 -17854
▁허물 -17855
▁여하튼 -17856
▁환상향 -17857
▁궁궐 -17858
▁나토 -17859
▁민심 -17860
▁1937 -17861
▁도살 -17862
▁연무 -17863
▁조지아 -17864
▁영도 -17865
▁자물 -17866
▁공포증 -17867
▁이대호 -17868
▁원정대 -17869
▁타카기 -17870
▁퍼니셔 -17871
▁후타바 -17872
▁히데오 -17873
▁오블리 -17874
▁완패 -17875
▁편차 -17876
▁형용 -17877
ault -17878
노세 -17879
▁사적 -17880
▁자습 -17881
▁카나타 -17882
ipedia -17883
그럽 -17884
▁이석 -17885
▁흐지 -17886
▁방아쇠 -17887
▁브리핑 -17888
▁생활관 -17889
▁세리카 -17890
▁자물쇠 -17891
▁흐지부지 -17892
▁뻑 -17893
▁김시 -17894
▁How -17895
▁부적절 -17896
▁비행단 -17897
AV -17898
▁분식 -17899
▁장화 -17900
프레이 -17901
▁로엔 -17902
▁신탁 -17903
▁적시 -17904
▁스케이트 -17905
▁MMORPG -17906
gy -17907
▁노다 -17908
▁재킷 -17909
▁사이키 -17910
연의 -17911
▁전조 -17912
▁혹독 -17913
▁내비치 -17914
▁사나에 -17915
▁큘 -17916
▁sk -17917
▁간절 -17918
▁건달 -17919
▁반공 -17920
▁데이지 -17921
▁SPEC -17922
▁아카이브 -17923
▁내비 -17924
▁돌기 -17925
▁원나라 -17926
▁퀘이크 -17927
▁티아라 -17928
▁WORLD -17929
러미 -17930
▁성룡 -17931
▁이규 -17932
▁일찍이 -17933
▁신천 -17934
▁읽히 -17935
▁들이받 -17936
▁모차르트 -17937
▁비닐 -17938
▁샤먼 -17939
▁조디 -17940
게이트 -17941
▁쓸리 -17942
▁얼라 -17943
▁Now -17944
▁뿅 -17945
▁반려 -17946
▁버지 -17947
▁힘내 -17948
▁윤석민 -17949
▁오블리비언 -17950
▁심볼 -17951
▁판인 -17952
ayer -17953
▁에스퍼 -17954
▁프랭클린 -17955
▁스탬 -17956
▁특례 -17957
▁해지 -17958
▁동호인 -17959
▁똑바로 -17960
▁이광수 -17961
▁프로페 -17962
▁헤이즈 -17963
▁일회 -17964
▁XI -17965
▁과묵 -17966
▁달렉 -17967
▁톰슨 -17968
ling -17969
▁거주민 -17970
▁계약자 -17971
▁DL -17972
▁군용 -17973
▁권속 -17974
▁경계선 -17975
▁싸그리 -17976
▁위안부 -17977
▁별점 -17978
▁숨결 -17979
▁요도 -17980
플라이 -17981
▁HKT -17982
▁다이어 -17983
▁로렌스 -17984
제프 -17985
회의 -17986
▁격분 -17987
▁길동 -17988
▁실기 -17989
▁절제 -17990
▁한문 -17991
▁Hi -17992
▁래더 -17993
▁추격전 -17994
▁기권 -17995
▁햐 -17996
▁공민 -17997
▁안구 -17998
페르노 -17999
▁떠나가 -18000
▁여운 -18001
▁Har -18002
▁모로코 -18003
▁돗 -18004
▁훤 -18005
▁빈곤 -18006
▁슈츠 -18007
▁원반 -18008
▁제라드 -18009
대군 -18010
▁뺨치 -18011
▁위임 -18012
▁일식 -18013
▁Med -18014
▁사이렌 -18015
▁은신처 -18016
▁름 -18017
▁백호 -18018
▁승조 -18019
▁연마 -18020
갯소리 -18021
▁EXE -18022
▁이마이 -18023
▁끌어안 -18024
▁1934 -18025
▁인페르노 -18026
▁귀속 -18027
▁만성 -18028
▁유품 -18029
▁Sam -18030
▁구매자 -18031
▁눈부시 -18032
▁호타루 -18033
▁공평 -18034
▁Death -18035
▁Space -18036
▁샘플링 -18037
▁워해머 -18038
▁분하 -18039
▁야유 -18040
▁주화 -18041
▁MOVIE -18042
▁인술 -18043
▁황룡 -18044
▁GITADORA -18045
야구 -18046
▁KE -18047
▁레티 -18048
▁루팅 -18049
▁아세 -18050
▁양팔 -18051
▁코쿠 -18052
▁타깃 -18053
안군 -18054
▁더듬 -18055
▁세조 -18056
▁선교사 -18057
▁테크놀 -18058
▁걸어다니 -18059
통일 -18060
▁-! -18061
▁안주 -18062
▁마음먹 -18063
▁보컬로이드 -18064
▁XG -18065
▁수모 -18066
▁창간 -18067
▁Def -18068
▁연장전 -18069
▁태양계 -18070
▁Pass -18071
▁홈플러스 -18072
▁고글 -18073
▁금빛 -18074
▁인가 -18075
▁감염자 -18076
▁번역본 -18077
▁오아시스 -18078
▁Sweet -18079
▁도핑 -18080
▁수속 -18081
▁유타카 -18082
▁Friend -18083
▁금단 -18084
▁속칭 -18085
▁인턴 -18086
▁바운 -18087
▁성종 -18088
▁장자 -18089
▁인플레이션 -18090
▁드미 -18091
덩어리 -18092
▁시위대 -18093
▁Park -18094
▁짠 -18095
▁EB -18096
▁무마 -18097
▁발단 -18098
▁바닷가 -18099
▁부착물 -18100
▁스펙트 -18101
iny -18102
▁눈여 -18103
▁무트 -18104
▁수반 -18105
▁수첩 -18106
▁엠블럼 -18107
▁우스갯소리 -18108
팔구 -18109
▁야오 -18110
▁톱니 -18111
▁팔라 -18112
▁하룻 -18113
▁ISO -18114
▁니스트 -18115
▁소방서 -18116
▁템페스트 -18117
▁독고 -18118
▁이견 -18119
▁종속 -18120
▁함성 -18121
▁bit -18122
▁선호도 -18123
▁아즈마 -18124
▁드로이드 -18125
▁만연 -18126
▁잠자리 -18127
ortex -18128
▁십중 -18129
▁지마 -18130
이시 -18131
▁고압 -18132
▁스구 -18133
▁엠마 -18134
▁포식자 -18135
▁삼국지연의 -18136
제비 -18137
▁그람 -18138
▁받침 -18139
▁번화 -18140
▁비겁 -18141
ople -18142
▁십중팔구 -18143
▁플레이버 -18144
실신 -18145
하늘 -18146
▁HY -18147
▁미얀 -18148
▁백과 -18149
▁자상 -18150
▁껍데기 -18151
▁떡실신 -18152
▁레이팅 -18153
▁사토루 -18154
▁정박 -18155
▁한큐 -18156
▁그지없 -18157
UK -18158
▁보살피 -18159
나크 -18160
ASY -18161
▁구수 -18162
▁양육 -18163
다이스 -18164
▁관현악 -18165
▁부르크 -18166
▁그리워하 -18167
▁조라 -18168
▁헌납 -18169
▁협의회 -18170
▁Story -18171
바꿈 -18172
▁식용 -18173
▁세이프 -18174
▁MY -18175
▁김연아 -18176
▁거너 -18177
▁검출 -18178
▁노장 -18179
ental -18180
▁나지 -18181
▁머슬 -18182
▁밀수 -18183
▁실격 -18184
▁안대 -18185
▁전근 -18186
▁로드리게 -18187
꿀멍 -18188
▁Bu -18189
▁If -18190
▁금세 -18191
▁모란 -18192
▁셋쇼 -18193
▁has -18194
▁데꿀멍 -18195
▁셋쇼마루 -18196
▁카빈 -18197
▁신뢰도 -18198
▁쳐들어가 -18199
▁린코 -18200
▁정국 -18201
▁Inv -18202
▁Sur -18203
▁WWF -18204
unk -18205
▁김세 -18206
▁탈리 -18207
▁디폴트 -18208
가요 -18209
송이 -18210
▁계투 -18211
▁아톰 -18212
▁재차 -18213
ander -18214
▁비어 -18215
▁엘릭 -18216
▁직급 -18217
깃거리 -18218
▁숙제 -18219
▁카키 -18220
▁min -18221
▁땅굴 -18222
▁슈테 -18223
재욱 -18224
▁경례 -18225
▁요절 -18226
▁헐리 -18227
▁합격자 -18228
▁라멘 -18229
▁원내 -18230
▁태후 -18231
▁거하 -18232
▁막시 -18233
▁칩셋 -18234
▁통통 -18235
▁슬럼프 -18236
▁지원자 -18237
66 -18238
ubl -18239
▁라그 -18240
▁음역 -18241
▁잠정 -18242
▁캡쳐 -18243
▁평온 -18244
▁삼각형 -18245
▁발진 -18246
▁변칙 -18247
▁Cha -18248
▁병풍 -18249
▁사스 -18250
▁신승 -18251
▁지네 -18252
일비 -18253
▁달구 -18254
▁중파 -18255
▁미국식 -18256
▁맨몸 -18257
▁주지 -18258
▁이바라 -18259
▁지원군 -18260
▁무구 -18261
▁속사 -18262
▁스톱 -18263
▁유흥 -18264
▁점장 -18265
▁창출 -18266
우로스 -18267
▁광해군 -18268
▁연옥 -18269
▁이보 -18270
▁무례 -18271
▁본점 -18272
▁은둔 -18273
▁인제 -18274
▁환승역 -18275
▁타이베이 -18276
▁클라이맥스 -18277
▁생식 -18278
▁Never -18279
거래 -18280
▁인삼 -18281
▁점치 -18282
▁하원 -18283
▁마일리지 -18284
▁가희 -18285
▁반년 -18286
▁수트 -18287
▁지드 -18288
▁혼용 -18289
▁아야노 -18290
▁John -18291
str -18292
▁GE -18293
▁발기 -18294
▁안즈 -18295
▁유린 -18296
▁트란 -18297
▁빗자루 -18298
곡역 -18299
ley -18300
▁나트 -18301
▁사절 -18302
▁의병 -18303
▁케이이치 -18304
▁팥 -18305
걸스 -18306
미아 -18307
▁발성 -18308
▁성북 -18309
▁케어 -18310
▁쾌적 -18311
▁DSP -18312
▁과거사 -18313
▁돌이키 -18314
▁블로킹 -18315
▁점프력 -18316
▁사이클론 -18317
▁몽키 -18318
▁밀짚 -18319
▁바텀 -18320
▁일괄 -18321
▁다르크 -18322
▁상승세 -18323
더리 -18324
▁겨냥 -18325
▁변기 -18326
▁요크 -18327
▁LOL -18328
▁평의회 -18329
▁핫토리 -18330
폭풍 -18331
RAS -18332
▁di -18333
▁관세 -18334
▁살육 -18335
▁서주 -18336
▁스맥 -18337
▁양천 -18338
▁스냅드래곤 -18339
▁군장 -18340
▁부팅 -18341
ords -18342
▁스맥다운 -18343
ope -18344
▁ㄸㅏ -18345
▁거들 -18346
▁고딕 -18347
▁제아 -18348
▁득점자 -18349
▁미치루 -18350
▁성물 -18351
▁저편 -18352
▁두루마리 -18353
거나 -18354
▁노련 -18355
▁봉신 -18356
메이트 -18357
▁바깥쪽 -18358
▁야마노 -18359
▁RT -18360
▁YG -18361
▁난도 -18362
▁샤인 -18363
ㅇㅕ -18364
▁연혁 -18365
▁그리폰 -18366
자치단체 -18367
▁미노루 -18368
▁노블레스 -18369
▁지선버스 -18370
▁GU -18371
▁Tra -18372
▁코마츠 -18373
▁키쿠치 -18374
▁법령 -18375
▁키리코 -18376
▁3500 -18377
승우 -18378
▁음질 -18379
▁존기 -18380
▁질럿 -18381
▁결정타 -18382
▁치우치 -18383
▁멱살 -18384
▁백설 -18385
▁223 -18386
▁김유진 -18387
▁부지기수 -18388
▁파우스트 -18389
▁쟝 -18390
테라 -18391
▁정근 -18392
고로 -18393
▁감명 -18394
▁이코 -18395
▁입찰 -18396
▁끌어당기 -18397
ux -18398
▁살벌 -18399
udio -18400
▁거리낌 -18401
▁몰아가 -18402
▁표지판 -18403
▁갉 -18404
▁군청 -18405
▁연못 -18406
▁타도 -18407
▁고고학 -18408
▁연장자 -18409
▁Will -18410
서리 -18411
▁껴안 -18412
▁몸값 -18413
▁분출 -18414
▁콘스 -18415
네이션 -18416
tain -18417
▁Bro -18418
▁포스팅 -18419
▁\] -18420
▁샤우 -18421
▁안영 -18422
▁외주 -18423
프릭스 -18424
▁가로지르 -18425
▁기타프릭스 -18426
▁와드 -18427
▁제천 -18428
▁ㅇㅡㄹㅅㅣ -18429
▁디어 -18430
▁마우 -18431
미사일 -18432
▁Cry -18433
▁Mer -18434
▁아리마 -18435
▁아마노 -18436
▁몰두 -18437
▁우버 -18438
마이트 -18439
▁대천사 -18440
▁혹시나 -18441
▁압둘 -18442
▁그늘 -18443
▁차츰 -18444
▁페드로 -18445
▁wikipedia -18446
▁Net -18447
▁Set -18448
▁there -18449
▁내력 -18450
▁리토 -18451
▁수이 -18452
▁웅장 -18453
▁정진 -18454
▁로스쿨 -18455
▁다승 -18456
▁볼링 -18457
▁추대 -18458
▁불명예 -18459
▁수호신 -18460
토메 -18461
▁자택 -18462
▁파프 -18463
raft -18464
▁영웅전 -18465
▁하룻밤 -18466
▁Party -18467
▁사채 -18468
▁에델 -18469
▁해협 -18470
▁아나킨 -18471
isode -18472
▁비석 -18473
▁신진 -18474
▁샛 -18475
▁사춘 -18476
▁신룡 -18477
▁신혼 -18478
▁알렌 -18479
▁동아일보 -18480
▁Single -18481
▁다비드 -18482
▁불상사 -18483
▁스크랩 -18484
▁핵폭탄 -18485
▁오클랜드 -18486
▁노량 -18487
▁분단 -18488
▁입상 -18489
▁우에다 -18490
ino -18491
▁소인 -18492
▁스캇 -18493
▁SHOW -18494
▁미네르바 -18495
▁NV -18496
카타 -18497
▁hp -18498
▁이블 -18499
▁타란 -18500
▁루돌프 -18501
▁살인범 -18502
▁다이너마이트 -18503
▁은인 -18504
▁이건 -18505
▁처자 -18506
▁390 -18507
▁마유미 -18508
▁질책 -18509
▁life -18510
▁PM -18511
▁과대 -18512
▁USA -18513
▁fr -18514
▁엄친 -18515
▁관내 -18516
▁역이 -18517
▁체면 -18518
▁쌍방울 -18519
▁뮐 -18520
▁아귀 -18521
▁왕권 -18522
▁공용어 -18523
▁마석 -18524
▁저속 -18525
▁조만 -18526
▁252 -18527
▁클레멘 -18528
▁와이파이 -18529
eed -18530
▁수교 -18531
▁저절 -18532
▁주박 -18533
그래피 -18534
▁동맹국 -18535
▁보이즈 -18536
▁부조리 -18537
프레이즈 -18538
▁최종병기 -18539
▁경부고속도로 -18540
▁권투 -18541
▁물결 -18542
테라스 -18543
▁등짝 -18544
▁깨뜨리 -18545
▁나이스 -18546
BE -18547
rol -18548
▁바크 -18549
▁일간 -18550
▁조예 -18551
▁드래건 -18552
▁토에이 -18553
▁헬리오 -18554
▁훈련장 -18555
▁궁정 -18556
▁나자 -18557
▁시정 -18558
▁총신 -18559
▁타루 -18560
▁이신형 -18561
▁탈바꿈 -18562
▁Gener -18563
▁의인 -18564
▁이형 -18565
▁컵스 -18566
▁쿠가 -18567
▁호적 -18568
▁216 -18569
▁계약서 -18570
▁저절로 -18571
▁청주시 -18572
▁와일드카드 -18573
아르 -18574
▁-. -18575
▁눌리 -18576
▁라벨 -18577
▁애호 -18578
▁탄력 -18579
▁횃 -18580
▁긍지 -18581
▁로토 -18582
▁애덤 -18583
▁나가사키 -18584
▁숄 -18585
▁거란 -18586
▁미네랄 -18587
ement -18588
ations -18589
▁쫒아 -18590
▁유가족 -18591
▁아마테라스 -18592
▁애플리케이션 -18593
▁캐치프레이즈 -18594
융합 -18595
▁숙종 -18596
▁달력 -18597
▁맹렬 -18598
세이돈 -18599
▁핵융합 -18600
▁포세이돈 -18601
▁불시 -18602
▁온리 -18603
▁외할 -18604
▁번역가 -18605
== -18606
▁기증 -18607
▁사타 -18608
▁SKY -18609
▁국외 -18610
▁김남 -18611
▁Hero -18612
▁미야모토 -18613
▁분담 -18614
▁송정 -18615
▁스필 -18616
▁375 -18617
▁File -18618
예프 -18619
▁김호 -18620
▁생방송 -18621
▁수두룩 -18622
인드 -18623
▁익사 -18624
ball -18625
빙글 -18626
▁개관 -18627
▁쿠페 -18628
▁큐리 -18629
▁터빈 -18630
▁밑바닥 -18631
▁지하실 -18632
▁김제 -18633
▁반찬 -18634
▁손길 -18635
▁쿠와 -18636
▁흘러 -18637
▁격납고 -18638
▁교황청 -18639
▁레바논 -18640
▁불어넣 -18641
▁전리품 -18642
▁정보원 -18643
▁무라카미 -18644
▁별반 -18645
▁폐교 -18646
▁피시 -18647
▁현종 -18648
▁music -18649
▁큼 -18650
보트 -18651
▁뒷담 -18652
▁방전 -18653
▁뱌쿠 -18654
▁인장 -18655
▁메이슨 -18656
▁몰려들 -18657
▁휴재 -18658
ient -18659
▁글래스 -18660
▁유목민 -18661
▁걔 -18662
▁권혁 -18663
▁인위 -18664
▁모니카 -18665
▁PG -18666
▁비방 -18667
▁셔터 -18668
▁직진 -18669
▁밀가루 -18670
▁실린더 -18671
▁유시 -18672
▁1935 -18673
▁만신 -18674
▁산요 -18675
▁오나라 -18676
▁충실하 -18677
레프 -18678
이야 -18679
▁상서 -18680
▁링고 -18681
▁가우스 -18682
▁기념관 -18683
의지 -18684
▁속아 -18685
▁외판 -18686
▁더욱더 -18687
▁매출액 -18688
▁사춘기 -18689
oe -18690
▁Ma -18691
▁묵묵 -18692
▁실례 -18693
▁조경 -18694
▁루가 -18695
▁박동 -18696
▁발포 -18697
▁불굴 -18698
▁사이다 -18699
포역 -18700
▁원체 -18701
▁폄하 -18702
▁옥타브 -18703
▁투르크 -18704
▁흑기사 -18705
LY -18706
▁셧 -18707
▁대모 -18708
▁충신 -18709
▁구룡 -18710
▁분양 -18711
▁속죄 -18712
▁1919 -18713
▁댈 -18714
▁자급 -18715
▁정승 -18716
▁타코 -18717
▁계급장 -18718
▁포르쉐 -18719
▁김신 -18720
▁현세 -18721
ival -18722
▁불어나 -18723
▁Tour -18724
▁금천 -18725
▁퇴직 -18726
▁환관 -18727
▁유키오 -18728
▁까칠 -18729
▁워스 -18730
▁육탄 -18731
▁바리에 -18732
▁매그너스 -18733
▁례 -18734
▁et -18735
▁통영 -18736
▁802 -18737
▁조준기 -18738
▁콘스탄티노 -18739
▁Christ -18740
다주 -18741
▁두세 -18742
▁수양 -18743
▁오랑 -18744
▁Sou -18745
▁상급자 -18746
▁준이치 -18747
▁판박이 -18748
▁견고 -18749
▁세터 -18750
▁충무 -18751
▁USS -18752
▁케이타 -18753
▁레진 -18754
▁엘렌 -18755
▁적국 -18756
▁부대장 -18757
▁스파이럴 -18758
더미 -18759
▁게인 -18760
▁내분 -18761
▁징벌 -18762
▁틈타 -18763
▁메이스 -18764
▁무리뉴 -18765
▁플루토 -18766
핑크 -18767
▁농성 -18768
▁서커 -18769
▁자릿수 -18770
브로 -18771
▁백발 -18772
▁지코 -18773
▁방향키 -18774
▁1911 -18775
부치 -18776
유산 -18777
▁국한 -18778
▁루니 -18779
▁소이치로 -18780
▁BLACK -18781
▁신해 -18782
▁큐트 -18783
▁DAY -18784
▁리투아 -18785
▁미사토 -18786
▁리투아니아 -18787
▁ㄴㅛ -18788
▁pop -18789
▁열등감 -18790
▁네버 -18791
▁뛰쳐 -18792
▁로아 -18793
▁스도 -18794
TH -18795
나멀 -18796
▁가열 -18797
▁김한 -18798
▁섭정 -18799
▁스니 -18800
▁315 -18801
▁머나멀 -18802
▁자가용 -18803
루가 -18804
▁위닝 -18805
일비재 -18806
▁1700 -18807
▁비일비재 -18808
▁레퀴 -18809
▁마귀 -18810
▁매료 -18811
▁모태 -18812
▁SSD -18813
▁왜냐면 -18814
▁후부키 -18815
▁그레이스 -18816
ISS -18817
▁극명 -18818
▁도넛 -18819
▁마담 -18820
▁의기 -18821
▁재계 -18822
▁강남역 -18823
▁마사시 -18824
▁머큐리 -18825
▁파라다이스 -18826
▁서든 -18827
▁활력 -18828
▁YOU -18829
▁op -18830
▁굵직 -18831
▁에리스 -18832
▁지식인 -18833
▁구위 -18834
▁손색 -18835
▁폐위 -18836
▁바닥나 -18837
▁연산군 -18838
▁대전차포 -18839
밍고 -18840
백호 -18841
▁보전 -18842
▁영차 -18843
▁적잖 -18844
▁직설 -18845
주니어 -18846
▁살라딘 -18847
press -18848
▁굶주리 -18849
▁끼얹 -18850
▁심부름 -18851
▁밀짚모자 -18852
▁사카가미 -18853
차원 -18854
▁TA -18855
▁멩스 -18856
▁수원역 -18857
▁아우라 -18858
▁하버드 -18859
▁Storm -18860
▁신형 -18861
▁황녀 -18862
vil -18863
▁가계 -18864
▁사치코 -18865
▁엑스포 -18866
날레 -18867
▁양정 -18868
▁연필 -18869
▁종반 -18870
▁서대문 -18871
▁츳코미 -18872
▁음주운전 -18873
보스 -18874
▁마제 -18875
▁목장 -18876
▁핸디 -18877
▁KN -18878
▁승룡 -18879
▁영력 -18880
[...]
