[UNK]
[CLS]
[SEP]
[PAD]
[MASK]
!
"
#
$
%
&
'
(
)
*
+
,
-
.
/
0
1
2
3
4
5
6
7
8
9
:
;
<
=
>
?
@
A
B
C
D
E
F
G
H
I
J
K
L
M
N
O
P
Q
R
S
T
U
V
W
X
Y
Z
[
\
]
^
_
`
a
b
c
d
e
f
g
h
i
j
k
l
m
n
o
p
q
r
s
t
u
v
w
x
y
z
{
|
}
~

ᄀ
ᄆ
ᄇ
ᆫ
ᆯ
ㄱ
ㄲ
ㄳ
ㄴ
ㄵ
ㄶ
ㄷ
ㄸ
ㄹ
ㄺ
ㄻ
ㄼ
ㄽ
ㄾ
ㄿ
ㅀ
ㅁ
ㅂ
ㅃ
ㅄ
ㅅ
ㅆ
ㅇ
ㅈ
ㅉ
ㅊ
ㅋ
ㅌ
ㅍ
ㅎ
ㅏ
ㅐ
ㅑ
ㅒ
ㅓ
ㅔ
ㅕ
ㅖ
ㅗ
ㅘ
ㅙ
ㅚ
ㅛ
ㅜ
ㅝ
ㅞ
ㅟ
ㅠ
ㅡ
ㅢ
ㅣ
가
각
갂
갃
간
갅
갆
갇
갈
갉
갊
갋
갌
갍
갎
갏
감
갑
값
갓
갔
강
갖
갗
갘
같
갚
갛
개
객
갞
갟
갠
갡
갢
갣
갤
갥
갦
갧
갨
갩
갪
갫
갬
갭
갮
갯
갰
갱
갲
갳
갴
갵
갶
갷
갸
갹
갺
갻
갽
갾
갿
걀
걁
걂
걃
걄
걅
걆
걇
걈
걉
걊
걋
걌
걍
걎
걏
걐
걑
걒
걓
걔
걕
걖
걗
걙
걚
걛
걝
걞
걟
걠
걡
걢
걣
걤
걥
걦
걧
걨
걩
걪
걫
걬
걭
걮
걯
거
걱
걲
걳
건
걵
걶
걷
걸
걹
걺
걻
걼
걽
걾
걿
검
겁
겂
것
겄
겅
겆
겇
겈
겉
겊
겋
게
겍
겎
겏
겐
겑
겒
겓
겔
겕
겖
겗
겘
겙
겚
겛
겜
겞
겟
겠
겡
겢
겣
겤
겥
겦
겧
겨
격
겪
겫
견
겭
겮
겯
결
겱
겲
겳
겴
겵
겶
겷
겸
겹
겺
겻
겼
경
겾
겿
곀
곁
곂
곃
계
곅
곆
곇
곈
곉
곊
곋
곌
곍
곎
곏
곐
곑
곒
곓
곔
곕
곖
곗
곘
곙
곚
곛
곜
곝
곞
곟
고
곡
곢
곣
곤
곥
곦
곧
골
곩
곪
곫
곬
곭
곮
곯
곰
곱
곲
곳
곴
공
곶
곷
곸
곹
곺
곻
과
곽
곾
곿
관
괁
괂
괃
괄
괅
괆
괇
괈
괉
괊
괋
괌
괍
괎
괏
괐
광
괒
괓
괔
괕
괖
괗
괘
괙
괚
괛
괜
괝
괞
괟
괠
괡
괢
괣
괤
괥
괦
괧
괨
괩
괪
괫
괬
괭
괮
괯
괰
괱
괲
괳
괴
괵
괶
괷
괸
괹
괺
괻
괼
괽
괾
괿
굀
굁
굂
굃
굄
굅
굆
굇
굈
굉
굊
굋
굌
굍
굎
굏
교
굑
굒
굓
굔
굕
굖
굗
굘
굙
굚
굛
굜
굝
굞
굟
굠
굡
굢
굣
굤
굥
굦
굧
굨
굩
굪
굫
구
국
굮
굯
군
굱
굲
굳
굴
굵
굶
굷
굸
굹
굺
굻
굼
굽
굾
굿
궀
궁
궂
궃
궄
궅
궆
궇
궈
궉
궊
궋
권
궍
궎
궏
궐
궑
궒
궓
궔
궕
궖
궗
궘
궙
궚
궛
궜
궝
궞
궟
궠
궡
궢
궣
궤
궥
궦
궧
궨
궩
궪
궫
궬
궭
궮
궯
궰
궱
궲
궳
궴
궵
궶
궷
궸
궹
궺
궻
궼
궽
궾
궿
귀
귁
귂
귃
귄
귅
귆
귇
귈
귉
귊
귋
귌
귍
귎
귏
귐
귑
귒
귓
귔
귕
귖
귗
귘
귙
귚
귛
규
귝
귞
귟
균
귡
귢
귣
귤
귥
귦
귧
귨
귩
귪
귫
귬
귭
귮
귯
귰
귱
귲
귳
귴
귵
귶
귷
그
극
귺
귻
근
귽
귾
귿
글
긁
긂
긃
긄
긅
긆
긇
금
급
긊
긋
긌
긍
긎
긏
긐
긑
긒
긓
긔
긕
긖
긗
긘
긙
긚
긛
긜
긝
긞
긟
긠
긡
긢
긣
긤
긥
긦
긧
긨
긩
긪
긫
긬
긭
긮
긯
기
긱
긲
긳
긴
긵
긶
긷
길
긹
긺
긻
긼
긽
긾
긿
김
깁
깂
깃
깄
깅
깆
깇
깈
깉
깊
깋
까
깍
깎
깏
깐
깑
깒
깓
깔
깕
깖
깗
깘
깙
깚
깛
깜
깝
깞
깟
깡
깢
깣
깤
깥
깦
깧
깨
깩
깪
깫
깬
깭
깮
깯
깱
깲
깳
깴
깵
깶
깷
깸
깹
깺
깻
깽
깾
깿
꺀
꺁
꺂
꺃
꺄
꺅
꺆
꺇
꺈
꺉
꺊
꺋
꺌
꺍
꺎
꺏
꺐
꺑
꺒
꺓
꺔
꺕
꺖
꺗
꺘
꺙
꺚
꺛
꺜
꺝
꺞
꺟
꺠
꺡
꺢
꺣
꺤
꺥
꺦
꺧
꺨
꺩
꺪
꺫
꺬
꺭
꺮
꺯
꺰
꺱
꺲
꺳
꺴
꺵
꺶
꺷
꺸
꺹
꺺
꺻
꺼
꺽
꺾
꺿
껀
껁
껂
껃
껄
껅
껆
껇
껈
껉
껊
껋
껌
껍
껎
껏
껑
껒
껓
껔
껕
껖
껗
께
껙
껚
껛
껝
껞
껟
껠
껡
껢
껣
껤
껥
껦
껧
껨
껩
껪
껫
껬
껭
껮
껯
껰
껱
껲
껳
껴
껵
껶
껷
껸
껹
껺
껻
껼
껽
껾
껿
꼀
꼁
꼂
꼃
꼄
꼅
꼆
꼇
꼈
꼉
꼊
꼋
꼌
꼍
꼎
꼏
꼐
꼑
꼒
꼓
꼔
꼕
꼖
꼗
꼘
꼙
꼚
꼛
꼜
꼝
꼞
꼟
꼠
꼡
꼢
꼣
꼤
꼥
꼦
꼧
꼨
꼩
꼪
꼫
꼬
꼭
꼮
꼯
꼰
꼱
꼲
꼳
꼴
꼵
꼶
꼷
꼸
꼹
꼺
꼻
꼼
꼽
꼾
꼿
꽀
꽁
꽂
꽃
꽄
꽅
꽆
꽇
꽈
꽉
꽊
꽋
꽌
꽍
꽎
꽏
꽐
꽑
꽒
꽓
꽔
꽕
꽖
꽗
꽘
꽙
꽚
꽛
꽜
꽝
꽞
꽟
꽠
꽡
꽢
꽣
꽤
꽥
꽦
꽧
꽨
꽩
꽪
꽫
꽬
꽭
꽮
꽯
꽰
꽱
꽲
꽳
꽴
꽵
꽶
꽷
꽸
꽹
꽺
꽻
꽼
꽽
꽾
꽿
꾀
꾁
꾂
꾃
꾄
꾅
꾆
꾇
꾈
꾉
꾊
꾋
꾌
꾍
꾎
꾏
꾐
꾑
꾒
꾓
꾔
꾕
꾖
꾗
꾘
꾙
꾚
꾛
꾜
꾝
꾞
꾟
꾠
꾡
꾢
꾣
꾤
꾥
꾦
꾧
꾨
꾩
꾪
꾫
꾬
꾭
꾮
꾯
꾰
꾱
꾲
꾳
꾴
꾵
꾶
꾷
꾸
꾹
꾺
꾻
꾼
꾽
꾾
꾿
꿀
꿁
꿂
꿃
꿄
꿅
꿆
꿇
꿈
꿉
꿊
꿋
꿌
꿍
꿎
꿏
꿐
꿑
꿒
꿓
꿔
꿕
꿖
꿗
꿘
꿙
꿚
꿛
꿜
꿝
꿞
꿟
꿠
꿡
꿢
꿣
꿤
꿥
꿦
꿧
꿨
꿩
꿪
꿫
꿬
꿭
꿮
꿯
꿰
꿱
꿲
꿳
꿵
꿶
꿷
꿹
꿺
꿻
꿼
꿽
꿾
꿿
뀀
뀁
뀂
뀃
뀅
뀆
뀇
뀈
뀉
뀊
뀋
뀌
뀍
뀎
뀏
뀐
뀑
뀒
뀓
뀕
뀖
뀗
뀘
뀙
뀚
뀛
뀜
뀝
뀞
뀟
뀠
뀡
뀢
뀣
뀤
뀥
뀦
뀧
뀨
뀩
뀪
뀫
뀬
뀭
뀮
뀯
뀰
뀱
뀲
뀳
뀴
뀵
뀶
뀷
뀸
뀹
뀺
뀻
뀼
뀽
뀾
뀿
끀
끁
끂
끃
끄
끅
끆
끇
끈
끉
끊
끋
끌
끍
끎
끏
끐
끑
끒
끓
끔
끕
끖
끗
끘
끙
끚
끛
끜
끝
끞
끟
끠
끡
끢
끣
끤
끥
끦
끧
끨
끩
끪
끫
끬
끭
끮
끯
끰
끱
끲
끳
끴
끵
끶
끷
끸
끹
끺
끻
끼
끽
끾
끿
낀
낁
낂
낃
낄
낅
낆
낇
낈
낉
낊
낋
낌
낍
낎
낏
낐
낑
낒
낓
낔
낕
낖
낗
나
낙
낚
낛
난
낝
낞
낟
날
낡
낢
낣
낤
낥
낦
낧
남
납
낪
낫
났
낭
낮
낯
낰
낱
낲
낳
내
낵
낶
낷
낸
낹
낺
낻
낼
낽
낾
낿
냀
냁
냂
냃
냄
냅
냆
냇
냈
냉
냊
냋
냌
냍
냎
냏
냐
냑
냒
냓
냔
냕
냖
냗
냘
냙
냚
냛
냜
냝
냞
냟
냠
냡
냢
냣
냤
냥
냦
냧
냨
냩
냪
냫
냬
냭
냮
냯
냰
냱
냲
냳
냴
냵
냶
냷
냸
냹
냺
냻
냼
냽
냾
냿
넀
넁
넂
넃
넄
넅
넆
넇
너
넉
넊
넋
넌
넍
넎
넏
널
넑
넒
넓
넔
넕
넖
넗
넘
넙
넚
넛
넜
넝
넞
넟
넠
넡
넢
넣
네
넥
넦
넧
넨
넩
넪
넫
넬
넭
넮
넯
넰
넱
넲
넳
넴
넵
넶
넷
넸
넹
넺
넻
넼
넽
넾
넿
녀
녁
녂
녃
년
녅
녆
녇
녈
녉
녊
녋
녌
녍
녎
녏
념
녑
녒
녓
녔
녕
녖
녗
녘
녙
녚
녛
녜
녝
녞
녟
녠
녡
녢
녣
녤
녥
녦
녧
녨
녩
녪
녫
녬
녭
녮
녯
녰
녱
녲
녳
녴
녵
녶
녷
노
녹
녺
녻
논
녽
녾
녿
놀
놁
놂
놃
놄
놅
놆
놇
놈
놉
놊
놋
놌
농
놎
놏
놐
놑
높
놓
놔
놕
놖
놗
놘
놙
놚
놛
놜
놝
놞
놟
놠
놡
놢
놣
놤
놥
놦
놧
놨
놩
놪
놫
놬
놭
놮
놯
놰
놱
놲
놳
놴
놵
놶
놷
놸
놹
놺
놻
놼
놽
놾
놿
뇀
뇁
뇂
뇃
뇄
뇅
뇆
뇇
뇈
뇉
뇊
뇋
뇌
뇍
뇎
뇏
뇐
뇑
뇒
뇓
뇔
뇕
뇖
뇗
뇘
뇙
뇚
뇛
뇜
뇝
뇞
뇟
뇠
뇡
뇢
뇣
뇤
뇥
뇦
뇧
뇨
뇩
뇪
뇫
뇬
뇭
뇮
뇯
뇰
뇱
뇲
뇳
뇴
뇵
뇶
뇷
뇸
뇹
뇺
뇻
뇼
뇽
뇾
뇿
눀
눁
눂
눃
누
눅
눆
눇
눈
눉
눊
눋
눌
눍
눎
눏
눐
눑
눒
눓
눔
눕
눖
눗
눘
눙
눚
눛
눜
눝
눞
눟
눡
눢
눣
눤
눥
눦
눧
눨
눩
눪
눫
눬
눭
눮
눯
눰
눱
눲
눳
눵
눶
눷
눸
눹
눺
눻
눼
눽
눾
눿
뉀
뉁
뉂
뉃
뉄
뉅
뉆
뉇
뉈
뉉
뉊
뉋
뉌
뉍
뉎
뉏
뉐
뉑
뉒
뉓
뉔
뉕
뉖
뉗
뉘
뉙
뉚
뉛
뉜
뉝
뉞
뉟
뉡
뉢
뉣
뉤
뉥
뉦
뉧
뉨
뉩
뉪
뉫
뉬
뉭
뉮
뉯
뉰
뉱
뉲
뉳
뉴
뉵
뉶
뉷
뉸
뉹
뉺
뉻
뉼
뉽
뉾
뉿
늀
늁
늂
늃
늄
늅
늆
늇
늈
늉
늊
늋
늌
늍
늎
늏
느
늑
늒
늓
는
늕
늖
늗
늘
늙
늚
늛
늜
늝
늞
늟
늠
늡
늢
늣
늤
능
늦
늧
늨
늩
늪
늫
늬
늭
늮
늯
늰
늱
늲
늳
늴
늵
늶
늷
늸
늹
늺
늻
늼
늽
늾
늿
닀
닁
닂
닃
닄
닅
닆
닇
니
닉
닊
닋
닌
닍
닎
닏
닐
닑
닒
닓
닔
닕
닖
닗
님
닙
닚
닛
닜
닝
닞
닟
닠
닡
닢
닣
다
닥
닦
닧
단
닩
닪
닫
달
닭
닮
닯
닰
닱
닲
닳
담
답
닶
닷
닸
당
닺
닻
닼
닽
닾
닿
대
댁
댂
댃
댄
댅
댆
댇
댈
댉
댊
댋
댌
댍
댎
댏
댐
댑
댒
댓
댔
댕
댖
댗
댘
댙
댚
댛
댜
댝
댞
댟
댠
댡
댢
댣
댤
댥
댦
댧
댨
댩
댪
댫
댬
댭
댮
댯
댰
댱
댲
댳
댴
댵
댶
댷
댸
댹
댺
댻
댼
댽
댾
댿
덀
덁
덂
덃
덄
덅
덆
덇
덈
덉
덊
덋
덌
덍
덎
덏
덐
덑
덒
덓
더
덕
덖
덗
던
덙
덚
덛
덜
덝
덞
덟
덠
덡
덢
덣
덤
덥
덦
덧
덨
덩
덪
덫
덬
덭
덮
덯
데
덱
덲
덳
덴
덵
덶
덷
델
덹
덺
덻
덼
덽
덾
덿
뎀
뎁
뎂
뎃
뎄
뎅
뎆
뎇
뎈
뎉
뎊
뎋
뎌
뎍
뎎
뎏
뎐
뎑
뎒
뎓
뎔
뎕
뎖
뎗
뎘
뎙
뎚
뎛
뎜
뎝
뎞
뎟
뎠
뎡
뎢
뎣
뎤
뎥
뎦
뎧
뎨
뎩
뎪
뎫
뎬
뎭
뎮
뎯
뎰
뎱
뎲
뎳
뎴
뎵
뎶
뎷
뎸
뎹
뎺
뎻
뎼
뎽
뎾
뎿
돀
돁
돂
돃
도
독
돆
돇
돈
돉
돊
돋
돌
돍
돎
돏
돐
돑
돒
돓
돔
돕
돖
돗
돘
동
돚
돛
돜
돝
돞
돟
돠
돡
돢
돣
돤
돥
돦
돧
돨
돩
돪
돫
돬
돭
돮
돯
돰
돱
돲
돳
돴
돵
돶
돷
돸
돹
돺
돻
돼
돽
돾
돿
됀
됁
됂
됃
됄
됅
됆
됇
됈
됉
됊
됋
됌
됍
됎
됏
됐
됑
됒
됓
됔
됕
됖
됗
되
됙
됚
됛
된
됝
됞
됟
될
됡
됢
됣
됤
됥
됦
됧
됨
됩
됪
됫
됬
됭
됮
됯
됰
됱
됲
됳
됴
됵
됶
됷
됸
됹
됺
됻
됼
됽
됾
됿
둀
둁
둂
둃
둄
둅
둆
둇
둈
둉
둊
둋
둌
둍
둎
둏
두
둑
둒
둓
둔
둕
둖
둗
둘
둙
둚
둛
둜
둝
둞
둟
둠
둡
둢
둣
둤
둥
둦
둧
둨
둩
둪
둫
둬
둭
둮
둯
둰
둱
둲
둳
둴
둵
둶
둷
둸
둹
둺
둻
둼
둽
둾
둿
뒁
뒂
뒃
뒄
뒅
뒆
뒇
뒈
뒉
뒊
뒋
뒌
뒍
뒎
뒏
뒐
뒑
뒒
뒓
뒔
뒕
뒖
뒗
뒘
뒙
뒚
뒛
뒜
뒝
뒞
뒟
뒠
뒡
뒢
뒣
뒤
뒥
뒦
뒧
뒨
뒩
뒪
뒫
뒬
뒭
뒮
뒯
뒰
뒱
뒲
뒳
뒴
뒵
뒶
뒷
뒸
뒹
뒺
뒻
뒼
뒽
뒾
뒿
듀
듁
듂
듃
듄
듅
듆
듇
듈
듉
듊
듋
듌
듍
듎
듏
듐
듑
듒
듓
듔
듕
듖
듗
듘
듙
듚
듛
드
득
듞
듟
든
듡
듢
듣
들
듥
듦
듧
듨
듩
듪
듫
듬
듭
듮
듯
듰
등
듲
듳
듴
듵
듶
듷
듸
듹
듺
듻
듼
듽
듾
듿
딀
딁
딂
딃
딄
딅
딆
딇
딈
딉
딊
딋
딌
딍
딎
딏
딐
딑
딒
딓
디
딕
딖
딗
딘
딙
딚
딛
딜
딝
딞
딟
딠
딡
딢
딣
딤
딥
딦
딧
딨
딩
딪
딫
딬
딭
딮
딯
따
딱
딲
딳
딴
딵
딶
딷
딸
딹
딺
딻
딼
딽
딾
딿
땀
땁
땂
땃
땅
땆
땇
땈
땉
땊
땋
때
땍
땎
땏
땐
땑
땒
땓
땔
땕
땖
땗
땘
땙
땚
땛
땜
땝
땞
땟
땠
땡
땢
땣
땤
땥
땦
땧
땨
땩
땪
땫
땬
땭
땮
땯
땰
땱
땲
땳
땴
땵
땶
땷
땸
땹
땺
땻
땼
땽
땾
땿
떀
떁
떂
떃
떄
떅
떆
떇
떈
떉
떊
떋
떌
떍
떎
떏
떐
떑
떒
떓
떔
떕
떖
떗
떘
떙
떚
떛
떜
떝
떞
떟
떠
떡
떢
떣
떤
떥
떦
떧
떨
떩
떪
떫
떬
떭
떮
떯
떰
떱
떲
떳
떵
떶
떷
떸
떹
떺
떻
떼
떽
떾
떿
뗀
뗁
뗂
뗃
뗄
뗅
뗆
뗇
뗈
뗉
뗊
뗋
뗌
뗍
뗎
뗏
뗑
뗒
뗓
뗔
뗕
뗖
뗗
뗘
뗙
뗚
뗛
뗜
뗝
뗞
뗟
뗠
뗡
뗢
뗣
뗤
뗥
뗦
뗧
뗨
뗩
뗪
뗫
뗭
뗮
뗯
뗰
뗱
뗲
뗳
뗴
뗵
뗶
뗷
뗸
뗹
뗺
뗻
뗼
뗽
뗾
뗿
똀
똁
똂
똃
똄
똅
똆
똇
똈
똉
똊
똋
똌
똍
똎
똏
또
똑
똒
똓
똔
똕
똖
똗
똘
똙
똚
똛
똜
똝
똞
똟
똠
똡
똢
똣
똤
똥
똦
똧
똨
똩
똪
똫
똬
똭
똮
똯
똰
똱
똲
똳
똴
똵
똶
똷
똸
똹
똺
똻
똼
똽
똾
똿
뙀
뙁
뙂
뙃
뙄
뙅
뙆
뙇
뙈
뙉
뙊
뙋
뙌
뙍
뙎
뙏
뙐
뙑
뙒
뙓
뙔
뙕
뙖
뙗
뙘
뙙
뙚
뙛
뙜
뙝
뙞
뙟
뙠
뙡
뙢
뙣
뙤
뙥
뙦
뙧
뙨
뙩
뙪
뙫
뙬
뙭
뙮
뙯
뙰
뙱
뙲
뙳
뙴
뙵
뙶
뙷
뙸
뙹
뙺
뙻
뙼
뙽
뙾
뙿
뚀
뚁
뚂
뚃
뚄
뚅
뚆
뚇
뚈
뚉
뚊
뚋
뚌
뚍
뚎
뚏
뚐
뚑
뚒
뚓
뚔
뚕
뚖
뚗
뚘
뚙
뚚
뚛
뚜
뚝
뚞
뚟
뚠
뚡
뚢
뚣
뚤
뚥
뚦
뚧
뚨
뚩
뚪
뚫
뚬
뚭
뚮
뚯
뚰
뚱
뚲
뚳
뚴
뚵
뚶
뚷
뚸
뚹
뚺
뚻
뚼
뚽
뚾
뚿
뛀
뛁
뛂
뛃
뛄
뛅
뛆
뛇
뛈
뛉
뛊
뛋
뛌
뛍
뛎
뛏
뛐
뛑
뛒
뛓
뛔
뛕
뛖
뛗
뛘
뛙
뛚
뛛
뛜
뛝
뛞
뛟
뛠
뛡
뛢
뛣
뛤
뛥
뛦
뛧
뛨
뛩
뛪
뛫
뛬
뛭
뛮
뛯
뛰
뛱
뛲
뛳
뛵
뛶
뛷
뛸
뛹
뛺
뛻
뛼
뛽
뛾
뛿
뜀
뜁
뜂
뜃
뜄
뜅
뜆
뜇
뜈
뜉
뜊
뜋
뜌
뜍
뜎
뜏
뜐
뜑
뜒
뜓
뜔
뜕
뜖
뜗
뜘
뜙
뜚
뜛
뜜
뜝
뜞
뜟
뜠
뜡
뜢
뜣
뜤
뜥
뜦
뜧
뜨
뜩
뜪
뜫
뜬
뜭
뜮
뜯
뜰
뜱
뜲
뜳
뜴
뜵
뜶
뜷
뜸
뜹
뜺
뜻
뜼
뜽
뜾
뜿
띀
띁
띂
띃
띄
띅
띆
띇
띉
띊
띋
띍
띎
띏
띐
띑
띒
띓
띔
띕
띖
띗
띘
띙
띚
띛
띜
띝
띞
띟
띠
띡
띢
띣
띤
띥
띦
띧
띨
띩
띪
띫
띬
띭
띮
띯
띰
띱
띲
띳
띴
띵
띶
띷
띸
띹
띺
띻
라
락
띾
띿
란
랁
랂
랃
랄
랅
랆
랇
랈
랉
랊
랋
람
랍
랎
랏
랐
랑
랒
랓
랔
랕
랖
랗
래
랙
랚
랛
랜
랝
랞
랟
랠
랡
랢
랣
랤
랥
랦
랧
램
랩
랪
랫
랬
랭
랮
랯
랰
랱
랲
랳
랴
략
랶
랷
랸
랹
랺
랻
랼
랽
랾
랿
럀
럁
럂
럃
럄
럅
럆
럇
럈
량
럊
럋
럌
럍
럎
럏
럐
럑
럒
럓
럔
럕
럖
럗
럘
럙
럚
럛
럜
럝
럞
럟
럠
럡
럢
럣
럤
럥
럦
럧
럨
럩
럪
럫
러
럭
럮
럯
런
럱
럲
럳
럴
럵
럶
럷
럸
럹
럺
럻
럼
럽
럾
럿
렀
렁
렂
렃
렄
렅
렆
렇
레
렉
렊
렋
렌
렍
렎
렏
렐
렑
렒
렓
렔
렕
렖
렗
렘
렙
렚
렛
렜
렝
렞
렟
렠
렡
렢
렣
려
력
렦
렧
련
렩
렪
렫
렬
렭
렮
렯
렰
렱
렲
렳
렴
렵
렶
렷
렸
령
렺
렻
렼
렽
렾
렿
례
롁
롂
롃
롄
롅
롆
롇
롈
롉
롊
롋
롌
롍
롎
롏
롐
롑
롒
롓
롔
롕
롖
롗
롘
롙
롚
롛
로
록
롞
롟
론
롡
롢
롣
롤
롥
롦
롧
롨
롩
롪
롫
롬
롭
롮
롯
롰
롱
롲
롳
롴
롵
롶
롷
롸
롹
롺
롻
롼
롽
롾
롿
뢀
뢁
뢂
뢃
뢄
뢅
뢆
뢇
뢈
뢉
뢊
뢋
뢌
뢍
뢎
뢏
뢐
뢑
뢒
뢓
뢔
뢕
뢖
뢗
뢘
뢙
뢚
뢛
뢜
뢝
뢞
뢟
뢠
뢡
뢢
뢣
뢤
뢥
뢦
뢧
뢨
뢩
뢪
뢫
뢬
뢭
뢮
뢯
뢰
뢱
뢲
뢳
뢴
뢵
뢶
뢷
뢸
뢹
뢺
뢻
뢼
뢽
뢾
뢿
룀
룁
룂
룃
룄
룅
룆
룇
룈
룉
룊
룋
료
룍
룎
룏
룐
룑
룒
룓
룔
룕
룖
룗
룘
룙
룚
룛
룜
룝
룞
룟
룠
룡
룢
룣
룤
룥
룦
룧
루
룩
룪
룫
룬
룭
룮
룯
룰
룱
룲
룳
룴
룵
룶
룷
룸
룹
룺
룻
룼
룽
룾
룿
뤀
뤁
뤂
뤃
뤄
뤅
뤆
뤇
뤈
뤉
뤊
뤋
뤌
뤍
뤎
뤏
뤐
뤑
뤒
뤓
뤔
뤕
뤖
뤗
뤘
뤙
뤚
뤛
뤜
뤝
뤞
뤟
뤠
뤡
뤢
뤣
뤤
뤥
뤦
뤧
뤨
뤩
뤪
뤫
뤬
뤭
뤮
뤯
뤰
뤱
뤲
뤳
뤴
뤵
뤶
뤷
뤸
뤹
뤺
뤻
뤼
뤽
뤾
뤿
륀
륁
륂
륃
륄
륅
륆
륇
륈
륉
륊
륋
륌
륍
륎
륏
륐
륑
륒
륓
륔
륕
륖
륗
류
륙
륚
륛
륜
륝
륞
륟
률
륡
륢
륣
륤
륥
륦
륧
륨
륩
륪
륫
륬
륭
륮
륯
륰
륱
륲
륳
르
륵
륶
륷
른
륹
륺
륻
를
륽
륾
륿
릀
릁
릂
릃
름
릅
릆
릇
릈
릉
릊
릋
릌
릍
릎
릏
릐
릑
릒
릓
릔
릕
릖
릗
릘
릙
릚
릛
릜
릝
릞
릟
릠
릡
릢
릣
릤
릥
릦
릧
릨
릩
릪
릫
리
릭
릮
릯
린
릱
릲
릳
릴
릵
릶
릷
릸
릹
릺
릻
림
립
릾
릿
맀
링
맂
맃
맄
맅
맆
맇
마
막
맊
맋
만
맍
많
맏
말
맑
맒
맓
맔
맕
맖
맗
맘
맙
맚
맛
맜
망
맞
맟
맠
맡
맢
맣
매
맥
맦
맧
맨
맩
맪
맫
맬
맭
맮
맯
맰
맱
맲
맳
맴
맵
맶
맷
맹
맺
맻
맼
맽
맾
맿
먀
먁
먂
먃
먄
먅
먆
먇
먈
먉
먊
먋
먌
먍
먎
먏
먐
먑
먒
먓
먔
먕
먖
먗
먘
먙
먚
먛
먜
먝
먞
먟
먠
먡
먢
먣
먤
먥
먦
먧
먨
먩
먪
먫
먬
먭
먮
먯
먰
먱
먲
먳
먴
먵
먶
먷
머
먹
먺
먻
먼
먽
먾
먿
멀
멁
멂
멃
멄
멅
멆
멇
멈
멉
멊
멋
멌
멍
멎
멏
멐
멑
멒
멓
메
멕
멖
멗
멘
멙
멚
멛
멜
멝
멞
멟
멠
멡
멢
멣
멤
멥
멦
멧
멨
멩
멪
멫
멬
멭
멮
멯
며
멱
멲
멳
면
멵
멶
멷
멸
멹
멺
멻
멼
멽
멾
멿
몀
몁
몂
몃
몄
명
몆
몇
몈
몉
몊
몋
몌
몍
몎
몏
몐
몑
몒
몓
몔
몕
몖
몗
몘
몙
몚
몛
몜
몝
몞
몟
몠
몡
몢
몣
몤
몥
몦
몧
모
목
몪
몫
몬
몭
몮
몯
몰
몱
몲
몳
몴
몵
몶
몷
몸
몹
몺
못
몼
몽
몾
몿
뫀
뫁
뫂
뫃
뫄
뫅
뫆
뫇
뫈
뫉
뫊
뫋
뫌
뫍
뫎
뫏
뫐
뫑
뫒
뫓
뫔
뫕
뫖
뫗
뫘
뫙
뫚
뫛
뫜
뫝
뫞
뫟
뫠
뫡
뫢
뫣
뫤
뫥
뫦
뫧
뫨
뫩
뫪
뫫
뫬
뫭
뫮
뫯
뫰
뫱
뫲
뫳
뫴
뫵
뫶
뫷
뫸
뫹
뫺
뫻
뫼
뫽
뫾
뫿
묀
묁
묂
묃
묄
묅
묆
묇
묈
묉
묊
묋
묌
묍
묎
묏
묐
묑
묒
묓
묔
묕
묖
묗
묘
묙
묚
묛
묜
묝
묞
묟
묠
묡
묢
묣
묤
묥
묦
묧
묨
묩
묪
묫
묬
묭
묮
묯
묰
묱
묲
묳
무
묵
묶
묷
문
묹
묺
묻
물
묽
묾
묿
뭀
뭁
뭂
뭃
뭄
뭅
뭆
뭇
뭈
뭉
뭊
뭋
뭌
뭍
뭎
뭏
뭐
뭑
뭒
뭓
뭔
뭕
뭖
뭗
뭘
뭙
뭚
뭛
뭜
뭝
뭞
뭟
뭠
뭡
뭢
뭣
뭤
뭥
뭦
뭧
뭨
뭩
뭪
뭫
뭬
뭭
뭮
뭯
뭰
뭱
뭲
뭳
뭴
뭵
뭶
뭷
뭸
뭹
뭺
뭻
뭼
뭽
뭾
뭿
뮀
뮁
뮂
뮃
뮄
뮅
뮆
뮇
뮈
뮉
뮊
뮋
뮌
뮍
뮎
뮏
뮐
뮑
뮒
뮓
뮔
뮕
뮖
뮗
뮘
뮙
뮚
뮛
뮜
뮝
뮞
뮟
뮠
뮡
뮢
뮣
뮤
뮥
뮦
뮧
뮨
뮩
뮪
뮫
뮬
뮭
뮮
뮯
뮰
뮱
뮲
뮳
뮴
뮵
뮶
뮷
뮸
뮹
뮺
뮻
뮼
뮽
뮾
뮿
므
믁
믂
믃
믄
믅
믆
믇
믈
믉
믊
믋
믌
믍
믎
믏
믐
믑
믒
믓
믔
믕
믖
믗
믘
믙
믚
믛
믜
믝
믞
믟
믠
믡
믢
믣
믤
믥
믦
믧
믨
믩
믪
믫
믬
믭
믮
믯
믰
믱
믲
믳
믴
믵
믶
믷
미
믹
믺
믻
민
믽
믾
믿
밀
밁
밂
밃
밄
밅
밆
밇
밈
밉
밊
밋
밌
밍
밎
및
밐
밑
밒
밓
바
박
밖
밗
반
밙
밚
받
발
밝
밞
밟
밠
밡
밢
밣
밤
밥
밦
밧
밨
방
밪
밫
밬
밭
밮
밯
배
백
밲
밳
밴
밵
밶
밷
밸
밹
밺
밻
밼
밽
밾
밿
뱀
뱁
뱂
뱃
뱅
뱆
뱇
뱈
뱉
뱊
뱋
뱌
뱍
뱎
뱏
뱐
뱑
뱒
뱓
뱔
뱕
뱖
뱗
뱘
뱙
뱚
뱛
뱜
뱝
뱞
뱟
뱠
뱡
뱢
뱣
뱤
뱥
뱦
뱧
뱨
뱩
뱪
뱫
뱬
뱭
뱮
뱯
뱰
뱱
뱲
뱳
뱴
뱵
뱶
뱷
뱸
뱹
뱺
뱻
뱼
뱽
뱾
뱿
벀
벁
벂
벃
버
벅
벆
벇
번
벉
벊
벋
벌
벍
벎
벏
벐
벑
벒
벓
범
법
벖
벗
벘
벙
벚
벛
벜
벝
벞
벟
베
벡
벢
벣
벤
벥
벦
벧
벨
벩
벪
벫
벬
벭
벮
벯
벰
벱
벲
벳
벴
벵
벶
벷
벸
벹
벺
벻
벼
벽
벾
벿
변
볁
볂
볃
별
볅
볆
볇
볈
볉
볊
볋
볌
볍
볎
볏
볐
병
볒
볓
볔
볕
볖
볗
볘
볙
볚
볛
볜
볝
볞
볟
볠
볡
볢
볣
볤
볥
볦
볧
볨
볩
볪
볫
볬
볭
볮
볯
볰
볱
볲
볳
보
복
볶
볷
본
볹
볺
볻
볼
볽
볾
볿
봀
봁
봂
봃
봄
봅
봆
봇
봈
봉
봊
봋
봌
봍
봎
봏
봐
봑
봒
봓
봔
봕
봖
봗
봘
봙
봚
봛
봜
봝
봞
봟
봠
봡
봢
봣
봤
봥
봦
봧
봨
봩
봪
봫
봬
봭
봮
봯
봰
봱
봲
봳
봴
봵
봶
봷
봸
봹
봺
봻
봼
봽
봾
봿
뵁
뵂
뵃
뵄
뵅
뵆
뵇
뵈
뵉
뵊
뵋
뵍
뵎
뵏
뵐
뵑
뵒
뵓
뵔
뵕
뵖
뵗
뵘
뵙
뵚
뵛
뵝
뵞
뵟
뵠
뵡
뵢
뵣
뵤
뵥
뵦
뵧
뵨
뵩
뵪
뵫
뵬
뵭
뵮
뵯
뵰
뵱
뵲
뵳
뵴
뵵
뵶
뵷
뵸
뵹
뵺
뵻
뵼
뵽
뵾
뵿
부
북
붂
붃
분
붅
붆
붇
불
붉
붊
붋
붌
붍
붎
붏
붐
붑
붒
붓
붔
붕
붖
붗
붘
붙
붚
붛
붜
붝
붞
붟
붠
붡
붢
붣
붤
붥
붦
붧
붨
붩
붪
붫
붬
붭
붮
붯
붰
붱
붲
붳
붴
붵
붶
붷
붸
붹
붺
붻
붼
붽
붾
붿
뷀
뷁
뷂
뷃
뷄
뷅
뷆
뷇
뷈
뷉
뷊
뷋
뷌
뷍
뷎
뷏
뷐
뷑
뷒
뷓
뷔
뷕
뷖
뷗
뷘
뷙
뷚
뷛
뷜
뷝
뷞
뷟
뷠
뷡
뷢
뷣
뷤
뷥
뷦
뷧
뷨
뷩
뷪
뷫
뷬
뷭
뷮
뷯
뷰
뷱
뷲
뷳
뷴
뷵
뷶
뷷
뷸
뷹
뷺
뷻
뷼
뷽
뷾
뷿
븀
븁
븂
븃
븄
븅
븆
븇
븈
븉
븊
븋
브
븍
븎
븏
븐
븑
븒
븓
블
븕
븖
븗
븘
븙
븚
븛
븜
븝
븞
븟
븠
븡
븢
븣
븤
븥
븦
븧
븨
븩
븪
븫
븬
븭
븮
븯
븰
븱
븲
븳
븴
븵
븶
븷
븸
븹
븺
븻
븼
븽
븾
븿
빀
빁
빂
빃
비
빅
빆
빇
빈
빉
빊
빋
빌
빍
빎
빏
빐
빑
빒
빓
빔
빕
빖
빗
빘
빙
빚
빛
빜
빝
빞
빟
빠
빡
빢
빣
빤
빥
빦
빧
빨
빩
빪
빫
빬
빭
빮
빯
빰
빱
빲
빳
빴
빵
빶
빷
빸
빹
빺
빻
빼
빽
빾
빿
뺀
뺁
뺂
뺃
뺄
뺅
뺆
뺇
뺈
뺉
뺊
뺋
뺌
뺍
뺎
뺏
뺐
뺑
뺒
뺓
뺔
뺕
뺖
뺗
뺘
뺙
뺚
뺛
뺜
뺝
뺞
뺟
뺠
뺡
뺢
뺣
뺤
뺥
뺦
뺧
뺨
뺩
뺪
뺫
뺬
뺭
뺮
뺯
뺰
뺱
뺲
뺳
뺴
뺵
뺶
뺷
뺸
뺹
뺺
뺻
뺼
뺽
뺾
뺿
뻀
뻁
뻂
뻃
뻄
뻅
뻆
뻇
뻈
뻉
뻊
뻋
뻌
뻍
뻎
뻏
뻐
뻑
뻒
뻓
뻔
뻕
뻖
뻗
뻘
뻙
뻚
뻛
뻜
뻝
뻞
뻟
뻠
뻡
뻢
뻣
뻤
뻥
뻦
뻧
뻨
뻩
뻪
뻫
뻬
뻭
뻮
뻯
뻰
뻱
뻲
뻳
뻴
뻵
뻶
뻷
뻸
뻹
뻺
뻻
뻼
뻽
뻾
뻿
뼀
뼁
뼂
뼃
뼄
뼅
뼆
뼇
뼈
뼉
뼊
뼋
뼌
뼍
뼎
뼏
뼐
뼑
뼒
뼓
뼔
뼕
뼖
뼗
뼘
뼙
뼚
뼛
뼜
뼝
뼞
뼟
뼠
뼡
뼢
뼣
뼤
뼥
뼦
뼧
뼨
뼩
뼪
뼫
뼬
뼭
뼮
뼯
뼰
뼱
뼲
뼳
뼴
뼵
뼶
뼷
뼸
뼹
뼺
뼻
뼼
뼽
뼾
뼿
뽀
뽁
뽂
뽃
뽄
뽅
뽆
뽇
뽈
뽉
뽊
뽋
뽌
뽍
뽎
뽏
뽐
뽑
뽒
뽓
뽔
뽕
뽖
뽗
뽘
뽙
뽚
뽛
뽜
뽝
뽞
뽟
뽠
뽡
뽢
뽣
뽤
뽥
뽦
뽧
뽨
뽩
뽪
뽫
뽬
뽭
뽮
뽯
뽰
뽱
뽲
뽳
뽴
뽵
뽶
뽷
뽸
뽹
뽺
뽻
뽼
뽽
뽾
뽿
뾀
뾁
뾂
뾃
뾄
뾅
뾆
뾇
뾈
뾉
뾊
뾋
뾌
뾍
뾎
뾏
뾐
뾑
뾒
뾓
뾔
뾕
뾖
뾗
뾘
뾙
뾚
뾛
뾜
뾝
뾞
뾟
뾠
뾡
뾢
뾣
뾤
뾥
뾦
뾧
뾨
뾩
뾪
뾫
뾬
뾭
뾮
뾯
뾰
뾱
뾲
뾳
뾴
뾵
뾶
뾷
뾸
뾹
뾺
뾻
뾼
뾽
뾾
뾿
뿀
뿁
뿂
뿃
뿄
뿅
뿆
뿇
뿈
뿉
뿊
뿋
뿌
뿍
뿎
뿏
뿐
뿑
뿒
뿓
뿔
뿕
뿖
뿗
뿘
뿙
뿚
뿛
뿜
뿝
뿞
뿟
뿡
뿢
뿣
뿤
뿥
뿦
뿧
뿨
뿩
뿪
뿫
뿬
뿭
뿮
뿯
뿰
뿱
뿲
뿳
뿴
뿵
뿶
뿷
뿸
뿹
뿺
뿻
뿼
뿽
뿾
뿿
쀀
쀁
쀂
쀃
쀄
쀅
쀆
쀇
쀈
쀉
쀊
쀋
쀌
쀍
쀎
쀏
쀐
쀑
쀒
쀓
쀔
쀕
쀖
쀗
쀘
쀙
쀚
쀛
쀜
쀝
쀞
쀟
쀠
쀡
쀢
쀣
쀤
쀥
쀦
쀧
쀨
쀩
쀪
쀫
쀬
쀭
쀮
쀯
쀰
쀱
쀲
쀳
쀴
쀵
쀶
쀷
쀸
쀹
쀺
쀻
쀼
쀽
쀾
쀿
쁀
쁁
쁂
쁃
쁄
쁅
쁆
쁇
쁈
쁉
쁊
쁋
쁌
쁍
쁎
쁏
쁐
쁑
쁒
쁓
쁔
쁕
쁖
쁗
쁘
쁙
쁚
쁛
쁜
쁝
쁞
쁟
쁠
쁡
쁢
쁣
쁤
쁥
쁦
쁧
쁨
쁩
쁪
쁫
쁬
쁭
쁮
쁯
쁰
쁱
쁲
쁳
쁴
쁵
쁶
쁷
쁸
쁹
쁺
쁻
쁼
쁽
쁾
쁿
삀
삁
삂
삃
삄
삅
삆
삇
삈
삉
삊
삋
삌
삍
삎
삏
삐
삑
삒
삓
삔
삕
삖
삗
삘
삙
삚
삛
삜
삝
삞
삟
삠
삡
삢
삣
삤
삥
삦
삧
삨
삩
삪
삫
사
삭
삮
삯
산
삱
삲
삳
살
삵
삶
삷
삸
삹
삺
삻
삼
삽
삾
삿
상
샂
샃
샄
샅
샆
샇
새
색
샊
샋
샌
샍
샎
샏
샐
샑
샒
샓
샔
샕
샖
샗
샘
샙
샚
샛
생
샞
샟
샠
샡
샢
샣
샤
샥
샦
샧
샨
샩
샪
샫
샬
샭
샮
샯
샰
샱
샲
샳
샴
샵
샶
샷
샸
샹
샺
샻
샼
샽
샾
샿
섀
섁
섂
섃
섄
섅
섆
섇
섈
섉
섊
섋
섌
섍
섎
섏
섐
섑
섒
섓
섔
섕
섖
섗
섘
섙
섚
섛
서
석
섞
섟
선
섡
섢
섣
설
섥
섦
섧
섨
섩
섪
섫
섬
섭
섮
섯
섰
성
섲
섳
섴
섵
섶
섷
세
섹
섺
섻
센
섽
섿
셀
셁
셂
셃
셄
셅
셆
셇
셈
셉
셊
셋
셍
셎
셏
셐
셑
셒
셓
셔
셕
셖
셗
션
셙
셚
셛
셜
셝
셞
셟
셠
셡
셢
셣
셤
셥
셦
셧
셨
셩
셪
셫
셬
셭
셮
셯
셰
셱
셲
셳
셴
셵
셶
셷
셸
셹
셺
셻
셼
셽
셾
셿
솀
솁
솂
솃
솄
솅
솆
솇
솈
솉
솊
솋
소
속
솎
솏
손
솑
솒
솓
솔
솕
솖
솗
솘
솙
솚
솛
솜
솝
솞
솟
솠
송
솢
솣
솤
솥
솦
솧
솨
솩
솪
솫
솬
솭
솮
솯
솰
솱
솲
솳
솴
솵
솶
솷
솸
솹
솺
솻
솼
솽
솾
솿
쇀
쇁
쇂
쇃
쇄
쇅
쇆
쇇
쇈
쇉
쇊
쇋
쇌
쇍
쇎
쇏
쇐
쇑
쇒
쇓
쇔
쇕
쇖
쇗
쇘
쇙
쇚
쇛
쇜
쇝
쇞
쇟
쇠
쇡
쇢
쇣
쇤
쇥
쇦
쇧
쇨
쇩
쇪
쇫
쇬
쇭
쇮
쇯
쇰
쇱
쇲
쇳
쇴
쇵
쇶
쇷
쇸
쇹
쇺
쇻
쇼
쇽
쇾
쇿
숀
숁
숂
숃
숄
숅
숆
숇
숈
숉
숊
숋
숌
숍
숎
숏
숐
숑
숒
숓
숔
숕
숖
숗
수
숙
숚
숛
순
숝
숞
숟
술
숡
숢
숣
숤
숥
숦
숧
숨
숩
숪
숫
숬
숭
숮
숯
숰
숱
숲
숳
숴
숵
숶
숷
숸
숹
숺
숻
숼
숽
숾
숿
쉀
쉁
쉂
쉃
쉄
쉅
쉆
쉇
쉈
쉉
쉊
쉋
쉌
쉍
쉎
쉏
쉐
쉑
쉒
쉓
쉔
쉕
쉖
쉗
쉘
쉙
쉚
쉛
쉜
쉝
쉞
쉟
쉠
쉡
쉢
쉣
쉤
쉥
쉦
쉧
쉨
쉩
쉪
쉫
쉬
쉭
쉮
쉯
쉰
쉱
쉲
쉳
쉴
쉵
쉶
쉷
쉸
쉹
쉺
쉻
쉼
쉽
쉾
쉿
슀
슁
슂
슃
슄
슅
슆
슇
슈
슉
슊
슋
슌
슍
슎
슏
슐
슑
슒
슓
슔
슕
슖
슗
슘
슙
슚
슛
슜
슝
슞
슟
슠
슡
슢
슣
스
슥
슦
슧
슨
슩
슪
슫
슬
슭
슮
슯
슰
슱
슲
슳
슴
습
슶
슷
슸
승
슺
슻
슼
슽
슾
슿
싀
싁
싂
싃
싄
싅
싆
싇
싈
싉
싊
싋
싌
싍
싎
싏
싐
싑
싒
싓
싔
싕
싖
싗
싘
싙
싚
싛
시
식
싞
싟
신
싡
싢
싣
실
싥
싦
싧
싨
싩
싪
싫
심
십
싮
싯
싰
싱
싲
싳
싴
싵
싶
싷
싸
싹
싺
싻
싼
싽
싾
싿
쌀
쌁
쌂
쌃
쌄
쌅
쌆
쌇
쌈
쌉
쌊
쌋
쌍
쌎
쌏
쌐
쌑
쌒
쌓
쌔
쌕
쌖
쌗
쌘
쌙
쌚
쌛
쌜
쌝
쌞
쌟
쌠
쌡
쌢
쌣
쌤
쌥
쌦
쌧
쌩
쌪
쌫
쌬
쌭
쌮
쌯
쌰
쌱
쌲
쌳
쌴
쌵
쌶
쌷
쌸
쌹
쌺
쌻
쌼
쌽
쌾
쌿
썀
썁
썂
썃
썄
썅
썆
썇
썈
썉
썊
썋
썌
썍
썎
썏
썐
썑
썒
썓
썔
썕
썖
썗
썘
썙
썚
썛
썜
썝
썞
썟
썠
썡
썢
썣
썤
썥
썦
썧
써
썩
썪
썫
썬
썭
썮
썯
썰
썱
썲
썳
썴
썵
썶
썷
썸
썹
썺
썻
썼
썽
썾
썿
쎀
쎁
쎂
쎃
쎄
쎅
쎆
쎇
쎈
쎉
쎊
쎋
쎌
쎍
쎎
쎏
쎐
쎑
쎒
쎓
쎔
쎕
쎖
쎗
쎙
쎚
쎛
쎜
쎝
쎞
쎟
쎠
쎡
쎢
쎣
쎤
쎥
쎦
쎧
쎨
쎩
쎪
쎫
쎬
쎭
쎮
쎯
쎰
쎱
쎲
쎳
쎴
쎵
쎶
쎷
쎸
쎹
쎺
쎻
쎼
쎽
쎾
쎿
쏀
쏁
쏂
쏃
쏄
쏅
쏆
쏇
쏈
쏉
쏊
쏋
쏌
쏍
쏎
쏏
쏐
쏑
쏒
쏓
쏔
쏕
쏖
쏗
쏘
쏙
쏚
쏛
쏜
쏝
쏞
쏟
쏠
쏡
쏢
쏣
쏤
쏥
쏦
쏧
쏨
쏩
쏪
쏫
쏬
쏭
쏮
쏯
쏰
쏱
쏲
쏳
쏴
쏵
쏶
쏷
쏸
쏹
쏺
쏻
쏼
쏽
쏾
쏿
쐀
쐁
쐂
쐃
쐄
쐅
쐆
쐇
쐉
쐊
쐋
쐌
쐍
쐎
쐏
쐐
쐑
쐒
쐓
쐔
쐕
쐖
쐗
쐘
쐙
쐚
쐛
쐜
쐝
쐞
쐟
쐠
쐡
쐢
쐣
쐤
쐥
쐦
쐧
쐨
쐩
쐪
쐫
쐬
쐭
쐮
쐯
쐱
쐲
쐳
쐵
쐶
쐷
쐸
쐹
쐺
쐻
쐼
쐽
쐾
쐿
쑀
쑁
쑂
쑃
쑄
쑅
쑆
쑇
쑈
쑉
쑊
쑋
쑌
쑍
쑎
쑏
쑐
쑑
쑒
쑓
쑔
쑕
쑖
쑗
쑘
쑙
쑚
쑛
쑜
쑝
쑞
쑟
쑠
쑡
쑢
쑣
쑤
쑥
쑦
쑧
쑨
쑩
쑪
쑫
쑭
쑮
쑯
쑰
쑱
쑲
쑳
쑴
쑵
쑶
쑷
쑸
쑹
쑺
쑻
쑼
쑽
쑾
쑿
쒀
쒁
쒂
쒃
쒄
쒅
쒆
쒇
쒈
쒉
쒊
쒋
쒌
쒍
쒎
쒏
쒐
쒑
쒒
쒓
쒕
쒖
쒗
쒘
쒙
쒚
쒛
쒜
쒝
쒞
쒟
쒠
쒡
쒢
쒣
쒤
쒥
쒦
쒧
쒨
쒩
쒪
쒫
쒬
쒭
쒮
쒯
쒰
쒱
쒲
쒳
쒴
쒵
쒶
쒷
쒸
쒹
쒺
쒻
쒽
쒾
쒿
쓀
쓁
쓂
쓃
쓄
쓅
쓆
쓇
쓈
쓉
쓊
쓋
쓌
쓍
쓎
쓏
쓐
쓑
쓒
쓓
쓔
쓕
쓖
쓗
쓘
쓙
쓚
쓛
쓜
쓝
쓞
쓟
쓠
쓡
쓢
쓣
쓤
쓥
쓦
쓧
쓨
쓩
쓪
쓫
쓬
쓭
쓮
쓯
쓰
쓱
쓲
쓳
쓴
쓵
쓶
쓷
쓸
쓹
쓺
쓻
쓼
쓽
쓾
쓿
씀
씁
씂
씃
씄
씅
씆
씇
씈
씉
씊
씋
씌
씍
씎
씏
씑
씒
씓
씔
씕
씖
씗
씘
씙
씚
씛
씜
씝
씞
씟
씠
씡
씢
씣
씤
씥
씦
씧
씨
씩
씪
씫
씬
씭
씮
씯
씰
씱
씲
씳
씴
씵
씶
씷
씸
씹
씺
씻
씼
씽
씾
씿
앀
앁
앂
앃
아
악
앆
앇
안
앉
않
앋
알
앍
앎
앏
앐
앑
앒
앓
암
압
앖
앗
았
앙
앚
앛
앜
앝
앞
앟
애
액
앢
앣
앤
앥
앦
앧
앨
앩
앪
앫
앬
앭
앮
앯
앰
앱
앲
앳
앴
앵
앶
앷
앸
앹
앺
앻
야
약
앾
앿
얀
얁
얂
얃
얄
얅
얆
얇
얈
얉
얊
얋
얌
얍
얎
얏
얐
양
얒
얓
얔
얕
얖
얗
얘
얙
얚
얛
얜
얝
얞
얟
얡
얢
얣
얤
얥
얦
얧
얨
얩
얪
얫
얬
얭
얮
얯
얰
얱
얲
얳
어
억
얶
얷
언
얹
얺
얻
얼
얽
얾
얿
엀
엁
엂
엃
엄
업
없
엇
었
엉
엊
엋
엌
엍
엎
엏
에
엑
엒
엓
엔
엕
엖
엗
엘
엙
엚
엛
엜
엝
엞
엟
엠
엡
엢
엣
엤
엥
엦
엧
엨
엩
엪
엫
여
역
엮
엯
연
엱
엲
엳
열
엵
엶
엷
엸
엹
엺
엻
염
엽
엾
엿
였
영
옂
옃
옄
옅
옆
옇
예
옉
옊
옋
옌
옍
옎
옏
옐
옑
옒
옓
옔
옕
옖
옗
옘
옙
옚
옛
옜
옝
옞
옟
옠
옡
옢
옣
오
옥
옦
옧
온
옩
옪
옫
올
옭
옮
옯
옰
옱
옲
옳
옴
옵
옶
옷
옸
옹
옺
옻
옼
옽
옾
옿
와
왁
왂
왃
완
왅
왆
왇
왈
왉
왊
왋
왌
왍
왎
왏
왐
왑
왒
왓
왔
왕
왖
왗
왘
왙
왚
왛
왜
왝
왞
왟
왠
왡
왢
왣
왤
왥
왦
왧
왨
왩
왪
왫
왬
왭
왮
왯
왰
왱
왲
왳
왴
왵
왶
왷
외
왹
왺
왻
왼
왽
왾
왿
욀
욁
욂
욃
욄
욅
욆
욇
욈
욉
욊
욋
욌
욍
욎
욏
욐
욑
욒
욓
요
욕
욖
욗
욘
욙
욚
욛
욜
욝
욞
욟
욠
욡
욢
욣
욤
욥
욦
욧
욨
용
욪
욫
욬
욭
욮
욯
우
욱
욲
욳
운
욵
욶
욷
울
욹
욺
욻
욼
욽
욾
욿
움
웁
웂
웃
웄
웅
웆
웇
웈
웉
웊
웋
워
웍
웎
웏
원
웑
웒
웓
월
웕
웖
웗
웘
웙
웚
웛
웜
웝
웞
웟
웠
웡
웢
웣
웤
웥
웦
웧
웨
웩
웪
웫
웬
웭
웮
웯
웰
웱
웲
웳
웴
웵
웶
웷
웸
웹
웺
웻
웼
웽
웾
웿
윀
윁
윂
윃
위
윅
윆
윇
윈
윉
윊
윋
윌
윍
윎
윏
윐
윑
윒
윓
윔
윕
윖
윗
윘
윙
윚
윛
윜
윝
윞
윟
유
육
윢
윣
윤
윥
윦
윧
율
윩
윪
윫
윬
윭
윮
윯
윰
윱
윲
윳
윴
융
윶
윷
윸
윹
윺
윻
으
윽
윾
윿
은
읁
읂
읃
을
읅
읆
읇
읈
읉
읊
읋
음
읍
읎
읏
읐
응
읒
읓
읔
읕
읖
읗
의
읙
읚
읛
읜
읝
읞
읟
읠
읡
읢
읣
읤
읥
읦
읧
읨
읩
읪
읫
읬
읭
읮
읯
읰
읱
읲
읳
이
익
읶
읷
인
읹
읺
읻
일
읽
읾
읿
잀
잁
잂
잃
임
입
잆
잇
있
잉
잊
잋
잌
잍
잎
잏
자
작
잒
잓
잔
잕
잖
잗
잘
잙
잚
잛
잜
잝
잞
잟
잠
잡
잢
잣
장
잦
잧
잨
잩
잪
잫
재
잭
잮
잯
잰
잱
잲
잳
잴
잵
잶
잷
잸
잹
잺
잻
잼
잽
잾
잿
쟁
쟂
쟃
쟄
쟅
쟆
쟇
쟈
쟉
쟊
쟋
쟌
쟍
쟎
쟏
쟐
쟑
쟒
쟓
쟔
쟕
쟖
쟗
쟘
쟙
쟚
쟛
쟜
쟝
쟞
쟟
쟠
쟡
쟢
쟣
쟤
쟥
쟦
쟧
쟩
쟪
쟫
쟬
쟭
쟮
쟯
쟰
쟱
쟲
쟳
쟴
쟵
쟶
쟷
쟸
쟹
쟺
쟻
쟼
쟽
쟾
쟿
저
적
젂
젃
전
젅
젆
젇
절
젉
젊
젋
젌
젍
젎
젏
점
접
젒
젓
젔
정
젖
젗
젘
젙
젚
젛
제
젝
젞
젟
젠
젡
젢
젣
젤
젥
젦
젧
젨
젩
젪
젫
젬
젭
젮
젯
젰
젱
젲
젳
젴
젵
젶
젷
져
젹
젺
젻
젼
젽
젾
젿
졀
졁
졂
졃
졄
졅
졆
졇
졈
졉
졊
졋
졌
졍
졎
졏
졐
졑
졒
졓
졔
졕
졖
졗
졘
졙
졚
졛
졜
졝
졞
졟
졠
졡
졢
졣
졤
졥
졦
졧
졨
졩
졪
졫
졬
졭
졮
졯
조
족
졲
졳
존
졵
졶
졷
졸
졹
졺
졻
졼
졽
졾
졿
좀
좁
좂
좃
좄
종
좆
좇
좈
좉
좊
좋
좌
좍
좎
좏
좐
좑
좒
좓
좔
좕
좖
좗
좘
좙
좚
좛
좜
좝
좞
좟
좠
좡
좢
좣
좤
좥
좦
좧
좨
좩
좪
좫
좬
좭
좮
좯
좰
좱
좲
좳
좴
좵
좶
좷
좸
좹
좺
좻
좼
좽
좾
좿
죀
죁
죂
죃
죄
죅
죆
죇
죈
죉
죊
죋
죌
죍
죎
죏
죐
죑
죒
죓
죔
죕
죖
죗
죙
죚
죛
죜
죝
죞
죟
죠
죡
죢
죣
죤
죥
죦
죧
죨
죩
죪
죫
죬
죭
죮
죯
죰
죱
죲
죳
죴
죵
죶
죷
죸
죹
죺
죻
주
죽
죾
죿
준
줁
줂
줃
줄
줅
줆
줇
줈
줉
줊
줋
줌
줍
줎
줏
줐
중
줒
줓
줔
줕
줖
줗
줘
줙
줚
줛
줜
줝
줞
줟
줠
줡
줢
줣
줤
줥
줦
줧
줨
줩
줪
줫
줬
줭
줮
줯
줰
줱
줲
줳
줴
줵
줶
줷
줸
줹
줺
줻
줼
줽
줾
줿
쥀
쥁
쥂
쥃
쥄
쥅
쥆
쥇
쥈
쥉
쥊
쥋
쥌
쥍
쥎
쥏
쥐
쥑
쥒
쥓
쥔
쥕
쥖
쥗
쥘
쥙
쥚
쥛
쥜
쥝
쥞
쥟
쥠
쥡
쥢
쥣
쥤
쥥
쥦
쥧
쥨
쥩
쥪
쥫
쥬
쥭
쥮
쥯
쥰
쥱
쥲
쥳
쥴
쥵
쥶
쥷
쥸
쥹
쥺
쥻
쥼
쥽
쥾
쥿
즀
즁
즂
즃
즄
즅
즆
즇
즈
즉
즊
즋
즌
즍
즎
즏
즐
즑
즒
즓
즔
즕
즖
즗
즘
즙
즚
즛
즜
증
즞
즟
즠
즡
즢
즣
즤
즥
즦
즧
즨
즩
즪
즫
즬
즭
즮
즯
즰
즱
즲
즳
즴
즵
즶
즷
즸
즹
즺
즻
즼
즽
즾
즿
지
직
짂
짃
진
짅
짆
짇
질
짉
짊
짋
짌
짍
짎
짏
짐
집
짒
짓
짔
징
짖
짗
짘
짙
짚
짛
짜
짝
짞
짟
짠
짡
짢
짣
짤
짥
짦
짧
짨
짩
짪
짫
짬
짭
짮
짯
짱
짲
짳
짴
짵
짶
짷
째
짹
짺
짻
짼
짽
짾
짿
쨀
쨁
쨂
쨃
쨄
쨅
쨆
쨇
쨈
쨉
쨊
쨋
쨌
쨍
쨎
쨏
쨐
쨑
쨒
쨓
쨔
쨕
쨖
쨗
쨘
쨙
쨚
쨛
쨜
쨝
쨞
쨟
쨠
쨡
쨢
쨣
쨤
쨥
쨦
쨧
쨨
쨩
쨪
쨫
쨬
쨭
쨮
쨯
쨰
쨱
쨲
쨳
쨴
쨵
쨶
쨷
쨸
쨹
쨺
쨻
쨼
쨽
쨾
쨿
쩀
쩁
쩂
쩃
쩄
쩅
쩆
쩇
쩈
쩉
쩊
쩋
쩌
쩍
쩎
쩏
쩐
쩑
쩒
쩓
쩔
쩕
쩖
쩗
쩘
쩙
쩚
쩛
쩜
쩝
쩞
쩟
쩠
쩡
쩢
쩣
쩤
쩥
쩦
쩧
쩨
쩩
쩪
쩫
쩬
쩭
쩮
쩯
쩰
쩱
쩲
쩳
쩴
쩵
쩶
쩷
쩸
쩹
쩺
쩻
쩼
쩽
쩾
쩿
쪀
쪁
쪂
쪃
쪄
쪅
쪆
쪇
쪈
쪉
쪊
쪋
쪌
쪍
쪎
쪏
쪐
쪑
쪒
쪓
쪔
쪕
쪖
쪗
쪘
쪙
쪚
쪛
쪜
쪝
쪞
쪟
쪠
쪡
쪢
쪣
쪤
쪥
쪦
쪧
쪨
쪩
쪪
쪫
쪬
쪭
쪮
쪯
쪰
쪱
쪲
쪳
쪴
쪵
쪶
쪷
쪸
쪹
쪺
쪻
쪼
쪽
쪾
쪿
쫀
쫁
쫂
쫃
쫄
쫅
쫆
쫇
쫈
쫉
쫊
쫋
쫌
쫍
쫎
쫏
쫐
쫑
쫒
쫓
쫔
쫕
쫖
쫗
쫘
쫙
쫚
쫛
쫜
쫝
쫞
쫟
쫠
쫡
쫢
쫣
쫤
쫥
쫦
쫧
쫨
쫩
쫪
쫫
쫭
쫮
쫯
쫰
쫱
쫲
쫳
쫴
쫵
쫶
쫷
쫸
쫹
쫺
쫻
쫼
쫽
쫾
쫿
쬀
쬁
쬂
쬃
쬄
쬅
쬆
쬇
쬈
쬉
쬊
쬋
쬌
쬍
쬎
쬏
쬐
쬑
쬒
쬓
쬔
쬕
쬖
쬗
쬙
쬚
쬛
쬜
쬝
쬞
쬟
쬡
쬢
쬣
쬤
쬥
쬦
쬧
쬨
쬩
쬪
쬫
쬬
쬭
쬮
쬯
쬰
쬱
쬲
쬳
쬴
쬵
쬶
쬷
쬸
쬹
쬺
쬻
쬼
쬽
쬾
쬿
쭀
쭁
쭂
쭃
쭄
쭅
쭆
쭇
쭈
쭉
쭊
쭋
쭌
쭍
쭎
쭏
쭐
쭑
쭒
쭓
쭔
쭕
쭖
쭗
쭘
쭙
쭚
쭛
쭜
쭝
쭞
쭟
쭠
쭡
쭢
쭣
쭤
쭥
쭦
쭧
쭨
쭩
쭪
쭫
쭬
쭭
쭮
쭯
쭰
쭱
쭲
쭳
쭴
쭵
쭶
쭷
쭸
쭹
쭺
쭻
쭼
쭽
쭾
쭿
쮀
쮁
쮂
쮃
쮄
쮅
쮆
쮇
쮈
쮉
쮊
쮋
쮌
쮍
쮎
쮏
쮐
쮑
쮒
쮓
쮔
쮕
쮖
쮗
쮘
쮙
쮚
쮛
쮜
쮝
쮞
쮟
쮠
쮡
쮢
쮣
쮤
쮥
쮦
쮧
쮨
쮩
쮪
쮫
쮬
쮭
쮮
쮯
쮰
쮱
쮲
쮳
쮴
쮵
쮶
쮷
쮸
쮹
쮺
쮻
쮼
쮽
쮾
쮿
쯀
쯁
쯂
쯃
쯄
쯅
쯆
쯇
쯈
쯉
쯊
쯋
쯌
쯍
쯎
쯏
쯐
쯑
쯒
쯓
쯔
쯕
쯖
쯗
쯘
쯙
쯚
쯛
쯜
쯝
쯞
쯟
쯠
쯡
쯢
쯣
쯤
쯥
쯦
쯧
쯨
쯩
쯪
쯫
쯬
쯭
쯮
쯯
쯰
쯱
쯲
쯳
쯴
쯵
쯶
쯷
쯸
쯹
쯺
쯻
쯼
쯽
쯾
쯿
찀
찁
찂
찃
찄
찅
찆
찇
찈
찉
찊
찋
찌
찍
찎
찏
찐
찑
찒
찓
찔
찕
찖
찗
찘
찙
찚
찛
찜
찝
찞
찟
찠
찡
찢
찣
찤
찥
찦
찧
차
착
찪
찫
찬
찭
찮
찯
찰
찱
찲
찳
찴
찵
찶
찷
참
찹
찺
찻
창
찾
찿
챀
챁
챂
챃
채
책
챆
챇
챈
챉
챊
챋
챌
챍
챎
챏
챐
챑
챒
챓
챔
챕
챖
챗
챘
챙
챚
챛
챜
챝
챞
챟
챠
챡
챢
챣
챤
챥
챦
챧
챨
챩
챪
챫
챬
챭
챮
챯
챰
챱
챲
챳
챴
챵
챶
챷
챸
챹
챺
챻
챼
챽
챾
챿
첀
첁
첂
첃
첄
첅
첆
첇
첈
첉
첊
첋
첌
첍
첎
첏
첐
첑
첒
첓
첔
첕
첖
첗
처
척
첚
첛
천
첝
첞
첟
철
첡
첢
첣
첤
첥
첦
첧
첨
첩
첪
첫
첬
청
첮
첯
첰
첱
첲
첳
체
첵
첶
첷
첸
첹
첺
첻
첼
첽
첾
첿
쳀
쳁
쳂
쳃
쳄
쳅
쳆
쳇
쳈
쳉
쳊
쳋
쳌
쳍
쳎
쳏
쳐
쳑
쳒
쳓
쳔
쳕
쳖
쳗
쳘
쳙
쳚
쳛
쳜
쳝
쳞
쳟
쳠
쳡
쳢
쳣
쳤
쳥
쳦
쳧
쳨
쳩
쳪
쳫
쳬
쳭
쳮
쳯
쳰
쳱
쳲
쳳
쳴
쳵
쳶
쳷
쳸
쳹
쳺
쳻
쳼
쳽
쳾
쳿
촀
촁
촂
촃
촄
촅
촆
촇
초
촉
촊
촋
촌
촍
촎
촏
촐
촑
촒
촓
촔
촕
촖
촗
촘
촙
촚
촛
촜
총
촞
촟
촠
촡
촢
촣
촤
촥
촦
촧
촨
촩
촪
촫
촬
촭
촮
촯
촰
촱
촲
촳
촴
촵
촶
촷
촸
촹
촺
촻
촼
촽
촾
촿
쵀
쵁
쵂
쵃
쵄
쵅
쵆
쵇
쵈
쵉
쵊
쵋
쵌
쵍
쵎
쵏
쵐
쵑
쵒
쵓
쵔
쵕
쵖
쵗
쵘
쵙
쵚
쵛
최
쵝
쵞
쵟
쵠
쵡
쵢
쵣
쵤
쵥
쵦
쵧
쵨
쵩
쵪
쵫
쵬
쵭
쵮
쵯
쵰
쵱
쵲
쵳
쵴
쵵
쵶
쵷
쵸
쵹
쵺
쵻
쵼
쵽
쵾
쵿
춀
춁
춂
춃
춄
춅
춆
춇
춈
춉
춊
춋
춌
춍
춎
춏
춐
춑
춒
춓
추
축
춖
춗
춘
춙
춚
춛
출
춝
춞
춟
춠
춡
춢
춣
춤
춥
춦
춧
춨
충
춪
춫
춬
춭
춮
춯
춰
춱
춲
춳
춴
춵
춶
춷
춸
춹
춺
춻
춼
춽
춾
춿
췀
췁
췂
췃
췄
췅
췆
췇
췈
췉
췊
췋
췌
췍
췎
췏
췐
췑
췒
췓
췔
췕
췖
췗
췘
췙
췚
췛
췜
췝
췞
췟
췠
췡
췢
췣
췤
췥
췦
췧
취
췩
췪
췫
췬
췭
췮
췯
췰
췱
췲
췳
췴
췵
췶
췷
췸
췹
췺
췻
췼
췽
췾
췿
츀
츁
츂
츃
츄
츅
츆
츇
츈
츉
츊
츋
츌
츍
츎
츏
츐
츑
츒
츓
츔
츕
츖
츗
츘
츙
츚
츛
츜
츝
츞
츟
츠
측
츢
츣
츤
츥
츦
츧
츨
츩
츪
츫
츬
츭
츮
츯
츰
츱
츲
츳
츴
층
츶
츷
츸
츹
츺
츻
츼
츽
츾
츿
칀
칁
칂
칃
칄
칅
칆
칇
칈
칉
칊
칋
칌
칍
칎
칏
칐
칑
칒
칓
칔
칕
칖
칗
치
칙
칚
칛
친
칝
칞
칟
칠
칡
칢
칣
칤
칥
칦
칧
침
칩
칪
칫
칬
칭
칮
칯
칰
칱
칲
칳
카
칵
칶
칷
칸
칹
칺
칻
칼
칽
칾
칿
캀
캁
캂
캃
캄
캅
캆
캇
캈
캉
캊
캋
캌
캍
캎
캏
캐
캑
캒
캓
캔
캕
캖
캗
캘
캙
캚
캛
캜
캝
캞
캟
캠
캡
캢
캣
캤
캥
캦
캧
캨
캩
캪
캫
캬
캭
캮
캯
캰
캱
캲
캳
캴
캵
캶
캷
캸
캹
캺
캻
캼
캽
캾
캿
컀
컁
컂
컃
컄
컅
컆
컇
컈
컉
컊
컋
컌
컍
컎
컏
컐
컑
컒
컓
컔
컕
컖
컗
컘
컙
컚
컛
컜
컝
컞
컟
컠
컡
컢
컣
커
컥
컦
컧
컨
컩
컪
컫
컬
컭
컮
컯
컰
컱
컲
컳
컴
컵
컶
컷
컹
컺
컻
컼
컽
컾
컿
케
켁
켂
켃
켄
켅
켆
켇
켈
켉
켊
켋
켌
켍
켎
켏
켐
켑
켒
켓
켔
켕
켖
켗
켘
켙
켚
켛
켜
켝
켞
켟
켠
켡
켢
켣
켤
켥
켦
켧
켨
켩
켪
켫
켬
켭
켮
켯
켰
켱
켲
켳
켴
켵
켶
켷
켸
켹
켺
켻
켼
켽
켾
켿
콀
콁
콂
콃
콄
콅
콆
콇
콈
콉
콊
콋
콌
콍
콎
콏
콐
콑
콒
콓
코
콕
콖
콗
콘
콙
콚
콛
콜
콝
콞
콟
콠
콡
콢
콣
콤
콥
콦
콧
콨
콩
콪
콫
콬
콭
콮
콯
콰
콱
콲
콳
콴
콵
콶
콷
콸
콹
콺
콻
콼
콽
콾
콿
쾀
쾁
쾂
쾃
쾄
쾅
쾆
쾇
쾈
쾉
쾊
쾋
쾌
쾍
쾎
쾏
쾐
쾑
쾒
쾓
쾔
쾕
쾖
쾗
쾘
쾙
쾚
쾛
쾜
쾝
쾞
쾟
쾠
쾡
쾢
쾣
쾤
쾥
쾦
쾧
쾨
쾩
쾪
쾫
쾬
쾭
쾮
쾯
쾰
쾱
쾲
쾳
쾴
쾵
쾶
쾷
쾸
쾹
쾺
쾻
쾼
쾽
쾾
쾿
쿀
쿁
쿂
쿃
쿄
쿅
쿆
쿇
쿈
쿉
쿊
쿋
쿌
쿍
쿎
쿏
쿐
쿑
쿒
쿓
쿔
쿕
쿖
쿗
쿘
쿙
쿚
쿛
쿜
쿝
쿞
쿟
쿠
쿡
쿢
쿣
쿤
쿥
쿦
쿧
쿨
쿩
쿪
쿫
쿬
쿭
쿮
쿯
쿰
쿱
쿲
쿳
쿴
쿵
쿶
쿷
쿸
쿹
쿺
쿻
쿼
쿽
쿾
쿿
퀀
퀁
퀂
퀃
퀄
퀅
퀆
퀇
퀈
퀉
퀊
퀋
퀌
퀍
퀎
퀏
퀐
퀑
퀒
퀓
퀔
퀕
퀖
퀗
퀘
퀙
퀚
퀛
퀜
퀝
퀞
퀟
퀠
퀡
퀢
퀣
퀤
퀥
퀦
퀧
퀨
퀩
퀪
퀫
퀬
퀭
퀮
퀯
퀰
퀱
퀲
퀳
퀴
퀵
퀶
퀷
퀸
퀹
퀺
퀻
퀼
퀽
퀾
퀿
큀
큁
큂
큃
큄
큅
큆
큇
큈
큉
큊
큋
큌
큍
큎
큏
큐
큑
큒
큓
큔
큕
큖
큗
큘
큙
큚
큛
큜
큝
큞
큟
큠
큡
큢
큣
큤
큥
큦
큧
큨
큩
큪
큫
크
큭
큮
큯
큰
큱
큲
큳
클
큵
큶
큷
큸
큹
큺
큻
큼
큽
큾
큿
킀
킁
킂
킃
킄
킅
킆
킇
킈
킉
킊
킋
킌
킍
킎
킏
킐
킑
킒
킓
킔
킕
킖
킗
킘
킙
킚
킛
킜
킝
킞
킟
킠
킡
킢
킣
키
킥
킦
킧
킨
킩
킪
킫
킬
킭
킮
킯
킰
킱
킲
킳
킴
킵
킶
킷
킸
킹
킺
킻
킼
킽
킾
킿
타
탁
탂
탃
탄
탅
탆
탇
탈
탉
탊
탋
탌
탍
탎
탏
탐
탑
탒
탓
탔
탕
탖
탗
탘
탙
탚
탛
태
택
탞
탟
탠
탡
탢
탣
탤
탥
탦
탧
탨
탩
탪
탫
탬
탭
탮
탯
탰
탱
탲
탳
탴
탵
탶
탷
탸
탹
탺
탻
탼
탽
탾
탿
턀
턁
턂
턃
턄
턅
턆
턇
턈
턉
턊
턋
턌
턍
턎
턏
턐
턑
턒
턓
턔
턕
턖
턗
턘
턙
턚
턛
턜
턝
턞
턟
턠
턡
턢
턣
턤
턥
턦
턧
턨
턩
턪
턫
턬
턭
턮
턯
터
턱
턲
턳
턴
턵
턶
턷
털
턹
턺
턻
턼
턽
턾
턿
텀
텁
텂
텃
텅
텆
텇
텈
텉
텊
텋
테
텍
텎
텏
텐
텑
텒
텓
텔
텕
텖
텗
텘
텙
텚
텛
템
텝
텞
텟
텠
텡
텢
텣
텤
텥
텦
텧
텨
텩
텪
텫
텬
텭
텮
텯
텰
텱
텲
텳
텴
텵
텶
텷
텸
텹
텺
텻
텼
텽
텾
텿
톀
톁
톂
톃
톄
톅
톆
톇
톈
톉
톊
톋
톌
톍
톎
톏
톐
톑
톒
톓
톔
톕
톖
톗
톘
톙
톚
톛
톜
톝
톞
톟
토
톡
톢
톣
톤
톥
톦
톧
톨
톩
톪
톫
톬
톭
톮
톯
톰
톱
톲
톳
톴
통
톶
톷
톸
톹
톺
톻
톼
톽
톾
톿
퇀
퇁
퇂
퇃
퇄
퇅
퇆
퇇
퇈
퇉
퇊
퇋
퇌
퇍
퇎
퇏
퇐
퇑
퇒
퇓
퇔
퇕
퇖
퇗
퇘
퇙
퇚
퇛
퇜
퇝
퇞
퇟
퇠
퇡
퇢
퇣
퇤
퇥
퇦
퇧
퇨
퇩
퇪
퇫
퇬
퇭
퇮
퇯
퇰
퇱
퇲
퇳
퇴
퇵
퇶
퇷
퇸
퇹
퇺
퇻
퇼
퇽
퇾
퇿
툀
툁
툂
툃
툄
툅
툆
툇
툈
툉
툊
툋
툌
툍
툎
툏
툐
툑
툒
툓
툔
툕
툖
툗
툘
툙
툚
툛
툜
툝
툞
툟
툠
툡
툢
툣
툤
툥
툦
툧
툨
툩
툪
툫
투
툭
툮
툯
툰
툱
툲
툳
툴
툵
툶
툷
툸
툹
툺
툻
툼
툽
툾
툿
퉀
퉁
퉂
퉃
퉄
퉅
퉆
퉇
퉈
퉉
퉊
퉋
퉌
퉍
퉎
퉏
퉐
퉑
퉒
퉓
퉔
퉕
퉖
퉗
퉘
퉙
퉚
퉛
퉜
퉝
퉞
퉟
퉠
퉡
퉢
퉣
퉤
퉥
퉦
퉧
퉨
퉩
퉪
퉫
퉬
퉭
퉮
퉯
퉰
퉱
퉲
퉳
퉴
퉵
퉶
퉷
퉸
퉹
퉺
퉻
퉼
퉽
퉾
퉿
튀
튁
튂
튃
튄
튅
튆
튇
튈
튉
튊
튋
튌
튍
튎
튏
튐
튑
튒
튓
튔
튕
튖
튗
튘
튙
튚
튛
튜
튝
튞
튟
튠
튡
튢
튣
튤
튥
튦
튧
튨
튩
튪
튫
튬
튭
튮
튯
튰
튱
튲
튳
튴
튵
튶
튷
트
특
튺
튻
튼
튽
튾
튿
틀
틁
틂
틃
틄
틅
틆
틇
틈
틉
틊
틋
틌
틍
틎
틏
틐
틑
틒
틓
틔
틕
틖
틗
틘
틙
틚
틛
틜
틝
틞
틟
틠
틡
틢
틣
틤
틥
틦
틧
틨
틩
틪
틫
틬
틭
틮
틯
티
틱
틲
틳
틴
틵
틶
틷
틸
틹
틺
틻
틼
틽
틾
틿
팀
팁
팂
팃
팄
팅
팆
팇
팈
팉
팊
팋
파
팍
팎
팏
판
팑
팒
팓
팔
팕
팖
팗
팘
팙
팚
팛
팜
팝
팞
팟
팠
팡
팢
팣
팤
팥
팦
팧
패
팩
팪
팫
팬
팭
팮
팯
팰
팱
팲
팳
팴
팵
팶
팷
팸
팹
팺
팻
팽
팾
팿
퍀
퍁
퍂
퍃
퍄
퍅
퍆
퍇
퍈
퍉
퍊
퍋
퍌
퍍
퍎
퍏
퍐
퍑
퍒
퍓
퍔
퍕
퍖
퍗
퍘
퍙
퍚
퍛
퍜
퍝
퍞
퍟
퍠
퍡
퍢
퍣
퍤
퍥
퍦
퍧
퍨
퍩
퍪
퍫
퍬
퍭
퍮
퍯
퍰
퍱
퍲
퍳
퍴
퍵
퍶
퍷
퍸
퍹
퍺
퍻
퍼
퍽
퍾
퍿
펀
펁
펂
펃
펄
펅
펆
펇
펈
펉
펊
펋
펌
펍
펎
펏
펐
펑
펒
펓
펔
펕
펖
펗
페
펙
펚
펛
펜
펝
펞
펟
펠
펡
펢
펣
펤
펥
펦
펧
펨
펩
펪
펫
펬
펭
펮
펯
펰
펱
펲
펳
펴
펵
펶
펷
편
펹
펺
펻
펼
펽
펾
펿
폀
폁
폂
폃
폄
폅
폆
폇
평
폊
폋
폌
폍
폎
폏
폐
폑
폒
폓
폔
폕
폖
폗
폘
폙
폚
폛
폜
폝
폞
폟
폠
폡
폢
폣
폤
폥
폦
폧
폨
폩
폪
폫
포
폭
폮
폯
폰
폱
폲
폳
폴
폵
폶
폷
폸
폹
폺
폻
폼
폽
폾
폿
퐀
퐁
퐂
퐃
퐄
퐅
퐆
퐇
퐈
퐉
퐊
퐋
퐌
퐍
퐎
퐏
퐐
퐑
퐒
퐓
퐔
퐕
퐖
퐗
퐘
퐙
퐚
퐛
퐜
퐝
퐞
퐟
퐠
퐡
퐢
퐣
퐤
퐥
퐦
퐧
퐨
퐩
퐪
퐫
퐬
퐭
퐮
퐯
퐰
퐱
퐲
퐳
퐴
퐵
퐶
퐷
퐸
퐹
퐺
퐻
퐼
퐽
퐾
퐿
푀
푁
푂
푃
푄
푅
푆
푇
푈
푉
푊
푋
푌
푍
푎
푏
푐
푑
푒
푓
푔
푕
푖
푗
푘
푙
푚
푛
표
푝
푞
푟
푠
푡
푢
푣
푤
푥
푦
푧
푨
푩
푪
푫
푬
푭
푮
푯
푰
푱
푲
푳
푴
푵
푶
푷
푸
푹
푺
푻
푼
푽
푾
푿
풀
풁
풂
풃
풄
풅
풆
풇
품
풉
풊
풋
풌
풍
풎
풏
풐
풑
풒
풓
풔
풕
풖
풗
풘
풙
풚
풛
풜
풝
풞
풟
풠
풡
풢
풣
풤
풥
풦
풧
풨
풩
풪
풫
풬
풭
풮
풯
풰
풱
풲
풳
풴
풵
풶
풷
풸
풹
풺
풻
풼
풽
풾
풿
퓀
퓁
퓂
퓃
퓄
퓅
퓆
퓇
퓈
퓉
퓊
퓋
퓌
퓍
퓎
퓏
퓐
퓑
퓒
퓓
퓔
퓕
퓖
퓗
퓘
퓙
퓚
퓛
퓜
퓝
퓞
퓟
퓠
퓡
퓢
퓣
퓤
퓥
퓦
퓧
퓨
퓩
퓪
퓫
퓬
퓭
퓮
퓯
퓰
퓱
퓲
퓳
퓴
퓵
퓶
퓷
퓸
퓹
퓺
퓻
퓼
퓽
퓾
퓿
픀
픁
픂
픃
프
픅
픆
픇
픈
픉
픊
픋
플
픍
픎
픏
픐
픑
픒
픓
픔
픕
픖
픗
픘
픙
픚
픛
픜
픝
픞
픟
픠
픡
픢
픣
픤
픥
픦
픧
픨
픩
픪
픫
픬
픭
픮
픯
픰
픱
픲
픳
픴
픵
픶
픷
픸
픹
픺
픻
피
픽
픾
픿
핀
핁
핂
핃
필
핅
핆
핇
핈
핉
핊
핋
핌
핍
핎
핏
핐
핑
핒
핓
핔
핕
핖
핗
하
학
핚
핛
한
핝
핞
핟
할
핡
핢
핣
핤
핥
핦
핧
함
합
핪
핫
핬
항
핮
핯
핰
핱
핲
핳
해
핵
핶
핷
핸
핹
핺
핻
핼
핽
핾
핿
햀
햁
햂
햃
햄
햅
햆
햇
했
행
햊
햋
햌
햍
햎
햏
햐
햑
햒
햓
햔
햕
햖
햗
햘
햙
햚
햛
햜
햝
햞
햟
햠
햡
햢
햣
햤
향
햦
햧
햨
햩
햪
햫
햬
햭
햮
햯
햰
햱
햲
햳
햴
햵
햶
햷
햸
햹
햺
햻
햼
햽
햾
햿
헁
헂
헃
헄
헅
헆
헇
허
헉
헊
헋
헌
헍
헎
헏
헐
헑
헒
헓
헔
헕
헖
헗
험
헙
헚
헛
헝
헞
헟
헠
헡
헢
헣
헤
헥
헦
헧
헨
헩
헪
헫
헬
헭
헮
헯
헰
헱
헲
헳
헴
헵
헶
헷
헹
헺
헻
헼
헽
헾
헿
혀
혁
혂
혃
현
혅
혆
혇
혈
혉
혊
혋
혌
혍
혎
혏
혐
협
혒
혓
혔
형
혖
혗
혘
혙
혚
혛
혜
혝
혞
혟
혠
혡
혢
혣
혤
혥
혦
혧
혨
혩
혪
혫
혬
혭
혮
혯
혰
혱
혲
혳
혴
혵
혶
혷
호
혹
혺
혻
혼
혽
혾
혿
홀
홁
홂
홃
홄
홅
홆
홇
홈
홉
홊
홋
홌
홍
홎
홏
홐
홑
홒
홓
화
확
홖
홗
환
홙
홚
홛
활
홝
홞
홟
홠
홡
홢
홣
홤
홥
홦
홧
홨
황
홪
홫
홬
홭
홮
홯
홰
홱
홲
홳
홴
홵
홶
홷
홸
홹
홺
홻
홼
홽
홾
홿
횀
횁
횂
횃
횄
횅
횆
횇
횈
횉
횊
횋
회
획
횎
횏
횐
횑
횒
횓
횔
횕
횖
횗
횘
횙
횚
횛
횜
횝
횞
횟
횠
횡
횢
횣
횤
횥
횦
횧
효
횩
횪
횫
횬
횭
횮
횯
횰
횱
횲
횳
횴
횵
횶
횷
횸
횹
횺
횻
횼
횽
횾
횿
훀
훁
훂
훃
후
훅
훆
훇
훈
훉
훊
훋
훌
훍
훎
훏
훐
훑
훒
훓
훔
훕
훖
훗
훘
훙
훚
훛
훜
훝
훞
훟
훠
훡
훢
훣
훤
훥
훦
훧
훨
훩
훪
훫
훬
훭
훮
훯
훰
훱
훲
훳
훴
훵
훶
훷
훸
훹
훺
훻
훼
훽
훾
훿
휀
휁
휂
휃
휄
휅
휆
휇
휈
휉
휊
휋
휌
휍
휎
휏
휐
휑
휒
휓
휔
휕
휖
휗
휘
휙
휚
휛
휜
휝
휞
휟
휠
휡
휢
휣
휤
휥
휦
휧
휨
휩
휪
휫
휬
휭
휮
휯
휰
휱
휲
휳
휴
휵
휶
휷
휸
휹
휺
휻
휼
휽
휾
휿
흀
흁
흂
흃
흄
흅
흆
흇
흈
흉
흊
흋
흌
흍
흎
흏
흐
흑
흒
흓
흔
흕
흖
흗
흘
흙
흚
흛
흜
흝
흞
흟
흠
흡
흢
흣
흤
흥
흦
흧
흨
흩
흪
흫
희
흭
흮
흯
흰
흱
흲
흳
흵
흶
흷
흸
흹
흺
흻
흼
흽
흾
흿
힀
힁
힂
힃
힄
힅
힆
힇
히
힉
힊
힋
힌
힍
힎
힏
힐
힑
힒
힓
힔
힕
힖
힗
힘
힙
힚
힛
힜
힝
힞
힟
힠
힡
힢
힣
##템
##메
##당
##전
##술
##화
##창
##고
##극
##같
##브
##리
##드
##질
##기
##업
##룡
##가
##문
##Y
##Q
##머
##사
##태
##란
##연
##두
##o
##k
##b
##l
##i
##n
##료
##카
##쿠
##지
##점
##종
##불
##개
##민
##체
##누
##각
##a
##d
##t
##풍
##산
##단
##춘
##입
##금
##파
##매
##m
##e
##r
##복
##라
##중
##키
##츠
##나
##상
##국
##한
##빗
##레
##인
##용
##품
##숍
##흉
##들
##이
##1
##7
##6
##8
##3
##저
##s
##c
##g
##의
##관
##련
##엔
##색
##맥
##오
##넷
##트
##u
##보
##마
##크
##판
##선
##y
##h
##스
##터
##운
##티
##쓸
##로
##치
##팔
##다
##해
##T
##C
##공
##격
##렉
##포
##직
##노
##반
##O
##N
##M
##K
##프
##계
##도
##양
##살
##하
##차
##니
##즈
##순
##간
##꼭
##시
##안
##구
##소
##동
##추
##충
##서
##담
##등
##감
##독
##타
##와
##우
##측
##수
##여
##투
##대
##옹
##괴
##p
##토
##바
##일
##혁
##법
##칫
##급
##결
##합
##면
##역
##흡
##착
##검
##얄
##람
##어
##군
##학
##방
##송
##알
##L
##코
##솔
##초
##미
##제
##찬
##영
##플
##임
##벨
##랭
##택
##정
##익
##항
##짜
##번
##호
##묘
##S
##F
##X
##v
##외
##거
##더
##블
##유
##에
##육
##털
##탁
##헤
##딩
##으
##탄
##x
##르
##섬
##롭
##교
##회
##출
##과
##케
##설
##렛
##진
##명
##자
##칼
##론
##횟
##침
##행
##향
##만
##칸
##막
##때
##헌
##루
##륜
##그
##조
##럭
##버
##빅
##아
##야
##모
##뿌
##딕
##너
##컥
##력
##북
##열
##부
##심
##위
##원
##갓
##천
##백
##십
##삼
##박
##남
##후
##칠
##건
##데
##U
##B
##세
##곡
##괭
##념
##물
##베
##땃
##쥐
##H
##E
##비
##딱
##린
##엘
##예
##활
##철
##능
##족
##병
##겡
##넨
##탈
##싱
##신
##9
##5
##폐
##셴
##실
##러
##온
##펀
##광
##주
##앞
##꺽
##요
##즛
##I
##D
##험
##승
##길
##액
##궤
##킹
##쯔
##윅
##강
##랜
##습
##성
##림
##장
##밥
##f
##변
##식
##웃
##평
##른
##손
##봉
##밍
##본
##래
##윤
##확
##뜨
##표
##팀
##런
##증
##볼
##갤
##징
##흥
##덕
##청
##김
##갈
##석
##울
##융
##통
##퀘
##논
##왕
##헨
##재
##숄
##0
##날
##링
##클
##릉
##놀
##피
##슈
##테
##큐
##엄
##못
##푸
##받
##음
##맹
##숙
##씨
##웨
##게
##잡
##폭
##럼
##퍼
##랑
##작
##눈
##생
##희
##W
##뫼
##핍
##준
##쉬
##궁
##똘
##닥
##획
##편
##형
##집
##디
##푯
##말
##할
##은
##황
##멍
##틴
##워
##햄
##무
##솨
##냉
##페
##벌
##망
##속
##현
##A
##커
##히
##배
##존
##땅
##w
##네
##권
##적
##함
##혼
##분
##랙
##컬
##골
##멕
##패
##찌
##귀
##2
##4
##z
##붕
##월
##욕
##램
##별
##책
##R
##콕
##샤
##Z
##핵
##경
##달
##균
##냐
##텔
##닉
##죄
##멘
##홍
##숨
##삭
##참
##근
##접
##긴
##맵
##j
##뇌
##훈
##P
##축
##겸
##협
##언
##글
##쇄
##섭
##절
##름
##값
##있
##앤
##.
##"
##[
##*
##발
##ㅇ
##ㄷ
##ㅎ
##웅
##쟁
##례
##량
##쿄
##옵
##션
##몬
##느
##목
##처
##졧
##슨
##밀
##G
##늦
##렬
##V
##갑
##곤
##빌
##괄
##웰
##턴
##왈
##켓
##닐
##붑
##덱
##몰
##앗
##범
##홈
##탠
##콩
##팬
##앵
##뚱
##녀
##혹
##낌
##팸
##득
##따
##쿼
##ㅖ
##ㄼ
##응
##ㅏ
##ㄽ
##돌
##꽃
##킴
##걸
##캐
##슬
##또
##릴
##틀
##럴
##내
##ㅅ
##ㄹ
##첩
##쏭
##홀
##렌
##캄
##팩
##씬
##쫑
##최
##령
##애
##펠
##텍
##흐
##든
##뷰
##곱
##젝
##덴
##퀵
##락
##녹
##록
##악
##q
##쓰
##닝
##딜
##닌
##특
##환
##봄
##년
##규
##즌
##율
##끈
##젯
##럽
##뎀
##잊
##것
##릭
##필
##떡
##뽁
##립
##얼
##돈
##층
##난
##견
##흔
##덟
##깨
##취
##팅
##찰
##략
##맷
##륙
##릿
##친
##놈
##늄
##믹
##멜
##벽
##좌
##멸
##튀
##줄
##덩
##덤
##벙
##콜
##촌
##압
##늘
##앙
##짱
##쇼
##닛
##캠
##컷
##앨
##튼
##겐
##농
##}
##'
##뉴
##룸
##맨
##델
##핑
##룹
##옥
##잇
##ㅋ
##틈
##새
##객
##빔
##잠
##되
##휘
##엡
##끼
##젤
##셈
##돔
##윌
##허
##윈
##렴
##븐
##콘
##랍
##을
##밖
##는
##폴
##칙
##톤
##총
##약
##완
##삽
##쭈
##텐
##앉
##켄
##샵
##싫
##염
##킬
##널
##빵
##몽
##굴
##컨
##롤
##먹
##J
##졸
##둑
##픈
##센
##{
##!
##께
##숭
##셔
##류
##끝
##채
##챠
##암
##챔
##룩
##핫
##듀
##쪽
##엠
##탑
##핀
##올
##~
##;
##_
##롯
##낙
##냥
##움
##쥬
##왑
##빡
##뮤
##즘
##?
##잔
##맡
##힐
##툼
##롱
##믈
##빙
##쵸
##펄
##빠
##룬
##잘
##딸
##깍
##뢰
##둘
##납
##봇
##샷
##촬
##캥
##셀
##뭇
##잎
##젠
##탕
##킷
##삿
##률
##좀
##및
##효
##힌
##됭
##척
##려
##팡
##묵
##랄
##켐
##뤼
##닭
##꼰
##싯
##까
##없
##펫
##줏
##먼
##빼
##콤
##꾸
##핰
##멤
##탱
##쏘
##곳
##던
##ㅟ
##ㅄ
##칩
##킨
##빈
##젼
##쇠
##툴
##튜
##밴
##를
##벤
##큰
##몸
##툰
##쿤
##퐁
##숫
##꼴
##혜
##뷔
##솜
##핸
##짝
##쿵
##깊
##뛰
##첼
##쉘
##륨
##녜
##탓
##맞
##겻
##억
##첨
##ㅐ
##욜
##앱
##폰
##첸
##딧
##퓨
##흑
##@
##곽
##팰
##뱅
##뇨
##렐
##렇
##줌
##왓
##맛
##셋
##웍
##-
##엽
##듭
##틱
##틸
##촉
##슴
##녕
##딘
##퉁
##몹
##혀
##닷
##쉐
##탐
##픽
##붐
##컵
##듈
##겜
##짐
##냅
##낼
##낭
##킥
##톱
##섯
##떼
##즐
##뽕
##둥
##잭
##윙
##윗
##멋
##쳐
##썰
##펜
##빨
##갱
##캔
##님
##섹
##퇴
##롬
##꾼
##듣
##쎄
##벳
##펙
##댄
##쟈
##쉴
##멀
##닮
##겔
##떨
##즙
##헬
##콧
##ㅑ
##ㅆ
##)
##]
##톨
##뚜
##껑
##잉
##퓌
##벗
##욱
##얀
##읍
##컴
##밟
##컹
##끄
##쌍
##폼
##툽
##끌
##싸
##욘
##캅
##혈
##꼬
##렁
##ㅣ
##룽
##팟
##춤
##낚
##죽
##넘
##^
##ㅠ
##ㅕ
##닫
##칭
##쉽
##퀸
##뼈
##륭
##했
##톡
##셸
##벼
##휴
##ㅈ
##캇
##셜
##엉
##져
##탬
##ㅓ
##ㄶ
##쉼
##뒷
##쩌
##좃
##윽
##붙
##츄
##껍
##냄
##윔
##랸
##죠
##쿨
##걱
##괘
##댕
##좁
##엑
##갖
##풀
##댐
##썸
##삐
##쑈
##밋
##퀴
##ㄱ
##짓
##뫄
##뻥
##륵
##힛
##웹
##뜯
##겊
##쥿
##싹
##웬
##셰
##곰
##늬
##넬
##텀
##뮬
##셉
##뮐
##뇰
##찜
##팝
##솀
##잣
##뿐
##녘
##힣
##며
##맘
##겨
##졌
##깐
##덧
##밭
##둠
##웩
##잼
##뮌
##멧
##엣
##럿
##옷
##딴
##킁
##ㅍ
##큼
##꿈
##쌓
##덮
##톰
##짤
##돗
##밤
##헔
##얽
##귈
##힘
##켈
##훗
##뵈
##띠
##룰
##솥
##옌
##긍
##얘
##핏
##ㄴ
##뇽
##뎅
##퍽
##ㄵ
##샘
##췌
##넴
##톳
##,
##샹
##높
##릇
##뜬
##낫
##빛
##쳔
##팜
##꽈
##쩐
##겠
##혐
##낳
##`
##팍
##붉
##뽀
##뜸
##겹
##뱀
##랫
##짧
##굿
##밧
##쌀
##똥
##굼
##벵
##뚫
##롄
##놓
##랩
##깥
##째
##밝
##펑
##깡
##꽉
##않
##덫
##찐
##뿔
##볶
##듯
##궐
##돼
##륄
##떠
##뷴
##깟
##옳
##깽
##쭘
##탭
##릎
##팁
##뻐
##끔
##ㅁ
##큅
##껏
##갹
##캘
##뻬
##퓸
##샴
##+
##텝
##뒤
##둔
##룻
##뜩
##랏
##흠
##꿍
##ㅚ
##힝
##슝
##푀
##웁
##샌
##쌈
##텡
##ㅒ
##ㄳ
##돤
##듬
##캣
##꽁
##밸
##낄
##삥
##녁
##튠
##홉
##즉
##헝
##댁
##엌
##슐
##푹
##쫏
##퀄
##찹
##뱃
##숑
##햇
##짚
##콰
##뜻
##숲
##횡
##뚝
##쏠
##엇
##많
##숀
##폄
##묶
##룀
##벡
##넣
##찻
##쩔
##덜
##흘
##깔
##눌
##콥
##좨
##깎
##훙
##갸
##괌
##겁
##쾡
##킵
##맴
##엮
##돋
##슛
##깁
##ㅡ
##ㄲ
##릅
##웜
##였
##몇
##쩍
##깃
##/
###
##풋
##ㅂ
##찍
##곶
##쎌
##캉
##굽
##똑
##큘
##넉
##캡
##쁘
##뭐
##꾹
##쪼
##짬
##샬
##ㅞ
##튬
##촐
##멈
##렙
##답
##쩨
##눕
##툭
##칵
##땀
##됨
##렘
##옆
##밑
##딥
##셒
##슾
##땡
##캬
##얍
##훌
##&
##\
##쭉
##쿱
##쩡
##샨
##흙
##팥
##쾅
##쯤
##썩
##쏴
##젬
##몌
##쉰
##챈
##섀
##넛
##밈
##묻
##꽂
##씽
##솩
##옛
##쨉
##ㅢ
##촛
##첫
##딨
##넌
##펴
##쿡
##뤀
##텟
##훅
##ㅗ
##ㅜ
##ㅌ
##휠
##왁
##뮴
##앎
##꾀
##걀
##얻
##꺾
##춥
##챌
##찾
##댓
##훤
##뚤
##ㅙ
##웠
##꿩
##휀
##믿
##왜
##셩
##홰
##슥
##펌
##틔
##될
##왼
##펭
##겪
##뤄
##푼
##ㄾ
##윕
##넓
##좋
##넥
##뭉
##늑
##탤
##꺼
##숏
##=
##잋
##젊
##슌
##랴
##욤
##윳
##꽤
##잰
##쑤
##랗
##챗
##힉
##껌
##뙇
##닿
##섞
##꿀
##낮
##셍
##돕
##쒸
##팽
##쁨
##귄
##텅
##넵
##:
##ㅝ
##늪
##팻
##쭤
##엥
##줍
##쟌
##뉵
##켕
##얌
##덥
##겉
##뉘
##놉
##ㅔ
##>
##궈
##닦
##얏
##츈
##뽑
##띄
##곧
##ㄿ
##볕
##갯
##껄
##젭
##ㅊ
##꼿
##좆
##탸
##깜
##볜
##찡
##뺨
##쌤
##칡
##밉
##렵
##깸
##눗
##힙
##훼
##툿
##젖
##썬
##흰
##씹
##빚
##잃
##벅
##슭
##뻔
##옴
##샛
##뮈
##뎁
##옐
##앝
##쳄
##둏
##좔
##톈
##뢴
##땜
##듸
##붓
##츤
##핥
##켜
##쏙
##듐
##<
##떵
##츼
##므
##솝
##귤
##땁
##챕
##뎌
##퉈
##옇
##ㅘ
##뭄
##몫
##쪄
##샥
##믐
##된
##폿
##쟐
##씰
##틷
##쫓
##턱
##쉑
##챙
##핌
##앰
##뷸
##딤
##빳
##쳇
##ㄺ
##씌
##뻑
##(
##흫
##씻
##쾌
##햐
##쥔
##낵
##꿰
##텃
##맬
##놋
##찢
##쫄
##썹
##었
##젹
##헐
##ㄸ
##띵
##듄
##낸
##쟝
##꼼
##훍
##춰
##뚠
##읽
##릐
##븨
##벫
##떤
##켁
##꼽
##돛
##륀
##뜰
##%
##깅
##긋
##뽐
##웡
##퀼
##쌔
##뷘
##뜫
##뎬
##얇
##뀌
##쾨
##볏
##뮨
##씁
##벚
##ㅛ
##뵤
##꾜
##쥰
##멱
##곬
##|
##랠
##큇
##웆
##흄
##콸
##겟
##됩
##쿰
##써
##싼
##춧
##훠
##짘
##겅
##갭
##촨
##슘
##ㄻ
##넝
##뿡
##넹
##썷
##왱
##픠
##벰
##잖
##봐
##솟
##맑
##갔
##맙
##뿜
##녈
##쀼
##쮸
##욧
##섴
##똔
##왝
##끊
##롑
##맺
##띡
##싣
##킄
##컄
##붇
##헉
##갬
##됀
##잽
##걷
##굉
##펨
##빤
##섕
##뭍
##쑥
##앓
##뺑
##젓
##먀
##샐
##퓰
##줘
##떻
##옅
##뇬
##찟
##텁
##뎃
##헥
##뺏
##끨
##쳉
##싶
##븃
##꽝
##읏
##냠
##쌩
##낀
##졍
##픔
##갇
##헛
##씀
##웻
##뱉
##샙
##챦
##껫
##쐐
##옮
##믜
##삵
##짖
##찔
##긱
##슷
##맏
##봅
##잌
##첵
##끗
##앳
##헴
##썽
##렝
##칰
##짠
##괜
##찮
##삑
##솅
##쨔
##꽥
##푱
##쨩
##갛
##았
##깻
##눔
##풒
##긔
##$
##곁
##갚
##껸
##쯧
##짹
##굳
##죤
##볓
##펼
##ㅀ
##쉔
##휼
##궉
##츌
##뿍
##챤
##뉨
##잦
##쩝
##좡
##걔
##둡
##짙
##볍
##쓱
##쁑
##냇
##앍
##혔
##쭙
##엿
##뱌
##옙
##빕
##췩
##탉
##숴
##죌
##켠
##펩
##삘
##뱁
##퍄
##숟
##뽈
##숌
##훔
##묺
##홥
##붛
##쭝
##봙
##덞
##뱡
##몐
##젱
##삶
##귿
##팹
##봤
##탼
##엾
##홋
##잆
##븞
##릾
##듮
##퀑
##읕
##묜
##뒹
##긁
##볘
##꿉
##뽄
##퉤
##쥴
##씅
##흣
##뇸
##뗘
##낟
##찧
##곖
##쵮
##곲
##읪
##뎐
##휙
##빱
##넸
##텨
##뿟
##쉿
##쨋
##쫒
##믄
##쑝
##얕
##뺵
##났
##휩
##굥
##훑
##쨍
##셱
##쳤
##뺀
##곗
##랣
##땗
##볌
##뭔
##뗀
##츙
##핡
##귓
##섐
##갗
##쬐
##읔
##렷
##쯸
##긇
##읋
##낱
##읒
##핼
##쳘
##삡
##뿅
##윷
##쫌
##옻
##뷁
##쏟
##퉱
##끍
##휽
##끠
##콱
##꽐
##챃
##얗
##빽
##홧
##닙
##늅
##쥥
##햅
##눅
##핳
##꿔
##쬬
##릏
##떽
##뻗
##껴
##싀
##왠
##빰
##쏜
##긕
##맣
##촤
##뿨
##쨌
##컫
##엷
##콴
##칟
##쉭
##큭
##멓
##슉
##뼛
##밯
##캑
##샅
##읗
##쑹
##겼
##뺌
##뻘
##걲
##홑
##닻
##둬
##픋
##뾰
##둣
##숯
##솬
##삜
##얶
##몆
##늙
##츨
##튐
##욥
##깝
##헣
##낯
##뗏
##쌥
##욍
##륌
##튕
##좊
##쑴
##녠
##탯
##펍
##궂
##꿋
##훨
##펏
##촙
##햏
##왔
##앟
##뎡
##쩜
##뜀
##쳰
##뀽
##헱
##롻
##쓴
##혓
##룔
##앆
##셤
##퀀
##뽝
##봑
##큉
##짭
##렸
##섧
##쥣
##쌰
##쑨
##섣
##읃
##삯
##눙
##늠
##갠
##숩
##ㅃ
##끙
##씩
##뜽
##윰
##좍
##댑
##뾱
##줆
##룝
##팃
##뮹
##춸
##횔
##쏨
##겯
##몄
##삠
##꿇
##쥘
##꺄
##굵
##뉸
##헹
##밌
##쭐
##쫙
##쁜
##슶
##틊
##쌜
##낑
##룅
##엻
##닳
##흩
##멎
##쿙
##땋
##띔
##돖
##캆
##왒
##ㅉ
##왇
##뼉
##쾃
##뫃
##뚬
##냑
##댔
##큔
##쥭
##멩
##햘
##숱
##돚
##낰
##틋
##얹
##졀
##퍗
##뼝
##넙
##팎
##냘
##잿
##럐
##굣
##댱
##뵐
##햝
##긧
##츰
##혬
##헠
##폽
##훕
##쯕
##땩
##쏫
##엎
##곂
##벜
##잨
##딛
##귁
##먕
##빻
##묄
##띤
##욿
##뉼
##댈
##쀏
##빋
##씸
##땐
##괵
##큄
##왧
##뷃
##폔
##랒
##앜
##랔
##칽
##캌
##돠
##헷
##멥
##옾
##튤
##읭
##롼
##턻
##깆
##혠
##뗑
##뤽
##즤
##얜
##댜
##덛
##귕
##횃
##뢸
##츔
##줭
##엏
##폘
##쯱
##짇
##녑
##퉹
##췐
##쿈
##벋
##쒹
##뼸
##솧
##쯥
##븀
##웝
##섥
##횬
##쎠
##됴
##떱
##솹
##떄
##칯
##놏
##콫
##떫
##쫣
##똵
##뽧
##꽑
##뽭
##쥉
##쯉
##멬
##늣
##챰
##챵
##퇗
##긤
##닼
##뷜
##뻣
##꽹
##깤
##껨
##즹
##섁
##촵
##핱
##끽
##풹
##괏
##칣
##렡
##쪙
##쳣
##뀨
##꺅
##솃
##웤
##쳅
##솰
##넋
##쟉
##챡
##퇘
##쫘
##삣
##갉
##놔
##늴
##컁
##죈
##먄
##앚
##꼐
##푄
##랐
##섶
##엪
##흗
##닢
##왹
##퓽
##랬
##끓
##휏
##쌕
##뵹
##쎔
##옭
##톄
##퐈
##뀍
##홐
##혻
##킈
##췄
##찝
##겋
##읊
##튽
##딪
##볐
##쵹
##솁
##뀩
##슙
##썅
##챱
##즁
##켤
##믱
##몯
##큠
##졎
##삾
##컼
##홓
##셨
##죳
##뚯
##큿
##웽
##켰
##됐
##늡
##퓬
##퓍
##묭
##쿳
##똟
##롸
##뛔
##됫
##읖
##궬
##쾰
##촹
##쏵
##낏
##짞
##쭓
##랖
##쌋
##벞
##틉
##묠
##믕
##껒
##꾿
##싁
##냔
##됸
##횽
##캎
##듟
##쭌
##벱
##쫀
##뭅
##쯋
##틍
##띙
##닽
##퓐
##짊
##쇽
##굶
##꿎
##퀜
##꼍
##엨
##헙
##컿
##헿
##쵠
##큥
##셧
##얺
##껚
##엃
##땛
##밻
##샒
##뼘
##펔
##슼
##핟
##쪨
##핲
##쬽
##쫭
##딯
##뭣
##냈
##땔
##낡
##튝
##윱
##뺚
##얭
##곷
##딫
##놘
##땍
##츺
##셣
##읓
##줓
##먁
##풔
##풮
##넒
##꺘
##잴
##쎅
##쫩
##뷇
##쥑
##돓
##쌉
##퍝
##춍
##챳
##뎔
##붘
##븝
##죔
##튄
##롁
##뵙
##늉
##홝
##뗠
##졔
##옘
##꽇
##겿
##푝
##쒜
##삔
##밬
##푷
##쟤
##쭁
##랃
##찣
##웸
##뙤
##쯪
##먐
##뎨
##폕
##뤠
##뤩
##엳
##퓩
##쫍
##쉥
##휫
##롮
##픖
##봡
##뱔
##탵
##툇
##땨
##뛟
##힗
##궝
##헵
##왂
##쎼
##곯
##쯩
##흨
##훁
##띱
##뚧
##눼
##젂
##킼
##꺙
##엙
##튈
##텽
##붸
##냏
##벲
##덯
##뺩
##곈
##왐
##닯
##끅
##랼
##캭
##듥
##밣
##쟙
##밐
##섈
##넡
##뾲
##굠
##뎧
##좇
##쥠
##릯
##듳
##꺠
##쓔
##낛
##읷
##덗
##굄
##샆
##뇓
##녤
##퇼
##퍅
##댧
##댯
##룟
##짼
##꽊
##귬
##헼
##곪
##샻
##괼
##촥
##깬
##쁠
##쨰
##솽
##쭊
##쬴
##됼
##굑
##깩
##줴
##밇
##뱐
##헑
##흟
##눝
##읅
##삧
##잩
##딲
##쀽
##픨
##믓
##촘
##띾
##짗
##훵
##푠
##읎
##꺐
##싟
##듁
##닏
##샇
##킳
##뺙
##썀
##섰
##횞
##뒿
##탙
##믯
##츀
##맄
##쑜
##촷
##뒨
##릊
##퍙
##
##꽦
##탇
##쀳
##떰
##즑
##훰
##깣
##셕
##귶
##뙓
##봬
##짢
##쳌
##섄
##큾
##벖
##텂
##뜜
##힁
##귝
##횸
##옿
##낲
##궃
##햣
##햑
##녓
##훟
##쩠
##쥽
##젴
##뢔
##쎈
##귡
##긮
##깑
##뎊
##냬
##둍
##뀪
##쪠
##묑
##돝
##첬
##둅
##촡
##멨
##붝
##땝
##쐑
##툐
##츹
##뿓
##딍
##왘
##캰
##윾
##붱
##빩
##깄
##흓
##칞
##눞
##떙
##굇
##뎍
##춉
##뷉
##뭘
##돜
##풱
##쳡
##좐
##뷀
##릘
##랰
##넽
##궭
##돫
##쪘
##맗
##덭
##뢍
##퐳
##꿝
##늰
##뒁
##좂
##맠
##곻
##녔
##퐐
##뱨
##꼳
##얔
##뷫
##뺭
##휭
##괂
##읳
##퓔
##욋
##땽
##롇
##궨
##둗
##퉅
##둩
##삒
##뒈
##뮺
##썼
##꿘
##벍
##갷
##퇵
##큣
##긑
##쏀
##슽
##휵
##뚮
##쐙
##뽟
##곀
##둴
##휨
##뛩
##뺄
##갰
##훽
##쒀
##몃
##켸
##읫
##눟
##뼥
##슢
##뺐
##쫜
##콬
##앛
##볫
##뜳
##봊
##퀌
##맻
##귯
##덿
##쏚
##몔
##헗
##쓩
##륍
##잫
##뫀
##찎
##룺
##젋
##챨
##뎋
##뙈
##걋
##뙳
##홂
##뤨
##뛸
##뜷
##뙗
##퀙
##톼
##셥
##횩
##웟
##쟛
##녯
##뺼
##돨
##롓
##븰
##뤂
##삷
##풑
##붹
##큮
##쳑
##긶
##롫
##퇀
##겕
##괆
##뒑
##뺴
##떈
##렀
##씉
##픅
##냟
##좟
##꼈
##츳
##툠
##쉡
##툉
##툵
##엗
##굛
##댦
##뒥
##묀
##깈
##랕
##쨘
##뻡
##냣
##쏼
##쉠
##귱
##죡
##폯
##쇳
##띰
##뒬
##쿸
##흧
##삮
##띨
##뽂
##콣
##욺
##댸
##떅
##뾸
##껠
##멦
##뉜
##븟
##쭨
##겍
##뭏
##풉
##얒
##퀠
##팉
##븅
##뛃
##괧
##쭵
##텤
##켚
##뤙
##쒕
##췅
##꾁
##긷
##툑
##븓
##꿏
##듶
##뿛
##뻉
##픳
##뿎
##샄
##뽱
##닑
##슳
##솎
##셭
##놑
##룍
##튱
##꿱
##뱍
##겆
##뵘
##왷
##껰
##쮹
##휑
##깏
##뗻
##빧
##띧
##졷
##퐅
##돵
##롣
##뚥
##싴
##붴
##뜝
##콦
##낪
##밊
##켬
##쁴
##텰
##륑
##찿
##땠
##뚞
##캢
##욦
##췰
##쨥
##쌘
##믁
##끕
##돘
##싰
##겧
##쬭
##똬
##핤
##쭛
##쑼
##똏
##둉
##햟
##믌
##욀
##챸
##탘
##뼤
##뼬
##숎
##돿
##늏
##뵷
##큽
##뗄
##렫
##맫
##텹
##샢
##뺘
##졉
##뇩
##쭀
##뤌
##췬
##죗
##먏
##맇
##뚸
##닊
##롹
##꺌
##켣
##듫
##맓
##싧
##댋
##핿
##줊
##셟
##갊
##핣
##닚
##닧
##뀻
##귪
##궸
##궼
##킦
##끾
##혯
##꺆
##죵
##싕
##퐝
##붚
##늕
##겴
##먗
##팈
##잍
##됬
##촾
##벧
##맆
##쐬
##뗔
##슁
##듧
##욹
##훓
##텬
##썻
##튮
##듦
##봫
##쩅
##픓
##뒫
##왯
##껙
##쟣
##뤯
##룱
##춋
##젏
##폵
##숧
##캤
##퓻
##뀐
##끜
##닾
##웈
##콻
##걍
##늧
##죨
##걕
##쮜
##쮝
##탔
##뀰
##엤
##쨈
##읶
##놨
##썄
##뺅
##핻
##맢
##괸
##낻
##묏
##쉟
##렣
##륶
##옺
##훳
##뜐
##욷
##곺
##휗
##뷓
##챝
##롈
##떳
##뤵
##쀠
##뫞
##뿷
##땞
##밪
##뒗
##렜
##됵
##롊
##겄
##뫙
##힡
##꺢
##팠
##펐
##헯
##젧
##끆
##귖
##궺
##긲
##깒
##깛
##긛
##횻
##냙
##톹
##퐆
##뒝
##늿
##뿝
##웳
##벩
##펡
##큪
##핔
##튭
##췍
##쵤
##얐
##츩
##쩧
##쁙
##룐
##빎
##싮
##밦
##쨕
##켑
##쑊
##싄
##얅
##싈
##쇤
##븍
##쬲
##졬
##힠
##쬷
##홅
##쌻
##풇
##훛
##뼜
##윿
##엓
##꺕
##얫
##꽌
##갋
##벐
##렞
##뭭
##뫟
##죰
##줜
##킅
##뻤
##벴
##썪
##쁶
##웉
##퉷
##듕
##쿜
##멉
##얖
##젮
##뻴
##궖
##궫
##궋
##숡
##꼮
##롷
##긿
##냌
##튿
##푈
##댠
##딮
##윘
##눤
##뭬
##륽
##몊
##뛣
##홣
##꾫
##긞
##긏
##귺
##랋
##춈
##췽
##샠
##횢
##휜
##쵼
##쏩
##픤
##엫
##끤
##둇
##숕
##뽜
##뿁
##꼉
##꺵
##잙
##덦
##쇅
##쉏
##흇
##껀
##륷
##윹
##옠
##둈
##뾘
##럇
##췃
##얃
##똠
##씃
##앸
##엊
##굘
##볈
##퐄
##럯
##쁅
##뺡
##뗡
##끵
##셷
##쥩
##쌐
##슆
##댬
##뽓
##묽
##쩟
##돐
##놰
##뎻
##췻
##씍
##궶
##궻
##랤
##궢
##듹
##뢱
##쩬
##뎜
##뜵
##짒
##욣
##뀜
##탒
##쳬
##쬰
##홱
##줛
##놗
##솫
##뗛
##몼
##돇
##돣
##뢐
##홳
##잓
##웫
##룫
##뺃
##뗣
##삗
##뚀
##썝
##뿉
##뇻
##뇾
##탹
##숳
##톻
##쁌
##뿀
##튺
##뎂
##닶
##냫
##꼇
##픗
##뵥
##잏
##챞
##돩
##웋
##릣
##횦
##엒
##좹
##랆
##섟
##벓
##퇸
##둙
##쯰
##끎
##훜
##빖
##좸
##쁐
##줬
##뿮
##뱦
##꾱
##쟘
##컭
##핧
##먳
##뮻
##뭋
##졋
##붏
##딈
##쵁
##찷
##춱
##왉
##뫌
##줵
##뚷
##붖
##윻
##꿨
##졈
##뉻
##돡
##젔
##챘
##쑁
##밗
##쿶
##뫅
##닺
##넠
##뿗
##볽
##푴
##횅
##뒓
##릵
##웗
##꽯
##췛
##뀫
##괳
##쁟
##씤
##뤕
##몀
##흿
##닜
##췁
##팂
##룳
##뗶
##뗵
##싐
##홁
##팣
##쌱
##딺
##핚
##찓
##슻
##귐
##쎃
##툥
에서
으로
ᆫ다
20
지만
에게
201
는데
19
까지
아서
때문
##00
아니
라고
라는
다고
나오
으며
면서
보이
10
경우
어서
사용
다는
##레이
이후
자신
그리
공격
사람
위하
##스트
대하
부터
정도
시키
가능
다른
보다
이나
12
못하
으나
200
등장
는다
11
그리고
##어지
그러
버리
아이
..
ㄴ다
가지
다가
만들
경기
##er
하나
사실
게임
시작
일본
##니다
모습
이름
함께
한국
##지만
따르
##스터
사이
상대
##어나
15
거나
이상
##in
으면
하지만
문제
생각
다시
또한
시간
아야
프로
가장
##학교
들어
##대로
##라이
당시
캐릭
처럼
18
당하
ᆫ데
##on
캐릭터
모두
아도
ᆫ지
그렇
시즌
플레이
상황
모든
##이트
결국
추가
##an
16
##미지
##or
현재
상태
다만
많이
통하
30
그러나
스킬
다음
##리아
존재
전투
13
미국
능력
여기
카드
14
199
##리즈
세계
ᆫ다는
매우
선수
효과
##ar
17
그런
상당
달리
##he
##거리
##리스
##at
인하
지역
다면
ᄇ니다
물론
이용
##이스
의하
처음
기록
이유
레벨
100
이것
이런
필요
실제
자체
시리즈
여러
부르
25
해당
일반
들어가
같이
라이
어야
돌아
모르
##부분
역시
주인
거의
##이지
기술
바로
##en
마법
특히
영화
2017
무기
기본
이야
ᆫ다고
다르
관련
##ou
아무
그래
2018
진행
방송
##시아
는지
이야기
##지막
스타
나가
피해
위치
방어
제작
부분
사건
##가지
대부분
##al
작품
레이
알리
마지막
증가
본인
2019
일부
계속
인간
자기
지나
21
떨어지
##es
라면
서울
만큼
ᆫ가
2016
국가
올리
50
참고
주인공
내용
활동
##전히
우리
어도
그냥
중국
이전
비슷
어느
으니
생기
지금
비하
강하
대신
22
성공
##토리
만나
수준
타이
밝히
습니다
이루
감독
도록
그녀
198
상당히
24
대한
올라
##민국
최대
마다
대표
이동
없이
기준
공격력
너무
##it
므로
배우
제외
##버지
빠르
인물
죽이
의미
그대로
나타
리그
결과
실제로
##라지
로서
직접
2015
##랜드
23
대한민국
어렵
소속
원래
전체
##부터
이미
평가
승리
보내
그것
언급
체력
동안
대로
##ing
애니
##st
전쟁
##le
시절
##이드
자리
##ic
관계
40
싸우
마음
설정
도시
##다가
##re
멤버
과거
영상
##메이
##주의
유저
##운드
지원
데미지
선택
문서
유닛
발매
ᆫ다면
포함
몬스터
##dd
끝나
여자
불리
성우
개발
엄청
힘들
설명
##등학교
방법
출연
머리
바뀌
플레이어
아버지
최고
연구
보스
우승
차이
이러
기사
##우스
유명
여성
스럽
공식
2014
다니
장면
##없이
속도
사망
영향
이렇
려고
메이
발생
이때
조금
사랑
프랑
26
##ff
000
주장
일어나
주로
남자
28
##스타
인터
전부
##el
아이템
27
초반
출신
##리어
##am
제대로
운영
동시
##머니
빠지
31
##라도
결정
아직
중요
자주
프리
나타나
오르
the
##벤트
걸리
정보
공개
서로
또는
버전
최종
새롭
강화
친구
대상
독일
학교
##이도
구성
##아가
학생
유지
최초
##om
강력
소리
##프트
역할
##버스
파괴
노래
사회
이벤트
정말
역사
누구
그런데
마이
기존
쓰이
스토리
영국
비교
마찬
마찬가지
라도
느끼
##la
형태
어떤
바람
당연
소환
엄청나
##is
후반
인기
보통
회복
변경
이기
대사
2013
오히
바꾸
조선
특성
정신
슈퍼
오히려
##시간
거리
파이
어떻
방식
정치
가깝
197
드래
월드
음악
이번
발견
29
##너지
사라지
드라
아래
스테
##나라
게다가
32
아들
##동안
이제
나이
자유
##et
00
성능
프랑스
행동
특수
확률
성격
유일
활약
##ol
다이
마리
2012
일단
모양
##ion
##지어
확인
아예
시스
구하
##레이드
##레스
따라
이렇게
수록
부족
차지
정부
##디오
입장
노선
맞추
내리
스트
##소리
돌아오
심지어
주변
##로스
모드
먼저
영웅
##리카
##니아
발동
2010
거기
어리
과정
어요
완전히
반대
드러
생산
##ow
들어오
##그램
##인트
개인
60
##통령
대회
##nd
적용
km
모델
바이
##20
##il
제국
##ig
##므로
떠나
으로서
속성
##ed
시스템
대학
그래서
난이도
한번
라며
혹은
자세
35
##메이션
실패
어디
지키
전혀
돌아가
차량
하이
던지
장비
감소
원작
패배
##리그
덕분
현대
국내
사진
얼굴
##스크
TV
건물
동일
대통령
##소드
얼마
열리
더라도
도움
초기
무엇
마을
##나마
중심
앨범
우주
지속
##ac
데뷔
날리
##as
오브
인정
조차
표현
모으
애니메이션
##BS
출시
참여
나라
##어가
버스
196
굉장
획득
물리
세트
그렇게
of
2011
밖에
작중
계획
시대
데이
설치
다양
요구
순간
스페
반응
##아내
안되
Lv
정확
기능
자동
움직
##들이
기억
발표
축구
하루
드라마
선발
올라가
시점
##ve
그나마
영어
라인
아마
에피
아군
담당
명칭
##대학교
상승
##비스
으므로
판매
다며
작가
중앙
시기
진출
01
그림
경찰
세우
았었
##속도
The
조건
가격
특징
려는
##뜨리
대체
상위
##파이
대전
한테
##ot
고려
지구
관리
확실
드래곤
##위기
참가
500
##리오
수비
에피소드
로부터
지니
이거
남기
80
단계
##피언
2000
어떻게
항목
라서
실력
##으키
아르
어머니
더욱
묘사
피하
활용
연기
경험
각각
##ad
미치
37
처리
러시아
패치
비판
심하
45
밀리
후보
가족
만화
폭발
회사
문화
굉장히
세대
디자
결혼
##스로
이미지
교육
이어지
구조
##라인
진짜
프로그램
아주
내려
라운드
##위원
위험
챔피언
단순
선거
듯이
약하
여담
이루어지
발사
참조
오리
무시
St
다루
목적
히로
현실
준비
주요
194
##아오
크리스
민주
기간
불구
##머지
사실상
나쁘
나머지
일으키
마스터
대미지
방영
제공
삼성
계약
약간
혼자
시청
##id
부산
70
중간
뛰어나
##다리
시도
패턴
09
방향
세이
논란
일정
ᆯ지
##ay
지하
범위
동료
유럽
여전히
연속
당연히
한정
90
으면서
한편
이해
분위기
성장
아프
소모
훨씬
FC
##ER
##러지
##보이
그룹
국민
유리
세기
보호
특별
노리
파워
학년
그래도
##인물
블랙
mm
##러스
02
2009
03
바라
##ch
##트리
가져
조합
향하
기대
운동
잘못
자연
300
경제
기에
브라
가리
출전
기타
생명
디자인
최근
##드리
싸움
해결
취급
##us
48
국제
도망
##ir
자면
##티브
스테이지
부상
그거
성적
사고
부대
태어나
05
195
33
나무
연결
for
지방
이르
이라
2008
생활
##자기
의견
예정
규모
36
추정
운행
주의
이탈
08
ᆯ까
순위
변하
수정
타입
종류
마치
07
##ur
인구
충분
거대
움직이
방면
스스로
구간
아이돌
올라오
죽음
대화
수상
펼치
##리티
넘어가
오래
나중
야구
조직
안정
속하
전용
세력
마저
거치
표기
변화
느낌
지도
HP
##너스
터지
당신
장착
벌어지
미션
퀘스트
도중
전문
나누
비롯
등급
##..
##od
세상
##지션
절대
유니
06
항공
붙이
달성
##BC
직업
벌이
안타
특정
만드
지내
일행
관하
엔딩
th
부활
##수록
##능력
##im
##란드
##비아
독립
포인트
무장
발전
종료
지지
근접
전하
더불
졸업
관심
방어력
04
만약
케이
포켓
##라스
##어들
##다니
수도
반면
미사
따라서
##un
##ut
SK
스피
번역
싱글
제목
보상
엔진
##데이트
소설
내부
이끌
거두
에너지
목소리
투수
남성
2007
배틀
you
업데이트
배경
똑같
가끔
정상
##디어
미래
어찌
저지
충격
##카이
무리
34
##정도
타격
계열
득점
전설
정체
##리트
오늘
비행
지휘
목표
황제
##게임
공중
그만
항상
분노
##ro
##나이
최소
각성
공연
배치
예상
조사
등장인물
으려
이어
돌리
소재
북한
##공격
으로써
전국
정식
아라
위기
넘기
생존
얘기
##대학
##조건
로마
늘어나
전작
포켓몬
군사
신경
##ag
##igh
38
높이
##ver
작곡
##림픽
애초
스포
지정
괜찮
##ec
버프
가르
인터뷰
cm
##르크
다리
##나가
시전
자랑
지상
ᆯ로
기관
75
결승
점수
각종
악마
비밀
요소
전사
##운데
건설
분류
##ent
2006
인도
##시스
요리
과학
소녀
##시마
교체
##르트
55
연출
정하
in
이외
##야마
무대
전기
전차
부여
전반
##학생
193
하늘
레어
정작
수치
클래
##ak
클리어
확정
##로드
별로
니까
작전
드러나
홈런
갖추
개념
행정
##회의
훈련
소개
건담
링크
야마
제일
따로
2020
to
##um
타카
종족
외국
이적
아키
##자리
군대
갑자기
##젝트
##무리
변신
',
##루스
카이
나름
언제
이탈리아
제한
단점
##스티
기업
##화국
바르
완전
##파트
vs
장소
크기
누르
인천
기계
##이즈
명령
냐고
##타임
서비스
##아들이
평균
##시대
기체
노력
근처
##어로
동물
가수
수행
포지션
사냥
파티
아카
작업
보유
트리
압도
표시
다크
##ST
##모토
기동
집중
연합
특이
오른
화력
##em
##ub
살리
시장
끝내
병력
##니스
이하
어쩌
사업
설립
이쪽
잠시
기회
베이
더니
부모
부정
기반
공간
##레인
본래
필드
파일
경쟁
치명
##말로
판단
느리
카운
##이치
무슨
감정
가운데
직전
##000
목록
##카드
이닝
물건
나서
의외
ㅏㅆ
인식
단어
고양
상관
탈출
월드컵
판정
사례
옮기
기다리
소련
주문
##요일
던전
2005
주제
효율
차원
포기
제거
강제
정리
가문
키우
앞서
##역시
임무
##ight
진화
마르
42
려면
다수
대구
새로
위력
도전
41
##고등학교
도입
프레
때리
라이브
##세계
도쿄
별명
##러스트
원인
중반
호선
정의
레드
완성
제품
##그레이드
발언
고정
스타일
39
지배
##이션
##기사
받아들이
유사
촬영
에게서
##드시
숨기
2004
골드
무려
복귀
사이트
동생
어둠
시험
##대표
연습
직후
분명
도착
EX
아스
LG
역대
은데
버티
전개
삭제
으로부터
접근
모이
ㅓㅆ
바다
인사
요시
고자
사정
해군
랭크
현상
추천
마시
##ce
예전
왕국
정규
살아
음식
확장
교수
##로우
회피
마나
해외
##AR
안전
코스
빨리
업그레이드
책임
오버
병사
이곳
반드시
##os
##바이
줄이
일러스트
조종
유튜
완벽
자원
부탁
점프
저항
44
타이틀
올림픽
##방송
롯데
##ri
##트라
도로
극장
고대
##AN
장점
심각
잡히
비용
탈락
차전
우선
##ula
Ch
##무라
인터넷
신체
아내
자마
파트
##ON
의사
통합
##하나
언어
리더
추측
공동
##대전
전력
의원
##아하
No
전략
##ap
43
주민
치료
99
이라고
실험
환경
몇몇
미니
의식
연장
히어로
마무리
합류
연재
##and
구매
2002
소유
st
점점
스코
즐기
##버리
살인
장갑
##러리
사격
최강
form
철도
대기
종교
사기
##광역시
전자
그야
화면
취하
수많
다소
마법사
기념
구분
좋아하
공포
티어
kg
에이
종종
엘리
47
46
개최
51
191
사거리
마사
암살
걱정
오프
formula
평범
가치
##퓨터
전통
가사
스크
자마자
형식
KBS
개봉
아쉽
##무기
부하
그야말로
##아지
그리스
개월
선정
녀석
사상
채우
스페인
여행
##ter
재미
##위원회
워낙
아무리
##선수
다행
미드
복수
입히
루트
##오르
##아보
##메라
and
##스케
요청
미사일
한계
프로젝트
무조건
본격
정당
정확히
대중
냐는
한글
##ul
개그
MA
평소
사무
영혼
실점
시청자
##시장
밴드
거부
비중
굳이
##IN
##운동
지적
무한
공주
옵션
1000
로봇
2003
데이터
줄어들
하드
##모리
컴퓨터
충분히
고르
##op
위협
투입
상징
버그
는가
##니티
##관계
시설
히트
달러
연주
행위
범죄
##ck
도망치
선언
##쿠라
대형
불가
%,
명중
실수
모자
설계
네이
폭탄
150
콤보
드리
형제
을지
65
특유
##FA
대결
언론
##ation
원정
트위
해석
선생
성향
##로그
조작
운용
희생
시민
##오스
##일러
MBC
##정부
광주
스포츠
SP
행사
##려가
전원
일종
##아이
인상
대응
##ra
192
보병
태양
보조
##이상
이사
봉인
##남도
광고
행성
##다르
나이트
##페이지
얼마나
가면
벗어나
개조
플래
##이크
오리지
단지
로써
64
II
##시브
그때
마력
드러내
##기관
차례
##동생
##미널
##경기
와중
##특별
##머리
구단
보너스
단체
화염
빼앗
노트
간단
점령
시나
통과
프로듀
소비
경기도
##려오
ㅏ서
치르
오랜
육군
발음
생성
서술
뿌리
##올리
가하
근데
52
방문
##라이더
클럽
합치
서버
유튜브
조정
장르
##텐츠
불과
의도
재료
투표
소년
금지
반복
가정
You
의지
정책
함정
지명
한국어
는다는
년대
저격
영입
디지
400
최후
##레이션
에어
보컬
분리
초대
제안
##마스
따지
##드로
##웨이
채널
##세이
##art
##래프트
원하
박사
##교육
무사
그저
대비
##런스
사태
편성
##지역
여름
외모
가져오
놀라
VS
음반
일차
장기
후속
센터
찾아오
소식
##학자
##부대
49
두번
숫자
고양이
##도우
##사이
흡수
##니까
적극
느냐
목숨
뉴스
지나가
AP
독자
56
눈물
공략
진입
데스
장난
스위
모험
바닥
디스
##센터
패러
은퇴
적절
##사카
생물
왼쪽
크로
괴물
군단
주력
오토
2001
고등학교
오오
대학교
##마트
컨셉
거짓
아름
##이터
저지르
살아남
기자
흐르
의심
확보
자료
서브
전화
ᆫ지라
미리
53
약점
노동
원거리
54
개선
코드
필살
더블
오리지널
제도
...
사과
형성
대단
쓰러지
##달리
관통
단순히
In
PC
걸치
교통
대장
##어내
다운
수호
저주
전술
황금
##피아
페르
계기
만원
마침
들이
잘하
질문
부수
조각
브레이
구축
알렉
##피스
착용
꾸준
85
상대방
작성
유도
시티
솔로
풀리
##ia
타임
1990
방해
기원
집단
##문화
##즈키
비난
##믹스
삼국
역전
인류
먹이
##ill
##무원
전환
편하
아프리카
습격
##워드
필수
경상
열차
##ie
##전자
선보이
승부
아나
##소년
라디오
규정
##나다
##북도
홈페이지
어라
##RA
진정
ST
실시
유우
라이트
##회사
클래스
##IA
공부
확실히
회전
모티브
아름답
무력
감안
들리
190
##ik
엄마
경계
수원
등록
블루
병원
##영상
##스테
완료
편집
어느정도
##전사
남편
비고
승강
스카
번호
표정
무섭
쿨타임
##플레이
임명
지나치
기지
오른쪽
비트
딱히
행복
##술사
멈추
허용
본선
친하
희망
사장
##드라
##붙이
59
방패
상처
##연히
바탕
코스트
포스
당장
##울리
의문
데리
태도
고통
탑재
유래
이스
장군
에이스
##트롤
유키
##ab
아시아
인지
##라이트
날아가
아요
기점
평화
국회의
가까
비싸
분야
120
선물
##시오
제압
고유
58
민주당
##아리
트랙
대답
성인
을까
제시
멸망
그레이
하위
레인
로드
##est
챙기
가슴
##크래프트
##대회
주목
빌리
57
꺼내
수리
잠깐
자라
아웃
후지
##th
MP
중단
마크
##all
날개
이론
멀티
##라리
나뉘
##ea
거주
사령
66
한화
95
##니어
측면
사항
##터리
회장
당선
##나미
검사
시나리오
주도
멀리
겨우
포르
##디아
뮤직
내려가
액션
##소녀
스파이
##전쟁
투자
년간
주연
공화국
고서
뉴욕
눈치
동맹
보급
일본어
##철도
달라지
약속
Sh
듀얼
학원
우수
교회
테마
드라이
보수
궁극
Lo
텔레
온라인
##ct
가볍
##나무
최악
ddd
on
##보스
시체
##토스
나타내
카운터
늘리
크리
1999
망하
##하라
Re
가져가
순서
위주
배신
좀비
##스키
종합
소울
대놓
##초등학교
가드
해제
견제
퍼지
110
함대
##ddd
dddddd
Sp
##바로
1998
현장
오후
보도
##두르
카메라
##AL
##타로
산업
지식
코너
처치
계산
연계
핵심
베이스
##지원
최대한
살해
##어리
ㅓ서
##오리
##AT
62
##다이
##PS
예선
귀족
##워하
나카
자이
해금
국회의원
직원
인원
필살기
중화
##OR
에스
전장
진실
##VE
귀엽
외부
분석
거절
컨트롤
##어스
##트로
국가대표
드물
##라우
##유키
건너
쓰러
특기
이성
이치
스케
##고기
##주시
유용
출생
SS
용병
제조
SBS
가르치
어울리
소프트
출발
ᆯ수록
통일
상하
수사
증거
개편
부리
인형
애매
는다고
##들리
기분
부담
##시즌
스탠
##ate
지옥
광역
##선거
레이저
##래도
극장판
흔히
##ess
한자
커뮤
겨울
안하
Th
##ell
##번호
61
세계관
불명
어린
민족
##ard
76
진영
타자
##사키
끼리
단독
버튼
자살
영역
타이밍
##ang
얼음
피해자
발휘
아무래도
서울특별
겹치
##IC
카즈
자동차
##민주
크로스
레전
##바람
##다수
##연구
아침
오스트
홍콩
##ue
조준
무게
자고
고급
순수
##기술
##ant
##ack
제로
비록
##대장
공통
##츠키
##ers
스펙
부진
패시브
Al
NP
코치
77
우려
장전
시내
##ine
로켓
소수
88
케이스
두산
1997
구입
72
반란
##아나
##서관
##생활
##심히
브랜드
여왕
##가락
카페
게이
탑승
충돌
한명
혼란
스피드
몰리
후반부
상자
통신
장치
##오프
##나오
##시티
기획
기절
만족
서울특별시
문자
내주
협력
외치
인생
파악
군인
테크
탄생
끌어
막히
꾸준히
조지
게이지
생일
판타
BG
ㅕ서
왕자
##디션
근거
##웨어
##ok
코어
아오
##OS
부인
안습
업무
닥터
무너지
실질
##카와
관광
be
납치
강조
##포트
등등
게시
373
FI
채용
반영
붕괴
공산
더하
스프
or
##자키
자르
위키
돌격
미군
##노스
98
fff
훌륭
온갖
CD
gt
장수
브라질
마이크
대공
점차
마왕
갈리
스킨
맡기
밸런스
##ive
수단
랜덤
##파이어
없애
600
반격
자격
패러디
##상태
주어지
##메달
##사건
용도
경향
댄스
홍보
구역
지하철
아메
공군
대다수
울트라
##리안
##스카
찾아가
##도시
내놓
##정보
공항
1996
설득
위원
아사
권력
어차
살짝
##스코
제주
입학
##시코
고민
어차피
주년
##ast
승강장
언니
체제
지시
PS
돌파
표준
##세우
##AS
가까이
대놓고
가로
1995
지급
커버
화살
영원
감염
실행
가입
또다
적당
엑스
가스
대륙
입수
충전
##중학교
응원
그다
작사
ㅓ야
제기
##uby
",
베르
캐나다
집안
##가능
그라
##ED
##은행
##tt
당황
갤러리
68
즉시
##ee
내려오
자식
은근
lt
800
불안
신화
열심히
연방
##교통
체인
스페셜
뒤집
리어
별도
##거나
여러가지
여부
오프닝
##시지
신뢰
폐지
북미
63
매치
증명
1980
명예
유형
경력
##아먹
돌진
정령
한때
##친구
##ong
보물
##호사
##AM
ruby
괴롭
단일
##독교
도구
운명
##돌리
이승
찌르
가면라이더
후쿠
이슬
모션
마련
##오카
##ort
김성
선배
군주
##레기
라이벌
교환
플라
비율
##데스
카르
계승
흘리
##미야
마녀
##트남
댓글
##효과
##관리
##ith
근무
횟수
재생
##스트라
오해
경유
중계
71
##if
##아버지
74
트레이
습득
드랍
수입
주전
함선
불만
정말로
내내
##ly
트위터
##스탄
커뮤니티
##비전
##브리
시행
##fff
오픈
조조
....
MV
##ld
하수
재판
장식
마츠
##히로
그곳
73
67
고속
ffffff
혁명
고전
레전드
박살
지우
절반
가리키
추진
격투
딜러
짜리
메이저
주위
아우
붙잡
테러
울산
로스
##보내
외국인
심장
단위
아시
별개
계급
취소
NC
처하
##ain
메탈
일대
##ist
96
##겨나
민간
##공사
파이터
회의
등판
남부
암흑
##버트
1994
##ind
소문
이란
가득
재능
##보드
TH
정권
북쪽
그다지
연예
쌓이
안드로
##퍼스
예술
감사
##서트
마주
180
고치
공유
해방
피해량
격파
##기간
지켜
지점
남쪽
AC
건강
##지컬
문명
##스턴
그동안
외교
스코어
스트라이
미야
##레나
81
AT
##베르
네이버
초월
장애
강원
사운드
든지
아리
파리
발매되
공작
일부러
그만큼
결승전
##타이
다행히
차별
크리티
전방
##티나
##per
##바르
압박
임시
소멸
널리
전달
##아웃
하트
##ps
##구역
기독교
화장
공장
##EN
##가리
레오
##워크
입단
문제점
흔하
쓰러뜨리
그림자
##가와
적히
지켜보
피아
카나
판타지
타점
##식간
공사
페이
무적
따위
맞서
화려
##EC
물러
갑옷
헤드
자는
치명타
##마을
78
91
스튜
프로듀서
##OL
거래
갈등
순식간
말리
본명
지형
여동생
따오
무난
##ew
오로
건축
여론
선호
##때문
일상
유비
트레
공기
연사
컨텐츠
폭풍
여신
드립
러브
시야
패스
##투스
##모드
84
CP
체육
##일랜드
최상
체포
사단
##LC
관객
me
##ry
크리티컬
스파
용어
첫번
드디어
유로
전투력
아케
##려움
수있
체계
##레이터
82
불꽃
바라보
삼진
##lo
페이스
전역
추적
복잡
##타인
##영화
매력
늑대
제이
97
파이널
대만
한국인
아무런
##사항
경영
##덜란드
전함
86
도달
고향
화이트
영토
맞이
상향
사쿠라
대원
파견
##공항
폭주
해설
크루
##병대
##프로
떡밥
작동
##둥이
동원
사전
네덜란드
테이
##모로
it
변형
푸르
현지
69
다시피
##어버리
한방
##프레
추락
메가
인수
수용
조용
그치
요새
몰래
연관
페이지
아무것
쿠로
수학
참전
개통
is
추격
아티
NPC
출판
막장
달하
생명력
##어오
출현
##IT
상품
##더스
충청
교황
일제
고기
##동차
작용
##릭스
둘러
##바일
돌아다니
해체
프라
파라
매일
잉글
만든
US
프리미
##과학
미스
##아파트
##디언
향상
통제
박스
경험치
스카이
MS
중학교
복장
신인
놓치
##티드
리버
An
옛날
구현
왕조
녹음
동쪽
##가스
아파트
입력
김정
##어도
알아
북부
##먼트
조성
##ust
오빠
환상
교사
오류
스마트
와이
베트남
##교회
크레
오스
신규
##고리
##일리
수업
예외
언제나
보정
환자
노출
##크스
##국가
범인
250
기초
종점
총기
KT
출장
연애
이시
구체
##연합
##50
나루
되찾
메타
##단체
일원
회원
서부
에드
토모
인근
##구리
심리
이랑
타워
시각
편지
##병원
영문
##티아
##리스트
여러모로
기어
신고
##류장
189
대립
쓰레기
거짓말
수요
가이
제자
한마
쿠키
##과정
보장
전라
마인
사토
의상
##요시
불편
불과하
신청
전형
연락
수집
신라
202
그래픽
접하
편의
신분
1992
##전차
어깨
##야구
평타
전면
유희
양산
무료
##사기
##조리
창작
천사
차단
서쪽
##버프
신성
기여
92
##BO
검색
##ore
##톨릭
##저히
모바일
부품
영업
이중
Ar
##펙트
띄우
반지
대체로
노예
세월
전직
진지
반발
동부
학살
감시
자이언
하고
83
고생
이날
주먹
마리오
##코드
심판
폴란드
##일드
마리아
대량
Te
##베이
구속
호평
##조사
상상
대우
제하
89
잖아
제작진
블록
클로
내구
##FF
101
휘두르
93
반하
정지
기기
1993
다섯
제법
브리
출처
무효
승격
##사고
프린
De
MAX
테스트
##라드
콘서트
침공
식물
기습
닌자
동영상
이득
94
스폰
한타
잉글랜드
##시설
더빙
이래
##스팅
보석
창조
##성기
어그
잠수
경기장
코믹스
com
79
적어도
알파
마도
연상
지도자
은하
요즘
폭력
조심
##FC
저장
실드
re
동방
합격
꼬리
##구치
다이아
비디오
다면서
87
엔터
##란색
이리
메카
##가미
극단
##사업
볼넷
헌터
뛰어
멋지
##로나
마이클
하수인
공급
통상
ㄴ다는
노멀
박근
##라이언
음성
글로
똑같이
##사자
##데이
구출
##one
대략
훔치
On
시위
파일럿
이재
교전
회차
##시타
##공원
동작
##se
##그룹
전투기
런던
결성
경비
##ip
##활동
합성
길이
토론
상점
지휘관
어지
후기
사령관
##AC
유령
국립
도망가
AI
DJ
물질
고용
어드
아크
##RE
익숙
운전
아머
이슬람
##임스
바보
었었
서양
수영
##ere
##창기
##바라
나아가
탄약
득표
모리
윌리
동네
##PG
폭격
갤럭
소화
##널티
프레임
BGM
MC
회수
인공
신경쓰
장관
사마
어둡
SN
경고
이내
활성
##의원
의혹
법률
묻히
##ity
권총
불법
냐며
##ath
조절
태우
규칙
##지마
콜라
##가드
조치
플레이오프
디지털
##미스
성과
전적
스웨
타케
라이더
동기
유행
수송
김영
들어서
엘프
으니까
호감
부문
간부
투구
##공화국
문장
FIFA
요괴
지르
##사회
##인민
웬만
##스킬
##부장
##스토
##end
##부르크
##마이
결론
##마루
##끄럽
1991
##마법
종이
이명
마냥
취임
불러
빛나
움직임
터키
스티
원소
자매
다하
앞두
##리온
글자
멕시코
가톨릭
곧바로
저그
매니
제어
!!
##메이크
에다
탱커
정면
찾아보
일시
키스
포탑
특화
진심
키리
##장치
##대사
여유
너무나
THE
700
FA
소닉
예측
문학
메인
##프리
##배우
오랫
박정
절망
소드
신문
흥행
수술
ㅕㅆ
도발
가시
전공
구원
근육
신호
착각
정복
커맨
사자
시드
총리
끼치
1988
의무
유대
어떠
제임스
개체
개정
MVP
외계
리메이크
국방
홀로
요정
연대
##지방
아끼
떠오르
육성
넘치
##타자
그대
초창기
좌우
고백
출력
소형
##라노
루시
강철
여지
##커스
팀원
##네스
차라리
##페인
실리
Ro
물러나
긍정
##OT
인정받
베스트
아기
스토
피부
초등학교
인연
목격
니시
파트너
예비
##러드
정착
##팩트
##행위
##아시아
번개
챕터
탱크
연도
아일랜드
요코
CC
에서부터
계정
상호
플랫
바치
##속도로
전시
Wh
타이거
플레
어린이
발달
위장
헤이
안드로이드
파이어
##작용
영향력
길드
이주
는다면
AK
예고
묘지
식민
신설
갤럭시
슬롯
세이브
내장
대항
헌법
##세스
떠올리
몰아
미츠
##마크
##자드
박근혜
##ect
차트
각자
DLC
오사카
하필
깨지
대폭
라면서
명중률
htt
고문
Se
##포터
1970
##카리
카라
코인
##평가
청년
사양
예능
농구
양쪽
##잡이
후속작
으려고
히데
최소한
Le
##저스
마침내
##티스
호주
수록곡
분기
의뢰
아바
'.
본작
강의
게스트
악역
관할
##대상
주간
전후
##시리즈
##위키
협박
현역
##닉스
누적
국왕
공지
용사
저녁
He
인증
##무장
오랫동안
세르
그럼
PD
막차
골든
루타
안내
##age
##의회
##IS
##그리
아빠
미카
우리나라
신기
기원전
##미니
주말
부서
al
트로
역임
일자
방출
육체
의존
구멍
가속
괴롭히
##필드
전선
메모리
카오스
분량
적대
웨이
어쨌
세종
kt
감옥
부부
망치
##어나오
커플
##지대
연인
##나카
장교
올해
Go
다가오
##도르
터치
해리
Me
##브라
아가
이지
간혹
비행기
장악
오늘날
이끄
요원
##크로
##밀리
실버
명성
년만
강남
##무르
코미
##박스
빌드
개방
일본군
융합
##물관
정글
노부
원자
예쁘
틀리
정치인
놀랍
노르
보고
##워치
더라
GT
대지
처벌
가량
대처
출마
오가
김태
1989
형사
KIA
떨어
투어
마구
써먹
놓이
은행
지능
##og
포스트
##ake
##몬드
##ide
배트
상당수
한동안
트레이드
개성
이집
희귀
스튜디오
외형
재미있
자치
오전
전문가
먹히
##OM
Be
십자
My
무덤
피격
##경찰
WW
커지
패하
사제
호텔
준수
이즈
접촉
##타입
환승
섞이
부위
소지
의료
130
##제국
환영
갇히
고교
가게
윌리엄
##려주
꼽히
소원
담기
포르투
대표팀
바위
AR
##ss
둘째
허리
SC
이집트
최다
##ark
합의
소총
오스트리아
초간
플로
##ime
인조
필리
깨닫
##ire
따라가
안티
SM
##천시
편곡
선전
##문제
화제
##우드
정류장
국회
##가시
##치기
수련
188
논리
웹툰
으러
wh
아니면
116
손가락
확대
알렉산
까다
구도
전진
my
Su
문재
##랭크
##네임
##ES
핸드
은근히
전신
삼국지
ㄴ다고
##누스
스톰
SD
어른
귀신
ㅓ도
알아보
상업
##노우
흐름
##산업
##ID
입구
극복
고등
##안타
성립
태그
소중
더더
권리
대개
치우
연타
Tr
미디어
는지라
스웨덴
국가대표팀
청소년
##ite
##던가
축제
새벽
접속
독특
별다르
##지로
고구
튀어나오
##다랗
변호사
무렵
할아버지
수수
익히
구나
##덩이
무겁
모모
일격
태평
ᆫ다며
라이프
굴리
조언
수십
160
##ound
블레이드
작곡가
편입
리치
연극
멀쩡
SR
페이즈
칭하
##iv
동의
일찍
바이러스
더더욱
HD
일일
''
팬덤
퀄리티
평가받
사카
차리
##쳐지
빼앗기
병기
까다롭
원수
음원
보안
팔리
혐의
원본
블로그
##큐어
##협회
시즈
##iz
##OP
카타
##ge
한마디
훗날
권한
위상
기사단
트윈
허나
랭킹
검찰
첫차
적군
절대로
IC
돼지
##항공
##속성
클래식
손해
살아가
##리얼
챔피언스
브레이크
주식
대가
##지구
클리
식사
##OW
대충
보관
##스톤
합체
느라
면역
##주인
증언
##사관
애플
주포
처형
갈수록
죄다
##감독
##시로
각본
시선
적응
하얗
누나
계단
한쪽
무릎
미술
참석
금속
##아프
아트
리듬
공공
매직
##리나
과연
##키아
신세
결코
모자라
개시
네임
우위
##사령
마이너
한참
내성
개입
결합
##무시
카미
전철
스승
##코토
후방
기적
##법원
##LL
유이
해안
토르
##ome
활발
동화
지진
미소
헤비
사도
수익
슈팅
다음날
천재
정수
Gr
불교
##공학
연구소
어다
해상
##고속
경기력
내세우
##머스
크리스마스
치유
with
김민
우연히
##전대
사이즈
원칙
스태
##BA
최종보스
유물
디버프
##지사
이영
##그마
털리
##UN
시계
루수
캐스팅
자금
유치
캠페인
개막
트랜
통치
커맨드
연료
김종
오래되
스타크래프트
사막
데려오
이민
세포
이글
비추
디아
##범위
컬러
##싸움
##비드
선출
위대
IS
##마리
지위
투명
칭찬
의회
으라
인지도
게이트
##타카
결말
##일보
회상
메뉴
충성
하야
전성기
이자
해적
##양함
1987
플랫폼
업체
추가바람
de
##데미
녹색
##리우스
전멸
##비치
BE
##우리
흔들리
##방식
px
정찰
어지간
140
열쇠
김동
오카
나치
정비
이정
눈치채
##MA
구사
Pr
도서관
미나
흔적
##말리
##테르
거인
이식
상태이상
신비
##ord
무작
Love
방사
##어서
상급
어쨌든
자국
오직
일반인
새기
호위
웃음
##ud
주기
어마
취미
작화
구경
##주의자
지속시간
포트
제정
고수
네오
농담
후계
대대
프리큐어
안경
어려움
레이드
사이드
ch
날짜
화성
도주
으시
##멘트
챌린
행적
본체
패션
회말
개량
불타
##mp
##주민
고스트
모조리
##려나
매년
##사람
스틸
거점
하락
대리
##10
사후
당일
생존자
모래
##ame
UE
##반도
##ance
개수
의대
니코
SKT
##ax
남북
네트
로그
상성
진보
코우
동굴
자세히
an
코코
스마트폰
아이스
JR
가짜
##ure
기울
일본인
흥미
##ix
900
##회장
GS
관중
시달리
##시스트
기르
##문학
메르
##기업
##ick
누리
##mer
비례
브루
채택
캡틴
일방
덧붙이
국적
개혁
식량
몽골
##ice
포격
아티스트
가을
예시
임대
아미
스프링
##게이
업적
재현
##our
화학
##음악
Bo
행하
레이스
유나이
유니폼
##월드
궤도
귀찮
방지
기용
영구
바깥
잘못되
울리
루이
집어
생겨나
피아노
승점
##버스터
연패
스톤
##아다니
EP
노인
식민지
소속사
1986
추구
##지르
협상
##그라
거듭
##위대
날아오
리드
볼트
##로디
미안
자리잡
##인민공화국
##랑이
잠재
자극
##투수
사형
선택지
1960
다름
단편
특집
##역사
OST
양성
신부
무방
신앙
##류탄
데모
저작
잡지
이익
엔터테
빨갛
KO
야스
##{{
Un
제갈
예수
취향
공원
종목
할머니
##차량
쌍둥이
간신
중장
스턴
##버그
보라
라이온
Ex
아즈
##시험
비주
출입
제작자
일치
프라이
기병
소장
스트리
넥센
##개발
소위
명확
##AD
정원
##qu
타인
전주
무역
캐리
강요
어택
몰락
포항
##럼프
예산
##oc
다치
총선
사신
{{{
콜라보
안타깝
잘리
판매량
유희왕
즐겁
그만두
사우
##처리
막대
크라
포로
##80
타락
조약
##우승
가상
실망
터뜨리
GB
##학원
재산
색깔
곡명
찾아내
##라엘
UEFA
##자치
##센트
연승
단단
화물
세이버
##레벨
깔끔
기도
즉위
##병기
휴대
유나이티드
DS
##버전
귀환
비상
186
##own
칼리
초보
##도로
sh
##거지
##ys
##블린
##작전
포르투갈
백성
너희
신장
챔피언십
아마도
CPU
중독
미루
색상
로고
##터스
클레
게시판
블리
##테일
##든가
명단
아카데미
항복
##수사
공성
##ber
식당
고구려
외전
미스터
##레일
김재
강원도
통산
인격
등지
베네
##레드
유적
칭호
항공기
조별
##이너
적합
We
AM
구석
##슬러
커다랗
사라
##교사
아쿠
교장
중대
타율
대선
김대
105
하단
새끼
건조
##av
##OC
둘러싸
일명
수장
오타
유효
탈퇴
교류
카트
끊기
레알
##old
커리어
포위
탄창
커피
무지
시내버스
.."
타수
로즈
인치
체크
호수
고작
개국
CF
흑인
면모
공무원
반사
마키
LI
추억
측정
그러니까
##orld
예언
##인간
나무위키
##로봇
박히
구글
포수
라스
라인업
기종
주사
후술
자폭
기생
트라이
히어로즈
휴식
지대
상술
아저
##드리드
적당히
다름없
용기
##학과
##시절
흘러
저런
배터리
화장실
마약
고맙
사유
메시지
과목
실전
일기
##여자
미라
면적
데드
승객
다스
성남
1984
##같이
##고지
아메리카
형상
차이점
선고
주소
##ont
1985
마비
더럽
반동
리얼
최신
어이
국경
철수
##려들
남녀
아랍
매니저
근본
##포르
187
도적
보존
##번트
SH
추종
##유럽
##어마
증오
피터
3000
승률
용서
강도
매장
한글판
소프트웨어
##축구
하차
##폭탄
AD
##ies
떨어뜨리
LC
사정거리
DF
급격
입지
메리
서포터
유통
크리스탈
만명
후원
또다시
##에르
이슈
마드리드
lo
치루
KBO
본사
##베스
관람
부각
도끼
서구
더러
미묘
영주
연예인
시너지
##동물
아르헨
후배
토끼
생략
쓸모
아이콘
아테
집행
##통신
루카
잠수함
네요
데려가
후손
액티브
It
부지
##lay
주역
자전
XX
중첩
이스라엘
##경제
꾸미
왕위
허락
##여객
언더
그랜드
천만
저렴
##기지
마린
##비디오
중립
##본부
기아
##사무
동성
뜬금
오랜만
네트워크
공세
상단
클랜
기량
들키
튕기
소라
총알
##하면
이수
아케이드
간신히
##페이
음모
##OD
신사
무척
MF
##니시
##크라
##걸이
숙련
수류탄
##포스
방어구
발행
마술
##US
서식
##슬링
글로벌
부딪
거미
배차
생년
취약
##모스
관측
구르
##산시
터미널
상인
텔레비전
알아내
해피
물리치
혹시
마주치
흡혈
CV
가만
회초
블러드
##카오
자막
맛있
상실
##라기
아이언
WWE
창원
행보
곤란
일족
##디스
##다운
.....
학자
##PM
법정
##ann
관찰
아틀
공룡
논의
지경
금융
바퀴
머무르
##사이드
스페이스
NE
사귀
라기
수출
애정
아르헨티나
재정
어마어마
SE
나폴
자본
강등
아시안
곳곳
##40
##타운
오버워치
타마
##사랑
잡아먹
고위
파크
이마
##마스터
125
##pe
멘탈
텍스트
##30
##태우
깨어나
대수
슈트
인종
잡아내
간접
공방
내보내
관점
자이언츠
침략
경상북도
##체육
결심
스트라이크
구리
철학
시노
문구
차기
격추
오라
단장
토벌
리스
시마
##sh
유학
표지
your
##하마
되돌리
산하
더군
##전기
##불명
악당
##그나
기숙
하루카
##그래
##NA
중세
##도리
위반
##노트
오크
앨리스
##신교
트랜스
가동
상관없
소스
김현
백제
##기구
정화
찍히
평생
상영
헤어지
얻어
약화
##VD
##던지
정차
연합군
냄새
CJ
연금
메달
미터
AS
니콜
##에이
충실
타선
이혼
안기
드라이브
언덕
쿼터
금방
파츠
거울
##어하
드래프트
##벌레
에리
엘리트
DE
##월일
##승부
동인
간주
와타
##싱턴
담배
서서
##ng
보호막
강자
낮추
##io
스플
성별
초록
문재인
배포
##사이트
우라
침입
뽑히
빠져
긴장
묘하
상기
스팀
제작사
반전
존재감
인민
루나
다카
주둔
본부
호기
내전
##검사
상세
로우
야생
##젠가
기관총
마법소녀
복구
##너먼트
;&
엮이
백작
##아키
##바닥
정기
##공간
언젠가
해치
제출
티켓
판결
폐쇄
에요
모시
##oo
양자
제약
화재
##팡이
동양
천안
균형
레이더
지불
후계자
재밌
악명
짜증
170
뮤직비디오
Pro
이듬
엑스트라
조연
##누리
로버트
부적
은신
잔뜩
##히코
심사
표면
두개
전세계
펀치
유력
지뢰
##바나
불사
##열차
##하르트
에르
세인트
저택
##ave
##전선
뮤지컬
##포인트
맥스
행운
백인
업로드
변환
프로필
에다가
답변
쏟아지
경주
매체
##LE
##구장
뱀파이어
사쿠
소유자
##스럽
프란
휘말리
인용
LV
계통
윈도우
합병
##훈련
위성
심심
스키
that
##운서
뜨겁
본관
천하
체결
UP
해명
##방향
태평양
프로토스
난입
정황
생년월일
헨리
부임
##방어
분명히
바리
브로
코리아
창단
유독
히나
임신
##ION
라인전
동점
##주교
##쿠스
건드리
노동자
금메달
상관없이
캐논
부자
##ream
선두
보완
##플렉
려던
ED
1500
##가루
구축함
견디
괴수
호칭
EN
잃어버리
용인
디지몬
내지
와일드
여야
수백
한나라
공허
대인
말투
악화
서번트
해골
정예
이듬해
항의
다이아몬드
외계인
하향
##갈리
전승
개설
준우승
##부로
##ond
##다나
1982
영광
전파
호흡
어뢰
->
살펴
미쿠
선거구
##르타
여우
찬스
살펴보
바이오
발렌
끔찍
유발
통계
착하
경로
##체제
##iss
Com
머신
5000
딜링
##국제
도루
칼날
왠지
삽입
##마르
기믹
뛰어넘
카스
실종
창설
##하시
##드레
민첩
스크린
지치
돌입
부드
##재판
##레인저
파르
##슈타인
##이동
고도
참가자
인디
유인
아저씨
혐오
막내
마루
##마치
호환
##코어
간격
커녕
존경
그렇지만
수호자
##대원
##중간
집착
걸맞
여객
시라
사살
성질
1950
법원
도박
미키
##블로
시상
##IP
##11
정통
청소
채팅
기숙사
단축
토너먼트
트럭
허가
사원
반박
경남
##전투
아츠
수면
주차
배트맨
드럼
##중앙
낚시
1983
깔리
우정
##니카
감추
##즈마
전북
##60
이종
##드립
##ian
??
by
동명
시원
아나운서
디젤
he
##다보
싫어하
##쟁이
드라이버
사용자
세븐
께서
부드럽
기상
분쟁
##디움
문단
요약
무라
버스터
기름
##레이크
퇴장
##장비
철저
라틴
진압
용량
BL
자녀
##키스
물고기
건국
탄환
플래시
분신
&#
완결
로얄
##고속도로
작년
##페이스
##카이도
go
입대
전제
덩치
##토르
불펜
그럭
미네
##파크
중력
탐험
관계자
스텔
##저럭
경상남도
공정
만남
선제
원딜
트럼프
조이
리뷰
갑작
분열
스위스
##런트
펼쳐지
##세서
그럭저럭
오디션
배정
중형
웃기
제트
##Hz
모노
이토
안녕
노벨
##TV
미만
카와
##토미
국군
적중
##노리
사이버
##후반
아키라
아동
##사리
학과
평양
나츠
그린
##틀러
클라
벌레
유격
호소
##터미널
##유닛
헝가리
##세대
더이상
##ory
소속팀
깨달
축복
비주얼
##TE
피안타
이와
구름
태국
##ace
단행
손상
##rom
또다른
어빌
##키지
신전
Co
유전자
리타
웨스트
콜로
무관
샌드
인질
도둑
Bl
스트레스
배역
신나
##동자
##텐도
발리
침묵
익스
코르
어필
;&#
휘하
기운
##시즈
나마
대거
##필더
야수
DVD
##정책
Br
감각
트롤
##베리
안전하
급하
워싱턴
교차
토니
어그로
##먼스
발굴
학력
하이퍼
스위치
기동성
트리플
지라
드롭
승자
##야수
##계열
옹호
진학
##키퍼
위안
상식
주자
Or
근거리
##패스
##화점
본진
두르
속이
암시
갈아
영어판
##oth
공격속도
부스터
복제
##ows
두들
##데드
결투
라니
무시무시
크림
장거리
솔직
카를
안나
마디
##셔널
동남
##MP
재단
요인
날카
세부
삼각
미드필더
이펙트
##사거리
간단히
비치
팬텀
##돌이
##우치
##투표
후퇴
##차기
파동
철거
협회
시신
감지
가라
##TS
처지
우에
보스전
밀어
주니어
시카
할인
망가지
##미터
관리자
무작위
치즈
큐브
공산당
요금
차체
동급
기둥
##크리
출격
마블
##워즈
##예술
루비
괜히
##제도
한반도
열매
##IG
##마츠
논문
개발자
##든지
##틀랜드
함수
##단지
항구
CG
바쁘
하우스
무사히
##aw
185
날카롭
발매일
올스타
블라
테일
##코스
##조직
파편
##지수
기재
##공업
최상위
그레
독일군
##라이드
마감
수능
실책
간간
야마토
레지
즉사
연습생
끼우
과도
국정
##ale
SNS
보충
리오
##기어
지칭
부근
마케
PV
##미르
파생
원리
장탄
록맨
논쟁
##ike
##자동차
타쿠
온도
기세
특별히
더군다나
아쉬
약탈
상륙
##즈니
영원히
개별
1945
후자
증상
루이스
유성
Cl
성당
임기
선행
페이스북
인피
For
구미
소요
무인
진주
대치
##나리
자전거
막판
무산
내일
축하
퍼포
피우
RPG
부장
학문
##사우
매번
왜냐
안양
세계대전
흰색
##래시
##OU
여러분
오키
##메가
방송국
Dr
##하루
만주
데이비드
유산
모토
요한
첼시
암살자
서서히
배출
놀이
##종합
##ep
중복
출루
소음
중시
##기록
에그
구슬
##irl
선조
동경
악몽
##자와
##man
임팩트
근대
주류
최적
중국어
신도
##ach
##ile
175
영지
에반
1981
우세
Sc
BB
##부인
수비력
OP
슬프
승인
과장
102
그날
교과
교실
필리핀
스즈
117
조리
신발
##히트
##피해
부착
골키퍼
세번
베이징
코미디
노스
##12
Team
106
만일
##하이
프리미엄
끌려가
이브
미즈
과학자
##VA
수명
##네시아
LA
일당
플래그
##ink
Sk
잠입
며칠
사사
고객
브라운
##타마
의외로
Mo
금액
페널티
복무
악기
GP
감싸
오마
멜로디
권위
가만히
교토
라이플
헬기
지리
챌린지
프로토
코난
천연
DD
##어놓
위원회
싱크
115
권장
##이어
김경
베타
연맹
퍼포먼스
물량
미나미
##법인
구별
청와
닌텐도
카츠
스트리트
원형
고개
질병
공용
소방
ᆯ게
진격
잠들
장인
##모함
##ial
해킹
전망
FM
##페라
##숭이
건네
놀리
##렐라
##ish
가방
언데드
귀국
##클럽
SU
여인
1979
부실
엘리자
가공
냐면
규격
청와대
개신교
좌석
UN
디스크
대조
파란색
##의식
##아트
엔젤
직장
타석
##릴라
만만
최우
응용
선임
오스만
당대
한두
에릭
억지로
김진
시그
억제
법칙
한일
육상
##루미
새누리
합계
뽑아내
프렌
##우라
인권
##ower
안개
취득
신입
학부
가루
치킨
다가가
가죽
통화
왜곡
토리
양상
행방
지팡이
궁금
여자친구
입주
이웃
##라이브
가디언
헤어
##II
##오루
Bla
아이러
##슬라
사립
패널
독재
긴급
시리아
명백
ᄇ시오
일화
제독
회색
김상
방치
콘텐츠
체험
연령
계시
이터
##바야
후임
야간
혼돈
##키리
대단히
마물
기갑
공백
즈음
##GE
캐스터
동계
프리미어
##여행
##우트
모로
##로이드
양식
야구장
출구
##계획
해내
고장
강점
원조
하츠
커스
##공주
##호환
수동
부동
주관
수급
##계약
CH
김기
일람
전무
##조합
변수
고지
경직
we
임금
확산
재회
클릭
모스크
끊임
BS
##IM
부서지
Ne
공수
처참
##!!
우르
감동
Star
##업체
관여
여학생
마우스
##체스터
가요
랜드
평점
발목
싸이
코멘트
나나
오염
시합
부산광역시
##포드
비틀
기후
조상
리라
독점
슬로
비웃
로빈
##저기
돌연
##천군
전라남도
포켓몬스터
PR
기동전사
미국인
##차례
장신
ID
##노선
사법
##베이터
뒤지
호랑이
질투
##어드
타이거즈
조롱
생명체
스파이더
화산
사이코
통틀
##만화
##저리
##번에
Wind
공화
기쁘
##전설
대포
안좋
감상
350
##리포
##카락
깜짝
에디
##슬리
##99
일본판
임의
##소설
과제
내각
공립
교도
손오
엄격
택하
up
##민족
평일
우주선
카운트
데이트
풍부
분당
소송
유언
폭행
출간
청주
개장
피닉스
LP
등번호
함께하
##자료
##라이즈
마스크
서클
##야스
DC
노바
승무원
파멸
나비
War
격차
##배치
분해
fe
And
약물
복원
전남
체감
##사단
신자
어떻게들
남매
서포트
배달
메이플
상한
##세력
카구
머리카락
##구미
도저히
정발
##ass
##나이트
조기
어드벤
테라
뚫리
추방
##티어
손실
토지
##구조
라이온즈
뒤늦
##ms
##me
모험가
성경
자꾸
세라
360
Man
치열
아레나
만지
오로지
에픽
시크
재학
원더
112
투사
바르셀
질리
장미
고소
조용히
배급
특전
극도
##기능
##정치
디바
##전문
마코토
##gh
구성원
나노
중량
따뜻
사용시
이라크
리버풀
조명
##CG
천년
##렉션
다운로드
시인
##진영
프레이
##리스타
뭉치
108
##모델
##하하
All
박물관
유기
아지
인력
집합
그중
AKB
권유
##아프리카
소용
캠프
##tle
스탠드
##pp
디즈니
고블린
##ble
분포
##amp
경북
##업자
묶이
스펠
일요일
##를린
중순
넘버
반감
바르셀로나
##려받
##ft
충청남도
패전
추리
##천사
창고
안쪽
##바지
해산
증폭
지목
단종
려다
##소총
103
상하이
합리
하마
극중
보이스
레스
루머
수월
붙잡히
##데타
비유
트위치
출범
축소
##yle
딜레이
##센스
##70
인방
루피
##ous
폐기
##코프
당사자
학기
기력
어시스트
막아내
조우
##코치
##상황
세금
수직
타츠
##now
##제한
##atch
서머
##후보
##sp
전대
##혁명
##케이션
넘어지
One
##구나
킬러
넘어서
투척
Mar
집권
본토
불행
##orm
기묘
##스티벌
전당
벌리
자비
얻어맞
수색
폭파
New
To
학습
ON
##민주당
여파
직선
승진
##수리
##히토
세팅
##방법
주최
키타
##란히
김용
ex
무승부
##사격
세뇌
패키지
꼬이
장사
##차이
낙선
나루토
대기시간
나요
IN
야쿠
순환
막상
물체
범죄자
##간격
던가
BR
모집
농업
경악
Part
절차
후회
되살
유의
##블리
KR
부딪히
반짝
수석
가난
두렵
배제
Gam
##레인지
채보
살아나
SF
##모어
실현
토요일
비명
국당
유출
까이
하나하나
오이
복선
##ING
광산
당당
함락
수립
잠실
집어넣
극히
헤르
CS
##반기
손자
우호
##비용
엄밀
워커
모듈
좌절
일렉
##트론
포드
리스트
##위원장
토큰
비극
우월
우익
파울
결전
산탄
선사
복합
##장갑
##더라
##ment
##생기
PP
하여
##테스
해병대
명목
블래
실시간
##ae
중동
##관광
무술
인접
제네
##64
수비수
유재
자책
##자체
메이드
128
이동속도
지향
빨간
##트릭
장탄수
배려
나르
한국판
택시
##ase
기호
동아리
하인
지연
레코드
스티븐
##카미
마땅
##ree
피트
조커
중화민국
쳐들
유망
ᆫ다거나
되돌
생전
##아들
안심
분산
닉네임
루크
수염
##토니
달려가
신속
동반
짐작
김해
##버드
히틀러
핑크
철권
불량
엔드
의자
En
##장면
태풍
울프
서울시
제갈량
크레딧
와카
때려
##느리
##게이트
드루
슈퍼로봇
알바
사회주의
양손
캠퍼스
연산
확장팩
1978
기부
네티
1973
각오
상담
##리포니아
주택
JT
웨이브
여섯
날씨
함부로
각지
##미네
히메
암호
역습
바론
##뻐하
기뻐하
합동
어쩌면
184
근원
조카
##az
케인
##bo
돌보
마스
유니크
거론
처분
센스
제치
동해
벤치
##키스탄
그외
##깨비
아가씨
스타디움
저하
보라색
뜬금없이
첫째
AN
오락
유전
공격수
호남
World
##기에
##ason
구장
호불
##사스
중후반
##AY
111
매출
방탄
수습
체중
##놀이
220
이글스
힙합
도시철도
##데레
오브젝트
##iki
초콜
고증
호불호
여럿
명의
트라
캐시
##저우
교단
183
사인
대성
배드
말레이
공업
샷건
ㄴ데
퇴각
거칠
로이
여전
짐승
스캔
JP
트라우
시상식
혈액
사무실
낙하
거든
여의
깊이
유미
온천
난사
##아아
##르드
사키
원시
중상
##스레
여기저기
##ear
So
##실점
##성군
추세
사야
##장군
검술
네티즌
마계
꼬마
##규모
공인
##러브
##hen
카자
흡사
갈색
보드
캘리포니아
빨간색
스나이
240
조르
빠져나가
##운트
##스타일
노란색
하계
동서
##나기
레일
찬성
탐사
막강
##아치
##MS
##생명
조회
명문
sp
평하
##립스
장난감
퍼즐
심의
모니
네임드
##토리아
사이클
박살내
전날
날뛰
시공
##사르
##are
프린세스
노조
케이블
려다가
FW
토우
장례
공감
밀어내
포장
두들기
맥주
차갑
장로
하프
토미
체인지
GO
골렘
썬더
트루
올드
포획
##직자
견해
유혹
이세
소니
베를린
아베
터널
매주
원문
인자
##신문
키보드
강렬
경호
세리
연봉
스미스
##가다
번지
알라
ᄇ니까
타이탄
훈장
##추어
개척
핀란드
드론
1974
구조물
가두
돋보이
스쿨
##헤이
감수
우유
인재
샤이
오메가
뮌헨
스코틀랜드
tv
프랑스어
이모
사로
통로
포스터
당기
물품
일가
베어스
호시
그랑
아이러니
베테
마오
벨트
트라우마
고로
##환경
후반기
http
우측
트레이너
##범죄
##주인공
진상
김준
주행
1972
신용
조선시대
키미
보건
책임지
끌리
##반대
##90
트로피
##ven
비스
성씨
힐러
다지
##ife
시종
완공
리아
흔들
##스토리
전락
통칭
토마
말기
https
##의자
사퇴
위로
결혼식
토대
콘솔
##건설
서바이
튼튼
진급
ᆯ려
원곡
허무
배수
##ade
가담
혜택
왕실
히가시
왕복
코트
학생회
##AP
##맥스
##상자
Wi
트리거
##연구소
체육관
강경
밀려나
##츠카
이순
신데
토크
로맨
중지
##차리
##머신
시카고
이경
##구간
다투
스즈키
##요소
##무부
행정구역
트윈스
대령
##미사
잭슨
스텝
연쇄
중부
##요원
동행
베리
쓸데
##act
##버스터미널
MB
~!
나아지
##레오
##ai
##게이머
##ank
반도
##gin
드로우
##어트
버섯
%/
덴마크
유입
박살나
포스트시즌
바둑
do
시비
압력
고리
센서
##aby
플라이
목사
최저
천천
산타
리즈
아바타
##소수
부작용
국도
코믹
재개
인도네시아
104
한창
##out
수여
단행본
탐정
##캐릭
사악
청나라
##아메
상주
Fate
no
이점
영감
교복
소재지
##도사
손꼽
대시
시바
타일
##선생
렌즈
백업
히든
##산역
##무스
##에른
실내
##퍼드
깎이
넘어오
손쉽
제물
김일
시로
워크래프트
이누
1975
배차간격
민주주의
프로듀스
##보호
##타리
##명사
##테이
대책
##lect
어벤
##그르
트레일러
LIVE
간간히
##미아
도덕
넉백
##저런
123
기수
벨기에
징역
설령
리처
신데렐라
세월호
##페르
쿠데타
탐색
##보우
##총장
침대
끊임없이
##ET
포탄
등극
범용
을수록
입자
폴리
해양
##oll
전동차
약자
실상
NH
페스티벌
끌어들이
##바야시
입문
관통력
일주
##치아
##른바
대타
##UM
Up
##루션
디시
OS
노무
이른바
그레이트
업계
##탐정
장애물
##액션
1976
필요없
여타
##사우루스
마피아
are
재직
알렉스
레온
전향
스타리그
신중
III
##ork
년도
다스리
성실
이런저런
우승자
오우
토키
원주민
여서
소금
이어받
섀도우
최선
노르웨이
창문
그러므로
깃발
클린
알레
##소스
Do
듀오
##ary
##에어
왼손
콤비
장성
커스텀
거북
Oh
공통점
왜냐하면
ㄴ지
부재
##way
침투
우치
##타르
아스카
카더라
피스
신선
홀리
마일
##이치로
이병
일간
캐치
119
끌어올리
##프라
밀도
츠바
따라오
전격
초등
슬라
참모
후일
브라이언
맞붙
탐지
불태우
##조선
##틀리
특급
##ey
관우
##ich
할리
모스크바
이현
해머
동력
사로잡
##께끼
135
스트라이커
딸리
109
베테랑
은지
엔지
시호
올바르
수수께끼
장남
승차
ES
발명
##조각
박정희
주교
##시기
강릉
##대교
Mk
으려는
김수
비전
##장애
아이디어
##생물
##세기
왕비
탄핵
저자
##상시
중화인민공화국
초인
우스
중고
변동
이대
바이올
확신
잔인
##으로
보험
콘스탄
##대기
복사
바이에른
소통
릴리
##요리
스핀
입증
Ad
꿈꾸
사천
계수
##그러
능력자
어나
당초
다큐
단발
페미니
기구
손오공
땅볼
lv
형편
라라
한나라당
대학원
재건
프라임
유연
클라우
도라
##레일리아
코스튬
all
##물리
Day
##체계
규제
드림
패널티
포즈
명분
친절
피로
AFC
##루트
와이번
유망주
구동
##무지
보스턴
전송
광선
고종
점유
중위
##군가
##로프
후미
##아라
##란트
위엄
부유
##올림픽
아비
nd
천천히
우울
##변이
실은
굴욕
##pt
고는
182
##리칸
##대문
어드벤처
##orn
흩어지
오더
초상
폭스
브레
비비
대전차
선수단
슈퍼로봇대전
고무
대접
소대
갑작스럽
쇼핑
모니터
##레옹
##통합
중거리
스피릿
상무
선장
억원
강간
조종사
도트
쇼크
##가포르
레인저
글씨
양반
근접전
##이사
##라가
주일
토요
프로게이머
어색
친분
구상
우루
아스트
##운수
##지오
클론
중심지
충족
케빈
수하
휴가
센트
##시피
##지능
121
삼성전자
취업
오페라
초콜릿
리카
영양
일곱
##나베
1971
싱가포르
마틴
Windows
나폴레옹
홋카이도
##사령관
항해
광물
##링크
토마스
##마사
FF
라그나
달아나
방송사
대동
검토
광장
소련군
머물
스탈
145
##로마
열정
개교
107
##부키
파밍
일관
##렌지
무공
레벨업
유료
하급
검열
패밀리
##토시
="
결제
세로
RA
##모노
광기
우회
독일어
강전
크라이
비서
강림
도쿠
구독
무지막
스마
1977
엑시즈
##ah
##EM
##민주주의
단검
기울이
동전
##연맹
크레이
선박
맹세
##구청
DP
천황
##도라
으라고
쫓겨나
##뉴스
산맥
하이라이트
##바시
##바이트
공헌
발레
잉여
ML
##사장
##노동
씌우
사촌
출산
AA
망명
터트리
연설
키라
엘리베이터
비기
손님
의학
##복지
##very
##론가
##네마
무지막지
모임
표절
##uck
부패
게이머
총합
그후
발판
봉쇄
임진
보좌
타이틀곡
##불가
누군가
흑역사
현금
##떨어지
관료
자제
고집
해병
여포
대왕
황후
겸하
찰스
ne
엔트리
##사용
극대
잊히
국제공항
IT
성배
이대로
본질
##뉴얼
생체
토시
경연
지역구
소모량
김포
할로
br
감탄
##ph
##모습
Sw
지붕
##이나
DPS
포도
##정지
에이지
BPM
농장
도깨비
디펜
JTBC
창립
자존
시뮬
제왕
리틀
대변
210
토하
평행
조국
간섭
전라북도
인게임
178
멍청
떨치
질서
##ero
페어
화해
지인
##인드
##성능
스태프
몸통
프로리그
1969
로리
면하
113
그릇
인칭
".
##플러스
카리스
오스트레일리아
대박
안동
트릭
노무현
무실점
##테이션
##ool
토트
레이블
압축
##마귀
천장
외우
음료
동아
165
리처드
스포일러
##서스
##세포
##왕국
러시
##지점
1968
품질
유격수
1963
##라미
일리
메카닉
맨체스터
##ical
철저히
##오버
스티브
라이언
손꼽히
분대
여러번
힘입
불쌍
바나
중점
민중
주축
역량
NBA
태클
시골
냉정
카카오
김유
혈통
저렇
체코
##urn
꺼리
마그
디자이너
##ype
Ph
##ARD
##클리
인천광역시
##방울
##드래
Con
홀드
안나오
2021
정석
파랗
페르시아
슬픔
바지
##anc
고고
블리자드
아깝
변태
데빌
걸즈
에버
군수
카메
나리
임하
깨끗
다이스
정사
에드워드
##작가
드레
##대왕
수인
매니아
병역
조화
{{{#
##거래
박지
실체
광경
히로시
변이
동정
##은색
155
도장
신동
파티원
타운
입사
존중
운송
제재
Cr
와인
##ung
출혈
닥치
엄연히
위원장
사우스
열혈
날아다니
이라도
명시
호의
의장
김승
물어
OVA
##조작
답답
울트라맨
변장
코토
##태자
국어
하스
예약
앤드
방위
종결
사리
##세트
122
Qu
납득
연간
초능력
마유
모순
서울대학교
조별리그
매드
말씀
##티노
##소나
이오
##아메리카
Station
단원
181
##드컵
개명
주체
##행정
##끼리
시게
TVA
뚜렷
압권
##미나
##히메
훼손
너머
##저항
스택
모형
광명
144
결계
마산
##속기
주사위
초청
미궁
얼티
파도
명명
시사
이단
##위치
엔지니어
수천
스폰서
드레스
오지
보편
LO
애니판
존스
스노우
프로레
질량
##ww
엘리자베스
카지
절친
한가
미미
아인
KOF
주목받
강민
소집
##즈카
촉수
##앨범
해소
강호
금강
플러스
헷갈리
청구
아오이
##iver
제노
오죽
치안
##판정
친척
챔피언스리그
장타
at
메이지
애칭
이원
지분
방심
작정
쓰리
사투
##사무소
셔틀
##철수
토스
투쟁
##DD
##텍스
그립
152
가설
마에
테이블
덤비
화상
박성
어이없
타구
에로
패자
드래곤볼
프로그래
love
프랜
지력
##멘터리
이틀
##주자
##모션
##ens
이동속
과자
##노스케
좌측
스케일
이명박
강사
좌익
퍼스트
일주일
as
민간인
롤드컵
신학
교리
편리
##시스코
##ost
##중심
액체
사연
신하
기하
재앙
향후
##드러지
TR
자칭
트래
테츠
포터
항공모함
블로
직책
턴간
도색
부속
빌딩
마술사
매각
114
미성
멋대로
엄밀히
낭비
검증
용암
유니버스
##ence
##마니아
1930
일컫
스쿼
인스타
wiki
애쉬
아마추어
이케
##트랙
학위
어나더
지혜
과일
##리스크
##운동장
##려워하
스미
IM
##nt
시간대
##산동
마음대로
사명
##극장
녹화
디오
변명
오니
발발
백만
선진
초록색
##리코
사무라이
에도
##과이
##비행
신지
외곽
from
노가다
##ise
습니까
로보
##가요
##젤레스
##int
히카
돌연변이
모델링
우연
옥상
완화
몰살
알아채
나미
1920
브래
작위
정성
둘다
라스트
##상가
##동맹
에미
179
분할
시조
기차
선회
실사
어스
!"
달려들
성분
텍사스
##AK
##하여
석유
죄책
##돌프
잘못하
원피스
씨앗
의정부
통째
##국민
인공지능
Super
오케
거스
국토
아쿠아
##의사
총독
MG
매달리
자아
Fr
1940
BJ
##시민
can
엉망
##oy
고등학생
##엔딩
불참
아자
버스트
집계
##진호
유엔
슈퍼맨
제주도
www
##ign
정반대
CM
플라스
몇번
라우
침몰
적절히
한국시리즈
리스크
기본기
미오
정신력
##르도
##ans
아담
비스트
유튜버
계층
어설
이어서
177
은폐
발탁
아처
카네
휩쓸
##도전
##시스템
중원
##아머
죄책감
피카
##수단
목걸이
최종전
저기
##ug
전생
Dream
들여
이소
##가수
코노
덮치
탄압
다거나
식품
실용
남동생
혼인
스카우트
워프
##스크림
124
추후
상사
##바스
1967
중구
때로
다시금
생김
총장
착륙
##바다
참사
억울
좀더
##인사
이윤
오른손
##물질
127
그해
원숭이
##직원
USB
챔프
감자
##이후
감당
흘러가
아무튼
격려
극한
대구광역시
뛰어들
오노
인벤
지장
플랜
아리아
갱신
##보병
발키리
인성
수위
this
##IR
##캠퍼스
##대신
##질랜드
오렌지
이태
##등급
1200
최순
##공장
아스날
##vel
수감
##워프
##레이트
450
만능
무용
##자원
안무
투기
연전
리퍼
도심
저서
##차별
원전
동성애
빈도
중국인
대위
용이
구형
더빙판
민감
고아
문양
마케팅
내버리
히로시마
욕설
각인
ERA
##ode
폭격기
곤충
신곡
비우
##결과
##uk
##대학원
컴백
##엘라
##VER
분홍
##시고
이세계
바디
##매치
##뱅크
##시청
##고생
유탄
발각
메시
이타
지오
이별
Fl
사직
Pl
오다
산소
천명
##고사
풍기
표적
군요
잔혹
마하
물려받
Ver
##부르
상금
성전
공속
망토
제니
시크릿
녹이
##부리
##베트
CE
내외
진에어
이노
뉴질랜드
관장
왕족
합작
터보
그러면
스컬
자네
정밀
이온
##클린
급격히
##베르크
애완
ᆫ데다
궁극기
가구
블레이
시외
뺏기
전이
진동
리프
소비자
박수
게끔
##모르
EC
메일
특공
마찰
시트
취재
리모
발급
EXP
카리스마
아사히
결의
용자
style
##하우스
##치오
에디션
##사진
젤리
##파티
가이드
서방
대세
유재석
초점
정점
일체
실존
리나
##당초
##ier
얽히
개구리
맞히
도약
경사
면허
부스트
측근
코스프레
##기스
방사능
호러
독립운동
신한
##와라
김구
경부
Sch
##일본
격렬
선포
Girl
Season
두드러지
##카스
오죽하
대차
골프
포탈
명나라
1962
##먹이
##ash
IP
만점
##아스
협조
##우주
##기준
##도서관
유우키
ar
맨유
카테
메이저리그
##도어
잔류
La
농민
요미
후쿠오카
DM
헬멧
청춘
##학부
연소
NO
162
약혼
피지컬
##테크
##스트로
선동
미러
이빨
절벽
황당
tr
서명
##스틴
118
##폭력
##박물관
##와이
연동
궁합
페어리
그루
반성
WC
##군주
수신
이놈
아이디
이사장
##장소
한양
불러오
호드
##reat
1966
##순위
##IX
##노미야
정규시즌
종전
친애
흡혈귀
아유
선로
기질
복지
벙커
아랫
고립
##헤드
기동력
유카
잠기
##ib
혁신
벗기
리온
미정
##왕후
자존심
점심
중견
에메
철도역
한하
314
돌려주
##보기
벌써
오퍼
부작
지선
생김새
기리
그로
유진
##usic
모욕
Max
위쪽
질주
흥분
일조
유아
반역
정조
거세
사방
대피
할로윈
트릴
사수
##구니
##베리아
##밴드
고난
하사
750
모종
##무늬
##렉터
징계
레이디
##백질
춤추
스매
예의
1964
##백과
디스플레이
##당기
미인
국방부
로렌
쉴드
부천
래퍼
##제품
마야
주석
미노
리본
그간
한강
이이
##글링
정문
부러지
한꺼
##금지
월간
Vol
TS
금요일
아포
##그레
수중
이용자
DNA
##국어
가위
리사
망설
문신
침착
##드라마
스파이더맨
다니엘
##세지
토트넘
파운드
능가
집회
교과서
사치
루프
##폴리스
스나이퍼
필름
Ed
화폐
##전력
##캐릭터
기소
각도
##}}
무지개
--
남동
빙결
강대
##ose
ld
##대체
그쪽
서류
천상
서열
교역
카운티
우두
탱킹
김지
건지
##니즘
##바퀴
리코
적시타
AV
자이언트
갈라지
한꺼번에
트윗
두려워하
##다드
부동산
##데미지
노랗
김주
방안
원로
amp
소생
왕가
자율
모터
Col
서적
오만
종로
통솔
##니스트
블럭
##te
so
기껏
현자
GM
경성
중소
네크로
여자아이
서기
HE
홈경기
도감
진단
##해자
샤오
여태
극심
선원
##우지
욕망
츠키
##ail
##msys
##플러
부끄럽
영국군
##ition
ldmsys
##발전
##닐라
불길
내셔널
섬기
팔레
사물
모음
테마곡
함장
유고
애인
구로
출판사
학급
평등
환생
다녀
rd
서울대
탈환
숙소
##안전
##시내
Night
##현상
태생
충청북도
##칼리
바텀
판사
##공개
BC
혼합
##들목
초과
워리어
상냥
스탈린
키요
학년도
직위
not
특수능력
##기념
필사
알렉산드
##오피스
재즈
계절
줄기
고인
말레이시아
제의
##IL
##자카
달려오
협동
김광
학대
##타니
소나
지루
공대
프론
앨런
아마존
중간중간
항공사
메트로
암컷
##ild
이니
유니콘
뻔하
168
하여금
정그르
한정판
강인
##베르트
##파일
Let
유메
탈취
##제스
청하
##정당
살인사건
저글링
등재
과시
소소
페르소나
##사령부
인텔
유틸
안쓰
월호
보강
스텟
급행
병행
시범
##ody
프로야구
돌려
유동
##바루
남양
##프란
관직
Black
팔라
간판
##수준
법인
##아니
159
오토바이
각국
요격
입원
시온
일환
##수라
존슨
희생자
##가족
퇴치
지지율
이행
도서
스네
박쥐
BD
##해군
라마
요코하마
##리건
대검
케이크
전지
##본인
보고서
재배
##항목
라인하르트
리버스
만렙
문화재
도배
##등록
이념
소서
윤리
연고
맛보
##총리
브론
이승만
로키
라틴어
##베이스
출동
마도카
어원
노부나가
승패
빅토리아
##바리
매그
부친
1948
디아블로
mar
##ough
아무렇
종영
##각형
야당
원판
중재
집필
##기병
동구
이천
AF
욕심
##볼트
MM
챔스
포션
1944
신작
1965
##수수
아카네
OG
##33
두껍
히드라
삼키
ᆯ래
##파리
교도소
로스앤
##카라
인쇄
카피
검정
##통수
대니
퍼펙트
전담
포착
##지도
##재료
엉덩이
##ㅋㅋ
RE
카일
협정
배구
무능
연이
##메스
와이번스
눈앞
프랑크
로스앤젤레스
##보라
밀리언
4000
도대체
아메리칸
섭취
미소녀
애용
Op
부채
##실장
##이센
신생
다케
##gr
##결정
##플렉스
성사
리바
세자
피자
피난
진술
본능
성벽
레이싱
멸종
객관
포크
##aster
ㅔ요
##데르
외야수
지크
아니하
내밀
점검
아슬
##app
스텔스
평상시
##orts
사이토
이계
##퍼니
게르
빌보드
목욕
그리핀
쿄코
해운
바닷
그란
프롤
해전
주저
그림체
괴인
유스
##지기
##uc
##은이
인피니티
목포
소득
사용가능
국무
테니스
헤라
조립
1946
##회담
##연대
계곡
물자
화석
동북
걸어가
##서비스
세르비아
레버
학사
화신
PK
##작업
성명
페리
##예선
흑막
성지
헬리
대학생
열대
난민
##삼거리
원한
부시
수성
##CE
박자
##소문
울음
대승
최상급
독백
##형제
##ject
달콤
en
##어택
드워프
타로
그리스도
역명
##OO
강동
EXT
제발
부제
폭로
##애나
##개혁
..?
스타워즈
##확률
김대중
##ari
##뮤직
math
##긋나
컨디션
약체
나이프
##래스
평택
##시다
레나
믿음
무신
블라디
민폐
단백질
##플레
##행성
##스티스
le
AL
테란
장판
CR
과금
금발
순간이동
아쉬움
아울
다큐멘터리
메디
편의점
##마당
휴대폰
EZ
확립
스타트
아르바이트
두려움
하이드
바쿠
펌프
꺼지
수컷
알렉산더
모빌
점멸
필라
와타나베
전임
##iel
떠돌
궁전
라이너
마인드
사임
유머
##공단
##미트
가오
적이
테오
한신
적자
151
##국장
분배
##장고
로스트
아리스
남학생
개막전
##형태
138
권하
뭐하
Gu
출석
장본인
프랭크
으려면
평판
SA
##인원
두루
던지라
스카웃
숙청
##부족
한대
격퇴
##무네
타치
조회수
남한
##주군
320
172
회복량
직행
고사
모나
##교수
동아시아
##타스
GSL
가해자
가마
에코
ㅂ니다
이쿠
히라
마쓰
##어인
코끼리
신념
득표율
눈동자
년전
막부
무도
철갑
순천
##TA
##테스트
##성이
우즈
퀴즈
배후
주입
개업
마라
자사
ATK
가령
##ats
단자
해변
##ye
살아오
호크
고의
메이커
단서
무한도전
축구선수
아폴
점하
##로소
타카하시
EU
##eah
안토니
샘플
김치
천국
##회관
315
시련
혼혈
##스피
1961
빡치
고가
대면
평론가
##따르
둥글
##슈트
GD
티저
최순실
대안
어벤져
##문서
TOP
Mag
158
동상
기인
##순환
내정
##그라운드
주머니
추모
엘레
카시
얼티밋
##무대
강서
그리하여
CL
##라이나
##스테이션
##미즈
##모니
탁월
란스
정답
큐어
마타
찔리
얼리
항성
으리
강아지
변호
배리
방언
AB
영화제
NT
섬멸
경찰서
치고
관광객
ver
##박사
오비
건너가
오공
응답
##재단
사나
##모양
UC
엠블
##oh
##eth
악행
호리
투고
다녀오
비단
하지
어기
##ron
샤를
하느
##상승
##재기
퓨전
둥지
##회복
박스오피스
관계없이
##카타
찬양
여수
충고
사가
소꿉
중도
##ings
짜증나
파고
공명
리믹스
이순신
우승팀
경전
##홈런
노릇
공학
조항
베이비
독보
시아
스쿼드
데미
쿠바
##고래
뒤쪽
공산주의
광복
루마니아
##빨리
도리
##강화
자작
##시키
176
총선거
마을버스
##리오스
천지
결과물
그랑프리
단역
데몬
##정식
병살
카사
##풀이
will
다저스
섬광
김일성
저승
Is
ME
감성
##무이
성대
바이킹
믹스
흉내
솔저
김병
##inal
유치원
로비
유즈
용산
##==
126
상대팀
폴아웃
1949
지면
십자군
유마
예고편
##주로
Am
반경
완벽히
사관
##과대학
##활약
김윤
과격
##내리
고이
후면
10000
응급
하느님
김씨
Don
우두머리
도요
조수
균열
전두
학술
##순양함
##ult
국장
계략
미녀
##네트
소마
비리
친일
##스타인
김성근
고속도로
무녀
일각
상시
154
봉사
like
수확
LE
##부문
거꾸
이광
접수
공국
##부지
WH
흉악
후유
도마
트랩
##티지
몸매
##박이
{{{-
KB
간파
깃털
연수
Time
생태
무늬
132
충남
건립
끌어내
##MAN
물약
보루
##덕션
이나마
사슬
##자책
주황
##일기
이래저
사망자
삽질
##행동
관문
카레
표하
고발
빗나가
안젤
신조
아테나
new
절단
브레이커
군부
오세
세컨
강타
##서쪽
표기법
##시안
타키
##포머
##13
컬렉션
서바이벌
쫓기
##과제
크로아
이용객
응시
반기
스윙
지수
은메달
이리저리
이래저래
218
라이트닝
손목
역시나
Mi
주식회사
감금
완성도
##GA
##교차
풀려나
##레븐
지상역
##ov
##oul
좌파
급식
로열
시어
##하임
어찌되
안보
##18
호응
##니버스
보복
지로
브레이브
두뇌
이영호
거듭하
짝사랑
어느새
서리
양심
##ob
당나라
##처럼
코로나
스터
야망
##슬림
사와
성직자
신임
##리드
거지
과언
##ould
후쿠시마
##리언
동메달
마르크
156
드루이드
##방지
유능
..!
iOS
승려
안드레
##조정
##라이언스
통행
마족
순양함
##시드
##셉트
통틀어
Ser
##루기
불상
one
164
벡터
##alk
예방
나들목
정우
##결승
핑계
천문
피오
##tern
레시피
승급
슬라이드
장신구
##yn
##인형
139
나란히
어제
렀다
분자
쿠라
유카리
##15
블랙홀
##교도
후반전
열세
##투아
리볼
원주
##레아
몰려오
##미사일
##up
선봉
153
주술
Gaming
자력
##마드
##돼지
충격파
성숙
##reak
맷집
오키나
실적
##엔진
김두
##티넘
거꾸로
놔두
인채
##der
하츠네
불화
##able
GK
크롬
어드밴
##영웅
나열
교향
근로
고통받
하나님
사이타마
고시
엉뚱
마당
츠쿠
능하
이그
ᆫ듯
프로이센
신상
전염
무슬림
초등학생
합법
컴뱃
사일
##니코
지각
148
미세
필두
##무게
ᆫ가요
면제
벨라
김선
마스코
유해
Car
최하
##ions
맞먹
##동기
##널드
##테오
##민주주의인민공화국
가히
커플링
차분
저격수
석사
제조사
상의
##자재
연달
##공연
하드웨어
창당
Your
초반부
스톡
버드
##카페
재질
167
203
천체
셋째
콜롬
##출연
맞대
몰아넣
코디
풍경
##생산
어긋나
쫓아내
##프란시스코
취지
조선민주주의인민공화국
년동안
##사상
SSR
크로아티아
우미
통보
벌금
##PA
공격시
##요미
메리트
1958
조던
여주인공
##메이트
##득점
상원
데뷔전
제너
1941
대등
지배자
레슬링
운반
한층
##운전
174
동등
##니혼
난리
칼라
포텐
자산
타르
##ull
숙련도
##노프
황혼
##횟수
생각나
주파
영화배우
평창
테크닉
주유
##버거
세키
##러그
se
천주교
시간동안
전학
섹시
##단계
Min
동년
코파
최우수
##랄드
브라우
심정
루리
샌프란시스코
앞세우
##비시
시끄럽
이진
RO
142
도미
##목록
사령부
어빌리티
병과
태조
세례
뱅가드
휴스턴
기법
LTE
극초
##보험
냉장고
행진
토론토
문법
##퀘어
도모
아수라
##다스
헤드샷
딜량
키르
##플라이
달인
스케줄
빈약
163
과감
투사체
쳐들어오
타이어
사야카
시네마
##차원
떨구
깨우
스페인어
창작물
타당
맹활약
집사
내면
모의
봉하
가라앉
절정
##ube
##ECT
야마모토
혼동
##로로
##서버
1954
제자리
무선
BGA
염두
상속
연고지
일련
ㄴ가
간지
##멤버
디비전
##제르
##ll
마스코트
have
월요일
pr
능숙
무색
상부
마미
연구원
out
##립트
이만
만년
로맨스
들르
졸업식
매트
지지자
굳히
고우
부가
##스트림
##미츠
##ICE
마수
윈드
전례
이오리
##전트
국기
범하
패왕
NM
메모
지성
밀어붙이
공로
유신
정서
앞면
레인보우
아아
비자
오즈
143
쥬얼
137
##유리
공교
혼다
고스
방침
마지
스칼
쟁이
##문자
##정권
노골
찰나
스탭
초상화
포병
##너뜨리
해고
무너뜨리
만장
약칭
##파워
워터
루스
하나같이
사탕
구제
라비
꼴찌
영등
##에트
리부
매기
##배차
313
영문명
대역
이인
부처
공짜
환호
##케이
일베
##보그
대외
따내
한달
Sum
쳐다보
솔직히
무죄
캡슐
혹평
다지만
단련
스콜
배율
망설이
스피어
렉스
사소
##메이커
능력치
장례식
인체
오로치
득표수
접전
소꿉친구
##유저
국민당
풍선
노라
하도
강수
년식
테리
HS
카렌
##거스
운동장
박종
##아르
ALL
##더슨
내뱉
우드
레이지
무궁
CN
IV
운수사
음향
주술사
##콥터
1943
##악기
230
아테네
본편
##부시
재수
##고스
전반기
박탈
고래
리볼버
##쿠리
북동
평균자책
외국어
알아차리
설마
광주광역시
맥락
인과
##미디어
고질
이션
반란군
크라운
157
침해
잘생기
확고
133
궁수
##FL
##드래곤
인스타그램
##여부
빙의
##관련
황실
오리온
갈구
설탕
연막
몰아내
플레이버
부스
슬슬
외관
un
모에
재벌
호날
146
상어
수아
129
해역
극악
갈기
칠레
##단총
000000
센트럴
1942
맹독
진하
지요
##반신
##STER
##문화재
갤러
##수아
종말
##돌파
173
프레스
거스르
광범위
BO
별칭
의의
전법
##타우
시모
얼라이언스
##세자
##통일
음력
스트리머
시뮬레이션
##더링
스타즈
카오루
죄수
오딘
염색
레이븐
후대
격하
대목
미남
사무소
제인
플라스틱
펑크
##제작
제대
제프
기관포
가나
진로
##동원
클리셰
번식
히사
가로막
극우
margin
know
발현
테일즈
##왜란
##카즈
보직
아그
유타
원화
운수사명
##MAX
공손
set
제지
지극
볼드
##DX
공동체
구독자
개판
##하트
프로덕션
명사
나카무라
##티콘
몸무게
##워커
사내
노비
이준
미호
해태
OF
원자력
##이름
시초
바나나
박명
##에몽
기쁨
화기
힌트
136
Play
##집단
호날두
야만
구호
폐허
BT
멘붕
기관단총
숭배
끝장
##무실
##ica
CB
양국
##che
태권
번갈
비참
Of
끓이
##ock
출제
ᆯ까요
난투
##권자
As
la
년차
잔해
##사태
##YP
빈번
중반부
Red
라크
남미
Type
인명
오바
지사
BM
오른팔
강탈
일러스트레이터
##14
##점수
##벨트
이방
스파크
생애
중급
애쓰
##프레스
##호쿠
강습
히카루
공모
라구
정전
##쿠로
키노
미도리
##개인
149
원년
달래
루터
마카
무단
테러리
발하
전속
탄막
페미니즘
청룡
꾸리
저조
텔레포트
박해
표창
대법원
##플로
정준
랜서
한손
델타
시오
리뉴얼
운영체제
BA
공습
##케인
##ict
시흥
프레데
넓히
대패
테레
##테츠
##17
기술력
134
군복
연안
신관
##이팅
손잡이
하후
카테고리
##받침
1900
차대전
1956
##리학
크리스티
오케스트라
금고
오키나와
발톱
##중국
##지않
맞물리
모든것
라이센스
TP
불쾌
럭키
때려잡
수영복
껍질
노말
얼터
노아
수라
##파괴
DI
##ster
ᆫ단
처녀
마모
거느리
##ange
##ater
EV
##차이즈
먼지
십자가
산탄총
취급받
타고
한발
바티
비꼬
이스트
상위호환
진짜로
##글라스
브랜
##정리
##빌딩
##함대
앵커
우크라
하비
방화
스기
해상도
High
##운영
호출
잠그
##세서리
##ons
리셋
이데
##입구
제사
크로우
가혹
프로레슬링
까마귀
루키
전수
pro
브루스
레오나
스마일
조력
역대급
##박히
##처스
로제
공격기
제이슨
친정
##소송
서치
##연구원
장벽
미끼
##참모
러쉬
직무
프로스트
feat
여장
TE
인터페이스
아이폰
이호
삼촌
하치
플래티넘
이때문
##사와
NEW
성기사
심히
플레임
그랜
##메르
한가지
추출
태종
김천
수시로
원망
아다
일삼
##서부
##싸이
##ple
가브리
##메인
테이프
망상
전두환
나락
##레스트
저항력
오디오
아래쪽
수령
어찌보
임진왜란
%.
영등포
보르
박영
##리에
미식
로그인
너클
어느날
파괴력
트렌
147
책상
천공
##더기
안철수
비로소
지난
포맷
Light
우기
스바루
오역
위시
감기
김도
트레이닝
앞뒤
##러블
경질
##브리드
이력
채찍
AE
##린스
##화학
문헌
외면
280
##브레
길가
수소
원내
당국
##국제공항
퇴역
덩어리
세일러
파랑
2500
##경기장
이즈미
MO
팬티
GHz
##실험
##곡동
레스토
Gen
##타워
상대식
나뭇
222
뮤지션
퍼시
##to
CO
무수
의아
폐선
배우자
증기
배신자
다짐
##넘기
##일스
##두리
지미
사당
입국
~"
더구나
연말
워너
초래
미르
순정
1939
범주
드리블
편견
남아
메구미
불리우
최정
해독
증인
발전소
심야
##CC
was
보잉
What
하지메
굴러
찰리
김연
미쓰
사료
유선
사천왕
법안
요미우리
따라잡
자회사
제우스
감행
양대
##주택
##니스탄
신세계
주고
##에로
저스티스
Kor
166
라든가
음색
두명
##유지
목재
##안군
1959
수상자
##ics
1936
불가리아
페이크
오프라인
순찰
데스티
특수부대
연기력
도우
##카제
차림
개그맨
##특별자치
청원
멀리서
물어보
깃들
##로지
##플라
##용차
##ACK
공자
Heart
흑마법
##인구
Tw
크리스토
로라
단기
##대부
심화
##les
프로그래밍
무자
치카
도쿠가와
LOVE
경지
반론
북구
정교회
oh
입시
1955
GPU
수지
일산
영남
##ex
용의자
한성
##파이트
거르
##BM
##어붙
만루
전광
케리건
##칸센
직통
트랜스포머
퍼붓
NHK
테일러
AG
어벤져스
레스토랑
배속
어레인지
재임
##사전
타우
냉기
팩션
그리드
##바위
브레스
투성이
명탐정
##조치
야전
퍼센트
개미
##빠르
바이크
Mr
치바
사육
숙주
격리
착지
어린아이
슬라임
Blo
롤링
마르코
페르난
미숙
둘러싸이
메세지
종사
PL
##당시
준공
일어
체격
##기획
타이완
여단
카리
강세
탈당
##lass
프랜차이즈
겨루
한복
패스트
미스터리
##레타
##행사
고음
무명
파스
뒷면
##메다
무식
##16
##도스
##아슬
##프라이즈
주되
틀어
##니트
FPS
협의
보살
아이스크림
MK
##연방
방벽
##해방
세컨드
##AND
번타자
##귤러
콘셉트
TO
정신나가
교대
##터널
##제이
아랑
유대인
회담
##자동
아슬아슬
쇼트
전열
Par
소령
하이브리드
남자친구
쫓아가
##nder
이과
현직
생선
교통사고
##볼루션
미아
1952
##실력
미모
진리
time
운항
직격
엘더
##드리히
버블
항모
이동력
주차장
##기인
복도
##리다
##누르
인구수
전반전
정교
##고시
뇌물
되살리
술집
준결승
ll
스콧
330
##문트
최대치
##사냥
내뿜
반군
하반기
동사
지표
찌질
##성장
270
신칸센
한해
##포츠
##ors
스트리밍
Fe
쿠니
카즈야
얼어붙
표식
##패드
통증
##ME
모양새
가르침
야마다
접어들
애국
파손
##건물
안습하
##메일
##규어
LED
자질
사나이
회계
닫히
시집
몹시
경선
광대
둘이
입양
카토
##무진
스테이
허브
쿠마
진형
휴게
##청장
심상
더욱이
서민
##미션
교정
마기
미들
1947
GTA
멋있
파격
두근
아카이
##퍼트
#!
바그
죠죠
##모자
##체육관
자부
방공
덕후
파문
225
##에스
현존
##무사
Good
응하
오타쿠
적재
특훈
##캐스트
##코인
윈터
소리치
##펀치
##리어스
함성
골치
갯수
넉넉
후루
말년
골목
부당
신주
이드
테러리스트
##대륙
##플리
양측
파키스탄
##일라
재빨리
리가
달라
##산물
우산
##두사
Per
백화점
헐크
제단
평안
위키백과
공존
자각
##황후
갈라
서두르
저희
공격받
##려보
##개조
리자
마마
비키
##투르
쓰러트리
다중
우물
##포로
에메랄드
##노이
제리
다이노스
박상
기행
카를로스
##노카
사랑받
핸드폰
냉동
자칫
카이저
프리드리히
##리히
무비
##메어
##렉트
책략
서해
월등
애틀
##프스
발간
카탈
하행
여배우
SL
프랑스군
짤리
am
사지
##니치
##HT
스치
담임
정형
나인
##장관
소설가
##주리
로테이션
털어놓
##파라
##카시
상쇄
##통제
소규모
적색
260
장원
수도원
##eep
급히
발렌타인
악곡
1800
##강점
메우
MSL
##찌르
##클릭
##캠프
미하
히나타
##군단
##백화점
후드
레이어
꼼수
군림
라이즈
웨인
1919
츠카
##캐슬
저거
##충전
##저드
##로이
복용
호투
엄폐
워크
단식
분쇄
##네이션
장편
##바키아
IIDX
몰아붙이
잡몹
서태
중학생
하하
아타
자켓
하와이
##나스
여캐
##ott
##자이
##현우
##진화
Kn
ab
두목
차용
몇년
필립
실력자
0900
Li
일례
ㅓㅆ었
미유키
차이나
##니발
동조
쳐내
##사정
EBS
군데
눈빛
초중
꿰뚫
벚꽃
지부
카이사르
wid
채취
헤일
되게
직속
대행
Wii
유지비
휴먼
##장난
심연
두가지
레슨
이례
##리가
프로토타입
전국동
앤디
원장
##앙스
보디
추궁
##일으키
간호사
화약
로저
시가지
인문
This
에필
ㅏ야
훈훈
리플렉
모던
프롤로그
어빌리
양보
길거리
스크롤
징크스
즉각
더라면
본가
##IV
산악
유방
컴퍼니
Baby
라던가
안성
##25
중성
##킨스
도어
##IK
화소
타고나
공천
##푸르
재활
##단위
유니온
쐐기
그라운드
##anna
미끄
출고
ㄴ다면
냉각
단선
김원
유벤
펭귄
스모
병종
기함
머릿
스틱
츤데레
소노
HARD
Sm
실정
사투리
요르
증발
아르메
##부사
ONE
불평
섹스
히데요시
더미
비즈
결정전
ᆯ려고
방울
부류
산화
배리어
1953
리터
##이야
##폭풍
비아
유코
스파이크
##등장
바닐라
무고
웨폰
지문
##화면
##사실
##델피아
교훈
에필로그
근력
베기
상행
적립
##용사
빈틈
탄탄
GN
유승
1938
##웨이트
##other
필라델피아
##강점기
복음
리부트
Rock
이화
##럭스
유라
원작자
단말
169
us
##채널
##19
운석
구절
발라드
차일드
##토리얼
프로세서
관절
선형
오클
격침
##정신
다이스케
소매
줄어드
그런것
거품
교내
배열
방어막
프랭
550
부흥
범행
야외
고산
홈즈
인디언
호세
동이
면접
릴리스
정계
허위
리바운드
첫날
width
##쿠니
랜스
일품
치마
신흥
에레
참으로
##icro
Live
박용
##살인
양호
에바
상호작용
##방위
태극
멜론
받치
밀어주
헬리콥터
클러
악령
파이트
피드
러닝
##전공
Ac
밀레
축적
왕관
요우
런처
노트북
나고
죄송
온몸
##따위
뉘앙스
##ins
후안
##시계
템포
##심장
##그대로
실천
육지
이카
저러
##oss
성균
오락실
패닉
##ru
##가이
DB
본의
##자유
물리학
대중교통
영동
우파
고든
희대
니아
##던트
유배
토비
##차지
구마
말미
책정
카게
시가
수평
불문
좁히
술탄
##회견
멀티플레이
일일이
연금술사
연세
가이아
물가
cc
실로
키드
황태자
장안
수용소
발칸
##부상
화내
자루
트러블
##하드
##시지방
밀치
주거
OK
필터
##gain
##미치
##정원
##ction
Blue
쇠퇴
Dark
##EL
호구
잊어버리
1957
##시지방선거
브라더스
정체불명
블러
가창
일제강점기
KTX
제보
##현진
##프터
경쟁자
페이커
갈아타
윌슨
영화관
난무
살피
부여받
##0000
은혜
그레이드
원활
""
직결
##분야
남작
다기
방호
속박
클레이
의석
##가치
뚜껑
할리우드
우루과이
장풍
사탄
Champ
방송인
로컬
석방
도라에몽
으리라
##na
##지리
진정하
RC
유니버
미라이
박재
상공
르네
중기
Im
동호
에일리
Sun
탄소
##ood
도시락
##agon
원흉
##어쓰
##UT
파이프
전국동시지방선거
성수
북극
포니
요하
++
장제스
저술
OCG
우천
켄지
진수
##아주
Can
주무기
이질
가축
빠뜨리
쫓아오
Bat
깨알
탯이
시부
유비트
MHz
back
모친
열악
옥타
호박
슬퍼
누명
##ky
##이자
화염방
독서
동지
DR
공신
자발
실루
용감
무사시
질풍
205
플레이스테이션
신병
넘사
쓸데없이
버릇
기술자
수다
팀명
부원
카마
파벌
특이사항
김명
이창
요시다
권능
##판매
어워드
채집
멘트
바이올린
강팀
좌표
브론즈
##크리트
na
아까
미니언
주고받
라파
미성년
연루
음주
##휴일
##자치단체
Summer
달라붙
RP
반장
클라우드
본성
진도
흠좀
우편
구타
튜토리얼
##스틱
##ty
불러일으키
교육과정
찢어지
하부
한국군
##irst
분홍색
게시물
무제한
이속
성비
제작비
식스
장동
편안
정재
포식
##DS
반짝이
야심
넘사벽
발차기
첩보
한탄
##내용
올림
니코니코
거니
슈가
카우
한미
##ady
타카시
##래쉬
##슬로
진행자
게릴라
소실
##구단
##land
Korea
바바
헌신
##때로
##연기
농사
천마
공약
흠좀무
안그러
마트
##베르토
Music
사족
##석민
기괴
엿보
말아먹
매달
양키스
돌아보
밀집
충북
회로
빅토르
아르카
유로파
모범
요리사
ᆯ라
사안
프린스
슬라이
시구
유유
##공신
아울러
줄리
글리
자처
라나
자손
부관
##부장관
BEMAN
왕좌
레이첼
##징어
저것
리키
1914
베일
바오
어미
줄줄
##라이어
반환
대전광역시
유나
##르기
호르
하워드
개칭
##인식
동족
기자회견
결함
아루
선우
BEMANI
금색
유정
##라크
##블릿
제구
빼내
웹사이트
요시노
##브로
##OID
##동네
넥서스
늦추
평균자책점
Fire
##예프
시외버스
##나드
반대편
파워업
나레이션
설상가
해운대
악의
설상가상
소비에트
##뿌리
레바
시시
##테나
유벤투스
후예
블래스터
OB
카타르
덜하
홀딩
now
신수
남발
민정
가의
타나카
안산
일레븐
필연
히카리
표본
유난
##커녕
650
##니르
##지아
에스파
스파르타
반항
대군
합하
이복
지름
대진
말그대로
##듈럼
데스티니
교양
전전
친목
킹덤
함재기
##츠나
오시
211
엘리스
연하
나사
##주공
총격
환수
아이리스
##테라
만회
카디
##자루
##히사
##저것
펜듈럼
롤러
슬퍼하
간호
##콤보
호기심
유영
##ium
프로모션
법학
##다카
윌리엄스
휩싸이
##차트
로스터
버터
여권
센티
잠재력
목동
##폭행
미로
##진흥
사모
##리아스
나폴리
##빠지
싱어
루이지
회귀
GG
야마구치
리리
후타
아이유
Life
보트
CA
걸음
동래
##기리
불신
힘쓰
##비어
##준표
스토커
3164
기피
대마
회고
##줌마
##ush
첨단
경제학
특이점
진나라
농락
대국
뒤통수
일렉트로
서독
원천
##기야
STR
저주받
입법
주파수
춘천
장갑차
여관
##자르
조준경
대표작
##블레이드
베지
주심
Ma
##순간
ᆯ지라도
조직원
##ount
콜롬비아
후궁
피에르
플로리다
만행
중년
어설프
파산
형편없
##파르
창시
가성
But
박찬
1951
리우
봉기
생산량
디스하
목적지
까닭
베네치아
강행
쪼개
Just
동요
별점
204
##수정
여정
당주
아이작
선곡
##산화
##수원
##못하
동로마
백신
서초
수식
스크립트
이도
똑똑
##불능
태자
성균관
농촌
진행중
귀하
체형
개개인
염려
진구
일본식
선제골
깡패
적성
DX
##CH
오마주
혜성
지극히
사로잡히
옵티
발광
북방
박명수
특허
##의학
Ste
자니
복면
장학
자본주의
올스타전
day
말소
박경
총괄
##레어
Sy
##ger
귀중
레이너
해적단
냉전
독수리
감전
##청년
로저스
세레
이것저것
캔디
베이스볼
인어
##퍼런스
생물학
FFF
대대로
정립
하스스톤
pt
열등
한숨
대각
지상파
진군
##스퍼
Dance
새우
디렉터
쓸어버리
감히
나이트메어
선방
이반
피카츄
##스크롤
FB
험하
준하
Gold
끼어들
전자기
수수료
산책
현상금
개연
##초교
CON
중추
##퀘스트
송출
행방불명
##마침
분장
가급
기온
네놈
마운드
##베기
Grand
청산
남극
츠바사
하우
주황색
사슴
이은
##아래
실루엣
Pre
젤다
암울
Ev
1600
구단주
미즈키
명곡
입체
VOC
달걀
설화
##ne
##ally
##비트
히스
HK
전세
##ution
##그라드
증가량
계란
힐링
계열사
핸들
천원
LCK
차후
마신
대쉬
##지휘
경감
##십자
따라다니
난감
마요
##양군
경과
망원
커트
##pr
##경찰서
일진
홍성
괴상
괴력
고조
밀란
심사위원
스킵
메이플스토리
가브리엘
광전사
도전과제
스윕
인트
이적료
이용해
##하우
세세
슬레이
get
사르
아델
내걸
사범
##언스
심문
##체인
박진
##후군
##가타
##얼거리
고분
월급
주가
자격증
TW
우마
카밀
Over
논하
마초
선고받
##천동
##치료
파우
##체국
도검
석상
스이
대사관
로이드
신정
노블
기타리스트
이노우
하리
##패턴
1937
습관
##니클
교시
마주하
##ator
아프가
ARM
에우
체스
애드
때마침
소피아
사역
소우
목요일
##식품
일어서
카이토
하시
beat
외롭
홍진호
오리진
부호
수녀
정의당
광속
네코
편찬
꽂히
아틀레
해치우
오쿠
동탁
시타
조원
폭동
UF
##조약
##로즈
손톱
출근
내수
고토
진성
##신기
##취소
DJMAX
페루
##air
수강
Sec
카르마
예지
총재
접점
음악가
개인전
##로크
석탄
총열
##걸음
공익
tvN
화나
시중
어리석
은밀
차선
##미코
일절
임원
북한군
속력
완구
리쿠
마차
처절
출연진
기성
유무
프리미어리그
차관
아홉
남아프리카
러셀
출중
열기
우타
열람
교섭
더비
그런거
예언자
고요
추기
피고
주한
BBC
뒤덮
그려
##유산
출루율
Out
세나
지중
##공격력
김형
부사관
뽐내
느니
입힙
코바야시
##페어
우지
수락
최영
코마
실업
히토
맨손
선구
포효
금호
헤매
##inc
리츠
치트
##서린
슬로우
우습
##대군
간략
라임
##매매
비타
이변
구두
딱딱
##마시
투하
##꿈치
등교
수복
커비
##작품
안면
고령
##헬름
##재판소
단속
##격포
##함수
수량
신축
##아서
검은색
모닝
아프가니스탄
El
금화
노엘
Dis
but
Win
파장
##더스트
프리즘
기복
##라비아
유난히
호프
##거장
바비
VOCAL
보우
아드
클라이
수요일
아줌마
##...
군함
창업
무스
스냅
점거
천계
키즈
한스
저렇게
야기
새누리당
사이보그
라이드
스켈
##ART
항아리
하원
UI
시몬
##셔츠
백색
제다이
용맹
##렉스
사스케
##전함
##라트
자신감
##use
세션
외래
스텔라
이정도
폭딜
##이프
sc
##밀리아
##삭스
6000
향기
##장이
스와
##파니
성도
Mon
김두한
빅뱅
##나가와
끝날
제휴
보구
이형
호전
수험
퇴출
##담당
HG
##서리
워낙에
노려보
ᆫ다던가
아부
자진
오래전
##ring
##병력
배송
조영
픽업
따돌리
##XT
카인
##여지
man
~~
천둥
##LS
전년
이야말로
Af
딸기
##티오
퍼부
접근성
실명
평원
전도
평민
곡선
미지
토오
하의
예명
완수
후딜
Power
##매니아
차남
컨트롤러
안가
슈퍼아머
루팡
정동
##경영
변질
스릴
탐구
만료
##ina
몇개
Res
때때로
동문
매수
부과
##하늘
##역학
스토어
해임
##소프트
장기간
중견수
극초반
고추
경희
##설정
헤어스타일
380
위나라
내야수
달빛
##나르
퀄컴
At
판권
못지않
정벌
##금융
질환
호무
경매
어쌔
##내기
듀크
영리
OPS
연회
}}}
전리
단정
허공
신원
무상
학점
256
속공
태블릿
사출
켈리
혈액형
대인배
SCP
NG
런닝
분화
성형
연발
러너
북미판
방과
##모사
안치
노래방
ᆫ들
킬로
대공포
명대사
Fem
여당
아카리
##상대
스캔들
물들
회오리
이성계
스피커
마누
이동하
적발
##릿지
섬세
##타케
##퇴근
머스
극딜
##캐리
부평
##광장
토마토
##탱크
캐서린
혹사
일보
세조
치이
콘크리트
동참
##ittle
##신경
기합
##이터스
원고
회심
sm
가와
조제
인종차별
직역
##변경
단숨
스커
입성
##르바
김영삼
##수치
##데기
Fi
MR
투기장
매진
파수
김택
##로트
이에
MX
하드코어
동갑
문어
##보도
어쌔신
각기
베니
영조
고베
자취
플레이어블
##회전
##클레스
허구
교향곡
가급적
##기시
한도
Sing
##터지
##좌석
1910
FL
행정부
존속
고안
리베
##셀러
매너
단숨에
아이언맨
##ERO
설계도
SG
케이지
##de
카지노
스네이크
망령
스팅
##피드
경찰관
##be
##출력
gr
##교자
통용
지주
넥슨
##ello
건재
##식물
젊은이
애교
##토크
볼륨
타치바나
근성
러시아어
대본
할당
MT
부추
어우
아르메니아
부리그
승천
##reen
SV
패트
가솔
악하
##비우스
타국
##ual
집중력
스리
##고쿠
악용
조력자
미사키
궁지
IG
##슬롯
상류
파업
강연
오피스
적진
포토
##선언
김정은
##체스
오아
절규
괴리
상표
입술
피치
##러미
마에다
부도
반부
세미
스완
템플
나고야
##날드
내구력
아멜
학계
플레어
강성
모스
에밀리
##기동
병합
토네
##황제
##나시
분만
궤적
매개
사찰
##산군
낙인
막바지
색채
MLB
그닥
Pv
건전
소동
라지만
선대
##기계
소환수
Rem
저상
프렌즈
성서
오인
이안
노조미
우상
줄거리
광탈
퇴사
군사력
마징
돌격소총
영미
중전차
##방면
표방
##공무원
고장나
##단장
슈퍼스타
Ep
가미
가뜩
당첨
코스타
##ational
유포
##르노
##교차로
999
현황
피드백
거제
바실
투신
스태미
##로리
돌려보내
원격
##riend
선인
##af
##의장
경기수
꺾이
##ars
##이야기
사사키
네타
##bs
앙리
하위호환
팀장
##질기
어퍼
##노르
Vo
무궁화
##에이터
##콜라
정렬
##리조
##IE
연예계
둘러보
깊숙
가뜩이나
돌아서
##보살
##패치
정확도
채소
##어먹
실장
##가르드
억지
초당
급기야
##테이너
고려대학교
가명
##ivers
악어
주방
자유자재
베토
임관
루카스
소용돌이
우크
홍준표
히토미
##파치
##외선
뒤이
플루
##목적
##한정
투니버스
##교환
##되게
태그팀
##무트
VOCALOID
동체
유서
인벤토리
제후
서울역
IDOL
고양시
악랄
그려지
고릴라
리바이
풍자
##녀석
초코
발악
##라이너
Leg
King
카오리
맥도
##노기
추기경
##평군
소절
클립
페이트
##분석
관동
동인지
##라이터
HT
YOU
격전
김희
BF
세탁
분경
튜닝
just
출몰
선발투수
##산면
깽판
초선
상용
##라이프
평정
##준비
크루즈
다나
쏠쏠
에이전트
버젼
집결
거주지
되살아나
극소수
샤워
왠만
피라미
##송이
##SS
School
##MC
##계승
모방
오로라
콤보가
Miss
레닌
제라
속편
CEO
끈질기
##장교
1935
##리츠
수비진
##atic
경량
미시
UFC
광신
Rec
GR
모호
정자
비장
합창
방어선
스타크
##페스트
서정
what
##미술
나이츠
???
전과
허리케인
뒷받침
스타팅
1918
##코트
##ern
기이
참패
새로이
밀접
##itch
치명상
이치고
결장
최초수록
네모
##산리
##ts
철회
STER
무빙
쿠파
미수
1934
서킷
차종
코타로
##전일
Che
김창
도도
배기
131
캐롤
철갑탄
반갑
부럽
ADV
동계올림픽
'''
아폴로
뷰티
인맥
재난
수원시
방금
마가
페인
이누야
공방전
광저우
당분
발상
##부수
피처
한심
무효화
인내
핵무기
##라라
아이오
연호
차장
운운
창의
천적
##살렘
##비언
End
##대비
운영진
우아
조폭
코카
##폴리
예배
##후미
VR
다다르
역병
##rain
응원가
샤프
조교
클레어
한가운데
Ge
쓸모없
Di
캐리어
개발사
아몬
생산력
미야자키
##정관
득실
##디스크
탄도
가호
제시카
도리어
화자
표출
##에너지
펠리
Air
##큘라
퓨어
행렬
##도구
##케이드
자주포
##tr
##서야
살상
##루살렘
함경
굴복
바스
솜씨
여고생
##주카
기획사
##무니
불러들이
별자리
이가
##고등
알고리
단골
##제리
경유지
조류
로브
경신
맨시티
##니지
전교
카에
매칭
일자리
##oot
Mod
방황
줄곧
콜드
##류소
올라서
로만
일개
if
니나
##레미
##파이터
마르크스
드릴
빨강
발사기
요동
레이나
트로이
양파
무성
키사
리턴
추첨
유토
멀쩡히
소극
세간
게임기
양주
청색
국정원
타다
손아
키워드
마이너스
##구멍
보증
뒤집히
야쿠자
여진
정명
그리스어
못쓰
##구스
카가미
친선
이노우에
가득하
화합
##전이
코이
##ren
에일리언
발전기
메르세
##변속기
레아
무언
서장
##비안
드라큘라
한중
##치카
억압
엄지
##처분
##방패
col
타케시
##고르
##학회
노이즈
상임
작별
흑백
자판
##UE
위탁
토로
##려드
EMP
욕하
상반기
공고
권고
우크라이나
소진
취직
카즈마
아포칼
쇼군
##55
알고리즘
##보정
명령어
장타율
##시카
라미
부풀
불로
우츠
PVP
부식
교관
솔로몬
기미
임상
##UR
흐리
독성
벽돌
카스미
한몫
사쿠라이
민원
옵티머스
레몬
방정식
넓이
##rist
night
스티커
동창
도피
이문
##걸리
미성년자
##정동
##ony
강유
여론조사
##ma
##장판
소피
점사
Sound
서사
##변화
##리아나
국산
##필살
POP
블루스
##쿠마
##수엘라
예리
느냐는
어드밴스
Hy
예루살렘
청주시
##영역
토오루
강판
비즈니스
반다이
배상
무작정
워드
수고
시드니
만류
피겨
##의정
뛰쳐
왕궁
##반응
수준급
직관
착수
홈구장
##블랜드
각색
서원
성문
##요금
도미니
진가
##카운트
랜턴
##시온
블래스트
블라디미르
##수입
##폭격
성채
불멸
사위
##진행
킹스
##iew
정세
지휘자
주범
##어찌
그놈
토착
DO
메꾸
송도
포워드
##축제
신체능력
챌린저
메르세데스
don
##ope
##준혁
사사구
##카쿠
좌익수
MASTER
작아지
공휴일
빼돌리
분전
출퇴근
##바인
한국전쟁
소녀시대
간선
상장
##호도
실무
치사
하세
포트리스
글렌
##갤러
##암동
MD
디펜스
EM
자크
프로듀싱
과부
##투자
##ana
직업군
나날
인테르
여러개
징징
코지
##정역
소설판
라오
##레즈
나기사
##atale
건축물
민법
법무
연금술
견인
미스트
티베트
개관
##화기
미코토
##해머
에이미
사극
유소년
일쑤
##블루
애틀랜
제멋
미끄러지
굳어지
레즈
화요일
일부분
Femme
현명
##oon
조지아
하야토
##고교
단조
빈사
합당
##레이스
기관차
조운
##핸드
베토벤
의거
섭외
오일
스크래
자민
SO
무르
이씨
##도니아
중앙선
Cat
미셸
스위트
안토니오
way
##비키
##여자고등학교
그제
정유
길들이
노숙
총애
과학기술
설비
정인
공지사항
고독
신디
##ox
BAS
다이나
다비
##유기
사다
##제일
##실록
어찌어찌
살인마
대출
사이좋
##ield
반말
천도
브레인
손바닥
##자국
기술배치
여의도
유목
선공
##덩어리
금전
복싱
##명령
마사키
들려오
실황
bl
흡연
진흙
얼핏
단절
숙이
##22
연구실
애당초
퓨리
파고들
사우디아
학번
EA
1100
국력
궁병
레스터
미지수
이윽
골리
티아
채굴
회복력
극찬
스퀘어
1932
창원시
겨누
이누야샤
WE
자잘
언행
함포
도사
친밀
팔라딘
타협
##언정
서인
##olog
군산
즐거
알프레
1931
비례대표
##각시
1933
XP
몬테
베네수엘라
역설
##거진
데이비스
##투어
보답
복종
사에
##에고
겉보기
##연상
양팀
엣지
이윽고
셰프
병장
성추
내려지
확연히
되돌아가
##화문
걸작
베스
카린
##사의
연구자
가치관
재혼
학업
효력
화가
##흥민
후일담
누이
등산
##Fatale
대파
그래프
FemmeFatale
해커
방학
콜로니
With
허세
Hard
자바
Run
다던가
자연스레
서북
황족
##수지
전리품
체리
교란
육식
이블
##격투
잔디
금성
추대
##코르
컨테이너
XXX
지중해
병살타
다나카
##화력
프랑켄
초토
링컨
든가
후세
쿠르
회화
##쿠버
오너
CT
슬리
레지스
카구라
비판받
김전일
성폭행
악장
##분해
대두
마모루
##AA
캐슬
직감
피곤
##튀기
말장난
연의
위화
양도
콘티
소심
후유증
낯설
임페
빅터
매복
340
도전자
백미
실험실
고폭탄
리안
욕구
##소개
Not
흑화
급속
##자스
벼슬
술법
여도
쾌속
##업무
서드
클리블랜드
탈옥
차세대
효과음
아벨
App
풋볼
오징어
오재
튀기
##먼드
매스
##elf
경쟁력
로프
Rev
테르
루미
성기
##평균
아즈사
칭송
##틱스
##ouse
제정신
안도
진료
RS
무찌르
사우디아라비아
1928
설득력
신이치
조형
자문
폭발물
##게리온
214
손녀
가솔린
본디
총탄
CCTV
행태
기간동안
아이즈
배분
RG
셜록
자유주의
갈리아
전념
##우먼
기마
고원
##라면
재사용
본국
환각
조선일보
dis
경인
다단
장병
사면
##디자
도널드
전태
진작
히노
중심부
다정
유교
육박
##시트
Da
##투사
세일
자가
##박쥐
동봉
든든
압살
##광고
브라더
마징가
손흥민
유한
키리토
피츠
징병
첨가
하쿠
실험체
들이대
##75
피라미드
VIP
첫사랑
캡콤
청량
##토니아
치중
뾰족
아티팩트
솔라
##댓말
추적자
디디
##훈장
쓸데없
연세대학교
아치
양현
게재
평면
장래
##종합운동장
충성심
SHOW
입맛
피신
설레
스케이팅
바주카
좀처럼
추석
애완동물
북유럽
강적
횡단
듀엣
##전환
##완성
옐로
잠복
가출
조달
토탈
토머스
민족주의
아역
증원
한조
결별
의욕
UM
반칙
원호
##보건
##노코
두부
두께
앞마당
##둘기
##리시
예술가
Elect
악수
성공회
스테이터스
커리
폴더
꾀하
꼭두
마음껏
순진
성모
임창
RAW
사마의
물려주
재고
순조
사용법
선체
시궁
번영
공성전
어처
윈스턴
데이브
크로니클
호노카
난전
##배틀
교차로
광양
아지트
기장
패기
허영
co
##ORE
흑마법사
빌미
##컨대
Ke
서부터
141
She
미라클
310
병영
##티코
##공작
에반게리온
대용
살라
학창
여사
온화
정크
족장
김혜
생사
##여고
8000
시에
농어
##당하
라가
안보이
현행
##푸스
리마스터
망가
오의
##we
##ecial
네메
오스카
##메탈
간행
아이카
김세
시그마
울산광역시
스매시
팔찌
임요
도르트
건의
자카
크립
혼종
애플리
구급
워즈
불가사의
Get
연희
##서기
제이크
아종
##수도
정은
도호쿠
##마키
##마니
변종
저번
존댓말
초식
게리
스플래시
이선
저격총
버거
입학식
라이징
액세서리
양념
유하
입당
늘어지
송구
##asy
아포칼립스
전편
##코올
승계
##ane
대부
점포
동대문
라거나
로딩
완전체
##네이
부화
##66
승부차기
새해
##브스
##지부
##꼬리
박격포
카부
미니게임
틀어지
서식지
패미
리모데
사과문
넘쳐
만세
앞쪽
폭사
##its
패트릭
##보리
DT
표명
하코
Ang
여덟
유감
칼럼
##대대
콜라보레이션
world
무자비
퍼뜨리
##엔터
플래닛
대잠
포털
##병호
##28
에리카
타노스
##명칭
어처구니
임요환
코토리
이동기
왼팔
외출
##과목
##드릭
그밖
커먼
##리즘
안장
시위대
##현장
1924
불사조
채팅창
식신
##짜기
걸어오
작살
애플리케이션
남구
##제트
울음소리
탐욕
대상자
조율
선진국
불어
white
오디
카무이
민병대
이신
480
##학위
##증가
재위
##해제
공중전
메테오
##멘탈
##윈드
봉황
악세
열받
계보
득점자
##토모
##피오
당당히
이우
##감소
속삭
사이퍼
시애
##무역
##EX
미스테
느냐고
임시정부
파인
염소
인프라
해수
##ze
부합
빡세
SW
예비군
##버섯
모터스
앞장
전류
풀백
프런트
007
시리
진공
가까스로
휴일
까먹
##러시
책임자
0000
Cy
##신청
자위대
##태수
향수
부추기
마커
본문
그전
내륙
황무지
오리콘
레귤러
정적
주작
틀림
기밀
상정
댄서
되돌아오
거물
서남
##저트
백호
정장
프레디
밀라노
버닝
비정
콘스탄티노
호로
##레프
드라군
지그
서진
##라시
뒤틀리
성역
su
손수
##틀링
##ness
볼텍스
##마켓
야하
엑소
중령
지망
720
##양이
##아일랜드
제멋대로
폭포
기타사항
촉진
니트
아픔
의병
스튜어트
처단
##키타
##비오
Song
Big
흘러나오
아론
Comm
대강
섬유
격돌
센터백
이분
유년
##바디
삿포로
##24
섬식
Back
공채
쉐도우
##인사이드
담당자
##장구
##표기
##루미늄
##appy
그르
420
스칼렛
부회장
데이빗
##트로이트
의미심장
협약
Arm
코이치
추산
탄종
류현진
베어
도르트문트
시애틀
발렌시아
셀프
송파
소감
우익수
낙원
재선
##더미
스테이션
상위항목
마포
##제어
보리
설사
디트로이트
송병
신주쿠
엑셀
이장
삼각형
빌헬름
아세
팔꿈치
안중
촉구
##병사
##ny
##의료
##운행
마티
##판사
##라이언트
다이어트
국무총리
대한항공
연주자
닉스
유명세
로드리
박주
유쾌
초고
오버로드
관습
다다
##ke
##평화
민국
토막
사이오
스크래치
여주
스몰
플라즈마
사다리
Order
성주
클로즈
늘어놓
황자
##버린
그레이스
##디우스
##RAM
##슬라비아
##sc
##협정
두텁
수군
##보상
제식
호스트
1929
박준
##이용
으라는
떠들
1911
목성
##이론
방영일
라자
##울프
헤딩
서재
선비
착공
이제동
##보트
로마자
자라나
방대
사각
Skill
겸임
대담
무림
히로유키
비약
램프
와우
휴게소
총통
광석
박세
빡빡
유죄
시전자
포르노
망자
##서울
휩쓸리
삽화
협곡
법정동
한개
암석
위도우
베지터
아킬
con
미련
초사이
>,
볼리
##35
명작
KS
괴로
증세
샌디
유고슬라비아
##고개
경위
환사
디테일
##정류장
##자금
목표물
김제
##chor
##소통
씁쓸
##곡리
TB
군중
##날리
제국군
지온
##누이
##애미
거듭나
조장
##실히
##소모
시저
유추
정규군
카노
UR
당원
상권
석궁
1925
안드로메다
보태
Every
백합
차출
김준호
케네
##위성
##소재
커브
##학습
##블랑
##느니
##let
사상자
임용
##무로
사토시
듀티
태연
격노
출입구
대각선
대머리
ᆫ다면서
가왕
버금
에덴
##키치
사설
PSP
평행세계
cl
당분간
애시
동점골
저널
배지
##보수
##종료
##쿠사
베이더
선천
홍대
##가르
##UC
추이
##AG
꼭대기
마더
큐베
상회
윤종
나나미
난폭
이관
상대편
That
위즈
김정일
##눅스
자택
시노부
로망
파이터즈
드레드
양아치
알루미늄
쿠사
사교
1917
내년
느긋
##고로
##비히
기병대
난해
프리즈
키트
qu
208
##티티
시안
충주
대관
독재자
판도라
패드
헌데
석화
이에야스
##주곡
바하
리에
내려놓
##피탈
단테
안드
졸개
한인
##코딩
쇼핑몰
프랭클린
연비
리조
쿠루
마운트
서커스
선도
난동
te
가차
스폰지
온전히
포커
기각
다이너
비석
TCG
조세
##비지
스탠다드
##트럼
벌칙
##프리트
##바흐
노기
두드리
르노
펄스
제스
자부심
212
음양
마는
시스터
적정
##소환
성체
거슬리
텔레콤
과실
##줄기
동물원
##출신
서면
선교사
환원
이의
중간보스
##융합
농부
마이애미
괴도
성추행
세이부
시즈카
가가
갱킹
##bps
Des
포대
총사령관
아야카
구자
리액션
Har
##기기
리미
##ert
대명사
주성
##일지
##천역
갈고리
동거
인기있
동남아시아
토네이도
교감
단거리
정현
단신
##버릇
나츠미
매출액
나이지
페니
##독립
##ious
강당
숙종
해설위원
FX
콩고
보행
상경
열풍
자아내
##점프
171
##기둥
##ient
올라타
NL
Top
마그마
끊이
##폭발
가물
235
간식
대여
동국
아스타
##net
다툼
서경
불운
일지
##노키
방영분
수렴
호스
공영
문과
샤아
식별
토요타
GL
웨일스
일직
강남구
##프로그램
유행어
정제
지독
초사이어인
엇갈리
이마트
양동
침식
850
분수
쿠노
타쿠미
영락
최면
Tri
블레이즈
역전승
흑마
##카이저
##장수
EXH
왕따
토이
##ret
##누마
행정동
크리스토퍼
##크루
255
내기
조선인
1927
어중간
키메라
##방학
##페스
##약품
FR
중얼거리
##복무
##탈출
관대
속옷
##ideo
올리버
배틀그라운드
개종
내역
스케치
NS
나기
년작
조슈
##공영
..'
배척
##토록
합산
야구선수
후렴
태고
일찍이
영화판
능동
##진구
발산
집정관
짤방
포화
비행선
신한은행
가산
들려주
어휘
알코올
##석기
서문
대칭
모건
##pl
교주
##엔드
RF
퇴근
도마뱀
왕건
츠카사
튜너
##olution
Amer
는군
##성향
##현동
리눅스
서스
##라오
##나단
현대자동차
##투아니아
##동강
프리스트
와일드카드
떨어트리
어지간히
오나라
결승골
교육부
Em
내심
조그
원산
206
##바이러스
늑대인간
남원
특출
포럼
하얀
##경비
대표이사
하타
마츠모토
도청
조인
리포트
해밀
발매국가
잔당
자며
애틀랜타
클라이언트
경이
활주로
##노벨
PO
##정의
DEF
세균
직계
##나들
##IST
LCD
##비나
이승엽
off
##기체
게임즈
뻥튀기
##왕조
##악단
##co
퍼시픽
낭만
##천지
##협력
작화감독
무협
##상스
##ERS
한지
화수
구애
글러브
##공군
축구단
##지방법원
소인
리투아니아
면은
시한
##나우
크로노
모빌슈트
사구
햇빛
소량
##겨지
스님
신종
신민
자연수
333
각본가
전염병
용인시
Act
투구수
##메랑
켄이치
##더리
##준호
UFO
이목
성남시
##특기
오바마
공직
##토키
##매체
해협
수레
어비스
209
항우
비늘
알파벳
잘되
장녀
##고도
길가메
방랑
##예정
샤크
##ful
야구부
##mania
ve
노후
절묘
플러그
새정치
전복
품종
해저
심리학
후려
여자애
심포
290
아슬아슬하
##근무
마늘
부딪치
Pe
나탈
기겁
카쿠
나이지리아
kn
LS
북두
커넥
##집행
##회원
줄줄이
##바오
##브르
사주
세스
무난히
에인
KG
노랑
쿠스
데뷔작
가로지르
카터
##러기
경호원
갱단
엘런
장단
##ner
##ham
TD
문의
야채
##수술
##비야
버금가
출세
과반
광학
카멜
##달러
Bar
Fre
관제
버지
브란
잉크
215
창병
##어들이
##감치
기통
꼭두각시
친근
유우야
운전자
합방
휘둘
##삭제
##살이
인테
푸른
가창력
결사
런닝맨
소음기
가변
단단히
정직
페스
##영수
기만
천만원
패거리
##루가
Ext
비틀즈
시궁창
##사포
##웨이브
주재
첫등장
후작
##문회
소중히
AMD
편제
치밀
후문
인기투표
비올
의리
##타기
종착
God
동독
라쿠
##고문
Str
1926
희미
일선
##총독
베드
##산맥
##스테르
마이트
나루호도
수분
##영향
트레이서
되려
호조
재팬
##ning
GDP
먹튀
철학자
친위대
특권
Hot
근래
Bea
뇌격
안주
뉴캐슬
스트라
연기자
못되
Ab
발효
##덕후
##보컬
##판서
##ERT
STAR
잔여
홍수
RAM
저리
끝내기
위화감
체질
anchor
택배
##미오
페인트
##책임
말라
##ump
급제
대적
비숍
유가
어린애
때우
초원
화랑
Char
분기점
다이묘
고스란히
법조
'-
덴노
일찌
##단의
괴멸
##그러지
##ward
##모으
ᆯ지도
심심찮
비아냥
Met
Rain
번길
침체
푸쉬
힘내
##day
인플
판본
##보고
독립운동가
Sil
##발사
##히어로
every
샤이닝
먹방
학생회장
마비노기
원제
위생
##ATION
다그
알맞
더스트
헛소리
FN
##기아
도르
랄까
명장
반자동
악보
인신
전산
메아리
매입
오드
최성
휴전
머니
##동력
**
동유럽
위임
클락
알아듣
부메랑
##대책
코즈
##발리
최우선
want
세계선수
FE
하남
##결전
White
##88
단말기
Inf
마테
요일
지자체
매지션
초급
##샤인
이녀석
세단
심슨
1400
인피니트
라바
정종
형법
yout
정경
디시인사이드
케네디
타나
ᆯ게요
찬사
해결책
다구
##식사
여건
외야
트린
조승
최적화
골대
##사관학교
계좌
프리저
코나미
대한제국
뮤직뱅크
##수학
##임무
이민자
제르
##지물
KD
나주
비하인드
바람직
바늘
리비아
스캐
채무
데카
##전생
##사라
##피온
##전용
##만큼
제각
##면허
노이
빌라
##반사
만화책
브로드
##민주연합
히가시니혼
down
##길이
##핑크
헤라클레스
more
긴장감
행선
팔레스타인
번트
유체
May
자정
게르만
병맛
##차장
영국인
김태균
불분
경상도
경의
사생활
정정
최재
시력
207
간편
성녀
추월
##가격
상체
울부
Pop
##기수
IDOLM
고어
베가
찾아다니
##미네이터
애리조
##부모
왕녀
증후군
하라
한계돌파
악명높
##군사
Master
저스틴
중산
뒤바
전폭
항로
터무니
오퍼레이터
영기
재해
##이즈미
##리사
단다
몸빵
##son
##노부
포지
무진
##성적
파열
코다
트림
우천취소
명품
부치
관광지
리노
##au
단연
스베
마카오
##ANC
카자흐
이시다
PA
무심
심플
##oud
불분명
감속
길목
냐면서
앞장서
소셜
미하일
도스
##확인
과하
성종
##ves
앤더슨
항소
미얀
생계
투여
Game
정거장
유수
끝없
치세
마인크래프트
터렛
##카르
##프닝
이라든가
개봉일
로사
선하
진해
외교관
삼지
이스터
제비
##발매
무언가
헌납
풍속
##게스
만화가
OR
##프레임
사부
즉석
##보안
몸체
는데도
보유자
건너편
충실히
161
금하
이강
후하
참수
they
드레이크
볼프
1922
##ift
하렘
스코프
칸나
박민
일갈
코시
##소니
몰아치
의사소통
시동
재빠르
뛰어다니
진전
칼데
##즐리
##ship
무법
주군
##재산
경찰청
명확히
서유럽
카바
선택받
그토록
뱅크
세토
메소
##파스
##ape
가즈
COM
창세기
행동력
마케도니아
Are
##무쌍
사건사고
울부짖
가중
##전투기
여명
##천리
통신사
마오쩌
GAM
야드
요크
작렬
인분
하데스
##대행
##과장
스폰지밥
##트니
수뇌
##소타
위조
아시안컵
숙명
차마
1923
애덤
열렬
광역기
대변인
끝판
들통
아이치
리젠
팀내
##구성
일정시간
카에데
나가사키
TN
불능
중소기업
WAR
공적
오우거
스트레이트
재화
##장전
1921
이치카
위인
랜디
김택용
TG
백수
불가피
순순
체내
##고루
비밀번호
##lock
##디자인
한결
##타고
시발
인장
화장품
완패
중의원
##오오
마작
Bu
촛불
아르테
세실
창간
평지
##텐더
망원경
Bra
나츠키
수송선
몸집
개틀링
드리프트
520
쏠리
역관광
외래어
only
사이오닉
미분
제품군
##ien
명하
알비
##문고
척하
코지마
아이슬
부츠
뿜어내
Yeah
마오쩌둥
성령
픽셀
휘둘리
산산
이지스
상가
##국적
심리전
##일관
##경험
한국사
DA
사바
선풍
비대
##선스
출시일
ㅏ요
단번에
티탄
##less
밀러
복권
키쿠
##찰청
선교
랄프
한겨
조비
##ize
##구르
news
도보
동선
##렁이
방어전
카트라이더
짓밟
##교체
##니케이션
안테나
부대원
콤보로
역전패
스플릿
헬게이트
고모
징집
##람쥐
##zy
익스프레스
Cont
##LD
이코
##지에
위태
익스트림
강변
##진출
관악
엠파이어
##고양이
편집자
pl
신촌
여친
재상
지령
##레우스
##EE
타이베이
베인
이송
전용기
수법
배고
##경쟁
감시자
Hea
부녀
##여름
근접공격
편대
괴담
##오류
아틀레티코
##남자
구스타
##메트
##린트
오스틴
팀킬
##45
남아공
##여단
##일체
프란츠
호타
하얀색
##led
온게임
지방선거
유민
한승
##omb
성취
팩트
이상민
##큐버스
랩터
보병사단
##강의
뉴비
##전적
##스프
비범
##입장
스펙터
수영장
##워스
승부조작
이륙
##종이
자책점
경합
며느리
아날
##개그
##조절
설정상
트레버
등용
리스폰
피고인
가토
##호텔
##지옥
초연
##헌터
시세
스펙트럼
수년
이다
##ited
Project
##HD
메커
세련
투항
출생지
활기
##여우
애니메이
온게임넷
7000
실습
주주
붉은색
체하
학부모
피니시
##슬러그
크림슨
Joh
솔리드
온전
댈러스
인기가요
눈부시
힘겹
지못
##ALL
Off
아산
Battle
바이스
안들
와타루
TEC
테이크
궁정
1912
유스케
한마리
TF
##지선
##시점
독설
마스터리
법무부
불안감
순순히
리프트
##ita
##카게
##수송
##형식
##엑스
선명
터미네이터
헤더
JC
오피
##콜로
예하
다이브
Open
이범
자음
샌드박스
일생
특색
선발전
##ORM
재차
카프
##ton
DDR
~'
월터
이유로
연장전
##29
생포
wiz
##맹이
협공
회유
마우
Sky
독도
천연가스
빼놓
캠핑
아이리
언론사
사카모토
Moon
모기
##의지
끝부분
번거
체이
지못미
소망
미네소타
크레이지
백두
##세우스
##딜러
산출
설문
##태후
......
##또한
번하
정연
##식당
221
##큐리
##ENT
BASIC
응징
##두근
##원지
단간
날아오르
순차
우투
##스토어
여객철도
일직선
그지
다인
##구슬
##닥치
777
히트곡
양면
기생충
제네시스
증권
매거진
멧돼지
good
성품
##23
바우
리듬게임
법령
초회
칠흑
ᄇ시다
송곳
어새
이따
화속
통역
트이
관련기사
맞대결
과잉
기염
게임판
관건
데스크
##row
##27
1300
성가시
##호크
미얀마
꼼짝
윤성
아쉬워하
하늘색
짤막
이북
##세키
섀도
외침
비둘기
지갑
종로구
Like
힌두
애프터
##com
레베
저력
타츠야
##공산
브라우저
분가
포괄
##토끼
개인기
소이
WCS
영창
선별
우메
천문학
토라
##툭튀
밴시
벌어들이
전라도
희박
##ling
마켓
스카이림
수료
안식
라든지
##주행
접시
##랑크
성급
익명
정선
##부원
##신고
Special
정도전
김현수
내려찍
농어촌
체류
어머
향토
이어폰
2022
창출
##린더
강호동
수없
급진
##메이드
##상품
갈래
갑판
여느
오보
이츠
토템
개드립
비밀리
매트릭스
##증권
두개골
강점기
원로원
beatmania
수작
얀데레
텍스
톡톡
다듬
본거지
Bad
도타
스릴러
노원
라지
직구
일정량
아이슬란드
소사
청동
가세
나선
##롤러
여행자
르네상스
구세
멀린
##댄스
스핀오프
헤지
막말
##혐오
붙여지
아틀라스
TT
의류
전투원
레기
코리
탈탈
디에고
원어
이나즈마
Soul
##풍선
##협의회
승강전
에로게
백지
수반
데이즈
피어
##터치
##프스키
초동
루리웹
나뭇잎
##나타
##코스트
밝혀
조현
붕대
스왑
Med
과다
라이선스
는구나
##rop
싱어송
광동
당근
사병
군단장
섭정
전투복
병신
서지
순항
##토라
감염자
마도사
카즈키
슈터
##취급
서브컬
##어내리
문호
##연장
진행하
버지니아
무패
네메시스
손책
213
특촬
##스부르크
##이인
##망이
##탕스
반대쪽
##파츠
##벅지
재주
##UB
막아서
산체스
이조
##쿠르
##수업
바이올렛
무모
생방송
루시퍼
거창
부상자
end
간장
고성
모함
줄리아
Po
남짓
체구
##vent
Hey
낙하산
over
일만
앵글
##수산
##대리
FBI
분사
디메
##럼비아
검거
##line
##진우
##ute
음모론
Now
WOR
알제리
복부
##코쿠
치키
항속
Dragon
가야
펜타
마사무네
노드
러브라이브
Bur
사죄
##케이스
223
미카엘
발령
빵빵
##play
눕히
##네즈
넵튠
오덕
전우
##기사단
our
명장면
세이지
명백히
반달
##xt
삼국시대
와이어
티나
275
티타
승하
세속
형벌
##프로야구
계승자
이메일
여하
케이트
프리킥
장동민
멸자
번번
통학
##연령
baby
네팔
배경음악
##게시
자기장
어우러지
체급
현무
##감정
##stem
001
원나라
팬클럽
##노래
##테루
밝혀내
서점
시라이
#,
벤츠
수없이
탈것
중장갑
모티
카도
##발표
##oney
이끌리
Eng
버디
에테르
보단
서약
넘쳐나
부통령
세츠나
남캐
밀양
아만
퓨처
차차
##벌이
은가
fl
에임
##붕괴
마천
##글리
베풀
지체
##내셔널
흉터
스로
셔츠
1907
맞춤
발트
에티오
캐스트
##96
작물
##결합
드래곤즈
계약자
고속도
둔화
프론트
거머
파파
햄버거
일찌감치
치히로
ac
호라이
구비
눈썹
부두
에너
철벽
##나크
수차례
Way
유다
이로
##노오
화염방사기
비평
정윤
티셔츠
##계통
##아내리
가네
나지
콘테스트
현수
##우타
아카기
이시카와
메커니즘
##데우스
ᆫ다든가
부적절
현질
그분
악인
가장자리
Alb
##FFF
##엔터테
##환승
##IGHT
일컬
춘추
##소연
어새신
##홍철
돌풍
매사
##때리
성희
탤런트
뜬금없
모로코
다테
예장
##eng
커터
소탕
바깥쪽
급습
웬디
see
피쳐
1905
농도
무제
사절
싱어송라이터
##탈전
스노
쿼드
대구경
교직원
해프닝
쪽지
환불
##클래스
브래드
포이
##포고
매도
폐위
재미없
교재
##전철
##lt
##궤도
도메인
플라잉
만두
##폴트
##라이스
DAY
##그림
레슬러
몇가지
야자
주권
소아
시빌
아득
동대
준장
Int
이터널
에티오피아
히이
365
타오르
군벌
반납
이사회
Cent
뒤쳐지
런칭
max
너구리
아츠시
관용
##블러
고려대
Comp
희생양
대장장이
니콜라
선두타자
테슬라
향년
태백
슬쩍
포진
문성
앨리
Match
쓸쓸
서스펜
바빌
가주
엠마
골고루
공안
시베리아
유세
마리사
성원
종속
류우
미처
선지
남용
청취
##토가
내리치
Ass
갑툭튀
자자
##제프
급증
우로
216
최하위
피크
고갈
##26
성범죄
옥수수
인승
지탱
선글라스
거행
사생
장막
##프레이
다이빙
극동
"'
불거지
러시아군
블루투스
거니와
결단
내구도
Yes
방관
배반
변모
##소득
##모트
370
##아이템
##세이더
슬레이어
골리앗
##권력
치부
톱니
민심
앤드류
슬라이딩
리벤
막론
바니
욕먹
정무
케미
say
명실
전령
츠루
타니
##그로
##건강
NAS
##에리
##후드
라파엘
지폐
최형
##덱스
레지스탕스
Fla
아날로그
##닌자
right
##코스터
미유
하시모토
빈센트
한국어판
제너럴
다량
우즈베
회자
물음
변함
##유물
kr
시오리
효소
##혀가
다이크
간첩
팽창
##심사
끝판왕
악질
페더
##ude
경전차
소행
어태
절약
혼나
구만
조니
스켈레
그렌
CIA
팬아트
##츠구
푸른색
Ook
언락
거머쥐
국물
밴쿠버
전패
트리오
흥하
음식점
##운틴
##여왕
##바드
보급품
스맥
PvP
##ata
##콘서트
신봉
오모
SUP
나스
하천
왕립
겸비
태세
하버드
수퍼
치아
급상승
##독스
##주니어
##올로
라이브러리
Last
가든
데니스
좌완
총구
프라이드
메두사
박태
잡혀가
세레나
자수
XY
##광선
시종일관
스탠딩
동아일보
포유
덤벼
짊어지
초동안
##철학
##투쟁
IF
극성
마취
##요정
##청사
상승세
연대기
마장
TWICE
##히데
자멸
티라노
헬로
##차고지
이탈리아어
무안타
북서쪽
##ius
오카다
실바
##결혼
케니
권역
부끄
##인과
##날개
매점
메이크
어지럽
매지컬
몽땅
440
상반
##스기
조선총독
동성애자
네로
마코
도입부
못생기
##다오
모라
보호자
밀가루
수납
##III
##red
거미줄
막시
오차
패권
하반신
아랍어
격납
누락
무당
정관
##소년단
배급사
올리브
소름
코브라
근로자
기린
##브레이
##가로
##록스
##감사
수속
슬램
두각
기어이
##브론
모리스
카논
##클로
##가게
우클릭
##트리스
##던전
Core
골짜기
박치기
BRV
요지
##엘프
간직
##ets
올인
후진
덕택
산호
왕성
장대
##주민센터
이남
곡인
Mir
법사
오도
음역
Show
##76
##ated
자석
##몬스터
there
미완성
쿠퍼
이치로
##ara
자치령
수혜
엎드리
장담
##인터
국내외
사관학교
스맥다운
본뜨
양육
추위
Nor
오산
1908
##미팅
리더십
크루세이더
콜업
고려시대
##시현
테크노
##cl
##푸르트
경보
발병
##맞추
타케루
갈아입
his
김호
케로로
검출
HOT
불발
압둘
가신
광자
반죽
포상
수뇌부
암기
루즈
##불교
MI
원상
해발
##레트
##선택
안톤
에어컨
아리사
바스티
결투장
원종
후카
장기전
##구름
일괄
##기도
##44
전주시
시간표
##지스
크로노스
묵직
케르
폐하
##와르
가득차
경비원
순삭
##알라
비잔
척추
특출나
pe
교구
조공
##전시
얌전
일등
수배
수리검
사서
영령
사이먼
##어가드
micro
기판
레프트
##타치
##배기
지명타자
스탠스
사오
##교실
카메오
무서
트리스
##ely
대북
영문판
산지
##수염
tw
센트리
페로
엘소드
아소
##공동
라트
타리
Mark
반려
소란
##원장
베라
정몽
학파
대입
이를
##테면
슬로건
시제
신빙
파병
소모품
##진군
무방비
자치구
불허
합금
메르시
If
비운
코칭
또래
카트리
##UST
일기토
이를테면
리어가드
사비
##노미
필적
##스코어
시부야
발해
파이브
##화물
##라마
##괴수
##골드
견고
깜빡
##사유
Art
장학금
일파
이대호
Best
##디난
후지와라
First
알바니아
성동
섹터
##타나
##제비
##픈뮤직
티거
다크니스
하르
팝픈뮤직
RPM
공민
##현대
크리스티안
##게시판
백마
허술
열화
요건
Sur
노획
충공
퍼스
고하
got
##소속
료마
호화
##KO
흉내내
일회
정중
서태지
##코로
나리타
악영향
오사
##기자
How
한족
뛰어내리
자백
허벅지
바이퍼
승낙
이서
##칠리아
##라이징
무리수
원성
스킬명
이니셜
탑솔
##카운
삼국사기
그제서야
비열
적기
단타
메탈슬러그
납품
폭군
##무장관
테츠야
플레인
오클랜드
대장군
시녀
ᆫ다든지
크리에이터
who
재발
저항군
마토
제국주의
전갈
##OCK
##여래
id
##궐선거
고속버스
간절
직면
쇼코
승기
아란
잠자
중사
유족
송병구
관전
북아메리카
한장
-.
재규어
뜬공
김인
맨날
음란
포텐셜
Sl
김하
박기
어플
주름
지출
Christ
에어리어
ᆫ답
기총
##85
Ap
큰일
팩토리
##경민
요양
장민
내쫓
예거
죄인
219
##INE
아유미
##루오
아키텍
베끼
선역
가늠
결선
##사인
##모프
고뇌
김신
제드
파기
소주
##저지
들여오
인페르
##권총
##ga
마호
노태우
알몸
##직업
##udio
강령
로코
잔재
중론
지바
##ERF
잘나
틀어막
국수
덩달
라이터
데이터베이스
머릿속
레미
안맞
주시
Down
잠식
드래그
##도르프
##럴드
RED
선후
##임수
시작시
FFFFFF
신약
이규
##상부
임페리얼
사카이
곧장
급속도
Never
NA
시리우스
프론티어
류지
브룩
소폭
##ric
##시노
Sam
950
일어판
포레스트
누님
레이무
탈주
통근
##디나
Tour
겉모습
착취
##다듬
##젤리
feel
브리핑
명왕
##work
뛰어오르
해밀턴
Free
NAT
분하
십상
끊어지
지침
한동
경전철
##마이트
궤멸
망각
##강도
540
대제
밸브
자위
##불리
에러
##시위
##ther
열광
조문
활약상
수족
통찰
##ley
후려치
한눈
##분투
전위
##리치
진흥
활발히
Na
전황
외환
Side
란다
##구동
개찰
미워하
박차
원자로
근방
##ux
황소
베놈
채권
GX
독단
직진
##릿수
416
GPS
##사병
Magic
난징
질질
칠곡
정부군
보름
동남아
##보장
군세
여리
충동
##NG
##HC
데일리
##시즘
##표현
관객수
뚱뚱
여운
주립
나오키
연합국
노브
##버터
##erm
커뮤니케이션
yeah
##hy
의존도
동급생
감독직
배틀필드
복각
유창
Track
운임
피칭
공전
끝없이
##너드
김한
청사
개월간
나데
##니컬
설립자
남산
아레스
철퇴
전쟁터
금서
디스트로
이롭
고마
책봉
행세
국내판
Sim
##잡지
트라웃
몸싸움
그러다가
특별출연
빈곤
가르시아
엑스맨
바그너
얼룩
##즈미
두근두근
9000
##루이스
블리츠
개화
장려
화끈
##산드라
지하실
개더링
닛산
부피
유노
페드로
##하니
데스매치
KN
루루
##슬쩍
라그나로크
드로
모용
최고속도
창시자
KCC
상수
##교육청
통수
투표율
분간
틈새
##산성
##시에
##난무
ᆫ데다가
시연
##용품
##니엄
엑스박스
수박
첨부
데미안
##추가
##ird
KA
거액
랍시고
콩두
##마르크
##계급
정류소
알프레드
문경
부러
##하치
Pol
적도
족보
주조
야말로
조선총독부
마크로스
민사
게임내
girl
반주
적어지
해지
City
부디
행군
엄폐물
PM
거유
레비
활동중
듀얼리스트
다채
연세대
245
##김없이
Happy
마고
##비서
신격
자선
##랜서
##간지
니키
##위안
Party
아르타
##BOX
신령
컨퍼런스
##복합
예매
이어주
나우
정치가
호그
##재림
Edition
인테리어
##UL
변속기
기공
충공깽
심부
##rew
사업가
리빌딩
일전
Perf
한판
험악
##가키
끌어오
메탈기어
AW
스케이트
오아시스
##다라
##21
제주특별자치
곁들이
임프
시미즈
야시
어려
바트
온건
잔존
090
싱크로
축출
폴라
##UK
##세츠
##중독
##사이즈
고아원
투르크
##헤치
탐험가
Cap
태양계
BP
YG
버겁
치하
세계수
경비병
야스오
ᆫ대
관념
밧줄
앉히
총회
Fall
키바
##재욱
234
정착지
성희롱
di
추상
포섭
짱구
##창고
##수호
방탄소년단
Final
헌법재판소
메딕
소홀
졸리
드러머
지상군
##aka
실감
쥬라기
차오르
##수스
야마자키
키퍼
##칼리버
RT
판명
##yes
츠나
편도
엔터프라이즈
제주특별자치도
life
끌어당기
박병호
제복
EB
##스트리
설교
허다
##란티스
감마
##걸스
토우마
이보
226
롤러코스터
Will
적시
비타민
넷째
미토
##ris
249
조선소
고성능
동명이인
의뢰인
삽입곡
진범
##국수
##스피어
전곡
톰슨
페미니스트
각별
잠정
김은
##코미
광화문
대나무
성검
피버
거라
굴러가
알트
자결
코팅
##묘지
##요코
PT
내공
우선시
즐거움
츠바키
리조트
송나라
##승리
우여
본드
샬롯
위안부
그리폰
##훼손
로스쿨
인터내셔널
골수
받침
연못
예민
근접무기
북동쪽
바알
##라우드
Angel
이룩
저명
##종교
##날레
RX
메가트론
버니
##포시
조짐
루드
오자
차우
난장판
탄두
대지진
자유당
카드군
Stage
Net
롱주
Spring
make
캄보
보이드
소나무
##펠러
서동
##조림
맥시
##곡절
걷어
이쁘
##법사
물러서
미식축구
네번
##que
매그넘
##arius
##영화제
SEED
동하
해설자
217
##데라
곧이어
다비드
민영
쇼타
점치
적과
##포동
WHIP
막타
410
미술관
헬스
유승민
##애니
신태
사쿠야
식인
영장
유상
정승
##리니
##마타
BMW
조로
호각
내한
말살
투수진
##ONE
카르텔
난쟁이
우이
##tain
마르티
하룻
##시도
Boy
Club
엠블럼
공석
네이션
박하
교황청
생몰
일식
##ision
홀로그램
우여곡절
인간관계
다단히트
정대
승리투수
엠블렘
사납
위닝
오리지날
처방
##사살
최원
##러쉬
시어터
만엔
목조
##티움
##노바
선전포고
클로버
벼락
겁쟁이
만성
뮤즈
##정복
애시당초
통영
플레이트
개리
ff
넬슨
무어
베로
타도
블로킹
픽처스
##무관
##농구
로렌스
분비
검열삭제
호라이즌
경순양함
##게이지
1906
엘더스크롤
월등히
화질
##리역
228
ABC
BW
표준어
경부선
Come
Great
기스
##str
RR
빨아들이
##팽이
233
새마을
사드
영수
펜스
선발출
코믹스판
압승
빅토리
숙지
자행
애니플러스
보전
퍼니
##베트남
초라
##자격
##95
##링턴
Cor
경멸
동률
선율
##종족
##예산
커맨더
맨몸
##프로스
##봉사
##버튼
##말라
켈트
허니
분출
##ASS
클라크
몬트리
##ader
아노
파라오
중순양함
재래
##ama
##마왕
브이
##OWN
구미호
관세
액수
내용물
야구단
규율
루돌프
페라리
개헌
이아
미약
참격
##ague
크리드
아돌프
사고방식
레바논
괴이
보리스
폰트
형주
사이비
괄호
둘째치
공시
##섞이
받아치
오컬
이츠키
퇴임
##리프트
##슐리
part
미달
삼척
##연의
##정상
화성시
잡아
추론
웨딩
##스텝
마니
물결
##춘기
크로스오버
Class
휴대전
##ause
##수석
가넷
##질환
판다
##임금
##IME
황색
224
칼리지
체크카드
어썰
예컨대
효용
##전략
##일전쟁
IMF
별거
원반
공단
실바나
함유
##데시
Break
MY
글래스
Fly
##코리아
##어뜨리
역전재판
##노이드
375
##ross
이면
잔소리
주공
##랑카
카스티
항쟁
사업자
##ival
has
SKE
장문
티모
베이커
애니메이터
im
밑바닥
나카노
Legend
캄보디아
흑룡
##내역
메츠
신드
오사무
편애
팬미팅
노트수
도봉
##해야
cont
속임수
Little
PH
써니
위아래
##다이스
매료
시엘
억양
코러스
##원수
만악
##사슬
독살
인천국제공항
짜이
##ism
미네랄
옥타브
무네
이매
황폐
##83
##기관총
고철
충원
아이젠
##드라이브
최형우
##충류
##거미
영재
aqu
복수심
광폭
이여
천진
디럭스
만우
탄수
##보르
##유예
칼질
##스포츠
##성우
모금
들어올리
발포
사복
언론인
속주
허약
이즈리얼
샌드위치
궁궐
실탄
이달
##아오르
우려먹
헤이세이
리제
##락스
사우디
애비
발동시
개인정보
남아메리카
부천시
종자
취항
환산
##오우
##마비
사냥터
레고
슬라이더
센고쿠
원정경기
Girls
스켈레톤
약수
차크라
그물
리히
양방향
##부진
틀림없
##att
Univers
리미티드
조개
##테인
시종착
키사라기
군기
##비리
무로
음료수
아브
과열
리트
엘릭
용납
낙양
##다발
##부여
파워레인저
하인리히
휴대전화
철자
##IVE
유역
파커
발열
오승
외장
강서구
증강
피리
라이토
대교
덮이
은색
바티칸
횡령
거든요
고고학
티격
공황
능욕
퍼플
노동당
RB
임재
는커녕
라운
정주
초구
다이어
발족
필승
Swe
##erry
'~
ER
NFL
담원
동결
미움
##요이
##래스카
몬트리올
급여
선더
악평
염동
##제하
##서니
우디
공연장
fr
김구라
##서양
는다며
자리매
##지배
모차
에마
반공
집요
코요미
##번역
John
백룡
정신병
EXO
APC
가맹
북벌
소요시간
윤종신
광해군
연성
##자락
사단장
한수
이레
절제
개월만
프랑크푸르트
관현
공공기관
코미디언
출연자
never
전동
쾌락
투영
301
에버튼
##나이츠
재림
폭언
전투시
겨냥
빙글
##영업
##렌즈
##지인
확인사살
정진
초심
팔콘
##람회
암흑기
만우절
##인권
##uch
##티스트
##장식
보스니아
김규
소품
패미컴
냉혹
again
심복
주부
점성
경관
스쿠
총학생
지도부
로버
선딜
신승
쌍용
우왕
삼장
저속
흑색
미공개
##폐합
##현수
해피엔딩
인스턴
푸드
성우진
방사선
내비치
##구이
heart
공평
착안
##민수
Gl
신년
폭넓
몰두
##이키
포식자
라데
##정호
승승
치솟
퇴직
##피어
판단력
강대국
정국
총대
CGV
자리매김
석가
십중
지석
복식
사시
직캠
비행장
박원
중하
##부위
227
낙서
대주교
교통카드
##ords
PRO
조그맣
하강
##밀도
Mem
Take
##한번
램지
로젠
매끄럽
아디
##소방
##조노
마라톤
추축
##큐브
바흐
구실
노선도
##중대
##세움
자서
쿠도
소나타
황해
도요토미
##일치
TBS
홍익
구식
초음
컵스
390
1913
용호
카자흐스탄
도래
##바탕
주제가
조슈아
미나토
##암리
획득량
어설트
em
송신
코레
스노우볼
화보
마사히로
고참
##자식
남인
유부
게이밍
기울어지
교묘
512
파주
노홍철
헤엄
연사속도
##가왕
##ubl
연화
매튜
숨지
승용차
##초인
야인
캔자스
##슬램
1909
북위
에보
격투기
제곱
스타라이트
라이엇
조각상
증표
어쩌다
상소
애착
##차림
기권
페달
악세사리
마키나
인삼
타원
투르
솔루션
ㅕ야
허물
은신처
중종
##곡인
잘나가
리미트
뼈아프
사적
##소울
마이티
사츠키
##종일
##비티
sk
갑주
치프
교무실
서주
눈길
혼잡
눈보라
##드르
##도감
아이코
스틸러스
재보
레이카
파프
포세이
1915
강캐
성소
인가
소양
##숭아
절감
##보조
##공화
소대장
자의
##지하
은빛
남동쪽
##절차
레인저스
정치력
011
크래프트
##남부
태수
xx
출국
##입단
우울증
생생
##집합
미코
##body
##발트
수만
재일
##호그
지원군
인원수
게시글
Cry
mA
악연
양말
회원국
알라딘
평이
Hol
뻔뻔
순발
1700
스미레
투덜
교육청
각광
브릿지
이완
천수
키시
타쿠야
리전
맹렬
토드
루시안
경주시
##다주
##편집
한국식
교제
##ital
트렌드
뮐러
##넌트
정명훈
면도
##뮬러
##주머니
김소
##apan
스냅드래곤
뜻밖
옥스
타라
##입구역
십중팔
튀김
한밤
ㅏ라
브록
호우
셔먼
##히라
크리스티나
김종국
ISO
공병
##가수스
뜯어
카루
파나
대니얼
시칠리아
액셀
##랜더
##슈타
##iny
스테판
개표
교명
우등
EPL
호문
검도
럼블
민트
손발
오현
하이브
껄끄럽
마석
##동화
##라이저
대성공
근황
##노어
시프트
우대
쿄스케
마르셀
지식인
ad
철혈
##디안
##ura
아에
OO
식용
아토
##다툼
젠지
그만하
바인
대문
돌변
셰이
##통로
건축가
빈민
세명
##ople
최연
##이시
기라
오두
카툰
##금속
건너오
##ler
점수차
연방군
전면전
역과
##문관
##cy
호쿠
더듬
억누르
엄연
here
국보
비견
##REME
Ho
정근
지방자치단체
##여자대학교
실바나스
Gal
몰입
활력
##진보
도맡
백종
저질
제이스
##르슈
DSP
프로토콜
길래
신진
점슛
김종민
틈타
클레멘
Sn
킹존
로크
수제
1904
##DDR
무함
반쪽
사칭
올려
화룡
카즈미
터너
동탄
카라스
페가수스
747
육신
##높이
Ind
OM
Mbps
오웬
##리엘
##태인
HR
~?
꼬박
다같이
주스
피파
한기
##oun
하동
니콜라스
레프
카야
오컬트
bb
우동
남서쪽
정박
##란다
##내성
##ino
파괴자
동맹군
우즈베키스탄
게으
엠넷
터프
모자이크
내분
양민
제명
##파인
##irect
눈여
미시마
정설
한상
naver
대주
오거
어려우
계엄
스탬
액트
폴리스
MUS
중대장
현종
##체력
대기실
##라이어티
\]
시술
세가
##78
##새끼
아나키
거침
주화
근육맨
서대문
주임
##TH
##IO
ᆫ답시고
기교
반입
코퍼
다트
아누
천왕
##리지
##베니아
GTX
내레이션
뉴타입
식재료
사용중
분파
##옵션
양지
주루
##감각
231
바닷가
증대
##파드
강희
익산
하이스
농협
##중량
주지사
토쿠
##케이크
##물쇠
넷플
폐업
풀타임
##게일
초딩
##보레
##케이트
주지
폭투
휴지
##면적
신용카드
FO
시정
레볼루션
튀르크
떠나가
|[
북아프리카
Real
aquarius
1916
남친
조경
Rad
꼬시
##aker
니코동
bo
건대
당부
떨리
인스
입점
팔다리
NORM
252
수송기
SMG
when
비방
인계
푸시
견습
머독
간과
무마
오라클
버팔
관람객
윤영
상대전적
우리말
익스플로
프레데터
##총사
뒤바뀌
업종
호족
맹수
슬래시
##파르트
공중파
이따금
성시
케어
Sou
멘토
버퍼
##by
##AE
타카히로
골절
니혼
섬뜩
쌍검
경복
그딴
급감
세이야
238
부탁드리
상층
유권자
##난이도
저평가
##서로
##통치
머리색
벗겨지
부설
##편성
혈관
암묵
코스모스
사이킥
gu
후후
사이클론
let
##욕장
문고
툭하면
에그제
슬로바키아
Aut
근위
##설수
##lex
순전히
줄무늬
우체국
포메이션
광부
숙박
##크로스
##UD
##무소
라이덴
대리인
NORMAL
단호
생리
세인트루이스
선샤인
짝퉁
##고속도
요르단
자물쇠
중화기
전광판
When
빈스
연마
##캐논
조만
챔피언쉽
매크로
실물
질책
430
마공
성북
스테이크
any
기대감
튜브
역적
출진
한큐
트롤링
보류
고온
인턴
치타
Park
##연습
##발사기
수사관
강화판
친일파
Single
귀속
돌려받
##BY
어썰트
손길
주변인
들통나
여차
검기
사각형
##티뉴
코스모
장시간
##리프
나츠메
부록
##36
주선
프로페
숨결
##로라
고드
데우스
미우
똑바로
성물
스가
Who
Esp
방아
한순간
추격전
EXTREME
play
가쿠
##미트리
##lection
신해
오미
완승
일면
##onder
중수
쿠폰
불러내
반도체
PG
서바이버
Hi
보성
##란스
##anger
가온
고야
페트
바루
별장
용왕
##gy
정발판
##대미지
정상회담
배너
##샤오
##스테이트
대영
멱살
신노스케
카니발
##여성
##48
필기
무함마드
대련
데이지
##세요
##다이라
실컷
카자마
냅다
민속
순회
홀수
동시대
치과
헌병
##안보
신탁
골격
동일인물
타카오
Feel
사하
달려드
새턴
셀레
##껍질
트리니티
min
신뢰도
거처
야요이
중용
프렌드
샤이니
##상인
하야테
장자
Du
와이드
##건우
##raft
성배전쟁
Album
Je
숙적
타지
수식어
mAh
##스파
백웅
년형
카카
JYP
만개
명심
서산
##리야
가늘
뒤떨어지
서강
이견
파헤치
소프
어쩐
서신
을시
카디널
조건부
전국시대
##RO
##ONG
무례
서슴
프리퀄
다리우스
##카운터
체이스
##이익
Cal
Mix
거하
워치
ap
##대역
##어어
경원
구마모토
어쩐지
금단
성매매
이효
환장
##태격
hp
우사
무서워하
des
차츰
개중
뜯어내
생식
Inv
나돌
의결
전조
격분
매춘
양분
개머리
기증
입상
팽팽
메이킹
수양
향신
이상일
담그
인제
##사원
##의미
시속
##소수자
수학자
SNK
리시
소외
##98
##펙터
레베카
##ya
보살피
특혜
red
##미군
WWF
손대
조반
표류
데스리
Ret
##연료
아틀란티스
우치하
Hero
피렌
Kim
확진
##주석
도넛
비룡
##천년
##비슷
낙사
린치
백병
##글러브
천자
헌정
미트
헤븐
고체
마커스
티격태격
어정
##좌상
##ations
조성주
야유
펠릭스
Ult
QP
##부치
236
애슬
은혼
지저
코만
근육질
출토
독소
흐트
##ouble
고영
수전
자객
학창시절
굳건
방콕
감찰
이클
유키노
해안가
닛폰
열전
껴안
놀러
##유도
##섬유
##뚜기
다이노
금기
몇십
번성
에라
##ball
버라이어티
실권
진중
Blood
한복판
지효
자판기
Fun
some
##공포
은근슬쩍
뒤집어쓰
##카가
특공대
감격
스투
어떡
대장간
윤석민
STA
##공자
독일인
이광수
KE
래스
마운틴
속출
##백호
부전
치토
공소
##수비
##uture
Sol
개요
하드캐리
서큐버스
훈련소
계책
요절
이연
저상버스
광란
무전
백설
##반지
프로입단
금세
캔슬
##eck
복면가왕
를르슈
장화
##vil
꽃잎
이바라
평온
##렌스
##질서
##클라
##틀린
주민등록
need
어선
완주
이라든지
아코
Sweet
베른
어르
클러치
전소
##외버스터미널
010
경제력
동맹국
동산
재무
##연금
##eek
모차르트
승승장구
##회로
##관총
##어머니
##신호
발사체
##ocal
주둔지
KBL
Ag
비오
##웍스
아라비아
매혹
종파
치어리
한문
##미안
로켓단
##ather
자서전
엄하
Val
공표
명계
Tech
##사쿠
##TC
몽환
혹독
한국철도
천안시
큐트
##허가
나오미
완봉
컬트
##풍경
순종
요령
265
이윤열
##메테
##명은
들이닥치
도네
타깃
##포즈
아오바
CBS
꼼꼼
마일리
넷플릭스
앞부분
테두리
전범
##레쉬
시티즌
시게루
설리
미쓰비시
걷어차
유괴
한나
##펠트
##닷컴
세이프
뭉개
빙하
아이덴
가성비
창세기전
Say
브뤼
하룻밤
야가미
왼발
##HN
마음먹
유니버설
야권
운하
횃불
USS
나성
허드
흉기
물리공격
나카지마
스태미너
돌이키
##간다
##ANCED
개머리판
##arth
탁구
##태현
3500
끌어안
악재
##천왕
그랜트
강급
세피
##검찰청
저격소총
거너
구위
성운
한없이
원안
제이미
저축
하로
##타라
Def
최준
원내대표
난데
안영
앙상
##키드
##onna
510
Space
땅굴
비평가
언뜻
왕권
쿠레
동시치
802
모하
##우옌
릴레이
232
루트비히
양재
##테러
개전
설날
노련
료코
여제
위그
##팔이
극하
모치
피통
희소
격납고
기색
선량
쿠리
##하르
반년
세네
스스
##34
them
불륜
작센
Beat
바래
재탕
초만
##ours
속죄
##구라
살육
아제르
위저드
포구
##호가
플라워
체조
최승
##지상
규슈
##타니아
미적
##글라
앙쥬
##서원
무예
문인
일제히
상디
흑발
##특성
카부토
her
스루
에델
테루
마음속
만연
이석
##기반
##구석
산산조각
풀어내
에이브
전화번호
시트콤
기껏해야
그늘
대항해
내던지
빗대
성소수자
이니시
편향
페르디난
통통
##ena
르블랑
브렌
츠치
모탈
해부
아오키
##hammer
규어
백경
##형사
진명
최장
종료시
WORLD
##보통
클라라
국한
들이받
변칙
##환자
토사
훌쩍
640
알렌
사춘기
밀리터리
공과
분양
피에
공식전
Orig
메릴
##ames
노리코
제각각
가우스
봉건
ADVANCED
롱노트
얄짜
음절
파탄
희한
프랑켄슈타인
##입자
제네레이션
근교
초필살
검색어
중형전차
GC
것같
몰아가
##루크
시범경기
체이서
봄버
지브
스트롱
하루히
연쇄살인
루팅
로드리게스
합숙
내려치
포도주
염증
##지식
로빈슨
백년
족족
포박
풍습
인위
##가량
Dest
태반
폐인
동떨어지
##특집
##헬기
지원자
득점왕
명예훼손
제이콥
Mac
샤르
플롯
불명예
사파이어
##원숭이
누비
얼른
##레온
미니어
LCS
일렉트릭
맥도날드
다던
미우라
부우
##ement
##thing
통솔력
슈리
팔아먹
관내
테드
##베어
배럴
협주곡
레드삭스
향신료
스캇
숙제
엘사
##광주
과거사
주저앉
Zero
비욘
쓸리
앞머리
외동
중등
##죽이
!!!
LOL
사들이
##티모어
사무총장
스콜피온
대의
안착
##rough
하드모드
반열
에노
외할
##aid
##촬영
화순
##공인
동일본
총체
스트로
이적시장
파라과이
에디터
강북
엽기
##ways
서스펜션
년제
쿠루미
후사
##시인
히데키
칼데아
민병
베네딕
##리스타일
공모전
GOT
넥스트
##해양
니콜라이
##무성
뒤따르
한테서
산림
시우
##수행
성화
한류
플랜트
밀짚
월말
팰리스
##마의
길가메쉬
Story
다케다
못보
은둔
친왕
##태평
카나코
305
항일
금정
스핏
##활성
사일런트
열강
홍련
계약서
325
바르샤
태권도
she
심해
##세이버
교원
혼내
메모리얼
PERF
담보
격변
린다
짝수
##워지
Home
파충류
##DER
##청구
독창
루디
이비
문예
한시
홍차
##UG
아스가르드
달랑
유품
##ta
##라니
관왕
세인
충당
시급
##카메라
와해
##ano
프리랜서
정근우
이부키
뫼비우스
밝기
장이
##반부
##느러미
로지
마방
이용한
일상생활
목장
오소
##티카
##주식
다는데
-!
번쩍
투지
##분열
##악관
깨뜨리
타사
후추
##une
##시내버스
##so
불어넣
KC
가열
걸스
명제
이슬람교
견주
명절
##상어
##계수
면담
사보
##동사
더욱더
린드
프되
##피카
프리티
Ry
노다
##ait
##ANG
연장선
정형돈
왕정
스프레이
NASA
마자
웅장
쾌적
이사벨
수호신
양천
자오
스크류
이모티콘
꼬맹이
뒤엎
##배상
자초
IBM
몰려들
번외
치우치
덴마
떠넘기
조나단
##도현
제라툴
마검
텐션
##구루
금천
Japan
클라이맥스
리브
미상
Stri
미스테리
혈압
##덕이
덤블
등장시
스타킹
혹시나
치환
공격진
미타
물어뜯
듣보
##하키
묵묵
읽히
교외
##화가
##그럽
아카이브
기요
단국
티르
클로이
친숙
##self
둔기
장영
개인차
미야코
굴절
발랄
##err
이경우
로밍
##리케
단의
오정
사이키
제련
##매기
##인력
마이어
MAD
사이코패스
종업
치아키
연막탄
겐지
굶주리
포뮬러
괴로워하
못가
증진
기념비
포세이돈
##bal
##회피
참호
해인
##시각
다이애나
기념일
강민호
Hel
마구잡이
인디애나
신재
차오
크레인
엔딩곡
레비아
웨어
미니건
Lee
##ASY
Fight
안대
##상담
##바이잔
리얼리티
유가족
부대장
셰퍼드
돌발
머큐리
코앞
간수
고척
왓슨
집게
호루스
##ML
관례
올레
우한
학회
에그맨
피렌체
Bro
Gun
bit
자그마
현저히
##규정
임정
피의자
피아니스트
함부르크
##스쿨
##양식
##디드
절실
아라시
금수
##ands
고군
분광
신야
앞당기
국립공원
근친
기형
##신저
아키타
두배
줄리엣
탄산
##특급
아이덴티티
##코믹스
Young
BLACK
##jo
생소
##arm
엑스칼리버
토모코
오성
이하일
경계선
AAA
ph
래디
아일
양평
잭스
##종점
##TER
자기소개
이번작
에비
허정
##대성
Wanna
##치원
Champion
실린더
운수
수학여행
철구
판례
코피
##65
##잣집
SUV
뒤쫓
섬머
정보통신
##iful
암속성
##플린
프로세스
프리시즌
고비
폭망
아키코
예선전
Pla
선호도
호위함
로미오
수모
수렵
알려주
장발
##light
유흥
조예
229
243
##osh
##바라기
환율
개최국
군마
네이트
사나다
노보
전압
파피
##바이크
남해
시커
##놀드
##elie
디셉
선상
세습
금빛
김보
조선왕조
김우
양양
잠자리
##브레이크
돼지고기
페널티가
딜런
사체
안즈
총점
##토프
코일
컬럼비아
의미없
마사토
DL
##이라
무리뉴
데비
이클립스
갈망
신스
폐교
660
페이퍼
박진영
방수
속초
칩셋
##인증
##브리지
737
순례
중국군
Storm
하야시
##부스
about
오줌
감명
부사
##데이터
쫒아
잔잔
##소송법
남궁
상반신
평야
##세르
##윤수
아사쿠라
##ortex
NXT
경기관총
##슬로바키아
다분
레니
모태
브로리
DIO
시공간
특수효과
중앙일보
서초구
이홍
625
정준하
물류
붕어
얌전히
유희열
MIX
기폭
##다테
##세라
오르카
Pa
뒤돌
연정
Kill
약혼자
EL
IEM
제때
##공산당
단결
왕세자
원료
장난치
노노
##여대
매매
이산
이무
##eter
양현종
과부하
인플레이션
##경찰청
갖가지
클럭
##절로
560
괴짜
황천
송곳니
볼티모어
슬하
위축
피츠버그
Jo
TC
양조
재기
짓거리
##하자드
부포
선취
급소
신예
실비아
주무장
##베다
프레드
블루윙
##여자중학교
sec
디스코
SUPER
월트
직사
##메트로
##lease
;/
마츠다
##바꿈
##군데
세가지
2400
Friend
김홍
##쿨루스
자연히
우선순위
다굴
##트럭
식구
역학
##업계
##호르
클로드
##햄튼
XBOX
궁예
지적받
클레오
유형문화재
타케우치
위자드
불량배
거란
다우
펌웨어
##피스트
호평받
포터블
아제르바이잔
Line
##ume
크리쳐
Warhammer
공구
도하
에밀
옹립
가희
디케이드
임종
저음
##ines
264
도키
콜린
##77
There
퍼레이드
아르타니스
존기
##창민
##쇼핑
##리카와
용족
구루
##임새
프라모델
바퀴벌레
전경
##ATE
다르크
FS
불굴
약초
come
구기
라울
비야
에볼루션
나오토
게임오버
their
마리나
돌출
##라인드
정상급
목격자
익사
##OK
##전문학교
고압
모색
동백
자동변속기
내치
맥크리
##바타
##통화
##ene
실격
사이렌
슈퍼전대
이재명
통치자
클린턴
제니퍼
스피리츠
조종당
페르난도
상병
여객기
힌두교
권혁
그릴
로자
질럿
##ral
##한국
##장미
League
태극기
백종원
바드
의인
흡입
가격대
합격자
그리워하
심볼
이븐
트와
##연주
##렐리아
ATM
끼얹
이덕
지겹
##가방
카나데
가차없이
##일라잇
res
승선
파나마
##카도
콜로세움
##나비
##자위대
아카츠키
에스토니아
밀짚모자
사오리
방탄복
EXTRA
세바스
월광
입각
Road
대덕
심영
월화
Apple
디메리트
ma
바로잡
Green
병풍
공격대
체코슬로바키아
심부름
끝마치
반신
팬카페
##토쿠
765
스나
야오
조병
증식
지평
키무라
국외
하즈
ㄹ지
맴버
변속
국사
손잡
이런식
##교통공사
버즈
퍼블
올라프
봉화
포자
##어족
들어맞
김학
출연작
피스톨
미용
음파
카푸
##차드
사단법인
##격투기
고트
##유진
교량
남주
도살
묘소
배당
양의지
위드
육아
정시
윤지
증차
집어던지
도가
돌고래
명동
편차
##지간
##zz
원정대
##ODE
브라더후드
템플러
코우지
아칸
피콜로
명실상부
토토
##현실
볼프강
##und
Intern
총수
이케다
##수아비
각주
본대
##체어
##항모
세종특별자치
없음
##ORA
블러디
다네
메이트
세리카
GE
지질
호적
303
이방원
은인
남자아이
러시아인
국토교통
금곡
슬럼프
쟈니
251
수치이
컷신
포커스
슈퍼주니어
김남
몸값
살벌
중앙아시아
Death
청혼
카롤
##공용
##분교
가관
로어
##utiful
Tom
래리
찬란
트와일라잇
##캐피탈
케이스케
공용어
볼리비아
net
뮤비
레트
아발
도로시
데스노트
노하우
최전
##마음
학명
##ha
Dead
메갈
##정령
##베로스
계몽
##신성
어야지
##VEL
얼터너
NATO
순발력
AO
SB
다오
옵스
차고지
폭죽
253
교활
아라이
이한
헤카
##던스
##대결
베가스
황녀
행각
허수아비
카모
##루루
르브론
##로니
##ible
김응
도카이
이불
헌트
##PN
구이
두어
316
건만
침범
서자
##INAL
오블리
유네
끝장내
펑펑
피어스
우라늄
고딕
##이기
등록금
레그
정민
##림동
237
수여받
Champions
노기자카
받들
비닐
지네
카제
NV
디멘
실례
약품
람보
죠셉
##석탑
일대일
게일
합스부르크
보물상자
벨라루스
Del
수두
이런것
1896
알렉산드르
거주민
-,
뜯기
."
낙태
업글
체면
239
숲속
##학사
도시국가
내신
윤회
원동력
통폐합
##rol
연산군
TEAM
완력
긍지
동두
염기
하피
꽃피
말뚝
쇼케이스
완투
##마차
##루냐
##빙글
지니어스
부착물
화합물
탈락자
명지
##청소년
##AF
지방도
평일배차
래더
##토의
냉철
바운
후리
##추진
건달
부기
여름방학
지난해
더한
##치우
##강하
제천
황재
페널티킥
##할시
프리드
스탠리
스코어링
가위바위
Mal
Que
##담회
##END
미나모토
억제기
결속
가락
성악
중퇴
##수용
##법관
##외교
어웨이
프로그래머
총학생회
가뭄
내비
라리
바가지
애원
자습
##언어
니까요
460
마성
분실
##해지
##피디아
아마노
옆동네
옐로우
유이치
낙동강
충신
어정쩡
제동
한니발
##툴루
목욕탕
내포
버서
안팎
쿠보
##편의
곡물
투자자
쟁탈전
평시
후타바
로건
##가짐
스타더스트
사토루
모성
테디
hats
뛰쳐나가
<<
허접
##리크
하세가와
궁중
##관념
##참사
반반
하네
월드시리즈
아카시
예비역
투혼
포츈
##경로
프리덤
노장
로니
도핑
##루프
##갈색
호시노
미겔
소고
정오
아사미
남방
황산
##메타
##설계
##uss
##OUR
최진
보조무기
루시우
명인
명치
경영학
사념
##가면
타이가
그레이브
김상수
오레
성단
청각
품목
EXPERT
가계
구룡
북경
##상하
##84
##협상
엔도
패전투수
우와
매뉴얼
##식스
##볶이
게이츠
껍데기
##바바
##네시
도자기
만신
무토
##메이지
##oup
DH
##혁신
주말배차
우투우타
##vy
베로니카
모조
안산시
앤서니
흑기사
분대장
응우옌
초계
레이브
OC
김문
발도
워마드
성계
탄력
##회계
##광이
한겨레
Full
정훈
##구려
룰렛
스사
##ental
##그린
Pass
효고
힐러리
헌액
##장사
끝나기
아우르
급수
해트
##자본
사카키
네스
##르스
광년
요츠
hatsan
XC
백악관
이리스
축구부
깨달음
덤벼들
바사라
##노조
##양구
1895
빙글빙글
노화
##??
골문
영정
호크스
로맨틱
종식
차원문
유대교
곧잘
푸딩
##국사
니시니혼
의기
##사이저
콘스탄티
TSM
아샤
인플레
타츠미
브리스
유투
문화체육
개찰구
김시
소굴
권력자
아우구
시그널
다이너마이트
교화
##파시
##ily
보좌관
쌍방울
위계
의구
황인
##괭이
##푸드
아르테미스
역도
아키야마
구덩이
##메드
무법자
디스트로이어
##오미
##니언
마이크로
피셔
무궁화호
대함
필리프
솔랭
##귀신
닥터후
가위바위보
쿠우
프롬
##로얄
##시르
Tra
혈연
##aser
WCW
농어촌버스
보헤
Games
영유
징벌
오열
##ground
계룡
고프
프랑스인
히로미
아서스
##스트럭
컨트리
##모음
##심판
벅스
아재
원만
##밍고
인천공항
마네
떠다니
웨스턴
242
##에이고
하구
##문명
##낌없이
잠재우
손견
첩자
##가쿠
##OSS
클러스터
전구
콜트
501
새천년
세분
뿌리치
헤드폰
대격
키프로스
레전더리
듣보잡
Set
기와
불어나
244
레일건
고층
나약
호타루
고창
느슨
##사양
구매자
충청도
두루마리
상고
오명
직렬
##언론
당내
떄문
샌디에이고
명맥
신영
탈바꿈
앙상블
나니
##남동
어찌하
자재
번주
##UND
left
헬싱
환관
천연가스버스
고귀
만화판
신대
정규리그
사루
상트
육사
##awn
구내
풀이
FT
블룸
헤지혹
데프
분투
웬리
##에나
MAN
모사
조부
펜실
설치류
포이즌
방아쇠
##레마
##포역
조셉
친족
##테라스
들어주
##탄불
##ormal
변호인
세종특별자치시
OT
사토미
의구심
Pack
가발
포옹
##메오
연기대상
GAME
오두막
per
##연수
난데없이
IR
독주
랠리
샬럿
SKY
MUSIC
안건
##86
로마군
##ttack
잇따르
##에미
알렉산드리아
양팔
협업
##영장
수십년
##드런
다이렉트
놀림
박동
세비야
왜구
청문회
투창
##74
Mad
부조리
대통령령
파란
##길동
##IDE
정신기
카이바
사냥감
sw
율리우스
황룡
##크림
취소선
명상
뿌요
연행
##ISS
원통
패러독스
개원
러프
볼일
왕창
한여름
납부
유파
##조부
##몬트
모모코
모나코
기약
둘리
##gg
공산주의자
공의회
##ider
피홈런
프로레슬러
김봉
바닥나
순화
사샤
예견
황교
##이전
##갑옷
바이오닉
루니
벽화
##버러
콘스탄티노폴리스
아키텍처
행크
클래시
호르몬
##파일러
히로키
수목
옆집
##전개
대도
삼가
페널
연장자
브리튼
강공격
오코
저편
캡쳐
##맨서
무의미
숙부
풀네임
##직전
##벌리
530
후원자
눌리
모기업
밀수
##턴트
모란
분단
유주
티아라
판도
풍미
탑승자
방과후
pop
갈비
도화
안락
세르게이
백병전
Ah
방한
##스톰
샤먼
##표시
랜드마크
두사람
하산
우에노
long
김장
위용
초메
##충이
##루아
난도
적외선
충무
##연도
니지
위급
켄타
관행
신경전
불곰
아제
천대
##leep
관계없
##OWER
표지판
라즈
##상업
##헤임
와이파이
년판
미행
트럼
##종목
태아
노무라
246
wanna
모선
비겁
쉐보레
슬러그
아시안게임
##라르
##천면
선구자
기정
레이트
이국
풍요
흐지
##워키
##ouch
SDRAM
활용도
주춤
호대
크리스틴
into
실기
##효율
모서리
프랑코
##ESS
선점
이회
배고프
바르샤바
Bet
Long
경산
양각
##톨레
구세주
위법
혐한
무기고
농성
퓨처스
##대우
주희
승자전
op
단수
시즈쿠
왜냐면
권속
저절로
토크쇼
낙타
속아
주점
##onic
쳐들어가
김광현
부팅
소말
피스트
##디온
##노동당
하체
254
스트레인지
##민정
오토봇
##오거리
##클레
동방신기
정찰기
유구
칠성
춘천시
텐트
##마인
촉매
##ience
은평
달리하
이동한
불상사
입석
후우
갑작스레
치어리더
Tem
락스
밸리
번들
##매장
##글자
전투능력
빠져나오
우에다
유린
학교법인
아즈텍
백석
조련
강압
미츠키
세터
재생성
##ology
미도
압수
##기일
##빼미
격발
코드네임
워해머
천차
##yo
마스터즈
카르타고
GU
안달
운행중
##프레소
브라이
열도
전근
동진
원군
어르신
성불
겁먹
남다르
머나
솜브라
시립
##와트
배정받
우스갯
크라이시스
백두산
에콰
차고
##키즈
##그레이
##reet
Step
시즈오카
코코로
Glo
알버트
헬레
##비츠
성폭력
은총
번안
##미래
##퉁이
##렁크
MTV
##들러
##테온
아우라
코퍼레이션
두세
휘발
##저곳
NR
발자국
요제프
##정비
##네시스
담장
도산
조준기
사운드트랙
##합중국
파워풀
흐지부지
연꽃
장작
##외과
been
NMB
;,
Dem
단기간
시프
재킷
##달리스트
##하타
##코타
활동량
려나
크툴루
아키하
서투르
윤상
보안관
뒷담
NCT
1080
유토피아
걸어
초조
##화재
고군분투
나진
물방울
전륜
핵폭탄
watch
아구
어감
데바
##사토
##ting
이곳저곳
##box
변기
직종
##규칙
결정력
바이오하자드
묘비
민망
허준
##iet
##꼬박
노동조합
만담
미흡
북아일랜드
사옥
산란
한글명
구축전차
샘플링
수교
아그니
십중팔구
Ele
다람쥐
울릉
원가
초빙
##꺼이
USA
맵병기
창법
비주류
오피셜
AH
폭락
대표곡
꼬박꼬박
248
##ots
마레
치료제
그지없
청계
##get
##illa
후렴구
취역
판교
프리메라
Brave
개소
금물
까칠
모니카
폄하
##각성
말버릇
분식
서귀
오펜
제이드
이동통신
엑스포
비스마르크
공생
라프
에콰도르
nm
버크
브렛
##연재
##과학기술
헤엄치
박승
상록
##br
##이스트
지금껏
여대
##마기
스프라이트
뛰어가
세밀
안방
##시어
보이즈
쿠사나기
주유소
TRA
규탄
노년
스무
사회과학
슬라브
VI
bla
싹쓸
카오
쾰른
크레용
Level
계주
##비율
안티오
누스
싸그리
##za
미니앨범
마주보
다짜
Chap
666
Her
##데모
거북이
막스
남색
306
요코야마
배수량
대대장
등대
러블
적의
제위
##자매
길티
시영
반대파
래빗
##전화
##32
맹독충
유네스코
알래스카
쿠웨이트
##목표
가져다주
##ander
메이크업
nb
괴뢰
근소
다승
신변
효자
쿼터백
토도
ATP
시발점
톡톡히
ㅓ요
성관계
속칭
연어
핵융합
박지성
질타
쿠페
##제철
##GP
파이팅
메사
코로
바오로
System
##잡히
브루노
Cortex
리플
##성당
개발진
킬로미터
고졸
##토메
Call
총칭
##쇼크
285
박찬호
툴팁
Key
##정기
유키코
반찬
에뮬
##대포
남코
위선
사카가미
워페어
졸지에
##mas
##상사
거듭되
동향
얼터너티브
커널
포르쉐
Spe
MOV
박씨
스크랩
공손찬
김강
빗자루
##바둑
김재환
잠적
##테리아
이신형
소각
##트루
블리치
충실하
통조림
Ant
유목민
디멘션
##미더
인도하
##IAL
디바이스
시라이시
망신
미연
##조판서
스크린샷
Direct
김건
촌장
히브리
##브레이커
뉴저지
애벌레
20000
##방어력
부잣집
적잖
##드기
Stand
차질
##파이브
코만도
눈알
송이
외화
조광
생각없이
미켈
천성
##젠더
소행성
순천시
##노지
##노버
나가토
ah
재물
##평동
LPDDR
부끄러
Mil
모어
외로
탈영
##전도
트루퍼
역부족
울타리
##화폐
카나타
레퀴
위너스
##방해
##enn
송파구
GA
증축
해리슨
군용
신인왕
소림
촉한
##공세
지만은
외주
황도
##서구
Cha
테크놀
인조인간
po
넘어뜨리
신천지
크나크
##ense
다키
카가
이스탄불
안내방송
오지환
Mer
총검
투옥
##촌동
전기톱
실크
코바
리더스킬
##운동가
도난
##도끼
##94
게오르
잠잠
컬링
팍팍
##씌우
과묵
말단
아데
양정
##익스피어
민주공화
성대모사
네크
오반
재량
태초
호버
##WAR
##펜서
엔비
연구생
솔로곡
##OTH
North
구토
발당
불시
요가
작자
차징
##ied
공격범위
247
이리야
재수없
Eur
##설명
##현준
기꺼이
철원
##ka
##언니
극명
이바
코타
현세
종업원
모여
카디널스
et
라오스
신혼
투수코치
미야모토
트로트
Gener
##랭킹
한국방송
애슐리
주특기
LB
굽히
헤치
##시록
탄자
980
머나멀
세주
기업인
Die
LM
고글
광역시
이산화
아이파크
take
패티
푸치
승마
위스키
의복
팟캐스트
##기니
##출소
성의
펠레
##고짜
##연합회
BMS
김미
양복
##쿠보
점심시간
거들
##뚤어지
다짜고짜
##합격
타이머
EASY
재결합
##에타
키쿠치
##자라
262
color
성산
유년기
밀워키
김연아
말려들
브라이트
블랑
구작
다물
재편
##레터
##ILL
포톤
##ki
전자랜드
소니아
실재
칸자키
토리노
HKT
광교
뉴턴
바벨
##네코
에인절
덩크
가로채
간사이
번복
수트
##손자
소프트뱅크
재우
정액
프랑수아
TECHN
나연
패망
결정타
보컬로이드
박석민
리그베다
하루종일
음주운전
Mel
Mnet
그렉
화살표
이양
주니치
편파
카나메
리로드
키타로
골치아프
도안
호밍
걸어다니
던데
자일
##외국어
##롭스
##생명체
피쳐링
기나
난간
명언
열등감
가샤
레진
황궁
마일리지
백발
브금
##금액
##에프
마법진
정신줄
무라카미
가쓰
세손
아지르
왕도
##ove
##개미
##스티아
플루토
Hell
초밥
유틸리티
자하드
유세이
직설
##페리온
Heaven
토가
##my
기조
에스퍼
크래시
##시원
방향키
실록
에니
##치히
비잔티움
바운드
한자어
레논
##키오
몰아주
로베르토
헤르메스
카리브
유유히
설원
연두
회관
##세어
레이코
개사
다급
맥아
수프
특수기
##정상회담
외로움
징표
토성
판독
##ents
분당선
Port
UK
망언
미소년
을까요
전시회
자궁
짧아지
픽시
470
제퍼
프로텍
뮤탈
흉노
##연산
##더지
무기력
발진
분지
요도
전고
사이온
cr
로데
리마
문하
외견
아나스타
##태평양
뒤섞이
아놀드
요요
출소
##St
번역본
##쿠스틱
마땅히
한라
##go
##구로
308
무용지물
레오나르도
노을
징수
##거시
일단락
알폰
일병
장창
홈팀
케이티
다라
옆구리
##면체
정신병원
색소
680
갱플
블랭크
시진
조계
판넬
##토막
##남미
##텔라
무적시간
체육대회
##군수
운동가
야마시타
금상
##흔들
동면
미주
은어
유탄발사기
럭비
야사
진위
퍼블리
##ember
알아주
슬로베니아
니스
항만
철제
##버너
jp
팀전
가족관계
간결
에미야
##전형
##구도
쓰레기통
놀이기구
수첩
제라드
지단
천리
아이린
필수요소
디바인
승조
Shad
카미조
공범
미디
부담감
일침
##일때
##무도
케이틀린
##체크
김유진
구라
사채
어류
적나라
##다인
##구매
##바겐
##분기
유의미
성행
주중
##umb
제조업
토모야
발성
아이패드
곡괭이
컷인
##베라
어윤수
ROX
최용
##혜진
차례차례
프록
##ince
변경점
Hello
##스테이지
프란체
경쾌
린네
이희
장지
특검
##IF
말썽
어쿠스틱
오기
##단어
케이타
엘리멘
dr
메이스
일루
프라이스
선술
약사
##친왕
그라가스
재판부
QS
미화
의왕
##미온
마츠이
!!"
구원자
선동열
밤새
카미야
서해안
KGC
추앙
Rep
객실
라트비아
소관
손색
##yr
타임머신
911
볼드모트
마누엘
마담
자상
키예프
파스타
##르르
본업
순하
##사탕
Lun
방주
##트륨
서든
숨통
위팀
카빈
평의회
##add
엑시
위압
탈피
##uth
공판
방청
토카
하키
해남
##지시
마르틴
단군
도굴
야루오
절판
채색
켄시로
##레카
포항시
레딧
장진
##va
교육감
동호회
셋쇼
##대수
다시한번
군량
문체
양날
직급
사무엘
파라다이스
레퀴엠
##어진
전투중
미합중국
하층
##프랑
##몰이
하락세
사이퍼즈
카트리지
알마
304
아르마
개체수
##ection
캘리포니아주
강국
비문
피사
##연속
241
인민군
미네르바
치즈루
잠재능력
명랑
##일비
페퍼
활로
강과
휠체어
이용규
베르나
단축키
침수
오사카부
다반사
##39
##진창
##망디
##ures
모면
의약품
필명
아이샤
카카오톡
로컬라이징
동복
앤트
##iri
황금기
디셉티콘
만물
스팟
상류층
보람
송지
RGB
적국
청자
##불사
건방지
참치
라그
사학
파주시
헐리
##ility
Fil
맛집
서일본
척도
한술
##커버리
##ates
김기태
Network
##고시마
##중공업
##본부장
발단
중증
레이서
Inc
1899
아인즈
Cup
에밀리아
##ELL
##irc
에스프레소
김성현
글라
내림
##나인
국공
필립스
망가뜨리
Mach
ser
색적
종용
풍성
Esports
디폴트
템페스트
호송
##요청
##테르부르크
드로이드
사벨
은화
##총회
녹스
##진보당
ZZ
##불복
##이벤트
손질
##aph
University
##가슴
##WA
구스타프
릴리즈
311
##ometh
가톨릭교회
섹드립
속국
##급수
##르디
Again
딱지
레반
문건
분담
연평균
##토마
비키니
냄비
밤하늘
기간한정
코스타리카
김사
네버
##역할
날라가
백상
##스코리아
총대주교
백야
삼총사
##조명
음악중심
##razy
look
밀레니엄
깨알같
사파
미츠루기
새정치민주연합
rem
##능력자
##마이어
바이트
##거슨
조종석
##ORPG
브랜든
##두스
소용없
공물
엿먹이
팬픽
참신
##공룡
메이슨
EE
본심
살림
울버린
젠더
##강호
스트림
자르반
##민족행위
모교
켄트
##귀족
##타우로스
아큐
역순
오마이
##무용
훈련병
골머리
노쇠
아와
아약
##자마
##타이어
인공위성
반역자
결집
레너드
신의
유럽연합
리벤지
파드
혼수
##대고
##아아아아
마동
박인
변방
빙그레
사이다
타카기
불릿
와드
웅진
일장
관련자
미니맵
꿈속
##공고
##비서관
##갱이
##atter
남양주시
대법관
Only
부사장
Burst
bet
몸길이
최단
##화장
##도중
##도장
##경력
후지타
엘렌
##자랑
mg
해롭
포스코
##가르트
##bit
##합성
##hem
LPL
Dig
육탄
##사제
수병
시식
우스갯소리
외과
원점
총신
운행시간
귀걸이
아드리
외상
자명
##램프
여신전생
싹쓸이
겸손
내지르
호모
##림돌
미노루
농경
벌집
자경
포신
##미드
##신화
장윤
황건
고구마
##AKA
짜내
Days
뒷부분
심경
알리스타
요충
패자전
##막히
##집권
좌천
차명
##레로
##세상
신명
탄피
##고치
##pm
##정석
후쿠다
오심
코그
담담
세바
소고기
타오
돌격병
입찰
##ether
겨자
소켓
저버리
##운용
##효소
최종결전
토리코
무수히
MiG
별반
씨름
힘드
##나잇
##TN
Winter
패퇴
히키
##ips
부적합
우후
##미남
재보궐선거
달력
돌기
싸구려
제타
노틸
셰익스피어
기나길
구판
단도
##지법
##사이더
##반장
##호마
##자전
출신지
사회학
디나
난관
내란
비관
섣불리
해바라기
은지원
필멸
think
점프력
기승
진홍
302
LF
ᆯ지언정
nbsp
동치
##피터
stay
야쿠르트
##LA
클리어시
타마키
안양시
드레이
리옹
Gh
대천사
불빛
피그
항마
쿠로코
브루클린
뱃지
엘다
그리스인
"...
와다
현혹
##츠미
마음가짐
유리창
교배
구명
부양
##츠크
한화생명
헤비웨이트
검정색
Jack
루시아
총살
##uj
##ids
김해시
광명시
IB
봉신
부트
센다이
제주시
천호
##관광부
능통
선종
수잔
히비키
##조라
##분별
걸림돌
구설수
로군
산물
박용택
기한
쇼우
##cess
##마나
##음식
복숭아
왕후
종사자
공략법
아약스
로아
살포
우니
코프
토와
##레스테
##imes
##unk
INT
어부
전초
점장
튀니지
##신라
이름값
손아섭
노르망디
국교
묵인
범퇴
쇄도
아귀
##하고
##교류
Va
운빨
잡아먹히
권투
문관
죄악
커크
커튼
푸에르
##코비치
Sports
name
차근
##als
경희대학교
아캄
에지
저스트
혼용
##소비
##급행
##주기
잠시동안
좌석버스
대명
뒷모습
##전드
##셈부르크
지역예선
##보통학교
꾸짖
인페르노
대방
문무
1903
굵직
느와르
속속
수완
삼성전
##마이징
틀어박히
공민왕
외양
번역가
집행유예
에스파냐
독고
들뜨
선착
보스방
엘레나
Inter
미스틱
유적지
WA
대망
제리코
테스
##주연
장흥
파밀리아
DEX
워킹
이간
##루이
따라붙
행선지
엘리멘틀
Kar
강승
송광
##먼지
가비
단추
엄호
##하스
##uman
630
그레고리
농림
빙빙
##베인
##주사
프리파라
천문학자
동그
머피
최태
쾌감
외교부
해트트릭
조미
##미네이션
Knight
조만간
House
너비
천년기
보더
송창
##아부
두들겨
사생아
강좌
당뇨
바꿔
2100
##뭉치
쿠미코
호신
##루카
파이어볼
퇴화
##거부
시그너스
music
바카
##수무
스패
##해하
아이비
##ald
아나톨
##하하하하
로페
픽션
##전술
악단
##XX
Wr
제아
가로쉬
깨물
올가
요네
##바니
##베타
##층석탑
##orce
연장포
보건복지
근위대
믿기
창건
자신있
아이스하키
오재원
민주공화당
노량
올빼미
##면사무소
##ved
##성어
코너킥
따름
헬레나
##시게
##신공
탑솔러
한진
비호
서프라이즈
##애자
슈퍼볼
멸시
보그
아톰
##부품
전방위
기니
조동
주세
플리
##캐치
경도
관성
매화
##밸리
오른발
원딜러
샌드백
GF
관중석
불씨
오와
전액
필리스
##마일
##타선
##론드
올림피아
밀크
오해받
바하무트
불의
자속
##세유
##ico
영등포구
디저트
순양
출입문
룩셈부르크
##리움
기아스
리츠카
iP
음질
##37
##식식
##갈이
발췌
샌즈
주리
##벅스
베티
성조
주박
피스톤
##단원
박한
인술
##오빠
프로펠러
둘러대
스레드
잔치
표범
##추세츠
##헌법
스타그램
##isode
환상향
데드풀
물속
##겨우
어느쪽
대열
설진
어다가
쿠르드
플러그인
Snow
니깐
볼링
순번
윤보
비정규
객차
##체험
##완료
##emy
카가미네
나즈
눈매
종군
##시아키
##REAM
CLG
에인절스
쇠사슬
##랄라
엉망진창
단층
신차
일류
무한히
북동부
분과
붉히
종래
##일행
More
다마
메신저
##행진
오리엔
##해석
속마음
거주자
##VEN
사유리
비등
##IKA
역동
##사메
아인슈타인
모의고사
##참모총장
초토화
분개
주상
타일러
포제
획기
저승사자
수로
신음
NCR
번번히
컴플렉스
콤플렉스
피규어
##인상
##마블
자포
##기름
미국식식
##테이커
구가
어시
증정
##lin
##게더
After
대첩
애기
노동력
##축구단
카탈루냐
다발
미개
##31
배달부
친정팀
몇명
제레미
초안
파묻
##버둥
네크로맨서
유폐
광주시
손아귀
어김없이
유골
짬뽕
##비크
were
문항
빼먹
일구
작명
회식
##기한
포르투갈어
은지라
##프레이즈
둔갑
판박이
##캐스터
상동
위구르
##적으로
##골목
근거지
웃음소리
바바리안
신시내
용접
원투
이나바
계약금
SSD
티타늄
버서커
달구
번뇌
블로우
mod
근간
보옥
포킹
수도사
약탈자
상원의원
Ice
타무라
관리인
니케
양수
##BE
##뱅이
스카이워커
사나에
조승우
처칠
초판
##ella
##공영차고지
신시내티
한바탕
##반짝
울림
잔상
쯔위
흥선
##배구
Year
##무가
760
복음서
중성자
장료
타이거스
안드레아스
%]
카이지
##관리위원회
구약
노사
뜻대로
조시
##표정
##카츠
김동현
알카
종일
펜싱
국영
남하
가나가와
오릭스
990
기하학
##가죽
##분리
카드팩
##플레이어
##스카르
환승역
xC
산요
개업일
적장
##실드
배틀로얄
555
안구
푸틴
핸디
##ori
아머드
이공
희극
나뭇가지
발버둥
크래
##fl
##분자
##듀오
아리마
나코
손승
##전산
##건창
책임감
보드게임
빈자리
장만
상당부분
##마이오스
골든글러브
경장갑
##시테
그래미
경부고속도로
진구지
윈도
중남미
##예스
##oph
him
마개조
##지정
##맞춤
They
Lost
고찰
리벨
모세
쿄우
객원
비료
960
도합
신형
핸들링
선승
##게티
도태
물몸
십이
차르
PPV
미팅
이해관계
점령지
네이션스
코레일
##72
여러차례
병자
##미노
크리처
~.
수주
원체
핫토리
흉부
2200
편집장
오키타
피격시
##글라데시
하야미
맥스웰
비웃음
game
접착
##아크
로이스
##아드
##덕지
우주인
마사유키
야만인
날렵
내쉬
##군인
Arc
감축
네온
이바라키
최민
미니어처
TA
막사
하청
##이탈
역사학자
불경
원주시
유화
에반스
드미트리
악녀
염원
재방송
험난
##재현
운영중
케냐
Under
반포
잡담
##발동
하루나
실화
의과대학
##기원
신통
영월
##방영
침략자
착탄
##othing
불계승
문제없이
바로크
295
부지기수
봉지
위니
로엔
상아
수은
승산
##성사
Rob
마그네
다이나믹
에토
확충
404
유키오
610
가독
덩굴
리차드
케일
Cur
귀가
##기즈
##요새
하복
##저버
##zer
차기작
내셔널리그
Mc
알론
양궁
태후
기저
##부림
정규앨범
공백기
dream
슬러
윤치
이시스
##잔치
공주영
Imp
비축
캐쉬
##....
소수자
경순
손해배상
부자연
라멘
방글라데시
열폭
##심리
갈아엎
Gra
메스
항전
##지명
##법칙
객체
동포
매월
채광
합세
580
못받
박제
병크
캐스
##선교
##ving
Anim
동양인
바빌론
png
역이용
바닷물
VC
흩뿌리
##더블
##ITE
펠리페
메피스
미야기
시들
철판
유키무라
고쿠
통곡
제이나
MMORPG
굴곡
네르
떠도
에루
헤일로
도무지
##YS
Why
질투심
수석코치
세바스찬
공언
백조
퍼거슨
종합격투기
간간이
수두룩
##자살
##히드
stop
위키피디아
##폭스
우에스기
무구
북서부
전의
조례
축물
출항
연합뉴스
##ARK
스크림
둘레
로시
수갑
##집회
요시코
##정보원
에르난
마유미
구금
보령
서고
##어사
프리츠
민수
다시보
대전차포
콩라인
##배경
쿨다운
##현역
top
880
##order
Kiss
발작
옥토
잡음
타란
탯은
405
##omething
요스케
해답
이라던가
캐치프레이즈
도면
반월
백과
색다르
성욕
윙어
추력
서울중앙
아마테라스
Spir
마이너리그
김범
단과
시니어
칠드런
##스킨
##거북
돌핀
찢기
자가용
술자리
열중
중기관총
진주시
##레이저
##그라들
Enter
고동
명색
몽고
순교자
유리카
응모
일신
사역마
빨래
에리스
##92
보스급
002
살라딘
도출
사울
코마츠
크랙
##fore
Secret
총무
홈플러스
##네사
vol
셔플
파시즘
겨울왕국
금서목록
분데스
##ㅋㅋㅋㅋ
뱃속
##신수
##손가락
국제대회
실각
이베리아
쭉쭉
유틸성
여하튼
길쭉
##파노
##선진
##조이
##WS
266
데릭
삼중
##묘사
##요한
##82
##마다
도부
매크
추가시간
쓰레쉬
영천
##INK
개당
블라인드
소질
언리얼
킬링
마의
피날레
현대캐피탈
미래통합
490
소말리아
HL
신창
Ann
헤비급
폐기물
war
보육
절도
##장벽
##ANCE
ACT
반짝반짝
TL
갉아먹
초장
캔스
##ury
소녀전선
침입자
라벨
즉흥
하진
권수
away
수축
오영
전업
애니맥스
두바이
방전
수난
보수당
FINAL
blo
역장
중파
##데일
오르페
카메룬
각광받
Pan
도카이도
마두
면회
박소
배회
코쿠
##규제
피부색
영통
급식실
테레사
뻘짓
샐러드
쟁쟁
중무장
##유희
기념물
자립
##반구
##린이
권법
온통
영력
유예
김대엽
머무
변덕
의논
강구
나이스
겨우겨우
딜탱
자릿수
##위반
##몰리
원탑
렌더링
##티넨
박성준
##자유당
공무
죠타
이리나
뺨치
스왈
##mon
##징역
##갈기
Roy
일일히
강수량
위세
##순교자
공격자
내력
블레이크
카키
##URE
SNH
Dan
걸프
디씨
라드
##사지
##본기
##뚝뚝
##꺼비
425
Reg
놀래
더글라스
얼떨
하퍼
##일자
1890
김주찬
알렉산드로스
결여
합성어
논산
저쪽
정가
##현희
IZ
반증
##Pa
포스팅
좀비들
Hun
Sal
카시오
현관
##수소
올리비아
신문사
blue
JB
청순
##디트
개인방송
Remix
속삭임
나일
재야
카밀라
ed
기민
드나들
서건창
##수요
##월드컵
Normal
light
피에로
##부호
문선
종신
함량
현저
스베누
대소
치요
콕핏
광신도
Vir
무참
항문
##규명
강력히
##aking
##일비재
떡볶이
비일비재
판자
##혜원
##리어트
세이렌
히데오
초심자
권영
라모스
From
영예
오대
의역
##이츠
Plus
도미니카
속삭이
대의원
본연
온리
##비례
##피크
자이로
보루시아
한국철도공사
Micro
되풀이
발터
토목
##부활
일본국
베이시스트
더럽히
주한미군
리허
##처치
아이기스
쿠로사키
공화정
매그너스
견훤
##소이
##잣말
현대건설
개항
토양
##단과
##실패
##워터
버팔로
쑤시
BEST
##강사
엎치
패럴
휘감
##이거
기대치
API
교통국
상서
이건
정품
str
무효표
창조주
display
Nat
종양
체온
변함없
보위
점원
단체전
데인
080
GRE
남주인공
반등
엎어지
하오
요충지
물리학자
정복자
크라켄
America
had
독신
은거
##막이
##럼블
지름길
승수
유타카
통나무
##부러지
##esh
세븐나이츠
슈테
쟁취
전래
증설
공수부대
HA
백승
제끼
한림
##짤이
Easy
맘대로
병실
스니
##스윙
서울종합운동장
PERFECT
add
화교
##릅쓰
레이다
악취
##잇감
345
시계탑
노틸러스
넥타이
보틀
신타로
거장
보로
석판
입김
아키토
By
LR
뚜벅
무뚝뚝
##ney
무릅쓰
미노리
손패
윤정
조쉬
005
JAP
고심
박희
안살
초유
아슈
양세
레이크
깡통
당진
혼잣말
활기차
매카
참혹
로마인
사치코
인스턴트
Dri
브렉
송은
을래
진풍경
환술
달리기
아오야마
아즈마
대성당
Band
##곡역
프린터
연령대
##케라
오닐
이해도
강가
##학살
##GO
##흐트
마사루
이민족
시뮬레이터
일판
사법시험
부풀리
영산
우시
퍼스널
XI
##38
아르고
습성
최경
하디
해리스
해결사
체육복
마포구
Ob
옵저버
탄식
대모
Ha
마니아
수시
##견인
##렁거리
전투순양함
810
영종
불타오르
바스티온
결탁
##차근
배신감
##erson
브레멘
공상
288
전태양
변조
후한
관심사
엘리엇
자작곡
비너스
의심받
##OLD
동그랗
가도
뒤편
여력
퇴학
강남역
오카야마
코로나바이러스
차근차근
Wol
무안
최지
##con
##우체국
차원종
518
설문조사
긴밀
전권
글로브
속사
##감염
구미시
슬기
재촉
참배
##음료
팝콘
하류
휴양
##수집
##벨벳
##득이
da
트렁크
유니코드
수긍
자만
고해
깔보
연옥
정읍
중갑
질색
##앵글
##대원군
주택가
들여다보
토에이
##동작
드럼매니아
톱니바퀴
또봇
##판결
##시작
PTS
만하
정산
##을리
도시전설
272
Fant
검투사
랑그
승전
업소
서로간
MSI
GIR
별세
15000
Series
임창용
산재
아브라
모녀
시코쿠
##칼라
##사이클
원더우먼
##체인지
허드슨
무턱
하긴
네이밍
준결승전
볼거리
이등
학설
조조군
780
would
억엔
##학년
경복궁
디노
봉투
사회복무
AJ
개소리
담아내
백금
색기
색감
성자
제츠
흥국
bu
벨리
부엌
##orry
야인시대
가젯
산성
송시
##클리어
기물
사흘
타개
##탄두
섹션
셔터
평평
베이컨
Video
사요
조씨
##카나
##치킨
570
신분증
어드밴티지
밀착
##천하
언더테이커
러블리즈
다재
소시지
원심
헌팅
고려사
왕자림
번화가
GEN
지터
##스트롱
쇼트트랙
단언
도플
##ublic
녹아내리
모뎀
소인수
부조
중공군
탐탁
840
세네갈
강진
만찬
역관
형체
##폭격기
복불복
야지
조엘
메피스토
미치광이
미제
봉우리
용기사
쿠즈
MED
도련
소스케
습지
탈모
##매트
1901
메기
##자신
모닝구
삼위
쇼미더
##주식회사
구걸
포그
##wn
##idae
네이비
룰루
토코
려니
신시
폼페이
후부키
연필
초승
국제선
로터스
##위주
##구청장
PE
브리티
키보
레드벨벳
소방관
OGN
머슬
속수무
안상
##타격
수원역
속수무책
라키
범람
트레인
##착륙
텔레파시
MOD
수서
##정차
##유사
##석희
##글러스
af
발암
의수
재력
폭염
히트맨
브리지
하가
##변환
##셔틀
코우타
염라
유모
유혈
재경기
쥐어
홍명
게임플레이
박사학위
1860
##결정전
가고시마
니퍼트
하노이
평가전
결점
땅콩
상응
슈우
슈투
##노아
401
생물체
감리
대주자
무투
어항
286
도우미
GIT
마귀
##와라노
##남매
##ato
다이고
판타스틱
UB
쓰다듬
조끼
##은하
##농장
수비대
SPEC
상급자
레거시
카카시
##조물
만장일치
맹공
티비
힘차
##오가
조선인민
김나
범퍼
실증
JK
xB
Force
상층부
대물
미혼
보크
원서
스테레오
학년때
비트코인
당선자
소거
시멘트
ACE
##ITY
도용
방진
하루만
상트페
기흥
에네
##사범
이경규
경례
박헌
SHD
머스킷
수훈
실세
응수
하운드
##우진
이치노
반문
재계약
화풍
##만별
1898
분분
페이스리프트
##ATA
ro
##MI
적분
탈진
##유정
321
연휴
##매일
주제곡
심상정
나데시코
일반민족행위
299
신세기
서영
연명
##동역
##ison
이사오
만주국
까맣
아린
츠지
시메
##농협
중앙대학교
평택시
아랑전설
기득
멀록
##점검
##이다
##댄서
격투게임
시마즈
수문
형용사
##자산
##umber
일그러지
환기
우주세기
시설물
!!!!
놀이공원
STAGE
620
이어가
아야노
변화구
과대
톈진
##hn
##스와
##해방군
몽키
##TLE
RES
누드
##미어
1902
Div
민선
군장
글래
리무
##시나
물의
싸늘
##베스트
윗부분
저우
태화
##스태
파우스트
기금
납작
보일러
즉발
지코
##전역
오가타
FK
문정
미스코리아
##주얼
##스크린
미츠루
세종대왕
정윤종
ㅕ야지
호문쿨루스
천차만별
아키오
Lu
소정
식칼
안일
레이팅
강의실
어쨌거나
역행
##리아노
프톨레
핑거
GITAD
년후
삭감
용돈
퀘벡
아자르
매개체
몸소
애도
자해
허점
##두고
##레알
##거품
##러붙
마츠리
시국
출품
희석
미드라이너
EF
갈릴
기뢰
예감
##가야
##관통
##코아
요금제
극후반
독실
수순
영화감독
성룡
재외
창녕
##관객
##게인
타쿠마
제네바
나성범
동당
태사
1897
KV
경치
정열
한국전력
강기
도교
이언
삼국지연의
헥터
독사
마즈
애너
일축
##토피아
다이버
##공급
##BT
##컴퓨터
파티마
과반수
심신
전일
##홀름
##파트라
MOVIE
소수민족
이철
정호
주신
중전
##뿔소
하나둘
작성자
논외
무표정
오호
Ta
달팽이
먹잇감
바짝
신룡
편법
폭우
희생플라이
##공용버스터미널
아차
자조
##다능
##캐롤
312
셋쇼마루
루주
솔플
원샷
##해튼
이동해
무신론
JAPAN
오하이
Future
공조
레이튼
##사업소
고루
숟가락
문제없
후지와라노
##발전소
데블
발송
##tm
##자민
die
접목
카봇
357
케이이치
boy
기프트
당도
##당선
##공정
일반공격
ZERO
미륵
산토스
기계식
스포츠카
상트페테르부르크
데어
채영
##amb
than
유투브
820
경마
쏟아부
힘껏
##보성
##셔리
모니터링
금광
중랑
##제공
탐지기
초전자
##스가
묵묵히
pre
애증
엘튼
자퇴
준이치
호머
블랙리스트
마르세유
장단점
기내
본점
코니
##자문
프란치
영기재림
하울
후크
##구모
합성수
FD
307
유병
힐량
##신학
##재주
355
쇠고기
영웅전설
현실세계
Here
녹슬
밥값
아파
자코
칼로리
하양
##종류
##북부
Fin
el
다느니
독하
잡아가
칵테일
Championship
명종
발군
토레스
##열매
ᆫ다던지
음식물
마나카
##영웅전설
Aq
마틸
소파
아리랑
이수근
무턱대고
cod
경화
##문화사
가우
달달
엉터리
왕래
코라
##소보
다운받
다재다능
군부대
##봉인
중공업
##탐구
애니메이션판
##경제학
der
박철
##극단
##irth
수아레스
도다
호연
could
고지대
수혈
태안
##read
335
International
문도
연약
열애
퇴진
##hed
결방
지구력
카우보이
리허설
고저
산티아
열연
자키
이동거리
2600
이즈모
문희
사황
아타리
##간부
알레르기
초승달
자생
채식
##odu
포르테
야나기
제패
##acy
Queen
까발리
하노버
##ror
항공대
두산전
1894
니라
등기
조나라
퍼트리
##46
##상실
Exper
김하성
티격태격하
대작
몇백
무인역
새천년민주당
계투
꾸역
정식명칭
폭스바겐
라칸
롤리
평준
##비에
파이크
유우기
최전방
규범
망나
석재
페일
국방장관
섬광탄
두통
말다툼
원기
##아떨어지
수정바람
카트바디
GITADORA
황재균
용문
축약
프톨레마이오스
##입대
##챙이
아이다
사이언스
노면
맞닿
맨션
호라
스파이럴
뛰쳐나오
선후배
간헐
쉽사리
특례
##나물
아야메
##메이카
드링크
장현
한양대학교
나지완
코볼트
남녀공학
오하이오
만인
틈틈
power
걸레
린코
웨이드
팬더
##모치
##룩스
미사토
메인보드
시비르
Pat
브롤러
하모니
빠트리
을지언정
Old
대서양
선단
역공
실사영화
헤이즈
##토무
youtu
골때리
세심
쿠와
게임보이
how
아냐
는데요
##ctor
패스트볼
스리랑카
Ill
절멸
안드레아
야나
##메로
##트르
사이언
불과한
적재량
템플릿
강백호
황야
##적거리
급강하
시이나
카코
##네이드
##달프
스테미
테크니컬
FOR
아흐
영암
진이
경찰차
부산시
아라타
스포르
수백만
지선버스
Mor
##계층
관상
급조
사계
앰프
옷차림
황급
##전등
##리르
##unch
아랍에미
사회복무요원
갱생
초고속
##아이즈
##RC
##엉이
레티
리워크
##바꾸
Look
BLUE
거만
벽면
시리얼
##iw
710
Work
금나라
멩스크
수세
함교
민주통합
pla
##호흡
##주체
##icle
소문나
하교
함양
##라이크
지지부진
우버
컨커
##창작
##iant
시바타
브레이브스
VT
유시민
최연성
끼이
다윗
정미
아나킨
모덴
장조
형광
##원리
##벤션
케이코
프란시스
시라누이
페르난데스
산티아고
매킨
호쾌
횡포
##오브
##왕자
미스릴
코즈믹
노론
인문학
##용어
공기업
JD
##도바
##냄새
이제야
의원직
아케치
아우디
아케인
앙코르
오치
수상작
아오모리
로또
##무제
계속하
데뷔골
##안경
제대로되
Er
Fore
Give
##비스트
리플레이
배양
상국
용광
##지검
##ces
자카르타
마킹
영영
화분
##펙션
##볶음
작품상
전국구
##스테르담
남경
미첼
폭장
드레드노트
로도스
##QU
등짝
재연
핵전쟁
##체가
교육기관
사냥개
누마
Dyn
두건
##페리아
ᆫ다던
세븐틴
카츠라기
스사노오
우즈키
피시
사이어인
무분별
자형
제논
##소식
일본시리즈
Cla
고국
지략
오클라
왈츠
##cal
##LY
##otion
금주
당수
루이즈
리보
모루
삼형제
상이
##els
주문서
청취자
Aqours
Ber
네기
매듭
민영화
스털
치매
##su
##러너
크레이그
피난민
암스트롱
##복귀
저레벨
##WC
거진
골밑
신검
을려
처우
##다희
유례
##연예
지원받
무더기
비지
심취
346
비중있
고속철
계급장
알로
##부쿠로
276
아스나
극단주의
고의로
레코딩
복서
여실히
정찰병
배드엔딩
er
베오
직함
Dav
브릴
소변
짤짤이
통장
끝나가
홍보대사
가마쿠라
오클라호마
맨해튼
진과
리자드
무쌍
토치
현란
후열
##레반
하코다테
슈타
에이핑크
아득히
발기
불복
영의정
판치
학장
##메즈
나루미
방통
타파
프라하
##지방검찰청
김민철
유즈맵
게으르
린이
명함
몽둥이
통지
최종병기
##ask
황금색
키리시마
그뒤
로트
속내
##제조
##집중
##ender
라시현
##스카이
더라고
뒷목
이키
페티
##언트
##빌리
유리코
강경파
사범대학
##정의당
장검
##난방
레이더스
##ami
마이스터
세이라
통행료
강풍
고상
복역
장강
참전하
시에라
퇴원
판별
##미리
이제르
클레오파트라
대죄
석조
스텐
ARC
Plan
np
동귀
수거
이근
점막
시르
애런
앵무
유강
##sy
##토바
동일하나
RNG
도나
선데이
##개치
##브라더스
여수시
어메이
타코
##처장
##덴부르크
온천욕
Fort
##바보
의미있
TFT
공과대학
레저
코랄
츠쿠요미
TBD
아랍에미리트
리지
얼버
직경
컨택
Player
더디
도그
루갈
슈이치
휴재
##전지
##탄소
타카야마
비스무리
##거래소
프랜시스
마셜
전량
키릴
호아
후세인
추축국
CI
불후
sy
센토
안지
인더스트
치욕
친동생
우치다
총독부
신해철
우진
타스
휴고
가디언즈
See
블라드
안데르
모모카
유니콘스
high
말싸움
오븐
전학생
##최강
##펑크
앤드루
방종
송환
태엽
##ular
국방군
인내심
데포르
명수
식감
유야
청도
##올라
비교적
가닥
건들
밀폐
아편
철폐
컴필
##유치원
##픽셀
##elieve
PTSD
반정부
예니
##렌드
특별법
이승기
모여들
대합
리포터
백동
심층
이마이
직장인
아리스토
안젤라
##호프
통일신라
art
MH
근사
방독
벤트
에두
동해선
WIN
남양주
당직
##SH
시간여행
까치
배재
비스타
으르
한껏
아이템전
미군정
만수
성리학
Sub
반향
불스
세개
파훼
신학자
얽매
쾌거
##서류
보컬리스트
hPa
낙점
비활성
사타
유실
아이티
Ever
장시
##그네
##라이버
가루다
아폴론
나래
이설
자메이카
##실신
##발생
INF
의정부시
퍼니셔
선악
술래
여고
치닫
##야구장
저장소
Dec
##만족
Another
말미암
Make
Squ
##사다
##보급
670
니즘
등신
세그
기어코
용산구
김부
김갑
총력
이랜드
햄스터
##tus
##EP
이정훈
키미노
당파
생도
258
트랜스젠더
탐사선
애드온
IOC
남서부
하카
##코이
##디스트
Wonder
강박
아레
어두
탬파
그레이엄
##노우치
막대기
CU
ml
반토막
보아
##분류
보호받
마사시
대중문화
##ICK
선제공격
매리
셀카
체술
##괴물
##현석
707
940
에프
완치
용모
970
257
중후반부
선의
후신
사마귀
무진장
경작
고함
과외
쇠약
파블로
Roll
rec
광둥
여과
칸국
포틀랜드
폭약
##itt
자연과학
385
야마가타
쇼미더머니
분탕
끝자락
네빌
격상
여군
##메리
its
벤자민
ㅏㅆ었
종착역
거구
관철
##꿀멍
APK
과천
둔하
무형
제수
효종
특수공격
주성욱
얼버무리
히요리
##정변
##버니
개인리그
고흥
어업
퀸즈
##파동
##운더
##합체
정신건강
뒤덮이
문종
핫스퍼
##뎅이
오토메
아우구스
브리타니아
끊임없
발가락
##필리아
은하영웅전설
개정안
무전기
상습
상봉
입안
##ddy
지급받
카나에
솟아오르
잡졸
전미
추태
컨텐더
##인격
배웅
연중
초신성
침실
##저찌
##아의
Ben
권선
로디
항시
전국대회
##미네이트
낌새
나팔
사본
숙성
포포
##질주
##심원
263
흐트러지
간소
뉴올리
밥상
글로리
얼떨결
San
위스
제제
플라톤
스모크
데꿀멍
군정
다윈
탯을
##개선
일리노이
심기
##민턴
##교동
##삼성
스포트
건너뛰
맹목
메들리
아탈
의용
##마스크
헛되
##티니
##멜로
아누비스
도원
소자
조선족
##OME
카네키
송은범
발걸음
울트론
루미너스
스핏파이어
알론소
낙후
박지원
화승
##93
##쓰기
525
org
발명품
도수
류큐
배타
자타
##드롭
지지층
LoL
미카사
넘버링
Card
깁슨
두고
트란
##vice
##재호
동호인
##크레
##버른
bbq
글꼴
##중력
어찌저찌
노블레스
Sea
공예
영덕
전현
하녀
삼성화재
왼손잡이
군청
이슈타르
셔틀버스
서운
에린
츳코미
후륜
유로파리그
스털링
공리
볶음
조난
천정
##인지
##side
##ellow
이승현
팔레트
벨벳
이차
토종
##판지
서툴
선수생활
아나타
스커트
류노스케
삼천
어인
소매치기
규합
총사
##컬러
학교폭력
아이카츠
Ko
도이
들러붙
사미
장합
주안
##니파
hello
배그
이교도
슈퍼히어로
코스케
어마무시
Mind
으세요
접선
출가
스타벅스
정치학
구급차
오블리비언
##카노
떠돌이
모독
에렌
국내선
후속곡
단시간
크래쉬
##결번
##프리드
더치
맞닥
밥먹
부차
샌더스
영연방
웨이트
##any
##hes
##ava
계파
대꾸
함종
오디세이
BY
떡실신
링고
알베르토
프레이야
비비안
디어
%~
떡칠
리콜
송정
질소
커티스
##베이니아
바리안
보주
헤아리
문화체육관광부
리세
자청
##투입
##연합군
낱말
액세스
피르
##공학부
김포시
비화
요직
데저트
순혈
암스테르담
##수선
##왕전
##참여
나가노
우승컵
##ote
##PGA
총격전
고강
위전
쥬다이
데프콘
펜실베이니아
문파
발끈
외벽
즐비
편히
##동산
매사추세츠
AGE
기입
당혹
메즈
미생물
##자세
##부담
##무비
구치
다잡
##브리오
번호판
##결사
하이데
열망
오수
730
브래들리
스탬프
Pal
단맛
반일
##form
영화진흥
마다가
미치루
요시히로
##드라실
능선
미요시
상계
실태
안두
에리나
와라
##양성
273
독립군
추진력
자갈
##뿌요
##득실
급속히
매카트니
Ra
등반
딴지
##연수원
꿋꿋
살생
신참
베이직
카타리나
전임자
지난번
아이치현
황선
##호시
라이프치히
득실차
스톱
가정교사
맥아더
소박
이색
하카타
시작점
연재중
-'
스러
일설
퀸시
##산부
##reas
토론회
고사하고
골칫
비르
##노예
민가
정영
카톡
포위망
요술
유표
나나세
공문
글쎄
조디
##출혈
star
under
마중
요마
##충돌
##제로
난조
자우
흥덕
##기타
수리비
칭송받
경의선
대참사
##코우
##ican
훈련장
주괴
최동
콜렉션
킨테츠
youtube
SPECIAL
황급히
화포
##ih
##령우
##ories
같이하
우주모함
공대공
진시
##천후
보이그룹
궁녀
참의원
##YY
9999
Beautiful
HIV
다방면
리빙
판테온
##티에
레기온
노먼
반야
벅차
신학교
좌회전
##테마
자유계약
방사성
오시리스
Emp
구박
수심
장렬
캡처
##작물
로케
상선
혈족
##oto
True
GSM
볼드체
국토교통부
복속
악귀
친아버지
##로니아
##역과
카를로
레츠
비취
인양
##ffer
유사시
알아들
yul
코요
##피나
동일시
아마네
박원순
YTN
앵그리
연유
이능
##우회
다크나이트
불꽃놀이
기네스
뱌쿠
이크
콘도
호감도
토미노
거룩
승리자
402
얻어먹
gonna
전반부
오퍼레이션
성신
최고위원
신체조건
벌벌
숱하
쓰시마
청라
공개일
생활관
##미술관
규명
##충격
##부기
영화사
##ollow
{{{#!
Electr
KM
강우
마리코
폭망하
대양
더글러스
두꺼비
선공개
진열
너무하
세기말
오벨
풀업
##로더
##모임
##푸리
중앙부
그로기
심포니
지저분
어메이징
박령우
##들레
##반동
##iness
마리카
리라는
컴필레이션
다마스
모체
사산
개발살
324
Id
ep
타임스
단면
각성기
시어머니
##탄창
금관
다국적
멜버른
발화
지프
클라인
허당
라이오
MSM
Trans
칭기즈
930
마요이
SI
독가스
민요
첼로
##창호
야포
은커녕
쫓아다니
청담
흠집
##교과
중앙정부
소유주
ᆯ려면
##드래건
맞아떨어지
몇달
버나
##결제
##걸즈
다른데
##ific
회고록
비정규직
정찬
초소
강화도
어태커
283
조선군
TOUR
리저
산적
성가
천룡
##쿠젠
양산시
미즈노
친선경기
각하
럭셔리
리버티
팀워크
화사
##보관
삼국무쌍
##ister
김민성
레일리
장정
##무적
솔로홈런
한밤중
박형
아보
어니스트
죽창
##북자
프로그
유희관
스프링캠프
부름
이왕
트램
조직력
소화기
기척
##토레
##렌트
SSS
두고두고
강물
사륜
에스컬
재판관
Bus
벌목
정략
##등판
##승지
아발론
슬립
해괴
##평론가
##디슨
설정집
우선하
경비대
병아리
여태껏
##press
신안
요나
##scape
에너미
주창
284
386
차우찬
로페즈
대림
우방
세타
종언
주영
다카라
독침
라디
본교
참회
##코니
원맨
혹자
##케스
261
김유신
결판
넘나들
독음
스테인
004
Shadow
VF
베레
보나
알람
장항
중저
##평리
특별편
아만다
개근
양학
에고
잉카
피어나
##파이스
##모래
##원인
##벼락
아야네
밋밋
호두
##당국
##ress
클리프
카스티야
방독면
브리트
이펙터
##백제
##ada
모처럼
이택
폭주족
##전문가
시타델
-.-
Av
VOD
강지
웨일
장승
##사가
##다일
##통행
클로즈업
삼림
##노동자
발사속도
버로우
석권
세무
역경
영애
페페
국가원수
대학살
Arch
성나
성년
아주머니
스즈미야
정준영
불로불사
OFF
약국
엄친
오천
펜티
##onight
오오타
상세히
카스가
이딴
##메달리스트
##국인
sky
선례
오랑
Dep
알비온
선발출전
건륭
사민
##las
경춘
##메카
##보로스
##크트
정신차리
보조금
고착
도형
미비
미스티
엘자
이말
항체
유우나
드레노어
ᆯ세
결렬
수줍
헬렌
후폭풍
##bow
##서치
오르내리
아스널
트레이스
배드민턴
YES
정파
##시네마
오락가락
##afe
du
##amage
깊숙히
노원구
법제
양해
정태
##과자
매니지
영화진흥위원회
굿즈
뽀뽀
영생
자대
레인지
영구결번
번거롭
꿀리
동학
러스
못말리
이봉
카스트
##치노
스킬셋
경쟁전
TECHNIKA
류다희
석회
칙령
희곡
##중일
##순이
##ives
여진족
Ve
주사기
고분군
##지상주의
간토
월달
하물
흔드
##oid
Two
입소
쥬리
추증
터득
##선발
##병단
##APP
귀인
##자크
아니마
277
매물
자야
커밍
터빈
김동준
에스컬레이터
Ka
did
리븐
방귀
일렉트로닉
송시열
다목
에드가
Hz
김옥
바인드
심재
영국령
Fro
건반
율법
무한대
최저임금
Chapter
##전산망
Tur
##츠네
경쟁사
국부
내통
미신
비법
우승후보
맞닥뜨리
백운
열두
잔느
구조대
음독
전시장
조석
투석기
##MM
기계족
이정현
라쿠텐
남송
조이드
지긋
파밍하
손보
오송
015
야고
유즈키
철인
컨설
##구장창
수동변속기
개척자
승하차
시판
양띵
이지선
양준혁
주현
천부
##사례
##두대
심장마비
하후돈
번도로
심도
재조명
##갱어
보장받
호수비
크리스티아
처벌받
보디가드
권세
이너
##태그
##ini
신경쓰이
아유무
고우키
Intel
밟히
이종범
마조
발의
벌점
이차원
카발
캐럴
코에이
##기종
##공대
870
김태원
야생동물
이타치
물들이
서예
알프스
판국
##쿠지
##개방
##교포
##얀다
323
스위칭
Leader
밀레시안
교파
전일본
##증명
##넘버
플레이시
기본공격
현대인
이시이
정몽주
그와
놀이터
유랑
총평
해일
의료선
론도
전준
죠스타
찬탈
해파리
4500
프란시스코
비토
안마
중흥
여성향
하루하루
920
TK
꼬드기
야미
##원사
운동회
그루브
소인수분해
Vi
중생
##수급
##호스
통합진보당
Head
부지런
Cost
삼위일체
KK
된장
면세
투톱
요시유키
비서실장
티라노사우루스
금괴
민자
추하
핀치
시전시
카이로
빌드업
신동엽
종국
필하
위업
주구장창
##면역
CHA
강릉시
UD
추존
컴파일
음악방송
디아스
국호
동형
##ja
려는데
부러뜨리
액스
인척
추악
##드레드
사회복지
상처입
한화전
협동전
듀란
조그마
대표자
##AMP
의무병
캔자스시티
독기
등불
방계
뻔히
숙달
앙골
특대
후지이
베스트셀러
히데아키
영락없
무심코
도플갱어
라피스
셧아웃
왜군
월남
캠벨
##보이스
투표수
근본주의
Christmas
##티넨탈
Earth
구릉
딜레마
텐마
##신부
##97
로드호그
사쿠마
파사
##추적
민주자유당
Silver
Burn
완충
화음
화염병
구원받
맞춤법
누설
마안
뽀삐
지팡
타블로
##마린
##미경
##너리
294
NBC
내막
니얀다
##좌석버스
이범호
Tok
리디
아스트라
##개편
##만장
운전면허
서브컬쳐
매니지먼트
miss
강정호
고룡
샤인
슬래
상처받
대항해시대
Global
글루
수풀
육손
##CO
롯데전
피로도
이태양
프란치스코
냅두
##연결
##관찰
##덕분
##피트
Double
멸칭
병법
파즈
소비량
생모
이같
핵미사일
황위
##나도
성균관대학교
.?
모데
앵콜
##마구
HERO
work
집탄
코비
##ones
274
Street
다섯번
소치
신일본
옴니버스
베아트
체르
커세어
##스티드
고유명사
만기
변변
##Boy
무한정
Hand
JO
덴버
조진
클라리
파급
사가라
Want
XL
다든가
수산
지양
최씨
다운타운
동귀어진
##아미
##ASH
혁명군
백어택
##브로스
##링거
##ery
터무니없
동군
프리스타일
##타리오
멍청이
뉴올리언스
펜티엄
녹턴
방망이
책사
하찮
##소유
##미수
050
Cloud
거침없이
하물며
정색
항변
003
스파르
##공업고등학교
쇼타로
진언
폐차
##세르크
리츠코
두발
2800
마나미
대문자
라스타
악세서리
원초
포천
피살
##변호사
체력회복
역사학
Reb
===
미주리
트라이얼
LD
글귀
금연
탈의
267
Techn
아키하바라
전뇌
크라우
##슈터
##물리학
로커
예멘
저렙
착실
338
각개
김석
탈리스
우리카드
료타
명목상
정크랫
금동
바키
직권
##KE
##도마
저그전
EDG
냉소
모카
소연
스팸
진루
화원
##마디
##노비치
##소닉
원산지
김풍
특전사
##태세
##보다
주변국
공주시
기상청
테레비
big
마닐라
##aint
지크프리트
메디치
빼어나
사력
아모
전상
개발중
아케미
맨발
민경
삼인
에무
음표
##웃음
##돈나
아웃사이더
ind
널널
버클리
엄브
에른
##탄병
영상물
아츠코
스칸
의붓
##ii
##발언
서브보컬
김정우
친히
##리쉬
##ues
##port
##북면
특촬물
덴오
##도록
##딩크
##꾸러기
소지품
파스칼
Hal
모질
법관
셀레스
젊음
준말
비슈
야후
##체조
##독재
단지이름
탐험대
랴오
리미터
사선
##마마
##출마
##장로
271
전화기
PART
캐터
##공부
##야드
##심리학
268
머금
박력
##패닉
시흥시
##스톱
프로그레
동갑내기
노량진
얽매이
감화
군국
박선
원유
##67
##은편
세르히
##스태프
감도
야성
재충전
켄신
##시니
##동아리
리턴즈
##OTHER
MOM
기류
집시
피폭
##대응
승화
##ating
유일무이
through
Thank
스토크
라던지
럭스
##ken
##반경
##재해
안동시
스트리머들
견환
네프
##코더
##화산
##gen
독려
올랜
히가
##시미
##까마귀
어림
임성
맴돌
부득이
속보
츠요시
Second
법조인
Oper
회랑
##포지
카이사
맥시멈
카니
##서인
##눈물
에스페
교도관
순욱
동력원
천주
값싸
라네
웅덩이
##처벌
아야세
코치진
경향신문
기아자동차
염색체
Pur
공양
출정
##파울
##국립
##블럼
모피
##부패
징병제
제퍼슨
닥돌
디그
땅바닥
애드립
한산
앞발
Studio
이닝동안
415
Cho
레즈비언
그와중
##문드
##놀림
총상
호넷
신앙심
안치홍
TUN
기침
한사람
##호테
관음
용신
풀어놓
##합병
##출구
국제법
DREAM
뉴트
유충
레이커스
마사미
하이스쿨
꽁꽁
도성
베히
복직
사표
성유
##라즈
##HS
##통계
헤이안
##산업단지
##환승센터
맞은편
반미
켄타로
학비
##aa
군의
##받이
우주비행
지구인
##iko
소이치로
전한
##개정
##르츠
##설비
보헤미아
간담회
##계단
##귀비
Vita
국지
말벌
##YO
거래소
##bert
마천루
give
국악
답니다
초석
정의감
순양전함
MAR
경시
계왕
선덕
으뜸
##애플
AU
촉발
475
관현악
che
##KA
##겹살
아미노
창녀
클루
##추리
##아이스
요구사항
브루드
화물선
식탁
커서
정실
헥토르
##수배
##배추
287
롯데월드
##프로젝트
통찰력
금사
신겐
정월
##하츠
##꾸역
루시드
창립자
갱플랭크
Hor
시경
##jor
싸이코
손익
정병
창구
크랭크
##주먹
니시노
Group
Electrical
Water
스핑
평론
codice
RW
금산
수기
공포증
바티스타
기정사실
곡식
병약
외딴
##달라
레스큐
Qual
개의
악동
최윤
##령부
우리은행
장착시
아라키
LIG
조선인민군
가꾸
김효
이부
허탈
카드파이트
끌려오
다현
베일리
산정
치치
특무
마르스
1880
휘발유
성왕
윳쿠리
잉어
전란
풍신
일본프로야구
디펜더
##경비대
이간질
Sign
XG
마오카
버마
트랙터
가나가와현
무디
##지향
##시브라
마츠오카
못미치
워프레임
피타
##학기
##파인더
바레인
충만
타의
##ael
##계정
##하카
##수량
##데자
치토세
여초
핏줄
##oman
요시카
태양광
코코아
초음파
제프리
히지
##아비
무리없이
꾸역꾸역
갔다오
사피
##다임
이웃집
스완지
검문
관청
매섭
서울시장
##stal
야쿠모
내무부
##국시대
스테파니
모이라
Gre
XIII
굴림
달마
실효
##나츠
##시전
##lad
스위프트
요괴워치
헤이하치
수백년
드로우하
대마초
##공포증
황건적
네드
도지사
스펜서
일라이
징조
##십리
원정팀
##선거구
기하급수
Vers
러블리
임박
종주
지하철역
길드원
트라이앵글
리오넬
김천시
악순환
츠루기
##ior
Jr
Wel
스메
##신앙
끌어내리
머스탱
Radio
떄문에
HC
기압
로다
식단
앙드레
어워즈
절로
##주부
##락하
의문점
그램
농산물
케스파
시전시간
too
처박히
특사
불사신
오승환
곱하
일깨
항렬
홍시
318
적용받
부녀자
Bill
문화방송
구획
문득
트립
히딩크
##차일드
##물자
##주아
하이킥
국민투표
비난받
동대구
##복선
스타터
##ANT
대중음악
원더걸스
중상위
타순
##브리아
##부아르
스테이트
740
베트
야노
쿠사카
##오일
+,
정변
포교
##imate
대청
무위
영하
이효리
자외선
탐내
핏빛
황보
##학파
귀순
성좌
시민단체
프로그레시브
셋팅
키리카
##동굴
##광석
오프사이드
연립
##uz
##추얼
세미나
인산
##ipp
노르드
어학
컴플
트론
Right
역세
##천국
자유투
Know
닭고기
수조
매치업
투닥
##폴드
파이퍼
Cross
##uff
##투게더
하후연
커넥트
트럼펫
레넥
선왕
토아
필중
##셰비키
바이어
Speed
이혜
##대국
는다거나
그러다
309
590
본즈
유자
##등등
##바브
키리코
무속
슈타인
오리아나
치장
##샤르
라이노
석가모니
Original
Sin
도선
완파
##침반
여러명
##ters
아시카가
교신
이직
자급
피넛
##이식
##보너스
DOS
관구
뼈대
소국
고담
레플
마그나
효능
이병규
마틸다
낚아
별빛
##axy
전망대
run
남우주
슈발
유루
##춘추
가뿐
액자
음유
표차
##투리
##학력
국민정부
##usion
으려다
주민센터
포가
혈전
##루즈
##셔스
##첸코
개정판
식욕
아웃카운트
호그와트
이두
지류
짜장면
##빈도
민주정의당
모자르
##전문대학원
한성부
달렉
수려
스푼
중보병
타디스
무기징역
##roid
END
문화재자료
god
내키
상심
양키
화풀이
##이이
##come
다이치
TM
ㄹ수록
가나다
금제
묘호
세공
여몽
read
실리콘
두더지
전여
첫눈
Where
군도
분대원
우가
##포리
##와키
Episode
대주주
#==
아산시
안먹
패튼
휘어지
##드루
자유도
공화당
남동부
카게야마
Extra
백혈
야타
힘싸움
응원단
말자
묵살
티스
##바도르
##튀김
미치코
타카다
암살단
이방인
모텔
사대
삼일
259
급부상
##업소
##지침
##저냥
##오염
##직할시
무지하
전당대회
TRPG
시진핑
Ki
기우
백팩
조중
사무국
kW
윤석
친화
브로드웨이
아드레
##다의
##실업
##찌개
##짐없이
아라드
지배하
정우람
VOL
길동
날조
논평
스물
한영
알렉세이
노도
니달리
배낭
유러
청송
친형
우수학교
안쓰럽
이찬
팬서
##ative
자기자신
pack
양주시
퇴계
South
빠짐없이
에이즈
우완
픽시브
##가정
video
스벤
전말
최전선
문화예술
정상인
인사이드
조치원
쇼고
앞날
야영
컨티뉴
##live
##출산
에이프
노벨상
Lab
관두
땅속
몰타
##68
##소재지
Ju
무브
신대륙
카다
##도그
##렐리
일본서기
이성열
아트록스
Born
막심
포에
##멘토
한두번
카탈로그
레넥톤
중요도
little
size
강석
오션
쩔쩔
탈레반
슈퍼컵
중앙위원회
초대장
글라스
물병
인덕
조소
히치
##보행
##치마
##팔리
Mill
Us
남군
덮개
퇴마
홍천
##크기
##람스
##받아치
정규직
Shin
김성주
와카바
효고현
##마기카
불시착
디나모
Land
사노
아네
피력
##포이
##진과
##UMI
만대
##호리
Pres
여객선
COL
배영수
영도
코네
휴방
흩날리
신조어
Walk
끈끈
샤론
역겹
282
치료법
물러가
##시브라더스
낭독
들먹이
백정
어플리
친딸
폭풍우
패자조
굴러다니
잡아당기
양승
##stic
POWER
TNA
온두
일년
중후
##레라
##마쓰
##백스
그냥저냥
축구팬
괴한
느닷
더위
송영
씨족
외인
자폐
채태인
플랑크
손승락
Rel
거실
문맥
##삼촌
##엄마
국회의장
일기장
유러피언
곡사포
라흐
류중일
모랄
몰카
육수
투병
##전체
##ji
한양대
스매시브라더스
남우주연상
FP
지병
직류
처자
##다케
다이몬
서브픽셀
니시무라
그레고
##셀러레이터
PRE
고열
라이스
무득점
세카
청록
호건
경기병
애니멀
차량기지
플로라
와카야마
바꿔치기
Some
교문
##펀트
##국민당
해적선
테크놀로지
Mid
압구
한식
핵실험
혈투
##ks
프로포즈
htm
대손
발길
##우터
돌진기
리베로
friend
배꼽
월경
쿠죠
확연
##슈팅
발사대
오오츠카
그래픽카드
##스트리트
아시아나
보름달
국세
소다
한남
효성
##민호
##망치
Chall
문호준
문산
빠름
서포
성토
안목
할퀴
울트라리스크
오카베
산개
경기일
009
##대표팀
체인지업
결실
명소
액정
##대중
##른베르크
기념품
마사코
위연
준코
##극회
##텔레스
위도우메이커
현생
김밥
선미
우성
중개
##후이
##셔닝
일본도
이동국
317
김재호
유라시아
일깨우
may
##yl
##증기
##클럭
비명소리
SoC
병들
턱없이
폭등
현수막
답장
조타
천인
피폐
해동
Iron
군산시
케임
큐티
##메키
##기테
##**
해산물
민병헌
본전
##넘치
서사시
KL
단풍
제철
후발
##역전
##네오
##퀴드
Ref
런들
솔져
##어티
##유행
살인범
러스트
##ora
아우구스투스
유급
##잔디
##akes
타케다
세종시
West
car
다든지
안토
죠니
##커드
이그니스
남베트남
이그나
페트로
혹한
##기본
##식량
279
작업장
맹주
햇살
마르쿠스
Forever
비위
칸타
팝업
##상제
298
살인자
조지프
취약점
엔지니어링
가타
승조원
나경
상도
##리버
차지샷
하이드라
효도
플로어
대금
##가하라
아키모토
##REAK
black
모비스
##창조
##vin
속어
코모
클로저
비버
씹히
호이
##가을
##here
##hel
File
VV
골판지
긴토키
실프
안나가
##후유
##피리
##분방
##끝내
여유있
선제후
##aeb
그림체가
세르히오
바울
##르카
하나은행
전사자
장원준
모더
빵집
##명단
##삼키
##aki
Dynam
콧수염
int
네덜란드어
운행시간표
감차
로쿠
바렛
손재주
엘리자베트
룸메이트
변론
유달리
##카테
##일점
##IZ
곤잘
라던
##FE
##끼치
오소마츠
묶음
오하
화강
##표지
프로즌
##ese
##raw
수호천사
알렉산드라
로버츠
급박
쇠뇌
아성
청동기
포츠
여성시대
제스처
네뷸
서브컬처
people
이회창
수이
##구경
##편지
모노레일
오이타
콘솔판
미성숙
실존인물
강시
니드
물공
펜던트
##HO
##병장
WBC
기모노
주거지
칼초
##큘럼
COST
미하엘
모티프
걸출
경시청
소체
엠브리오
협소
##of
##ault
##런드
육군사관학교
반지름
시스터즈
니켈
온타리오
용액
카림
##호란
356
아프간
창백
철강
##선고
278
신오
쓰나미
연선
탈북자
한둘
##복음
##로켓
부정부패
정조준
난타
호오
##병우
길버트
꼰대
두마리
빅스
아틸
주치
코린
파마
폐역
포용
볼트액션
Ray
어펙션
##레코드
##조종
##농업
020
ha
mind
슈마
쾌활
##제마
comp
후쿠오카현
##슈타트
Circ
깨부수
몽크
붙들
송승
289
##edia
Lord
고승
마티아
뻗치
알베르
호가
##출판
##IVER
##텐션
패러다임
테이머
공권력
뒤흔들
매몰
위례
하일
존경받
정전식
수혜자
기말
김도우
성내
종단
브라보
휴식기
로얄럼블
츠쿠모
##캐롤라이나
라미아
수건
약캐
파시스트
##곡면
최고위
주나라
##방침
##명사전
동종
오목
코야마
##란도
##그래피
악성
회생
히다카
역할군
=,
그럴
율리
허스키
##촌역
Prot
조리개
봉사활동
미확인
버질
이봐
테트리스
##대밭
2300
항공편
종교개혁
다혈
시일
완행
찰지
##윤리
사회당
미니시리즈
하프라이프
어벤저스
ElectricalBoy
Award
전희
##날린
##커버
경제성장
올랜도
격자
유종
##관절
##호수
##박치기
미드웨이
신분당선
NFC
낙오
융통
아킬레스
하라다
박민우
금수저
베히모스
LT
릿카
비누
주마
인민해방군
Collection
나탈리
말빨
선양
##개토
##팀장
골자
빨아먹
속담
##cc
롯데마트
전근대
Pet
sl
애호가
##글로
OL
일수
진사
코넬
##평등
집어삼키
sur
겟타
메뚜기
질기
하루키
돈독
비무장
생쥐
종장
파이로
밸런
유생
보이콧
위협받
아우터
910
Gar
##타주
커리큘럼
동국대학교
항속거리
선지자
리암
원대
이요
##맞이
히로인
주먹밥
스웜
##화단
##착오
##델라
작사가
한손검
아랑곳
이레귤러
송금
앙헬
원탁
플랑
##관중
##네그로
008
1889
블로거
##소방서
속셈
용법
츠구미
빈사상태
조인성
에르난데스
장차
플로우
함흥
269
창업주
러커
미형
순애
탈선
##사마
##헤헤
##라도나
수십만
JS
공덕
외질
키라리
##체고
라일
엄정
민주노동당
미라쥬
사법부
아나톨리아
동질
문지기
어시스
플릭
##품질
명성황후
스크린도어
네일
진천
##각류
##돌격
##킨슨
##춧가루
이산화탄소
오를
입담
##엔젤
성우극회
레인즈
##지원청
장전속도
사우루스
mon
만달러
용검
##티즈
##널목
메이든
##입장권
그럴싸
다목적
명부
알콜
연신
위배
초성
##예보
실패작
def
커스터
##계산
경제학자
옥스퍼드
TER
LH
내시
리액
##수기
APEX
mag
꽃미남
벤제마
샐리
일말
나이키
기념관
레버쿠젠
Wild
원톱
캐주얼
프리스
도망다니
카즈토
Plat
농지
느림
밤중
집념
핀잔
Ze
아말
니시키
##프랑스
데코
물거품
총기류
녹색당
스턴트
그정도
심성
##ios
##렘린
히라가
##andy
인상깊
안무가
소타
알토
##감옥
##몽골
내리막
알라라크
다혈질
DRA
눈사람
이카리
도재욱
만리
신랑
압록
양덕
퇴위
##사수
다이쇼
행정학
음양사
가망
고액
재치
황성
##제기
급작
인파
학군
아리스토텔레스
공론
부다
손전등
운좋
카잔
##uh
##우가
선취점
바운스
난이
불순
전군
정년
롤스터
소신
피처링
답하
뒷편
못잡
제미니
##스민
자유민주당
리스본
극치
나침반
온실
일점
##어치
지원금
이데아
권외
남장
벼랑
웹소설
##하리
국가정보원
##사이어티
수집가
쥐어짜
||
디비시
라티
부축
296
고교급
fire
간청
급급
장경
홍백
##LV
##주문
폭발력
에스카
금강산
데일
##화살
##레르
골목길
라치오
입헌
트집
##부부
444
스토킹
스기타
RK
소대원
요셉
퇴마사
##젤로
스토리텔
공중유닛
방랑자
히이라기
사간
상명
##요법
행정관
슈가맨
ass
솔트
구강
더티
둔감
리만
마쿠
씨스타
칼집
하하하
##나루
##갈비
##챔피언
##ouri
EXE
##그래프
연평
##무효
호소다
계명
노마
##락부
1870
아드레날린
총동원
혹여
##군기
아무로
싱글플레이
경영진
##무스메
##분기점
빽빽
세제
제레
##티켓
득점력
이와타
니노
예식
패링
##실습
##lear
##데자네이
용역
하즈키
현급
흑자
전차장
협력자
무도회
도일
랭커
미학
유시
경북대학교
미시간
방도
북해
양질
적벽
##비노
##디지
계약기간
신기록
\[
##아야
앵무새
Lim
저마다
##패키지
야마노
운전석
##ISE
리벨리온
에른스트
fun
가옥
띄어쓰
몸담
못내
버틀러
의례
개념글
타임어택
690
스톡홀름
imp
고세이
관저
근절
##여중
##검색
##수용소
del
font
아연
원균
토큐
##세븐
##곡선
1884
브뤼셀
Ban
##목사
삼성그룹
멀리하
MCU
성전환
하소연
##당동
이상호
##교육원
주먹질
일회용
극락
자괴
다음가
박정현
사형수
중하위
경종
쓰촨
양극
헤로
휘장
##자쿠
##게임즈
김유정
리우데자네이
낚아채
엿보이
##초기
##명인
오오토리
익스퍼트
IL
민물
참관
피조물
휴즈
청량리
외동딸
TJ
사커
삼거리
은발
티오
##새우
384
리우데자네이루
난방
단두대
##희망
순정만화
매립
006
##마법사
마테리얼
Hall
농가
천거
281
오현민
Mich
WD
wr
경산시
발주
별관
##xy
##아카
드라고
still
Bon
상큼
여중
예우
유리아
297
군의관
Vf
딜로스
서너
성찬
절충
정희
키레이
##용량
##정제
##문화유산
##istory
앙숙
축구협회
투수기록
EG
KAC
데르
아야지
축구팀
Child
온두라스
닉슨
비엔
CONC
Jump
정용
전체공격
##연구회
브리기테
네비
336
리메이크판
루스벨트
리시버
Round
즈이
##체로
##필름
사이버트
참여정부
에디슨
감점
승단
완장
##니크
##윙클
매일매일
사도세자
꼬꼬
로베르
수경
시퀀
엠페
적수
##티보
콤비네이션
김포공항
케임브리지
가전
군가
부왕
카락스
##치사
카와이
포니테일
나크
브롤
수당
체자
만신창
Mart
Nav
Wo
답례
뒷통수
하아
##코지
##주도
##방송국
가평
구심
옥황
음직
전보
##고추
##ba
##링어
##ising
성장기
토모에
강요받
미시시피
ft
폐렴
품위
##소시
HAPP
국면
서른
요시아키
윤희
Guard
데자
부엉이
참새
카산드라
##덩크
하여튼
Eyes
샐러리
##개념
##uel
##소자
##피쉬
드래곤족
##cept
언더그라운드
박해민
전자기기
기가
에테
제창
##토론
##릿사
지리산
조총
핵탄두
##회상
##네이터
그리움
문제삼
770
지우개
꿰차
소독
##TO
엔드게임
발급받
히라가나
나시
삼양
카드명
네이마르
구문
남만
정강
##간접
##건축
##데스크
오르간
일정확
유도탄
수성구
Dist
광개토
끝끝내
댄싱
야코
우타이
의향
##유통
히로아키
종족값
나탈리아
혹성
투덜거리
Bas
고명
다빈
부응
어조
익산시
한민족
기업은행
##스케이프
Rh
낚싯
직각
##만두
##손실
##발치
추가타
청소부
카시와
비결
셰필드
##볼라
##를로
30000
소방서
약혼녀
Ball
스펀
콜럼
##ever
##로자
##reme
헤비메탈
sub
##나래
스즈카
대종
음차
장도
조윤
헌제
##스틸
##공파
##아넘기
##oke
경춘선
RD
다항
악플
##소라
게임차
하이바라
where
시아파
스핑크스
만치
전능
펀딩
##무청
보스곡
tell
반강
서천
외지
텃밭
홍설
##마녀
미사카
유통기한
이로하
군락
니시오
얕보
이발
치비
황충
히브
##작동
Royal
선입
안부
체벌
미국판
서장훈
OH
버트
서연
서성
319
대원방송
GDI
영화관입장권
##블록
##암역
센티넬
par
녹아들
배설
옮겨
혼령
관심있
조별예선
접대
##월동
##둥절
하이네
선인장
배성
빚어지
으레
컵라면
흐릿
머리띠
Inst
일본어판
바보같
배짱
안위
유관
체임
페르디난트
땡땡
떠맡
명반
본색
식히
우노
쿄류
하등
##inity
준비중
LEVEL
American
two
흥선대원군
##ker
##열전
전년도
에치
아이어
할애
##cer
##56
##장성
도지
듬뿍
열거
협찬
##공서
키리츠구
권위주의
리카르도
단국대학교
박건우
카로
##중계
##트랩
##예비
사업장
레드불
##통합전산망
미적분
RM
강선
급사
들판
빙자
타격코치
아라곤
함경남도
덤블도어
낚이
살의
수페르
사망시
에뮬레이터
대웅
##좀비
생활비
테마파크
860
공직자
새뮤
##격차
부담없이
천문대
가파르
돈벌이
레퍼
유학생
헬륨
가입자
##사업자
채무자
도축
한국영화
사업부
신디사이저
VO
개점
고배
유장
연사력
스프링필드
tri
미에
블리즈
센텀
칼리스타
코소보
326
데뷔곡
Style
에그제이드
영화관입장권통합전산망
설명서
Parad
초중반
sing
스며
조안
운동선수
삼국유사
머릿수
로베르트
류승
무가
와전
우레
조아
##드랍
##치산
##페아
406
중앙정보
김재현
가요제
송창식
강병
밥줄
애절
정모
테트라
##구사
##원자
##악산
어리둥절
선녀
시럽
컨버터
##맨더
##ddle
온건파
김철
단판
볼로
수현
폴로
호죠
들끓
미투
비빔
국제사회
도킹
토기
품격
##도둑
Luc
##마인드
##글거리
##짓수
보이저
프리깃
위기감
시험장
난항
잡다
팀플레이
피노키
히토시
##보로
##acle
타카라
애덤스
노상
레디
석양
역린
옛말
적병
종북
리그컵
부여군
마스미
마쓰다이라
덕아웃
커쇼
쿠시
범위내
개구
법규
##vers
대원군
농축
알베르트
요이치
장마
합참
##불패
##ugh
##토와
##BL
다음해
##akao
Fa
델라
지탄
292
도미노
헐리우드
first
루리그
신랄
언동
해법
메르스
유통사
스에
Stop
올려놓
리크
서현
휘청
히터
국가보안
확정짓
괴물같
real
아지므로
초롱
##일레븐
고춧가루
롤백
망정
이권
라운지
padd
데레스테
요루
장희
##대항
##어뢰
##분쟁
유키나
NEXT
포즈추가
어퍼컷
몬테네그로
거성
국철
넘나드
외신
요트
##흡수
##코시
타카유키
성동구
도큐
세츠
##누키
##조연상
##스트링
마가렛
##책임자
황교안
오벨리스크
가논
곤봉
대권
독약
접히
##수영
히트시
Bell
HO
곡예
법대
삼화
수화
앞바다
최고령
결정체
아마미
기간제
제공받
요시키
명문가
개팀
광원
기슭
번즈
인품
임산부
장외
켜지
##순서
##alth
연습실
모래시계
~!!
양옆
##교구
##요건
보내오
구조조정
민주평화
사우론
그랜드슬램
닛폰햄
대합실
광휘
군소
로랑
욱일기
2030
##보고서
구인
기단
바네사
박현
선라이즈
저해
마녀사냥
모리타
##문학상
수감자
성전사
포부
##문안
##소디
##옹주
마스터스
타임라인
뇌신
보어
신이치로
##73
골인
슈바르
풍족
피쉬
형량
흑사병
##키스타
##인명사전
폴리곤
OUT
모레
쇼지
엉성
윤하
코고로
포천시
자책골
음유시인
Cast
둠피스트
프로팀
설정오류
1885
트윈테일
##크라테스
고출력
리튬
여학원
폭정
##키르
다음주
음악실
연격
윤씨
감독관
미덕
옥좌
점착
##ule
MSX
2023
하사받
육탄전
미추
본방
상파울
우시오
잇달
차녀
##금고
##파이프
##아이콘
아미타
Golden
고물
평형
##선물
곤잘레스
어시스턴트
히브리어
삼겹살
식수
와일리
그래비티
달성군
수족관
Alex
파천
##얼굴
일반시내버스
이주한
아케이드판
코트디
Our
노구
리니지
벤처
산불
##채기
ᆫ데요
##rie
공급받
농구부
exp
##trl
고바야시
나포
덕수
테네시
다이어리
기억나
##문제연구소
VII
라플
판금
행패
##메디
겹쳐지
네바다
왕릉
이청
학우
잽싸
캐넌
##만들
##43
3200
STX
새하
송현
얄짤
젓가락
ref
바쿠간
떠돌아다니
거제시
알폰소
아시아나항공
남우
도토리
순교
아뢰
에스타
영능
핸드볼
Far
개역
성덕
##의무
##진압
##남면
##쾌히
오리사
오래가
##가이아
느닷없이
FU
아로
창세
then
사이타마현
배기량
묘역
칼텍스
##레테
##니엘
HMS
라몬
시무
외톨
토바
##가입
Dear
해적판
느릿
람다
만무
영세
##min
트레저
용기병
사우스햄튼
비올레
국고
단가
몰수
이학
##상도
프리뷰
대법원장
델리
마릴
타박
세계사
레이건
Flash
##케라톱
석탑
언저리
휴머
1001
케이브
모리슨
매킨토시
멍하니
사대부
찬물
천억
펀드
환하
##쿠시
##로바
##ARE
성북구
?"
가람
닛타
라다
울먹이
케이프
크로커
이지영
코트디부아르
노토
마돈나
병음
애꿎
요란
이천시
증산
하수구
rpm
숭실
##라운드
아서라도
Mini
가혹행위
양력
이렐리아
##프릭스
##변수
##클러
##할라
학교생활
Stars
비올라
북측
폭타
##ought
코칭스태프
레비아탄
고환
기고
대들
습기
외무
웨슬리
활짝
Code
간사
겸직
설욕
이채
졸전
펜리르
##영어
노안
닷지
불고기
좌지
##후지
카미유
불우
빛내
찬반
##격파
보상금
콘스탄티노플
백과사전
GOLD
MIN
박은
사변
사하라
스카우터
중재자
박헌영
Attack
낙엽
신공
의형제
##레지
##포화
아이누
동자
막나가
소사이어티
수나라
지민
지노
해시
추가골
이주민
대관식
군신
셰리
파쇄
html
수받
영호
타가
할로우
##펄스
##iter
나라쿠
오카자키
무인기
##ucky
장타력
시한부
윤성환
트리스탄
other
러버
와리오
##ko
##por
아라카와
확장판
익스플로러
파피루스
must
song
강룡
말풍선
자파
친환경
##GN
##ternal
Ti
Ur
궁사
소풍
최충
회사원
705
네이팜
라이트노벨
김수현
스스무
아탈란
깨우치
여호
천막
##등기
##에라
아야코
방송통신
참모총장
간절히
새뮤얼
pp
~,
뮤지
서한
은닉
##AV
슈퍼리그
카운터치
사마소
ret
곤살
늘이
렐름
무소속
##트레인
##검정
##레이브
저지대
343
멀티터치
BAT
천일
##골격
##넬라
후쿠이
서양인
사립학교
##업자득
격화
염보성
자업자득
합본
bec
보면
상쾌
종편
##반전
##amu
블록버스터
이케부쿠로
파스텔
코그모
Rap
야근
탄성
##인정
##저씨
요시타카
집안일
815
갈증
벌처
성행위
타타
폐해
피눈물
##실버
##orrow
생몰년
염라대왕
단짝
참견
티미
830
Mob
background
양아버지
연개
잦아지
##라나
전함소녀
오카모토
Ven
WOW
검단
궁을
##kn
##팔트
##협약
다양체
이브이
관악구
삼보
임파
##후기
##베른
나이토
419
Engine
padding
app
백귀
시망
신계
호른
##세다
533
트래비스
NTR
디비시온
내다보
단락
라브
빅맨
산군
실신
악덕
엔투스
한서
향로
331
이택근
act
약팀
##bat
##빌라
역사가
지휘부
조용필
핑크색
친일인명사전
박주영
PVE
##gar
485
전기철도
##기념물
군복무
hellojo
리다이
##극상
##po
구자욱
무브먼트
깁스
멤피스
축조
##운송
공군기지
매일같이
몽골군
스펀지
line
노랫
뒷골목
산둥
##under
##어링
##림길
##퀴즈
291
입장권
언어학
나카타
김영철
유성구
데칼
데이드
시모노
출자
##관측
##려먹
##에이티브
TNT
Chaos
문턱
우솝
위촉
제노스
##노총
##eca
글로리아
안중근
;;
Yo
결핍
로큰
아워
어딨
캐내
##Force
제노바
내무
리소스
이바지
동반자
아비터
히스패닉
소홀히
크리스티아누
break
랜슬롯
마라도나
아방
이브라
장서
후훗
##대제
##최고
모드레드
일리단
공터
슈틸
승룡
잿빛
중문
##요구
하루미
달성시
고고학자
리베르
워렌
작열
대처법
키노시타
리리컬
간선버스
여차하면
HYP
갈매기
국유
그웬
뒷이야기
전탄
##디르
##참조
안타까
미카미
Princ
바실리
Fair
곰팡이
돌림
아난
은사
차수
착오
##일반
##급부
##재생
해피투게더
npc
메롱
반투
앱스토어
##직구
##ORY
평안북도
복고
분교
식료
왕왕
정평
##모터
전사족
소울워커
스파게티
##uke
GUMI
비니
##후무
국민은행
모치즈키
극렬
파내
한바퀴
##저하
##구레
322
아사노
##고등법원
가맹점
뇌전
되도록
퇴색
히오스
빈유
카가리
always
Wave
지피
애니화
지구연방
기타프릭스
지상전
체험판
Got
곤경
리산드라
버나드
산청
카세트
##저전
##42
##려내
아이튠
다이얼
435
멀티골
노이어
서막
탁자
팬서비스
##누구
필요없이
실사판
LW
메로
영식
프로메테
교부
균등
도륙
마샬
책장
##리터
##가동
참모장
border
fall
록키
위도
인덱스
주얼
탈리야
##중단
##헤어
##만고
##재정
기술머신
전지훈련
라헬
몸부림
슈나이
어버
투박
##실내
351
조선왕조실록
CAN
DG
겁나
동강
은유
죽전
##실론
한국프로야구
Galaxy
조반니
OZ
베아
##기온
##두부
##성공
타이르
중계진
요격기
절박
코뿔소
호동
힐다
##olding
강동구
EVER
도야마
미레이
박계
심수
약소
와이즈
타계
하버
##동부
나나코
애완견
합창단
사이버트론
아칼리
그때문
후지모토
주연급
##올로기
DN
가용
간다르
당구
소하
철창
##픽스
##관리자
##USH
히메네스
코카콜라
좌지우지
Tell
free
군자
친아들
퇴적
판문
페그
야구팬
787
우스꽝
등수
디렉
매디슨
생화학
수포
팔콤
현기
홍길동
##이에
##표준
현대차
버스터즈
하비에르
경희대
MID
동차
피지
##보유
##왈드
505
##ITION
극진
반점
집무실
추신수
투석
403
516
과감히
본편의
갖은
기전
뿔뿔
주워
포춘
##머드
##육대
중국식
##sung
##킬러
342
Face
가부장
산양
오답
인부
총액
##딱지
서울교통공사
아키즈키
드리우
가을야구
안드레이
추앙받
방청객
부랴
어렴
탯에
##ota
ESC
거사
음각
익룡
증감
##푸아
Ak
내재
렉사이
영매
토고
혼신
행진곡
간다르바
'"
난립
미온
쑨원
##학대
다니까
재판장
전무후무
호크아이
호쿠토
live
벨로
정씨
터틀
##해결
##초프
하나코
아라크
412
스피드전
평안남도
find
도레미
비탄
하중
##모닉
저작물
##체고비나
군비
나트륨
달간
무드
장고
중신
##모닝
유민상
어렴풋
구스
민회
시물
체공
##나치오
ACL
라니스터
lea
교인
눈꽃
마진
박시
충칭
##소장
신경질
##aeboo
시퀀스
군생활
나영
자하
공사장
브리티시
히지카타
훼이크
흑요
##sm
##교리
혼수상태
Dawn
금새
##/-
마음씨
자유분방
마리우스
515
검찰청
길티기어
가독성
Ros
러니
소냐
체르노
한석
##상고
##티비
##방정식
타이타
##itter
방문객
로큰롤
사그라들
식초
응축
입회
타시
홍문
화염구
그다음
dark
난국
육전
적반
퇴보
##니안
##대구
##유형
에어리얼
나카야마
가와사키
골칫거리
Caeboo
mp
눈덩이
니다
데우
위헌
찌푸리
##cat
이용가
395
포지셔닝
다산
인카운터
진서
충렬
##위크
##휴먼
언어유희
영유권
year
ㅠㅠ
삼미
성유물
##포럼
##래그
##휴가
촬영장
다그치
코다마
und
무스타
이머
##쿠이
##만다
##펠라
부르주아
개발팀
이지훈
키라라
ROCK
거상
목판
상연
앞지르
휴학
내려앉
Adren
project
강태
성교
신스케
엇비슷
##난만
##스키스
눈여기
새하얗
독차지
루가
어사
##르겐
국립중앙
IX
대졸
재석
적개
##수역
세계선
328
이끌어내
show
로리콘
Element
갈림길
아리안
하태
흔쾌히
##dom
##파람
타이커스
##pha
히드라리스크
Pri
베댓
보노
부검
영걸
충주시
##니오
떠나보내
대통령직
WS
건널목
쁘띠
현도
화양
##블럭
##omet
우발
##이온
기관지
김정민
미세먼지
Tig
도탄
동키
암약
일색
자학
천신
##ique
타입문
롯데백화점
상상력
kill
드니
박람회
적폐
##바티
##세프
사회민주당
유영혁
##의료원
Crazy
간디
역효과
##enz
마사지
눈뜨
쌍방
에스테
천벌
최수
##웨스트
행정안전
더니만
##ript
MBT
경성부
옥타비아
깨트리
여분
완다
유익
인디아
1850
토모미
대항전
Lady
RNA
수필
쟈니스
##참판
아카바
함경북도
아킬레우스
블리즈컨
GV
봇듀오
앞길
액셀러레이터
은의
개최지
LUK
병단
손등
오유
장충
키요시
헬리오스
##HA
네거
라메
성상
수륙
액터
은월
##ima
겨울철
허리띠
##타카나
ND
내보이
니어
음침
##튜브
교통수단
상점가
당대표
라일라
미라지
야훼
용지
핍박
##솔리니
트릴로지
모략
잡스
짜르
##구현
##레이더
서로마
이매진
겨자먹
나메
억류
##abe
베르나르
ㄹ까
레크
인대
키코
히루
##빌라이
내려다보
외할아버지
Away
에어로
##지뢰
##의견
##홍보
현지인
숙련자
반파
암드
이족
카직
콜린스
타르타
형무소
##여론
##방안
이만수
이호준
리히터
FTA
고성군
굴하
바야
아낌없이
얹히
외삼촌
침울
블루레이
사오토메
HAPPY
번뜩
북송
양배추
오존
##사위
##금니
##키라
503
케이온
누에
다레
배영
병마
산동
솟구치
inline
야스히로
제트기
허위사실
창천
##신사
박정석
head
대작전
박대
불도
토스카
교육자
김종필
사우전드
이데올로기
##ruct
최준석
class
나방
동주민센터
상환
켄치
프루
##바이스
399
택지
팔달
화공
재단법인
Point
케르베로스
내연
옷장
외가
현악
형평
##판단
미야비
시가전
안타까워하
구전
군체
뜯어먹
수선
승상
##실수
##GM
전문점
이재원
아바투르
트래픽
인텔리
선풍기
#.
동글
부총리
히마
##FS
##왕릉
##넥스
이동식
유지시간
국립국어
아람
##나쁘
##권법
카즈오
매니악
Block
강신
화웨이
##iam
##iec
페이탈
Missouri
요츠바
변성
양위
용례
인편
일인
##민스
##투라
주춤하
던컨
맛없
명군
미란다
##하이드
주력기
해안선
Armor
서대문구
압록강
Train
무츠키
복병
삭발
쑥대밭
철조
퀘이크
특명
##불안
라이어
##대장군
레퍼토리
오야
##클레어
##ffect
반대급부
이준석
과소
궁기병
무쇠
유원지
짜릿
팔아넘기
응급실
전준우
성호
영단어
친부
##근거리
5500
카사딘
Evil
신태일
"~
덜렁
라벤
밀림
틀렛
허망
##휴게
과도기
슈투트
TIME
가브
조규
##은성
군국주의
Bul
윤용
조서
카슈
##성경
##테아
머신건
기부금
비대칭
BN
call
니트로
대야
버벅
서산시
정봉
치켜
##동의
웬만큼
마일즈
그리스도교
아다치
샤드
키오
히타치
유리몸
안정환
에스텔
고속철도
HTML
##몬스터즈
상파울루
Low
노점
뉘른베르크
담화
묠니르
환희
아자젤
교동
목도
오물
이끼
홀더
스테로이드
파인애플
뿌요뿌요
Ring
녹취
시해
청중
툭툭
폭렬
형사소송법
용서받
연개소문
경품
조잡
헛스윙
##포타
##47
스트레이
Wal
ever
봉선
육중
크리에이티브
충전기
Hon
나위
뒷쪽
딜캐
리시브
링링
##논란
##unt
환상체
오비완
Lea
나자
상해
장씨
점퍼
정공
지반
후각
##코너
##정민
시간차
070
##apon
엘리멘탈
라이트세이버
"-
류세이
성냥
오베
터리
파출소
##mar
##주나
재건축
들여보내
브렉시트
대당
예절
외척
차아파트
##능력시험
연주가
다카하시
인디언스
Count
GBA
대식
연임
키쿄
##랭이
아이라
349
설립일
컨셉트
광동어
개고생
사속
차태현
체념
##상현
후루카와
아큐라
로킹
마론
버추얼
번리
치에
헤메
에어버스
이스즈
고위직
마기아
도살자
파묻히
XM
hel
랩소디
밤낮
볼셰비키
얼추
전입
플리트
##그릇
세계정복
##ste
파괴신
##uts
##스티튜
##플라밍고
가로우
경차
고티
난처
블락
선화
설산
주정
##공립
기사단장
무참히
슈투트가르트
win
말고도
모병
환풍
##드래프트
아키히토
오피스텔
니카이도
컴팩트
##네타
##홀드
현재진행
지형지물
##IDIA
최신작
실종자
마르크스주의
밸런타인
낙관
##티야
##원정
##린내
공동묘지
천하제일
마다가스카르
가결
기막히
내동
친모
고정관념
정성훈
가오슝
Vis
분동안
필히
호실
##gu
##야나기
##싱크
용병단
이시하라
은하제국
해운대구
##comm
소름끼치
디비
절명
##포크
##갑탄
##컴퍼니
##oday
소년탐정
크로마
이도류
카멜레온
적반하
츠무기
헨더슨
호차
##독일
##클로스
##토리코
항공전
341
토벌전
가속도
떠안
박광
존나
##물체
레이아웃
서양식
데모맨
##earch
핸디캡
TI
공법
쟁점
정일
카본
##주차장
502
자주하
드러눕
카이리
하극상
허기
##NER
##테쓰
칼리파
당뇨병
다독
시찰
##넬리
should
파올로
시원찮
메갈리아
데하카
왕징
장호
장광
편승
##촌리
타이푼
혁명가
##ubeat
교보
뉴이스트
목회
살때
체스터
##합의
##스타임
성시경
스포트라이트
스파르탄
길리
소작
적출
포경
화정
##관위
##포격
##계올림픽
##느끼
##낭비
크리링
공공연
아틀리에
DIS
##모비스
바로바로
아리엘
미카즈키
채팅방
Bang
면목
민호
새비지
손석희
하기
##테이프
천진난만
밀키
보르도
수액
에세이
엠버
위크
음정
##경궁
스타스크림
가인
떡하니
##포도
##우유
오버히트
고기동
Son
고라
뒷문
삼도
연대장
잇세
당선여부
가라테
국립국어원
로한
하숙
##축구협회
무라타
무스메
레토
미역
중의
##피티
##겨보
스테파노
Fest
노미네이트
중기병
초전
##87
##갔다
Pf
낸시
새미
자장
추노
콩트
##era
##토리오
괴로움
Lin
떠받
로카
쇼팽
안재
엇박
행실
##태종
353
가이드북
지문인식
Machine
그레고리오
콜럼버스
누카
춘향
##에이션
진입장벽
목포시
아디다스
카시와기
계양
애드리
우현
위트
유두
잡아오
추스
사이버스
영웅전
MAG
##디나비아
뜯어보
아나스타샤
mac
공차
돈키
무솔리니
문수
사별
원킬
최병
츄오
##늑대
인도양
스페셜리스트
이자벨
##berg
카시오페아
Jun
PUB
노파
미케
조라
찬드라
채권자
##mo
##다갔다
##모니아
##aken
이와테
세그먼트
빗발치
왔다갔다
##민관
##89
##따로
웨이버
중독자
도플라밍고
보보
부탄
손주
코오
반격기
이소룡
어장
원사
인코딩
칼뱅
풀버전
프로게임
##리스토
정신없
기동전
난파
엘라
예금
작붕
초이스
라이딩
쿠니오
세실리아
Jin
개경
베개
테임
호되
홍석
##아과
공격판정
중추원
고득점
왜건
착실히
이승환
eyes
독식
라일리
숨어들
정육
##거인
United
흑마술
폼페이우스
아이튠즈
성황
저수지
좌클릭
##거의
스트럭
노회
리토
민생
반목
안남
읍내
타에
패주
한잔
##차오
연습경기
소방차
SideM
keep
둘만
폭소
한경
##풍속
##마로
##hone
##밸런스
슬램덩크
David
대국민
오데
##야키
##온천
이태원
뒷담화
미연시
구례
귀양
역주행
찬밥
황하
##게이션
##엣지
##스티안
에스페란
ZEX
비이
순결
##청원
030
근접통신
계산기
광역버스
터키어
어드밴스드
돌핀스
노히트
##르모
이명기
플레잉
헤르만
설레발
은평구
만신창이
깎아내리
면전
성진
필로
헌혈
##안내
##비르
##쓰레기
1871
SAM
라쿤
윤곽
정반
조이스
##피르
293
프로페서
연두색
스토리텔링
전단
입장료
아마데우스
한글패치
더블오
Honey
view
강현
유학자
터닝
##열대
최신형
큐슈
이민호
재래식
MIT
}{
리비
베데스
##lish
연주회
후딜레이
오재일
!'
##ole
허영무
아제로스
푸에르토리코
PASS
Please
리리스
박보
빌더
예기
##포스트
버그스터
당사
매국
버젓
열량
요긴
쿠치
키치
훈독
##시라
##콜리
##펄트
수업시간
의성
주오
##ca
공격팀
이름표
SPOT
빠져들
##anced
카도카와
베데스다
록밴드
심시티
전가
평신
##루나
그리피스
판매고
SY
낙랑
늪지대
양평군
옛표기
요아
코버너
##제이스
##아츠
코코넛
공직선거
Lie
묵시록
바젤
실마리
차내
최규
환전
##상식
대통령비서
나무라
브라우닝
스칸디나비아
대일
셋업
앙심
예일
듀얼몬스터즈
뷰티풀
사성
##63
상영관
IW
고단
백기
비술
사조
원이
인섹
책자
##선인
##포탑
나오코
선발진
범죄조직
아드리안
금품
김덕
료우
비보
##지진
Yout
항해사
섬멸전
흥국생명
담론
무희
바토리
완강
키배
12000
아스팔트
야키
올랭
원석
##수련
##RAS
고카이저
맺히
민진
영자
찝찝
화백
##sw
##차도
전투불능
여성혐오
대형마트
중장거리
Kh
RTS
도겸
쿵푸
티파니
Box
리자몽
자포자기
HYPER
로치
아류
임동
한데
##린느
토모카즈
MBN
단죄
류이치
송준
엄중
장부
컴퓨
토의
호점
##ener
소개팅
안전장치
검사장
보수정당
해독제
거금
##터키
##41
##idge
저축은행
대뜸
루치아
보두
상극
서안
삼각관계
헤르체고비나
김명운
텍스처
Wall
드락
불합격
쿠미
##지붕
##대가
##그때
455
타나토스
스테미너
bad
명가
증류
##모이
슈퍼카
출고가
신드롬
괴성
김자
레코
밴픽
인솔
제나라
창피
파벨
##시지마
슬리퍼
도가니
라니까
발원
사철
야츠
우의
이항
지느러미
##도치
##제약
##부정
Log
노비타
오동
조민
콘트라
##토비
##디니
##내내
범위공격
##ira
신기루
클린업
jubeat
문물
바베
염주
##육군
아마기
압박감
남북전쟁
냉면
당해
발신
인건
##이닝
##슬란
1888
에리코
거시
생제르
시디
점액
테크트리
##베리움
상륙작전
Asia
뒷심
장태
적법
1111
오세아니
NVIDIA
네크론
먹거리
복위
손짓
접두사
황태
##선정
아이바
일본제국
그레이브즈
쩔쩔매
돈키호테
꼬집
서랍
시이
약관
청양
##세미
감소량
브라움
PSY
고등교육
그럴싸하
Mat
라르
발돋
서유기
컨벤션
풍조
한자리
##용도
##본능
야간전
어드벤쳐
피오나
패스트푸드
home
바스크
술사
젠야
존칭
회군
##OB
##동대
정신없이
인도인
카미카제
로더
완만
웰스
이츠카
파하
호국
##ook
타이베리움
기억력
##클리프
고충
고깃
너스
일렬
주이
진부
한곳
##커피
##RS
얻어터지
사이클롭스
멘붕하
어처구니없
군포
박문
본모습
스필
입금
지존
초절
할배
##토지
아카데미상
개인기량
리딩
마창
북중
성간
코사카
##사법
번역자
예수회
##슬라프
요하네스
일등공신
태사다르
NX
아파치
##노카미
드래고
김선빈
오모이
급성장
벌크
벵거
유약
##첼로
으려던
부다페스트
공경
무정부
박창
사세
##건조
##디네
##ident
카구야
구로구
울릉도
랜딩
서럽
성차별
흥원
##gn
337
데스윙
이재용
김민우
##도마뱀
Kr
UL
바크
배합
심혈
최인
##기회
##주환
유지보수
스토리라인
하이스트
도미닉
Tim
단과대학
뮤츠
성관
허경민
##cho
486
마시멜로
jpg
유강남
소희
타테
트랭크
##저장소
##평면
##콘텐츠
패러렐
이대형
김천공용버스터미널
루이지애나
Tor
Wake
결산
독학
지안
처사
##중기
##남성
쿠로사와
시원시원
타우렌
부역
스구루
옆면
외눈
용품
익주
##수익
##발디
발끈하
Sa
나체
총학
사이고
그때그때
Sword
두리
##보시
연결고리
미츠나리
모터쇼
Bal
구시
극상
극작가
마지마
택틱스
프로파
##스타트
여름철
포가튼
block
모뉴
울분
아야토
운동신경
마스다
가타카나
기욤
도란
모반
발할라
육안
유니언
부채꼴
##상업고등학교
fuck
강씨
거병
등애
범상
서핑
아더
양원
##누아
start
이병렬
제너레이션
모하메드
나태
세레스
철근
칼슘
##포션
##모씨
스트레
Alt
EDGE
에스파다
Ham
와세다
코토미
탄광
##사슴
##총통
알리사
판매자
대량생산
권오
막무가
상비
이무기
점토
지껄
나타샤
사회생활
멸망전
##orean
이재호
PX
바바라
부영
슈츠
전출
집주인
유키호
##ACE
진시황
Youtube
경보병
셀러
청렴
##경사
##내각
##좌우
운행횟수
Book
백설공주
>>
DU
나토
방비
산신
번역기
inf
CDMA
피노키오
강퇴
누더기
만사
수진
존엄
채점
##좌동
##덜랜드
##amond
##스카야
개막식
썬더볼트
true
김광석
랑그릿사
고퀄
국화
말콤
매지
아웅
피나
##브랜드
시도때
아스트랄
SUN
Tit
은비
타타르
탄지
해왕
브로커
스투코프
낭떠
동태
리무진
손시
엠카운트
관군
매표
백련
비클
인비
털털
소리지르
421
##르기니
우주비행사
노심
불변
소르
찌들
컴패
##저격
##호른
##논문
##희정
방송중
현대모비스
영어식
##aper
Deep
Five
기품
정철
스네이프
다던지
매운
사헌
숏컷
##ua
##부심
블루제이스
학살자
미소짓
going
이천수
지석진
아브라함
Touch
한빛
판매중
비트매니아
PSG
Any
조리법
응급처치
Spirit
##브이
##안정
332
막무가내
루아
만월
어베
제롬
해충
##카트
##글러
문제아
이가라시
낭떠러지
김완
료스케
시사회
카포
태산
포물
##스펙
##교단
##린터
소환물
아스테
나카가와
SNL
대리석
카츠미
발명가
##노동조합
Paul
Adreno
VP
섀시
웨스
휘파람
사용량
애국심
지껄이
기로
노우
롤랜드
죄목
코헤이
박종훈
건내
고조선
##에이지
##커트
거리낌
EXID
넘버원
마도카마기카
##방위군
UAE
골동
머뭇
사감
수표
젝스키스
혈기
힐데
##와이드
##재정부
352
Stud
##iving
fight
kHz
북상
트리스타
포세
히라노
##딧불
하이큐
Stay
양자역학
건국대학교
변함없이
KING
이블린
지아
스트립
369
피오렌
습도
연심
장석
트윙클
##솔로
##ECTION
ET
온난
혈청
##뮤드
대표단
손오반
개굴
낮잠
놀려먹
요안
정순
##싱글
##젠트
GeForce
PUBG
개기
경미
그나
완도
우열
##라디오
##플릿
엘리시
낙뢰
용해
티안
##타지
##혐의
##roy
보병대
ESPN
이화여자대학교
감방
강건
따스
빙고
안오
쿠빌라이
학벌
호나우
##nam
##OG
##결계
turn
골반
머시
휘날리
##실라
##큐슈
느냐며
유우코
Shift
앰버
트렉
##어씌우
##물산
##퍼틴
비밀결사
연락처
신속히
리모컨
생제르맹
Dom
아너
##CS
##네프
타이치
아르티
아미노산
루도
으스
장어
풀럼
피안
##포대
하이엔드
베네딕토
SEC
만석
문전
슬림
왕중
피니
훌린
##자네
하이랜더
하이에나
놓아주
답습
물기
슈미트
제니스
진우
홍진
##동이
##작곡
비슷비슷
보도자료
미나모토노
앙골라
간만
망고
참담
혼재
가장하
송광민
IA
유색
팰컨
환시
후치
##iano
클라우스
##기념관
SAS
비서관
신림
준주
수정탑
커트라인
Offic
모덴군
HM
전등
펠트
##티우스
##노인
##벨린
##박살
1887
챔프폭
Monster
용광로
플랑드르
넷마블
로로
쌍욕
항생
허상
##코모리
##초원
##reeca
##dden
프리징
##lash
들락
잔기
허수
##마라
##ination
요시오
으니까요
엄격히
대연
댄디
##튜러스
지방자치
364
511
연산자
파우더
런칭하
Jour
Men
끈적
번창
##마담
##글하
아수라장
스케치북
마빈
배팅
야라
최종예선
만주족
음역대
밤까마귀
타잔
강화군
KOO
이스타
##스캔
##블비
##히르
정보원
전문의
흘러내리
소포
여전사
워록
임계
##네스트
##ergy
Exp
대용량
금기시
막아주
십수
##하겐
호흡기
Perfect
Sat
몸속
이백
타전
활강
히포
381
추락사
2025
미즈호
적개심
Bel
est
기선
김관
변절
에나
옆자리
입소문
최대속도
절대다수
Revolution
East
Name
배심원
성정
재원
전구간
##리타
##등식
소수점
##orning
유한준
Samsung
클레멘스
람보르기니
말린스
별의
유폭
##ns
##지나
##공예
##유적
##모빌
마사오
궁극체
Mov
##ension
일렉트로니카
비슈누
SFC
오트
타팀
이상훈
##민정음
Ghost
성심
쏘아
일과
추서
##오세
##페리
##복지센터
뒤치
번출구
미카도
##예술고등학교
로사리오
SOL
만재
철기
하북
##한자
##페더
드라마틱
레어도
들이밀
빌리지
화이트삭스
박지훈
아사히나
이코마
영수증
별의별
Mom
rad
아육대
이각
저놈
청장
팔뚝
##학교육
##onely
정신승리
롯데시네마
디스펠
교통량
우르르
고난도
군종
단둘
메드
알현
조식
히페리온
##티마
조조전
경전선
나잇
룩스
##트리체
##uster
샤를로트
이질감
로터
모국어
쇠락
의령
익스터
일날
전처
카파
329
놀러오
불새
##로쿠
##루야
##ural
전설급
작별인사
펜타곤
##soft
건장
스도
어거지
장모
##eon
##처지
327
기획재정부
쿠로다
FOX
완봉승
고노
멸하
샤나
흉폭
##itz
인드라
##글스
연구결과
부산대학교
깐깐
범블비
음운
저예산
##복구
##슴도치
371
아라라
엘리제
##ORTS
마르티네스
기출
편중
후송
##라카
##규민
##콘신
040
심플하
Ca
군악
꿀벌
단양
의태
청부
츠토무
바로가
비행단
아스톤
615
토마호크
##정당당
기근
녹차
베컴
봉안
요기
점진
##기법
##소사
##유가
##EG
##adient
Keep
매한
믹싱
시큐
##입상
우주전함
뉴욕주
김범수
보두앵
비준
양희
후달리
##화상
##즈음
2700
우회전
Vict
가정부
마부
정정당당
##보전
##DMA
수색대
오로치마루
ㅕ라
묘기
##웨인
413
여지없이
1882
Talk
북베트남
블레
잇세이
해경
##스텐
334
975
위스콘신
고레벨
구종
족쇄
코펜
키도
##체능
방영판
연방정부
무라사키
똘똘
트수
패드립
##용석
##멜라
##rel
눈물나
정착민
농구선수
류우키
고을
초면
타바
한별
##지주
##마우스
##GL
휴게실
인테르나치오
개콘
곤두
곤도
새삼
신족
윤호
자칼
한옥
##나레프
스페이드
아프로
가후
궁리
벤피카
언쟁
열병
인구밀도
##기관차
일대기
vlive
교가
떼거지
라느니
백모래
온양
햇볕
##비욘
##볼로
케이세이
요시모토
스카프
대공국
김성수
상한선
가로막히
Fn
TBC
##바우
오리온스
송지효
다자
멜로
위신
윙크
전서
청탁
총명
화형
##초롱
##좌파
블레이블루
그로테
끝장나
National
못이기
유현
폴나레프
##주가
스타드
보스몹
카이스트
김건모
북진
소명
수유
움켜
기업가
김태형
개심
동음
루브
말없이
외식
##포밍
외교관계
고증오류
프란체스코
JA
명망
백일
본받
시치
제원
핫도그
후임자
로이뮤드
##지도자
계륵
똥군기
어금니
히로코
432
네이선
1886
가상현실
레스너
윤치호
박신
상황극
정수아
김경훈
유부녀
Digital
키쿄우
쏘나타
암수
양석
중학
##부단
지하수
417
카와사키
김갑환
Eye
데얀
양녀
황홀
##성명
708
웨스트햄
BREAK
과속
라사
장유
코이즈미
해주
##사촌
767
Strike
이치노세
미마
불출마
에스트
연연
죠르노
##글랜드
BRT
네거티브
Ax
dj
레콘
못박
외지인
##예고
어쩌다가
신호등
정수빈
UMP
게오
구청
반딧불
설전
타령
##씨름
교육받
실망감
군수공장
TOK
동대문구
매한가지
앱솔
특능
힉스
##알리
방송시간
##ops
Records
먼로
제사장
톨킨
##다니엘
리듬아이콘
저기압
우로보로스
가레스
낙마
날아라
숄더
자지
참살
페넌트
##라렌
다이키
지배인
김재규
급락
어빙
인즉
푸아
화답
408
노부유키
##tainment
Tu
Van
노역
몸상태
송수
시리어스
유복
호재
##고뉴
##방망이
커넥션
김국
성곽
수열
종반
행인
##미라
지도력
마나부
##iverse
근심
마름
맹자
성탄
수질
질감
##영재
##천선
##절하
일반판
오리올
제조업체
콘스탄틴
메디컬
필하모닉
흑요석
Az
레더
맥심
복붙
비시
스퍼
윽박
풍월
허덕이
##티컬
##베가스
프로브
부산물
스터마이징
가렌
닐슨
당명
더그
연초
자성
즉사기
티베
##담배
##부산
##예장
프로축구
노선번호
667
Shoot
적대감
터치다운
Hyper
동고
우키
자두
청사진
##텔레
790
##지방경찰청
데스크톱
검지
맥거
부의장
원혼
일광
호스팅
##오니
운동능력
쿠로토
토시유키
키르기스
고질라
눈여겨보
Europe
SIG
꼬치
사보이
위너
위즐리
일때
일러
칠리
포칼
##양양
##출판사
최종장
부족수
시라토리
Doctor
선구안
Afreeca
MISS
개과
복당
지드
허허
히다
##차단
말씀드리
Hom
세베
월하
톤급
포인터
하다
올림푸스
린드블럼
##포타미아
백악기
옥천
큼지막
##교대
피아트
경영자
great
둥둥
역모
최남
50000
종교인
천상계
보건복지부
Danc
렉서스
마젤
섭섭
현주
휘젓
마음작용
556
치명피해
동작구
Cool
이세돌
철조망
Cre
main
관서
도인
승소
연일
##맥상
##장어
1883
단합
버락
웜홀
즐라
##인도
##청자
##gram
OD
hy
송진우
연무
평탄
##파가
##스타드
프랑스령
기갑사단
디펜딩
메릴랜드
만취
방조
수구
황진
##공방
##BLE
##VR
은하수
금융기관
시집가
애리조나
SOS
록히드
뺑소니
상법
시차
신궁
야동
야부키
연줄
인베이
조재
코덱
현경
##사당
##스트로스
트로츠키
일가족
선발출장
자그마치
국가보안법
fly
간통
궁이
급변
문민
와트
울주군
장덕
철없
sch
노현
도바
백자
크루저
##투아네트
Return
Ultimate
염화
향연
890
광산구
강재
##고가
##부서
##91
알리바바
리더쉽
##교육지원청
ZEXAL
비만
영성
장준
스타쉽
물건너
디스코드
1892
세도
쇼콜라
올시즌
지포스
포악
##조항
수마
술식
코덱스
##기압
##회수
이재학
모노쿠마
Welcome
가운
견학
낙천
도코
박효
사림
순탄
슬럼
용산역
절개
카무
호치
안전지대
국정감사
우유부단
Beast
무등
병문안
숙녀
철종
##라간
1050
어서오
코노미
team
동위
생수
식이
촌스럽
테헤
팰퍼틴
##보존
##세무
##카이치
상징색
릴리에
대진표
미용실
멸치
예체능
##타석
##타이트
##확장
##위기간
808
##awa
사일러스
네이션스컵
우타이테
##지형
##롤터
월등하
동수
실축
아작
짭짤
##민스터
##시외버스터미널
##천외
##총각
가능하나
드라마판
7500
출생일
사카타
점성술
항생제
Soc
기시
놀아나
천칭
키린
##vp
##후문
살인죄
베르사유
##부인과
고지식
바그다드
발돋움
Fox
Gate
노하라
로메로
맥길
순경
연작
##명부
465
##ogle
의료진
프렌치
##strum
선술집
공직선거법
Ctrl
Ger
다원
빛깔
푸념
##지회
##하쿠
머리통
대학수학
유니티
홍성흔
답시고
청천
기계공학
AIR
군데군데
신태용
DIA
Dog
광안
네무
데프트
머메이드
살살
서곡
숨바
옴닉
우표
자국민
토우코
플라스마
지브롤터
선망
용하
정숙
총잡이
코스터
타루
타이트
화이
##리노
##쿠레
##매출
##만지
##무술
##눕히
675
슈틸리케
고결
뉘우치
말랑
반송
은연
창업자
##어주
##웨폰
##amily
배틀러
운용법
화염차
광역철도
상호간
워너원
록오
베니스
정다
초탄
347
##arden
플라자
드럼통
볼로냐
포물선
로튼
앨버트
유스티
후천
##오나
##합리
##함께
플래그십
사절단
사파리
알바로
용수
우군
평상
##제목
바이마르
이정재
##교도소
대영제국
AOA
Java
루소
빨치산
샤프트
토야마
피코
##IUM
##협동
##oro
알리바이
##lee
지명도
하원의원
난바
렝가
인망
접경
378
유사쿠
대중매체
오스트리아군
이정후
원더러스
부유층
원어민
싸잡
오드리
##나귀
##커플
는다던가
김기현
Conf
##네트워크
nhn
논스톱
##쳐가
사용처
DMB
홍명보
Watch
나소드
막걸리
웅크리
윤동
후니
##서적
##논리
##절명
##탱커
세라프
스터디
코펜하겐
last
거포
경은
권순
루츠
무느
밀려오
야옹
야규
와키
접미사
표트르
##마가
마이페이스
##ARS
마무리지
##체육회
.!
렛츠
보기
##개지
iPhone
가모
라타
비글
앙투아네트
켄타우로스
##이븐
##xx
##성분
##내면
전차포
고기방패
권한대행
측정기
정예병
메소포타미아
애너하임
MMA
UX
골득실
레반도
브리즈
허도
##계역
##잉글랜드
inc
가정폭력
보수주의
매춘부
페널티킥을
수문장
골동품
Turn
불기둥
빈티지
아고
역삼
첨탑
##메데스
중앙동
414
오비토
띄어쓰기
근세
범실
유압
헤스티아
##사와라
##령관
마법공격
##ession
컴플리트
스며들
Tal
갱스터
물총
버진
양강
훈계
##백서
##zen
알렉시
기분좋
##ASE
과오
낙법
캄파
##누엘
##시리
멀티미디어
인건비
남조
아둔
어투
##눌리
##okie
블라디보스
##말라야
윤보선
그로테스크
CIN
후백제
407
1893
이주하
적대시
재학중
동해안
프로메테우스
극강의
당위
데키
신판
전해
##안하
경기광주
학원도시
Qualcomm
구청장
동승
목차
어촌
방문자
카즈히로
신호장
시노비
##대항전
리다이렉트
검호
방불
입부
잡이
##거루
위기상황
495
Teaser
바닷속
예배당
백경대
\\
도제
어쨋
예카테
즉슬
코아
훈족
##그리스
##스타즈
##OSH
보관함
축복받
열람실
지평선
레반도프스키
과세
발바닥
히스테
##뛰기
##댑터
치명확률
엑스페리아
동키콩
##YA
##교원
아무거
354
때려눕히
농후
미발매
박이
비옥
펴내
##특수
수도회
확고히
동두천
블레어
예종
으깨
##NO
##무덤
바이슨
Ready
집행자
히키코모리
테임즈
고병
공갈
국소
매미
아돌
어수선
유황
탈세
##개시
##yond
358
1891
골프장
Color
##otta
분데스리가
ya
덱스터
분별
열흘
움짤
절기
최희
코하루
##선사
##fly
고종욱
BAD
sol
장엄
징발
##프전
##부랴
##석방
정부기관
~!"
계엄령
점철
파라곤
해수욕장
sun
니이
성흔
요다
##어누르
행정실
검찰총장
수면제
마누라
함경도
##ALLEN
모미지
징그럽
찍어누르
청록색
슈프
연제
염경
##노소
##향상
##까스
선거인
이종욱
Human
남초
메시아
##내전
##츄어리
마나소모
KTF
유인원
Blade
Ultra
even
고슴도치
부커
전매
##판소
##올림
한국서버
타임즈
##ELLA
식료품
AST
씨발
##우르
Island
장원삼
오드아이즈
탬파베이
bea
수의
효린
##토나
스파클
best
화북
##사건건
##스프링
최하위권
레진코믹스
서든어택
얄짤없
적반하장
SPOTV
올랭피크
sleep
고현
논술
리니
비앙
슌스케
양구
왜소
청두
추장
표어
##UMP
##악마
601
##크리틱
GOOD
스커지
베아트리스
Det
나그네
히라타
ob
냥코
노니
서빙
츠보
368
케이시
동정심
BIG
fps
바예
산스크
아반
을사
층수
헬라
##간드
##Sp
스플래쉬
비욘드
서포팅
견지
난잡
서당
슬래쉬
의전
##시효
##정사
##범근
1250
Devil
요금소
비틀거리
모후
이일
일탈
전단지
점쟁이
##기소
포토샵
에노시마
UTC
요람
우왁
##포구
##SPA
기술명
경매장
라플라스
Gro
노자
추계
후버
##계동
##온도
##확보
##클리드
Disc
type
xD
구파
김환
사사건건
지먼
핑키
##서방
##검증
SPORTS
에미넴
낙찰
##마리오
어느덧
선택시
게레로
린타로
민지
신들리
유림
일동안
캣츠
키아라
##서클
천연기념물
Crew
거쳐가
카론
##초코
단자정보
슬래셔
감회
내딛
리패키지
어댑터
우화
우뚝
##래퍼
개인주의
NPB
HQ
아사카
취조
폭설
451
757
Prof
하마터
BK
네오스
새장
심즈
입막
점잖
종가
##iot
504
012
복귀전
멕시코시티
디아즈
AND
신중히
레닌그라드
심플한
외할머니
공력
궁내
모가미
서하
썸머
중고등학교
코딩
쿠션
현신
##ZZ
나날이
aid
루프트
참작
456
리베라
낙인찍
이말년
much
계모
도금
불매
사뭇
##케로
##주쿠
유명인사
362
도전장
BSC
모음집
WHO
IPS
짬밥
##상수
##테말라
하드디스크
뇌격기
사스
오미야
주만
터전
황동
##골렘
이름없
around
부랴부랴
대학수학능력시험
Cam
##승원
감독상
자연사
데스크탑
기말고사
고메즈
베르크
인강
입학생
진저
히미코
506
리저브
일점사
Hit
dest
우사기
##연자
##적소
##Re
시간만
중앙집권
##아이돌
연극배우
리라고
Rich
세카이
실려가
일루미
##프티
##수당
##바움
필터링
정은지
국명
냉방
누메
병렬
츠다
##VI
508
348
토르비욘
호남선
모뉴먼트
미각
서황
학식
##주제
이동시
연구개발
남북한
화강암
실랑이
에이드
유턴
차감
코튼
학산
##손녀
부르고뉴
선물받
오가사와라
양성자
강민수
발연기
오베르
청정
히말라야
원정군
align
SET
DEST
분당구
##군주제
공대지
산스크리트
가칭
노로
준위
##키트
##포비아
##내미
##멩이
509
##ett
리스너
기상천외
보건소
수년간
초전자포
백동준
하마터면
DPM
교만
단념
천민
##중지
스킬레벨
Android
##노코지
크로커다일
교목
레프리
붙히
유닉스
투아
1830
전쟁군주
가이우스
Py
볼펜
영진
의제
##서블
##pport
위압감
CHAOS
걸려들
배럭
이예
##체의
1112
타이토
세대교체
361
으려다가
575
그라비아
후쿠자와
Conc
경솔
디언
미샤
성부
##모형
##부양
##붕어
고등어
항소심
sum
너덜
모닥
미조
이릉
##풍뎅이
##상륙
##렛트
연속기
하남시
Center
##ULT
그자리
만다
직영
##관제
전체주의
스케이븐
유즈루
OEC
list
가일
가재
문규
배추
순백
알테
지누
청바지
한세
##택시
크라이슬러
MOON
압둘라
호나우두
염력
전병
판소리
회부
오오시마
NCAA
##기념일
##YPE
큰일나
스톨
신우
원당
특제
후속편
증오심
러닝타임
##ountain
은밀히
KeSPA
뜯어고치
IQ
광팬
레슬리
리퀴드
벌교
외도
장하
진선
혼전
화목
##로사
김민수
토우카
HSD
KF
과테말라
연민
현봄
344
보행자
비어
액티
우규민
장구
재심
##가도
##aff
양천구
광운
보패
약세
워든
참교육
패딩
후견인
##치병
##주크
시청가
655
고용주
##quid
하여간
그렌라간
곰인형
장음
침례
##출장소
366
패스파인더
노스캐롤라이나
##실내체육관
LK
made
ㅓ라
기무라
농심
텐진
펌핑
프릭스
##상점
NEO
정예화
마요네즈
손수건
아나키스트
타이타닉
딴판
렉터
시글
신현
##벨리
아이마스
Prince
NHL
수인선
gl
열성
학도
##시아드
다크사이드
##선거관리위원회
연예대상
위안스카이
Han
무왕
버뮤
헤일리
##꼭질
##총국
지휘봉
남북정상회담
광복군
AOS
두말
아두
##응변
##악하
before
구경장
히나코
도독
료타로
앨라
주디
##ui
##평준
701
427
민족문제연구소
소드마스터
인연포인트
NOV
동구권
##prise
인신매매
DirectX
##화장실
##휴게소
모닥불
Mur
hand
귀향
체첸
##bye
초대받
아카데미아
앨리슨
나베
산속
알약
위군
친화력
호빵
##동주민센터
반응속도
크리스천
대수롭
김현철
임기응변
갈비뼈
after
Law
금오
노루
드퀘
서상
이고르
인주
주동자
지참
##리거
##코바
전문대학
장식품
카나리아
자경단
프로파간다
덕지
선산
엘비스
영사
온순
원예
위버
종회
종소리
케모노
Michael
교지
그로스
약학
##슬립
##쓰마
계속되
자유민주연합
수록버전
상승량
카운트다운
걸스데이
숨바꼭질
명물
오뎅
웹드라마
포우
항저우
##이아
주변인물
바이브
챔피언결정전
깨끗이
미믹
백령
이프리트
팔자
홀대
##다람쥐
제작법
사상가
한자음
일제시대
수록곡인
아랍인
이웃나라
##국민회
##ronic
기안
에지오
현아
라고요
부르짖
##타이거
재정난
Adv
Rom
결핵
냉혈
바일
애스트로스
창가
한국당
선거운동
히로세
025
396
그레그
GRA
교직
약공격
##만만
##ju
ᆫ다기
예상외
징징대
고마움
헬싱키
ROM
Tot
나다
남문
로나
스자쿠
시무라
야토
중주
직간접
타노
##플랜
플레이스타일
카페인
김무성
푸이
플러
해저드
바르바
건국훈장
##IGH
화끈하
오락가락하
BH
니노미야
당나귀
복소수
빈부
창안
학동
회당
##킬로
착용시
몸통박치기
탄자니아
무카이
연식
쿼크
CHALLEN
치사토
소림사
이등병
맥라렌
백장미
절체
피규
##ature
스타인
SPI
회의감
##하마드
이진영
출사
칸무스
호빗
스킬포인트
##ities
공항철도
##수수색
마카롱
새마을호
경리
꽃다발
##ida
Ins
병자호란
엄친아
괴기
구와
진법
진척
지역사회
도쿄전력
524
오사카시
미나세
제트팩
OCN
서귀포시
다빈치
상설
관련있
컴퓨터실
편집부
CCC
코르키
카메론
어태크
저돌
424
호프만
아드리아
부평구
인신공격
테헤란
로토
머지않
엘레오
의술
코크
후광
##일정
##내륙
어디있
독립국
번번이
##바브웨
경외
라보
외박
우러
유원
홍주
##타이드
추가피해
조종수
늑대개
수용체
바리케이드
버젓이
Ty
만끽
봉급
살모사
우간다
토시로
중심기압
수행원
신인드래프트
다섯째
여대생
나찰
돋아나
말끔
쿠엔
파비
폐간
세계유산
##INY
대성전
유부남
사륜안
군관
야금
캐피탈
패싱
##상곡
##대혁명
기관사
AMG
중세시대
기차역
AGL
셀레우
구구
팽이
##그너
##UPA
##슈퍼
스킬트리
감정표현
초월체
오스본
창조자
불펜진
합법화
UMTS
몽고메리
Well
##정찰
##변동
##갈래
아마쿠사
넥센전
##토니오
요시노부
스팅어
##known
니르
옥션
정력
중공
##조스
우에하라
side
류성
리신
마상
사부로
용마
##유니
367
후지코
통상공격
##OUL
대접받
난도질
머뭇거리
심형
접합
##화이트
마지막회
출신학교
3600
건설로봇
연출가
AX
Bre
XT
관공서
뇌속성
웨버
전타
켄터키
##바트
##래드
한계점
쿠라타
돌멩이
사교육
스윗
아버
에닉스
연혁
위클리
친문
해룡
##소프
##통감
State
Prim
해치백
암호화폐
파도타기
스칼라
가산점
황해도
다마스쿠스
군위
군입대
다득점
무과
부캐
실연
여가
##고수
##론트
##린저
오르골
배경음
##스테드
그라디우스
포도당
유엔군
재일교포
Microsoft
과달
레게
후아
##댓값
메타크리틱
Have
빈정
썰매
지랄
##치즈
산업혁명
보건실
국대
암전
초호
형국
브레이킹
감염충
PvE
경장
대판
봉고
삐뚤어지
유심히
친우
탐방
피즈
기억상실
관심없
메인스트림
why
OECD
Sand
재위기간
##극물
##청소
ECW
게르만족
곡옥
그랩
디안
요오
우직
웍스
짐바브웨
이동수단
화력지원
423
일가견
SIM
가다듬
냉담
문중
미테
울버
총대장
현우
##덕궁
블랙박스
공홈
덕양구
머레이
조일
켄고
특산
발사관
##미온느
WCG
감초
로네
브롱
특강
##즈만
##ITH
1848
균일
발부
빨갱이
욕조
##da
##멸망
바리에
Brand
법무법인
NLB
데포르티보
커밍아웃
대웅전
NK
격주
김어
라시드
반시
쇼난
##쿠모
##지령
##갈등
아프로디
도로교통
MAP
신호탄
Comple
사인회
탄수화물
레플리카
너프로
높히
엔더
호황
황희
##향교
##덜덜
슈퍼마켓
만년필
평안도
Entertainment
HSDPA
가역
까딱
롤모델
인스티튜
##마킹
소닉붐
포격전
민정수석
피어싱
Wood
old
검수
명기
역자
종묘
좌타자
투시
##하의
##출동
##무어
성공시
미나코
Next
Heavy
생츄어리
설파
수증기
젠틀
회동
##블라
크루거
저녁식사
리액터
압수수색
이황
차등
키크
토도로
##스탭
다이너스
사물함
아멜리아
꼼짝없이
전륜구동
엠페러
수니파
염료
포각
폭뢰
##고발
##타노
##합금
##린다
신비주의
가나다순
DEC
낙제
루퍼스
목질
윤도현
조급
직물
442
스캔하
Quick
사이언티스트
dec
롤린스
하멜
호도
##보노
##니즈
결정짓
Boys
남한산성
박경수
노보루
공녀
레밍
머플러
사돈
산수
애국가
AIM
이이다
색소폰
패럴림픽
경박
내팽
반바지
엄두
이춘
일맥상
판이
페네
픽스
##상관
##안되
##강림
스키장
엑시노스
버키
일처리
허우
##gue
타카토
광역딜
하수도
는군요
배고픔
불도저
Vocal
야이
염장
##현대사
##리아의
411
유효타
##훈련소
단발머리
English
외환위기
일맥상통
알타이
옥사
총성
칼레
##마술
ᆫ데도
이제오
소지자
치트키
노경
드와
버밍
실외
암시장
연차
육도
접지
흐루
##교부
##좌왕
##새기
운동량
마르코스
마키노
여우주연
바빌로니아
건데
궁술
꽃밭
맨틀
박서
서유리
패도
호명
##세례
Shot
유메노
우왁굳
여간
촘촘
##메뉴
##충원
##아침
행사장
News
Bi
KH
ms
결백
농작물
림프
백화
소린
유씨
비행사
운전병
지대공
호소카와
테츠오
인명피해
green
구지
매버
세하
월초
017
어찌나
파르티
관현악단
버뮤다
데브
도통
샤우
셀틱스
패인
홍철
##후쿠
경기고속
생산비용
지구과학
372
김병만
노후화
선별인원
JJ
겨드
슈트라
애송이
챠지
##다섯
##몰래
##펌프
아니나
한국일보
시대상
아르민
음반사
HDD
모로윈드
건륭제
어렴풋이
공관
멍하
오행
징후
폴드
정보기관
관찰자
헤르미온느
##보호법
아쿠아맨
하네다
Pt
cal
백도어
병점
셀렉트
잿더미
##팅게일
부활절
타마모
##테이블
홍익대학교
Aw
Mis
회중
올리비에
아마미야
히로토
##ief
2024
##ADA
Need
face
문답
잔나
집값
쿠가
포카
##미인
##진단
##데블
물리공격력
에어백
리자드맨
계량
귀결
순직
##성과
아이자와
##라도스
Thr
우왕좌왕
도노
어묵
절호
풍운
##미선
##왕복선
##멕시코
##솜씨
노리쇠
무게중심
상업지
그랜저
PW
귀여
순응
원광
호엔
ISU
신생팀
올림포스
겸사
등껍질
설인
소나기
야야
종횡
하모
##레토
##투안
아서야
남자애
지배층
##aps
파르마
CY
거시기
발라
소티
에브리
윈디
쿨러
타투
펠로
헤인
##녹스
부산진
##uty
횡단보도
광활
긴박
매머드
화평
충격받
베아트리체
육류
참극
현대식
그레네이드
야전군
Surv
better
감녕
동적
마한
실속
초크
최동원
탈리아
##카인
##베이거스
직행좌석버스
코디네이터
정대현
key
거역
꽉꽉
앤틱
외투
우금
졸지
##어오르
필승조
투덜대
치수
치곤
피플
후이
##angu
PSV
손해보
##주자사
초음속
##감염증
마흐
본부장
유람
장거
한국시간
605
STAND
문자열
마구마구
매그니
ALB
고공
금남
상주시
학내
후편
##제동
##남북
불명확
이리하여
다항식
김어준
고행
기혼
꼭지
물감
쌍두
오창
전인
필리아
화법
블랙번
칼리버
마티아스
왕징웨이
금메달리스트
변혁
임영
존대
지렁이
##mb
다고요
자유행성
##파이널
경험담
GIRLS
각개격파
입막음
절체절명
##수트
##뱅가드
기념식
관찰사
ㅇㅇ
고은
머라이어
에단
장쑤
청풍
탄원
페터
##62
##난성
거부감
충전소
##blem
구심점
Bye
pass
극본
노진
##입국
##에즈
공중분해
브라이언트
판문점
자유행성동맹
투타
티무르
##팔라
##fr
##경보
014
뉴스룸
쓸모있
이만큼
적재적소
각료
누누
롬바르
무의식
원두
패킷
형세
##거점
##주림
013
부끄러움
"/
발록
양초
영희
우메다
화엄
이승우
네오지오
무궁무진
금정구
Fnatic
경동
글록
네라
제과
차도
##ware
방해받
주최자
이현승
하이드로
신디케이트
스캐너
어플리케이션
OEM
네브
다함께
달서구
본보기
송하
##공관
아무데
어지럽히
기예
운고
##조류
##후사
후쿠시마현
Lunatic
WR
교미
기장군
넘보
슈지
연적
오장
쟁반
콜리
쿠베라
##가사
##댕이
우주왕복선
생명과학
845
세키가하라
건전지
Si
너그럽
루징
비나
수미
신구
장장
조무
코발트
##클론
오타니
정통파
베이징시
원룸
##리오카
363
060
웃음거리
교장선생
가부키
군필
나발
배관
유미르
줄창
진의
##바니아
##SE
플래그쉽
해양수산
끄덕이
망작
못나
불모
아공간
영체
피임
호통
##잡기
##밀리안
##짓점
이러면
가드너
로널드
안죽
에일
우병우
한약
##증후군
##년층
##ARY
프로페셔널
Dar
경단
구레
생력
시군
실생활
여생
점보
정중앙
케플러
피디
##view
##렌더
고대인
ICBM
Zone
구국
포병대
##드럼
##종합버스터미널
거북선
CINDER
근딜
달아오르
독극물
득세
용두
험담
##71
##의상
##행각
---
유서깊
쿠노이치
List
게을리
##벨레
파이즈
활용법
타르타로스
마제
##코츠
##주파
지속딜
오오라
크레타
식스맨
임창정
토사구
CINDERELLA
메구리
인육
채드
콩쿠르
##men
##해수
현대전
바이오로이드
NGC
앤트맨
젠야타
격식
삼부
퍼짐
##td
뉴스데스크
나카니시
EDM
클레이모어
뉴잉글랜드
메트
미진
성훈
수재
알차
한우
혜화
##emon
마사야
야스다
라스베이거스
카와시마
이창호
Evolution
브리트니
캐터펄트
낚싯대
노른
머글
##전제
##승차
339
모창민
물색
심술
암벽
중일전쟁
파운더
차별점
PLAY
길가메시
붕어빵
게오르크
굴레
달만
마테오
에페
장재
축일
타게
##배마
##GON
마리안
문화대혁명
##OLED
플로이드
1866
트루먼
공들이
구더기
리디아
시문
팔로
##소바
##vo
추가데미지
마사아키
집단군
아시리아
브라운슈
쿠라마
Add
꼭짓점
부결
첫인상
충각
파직
##신장
한국팀
부르봉
세이코
롯데리아
마법사족
유미코
토도로키
Ga
Korean
공해
노병
논산시
라무
아게
입출력
쿠인
한민
회선
388
에버랜드
뾰족하
Pu
또라이
쌍수
어트랙
이노리
큼직
풍차
허버트
##노하
##익스
아르주나
429
에이리언
대원고속
char
##101
이토록
TAG
녹서
반물질
업자
윈체스터
주피터
캐럿
토속
토박이
플립
##79
##난사
요시무라
안젤로
키르히
컴퓨팅
북군
코보
헤센
##드림
##와인
조준점
ESS
선입견
경건
교우
국문
길막
까불
세차
숨쉬
식기
제나
처박
청진
##시바
##실리
##페스티벌
##렐루야
##랏빛
다른것
레이징
아마조
종료후
##ards
크롬웰
슈나이더
Jul
검신
그롬
긁어
맞짱
붐비
선반
신아
##북단
##요괴
##샤워
의사결정
러브라인
##그래픽
마히
언변
왕씨
통쾌
##외곽
##탐지
##넬로
상징물
박태민
신드바드
토사구팽
강산
로터리
##체리
##제네
##딩거
##조프
비상식
사에키
매리너스
Escape
IE
Pink
네루
어는
카고
혈육
##gan
##XC
케이마
기초자치단체
경구
차력
해미
##복스
##서면
양성소
여의ㅎ
다카라즈카
가제트
구천
##효진
게임스
383
인천시
오버드라이브
##UNG
궁금해하
강일
반피
자프트
##노사우루스
시간정지
나가수
출연료
학생운동
나이팅게일
438
서브미션
양손검
대학원생
김제동
군법
요그
적십자
절연
채플린
히코
##메크
##유라
##조준
##wood
자치주
객관적으로
HSUPA
##케라톱스
Sens
렐릭
어셈
젠장
패륜
인도차이
##대사관
##book
행정안전부
Joy
결박
데크
렌치
허저
어도비
클로에
고추장
Xen
다문화
불독
쿠르트
##기후
##쿠치
##트린
##보증
##MR
thing
LINE
예린
용비
우즈마
이능력
##주현
탄약고
Prime
고간
누출
총감독
키티
##SC
##케르
세트피스
really
BEAT
##크리드
Advent
##관객수
리서치
속기
신춘
쿠소
##천교
오토모
고속정
프린스턴
조언자
레지나
긁어모으
대란
모지
새빨
썰리
엔리케
##레틱스
##계리
##분과
##랙스
레이피어
연극영화
글래머
bg
문란
쓰임새
찬가
라이코
소년병
##ashi
포커싱
옮겨가
고다이
새틀
실베
유경
의정
천리안
촉군
칸트
하만
##바운드
1840
야구팀
더블린
애슬레틱스
Ast
바스트
앙금
준우
펩시
##oe
##night
##할린
359
리즈시절
##생물학
배상금
서임
아하
아로마
앞다리
원령
월세
머리칼
소모전
Three
유비소프트
자본가
혐오감
어머님
구치소
광탄
눈감
로키스
사가미
안아
지부장
채프
취침
크롤
하순
훼방
환영받
다독이
CHALLENGE
교의
레퍼런스
멀미
물방
비속
음경
입후보
MAC
베르디
가라앉히
Rainbow
김응용
앨라배마
삼남
영위
포고
한현희
##이유
##합회
아야나
##체육대회
토오사카
감량
갤리
당적
병무청
알란
오경
완고
채원
풀숲
플린
히구치
##기호
조용호
잘츠
카나미
퀀텀
파국
호퍼
홍마
##치요
타이라
에드먼드
place
Ky
mem
경강
맞바꾸
민지선
반가
상투
애버
페기
##uit
##다시
##증상
##rib
스나이더
워리어스
결전기
귀축
422
Boom
구애받
결석
막간
죠스케
##고분
##lude
데이비
데이먼
되묻
목도리
방열
취리히
##유공자
오르막
판타지아
메가박스
동성결혼
키노피오
슬레이브
하로프로
DOWN
Hold
명일
##케미
##그루
##부미
##요인
중국집
요구량
설계자
전학오
장민철
내비게이션
레조
맞받아치
삐걱
##창군
##성서
431
장난기
베트남전
에리히
이종족
##아아아
CNN
브라운슈바이크
곡도
나카이
대정
도매
셀주크
크리스토프
##동사니
try
티머니
##레앙
##세가
황금빛
885
충전량
1876
##국제도시
키타무라
관동군
맴버들
something
북서
소강
엑조
오작동
음수
카스카
한용
함상
##할인
##네르
레이시
##트로피
구속영장
파르티아
TYPE
국채
끈기
연해
예스
적혈
킬리
표결
후비
##조개
##head
국내등급
433
경계심
미야자와
1868
EVO
보육원
개사기
굶주림
신일
엇나가
용궁
이충
조범
포문
하임
후타로
##hind
##배열
##스타운
발표회
stand
들이키
맞이하
카자미
EMI
##대리인
공훈
문라이트
우서
##데오
에드윈
무협소설
스트럭처
UT
가자
당과
떠보
물갈이
##key
##마운트
##도트
##무드
##lege
데뷔조
종합대학
체인점
멸종위기
로열스
own
갈취
셜리
역풍
예속
자구
팔랑
마이코
영혼석
골든스테이트
Phil
워크샵
이도저
파치
헤이스
##당원
##중근
##가요제
드류
허들
##베츠
세트스코어
Stone
잠실역
open
뚜벅이
셀레우코스
강만
꿈틀
노키아
디텍
민들레
에결
플루트
강화복
428
만만찮
마유리
동년배
Tokyo
대좌
로하스
미친
보니
빌어먹
완주군
외피
중진
하주석
##원칙
다운그레이드
트레잇
운전수
기발
대보
병참
석패
통달
##화질
##창동
##해역
##stink
베르너
암흑기사
cry
said
떡대
미니스
악사
진통제
##포워드
##탄올
##erd
김경호
##스피드
마카베
선덕여왕
men
상근
##사레
##트머리
##구호
##부가
##GS
youstink
훈련받
##교육대
사쿠라코
##항공대
dead
출입국
십이지
알터
위민스
전성
조홍
주호
죽도
##브레인
445
미카게
스톰윈드
장로회
##구청역
이원석
폴라리스
General
MON
김예
뒤처지
로펌
삼색
증서
플라이트
##체이스
..!"
원이삭
티타임
후소
##정문
426
대형사고
스펠카드
##월드컵경기장
카보
헌병대
##슬기
대기중
블라스터
ANIM
청량리역
##부원군
에스페란토
YS
디아나
합천
##남용
##샤라
프로파일
공작원
고위급
카츠라
사모아
박테리아
주노
지기
##arch
보스룸
아바돈
쇼크웨이브
사이온지
XIV
단칼
입교
저울
척후
형제자매
Thom
아메리카노
브란덴부르크
페그오
뿔뿔이
광택
뒷좌석
몰도바
민씨
바구니
불덩이
풀개조
히지리
라이저
아래층
사이드킥
##annel
조미료
컨설팅
Fuck
고다
두동강
이밖
척살
패트리
##클랜드
부산역
645
shall
ESP
BOX
다분히
고각
남측
담백
세크
세군
소론
안시
##벨스
##막스
홈런왕
미디어믹스
박성균
인스티튜트
니체
러일전쟁
마로
묘연
볼보
셀룰
슈뢰
시소
아덴
의탁
이휘
##기독교
##계좌
알렉시스
한두개
세척
친위
##어잡
##톳불
프로미
투구폼
##ector
언더테일
이단심
Diamond
소프라노
Cos
mov
잡동사니
정운
케로
##고무
영화상
버스정류장
부산대
정령왕
크레토스
동의어
Cytus
길잡이
댓가로
멜리사
본당
중엽
판과
##uf
##합전
##메이킹
##사회주의
광명역
돌개
법전
보카
삐지
사룡
삼한
셰인
외판
쿠란
##연출
AMOLED
swe
청해
현악기
혼세
흐뭇
방송분
801
산타클로스
Major
자타공인
연천
##더니
##너츠
##위시
##AUST
1350
마사히코
##ifle
AMX
군무
노움
니카라
박카스
보검
브륀
##피노
경기전
472
##공학과
Scar
화염방사
아토믹
을려고
Princess
염경엽
립스틱
썸데이
이구
총집
태진
##무공
##리어츠
자료실
535
아르카디아
김이
역류
오턴
윙백
팝싶
회개
##구속
392
양상문
대역폭
분발
저소득
존치
휘어잡
##전수
##파업
일반병
스토리모드
복제품
##기능사
EXHAUST
모항
부마
부위원장
강직
독선
독방
돗토리
영민
##당파
##사과
##의어
##CK
##49
##느릿
##꺼풀
국가안보
1881
김승현
실용음악
##영업소
손시헌
Field
곰돌이
부업
술라
##브룩
##투구
프랑스와
디스커버리
승부욕
카르나
에드거
유효슈팅
티베리우스
_{
공제
나대
뒤따
라쳇
압송
티브
패소
환골
##소대
살상력
정종현
가뿐히
옥황상제
부파
일거
지고
창궐
그리니어
우주소녀
376
458
통합민주당
이그니
막시밀리안
즐라탄
네우
실추
안노
완산
정혜
주어
카누
파푸아
기본지원
음악회
으리라는
People
콘스탄티누스
샤샤
손호
오그
율리안
##야르
사이사이
야마우치
공포심
-"
불살
였었
찻집
흑태자
##건담
##튜드
가이린
Week
개활
별풍선
##화음
##지속
##ILE
616
미소라
중장비
1864
빈번히
단비
대천
야투
흉측
도쿄메트로
패스워드
##버스터즈
오라버니
Oct
검객
메마르
사토리
지박
팬드래건
결정지
전환점
운전기사
JUST
folding
oid
브린
임지
장가
##성인
독립전쟁
군사정권
925
코믹월드
요동치
##URN
두들겨맞
각역
구시대
물씬
에비스
짓궂
풍토
한입
화톳불
##개입
##맥주
##동료
##합작
##iro
으려나
작업실
MAT
류진
삼층석탑
서지수
일국
임수
키친
테라스
피라
##장인
레이즈
자유게시판
which
박지윤
퓨처스리그
미야기현
안데르센
ㅋㅋㅋ
디마
라야
슈피
##순례
##어군
강화파츠
성적표
대구시
진입로
총력전
Nod
고평
베다
영속
웨이크
출병
##레바
##쇼프
##농민
교육학
1863
우르곳
응시자
세탁기
비탈
빈치
심령
입영
잡초
품계
주력함
545
##고속버스터미널
중형차
유동인구
외세
조악
페트라
##상선
##슈티
805
##emo
후쿠야마
##고속선
블라스트
연수구
아르카나
인삼공사
접착제
나부
롱기
상전
체어
킷토
##푼젤
##ado
구석구석
궁금증
블라디보스토크
NDS
TAKA
dps
라푼젤
신서
##매직
##천만
##ona
주최측
라오우
더스틴
물망
정청
합중국
화전
마법공격력
마을사람
분리주의
Base
Drop
강윤
개천
데니
살찌
엘린
풍림
한점
##찾기
네더
원효
은수
제빵
총량
코멘터리
##고장
##한계
##안토니오
Expert
OVER
썰렁
하이트
##게츠
##흐르
##염기
광자포
김규식
뎀딜
리파
접견
집전
컨페더
##중국어
##키나
##cle
자연재해
##정보통신
서부전선
##aze
선봉대
금천구
기틀
끄트머리
덕선
독과
안배
특종
##너덜
이마가와
주공아파트
래디컬
##외국어대학교
비뚤어지
산골
장쭤
##rap
##갤러리
파라미터
동부전선
불쾌감
MW
글쓰기
몰려드
여류
연천군
젤나
평단
혼노지
##제거
물리방어
만루홈런
작살내
macOS
환골탈
규현
맹신
성하
전분
종친
##명왕
내리찍
군단병
Seoul
Sorry
코엑스
환멸
##불성
##레츠
##구축
##표범
##맨션
Move
세례명
안성시
서드파티
기일
논조
사문
츠네
##요우
##디치
##INS
텍사스주
유감없이
휴양지
다쓰
토익
##가문
##타일
조작법
고교야구
ITX
Phant
Classic
세인츠
Mass
bar
도읍
루블
월북
##시프
##경우
공공연히
적중률
Bird
hard
시끌
올곧
주례
질식
차탄
휘석
##하운드
##구급
##분할
##완다
##무기간
##ista
안녕히
으르렁
교구장
마소
보랏빛
비루스
소코
옥새
완비
화생
분류군
##회의원
미야케
Arts
간발
도영
도농
맹장
우도
지훈
카데
택티컬
형질
##동호
유니트
382
Tar
Yellow
박무
발락
측량
티치
아니메
태양신
스카디
패트리어츠
Voice
마르셀루
환골탈태
Town
구포
금영
소오
엘멜
완드
차범근
추수
##복싱
##ced
##vi
메이즈
역전골
프린트
comm
##azz
센티미터
히토츠
너덜너덜
Woo
본머스
##LR
##스티카
강희제
##소시엄
가니
박동원
솔레스
울티마
##대접
최고봉
##isc
Start
인증샷
상세정보
김상현
내셔널스
엘레멘탈
의석수
김강민
PACK
간언
도니
##이역
##구마
##빌드
중국공산당
저지력
##과학고등학교
난점
불황
쌍권총
장세
현인
##지긋
##dr
##치레
##제재
##왜곡
25000
노리치
아카시아
여행객
세븐일레븐
LEG
CBT
마네킹
##교과서
대통령비서실
HOL
James
mix
금리
노지
면식
바톤
장제
한적
##관급
##보좌
##추럴
##와리
##성대
##ala
모드리치
중계방송
코로나바이러스감염증
##증명서
윽박지르
개활지
레터
발끝
쌍벽
오태
총질
페텔
##노메
##졸업
한국은행
선수상
452
타카미
훌륭히
음란물
지긋지긋
과소평가
과충전
에센
##간선
##미시
##옥편
471
군주제
##ipe
스탈린그라드
##주공아파트
???:
스쿠터
스포르팅
개폐
리스토
만덕
명량
산시
시보
애꾸
얼간
와의
욕실
원류
윤아
체펠
##이적
##노비
연속공격
따로따로
##영화상
김경문
마그누스
틀림없이
문규현
mode
수탈
아열대
예사
키아
374
생성기
EDITION
느릿느릿
다락
무령
서거
송강
진양
채은성
크러쉬
향유
히바리
##디어스
안젤리카
주세페
삼인방
Four
개박살
섭리
승희
싸대
오금
원스
캥거루
한칸
생일파티
돌연변이원
물음표
노크
이혁
태사자
퇴짜
##퍼프
##디시
##oria
방어도
이형종
고되
광시
남도
봉중근
신보
엔하
정약
inter
트레블
신호기
도둑맞
##혁명당
Active
시커멓
Mas
NOT
mi
도기
사쓰마
제반
코하쿠
피비
히토리
##시이
##신전
##벌린
마왕군
메가진화
수십명
very
호르헤
고관
알짜
취사
햄스트링
흥겹
##매우
최종회
바이탈
중앙은행
에너지원
미츠히데
통계학
아우구스트
가석방
누계
베슬
일평균
충정
후시미
##니움
##벡스
요시미츠
공동대표
##ILD
나나오
모회사
주둥이
화로
##사변
##북로
경기중
016
폴란드인
지리학
트릭스터
모멘트
압류
어쩧
여주시
영해
잡일
##BN
##젝터
경찰청장
418
##AKE
Design
롬멜
박중
탯과
테너
폭도
하나마루
##inum
스위퍼
825
Control
해부학
구한
글라이더
정각
##우사
기록중
김정훈
Meg
파르페
분열기
point
슈프림
구본
대너
미이라
영공
울펜
이팅
주니
주앙
크리스타
악마족
테라포밍
라그나로스
도봉구
rel
구어
라즈마
박멸
분란
샴푸
식객
코무네
패트롤
##만나
존재하나
자주색
획득시
585
비디오판
남녀노소
카디프
노면전차
이머들
데들리
만해
바텐더
브롬
산학
안받
애타
오판
일념
지어내
처남
프랙
##출장
##홍색
1110
391
종합운동장
이민우
야스시
김진우
세라믹
잡기
하안
후마
##브릿지
##로역
##암사
##디오스
성장세
박지호
Camp
윤활
지영
체액
##바크
전투함
스토브
초보자
맥거핀
개회
설렁
종아리
챔버
##버젼
##세이브
문화재청
리무루
자괴감
살점
세관
우라노
허둥
##사비
##구비
##우에
세계대회
##나이얼
오비탈
김연경
ORAS
Rank
가챠
땡기
박일
백양
산장
찬송
쿨라
##집사
당연지사
755
트레이시
베트남어
마쓰다
광양시
스러우
강단
권희
라시
율곡
토시오
톱날
##니히
##데즈
these
한중일
망루
멍멍
주적
##불허
##포장
##시보
PCI
보수파
Destiny
직사각
아프로디테
Km
신혜
장량
정릉
찌그러지
##hr
DARK
부심
산인
악셀
웹진
##봉쇄
##니다드
단편집
조르주
단품
앙크
콘돔
핑클
##리더
##연사
##와프
전기장
락스타
레밀리
반정
안종
율리아
##산초등학교
미사용
389
댄스곡
도파
복근
브릭
좌초
쯔꾸
하미
##용병
##음반
##olt
024
치료받
신승훈
움켜쥐
Fast
군웅
석연
엘시
##스핀
##바하
##제자
##룸푸르
전투비행
버스커
EXIT
회의실
구리시
HSPA
빌바오
산모
생강
소크라테스
시어도
알랭
양립
특별상
기분나쁘
##ants
소총수
유스팀
York
김철수
맹장전
양치기
##기이
##절도사
후지사키
터키인
고위층
손익분기점
가식
강정
맘루크
삼단
인법
타미
##bc
이나호
##acc
김진호
Record
Jam
베어내
서늘
송유
이름나
푸르지오
어린이날
그랑블루
고드름
범타
실업자
십분
##메네스
세이메이
031
양산박
뜻밖에
인더스트리
게키
식충
연좌
##키네시스
은행나무
학생회관
감형
업보
여아
꼼꼼히
블루윙즈
한국방송공사
sa
김무
두령
불어오
최진행
크랩
##장터
##델리아
일반버스
관련없
놀라움
오노데라
최진실
ALBUM
AZ
Ba
RH
요나라
족치
쿠알라
##지우
##파운드
오오츠
모노리스
연회비
Ryu
Movie
대곡
미망
애석
제천시
젤라
캔버스
##회화
##겸사
상관관계
히트수
파울로
공감대
Command
권익
다자이
백범
뷔페
심쿵
차일
##마레
나이차
##urs
완전판
랭크업
시행령
SRT
클레릭
물렙
볼프스
신토
코리안
호반
##하이트
##조끼
##썬더
##리아가
신도림
이소라
마카로프
안식처
게오르기
Festival
que
밀실
발리스타
불임
시테
요컨대
집약
찬미
최루
##투백
##버라
032
누적관객수
WK
못먹
자애
조양
휘트니
다른사람
시나노
1101
마그넷
":
SQ
감미
근신
시화
참상
황비
이적설
전면부
부장판사
쿄류저
가평군
축전
##조지
##ani
우리집
대조영
충무공
Birth
레가
변천
병용
에트
##일럼
##신관
##슬레이
##특전
게임단
018
논란거리
387
대륙간
러브레터
고등부
사카자키
세레모니
한겨울
es
가곡
구양
다메
동공
별호
조모
진태
진궁
히아
##bi
##면조
##길드
##팩스
스트라스
대인관계
고인돌
두근거리
침체기
타게팅
Ye
광진구
늘상
니치
백골
비수
식빵
질의
##쿠노
Link
Sav
고메스
광희
노수
록온
우림
현판
##어파
과학실
스크리
마이클스
##!!!!
유기체
메모리즈
버터플라이
반투명
Fact
가프
명뿐
부들
선불
발표식
축구장
대기록
another
SAO
간달프
모계
씨네
워스
전집
중역
최애
펜더
##찬희
정의윤
Tele
사카구치
디아볼로
합병증
디디디
솔리
임실
척탄병
철십자
홍씨
후유키
##학규
##애애
##총액
엘리미네이션
소년만화
##코프스키
ᆯ래요
##기동대
막연
속설
진혼
청강
폭증
한이
##back
##밀라
여자부
715
Arena
서울시립
동북부
기어가
능글
돈가스
백선
산부인과
소미
##해경
##BR
##ette
선거법
476
행선판
경갑
곽가
면직
솟아나
최훈
##bor
##정벌레
##웨더
사이러스
작곡자
1861
클랜시
안토니우스
독서실
아버님
겸사겸사
마브
시제품
아임
윔블
유클리드
일약
풀콤보
야마하
스크램
##그리드
1170
결의안
세레머니
가스터
가버리
색출
신월
폐단
##우편
아르토리아
021
김성욱
고객센터
##uki
Hur
ZONE
겔리
곽정
군번
노리스
사발
에즈
여직원
해맑
##뚜껑
전투씬
이런거
문화유산
헤드셋
뛰어드
카와카미
Brown
포장마차
서기장
돌려놓
히사시
드와이트
금붕어
녹티스
레테
소현
압사
콜레트
크메르
프라우드
희열
##파악
##선배
##할머니
##뭉개
발동속도
두들겨패
시어도어
구면
달갑
땜빵
미하루
버럭
저공
진노
커닝
크러시
해탈
##특공대
##첨화
장애인
그린란드
불행히
오랑캐
BATTLE
매국노
갈레
뒷다리
렌지
선민
양화
##태료
##바치
##혁명군
금상첨화
야영지
PAR
낭패
뇌진
샌안토니오
서던
션트
완제품
으으
패리
픽사
##엔지
##봉투
프랑키
Smile
클라리넷
구태
권태
기신
난자
수개
일사
적룡
##bur
##보훈
##딜락
하이패스
532
카즈유키
조명탄
이화여대
웨일즈
등단
모국
사경
에크
열의
쿠온
##break
##no
대하드라마
생산품
바이저
아키히로
판정승
393
##가와라
브룩스
곡사
기뉴
메루
목수
실형
원펀
이착륙
##탈퇴
상승폭
##umi
프레임워크
카시야스
안들어가
Planet
프로게임단
괜하
난세
동티어
랍니다
부쉬
순사
전영
팩터
홍건
##일대
##검법
3300
수도자
나노머신
아그네스
노회찬
검진
맹인
산만
##파우
019
##rive
499
스매쉬
김윤환
Catch
Nothing
거같
끄집
베키
봉합
축성
##돌림
아이온
이탈리아군
교토부
##트루퍼
Rol
XD
농노
##루이지
민주노총
그라나다
가이드라인
격전지
미추홀
잘츠부르크
CAP
극비
긴가
멜트
속명
일산동
진솔
처해지
그런대로
기사단원
조상우
의자왕
후타미
rien
과태료
대광
장전시간
1865
##ext
장쭤린
fWAR
논증
릴리안
수지구
술잔
허황
헤타
##박질
##협조
##랩터
인터랙
043
ATC
정유라
Rising
고덕
남단
논밭
영겁
쿠지
탯도
행주
##역량
##러맨더
603
##iday
동남쪽
티모시
골탕
선서
주종
팬디스크
품절
##드레스
특수전
클라우디우스
들여놓
도치기
독해
삼대
이운
인포
일동
첫해
털어먹
배틀물
775
통신망
스프린트
조성호
##board
벌금형
김천역
무로마치
헤카림
Mast
샤쿠
약어
오에
##가든
##개비
##수상
##츄얼
생환
소액
위층
칠판
홍천군
##라다
과거회상
379
height
탱킹력
칠곡군
동심
삼청
암초
페가
##회차
##밀리온
크리켓
##tty
손해보험
##중국해
비아냥거리
hit
선뜻
장각
컴파일러
콤팩트
탑신
팡이
함의
후덜덜
##down
##유수
##숙주
후지산
마일스
전현무
Jung
가군
로페스
야경
유별
입건
학생증
요코스카
아미르
미즈시마
남동구
망나니
Too
가시마
몰려가
복어
유류
컨버전
힐라
##검술
551
##슬라브
초콜렛
Bomb
Fan
갈리오
두둔
루벤
주동
초나라
##포기
##예방
브루어스
리뷰하
FDD
잘보
처맞
칠하
토파
투레
##시모
##우우
##교섭
##출전
##베즈
상위문서
488
스웨인
히데유키
노르만
His
Ion
won
문부
발비
캐딜락
##거트
##러셔
##탑재
461
키리노
##하이머
코노하
군경
남아시아
남대문
서프
선식
영사관
운전사
주살
##게르
라이카
##inger
예의바르
간지럽
굴착
링네임
연투
엿듣
페미
포디
##가람
##급식
602
세이비어
오버클럭
구매시
일상물
대척
초저
##다와
##노쿠니
브리짓
1867
스윙스
다한
모씨
본회의
석기
영전
파판
##준영
##롯데
전기충격
감염체
완결편
소이탄
Mobile
NIGHT
Tonight
겟타로
범고래
사네
월리
인화
죠나단
##상간
마법석
이동녕
행정고시
확장자
정략결혼
Bf
rock
궤변
노하
별별
원죄
포팅
##코마
##봉산
이용시
고생물
브로치
Science
MLT
우사미
미켈란
DRAGON
나디아
로타
분구
서아시아
엉클
장보고
##화자
최고참
436
미리보
클레임
##쿠리쿠
Liquid
티아마트
빈민가
앵그리버드
보나파르트
아렌
유념
최주환
##olle
기어다니
Begin
집행관
발레리
최재훈
포그바
##장로회
압구정
Mess
레펜
오구라
쵸파
코사
퍼트
MAS
스태미나
이식판
이와사키
포에버
가업
거뜬
들쭉
사바나
샐러맨더
입맞춤
컬투
##에에
409
Produ
체크포인트
시노미야
파드리스
Bay
상현
서라
총포
친어머니
피노
##어른
전쟁범죄
신성로마
마루야마
진상규명
투고일
##ruction
체르노빌
Jud
군포시
기왕
붙임
제헌
콜슨
폭심
합주
홍성군
##가속
##오키
##MIX
##못해
##톨로
축구공
코너링
보관소
끝날때
동대구역
교칙
분정도
셀틱
콰이
퇴물
##드릭스
035
소총병
슈팅게임
나경원
어쨋든
Lucky
Rose
##스미
지원병
김근
베넷
크라스
홍조
##미디
##세로
페르시아어
다도
르망
예티
이지만
한솔
##셉션
울트라썰
주둔군
라피
만발
발밑
연나라
오셀
초속
치코
현안
##활용
마법저항
story
추진기
칭찬받
네뷸라
OOO
Sir
무릉
수회
수빈
쿼츠
##ram
##다크
처음보
어야만
전부다
안되게
정당방위
531
마지못하
Try
허풍
황국
##이행
##건과
공사중
SCV
1878
Prem
##고등보통학교
무효표수
매운맛
윔블던
곱슬
반나
예토
케네스
홈쇼핑
##ni
##면증
##김치
##itor
홀로코스트
소형차
1873
세일즈
울펜슈타인
VPN
방선
숭고
좌투
항공우주
타카츠키
도검난무
##ounter
시메트라
비속어
talk
답안
방덱
암행
케리
해럴드
##지온
##나트
##저널
Still
미술실
##레타리아
니콘
다롄
료가
르완다
베드로
여라
요법
진달
축사
키아나
페코
한줄
##찬스
그런듯
최상층
Express
허락받
오우카
망설임
에이프릴
매표소
철로
##배럴
스트링
마녀숲
전달받
일베저장소
days
Fantasy
CONCAC
류성룡
목화
아낙
약정
잣대
청운
회견
##덜미
##star
##ONIC
방패병
브루나이
AVGN
YE
군축
무우
수해
역인
음지
이부분
조위
최북단
퉁치
헬퍼
##평역
##게니
##VB
프리딜
구성품
코스믹
고만고
발롱
발더스
부안
숙원
한비
이유없이
유명무실
학생부
중앙당
파워드
예비후보
가속기
코카인
##여래좌상
고만고만
GH
니가타
단상
심바
자락
퀴어
후위
##연화
##우의
##번뇌
##핵화
슈퍼플레이
승부수
OME
count
저급
접두
##천무
##게돈
마법물체
작업대
비틀리
Warri
미들급
DESTINY
wing
굴뚝
동그라
수의사
약력
정신질환
들이박
##ATS
이자나미
교장실
1872
키미토
CNG
에네르기
Bit
김순
낙차
보궐선거
에이트
오군
##태영
##ray
##획득
로드아웃
신청서
취임식
##annon
선착장
스필버그
uh
공증
봄이
삐삐
야이치
진기
최명
플뢰
##프턴
394
begin
이인임
주방장
료헤이
루체
플린트
##덕왕
##쉬르
화물차
그랜드체이스
Flower
##하우젠
라그랑
페넌트레이스
CONCACAF
Und
고니시
굴지
누벨
라이거
스카너
황선홍
Gri
대미
싱겁
쓰르
청군
회기
##인먼트
##세팅
##비판
##랜스
##링겐
사용횟수
다가서
441
##베르투
##mph
##layer
시라카와
오렌지색
파프너
흐지부지되
Paradise
현봄이
관도
굿모닝
말레
미후
약재
카호
##금강
##굴림
미야노
박정환
사자왕
김신욱
오와리
벵골
안창호
엘도
연표
임차
적함
##전파
##방사
##현황
수상기
전자레인지
Shield
고전게임
벤치마킹
줄기차
이코노미
Ru
fin
개축
몸짓
지퍼
##수습
##iversary
쿠레나이
나주시
목마
변현우
안희정
연가
유보
##박수
##날짜
아이캐치
방법론
그라프
도서실
지질학
안티오키아
rest
믹스테
술수
와치
정안
트페
##모모
##변인
제아무리
마젤란
Tank
cap
양치
진귀
##코끼리
##루엔
##갑판
##려두
참가팀
조합법
Always
유효사거리
##공동체
타지키스탄
퍼블리싱
송승준
DK
메밀
무학
불미
여가수
오일러
인출
훈민정음
##백도
위치한
마이니치
##이즈카
이즈나
저널리스트
리젠되
겐신
담양
부계
산기
수력
##코레
##제사
##루치
##샤이
513
612
패자부활
Fairy
Jan
년뒤
뱅크스
어록
##서동
##생각
##슐린
##leg
ste
적대관계
ECM
구로다
Pen
__
걷잡
과천시
등하
어질
이물질
##소어
이제껏
606
things
치유량
뒹굴
무주
지층
키커
통풍
팔코
폭룡
##bl
##riri
##혈증
##흘리
아이크
개그콘서트
테러범
수백명
##르타뉴
도깨비불
고속철갑탄
쿠알라룸푸르
rienriri
승차량
주법
첫방송
##슈나
베르세르크
김동주
존경심
##예술대학교
조련사
미디엄
주상복합
spe
게인
독촉
비핵화
의안
증조부
##오케
조합원
번역판
메가톤
라스베가스
정신병자
겸용
교착
별나
세리스
액면
코지로
화차
##각색
심리학자
does
정사각형
Imm
HTC
슈바르츠
고병재
서라벌
care
내미
디모
미자
송은이
쌍발
##세이드
##실적
공식카페
을지로
고속터미널
은하철도
스티어링
리아스
블레이더
동북아
유니버시아드
겐트
금은
달링
반유
사할린
쇄신
점호
##런처
##클라우드
타이니
접근전
클라우디오
새틀라이트
대너리스
상남자
오제
화친
##도나도
아기자기
넘버즈
러시안
테르미
ABS
개복
서역
야단
어째
콩콩
##문구
##반정
##니츠
유아기
낙인찍히
쓰르라미
Dong
스푸
카시마
##동리
사진집
획득방법
아르슬란
번역명
감사드리
마리오브라더스
비잔틴
동그라미
UH
WM
관짝
라빈
브르타뉴
이숙
주급
한단계
##양면
아카드
아사쿠사
정동영
MXM
애비뉴
미켈란젤로
고신
곱셈
니토
라무네
룰라
묻어나
족제비
줄리안
출하
폭식
##드리아
경기시간
중간고사
아키바
855
제노사이드
브래디
DANCE
성충
전천후
##가공
##정거장
##버스트
유사점
아사드
플라티나
ready
임대료
영구히
박재홍
쿠루루
##크루저
크래커
너트
방음
성안
아그리
특산물
##전달
##노브
##평의회
가장한
도망자
아키나
398
탐정단
무신론자
루치
말러
볼록
사코
소바
커즈
##챔프
실력파
마인츠
##ounds
프라이마크
선봉장
부끄러워하
갈바
거둬
덤불
독스
명찰
보초
우암
조디아
##메시지
##날쭉
타이슨
거리낌없이
정식발매
SUMM
도키메키
return
화생방
거둬들이
Tog
김흥
내몽골
니오
##자율
##처녀
우라라
카츠야
플루토늄
에두아
Six
YB
dance
그람
몇시간
묀헨
안네
추뎀
##진동
전문직
링크스
##rian
##ches
이사벨라
Portable
Es
농간
등분
락크
명승부
변제
실링
차치
카요
토호
##마도
bat
금과
깡뎀
번스타인
어반
에아
컵대회
##육성
##만금
##텐셜
제작소
아이돌마스터
DDD
이원화
원호공격
BU
벨레
윤일
페레
##캐스팅
도쿠시마
한가득
장례식장
이복동생
작살나
이동통신사
LPG
가래
과녁
대흥
맏형
산도
아싸
자뻑
폐점
하성
##사화
##right
여성팬
우주공간
##sson
ext
시빌라
이완용
금형
어슬
의경
자힐
창술
척박
##누나
##촌면
리그전
타카노
마르타
##프레드
875
전시관
모라타
깜빡이
근친상간
심수창
Tak
그렘린
버저
오하라
진호
쫒기
##니우스
##자족
##BER
타이업
Theme
요리토모
전자제품
OMG
탈의실
QR
십대
양판소
태동
##징계
감독대행
##cher
파고드
카리야
비야레알
##매출액
볼프스부르크
꽃가루
루미아
영내
후나
##가라
##트리아
##서열
##itar
바람둥이
##imo
환경부
게릴라전
떠밀리
서아프리카
억대
염가
유식
창덕궁
##하오
##병과
경기만
377
조사병단
##aga
유대감
Web
낭만주의
제각기
새빨갛
남조선
마우리
병상
비실
왕년
워기어
유태인
호쿠리쿠
##위병
방송실
계기판
무적상태
##프로세서
Mega
ART
Phase
신생아
사각지대
에노모토
엔비디아
Cut
Ol
만타
신석기
형수
##타오
##승민
버스킹
메뉴얼
세자르
Dir
메라
버무리
벼르
애호
장내
최홍
탄착
핵폭발
핵분열
헥사
호언
홍문관
##고원
##입학
##이테
##타사
##oma
022
514
불안해하
댓글창
김민혁
1875
파동포
트라키아
age
ray
발로
옵시
철산
##롤드
우연찮
야심차
울버햄튼
귀검사
아후
재키
훈남
##테전
##ering
1820
최고점
마스터피스
브로큰
경대
교두
노잼
쿠타
트뤼
##수육
##래기
##혈압
725
아지지
합동참모
이과인
악수회
서귀포
신성로마제국
fa
well
엘지
혼선
##차관
##재그
##컬링
선발등판
에이다
외면받
KNN
현기증
어트랙션
UHD
샛길
연모
치나츠
탈착
한의학
행해지
##가장
##폴라
이전작
타이쿤
397
SSL
메탈리카
추격자
보드카
CW
심지
월영
종지부
히라이
##ANK
편의시설
Expl
수신기
볶음밥
구려
급성
대릴
몇초
볼튼
산본
우소
페잔
항행
훤히
##가합전
##보사
사실관계
하이힐
중앙역
이천웅
리바이벌
우즈마키
롱기누스
나바로
모디
뺑뺑
셰이드
익시드
호너
##주소
상당량
일격필살
상영등급
1592
들쭉날쭉
검법
예브
직항
철화단
##란데
##마뉴
##티크
의문사
캐롤라인
강영
대저
사행
처신
한카
헨드릭스
##금자리
##선동
##채용
는데두
여성가족
033
요시노리
##게이밍
애국자
한결같이
Friends
시큐리티
인테르나치오날
계집
린카
암만
코마치
페레스
혜리
##신세
##피코
마이카
반대방향
오브라이언
표준중국어
인질극
오너캐
Metal
Body
돌프
뒤셀
딱정벌레
범유행
봉준호
샤우트
설거지
썩소
앙주
열사
첫경기
카쉬
태공
화근
##체자
##들르
##craft
캐나다인
635
이승훈
##ists
목격담
이병헌
헬레니즘
거동
데커드
맹호
민나
신안군
코빈
##위버
라는데
시험지
Unknown
Clos
각역정차
겟타로보
Sleep
게놈
여백
종현
천궁
터스크
##적용
##퓨리온
##꺼기
사기캐
without
정통성
집합체
프로이센군
지그재그
로망스
군악대
Number
ZX
담력
렙업
새싹
여학교
자그레
키위
토노
팩맨
##불량
##펀드
##빈스
타카아키
트레일
김종서
College
believe
가츠
개간
데즈카
루키아
리필
리베리
메크
무임
피핀
호골
##한도
ᆫ다니
연구회
462
LSD
환풍구
번선
파샤
자유형
023
토모히로
웨스트민스터
박한이
하다못해
Pil
란트
베로나
뼈저리
소학교
슈즈
클롭
텐노
##전동
##기와
##블랙
많이하
마법부여
파워퍼프
헤이븐
클라우디아
거물급
Everything
쿼드코어
Wolf
뚝딱
소부
일편
장터
##슈테
##규진
한국말
##라이플
Miracle
설리번
임파서블
Kan
전언
풍산
##이면
##시치
##얼빈
국민연금
사정없이
마츠무라
Ly
나하
도조
약실
예편
오메
원색
전각
##원역
##베크
##성단
##field
고려인
레딩
셰릴
스낵
양다리
오시마
오닉스
쩌리
채리
초강
태왕
판서
##수출
##AH
##깡패
지방산
이라던지
나이트런
연타석
일간지
굳건히
독감
아찔
좌의정
파트리
##카날
##라티
다시말
##elly
가로등
타락귀
공성전차
루키우스
운휴
육교
지은
##maker
##gun
##보아
##셰프
604
457
사격장
##RESS
후미카
인과관계
롤리팝
##협동조합
FG
로난
연체
클로스
최대풍속
478
대리점
격추수
##boy
이목구비
Ts
far
관사
대현
란티스
모리카와
비씨
서플라이
신마
여울
유호
일문
청화
##주연상
6500
##카리나
드루킹
MJ
pol
감청
빗물
즉결
텐구
##특위
최대체력
마음고생
565
재판소
Beyond
##경찰청장
전철역
ASL
Flo
구요
대디
미실
백투백
##가오
##소매
##항쟁
정치범
블랙베리
042
468
액션스킬
협력관계
##과학대학
여섯번
장래희망
게으름
기주
말퓨리온
삼합회
주원
킹콩
##확정
##볼일
##츄리
부산진구
434
승강기
기독교인
왕위계승
복합체
북극곰
Butter
Holy
덕지덕지
Psy
미중
여보
오슬로
카사이
콘라트
자동소총
오프로드
Thunder
게이오
근무자
공화주의
Volume
이쿠타
Ok
SAT
김서
딸피
무자카
무안군
샴페인
야차
프릴
현시
##망상
507
실력있
Google
Myster
주포탑
청구인
해변가
킹덤하츠
조형물
동식물
마미야
포피
##미러
프로비
536
페르세우스
동네북
##사인회
GOD
겐무
머드
울진
재봉
현가
흉흉
##동포
##ices
스트릭
##ager
만족도
몰래카메라
영양분
BABY
사당역
Audio
Main
Russ
Sak
gold
김다
두만
마노
오중
활공
후공
클린트
Heroes
부득이하
Mus
국무부
돈까스
아길
졸라
츳코
프락
##양동
##LIGHT
##홀스
조각가
레전드급
후원금
hear
주립대학교
시즈오카현
히마와리
발롱도르
롤스로
순살
요조
익살
정한
조인트
차저
초아
탑급
권위자
나비효과
Front
네크로모프
예카테리나
긁히
논지
번데기
애지
##티얼
부탁받
##데이아
몰아세우
골든벨
BOY
세일러문
아틸라
Mine
뉴멕시코
류제국
세날
앙투안
애처
원폭
인회
전횡
텀블러
토스트
호무라
##일생
##르륵
##장악
##ench
메이테츠
운동부
마리오네트
김태호
LIFE
HEAT
양민지
꺼림
보은
식도
쌀쌀
알프
역무원
##매니
크리스찬
광역자치단체
불법행위
Room
택시기사
비스킷
뒤셀도르프
롤스로이스
GUN
Xbox
김찬
안절
우석
육로
챈들러
츤츤
크론
##카레
##설립
##라이히
이번시즌
463
트라이포스
남원시
pvp
구질
따끔
파타
한차례
##VF
##죽음
프리메이
정신지배
552
731
삼지창
죠지
테카
##vis
##할아버지
아이드
그림책
스포티
공유기
Boost
서지훈
오를레앙
홍백가합전
Sab
나바
남정
봉천
석호
아사이
옷감
워쉽
자인
츠즈
##포수
정치외교
하야부사
국경선
김형준
프록시
열애설
LU
란코
몇배
사혼
산길
월기
임찬
저출산
##교양
##비싸
스타니스
기계장치
443
이성질
Epic
STARS
올인하
광천
수몰
전야
##꿍이
##elt
솔로포
DEAD
사법연수원
영동고속도로
콘스탄티노스
동관
심벌
터커
##기갑
##우병
##북스
##싱어
##센서
승리시
523
522
종합병원
창작자
##우리말
MaxLV
피처폰
Army
염기훈
청계천
버밍엄
Hu
루차
바루스
후두
##volution
##PT
전자책
정우영
인어공주
LL
노자키
서피스
엡실론
연탄
영약
혈안
##니얼
##에서
##부전
##orth
레드얼
블로섬
면세점
라우라
쇼기
콩나물
##츠치
##권한
##경호
현대백화점
##제국대학
1862
중력자
메트로이드
동두천시
경강선
다프
대범
도복
재채기
적팀
팬사인회
##다양
##세탁
##적대
##젠테이션
##스터디
인도자
##나카타
김동엽
아쿠타
루카쿠
이오나
틈틈이
mk
사멸
##ij
##ming
Gray
##플라워
마히루
인터랙티브
FRE
Fish
cent
백현
슬링
읍면
참다
##ㄷㄷ
최강희
918
그치만
##strumental
묀헨글
간택
고풍
단명
데스트
밀정
브베
쿵쿵
##스케이팅
여우주연상
##지휘관
우츠미
진중권
발버둥치
면죄
브릿
엘보
카쿄
픽밴
##개구리
##주원
##석화
##olver
하루노
레드팀
스파이스
시마자키
발리언트
비스듬
미스테리오
섬뜩하
드레이븐
Kg
봉래
비드
사요코
세수
엽서
지스
##공명
##랜딩
시간제한
China
트랜지
동래구
무스타파
고취
논설
물속성
백스테이지
성량
성깔
##박람회
이제서야
706
오버킬
오프닝곡
해상자위대
김경수
신입사원
환호성
Terr
강공
곡성
김만
낙담
뉴기니
봉제
사영
치아리
컨소시엄
희화
희롱
517
##antic
폭풍간지
스카이돔
##대상자
##항공모함
디아루가
하우징
SIN
YO
고흐
발코니
폐막
하자
##atus
실패시
세이크리드
파라디
모토로라
와카나
양조장
들개
문세
방역
북돋
영고
츠베른
##라이온
618
이승철
##velop
미움받
##iece
Creat
돌직구
미어
백남
별볼일
서대
석고
신간
전연령
##기금
##키엘
##통상
들어내
마법피해
##시장역
알레포
미도리카와
달기
##여신
나이대
행정기관
칼리프
레지던트
박세웅
Lonely
일리아스
자쿠
험지
히바
##공략
##장학
스트릿
세트장
샤를마뉴
카롤루스
브라이튼
soul
바투
비뚤
오필리아
타요
행차
호야
##ito
메이코
히로부미
플라스크
평행우주
Acc
진흙탕
##예정자
ULT
Cle
마교
메오
세오
엔크
인실
팽배
허블
##민속
##중추
##암면
타카나시
출발점
##ISODE
일격사
이터니티
Age
Jim
kanc
광분
대낮
승정원
실의
윗사람
정전기
촉나라
퍼싱
##mare
##털리
##섹스
595
오스왈드
이재성
토착종
SOUND
광개토대왕
레플리
롱패스
영아
하바
##웰스
##레이지
437
EPISODE
아쿠아리
까마
년쯤
범선
사담
어게인
유이치로
이곡
코무로
항원
##크로우
##코파
파괴시
장전수
이승호
논리학
정수리
Build
안락사
의왕시
가환
각시
단색
뒤틀
번가
싸가지
씨알
화인
화계
##살리
##감시
##백산
##칠성
현대사
불가침
교황령
관할구역
불사르
Extreme
인스톨
해양수산부
김채
둘중
딜교환
릿지
미필
복학
산사태
엘드
헬름
##코믹
무기군
SPE
아파트단지
깊숙이
##자전거
갈릴레오
애드리브
nothing
대경
도드
밴디트
산발
색인
소토
순우리말
엄포
재소자
칸지
##구분
##약자
활동가
those
감사원
제라르
프리메라리가
주치의
FAN
KFC
공돌이
내사
버밀리온
시나이
영천시
##rome
##절단
블랙잭
케이오
불화살
거위
겁탈
남진
살균
세브
올가미
웸블리
팔각
헌종
##공식
##살바도르
##자일
##웹툰
704
전용무기
527
대마도
니카라과
kancolle
에딘
왕당파
임나
조향
진안
첫주
##리파
##포병
##비상
아야노코지
##OND
##전사령부
카르멘
1869
청소기
마태
몬태
몬티
##enge
오픈소스
무인도
sports
##해수욕장
레펜하르트
Kids
값지
끝맺
서기관
월부
유착
페스타
453
##ORD
예능감
질리언
내림각
유별나
Yak
날씬
뚱보
빠듯
##아빠
##세종
##비밀
하나일
아무르
사격시
유우지
아스트레이
시구르드
에스파뇰
촛불집회
프로텍트
엎치락
베트콩
선거인단
KP
국과
동맥
바클리
음산
자미
장궁
주당
주몽
한경기
##문동
##그람
##윤호
##폴리오
##ria
도로공사
알라바
엑소시스트
오드아이
tra
임모
조역
초도
페데
한준
해물
헬파이어
홍일점
##선상
##독자
##어의
엑스컴
심장부
아랫사람
리플레
시시오
예보
중보스
히피
##분사
##경화
알리샤
이렇게나
수치심
446
1105
Brit
제후국
슬레이어즈
윤용태
예토전생
Pac
Post
급탄
로슈
몇대
우문
음흉
임현
지브리
진품
템트리
황량
##에타이
##데바
노동운동
국립대학
코르테스
흡연자
비엔나
CAT
NY
Rail
ZUN
namu
배색
절도사
카이도
평촌
화학자
##메카드
##지청
##보크
그리즈만
055
기동대
플래쉬
러브크래프트
\"
body
train
미란
미등장
상납
슈베르트
연우
위서
음영
잡종
주익
##강역
부산국제
여신상
정면승부
크라임
중고차
##극장판
네모나
##그레이몬
PARTY
Boss
귀도
명주
##지내
##해설
##위험
##주장
##테제
##이지마
Change
김현정
게오르그
백혈병
자장가
조디아츠
wait
그레인
버몬트
삼호
우렁
원영
으음
투스
##지뉴
##교의
##베드
##링크스
소문자
러브콜
##조사위원회
캐스트속도
케스파컵
CQ
val
넓적
대추
문지르
물타기
베크
보필
손학규
시추
양부
조크
호탕
##유탄
##명과
##예린
서울캠퍼스
482
마무리짓
915
성명서
플랑크톤
트리스타나
동음이
다이너스티
뇌정
데몰
봉수
영부인
임병
타릭
##티치
##패션
##VO
자동권총
449
네이티브
대장인
pres
타다시
양현석
랴오닝
Money
ent
결번
경공
과선교
근현대
긴테쓰
산사
서체
점핑
죠타로
화만
##타다
##폐기
그리즐리
그래피티
레이디스
하이웨이
요시츠네
동남부
갑오
겔구
조너
##iation
##바늘
캐릭터송
935
이슬람력
##endo
소라카
PRIME
안절부
rain
강속
동과
무정
##인종
커버곡
시행착오
화이트데이
실전배치
평양성
한지우
##대책위원회
아라크네
과달카날
파르티잔
Pay
명암
정범
췌장
크리스털
불가사리
##thm
토모유키
아크메이지
박정진
plus
##샤오핑
##아미타
모우
무큐
준동
차륜
##키우스
##오더
##수능
##뮤즈
이동현
대체재
Cherry
전자파
시노하라
히로시마현
키르기스스탄
페네르바
Il
Kit
RAD
dont
물대포
삐끗
소영
신풍
어윈
자운
카리나
하토
훈육
##티컷
##ZY
캐릭터중
사고사
인류제국
고서라도
증거물
1877
카와무라
히메코
프롤레타리아
KSV
GST
광종
뒷산
새만금
샛별
습하
태상
##창구
##연애
##ho
방송연예
가스통
##ified
BOF
Joe
김좌
되새기
맥그리
몰골
야무
일발
캐러
쿠티뉴
##AB
학생수
정치자금
##ille
496
사마사
개시시
추리소설
메트로폴리
간만에
건수
광도
발설
콜렉터
타자기
태원
하얼빈
함덕
##간섭
##홀릭
그리프
448
##ries
박사과정
945
감탄사
스기모토
many
방영일자
cle
고레
국밥
덮어씌우
리콘
박완
버너
위저
음소
턱걸이
퇴로
티토
펜트
푸홀스
##히가시
타임로드
해리포터
모노노
스티븐스
무도관
사와코
##노래방
PF
곧이
덩샤오핑
도몬
베를
시늉
요사
토핑
하대
함급
##정류소
##통하
타이요
프라이팬
브랜디
마르티네즈
Candy
국무장관
기강
내어주
마등
보배
애프
여경
원생
음치
쥬리나
콕스
크러셔
##일식
평가절하
하이든
물리피해
문학상
치바현
PLUS
Cold
고효
광수
국가지
무츠미
반스
병세
옴니
이륜
일벌레
휘몰
##EZ
##잠수
모의전
복음주의
정재헌
##지하철
김시진
##외곽순환
겔구그
뒷배경
사니
피망
활달
##산지
##차크
트리폴리
갤럭시아
분화구
super
공보
모식
반죠
빅리그
실피
창사
하야마
헤켄
##에다
##윙스
오랜기간
카라크
제구력
강북구
Better
괴팍
왜성
참되
호걸
휴이
##우석
##에이스
여성주의
회복기
우선권
육군본부
##ISM
구사일생
공도
리호
마키아
봄날
수생
은은
처인구
코야
##미누스
안젤리나
똑똑히
li
곤도르
두절
명복
시트론
코멧
한태
함안
##관문
##따리
##겟돈
대학병원
올림픽공원
466
스펠링
술탄국
민아
바질
베팅
성찰
우애
회합
##피치
##배트
한국독립
571
사형선고
미라주
로버트슨
방위군
Middle
하기와라
flo
moon
구정
만부
불치병
임펄스
척척
화영
황정
##연계
##꼭지
##예비치
##라리온
Think
reg
컬러링
디젤엔진
매스컴
독소전쟁
Ltd
woo
로렐
멋모르
섬나라
성국
치달
퍼텐셜
##프론트
##측정
##초리
##진지
##네틱
소리소문
카메라맨
민족주의자
##iction
임재범
김화
남남
실토
야부
영일
##대금
##징금
##젤라
609
##osa
유비군
다이아몬드백스
Acad
GIG
cor
그윈
년말
로직
먹통
순록
좌상
키카
하영
##for
시작전
이용찬
회복약
엘리사
육군참모총장
명예교수
샤오미
Platinum
렉싱턴
사동
아앙
올때
음량
천구
푹신
히비야
전투신
아무말
오프시즌
야만족
워너비
금호고속
각별히
세군다
SUMMER
노림
레스트
양일
요로
차라
화두
##전서
전용장비
캐리비안
포항제철
스컬지
BAB
김희철
틈틈히
최남단
값비싸
삼계
석영
##량이
확인바람
마사노리
888
베르더
누적매출액
SCAR
나노하
토오노
국세청
sweet
NWA
개개
별동대
킨키
요시오카
페이데이
김혜성
Lake
sat
구부리
리하르트
삼송
아콘
예나
옹진군
차비
창공
파오
정규전
단편소설
메데이아
비류
칼로스
캐머
히컵
##전리
##분대
한국토지
PDF
1024
후미히토
타이틀곡인
몇년간
SWAT
흐루쇼프
몇차례
목공
북마
에이치
파가
702
623
유치원생
교향악단
남아도
말자하
요아힘
대척점
HIT
꽃말
록조건
마벨
인선
##재윤
에이벡스
으라며
메리다
에릭센
하마다
FNC
모데카이저
Ir
NB
기백
까놓
모잠
밀라
벤더
쇼이치
조아라
퀘이사
하켄
##시합
##년간
##vern
전기차
저장고
무라마사
next
열대폭풍
시한폭탄
파란만장
기흥구
남몰래
닌닌
뛰어오
살롱
파면
헌장
후도
##여진
##LTE
##규리
901
개막장
비상시
바실리스크
텍스쳐
Opt
Something
문맹
살레
성력
안쥬
엔트로피
열역학
응집
##입력
##토사우루스
##첨단
##erg
768
##aste
마츠나가
##베이어
MLS
오세아
강수진
샤워실
분광기
만리장성
##아카데미
관원
굵기
데릴
만국
봉헌
심오
외무부
윌리스
진평
츄리
코모리
킨지
킨타로
피케
##결의
행동불능
##cha
스타일스
지배력
439
가까우
개성있
국무회의
트렌트
Crystal
##호르몬
돌궐
무쿠로
움찔
취주
코브
한턴
##지세
##진진
##룰루
한국경제
##트리히
Model
근위병
지브릴
Film
라스타칸
근면
사브
소야
응석
찌꺼기
친부모
코테츠
크루스
호랑
##시블
##방구
##은정
##네츠
매우매우
미식가
인스턴스
모하비
덜미
미요
술병
알테라
집속
최현
##액스
파워트레인
인도유럽
디스토피아
쓰리사이즈
사시하라
근근
크레스
##민석
##To
시작지점
승리팀
909
응원단장
예비차
교류전
사이코키네시스
대동소이
광복절
##ootball
Anniversary
패자부활전
VER
권신
도호
방증
아퀼
인적
황의
##CORE
##학동
##예진
##근육
해외여행
듀엣곡
엑소더스
William
HIGH
Kw
헤집
화천
한국산업
지휘권
여행지
증거인
알레산
대구경북
mir
로버스
메흐
반값
식상
위문
재무부
종반부
택견
퇴폐
해마
##cient
##티엘
##부영
##온라인
##장기
##PD
1650
##edom
스즈네
##원자력
네스트
노고
라켓
명경
살바
엑시아
우부
조희
지호
##체전
##부채
##위원소
수정구
동화책
패션쇼
사유지
김옥균
JGP
TAS
먹물
민락
송재
저티어
##타가
##일수
##쳐스
통계청
키타가와
조광조
엄브렐
Cause
개동
묘미
삼연
신단
오펀
##시행
##탁스
##arn
레벨링
MSV
DSLR
##종합터미널
뱌쿠야
코네티컷
갓나
고연
누크
는걸
발등
신카이
울라
유에
유채
윤형
켄수
##사운드
##금리
##막하
세븐스
연해주
Ter
Wait
^^
hea
드문드
부곡
북면
성환
호법
흉포
##키우
##켄저
##탐험
미치오
567
견제기
HEART
오세훈
시몬스
Remember
드문드문
기거
월성
집대성
텔포
하와
##마케
##토이
##캡슐
마법봉
이해찬
멘탈붕괴
bye
배역명
세리자와
쓰리런
천도교
위그드라실
의용군
어버이
농약
미집
미지원
박지수
쇼헤이
신파치
조강
##CA
##부적
##탈락
##신군
유리병
순위표
공포감
산업단지
아사다
쿠로이
공급원
카라얀
타니구치
각계
디버
라모
방깎
베레타
이삭
줄루
코퍼스
파레
허재
홍염
##태호
##단련
##인류
##물품
##퍼러
##경부
##경주
1011
DFB
건국대
니케아
관아
다로
레몽
배향
소아시아
암투
육각형
청결
풍문
행신
히스토리
##모집
##cean
장기자랑
더군요
무라사메
분신술
김도훈
Kingdom
##타고라스
후후후
php
철원군
GREAT
과대평가
사헌부
Non
객석
맘모스
##양용
##방문
지하역
맥길리스
경민
미트라
슈고
일요
지당
한치
##레시
##트로스
##삼존
##생성
ᆫ다구
##omen
045
##도시철도
헬스장
안영명
구한말
PMC
내선
매끈
명도
치어
##가톨릭
##배달
나츠코
데몬즈
카라스마
요안니스
슈트라우스
모잠비크
Dam
미포
비녀
선덜랜드
싹트
윤규진
카스트로
칼바람
캘빈
케라
허비
헛소문
화도
##합동
수도권
SUB
국어국
본의아니
GUI
후륜구동
중앙정보부
경수
귓속
멜리
미캉
방방
비안
케찰
##불꽃
##다귀
##시개
지나다니
528
##aven
항구도시
오이카와
가축수송
Map
기탄
누수
레노
루자
빗이
유작
임경
테스터
티리엘
연구팀
프리즌
돌격대
##전문대학
COMBO
리의
본기
우시지마
파파라
##ged
##iner
인터컨
##ried
쿠로키
1879
보험금
양석환
vo
레서
성군
시니컬
오혜
##지지
##교정
##자연
##테이크
행동거지
사와무라
Memory
Tn
값어치
남서
니세
왕명
워런
키키
프렐
##sen
##모아
##러햄
도시계획
029
034
베이블레이드
step
이스칸
##타이너
김민재
인디고
레지스터
탐사정
허구연
##UCK
Infinity
하이데른
gun
깜찍
드나
렌트
바사
박나래
오언
츄츄
카펜
텐서
히무로
##축산
##흐흐
028
##ago
부정행위
남북조
거침없
놀러가
NRG
미망인
##레이라
머리장식
히트작
형제단
법학전문대학원
아역배우
미토콘
위닝시리즈
반비례
삼황
시성
통감
파리스
호호
##다비
##신도시
##승인
1750
영향받
##리어드
장수풍뎅이
와이셔츠
블록체인
##플레잉
베이비복스
평창군
부화장
당차
보임
분통
앞글자
약진
엘렉
으름
협의회
흐느끼
##충제
##너무
538
스킨십
창조신
안쓰이
전광석화
자급자족
use
가메
가좌
기치
동티
래피드
렸다
마산시
변두리
분말
사석
애틋
앨버
타천사
홍범
##문왕
##지종
##낙하
지역민
브라흐
원자폭탄
희귀도
호시이
터무니없이
박효신
GI
망국
박유
반출
일도
증조
짝짓
포프
한소리
##소르
803
연료탱크
여운형
나데코
신격화
Pick
River
개년
기립
도공
램파드
수어
오묘
오카리나
##개체
##투합
##셀라
자유선진
홀딩스
VoLTE
Media
구구단
기어스
롱소드
맥과
북조선
촉박
코렛트
클링
폭시
한지원
##은희
레이라
대학가
1102
출판물
웨이보
위상차
어비
연변
음속
임사
주모자
진산
테살
##전승
##사론
##계투
##절기
##운데이션
프란체스카
김헌
덥스텝
만전
맹약
반수
방덕
자영업
죽지
켈투
게임사
회복속도
얼굴마담
남성혐오
엘리시스
건축학
어린이집
구도심
김민식
Garden
Made
damage
기독
숭상
야탑
조봉
집반
캐미
페이드
##고백
경제부
타격시
텔레포터
##load
상품명
미스틸
파이어폭스
인조잔디
Bron
이현우
pur
데시
모리안
산술
시유
신목
언터
##단심
##괄량이
아야나미
지방관
while
으리라고
지그문트
사채업자
아마조네스
가느
레예스
버킷
알베
의적
혼마
##시야
##농사
라이베리아
##위기사
이사금
공정거래
에픽하이
에도가와
최우수상
그리드맨
퍼블릭
의기투합
강속구
TU
ᆯ께
거름
과르디
뒷처리
사공
스머
식중독
유조
입항
총공격
피구
##ners
희소성
article
동음이의어
구니
말괄량이
서훈
악력
용아
이교
통념
##종자
아이노
027
살인미수
각본상
신동아
아틀레틱
Hong
pc
기제
랩퍼
발빠르
비사
빙상
섭씨
아씨
아뮬
어부지
총영
추돌
탕수육
한주
##잣대
프로이트
프레드릭
산타나
나기나타
파나소닉
강주
단초
물증
방범
버추어
본따
쇼룸
원핸드
학칙
##대통령
##습관
아키히코
동기부여
김태훈
알렉산데르
사라다
요르문
투르크메
봄버맨
IBK
미토콘드리아
어부지리
hot
강소
나구모
미심
민혁
손주인
잉그램
정돈
한전
호잉
##불상
##Cl
정보부
##ecs
727
Dev
반사신경
사촌동생
고석
기보
만톤
봉착
상암
잘맞
제고
쭈욱
호카
힐스테이트
##LECTION
##zh
오랫만
에이브러햄
베네딕트
키르히아이스
떠드
성제
아그라
알력
양당
준용
참백도
친필
##해영
##농단
아마겟돈
김태우
chan
신부순교자
attack
첨언
클라스
키타카
하뉴
##티코어
##막염
##샤드
##뉴기니
##탐사
게임중
036
1107
##ORN
하야오
드레나이
MMD
단정짓
김제시
부러워하
노팅
뉴타운
벨렌
사측
쉘터
오상
왕귀
조마
찹쌀
##로보
##실은
경영난
##ments
남아프리카공화국
Captain
깡딜
비원
양친
오펠
원단
위증
일거리
첩운
페스트
히야마
##체류
##소원
##형성
##페로
저우언
배성재
눈독
다에
라엘
수메르
어종
어니
절이
채연
코민
타조
##홀로
##enix
오래걸리
부정선거
프레슬리
개그우먼
코스트코
에드워즈
Note
Duel
율리시스
교두보
조너선
고부
덕목
메노
바덴
이디
자시
패잔
##포항
##솔트
##례문
아이피
프리마
026
##대교구
필사본
스파르타쿠스
공소시효
aut
동춘
반올림
엔카
영주시
우고
카이오
점령전
가로수
Sup
exe
회계사
우편국
조로아
페르디난드
저우언라이
vers
강상
광서
디파일러
불바다
세리아
수저
이베이
##원형
일본내
이동은
알레한
EVOL
진흥왕
뺑뺑이
DOC
영제
툰드라
파울리
황규
##지터
##포지션
생산자
서비스업
시각장애
##개발원
대검찰청
help
ps
도량
목련
엑설
윤길
큘러스
##iser
나이젤
패배자
에디트
프레데리카
월희
윗선
장종
황조
잖아요
연극부
당일날
막내딸
승자조
카네코
##시각표
동글동
Fix
air
권용
명석
무반동
세모
여교사
인심
차예선
칸다
파비안
##연설
##츠이
##LIVE
##박죽
1104
증명서
멀티플레이어
실장석
DTD
일루전
Daniel
은연중
뇌진탕
투르크메니스탄
Fear
REM
고의사
디너
붕붕
셧다운
소이치
예천
##예수
스피너
카이팅
수집품
정차역
외관상
image
Empire
MU
Uh
개쌍
새총
육해
직할
진무
투철
허베이
##민우
##용지
##루비
##그로스
##ston
운행구간
베이가
놀라워하
제조법
영업소
감시탑
구스타브
클레멘타인
Mut
보성군
신본기
채석
태업
해신
##컨텐츠
##채팅
카드색
제작위원회
애니송
요시미
철도선
##ized
보충역
마마무
Kur
sign
닷컴
안수
##chen
##소카
희생번트
##ACT
선회력
에레라
ARE
리엘
백댄서
부락
야산
허전
혼고
##이념
##해금
##주임
##취업
진출입
대피소
화순군
내리막길
노랫소리
EY
Sold
간염
린지
본좌
임직원
찜질
특방
핼리
##개장
##관음
##주정
##울림
##ros
599
665
아시타
사마염
헤이그
##축구연맹
Blast
김기춘
순환선
Phys
Darkness
입법부
스커드
원투펀치
원펀맨
Hub
야신
용언
3100
내부고발
처치시
아우렐
frac
met
락온
모아
우랄
최철
페라
피클
##질량
##부동
##실에
##광산
부산항
이중잣대
브루크
조기종
ORIG
Auto
서강대학교
네스츠
VJ
기드
맥북
밝아지
##하워
##wa
전설입
토모키
예니체리
스크램블
HB
류트
몸놀림
못들
봉담
스고
파비오
풍화
해자
화술
##저러
##KI
##손잡이
##디디
멤버십
마이아
481
이탈리아인
467
균형잡히
1815
시흥군
시구레
Demon
이건희
Version
Dual
HY
년하
의종
환대
##기전
##인대
##릭트
자유의지
북한산
LGD
##ibr
Goodbye
후루야
##ottom
오보에
반려견
LIT
ᆯ리
검심
땅거미
루빈
모비
심산
유순
이샤
티에리
파운데이션
##시픽
##코크
##침입
##경남
##ined
통일부
895
코우키
휴식일
원더랜드
아지랑이
징역형
키요타카
종횡무진
가젤
마아야
매회
석관
속상하
호령
##공공
네이처
오토스킬
576
토모요
빈부격차
강용석
개코
곤욕
뒤죽
무영
미일
밑줄
방제
외무장관
표고
##개수
##네리
051
여론조작
939
키리야
판결문
루팅하
꿀꺽
레킹
불협
세드릭
시루
시현
신력
증손자
참으
합심
황가
##태클
##아와
설명문
차지명
454
forever
테라다
수천만
최면술
내팽개치
임찬규
레사
매질
보금자리
빈축
선관위
수억
와스프
이프
저연령
##워리어
##쟁탈전
군사경찰
464
스카이라인
신청자
의무관
미츠오
아담스
덤벼드
노도카
양털
제럴드
쥬스
함평
##키마루
##마도사
##하가
##투데이
##침해
##성면
##장각
##왜성
사용후
##시간대
##야구대회
인디펜
MLG
Conn
##hythm
아이젠하워
마릴린
베베
서먹
소시에
신씨
악습
예제
익수
저온
정소
##츠마
##용준
##fer
##rab
##ization
도요타
하울링
고저차
Bec
광풍
방탕
법술
블링크
속구
식겁
오산시
외무성
원양
원더스
진경
##지연
##ency
대한축구협회
4800
트레져
안티테제
의병장
Drive
이근호
일편단심
Ace
History
PB
냉대
대서
비프
저물
지젤
코나
##미국
나이트클럽
고문관
무라야마
윈드밀
데카르트
대남
바삭
색슨
성민
성규
외편
의주
쟁탈
정판
한의
호민관
홉킨스
##팔계
##진여객
##캐시
아르곤
치르노
542
노출도
제갈각
북중미
ANIMATION
Som
Sant
보온
오그리
워로드
허름
##터급
##심부
우주복
SPD
586
##베르그
바보짓
안기부
hey
선착순
권희동
##루엔자
뒤죽박죽
감바
곡조
관목
괴링
데메
아다가
암암리
우나
의중
태안군
팬택
한낱
##대서양
##법률
##예배
##무인
Combat
아소카
Dim
Sen
기화
도내
디카
레라
무굴
서창
자유로이
583
미야타
공작령
919
카와구치
전당입
박경완
아파하
컨페더레이션
HUD
가덕
갑부
스다
요망
재계
전극
풍수
##기억
##팔렌
##타크
##커뮤
##인트호
남성향
469
장기말
우수수
강남스타일
##도로공사
어이없이
발레리안
arm
Geor
열렬히
부지런히
까마득
난적
바렐
박빙
부랑
아님
원담
은상
정남
조드
지산
쿠잔
##리쿠
##신각
##년도
문제지
053
야마나시
기어오르
Blu
싸이월드
라미레즈
Songs
이조판서
선딜레이
모성애
cop
개새끼
기현상
덧씌우
목덜미
브람스
헬무트
홀랜드
##복장
##커리
..."
카미시로
프레이즈
조수석
##라트바흐
가쿠슈
검소
리쌍
부비
심안
어족
우비
족발
##창수
##오픈
##블링
##테리
트리니다드
541
가까워
##베르데
와이어트
대립각
1175
WHITE
포털사이트
떠들썩
STANDARD
Wow
노르트
락다운
양서류
우거지
천기
키마
풋살
흉갑
##드름
##산도
##신보
상대론
리버럴
수십개
##shine
스탭롤
인문사회
Peace
쯔꾸르
고이즈미
구아
맥기
베티스
엔데
의천
진진
하한
##목마
##밸류
남자부
037
테이밍
792
중거리슛
소서리스
에보니
비욘세
맥그리거
ㅋㅋ
롤플레잉
립싱크
무해
산조
새크리
샤넬
설레이
아련
음대
철광석
투과
파상
##니쿠스
오랜시간
천공기
수제자
적혈구
;"
뚝뚝
업셋
정려
초특급
타밀
특효
##감도
##만세
1812
소속기관
삼성물산
세이빙
##ages
나루히토
Steam
Endless
더듬이
불매운동
Mot
wik
가오리
롱런
박노
엘윈
우의정
윤명
주무르
칙칙
##오토
##치타
##일단
공격방식
스타디오
골든디스크
Forest
##fferent
총집편
군견
남김없이
다연장
반디
삐에로
산고
특채
##고용
##kin
##노운
##엘리
685
한일전
새까
태영
투약
트랭
##설치
##넘어가
사진작가
평화주의
잠깐동안
KEB
파탄나
놀래키
이브라힘
돌개바람
도지마
지레
카세
티글
##전능
공격헬기
일본서버
시험기간
마사요시
##AME
기갑부대
최하급
쥬얼리
Deck
Giant
광합성
대가리
라덴
모히
은혁
파계
현진
##템포
##피그
##팬더
마리텔
의식불명
이성애자
714
##타이밍
##ITA
Bob
서재필
페로몬
깜빡하
망나뇽
Hill
put
들추
산투스
외아들
원동
웬일
진균
추풍
카렐
한의사
##학술
##비토
아도니스
중앙시장
사와타리
아나키즘
소시에다드
kiw
가련
뚝배기
삑사리
##다짐
공포영화
529
메인이벤트
랭킹전
카카오페이지
시우바
남해고속도로
투닥거리
심형래
꿍꿍이
언양
엘살바도르
잉태
캅카스
홍어
화단
##인자
##플레이트
알트리아
blog
RUN
개캐
구수
도술
번대
시지
위패
차드
한밭
합장
히에이
##래곤
562
근거없
##ocus
공립학교
때려부수
양동근
오웬스
인디아나
mom
무에타이
액슬
웰링턴
전도사
점찍
##디브
출신자
프리실라
##비아파트
라스푸
김현우
혼합물
정우성
##스트럭션
VCR
Frost
진달래
Tower
에티
임마
판관
##승진
##eless
484
그레이즈
나카하라
화학물질
CHAMP
아베노
사와다
리히텐
모레노
JE
PI
당번
리알
머리스타일
발드
시류
역방향
채병
초경
##오제
나오후미
한국도로공사
국가기관
447
Soft
사탕수수
세베루스
규약
맹획
메디아
본상
사골
승합
콘월
황민
##oL
시즌동안
성장률
##ended
로얄미디
중부내륙
루팡레인저
자일대우
보령시
저소득층
most
어불성
커팅
헥스
##oom
얼마전
행복드리
작사작곡
전라선
성실히
베오울프
대식가
GSTL
과르디올라
패잔병
어불성설
박도
약빨
접종
총리직
리드보컬
대인전
이경민
루즈벨트
##디지털
특산품
Kid
개변
밀렵
뽀로로
서군
슈워
에베
일월
초짜
혜자
##위즈
하나만큼
1002
국제연합
tog
코르넬
##주택공사
공영버스
산출량
Lil
못차리
외골격
항명
##파로
복수전공
Alive
Exc
second
MEDIUM
NOVICE
굿바이
눈금
메소드
술자
슈어
심우
엘리오
저팔계
피네
한사
##레브
##신용
##커우
##셉터
아우크스
835
중립국
계양구
난생
다전제
시공사
식탐
항거
##니나
##여리
##재훈
##피에르
##네어
##빌더
방어시설
우리당
어리광
조각나
매상
병조
불호
샤벨
시폰
왈큐
잠비아
종과
주짓수
타악기
팀버
##국당
##모도
##죽순
장갑판
교통편
솔트레이크
Phantom
인터컨티넨탈
EFL
강약
국자
박식
백스텝
별것
엠퍼러
홧김
##모독
하루아침
에어본
외모지상주의
SSC
ATS
식극
얼라이브
펄럭
##공과
##증거
##달로스
기업체
death
정찰대
김용의
동해시
경인선
자초지종
Was
나옹
라만
묘목
심근
양봉
오무
정맥
##date
##니니
##SA
##경대
038
721
증폭기
전지전능
Service
패트리어트
Piano
빙산
신노
신비아파트
원도
쪽팔리
파혼
##유학
##ared
해군력
Seven
포격기
Unit
해피니스
Rocket
##IVERS
가학
근해
우류
참정권
##세나
##델리
##읍사무소
카드게임
발생시
단독주택
여왕벌
자본금
미노타우로스
문성원
시무룩
아르티옴
ye
끼니
다대
비바
소견
송치
인슐린
정이
주원장
창씨
춘계
키카드
테베
##로하
##대출
..!!
653
##ATH
신문기사
농구대
비상사태
Liber
꿋꿋이
Rac
계백
솜사탕
요염
이맘
지린
할복
##마흔
결정나
3800
사무직
오케이
러너웨이
Aug
Mont
Yu
경각
도의
돈나
뒷전
방위대
이괄
자의식
젖소
헤헤
##TT
##아기
자리수
마리야
607
대장정
Mech
브레토니아
용자왕
최원준
삼장법사
코오롱
개과천선
가느다랗
아우크스부르크
Wing
대류
베르트
서윤
와시
유중
폐암
##SM
##비하
중심가
타임슬립
고문서
환승센터
김동수
Its
우에키
독재정권
좌표계
임재덕
원통형
ahq
데인저
샐러리맨
Aust
JIN
괴악하
깔깔
덧대
모유
수렁
스레
시의회
장쉐
탄속
페카
##러시아
##통과
##네세
##itree
평가원
시스코
은퇴식
크리슈나
중랑구
드시
리니어
리퀘스트
부에
##대첩
##야행
아이팟
도쿄돔
473
탑재량
프레이저
김봉준
여호와
Pain
리엔
요헤이
제모
중서부
콰트로
호지
##벌식
##arge
대항마
##ept
Steel
깽판치
초계함
도바킨
Bow
Dash
몸뚱
수달
에볼라
향교
헬가
##RI
##ems
후지사
쿠로카와
Dreams
이계형
자그레브
ROT
bp
cd
마재윤
망연자
삼수
속물
천시
##실과
##롤라
##스크립트
대체역사
712
로얄시티
브라우니
안성맞춤
도화선
Mult
대호
데몰리
듯하나
라테
미대
손배치
안광
휴전선
##두기
991
통상반
그랜드마스터
처참히
오리엔탈
슈마허
cur
마애
말파이트
멘델
에든
운디네
세계정부
052
을지라도
588
오니즈카
오디세우스
경원선
이바라키현
조디악
아뮬렛
망연자실
광인
구부러지
날로
바시
아첨
열심
일출
주전자
히나미
##부도
##face
##필품
##JECT
##빈저
1005
##문화회관
액션게임
플레처
회색도시
##국민학교
아이디얼
혁신도시
리트윗
Japanese
일장일단
상비군
요르문간드
대규모
부군
사창
야크트
양준
엉키
점주
##쿠키
##트레
##분포
한국전
시대극
inst
연습장
저작권법
move
군무원
기다랗
대자
말포이
목줄
왁스
잇쇼
흑염
##인생
시즌만
전차전
프레시
564
패러미터
Into
루시우스
포트나이트
서머시즌
UED
walk
가봉
게닛
광업
닥쳐
뒷치기
아몬드
여주인
하달
헤겔
특수기술
아라고
연인관계
GTO
대선후보
Edward
김광수
주거지역
사다하루
버거킹
Legendary
기승전
##Sports
JUMP
미쉘
밀랍
빙판
소류
신파
장훈
##교역
##케테
##론을
##콥스키
대전액션
##ANGE
477
복수귀
크로포드
534
1108
변형태
피격판정
##수사대
김경란
히메지
대피선
원기옥
뒤따라오
##보좌관
동티모르
wind
마곡
먼치킨
쿠나이
##템플러
전문학교
711
##ired
아즈샤라
티아고
Poly
QPR
뒤돌아보
체임벌린
지구연방군
아반떼
브륀힐
Case
SJ
고약
교포
낙석
서희
후타리
##core
지적장애
1874
홀리데이
아슬란
쥬얼펫
미심쩍
에든버러
Ni
Wish
삼환
스갤
시큰
처먹
##림사
[...]
