[PAD]
[UNK]
[BOS]
[EOS]
[CLS]
[SEP]
[MASK]
▁이
▁1
▁있
에서
으로
▁그
▁2
▁사
▁아
▁하
▁수
▁대
▁가
▁시
▁한
▁보
▁전
▁기
▁다
▁것
▁자
▁나
▁마
▁지
하는
▁정
지만
▁모
▁일
▁있다
▁20
▁상
▁스
▁3
▁때
▁공
이다
▁유
▁-
었다
▁제
▁경
▁주
▁없
▁인
▁중
▁부
▁오
▁않
에게
▁무
▁소
▁등
▁어
했다
▁비
한다
▁위
하고
▁되
▁여
▁201
▁해
▁미
▁4
▁바
▁만
이라
▁고
▁조
▁있는
▁방
▁내
▁5
▁성
▁말
▁거
▁영
▁도
▁동
▁안
▁연
▁개
▁신
▁'
▁선
▁장
▁후
▁생
▁발
▁때문
▁카
▁구
▁최
까지
▁적
00
▁세
레이
▁한다
들이
는데
▁의
▁게
면서
하게
▁불
▁타
된다
▁강
에는
▁실
▁많
▁서
▁더
▁진
▁문
▁파
▁당
▁우
▁특
▁결
▁원
▁6
▁S
▁알
에서는
▁같
▁노
하다
▁포
▁관
▁경우
▁때문에
▁반
▁작
▁19
▁:
▁들
적으로
▁리
▁"
▁단
▁역
▁아니
으며
▁추
▁7
▁라
▁프
리고
▁사용
▁공격
▁받
..
▁남
▁자신
▁못
▁출
▁차
▁피
적인
▁0
▁8
▁이후
▁배
▁물
해서
▁좋
▁데
▁본
▁에
▁현
▁버
스트
부터
▁10
▁따
▁매
다는
▁초
▁M
하기
대로
▁사람
▁드
▁코
▁A
▁레
▁9
▁달
▁계
▁또
라는
다고
▁감
라고
▁크
하면
하여
▁재
▁입
▁패
▁건
▁국
▁두
▁김
▁통
▁정도
▁함
▁예
▁저
▁요
였다
이나
▁참
▁설
▁분
▁된다
▁등장
▁다른
▁C
▁명
▁편
▁점
들을
들은
▁로
▁메
▁평
▁T
▁화
▁죽
▁교
▁플
▁할
▁하지만
▁캐
er
▁쓰
지는
에도
▁올
▁돌
▁B
▁걸
▁잘
...
▁그리고
으나
기도
리는
▁아이
기를
들의
▁가능
▁속
▁외
▁200
▁맞
하지
▁것이
기에
▁호
in
되었다
▁처
▁확
▁사실
▁직
▁게임
▁들어
는다
▁애
▁D
▁하는
니다
▁회
▁종
▁심
하며
▁과
▁살
▁L
▁변
▁하나
다가
▁필
▁치
▁같은
▁뒤
▁모습
스터
▁트
▁12
▁승
▁학
▁높
거나
되어
▁대한
보다
▁체
▁박
▁이름
▁운
▁행
▁목
▁그러
이트
▁토
an
▁P
▁약
▁F
▁날
▁시작
▁언
▁나오
on
리를
▁없다
▁번
▁활
▁함께
▁일본
▁한국
▁각
▁생각
았다
▁힘
기가
▁/
▁문제
▁했
▁간
어서
▁이상
▁11
▁존
▁히
이라고
이라는
▁양
능력
▁디
▁순
릭터
▁만들
▁표
▁팀
▁G
▁손
▁투
▁것을
▁위해
▁증
▁끝
▁효
되는
▁했다
▁캐릭터
▁잡
▁키
▁완
▁클
에서도
▁E
▁베
▁H
▁야
리가
▁막
▁집
이지
처럼
▁다시
▁없는
▁추가
라이
▁또한
▁상대
으면
▁볼
▁가장
▁군
▁총
▁독
▁열
▁플레이
▁있었
▁프로
▁난
▁되었다
or
▁근
▁너
▁따라
▁상황
▁사이
▁N
▁판
▁폭
▁용
지고
▁당시
▁R
▁모두
▁+
▁별
ar
th
▁결국
▁15
▁시간
▁스킬
▁형
▁새
기는
▁K
학교
미지
▁I
▁음
▁것이다
▁테
▁모든
▁항
▁루
▁능력
▁보여
▁빠
▁다만
▁네
▁상태
▁왕
▁친
▁태
▁브
▁많이
▁블
▁보면
이고
▁앞
▁그런
.1
▁복
▁먹
▁카드
리즈
▁채
이며
▁넘
리스
▁듯
▁광
▁충
▁및
▁눈
자가
▁자신의
력이
▁얼
▁시즌
▁전투
▁삼
이는
▁것은
▁효과
▁것으로
.0
력을
이었
▁커
▁존재
▁페
▁악
▁누
▁하고
▁준
▁있었다
▁검
▁현재
▁매우
▁합
하면서
en
▁임
▁병
▁나온
▁그래
▁큰
at
리아
▁천
스를
스의
▁싸
▁상당
▁줄
▁O
▁물론
성이
▁그러나
▁금
▁첫
므로
스가
▁얻
▁느
▁#
▁W
인다
▁취
되었
▁찾
하였다
st
가는
▁18
▁그렇
▁경기
▁엄
▁아니라
▁많은
▁시리즈
들에게
▁실제
▁된
-1
▁자체
20
▁아닌
▁이런
▁백
인데
가지
▁이유
000
▁16
▁선수
인이
인지
ou
▁길
▁식
▁와
al
▁업
▁이용
▁극
▁세계
▁돌아
▁떨
▁바로
▁산
▁마법
▁팬
▁갈
▁황
▁필요
▁밀
▁관련
▁처음
▁기본
▁허
▁절
▁일반
▁주인
▁피해
▁슈
▁13
▁역시
진다
▁다음
▁라이
▁모습을
▁벌
▁않는
하자
▁거의
▁머
이었다
▁온
들과
거리
▁30
졌다
린다
▁엔
▁민
▁[
▁해당
▁2017
▁기술
▁아무
▁잠
사를
▁은
▁14
지를
부분
▁199
▁기록
▁몰
▁여러
시키
이지만
에선
▁되어
▁V
▁이야
▁탈
▁창
▁U
▁2018
도가
▁특히
▁미국
▁좀
사가
라도
▁곳
▁붙
▁레이
▁둘
▁않고
어나
▁혼
▁골
▁있으며
이스
▁떨어
지막
▁참고
▁좋은
▁방어
▁쿠
▁같이
▁진행
re
하지만
▁17
기로
상을
▁있는데
▁터
▁곡
▁수도
▁청
▁즉
▁스타
.2
▁북
아서
해야
▁2019
했던
▁지역
주는
le
▁레벨
▁귀
이가
▁철
▁주인공
▁싶
▁증가
▁마지막
▁방송
▁탄
▁사건
▁않는다
▁그냥
▁밝
▁범
▁부분
장을
▁제작
으니
▁달리
▁환
▁권
▁인간
▁작품
로는
▁케
▁계속
▁대부분
▁월
▁영화
▁보고
▁개요
▁몸
시간
▁내용
시아
▁되는
▁있을
▁2016
▁통해
전히
10
▁엘
▁올라
▁풀
▁뿐
▁몇
성을
▁정도로
▁담
▁비슷
▁않은
▁떠
▁어느
르는
▁헤
▁하다
습니다
▁있어
▁수준
▁상당히
▁만들어
▁100
▁접
▁몬
▁보인다
어가
▁가지고
했고
it
▁25
▁워
▁않았
▁지금
▁낮
▁이전
▁대신
드를
▁인물
▁일부
렸다
▁있고
▁맡
▁이동
▁너무
▁것도
▁덕
있는
▁좋아
▁성공
▁격
드는
▁인해
▁암
마다
▁최대
▁-2
지가
▁그대로
ing
▁위치
▁될
▁문서
리에
주의
ic
▁서울
수가
▁제외
▁m
."
정을
▁th
인의
트를
▁높은
▁여기
들도
되고
밖에
▁이를
자를
▁타이
.5
▁중국
▁~
시에
▁기준
▁이미
이션
려고
▁애니
▁뛰
리어
멤버
▁그녀
▁대해
장이
▁팔
▁없이
▁활동
자의
▁언급
▁몬스터
▁유닛
도록
▁울
스는
▁질
▁많다
▁홍
▁감독
▁유저
▁원래
▁국가
▁X
▁직접
년에
▁법
▁결과
▁논
▁경우가
▁2015
▁글
이드
▁괴
▁던
▁홈
▁면
와의
is
▁쓸
▁나오는
사의
▁대표
▁축
스로
▁있지만
지도
르게
▁멤버
▁설명
리의
▁전체
▁성우
▁슬
수를
▁J
▁니
도로
▁자신이
▁스토
▁선택
▁마음
▁평가
왔다
▁의미
▁시절
▁과거
▁이어
▁무기
▁소속
하는데
am
▁엄청
로운
▁50
▁티
▁받아
▁이는
치는
▁넣
하였
he
▁자기
었고
▁설정
위를
도를
▁나타
▁망
▁늘
없이
▁데미지
▁s
리지
준다
전을
▁러
스타
om
▁컨
▁관계
▁꽤
중에
▁아이템
▁불가
▁<
▁장면
번째
▁있던
운드
▁쉽
▁21
▁육
랜드
▁등의
▁공격력
▁실제로
이자
▁묘
▁퍼
▁출연
▁먼
▁영상
▁찾아
50
자는
▁지원
▁초반
▁조금
있다
▁나온다
하던
▁갖
es
▁방법
▁최고
▁이것
나는
▁그의
▁소환
▁참고로
▁깨
▁크게
어로
이기
▁말을
el
▁발매
▁쪽
만큼
과는
▁정보
점을
치가
대를
▁희
▁전부
▁혹
▁동안
▁아니다
▁만든
▁제대로
▁w
▁198
▁알려
▁칼
▁향
▁이에
▁돈
▁갑
대의
▁이벤
dd
이어
나가
트가
치를
▁유명
▁22
▁있다는
▁사라
▁압
인을
▁공식
▁놀
화를
▁이때
▁아버
기의
▁t
드가
30
▁전쟁
▁보여주
▁하지
▁자주
▁2014
이를
as
▁기타
▁24
국의
▁정말
▁최종
▁급
▁사랑
▁듣
▁뉴
▁b
-0
▁당연
▁운영
▁아직
▁이렇
▁그런데
되지
로서
ch
▁친구
▁o
▁침
▁찍
하기도
어난
와는
▁적이
▁파괴
▁학교
▁해도
정이
▁사망
에서의
▁가능하다
머니
▁출신
▁강력
이크
드의
▁강화
같은
▁the
▁바람
ff
▁빨
▁개발
▁규
원이
▁비해
ol
▁탑
▁인터
▁멀
했을
히려
▁마찬
▁그것
▁봉
▁놓
▁책
전에
▁프리
▁학생
▁마찬가지
이터
▁궁
▁영향
▁발생
ion
등학교
▁오히려
▁있어서
▁끌
▁드래
▁앨
▁노래
▁의해
▁비교
▁왜
전에서
▁위한
▁우승
▁회복
▁기존
▁서로
▁주로
▁포함
지어
▁빌
▁딜
어도
▁좋다
으로는
▁슈퍼
과의
이도
▁성능
▁리그
▁게다가
▁협
▁빼
격을
▁사람이
▁뜻
했지만
▁특수
▁살아
는지
▁23
일에
▁가진
▁역할
▁보통
▁때문이다
▁정신
▁어떤
▁않았다
▁공개
▁아예
▁40
▁중요
명이
▁알고
▁후반
▁여성
▁일단
▁잔
▁변경
식을
▁봐
명을
분에
▁착
▁확률
▁연구
▁이번
였던
동안
▁지나
상이
▁플레이어
▁노선
▁하면
리그
▁사실상
하려
-2
나마
리오
▁그래서
경기
.3
▁송
ig
▁측
▁유지
▁써
▁작중
il
ow
▁배우
▁이루
et
다면
11
ac
점이
화에서
▁본인
▁하며
▁스테
▁승리
▁발동
자로
하거나
▁되고
▁농
트로
▁심지어
▁이러
▁최초
▁영웅
▁이렇게
,000
라마
ed
자인
▁까
▁그래도
▁f
▁보스
▁대한민
었던
▁행동
▁,
▁도시
오는
▁뽑
▁힘들
▁유일
▁수록
▁숨
리카
▁그렇게
년대
▁가까
물을
▁들어가
▁2013
!!
▁어려
▁부족
했다고
프트
▁기사
▁버전
▁결정
수의
▁비슷한
▁여자
▁d
▁없어
▁모양
▁체력
르면
▁&
▁먼저
음을
간다
▁있다고
▁형태
보면
메이션
라의
르고
▁흑
▁여담
서는
니까
스템
▁원작
드로
버스
이기도
▁장비
▁Y
시켜
▁바뀌
▁어떻
ht
▁주변
▁성격
▁센
▁흔
▁아래
▁완전히
▁드러
▁k
ve
▁한번
ay
▁이야기
명의
▁굉
▁활약
▁자세
▁폐
▁획
▁솔
▁쇼
▁확인
▁스트
▁전혀
▁동시에
대가
▁일이
사는
▁특징
▁26
인물
▁내려
▁특성
스와
ad
▁등을
▁잃
른다
▁어떻게
더라도
▁프랑
지의
원을
화가
▁움
▁같다
임을
▁적용
▁사진
▁만큼
▁굉장
▁휴
▁패배
id
내는
▁샤
▁28
▁좌
▁불가능
▁얼굴
▁드래곤
▁월드
▁독일
▁윤
▁음악
▁만나
디오
▁빛
▁되었
▁섬
▁애니메이션
▁2012
▁27
▁이벤트
어버
▁이제
라가
간에
▁감소
▁않아
▁전에
▁방식
▁맵
▁우리
▁자유
상으로
!"
▁얼마
▁실패
and
.4
▁차량
▁때는
▁그나마
▁31
▁명칭
▁아군
▁링
▁뭐
▁c
▁오브
▁항목
적이
▁혹은
▁싱
▁힘을
▁액
▁모델
니아
▁에피
▁Lv
▁새로운
▁획득
보다는
▁1,
▁시스템
▁콘
▁지속
시킨
레벨
지로
▁국내
구를
해도
▁녹
▁발견
▁덕분에
▁기억
▁남자
▁나가
▁위해서
▁쓰는
▁역사
▁동일
▁of
▁응
▁구성
▁사회
▁상승
▁하루
▁챔
▁쉬
라면
▁주장
▁차지
▁반응
조차
▁색
▁속성
ro
▁참조
▁-1
▁마을
▁에피소
▁상위
▁자신을
▁소개
▁경우도
▁딸
▁생산
▁콜
▁빈
un
▁문제가
스크
▁스토리
했는데
▁움직
▁출시
합니다
▁가져
▁정확
▁그리
한다는
▁아마
한테
▁이러한
BS
▁입장
우는
▁도움
▁하는데
▁l
그램
▁없었다
▁또는
겠지만
▁가격
▁공격을
어를
정도
▁자체가
▁했지만
▁앨범
▁휘
▁수비
▁순간
▁등장하는
us
개의
▁있기
▁선발
▁v
났다
▁딱
▁받고
갔다
▁긴
▁담당
대한
▁견
체를
▁그림
▁굉장히
ER
▁넘어
▁쓴
이의
▁2010
40
으므로
이었던
대에
▁풍
▁해서
▁조건
우스
▁자동
▁편이다
▁다이
▁훈
▁정치
원의
장의
▁밝혀
▁가면
▁강력한
▁하이
했으며
▁대체
레이드
▁익
치고
▁시점
▁마이
▁바이
▁가능한
▁표현
▁않다
지지
대학교
▁진짜
▁드라마
제가
아가
트의
▁없고
▁p
▁있게
▁확실
회의
했다는
60
▁사용하는
▁판매
리티
▁a
▁경찰
▁어디
▁졸
▁시간이
▁개인
스러
▁스페
군의
▁기능
▁y
▁받은
▁답
이라면
▁어렵
▁클리어
▁물리
▁데뷔
▁무시
▁주의
▁마찬가지로
▁마스터
▁피해를
▁퇴
▁29
▁땅
▁다르
▁St
▁요구
▁맨
▁아주
▁웃
mm
▁겨
▁나와
▁펼
▁패턴
▁맥
▁인정
▁대사
▁퀘
▁경험
▁믿
통령
▁당연히
▁폭발
▁상대로
▁60
.7
부의
피언
▁엄청난
▁못하고
상의
▁계획
지에
▁등이
▁말이
가가
12
▁우주
▁득
▁197
▁더욱
▁사람들이
전이
▁진출
▁못한
▁따라서
문을
▁가지
▁습
▁헬
▁위험
문에
치로
까지는
▁영어
수로
▁꿈
▁이미지
수는
▁츠
▁2011
▁뮤
▁밤
▁묻
놓고
▁한정
▁이름을
▁가능성이
려서
▁쓰러
▁대한민국
게임
▁푸
▁단순
▁가족
어진
▁히로
▁The
티브
▁사용할
▁시청
▁쿨
▁훨
▁석
▁논란
▁여기서
▁영국
라운드
시즌
▁옆
▁준비
▁분위
▁알아
▁쉽게
했으나
▁괜
▁혼자
량이
▁싫
▁어머니
▁하자
▁참여
▁약간
▁파워
없는
으면서
▁엑
▁대학
▁대미지
▁가는
들에
▁적을
▁나왔
▁건물
▁낙
ot
▁얘
▁활용
리기
감을
▁속도
▁짓
▁비판
▁현실
▁어린
ir
▁발사
▁컴
▁동료
▁챔피언
.8
▁대해서
나라
▁훨씬
▁불구
▁메이
▁똑
▁여전히
▁현대
.6
만한
▁대회
▁대통령
겠다
▁소모
▁나머
▁보내
15
적을
▁초기
▁조합
▁다양
▁n
▁수가
▁크리스
▁핵
▁듀
히는
해주
제를
▁주요
타를
▁남아
▁잡아
▁블랙
im
▁폴
▁술
▁따르면
▁버스
▁라인
▁숙
▁주는
▁방영
▁퀘스트
▁제한
▁있었던
▁싸움
▁흡
라인
지션
부를
▁받는
으로서
▁HP
체가
▁나이
▁강한
▁취급
인트
▁타입
▁잘못
▁아르
선을
▁크로
▁도망
계를
▁읽
수록
▁중심
▁꾸
▁결혼
▁덱
▁그는
▁헌
▁문제는
난다
▁탐
리로
▁전용
▁홀
▁고려
▁각각
프를
▁사고
▁미션
▁대전
이즈
겠다고
▁죄
개를
시키는
▁보는
▁불구하고
▁등장인물
▁모드
도의
▁후에
듯이
되면서
▁직업
▁등장한다
이면
▁류
권을
부에
ag
장에
리와
학년
▁방면
▁중앙
▁맛
▁난이도
▁삼성
나게
자기
▁후보
▁않을
▁해결
19
세대
▁굴
▁즐
▁지하
▁웨
▁부산
져서
▁이해
▁엔딩
식이
▁지구
▁의견
▁범위
만에
사로
▁설치
▁끼
▁욕
▁참가
▁들고
랭크
▁느낌
나이
▁일으
보니
▁내가
▁짧
한다고
▁벨
▁방향
입니다
▁끊
▁발표
▁이유는
▁처리
▁포켓
▁조선
▁h
▁과정
▁일행
▁벗
▁부활
심을
▁아이돌
▁흥
▁꼬
▁장착
학생
▁일정
▁메인
하나
▁탓
데이트
▁되면
장은
▁충분
▁2000
키는
▁TV
▁기간
.9
ub
기고
제로
▁구조
력은
대는
▁갤
32
타로
▁나무
공격
라서
37
▁최근
만이
신이
▁보호
▁스테이지
▁배틀
▁굳
▁번째
▁근접
▁특별
초에
▁보이는
▁그를
od
장으로
됐다
말로
ST
▁제국
되며
▁에피소드
레스
▁링크
▁Z
▁여담으로
▁나는
위로
▁받았
ver
장에서
▁업데이트
▁경우는
ur
▁쳐
▁러시아
ent
▁FC
▁배경
▁나왔다
▁절대
▁유니
▁브라
하다는
▁g
▁다니
▁밴
▁오래
▁제공
▁낮은
▁것에
▁작은
▁타고
▁벽
이란
조건
▁기준으로
가를
라를
▁교육
▁곧
▁스스로
▁프로그램
ak
BC
▁80
▁제목
▁생존
▁오른
▁운행
▁스피
▁하기
부가
▁덤
▁SK
▁목소
▁계약
가의
▁가끔
?"
▁되지
▁세이
▁그가
cm
▁종료
▁번역
신을
로를
▁종족
▁추정
▁포켓몬
▁아버지
같이
카이
▁달성
마저
▁역할을
80
▁높다
▁이유로
리면
▁수정
사와
▁예정
▁검은
▁선거
▁종류
▁분노
유의
일을
▁틀
만을
다니
▁?
▁you
라며
으로도
▁찬
군이
▁전설
구가
▁영향을
▁시도
되었고
▁더불
당한
▁중에
냐고
에게는
냈다
ec
▁에너
▁얻을
▁괜찮
시로
▁전작
▁만화
▁빅
▁생활
이로
▁만약
인은
▁시전
▁염
▁유리
▁자연
▁셈
▁연속
하다가
▁한편
▁뒷
▁대상
▁구간
지기
▁아니고
▁하면서
▁밖에
▁랜
▁좋지
자와
▁없음
▁능력을
전의
겼다
▁프랑스
▁싸우
▁반면
지게
신의
▁자랑
트는
▁생긴
일이
업을
려는
16
▁각성
▁나머지
▁35
리며
위원
비가
점으로
▁해야
▁최소
였고
어들
▁일을
이라도
▁거기
▁타카
하다고
▁씨
▁연결
▁무엇
▁계열
▁꺼
▁정작
▁항상
▁일러
자들이
▁바람에
▁중요한
▁정도의
▁이루어
▁대부분의
ut
▁포지션
▁더불어
마의
함을
▁등급
기와
▁70
시를
▁90
정한
▁축구
▁다르게
▁인터뷰
외로
단의
비아
25
낸다
▁신경
▁국민
▁미사
여서
▁전문
▁상황에서
대학
▁연출
▁비행
어야
명은
▁자리
▁현재는
▁제외한
리게
주고
▁흐
▁자세한
소를
▁표기
시의
18
▁칸
▁수상
▁싱글
력으로
▁스파
▁누구
▁칭
▁위에
▁끝나
▁빠른
▁하였다
▁콤
시가
▁관리
▁모습이
들로
▁엔진
▁나름
버린
치기
▁목표
▁2009
,#
▁옵
카와
▁이상의
디어
스럽
▁넓
▁있다면
▁소설
▁비롯
었지만
▁소녀
▁사람은
▁별로
....
로가
▁성장
▁소재
▁냉
▁삭
▁라고
▁비밀
▁보이
▁정식
성은
다운
▁미래
더니
▁말한다
▁흘
페이지
▁사실을
14
▁각종
▁따로
▁다크
▁있으니
야마
▁유럽
▁깔
▁모르
▁탱
미가
▁다양한
스티
▁유명한
▁일어나
▁적은
▁클래
의를
▁이걸
▁제일
▁벌어
▁못하는
▁달려
▁갑자기
nd
▁32
스러운
동을
▁전반
▁이게
도는
▁만드는
회를
ight
비를
▁이쪽
▁불러
▁케이
▁vs
▁쌓
고는
▁애초에
세를
ON
야말로
▁없을
▁출전
▁않게
었는데
시마
▁치명
▁묘사
▁본인이
스에
▁사냥
▁야구
▁두고
었다고
▁부르
em
▁압도
▁파티
▁공중
▁결승
▁전차
물이
▁하늘
타임
▁지휘
▁일러스트
▁나서
▁게임을
▁식으로
48
AN
▁최강
▁엘리
▁작곡
▁나올
수한
월에
▁받았다
▁북한
음에도
▁것과
▁예상
▁to
▁효과를
▁왼
지면
▁특이
▁아키
프로
호가
하라
▁*
▁이름이
▁이탈
▁]
AR
▁상황이
ra
▁혈
▁항공
나의
크로
위에
▁롤
관이
▁머리
종의
마자
▁목록
ri
▁반대
버렸다
▁맹
▁징
해진
▁보기
',
▁있으면
▁이외
▁생명
▁언제
:00
▁부여
▁조직
혔다
▁공연
▁확정
내고
▁지켜
:0
되기
▁무슨
상에
▁훈련
▁졸업
선이
▁보니
▁보유
-3
▁하여
▁기동
▁앤
성의
주를
.#
▁기다
방송
계의
마가
단을
▁뭔
▁건담
▁2008
▁못했다
▁민주
▁기대
부터는
▁문화
▁오늘
▁쌍
▁물건
17
um
▁아니면
▁사용자가
사에
모토
▁-3
▁경우에는
▁탈출
율이
▁뒤에
▁턴
▁특정
▁옷
▁연기
13
▁없다는
▁억
▁롯
▁꽃
▁순위
▁납
트라
▁이용해
os
운데
부로
▁좋아하는
비스
▁변신
▁안에
시켰
▁필요한
원은
▁역대
▁힐
원으로
▁in
▁아카
▁교체
▁파이
▁뜨
▁안정
이니
▁린
▁회피
▁집중
▁최고의
버린다
로우
▁짜
▁라는
고를
녀석
▁.
▁털
▁사례
▁잠시
▁업그
▁준다
▁트리
세요
▁없다고
호를
▁빠르게
▁있으나
▁이끌
▁등으로
▁옥
행을
▁돼
▁차이가
▁나타나
▁무려
▁No
▁죽은
▁듣고
▁기관
바람
▁근처
냐는
▁196
▁날아
▁존재한다
보는
▁나중에
시는
▁켄
▁부모
▁이후로
▁대기
스케
▁하게
촬영
▁기본적으로
았던
▁유튜
▁어둠
▁쏘
▁스포
▁빠져
▁타격
▁이야기를
▁품
▁추천
▁등장한
드시
▁수는
▁고양
▁지방
▁사이트
▁깊
프가
▁인천
▁본래
ce
▁달라
타가
▁이건
▁말에
▁임무
▁가까운
▁EX
속도
▁지난
▁연습
▁멸
▁경제
▁저지
계가
서를
▁45
▁여기에
▁전국
▁카운
▁발언
▁소리
▁분류
▁일본의
▁싫어
ul
감이
▁그룹
단이
▁옛
▁했으나
▁남성
고등학교
▁위의
파트
학과
▁명령
▁남은
인으로
▁평균
어의
▁포기
▁때마다
▁라이브
▁경쟁
▁배치
/2
▁띄
IN
▁부탁
▁오버
▁밑
부는
▁이름은
▁겪
▁킹
▁제거
▁칠
▁봐도
▁건설
▁투수
▁돌아가
▁갖고
▁디자인
었을
▁e
▁상태에서
세트
km
▁새로
▁사용한다
▁삭제
▁500
▁효과가
▁마나
▁자체는
▁죽음
▁외국
스테
▁무장
▁국제
▁보아
미를
▁예를
▁꼭
▁쫓
▁Q
심이
지라
▁2,
▁중에서
all
▁조종
▁장소
▁완벽
▁Ch
▁미니
▁분명
▁상관
▁비용
ap
▁했던
▁완전
▁2020
▁쓰고
▁충격
▁개념
45
즈의
▁고정
량을
▁것이라고
▁상당한
진이
▁블루
▁홈페이지
▁아들
▁알게
▁반드시
▁없지만
▁부정
만의
▁왔
▁캠
▁LG
들어
▁의외로
로의
▁받을
세가
▁장갑
것도
▁롯데
▁히어로
터를
▁2007
단계
▁운동
▁탈락
▁중간
▁방어력
▁바꾸
하였고
온다
▁없어서
시브
▁구매
▁독립
▁아프
▁촬영
▁유일하게
▁붉
▁마무
였으나
▁듯하다
치의
▁그야말로
토리
▁요소
년부터
▁카드를
▁직후
▁보상
▁연재
일러
기사
▁생각해
▁사람을
▁지도
▁과학
화의
▁해외
▁보여준다
▁리더
에만
▁뇌
▁벤
▁밖
스코
▁픽
▁동생
▁그녀의
우가
▁느끼
▁녀석
▁심각
▁일어
▁큐
▁시험
▁떡
▁늦
▁반대로
▁제외하면
점은
▁옮
▁워낙
▁앞에
크를
▁유일한
▁다행
op
▁있었고
▁했는데
▁걱
탄을
90
▁추측
▁이하
롭게
▁튀
▁많아
▁복귀
▁한글
▁정상
▁평범
▁무조건
위가
▁점을
▁뛰어난
▁점점
▁살해
세기
문이
▁되는데
▁도착
지면서
▁타이틀
▁상태로
▁대구
▁저항
▁x
너스
▁올려
▁지지
▁다소
▁정규
되면
키가
▁시작했다
무라
▁악마
▁개그
▁상세
▁나라
라이더
▁완성
▁버그
한다면
▁과정에서
인가
▁시간을
▁그걸
▁데미지를
러스
▁굳이
받은
▁아무리
▁가르
▁웹
▁도중
▁에이
▁제품
▁접근
▁화면
▁2006
로그
▁베이
로드
▁33
▁기체
▁뿌
제의
선의
역을
70
▁빨리
▁높아
으로써
▁우선
▁트위
▁않으면
ik
▁시리즈의
▁레드
▁한다는
플레이
원에
▁킬
겠다는
▁겸
▁있었는데
▁오프
▁자리를
주가
▁전사
▁주고
ter
차가
▁도와
▁도전
▁끝에
▁성우는
키의
개로
▁MA
르크
▁패치
▁카이
ation
보고
▁유사
▁맞추
▁최후
진을
▁기계
▁동물
많은
▁이적
▁옵션
터가
▁영혼
▁기반
시킬
▁공포
▁평소
세계
술을
▁판단
▁암살
수도
▁스크
▁적의
IC
니티
ea
군을
▁신체
▁전략
분이
▁빙
▁멘
kg
받는
1,
▁명중
▁짐
▁수행
역시
▁지상
▁처음으로
▁스코
▁월드컵
▁300
▁비중
▁다루
였지만
라스
▁탓에
▁프레
▁경기를
▁곤
//
년에는
세이
▁진화
▁합류
▁척
▁생각하면
▁멋
모가
보를
▁연합
▁무한
▁닥
▁몇몇
▁발전
ia
래도
▁종종
주로
▁놈
▁사기
▁이곳
▁파일
장판
▁십
▁36
▁세트
35
▁야마
▁바다
▁충분히
▁로봇
군은
▁오리지
▁부하
보다도
▁아스
▁밸
▁마사
▁어려운
▁홈런
▁대화
적이다
용으로
▁인터넷
두고
이므로
요일
▁화염
▁요시
▁되었고
이닝
▁and
▁거기에
아버
되었으며
▁소련
▁작가
▁행정
▁네이
▁확률로
▁정리
▁가서
▁지배
▁회사
▁듯한
▁도입
▁특유의
▁끌어
▁유튜브
▁본격
▁도쿄
대표
▁것처럼
▁이로
▁떠나
스킬
▁치료
리온
▁공략
▁팩
ack
▁사격
▁체력이
드와
려면
간의
▁지키
▁본인의
▁능
▁SP
레인
대전
▁팀의
▁성향
▁주민
문의
▁잊
차를
▁텐
%,
▁맞춰
▁록
개가
▁장면이
▁돈을
▁조작
▁수많은
▁손을
▁근데
드에
RA
▁사이에
▁얼마나
이와
▁시나
▁대결
방을
ill
▁아내
▁나이트
▁군사
에게서
▁있었지만
▁비고
쳤다
카가
▁오오
/0
▁운용
▁실험
▁플래
▁인한
▁투입
oc
지와
시킨다
▁VS
▁댄
▁좀비
▁보조
▁필살
▁않지만
▁이탈리아
▁희생
이야
▁상징
art
▁사쿠
▁나오지
▁셀
▁말하는
▁무리
▁100%
동생
텐츠
▁난이
▁멜
▁뚫
▁능력이
력과
▁적에게
ie
▁그린
▁패러
어요
▁재료
▁점이
형을
▁다운
▁받는다
▁붉은
▁잉
일차
ab
▁힘든
▁중반
▁프로젝
때문에
▁외에도
▁뻔
지며
화된
▁능력치
▁전기
▁KBS
아이
적으로는
▁하드
▁장르
▁몽
▁카메
▁시설
▁낫
:2
TV
▁불리
했기
▁위협
▁코스
▁가깝
▁입고
▁그저
하자면
▁2005
AL
질을
▁정부
▁점프
▁소유
식으로
▁간단
보자
▁환경
▁갔
▁그럼
쪽으로
시오
▁런
▁주문
▁모르는
▁대형
▁선생
▁스타일
▁포인트
▁38
▁다르다
판을
▁개봉
▁생성
▁때도
리자
uby
다른
든지
▁꽤나
▁보다
▁사람들은
▁범죄
▁가수
금을
상은
크가
▁데려
▁컬
래프트
▁빼앗
미의
▁던전
▁대중
▁맞는
▁널
2,
▁개조
▁안전
▁통합
▁조사
▁컨셉
▁종교
모로
▁지금은
▁요청
▁붙어
도에
▁숫
하니
▁엠
▁서브
승을
▁장난
▁뛰어
▁얻어
시키고
▁섞
나와
호선
▁서술
▁잭
미널
▁저격
하려고
▁아니지만
믹스
▁살인
▁1000
ruby
▁표시
치게
▁몸을
▁오리지널
레이션
▁내용은
기관
▁닌
모를
▁젊
▁가운데
▁앞에서
▁있지
▁흉
▁있습니다
▁캡
▁2004
▁했고
▁경기에서
소녀
▁아는
▁서버
력의
왕의
티어
▁원거리
▁먹고
▁붕
지에서
▁란
트리
음이
▁펜
▁기념
▁34
러가
▁반복
버리는
▁윈
▁오랜
▁대단
▁살아남
▁특성상
▁대응
▁의하면
구의
▁목숨
▁기존의
▁올라가
교육
▁마치
▁걱정
▁이름으로
▁후속
선수
▁지정
▁날려
~2
▁영입
로도
▁든
바이
▁막아
리안
EN
이라서
▁찌
림픽
답게
▁바라
▁아쉬
▁말았다
▁인기
tp
▁관통
▁챙
시티
▁모티브
▁모습으로
▁뜬
▁프로듀
▁모험
이상
▁숲
▁바닥
▁브레이
해진다
▁진입
▁195
인과
▁앉
▁나쁘
▁불안
▁정체
AT
▁변화
만으로
▁사무
▁성적
▁공간
▁소년
▁앞서
▁관한
▁닮
힌다
아의
▁거부
▁득점
▁비롯한
▁사는
▁사태
▁관련된
▁마무리
▁무사
▁37
dddd
▁죠
▁레어
dddddd
마를
ate
▁불과
▁You
▁봤
▁되면서
정으로
▁맞아
한데
http
관을
르트
이었고
▁단순히
▁맺
▁내에서
:5
▁시기
▁착용
졌고
://
▁수호
그룹
원에서
방에
개월
▁마음을
▁거짓
▁인도
▁이기
▁더블
워서
회가
카드
▁하나로
라우
정의
▁무너
▁누군
▁MBC
잖아
움을
▁꾸준
▁어느정도
▁딱히
▁손에
▁감안
up
정에
▁그때
▁윌
이에
▁미드
▁오토
▁점은
▁있었으나
▁둔
▁셋
▁적절
▁죽을
전쟁
역으로
▁AP
▁최초로
▁멈
하도록
▁보였다
▁2002
▁때까지
임이
▁확실히
▁상황을
먼트
▁공동
▁언론
위는
▁유우
▁부분이
▁카즈
▁디지
▁미리
▁마리
▁쥬
스럽게
▁In
▁채널
크의
▁트랙
트롤
▁컴퓨
▁상대가
▁기업
▁쿨타임
▁해금
▁위치한
실을
▁확장
▁방패
▁제압
ue
5%
▁투표
었으나
▁보병
▁+1
우고
▁오르
▁요리
▁택
광역시
▁부대
▁이와
▁km
▁스킬을
▁파트
하므로
▁갤러
▁돌려
로부터
즈가
▁잇
▁해석
▁썼
▁인사
▁작업
▁앞으로
카의
▁황금
▁보컬
▁캐릭터가
에게도
▁겹
▁자신은
놓은
▁훌
었다는
란드
▁부르는
▁=
OR
부에서
차전
▁인식
았고
▁구분
▁정의
자에
▁골드
시피
연히
마트
▁지닌
자들은
▁웬
▁업그레이드
▁150
률이
자들의
▁밥
▁데이터
경을
나를
PS
.10
속성
니스
해졌다
▁패시브
▁방해
▁선언
▁선보
법을
▁스카
▁적극
약을
▁받지
▁인기가
▁거대한
▁st
였는데
▁이유가
▁PC
▁사과
▁교통
▁본인은
▁나오고
▁버프
.'
▁카오
복을
▁마침
▁잠깐
악의
ang
▁대답
▁넥
▁사업
어는
크래프트
▁밝혔다
▁상처
▁시나리오
:1
구나
▁차이
▁설립
▁일은
고속
▁시대
화에서는
고가
특별
▁전통
▁사람의
▁완료
쪽에
스토
▁어찌
▁아름
을때
▁대표적인
▁추가로
정은
지자
시대
▁마르
형이
▁Sh
▁덜
▁데이
▁엄청나게
▁듀얼
▁그려
▁됐
▁그레이
성도
주차
코가
▁수밖에
IA
센터
▁등에
▁맞고
성에
▁눈에
▁대놓고
코의
도우
루가
▁통과
-4
인들이
▁앙
ard
ast
이었으나
리면서
▁봉인
▁랭크
지역
▁비난
민주
▁48
친다
▁전개
구에
▁클럽
전으로
▁대비
▁고통
▁초반에
▁광주
▁만다
oo
무를
▁불명
까지도
▁그만
▁이후에
▁평범한
▁말고
▁못한다
▁라이트
▁렌
▁몰아
키를
하려는
▁재미
▁개최
안을
▁여름
▁가게
▁점령
▁로마
▁밸런
구는
▁스위
▁II
▁팀이
줬다
▁삼국
▁년
▁탑재
쳐서
▁멀티
명으로
▁노력
모리
▁묶
▁느껴
▁시작한다
타는
가와
▁병사
스에서
▁궁극
▁단계
▁점에서
▁커뮤
르의
▁철도
▁1.
▁시민
▁본편
▁Re
ant
▁소울
▁스탯
제에
▁MP
▁2003
▁원정
VE
▁겨우
if
성과
분을
호의
▁가슴
24
진의
▁논란이
ers
▁대해서는
▁은퇴
▁좁
론을
▁꼽
▁문제를
▁없기
▁어렵다
조의
▁일반적인
▁거야
▁50%
▁초대
르기
▁액션
▁도움을
▁도로
에서만
▁물어
▁최대한
▁2.
▁다름
▁희망
일부터
▁뭔가
▁먹는
▁걸어
▁콤보
▁아나
▁추가바람
바로
▁바꿔
▁잡고
라와
▁솔로
▁안타
▁비교적
▁예전
▁한국의
▁필요가
▁코스트
프레
▁거리
ell
▁경기도
임에도
▁꼴
방의
리스트
▁안습
소년
단에
▁지니
▁속도가
▁고대
운동
회에서
▁확보
▁용병
히고
▁애매
▁미국의
▁때의
▁코너
▁만한
▁연장
ine
▁인류
▁쿄
▁얘기
▁전환
▁타임
PC
트와
▁걸로
▁승리를
체의
효과
차로
도시
사카
▁BG
전사
▁금지
▁밀어
36
사항
▁엉
화에
루스
나다
▁그에
▁원래는
▁Sp
▁필수
▁지옥
▁구축
해를
▁39
▁기술을
▁끝까지
토가
▁자신에게
▁어울
시한
.12
AM
▁처치
▁쥐
▁유키
▁다음과
장과
▁스킨
▁보이지
▁42
▁대공
▁드라이
▁태양
▁멸망
▁힘이
▁크다
▁당장
▁극장판
▁눈을
르가
▁남편
신은
상태
▁최초의
▁힘들다
▁끝내
▁되기
▁타이밍
즈를
▁10%
▁트레이
▁에너지
▁정보를
▁등록
▁컨트롤
373
▁3,
▁흡수
▁광역
▁레이저
ove
▁이용한
석을
one
▁혐
▁고속
▁멀리
▁레전
▁바뀐
▁아무래도
▁뮤직
▁실력
▁게시
▁모자
이치
/3
▁모아
▁한다고
500
▁이야기가
▁뱀
▁194
하게도
▁상대의
▁샌
로스
▁왕국
▁무기를
▁이들은
발을
리트
▁게임의
▁끝난
▁소비
▁직전
호는
미야
▁거두
▁지적
회에
▁을
▁허용
가로
▁알렉
▁유용
▁폭탄
▁생기
역이
▁조준
▁전술
었으며
▁바뀌었다
ED
▁작성
▁촉
▁히트
▁해군
▁스포츠
▁뒤로
락을
자리
미는
사이
ee
▁방문
▁되며
달라고
▁짧은
AS
▁편집
피아
▁덩
▁만들어진
▁부른다
목을
▁일본어
▁스케
▁알려져
드리
▁설계
▁넘어가
터의
▁조각
▁거대
▁기절
받고
99
게도
렸고
▁하나의
▁데스
보기
▁필드
아웃
▁진영
프의
▁소리를
▁습격
▁추가된
▁미친
석이
▁효율
▁누가
자들
심히
▁중심으로
▁삶
▁상대를
동이
▁평가를
▁ST
▁유도
▁테마
▁약속
▁깎
▁자료
▁갱
▁도움이
▁수준의
OS
▁재생
/32
▁나누
▁분리
▁싶어
시스
▁뿐이다
▁댓
마스
▁퓨
▁수치
제는
-10
공을
▁메가
포를
ct
▁선정
▁사용한
▁99
인지라
▁보여주는
함이
▁장기
▁집에
▁페르
▁자기가
▁이전에
물로
▁고등학교
▁부담
▁떨어진
ffff
마을
와서
▁그게
ive
▁죽이
▁발휘
질이
▁여행
▁틈
▁스펙
▁스탠
▁부상
▁국회의
주시
▁아웃
▁아프리카
▁Bl
▁길을
서가
▁목적
판이
▁보급
것이
마법
ong
▁마법사
▁떨어지는
사키
▁측면
▁패러디
▁곳에
▁공격력이
▁중이다
100
▁제외하고
▁하나를
ort
▁간다
▁랜덤
▁가면라이더
ffffff
▁무게
라리
▁유래
▁로드
▁SS
3,
차피
▁위에서
▁두산
▁라디오
던가
▁55
▁등등
▁게임이
▁아야
▁정당
▁연계
▁핸
▁사령
▁공통
▁를
▁원하는
▁싶은
▁출생
ip
▁행복
▁그리스
이었지만
▁둘러
▁탑승
▁오프닝
▁Al
▁개선
품을
▁춤
▁상황에
▁아오
▁사실은
▁떨어져
▁디자
▁미사일
▁그렇다고
세의
▁중에서도
이라며
▁뿐만
▁음식
▁덴
▁젊은
위의
▁팀을
▁쉬운
▁문제로
▁Th
▁판타
▁44
ist
▁승강
할때
▁포함한
▁에이스
생활
끼리
권이
▁내용을
느냐
기술
▁강제
▁살짝
▁생겨
▁온갖
론이
▁정책
▁해주
▁못해
▁처음에는
자에게
파이어
교통
사건
트에
규모
▁그럴
▁거절
EC
▁이후에는
▁드랍
소가
AC
▁단점
디션
▁SBS
안타
▁서포
▁늘어나
▁카페
▁꾸준히
▁상태가
▁모른다
▁75
▁구입
▁대한민국의
마리
▁은근
▁둘이
▁바탕
▁사항
.11
LC
▁처음부터
▁콩
▁고유
우의
▁에어
있던
▁머리를
▁한국어
으로부터
하러
나무
비의
량의
▁그녀를
ne
▁줄어들
▁이상한
▁배신
▁상대적으로
골을
오의
▁종합
▁광고
▁혜
▁없게
▁어쩔
▁2001
▁삽
▁왼쪽
▁무서
산을
가능
이던
언을
▁없으며
▁차례
▁무대
▁로켓
▁하나가
ind
하의
▁이것이
▁점수
▁일어난
▁테러
▁쏟
▁120
렀다
▁릴
타의
랐다
▁플레이어가
▁07
▁래
▁숨겨
▁센터
▁내부
▁자살
먹는
38
전은
▁때부터
▁단독
▁열린
▁사정
▁01
▁be
▁형태로
▁해제
▁습득
디아
▁함정
▁돌격
▁시내
긴다
▁당황
드라
▁커버
어져
▁말도
조가
하긴
▁한화
▁화살
까지의
▁료
▁게이
▁어째
님이
▁데미지가
권에서
▁고민
즈키
▁나카
무기
▁말했다
▁내구
▁미나
토의
FF
▁횟
▁겁
▁의심
▁서비스
▁말해
치지
▁인생
사에서
거리가
▁울트라
▁혁
▁가정
▁흔히
▁어차피
▁모션
▁온라인
▁사거리
▁활동을
▁한계
▁나쁜
정보
▁약한
향이
▁훌륭
▁PS
▁공화
▁주연
▁확률이
오가
▁당선
▁캔
▁사이에서
▁사건이
▁중간에
▁동맹
웠다
▁밀려
▁47
▁않으며
▁뒤집
▁오는
격이
▁두번째
▁인구
▁열심히
▁연주
▁따른
▁그다
▁인기를
▁대다
▁02
▁08
패를
ly
▁수원
▁플라
▁향해
▁받아들
▁오후
지마
▁때려
▁버티
▁아침
▁입수
▁탄생
였다고
▁돌파
▁들어오
▁와중에
-5
▁파악
▁있으므로
ain
▁시점에서
ith
상에서
▁이사
▁스페셜
39
▁위로
▁괴물
▁명의
기만
▁1990
리나
▁박살
▁MV
▁불리는
되는데
았지만
▁개편
▁정글
적이고
▁증거
▁아이템을
64
34
▁초월
년이
ry
IT
선거
▁단체
시장
▁댓글
▁눈치
▁비록
▁내용이
▁속에서
일의
▁했다고
▁본선
▁버튼
▁우려
다이
▁정말로
▁정령
▁하위
▁카드가
▁납치
ld
▁기획
▁아시아
▁않아서
▁밟
▁장점
▁세력
▁않기
▁무력
▁실질
구로
자마자
▁핵심
▁해설
▁봄
등급
▁만들었다
▁궤
▁격투
▁20%
com
▁역전
OL
▁사람들
▁채용
니가
▁마츠
▁라이벌
하기에
▁핑
▁중단
▁클로
▁활약을
▁자이
▁시작한
피스
▁룰
▁포르
▁겨울
▁존재하는
식의
족의
▁하수
▁06
▁경유
▁설득
▁나오는데
철도
▁디스
▁생물
▁육군
▁마녀
▁자원
▁찰
▁덕에
▁레인
량은
▁네이버
▁공격이
▁외모
만원
▁시티
일은
▁커뮤니티
시켰다
권의
▁대장
▁얼음
▁파이터
▁올림픽
▁발음
루를
▁들어가는
FA
▁당시에는
▁북미
▁반영
▁쓴다
▁http
토를
수와
▁3.
▁혼란
리티컬
스카
▁입은
▁09
▁셰
▁일종의
▁갓
▁지명
▁행적
▁필요하다
▁내내
▁뽑아
▁옆에
▁쓰지
▁김성
▁그것도
▁주력
ore
자들을
▁즉시
되었는데
▁책임
▁출발
▁마지막으로
관계
22
루의
였으며
▁여러가지
▁#373
▁거주
▁46
▁위키
▁제로
▁선배
▁안되는
▁다행히
▁템
▁아라
▁암흑
▁패치로
▁하다가
▁보여준
▁아사
▁쓰러뜨
▁늘어
▁떼
▁사람도
었기
▁컨텐츠
HE
▁때문인지
웨이
리다
▁사람들을
▁정도는
방이
▁작전
▁00
▁제조
았다고
▁카운터
▁낳
기인
▁있도록
▁그다지
▁가사
▁수리
▁일부러
▁하기도
▁핀
ss
▁갑옷
면서도
▁지급
됩니다
성으로
등을
▁그만큼
▁계산
스포
▁않았고
▁아티
▁스프
▁무난
▁붙잡
주면
▁떡밥
▁놓고
▁황제
▁만족
end
▁낚
▁융
▁게이지
시리즈
았는데
하기로
▁그것을
▁홍콩
도와
▁만난
▁컴퓨터
▁보너스
▁이름의
▁비하면
▁03
▁들어간
▁쓰레
▁돌진
▁흰
▁순식
▁얻은
아파트
▁분야
▁만들고
▁스트라이
▁메탈
말을
되기도
▁NC
▁크리티컬
▁의한
▁트레
▁가득
▁{
해주는
▁나의
▁케이스
받아
판에서는
년의
▁폰
▁사용하면
▁전자
시와
▁공주
▁노트
점에서
▁400
▁겐
관의
▁신뢰
사용
▁구단
▁카나
▁국가대표
▁시야
▁동일한
판에
남도
보단
▁해적
스에게
▁방식으로
년까지
▁재능
▁하던
버리고
년도
▁롱
술사
▁me
▁아무도
▁난이도가
▁붕괴
았을
▁교환
▁사실이
▁부터
지컬
▁주인공이
▁오른쪽
▁NPC
▁충돌
▁관광
▁있긴
화로
▁미야
21
~3
▁추가되었다
유키
▁순식간에
▁텍
당의
▁CP
중학교
▁고급
▁추정된다
시간이
오프
▁나루
▁출처
스트로
만은
과학
▁트위터
해져
지원
수에
▁떠올
▁생각하는
▁페이
▁그런지
▁외에
▁말한
▁or
▁아케
RE
▁늑
로서의
주년
▁어쨌
▁얼굴을
▁걸려
등장
왕이
▁그동안
▁랭
▁절반
▁싸우는
오카
▁응원
▁안드로
75
▁드디어
▁1999
▁i
▁마주
우를
▁드립
▁것이라는
조를
▁건너
▁적도
se
▁빔
▁불꽃
▁치고
-12
▁데리고
비는
해지는
▁격파
▁의미가
ust
▁오로
▁이것은
▁들어서
▁닿
대와
▁스페인
▁보여주었다
▁거쳐
▁르
▁베이스
▁반란
▁받게
▁와서
운다
▁캐릭터의
▁파이널
▁뛰어나
▁없었던
▁부분은
▁인간의
▁1998
▁많았다
▁속에
▁노멀
▁딜러
라기
▁노동
▁알려진
악한
▁폭풍
▁제안
▁05
들이다
은행
▁계속해서
▁그녀가
▁이쪽은
▁의도
▁행동을
▁오리
▁못할
▁감염
▁클리
▁가로
리언
▁쓰면
▁04
▁바르
▁근거
당이
▁걷
영상
▁몹
▁서울특별
니어
▁프로토
▁귀족
▁지하철
▁압박
▁it
▁테크
▁채로
▁연예
▁아닐
▁소멸
판의
▁많고
▁벗어나
이긴
▁퀄
▁|
스팅
▁쏟아
▁여동생
▁브랜드
:4
▁동아
▁역으로
▁전체적으로
▁한때
▁최악의
▁그렇지
▁실제로는
▁이승
국이
▁랩
▁강조
하지는
▁노래를
▁덮
메달
보스
▁단일
▁홍보
▁수입
▁텔
원들이
급의
▁체육
▁아무런
이었는데
▁국적
▁64
▁on
▁사상
머리
년간
널티
▁내에
▁맡은
▁깃
▁그녀는
▁신의
▁첫번째
증을
▁토모
▁유희
선으로
형의
▁몰래
▁폼
▁러브
군에
▁프로젝트
전에서는
▁형제
▁AT
▁가까이
▁출현
▁상향
▁집안
▁입학
사인
▁여러모로
▁SN
▁뉴욕
▁견제
▁관객
▁아무것도
▁공을
▁파이어
스턴
▁흔들
▁부족한
색이
33
▁되돌
▁수준으로
▁넣어
▁젠
▁이들이
점에
▁돌아오
▁화려
▁빨간
▁생겼다
.25
내며
▁re
▁충전
하시
▁괜찮은
▁주어
▁크리
▁선호
▁연사
▁제시
▁대로
것을
오를
기에서
체는
거리는
▁BGM
▁영문
▁달러
▁가문
▁다니는
▁들이
▁조용
▁만든다
▁CD
▁is
▁신규
▁성능이
▁...
est
가에
▁49
문화
▁마지막에
으려
▁당한
▁오픈
사람
▁예선
▁창작
줘야
했다가
▁for
별로
▁됐다
▁언니
▁의식
▁자리에
▁An
▁접기
진은
▁기록했다
▁놀라
▁영원
:30
28
▁되자
▁가입
▁닉
▁방송을
▁눈이
일로
가락
▁죽는
▁실행
▁마이크
기에는
▁취소
카를
▁바탕으로
력에
▁살고
실이
▁유저들이
▁작사
없다
▁명예
▁끔
▁후쿠
▁가드
▁갖추
og
까지만
치에
▁크레
▁카르
▁거기다
주인
▁경계
판은
▁혼자서
▁곳에서
▁조정
타이
▁모습은
버리
▁1997
▁보이고
각을
▁정확히
대에서
디언
▁메이저
▁붙여
▁대륙
▁의견이
되었던
▁경상
▁했을
▁쓰이는
▁지금까지
▁어그
면을
▁회전
▁루트
▁마련
즈는
▁화이트
류가
▁이후로는
▁쪽이
▁전원
▁위해서는
하였으며
▁65
스트를
▁얻는
타입
▁프로필
▁효과는
▁아메
▁리버
▁MAX
▁추락
▁올리
▁댄스
PG
▁캐릭터를
▁최상
▁신인
▁복수
▁목숨을
▁기어
▁하나인
스트라
▁제법
▁펼치기
병을
.01
▁번호
한국
▁언제나
▁주도
▁네가
▁그곳
▁미츠
age
▁보수
크는
▁훔
▁거래
▁한자
▁고양이
▁닥터
▁심각한
렸을
▁30%
기간
들에게는
▁공유
방어
▁본인도
▁단지
중한
▁죽여
▁규모
▁짤
거운
▁쪽으로
▁그들의
▁주먹
▁비슷하게
▁연애
▁보이며
▁형성
히로
▁짝
▁1.5
▁이스
▁본격적으로
▁무적
권에
▁어디까지
▁여겨
▁보자
서의
▁불편
▁타케
▁아머
▁아직도
▁울산
▁영상을
26
▁묵
▁되찾
우리
▁Ar
-11
▁후에는
27
ity
터리
▁다가
▁두려
▁귀여
▁물러
▁예고
실에
▁맡았다
▁말할
북도
▁대폭
▁못하게
브를
▁스폰
▁글로
▁방법이
▁옛날
▁마음에
연구
out
▁먹을
▁뉴스
▁고생
▁크루
▁메카
▁MS
▁이득
▁조심
단으로
저히
BO
위원회
자키
▁부진
▁마도
}}
▁갤럭
번호
▁문을
▁쿠로
▁푸른
▁무효
▁후지
PM
시고
물의
▁노출
▁체력을
▁피아
▁파일럿
▁가이
마저도
▁베르
▁팀은
▁편이
▁제주
ide
전투
▁이래
공항
장인
▁어쩌
▁Te
▁실시
▁사건을
▁꺾
▁모바
▁수요
▁몸에
▁안된다
ere
▁이거
▁제이
▁자체를
냐며
▁선수가
마는
할수
▁풀어
▁종점
▁기회를
▁당시의
▁브라질
▁몸이
기지
▁오빠
▁입장에서는
▁만에
▁등판
▁희귀
▁스킬이
▁덧
▁없애
▁KT
▁성능을
▁있어야
▁거라고
초등학교
▁서울특별시
▁샷
메이
▁생각을
▁유령
▁이슬
▁자신과
▁반격
▁더빙
▁r
ome
▁생겼
▁똑같이
▁연도
▁맘
시안
▁전함
▁기습
▁마리오
선에
당하고
▁맞이
▁정류
▁계급
▁판타지
▁증명
▁스마트
정부
▁것이라
용이
65
▁샘
▁계승
▁긍
▁꺼내
▁테이
▁레전드
▁건강
▁생일
▁이들의
▁구출
▁시키
▁도달
▁어둠의
인에게
▁타워
▁구현
코는
.02
▁사이가
▁국회의원
▁권총
▁방향으로
력도
▁우리가
▁편성
▁사운드
▁해체
▁화장
▁익숙
▁조금씩
▁똑같은
▁헤드
▁통한
연합
▁43
역에서
워드
라이트
▁대학교
▁추적
▁커맨
FC
▁빠진
부대
되자
IS
▁통해서
▁공항
▁1996
▁것이었다
사랑
▁크로스
▁투자
▁위기에
▁어지
▁사토
MA
▁요즘
▁장애
▁클래스
▁1995
▁자이언
해보
▁세계관
▁감독이
▁비중이
▁저주
▁신청
▁그래픽
치와
▁Ne
▁무료
▁언어
px
▁선물
▁대미지를
드립
▁요새
▁산업
▁기점
▁US
▁등장했다
▁스파이
▁중인
▁에서
▁동네
대회
▁인형
하였으나
▁민간
▁불가능하다
▁한마
▁호평
▁사진을
▁전투를
200
▁집어
▁엑스
▁던져
▁프리미
▁진정한
무원
▁경기가
▁해방
링을
▁포인
▁190
▁반응을
▁수록곡
▁인지
▁180
▁최후의
4,
▁흘러
작을
▁살려
▁옹
체로
▁에스
▁순서
▁학살
▁때가
▁4,
▁들은
▁인상
▁겉
▁주목
.03
▁행사
▁말은
연이
▁다수
▁복잡
▁시행
▁다이아
공의
▁한데
▁요괴
야의
▁페이스
▁AI
민이
▁알파
하이
▁어드
▁나나
▁분석
▁이날
▁동원
레나
-20
ood
▁걸린
▁다리
▁특기
▁때에는
서관
▁이재
메이크
▁전직
+1
▁눌
▁매일
▁코드
주지
지는데
제한
▁방법을
츠키
▁락
짜리
프는
▁적어도
▁밴드
▁포탑
▁아우
▁값
화는
▁플레
▁된다는
▁낭
▁달아
▁어깨
▁왔다
▁음반
▁팬들이
▁넓은
▁근무
ire
▁우승을
▁제기
▁라이더
▁델
시설
▁전달
▁말이다
작의
▁나를
▁별명
▁파란
▁돌아온
▁깊은
든가
▁쓰인다
▁주지
▁부분을
▁의사
전차
▁어떻게든
▁폭주
베르
▁크고
▁드물
더라
▁팬들은
▁성별
▁구해
▁DLC
▁성인
▁탱커
▁젤
OT
▁뒤를
▁작동
▁헤어
▁개의
조리
▁그랬
▁평가가
고의
▁아쉽
▁관심을
선은
▁대체로
▁이후의
▁유명하다
▁왠
당하는
▁오해
▁현재의
▁판정
▁통일
▁이들
단은
▁단어
▁공격에
▁작중에서
▁곳이
▁너무나
▁균
are
▁무언
▁MC
러운
▁가깝다
▁검색
▁학원
▁해당하는
▁수집
▁치명타
▁양산
▁플레이를
▁여유
해졌
▁고전
되었으나
브리
▁하니
장한
마루
▁저그
▁교수
▁내는
▁없으니
▁유형
▁운전
▁전투에서
카는
▁있었다고
보가
번에
▁붙은
▁MVP
▁소리가
▁이후에도
라노
▁표준
▁하거나
로로
류를
▁절망
미와
▁블러
▁기억을
▁일반적으로
▁괴롭
군과
▁않아도
▁외교
▁AC
▁무엇보다
▁연상
디로
데스
▁이시
▁그럼에도
▁중계
▁히로인
▁58
▁여왕
▁팝
▁엮
▁넘는
▁강철
▁추격
/4
당히
▁위치를
▁곰
▁리메이크
중인
▁보여주고
29
일까지
▁하필
▁Wh
지않
▁글을
▁동방
다니는
았으나
경이
리아의
▁레오
▁하더라도
▁공산
▁모으
▁소닉
▁정도가
▁매니
구역
▁튜
'.
▁용의
▁캐릭터로
▁낮아
▁Le
▁도중에
▁모리
라이언
▁임명
▁변형
▁마법을
▁이뤄
▁콘서
시절
▁맡고
UN
실에서
▁전면
▁스카이
▁그것이
시코
아를
▁프린
▁블록
인간
▁안에서
▁진지
▁박근
▁셔
▁모두가
▁챕
▁사람들의
our
▁변경되었다
▁변호
▁줄어
▁차라리
▁없으면
▁마인
▁제국의
스키
▁퀸
▁압도적인
▁몰려
니의
▁초창
▁족
▁막을
내기
▁되지만
▁통신
▁자동차
▁잡는
친구
▁66
병이
▁쉽다
동차
▁페이지
▁막장
▁고백
홈런
프리
▁능력은
▁펀
▁빵
▁비슷하다
ake
▁하야
31
OM
▁중화
▁공부
▁보물
~4
▁맞다
▁나와서
▁스튜
▁갈아
으론
ure
▁달린
OW
▁최강의
▁56
어리
▁참전
▁경험치
레이터
▁그에게
▁쇠
▁득표
▁고향
▁느낌이
▁거리가
▁의뢰
▁협력
쟁이
ect
겠지
스톤
▁1980
▁곧바로
ass
다보니
▁대립
▁세월
▁개통
▁THE
qu
▁곡을
▁잦
▁빗
▁콜라
▁빠르
▁그와
영이
▁전형
▁마크
▁없는데
▁지나치게
ite
.05
▁등에서
에다
▁사양
▁일도
▁1994
▁슬롯
▁끝나고
▁착각
님의
▁준우
▁섹
▁행성
ark
하면서도
테인
▁넘겨
oy
트남
모드
▁예외
일드
▁막기
▁섭
▁빡
▁AK
했는지
▁편의
▁위험한
▁이내
편에서
했었다
▁극단
▁않았지만
▁근육
미니
▁예능
▁파라
▁주변에
▁아바
버려
▁어쨌든
▁대상으로
▁특별한
▁수학
▁신성
▁노예
이게
▁강원
의가
ID
둥이
라에
av
▁많아서
▁가고
▁근처에
티드
▁탁
▁길이
▁심한
▁보도
▁낸
▁화력
▁지니고
▁추진
▁이것을
▁차별
▁튀어나
▁엄마
▁커플
ES
색으로
▁잠수
▁곳으로
▁이르
▁있기에
▁아버지가
전자
▁파트너
▁통상
하는게
▁김영
▁생각하고
▁De
.08
AD
▁스피드
▁서서
끄는
▁의혹
▁아니었다
로봇
▁없었고
▁Se
스탄
▁잡을
▁정확히는
가고
▁어디까지나
ime
85
하기는
▁중학교
▁피격
▁이성
였다는
▁명이
▁흥행
평가
▁세계의
▁모바일
▁집단
▁않았던
▁뼈
관은
▁의원
▁관계를
▁헌터
▁[[
파이
▁하나는
iz
▁돕
율을
▁적극적으로
▁는
▁둥
▁관계가
▁이용하여
▁신고
▁멕
▁써서
▁탄약
▁마왕
했습니다
ound
▁체포
▁성격이
▁으
▁옮겨
▁협박
한의
▁대략
ob
▁실버
미네
책을
▁싸울
작이
▁외계
야구
만큼은
▁신기
▁아니냐는
▁!
파를
▁버려
▁생각보다
▁간혹
▁밖으로
▁컷
▁디버
대장
업이
▁지속적으로
으려고
▁대사를
▁수영
있고
▁말아
▁썩
▁목격
▁분위기
담을
노가
▁외부
▁실력을
마이
▁전까지
더스
리얼
▁뺏
당한다
다시
▁타이거
소리
▁날짜
▁마이클
OP
ge
노우
식은
▁똑같
▁되어서
▁FI
화되어
▁장수
▁춘
▁전력
직을
그래
▁곁
▁말하면
▁조절
▁총을
디가
▁??
▁오스
▁단순한
▁대부분이
......
23
번의
▁이지
▁나름대로
▁김태
▁쓰기
▁베어
▁은근히
국을
▁57
▁차단
▁가리
▁대화를
▁외에는
▁파견
▁가볍
▁쾌
▁41
▁버리고
▁코어
하라고
▁트로
▁중에서는
▁계획을
▁설정이
▁다들
▁깜
항공
▁소화
▁힘으로
들과는
BA
린이
▁까다
▁스코어
소의
▁합쳐
▁불법
▁끌고
자고
전대
95
▁홀로
▁마구
데다
종이
▁경영
당을
▁열차
▁한동안
▁맞지
▁지역의
▁쫓아
소에
~20
▁수송
iv
▁나뉘
▁들어간다
격으로
▁독자
환이
▁Me
▁기원
단지
민의
▁생각이
동의
▁폐지
.09
▁자가
▁He
▁시켜
편의
▁미스
지방
ock
▁77
▁넉
▁2017-0
▁평화
▁목적으로
▁고용
▁팬덤
▁앵
계에
▁와이
실한
당해
.07
▁보이지만
동에
▁더더
▁대처
▁합격
▁인근
름을
▁시장
-7
▁외국인
▁핫
LL
▁펼쳐
연의
▁테란
▁수사
오고
▁기초
▁장식
▁기능을
▁몬스터를
▁끌려
▁무작
ath
오리
▁보낸
치며
▁웹툰
형으로
현이
▁필살기
▁구속
▁기록을
초간
▁막차
▁승부
▁멀쩡
▁입력
0000
▁정확한
과도
▁날개
▁인공
▁태어
표를
어버린
되었지만
▁54
인지는
▁감시
▁스톰
▁시각
▁상황이다
심으로
▁기능이
▁이중
▁DJ
▁대만
▁85
▁당신
▁오랫
▁편곡
발이
티아
▁정도다
▁맞은
▁까지
론의
씨가
재를
▁자매
▁정면
▁무기로
▁룬
▁더더욱
▁my
▁지능
▁관계로
▁넌
▁흠
네가
구치
색을
학을
▁보일
▁kt
고로
▁존재하지
▁기반으로
▁갤러리
▁AR
▁다섯
▁강제로
▁FA
▁갇
▁보며
▁사장
▁적대
▁코믹스
▁낼
.04
▁아빠
▁수련
▁것만
▁이들을
▁죄다
▁KIA
▁블로그
▁작품의
조차도
▁플랫
98
▁잃은
테이
▁긍정
6,
▁전화
▁아리
▁캐나다
▁이길
▁같지만
▁태그
▁즈
부와
▁CC
▁Cl
▁어떠
▁원본
ax
▁것이고
▁가속
▁순수
▁팬들의
▁누적
하려면
▁사용해
▁중에는
▁일시
▁비해서
감독
▁썬
등이
▁대충
▁예측
▁마이너
▁멍
▁기술이
▁안드로이드
▁상품
▁아가
경찰
▁말로
▁피해량
ess
▁수용
▁데미
▁특이한
?'
의로
▁자신도
▁마음이
▁아름다운
▁보라
▁남겨
영화
pe
▁주말
▁감옥
이었다고
▁{{
▁현지
▁레벨이
▁보인
▁대규모
▁박정
▁안내
▁알겠지만
▁허나
▁나타난
▁박근혜
함에
ance
▁소총
▁쏴
▁SD
▁펠
인인
▁그로
▁{{{
▁바보
츠의
▁김민
▁자신들의
선에서
▁없던
▁다루는
▁유행
▁지금도
▁현상
배를
▁않는다는
▁달고
당했다
67
비트
▁융합
▁52
▁키리
묘한
료를
▁예비
▁이치
▁GT
체에
되지만
▁88
▁건축
▁이리
일에는
▁많은데
▁했다는
▁he
▁드러나
▁주기
▁형태의
▁프로듀서
이기에
▁죽인
▁600
민주당
uc
▁써먹
▁강하다
▁아닌가
ick
▁250
ix
▁프라
▁반응이
▁깨닫
▁절대로
▁죽음의
▁쉴
▁땐
▁피를
린의
▁것인지
▁내의
▁쿠키
▁대원
국가
▁구멍
▁소프트
ord
▁점차
▁부상을
았다는
▁기자
▁섀
▁게임에서
▁한참
▁뭘
안이
▁경비
▁영업
-8
▁모른
▁MF
.06
▁관중
▁갤럭시
소한
▁베스트
함과
▁소형
▁방에
▁쓰레기
타와
파의
▁성공했다
▁wh
▁활성
▁밸런스
슬러
버렸
▁텔레
▁훌륭한
▁네덜
▁없었
▁퀄리티
야가
▁대상이
▁자랑한다
관리
팀이
▁있어도
▁4.
▁공급
▁감사
▁있다가
▁공개된
▁Be
▁하얀
▁Tr
▁히데
▁했으며
메가
▁실력이
▁예술
▁프리큐
▁세계를
▁어지간
▁모양이다
▁내놓
주기
르를
▁액티브
▁뜯
역에
뿐만
▁어른
▁군단
▁그건
▁어릴
▁WW
▁옷을
▁싫어하는
▁버프를
▁인간이
독교
▁59
ame
▁첫차
▁95
터테인
판에서
▁곡명
▁카와
▁컵
▁강남
동으로
▁뱅
▁평이
▁최다
▁매직
▁한다면
▁아일
▁이상으로
▁삼국지
▁스태
▁j
▁죽일
▁와타
▁챕터
▁SC
▁웨이
▁전쟁을
트맨
▁세워
▁짓을
na
▁SR
▁부품
▁들어갈
슈타
막을
연을
▁닫
▁유저가
▁하트
!!!
▁창조
▁나쁘지
▁관심이
▁공격하는
▁같아
▁업무
",
▁골든
▁선생님
이트를
르지
▁도발
마스터
▁박스
인에
▁다를
▁DF
▁카드의
형은
▁디아
산이
▁감정
▁장면을
느라
니와
▁저녁
▁꽂
▁과연
▁나아
▁다룬
▁만났
▁전에는
▁지금의
OC
해준다
▁카미
▁오랫동안
▁죽음을
▁환영
투를
량으로
▁있었으며
림을
▁밝혀졌다
▁카타
▁나눠
▁간의
있어
▁그렇다
코를
ud
▁이어지는
▁검사
▁포스트
▁어두
▁접속
▁뚜
▁작용
US
▁전멸
인들은
다의
▁어마
위키
▁성적을
▁My
노의
톨릭
▁+2
코와
법이
/10
▁메타
▁난다
▁모여
되었을
▁트윈
▁스티
▁별다른
▁싸움을
▁불린다
▁지어
▁정지
▁분위기가
▁가능하며
▁전성
▁윙
▁시기에
▁우리는
▁분위기를
▁훗
기업
베이
▁받아들이
▁레어도
신으로
▁리듬
버트
회사
▁동시
▁기본적인
당에
관으로
▁재사용
▁with
으러
▁갈수록
▁서비
▁사용하지
통을
▁대항
▁맞게
▁경력
되어서
▁열쇠
였기
가며
거야
▁들을
하에
챌린
버스터
▁등은
▁전방
▁장교
▁떨어진다
번이
▁사용하고
과를
▁되었다고
▁슈팅
원과
▁이즈
토는
▁태어난
ph
▁보게
▁아쉬운
▁OST
금이
▁안티
▁랭킹
▁결코
▁신장
▁잡혀
▁이영
역의
▁멈추
▁헨
▁싶다
▁작가가
▁감독의
▁마침내
▁시즈
데이
세로
▁뭉
▁5,
▁이전의
▁주전
▁오스트
졌지만
▁아니라고
▁한타
▁이제는
▁모모
▁미카
▁이슬람
▁봐야
▁메뉴
▁출장
▁의존
▁캠페
▁주소
공이
▁비디오
▁모조리
▁사라진
▁크기
▁비싸
▁귀찮
▁치는
▁휘두
▁합성
상한
▁사람들도
실로
▁처벌
▁조지
▁SM
세에
▁SKT
▁캐스팅
▁올린
▁극복
▁조성
▁강하게
당할
▁비트
▁그라
47
▁해병
▁증가한다
▁당해
▁민족
EM
▁빚
▁나가는
번을
▁입단
▁Pl
▁부수
▁적혀
▁일상
▁니시
▁김동
실점
▁회수
▁할아버
▁과거의
▁기분
심한
▁김정
▁주인공의
▁새벽
양이
▁불가능한
▁후속작
▁좌우
▁높이
..."
▁보장
▁방법은
에겐
▁대사가
▁저장
▁아니라는
old
주자
▁이글
▁녹음
▁베트남
▁JR
▁칭찬
▁넷
권은
▁문재
▁스타크래프트
▁임시
▁대표적으로
▁셈이다
▁캡틴
▁경향이
▁목소리
▁네오
▁이정
▁아티스트
▁보너
▁뒤에서
▁잃고
▁자동으로
퍼스
▁한명
▁공군
▁찍어
▁마리아
▁위주로
▁찾는
츠가
▁감안하면
▁가능성도
▁험
▁부른
▁킥
▁앱
▁로그
▁서양
▁적응
▁약점
가시
▁무덤
장갑
▁헛
▁좋을
▁죽어
▁보석
봐야
회말
!'
재가
▁말자
▁1992
모델
기까지
되었다고
▁데다가
▁점이다
인들의
▁찾아가
▁유로
▁우연히
EX
세는
▁어택
급으로
▁제임
▁빛의
▁향상
▁정찰
등의
▁넣고
▁1993
▁지나가
▁수십
▁보여주며
▁HD
줘서
▁찔
▁이론
▁일으키
▁믿고
▁인수
탄이
▁아크
소에서
▁목소리가
68
▁꿈을
▁환승
▁가야
환을
대사
▁끈
▁시청자
▁챌린
▁디지털
▁사람들에게
own
▁입을
▁출판
▁횡
졌을
▁심하게
물에
졌다고
▁한국에서
▁접촉
▁좋게
▁불을
▁방출
▁생활을
▁잡기
▁직원
▁만나게
▁무방
.15
해의
▁들어온
▁사랑을
▁컬러
▁무릎
▁한정으로
▁의미로
▁시절의
▁별개로
▁부서
▁전형적인
것은
▁메시
▁신설
▁병력
▁보지
▁캐릭터는
년을
▁내장
▁터치
▁유닛을
▁미디어
▁관심
트에서
것으로
sh
▁110
네임
▁몰라도
/1
▁은하
▁사이의
나카
▁68
속도가
▁자식
▁사건의
리우
▁크라
▁이라는
▁눌러
▁마력
ng
▁정체를
▁있는지
▁물고
per
▁Pro
▁테스트
▁전진
▁렉
▁가상
▁98
▁둘째
▁KO
면에
받을
팀의
▁수수
▁0.5
▁고스트
▁규칙
토와
▁세상을
▁김종
▁드는
▁$
받았다
▁유니폼
▁지역에
▁뜬금
▁상급
네요
▁씹
링이
▁여신
▁엘프
▁기여
▁준우승
▁아파트
보드
▁박사
▁잉글
▁개방
.18
▁인원
▁욕을
▁늑대
▁노부
▁채워
브라
▁얼굴이
5,
▁효과로
▁냄
▁전후
▁곽
▁스트리
하기가
▁스웨
▁소드
▁완벽한
▁사쿠라
▁약간의
파가
▁인터뷰에서
노스
▁선수들이
▁경기는
▁라운드
▁어째서
마에
▁시그
▁심리
▁죽고
회는
▁이외에도
령을
▁다수의
▁브루
▁손으로
사업
▁51
▁내세
▁코미
▁바깥
▁깔끔
▁에드
닌다
▁충청
커가
▁수준이다
▁호텔
바라
때는
분의
▁올리는
▁그림자
▁죽는다
빌리티
▁그렇지만
▁정신을
▁스미
▁명중률
▁적절한
▁PD
▁헤이
▁이외의
개발
즈마
▁자세히
▁GS
색의
.20
방향
ace
▁버린다
▁승격
계에서
▁위하여
▁있었기
▁헤비
▁의지
▁소수
▁가라
▁브리
▁있었을
설을
▁되었는데
즈와
▁드라
▁힘들어
▁높고
▁제갈
트릭
였을
크와
▁잡은
▁마시
▁국방
▁정복
▁Ex
▁통제
▁매치
▁배우는
검을
계열
▁챙겨
월부터
▁모르고
▁플랫폼
시키기
▁이명
▁합체
▁티어
▁숨겨진
▁신이
▁물을
▁세이버
▁''
▁이닝
▁무시하고
▁특집
▁기독교
▁아쿠
현의
▁천재
▁넥센
▁객
ice
▁비주
▁차원
▁시달
▁독특
망을
▁노란
▁취임
▁카라
로나
▁구사
▁돈이
▁이루어진
OD
▁제어
유를
피를
▁아이콘
▁요코
▁눈물을
▁가격이
▁나오기
▁가짜
▁지형
▁시너
▁정착
▁자리에서
▁비싼
▁스마트폰
▁하락
ok
▁이끌고
▁훗날
▁네임
▁다음날
▁재현
▁어려워
▁기병
▁일방
▁갔다
드레
▁맞으면
▁이것도
▁킨
▁버렸다
▁일본에서
▁폭격
▁등장하지
▁되었으며
유닛
▁캐논
▁층
아는
히지
▁과거에
▁모래
▁자폭
▁스턴
▁우수
▁작가의
▁Love
▁일으킨
받는다
츠를
▁튕
겠습니다
▁탄창
▁것일
▁후술
계로
▁학생들이
▁대개
쪽의
▁일찍
▁이용해서
▁주포
▁명령을
▁닌자
▁하나도
먹고
▁잠재
▁고등
▁윌리
란다
렸던
▁발매된
▁동굴
▁덤으로
▁가톨릭
▁퀘스트를
▁볼넷
▁스틸
▁좋고
▁날아가
▁쏠
▁미안
시험
▁당하는
ov
한을
했다면
46
▁커리어
▁EP
▁빛을
▁지내
ll
IG
ont
▁할머니
▁며
▁의료
▁드림
~5
▁전철
▁각본
구리
▁간신
▁김재
▁나이가
비에
▁내리
▁업그레이
▁이다
맨의
적의
▁성능은
해지고
▁장군
론은
약한
산업
▁개입
그라
버전
포인트
▁이펙
인이다
욕을
,8
하가
▁수익
▁그러니까
▁카메라
▁의무
▁중국의
▁된다고
다란
▁플레이어의
▁장전
웨어
▁계약을
▁들려
▁라이온
버릴
-6
▁경우에
▁찢
ave
▁플로
졌는데
▁갈라
▁핸드
▁말하며
▁집에서
orld
▁내보
▁수류
비로
▁포스
▁터뜨
관에
▁자는
▁언급한
▁등과
▁공격할
▁공작
도르
증이
▁트랜
ies
▁타락
▁간부
▁메르
레인저
랑이
식에
▁게임에
주며
wik
LE
▁화를
▁IS
▁빠져나
▁머리가
▁적당히
▁상술
로와
▁함선
들만
기록
터미널
실의
▁67
키와
▁일명
겠어
비디오
▁)
▁블레이
▁카오스
▁코코
▁고작
크라
▁덧붙
▁1988
용을
▁패션
▁충격을
▁농구
워치
▁초반에는
마와
아리
▁CV
티나
어마
▁인하여
▁구체
▁고교
▁찾기
▁환상
▁둘은
▁사냥꾼
곡을
그리
▁이번에는
▁도구
▁디지몬
치면
▁컸
▁왕의
▁말하자면
조는
▁그들을
▁돋
▁도끼
▁침공
▁코치
▁켈
▁확인할
사거리
니를
▁켜
▁깡
으로만
▁단점이
▁저런
▁아버지의
▁규정
▁사용하여
화한
MP
▁런던
▁추억
▁첨
레어
▁이상을
▁너의
▁스승
▁여담이지만
▁SNS
][
▁신경쓰
나서
령이
▁걸고
장전
렬한
종을
시타
여객
병원
▁보안
▁1991
▁아이스
▁단단
하라는
II
기나
▁이식
▁외의
▁전부터
▁개막
석은
▁밝혀진
▁발언을
▁싸워
▁니코
▁sh
▁식의
▁클래식
▁않도록
▁혈액
▁치유
▁2:
▁연락
▁썰
▁어빌리티
▁결과적으로
▁가문의
음악
▁공격력을
다나
▁야스
▁이미지가
▁CPU
커의
영의
▁몰락
▁올라온
▁사카
우와
▁역을
▁오지
사령
▁드리
▁빨라
97
▁않았을
▁트라이
▁육성
▁중독
▁맞서
자도
▁스톤
▁전체를
▁연관
▁어떠한
▁위치에
▁상상
▁죽이고
▁곳은
▁안나
▁반발
재로
▁느린
화와
▁웅
▁내지
▁방사
지구
▁마술
▁만날
+11
900
ber
▁병력을
▁Un
▁오직
▁군대
▁아마도
▁76
▁없다면
여자
▁물론이고
▁800
사이드
▁SH
▁지원을
▁나오며
▁들어갔
쿠라
▁공성
▁걸쳐
▁율
▁전의
▁임무를
▁콜라보
▁코멘
나라의
이든
▁남긴
ION
▁떨어뜨
배가
주민
▁앉아
▁색깔
▁결과를
로워
커를
▁자체의
비와
▁숙련
▁말하고
▁흡혈
페이
▁프라이
▁있었다는
▁생명력
▁130
▁아이언
/5
▁마다
▁카드는
▁거리를
▁총알
▁78
▁만들기
▁세종
드에서
로서는
▁오전
졌으며
있게
돌이
▁찍은
▁남녀
공학
▁어마어마
▁언젠
▁클랜
▁태어나
구려
▁그러자
건을
러를
▁97
▁패턴이
▁첼
io
양함
▁루시
▁꿀
▁출신의
방에서
▁5%
▁횟수
▁램
소로
▁위장
▁느낄
▁미스터
▁영구
▁알리
▁비례
▁생년
▁범위가
▁일람
지지만
▁검찰
▁역사상
▁타자
벌레
▁멘탈
▁오카
중앙
▁벌어진
▁나중
집을
▁그러다가
▁크리스탈
▁상자
▁바꾼
▁가볍게
▁당연한
▁의문
pt
▁아이를
▁그들이
▁플레이오프
▁주었다
▁진짜로
▁낫다
▁히카
▁카트
96
▁보관
▁널리
▁your
▁패스
끄러
▁나오면
▁오사카
9,
▁가만
언이
▁검을
사고
▁똥
▁이겨
▁그들은
▁보유하고
한이
▁가끔씩
질로
▁도주
▁합니다
▁소식을
러의
▁회의
▁망가
anch
▁이나
▁왕자
워크
▁요정
▁프리큐어
▁틀어
▁강요
하더라도
▁호주
▁토끼
▁구원
석에
▁해주는
▁청소년
▁레이더
타자
▁de
▁판정이
▁회차
▁처럼
▁전라
▁금속
▁생략
▁멤버들이
▁호위
▁방법으로
▁해상
교를
▁은행
▁챔피언스
▁총기
▁주제에
▁아케이드
▁눈물
▁리가
▁애플
▁거기서
ream
▁인물이
▁관람
▁부각
▁나면
▁전공
포가
▁다음에
▁팬들
▁CF
▁효율이
▁72
-15
▁편입
부르크
▁톰
▁간신히
▁코우
▁+10
▁잡지
▁점수를
▁후계
이면서
▁들면
▁저렴
▁신분
리지만
▁군주
▁알바
▁활발
▁게이트
으로서의
▁위력
까진
▁포항
▁농담
명한
호와
미나
▁민첩
▁기믹
▁무척
▁유효
▁25%
▁해피
▁타겟
▁유저들은
▁결성
년만에
▁스튜디오
안에
der
▁배차
후반
리스의
사무
▁한쪽
▁의상
▁무지
▁매니저
▁LV
▁최신
▁이전에는
향을
겠다며
미터
▁기용
는게
류의
aw
▁딴
쿼터
▁취급을
▁이란
▁버린
▁받으며
투스
파로
▁메리
▁수도권
하겠다고
전과
▁53
▁서부
▁사막
▁문명
▁실망
▁유닛이
▁가스
▁편이라
▁데몬
▁성공한다
블린
iss
▁스프링
▁열어
이동
▁감독은
▁무기는
▁한글판
▁마법소녀
천시
▁삐
▁이라
▁일이다
▁160
▁거다
▁행위
▁공개되었다
▁사마
▁이은
▁직전에
중이다
해가
희가
국에
▁자리잡
▁포르투
▁길드
직한
타카
자치
▁느낀
오와
▁성남
▁생년월
▁헐
보이
루는
▁손가락
하고자
세스
▁집을
▁거듭
▁데드
▁삼진
▁이민
석의
러니
필드
▁무기가
▁김현
▁떠오
▁초중
사우
▁금방
▁어린이
부장
▁평타
ET
공화
공원
▁것이며
들보다
▁보여줬다
된다는
자면
공사
▁경고
▁주사
주었다
ian
▁아즈
▁유통
▁쉐
▁휴대
▁수업
하자마자
▁마키
탄의
▁한번에
▁하나씩
▁연방
리는데
▁사용이
▁위원
▁BPM
디를
▁모를
.00
▁15%
▁잔뜩
▁홈런을
▁또다시
▁지뢰
았으며
▁저질
▁기숙
▁스플
▁곤란
▁용도로
▁죽이는
되었다는
▁대미지가
군으로
▁부딪
ile
man
▁비공
▁왈
내가
▁나타난다
▁자극
사이트
▁닭
▁격추
▁거짓말
▁개시
국어
▁방송에서
▁늘어난
▁남아있
▁PV
IP
▁공격한다
▁혹시
맨이
ost
▁로스
▁움직이는
▁가을
▁국립
▁정치적
망이
▁We
▁유사한
▁뮤직비디오
적은
생을
▁재밌
▁하차
▁완벽하게
▁언더
▁정도였다
▁트럼
인도
박을
▁바이오
버그
▁생각해보면
▁지팡
▁코믹
▁140
▁가시
▁휩
▁당하고
수사
▁이끄는
ww
▁유치
▁미쿠
▁라인업
안의
단과
단체
▁법률
▁마코
▁몰랐
▁알아서
▁이집
▁소지
나이트
▁난입
▁무렵
전설
▁아들이
이었으며
함으로써
▁이용하는
보로
루타
▁드레
▁시스템을
으니까
법은
▁먹어
▁알렉산
지기도
▁리얼
렇게
유럽
▁96
▁형식
우기
.17
:10
▁장악
포로
▁크리스마스
움이
▁멜로
ther
▁적어
▁슛
경에
▁구하기
▁사전
내지
졌던
듯한
해서는
▁스팀
▁공허
▁아일랜드
해질
▁단편
타운
▁1:1
년생
▁메달
션을
▁피해가
▁토론
▁무서운
아와
▁칼날
커스
▁군인
패로
▁플레이어를
▁that
▁나도
ory
▁청년
터테인먼트
▁유나이
▁마그
▁중립
게이
능력을
▁악역
▁미치
▁무관
요시
▁귀환
고속도로
▁쉽지
스트가
▁탈퇴
▁전시
▁Com
▁기울
바의
▁CJ
▁지휘관
▁잘못된
▁인증
▁1989
▁잉글랜드
백을
▁물려
졌다는
▁기뻐
rom
▁투구
▁mm
▁결과는
어와
▁시노
▁기관총
▁유저들의
우며
▁윌리엄
▁멋진
회차
번은
▁쭉
▁게임은
▁추종
차례
성능
▁들어가면
www
▁페이즈
Hz
▁스킬은
▁화려한
▁출마
▁살펴
▁들여
▁예로
▁연료
▁유대
이었기
anchor
;&
로만
:20
바닥
▁행운
▁추구
▁당시에
▁명을
▁둘의
일본
들과의
▁페널티
▁질문
▁수준이
▁블레이드
▁적합
▁유희왕
▁2.0
▁레알
▁주간
▁처형
▁회장
▁뿔
▁천사
▁유독
인데다
▁먹은
플렉
▁조별
▁빼고
▁나츠
▁넣는
IVE
▁실드
▁반사
44
▁???
▁문재인
▁명확
▁부상으로
스트의
▁전반적으로
▁엿
▁저작
]]
▁노리
▁친구가
▁휘말
▁설정을
경의
▁아니라면
▁찾을
▁심판
▁블러드
거를
▁교황
▁출연한
▁비상
▁정황
▁상업
가미
▁냄새
▁새끼
▁멕시코
▁어딘
▁미술
▁매력
▁묘사가
저씨
프와
▁갖춘
▁타쿠
야만
▁늦게
▁그랜드
훈련
▁식민
▁곳곳
▁WWE
▁되기도
지인
디의
▁이른
▁1~2
▁전설의
▁내고
▁미라
▁넣은
▁죽지
▁참석
VD
▁히나
▁커다란
통이
몬드
▁It
니는
▁주인공은
▁공화국
▁조건을
▁문서를
▁공룡
▁김대
▁동일하다
바나
▁현역
통신
▁귀여운
▁생년월일
▁거울
▁구글
▁그러다
저럭
▁&#
▁키워
▁답이
▁세상
학자
▁스페이스
▁발달
▁곳을
▁통산
▁브레이크
▁지역을
▁고위
▁감정을
▁경기에
▁작품이
▁채팅
▁1970
▁초록
▁업데이트로
.16
▁후반에
▁아틀
▁그럭
▁주변의
SP
▁현재까지
▁존재를
▁ED
시하는
▁사용되는
▁요약
와도
▁드롭
▁블라
나고
되게
▁끔찍
▁카카
▁선전
▁5.
체육
▁에너지를
왔던
▁숨어
▁언급이
▁걸맞
▁확실한
▁집으로
▁챔피언십
IM
▁터키
ky
▁이어서
▁사랑하는
▁서번
.5%
▁메모리
▁공식적으로
▁심지어는
네의
▁속도를
▁왠지
생의
▁시간에
드래
▁개량
▁시절에
OU
▁이미지를
▁부를
▁동부
▁시청률
▁대우
명에
▁당일
▁이젠
▁톱
▁곡이
렸다고
▁오마
▁AD
▁전체적인
▁출입
▁그럭저럭
▁생긴다
▁글로벌
▁상관없이
각이
▁준수한
▁시작으로
▁장비를
VA
▁초기에는
▁결말
님을
▁후배
▁과정을
가서
▁재판
▁어뢰
▁점도
다를
▁신화
▁뛰어넘
▁사우
리케
300
▁최소한
▁사라진다
소속
▁차가
▁티켓
▁보여줬
무장
▁존재가
▁기운
▁원칙
▁나아가
/20
▁비판을
▁않는다고
제국
▁간접
생이
▁일제
▁양쪽
▁보다는
들인
▁왕이
▁2~3
▁우리나라
▁어필
▁원딜
;&#
▁장면은
▁영상이
▁빌드
▁낮다
교의
▁특성을
ale
▁부러
▁성립
▁마비
거리를
인데도
▁펑
▁정수
▁플레이어는
orm
▁자연스럽게
▁급격
▁건지
▁작품을
ys
▁뜻을
시에는
▁답변
▁면에서
▁권장
물은
▁목을
▁토벌
▁조연
▁체인
났고
버를
-16
▁해골
는가
UM
▁차를
▁한국에서는
하를
▁공격으로
▁관할
▁본다
▁사후
▁피할
▁뻗
94
▁상호
▁배트맨
▁AM
▁당신의
하진
▁가벼
브가
▁불펜
▁초등학교
▁물건을
던지
두는
코어
▁사람에게
▁집착
▁책을
▁음성
▁브로
국제
▁연금
▁그것은
조로
▁원인
▁세븐
▁옳
▁부분에
▁흩
TE
▁가르쳐
차량
▁트롤
▁화가
▁아니며
▁따온
도에서
▁체크
▁제가
▁지역에서
▁소위
해보면
▁대단한
▁아트
▁스웨덴
▁민주당
▁피아노
▁신앙
▁못했고
▁동작
▁얻고
az
▁오랜만에
▁데다
경우
▁되었을
▁승객
▁상영
기기
닉스
인한
▁톤
▁지식
sp
arg
캐릭터
▁단축
▁돌입
▁연속으로
블로
▁처음에
되던
▁라이프
▁연극
▁당했다
▁장탄
▁대인
▁호칭
발로
정과
▁죽기
다리
▁의견을
▁사살
▁기록하며
▁커녕
▁펫
위해
▁대표팀
▁공격은
▁사망한
▁노르
▁건드
▁파리
▁중의
▁제임스
▁이상이
터는
▁끝날
산의
▁부스터
▁앞두고
▁위대한
▁애매한
급이
▁목표로
▁1987
지나
▁번개
구와
보병
▁62
▁오류
▁완결
▁계기로
누리
든다
▁전해
▁우수한
▁비교하면
▁세대
▁생기는
양을
▁분명히
▁영국의
▁즉사
편에
▁것인데
▁팬텀
▁엑스트라
▁전투에
▁사유
▁아나운
wiki
▁자막
▁시즌을
박스
▁보완
▁Gr
▁무시무
▁때에
▁이유를
▁타마
▁성공한
▁유카
▁체중
▁두들
▁적중
▁확실하게
▁고수
▁윗
▁너프
▁위치해
▁사용하기
감한
▁다음으로
▁로얄
▁아파
▁바퀴
ows
▁사라졌다
GE
▁칼을
▁스텔
되어있다
▁체계
▁노려
클럽
▁타는
▁미군
▁내야
▁세계에서
▁뜻하는
▁상대에게
▁가려
후의
ish
▁에그
▁맛이
▁시드
▁시작하는
리에게
약이
▁LC
족이
▁리뷰
▁하나만
모의
브의
데미
▁6,
▁경우엔
선과
▁전문가
:40
▁마라
▁마법의
일보
▁곡이다
▁등장하며
▁뿜
▁시체
▁태평
리라
▁면이
▁승강장
배우
▁실수로
▁의견도
ade
▁BL
▁필리
▁많지만
▁클라
웠던
했기에
▁인물로
▁괜히
▁나무위키
▁숭
▁상대는
▁얻게
율은
yle
▁신비
▁적다
복이
▁KBO
발의
66
▁매년
▁머물
▁네덜란드
린을
▁3000
그러
▁느낌을
ug
▁시스템이
▁상처를
▁시내버스
▁AS
▁듣는
▁두려워
정도로
크스
▁발라
▁고문
▁꼼
▁평을
▁기사가
▁밝히
▁용사
회초
▁전투가
월드
▁머리에
서에
▁현장
습을
▁와일드
▁팀원
▁호감
▁팽
▁심심
▁더군
▁캐리
것이다
▁그렇고
▁버그가
아야
tle
진과
▁전작의
▁RPG
▁의미를
ps
▁후에도
우지
▁101
▁싶다면
시즈
소총
▁이벤트가
사관
▁일일
▁입장에서
▁근본
▁묻자
▁전쟁이
▁뜻이다
위권
▁도둑
▁진보
▁시라
▁FIFA
▁누르면
더러
ook
▁비주얼
▁페이스북
▁버스터
▁교전
▁샌드
▁승점
▁아츠
▁Team
▁사이버
사회
▁익스
▁예정이다
act
▁매달
르며
▁한국인
irl
레가
나가는
ower
▁일행이
▁이수
▁캘
대상
▁나선
▁언데
▁발렌
▁Or
코드
▁기록한
받지
▁프레임
ike
▁드럼
▁언덕
▁자전
▁취미
▁앨리스
▁엘리트
시다
▁OP
▁포트
▁신문
디움
영웅
▁Fl
▁트레이드
편이
▁오라
▁라이플
급을
▁스즈
ink
▁이자
▁by
▁제작한
▁본명
▁유이
7,
▁쪽은
에서부터
ash
강에
▁저택
▁나은
▁40%
▁빼면
바가
▁인물이다
▁요소가
고에
▁거지
▁지속시간
▁최종보스
달라는
▁턱
▁심장
림이
▁실점
▁이벤트를
▁사이드
▁사자
▁인간을
나기
▁클레
▁싹
▁활성화
▁선두
▁깨달
▁부가
▁바닥에
▁상기
▁시절에는
▁하이퍼
▁당신이
atch
▁더군다나
▁회원
더의
▁채택
▁모습도
▁히어로즈
▁진심으로
▁이라고
▁위력을
▁대지
있는데
▁높게
pl
▁간간
▁기가
▁좁은
저스
▁기지
▁햄
▁전주
▁들었다
가면
▁몬스터가
무가
▁토너
▁에반
판으로
실은
손으로
▁삽입
▁뱀파이어
▁올라오
라엘
소는
십시오
인치
▁게스트
▁나간
▁자격
ial
▁조조
▁근거리
역사
▁된다면
▁어이
▁남부
▁이슈
머가
▁중첩
▁가지게
▁철저
▁침묵
▁스킬로
▁많지
▁카를
▁사라져
▁문자
▁다리를
▁임팩
▁굿
▁떠난
인듯
▁.3
▁악몽
▁오래된
▁카더라
역은
▁올렸다
▁플레이가
ms
▁FW
▁가치가
▁지불
TS
▁편이지만
▁아끼
서로
92
▁ch
슬링
▁학력
▁사건으로
합이
▁플래그
▁개정
는지는
▁가동
▁서포터
▁유력
▁맷
상황
▁1:
▁퍼포
▁녹색
▁무사히
행이
▁이끌어
▁다스
▁시절부터
▁웬만한
▁디젤
▁이종
▁의미한다
ae
▁사야
▁상점
?!
▁올스타
어버리는
▁넣을
▁폐쇄
▁피가
▁발생한다
▁말라고
▁침략
▁일격
▁코난
▁아기
▁아테
▁펄
▁노리고
▁정도이다
리거나
▁가격은
이랑
▁영어판
속에
▁소재로
▁아메리카
▁독특한
▁Dr
▁카츠
▁발생한
비드
▁실종
▁장면에서
▁무력화
▁영광
▁와중
▁얻기
주일
▁럭
▁증언
▁뒤집어
▁반해
▁트럭
▁펌
▁있음을
▁결과가
제와
▁얘기를
▁키가
▁스토리가
학원
▁노리는
▁Sc
루수
.14
▁일으켜
▁오늘날
▁교사
▁61
▁음원
차는
▁무라
▁방지
▁발을
▁정예
단에서
▁매번
ft
▁세르
▁걸리는
인들을
▁갑작
▁포켓몬스터
▁교장
▁시원
치면서
▁공공
▁팬들에게
▁어머니가
▁설정상
더가
곡으로
▁속도로
▁전체가
▁아래에
▁팀에
▁동의
▁부분에서
타수
▁빌려
▁전까지는
▁슬라이
▁넘어서
▁건조
▁1.2
▁있듯이
▁닮은
▁비하
설이
▁불이
너가
당은
▁이혼
로써
▁대거
▁기종
▁불렀
종합
▁날카
▁안녕
▁바뀐다
▁들어올
▁록맨
▁몽골
▁콘서트
▁올릴
▁사령관
▁속으로
저의
하길
▁인스타
키퍼
▁만남
▁그러한
연속
▁간단히
▁술을
▁뮤지컬
▁1986
▁너희
▁루카
▁칩
▁위기
▁호흡
티스
▁압도적으로
▁미네
▁밝힌
▁트리플
사기
고한
▁가만히
▁코토
▁용서
▁기록이
ING
▁진실을
▁파생
▁어두운
▁문학
번으로
▁재장전
▁취향
▁식물
▁밑에
▁원인이
▁아래의
나간
고도
라면서
▁업로드
걸로
▁1500
ble
▁소속팀
▁영원히
:50
-19
문은
▁불렀다
▁수능
▁2.5
▁74
▁비웃
▁스토리를
▁상대방
란의
속이
살을
▁베네
▁이루어져
▁한두
▁마블
라이브
▁사례가
▁끊어
▁포르투갈
ex
스레
▁구경
기어
▁어드벤
▁유의
하마
▁고기
▁타격을
▁남북
▁아이러니
▁퀴
째로
시스트
서야
▁부드
▁형사
▁차기
루와
77
▁출격
▁CG
▁억지로
▁엔젤
▁했었다
55
▁le
▁생각할
▁으로
▁사용된다
데다가
▁초창기
▁써야
▁탐험
▁메이플
▁자랑하는
▁최근에는
▁거미
인들
▁지시
▁몬스터의
▁침입
▁수술
▁보정
▁대대
▁타츠
▁구슬
▁치명적인
▁주차
▁잠입
▁프리미엄
▁전신
팅을
▁유발
▁해준다
진에
슨이
▁세이브
▁장점이
스테이지
▁마약
▁수를
▁숫자
▁시리즈에
되거나
▁정식으로
아키
▁받아들여
일과
▁아르헨
▁은신
▁전체의
▁인피
▁위반
▁탱크
▁혁명
이거나
▁외전
▁유격
▁영화를
▁카구
▁경험이
▁명칭은
▁오디션
법에
▁스킬의
~6
▁길어
▁미즈
▁이주
▁63
▁버튼을
득점
히트
건이
▁오타
▁ID
▁그랑
▁쟈
▁가치
▁인디
▁전장
▁https
▁카드로
신교
관광
▁발생하는
▁보내는
▁새롭게
▁적군
▁후반부
▁한마디로
섰다
▁구할
▁포격
▁김경
▁제외하고는
▁단행
▁슈퍼로봇
▁일원
▁적지
▁동기
▁방어력이
▁골을
▁버리는
▁일로
▁오버워치
조사
▁우리의
▁키스
▁퍼포먼
▁귀엽
▁승률
▁해킹
▁마드리
▁개업
이었다는
▁에픽
왕을
▁출시된
▁쌍둥이
▁위기를
▁정확하게
-17
▁예언
▁유리한
▁쏜
▁좋아한다
▁귀신
▁시계
▁태도를
▁시간은
보이는
▁최하
▁같다고
결을
월에는
▁언급된
▁네트
▁능력으로
▁빅토
▁주인공을
▁중요하다
마츠
▁기아
▁자치
▁없으므로
집이
▁듯이
▁공지
동은
해주고
▁중형
▁공기
▁캐스터
범위
포의
ous
▁동영상
레인지
▁둘을
▁기회가
▁처참
▁이하의
▁아랍
▁특히나
▁양의
▁과목
숙한
▁동양
▁천안
▁위력이
▁파는
▁화성
▁주둔
바야
▁궁금
▁동화
▁동성
▁War
▁3:
▁안좋
▁쓸데
▁레이드
▁사거리가
는데도
▁나오기도
곡이
▁유나이티드
▁막내
타이어
했듯이
▁있겠지만
▁폴란드
▁하향
▁투어
▁느려
▁구성되어
데레
▁나타나는
▁캔슬
▁음악을
▁고구려
마크
AY
름이
▁않았다고
▁초반부터
▁없으나
▁대치
▁나왔던
▁적들을
전기
idth
▁요구하는
야는
봤자
▁캠페인
▁브레
저가
▁일치
▁전북
AP
군요
▁목소리를
순위
엔딩
▁꿰
▁왜냐
▁인게임
▁첩
▁좋다고
▁튼
▁느끼고
MS
타점
▁기술로
▁작곡가
테르
▁700
체인
음에
▁별도의
▁폭력
now
▁반박
▁그러던
▁대다수
더를
▁신입
노트
산시
정상
▁측에서
▁정차
▁제도
▁84
▁금메달
▁일행을
▁좋아서
▁SE
주에
▁수치가
▁음식을
▁너는
▁관련이
번과
▁혼돈
▁곳이다
▁데에
▁팔을
▁수백
▁손오
▁fe
▁지키는
▁사태가
싸움
디는
준이
▁주장하는
▁프렌
▁교회
▁쏘는
▁보면서
▁입장을
▁대하여
족을
추어
환의
▁사용자
▁현상이
▁발매일
~19
경기에서
▁딜을
▁창원
하고는
▁커피
▁세부
가리
▁또다른
▁Wind
▁선제
▁아저씨
축구
▁히토
▁아미
스런
▁기회
▁처음엔
▁쟁
카라
▁이동속도
amp
온의
▁부문
▁무의
-18
장비
▁끝난다
▁구축함
▁일어나는
▁ㅣ
▁87
냈고
3.
방으로
▁코리아
▁실수
▁7,
▁더이상
▁배포
▁하나이다
▁상의
▁깜짝
▁And
▁그레
혀서
▁보이는데
열을
▁훼
▁하츠
과정
▁콜로
포트
▁감지
▁지나지
▁돌아가는
가스
국은
능력이
배로
셔널
▁김상
▁친한
▁사귀
▁아군의
침을
▁사제
▁정통
▁XX
STER
▁씌
민은
▁테라
버가
기능
▁난이도는
먹은
▁요원
공간
▁가챠
▁임대
▁수출
▁삶을
▁여학생
면에서
▁토르
▁주인공인
▁역시나
니시
▁법정
▁연타
▁마린
▁이긴
▁니콜
▁루이
▁가디언
▁용인
매를
ree
▁블래
▁조금만
▁출연했다
▁투척
▁대상을
품이
▁}}
▁출력
▁치면
▁배를
oll
▁당할
▁파멸
▁여지가
▁돌아와
▁막는
희의
▁후보로
▁모니
병의
▁들어오는
▁스파이더
공격을
스러워
▁5000
네스
▁나오면서
▁자신들이
있으며
▁도저히
▁무승
▁대통령이
▁대단히
▁여기는
▁확대
▁제한이
▁개설
▁패널
층에
▁차이는
▁혐오
▁방치
▁터져
▁이득을
▁Su
▁김진
키지
일리
▁집행
▁Star
▁재활
▁기동전사
▁영향으로
명과
▁69
▁보충
▁전역
늦게
켰다
▁남기고
▁사고를
야를
▁곡의
▁상태를
▁얻는다
▁벌레
▁도적
코스트
▁가지는
세한
▁강의
▁Man
렐라
DS
1.
▁너를
▁보호막
▁질문에
▁모티브는
면이
▁그날
▁라그
있었다
▁토마
▁기존에
▁많기
▁달라고
▁Go
▁종목
▁그래서인지
▁금액
▁중복
▁서서히
▁받아서
▁별의
▁기점으로
절한
▁가해
▁고마
▁독일의
▁부모님
▁아지
▁운영하는
▁오키
▁증가합니다
▁잘라
▁조롱
▁170
▁부르며
▁올랐다
▁커스
▁병원
▁후퇴
▁오스트리아
▁놓은
▁기원전
▁합의
▁선행
▁종류의
▁대부분은
▁소속사
▁선수를
▁1985
감에
연한
▁시로
부터가
▁얻어맞
▁딜레이
▁포위
▁사도
전한
▁.2
▁헝
▁도서관
▁특수한
중간
▁프레이
▁나고
럽게
▁신호
▁Br
▁등장하는데
▁스트라이크
씨는
▁놔
열이
ond
릭스
본다
▁읽어
▁그러면
▁둠
▁닌텐
▁사이코
▁시에
▁유닛의
▁세운
CG
▁나머지는
유가
아아
갔고
▁읽는
있을
▁86
▁면역
▁한국에
▁넘게
▁간단한
▁나갈
▁본작
▁up
ah
▁사정거리
▁경남
령의
ai
▁머리카
▁바꿀
▁자꾸
▁정부의
▁문제점
자동차
▁수월
에요
▁과거에는
리도
.19
▁향한
▁최우
▁조건이
▁성우가
▁세뇌
▁클릭
▁끊임
주와
▁받기
▁원작의
구에서
▁거는
▁김기
영을
▁부착
▁과도
▁1,2
▁밀리
▁화력이
하였는데
데미지
▁we
▁강등
동과
ase
먹을
▁가죽
▁맞을
▁곡은
▁마냥
시키면
▁땅에
▁일에
▁드래프트
▁야생
소나
함으로
▁빛나는
▁말투
확률
영은
▁대성
▁줬
▁미드필
▁화학
▁정체는
GB
▁직접적으로
▁유인
▁별명이
▁함대
▁조용히
▁파르
ool
▁패턴을
▁전투기
▁날리는
마치
▁크기가
▁땅을
▁형식으로
호환
▁충성
▁불사
▁이상은
▁약탈
▁무인
▁줄여
▁올라가는
▁소요
▁배경으로
▁막상
▁영역
▁어디서
▁다녀
▁어벤
온이
경제
▁LA
▁이스라엘
▁배달
▁스펠
▁중국어
▁끄
▁새누리
슨의
▁기재
▁사신
▁풀려
▁노선이
▁악의
▁다녔
400
▁마스크
▁발동할
▁반짝
▁유전
▁정발
▁나지
폭탄
▁온다
▁몰라
▁들어가서
현은
▁전무
▁텍스트
▁악당
▁옹호
▁Gam
▁소식이
링크
▁출루
▁아시안
42
▁방식을
터널
▁피해자
▁힌
▁일어났
▁벙
▁포함되어
▁재정
▁그외
▁시리즈를
▁굵
▁+3
▁조우
▁못하면
▁지칭
▁1984
▁얻었다
▁돌연
▁가능성은
▁무산
너의
하세요
▁배정
▁포기하고
▁불만을
▁지키기
▁105
▁대리
▁해리
▁경기장
▁당신은
길을
▁솜
▁신데
▁모노
UP
구간
▁제독
▁수면
▁연기를
▁신도
▁사용했다
▁두드
▁긴급
▁쓰여
이라이트
▁골키퍼
▁저지른
▁각자
▁벼
▁부인
되므로
▁몫
거든
▁뜬금없이
노는
▁기기
▁GP
▁생애
▁공용
▁Fe
렸는데
▁시작된
▁안양
훈이
▁사용시
차별
▁속의
▁에르
년대에
▁가기
예술
▁아버지를
워즈
▁건물을
▁장거리
▁되었지만
▁남아있는
림의
▁못해서
▁자이언츠
▁휠
▁이용할
▁나폴
스도
▁남자가
디에
▁능력치가
조에
▁양성
▁유재
킨다
▁배차간
▁운이
국에서
▁속한다
way
▁번에
▁갖추고
▁호평을
▁돌아다니
AK
▁도루
▁시상
▁제정
▁골렘
▁회상
문학
▁작업을
▁한방에
동물
▁결정적인
▁토큰
ary
베이터
▁제출
▁확장팩
▁철거
8,
교회
병으로
▁시크
고지
▁작화
▁여론
렸지만
▁에릭
▁대선
▁화력을
▁AKB
▁스크린
▁통틀
합을
▁국왕
▁쯤
▁명백
▁되살
▁키타
▁로빈
▁학생회
▁내성
▁테일
회복
▁축하
▁편에
▁서구
▁축제
중에서
▁신라
▁후손
▁아이가
리스가
▁ne
▁조리
카이도
▁미래를
▁자체도
▁집어넣
▁허락
▁걸린다
▁증폭
▁만들어서
▁사형
▁제자
▁코인
▁보통은
▁되므로
▁며칠
▁아이템이
▁않았다는
▁털어
파크
▁아카데미
▁따지면
▁때문이라고
택을
ason
싱턴
미에
▁오로지
aby
브로
▁해안
▁특별히
mer
▁이토
▁프란
▁진압
▁전화를
▁두들겨
▁82
▁BS
▁an
▁교과
실점으로
센트
DD
-14
▁호불
지니
▁불의
▁인연
▁솔직
▁쓰러트
피가
▁싶다고
▁담긴
용의
건의
▁금융
경은
NA
▁모티브로
▁CH
계획
우면
▁쪼
대원
▁상태였다
▁전승
▁짱
▁내게
▁아서
봐도
▁세계에
▁북부
타니
▁것보다
▁오크
▁경우에도
함은
▁뒤늦게
▁죽게
▁코스튬
잡이
판과
저런
례를
었는지
나요
카운
▁선수는
반이
KR
로이드
▁버전이
▁예전에
▁부임
▁쉬워
변이
러는
ment
대기
▁Sup
▁소속의
oon
마냥
▁매체
▁성격을
포르
▁화물
▁아닌데
라에게
▁실존
▁청와
편을
까요
익을
건지
▁청소
▁연습생
▁커맨드
▁영토
▁피에
▁아래로
▁개별
▁Part
▁트레일러
션이
▁지경
▁선택할
▁리버풀
기게
▁IN
비전
▁트라우
후에
▁DVD
▁툴
▁PP
▁마케
▁인지도
▁All
▁끝으로
▁바위
▁학교에
▁사건에
▁스나이
▁포수
아니
▁오브젝
▁사실이다
▁당사
▁이걸로
▁스트리트
왔고
▁DE
▁장치
▁엎
라딘
▁복구
▁세상에
하지도
▁시간의
▁포스터
사단
▁안타를
▁En
▁볼트
▁투명
에이
▁뷰
▁나왔는데
들처럼
▁갈등
/6
▁벽을
▁PR
지거나
▁리치
▁평생
▁취약
▁히든
▁완전한
▁자유롭게
린은
▁나노
▁자라
렸다는
▁중후반
~10
오로
리기도
▁좋지만
78
신과
상과
라고도
▁스포일러
가드
▁우월
▁UN
▁원더
포스
▁막고
▁특징이다
정치
▁늘려
▁마루
▁변화가
▁시리즈에서
▁데미지는
▁번도
ox
▁자녀
▁차트
▁콘텐츠
▁호환
▁NE
피해
자라는
란이
▁메이드
▁너무나도
▁국가의
??
▁부정적인
▁BR
▁2016-0
▁지나면
▁주의해야
사도
ach
▁UE
▁실은
▁어쩌면
매치
▁미국에서
▁박지
조직
▁\
▁루나
달아
▁되어버렸다
▁싱크로
▁거친
된다고
▁정화
▁영화의
▁Fate
.30
반의
거라
고리
▁3.5
▁코르
▁수류탄
▁무시무시한
백이
▁사이즈
▁준비를
▁여기서는
세서
리한
▁힙
▁터미널
▁주역
▁퇴장
▁자유한국
달러
110
▁무섭
ple
우주
▁손님
▁쓸만한
▁나라의
▁정부가
강에서
▁구간이
▁존경
▁1960
▁함부로
▁성을
▁UP
▁유망
▁낸다
▁초보
▁여기저
▁말로는
▁정비
▁지은
▁오염
▁훈련을
▁먹으면
▁차이를
즈니
▁지워
▁엄밀
▁가리지
▁모습에
목록
연장
▁크림
▁잇는
▁방식이
▁재회
티즌
▁할수
▁입장에선
▁뚫고
▁바가
머스
▁산탄
▁토너먼트
래시
▁공장
▁경악
▁나치
▁고블린
▁도박
▁왕국의
형태
이라고도
테일
▁만일
▁지녔
▁람
▁결승전
▁어렸을
마일
▁군대를
▁듣는다
▁마신
키아
▁맡게
▁부적
▁식당
▁연령
▁추정되는
하곤
▁뜯어
▁반지
나로
국으로
▁복수를
▁창단
▁책임을
▁길게
▁생길
▁치열
▁유지하고
te
▁한나라
▁슬라
▁되었다는
하겠다는
▁체험
▁레지
▁종이
▁상태이상
티를
▁누군가
▁소중한
▁항복
▁개혁
▁소방
▁파크
▁Pr
▁아버지는
있지
▁각각의
▁야쿠
▁외야
▁아니기
히코
전문
▁작전을
▁One
종은
▁기상
▁정보가
도리
▁중순
시키며
▁대회에서
▁더해
▁On
▁츠바
ank
▁아인
▁사라지고
나미
▁바에
▁다닌다
▁이야기는
▁카자
▁동영
▁LP
▁퍼즐
▁당한다
▁구미
▁서클
▁지는
▁TVA
▁토요
▁입주
▁주식
▁즉위
▁+5
▁73
▁여럿
▁모로
씨의
지능
▁관찰
▁따뜻
▁나이에
범죄
▁폭탄을
▁하려고
▁71
▁리스
▁후기
▁넘어가는
▁For
CE
소설
▁방탄
▁초콜
▁수록된
▁공사
▁임신
▁시대의
ARD
▁그림을
▁사용하며
▁되어있다
▁맡아
▁기사를
▁않다는
▁대조
▁세인트
▁94
-9
lect
▁10.
권에서는
▁일방적으로
▁국민의
▁피터
.24
▁고객
▁들어갔다
▁폭파
관에서
▁되도록
▁백성
일자
리아가
▁가까워
▁하이라이트
▁서머
▁125
▁끌어올
▁2019-0
란히
▁호소
버튼
내면서
르와
▁도움으로
.0%
ife
▁더불어민주당
▁결론
▁쪽에
배치
국민
관련
로에
▁넘버
▁교도
▁같은데
▁만나는
▁한방
▁이유도
크리
▁결합
▁유래는
▁삼아
▁버전은
▁짜증
▁발굴
자들에게
▁개체
번이나
▁치킨
▁실책
▁맞는다
▁랜드
▁워크래프트
▁옆에서
서울
▁늙
▁재개
사한
▁모토
▁81
▁토오
작으로
▁79
투수
▁트루
가게
▁동인
▁곱
▁비율
우라
▁만만
노를
▁배려
▁변환
▁전원이
▁죽었다
▁눈치채
▁체인지
▁있겠다
해준
▁머신
▁위치가
히게
계약
▁정상적인
바를
▁장신
▁주의할
▁구성된
▁막강
88
▁싶으면
/12
▁복잡한
▁넘치는
▁네티즌
▁투사
▁간호
▁시작했고
란을
▁New
▁어리
▁표정을
▁제작진
병기
창을
▁줘
▁브라운
▁안정적인
시켜서
드래곤
▁전세계
▁범용
이었을
▁역사를
▁튕겨
▁얼티
▁강원도
▁메모
▁서바이
▁출신지
▁기분이
▁등장할
군에서
▁진학
▁CS
▁온천
질의
▁상대할
살이
▁대신에
았기
개씩
표가
▁제트
▁드라이브
▁안으로
▁발매되었다
▁상반
▁저는
▁6.
▁지역은
▁용이
▁계통
▁0.3
▁올랐
되었기
▁정류장
▁열리는
▁상황은
▁만화가
등한
▁언젠가
▁인종
▁벗어
▁참여한
ens
▁이누
▁이웃
석에서
씨를
▁89
▁공방
▁돼지
▁거라
we
▁세력이
▁DC
▁시카
▁서로의
▁World
진으로
▁무소속
▁결투
▁92
▁새겨
▁극히
프라
▁작품은
▁뒤에는
▁오락
▁보유한
▁줍
룡의
▁스카우
▁남겼다
▁곡으로
▁무기의
저항
▁났
▁질투
스피
▁날이
히면
▁둘다
▁빛이
▁빠르고
▁이모
▁김준
▁보존
▁끝났
오스
▁인터뷰를
추는
▁Mk
▁진행하는
▁남을
▁적용된다
▁엘리자
▁허무
우스의
▁학과
ype
소리를
▁화제가
테랑
▁주제
▁사용된
▁그러니
▁상실
▁디스크
▁아군이
▁배드
아시아
▁간간히
▁소문이
▁간주
▁차지했다
▁재등장
▁방어구
▁GB
▁생각한
▁용어
▁여행을
▁야수
▁올드
▁벽에
▁누구도
▁받으면
▁야간
▁체감
▁평가는
▁자본
▁유출
▁거둔
76
런트
▁세번째
▁합계
▁필요는
▁싶지
▁썼다
be
▁파울
처리
~!
▁이니
▁철권
▁기대를
▁기다리고
▁우라
스티벌
▁Mar
▁나오게
▁느꼈
속을
▁노가
▁노벨
▁가자
▁공연을
벽을
▁주장을
▁드라이버
▁식량
▁입는
▁동남
▁일본판
▁커스텀
▁성적이
▁드로우
층의
해줄
테이션
▁얀
민을
▁일렉
▁스캔
▁실시간
ork
▁외형
▁미드필더
▁타율
▁무리가
▁얽
▁이세
▁서로를
밀리
▁많으며
▁다이아몬드
▁불교
▁로즈
▁올라간다
▁앞의
▁이런저런
▁JT
▁인구가
▁휘둘
▁포스트시즌
▁슬레이
▁패널티
▁실질적인
위대
서도
▁포획
▁LIVE
▁상대방의
▁잠수함
렉션
▁토우
▁모양의
▁사진이
,0
▁내린
▁기다려
▁AN
▁왜곡
강화
▁유혹
▁그녀에게
저를
▁DPS
▁복제
uk
▁비극
▁배급
▁쌓아
▁1,000
▁못했던
▁슈퍼로봇대전
▁성향이
~8
▁누나
페이스
▁튼튼
▁끓
▁스키
만으로도
인데다가
▁1982
▁엄격
들로부터
▁{{{#
▁사립
▁올리고
볼을
▁개신교
▁느끼는
해요
▁설령
▁모에
분으로
▁히가시
▁일부를
텐데
▁진실
▁지목
▁우호
준의
권으로
▁낙선
▁부르고
▁생각한다
▁미루
▁계기가
▁영혼을
▁편이고
▁직접적인
타리
▁전력을
보의
▁개발한
▁싶을
▁반응은
▁나오지만
▁증오
▁역임
▁하늘을
▁끝나는
▁아니라서
▁혈액형
▁연인
▁전날
▁일기
건설
▁데빌
▁플래시
박이
케이
igh
▁모드를
▁파츠
▁설명은
비용
▁보냈
▁에리
▁전락
▁선수들의
반도
▁중세
▁디자인이
들이나
600
ung
▁게이머
체스터
탐정
▁콘솔
▁자의
▁lv
very
▁경직
했으니
▁이어진
몬의
▁달리는
본부
▁딜링
▁봇
▁바른
▁배가
네는
선생
게이트
▁분당
▁커서
▁이번엔
어스
▁본명은
계는
▁리타이어
▁만들어낸
▁치즈
▁보이기도
▁명목
▁찍는
▁후의
▁들어와
▁선택한
▁항의
▁마감
라미
▁전적
▁버섯
▁나중에는
▁비유
▁헌법
▁부작
▁쓸만
▁있거나
▁DD
Lv
▁안심
아도
▁설명을
▁연봉
▁대량
베리
▁싸움이
카미
▁칼리
▁한창
▁옐
불가
▁위엄
▁형태를
▁Oh
적으로도
▁경북
▁사나
▁제네
께끼
양의
▁사망한다
▁상한
▁발키
▁결심
▁가벼운
▁기억이
▁즐겨
토스
▁초중반
하기를
▁충실
▁와카
문으로
입구
▁배출
▁정도를
▁신경을
▁불량
들에겐
▁사고가
▁style
기며
▁모듈
▁라틴
▁가능하지만
The
▁론
▁선고
▁진정
노와
▁상륙
▁KOF
▁단행본
너는
▁이대
▁강해
.22
▁OVA
시청
▁삼각
▁어렵지
▁흔한
스포츠
투표
▁가요
▁보구
▁히비
어지는
▁있기도
▁유물
월의
ero
▁at
▁휴식
▁유니크
▁에디
지사
▁상태에
▁상황이었다
협회
터로
▁중량
▁드루
▁지키고
▁사가
▁도시철도
편에서는
▁무지막
집에
▁un
운드를
▁거론
▁BB
▁시작된다
▁수염
격의
▁감싸
▁냈
▁UEFA
IR
▁품고
▁춤을
버스터미널
▁헷
러브
▁우에
▁꽉
▁긴장
▁엔드
▁웨스트
▁가졌다
▁담당하는
▁약점을
▁난이도를
▁도착한
▁세력을
▁신선
▁SF
▁무술
으라고
▁약화
▁악마의
▁width
ich
anc
▁주면
스토리
▁거기다가
▁관여
메라
▁없습니다
▁호시
▁쿨타임이
생명
보지
공으로
▁던지는
▁등번호
▁바르셀
▁이로써
▁밝은
▁편에서
▁Wi
▁올라왔다
▁어색
JP
▁메구
▁물에
다며
▁수직
▁편지를
▁갚
법으로
▁우측
였기에
▁찾아온
▁볼수
▁권력
느니
▁손이
▁걸그룹
리던
▁힐러
차원
파는
구청
천의
산에
▁쓰게
역과
▁좌절
▁188
저리
▁개를
후가
▁찍고
▁무지막지
▁동일하게
▁상태의
rd
▁가능성을
들에게도
▁킬러
▁모르게
▁믿을
▁정신이
▁하나다
▁길고
▁파밍
▁1983
▁천천
▁스텝
▁쓰인
▁하쿠
▁무효화
보우
ven
▁가질
▁거인
▁쫓겨
▁짙
bl
목이
▁워싱턴
▁이번에도
운의
▁가능하고
거지
▁Day
▁건국
프에
▁조회
미로
회전
▁비틀
▁폐기
두면
▁제노
▁1%
▁틈을
▁사회적
▁뽀
오버
argin
▁있기는
▁세팅
▁썬더
능한
일지도
▁마카
!?
▁매출
▁시즌에
▁일어날
▁낙하
▁미키
백과
▁시키는
▁배터리
▁are
▁기사단
▁움직임을
▁짐승
심의
▁후반부에
▁인용
산으로
▁아동
▁끝이
▁상태이다
▁아니더라도
오지
▁할인
▁어지간한
▁정기
▁설명이
▁아레나
킹을
쪽에서
▁실전
블리
▁본격적인
재판
▁키라
▁멤버들
미사
▁말라
니코
▁원소
▁보내고
▁미묘
정하고
▁정도면
▁우르
▁인스타그램
퍼가
▁분열
▁빌런
▁심사
orn
▁80%
▁전남
▁Ad
▁노선을
▁통치
속의
IX
감과
호로
▁83
▁샬
▁트릭
▁기도
▁어나
▁대사는
▁창설
▁캐릭터들이
▁맞춘
어버린다
▁시리즈가
관과
▁어울리는
클래
▁호불호가
▁계열의
로소
▁십자
화점
▁살아있는
▁안의
▁대전차
▁캐릭
▁프로듀스
▁Station
▁Windows
주면서
▁공격해
내에
▁평점
▁시작할
▁크레이
.28
마귀
▁통칭
▁피의
시간에
▁사로
▁축복
디스
▁다운로드
▁긁
지다
▁히메
▁모두를
41
▁불행
▁크레딧
▁DP
턴에
▁테니
게이머
▁카스
▁먹는다
▁엔진을
미노
가면서
▁없다며
▁코멘트
▁실질적으로
▁의해서
플러
▁한가
ep
감은
신도
▁낚시
▁175
상으로는
▁국가대표팀
SS
CC
▁끝나면
▁베타
놓는
▁디펜
▁사랑의
론가
인칭
▁하라
▁살아남은
▁수수께끼
▁많을
▁상식
▁심해
▁양손
무의
▁손꼽
▁행위를
▁8,
▁can
▁의식을
▁플레이어에게
바퀴
▁후원
.1%
▁대마
초의
▁하에
▁불태
천만
▁도망치
▁않는다면
▁잉여
▁메카닉
▁별도로
각성
▁스쿨
▁줄거리
▁조언
ise
▁물이
▁여부
▁해명
▁편하다
초로
▁아들을
.26
▁주니어
▁해머
쉽게
▁단종
▁소음
강의
▁호남
▁할로
▁것과는
▁클라우
▁남는
현을
작은
파워
기준
▁즐기는
▁Up
▁우익
▁밤에
▁all
▁잡아먹
▁어드벤처
▁똑같다
▁분기
노스케
▁변태
여행
▁정체가
께서
▁시대에
▁섀도우
뮤직
▁그대
▁모자라
▁일자
▁불쌍
▁우위를
▁최대의
▁젖
▁끼고
ical
▁실수를
▁어마어마한
▁철수
oh
▁방향을
▁지도자
▁엘리자베
▁이병
▁한일
▁->
이라기
▁순으로
외의
▁여자가
▁특이하게도
▁미노
내서
▁항목을
▁900
▁차지하는
▁아니야
▁로버트
▁위주의
바시
리아를
▁파고
가요
했듯
▁서포트
▁봤을
▁천연
티가
▁엑시즈
졌으나
사에게
▁안타까
▁하반
▁스피릿
▁최적
▁있음
▁것이기
▁베테랑
▁순수한
▁겹쳐
▁덱에서
▁소용
턴간
금은
공업
▁후회
라이즈
시기
체와
▁기술은
▁베이징
나베
▁등극
왕은
▁수습
▁디시
▁구독
▁선사
▁감정이
▁것입니다
▁극장
▁오면
▁관측
페르
▁리드
▁Ph
▁유적
▁싸움에서
▁끊임없이
으면서도
▁맞붙
드컵
▁오기
▁연쇄
▁동반
▁레벨을
▁플라이
▁구역
▁no
▁나빠
▁상성
▁누군가가
▁프로그램을
▁스타리그
▁일본에서는
바르
▁거북
▁병기
▁편이며
품으로
으려는
▁간지
▁고쳐
▁대접
뉴얼
군에게
▁바꾸는
추가
▁차이로
▁여의
▁발로
▁기록은
▁아까
▁최근에
▁블리자
있지만
▁차량이
▁큐브
▁안경
▁도깨
▁일행은
▁짐작
타마
▁사이에서는
▁소송
/8
▁끔살
▁독재
▁계획이
▁천천히
▁시체를
▁물질
▁쳐들어
▁원자
▁쓸모
▁폭행
▁됩니다
▁페미니
▁릭
▁공무원
희는
▁병과
▁획득할
▁기갑
▁속하는
차에
▁BE
▁코노
통합
매가
▁예시
▁프리미어
위인
▁드릴
▁일시적으로
부키
▁수색
▁팔아
▁지고
▁가난
math
▁돌아왔다
▁퍼져
▁출신으로
들고
▁전투력
▁결정적으로
▁깔아
▁트리거
아트
▁있었기에
72
▁학교에서
위와
▁GO
▁엇
▁스트레
강을
▁주제가
▁아베
권과
▁간에
▁핑크
▁레이스
▁동경
층이
▁잠실
▁ML
▁라이온즈
평을
▁정치인
▁기생
당하게
▁답답
내어
▁리스트
▁윈도우
▁오우
▁모은
▁시종
자나
▁정반
▁선출
VER
▁여타
▁태클
+0
▁초콜릿
▁호의
너를
▁성격은
▁김해
▁3~4
▁얼굴에
▁이순
▁주최
▁받았고
▁사이클
▁쌀
프리카
▁내리는
▁부분이다
▁만드
▁동급
▁억제
터와
▁차고
▁유용한
▁포인트를
▁패배를
▁김용
▁글이
▁사천
▁생방송
▁정규시즌
▁뜬다
▁멍청
▁바이올
레를
▁드문
▁어그로를
49
▁신데렐라
교가
▁헤르
▁막대한
▁엄연히
보며
지수
▁특성이
미한
▁경상북도
▁보건
박한
▁죽으면
곡은
▁할때
▁마음대로
길이
▁박성
▁대해서도
▁디바
▁구름
네시아
▁트위치
▁무역
▁여전
▁닛
▁싼
혹한
▁추방
걸이
▁스쿼
▁웃는
▁유성
▁적고
▁수요가
▁스티븐
▁모델이
▁하시
▁드러난다
▁헷갈
▁국회
차게
치아
마로
자책
▁차량을
앨범
▁빠르다
▁go
▁선임
문제
▁이전부터
▁al
▁60%
▁원작에서는
▁케빈
화에선
▁이대로
▁충분한
▁마음의
반을
쉬를
▁무난하게
▁방어력을
대화
▁취득
작전
▁엘레
하하
어버리고
▁보상으로
소드
▁주장이
릴라
▁국정
▁에이지
토니
중의
▁선수로
▁있을까
▁괴수
▁때와
있다는
▁않으므로
천사
▁뉘
▁움직임
▁그거
▁와이번
▁슬로
ign
▁잡으면
▁자존
▁일본에
항목
▁부숴
▁인지도가
방울
▁진에
▁추천한다
▁유료
하루
▁싸우게
▁프랑스의
줄이
▁정해진
▁피부
▁풍부
시스템
▁분해
히메
속으로
▁끝났다
▁기둥
▁요리를
700
▁일부는
▁언데드
▁의미는
▁일어판
▁적으로
▁잊지
▁후방
▁파란색
ence
▁비가
▁기묘한
▁로이
▁모집
▁날뛰
검사
▁비율이
▁동해
▁촌
▁오죽
▁왕조
▁초당
이후
▁오다
보인다
테니
▁듣기
▁미나미
▁경호
▁채보
▁love
안은
▁크라이
▁공수
▁가져다
.4%
장애
▁알레
아라
▁이때는
▁기본으로
▁담은
▁훔쳐
무는
장치
▁do
▁초등
▁데이터를
▁차지하고
있어서
▁적당한
▁공격속도
▁울트라맨
▁kg
▁뮌
▁신사
야와
▁납득
▁자금
▁일본은
▁인가
스틱
▁스트리머
▁브랜
▁사사
▁시마
▁이럴
커는
▁보이스
▁유비
▁가진다
▁하루카
ye
리드
▁케이블
▁독점
▁않았으나
복지
▁든다
어에
브레이
▁부산광역시
▁강경
▁퇴각
▁개성
▁바뀌는
▁뻥
과대학
+2
▁찾아볼
▁하수인
서와
▁이현
만화
▁셔틀
주의자
="
▁뜻한다
▁일단은
ans
삼진
▁신형
▁김승
▁백인
▁되려
▁신부
▁손쉽게
▁미정
▁거라는
▁특훈
▁하프
▁왜냐하면
내에서
까봐
▁%
▁중장
▁하급
면의
▁경우를
▁멤버들의
▁쵸
▁수의
했어요
▁부부
▁서번트
.2%
▁대동
네마
대체
▁부동
▁역습
▁주된
▁열고
▁총합
▁웃음
▁규모가
석으로
▁평일
▁시점에서는
▁93
▁가량
터스
▁서식
▁변해
▁스즈키
▁1.3
▁출시되었다
▁움직일
액션
▁선수의
▁앰
▁김유
ier
▁아닐까
▁연대
▁턴에
▁꼬마
딜을
들끼리
▁합병
조합
▁So
▁페스티벌
▁구별
▁밀리는
▁sp
▁듣게
▁감수
▁햇
▁편으로
거라고
▁Ver
▁개념이
▁소문
▁115
정당
▁올라갈
바야시
▁미션을
▁딸을
▁반동
▁매드
▁출간
▁에피소드에서
▁건네
▁영웅이
▁지점
▁특급
▁특화
▁애칭
▁열혈
소와
▁키요
▁전투의
▁롤드컵
▁응용
▁편인데
▁아처
▁스매
기면
▁소라
▁법칙
▁인식이
▁사서
▁하스
▁없었지만
▁아니었
▁멋대로
▁뭐가
정책
▁쳤
▁도와주
▁중거리
▁편하게
▁북한의
▁특전
▁풋
▁모드로
태를
▁뿌리
▁입대
▁펀치
버리면
레의
▁말하자
▁측정
네를
▁레일
▁후임
▁모습과
장도
▁기적
▁생김
▁생각은
슬라
▁골라
▁이겼
▁않을까
아나
urn
▁하마
▁회색
습니까
oun
▁신발
비행
▁마치고
▁업체
▁드래곤볼
▁어설
▁1981
▁이곳에
▁개교
달라
▁아스날
▁탭
▁무서워
▁EN
,5
▁너머
▁발행
▁잦은
▁하려
▁학부
카페
골드
▁성적은
▁작년
▁굉장한
▁실제로도
▁스핀
▁돌아다
aster
▁신용
▁최저
비치
▁철저히
▁강도
▁안타깝
▁나갔
▁지향
모습
▁주류
▁쓰던
리에이션
▁+4
▁MG
▁청주
▁공격력의
▁출혈
▁한번도
▁찾고
▁히틀
▁야마토
▁인벤
IL
줄을
▁에어로
▁붐
폰을
▁세라
▁분노를
▁권유
▁명문
▁시작하면
▁오메가
▁묘하게
▁상징하는
▁버틸
▁사용해서
▁알았
퍼를
롭다
풍을
▁북쪽
가에서
▁승부를
▁하단
▁옵션이
▁트라
팀을
▁노무
시간을
▁감독을
▁팁
대문
절을
▁배제
▁유입
▁여성의
▁ON
▁Cr
▁버전으로
▁캐치
91
▁흙
자이다
▁예쁘
▁머리카락
▁잊혀
▁우울
▁연출이
▁이해가
ail
▁JTBC
▁고무
.27
▁합동
▁시위
▁평상
▁내용의
보호
▁라며
▁맥스
▁승리로
▁나이는
훈의
▁뽑을
▁사건은
▁쫒
하다면
▁사법
▁한계가
거다
▁쫄
▁태어났다
▁출범
▁상하
▁일대
▁승자
-09
▁프라임
▁360
▁확정되었다
▁이집트
MAX
▁마을을
▁닌텐도
▁싸운
녀가
▁깎아
▁인격
▁재미있는
츠는
▁토리
▁주며
▁흑인
▁그중
▁사로잡
▁사람으로
▁적게
▁클린
▁감상
▁Sk
▁쇼핑
▁신속
▁데이트
▁카리스
▁벌인
▁동행
▁텐데
▁강림
랍니다
▁자전거
▁떨어지고
▁매주
eah
▁끔찍한
철이
▁토트
▁말이야
▁절친
▁EXP
▁어머니의
법인
지대
▁시뮬
▁형태가
▁모델은
▁로맨
▁인접
▁선회
▁극도로
냐면
인드
▁7.
▁연구를
▁노바
▁숫자가
츠카
▁네임드
▁무대를
▁조합을
▁황제의
▁프로게이머
루미
▁에로
▁개척
▁죄책
▁전망
▁추측이
▁사고로
부인
▁주문을
▁정상적으로
▁공중에서
장난
카르
.13
▁남쪽
62
▁왕복
▁이상하게
초가
▁변화를
▁분쟁
▁대통령의
▁이기고
로마
.6%
▁12.
▁검술
▁Con
▁태평양
▁이해할
▁따르는
매니아
▁모습이다
▁멤버가
▁아버지와
▁Super
▁여성이
▁터트
▁여러분
▁토요일
▁이오
열차
.8%
▁버서
▁돌아간다
▁통째로
풍의
▁공격력은
▁식사
▁고통을
린다는
전공
int
▁자국
했음에도
▁영주
▁조기
▁프린세스
▁복무
▁과거를
▁버텨
사리
▁여섯
▁아스트
▁이그
킵니다
▁이노
▁배운
uck
▁강간
▁반전
▁놀라운
▁블로
▁벌어지는
슨은
▁침투
▁패턴은
iver
세와
AB
▁수동
▁실패한
▁진주
▁얘기가
▁ERA
해온
▁만능
고기
▁주위
▁의문을
▁부유
▁타이밍에
가루
틀랜드
▁아무튼
▁그러면서
▁전파
▁엘리베이터
필살
▁굴러
▁샐
▁이벤트로
교사
학의
▁전쟁의
▁밝혔
버려서
▁밝혀진다
.29
네이
▁피로
기병
▁지연
▁정부는
펙트
▁보라색
▁주자
▁깨닫고
모함
▁하였고
즈에
▁플러
▁봉쇄
▁갖게
▁as
▁나간다
▁뮌헨
▁바뀌어
▁맞춰서
▁편은
ari
ode
▁에디션
▁먹었다
▁챌린지
▁모델로
▁사무라이
피안타
기자
▁적시
하겠지만
▁은폐
▁친애
MB
▁퀵
▁1979
▁난사
▁고증
트랙
▁흰색
▁홋
▁슬픔
족으로
▁신나게
oug
▁트래
▁닉네임
▁그레이트
▁표현을
▁바이러
▁단어를
▁제작사
▁사항은
▁팰
▁기술의
!!"
▁무난한
초를
.7%
▁해치
면으로
했을때
▁말과
▁새누리당
▁개인의
▁않았기
▁스타디움
▁지나가는
곡의
▁존재로
▁Dream
▁제공하는
버렸고
아머
▁서비스를
▁즐거
▁장관
식과
▁나라를
관계를
▁프로레
▁고난
ose
▁1950
▁제목은
▁목적을
▁가성
▁사와
▁도시를
▁돌고
▁분산
74
▁어그로
▁떨어졌다
▁이름도
▁점과
▁리오
▁호수
▁경주
▁수단
▁사퇴
▁데모
▁않으나
▁보스가
▁함락
구장
▁스컬
▁대가로
▁다이스
▁루이스
▁무쌍
▁잡몹
▁후일
▁사단
▁유용하다
▁흐름
▁바나
▁리틀
▁적절히
딜이
▁미궁
해볼
▁원조
▁안습한
▁저글
▁일요일
▁쪽에서
▁가공
▁되니
▁11.
▁몰살
▁프론
▁선거에서
▁피카
▁위안
▁드러났다
MC
오면
▁GK
▁면모를
▁계정
▁레인저
오기
도도
▁네크로
▁코스프레
▁이룬
▁91
▁올바
▁극단적인
▁라스트
▁백업
▁부근
▁체결
▁차량은
▁개업일
▁않습니다
▁성과
▁어나더
공개
오피스
배의
음으로
69
▁최악
▁구간은
▁싸우고
팀은
하늘
▁원숭
▁브라이언
들까지
생활을
▁이브
자라고
▁착한
▁않으니
맨을
▁시작해서
온을
▁ex
▁대면
▁이쯤
속에서
▁비용이
담이
.....
▁올해의
▁this
▁변한
▁좌측
레일
▁노래가
▁할로윈
▁제안을
▁나누어
▁질문을
조각
▁여우
주의를
▁이후로도
자이
▁속한
▁방법도
▁장성
▁있겠
▁음모
▁스노우
행정
▁마오
▁노스
▁없었다고
학적
▁LO
▁꼬리
모스
▁표절
▁시작되었다
▁깨끗
▁만나고
▁주목을
▁나왔을
▁유산
▁운명
▁전체에
▁프로리그
▁사람과
▁어려울
▁언급된다
▁이외에
▁잘하는
▁복원
▁높아서
▁체제
▁슌
▁다이어
▁스텟
하르
▁TR
▁사용가능
활동
▁싱가
▁파편
▁같다는
경기를
▁108
▁것인가
▁떠난다
▁잃어버린
▁영어로
▁메이저리그
▁무거운
▁동점
▁불타는
▁점유
▁스티브
▁To
▁아이들을
▁확산
▁있다며
타인
▁불참
파괴
▁아니게
▁이른바
▁것들이
▁용암
▁시크릿
▁동쪽
▁빙의
▁벌이는
▁샷건
오자
▁논의
▁죽이려
▁이곳에서
▁소장
▁헬멧
▁닮았다
▁코미디
▁츄
▁피지컬
▁축소
퍼의
▁일부가
▁굽
▁부위
나도
▁조별리그
▁어려움
이다보니
▁김포
▁활동하고
이한
▁가능할
▁얇
▁아들인
▁않았으며
▁속성이
▁초인
올림픽
▁마피아
▁포함해
▁긍정적인
▁보스를
▁일반인
▁돌아갈
▁싶다는
▁끼워
▁곳곳에
▁평양
▁일하는
▁닦
▁문이
▁노조
▁멘붕
▁시게
내려
티의
▁때문이었다
▁조차
▁등도
주인공
▁퍼스트
ats
▁압권
▁진행된다
▁디즈니
DX
.9%
▁존재하며
▁문제에
▁놀랍
▁필리핀
▁냈다
▁하므로
미에게
▁까는
▁테츠
▁조언을
▁표지
▁고등학생
▁고소
▁뽑는
버의
▁던진
▁세계로
▁붙인
▁힘입
하듯
▁지리
금으로
▁하우스
▁마유
▁내에서는
▁동아리
▁비스
련의
포는
▁매그
▁들지
▁아직까지
▁분노한
▁타이거즈
ey
▁옴
주교
▁보드
리스를
졌기
수리
번째로
▁문제의
주세요
▁뿌려
처를
▁이기는
▁고속도로
▁떨어질
▁자칭
▁첫째
▁350
▁여러번
63
▁가능하게
▁누구나
히기
▁발표했다
▁흡혈귀
▁EZ
▁포탈
▁뜻이
▁경험을
▁에피소드가
ube
▁ld
▁토니
▁뜻으로
리아는
▁제작된
▁타이탄
▁묘사된다
▁특징이
당초
▁라스
▁이경
▁없어도
▁하나하나
▁궁극기
▁억울
ition
▁힘의
▁들어가지
▁애쉬
글을
▁유메
▁써도
▁자원을
▁드워
▁극중
▁상태다
▁RA
▁다큐
령으로
CD
▁디자인을
▁미쳐
usic
▁이어져
패스
msys
▁아이디
▁불리한
▁from
▁갇혀
▁좌석
▁할지
▁일관
▁방을
▁복합
▁둘러싸
▁고려하면
례로
▁생체
▁ldmsys
▁박물
▁정원
▁게임으로
▁카네
▁담아
▁인공지능
▁됨
▁않나
▁없지
뿐이다
▁진행된
▁치고는
▁단위로
▁의지를
해야한다
상승
▁변호사
▁Qu
상가
▁10,
▁실사
감으로
▁작품이다
▁입문
▁까다로운
▁영향이
▁필드에
채로
▁하였으나
▁믹스
▁혀
▁원수
로이
▁다시금
▁진지하게
▁하필이면
노동
▁ATK
▁뜨는
▁단발
▁달하는
없어
-08
▁기숙사
몬이
▁즐길
orts
▁패배한
▁판정을
▁랄
▁씨앗
▁김지
▁전격
▁디자이
▁지원하는
▁능력도
▁시골
용은
▁멤버로
▁내용이다
▁데이비드
히토
▁저렇게
▁칼로
▁간단하게
에게만
리우스
▁나뉜
▁때에도
▁이어진다
▁도서
▁여기저기
▁피규
▁엄밀히
▁떴
▁대변
▁김수
우치
쿠가
▁카테
▁9,
▁활동하는
▁DS
▁클론
▁병력이
▁게이지가
▁힙합
모는
▁약을
▁않았는데
▁기름
▁높을
▁오렌
질적인
▁뿐더러
▁@
률을
▁185
▁생김새
▁측은
해야만
▁점수가
영과
▁그러므로
▁이렇다
포인
▁원시
▁승차
▁신지
EL
▁조금이라도
▁보좌
▁중고
시키지
▁나타내는
▁NO
리스타
▁말씀
▁이놈
▁방송에
▁샀
▁성격으로
▁룩
▁소중
▁매장
▁NBA
▁Vol
▁이태
▁충족
▁마을에
▁결국은
▁오니
▁주인공과
▁츤
▁적들이
▁주축
▁진행되는
▁돌아왔
▁미소
▁섬의
예요
진화
▁로고
리스는
000000
아닌
▁죄를
71
▁pl
▁사실에
등장인물
▁실현
▁지역이
엘의
▁때만
▁USB
▁대표하는
재의
▁루비
▁시작해
▁아나운서
▁시에는
margin
▁애완
▁감탄
▁탓인지
▁설이
▁그릇
▁마물
▁탐정
▁마스
▁했기
▁입지
▁선보였다
▁흥미
▁인물은
▁진급
▁표정
▁봐서
▁에메
▁네트워크
랄한
▁형편
▁격려
▁128
▁시바
▁III
▁경상남도
▁이케
▁220
▁Season
▁땡
▁무자
▁말해서
혼의
▁추측된다
▁어째서인지
대고
▁엉덩
▁실력은
▁인민
▁Pre
▁샤를
▁집권
자동
▁부천
▁Sch
▁좀더
-13
▁예산
공화국
▁이마
▁발견한
▁벨기에
▁시간대
▁기껏
▁타이틀을
▁BJ
두로
61
:45
▁회사의
▁키를
▁일종
▁서쪽
▁마을의
43
▁우루
개나
▁2:0
▁분홍
▁중견
보컬
▁카게
▁저주를
▁그렇기에
▁알려졌다
천년
▁쿼
▁실패했다
나에게
▁본작의
▁깨어나
▁뜨거운
▁행동이
▁탕
▁바텀
▁것이나
▁반면에
▁70%
▁비난을
▁스트라이커
▁입힌다
▁김주
▁탐색
▁바람의
▁부르기도
▁시즌이
▁IT
미래
▁덱을
▁입증
개는
대교
독한
▁곁에
▁웰
드라마
▁엔딩을
▁한국시리즈
▁논리
able
▁성과를
▁섞여
▁미성
▁바라는
누스
▁터널
▁트윗
▁아포
▁뽑기
▁유저들
▁발음이
했어
해하는
▁쿠데
▁바둑
▁색이
▁주행
▁일어났다
▁핏
▁박진
▁깐
▁베를
▁유기
▁무엇보다도
▁무작위
▁그후
▁비전
▁넘쳐
▁뱃
리츠
▁브래
무쌍
청을
▁}}}
▁건물이
▁여객
▁내부에
▁아이들이
▁밑에서
▁아가씨
이크를
점의
▁평행
▁교류
▁배경이
▁역사가
▁퍽
소리가
차전에서
▁단기
조선
라라
▁없기에
▁피해량이
▁경기에서는
▁주술
하르트
결승
▁발견하고
▁카지
▁인해서
▁자체에
도전
▁깔끔하게
병과
▁벌써
▁사촌
▁교토
▁카카오
▁강민
▁빠지는
▁이별
▁역의
▁우스
▁밖에서
▁안정적으로
▁내에서도
▁심각하게
크라이나
ear
▁통솔
▁위해선
▁초상
▁시리아
그를
▁과장
▁오스만
▁문장
▁불멸
▁침착
▁대결을
▁만렙
▁우치
▁수상한
막이
▁피스
▁상태이
▁번의
▁세월호
방법
▁양이
▁Ed
▁학교를
▁씬
▁학생들은
었다가
▁발사한다
버드
▁Night
▁이름에
본을
▁알지
▁자제
체제
▁오고
▁이윤
▁다가가
▁최상위
▁날린다
서스
▁믿는
▁저작권
야한다
▁손해
▁주관
▁학습
▁상대로는
▁240
▁씻
▁날카로운
:15
사나
학년도
▁받기도
▁보스턴
▁남동생
▁하루에
타에
net
▁신동
채널
▁대가
▁이가
▁육체
▁박스오피스
파와
월까지
▁마틴
▁관계는
▁작품에
블을
▁리볼
▁이쪽도
포드
app
하고도
루션
▁가져온
▁차원에서
▁걸즈
▁이원
그레
▁제라
▁한꺼
▁초기에
산역
때마다
▁대기시간
▁모르지만
iel
▁조치
▁업적
▁IM
▁약속을
▁수장
▁후보가
밀한
당과
.3%
▁일본이
▁Ap
몬스터
▁딘
▁아자
▁조합이
도라
▁NH
▁탄핵
▁껍
▁괜찮아
▁랜덤으로
건담
스틴
▁교육을
▁타이밍을
▁분신
▁애용
▁스스로를
▁워리어
▁문제다
▁되돌아
▁종결
▁고개를
▁위와
카나
▁아시
▁일행과
▁섞어
vel
▁바꿨
▁판결
ib
▁그렇기
인방
▁영화가
▁올라간
▁알려지지
▁수석
▁경력이
▁AA
▁Girl
창이
▁대시
▁열매
히며
▁8.
▁살인사건
▁묻는
▁수급
치고는
▁대미
리포
▁개수
▁주인공에게
▁Fr
▁승무원
질은
▁우린
▁소재지
▁여태
자유
▁상냥
▁아르바
▁모스크
▁왼손
▁방사능
거래
하여야
▁앓
하였지만
이었기에
▁라인을
▁가루
▁검은색
▁대다수의
▁원작과
▁초기화
런스
▁넉백
풍이
등으로
▁의미하는
▁결혼을
ull
병은
▁다닐
▁민폐
▁주택
▁땅볼
사격
킬을
엘이
값을
▁육상
▁한꺼번에
▁CM
▁공격의
▁일곱
▁담배
에른
노선
▁전향
▁존중
▁생각하지
▁OG
카드를
▁페어
▁솟
이나마
▁간섭
▁비행기
▁피하기
▁띠
▁쓰러진
▁단검
▁좋다는
▁살던
▁뻔한
▁폴아웃
▁해당한다
▁TS
▁연맹
▁요한
▁강릉
▁해산
▁조건으로
▁플랜
▁상무
▁선수들을
▁남매
▁보낼
▁짧게
▁올라와
▁망설
▁않는데
▁일본인
▁아르헨티나
▁빙결
▁공인
▁시합
▁충격적인
▁인상을
".
료가
▁우두
▁시외
메이트
민과
▁구동
▁상하이
▁고르
보라
ron
ult
▁아수
73
▁유니콘
▁일으키는
변을
되지는
▁La
▁선발로
리즘
치킨
쪽이
▁전반적인
93
겁게
▁탈취
▁보험
▁2%
▁이틀
▁지혜
▁헥
▁감독으로
▁웬만
▁아군을
돌아
▁높여
▁장례
▁비교해
▁장착한
▁고지
▁교차
▁모르겠지만
▁미래의
▁판매량
GA
▁고로
▁친척
ject
▁OS
▁허리
▁등장하고
빨리
▁일족
▁인피니티
▁요소를
불명
▁마땅
▁말레이
▁>
▁앗
▁토트넘
▁#!
▁광명
▁광산
▁능가
▁우크라이나
분은
지므로
▁검열
▁이쿠
▁최종적으로
▁모종의
▁심의
▁국내에서
▁보여주지
쾌한
▁내부의
시아의
▁오를
▁영상에서
▁붙는
▁인사를
▁극한
사냥
동에서
▁마드리드
▁유틸
▁갖춰
들에서
▁순서대로
시킵니다
님은
병에
▁사업을
▁프롤
▁통하지
▁로보
▁발각
▁도트
thing
환으로
▁등재
적이며
태가
▁화산
플라
▁시작하고
/11
▁아냐
▁약혼
▁때를
▁어머니는
페라
▁드물게
▁감이
▁흡사
▁달라진다
▁전송
딩을
▁특화된
co
선수권
코에게
▁거두었다
▁프랜
키스탄
▁번째로
▁남게
▁안겨
OO
▁츠키
▁싸운다
었어
실과
▁대상의
▁전쟁에서
뉴스
▁태워
▁not
가기
▁싸웠
▁묶어
▁쏘아
▁방식의
▁AV
▁얼어
무스
▁타치
▁보여줄
▁스탠드
▁몸으로
▁높지
▁입구
▁대법
▁모순
▁녹아
▁장미
▁드립을
▁딸이
▁힘입어
▁스탈
CS
▁슈트
▁영문명
▁벡
▁앞선
작인
▁보상을
▁틀린
▁연예인
▁그곳에서
테크
▁전성기
▁신중
▁종점행
▁뒤의
▁사이로
▁따라서는
▁소환할
▁유미
▁무언가를
▁젬
총을
▁압축
▁프로토스
국과
▁중력
▁남아있다
▁외곽
▁개장
▁아슬
심은
▁랑
리니
▁김광
년은
▁취업
▁늘어난다
저는
▁시상식
▁재건
▁마우스
색은
▁정권
▁측의
CH
니카
으신
플러스
▁받았다고
▁스카웃
▁미만
▁침몰
▁통계
▁별명을
▁플레이할
▁지역으로
▁부패
있다고
▁2017-12
▁오이
▁단독으로
▁Op
▁없었기
그가
▁사투
파티
▁경연
▁않다고
▁달의
▁주인이
▁해양
to
▁경찰이
▁재앙
시에서
▁신세
▁불어
▁여기에서
▁상주
▁배울
▁모나
▁그리핀
분간
ild
▁상담
▁포함된
▁실패하고
린과
▁선수들
▁엔터테인먼트
▁얹
▁등장해
-01
▁불타
▁캐시
만큼의
▁배차간격
근이
▁감동
사우루스
▁이전까지
▁권력을
▁펭
▁명칭이
▁무언가
▁휩쓸
▁눈앞
노미야
▁거짓말을
▁본능
▁기점행
▁활용할
▁가담
망의
▁묻는다
inal
▁Gre
▁트레이너
▁미국이
▁-4
▁강호
▁순간에
▁평소에는
이치로
마도
두를
▁게임이다
어택
삼거리
▁유튜버
▁갖다
연승
▁못지
▁보스로
▁시리즈는
▁가능하다는
받게
▁놓여
▁Col
▁후미
▁점멸
열의
다보면
▁능력치는
▁지속적인
두의
▁마력을
▁유닛은
츠와
레오
▁우정
▁직전까지
▁정도만
▁장남
▁지지를
▁LE
▁자유한국당
▁준수
▁밀어붙
만도
▁아픈
▁비롯해
▁Mi
저래
▁낮고
▁버릴
▁되어야
니즘
철의
▁공포의
▁라이언
모노
▁아마존
▁브론
▁캄
▁리그에서
▁구울
▁악명
▁속성을
▁사라지는
▁EXT
슬롯
▁강아
대신
▁찍을
▁남자의
▁그렇다면
▁게시판
분한
심에
▁AFC
마나
▁키우
▁맨체스터
▁나왔고
▁소유자
▁바이에른
▁황제가
차의
▁0.4
▁않았다면
▁사람이다
▁추가된다
▁불만이
▁카운트
▁울프
▁이야기도
▁남학생
페이즈
▁단어가
▁몰고
▁위성
▁피어
▁화재
음은
sc
코스
▁마산
▁저렴한
▁캐릭터들의
▁Mag
리타
무로
▁찔러
니아의
▁1978
▁부탁을
운이
▁중지
▁보냈다
▁성향을
▁한국은
▁현재도
▁미소녀
▁있음에도
▁인챈
▁리처
▁운송
▁엽
▁안개
적이지
▁디버프
▁트리비아
결과
▁카가
▁터지는
-07
▁장본
▁목적은
▁전략을
▁지구의
때도
me
▁이빨
형인
▁저하
▁쿨다운
▁호러
▁한국판
▁갯
연맹
▁할아버지
▁눈동
▁쓰리
▁식민지
▁이천
민족
▁GSL
▁시작부터
▁대상에게
▁본토
으려면
▁툭
▁레시피
키스
월호
▁아유
제작
▁등장은
해라
▁노말
▁숨을
▁구간을
▁일어난다
▁덕분
▁예고편
▁모아서
▁토키
▁향후
▁팡
레옹
▁밀고
▁안고
파일
운동장
우스가
▁레이싱
트론
▁자를
렸으나
▁목적이
▁4:
맥스
▁BGA
플로
▁90%
▁방식은
텍스
▁밀리언
▁영원한
XX
▁터진
▁실용
▁유언
디와
▁공부를
~7
.75
출을
▁전당
▁무엇을
▁산하
▁얼티밋
▁모두에게
되서
▁페어리
reak
▁닐
▁귀국
기다
성한
▁동계
▁철도역
▁본래는
▁국도
▁공이
▁.4
하더니
ME
3%
동시
▁변한다
량과
▁그란
하기까지
▁헨리
▁모험가
출연
yn
▁z
~1
▁고맙
▁갔다가
▁둘이서
▁전과
▁이글스
▁규격
▁얄
공에
현과
▁대해선
▁사망했다
▁목표를
▁위상
공주
▁우회
▁피닉스
▁토크
▁지구를
쿠의
▁PK
▁막강한
▁학생들의
▁복장
▁에일
해져서
▁어드밴
▁이름만
▁급격히
▁굶
▁드러난
▁소환한다
녀의
들한테
▁통틀어
▁배역
▁비공식
▁주장했다
해버렸다
▁업그레이드를
▁썸
▁입는다
▁니가
▁슬퍼
▁모두의
들어가
▁에밀
▁없어진
▁3%
▁단위
▁이용객
▁철갑
oot
▁화살을
▁되었던
▁이진
▁올해
▁많다는
▁어렵게
리칸
▁레이블
▁참모
방식
환은
▁와타나베
▁고성능
▁생명의
▁용도
▁합리
할만한
모션
▁CL
▁센트
▁비스트
층을
탄은
▁웨이브
▁영향력을
프레임
▁가이드
▁보자면
범이
▁영양
▁섬광
▁대부분이다
▁세레
▁전쟁에
맨은
▁210
▁학교의
▁AL
▁자책
▁무방하다
▁별개의
▁아비
▁버전의
구조
▁속해
▁이세계
그래도
거의
▁홍진
▁비판이
▁약하다
▁블럭
▁둘러보기
▁적힌
▁전담
▁면도
▁엠블
▁모양이
ings
▁1.4
▁팀에서
▁강하고
▁멤버들은
▁노선은
패턴
▁추세
▁피오
▁1200
▁산타
▁컨디션
▁노린
형과
▁상대하기
시내
▁평소에
왔다고
▁뿐이지
▁라이트닝
▁시의
▁공간을
▁1945
▁플라스
▁아랫
우에게
▁쓰기도
▁원래대로
▁미사일을
▁주저
편으로
▁두드러
▁공격적인
▁토시
▁전동차
▁팀으로
바는
▁너도
▁이래저래
▁악화
▁발견된
▁아키라
플라이
렸으며
▁모인
▁비서
▁소꿉
▁시범
▁탔
집에서
▁표정이
▁기부
▁0%
▁노력을
량에
▁모드가
05
▁믿지
▁샤오
▁반란을
cc
▁포장
음의
▁뚜렷
▁내렸다
피의
▁도우
▁오노
▁도덕
▁수호자
▁전작과
▁마친
▁정석
▁아래와
▁패자
▁티저
▁소원을
▁맡는
▁두는
▁특징을
▁아쉽게도
▁몸통
▁+20
▁제치고
▁기록하고
▁Black
▁냉장
▁미러
▁뚱
▁이동할
▁조사를
▁신경쓰지
▁장난감
▁표현이
▁인도네시아
▁도감
▁부실
급은
▁중소
▁차이나
제도
/7
▁여자를
▁상대하는
▁멈춰
▁감옥에
되었다가
▁어머니를
▁버스트
▁마족
▁신을
▁모션이
인민
다시피
▁부담이
▁상황에서도
코인
미디어
어버렸다
바다
볼넷
▁벗겨
▁이도
▁자료를
BL
▁전대
▁받아야
버스가
▁도시의
이에게
요한
▁면허
▁뛰어들
▁작품에서
▁짓는
▁점에
▁궤도
▁하긴
ECT
돼서
▁공격력과
등록
안전
▁세계대전
▁그도
▁독보
▁거점
▁했다가
▁나폴레옹
▁들어보면
▁보여주면서
▁여론이
▁후술할
▁이르는
애니
▁도대체
초부터
FL
애를
워하는
▁규모의
토에게
▁돌아올
▁간파
▁국경
▁컴뱃
▁오른손
하신
▁트랩
▁-10
▁will
▁인간과
▁테이블
▁창을
-02
▁총선
▁어벤져
훈은
▁상승한다
▁장타
▁밀레
▁복사
▁여기까지
▁츠쿠
구분
▁노인
▁친다
▁쓰이지
▁운동을
86
▁다리가
▁필요로
BT
▁룸
▁주의하자
무지
▁정답
▁좌익
▁캣
▁실내
▁파동
▁오죽하면
▁전력이
▁like
▁노란색
▁소규모
수에게
전선
▁얌
▁야구장
oul
▁CR
▁배리어
들여
▁공업
▁맵을
▁페르소나
▁뺨
▁막혀
▁진행할
▁본다면
▁이리저리
▁포착
▁약점이
▁발사하는
▁보너스를
IK
▁확인되었다
▁마찰
▁꿈꾸
▁음료
라운드에서
▁지루
▁돔
리시
▁노릇
▁단장
법의
▁계단
▁고대의
▁바랍니다
중이
▁그렇듯
링은
오게
▁녀석이
▁속도는
▁제발
▁메디
▁TOP
▁오르는
▁것이지
▁대피
▁세우
▁덧붙여
▁오퍼
▁문제도
▁껴
▁재능을
▁1.6
량도
▁Gl
▁MM
▁법무
▁순환
▁Gaming
파에
ody
ater
▁홋카이도
레븐
▁아쿠아
▁주무
▁와중에도
▁낯
터에
▁오게
▁따위
석과
▁철저하게
좋게
▁타카하시
카게
▁완공
▁대기업
그의
▁입에
▁목소리로
동맹
되어야
▁방영된
▁tv
▁교복
▁보이기
각의
▁권한
▁경기력을
▁고사
▁1.0
▁자아
▁말고도
▁천하
▁국어
▁발레
▁설정은
▁왓
▁벌어졌다
ott
▁카사
▁1.8
▁완벽히
▁않자
국인
▁팬이
▁가령
견을
▁사다
▁앞으로도
▁들어가게
84
▁첼시
▁tr
▁베어스
ster
었습니다
함의
▁나타났다
이다가
AND
▁다르지만
쓰고
▁스바
▁이듬
▁절벽
▁플레이버
▁남지
▁살게
▁드러내
▁싶어서
▁제왕
ould
르도
▁9.
▁마스코
▁폭로
▁이라크
▁믹
▁맞았다
▁환생
비한
▁1973
▁수준은
▁바론
리스크
▁레벨업
▁아마추어
▁있어서는
▁나뉜다
쓰는
▁김일
▁쳐서
▁모의
말이
회로
실점을
▁곤충
▁초능력
▁늪
▁ver
▁시대를
▁감추
▁so
ions
▁늘어났다
운수
▁원주민
▁보낸다
▁운영을
▁공감
▁사정이
▁김병
▁리자
▁이동하는
▁계략
▁영웅의
▁트랜스포
▁따르
▁행방
▁학생이
▁상대방을
▁착륙
▁겪은
...?
자료
▁능력과
▁iOS
▁하나에
절이
리코
▁읽고
▁트럼프
조한
▁사악한
▁하츠네
센스
▁Gu
▁대포
▁떡밥이
▁모빌
더는
립스
고교
▁공원
▁에미
▁유학
▁도망가
cl
▁못했지만
▁오류가
▁금강
▁루머
ws
▁추리
▁국가가
▁아사히
▁성공적으로
▁법을
보에
▁나기
▁안젤
▁유지하는
사이어
▁주변을
▁투기
▁헤드샷
▁Let
▁미국은
▁만나서
▁달콤
▁정황상
▁대쉬
▁힘은
▁공중에
mmer
견이
▁중화민
▁직선
계와
▁내며
▁능력치를
▁짝사랑
었기에
념을
▁불리며
▁혼혈
희를
▁즈음
▁다루고
▁사용되었다
▁로스트
의의
alk
▁시가
조와
▁로우
▁테크닉
▁선진
▁빌리
니혼
▁나눈
▁박아
▁쉽고
▁없었을
▁작가는
▁무료로
▁수비력
▁지켜보
전에서도
ICE
▁Do
간이
▁케리
▁밈
헤이
▁필요할
▁At
모어
▁김윤
▁특징은
▁덱에
오면서
▁포텐
▁짬
▁움직이지
▁암시
▁판다
시민
▁부자
▁2017-11
▁의사를
▁예약
드에게
형에
▁딜이
▁길다
만명
▁공헌
▁눈으로
▁운수사
서버
▁Min
▁베지
▁상위권
한정
▁트로피
▁해소
소모
혁이
▁드론
▁상대방이
▁FM
▁마지
▁저승
▁특이사항
▁덤벼
▁무제한
▁아이들
▁종류가
▁빨간색
▁버프가
▁이타
해선
▁비판하는
▁보편
▁방에서
볼트
▁원작에서
▁벤치
▁나비
▁장탄수
▁모음
가족
시스코
▁하나같이
▁토미
지옥
▁우유
▁인간은
▁재수
▁피니
할지
▁친애도
▁칭호
▁가히
▁전인
▁스테이
▁적용되는
▁모양으로
지던
▁소속으로
마력
▁그루
▁맡겨
▁지원한다
▁종영
▁기관단
▁정책을
▁서바이벌
▁두꺼
▁시공
▁주인공으로
행위
신에
▁통하여
관계가
▁방식이다
▁워커
▁실린
▁강렬한
▁경부
▁무대에
▁중동
▁노는
▁단점은
▁축구선수
▁출동
▁시험을
▁비밀을
▁큐어
ty
▁알려준다
▁답게
▁수감
▁다카
▁운수사명
▁쳐도
▁부대를
79
▁쳐다
UR
▁선택을
▁대책
▁발생했다
군주
활약
▁논쟁
▁가져가
▁콘스탄
YP
학부
▁듣지
▁캐릭터인
▁Co
▁고아
▁기간이
▁이루어졌다
따라
▁개가
▁사우스
고와
▁만주
▁항공기
▁섬멸
6%
▁얼마든지
▁국내에서는
즈카
▁예전에는
올라
▁병살
▁구조를
▁가면을
▁아이템은
▁예쁜
코치
▁엉뚱
▁이소
▁주황
차기
▁조커
▁후유
▁주입
ann
▁워프
련을
eng
▁아버지인
▁부분도
▁당연하지만
롭게도
▁원문
▁초청
▁돌아온다
▁이듬해
▁조종하는
타워
▁상술한
▁맞추는
▁있어요
▁치러
▁백작
▁누르고
▁올라오는
▁포지션을
레이트
▁극초
▁부스트
▁불과하다
▁연구소
▁토대로
▁눈의
▁레이븐
▁보러
▁초과
류는
▁아아
▁RE
▁마법으로
▁작중에서는
▁작아
▁위험이
▁앤드
▁터보
▁조명
▁희망을
▁디스플레이
편은
▁자율
▁최정
되었습니다
▁타운
82
▁겟
▁유저의
▁실려
▁바리에이션
▁힘에
▁러시아의
▁찬성
▁손상
▁상단
▁인류의
ㅋㅋ
▁트러
▁되어버린
▁두번
▁만들어졌다
▁반도
▁직행
▁가족을
▁따라잡
▁님
▁설치되어
▁플라즈마
프란
▁여유가
▁아담
▁해준
도서관
▁재미를
하니까
풀이
▁초에
▁카렌
▁클리셰
쳤고
환경
▁미코
▁아그
차지
▁너와
▁나뉘어
▁유망주
▁잡는다
뱅크
▁기술이다
▁선호하는
▁메이지
▁have
거가
▁먹지
▁만나면
▁그들
▁신한
▁작고
▁언급을
▁청춘
▁1974
▁대수
▁비비
▁바이러스
▁나왔지만
조작
학기
▁쪽을
▁사키
▁엉망
▁의도적으로
연패
▁운영하고
반에
▁수립
▁고립
▁레온
▁찾아서
▁걸리면
▁올린다
▁짠
▁과정이
▁현황
▁하늘의
▁포로
▁유우키
▁선수들은
그리고
▁그려진
▁이때부터
▁잡힌
▁NT
▁스태프
▁모터
▁발목을
ins
▁사이를
▁이름과
▁모른다는
때까지
택이
▁순간이동
증가
-06
게이지
▁조카
▁태도
▁인천광역시
~15
▁흉내
두가
층은
▁구형
▁콤보를
▁이벤트에서
agon
▁이명박
▁죽이지
구니
▁치료를
▁루크
~"
▁받았던
▁밤의
▁과언이
스나
즈로
▁꿰뚫
▁터라
▁많았던
▁IIDX
재는
엔터테인먼트
▁것들을
▁Play
▁[[]]
▁몰아넣
▁Time
▁김두
▁과격
▁공간이
▁서울대학교
순환
▁RO
▁비추
▁그리는
▁세컨
▁스카우트
리버
▁충청남도
▁고집
▁외계인
▁특정한
▁승진
건은
▁활약으로
티콘
▁중대
▁타입의
▁깃털
▁매각
꾸로
ator
▁평택
▁다시는
.21
에다가
저우
▁도쿠
▁신생
▁마일
있기
▁갈리는
회장
우스를
전도
▁철학
▁날아가는
▁올려주는
▁내지는
▁활동이
▁두뇌
▁맹독
▁바꾸고
불을
IGH
▁공대
▁3.0
▁남의
▁방송사
▁아니냐
▁잘생
▁공짜
▁155
▁가치를
▁뭐야
▁삭제되었다
▁당대
▁상당수
미즈
오르
▁백제
▁태국
▁버스를
▁소수의
▁특수능력
ange
▁경험치를
중국
▁스탭
▁넣는다
▁여자친구
대수
상자
-30
▁내뱉
시까지
바위
▁반쯤
▁입히는
▁초등학생
▁0.8
▁관계없이
▁가사를
▁상인
▁줄여서
나리
▁어렵고
▁이용하면
▁Type
▁도약
▁시사
▁요금
▁기록하였다
ict
▁탄압
▁1975
▁한나라당
▁꾀
▁달인
▁어서
▁창의
▁탱킹
년동안
▁ALL
▁돌리는
하자는
▁각자의
▁읍
▁방송이
▁리버스
와이
▁길에
▁말고는
▁하인
▁돼서
▁호랑이
▁know
▁강동
▁모르겠
권도
오르는
.50
▁효과도
▁군수
▁스윙
▁탐사
▁소프트웨어
자다
▁꺾고
▁Ser
▁시카고
▁키우는
▁질주
▁바르셀로나
▁박명
▁현실의
▁쓰이고
▁무시할
▁다행히도
▁바쿠
▁가리키는
▁들어가기
했으면
▁근처에서
UT
▁산다
▁유동
▁Is
층에서
▁발생할
▁먹여
▁공교
▁명은
▁병역
미르
기면서
▁다국어
▁약칭
후보
▁펴
▁마찬가지다
▁흐르는
▁병행
▁소니
▁넘어갈
▁하도
DP
▁래퍼
▁성배
액을
▁알기
▁깊이
▁김선
▁조상
▁요격
▁못하며
즈에서
▁화해
▁요즘은
89
▁멀어
▁연락을
이사
▁있는게
▁월간
셨다
St
800
▁만루
요리
▁관리를
▁출산
▁스코틀랜드
▁팬들도
-05
▁벗어난
▁탁월
포와
▁그나마도
▁태어났
▁감각
▁목이
▁차체
▁스위스
▁해줄
▁지진
▁대부분을
▁112
▁화폐
▁나서는
▁조던
▁대학생
▁징역
~30
▁한국과
▁인정하고
산동
▁갈색
▁등장하여
천을
▁대구광역시
클릭
▁2017-10
▁민병
▁이외에는
▁최연
▁띄워
▁선동
▁앨범을
▁업무를
▁담당하고
피는
▁슬슬
노리
분기
열에
▁고장
▁캡슐
▁사에
▁포인트가
▁진행한다
▁두루
ACK
▁측면에서
속도를
티넘
▁정도에
▁자기를
▁플레이하는
▁Am
▁때려잡
▁삼고
▁Max
▁유저는
▁정신적
▁되었으나
위치
▁메세
▁패치를
▁작품으로
호에게
화하는
금의
대결
▁Im
돌파
:05
▁급행
▁라면
▁임진
▁선을
▁정해
▁행복한
▁흑막
▁사원
▁쥐어
▁마코토
▁통하는
▁줌
▁주머니
▁어스
▁뛰어나다
▁총리
▁맑
밴드
▁무시하는
▁안전하게
▁명시
▁현대의
▁마운
▁못하다
▁일어나지
▁2:1
▁아름다
▁인생을
▁선봉
▁맛을
▁불안한
▁HE
▁나에게
af
글라
령은
▁필사
▁자리가
▁전수
▁바닷
▁타이틀곡
▁전라남도
▁공격시
천군
▁맵이
▁병원에
▁SSR
▁로리
▁리즈
▁호크
▁걸릴
▁고스
▁무기에
▁상시
▁이처럼
▁pro
▁일베
▁추후
▁미국과
▁그보다
▁충격과
▁프랭크
▁리부
▁도깨비
▁달성했다
▁모드에서
▁호감도
혁명
▁복선
▁+15
▁말하지
▁대검
하겠다
▁톨
▁전생
▁두개
▁컴백
▁체력과
▁스테이터
▁세계가
인조
공은
▁낭비
▁비정상
▁시작하였다
▁찾으러
▁얼라이언
▁인권
▁초록색
왔는데
▁간접적으로
▁마저
장면
▁퇴치
▁프롤로그
전에는
▁이후부터
▁짧아
▁방패를
▁지킬
▁잘만
▁잡았다
▁히로시
▁붙어있는
▁능력에
시대의
▁EV
오니
▁여긴
▁인조
▁당신을
문에서
실험
▁앨런
▁불가사의
▁연결되어
▁캐릭터이다
▁동력
활동을
▁성격의
▁상황이라
쿠스
스테이션
들리
▁보루
불명의
▁스나이퍼
배틀
▁GM
해버린다
배차
▁지을
▁드래곤의
르드
▁부속
채를
:55
▁지나친
한지
슈타인
▁남자는
머리를
▁해당되는
,000,000
▁지우
▁떨어져서
▁레이디
▁않던
▁것에서
▁하는게
하임
네이션
▁거꾸로
▁10000
▁조약
▁생명을
▁민주주의
▁제목으로
ics
▁챠
▁드루이드
되니
▁입원
▁중구
▁갱신
▁원피스
▁청와대
자들과
▁키미
▁Car
▁크래
▁4000
▁정성
ica
▁135
▁바닥을
▁제작진이
▁한양
자이자
▁차원의
▁스콜
▁클리어하면
차이즈
▁유탄
무게
▁한대
▁놈이
▁만난다
▁명칭을
▁유니버
▁자체적으로
▁섭취
전부터
대륙
래의
▁퍼펙트
▁슬픈
▁스마일
AA
▁다니엘
▁비중을
▁수여
▁전개가
▁수치를
▁고고
▁고우
록을
▁맵의
▁오딘
▁여파로
층으로
▁오케
▁생각에
▁유닛으로
▁bl
▁웃음을
▁한계를
하우스
▁리셋
▁0.00
도어
▁야마모토
고생
장군
▁남한
▁그마저도
▁리플렉
▁일리
▁친구를
▁항해
▁벚
▁찾아와
▁니코니코
▁싸이
▁상자를
▁허가
▁오른팔
▁차지한
BB
▁방위
▁리뉴얼
▁역이
▁원래의
▁one
▁우세
▁언급되는
▁김도
▁여캐
▁의정부
▁스타워즈
성에서
녀를
▁에레
신도시
▁한달
▁수확
▁양반
▁베이비
▁트윈스
▁LTE
▁com
▁바뀌고
훈을
▁ME
▁줍니다
▁짓고
수인
▁제니
▁멀리서
▁자켓
▁많다고
▁정준
▁오렌지
사라
우드
▁이단
▁근원
▁알아차
▁내버려
▁도배
▁일본군
어버릴
연은
▁수비를
▁자신들을
▁창작물
▁느끼게
▁사과를
8%
률은
▁사랑에
▁시선을
▁힘들고
▁밥을
화되었다
그마
▁없어졌다
▁450
▁킷
▁1976
제품
▁죠죠
리에서
▁떠났다
그라운드
▁걷어
▁솔직히
▁지내는
사다
▁성의
▁황태
▁인원이
▁-5
▁앞세
▁쪽의
▁격퇴
▁피난
경기에
▁본체
▁주니
▁소환하는
코로
▁--
▁시킨
▁저스티
▁TP
▁팬들을
▁건가
▁탐지
룡이
▁높지만
▁심히
마리를
▁이카
됨에
▁1/3
▁진격
▁맡는다
▁맡았던
리프
▁노골
▁강탈
▁feat
▁곳도
▁호날
▁플러스
▁근처의
▁점검
▁어찌보면
wh
▁빨아
▁때문인
▁몰아붙
미션
전까지
▁시작하면서
▁유즈
년식
▁WH
▁자고
▁방심
▁국제공항
사구
▁OF
▁정교
▁테오
▁않겠
▁협동
▁수인
▁프로그래
▁무지개
레타
▁사치
▁무용
▁일러스트레이터
▁운행하는
▁소집
▁일컫
초마다
▁고마워
▁무작정
▁헬리
▁상관없
▁미남
▁145
항을
▁농업
▁당시엔
▁별명은
▁소원
▁친구인
▁꼴찌
▁당초
▁나라가
▁1972
▁언급했다
수준
▁빈틈
eep
▁얻지
일때
▁보강
▁마지막까지
▁맞물
▁너클
▁태양의
▁시기가
▁보스의
▁수업을
▁데려가
▁피하는
▁노부나가
▁발매한
:35
▁바닐
▁Sun
락의
▁연습을
▁못한다는
례가
▁갖는
▁마케팅
두에
▁극대화
▁유사하다
▁띄는
▁물의
▁박종
▁AB
게요
▁카피
▁써먹을
▁군의
▁GTA
안으로
▁프로야구
▁크롬
▁내려가
▁중국에서
▁캠프
▁급속
▁호응
▁미끼
▁향한다
전용
하와
▁유연
▁메트로
▁이어가
~200
▁싱가포르
▁쳤다
▁Don
▁가깝게
▁영혼이
▁스타일의
▁친절
골로
▁검정
▁채찍
▁이루는
▁기를
▁사슬
주공
▁무너뜨
▁심하다
▁시리즈와
모와
▁아폴
▁알렉스
▁기지를
문과
마법사
▁인물들이
아슬
▁의아
▁재발
▁소속된
그런
테오
▁호감을
처가
파인
▁김성근
▁객관
▁발탁
▁수술을
▁운명을
▁지식을
▁속성의
우로
▁오늘도
여야
83
▁재산
▁out
gr
▁조립
▁준결승
▁과시
▁모욕
음과
▁다짐
▁일각
▁사직
해보자
▁제너
▁행정구역
루트
▁날린
▁도는
▁뽑은
▁대량으로
▁1977
▁미라이
▁오더
▁진지한
▁글자
▁스칼
▁묻혀
▁나란히
▁유격수
▁공교롭게도
▁마을에서
TA
개와
▁주어진
▁떼어
효과를
맨과
▁돌아오는
▁무색
▁원곡
주기도
▁놀랍게도
필로그
놀이
물과
use
▁장인
▁히로시마
▁인텔
▁가라앉
▁트랜스포머
▁비참
▁안하고
▁쓰러져
▁하이드
4%
▁회사가
▁윈드
파이트
▁최종보
▁남양
▁다른데
이는데
▁놀러
▁발표한
패가
▁어디에
중을
▁붙어서
▁물품
▁여기고
▁걸맞게
▁주제로
▁물고기
▁적용되지
에의
▁났다
▁특공
▁섬에
명에게
▁원인은
왕과
▁리본
▁직책
▁소노
▁스토리는
▁다투
사이즈
▁차이점
▁강력하다
미아
▁어레인지
▁보이게
▁이름인
▁총선거
▁디렉
▁있을지
▁유니버스
▁괴로워
▁문서의
▁자이언트
▁진행되었다
▁연동
▁Ste
▁판매하는
대구
▁어긋
▁오가
▁혐의로
▁사전에
▁플레임
▁수록되었다
▁체육관
▁강서
였다면
▁타다
▁전장에
▁건다
상태가
▁165
les
된다면
스럽다
놨다
▁폐허
▁필드의
▁다름아닌
▁점심
▁리바
▁동맹을
▁집계
▁이광
▁브레이브
▁멀쩡한
측의
▁효율을
▁망치
▁블랙홀
▁전제
술이
▁소생
▁응급
▁최전
▁양자
▁설치된
▁일꾼
▁가로막
▁맞추면
내면
:25
▁역이다
▁확신
▁사람들과
▁순천
캠퍼스
▁기호
▁오늘은
판에선
▁NEW
87
재료
정지
리아와
테의
▁Of
▁머릿
▁논란을
벌을
▁SA
▁이방
간을
리치
▁부끄러
▁먹기
▁성씨
▁찬양
형제
▁IP
▁깨고
▁안산
▁정신나간
▁않음
▁동료가
▁각인
▁줄어든
▁방송국
▁사용을
당에서
▁도전과
▁텍사
▁벅
▁존재하는데
세계의
▁에메랄
▁지시를
▁캘리포
▁거뒀
▁진행했다
▁본관
▁High
▁어시스트
▁Your
▁디자이너
▁내용으로
▁중에선
운을
▁감금
▁트랜스
▁배수
▁스텔스
▁하후
▁문서에
▁패키지
▁적재
▁지붕
▁해보
▁쿵
▁본진
▁붙었다
▁성폭
rain
▁향하는
▁기다리는
▁표정으로
▁성사
▁폴리
▁서기
해방
▁폭스
▁것이니
▁Sw
▁몇번
▁번이나
▁was
▁검토
▁샘플
▁연산
사들이
▁설명하는
사무소
▁읽을
▁실험을
글이
▁마술사
▁지팡이
▁위치하고
▁국무
▁시오
▁변하지
▁군단의
▁중학생
▁증가하고
▁용산
▁유비트
▁SU
▁깨어난
▁바람을
질에
미트
하기에는
칭을
커로
▁나타났
무늬
▁장비가
▁기관단총
▁문서로
파라
해버린
▁밝혀지지
▁데스티
▁히라
르면서
▁차에
▁딥
▁야만
▁스파르
▁영화에서
못해
루에
토리얼
▁영화는
▁매니아
▁검증
▁숨기고
▁하치
▁내린다
▁개명
▁들어서는
▁정밀
▁히사
▁발명
▁oh
▁범위를
▁역할이
▁페미니즘
▁부탁한다
탕을
박물
▁말려
▁지오
▁가사가
▁더러운
네와
진흥
▁맞출
less
▁에필로그
카에게
IO
LS
▁화장실
▁아슬아슬
검은
행성
▁아이의
귤러
▁손해를
▁근대
순양함
▁역할은
▁다큐멘
▁최상급
▁중급
▁선물을
▁결제
린다고
▁2019.
▁소통
▁봐서는
▁섞인
▁아타
▁소금
장에게
▁재료를
ress
▁보여주기도
▁저기
▁훼손
▁단점을
BE
▁행보를
▁로렌
▁동정
▁쉴드
우타
▁오리온
che
▁고인
▁마계
▁탄환
▁연간
▁휘하
▁스쿠
▁공정
▁이름이다
▁오른다
▁대미지는
▁아내가
▁줄어든다
▁가오
▁위력은
▁의혹이
▁보였고
귀를
커녕
▁변이
▁받았지만
▁입사
▁세웠다
▁스네
▁팔레
▁제약
▁골프
▁글래
▁임기
▁고의
▁대통령은
▁잔류
▁주거
▁걸려서
▁이번에
놓았다
01
적으론
온은
나지
▁생각해서
작에
▁치바
▁암호
▁게임에서는
개에
몬을
플레
▁인재
▁Par
▁날개를
▁뺀
▁좋은데
▁손잡
▁시어
하느라
▁테마곡
ANI
▁원로
▁컬렉션
▁과제
▁크지
기념
▁102
▁비슷하지만
불능
여도
▁노무현
▁세일러
org
리다가
let
▁일주일
마에게
▁겪고
▁주력으로
▁미소를
▁늘어나고
▁HARD
▁내부에서
살인
▁학생들을
▁난무
버스를
해주면
▁읽는다
▁#000000
▁GPU
▁받으면서
갤러
▁내기
▁만났을
▁담겨
▁부친
▁사태를
내의
▁영혼의
▁숙청
▁드래곤을
▁두근
▁세우고
▁연달아
라시
▁산맥
▁실상은
▁시점에
덕션
▁출석
▁패스를
▁견디
▁실로
▁쯔
회관
▁쓸데없이
테츠
▁졸업식
하겠
▁성장한
▁뜻은
▁Light
▁출신인
-21
▁분대
▁로테이션
eF
▁베를린
▁뛰는
▁안드레
▁입히고
업체
기동
50%
▁시킬
▁주워
▁포터
▁제작자
▁대체적으로
orea
▁방어를
금지
▁무궁
▁공격수
▁추가되어
▁콘셉
▁유머
▁금요일
▁연관이
▁차로
▁315
▁그간
▁참가한
▁발급
▁종로
▁탈환
▁Gen
▁통화
짓을
▁마모
▁이루고
▁이른다
▁끝을
▁알수
▁얼어붙
이라고는
▁쇼크
마니아
7%
삼아
-22
▁과도한
▁세상의
▁진행이
직원
▁원주
▁아울
콤보
▁바이킹
교도
▁해변
▁보였으나
니버스
▁치열한
프스
ert
▁볼드
▁출제
▁모양새
규가
▁우주의
▁디자인은
▁트릴
▁선박
▁우즈
▁설마
▁불릴
▁103
▁공식적인
▁레인보우
▁근거로
▁맞추기
▁출신이다
중심
▁어렵다는
▁영화에
▁톡
라니
▁번갈
▁식품
▁서울시
팩트
▁유럽의
수용
▁살펴보면
▁시네마
▁트레이닝
▁산탄총
▁이쪽이
▁방법이다
진한
land
▁1971
▁수신
▁투쟁
작품
▁차량의
▁화면이
▁+10%
무리
▁구매할
oss
▁가족이
▁정보는
▁재학
어에서
anna
▁구하는
▁시청자들이
좀무
크로스
▁확률은
▁존재감이
▁중부
yout
▁Red
BD
에가
▁루키
▁때리는
▁기준으로는
▁미루어
-25
▁다룰
스트림
ring
▁한층
▁싫어한다
▁beat
▁실패로
▁표면
▁하러
집의
▁퍼부
▁소련의
▁좋아하고
유는
▁Ro
▁업데이트가
▁날씨
그대로
백으로
ideo
▁스킬이다
▁이의
▁갑옷을
▁기후
▁로열
▁배터
▁편을
▁에서는
▁FPS
▁캐릭터에
▁순찰
▁광고를
하였다고
왔을
▁기쁨
▁내뿜
▁가위
▁디아블로
▁훈훈
▁나서서
▁공격형
▁자세를
또한
.23
▁아이스크
사실
▁키노
▁한손
▁상점에서
마르
▁성실
▁BO
▁집필
▁발발
▁컸다
▁시뮬레이션
▁다이스케
유저
자였던
▁뱉
▁아이템으로
머신
소수
▁진출을
▁스기
▁협상
▁득표수
▁마하
▁경기의
▁문제점이
▁거리에
▁역할로
▁전임
▁드레이
▁이후엔
▁진행을
▁드러나는
염을
▁안철
▁폼이
명이다
...!
▁강화된
회까지
▁1/2
▁내구도
▁게이지를
▁CE
▁츤데레
▁오세
▁패배하고
▁공무
▁바바
▁노선으로
▁안될
▁정우
위까지
ough
▁설정으로
링의
▁폐선
▁절단
▁사진은
▁클라이
카타
▁맥주
▁너에게
▁넣었다
려나
▁편지
▁주위에
쿠로
▁넬
▁마을버스
찮게
▁시즌에는
▁인정하는
▁궁합이
arm
듯하다
송이
▁바란다
UC
▁후타
▁0.6
~12
▁움직임이
▁전체에게
▁상위호환
▁존재할
베르크
▁관광객
▁스위치
▁미녀
▁후쿠오카
▁스톡
9%
▁명으로
+0900
요원
▁변하는
랑은
▁책략
자리를
▁앞뒤
▁후반기
▁자작
▁지극
▁겁니다
▁키보드
▁스토리의
적도
▁일조
미스
부턴
▁기력
▁찍었다
▁필요도
▁미식
이서
▁la
▁무식
▁야마다
▁시작하여
준은
ush
▁부지
▁혈통
▁영상은
▁줄어들었다
댄다
▁넉넉
▁쥰
가수
▁우투
▁현상을
▁아오이
▁행동에
▁밑으로
attle
▁몬스터는
▁펌프
▁미친듯이
▁앞을
▁전광
당시
▁구리
▁죽음에
▁체력은
감도
▁나르
▁내밀
▁득표율
▁발톱
▁부분의
▁이전에도
▁마요
자로서
▁휴스턴
▁MK
▁성장을
▁아무렇
▁말하지만
가이
바스
▁재벌
▁이르러
▁깨알
▁마지막에는
한게
▁수시로
년부터는
▁버전을
▁안경을
▁페이크
▁맺고
▁막판
▁패전
▁멤버들과
▁콧
▁연고
▁선포
▁남자를
▁냅
▁목욕
▁분쇄
▁바라보는
▁영등
▁증가하는
검의
아스
광역
▁스크롤
▁후쿠시마
▁뉴질
▁신전
▁나루토
슨을
▁깔려
▁서울대
▁의원이
미츠
▁후면
었으니
▁최우수
국제공항
▁1969
▁어울리지
▁리퍼
▁대학원
ONE
▁행동은
▁재단
▁강습
▁내일
▁붙는다
▁냥
▁화면에
▁자칫
▁경찰에
▁빠지고
▁오자
▁미묘한
▁흐름을
▁오의
▁사이토
▁찾지
▁수단이
-03
OID
▁넣으면
▁시모
▁공손
▁의문의
빈이
▁부재
▁파티를
/16
▁엘더
▁그려져
▁늘어나는
▁프레데
▁엣
▁더구나
▁달라진
▁동성애
▁Heart
▁_
▁취재
생물
▁특이하게
▁오시
증으로
▁신곡
▁신하
▁리믹스
레드
▁아리아
▁것이지만
▁해독
▁하여금
▁지옥의
▁최순
나면
년과
▁하지메
▁택시
▁메딕
▁적과
/+
임은
문서
▁최소한의
▁일으켰
답지
▁필두로
▁눈빛
▁다름없는
▁뚝
▁수비수
▁해병대
▁모른다고
▁들어온다
▁그만두
▁캐릭터들
호도
▁Tw
ret
▁무도
▁오비
▁미칠
air
▁되게
▁대명
▁원래부터
롭고
▁성직
▁보았다
거는
▁돌아간
▁옵션을
▁양아
희와
▁까마귀
락이
▁번씩
값이
판매
▁조치를
부지
편성
▁맹세
▁화염방
더라면
▁성기사
▁뒤이어
▁필라
▁이하로
▁멀티플레이
▁걸면
▁초반의
▁김연
▁뿐이었다
▁종사
고에서
▁김천
▁불길
▁지선
웠고
▁해운
▁셜
▁명단
▁따져
▁방으로
▁정글러
▁카에
▁떠나는
▁안보
▁희대의
려야
▁나뭇
▁챔피언스리그
토르
▁열쇠를
리라는
▁가득한
▁옆으로
▁사람이라면
▁Mr
▁엄폐
▁함재
▁창립
▁날에
▁내리고
▁오해를
클레
▁장제
호에
효율
▁사정을
▁대니
▁만만치
▁유저들에게
▁괜찮다
지니어
▁대중교통
▁유아
▁편리
볼루션
▁신비한
▁공격과
▁직통
▁냉동
▁단련
▁여부를
▁뻘
▁타점
림으로
▁색상
▁BEM
▁부활한
▁AF
시켜야
▁time
kr
▁부대가
▁묘지로
++
▁상쇄
▁지구에
▁낳은
▁명탐정
▁갸
높은
▁게르
우스는
▁풀고
▁분할
▁크리스티
▁씨가
▁막판에
==
브는
▁흠좀무
▁늦은
▁튜토리얼
.,
선지
▁유지할
▁하스스톤
▁Fire
▁경향
화도
▁올라갔다
▁캘리포니아
쪽은
ady
▁머무
▁쓸모가
▁순위가
▁외야수
려던
▁플래티넘
▁한해
▁수준을
▁수천
▁타르
▁바람이
일까
▁혼다
▁로스터
수원
▁팝픈
icro
▁식사를
▁암컷
▁퓨처
▁안전한
OK
▁삿
▁명성
▁헤라
▁본의
▁원형
보그
▁중에도
▁참여했다
▁그레이드
▁거칠
▁조합으로
▁높기
▁여기서도
▁팔이
년으로
▁03.
▁아바타
▁인질로
▁사인
란한
발에
▁#2
▁믿어
▁Per
▁빼앗아
▁정해져
▁마에
▁홀드
함으로서
▁사회주의
▁LOVE
▁한가지
▁캐릭터와
▁소우
▁측에서는
▁사용하게
▁DJMAX
갔지만
▁않거나
가인
레는
▁러닝
▁주의를
▁생각하며
ru
였으니
▁하이브리
▁만화를
▁빈번
▁콤비
IV
치도
▁위치는
▁수중
que
▁젤리
▁급하게
▁재능이
▁트렌
▁빠지게
▁하하
▁119
▁걸어서
▁나이를
기계
▁담고
ution
▁립
▁빌딩
격인
▁브라더
▁확인하고
▁중반에
▁토마스
▁Kn
▁순정
▁팟
▁드워프
▁관리자
▁바뀌면서
▁가나
▁조력
▁활용하는
▁활약이
창에
내는데
81
iew
▁가슴에
▁쿠니
▁적에
▁롬
랑을
▁구성원
▁모드의
▁생기고
▁이동속도가
▁아군에게
▁츠카
▁죽이면
▁극단적으로
스파
▁IV
▁하려는
▁플라스틱
▁미하
▁꿈의
신문
▁비아
▁750
▁레스토
▁재빨리
▁마기
▁문의
▁관리하는
티노
▁여수
▁복장을
▁급식
▁음향
▁어느날
ium
▁뉘앙
▁별을
루타를
▁떨어지면
▁너프를
▁갈등이
▁버블
▁나인
▁조선의
공학과
이름
▁펭귄
▁보였지만
▁꿇
▁빠진다
▁BEMANI
욱이
▁진출에
▁게스트로
듈럼
느냐에
▁정리한
▁횟수가
▁존재하고
헤드
▁소스
▁물건이
▁암살자
노래
▁모던
야스
스퍼
▁이익
사진
▁적립
▁위함
▁노래는
▁테러리스트
스트는
▁오바
▁1963
▁상태에서는
▁땀
▁반대하는
▁엔트리
기획
▁코이
▁클러
▁귀가
▁분량
클래스
▁혼돈의
▁등장으로
초교
▁요미
▁사각
▁원흉
▁마법이
▁넘사
하다며
▁미션에서
연대
▁대의
▁아레
▁올림
시키면서
니클
방은
▁낡
적이라
▁박상
▁배워
▁Champ
▁운영기관
▁타키
▁내용에
▁뒤에도
▁인연이
▁ES
▁모으는
▁인정하지
▁처리하는
▁브라우
▁등장이
/15
▁루트를
▁느껴지는
▁이준
tern
▁캐롤
▁휴게
▁BM
군단
▁일삼
▁넘어간
▁지원이
▁주기도
▁Baby
강이
▁스트리밍
▁홍성
▁뮤탈
리라고
▁STR
▁가격을
▁같아서
▁가도
▁전두
▁파괴하는
▁마나를
▁미국에
전철
▁따뜻한
▁바다에
▁패스트
▁탄탄
▁프랜차이즈
셔서
▁구로
▁나을
▁북아
▁적극적인
,7
▁수컷
▁보스전
▁프로토타입
▁소녀의
시나
▁면적
술의
▁엄마가
▁템플
▁Em
▁사람에
▁무늬
▁일품
▁아님
▁버려진
▁중앙에
▁항목에
▁볶
시도
▁본부
▁개념을
▁돌연변이
▁5.0
▁쓰였다
▁파일을
▁평균자책
▁워터
▁인문
▁착지
▁평창
▁친목
▁조이
▁현실을
▁가능해
▁지속시간이
▁전지
▁찰나
▁파격
▁사랑이
제일
▁마가
▁다름없
▁예상된다
▁놀란
▁1968
빌딩
▁프랑스어
▁미미
itch
▁푼
▁호기
주택
▁별이
▁나레이션
▁박수
▁오만
▁부대의
▁제공한다
▁물어보
▁한글명
▁광경을
▁Dark
▁달러를
▁자부
▁교실
▁해군의
▁포션
▁메이커
▁용자
▁항공모함
▁벚꽃
IE
▁사용해야
▁배구
▁나고야
▁수준에
백의
▁CO
▁IC
▁은메달
▁응답
news
▁역관광
받기
▁킹덤
▁군대가
▁중시
▁한국이
▁길로
▁막지
림은
▁Li
다와
▁현직
▁설정에
▁가능하기
▁박용
▁투고
▁패닉
▁해주고
▁개인적인
▁무녀
▁합작
▁나카무라
▁학사
gain
▁현장에서
▁그녀와
▁없거나
▁끝내기
▁후보에
▁승급
테가
인만큼
▁갈등을
밥을
아르
회와
▁대외
▁부장
▁Sm
▁시트
▁모자를
▁예수
워커
▁불만
달이
▁리스크
쉬가
▁시야를
▁오브젝트
▁그랜
▁불평
힙니다
▁우천
▁추궁
▁열린다
▁풀린
▁뽐
▁연막
▁블래스터
ors
▁챔프
▁박쥐
▁장면도
▁나가서
▁포지션은
▁박혀
▁반성
▁포드
티는
광이
▁계절
▁나열
당으로
▁추모
▁공립
▁일일이
▁남았다
▁쐐
▁역사적
▁넘사벽
▁EU
루에서
▁휴대폰
▁돌아가기
▁자신보다
▁리프
▁군림
▁순양함
▁스탯이
▁팀명
팀으로
▁묘사를
달의
▁현금
▁감소한다
▁떠났
▁소득
▁바로는
▁절대적인
▁해가
끄럽
▁예의
▁어느새
▁외치는
▁붓
▁사수
스크롤
지에게
▁불편한
▁팩션
▁개발된
▁기능은
이팅
▁NP
다니며
답시고
▁목포
▁안무
▁1.7
▁당선되었다
하려던
▁스타일을
▁발이
▁범인
▁온몸
▁승리한
▁아카이
▁자원이
▁해태
먹는다
▁좋았다
▁윈터
▁일행에게
irst
▁벌어진다
경과
▁요구한다
▁변동
▁일본을
▁SCP
메다
줘도
▁쿤
▁호노
▁활용한
▁장치를
▁모델을
적이었다
OCAL
▁1~3
▁MO
▁대답을
▁장동
▁대회에
▁다케
▁양대
▁누워
▁소환한
▁오쿠
▁뮤지션
AE
▁ADV
▁돈으로
▁구체적인
▁구한
▁면접
▁붙이는
▁이때문에
red
론과
▁후루
▁우려가
카제
https
▁등장했던
▁유튜브에
▁성향의
vol
!!!!
▁오프라인
▁휴먼
▁그리하여
▁카메라를
파이터
▁가면서
▁제품을
▁생략한다
▁시리즈에서는
▁실루
▁엔진이
▁들어있는
캐슬
▁now
▁꽁
▁사소한
▁3164
GO
▁MSL
▁건데
▁문단
▁홀리
시테
▁자비
▁치며
▁민간인
▁돌을
류로
▁대하는
▁의하여
▁Good
교차로
▁마이크로
▁1.1
▁득점을
▁시대가
▁처리할
프란시스코
끄러운
▁싸움에
▁면에서는
▁피카츄
그린
▁지냈
▁짧고
▁공허의
▁미성년
선다
▁OK
▁빠져나가
▁아메리칸
▁군용
▁참으로
▁EC
▁그림이
년에도
▁하느
▁펜듈럼
▁마징
▁Sl
▁재배
대대
▁쿠루
▁낀
▁재활용
▁몹시
▁괴물이
▁내셔널
▁시도를
▁꼽힌다
루로
+110
취를
▁기괴
려다
▁저글링
▁말그대로
▁필립
▁내면
▁입지가
▁가브리
▁맵에서
▁의미의
▁연출을
▁조각을
▁것이므로
웠다고
대학원
▁0.2
하기만
술로
▁신은
▁제목이
▁벙커
봉을
▁사용하던
극을
▁동북
▁노릴
▁하기에
테스
▁El
저것
책으로
▁조직의
다드
▁동명의
공과
▁2500
▁뛰어넘는
▁am
▁보쿠
▁se
오던
▁쥐고
▁유승
▁총평
▁포기하지
▁격침
▁약물
▁있는가
대왕
▁경의
▁이때의
니에
▁전투력이
▁달라붙
▁영웅을
▁참가자
▁2018.
▁121
▁cl
▁시흥
▁져
▁몸무게
▁분노의
▁끝나지
▁박재
▁관통력
바와
포에
▁직장
▁LED
▁박찬
▁심야
▁111
▁따돌
▁전염
말고
▁테레
한데다
▁생겨서
▁단단한
▁따위는
▁전적이
업자
▁맞지만
▁장로
▁웜
▁이어졌다
▁버릇
▁0.9
▁레벨은
▁권능
▁삼촌
▁전차를
▁합친
▁대신해
화부터
혜를
되나
충전
▁As
▁뉴질랜드
▁무리하게
았는지
어지고
▁Dis
▁동메달
▁일레븐
심과
▁죽이기
▁크로노
일수록
▁극우
▁테일즈
▁공격하면
▁유리하다
▁덕후
▁1967
▁이들에게
▁카토
▁의뢰를
이라면서
▁국토
▁럭키
▁무죄
▁뒤통
bo
▁재료로
노벨
시엔
▁면제
ART
▁무지막지한
하트
▁따라가
▁친구들과
▁구상
개조
▁남기
▁휩싸
▁바디
▁줄을
황을
▁잠을
▁킴
▁스스로의
bs
▁104
▁녀석은
▁넘어간다
▁서태
▁구성이
▁없었다는
▁김구
▁연말
▁전선
▁첫날
▁못했다고
▁AG
▁레이첼
테라
▁친일
▁낮아서
▁체코
▁넘기는
정류
▁신입생
▁일하고
▁나타나서
▁전라북도
천이
▁임팩트
뿐인
타케
▁면을
라에몽
▁제국이
▁카이사
▁브레이커
▁업그레이드가
▁멧
▁시간도
▁노트북
▁나이트메
▁중상
▁마시고
▁심어
▁소꿉친구
▁허무하게
▁입성
▁있나
▁티아
▁루리
ERO
▁와이번스
-04
III
▁독일어
빵을
▁안돼
▁측이
▁데미지도
대도
▁옵티
▁급히
▁빠뜨
▁퀄리티가
->
하자고
순이
▁인명
▁운명의
ina
▁블라디
▁자기도
▁장사
때부터
▁미치는
▁부채
▁외모가
▁외면
▁퓨전
▁권한을
더링
2%
부작
록의
▁기체가
▁높다는
▁피트
▁말만
▁브론즈
벌이
거리며
▁전에서
▁성공하면
▁주어지는
메탈
▁구도
▁4.5
▁모임
▁자르
▁보고는
▁명중률이
란트
였다가
▁그들에게
요가
마침
▁박탈
▁초고
▁치하
▁아스카
키로
홈런을
▁패밀리
것에
▁PL
청이
▁볼을
아이템
▁캐릭터들은
▁찬스를
해버리는
가락을
▁에너지가
▁애정
▁달려들
팀에
▁파랑
▁헝가리
▁미국으로
▁안토니
▁없다시피
▁친구들이
ars
▁비로소
골이
:59
▁없이도
▁생각했다
▁쇄
▁총독
▁방공
리스와
종으로
▁의심을
▁이들도
▁이호
▁주를
▁하행
▁레슬링
▁관료
▁적용된
▁승리했다
▁죽이려고
렌의
▁일례로
▁회피율
▁위험에
▁쉬는
▁샌프란시스코
▁마마
▁설상가
▁스타일이
▁심상
▁마시는
▁아래에서
ons
▁포탄
▁리베
▁사마의
ally
▁않더라도
역이다
▁아이템의
▁가던
▁DM
▁슬라임
▁Summer
▁역사에
▁냉정
▁Dance
치오
▁공존
▁비꼬
수수
▁가창
▁생태
▁한숨
텔레
▁말하길
▁푹
▁수성
▁장소에
▁봉사
▁낮지만
우먼
▁동년
▁패배했다
일지
▁벨트
▁익숙한
▁케이크
▁정면으로
블루
호쿠
테스트
기보다는
▁리처드
▁녹화
▁웨폰
▁신세가
산은
살의
▁동료로
▁에이전
벽이
▁이창
▁흥분
▁이례
▁5.5
▁가하는
▁스틱
▁감행
▁도리어
혼을
▁아이폰
▁평범하게
/24
▁소속되어
▁FL
▁다음은
▁페르시아
해지
사령관
▁좀비가
▁혼란을
.31
▁내놓은
▁씩
찬을
▁개구리
▁일정한
▁캠퍼스
▁유용하게
▁김원
그는
▁있듯
▁이행
만으로는
란은
오오
▁엔터
▁애니메이션에서는
▁무신
-24
▁Bo
▁아깝
에서나
▁이인
▁십자가
▁상을
▁파손
▁없었으나
▁아니므로
▁시작하자마자
▁레벨에
▁동아시아
▁맴
▁유난
▁찾은
▁히드라
▁이것저것
▁추구하는
▁방울
▁씹어
▁하라고
▁VOCAL
▁업데이트를
▁못했다는
▁4~5
전함
조정
▁아이러니하게도
▁지낸
겨서
▁메갈
▁끄는
▁나오자
▁공통적으로
~9
▁올바른
▁현실은
▁상행
▁강해서
▁소소한
▁놀이
▁차용
▁하사
▁Wii
▁국내에
▁장소를
▁입었다
▁호랑
▁박영
▁깽
▁123
혁의
▁인쇄
▁독자적인
▁치안
▁난민
▁코요
▁1-2
▁앨범의
▁대표적
마리가
▁결정을
▁조건은
▁터렛
▁버티고
▁강타
▁나섰
▁고래
▁얼굴로
▁동서
▁끌어들
▁다니며
▁모니터
▁댈
클린
▁왕을
▁들린다
▁상당수가
려도
▁실루엣
▁요청을
오는데
글로
▁프로덕션
파리
▁아랑
▁재밌는
▁소나
▁무기와
▁혼합
효과가
▁장갑을
▁암울
▁골목
▁Over
▁고발
▁감자
▁포도
좋은
▁퇴역
▁상성이
▁분이
▁들자면
▁주먹을
▁노선이다
▁입힙니다
공단
▁말소
▁추출
▁본래의
▁Korea
vs
금융
▁레슬
▁합법
▁음악이
시켜주는
▁댓글을
▁시간동안
▁잃게
당하기
▁Blue
샤의
▁공포를
▁전통적인
▁주민들이
지휘
▁12,
▁얕
토록
▁정형
▁고기를
족은
▁en
▁맵에
▁법적
▁But
▁무슬
▁드립이
▁카무
▁What
겼고
▁우타
▁포효
▁진행한
▁클레이
▁패왕
한테는
▁합쳐서
▁유벤
▁집이
▁자유를
▁모스크바
▁스파이크
▁'''
▁스미스
▁해결할
▁말라는
▁HK
▁뒤틀
자리에서
▁등지에서
▁훈장
하다보니
▁증발
▁빌보드
▁잎
이에요
▁농락
인해
▁못하지만
▁요코하마
▁정체불명의
▁비춰
▁주파
▁쓰일
▁적합한
▁작품인
운영
▁중재
참모
▁동구
▁지냈다
▁부모가
▁에드워드
▁들어가고
▁돌이
▁DR
▁결과로
▁세력의
▁재위
▁따왔다
때문
▁보스는
▁화소
▁3:0
▁일본어로
▁그릴
▁네놈
▁성전
▁차가운
▁스켈
업에
▁동생인
▁이렇듯
돌프
▁초반부
▁고든
▁DNA
▁넣어서
▁sm
▁EBS
▁이츠
코프
▁죄송
UE
ana
▁주세요
▁헬리콥
▁끼어
▁뚜껑
▁세츠
▁물러나
▁것만으로도
아래
▁밖의
▁개발이
결정
▁교역
궁의
▁개연
▁비치
스타일
▁민주화
▁리나
▁마음은
▁추가되는
▁물약
▁바꿔서
명도
▁대차
▁왕좌
▁비중은
tr
슨과
▁성이
▁우미
▁이어나
▁뒤로는
생으로
▁연기가
카스
▁영남
나가와
원에게
▁웃으며
▁잡아서
▁자신만의
▁권위
▁때나
왔지만
키에게
▁중간중간
▁마타
▁구해주
▁개개
▁정재
▁역대급
후를
▁결전
▁카밀
▁쌓여
▁그룹의
▁KTX
▁세상에서
▁대회를
▁레버
▁레코
▁오아
▁준공
▁센트럴
▁1966
▁럼
자원
▁공백
▁느낌으로
▁주장한다
일으
▁아루
▁무비
▁한신
▁로그인
▁스토리에서
네트
▁부드러운
TC
▁항구
▁가능성
▁이펙트
▁메시지를
블레이드
▁느낌의
▁남는다
▁취한
▁나락
▁스크립
▁뿜어
▁세로
▁불안정
▁주시
요의
카즈
▁영등포
▁전속
▁2.4
▁개그맨
▁그곳에
소프트
▁기준이
▁적들의
▁도라에몽
비어
▁노블
▁도마
▁구하러
▁아름답
▁한국을
미네이터
격투
년전
▁유유
▁일산
▁진출했다
▁듀오
▁로저
▁도시에
▁입장이
▁떡밥을
해머
▁청구
시켰고
▁아직은
▁학교가
▁압박을
▁Rock
▁베이스로
블릿
▁힘과
▁펼쳤다
공연
▁뛰쳐
▁원인을
▁표현한
바지
이센
▁TE
▁제지
▁했으니
▁콜롬
편이다
▁아드
▁용량
▁차는
▁광주광역시
▁서치
드립을
디스크
▁짚
▁나이로
대인
▁불문
▁신정
타임을
엘은
▁크리에
AF
▁근로
▁돌격소총
▁양도
▁했는지
▁광물
무기를
▁세포
▁인테
▁어플
▁더욱이
▁오디오
▁한강
▁형상
먹기
▁다해
▁들으면
▁서지
▁찰스
▁안성
▁가방
▁샐러
는다는
왔다는
▁떠날
▁좋아한다고
▁궤적
▁충남
▁강철의
▁프로레슬링
▁로컬
였는지
▁위협적인
▁별칭
▁말하면서
역까지
▁부동산
▁미치지
HD
다르
▁타일
▁페르난
▁패치가
▁솔저
▁두가지
▁무리한
적이지만
▁기대할
▁하는지
복무
림과
▁네덜란
▁유저들도
▁포함하여
등에
▁워낙에
▁퓨어
▁제약이
▁이전까지는
▁똑똑
▁살아가는
함대
등하게
▁걸친
▁마법사의
그로
▁잘못을
어졌다
▁지크
▁어디로
집니다
▁시스템의
▁취급하는
▁내릴
▁안도
▁지력
02
▁환자
▁전작인
-23
▁경제적
▁유스
▁보정을
▁포스를
제이
▁딸인
▁여는
시드
이런
▁친하게
▁Ep
▁손톱
▁쿼터
백화점
▁시체가
▁무엇인지
시부터
못미
▁셋째
▁생명체
▁월요일
▁키보
이닝을
▁오키나와
▁전투력을
렸다가
메리카
▁오늘의
▁루팡
▁의외의
▁텅
▁답을
▁사스케
▁지방의
▁김명
▁버티는
▁에인
브레
asy
▁Pv
▁꽂아
▁잔인
▁적어서
림에
▁해고
▁담당한다
학이
▁뜨고
▁숲의
작가
▁청룡
▁관리가
▁직결
명인
▁의미에서
▁109
▁본사
▁한반도
▁자란
▁라인전
▁연구가
▁인간으로
▁교체되었다
▁발동하는
▁발악
▁다이너
▁친분이
▁응시
▁해당된다
▁Just
내야
▁뛰고
▁개발자
▁초코
위원장
▁소재를
히면서
▁플레이어블
▁명명
▁ARM
▁엔지니어
▁올라가면
▁잃어버
▁경질
▁사격을
▁캐릭터다
▁각오
▁원숭이
▁유전자
▁지정된
▁자유로운
▁#1
▁나갔다
▁흑역사
▁속도도
▁대결에서
▁부사
▁스윕
▁컨셉을
▁선원
▁공산주의
▁사회의
소울
▁어쌔
▁만들면
리그에서
주쿠
▁끝장
▁게임인
▁직후에
▁대다수가
상태로
싸움을
▁골로
▁원활
▁뛴
▁사육
▁코트
▁스파이더맨
멘탈
요를
▁거냐
▁최후를
▁힘들게
▁내비
▁미들
▁디스코
새를
▁발칸
베이스
▁콰
복은
▁알을
식에서
년도에
▁높으며
▁스킬에
04
▁출구
▁블리자드
빈의
▁당하며
TER
정도의
▁명성을
▁주기적으로
aj
▁야외
▁겔
▁화면을
▁기념으로
▁있을지도
▁국군
데르
▁GN
▁그랑프리
주게
킥을
▁말레이시아
히어로
▁계획은
▁만들지
▁돌아갔다
/14
▁만하다
aid
왕국
▁내로
▁김치
신다
▁자처
언정
▁MX
▁상태라
ck
▁슬로우
▁HS
▁가급
▁통행
▁한발
멋대로
▁오페라
▁파티에
▁Comm
▁정한
했음을
▁성공을
/100
▁안타깝게도
▁무대에서
▁비용을
니엄
▁늙은
▁이념
▁LCK
▁신흥
▁정사
▁호출
▁보상이
▁최약
▁106
▁냄새가
▁아줌
▁day
이건
▁달래
▁못했을
▁문서가
크루
▁광탈
▁받았을
ield
▁부리는
▁초필살
▁VOCALOID
▁보기는
됐고
▁일절
▁소모량
▁오타쿠
어찌
공격력
노우에
▁Mon
▁but
▁도망쳐
▁있었는지
▁흥미를
▁째
▁위를
▁회복한다
▁엑셀
▁구조가
제에서
▁0.7
▁무장을
▁스냅
▁포병
▁공격한
▁영상에
▁당시에도
토시
칸센
▁박경
가능한
▁파괴할
▁나무를
▁소식
▁길이가
▁퍼붓
시간은
▁베리
▁즐거운
▁눕
▁떠오르는
▁원내
▁중도
day
▁인력
▁필름
▁UI
▁도심
▁접수
▁임금
▁표를
토미
▁멸종
▁샹
▁+0
▁나미
▁트와
▁Can
▁나가고
웨이트
▁프레스
▁일러스트가
▁코디
atic
ction
▁회사에서
▁사용하는데
요소
▁입힐
▁하려면
▁워크
받던
▁묘한
▁인상적인
축을
하듯이
▁배우가
▁리볼버
▁전투는
,4
해지기
▁때마침
▁현장에
▁선택하면
▁울음
▁스테이지에서
▁1962
▁전해진다
▁타우
▁롤러
▁서방
▁Leg
▁능력의
▁죽어서
riend
▁성우인
시키는데
▁운행한다
▁남발
인수
▁기록하면서
▁일어나고
인원
▁122
▁추가적으로
▁2.3
▁유난히
ittle
▁저질렀
▁프리즘
인사이드
▁get
▁시청자들의
랑의
안타를
▁기사의
▁멜로디
말의
▁UF
스타의
▁영향력이
▁갔을
▁겹치는
▁TW
나라는
▁알려주는
▁몸의
▁에코
▁디버프를
▁깊게
▁묻고
▁Hard
▁일행의
▁이미지는
▁예정이라고
▁아수라
▁애니메이션의
▁흑역
▁데뷔한
▁미묘하게
동네
▁말까지
하네
▁그닥
▁어머니와
차대전
▁가능한데
▁시부
업으로
▁수만
▁외로
진에게
▁자리는
▁파수
▁한타에서
EB
▁보우
▁주유
▁채취
부족
▁졌다
▁편안
▁BD
폴리스
▁테일러
▁대령
▁고가
▁사출
▁연사력
▁바티
▁변경된
모에
▁기수
▁순간이
레스트
▁적절하게
▁감염된
▁상황에서는
▁퀄컴
▁민중
▁치우
뜩이나
부문
▁왕위
▁발표된
분해
▁재직
▁쿠라
▁정하는
▁타나카
▁대목
▁쏘면
▁다르지
▁언급한다
▁길거리
▁꼴이
▁마스코트
신인
▁베니
▁마디로
▁밸런스가
▁덴마크
▁공학
▁운반
▁107
▁자기는
▁동호
번타자
버리기
▁구멍이
▁늘었다
▁1940
▁세키
▁여자친
▁피안타
▁장점을
▁추종자
▁Sec
▁장소로
▁주도권을
▁연결된
▁부족으로
▁델타
▁열차가
▁느껴진다
▁일격을
▁이과
other
▁스테이지를
발사
▁벨라
▁박사가
▁지극히
▁파워를
오며
▁결승전에서
지점
성인
▁신상
▁펜타
▁인형을
▁Power
▁생존자
▁꽃을
▁우는
▁발현
▁PVP
▁목걸
▁아델
▁받았으며
▁도와주는
▁홍준
▁많았고
▁단원
▁MB
▁출근
주는데
▁사관
▁쏠쏠
지방선거
▁원망
▁파도
강점
▁담임
하였던
몬과
▁뿐이고
▁츠루
▁못지않
▁퉁
▁걸까
▁빠졌다
▁관장
▁런닝
젤레스
▁아니니
▁This
▁삼성전자
엔진
퇴근
▁찌질
가메
감의
▁처한
▁결국에는
창의
▁심장을
▁여성을
▁Sing
▁편한
▁맛있는
▁계획에
▁벌인다
▁비단
▁중이던
▁관계에
▁쓰며
베리아
▁가뜩이나
▁퀘스트가
/30
▁이블
비도
생산
구성
본이
더스트
▁시너지를
▁연상시키는
▁HG
▁모르겠다
▁동갑
▁서열
▁부담을
▁상기한
▁우루과
▁자유의
▁1930
체육관
▁수치는
▁지내고
▁Af
IGHT
▁기피
▁컴퍼
▁외모를
돈을
▁후예
▁전설적인
▁과일
▁대량의
▁덩치가
▁빼고는
▁성대
▁애틀
▁한마디
▁최초수록
▁의학
현실
▁습격을
▁도망치는
이냐
▁클립
측에서
inn
▁연설
▁천지
▁확률을
▁레스
▁차원이
돼지
,6
▁02.
▁거두며
▁결국엔
▁모으고
청의
▁박준
방송을
▁Live
▁다이나
▁발키리
▁설명할
▁이동이
NG
화학
▁승인
▁75%
▁피드
▁시즌의
▁5:
▁비자
▁않은데
▁당첨
▁124
▁이루어지지
▁Life
▁시설을
▁하이브리드
▁따지자
▁의지가
▁신칸센
▁신조
▁후려
▁가슴을
▁아포칼
숨에
▁쏟아져
▁이익을
▁높이는
▁스폰서
법과
▁부진한
▁것들
▁시점이
▁퍼포먼스
▁자유자
버섯
▁사면
BM
의회
▁등장하였다
놓으면
ount
▁예전부터
▁가의
▁미끄러
프터
▁다닌
▁스트레스
춘다
세력
▁죽인다
▁수험
목적
▁카니
▁포커
▁해에
감하게
▁내정
▁왔을
▁국가를
▁아멜
▁지못미
▁BC
▁공격하고
▁fl
▁마디
▁인물의
소환
▁터질
▁just
▁컨셉으로
▁Res
▁무한도전
▁Out
▁받았는데
널드
왔으며
▁활동한
쿠리
▁피치
▁출몰
▁돌려보
▁우츠
▁어딘가
타고
▁목에
▁끼어들
▁시너지
▁프랑크
폭이
▁출고
▁천년
▁이내에
▁가능했다
▁이마저도
개혁
▁포켓몬이
▁이겼다
▁악기
▁대고
▁선조
▁수록되어
▁전국동시
케이션
▁바주
▁들리는
▁달빛
▁사용되고
▁하수인을
AG
버거
▁이끌었다
ony
▁버서커
▁텍사스
에너
이트가
▁위협을
▁스토리에
▁멤버는
슈트
▁주어진다
▁깰
▁용기
▁관해
▁드리블
▁night
▁굵은
▁무기인
▁초보자
▁문제점을
▁남편이
▁태생
▁삭제된
▁위치로
▁대진
▁포맷
▁회사를
▁사실이지만
▁완화
▁장을
▁스완
▁카탈
▁단체로
▁명백한
▁인물을
▁무실점으로
▁격리
▁보직
▁쉽지만
▁연세
▁시간과
▁돌아다니는
▁팜
패의
▁확립
▁영어를
▁1800
▁드라큘
▁인트로
▁멜론
▁살기
▁방호
▁세컨드
▁친구들
▁싸우다가
▁킬을
▁우리를
나오는
철은
▁합류한
▁Music
▁전국동시지방선거
군사
▁대상은
▁신세계
▁무선
▁불륜
▁안동
▁김택
▁비정
▁넘긴
맥을
▁휴가
▁이이
▁엘리자베스
▁단숨에
통에
▁낮게
▁후로
▁리부트
▁손아
▁필드를
▁시스템은
▁무빙
▁불쾌
먹었다
▁tvN
▁프로그램이
▁공모
▁변속
▁플루
링으로
▁마에다
팅이
진다는
피로
▁리코
극장
치다
▁변장
▁맞추어
▁공개한
▁여자는
▁2017.
▁스타트
▁주는데
▁중국이
건물
차고
▁즉각
▁UFC
▁애매하다
▁손목
▁운영체제
Gr
▁보잉
▁액셀
▁가격에
▁법한
오토
▁짙은
카쿠
▁카우
테루
반은
▁넘은
▁리츠
▁유영
▁학생들
ane
▁매운
▁끝내고
▁사일
▁안다
▁드물다
▁what
르바
▁능숙
▁석유
▁안그래도
▁2/3
▁배우고
▁받았으나
▁찌르
ship
.-
▁숭배
▁토네
▁시장에서
▁일체
경험
▁단말
▁쌓인
▁나누는
려다가
▁건물에
▁독립운동
▁복지
▁협조
▁영상의
▁이누야
▁한정판
▁MR
▁순간적으로
▁대왕
▁태극
ENT
▁일러스트를
▁건재
▁보복
▁언급하는
▁덱이
▁좁아
연과
ual
▁밝힌다
아에게
▁수정되었다
클리
▁EMP
바리
선도
▁화상
▁아쉽게
▁채집
기로는
▁처참한
▁열람
▁형이
▁렌즈
있으면
▁이기지
▁시절을
▁트위터에
▁리카
▁반영한
▁시장에
▁어벤져스
▁좋아하지
▁뒤덮
▁라이너
▁부려
탄과
해에
▁예정이었으나
▁GG
▁지날
▁멀쩡히
▁전개를
▁휘말려
쉬의
▁맨시티
방위
▁포니
▁크로아
애가
▁입양
▁내주고
▁현실적으로
▁던지고
▁불러일으
▁센티
▁스커
▁지위를
▁네코
▁없었는데
▁세기
▁콤보가
▁제프
▁한편으로는
▁삼는
▁볼륨
당하지
▁현재까지도
투아
▁질병
▁키쿠
56
절로
행으로
▁1964
▁메일
▁왕족
▁진행하고
클로
▁프랭
▁필연
▁개봉한
▁갈고
▁재임
잖아요
▁자격이
▁롤링
▁타서
▁탄을
▁기록하는
▁빅토리아
▁줬다
▁코마
▁인간형
▁스킵
▁원을
▁질풍
▁멘탈이
▁코바야시
월이
▁스모
▁교수가
▁테니스
▁Gold
▁돌릴
▁동탁
▁유저들을
▁레슨
▁비어
서비스
▁않겠다고
52
▁장점은
▁도요
▁총으로
▁독백
▁떠돌
년차
▁320
ern
특별자치
▁우두머리
▁일당
점과
▁제작에
부에서는
▁말의
▁딱딱
▁레이저를
▁Mod
▁1965
▁표창
▁투수가
▁키즈
▁고유의
▁입으로
▁이야기의
▁에피소드를
▁신작
▁이해하지
▁같고
ecial
▁놀고
구멍
▁담배를
▁동료를
▁감히
▁전에도
▁흔적이
▁데스티니
▁거주하는
▁단역
▁독을
▁팀과
▁무너져
▁림
▁Vo
▁보기에는
▁삶의
▁세상이
▁Lo
▁에일리언
▁VR
▁끈질
▁살이
▁사망하고
▁되어버린다
▁마나가
▁스킬인
▁선택지가
▁Miss
칸의
명이나
▁드레스
충이
라이어
덩이
▁FB
▁굴욕
▁뭔가를
▁기체의
▁타지
▁울고
▁알고보니
▁애를
▁작정하고
구도
류에
▁라비
움의
▁타노
▁후지와
찬이
▁버림
▁슬러
▁먼치킨
적이라는
▁생각으로
▁알렉산더
쪽을
▁미국인
▁230
▁진출한
▁팔라딘
▁공속
▁아니냐고
▁사슴
▁End
▁만나러
▁1944
맞은
▁144
▁OPS
▁벌이고
▁루미
▁징징
어진다
▁다니고
▁케이지
▁딜레이가
십자
회담
▁에버
▁아버지에게
/9
탈출
▁넘기
▁따른다
▁엔딩에서
▁적들에게
샷을
ALL
야에게
▁책정
▁대한항공
▁사기를
▁망했어요
▁만회
▁점으로
▁상금
▁4.0
▁열정
▁휘둘러
▁김형
▁의사가
▁저스티스
▁패키
▁파이트
▁그렇듯이
사자
▁가다
▁무공
▁웃긴
▁유한
차와
▁느리게
▁안좋은
계에서는
렌이
▁주장은
▁싶었지만
타로가
▁권리를
▁대도
▁있었다면
드릭
▁박사의
▁겪는
▁수에
득점을
▁전술을
▁지구로
▁뿐인
아이돌
▁병사들이
인형
▁116
▁불리고
▁대역
▁장원
▁엉뚱한
▁칭호를
▁충청북도
▁설상가상으로
론에
▁추가적인
모니
점도
▁신과
▁반지를
▁이동한다
▁다룬다
▁점프를
▁IDOL
▁스네이크
▁쑥
atale
교로
▁Hy
▁전폭
게임을
▁기소
게리온
▁출연작
03
▁크립
▁이끈
▁연금술
샤가
rop
▁절규
▁선택이
▁호박
▁묶여
▁코다
모자
▁급기
▁세가
▁따지고
▁알리는
▁파악하고
▁이상일
▁마음으로
▁타치바나
귀가
▁망명
▁그립
▁후반에는
▁중국은
소스
▁바뀔
황제
▁교훈
▁용맹
▁거래를
▁구분이
▁세르비아
▁것임을
▁상위항목
나온
▁Femm
▁캐서
장치를
▁가슴이
▁굴욕을
▁승리의
▁어려움을
▁뜻의
▁주사위
▁함대를
▁서킷
▁스콧
▁포켓몬을
▁불려
▁맨유
▁학년
▁엔딩이
▁루피
▁스펙이
▁Che
우니
▁스크래
▁아니었고
는다면
라인을
여름
▁Sy
▁갈린다
▁1920
1%
수아
.99
▁천둥
▁저주받은
▁형님
▁완성된
ision
▁비명
▁쥬얼
ham
즈에게
▁소환된
mania
▁바다의
▁지도를
▁있으니까
▁바꾸어
▁DX
이드의
▁1-1
▁대타로
황이
▁피닉
▁우월한
▁한가운데
세인
▁구석
▁사쿠라이
▁포함해서
▁트러블
번대
▁놓는
▁대격
▁자각
▁수영복
▁주장도
▁김전
▁소서
▁한몫
▁6%
▁내외
▁내전
▁상처가
▁등장하면서
elf
▁이력
▁구입할
패치
▁방과
▁애국
▁테리
▁앉아서
시노
▁런처
▁분량이
자체
IST
공격이
▁공격도
▁슬라이드
연방
▁크라운
결에
데가
책임
▁//
▁미오
▁미유
▁넓게
▁어찌어찌
▁School
▁발광
리조
▁씁
▁춘천
▁대대로
▁주면서
▁타격이
▁세금
▁레코드
▁버스가
▁평론가
▁체력의
▁행적을
▁원정에서
▁똘
트레이
▁01.
▁2,000
터에서
▁문화를
57
▁맞으며
▁부족하다
▁망한
▁샤워
▁퀴즈
▁Rem
▁미도리
송을
▁높다고
▁일제강점
▁잠들
▁조영
▁초래
▁피해는
▁로제
리어스
▁이후부터는
팀인
▁위주
▁내각
라고는
▁배치되어
▁set
▁양보
▁소녀가
트에게
▁호전
▁에어로시티
▁웃고
해한다
▁붉은색
▁내려오는
▁공지사항
감소
갑을
▁모닝
▁오재
▁보너스가
▁측근
▁꼽히는
▁바이크
▁높으신
번호를
▁127
들아
▁한복
▁BT
▁로스앤
▁FemmeF
▁GR
▁간판
▁집합
▁놓치지
▁FemmeFatale
▁이해하기
캐스트
▁변신한
구단
▁의혹을
리카와
ouse
▁불리기도
▁하드코어
FM
▁모친
▁MLB
▁평화를
드립니다
적이라고
▁플레이스테이션
▁모델인
ational
발전
쿠니
편과
▁여자의
▁그렇게까지
킹이
▁반감
▁돕는
▁턴이
▁쓰거나
▁왔다고
▁우연
▁이탈리아의
안과
▁뭐라고
렉트
▁TH
▁되거나
▁맞아도
▁한반
▁상관이
▁밑의
▁포식
▁스팅
▁만큼의
▁일으킬
커니즘
않고
▁걸어가
▁이름에서
▁사이에서도
▁버거
▁운운
▁직속
▁기억해
▁King
▁개발을
▁친구로
row
▁높아졌다
.40
▁간략
▁파우
▁헬기
▁MASTER
ny
갔을
라든가
▁연기한
▁죽었다고
▁일렉트로
▁들러
▁감독과
루스의
▁부품을
성군
▁바그
▁보스인
▁YOU
▁상당하다
▁튜닝
▁타이밍이
▁고리
▁선곡
▁전리
▁don
▁크리스토
▁이것으로
범의
슈퍼
시키려
시키거나
시온
▁보던
▁Cy
▁놓아
▁욕설
▁센서
▁웹사이트
▁지지하는
▁패치에서
▁사이트에서
랜드의
현대
▁싣
찮은
▁워너
아버지
▁높아진다
▁휘두르는
무대
▁소대
▁UC
▁아내를
▁부모님이
▁Di
그와
▁미로
▁반경
▁넘어갔다
▁김희
▁밀집
ORE
▁냉각
▁편이었다
53
기생
▁속박
하려다
▁것까지
▁만들었다고
오닉
크에
▁조조가
▁사정으로
▁미도
▁계약이
▁동계올림픽
받침
▁한지
▁세탁
▁와인
▁기자회
▁삼성전
▁아이들의
▁국산
▁슈가
▁태풍
appy
▁따서
▁반항
리우드
▁대인배
러와
▁결과에
▁루마니아
▁하늘에서
택에
▁남성이
▁이만
▁일쑤
▁무장한
▁존재감을
▁해저
▁어떨
▁폴란
ORM
▁보기도
▁존재는
▁전장에서
inc
기본
▁배에
▁시궁
▁시킨다
▁한국에서도
▁자격을
슬로
▁준비한
▁희귀도
▁빨강
▁도시가
▁정신적으로
▁릴리
▁114
▁댐
▁장신구
▁줄어드는
▁결의
▁파티원
Ch
▁도검
▁홀딩
▁즐겁게
유리
▁덱의
▁사례도
준을
▁ro
▁명인
▁Air
▁발동이
▁에반게리온
▁후인
욱의
잡을
이어서
▁박정희
▁디에
▁주석
▁ab
▁얼핏
▁인질
▁걸맞는
▁마인드
더와
종과
▁깃발
▁빼돌
▁단번에
쳤다고
ness
▁속을
▁곳의
▁인성
점이다
▁이치고
▁지역구
니다가
놓을
▁118
▁오피
▁홈에서
▁쇼트
▁걱정하는
어라
▁퇴출
▁노이즈
▁빅뱅
▁작별
▁태블릿
▁유니폼을
▁보이나
▁역할도
▁무거
개만
▁모범
▁서정
rist
▁명예의
▁혜택을
▁회귀
▁자유자재로
▁반역
▁기운을
▁던전에서
vil
▁콕
▁자잘
▁줄리
▁만나기
▁줘야
▁기체를
▁아리스
▁아침에
▁기타사항
▁그놈
▁임페
▁강화를
▁필라델
▁죽어도
▁4%
▁열등
▁Rec
▁구제
▁출전한
ml
▁등교
▁내어
▁화신
나라가
▁아래는
▁크기의
장까지
▁목표는
보험
▁라라
이라니
▁만드는데
▁범죄를
▁멤버들을
크레
하로
▁경찰의
▁동인지
면허
표는
▁외엔
▁시기를
▁크기를
▁유치원
▁탄생한
퀘어
기구
▁석사
▁유고
▁진상
▁시가지
▁선택하는
▁현실적인
▁미세
▁분배
니스트
▁시설이
▁원자력
▁드라마의
▁드러내는
▁악용
▁선택지
▁세트를
▁직업을
▁직업이
▁웬만하면
▁말장난
▁아이는
▁본편에서
직에
▁거부하고
▁돌아오지
▁Arm
▁주변에서
▁활발한
▁되나
▁한탄
▁머스
▁은퇴를
▁깡패
▁까닭
▁하우
▁문서는
이었다면
▁들어와서
▁대각
▁가난한
▁형식의
▁소모가
▁가능해졌다
융합
▁김대중
▁출연하는
▁크로니클
턴트
▁경찰은
▁바나나
▁상태에서도
▁광선
▁슬래
▁활용해
▁감전
▁리턴
▁EXH
▁올리면
엘라
▁나들
▁프로모션
▁아닙
▁직격
▁위엄을
▁생명력을
▁조항
▁타인의
▁제멋대로
▁하위호환
나르
▁사탕
▁밤이
▁등급이
▁15:00
것과
▁숨은
▁스피어
▁제국을
연승을
▁밧
▁반격을
▁회계
▁Hell
직업
▁이성을
▁풍부한
▁함정에
its
▁중얼
▁마르코
▁발표되었다
▁섀도
▁외래
일부로
▁금발
▁잔혹
▁인챈트
▁했다면
▁노르웨이
두자
▁뭔지
▁착용하고
아에
▁다다
▁MT
▁교향
▁무능
▁11,
▁열렸다
▁분위기는
▁인종차별
▁들어왔다
▁사내
▁기사에
▁들키
▁연수
하십시오
▁시야가
▁검의
▁희귀한
▁팝픈뮤직
우러
▁오클
황의
▁us
▁버젼
▁눈물이
▁데이빗
▁전작에서
오우
▁인구는
일기
▁창업
들이는
▁의문이
▁타락한
▁만들기도
▁BAS
▁앞면
▁여왕의
규칙
▁피고
▁스킬과
▁얄짤
▁정은
류와
▁카부
▁무릎을
▁고를
▁돋보
▁장소가
예선
▁공통점이
ke
▁앨범에
키타
▁죽었을
▁포기한
▁차지한다
적한
분에서
**
▁진동
▁모델링
적일
.70
▁카디
변속
▁대여
메이커
치기를
▁중상을
▁보였던
▁치면서
▁장난을
▁표현하는
지긴
▁술에
▁품은
▁NHK
양은
▁범인이
진영
▁뭐라
▁각성한
▁아내와
▁손꼽히는
▁높았다
▁공포에
▁이기면
▁프랑켄
▁피자
▁이보다
▁사장이
▁순위를
▁어제
▁세월이
▁얼굴은
▁핀란드
▁놀아
▁처분
순으로
▁쏜다
▁자연수
▁주교
▁팔찌
▁환호
▁때문으로
란과
▁6.25
치자
느냐는
▁밭
덕에
▁않으면서
▁사사키
SE
▁확연히
▁틀림
▁사역
▁행보
▁선보인
▁그라운드
▁훅
▁금호
▁전이
▁진성
▁언제든지
▁부추
▁더럽
▁별점
▁얼터
▁경기수
▁연상케
▁요시다
▁유지비
▁말리
▁아들의
▁피하고
수정
▁마리가
▁힘들다는
▁사천왕
▁정신력
▁홈페이지에
괴수
그림
▁애당초
이라든가
▁무겁
▁수행할
▁갇힌
▁꼴을
▁남동
주의적
▁다큐멘터리
▁카리
▁류현
▁것이라며
▁나왔으며
ious
▁야마구치
▁속이
▁자진
▁조금은
▁자연스레
▁자위
▁걸리지
▁만들었고
불이
▁다툼
카에
퍼는
-29
▁복용
▁나온다는
ANC
각으로
과목
만다
▁재즈
그레이
▁선정되었다
▁울려
▁줘서
▁작중에
표기
▁예시로
eath
▁거리는
▁달걀
구경
▁부평
▁손흥
▁판을
▁3.1
▁인가대수
▁빈사
▁Da
▁고산
▁김창
▁날은
▁상용
▁요르
▁beatmania
▁TO
▁황후
놓는다
▁카드에
▁카드와
>,
▁극심한
▁성인이
▁콜라보레이션
▁나름의
▁수수께끼의
시작
▁선거에
▁그런거
▁서민
▁싫은
▁윤석
▁충북
▁피곤
▁스타팅
▁해야한다
▁전전
▁창고
▁붙잡고
▁시인
▁알라
▁Sound
▁찍으면
비나
▁맘에
▁말하기도
▁일본으로
▁살해한
▁패배한다
공장
▁줄어들고
▁클리어가
▁필사적으로
▁거느
▁알아채
▁접어들
▁잭슨
▁노가다
▁확인한
▁조폭
▁직역
▁제목을
움에
▁북구
▁VIP
▁득점자
▁모양을
▁외치며
▁섭외
▁아에
▁제원
▁소설을
▁염두에
▁고도
▁서초
▁갑작스럽게
▁샴
▁SG
▁다단
▁35%
▁경유지
▁구조물
▁대사로
▁부수고
와라
▁다뤄
양으로
▁바다를
▁스칼렛
▁이곳을
드나
▁SL
▁길어서
▁Run
▁쑤
둘러
수입
▁동조
▁칼라
▁획득한
▁예방
스럽고
맛이
▁문구
▁섬을
▁혼인
▁나한테
▁팔고
▁SO
▁볼넷을
▁왕조의
▁프로이센
▁man
▁진행될
▁붙어있다
▁띄게
▁초토
▁장소에서
▁생각도
▁존댓
▁모여서
▁비교할
▁애로우
naver
▁더러
▁어처
▁코드를
▁Yeah
▁입국
play
▁등장하기
▁비싸다
우에
▁든든
▁카레
~11
▁구독자
▁한명이
제르
▁이즈미
▁조수
▁복면
▁그제
▁속삭
기라는
▁값을
▁주가
▁리그의
ivers
▁차량으로
실히
▁승패
▁느껴질
▁유력한
인들에게
삼국
▁대잠
▁지면
▁그쳤다
▁줄었다
▁깁
▁랜턴
▁빠질
▁더한
▁정전
프레스
건과
▁궁수
▁공산당
▁선물로
▁네메
▁분포
▁가는데
▁눈치채고
▁이야기다
▁이해하고
마사
▁정조
▁하네
▁스킬명
▁임창
타르
▁독이
▁제재
▁북한이
몬은
olog
▁출루율
▁치루
▁레나
▁방금
▁승려
▁치뤄
▁1961
▁피처
주의의
▁Elect
▁기본적으로는
▁서술한
▁힐링
▁담당한
▁스탯을
▁메르세
▁육체를
리터
omb
▁동봉
▁퍼시
▁많았지만
▁모티브가
▁노숙
▁받던
▁성명
▁시기는
port
▁점거
계약을
▁괄
▁오징
▁슈퍼스타
분류
핑을
▁최선을
▁말하는데
▁5,000
▁덫
▁공명
▁굴복
▁비명을
▁에도
▁날개가
▁이루어진다
▁RAW
▁공세를
▁바닐라
▁봐선
▁카일
규의
장소
▁부흥
▁구하고
▁여주인공
검이
해주지
▁뜰
▁약해
▁결혼식
▁실패한다
54
투자
프트를
weet
▁Art
▁타면
▁무리를
▁상대식
▁성벽
▁달콤한
리히
▁본거
▁임요
민에게
▁사건사고
일간
▁찬스
▁Bea
▁경고를
방향으로
▁능가하는
▁물량
지금
▁딕
▁깬
▁비해서는
▁보이면서
자들도
▁일으킨다
종료
▁캐슬
▁양산형
▁직업은
▁앞마
▁동물의
▁좋으며
▁스테이터스
예를
▁뒤인
▁액세서
▁위험을
▁선언했다
▁반응도
▁김혜
서에서
▁토탈
▁명목으로
▁벗어나지
▁마음껏
▁도색
▁이동을
▁떠서
경으로
▁하늘에
▁드러낸
de
▁잡아야
▁망토
▁스쿼드
무니
하단
▁라이징
스톰
타우
▁SV
▁왼팔
▁살리기
편집
▁Ke
▁후한
▁주술사
버는
ely
이제
▁라인이
▁맥락
▁하겠다고
▁혼동
▁눈치챈
▁멈추지
마켓
▁되었기
죽을
▁보답
▁코가
질과
곡인
▁경쟁을
▁사건과
▁재산을
▁천주교
▁하남
▁음주
스페
▁세계는
월을
▁미인
▁학대
▁미즈키
연패를
버릇
▁것의
▁동로마
▁한번씩
▁루프
▁옆의
스터의
장이다
▁탈옥
▁이러면
▁전투로
▁마야
▁던진다
▁기차
▁덮어
▁0.1
▁파워업
▁출퇴근
▁성균
▁시작되는
▁죄수
▁쓰는데
▁인기는
하든
▁제리
▁일으켰다
▁찍힌
거린다
승으로
▁알렸다
▁(
평이
/19
▁로딩
▁축에
▁대적
▁장학
이기는
▁달리고
▁의미심
▁디시인사이드
06
궁을
대며
카츠
▁내서
디자인
▁철저한
▁후속작인
▁수락
▁질러
연구소
▁러셀
▁기억하고
▁헌데
▁대도시
▁담당했다
토끼
▁애정을
▁박격
ren
▁공습
▁기성
▁가족의
▁경과
공영
리어가
▁나날
▁인터뷰에
나시
용과
▁소극
운동을
▁Cat
▁짝이
엘을
▁포크
▁양호
▁구급
▁기술배치
▁113
▁포즈
▁미지수
리케이션
▁마을로
▁쉐도우
▁일개
급한
룡을
▁당당히
▁분데스
▁즐기
▁일본과
▁팍
▁맺어
▁낮추
▁1600
▁some
~40
▁어퍼
▁줄곧
▁만큼은
▁숏
▁변명
▁줄일
▁시장이
▁파괴된
▁구간에서
▁젝
▁알았다
▁시구
▁호리
장이나
▁밀리지
▁생기면
▁충분하다
▁탈락했다
행에
▁요우
▁리모델
버스로
▁노선의
▁방언
▁불분
▁넵
▁베기
▁아카네
경영
▁무장이
명칭
▁프로스트
▁2016.
▁무엇이
▁마누
▁토비
세기에
RAM
▁Ang
▁다이노
▁식이다
▁Order
급에
▁제레
브와
확률로
▁인류가
버리면서
▁사모
▁신축
▁전동
▁생산하는
IF
▁무게가
번길
플을
ient
▁피해자가
▁사용하기도
▁단자
▁깠
▁배경은
▁속도와
▁라파
▁되었습니다
▁개화
▁산악
▁정동
▁미니언
▁업적을
▁좋았던
▁Skill
타에게
▁만났다
▁묘사되는
uch
다닌다
▁디비전
▁무작위로
▁참여하는
▁재난
▁별명으로
▁맺은
▁신성한
▁뎀
▁덥
▁OCG
▁대표로
▁테니까
▁설치한
▁없었기에
▁없이는
▁시작하며
▁이화
▁최장
▁밸런스를
▁해결하기
두근
자연
▁가솔
▁김세
▁레스토랑
▁가능해진다
▁뾰
▁넓고
▁협회
받으며
▁부하들을
▁수행하는
▁TCG
▁나가면
▁지나가던
▁딸의
▁양상
▁빚을
▁모드는
▁서로가
▁걷는
▁전태
▁만화의
코에
▁시네마틱
경비
곡동
▁링크를
▁김정은
▁꼬리를
▁배로
▁출연진
▁확정된
▁쓸만하다
주거나
▁중국과
▁동료들과
▁밤을
▁밴픽
▁사랑은
프로그램
▁미스터리
▁처녀
▁입에서
으라는
▁성격도
▁타고난
▁관련하여
▁리마스터
거진
▁원한
▁수익을
▁가샤
▁설탕
▁패를
▁달성한
여자고등학교
▁몸매
▁중화민국
▁영미
▁신들의
▁사이보그
▁영동
▁정크
▁흘리며
▁발견할
▁밝히고
▁불안정한
▁싶어하는
기엔
▁돌아서
▁성추
▁슬리
중에는
▁일환으로
블러
▁시호
▁입어
▁대화가
▁SHOW
▁장면으로
▁미션이
▁이르렀다
▁타게
▁미스테
▁윈스턴
▁목동
▁가마
▁손바닥
▁무너진
▁안에는
▁일원으로
▁Dragon
▁대타
▁초강
▁가상의
▁숫자를
▁미라클
▁의식이
▁등장해서
▁호구
때로
연하게
▁영향력
▁거리에서
▁이야기로
▁페인
▁주에
=,
▁강대
▁패미
▁전방으로
이요
▁사임
,2
▁CON
▁돌아가고
▁라우
▁일격에
▁넨
태의
▁염려
▁정명
▁심사위원
▁귀를
▁준비가
▁이문
무와
▁Str
▁버닝
▁여인
▁인물들
▁Battle
▁속공
▁명칭으로
▁사용했던
▁우리들의
▁컨트롤이
▁어쌔신
▁증거가
ful
▁길가메
▁코끼리
▁복싱
▁쓰자
▁표출
▁루머가
▁빡빡
이트의
▁달리기
메르
피해를
측은
08
개까지
▁떨어트
▁주위의
▁맹활약
지오
bit
▁아니나
▁준비해
▁쓸데없는
▁결정되었다
메의
▁대박
▁동참
▁종전
▁눈치를
▁변질
▁존스
▁패밀
▁문화가
탄으로
▁맞아서
▁문화재
▁세계적으로
폭력
▁사극
▁보통의
▁듀엣
부분이
ump
▁박해
▁토지
▁경희
▁군데
▁수강
▁드러낸다
옷을
▁서적
▁신념
▁아다
▁2-1
▁신뢰를
▁과거가
▁기량을
▁수명이
▁점수는
▁시작하게
▁학술
58
▁생몰
▁지각
▁사이타마
▁고종
▁섹시
/25
베르트
▁비타
▁파스
나라를
▁떠나게
▁스트레스를
▁배송
산에서
했지
▁마법에
▁플레이로
▁리사
▁랜서
▁성경
▁쓰러진다
▁편에서는
▁거슬
▁송출
▁전도
▁평가받는
티에
▁6000
컨대
▁광복
▁CCTV
▁로스앤젤레스
▁총괄
▁출시한
▁휴식을
▁매칭
▁포토
▁152
▁첫사랑
▁하였으며
▁world
▁빈도가
췄다
▁권총을
▁설명한다
▁수단으로
게시
▁동생이
▁병원에서
범을
추를
▁명령에
▁유로파
▁일본식
란에
▁AE
▁OB
▁농민
▁러쉬
▁티가
▁캐리어
▁수준이라
▁조심해야
니트
▁커먼
는지를
▁대패
거니와
▁대답한다
▁버리
▁케인
▁5~6
▁그걸로
노코
▁간선
▁선장
▁오즈
애나
담당
▁밀린다
▁소환해
총장
▁해를
능력은
부리그
▁깔끔한
▁모형
▁7.6
▁발리
갔다가
▁껄
▁가든
▁되어있는
▁우투우타
▁컨텐츠를
▁핸드폰
빠진
▁걸리
▁변함
당하며
퀘스트
▁시기의
▁애드
▁환경에서
▁문구가
▁소환수
▁발렌타인
발매
▁아홉
▁쪼개
▁편인
▁공세
▁전학
▁게임과
▁초사이어
▁욱
▁박병
br
▁일러스트는
▁캡콤
▁마비노
▁친구의
전력
하드
종류
▁중국인
▁문과
행위를
▁구멍을
▁승리한다
▁무단
▁밟고
▁어둡
▁시리즈로
▁부처
▁촬영을
▁예외적으로
년엔
tra
▁월등
▁스케줄
▁분데스리가
▁먹튀
▁168
▁많아졌다
족과
▁두목
▁관련해서
▁콜롬비아
▁구르
▁압살
▁리쿠
▁박주
▁식스
▁찢어
▁행사를
▁방해하는
▁ar
▁되돌려
▁이노우에
들었다
▁문제와
▁몸은
▁자쿠
▁큐베
▁요구를
▁픽업
▁건물은
▁1946
▁With
▁이계
▁전교
▁280
▁씁쓸
▁볼텍스
▁불렸다
▁한국어로
▁뤼
▁숀
▁설명한
png
▁파인
▁커비
▁경찰청
▁삼진으로
▁박세
▁보이자
▁시작하자
▁활을
물이다
▁계속되는
남자
▁남미
▁대행
▁미르
▁구해준
▁플레이에
▁진술
▁진영의
▁동생을
개념
구슬
▁귀찮은
▁정의의
▁열기
▁전자기
복의
▁본디
▁아르메
▁견제를
▁도쿠가와
▁꼭두
▁축구를
▁프로그램의
표로
▁매력을
승이
로지
레와
좌석
▁적발
만원을
▁투표율
▁보살
▁주루
일반
▁178
▁오인
▁중심의
▁저상
분만에
▁연금술사
vent
▁좀처럼
▁못하면서
급인
▁영토를
▁편의점
▁프로젝트를
▁성능도
▁입학식
▁방화
▁투하
법원
할수록
▁토로
▁유니온
▁하도록
▁슈퍼아머
▁이펙트가
▁쿠바
▁총에
만하다
▁수평
▁박힌
▁활동에
▁키르
▁경매
▁조종사
▁강행
▁지배하는
신한
▁가문이
▁알로
에나
▁무협
평균
▁남겼
▁베가
▁이온
▁제로의
▁증거를
▁1954
폭풍
▁쓸어
▁달려가
▁지었다
▁앞에서는
하냐
▁뷰티
▁일가
▁키운
▁PSP
▁작전에
렬하게
▁제이슨
▁현실에서
▁아울러
▁키스를
▁이용한다
▁성에
▁인근에
▁슬레이어
ATION
▁날아간다
▁뭐고
▁때로는
▁취하고
▁다이노스
+3
▁맥도
▁여겼
▁학문
자치단체
▁시온
▁못한다고
LD
오늘
▁이상할
▁타카시
운전
▁데는
▁일화
▁채굴
▁윤종
▁수라
▁초회
선발
▁발음은
▁아닌지
▁지어진
▁텔레포트
▁아르바이트
▁실업
▁피라미
▁꿈이
▁프로그래밍
페어
비언
▁개판
▁구장
▁크기는
▁벌여
▁화약
▁줄이고
▁초창기에는
Fi
ift
부분을
▁라이드
▁중심이
▁봤다
▁아틀레
▁길은
경기가
▁싶었던
마인
▁스파크
▁투수로
▁분야에서
잡기
▁CT
야하는
▁발견한다
집은
▁지대
카드가
▁발매국가
▁첩보
억원
▁광범위
▁근거가
▁느낀다
▁메이플스토리
▁양현
되기에
▁단어는
자매
▁송병
스와의
▁난투
▁느긋
▁바쁘
▁통보
edia
▁내려온
▁지상파
▁필요없
09
▁대대적인
▁릴리스
▁교통사
노키
확인
▁정립
▁어지간히
▁마미
스탯
▁다르고
▁사회에서
▁동래
▁여신의
자라
bps
▁도모
▁타니
프라이즈
▁권리
▁죽자
▁놓았다
▁마도카
▁불쌍한
▁테스트를
}{
덕후
르노
▁던질
▁불로
▁빼앗긴
▁종족의
▁펼치는
▁라이센스
▁따지자면
tv
▁IG
▁짐을
▁카오루
▁쩔
렸기
▁변했다
▁운영이
▁날아오는
▁성지
▁까였다
럭스
▁게릴라
▁다름없다
▁역은
스터를
▁오마주
son
▁예상대로
동원
▁if
사항이
▁내야수
구만
-26
▁박민
▁짧다
▁장비는
너와
▁꾸미
▁교내
▁데려온
탑을
▁터진다
▁지칭하는
▁행방불명
끝에
▁계곡
▁카케
버스의
▁벌였다
자리에
▁누군가를
윽고
차트
▁어중간
▁
이
다
.
는
에
가
의
로
하
을
지
고
,
기
서
한
도
1
리
0
스
를
어
사
은
시
아
나
인
2
라
으
대
자
수
있
게
그
만
해
전
들
일
정
보
면
상
마
장
부
주
3
드
과
트
제
되
우
적
성
e
오
니
었
5
와
-
공
미
신
모
것
4
데
여
소
했
유
무
위
구
동
비
9
중
문
타
치
경
a
원
진
거
터
년
레
국
화
선
용
때
며
6
o
8
'
7
카
히
조
:
i
러
당
후
명
세
력
t
간
n
r
없
내
개
버
작
된
연
등
야
실
할
생
방
바
격
르
려
안
영
계
단
크
차
발
프
요
반
체
역
물
던
않
재
S
월
s
관
분
파
회
키
노
더
점
말
"
운
교
까
본
A
속
학
음
포
래
/
l
피
행
코
건
저
능
호
임
식
토
루
강
C
두
군
m
입
통
번
결
초
각
불
d
출
h
배
였
종
매
즈
현
T
디
M
승
처
P
최
준
티
함
같
남
메
E
설
산
직
u
른
형
린
감
브
태
받
심
B
판
난
편
!
D
특
추
많
투
c
급
달
양
람
금
패
알
외
았
습
테
예
온
약
표
민
I
L
업
살
R
법
언
록
런
못
플
네
든
O
목
너
합
G
복
F
걸
돌
g
워
병
N
y
좋
권
평
올
막
천
황
%
날
름
독
따
박
술
란
집
변
론
절
참
청
p
애
머
존
근
김
또
울
캐
질
쿠
왕
필
션
K
확
별
환
활
페
츠
베
순
f
k
항
죽
쓰
?
열
악
~
V
+
석
망
블
팀
H
커
탄
져
향
맞
류
랑
클
증
느
족
잘
v
친
량
곡
담
릭
광
잡
엔
볼
킬
총
듯
료
케
퍼
손
품
송
효
럼
먹
글
폭
녀
뒤
탈
련
범
백
b
쪽
접
긴
령
창
w
높
완
길
졌
색
갈
U
께
얼
새
벨
극
#
검
누
X
W
혼
철
힘
충
벌
밀
채
줄
움
렇
겠
빠
몬
겨
즌
락
림
끝
삼
귀
험
골
괴
닌
슬
북
왔
렸
슈
득
쳐
립
넘
싸
희
육
취
견
랜
착
링
틀
엄
혀
눈
택
앞
곳
축
규
냥
턴
맨
째
놓
덕
엘
템
냐
허
및
]
될
큰
쟁
[
늘
찾
널
릴
칭
붙
팬
책
찬
봉
응
갑
므
징
몰
첫
침
률
먼
떨
얻
끼
뿐
둘
측
J
x
율
벤
잠
획
암
굴
곤
센
큼
풀
헤
좀
쉬
킨
몇
억
짜
팔
훈
Y
찰
켜
압
밖
답
혹
협
풍
씨
홍
써
럽
싶
몸
떠
즉
궁
갔
논
&
님
빌
났
염
휘
벽
례
밝
묘
닛
딜
뉴
돈
넣
퇴
슷
탑
칼
쉽
슨
숙
컨
컬
홈
웃
빈
익
낮
콘
액
층
깨
낸
샤
쓸
맡
봐
앙
뛰
찍
렌
끌
웅
윤
옥
델
웨
략
갖
꾸
딩
킹
멤
폐
팅
멸
죄
욕
닝
잔
싱
롤
멀
숨
좌
놀
쇼
롯
빨
<
솔
씩
덤
욱
짓
픽
텐
뜨
빛
콜
됐
켓
흑
칸
꽤
=
념
뮤
낙
힌
듣
랙
척
폰
농
혈
뜻
칠
왜
객
맥
앨
헌
흥
맹
렉
섬
겼
Z
냈
닉
푸
듀
랭
큐
휴
롭
빼
닥
십
폴
룡
z
끔
튼
램
탁
떤
혁
맵
럭
흔
홀
찌
넷
쿨
균
죠
뽑
혜
멘
맛
빙
톤
땅
튜
렵
컴
텔
뀌
컵
짝
떻
녹
꽃
뢰
굉
갤
딱
탐
뭐
씬
콤
딸
둔
챔
퀘
졸
뷰
덱
힐
팩
잃
밤
털
밥
젠
셀
밍
흡
헬
옷
쳤
찮
흐
탕
핵
꼬
믹
*
펜
즐
춘
쓴
윈
릿
몽
웠
셔
젤
꿈
돼
밴
봇
쌍
둥
뷔
룹
줬
삭
혔
꺼
줘
겐
틴
)
놈
쿄
뇌
엑
펼
묻
탱
켄
Q
덴
믿
똑
짐
옆
깔
납
핑
켰
엇
얘
랐
싫
괜
랄
섭
롱
훨
{
낌
옵
잉
핀
럴
퓨
}
읽
탓
앤
낼
칙
춰
캠
랍
곧
빅
벗
콩
꾼
셈
봤
>
짧
굳
촌
끊
틱
멜
j
둠
붕
덜
폼
펙
룬
끄
쥬
쇄
앗
튀
셋
륙
흘
닐
냉
렀
뒷
셉
즘
촉
젝
넓
첩
렬
쁘
겁
딘
덩
댄
븐
떡
_
늦
쌓
셜
겸
쇠
샷
픈
빵
쏘
쯤
깊
촬
깝
왼
펠
뿌
틸
텍
값
잇
컷
뭔
밑
랫
쫓
쥐
퀴
;
융
웹
묵
꼭
옛
랩
슴
앉
렛
흉
띄
멋
깐
밸
걱
붉
뻔
멍
겪
엽
뚫
엠
껴
옹
캡
캔
넥
셰
숲
헨
룰
잭
옮
섯
꼽
럿
춤
쁜
톰
텀
겹
톨
톱
낫
잖
웬
녕
얀
섞
잊
듬
q
쾌
킥
뜬
렐
숫
윙
뱀
꼴
혐
뱅
챙
틈
댓
멈
갱
닫
엉
몹
젊
윌
팡
읍
썼
펀
깃
닮
벼
탯
맺
렘
핸
궤
떼
짤
넌
끈
훌
꿔
봄
횟
툰
쩔
쿼
뤄
샌
빗
됨
륜
짱
빔
묶
롬
갓
좁
싼
숭
깎
곰
꿀
켈
탠
퀄
뀐
첨
밟
츄
렙
룩
낭
륭
룸
삽
삶
덮
쩌
렴
릉
곽
눌
빡
넬
뉘
둑
쏟
셨
릇
랬
챠
|
닿
팝
늑
샘
첼
흰
땐
렁
낚
맘
긍
앵
퀸
낳
팽
겟
윗
됩
섹
뼈
껏
섰
녔
쨌
넉
뚜
톡
걷
썬
얄
뜩
킷
핏
뭉
덧
툴
훔
슛
쟈
@
낀
딴
\
쩡
닭
곱
삐
펴
챕
꺾
뚱
썩
핫
흠
뜯
엣
앱
쭉
햄
멕
왈
횡
냄
겉
왠
펫
뻐
벅
쉐
쏠
썰
뿔
웰
$
펑
엮
훗
깜
줌
찔
쉴
낄
챌
잦
똥
뱃
턱
띠
돕
펄
뿜
녁
뺏
곁
꽂
넨
닷
긋
ㅋ
볍
딕
돋
깡
챈
듭
훼
쩍
섀
쏴
뚝
갇
뭘
칩
맷
딧
탭
싹
헐
뮬
눠
뎀
씹
놔
빚
쵸
밋
괄
잎
헛
멧
놨
릎
밭
힙
꼼
깥
듈
찢
엿
팟
킴
몫
푼
펌
튕
둬
겔
뒀
엎
슐
킵
컸
돔
붓
굿
텝
벙
딪
옴
뽀
쿤
캣
줍
밌
씌
휩
퉁
픔
옳
풋
솜
콧
쌀
벳
냅
뻗
흙
늬
캘
흩
텟
꼈
툭
껍
벡
헝
휠
툼
ㅣ
콥
샵
첸
팍
뱉
붐
팁
튬
땡
갯
쏜
캄
뻥
샬
쪼
늄
쑤
꿰
솟
뭇
췄
끓
굵
갚
칫
쿵
뤼
굽
궐
꽉
햇
끗
늙
헷
콕
귄
쯔
볶
젖
귤
앰
옐
썸
얽
큘
쫄
얹
깽
셸
퀵
캇
륨
쨩
츤
ㅇ
씀
꿨
퍽
젬
긁
뮌
숴
쫒
넛
겜
짙
팰
젼
콰
슌
닦
샐
짖
뇨
눕
왓
랴
잼
탬
펭
맙
(
짚
웜
홋
댈
랏
뻘
꽁
텨
잣
탔
삿
팜
홉
댐
렷
떴
헥
얇
ㅡ
윽
샹
쑥
앓
튠
뽕
맑
젯
샀
얌
욘
씻
뉜
밈
옌
ㄷ
뤘
짬
꿉
땀
짠
낯
텅
댔
늪
퐁
굶
궈
뺨
윕
뜰
쁨
젓
벚
푹
껄
딥
꾀
캉
껑
갸
숍
똘
^
쌔
쥰
깁
샨
꿇
뜸
밧
컫
뺀
꽝
쎄
닙
뛴
걀
맴
낡
싯
쉘
쐐
룽
륵
뽐
덥
릅
`
ㅎ
룻
떄
쭈
찐
웍
ㄱ
ㅅ
숀
쌈
얕
훅
핍
폿
덫
탤
찜
멩
굼
윅
벵
ㅠ
깍
샴
ㄴ
숏
땜
깰
댕
쩐
깬
뀔
빽
씁
둡
쥔
왑
뛸
챘
훤
돗
뎌
싣
넵
뾰
뫼
ㄹ
썹
뚤
깠
꿍
왁
촛
뺑
캬
쌩
눅
캅
놉
ㅈ
ㅁ
팻
늠
맏
뎅
갭
꾹
띈
좆
퀑
퀀
켠
췌
뭣
뻑
쉔
찼
괘
쉰
랠
낱
꿋
잿
찝
솥
덟
칵
ㅂ
딛
얏
괭
즙
됬
짊
잽
빴
멱
읊
빤
핌
껌
댁
셧
뷸
슘
팥
쥴
띵
렝
섣
엥
딤
얗
켐
꼰
콴
얍
츳
랗
힛
뭄
톳
쁠
뿅
퀼
뇽
눔
팸
셴
츈
찻
썽
뮐
쿡
깅
궂
쏙
폄
햐
닳
옅
쳇
짭
횃
샛
씽
뱌
쑨
믈
뎃
쟤
뎁
윳
갉
걔
쿰
넴
곶
꺽
톈
츰
펩
쟝
컥
핥
귓
쾅
솝
봅
찡
땄
춥
촘
씰
놋
헴
앳
맣
숄
숟
헉
넋
텃
땠
뮈
걍
녜
쉼
ㅊ
숱
끽
슝
띤
팎
컹
쑹
휙
뺐
팠
텼
갬
쐈
쌌
웁
ㅌ
춧
튤
맬
떳
쎈
ㅏ
쌤
찹
핼
돛
ㅍ
엡
녘
촐
캥
쾰
삑
뵈
텁
쾨
욤
뒹
엌
윔
뇰
줏
잰
뼛
밉
웡
즛
깼
꺄
눴
듦
냠
쓱
뺄
뿍
딨
튄
펍
쥘
듐
륀
듄
갛
삥
볕
퓌
갠
폈
ㅜ
쟌
휼
힉
쫙
묠
롄
뻣
짰
숯
볐
꿎
잤
퓰
쪄
뗀
뵙
쬐
뻤
쭤
뗄
멥
욧
쫀
끙
댑
쨋
긱
큭
훑
훙
슥
괌
챗
넝
낑
욜
홧
샅
귈
뀨
첵
낵
몄
뿡
뵤
먀
슭
앴
닻
쭐
쇳
꽈
눗
촨
텡
챤
ㄲ
헹
츨
ㅆ
겅
벰
펨
빕
쫑
늉
껐
ㅉ
땋
켤
힝
꿩
쏭
뀜
ㅓ
쿈
퓸
ㅗ
냇
튈
죤
쿱
돤
틋
샥
닢
랖
ㅔ
묀
쉈
좡
셌
탉
빰
뗏
삘
횬
냔
웸
딫
햅
팼
땔
씸
띌
킁
깻
맸
뷜
긔
좇
쭝
뭍
엾
쩜
ㅐ
쿳
넙
숑
칰
궜
넸
뵐
읏
윷
깟
멎
빳
쩝
뮴
굇
혓
뺌
쑈
붑
쌘
쇤
냑
떵
헵
콸
윾
큥
꼿
쭘
뜀
뗐
몆
쉿
볏
쪘
쨍
캑
훠
뮨
찧
뒈
죗
봬
믄
튿
웩
셍
춋
ㄸ
짢
옙
흄
ㅑ
셩
젭
꽥
ㅃ
둣
껀
쐬
챰
뤽
쳉
쌉
츙
꼐
윰
욥
챳
슉
썻
헀
젔
옭
짹
띔
썅
빻
댜
뎠
쌰
콱
햏
뻬
젋
촙
멓
틔
믐
띨
슼
쮸
큅
맟
휑
됭
볜
짦
퍄
쩨
넒
뜷
잴
넜
뎬
ㅕ
펐
탰
쨰
옻
쯧
굣
뽈
냘
ㅢ
륄
룀
곪
샙
솎
ㅛ
ㅟ
돡
흣
뺴
롸
ㅚ
잌
ㅖ
갗
탸
엷
뱁
옉
뽁
닼
넹
큔
붇
ㅄ
섕
솩
겡
쨔
ㅒ
쁩
푀
뼉
얜
뭥
휜
옇
픠
ㅞ
텄
햣
겋
곯
꺅
팃
쫌
슾
휀
뫄
ㅙ
켁
뎐
퉈
왐
ㅝ
핳
벛
묽
솅
뉠
ㅘ
궨
앜
쾡
뢴
뭡
묜
돠
죌
퉜
췬
츔
ㄳ
맢
쇽
랸
쳄
닯
밎
퉤
떫
ㄺ
꽐
쌕
졋
챵
줴
춉
곗
앍
뚠
묄
겄
쳅
큄
퐈
됴
왱
겍
뉵
벞
ㄵ
땃
칡
ㄼ
눙
홑
흭
뀝
떽
ㅀ
ㄽ
ㄶ
퀜
ㄾ
ㄿ
쉑
맆
겊
갰
밞
껸
ㄻ
꺠
꿏
쒀
쉭
켕
킼
톄
삵
푈
뷘
삯
퐝
캰
똬
옼
읭
좔
괵
졍
촤
븅
뼘
퇘
샾
똠
읜
뎨
샜
큠
큿
헙
귯
묭
졔
푯
앎
웻
븀
낍
섶
뷁
헣
뷴
읆
팹
벱
풉
홱
쀼
훕
궃
켑
횽
갹
깄
븨
돚
귐
쳔
첬
쏨
컁
꽹
꾐
셤
젱
뤠
햘
홰
걘
뒬
겻
엊
찟
듸
뵘
솀
큽
늅
솁
삔
쏩
챱
쟀
왘
좃
괸
룔
볘
퀠
훍
촥
쒸
묏
솽
웽
툽
멬
쭙
훵
믓
녠
쎌
캤
씐
녈
빱
먄
땁
붸
쨉
믜
솬
좍
숌
뵌
튐
픕
쫘
롈
쟨
휭
쒔
읺
푱
솨
춈
몯
믕
뾱
렜
쳬
섐
왝
푄
쩄
헸
늡
짼
핰
끅
됸
읇
뒴
낏
폽
랼
섥
횔
뉼
몐
뱐
솦
휨
뗌
롹
뽄
췐
흴
헿
밣
큣
툇
뭅
웤
땟
죵
겆
삣
쪙
퀭
껫
툐
묫
뱡
옘
핡
슙
앏
멨
옯
낟
낢
곬
찿
릐
셕
꼇
쬔
뙤
쉥
캎
똔
삡
춍
튽
뻇
쬬
흫
툿
녓
벋
쥠
낰
욀
즤
젹
쯩
듕
럇
맻
웟
됫
숩
앟
줫
꿴
쟛
뎡
맠
뉨
곂
싀
휄
밷
뗴
쨜
찣
큇
귿
벧
쭌
떈
륌
캼
햝
쟘
쨘
퓔
촹
퓽
몌
끕
뜹
쉠
긷
뗑
뙇
흝
먕
뱟
숔
쨀
큡
쳰
꽌
떙
엪
쵼
냣
솓
짯
훓
켯
퓬
횻
핬
깸
눞
왤
봣
섈
휫
쎘
쫗
퓐
횐
뇬
덬
헠
귁
뢸
긺
댱
씅
뀽
섄
쥿
궉
햔
깈
떰
웝
읖
좨
텻
뭬
뽜
솃
풔
뼝
뵹
읎
쨈
쳥
녤
쟉
쳣
싴
섦
앚
똣
뚥
쑴
옾
붜
밐
졀
펏
걼
듁
땍
츌
쿙
셱
꿘
먐
묾
읗
갼
앝
펰
홓
짇
짫
룅
쎼
뚯
멂
섵
흽
힣
씼
옜
읔
곘
슁
윱
캿
퉷
훝
휸
꺵
껨
끠
눝
뺘
쏼
틉
혠
눼
띡
븝
쎔
졈
닠
랲
뷕
빋
덪
맕
쿽
뜽
띱
챨
뱍
엳
튱
팤
뚧
봙
삷
솊
죈
큉
틍
늣
샄
읕
컽
튭
핲
꾿
썪
띰
벴
쟙
쳘
뿝
쑬
몪
슻
쎾
돝
떱
줜
뇸
쌨
즁
쬘
캪
퍅
걲
굥
욬
꾜
넼
풂
핧
봑
얶
콯
덷
뎍
얠
욍
닺
륍
맫
몃
볓
븟
칯
늒
뜌
쓔
얆
캭
괼
귬
껜
츼
뿟
쥑
췍
킅
햑
꿧
늴
츕
엏
욺
졷
쮜
툠
걋
륫
엙
웦
읶
츗
캌
햤
깹
덞
몀
뺸
읒
딮
뜁
륑
쏫
쐰
얔
죔
괞
꺨
뵨
뷧
쉣
쒜
앺
읻
킄
겝
깉
꼳
녑
뱄
뻉
쳑
춫
룁
븜
쓩
엶
쟐
틑
꿸
뗘
셒
쐴
칲
텬
녯
뉸
뙈
븍
읷
쯋
톩
뎊
뺙
옝
쵤
켬
톼
뭏
믾
삠
앖
챡
촵
끎
덖
뚸
몿
뺩
뻰
솰
쉅
쵹
킈
틩
혤
흗
갞
맜
뮻
쌥
쐇
욌
읫
잆
좝
켚
넗
됏
뒨
듧
룟
얐
쭁
훽
귑
넖
뼤
앋
읃
캴
핱
됄
왇
좐
쩬
콬
퓩
겯
뚀
붱
븡
뺵
쎠
엤
읅
졘
죙
죡
탶
뉩
롼
룝
얉
잍
긇
땨
쁑
숮
싈
쌋
쎅
쑝
졉
쯕
굷
덯
뎜
룐
싿
쥭
췃
췩
퐄
궆
돐
롮
뷀
빝
뺭
쌐
썡
씡
짋
픅
뇩
릍
봊
귱
밪
섴
쏸
앀
엨
곈
굄
긓
꾄
넢
놘
놧
믌
벜
뻡
읠
캢
걜
둟
랔
롷
먈
죳
쥼
챦
쾀
뚬
롶
먁
멉
뽝
앧
죨
쯥
쳌
컾
켔
푝
껭
덛
뚭
럄
릏
묙
뱔
봘
윶
읋
쳡
췰
켸
퇵
픗
걺
뀩
늗
돨
밨
옃
욹
쨕
쾍
퀫
툥
곷
괍
껒
넀
댸
딲
뻴
셥
쌜
썖
욷
쥣
쾬
텩
퇼
긑
냨
냬
뇐
쀍
쇨
왬
읓
잏
쮀
츅
텰
톺
퇀
퍈
휏
곌
깩
닜
띁
샼
얬
엃
줭
챃
햡
홥
긜
끉
낛
냡
냤
뇻
럐
뢔
벹
뵀
븥
뺍
솧
슽
쟎
쵀
쵱
칬
턍
퇸
픞
햬
곻
볫
섁
얺
탹
핟
갂
궬
댠
둉
뫃
벫
쉡
슶
옿
웆
푠
핓
횝
훡
휵
긘
뀰
뛔
럅
롑
맀
맽
봔
븓
싑
썌
얙
엹
쨤
쩰
쪠
쫏
쯰
튁
튝
퐌
픙
훚
놰
덨
돇
딍
띕
롓
볻
뵬
붗
뻩
샇
쏀
쑵
앆
얖
얫
잋
쩠
쫍
쿸
탼
팖
햠
갊
굔
꺆
꺗
꺘
껠
늧
댤
됀
딋
랕
륏
뮹
믖
볠
봥
븰
섧
싁
쐉
옺
줸
짘
탙
텤
퉨
튑
팊
팏
횅
힜
궝
긿
넊
돎
랃
믁
븃
뽓
싄
쏵
얊
얭
엵
윜
젧
쩃
찦
틊

깆
듥
맃
묷
삻
왯
챂
춀
캍
켱
쾃
퀌
턀
텦
톸
펔
퐞
푕
힠
괏
껶
꾈
뀀
놜
덭
떔
떪
뜐
뢍
볌
뵜
붏
붘
빧
뽂
쀠
삳
셑
슳
앒
왚
욿
웈
잨
쥡
쩻
펲
핣
곹
굘
긤
긧
긩
낪
눋
됌
땝
랋
롣
뢱
먺
뭠
밫
쁙
샏
싰
쏱
옂
옄
욯
잗
잛
좂
쥤
쥽
쵝
킾
헑
홇
훟
굻
긏
꺙
뀠
끟
닽
뒥
듫
듼
땽
똟
릳
벍
볃
봍
붴
빍
뻠
뿨
쎆
쎕
앛
엫
윘
젴
줗
짔
짞
텹
폔
퐐
풰
퓻
홤
갘
귕
껼
끵
돟
둗
똏
랟
뤌
뤤
먿
뾸
솸
쒯
앶
쟬
즑
췻
켙
콦
툑
헼
혬
훰
흒
뀬
녂
뇔
닁
뎔
럈
룍
륩
륻
밊
밬
뱝
붯
빟
뻿
샆
샊
쑌
씜
얋
욋
잫
쪾
쯱
쳠
쳴
컄
켭
홐
흿
힁
걈
겞
긂
꼉
딀
떢
룄
맊
멌
뫌
봌
붹
삤
숸
쓿
웄
웱
젛
쯉
챼
칮
컼
쾩
퉆
팦
푿
햛
횸
훛
껩
뀄
늫
닾
돞
떘
뗼
똭
뚦
렿
뤈
릘
맄
맇
맍
먜
몔
뫙
밯
벐
붊
븕
뺼
뻭
쀏
삧
솹
숼
쉨
쌴
쎗
씃
엍
옫
왹
윁
읉
잪
젏
좄
죰
짥
짪
쫜
찯
컶
켘
퀧
텽
툉
핮
햌
헜
횩
횰
흇
흨
곀
곸
깺
꺔
꾱
꿕
뀡
끆
늇
덣
뎝
됍
둴
듵
떯
뜅
띳
랰
렏
렡
렫
륮
밦
뱜
볔
봡
빢
쀳
쁌
숳
슢
싕
싢
싾
쌱
쎙
쏳
쐑
쒕
얃
엗
옧
쟂
쫭
췤
쿗
퉅
갅
곺
궷
꺤
놂
닑
댇
덍
됵
둏
뗍
랒
뢉
뤂
륶
멭
뭀
뭤
믤
뱊
뵷
뻈
뻨
쀄
쁴
샒
샠
섡
싦
싵
쌧
썜
쑻
쓲
옸
윹
쟞
죶
줼
쨥
쯜
찎
텸
톲
톹
튓
폇
핻
햋
훜
겓
괃
궅
긶
꺌
꿜
넫
늼
뒝
듰
뚁
뜳
럤
릠
맼
몾
뫅
뱨
벓
벖
벟
볽
뵥
붤
빩
빪
뼸
쁭
섊
쉪
슅
슟
슮
쌸
쎴
쑛
쒠
씔
옒
웉
웓
윢
읪
잩
젶
좊
좟
짆
쬼
쯘
촷
쵮
츩
쿔
퍙
픖
픤
햎
햙
햫
혿
횄
겎
곲
굑
궘
깇
깤
껙
꼍
꼻
꾁
꾾
꿱
뀍
끾
넑
넠
녬
눨
늚
닸
뎦
됙
둿
딈
딯
똡
똰
뛟
띙
랓
롁
롫
롴
륽
릌
맂
맒
멏
묩
뭵
믇
밂
밗
벎
뺃
뼁
뾲
뿛
쀽
삾
셊
슸
쓘
쓺
얾
웷
읿
쩗
쬰
쬽
쭀
쯪
쳈
쵭
춛
춸
캆
캽
컈
퀍
퀙
퍌
풿
퓍
햩
헾
홅
갋
겿
곖
궛
귝
꼮
꿑
끨
낲
넡
뇟
뉭
늕
닏
닞
닲
닶
댯
뎄
뎟
됑
딿
럷
렄
뤁
뤗
릋
릔
먫
먾
묑
묨
뭊
믯
밢
볱
뷥
븉
빂
빞
뻆
뿓
쁐
쁥
삮
슦
슲
쌞
썛
쑐
씉
얅
옰
왂
욛
웊
웥
읙
잀
쟃
졤
졧
줃
줆
줙
줠
즹
쩅
쩼
쪨
쬠
쬤
쭵
쭸
쳿
칟
켝
턔
퉹
펵
폘
폯
퐅
헗
헡
혭
훋
굠
굡
궭
귺
깓
꺃
꽅
꽇
뀵
끋
녛
놐
놯
눤
뉙
뉫
늰
닰
뎧
됼
둇
둪
둰
딹
땗
뗬
똇
똫
랎
렆
뢈
룯
뤀
뤨
릊
맗
뫀
뫈
뭴
뮉
뮝
믙
믠
믬
믱
밡
뱓
벆
벝
벸
붖
빆
뿕
삸
샃
셖
솤
쇡
쇵
슺
싐
싲
싷
쌂
쐤
쑉
쒹
씝
씯
앾
얿
엯
옪
옶
옽
웒
읨
읹
쟹
젇
좉
줒
즥
짮
쨧
쩟
쩧
쩸
쫩
쭛
쯍
쳗
춱
춴
췡
췽
츱
쾔
탏
탣
톧
퍗
퍝
핕
햟
혯
홛
횞
흟
힏
힗
걑
걩
괐
귾
긌
긲
깋
깢
껬
꽨
끍
낔
넚
넽
녝
놎
놑
뇡
뇹
댼
덿
뎈
돓
돜
됒
둙
둫
뒁
듷
땈
뗵
똙
똵
똻
뙨
뚊
뚷
뜃
뜛
띾
룃
룱
뤙
맅
멁
멊
멞
멪
멫
멮
몁
몋
몼
뮛
뮥
믘
밮
뱦
벏
벘
벩
볙
봆
붝
븁
븘
븬
븽
빎
뺜
뻄
뻼
뼌
뼜
뽠
뽤
뽱
뾔
뾴
뿎
삒
삱
셟
쇴
숖
쎽
쏝
쑀
쑦
쒼
쓉
쓋
씺
얒
엋
엒
옦
왉
욨
웕
윝
윟
읐
읩
잒
쟜
젙
젚
졩
죘
줅
줵
즨
쩖
쩩
쩽
쫴
쬲
찱
챞
첡
첮
쵠
칢
캏
켣
쾈
큪
킸
탇
탖
탘
틂
틤
팈
팉
퍠
폅
폮
푤
풒
풸
풾
퓅
퓜
퓹
홯
훱
흼
힡
갵
걌
걹
곅
곩
괙
굈
궹
귪
깕
꺈
껵
꽆
꽛
낣
냏
녃
놏
놕
놤
놥
뇍
눟
눽
닧
댛
덝
뎻
둚
둩
뒿
듓
듨
듶
딉
딻
땛
똿
뜜
띅
렢
롐
뢐
뢨
뤔
륷
릾
먑
몊
뫚
뫠
뭋
뭌
뭎
뭭
뮷
믂
밠
봏
봫
봰
붂
붚
뷍
븸
빖
빸
뻒
뼏
뽇
뽥
뽭
뿩
쀓
쀾
삲
섟
섮
섻
솖
솘
솢
솻
솼
숞
슆
쌵
썐
쎃
쎤
쎵
쑘
쑫
쒓
씄
앑
얂
엓
엸
엺
옡
옲
왭
왰
욉
욭
웛
윞
읾
잚
쟠
졜
쥇
짗
짛
쨴
쪈
쭃
쭊
첲
촏
촴
쵷
췅
췹
췼
콫
쾐
킫
탚
텊
퇄
툵
퉌
퉝
틧
팣
픎
픨
핔
핝
헭
홁
훳
갴
걁
걉
겂
겤
겧
괫
궄
궥
궸
궻
귖
귚
긄
긐
긕
긼
깞
깪
껃
꽊
꽜
꽬
꿂
꿿
뀻
끡
낋
넞
뇠
늨
닊
닡
댝
댬
덗
덙
뎋
돆
돖
돘
돰
돵
둅
둼
뒑
뒵
듳
딺
땰
떅
뗠
뗸
똽
뙉
뙜
뚄
뚕
뚮
뛌
뜵
랅
랣
랳
랻
럔
럲
롇
뢀
뢇
룜
뤅
뤕
뤡
뤳
륧
릃
맓
맔
먖
먗
멑
멛
멷
뫁
묌
묗
뭩
뭰
뭼
믏
믑
밲
뱩
볭
볾
봁
봃
봈
봋
봠
봨
봴
뵛
붒
붛
붼
뷫
뷱
븛
븩
빏
빜
빹
뺡
뺣
뻢
뼬
뽘
뾆
뾼
뿁
뿠
쁍
쁫
섪
섺
셐
셗
쇅
쇱
숛
숝
쉇
쉤
슡
슧
슿
싪
싻
쌑
쌟
썀
썁
썭
썯
쏉
쐭
쒝
쒭
쓧
씍
씤
씪
앫
앸
얎
엩
엱
엻
왒
욝
욣
욲
욾
웇
웗
웚
웳
윀
윸
잞
졎
쥄
쥅
쥌
즞
짒
짴
쨟
쩹
쪗
쬈
쬭
쭂
쮠
쮹
쯀
쯴
챸
챺
첟
촠
촾
쵇
춣
췁
츀
칄
칽
캈
캋
컿
켮
콀
콮
쿌
큟
탗
텉
퇗
퉥
튯
틜
틷
팓
펖
퐆
퐉
풐
풑
풜
풨
풩
풮
풱
픐
픝
핃
핤
핶
혱
홝
횦
훁
갮
갲
겕
겴
괠
괬
굸
궙
궞
궢
궫
궳
궼
귻
깛
깣
꺍
꺴
껚
꼄
꼱
꿻
뀅
끛
끤
넾
녇
녺
뇄
눜
눳
뉍
뉏
늩
늿
닟
닣
닪
댖
댘
댥
덢
덦
돩
돶
됟
됰
뒙
뒸
듟
듮
듴
듹
딷
떣
떧
뗃
뗜
뗶
똈
똒
똗
똴
뙁
뙡
뙭
뚂
뚞
뚵
뛃
뛩
뜝
띃
띧
띯
럳
럻
렣
렦
렺
렼
렾
롕
롥
롵
룥
룳
뤱
뤵
륐
릣
맾
먓
먘
먯
몓
몭
몱
뫔
묯
뭆
뭑
뭷
뮘
믉
믗
밇
뱕
뱤
뱽
벑
벾
볎
볹
봎
봒
봗
뵉
뵫
뵭
뵳
뵴
뵶
붆
붋
붎
붠
붰
뷉
뷋
뷤
뷩
뷮
뷹
븠
븧
빘
뺔
뺚
뺫
뻟
뻽
뼙
뼥
뽟
뽬
뽴
뿗
쀡
쁀
쁄
쁏
쁟
삝
샂
샫
샭
샻
섢
섨
섿
솕
솣
쇀
쇙
숤
숧
숰
쉛
쉩
싥
싨
싮
싳
싺
싽
쌙
썍
썎
썫
썲
쎀
쎨
쏄
쏌
쐔
쐙
쑟
쑷
쒐
쒞
쒰
쒱
쓕
앐
앢
얷
엜
옞
옠
왙
욈
욮
욼
웧
윻
읂
읈
읰
잂
잓
잕
잙
잧
쟆
쟣
젆
젰
젵
졐
좜
좢
좽
죕
죢
죧
죹
줐
쥈
쥉
쥗
쥥
즠
짂
짷
쨖
쪤
쬴
쮓
쮝
쯈
찫
찭
찴
챷
첅
첧
첯
첰
쳼
촊
촒
촞
촟
촡
촢
촣
쵯
춭
췔
츷
칀
캜
켼
콭
쾹
쾻
쿭
쿹
퀏
큮
큻
킐
킳
킽
탊
탵
턉
텋
텥
톢
퇫
퉄
퉐
퉸
틘
팂
팛
팧
퍕
펕
폕
폣
폥
폳
퐙
푭
풴
풹
퓝
픋
픓
픱
핞
햍
햾
헁
헏
헔
헕
헯
혙
홣
홨
홭
훃
훎
갌
갣
갦
갿
걕
걥
걳
겇
겈
겦
겱
겳
겾
곃
곙
괆
괱
궇
궋
궶
귍
귔
귛
귡
귨
긃
긎
긒
긮
긹
깏
깑
깳
꺀
꺕
꺢
꼅
꼯
꼲
꽣
꽦
꾑
꾭
꿃
꿝
꿥
꿯
뀙
낞
낻
냙
냩
넏
녋
녿
놞
놩
놴
뇜
뉀
늖
닒
댦
댧
댭
덀
덌
덠
뎂
뎆
뎰
뎽
돒
돧
돱
돳
돴
됈
됻
둄
둍
둽
뒉
뒓
뒛
뒫
뒺
듑
딬
딭
땇
땎
땓
땩
땻
떗
떭
떷
뗆
뗡
뗣
뗫
똝
똧
뙍
뙬
뙴
뚐
뚔
뚢
뚣
뚼
뛈
뛉
뛛
뛯
뛷
뛻
뜄
뜔
뜾
띻
럂
럍
럣
럮
럶
럸
렂
렞
렠
렰
롻
뢋
뢘
룺
뤩
뤰
륳
륾
릀
릆
릞
릥
릯
릵
맋
맚
맮
먆
먏
먚
먛
먽
멐
멟
멦
몉
몟
몥
몲
몳
몴
뫟
뫤
뫽
묍
묟
묳
묺
뭃
뭈
뭗
뭨
뮜
뮽
믭
믻
믽
밁
밒
밚
밻
뱛
뱷
벲
볈
볋
볟
볿
봀
봽
뵽
붌
붍
붭
뷇
뷈
뷛
뷷
븗
븞
븪
븹
븻
빥
빮
빶
빷
빾
뺅
뺒
뺓
뺛
뺠
뺶
뻙
뻞
뻦
뻪
뼇
뼐
뼠
뼡
뽛
뽞
뽧
뽸
뾥
뾻
뿀
뿉
뿏
뿑
뿘
뿙
뿧
뿯
뿰
쀒
쀫
쀵
쁋
쁎
쁢
삗
삜
삺
샑
샢
샸
섑
섲
섷
셓
셙
솄
솑
솗
솫
쇌
쇘
숡
쉄
쉉
쉏
쉒
슀
슄
슏
슞
슠
슫
싞
싧
쌁
쌇
쌒
쌖
쌛
쌷
쌻
썃
썄
썋
썮
쎂
쎋
쎝
쎡
쎥
쎿
쏏
쏑
쏶
쏻
쏽
쐅
쐣
쐽
쑁
쑞
쑩
쑼
쒄
쒈
쒴
쓀
쓈
쓍
쓑
쓜
쓤
쓷
씋
씥
앩
앻
얩
엝
엞
옑
옱
왛
왣
왷
욙
욟
욡
욢
웋
윋
윧
윲
윿
읁
읟
읧
잟
잢
젗
졥
좈
좠
좬
좸
좹
좼
죸
죻
줈
줓
줮
쥩
즂
즊
즏
즣
즬
즴
짣
짲
짿
쨎
쨨
쩢
쪌
쪰
쫃
쫖
쫣
쬡
쬥
쬷
쬿
쭒
쭟
쭨
쮈
쮕
쯸
찓
찥
찵
찷
챀
챁
챚
챯
첞
첣
첥
촰
촳
쵄
쵬
춝
췜
췸
츺
칞
캵
컭
켇
콙
콛
콻
쾁
쿜
쿧
쿫
쿻
퀨
큗
큨
큳
큾
턋
턑
턚
턷
턹
턻
텓
톋
톗
톙
톽
퇑
툄
툘
툳
툻
퉀
퉭
튮
튺
튻
틆
틐
팯
퍀
펁
펎
펬
펻
폑
퐂
퐃
퐑
퐤
풕
풬
퓟
퓦
픜
픟
픳
픵
핖
핚
핪
핽
햰
햿
헚
헫
헱
헲
홒
홴
횹
훒
훞
휅
휗
휳
힑
힒
힚
갃
갍
갏
갢
갥
갨
갶
갷
걂
걄
걇
걏
걐
걓
걠
걤
걵
걽
걾
걿
겢
겥
겷
곕
곟
곫
곮
괧
괨
괩
괳
괺
괻
괾
굅
굗
굛
굮
굯
굾
궏
궔
궖
궚
궮
궯
궴
궵
궺
귇
귊
귏
귘
귥
귭
귽
긊
긛
긞
긠
긡
긢
긣
긥
긬
깂
깒
깧
깶
꺁
꺋
꺏
꺐
꺡
꺰
껇
껗
껰
껱
껻
꼠
꼣
꼤
꼥
꼵
꼶
꼸
꽏
꽑
꽘
꽙
꽫
꽭
꽯
꽸
꾔
꾕
꾫
뀁
뀓
뀟
뀪
뀱
끑
끜
낐
낤
낧
낿
냟
냫
넁
넟
넿
녵
놬
놶
놸
뇝
뇦
뇯
눂
뉑
늜
늟
늭
닱
댊
댋
댗
댙
댚
댶
댷
덲
덳
덻
덾
뎉
뎏
뎒
뎓
뎗
뎘
뎙
뎢
뎩
뎸
뎹
돊
돍
돏
돣
돫
돽
돿
됃
됓
됗
됢
됤
됧
됯
됱
됺
둈
둛
둭
둳
뒌
뒏
뒐
뒕
뒗
뒘
뒜
뒾
듇
듘
듛
듞
듲
듿
딦
딳
딵
딶
땊
땕
땞
땣
땥
땧
땬
땳
땹
땼
떁
떋
떌
떑
떟
떥
떦
뗉
뗋
뗔
뗗
뗙
뗛
뗝
뗞
뗟
뗨
뗩
뗭
뗳
뗻
똄
똅
똚
똛
똤
똩
똷
뙀
뙌
뙏
뙐
뙒
뙓
뙗
뙘
뙙
뙛
뙥
뙫
뙮
뙱
뙳
뙵
뙷
뙸
뙹
뚆
뚩
뚳
뚴
뚶
뚿
뛀
뛇
뛋
뛓
뛗
뛘
뛜
뛝
뛣
뛤
뛥
뛧
뛨
뛹
뛼
뜍
뜏
뜡
뜫
뜮
뜲
뜴
뜼
띇
띎
띿
랂
랆
랈
랤
랮
랱
럌
럑
럘
럪
럯
럵
럾
렑
렓
렚
렟
렧
렳
롊
롨
롲
롳
롽
뢌
뢓
뢛
뢜
뢤
뢥
뢧
뢯
뢵
뢷
룓
룛
룪
룫
룴
룷
룿
뤃
뤋
뤟
뤯
뤴
뤺
뤻
륃
륔
륝
륞
륟
륡
륰
륿
릁
릈
릑
릟
릡
릦
릮
릱
맖
맪
맭
먃
먅
먍
먙
먪
먳
먵
먻
멃
멇
멒
멠
멯
멶
멹
멺
멻
멽
몍
몜
몝
몡
몣
몦
몮
몷
몺
뫋
뫕
뫗
뫘
뫞
뫨
뫱
뫴
뫵
묃
묈
묚
묡
묦
묬
묱
뭁
뭟
뭦
뭧
뭺
뭽
뭿
뮀
뮁
뮊
뮔
뮙
뮧
뮫
뮯
뮳
뮵
뮶
뮿
믊
믛
믝
믲
믺
밄
밓
밙
뱂
뱆
뱇
뱈
뱋
뱏
뱒
뱚
뱞
뱧
뱬
뱰
뱸
뱺
벇
벉
벊
벒
벢
벪
벯
벷
벻
볅
볆
볒
볨
볩
볳
볷
봂
봢
봭
봳
봵
뵊
뵏
뵑
뵝
뵧
뵲
뵵
뵸
뵻
붃
붣
붥
붬
붵
붷
붿
뷃
뷄
뷌
뷏
뷓
뷟
뷦
뷭
뷵
뷼
븈
븎
븏
븣
븤
빒
빓
빣
빫
빺
뺕
뺝
뺟
뺥
뺦
뺧
뺮
뺳
뺹
뺿
뻕
뻖
뻚
뻛
뻫
뻳
뼞
뼟
뼢
뼦
뼱
뼷
뼹
뽆
뽊
뽒
뽔
뽖
뽙
뽚
뽣
뽷
뽿
뾃
뾄
뾅
뾇
뾘
뾤
뾬
뾹
뿃
뿋
뿒
뿚
뿞
뿥
뿦
뿮
뿷
쀈
쀌
쀎
쀐
쀑
쀜
쀟
쀨
쀬
쀲
쁃
쁅
쁉
쁓
쁕
쁖
쁚
쁣
쁶
쁼
삦
삨
삫
삹
샋
샓
샟
샣
샪
샮
샶
샿
섂
섋
섚
섫
섳
셂
셆
셎
셛
셠
셡
셣
셦
셭
셳
셷
솈
솏
솒
솚
솛
솞
솠
쇇
쇈
쇋
쇕
쇝
쇧
쇰
숁
숃
숎
숓
숕
숚
숥
숦
숪
숬
숵
숻
쉖
쉗
쉙
쉚
쉜
쉟
쉳
쉵
쉻
슂
슓
슯
슰
싊
싓
싘
싟
싩
쌆
쌊
쌎
쌚
쌯
쌺
썔
썗
썝
썱
썳
썴
썷
쎜
쎞
쎟
쎧
쎫
쎰
쎱
쎳
쏍
쏐
쏔
쏚
쏢
쏲
쐄
쐏
쐗
쐘
쐠
쐥
쐩
쐳
쐼
쐿
쑊
쑍
쑏
쑙
쑱
쑽
쑾
쒁
쒂
쒇
쒑
쒣
쒤
쒧
쒬
쒺
쒿
쓓
쓚
쓛
쓥
쓹
씟
씱
씿
앃
앇
앦
앲
앷
앹
얟
얨
얰
엕
엟
엦
옏
옓
옟
왖
왧
왿
욂
욒
욚
욦
욫
욳
욵
욻
웂
웎
웖
웞
웫
웯
웴
웼
윂
윎
윓
윚
윪
윮
윺
읤
읦
잜
잲
잳
쟄
쟏
쟗
쟢
쟥
쟴
젂
젉
젒
젟
젨
젮
젲
젺
젿
졁
졂
졓
졵
졺
좒
좥
좧
좩
좯
좰
좻
죅
죋
죥
죱
줋
줕
줛
줟
줦
줨
줩
줳
줻
쥻
즒
즔
즡
즵
즷
짏
짡
짨
짩
짺
쨏
쨚
쨢
쩎
쩒
쩓
쩘
쩛
쩯
쩱
쪁
쪅
쪔
쪱
쪳
쪵
쫅
쫆
쫋
쫔
쫟
쫠
쫫
쫬
쬑
쬗
쬣
쬧
쭞
쭬
쭯
쭴
쭷
쭹
쮁
쮄
쮇
쮋
쮐
쮑
쮣
쮬
쯇
쯛
쯫
쯬
찃
찅
찲
찳
찺
챋
챛
챝
챣
챲
챶
첚
첛
첢
첦
첪
첱
첳
첻
첿
쳃
쳋
쳒
쳕
쳭
촁
촍
촎
촑
촓
촕
촖
촫
촻
쵁
쵕
쵣
쵰
쵿
춇
춏
춗
춟
춠
춢
춨
춪
춬
춮
췈
췎
췛
췝
췟
췠
췯
츬
츸
츻
츽
칌
칍
칏
칑
칚
칣
칻
캟
캧
캩
컌
켉
켞
켳
켹
콉
콪
쾋
쾓
쾜
쾝
쾟
쾽
쿏
쿕
쿩
쿪
쿶
쿺
퀃
퀶
퀻
큌
큑
큩
큫
킇
킉
킌
킘
킙
킛
킝
킠
킦
킭
킻
탂
탃
탆
탍
탒
턈
턌
턐
턒
턓
턕
턘
턩
턬
턺
텂
텆
텠
텯
텳
톁
톃
톅
톌
톔
톕
톮
퇍
퇙
퇜
퇣
퇬
퇭
퇻
툅
툔
툡
툣
툫
툯
툶
툷
툸
툹
툺
퉃
퉇
퉉
퉏
퉔
퉘
퉙
퉛
퉠
튎
튔
튘
튙
튟
튦
튲
튳
튵
튶
틁
틄
틇
틕
틥
팄
팒
팕
팗
팚
팮
팿
퍁
퍘
퍚
퍿
펃
펅
펋
펗
펟
펡
폂
폗
폠
폵
퐘
퐠
퐳
푁
푐
푑
푓
푣
푥
푧
푩
푫
푬
푴
푷
푾
풘
풤
풥
풧
퓀
퓁
퓃
퓡
픁
픒
픡
픰
핗
핛
핦
핺
핿
햊
햚
햞
헒
헓
헢
헺
헽
혂
혅
혇
혉
혍
혒
혻
혽
혾
홂
홄
홎
홠
홦
홪
홬
홳
홷
홸
횀
횓
횜
횯
횾
훇
훩
훴
훸
휌
휍
휟
휢
휪
휬
휰
휱
휺
휻
휽
흃
흅
흊
흍
흎
흓
흕
흖
흞
흪
힇
힍
갆
갎
갟
갡
갧
갩
갪
갫
갳
갺
갻
갽
갾
걃
걅
걆
걊
걎
걒
걖
걗
걙
걚
걛
걝
걞
걟
걡
걢
걣
걦
걧
걨
걪
걫
걬
걭
걮
걯
걶
걻
겏
겑
겒
겣
겫
겭
겮
겲
곆
곇
곉
곊
곋
곔
곚
곛
곜
곝
곞
곢
곣
곥
곦
곭
곴
곾
곿
괁
괂
괅
괇
괈
괋
괗
괟
괢
괥
괦
괪
괮
괯
괰
괶
괷
괹
괽
괿
굀
굁
굂
굃
굆
굊
굋
굌
굍
굎
굏
굒
굓
굕
굖
굙
굚
굜
굝
굞
굟
굢
굤
굦
굧
굨
굩
굪
굫
굱
굲
굹
굺
궊
궍
궎
궑
궒
궓
궕
궗
궟
궠
궡
궣
궦
궧
궩
궪
궰
궱
궲
궽
궾
궿
귂
귃
귅
귆
귉
귋
귌
귎
귒
귗
귙
귞
귟
귢
귣
귦
귧
귩
귵
귶
귷
긅
긆
긖
긗
긙
긚
긝
긟
긦
긨
긪
긫
긭
긯
긳
긵
긻
긽
긾
깖
깗
깘
깙
깚
깯
깱
깲
깴
깵
깷
깾
깿
꺂
꺇
꺉
꺊
꺎
꺑
꺓
꺚
꺛
꺜
꺝
꺞
꺟
꺣
꺥
꺦
꺧
꺩
꺪
꺫
꺬
꺭
꺮
꺯
껂
껓
껕
껖
껟
껦
껧
껪
껮
껯
껲
껳
껷
껹
껺
껽
껾
껿
꼀
꼁
꼂
꼃
꼑
꼔
꼗
꼙
꼚
꼛
꼜
꼝
꼞
꼟
꼡
꼢
꼦
꼧
꼨
꼩
꼪
꼫
꼷
꼹
꽒
꽓
꽔
꽕
꽖
꽗
꽚
꽞
꽟
꽠
꽡
꽢
꽧
꽩
꽪
꽮
꽰
꽱
꽲
꽳
꽴
꽵
꾇
꾓
꾠
꾣
꾤
꾥
꾩
꾬
꾲
꾳
꾴
꾺
꿁
꿅
꿆
꿐
꿛
꿤
꿲
꿷
뀂
뀃
뀢
뀸
뀹
끏
끚
끧
끫
끰
끳
낃
낕
낗
낦
낶
냀
냃
냊
냌
냎
냗
냛
냦
냴
넍
넎
넔
넧
녆
녙
녚
녣
녭
녱
녻
녾
놁
놃
놅
놇
놊
놗
놛
놟
놠
놡
놢
놣
놦
놪
놫
놭
놮
놱
놲
놳
놵
놷
놹
놺
놻
놼
놽
놾
놿
뇀
뇁
뇂
뇃
뇅
뇆
뇇
뇈
뇉
뇊
뇋
뇎
뇓
뇖
뇗
뇘
뇙
뇚
뇛
뇞
뇢
뇣
뇤
뇥
뇧
뇪
뇫
뇭
뇮
뇱
뇲
뇳
뇴
뇵
뇶
뇷
뇾
눀
눁
눍
눐
눓
눚
눛
눡
눧
눰
눱
눵
눶
뉃
뉄
뉇
뉌
뉐
뉔
뉟
뉯
뉻
뉽
늊
늋
늎
늓
늛
늝
늞
늢
늤
늳
늽
닀
닍
닓
닔
닚
닩
댂
댃
댅
댆
댉
댌
댍
댎
댏
댒
댞
댟
댡
댢
댣
댨
댩
댪
댫
댮
댰
댲
댳
댴
댵
댹
댺
댻
댽
댾
댿
덁
덂
덃
덄
덅
덆
덇
덈
덉
덊
덋
덎
덏
덐
덑
덒
덓
덚
덡
덵
덶
덹
덺
덼
덽
뎇
뎎
뎑
뎕
뎖
뎚
뎛
뎞
뎣
뎤
뎥
뎪
뎫
뎭
뎮
뎯
뎱
뎲
뎳
뎴
뎵
뎶
뎷
뎺
뎼
뎾
뎿
돀
돁
돂
돃
돉
돑
돢
돥
돦
돪
돬
돭
돮
돯
돲
돷
돸
돹
돺
돻
돾
됁
됂
됅
됆
됇
됉
됊
됋
됎
됔
됕
됖
됚
됛
됝
됞
됡
됣
됥
됦
됪
됮
됲
됳
됶
됷
됹
됽
됾
됿
둀
둁
둂
둆
둊
둋
둌
둎
둒
둓
둕
둖
둜
둝
둞
둢
둤
둦
둧
둨
둮
둯
둱
둲
둵
둶
둷
둸
둹
둺
둻
둾
뒂
뒃
뒄
뒅
뒆
뒇
뒊
뒋
뒍
뒎
뒒
뒔
뒖
뒚
뒞
뒟
뒠
뒡
뒢
뒣
뒦
뒧
뒩
뒪
뒭
뒮
뒯
뒰
뒱
뒲
뒳
뒶
뒻
뒼
뒽
듂
듃
듅
듆
듉
듊
듋
듌
듍
듎
듏
듒
듔
듖
듗
듙
듚
듡
듢
듩
듪
듺
듻
듽
듾
딁
딂
딃
딄
딅
딆
딇
딊
딌
딎
딏
딐
딑
딒
딓
딖
딗
딙
딞
딟
딠
딡
딢
딣
딼
딽
딾
땂
땆
땉
땏
땑
땒
땖
땘
땙
땚
땢
땤
땦
땪
땫
땭
땮
땯
땱
땲
땴
땵
땶
땷
땸
땺
땾
땿
떀
떂
떃
떆
떇
떉
떊
떍
떎
떏
떐
떒
떓
떕
떖
떚
떛
떜
떝
떞
떩
떬
떮
떲
떶
떸
떹
떺
떾
떿
뗁
뗂
뗅
뗇
뗈
뗊
뗎
뗒
뗓
뗕
뗖
뗚
뗢
뗤
뗥
뗦
뗧
뗪
뗮
뗯
뗰
뗱
뗲
뗷
뗹
뗺
뗽
똀
똁
똂
똃
똆
똉
똊
똋
똌
똍
똎
똓
똕
똖
똜
똞
똢
똦
똨
똪
똮
똯
똱
똲
똳
똶
똸
똹
똺
똼
똾
뙂
뙃
뙄
뙅
뙆
뙊
뙋
뙎
뙑
뙔
뙕
뙖
뙚
뙝
뙞
뙟
뙠
뙢
뙣
뙦
뙧
뙩
뙪
뙯
뙰
뙲
뙶
뙺
뙻
뙼
뙽
뙾
뙿
뚃
뚅
뚇
뚈
뚉
뚋
뚌
뚍
뚎
뚏
뚑
뚒
뚓
뚖
뚗
뚘
뚙
뚚
뚛
뚟
뚡
뚨
뚪
뚰
뚲
뚹
뚺
뚻
뚽
뚾
뛄
뛅
뛆
뛊
뛍
뛎
뛏
뛐
뛑
뛒
뛕
뛖
뛙
뛚
뛞
뛠
뛡
뛢
뛦
뛪
뛫
뛬
뛭
뛮
뛱
뛲
뛳
뛵
뛶
뛺
뛽
뛾
뛿
뜂
뜆
뜇
뜈
뜉
뜊
뜋
뜎
뜑
뜒
뜓
뜕
뜖
뜗
뜘
뜙
뜚
뜞
뜟
뜠
뜢
뜣
뜤
뜥
뜦
뜧
뜪
뜭
뜱
뜶
뜺
뜿
띀
띂
띆
띉
띊
띋
띍
띏
띐
띑
띒
띓
띖
띗
띘
띚
띛
띜
띝
띞
띟
띢
띣
띥
띦
띩
띪
띫
띬
띭
띮
띲
띴
띶
띷
띸
띹
띺
랁
랇
랉
랊
랚
랛
랡
랢
랥
랦
랧
랪
랯
랶
랷
랹
랺
랽
랾
랿
럀
럁
럃
럆
럊
럋
럎
럏
럒
럓
럕
럖
럗
럙
럚
럛
럜
럝
럞
럟
럠
럡
럢
럥
럦
럧
럨
럩
럫
럱
럹
럺
렃
렅
렊
렋
렍
렎
렒
렔
렕
렖
렗
렩
렪
렭
렮
렯
렱
렲
렶
렻
렽
롂
롃
롅
롆
롉
롋
롌
롍
롎
롏
롒
롔
롖
롗
롘
롙
롚
롛
롞
롟
롡
롢
롦
롧
롩
롪
롰
롺
롾
롿
뢁
뢂
뢅
뢆
뢊
뢎
뢏
뢑
뢒
뢕
뢖
뢗
뢙
뢚
뢝
뢞
뢟
뢠
뢡
뢢
뢣
뢦
뢩
뢪
뢫
뢬
뢭
뢮
뢲
뢳
뢶
뢹
뢺
뢻
뢼
뢽
뢾
뢿
룂
룆
룇
룈
룉
룊
룋
룎
룏
룑
룒
룕
룖
룗
룘
룙
룚
룞
룠
룢
룣
룤
룦
룧
룭
룮
룲
룵
룶
룼
룾
뤆
뤇
뤉
뤊
뤍
뤎
뤏
뤐
뤑
뤒
뤓
뤖
뤚
뤛
뤜
뤝
뤞
뤢
뤣
뤥
뤦
뤧
뤪
뤫
뤬
뤭
뤮
뤲
뤶
뤷
뤸
뤹
뤾
뤿
륁
륂
륅
륆
륇
륈
륉
륊
륋
륎
륒
륓
륕
륖
륗
륚
륛
륢
륣
륤
륥
륦
륪
륬
륯
륱
륲
륹
륺
릂
릒
릓
릕
릖
릗
릙
릚
릛
릜
릝
릢
릤
릧
릨
릩
릪
릫
릲
릶
릷
릸
릹
릺
릻
맦
맧
맩
맯
맰
맱
맲
맳
맶
맿
먂
먇
먉
먊
먋
먌
먎
먒
먔
먝
먞
먟
먠
먡
먢
먣
먤
먥
먦
먧
먨
먩
먬
먭
먮
먰
먱
먲
먴
먶
먷
멄
멆
멖
멗
멙
멚
멝
멡
멢
멣
멲
멳
멵
멼
멾
멿
몂
몈
몎
몏
몑
몒
몕
몖
몗
몘
몙
몚
몛
몞
몠
몢
몤
몧
몵
몶
뫂
뫆
뫇
뫉
뫊
뫍
뫎
뫏
뫐
뫑
뫒
뫓
뫖
뫛
뫜
뫝
뫡
뫢
뫣
뫥
뫦
뫧
뫩
뫪
뫫
뫬
뫭
뫮
뫯
뫰
뫲
뫳
뫶
뫷
뫸
뫹
뫺
뫻
뫾
뫿
묁
묂
묅
묆
묇
묉
묊
묋
묎
묐
묒
묓
묔
묕
묖
묛
묝
묞
묢
묣
묤
묥
묪
묮
묰
묲
묹
묿
뭂
뭒
뭓
뭕
뭖
뭙
뭚
뭛
뭜
뭝
뭞
뭢
뭪
뭫
뭮
뭯
뭱
뭲
뭳
뭶
뭸
뭹
뭻
뭾
뮂
뮃
뮄
뮅
뮆
뮇
뮋
뮍
뮎
뮏
뮑
뮒
뮓
뮕
뮖
뮗
뮚
뮞
뮟
뮠
뮡
뮢
뮣
뮦
뮩
뮪
뮭
뮮
뮰
뮱
뮲
뮸
뮺
뮼
뮾
믃
믅
믆
믋
믍
믎
믒
믔
믚
믞
믟
믡
믢
믣
믥
믦
믧
믨
믩
믪
믫
믮
믰
믳
믴
믵
믶
믷
밃
밅
밆
밳
밵
밶
밹
밺
밼
밽
밾
밿
뱎
뱑
뱖
뱗
뱘
뱙
뱠
뱢
뱣
뱥
뱪
뱫
뱭
뱮
뱯
뱱
뱲
뱳
뱴
뱵
뱶
뱹
뱻
뱼
뱾
뱿
벀
벁
벂
벃
벣
벥
벦
벬
벭
벮
벶
벺
벿
볁
볂
볇
볉
볊
볖
볗
볚
볛
볝
볞
볡
볢
볣
볤
볥
볦
볧
볪
볬
볮
볯
볰
볲
볺
봓
봕
봖
봚
봛
봜
봝
봞
봟
봦
봧
봩
봪
봮
봯
봱
봲
봶
봷
봸
봹
봺
봻
봼
봾
봿
뵁
뵂
뵃
뵄
뵅
뵆
뵇
뵋
뵍
뵎
뵒
뵓
뵔
뵕
뵖
뵗
뵚
뵞
뵟
뵠
뵡
뵢
뵣
뵦
뵩
뵪
뵮
뵯
뵰
뵱
뵺
뵼
뵾
뵿
붅
붔
붞
붟
붡
붢
붦
붧
붨
붩
붪
붫
붮
붲
붳
붶
붺
붻
붽
붾
뷂
뷅
뷆
뷊
뷎
뷐
뷒
뷖
뷗
뷙
뷚
뷝
뷞
뷠
뷡
뷢
뷣
뷨
뷪
뷬
뷯
뷲
뷳
뷶
뷺
뷻
뷽
뷾
뷿
븂
븄
븆
븇
븊
븋
븑
븒
븖
븙
븚
븢
븦
븫
븭
븮
븯
븱
븲
븳
븴
븵
븶
븷
븺
븼
븾
븿
빀
빁
빃
빇
빉
빊
빐
빑
빦
빬
빭
빯
빲
빿
뺁
뺂
뺆
뺇
뺈
뺉
뺊
뺋
뺎
뺖
뺗
뺞
뺢
뺤
뺪
뺬
뺯
뺰
뺱
뺲
뺺
뺻
뺽
뺾
뻀
뻁
뻂
뻃
뻅
뻊
뻋
뻌
뻍
뻎
뻏
뻓
뻜
뻝
뻧
뻮
뻯
뻱
뻲
뻵
뻶
뻷
뻸
뻹
뻺
뻻
뻾
뼀
뼂
뼃
뼄
뼅
뼆
뼊
뼋
뼍
뼎
뼑
뼒
뼓
뼔
뼕
뼖
뼗
뼚
뼣
뼧
뼨
뼩
뼪
뼫
뼭
뼮
뼯
뼰
뼲
뼳
뼴
뼵
뼶
뼺
뼻
뼼
뼽
뼾
뼿
뽃
뽅
뽉
뽋
뽌
뽍
뽎
뽏
뽗
뽡
뽢
뽦
뽨
뽩
뽪
뽫
뽮
뽯
뽰
뽲
뽳
뽵
뽶
뽹
뽺
뽻
뽼
뽽
뽾
뾀
뾂
뾈
뾉
뾊
뾋
뾌
뾍
뾎
뾏
뾐
뾑
뾒
뾓
뾕
뾖
뾗
뾙
뾚
뾛
뾜
뾝
뾞
뾟
뾠
뾡
뾢
뾣
뾦
뾧
뾨
뾩
뾪
뾫
뾭
뾮
뾯
뾳
뾵
뾶
뾷
뾺
뾽
뾾
뾿
뿂
뿄
뿆
뿇
뿈
뿊
뿖
뿢
뿣
뿤
뿪
뿫
뿬
뿭
뿱
뿲
뿳
뿴
뿵
뿶
뿸
뿹
뿺
뿻
뿼
뿽
뿾
뿿
쀀
쀁
쀂
쀃
쀅
쀆
쀇
쀉
쀊
쀋
쀔
쀕
쀖
쀗
쀘
쀙
쀚
쀛
쀝
쀞
쀢
쀣
쀤
쀥
쀦
쀧
쀩
쀪
쀭
쀮
쀯
쀰
쀱
쀴
쀶
쀷
쀸
쀹
쀺
쀻
쀿
쁁
쁂
쁆
쁇
쁈
쁊
쁒
쁔
쁗
쁛
쁝
쁞
쁡
쁤
쁦
쁧
쁪
쁬
쁮
쁯
쁰
쁱
쁵
쁽
삂
삇
삚
삞
삟
삢
삩
삪
샍
샎
샔
샕
샖
샗
샚
샞
샡
샦
샧
샩
샯
샰
샱
샲
샳
샺
샽
섃
섅
섆
섇
섉
섌
섍
섎
섏
섒
섓
섔
섖
섗
섘
섙
섛
섩
섽
섾
셁
셃
셄
셅
셇
셏
셚
셝
셞
셢
셪
셫
셬
셮
셯
셲
셵
셶
셹
셺
셻
셼
셽
셾
셿
솂
솆
솇
솉
솋
솙
솪
솭
솮
솯
솱
솲
솳
솴
솵
솶
솷
솺
솾
솿
쇁
쇂
쇃
쇆
쇉
쇊
쇍
쇎
쇏
쇐
쇑
쇒
쇓
쇔
쇖
쇗
쇚
쇛
쇜
쇞
쇟
쇢
쇣
쇥
쇦
쇩
쇪
쇫
쇬
쇭
쇮
쇯
쇲
쇶
쇷
쇸
쇹
쇺
쇻
쇾
쇿
숂
숅
숆
숇
숈
숉
숊
숋
숐
숒
숗
숢
숶
숷
숹
숺
숽
숾
숿
쉀
쉁
쉂
쉃
쉆
쉊
쉋
쉌
쉍
쉎
쉓
쉕
쉝
쉞
쉢
쉦
쉧
쉫
쉮
쉯
쉱
쉲
쉶
쉷
쉸
쉹
쉺
쉾
슃
슇
슊
슋
슍
슎
슑
슒
슔
슕
슖
슗
슚
슜
슣
슩
슪
슱
싂
싃
싅
싆
싇
싉
싋
싌
싍
싎
싏
싒
싔
싖
싗
싙
싚
싛
싡
쌃
쌄
쌅
쌗
쌝
쌠
쌡
쌢
쌣
쌦
쌪
쌫
쌬
쌭
쌮
쌲
쌳
쌶
쌹
쌼
쌽
쌾
쌿
썂
썆
썇
썈
썉
썊
썏
썑
썒
썓
썕
썘
썙
썚
썞
썟
썠
썢
썣
썤
썥
썦
썧
썵
썶
썺
썾
썿
쎁
쎇
쎉
쎊
쎍
쎎
쎏
쎐
쎑
쎒
쎓
쎖
쎚
쎛
쎢
쎣
쎦
쎩
쎪
쎬
쎭
쎮
쎯
쎲
쎶
쎷
쎸
쎹
쎺
쎻
쏁
쏂
쏃
쏅
쏆
쏇
쏈
쏊
쏋
쏎
쏒
쏓
쏕
쏖
쏛
쏞
쏡
쏣
쏤
쏥
쏦
쏧
쏪
쏬
쏮
쏯
쏰
쏷
쏹
쏺
쏾
쏿
쐀
쐁
쐂
쐃
쐆
쐊
쐋
쐌
쐍
쐎
쐒
쐓
쐕
쐖
쐚
쐛
쐜
쐝
쐞
쐟
쐡
쐢
쐦
쐧
쐨
쐪
쐫
쐮
쐯
쐱
쐲
쐵
쐶
쐷
쐸
쐹
쐺
쐻
쐾
쑂
쑃
쑄
쑅
쑆
쑇
쑋
쑎
쑑
쑒
쑓
쑔
쑕
쑖
쑗
쑚
쑜
쑠
쑡
쑢
쑣
쑧
쑪
쑭
쑮
쑯
쑰
쑲
쑳
쑶
쑸
쑺
쑿
쒃
쒅
쒆
쒉
쒊
쒋
쒌
쒍
쒎
쒏
쒒
쒖
쒗
쒘
쒙
쒚
쒛
쒟
쒡
쒢
쒥
쒦
쒨
쒪
쒫
쒮
쒲
쒳
쒵
쒶
쒷
쒻
쒽
쒾
쓁
쓂
쓃
쓄
쓅
쓆
쓇
쓊
쓌
쓎
쓏
쓐
쓒
쓖
쓗
쓙
쓝
쓞
쓟
쓠
쓡
쓢
쓣
쓦
쓨
쓪
쓫
쓬
쓭
쓮
쓯
쓳
쓵
쓶
쓻
쓼
쓽
쓾
씂
씆
씇
씈
씊
씎
씏
씑
씒
씓
씕
씖
씗
씘
씙
씚
씛
씞
씠
씢
씣
씦
씧
씫
씭
씮
씲
씳
씴
씵
씶
씷
씾
앁
앂
앣
앥
앪
앬
앭
앮
앯
앿
얁
얈
얓
얚
얛
얝
얞
얡
얢
얣
얤
얥
얦
얧
얪
얮
얯
얱
얲
얳
엀
엁
엂
엖
엚
엛
엢
엧
엲
옊
옋
옍
옎
옔
옕
옖
옗
옚
옢
옣
옩
왃
왅
왆
왊
왋
왌
왍
왎
왏
왗
왞
왟
왡
왢
왥
왦
왨
왩
왪
왫
왮
왲
왳
왴
왵
왶
왺
왻
왽
왾
욁
욃
욄
욅
욆
욇
욊
욎
욏
욐
욑
욓
욖
욗
욞
욠
욪
욶
욽
웏
웑
웘
웙
웢
웣
웪
웭
웮
웲
웵
웶
웺
웾
웿
윃
윆
윇
윉
윊
윍
윏
윐
윑
윒
윖
윛
윣
윥
윦
윩
윫
윬
윭
윯
윴
읚
읛
읝
읞
읡
읢
읣
읥
읬
읮
읯
읱
읲
읳
잁
잝
잮
잯
잱
잵
잶
쟅
쟇
쟑
쟔
쟟
쟫
쟵
쟷
쟸
쟻
젃
젅
젘
젣
젻
졃
졇
졏
졑
졒
졕
졬
졲
졽
졾
졿
좓
좕
좦
좪
좫
좭
좮
좱
좲
좳
좴
좵
좶
좷
좺
좾
좿
죀
죁
죂
죃
죆
죇
죉
죊
죍
죎
죏
죐
죑
죒
죓
죖
죚
죛
죜
죝
죞
죟
죣
죷
줊
줎
줔
줖
줚
줝
줞
줡
줢
줣
줤
줥
줧
줪
줯
줰
줱
줲
줶
줷
줹
줺
줽
줾
줿
쥀
쥁
쥂
쥃
쥆
쥮
쥱
쥲
쥳
쥵
쥶
쥷
쥸
쥹
쥺
쥾
즀
즃
즄
즅
즆
즇
즋
즍
즎
즓
즕
즖
즗
즚
즜
즟
즢
즦
즧
즩
즪
즫
즭
즮
즯
짎
짟
짳
짵
짶
짻
짽
짾
쨁
쨂
쨃
쨄
쨅
쨆
쨇
쨊
쨐
쨑
쨒
쨓
쨗
쨙
쨛
쨝
쨞
쨠
쨡
쨣
쨭
쨱
쨸
쨻
쩁
쩇
쩈
쩉
쩊
쩋
쩏
쩑
쩕
쩙
쩚
쩞
쩣
쩤
쩥
쩦
쩪
쩫
쩭
쩮
쩲
쩳
쩴
쩵
쩶
쩷
쩺
쩾
쩿
쪀
쪂
쪃
쪆
쪋
쪕
쪡
쪩
쪪
쪫
쪬
쪭
쪮
쪯
쪲
쪴
쪶
쪷
쪸
쪹
쪺
쪻
쪿
쫁
쫂
쫇
쫈
쫉
쫊
쫎
쫐
쫕
쫚
쫛
쫝
쫞
쫡
쫢
쫤
쫥
쫦
쫧
쫨
쫰
쫵
쫸
쫻
쫼
쬋
쬌
쬍
쬎
쬏
쬒
쬓
쬕
쬖
쬙
쬚
쬛
쬜
쬝
쬞
쬟
쬢
쬦
쬨
쬩
쬪
쬫
쬮
쬯
쬱
쬳
쬵
쬶
쬸
쬹
쬺
쬻
쬾
쭄
쭏
쭓
쭥
쭫
쭭
쭮
쭰
쭱
쭲
쭳
쭶
쭺
쭻
쭼
쭽
쭾
쭿
쮂
쮃
쮅
쮆
쮉
쮊
쮌
쮍
쮎
쮏
쮒
쮔
쮖
쮗
쮘
쮙
쮚
쮛
쮞
쮟
쮡
쮢
쮤
쮭
쮯
쮱
쮼
쯅
쯆
쯊
쯌
쯎
쯏
쯐
쯑
쯒
쯓
쯖
쯗
쯙
쯚
쯝
쯞
쯟
쯠
쯡
쯢
쯣
쯦
쯨
쯭
쯮
쯯
쯲
쯳
쯵
쯶
쯷
쯹
쯺
쯻
쯼
찀
찁
찆
찖
찗
찛
찤
찪
찶
챆
챇
챉
챊
챍
챎
챏
챐
챑
챒
챓
챖
챜
챟
챢
챥
챧
챩
챪
챫
챬
챭
챮
챴
챹
챻
챽
첄
첌
첐
첑
첔
첕
첖
첗
첝
첤
첶
첷
첹
첺
첽
첾
쳀
쳁
쳂
쳆
쳊
쳍
쳎
쳏
쳓
쳖
쳙
쳚
쳧
쳫
쳽
쳾
촀
촂
촃
촄
촅
촆
촇
촋
촔
촗
촚
촜
촦
촧
촩
촪
촭
촮
촯
촱
촲
촶
촸
촺
촼
촽
쵓
쵔
쵡
쵢
쵥
쵦
쵧
쵨
쵩
쵪
쵫
쵲
쵳
쵴
쵵
쵶
쵺
쵻
쵽
쵾
춁
춂
춃
춄
춅
춆
춊
춌
춎
춐
춑
춒
춓
춖
춙
춚
춞
춡
춦
춯
춷
췀
췆
췇
췉
췊
췋
췏
췑
췒
췓
췕
췖
췗
췘
췙
췚
췞
췢
췣
췥
췦
췧
췪
췫
췭
췮
췱
췲
췳
췴
췵
췶
췷
췺
췾
췿
츁
츂
츆
츎
츚
츞
츧
츭
츮
츯
츲
츴
츶
츹
츾
츿
칁
칂
칃
칅
칆
칇
칈
칉
칊
칋
칎
칐
칒
칓
칔
칕
칖
칗
칛
칝
칤
칥
칦
칧
칪
칳
캃
캊
캗
캚
캛
캝
캞
캦
캨
캫
캮
캯
캱
캲
캳
캶
캷
캸
캹
캺
캻
캾
컀
컂
컃
컅
컆
컇
컉
컊
컋
컍
컎
컏
컐
컑
컒
컓
컔
컕
컘
컛
컻
켂
켃
켅
켆
켊
켋
켌
켍
켎
켏
켒
켖
켗
켛
켟
켡
켢
켥
켦
켧
켨
켩
켪
켫
켲
켴
켵
켶
켷
켺
켻
켽
켾
켿
콁
콂
콃
콄
콈
콋
콌
콍
콣
콲
콳
콵
콶
콷
콹
콺
콼
콽
콾
콿
쾂
쾄
쾆
쾇
쾉
쾊
쾎
쾏
쾑
쾒
쾕
쾖
쾗
쾘
쾙
쾚
쾛
쾞
쾠
쾢
쾣
쾤
쾥
쾦
쾧
쾸
쿅
쿍
쿎
쿐
쿑
쿒
쿓
쿖
쿘
쿚
쿛
쿝
쿞
쿟
쿢
쿣
쿥
쿦
쿬
쿮
쿯
쿲
쿴
쿷
쿾
쿿
퀁
퀂
퀅
퀆
퀇
퀈
퀉
퀊
퀐
퀡
퀩
퀬
퀮
퀯
퀰
퀱
퀲
퀳
퀷
퀹
퀺
퀽
퀾
퀿
큀
큁
큂
큃
큆
큈
큊
큋
큍
큎
큏
큒
큓
큕
큖
큙
큚
큛
큜
큝
큞
큢
큤
큦
큧
큯
큱
큲
큶
큺
킆
킕
킖
킗
킚
킜
킞
킟
킡
킢
킣
킧
킩
킪
킮
킯
킰
킱
킲
킶
킺
킿
탅
탋
탌
탎
탢
탥
탺
탿
턁
턅
턆
턇
턊
턎
턏
턖
턗
턙
턛
턜
턝
턞
턟
턠
턡
턢
턣
턤
턥
턦
턧
턨
턪
턫
턭
턮
턯
턲
턳
턵
턶
턼
턽
턾
텇
텈
텗
텞
텣
텪
텮
텱
텲
텴
텵
텶
텷
텺
텾
텿
톀
톂
톆
톇
톉
톊
톍
톎
톏
톐
톑
톒
톓
톖
톘
톚
톛
톜
톝
톞
톟
톣
톥
톦
톶
톷
톻
퇌
퇏
퇐
퇒
퇓
퇔
퇕
퇖
퇚
퇛
퇝
퇞
퇟
퇠
퇡
퇢
퇤
퇥
퇦
퇧
퇨
퇩
퇪
퇮
퇯
퇰
퇱
퇲
퇳
퇶
퇷
퇹
퇺
퇽
퇾
퇿
툀
툁
툂
툃
툆
툈
툒
툓
툝
툩
툪
툮
툱
툲
툾
퉂
퉊
퉋
퉍
퉎
퉑
퉒
퉓
퉕
퉖
퉗
퉚
퉞
퉟
퉡
퉢
퉣
퉦
퉧
퉫
퉬
퉱
퉴
퉵
튇
튍
튏
튒
튖
튗
튚
튛
튞
튡
튢
튣
튥
튧
튨
튩
튪
튫
튰
튴
튷
튾
틃
틅
틌
틎
틏
틒
틓
틠
틻
틼
틽
틾
틿
팆
팇
팋
팑
팘
팙
팞
팢
팪
팫
팭
팱
팲
팳
팴
팵
팶
팷
팺
팾
퍂
퍃
퍆
퍇
퍉
퍐
퍔
퍤
퍪
퍫
퍬
퍭
퍮
퍯
퍰
퍱
퍲
퍳
퍴
퍵
퍶
퍷
퍸
퍹
퍺
퍻
퍾
펂
펆
펇
펈
펉
펊
펒
펓
펚
펛
펝
펞
펢
펣
펤
펥
펦
펧
펪
펮
펹
폃
폙
폚
폛
폜
폝
폞
폟
폡
폢
폤
폦
폧
폨
폩
폪
폫
폱
폲
폶
폷
폸
폹
폺
폻
폾
퐀
퐇
퐊
퐋
퐍
퐎
퐏
퐒
퐓
퐔
퐕
퐖
퐛
퐟
퐸
퐹
퐺
퐻
퐼
퐽
퐾
퐿
푂
푃
푅
푆
푇
푉
푊
푋
푌
푍
푎
푏
푒
푔
푖
푗
푘
푙
푚
푛
푞
푟
푡
푢
푦
푨
푪
푮
푰
푲
풄
풅
풇
풏
풓
풛
풞
풟
풠
풡
풢
풣
풦
풪
풫
풭
풯
풲
풳
풵
풶
풷
풺
풻
풼
풽
퓂
퓄
퓆
퓇
퓈
퓉
퓊
퓋
퓎
퓏
퓑
퓒
퓓
퓕
퓙
퓯
퓳
퓴
퓵
퓾
퓿
픀
픂
픃
픆
픇
픉
픊
픍
픏
픑
픘
픚
픛
픢
픣
픥
픦
픧
픩
픪
픫
픬
픭
픮
픯
픲
픴
픶
픷
픻
핁
핎
핢
핯
핷
핹
핾
햀
햁
햂
햃
햆
햒
햓
햕
햖
햗
햜
햢
햦
햧
햨
햭
햼
헊
헋
헍
헎
헖
헞
헟
헦
헧
헩
헪
헮
헰
헳
헶
헻
혃
혆
혊
혋
혌
혎
혏
혝
혰
홃
홆
홊
홌
홏
홖
홗
홙
홚
홞
홟
홡
홢
홫
홮
홲
홵
홶
홹
홺
홻
홼
홽
홾
홿
횁
횂
횧
횫
횭
횮
횱
횲
횳
횴
횵
횶
횷
횺
횼
횿
훀
훂
훆
훉
훊
훏
훐
훖
훘
훢
훣
훥
훦
훧
훪
훫
훬
훭
훯
휃
휋
휐
휔
휕
휖
휚
휛
휝
휞
휡
휣
휤
휥
휦
휧
휮
휯
휲
휶
휷
휹
휾
휿
흀
흁
흂
흆
흈
흋
흌
흏
흚
흛
흜
흢
흧
흳
힄
힋
힎
힓
힔
힕
힖
힞
힟
힢
겖
겗
겘
겙
겚
겛
겵
겶
겺
곍
곎
곏
곐
곑
곒
곓
괉
괊
괎
괒
괓
괔
괕
괖
괚
괛
괝
괡
괣
괤
괲
궀
귫
귮
귰
귲
귳
귴
깦
깫
깭
깮
꺒
꺖
꺱
꺲
꺳
꺶
꺷
꺸
꺹
꺺
꺻
꺿
껁
껅
껆
껈
껉
껊
껋
껎
껔
껛
껝
껞
껡
껢
껣
껤
껥
꼆
꼊
꼋
꼌
꼎
꼏
꼒
꼓
꼕
꼖
꼘
꼺
꼾
꽀
꽄
꽋
꽍
꽎
꽶
꽷
꽺
꽻
꽼
꽽
꽾
꽿
꾂
꾃
꾅
꾆
꾉
꾊
꾋
꾌
꾍
꾎
꾏
꾒
꾖
꾗
꾘
꾙
꾚
꾛
꾝
꾞
꾟
꾡
꾢
꾦
꾧
꾨
꾪
꾮
꾯
꾰
꾵
꾶
꾷
꾻
꾽
꿄
꿊
꿌
꿒
꿓
꿖
꿗
꿙
꿚
꿞
꿟
꿠
꿡
꿢
꿣
꿦
꿪
꿫
꿬
꿭
꿮
꿳
꿵
꿶
꿹
꿺
꿼
꿽
꿾
뀆
뀇
뀈
뀉
뀊
뀋
뀎
뀏
뀑
뀒
뀕
뀖
뀗
뀘
뀚
뀛
뀞
뀣
뀤
뀥
뀦
뀧
뀫
뀭
뀮
뀯
뀲
뀳
뀴
뀶
뀷
뀺
뀼
뀾
뀿
끀
끁
끂
끃
끇
끐
끒
끖
끘
끞
끢
끣
끥
끦
끩
끪
끬
끭
끮
끯
끱
끲
끴
끶
끷
끸
끹
끺
끻
끿
낁
낂
낅
낆
낇
낈
낉
낊
낎
낒
낓
낖
낝
낥
낷
낹
낺
낽
낾
냁
냂
냆
냋
냍
냒
냓
냕
냖
냚
냜
냝
냞
냢
냧
냪
냭
냮
냯
냰
냱
냲
냳
냵
냶
냷
냸
냹
냺
냻
냼
냽
냾
냿
넂
넃
넄
넅
넆
넇
넕
넦
넩
넪
넭
넮
넯
넰
넱
넲
넳
넶
넺
넻
녅
녉
녊
녌
녍
녎
녏
녒
녖
녗
녞
녟
녡
녢
녥
녦
녧
녨
녩
녪
녫
녮
녰
녲
녳
녴
녶
녷
녽
놄
놆
놌
놖
놙
놚
놝
뇏
뇑
뇒
뇕
뇺
뇼
뇿
눃
눆
눇
눉
눊
눎
눏
눑
눒
눖
눘
눢
눣
눥
눦
눩
눪
눫
눬
눭
눮
눯
눲
눷
눸
눹
눺
눻
눾
눿
뉁
뉂
뉅
뉆
뉈
뉉
뉊
뉋
뉎
뉒
뉓
뉕
뉖
뉗
뉚
뉛
뉝
뉞
뉡
뉢
뉣
뉤
뉥
뉦
뉧
뉪
뉬
뉮
뉰
뉱
뉲
뉳
뉶
뉷
뉹
뉺
뉾
뉿
늀
늁
늂
늃
늆
늈
늌
늍
늏
늮
늯
늱
늲
늵
늶
늷
늸
늹
늺
늻
늾
닂
닃
닄
닅
닆
닇
닋
닎
닕
닖
닗
둃
딚
딝
뗾
뗿
뛁
뛂
랝
랞
뢃
뢄
멅
묧
뷑
뺷
뾁
쁲
쁳
쁷
쁸
쁹
쁺
쁻
쁾
쁿
삀
삁
삃
삄
삅
삆
삈
삉
삊
삋
삌
삍
삎
삏
삓
삕
삖
삙
삛
숣
쌏
쏗
쒩
잷
잸
잹
잺
잻
잾
쟊
쟋
쟍
쟒
쟓
쟕
쟖
쟚
쟡
쟦
쟧
쟩
쟪
쟭
쟮
쟯
쟰
쟱
쟲
쟳
쟶
쟺
쟼
쟽
쟾
쟿
젌
젍
젎
젞
젡
젢
젥
젦
젩
젪
젫
젳
젷
젽
젾
졄
졅
졆
졊
졖
졗
졙
졚
졛
졝
졞
졟
졠
졡
졢
졣
졦
졨
졪
졫
졭
졮
졯
졳
졶
졹
졻
졼
좎
좏
좑
좖
좗
좘
좙
좚
좛
좞
좣
좤
죦
죩
죪
죫
죬
죭
죮
죯
죲
죴
죺
죾
죿
줁
줂
줇
줉
쥊
쥋
쥍
쥎
쥏
쥒
쥓
쥕
쥖
쥙
쥚
쥛
쥜
쥝
쥞
쥟
쥢
쥦
쥧
쥨
쥪
쥫
쥯
즰
즱
즲
즳
즶
즸
즺
즻
즼
즽
즾
즿
짃
짅
짉
짌
짍
쨦
쨪
쨫
쨬
쨮
쨯
쨲
쨳
쨵
쨶
쨷
쨹
쨺
쨼
쨽
쨾
쨿
쩀
쩂
쩆
쪇
쪉
쪊
쪍
쪎
쪏
쪐
쪑
쪒
쪓
쪖
쪚
쪛
쪜
쪝
쪞
쪟
쪢
쪣
쪥
쪦
쪧
쫪
쫮
쫯
쫱
쫲
쫳
쫶
쫷
쫹
쫺
쫽
쫾
쫿
쬀
쬁
쬂
쬃
쬄
쬅
쬆
쬇
쬉
쬊
쭅
쭆
쭇
쭋
쭍
쭎
쭑
쭔
쭕
쭖
쭗
쭚
쭜
쭠
쭡
쭢
쭣
쭦
쭧
쭩
쭪
쮥
쮦
쮧
쮨
쮩
쮪
쮫
쮮
쮰
쮲
쮳
쮴
쮵
쮶
쮷
쮺
쮻
쮽
쮾
쮿
쯁
쯂
쯃
쯄
쯽
쯾
쯿
찂
찄
찇
찈
찉
찊
찋
찏
찑
찒
찕
찘
찙
찚
찞
찠
챾
챿
첀
첁
첂
첃
첆
첇
첈
첉
첊
첋
첍
첎
첏
첒
첓
쳛
쳜
쳝
쳞
쳟
쳢
쳦
쳨
쳩
쳪
쳮
쳯
쳱
쳲
쳳
쳵
쳶
쳷
쳸
쳹
쳺
쳻
촿
쵂
쵃
쵅
쵆
쵈
쵉
쵊
쵋
쵌
쵍
쵎
쵏
쵐
쵑
쵒
쵖
쵗
쵘
쵙
쵚
쵛
쵞
쵟
춲
춳
춵
춶
춹
춺
춻
춼
춽
춾
춿
췂
츃
츇
츉
츊
츋
츍
츏
츐
츑
츒
츓
츖
츘
츛
츜
츝
츟
츢
츣
츥
츦
츪
츫
칱
칶
칷
칹
칺
칾
칿
캀
캁
캂
캒
캓
캕
캖
캙
컖
컗
컙
컚
컜
컝
컞
컟
컠
컡
컢
컣
컦
컧
컩
컪
컮
컯
컰
컱
컲
컳
컺
콅
콆
콇
콊
콎
콏
콐
콑
콒
콓
콖
콗
콚
콝
콞
콟
콠
콡
콢
콨
쾪
쾫
쾭
쾮
쾯
쾱
쾲
쾳
쾴
쾵
쾶
쾷
쾺
쾼
쾾
쾿
쿀
쿁
쿂
쿃
쿆
쿇
쿉
쿊
쿋
퀋
퀎
퀒
퀓
퀔
퀕
퀖
퀗
퀚
퀛
퀝
퀞
퀟
퀢
퀣
퀤
퀥
퀦
퀪
큵
큷
큸
큹
킀
킂
킃
킊
킋
킍
킎
킏
킑
킒
킓
킔
탛
탞
탟
탡
탦
탧
탨
탩
탪
탫
탮
탲
탳
탴
탷
탻
탽
탾
턂
턃
턄
턿
텎
텏
텑
텒
텕
텖
텘
텙
텚
텛
텢
텧
텫
텭
톪
톫
톬
톭
톯
톴
톾
톿
퇁
퇂
퇃
퇅
퇆
퇇
퇈
퇉
퇊
퇋
퇎
툊
툋
툌
툍
툎
툏
툕
툖
툗
툙
툚
툛
툜
툞
툟
툢
툤
툦
툧
툨
퉩
퉪
퉮
퉯
퉰
퉲
퉳
퉶
퉺
퉻
퉼
퉽
퉾
퉿
튂
튃
튅
튆
튉
튊
튋
튌
틖
틗
틙
틚
틛
틝
틞
틟
틡
틢
틣
틦
틨
틪
틫
틬
틭
틮
틯
틲
틳
틵
틶
틹
틺
퍊
퍋
퍍
퍎
퍏
퍑
퍒
퍓
퍖
퍛
퍜
퍞
퍟
퍡
퍢
퍣
퍥
퍦
퍧
퍨
퍩
펯
펱
펳
펶
펷
펺
펽
펾
펿
폀
폁
폆
폊
폋
폌
폍
폎
폏
폒
폓
폖
퐗
퐚
퐜
퐡
퐢
퐣
퐥
퐦
퐧
퐨
퐩
퐪
퐫
퐬
퐭
퐮
퐯
퐰
퐱
퐲
퐴
퐵
퐶
퐷
푳
푵
푶
푺
푻
푽
풁
풃
풆
풊
풌
풎
풖
풗
풙
풚
풝
퓖
퓗
퓘
퓚
퓛
퓞
퓠
퓢
퓣
퓤
퓥
퓧
퓪
퓫
퓭
퓮
퓱
퓲
퓶
퓷
퓺
퓼
픸
픹
픺
픾
픿
핂
핅
핆
핇
핈
핉
핊
핋
핐
핒
햪
햮
햯
햱
햲
햳
햴
햵
햶
햷
햸
햹
햺
햻
햽
헂
헃
헄
헅
헆
헇
혖
혗
혘
혚
혛
혞
혟
혡
혢
혣
혥
혦
혧
혨
혩
혪
혫
혮
혲
혳
혴
혵
혶
혷
혺
횆
횇
횈
횉
횊
횋
횎
횏
횑
횒
횕
횖
횗
횘
횙
횚
횛
횠
횢
횣
횤
횥
횪
훮
훲
훶
훷
훹
훺
훻
훾
훿
휁
휂
휆
휇
휈
휉
휊
휎
휒
휓
흤
흦
흮
흯
흱
흲
흵
흶
