{"version":"1.0","truncation":null,"padding":null,"added_tokens":[{"id":0,"special":true,"content":"[UNK]","single_word":false,"lstrip":false,"rstrip":false,"normalized":false},{"id":1,"special":true,"content":"[CLS]","single_word":false,"lstrip":false,"rstrip":false,"normalized":false},{"id":2,"special":true,"content":"[SEP]","single_word":false,"lstrip":false,"rstrip":false,"normalized":false},{"id":3,"special":true,"content":"[PAD]","single_word":false,"lstrip":false,"rstrip":false,"normalized":false},{"id":4,"special":true,"content":"[MASK]","single_word":false,"lstrip":false,"rstrip":false,"normalized":false}],"normalizer":{"type":"Sequence","normalizers":[{"type":"StripAccents"}]},"pre_tokenizer":{"type":"WhitespaceSplit"},"post_processor":{"type":"TemplateProcessing","single":[{"SpecialToken":{"id":"[CLS]","type_id":0}},{"Sequence":{"id":"A","type_id":0}},{"SpecialToken":{"id":"[SEP]","type_id":0}}],"pair":[{"SpecialToken":{"id":"[CLS]","type_id":0}},{"Sequence":{"id":"A","type_id":0}},{"SpecialToken":{"id":"[SEP]","type_id":0}},{"Sequence":{"id":"B","type_id":1}},{"SpecialToken":{"id":"[SEP]","type_id":1}}],"special_tokens":{"[CLS]":{"id":"[CLS]","ids":[1],"tokens":["[CLS]"]},"[SEP]":{"id":"[SEP]","ids":[2],"tokens":["[SEP]"]}}},"decoder":null,"model":{"type":"WordPiece","unk_token":"[UNK]","continuing_subword_prefix":"##","max_input_chars_per_word":100,"vocab":{"[UNK]":0,"[CLS]":1,"[SEP]":2,"[PAD]":3,"[MASK]":4,"!":5,"\"":6,"#":7,"$":8,"%":9,"&":10,"'":11,"(":12,")":13,"*":14,"+":15,",":16,"-":17,".":18,"/":19,"0":20,"1":21,"2":22,"3":23,"4":24,"5":25,"6":26,"7":27,"8":28,"9":29,":":30,";":31,"<":32,"=":33,">":34,"?":35,"@":36,"A":37,"B":38,"C":39,"D":40,"E":41,"F":42,"G":43,"H":44,"I":45,"J":46,"K":47,"L":48,"M":49,"N":50,"O":51,"P":52,"Q":53,"R":54,"S":55,"T":56,"U":57,"V":58,"W":59,"X":60,"Y":61,"Z":62,"[":63,"\\":64,"]":65,"^":66,"_":67,"`":68,"a":69,"b":70,"c":71,"d":72,"e":73,"f":74,"g":75,"h":76,"i":77,"j":78,"k":79,"l":80,"m":81,"n":82,"o":83,"p":84,"q":85,"r":86,"s":87,"t":88,"u":89,"v":90,"w":91,"x":92,"y":93,"z":94,"{":95,"|":96,"}":97,"~":98,"":99,"ᄀ":100,"ᄁ":101,"ᄂ":102,"ᄃ":103,"ᄄ":104,"ᄅ":105,"ᄆ":106,"ᄇ":107,"ᄈ":108,"ᄉ":109,"ᄊ":110,"ᄋ":111,"ᄌ":112,"ᄍ":113,"ᄎ":114,"ᄏ":115,"ᄐ":116,"ᄑ":117,"ᄒ":118,"ᅡ":119,"ᅢ":120,"ᅣ":121,"ᅤ":122,"ᅥ":123,"ᅦ":124,"ᅧ":125,"ᅨ":126,"ᅩ":127,"ᅪ":128,"ᅫ":129,"ᅬ":130,"ᅭ":131,"ᅮ":132,"ᅯ":133,"ᅰ":134,"ᅱ":135,"ᅲ":136,"ᅳ":137,"ᅴ":138,"ᅵ":139,"ᆨ":140,"ᆩ":141,"ᆪ":142,"ᆫ":143,"ᆬ":144,"ᆭ":145,"ᆮ":146,"ᆯ":147,"ᆰ":148,"ᆱ":149,"ᆲ":150,"ᆳ":151,"ᆴ":152,"ᆵ":153,"ᆶ":154,"ᆷ":155,"ᆸ":156,"ᆹ":157,"ᆺ":158,"ᆻ":159,"ᆼ":160,"ᆽ":161,"ᆾ":162,"ᆿ":163,"ᇀ":164,"ᇁ":165,"ᇂ":166,"ㄱ":167,"ㄲ":168,"ㄳ":169,"ㄴ":170,"ㄵ":171,"ㄶ":172,"ㄷ":173,"ㄸ":174,"ㄹ":175,"ㄺ":176,"ㄻ":177,"ㄼ":178,"ㄽ":179,"ㄾ":180,"ㄿ":181,"ㅀ":182,"ㅁ":183,"ㅂ":184,"ㅃ":185,"ㅄ":186,"ㅅ":187,"ㅆ":188,"ㅇ":189,"ㅈ":190,"ㅉ":191,"ㅊ":192,"ㅋ":193,"ㅌ":194,"ㅍ":195,"ㅎ":196,"ㅏ":197,"ㅐ":198,"ㅑ":199,"ㅒ":200,"ㅓ":201,"ㅔ":202,"ㅕ":203,"ㅖ":204,"ㅗ":205,"ㅘ":206,"ㅙ":207,"ㅚ":208,"ㅛ":209,"ㅜ":210,"ㅝ":211,"ㅞ":212,"ㅟ":213,"ㅠ":214,"ㅡ":215,"ㅢ":216,"ㅣ":217,"##ᅦ":218,"##ᄋ":219,"##ᅥ":220,"##ᄅ":221,"##ᅩ":222,"##ᄉ":223,"##ᅳ":224,"##ᄆ":225,"##ᅵ":226,"##i":227,"##n":228,"##g":229,"##5":230,"##1":231,"##9":232,"##o":233,"##j":234,"##h":235,"##u":236,"##s":237,"##e":238,"##ᅱ":239,"##ᄒ":240,"##a":241,"##v":242,"##f":243,"##r":244,"##ᅡ":245,"##ᆼ":246,"##ᅢ":247,"##ᄌ":248,"##ᆫ":249,"##ᄑ":250,"##ᅭ":251,"##ᄃ":252,"##ᆯ":253,"##c":254,"##l":255,"##k":256,"##ᅧ":257,"##ᆨ":258,"##t":259,"##A":260,"##S":261,"##U":262,"##K":263,"##O":264,"##ᄂ":265,"##4":266,"##8":267,"##3":268,"##6":269,"##w":270,"##d":271,"##ᆷ":272,"##ᅣ":273,"##x":274,"##p":275,"##m":276,"##ᄎ":277,"##ᅮ":278,"##ᄇ":279,"##ᄀ":280,"##G":281,"##M":282,"##E":283,"##N":284,"##I":285,"##0":286,"##b":287,"##y":288,"##ᆸ":289,"##ᄐ":290,"##ᆺ":291,"##T":292,"##R":293,"##L":294,"##ᅨ":295,"##Y":296,"##ᅴ":297,"##F":298,"##V":299,"##ᄍ":300,"##ᄊ":301,"##2":302,"##7":303,"##H":304,"##B":305,"##ᅪ":306,"##ᆻ":307,"##C":308,"##ᄏ":309,"##ᇀ":310,"##ᅲ":311,"##D":312,"##P":313,"##ᅯ":314,"##ᅬ":315,"##ㅘ":316,"##ㅂ":317,"##ᆽ":318,"##ᇁ":319,"##ᅤ":320,"##z":321,"##X":322,"##W":323,"##ᄄ":324,"##ᆿ":325,"##%":326,"##,":327,"##Q":328,"##ᆰ":329,"##ᆩ":330,"##ㅍ":331,"##ㅜ":332,"##ㄹ":333,"##ㅡ":334,"##ㄴ":335,"##ㅋ":336,"##ㅏ":337,"##ㅣ":338,"##ㄳ":339,"##ᆲ":340,"##ᅰ":341,"##ᆹ":342,"##ᄁ":343,"##q":344,"##Z":345,"##ᆱ":346,"##]":347,"##=":348,"##ᆬ":349,"##ᆮ":350,"##!":351,"##?":352,"##\"":353,"##ᆴ":354,"###":355,"##^":356,"##@":357,"##&":358,"##*":359,"##<":360,"##ㄱ":361,"##ㅎ":362,"##ㅇ":363,"##'":364,"##J":365,"##ㄶ":366,"##/":367,"##)":368,"##:":369,"##ᇂ":370,"##ᆵ":371,"##ㅄ":372,"##ㅓ":373,"##ㄼ":374,"##ㄷ":375,"##ㄸ":376,"##ᆳ":377,"##.":378,"##ᅫ":379,"##ㄲ":380,"##ᆭ":381,"##ᆾ":382,"##ㅛ":383,"##ㅆ":384,"##ㅔ":385,"##ㅌ":386,"##-":387,"##>":388,"##ㅙ":389,"##ㅁ":390,"##ㅗ":391,"##ㅑ":392,"##ㅚ":393,"##ㅈ":394,"##ㅒ":395,"##ㄺ":396,"##~":397,"##(":398,"##ㅅ":399,"##_":400,"##ㅐ":401,"##ㅊ":402,"##ᆶ":403,"##ㄾ":404,"##ㅠ":405,"##}":406,"##{":407,"##ㄵ":408,"##ㅢ":409,"##\\":410,"##ᄈ":411,"##[":412,"##$":413,"##ㅞ":414,"##ᆪ":415,"##;":416,"##|":417,"##ㅟ":418,"##ㅖ":419,"##ㅀ":420,"##`":421,"##+":422,"##ㅕ":423,"##ㄽ":424,"##ㄿ":425,"##ㄻ":426,"##ㅉ":427,"##ㅝ":428,"##ㅃ":429,"##":430,"이":431,"##ᅳᆫ":432,"##ᅳᆯ":433,"##ᅡᆫ":434,"에":435,"다":436,"는":437,"하":438,"##ᅥᆫ":439,"##ᅡᆼ":440,"의":441,"##이":442,"가":443,"을":444,"##ᅧᆫ":445,"##서":446,"##ᅳᄅ":447,"고":448,"어":449,"##ᅮᆫ":450,"아":451,"##ᅵᆫ":452,"##ᅧᆼ":453,"도":454,"한":455,"##다":456,"를":457,"지":458,"은":459,"##지":460,"##리":461,"##ᅥᆼ":462,"기":463,"##ᅡᆯ":464,"##스":465,"시":466,"##ᅩᆼ":467,"해":468,"##ᅮᆯ":469,"##ᅡᆨ":470,"##ᅳ로":471,"##ᅩᆨ":472,"로":473,"있":474,"되":475,"##시":476,"##ᅧᆨ":477,"사":478,"거":479,"##ᅩᆫ":480,"으로":481,"에서":482,"주":483,"##ᅳᆼ":484,"##ᅥᆨ":485,"인":486,"나":487,"##어":488,"과":489,"대":490,"##기":491,"##나":492,"들":493,"자":494,"마":495,"수":496,"게":497,"##가":498,"보":499,"##고":500,"여":501,"라":502,"##ᅮᆨ":503,"##라":504,"그":505,"##ᅢᆼ":506,"와":507,"일":508,"##도":509,"##ᅥᆷ":510,"었":511,"##ᅯᆫ":512,"모":513,"전":514,"##ᅳᆷ":515,"##ᅥᆯ":516,"##드":517,"##사":518,"##로":519,"##인":520,"##니":521,"적":522,"##장":523,"##요":524,"면":525,"부":526,"바":527,"##우":528,"##자":529,"것":530,"##만":531,"년":532,"했":533,"##대":534,"##트":535,"만":536,"##해":537,"스":538,"오":539,"정":540,"화":541,"조":542,"##치":543,"##하":544,"##화":545,"##ᅧᆯ":546,"상":547,"##ᅦ이":548,"유":549,"##아":550,"20":551,"##수":552,"##정":553,"##ᅣᆼ":554,"미":555,"##는":556,"공":557,"그ᄅ":558,"한다":559,"##터":560,"때":561,"##상":562,"##주":563,"##전":564,"비":565,"위":566,"제":567,"중":568,"경":569,"##ᅢᆨ":570,"##게":571,"##데":572,"##한":573,"된":574,"##국":575,"##용":576,"차":577,"##력":578,"##제":579,"##ᅯᆯ":580,"##부":581,"소":582,"##르":583,"무":584,"##신":585,"##히":586,"세":587,"##성":588,"##미":589,"##려":590,"없":591,"노":592,"##문":593,"##ᅳᆨ":594,"##구":595,"등":596,"성":597,"##야":598,"##ᅥᆸ":599,"지만":600,"##면":601,"할":602,"며":603,"##과":604,"않":605,"##마":606,"##원":607,"월":608,"##격":609,"##동":610,"개":611,"에게":612,"던":613,"##오":614,"##간":615,"구":616,"서":617,"내":618,"##ᅵᆯ":619,"타":620,"##타":621,"으":622,"##진":623,"##ᅵᆷ":624,"##러":625,"선":626,"201":627,"동":628,"장":629,"방":630,"리":631,"연":632,"후":633,"##유":634,"영":635,"신":636,"우":637,"였":638,"카":639,"요":640,"발":641,"##ᅢᆫ":642,"##그":643,"##선":644,"##체":645,"까":646,"안":647,"당":648,"##비":649,"말":650,"생":651,"##소":652,"##일":653,"버":654,"진":655,"##작":656,"야":657,"더":658,"##거":659,"##여":660,"##키":661,"는데":662,"##며":663,"##명":664,"##무":665,"##계":666,"파":667,"원":668,"처":669,"추":670,"포":671,"회":672,"##ᆯ리":673,"때문":674,"명":675,"##재":676,"19":677,"##운":678,"강":679,"까지":680,"##식":681,"데":682,"##위":683,"##의":684,"##보":685,"최":686,"문":687,"##ᅳᆯᄅ":688,"##른":689,"##00":690,"##당":691,"실":692,"##후":693,"불":694,"같":695,"##카":696,"##크":697,"##음":698,"번":699,"레":700,"관":701,"단":702,"##와":703,"된다":704,"코":705,"##교":706,"받":707,"라고":708,"라는":709,"##행":710,"##물":711,"호":712,"##실":713,"##단":714,"##즈":715,"이ᄅ":716,"##능":717,"##ᅧᆻ":718,"았":719,"결":720,"##학":721,"##역":722,"배":723,"##회":724,"##티":725,"##ᅦᆫ":726,"반":727,"초":728,"피":729,"많":730,"##ᅳ리":731,"##공":732,"특":733,"##ᅦᆯ":734,"다고":735,"작":736,"역":737,"##임":738,"##들":739,"##람":740,"##속":741,"##토":742,"##버":743,"##모":744,"매":745,"계":746,"##내":747,"면서":748,"##반":749,"##차":750,"알":751,"##디":752,"분":753,"드":754,"##점":755,"남":756,"##분":757,"##조":758,"##래":759,"##산":760,"국":761,"함":762,"##생":763,"경우":764,"10":765,"##프":766,"##각":767,"##본":768,"출":769,"사용":770,"아니":771,"치":772,"현":773,"건":774,"##록":775,"다는":776,"물":777,"공격":778,"##연":779,"본":780,"##중":781,"두":782,"##두":783,"니":784,"예":785,"이후":786,"##군":787,"##피":788,"##관":789,"##호":790,"##린":791,"##으":792,"##류":793,"자신":794,"교":795,"##안":796,"따":797,"못":798,"입":799,"감":800,"학":801,"통":802,"재":803,"##저":804,"저":805,"또":806,"편":807,"캐":808,"점":809,"##민":810,"##태":811,"##세":812,"패":813,"메":814,"##영":815,"좋":816,"사람":817,"##코":818,"그러":819,"##노":820,"##준":821,"##바":822,"##급":823,"##ᅮᆷ":824,"그리":825,"##금":826,"##경":827,"정도":828,"애":829,"##방":830,"##법":831,"##발":832,"##적":833,"##난":834,"##종":835,"군":836,"속":837,"##든":838,"설":839,"형":840,"키":841,"##건":842,"부터":843,"##ᅳ라":844,"으며":845,"##업":846,"##통":847,"##습":848,"##워":849,"김":850,"##포":851,"참":852,"토":853,"가능":854,"다른":855,"##승":856,"외":857,"##양":858,"평":859,"##온":860,"너":861,"##술":862,"종":863,"##루":864,"##파":865,"##브":866,"음":867,"##테":868,"##료":869,"권":870,"이나":871,"##녀":872,"간":873,"살":874,"##직":875,"승":876,"12":877,"해서":878,"죽":879,"##심":880,"##레":881,"보다":882,"팀":883,"걸":884,"체":885,"200":886,"뒤":887,"등장":888,"##스트":889,"달":890,"직":891,"##션":892,"판":893,"는다":894,"대한":895,"##입":896,"돌":897,"##투":898,"11":899,"아이":900,"##표":901,"용":902,"루":903,"그리고":904,"확":905,"게임":906,"시ᄌ":907,"하나":908,"잘":909,"운":910,"행":911,"경기":912,"변":913,"심":914,"##져":915,"..":916,"테":917,"네":918,"디":919,"위해":920,"맞":921,"##론":922,"필":923,"##개":924,"##판":925,"박":926,"##약":927,"##울":928,"##족":929,"다가":930,"##ᆯ라":931,"스ᄏ":932,"##er":933,"사실":934,"채":935,"쓰":936,"활":937,"투":938,"집":939,"끄":940,"시간":941,"##황":942,"##령":943,"날":944,"##에":945,"##형":946,"엔":947,"##출":948,"##량":949,"##너":950,"목":951,"히":952,"듯":953,"나오":954,"##매":955,"플ᄅ":956,"양":957,"##련":958,"약":959,"##설":960,"##합":961,"언":962,"각":963,"높":964,"##께":965,"##향":966,"사이":967,"##청":968,"시작":969,"표":970,"##품":971,"##석":972,"##현":973,"##언":974,"##더":975,"일본":976,"##복":977,"이상":978,"##망":979,"이름":980,"모습":981,"왕":982,"순":983,"##츠":984,"태":985,"##란":986,"함께":987,"##니다":988,"##질":989,"존":990,"준":991,"##외":992,"임":993,"##지만":994,"##까":995,"려":996,"상대":997,"프로":998,"##ᆨ터":999,"독":1000,"증":1001,"한국":1002,"문제":1003,"베":1004,"15":1005,"새":1006,"##환":1007,"거나":1008,"다시":1009,"병":1010,"##머":1011,"천":1012,"합":1013,"볼":1014,"##네":1015,"총":1016,"잡":1017,"손":1018,"어서":1019,"##in":1020,"효":1021,"하지만":1022,"크":1023,"커":1024,"능":1025,"##스터":1026,"만들":1027,"생각":1028,"스ᄐ":1029,"별":1030,"힘":1031,"완":1032,"##독":1033,"##혀":1034,"캐리":1035,"열":1036,"##럼":1037,"끝":1038,"난":1039,"으면":1040,"따라":1041,"겠":1042,"##송":1043,"항":1044,"막":1045,"또한":1046,"보여":1047,"##병":1048,"들어":1049,"가지":1050,"##목":1051,"폭":1052,"##천":1053,"가장":1054,"복":1055,"산":1056,"근":1057,"광":1058,"##험":1059,"티":1060,"시ᄏ":1061,"식":1062,"##ᅮᆼ":1063,"##졌":1064,"당시":1065,"##배":1066,"##대로":1067,"시즌":1068,"삼":1069,"플레이":1070,"먹":1071,"##막":1072,"친":1073,"처럼":1074,"캐릭터":1075,"및":1076,"18":1077,"줄":1078,"검":1079,"##on":1080,"능력":1081,"##립":1082,"싸":1083,"##년":1084,"##렸":1085,"모두":1086,"##락":1087,"##ᅳ러":1088,"누":1089,"상황":1090,"백":1091,"충":1092,"##색":1093,"상태":1094,"민":1095,"##겨":1096,"##결":1097,"##했":1098,"##근":1099,"##감":1100,"##퍼":1101,"##쪽":1102,"쿠":1103,"##말":1104,"머":1105,"모든":1106,"러":1107,"씨":1108,"추가":1109,"금":1110,"##닌":1111,"길":1112,"결국":1113,"슈":1114,"빠":1115,"앞":1116,"##랑":1117,"##함":1118,"세계":1119,"라이":1120,"##악":1121,"선수":1122,"##an":1123,"##초":1124,"##벨":1125,"##담":1126,"16":1127,"##or":1128,"스킬":1129,"카드":1130,"곡":1131,"##살":1132,"느":1133,"터":1134,"##미지":1135,"##탄":1136,"그래":1137,"##ᅳᆯ리":1138,"##것":1139,"업":1140,"현재":1141,"##등":1142,"##ᅳ래":1143,"보이":1144,"될":1145,"온":1146,"악":1147,"넘":1148,"##메":1149,"##편":1150,"다만":1151,"##남":1152,"##쿠":1153,"##케":1154,"많이":1155,"##쟁":1156,"##ᅥᆯ어":1157,"전투":1158,"쉬":1159,"효과":1160,"다음":1161,"30":1162,"급":1163,"그러나":1164,"눈":1165,"##할":1166,"그런":1167,"존재":1168,"큰":1169,"얼":1170,"지역":1171,"으나":1172,"##으며":1173,"프ᄅ":1174,"13":1175,"미국":1176,"페":1177,"취":1178,"##움":1179,"시리":1180,"첫":1181,"##ᇂ게":1182,"##항":1183,"청":1184,"##접":1185,"##냥":1186,"14":1187,"199":1188,"매우":1189,"##예":1190,"레이":1191,"법":1192,"황":1193,"##ar":1194,"창":1195,"##택":1196,"##으나":1197,"##쳐":1198,"트":1199,"습":1200,"허":1201,"이ᄇ":1202,"##름":1203,"나온":1204,"북":1205,"17":1206,"##견":1207,"절":1208,"극":1209,"##존":1210,"##절":1211,"대학":1212,"긴":1213,"얻":1214,"##ᅢᆫ드":1215,"골":1216,"##강":1217,"##페":1218,"##처":1219,"상당":1220,"##어나":1221,"레벨":1222,"기록":1223,"##범":1224,"##he":1225,"시리즈":1226,"찾":1227,"째":1228,"스타":1229,"탄":1230,"##인다":1231,"##집":1232,"괴":1233,"##at":1234,"시키":1235,"이유":1236,"기술":1237,"대해":1238,"뿐":1239,"철":1240,"다면":1241,"물론":1242,"무기":1243,"바ᄁ":1244,"##득":1245,"엄":1246,"##왔":1247,"겨":1248,"팬":1249,"어ᄄ":1250,"이러":1251,"##은":1252,"탈":1253,"이용":1254,"여러":1255,"##왕":1256,"처음":1257,"##날":1258,"##규":1259,"자체":1260,"해야":1261,"##패":1262,"방송":1263,"곳":1264,"100":1265,"이런":1266,"같이":1267,"아닌":1268,"##별":1269,"필요":1270,"영화":1271,"워":1272,"##템":1273,"실제":1274,"환":1275,"##널":1276,"##커":1277,"해당":1278,"여기":1279,"25":1280,"피해":1281,"돼":1282,"올":1283,"마법":1284,"주인":1285,"통해":1286,"##곡":1287,"##ᆨ스":1288,"귀":1289,"##탈":1290,"질":1291,"꼬":1292,"##열":1293,"일반":1294,"##글":1295,"돌아":1296,"규":1297,"거의":1298,"##달":1299,"역시":1300,"바로":1301,"인데":1302,"리그":1303,"인지":1304,"학교":1305,"혼":1306,"범":1307,"##ᅵᆫ다":1308,"잠":1309,"사건":1310,"##거리":1311,"버리":1312,"##큼":1313,"##en":1314,"갈":1315,"이야":1316,"혀":1317,"특히":1318,"관련":1319,"유니":1320,"기본":1321,"##추":1322,"둘":1323,"2017":1324,"붙":1325,"##느":1326,"##착":1327,"##박":1328,"즉":1329,"부분":1330,"위치":1331,"놓":1332,"몬":1333,"류":1334,"란":1335,"##진다":1336,"진행":1337,"##ou":1338,"##ᅳ레":1339,"아무":1340,"방어":1341,"격":1342,"##린다":1343,"뜨":1344,"2018":1345,"밖":1346,"##칭":1347,"이야기":1348,"##부분":1349,"축":1350,"대표":1351,"담":1352,"냐":1353,"달리":1354,"떨어":1355,"##창":1356,"마지":1357,"국가":1358,"좀":1359,"올라":1360,"글":1361,"는지":1362,"없이":1363,"못하":1364,"제작":1365,"##권":1366,"##찰":1367,"헤":1368,"활동":1369,"인간":1370,"에선":1371,"##찬":1372,"동안":1373,"##육":1374,"밝":1375,"작품":1376,"블ᄅ":1377,"봐":1378,"##례":1379,"웨":1380,"증가":1381,"##변":1382,"싶":1383,"##때":1384,"##틀":1385,"##괴":1386,"밀":1387,"대부분":1388,"샤":1389,"아서":1390,"##al":1391,"접":1392,"비스":1393,"##런":1394,"마지막":1395,"본인":1396,"떠":1397,"몸":1398,"2019":1399,"자기":1400,"##ᅳ레이":1401,"풀":1402,"일부":1403,"##혼":1404,"계속":1405,"##활":1406,"##을":1407,"##시아":1408,"21":1409,"암":1410,"서울":1411,"라면":1412,"##극":1413,"몇":1414,"든":1415,"해도":1416,"내용":1417,"만큼":1418,"##es":1419,"##광":1420,"##순":1421,"인해":1422,"팔":1423,"주인공":1424,"##률":1425,"2016":1426,"덕":1427,"감독":1428,"보인다":1429,"##희":1430,"참고":1431,"속도":1432,"관계":1433,"50":1434,"##철":1435,"##월":1436,"맡":1437,"어려":1438,"##리아":1439,"##전히":1440,"##슨":1441,"찌":1442,"중국":1443,"느ᄁ":1444,"##돌":1445,"대신":1446,"##베":1447,"수준":1448,"이전":1449,"그냥":1450,"##턴":1451,"우리":1452,"##없":1453,"쪽":1454,"타이":1455,"비슷":1456,"어느":1457,"논":1458,"나이":1459,"##징":1460,"전쟁":1461,"지금":1462,"##갈":1463,"##한다":1464,"희":1465,"##응":1466,"성공":1467,"22":1468,"스토":1469,"클ᄅ":1470,"벌":1471,"낮":1472,"##ᅦ이션":1473,"기준":1474,"홍":1475,"뛰":1476,"##애":1477,"인물":1478,"##친":1479,"들어가":1480,"새로":1481,"습니다":1482,"##불":1483,"퍼":1484,"도시":1485,"협":1486,"울":1487,"##벌":1488,"198":1489,"상당히":1490,"공격력":1491,"그녀":1492,"딜":1493,"자리":1494,"24":1495,"##율":1496,"마다":1497,"도록":1498,"최대":1499,"기사":1500,"##민국":1501,"##랴":1502,"결과":1503,"홈":1504,"지원":1505,"먼":1506,"그대로":1507,"평가":1508,"케":1509,"##ᆷ버":1510,"시절":1511,"나가":1512,"##증":1513,"몰":1514,"너무":1515,"센":1516,"육":1517,"뉴":1518,"넣":1519,"므로":1520,"##ᅦᆫ트":1521,"##략":1522,"제외":1523,"보스":1524,"##it":1525,"연구":1526,"##ᅳᆯ로":1527,"##버지":1528,"의미":1529,"망":1530,"의해":1531,"나타":1532,"##ᅦ이지":1533,"##ᅳᆯ라":1534,"##축":1535,"##백":1536,"측":1537,"소속":1538,"짜":1539,"##북":1540,"이미":1541,"봉":1542,"실제로":1543,"##귀":1544,"승리":1545,"칼":1546,"직접":1547,"전체":1548,"2015":1549,"##책":1550,"영상":1551,"대한민국":1552,"향":1553,"23":1554,"##굴":1555,"유닛":1556,"원래":1557,"체력":1558,"여자":1559,"##부터":1560,"로서":1561,"됐":1562,"언급":1563,"그렇":1564,"##ᅦ일":1565,"맨":1566,"##획":1567,"대로":1568,"드라":1569,"##념":1570,"묘":1571,"개발":1572,"써":1573,"데미지":1574,"멤버":1575,"##ing":1576,"유저":1577,"알려":1578,"갖":1579,"##st":1580,"##le":1581,"머리":1582,"##학교":1583,"##ic":1584,"휴":1585,"이동":1586,"##앙":1587,"마음":1588,"올리":1589,"설정":1590,"##몬":1591,"40":1592,"컨":1593,"##다가":1594,"정보":1595,"책":1596,"씩":1597,"다르":1598,"쇼":1599,"쉽":1600,"문서":1601,"방법":1602,"쓸":1603,"선택":1604,"애니":1605,"님":1606,"##re":1607,"##늘":1608,"줘":1609,"과거":1610,"##ᆷ피":1611,"이것":1612,"가까":1613,"돈":1614,"몬스터":1615,"으니":1616,"##운드":1617,"왜":1618,"츠":1619,"이어":1620,"프리":1621,"##평":1622,"##긴":1623,"출연":1624,"성우":1625,"차이":1626,"송":1627,"갑":1628,"친구":1629,"깨":1630,"##걸":1631,"포함":1632,"##욱":1633,"침":1634,"##블":1635,"##dd":1636,"석":1637,"위한":1638,"##가지":1639,"##닝":1640,"농":1641,"지나":1642,"뜻":1643,"소리":1644,"압":1645,"나온다":1646,"탑":1647,"##ᅦ이스":1648,"대상":1649,"설명":1650,"엄청":1651,"##짜":1652,"혹":1653,"파이":1654,"어ᄍ":1655,"크리":1656,"사회":1657,"##총":1658,"준다":1659,"바람":1660,"플레이어":1661,"장면":1662,"나왔":1663,"##딩":1664,"우승":1665,"##웅":1666,"최고":1667,"##침":1668,"비해":1669,"여성":1670,"##봉":1671,"버전":1672,"사랑":1673,"링":1674,"바뀌":1675,"아버지":1676,"빼":1677,"동시":1678,"공식":1679,"##팅":1680,"유명":1681,"시대":1682,"엘":1683,"당하":1684,"거리":1685,"2014":1686,"만든":1687,"즈":1688,"배우":1689,"##켓":1690,"발생":1691,"이루":1692,"영향":1693,"사망":1694,"마이":1695,"주로":1696,"꽤":1697,"대회":1698,"려고":1699,"프랑":1700,"##주의":1701,"궁":1702,"남자":1703,"층":1704,"색":1705,"결정":1706,"##겼":1707,"##곤":1708,"조금":1709,"트ᄅ":1710,"##필":1711,"발매":1712,"섬":1713,"빨":1714,"26":1715,"주장":1716,"출신":1717,"만나":1718,"아이템":1719,"나라":1720,"##ff":1721,"초반":1722,"000":1723,"역사":1724,"사라":1725,"인터":1726,"학생":1727,"##어난":1728,"전부":1729,"버스":1730,"공개":1731,"28":1732,"##밀":1733,"##쉬":1734,"운영":1735,"보내":1736,"서로":1737,"유지":1738,"잔":1739,"콘":1740,"스토리":1741,"##ᆯ로":1742,"##el":1743,"답":1744,"한다는":1745,"27":1746,"대사":1747,"구성":1748,"늘":1749,"##염":1750,"파괴":1751,"제대로":1752,"##am":1753,"했으나":1754,"정부":1755,"방식":1756,"그것":1757,"듣":1758,"음악":1759,"강화":1760,"자주":1761,"31":1762,"중요":1763,"아직":1764,"후반":1765,"이때":1766,"또는":1767,"노래":1768,"월드":1769,"##스ᄐ":1770,"모드":1771,"##델":1772,"the":1773,"정치":1774,"과정":1775,"형태":1776,"최종":1777,"역할":1778,"독일":1779,"래":1780,"##라도":1781,"##길":1782,"흐":1783,"억":1784,"시스":1785,"마리":1786,"좌":1787,"휘":1788,"최초":1789,"##ᅦ이트":1790,"르":1791,"멀":1792,"대전":1793,"##벽":1794,"착":1795,"뽀":1796,"찍":1797,"이벤트":1798,"시켜":1799,"모르":1800,"##om":1801,"##머니":1802,"강력":1803,"어떠":1804,"빌":1805,"##슬":1806,"아래":1807,"##얼":1808,"정말":1809,"변경":1810,"회복":1811,"움":1812,"##맨":1813,"##먹":1814,"##확":1815,"기존":1816,"어떤":1817,"싱":1818,"그런데":1819,"바이":1820,"##잡":1821,"졌":1822,"##우스":1823,"영국":1824,"보통":1825,"##었":1826,"드래":1827,"비교":1828,"##림":1829,"소환":1830,"라도":1831,"정신":1832,"##른다":1833,"##객":1834,"폐":1835,"마찬":1836,"마찬가지":1837,"##갑":1838,"##la":1839,"가진":1840,"조선":1841,"부르":1842,"인기":1843,"당연":1844,"##측":1845,"특성":1846,"##컬":1847,"##is":1848,"앨":1849,"성능":1850,"못했":1851,"확률":1852,"속성":1853,"마을":1854,"##프트":1855,"##플":1856,"##번":1857,"행동":1858,"##이도":1859,"##훈":1860,"2013":1861,"윤":1862,"다이":1863,"푸":1864,"슈퍼":1865,"왔":1866,"오히":1867,"노선":1868,"모양":1869,"##덕":1870,"이제":1871,"끌":1872,"오히려":1873,"##써":1874,"턴":1875,"풍":1876,"##풍":1877,"자유":1878,"아들":1879,"빈":1880,"교육":1881,"197":1882,"발견":1883,"차량":1884,"##억":1885,"라인":1886,"##휘":1887,"29":1888,"##퇴":1889,"수록":1890,"##였":1891,"메이":1892,"따르":1893,"게다가":1894,"술":1895,"32":1896,"부족":1897,"특수":1898,"끼":1899,"하이":1900,"##et":1901,"##를":1902,"이번":1903,"00":1904,"대학교":1905,"확인":1906,"그래서":1907,"성격":1908,"문화":1909,"프랑스":1910,"유일":1911,"활약":1912,"##손":1913,"차지":1914,"흑":1915,"새로운":1916,"했으며":1917,"칸":1918,"##ol":1919,"2012":1920,"장비":1921,"관리":1922,"##ion":1923,"버렸":1924,"아예":1925,"##ᅳ라이":1926,"스페":1927,"영웅":1928,"응":1929,"그래도":1930,"##ᅮᆸ":1931,"일단":1932,"입장":1933,"녹":1934,"찾아":1935,"##ᆯ러":1936,"액":1937,"생산":1938,"시스템":1939,"##럽":1940,"빛":1941,"이렇게":1942,"##지어":1943,"제국":1944,"##낸":1945,"흔":1946,"훈":1947,"숨":1948,"##폭":1949,"고등":1950,"뽑":1951,"##웨":1952,"##ᅦ임":1953,"##간다":1954,"##숙":1955,"데ᄇ":1956,"먼저":1957,"심지어":1958,"득":1959,"프로ᄀ":1960,"##끼":1961,"##던":1962,"다니":1963,"##누":1964,"##라이":1965,"경찰":1966,"반대":1967,"##디오":1968,"계획":1969,"주변":1970,"넘어":1971,"운동":1972,"##ᅳ려":1973,"2010":1974,"어야":1975,"앨범":1976,"맵":1977,"자동":1978,"거기":1979,"##골":1980,"획":1981,"완전히":1982,"조건":1983,"드러":1984,"곤":1985,"데이":1986,"내려":1987,"우주":1988,"기간":1989,"사진":1990,"##ᅢᆼ크":1991,"힘들":1992,"애니ᄆ":1993,"난이도":1994,"부대":1995,"개인":1996,"##옥":1997,"적용":1998,"발동":1999,"불리":2000,"기능":2001,"##ow":2002,"##새":2003,"지구":2004,"뮤":2005,"건물":2006,"##먼":2007,"60":2008,"감소":2009,"위원":2010,"잃":2011,"##nd":2012,"km":2013,"##멸":2014,"##20":2015,"축구":2016,"자세":2017,"##튼":2018,"##통령":2019,"##il":2020,"##ig":2021,"##므로":2022,"중심":2023,"한다고":2024,"모델":2025,"에피":2026,"##ed":2027,"실패":2028,"헌":2029,"딸":2030,"견":2031,"##웠":2032,"클리":2033,"##곳":2034,"혹은":2035,"중앙":2036,"선거":2037,"라며":2038,"##볼":2039,"현대":2040,"35":2041,"쏘":2042,"으로서":2043,"회사":2044,"덕분":2045,"##ᆼ장":2046,"##인트":2047,"세트":2048,"초기":2049,"전혀":2050,"얼굴":2051,"트리":2052,"작가":2053,"시기":2054,"##ᅩᆾ":2055,"듀":2056,"표현":2057,"따라서":2058,"국내":2059,"슬":2060,"##충":2061,"바다":2062,"##ᅳ루":2063,"##탁":2064,"원작":2065,"대통령":2066,"패배":2067,"스ᄑ":2068,"위해서":2069,"민주":2070,"뭐":2071,"##슈":2072,"##너지":2073,"##웃":2074,"처리":2075,"순간":2076,"TV":2077,"크로":2078,"하루":2079,"동일":2080,"지속":2081,"드라마":2082,"반응":2083,"지방":2084,"합니다":2085,"##익":2086,"##뢰":2087,"##균":2088,"도움":2089,"##혔":2090,"얼마":2091,"더라도":2092,"인정":2093,"##버스":2094,"참여":2095,"기관":2096,"맥":2097,"##ᅳ램":2098,"애니메이션":2099,"출시":2100,"##니아":2101,"명칭":2102,"##ac":2103,"판매":2104,"담당":2105,"데뷔":2106,"##as":2107,"짓":2108,"##엘":2109,"오브":2110,"벨":2111,"퇴":2112,"##BS":2113,"##압":2114,"정확":2115,"##나마":2116,"요구":2117,"획득":2118,"196":2119,"땅":2120,"굉장":2121,"##없이":2122,"##룡":2123,"에이":2124,"생활":2125,"그렇게":2126,"of":2127,"시점":2128,"컴":2129,"쳐":2130,"2011":2131,"작중":2132,"다양":2133,"##릴":2134,"발표":2135,"##이드":2136,"설치":2137,"밖에":2138,"후보":2139,"그룹":2140,"상승":2141,"##끔":2142,"진출":2143,"선발":2144,"아군":2145,"구조":2146,"기억":2147,"항목":2148,"Lv":2149,"쓴":2150,"게이":2151,"영어":2152,"만화":2153,"가격":2154,"움직":2155,"##클":2156,"탐":2157,"단계":2158,"꺼":2159,"족":2160,"그림":2161,"##소드":2162,"밤":2163,"특별":2164,"마스터":2165,"물리":2166,"실력":2167,"가져":2168,"졸":2169,"##ve":2170,"오래":2171,"그나마":2172,"핵":2173,"랑":2174,"조차":2175,"##죄":2176,"량":2177,"드래곤":2178,"아마":2179,"어도":2180,"01":2181,"##쳤":2182,"##욕":2183,"야구":2184,"##씨":2185,"킹":2186,"다며":2187,"시장":2188,"덱":2189,"맛":2190,"낙":2191,"The":2192,"##ᆸ니다":2193,"가족":2194,"죠":2195,"사고":2196,"##비스":2197,"아주":2198,"범위":2199,"##찮":2200,"특징":2201,"##넷":2202,"경제":2203,"려는":2204,"시청":2205,"방향":2206,"##소리":2207,"연기":2208,"대체":2209,"패치":2210,"##ᆨ트":2211,"꾸":2212,"경험":2213,"##놓":2214,"일어나":2215,"계약":2216,"수비":2217,"고려":2218,"퀘":2219,"빠르":2220,"##ot":2221,"나타나":2222,"나와":2223,"밝혀":2224,"숙":2225,"불러":2226,"확실":2227,"참가":2228,"국제":2229,"딱":2230,"디자":2231,"에피소드":2232,"500":2233,"발사":2234,"세대":2235,"싸우":2236,"폭발":2237,"어머니":2238,"묘사":2239,"아르":2240,"로부터":2241,"오리":2242,"##켜":2243,"##덤":2244,"주의":2245,"한테":2246,"프로그램":2247,"어린":2248,"고등학교":2249,"80":2250,"믿":2251,"활용":2252,"2000":2253,"브라":2254,"##힌":2255,"어떻게":2256,"라서":2257,"죽이":2258,"상위":2259,"결혼":2260,"무시":2261,"##갔":2262,"제한":2263,"비판":2264,"목적":2265,"##효":2266,"더욱":2267,"준비":2268,"굴":2269,"##탕":2270,"##못":2271,"중간":2272,"나무":2273,"##밍":2274,"각각":2275,"어디":2276,"펼":2277,"##ad":2278,"세이":2279,"쿨":2280,"보호":2281,"##냐":2282,"37":2283,"대해서":2284,"아야":2285,"러시아":2286,"45":2287,"##찌":2288,"버프":2289,"챔피":2290,"##맹":2291,"십":2292,"이ᄁ":2293,"##스타":2294,"웃":2295,"런":2296,"라운드":2297,"굉장히":2298,"이미지":2299,"패턴":2300,"론":2301,"국민":2302,"##궁":2303,"히로":2304,"##혹":2305,"##렌":2306,"##채":2307,"##춰":2308,"위험":2309,"낸":2310,"진짜":2311,"옆":2312,"참조":2313,"갔":2314,"꿈":2315,"유리":2316,"##검":2317,"어렵":2318,"대미지":2319,"생명":2320,"조직":2321,"조사":2322,"죄":2323,"싸움":2324,"단순":2325,"듯이":2326,"혼자":2327,"과학":2328,"줬":2329,"찬":2330,"나ᄈ":2331,"여담":2332,"케이":2333,"린":2334,"타입":2335,"##뷰":2336,"흡":2337,"염":2338,"소모":2339,"세력":2340,"현실":2341,"파워":2342,"St":2343,"안타":2344,"시도":2345,"##씬":2346,"제공":2347,"욕":2348,"주요":2349,"구간":2350,"##트리":2351,"흥":2352,"율":2353,"194":2354,"묻":2355,"불구":2356,"전문":2357,"지하":2358,"일으":2359,"유럽":2360,"클":2361,"연속":2362,"##칙":2363,"부산":2364,"세기":2365,"나머":2366,"못한":2367,"순위":2368,"논란":2369,"조합":2370,"한정":2371,"스러":2372,"포인트":2373,"괘":2374,"플":2375,"사실상":2376,"엄청난":2377,"헬":2378,"기에":2379,"약간":2380,"으므로":2381,"나머지":2382,"동료":2383,"##스크":2384,"##답":2385,"##id":2386,"떨어지":2387,"70":2388,"분위":2389,"성장":2390,"훨":2391,"놀":2392,"09":2393,"버린다":2394,"##ay":2395,"##스로":2396,"무장":2397,"블":2398,"여전히":2399,"보였":2400,"디자인":2401,"징":2402,"분위기":2403,"당연히":2404,"취급":2405,"항공":2406,"출전":2407,"##트로":2408,"이해":2409,"90":2410,"학년":2411,"얘":2412,"##빈":2413,"일정":2414,"지도":2415,"##냈":2416,"규모":2417,"등급":2418,"##혁":2419,"싫":2420,"훨씬":2421,"FC":2422,"##ER":2423,"져":2424,"투수":2425,"소설":2426,"##나라":2427,"한편":2428,"비로":2429,"예정":2430,"인구":2431,"운행":2432,"블랙":2433,"성적":2434,"##협":2435,"즐":2436,"읽":2437,"폴":2438,"크리스":2439,"강한":2440,"##링":2441,"부상":2442,"쌍":2443,"기대":2444,"자연":2445,"옥":2446,"엔딩":2447,"기타":2448,"##ᅳ럽":2449,"익":2450,"살아":2451,"삼성":2452,"벽":2453,"계열":2454,"mm":2455,"똑":2456,"괜":2457,"02":2458,"해결":2459,"2009":2460,"03":2461,"사업":2462,"##ch":2463,"스테이지":2464,"##킹":2465,"센터":2466,"였으며":2467,"##완":2468,"##혜":2469,"텐":2470,"방면":2471,"연결":2472,"미션":2473,"300":2474,"어두":2475,"콤":2476,"가스":2477,"방영":2478,"최근":2479,"떠나":2480,"의견":2481,"튀":2482,"였으나":2483,"연합":2484,"수정":2485,"##짝":2486,"짧":2487,"##us":2488,"48":2489,"으면서":2490,"##센":2491,"변화":2492,"도망":2493,"##춘":2494,"종류":2495,"자면":2496,"##ir":2497,"##올":2498,"이탈":2499,"곧":2500,"표기":2501,"잘못":2502,"률":2503,"칭":2504,"전용":2505,"벌어":2506,"배치":2507,"##받":2508,"05":2509,"##리스":2510,"드리":2511,"엘리":2512,"195":2513,"추정":2514,"33":2515,"for":2516,"킬":2517,"탓":2518,"퀘스트":2519,"2008":2520,"발전":2521,"프":2522,"벗":2523,"##척":2524,"소녀":2525,"##혈":2526,"36":2527,"##폰":2528,"08":2529,"##난다":2530,"대화":2531,"거대":2532,"보여준":2533,"정상":2534,"##엄":2535,"직업":2536,"시켰":2537,"##칠":2538,"끊":2539,"안정":2540,"척":2541,"07":2542,"##ur":2543,"도중":2544,"메인":2545,"언제":2546,"만드":2547,"죽음":2548,"엔진":2549,"충분":2550,"스스로":2551,"큐":2552,"종료":2553,"##참":2554,"작전":2555,"##티브":2556,"##프리":2557,"벤":2558,"스카":2559,"수상":2560,"챔피언":2561,"세상":2562,"이라":2563,"품":2564,"나중":2565,"##둥":2566,"##파이":2567,"옵":2568,"스피":2569,"##같":2570,"독립":2571,"무려":2572,"일행":2573,"비행":2574,"쓰러":2575,"힐":2576,"요소":2577,"##샤":2578,"##ᅳ레이드":2579,"랜":2580,"오른":2581,"캠":2582,"느낌":2583,"##텐":2584,"##취":2585,"수도":2586,"마저":2587,"녀":2588,"당신":2589,"입니다":2590,"##엇":2591,"HP":2592,"굳":2593,"로보":2594,"##액":2595,"보상":2596,"에너지":2597,"이루어":2598,"당했":2599,"렌":2600,"방어력":2601,"달성":2602,"비롯":2603,"##드리":2604,"전설":2605,"팩":2606,"##..":2607,"공연":2608,"##od":2609,"나ᄂ":2610,"미사":2611,"무리":2612,"06":2613,"력":2614,"동물":2615,"솔":2616,"배틀":2617,"##BC":2618,"부활":2619,"특정":2620,"장착":2621,"훈련":2622,"절대":2623,"th":2624,"삭":2625,"졸업":2626,"앤":2627,"철도":2628,"전기":2629,"버린":2630,"##im":2631,"##자기":2632,"기업":2633,"##암":2634,"다운":2635,"포켓":2636,"위기":2637,"요리":2638,"넓":2639,"지휘":2640,"행정":2641,"싱글":2642,"봤":2643,"번역":2644,"##륙":2645,"번호":2646,"근접":2647,"더불":2648,"제목":2649,"건설":2650,"04":2651,"만약":2652,"관심":2653,"##아들":2654,"아이돌":2655,"미래":2656,"##려서":2657,"황제":2658,"내부":2659,"남성":2660,"##렬":2661,"틀":2662,"스코":2663,"반면":2664,"##틴":2665,"득점":2666,"##un":2667,"충격":2668,"점수":2669,"##ut":2670,"신경":2671,"##뉴":2672,"SK":2673,"시험":2674,"전차":2675,"브ᄅ":2676,"군사":2677,"돌아가":2678,"지지":2679,"목소리":2680,"##싸":2681,"목표":2682,"강하":2683,"홈런":2684,"소재":2685,"덤":2686,"뚜":2687,"전사":2688,"2007":2689,"##데이트":2690,"플래":2691,"인사":2692,"바라":2693,"업데이트":2694,"정체":2695,"멸":2696,"##운데":2697,"you":2698,"공간":2699,"##지션":2700,"똑같":2701,"했었":2702,"가끔":2703,"무대":2704,"칠":2705,"픽":2706,"시설":2707,"사이트":2708,"타격":2709,"셈":2710,"로마":2711,"오늘":2712,"34":2713,"뒷":2714,"브":2715,"꽃":2716,"##인물":2717,"##즘":2718,"도로":2719,"##컵":2720,"##흥":2721,"배경":2722,"쥬":2723,"다리":2724,"카이":2725,"빅":2726,"링크":2727,"록":2728,"클래":2729,"지정":2730,"생기":2731,"장소":2732,"누구":2733,"각성":2734,"전작":2735,"##빠":2736,"서비스":2737,"공중":2738,"##트라":2739,"빙":2740,"최소":2741,"항상":2742,"날아":2743,"##ro":2744,"냉":2745,"교체":2746,"홀":2747,"멘":2748,"그만":2749,"전국":2750,"##닉":2751,"맹":2752,"파티":2753,"분노":2754,"쓰이":2755,"##알":2756,"##폐":2757,"생존":2758,"작곡":2759,"북한":2760,"등장인물":2761,"켄":2762,"정식":2763,"예상":2764,"##수록":2765,"##너스":2766,"부여":2767,"스포":2768,"자랑":2769,"의원":2770,"작업":2771,"##붙":2772,"##란드":2773,"##ᅳ림":2774,"잉":2775,"무엇":2776,"포켓몬":2777,"사냥":2778,"##디어":2779,"##쇄":2780,"##큐":2781,"분류":2782,"종족":2783,"##ᅳᆯ린":2784,"으로써":2785,"##러스":2786,"아파":2787,"한데":2788,"##층":2789,"인도":2790,"악마":2791,"##ag":2792,"##igh":2793,"소개":2794,"야마":2795,"38":2796,"한다면":2797,"##ᅱᆫ":2798,"올림피":2799,"스타일":2800,"얘기":2801,"겸":2802,"##ver":2803,"단체":2804,"혈":2805,"애초":2806,"인터뷰":2807,"괜찮":2808,"가수":2809,"필드":2810,"##ec":2811,"달라":2812,"결승":2813,"##동안":2814,"cm":2815,"판정":2816,"롯":2817,"빠른":2818,"##어들":2819,"오르":2820,"기계":2821,"둔":2822,"쌓":2823,"클리어":2824,"75":2825,"연출":2826,"목록":2827,"각종":2828,"외국":2829,"끝나":2830,"하늘":2831,"컵":2832,"가리":2833,"이외":2834,"타카":2835,"명령":2836,"파일":2837,"##ᅪᆯ":2838,"##ent":2839,"2006":2840,"제일":2841,"초등":2842,"##스티":2843,"기체":2844,"병력":2845,"지상":2846,"깊":2847,"카운":2848,"재미":2849,"##이트":2850,"로봇":2851,"개념":2852,"아카":2853,"트위":2854,"55":2855,"##ᅳ린":2856,"전반":2857,"확정":2858,"이끌":2859,"기동":2860,"in":2861,"교통":2862,"##콘":2863,"옛":2864,"으려":2865,"페이":2866,"션":2867,"콜":2868,"정작":2869,"옷":2870,"##레이":2871,"##촌":2872,"193":2873,"왼":2874,"건담":2875,"레어":2876,"비용":2877,"##킨":2878,"별로":2879,"##ak":2880,"료":2881,"##아내":2882,"화력":2883,"##인지":2884,"장갑":2885,"올림픽":2886,"수행":2887,"몽":2888,"군대":2889,"아라":2890,"니까":2891,"사항":2892,"가운데":2893,"##허":2894,"가르":2895,"표시":2896,"크기":2897,"##뮤":2898,"이게":2899,"따로":2900,"인식":2901,"시티":2902,"행위":2903,"사격":2904,"수치":2905,"경쟁":2906,"##해서":2907,"2020":2908,"납":2909,"사거리":2910,"to":2911,"##um":2912,"깔":2913,"인가":2914,"이기":2915,"##최":2916,"컬":2917,"가문":2918,"베이":2919,"기반":2920,"변신":2921,"갑자기":2922,"저항":2923,"감정":2924,"',":2925,"##쿄":2926,"##렉":2927,"이걸":2928,"나름":2929,"포지션":2930,"비밀":2931,"아쉬":2932,"##젝트":2933,"마치":2934,"진화":2935,"이탈리아":2936,"달려":2937,"완전":2938,"평균":2939,"뇌":2940,"왕국":2941,"아키":2942,"##흐":2943,"단점":2944,"보유":2945,"##짓":2946,"집중":2947,"인천":2948,"코미":2949,"교수":2950,"나올":2951,"지키":2952,"##셉":2953,"근처":2954,"통합":2955,"당한":2956,"기회":2957,"병원":2958,"vs":2959,"폰":2960,"직전":2961,"걸리":2962,"의하":2963,"던전":2964,"노력":2965,"임무":2966,"띄":2967,"지난":2968,"냐고":2969,"빠져":2970,"의식":2971,"아도":2972,"자원":2973,"전자":2974,"특이":2975,"국회":2976,"설립":2977,"탈출":2978,"##화국":2979,"정의":2980,"오버":2981,"쯤":2982,"시킨":2983,"##윤":2984,"압도":2985,"윈":2986,"##ST":2987,"혁":2988,"이닝":2989,"옮":2990,"월드컵":2991,"부모":2992,"단어":2993,"촬":2994,"부정":2995,"환경":2996,"##em":2997,"##줄":2998,"고양":2999,"어째":3000,"현상":3001,"##ub":3002,"정리":3003,"##리오":3004,"사례":3005,"잠시":3006,"놈":3007,"사정":3008,"밀리":3009,"##앗":3010,"##비아":3011,"##셔":3012,"판단":3013,"효율":3014,"시전":3015,"다크":3016,"지켜":3017,"제품":3018,"##픈":3019,"이쪽":3020,"일러":3021,"##튜":3022,"스러운":3023,"펜":3024,"롤":3025,"밑":3026,"극장":3027,"치명":3028,"스위":3029,"본래":3030,"가까운":3031,"기다":3032,"라이브":3033,"##낙":3034,"주제":3035,"##말로":3036,"무슨":3037,"##르트":3038,"촬영":3039,"더니":3040,"##000":3041,"삭제":3042,"##헌":3043,"널":3044,"붕":3045,"상관":3046,"사무":3047,"플라":3048,"의외":3049,"##르크":3050,"털":3051,"주문":3052,"위원회":3053,"짐":3054,"전력":3055,"겪":3056,"댄":3057,"갤":3058,"동생":3059,"##븐":3060,"고속":3061,"이건":3062,"##어로":3063,"원인":3064,"주민":3065,"대구":3066,"##묘":3067,"여행":3068,"물건":3069,"지배":3070,"제거":3071,"발언":3072,"강제":3073,"소련":3074,"연습":3075,"치료":3076,"병사":3077,"포기":3078,"스럽":3079,"위력":3080,"요시":3081,"뭔":3082,"도전":3083,"전개":3084,"2005":3085,"이하":3086,"골드":3087,"##다는":3088,"역대":3089,"##째":3090,"저지":3091,"책임":3092,"시킨다":3093,"해군":3094,"##다니":3095,"중학교":3096,"기념":3097,"##요일":3098,"올라가":3099,"도입":3100,"정책":3101,"시킬":3102,"봐도":3103,"완성":3104,"웹":3105,"롭":3106,"복귀":3107,"##싱":3108,"실험":3109,"##ight":3110,"화면":3111,"42":3112,"유사":3113,"고정":3114,"려면":3115,"도쿄":3116,"공주":3117,"살인":3118,"##어났":3119,"루트":3120,"바꾸":3121,"의사":3122,"이르":3123,"아스":3124,"던지":3125,"음식":3126,"41":3127,"##학생":3128,"##섭":3129,"##ᅦ이드":3130,"##좌":3131,"노트":3132,"##야마":3133,"별명":3134,"파트":3135,"모아":3136,"차원":3137,"받아들":3138,"직후":3139,"선생":3140,"이적":3141,"히어로":3142,"레드":3143,"불가":3144,"다수":3145,"셋":3146,"뿌":3147,"사기":3148,"밝혔":3149,"중반":3150,"꾼":3151,"구하":3152,"39":3153,"##섯":3154,"티어":3155,"전략":3156,"어둠":3157,"분명":3158,"밴드":3159,"마나":3160,"붉":3161,"공동":3162,"도착":3163,"2004":3164,"##무리":3165,"히트":3166,"미니":3167,"##랜":3168,"##긴다":3169,"꼭":3170,"##모토":3171,"##특":3172,"접근":3173,"언어":3174,"녀석":3175,"가치":3176,"제도":3177,"EX":3178,"관한":3179,"LG":3180,"##젤":3181,"에게서":3182,"몰라":3183,"컴ᄑ":3184,"정당":3185,"으로부터":3186,"은데":3187,"회피":3188,"텔":3189,"추천":3190,"타임":3191,"조종":3192,"나이트":3193,"정규":3194,"쫓":3195,"사상":3196,"시민":3197,"대기":3198,"덴":3199,"점프":3200,"예전":3201,"반드":3202,"##ce":3203,"확장":3204,"##다고":3205,"아파트":3206,"신체":3207,"고자":3208,"##숨":3209,"셰":3210,"##그레이드":3211,"업그레이드":3212,"생겼":3213,"마사":3214,"구매":3215,"##AR":3216,"연장":3217,"롯데":3218,"리더":3219,"자료":3220,"로드":3221,"랭크":3222,"##리어":3223,"이곳":3224,"반드시":3225,"폭탄":3226,"##os":3227,"투표":3228,"탈락":3229,"##둔":3230,"타이틀":3231,"인터넷":3232,"어요":3233,"##밥":3234,"부탁":3235,"장치":3236,"단지":3237,"##프리카":3238,"##시마":3239,"노리":3240,"앙":3241,"학원":3242,"완벽":3243,"##셀":3244,"라이트":3245,"미사일":3246,"##랜드":3247,"종교":3248,"44":3249,"##찍":3250,"우선":3251,"##ri":3252,"소유":3253,"닌":3254,"형식":3255,"해외":3256,"고대":3257,"셀":3258,"##AN":3259,"구역":3260,"장점":3261,"사령":3262,"알아":3263,"최강":3264,"심각":3265,"산업":3266,"뛰어난":3267,"##듀":3268,"##벤":3269,"아내":3270,"##ula":3271,"Ch":3272,"금지":3273,"늦":3274,"##ON":3275,"다루":3276,"수마":3277,"##ᅳᆯ레":3278,"##역시":3279,"놀라":3280,"탱":3281,"도와":3282,"추측":3283,"느끼":3284,"##십":3285,"버그":3286,"##꺼":3287,"실시":3288,"올려":3289,"멜":3290,"##ᅳᆯ랜드":3291,"No":3292,"자마":3293,"위키":3294,"마무리":3295,"##ap":3296,"43":3297,"99":3298,"대장":3299,"##홍":3300,"##몇":3301,"클럽":3302,"몇몇":3303,"그린":3304,"공포":3305,"가사":3306,"##나이":3307,"##벼":3308,"##져서":3309,"하드":3310,"##ᆨ정":3311,"노동":3312,"##and":3313,"2002":3314,"연재":3315,"브리":3316,"이사":3317,"구분":3318,"복수":3319,"st":3320,"검사":3321,"달러":3322,"범죄":3323,"톤":3324,"합류":3325,"점점":3326,"서버":3327,"가드":3328,"다소":3329,"조정":3330,"요청":3331,"보여준다":3332,"잇":3333,"로스":3334,"행사":3335,"차례":3336,"드로":3337,"form":3338,"레인":3339,"옵션":3340,"##탑":3341,"맞추":3342,"떡":3343,"재료":3344,"보병":3345,"그야":3346,"밥":3347,"##났":3348,"셔":3349,"조작":3350,"선정":3351,"선언":3352,"수많":3353,"마법사":3354,"##텔":3355,"전통":3356,"냈":3357,"택":3358,"교회":3359,"##꾸":3360,"잭":3361,"타자":3362,"맞춰":3363,"걱정":3364,"프로젝트":3365,"kg":3366,"##듬":3367,"그리스":3368,"종종":3369,"개그":3370,"47":3371,"##ᅯᆻ":3372,"스포츠":3373,"46":3374,"##빙":3375,"데이터":3376,"51":3377,"191":3378,"##첩":3379,"좋아":3380,"컴퓨":3381,"개월":3382,"암살":3383,"부하":3384,"##이치":3385,"광고":3386,"마르":3387,"형제":3388,"##ᆨ시":3389,"쥐":3390,"formula":3391,"템":3392,"열차":3393,"빨리":3394,"생긴":3395,"성향":3396,"대중":3397,"개최":3398,"폼":3399,"평범":3400,"##덴":3401,"이라고":3402,"내리":3403,"자마자":3404,"KBS":3405,"##쓰":3406,"코스":3407,"인한":3408,"##조건":3409,"숲":3410,"그야말로":3411,"##죽":3412,"실점":3413,"포스":3414,"한계":3415,"모자":3416,"흐ᄅ":3417,"스페인":3418,"구단":3419,"채널":3420,"##맞":3421,"뻔":3422,"대결":3423,"설계":3424,"##ter":3425,"거부":3426,"통신":3427,"언론":3428,"코드":3429,"아무리":3430,"보조":3431,"워낙":3432,"생물":3433,"다행":3434,"##맥":3435,"비중":3436,"종합":3437,"알려져":3438,"행성":3439,"컴퓨터":3440,"민족":3441,"기지":3442,"##털":3443,"and":3444,"##셜":3445,"전화":3446,"맺":3447,"높이":3448,"한글":3449,"무한":3450,"디스":3451,"투입":3452,"개봉":3453,"해석":3454,"무조건":3455,"값":3456,"##럭":3457,"캡":3458,"본격":3459,"영혼":3460,"뉴스":3461,"냐는":3462,"굳이":3463,"그걸":3464,"운용":3465,"어려운":3466,"트로":3467,"##ul":3468,"MA":3469,"평소":3470,"정확히":3471,"들어오":3472,"실수":3473,"엑스":3474,"회장":3475,"원정":3476,"광주":3477,"##IN":3478,"걸로":3479,"지적":3480,"앞서":3481,"박사":3482,"소년":3483,"##타임":3484,"##ᆺ자":3485,"지명":3486,"연주":3487,"와중":3488,"알리":3489,"##무라":3490,"인상":3491,"1000":3492,"위협":3493,"##레스":3494,"2003":3495,"미드":3496,"##ᅦ이크":3497,"멋":3498,"##ᅳᆯ링":3499,"젊":3500,"회의":3501,"상징":3502,"샷":3503,"충분히":3504,"##꽃":3505,"##스케":3506,"슬로":3507,"##op":3508,"등록":3509,"##몽":3510,"##ᆺ수":3511,"는가":3512,"사태":3513,"집단":3514,"대형":3515,"가정":3516,"대응":3517,"대비":3518,"그럼":3519,"보너스":3520,"터미":3521,"넘어가":3522,"아웃":3523,"카메":3524,"자동차":3525,"##돈":3526,"소비":3527,"엠":3528,"##ck":3529,"전원":3530,"공사":3531,"보컬":3532,"체제":3533,"페르":3534,"##뜨리":3535,"시청자":3536,"%,":3537,"##딘":3538,"데스":3539,"뚫":3540,"태양":3541,"##되":3542,"특유":3543,"거두":3544,"희생":3545,"150":3546,"비하":3547,"오프":3548,"조각":3549,"모른다":3550,"##드로":3551,"개조":3552,"가면":3553,"무사":3554,"65":3555,"##FA":3556,"혐":3557,"군단":3558,"##ation":3559,"빵":3560,"편성":3561,"열린":3562,"봉인":3563,"끝내":3564,"해졌":3565,"##엔":3566,"밸":3567,"리어":3568,"된다는":3569,"여름":3570,"빠지":3571,"네이":3572,"MBC":3573,"마력":3574,"흉":3575,"SP":3576,"릴":3577,"##니스":3578,"통과":3579,"일종":3580,"기자":3581,"##ra":3582,"트레이":3583,"일러스트":3584,"프레":3585,"192":3586,"잊":3587,"육군":3588,"간단":3589,"##콩":3590,"##펜":3591,"혜":3592,"발음":3593,"##자리":3594,"장군":3595,"공항":3596,"##녕":3597,"클라":3598,"생성":3599,"얼마나":3600,"##의원":3601,"낫":3602,"시나":3603,"분리":3604,"움직이":3605,"방문":3606,"64":3607,"오리지":3608,"##있":3609,"II":3610,"##오스":3611,"##롭":3612,"간다":3613,"섞":3614,"촉":3615,"고양이":3616,"장르":3617,"블루":3618,"동맹":3619,"장기":3620,"##꼬":3621,"하야":3622,"오랜":3623,"함정":3624,"바르":3625,"썼":3626,"반복":3627,"펼치":3628,"서술":3629,"##튜브":3630,"튜":3631,"##넘":3632,"소식":3633,"의도":3634,"##칸":3635,"전환":3636,"사쿠":3637,"빼앗":3638,"분야":3639,"디지":3640,"로써":3641,"근데":3642,"앉":3643,"갤러":3644,"52":3645,"진다":3646,"불과":3647,"세요":3648,"유튜브":3649,"랭":3650,"락":3651,"가깝":3652,"바닥":3653,"영입":3654,"사라지":3655,"안전":3656,"경기도":3657,"브레이":3658,"괴물":3659,"저격":3660,"제안":3661,"##텐츠":3662,"거쳐":3663,"##리카":3664,"흡수":3665,"점령":3666,"##깨":3667,"You":3668,"힘든":3669,"##깐":3670,"의지":3671,"는다는":3672,"엄청나":3673,"그라":3674,"못한다":3675,"##엽":3676,"예선":3677,"##시스":3678,"초대":3679,"루이":3680,"필살":3681,"##낸다":3682,"최후":3683,"##니티":3684,"전해":3685,"400":3686,"개선":3687,"그때":3688,"공략":3689,"유도":3690,"났":3691,"화염":3692,"##남도":3693,"##빛":3694,"와서":3695,"숫자":3696,"독자":3697,"핀":3698,"흘":3699,"오토":3700,"전술":3701,"##art":3702,"##님":3703,"날려":3704,"데려":3705,"코치":3706,"미리":3707,"그저":3708,"방해":3709,"##랄":3710,"그려":3711,"주력":3712,"액션":3713,"확보":3714,"외모":3715,"인원":3716,"매일":3717,"평화":3718,"진입":3719,"터미널":3720,"이론":3721,"덜":3722,"##니까":3723,"규정":3724,"관통":3725,"VS":3726,"클래스":3727,"피하":3728,"수사":3729,"라디오":3730,"장난":3731,"뭔가":3732,"##런스":3733,"넥":3734,"49":3735,"##팔":3736,"이치":3737,"투자":3738,"##ᅳᆺ":3739,"승부":3740,"컨셉":3741,"느냐":3742,"눈물":3743,"체육":3744,"목숨":3745,"형성":3746,"적극":3747,"패러":3748,"인류":3749,"##ᅳ레스":3750,"방패":3751,"AP":3752,"56":3753,"##온다":3754,"상자":3755,"비트":3756,"##핑":3757,"음반":3758,"몹":3759,"모험":3760,"시내":3761,"##힌다":3762,"##빌":3763,"사과":3764,"아름":3765,"왼쪽":3766,"적절":3767,"한국어":3768,"계기":3769,"보도":3770,"모리":3771,"##ᆯ리아":3772,"살아남":3773,"겐":3774,"2001":3775,"함대":3776,"구축":3777,"서브":3778,"##동생":3779,"거짓":3780,"나서":3781,"##풀":3782,"##라인":3783,"젠":3784,"의심":3785,"약점":3786,"챙":3787,"##여서":3788,"예술":3789,"공화국":3790,"겹":3791,"역전":3792,"##롱":3793,"##논":3794,"궤":3795,"인형":3796,"기원":3797,"53":3798,"오리지널":3799,"54":3800,"비디오":3801,"카페":3802,"##페이지":3803,"작성":3804,"완료":3805,"##모리":3806,"당해":3807,"...":3808,"공부":3809,"수리":3810,"은퇴":3811,"솔로":3812,"코어":3813,"회전":3814,"지닌":3815,"단순히":3816,"닉":3817,"대단":3818,"질문":3819,"In":3820,"PC":3821,"편집":3822,"황금":3823,"닮":3824,"부른다":3825,"마침":3826,"뮤직":3827,"훌":3828,"날개":3829,"##ᅳ래프트":3830,"됨":3831,"##바이":3832,"핑":3833,"홈페이지":3834,"덩":3835,"착용":3836,"이어지":3837,"필수":3838,"##시브":3839,"트랙":3840,"웬":3841,"누군":3842,"상대방":3843,"멈":3844,"보수":3845,"꾸준":3846,"85":3847,"밴":3848,"해제":3849,"##옷":3850,"##삼":3851,"민주당":3852,"선보":3853,"지니":3854,"##토리":3855,"##친다":3856,"랍":3857,"나쁘":3858,"엄마":3859,"아프리카":3860,"을지":3861,"드라이":3862,"경상":3863,"##ia":3864,"사단":3865,"뜬":3866,"습격":3867,"장관":3868,"1990":3869,"현장":3870,"사장":3871,"비난":3872,"포르":3873,"희망":3874,"코스트":3875,"지내":3876,"돌려":3877,"원거리":3878,"##ill":3879,"##몰":3880,"청소":3881,"스트리":3882,"의한":3883,"수원":3884,"##ie":3885,"재판":3886,"분석":3887,"하위":3888,"##으니":3889,"랄":3890,"명중":3891,"테러":3892,"아시아":3893,"퓨":3894,"진정":3895,"더블":3896,"에스":3897,"무력":3898,"스티":3899,"선물":3900,"##RA":3901,"성인":3902,"수호":3903,"묶":3904,"ST":3905,"삶":3906,"##덜":3907,"모티브":3908,"##IA":3909,"비고":3910,"스파이":3911,"콩":3912,"확실히":3913,"심하":3914,"행복":3915,"경계":3916,"핸":3917,"저주":3918,"감안":3919,"중단":3920,"꼴":3921,"태도":3922,"가슴":3923,"190":3924,"##ik":3925,"마크":3926,"카즈":3927,"임명":3928,"남편":3929,"공원":3930,"기획":3931,"쿄":3932,"에이스":3933,"지식":3934,"관광":3935,"##나다":3936,"표정":3937,"허용":3938,"승강":3939,"스마":3940,"쿨타임":3941,"장애":3942,"##렀":3943,"수단":3944,"오른쪽":3945,"탑재":3946,"떠오":3947,"바탕":3948,"본선":3949,"딱히":3950,"인민":3951,"제시":3952,"좁":3953,"상처":3954,"소프트":3955,"주도":3956,"##무원":3957,"당장":3958,"59":3959,"나누":3960,"캔":3961,"롱":3962,"##핀":3963,"##연히":3964,"##북도":3965,"의문":3966,"영역":3967,"유래":3968,"기점":3969,"유우":3970,"테마":3971,"소울":3972,"마시":3973,"고통":3974,"테크":3975,"##ᆯ리스":3976,"나아":3977,"드ᄅ":3978,"##퀴":3979,"떼":3980,"리스":3981,"보급":3982,"미야":3983,"##ab":3984,"컷":3985,"베르":3986,"직원":3987,"불명":3988,"돌파":3989,"기어":3990,"멀티":3991,"일어난":3992,"베이스":3993,"위주":3994,"##닥":3995,"작용":3996,"##이언":3997,"고유":3998,"주목":3999,"제압":4000,"대답":4001,"120":4002,"##워드":4003,"58":4004,"나카":4005,"꼽":4006,"잠깐":4007,"주연":4008,"##마스":4009,"카운터":4010,"미치":4011,"여부":4012,"##워서":4013,"엉":4014,"제기":4015,"순서":4016,"측면":4017,"체계":4018,"도서":4019,"##어지":4020,"##트ᄅ":4021,"##est":4022,"돌리":4023,"탯":4024,"57":4025,"업무":4026,"우수":4027,"진영":4028,"박스":4029,"부인":4030,"##th":4031,"MP":4032,"멀리":4033,"문명":4034,"텍":4035,"##푸":4036,"카메라":4037,"패스":4038,"횟수":4039,"드립":4040,"후속":4041,"멸망":4042,"통일":4043,"온라인":4044,"델":4045,"##all":4046,"버튼":4047,"공장":4048,"어찌":4049,"텔레":4050,"시나리오":4051,"지점":4052,"거주":4053,"갱":4054,"케이스":4055,"귀족":4056,"##ea":4057,"66":4058,"95":4059,"코너":4060,"문자":4061,"가벼":4062,"당선":4063,"##ᆸ터":4064,"##쇠":4065,"##뇌":4066,"찰":4067,"겨우":4068,"협력":4069,"차별":4070,"##잔":4071,"특기":4072,"뱀":4073,"계산":4074,"소수":4075,"펀":4076,"지옥":4077,"##솔":4078,"댓":4079,"눈치":4080,"약속":4081,"듀얼":4082,"삼국":4083,"최악":4084,"떨":4085,"브로":4086,"가로":4087,"춤":4088,"뉴욕":4089,"에어":4090,"오스ᄐ":4091,"Sh":4092,"시체":4093,"연계":4094,"대하":4095,"##머리":4096,"딜러":4097,"은행":4098,"크로스":4099,"Lo":4100,"다ᄅ":4101,"##ct":4102,"살해":4103,"##로드":4104,"느껴":4105,"ddd":4106,"깎":4107,"on":4108,"바꿔":4109,"개편":4110,"을까":4111,"오후":4112,"유키":4113,"1999":4114,"잖":4115,"융":4116,"Re":4117,"붕괴":4118,"틈":4119,"제로":4120,"배신":4121,"게시":4122,"대놓":4123,"버려":4124,"봄":4125,"자격":4126,"혁명":4127,"자치":4128,"어울":4129,"떨어져":4130,"매치":4131,"군주":4132,"부담":4133,"##픽":4134,"낼":4135,"110":4136,"처치":4137,"웨이":4138,"##ddd":4139,"생겨":4140,"##드라":4141,"dddddd":4142,"Sp":4143,"컨트로":4144,"게이지":4145,"1998":4146,"미스":4147,"벌이":4148,"퀴":4149,"##AL":4150,"해금":4151,"데리":4152,"겨울":4153,"국회의원":4154,"다름":4155,"견제":4156,"증거":4157,"에겐":4158,"레이저":4159,"외부":4160,"최대한":4161,"구해":4162,"군인":4163,"장전":4164,"된다고":4165,"교사":4166,"필살기":4167,"쓴다":4168,"제조":4169,"오스":4170,"##AT":4171,"62":4172,"출발":4173,"진실":4174,"자살":4175,"핵심":4176,"##PS":4177,"##레이션":4178,"정권":4179,"균":4180,"스테":4181,"돌아오":4182,"대원":4183,"미나":4184,"후지":4185,"따른":4186,"여왕":4187,"전장":4188,"##륭":4189,"궁극":4190,"조지":4191,"##쇼":4192,"누군가":4193,"미군":4194,"섭":4195,"##OR":4196,"중화":4197,"연방":4198,"용병":4199,"가졌":4200,"##니어":4201,"마왕":4202,"아메":4203,"로켓":4204,"니코":4205,"아침":4206,"옹":4207,"##VE":4208,"##루스":4209,"거절":4210,"충전":4211,"댄스":4212,"룰":4213,"낳":4214,"누가":4215,"빌리":4216,"한화":4217,"타이밍":4218,"출생":4219,"누르":4220,"유용":4221,"공산":4222,"SS":4223,"알려진":4224,"일본어":4225,"기분":4226,"터지":4227,"SBS":4228,"이성":4229,"커뮤":4230,"조준":4231,"만족":4232,"충돌":4233,"바뀐":4234,"블로":4235,"날리":4236,"##어도":4237,"고급":4238,"건너":4239,"브랜드":4240,"도구":4241,"단위":4242,"취소":4243,"는다고":4244,"애매":4245,"교환":4246,"스피드":4247,"부진":4248,"거래":4249,"넷":4250,"##ate":4251,"스킨":4252,"##사카":4253,"##멘":4254,"수학":4255,"흔히":4256,"##ess":4257,"피해자":4258,"##컨":4259,"##래도":4260,"이래":4261,"극장판":4262,"Th":4263,"##터리":4264,"##ell":4265,"카르":4266,"61":4267,"토스":4268,"뛰어":4269,"반란":4270,"제주":4271,"무게":4272,"##광역시":4273,"##나가":4274,"발휘":4275,"세계관":4276,"얼음":4277,"##ard":4278,"끝난":4279,"76":4280,"##읍":4281,"해진":4282,"우려":4283,"장수":4284,"파악":4285,"후반부":4286,"자고":4287,"##ang":4288,"끼리":4289,"단독":4290,"마츠":4291,"통하":4292,"아무래도":4293,"모션":4294,"레전":4295,"홍콩":4296,"인생":4297,"패시브":4298,"공통":4299,"##IC":4300,"##하라":4301,"삽":4302,"클로":4303,"스파":4304,"근무":4305,"판타":4306,"##ue":4307,"신화":4308,"##릉":4309,"빔":4310,"비록":4311,"격투":4312,"아머":4313,"한자":4314,"##ant":4315,"파라":4316,"하트":4317,"##ack":4318,"순수":4319,"프라":4320,"##ers":4321,"따위":4322,"흰":4323,"피아":4324,"Al":4325,"NP":4326,"77":4327,"열리":4328,"쪼":4329,"커버":4330,"##아리":4331,"구입":4332,"정령":4333,"##다운":4334,"파이터":4335,"##ine":4336,"88":4337,"공군":4338,"1997":4339,"##다수":4340,"운전":4341,"72":4342,"등등":4343,"##톤":4344,"혼란":4345,"계급":4346,"쿼":4347,"자식":4348,"가입":4349,"그게":4350,"줄어들":4351,"수입":4352,"스코어":4353,"닥터":4354,"##심히":4355,"회수":4356,"떨어진":4357,"권력":4358,"갓":4359,"경력":4360,"본부":4361,"밀려":4362,"채용":4363,"지시":4364,"공작":4365,"근거":4366,"늘어나":4367,"속하":4368,"탄생":4369,"쉬운":4370,"생일":4371,"밸런스":4372,"##킬":4373,"해방":4374,"비율":4375,"카라":4376,"##흑":4377,"향해":4378,"기절":4379,"##촉":4380,"건강":4381,"지하철":4382,"언니":4383,"##웨이":4384,"용도":4385,"꾸준히":4386,"##가락":4387,"기다리":4388,"병기":4389,"표준":4390,"좋아하":4391,"갤러리":4392,"BG":4393,"##헨":4394,"타워":4395,"로운":4396,"##힐":4397,"실질":4398,"돌격":4399,"에리":4400,"지대":4401,"##ok":4402,"##젠":4403,"##스탄":4404,"##OS":4405,"납치":4406,"증명":4407,"협회":4408,"반영":4409,"춘":4410,"홍보":4411,"지급":4412,"##피아":4413,"남부":4414,"##둑":4415,"인지라":4416,"아사":4417,"대공":4418,"강조":4419,"입학":4420,"be":4421,"오오":4422,"약한":4423,"나쁜":4424,"온가":4425,"불안":4426,"업체":4427,"여겨":4428,"##라이더":4429,"랜덤":4430,"373":4431,"FI":4432,"놔":4433,"윙":4434,"유형":4435,"미친":4436,"왕자":4437,"그럴":4438,"##ᆯ링":4439,"외교":4440,"요원":4441,"##디션":4442,"##세이":4443,"경영":4444,"or":4445,"들어갔":4446,"##유키":4447,"##라리":4448,"대륙":4449,"감염":4450,"경향":4451,"쏟":4452,"98":4453,"fff":4454,"고서":4455,"위하":4456,"온갖":4457,"훌륭":4458,"광역":4459,"감사":4460,"페이스":4461,"CD":4462,"gt":4463,"연대":4464,"마녀":4465,"트라":4466,"실행":4467,"장식":4468,"노르":4469,"문학":4470,"##ive":4471,"패러디":4472,"울트라":4473,"기독":4474,"서포":4475,"덮":4476,"못해":4477,"스펙":4478,"메탈":4479,"물질":4480,"600":4481,"자라":4482,"어쩔":4483,"입단":4484,"##오리":4485,"재생":4486,"가까이":4487,"태어났":4488,"##크래프트":4489,"아나":4490,"##럿":4491,"스페셜":4492,"화살":4493,"추진":4494,"주년":4495,"어차":4496,"집안":4497,"고민":4498,"내내":4499,"설득":4500,"대다수":4501,"계승":4502,"1996":4503,"건지":4504,"정해":4505,"승강장":4506,"살짝":4507,"룬":4508,"사카":4509,"선배":4510,"기ᄈ":4511,"어차피":4512,"부문":4513,"폐지":4514,"##ast":4515,"무서":4516,"캐나다":4517,"##고기":4518,"숨겨":4519,"올랐":4520,"PS":4521,"##AS":4522,"영원":4523,"정지":4524,"대놓고":4525,"봐야":4526,"신문":4527,"고기":4528,"1995":4529,"베트":4530,"밟":4531,"##어리":4532,"보물":4533,"낭":4534,"적당":4535,"짜리":4536,"##메달":4537,"킥":4538,"오류":4539,"신뢰":4540,"사전":4541,"##바로":4542,"짤":4543,"##멍":4544,"연예":4545,"작사":4546,"즉시":4547,"기기":4548,"##즈키":4549,"##uby":4550,"\",":4551,"크루":4552,"따지":4553,"꺼내":4554,"전선":4555,"당황":4556,"##ED":4557,"미소":4558,"플로":4559,"불렀":4560,"당한다":4561,"함선":4562,"##tt":4563,"##다지":4564,"##휴":4565,"남기":4566,"68":4567,"뒤집":4568,"페이지":4569,"##ee":4570,"폭풍":4571,"쇠":4572,"브라질":4573,"등판":4574,"##겁":4575,"은근":4576,"스트라이":4577,"lt":4578,"오픈":4579,"800":4580,"소문":4581,"짝":4582,"탑승":4583,"버티":4584,"헤드":4585,"명예":4586,"열심히":4587,"상품":4588,"화장":4589,"입수":4590,"레전드":4591,"오프닝":4592,"별도":4593,"갑옷":4594,"경유":4595,"##녔":4596,"심리":4597,"시행":4598,"##거나":4599,"파리":4600,"경기장":4601,"이거":4602,"령":4603,"##ᅮᆯ러":4604,"일으키":4605,"단일":4606,"63":4607,"둘러":4608,"##다면":4609,"마이크":4610,"의회":4611,"1980":4612,"변호":4613,"통제":4614,"마련":4615,"늑":4616,"라스":4617,"랩":4618,"##카와":4619,"올렸":4620,"공유":4621,"댓글":4622,"반격":4623,"##ong":4624,"틱":4625,"##AM":4626,"ruby":4627,"모으":4628,"때려":4629,"운명":4630,"가면라이더":4631,"변하":4632,"##시오":4633,"정류":4634,"응원":4635,"갖추":4636,"아리":4637,"레오":4638,"후쿠":4639,"한때":4640,"커뮤니티":4641,"신청":4642,"쓰레":4643,"트위터":4644,"격파":4645,"##툰":4646,"라이벌":4647,"사령관":4648,"스키":4649,"##ort":4650,"김성":4651,"주전":4652,"고전":4653,"기독교":4654,"출판":4655,"공기":4656,"이슬":4657,"습득":4658,"오로":4659,"이승":4660,"##웨어":4661,"컨트롤":4662,"중계":4663,"가이":4664,"깃":4665,"편의":4666,"퀄":4667,"##ith":4668,"하수":4669,"수업":4670,"심장":4671,"오해":4672,"불만":4673,"신고":4674,"끌어":4675,"마인":4676,"마주":4677,"두산":4678,"울산":4679,"##아먹":4680,"71":4681,"##if":4682,"74":4683,"관객":4684,"전함":4685,"외국인":4686,"카나":4687,"정말로":4688,"##나무":4689,"보정":4690,"주위":4691,"##ly":4692,"러브":4693,"테이":4694,"##fff":4695,"건축":4696,"출장":4697,"##아버지":4698,"....":4699,"용어":4700,"MV":4701,"랜드":4702,"##ld":4703,"흘러":4704,"그곳":4705,"전달":4706,"닿":4707,"73":4708,"여론":4709,"67":4710,"메이저":4711,"ffffff":4712,"민간":4713,"우스":4714,"사운드":4715,"절반":4716,"##ᆯ릭":4717,"조치":4718,"##피스":4719,"와이":4720,"##티컬":4721,"내놓":4722,"지형":4723,"물러":4724,"가토":4725,"드러나":4726,"갈등":4727,"여신":4728,"##도우":4729,"붙잡":4730,"임시":4731,"무적":4732,"##학자":4733,"재능":4734,"챠":4735,"가득":4736,"메리":4737,"묵":4738,"아오":4739,"넌":4740,"전공":4741,"둥":4742,"압박":4743,"NC":4744,"##따":4745,"##ain":4746,"리버":4747,"##가와":4748,"별개":4749,"지나가":4750,"엔터":4751,"붙여":4752,"초월":4753,"##ist":4754,"96":4755,"알렉":4756,"없애":4757,"##쳐서":4758,"종점":4759,"연구소":4760,"밝히":4761,"요새":4762,"네이버":4763,"##묵":4764,"스튜":4765,"1994":4766,"##ind":4767,"움직임":4768,"안드로":4769,"북쪽":4770,"강해":4771,"샘":4772,"##놈":4773,"전형":4774,"추적":4775,"팝":4776,"두려":4777,"##봐":4778,"슬라":4779,"TH":4780,"그다지":4781,"메타":4782,"시각":4783,"전하":4784,"180":4785,"탁":4786,"컨텐츠":4787,"남쪽":4788,"벗어나":4789,"##멀":4790,"디아":4791,"낚":4792,"늑대":4793,"메가":4794,"보장":4795,"약하":4796,"##렴":4797,"발매되":4798,"이란":4799,"쓰인다":4800,"AC":4801,"돌진":4802,"시야":4803,"소멸":4804,"##서트":4805,"판타지":4806,"쉐":4807,"81":4808,"AT":4809,"난다":4810,"##팩":4811,"결승전":4812,"전시":4813,"타점":4814,"든지":4815,"다행히":4816,"파이어":4817,"곰":4818,"일부러":4819,"무지":4820,"잖아":4821,"걸려":4822,"##per":4823,"동기":4824,"##브리":4825,"불꽃":4826,"##라스":4827,"서부":4828,"그만큼":4829,"동네":4830,"원수":4831,"환자":4832,"##듀서":4833,"프로듀서":4834,"##ps":4835,"뿌리":4836,"강원":4837,"##지컬":4838,"##EN":4839,"만난":4840,"여동생":4841,"문제점":4842,"화려":4843,"화이트":4844,"##츠키":4845,"그림자":4846,"흔들":4847,"선호":4848,"왕조":4849,"동원":4850,"이마":4851,"폭력":4852,"상향":4853,"유로":4854,"걷":4855,"께":4856,"파이널":4857,"먹이":4858,"회원":4859,"대만":4860,"본명":4861,"치명타":4862,"유비":4863,"북부":4864,"신세":4865,"##EC":4866,"테일":4867,"자는":4868,"됩니다":4869,"신라":4870,"소드":4871,"78":4872,"잉ᄀ":4873,"그런지":4874,"##식간":4875,"91":4876,"##크로":4877,"##OL":4878,"빨간":4879,"##콤":4880,"수요":4881,"여서":4882,"순식간":4883,"연상":4884,"무난":4885,"##에도":4886,"##ew":4887,"퀸":4888,"도서관":4889,"##ᅥᆷ프":4890,"##텀":4891,"##타로":4892,"맘":4893,"향상":4894,"전역":4895,"메시":4896,"매력":4897,"아시":4898,"학과":4899,"종이":4900,"차트":4901,"##어스":4902,"뛰어나":4903,"아일":4904,"전적":4905,"변형":4906,"##싼":4907,"아가":4908,"통한":4909,"아무런":4910,"##더스":4911,"엑":4912,"최상":4913,"헨":4914,"전방":4915,"저런":4916,"부품":4917,"##팡":4918,"##로운":4919,"84":4920,"CP":4921,"체포":4922,"영토":4923,"성과":4924,"일상":4925,"수집":4926,"크리티컬":4927,"암흑":4928,"전투력":4929,"게이트":4930,"##사키":4931,"팅":4932,"코믹스":4933,"테스트":4934,"시드":4935,"영업":4936,"##LC":4937,"##쥐":4938,"마술":4939,"me":4940,"인수":4941,"헤이":4942,"토모":4943,"##ry":4944,"수용":4945,"조절":4946,"파견":4947,"벌어지":4948,"어쨌":4949,"드디어":4950,"꺾":4951,"폭격":4952,"복잡":4953,"학살":4954,"유전":4955,"복장":4956,"아우":4957,"82":4958,"대우":4959,"떡밥":4960,"릭":4961,"##lo":4962,"입력":4963,"구현":4964,"밝혀졌":4965,"편지":4966,"##껏":4967,"##융":4968,"개통":4969,"생명력":4970,"사라졌":4971,"할지":4972,"호환":4973,"오빠":4974,"현지":4975,"97":4976,"니시":4977,"추락":4978,"신인":4979,"사자":4980,"천사":4981,"땐":4982,"도달":4983,"고향":4984,"콜라":4985,"동부":4986,"닌자":4987,"사토":4988,"##납":4989,"네덜":4990,"청년":4991,"네덜란드":4992,"86":4993,"##찾":4994,"창작":4995,"반지":4996,"##ᅦ이터":4997,"경비":4998,"통해서":4999,"점차":5000,"제이":5001,"작동":5002,"맞이":5003,"콘서트":5004,"연관":5005,"##ᅥᆼ이":5006,"토리":5007,"프레임":5008,"교황":5009,"보단":5010,"한국인":5011,"쓰레기":5012,"수송":5013,"출현":5014,"노예":5015,"##운다":5016,"스톤":5017,"기초":5018,"##캐":5019,"##거운":5020,"사쿠라":5021,"푸른":5022,"덧":5023,"##스턴":5024,"짱":5025,"모바":5026,"추격":5027,"아트":5028,"it":5029,"세워":5030,"킨":5031,"해체":5032,"해설":5033,"드러내":5034,"아티":5035,"69":5036,"해진다":5037,"아닐":5038,"객":5039,"##퍼스":5040,"다시피":5041,"##어버":5042,"몰래":5043,"##ᆷ프":5044,"조용":5045,"구도":5046,"충청":5047,"##ᅦᆯ라":5048,"의상":5049,"##모로":5050,"심판":5051,"엘프":5052,"진지":5053,"간격":5054,"공급":5055,"녹음":5056,"##노스":5057,"나루":5058,"키스":5059,"들어간":5060,"몰아":5061,"is":5062,"주먹":5063,"##히로":5064,"식물":5065,"아무것":5066,"막장":5067,"시위":5068,"조성":5069,"NPC":5070,"보냈":5071,"겟":5072,"프리미":5073,"##디아":5074,"전투기":5075,"조조":5076,"##ᆷ새":5077,"##IT":5078,"제자":5079,"연사":5080,"인하":5081,"##ᅳᆯ래":5082,"브레":5083,"##둥이":5084,"수술":5085,"##리티":5086,"무효":5087,"##와서":5088,"스마트":5089,"무너":5090,"연애":5091,"검색":5092,"슬롯":5093,"옮겨":5094,"실드":5095,"감시":5096,"스카이":5097,"US":5098,"그래픽":5099,"나갔":5100,"일제":5101,"블록":5102,"버릴":5103,"##오프":5104,"꼬리":5105,"레스":5106,"당할":5107,"일어났":5108,"아이스":5109,"법원":5110,"동쪽":5111,"##특별":5112,"마리오":5113,"경험치":5114,"구체":5115,"MS":5116,"고교":5117,"옛날":5118,"까다":5119,"##오카":5120,"##도로":5121,"An":5122,"통상":5123,"때리":5124,"총기":5125,"김정":5126,"##레나":5127,"뼈":5128,"범인":5129,"룡":5130,"구속":5131,"긍":5132,"베트남":5133,"세우":5134,"라이더":5135,"마스":5136,"##ust":5137,"끔":5138,"신규":5139,"신분":5140,"대립":5141,"##티나":5142,"장교":5143,"지나치":5144,"은하":5145,"연락":5146,"어깨":5147,"국립":5148,"샌":5149,"예외":5150,"무르":5151,"##럴":5152,"쿠키":5153,"앵":5154,"##주시":5155,"##다른":5156,"250":5157,"KT":5158,"##칼":5159,"강의":5160,"인근":5161,"마리아":5162,"입구":5163,"탱크":5164,"카미":5165,"지도자":5166,"신성":5167,"뷰":5168,"다섯":5169,"차단":5170,"규칙":5171,"##50":5172,"글자":5173,"되찾":5174,"불편":5175,"대대":5176,"##뜩":5177,"메카":5178,"이랑":5179,"겁":5180,"훔":5181,"보일":5182,"평타":5183,"프린":5184,"##헤":5185,"창조":5186,"요정":5187,"언제나":5188,"박살":5189,"코인":5190,"안습":5191,"바보":5192,"총선":5193,"##ᆼ이":5194,"유희":5195,"마도":5196,"모바일":5197,"만났":5198,"동작":5199,"토론":5200,"후기":5201,"전라":5202,"##비전":5203,"##홀":5204,"여러모로":5205,"환상":5206,"##밀리":5207,"##렘":5208,"189":5209,"거짓말":5210,"##ᅢᆫ스":5211,"노출":5212,"이리":5213,"기여":5214,"의료":5215,"##파이어":5216,"권총":5217,"세월":5218,"소총":5219,"리아":5220,"이득":5221,"에드":5222,"농구":5223,"어택":5224,"##즌":5225,"##자키":5226,"일원":5227,"##어진":5228,"다이아":5229,"빠진":5230,"자이언":5231,"무료":5232,"##워하":5233,"신호":5234,"블레이드":5235,"202":5236,"서쪽":5237,"##영상":5238,"이날":5239,"1992":5240,"##버트":5241,"부위":5242,"나뉘":5243,"출처":5244,"음성":5245,"정복":5246,"개혁":5247,"##렛":5248,"들어간다":5249,"미술":5250,"폭주":5251,"##깔":5252,"키리":5253,"극단":5254,"잠수":5255,"고생":5256,"글로":5257,"92":5258,"##옹":5259,"헌터":5260,"##BO":5261,"##ore":5262,"##ᅢᆼ이":5263,"##저히":5264,"간부":5265,"죽여":5266,"느리":5267,"겉":5268,"Ar":5269,"참전":5270,"반발":5271,"전직":5272,"이뤄":5273,"교전":5274,"편하":5275,"고용":5276,"투어":5277,"대체로":5278,"양산":5279,"일자":5280,"밀어":5281,"길이":5282,"보석":5283,"고문":5284,"폴란드":5285,"대량":5286,"키우":5287,"연도":5288,"상점":5289,"83":5290,"렙":5291,"라이프":5292,"제법":5293,"호평":5294,"상상":5295,"제어":5296,"사마":5297,"동영상":5298,"수영":5299,"정류장":5300,"걸쳐":5301,"승격":5302,"마루":5303,"전대":5304,"Te":5305,"출력":5306,"누리":5307,"갈리":5308,"##보드":5309,"사양":5310,"합격":5311,"89":5312,"기습":5313,"##FF":5314,"101":5315,"터치":5316,"##켰":5317,"93":5318,"1993":5319,"공학":5320,"잉글랜드":5321,"지휘관":5322,"북미":5323,"De":5324,"MAX":5325,"제작진":5326,"촌":5327,"기병":5328,"윌리":5329,"득표":5330,"##ᆯ린":5331,"중대":5332,"쟈":5333,"앱":5334,"94":5335,"요괴":5336,"더러":5337,"합성":5338,"미디어":5339,"머신":5340,"환승":5341,"나타내":5342,"인증":5343,"드물":5344,"날아가":5345,"법률":5346,"com":5347,"치가":5348,"79":5349,"상하":5350,"적어도":5351,"가시":5352,"파란":5353,"##다이":5354,"탄약":5355,"브루":5356,"조심":5357,"가량":5358,"박근":5359,"런던":5360,"##일드":5361,"회차":5362,"구출":5363,"매니":5364,"널리":5365,"요즘":5366,"스태":5367,"탱커":5368,"##FC":5369,"파일럿":5370,"의혹":5371,"##ᆨ시코":5372,"##타인":5373,"원소":5374,"re":5375,"돌아온":5376,"##뜨ᄅ":5377,"활성":5378,"동방":5379,"귀여":5380,"즐기":5381,"썬":5382,"보낸":5383,"떨어진다":5384,"유령":5385,"포탑":5386,"하수인":5387,"낸다":5388,"노멀":5389,"삼진":5390,"침공":5391,"트레":5392,"믹":5393,"분기":5394,"87":5395,"디지털":5396,"하고":5397,"의무":5398,"이재":5399,"톱":5400,"부수":5401,"개정":5402,"서양":5403,"알파":5404,"가톨릭":5405,"이루어지":5406,"묘지":5407,"인공":5408,"어쩌":5409,"올라오":5410,"마이클":5411,"가게":5412,"홀로":5413,"볼넷":5414,"이슬람":5415,"아프":5416,"똑같이":5417,"네임":5418,"첨":5419,"사이드":5420,"가속":5421,"다면서":5422,"결성":5423,"##one":5424,"예비":5425,"대략":5426,"스웨":5427,"학자":5428,"On":5429,"이자":5430,"히데":5431,"블러":5432,"패널":5433,"##쩡":5434,"경고":5435,"레인저":5436,"쾌":5437,"##우드":5438,"계정":5439,"괴롭":5440,"##폼":5441,"보고":5442,"##se":5443,"축제":5444,"##ip":5445,"헌법":5446,"소화":5447,"전면":5448,"이내":5449,"아일랜드":5450,"##AC":5451,"취하":5452,"부부":5453,"AI":5454,"DJ":5455,"특화":5456,"쿠로":5457,"##RE":5458,"줘야":5459,"익숙":5460,"써서":5461,"용사":5462,"상호":5463,"달린":5464,"횡":5465,"넘기":5466,"캐스":5467,"심한":5468,"갤럭":5469,"던져":5470,"##ᅮᆫ다":5471,"이시":5472,"##ere":5473,"버ᄐ":5474,"##먼트":5475,"그럼에도":5476,"문장":5477,"블리":5478,"그로":5479,"바이러스":5480,"메모리":5481,"걸어":5482,"워치":5483,"들이":5484,"근육":5485,"대항":5486,"람":5487,"불법":5488,"##PG":5489,"BGM":5490,"MC":5491,"슛":5492,"부리":5493,"돕":5494,"나와서":5495,"불린다":5496,"플레이오프":5497,"베스트":5498,"SN":5499,"자매":5500,"유행":5501,"한방":5502,"개체":5503,"어지":5504,"##준다":5505,"파크":5506,"##ity":5507,"도발":5508,"타케":5509,"어린이":5510,"##붕":5511,"##ath":5512,"김영":5513,"##녁":5514,"핫":5515,"##창기":5516,"고지":5517,"보안":5518,"일시":5519,"핸드":5520,"육성":5521,"##넣":5522,"##륜":5523,"예측":5524,"예고":5525,"냐며":5526,"소닉":5527,"빗":5528,"##닫":5529,"제임":5530,"자금":5531,"갤럭시":5532,"총리":5533,"루시":5534,"##어날":5535,"##컷":5536,"##로스":5537,"슈트":5538,"살려":5539,"검찰":5540,"취임":5541,"멕시코":5542,"FIFA":5543,"신기":5544,"터키":5545,"무언":5546,"마냥":5547,"정면":5548,"결론":5549,"사제":5550,"길드":5551,"##end":5552,"국방":5553,"##조리":5554,"리스트":5555,"형사":5556,"스톰":5557,"고백":5558,"1991":5559,"넘겨":5560,"루타":5561,"구멍":5562,"식사":5563,"마구":5564,"아기":5565,"리치":5566,"입히":5567,"세이브":5568,"그레":5569,"호텔":5570,"곧바로":5571,"##컴":5572,"레이스":5573,"상업":5574,"이명":5575,"감옥":5576,"태어난":5577,"!!":5578,"여유":5579,"##펙트":5580,"저장":5581,"번개":5582,"절망":5583,"개방":5584,"제임스":5585,"부서":5586,"맞서":5587,"진심":5588,"원자":5589,"투구":5590,"그랬":5591,"사이즈":5592,"구원":5593,"대가":5594,"유대":5595,"씬":5596,"볼트":5597,"초창기":5598,"플랫":5599,"세르":5600,"THE":5601,"700":5602,"타마":5603,"FA":5604,"##고리":5605,"피부":5606,"너무나":5607,"바위":5608,"배차":5609,"##워크":5610,"##요시":5611,"박정":5612,"청소년":5613,"오랫":5614,"팀원":5615,"웬만":5616,"##스키":5617,"흥행":5618,"으니까":5619,"강철":5620,"여지":5621,"일지":5622,"엮":5623,"럭":5624,"카타":5625,"고르":5626,"##김":5627,"콜로":5628,"몰려":5629,"착각":5630,"좌우":5631,"##특별시":5632,"된다면":5633,"전철":5634,"합쳐":5635,"리ᄆ":5636,"##구리":5637,"험":5638,"빨라":5639,"1988":5640,"파트너":5641,"발달":5642,"세포":5643,"왠":5644,"리메이크":5645,"MVP":5646,"끈":5647,"##톱":5648,"펼쳐":5649,"소형":5650,"쏴":5651,"처벌":5652,"그동안":5653,"서울특별시":5654,"이즈":5655,"현역":5656,"##쾌":5657,"레이드":5658,"신설":5659,"긍정":5660,"주식":5661,"융합":5662,"##끄러":5663,"훗":5664,"주간":5665,"셨":5666,"외계":5667,"##데스":5668,"아쉽":5669,"분량":5670,"아빠":5671,"차라리":5672,"펠":5673,"프라이":5674,"아름다운":5675,"정착":5676,"Ro":5677,"위장":5678,"잦":5679,"미카":5680,"##네스":5681,"##OT":5682,"인정받":5683,"반사":5684,"돼지":5685,"챕터":5686,"합의":5687,"사신":5688,"##디언":5689,"식민":5690,"랭킹":5691,"찾아가":5692,"림":5693,"##로나":5694,"지냈":5695,"내성":5696,"##성기":5697,"스미":5698,"봇":5699,"목격":5700,"알레":5701,"인연":5702,"누적":5703,"삐":5704,"사우":5705,"##폴":5706,"협박":5707,"통치":5708,"전문가":5709,"드림":5710,"내장":5711,"##드ᄅ":5712,"장악":5713,"단장":5714,"게스트":5715,"의뢰":5716,"화학":5717,"빌드":5718,"떨어졌":5719,"CC":5720,"방지":5721,"에서부터":5722,"포스트":5723,"도망치":5724,"립":5725,"에다":5726,"브레이크":5727,"무언가":5728,"잡지":5729,"박근혜":5730,"Wh":5731,"해병":5732,"영향력":5733,"공지":5734,"곁":5735,"크라":5736,"논리":5737,"방출":5738,"안드로이드":5739,"동의":5740,"태그":5741,"어울리":5742,"국왕":5743,"방사":5744,"는다면":5745,"내주":5746,"AK":5747,"##삭":5748,"시즈":5749,"도우":5750,"대지":5751,"타이거":5752,"조약":5753,"그대":5754,"뭉":5755,"한지":5756,"각자":5757,"요코":5758,"배트":5759,"한번":5760,"룸":5761,"관할":5762,"저녁":5763,"지능":5764,"##ect":5765,"돌아왔":5766,"멍":5767,"DLC":5768,"살리":5769,"실버":5770,"골든":5771,"하필":5772,"국군":5773,"htt":5774,"라면서":5775,"대폭":5776,"Se":5777,"1970":5778,"야스":5779,"흠":5780,"그레이":5781,"의존":5782,"최소한":5783,"양쪽":5784,"놀이":5785,"아크":5786,"손가락":5787,"토르":5788,"Le":5789,"악역":5790,"마침내":5791,"호주":5792,"스턴":5793,"동화":5794,"연맹":5795,"과목":5796,"변호사":5797,"닫":5798,"공무원":5799,"유치":5800,"걸린":5801,"'.":5802,"후속작":5803,"막차":5804,"붙이":5805,"모여":5806,"기구":5807,"으론":5808,"수련":5809,"수수":5810,"본작":5811,"##스ᄅ":5812,"무역":5813,"소지":5814,"He":5815,"면역":5816,"보관":5817,"소원":5818,"##ᅳᆯ레이":5819,"오랫동안":5820,"무덤":5821,"PD":5822,"빡":5823,"##age":5824,"어쨌든":5825,"##지마":5826,"올린":5827,"오사카":5828,"웹툰":5829,"주말":5830,"역임":5831,"오카":5832,"##IS":5833,"귀신":5834,"##바라":5835,"돌아다니":5836,"나간":5837,"육체":5838,"연인":5839,"기원전":5840,"al":5841,"혐의":5842,"해리":5843,"스튜디오":5844,"썩":5845,"내구":5846,"명중률":5847,"확대":5848,"재산":5849,"카오스":5850,"접촉":5851,"호감":5852,"기도":5853,"불교":5854,"노부":5855,"적대":5856,"kt":5857,"남겨":5858,"대리":5859,"##잡이":5860,"윌":5861,"##다리":5862,"대처":5863,"깜":5864,"네트":5865,"명성":5866,"써먹":5867,"강남":5868,"스틸":5869,"태평":5870,"익스":5871,"계단":5872,"##윈":5873,"올해":5874,"전후":5875,"Go":5876,"비행기":5877,"연료":5878,"예능":5879,"정비":5880,"Me":5881,"출마":5882,"가볍":5883,"갈라":5884,"간혹":5885,"슈팅":5886,"끌려":5887,"##페인":5888,"딘":5889,"오늘날":5890,"합체":5891,"트레이드":5892,"예ᄈ":5893,"싸울":5894,"화제":5895,"권한":5896,"컬러":5897,"모모":5898,"정치인":5899,"부장":5900,"뺏":5901,"마키":5902,"흐름":5903,"정원":5904,"섀":5905,"퀄리티":5906,"개성":5907,"츄":5908,"필리":5909,"소장":5910,"로즈":5911,"리드":5912,"시마":5913,"체인":5914,"받아들이":5915,"안내":5916,"학부":5917,"이지":5918,"오전":5919,"게시판":5920,"GT":5921,"준수":5922,"휴대":5923,"접속":5924,"저그":5925,"수익":5926,"블라":5927,"권리":5928,"1989":5929,"KIA":5930,"빚":5931,"특집":5932,"더라":5933,"연극":5934,"##og":5935,"외형":5936,"금융":5937,"##ake":5938,"칼리":5939,"##ide":5940,"박물":5941,"하우스":5942,"갇":5943,"하얀":5944,"선전":5945,"##달리":5946,"트래":5947,"김태":5948,"새벽":5949,"고마":5950,"허리":5951,"상당수":5952,"윌리엄":5953,"톰":5954,"##OM":5955,"Be":5956,"피격":5957,"이집":5958,"My":5959,"초간":5960,"이집트":5961,"WW":5962,"무렵":5963,"카스":5964,"공공":5965,"##미야":5966,"뻐":5967,"##흡":5968,"오스트리":5969,"주기":5970,"다를":5971,"환영":5972,"편곡":5973,"페이즈":5974,"일기":5975,"130":5976,"최다":5977,"둘째":5978,"시계":5979,"금속":5980,"포르투":5981,"플레":5982,"소스":5983,"나치":5984,"넉":5985,"고구":5986,"AR":5987,"메르":5988,"##ss":5989,"원칙":5990,"이루어진":5991,"결합":5992,"SC":5993,"##ark":5994,"##겐":5995,"지우":5996,"쉴":5997,"##ime":5998,"숭":5999,"연타":6000,"헤어":6001,"##ire":6002,"알렉산":6003,"바라보":6004,"누나":6005,"SM":6006,"편입":6007,"으려고":6008,"식당":6009,"리얼":6010,"어릴":6011,"할아버지":6012,"##구치":6013,"유물":6014,"개입":6015,"한동안":6016,"문재":6017,"캠퍼스":6018,"인조":6019,"어른":6020,"매직":6021,"렛":6022,"##세스":6023,"웅":6024,"향하":6025,"##티아":6026,"지진":6027,"거인":6028,"188":6029,"전신":6030,"그건":6031,"소중":6032,"아니면":6033,"극복":6034,"wh":6035,"116":6036,"블로그":6037,"전진":6038,"시선":6039,"성립":6040,"영문":6041,"##둘":6042,"##듭":6043,"my":6044,"Su":6045,"딩":6046,"##ES":6047,"정찰":6048,"사도":6049,"은근히":6050,"회상":6051,"헤비":6052,"정글":6053,"아바":6054,"기사단":6055,"바리":6056,"SD":6057,"협상":6058,"캐스팅":6059,"메뉴":6060,"궤도":6061,"뜯":6062,"스웨덴":6063,"##ID":6064,"주사":6065,"깨닫":6066,"시내버스":6067,"##셰":6068,"팬덤":6069,"##으면":6070,"Tr":6071,"음원":6072,"튼":6073,"태어나":6074,"부디":6075,"튀어나":6076,"유이":6077,"는지라":6078,"대개":6079,"작곡가":6080,"손해":6081,"##ite":6082,"##던가":6083,"대충":6084,"독특":6085,"재단":6086,"수십":6087,"동굴":6088,"비해서":6089,"##킨다":6090,"##아지":6091,"우위":6092,"젤":6093,"더더":6094,"보라":6095,"복무":6096,"##아시아":6097,"우라":6098,"고수":6099,"아닌가":6100,"안티":6101,"민주주의":6102,"용기":6103,"이길":6104,"식량":6105,"##부르크":6106,"트럭":6107,"160":6108,"뱅":6109,"띠":6110,"교차":6111,"종목":6112,"세이버":6113,"이익":6114,"해안":6115,"##회사":6116,"미라":6117,"처형":6118,"##ound":6119,"##맨드":6120,"조언":6121,"못할":6122,"일찍":6123,"멀쩡":6124,"SR":6125,"클래식":6126,"과제":6127,"리듬":6128,"이끄":6129,"드레":6130,"위상":6131,"내려가":6132,"##iv":6133,"원본":6134,"더더욱":6135,"##ᆺ지":6136,"HD":6137,"져서":6138,"''":6139,"##가스":6140,"커맨드":6141,"펀치":6142,"신비":6143,"줄어":6144,"김민":6145,"##베르":6146,"타인":6147,"박물관":6148,"플라이":6149,"잡혀":6150,"빛나":6151,"오가":6152,"트윈":6153,"힙":6154,"##미니":6155,"신부":6156,"스프리":6157,"이렇":6158,"##가미":6159,"##iz":6160,"##OP":6161,"삼국지":6162,"훗날":6163,"##ge":6164,"들어갈":6165,"증언":6166,"해적":6167,"갈수록":6168,"멘탈":6169,"날짜":6170,"허나":6171,"절대로":6172,"천재":6173,"적군":6174,"IC":6175,"자국":6176,"꽂":6177,"##리스트":6178,"일격":6179,"마비":6180,"내세":6181,"신앙":6182,"위원장":6183,"나갈":6184,"구사":6185,"##OW":6186,"나타난":6187,"별다른":6188,"노인":6189,"나눠":6190,"각본":6191,"재미있":6192,"무릎":6193,"코우":6194,"중독":6195,"나타난다":6196,"느라":6197,"기적":6198,"재정":6199,"비싸":6200,"죄다":6201,"세종":6202,"주포":6203,"멈추":6204,"외치":6205,"집행":6206,"양성":6207,"뭘":6208,"스승":6209,"철학":6210,"하락":6211,"참석":6212,"구나":6213,"마이너":6214,"지위":6215,"몰랐":6216,"캠페인":6217,"과연":6218,"비례":6219,"정수":6220,"죽일":6221,"개시":6222,"호수":6223,"예산":6224,"결코":6225,"국적":6226,"적응":6227,"패션":6228,"호위":6229,"교류":6230,"관중":6231,"작화":6232,"크리스마스":6233,"##큐어":6234,"한참":6235,"탄창":6236,"깡":6237,"나간다":6238,"알려졌":6239,"매체":6240,"이중":6241,"##가리":6242,"##LL":6243,"되돌":6244,"열쇠":6245,"##덩이":6246,"죽인":6247,"안경":6248,"히메":6249,"시아":6250,"상한":6251,"##ome":6252,"활발":6253,"##프레":6254,"노란":6255,"데이비":6256,"경기력":6257,"Gr":6258,"나아가":6259,"##쩍":6260,"어떻":6261,"펫":6262,"흐르":6263,"선출":6264,"투명":6265,"십자":6266,"툴":6267,"##테르":6268,"해상":6269,"바퀴":6270,"안타까":6271,"with":6272,"왈":6273,"냥":6274,"우연히":6275,"김종":6276,"루수":6277,"체크":6278,"##BA":6279,"희귀":6280,"명단":6281,"녹색":6282,"##UN":6283,"충성":6284,"화성":6285,"##마디":6286,"##리그":6287,"진보":6288,"곽":6289,"미안":6290,"스타크래프트":6291,"남겼":6292,"피스":6293,"고리":6294,"쳤":6295,"이영":6296,"칩":6297,"원주":6298,"칭찬":6299,"개수":6300,"사막":6301,"개막":6302,"첫차":6303,"주일":6304,"##아웃":6305,"결말":6306,"IS":6307,"위대":6308,"헝":6309,"행적":6310,"적혀":6311,"##쓸":6312,"켈":6313,"갖춘":6314,"전성기":6315,"##몬드":6316,"미츠":6317,"기아":6318,"모래":6319,"렉":6320,"제정":6321,"당일":6322,"첼":6323,"##크스":6324,"인지도":6325,"흔적":6326,"크레":6327,"1987":6328,"상급":6329,"기종":6330,"챌린":6331,"후방":6332,"업적":6333,"오스트리아":6334,"de":6335,"##드러":6336,"미터":6337,"강점":6338,"BE":6339,"px":6340,"임대":6341,"상성":6342,"다닌":6343,"140":6344,"어려움":6345,"농담":6346,"가져가":6347,"어지간":6348,"김동":6349,"포로":6350,"웃음":6351,"##스라":6352,"사유":6353,"계통":6354,"대수":6355,"심해":6356,"##MA":6357,"Pr":6358,"##블리":6359,"버스터":6360,"재현":6361,"대학원":6362,"취미":6363,"면적":6364,"줄이":6365,"무작":6366,"매년":6367,"##ord":6368,"스프링":6369,"Love":6370,"비상":6371,"오직":6372,"체육관":6373,"클릭":6374,"토끼":6375,"거치":6376,"심사":6377,"##ud":6378,"일반인":6379,"포항":6380,"고스트":6381,"으라":6382,"펑":6383,"찔":6384,"개량":6385,"앞두":6386,"##치기":6387,"사후":6388,"##닉스":6389,"신장":6390,"거점":6391,"프리큐어":6392,"돋":6393,"생존자":6394,"유적":6395,"이정":6396,"##값":6397,"남북":6398,"강도":6399,"헛":6400,"자책":6401,"과장":6402,"들어온":6403,"ch":6404,"본체":6405,"##빨":6406,"모조리":6407,"##양함":6408,"자본":6409,"어마":6410,"자극":6411,"괴수":6412,"##큰":6413,"덧붙":6414,"켜":6415,"세웠":6416,"예수":6417,"클레":6418,"이주":6419,"##코드":6420,"닥":6421,"##낼":6422,"가을":6423,"##mp":6424,"부지":6425,"파츠":6426,"##사자":6427,"화물":6428,"##데미":6429,"스탠":6430,"##10":6431,"부작":6432,"여야":6433,"저작":6434,"전멸":6435,"##멜":6436,"##ame":6437,"맥스":6438,"기용":6439,"텐데":6440,"소위":6441,"UE":6442,"선고":6443,"##ance":6444,"##팀":6445,"아메리카":6446,"캡틴":6447,"##다란":6448,"연금":6449,"추구":6450,"가해":6451,"들어서":6452,"아쉬운":6453,"아티스트":6454,"SKT":6455,"##ax":6456,"##카드":6457,"인격":6458,"흥미":6459,"스ᄅ":6460,"자세히":6461,"an":6462,"가짜":6463,"출입":6464,"판매량":6465,"휘두":6466,"JR":6467,"공세":6468,"채워":6469,"##ure":6470,"아카데미":6471,"유나이":6472,"유니폼":6473,"새끼":6474,"꽈":6475,"##ix":6476,"로그":6477,"900":6478,"일치":6479,"눌러":6480,"차기":6481,"GS":6482,"승점":6483,"채택":6484,"무라":6485,"포격":6486,"##뜻":6487,"공룡":6488,"일방":6489,"단편":6490,"유나이티":6491,"취향":6492,"##ick":6493,"소송":6494,"올라왔":6495,"##mer":6496,"스마트폰":6497,"##펴":6498,"도주":6499,"포드":6500,"집어":6501,"탈퇴":6502,"코코":6503,"일본인":6504,"##지로":6505,"##ice":6506,"막대":6507,"사형":6508,"으러":6509,"부자":6510,"연패":6511,"##이즈":6512,"기량":6513,"색깔":6514,"타율":6515,"할머니":6516,"바까":6517,"피아노":6518,"들리":6519,"바깥":6520,"로고":6521,"귀찮":6522,"##our":6523,"로우":6524,"제작자":6525,"한마디":6526,"Bo":6527,"유통":6528,"건조":6529,"코리아":6530,"상실":6531,"이루어져":6532,"타선":6533,"화장실":6534,"드라이브":6535,"아미":6536,"구경":6537,"후계":6538,"발라":6539,"흘리":6540,"치유":6541,"아즈":6542,"마린":6543,"라이온":6544,"지켜보":6545,"몽골":6546,"측정":6547,"EP":6548,"닭":6549,"영구":6550,"노벨":6551,"##나미":6552,"식민지":6553,"비주":6554,"요금":6555,"햄":6556,"##시로":6557,"씹":6558,"##맛":6559,"자전":6560,"보존":6561,"1986":6562,"거듭":6563,"본다":6564,"##시타":6565,"채우":6566,"##공화국":6567,"선택지":6568,"쌍둥이":6569,"내보":6570,"초코":6571,"잠재":6572,"사라진":6573,"1960":6574,"아이콘":6575,"가요":6576,"OST":6577,"상인":6578,"내렸":6579,"##든가":6580,"나타났":6581,"무방":6582,"레디":6583,"##켄":6584,"찢":6585,"컸":6586,"쵸":6587,"헐":6588,"훼":6589,"커피":6590,"강요":6591,"##코토":6592,"레이더":6593,"메시지":6594,"인민공화국":6595,"KO":6596,"##{{":6597,"들려":6598,"Un":6599,"간신":6600,"이른":6601,"언스":6602,"초보":6603,"이민":6604,"##고속":6605,"꿀":6606,"이슈":6607,"통산":6608,"어째서":6609,"팽":6610,"동력":6611,"가상":6612,"고도":6613,"Ex":6614,"포수":6615,"어드":6616,"신사":6617,"##짐":6618,"##얄":6619,"도끼":6620,"넥센":6621,"조연":6622,"색상":6623,"피터":6624,"##AD":6625,"캐논":6626,"명확":6627,"오타":6628,"##듈":6629,"벌어진":6630,"몰락":6631,"연승":6632,"##qu":6633,"주택":6634,"화재":6635,"사원":6636,"여객":6637,"##멘트":6638,"썰":6639,"루카":6640,"교장":6641,"네트워크":6642,"힌":6643,"주소":6644,"타락":6645,"벼":6646,"곡명":6647,"귀환":6648,"##oc":6649,"가루":6650,"어스":6651,"베네":6652,"냄새":6653,"{{{":6654,"외전":6655,"쟁":6656,"내지":6657,"몰라도":6658,"콜라보":6659,"##반도":6660,"유희왕":6661,"모토":6662,"제갈":6663,"딴":6664,"실망":6665,"판결":6666,"##80":6667,"소라":6668,"이브":6669,"##시스트":6670,"남녀":6671,"칭호":6672,"떠났":6673,"기울":6674,"##카리":6675,"GB":6676,"대선":6677,"담배":6678,"경로":6679,"레알":6680,"수장":6681,"##핵":6682,"불타":6683,"UEFA":6684,"항공기":6685,"펄":6686,"이터":6687,"스페이스":6688,"광역시":6689,"가하":6690,"핏":6691,"잡히":6692,"위반":6693,"##플레":6694,"깔끔":6695,"매니저":6696,"오라":6697,"생긴다":6698,"##그마":6699,"비싼":6700,"포르투갈":6701,"DS":6702,"고구려":6703,"타수":6704,"연합군":6705,"186":6706,"##own":6707,"sh":6708,"##ys":6709,"머물":6710,"##렁":6711,"약해":6712,"반동":6713,"아마도":6714,"라인업":6715,"순환":6716,"CPU":6717,"##노우":6718,"혐오":6719,"아요":6720,"##나카":6721,"교실":6722,"브라이":6723,"스터":6724,"영주":6725,"##가시":6726,"##스틱":6727,"항복":6728,"법인":6729,"백성":6730,"부른":6731,"챙겨":6732,"글러":6733,"너희":6734,"관찰":6735,"복지":6736,"찌르":6737,"뿔":6738,"타운":6739,"잠수함":6740,"##ber":6741,"미스터":6742,"풀리":6743,"모를":6744,"단단":6745,"비서":6746,"주역":6747,"주자":6748,"들여":6749,"숨겨진":6750,"적합":6751,"캠프":6752,"배터리":6753,"낚시":6754,"매장":6755,"수류":6756,"시노":6757,"거미":6758,"We":6759,"스와":6760,"관람":6761,"AM":6762,"릿":6763,"이겨":6764,"예시":6765,"유효":6766,"강원도":6767,"커리어":6768,"드래프트":6769,"##괄":6770,"줘서":6771,"데드":6772,"히어로즈":6773,"##저스":6774,"105":6775,"벌레":6776,"공성":6777,"공업":6778,"##av":6779,"아쿠":6780,"##OC":6781,"트라이":6782,"흑인":6783,"하단":6784,"인치":6785,"엿":6786,"유학":6787,"##쌍":6788,"이스라":6789,"튕":6790,"승객":6791,"고개":6792,"##old":6793,"##데이":6794,"예언":6795,"용량":6796,"##정부":6797,"김재":6798,"동성":6799,"등지":6800,"##땅":6801,"골라":6802,"..\"":6803,"고작":6804,"본사":6805,"치킨":6806,"늘리":6807,"상단":6808,"승률":6809,"싸워":6810,"국경":6811,"##일보":6812,"추억":6813,"소프트웨어":6814,"CF":6815,"면모":6816,"천만":6817,"마약":6818,"포위":6819,"나선":6820,"휴식":6821,"서구":6822,"티켓":6823,"온다":6824,"##슬리":6825,"원하":6826,"관측":6827,"LI":6828,"철수":6829,"수출":6830,"일대":6831,"첩":6832,"성남":6833,"그러니까":6834,"##긋":6835,"##orld":6836,"도적":6837,"##랑이":6838,"곤란":6839,"중립":6840,"자폭":6841,"바이오":6842,"카운트":6843,"생략":6844,"##오르":6845,"##일러":6846,"개국":6847,"##섬":6848,"표지":6849,"적당히":6850,"느린":6851,"수류탄":6852,"터널":6853,"상술":6854,"턱":6855,"변환":6856,"음모":6857,"어리":6858,"##곱":6859,"조별":6860,"클랜":6861,"마드리":6862,"기생":6863,"정하":6864,"좌석":6865,"쫓아":6866,"허가":6867,"합병":6868,"다름없":6869,"봐서":6870,"추종":6871,"##위대":6872,"형상":6873,"남긴":6874,"윗":6875,"소대":6876,"얀":6877,"사이버":6878,"실전":6879,"언젠":6880,"##늬":6881,"##크리":6882,"정기":6883,"후술":6884,"아랍":6885,"문구":6886,"였을":6887,"김대":6888,"어려워":6889,"내전":6890,"마드리드":6891,"읍":6892,"통계":6893,"1984":6894,"디스크":6895,"보험":6896,"메달":6897,"인종":6898,"차이점":6899,"틸":6900,"마디":6901,"밝혀진":6902,"##머스":6903,"만날":6904,"##ont":6905,"1985":6906,"말리":6907,"글로벌":6908,"최신":6909,"근본":6910,"물려":6911,"##보이":6912,"복구":6913,"지경":6914,"입지":6915,"언더":6916,"액티브":6917,"사명":6918,"타로":6919,"연예인":6920,"187":6921,"서포터":6922,"증오":6923,"SH":6924,"지뢰":6925,"후손":6926,"함수":6927,"이스라엘":6928,"스트라이크":6929,"용서":6930,"아시안":6931,"후배":6932,"에르":6933,"구석":6934,"##프라":6935,"오크":6936,"3000":6937,"똥":6938,"사정거리":6939,"위성":6940,"일족":6941,"지르":6942,"시너지":6943,"대인":6944,"크리스탈":6945,"오마":6946,"모이":6947,"AD":6948,"##ies":6949,"허락":6950,"커다란":6951,"LC":6952,"기숙":6953,"고위":6954,"DF":6955,"급격":6956,"자막":6957,"그랜드":6958,"즉위":6959,"모노":6960,"휩":6961,"리타":6962,"숙련":6963,"논의":6964,"##죠":6965,"느낄":6966,"하차":6967,"전주":6968,"부각":6969,"텔레비전":6970,"공방":6971,"lo":6972,"KBO":6973,"행보":6974,"어뢰":6975,"미묘":6976,"경주":6977,"굿":6978,"이수":6979,"토벌":6980,"##하면":6981,"쓸모":6982,"모니":6983,"감각":6984,"발행":6985,"해피":6986,"올라온":6987,"새롭":6988,"##돌리":6989,"네요":6990,"이젠":6991,"##타이":6992,"언덕":6993,"서식":6994,"It":6995,"뻗":6996,"왕위":6997,"망치":6998,"##슬러":6999,"##lay":7000,"연령":7001,"넘치":7002,"특전":7003,"기뻐":7004,"XX":7005,"준우":7006,"##넬":7007,"살펴":7008,"중첩":7009,"이어서":7010,"태평양":7011,"부딪":7012,"취약":7013,"가만":7014,"뜬금":7015,"구글":7016,"후원":7017,"게리":7018,"오랜만":7019,"제약":7020,"쿼터":7021,"블러드":7022,"루나":7023,"##어마":7024,"까진":7025,"아츠":7026,"노동자":7027,"무척":7028,"침략":7029,"저렴":7030,"정화":7031,"간신히":7032,"세운":7033,"##자드":7034,"총알":7035,"구슬":7036,"기관총":7037,"##OD":7038,"침입":7039,"세븐":7040,"MF":7041,"드롭":7042,"간접":7043,"일본군":7044,"생년":7045,"파르":7046,"##US":7047,"아르헨":7048,"방어구":7049,"히나":7050,"워커":7051,"흡혈":7052,"분쟁":7053,"법정":7054,"입대":7055,"제트":7056,"구리":7057,"헬기":7058,"든다":7059,"학습":7060,"혹시":7061,"균형":7062,"드럼":7063,"맛있":7064,"가동":7065,"전이":7066,"아테":7067,"CV":7068,"진압":7069,"강자":7070,"이스":7071,"##눈":7072,"카카":7073,"산하":7074,"WWE":7075,"남아":7076,".....":7077,"##PM":7078,"아르헨티나":7079,"사귀":7080,"빠졌":7081,"##ann":7082,"잡아먹":7083,"곳곳":7084,"찬스":7085,"공용":7086,"텍스트":7087,"소방":7088,"스리":7089,"평생":7090,"양자":7091,"여우":7092,"분열":7093,"네오":7094,"NE":7095,"아이언":7096,"SE":7097,"어마어마":7098,"주차":7099,"잘라":7100,"자이언츠":7101,"##40":7102,"관점":7103,"인디":7104,"중세":7105,"신전":7106,"약화":7107,"악당":7108,"금방":7109,"정차":7110,"125":7111,"치르":7112,"##pe":7113,"##프ᄅ":7114,"##첨":7115,"이토":7116,"거울":7117,"##30":7118,"##뚱":7119,"포트":7120,"트랜스":7121,"애정":7122,"부적":7123,"느려":7124,"페널":7125,"결심":7126,"루비":7127,"가라":7128,"##픔":7129,"지리":7130,"속한다":7131,"나리":7132,"경상북도":7133,"딜링":7134,"저질":7135,"반전":7136,"제작사":7137,"부러":7138,"격추":7139,"옳":7140,"제출":7141,"상기":7142,"##네임":7143,"성당":7144,"앨리스":7145,"##sh":7146,"연고":7147,"보호막":7148,"your":7149,"이혼":7150,"따라가":7151,"크림":7152,"스팀":7153,"노스":7154,"통화":7155,"라기":7156,"토너":7157,"##라이트":7158,"##NA":7159,"호흡":7160,"표면":7161,"폐쇄":7162,"코르":7163,"##블린":7164,"##배우":7165,"뎀":7166,"사령부":7167,"아저":7168,"금액":7169,"결전":7170,"구축함":7171,"엘리트":7172,"간주":7173,"##마크":7174,"히토":7175,"악화":7176,"저택":7177,"보완":7178,"뮤지컬":7179,"미즈":7180,"창원":7181,"구름":7182,"이식":7183,"리온":7184,"##크라":7185,"인권":7186,"얻어":7187,"아저씨":7188,"도망가":7189,"지라":7190,"충실":7191,"멜로":7192,"##VD":7193,"##란다":7194,"채팅":7195,"스크린":7196,"CJ":7197,"김현":7198,"선거구":7199,"분해":7200,"AS":7201,"용인":7202,"상관없":7203,"피할":7204,"늘어난":7205,"##츄":7206,"더군":7207,"참모":7208,"아까":7209,"전파":7210,"가리키":7211,"초록":7212,"열매":7213,"주둔":7214,"지불":7215,"DE":7216,"사라진다":7217,"도라":7218,"인용":7219,"하루카":7220,"유력":7221,"##은행":7222,"암시":7223,"대왕":7224,"천안":7225,"##키아":7226,"##ng":7227,"프란":7228,"##io":7229,"긴장":7230,"정예":7231,"교과":7232,"떠올리":7233,"##천시":7234,"흩":7235,"멋진":7236,"토니":7237,"동양":7238,"유발":7239,"##플레이":7240,"문재인":7241,"돼서":7242,"서서":7243,"보건":7244,"존재감":7245,"헨리":7246,"성별":7247,"공정":7248,"우에":7249,"##셋":7250,"경남":7251,"체결":7252,"로리":7253,"시인":7254,"배포":7255,"학력":7256,"상세":7257,"소유자":7258,"##틱":7259,"릴리":7260,"수석":7261,"시라":7262,"커플":7263,"후계자":7264,";&":7265,"사인":7266,"악기":7267,"다룬":7268,"답변":7269,"비아":7270,"드라이버":7271,"모자라":7272,"짜증":7273,"상영":7274,"##oo":7275,"토너먼트":7276,"원리":7277,"재밌":7278,"수호자":7279,"도둑":7280,"전승":7281,"로이":7282,"엑스트라":7283,"악명":7284,"행운":7285,"개설":7286,"##그라":7287,"써야":7288,"호기":7289,"로버트":7290,"170":7291,"언젠가":7292,"숨기":7293,"이듬":7294,"도박":7295,"Pro":7296,"무서운":7297,"쓰였":7298,"구미":7299,"본관":7300,"업로드":7301,"잔뜩":7302,"미쿠":7303,"일으켜":7304,"테라":7305,"이겼":7306,"기인":7307,"선두":7308,"플리":7309,"은신":7310,"에요":7311,"##ᆻ다":7312,"기숙사":7313,"기운":7314,"##싱턴":7315,"##월일":7316,"죽였":7317,"베리":7318,"##ave":7319,"뱀파이어":7320,"만남":7321,"양식":7322,"실종":7323,"교도":7324,"중량":7325,"에다가":7326,"지팡":7327,"##포트":7328,"요인":7329,"백인":7330,"##걸이":7331,"받아들여":7332,"쭉":7333,"벌어졌":7334,"탐험":7335,"##LE":7336,"정황":7337,"불사":7338,"부임":7339,"임신":7340,"보인":7341,"난입":7342,"중력":7343,"아동":7344,"처분":7345,"대책":7346,"임금":7347,"동점":7348,"괴롭히":7349,"LV":7350,"관리자":7351,"캐스터":7352,"디지몬":7353,"큐브":7354,"미키":7355,"심심":7356,"##번트":7357,"##아나":7358,"방송국":7359,"that":7360,"논문":7361,"야생":7362,"칼날":7363,"##릿":7364,"UP":7365,"항의":7366,"##베이":7367,"관계자":7368,"생년월일":7369,"해명":7370,"백작":7371,"시카":7372,"유독":7373,"탄환":7374,"분명히":7375,"##센트":7376,"베타":7377,"##우마":7378,"호칭":7379,"##슬링":7380,"복합":7381,"도루":7382,"서번트":7383,"카와":7384,"금메달":7385,"말투":7386,"윈도우":7387,"##ION":7388,"크ᄅ":7389,"동명":7390,"##ᆺ갈":7391,"생명체":7392,"문단":7393,"진주":7394,"자녀":7395,"##ream":7396,"와일드":7397,"패키":7398,"할인":7399,"법칙":7400,"수백":7401,"가방":7402,"##엣":7403,"다이아몬드":7404,"려던":7405,"발렌":7406,"ED":7407,"1500":7408,"어딘":7409,"단축":7410,"뿜":7411,"절차":7412,"정통":7413,"잃어버":7414,"EN":7415,"해골":7416,"분신":7417,"외계인":7418,"무관":7419,"달하":7420,"쏠":7421,"마신":7422,"영광":7423,"기상":7424,"따온":7425,"운동장":7426,"루이스":7427,"데몬":7428,"어라":7429,"하향":7430,"온도":7431,"시합":7432,"선보였":7433,"라틴":7434,"이듬해":7435,"귀여운":7436,"주술":7437,"##드레":7438,"닛":7439,"분대":7440,"프로필":7441,"인력":7442,"리뷰":7443,"##ond":7444,"창고":7445,"1982":7446,"밍":7447,"->":7448,"딜레이":7449,"부스터":7450,"기름":7451,"이온":7452,"왠지":7453,"들어왔":7454,"리오":7455,"끔찍":7456,"광장":7457,"로얄":7458,"플래시":7459,"##게임":7460,"미네":7461,"##팩트":7462,"##iss":7463,"Com":7464,"5000":7465,"막내":7466,"사살":7467,"의학":7468,"기둥":7469,"가려":7470,"창설":7471,"뛰어넘":7472,"보드":7473,"전동":7474,"니스":7475,"건국":7476,"성질":7477,"전북":7478,"셜":7479,"조리":7480,"한쪽":7481,"신지":7482,"유인":7483,"##일리":7484,"공허":7485,"체험":7486,"싸웠":7487,"레딧":7488,"장인":7489,"나마":7490,"부사":7491,"퇴장":7492,"그렇지만":7493,"물고기":7494,"유격":7495,"존경":7496,"집착":7497,"민첩":7498,"커녕":7499,"울프":7500,"우정":7501,"##운서":7502,"삽입":7503,"디젤":7504,"아나운서":7505,"##탐":7506,"걸맞":7507,"걸린다":7508,"상식":7509,"##에르":7510,"참가자":7511,"아키라":7512,"승자":7513,"1950":7514,"공산당":7515,"##카이":7516,"##IP":7517,"망가":7518,"##11":7519,"창단":7520,"요약":7521,"휘말":7522,"둠":7523,"엔젤":7524,"가르쳐":7525,"시상":7526,"감지":7527,"시원":7528,"작년":7529,"부를":7530,"진학":7531,"시공":7532,"모터":7533,"솜":7534,"증상":7535,"그램":7536,"전제":7537,"독재":7538,"아인":7539,"마블":7540,"스케":7541,"수면":7542,"조기":7543,"1983":7544,"하츠":7545,"의장":7546,"애플":7547,"불펜":7548,"##60":7549,"학기":7550,"##다나":7551,"출구":7552,"##ian":7553,"복제":7554,"??":7555,"by":7556,"##이어":7557,"##소녀":7558,"##앤":7559,"의해서":7560,"놓치":7561,"오디션":7562,"##도르":7563,"he":7564,"싫어":7565,"나츠":7566,"웨스트":7567,"샌드":7568,"유산":7569,"천하":7570,"힐러":7571,"##그리":7572,"비전":7573,"덩치":7574,"##커스":7575,"철저":7576,"##뛰":7577,"선제":7578,"발굴":7579,"가공":7580,"여주":7581,"조이":7582,"##룩":7583,"BL":7584,"하이퍼":7585,"불렸":7586,"단원":7587,"깨달":7588,"투스":7589,"스위스":7590,"유전자":7591,"다녔":7592,"스폰":7593,"&#":7594,"반박":7595,"어두운":7596,"##유럽":7597,"go":7598,"그럭":7599,"레지":7600,"트럼프":7601,"맷":7602,"일으켰":7603,"항구":7604,"탕":7605,"구할":7606,"타석":7607,"리스크":7608,"어렸":7609,"##놀":7610,"미만":7611,"##세대":7612,"돌입":7613,"##저럭":7614,"안녕":7615,"꼼":7616,"갑작":7617,"코트":7618,"중형":7619,"스쿨":7620,"겹치":7621,"콘텐츠":7622,"##티스":7623,"스위치":7624,"동인":7625,"다카":7626,"비주얼":7627,"그럭저럭":7628,"싹":7629,"사법":7630,"주니어":7631,"##쟁이":7632,"노바":7633,"알아보":7634,"##Hz":7635,"통로":7636,"준우승":7637,"배정":7638,"걸렸":7639,"##TV":7640,"돔":7641,"수명":7642,"백제":7643,"마스크":7644,"사용자":7645,"대거":7646,"어필":7647,"씌":7648,"히라":7649,"이드":7650,"출격":7651,"기재":7652,"휘하":7653,"상륙":7654,"라이플":7655,"논쟁":7656,"쓰여":7657,"웨이브":7658,"럼":7659,"정교":7660,"열렸":7661,"이펙트":7662,"본진":7663,"슬래":7664,"단행":7665,"대조":7666,"자전거":7667,"다녀":7668,"가죽":7669,"##투스":7670,"배트맨":7671,"보충":7672,"살아가":7673,"토마":7674,"팟":7675,"##틸":7676,"##ory":7677,"딕":7678,"신도":7679,"##베스":7680,"##우리":7681,"훈장":7682,"호소":7683,"##필드":7684,"##TE":7685,"시리아":7686,"회담":7687,"스트레스":7688,"식품":7689,"격차":7690,"국장":7691,"축복":7692,"빅토":7693,"인질":7694,"##ace":7695,"##rom":7696,"케인":7697,"코미디":7698,"Co":7699,"##늄":7700,"##세서":7701,"실책":7702,"##틀러":7703,"폴리":7704,"근대":7705,"완결":7706,"위안":7707,"Bl":7708,"옹호":7709,"학문":7710,"파편":7711,"##카이도":7712,"태국":7713,"##춤":7714,"평양":7715,"지사":7716,"공화":7717,"유기":7718,"마우스":7719,"##레이터":7720,"##즐":7721,";&#":7722,"경전":7723,"라니":7724,"공립":7725,"##누스":7726,"갈아":7727,"워싱턴":7728,"두들":7729,"팬텀":7730,"트리플":7731,"부근":7732,"무너지":7733,"적중":7734,"DVD":7735,"##필더":7736,"올릴":7737,"승인":7738,"미드필더":7739,"Br":7740,"원문":7741,"오키":7742,"토지":7743,"침묵":7744,"반해":7745,"돌아와":7746,"소음":7747,"빌려":7748,"##팬":7749,"마케":7750,"메이드":7751,"시켜서":7752,"##부로":7753,"소요":7754,"기갑":7755,"기동성":7756,"##끈":7757,"경직":7758,"플래그":7759,"부실":7760,"Or":7761,"중국어":7762,"세부":7763,"##뚝":7764,"노려":7765,"##oth":7766,"쓰러뜨리":7767,"와타":7768,"근거리":7769,"께서":7770,"뱅크":7771,"축하":7772,"해요":7773,"배출":7774,"##ows":7775,"내각":7776,"막판":7777,"결투":7778,"경상남도":7779,"곱":7780,"##ᅲᆷ":7781,"보이스":7782,"##산시":7783,"복선":7784,"시신":7785,"오염":7786,"트루":7787,"솔직":7788,"파동":7789,"방위":7790,"##MP":7791,"우르":7792,"연습생":7793,"마감":7794,"동계":7795,"남매":7796,"리카":7797,"수능":7798,"디즈":7799,"내일":7800,"삼각":7801,"루스":7802,"옮기":7803,"간단히":7804,"차체":7805,"과학자":7806,"휘두르":7807,"후퇴":7808,"동급":7809,"기후":7810,"##잠":7811,"아포":7812,"고객":7813,"임기":7814,"날카":7815,"##TS":7816,"##꼽":7817,"철거":7818,"센스":7819,"넘버":7820,"##빵":7821,"우세":7822,"##먼스":7823,"헝가리":7824,"무작위":7825,"수급":7826,"왜곡":7827,"상담":7828,"학위":7829,"손상":7830,"롬":7831,"##화점":7832,"##신교":7833,"##든지":7834,"국정":7835,"노조":7836,"한반도":7837,"##무시":7838,"괜히":7839,"지향":7840,"규격":7841,"무인":7842,"아끼":7843,"##IG":7844,"영지":7845,"장거리":7846,"야수":7847,"안개":7848,"##곽":7849,"##셔널":7850,"램":7851,"CG":7852,"약탈":7853,"마법소녀":7854,"일당":7855,"드러났":7856,"중시":7857,"하마":7858,"##주교":7859,"기세":7860,"무사히":7861,"##그나":7862,"##경기":7863,"##aw":7864,"늘어났":7865,"##잘":7866,"선행":7867,"185":7868,"##하마":7869,"토크":7870,"라라":7871,"쓰러지":7872,"유성":7873,"요한":7874,"##텐도":7875,"닌텐도":7876,"패키지":7877,"##딱":7878,"최상위":7879,"했으니":7880,"멜로디":7881,"장탄":7882,"싱크":7883,"떠난":7884,"휠":7885,"과도":7886,"##포르":7887,"미나미":7888,"##몸":7889,"야구장":7890,"콰":7891,"비치":7892,"간간":7893,"신발":7894,"대포":7895,"세인트":7896,"양상":7897,"록맨":7898,"성전":7899,"##ale":7900,"SNS":7901,"출루":7902,"사라져":7903,"카츠":7904,"프리미엄":7905,"지칭":7906,"타쿠":7907,"그날":7908,"끝난다":7909,"즈음":7910,"골키":7911,"변수":7912,"개발자":7913,"PV":7914,"##에이":7915,"킬러":7916,"##메이":7917,"스트리트":7918,"틴":7919,"주류":7920,"챈":7921,"##ike":7922,"륜":7923,"대치":7924,"모데":7925,"독일군":7926,"개별":7927,"해치":7928,"페이스북":7929,"후자":7930,"밝힌":7931,"##하시":7932,"무산":7933,"특별히":7934,"더군다나":7935,"여러분":7936,"영원히":7937,"임팩트":7938,"저러":7939,"사키":7940,"##밋":7941,"전망":7942,"장사":7943,"자르":7944,"초인":7945,"새겨":7946,"1945":7947,"입주":7948,"어딘가":7949,"물체":7950,"Cl":7951,"챌린지":7952,"집권":7953,"벙":7954,"업계":7955,"바디":7956,"농업":7957,"모로":7958,"For":7959,"무시무시":7960,"##틀랜드":7961,"군수":7962,"부착":7963,"원조":7964,"흰색":7965,"데이비드":7966,"동남":7967,"##야수":7968,"암살자":7969,"첼시":7970,"매번":7971,"주어":7972,"RPG":7973,"나미":7974,"왜냐":7975,"청주":7976,"만주":7977,"##OU":7978,"중복":7979,"브라운":7980,"##자와":7981,"Dr":7982,"커지":7983,"질병":7984,"손실":7985,"쏜":7986,"오이":7987,"야마토":7988,"데모":7989,"최적":7990,"악몽":7991,"##바닥":7992,"서서히":7993,"필리핀":7994,"##ep":7995,"선조":7996,"취득":7997,"##irl":7998,"벌였":7999,"##man":8000,"피트":8001,"폭행":8002,"핑크":8003,"동아리":8004,"##ach":8005,"##ile":8006,"175":8007,"동경":8008,"수비력":8009,"넨":8010,"리프":8011,"1981":8012,"Sc":8013,"인방":8014,"BB":8015,"바뀐다":8016,"여인":8017,"##여객":8018,"호랑이":8019,"골키퍼":8020,"OP":8021,"##블ᄅ":8022,"해양":8023,"부동":8024,"올스타":8025,"서클":8026,"구별":8027,"102":8028,"어이":8029,"##공항":8030,"잠입":8031,"줄어든":8032,"헤르":8033,"117":8034,"지팡이":8035,"꿰":8036,"##로그":8037,"고장":8038,"몰리":8039,"진격":8040,"인피":8041,"가진다":8042,"퍼지":8043,"파생":8044,"끊임":8045,"향한":8046,"##12":8047,"##슬라":8048,"Team":8049,"106":8050,"닐":8051,"배역":8052,"라우":8053,"못지":8054,"잎":8055,"교토":8056,"룩":8057,"##VA":8058,"LA":8059,"해킹":8060,"물량":8061,"##철도":8062,"##ink":8063,"플러스":8064,"Sk":8065,"선임":8066,"일으킨":8067,"일람":8068,"파울":8069,"제독":8070,"리라":8071,"아닌데":8072,"퍼포":8073,"의외로":8074,"사회주의":8075,"굵":8076,"Mo":8077,"내려오":8078,"체인지":8079,"퍼포먼스":8080,"페널티":8081,"##뇨":8082,"신나":8083,"직장":8084,"GP":8085,"합계":8086,"권위":8087,"중장":8088,"가만히":8089,"국당":8090,"기호":8091,"잡아내":8092,"레코드":8093,"공수":8094,"청와":8095,"DD":8096,"##데드":8097,"웰":8098,"마물":8099,"무술":8100,"115":8101,"쌀":8102,"##아키":8103,"응용":8104,"김경":8105,"세팅":8106,"사립":8107,"캐릭":8108,"데이트":8109,"코난":8110,"가져오":8111,"팡":8112,"원형":8113,"제네":8114,"이웃":8115,"평점":8116,"이종":8117,"약물":8118,"메이커":8119,"가디언":8120,"기동전":8121,"주행":8122,"귀국":8123,"언데드":8124,"신입":8125,"최우":8126,"##블로":8127,"연산":8128,"스펠":8129,"##ial":8130,"FM":8131,"##승부":8132,"풋":8133,"청와대":8134,"톨":8135,"캄":8136,"밀도":8137,"투쟁":8138,"개장":8139,"##토스":8140,"##킥":8141,"##ish":8142,"나빠":8143,"엘리자":8144,"##아이":8145,"장로":8146,"국어":8147,"틀리":8148,"당대":8149,"에릭":8150,"SU":8151,"파란색":8152,"1979":8153,"건가":8154,"서기":8155,"나비":8156,"후임":8157,"여전":8158,"풀려":8159,"에디":8160,"긴급":8161,"집합":8162,"UN":8163,"이와":8164,"만만":8165,"냐면":8166,"배달":8167,"엔드":8168,"카트":8169,"커서":8170,"징역":8171,"챔피언십":8172,"억지로":8173,"스파이더":8174,"프로토":8175,"포즈":8176,"오스만":8177,"선사":8178,"동해":8179,"테츠":8180,"합리":8181,"친한":8182,"쇼핑":8183,"개신교":8184,"분포":8185,"권장":8186,"오우":8187,"장신":8188,"김상":8189,"기장":8190,"행방":8191,"추방":8192,"##ower":8193,"택시":8194,"저하":8195,"천연":8196,"##뜨려":8197,"공백":8198,"회색":8199,"감동":8200,"##네시아":8201,"안양":8202,"전무":8203,"해산":8204,"발리":8205,"은지":8206,"일화":8207,"며칠":8208,"궁금":8209,"프리미어":8210,"연구원":8211,"독점":8212,"증폭":8213,"신자":8214,"수동":8215,"##플리":8216,"##슴":8217,"즉사":8218,"모스크":8219,"확산":8220,"##II":8221,"명의":8222,"관여":8223,"야간":8224,"주관":8225,"Bla":8226,"면허":8227,"교단":8228,"여학생":8229,"다닌다":8230,"공인":8231,"방치":8232,"스캔":8233,"재회":8234,"선보이":8235,"바꾼":8236,"임의":8237,"모집":8238,"폐기":8239,"듀오":8240,"##하르트":8241,"빌딩":8242,"유미":8243,"##오루":8244,"##앉":8245,"대단히":8246,"조상":8247,"혼돈":8248,"이글":8249,"라이너":8250,"만일":8251,"명백":8252,"김진":8253,"고인":8254,"##GE":8255,"저지르":8256,"전남":8257,"썬더":8258,"몫":8259,"##운동":8260,"맡기":8261,"프레이":8262,"코멘트":8263,"감상":8264,"아레나":8265,"캘리":8266,"바둑":8267,"성경":8268,"렌즈":8269,"버섯":8270,"사무소":8271,"CH":8272,"매출":8273,"도마":8274,"##늦":8275,"분당":8276,"we":8277,"캐치":8278,"고블린":8279,"##ᅳᆯ란":8280,"자비":8281,"피닉스":8282,"##벌레":8283,"스즈":8284,"발목":8285,"토시":8286,"돌연":8287,"BS":8288,"##IM":8289,"출간":8290,"조명":8291,"타이거즈":8292,"처참":8293,"Ne":8294,"##!!":8295,"##비치":8296,"불량":8297,"Star":8298,"벨트":8299,"오메":8300,"장미":8301,"광산":8302,"올라갔":8303,"깜짝":8304,"광선":8305,"박지":8306,"로빈":8307,"승무원":8308,"드릴":8309,"김기":8310,"##듯":8311,"리코":8312,"눈치채":8313,"거친":8314,"펴":8315,"이어졌":8316,"전라남도":8317,"달라지":8318,"구성원":8319,"드루":8320,"포켓몬스터":8321,"비웃":8322,"시트":8323,"상관없이":8324,"놀리":8325,"가까워":8326,"복원":8327,"처지":8328,"PR":8329,"해머":8330,"우월":8331,"고소":8332,"실장":8333,"ID":8334,"우주선":8335,"고로":8336,"##벳":8337,"막히":8338,"질투":8339,"히가시":8340,"목사":8341,"쿠라":8342,"스타디":8343,"되게":8344,"통틀":8345,"하인":8346,"평일":8347,"계수":8348,"##히코":8349,"간호":8350,"지연":8351,"난사":8352,"와카":8353,"##번에":8354,"배급":8355,"##쿠라":8356,"Wind":8357,"##를로":8358,"미국인":8359,"버드":8360,"수색":8361,"화산":8362,"바꿀":8363,"350":8364,"라이온즈":8365,"닝":8366,"유출":8367,"협정":8368,"##99":8369,"유언":8370,"##벅":8371,"세리":8372,"파이트":8373,"수립":8374,"탐정":8375,"터져":8376,"엄격":8377,"시외":8378,"조롱":8379,"up":8380,"##그ᄅ":8381,"##라기":8382,"풍부":8383,"무스":8384,"##전자":8385,"붐":8386,"스탠드":8387,"자꾸":8388,"운수":8389,"우유":8390,"줄여":8391,"서포트":8392,"LP":8393,"재학":8394,"파멸":8395,"심의":8396,"DC":8397,"골렘":8398,"한두":8399,"우익":8400,"##카락":8401,"국무":8402,"산맥":8403,"War":8404,"머리카락":8405,"fe":8406,"체감":8407,"And":8408,"정발":8409,"펼쳤":8410,"스텝":8411,"시바":8412,"의자":8413,"호시":8414,"검술":8415,"온천":8416,"##체스터":8417,"도저히":8418,"##ass":8419,"미루":8420,"텟":8421,"당사자":8422,"청구":8423,"치열":8424,"베ᄅ":8425,"나기":8426,"모험가":8427,"말ᄊ":8428,"합동":8429,"##브라":8430,"육상":8431,"토미":8432,"##타카":8433,"알라":8434,"포장":8435,"치즈":8436,"국제공항":8437,"뒤늦":8438,"사이코":8439,"##ms":8440,"반부":8441,"##me":8442,"키타":8443,"젤리":8444,"시사":8445,"올라간다":8446,"360":8447,"Man":8448,"레일":8449,"소용":8450,"실내":8451,"이라크":8452,"오로지":8453,"오니":8454,"다운로드":8455,"본토":8456,"진이":8457,"112":8458,"마코토":8459,"축소":8460,"기력":8461,"권유":8462,"특급":8463,"조용히":8464,"극도":8465,"에픽":8466,"규제":8467,"디즈니":8468,"승진":8469,"##펠":8470,"배수":8471,"키워":8472,"메이플":8473,"##gh":8474,"시비":8475,"따뜻":8476,"둘러싸":8477,"트릭":8478,"우치":8479,"##CG":8480,"세라":8481,"낙하":8482,"비명":8483,"루머":8484,"담긴":8485,"##가드":8486,"108":8487,"루크":8488,"##뮬":8489,"러시":8490,"##도리":8491,"All":8492,"세일":8493,"려다":8494,"AKB":8495,"나노":8496,"티아":8497,"거둔":8498,"극한":8499,"##tle":8500,"하계":8501,"니아":8502,"##pp":8503,"##ble":8504,"##amp":8505,"충청남도":8506,"반감":8507,"범죄자":8508,"바르셀":8509,"지인":8510,"루피":8511,"오락":8512,"출범":8513,"바르셀로나":8514,"##이나":8515,"바른":8516,"스테이":8517,"비유":8518,"간지":8519,"우즈":8520,"뮌":8521,"##ft":8522,"지목":8523,"여섯":8524,"수직":8525,"친해":8526,"베이징":8527,"페리":8528,"안쪽":8529,"토큰":8530,"##농":8531,"중지":8532,"단종":8533,"이걸로":8534,"##궐":8535,"일요일":8536,"103":8537,"프렌":8538,"수월":8539,"스러워":8540,"경북":8541,"세금":8542,"탐지":8543,"폭파":8544,"황후":8545,"##거지":8546,"능력자":8547,"넬":8548,"전당":8549,"협의":8550,"바니":8551,"리즈":8552,"어시스트":8553,"##yle":8554,"스타디움":8555,"서머":8556,"##70":8557,"그래서인지":8558,"실은":8559,"이글스":8560,"여파":8561,"신데":8562,"##ous":8563,"중순":8564,"물품":8565,"직선":8566,"메일":8567,"망했":8568,"미르":8569,"실현":8570,"배제":8571,"조우":8572,"모임":8573,"##졸":8574,"##사이":8575,"##now":8576,"베테":8577,"##atch":8578,"##sp":8579,"신학":8580,"막아내":8581,"리버풀":8582,"카구":8583,"불행":8584,"살펴보":8585,"분산":8586,"##튀":8587,"돌아갔":8588,"당당":8589,"조커":8590,"One":8591,"타르":8592,"다스":8593,"Mar":8594,"아가씨":8595,"모듈":8596,"##orm":8597,"귀엽":8598,"수염":8599,"미미":8600,"생전":8601,"손자":8602,"김해":8603,"평론":8604,"얻어맞":8605,"캐시":8606,"토키":8607,"유의":8608,"신용":8609,"New":8610,"To":8611,"##뚜":8612,"ON":8613,"명문":8614,"퍼부":8615,"엑시":8616,"모음":8617,"나섰":8618,"거북":8619,"타일":8620,"주어지":8621,"기묘":8622,"드론":8623,"추세":8624,"바론":8625,"여고":8626,"무승부":8627,"떠오르":8628,"ex":8629,"체중":8630,"막상":8631,"저지른":8632,"낙선":8633,"##스티벌":8634,"##ᅳ릿":8635,"나루토":8636,"나요":8637,"진상":8638,"사리":8639,"페스티벌":8640,"##버그":8641,"챙기":8642,"그만두":8643,"알바":8644,"수비수":8645,"IN":8646,"경악":8647,"토요일":8648,"던가":8649,"BR":8650,"맥주":8651,"하프":8652,"##민주":8653,"천문":8654,"##구나":8655,"까이":8656,"Part":8657,"스미스":8658,"수습":8659,"엽":8660,"태풍":8661,"뤼":8662,"가난":8663,"더빙":8664,"채보":8665,"KR":8666,"지녔":8667,"기수":8668,"가질":8669,"마카":8670,"연봉":8671,"함락":8672,"김용":8673,"Gam":8674,"할로":8675,"##쿨":8676,"강등":8677,"칭하":8678,"쳐서":8679,"##렐라":8680,"앗":8681,"비극":8682,"센서":8683,"강사":8684,"시로":8685,"되살":8686,"SF":8687,"주최":8688,"후회":8689,"패전":8690,"부ᄉ":8691,"힙합":8692,"홋":8693,"##ING":8694,"대성":8695,"극히":8696,"집어넣":8697,"잠실":8698,"산탄":8699,"고속도로":8700,"CS":8701,"좌절":8702,"적자":8703,"엄밀":8704,"국판":8705,"듀스":8706,"##뒀":8707,"명목":8708,"시달리":8709,"배려":8710,"동반":8711,"팁":8712,"##쉽":8713,"엎":8714,"끓":8715,"훼손":8716,"스핀":8717,"꽉":8718,"햇":8719,"인접":8720,"유망":8721,"대시":8722,"노가":8723,"실시간":8724,"개척":8725,"코마":8726,"##ment":8727,"철권":8728,"리가":8729,"기부":8730,"PP":8731,"##방송":8732,"에로":8733,"에반":8734,"사무실":8735,"##ae":8736,"흔들리":8737,"바스":8738,"반짝":8739,"케이블":8740,"야쿠":8741,"주체":8742,"늙":8743,"##64":8744,"하여":8745,"머무":8746,"##더라":8747,"128":8748,"뻥":8749,"원시":8750,"스티븐":8751,"압력":8752,"상반":8753,"고증":8754,"모스":8755,"장탄수":8756,"꼬마":8757,"캣":8758,"젖":8759,"샤이":8760,"자아":8761,"스테이션":8762,"##불명":8763,"유재":8764,"혜택":8765,"투척":8766,"도장":8767,"##뜨린":8768,"신속":8769,"포탄":8770,"닉네임":8771,"늘려":8772,"##클ᄅ":8773,"인자":8774,"##ase":8775,"혈액":8776,"호남":8777,"중화민국":8778,"##사기":8779,"배드":8780,"코믹":8781,"우드":8782,"농장":8783,"십시오":8784,"마땅":8785,"##잎":8786,"아이러":8787,"각지":8788,"##ree":8789,"장성":8790,"쉬워":8791,"이타":8792,"쳐들":8793,"사나":8794,"재개":8795,"바지":8796,"조카":8797,"고치":8798,"역습":8799,"추리":8800,"주교":8801,"걸즈":8802,"구르":8803,"매달":8804,"음료":8805,"유니크":8806,"휴가":8807,"벤치":8808,"히틀러":8809,"반도":8810,"##밭":8811,"암호":8812,"쇼크":8813,"내린":8814,"구조물":8815,"소니":8816,"버려서":8817,"고시":8818,"찾아보":8819,"에미":8820,"짙":8821,"도리":8822,"구장":8823,"날씨":8824,"샷건":8825,"##구장":8826,"변동":8827,"총장":8828,"En":8829,"캘리포":8830,"챔":8831,"##킷":8832,"네티":8833,"나르":8834,"확장팩":8835,"퍼즐":8836,"생길":8837,"쿤":8838,"##노리":8839,"##어트":8840,"제갈량":8841,"얽":8842,"그라운드":8843,"물러나":8844,"시상식":8845,"짐작":8846,"1978":8847,"이긴":8848,"##사리":8849,"질서":8850,"1973":8851,"오페":8852,"근원":8853,"믹스":8854,"레온":8855,"##들이":8856,"JT":8857,"함부로":8858,"##렐":8859,"##저리":8860,"느꼈":8861,"트로피":8862,"해병대":8863,"두들겨":8864,"어쩌면":8865,"184":8866,"사퇴":8867,"로맨":8868,"##우치":8869,"거론":8870,"들어와":8871,"오브젝트":8872,"##az":8873,"그치":8874,"##bo":8875,"아ᄐ":8876,"대행":8877,"캘리포니아":8878,"보라색":8879,"흔한":8880,"##혀서":8881,"찬성":8882,"라즈":8883,"첫째":8884,"##된":8885,"거든":8886,"갈색":8887,"짐승":8888,"AN":8889,"상사":8890,"가담":8891,"깊이":8892,"나뉜":8893,"각오":8894,"인재":8895,"##앞":8896,"여의":8897,"사로":8898,"World":8899,"##ason":8900,"뉘":8901,"양손":8902,"구동":8903,"##AY":8904,"111":8905,"##러그":8906,"갖춰":8907,"##딜":8908,"##케이션":8909,"그랑":8910,"샵":8911,"속한":8912,"쿠데":8913,"220":8914,"여럿":8915,"지워":8916,"비틀":8917,"##바르":8918,"안심":8919,"호불":8920,"##iki":8921,"호불호":8922,"퇴각":8923,"무용":8924,"백화점":8925,"껍":8926,"최저":8927,"##돌이":8928,"혁신":8929,"##베리":8930,"사야":8931,"공감":8932,"갚":8933,"183":8934,"크레이":8935,"강림":8936,"메트로":8937,"키보드":8938,"아ᄏ":8939,"정반":8940,"감싸":8941,"결제":8942,"지수":8943,"##키스탄":8944,"킷":8945,"베기":8946,"감수":8947,"가벼운":8948,"JP":8949,"##저기":8950,"오더":8951,"포스터":8952,"쫓겨":8953,"동서":8954,"프린세스":8955,"말기":8956,"트레이너":8957,"진급":8958,"마계":8959,"##이너":8960,"전날":8961,"계층":8962,"베어스":8963,"리미":8964,"고무":8965,"쏟아":8966,"네티즌":8967,"##테이":8968,"내게":8969,"원더":8970,"알렉스":8971,"시그":8972,"동아":8973,"가르치":8974,"##버리":8975,"##ear":8976,"So":8977,"중동":8978,"경호":8979,"빨간색":8980,"나스":8981,"대령":8982,"특별시":8983,"피로":8984,"동행":8985,"산타":8986,"흡사":8987,"##hen":8988,"후반기":8989,"하하":8990,"렐":8991,"##끗":8992,"장례":8993,"셔틀":8994,"노란색":8995,"여기저기":8996,"중부":8997,"장난감":8998,"마오":8999,"240":9000,"일어날":9001,"았었":9002,"사관":9003,"막강":9004,"타이탄":9005,"기리":9006,"리처":9007,"##MS":9008,"뜬금없이":9009,"신선":9010,"건네":9011,"접하":9012,"sp":9013,"수지":9014,"맞춘":9015,"퍼져":9016,"세뇌":9017,"##ᆯ릿":9018,"엔지":9019,"그거":9020,"핀란드":9021,"학생회":9022,"##키스":9023,"아베":9024,"##are":9025,"포획":9026,"드레스":9027,"견해":9028,"FW":9029,"무섭":9030,"베를린":9031,"##기에":9032,"탐색":9033,"드문":9034,"헬리":9035,"##릇":9036,"##스트라":9037,"요미":9038,"클린":9039,"인과":9040,"보좌":9041,"유혹":9042,"GO":9043,"매주":9044,"선수단":9045,"옴":9046,"##넌":9047,"먹히":9048,"양반":9049,"##붙이":9050,"교복":9051,"패밀리":9052,"유입":9053,"봉쇄":9054,"모은":9055,"국도":9056,"후미":9057,"페어":9058,"영감":9059,"우호":9060,"강렬":9061,"원곡":9062,"스코틀랜드":9063,"연쇄":9064,"뮌헨":9065,"상주":9066,"입자":9067,"##직자":9068,"케이드":9069,"선진":9070,"1974":9071,"##차기":9072,"워크":9073,"방송사":9074,"무공":9075,"문화재":9076,"마일":9077,"프랑스어":9078,"생체":9079,"재건":9080,"tv":9081,"클론":9082,"우측":9083,"박쥐":9084,"려다가":9085,"소재지":9086,"트라우마":9087,"##ᆺ불":9088,"##줘":9089,"줌":9090,"도어":9091,"해져":9092,"역명":9093,"점유":9094,"운송":9095,"토대":9096,"즐겨":9097,"콤비":9098,"방탄":9099,"무실":9100,"경찰서":9101,"아이러니":9102,"드로우":9103,"위로":9104,"왕실":9105,"결계":9106,"김준":9107,"와인":9108,"서바이":9109,"잭슨":9110,"흙":9111,"약자":9112,"신중":9113,"공격수":9114,"결혼식":9115,"세로":9116,"데려가":9117,"http":9118,"수여":9119,"##하나":9120,"침대":9121,"지부":9122,"1972":9123,"연금술":9124,"마라":9125,"복사":9126,"##90":9127,"##ven":9128,"끼치":9129,"래퍼":9130,"트윈스":9131,"##ife":9132,"굽":9133,"커스ᄐ":9134,"포터":9135,"쇄":9136,"관료":9137,"화폐":9138,"도덕":9139,"제물":9140,"전락":9141,"비스트":9142,"집회":9143,"기스":9144,"통칭":9145,"찾아오":9146,"바나":9147,"https":9148,"##싸움":9149,"윈드":9150,"##스톤":9151,"로이드":9152,"완공":9153,"튼튼":9154,"트랩":9155,"첸":9156,"##ade":9157,"허무":9158,"장판":9159,"프라임":9160,"순양함":9161,"리안":9162,"##으로":9163,"##AP":9164,"다가오":9165,"Wi":9166,"취업":9167,"##베이터":9168,"프론":9169,"역량":9170,"디시":9171,"스즈키":9172,"선장":9173,"탭":9174,"소금":9175,"콘솔":9176,"폭스":9177,"코스ᄐ":9178,"탐사":9179,"##박스":9180,"라마":9181,"세자":9182,"덴마크":9183,"영양":9184,"출혈":9185,"될지":9186,"##렉션":9187,"강경":9188,"디오":9189,"흔하":9190,"##와라":9191,"우회":9192,"##던지":9193,"쓸데":9194,"빈도":9195,"##act":9196,"도감":9197,"MB":9198,"##웰":9199,"##데레":9200,"글씨":9201,"~!":9202,"##ai":9203,"대타":9204,"일곱":9205,"홀드":9206,"##ank":9207,"아바타":9208,"##깨비":9209,"##gin":9210,"도트":9211,"연설":9212,"할까":9213,"이순":9214,"억제":9215,"튕겨":9216,"여단":9217,"간섭":9218,"%/":9219,"관통력":9220,"해라":9221,"카리":9222,"아ᄁ":9223,"상무":9224,"공대":9225,"낭비":9226,"do":9227,"단행본":9228,"하스":9229,"졌으며":9230,"##aby":9231,"루프":9232,"히든":9233,"부작용":9234,"노무":9235,"메이지":9236,"오노":9237,"모형":9238,"창문":9239,"104":9240,"영화제":9241,"청나라":9242,"승차":9243,"##out":9244,"전동차":9245,"##으므로":9246,"인도네시아":9247,"##ᅳ르":9248,"소통":9249,"법무":9250,"Fate":9251,"싼":9252,"no":9253,"트레일러":9254,"##흔":9255,"전격":9256,"침투":9257,"성씨":9258,"술사":9259,"비추":9260,"재직":9261,"태클":9262,"워크래프트":9263,"페미니":9264,"손꼽":9265,"푼":9266,"기다려":9267,"당초":9268,"매니아":9269,"한창":9270,"붓":9271,"다큐":9272,"돌아간다":9273,"1975":9274,"쿠데타":9275,"커스텀":9276,"라크":9277,"마피아":9278,"##lect":9279,"시카고":9280,"신데렐라":9281,"실상":9282,"타가":9283,"히로시":9284,"LIVE":9285,"간간히":9286,"부재":9287,"##톨":9288,"형편":9289,"백업":9290,"제재":9291,"파밍":9292,"띄우":9293,"123":9294,"설령":9295,"손오":9296,"출산":9297,"라가":9298,"성실":9299,"스탈":9300,"우루":9301,"깃발":9302,"##트리스":9303,"끊임없이":9304,"##ET":9305,"범용":9306,"##에른":9307,"##우트":9308,"##토니":9309,"공산주의":9310,"장애물":9311,"까마":9312,"스나이":9313,"경연":9314,"강간":9315,"김일":9316,"할리":9317,"스트라이커":9318,"##oll":9319,"NH":9320,"우승자":9321,"벨기에":9322,"끌어들":9323,"##스레":9324,"전향":9325,"소득":9326,"고쳐":9327,"##폴레":9328,"시호":9329,"스타리그":9330,"검증":9331,"조종사":9332,"##UM":9333,"##스틴":9334,"##모스":9335,"토요":9336,"중점":9337,"Up":9338,"품질":9339,"이른바":9340,"왕비":9341,"OS":9342,"노르웨이":9343,"여타":9344,"카자":9345,"1976":9346,"라스트":9347,"##다보":9348,"are":9349,"근접전":9350,"소나":9351,"말레이":9352,"나나":9353,"변이":9354,"치ᄅ":9355,"항해":9356,"외곽":9357,"III":9358,"##ork":9359,"렉스":9360,"##추어":9361,"##천군":9362,"크라이":9363,"스피릿":9364,"##륨":9365,"굴러":9366,"파도":9367,"성분":9368,"강릉":9369,"최선":9370,"원주민":9371,"일리":9372,"정석":9373,"마산":9374,"사악":9375,"##버려":9376,"사사":9377,"을수록":9378,"대접":9379,"혈통":9380,"섀도우":9381,"모니터":9382,"그러므로":9383,"##렷":9384,"발명":9385,"판사":9386,"이어진":9387,"유료":9388,"##바야":9389,"Do":9390,"단기":9391,"##ary":9392,"이어받":9393,"하급":9394,"구상":9395,"차리":9396,"특공":9397,"선박":9398,"리모":9399,"카더라":9400,"맞붙":9401,"Oh":9402,"제왕":9403,"공통점":9404,"왜냐하면":9405,"검열":9406,"광물":9407,"##way":9408,"하반":9409,"티스":9410,"전생":9411,"찾아내":9412,"왼손":9413,"포도":9414,"스텔":9415,"치러":9416,"넘어갔":9417,"##루션":9418,"동전":9419,"입문":9420,"119":9421,"브라이언":9422,"키라":9423,"유연":9424,"##바지":9425,"트리거":9426,"친하":9427,"천천":9428,"중상":9429,"해질":9430,"쓰인":9431,"명분":9432,"탄핵":9433,"##ey":9434,"마틴":9435,"##ich":9436,"명사":9437,"공헌":9438,"변해":9439,"고종":9440,"화해":9441,"장남":9442,"전송":9443,"원장":9444,"사로잡":9445,"##께끼":9446,"135":9447,"수수께끼":9448,"급행":9449,"소모량":9450,"중심지":9451,"단검":9452,"109":9453,"##슈타인":9454,"##모함":9455,"초콜릿":9456,"##어내":9457,"중고":9458,"김수":9459,"원한":9460,"박정희":9461,"미지":9462,"바이에른":9463,"초상":9464,"우울":9465,"코스튬":9466,"중기":9467,"지선":9468,"##저우":9469,"오지":9470,"##타입":9471,"ES":9472,"중위":9473,"트롤":9474,"확신":9475,"##콜":9476,"대변":9477,"##플링":9478,"Mk":9479,"공단":9480,"입증":9481,"베테랑":9482,"한나라":9483,"일체":9484,"모스크바":9485,"잔인":9486,"날뛰":9487,"##능력":9488,"한나라당":9489,"##키리":9490,"관우":9491,"치우":9492,"벅":9493,"이스트":9494,"엘리베이터":9495,"검토":9496,"오페라":9497,"시모":9498,"저자":9499,"너머":9500,"수인":9501,"시게":9502,"Ad":9503,"잉여":9504,"예약":9505,"시온":9506,"친다":9507,"단발":9508,"조국":9509,"부패":9510,"질주":9511,"친절":9512,"찾아볼":9513,"불태":9514,"손오공":9515,"대법":9516,"아이디어":9517,"lv":9518,"땅볼":9519,"부유":9520,"##샷":9521,"대동":9522,"겹쳐":9523,"처하":9524,"긁":9525,"##벤처":9526,"바치":9527,"교리":9528,"all":9529,"##동자":9530,"Day":9531,"어드벤처":9532,"##페이":9533,"진단":9534,"떠난다":9535,"강호":9536,"발판":9537,"보스턴":9538,"아스카":9539,"성배":9540,"##헬":9541,"터스":9542,"유망주":9543,"천황":9544,"찾아온":9545,"케빈":9546,"콘스탄":9547,"AFC":9548,"시외버스":9549,"곡인":9550,"느낀":9551,"이어진다":9552,"스태프":9553,"도쿠":9554,"부속":9555,"퀵":9556,"##뜨렸":9557,"이병":9558,"스트로":9559,"에버":9560,"천천히":9561,"nd":9562,"체코":9563,"버스트":9564,"렘":9565,"정해진":9566,"압축":9567,"##하루":9568,"충족":9569,"학사":9570,"##pt":9571,"고는":9572,"182":9573,"##orn":9574,"##크림":9575,"과자":9576,"카카오":9577,"이현":9578,"메리트":9579,"니혼":9580,"니콜라":9581,"##툼":9582,"카시":9583,"굴욕":9584,"구독":9585,"준다는":9586,"무제":9587,"드러난다":9588,"도깨비":9589,"그릇":9590,"##ᅦ이머":9591,"프로게이머":9592,"##올리":9593,"분할":9594,"올드":9595,"동정":9596,"손님":9597,"오메가":9598,"붙인":9599,"강전":9600,"화상":9601,"##둬":9602,"군부":9603,"자제":9604,"연수":9605,"나폴레":9606,"루마":9607,"토마스":9608,"친분":9609,"플랜":9610,"어색":9611,"후일":9612,"대박":9613,"라이언":9614,"지붕":9615,"되돌아":9616,"히스":9617,"위엄":9618,"민중":9619,"아지":9620,"싱가":9621,"싱가포르":9622,"항공모함":9623,"디자이너":9624,"평등":9625,"닦":9626,"마트":9627,"쯔":9628,"##가루":9629,"121":9630,"존스":9631,"홋카이도":9632,"치카":9633,"미궁":9634,"레이디":9635,"나폴레옹":9636,"마운":9637,"지력":9638,"##ᅳ레일리아":9639,"고고":9640,"얼라":9641,"삼성전자":9642,"라그나":9643,"따왔":9644,"1971":9645,"땡":9646,"일관":9647,"발레":9648,"##어져":9649,"##본다":9650,"머니":9651,"Windows":9652,"##첼":9653,"##의자":9654,"으려는":9655,"##네마":9656,"쫒":9657,"왕복":9658,"얇":9659,"레이블":9660,"박살내":9661,"와이번":9662,"FF":9663,"##톡":9664,"동구":9665,"이럴":9666,"테이블":9667,"폭격기":9668,"스택":9669,"에이지":9670,"이어져":9671,"145":9672,"물어":9673,"사촌":9674,"극대":9675,"107":9676,"아님":9677,"맹세":9678,"디펜":9679,"속해":9680,"망명":9681,"톡":9682,"=\"":9683,"이모":9684,"이경":9685,"현금":9686,"RA":9687,"열정":9688,"가져다":9689,"꼽히":9690,"잡아":9691,"이틀":9692,"찰스":9693,"엑시즈":9694,"광기":9695,"합작":9696,"1977":9697,"진에":9698,"점검":9699,"강점기":9700,"지오":9701,"대전차":9702,"##ah":9703,"김포":9704,"기르":9705,"엔트리":9706,"##EM":9707,"비리":9708,"일가":9709,"하이라이트":9710,"카리스":9711,"여포":9712,"질량":9713,"유탄":9714,"키를":9715,"창립":9716,"DP":9717,"다가가":9718,"변태":9719,"종결":9720,"썸":9721,"##사스":9722,"원숭이":9723,"후드":9724,"촉수":9725,"##니시":9726,"하사":9727,"기차":9728,"작위":9729,"무거운":9730,"마타":9731,"ML":9732,"아아":9733,"고집":9734,"사체":9735,"AA":9736,"엘레":9737,"퍼스트":9738,"묘하":9739,"##very":9740,"##ᅳ롤":9741,"신동":9742,"두려워":9743,"자율":9744,"리퍼":9745,"##uck":9746,"마술사":9747,"보고서":9748,"##클레":9749,"재배":9750,"존중":9751,"조화":9752,"츠카":9753,"본질":9754,"그레이트":9755,"독일어":9756,"표절":9757,"##막지":9758,"사족":9759,"무지막지":9760,"챔프":9761,"총합":9762,"오렌":9763,"원전":9764,"멈춰":9765,"ne":9766,"천장":9767,"선교":9768,"IT":9769,"공신":9770,"평행":9771,"날아오":9772,"엔지니어":9773,"본다면":9774,"나뉜다":9775,"보르":9776,"스런":9777,"br":9778,"석유":9779,"구로":9780,"그쳤":9781,"쳐들어":9782,"중거리":9783,"자존":9784,"감탄":9785,"브라더스":9786,"임진":9787,"자네":9788,"놓여":9789,"전라북도":9790,"피카":9791,"##ph":9792,"Sw":9793,"부숴":9794,"DPS":9795,"젬":9796,"자책점":9797,"BPM":9798,"게이머":9799,"바이올":9800,"JTBC":9801,"소집":9802,"정사":9803,"지분":9804,"농민":9805,"물자":9806,"란스":9807,"210":9808,"스포일러":9809,"메카닉":9810,"카마":9811,"봉사":9812,"노무현":9813,"연간":9814,"해소":9815,"178":9816,"인칭":9817,"##ero":9818,"몸통":9819,"울리":9820,"스가":9821,"저기":9822,"1969":9823,"움직일":9824,"과일":9825,"##자치":9826,"113":9827,"손쉽":9828,"유가":9829,"이대로":9830,"이이":9831,"스티브":9832,"털리":9833,"관장":9834,"리처드":9835,"\".":9836,"대위":9837,"유격수":9838,"쿠스":9839,"교과서":9840,"굴리":9841,"무실점":9842,"착한":9843,"리틀":9844,"교차로":9845,"##ool":9846,"타구":9847,"사수":9848,"서적":9849,"동속":9850,"검정":9851,"레이어":9852,"노가다":9853,"165":9854,"##바나":9855,"오스트레일리아":9856,"광명":9857,"브레이커":9858,"마유":9859,"으라고":9860,"어나":9861,"아닐까":9862,"##둘러":9863,"김지":9864,"1968":9865,"하치":9866,"맨체스터":9867,"동대":9868,"솟":9869,"댐":9870,"##루미":9871,"1963":9872,"냉정":9873,"이오":9874,"데빌":9875,"주식회사":9876,"철저히":9877,"##ical":9878,"총독":9879,"뜬다":9880,"토트":9881,"쨩":9882,"놀라운":9883,"건데":9884,"불쌍":9885,"##그러":9886,"빙판":9887,"명시":9888,"아픈":9889,"출판사":9890,"시골":9891,"NBA":9892,"부원":9893,"프랜":9894,"러스":9895,"힘입":9896,"입사":9897,"필름":9898,"슌":9899,"주축":9900,"장타":9901,"##urn":9902,"부산광역시":9903,"가구":9904,"뜨거운":9905,"착륙":9906,"##퍼드":9907,"겜":9908,"백만":9909,"##ype":9910,"다니엘":9911,"Ph":9912,"병역":9913,"블리자드":9914,"탄압":9915,"실체":9916,"슬픔":9917,"##ARD":9918,"부천":9919,"Con":9920,"2021":9921,"말씀":9922,"에드워드":9923,"윤리":9924,"모순":9925,"##구미":9926,"배웠":9927,"##anc":9928,"주사위":9929,"호의":9930,"##센스":9931,"스노우":9932,"매각":9933,"##ᆺ속":9934,"고아":9935,"광경":9936,"마당":9937,"제니":9938,"지장":9939,"깨끗":9940,"유치원":9941,"터보":9942,"미오":9943,"알아내":9944,"매드":9945,"섹":9946,"불능":9947,"마인드":9948,"스폰서":9949,"페스":9950,"훔쳐":9951,"목걸이":9952,"지로":9953,"{{{#":9954,"어벤":9955,"부스트":9956,"##은색":9957,"김유":9958,"155":9959,"서열":9960,"##프로":9961,"배운":9962,"완화":9963,"지혜":9964,"용산":9965,"올라갈":9966,"Cr":9967,"변장":9968,"##ung":9969,"참사":9970,"평론가":9971,"태우":9972,"엄연히":9973,"줄기":9974,"유니버스":9975,"뽑아내":9976,"이라도":9977,"카레":9978,"멍청":9979,"OVA":9980,"한다며":9981,"수천":9982,"김승":9983,"울트라맨":9984,"싸운":9985,"답답":9986,"##멧":9987,"명명":9988,"우타":9989,"바ᄈ":9990,"문양":9991,"하나하나":9992,"보편":9993,"변했":9994,"슬라이":9995,"개명":9996,"122":9997,"Qu":9998,"서류":9999,"트윗":10000,"상금":10001,"납득":10002,"미러":10003,"초청":10004,"워프":10005,"##항공":10006,"배구":10007,"모델링":10008,"씨앗":10009,"외국어":10010,"평상":10011,"시뮬":10012,"Station":10013,"181":10014,"레인지":10015,"##테일":10016,"프로그래":10017,"제리":10018,"다닐":10019,"##업자":10020,"압권":10021,"TVA":10022,"이노":10023,"뚜렷":10024,"롤러":10025,"치안":10026,"열혈":10027,"가설":10028,"144":10029,"중구":10030,"정문":10031,"들어올":10032,"난무":10033,"친척":10034,"진동":10035,"펠리":10036,"취재":10037,"##떨어":10038,"련":10039,"집계":10040,"디바":10041,"중원":10042,"박수":10043,"엘리자베스":10044,"##소년":10045,"본능":10046,"수위":10047,"##시피":10048,"LO":10049,"발키리":10050,"향후":10051,"##ww":10052,"고사":10053,"앓":10054,"절친":10055,"좌익":10056,"아닌지":10057,"KOF":10058,"재앙":10059,"철갑":10060,"마케팅":10061,"##네이":10062,"자산":10063,"서명":10064,"##ᆫ다":10065,"주석":10066,"리나":10067,"싫어하":10068,"헷갈":10069,"성명":10070,"깨지":10071,"오죽":10072,"우연":10073,"녹화":10074,"고등학생":10075,"##끼리":10076,"이케":10077,"##iver":10078,"도심":10079,"케이크":10080,"우린":10081,"카지":10082,"애칭":10083,"무늬":10084,"##잉":10085,"초능력":10086,"소생":10087,"작정":10088,"어나더":10089,"at":10090,"패자":10091,"행진":10092,"서방":10093,"브래":10094,"강민":10095,"##들리":10096,"쿵":10097,"국토":10098,"사연":10099,"사직":10100,"시조":10101,"##DD":10102,"잃어버린":10103,"신하":10104,"베인":10105,"곤충":10106,"일까":10107,"어이없":10108,"152":10109,"서울대":10110,"일렉":10111,"테스":10112,"잊혀":10113,"아리아":10114,"지낸":10115,"드래곤볼":10116,"유아":10117,"용암":10118,"골프":10119,"love":10120,"##쥬":10121,"결의":10122,"로프":10123,"괴로":10124,"아마추어":10125,"경부":10126,"실용":10127,"액체":10128,"학대":10129,"실사":10130,"##폭탄":10131,"이태":10132,"시어":10133,"##ens":10134,"경사":10135,"산소":10136,"국방부":10137,"정성":10138,"발발":10139,"호크":10140,"벌인":10141,"멋대로":10142,"쫄":10143,"이대":10144,"자사":10145,"쿠니":10146,"##리나":10147,"마그":10148,"표적":10149,"츠바":10150,"전지":10151,"as":10152,"즐거":10153,"워터":10154,"편리":10155,"슨":10156,"벙커":10157,"트릴":10158,"사우스":10159,"좌측":10160,"##밤":10161,"일어난다":10162,"유엔":10163,"안타깝":10164,"##ost":10165,"스카우트":10166,"민간인":10167,"도색":10168,"##이동":10169,"##르타":10170,"TR":10171,"##스리":10172,"자칭":10173,"##테이션":10174,"침몰":10175,"114":10176,"엄밀히":10177,"##ᆺ말":10178,"워즈":10179,"가리킨다":10180,"사투":10181,"주머니":10182,"이소":10183,"마음대로":10184,"스케일":10185,"##워즈":10186,"##ence":10187,"1930":10188,"##흉":10189,"우마":10190,"다케":10191,"라이즈":10192,"거지":10193,"wiki":10194,"몰살":10195,"예쁘":10196,"잠들":10197,"마하":10198,"##마리":10199,"끝날":10200,"박성":10201,"인성":10202,"만점":10203,"미성":10204,"IM":10205,"##nt":10206,"변명":10207,"의정부":10208,"직책":10209,"##마루":10210,"##넨":10211,"개교":10212,"초록색":10213,"망토":10214,"##변이":10215,"개구리":10216,"돌연변이":10217,"from":10218,"기질":10219,"초점":10220,"항모":10221,"##ise":10222,"루리":10223,"옥상":10224,"각도":10225,"코토":10226,"각인":10227,"샀":10228,"법사":10229,"웜":10230,"##int":10231,"리본":10232,"##시스코":10233,"##버렸":10234,"이진":10235,"버틸":10236,"변한":10237,"습니까":10238,"파운드":10239,"텍사스":10240,"##롤":10241,"이누":10242,"1920":10243,"##이크":10244,"원피스":10245,"맞춰서":10246,"템플":10247,"마모":10248,"모시":10249,"##뱅":10250,"아자":10251,"##폴리":10252,"스컬":10253,"포크":10254,"망하":10255,"179":10256,"방학":10257,"만능":10258,"이념":10259,"고의":10260,"정밀":10261,"!\"":10262,"##하여":10263,"아냐":10264,"발급":10265,"##AK":10266,"유스":10267,"통째":10268,"죄책":10269,"등극":10270,"학급":10271,"Super":10272,"이원":10273,"포탈":10274,"즐길":10275,"에디션":10276,"MG":10277,"Fr":10278,"격려":10279,"1940":10280,"이명박":10281,"BJ":10282,"can":10283,"##oy":10284,"로라":10285,"##지능":10286,"용자":10287,"인공지능":10288,"동성애":10289,"조항":10290,"아담":10291,"방심":10292,"##딴":10293,"포병":10294,"슈퍼맨":10295,"미인":10296,"혼인":10297,"이른다":10298,"정신력":10299,"제치":10300,"이빨":10301,"www":10302,"##ign":10303,"발탁":10304,"쳐도":10305,"적절히":10306,"##켈":10307,"CM":10308,"선동":10309,"오렌지":10310,"엉망":10311,"싸이":10312,"관직":10313,"종영":10314,"엮이":10315,"인벤":10316,"연전":10317,"##ans":10318,"협동":10319,"써도":10320,"바쿠":10321,"177":10322,"북아":10323,"익히":10324,"마찰":10325,"왓":10326,"안동":10327,"일커":10328,"돌아갈":10329,"일컫":10330,"기소":10331,"어설":10332,"대역":10333,"##타운":10334,"멧":10335,"제사":10336,"남동생":10337,"##부지":10338,"죄책감":10339,"소비자":10340,"##과이":10341,"튜버":10342,"끼워":10343,"에도":10344,"추후":10345,"달라진다":10346,"네이션":10347,"리사":10348,"호러":10349,"##ug":10350,"포착":10351,"최순":10352,"Dream":10353,"헬멧":10354,"펌프":10355,"풍선":10356,"##팽":10357,"정반대":10358,"갯":10359,"게르":10360,"다거나":10361,"##바이트":10362,"장벽":10363,"##바야시":10364,"아케이드":10365,"공속":10366,"감당":10367,"124":10368,"이윤":10369,"밝혀진다":10370,"은폐":10371,"##전차":10372,"블럭":10373,"##이치로":10374,"억울":10375,"1967":10376,"##야스":10377,"금강":10378,"선로":10379,"너스":10380,"어려울":10381,"저서":10382,"크래":10383,"닷":10384,"니다":10385,"##느리":10386,"##베트":10387,"유진":10388,"더럽":10389,"갱신":10390,"고가":10391,"원로":10392,"커스":10393,"버텨":10394,"반경":10395,"127":10396,"다시금":10397,"준다고":10398,"##글링":10399,"마에":10400,"USB":10401,"킴":10402,"해냈":10403,"그해":10404,"아무튼":10405,"오른손":10406,"교역":10407,"타츠":10408,"오다":10409,"협조":10410,"펭":10411,"페어리":10412,"나인":10413,"정점":10414,"씻":10415,"도약":10416,"용이":10417,"예의":10418,"##트론":10419,"##짱":10420,"아사히":10421,"부동산":10422,"아울":10423,"아쿠아":10424,"신곡":10425,"해운":10426,"시오":10427,"놨":10428,"this":10429,"##IR":10430,"인해서":10431,"내기":10432,"##뒤":10433,"유카":10434,"##나베":10435,"페르시아":10436,"1200":10437,"퍽":10438,"중국인":10439,"##코트":10440,"##vel":10441,"분홍":10442,"##셈":10443,"보낼":10444,"깐":10445,"쉴드":10446,"타치":10447,"450":10448,"잔혹":10449,"시타":10450,"실리":10451,"고발":10452,"카운티":10453,"부채":10454,"아이디":10455,"연동":10456,"다비":10457,"쿠마":10458,"왕족":10459,"두드러":10460,"기본기":10461,"피오":10462,"##철수":10463,"욕설":10464,"##ᆸ스":10465,"독립운동":10466,"##질랜드":10467,"보낸다":10468,"컴백":10469,"##지사":10470,"부시":10471,"ERA":10472,"##ode":10473,"군요":10474,"민감":10475,"뉴질랜드":10476,"출동":10477,"교도소":10478,"초과":10479,"필립":10480,"크래프트":10481,"아메리":10482,"누스":10483,"절벽":10484,"선원":10485,"카테":10486,"##uk":10487,"강했":10488,"##VER":10489,"버거":10490,"##젤레스":10491,"수신":10492,"지역구":10493,"떨어질":10494,"##빡":10495,"대차":10496,"비단":10497,"내보내":10498,"##쭉":10499,"호드":10500,"시크릿":10501,"네크로":10502,"가져온":10503,"수감":10504,"무도":10505,"후쿠오카":10506,"사방":10507,"어ᄊ":10508,"침착":10509,"갇혀":10510,"사무라이":10511,"Fl":10512,"발각":10513,"방침":10514,"스토어":10515,"뿌려":10516,"밭":10517,"Pl":10518,"감자":10519,"후유":10520,"회관":10521,"변한다":10522,"물리치":10523,"덩어리":10524,"부친":10525,"청춘":10526,"대세":10527,"팔라":10528,"툰":10529,"어려웠":10530,"물려받":10531,"마친":10532,"젼":10533,"보강":10534,"Ver":10535,"스로":10536,"밀어내":10537,"대피":10538,"바꿨":10539,"##나기":10540,"베스":10541,"##역사":10542,"연이":10543,"제의":10544,"CE":10545,"##생활":10546,"슬리":10547,"얹":10548,"칼라":10549,"그러면":10550,"섞여":10551,"자이":10552,"구형":10553,"급격히":10554,"저질렀":10555,"키미":10556,"스케이":10557,"게끔":10558,"EC":10559,"종전":10560,"철도역":10561,"진에어":10562,"부스":10563,"디스플레이":10564,"EXP":10565,"##텍":10566,"연소":10567,"카리스마":10568,"재즈":10569,"##공사":10570,"style":10571,"내외":10572,"함장":10573,"애완":10574,"놀랍":10575,"측근":10576,"쌓이":10577,"##민주당":10578,"발전소":10579,"떴":10580,"히카":10581,"방사능":10582,"말라":10583,"번지":10584,"날카로운":10585,"##헤이":10586,"그란":10587,"선포":10588,"로렌":10589,"꾀":10590,"스쿼":10591,"코스프레":10592,"코노":10593,"애인":10594,"가마":10595,"실존":10596,"겔":10597,"레나":10598,"유재석":10599,"##셨":10600,"##ier":10601,"마야":10602,"아랫":10603,"신한":10604,"궁합":10605,"가위":10606,"퇴치":10607,"미쳐":10608,"반성":10609,"토라":10610,"판도":10611,"강대":10612,"현자":10613,"카쿠":10614,"리바":10615,"격렬":10616,"기법":10617,"분자":10618,"워리어":10619,"산다":10620,"Sch":10621,"가오":10622,"예방":10623,"미아":10624,"잔류":10625,"##페이스":10626,"##나와":10627,"김구":10628,"Girl":10629,"당국":10630,"Season":10631,"사물":10632,"##뱃":10633,"인문":10634,"##틈":10635,"1962":10636,"##ash":10637,"징계":10638,"IP":10639,"오퍼":10640,"앞선":10641,"러쉬":10642,"박자":10643,"문신":10644,"##속기":10645,"왕가":10646,"부드러":10647,"ar":10648,"자이언트":10649,"근로":10650,"La":10651,"이놈":10652,"모빌":10653,"올린다":10654,"DM":10655,"##섰":10656,"시시":10657,"모욕":10658,"전담":10659,"화기":10660,"약혼":10661,"강타":10662,"NO":10663,"아름답":10664,"반역":10665,"##슐":10666,"162":10667,"이카":10668,"흡혈귀":10669,"##띠":10670,"유동":10671,"이단":10672,"정조":10673,"흑마":10674,"tr":10675,"사치":10676,"중견":10677,"118":10678,"흥분":10679,"왕후":10680,"종로":10681,"높여":10682,"친애":10683,"지루":10684,"올라와":10685,"화석":10686,"WC":10687,"시종":10688,"가져왔":10689,"점심":10690,"터졌":10691,"쿠바":10692,"퀴즈":10693,"##끄럽":10694,"고립":10695,"피자":10696,"제주도":10697,"그루":10698,"노아":10699,"기동력":10700,"카네":10701,"분배":10702,"##reat":10703,"1966":10704,"##IX":10705,"입힌다":10706,"아처":10707,"팔레":10708,"벨라":10709,"유우키":10710,"브론":10711,"타리":10712,"이용자":10713,"겐지":10714,"명나라":10715,"위쪽":10716,"부가":10717,"카피":10718,"레이싱":10719,"틀린":10720,"##꿈":10721,"단백":10722,"타이어":10723,"##렙":10724,"##ib":10725,"황당":10726,"만난다":10727,"##시고":10728,"박진":10729,"경성":10730,"계곡":10731,"실린":10732,"벌써":10733,"이행":10734,"부끄러":10735,"김치":10736,"314":10737,"달려가":10738,"##돌프":10739,"자존심":10740,"학술":10741,"달려들":10742,"##딸":10743,"##치아":10744,"##뱀":10745,"생김새":10746,"감추":10747,"제노":10748,"위해선":10749,"스나이퍼":10750,"건드리":10751,"던진":10752,"태생":10753,"탈환":10754,"##usic":10755,"월간":10756,"##끄":10757,"Max":10758,"##사랑":10759,"##보기":10760,"중소":10761,"피지컬":10762,"남동":10763,"##탐정":10764,"우두":10765,"관문":10766,"날렸":10767,"었었":10768,"일어":10769,"##우라":10770,"실적":10771,"로스트":10772,"한양":10773,"망설":10774,"750":10775,"입시":10776,"##방울":10777,"1964":10778,"바시":10779,"덧붙여":10780,"금요일":10781,"대검":10782,"뚱":10783,"골치":10784,"그간":10785,"홀리":10786,"안무":10787,"능가":10788,"적시타":10789,"불길":10790,"##수리":10791,"스프":10792,"Vol":10793,"TS":10794,"사와":10795,"뱅가드":10796,"숙소":10797,"라미":10798,"소서":10799,"유고":10800,"DNA":10801,"##트릭":10802,"여태":10803,"그쪽":10804,"정전":10805,"토트넘":10806,"잼":10807,"어째서인지":10808,"오케":10809,"내셔널":10810,"얼티":10811,"급속":10812,"스파이더맨":10813,"Ed":10814,"아오이":10815,"천상":10816,"##}}":10817,"##렉터":10818,"--":10819,"궁전":10820,"시범":10821,"중재":10822,"요격":10823,"##ose":10824,"ld":10825,"할로윈":10826,"통솔":10827,"노라":10828,"레아":10829,"모종":10830,"성사":10831,"대학생":10832,"코파":10833,"중도":10834,"나이프":10835,"사슬":10836,"헤라":10837,"탈취":10838,"스피어":10839,"진술":10840,"스타즈":10841,"##트럴":10842,"로키":10843,"AV":10844,"존슨":10845,"에메":10846,"까마귀":10847,"직위":10848,"한꺼":10849,"한꺼번에":10850,"##닛":10851,"##시대":10852,"소소":10853,"입원":10854,"호리":10855,"괴인":10856,"과시":10857,"나이츠":10858,"황태":10859,"도르":10860,"amp":10861,"욕망":10862,"계절":10863,"쓰리":10864,"##서스":10865,"불참":10866,"Col":10867,"비비":10868,"혼합":10869,"##부키":10870,"##te":10871,"야당":10872,"so":10873,"생태":10874,"넘쳐":10875,"기껏":10876,"피치":10877,"##미터":10878,"오만":10879,"시킵니다":10880,"학년도":10881,"항공사":10882,"GM":10883,"비자":10884,"저글링":10885,"점멸":10886,"HE":10887,"모인":10888,"질환":10889,"미정":10890,"##사르":10891,"극심":10892,"##ail":10893,"##msys":10894,"페르소":10895,"날린다":10896,"우지":10897,"##ition":10898,"ldmsys":10899,"원판":10900,"카를로":10901,"간판":10902,"케리":10903,"안겨":10904,"스탈린":10905,"천국":10906,"충청북도":10907,"스탭":10908,"히드라":10909,"터뜨리":10910,"이별":10911,"테르":10912,"도대":10913,"필사":10914,"과금":10915,"욱":10916,"마기":10917,"내린다":10918,"rd":10919,"보로":10920,"Night":10921,"각국":10922,"하지":10923,"##구니":10924,"욕심":10925,"BC":10926,"차장":10927,"아비":10928,"마르코":10929,"테리":10930,"얄":10931,"상냥":10932,"토우":10933,"나들":10934,"강인":10935,"not":10936,"조립":10937,"레버":10938,"시안":10939,"회로":10940,"##당초":10941,"모아서":10942,"앨런":10943,"태워":10944,"미녀":10945,"고추":10946,"나들목":10947,"스타트":10948,"리버스":10949,"##워프":10950,"##IL":10951,"군데":10952,"이사장":10953,"스모":10954,"김주":10955,"알렸":10956,"잡힌":10957,"뻘":10958,"아케":10959,"단자":10960,"스매":10961,"승패":10962,"지지율":10963,"##겔":10964,"요코하마":10965,"암컷":10966,"공국":10967,"##히토":10968,"얌":10969,"##ild":10970,"빠져나가":10971,"##랭":10972,"하여금":10973,"168":10974,"일일":10975,"##아치":10976,"김광":10977,"페르소나":10978,"오토바이":10979,"Let":10980,"수소":10981,"툭":10982,"##ᅣᆷ":10983,"조르":10984,"지크":10985,"물약":10986,"도미":10987,"제발":10988,"병행":10989,"##티노":10990,"희생자":10991,"디아블로":10992,"오사":10993,"실려":10994,"키요":10995,"학회":10996,"피난":10997,"단백질":10998,"탔":10999,"슬퍼":11000,"굶":11001,"상부":11002,"##깃":11003,"스크롤":11004,"난민":11005,"##ody":11006,"바텀":11007,"만렙":11008,"테니스":11009,"등재":11010,"목욕":11011,"사탕":11012,"빙결":11013,"Black":11014,"어원":11015,"펑크":11016,"159":11017,"##바리":11018,"한가":11019,"일환":11020,"여겼":11021,"코끼리":11022,"밀리언":11023,"갸":11024,"신작":11025,"무녀":11026,"스윙":11027,"이승만":11028,"##세지":11029,"미노":11030,"도배":11031,"퍼펙트":11032,"BD":11033,"평택":11034,"무신":11035,"##클린":11036,"말레이시아":11037,"껴":11038,"라인하르트":11039,"부처":11040,"예요":11041,"아마존":11042,"인쇄":11043,"리자":11044,"여주인":11045,"해변":11046,"##진호":11047,"옮겼":11048,"쓰러진":11049,"해역":11050,"오즈":11051,"파고":11052,"아리스":11053,"신생":11054,"##빗":11055,"팔리":11056,"화신":11057,"금발":11058,"무지개":11059,"환생":11060,"가이드":11061,"##브로":11062,"둥지":11063,"삿":11064,"마도카":11065,"터진":11066,"대니":11067,"두꺼":11068,"싸운다":11069,"직행":11070,"1948":11071,"배울":11072,"mar":11073,"##스카":11074,"##ough":11075,"깨어나":11076,"마쓰":11077,"응답":11078,"해전":11079,"발사기":11080,"아메리칸":11081,"국기":11082,"##렇":11083,"까다로운":11084,"진흥":11085,"맑":11086,"까다롭":11087,"AF":11088,"늪":11089,"뷔":11090,"MM":11091,"절단":11092,"엉덩이":11093,"1944":11094,"미소녀":11095,"세례":11096,"도대체":11097,"모의":11098,"무능":11099,"1965":11100,"성벽":11101,"OG":11102,"부제":11103,"히사":11104,"##33":11105,"##모습":11106,"명장":11107,"시켜야":11108,"쿠르":11109,"유머":11110,"중공":11111,"일조":11112,"로스앤":11113,"로스앤젤레스":11114,"퓨전":11115,"스텔스":11116,"섬멸":11117,"못해서":11118,"노부나가":11119,"충남":11120,"석사":11121,"방언":11122,"프랑크":11123,"회계":11124,"불상":11125,"스쿼드":11126,"노릇":11127,"아카네":11128,"##멘터리":11129,"주저":11130,"끝났":11131,"RE":11132,"섭취":11133,"울음":11134,"와이번스":11135,"수중":11136,"수아":11137,"모나":11138,"말려":11139,"때로":11140,"약체":11141,"필라":11142,"4000":11143,"눈앞":11144,"모았":11145,"Op":11146,"##gr":11147,"일명":11148,"들키":11149,"대국":11150,"조수":11151,"안토니":11152,"찔러":11153,"좌파":11154,"전임":11155,"##타리":11156,"빅토리아":11157,"지면":11158,"사임":11159,"카일":11160,"꿈꾸":11161,"고래":11162,"동상":11163,"집필":11164,"객관":11165,"출석":11166,"##aster":11167,"차가":11168,"접수":11169,"빌보드":11170,"공교":11171,"##무지":11172,"외야수":11173,"급하":11174,"##app":11175,"마을버스":11176,"그리스도":11177,"메디":11178,"##orts":11179,"끌려가":11180,"평상시":11181,"목포":11182,"확립":11183,"비평":11184,"인피니티":11185,"이나마":11186,"선회":11187,"피우":11188,"사이토":11189,"대안":11190,"##성군":11191,"그리핀":11192,"슬ᄅ":11193,"낮추":11194,"뾰":11195,"아유":11196,"대승":11197,"연세대":11198,"짠":11199,"유메":11200,"##uc":11201,"보살":11202,"쿄코":11203,"사르":11204,"베이비":11205,"사천":11206,"두루":11207,"교향":11208,"에코":11209,"드워프":11210,"애용":11211,"혼혈":11212,"1946":11213,"##고속도로":11214,"십자군":11215,"아수":11216,"신관":11217,"##은이":11218,"공동체":11219,"워드":11220,"성지":11221,"이계":11222,"주공":11223,"PK":11224,"다큐멘터리":11225,"##ᅩᆯ":11226,"주입":11227,"마르크":11228,"##시티":11229,"루미":11230,"해고":11231,"장본":11232,"알렉산더":11233,"무자":11234,"옐로":11235,"서울시":11236,"최상급":11237,"보우":11238,"컨디션":11239,"그려져":11240,"적힌":11241,"츤":11242,"그랑프리":11243,"코레":11244,"동북":11245,"위시":11246,"휴게":11247,"늘어난다":11248,"스카웃":11249,"김대중":11250,"##CE":11251,"이무":11252,"주파":11253,"챔스":11254,"스기":11255,"##ject":11256,"대면":11257,"en":11258,"편의점":11259,"스타워즈":11260,"껍질":11261,"평판":11262,"이니":11263,"교대":11264,"##OO":11265,"EXT":11266,"##ᆸ트":11267,"탄소":11268,"침해":11269,"..?":11270,"카토":11271,"블라디":11272,"득표율":11273,"가령":11274,"되돌리":11275,"아쉬움":11276,"##ari":11277,"단련":11278,"줄리":11279,"폭로":11280,"프랭크":11281,"math":11282,"낯":11283,"믿음":11284,"카게":11285,"자력":11286,"컴뱃":11287,"전도":11288,"방안":11289,"줍니다":11290,"면제":11291,"수컷":11292,"사지":11293,"퍼시":11294,"민폐":11295,"집사":11296,"le":11297,"휴대폰":11298,"AL":11299,"리리":11300,"흑막":11301,"진도":11302,"테이프":11303,"CR":11304,"독백":11305,"크롬":11306,"라비":11307,"히로시마":11308,"솔저":11309,"정서":11310,"팜":11311,"숙청":11312,"소마":11313,"달인":11314,"섬광":11315,"아르바이트":11316,"EZ":11317,"리프트":11318,"돌아올":11319,"두려움":11320,"막부":11321,"성대":11322,"##프란":11323,"리부":11324,"타우":11325,"##각형":11326,"와타나베":11327,"구호":11328,"달콤":11329,"밈":11330,"큐어":11331,"경제학":11332,"항성":11333,"원자력":11334,"##iel":11335,"감성":11336,"우미":11337,"사이클":11338,"공명":11339,"대해선":11340,"단서":11341,"##클리":11342,"강동":11343,"벗겨":11344,"지각":11345,"냉장":11346,"남학생":11347,"##퍼니":11348,"관광객":11349,"151":11350,"홈경기":11351,"##리얼":11352,"##미르":11353,"줄여서":11354,"찬양":11355,"하와":11356,"보복":11357,"격퇴":11358,"138":11359,"아름다":11360,"Gu":11361,"신념":11362,"스틱":11363,"로비":11364,"신조":11365,"SA":11366,"던지라":11367,"가해자":11368,"장본인":11369,"티저":11370,"늘어":11371,"광복":11372,"남양":11373,"개업":11374,"320":11375,"하도":11376,"172":11377,"##려고":11378,"기하":11379,"GSL":11380,"눈동자":11381,"은메달":11382,"##애나":11383,"타카하시":11384,"뺨":11385,"날아다니":11386,"정우":11387,"휴먼":11388,"벡터":11389,"수성":11390,"##오피스":11391,"틀어":11392,"뛰어들":11393,"으신":11394,"상시":11395,"남한":11396,"그려진":11397,"가이아":11398,"##TA":11399,"막혀":11400,"제라":11401,"김병":11402,"천주교":11403,"ATK":11404,"##ats":11405,"순천":11406,"다치":11407,"##ye":11408,"##도전":11409,"의의":11410,"정답":11411,"어벤져":11412,"단역":11413,"보직":11414,"강아지":11415,"변함":11416,"EU":11417,"##eah":11418,"##바람":11419,"견디":11420,"불화":11421,"동아시아":11422,"개막전":11423,"자루":11424,"주한":11425,"315":11426,"수라":11427,"시네마":11428,"나란":11429,"1961":11430,"##총장":11431,"##부인":11432,"컬렉션":11433,"걸까":11434,"풍경":11435,"GD":11436,"서바이벌":11437,"일각":11438,"천지":11439,"고맙":11440,"배후":11441,"걸음":11442,"테레":11443,"##중간":11444,"얼티밋":11445,"배리":11446,"투고":11447,"고난":11448,"TOP":11449,"마쳤":11450,"Mag":11451,"오공":11452,"158":11453,"균열":11454,"동사":11455,"##디스":11456,"대교":11457,"어제":11458,"다간":11459,"오른다":11460,"내정":11461,"그리하여":11462,"라이드":11463,"샹":11464,"CL":11465,"표기법":11466,"그렸":11467,"트러":11468,"볶":11469,"상원":11470,"##뜨":11471,"재질":11472,"도스":11473,"탁월":11474,"##다드":11475,"깃털":11476,"흑역사":11477,"카사":11478,"손잡이":11479,"가왕":11480,"악행":11481,"캡슐":11482,"무한도전":11483,"통보":11484,"스칼":11485,"##이센":11486,"마미":11487,"스톡":11488,"시련":11489,"추모":11490,"짬":11491,"로맨스":11492,"AB":11493,"민병":11494,"NT":11495,"##꿉":11496,"물리학":11497,"##쑤":11498,"여수":11499,"ver":11500,"리믹스":11501,"수확":11502,"카이저":11503,"흉내":11504,"동메달":11505,"내면":11506,"일산":11507,"숭배":11508,"비키":11509,"루마니아":11510,"UC":11511,"##oh":11512,"구울":11513,"##eth":11514,"드러냈":11515,"바랍니다":11516,"로제":11517,"이순신":11518,"충고":11519,"표식":11520,"##ron":11521,"위함":11522,"박스오피스":11523,"소꿉":11524,"쿠사":11525,"스파크":11526,"슬라이드":11527,"섞인":11528,"제대":11529,"독보":11530,"결과물":11531,"병살":11532,"##세요":11533,"올바":11534,"이세":11535,"금고":11536,"##룬":11537,"##ings":11538,"다투":11539,"아이즈":11540,"##짤":11541,"주차장":11542,"이호":11543,"##겹":11544,"김일성":11545,"마주치":11546,"노비":11547,"청사":11548,"쿠리":11549,"유마":11550,"구제":11551,"아스트":11552,"##메리카":11553,"사범":11554,"신상":11555,"제인":11556,"어판":11557,"유한":11558,"그레이드":11559,"매그":11560,"건립":11561,"레이지":11562,"176":11563,"공로":11564,"도요":11565,"파스":11566,"##운수":11567,"컴퍼니":11568,"방정":11569,"크라운":11570,"돌아온다":11571,"도사":11572,"떠돌":11573,"다저스":11574,"딥":11575,"삽질":11576,"will":11577,"간파":11578,"운반":11579,"펌":11580,"지미":11581,"Is":11582,"ME":11583,"재수":11584,"예고편":11585,"리플레":11586,"아무렇":11587,"테오":11588,"보가":11589,"##떡":11590,"##저래":11591,"직무":11592,"원했":11593,"##느님":11594,"계략":11595,"저항력":11596,"테란":11597,"병과":11598,"호응":11599,"발톱":11600,"##inal":11601,"궁수":11602,"심정":11603,"##==":11604,"126":11605,"차림":11606,"김윤":11607,"신임":11608,"1949":11609,"오로치":11610,"로크":11611,"드러난":11612,"안드레":11613,"정의당":11614,"마수":11615,"Am":11616,"과격":11617,"대명":11618,"완벽히":11619,"하느님":11620,"자작":11621,"기온":11622,"폴아웃":11623,"##성이":11624,"승려":11625,"자카":11626,"상어":11627,"친일":11628,"치렀":11629,"우두머리":11630,"이점":11631,"10000":11632,"식스":11633,"몸매":11634,"주의자":11635,"Don":11636,"보루":11637,"문법":11638,"팍":11639,"감금":11640,"퉁":11641,"유라":11642,"서원":11643,"타스":11644,"으려면":11645,"##ult":11646,"랴":11647,"크로우":11648,"라이트닝":11649,"무선":11650,"바이킹":11651,"응급":11652,"코로나":11653,"테크노":11654,"154":11655,"맡겨":11656,"사망자":11657,"like":11658,"레시피":11659,"LE":11660,"패왕":11661,"세르비아":11662,"##케이":11663,"총사":11664,"흉악":11665,"WH":11666,"방울":11667,"맷집":11668,"{{{-":11669,"블레이":11670,"KB":11671,"뒤쪽":11672,"Time":11673,"리볼":11674,"132":11675,"##총리":11676,"##MAN":11677,"내려갔":11678,"주황":11679,"##핏":11680,"전법":11681,"총선거":11682,"법안":11683,"유해":11684,"튀어나오":11685,"드루이드":11686,"##인드":11687,"무비":11688,"웨폰":11689,"거꾸":11690,"김성근":11691,"레슬링":11692,"센트럴":11693,"아테나":11694,"걸친":11695,"난리":11696,"new":11697,"##넛":11698,"##덕션":11699,"성폭":11700,"##런트":11701,"베어":11702,"어긋":11703,"성직자":11704,"강서":11705,"##13":11706,"멸종":11707,"떨어뜨리":11708,"기뻐하":11709,"응시":11710,"##빨리":11711,"지배자":11712,"이즈미":11713,"넘겼":11714,"##스트레이":11715,"강습":11716,"천체":11717,"벗어난":11718,"저승":11719,"이래저래":11720,"노린":11721,"218":11722,"##올라":11723,"완성도":11724,"##버린":11725,"이용객":11726,"테크닉":11727,"이리저리":11728,"르노":11729,"Mi":11730,"##낭":11731,"피드":11732,"파인":11733,"장신구":11734,"##GA":11735,"행하":11736,"예쁜":11737,"스크리":11738,"로열":11739,"코디":11740,"국민당":11741,"##ov":11742,"니트":11743,"취지":11744,"##oul":11745,"만지":11746,"급식":11747,"털어":11748,"충격파":11749,"트론":11750,"##18":11751,"상의":11752,"##곰":11753,"서리":11754,"라이징":11755,"손목":11756,"하우":11757,"선봉":11758,"리츠":11759,"##조합":11760,"이영호":11761,"탐구":11762,"유신":11763,"키노":11764,"당나라":11765,"짝사랑":11766,"더미":11767,"지터":11768,"##ob":11769,"제너":11770,"핑계":11771,"태조":11772,"였음":11773,"전염":11774,"리우스":11775,"야망":11776,"##나르":11777,"미남":11778,"##겸":11779,"과언":11780,"블랙홀":11781,"유능":11782,"후반전":11783,"어드ᄇ":11784,"고조":11785,"##ould":11786,"담겨":11787,"이쿠":11788,"키로":11789,"##전사":11790,"##처럼":11791,"통틀어":11792,"156":11793,"##보우":11794,"마가":11795,"..!":11796,"iOS":11797,"##트랙":11798,"무궁":11799,"Ser":11800,"마마":11801,"##친구":11802,"뢰":11803,"one":11804,"카제":11805,"스크래":11806,"164":11807,"##alk":11808,"미세":11809,"##tern":11810,"##yn":11811,"재벌":11812,"##레븐":11813,"숙련도":11814,"139":11815,"배율":11816,"나란히":11817,"필두":11818,"모에":11819,"##활약":11820,"보트":11821,"유카리":11822,"##15":11823,"고우":11824,"##슬림":11825,"시간대":11826,"이인":11827,"##이언스":11828,"##up":11829,"들으면":11830,"구청":11831,"153":11832,"조던":11833,"하츠네":11834,"아호":11835,"##라미":11836,"먼지":11837,"벚":11838,"교정":11839,"저격수":11840,"Gaming":11841,"하나님":11842,"##reak":11843,"반장":11844,"올라간":11845,"콜롬":11846,"공격기":11847,"거꾸로":11848,"무슬림":11849,"커플링":11850,"양심":11851,"합법":11852,"초등학생":11853,"빼앗기":11854,"가져갔":11855,"나열":11856,"김두":11857,"이광":11858,"##der":11859,"웃기":11860,"##able":11861,"GK":11862,"하드웨어":11863,"멋지":11864,"##고사":11865,"겁니다":11866,"##제스":11867,"접전":11868,"리터":11869,"전두":11870,"청장":11871,"엉뚱":11872,"성숙":11873,"세미":11874,"후면":11875,"지성":11876,"상공":11877,"오바":11878,"최하":11879,"148":11880,"거뒀":11881,"디비전":11882,"신주":11883,"Car":11884,"맞먹":11885,"##ions":11886,"##ᅮᆨ스":11887,"허브":11888,"인천광역시":11889,"##사고":11890,"연달":11891,"탄막":11892,"실업":11893,"셋째":11894,"##엘라":11895,"스케줄":11896,"표창":11897,"동등":11898,"Your":11899,"얼라이언스":11900,"베일":11901,"타키":11902,"##ᆼ가":11903,"단의":11904,"벌금":11905,"모른다는":11906,"주유":11907,"##문화":11908,"167":11909,"볼드":11910,"장시":11911,"김선":11912,"걸릴":11913,"냉장고":11914,"스마일":11915,"##널드":11916,"대등":11917,"즐겁":11918,"맞대":11919,"203":11920,"동지":11921,"북서":11922,"하비":11923,"배열":11924,"지표":11925,"열린다":11926,"몰아넣":11927,"카렌":11928,"가히":11929,"끊기":11930,"선지":11931,"##바스":11932,"황혼":11933,"프로덕션":11934,"##쿠스":11935,"애국":11936,"데미":11937,"SSR":11938,"지킬":11939,"창작물":11940,"##백과":11941,"##주의자":11942,"꾸미":11943,"##PA":11944,"사료":11945,"무색":11946,"1958":11947,"브라우":11948,"가나":11949,"1941":11950,"계시":11951,"음향":11952,"174":11953,"스나":11954,"오역":11955,"주술사":11956,"야마모토":11957,"승급":11958,"알려준다":11959,"##왜":11960,"영화배우":11961,"##ull":11962,"##스럽":11963,"##ᅰ어":11964,"누이":11965,"휴스턴":11966,"지나친":11967,"도모":11968,"공모":11969,"무죄":11970,"사야카":11971,"##프란시스코":11972,"##시다":11973,"샌프란시스코":11974,"어그":11975,"전례":11976,"라틴어":11977,"엇":11978,"진로":11979,"##재기":11980,"슬픈":11981,"##뼈":11982,"종말":11983,"여주인공":11984,"se":11985,"유타":11986,"타당":11987,"아수라":11988,"동년":11989,"##뱉":11990,"##스텔":11991,"Min":11992,"설탕":11993,"법학":11994,"버블":11995,"번식":11996,"##프라인":11997,"둬":11998,"적이":11999,"처녀":12000,"앞세":12001,"무안":12002,"RO":12003,"##셉트":12004,"시뮬레이션":12005,"142":12006,"##귄":12007,"자키":12008,"##니코":12009,"밀라":12010,"통행":12011,"지지자":12012,"바이크":12013,"사내":12014,"##상가":12015,"LTE":12016,"광범":12017,"레이븐":12018,"영등":12019,"##껑":12020,"문헌":12021,"일러스트레이":12022,"헤드샷":12023,"빈약":12024,"인명":12025,"염색":12026,"스페인어":12027,"##타르":12028,"##타니":12029,"주가":12030,"순간이동":12031,"##무네":12032,"163":12033,"던졌":12034,"##않":12035,"혼동":12036,"코프":12037,"스ᄂ":12038,"원화":12039,"런처":12040,"과감":12041,"박탈":12042,"가라앉":12043,"한층":12044,"##스트로":12045,"##기업":12046,"으리":12047,"배상":12048,"수령":12049,"덤벼":12050,"해준다":12051,"맹활약":12052,"토비":12053,"레인보우":12054,"득실":12055,"이오리":12056,"차일드":12057,"프로이센":12058,"##ube":12059,"##ECT":12060,"일련":12061,"러너":12062,"비즈":12063,"아슬":12064,"##해졌":12065,"마스코트":12066,"꼴찌":12067,"##로우":12068,"1954":12069,"우편":12070,"염두":12071,"BGA":12072,"레바":12073,"리볼버":12074,"##아티아":12075,"졸업식":12076,"크로아티아":12077,"훔치":12078,"강수":12079,"월요일":12080,"묻혀":12081,"##챈":12082,"네스":12083,"안보":12084,"##ll":12085,"제자리":12086,"##보라":12087,"전학":12088,"have":12089,"플레임":12090,"후쿠시마":12091,"사가":12092,"pr":12093,"태권":12094,"회견":12095,"맥락":12096,"제지":12097,"단식":12098,"찰나":12099,"설마":12100,"황실":12101,"out":12102,"주어진":12103,"레슨":12104,"절정":12105,"음력":12106,"오리온":12107,"수하":12108,"##퉁":12109,"밀레":12110,"기관포":12111,"페미니즘":12112,"대목":12113,"연막":12114,"##레인":12115,"먹여":12116,"능숙":12117,"른":12118,"발현":12119,"##뜨릴":12120,"대외":12121,"득표수":12122,"크리스토":12123,"장례식":12124,"상속":12125,"약칭":12126,"이룬다":12127,"이만":12128,"##스티스":12129,"##ICE":12130,"##랄드":12131,"내ᄈ":12132,"초상화":12133,"환호":12134,"대군":12135,"옌":12136,"단총":12137,"연고지":12138,"사소":12139,"라든가":12140,"NM":12141,"복음":12142,"토론토":12143,"따른다":12144,"안제":12145,"파우":12146,"143":12147,"137":12148,"인텔":12149,"공고":12150,"대법원":12151,"죄수":12152,"부호":12153,"앞면":12154,"향한다":12155,"당원":12156,"한강":12157,"미트":12158,"##크리트":12159,"소우":12160,"시흥":12161,"너클":12162,"릴리스":12163,"방벽":12164,"공짜":12165,"투사":12166,"##베르트":12167,"창당":12168,"313":12169,"현직":12170,"맞물":12171,"노골":12172,"혹평":12173,"Sum":12174,"무단":12175,"솔직히":12176,"평창":12177,"다지만":12178,"전해진다":12179,"인듯":12180,"내뱉":12181,"관해":12182,"한정판":12183,"소꿉친구":12184,"사당":12185,"박종":12186,"펙":12187,"양국":12188,"빙의":12189,"북동":12190,"해져서":12191,"##바루":12192,"차분":12193,"HS":12194,"인체":12195,"외관":12196,"ALL":12197,"플라스틱":12198,"##ᅨᆫ":12199,"오비":12200,"경찰청":12201,"꿇":12202,"가미":12203,"자포":12204,"두뇌":12205,"무식":12206,"CN":12207,"IV":12208,"여도":12209,"추출":12210,"##ᅳ레이크":12211,"랜서":12212,"이력":12213,"치마":12214,"##소수":12215,"1943":12216,"십자가":12217,"230":12218,"이준":12219,"전반기":12220,"앵커":12221,"알아차":12222,"반란군":12223,"찾아와":12224,"바티":12225,"오딘":12226,"넘어갈":12227,"아테네":12228,"태자":12229,"뮤지션":12230,"##대사":12231,"띄워":12232,"델타":12233,"지요":12234,"북구":12235,"순찰":12236,"맹독":12237,"남미":12238,"난투":12239,"오케스트라":12240,"프로스트":12241,"기술력":12242,"우산":12243,"157":12244,"관계없이":12245,"해상도":12246,"잡혔":12247,"##모어":12248,"강탈":12249,"오쿠":12250,"극악":12251,"133":12252,"숙주":12253,"##FL":12254,"슬슬":12255,"키드":12256,"기이":12257,"공자":12258,"갈리아":12259,"미시":12260,"##얀":12261,"내세우":12262,"당해서":12263,"un":12264,"브레스":12265,"출제":12266,"146":12267,"팬티":12268,"129":12269,"극우":12270,"뚝":12271,"잔해":12272,"떨어져서":12273,"윈터":12274,"확고":12275,"구독자":12276,"##더슨":12277,"000000":12278,"플레이버":12279,"1942":12280,"광범위":12281,"세키":12282,"별칭":12283,"지극":12284,"렀다":12285,"프레스":12286,"죽인다":12287,"##곧":12288,"청룡":12289,"화약":12290,"##STER":12291,"비참":12292,"제프":12293,"173":12294,"시에":12295,"나카무라":12296,"##이스":12297,"카오루":12298,"BO":12299,"미쳤":12300,"이루어진다":12301,"헤일":12302,"워너":12303,"##결승":12304,"종사":12305,"설비":12306,"진구":12307,"##탱":12308,"박명":12309,"힌트":12310,"관해서":12311,"키즈":12312,"경선":12313,"##드리히":12314,"내버려":12315,"채찍":12316,"여장":12317,"리뉴":12318,"리셋":12319,"##천사":12320,"기쁨":12321,"클리셰":12322,"원년":12323,"폐허":12324,"margin":12325,"##맷":12326,"섹스":12327,"실바":12328,"수영복":12329,"know":12330,"서치":12331,"로그인":12332,"카테고리":12333,"오디오":12334,"연안":12335,"멘붕":12336,"전수":12337,"해태":12338,"##무게":12339,"호출":12340,"텔레포트":12341,"몸무게":12342,"후대":12343,"칠레":12344,"폴리스":12345,"팀장":12346,"##MAX":12347,"set":12348,"##무이":12349,"방화":12350,"##DX":12351,"나락":12352,"생물학":12353,"보였으나":12354,"##날두":12355,"쟁이":12356,"청원":12357,"OF":12358,"호날두":12359,"통증":12360,"##블레":12361,"##뜨린다":12362,"기행":12363,"공습":12364,"공천":12365,"136":12366,"Play":12367,"편한":12368,"체스":12369,"리베":12370,"생애":12371,"BT":12372,"사나이":12373,"##믹":12374,"팩션":12375,"합치":12376,"미하":12377,"파랑":12378,"시초":12379,"##ica":12380,"정교회":12381,"CB":12382,"메테":12383,"##che":12384,"##소총":12385,"Of":12386,"해선":12387,"서장":12388,"애쉬":12389,"태종":12390,"##ock":12391,"히카루":12392,"우크라":12393,"라시":12394,"번갈":12395,"포니":12396,"판다":12397,"얼터":12398,"As":12399,"la":12400,"개판":12401,"미모":12402,"##풀이":12403,"글ᄅ":12404,"시달":12405,"망상":12406,"##브러":12407,"##YP":12408,"증기":12409,"달랐":12410,"제조사":12411,"메세지":12412,"빈번":12413,"저조":12414,"Red":12415,"##회장":12416,"럭키":12417,"Type":12418,"다스리":12419,"BM":12420,"하의":12421,"##제국":12422,"양대":12423,"##14":12424,"불문":12425,"##산역":12426,"오른팔":12427,"일러스트레이터":12428,"조력":12429,"심화":12430,"복도":12431,"##박이":12432,"클라우드":12433,"149":12434,"버터":12435,"##ᆺ대":12436,"대패":12437,"정준":12438,"오를":12439,"바인":12440,"혼다":12441,"라이센스":12442,"우파":12443,"박영":12444,"브루스":12445,"친정":12446,"산탄총":12447,"##에몽":12448,"쓰러져":12449,"##전설":12450,"치바":12451,"교육청":12452,"유선":12453,"바나나":12454,"때려잡":12455,"크리스티":12456,"트랜스포":12457,"##드려":12458,"샤오":12459,"킬로":12460,"BA":12461,"포맷":12462,"##ict":12463,"빠진다":12464,"미끼":12465,"범주":12466,"정한":12467,"##17":12468,"라파":12469,"심야":12470,"134":12471,"1900":12472,"슬라임":12473,"1956":12474,"미숙":12475,"인터페이스":12476,"불쾌":12477,"눕":12478,"오키나와":12479,"미도리":12480,"해독":12481,"경지":12482,"가의":12483,"TP":12484,"입국":12485,"냉동":12486,"가혹":12487,"지주":12488,"진리":12489,"목재":12490,"DI":12491,"##ster":12492,"레슬러":12493,"신세계":12494,"사일":12495,"책상":12496,"##툴":12497,"공손":12498,"퍼센트":12499,"##ange":12500,"나사":12501,"##ater":12502,"대사관":12503,"EV":12504,"개미":12505,"들어온다":12506,"부흥":12507,"달ᄀ":12508,"버림":12509,"푸르":12510,"운항":12511,"원한다":12512,"가로막":12513,"밧":12514,"깡패":12515,"건다":12516,"다룰":12517,"뫼":12518,"진짜로":12519,"##티넘":12520,"김천":12521,"플래티넘":12522,"카인":12523,"슈가":12524,"바그":12525,"구마":12526,"왕관":12527,"High":12528,"태미":12529,"슬램":12530,"쑤":12531,"무서워":12532,"##ons":12533,"오세":12534,"캇":12535,"##권자":12536,"##뿔":12537,"무수":12538,"##메라":12539,"춤추":12540,"자부":12541,"열세":12542,"마니":12543,"파손":12544,"심히":12545,"파괴력":12546,"트레이닝":12547,"제이슨":12548,"장갑차":12549,"pro":12550,"중후":12551,"맞출":12552,"앞뒤":12553,"##레슬링":12554,"땀":12555,"뺀":12556,"분쇄":12557,"교양":12558,"스매시":12559,"초래":12560,"플루":12561,"개개":12562,"자켓":12563,"무명":12564,"feat":12565,"진형":12566,"요우":12567,"입법":12568,"TE":12569,"원망":12570,"프로그래밍":12571,"NEW":12572,"펭귄":12573,"날린":12574,"로지":12575,"수시로":12576,"섹시":12577,"외면":12578,"프로레슬링":12579,"페이크":12580,"재림":12581,"슬러그":12582,"찰리":12583,"축구단":12584,"다툼":12585,"##왜란":12586,"여긴":12587,"악곡":12588,"둔다":12589,"임진왜란":12590,"##ple":12591,"증인":12592,"중급":12593,"열기":12594,"랜스":12595,"싱어":12596,"경질":12597,"칙":12598,"방정식":12599,"퇴역":12600,"쇼트":12601,"사천왕":12602,"전두환":12603,"##넉":12604,"들린다":12605,"스바루":12606,"##지오":12607,"##콕":12608,"시집":12609,"주고":12610,"모어":12611,"미칠":12612,"##ᅳᆯ린다":12613,"##교통":12614,"%.":12615,"뒷면":12616,"콕":12617,"##슬란":12618,"비기":12619,"##해야":12620,"연말":12621,"##니스트":12622,"147":12623,"와라":12624,"스팅":12625,"공과":12626,"꼽힌다":12627,"골목":12628,"비로소":12629,"불릴":12630,"Light":12631,"##차례":12632,"웨일":12633,"아래쪽":12634,"패스트":12635,"미식":12636,"들러":12637,"박해":12638,"여겨진다":12639,"호프":12640,"##나리":12641,"자회사":12642,"##두리":12643,"퓨처":12644,"상대식":12645,"##마르":12646,"심상":12647,"클러":12648,"AE":12649,"안철수":12650,"생선":12651,"앰":12652,"꽁":12653,"##주군":12654,"##무늬":12655,"##바다":12656,"폐선":12657,"280":12658,"세일러":12659,"팰":12660,"배우자":12661,"노하":12662,"실로":12663,"##아닌":12664,"##세서리":12665,"최정":12666,"엄폐":12667,"2500":12668,"소령":12669,"제우스":12670,"##카미":12671,"살라":12672,"헐크":12673,"하지메":12674,"가브리":12675,"저스티스":12676,"드리블":12677,"오프라인":12678,"MO":12679,"수용소":12680,"거칠":12681,"선인":12682,"GHz":12683,"할수록":12684,"철갑탄":12685,"##텍스":12686,"착지":12687,"직통":12688,"메구미":12689,"Gen":12690,"아랑":12691,"줄어드":12692,"관절":12693,"222":12694,"나뭇":12695,"차관":12696,"마켓":12697,"토막":12698,"##to":12699,"CO":12700,"의아":12701,"격리":12702,"테일러":12703,"히나타":12704,"보디":12705,"##구역":12706,"편견":12707,"##토랑":12708,"##니즘":12709,"##의회":12710,"실천":12711,"레스토랑":12712,"가르침":12713,"##에트":12714,"걸려서":12715,"따라잡":12716,"~\"":12717,"수다":12718,"더구나":12719,"보잉":12720,"세츠":12721,"강세":12722,"내밀":12723,"수상자":12724,"1939":12725,"음색":12726,"##더기":12727,"배속":12728,"김연":12729,"##CC":12730,"개그맨":12731,"was":12732,"라임":12733,"파이프":12734,"브랜":12735,"What":12736,"제단":12737,"소행":12738,"눌":12739,"바란다":12740,"미쓰":12741,"발간":12742,"면접":12743,"꼼수":12744,"템포":12745,"찾아왔":12746,"감행":12747,"레규":12748,"프로세서":12749,"배신자":12750,"용의자":12751,"##산동":12752,"복용":12753,"취한":12754,"##고래":12755,"Kor":12756,"166":12757,"미호":12758,"손꼽히":12759,"증권":12760,"고음":12761,"타고":12762,"원종":12763,"연기력":12764,"1959":12765,"##컨드":12766,"반론":12767,"도쿠가와":12768,"지문":12769,"##ics":12770,"1936":12771,"야전":12772,"프랜차":12773,"명탐정":12774,"세컨드":12775,"동조":12776,"섬유":12777,"인트":12778,"소설가":12779,"롤링":12780,"##ᆯ로그":12781,"일삼":12782,"두목":12783,"##사관":12784,"신칸":12785,"우물":12786,"준공":12787,"냉기":12788,"술집":12789,"하후":12790,"탈당":12791,"붙였":12792,"쥰":12793,"##어졌":12794,"##투아":12795,"##다닌":12796,"재임":12797,"##ACK":12798,"화소":12799,"Heart":12800,"율리":12801,"산화":12802,"러닝":12803,"레프":12804,"공영":12805,"Tw":12806,"유즈":12807,"종착":12808,"돌보":12809,"마요":12810,"조교":12811,"소노":12812,"더러운":12813,"스콧":12814,"프랜차이즈":12815,"##les":12816,"달래":12817,"줄어든다":12818,"플로리":12819,"케리건":12820,"라곤":12821,"미수":12822,"내역":12823,"역학":12824,"LOVE":12825,"패했":12826,"필터":12827,"웨인":12828,"oh":12829,"1955":12830,"정해져":12831,"GPU":12832,"삼촌":12833,"미스터리":12834,"##ex":12835,"##사와":12836,"기피":12837,"뱃":12838,"병종":12839,"##BM":12840,"뒤지":12841,"이아":12842,"트랜스포머":12843,"비춰":12844,"모함":12845,"어벤져스":12846,"랙":12847,"거니":12848,"체격":12849,"뭔지":12850,"아이스크림":12851,"지그":12852,"자란":12853,"##모니":12854,"##어붙":12855,"하카":12856,"낡":12857,"투신":12858,"NHK":12859,"AG":12860,"##쫓":12861,"에그":12862,"떠올":12863,"##데르":12864,"반환":12865,"아이폰":12866,"찌질":12867,"알아채":12868,"전광":12869,"어린아이":12870,"위키백과":12871,"Mr":12872,"구한":12873,"호스":12874,"파문":12875,"##니스탄":12876,"올바른":12877,"신칸센":12878,"책략":12879,"동문":12880,"루키":12881,"어때":12882,"콘셉트":12883,"토가":12884,"채취":12885,"사모":12886,"기술자":12887,"책임지":12888,"Blo":12889,"동호":12890,"재활":12891,"PL":12892,"하이브리":12893,"경보":12894,"호무":12895,"속편":12896,"영등포":12897,"참으로":12898,"이방":12899,"시가":12900,"##ᅣᆯ":12901,"물가":12902,"야마다":12903,"하이브리드":12904,"그제":12905,"##lass":12906,"전열":12907,"##무실":12908,"테일즈":12909,"솔라":12910,"장학":12911,"##16":12912,"인구수":12913,"푹":12914,"특훈":12915,"부도":12916,"##테스":12917,"다름아닌":12918,"##드리아":12919,"냉각":12920,"봉기":12921,"레귤러":12922,"자질":12923,"반군":12924,"FPS":12925,"랏":12926,"MK":12927,"##AND":12928,"부당":12929,"투성이":12930,"준결승":12931,"뜰":12932,"장편":12933,"방호":12934,"##튠":12935,"휩쓸":12936,"TO":12937,"스트리밍":12938,"최대치":12939,"방송인":12940,"좌표":12941,"좋아한다":12942,"서민":12943,"마의":12944,"##아슬":12945,"아슬아슬":12946,"말년":12947,"Par":12948,"보행":12949,"정형":12950,"##전트":12951,"##스타인":12952,"하라":12953,"소사":12954,"##nder":12955,"##플러스":12956,"성기":12957,"##규모":12958,"인사이드":12959,"스크립트":12960,"로테이션":12961,"모던":12962,"1952":12963,"쐐":12964,"패드":12965,"라바":12966,"상행":12967,"전했":12968,"time":12969,"포식":12970,"뇌물":12971,"걸어가":12972,"적립":12973,"넘어간다":12974,"수량":12975,"가와":12976,"소매":12977,"전반전":12978,"공존":12979,"범행":12980,"부드러운":12981,"ll":12982,"330":12983,"주된":12984,"수도원":12985,"내뿜":12986,"빌라":12987,"##교육":12988,"##더링":12989,"하반기":12990,"엣지":12991,"달아":12992,"##좀":12993,"270":12994,"사슴":12995,"캔디":12996,"카즈야":12997,"이뤄지":12998,"##내리":12999,"##ors":13000,"Fe":13001,"##볼루션":13002,"교통사고":13003,"륙":13004,"패닉":13005,"얼어붙":13006,"풍기":13007,"노래방":13008,"도청":13009,"##ME":13010,"도호":13011,"표본":13012,"단과":13013,"죠죠":13014,"깔려":13015,"신수":13016,"김도":13017,"LED":13018,"카니":13019,"정계":13020,"##들여":13021,"느낀다":13022,"불가리아":13023,"경과":13024,"오타쿠":13025,"속력":13026,"유대인":13027,"서해":13028,"몹시":13029,"배워":13030,"스텔라":13031,"담임":13032,"직속":13033,"중년":13034,"뱉":13035,"끝장":13036,"스윕":13037,"##어버리":13038,"카우":13039,"캐슬":13040,"태극":13041,"순정":13042,"여배우":13043,"뚜껑":13044,"입양":13045,"에메랄드":13046,"매지":13047,"멋있":13048,"발라드":13049,"고마워":13050,"교섭":13051,"테러리스트":13052,"함성":13053,"우체":13054,"파키스탄":13055,"출고":13056,"디렉터":13057,"어미":13058,"1947":13059,"GTA":13060,"파격":13061,"동로":13062,"이에":13063,"원고":13064,"##단지":13065,"스퀘어":13066,"춘천":13067,"#!":13068,"솜씨":13069,"225":13070,"평안":13071,"네놈":13072,"모양새":13073,"##대기":13074,"Good":13075,"얕":13076,"두근":13077,"##콥터":13078,"전속":13079,"블레":13080,"르네":13081,"거품":13082,"심문":13083,"박상":13084,"맴":13085,"방공":13086,"직격":13087,"불려":13088,"놀란":13089,"심했":13090,"##트라이":13091,"소시":13092,"상쇄":13093,"영동":13094,"자랐":13095,"우상":13096,"곡선":13097,"선대":13098,"재빨리":13099,"저희":13100,"무고":13101,"현존":13102,"##테리":13103,"Per":13104,"돋보이":13105,"유지비":13106,"적색":13107,"세스":13108,"현황":13109,"다이노스":13110,"프리드리히":13111,"사투리":13112,"##딕":13113,"핸드폰":13114,"쓰러트리":13115,"멜론":13116,"##수수":13117,"바닷":13118,"영남":13119,"로저":13120,"그릴":13121,"커졌":13122,"모른다고":13123,"자각":13124,"순교":13125,"광대":13126,"쥬얼":13127,"호구":13128,"배리어":13129,"##뿌":13130,"##보내":13131,"단말":13132,"자칫":13133,"헤어지":13134,"산악":13135,"하행":13136,"##글라스":13137,"오락실":13138,"갈래":13139,"시가지":13140,"스파이크":13141,"##나갔":13142,"프랑스군":13143,"마초":13144,"카를로스":13145,"그랜":13146,"월등":13147,"신흥":13148,"생겨서":13149,"벚꽃":13150,"어워드":13151,"다기":13152,"##ᆺ집":13153,"앤디":13154,"SL":13155,"am":13156,"##HT":13157,"##파리":13158,"사탄":13159,"텀":13160,"넉넉":13161,"성서":13162,"지기":13163,"석상":13164,"발렌타인":13165,"하시":13166,"신병":13167,"느껴진다":13168,"익스ᄑ":13169,"대본":13170,"적재":13171,"레즈":13172,"260":13173,"스내":13174,"급히":13175,"라프":13176,"##eep":13177,"우천":13178,"1800":13179,"격전":13180,"래스터":13181,"유나":13182,"벌어진다":13183,"바닐라":13184,"요미우리":13185,"유니콘":13186,"하리":13187,"미유키":13188,"##윽":13189,"MSL":13190,"##뚫":13191,"메이트":13192,"타이완":13193,"더욱이":13194,"선우":13195,"구절":13196,"미들":13197,"부관":13198,"1919":13199,"리바운드":13200,"##무기":13201,"홀딩":13202,"냅":13203,"본의":13204,"합친":13205,"고산":13206,"갈구":13207,"호투":13208,"실력자":13209,"브이":13210,"휩싸":13211,"IIDX":13212,"호박":13213,"걸어서":13214,"부사관":13215,"뮈":13216,"공약":13217,"추궁":13218,"중학생":13219,"불신":13220,"아홉":13221,"##ott":13222,"원내":13223,"호르":13224,"즉각":13225,"프로모":13226,"심연":13227,"질풍":13228,"비타":13229,"간호사":13230,"야만":13231,"기함":13232,"상용":13233,"##거진":13234,"주워":13235,"차용":13236,"핸들":13237,"Kn":13238,"ab":13239,"정정":13240,"두르":13241,"상장":13242,"신정":13243,"일례":13244,"유니온":13245,"움직여":13246,"0900":13247,"퐁":13248,"남작":13249,"군림":13250,"소실":13251,"치루":13252,"징크스":13253,"모라":13254,"풀린":13255,"Li":13256,"##틀리":13257,"로스터":13258,"눈빛":13259,"보리":13260,"시부":13261,"꿰뚫":13262,"증발":13263,"클레이":13264,"박살나":13265,"카이사르":13266,"부류":13267,"지름":13268,"선형":13269,"유방":13270,"장원":13271,"운석":13272,"##메다":13273,"이례":13274,"EBS":13275,"단정":13276,"고분":13277,"적성":13278,"다중":13279,"카탈":13280,"wid":13281,"브레인":13282,"유정":13283,"포워드":13284,"프로토타입":13285,"Wii":13286,"쓰일":13287,"##문트":13288,"뒀":13289,"에바":13290,"##수아":13291,"츤데레":13292,"텅":13293,"도시락":13294,"박혀":13295,"##메스":13296,"최우수":13297,"프롤로그":13298,"This":13299,"따져":13300,"근력":13301,"안성":13302,"호그":13303,"드레드":13304,"훈훈":13305,"여관":13306,"미로":13307,"날라":13308,"설화":13309,"성비":13310,"하와이":13311,"악령":13312,"조준경":13313,"##산물":13314,"축적":13315,"페니":13316,"미티":13317,"픽셀":13318,"##IV":13319,"길거리":13320,"헬리콥터":13321,"구타":13322,"##자동":13323,"유무":13324,"양보":13325,"일으킨다":13326,"유승":13327,"회귀":13328,"Baby":13329,"더라면":13330,"##25":13331,"##IK":13332,"소규모":13333,"본가":13334,"페인":13335,"후루":13336,"망원":13337,"라던가":13338,"남서":13339,"##anna":13340,"허위":13341,"격투기":13342,"기관차":13343,"진정한":13344,"##두사":13345,"##파크":13346,"루루":13347,"자본주의":13348,"깽":13349,"교훈":13350,"트러블":13351,"스콜":13352,"프린스":13353,"실정":13354,"진수":13355,"제보":13356,"전산":13357,"켈리":13358,"농사":13359,"정재":13360,"바래":13361,"카디":13362,"습관":13363,"HARD":13364,"Sm":13365,"바오":13366,"불평":13367,"쏟아지":13368,"존대":13369,"일레븐":13370,"럴":13371,"ONE":13372,"스토커":13373,"탄탄":13374,"이선":13375,"버려진":13376,"동요":13377,"떄":13378,"충북":13379,"서정":13380,"유코":13381,"빈틈":13382,"히데요시":13383,"루터":13384,"킹덤":13385,"1953":13386,"대중교통":13387,"에필":13388,"##지도":13389,"에필로그":13390,"서태":13391,"자문":13392,"게임즈":13393,"밀집":13394,"대진":13395,"중성":13396,"샤워":13397,"주어진다":13398,"##델피아":13399,"필라델피아":13400,"GN":13401,"##포드":13402,"민정":13403,"1938":13404,"리키":13405,"심리학":13406,"##other":13407,"총괄":13408,"관념":13409,"누워":13410,"원작자":13411,"Rock":13412,"송출":13413,"격침":13414,"부ᄃ":13415,"##행위":13416,"첫날":13417,"169":13418,"프렌즈":13419,"us":13420,"낀":13421,"회화":13422,"단속":13423,"##19":13424,"##르바":13425,"박용":13426,"청산":13427,"석방":13428,"##바키아":13429,"구두":13430,"##세포":13431,"미팅":13432,"책정":13433,"독서":13434,"뽐":13435,"리부트":13436,"550":13437,"야외":13438,"치고":13439,"만료":13440,"만루":13441,"자격증":13442,"##똑":13443,"##앙스":13444,"총회":13445,"##스코":13446,"장풍":13447,"width":13448,"달라졌":13449,"고토":13450,"말미":13451,"양측":13452,"파벌":13453,"데려오":13454,"수수료":13455,"##팍":13456,"수평":13457,"##icro":13458,"Live":13459,"라나":13460,"고든":13461,"수복":13462,"요시다":13463,"일품":13464,"리조":13465,"김원":13466,"페르난":13467,"호세":13468,"생산량":13469,"병장":13470,"부턴":13471,"노트북":13472,"Ac":13473,"차가운":13474,"특이점":13475,"온몸":13476,"술탄":13477,"뉘앙스":13478,"보증":13479,"속이":13480,"##ins":13481,"죄송":13482,"내수":13483,"황태자":13484,"여권":13485,"들어와서":13486,"히카리":13487,"##ᆯ러스":13488,"멀리서":13489,"유유":13490,"감기":13491,"꾸며":13492,"리우":13493,"##토르":13494,"##웬":13495,"클립":13496,"할리우드":13497,"##oss":13498,"미니언":13499,"##ru":13500,"DB":13501,"희대":13502,"결사":13503,"연금술사":13504,"동래":13505,"그리드":13506,"에일리":13507,"대마":13508,"##하이":13509,"마차":13510,"미라이":13511,"내릴":13512,"결함":13513,"페이커":13514,"##ᆷ마":13515,"레이트":13516,"쌓여":13517,"여당":13518,"니카":13519,"가창":13520,"왕좌":13521,"독수리":13522,"우가":13523,"장동":13524,"##받침":13525,"완구":13526,"의석":13527,"교내":13528,"혜성":13529,"에밀리":13530,"하부":13531,"성수":13532,"처한":13533,"헥":13534,"유배":13535,"협약":13536,"##노스케":13537,"가두":13538,"자니":13539,"윌슨":13540,"쇠퇴":13541,"나고":13542,"cc":13543,"글리":13544,"고스":13545,"##떠":13546,"교시":13547,"은혜":13548,"아울러":13549,"후안":13550,"머무르":13551,"홈즈":13552,"OK":13553,"연의":13554,"다룬다":13555,"##gain":13556,"##ction":13557,"Blue":13558,"##턱":13559,"정체불명":13560,"경쟁자":13561,"Dark":13562,"##EL":13563,"버릇":13564,"누명":13565,"놔두":13566,"재위":13567,"1957":13568,"##지르":13569,"배송":13570,"도라에몽":13571,"사안":13572,"제작비":13573,"고성":13574,"체형":13575,"KTX":13576,"원활":13577,"가축":13578,"부드럽":13579,"한다거나":13580,"초교":13581,"##플리케이션":13582,"우루과이":13583,"아르카":13584,"오리진":13585,"무사시":13586,"저술":13587,"메모":13588,"라오":13589,"서대":13590,"텍스":13591,"##0000":13592,"짚":13593,"##킨스":13594,"\"\"":13595,"전세":13596,"비꼬":13597,"켄지":13598,"방과":13599,"게시물":13600,"토마토":13601,"자크":13602,"편안":13603,"셰프":13604,"불어":13605,"진행자":13606,"천마":13607,"강팀":13608,"로브":13609,"주거":13610,"로컬":13611,"Champ":13612,"자발":13613,"말소":13614,"환수":13615,"더비":13616,"##툭":13617,"말아먹":13618,"예배":13619,"소비에트":13620,"속박":13621,"수강":13622,"특허":13623,"포대":13624,"원흉":13625,"격기":13626,"경순":13627,"##na":13628,"발차기":13629,"분기점":13630,"RC":13631,"오시":13632,"편찬":13633,"비토":13634,"##린다는":13635,"피에":13636,"Im":13637,"주파수":13638,"실루":13639,"유비트":13640,"분장":13641,"##케인":13642,"Sun":13643,"##ood":13644,"첨단":13645,"보구":13646,"##agon":13647,"브론즈":13648,"##UT":13649,"캐스트":13650,"유로파":13651,"진군":13652,"##자재":13653,"타다":13654,"가까웠":13655,"게릴라":13656,"탯이":13657,"닥치":13658,"트로이":13659,"넥서스":13660,"바이올린":13661,"++":13662,"친목":13663,"OCG":13664,"모친":13665,"닉스":13666,"Can":13667,"직결":13668,"뜯어":13669,"일일이":13670,"장제스":13671,"스케이팅":13672,"포럼":13673,"프랭":13674,"리액":13675,"랩터":13676,"Bat":13677,"해적단":13678,"선곡":13679,"깨알":13680,"상가":13681,"##스티니":13682,"수녀":13683,"떠날":13684,"MHz":13685,"back":13686,"타카시":13687,"환사":13688,"자손":13689,"니나":13690,"##ky":13691,"북극":13692,"무겁":13693,"연루":13694,"코즈":13695,"요리사":13696,"DR":13697,"유영":13698,"205":13699,"흐른":13700,"##토리얼":13701,"쓸데없이":13702,"##훼":13703,"했어도":13704,"재무":13705,"센티":13706,"다짐":13707,"##버드":13708,"경감":13709,"미성년":13710,"통수":13711,"용감":13712,"합쳐서":13713,"생겨났":13714,"오ᄏ":13715,"기획사":13716,"키트":13717,"정동":13718,"본성":13719,"튜토리얼":13720,"##꼴":13721,"이창":13722,"##놀이":13723,"주고받":13724,"##통수":13725,"달라붙":13726,"##마치":13727,"na":13728,"박재":13729,"미즈키":13730,"열람":13731,"열악":13732,"무제한":13733,"기성":13734,"흘러가":13735,"수식":13736,"후지와라":13737,"데스티니":13738,"Summer":13739,"대출":13740,"금색":13741,"RP":13742,"단선":13743,"권능":13744,"모범":13745,"니코니코":13746,"##일으":13747,"요시노":13748,"##ty":13749,"불러일으":13750,"플레어":13751,"김명":13752,"##irst":13753,"분홍색":13754,"야마구치":13755,"##사벽":13756,"넘사벽":13757,"벌리":13758,"매수":13759,"명곡":13760,"셸":13761,"##DS":13762,"민영":13763,"야심":13764,"농촌":13765,"당주":13766,"살상":13767,"브레이브":13768,"자판":13769,"산책":13770,"벌인다":13771,"빅토르":13772,"도검":13773,"##ady":13774,"목동":13775,"양키스":13776,"##무소":13777,"야시":13778,"##land":13779,"Korea":13780,"##ᅳ롱":13781,"흠좀":13782,"흠좀무":13783,"즐거운":13784,"대대로":13785,"Music":13786,"탄도":13787,"원천":13788,"헌신":13789,"##소스":13790,"제스":13791,"중추":13792,"항아리":13793,"창세":13794,"일으킬":13795,"동족":13796,"하워드":13797,"셰이":13798,"##셸":13799,"스파르타":13800,"따윈":13801,"거세":13802,"비시":13803,"그래프":13804,"서초":13805,"##드립":13806,"##리안":13807,"남발":13808,"자처":13809,"##드르":13810,"생겨나":13811,"레이첼":13812,"박찬":13813,"레이너":13814,"휴게소":13815,"함재기":13816,"엘리스":13817,"오피":13818,"발광":13819,"##저드":13820,"다다":13821,"소극":13822,"BEMAN":13823,"타나카":13824,"해내":13825,"##코스":13826,"세레":13827,"라트":13828,"##균관":13829,"병합":13830,"급기":13831,"줄줄":13832,"넘어지":13833,"1914":13834,"행렬":13835,"아제":13836,"개칭":13837,"노동당":13838,"코지":13839,"계란":13840,"토이":13841,"루이지":13842,"프리즘":13843,"겸하":13844,"도마뱀":13845,"무진":13846,"안산":13847,"카타르":13848,"기괴":13849,"슈터":13850,"필연":13851,"어느새":13852,"베이스볼":13853,"강행":13854,"반대편":13855,"잠재력":13856,"합당":13857,"임원":13858,"BEMANI":13859,"장안":13860,"파산":13861,"실무":13862,"캐서":13863,"##현우":13864,"악의":13865,"치아":13866,"만행":13867,"일렉트로":13868,"##OID":13869,"감전":13870,"토로":13871,"루팡":13872,"나레이션":13873,"Fire":13874,"##석민":13875,"무상":13876,"인데다":13877,"다이스케":13878,"기다렸":13879,"후한":13880,"설상가":13881,"리턴":13882,"윌리엄스":13883,"프로모션":13884,"설상가상":13885,"제휴":13886,"블래":13887,"##놔":13888,"##기지":13889,"##현진":13890,"금호":13891,"##마당":13892,"인어":13893,"성모":13894,"재난":13895,"OB":13896,"전과":13897,"now":13898,"학점":13899,"돌려주":13900,"교관":13901,"솔리":13902,"김형":13903,"벌여":13904,"댄서":13905,"##숍":13906,"성균관":13907,"##커녕":13908,"밀란":13909,"유난":13910,"650":13911,"야기":13912,"반기":13913,"하원":13914,"살인마":13915,"노릴":13916,"음악가":13917,"이룬":13918,"힐링":13919,"정벌":13920,"펜듈":13921,"펜듈럼":13922,"창업":13923,"조직원":13924,"211":13925,"주심":13926,"여진":13927,"실습":13928,"손톱":13929,"##곡동":13930,"지어":13931,"목적지":13932,"줄게":13933,"마운트":13934,"화합":13935,"대각":13936,"문고":13937,"북방":13938,"입체":13939,"이질":13940,"위탁":13941,"복면":13942,"아타":13943,"총격":13944,"후궁":13945,"시코":13946,"악어":13947,"차선":13948,"포토":13949,"##ium":13950,"지온":13951,"광속":13952,"청동":13953,"호기심":13954,"여정":13955,"평원":13956,"달걀":13957,"정립":13958,"폭동":13959,"쐐기":13960,"세션":13961,"##티지":13962,"농락":13963,"##테이너":13964,"##틀린":13965,"귀중":13966,"듀크":13967,"치사":13968,"피에르":13969,"GG":13970,"점사":13971,"Life":13972,"CA":13973,"서독":13974,"뒤통수":13975,"진나라":13976,"##혁명":13977,"계열사":13978,"끌어올":13979,"가성":13980,"육지":13981,"사다":13982,"3164":13983,"##즈카":13984,"##ush":13985,"냉전":13986,"해수":13987,"STR":13988,"고령":13989,"재판소":13990,"로코":13991,"##메어":13992,"양호":13993,"퓨리":13994,"##기사":13995,"한발":13996,"소동":13997,"문어":13998,"반항":13999,"어선":14000,"실명":14001,"성도":14002,"Ma":14003,"분화":14004,"피카츄":14005,"##ount":14006,"스냅":14007,"바꿔서":14008,"##줌":14009,"가급":14010,"모닝":14011,"달라진":14012,"스캔들":14013,"까닭":14014,"But":14015,"##서야":14016,"세탁":14017,"리엘":14018,"염려":14019,"별점":14020,"1951":14021,"미끄러":14022,"동탁":14023,"##프스":14024,"오디":14025,"호노":14026,"Just":14027,"똑똑":14028,"어퍼":14029,"로저스":14030,"##르기":14031,"증가량":14032,"풍속":14033,"##그룹":14034,"204":14035,"##멋":14036,"자수":14037,"총재":14038,"##룸":14039,"프런":14040,"##코프":14041,"한탄":14042,"그립":14043,"돌이":14044,"진성":14045,"투니":14046,"월급":14047,"내륙":14048,"동체":14049,"받아들였":14050,"일수록":14051,"대상자":14052,"##쉐":14053,"네이트":14054,"진료":14055,"스킵":14056,"아토":14057,"로워":14058,"신대":14059,"선제골":14060,"연회":14061,"불로":14062,"##그레":14063,"DX":14064,"##CH":14065,"나이트메어":14066,"싣":14067,"후예":14068,"고속도":14069,"창시":14070,"##궤":14071,"지극히":14072,"네코":14073,"대공포":14074,"시몬":14075,"플로리다":14076,"선방":14077,"Ste":14078,"잘려":14079,"##때로":14080,"이복":14081,"우아":14082,"day":14083,"숀":14084,"모른":14085,"##년기":14086,"한숨":14087,"Sy":14088,"##ger":14089,"일진":14090,"레기":14091,"이긴다":14092,"프로리그":14093,"##봐도":14094,"털어놓":14095,"사면":14096,"박경":14097,"##퍼런스":14098,"FFF":14099,"하타":14100,"향기":14101,"pt":14102,"남극":14103,"감히":14104,"개개인":14105,"##덮":14106,"스레":14107,"##크라이":14108,"##플라":14109,"Dance":14110,"에스파":14111,"사찰":14112,"강연":14113,"캐리어":14114,"마운드":14115,"박명수":14116,"스완":14117,"일본식":14118,"해임":14119,"공익":14120,"개연":14121,"행방불명":14122,"츠바사":14123,"할당":14124,"파장":14125,"출근":14126,"##저것":14127,"이것저것":14128,"현상금":14129,"FB":14130,"상표":14131,"야드":14132,"한도":14133,"발칸":14134,"Gold":14135,"여친":14136,"나폴리":14137,"홍성":14138,"석탄":14139,"CON":14140,"지상파":14141,"실루엣":14142,"국산":14143,"질리":14144,"샨":14145,"호로":14146,"Grand":14147,"주황색":14148,"적료":14149,"나타낸다":14150,"섬기":14151,"이노우":14152,"스퍼":14153,"##블릿":14154,"테루":14155,"지휘자":14156,"##듣":14157,"물러났":14158,"Pre":14159,"오의":14160,"회고":14161,"산지":14162,"페루":14163,"저상":14164,"Ev":14165,"민법":14166,"##티콘":14167,"기복":14168,"음주":14169,"1600":14170,"콘티":14171,"광전사":14172,"VOC":14173,"구단주":14174,"블루스":14175,"##줬":14176,"효소":14177,"##ne":14178,"암울":14179,"##ally":14180,"HK":14181,"아프가":14182,"괄":14183,"채집":14184,"##ution":14185,"서지":14186,"이속":14187,"시간표":14188,"LCK":14189,"예언자":14190,"성체":14191,"슬로우":14192,"비운":14193,"글래":14194,"아르메":14195,"기타리스트":14196,"대주":14197,"##준표":14198,"괴상":14199,"아깝":14200,"차후":14201,"괴력":14202,"##트린":14203,"난감":14204,"##미스":14205,"아줌마":14206,"##pr":14207,"지중":14208,"화자":14209,"번트":14210,"라구":14211,"일식":14212,"대표작":14213,"피고":14214,"##트니":14215,"관동":14216,"스네이크":14217,"##징어":14218,"영진":14219,"##잖":14220,"매너":14221,"전교":14222,"접점":14223,"망한":14224,"구급":14225,"파수":14226,"파업":14227,"넘어서":14228,"열등":14229,"바비":14230,"##봐야":14231,"수락":14232,"get":14233,"통신사":14234,"카이토":14235,"부여받":14236,"사우루스":14237,"##마침":14238,"됐으며":14239,"살아나":14240,"샘플":14241,"##클럽":14242,"##슬로":14243,"떠올라":14244,"##미즈":14245,"밀려나":14246,"TW":14247,"Over":14248,"##보그":14249,"케이지":14250,"정세":14251,"목요일":14252,"놀랐":14253,"코다":14254,"군복":14255,"이변":14256,"콘크리트":14257,"부평":14258,"교직":14259,"투하":14260,"셉":14261,"1937":14262,"카르마":14263,"램프":14264,"##사이드":14265,"샬":14266,"리마":14267,"##ator":14268,"훅":14269,"뛰쳐":14270,"브란":14271,"ARM":14272,"추기":14273,"매스":14274,"포효":14275,"호쿠":14276,"경찰관":14277,"정확도":14278,"아틀레":14279,"정자":14280,"신축":14281,"때마침":14282,"딸기":14283,"beat":14284,"젝":14285,"##장난":14286,"출루율":14287,"미사키":14288,"출연진":14289,"소피아":14290,"고질":14291,"전리":14292,"박치기":14293,"합창":14294,"러셀":14295,"한스":14296,"가브리엘":14297,"따내":14298,"##빼":14299,"아이유":14300,"매출액":14301,"무궁화":14302,"UF":14303,"변질":14304,"외래":14305,"금화":14306,"차종":14307,"샐러":14308,"##베르토":14309,"리에":14310,"선구":14311,"##흘":14312,"홍진호":14313,"DJMAX":14314,"서인":14315,"##봇":14316,"행정부":14317,"예지":14318,"회오리":14319,"##air":14320,"각기":14321,"휘둘":14322,"클레어":14323,"자진":14324,"연발":14325,"뷰티":14326,"Sec":14327,"코바야시":14328,"두려워하":14329,"비장":14330,"어리석":14331,"왠만":14332,"남아프리카":14333,"퇴출":14334,"등교":14335,"tvN":14336,"픽업":14337,"대부":14338,"챌린저":14339,"처절":14340,"시치":14341,"크루즈":14342,"##아스":14343,"대쉬":14344,"일절":14345,"최영":14346,"묻혔":14347,"##네이터":14348,"배기":14349,"개인전":14350,"베네치아":14351,"코카":14352,"백신":14353,"##르드":14354,"세세":14355,"고요":14356,"이를":14357,"##브레":14358,"##토시":14359,"출중":14360,"피츠":14361,"##바ᄁ":14362,"아카리":14363,"##엎":14364,"##나드":14365,"교향곡":14366,"아프가니스탄":14367,"매운":14368,"밝힌다":14369,"BBC":14370,"부과":14371,"지날":14372,"동창":14373,"Out":14374,"캉":14375,"지침":14376,"조영":14377,"커비":14378,"영리":14379,"사극":14380,"##궈":14381,"접근성":14382,"느니":14383,"고릴라":14384,"한성":14385,"달렸":14386,"쪼개":14387,"마누":14388,"볼까":14389,"태수":14390,"신원":14391,"만세":14392,"쾨":14393,"##inc":14394,"광부":14395,"점거":14396,"간선":14397,"둘러싼":14398,"상류":14399,"##히트":14400,"스릴":14401,"회심":14402,"간략":14403,"경매":14404,"수험":14405,"경희":14406,"코요":14407,"딱딱":14408,"부딪히":14409,"검은색":14410,"이은":14411,"부려":14412,"으리라":14413,"##축구":14414,"##장이":14415,"체이":14416,"영조":14417,"완수":14418,"밋":14419,"부대원":14420,"스피커":14421,"컨트롤러":14422,"요건":14423,"강해서":14424,"입힐":14425,"풍자":14426,"##츠카":14427,"달빛":14428,"상체":14429,"몰아내":14430,"묘한":14431,"리티":14432,"##로이드":14433,"양주":14434,"El":14435,"Dis":14436,"but":14437,"아드":14438,"책임자":14439,"Win":14440,"전년":14441,"##흙":14442,"미판":14443,"사이보그":14444,"##꿈치":14445,"케이트":14446,"사스케":14447,"강판":14448,"유난히":14449,"##동원":14450,"타니":14451,"상하이":14452,"수요일":14453,"새우":14454,"저렇게":14455,"VOCAL":14456,"조형":14457,"##펑":14458,"군함":14459,"베이더":14460,"묶여":14461,"총열":14462,"외우":14463,"빅뱅":14464,"은밀":14465,"##...":14466,"고선":14467,"뒤덮":14468,"이용해":14469,"리플렉":14470,"용맹":14471,"천공":14472,"##펄":14473,"후문":14474,"계좌":14475,"콜드":14476,"콜롬비아":14477,"##휴일":14478,"총사령":14479,"연구실":14480,"소수자":14481,"##ART":14482,"막아":14483,"백색":14484,"촉진":14485,"천둥":14486,"카구라":14487,"UI":14488,"소감":14489,"미술관":14490,"잔디":14491,"##use":14492,"##바시":14493,"평민":14494,"벵":14495,"바우":14496,"고속버스":14497,"##플ᄅ":14498,"##쩌":14499,"전류":14500,"몬테":14501,"sc":14502,"케로":14503,"정크":14504,"6000":14505,"##앵":14506,"런닝":14507,"##수스":14508,"미코토":14509,"못지않":14510,"자신감":14511,"여더":14512,"##로니":14513,"조제":14514,"##터스":14515,"밀렸":14516,"Mon":14517,"예명":14518,"스플리":14519,"혹사":14520,"##베이스":14521,"기밀":14522,"준하":14523,"웨어":14524,"HG":14525,"워낙에":14526,"##라노":14527,"조인":14528,"제다이":14529,"김두한":14530,"영장":14531,"##ring":14532,"성형":14533,"안면":14534,"민원":14535,"앙리":14536,"중견수":14537,"판권":14538,"##XT":14539,"페이트":14540,"man":14541,"차남":14542,"비즈니스":14543,"~~":14544,"##LS":14545,"매칭":14546,"레이나":14547,"Af":14548,"조류":14549,"역과":14550,"오인":14551,"이동하":14552,"퓨어":14553,"이야말로":14554,"레몬":14555,"권고":14556,"도망쳐":14557,"장기간":14558,"비요":14559,"카가미":14560,"라자":14561,"우와":14562,"Power":14563,"태블릿":14564,"임관":14565,"지났":14566,"학계":14567,"대문":14568,"함포":14569,"샴":14570,"##브ᄅ":14571,"사출":14572,"던진다":14573,"##ina":14574,"##대교":14575,"##몫":14576,"튜닝":14577,"Res":14578,"애드":14579,"철회":14580,"정렬":14581,"매개":14582,"넘어간":14583,"스님":14584,"샤프":14585,"##관총":14586,"집결":14587,"후진":14588,"취해":14589,"줘도":14590,"우체국":14591,"내야수":14592,"관하":14593,"아폴로":14594,"뽕":14595,"정거":14596,"퍼붓":14597,"간다는":14598,"보여서":14599,"소절":14600,"형편없":14601,"망령":14602,"380":14603,"퀄컴":14604,"매진":14605,"발전기":14606,"기합":14607,"At":14608,"호전":14609,"섀도":14610,"리전":14611,"무효화":14612,"##소문":14613,"체리":14614,"건전":14615,"터질":14616,"OPS":14617,"도피":14618,"패미":14619,"}}}":14620,"바주":14621,"##ᅡᆼ스":14622,"피스트":14623,"혈액형":14624,"지자":14625,"퇴사":14626,"경쟁력":14627,"여덟":14628,"노엘":14629,"였으니":14630,"256":14631,"입술":14632,"키무라":14633,"추첨":14634,"나고야":14635,"직구":14636,"똘":14637,"SCP":14638,"캐서린":14639,"NG":14640,"접어들":14641,"욕구":14642,"유서":14643,"전전":14644,"이성계":14645,"조달":14646,"Fem":14647,"강성":14648,"금성":14649,"국사":14650,"##범죄":14651,"미ᄅ":14652,"당첨":14653,"자취":14654,"베니":14655,"때때로":14656,"동갑":14657,"카지노":14658,"공휴일":14659,"동참":14660,"속공":14661,"##하하":14662,"##포스":14663,"농협":14664,"섬세":14665,"무너져":14666,"볼리":14667,"캘":14668,"아카이":14669,"존속":14670,"세워진":14671,"볼륨":14672,"##맥스":14673,"맏":14674,"안다":14675,"페가":14676,"타치바나":14677,"##ᅢ신":14678,"총탄":14679,"김영삼":14680,"어쌔신":14681,"코시":14682,"쌓인":14683,"증후":14684,"##ittle":14685,"무빙":14686,"틀림":14687,"타국":14688,"영미":14689,"쑥":14690,"적발":14691,"sm":14692,"경량":14693,"##베리아":14694,"초고":14695,"##아르":14696,"유포":14697,"김택":14698,"Fi":14699,"서사":14700,"질러":14701,"MR":14702,"옵티":14703,"오징어":14704,"직역":14705,"립스":14706,"무소":14707,"색채":14708,"성역":14709,"아르메니아":14710,"MX":14711,"##심장":14712,"악용":14713,"채소":14714,"명대사":14715,"휘말려":14716,"페더":14717,"궤적":14718,"가호":14719,"방어선":14720,"집중력":14721,"여사":14722,"내구력":14723,"애시":14724,"공성전":14725,"부추":14726,"건재":14727,"화가":14728,"허공":14729,"가급적":14730,"코이":14731,"따돌리":14732,"대인배":14733,"Sing":14734,"카노":14735,"조력자":14736,"낙인":14737,"끌어올리":14738,"거제":14739,"본국":14740,"##베르크":14741,"1910":14742,"아부":14743,"FL":14744,"##숨에":14745,"단숨에":14746,"마에다":14747,"장병":14748,"도메":14749,"저널":14750,"쳐다보":14751,"##ERO":14752,"츠나":14753,"SG":14754,"카즈마":14755,"##싹":14756,"##de":14757,"라드":14758,"노기":14759,"##춘다":14760,"가솔":14761,"광탈":14762,"##be":14763,"넥슨":14764,"피드백":14765,"gr":14766,"지켰":14767,"레닌":14768,"궁지":14769,"횡단":14770,"고안":14771,"러시아어":14772,"젊은이":14773,"허구":14774,"부식":14775,"##ello":14776,"베토":14777,"괴리":14778,"공방전":14779,"재고":14780,"##트릭스":14781,"갑작스럽":14782,"정거장":14783,"사육":14784,"타나":14785,"MT":14786,"가명":14787,"태세":14788,"##reen":14789,"SV":14790,"소용돌이":14791,"쿠루":14792,"서진":14793,"##ual":14794,"피라미":14795,"김정은":14796,"피처":14797,"창의":14798,"비니":14799,"승천":14800,"IG":14801,"적진":14802,"생산력":14803,"족장":14804,"##대부":14805,"##삐":14806,"세조":14807,"예장":14808,"억지":14809,"견인":14810,"근성":14811,"돌릴":14812,"로사":14813,"무전":14814,"맞춤":14815,"증세":14816,"##첸":14817,"포지":14818,"막바지":14819,"기미":14820,"복싱":14821,"절규":14822,"##ᅳ레이트":14823,"정명":14824,"줄거리":14825,"##르노":14826,"돌격소총":14827,"통용":14828,"군사력":14829,"하임":14830,"노이즈":14831,"휴전":14832,"주재":14833,"MLB":14834,"##바퀴":14835,"바뀔":14836,"동인지":14837,"데우스":14838,"Pv":14839,"모방":14840,"디펜스":14841,"후후":14842,"Rem":14843,"라지만":14844,"뒤이":14845,"맥도":14846,"건축물":14847,"서킷":14848,"표방":14849,"기보":14850,"카오리":14851,"Ep":14852,"가뜩":14853,"친선":14854,"깰":14855,"추적자":14856,"역병":14857,"##ational":14858,"원격":14859,"쏟아져":14860,"999":14861,"연예계":14862,"대파":14863,"군기":14864,"타시":14865,"##돼":14866,"흘러나":14867,"어인":14868,"수군":14869,"##았":14870,"##riend":14871,"##af":14872,"발상":14873,"아이작":14874,"나왔으며":14875,"히토미":14876,"##ars":14877,"카바":14878,"파이브":14879,"##bs":14880,"신주쿠":14881,"리트":14882,"터진다":14883,"므":14884,"작인":14885,"두부":14886,"##틀ᄅ":14887,"설계도":14888,"소진":14889,"결장":14890,"출몰":14891,"루카스":14892,"Vo":14893,"깊숙":14894,"기한":14895,"카에":14896,"##IE":14897,"가뜩이나":14898,"초당":14899,"슈퍼스타":14900,"정은":14901,"홍준표":14902,"##해군":14903,"양파":14904,"모호":14905,"스타팅":14906,"발악":14907,"후려":14908,"급기야":14909,"숏":14910,"##ivers":14911,"주방":14912,"##퇴근":14913,"수비진":14914,"증후군":14915,"노드":14916,"테이크":14917,"네모":14918,"폭포":14919,"트렌":14920,"##코어":14921,"자유자재":14922,"인벤토리":14923,"조폭":14924,"VOCALOID":14925,"쫓기":14926,"간다고":14927,"양현":14928,"청하":14929,"그려지":14930,"IDOL":14931,"리쿠":14932,"악랄":14933,"꽝":14934,"초선":14935,"오로라":14936,"판서":14937,"럼블":14938,"돌아간":14939,"포트리스":14940,"박격":14941,"고양시":14942,"Leg":14943,"King":14944,"##스러":14945,"수원시":14946,
[...]
