[PAD]
[UNK]
[BOS]
[EOS]
[CLS]
[SEP]
[MASK]
▁▃
▁이
▁하
▁.
▁ㄴ
▁에
▁는
▁다
▁의
▁을
▁가
▁아
▁,
▁고
▁어
▁를
▁지
▁은
▁으
▁도
▁기
▁있
▁되
▁로
▁1
▁었
▁에서
▁ㄴ다
▁그
▁으로
▁사
▁ㄹ
▁2
▁았
▁들
▁시
▁보
▁대
▁라
▁수
▁나
▁것
▁자
▁게
▁전
▁일
▁과
▁주
▁면
▁적
▁만
▁마
▁-
▁와
▁스
▁부
▁정
▁상
▁때
▁모
▁'
▁오
▁3
▁년
▁여
▁인
▁공
▁중
▁유
▁한
▁20
▁경
▁제
▁없
▁지만
▁위
▁비
▁등
▁무
▁거
▁소
▁성
▁:
▁않
▁던
▁미
▁에게
▁개
▁서
▁세
▁4
▁조
▁바
▁며
▁"
▁내
▁장
▁동
▁5
▁방
▁카
▁타
▁구
▁연
▁월
▁신
▁말
▁선
▁안
▁당
▁영
▁때문
▁후
▁까
▁생
▁201
▁화
▁는데
▁버
▁발
▁/
▁아서
▁리
▁더
▁레
▁차
▁크
▁아니
▁원
▁0
▁까지
▁파
▁우
▁강
▁노
▁실
▁라는
▁최
▁데
▁같
▁나오
▁라고
▁명
▁문
▁많
▁단
▁해
▁불
▁번
▁포
▁관
▁특
▁작
▁받
▁6
▁역
▁경우
▁쓰
▁결
▁반
▁다고
▁진
▁프
▁10
▁알
▁드
▁어서
▁초
▁배
▁처
▁면서
▁계
▁보이
▁회
▁S
▁7
▁코
▁남
▁19
▁다는
▁!
▁8
▁물
▁분
▁피
▁으며
▁편
▁현
▁치
▁사용
▁국
▁못
▁두
▁출
▁정도
▁그리
▁사람
▁매
▁야
▁추
▁이후
▁공격
▁달
▁자신
▁니
▁좋
▁따
▁9
▁점
레이
▁호
▁저
▁요
▁패
▁감
▁트
▁A
▁메
▁재
▁캐
▁M
▁통
▁교
▁학
▁등장
▁또
▁예
▁참
▁가능
▁입
▁형
▁설
▁위하
▁속
▁이나
스트
▁군
▁본
▁보다
▁부터
▁플
▁함
▁죽
▁다른
▁대하
▁T
▁C
▁평
▁ᄆ
▁시키
▁외
▁권
▁판
▁게임
▁애
▁버리
▁200
▁살
▁돌
▁종
▁용
▁..
▁토
▁아이
▁는다
▁김
▁음
▁D
▁그리고
▁가지
▁사실
▁B
▁직
▁체
▁%
▁으나
▁심
▁키
▁~
▁듯
▁다가
▁잘
▁맞
▁그러
▁하나
▁만들
어지
▁루
▁변
▁네
▁승
▁운
▁못하
▁행
▁올
▁건
▁확
▁필
▁히
▁디
▁+
▁뒤
▁베
▁간
▁?
▁사이
▁팀
▁일본
지만
▁높
▁이름
er
▁모습
▁12
▁박
▁약
▁P
▁투
▁집
▁시간
▁목
▁이상
▁날
▁였
00
▁존
▁활
▁언
▁거나
▁표
스터
▁능
▁양
▁문제
▁려
▁캐릭
▁하지만
▁L
▁한국
▁각
▁상대
▁테
▁으면
▁캐릭터
▁F
▁생각
▁왕
▁힘
▁병
▁별
▁G
▁잡
▁함께
▁순
▁터
▁손
▁시작
▁ㄴ데
▁천
in
대로
어나
▁따르
▁11
▁항
▁열
▁E
▁완
▁독
▁경기
▁아야
▁다시
▁브
▁막
▁당시
▁프로
▁ㄴ지
▁겠
▁들어
▁능력
▁먹
▁블
▁처럼
▁식
▁폭
▁아도
▁너
▁근
▁효
▁끝
▁가장
▁당하
▁그렇
▁K
▁복
이트
▁시리
▁또한
on
▁증
▁쿠
▁총
▁다만
▁클
▁삼
▁광
▁검
▁빠
▁태
▁페
▁플레이
an
▁15
▁상황
▁느
▁얼
▁새
▁결국
▁상태
▁걸
▁H
▁시리즈
▁R
▁시즌
▁많이
니다
▁누
▁악
▁카드
미지
▁I
▁채
▁모두
▁충
▁N
▁길
▁백
▁싸
▁넘
▁ㄴ다는
▁세계
▁급
▁곡
▁존재
▁슈
▁친
▁m
▁물론
▁전투
▁금
▁러
▁커
▁모든
▁추가
▁앞
▁업
▁엔
▁티
▁그런
▁상당
▁눈
▁여기
or
▁머
▁t
라이
▁산
▁기술
▁스킬
▁임
▁라이
▁매우
▁이런
▁현재
▁자체
▁극
▁달리
▁취
▁실제
▁그러나
▁및
▁효과
▁선수
▁무기
▁합
▁#
▁절
▁엄
▁O
▁레이
▁이것
▁ㅓ
므로
▁팬
▁레벨
▁뿐
▁민
▁스타
ar
▁이유
▁거의
▁다면
▁통하
▁W
▁놓
▁마법
▁난
▁이용
▁벌
▁주인
▁창
▁철
▁모르
▁케
▁부르
▁허
▁황
▁찾
▁역시
▁줄
▁관련
▁16
▁30
▁밀
▁떨
▁인하
▁얻
at
▁환
▁들어가
▁미국
▁같이
▁그래
거리
▁바로
▁란
▁일반
▁처음
he
▁첫
▁18
▁다르
▁지역
▁해당
▁북
▁곳
▁작품
▁13
▁이야
▁붙
▁참고
▁청
▁골
▁워
▁ㄴ다고
이지
▁몬
이스
▁어야
▁탈
▁기본
▁특히
▁아무
▁여러
▁귀
▁나가
▁격
▁돌아
▁필요
▁199
▁인간
▁혼
▁다음
▁좀
▁100
▁부분
▁습
▁이야기
부분
▁c
▁14
▁잠
▁ㅂ
▁영화
▁s
▁는지
▁대학
▁밖
리스
▁사건
en
▁그냥
▁법
▁즉
▁팔
▁없이
▁V
▁기록
▁의하
▁대부분
▁라면
▁방송
▁탄
▁범
지막
▁덕
리아
▁쉽
▁인물
▁주인공
▁자기
▁째
▁수준
▁비슷
▁글
▁둘
▁본인
▁ㄴ가
▁엘
▁어도
▁냐
▁몸
▁몇
▁담
▁싶
▁풀
▁몰
▁제작
▁생기
▁17
▁25
▁방어
▁쪽
▁마지막
▁비하
▁헤
▁만큼
▁k
▁으니
▁떨어지
al
▁ㅂ니다
▁상당히
▁U
▁내용
전히
▁암
▁일부
▁어느
▁강하
▁관계
▁시절
▁진행
▁리그
▁실제로
▁국가
▁갈
▁00
▁학교
▁대신
▁X
▁넣
▁성우
▁슬
▁지나
▁이전
▁그대로
▁대표
▁맡
▁계속
▁질
▁설정
▁밝
▁지금
▁속도
▁애니
▁접
ou
▁준
▁전쟁
토리
▁괴
▁죽이
▁올리
▁알리
es
▁울
▁축
다가
▁규
▁타이
▁보스
▁낮
▁활동
시아
▁위치
▁원래
▁뛰
▁제외
▁동안
▁서울
▁몬스터
▁멀
▁기사
▁만나
▁므로
▁2015
▁피해
▁감독
▁너무
▁우리
▁츠
▁기준
▁의미
▁평가
▁망
it
버지
▁올라
▁육
▁싸우
▁묘
▁대로
▁배우
라지
▁언급
▁이미
▁ㅏ
▁]
▁떠
▁홈
▁중국
▁마다
▁공격력
▁도시
▁온
▁맨
▁직접
▁50
▁성공
▁어렵
▁그녀
▁J
가지
▁메이
▁문서
▁증가
▁빠르
▁그것
이션
▁유저
▁홍
▁엄청
▁과거
▁데미지
▁장면
▁밝히
▁퍼
▁차이
▁자리
▁칼
▁머리
▁논
▁꽤
▁도록
▁[
▁여자
▁희
▁ㄴ다면
▁유명
is
▁최대
▁돈
▁&
▁정보
▁바람
▁멤
▁지원
▁힘들
▁봉
▁유닛
▁버전
▁늘
▁2016
▁2014
▁멤버
▁이루
▁보내
▁든
▁설명
▁개요
▁듣
▁개발
▁씩
re
▁출연
▁뭐
랜드
▁결과
▁로서
▁류
▁바뀌
le
▁깨
▁전체
▁다니
▁혹
▁체력
▁21
▁측
▁소속
▁나타
▁거리
▁마음
▁님
▁방법
▁소리
▁딜
▁친구
▁이렇
▁스럽
▁d
▁파이
▁역사
▁뉴
▁즈
▁협
▁스토리
ic
▁갖
▁영상
▁선택
▁당연
▁링
▁컨
▁프리
▁198
▁아버지
▁그런데
▁씨
▁제대로
▁답
▁센
as
▁불리
▁갑
▁남자
▁22
▁드래
▁조금
▁자주
▁전부
▁놀
▁려고
▁이동
▁아이템
▁<
▁플레이어
▁노선
▁최고
▁압
▁책
▁탑
▁공식
▁주로
▁인기
▁게다가
▁w
▁여성
▁대전
▁빌
▁슈퍼
▁엄청나
▁나이
▁발매
▁보통
▁침
▁나라
▁24
▁빼
▁대사
▁2017
▁정말
라도
▁걸리
▁초반
▁40
▁최종
▁향
▁빠지
▁샤
▁파괴
▁인터
▁이러
▁사랑
▁2013
▁송
▁쇼
▁승리
▁쓰이
▁출신
▁농
▁시스
▁영향
▁찍
ing
▁2018
▁마찬
▁마찬가지
▁버스
▁색
▁드라
▁모드
▁대상
▁방식
▁성능
▁연구
▁동시
▁비교
▁기타
▁아예
▁끼
▁작중
▁성격
▁라도
이드
▁이때
▁사망
▁시대
▁오히
이도
▁습니다
▁항목
운드
▁후반
▁오히려
▁정신
▁서로
▁뜻
▁궁
▁일단
▁우승
▁아직
▁가깝
▁착
▁왜
부터
▁볼
▁수록
▁형태
▁일어나
▁강력
▁유지
▁a
▁심지
▁차량
▁b
▁마이
▁f
▁역할
▁느끼
▁23
프트
▁앨
▁심지어
▁발생
▁학생
학교
▁스테
▁특성
▁끌
▁콘
머니
▁포함
▁누구
▁애니메
▁속성
▁마리
▁소환
▁술
▁모양
▁노래
▁운영
▁만화
▁월드
▁잔
▁원작
▁2012
▁특수
▁오르
▁짓
▁기존
om
아가
▁바꾸
▁중요
▁어떤
우스
▁사라지
벤트
▁움
▁나타나
▁자세
▁억
▁사회
▁h
▁o
▁이기
▁변경
▁르
▁좌
▁섬
▁최초
▁풍
▁애니메이션
▁결정
▁유일
▁층
▁액
▁석
▁이렇게
▁폐
▁거기
▁음악
▁빨
▁흑
▁어떻
▁구하
▁먼
▁과정
▁그래서
▁덕분
el
▁푸
▁회복
▁이벤트
리어
▁마을
▁시스템
▁우주
▁주장
▁모델
▁행동
버스
▁장비
▁부대
▁강화
▁솔
am
▁독일
▁흔
▁싱
▁p
ion
▁부족
▁어리
▁참조
▁맞추
▁국내
▁라인
▁완전히
레이드
▁여담
▁대한
▁난이도
▁영어
▁명칭
▁프랑
▁2019
소드
▁지구
▁휴
▁구성
▁작가
▁바이
나마
▁스트
▁드래곤
▁훈
▁이제
▁확률
▁굉
▁전혀
▁아래
민국
주의
▁뜨
▁입장
▁끝나
▁발동
▁사진
▁곤
▁활약
▁에피
▁새롭
▁숨
▁아들
▁n
▁그나마
▁혹은
▁현대
▁오브
▁따라
▁뽑
▁the
▁특징
▁짜
▁어디
▁정치
▁가격
▁이거
▁26
▁주변
▁더라도
▁날리
▁2010
▁들어오
▁다이
▁대회
▁콜
▁영국
▁굉장
▁던지
▁얼굴
▁내리
▁하이
▁먼저
▁에피소드
너지
▁28
▁자동
▁드러
▁차지
ac
▁맵
▁녹
▁할
▁제국
▁응
ol
▁영웅
▁돌아오
없이
▁잃
▁빛
▁TV
▁드라마
▁밖에
▁27
▁정확
▁하루
▁묘사
▁넘어
▁웨
▁확인
▁시점
▁죠
▁조차
▁히로
▁윤
▁얼마
▁반대
▁대한민국
▁휘
▁회사
▁공개
▁마스터
▁라서
▁견
▁시기
▁돌아가
▁2011
▁표현
▁초기
디오
▁익
▁담당
▁기능
인트
▁실력
▁연기
▁아마
레스
▁000
▁지키
▁계획
▁관리
▁쏘
▁폴
▁동일
▁생산
▁딱
▁무엇
인물
▁딸
▁=
▁맥
▁자유
▁정부
▁실패
▁그렇게
▁모으
et
▁듀
▁순간
▁판매
▁야구
▁사고
▁건물
▁엔딩
▁맛
▁헬
▁등장인물
▁았었
▁개인
▁기관
▁컴
▁뮤
il
▁그림
▁틀
ig
▁이미지
▁심하
▁으므로
▁인정
▁당연히
ed
▁적용
▁으로서
▁교육
▁Y
▁떠나
▁스페
▁경찰
▁반응
▁고등
▁라며
▁앨범
▁세대
▁조건
▁올라가
▁기억
▁랑
▁세이
▁챔
▁오리
▁파워
▁벨
▁60
▁km
▁엑
ow
소리
▁진짜
▁문화
▁족
▁기간
▁미치
▁패치
▁발견
▁움직
▁확실
▁생활
▁퀘
us
BS
▁표기
▁굉장히
▁디자
▁방면
▁도움
▁취급
▁한테
▁퇴
▁땅
▁듯이
▁프랑스
▁패턴
▁현실
▁of
▁무시
로스
▁아주
▁타입
▁처리
▁출시
▁롭
▁자면
▁29
▁소개
▁데이
▁홀
▁패배
들이
▁무장
뜨리
▁려는
▁칸
▁약하
▁킹
▁또는
▁대체
▁헌
▁굴
▁폭발
▁지니
▁단순
▁건담
▁Z
▁겨
▁중간
▁소설
▁결혼
▁그래도
▁프로그
▁지속
▁197
▁훨
▁구간
▁어요
아내
▁한정
▁싸움
▁가족
▁단계
▁계열
▁꾸
▁콤
스크
▁대학교
▁주의
▁나쁘
▁흡
▁35
▁사실상
▁약간
▁방향
▁조선
▁발사
▁랭
▁밀리
▁31
▁어머니
▁훨씬
▁어떻게
▁이번
▁v
▁구조
▁린
▁빈
▁아르
▁The
▁경험
▁위험
▁쉬
▁상승
▁ㅕ
▁중심
▁다루
▁아군
▁죄
▁세트
ad
▁ㄹ지
▁노리
▁믿
▁피하
▁동료
▁싫
▁블랙
▁운동
▁남기
▁덱
▁더욱
▁활용
▁특별
▁분위
▁욕
▁요구
▁졸
▁2000
▁상위
▁범위
▁읽
▁낙
으키
▁포켓
▁숙
▁운행
▁r
▁분위기
▁똑
이크
▁쿨
▁80
▁핵
▁쌍
▁탐
▁디자인
▁수비
▁불구
▁혼자
▁탓
▁물리
니아
▁감소
▁소모
▁시장
▁유리
▁목적
▁St
▁중앙
ER
▁여전히
▁옆
▁뛰어나
▁얘
▁지하
▁그룹
▁꼬
비스
▁흐
▁밤
▁웃
▁염
▁트리
▁나중
머지
▁나머지
▁다양
▁기에
▁37
▁500
▁묻
▁진출
▁론
▁내려
id
ot
▁율
▁항공
and
▁켄
▁설치
▁브라
ay
▁전용
스로
▁흥
▁그거
▁괜
▁세력
▁방영
▁다며
아오
▁기체
▁전차
▁꿈
▁이어지
▁프로그램
▁잘못
▁일으키
▁즐
▁축구
▁부산
러지
▁포인트
▁고려
▁런
▁러시아
ve
▁갤
▁이라
리카
▁미사
▁세우
▁선발
▁번역
▁느낌
ch
▁넘어가
▁으면서
▁종족
▁성장
▁시청
▁미션
▁90
▁변하
▁포켓몬
▁퀘스트
▁붙이
▁시도
▁각각
un
▁스테이지
▁대미지
▁스피
▁주요
▁계약
▁득
▁굳
티브
20
▁비판
▁크리스
▁mm
▁획
▁참여
▁도망
▁돕
▁성적
▁어찌
▁열리
▁l
▁고등학교
▁로봇
▁타카
▁녀
▁짧
▁가리
▁절대
▁전문
▁턴
▁투수
▁데뷔
▁거대
dd
▁마저
▁과학
▁벗
▁유니
▁애초
▁부활
▁옵
▁척
▁훈련
▁셈
▁나무
▁70
▁준비
▁렌
▁해결
▁충격
▁이해
▁만드
▁지방
▁털
▁배틀
▁논란
▁챔피
▁칭
▁스스로
▁가끔
▁일행
▁징
▁터지
▁경제
▁바라
▁생명
▁비행
▁오래
▁g
▁펼
▁배경
▁요소
▁소녀
▁삭
▁전설
▁엔진
▁조직
▁부상
▁전작
▁철도
▁벌이
▁똑같
▁규모
▁야마
▁량
▁률
통령
ro
▁도중
▁정상
▁움직이
▁벌어지
▁끊
▁자랑
▁옥
▁이루어지
▁발표
▁2009
▁큐
▁삼성
▁롤
▁무리
▁의견
▁충분
▁일정
▁랜
▁기대
▁덤
▁학년
▁죽음
▁벽
▁01
▁변화
▁스파
▁밴
▁혈
▁스카
▁직업
▁팩
▁최근
▁사이트
▁정체
▁...
▁유럽
▁45
▁스타일
어들
▁빅
▁ㄹ까
▁작전
▁기동
▁마치
▁ㄹ로
▁보호
▁공중
▁이쪽
▁예정
▁종류
▁대통령
▁아프
▁조합
▁품
▁전하
▁목소리
▁연속
▁300
다니
다리
▁요리
▁록
▁정작
▁제목
▁올라오
▁근접
▁십
▁전사
스타
▁버프
▁별로
▁신경
▁력
▁다리
▁지도
▁안타
▁장착
▁반면
▁연출
▁세상
▁빙
ir
▁나름
▁아키
▁자연
▁추정
▁32
▁냉
▁악마
▁캠
▁카이
▁대화
▁소재
▁라운드
▁수도
▁그만
▁번호
▁타격
ter
▁전기
▁탱
▁로부터
▁남성
▁저지
▁뒷
▁국제
▁제공
▁참가
▁등급
▁196
▁멸
▁연합
▁다크
▁획득
▁방어력
▁판정
수록
▁늘어나
▁동물
▁링크
▁비롯
▁따로
▁후보
▁아라
말로
▁곧
▁의외
▁당신
▁수정
▁아이돌
im
▁만약
자기
▁배치
▁각종
▁)
▁위기
▁정식
▁롯
▁교통
▁연결
▁래
▁관심
디어
▁안정
▁케이
▁극장
▁48
▁레어
▁던전
▁가르
▁나누
▁개념
▁항상
▁센터
▁사업
▁얘기
▁수상
▁시험
▁사례
▁내부
▁분노
▁쥬
▁찌
▁특정
▁가져
지션
▁레인
▁북한
▁황제
▁에너지
▁맹
러스
▁이외
▁돌리
리오
▁2008
▁민주
▁으려
▁변신
▁단점
▁지휘
BC
▁파일
▁사격
▁종료
ub
▁힐
▁단어
▁제일
나라
▁필드
▁cm
▁나이트
ag
▁놈
▁36
▁루트
▁조사
▁발전
▁따라서
▁크리
▁공연
▁향하
▁쯤
▁장갑
▁더불
▁지상
▁넓
▁물건
▁넘기
▁y
▁사정
▁미래
▁한편
▁스포
▁션
너스
▁인터뷰
동안
▁챔피언
▁33
▁이르
▁괜찮
▁사냥
▁클래
▁서비스
▁엘리
▁각성
▁외국
▁기계
▁거치
▁선거
▁점수
▁펼치
▁군사
▁x
▁최소
▁특이
▁*
라인
▁기업
▁옷
데이트
▁파티
▁아카
이치
▁업데이트
▁Lv
▁닥
▁이탈
▁살리
▁별명
트리
▁인구
▁인식
믹스
▁완전
▁사항
▁e
▁어쩌
▁코스
▁깔
▁시설
▁튀
▁해군
▁시티
▁국민
▁시전
ur
▁바르
▁화력
▁세기
▁띄
▁도로
od
▁로드
▁05
▁납
▁히트
야마
▁일러
▁조종
▁고속
▁하늘
어로
▁위력
▁제한
os
▁직전
▁달성
▁프레
▁니까
▁제품
▁닌
▁생존
▁최강
▁02
▁상관
▁가수
▁쌓
▁비밀
▁그야
▁개그
▁SK
▁th
▁마나
▁드러나
▁점프
▁오프
▁마시
▁03
▁순위
ST
▁삭제
▁',
▁교체
▁감정
▁때리
▁옛
▁히어로
▁사기
▁홈런
▁장소
▁일러스트
▁싱글
▁위원
▁벤
▁보유
▁전국
▁언제
▁역대
▁그야말로
▁목표
▁녀석
▁EX
▁학원
▁본래
▁몽
▁부모
▁압도
▁군대
▁명령
▁왼
▁이끌
▁목록
▁뇌
▁요시
▁려면
▁깊
▁더니
▁분류
▁가드
▁주제
▁출전
▁꽃
보이
▁은데
▁느리
▁독립
▁펜
▁붕
▁픽
▁잇
▁2007
모토
▁갑자기
▁무슨
▁잉
▁포지션
▁누르
▁마사
▁예전
▁멘
▁공간
▁워낙
um
▁연재
▁탈출
▁사거리
▁아스
▁속하
▁위키
▁진화
▁데스
▁병력
▁어둠
igh
▁전개
▁34
▁라이트
▁표시
▁지내
▁ㅏㅆ
▁폰
아들이
▁HP
ff
▁작업
▁중반
▁작곡
▁병원
▁떡
▁고양
▁예상
▁태어나
ut
라스
▁소련
▁크기
ent
▁포기
▁가문
50
▁베이
▁꺼
▁레드
▁의식
▁원인
▁09
▁병사
▁수치
▁낫
▁건설
▁컬
▁밑
▁톤
▁겪
▁노력
▁04
▁현상
▁겸
▁텐
▁살인
▁보상
▁거두
▁노트
▁높이
▁무대
▁정하
ak
▁전력
▁키우
트라
▁살아
▁행위
▁갖추
▁장점
▁마르
▁강제
▁포스
AR
ver
▁ㅓㅆ
▁졸업
▁윈
▁07
시마
▁카운
▁찬
▁08
▁클리어
▁미사일
학생
▁동생
▁부정
▁오른
▁06
▁효율
▁무려
▁칠
▁전자
▁웹
▁경쟁
▁아파
▁도쿄
▁비중
▁롯데
젝트
ec
▁임무
▁차원
▁숨기
▁뿌
▁194
▁확정
▁도입
▁Q
▁크로
▁고정
▁새로
▁티어
▁인천
▁이어
▁짐
▁으로써
▁드리
▁덜
▁발음
▁전반
마자
▁부하
▁이하
▁해외
▁근처
▁잠시
▁2006
▁화면
무라
▁완성
▁관하
▁필살
▁음식
▁인터넷
▁가면
▁집중
▁주문
▁보병
▁지지
▁촬
▁신체
▁꼭
▁인사
▁무한
AN
▁공주
▁파트
▁셋
▁인도
▁아무리
▁오리지
▁평균
▁분명
▁결승
▁정확히
▁라이브
▁하드
▁마법사
▁잡히
▁쫓
▁38
▁평범
▁가사
▁판단
▁한글
▁쓸
▁타임
▁버티
▁밸
▁택
▁>
▁근데
▁빌리
▁여행
▁굳이
▁붉
▁환경
▁재미
▁나서
▁유사
▁옮
▁주민
▁행정
▁수행
▁종교
루스
▁종종
▁촬영
▁꾼
▁kg
▁캡
▁몇몇
란드
▁발언
▁완벽
▁폭탄
▁기반
이어
▁줄이
아하
▁반드
▁비용
페이지
▁반드시
▁받아들이
▁선생
▁대장
▁에게서
▁단체
조건
▁다수
▁제거
▁랭크
▁직후
▁뻔
▁실험
르트
▁광고
▁심각
▁홈페이지
▁아내
▁패러
▁봉인
▁즐기
▁성향
▁플래
▁운용
▁공포
▁좋아하
래프트
▁이라고
▁페이
▁빨리
▁밴드
▁치료
▁버그
▁기다리
▁점점
▁옵션
▁오버
▁자원
▁미니
▁킬
▁전략
▁무조건
▁LG
▁암살
▁in
▁FC
▁잭
무리
▁앞서
▁조작
▁아파트
▁대구
▁지배
▁도전
▁대결
▁앙
▁단지
러리
▁디스
▁함정
▁대중
▁냐고
▁다소
▁코드
▁기회
▁특유
▁옮기
▁한계
▁컵
▁샷
▁구분
▁끝내
▁본격
▁바다
▁통합
▁다행
▁접근
로그
▁왕국
그레이드
▁소년
▁업그레이드
▁모이
▁개조
▁골드
▁따지
▁월드컵
▁흘
▁연장
▁늦
▁밥
▁고자
▁저항
▁사쿠
▁의사
▁추측
운데
▁외모
▁모자
▁시나
▁금지
▁빵
▁수많
▁군단
▁책임
스케
▁최후
▁you
▁템
em
▁정리
▁복수
▁오늘
▁쿄
아보
▁범죄
▁확장
▁오리지널
▁복귀
▁장치
▁을지
▁열차
▁부탁
▁ㄴ지라
▁는가
▁치명
ON
▁다운
▁소유
▁타이틀
▁구매
▁멋
▁스코
▁일본어
▁웬
▁MA
▁줄어들
▁디지
▁2005
▁언어
▁형제
▁젊
라이더
▁멜
▁에이
▁교수
▁부여
▁광역
버리
▁대기
▁득점
▁우선
▁브레이
▁고대
▁자마자
▁vs
ight
▁상징
▁평소
▁to
요일
ation
▁투입
▁55
▁삼국
▁혁
드리
▁가운데
▁달러
▁흉
▁인상
▁사령
▁불가
▁터미
▁대단
▁유우
▁간단
▁75
아지
▁99
▁스포츠
▁II
▁추천
▁고르
▁형식
▁영혼
▁로마
▁장르
▁해석
▁가치
▁이곳
▁2004
▁숫
▁정의
퓨터
▁앤
▁걱
▁충분히
▁자동차
▁희생
▁대형
ce
▁걱정
▁사무
▁기념
▁와중
▁얼마나
▁이닝
▁Ch
▁주력
▁ㅏ서
리트
▁리더
IN
▁입히
▁사상
▁아쉽
▁일종
▁생물
▁뚫
▁탈락
▁카오
▁망하
비아
▁카즈
▁이탈리아
▁마크
▁도착
▁마무리
런스
▁행성
▁사태
▁마력
▁스크
ap
▁비싸
▁컴퓨터
▁전화
▁인류
▁채우
▁불명
▁극장판
▁KBS
▁42
▁취하
▁이치
▁는다는
▁네이
▁폼
▁공화
000
▁재료
▁필살기
▁섞
▁잊
▁냐는
▁육군
▁PC
▁회피
▁1000
▁지정
▁무사
▁그저
▁통신
▁기지
▁닉
▁39
▁도망치
▁거부
▁서버
▁가정
▁MBC
▁셀
▁끄
▁전통
▁프로젝트
▁공략
▁먹이
▁쥐
▁엠
▁빼앗
▁행사
▁액션
▁구단
일러
ul
▁2002
▁서술
▁로스
▁단순히
▁시민
▁락
▁올림
▁목숨
▁비트
▁한국어
▁장난
▁료
▁대비
▁자료
니티
▁의도
▁보조
▁살아남
▁보너스
▁값
▁불과
▁넥
▁뿌리
▁41
▁집단
▁_
▁닮
▁더블
▁드립
동생
▁아웃
▁저지르
▁의지
▁전술
▁덩
▁박사
▁전원
▁데이터
▁괴물
▁합류
▁연주
▁구역
▁눈물
▁제로
▁실수
레이션
▁검사
▁랄
▁합치
▁딱히
▁컨셉
▁흡수
▁벗어나
▁카메
▁라디오
▁제도
나가
▁윌
▁적절
▁장군
▁빔
▁겹
▁숫자
▁맺
▁클럽
▁상대방
▁후속
ri
▁위협
▁고양이
▁함대
▁조정
▁화염
▁오토
▁타자
▁드러내
▁유키
▁대응
▁정규
▁편하
▁텔
▁장기
▁마츠
려가
▁수리
▁44
▁연습
▁저격
▁독자
려오
▁감안
▁드라이
▁앉
▁모티브
▁케이스
▁꼴
▁듀얼
▁시내
▁느냐
니까
자리
크래프트
▁약점
▁릴
▁반복
▁무섭
▁몹
▁떼
▁날개
▁기어
▁격투
▁보컬
▁지나가
▁풀리
▁들이
▁테마
니스
▁에이스
나이
모리
▁터미널
▁닥터
▁테크
▁개월
▁43
▁대놓
▁꾸준
▁들리
▁바닥
RA
▁설계
▁확실히
▁분리
▁이적
nd
▁그때
▁오랜
▁공항
▁시나리오
▁상세
▁회전
▁종합
▁공동
▁댄
▁이사
▁친하
▁코어
▁미리
▁서브
▁지나치
▁BG
타임
▁2003
▁에어
▁숲
▁투표
▁가하
all
▁요청
▁성인
▁유도
▁체제
▁페르
▁필수
▁세계관
▁지명
▁패러디
▁쓰러지
▁병기
▁소식
▁계기
▁훌
▁정책
▁날아가
▁당장
▁클래스
▁인지
AL
연히
▁컷
▁스탠
▁ST
▁51
ia
▁쳐
▁지적
▁메탈
▁지옥
▁펀
▁착용
로드
로우
▁광주
ack
▁스페인
st
▁전환
▁꼽
▁셰
tt
오르
▁오오
시스
▁채널
▁150
▁긴
uby
▁인원
▁부리
▁부수
▁미스
▁어라
▁195
▁로써
▁초등
▁스마
▁촉
▁아머
▁진정
▁승부
▁파이터
▁방패
▁선언
▁소울
▁뉴스
▁가슴
▁산업
▁편성
▁찾아오
▁관통
▁47
oc
▁배신
▁무력
▁보급
▁방해
▁온라인
▁궤
▁회장
▁중학교
▁SP
▁베이스
어내
▁차례
▁원하
래도
▁원거리
▁등등
▁모험
▁핑
▁나카
▁공사
▁소비
▁크로스
▁ruby
▁한자
▁아무래도
▁VS
▁은퇴
▁습격
▁PS
▁리어
▁에스
▁46
▁등록
▁올림픽
▁상처
art
▁언론
▁그리스
▁원정
▁관광
▁울트라
올리
▁안습
▁걷
▁엉
▁가면라이더
▁잠깐
▁특기
▁적극
▁묶
▁드물
▁놀라
▁st
▁64
▁안전
▁연계
▁저주
▁흔히
▁혐
▁카페
▁으로부터
울리
▁통과
▁토스
ra
▁인형
▁공부
PC
▁판타
▁버튼
▁후지
▁의심
▁데리
▁동맹
▁가스
▁실시
▁구축
▁후반부
▁마왕
▁멸망
▁여름
▁무게
▁마침
▁미군
▁위주
▁아사
▁혜
▁i
라리
▁MP
▁거짓
▁승강
▁카운터
▁선정
▁유래
▁겨우
▁명중
▁가볍
▁핸
▁실점
▁블루
▁국회
▁교회
▁게이
▁흐르
▁초대
유키
▁역전
▁공군
▁엄마
▁or
▁and
▁No
▁오프닝
▁코치
▁뱀
▁정당
▁랍
▁달라지
거나
▁스펙
▁진입
▁아름
▁개선
▁게시
▁태도
▁퓨
▁레이저
▁In
AT
레인
▁고서
▁밸런스
시브
▁민족
▁사장
▁최악
▁영입
▁투자
▁체인
▁수호
▁코스트
▁자라
▁리스
▁희망
op
▁ㅓ서
▁왼쪽
▁그레이
▁질문
▁ㄹ수록
▁태양
▁눈치
▁계급
▁시체
▁안드
▁챙
▁표정
▁코너
▁고통
하라
▁가까
▁코믹스
▁400
▁그라
▁373
▁어울리
▁멀티
▁깎
르크
▁은근
▁설립
ie
▁쓰러
▁수단
▁모션
▁조각
▁스위
▁삽
▁미야
▁분야
▁텍
▁퍼지
▁갓
▁미나
▁솔로
▁하위
▁룰
▁황금
▁하트
▁남편
트롤
▁탑재
▁대원
est
▁제압
▁따위
▁킥
▁dd
▁사단
▁스피드
▁군인
▁끼리
무원
▁의문
▁대놓고
▁막장
▁방문
▁2001
▁매일
▁견제
▁비디오
▁CD
▁진영
▁소드
OR
▁셔
▁대답
▁용병
▁경력
IA
▁확보
▁비난
다수
붙이
▁애매
▁귀엽
▁가져오
▁멈
▁콩
▁좁
머리
▁기자
▁차별
▁선보이
▁자식
ill
▁프라
▁아름답
▁주연
▁행적
▁튜
▁중단
▁193
▁기점
▁사과
▁엑스
▁오스
▁온갖
▁자살
▁청소
▁수원
▁지식
▁본선
▁고급
▁꺼내
▁개봉
▁사카
▁구입
OS
워하
▁노동
▁탯
▁겹치
▁살해
dddd
▁dddddd
▁돌파
▁패스
▁을까
세이
▁낳
▁해제
▁유용
▁롱
▁라이벌
▁1990
▁어린
▁로켓
▁외치
▁브랜드
▁52
▁메가
▁기획
▁아시아
ik
▁트랙
PS
▁선물
▁닌자
▁개편
▁진실
다르
▁장전
▁Re
▁공통
▁융
▁조준
▁체계
▁컨트롤
▁%,
▁내려가
▁예선
▁단위
▁멀리
▁렉
▁어차
ate
▁시청자
▁편집
▁이스
▁은행
▁스파이
▁미드
▁어차피
달리
▁늘리
▁장애
워드
▁는다고
▁발휘
▁자이
터리
다지
▁전장
▁붕괴
▁멈추
▁틈
▁경계
▁랩
▁부담
▁용도
▁계산
▁65
즈키
▁납치
▁인생
▁신화
▁오른쪽
▁행복
▁건너
▁순수
▁연예
▁외부
▁룡
사카
▁Sh
th
▁평화
▁대다수
▁경유
▁널
▁스트라이
▁궁극
IC
▁가르치
▁실질
▁귀족
▁의원
▁펠
▁갱
▁점령
▁현장
▁창작
▁떡밥
▁최대한
▁내놓
▁횟
▁우수
▁정령
▁가이
▁소프트
▁여왕
▁챙기
▁측면
▁도서
▁스케
▁그다지
▁젤
ttp
▁영역
▁포르
▁http
▁56
▁제안
▁게이지
▁주목
바이
▁탄생
▁찌르
▁헤드
▁커뮤
▁작성
▁규정
▁탑승
▁여부
▁바탕
▁경향
▁갈리
가락
카와
▁꾸준히
▁체육
▁니시
리티
▁갤러리
▁치르
▁몰리
ED
▁순서
▁러브
▁오해
▁승강장
▁얼음
▁업체
로이드
▁운전
▁타이밍
두르
▁이성
▁생성
▁상자
어리
▁요원
▁릭
▁정류
▁막히
▁살짝
▁도구
▁모리
▁돌격
▁저런
▁카메라
▁박스
▁넷
▁Sp
▁부인
▁공화국
▁동네
▁테러
▁개최
마스
▁훌륭
▁선배
▁완료
▁횟수
▁120
▁판타지
▁제시
▁54
▁마녀
▁짜리
▁트위
▁정말로
▁유희
▁고유
▁2020
▁쿨타임
AS
▁49
▁장수
▁통일
▁뮤직
▁약속
▁지하철
아먹
▁반영
▁삶
▁53
▁디아
▁나뉘
▁자르
▁레전
▁블레이드
▁생일
▁전대
▁춤
▁기분
▁보정
▁회의
▁카나
▁일부러
▁뱅
▁문명
▁비고
▁갑옷
▁교사
▁SBS
▁집안
▁습득
▁왕자
▁퀄
▁문자
ess
ab
▁You
▁파이어
▁한화
심히
▁편의
▁신세
EN
▁자격
▁동방
▁군주
▁허용
▁짝
▁공장
▁미츠
▁수요
▁폭풍
▁공원
▁윙
▁대우
▁아오
▁라스
▁페이지
스티
▁커버
▁괴롭
▁예술
▁없애
▁스프
▁지점
▁걸치
▁마도
▁캔
▁85
▁응원
▁비록
▁플라
▁베르
▁Bl
▁업무
▁유비
피스
▁천사
▁알렉
▁마인
▁한때
▁상품
▁써
▁키리
▁흔하
▁대공
▁토모
▁낚
▁짱
▁여신
▁적당
▁홍보
▁ㅕ서
▁이론
▁출발
튜브
▁공기
▁노멀
▁쏟
▁직원
▁유튜브
▁지우
▁커맨
▁소수
▁끌어
▁설득
▁파일럿
▁보수
▁거절
ct
▁단독
▁비율
▁재생
▁소문
▁협력
▁레오
▁스페셜
▁뒤집
아리
▁기기
▁혼란
▁충돌
▁다시피
▁ㅓ야
▁가로
▁거주
▁그래픽
▁파악
▁후쿠
▁우려
▁겨울
▁보도
eat
▁미소
텐츠
ard
▁회수
▁문제점
▁트레이
▁덴
▁그만큼
▁전함
▁여동생
▁댓
▁이슬
▁환승
이터
▁대륙
▁무적
▁근무
▁수사
▁57
▁쓰레
up
▁취소
▁맡기
▁출처
▁트위터
▁영원
▁AT
▁따오
▁격파
▁든지
▁충전
▁66
▁흘리
▁MS
▁반란
▁메이저
▁용어
▁봄
▁팝
▁패시브
▁아리
▁묵
▁사이즈
▁DJ
▁가입
▁본명
▁랜덤
LC
▁핵심
▁운명
▁전형
▁건강
▁커뮤니티
▁실행
▁박살
▁장교
▁가까이
▁1999
▁사쿠라
▁NPC
트로
▁언니
▁수입
▁분석
▁AC
▁나루
▁밟
▁내려오
▁오류
▁사토
▁별개
▁수학
아버지
니어
▁전투력
▁형성
▁사운드
EC
ine
▁증거
티컬
▁웨이
▁열심히
▁화살
▁예외
▁연상
▁내내
ant
▁76
▁거래
▁주년
▁아침
가와
▁샌
▁섭
▁타케
ist
▁쓰러뜨리
히로
▁섹
▁머신
▁심장
▁아메
▁아나
▁바보
▁카르
▁95
▁초월
▁권력
▁처하
▁AP
▁제조
▁카미
▁서포
▁상하
▁신뢰
모로
▁연애
▁강조
▁연방
▁만족
OL
▁암흑
▁BGM
▁붙잡
▁전투기
▁CP
▁피해자
▁상향
▁정권
▁고기
▁이마
▁레전드
▁늑
▁58
▁개통
▁헌터
피아
▁스코어
사키
디션
▁제법
▁피아
▁본부
타인
▁찾아가
▁여러모로
▁다행히
▁변형
▁오로
▁자고
▁겟
▁기절
▁고민
▁재능
▁뛰어
파이어
▁화이트
▁고교
▁주도
▁연사
▁위원회
▁주먹
▁복장
▁푸르
▁잖
▁77
▁말리
▁매치
▁옛날
▁키스
▁TH
▁찰
▁re
▁마스
▁민간
ue
▁트라
▁페이스
▁72
▁쿠로
▁파이널
▁무너지
PG
▁불꽃
▁아가
▁우스
▁부진
타로
▁제기
더스
▁대만
▁엘프
▁1998
▁별도
도우
▁마술
▁실드
ip
▁댄스
▁62
AM
▁98
▁전공
▁네이버
▁com
▁젠
▁아요
ind
▁옹
▁가져가
겨나
▁총기
▁함선
▁절반
▁고생
▁88
▁심리
▁발매되
▁게이트
▁삼국지
▁크루
▁Al
ore
나다
츠키
돼지
아나
▁간부
▁스티
▁덮
▁사전
▁당황
▁채용
▁불만
▁화장
▁지급
▁낭
▁선호
▁검색
고기
▁프레임
자키
▁아프리카
▁적히
▁추적
오리
▁재판
▁해방
▁웬만
▁폭주
one
▁후속작
▁고전
▁학살
ang
▁레인저
▁한국인
▁Th
▁조조
▁표준
▁요즘
▁근거
▁블러
▁라이더
▁동영
▁동원
▁입력
세우
▁작용
▁계승
▁곰
▁고치
▁추락
▁히데
▁쇠
▁마이크
▁돌아다니
▁균
▁진지
식간
▁합체
IT
▁화려
▁경기도
▁순식간
▁800
▁'.
▁커플
▁통제
▁동영상
스트라
▁띄우
▁크리티컬
▁어택
▁지형
▁대대
▁SS
▁학과
▁카오스
▁외국인
▁명예
▁랜드
▁늑대
▁테이
▁요새
ell
▁오빠
▁믹
▁현지
▁일상
▁틱
▁쓰레기
▁....
▁아트
▁누리
어스
바로
▁교환
▁권총
▁600
▁지르
▁핀
▁제하
▁최상
▁해병
▁카라
어버리
의원
▁양산
▁닿
▁시야
▁전철
▁부품
▁해설
들리
▁반지
▁클라
▁메카
▁환상
▁59
▁김성
▁수술
둥이
▁제작진
▁드디어
▁혁명
▁타워
▁덧
▁사마
▁지시
▁미디어
▁구현
▁전선
▁불편
▁토리
▁요괴
창기
▁증명
돌리
▁사자
▁지대
▁시각
if
▁시드
▁제자
▁!!
▁정지
▁트레
▁소멸
▁수송
▁갈등
▁소총
▁탱크
▁퀸
▁파라
▁아무런
▁정류장
▁쌓이
▁처치
▁대체로
▁호환
▁하고
▁매체
FA
▁근육
▁리메
▁1997
▁어지
▁이승
▁레스
▁캐스
▁유형
▁마련
▁매력
▁마구
▁영업
▁연대
▁자는
▁불안
ort
▁61
▁스토
▁중계
▁리버
▁폐지
▁몰래
▁전적
▁즉시
▁겉
▁반격
▁복잡
▁알아
퍼스
▁초창기
▁클로
▁령
▁전직
▁쾌
▁배트
▁수업
▁소닉
▁경비
▁테스트
이즈
▁네임
▁공작
▁깃
▁폭격
▁스카이
▁프린
저히
▁경영
▁상상
도로
ive
▁191
▁테일
큐어
▁동기
▁극단
▁작사
▁출현
어도
ok
▁지켜
ld
▁묘지
▁두산
▁신장
▁굽
▁신고
▁둘러
▁",
▁마루
▁해금
▁맞서
▁공유
▁스마트
▁쟈
▁커맨드
▁텔레
▁볼트
VE
▁조절
▁작동
▁출판
▁폭력
▁탁
▁압박
▁스톰
▁이랑
▁인수
▁마주
▁잠수
▁태우
▁구도
▁룬
▁연관
▁KO
▁콜라
▁참전
▁1980
▁아티
▁브리
▁휘두르
▁장관
ers
▁리메이크
지컬
▁조용
▁반하
▁배차
▁동작
▁가득
▁악역
▁공산
▁그림자
▁요정
▁농구
▁한방
▁조지
▁신분
▁국적
▁이리
▁언제나
▁전방
▁장식
▁알파
▁묻히
▁연도
▁지켜보
▁렙
▁오픈
▁환자
▁NC
▁뉴욕
▁널리
▁외계
▁사령관
ove
▁평타
▁An
▁등판
조리
▁왠
▁어깨
▁똑같이
▁찾아보
▁서양
▁절망
▁엮
ain
▁흥행
▁브라질
▁출생
▁프리큐어
▁적어도
▁물질
일리
▁출장
▁돌진
▁시행
지마
▁익숙
▁나타내
▁아크
▁겐
▁74
▁착각
▁노예
▁노출
▁분기
▁은근히
▁내주
▁모바
▁간격
▁중대
▁팅
▁간혹
▁게시판
▁신청
▁어쨌
▁미카
▁유령
▁사양
오카
▁범인
▁스타크래프트
드라
▁글자
▁Se
▁코우
▁되찾
▁남부
▁프리미
▁63
웨이
▁주위
▁입학
▁고향
▁신문
▁저그
서트
▁마냥
광역
▁사이드
▁슈트
▁경험치
▁보장
▁무난
▁강철
▁96
▁훔
▁1996
▁자이언
MA
ong
▁추진
▁브레이크
▁탄약
▁DLC
▁써먹
▁구출
▁종점
▁주어지
▁메모리
▁유희왕
▁딜러
▁전시
전자
▁대량
▁스톤
보내
▁71
▁유행
▁68
▁아무것
▁이시
▁전역
▁MAX
▁KT
ith
▁an
▁부위
▁AK
▁보물
▁썰
▁출력
▁이즈
▁챠
▁97
▁틀리
▁감사
▁세월
▁에다
▁통상
▁문장
성기
▁었었
▁창조
▁객
웨어
▁스킨
▁감염
▁해체
▁흠
광역시
▁대립
▁차라리
▁제이
▁맞이
▁당선
▁시즈
▁주소
ast
EM
▁끼치
▁북미
▁도서관
▁댓글
▁기독
▁핸드
▁멋지
▁께
▁매직
든가
▁이란
펙트
▁기습
▁넘치
▁겁
▁대략
▁베트
▁하야
▁공학
▁만든
▁하필
▁호평
▁상당수
end
▁샘
위대
og
▁은하
▁중화
▁73
톨릭
▁부문
▁리아
▁US
▁스튜
▁플레
▁도망가
레이터
▁빗
▁둔
▁1995
▁거짓말
▁실리
▁종이
▁리얼
ew
▁제주
▁인증
▁이슬람
▁ㅕㅆ
▁융합
시오
▁돼지
▁리치
던가
▁김정
▁무료
▁멕
▁대충
▁는지라
▁서부
라이언
▁멀쩡
▁용사
▁신성
▁빡
요시
▁결말
▁추격
▁둥
▁고백
▁타마
▁회원
▁라이프
려움
▁번개
▁꺾
▁모바일
▁유이
▁점차
▁외교
▁편지
▁앱
▁결론
▁육체
▁녹음
▁세이버
▁이자
▁달하
▁67
▁관객
▁메시
▁입수
▁음성
▁훔치
▁퀄리티
▁앵
▁먹히
▁아시
▁수련
▁오카
▁엔터
▁갤럭
▁신인
▁야스
▁타점
▁죄다
▁기원
▁블로그
▁이래
▁향상
▁특화
▁예비
▁긍
미야
▁가톨릭
▁ff
▁78
▁공급
▁정복
▁요코
▁81
▁He
▁너무나
▁;
▁가속
▁놓치
▁기독교
▁그곳
▁유로
▁조치
▁콘서트
▁기병
▁맘
▁슛
▁츄
▁아기
▁단일
디아
▁음반
▁카타
▁위장
듀서
▁프로듀서
구치
av
▁들어서
▁동화
▁캐스팅
▁헨
▁협회
▁아우
▁가게
▁바라보
▁THE
버트
▁신기
▁마리아
▁반발
리그
▁전달
▁소화
▁깨지
▁192
▁훗
▁프라이
▁펀치
러나
▁현역
▁주전
▁JR
▁고용
▁썩
▁무효
▁가량
▁피부
레나
▁180
▁뭉
▁과목
▁가상
▁91
▁갤럭시
▁국군
▁마키
▁게스트
PM
▁블리
▁루시
쟁이
▁오가
▁메인
▁일원
▁웹툰
▁횡
▁꼬리
ly
▁진심
▁국회의원
▁입구
▁세이브
▁}
▁HD
▁오후
티나
▁리스트
▁신규
▁문학
▁뜯
▁마리오
▁태그
▁더라
▁메타
▁기사단
▁팔리
▁바리
▁수집
▁털리
▁홍콩
▁차리
▁임시
▁조심
se
▁이득
보드
OT
▁심판
▁청년
▁울산
▁짤
▁헤이
▁SD
▁전면
▁후기
▁250
▁제어
▁내구
▁고문
▁섀
▁연구소
▁파리
▁신라
▁베스트
▁내장
▁1994
▁람
▁대개
▁괴롭히
란색
IS
▁침공
▁84
▁익히
BO
아웃
▁부부
▁쿼
▁길드
▁수영
▁잡지
▁켈
▁립
AC
가시
▁지능
잡이
▁뼈
▁MV
▁구멍
▁상점
▁여론
▁킨
▁의무
▁파트너
▁인공
▁톱
▁섞이
▁육성
▁카스
▁영토
▁불러
▁아끼
▁그치
▁기종
▁j
나무
▁여지
▁강의
▁헤비
구리
▁망치
▁작화
▁아일
▁슬롯
▁자매
▁손가락
▁어른
▁지휘관
▁한번
▁SN
▁최소한
▁경상
▁원수
▁정면
코토
▁연인
릭스
▁터키
▁일반인
▁타이거
▁본작
▁예능
▁쿠키
▁한마
▁디지몬
▁연타
▁Ar
▁몰아
크스
▁인근
▁노부
▁Le
▁사우
▁어린이
▁MC
FC
▁감시
호사
브리
어나오
▁외전
▁명중률
▁De
▁성과
▁파견
▁에드
▁방사
끄럽
▁인지도
▁식사
▁여유
▁69
▁가시
▁교전
▁잖아
▁대항
▁오랫
▁190
▁결승전
▁소형
▁특집
▁왕조
▁82
▁으려고
▁회차
▁어쨌든
▁시내버스
▁포탑
▁는다면
▁더더
▁안경
▁클리
▁터치
▁어지간
▁에서부터
▁라면서
▁아바
▁86
▁기초
▁아니면
▁사도
▁규칙
▁고지
▁험
가미
▁한동안
▁어둡
▁연락
▁허나
▁대폭
▁PD
▁강남
▁실버
▁요금
▁잦
▁해적
▁반사
▁더더욱
▁트윈
▁칭하
ry
ES
▁합성
▁국어
▁왈
▁협박
▁림
▁차단
▁전성기
▁레이스
▁매니
▁냄
▁동부
▁is
▁컬러
▁다면서
▁바치
▁스미
▁ㅓ도
▁의상
▁AI
▁스페이스
▁절대로
▁국방
▁떠올리
▁첨
▁한참
우드
▁고수
▁분량
▁소지
▁렛
▁재미있
▁주포
▁괴수
▁의료
▁경기장
▁움직임
▁휴대
▁좌우
▁굴리
▁입단
▁아빠
▁안티
▁천재
▁버스터
▁{
▁프로필
▁체포
▁로즈
▁튀어나오
▁다스
▁럭
▁핫
▁치명타
오프
▁누나
▁쉐
▁부서
▁수십
▁비행기
▁예고
▁감옥
▁캐논
▁민주당
▁허리
▁인정받
▁웅
▁다섯
노스
▁for
▁대가
▁블록
▁멍
▁히메
▁로우
▁GS
▁구체
▁식물
▁농담
▁처벌
▁영문
▁카츠
▁비아
▁주말
▁깡
먼트
▁''
▁챕
밀리
▁꼽히
▁한마디
▁도달
▁일자
▁트랜
ity
카드
▁일제
▁목격
▁커지
▁데모
▁아즈
▁수수
▁불법
▁체크
▁신호
▁FI
▁갈수록
▁합격
▁시마
▁모자라
▁임명
▁치우
▁뷰
시로
▁취미
▁이지
▁그동안
▁으니까
▁챕터
▁드레
▁대지
▁멘탈
▁해리
▁레이드
▁씌
▁92
▁귀신
▁ㅣ
▁혀
▁크라
▁양쪽
▁자치
▁마비
▁싱크
바라
▁트레이드
▁뺏
▁김영
▁안내
▁재현
▁110
▁구속
▁떠오르
▁오사카
▁뚜
▁상성
▁적대
▁AR
▁소원
▁컨텐츠
▁봇
▁전신
▁be
▁오랫동안
프레
닉스
▁복무
▁놀랍
▁깨닫
고속
▁취향
▁의뢰
▁할아버지
▁홀로
▁훗날
▁모모
▁구사
▁뜬
▁캐나다
▁까다
▁안드로이드
▁상업
▁접하
▁개체
▁나아가
▁씹
남도
▁기아
▁촌
▁94
▁느라
▁일격
▁별다르
▁가리키
▁지도자
▁북부
▁글로
▁개량
▁스턴
▁춘
페인
▁결코
▁79
▁다이아
▁떨어
▁회상
▁캠퍼스
▁예시
▁상급
▁퀴
▁수용
▁전후
▁투어
▁이식
▁바퀴
▁모조리
▁명성
▁93
▁켜
▁딩
▁디지털
▁알아보
디언
▁IC
▁원본
▁클래식
라드
▁베트남
▁경고
▁삼진
▁83
▁플로
▁노인
▁예쁘
▁데드
▁도발
▁귀찮
▁미묘
▁무겁
시코
▁랭킹
▁갇
▁포트
▁까다롭
▁각자
▁따라가
▁FA
▁SC
▁일기
▁조성
▁공지
OM
▁마린
▁박정
▁바위
▁일시
▁축제
▁빚
▁구원
▁어스
ass
▁팬덤
▁수익
▁정비
다이
▁영향력
▁갇히
▁700
▁토르
스탄
려주
▁꽂
▁편입
▁긍정
▁외형
▁유대
▁트로
구려
▁승격
▁곧바로
▁접속
▁룸
데스
▁파츠
▁형사
▁거인
▁89
her
▁ffff
덜란드
▁네덜란드
▁방지
▁으러
▁커스
▁연료
▁유니폼
▁스승
▁내성
▁청소년
▁GB
▁노벨
▁바이러스
▁곁
▁개성
▁아케
age
▁자국
▁유통
▁동인
▁전멸
임스
▁스틸
▁건축
▁어드
▁빼앗기
▁시계
지로
▁무덤
▁메뉴
치기
▁집어
▁우라
▁하우스
▁보안
▁대인
▁CC
▁깜
▁OST
▁레이더
▁리듬
▁하얗
▁헛
▁햄
▁환영
▁무라
▁빛나
▁이명
메달
▁87
▁성별
▁로고
▁투구
ide
ID
▁정찰
▁펫
▁이내
▁이터
▁주식
▁딘
▁니코
▁나치
▁어떠
▁ffffff
▁단장
▁논리
▁사정거리
▁메르
▁개방
▁GT
▁부작
UN
▁패널
▁릿
▁이영
▁그럼
▁마침내
▁자세히
VA
▁소중
▁호주
▁보석
▁타인
▁DS
▁오타
▁윌리
▁드라이브
▁이날
ark
▁코미
▁연금
▁톰
▁자금
▁저장
▁오스트
▁과연
▁블러드
▁김태
▁쵸
▁Tr
▁식당
▁스키
세스
▁빌드
▁곽
▁생략
▁칩
▁놀이
▁인격
▁KIA
▁원소
▁학부
▁의존
▁극복
▁다름
▁계통
▁우연히
▁똥
▁와이
▁마이클
▁기르
▁어마
▁도우
▁플레이오프
▁예측
▁주역
▁제임스
▁전문가
▁맥스
▁사라
▁계단
▁전진
스키
▁미술
▁인연
▁플랫
▁탄창
▁WW
▁무릎
▁사이버
▁악당
▁트럭
▁스트라이크
ep
▁이브
▁골든
▁호텔
▁살아가
▁충성
▁더럽
▁사신
▁개정
ax
▁판매량
▁아일랜드
▁연예인
▁타로
▁어다
▁조언
▁제갈
▁준수
▁캠페인
▁대처
▁소위
▁사형
▁테츠
▁좌석
▁탱커
▁캡틴
아다니
ire
▁보관
▁On
▁차트
▁기적
북도
▁차기
▁사제
▁무방
▁1992
▁독특
▁접촉
▁실전
▁유치
▁구경
▁on
▁잘리
▁내지
▁화제
▁램
▁모토
ood
▁용기
▁으시
▁저작
ge
▁포스트
▁CPU
▁학자
▁그로
▁피스
▁혈액
▁시선
▁결성
▁단편
가스
▁스마트폰
▁고스트
덩이
▁록맨
일드
▁박히
▁특전
▁네오
▁하루카
ect
▁숭
ust
ob
ock
▁몰락
▁조연
▁흐름
▁피격
▁구나
▁길이
▁냐며
▁커리어
▁강원
▁삐
▁화학
▁호위
고리
▁호감
▁인조
▁아키라
AD
▁커피
▁덧붙이
▁구리
▁제작자
▁발달
▁드럼
▁오크
나미
▁툴
▁시달리
▁저렴
▁타락
▁슈팅
▁후배
▁1993
▁하차
스턴
▁안타깝
▁불타
▁왠지
▁본체
▁우위
▁생명력
자드
▁130
▁아이스
▁내세우
▁처형
다랗
▁하락
▁델
▁신설
▁가짜
▁묘하
▁스텔
▁원주
▁냄새
멘트
▁증오
▁장악
▁it
▁자전
▁파크
▁초보
▁지경
▁결전
▁아마도
▁중독
▁후방
▁소스
▁그러니까
▁다름없
▁해상
▁둘째
▁IS
▁카와
▁음모
워크
▁국립
▁미라
▁활성
▁고작
▁닫
▁북쪽
▁아티스트
▁익스
mer
▁라기
▁일람
▁미터
▁금속
▁위상
▁노르
▁Be
▁SM
▁펴
▁트랜스
아시아
팩트
▁의대
▁닭
▁공무원
▁계정
▁무지
▁데려오
▁가루
▁포수
▁일본인
▁외계인
▁핏
▁AM
▁신부
▁으라
양함
▁뜬금
▁플래그
▁.."
▁업적
▁패션
▁루타
▁과제
▁시노
▁인민
▁투명
▁포로
▁폴란드
▁주사
▁선전
▁일족
▁표지
▁남쪽
▁자폭
▁미스터
▁동굴
▁디스크
든지
▁세르
▁다가오
▁보라
▁찢
▁강도
▁쌍둥이
▁날아오
▁음원
▁펄
▁터널
▁행보
▁로리
▁구르
네스
▁아저
▁|
몬드
▁EN
▁동력
▁Te
▁바이오
▁기도
▁아쿠
▁me
▁더러
▁아저씨
▁금융
나카
are
▁열쇠
▁에리
▁잉글
▁기동전
▁정차
▁눕
▁편곡
▁무척
▁ㄴ다며
▁캐리
▁자막
▁비상
▁차이점
▁신비
▁체중
▁넉
▁면모
▁지라
▁트라이
▁연령
▁개수
▁웃음
VD
▁아이언
▁간신
▁부각
▁1988
▁라이온
학자
▁심심
▁적응
▁히어로즈
▁완결
▁팽
▁적당히
▁격추
카리
▁공룡
▁이집
랑이
▁이집트
그마
▁천하
▁보고
▁엮이
▁최신
▁101
▁멕시코
▁.....
▁Me
▁정글
▁헬기
▁흡혈
려나
iv
▁액티브
▁일방
▁상술
▁벌레
▁할머니
▁의혹
CG
▁승객
▁인치
▁제작사
ance
▁부장
▁후계
▁과장
▁볼넷
▁색깔
▁개입
▁ch
▁미즈
▁담기
▁대리
▁일찍
▁나츠
▁튕
▁SR
▁담배
▁잠수함
▁칭호
▁@
▁코인
▁돋
▁교황
▁저녁
▁첼
▁스터
▁물러나
▁위대
▁예언
▁십자
▁리타
▁리온
특별
▁팀원
▁귀환
▁총알
▁냥
▁후술
▁시아
▁각본
▁방출
▁사귀
▁생겨나
▁새벽
▁정착
▁로그
qu
▁소라
▁클레
▁식량
▁공성
▁흥미
▁도끼
▁해피
LL
▁엿
▁이중
▁리오
로디
US
iz
our
ound
▁마디
▁라이플
▁곤란
▁모래
▁My
▁식민
라기
▁스튜디오
ord
▁넥센
▁페이즈
▁광역시
쳐지
이너
▁비추
▁원칙
▁신사
▁화성
▁네트
▁새끼
▁썬
팡이
▁동의
▁깔끔
▁악명
▁무렵
▁수장
▁교류
▁이정
▁사후
▁마약
▁다치
▁어판
▁정발
▁호기
▁활발
▁재산
▁손해
▁반동
▁토끼
▁칭찬
ime
▁이노
▁구석
▁XX
▁고도
▁1970
▁패하
▁항공기
▁애플
▁상관없
▁하단
▁증언
▁레슬
ix
▁쓸모
▁오라
▁도라
▁제트
▁Cl
▁녹색
▁바깥
▁사막
▁주일
▁비주
▁애정
▁Com
▁원자
▁토론
▁뱀파이어
▁크리스마스
▁드롭
▁펌
우마
▁중국어
▁자극
▁배터리
▁1991
▁미안
▁상기
▁잠재
▁도주
▁튕기
▁막대
▁그만두
▁끊기
▁부지
▁수류
pe
▁리플
▁흑인
▁이드
▁태평
▁루카
▁턱
▁놓이
어마
▁MVP
▁정원
▁엔젤
▁등지
▁주기
▁추구
▁작곡가
▁SE
▁최다
OP
▁모노
▁올해
▁포항
▁팬텀
▁씬
▁어마어마
▁펑
▁엑스트라
▁이재
▁배트맨
▁흔적
▁앞두
▁얻어
저스
▁그럭
▁강자
▁상실
하면
▁궤도
▁더군
▁호칭
회사
▁국왕
▁동쪽
▁미루
저럭
uc
▁첩
▁고구려
▁클릭
▁할인
▁이익
ite
▁충실
▁ㅁ
▁강요
▁스웨
▁AD
▁그대
▁마이너
▁그럭저럭
▁용량
▁거듭
▁분대
▁가동
▁막차
▁불교
▁참모
▁화장실
▁플래시
▁승점
▁언더
▁거미
▁뿔
▁용서
▁면역
▁시합
▁찍히
▁포격
▁기숙
▁CV
주시
▁히나
▁코코
▁결합
▁스즈
▁아이콘
▁탈퇴
▁남녀
▁시라
려들
▁소대
OW
▁수류탄
▁에다가
▁무술
▁신앙
▁160
게임
말리
▁김동
▁예산
▁숙련
▁관중
▁타율
▁앨리스
▁140
▁기생
▁짜증
▁나리
▁미키
▁이토
▁SH
▁의회
▁눈치채
▁입지
▁옳
▁혐오
▁오늘날
▁런던
▁자책
▁아메리카
▁테라
▁딴
▁루수
▁구슬
▁적군
▁입대
ure
▁디젤
▁BPM
▁잡아먹
바르
▁윌리엄
▁오직
▁가요
▁성립
▁매장
▁영구
사관
▁예수
▁아츠
▁종목
▁잉글랜드
▁공방
▁빨갛
▁간접
▁통산
▁일본군
▁단행
▁도박
▁백성
▁교차
▁기여
▁문구
BA
▁하향
OD
▁동급
▁우에
▁900
▁기구
▁지뢰
▁형상
▁사키
▁쪼
▁모니
▁구글
▁DVD
▁공공
▁덩치
▁출구
▁부자
▁웃기
▁포켓몬스터
▁딕
▁낚시
▁실망
▁1989
▁클랜
▁힙
▁존재감
여객
▁철권
▁말투
▁백인
▁찾아내
▁간신히
▁떨어뜨리
▁하이퍼
▁$
어하
▁윗
▁Pr
▁제약
▁아미
▁야마토
▁피터
▁발리
▁금방
러가
▁Wh
▁민첩
▁소유자
ake
▁일치
▁연합군
▁착하
▁크림
▁오마
▁서쪽
머스
▁들키
▁Pl
▁이스라
▁KR
▁Ex
▁치루
▁상인
▁가라
▁흔들리
소녀
▁Un
▁주간
▁기관총
▁Pro
▁초인
▁어려움
▁쭉
▁울리
▁내전
▁이슈
RE
▁몽골
▁일대
▁추억
▁뎀
▁천만
▁동성
▁중량
▁근본
▁힌
▁단단
▁칼날
베르
▁본사
ION
▁매년
▁붓
▁유독
▁의외로
▁사유
무시
▁총리
▁싫어하
▁임팩트
▁아랍
▁개혁
▁법률
다나
▁너희
▁포드
▁지위
▁순환
▁권한
▁그렇지만
▁난입
▁RPG
▁호수
▁콜라보
▁화물
▁심사
▁와타
▁건조
▁평생
▁분신
▁NE
▁가만
▁침략
▁선택지
▁수비력
▁괜히
Hz
▁시공
▁이끄
▁리드
▁메이드
▁스크린
시즈
▁인종
은행
▁유물
▁재단
▁상식
▁타선
▁명확
▁커녕
▁믹스
▁건드리
▁세븐
▁개막
▁뛰어넘
특별시
▁스탠드
▁집착
oy
▁합의
▁전동
▁비스
▁반전
▁연극
▁소장
▁불사
화점
▁생존자
▁우르
▁헤어지
▁끈
▁란스
▁협상
▁색상
▁히가시
ows
▁스펠
▁커다랗
▁메달
▁맛있
▁세종
▁되돌리
▁헐
▁정통
▁기숙사
▁터뜨리
▁악기
▁Gr
ud
사자
신교
▁뿜
▁변호사
▁나마
▁이스라엘
▁읍
▁그랜드
▁잔뜩
▁서울특별시
▁양성
IG
▁서구
▁해치
▁with
▁딜레이
▁히토
OC
▁유적
▁브루
▁크리스탈
▁휘말리
▁승률
▁항복
▁끔
▁재정
▁개업
▁센스
▁곡명
▁암시
▁복지
▁메리
▁복선
갈리
▁인디
▁집행
▁렐
던지
▁스팀
▁울프
▁기울
▁일화
랭크
▁영주
▁기인
▁BL
▁신나
무르
▁엘리트
▁복구
▁걸맞
▁총선
▁무시무시
▁걸어
▁임신
▁카카
▁고위
▁교과
▁단축
▁부딪
▁출입
▁휩
전차
▁김종
▁동양
▁정수
▁즐겁
▁구축함
▁흰
그리
▁급격
▁열매
▁코난
▁무역
▁포르투
▁체육관
▁빠져
▁KOF
orld
▁정치인
데레
▁깨어나
▁자전거
부로
▁타쿠
▁꾸미
▁레지
▁기량
▁상단
▁비례
▁스트리트
▁두들
▁더군다나
히코
▁수출
▁he
▁채택
▁105
▁고로
▁치즈
▁라인업
▁진보
▁경직
▁망가지
▁꼼
▁깔리
▁당일
▁존경
▁김민
▁미나미
▁간단히
▁치킨
▁확대
▁BS
▁대단히
▁금액
▁부스터
▁이펙트
▁누적
▁성남
▁재밌
▁적합
▁도둑
▁강점
▁굿
▁철저
▁칼리
▁넘버
▁갈아
▁사이코
aw
▁국판
▁사살
▁코리아
▁War
▁알아내
▁사령부
▁정화
▁화재
▁상호
▁전이
▁허락
▁에로
▁통계
▁뻗
라이트
▁서포터
▁제독
▁후손
데이
▁EP
▁혹시
▁OVA
▁비치
▁ED
▁이혼
▁스폰
▁스파이더
티아
▁유학
ace
▁이민
▁키타
▁뽑히
▁내보내
▁우정
▁메시지
우치
▁메이플
▁콜로
▁썬더
80
데드
▁CG
▁끔찍
▁띠
▁잃어버리
▁치유
▁DD
▁대거
▁권리
ave
▁철수
▁행하
▁한쪽
▁견디
▁자이언츠
▁후계자
▁수백
▁통치
▁원문
▁Love
ame
▁간간
▁언데드
▁수능
▁수명
▁대수
▁마블
▁사원
▁검술
▁분명히
▁가을
▁면허
▁쏟아지
▁기갑
▁가공
▁업계
▁부적
아키
▁토너
유럽
▁마법소녀
▁토마
▁탄환
▁까이
▁주택
▁우타
▁루이
▁고개
▁변환
▁노가
▁능력자
▁독재
▁매니저
▁드라이버
▁라니
▁해머
▁오락
▁개신교
▁피아노
▁1987
▁물리치
▁알렉산
▁헤어
▁언스
▁천안
▁맷
▁LV
▁끼우
▁나루토
▁낮추
▁루나
▁실존
▁쟁
▁지불
▁트롤
▁하츠
▁소음
▁초간
▁코멘트
▁박물
▁제정
▁삽입
▁데려가
▁워크래프트
▁자본
▁생명체
▁유효
▁오랜만
▁싸이
▁토시
▁동명
▁크레
▁거울
▁전라
▁WWE
▁3000
ice
포트
▁기용
▁싹
▁마코토
▁해안
▁곳곳
▁중립
▁202
로나
▁타운
▁세인트
▁언젠
ies
▁배역
▁언젠가
▁약화
▁시위
▁프리미엄
chor
▁캐치
▁폐쇄
거지
데미
▁마스크
▁결투
▁인질
▁파생
▁히라
▁보험
▁원조
▁감각
▁서서
▁Wind
▁중첩
자와
▁구미
▁지리
▁우월
▁루비
own
IM
▁뮤지컬
▁대왕
▁원리
▁처지
▁중세
▁플러스
▁sh
▁실종
▁무관
▁큐브
▁요약
▁레딧
▁만남
반도
▁지팡이
▁주자
▁취약
▁ㄴ다거나
▁충청
▁스프링
▁리스크
▁기동성
▁철학
▁려던
▁리카
게이
걸이
▁체인지
▁킬러
▁엔드
▁성전
▁워커
▁아카데미
▁코믹
per
▁보드
▁니스
▁토너먼트
▁속이
▁결심
▁드래프트
▁니혼
▁리프
▁전파
▁유산
틀러
▁??
▁여객
하시
▁밀어
▁방위
리온
▁마주치
▁더빙
▁새기
▁무공
▁정기
▁고맙
▁TVA
ath
▁사야
▁곱
TE
man
가드
더라
▁KBO
▁딜링
▁날짜
▁anchor
▁하마
▁중형
▁de
▁카트
▁왜곡
▁나기
▁호시
▁나미
▁시크
▁도적
▁배포
▁보충
▁스트레스
▁시바
▁추종
▁틸
▁돌입
▁허가
운서
▁줍
▁아나운서
▁연패
▁티켓
▁개시
▁해병대
▁휘하
▁시원
▁관점
▁장탄
▁억지로
▁사명
▁PV
▁와일드
▁베리
▁베타
센트
▁측정
▁대학원
▁여우
시스트
▁보완
▁고장
▁조리
▁필리
▁저택
ere
old
스럽
▁We
▁복제
▁부실
▁중시
▁AS
▁PR
▁유격
▁1986
▁헌법
▁무인
▁마우스
▁승무원
▁파이트
▁용인
▁장거리
카이
▁후자
▁안기
술사
▁야구장
▁시외
텐도
▁닌텐도
▁ID
▁수호자
▁네트워크
▁분당
▁은지
▁관할
▁토미
▁인피
▁악화
▁박물관
▁셜
▁혐의
▁불량
▁이글
▁주둔
▁언덕
▁당대
10
▁희귀
▁서클
▁라라
ick
▁막내
▁꿀
▁엄밀
▁잠입
▁연고
▁조약
▁미네
ber
▁캠프
▁식민지
▁단원
▁".
▁문단
▁감추
▁우치
▁쿠라
▁모로
▁톨
▁튼
▁여전
▁롬
▁유발
▁기묘
▁법원
▁세포
▁유니크
▁기상
▁오키
▁페널
▁조이
네임
▁학력
▁->
▁럼
▁만만
▁얀
▁다이아몬드
▁지칭
▁방송국
▁엑시즈
▁기름
▁데이트
▁그린
▁취임
ory
▁김대
▁인용
▁인방
▁버드
펴보
▁카구
▁살펴보
GE
▁피우
▁연맹
▁스웨덴
▁남매
▁지진
▁로얄
▁벨트
▁즈음
래시
▁포위
▁코마
▁단행본
ov
▁질리
▁오메
▁반부
부르크
▁고증
▁가죽
▁레일
▁채보
▁택시
▁교도
▁프라임
▁아르헨
가리
▁챌
▁흩
▁매번
▁AKB
▁부드
TS
▁근거리
▁웰
그나
▁거점
▁울트라맨
▁자비
▁멜로디
ond
필드
▁법정
▁냐면
▁중장
▁배달
▁캐스터
▁면적
▁진압
▁파르
▁my
▁도루
비드
▁아테
▁디즈
▁분쟁
▁GP
▁이주
▁공수
▁선행
▁En
▁준우
▁도저히
태우
▁신도
▁케이드
▁레알
▁이수
▁아르헨티나
▁방어구
▁CJ
▁꿰
프리
▁깨달
▁일당
▁굵
▁독일군
티스
▁득표
▁행방
▁웨이브
▁중복
▁스텝
▁실은
▁차체
시타
▁FIFA
ream
▁혈액형
▁참석
미니
▁아이러
크로
▁연승
▁소요
▁라틴
▁호랑이
▁전승
▁휴식
▁부드럽
블린
▁균형
▁답변
▁시로
▁유인
▁때려
▁미쿠
▁헝
카락
▁암살자
▁머리카락
ah
out
▁릴리
커스
▁케인
▁공인
▁법칙
▁미만
▁한두
▁Dr
▁용자
▁189
▁본진
▁DC
IP
▁셔틀
아이
▁오전
▁wh
▁왜냐
세서
▁비전
▁무작
▁1500
▁주류
▁이온
타카
▁kt
바닥
베스
▁창원
▁코트
ost
▁첫차
▁관람
▁질투
▁스위치
▁로이
▁포탄
▁슬라이
▁발렌
▁중력
▁무사히
▁마계
▁솔직
▁께서
렐라
▁전제
▁토키
▁피닉스
▁학기
▁\
▁규격
▁전주
▁초록
▁에반
▁둘러싸
▁비틀
런트
▁챌린
▁리뷰
▁트리플
▁에르
▁영원히
▁주차
▁침입
▁쇼크
▁모시
▁격차
60
▁토벌
▁유력
러그
▁던가
▁루머
▁통틀
▁장인
▁바쁘
▁평일
UM
▁트루
▁에이지
▁김재
LE
▁교실
▁1985
▁훼
▁시너지
▁드래곤볼
▁남북
▁클론
▁항의
▁닛
▁식품
▁조커
▁급하
▁재회
▁For
▁놀리
블로
▁포르투갈
▁소방
▁스태
테르
▁비주얼
▁글로벌
▁인력
▁전무
▁긴장
▁지치
▁오디션
▁니아
▁공업
▁합병
▁안개
▁스테이션
▁집어넣
▁박근
▁창고
▁경로
▁김경
▁은신
▁개설
▁돔
▁감지
ile
▁공허
▁베기
▁논쟁
▁벼
▁정황
▁그르
▁법인
▁구름
▁조기
▁진학
야수
▁1984
리나
▁아동
▁추리
▁선고
▁노바
▁보이스
하르트
▁이종
▁아가씨
▁아틀
▁히로시
▁파동
코드
▁백화점
▁뜨겁
▁탐정
▁배수
▁주행
▁감동
▁신전
▁트릭
▁유성
▁호흡
▁양반
▁무스
▁난사
▁유미
쿠라
▁막판
▁통화
▁쓸데
▁토크
▁어필
▁제네
▁확장팩
▁기운
▁어뢰
ont
▁토니
▁우즈
▁하수
▁시카
▁코르
▁소송
▁가방
▁어이
▁사인
▁안녕
▁왕위
▁윈드
번에
▁범죄자
▁단종
▁여주
▁특별히
▁신용
▁뭉치
▁배드
▁위성
▁과도
▁역명
▁감상
▁마물
▁메이커
▁변태
▁수염
▁신자
▁프란
ome
▁카더라
▁보존
▁급행
▁뽑아내
▁비유
▁요인
▁바디
세대
▁자녀
▁학습
▁박살나
▁5000
▁장미
▁It
▁김현
▁생년
▁막상
▁분열
▁스쿨
▁그레
▁갑작
▁수면
▁벙
▁직장
▁개발자
정부
투스
▁제갈량
▁슬프
▁손오
키지
▁명의
▁백제
▁야쿠
▁끌려가
▁추세
▁나폴
노리
▁과학자
▁뚫리
▁비웃
▁의학
▁서포트
▁Star
▁정예
▁창단
▁발굴
▁경기력
▁만지
▁패키지
▁성당
▁FM
▁에디
▁영광
▁진주
io
▁태평양
▁광선
▁잉여
▁섀도우
▁스캔
▁아이러니
▁임금
▁가디언
▁운동장
▁노스
▁극히
▁신발
타입
▁팟
▁DE
▁성질
▁세라
▁1960
▁극도
▁몫
▁최상위
▁진급
▁기력
▁체감
▁상관없이
▁블라
▁카운트
▁매니아
에이
▁SNS
▁106
▁얻어맞
▁기재
▁유재
▁만일
▁복합
▁라이온즈
az
▁준우승
▁오노
▁서서히
▁오우
▁스타리그
▁ww
▁룩
▁쇼핑
▁오스트리아
▁판결
▁대책
▁러시
▁리라
▁물량
▁국경
▁EZ
▁산하
▁양자
▁우유
사기
▁대치
▁여인
▁라즈
크라
▁탐험
▁로버트
▁타이거즈
▁루스
▁프린세스
▁대조
▁공정
▁170
▁걸즈
도르
▁손상
불명
▁행운
▁시상
▁로보
▁위엄
▁윈도우
▁사관
▁늙
▁우주선
어놓
벌레
▁리즈
▁피트
▁도감
▁Fl
▁티아
▁처참
▁관계자
▁샌드
▁야수
▁워치
▁통로
▁가만히
▁데빌
▁출격
▁헷
▁장로
능력
▁꼬이
30
ian
▁머무르
▁해골
▁여학생
▁와카
▁천연
▁체험
▁플라이
▁무산
▁상담
일보
▁퇴장
▁엘리자
▁불행
▁바스
▁www
▁조상
▁증상
▁Station
▁콤비
▁야간
▁택하
▁하프
▁Sc
▁뜬금없이
▁AN
▁사족
▁상륙
▁키라
ade
▁소프트웨어
▁부서지
▁오염
릴라
▁엇
▁Or
▁포장
▁약물
▁쳐들
▁고객
▁빙판
▁손오공
▁경주
▁드림
▁오로지
▁LC
▁투스
▁간주
▁함부로
▁캐시
저기
▁결제
▁세뇌
▁흡사
▁중고
▁태클
▁Fate
▁디바
구미
▁심의
▁타수
▁연봉
▁붙잡히
▁스핀
▁나르
▁Go
▁여기저기
▁출간
▁날카
▁즉사
▁캣
▁남아
▁마유
▁마케
▁백작
▁베테
▁뒤지
▁모터
▁위반
▁포터
▁이웃
▁아바타
▁본토
▁철거
▁파편
▁원피스
▁사립
▁처분
저리
▁렌즈
▁루크
▁네요
▁파란색
▁당당
구나
▁아시안
▁배정
▁두들기
▁난무
리스트
▁시온
▁CF
▁뱃
▁비극
▁콘솔
▁Br
▁되살
▁SF
▁브로
▁수색
ason
토스
▁동아리
▁역습
▁불펜
▁실상
▁샤이
▁폐기
▁려다
▁Windows
▁대령
▁해킹
▁파멸
▁혜택
▁후퇴
▁비스트
▁BR
40
▁캘
▁지향
▁창작물
▁니콜
▁악몽
키아
▁교장
▁이와
려받
▁시신
▁날카롭
▁경악
▁지력
▁명목
▁즉위
▁맥주
▁갤러
메이
▁유전자
▁나스
▁코미디
▁후미
베이
▁이타
▁동남
sh
▁도장
▁거북
▁시트
다보
도리
▁잡아내
▁두르
▁동경
▁신데
▁여럿
▁상사
▁장사
먼스
▁프로토
▁스포일러
▁경남
▁전동차
▁감싸
▁타르
▁125
▁짐작
▁핑크
▁조우
▁키보드
▁권위
하마
▁대포
▁엄격
▁해내
▁휴가
▁JP
카이도
비전
▁CH
▁교단
▁고리
▁반박
▁제왕
▁기둥
▁뒤늦
▁물체
▁선조
▁헨리
▁창설
▁막강
불호
▁UN
▁혼돈
▁호불호
▁조종사
▁양손
▁기세
▁케이블
tle
▁360
▁며칠
▁디즈니
▁샷건
▁한반도
▁손실
ug
▁신입
▁신데렐라
▁교토
▁잠들
▁얽
▁원곡
▁폭파
▁스테이
▁정교
▁OP
▁발행
▁최적
▁타석
렉스
▁LA
▁야생
▁공세
▁나노
▁승차
▁노조
▁옹호
▁배출
▁트라우마
▁흰색
▁장탄수
▁낙하
▁노가다
▁축복
▁내일
▁포즈
▁프레이
▁풋
▁딸리
▁https
▁베네
우리
▁개국
▁광장
▁임대
▁호소
▁채팅
▁부착
▁지선
▁히틀러
▁펼쳐지
▁오이
▁근원
▁대전차
▁여파
▁하급
▁스트라이커
▁넘어서
▁표면
▁츤
▁기장
▁근접전
▁미오
▁디오
▁복원
▁어쩌면
▁버섯
▁모스
▁끊임
▁바지
▁프랑스어
▁회색
▁응용
▁BE
▁명백
▁조별
▁세팅
▁승자
▁패밀리
▁대시
▁텍스트
▁관우
▁커스텀
월일
▁전락
ach
▁유언
▁구동
▁유기
ower
▁여고
▁방치
천시
▁실사
나기
▁배려
▁뽀
▁첼시
▁대접
▁잠실
▁건네
▁신지
▁개장
라딘
▁장신
▁전북
▁루이스
▁굴욕
▁비명
MP
iss
▁솜
▁궁금
▁이순
▁타츠
▁올스타
▁반감
▁출루
▁물고기
▁디시
▁열혈
▁되게
▁Wi
▁쌀
▁투척
▁미국인
▁통칭
▁초능력
▁소용
▁려다가
▁좌절
▁브레
▁장성
▁생년월일
▁밍
▁김상
▁부작용
▁양상
▁저하
▁탕
▁앗
▁살아나
▁팡
▁이라크
▁시인
▁마드리
▁꽉
▁뻥
▁카자
▁카리스
▁갚
▁묶이
▁합리
▁마드리드
▁진격
ash
▁여타
▁논의
▁간간히
▁틴
▁결계
▁이글스
▁그날
▁근대
▁선사
▁여의
지막지
▁무지막지
▁엽
▁약자
▁발목
▁스나이
▁스태프
▁민주주의
▁그램
▁대차
▁약탈
▁마감
▁엎
▁축하
▁긁
ARD
▁수월
▁빌딩
▁정반
▁센트
▁상영
▁지인
▁여러분
▁가난
▁스케일
▁거스
▁공백
▁기수
▁스노
▁해명
▁계시
▁1982
▁공대
▁올드
ook
▁깜짝
▁아스카
산역
▁성씨
▁집권
▁퍼포
OU
ial
▁기본기
▁인자
▁넘어지
▁퍼포먼스
▁수동
브라
▁설령
▁사이클
사이
▁모빌
▁세금
▁다투
▁브라운
돌이
▁로이드
▁프론
▁우세
▁사악
▁다운로드
▁둠
TV
▁마트
▁하하
▁조용히
럼프
▁레온
▁박살내
▁생전
▁실책
포르
▁하인
▁텟
▁고소
▁최우
▁손꼽
▁중동
▁한창
ps
▁구별
▁노동자
ann
▁대박
▁조롱
▁강렬
▁개별
▁wik
버그
▁라우
▁이누
▁후일
▁독일어
▁아지
▁나나
ss
▁특급
란히
▁엄밀히
▁시외버스
▁라크
누스
철도
▁꼬마
▁로빈
▁보건
▁깎이
▁성경
▁폴아웃
▁소니
▁아쉬
▁단검
▁교복
▁오메가
▁닐
모함
▁폭행
▁MB
▁1983
▁왼손
▁슬로
▁삼각
▁에요
▁스즈키
▁우드
▁권장
▁대선
▁라이너
ky
▁훈장
▁사리
▁페널티
▁검찰
▁이용객
▁감수
▁ㄹ려
▁에픽
센스
▁명문
▁조명
irl
비치
▁그레이트
▁토하
▁다가가
▁나아지
▁형편
▁업로드
▁불쌍
▁음료
▁선제
▁빠져나가
역사
▁Mk
▁비서
▁마도카
▁전격
ib
▁여서
바야
▁독점
▁인권
70
▁사사
▁유망
▁도리
▁스피릿
하나
▁웨스트
ish
▁마땅
▁산탄
▁CS
▁토요
▁페이스북
▁넘어오
▁원전
▁your
▁닝
▁제물
▁명사
▁분해
▁직선
▁건국
▁저렇
▁포획
▁호크
숭이
▁선진
▁온도
▁날뛰
▁홀리
▁항구
▁강간
▁아스트
▁휠
▁유혹
▁후임
▁GO
▁세부
▁고속도로
▁위안
▁지사
▁트랩
▁에릭
▁that
▁벡
▁공통점
▁상반
▁수직
▁카를
▁루프
▁PP
▁질병
▁각오
▁중지
▁도트
진호
rom
▁학생회
루미
▁구장
▁팁
▁블레이
▁혈통
▁찬스
▁츠바
▁부딪히
▁후원
공항
▁잔인
▁페리
차기
▁추방
▁주니어
라노
▁오죽
▁신선
▁엄연히
탐정
▁평양
▁김해
▁경부
▁le
▁술사
▁항공모함
▁물품
▁범용
▁적중
▁샵
▁부동
▁후회
블리
▁ON
orm
▁두렵
▁타치
게이머
▁프로게이머
▁유나이
▁검열
▁Ne
▁매드
사리
▁축소
경기
▁고무
▁라스트
▁베테랑
▁엔지
▁진상
▁거론
▁동행
▁하치
▁스와
▁토요일
▁압권
▁헷갈리
▁ML
▁루피
▁관찰
▁원더
▁증폭
▁선두
▁강원도
▁메리트
▁350
으로
▁스컬
▁레인지
▁땡
▁다거나
싱턴
▁유나이티
▁마카
▁허무
▁젖
▁기후
▁논문
▁주체
▁지연
▁김기
▁하반
▁스폰서
▁킷
▁이어받
▁원형
벤처
▁{{
우트
▁흡혈귀
▁어드벤처
▁부임
이치로
테일
▁성배
▁합동
▁SKT
▁스리
▁장난감
▁트윈스
▁인칭
▁교과서
▁평하
▁변이
▁출마
▁TR
▁영지
▁골렘
에르
▁요한
▁경전
▁자꾸
▁ㅂ니까
▁하여
구장
전설
▁기쁘
▁친절
▁쿠데
▁유의
▁중순
▁쿄코
▁쨩
▁쓰리
▁메트로
▁도색
▁지목
▁유출
▁{{{
▁벌리
▁거칠
amp
▁표절
▁운수
▁권유
▁바나
▁결혼식
▁쉴
▁블로
▁해양
▁유니버스
▁역량
▁슌
▁구성원
▁붐
▁UE
ft
▁타이탄
▁치열
▁자네
▁시리아
▁피카
아치
▁절차
▁히든
▁베어스
▁전망
싸움
▁어색
▁초콜
▁쿠마
루션
▁쿤
▁!"
▁보라색
마크
ype
▁당기
트론
▁특공
▁사무라이
▁우익
▁돌보
▁잊히
▁다이스
▁취업
▁빈도
▁코스튬
▁우울
▁여단
▁폴리
▁막아내
▁소서
▁Mar
▁시게
▁헤르
▁박근혜
배우
뻐하
▁기뻐하
▁의자
▁제치
▁마술사
▁되돌
▁끓
▁과자
▁컴뱃
▁긴급
▁동대
▁고는
▁우회
▁튼튼
베리
ous
▁사와
▁버스트
▁서기
▁뱅크
▁유료
▁사투
▁수습
▁수급
▁페르소
▁조르
▁카네
▁줄거리
▁캄
▁강호
▁관여
▁동서
▁손자
▁어설
▁다큐
▁안양
TR
추어
▁by
▁애칭
▁기호
▁유탄
▁카시
▁청주
▁ex
▁공용
▁이케
▁침묵
▁동점
▁토우
▁고블린
▁명단
▁나비
▁터스
▁히스
▁나이프
▁가두
▁히카
슈타인
시대
▁상한
▁LP
▁리나
▁풍부
▁중상
▁학문
▁빨간
▁징역
▁외우
니시
▁가오
▁유전
▁순양함
▁센서
▁고스
▁번지
▁Sup
플레이
▁보호막
▁광명
▁쳐들어
▁관통력
▁드레스
▁규제
산시
▁정사
!!
▁젼
▁대성
▁오스만
▁GSL
▁퍼즐
▁we
▁인재
▁달려가
승부
▁일요일
▁겔
▁짙
▁이놈
FF
▁전생
바나
▁아무튼
▁불능
▁선장
▁의장
▁촉수
▁호드
▁웜
▁배제
▁분산
▁침대
▁페어리
▁끌어들이
▁손꼽히
▁스플
▁bl
▁앰
키퍼
▁마인드
▁밀려나
▁기스
▁평행
▁포스터
▁트레이너
▁우승자
▁미미
▁오브젝트
▁인과
▁큐어
▁태국
▁오지
▁러스
▁동반
▁후반기
▁백업
▁페르소나
▁프렌
도전
▁평상
▁102
▁도어
▁특별시
▁시모
▁관측
▁메카닉
▁카마
▁아깝
▁정석
ey
▁아아
▁출산
▁쏠
▁금메달
▁서바이
▁철갑
▁낭비
▁빅토
▁부스트
▁크라이
▁안심
▁생김
▁날씨
▁스위스
ING
▁신속
▁모집
필더
▁미드필더
▁III
▁동해
▁시비
▁강림
▁현금
▁IM
폭탄
▁수석
▁왜냐하면
▁짐승
▁시상식
▁워리어
▁날아다니
▁관리자
▁아케이드
▁참가자
▁지부
▁취득
하루
▁박지
▁꺼리
▁벤치
▁스탭
렉션
▁모에
▁라가
AK
▁간지
▁패전
▁무한도전
▁World
▁연산
▁모니터
▁피로
▁껍
▁골키퍼
▁모험가
▁유우키
▁성실
▁씌우
▁리모
▁을수록
▁마타
▁유재석
▁대위
▁통째
▁레이디
▁만주
▁김용
▁냉정
NA
▁조카
▁시그
▁블리자드
▁공감
▁플랜
워즈
▁친분
▁대세
▁원주민
▁원판
대사
▁장타
▁책임지
▁워프
▁화산
▁스피어
▁덤비
▁옐
der
▁강사
oll
▁최저
▁슬라
▁리틀
▁일가
▁품질
▁쿼터
▁카리스마
ink
▁따뜻
▁New
▁작년
▁미인
▁All
▁명분
▁역임
▁포병
▁데몬
▁프리미어
▁스기
▁se
어드
ET
▁방송사
▁111
코트
▁변장
▁생체
▁뱅가드
▁미소녀
MS
▁OG
▁al
▁카지
▁강등
▁사무소
▁미지
▁절친
▁단발
리안
▁당사자
▁후드
▁호러
▁흑역사
▁슈퍼맨
▁108
▁노란색
▁닥치
▁광산
항공
▁메일
▁뉘
페라
▁영양
▁DP
▁손쉽
▁스미스
▁유카
▁생애
▁하나하나
▁으려는
▁빨간색
▁자제
▁사로
▁IN
▁선임
▁여포
▁토라
▁넬
▁호남
▁리버스
▁무용
▁재개
느리
▁단기
▁애인
▁장판
▁쿠데타
▁국무
주교
▁워즈
▁유입
▁무도
▁봉쇄
▁SU
▁몰살
▁카레
▁풍기
▁오즈
▁출판사
▁각지
▁클린
▁소모량
▁Season
▁OS
▁루리
▁장례
▁안쪽
▁동정
▁방사능
▁연쇄
▁트릴
▁자존
이나
▁마모
▁스네
▁디펜
떨어지
▁바르셀
▁바르셀로나
▁차갑
▁끌리
▁코스프레
▁un
▁항해
▁국제공항
▁폭스
당초
모스
▁리안
▁마오
▁마운
▁임기
▁115
▁발급
▁전당
▁수인
▁마음대로
▁와인
페이
▁자칭
▁실현
▁김포
▁워싱턴
▁유망주
▁리처
▁위원장
▁워크
▁해산
▁국장
▁미러
▁스티븐
▁불태우
▁고등학생
▁멋대로
네마
께끼
▁수수께끼
▁수위
▁엉망
▁부근
▁끊임없이
IX
▁병역
▁MF
▁카쿠
▁트론
▁왕복
▁렘
베이터
▁퍼스트
▁레이지
▁곡인
▁게이머
▁오니
▁아베
▁시크릿
▁어벤
▁공단
▁멍청
▁제출
▁브레이커
▁흔들
시고
▁데이비드
▁마그
▁민간인
▁스탈
▁자책점
▁쫓겨나
DX
▁동속
▁디자이너
셔널
▁드로우
▁구형
▁메이지
▁스텔스
▁고집
▁문재
▁침투
▁요미
▁철저히
▁닦
35
▁내버리
▁1950
▁할리
▁작정
▁확산
▁비기
▁1981
▁우호
▁DF
▁맞붙
▁라이징
동자
▁원시
▁lv
▁탐지
▁방탄
▁양식
▁목사
▁돋보이
▁만능
▁화해
▁얇
▁존스
▁따라오
▁경호
▁쿠리
▁And
▁개구리
▁이라도
▁투쟁
▁정반대
▁생김새
▁터보
▁188
▁후유
▁힙합
▁레이어
▁기부
▁능가
ank
▁부원
▁수지
▁NM
▁미르
▁BGA
▁엣
▁종영
▁z
▁첫째
ai
▁엔지니어
▁전남
틀랜드
▁치안
▁간섭
▁디아블로
▁농장
▁렉스
▁산맥
▁함장
▁정신력
▁To
▁동전
▁라그나
▁밀어내
▁그랑
▁실체
▁아수
▁1979
▁세자
▁쇄
운수
▁브라이언
▁머니
▁어원
▁엘레
▁카피
▁알렉스
▁카게
▁매그
▁압력
▁이스트
MAX
▁군부
▁자사
▁중위
스레
▁애완
▁변동
▁px
▁로맨
▁니트
▁ㄴ데다
▁춥
▁함락
▁부스
▁실내
▁리본
▁몸통
스티벌
▁페스티벌
▁토지
▁거지
ary
▁떨치
▁닷
▁대역
ero
나베
▁오렌
▁원숭이
▁물자
▁재학
▁하스
군가
▁광기
바야시
▁유비트
▁가이아
▁뻘
▁스나이퍼
▁sp
▁시골
▁종결
▁폭격기
▁다카
▁세리
▁운송
▁모형
▁템플
▁김준
▁ㅂ시오
▁헬멧
▁고가
▁나폴레
▁트랜스포
▁Cr
▁얄
▁Bo
▁아자
▁마하
▁이모
▁트레일러
▁신하
▁오더
바이트
▁사야카
▁쿠스
IVE
▁비비
▁올바르
▁크레이
▁예약
▁광경
▁이즈미
바지
▁삽질
▁전향
▁티스
▁라든가
▁납득
▁여섯
▁테스
▁계층
▁실시간
저래
▁그러므로
▁입주
▁퍽
▁어나
▁홀드
▁이래저래
▁금발
▁사수
ng
▁누군가
▁쿵
▁마미
▁나폴레옹
▁죄책
▁세로
▁스카우트
▁베를
▁압축
▁반역
레븐
▁출범
▁시사
▁입문
▁UEFA
▁잔혹
네시아
▁탐색
▁민폐
아들
▁습하
▁주관
▁오른손
▁RA
▁Vol
ife
▁지로
▁그립
▁ㅋ
▁부러지
▁학대
ich
▁항모
▁통솔
aster
▁펌프
▁콘텐츠
▁겜
▁고고
▁밀도
▁임의
끼리
▁128
▁플라스
른바
▁소금
▁깃발
▁대타
▁죄책감
▁영감
▁기질
▁반짝
▁쿠사
▁이른바
▁젬
▁Day
ree
▁부유
▁스크롤
▁김유
▁이소
▁기껏
▁표기법
▁군수
▁강경
▁무승부
ons
▁나요
▁드론
▁파도
▁황당
▁Ad
▁트리거
▁친척
▁캡슐
▁서적
▁수비수
▁감탄
무지
▁소생
▁초콜릿
▁커플링
▁en
▁젤리
▁고사
▁마산
▁엘리베이터
▁도덕
▁흑막
▁갈색
▁망토
▁부재
ans
▁큰
▁대행
▁챔프
▁파스
▁관장
▁신중
▁닉네임
▁직통
▁착륙
라미
▁기리
▁동아
▁위로
▁시시
▁실적
▁김진
▁매출
▁라이언
▁간판
▁호의
▁으라고
▁스파이더맨
리얼
부키
▁깨끗
▁강대
▁화기
▁그란
▁하사
▁일렉
▁승진
act
▁김일
▁수라
▁고아
▁엘리자베스
▁개척
▁입시
pl
▁GD
▁외국어
▁러쉬
▁프랜
▁알바
▁가령
러브
▁그쪽
▁힐러
▁스타즈
▁육상
▁예의
▁트랜스포머
▁아오이
▁서방
▁WC
▁들여
▁애용
▁아이디어
▁방학
▁에미
▁깊이
▁마피아
▁김치
렉터
▁공산당
▁퇴각
▁판도
▁쫒
▁케빈
▁카이저
▁선로
▁정문
▁페어
▁얽히
▁레아
▁리리
▁스가
▁챌린지
ase
▁목걸이
▁미궁
▁덩어리
▁죠죠
▁왕비
▁창문
▁츤데레
▁오다
▁매트
▁코토
▁끌어올리
▁성분
▁출혈
▁슬픔
▁지수
▁신작
▁짬
▁하도
▁극대
▁마케팅
▁부시
고속도로
▁탭
▁아리아
▁고시
▁시뮬
▁이오
12
▁감자
▁만점
▁발레
▁미녀
▁어나더
▁검증
ple
uk
▁AA
▁침몰
▁적절히
▁워터
▁존중
리드
ear
▁스타워즈
▁카리
▁필리핀
▁IIDX
슬라
▁리사
업자
▁앓
▁와이번
▁사로잡
▁가이드
▁찔
▁혼혈
▁오페라
▁가위
▁어이없
▁리퍼
▁샐
▁--
▁이병
ment
▁머스
▁사촌
▁제노
▁쉴드
어트
▁NBA
▁오락실
▁김수
▁자이언트
▁AV
▁츠카
ction
▁괴인
▁토대
지르
▁던지라
▁구상
▁리버풀
▁질서
▁비키
▁레이븐
▁드루
▁박자
▁변명
▁라이트닝
▁DM
▁천국
▁원로
▁쿠니
▁주축
▁치카
▁현자
▁뚱
▁매각
▁중거리
▁우마
▁크래프트
▁모음
▁고의
▁터트리
▁시타
▁소꿉
▁외곽
▁무제
▁왕실
▁구조물
90
▁마에
▁연수
▁최선
▁합작
▁우루
▁tv
▁노부나가
▁마기
좀무
▁로키
▁흠좀무
▁모임
▁만렙
▁총합
▁레이블
▁부사관
▁Part
▁아카네
▁여주인
사랑
▁감당
▁도심
▁박수
▁복사
▁우연
▁달려들
▁타이어
▁개명
▁매달리
▁라미
▁유머
▁편리
▁물려받
▁바쿠
▁호리
▁화폐
▁파울
▁다스리
▁찌질
▁유연
▁장애물
▁갑작스럽
▁공속
▁톡
ool
▁모델링
oon
▁도쿠
▁승인
▁초상
▁등극
▁오케
▁우측
▁일일
▁지분
▁해운
▁One
ode
▁적자
▁런처
▁면하
▁황후
▁잭슨
▁출동
▁글씨
▁실용
▁연구원
▁너스
▁노릇
▁명장
▁라인하르트
번트
▁자존심
▁at
▁사천
야스
▁카카오
▁220
▁전지
▁웨폰
▁표적
▁전날
헤이
▁포탈
▁103
▁스카웃
▁마야
▁보좌
▁교리
▁경찰서
▁직책
▁테이블
▁비리
▁175
▁재건
▁삼성전자
▁아사히
▁참사
▁각도
VER
▁천천
▁약혼
▁본능
▁선동
▁서번트
▁어시스트
▁체결
▁레코드
▁명대사
▁무녀
▁이카
▁타일
▁240
슬리
▁힘입
▁듀오
▁변수
▁오역
▁ES
▁물어
▁부천
▁워드
▁FF
▁마찰
▁모듈
▁전담
▁모순
▁뮌
▁다지
▁Ap
▁그릇
▁돌연
▁자력
▁중부
▁암호
▁1945
프리카
▁아마추어
▁가담
▁네티
▁사연
▁서식
▁아담
▁오토바이
▁무능
▁이무
▁흩어지
이동
▁기차
▁완공
▁아수라
▁LO
▁검정
▁보가
▁싱가
▁알아채
▁싱가포르
▁첸
▁점유
▁수천
▁평상시
▁민감
▁해소
▁서열
▁패자
▁씻
▁답답
IR
▁사법
라이언스
▁NH
▁신동
▁아드
▁모종
▁이단
▁얼라이언스
▁미남
▁리코
▁마일
▁아유
깨비
▁뺏기
▁벗기
▁확신
▁벅
▁Sw
▁베스
은색
▁유가
▁알레
려워하
친구
▁말기
▁해전
▁브라더스
▁대동
▁견해
▁사치
▁달인
▁흙
▁농업
▁요격
▁건지
▁마을버스
▁CM
▁몸매
▁철도역
▁보직
▁오공
▁선출
▁열정
▁함수
▁프로스트
▁본관
▁브래
▁리믹스
▁화상
▁천천히
▁일관
▁트로피
드러지
▁퇴치
▁타카하시
▁온천
▁천장
▁불러오
bs
▁꿈꾸
▁한꺼
▁한꺼번에
▁소우
▁사무실
▁테일즈
▁발판
▁비우
▁타우
▁그라운드
▁크로우
▁아르바이트
▁덮치
▁맹세
▁이경
▁입자
▁공신
▁남동생
▁파랗
▁오로치
▁nd
▁발명
▁평론
▁박정희
▁바둑
▁SA
▁소마
▁일체
▁전법
▁가히
▁레귤
▁테리
▁재수
▁로프
사와
▁레나
▁부속
▁보편
▁산타
▁어드밴
워프
▁트래
▁후쿠시마
▁너머
마루
▁툭
▁스트리
▁카테
▁테란
▁소나
▁리처드
▁자키
▁장벽
▁케리
▁헬리
▁라마
▁여야
▁단역
▁보로
▁112
▁이오리
▁오렌지
II
▁련
생활
리스타
▁휴먼
▁펭
▁상냥
▁정점
ike
▁억울
yle
orn
▁너클
▁아무렇
▁Man
atch
▁모스크
▁Up
▁바이올
▁기동력
▁샬
▁최상급
운동
▁세일러
직자
▁아레나
▁유격수
▁임하
▁천지
▁흉악
▁지혜
▁네티즌
ence
키스탄
▁로스트
▁시카고
▁둘러보
다운
▁에메
▁탄압
▁한하
▁메구미
▁마스코트
▁협정
▁서울대
▁에디션
▁극한
▁인접
▁일컫
▁필름
▁곤충
▁상무
▁베를린
키리
▁EC
▁서류
▁이순신
우라
▁용이
스크림
▁노아
▁휩쓸
▁피자
▁클리셰
▁혁신
▁소득
▁지장
▁퀵
▁미아
▁다시금
▁로크
▁입증
▁저글
▁인문
▁이나마
▁NO
▁솔저
▁작위
▁연동
▁국도
▁매주
▁시오
▁욕설
▁홋
▁우기
▁엉덩이
▁옥상
▁까마
▁면제
▁레이싱
▁인피니티
hen
▁겸하
▁상주
▁선박
▁일명
▁마틴
▁도르
▁계수
▁레귤러
▁회담
▁밀레
▁이영호
ens
▁손님
▁1978
▁떠돌
▁탈취
▁키요
▁루미
▁강민
타이
▁자아
▁장남
▁격려
▁들르
▁신한
▁사회주의
iver
now
▁와타나베
▁이빨
▁팬티
▁얼티
▁헝가리
ph
타운
▁Ed
▁GM
▁미노
▁수신
구니
▁페이크
니코
▁히카루
▁과시
▁백만
▁지터
▁트윗
▁페스
▁부패
▁아쿠아
▁정밀
▁기울이
▁청춘
박스
▁사나
▁공격수
▁섬광
▁뛰어들
▁드워프
▁USB
▁로라
▁선거구
▁녹이
▁크롬
▁얹
▁ㄴ듯
▁거든
▁아포
▁리가
▁재앙
▁일지
▁스티브
▁연설
▁트럼프
▁멘붕
▁일곱
▁장본
▁So
▁게끔
▁퍼펙트
▁프레스
▁과언
▁귀국
▁IT
▁저글링
▁사방
▁발사기
▁배구
▁시호
▁학사
▁파운드
▁점검
민주
▁스틱
▁갈구
▁궁합
pt
▁맛보
▁임진
▁쯔
▁미성
AP
▁절단
▁에드워드
ail
▁전송
▁Mag
▁석유
▁녹화
▁블럭
토니
▁머물
▁그레이드
▁펑크
▁오만
▁슬러그
▁소꿉친구
▁마당
케이션
▁이현
가루
▁공헌
ork
▁솟
체스터
▁박명
▁골프
▁돌려주
▁습니까
99
▁RE
▁이대로
▁얌
▁신곡
▁장본인
▁인명
ition
▁한정판
▁희생자
▁주사위
▁구로
▁야망
▁Super
▁충족
▁맞먹
▁테크닉
▁봉사
▁이니
▁학년도
▁노하
▁원한
디움
▁보우
▁오사
▁토큰
▁테니스
덕션
▁up
▁퀴즈
▁OCG
▁엔트리
▁치이
▁놔
▁자루
▁햇
▁억제
바람
스카
마리
▁리부
▁달아나
▁화신
▁시간대
▁스칼
▁무비
▁무식
▁풍선
▁위시
▁주최
▁Fr
▁Ph
▁히사
▁BD
▁루마
▁박성
▁환생
▁DJMAX
세지
▁유동
▁카오루
▁호무
▁네크로
틀리
▁당초
▁흥분
▁코레
▁제재
▁pl
▁도깨비
방송
▁대학생
▁마지
▁모의
▁자포
▁정성
▁카인
▁굶
▁라이즈
▁가설
▁스모
▁질주
▁광물
▁제리
▁편의점
▁킴
페이스
▁그러면
▁아리스
▁TP
▁에일리
▁김성근
▁벙커
▁찬양
▁프로그래
볼루션
▁신관
▁유즈
▁스윙
▁강전
▁라이센스
수리
▁과일
▁방심
▁치고
▁조화
▁중기
▁동성애
▁김승
▁비단
▁스콜
▁저상
▁목욕
inal
▁기술력
▁내기
▁씨앗
▁이이
▁보르
▁플레임
▁소재지
▁인벤
▁대검
▁이호
▁무실
AY
▁직행
▁대면
▁스타트
모습
서스
지능
▁두드러지
▁인공지능
▁경북
▁라오
▁123
▁일어
▁선회
▁갈기
▁리뉴
▁국토
▁옴
▁반도
▁계략
▁흘러가
▁평판
▁두껍
▁초록색
▁코끼리
▁급격히
▁발각
▁아랫
▁재질
▁국방부
▁시종
▁타키
usic
▁이리저리
▁캘리
▁달려오
▁게르
ble
▁야마모토
▁레버
▁지루
▁롤러
▁숙청
te
▁교대
▁제니
▁104
▁맷집
▁유아
▁뺨
▁병과
▁치바
▁스마일
▁일산
▁일러스트레이터
바리
사르
▁DPS
▁Qu
▁멧
▁덥
▁프롤
▁도미
▁중원
▁칼라
▁Dream
▁밀리언
▁쥰
▁프로덕션
▁고우
▁포크
▁리츠
▁문양
▁이윤
▁소소
▁으려면
▁나락
▁무자
▁1973
▁109
▁김두
▁are
▁대명
▁원화
▁스코틀랜드
▁완성도
▁일레븐
▁토마스
▁동이
그라
▁차림
전사
▁분홍
▁의의
▁카제
기에
▁진동
▁다지만
▁스타디움
▁히드라
▁흉내
▁수중
▁지오
▁도대
▁케이크
▁갸
▁세키
▁오타쿠
▁무신
▁강릉
▁거꾸
▁완화
▁제너
▁사이토
▁과격
▁총장
▁트러
▁동구
▁명시
▁이력
▁발전소
▁강인
▁샘플
▁여태
▁떨구
▁집계
▁135
▁레슬러
▁이쿠
▁중점
▁Mi
▁쥬얼
▁악행
▁에버
▁고인
▁상금
▁앤드
▁피오
▁여주인공
▁난리
▁공교
▁스토어
▁침착
▁바이크
▁관료
▁순천
▁자율
▁도배
▁155
▁때려잡
▁인도네시아
▁학위
▁여장
▁뚜렷
▁카토
▁사가
▁단련
▁라이드
▁무궁
▁젝
▁리볼
IK
▁갱신
▁하이드
▁무늬
▁두려워하
▁남한
▁짝사랑
▁다케
▁외야수
▁독보
▁배리
▁친애
▁반경
▁관문
▁항공사
▁중견
▁스탈린
▁찔리
▁걸어가
▁킹덤
테이션
▁내밀
▁뮌헨
히토
▁갯
▁몰아넣
▁각인
▁국정
▁조립
▁챔피언십
▁이듬
천사
anc
▁태권
▁불리우
▁완구
방울
의자
▁제의
▁ㄹ게
▁강타
▁체코
▁발키리
▁툰
▁모욕
▁해태
티니
▁공산주의
▁AB
▁휴게
▁맞히
▁이대
▁부끄럽
▁이틀
▁정전
▁사체
▁심히
▁부가
▁스페인어
▁뻔하
▁팍
▁반성
uck
의회
▁천상
▁교도소
▁휴대폰
▁켄지
TA
▁찰스
▁퓨전
▁방언
▁스로
▁185
▁연기력
▁손잡이
▁1200
▁놔두
▁스파크
▁도스
▁거꾸로
쿠스
▁아이즈
IL
못미
▁지못미
▁아타
▁내외
PER
▁명탐정
▁MM
▁울음
ise
▁섬기
▁go
▁지온
▁꾀
▁ㄷ
▁중구
▁신주
▁무작위
▁극심
▁보강
▁성지
▁AL
▁얼리
▁wiki
▁썸
▁교역
▁민국
▁유라
▁UP
▁바인
▁중소
▁1974
▁냉장
▁지크
▁도대체
무이
▁Ver
▁개판
▁하수인
텍스
▁HE
▁기관포
▁강동
▁돌려
▁세츠
▁시안
▁시네마
▁경사
▁릴리스
▁창세
스티스
▁살아오
▁뤼
▁기행
▁예고편
▁나이츠
▁포니
▁필사
▁iOS
▁간파
▁단자
▁초등학생
▁입사
▁이계
▁찬성
▁권하
▁부채
▁향후
▁부제
▁패왕
▁레슬링
▁DI
▁MG
▁심정
▁엉뚱
▁적이
▁tr
▁겨루
▁장갑차
▁도약
▁아폴
▁야마다
▁좌측
▁격렬
ung
리칸
▁JT
▁코노
▁유니콘
▁종전
▁버블
▁소통
▁사천왕
▁보스턴
▁주석
▁이듬해
▁망설
▁극악
에른
보기
▁그간
▁노무
▁장풍
▁분할
▁유능
▁깽
▁공격기
▁미유키
▁르노
백과
멘터리
▁성대
▁훼손
▁테이프
▁눈앞
▁은폐
▁깡패
▁배급
▁비참
▁마징
▁결과물
▁신생
▁마징가
느님
vel
▁가구
▁신학
▁CL
▁내각
파이
▁동아시아
oun
▁CR
▁폐선
▁노랗
▁채찍
▁서머
▁때로
▁하느님
▁빈약
▁주술
▁중공
▁충고
▁107
▁양대
▁반장
▁래퍼
▁유스
▁자산
▁벨기에
11
▁유메
▁일리
▁소비자
▁186
▁잼
▁대등
▁욕망
oo
▁재벌
▁으리
▁카사
▁BB
▁Team
▁불길
▁플리
사벽
에몽
▁넘사벽
▁as
▁헥
▁김병
▁중국인
▁왕족
▁정형
▁다큐멘터리
▁초과
▁할로
▁헤라
▁갈라지
▁인성
보우
은이
▁레시
▁119
▁와이번스
▁미판
▁지면
▁진짜로
▁리우스
르타
▁브레스
urn
▁이념
▁마라
way
▁눈동자
▁망명
▁산소
▁탐사
▁모기
▁엠블
▁후대
▁잎
▁바이에른
▁모던
▁인텔
▁스노우
▁홍진호
▁all
▁취재
▁원작자
과이
▁챔스
▁케리건
▁1975
▁나카무라
구역
▁파괴력
▁조국
▁Black
▁삼키
▁주유
▁필립
▁no
▁상부
▁얼티밋
진영
▁사지
▁주입
▁오퍼
▁주저
▁집사
▁신조
▁주머니
▁대피
▁헤일
▁일례
▁116
▁망상
▁냉동
▁용산
▁출고
0000
노스케
▁아울
세서리
▁숙련도
▁추후
▁쓸데없이
▁식스
▁나인
▁성사
▁LTE
▁이원
▁사나이
▁문재인
▁남학생
▁소령
gh
▁근로
▁협조
▁시범
▁청룡
▁버거
▁조던
▁긋
FL
▁델타
▁말년
▁수립
▁Col
중간
속기
▁메테
▁187
▁저항력
▁충격파
ale
▁주교
더링
▁쳐들어오
▁피난
▁유치원
▁어벤져
티어
▁병행
▁에코
▁math
▁구호
▁순정
▁욱
▁비자
▁재즈
▁욕심
▁고래
▁혼동
▁절정
▁do
▁통틀어
▁Night
▁독백
ject
시티
▁트러블
▁군데
▁종착
▁FPS
▁종로
▁금강
▁(
▁MO
▁대목
▁아처
▁입원
▁리볼버
▁절벽
▁직위
▁퇴역
▁동사
▁ERA
▁요코하마
▁HS
▁고립
ier
▁그루
▁경상북도
▁앨런
▁해고
▁도사
▁플라스틱
▁키드
▁투니
긋나
▁리플렉
▁저스티스
▁한양
▁두목
▁급속
▁서리
▁Type
▁중화민국
ult
▁연전
돌프
▁짤리
▁TS
▁쿠바
▁어기
▁중년
키스
▁마가
▁중심지
▁손목
▁~"
▁마작
▁병장
▁시어
▁게리온
▁not
▁고이
▁재배
메다
▁포도
▁750
▁렀
상가
▁니코니코
▁연간
▁질풍
▁ㅇ
▁동계
▁본질
▁왕가
▁말씀
▁아인
▁용암
▁영등
드립
▁쫓기
▁오른팔
▁방공
▁122
▁완벽히
▁저격수
▁적립
▁끌어내
들목
사스
▁투고
▁누스
▁나들목
▁Girl
▁퍼시
생기
▁불문
▁이만
▁113
▁진단
▁국기
▁격투기
▁잠기
▁지극
▁레인보우
니발
▁빙의
▁강탈
▁노블
▁섭취
슬링
▁트이
▁실로
▁헐크
▁초청
▁포착
▁까마귀
▁약칭
▁꼼수
DD
▁집필
▁사투리
▁미코토
▁이용자
▁카즈야
▁제자리
성이
▁평택
▁미식
▁일각
▁홋카이도
▁야전
▁인체
▁존슨
▁1977
▁전수
▁희대
▁유카리
▁스나
▁내역
다드
▁하후
▁탈환
▁공짜
ose
▁두루
▁옵티
▁불참
▁1976
▁사탄
▁합계
▁승패
▁Gam
▁beat
▁핑계
▁염두
▁감기
▁안젤
▁공명
▁450
▁베이비
▁대교
▁점심
▁144
▁누이
▁인플
▁정조
▁Con
▁퉁
▁4000
▁캇
▁MSL
▁교향
▁크롤
▁차장
▁한나라
마치
▁일조
▁민중
자치
▁훈훈
ox
▁악하
▁호구
▁오딘
▁미트
▁뮤지션
▁숭배
GA
▁능하
▁동상
▁한나라당
▁딥
▁히로시마
▁로렌
▁무실점
▁검토
네이터
▁팜
▁브레이브
▁Do
▁제발
▁행진
▁도마
▁토오
▁320
▁Max
▁제인
▁래스터
▁리터
▁무지개
able
▁도검
물리
▁쿠르
터스
▁리셋
▁이태
▁철갑탄
▁대인배
▁의정부
뮤직
▁더구나
▁위쪽
지않
▁벌써
▁ne
▁단총
▁사내
▁Op
▁꺼지
▁냉장고
▁경지
▁서치
▁키노
▁거세
▁동인지
▁부산광역시
▁격하
ron
▁하행
▁속편
▁배신자
very
▁김광
▁스치
▁세례
▁화약
▁립스
▁하지
▁EV
▁동호
▁사퇴
▁아랑
▁측근
▁처녀
ign
▁패미
▁145
▁152
▁각국
int
▁패트
▁기원전
▁OF
▁교차로
▁응급
▁계곡
PA
고사
▁토가
▁제주도
▁스톡
▁주식회사
▁평점
▁레이너
▁맹독
사고
▁텔레포트
▁원자력
▁상행
▁베이징
▁후쿠오카
▁월간
태자
▁건너가
▁조교
▁액체
▁사직
▁노라
▁삿
▁콰
▁BC
▁내뱉
박이
▁사물
▁수하
▁신세계
▁데미
▁일품
▁회관
▁총사
▁노골
▁사소
▁전도
▁참으로
▁청나라
큘라
▁자켓
EL
▁팰
▁타구
▁패닉
▁테러리
카미
▁수감
▁초필
▁솔직히
▁마초
▁도라에몽
▁춤추
▁황혼
▁밭
▁김전
▁사일
▁신칸
▁연이
▁1972
▁에일리언
▁남미
▁앞면
▁남양
미터
▁물약
당기
▁베어
▁생각나
퍼드
▁우지
▁아슬
▁태풍
▁토비
▁메디
▁페르시아
▁시조
▁토막
▁인사이드
▁두려움
▁파고
▁궤적
▁윤리
▁KTX
▁신칸센
▁브루스
▁아이디
▁랜서
▁투사
▁주파
▁금요일
▁콧
▁줄기
▁법사
▁정우
타니
▁초점
▁카일
▁시초
▁비꼬
▁고난
닐라
▁대변
▁설마
▁김구
▁피지컬
▁김전일
▁알렉산드
ild
▁210
▁저승
▁더미
▁객관
▁키미
▁부동산
▁일환
▁이점
▁김지
▁서태
▁관광객
▁태생
▁판권
15
▁BJ
▁박명수
▁감금
퀘어
▁연소
하여
▁음향
iel
▁PSP
▁장동
▁La
▁상의
▁해상도
▁격기
▁쟁이
▁맑
▁껍질
▁영화제
▁프랭크
▁볼드
▁사탕
▁Gre
▁보트
▁접수
▁파밍
▁명나라
▁{{{#
▁스바
▁다니엘
▁다기
▁사극
▁선원
▁탁월
▁Am
▁우두
▁안드로
▁바닷
랄드
▁스매
▁정준
▁프랜차
▁과금
▁등재
▁코즈
▁왕후
▁서울시
▁본의
▁텍사스
▁나레이션
▁슬램
▁히나타
▁알라
▁깨알
▁프랜차이즈
▁보복
▁캘리포
부인
▁타리
▁랜스
▁어퍼
▁라틴어
▁밀어붙이
▁약체
▁럭키
▁심야
▁리키
▁무색
▁타스
▁메이트
컨드
▁연금술사
▁핀란드
▁골치
▁환호
▁세컨드
▁맞물리
▁암컷
▁다이스케
▁아쉬움
▁시뮬레이션
▁에도
▁바이킹
▁안동
▁이별
▁전학
▁치마
▁디스플레이
▁아테나
▁공국
▁우미
▁BM
▁고질
▁에필
▁에필로그
ANC
▁스팅
▁사우스
▁발발
▁주한
▁주황
▁~!
차리
▁몰려오
▁무단
▁지미
▁배후
▁캘리포니아
▁중급
▁옵티머스
▁개그맨
▁보디
▁별칭
▁슬슬
▁목동
▁컬렉션
▁165
▁섹스
▁탄막
▁노무현
▁어린아이
▁시끄럽
▁능숙
▁잔류
▁점하
ae
▁장시
▁스택
▁무슬
▁혼인
▁강습
▁DR
▁GHz
▁브레인
▁마수
▁마의
▁Wii
▁저거
▁십자가
▁외관
▁팝픈
▁호응
▁강점기
▁팝픈뮤직
▁사슬
▁내면
▁카구라
▁월등
▁끝장
▁저러
▁점멸
▁조준경
▁타카시
▁노르웨이
▁방침
▁저자
▁청구
▁무수
▁유해
레이크
교사
메라
▁feat
▁카이토
▁편견
▁요우
▁가라앉
▁구청
▁달라
▁신상
▁진하
▁마켓
▁경제학
▁바론
▁라던가
▁술집
▁아메리칸
보라
▁CN
▁바나나
AND
▁무슬림
▁빗나가
▁반기
▁낯
▁고종
▁좌익
▁교정
▁나란히
▁UC
▁스토커
▁시흥
▁오리진
▁체격
▁풀려나
▁평론가
▁rd
▁직격
▁무사시
▁서바이벌
▁격퇴
▁음색
▁필두
소총
ANI
▁신념
▁전두
▁스네이크
마르
▁개미
▁1969
▁자작
▁평등
▁..?
티지
▁뚝
▁군요
▁반론
▁수컷
▁쫓아내
▁파우
▁토오루
▁네이션
▁컨디션
▁Time
aby
▁ㄴ단
▁중후
▁화석
나리
▁관절
▁선인
▁정서
▁가해
▁비로
▁드리블
▁순간이동
▁모어
▁질환
앙스
▁방울
▁투신
ull
▁댐
▁문법
빨리
▁본가
매니아
맥스
gin
▁협동
▁가혹
▁1971
▁계절
총장
▁로지
▁자부
▁드라큘라
ical
▁10000
▁냅
▁이방
▁인구수
▁궁수
..
STER
▁인트
▁단의
▁빈번
▁캔디
▁퓨처
▁모스크바
레일
▁}}
▁타치바나
▁최하
▁헤드샷
▁유코
▁두뇌
▁라비
▁GN
▁엣지
▁펭귄
▁천문
▁강아지
▁뉘앙스
▁응원가
▁from
▁MHz
베트
▁동등
▁반란군
▁알아차리
▁다녀
▁테레
▁마르코
▁주차장
▁늪
철수
콥터
▁관계없이
소수
▁양심
▁부관
▁테러리스트
▁멸종
▁후루
▁타당
▁빙결
▁아카리
▁종말
▁징계
▁덴마크
▁조수
▁미도리
▁레기
▁마신
▁오키나
▁김주
▁꼴찌
▁센트럴
▁일본식
▁주공
플렉스
▁신병
▁생태
▁차분
▁상장
oul
▁유고
▁굳히
▁KB
▁콘스탄
▁성숙
▁확고
▁스케줄
▁목포
▁카렌
▁BEM
▁말레이
▁어긋나
▁발차기
▁웨인
▁저기
▁에메랄드
공사
▁숙소
▁스파이크
▁수령
▁미모
▁분포
▁벚
▁멋있
▁서명
▁슬라이드
▁이어서
▁아르카
시다
▁상어
▁솜씨
▁프로토타입
▁정답
▁위키백과
▁복용
▁현황
▁제조사
바스
▁파문
▁DX
▁아마존
▁유유
레슬링
천군
▁흑마
▁Gu
▁타고
▁국산
▁몹시
▁모함
▁혼다
▁NEW
▁AFC
▁극우
▁가해자
▁대쉬
▁Gl
▁나사
▁폐허
▁갈아타
▁미숙
▁수여
▁ㅡ
▁구제
▁케로
▁하라
재기
▁숙주
▁프롤로그
▁맥락
▁유진
▁워낙에
▁JTBC
▁프로레슬링
▁노비
▁미끼
▁믿음
▁우투
▁샤아
▁HARD
▁레오나
▁샹
▁근성
▁영등포
▁수수료
▁보행
▁고음
▁리부트
▁마마
▁ATK
▁가의
▁스바루
▁네스
▁난민
▁메세지
▁Ro
tern
▁거니
TC
▁고발
▁로열
▁유마
▁new
▁싣
▁관직
▁하드웨어
▁궁전
▁패드
▁하와
▁헬리콥터
▁꿇
▁예방
▁합법
▁군림
▁단말
▁시가
▁응시
▁TCG
▁파손
▁별자리
▁카테고리
▁콕
▁매지
▁발톱
▁회계
▁EU
▁분배
▁기피
▁쑤
▁간호
▁에바
▁섬멸
▁드릴
▁외래
▁체형
▁파격
idth
▁모양새
▁샤워
▁에그
▁단서
▁도시락
▁실장
▁사르
▁선봉
gr
▁우편
▁집합
▁동체
▁Co
▁로컬
▁전염
▁그랜
▁cl
▁풍경
▁연의
▁피카츄
▁코지
시스코
▁밧
교통
▁기하
▁유신
▁이광
▁유방
▁오케스트라
플러스
▁생선
▁BEMANI
▁지붕
▁출제
▁기법
▁수성
레이트
▁러시아어
▁상대식
▁미스트
▁원장
▁천마
▁미즈키
▁깨우
▁브론
▁유선
▁유정
▁연고지
▁중도
▁할로윈
▁기함
▁직속
▁제사
▁Mr
▁소집
메어
▁IP
▁격침
▁부류
app
▁이세
▁환수
ough
▁랙
▁가창
▁농민
▁벨라
▁Ser
▁경상남도
13
▁조력
ERO
▁매기
▁일삼
▁제우스
▁캐스트
▁하이라이트
▁다저스
▁밀어주
▁뒤쪽
▁미사키
▁스트로
▁청사
▁장례식
▁UM
대교
글라스
▁IV
▁루루
▁한층
▁배송
▁오디오
▁CE
▁내뿜
▁인쇄
▁크라운
▁스쿼
▁액셀
▁성명
▁소노
▁져
eel
▁LE
▁후면
▁114
▁이인
▁컴백
▁나이트메어
쳐나
현우
▁Sk
▁대니
▁개교
▁캐슬
처럼
▁통수
▁수시로
▁ㅔ
▁거품
▁불쾌
▁노래방
▁오쿠
▁파이프
▁쓰러트리
▁ㄴ다던가
통수
▁창립
▁앞뒤
▁성비
▁가미
▁걸음
▁박쥐
▁츠바사
▁안토니
▁부사
▁자각
▁주의자
▁can
▁이에
▁키사
▁상쇄
▁width
▁NT
▁레바
▁차용
▁제작비
퍼니
▁하이브리
▁명곡
▁AF
▁Heart
▁방호
▁하이브리드
활약
▁추모
▁길거리
지오
▁전례
와라
▁불화
▁오바
▁히데요시
▁드로
▁무선
▁츠나
▁해변
드로
▁오비
▁지배자
▁난감
▁Dark
▁결의
▁라드
▁사각
▁응답
▁카이사르
▁버릇
me
▁뒷면
▁Car
▁땀
▁그제
전트
▁섹시
▁상시
▁홈즈
▁Sch
▁되살리
ll
▁페인
▁아비
소문
▁가브리
▁말아먹
저것
▁레이트
▁이것저것
▁브릿
▁낙선
▁발하
▁ㅓㅆ었
▁하의
▁보루
▁리프트
▁하여금
▁조항
▁괴상
지사
▁투성이
▁명명
박히
▁보고서
▁중학생
▁블랙홀
▁손톱
▁UFC
▁김두한
▁코요
줌마
▁윈터
▁PK
▁로브
▁부친
▁패스트
ye
▁연세대
▁가마
▁깃털
▁로저
▁원망
▁연회
▁악령
▁이노우
▁아줌마
▁교관
▁타다
쌔신
▁벌금
▁슈터
▁어쌔신
▁아이작
ution
▁원흉
▁내구력
츠카
▁노트북
▁공존
▁꾸리
▁타고나
▁클라우드
▁제이슨
▁수다
▁기이
무게
▁Em
▁몸무게
▁폴리스
▁지성
▁튜닝
▁천주교
▁혹평
▁줄줄
바시
▁성역
▁망설이
▁Is
▁발탁
▁콜로니
▁홈경기
저드
▁미호
▁}}}
▁배리어
▁간선
▁더라면
공화
▁민병
▁가로막
▁지각
▁김대중
자재
▁강세
ee
▁커먼
▁1968
▁산탄총
▁뚜껑
▁십자군
풀이
▁BT
▁강서
▁심화
▁프로리그
▁Bat
▁키무라
보그
▁일일이
▁랏
▁문신
▁뒤통수
oh
▁표하
▁라구
▁this
▁전광
▁마모루
▁포대
▁네코
▁로비
▁여배우
▁교양
▁깽판
▁북아
▁배우자
▁괴력
▁무너
▁무너뜨리
▁시에
▁발현
▁비타
▁동북
▁상공
▁적성
▁플레어
▁면접
▁틀어
ings
▁듀크
▁라프
▁열악
▁한강
▁아이폰
▁자주포
▁꽁
듈럼
▁사범
▁선포
▁SL
▁리자
▁미들
▁시궁
▁캐리어
▁주가
▁발렌타인
▁센티
▁끓이
▁공영
▁니나
▁테오
▁폭로
▁초상화
▁코타로
▁방화
▁무림
▁하우
▁핸들
reak
▁달라붙
▁행방불명
▁컴퍼니
▁증발
▁감성
▁자위대
어쓰
▁재활
▁저것
▁우가
▁라임
▁오시
▁시스터
▁오프라인
▁외면
▁포맷
▁빅토리아
▁보잉
▁암울
▁연달
▁처절
▁프랑켄
▁남발
▁퍼붓
▁저서
▁전두환
▁교통사고
▁코바야시
▁미세
▁달래
▁펜듈럼
▁고토
▁유난
▁실력자
▁전라남도
▁테루
▁김일성
▁뱉
단지
▁TO
▁둥지
▁애쓰
▁타케시
▁기합
▁EBS
▁우두머리
▁저조
▁당나라
▁직결
▁ㄹ려고
▁ㄹ지라도
▁꿰뚫
▁총독
▁친목
▁허브
두사
▁요리사
▁야만
▁맨체스터
▁Su
▁시코
▁맹활약
▁이행
▁캡콤
▁성직자
▁연막
▁계란
▁로맨스
▁슬라임
▁오키나와
▁대외
▁안무
▁침해
▁그랑프리
icro
▁나열
▁회로
▁문고
▁도타
▁따라잡
ict
▁스텔라
니클
▁앵커
▁~~
▁환사
CH
▁랜턴
노기
▁개개
▁느니
▁짤방
▁203
▁넉넉
▁무협
▁변호
▁자칫
▁다녀오
▁부처
▁애국
▁Light
▁운석
▁수영복
장난
▁박치기
▁접어들
▁둥글
▁개막전
▁이치고
▁북두
▁찰나
▁쫄
▁직역
▁죄수
▁험하
▁사이보그
▁어미
▁볶
▁요시노
▁요시다
▁듀스
▁물가
▁냉전
▁힌트
▁공고
▁ver
▁푼
▁레즈
▁쳐다보
▁Kore
▁야쿠자
▁착지
▁LED
▁구절
▁신수
▁샤프
ors
▁사료
▁Im
▁고속버스
▁제지
▁파랑
▁코디
▁단식
▁주되
▁117
▁진정하
▁GTA
▁럴
셉트
▁찢어지
▁뭔
▁그리하여
▁대법
▁잔해
▁줄어드
▁범하
▁적재
▁므
무네
▁켄이치
▁뉴질
▁뉴질랜드
레드
▁ADV
▁마사키
▁대안
mania
▁배속
▁수용소
▁Sy
▁빈틈
▁우습
▁만행
▁롤링
▁지극히
▁괴리
▁실바
▁케이지
▁성수
▁127
▁혼합
▁어드밴스
▁땅볼
▁유타
▁몰아붙이
▁BO
▁번갈
▁이사장
스트림
▁여관
▁도요
▁청하
▁확립
▁184
▁AE
▁깃들
▁영미
오스
▁기쁨
▁동족
▁Ev
▁비로소
▁라파
▁담임
▁먼지
▁126
▁고조
치아
▁이성계
▁그려
▁좌파
▁앤디
▁추적자
▁공모
▁어벤져스
일라
▁금고
민주당
토랑
▁셸
▁간호사
▁장신구
▁온몸
▁진로
▁레스토랑
▁아이스크림
▁메모
▁pro
▁줌
▁고든
▁스퀘어
ACK
▁군복
▁왓
▁호쿠
▁수확
▁타나카
▁신이치
▁우상
▁드레드
▁저렇게
모어
▁특훈
▁자격증
▁사쿠라이
▁야마구치
▁김윤
▁유무
더슨
▁정체불명
▁속력
▁블라디
▁병종
▁하반기
디스
▁해역
주의자
▁플래닛
▁라지만
▁자회사
14
▁라나
▁실루
▁니카
▁크리스토
▁불평
▁가나
▁유토
▁팩션
▁중전차
ics
▁무진
▁사스케
▁시부
▁쪼개
야샤
▁이누야샤
▁설탕
▁설화
▁실정
▁max
▁ar
▁준하
▁DNA
▁가브리엘
▁테르
▁퓨리
▁통보
▁중앙선
▁휴게소
무기
▁실업
▁과감
▁183
▁광전사
▁will
▁성기
▁화소
▁이준
▁인어
▁기괴
▁호프
▁대대로
▁지주
▁심상
▁중재
▁트레이닝
▁공손
▁책상
▁GPU
▁김연
▁당국
▁잊어버리
니카
▁버터
▁텀
▁엄폐
▁178
▁미수
▁스크래
요환
▁못지않
▁몰아내
▁아이유
▁스쿼드
▁동년
▁상용
▁연말
▁명작
▁영화판
넘기
휴일
▁급기
▁As
▁내셔널
▁1967
▁리쿠
▁클레이
코어
▁슈가
▁순찰
▁오덕
▁시가지
▁섀도
▁어설프
▁프린스
산동
▁농락
▁아몬
▁접점
▁여수
소년
▁리바
▁HG
▁루터
▁사교
▁사망자
▁창세기
▁데스티니
▁운반
▁임요환
af
▁나고
▁쾌속
▁태조
▁마비노기
▁단속
▁샤크
▁후타
▁사모
▁거르
▁Let
▁물리학
▁마장
ex
▁무궁화
▁로코
▁세미
▁토트
▁포트리스
▁농사
▁무명
▁베이더
▁넵
▁골목
▁샤를
▁호스
▁WH
ammer
즈마
▁Of
▁예비군
퇴근
▁us
▁대중교통
▁수량
▁오의
▁더욱이
▁하시
르도
▁내정
▁코이치
요이
▁Red
▁해치우
▁바티
▁쫓아가
▁쎄
트랙
▁제프
▁진수
▁게임기
▁자니
▁Your
▁빠뜨리
▁182
▁괴담
▁매스
▁총선거
▁출루율
▁신주쿠
▁자판
▁호로
▁농협
▁황실
▁사이퍼
IGH
▁부평
▁냉기
▁슬퍼
로프
커녕
▁오세
▁시엘
▁브라더
▁른
▁카우
▁단과
▁MX
▁우체
▁인터페이스
아슬
▁레시피
▁아슬아슬
▁법무
▁키즈
▁하비
▁으리라
▁페이트
▁계열사
▁박종
크리
▁습관
▁타국
▁168
▁고속도
▁스크래치
▁사출
▁세세
▁Rock
▁출중
▁시궁창
▁FW
규모
▁이선
▁거스르
▁제스
▁혹사
▁열등
▁타니
▁찰리
▁배기
▁주고
애나
▁..!
▁끼어들
▁1963
▁후일담
▁LIVE
ica
▁신임
▁유난히
▁Tw
▁셋째
▁플루
che
▁전임
▁커트
other
▁밈
테이
▁부흥
▁리턴
▁망가
▁성형
▁페가
▁통행
▁공휴일
ody
▁한도
고래
▁진리
▁피드
▁유니온
▁낡
▁고성
쿠로
▁관동
▁서해
▁브랜
▁애쉬
▁코프
▁330
▁염색
▁수식
▁해적단
▁통증
▁졸개
▁달콤
▁용의자
▁빼내
▁본디
▁키바
▁이노우에
LS
변이
▁나뭇
▁징징
▁쓸어버리
▁막부
▁시련
▁이질
▁하야토
▁돌연변이
▁클레어
▁경찰청
▁핸드폰
▁추출
▁Don
▁키트
▁통신사
▁오인
16
▁카노
▁선수단
▁복싱
▁코다
▁이명박
▁조폭
▁클러
▁파수
▁Min
▁탄탄
▁하세
▁륙
현진
▁러너
▁멀쩡히
▁가르침
▁듀티
▁불로
▁신대
▁정립
oth
▁지요
▁Sun
▁이라든가
▁학점
▁감행
▁분장
▁앞세우
▁공습
▁단테
▁미하
▁소설가
▁아즈사
▁카오리
▁모범
▁메우
▁블래
▁치사
▁고릴라
자동
▁군기
▁자질
▁정교회
상가상
▁라바
▁설상가상
▁그려지
▁스캔들
▁푹
ins
▁독립운동
▁have
정역
▁MK
▁결사
▁귀하
▁방안
▁쿠루
▁접근성
▁2500
▁든가
▁야심
▁단정
▁장편
▁애당초
더기
▁고폭탄
▁줄리
▁코나미
▁슬퍼하
투표
▁ㅏ야
▁가급
▁근력
▁클라이
▁좌석버스
▁함포
▁재빨리
미르
▁구타
▁진구
▁필터
▁브라우
▁퐁
▁도호
▁SCP
▁극소수
▁제대
▁출연진
▁따내
▁탐구
레인저
▁대국
▁정명
▁TOP
▁동탁
▁물어보
▁매너
티콘
▁OB
▁카무이
▁형편없
▁162
▁임관
▁연예계
▁제다이
▁자유자재
스틴
▁진도
▁인맥
▁한발
▁UF
▁살상
프라
▁리전
▁애프
▁야시
▁다던가
▁후예
▁전속
▁뽐
카즈
▁미티
▁월급
▁라거나
▁승려
▁BAS
▁미성년
▁통용
▁호출
▁Rev
▁브이
▁석상
▁대명사
▁패기
▁미스터리
▁박탈
▁악곡
▁세일
▁소매
▁하타
▁태자
▁트렌
기어
▁장학
▁샤오
평가
▁어그
▁판사
▁멀리서
▁마이어
▁누명
▁애시
▁성폭
▁에로게
▁더하
▁연발
▁증권
▁호박
▁트로이
케인
▁셰프
▁158
agon
▁실루엣
▁어인
▁Per
▁딱딱
▁장병
▁1944
▁넓히
▁베인
▁삼촌
재판
▁닉스
▁연방군
▁교내
▁Sum
▁STER
▁열세
▁월요일
GB
▁루키
▁부도
▁수강
▁카가미
▁이례
▁출퇴근
▁프로모
▁후문
17
▁격전
▁책정
▁파벌
▁바닐라
▁토이
▁사우루스
▁노기
▁시몬
▁비즈
▁서킷
▁일절
▁TEC
▁사에
▁신흥
▁Gen
▁하지메
▁am
▁바주
▁반군
▁태종
▁특촬
▁동래
토시
▁선우
▁세탁
테리
▁게임즈
▁볼텍스
▁Sl
▁벡터
▁샴
ECT
▁충남
▁beatmania
▁우파
▁숏
티노
▁저리
▁디렉터
▁마이트
ater
▁경연
▁전열
▁one
▁레지스
▁1966
▁ㄴ가요
기지
▁유대인
▁대군
패스
▁하워드
▁소규모
▁이치로
▁발칸
▁복음
▁홍성
▁독수리
▁DO
▁OK
▁ㄴ들
▁받치
▁뢰
▁가토
▁단골
▁동봉
▁갈리아
▁고어
▁구마
▁자처
▁태극
▁세스
▁한몫
▁꽂히
▁ㄹ라
▁부럽
▁커비
▁분기점
▁ㄹ래
▁성벽
▁당주
▁소사
▁재고
▁전세
▁레이터
▁신정
▁사사키
▁입양
▁징크스
▁리엘
▁얼터
ium
▁절규
클린
심장
▁음주
▁도쿠가와
▁따라다니
▁자카
려보
기사
▁필연
그룹
▁love
▁토네
▁대공포
▁입국
▁질량
▁132
▁카를로스
▁벚꽃
ions
▁발악
DS
▁패미컴
▁영동
▁출근
▁그리스도
▁빅뱅
▁네놈
▁뜯어
▁탄소
▁동조
▁리티
▁승급
▁ㅔ요
▁공성전
▁건재
▁얼핏
▁LOVE
▁셉
▁대본
▁맞대
니즘
▁집회
▁청와
▁반항
▁하카
▁로저스
▁냉각
▁뽕
▁서대
▁159
▁서민
▁카린
▁기온
UR
▁쩔
▁히카리
▁DT
▁최정
▁구단주
▁아폴로
▁본성
▁반다이
▁와이어
▁오너
▁사용자
▁PL
▁휩싸
▁말장난
▁동문
▁데우스
▁아래쪽
▁경보
▁술법
▁공방전
▁동갑
▁천둥
▁배율
▁퇴사
▁133
▁러닝
▁우물
바다
▁태미
▁김택
ould
▁조직원
port
▁시그마
파크
▁미로
▁박찬
▁의아
▁게릴라
▁가변
▁리에
▁번식
▁악어
▁124
▁High
▁방송인
▁액세서리
▁사당
▁짚
▁IDOL
▁블레이즈
▁얕
▁Oh
▁분쇄
▁직구
미즈
▁제식
▁바주카
▁학급
▁구급
▁픽셀
ange
▁스칼렛
▁퇴출
▁EXT
▁허공
부지
어찌
▁FX
▁HK
▁보살
▁마운트
▁시즈카
▁마이너스
▁동요
▁비장
▁상가
프란
▁경질
▁슈퍼스타
▁베가
▁악랄
ott
▁인천광역시
▁자손
어붙
▁광대
▁결함
▁흑화
▁악용
▁모닝
▁무죄
▁밀집
▁배상
▁MLB
▁마크로스
▁박영
▁사다
▁프로그래밍
▁구두
▁추궁
▁최대치
▁크로니클
▁볼륨
▁파이브
▁세레
les
▁쫓아오
▁주술사
▁어찌어찌
▁1940
▁한탄
니스트
▁뷔
▁Par
▁280
▁감히
▁1962
▁허세
▁힐링
▁EM
▁새우
▁체질
▁연비
▁운운
▁복도
▁반말
▁굳어지
파리
▁차선
▁기소
▁데카
▁관념
▁드루이드
▁퍼센트
▁BW
▁엿보
▁156
▁필라
▁흡연
ator
▁현상금
▁계좌
▁지그
▁심슨
▁헌데
노미야
▁제시카
▁쑥
IE
▁코카
▁함재기
▁이승만
댓말
▁무안
▁토로
▁학번
▁존댓말
란트
▁광복
▁총열
▁인기투표
▁일렉트로
▁화내
▁ㄹ지도
▁Arm
▁청와대
▁El
▁매달
▁광탈
▁남작
▁무르
▁br
▁Master
▁광속
▁Ang
▁가성
▁원호
▁파인
▁런닝
▁접전
▁was
▁포워드
▁실습
▁전편
▁여고생
▁나츠미
▁동로
▁배열
▁성서
▁경쟁자
▁GG
▁심문
▁정재
▁230
즈카
▁실황
▁체스
▁기술자
▁허구
▁메테오
두리
▁대패
▁시간표
▁다이노스
꿈치
▁RP
▁취지
인간
▁기라
▁카도
▁아이언맨
▁금색
▁118
징어
▁바우
UT
▁라든지
▁이용해
▁페미니
▁터미네이터
널드
18
▁열풍
▁텅
▁불신
▁펠리
▁노이즈
▁콜드
▁화자
▁똑똑
▁미끄
▁치명상
나드
▁웨어
▁카탈
▁훅
▁시집
▁팔라딘
▁밋
▁까닭
▁장타율
립트
▁억지
▁ARM
▁어느새
▁성도
▁전반기
▁제정신
▁소실
▁자드
▁138
▁급기야
▁네이트
ICE
▁공로
▁수험
▁거느리
▁베일
▁퓨어
▁점사
▁급히
▁탄도
프레스
▁군사력
▁장안
▁1930
▁차후
▁탯이
▁게시물
▁알렉산더
▁비시
▁시저
▁콘셉트
▁리조
▁호전
▁스매시
▁털어놓
▁문어
▁드라군
날드
▁강수
▁위화
▁회오리
▁당첨
▁얼어붙
▁제르
▁하렘
▁해독
19
▁소시
▁악세
▁학술
▁말레이시아
▁렀다
▁안면
▁이진
▁히노
▁수상자
▁마에다
▁스콧
▁원활
▁호노
조합
▁돌이
▁Sec
▁말미
▁운항
▁콜롬
▁반대편
▁경성
▁셜록
▁국당
▁균열
▁소동
▁토마토
▁가뜩
▁cc
▁일쑤
▁서울역
▁148
▁수준급
▁조운
▁호르
▁영남
밀리아
▁효과음
누르
▁염려
▁초래
▁메소
▁분홍색
엘라
▁개개인
▁빌보드
▁스타팅
▁지휘자
▁Fire
▁스플래시
▁교시
▁상권
▁성모
▁로망
▁넥서스
▁대출
lect
▁안산
▁원고
▁랩터
▁머릿
▁550
▁루마니아
alk
▁가뜩이나
▁가명
▁제멋
▁축적
▁경유지
▁시중
▁일보
베리아
▁지상파
▁보증
리우스
▁되살아나
▁간략
▁병단
▁악의
▁이아
▁제라
니스탄
▁김선
▁제단
칼리
▁고산
▁넥슨
▁바이올린
▁CA
▁고추
▁풍자
▁그놈
▁김원
▁양보
▁이마트
▁북구
▁FB
▁국력
▁스피커
▁궁지
테스
일으키
▁불러일으키
olution
▁껄
언정
▁007
▁하츠네
마침
▁왕관
▁대표작
▁팔찌
▁테이크
▁채취
▁외래어
ty
▁모친
▁부호
▁칠레
▁레이첼
▁메가트론
▁레프
▁백합
젤레스
▁급식
▁열받
▁체이
land
▁프로세서
▁""
▁불어
▁최면
▁이시다
▁pr
▁때마침
▁대마
▁270
수스
▁도피
▁안드로메다
▁발광
▁창시
▁나나미
▁kr
▁아야카
▁정류소
▁일련
▁파파
▁스피리
▁디펜스
▁에이전트
▁가축
▁전폭
▁주황색
▁바비
▁나고야
▁1964
▁숀
▁일어서
▁경과
▁투하
▁가급적
▁style
▁대용
▁무작정
▁발라드
▁양국
▁피처
▁172
축구
ony
▁가넷
▁회고
▁금호
▁안드레
▁뮬
▁안성
▁도리어
▁딸기
▁커터
▁떄
▁다단
▁유나
▁할리우드
놀이
▁논하
▁서초
▁에리카
▁프리즘
방향
▁정정
▁피에
▁들이대
▁sm
▁조력자
▁깁
▁카지노
▁편대
▁회화
▁리브
▁진행자
▁노숙
테이너
▁우크라
▁예언자
홍철
▁Li
▁오징어
천역
▁포효
▁해운대
▁so
▁병맛
▁브릿지
르기
▁닫히
▁설비
▁제원
▁임원
▁호투
▁정확도
▁키리토
▁덩크
▁테일러
▁컨트롤러
차례
▁체가
▁사로잡히
▁우천
▁자잘
▁항아리
▁시력
이프
▁우산
▁주범
▁스탠다드
▁연하
▁메탈기어
pr
▁메스
▁보리
▁예지
▁총격
▁코파
▁군함
▁프로모션
▁바하
▁응하
▁열람
▁Pv
▁야외
▁열전
▁BRV
▁주고받
▁은혜
▁로딩
▁천공
▁튜너
▁초교
▁마츠모토
BM
▁개드립
▁와우
▁Rem
▁이나즈마
▁외롭
▁천적
▁피치
▁아테네
클럽
▁1965
행위
메스
▁스타크
▁증세
▁지표
▁카디
게임넷
▁목적지
▁Blue
▁온게임넷
▁체크카드
▁프런트
▁블래스트
▁건전
▁로제
▁153
▁Dis
ert
왜란
▁뇌물
▁초코
▁둘러싸이
▁샤이닝
▁바그
비우스
▁마도사
▁프론트
▁Power
▁주파수
▁쇠퇴
▁임진왜란
▁무제한
▁양키스
▁나기사
▁하드코어
▁라시
▁저격총
이센
▁XY
▁대주
▁히로유키
▁Fi
▁177
▁스위트
포드
▁로그인
▁FL
▁갈라
▁집정
▁주거
▁오버로드
▁발상
▁솔리드
▁Good
▁요하
▁쓸데없
▁바사
▁복면
▁진에
▁Champ
▁개연
▁영진
▁생물학
느니
▁창업
▁도청
▁자취
▁공과
▁두근
▁바니
▁기총
▁증기
▁부대원
▁na
▁슬리
▁제휴
▁여권
▁넵튠
▁야당
▁소극
▁천계
▁체리
▁얀데레
▁용감
▁빼돌리
▁여의도
관총
▁상속
▁귀도
▁동창
▁방황
▁수작
▁ALL
▁우체국
▁소행
라이나
▁사용법
▁사슴
▁쏠쏠
▁휴일
▁민원
▁탄핵
▁SO
▁경매
▁눈빛
▁완전체
▁우루과이
▁종사
▁교향곡
▁기미
▁르네
▁리마
▁충청남도
▁타쿠미
석민
▁서장
▁산악
▁프리스트
같이
▁기성
부대
▁서드
▁EMP
OID
▁BA
▁강유
▁상표
라이즈
▁적시타
▁병살
▁STR
▁글러브
▁출석
▁생산량
무장
▁ME
▁맥도
▁원제
▁입체
▁양측
▁적진
▁그리드
▁열기
▁Sm
▁코이
▁적색
▁레이나
마당
▁러셀
▁재직
▁해수
tr
▁박경
▁방정
▁지망
▁%.
▁친정
▁GDP
▁mar
▁스파르타
▁초사
토리얼
▁슬로우
▁후유증
내리
▁바이스
▁북유럽
▁어리석
▁리트
▁엑소
▁휩싸이
토르
▁막아
▁아의
▁다툼
▁단백
▁미시
▁학계
▁헤매
얼거리
▁튜토리얼
▁아니하
▁횡단
▁260
▁카타르
▁Play
ART
▁박재
▁정벌
▁심심찮
▁폴더
▁합하
▁프론티어
▁포식
▁공동체
▁호기심
히사
▁미정
▁갭
▁다이어트
▁경량
▁방벽
▁유목
▁카스미
스트로
▁코시
▁팀장
▁샌프란
▁샌프란시스코
▁괄
숨에
▁단숨에
▁독재자
▁미츠루
▁선대
▁야하
▁첨단
▁밀란
▁서독
▁프리즈
▁지문
버릇
▁매수
▁청량
▁???
▁당당히
▁동지
▁작살
▁감전
▁금화
▁소심
▁화나
▁내수
▁마더
▁650
▁부당
▁이야말로
▁나데
▁레몬
▁페더
▁크루즈
▁늦추
▁적발
▁초토
▁취직
▁연금술
▁송출
장이
▁다이나
▁세르비아
▁토네이도
▁속옷
▁돌격소총
▁원천
의사
▁송도
▁지령
▁실명
▁아카이
▁라자
▁부메
▁슈타인
▁황무지
▁마커
▁생사
▁광신
버드
▁충공
25
▁무전
▁어처
▁137
▁텔레비전
려드
ERS
▁부츠
▁루시퍼
▁확연히
▁만화책
▁미니언
▁카르마
▁토트넘
▁메꾸
▁부메랑
▁원종
▁Dance
대기
▁장기간
▁라지
▁WCS
▁엘더스
▁쿠시
▁경감
▁개더링
▁중성
▁Over
▁대문
▁아란
▁징병
▁사임
▁스윕
베르트
▁앙쥬
▁현명
▁대사관
▁연습생
▁정장
무실
틀링
▁입맛
▁파산
▁Ke
페르
▁아다
▁157
▁설득력
▁이가
▁미성년자
▁돌아보
▁편안
▁회귀
▁154
▁카즈키
▁오반
▁179
▁씁
▁CO
▁공립
▁미디
저우
▁왼팔
▁트리스
▁금기
▁창병
▁고장나
▁섬유
▁가출
▁팀킬
▁Str
air
▁출몰
▁박상
▁퍼부
▁Ac
▁164
▁맴
▁내야수
▁기밀
▁드리프트
▁광범
▁금서
▁독서
라이어
▁한심
▁금곡
▁본국
▁세간
▁유서
▁기판
▁Music
▁빡세
oot
▁교란
▁직무
▁Ep
▁NL
▁표식
▁내걸
▁쇼트
매치
▁삽화
▁데스매치
▁뫼
▁양호
▁우메
▁어처구니
▁단간
▁망령
▁친일
▁텔레콤
▁선진국
▁오리온
▁민영
▁순진
▁공병
▁내륙
▁초식
▁왠만
▁와타루
▁쿠노
▁평민
▁ㄴ다든가
산물
▁Kn
▁DDR
▁아이리
▁수복
▁양주
▁티탄
▁쓸모없
▁129
▁젊은이
▁두부
▁홀딩
ern
▁폭사
▁225
▁최우수
▁심리학
ittle
▁쐐
▁만료
▁NHK
▁파워레인저
▁콘티
▁손바닥
▁택배
▁느냐는
▁때우
▁강적
▁최영
▁고령
▁괴도
레트
▁대각
▁그닥
▁솔라
▁'''
▁지역구
셔츠
▁뽐내
▁광범위
▁NS
▁김형
▁서점
▁세나
▁육박
▁타나
▁개틀링
▁불멸
▁툼
▁은혼
▁돌아서
▁콜라보레이션
▁펙
▁북방
▁발간
▁텍스
▁스코프
▁전용기
▁후궁
▁만화가
▁핵무기
▁강성
▁켄타
▁우로
▁충성심
AG
▁밉
▁바시
▁네타
▁변질
▁이승엽
▁윌리엄스
▁욕하
▁천황
▁중령
▁포지
▁역과
▁진료
▁저상버스
▁똘
▁리액
▁>,
▁범행
▁모호
▁비범
▁기타리스트
▁산책
▁춘천
동원
▁걸스
▁스냅
▁낙인
▁장동민
▁코지마
▁카자마
▁살피
바위
▁알아듣
▁Comm
▁글래
▁서정
▁Pre
▁박격
▁1800
▁크리스티
▁좌표
▁헛소리
▁백미
▁RC
▁하와이
▁대진
▁256
▁불사조
▁허리케인
▁숙이
▁라이터
▁설사
▁점거
▁포토
▁클로즈
▁Korea
▁진작
▁유행어
hammer
▁MR
▁자진
▁사이언
▁곡선
▁케이트
▁목재
▁에덴
▁예명
▁자연스레
결승
▁가솔
▁베이스볼
마츠
▁FR
▁마차
▁서커스
▁공익
▁헌신
oss
▁첫날
▁칙
▁정계
▁퍼니
▁노홍철
▁잠그
▁파장
아라
▁End
▁무빙
ield
▁무고
▁재위
▁검은색
▁즉각
슬러
▁화수
▁트린
ENT
▁중사
▁out
레미
▁신디
▁견인
▁스님
▁김명
▁LCD
▁Leg
▁펄스
자카
▁139
▁쿄스케
▁분자
▁134
▁꺾이
▁가창력
사우
▁색채
▁협의
▁작아지
▁선풍
RAM
▁강행
▁방과
▁하리
▁163
▁집정관
▁Life
▁대여
▁999
▁단말기
▁행태
▁양아치
▁충공깽
받침
▁지독
▁에우
▁yout
평균
▁전전
▁136
▁UFO
▁거유
▁환각
▁EXH
eng
▁모나
▁바트
▁엘소드
▁타츠야
▁JC
▁VOC
▁기관차
▁사토시
▁어지간히
무니
외선
edia
▁까먹
▁대승
▁카가
▁Gold
▁후반전
▁가가
▁부추
▁존속
▁박해
▁스왑
▁초고
▁서두르
▁토탈
▁176
▁Cy
▁남동
서야
▁피리
러나오
▁man
▁뒤집히
질기
▁173
▁MT
▁헬스
▁나츠키
▁뉴타입
▁포르노
▁BASIC
▁오미
▁XXX
▁끈질기
▁SG
▁애프터
▁이스터
▁케로로
범죄
▁경인
▁토우마
▁수리검
▁하자드
IST
▁애드
▁167
리에
▁번트
▁XP
▁왕좌
▁선곡
▁영창
▁파고들
▁수군
▁142
문트
▁뒤덮
▁미지수
▁격리
▁손녀
ek
▁왕따
▁초딩
▁책략
▁테크노
▁램프
▁신공
▁캐서
▁전라북도
▁SW
러드
inc
▁MD
▁세츠나
▁단백질
▁......
▁위탁
▁가치관
▁로마자
▁요미우리
미스
▁용맹
▁기획사
▁자크
▁청산
용차
▁강변
▁튀기
▁틀어지
▁6000
수아
▁더비
▁고양시
▁제멋대로
▁말소
▁상회
▁충북
▁국사
▁야드
▁초선
▁co
▁관제
▁}{
▁경순
▁로자
▁루리웹
▁막바지
▁키워드
▁정거
▁돌려보내
▁Summer
▁권능
▁380
▁경전철
▁에스파
▁피스트
▁수평
▁은밀
운전
▁백신
▁아치
▁149
카스
▁여사
irst
거진
▁특공대
▁쳐내
▁..'
▁본드
▁수원시
▁위화감
▁깊숙
▁한숨
▁버금
▁살인마
▁시노부
▁OR
▁서지
▁행선
세데스
▁류현진
▁메르세데스
▁지자
▁치부
▁페달
▁총괄
▁IDOLM
▁완수
▁학창
▁프레데
▁천연가스
▁정중
▁키퍼
▁스티커
▁어린애
▁전년
▁하부
▁위나라
▁캐서린
▁1961
▁파키스탄
제국
▁고베
▁King
▁가차
▁아멜
▁전교
ual
▁성체
YP
▁회견
▁강판
비언
▁무언
▁뷰티
▁ONE
▁노려보
▁AG
▁미쓰
▁이안
gain
▁스퍼
▁입술
▁흑룡
던트
▁다인
▁판본
패드
▁노이
▁유명세
▁게리
▁디비전
▁단선
▁무상
준혁
▁원격
▁UI
▁기와
▁멜론
▁인내
령관
토미
▁봉기
▁아홉
▁차종
▁다짐
▁수고
데기
▁기마
▁현존
▁경의
▁영분
먹이
▁골리
▁표방
▁마누
▁첨가
▁따돌리
▁제비
▁이과
▁부풀
▁Win
▁친위대
▁코우지
▁타케루
▁리히
▁바오
▁옐로
▁추월
▁휴스턴
크리트
▁143
▁프로이센
▁계보
▁댄서
▁역학
▁헤븐
▁물려주
▁사마의
▁단신
▁봉황
▁유노
▁최전
▁호그
▁그리스어
▁진가
▁어비스
미츠
▁정거장
▁황태자
▁미끄러지
▁오리지날
▁프랑크
▁리우
▁페니
▁베니
▁키메라
OO
▁관대
▁포럼
▁선형
▁시동
aj
▁무의
▁여하
▁흑백
▁ㄴ다든지
▁u
▁백룡
▁아제
▁죄송
툭튀
▁진공
▁후려
▁커맨더
▁조형
▁Can
▁아카기
▁쉘
▁빡빡
▁현직
▁ㄹ까요
▁속공
▁준장
▁카논
▁표본
▁한스
▁갑툭튀
▁VOCAL
▁사파이어
▁백색
▁잔당
▁실무
▁두께
▁육지
▁카에
▁단조
▁본문
▁청색
▁소진
▁씁쓸
▁커브
▁합창
▁매진
▁이분
▁오피스
하이
▁ㅅ
▁섬세
▁우사
▁Vo
▁크래
▁타시
▁테츠야
▁1942
▁속박
▁애교
▁제이크
▁자발
▁This
▁걸작
▁Out
▁매트릭스
yn
▁세션
▁어중간
▁1943
▁유지비
▁끝판
▁분사
▁사이오
▁OPS
▁마리사
IV
ube
▁미야자키
▁지아
▁무효화
▁What
▁난폭
▁왕건
▁Int
▁대두
▁각색
▁강팀
▁뭣
▁요동
▁SEED
▁의미심장
▁빨강
▁활주
조작
▁모탈
▁세이지
▁고독
▁치프
▁어워드
타르
▁되려
▁처단
▁스크립트
▁가든
▁안보
▁리젠
▁등교
▁승부조작
▁대부
▁거리표
▁Da
▁바바
▁콘크리트
▁독설
▁유우야
▁설계도
▁플러그
로리
▁배수량
▁수녀
▁심포
▁교훈
▁좁히
▁츠루
▁tvN
▁피어
▁김도
▁서인
▁연희
▁장원
▁재난
▁치중
레스트
▁언행
▁디테일
▁이터널
튀기
▁득표율
▁뾰
시계
▁재임
작전
▁신시
▁십상
▁초중
▁폭발물
▁격돌
▁경장
▁판과
▁마는
▁시세
ady
▁시르
▁칭송
▁사카모토
▁네모
▁선구
▁잉크
▁121
▁MASTER
▁대머리
▁뻥튀기
▁구독
▁오마주
▁교주
▁레미
▁성녀
▁양면
▁출세
▁미라이
▁Live
▁루팡
▁자신감
▁무성
▁음모론
▁랴
▁신축
▁ㄱ
▁가물
▁욕구
▁TD
▁능욕
▁재팬
▁매거진
▁바늘
▁세가
▁Hard
킨스
테나
▁괴멸
▁석사
▁Act
▁매그넘
▁흘러나오
▁이속
▁잠재력
ATION
▁당분
let
▁역관
▁로스앤
▁로스앤젤레스
▁문화재
▁배지
▁튜버
중국
▁표출
▁1920
▁비약
riend
▁노브
미사
▁관악
전대
▁어제
▁종일
▁배틀필드
▁조비
▁혜성
ush
▁섭외
▁이상민
iew
▁법안
▁엄지
▁여건
▁나우
▁우시
▁콥
▁볼프
▁인벤토리
▁이어인
▁엑스맨
▁앙리
▁폭동
▁베드
▁수소
▁준결승
▁샨
▁소리치
▁라이토
▁군산
▁174
▁난동
▁버금가
▁반칙
▁랄까
▁호세
▁워너
▁겉보기
▁자부심
▁부치
베르토
▁조인
eet
▁아역
▁작별
▁피에르
▁줄곧
▁아프가
버린
▁늘어놓
▁소용돌이
조각
bps
▁EA
▁덕택
▁밀치
▁리바이
▁솔로몬
▁이제동
▁꼭두
▁느긋
사이드
▁쇼핑몰
▁205
▁나오키
▁난해
▁반환
▁족장
▁베가스
▁누님
▁크리드
UC
▁성검
▁줄줄이
▁검도
▁포털
▁TG
▁송병
▁쐐기
▁제구
▁템포
▁외출
ational
▁BF
총리
▁틀림
▁다중
▁승기
▁평원
▁호대
페어
▁박용
▁유포
rain
여지
ORE
▁CB
▁사병
▁심리전
▁히코
▁무자비
▁Air
▁1946
무진
▁이에야스
▁문헌
▁양념
▁보유자
▁국물
▁켈리
▁도호쿠
ita
▁거물
▁겨누
▁즘
▁조그
주리
ESS
▁하르
▁레슨
▁만루
▁성우진
▁예배
▁임페
무소
UE
▁굴복
▁퍼스
▁은메달
ane
▁루기
▁송이
▁아프가니스탄
▁지지자
▁배럴
때로
▁비오
▁윌슨
▁유영
니트
▁벌어
▁단절
▁유쾌
▁폭포
▁하데스
케이
▁흐리
▁여친
▁병신
▁왕궁
▁언락
▁이신
▁빈사
▁꽝
▁박격포
▁아까
▁주작
▁미상
▁탈옥
▁담당자
모델
▁도모
▁부우
▁교섭
▁만세
▁홍대
▁내심
▁Warhammer
▁졸지
▁VOCALOID
▁가네
▁한조
▁웍
▁sc
▁새로이
▁팔꿈치
아아
▁총통
▁킬로
▁티거
제스
▁달빛
▁수락
▁아부
▁동대문
▁time
▁임페리얼
블릿
▁부토
▁벵
▁츠카사
▁웨이트
▁되돌아가
▁빵빵
▁진술
▁타지
▁자본주의
▁유로파
▁교재
▁김창
▁자치령
▁료마
▁사부
퍼런스
▁데뷔작
▁각기
▁피곤
▁김정일
▁피라미
▁퍼뜨리
▁대제
▁기한
▁상반기
▁연구실
▁밴시
▁센트리
▁남극
▁랜디
▁준공
클레스
▁부여받
▁히토미
▁직감
▁진형
공화국
▁카메오
▁역전재판
▁컨테이너
▁나날
▁불상
▁용호
▁비토
▁세토
▁손아
▁노엘
▁만두
▁비정
▁블루스
소스
▁괴로
▁늘어지
here
▁페인트
▁대한항공
▁주군
▁파업
▁단거리
▁Hell
▁미완
▁Cat
ness
▁산화
▁심연
▁판도라
▁q
컨대
▁허영
▁법학
▁퀄컴
▁학회
▁1941
▁증후
▁채집
▁이동하
▁라데
▁만류
▁조제
▁la
▁`
eth
▁내공
▁작렬
▁전류
▁벤트
▁호타
▁싱크로
▁GR
▁총탄
▁오로라
EX
신기
▁At
▁ll
▁사안
▁자수
▁정크
▁대장군
▁지지율
▁단연
▁들통
▁빅터
▁유년
▁역병
▁Res
▁보단
▁부녀
▁킹스
▁도미니
유리
▁물들
▁스탠스
▁이복
▁마음껏
사우루스
▁불러들이
▁레베
▁마니
▁치아
▁빌미
▁야기
▁유엔
코스
▁떠들
▁성균
ret
▁GX
▁장래
▁휩쓸리
▁래스
▁항우
ne
▁미련
▁민정
▁신원
▁추석
itch
▁명인
▁포고
▁김택용
▁퇴마
▁삼거리
▁성균관
▁가주
▁파드
▁익스트림
▁Sound
▁염소
▁옥타
▁동메달
▁유스케
▁듬
▁id
▁듀엣
▁후세
▁이은
▁조달
▁태연
▁참모총장
▁난전
▁복종
▁셀프
▁창원시
▁베라
▁김정은
▁아울러
▁우려먹
▁이니셜
▁대적
▁연루
▁신노스케
▁경쟁력
▁알코
▁레볼루션
▁조장
▁대상자
▁어설트
▁코브라
▁차세대
▁미타
▁도도
▁리베
▁백수
▁사바
제품
무늬
▁과실
▁기겁
▁채소
▁서원
▁체급
▁SKE
▁사육
▁시발
▁직관
▁후안
▁유키노
▁해저
▁세이야
클리
▁시구
▁빼놓
▁슈타
▁이변
▁할당
▁제너럴
▁그지
▁뒷받침
럭스
▁몽땅
▁집결
▁147
▁의리
▁노후
▁동참
▁미팅
▁으라는
▁편제
▁김영삼
열차
▁근래
▁night
▁인민공화국
na
▁술탄
▁적료
▁특허
▁Rec
▁갈래
▁매개
▁증후군
▁상원
▁피츠
▁와이드
▁아지트
▁진군
▁플레이트
▁낙원
▁단다
▁진흥
▁크림슨
▁화랑
더스트
아티아
▁146
▁크로아티아
▁Hy
▁방대
▁휴전
▁스케치
▁교감
▁성채
▁제각
▁서태지
IGHT
▁상류
▁자문
▁차남
▁오디
▁유배
▁증원
▁스펙터
▁재혼
▁저희
eath
교육
▁고모
▁행각
▁클립
▁익스프레스
▁Big
▁대담
▁태세
▁스트레이트
모니
▁노스케
버거
▁고원
▁연안
▁가솔린
▁아유미
▁싱어
▁피니시
▁org
▁세레나
▁Heav
▁뿌요
▁일직
▁회자
▁무찌
▁1600
르드
▁서면
날두
▁과부
▁극찬
▁우이
▁RAM
▁미라클
▁인프라
▁유교
▁정종
▁호날두
▁타협
▁티저
▁news
수수
▁결별
▁커리
▁Des
여행
▁222
▁1954
▁맥시
▁조류
▁명장면
▁등산
▁친근
▁GK
▁위생
▁천도
▁득실
▁박준
▁배분
▁북극
▁아킬
▁주성
▁키사라기
린스
▁지름
▁거니와
▁체이스
▁부록
방사기
▁화염방사기
▁럼블
▁페르난
▁like
▁랫
asy
▁온화
포스
▁대잠
▁전투복
▁츠바키
▁Battle
▁한국군
▁옌
피온
▁공자
▁다정
캐스트
▁스탠딩
▁트리오
▁스킵
▁호우
▁204
▁구미호
▁동유럽
▁좆
▁박병
▁하코
▁166
▁노마
▁명왕
▁캐롤
고쿠
▁Mod
▁구치
르슈
▁구세
▁마토
▁헤지
▁가왕
▁동거
▁자위
▁들려오
▁부추기
▁스루
▁웨일
▁일부분
▁차관
ny
▁영락
▁1958
▁상정
▁칼럼
▁클락
타리
▁손수
방식
▁ㅋㅋ
▁향기
▁정의당
▁인피니트
ven
▁SV
▁Che
▁미도
▁밸리
▁변종
▁로테이션
OK
틱스
▁두텁
▁반갑
▁간편
▁특출
▁탤
ORM
▁누마
▁원어
▁시오리
▁태블릿
티넘
▁트림
▁플래티넘
▁협약
벨트
▁fl
▁호노카
권자
▁대입
▁승하
▁난투
▁아이리스
내기
▁기복
▁무찌르
각시
▁동포
▁전산
저트
▁부두
▁일선
▁DB
▁인즈
▁동맹군
▁대파
▁수전
▁마그마
모사
▁라트
▁유감
▁철벽
▁ㄴ다면서
겨지
▁진과
▁연기자
▁웬리
▁이창
▁진흙
▁병영
▁참패
▁수뇌
▁소중히
사의
arm
▁범주
▁올라서
▁레트
파니
▁선체
▁한가
▁절묘
▁대각선
▁소음기
▁잽
▁베른
▁짝퉁
▁알프레
▁하반신
무스
▁SSR
▁사생활
▁갑판
▁뒤틀리
ALL
▁자의
ouse
▁엠블렘
▁퍼시픽
▁1948
▁마테
▁유추
▁제네시스
▁다라
▁넘쳐나
▁치타
▁서부터
따르
이팅
▁매칭
▁정신기
코프
바퀴
▁안도
▁운임
▁일진
▁아이젠
▁플라잉
▁활주로
▁ㅎ
▁쩌
▁프라이즈
렉트
▁바실
▁사오
▁선천
▁엘리스
해군
▁쇼군
▁8000
토록
▁잔재
▁주방
▁KD
▁영리
▁사단장
▁코요미
▁츳
▁발트
▁육식
▁평창
▁남아공
▁종자
▁즐거
▁외환
▁용품
▁무어
▁회복력
▁대강
▁책임자
▁매복
▁액트
▁총대
▁뛰어다니
▁욕먹
▁직계
▁청동
▁터무니
ru
▁프레디
▁석화
▁예리
▁차마
▁카멜
▁걸어오
▁마운드
▁1949
▁쌩
▁세이부
▁카트리
▁귀중
▁금전
▁하임
▁사위
곡동
▁동급생
▁불가리아
▁기만
영수
▁런닝맨
이인
회장
드래
▁부과
▁에노
▁평안
▁목요일
혁명
▁엠파이어
▁안중
▁Sing
러기
▁끊이
▁위조
▁운전자
▁프렌즈
데르
▁슬쩍
▁다나카
▁불가사의
▁가메
▁박진
▁태수
▁but
▁~'
▁토론토
▁현행
▁치히로
▁구애
▁선하
▁예하
▁음양
▁유승
▁표창
▁탈것
▁는데도
▁리포트
▁화장품
▁로로
▁사츠키
칼리버
▁BBC
▁아종
▁수비진
▁하야테
링크
▁생몰
▁조슈
▁하쿠
▁푸른
▁공중전
▁미토
▁박차
▁노선도
▁충실히
▁동명이인
▁탄두
▁외야
▁제네레이션
▁과다
▁멸자
▁오클
▁제보
▁지중
▁벽돌
▁특이점
자루
▁저력
▁템플러
▁독도
▁루즈
ina
▁Edition
▁눌
▁마호
▁배척
▁여도
▁친밀
ount
ari
▁카바
▁고스란히
▁양동
▁빅토리
실히
▁스몰
▁이문
모자
▁막론
▁비올
▁향수
▁NG
▁덫
▁문의
▁보답
▁석궁
▁성원
▁알몸
▁신촌
▁목표물
▁콘테
▁체구
▁1900
▁소감
▁if
ivers
▁가산
▁경부선
▁교육청
▁떨어트리
▁하루히
▁기염
▁340
▁방어선
▁모방
▁여진
▁칸나
▁경전차
▁부딪치
▁품종
마사
▁XC
▁안나
▁맏
공격
▁베끼
▁퇴근
▁노조미
cl
▁이따
▁젤다
▁실험실
▁토와
▁길들이
▁Song
▁know
지대
투아
▁리언
▁부합
▁체조
▁폭군
▁거제
▁히이
▁민족주의
▁때때로
▁뮤즈
▁신한은행
▁쥴
▁방랑
▁재해
▁점포
▁키치
▁군단장
▁황족
▁중공업
▁설레
▁우아
▁잔디
▁드럼매니아
▁라운
▁짱구
고생
▁왕녀
▁알코올
지물
▁악질
▁거슬리
▁발산
▁스스
▁월터
▁공약
▁포이
▁프랑스군
▁선방
▁CEO
▁아그
▁천체
▁초전
▁WAR
▁사쿠야
▁안철수
▁이지스
▁프라이드
▁성공회
▁소피아
▁되돌아오
나들
▁은가
▁행군
▁데이브
천동
▁카야
▁RAW
기업
덱스
▁im
▁머독
▁정자
▁뿜어내
▁보태
▁Run
▁But
▁를르슈
▁태고
▁하이브
use
▁성문
▁엘런
▁카운티
▁정몽
▁지난
ters
▁국민당
▁나리타
▁란트
▁신령
▁디스코
▁방정식
▁패거리
▁피라미드
HN
▁국수
▁도메
▁원년
▁코일
▁레이브
▁Magic
피어
▁서문
▁반자동
▁관용
▁랄프
▁섹터
▁경찰관
▁마키나
▁올리버
▁사역
▁든든
▁휘둘
▁삼국사기
▁경시
▁원사
▁침체
▁HOT
▁AMD
▁로스터
스기
▁'-
▁선역
▁토의
▁민병대
▁암흑기
▁송파
▁츠치
▁090
▁료코
▁정대
답시고
▁칼질
ars
▁시빌
▁쟁탈
▁치토
▁위저드
▁프리드
스톤
▁송곳
▁슬래
▁333
▁Ab
▁경위
▁명실
▁번거
▁순순
ke
규어
▁헌병
▁터프
▁720
▁심플
▁치밀
▁에밀리
▁선글라스
▁SNK
▁거듭나
▁꼭두각시
고루
르바
매매
OUR
erm
▁만악
▁조율
▁펜스
▁허다
▁에러
▁원동
XT
바키아
▁인스
▁인신
▁고려대
▁홈구장
▁뒤바
▁로만
▁수아
▁득표수
▁바운드
▁덤벼
▁차크라
사람
▁RS
▁아르메
▁올라타
▁오컬
▁day
su
▁시한
▁아델
▁가까스로
▁좀비
▁칠흑
▁카터
▁요르
▁전과
디우스
리케이션
▁벌어들이
▁이라든지
탕스
▁탐욕
▁며느리
▁아츠시
▁레지스탕스
블루
LD
▁문성
▁비룡
▁소주
▁PVP
▁진에어
단체
▁에티
▁오스카
위치
▁동물원
▁명령어
AA
▁울부
▁사업자
나시
▁영조
▁여명
▁얌전
▁단번에
▁압살
▁체내
레오
하하
▁비운
▁야채
▁악보
그러지
▁알파벳
▁수레
▁프랭
▁명품
▁성추
▁시프
▁드래그
▁네메
▁초당
▁희생양
▁KC
▁격노
▁Not
▁Tri
▁바람직
▁마취
▁스완
▁음란
▁첩보
▁승천
▁터리
▁퍼트
▁루카스
▁격변
▁실천
▁추첨
▁GAM
ecial
▁슐
▁탈탈
▁더스트
▁가호
▁정동
▁순순히
▁비즈니스
▁래쉬
▁브란
▁역설
▁네기
▁짤막
▁드레이크
▁Grand
연합
▁소이
▁오드
▁호라이
EME
주군
▁마티
▁수족
▁Boy
▁스폰지
▁수분
▁옴니
▁임창
▁단단히
▁결장
▁야구단
▁오우거
▁코팅
▁통학
▁화판
▁농촌
▁슬러
▁그토록
▁수법
▁오컬트
▁리바운드
▁비평
▁츳코
▁바이퍼
▁볼일
▁시애
▁대법원
▁재규어
▁슬라이딩
▁픽업
▁양방향
▁증가량
▁1959
▁PO
▁뒤이
▁평정
▁쌈
▁현질
▁애시당초
▁고갈
▁빌헬
▁일개
▁거주지
▁서유럽
형제
▁TF
▁조나
세우스
ship
▁개인전
▁디셉
▁불운
오피스
▁성폭행
▁아르메니아
}}
▁김인
▁입성
▁해임
▁아득
▁장녀
▁도마뱀
▁훈련소
투르
ift
▁김희
▁체이서
▁이탈리아어
▁창의
▁God
▁상대편
▁온전히
▁'~
▁푸쉬
▁1955
▁Baby
▁김혜
레일리아
▁Dragon
▁일갈
▁케르
▁화룡
노트
소니
나가와
▁비행선
UL
▁광양
▁어휘
▁앞마당
▁젯
rop
▁광화
▁업종
▁청장
ana
▁백지
라비아
▁울부짖
▁좀처럼
▁뾰족
▁총사령관
메리카
▁눕히
▁다이너
▁중얼거리
▁찾아다니
▁구자
▁부러
▁시애틀
유기
▁무심
▁노어
▁지침
▁이어폰
▁무궁화호
▁MAN
▁페루
▁다이브
▁릉
둘기
립스
▁서진
▁쇼타
▁억양
▁NAS
▁가와
▁강급
▁건립
▁POP
▁전반전
▁전염병
▁토리코
▁아날
▁추기
▁151
▁미카엘
▁수요일
▁페이커
▁뚱뚱
▁양파
▁불허
▁랍시고
▁일평균
▁Beat
ys
▁OM
▁ab
▁짓밟
▁크러
▁남용
▁난쟁이
▁경희
▁주임
▁게르만
벅지
▁니즈
▁장단
▁탄수
▁포화
▁1956
베다
▁염동
▁둔화
▁들려주
▁마사토
45
elf
▁버디
▁산산
▁Spr
▁오리콘
▁앞쪽
▁전고
omb
▁송구
▁아랍어
▁밀접
▁초계
▁야요이
▁악장
▁졸업식
슬쩍
▁이바
▁학업
▁화질
▁괴이
▁키쿠
▁페라리
▁아틀라스
▁남짓
▁도보
▁파열
▁블라디미르
빠르
▁릭스
▁NAT
▁바사라
▁챌린저
▁후려치
▁성품
▁휘둘리
▁교직
▁식인
▁제복
▁에어컨
▁디트로
▁트레인
▁디트로이트
장구
▁RO
▁관습
리아스
▁김준호
▁다이렉트
▁쌍용
ally
니지
▁죠셉
▁여정
▁정은
▁169
▁연성
▁루드
▁001
▁부화
▁푸드
▁건너편
▁클라우
▁Es
▁메라
▁투항
▁필적
▁선도
▁당분간
▁이유로
ren
▁GL
▁덩달
▁란다
▁전태
▁카츠키
리아나
▁포커
▁간식
▁세무
▁수납
▁항쟁
▁활약상
▁케네
▁풋볼
olog
▁김태균
▁Cont
▁ㄴ데다가
▁광학
▁침식
▁불분
▁사벨
▁전갈
▁제품군
데라
▁Lo
IF
▁미셸
▁자판기
▁임상
▁시프트
▁박주
▁어우
▁럽
병기
▁레닌
▁수박
변속기
히트
▁정적
▁토토
▁음식점
▁야마자키
▁Bar
▁방금
영웅
▁보구
▁피버
▁과하
▁선교
▁사면
▁수배
▁외장
▁체로
▁들여오
▁포터블
▁토코
▁마공
▁지기
▁쿠도
▁블리치
▁IF
포로
▁흉터
▁빅토르
▁수뇌부
▁정세
▁허위
▁불분명
▁저음
▁중견수
▁폐하
▁필기
▁악인
▁알루미
▁일직선
▁qu
▁프라모델
▁야인
▁주스
▁중대장
호도
▁츠네
▁집중력
▁로사
▁백병
▁오일
ited
▁WOR
▁아르테
▁오스트레일리아
▁말살
▁충동
▁라이덴
▁맨날
▁밀러
▁양현
▁지갑
▁Inf
▁무언가
▁하나님
▁박스오피스
모트
III
▁꾀하
▁다트
▁몬테
▁차출
▁예비역
▁잘생기
▁경이
▁볼리
▁열렬
▁유부
그래
▁소피
입구역
▁발전기
혀가
HD
부시
▁루이지
▁잡혀가
▁나루호도
▁스콜피온
▁아쉬워하
▁Gaming
▁다마
▁삽입곡
▁카즈마
▁권역
해야
▁행세
▁사다리
▁DA
▁희박
▁빽
▁XBO
▁그물
▁소량
▁요건
▁즉석
▁VIP
▁스트리밍
▁렴
▁폿
짜기
▁로니
▁사설
▁엇갈리
▁하르트
▁코리
▁파탄
▁world
▁글리
▁피드백
마트
▁셔츠
▁강호동
▁메두사
▁재미없
▁000000
▁이데
▁특권
▁사납
▁접시
▁310
▁PvP
▁수영장
▁중화기
▁Angel
▁복부
▁형벌
▁진나라
▁With
▁마포
▁비늘
▁임용
▁진해
▁젓
▁금성
▁이시카와
▁외화
▁무모
▁악평
▁항로
▁리그베다
▁VR
appy
▁사우디아
미코
▁강연
▁미유
▁COM
▁마사무네
타기
▁나탈
▁배반
▁코로
▁충청북도
제리
▁경비원
▁자라나
row
▁봉하
▁부식
보잡
▁분화
▁붕대
▁컷인
▁폐인
▁환장
▁흥하
▁능동
▁신빙
▁자자
▁진성
▁후리
콜로
▁ER
▁기린
▁데스크
▁옵스
▁미나토
▁듣보잡
감치
▁시립
▁con
▁반짝이
▁프랑켄슈타인
▁협곡
그라드
찌감치
▁다크니스
로이
전함
▁총재
▁낙하산
▁플리트
▁또래
▁해커
▁최우선
▁중산
▁FBI
▁아라시
▁마코
▁손책
▁철회
▁131
▁골고루
▁러시아군
▁ㅂ시다
▁클라라
▁짊
▁FE
▁가쿠
▁구라
▁만회
▁항속
▁호위함
▁동남아
▁명은
▁슬립
▁임재
▁잠복
▁하얀
▁면은
▁어로
▁법정동
만다
▁몸집
▁관광지
▁청취
▁기생충
▁밸브
▁쇼우
▁조공
▁CIA
▁micro
▁="
▁암기
ious
▁사카이
▁비욘
▁She
▁알루미늄
ful
▁뒤쳐지
atic
▁피콜로
▁대도
▁안테나
▁일기토
▁1939
▁스테이트
드리히
▁Ste
▁베르크
▁위인
▁아픔
▁힘쓰
▁TW
▁빌라
▁이관
▁쿠폰
▁내려지
▁윳
▁RX
▁영국인
▁재사
▁달걀
▁선상
▁카이지
▁쏠리
▁연호
▁255
▁햄버거
▁슴
일기
▁카에데
▁자유주의
▁나시
▁복권
▁성령
▁내레이션
▁NFL
그레
▁오바마
전쟁
▁매지컬
▁무리수
▁마스터즈
▁NCR
▁오토봇
MC
부수
▁지자체
▁STAR
▁노획
▁이클
▁장막
▁계승자
▁브래드
▁1952
▁티타
▁레그
▁오자
▁증인
▁White
▁헬로
▁토요타
▁플레인
▁한니발
민수
aut
▁쿠토
▁사과문
리히
▁여당
▁임프
▁재상
▁햇빛
▁긴장감
▁티셔츠
오버
▁성시
▁느냐고
▁쿠루미
사포
시장
▁치과
▁카라스
▁둔기
▁묵직
▁청원
▁미식축구
영향
▁척하
▁토사
델피아
▁강남구
▁원로원
▁필라델피아
▁노원
▁류우
▁몸체
▁장학금
TREME
세이더
▁기아스
▁스튜어트
▁크루세이더
▁비틀즈
▁세실
▁해프
▁억압
▁컬트
▁한성
어내리
▁미시마
▁재주
▁라다
▁소모품
▁콜롬비아
day
▁망원
▁호스트
▁포진
▁데이빗
▁프리드리히
▁인플레
▁대의
▁코스타
▁환불
▁타츠미
▁블레
▁상병
▁시술
▁폰트
▁그래프
▁여행자
▁선공
▁구비
▁급상
▁서사
▁유다
▁호각
▁Sky
▁Pe
▁아론
▁세단
와르
▁개종
▁고뇌
▁농부
bl
세포
ara
▁눈썹
▁새턴
▁타카오
▁로젠
▁사생
▁최진
▁대관
▁베레
수엘라
▁골수
▁용왕
▁친화
▁420
아내리
▁나츠메
▁Project
▁FN
▁마개
▁정렬
▁후하
▁안토니오
▁캉
▁반납
▁샌디
▁커넥
▁850
▁본거지
▁길목
이즈미
▁비둘기
▁파괴자
▁읊
INE
▁아벨
▁고안
▁꼼짝
▁조선소
리역
▁금하
▁낯설
▁사시
▁양도
맹이
▁DIO
▁겁쟁이
▁카나코
▁동산
▁사대
▁소프
▁앞장
▁모터스
▁슬래시
▁패트릭
▁이클립스
▁원상
▁진기
트리스
▁해결책
75
즐리
▁OO
▁해프닝
▁헤라클레스
▁가세
▁어르
▁플랜트
▁아날로그
▁EXTREME
▁경신
▁그딴
▁다나
▁응징
▁정인
큐버스
▁슬레이
▁브론즈
▁겸비
▁부기
▁철퇴
▁141
▁주부
▁도입부
▁자아내
▁중추
▁투타
▁신세기
▁오사무
나타
▁RR
▁부전
▁여느
넌트
윽고
▁그해
▁디에
▁리시
▁변함
▁이윽고
▁한결
▁치아키
▁레니
스코
▁셔먼
▁우대
▁환율
▁실탄
▁막아서
▁워페어
▁Just
▁타카히로
▁잠자
▁보성
▁스릴
▁자석
▁Get
▁니즘
▁정치력
갔다
▁바알
▁수도원
▁유수
레스타인
▁벌칙
장치
▁군중
▁여대
▁정설
▁Gun
치오
▁777
▁CCTV
▁카세
▁월등히
▁팩토리
▁권고
▁쓸쓸
▁저널
▁코만
▁신드
▁이우
▁정윤
▁PRO
▁대항해
▁앤더슨
▁로미
▁자가
▁리오스
▁크리스토퍼
▁꼬박
▁토카
▁축구단
▁티라노
▁납품
▁생리
▁붉은색
▁악영향
▁사일런트
▁마운틴
애미
ger
▁베네수엘라
▁노랑
▁유하
▁혼나
▁리조트
▁마이애미
▁선명
▁자대
▁허니
▁사우디아라비아
▁처방
reat
▁뫼비우스
준호
▁크류
▁레이카
▁레비
▁환원
▁로드리
▁정직
▁투기
▁평준
▁대지진
▁기공
▁초원
▁항성
▁후작
다카
▁백두
▁빈센트
▁사이킥
▁노사
▁한복
▁무당
▁우등
▁이화
▁정시
▁제후
▁신검
▁재래
▁현무
▁퀑
▁생계
▁겉모습
▁소대장
uch
▁감도
▁적정
▁제드
공주
▁앨리
전생
▁류지
▁허벅지
▁네로
▁바흐
▁시라이
▁냉혹
▁평지
▁함경
리카와
▁잿
무로
▁검기
드래곤
▁이의
▁라몬
▁요지
▁특출나
▁화요일
▁ㄴ답시고
타자
▁우크
▁코미디언
▁개리
▁공채
▁벤츠
▁그러다가
▁사력
▁조현
▁갈고리
▁디럭스
▁야가미
▁Game
▁우크라이나
▁중론
니치
▁선비
▁나뭇잎
▁LS
▁미약
▁520
▁악세사리
리즘
▁최적화
▁재무
ric
▁가늠
▁반달
▁총구
▁절감
▁케네디
▁크로스오버
암동
일관
▁카이바
▁나크
▁열광
▁위즈
▁절약
▁죄인
▁자민
▁아스타
▁외침
▁타가
▁합당
▁뜬금없
▁우치하
▁클로버
▁Back
▁석방
▁엽기
▁정경
▁Side
툴루
▁전우
▁조니
▁레이크
▁초급
▁짊어지
▁꼬시
▁레코
▁미처
▁지중해
▁대장장이
▁박기
▁알맞
하임
▁근친
▁우동
▁연대기
▁팔레스타인
▁히지
▁기시
▁이북
▁편애
▁리액션
▁급여
▁480
▁다그
▁기병대
▁이를
▁결투장
▁골리앗
▁Last
▁구만
▁모티
▁비숍
▁off
▁back
▁크레이지
테면
▁벅스
▁피신
less
▁페가수스
▁텐션
▁제이드
▁동남아시아
▁간장
▁날라
▁통솔력
aka
▁쿼드
▁naver
▁잣
▁개칭
▁미달
▁순삭
▁이를테면
▁사죄
▁펠트
▁School
▁Ge
▁바루
▁일생
▁예술가
▁xx
▁승부차기
▁무서
▁좌완
▁화가
▁소탕
▁KS
▁심부
▁틈새
▁Ass
▁Zero
▁맞춤
▁셀렉
▁귤
▁춘추
▁피쳐
▁전황
▁토치
▁오토메
▁TECHN
▁고참
▁톡톡
▁스플릿
co
소통
펙터
푸스
▁가즈
▁서스
▁의사소통
관계
bsp
▁상고
▁초동
페스트
▁ATM
▁Sil
▁무네
▁전념
▁팬클럽
후미
▁남구
▁해밀
▁멧돼지
▁수혜
▁탈당
▁텝
▁라티
▁알비
▁경비병
▁전투원
▁디디
▁리벤
▁212
▁도널드
▁시부야
▁재빠르
▁추기경
▁승승
▁경호원
▁블리츠
▁빌헬름
▁사이퍼즈
▁멩
IME
▁송병구
▁하늘색
▁발렌시아
▁에프
▁캬
부리
▁강령
▁수당
▁학파
▁성추행
▁정명훈
▁생포
레인지
▁모치
베이스
▁Chr
▁급상승
이라
▁동독
▁심복
▁무난히
▁스타킹
▁nbsp
▁WE
▁광석
▁페로
▁명백히
▁디셉티콘
사전
▁세균
▁소름
▁티격
▁좌익수
▁경대
▁노프
▁장담
▁사루
▁우의
▁증차
▁한중
▁군벌
▁협공
▁써니
bo
▁룽
렁이
레즈
▁개화
▁290
▁검색어
▁두드리
▁결번
▁조로
▁합금
▁라파엘
라이언트
▁Amer
▁클라이언트
▁프레드
▁빈스
▁철자
▁통역
▁유상
투수
▁오승
▁소수자
▁켄시로
▁하시모토
▁조회
▁일자리
▁액수
▁전복
▁몰아치
▁Open
▁통근
▁전쟁터
팔로
에이터
▁중소기업
▁소아
▁삿포로
▁정준하
▁고요
▁뇌격
니컬
▁Di
▁자바
▁크툴루
▁선발투수
▁찜
▁가신
▁파나
코스터
▁너구리
▁저스틴
▁툭하면
▁불발
▁원성
▁절판
▁적어지
▁XBOX
▁족보
▁jp
▁편도
▁야나기
▁우와
▁웨딩
▁피그
▁어선
▁엄연
▁유원
▁베아
▁비견
▁사요
▁유세이
▁의류
▁질질
▁선제골
니르
▁강정
▁맹수
▁소림
자위대
▁미워하
▁사이비
▁음악가
▁프리퀄
▁롤러코스터
▁그렌
▁프레데터
▁보호자
▁브라우저
▁Blood
▁엑스칼리버
▁낭만
▁대구경
▁연주자
ORA
▁시커
▁1400
▁중순양함
▁야구부
▁타쿠야
▁Moon
▁극성
▁스턴트
UST
▁분과
▁주주
▁생산력
▁뛰어내리
▁배고
▁엘다
▁일파
▁화끈
▁일정량
▁쥬라기
▁급습
▁재사용
득점
▁TB
▁스커
▁에라
▁시미즈
▁탈주
▁휴지
▁는구나
▁성남시
▁껌
▁박태
▁효용
▁어쩌다
▁미니게임
▁촛
▁실감
▁절도
▁트와
▁회유
ely
▁사복
▁내려놓
▁에볼루션
▁일찌감치
▁매도
▁모선
▁인승
▁나오미
▁타라
▁하네
▁파이팅
▁데스노트
▁간첩
▁착공
▁APC
▁뺑
▁건의
▁투르
▁아사쿠라
▁밤중
▁엑셀
▁홍준
▁Soul
비슷
▁내년
▁문관
▁익명
▁험악
ideo
▁미완성
▁카미조
▁나카지마
▁신격
▁찬사
▁Final
▁멀린
▁소망
▁오아
▁아리사
▁냅다
▁버즈
▁석탄
▁margin
▁고분
▁명확히
▁태그팀
▁마즈
▁그제서야
▁승계
▁1953
▁기교
▁만년
▁기어이
▁지방도
▁성동
▁박병호
▁비화
▁Yes
▁변모
▁에너
▁경상도
▁공격대
▁7000
▁치요
▁Art
▁마사히로
ma
▁구식
▁웬디
▁BMW
▁교육부
▁미용
▁흉기
▁테슬라
▁페미니즘
▁모건
▁방망
▁사상자
▁수송기
▁플로리
▁쌍검
▁거미줄
ning
▁개전
▁남산
▁졸리
▁착취
▁둘째치
▁분당선
▁불가피
DER
▁재일
▁김구라
▁내려찍
▁반대쪽
▁트리니티
▁부끄
▁무방비
▁빨아들이
▁공시
▁크라이시스
▁스쿠
▁요요
▁헤이세이
▁선후
▁이치카
▁지체
▁체하
▁케니
▁래리
▁유세
▁피노
▁부회장
▁애틀
▁방어전
▁가야
▁오현
▁미술관
▁배달부
▁유이치
▁크로노스
▁어시
▁헤딩
▁짓거리
HC
파치
▁망각
▁Mix
85
▁쭈
▁호라이즌
▁제이스
▁시종일관
▁도가
▁마늘
▁미움
▁로켓단
▁선발전
가키
▁Du
▁수제
▁천진
▁Met
▁Top
정동
ward
▁해설자
사노
IKA
▁리노
대왕
▁pt
▁수년
▁내용물
▁후지와라
32
▁ㄴ대
▁서남
▁어정
▁유민
▁히데키
▁네메시스
▁아키야마
▁면도
▁미우
▁쿠즈
stem
▁MiG
▁1947
▁미스테리
▁허약
▁홍준표
▁손발
▁악연
일라잇
▁푸른색
▁블루투스
▁트와일라잇
월드
▁난장
▁시속
▁양평
▁폐업
▁레베카
▁뭉개
▁야자
▁쪽지
▁근육질
▁마로
▁아산
▁한족
▁끌어오
▁영화관
▁표준어
▁달랑
▁동국
▁무로
▁역마
▁참수
▁IMF
▁애틀랜
led
▁어진
▁완급
▁조영
▁브로드
▁이츠키
▁테드
▁매사
▁피겨
▁내리치
▁붙여지
▁대격
▁허술
▁페이퍼
▁여신전생
▁반쪽
to
폴트
▁신봉
▁출입구
▁하얀색
▁버니
▁최재
▁Eng
▁태권도
▁투표율
▁팔아먹
▁교제
▁이서
▁MIX
▁보리스
▁구판
▁문파
▁저축
뿌리
▁벼락
▁올인
▁장대
▁황자
▁way
▁프란츠
하니
ute
▁에이미
▁갱단
▁매입
▁천자
▁파치
▁TE
▁별거
▁액스
▁끊어지
▁호루스
▁쁘
▁메트
▁토템
▁희한
▁오보
▁적기
▁조세
욕장
ata
▁순항
▁학부모
▁ZZ
▁메츠
▁세속
▁위아
▁타사
블랜드
▁슈우
▁천왕
▁폴라
▁Off
▁시게루
사관학교
▁클리블랜드
▁CT
▁갈아입
▁밀리터리
▁바퀴벌레
아스
▁걷어
▁사냥터
▁Core
▁박세
▁수렴
▁이큐
ision
▁탬
드런
쩐지
▁te
▁독단
▁숙명
▁튀김
▁포톤
▁EXP
▁어쩐지
▁쿠사나기
린트
▁공적
▁린치
▁안식
지우
현동
▁새신
▁정액
▁형주
▁투석
▁사나다
▁1957
▁스타더스트
빠지
eah
ump
▁이산
▁충주
▁구스타
▁병합
▁영재
▁저질
▁RPM
▁로더
▁각본가
▁이끌리
▁식별
네트
▁치키
▁데이즈
▁에디터
▁큰일
▁영웅전설
▁신민
▁합산
▁정현
▁농어
▁맹장
▁원산
▁스미레
▁Track
▁^
▁은근슬쩍
눅스
▁비대
▁아사미
▁연구자
▁정제
▁개인차
▁급속도
▁자멸
▁카프
▁켓
▁다듬
▁진전
▁김종국
▁나카노
▁기껏해야
▁모라
GN
세움
▁는군
▁랑그
▁마고
괭이
▁긴토
▁수퍼
▁요금제
▁번번
▁사주
▁우여
▁문과
▁상체
비안
▁공전
▁환산
▁의뢰인
▁증강
▁우선시
▁카미야
▁조짐
▁파병
▁크레용
▁북서
▁요일
▁위태
▁토바
▁Ext
▁러블리
▁튜브
▁209
▁호르몬
악기
▁BP
▁링컨
▁방관
▁제국주의
▁홉
선스
▁계책
▁리제
▁린다
▁업자
▁대첩
▁멜리
▁베토
▁쇼코
▁첨부
▁회심
▁Cap
▁동방신기
린더
▁발효
▁포제
oney
▁수송선
▁주변인
제트
▁조슈아
▁{{{-
▁에어리어
▁Mark
요리
▁ve
▁느와르
▁욘
▁급증
▁입점
▁초음
▁티베트
▁라이선스
▁학군
BY
▁서재
▁우먼
▁후카
▁리눅스
▁성가시
▁카니발
닥치
메일
▁신약
▁업소
▁껄끄럽
▁애니메이터
▁ADVANC
▁건대
▁힘겹
▁역전승
▁성취
▁숙지
▁도르트
▁1914
▁Special
▁순례
▁아노
▁1938
▁암묵
▁평이
▁도전자
▁켐
▁막말
▁시녀
뮬러
▁그분
▁음력
▁체르
▁해인
▁희미
▁경영학
▁Little
▁가중
▁누락
▁티나
▁ph
▁모용
▁보그
▁블룸
▁엔도
▁태반
▁홍수
▁불안감
▁마르크스
실록
▁UR
▁구스
▁송신
▁체류
▁포메
▁사카키
▁셰퍼드
▁TT
▁근황
▁뜯어내
▁음료수
▁굴러
▁아캄
▁짜이
▁경선
▁이남
▁재선
▁키시
▁사토미
▁광교
▁이민자
▁변속
▁재기
▁아오키
▁아틀레
▁Free
ross
▁경제력
▁날아오르
ism
▁ㅏ라
▁정유
▁최연
▁비밀리
▁칸자키
▁격납
▁무예
테리어
▁순전히
▁gr
▁베풀
▁지폐
▁블러디
▁한국식
▁상경
▁성급
▁레이코
▁That
▁ap
▁도류
▁식신
▁토드
▁황소
파일
프스
▁데프
▁땜
▁기통
▁요양
▁추이
▁호화
▁FO
▁아디
▁지니어스
두근
red
▁Comp
▁고철
▁왕성
▁장민
▁지탱
▁치세
▁화합
▁구축전차
▁사념
▁카툰
▁플롯
▁피칭
▁대함
▁가격대
▁앞장서
▁ac
▁스팟
▁실컷
▁의거
ocal
▁아레스
▁now
▁버팔로
▁악단
▁의존도
▁++
▁구가
▁만우
▁일컬
▁자객
▁net
▁는커녕
CE
ner
▁토착
▁야스오
방지
▁서프
▁틀림없
▁팻
▁판명
▁ㅈ
▁섣
▁지저
▁1100
곡절
▁난데
▁일루
▁정규군
▁꾹
▁PT
▁마자
▁우여곡절
▁무법
▁궤멸
▁다량
▁적과
▁토모야
스부르크
주곡
▁피스톨
▁독성
▁자며
▁어려
▁레프트
▁못생기
▁심영
▁열화
▁풀백
▁아키코
▁1300
▁폄
투사
ASS
▁거액
▁한눈
▁호조
▁부피
▁양양
▁여차
▁Bad
▁복수심
▁샌드위치
상부
▁의석
▁아이카
▁코스모스
소연
▁친선
살렘
어먹
▁고하
▁주름
▁츠지
▁사고방식
ird
▁512
▁카르텔
▁크레인
▁팔다리
▁구작
▁연화
▁바가지
▁대전광역시
▁#,
▁em
루살렘
▁경비대
▁각별
▁블랑
▁퍼플
▁강대국
▁서바이버
au
뚜기
▁평면
▁MOV
OCK
▁사서
▁초라
▁매점
▁설문
▁유한
▁만우절
▁투수진
▁뛰어오르
▁Every
▁컬쳐
▁!!!
▁콘테스트
▁불곰
▁작물
▁저번
▁카르타
▁이강
▁쟁탈전
▁윤영
▁이쁘
▁쿠보
▁흡입
▁스케이팅
▁망자
▁자음
▁화속
▁Rob
▁카자흐
▁민지
▁경원
▁나돌
▁명심
▁무패
▁역적
▁get
▁분대장
▁말라
▁이트
▁어지럽
▁사이코패스
고스
▁반주
▁이범
▁초밥
▁평시
▁프리티
▁자재
먼드
▁센고쿠
▁사찰
▁소품
▁유파
▁착안
▁픽션
▁마츠다
▁껴
▁HR
▁로어
▁번영
▁아틀란
▁코스모
▁소홀
▁서스펜
▁비열
▁호문
▁540
▁맥도날드
시간
▁KA
▁돌풍
▁매뉴
▁옥스
▁365
▁남아프리카
▁공석
▁양지
▁멱
ton
▁짭
aid
▁NA
▁mA
캐슬
▁투덜
▁변속기
lection
▁포뮬러
▁카밀
▁플랫폼
▁추위
▁Orig
▁하오
▁꼭대기
▁창시자
▁도르트문트
its
▁거창
▁what
일본
티티
▁벗겨지
▁게재
▁길래
▁스켈
▁다이빙
▁Rain
▁시트콤
24
트릭
▁하계
▁냐면서
▁정부군
▁광부
▁수만
▁알라딘
▁언뜻
▁티코
베르크
▁세바스
▁Af
▁입법
▁필승
▁그리핀
▁하세가와
▁방아
▁벨벳
▁뉴캐슬
▁ADVANCED
▁당원
▁라리
▁애리
▁자결
▁패권
▁암석
▁온건
▁요령
▁아우구
▁예루살렘
▁등용
▁바드
▁포섭
▁카나메
▁순조
▁오거
▁행정부
▁재탕
▁태백
▁이방원
▁트렌드
▁틀어막
▁플로리다
tm
마을
▁서슴
▁에지
▁징집
▁창당
▁206
▁슬로건
▁잔소리
바인
▁비타민
▁수식어
▁재판소
▁Order
▁공구
▁숙적
▁오피
▁온전
▁멘토
vent
▁앵글
▁TBS
▁인테르
영웅전설
▁은하영웅전설
트니
▁근위
▁선별
▁May
▁동선
▁코러스
▁라이브러리
▁Po
▁코피
▁노동당
▁아랑전설
▁노보
▁don
▁굴러가
▁디바인
▁간과
▁세련
▁특색
태격
▁sw
▁각광
▁동결
▁어감
▁전범
▁후진
▁베토벤
▁성범죄
▁운동가
▁티격태격
교도
▁레고
▁효력
▁아르타
▁아카시
▁게으
▁고드
▁바빌
▁판넬
orts
너드
▁공천
▁새해
▁자선
▁장발
김없이
▁성희
▁자서
▁포신
▁봄버
▁파충
▁호족
▁이리야
▁굴림
▁내쫓
리스크
▁타노스
▁편집자
▁아브
▁난장판
ura
▁경멸
▁분수
▁색기
▁수료
▁여덟
▁고아원
▁구루
▁스투
▁안톤
▁표류
▁뒤떨어지
▁뱌
▁골대
▁활기
▁남친
▁흑발
▁스트롱
▁가맹
▁버겁
▁오산
▁여객기
▁만장
▁주시
▁판단력
▁성주
▁수산
▁카로
▁허접
▁베네치아
▁나선
▁역기
▁풍속
▁오모
▁재림
▁낙서
▁린이
▁채굴
▁최성
▁스트림
▁조동
▁카즈미
▁깐
▁럿
▁PA
▁진범
▁초회
▁정신병
▁골격
▁착수
▁Are
▁인테리어
▁예매
▁통찰
▁미하일
▁아틀란티스
살이
▁농도
▁근로자
▁뒤집어쓰
▁힛
▁최장
▁미소년
▁나지
▁로버
▁코우타
▁트롤링
▁9000
▁캅
▁미츠키
▁아머드
▁형법
▁서동
▁레일건
니엄
▁고야
▁단타
▁티르
▁메이크
▁사오리
▁제각각
▁괴짜
▁소셜
▁제명
▁티모
▁파기
▁식구
▁신차
▁오레
▁밀레니엄
스틱
▁노다
▁디언
▁민트
▁야미
▁히로미
▁리비아
▁슈리
▁아토
▁지마
▁전면전
▁줄리아
▁Best
son
▁근방
▁밝혀
▁아즈텍
▁항공대
▁소양
▁재결
▁png
▁아라이
▁그레이브
마니
임수
▁MI
▁독소
▁콜로세움
▁상임
▁조부
▁마성
▁포자
▁허준
▁매뉴얼
▁물류
▁악수
xt
ape
▁NP
▁결단
▁Stri
▁길티
▁초심
▁파커
▁아서스
▁미니건
▁대련
▁유체
▁한판
▁다이크
▁달려드
▁잡아
▁Pack
▁동떨어지
▁기형
▁사비
ster
▁윤성
▁호밍
anna
ize
▁GA
▁마쓰
▁앉히
▁행동력
▁pe
▁불량배
문화
▁kn
▁불륜
▁옅
▁무토
▁웍스
▁원안
▁고온
▁여리
▁역전패
▁밝혀내
▁조그맣
▁프리덤
▁니퍼
▁끝없이
▁슬라이더
네즈
슬로
▁두각
▁벼슬
▁원가
▁조종당
▁클러치
불리
포동
▁남코
▁진중
▁짬뽕
▁쿠우
▁뒤바뀌
▁리포
잣집
▁유족
▁1951
▁미우라
▁조선인
▁스코어링
황후
err
▁깜빡
▁오카다
자국
▁걷어차
▁앞머리
▁타오르
개골
▁말뚝
▁매춘
▁랠
▁동탄
▁울버린
상스
▁PH
▁노노
▁370
▁코만도
▁탤런트
피탈
▁이매
▁직종
▁사이먼
▁정찰기
▁무쌍
▁왕정
28
▁고라
▁은색
▁지출
▁차우
▁야말로
AKA
▁메커
▁선량
▁설교
▁은어
▁캐쉬
▁표명
▁마일리
지기
▁대칭
▁람보
▁몰입
▁칠드런
▁인조인간
▁tw
▁통장
▁미카도
▁they
oud
▁다채
▁자일
▁하가
▁Mir
썰트
▁외지
▁이연
▁인분
▁피크
▁어썰트
▁유괴
▁컨버
▁Joh
▁앤드류
▁교원
▁대물
▁촉한
▁his
▁Mbps
▁갑주
▁초연
▁노리코
▁홍차
폴리스
▁"..
▁충원
▁극동
▁미분
▁이장
▁하남
▁쿠파
▁나이지
▁나이지리아
SS
▁넬슨
▁당근
▁반열
▁창법
▁흑색
▁장시간
▁크래시
자스
▁서북
▁추축
▁노하라
▁치솟
▁마라톤
▁거머
▁mAh
IDE
OSS
▁관현
▁747
▁토머스
▁금정
▁텐트
▁레이서
▁구레
▁국지
▁발령
▁척추
▁세계수
▁경순양함
UG
▁철구
▁혈압
▁불거지
▁실비아
ze
기수
▁아돌프
▁총회
▁무소
▁브룩
▁아오바
▁우익수
zy
▁음파
▁피고
▁광화문
ama
▁용납
▁주점
▁171
▁나오토
▁유죄
▁도요토미
레마
훈련
▁부설
▁사하
▁독살
▁앰프
▁잔존
▁승용차
▁정신줄
▁데이비스
hy
▁물음
▁교구
▁어머
▁자행
▁이부키
▁파밀리아
▁First
▁즌
헤드
▁거침
▁궁예
▁덴마
▁신야
▁오기
▁다구
▁동하
▁이목
▁215
▁하야시
▁로데
▁분전
▁분파
▁여군
▁우터
▁급감
▁순차
▁토미노
▁마천
▁사학
▁애틀랜타
▁저술
▁선지
▁수기
▁유창
▁포상
▁벳
▁호머
▁게이밍
▁비터
▁시연
▁정선
▁각주
▁아로
▁예민
▁히키
시즘
▁니티
▁도키
▁박하
▁손대
▁쳇
END
▁미코
▁카모
▁포메이션
▁발도
▁속삭
▁오재
▁이세이
▁NORM
▁브라이트
특기
▁상반신
▁자연히
▁주특기
▁탄종
▁골짜기
▁수없이
▁전광판
▁뻔뻔
▁선단
▁161
▁승승장구
▁맨손
▁복식
▁천리
▁총애
▁사우디
▁엄하
▁기념일
▁한없이
▁도부
▁강서구
▁엎드리
▁알제리
▁억누르
▁열폭
너티브
▁얼터너티브
▁육신
▁코타
▁탄피
로트
▁교포
▁약사
▁일면
▁피파
▁HT
▁강국
▁돌변
▁메사
▁아루
▁181
▁데니스
▁1936
슬라비아
▁유고슬라비아
어처
▁안장
▁익산
▁235
라이어티
▁미니어처
▁버라이어티
▁MAD
설수
▁라이저
▁실물
▁몸싸움
▁윈스턴
▁재수없
▁타케우치
▁여제
▁제때
▁미노리
▁Perf
▁시베리아
▁교묘
▁북동
▁은빛
▁힌두
▁NMB
▁Miss
▁카트리지
▁니르
▁통폐
▁한류
▁눈보라
▁Char
▁Down
▁NATO
▁NORMAL
▁관건
▁벨리
▁왕창
▁케미
▁프렌드
▁오퍼레이터
ume
▁뜯기
▁Mem
▁요시카
▁공안
▁북벌
▁시급
▁완력
▁잭스
▁전곡
▁데미안
▁마카오
▁역행
▁종파
▁거머쥐
▁엄폐물
▁마구잡이
▁에니
▁이송
▁이메일
▁건만
▁발병
▁이여
▁판교
▁Hot
▁어정쩡
▁City
▁잘나
▁파주
▁횡령
▁wiz
독스
yes
▁단도
▁페러
▁향신
▁조나단
▁일병
▁도맡
▁백병전
▁대성공
▁출생지
조림
▁첩자
▁다다르
23
▁김천
▁얼룩
▁폭언
▁곁들이
83
ga
net
▁규율
▁혐한
▁동그
▁이면
▁재발
▁AGE
▁넥스트
▁에그맨
분투
회전
▁골절
▁발해
▁275
▁어르신
UD
▁풍습
▁머릿속
▁칵
▁세인
▁신종
▁컬처
▁데일리
▁이케다
▁ㅏ요
▁나즈
▁망신
▁명절
▁시영
▁집게
▁펩
만화
▁기폭
▁약품
▁이도
▁207
▁옥수수
▁Happy
▁알트
▁DEF
▁탑승자
꼬박
▁구기
▁유리카
▁치즈루
▁꼬박꼬박
▁낙양
▁분실
▁실록
▁스트라
▁가차없이
제이
▁서경
▁뻐
▁우울증
▁겸임
▁승낙
▁전위
▁지겹
▁순발
▁dis
▁유토피아
▁Class
▁가발
▁곧장
▁버크
▁재생성
▁몬스터즈
▁Ret
▁르네상스
▁Break
나우
▁Und
▁헤일로
awn
덴티티
▁RED
▁선동열
▁아이덴티티
▁올레
▁풍미
▁쿼터백
▁요가
▁765
▁앞부분
▁헤드폰
▁기로
▁자그마
▁베로
▁성의
▁성희롱
▁순발력
▁철학자
▁경관
▁과반
▁외교관
▁스톨
▁오소
▁전경
▁노하우
▁호시노
▁스테이크
▁관전
▁정품
▁헌트
▁혈관
▁just
▁사옥
▁수렵
▁입석
▁위아래
66
▁뜸
▁순화
▁콴
▁감마
▁친숙
▁하로
▁도봉
▁211
▁MUS
샤인
▁TN
▁나폴리
▁동성애자
▁머들
▁샤르
▁핑거
▁러스트
▁Stage
▁대대장
▁말버릇
▁#!
▁견습
▁덜하
▁조개
▁총검
▁한신
▁황폐
▁Dec
▁전라도
▁우왕
▁합숙
▁SHD
▁경산
▁막스
▁매매
▁주재
▁동호회
▁닷컴
▁본뜨
로그램
27
▁노미
▁매튜
▁역도
▁토모코
IAL
▁감속
▁반죽
▁개머리
▁아키하
▁노화
▁단수
▁만담
▁다는데
▁넛
▁가관
▁숙박
▁떨리
▁분비
ORPG
▁최하위
▁통폐합
▁무서워하
▁패러독스
▁다람
▁로페
▁족족
▁코퍼
▁키네
▁마니아
▁수차례
▁예컨대
▁클라크
▁예거
▁최형
▁다케다
▁레스터
▁프리랜
ius
▁소란
▁베르나
▁부상자
나오
ONE
▁군세
▁훌쩍
▁포이즌
▁돼지고기
비야
▁애착
▁중남
▁촉진
▁두개골
구멍
▁판다
▁!!"
▁유키코
▁양말
▁드러머
▁레기온
▁Elect
ole
▁레츠
▁행렬
▁속임수
▁드래곤즈
que
▁내던지
▁다리우스
▁빗대
▁혼잡
▁STA
▁다이묘
▁over
▁찻
대상
▁사칭
▁풀이
▁수사관
▁진행하
▁GAME
▁요코야마
날리
▁950
플러
▁화보
▁시드니
▁약혼자
▁포레스트
▁물러
▁디에고
▁어려우
▁퀀
att
▁반신
▁빙글
▁우에노
▁어우러지
▁바카
▁왕세
▁불러내
▁구실
▁동강
▁잠식
▁전리
▁얏
멘션
▁콩고
▁디멘션
▁방영일
▁애니플러스
95
삭스
▁고마
▁내치
▁덤블
▁이로
▁탈영
▁페트
▁부잣집
▁코즈믹
▁광주광역시
▁과열
▁로트
▁플라워
블랑
▁다분
▁214
▁주둔지
▁돗
▁ESP
▁명실상부
벌이
▁한인
오피아
▁440
▁알프레드
▁에티오피아
▁세카
▁두근두근
▁일렉트릭
▁쿠로사키
▁집요
▁치하
▁샤이니
▁Cor
▁Fly
▁산호
▁영장
▁MOD
▁알고리
▁훈련병
▁닳
다듬
마드
▁에비
▁딱지
▁천차
▁펑펑
▁주유소
▁2021
▁컨퍼런스
▁Legend
▁명언
▁볶음
▁헤더
▁htm
▁every
▁박진영
▁NASA
▁시리우스
발리
▁래빗
▁생소
▁엘더
▁코드네임
▁oh
▁김응
▁위드
▁주루
▁자서전
▁지간
▁Fre
▁EXTRA
▁검거
▁경음
▁보름
▁Rad
▁our
com
▁수병
▁유니버
irect
GM
▁아발
▁차고
▁팬더
▁CGV
▁메커니즘
바탕
▁짜장
▁출연자
▁뇨
▁단축키
▁사업가
▁포유
▁과잉
▁노년
▁셰이
▁올려
▁마사루
▁타이완
▁한국사
▁양재
▁역장
▁자속
▁다이노
각형
▁경합
▁양분
가르드
▁건너오
▁Aut
▁위스키
▁피어스
해머
▁니키
▁에뮬
▁포구
▁자이로
▁히로키
레톤
get
▁교활
▁권법
▁분경
▁이크
▁작자
▁TRA
▁이정훈
▁산산조각
▁잔여
▁공연장
▁향신료
▁Dest
arth
▁EXO
▁스켈레톤
노부
▁**
▁냉철
▁죠타
▁브라이
▁EXPER
글러브
▁물러서
▁클리프
▁골든글러브
▁미적
▁섬뜩
▁자백
▁제동
▁Mac
▁건축물
▁그랜트
▁빈민
▁지상군
▁컴플렉스
IO
▁나주
▁적도
▁알고리즘
▁사보
▁이비
▁풍신
▁황색
▁프리랜서
▁Level
▁스메
▁클럭
▁대나무
▁된
▁Ry
▁혈연
▁노미야
▁이따금
거스
숭아
▁곧잘
▁공황
▁복서
▁권력자
▁보이드
▁파충류
리언
▁기각
▁타타
노프
▁이롭
카이저
▁미야코
▁Tech
▁제타
INAL
▁백스
OTH
▁쾌락
▁하야미
▁down
▁개머리판
▁백마
▁코칭
▁푸시
▁난데없이
▁노기자카
헤치
▁외동
▁정관
▁대영
▁보옥
▁역세
▁윤종
▁편찬
뚤어지
▁싸구려
▁퍼니셔
우먼
▁노태우
▁방탄복
▁언론사
▁이어주
▁아재
▁차차
▁화전
▁이승현
▁국교
▁탄산
▁301
▁헤비급
▁밧줄
▁환술
▁TECHNIKA
▁구이
▁취항
▁최순
▁라이스
▁more
▁지명타자
선거
▁Ul
▁요네
▁Pol
▁등록금
▁Port
▁가르시아
▁모자이크
▁페널티가
펠러
▁누비
▁떠넘기
▁레너드
▁어웨이
▁아와
▁자릿
▁동시대
26
피드
▁즐거움
▁노우
▁채무
▁이윤열
▁다의
▁켄신
▁물어뜯
▁비행장
TER
▁카니
▁포박
▁하피
▁AAA
▁괴로워하
▁카트라이더
동물
enc
▁주제가
▁EXPERT
▁쏙
▁AO
▁공문
▁블로우
▁돌려받
▁애리조
ano
▁담그
▁위용
▁마이티
▁송곳니
▁놀림
▁여중
▁진풍
▁쿠퍼
▁410
▁해밀턴
무쌍
▁렐름
▁오줌
▁졸지에
소타
▁닛산
ated
▁농어촌
ya
▁뒤엎
▁이룩
▁투지
▁해부
▁레토
▁아소
▁덤벼들
▁장기전
▁제이미
에트
▁=,
▁펠레
▁RGB
▁집어던지
▁댁
▁활발히
tor
▁모차
▁선더
▁켈트
▁스사노
니케이션
▁독립운동가
▁AW
▁Hol
▁덴오
▁208
▁들어맞
▁올리브
▁미네소타
▁서큐버스
▁커뮤니케이션
▁방주
▁원대
▁홍련
▁ABC
▁마츠이
걸음
▁감격
▁명맥
▁생몰년
▁아키오
▁파라오
▁뒤섞
▁카나타
▁특촬물
수염
▁속출
▁자정
▁도카이
▁차오르
▁마이스터
▁보급품
▁하이스
▁송지
▁정가
바위보
아오르
▁조선일보
▁가위바위보
▁볼드모트
▁광저우
▁히데오
▁몬드
▁안치
▁인계
▁투여
▁내려치
▁마리나
▁바이트
▁일전
▁팽창
▁피통
▁하긴
▁레인저스
▁하나같이
매기
▁다테
▁모성
▁연장선
▁급소
▁복판
▁Line
▁WHIP
비지
▁내신
▁라르
▁품목
▁선샤인
▁이나바
도어
▁강당
▁호연
피디아
▁거북이
▁반입
▁GPS
▁정상급
uro
▁증식
▁타카미
ouble
▁위키피디아
▁아이슬
성어
▁내무
▁레터
도니아
▁Hey
▁노이드
▁Fall
▁민심
▁소스케
▁우즈베
▁간직
▁개중
▁노드
▁산전
ague
▁도메인
▁라이엇
▁베이커
▁흐트
▁"'
▁꼼꼼
▁티오
▁good
팽이
▁명계
▁요마
▁청혼
▁희소
▁가요제
▁병살타
▁케이스케
▁메모리얼
부르
▁견주
▁번쩍
▁속주
▁앤트
▁설립자
▁갈비
▁지바
▁Val
▁장제스
츠미
▁영수
▁watch
be
▁소굴
▁Ant
▁타무라
▁봉지
▁살포
▁장문
▁경희대
▁후지타
▁깍
▁라카
▁호신
ther
▁유희열
▁고구
▁의약
▁조련
▁취역
▁바티칸
▁녹스
▁마요
▁수두
▁영령
▁한술
▁EPL
▁박지성
▁강북
▁도래
배기
▁EL
▁거라
▁와해
▁완투
▁총수
▁팍팍
▁여하튼
▁중심부
▁카디널
▁바이올렛
48
비어
▁남서
▁발열
▁보크
▁투영
▁OT
▁매크로
▁받아치
▁연합국
▁Kill
we
▁낙동
▁방사선
▁천문학
그러
▁가락
▁사적
line
▁트랭크
매김
조선
키오
▁궁궐
▁발랄
▁상층
▁캠핑
▁오스틴
▁이펙터
▁Show
▁white
▁아이슬란드
▁몽환
▁머큐
▁혹독
▁요스케
▁자리매김
구석
UND
▁도살
▁구세주
▁소폭
▁황천
▁꼬맹이
▁이대호
▁Spring
▁쿡
und
▁헤엄
ITAD
▁Pop
▁조종석
▁들어올리
▁나토
▁허물
▁펌웨어
그럽
▁목성
▁완패
▁마츠리
▁일찍이
타마
▁목욕탕
▁한자어
▁스케이트
▁간절
▁들이받
▁디스트로
ck
▁괄호
▁편차
▁포괄
▁포츈
▁스타터
▁국무총리
▁반공
▁자물
▁Ind
▁방아쇠
▁튠
▁성룡
▁자습
▁010
▁Cal
▁동자
▁외견
▁공모전
▁부적절
▁은지원
▁디스트로이어
▁묵시
▁Way
▁브리핑
▁알버트
▁원정대
▁타카기
▁쓸리
▁야유
▁인파
▁인민군
▁Club
▁공포증
▁연무
▁적시
▁내비치
▁데이지
▁자물쇠
▁훤
럴드
▁공평
▁김시
▁신탁
▁전조
▁흐지
▁싸그리
▁흐지부지
▁뻑
▁격분
▁똑바로
▁조지아
▁Dead
▁상수
▁형용
▁생활관
▁세리카
▁환상향
▁Girls
▁길동
▁1937
▁분식
▁신천
▁돌기
▁위임
▁동해선
▁떠나가
▁비닐
▁영도
▁읽히
▁동호인
▁오블리
▁GITAD
▁장화
▁후타바
▁MMORPG
▁뿅
▁세조
▁승조
▁톰슨
▁끌어안
▁비행단
▁연장전
AV
▁루팅
▁반려
▁은신처
▁추격전
▁헤이즈
▁내비
▁이석
ault
▁로렌스
▁원나라
▁위안부
▁티아라
▁프로페
노세
▁군용
▁양육
▁는다며
▁WORLD
▁기권
▁로엔
▁이규
▁거주민
▁마음먹
▁사이키
▁에스퍼
▁프랭클린
▁미얀
▁조디
연의
▁달렉
▁해지
▁시위대
▁윤석민
ipedia
▁건달
▁힘내
프레이
gy
회의
▁빈곤
▁수모
▁실기
▁재킷
▁How
▁감염자
▁아카이브
▁큘
러미
▁권속
▁백호
▁스탬
▁연마
▁절제
▁사나에
▁특례
▁계약자
▁이마이
▁ㅕ야
▁SPEC
▁모차르트
▁sk
▁일회
게이트
▁경계선
▁제라드
대군
▁만성
▁분하
▁워해머
▁퀘이크
▁DL
▁과묵
▁도핑
플라이
▁이광수
▁무마
▁샤먼
▁오블리비언
▁름
▁귀속
▁비겁
▁얼라
▁판인
▁한문
▁숨결
▁여운
제프
▁더듬
▁버지
▁일식
▁Now
▁뺨치
▁팔라
갯소리
▁구매자
▁KE
▁XI
▁공민
▁심볼
▁자상
▁모로코
▁별점
▁슈츠
▁안구
▁이견
▁전근
▁걸어다니
통일
▁안주
▁요도
▁인턴
ayer
ling
▁HKT
▁만연
▁원반
▁유품
▁사이렌
▁래더
▁수반
▁양팔
▁다이어
팔구
▁눈여
▁타깃
페르노
야구
▁Hi
▁황룡
▁눈부시
▁선교사
▁선호도
▁호타루
▁재차
▁샘플링
▁지원자
▁오아시스
▁십중
▁장자
▁태양계
▁인가
▁세이프
96
안군
▁드미
▁하룻
덩어리
▁십중팔구
▁인페르노
▁햐
▁밀수
▁헌납
▁Har
▁스펙트
▁셧
▁짠
▁거들
▁속칭
▁아세
▁주화
▁Med
▁그지없
▁보살피
▁1934
▁Space
▁금단
▁금빛
▁노장
▁무트
▁발단
▁야오
▁레이팅
▁부르크
▁소방서
▁그리워하
▁독고
▁땅굴
▁수속
▁코라
▁바닷가
▁고글
▁EXE
▁Sam
▁드로이드
▁우스갯소리
▁인플레이션
▁수첩
▁창간
▁테크놀
▁템페스트
▁레티
▁인술
▁Def
▁Death
나크
▁고압
▁금세
▁바운
▁종속
▁코쿠
▁광해군
▁잠자리
▁홈플러스
꿀멍
▁니스트
▁데꿀멍
▁MOVIE
▁XG
▁쳐들어가
▁바텀
▁톱니
▁함성
▁보컬로이드
▁GITADORA
▁성종
▁번역본
▁부착물
▁Sweet
실신
▁-!
▁무례
▁bit
▁떡실신
하늘
▁EB
▁그람
▁주지
▁아즈마
▁Pass
▁Friend
▁정국
▁정박
▁케어
▁김연아
▁받침
▁번화
▁엠마
▁엠블럼
▁유타카
▁Park
바꿈
▁변칙
▁비어
▁껍데기
▁포식자
일비
제비
▁머슬
▁숙제
▁실격
▁라멘
▁유흥
▁직급
▁한큐
▁삼국지연의
iny
▁합격자
▁슈테
▁스구
▁인삼
▁ISO
▁사토루
▁지원군
▁협의회
▁로드리게
송이
▁HY
▁맨몸
▁탈리
▁백과
▁변기
▁신뢰도
이시
▁거하
▁제아
▁카빈
▁헐리
▁돌이키
ortex
▁구수
▁리토
ople
▁플레이버
▁안대
▁연옥
▁모란
▁안즈
▁요절
▁관현악
▁검출
다이스
▁슬럼프
폭풍
▁식용
▁조라
▁디폴트
▁창출
▁사이다
ental
UK
▁\]
▁발진
▁봉신
▁사스
▁스톱
▁유린
▁중파
▁지드
▁캡쳐
ASY
▁김세
▁셋쇼
▁지네
▁223
▁셋쇼마루
▁병풍
▁은둔
▁과거사
▁MY
▁경례
▁살육
▁칩셋
▁Sur
▁WWF
▁has
▁몰아가
▁상승세
▁Story
▁클라이맥스
▁Bu
▁달구
▁멱살
▁사절
▁서주
▁속사
▁엘릭
▁통통
▁거너
▁계투
▁아톰
▁미국식
승우
▁관세
▁반년
▁원내
▁카키
▁태후
▁삼각형
▁If
▁겨냥
▁군장
▁린코
▁점치
깃거리
▁Inv
unk
▁막시
▁백설
▁평온
▁블로킹
ander
재욱
▁부팅
▁잠정
▁점장
▁거리낌
가요
▁DSP
미아
▁하원
▁갉
▁라그
▁무구
▁생식
▁음역
▁음질
▁트란
▁부지기수
▁일괄
▁존기
▁min
▁다르크
▁점프력
거래
▁가희
▁껴안
▁난도
▁몸값
우로스
▁평의회
▁스냅드래곤
▁쟝
▁신승
▁정근
▁혼용
▁결정타
▁노련
▁Cha
ubl
▁그리폰
▁핫토리
메이트
▁환승역
▁마일리지
▁케이이치
▁나트
▁발기
▁발성
▁본점
▁성북
▁의병
▁빗자루
곡역
▁고딕
▁살벌
▁성물
▁수트
▁노블레스
걸스
▁GE
▁법령
▁차츰
▁쾌적
▁바깥쪽
▁요크
▁이보
▁질책
▁미치루
▁이바라
▁Never
▁팥
▁인제
▁질럿
▁아나킨
▁사이클론
▁몰두
▁한테서
▁John
▁사카가미
▁타이베이
▁신진
▁저편
▁치우치
더리
▁감명
▁폐교
▁아야노
▁YG
▁왕권
str
▁몽키
▁밀짚
▁양천
▁김유진
▁헬리오
▁di
▁가로지르
▁연장자
ley
▁마석
▁스맥
▁LOL
▁로스쿨
▁혹시나
▁3500
▁두루마리
RAS
▁압둘
▁입찰
ords
▁고고학
▁동맹국
▁미노루
▁키리코
▁끌어당기
▁스맥다운
테라
ope
▁사채
▁와드
▁타도
▁불명예
▁샤인
▁득점자
▁쌍방울
▁야마노
▁RT
▁마우
자치단체
▁그늘
▁쫒아
네이션
▁키쿠치
▁파우스트
▁눌리
▁분출
▁연혁
▁우버
▁을시
▁군청
▁디어
▁샤우
▁연못
▁살인범
▁포스팅
▁로토
▁볼링
▁은인
▁표지판
▁하룻밤
▁이건
▁Tra
▁GU
▁안영
마이트
▁부조리
▁불상사
▁코마츠
▁클레멘
▁지선버스
서리
▁콘스
▁아리마
▁페드로
▁샛
▁소인
▁이코
▁추대
미사일
▁외주
▁자택
▁김풍
▁신혼
▁정진
▁제천
▁아마노
▁뮐
▁내력
▁알렌
tain
▁노량
▁분단
▁Will
ux
▁체면
▁다비드
▁대천사
▁입상
udio
▁지하실
▁다승
▁신룡
▁과대
▁사춘
▁해협
▁깨뜨리
▁이신형
▁미네르바
카타
▁Bro
▁Cry
▁수호신
▁비석
▁수이
▁스캇
▁역이
▁웅장
▁저절
프릭스
▁Mer
▁루돌프
▁미네랄
▁스크랩
▁핵폭탄
▁기타프릭스
▁처자
▁there
▁나자
▁다던
▁조만
▁컵스
▁공용어
▁영웅전
▁Party
▁경부고속도로
▁다이너마이트
▁에델
▁타란
▁탄력
▁저절로
▁wikipedia
예프
▁Net
▁Set
▁와일드카드
토메
▁수교
▁총신
raft
▁유목민
▁최종병기
▁파프
▁이블
▁주박
▁호적
▁마유미
▁동아일보
▁오클랜드
▁물결
▁훈련장
isode
▁PM
▁숙종
▁저속
▁NV
▁hp
▁궁정
▁권투
▁긍지
▁묵묵
▁바크
▁애호
▁계약서
▁수두룩
란다
▁김남
▁등짝
▁엄친
▁폄하
▁탈바꿈
▁맹렬
▁아귀
▁밑바닥
▁우에다
▁Single
ino
▁관내
▁국외
▁만신
▁반찬
▁일간
▁레바논
▁번역가
▁유가족
▁390
▁나이스
65
아르
rol
▁기증
▁불시
▁시정
▁의인
▁조예
▁보이즈
▁SHOW
▁횃
▁거란
▁몰려들
▁와이파이
융합
▁손길
▁익사
▁환관
▁USA
▁life
▁큼
▁외할
▁핵융합
▁애덤
▁이형
그래피
▁252
▁속아
eed
▁별반
▁비방
▁라벨
▁사타
▁큐리
▁타루
▁더욱더
▁실린더
프레이즈
도스
테라스
▁토에이
▁PG
▁인위
▁드래건
▁나가사키
▁Gener
▁숄
▁달력
BE
▁걔
보트
▁뒷담
▁링고
▁쿠가
▁전리품
▁fr
▁나니
▁방전
▁살라딘
▁청주시
▁콘스탄티노
▁-.
▁발포
▁흘러
▁SKY
▁정보원
▁뛰쳐
▁충신
▁쿠와
세이돈
ball
▁투르크
▁포세이돈
▁분담
▁분양
▁틈타
▁피시
▁매출액
▁애플리케이션
빙글
▁권혁
▁실례
▁인장
▁적국
▁직진
▁현종
▁교황청
▁메이슨
ement
ations
▁아마테라스
▁캐치프레이즈
▁수양
▁불어넣
인드
▁구룡
▁섭정
▁모니카
▁밀가루
▁생방송
다주
▁온리
▁격납고
▁무라카미
▁개관
▁스필
▁자급
▁정승
▁글래스
▁상급자
의지
▁김호
▁육탄
▁포르쉐
▁미야모토
▁루가
▁송정
▁원체
▁현세
▁불어나
▁충실하
▁Hero
==
▁댈
▁김제
▁쿠페
▁박동
▁워스
▁375
▁사춘기
▁왜냐면
▁File
이야
▁국한
▁김한
▁뱌쿠
▁휴재
▁견고
▁두세
▁터빈
▁속죄
ient
▁유시
▁조경
▁주저앉
▁1935
▁까칠
▁멩스
▁보전
▁불굴
▁퇴직
▁가우스
▁옥타브
▁유키오
▁흑기사
레프
▁극명
▁내분
▁상서
▁셔터
일비재
▁굶주리
▁부대장
▁오나라
▁1919
▁비일비재
▁music
▁대모
▁열등감
▁뛰쳐나가
더미
▁산요
▁무리뉴
▁조준기
쩌둥
▁농성
▁엘렌
▁마오쩌둥
▁례
▁마귀
▁계급장
▁미사토
▁판박이
oe
밍고
▁세터
▁오랑
▁기념관
▁자릿수
▁마담
▁Ma
▁네버
▁매료
▁외판
▁마사시
▁연산군
▁케이타
핑크
▁구위
▁타코
▁폐위
▁핸디
▁리투아
▁리투아니아
포역
▁징벌
▁바닥나
▁플루토
▁매그너스
▁금천
▁모태
▁위닝
▁어야지
▁레퀴
▁신스
▁신해
LY
날레
▁게인
▁김신
▁충무
▁바리에
▁지식인
▁서커
▁승룡
▁통영
▁황녀
▁자가용
▁Tour
유산
▁끼얹
ival
▁802
▁얌전히
▁1911
▁들이닥치
▁백발
▁재계
▁직설
▁Sou
▁USS
▁하버드
▁후부키
▁Christ
나멀
▁굵직
▁기색
▁의기
▁머나멀
▁메이스
▁알아주
백호
▁스니
▁신형
▁에리스
▁1700
브로
▁et
▁레진
▁미화
▁적잖
▁아우라
▁준이치
▁대전차포
▁스파이럴
▁쏴
▁루니
▁서든
▁손색
▁방향키
루가
보스
▁로아
▁216
▁SSD
▁스도
▁잔치
▁적장
▁코니
▁심부름
▁가열
▁마제
▁지코
▁315
▁소이치로
▁굳건
▁큐트
▁활력
부치
▁브렌
▁강남역
▁머큐리
▁원자로
▁ㄹ지언정
▁그레이스
▁기울어지
▁음주운전
▁BLACK
▁도넛
주니어
▁DAY
▁op
▁본업
▁장이
▁파란
▁pop
ISS
▁TA
▁말려들
▁맹독충
▁파라다이스
TH
▁소자
▁은지라
차원
▁가계
▁나약
▁루디
▁이완
▁종반
▁풀타임
▁목장
▁손잡
▁IEM
▁YOU
▁동양인
▁고군
▁음절
▁재편
▁호가
▁츳코미
▁혼종
▁가우
▁양정
▁영력
▁주선
▁이타치
▁밀짚모자
▁북아프리카
브레
▁금물
▁라울
▁한미
▁경의선
▁사치코
▁수원역
press
▁얼른
▁연필
▁영차
▁이너
▁세이라
총사
▁스펜
▁외과
▁이불
▁추론
▁이덕
베트남
▁성매매
▁퍼레이드
▁민망
▁엘라
▁연막탄
▁경기관총
▁소비에트
저곳
▁노역
▁자초
▁서대문
▁엑스포
▁지만은
▁이곳저곳
▁Storm
vil
▁교배
▁김장
▁돌발
공원
정사
▁브렛
▁하강
▁포커스
▁히타
▁망원경
▁묵시록
▁파헤치
▁1910
▁KN
▁발주
▁교직원
▁손견
▁무용지물
▁성대모사
▁Sn
▁사들이
▁모의고사
천리
▁순교
▁305
▁아린
▁재보
▁횃불
▁Hel
▁타마키
미트
파시
une
▁결속
▁모사
▁신태
▁영정
▁ACE
▁이카리
▁cont
서니
▁적의
▁SPECIAL
onder
▁가뭄
▁명하
▁설리
▁수회
▁스에
▁PTS
ILL
▁밀크
▁반반
▁야사
▁에마
▁폭락
▁건방지
▁키리시마
osh
▁김은
▁대림
▁옆집
▁쾌감
만별
산부
▁옐로우
▁요르단
▁서스펜션
▁천차만별
▁콤플렉스
센터
▁MH
▁광동
▁양덕
▁이징
▁자우
▁증표
▁메피스
▁TRPG
▁Take
▁헤카
▁후사
▁Mon
ta
하고
▁가트
라이터
▁sec
▁니콜라
▁견훤
▁남대
▁빙하
▁씨름
▁태사
▁프록
▁팰리스
▁겨자
▁먹방
▁바벨
▁흉노
▁555
▁김기태
▁무의미
▁야인시대
▁프로그래머
▁강기
▁명동
▁명색
▁복각
▁압승
▁왓슨
▁치어리
▁부포
▁청각
▁Key
건설
▁뒤쫓
▁셔플
▁재조
▁중용
▁촛불
▁Que
▁나가토
▁마케도니아
▁선율
▁친부
▁함유
▁튀르크
▁어쨌거나
▁가늘
▁도화
▁FS
▁나루미
▁히트맨
▁식칼
ider
▁떠다니
▁걍
효과
▁미역
▁촌장
▁돌고래
▁상하이
▁너트
▁문호
▁BMS
▁텔레파시
RO
▁거시
▁보류
▁성불
▁레퀴엠
▁하청
▁맞대결
▁전기톱
▁통조림
▁렬
▁최형우
가짐
마키
▁용신
▁코바
웨이트
▁501
▁666
▁우루스
▁문화사
신저
▁스탠리
▁시이나
▁칼로리
▁핍
판지
▁라디
▁추앙
WAR
▁광란
▁남궁
▁장려
ense
▁알려주
▁미형
▁실권
▁모모코
▁girl
▁비들
▁시브
▁이효
▁진명
▁방망이
▁적나라
▁미츠루기
▁린스
▁시제
▁밀라노
▁크루저
▁커밍
▁아라타
▁어다가
▁영화배우
터지
▁감찰
▁쟈니
▁주리
▁극단주의
▁JD
▁바키
▁이반
work
▁Sol
사태
▁딴지
▁말썽
▁법조
▁와라
▁Nor
▁them
▁쿠웨이트
고짜
▁눈매
▁다짜
▁무함
▁시메
▁최준
▁펀트
▁다짜고짜
▁동백
▁원서
▁시험장
▁아이린
▁넘어뜨리
경지
▁간수
▁백모
▁성계
▁짤짤
▁리아스
▁우주인
▁html
▁단결
▁민수
▁발당
▁슈마
프레소
▁마조
▁삭스
▁채권
▁연구생
올로
▁vol
▁키네시스
▁단호
▁유투
▁두들겨
▁!!!!
▁XIII
▁프라이스
▁버트
ible
▁213
▁다이고
▁youtube
▁뎁
▁명랑
▁타오
▁샌드백
▁대항해시대
누마
▁갈망
▁오도
▁출국
▁하체
▁end
▁소나무
▁ZERO
▁ㄴ다던지
▁하이스쿨
▁아스가르드
▁내지르
성장
ELL
▁VF
▁냄비
▁바래
▁없음
▁회식
onic
▁숟
▁도산
▁모하
▁갈아엎
▁리디
▁심해
▁오성
▁온의
▁충당
▁근위대
▁이리스
▁Great
▁Cortex
idd
▁자림
▁전일
▁짜내
▁Dem
▁노무라
▁아무로
▁보패
▁소외
▁수프
▁연두
▁용접
▁천룡
▁이야깃거리
▁총평
▁행크
▁아이파크
▁로케
▁망나
▁해수욕장
▁nm
▁검법
▁논외
▁부디
▁ARC
▁니콜라스
가타
▁NR
▁완주
▁원군
▁인대
▁차량기지
▁숨지
apan
▁베로니카
와리
▁남해
▁일제히
▁사파
▁에밀
▁염증
▁위압
▁장창
▁탈모
▁0000
▁MUSIC
br
광이
▁푸치
▁유유히
▁종착역
▁대한제국
▁미어
▁오션
▁표범
▁시발점
메트
▁노구
▁별장
▁열강
▁재우
▁천성
▁로미오
▁블라인
▁타이가
▁트레이스
▁Skill
▁카자흐스탄
▁헬싱
▁카카시
▁Univers
88
▁안락
▁다이애나
▁섬머
▁416
▁강민호
▁모리스
▁비주류
▁감차
▁권수
▁무진장
▁빼먹
▁순종
▁악재
▁윤회
▁참호
▁SUV
▁고졸
▁추상
▁탁구
▁투창
▁맘대로
▁시공간
▁정근우
▁관례
▁쿠지
▁크랙
▁버퍼
▁우디
▁현수
▁Die
▁오라클
▁야크
▁위급
▁폭죽
페리온
▁say
▁배급사
▁장난치
▁Apple
▁시우
▁국내외
▁승하차
▁경복
▁곧이어
▁에스프레소
고치
드기
ami
▁둔갑
▁보아
▁자타
▁430
▁박찬호
▁레드삭스
▁개표
▁명지
▁수난
▁광명시
▁비웃음
▁루미너스
▁아오야마
▁페라
▁홍설
▁단기간
▁Real
▁249
▁펠릭스
▁want
▁뜻밖
▁삼총사
▁2022
▁Like
▁Shad
ATE
▁경차
▁넷째
▁불기
▁이다
▁토아
▁자하
마르크
▁아르마
▁무함마드
▁포르투갈어
▁CU
▁사샤
▁왜구
▁조반
▁죠니
▁무기고
▁프랑코
덕지
▁서강
▁아누
▁역정
▁판타스틱
ori
▁입김
▁자경
▁ㄹ게요
▁기대감
▁슈이치
▁금수
▁비호
▁웅진
▁사마귀
▁떄문
▁리어스
▁적외선
▁지석
▁다이나믹
▁앙상
▁와다
▁Doc
▁코퍼레이션
▁루갈
▁줄리엣
▁짧아지
▁멸시
▁바그너
▁해적판
▁레전더리
▁로디
▁막사
▁잠적
▁하노
▁잠재우
▁Winter
▁누드
▁리크
▁보더
▁신오
▁포옹
▁사유리
▁에버튼
▁번성
▁치환
▁아케미
▁쟤
라면
▁번작
▁보람
▁은평
▁주립
▁피쉬
▁오오타
▁전자기
드릭
ude
▁상디
▁네이밍
▁유대교
▁크나크
▁Force
▁Trans
▁잇세
▁죄악
▁페퍼
▁Mad
▁라이어
▁이동기
▁저항군
▁트레버
de
링턴
▁stay
so
▁AH
부쿠로
▁part
▁어부
▁에루
▁총체
▁교통부
▁현저히
▁Road
▁틀어박히
고로
▁식감
▁울릉
▁대기실
▁반역자
▁포르테
▁빙글빙글
▁독주
▁번들
▁성자
▁알마
▁입당
▁참치
▁케일
ames
▁아이샤
▁셔틀버스
uz
놀드
▁고비
▁로밍
▁축출
▁UTC
light
당선
토모
▁고해
▁주현
▁대니얼
▁보좌관
▁파스타
▁수학여행
▁가닥
▁애원
▁아이비
▁Step
▁길가
▁낙태
▁들어주
▁마사미
▁브리스
uture
WS
▁려니
▁도우미
▁부적합
▁에미야
▁코로나
▁Champions
▁오정
▁미치광이
▁번외
▁웨스
▁정훈
▁웨일스
▁종사자
▁초토화
▁비트매니아
▁Je
▁뒷부분
▁수리비
▁츠요시
▁챈
▁락스
▁세습
▁징표
▁다느니
▁스틸러스
원군
▁Av
▁로또
▁만인
▁효도
▁김현수
▁덜덜
▁미마
▁장보
▁한수
▁war
▁Ag
▁뱃속
▁수조
▁신의
▁다이버
▁루시안
▁종로구
▁차일드
▁Feel
▁고프
▁분투
▁브록
▁열연
▁잔잔
▁토도
▁깨달음
▁이브스
▁풀어내
▁싯
위원
▁미켈
▁열도
67
▁깡통
▁코그
▁상류층
▁조성주
▁내림
▁640
▁보안관
워지
▁VI
▁교화
▁스기타
▁이용한
▁하운드
나츠
슐리
▁눈알
▁종업
▁진이
▁편향
▁테이머
44
▁랠리
▁일색
▁팔콤
▁ACT
▁아야세
▁정윤종
▁톡톡히
거시
쓸이
▁침범
베로스
▁325
▁조각상
보레
▁광폭
▁시치
▁Her
▁백두산
▁칵테일
▁방수
수아비
ital
▁구설수
▁매끄럽
▁주택가
▁빠져나오
▁허수아비
▁라피
▁제패
▁CON
▁iP
▁mg
▁니어
▁태아
▁마나미
▁신타로
▁지구력
▁타이머
▁다발
▁서고
▁간간이
▁앞당기
▁엘리시
anger
▁단군
▁명수
▁약초
▁자궁
▁증대
래스카
▁에테르
▁ㅠ
▁낱
사쿠
▁성욕
▁소말
▁초판
▁퇴임
▁크랭크
알라
▁니깐
▁변조
▁실크
현역
▁플랑
▁기나
▁로건
▁레스큐
위성
▁뮐러
▁양날
▁운하
▁구독자
▁쇼타로
국수
자마
▁당진
▁브금
▁Gal
윤수
▁근교
▁양복
▁제츠
22
▁찝
티엄
▁HA
▁영판
▁Mal
▁암살단
▁탐험대
▁파이어볼
▁밀폐
▁수완
▁펜티엄
▁스프레이
▁신분당선
bum
▁경화
▁대망
▁본심
▁오유
▁마리카
▁반도체
▁부끄러
▁Vita
lex
▁로카
▁붉히
▁승선
▁검투사
▁사냥감
▁메피스토
플린
▁심도
▁add
▁왼손잡이
▁카우보이
▁고쿠
▁순하
▁위축
▁헤치
▁넘버링
▁중남미
▁짤짤이
▁퍼스널
▁SDRAM
▁김갑
▁숨통
▁외무
▁228
▁시그널
▁대작
▁신판
▁265
▁유년기
▁우리나라
▁Knight
▁gu
▁영통
▁직면
▁리더십
▁교명
▁라쿠
▁제논
▁지브
▁참신
▁칠곡
▁댈러스
▁이하일
▁EASY
▁구내
▁기뢰
▁의역
▁비너스
▁원동력
▁Pa
▁구걸
▁당직
▁신년
▁정무
▁철판
▁로터스
▁스레드
▁스릴러
▁시마즈
▁PTSD
산성
▁우에스기
▁개역
▁폭넓
▁art
▁일일히
▁괘
사슬
▁병자
불복
▁돌핀
▁라엘
▁발작
▁복불복
▁pack
▁슈퍼주니어
▁필명
▁고세이
▁배고프
▁유소년
▁Direct
▁청라
▁여성향
▁전문점
▁보드게임
블러
▁발군
▁키아
▁황재
▁기나길
▁천안시
진창
▁도태
▁소각
▁캄보
▁무수히
▁미얀마
▁아야네
▁신창
▁헌팅
▁소용없
▁망가뜨리
▁TC
▁따름
▁램지
▁선점
▁예견
▁쭉쭉
▁엎어지
▁역이용
▁스무
▁안팎
바라기
▁타쿠마
▁엉망진창
코르
hem
▁카루
▁리벤지
▁바바리
▁코에이
▁카게야마
출력
▁ad
▁가람
▁위그
elie
▁이종범
▁1933
▁로드리게스
fl
▁에인
▁충이
▁티비
▁뿌리치
▁입학식
▁케이코
DDR
▁리비
▁원투
▁천수
▁프롬
▁이지선
▁어드밴티지
▁우즈베키스탄
달프
▁데어
▁again
▁걸레
▁시디
▁신변
▁원만
▁234
버둥
생물
▁촉구
▁사업소
▁오카베
▁Heaven
▁최지
▁아케치
▁티타늄
▁이라던가
▁봉건
▁상봉
▁월광
▁유구
▁MSX
▁브리지
▁진풍경
등병
OWN
▁룰렛
▁스러
▁쑤시
▁이륙
▁일신
▁작명
▁투혼
▁Tom
▁개소리
▁심포니
▁아르테미스
▁System
▁굴절
reet
▁쇠사슬
▁이름값
▁2400
▁겁먹
▁밀양
▁펜타
▁혼수
▁002
▁우르스
▁장단점
▁Come
▁신교
▁샐러드
▁노동조합
▁GF
▁능통
▁마레
▁주권
▁중증
▁Luc
▁다든가
▁핸들링
겨우
▁KV
▁OC
▁벌집
▁호모
▁거든요
에나
▁경춘
▁노쇠
프리트
▁로빈슨
▁서초구
▁마사유키
메르
▁바꿔
▁장료
▁행선지
▁꿍
세어
세요
▁윤지
▁only
▁카츠라기
▁남원
icle
▁갑작스레
▁RB
▁감축
▁뉴비
▁상록
▁수목
커버리
▁골판지
▁용인시
▁Days
▁독신
▁봉투
▁글라스
▁제레미
틀린
▁다급
▁담보
▁보보
▁에토
▁코아
▁마나카
▁브루드
▁강진
▁손흥
▁마르크
▁앵그리
▁교량
▁순양
합중국
▁아이패드
▁얍
▁303
▁신인왕
▁인원수
사상
▁메키
▁허드
▁드라고
▁스터디
▁용기사
▁트레이서
▁LB
▁페티
▁기동대
▁까발리
▁서투르
▁오키타
▁핵전쟁
사메
태인
▁내포
▁산림
▁설날
▁엘사
▁제련
▁처칠
▁키르
▁혼내
▁대리인
▁디노
▁중전
▁철제
▁233
▁per
▁발버둥
▁크래쉬
▁1931
▁heart
▁Intern
hn
들러
부진
▁그릴
▁이사벨
▁던데
▁뒤돌
▁부비
▁모모카
▁시라이시
▁LPDDR
▁중앙아시아
St
성군
▁굽히
▁롤리
▁용시
▁KBL
▁거주자
▁남다르
▁몰아주
▁미합중국
▁대구광역시
뱅이
▁계룡
▁당부
▁동력원
▁비키니
▁삼국전
▁ㅇㅇ
▁JYP
▁Mil
▁질투심
▁스펙트럼
▁여력
▁외양
▁율리
▁절실
▁포가
▁하울
▁라이오
▁엑스박스
▁요시유키
▁윅
라트
▁신음
▁애증
▁장정
▁코랄
▁환기
메탈
uss
▁눈길
▁시이
▁전패
▁퇴화
▁특무
▁황해
▁뒤섞이
▁버지니아
▁블라인드
▁송라이터
▁잡아먹히
▁캄보디아
▁살림
▁제끼
▁청계
▁사이타마
십자
체어
▁메기
▁성행
▁의왕
▁잠잠
▁Ult
▁방위군
▁탐험가
▁도수
▁백상
du
▁메즈
▁면세
▁방한
▁비야
▁강정호
▁사가라
▁토레스
▁휠체어
▁데이터베이스
▁당뇨
▁두꺼
▁장지
▁재력
▁날라가
▁급진
▁단추
▁리세
▁망언
▁푸틴
▁한진
▁손흥민
▁."
▁객차
▁거진
▁산체
▁오열
▁원이
▁임정
▁직할
▁자치구
▁마부
▁신겐
▁태엽
▁편법
▁버로우
▁침략자
셀러
에리
unt
▁린드
▁산출
▁위선
▁호쾌
▁미자
▁태커
▁패망
▁오가타
도시
▁떠도
▁초신
▁칠성
ines
▁손아귀
▁프랑스인
▁프로펠러
구르
▁걸프
▁245
▁난징
▁장조
▁해괴
▁221
▁아타리
▁STAND
임새
▁라사
테이커
▁"...
원수
▁워킹
▁GBA
▁동대구
▁수비대
▁House
ler
▁고귀
▁매카
▁맨서
▁심경
▁하키
내셔널
▁러시아인
▁인터내셔널
쿠버
비티
▁빙빙
▁세분
▁왼발
▁지략
▁피셔
▁510
▁GOT
▁her
▁재결합
▁친일파
▁언더테이커
▁고층
▁린네
▁릴리즈
▁사생아
모으
수단
▁까치
▁병법
▁약국
▁오펜
▁피지
▁넋
▁셴
▁명상
▁하천
▁who
▁교통카드
▁Champion
▁렝
▁가도
▁믿기
▁심기
▁쟁쟁
▁김광현
▁다리아
▁건과
▁체자
▁오거리
▁HL
▁남색
▁소켓
▁제이콥
호크
▁동차
▁반월
▁불패
▁카즈토
▁파이로
▁한바탕
▁등신
▁역순
▁월화
▁남인
▁동귀
▁점원
▁종식
▁차징
▁유리창
alent
간다
▁유야
▁힘드
▁마커스
▁장검
▁조시
▁파피
▁섣불리
enn
▁대소
▁독하
▁떡칠
ANCE
▁데저트
▁로리콘
▁복음서
▁이승기
▁좌회전
▁크리스틴
▁메로
▁사선
▁의과
▁전륜
▁Del
▁뒤따르
▁전주시
▁치료제
▁메인보드
나도
▁럭스
▁려나
▁재량
▁게오르
▁무신론
▁시어터
▁왕세자
ology
▁군포
▁단가
▁과부하
▁싹쓸이
▁토모미
▁제니퍼
클레
▁디안
▁붕어
▁수로
▁쥐어
▁최승
▁217
▁갖가지
게티
익스
▁기니
▁부차
▁주조
▁정민
▁최용
▁스타스크림
oom
▁미행
▁장작
▁즈이
▁앳
▁동두
▁로메
▁진홍
▁키카
▁회랑
▁수색대
▁웨스턴
▁순정만화
▁본즈
▁역수
▁지프
▁영업소
▁적재량
thing
워커
치우
▁소거
body
▁마땅히
▁머스탱
▁소나타
▁야마시타
▁전문학교
▁퀼
파르
▁ed
▁레디
▁리빌
▁펀드
▁항시
▁도무지
▁코야마
▁테레비
▁색소
▁휘발
▁정치가
테인
▁셰리
▁한기
타니아
▁마르티
▁동면
▁석가
▁활로
▁NTR
▁아이치
▁하락세
▁듀란
▁육아
▁슈퍼볼
▁폭주족
리케
어머니
▁어윤수
▁함량
▁선후배
VEL
▁느슨
▁대북
▁이천
▁캔자스
▁리얼리티
▁오퍼레이션
21
▁묵인
▁문희
▁신통
▁일류
▁증진
▁독일인
▁물방울
▁해바라기
림돌
▁도련
▁재화
▁진위
▁패티
▁호라
스타인
▁양준혁
▁엉터리
▁영상물
▁Full
▁카디널스
my
레로
▁낙사
▁항문
▁헬레나
▁난관
▁론도
▁삼가
▁231
▁마리코
▁부녀자
▁엥
아프
▁오구
▁직사
▁뒷모습
▁아키토
▁히데아키
▁레오나르도
▁스카이워커
▁귓
동역
러붙
저버
▁도안
▁장합
▁Remix
▁옵저버
▁카미유
▁퓨처스
▁겨우겨우
▁개찰
▁계주
▁뼈아프
▁피고인
▁피부색
▁1917
순환
▁219
▁광신도
▁아놀드
▁유우나
▁고카이저
▁모국
▁미흡
▁파묻
▁간선버스
▁중기관총
▁es
▁거구
▁레반
▁신림
▁아샤
▁용돈
▁목격자
36
ARK
▁강희
▁마방
▁뱃지
▁원료
그라들
▁뛰어가
▁울트론
▁이즈모
▁에이핑크
▁신마
▁전업
▁초구
▁Mach
▁피츠버그
▁자동변속기
▁불릿
▁영영
▁재물
▁키프
▁아이오
▁왁
말라
▁낙타
▁아구
▁용족
▁트렉
쿨루스
▁김경훈
▁힌두교
엔드
▁독창
▁성소
▁센다이
▁승리자
▁주제곡
tus
▁EG
▁셀러
▁전국구
▁스테레오
ene
▁속속
▁시식
▁주원
39
▁산적
▁단락
▁데블
▁레노
▁수세
▁케스
스턴트
▁티라노사우루스
▁구토
▁신명
▁애너
▁정주
▁푸딩
▁des
▁걸림돌
▁리츠코
▁불사신
▁세기말
▁협주곡
▁인스턴트
산군
▁두어
▁위세
▁Mat
▁공손찬
▁바로잡
▁볼프강
▁윤종신
▁헤르메스
▁red
▁변함없
▁안산시
▁초심자
▁디바이스
▁수서
▁실세
▁준말
▁서해안
▁Spir
▁SUPER
미온
▁꿀리
미디어
▁끝장내
▁치에
▁LCS
▁이케부쿠로
▁니라
▁판례
▁링크스
▁생생
▁친족
▁모기업
▁이슬람교
sp
▁가인
▁단맛
▁에트
▁조아
▁옴니버스
자락
▁IG
▁생물체
▁스트링
HA
▁둔하
▁무뚝
▁설원
▁프리킥
▁호소다
▁강압
▁수순
▁연휴
▁황궁
▁후우
▁행정동
▁등대
▁박원
▁원탑
▁카본
▁조건부
▁da
▁ml
▁경쾌
▁러프
▁빨래
▁226
▁무뚝뚝
곡리
ONG
▁ㄴ다던
▁부통령
▁클로드
▁마음가짐
▁their
▁디나
▁아코
▁흉부
▁쉐보레
유예
▁PE
레우스
▁가져다주
루냐
▁계양
▁무투
▁세밀
▁의구
▁다람쥐
▁번화가
▁아츠코
▁쓰레기통
불사
▁아발론
▁Secret
일체
탄불
box
▁마드
▁분분
▁골머리
▁을지언정
▁FINAL
▁서프라이즈
▁규명
▁금상
▁남방
▁노카
▁렌지
▁본기
▁차오
▁피아니스트
▁공양
▁굴곡
▁리지
▁관람객
▁기념비
▁필리스
▁릴레이
▁도용
▁사조
▁전단
▁혹자
▁북위
▁일침
▁플로우
▁도카이도
▁never
▁게일
▁다물
▁시망
▁우키
▁발사체
▁폐기물
베라
▁방귀
▁팽팽
▁오리엔
▁이리나
▁기모
▁도지
▁장만
▁스펜서
▁야쿠르트
▁모세
▁엄호
▁화살표
pm
덕이
▁오피셜
▁프린터
▁치어리더
▁홀로그램
▁김종민
▁옆구리
▁호크스
재호
키치
▁문예
▁방청
▁스텐
▁신예
▁저쪽
▁관중석
▁신문사
▁줄무늬
▁카즈오
▁타카야마
▁파라과이
▁플러그인
BL
▁레브
▁무참
▁성산
▁세공
▁탈피
▁페일
▁프로텍
▁ㄹ세
▁str
SE
두고
▁조원
▁약탈자
▁사황
rive
▁고구마
▁곡사포
▁구덩이
▁맥시멈
▁JK
▁강좌
▁거처
▁깨물
▁무턱
▁연격
▁레거시
▁크리에이터
▁갱생
▁과천
▁국보
▁담담
▁몰이
▁비관
▁역부
▁유폐
▁출진
고르
▁액터
▁메이든
▁정몽주
orever
릿사
rew
▁IR
▁군마
unch
▁Att
▁ser
▁고우키
▁다든지
▁빙그레
▁신분증
▁랑그릿사
차림
▁서약
▁오트
▁추력
▁항렬
▁Tem
▁간사이
▁의구심
▁후쿠다
가나
▁버나
▁변덕
▁전압
▁중랑
▁Inc
비행
씌우
▁뒤흔
▁마역
▁문경
▁하층
ader
▁메신저
▁아우르
▁Home
▁here
꺼이
테크
▁패튼
▁강의실
▁변화구
관리
▁깔보
▁마킹
▁요법
▁주춤
▁책봉
▁col
▁
▃
이
하
다
.
ㄴ
는
에
가
지
의
로
을
아
고
어
기
서
리
,
도
나
스
사
1
를
은
시
0
으
라
대
자
2
있
수
되
그
만
었
게
들
전
보
ㄹ
면
정
인
오
았
상
일
주
마
장
것
부
우
드
과
제
트
니
적
성
3
미
모
데
치
신
공
르
구
유
와
무
비
소
한
동
중
문
히
e
5
위
-
타
거
터
경
때
국
년
4
화
레
원
용
'
여
9
며
카
내
조
크
당
후
a
세
없
선
명
등
작
러
력
버
야
실
키
개
6
연
생
o
바
8
방
계
단
7
격
안
영
i
역
차
간
프
발
:
물
던
r
t
체
않
반
n
재
요
분
관
말
파
진
노
더
S
해
"
교
점
까
포
월
음
래
회
속
학
저
코
행
능
루
식
본
A
토
피
두
호
s
강
임
군
통
즈
결
/
각
C
배
초
종
디
매
번
l
현
입
불
출
려
처
같
메
최
설
형
m
남
판
티
T
M
추
많
편
직
심
산
받
승
태
건
람
P
외
특
브
d
급
쓰
감
양
D
투
알
E
달
h
금
운
예
패
B
약
!
살
표
함
u
업
습
법
런
못
c
테
목
록
언
민
네
I
플
R
병
너
복
권
L
O
준
돌
따
애
술
G
좋
독
참
천
막
른
평
절
름
황
변
론
머
캐
존
집
N
합
근
란
또
쿠
박
왕
F
청
베
항
츠
죽
션
별
g
악
활
환
열
필
날
페
확
든
망
블
류
ᄆ
김
y
향
순
릭
K
족
담
느
맞
랑
V
p
올
울
~
석
품
듯
잘
량
%
k
곡
잡
렇
탄
광
커
H
먹
증
?
련
손
료
퍼
팀
질
쪽
케
총
폭
+
녀
뒤
클
럼
워
f
탈
백
얼
접
극
글
범
송
높
창
난
완
령
색
누
철
였
효
께
새
혼
검
벌
벨
X
v
충
힘
싸
몬
밀
빠
채
락
삼
괴
U
걸
길
겠
귀
린
b
W
험
슈
끝
북
친
끼
움
w
슬
립
즌
놓
럽
넘
킬
림
육
취
엄
온
엔
틀
냥
견
골
희
랜
맨
착
곳
덕
축
택
눈
앞
쟁
링
규
허
칭
템
붙
엘
줄
득
#
팬
롭
므
및
갈
늘
찾
봉
책
뿐
징
ㅓ
냐
갑
응
널
쉽
떨
침
턴
팔
째
할
몇
측
짜
찬
암
얻
꾸
답
첫
굴
곤
몰
큼
률
좀
잠
풀
율
J
풍
혹
헤
씨
억
ㅂ
밖
즉
묘
압
둘
획
몸
벤
센
협
훈
넣
슷
멀
먼
휘
궁
례
싶
홍
뜨
찰
렵
염
논
돈
볼
퇴
맡
Y
뉴
칼
뛰
떠
깨
벽
밝
익
숙
님
액
빌
샤
낮
콘
x
끌
딩
찍
탑
닛
컬
갖
슨
렌
웃
앙
]
폐
컨
짓
옥
략
찌
웨
홈
ㅏ
층
죄
멸
욕
[
킹
쉬
좌
롯
듣
꽤
델
&
싱
멤
놀
켓
깝
쇼
팅
뀌
숨
윤
롤
뭐
씩
덤
닝
념
웅
딜
콜
빈
잔
솔
흑
욱
<
낙
혈
뜻
객
농
척
빼
폰
픽
푸
맥
뮤
혀
빛
겨
룡
Z
쁘
랙
렉
큐
닥
왜
빨
맹
폴
섬
닉
ㅆ
흥
휴
칸
헌
써
앨
램
흔
죠
듀
떤
넷
컴
럭
끔
떻
엇
탁
톤
맛
튼
랭
빙
균
털
콤
텐
딱
텔
홀
굉
믹
십
z
땅
뽑
=
맵
혁
씬
섭
쿨
녹
딸
흐
밥
짝
헬
쿄
멘
흡
잃
쌍
팩
봇
뢰
컵
쏘
옷
퀘
탐
켄
몽
꼬
뷰
펜
져
꽃
졸
탕
젤
릿
릴
즐
엑
찮
혜
챔
삭
놈
칠
튜
핵
윈
뇌
덱
끄
밤
둥
셀
똑
훨
겁
룹
밍
틴
꿈
납
ㅕ
쳐
믿
싫
낌
킨
묻
읽
깔
덜
탓
퓨
옆
얘
셈
뷔
밴
핑
갤
잉
괜
랄
벗
쥬
칙
탱
붕
굳
롱
돕
랍
짧
옵
Q
빅
륙
촌
펼
셔
튀
곧
엽
짐
끊
쓸
꺼
냉
젠
틱
>
펙
덴
*
캠
잇
쇄
닌
힐
쩌
멜
)
앗
폼
콩
둠
뒷
셋
즘
넓
촉
핀
덩
셉
떡
렬
쯤
젝
첩
빵
쇠
쥐
겸
띄
늦
깊
븐
뿌
펠
컷
쌓
값
j
셜
밑
샷
웹
옛
융
촬
쫓
왼
퀴
랫
낫
흉
텍
슴
꼭
겪
묵
겹
꼽
럿
춘
톨
뻔
멋
꾼
앉
캡
흘
밸
웬
앤
렛
랩
붉
셰
잭
옮
멍
뚫
옹
켜
톰
넥
{
헨
}
걱
쾌
엠
딘
톱
젊
깐
섞
긴
렐
킥
숫
틸
둔
섯
꼴
_
빔
떼
캔
듬
궤
잊
텀
녕
닮
펀
뱀
윙
춤
엉
윌
맺
뱅
숲
뉘
틈
닫
댄
읍
럴
겐
짱
몹
탠
혐
훌
팡
갱
멈
깃
롬
핸
숭
랗
갓
룰
챙
걷
묶
렘
볍
댓
퀄
삽
툰
깎
좁
룩
첨
츄
빗
륭
곰
렙
탯
낳
켈
잖
렴
낭
밟
팝
룬
픈
횟
릉
덮
빡
릇
펴
삶
짤
q
곽
낚
룸
봄
렁
쏟
겟
섹
쿼
넬
끈
샌
윗
늑
썰
퀸
팽
닿
돼
첼
둑
굽
쩡
뼈
덧
긍
껏
앵
;
곱
쟈
샘
뭉
뚜
핏
닐
뜯
얄
뜩
툴
흠
뚱
겉
닭
륜
킷
얀
딴
썩
긋
톡
쭉
횡
쉐
왠
엮
챠
왈
훔
쨌
뱃
멕
넉
슛
맘
엣
훗
웰
띠
붓
꺾
앱
똥
펫
씌
펄
딕
삐
큰
섀
뿔
턱
핫
햄
뿜
펑
둡
깡
뜬
쩍
냄
눕
잦
얗
꽂
벅
씹
뮬
맷
챕
ㅣ
뚝
뺏
쵸
껍
깜
벼
칩
돋
헛
갇
빚
닷
괄
탭
곁
싹
릎
@
듭
녁
훼
딧
꼼
뎀
엿
꿀
몫
ㅋ
텝
멧
밋
슐
펌
겔
썬
|
찢
갛
잎
튕
밭
엎
ㅁ
힌
헐
돔
깥
\
퉁
쪼
옳
줌
캣
$
팟
줍
힙
딪
풋
맙
듈
툭
굿
쏠
벙
흰
휩
콥
벳
밌
뻗
쿤
콧
팍
쌀
캄
벡
늬
픔
뽀
땡
쑤
굵
뻐
챌
샵
뱉
흩
툼
꿰
흙
늄
헝
츤
깽
귤
냅
뻥
큘
늙
푼
갚
튬
솜
갯
헷
킴
첸
텟
끓
뭇
솟
넌
칫
캘
얽
끗
붐
콕
륨
젖
꽉
쿵
ㅇ
찔
긁
젼
궐
휠
앰
얹
쉴
팁
뤼
슌
셸
쨩
퍽
튠
뻘
샬
웜
짙
옴
캇
닦
콰
옐
덥
쯔
팜
얇
짖
춥
젬
짬
잣
앓
겜
뇨
짚
뮌
뽕
렷
삿
쫒
랴
쑥
귄
볶
샐
꿉
펭
꽁
젓
씻
쌔
잼
넛
쎄
홋
퀵
컫
얌
ㄷ
갸
랏
햇
ㅡ
썸
씀
홉
놔
넨
굶
뺨
쥰
꾀
맑
땀
껄
헥
퐁
샹
껑
텅
(
쩔
댐
욘
렀
쫄
딥
낯
팰
맣
윽
푹
ㅎ
캉
젯
벚
늪
탬
뜸
밧
눌
싣
꿇
ㅔ
똘
왓
꽝
숍
밈
킵
륵
쁨
윕
뭔
ㅅ
샨
깁
넵
쉘
훤
옌
룻
샴
낡
웍
밉
뽐
룽
숏
멩
훅
캅
ㄱ
얕
탤
빽
숀
뚤
벵
뫼
찜
눅
떄
텁
싯
핍
^
쭈
쌈
갭
맴
윅
씁
왑
쐐
`
쌩
뾰
댕
뺑
썹
ㅠ
걀
깍
꿍
뭣
퀀
덫
돗
늠
뻑
좆
쩐
ㅈ
잽
낱
폿
츳
꿋
꾹
괘
팻
맏
쥴
췌
칵
캬
슘
찝
땜
윳
껌
갔
팥
짊
뎅
솥
잿
읊
껴
퀑
즙
켐
뭄
뱌
힛
촛
쳇
댁
뿅
뇽
괭
얏
릅
렝
콴
깅
딛
퀼
썽
왁
짭
멱
섣
폄
덟
찻
쏙
옅
된
랠
씽
궂
츈
쿡
펩
츰
셴
닳
놉
팸
쿰
뷸
곶
솝
엥
딤
햐
짠
셧
넴
샛
핥
뎃
갉
쟝
봐
뮐
걔
핌
횃
숄
댈
꺽
쏴
숱
숟
촘
뎁
걍
뵈
챈
찡
컥
쟤
쾅
뜰
뮈
낸
팎
꿔
얍
넋
앳
귓
헉
휙
쓴
끽
꼰
띵
믈
듄
슝
촐
놋
굼
쉼
튤
컹
엡
삑
쾨
캥
텃
줏
톳
돛
헴
낄
ㅊ
쉔
듐
삥
륀
쟌
휼
뒹
쓱
녜
웡
핼
뿍
찐
쫙
ㅌ
뼛
톈
찹
ㅍ
엌
뇰
숯
꿎
쾰
쿈
녘
쬐
왔
옇
퓰
뻣
퓌
댑
묠
쑹
멓
윔
궈
갬
춧
끙
볕
떳
웁
괌
낑
힉
슥
욤
훑
ㅜ
펍
쌤
홧
뿡
쨋
쇳
빤
쉰
욧
닙
첵
낵
딨
욜
듦
쏜
긱
낼
샅
뵙
롄
츨
쩧
넝
횬
꺄
맬
냠
둬
칰
닢
먀
삘
늉
쭐
땋
큭
싼
겅
빰
슭
꿩
퓸
눗
꽈
챗
챤
렸
헹
쫑
텡
빕
죤
겋
랖
닻
ㅉ
굇
샥
눔
켠
쑨
씸
즛
벰
잰
쑈
딫
넙
쏭
쿱
윷
냑
힝
틋
탉
깻
웸
뗏
엾
훙
뮴
촨
햏
햅
욥
멥
뭍
헵
냔
땔
혓
ㄲ
펨
ㅗ
됨
뤄
쩝
킁
흄
쭘
꼿
빳
좇
뮨
뷜
씰
떵
냇
몆
깟
뜀
멎
숑
젭
봅
쫀
뀨
쐬
찧
돡
볏
큅
묀
챰
옙
웩
큥
캑
ㅐ
뒈
긔
튿
쨍
콱
콸
젔
뻬
쿳
옭
젋
쮸
짢
뺌
뤽
꽥
쌰
훠
죗
숴
휑
믄
쳉
뭥
볜
솩
넒
옻
짦
휀
샙
썅
둣
쩜
붑
줘
쥘
큔
띔
썻
믐
셩
셍
뽈
쩨
냘
맟
뜷
좡
팃
곪
뵐
붇
겼
틔
롸
룀
쥔
됭
섕
잌
꼐
귈
쳄
릏
쉿
탸
촙
쯧
슉
햣
윰
흣
뎐
엷
츔
뎬
랬
묽
읏
띨
갠
곯
솅
묜
왐
뉵
빻
뺀
겍
뺴
껸
떫
켤
닯
뽁
웠
춋
쨰
ㄸ
쾡
퀜
춉
갗
앍
뱁
뼉
줴
챵
쭤
꽐
핳
홑
ㅃ
겡
랸
쨔
쭝
슼
닼
솎
륄
짹
큄
푀
퐈
퍄
퉤
쌉
쪄
앜
ㅑ
돠
좔
옼
쳅
칡
땁
챳
쌕
꺅
쇽
춰
퇘
뷁
꿏
읭
졋
켁
횽
굣
삯
삵
쉑
눙
왱
쫌
팹
똬
밞
벛
겊
쇤
훍
갹
앴
떽
븀
뢴
땃
곗
촤
묄
밎
켕
뵘
샾
ㅟ
헣
웻
뷘
푈
롈
벱
읆
큿
컁
뺄
왘
궨
꺠
겄
쉭
푯
댜
첬
뎨
쁠
똠
솀
ㅚ
뼘
돚
뷴
켑
넹
쀼
뺐
췬
괵
ㅄ
댔
돤
늅
븅
헙
츙
섶
꽹
솁
벞
낀
늡
홱
솬
ㅛ
옉
젱
됴
ㅢ
숌
볘
찟
촥
궜
맆
쏩
윾
묭
좍
꾐
뱐
졔
뵤
졍
셤
훵
됸
ㅖ
겻
쫘
챱
멬
쨉
룔
뫄
흭
궃
쳔
겆
븨
쒸
믕
휄
쏨
웽
엊
낢
휨
앎
읇
쭙
듸
큠
풉
쩄
톄
뗌
휭
뤠
캰
깄
섥
붸
났
옯
웤
좃
핡
튽
뾱
핰
뱡
텨
밣
쳬
빱
귯
믓
곬
껫
몐
짯
ㅞ
긷
뉼
먄
홰
뚠
롹
읺
쨜
춍
퀠
ㅒ
낟
쬬
ㄳ
폽
묫
슾
퓬
꼇
녓
앏
쪙
푄
믜
솽
찿
헿
귐
뙤
뚥
릐
옘
땟
뙇
섐
솨
툐
맻
웟
ㄺ
헠
묏
벧
섄
튐
됫
싴
쥠
훓
멂
쵼
퀭
걼
귁
뽄
끅
뗑
섰
했
숔
엪
좨
꽌
낏
눝
밷
뵹
뻇
잴
찣
촹
삡
섈
귿
슙
줫
흫
륌
ㅘ
뒬
쉠
퓽
녈
룅
췐
혠
ㅙ
왝
켯
큇
랲
몌
쁜
풔
햝
횻
휫
뽜
앟
읖
큣
뭅
쬔
푱
흝
쉥
웝
눞
밐
븝
젹
쭌
툽
껨
닠
똣
졌
쯩
쿽
펏
훕
ㅝ
곂
럇
튈
햔
듕
벋
읔
쟘
츌
툇
튱
싀
쎾
될
봣
큡
떈
쏼
죵
쥿
똔
랼
맠
쑴
짫
냣
쟙
퉈
퓔
햘
뇬
뗴
뼝
섧
쎼
퓐
뱟
쨘
뎡
떙
띡
읗
챨
툿
핲
흽
걲
녠
돝
쟛
휸
떰
뚯
셕
쳣
꾜
덷
땍
랐
삣
셱
숩
춈
콯
훝
힣
묾
봑
솓
왤
욬
즤
캪
톩
뺘
짇
핬
혔
떱
섵
쨈
춫
팤
굥
벴
솃
슁
앝
큉
삷
옜
쯋
쿙
쎔
읎
궉
꾿
뢸
얆
쟉
홓
ㄻ
꺵
뜽
퐝
덪
읕
쳰
틉
횐
ㄼ
눼
얶
컽
갞
뀽
늣
몪
뭏
뮻
봙
씼
좝
캎
ㄵ
괞
귬
넼
먕
앚
쳥
튄
ㄶ
뵨
썪
핧
댱
덬
뗀
뷕
긺
딮
맕
뷧
븟
뺙
뿟
엏
죌
퉷
ㄽ
곘
꿘
솰
읒
쳘
츕
캌
틍
틑
끠
볓
뻰
쓔
엶
읜
쟐
졀
즁
튭
ㄾ
룝
빋
졈
촵
핱
쉣
쓩
엙
ㄿ
ㅀ
뚧
믾
뻉
앺
죔
챡
쵤
흗
걋
넖
덞
맢
몿
뺭
쁑
솊
싿
윱
쾀
툠
퐄
픕
괍
껭
덖
몀
썖
쐇
씡
읶
쫗
쭁
쳤
캿
풂
뀩
닺
뎌
뺸
죙
쥑
햤
혤
굄
깸
뙈
띱
륍
븍
븜
뿝
쒜
씅
읻
캭
퓩
깹
꿧
놘
땐
뚸
룐
륑
륫
먐
앋
앖
얔
옝
읃
잆
좐
쥼
캢
캴
훽
굷
귑
깉
껒
뉸
돐
뜌
몃
뷀
옾
욺
칲
큽
킄
꼳
녤
띁
룟
뱍
뺩
삠
싈
쏫
욍
졷
줜
츼
켬
킈
꺨
늴
뒨
롮
롷
룁
벜
뺵
쀍
쌥
썡
쎅
쮜
쯕
챦
췰
캼
툥
궆
끎
끕
넗
뇻
됩
뚬
뜹
랔
롼
맜
벫
샄
쎠
웦
죡
쪘
쵱
켔
퀫
텬
픠
햑
됏
뚭
숮
쑝
엨
욹
젧
짋
췍
톺
톼
휏
걺
냨
늗
돨
됄
땨
릍
먈
뼤
솧
엤
왬
읷
죨
쩬
츗
켸
콬
튁
퍅
훚
냡
뎠
둟
딲
륏
봘
셒
슶
쌐
얉
쾍
킅
틩
겯
곷
깩
껀
녔
뒴
뚀
럄
롑
쌋
쌜
욌
윶
읅
췃
췩
팖
픗
횔
놧
뇩
듁
밨
붱
엹
잍
졘
쥣
챂
컾
탶
퇼
푕
곈
긇
덯
롶
뢱
밪
빝
뻴
섴
슽
얺
옿
읠
튑
틊
퍈
꾄
끉
낛
낪
뛔
몯
볫
븃
뻡
쑵
엳
옺
졉
좂
쯥
찦
칬
톸
퇸
펲
햡
훰
긑
껠
녯
닜
띤
먁
뱔
볠
뵬
븡
뽝
삳
샼
섁
셨
쏵
앶
얐
잨
죳
줭
쥽
쫍
쫏
콦
킼
꺙
끟
낰
넀
놰
뇸
돇
둏
땝
똏
럐
뢔
맽
먺
뮹
뱝
봔
뽂
샏
쇨
쎆
쏀
왚
웈
잋
쥡
쨤
쯱
쵝
춀
칯
쾬
쿸
팊
푠
긘
꺘
냤
녂
녑
댠
댸
덛
뗘
륩
맀
뫃
밊
벹
볻
봥
븥
빧
쁩
앆
얊
얖
엃
엵
옄
웱
윜
읋
좄
쥤
쩃
챃
쳑
헑
횅
곌
곹
귱
깺
꺔
끵
넊
댤
돎
둉
럅
롓
롣
몄
벐
봊
붏
붗
붴
뻩
쀳
삻
샇
셥
솦
싑
쌘
얭
옧
욋
욯
윘
잛
줸
짘
쪠
찎
쳌
췻
컶
켙
퀧
턍
퉅
푿
풰
퓻
핓
헼
홇
힜
힠
갘
굔
궝
궬
깆
꺗
냬
놜
눋
늧
덨
돟
똟
똭
랕
릳
맇
멉
몔
뫙
묙
뭡
뱊
붊
뺍
쀏
썌
쒕
앒
앧
얋
쟎
쟞
짞
쨕
쩰
쪾
쯰
켰
켱
쾩
퀌
팏
햬
홥
횰
횸
훟
겞
괏
굘
껶
꾈
뀀
뀰
낍
넢
놂
덭
뎍
됀
듫
떔
떪
렡
밦
밯
벍
벓
볐
뻠
뾸
뿨
쀠
쁭
샊
섡
솸
쉅
쉡
싾
쏱
쏸
쐉
쓿
씜
얙
엫
욷
욿
읉
쩠
쳡
쵀
쵹
캍
텦
톲
핟
핣
햛
훡
휵
힁
굻
궷
껩
껼
됌
떘
떯
뜅
뤈
맫
맼
밬
벎
볽
붘
붯
빪
뼸
뿛
쁌
섊
솹
숸
싢
웷
잫
쟂
쟬
젏
죰
죶
쥭
쵭
컄
쾃
톹
퇀
퉨
폘
퐌
풿
횝
흇
갂
곲
긂
긿
껙
꼍
꿕
뀍
뀵
끨
넸
뇐
늒
늫
덍
뎊
뎔
뛟
랰
럈
럷
먫
멭
뭠
벖
볔
봍
봡
뵷
붤
빍
빩
뻆
뻤
뻿
삧
샆
샠
셑
슸
싵
썛
쎗
쑌
쑛
씃
엍
옫
윁
읪
젴
줗
짪
쬽
쵮
컼
켚
쿗
텤
텰
퉹
팦
푝
픖
픙
핻
햌
햙
햠
햩
햫
홤

갊
곀
곖
곸
궅
궛
긜
꺌
꼈
꼻
뀬
뉙
뉨
닸
댇
덣
뎄
뎦
됵
듵
딈
딍
땗
땽
뗍
뚦
띳
랎
렿
롫
룍
뤂
륽
맄
맍
멌
뫀
뫌
묑
묷
믇
밡
볱
뵥
빂
빎
빞
뺼
뻈
뿓
쀄
쁙
삾
샒
셊
솤
쌞
쌱
앀
왯
웉
읓
잏
좊
줆
짔
짥
쩟
쩼
쭸
춸
캏
쿔
탙
탼
턀
텼
펔
폯
핮
홐
괃
궭
깬
꺆
꾁
뀡
낲
넠
녬
뇔
눨
늇
닁
닽
덿
뎧
듼
뙨
뚊
랃
렜
뤗
뤤
륻
릘
맂
맊
멏
몾
뫈
믁
믘
믙
뱓
뱦
벆
벏
벝
벟
벩
벸
볌
봆
뷥
빢
빴
뿕
쁐
삒
삱
슟
싄
싦
싰
싷
쌂
쎴
쏝
쏳
쑉
앛
옒
옰
왹
욛
웆
읐
읹
잗
잚
잪
쟃
짆
쭵
쯉
챼
쳴
촷
췡
췤
츱
칟
캆
켘
탹
툉
틂
퍗
퍙
퐐
푤
핝
횞
훜
흨
힗
갅
걑
곺
굑
궘
귪
귺
긌
꾾
꿑
꿿
뀜
끋
낔
넜
넽
녛
놎
뇟
뉭
닏
닶
닾
댯
댼
덝
돜
됍
됒
둫
뒝
뒥
듰
딯
떢
뗼
똻
뜛
띾
럤
렫
롴
뢈
뢉
뢨
룃
룄
뤌
륷
릌
맒
먜
먿
몋
뭌
뭤
뮷
밂
밗
뱜
볃
붖
븰
빟
뼁
뽤
뾔
뾲
뿎
쀽
삮
숞
숼
슢
쌴
쌵
쌸
쎕
쎙
쎽
쐑
쓲
씉
씝
엗
옂
옸
윝
읨
젛
젶
졩
즥
쨥
쩻
쪨
쫩
쬼
쭀
쭃
쮀
쯍
쯘
챞
첡
쳠
쵇
쵠
쵷
췽
칮
캋
켭
탏
툵
팉
퍌
폮
풐
풾
픤
핔
핕
햋
햟
홅
훱
힏
갴
걩
굡
궻
귚
귝
긏
긩
긲
깢
깤
꺤
꼉
꼮
꽆
꽇
꽜
뀫
끆
끍
끡
끤
낋
넑
넫
뇹
눟
닧
닰
댛
덗
덢
뎈
뎜
됙
둇
둗
둙
둴
듷
땈
뗵
똙
똡
뚮
뜳
뜵
띙
랓
랟
랣
럔
뢇
뢍
뢐
룱
뤨
륧
릠
맗
먖
먾
멊
뫚
묨
뭎
뭘
뭩
뭵
뮛
밢
밫
밮
밲
봃
봌
붒
뷫
븸
빏
빖
빸
뻢
뻭
뼌
뽇
뽘
뽱
뾼
쀓
쀾
삤
삲
삸
섦
셖
솢
숛
숳
쉨
쉪
슦
슧
슲
슳
슿
싕
싻
썜
썭
쎵
쏉
쐤
쑐
쑦
쑻
쒯
쒹
쓘
쓺
씺
얃
얒
얾
얿
엒
엺
옪
옽
욉
욣
웊
웓
웕
윀
읿
잞
쟠
졤
좢
죹
즹
짛
짮
쫭
쬲
쭊
쭛
쮹
찯
챷
챸
챺
첅
쳗
촏
촾
춣
춱
췁
췹
췼
츅
츩
칢
칽
컈
켝
켣
쾈
퀍
퀏
퀙
큟
탘
탣
턔
텊
텩
텻
텽
톧
폕
폣
퐅
풑
풩
풸
퓅
퓍
햾
헗
헭
홛
홝
훋
흒
흼
힡
갮
겧
곻
괬
궞
궢
궸
궹
궼
귕
귻
귾
긕
깈
깓
껵
꽊
꿂
꿜
꿯
꿻
뀙
뀝
끾
낞
낣
냈
넚
넾
놑
놥
눤
눽
뉏
늚
늨
늰
닊
닑
닲
댘
댥
돞
돩
돶
둚
둪
둰
뒁
뒑
듓
듧
딋
딿
떣
똇
똫
똰
똴
똵
뙭
뚄
뚕
뚷
뛃
뜃
뜐
랋
랒
렄
롇
롥
룯
뤔
뤕
륶
릋
릾
맃
맓
먑
먗
멑
멛
멞
멫
멮
몊
몭
뫅
묩
묯
뭆
뭷
뮝
믂
뱕
뱨
벑
벾
볎
볾
봋
봎
뵫
뵭
뵳
뵶
붝
붰
붹
붼
뷱
뷹
븠
븩
빹
뺃
뺔
뺚
뺶
뻟
뻨
뼏
뼬
뽟
뽠
뽥
뽭
쁏
쁥
삝
샃
섢
섪
섮
섻
셐
쇌
쇘
숖
숝
쉛
슆
슻
싺
싽
쌑
쌙
썎
썐
썫
썲
쎀
쎤
쐙
씔
씤
씪
앐
앑
얫
얬
엜
엯
엱
옦
왉
욮
욾
웗
웛
웧
윹
읙
읫
읰
읾
잩
쟜
젇
젗
젵
졎
좉
좽
죢
줃
쥇
쨟
쨨
쫜
쬈
쬤
쬭
쭂
쮠
찱
첰
쳿
촊
촞
촟
촠
촢
촴
쵯
춭
춴
캜
캽
컭
컿
콀
콙
쾻
큳
큾
킸
킾
탇
탰
퇄
퉥
퉭
튓
튝
틤
틧
틷
팈
팓
폅
폔
퐙
퐞
풒
풹
퓜
픝
픨
햎
헔
헡
헯
혬
혯
혱
홯
횩
휅
ᄀ
갋
갲
갵
걈
걉
겂
겕
겢
겤
곅
곕
곩
괆
괱
괳
궋
궫
궳
궶
귍
귖
귛
귡
긄
긐
긓
긤
긮
깋
깏
깑
깛
깞
깪
꺕
꺢
꺴
껃
꼯
꽅
꽣
꽦
꽨
꾑
꾫
꾭
꿃
꿱
뀁
뀱
뀻
끑
냙
냟
냫
넡
녇
녋
놐
놞
놯
뇄
뇜
뇡
눜
뉫
늕
늼
닒
닞
닟
닡
닣
닪
댝
댬
덀
덌
덙
덠
덦
뎂
돆
돖
됈
됑
됰
둅
뒓
뒵
뒺
듟
듥
듮
듳
듹
딀
딹
딺
딻
땇
땛
떧
떭
떷
뗃
뗆
뗠
똒
똗
똝
뙁
뙍
뙡
뚁
뚂
뚔
뚞
뚢
뚵
뛉
뛻
뜁
띃
띧
랅
랻
럂
럲
럶
럸
럻
렆
렏
렠
렢
렺
렼
롐
롕
롵
룥
뤀
뤘
뤡
뤵
릆
릣
릯
릵
맅
맋
맔
맚
먆
먘
먚
먛
먽
멁
멪
멷
몁
몓
몱
몲
몳
몼
묗
묦
뭊
뭑
뭨
뭭
뮉
뮘
뮥
뮽
믉
믠
믱
믻
밁
밇
밠
밻
뱛
뱤
뱩
뱽
벘
벲
볟
볹
봀
봁
봈
봨
봫
봴
뵉
붂
붆
붋
붚
붛
뷮
븉
븓
븽
빘
빥
빮
빷
뺅
뺓
뺛
뺜
뺠
뺣
뺫
뻒
뻙
뻞
뻪
뻽
뼇
뼙
뼠
뼥
뽴
뾆
뾻
뿏
뿑
뿘
뿙
뿧
뿩
쀒
쁀
쁋
쁎
쁟
쁢
쁶
삗
삜
샂
샢
샻
섑
섟
섨
섫
섲
섷
섺
섿
셙
솑
솖
솘
솼
쇈
쇱
쇴
쇵
쉈
쉏
쉤
쉩
슀
슄
슡
슮
슺
싁
싐
싨
싪
싲
쌇
쌒
썀
썋
썍
썮
썯
쎃
쎥
쎨
쎿
쏄
쏚
쏢
쏶
쏽
쐔
쐽
쑞
쑩
쑼
쒓
쒝
쒰
쒱
쒴
쓉
쓋
씄
씋
씥
씯
앢
앩
앫
앸
앾
얂
얅
얎
얩
얷
엋
엩
엸
옑
옱
옶
왒
왛
왭
왰
왷
욈
욙
욝
욟
욡
욢
욨
웒
웥
윞
윲
윸
읈
읧
잀
잂
잒
잢
잧
쟗
쟢
젒
젟
젨
젮
젺
졜
졵
좹
좼
죕
죸
줋
줐
줓
줠
줵
쥉
즂
즑
짂
짒
짗
짷
쨧
쨴
쩅
쩖
쩗
쪗
쫴
쬡
쬰
쬴
쬷
쭟
쭨
쭹
쯪
찫
찭
챀
챯
첞
첟
첧
첯
첲
촡
쵁
쵕
쵬
춛
춝
춢
춨
춪
춮
췄
췅
췔
췸
칀
캵
켮
켼
콛
콮
콻
쾔
쿜
쿭
퀨
킇
킐
킫
탖
탵
턑
텂
텉
텋
텥
텹
톋
톽
퉀
퉆
퉜
튮
튺
틜
팛
팣
퍘
퍚
펁
폂
폇
퐂
퐃
퐆
퐉
푴
푾
풬
풱
풴
퓟
픅
픋
픞
핛
핤
핶
헒
헚
헲
홣
훛
훞
훸
휗
흖
흟
흿
힑
힚
갃
갣
갥
갨
걁
걂
걏
걓
걥
걳
걹
걽
걿
겇
겈
겓
겥
겦
겳
겾
겿
곃
곟
곴
괐
괗
괙
괠
괧
괩
괺
굅
굈
굗
굠
굸
굾
궄
궇
궔
궖
궮
귔
귘
귥
귵
귽
긃
긎
긒
긞
긡
긢
긣
긧
긶
깂
깇
깖
깣
깧
깳
꺀
꺃
꺍
꺐
꺑
꺓
껖
껗
껬
껰
꼄
꼑
꼔
꼠
꼲
꽛
꽭
꽯
꽸
꾔
꾕
꾴
꾺
꿅
꿆
꿝
뀂
뀟
뀠
뀢
끚
끛
끰
낐
낧
낻
냀
냌
냩
넎
넏
넟
녿
놁
놅
놇
놏
놕
놤
놨
놩
놬
놴
놶
뇝
뇠
눁
눶
뉍
뉔
뉩
뉽
늩
늭
닚
닱
댊
댋
댖
댗
댦
댶
덳
덾
뎉
뎒
뎗
뎙
뎟
뎢
뎰
뎽
돊
돍
돒
돘
돰
돵
돽
돿
됓
됗
됢
됧
됺
됻
됼
둈
둍
둩
둿
뒉
뒕
뒗
뒫
뒾
뒿
듇
듑
듛
듞
듶
딉
딦
딳
딵
딶
땊
땕
땞
땣
땥
땩
땳
땻
땼
떅
떋
떌
떑
떗
떥
떦
뗉
뗋
뗗
뗜
뗝
뗞
뗡
뗣
뗳
뗶
뗸
뗻
똛
똤
똧
똩
똷
똽
똿
뙜
뙬
뙮
뙱
뙴
뚆
뚣
뚩
뚳
뚶
뚼
뛀
뛇
뛈
뛓
뛗
뛛
뛝
뛣
뛧
뛷
뛹
뛼
뜏
뜔
뜫
뜴
뜼
뜾
띅
띇
띎
띕
띯
띻
띿
랆
랤
랮
랳
럑
럪
렓
렚
렞
렣
렦
렳
렾
롁
롊
롲
롳
롽
뢀
뢓
뢘
뢤
뢥
뢯
룛
룪
룳
룴
룷
룺
뤁
뤃
뤅
뤙
뤯
뤱
뤻
륐
륔
륝
륞
륡
릃
릈
릊
릔
릞
릟
릮
맪
맮
먃
먅
먍
먏
먓
먙
먪
먳
먵
멃
멆
멇
멐
멒
멦
멯
멹
멽
몉
몟
몥
몮
몴
몷
몺
뫁
뫔
뫘
뫞
뫠
뫤
뫵
뫽
묈
묍
묚
묟
묡
묬
묱
묳
묺
뭀
뭁
뭃
뭈
뭋
뭗
뭟
뭧
뭰
뭺
뮔
뮧
뮯
뮳
뮶
뮿
믌
믏
믗
믛
믺
밒
밓
밙
밚
뱏
뱒
뱚
뱞
뱷
뱸
뱺
벇
벉
벊
벒
벻
볅
볙
볳
볿
봂
봏
봒
봗
봠
봢
봵
봽
뵑
뵛
뵧
뵲
뵴
뵸
뵻
붃
붌
붍
붵
붷
뷇
뷉
뷋
뷏
뷐
뷓
뷛
뷟
뷤
뷦
뷩
뷭
뷵
뷷
뷼
븈
븎
븏
븕
븘
븞
븧
븬
빆
빒
빣
빫
빶
빺
빾
뺒
뺝
뺟
뺡
뺥
뺦
뺧
뺮
뺳
뺹
뺿
뻄
뻕
뻖
뻚
뻛
뻦
뻼
뼐
뼞
뼡
뼢
뼦
뼱
뽆
뽊
뽒
뽓
뽔
뽖
뽙
뽚
뽛
뽞
뽧
뽷
뽸
뾂
뾃
뾄
뾅
뾇
뾘
뾥
뾹
뿁
뿃
뿉
뿋
뿒
뿗
뿚
뿞
뿮
뿯
뿷
쀌
쀎
쀐
쀑
쀬
쀲
쀿
쁉
쁍
쁓
쁕
쁖
쁚
쁣
쁴
쁼
삂
삚
삹
샓
샟
샪
샫
샭
섚
섳
셟
셣
셦
셷
솈
솏
솒
솕
솗
솚
솛
솞
솠
솻
쇀
쇇
쇔
쇗
쇙
쇝
쇡
쇰
숁
숓
숕
숚
숢
숤
숥
숦
숪
숬
숰
쉙
쉚
쉜
쉟
쉵
슂
슅
슏
슓
슠
슫
싊
싘
싞
싧
싩
싮
싳
쌆
쌊
쌎
쌖
쌚
쌛
쌟
쌷
쌺
쌻
썁
썃
썗
썱
썳
썴
썷
쎋
쎞
쎟
쎡
쎫
쏌
쏏
쏔
쐅
쐏
쐠
쐣
쐥
쐩
쐼
쑀
쑁
쑍
쑟
쑫
쑱
쑷
쑽
쒂
쒄
쒐
쒠
쒧
쒨
쒺
쓀
쓈
쓕
쓚
쓜
쓤
쓷
앇
앦
앲
앷
앻
얓
얰
엓
엕
엟
엦
엻
옃
옓
옡
옲
왂
왇
왖
욀
욚
욦
욵
웄
웇
웋
웎
웚
웞
웴
윚
윟
윢
윧
윪
윮
윺
읁
읂
읟
읤
읩
잓
잕
잙
잜
잟
쟆
쟏
쟑
쟔
쟟
쟥
쟴
쟸
쟹
젂
젃
젆
젘
젚
젻
젿
졁
졂
졏
졐
졒
졥
졧
졬
졺
졽
졾
졿
좈
좒
좜
좟
좠
좧
좬
좸
죥
죧
죱
죷
죻
줅
줈
줊
줎
줒
줙
줮
쥥
쥮
쥻
즊
즠
즡
즨
즯
짡
짣
짩
짴
쨖
쨢
쨱
쩁
쩎
쩒
쩢
쩱
쩸
쩽
쪈
쪔
쫅
쫋
쫖
쫠
쫫
쫰
쬥
쭬
쮕
쮬
쯇
쯈
쯜
쯫
쯬
쯸
찃
찖
찗
찛
찥
찲
찳
찴
찺
챁
챣
챲
챴
챶
챹
챻
챽
첄
첐
첚
첛
첢
첣
첥
첦
첪
첮
첳
쳈
쳋
쳕
쳧
쳫
쳭
쳼
촁
촍
촎
촑
촒
촓
촕
촖
촣
촻
쵿
춇
춏
춗
춠
춡
춦
춬
췛
츀
츆
츎
츷
칚
칻
캟
캧
컛
켇
켳
콉
콫
쾁
쾋
쾐
쾹
쾽
쿌
쿏
쿧
쿩
쿪
퀡
큫
큱
킆
킦
킭
탂
탃
탆
탊
탍
탒
탗
탚
탺
탿
턁
턉
턋
턌
턐
턒
턓
턕
턚
턩
턹
턺
턻
텆
텈
텓
텗
텞
텠
텣
텪
텳
텸
톁
톃
톗
톙
톮
퇍
퇙
퇜
퇣
툄
툑
툓
툔
툘
툝
툡
툩
툫
툯
툷
툸
툹
툺
퉃
퉇
퉐
퉝
퉠
퉱
튎
튙
튟
튦
튲
튳
튵
튶
틐
틒
틓
틘
틥
팂
팄
팒
팗
팚
팮
퍐
퍠
퍿
펅
펋
펎
펖
펗
펡
펬
펰
펵
펻
폃
폡
폳
퐠
퐤
퐳
푥
푧
푩
푫
푭
푷
풄
풇
풏
풕
풘
풜
퓙
퓝
퓡
퓳
퓴
퓵
퓹
픁
픓
픟
픱
픳
핁
핃
핎
핖
핗
핚
핞
핦
핪
핽
핿
햍
햚
햭
햰
햼
햿
헁
헏
헓
헫
헺
혂
혅
혉
혒
혙
혭
홒
홨
홪
홬
홴
횂
횄
횓
횜
횦
횹
횾
훁
훃
훇
훎
훒
훯
휋
휌
휍
휔
휢
휬
휰
휳
휽
흢
흪
힋
힍
갆
갌
갍
갎
갏
갟
갡
갢
갦
갧
갩
갪
갫
갳
갶
갷
갺
갻
갽
갾
갿
걃
걄
걅
걆
걇
걊
걌
걎
걐
걒
걕
걖
걗
걙
걚
걛
걝
걞
걟
걠
걡
걢
걣
걤
걦
걧
걨
걪
걫
걬
걭
걮
걯
걵
걶
걻
걾
겎
겏
겑
겒
겖
겗
겘
겙
겚
겛
겣
겫
겭
겮
겱
겲
겴
겵
겶
겷
겺
곆
곇
곉
곊
곋
곍
곎
곏
곐
곑
곒
곓
곔
곙
곚
곛
곜
곝
곞
곢
곣
곥
곦
곫
곭
곮
곾
곿
괁
괂
괅
괇
괈
괉
괊
괋
괎
괒
괓
괔
괕
괖
괚
괛
괝
괟
괡
괢
괣
괤
괥
괦
괨
괪
괫
괮
괯
괰
괲
괶
괷
괹
괻
괽
괾
괿
굀
굁
굂
굃
굆
굊
굋
굌
굍
굎
굏
굒
굓
굕
굖
굙
굚
굛
굜
굝
굞
굟
굢
굤
굦
굧
굨
굩
굪
굫
굮
굯
굱
굲
굹
굺
궀
궊
궍
궎
궏
궑
궒
궓
궕
궗
궙
궚
궟
궠
궡
궣
궥
궦
궧
궩
궪
궯
궰
궱
궲
궴
궵
궺
궽
궾
궿
귂
귃
귅
귆
귇
귉
귊
귋
귌
귎
귏
귒
귗
귙
귞
귟
귢
귣
귦
귧
귨
귩
귫
귭
귮
귰
귲
귳
귴
귶
귷
긅
긆
긊
긖
긗
긙
긚
긛
긝
긟
긠
긥
긦
긨
긪
긫
긬
긭
긯
긳
긵
긹
긻
긼
긽
긾
깒
깕
깗
깘
깙
깚
깦
깫
깭
깮
깯
깱
깲
깴
깵
깶
깷
깾
깿
꺁
꺂
꺇
꺈
꺉
꺊
꺋
꺎
꺏
꺒
꺖
꺚
꺛
꺜
꺝
꺞
꺟
꺡
꺣
꺥
꺦
꺧
꺩
꺪
꺫
꺬
꺭
꺮
꺯
꺰
꺱
꺲
꺳
꺶
꺷
꺸
꺹
꺺
꺻
꺿
껁
껂
껅
껆
껇
껈
껉
껊
껋
껎
껓
껔
껕
껚
껛
껝
껞
껟
껡
껢
껣
껤
껥
껦
껧
껪
껮
껯
껱
껲
껳
껷
껹
껺
껻
껽
껾
껿
꼀
꼁
꼂
꼃
꼅
꼆
꼊
꼋
꼌
꼎
꼏
꼒
꼓
꼕
꼖
꼗
꼘
꼙
꼚
꼛
꼜
꼝
꼞
꼟
꼡
꼢
꼣
꼤
꼥
꼦
꼧
꼨
꼩
꼪
꼫
꼱
꼵
꼶
꼷
꼸
꼹
꼺
꼾
꽀
꽄
꽋
꽍
꽎
꽏
꽑
꽒
꽓
꽔
꽕
꽖
꽗
꽘
꽙
꽚
꽞
꽟
꽠
꽡
꽢
꽧
꽩
꽪
꽫
꽬
꽮
꽰
꽱
꽲
꽳
꽴
꽵
꽶
꽷
꽺
꽻
꽼
꽽
꽾
꽿
꾂
꾃
꾅
꾆
꾇
꾉
꾊
꾋
꾌
꾍
꾎
꾏
꾒
꾓
꾖
꾗
꾘
꾙
꾚
꾛
꾝
꾞
꾟
꾠
꾡
꾢
꾣
꾤
꾥
꾦
꾧
꾨
꾩
꾪
꾬
꾮
꾯
꾰
꾱
꾲
꾳
꾵
꾶
꾷
꾻
꾽
꿁
꿄
꿊
꿌
꿐
꿒
꿓
꿖
꿗
꿙
꿚
꿛
꿞
꿟
꿠
꿡
꿢
꿣
꿤
꿥
꿦
꿪
꿫
꿬
꿭
꿮
꿲
꿳
꿵
꿶
꿷
꿹
꿺
꿼
꿽
꿾
뀃
뀅
뀆
뀇
뀈
뀉
뀊
뀋
뀎
뀏
뀑
뀒
뀓
뀕
뀖
뀗
뀘
뀚
뀛
뀞
뀣
뀤
뀥
뀦
뀧
뀪
뀭
뀮
뀯
뀲
뀳
뀴
뀶
뀷
뀸
뀹
뀺
뀼
뀾
뀿
끀
끁
끂
끃
끇
끏
끐
끒
끖
끘
끜
끞
끢
끣
끥
끦
끧
끩
끪
끫
끬
끭
끮
끯
끱
끲
끳
끴
끶
끷
끸
끹
끺
끻
끿
낁
낂
낃
낅
낆
낇
낈
낉
낊
낎
낒
낓
낕
낖
낗
낝
낤
낥
낦
낶
낷
낹
낺
낽
낾
낿
냁
냂
냃
냆
냊
냋
냍
냎
냏
냒
냓
냕
냖
냗
냚
냛
냜
냝
냞
냢
냦
냧
냪
냭
냮
냯
냰
냱
냲
냳
냴
냵
냶
냷
냸
냹
냺
냻
냼
냽
냾
냿
넁
넂
넃
넄
넅
넆
넇
넍
넔
넕
넞
넦
넧
넩
넪
넭
넮
넯
넰
넱
넲
넳
넶
넺
넻
넿
녃
녅
녆
녉
녊
녌
녍
녎
녏
녒
녖
녗
녙
녚
녝
녞
녟
녡
녢
녣
녥
녦
녧
녨
녩
녪
녫
녭
녮
녰
녱
녲
녳
녴
녵
녶
녷
녺
녻
녽
녾
놃
놄
놆
놊
놌
놖
놗
놙
놚
놛
놝
놟
놠
놡
놢
놣
놦
놪
놫
놭
놮
놱
놲
놳
놵
놷
놸
놹
놺
놻
놼
놽
놾
놿
뇀
뇁
뇂
뇃
뇅
뇆
뇇
뇈
뇉
뇊
뇋
뇍
뇎
뇏
뇑
뇒
뇓
뇕
뇖
뇗
뇘
뇙
뇚
뇛
뇞
뇢
뇣
뇤
뇥
뇦
뇧
뇪
뇫
뇭
뇮
뇯
뇱
뇲
뇳
뇴
뇵
뇶
뇷
뇺
뇼
뇾
뇿
눀
눂
눃
눆
눇
눉
눊
눍
눎
눏
눐
눑
눒
눓
눖
눘
눚
눛
눡
눢
눣
눥
눦
눧
눩
눪
눫
눬
눭
눮
눯
눰
눱
눲
눳
눵
눷
눸
눹
눺
눻
눾
눿
뉀
뉁
뉂
뉃
뉄
뉅
뉆
뉇
뉈
뉉
뉊
뉋
뉌
뉎
뉐
뉑
뉒
뉓
뉕
뉖
뉗
뉚
뉛
뉝
뉞
뉟
뉡
뉢
뉣
뉤
뉥
뉦
뉧
뉪
뉬
뉮
뉯
뉰
뉱
뉲
뉳
뉶
뉷
뉹
뉺
뉻
뉾
뉿
늀
늁
늂
늃
늆
늈
늊
늋
늌
늍
늎
늏
늓
늖
늛
늜
늝
늞
늟
늢
늤
늮
늯
늱
늲
늳
늵
늶
늷
늸
늹
늺
늻
늽
늾
늿
닀
닂
닃
닄
닅
닆
닇
닋
닍
닎
닓
닔
닕
닖
닗
닩
댂
댃
댅
댆
댉
댌
댍
댎
댏
댒
댙
댚
댞
댟
댡
댢
댣
댧
댨
댩
댪
댫
댭
댮
댰
댲
댳
댴
댵
댷
댹
댺
댻
댽
댾
댿
덁
덂
덃
덄
덅
덆
덇
덈
덉
덊
덋
덎
덏
덐
덑
덒
덓
덚
덡
덲
덵
덶
덹
덺
덻
덼
덽
뎆
뎇
뎋
뎎
뎏
뎑
뎓
뎕
뎖
뎘
뎚
뎛
뎝
뎞
뎣
뎤
뎥
뎩
뎪
뎫
뎭
뎮
뎯
뎱
뎲
뎳
뎴
뎵
뎶
뎷
뎸
뎹
뎺
뎻
뎼
뎾
뎿
돀
돁
돂
돃
돉
돏
돑
돓
돢
돣
돥
돦
돧
돪
돫
돬
돭
돮
돯
돱
돲
돳
돴
돷
돸
돹
돺
돻
돾
됁
됂
됃
됅
됆
됇
됉
됊
됋
됎
됔
됕
됖
됚
됛
됝
됞
됟
됡
됣
됤
됥
됦
됪
됮
됯
됱
됲
됳
됶
됷
됹
됽
됾
됿
둀
둁
둂
둃
둄
둆
둊
둋
둌
둎
둒
둓
둕
둖
둛
둜
둝
둞
둢
둤
둦
둧
둨
둭
둮
둯
둱
둲
둳
둵
둶
둷
둸
둹
둺
둻
둼
둽
둾
뒂
뒃
뒄
뒅
뒆
뒇
뒊
뒋
뒌
뒍
뒎
뒏
뒐
뒒
뒔
뒖
뒘
뒙
뒚
뒛
뒜
뒞
뒟
뒠
뒡
뒢
뒣
뒦
뒧
뒩
뒪
뒭
뒮
뒯
뒰
뒱
뒲
뒳
뒶
뒸
뒻
뒼
뒽
듂
듃
듅
듆
듉
듊
듋
듌
듍
듎
듏
듒
듔
듖
듗
듘
듙
듚
듡
듢
듨
듩
듪
듲
듴
듺
듻
듽
듾
듿
딁
딂
딃
딄
딅
딆
딇
딊
딌
딎
딏
딐
딑
딒
딓
딖
딗
딙
딚
딝
딞
딟
딠
딡
딢
딣
딬
딭
딷
딼
딽
딾
땂
땆
땉
땎
땏
땑
땒
땓
땖
땘
땙
땚
땢
땤
땦
땧
땪
땫
땬
땭
땮
땯
땰
땱
땲
땴
땵
땶
땷
땸
땹
땺
땾
땿
떀
떁
떂
떃
떆
떇
떉
떊
떍
떎
떏
떐
떒
떓
떕
떖
떚
떛
떜
떝
떞
떟
떩
떬
떮
떲
떶
떸
떹
떺
떾
떿
뗁
뗂
뗅
뗇
뗈
뗊
뗎
뗒
뗓
뗔
뗕
뗖
뗙
뗚
뗛
뗟
뗢
뗤
뗥
뗦
뗧
뗨
뗩
뗪
뗫
뗭
뗮
뗯
뗰
뗱
뗲
뗷
뗹
뗺
뗽
뗾
뗿
똀
똁
똂
똃
똄
똅
똆
똈
똉
똊
똋
똌
똍
똎
똓
똕
똖
똚
똜
똞
똢
똦
똨
똪
똮
똯
똱
똲
똳
똶
똸
똹
똺
똼
똾
뙀
뙂
뙃
뙄
뙅
뙆
뙉
뙊
뙋
뙌
뙎
뙏
뙐
뙑
뙒
뙓
뙔
뙕
뙖
뙗
뙘
뙙
뙚
뙛
뙝
뙞
뙟
뙠
뙢
뙣
뙥
뙦
뙧
뙩
뙪
뙫
뙯
뙰
뙲
뙳
뙵
뙶
뙷
뙸
뙹
뙺
뙻
뙼
뙽
뙾
뙿
뚃
뚅
뚇
뚈
뚉
뚋
뚌
뚍
뚎
뚏
뚐
뚑
뚒
뚓
뚖
뚗
뚘
뚙
뚚
뚛
뚟
뚡
뚨
뚪
뚰
뚲
뚴
뚹
뚺
뚻
뚽
뚾
뚿
뛁
뛂
뛄
뛅
뛆
뛊
뛋
뛌
뛍
뛎
뛏
뛐
뛑
뛒
뛕
뛖
뛘
뛙
뛚
뛜
뛞
뛠
뛡
뛢
뛤
뛥
뛦
뛨
뛩
뛪
뛫
뛬
뛭
뛮
뛯
뛱
뛲
뛳
뛵
뛶
뛺
뛽
뛾
뛿
뜂
뜄
뜆
뜇
뜈
뜉
뜊
뜋
뜍
뜎
뜑
뜒
뜓
뜕
뜖
뜗
뜘
뜙
뜚
뜜
뜝
뜞
뜟
뜠
뜡
뜢
뜣
뜤
뜥
뜦
뜧
뜪
뜭
뜮
뜱
뜲
뜶
뜺
뜿
띀
띂
띆
띉
띊
띋
띍
띏
띐
띑
띒
띓
띖
띗
띘
띚
띛
띜
띝
띞
띟
띢
띣
띥
띦
띩
띪
띫
띬
띭
띮
띲
띴
띶
띷
띸
띹
띺
랁
랂
랇
랈
랉
랊
랚
랛
랝
랞
랡
랢
랥
랦
랧
랪
랯
랱
랶
랷
랹
랺
랽
랾
랿
럀
럁
럃
럆
럊
럋
럌
럍
럎
럏
럒
럓
럕
럖
럗
럘
럙
럚
럛
럜
럝
럞
럟
럠
럡
럢
럣
럥
럦
럧
럨
럩
럫
럮
럯
럱
럳
럵
럹
럺
럾
렂
렃
렅
렊
렋
렍
렎
렑
렒
렔
렕
렖
렗
렟
렧
렩
렪
렭
렮
렯
렰
렱
렲
렶
렻
렽
롂
롃
롅
롆
롉
롋
롌
롍
롎
롏
롒
롔
롖
롗
롘
롙
롚
롛
롞
롟
롡
롢
롦
롧
롨
롩
롪
롰
롺
롻
롾
롿
뢁
뢂
뢃
뢄
뢅
뢆
뢊
뢋
뢌
뢎
뢏
뢑
뢒
뢕
뢖
뢗
뢙
뢚
뢛
뢜
뢝
뢞
뢟
뢠
뢡
뢢
뢣
뢦
뢧
뢩
뢪
뢫
뢬
뢭
뢮
뢲
뢳
뢵
뢶
뢷
뢹
뢺
뢻
뢼
뢽
뢾
뢿
룂
룆
룇
룈
룉
룊
룋
룎
룏
룑
룒
룓
룕
룖
룗
룘
룙
룚
룜
룞
룠
룢
룣
룤
룦
룧
룫
룭
룮
룲
룵
룶
룼
룾
룿
뤆
뤇
뤉
뤊
뤋
뤍
뤎
뤏
뤐
뤑
뤒
뤓
뤖
뤚
뤛
뤜
뤝
뤞
뤟
뤢
뤣
뤥
뤦
뤧
뤩
뤪
뤫
뤬
뤭
뤮
뤰
뤲
뤳
뤴
뤶
뤷
뤸
뤹
뤺
뤾
뤿
륁
륂
륃
륅
륆
륇
륈
륉
륊
륋
륎
륒
륓
륕
륖
륗
륚
륛
륟
륢
륣
륤
륥
륦
륪
륬
륮
륯
륰
륱
륲
륳
륹
륺
륾
륿
릀
릁
릂
릑
릒
릓
릕
릖
릗
릙
릚
릛
릜
릝
릡
릢
릤
릥
릦
릧
릨
릩
릪
릫
릱
릲
릶
릷
릸
릹
릺
릻
맖
맦
맧
맩
맭
맯
맰
맱
맲
맳
맶
맾
맿
먂
먇
먉
먊
먋
먌
먎
먒
먔
먝
먞
먟
먠
먡
먢
먣
먤
먥
먦
먧
먨
먩
먬
먭
먮
먯
먰
먱
먲
먴
먶
먷
먻
멄
멅
멖
멗
멙
멚
멝
멟
멠
멡
멢
멣
멨
멲
멳
멵
멶
멺
멻
멼
멾
멿
몂
몈
몍
몎
몏
몑
몒
몕
몖
몗
몘
몙
몚
몛
몜
몝
몞
몠
몡
몢
몣
몤
몦
몧
몵
몶
뫂
뫆
뫇
뫉
뫊
뫋
뫍
뫎
뫏
뫐
뫑
뫒
뫓
뫕
뫖
뫗
뫛
뫜
뫝
뫟
뫡
뫢
뫣
뫥
뫦
뫧
뫨
뫩
뫪
뫫
뫬
뫭
뫮
뫯
뫰
뫱
뫲
뫳
뫴
뫶
뫷
뫸
뫹
뫺
뫻
뫾
뫿
묁
묂
묃
묅
묆
묇
묉
묊
묋
묌
묎
묐
묒
묓
묔
묕
묖
묛
묝
묞
묢
묣
묤
묥
묧
묪
묮
묰
묲
묹
묿
뭂
뭒
뭓
뭕
뭖
뭙
뭚
뭛
뭜
뭝
뭞
뭢
뭦
뭪
뭫
뭮
뭯
뭱
뭲
뭳
뭴
뭶
뭸
뭹
뭻
뭼
뭽
뭾
뭿
뮀
뮁
뮂
뮃
뮄
뮅
뮆
뮇
뮊
뮋
뮍
뮎
뮏
뮑
뮒
뮓
뮕
뮖
뮗
뮙
뮚
뮜
뮞
뮟
뮠
뮡
뮢
뮣
뮦
뮩
뮪
뮫
뮭
뮮
뮰
뮱
뮲
뮵
뮸
뮺
뮼
뮾
믃
믅
믆
믊
믋
믍
믎
믑
믒
믔
믖
믚
믝
믞
믟
믡
믢
믣
믤
믥
믦
믧
믨
믩
믪
믫
믬
믭
믮
믯
믰
믲
믳
믴
믵
믶
믷
믽
밃
밄
밅
밆
밳
밵
밶
밹
밺
밼
밽
밾
밿
뱂
뱆
뱇
뱈
뱋
뱎
뱑
뱖
뱗
뱘
뱙
뱠
뱢
뱣
뱥
뱧
뱪
뱫
뱬
뱭
뱮
뱯
뱰
뱱
뱲
뱳
뱴
뱵
뱶
뱹
뱻
뱼
뱾
뱿
벀
벁
벂
벃
벢
벣
벥
벦
벪
벬
벭
벮
벯
벶
벷
벺
벿
볁
볂
볆
볇
볈
볉
볊
볋
볒
볖
볗
볚
볛
볝
볞
볡
볢
볣
볤
볥
볦
볧
볨
볩
볪
볬
볭
볮
볯
볰
볲
볷
볺
봓
봕
봖
봚
봛
봜
봝
봞
봟
봦
봧
봩
봪
봭
봮
봯
봰
봱
봲
봳
봶
봷
봸
봹
봺
봻
봼
봾
봿
뵁
뵂
뵃
뵄
뵅
뵆
뵇
뵊
뵋
뵍
뵎
뵏
뵒
뵓
뵔
뵕
뵖
뵗
뵚
뵝
뵞
뵟
뵠
뵡
뵢
뵣
뵦
뵩
뵪
뵮
뵯
뵰
뵱
뵵
뵺
뵼
뵽
뵾
뵿
붅
붎
붔
붞
붟
붠
붡
붢
붣
붥
붦
붧
붨
붩
붪
붫
붬
붭
붮
붲
붳
붶
붺
붻
붽
붾
붿
뷂
뷃
뷄
뷅
뷆
뷈
뷊
뷌
뷍
뷎
뷑
뷒
뷖
뷗
뷙
뷚
뷝
뷞
뷠
뷡
뷢
뷣
뷨
뷪
뷬
뷯
뷲
뷳
뷶
뷺
뷻
뷽
뷾
뷿
븁
븂
븄
븆
븇
븊
븋
븑
븒
븖
븗
븙
븚
븛
븢
븣
븤
븦
븪
븫
븭
븮
븯
븱
븲
븳
븴
븵
븶
븷
븹
븺
븻
븼
븾
븿
빀
빁
빃
빇
빉
빊
빐
빑
빓
빜
빦
빬
빭
빯
빲
빿
뺁
뺂
뺆
뺇
뺈
뺉
뺊
뺋
뺎
뺕
뺖
뺗
뺞
뺢
뺤
뺪
뺬
뺯
뺰
뺱
뺲
뺷
뺺
뺻
뺽
뺾
뻀
뻁
뻂
뻃
뻅
뻊
뻋
뻌
뻍
뻎
뻏
뻓
뻜
뻝
뻧
뻫
뻮
뻯
뻱
뻲
뻳
뻵
뻶
뻷
뻸
뻹
뻺
뻻
뻾
뼀
뼂
뼃
뼄
뼅
뼆
뼊
뼋
뼍
뼎
뼑
뼒
뼓
뼔
뼕
뼖
뼗
뼚
뼟
뼣
뼧
뼨
뼩
뼪
뼫
뼭
뼮
뼯
뼰
뼲
뼳
뼴
뼵
뼶
뼷
뼹
뼺
뼻
뼼
뼽
뼾
뼿
뽃
뽅
뽉
뽋
뽌
뽍
뽎
뽏
뽗
뽡
뽢
뽣
뽦
뽨
뽩
뽪
뽫
뽬
뽮
뽯
뽰
뽲
뽳
뽵
뽶
뽹
뽺
뽻
뽼
뽽
뽾
뽿
뾀
뾁
뾈
뾉
뾊
뾋
뾌
뾍
뾎
뾏
뾐
뾑
뾒
뾓
뾕
뾖
뾗
뾙
뾚
뾛
뾜
뾝
뾞
뾟
뾠
뾡
뾢
뾣
뾤
뾦
뾧
뾨
뾩
뾪
뾫
뾬
뾭
뾮
뾯
뾳
뾴
뾵
뾶
뾷
뾺
뾽
뾾
뾿
뿀
뿂
뿄
뿆
뿇
뿈
뿊
뿖
뿢
뿣
뿤
뿥
뿦
뿪
뿫
뿬
뿭
뿰
뿱
뿲
뿳
뿴
뿵
뿶
뿸
뿹
뿺
뿻
뿼
뿽
뿾
뿿
쀀
쀁
쀂
쀃
쀅
쀆
쀇
쀈
쀉
쀊
쀋
쀔
쀕
쀖
쀗
쀘
쀙
쀚
쀛
쀜
쀝
쀞
쀟
쀡
쀢
쀣
쀤
쀥
쀦
쀧
쀨
쀩
쀪
쀫
쀭
쀮
쀯
쀰
쀱
쀴
쀵
쀶
쀷
쀸
쀹
쀺
쀻
쁁
쁂
쁃
쁄
쁅
쁆
쁇
쁈
쁊
쁒
쁔
쁗
쁛
쁝
쁞
쁡
쁤
쁦
쁧
쁪
쁫
쁬
쁮
쁯
쁰
쁱
쁲
쁳
쁵
쁷
쁸
쁹
쁺
쁻
쁽
쁾
쁿
삀
삁
삃
삄
삅
삆
삇
삈
삉
삊
삋
삌
삍
삎
삏
삓
삕
삖
삙
삛
삞
삟
삢
삦
삨
삩
삪
삫
삺
샋
샍
샎
샑
샔
샕
샖
샗
샚
샞
샡
샣
샦
샧
샩
샮
샯
샰
샱
샲
샳
샶
샸
샺
샽
샿
섂
섃
섅
섆
섇
섉
섋
섌
섍
섎
섏
섒
섓
섔
섖
섗
섘
섙
섛
섩
섽
셁
셂
셃
셄
셅
셆
셇
셎
셏
셓
셗
셚
셛
셝
셞
셠
셡
셢
셪
셫
셬
셭
셮
셯
셲
셳
셵
셶
셹
셺
셻
셼
셽
셾
셿
솂
솄
솆
솇
솉
솋
솙
솣
솪
솫
솭
솮
솯
솱
솲
솳
솴
솵
솶
솷
솺
솾
솿
쇁
쇂
쇃
쇅
쇆
쇉
쇊
쇋
쇍
쇎
쇏
쇐
쇑
쇒
쇓
쇕
쇖
쇚
쇛
쇜
쇞
쇟
쇢
쇣
쇥
쇦
쇧
쇩
쇪
쇫
쇬
쇭
쇮
쇯
쇲
쇶
쇷
쇸
쇹
쇺
쇻
쇾
쇿
숂
숃
숅
숆
숇
숈
숉
숊
숋
숎
숐
숒
숗
숡
숣
숧
숵
숶
숷
숹
숺
숻
숽
숾
숿
쉀
쉁
쉂
쉃
쉄
쉆
쉇
쉉
쉊
쉋
쉌
쉍
쉎
쉒
쉓
쉕
쉖
쉗
쉝
쉞
쉢
쉦
쉧
쉫
쉮
쉯
쉱
쉲
쉳
쉶
쉷
쉸
쉹
쉺
쉻
쉾
슃
슇
슊
슋
슍
슎
슑
슒
슔
슕
슖
슗
슚
슜
슞
슣
슩
슪
슯
슰
슱
싂
싃
싅
싆
싇
싉
싋
싌
싍
싎
싏
싒
싓
싔
싖
싗
싙
싚
싛
싟
싡
싥
쌁
쌃
쌄
쌅
쌏
쌗
쌝
쌠
쌡
쌢
쌣
쌦
쌧
쌪
쌫
쌬
쌭
쌮
쌯
쌲
쌳
쌶
쌹
쌼
쌽
쌾
쌿
썂
썄
썆
썇
썈
썉
썊
썏
썑
썒
썓
썔
썕
썘
썙
썚
썝
썞
썟
썠
썢
썣
썤
썥
썦
썧
썵
썶
썺
썾
썿
쎁
쎂
쎇
쎉
쎊
쎍
쎎
쎏
쎐
쎑
쎒
쎓
쎖
쎚
쎛
쎜
쎝
쎢
쎣
쎦
쎧
쎩
쎪
쎬
쎭
쎮
쎯
쎰
쎱
쎲
쎳
쎶
쎷
쎸
쎹
쎺
쎻
쏁
쏂
쏃
쏅
쏆
쏇
쏈
쏊
쏋
쏍
쏎
쏐
쏑
쏒
쏓
쏕
쏖
쏗
쏛
쏞
쏡
쏣
쏤
쏥
쏦
쏧
쏪
쏬
쏮
쏯
쏰
쏲
쏷
쏹
쏺
쏻
쏾
쏿
쐀
쐁
쐂
쐃
쐄
쐆
쐊
쐋
쐌
쐍
쐎
쐒
쐓
쐕
쐖
쐗
쐘
쐚
쐛
쐜
쐝
쐞
쐟
쐡
쐢
쐦
쐧
쐨
쐪
쐫
쐭
쐮
쐯
쐱
쐲
쐳
쐵
쐶
쐷
쐸
쐹
쐺
쐻
쐾
쐿
쑂
쑃
쑄
쑅
쑆
쑇
쑊
쑋
쑎
쑏
쑑
쑒
쑓
쑔
쑕
쑖
쑗
쑘
쑙
쑚
쑜
쑠
쑡
쑢
쑣
쑧
쑪
쑭
쑮
쑯
쑰
쑲
쑳
쑶
쑸
쑺
쑾
쑿
쒁
쒃
쒅
쒆
쒇
쒈
쒉
쒊
쒋
쒌
쒍
쒎
쒏
쒑
쒒
쒖
쒗
쒘
쒙
쒚
쒛
쒞
쒟
쒡
쒢
쒣
쒤
쒥
쒦
쒩
쒪
쒫
쒬
쒭
쒮
쒲
쒳
쒵
쒶
쒷
쒻
쒽
쒾
쒿
쓁
쓂
쓃
쓄
쓅
쓆
쓇
쓊
쓌
쓍
쓎
쓏
쓐
쓑
쓒
쓓
쓖
쓗
쓙
쓛
쓝
쓞
쓟
쓠
쓡
쓢
쓣
쓥
쓦
쓧
쓨
쓪
쓫
쓬
쓭
쓮
쓯
쓳
쓵
쓶
쓹
쓻
쓼
쓽
쓾
씂
씆
씇
씈
씊
씍
씎
씏
씑
씒
씓
씕
씖
씗
씘
씙
씚
씛
씞
씟
씠
씢
씣
씦
씧
씫
씭
씮
씱
씲
씳
씴
씵
씶
씷
씾
씿
앁
앂
앃
앣
앥
앪
앬
앭
앮
앯
앹
앿
얁
얈
얚
얛
얝
얞
얟
얡
얢
얣
얤
얥
얦
얧
얨
얪
얮
얯
얱
얲
얳
엀
엁
엂
엖
엚
엛
엝
엞
엢
엧
엲
옊
옋
옍
옎
옏
옔
옕
옖
옗
옚
옞
옟
옠
옢
옣
옩
왃
왅
왆
왊
왋
왌
왍
왎
왏
왗
왙
왞
왟
왡
왢
왣
왥
왦
왧
왨
왩
왪
왫
왮
왲
왳
왴
왵
왶
왺
왻
왽
왾
왿
욁
욂
욃
욄
욅
욆
욇
욊
욎
욏
욐
욑
욒
욓
욖
욗
욞
욠
욪
욫
욭
욲
욳
욶
욻
욼
욽
웂
웏
웑
웖
웘
웙
웢
웣
웪
웫
웭
웮
웯
웲
웳
웵
웶
웺
웼
웾
웿
윂
윃
윆
윇
윉
윊
윋
윍
윎
윏
윐
윑
윒
윓
윖
윛
윣
윥
윦
윩
윫
윬
윭
윯
윴
윻
윿
읚
읛
읝
읞
읡
읢
읣
읥
읦
읬
읮
읯
읱
읲
읳
잁
잝
잮
잯
잱
잲
잳
잵
잶
잷
잸
잹
잺
잻
잾
쟄
쟅
쟇
쟊
쟋
쟍
쟒
쟓
쟕
쟖
쟚
쟡
쟣
쟦
쟧
쟩
쟪
쟫
쟭
쟮
쟯
쟰
쟱
쟲
쟳
쟵
쟶
쟷
쟺
쟻
쟼
쟽
쟾
쟿
젅
젉
젌
젍
젎
젙
젞
젡
젢
젣
젥
젦
젩
젪
젫
젰
젲
젳
젷
젽
젾
졃
졄
졅
졆
졇
졊
졑
졓
졕
졖
졗
졙
졚
졛
졝
졞
졟
졠
졡
졢
졣
졦
졨
졪
졫
졭
졮
졯
졲
졳
졶
졹
졻
졼
좎
좏
좑
좓
좕
좖
좗
좘
좙
좚
좛
좞
좣
좤
좥
좦
좩
좪
좫
좭
좮
좯
좰
좱
좲
좳
좴
좵
좶
좷
좺
좻
좾
좿
죀
죁
죂
죃
죅
죆
죇
죉
죊
죋
죍
죎
죏
죐
죑
죒
죓
죖
죚
죛
죜
죝
죞
죟
죣
죦
죩
죪
죫
죬
죭
죮
죯
죲
죴
죺
죾
죿
줁
줂
줇
줉
줔
줕
줖
줚
줛
줝
줞
줟
줡
줢
줣
줤
줥
줦
줧
줨
줩
줪
줯
줰
줱
줲
줳
줶
줷
줹
줺
줻
줼
줽
줾
줿
쥀
쥁
쥂
쥃
쥄
쥅
쥆
쥈
쥊
쥋
쥌
쥍
쥎
쥏
쥒
쥓
쥕
쥖
쥗
쥙
쥚
쥛
쥜
쥝
쥞
쥟
쥢
쥦
쥧
쥨
쥩
쥪
쥫
쥯
쥱
쥲
쥳
쥵
쥶
쥷
쥸
쥹
쥺
쥾
즀
즃
즄
즅
즆
즇
즋
즍
즎
즏
즒
즓
즔
즕
즖
즗
즚
즜
즞
즟
즢
즣
즦
즧
즩
즪
즫
즬
즭
즮
즰
즱
즲
즳
즴
즵
즶
즷
즸
즺
즻
즼
즽
즾
즿
짃
짅
짉
짌
짍
짎
짏
짟
짨
짲
짳
짵
짶
짺
짻
짽
짾
짿
쨁
쨂
쨃
쨄
쨅
쨆
쨇
쨊
쨎
쨏
쨐
쨑
쨒
쨓
쨗
쨙
쨚
쨛
쨝
쨞
쨠
쨡
쨣
쨦
쨪
쨫
쨬
쨭
쨮
쨯
쨲
쨳
쨵
쨶
쨷
쨸
쨹
쨺
쨻
쨼
쨽
쨾
쨿
쩀
쩂
쩆
쩇
쩈
쩉
쩊
쩋
쩏
쩑
쩓
쩕
쩘
쩙
쩚
쩛
쩞
쩣
쩤
쩥
쩦
쩩
쩪
쩫
쩭
쩮
쩯
쩲
쩳
쩴
쩵
쩶
쩷
쩹
쩺
쩾
쩿
쪀
쪁
쪂
쪃
쪅
쪆
쪇
쪉
쪊
쪋
쪌
쪍
쪎
쪏
쪐
쪑
쪒
쪓
쪕
쪖
쪚
쪛
쪜
쪝
쪞
쪟
쪡
쪢
쪣
쪤
쪥
쪦
쪧
쪩
쪪
쪫
쪬
쪭
쪮
쪯
쪰
쪱
쪲
쪳
쪴
쪵
쪶
쪷
쪸
쪹
쪺
쪻
쪿
쫁
쫂
쫃
쫆
쫇
쫈
쫉
쫊
쫎
쫐
쫔
쫕
쫚
쫛
쫝
쫞
쫟
쫡
쫢
쫣
쫤
쫥
쫦
쫧
쫨
쫪
쫮
쫯
쫱
쫲
쫳
쫵
쫶
쫷
쫸
쫹
쫺
쫻
쫼
쫽
쫾
쫿
쬀
쬁
쬂
쬃
쬄
쬅
쬆
쬇
쬉
쬊
쬋
쬌
쬍
쬎
쬏
쬑
쬒
쬓
쬕
쬖
쬗
쬙
쬚
쬛
쬜
쬝
쬞
쬟
쬢
쬣
쬦
쬧
쬨
쬩
쬪
쬫
쬮
쬯
쬱
쬳
쬵
쬶
쬸
쬹
쬺
쬻
쬾
쬿
쭄
쭅
쭆
쭇
쭋
쭍
쭎
쭏
쭑
쭒
쭓
쭔
쭕
쭖
쭗
쭚
쭜
쭞
쭠
쭡
쭢
쭣
쭥
쭦
쭧
쭩
쭪
쭫
쭭
쭮
쭯
쭰
쭱
쭲
쭳
쭴
쭶
쭷
쭺
쭻
쭼
쭽
쭾
쭿
쮁
쮂
쮃
쮄
쮅
쮆
쮇
쮈
쮉
쮊
쮋
쮌
쮍
쮎
쮏
쮐
쮑
쮒
쮓
쮔
쮖
쮗
쮘
쮙
쮚
쮛
쮝
쮞
쮟
쮡
쮢
쮣
쮤
쮥
쮦
쮧
쮨
쮩
쮪
쮫
쮭
쮮
쮯
쮰
쮱
쮲
쮳
쮴
쮵
쮶
쮷
쮺
쮻
쮼
쮽
쮾
쮿
쯀
쯁
쯂
쯃
쯄
쯅
쯆
쯊
쯌
쯎
쯏
쯐
쯑
쯒
쯓
쯖
쯗
쯙
쯚
쯛
쯝
쯞
쯟
쯠
쯡
쯢
쯣
쯦
쯨
쯭
쯮
쯯
쯲
쯳
쯴
쯵
쯶
쯷
쯹
쯺
쯻
쯼
쯽
쯾
쯿
찀
찁
찂
찄
찅
찆
찇
찈
찉
찊
찋
찏
찑
찒
찓
찕
찘
찙
찚
찞
찠
찤
찪
찵
찶
찷
챆
챇
챉
챊
챋
챍
챎
챏
챐
챑
챒
챓
챖
챚
챛
챜
챝
챟
챢
챥
챧
챩
챪
챫
챬
챭
챮
챾
챿
첀
첁
첂
첃
첆
첇
첈
첉
첊
첋
첌
첍
첎
첏
첑
첒
첓
첔
첕
첖
첗
첝
첤
첱
첶
첷
첹
첺
첻
첽
첾
첿
쳀
쳁
쳂
쳃
쳆
쳊
쳍
쳎
쳏
쳒
쳓
쳖
쳙
쳚
쳛
쳜
쳝
쳞
쳟
쳢
쳦
쳨
쳩
쳪
쳮
쳯
쳱
쳲
쳳
쳵
쳶
쳷
쳸
쳹
쳺
쳻
쳽
쳾
촀
촂
촃
촄
촅
촆
촇
촋
촔
촗
촚
촜
촦
촧
촩
촪
촫
촭
촮
촯
촰
촱
촲
촳
촶
촸
촺
촼
촽
촿
쵂
쵃
쵄
쵅
쵆
쵈
쵉
쵊
쵋
쵌
쵍
쵎
쵏
쵐
쵑
쵒
쵓
쵔
쵖
쵗
쵘
쵙
쵚
쵛
쵞
쵟
쵡
쵢
쵣
쵥
쵦
쵧
쵨
쵩
쵪
쵫
쵰
쵲
쵳
쵴
쵵
쵶
쵺
쵻
쵽
쵾
춁
춂
춃
춄
춅
춆
춊
춌
춎
춐
춑
춒
춓
춖
춙
춚
춞
춟
춯
춲
춳
춵
춶
춷
춹
춺
춻
춼
춽
춾
춿
췀
췂
췆
췇
췈
췉
췊
췋
췎
췏
췑
췒
췓
췕
췖
췗
췘
췙
췚
췜
췝
췞
췟
췠
췢
췣
췥
췦
췧
췪
췫
췭
췮
췯
췱
췲
췳
췴
췵
췶
췷
췺
췾
췿
츁
츂
츃
츇
츉
츊
츋
츍
츏
츐
츑
츒
츓
츖
츘
츚
츛
츜
츝
츞
츟
츢
츣
츥
츦
츧
츪
츫
츬
츭
츮
츯
츲
츴
츶
츸
츹
츺
츻
츽
츾
츿
칁
칂
칃
칄
칅
칆
칇
칈
칉
칊
칋
칌
칍
칎
칏
칐
칑
칒
칓
칔
칕
칖
칗
칛
칝
칞
칣
칤
칥
칦
칧
칪
칱
칳
칶
칷
칹
칺
칾
칿
캀
캁
캂
캃
캈
캊
캒
캓
캕
캖
캗
캙
캚
캛
캝
캞
캦
캨
캩
캫
캮
캯
캱
캲
캳
캶
캷
캸
캹
캺
캻
캾
컀
컂
컃
컅
컆
컇
컉
컊
컋
컌
컍
컎
컏
컐
컑
컒
컓
컔
컕
컖
컗
컘
컙
컚
컜
컝
컞
컟
컠
컡
컢
컣
컦
컧
컩
컪
컮
컯
컰
컱
컲
컳
컺
컻
켂
켃
켅
켆
켉
켊
켋
켌
켍
켎
켏
켒
켖
켗
켛
켞
켟
켡
켢
켥
켦
켧
켨
켩
켪
켫
켲
켴
켵
켶
켷
켹
켺
켻
켽
켾
켿
콁
콂
콃
콄
콅
콆
콇
콈
콊
콋
콌
콍
콎
콏
콐
콑
콒
콓
콖
콗
콚
콝
콞
콟
콠
콡
콢
콣
콨
콪
콭
콲
콳
콵
콶
콷
콹
콺
콼
콽
콾
콿
쾂
쾄
쾆
쾇
쾉
쾊
쾎
쾏
쾑
쾒
쾓
쾕
쾖
쾗
쾘
쾙
쾚
쾛
쾜
쾝
쾞
쾟
쾠
쾢
쾣
쾤
쾥
쾦
쾧
쾪
쾫
쾭
쾮
쾯
쾱
쾲
쾳
쾴
쾵
쾶
쾷
쾸
쾺
쾼
쾾
쾿
쿀
쿁
쿂
쿃
쿅
쿆
쿇
쿉
쿊
쿋
쿍
쿎
쿐
쿑
쿒
쿓
쿕
쿖
쿘
쿚
쿛
쿝
쿞
쿟
쿢
쿣
쿥
쿦
쿫
쿬
쿮
쿯
쿲
쿴
쿶
쿷
쿹
쿺
쿻
쿾
쿿
퀁
퀂
퀃
퀅
퀆
퀇
퀈
퀉
퀊
퀋
퀎
퀐
퀒
퀓
퀔
퀕
퀖
퀗
퀚
퀛
퀝
퀞
퀟
퀢
퀣
퀤
퀥
퀦
퀩
퀪
퀬
퀮
퀯
퀰
퀱
퀲
퀳
퀶
퀷
퀹
퀺
퀻
퀽
퀾
퀿
큀
큁
큂
큃
큆
큈
큊
큋
큌
큍
큎
큏
큑
큒
큓
큕
큖
큗
큙
큚
큛
큜
큝
큞
큢
큤
큦
큧
큨
큩
큪
큮
큯
큲
큵
큶
큷
큸
큹
큺
큻
킀
킂
킃
킉
킊
킋
킌
킍
킎
킏
킑
킒
킓
킔
킕
킖
킗
킘
킙
킚
킛
킜
킝
킞
킟
킠
킡
킢
킣
킧
킩
킪
킮
킯
킰
킱
킲
킳
킶
킺
킻
킽
킿
탅
탋
탌
탎
탛
탞
탟
탡
탢
탥
탦
탧
탨
탩
탪
탫
탮
탲
탳
탴
탷
탻
탽
탾
턂
턃
턄
턅
턆
턇
턈
턊
턎
턏
턖
턗
턘
턙
턛
턜
턝
턞
턟
턠
턡
턢
턣
턤
턥
턦
턧
턨
턪
턫
턬
턭
턮
턯
턲
턳
턵
턶
턷
턼
턽
턾
턿
텇
텎
텏
텑
텒
텕
텖
텘
텙
텚
텛
텢
텧
텫
텭
텮
텯
텱
텲
텴
텵
텶
텷
텺
텾
텿
톀
톂
톅
톆
톇
톉
톊
톌
톍
톎
톏
톐
톑
톒
톓
톔
톕
톖
톘
톚
톛
톜
톝
톞
톟
톢
톣
톥
톦
톪
톫
톬
톭
톯
톴
톶
톷
톻
톾
톿
퇁
퇂
퇃
퇅
퇆
퇇
퇈
퇉
퇊
퇋
퇌
퇎
퇏
퇐
퇑
퇒
퇓
퇔
퇕
퇖
퇗
퇚
퇛
퇝
퇞
퇟
퇠
퇡
퇢
퇤
퇥
퇦
퇧
퇨
퇩
퇪
퇫
퇬
퇭
퇮
퇯
퇰
퇱
퇲
퇳
퇵
퇶
퇷
퇹
퇺
퇻
퇽
퇾
퇿
툀
툁
툂
툃
툅
툆
툈
툊
툋
툌
툍
툎
툏
툒
툕
툖
툗
툙
툚
툛
툜
툞
툟
툢
툣
툤
툦
툧
툨
툪
툮
툱
툲
툳
툶
툻
툾
퉂
퉄
퉉
퉊
퉋
퉌
퉍
퉎
퉏
퉑
퉒
퉓
퉔
퉕
퉖
퉗
퉘
퉙
퉚
퉛
퉞
퉟
퉡
퉢
퉣
퉦
퉧
퉩
퉪
퉫
퉬
퉮
퉯
퉰
퉲
퉳
퉴
퉵
퉶
퉸
퉺
퉻
퉼
퉽
퉾
퉿
튂
튃
튅
튆
튇
튉
튊
튋
튌
튍
튏
튒
튔
튖
튗
튘
튚
튛
튞
튡
튢
튣
튥
튧
튨
튩
튪
튫
튯
튰
튴
튷
튻
튾
틁
틃
틄
틅
틆
틇
틌
틎
틏
틕
틖
틗
틙
틚
틛
틝
틞
틟
틠
틡
틢
틣
틦
틨
틪
틫
틬
틭
틮
틯
틲
틳
틵
틶
틹
틺
틻
틼
틽
틾
틿
팆
팇
팋
팑
팕
팘
팙
팞
팢
팧
팪
팫
팭
팯
팱
팲
팳
팴
팵
팶
팷
팺
팾
팿
퍀
퍁
퍂
퍃
퍆
퍇
퍉
퍊
퍋
퍍
퍎
퍏
퍑
퍒
퍓
퍔
퍕
퍖
퍛
퍜
퍝
퍞
퍟
퍡
퍢
퍣
퍤
퍥
퍦
퍧
퍨
퍩
퍪
퍫
퍬
퍭
퍮
퍯
퍰
퍱
퍲
퍳
퍴
퍵
퍶
퍷
퍸
퍹
퍺
퍻
퍾
펂
펃
펆
펇
펈
펉
펊
펒
펓
펕
펚
펛
펝
펞
펟
펢
펣
펤
펥
펦
펧
펪
펮
펯
펱
펳
펶
펷
펹
펺
펽
펾
펿
폀
폁
폆
폊
폋
폌
폍
폎
폏
폑
폒
폓
폖
폗
폙
폚
폛
폜
폝
폞
폟
폠
폢
폤
폥
폦
폧
폨
폩
폪
폫
폱
폲
폵
폶
폷
폸
폹
폺
폻
폾
퐀
퐇
퐊
퐋
퐍
퐎
퐏
퐑
퐒
퐓
퐔
퐕
퐖
퐗
퐘
퐚
퐛
퐜
퐟
퐡
퐢
퐣
퐥
퐦
퐧
퐨
퐩
퐪
퐫
퐬
퐭
퐮
퐯
퐰
퐱
퐲
퐴
퐵
퐶
퐷
퐸
퐹
퐺
퐻
퐼
퐽
퐾
퐿
푁
푂
푃
푅
푆
푇
푉
푊
푋
푌
푍
푎
푏
푐
푑
푒
푓
푔
푖
푗
푘
푙
푚
푛
푞
푟
푡
푢
푣
푦
푨
푪
푬
푮
푰
푲
푳
푵
푶
푺
푻
푽
풁
풃
풅
풆
풊
풌
풎
풓
풖
풗
풙
풚
풛
풝
풞
풟
풠
풡
풢
풣
풤
풥
풦
풧
풨
풪
풫
풭
풮
풯
풲
풳
풵
풶
풷
풺
풻
풼
풽
퓀
퓁
퓂
퓃
퓄
퓆
퓇
퓈
퓉
퓊
퓋
퓎
퓏
퓑
퓒
퓓
퓕
퓖
퓗
퓘
퓚
퓛
퓞
퓠
퓢
퓣
퓤
퓥
퓦
퓧
퓪
퓫
퓭
퓮
퓯
퓱
퓲
퓶
퓷
퓺
퓼
퓾
퓿
픀
픂
픃
픆
픇
픉
픊
픍
픎
픏
픐
픑
픒
픘
픚
픛
픜
픡
픢
픣
픥
픦
픧
픩
픪
픫
픬
픭
픮
픯
픰
픲
픴
픵
픶
픷
픸
픹
픺
픻
픾
픿
핂
핅
핆
핇
핈
핉
핊
핋
핐
핒
핢
핯
핷
핹
핺
핾
햀
햁
햂
햃
햆
햊
햒
햓
햕
햖
햗
햜
햞
햢
햦
햧
햨
햪
햮
햯
햱
햲
햳
햴
햵
햶
햷
햸
햹
햺
햻
햽
헂
헃
헄
헅
헆
헇
헊
헋
헍
헎
헕
헖
헞
헟
헢
헦
헧
헩
헪
헮
헰
헱
헳
헶
헻
헽
헾
혃
혆
혇
혊
혋
혌
혍
혎
혏
혖
혗
혘
혚
혛
혝
혞
혟
혡
혢
혣
혥
혦
혧
혨
혩
혪
혫
혮
혰
혲
혳
혴
혵
혶
혷
혺
혻
혽
혾
혿
홁
홂
홃
홄
홆
홊
홌
홎
홏
홖
홗
홙
홚
홞
홟
홠
홡
홢
홦
홫
홭
홮
홲
홳
홵
홶
홷
홸
홹
홺
홻
홼
홽
홾
홿
횀
횁
횆
횇
횈
횉
횊
횋
횎
횏
횑
횒
횕
횖
횗
횘
횙
횚
횛
횠
횢
횣
횤
횥
횧
횪
횫
횭
횮
횯
횱
횲
횳
횴
횵
횶
횷
횺
횼
횿
훀
훂
훆
훉
훊
훏
훐
훖
훘
훢
훣
훥
훦
훧
훩
훪
훫
훬
훭
훮
훲
훳
훴
훶
훷
훹
훺
훻
훾
훿
휁
휂
휃
휆
휇
휈
휉
휊
휎
휐
휒
휓
휕
휖
휚
휛
휝
휞
휟
휡
휣
휤
휥
휦
휧
휪
휮
휯
휱
휲
휶
휷
휹
휺
휻
휾
휿
흀
흁
흂
흃
흅
흆
흈
흊
흋
흌
흍
흎
흏
흓
흕
흚
흛
흜
흞
흤
흦
흧
흮
흯
흱
흲
흳
흵
흶
흷
흸
흹
흺
흻
흾
힀
힂
힃
힄
힅
힆
힇
힊
힎
힒
힓
힔
