[UNK]
[CLS]
[SEP]
[PAD]
[MASK]
!
"
#
$
%
&
'
(
)
*
+
,
-
.
/
0
1
2
3
4
5
6
7
8
9
:
;
<
=
>
?
@
A
B
C
D
E
F
G
H
I
J
K
L
M
N
O
P
Q
R
S
T
U
V
W
X
Y
Z
[
\
]
^
_
`
a
b
c
d
e
f
g
h
i
j
k
l
m
n
o
p
q
r
s
t
u
v
w
x
y
z
{
|
}
~

ᄀ
ᄁ
ᄂ
ᄃ
ᄄ
ᄅ
ᄆ
ᄇ
ᄈ
ᄉ
ᄊ
ᄋ
ᄌ
ᄍ
ᄎ
ᄏ
ᄐ
ᄑ
ᄒ
ᅡ
ᅢ
ᅣ
ᅤ
ᅥ
ᅦ
ᅧ
ᅨ
ᅩ
ᅪ
ᅫ
ᅬ
ᅭ
ᅮ
ᅯ
ᅰ
ᅱ
ᅲ
ᅳ
ᅴ
ᅵ
ᆨ
ᆩ
ᆪ
ᆫ
ᆬ
ᆭ
ᆮ
ᆯ
ᆰ
ᆱ
ᆲ
ᆳ
ᆴ
ᆵ
ᆶ
ᆷ
ᆸ
ᆹ
ᆺ
ᆻ
ᆼ
ᆽ
ᆾ
ᆿ
ᇀ
ᇁ
ᇂ
ㄱ
ㄲ
ㄳ
ㄴ
ㄵ
ㄶ
ㄷ
ㄸ
ㄹ
ㄺ
ㄻ
ㄼ
ㄽ
ㄾ
ㄿ
ㅀ
ㅁ
ㅂ
ㅃ
ㅄ
ㅅ
ㅆ
ㅇ
ㅈ
ㅉ
ㅊ
ㅋ
ㅌ
ㅍ
ㅎ
ㅏ
ㅐ
ㅑ
ㅒ
ㅓ
ㅔ
ㅕ
ㅖ
ㅗ
ㅘ
ㅙ
ㅚ
ㅛ
ㅜ
ㅝ
ㅞ
ㅟ
ㅠ
ㅡ
ㅢ
ㅣ
##i
##n
##e
##a
##g
##ᅲ
##ᄌ
##ᅵ
##ᆫ
##ᄒ
##ᅧ
##ᆼ
##8
##2
##5
##0
##7
##r
##c
##k
##t
##o
##u
##l
##V
##q
##U
##R
##w
##ᅡ
##ᄉ
##ᄀ
##ᅳ
##P
##K
##W
##S
##ᆻ
##ᄆ
##h
##s
##E
##A
##N
##O
##L
##C
##Y
##d
##ᅮ
##ᆨ
##ᄎ
##ᆯ
##ᄅ
##ᅩ
##ᄋ
##ᅦ
##ᆷ
##ᅭ
##ᄇ
##ᅥ
##ㅡ
##ㅊ
##F
##I
##T
##ᄁ
##p
##3
##6
##1
##ᄏ
##m
##M
##Q
##f
##4
##H
##B
##ᄄ
##ᄐ
##ᅣ
##ᅨ
##y
##z
##9
##Z
##ᅢ
##ᄃ
##ᄍ
##ᅯ
##b
##x
##ㅒ
##ㅈ
##ᄂ
##v
##j
##ᅪ
##ᅱ
##ㅕ
##ㅌ
##ᇁ
##ᆶ
##ᆸ
##X
##ᄑ
##ᆺ
##ᅬ
##ᄈ
##G
##ᆮ
##ᆹ
##ᆿ
##ㅋ
##J
##ᆾ
##ᇀ
##D
##:
##?
##ㅔ
##ㄱ
##ᅰ
##ᅤ
##ᄊ
##ㅠ
##ㄷ
##ᅫ
##ᅴ
##ᆭ
##ᆩ
##ᆽ
##{
##"
##ㄴ
##ㅣ
##ㄹ
##ㅗ
##ㅂ
##ㅜ
##ㅓ
##-
##ᆱ
##ᆬ
##\
##!
##ㅁ
##ㅇ
##@
##ㄾ
##&
##}
##(
##ᆪ
##ㅍ
##ㅚ
##ㅏ
##ㅐ
##;
##.
##'
##[
##|
##ㄲ
##~
##)
##ᇂ
##`
##ㅘ
##ㄽ
##ㅝ
##%
##ᆰ
##ㅅ
##ㄳ
##ᆲ
##ᆴ
##ㅑ
##ㅞ
##ㄻ
##<
##*
##+
##,
##ᆳ
##ㅛ
##ㄿ
##ㅙ
##^
##]
##_
##ㅎ
##ㅟ
##ᆵ
###
##ㄼ
##ㄺ
##ㅢ
##=
##ㅆ
##ㅖ
##ㅀ
##/
##ㄶ
##ㄸ
##>
##ㄵ
##$
##ㅄ
##ㅉ
##ㅃ
##
이
##ᅳᆫ
##ᅳᆯ
##ᅡᆫ
에
다
는
하
##ᅥᆫ
##ᅡᆼ
의
##이
가
을
##ᅧᆫ
##서
##ᅳᄅ
고
어
##ᅮᆫ
아
##ᅵᆫ
##ᅧᆼ
도
한
##다
를
지
은
##지
##리
##ᅥᆼ
기
##ᅡᆯ
##스
시
##ᅩᆼ
해
##ᅮᆯ
##ᅡᆨ
##ᅳ로
##ᅩᆨ
로
있
되
##시
##ᅧᆨ
사
거
##ᅩᆫ
으로
에서
주
##ᅳᆼ
##ᅥᆨ
인
나
##어
과
대
##기
##나
들
자
마
수
게
##가
보
##고
여
라
##ᅮᆨ
##라
그
##ᅢᆼ
와
일
##도
##ᅥᆷ
었
##ᅯᆫ
모
전
##ᅳᆷ
##ᅥᆯ
##드
##사
##로
##인
##니
적
##장
##요
면
부
바
##우
##자
것
##만
년
했
##대
##트
만
##해
스
오
정
화
조
##치
##하
##화
##ᅧᆯ
상
##ᅦ이
유
##아
20
##수
##정
##ᅣᆼ
미
##는
공
그ᄅ
한다
##터
때
##상
##주
##전
비
위
제
중
경
##ᅢᆨ
##게
##데
##한
된
##국
##용
차
##력
##제
##ᅯᆯ
##부
소
##르
무
##신
##히
세
##성
##미
##려
없
노
##문
##ᅳᆨ
##구
등
성
##야
##ᅥᆸ
지만
##면
할
며
##과
않
##마
##원
월
##격
##동
개
에게
던
##오
##간
구
서
내
##ᅵᆯ
타
##타
으
##진
##ᅵᆷ
##러
선
201
동
장
방
리
연
후
##유
영
신
우
였
카
요
발
##ᅢᆫ
##그
##선
##체
까
안
당
##비
말
생
##소
##일
버
진
##작
야
더
##거
##여
##키
는데
##며
##명
##무
##계
파
원
처
추
포
회
##ᆯ리
때문
명
##재
19
##운
강
까지
##식
데
##위
##의
##보
최
문
##ᅳᆯᄅ
##른
##00
##당
실
##후
불
같
##카
##크
##음
번
레
관
단
##와
된다
코
##교
받
라고
라는
##행
##물
호
##실
##단
##즈
이ᄅ
##능
##ᅧᆻ
았
결
##학
##역
배
##회
##티
##ᅦᆫ
반
초
피
많
##ᅳ리
##공
특
##ᅦᆯ
다고
작
역
##임
##들
##람
##속
##토
##버
##모
매
계
##내
면서
##반
##차
알
##디
분
드
##점
남
##분
##조
##래
##산
국
함
##생
경우
10
##프
##각
##본
출
사용
아니
치
현
건
##록
다는
물
공격
##연
본
##중
두
##두
니
예
이후
##군
##피
##관
##호
##린
##으
##류
자신
교
##안
따
못
입
감
학
통
재
##저
저
또
편
캐
점
##민
##태
##세
패
메
##영
좋
사람
##코
그러
##노
##준
##바
##급
##ᅮᆷ
그리
##금
##경
정도
애
##방
##법
##발
##적
##난
##종
군
속
##든
설
형
키
##건
부터
##ᅳ라
으며
##업
##통
##습
##워
김
##포
참
토
가능
다른
##승
외
##양
평
##온
너
##술
종
##루
##파
##브
음
##테
##료
권
이나
##녀
간
살
##직
승
12
해서
죽
##심
##레
보다
팀
걸
체
200
뒤
등장
##스트
달
직
##션
판
는다
대한
##입
돌
##투
11
아이
##표
용
루
그리고
확
게임
시ᄌ
하나
잘
운
행
경기
변
심
##져
..
테
네
디
위해
맞
##론
필
##개
##판
박
##약
##울
##족
다가
##ᆯ라
스ᄏ
##er
사실
채
쓰
활
투
집
끄
시간
##황
##령
날
##에
##형
엔
##출
##량
##너
목
히
듯
나오
##매
플ᄅ
양
##련
약
##설
##합
언
각
높
##께
##향
사이
##청
시작
표
##품
##석
##현
##언
##더
일본
##복
이상
##망
이름
모습
왕
순
##츠
태
##란
함께
##니다
##질
존
준
##외
임
##지만
##까
려
상대
프로
##ᆨ터
독
증
한국
문제
베
15
새
##환
거나
다시
병
##머
천
합
볼
##네
총
잡
손
어서
##in
효
하지만
크
커
능
##스터
만들
생각
스ᄐ
별
힘
완
##독
##혀
캐리
열
##럼
끝
난
으면
따라
겠
##송
항
막
또한
보여
##병
들어
가지
##목
폭
##천
가장
복
산
근
광
##험
티
시ᄏ
식
##ᅮᆼ
##졌
당시
##배
##대로
시즌
삼
플레이
먹
##막
친
처럼
캐릭터
및
18
줄
검
##on
능력
##립
싸
##년
##렸
모두
##락
##ᅳ러
누
상황
백
충
##색
상태
민
##겨
##결
##했
##근
##감
##퍼
##쪽
쿠
##말
머
모든
러
씨
추가
금
##닌
길
결국
슈
빠
앞
##랑
##함
세계
라이
##악
선수
##an
##초
##벨
##담
16
##or
스킬
카드
곡
##살
느
터
##미지
##탄
그래
##ᅳᆯ리
##것
업
현재
##등
##ᅳ래
보이
될
온
악
넘
##메
##편
다만
##남
##쿠
##케
많이
##쟁
##ᅥᆯ어
전투
쉬
효과
다음
30
급
그러나
눈
##할
그런
존재
큰
얼
지역
으나
##으며
프ᄅ
13
미국
페
취
##움
시리
첫
##ᇂ게
##항
청
##접
##냥
14
199
매우
##예
레이
법
황
##ar
창
##택
##으나
##쳐
트
습
허
이ᄇ
##름
나온
북
17
##견
절
극
##존
##절
대학
긴
얻
##ᅢᆫ드
골
##강
##페
##처
상당
##어나
레벨
기록
##범
##he
시리즈
찾
째
스타
탄
##인다
##집
괴
##at
시키
이유
기술
대해
뿐
철
다면
물론
무기
바ᄁ
##득
엄
##왔
겨
팬
어ᄄ
이러
##은
탈
이용
여러
##왕
처음
##날
##규
자체
해야
##패
방송
곳
100
이런
같이
아닌
##별
필요
영화
워
##템
실제
환
##널
##커
해당
여기
25
피해
돼
올
마법
주인
통해
##곡
##ᆨ스
귀
##탈
질
꼬
##열
일반
##글
돌아
규
거의
##달
역시
바로
인데
리그
인지
학교
혼
범
##ᅵᆫ다
잠
사건
##거리
버리
##큼
##en
갈
이야
혀
특히
관련
유니
기본
##추
둘
2017
붙
##느
##착
##박
즉
부분
위치
놓
몬
류
란
##진다
진행
##ou
##ᅳ레
아무
방어
격
##린다
뜨
2018
밖
##칭
이야기
##부분
축
대표
담
냐
달리
떨어
##창
마지
국가
좀
올라
글
는지
없이
못하
제작
##권
##찰
헤
활동
인간
에선
##찬
동안
##육
밝
작품
블ᄅ
봐
##례
웨
증가
##변
싶
##때
##틀
##괴
밀
대부분
샤
아서
##al
접
비스
##런
마지막
본인
떠
몸
2019
자기
##ᅳ레이
풀
일부
##혼
계속
##활
##을
##시아
21
암
서울
라면
##극
몇
든
해도
내용
만큼
##es
##광
##순
인해
팔
주인공
##률
2016
덕
감독
보인다
##희
참고
속도
관계
50
##철
##월
맡
어려
##리아
##전히
##슨
찌
중국
느ᄁ
##돌
대신
##베
수준
이전
그냥
##턴
우리
##없
쪽
타이
비슷
어느
논
나이
##징
전쟁
지금
##갈
##한다
희
##응
성공
22
스토
클ᄅ
벌
낮
##ᅦ이션
기준
홍
뛰
##애
인물
##친
들어가
새로
습니다
##불
퍼
도시
협
울
##벌
198
상당히
공격력
그녀
딜
자리
24
##율
마다
도록
최대
기사
##민국
##랴
결과
홈
지원
먼
그대로
평가
케
##ᆷ버
시절
나가
##증
몰
너무
센
육
뉴
넣
므로
##ᅦᆫ트
##략
제외
보스
##it
연구
##ᅳᆯ로
##버지
의미
망
의해
나타
##ᅦ이지
##ᅳᆯ라
##축
##백
측
소속
짜
##북
이미
봉
실제로
##귀
승리
칼
직접
전체
2015
##책
영상
대한민국
향
23
##굴
유닛
원래
체력
여자
##부터
로서
됐
언급
그렇
##ᅦ일
맨
##획
대로
드라
##념
묘
개발
써
데미지
멤버
##ing
유저
알려
갖
##st
##le
머리
##학교
##ic
휴
이동
##앙
마음
올리
설정
##몬
40
컨
##다가
정보
책
씩
다르
쇼
쉽
문서
방법
쓸
선택
애니
님
##re
##늘
줘
과거
##ᆷ피
이것
가까
돈
몬스터
으니
##운드
왜
츠
이어
프리
##평
##긴
출연
성우
차이
송
갑
친구
깨
##걸
포함
##욱
침
##블
##dd
석
위한
##가지
##닝
농
지나
뜻
소리
압
나온다
탑
##ᅦ이스
대상
설명
엄청
##짜
혹
파이
어ᄍ
크리
사회
##총
준다
바람
플레이어
장면
나왔
##딩
우승
##웅
최고
##침
비해
여성
##봉
버전
사랑
링
바뀌
아버지
빼
동시
공식
##팅
유명
시대
엘
당하
거리
2014
만든
즈
배우
##켓
발생
이루
영향
사망
마이
주로
꽤
대회
려고
프랑
##주의
궁
남자
층
색
결정
##겼
##곤
조금
트ᄅ
##필
발매
섬
빨
26
주장
출신
만나
아이템
나라
##ff
초반
000
역사
사라
인터
학생
##어난
전부
버스
공개
28
##밀
##쉬
운영
보내
서로
유지
잔
콘
스토리
##ᆯ로
##el
답
한다는
27
대사
구성
늘
##염
파괴
제대로
##am
했으나
정부
방식
그것
듣
음악
강화
자주
31
중요
아직
후반
이때
또는
노래
월드
##스ᄐ
모드
##델
the
정치
과정
형태
최종
역할
독일
래
##라도
##길
흐
억
시스
마리
좌
휘
최초
##ᅦ이트
르
멀
대전
##벽
착
뽀
찍
이벤트
시켜
모르
##om
##머니
강력
어떠
빌
##슬
아래
##얼
정말
변경
회복
움
##맨
##먹
##확
기존
어떤
싱
그런데
바이
##잡
졌
##우스
영국
보통
##었
드래
비교
##림
소환
라도
정신
##른다
##객
폐
마찬
마찬가지
##갑
##la
가진
조선
부르
인기
당연
##측
특성
##컬
##is
앨
성능
못했
확률
속성
마을
##프트
##플
##번
행동
##이도
##훈
2013
윤
다이
푸
슈퍼
왔
오히
노선
모양
##덕
이제
끌
오히려
##써
턴
풍
##풍
자유
아들
빈
교육
197
발견
차량
##억
라인
##휘
29
##퇴
수록
##였
메이
따르
게다가
술
32
부족
특수
끼
하이
##et
##를
이번
00
대학교
확인
그래서
성격
문화
프랑스
유일
활약
##손
차지
흑
새로운
했으며
칸
##ol
2012
장비
관리
##ion
버렸
아예
##ᅳ라이
스페
영웅
응
그래도
##ᅮᆸ
일단
입장
녹
찾아
##ᆯ러
액
생산
시스템
##럽
빛
이렇게
##지어
제국
##낸
흔
훈
숨
##폭
고등
뽑
##웨
##ᅦ임
##간다
##숙
데ᄇ
먼저
심지어
득
프로ᄀ
##끼
##던
다니
##누
##라이
경찰
반대
##디오
계획
주변
넘어
운동
##ᅳ려
2010
어야
앨범
맵
자동
거기
##골
획
완전히
조건
드러
곤
데이
내려
우주
기간
사진
##ᅢᆼ크
힘들
애니ᄆ
난이도
부대
개인
##옥
적용
발동
불리
기능
##ow
##새
지구
뮤
건물
##먼
60
감소
위원
잃
##nd
km
##멸
##20
축구
자세
##튼
##통령
##il
##ig
##므로
중심
한다고
모델
에피
##ed
실패
헌
딸
견
##웠
클리
##곳
혹은
중앙
선거
라며
##볼
현대
35
쏘
으로서
회사
덕분
##ᆼ장
##인트
세트
초기
전혀
얼굴
트리
작가
시기
##ᅩᆾ
듀
표현
따라서
국내
슬
##충
바다
##ᅳ루
##탁
원작
대통령
패배
스ᄑ
위해서
민주
뭐
##슈
##너지
##웃
처리
순간
TV
크로
하루
동일
지속
드라마
반응
지방
합니다
##익
##뢰
##균
도움
##혔
얼마
더라도
인정
##버스
참여
기관
맥
##ᅳ램
애니메이션
출시
##니아
명칭
##ac
판매
담당
데뷔
##as
짓
##엘
오브
벨
퇴
##BS
##압
정확
##나마
요구
획득
196
땅
굉장
##없이
##룡
에이
생활
그렇게
of
시점
컴
쳐
2011
작중
다양
##릴
발표
##이드
설치
밖에
후보
그룹
상승
##끔
진출
선발
아군
구조
기억
항목
Lv
쓴
게이
영어
만화
가격
움직
##클
탐
단계
꺼
족
그림
##소드
밤
특별
마스터
물리
실력
가져
졸
##ve
오래
그나마
핵
랑
조차
##죄
량
드래곤
아마
어도
01
##쳤
##욕
야구
##씨
킹
다며
시장
덱
맛
낙
The
##ᆸ니다
가족
죠
사고
##비스
아주
범위
##찮
특징
##넷
경제
려는
시청
방향
##소리
연기
대체
패치
##ᆨ트
꾸
경험
##놓
일어나
계약
수비
고려
퀘
빠르
##ot
나타나
나와
밝혀
숙
불러
확실
참가
국제
딱
디자
에피소드
500
발사
세대
싸우
폭발
어머니
묘사
아르
로부터
오리
##켜
##덤
주의
한테
프로그램
어린
고등학교
80
믿
활용
2000
브라
##힌
어떻게
라서
죽이
상위
결혼
무시
##갔
제한
비판
목적
##효
더욱
준비
굴
##탕
##못
중간
나무
##밍
각각
어디
펼
##ad
세이
쿨
보호
##냐
37
대해서
아야
러시아
45
##찌
버프
챔피
##맹
십
이ᄁ
##스타
웃
런
라운드
굉장히
이미지
패턴
론
국민
##궁
히로
##혹
##렌
##채
##춰
위험
낸
진짜
옆
참조
갔
꿈
유리
##검
어렵
대미지
생명
조직
조사
죄
싸움
단순
듯이
혼자
과학
줬
찬
나ᄈ
여담
케이
린
타입
##뷰
흡
염
소모
세력
현실
파워
St
안타
시도
##씬
제공
욕
주요
구간
##트리
흥
율
194
묻
불구
전문
지하
일으
유럽
클
연속
##칙
부산
세기
나머
못한
순위
논란
조합
한정
스러
포인트
괘
플
사실상
엄청난
헬
기에
약간
으므로
나머지
동료
##스크
##답
##id
떨어지
70
분위
성장
훨
놀
09
버린다
##ay
##스로
무장
블
여전히
보였
디자인
징
분위기
당연히
취급
항공
출전
##트로
이해
90
학년
얘
##빈
일정
지도
##냈
규모
등급
##혁
싫
훨씬
FC
##ER
져
투수
소설
##나라
한편
비로
예정
인구
운행
블랙
성적
##협
즐
읽
폴
크리스
강한
##링
부상
쌍
기대
자연
옥
엔딩
기타
##ᅳ럽
익
살아
삼성
벽
계열
mm
똑
괜
02
해결
2009
03
사업
##ch
스테이지
##킹
센터
였으며
##완
##혜
텐
방면
연결
미션
300
어두
콤
가스
방영
최근
떠나
의견
튀
였으나
연합
수정
##짝
짧
##us
48
으면서
##센
변화
도망
##춘
종류
자면
##ir
##올
이탈
곧
표기
잘못
률
칭
전용
벌어
배치
##받
05
##리스
드리
엘리
195
추정
33
for
킬
탓
퀘스트
2008
발전
프
벗
##척
소녀
##혈
36
##폰
08
##난다
대화
거대
보여준
정상
##엄
직업
시켰
##칠
끊
안정
척
07
##ur
도중
메인
언제
만드
죽음
엔진
충분
스스로
큐
종료
##참
작전
##티브
##프리
벤
스카
수상
챔피언
세상
이라
품
나중
##둥
##파이
옵
스피
##같
독립
무려
일행
비행
쓰러
힐
요소
##샤
##ᅳ레이드
랜
오른
캠
느낌
##텐
##취
수도
마저
녀
당신
입니다
##엇
HP
굳
로보
##액
보상
에너지
이루어
당했
렌
방어력
달성
비롯
##드리
전설
팩
##..
공연
##od
나ᄂ
미사
무리
06
력
동물
솔
배틀
##BC
부활
특정
장착
훈련
절대
th
삭
졸업
앤
철도
전기
버린
##im
##자기
기업
##암
다운
포켓
위기
요리
넓
지휘
행정
싱글
봤
번역
##륙
번호
근접
더불
제목
건설
04
만약
관심
##아들
아이돌
미래
##려서
황제
내부
남성
##렬
틀
스코
반면
##틴
득점
##un
충격
점수
##ut
신경
##뉴
SK
시험
전차
브ᄅ
군사
돌아가
지지
목소리
##싸
목표
강하
홈런
소재
덤
뚜
전사
2007
##데이트
플래
인사
바라
업데이트
정체
멸
##운데
you
공간
##지션
똑같
했었
가끔
무대
칠
픽
시설
사이트
타격
셈
로마
오늘
34
뒷
브
꽃
##인물
##즘
도로
##컵
##흥
배경
쥬
다리
카이
빅
링크
록
클래
지정
생기
장소
누구
각성
전작
##빠
서비스
공중
##트라
빙
최소
항상
날아
##ro
냉
교체
홀
멘
그만
전국
##닉
맹
파티
분노
쓰이
##알
##폐
생존
작곡
북한
등장인물
켄
정식
예상
##수록
##너스
부여
스포
자랑
의원
작업
##붙
##란드
##ᅳ림
잉
무엇
포켓몬
사냥
##디어
##쇄
##큐
분류
종족
##ᅳᆯ린
으로써
##러스
아파
한데
##층
인도
악마
##ag
##igh
소개
야마
38
한다면
##ᅱᆫ
올림피
스타일
얘기
겸
##ver
단체
혈
애초
인터뷰
괜찮
가수
필드
##ec
달라
결승
##동안
cm
판정
롯
빠른
##어들
오르
기계
둔
쌓
클리어
75
연출
목록
각종
외국
끝나
하늘
컵
가리
이외
타카
명령
파일
##ᅪᆯ
##ent
2006
제일
초등
##스티
기체
병력
지상
깊
카운
재미
##이트
로봇
개념
아카
트위
55
##ᅳ린
전반
확정
이끌
기동
in
교통
##콘
옛
으려
페이
션
콜
정작
옷
##레이
##촌
193
왼
건담
레어
비용
##킨
별로
##ak
료
##아내
화력
##인지
장갑
올림픽
수행
몽
군대
아라
니까
사항
가운데
##허
가르
표시
크기
##뮤
이게
따로
인식
시티
행위
사격
수치
경쟁
##해서
2020
납
사거리
to
##um
깔
인가
이기
##최
컬
가문
베이
기반
변신
갑자기
저항
감정
',
##쿄
##렉
이걸
나름
포지션
비밀
아쉬
##젝트
마치
진화
이탈리아
달려
완전
평균
뇌
왕국
아키
##흐
단점
보유
##짓
집중
인천
코미
교수
나올
지키
##셉
근처
통합
당한
기회
병원
vs
폰
직전
걸리
의하
던전
노력
임무
띄
지난
냐고
빠져
의식
아도
자원
전자
특이
국회
설립
탈출
##화국
정의
오버
쯤
시킨
##윤
압도
윈
##ST
혁
이닝
옮
월드컵
부모
단어
촬
부정
환경
##em
##줄
고양
어째
현상
##ub
정리
##리오
사례
잠시
놈
사정
밀리
##앗
##비아
##셔
판단
효율
시전
다크
지켜
제품
##픈
이쪽
일러
##튜
스러운
펜
롤
밑
극장
치명
스위
본래
가까운
기다
라이브
##낙
주제
##말로
무슨
##르트
촬영
더니
##000
삭제
##헌
널
붕
상관
사무
플라
의외
##르크
털
주문
위원회
짐
전력
겪
댄
갤
동생
##븐
고속
이건
##어로
원인
주민
대구
##묘
여행
물건
지배
제거
발언
강제
소련
연습
치료
병사
포기
스럽
위력
요시
뭔
도전
전개
2005
이하
골드
##다는
역대
##째
저지
책임
시킨다
해군
##다니
중학교
기념
##요일
올라가
도입
정책
시킬
봐도
완성
웹
롭
복귀
##싱
실험
##ight
화면
42
유사
고정
려면
도쿄
공주
살인
##어났
루트
바꾸
의사
이르
아스
던지
음식
41
##학생
##섭
##ᅦ이드
##좌
노트
##야마
별명
파트
모아
차원
받아들
직후
선생
이적
히어로
레드
불가
다수
셋
뿌
사기
밝혔
중반
꾼
구하
39
##섯
티어
전략
어둠
분명
밴드
마나
붉
공동
도착
2004
##무리
히트
미니
##랜
##긴다
꼭
##모토
##특
접근
언어
녀석
가치
제도
EX
관한
LG
##젤
에게서
몰라
컴ᄑ
정당
으로부터
은데
회피
텔
추천
타임
조종
나이트
정규
쫓
사상
시민
대기
덴
점프
예전
반드
##ce
확장
##다고
아파트
신체
고자
##숨
셰
##그레이드
업그레이드
생겼
마사
구매
##AR
연장
롯데
리더
자료
로드
랭크
##리어
이곳
반드시
폭탄
##os
투표
탈락
##둔
타이틀
인터넷
어요
##밥
부탁
장치
단지
##프리카
##시마
노리
앙
학원
완벽
##셀
라이트
미사일
##랜드
종교
44
##찍
우선
##ri
소유
닌
형식
해외
고대
셀
##AN
구역
장점
사령
알아
최강
심각
산업
뛰어난
##듀
##벤
아내
##ula
Ch
금지
늦
##ON
다루
수마
##ᅳᆯ레
##역시
놀라
탱
도와
추측
느끼
##십
버그
##꺼
실시
올려
멜
##ᅳᆯ랜드
No
자마
위키
마무리
##ap
43
99
대장
##홍
##몇
클럽
몇몇
그린
공포
가사
##나이
##벼
##져서
하드
##ᆨ정
노동
##and
2002
연재
브리
이사
구분
복수
st
검사
달러
범죄
톤
합류
점점
서버
가드
다소
조정
요청
보여준다
잇
로스
행사
차례
드로
form
레인
옵션
##탑
맞추
떡
재료
보병
그야
밥
##났
셔
조작
선정
선언
수많
마법사
##텔
전통
냈
택
교회
##꾸
잭
타자
맞춰
걱정
프로젝트
kg
##듬
그리스
종종
개그
47
##ᅯᆻ
스포츠
46
##빙
데이터
51
191
##첩
좋아
컴퓨
개월
암살
부하
##이치
광고
마르
형제
##ᆨ시
쥐
formula
템
열차
빨리
생긴
성향
대중
개최
폼
평범
##덴
이라고
내리
자마자
KBS
##쓰
코스
인한
##조건
숲
그야말로
##죽
실점
포스
한계
모자
흐ᄅ
스페인
구단
채널
##맞
뻔
대결
설계
##ter
거부
통신
언론
코드
아무리
보조
워낙
생물
다행
##맥
비중
종합
알려져
행성
컴퓨터
민족
기지
##털
and
##셜
전화
맺
높이
한글
무한
디스
투입
개봉
해석
무조건
값
##럭
캡
본격
영혼
뉴스
냐는
굳이
그걸
운용
어려운
트로
##ul
MA
평소
정확히
들어오
실수
엑스
회장
원정
광주
##IN
걸로
지적
앞서
박사
소년
##타임
##ᆺ자
지명
연주
와중
알리
##무라
인상
1000
위협
##레스
2003
미드
##ᅦ이크
멋
##ᅳᆯ링
젊
회의
상징
샷
충분히
##꽃
##스케
슬로
##op
등록
##몽
##ᆺ수
는가
사태
집단
대형
가정
대응
대비
그럼
보너스
터미
넘어가
아웃
카메
자동차
##돈
소비
엠
##ck
전원
공사
보컬
체제
페르
##뜨리
시청자
%,
##딘
데스
뚫
태양
##되
특유
거두
희생
150
비하
오프
조각
모른다
##드로
개조
가면
무사
65
##FA
혐
군단
##ation
빵
편성
열린
봉인
끝내
해졌
##엔
밸
리어
된다는
여름
빠지
네이
MBC
마력
흉
SP
릴
##니스
통과
일종
기자
##ra
트레이
일러스트
프레
192
잊
육군
간단
##콩
##펜
혜
발음
##자리
장군
공항
##녕
클라
생성
얼마나
##의원
낫
시나
분리
움직이
방문
64
오리지
##있
II
##오스
##롭
간다
섞
촉
고양이
장르
블루
동맹
장기
##꼬
하야
오랜
함정
바르
썼
반복
펼치
서술
##튜브
튜
##넘
소식
의도
##칸
전환
사쿠
빼앗
분야
디지
로써
근데
앉
갤러
52
진다
불과
세요
유튜브
랭
락
가깝
바닥
영입
사라지
안전
경기도
브레이
괴물
저격
제안
##텐츠
거쳐
##리카
흡수
점령
##깨
You
힘든
##깐
의지
는다는
엄청나
그라
못한다
##엽
예선
##시스
초대
루이
필살
##낸다
최후
##니티
전해
400
개선
그때
공략
유도
났
화염
##남도
##빛
와서
숫자
독자
핀
흘
오토
전술
##art
##님
날려
데려
코치
미리
그저
방해
##랄
그려
주력
액션
확보
외모
인원
매일
평화
진입
터미널
이론
덜
##니까
규정
관통
VS
클래스
피하
수사
라디오
장난
뭔가
##런스
넥
49
##팔
이치
투자
##ᅳᆺ
승부
컨셉
느냐
눈물
체육
목숨
형성
적극
패러
인류
##ᅳ레스
방패
AP
56
##온다
상자
비트
##핑
음반
몹
모험
시내
##힌다
##빌
사과
아름
왼쪽
적절
한국어
계기
보도
모리
##ᆯ리아
살아남
겐
2001
함대
구축
서브
##동생
거짓
나서
##풀
##라인
젠
의심
약점
챙
##여서
예술
공화국
겹
역전
##롱
##논
궤
인형
기원
53
오리지널
54
비디오
카페
##페이지
작성
완료
##모리
당해
...
공부
수리
은퇴
솔로
코어
회전
지닌
단순히
닉
대단
질문
In
PC
편집
황금
닮
부른다
마침
뮤직
훌
날개
##ᅳ래프트
됨
##바이
핑
홈페이지
덩
착용
이어지
필수
##시브
트랙
웬
누군
상대방
멈
보수
꾸준
85
밴
해제
##옷
##삼
민주당
선보
지니
##토리
##친다
랍
나쁘
엄마
아프리카
을지
드라이
경상
##ia
사단
뜬
습격
장관
1990
현장
사장
비난
포르
희망
코스트
지내
돌려
원거리
##ill
##몰
청소
스트리
의한
수원
##ie
재판
분석
하위
##으니
랄
명중
테러
아시아
퓨
진정
더블
에스
무력
스티
선물
##RA
성인
수호
묶
ST
삶
##덜
모티브
##IA
비고
스파이
콩
확실히
심하
행복
경계
핸
저주
감안
중단
꼴
태도
가슴
190
##ik
마크
카즈
임명
남편
공원
기획
쿄
에이스
지식
관광
##나다
표정
허용
승강
스마
쿨타임
장애
##렀
수단
오른쪽
탑재
떠오
바탕
본선
딱히
인민
제시
좁
상처
소프트
주도
##무원
당장
59
나누
캔
롱
##핀
##연히
##북도
의문
영역
유래
기점
유우
테마
소울
마시
고통
테크
##ᆯ리스
나아
드ᄅ
##퀴
떼
리스
보급
미야
##ab
컷
베르
직원
불명
돌파
기어
멀티
일어난
베이스
위주
##닥
작용
##이언
고유
주목
제압
대답
120
##워드
58
나카
꼽
잠깐
주연
##마스
카운터
미치
여부
##워서
엉
제기
순서
측면
체계
도서
##어지
##트ᄅ
##est
돌리
탯
57
업무
우수
진영
박스
부인
##th
MP
멀리
문명
텍
##푸
카메라
패스
횟수
드립
후속
멸망
통일
온라인
델
##all
버튼
공장
어찌
텔레
시나리오
지점
거주
갱
케이스
귀족
##ea
66
95
코너
문자
가벼
당선
##ᆸ터
##쇠
##뇌
찰
겨우
협력
차별
##잔
특기
뱀
계산
소수
펀
지옥
##솔
댓
눈치
약속
듀얼
삼국
최악
떨
브로
가로
춤
뉴욕
에어
오스ᄐ
Sh
시체
연계
대하
##머리
딜러
은행
크로스
Lo
다ᄅ
##ct
살해
##로드
느껴
ddd
깎
on
바꿔
개편
을까
오후
유키
1999
잖
융
Re
붕괴
틈
제로
배신
게시
대놓
버려
봄
자격
혁명
자치
어울
떨어져
매치
군주
부담
##픽
낼
110
처치
웨이
##ddd
생겨
##드라
dddddd
Sp
컨트로
게이지
1998
미스
벌이
퀴
##AL
해금
데리
겨울
국회의원
다름
견제
증거
에겐
레이저
외부
최대한
구해
군인
장전
된다고
교사
필살기
쓴다
제조
오스
##AT
62
출발
진실
자살
핵심
##PS
##레이션
정권
균
스테
돌아오
대원
미나
후지
따른
여왕
전장
##륭
궁극
조지
##쇼
누군가
미군
섭
##OR
중화
연방
용병
가졌
##니어
마왕
아메
로켓
니코
아침
옹
##VE
##루스
거절
충전
댄스
룰
낳
누가
빌리
한화
타이밍
출생
누르
유용
공산
SS
알려진
일본어
기분
터지
SBS
이성
커뮤
조준
만족
충돌
바뀐
블로
날리
##어도
고급
건너
브랜드
도구
단위
취소
는다고
애매
교환
스피드
부진
거래
넷
##ate
스킨
##사카
##멘
수학
흔히
##ess
피해자
##컨
##래도
이래
극장판
Th
##터리
##ell
카르
61
토스
뛰어
반란
제주
무게
##광역시
##나가
발휘
세계관
얼음
##ard
끝난
76
##읍
해진
우려
장수
파악
후반부
자고
##ang
끼리
단독
마츠
통하
아무래도
모션
레전
홍콩
인생
패시브
공통
##IC
##하라
삽
클로
스파
근무
판타
##ue
신화
##릉
빔
비록
격투
아머
한자
##ant
파라
하트
##ack
순수
프라
##ers
따위
흰
피아
Al
NP
77
열리
쪼
커버
##아리
구입
정령
##다운
파이터
##ine
88
공군
1997
##다수
운전
72
등등
##톤
혼란
계급
쿼
자식
가입
그게
줄어들
수입
스코어
닥터
##심히
회수
떨어진
권력
갓
경력
본부
밀려
채용
지시
공작
근거
늘어나
속하
탄생
쉬운
생일
밸런스
##킬
해방
비율
카라
##흑
향해
기절
##촉
건강
지하철
언니
##웨이
용도
꾸준히
##가락
기다리
병기
표준
좋아하
갤러리
BG
##헨
타워
로운
##힐
실질
돌격
에리
지대
##ok
##젠
##스탄
##OS
납치
증명
협회
반영
춘
홍보
지급
##피아
남부
##둑
인지라
아사
대공
강조
입학
be
오오
약한
나쁜
온가
불안
업체
여겨
##라이더
랜덤
373
FI
놔
윙
유형
미친
왕자
그럴
##ᆯ링
외교
요원
##디션
##세이
경영
or
들어갔
##유키
##라리
대륙
감염
경향
쏟
98
fff
고서
위하
온갖
훌륭
광역
감사
페이스
CD
gt
연대
마녀
트라
실행
장식
노르
문학
##ive
패러디
울트라
기독
서포
덮
못해
스펙
메탈
물질
600
자라
어쩔
입단
##오리
재생
가까이
태어났
##크래프트
아나
##럿
스페셜
화살
추진
주년
어차
집안
고민
내내
설득
대다수
계승
1996
건지
정해
승강장
살짝
룬
사카
선배
기ᄈ
어차피
부문
폐지
##ast
무서
캐나다
##고기
숨겨
올랐
PS
##AS
영원
정지
대놓고
봐야
신문
고기
1995
베트
밟
##어리
보물
낭
적당
짜리
##메달
킥
오류
신뢰
사전
##바로
짤
##멍
연예
작사
즉시
기기
##즈키
##uby
",
크루
따지
꺼내
전선
당황
##ED
미소
플로
불렀
당한다
함선
##tt
##다지
##휴
남기
68
뒤집
페이지
##ee
폭풍
쇠
브라질
등판
##겁
은근
스트라이
lt
오픈
800
소문
짝
탑승
버티
헤드
명예
열심히
상품
화장
입수
레전드
오프닝
별도
갑옷
경유
##녔
심리
시행
##거나
파리
경기장
이거
령
##ᅮᆯ러
일으키
단일
63
둘러
##다면
마이크
의회
1980
변호
통제
마련
늑
라스
랩
##카와
올렸
공유
댓글
반격
##ong
틱
##AM
ruby
모으
때려
운명
가면라이더
변하
##시오
정류
응원
갖추
아리
레오
후쿠
한때
커뮤니티
신청
쓰레
트위터
격파
##툰
라이벌
사령관
스키
##ort
김성
주전
고전
기독교
출판
공기
이슬
습득
오로
이승
##웨어
컨트롤
중계
가이
깃
편의
퀄
##ith
하수
수업
심장
오해
불만
신고
끌어
마인
마주
두산
울산
##아먹
71
##if
74
관객
전함
외국인
카나
정말로
##나무
보정
주위
##ly
러브
테이
##fff
건축
출장
##아버지
....
용어
MV
랜드
##ld
흘러
그곳
전달
닿
73
여론
67
메이저
ffffff
민간
우스
사운드
절반
##ᆯ릭
조치
##피스
와이
##티컬
내놓
지형
물러
가토
드러나
갈등
여신
##도우
붙잡
임시
무적
##학자
재능
챠
가득
메리
묵
아오
넌
전공
둥
압박
NC
##따
##ain
리버
##가와
별개
지나가
엔터
붙여
초월
##ist
96
알렉
없애
##쳐서
종점
연구소
밝히
요새
네이버
##묵
스튜
1994
##ind
움직임
안드로
북쪽
강해
샘
##놈
전형
추적
팝
두려
##봐
슬라
TH
그다지
메타
시각
전하
180
탁
컨텐츠
남쪽
벗어나
##멀
디아
낚
늑대
메가
보장
약하
##렴
발매되
이란
쓰인다
AC
돌진
시야
소멸
##서트
판타지
쉐
81
AT
난다
##팩
결승전
전시
타점
든지
다행히
파이어
곰
일부러
무지
잖아
걸려
##per
동기
##브리
불꽃
##라스
서부
그만큼
동네
원수
환자
##듀서
프로듀서
##ps
뿌리
강원
##지컬
##EN
만난
여동생
문제점
화려
화이트
##츠키
그림자
흔들
선호
왕조
동원
이마
폭력
상향
유로
걷
께
파이널
먹이
회원
대만
본명
치명타
유비
북부
신세
##EC
테일
자는
됩니다
신라
소드
78
잉ᄀ
그런지
##식간
91
##크로
##OL
빨간
##콤
수요
여서
순식간
연상
무난
##에도
##ew
퀸
도서관
##ᅥᆷ프
##텀
##타로
맘
향상
전역
메시
매력
아시
학과
종이
차트
##어스
뛰어나
아일
전적
변형
##싼
아가
통한
아무런
##더스
엑
최상
헨
전방
저런
부품
##팡
##로운
84
CP
체포
영토
성과
일상
수집
크리티컬
암흑
전투력
게이트
##사키
팅
코믹스
테스트
시드
영업
##LC
##쥐
마술
me
인수
헤이
토모
##ry
수용
조절
파견
벌어지
어쨌
드디어
꺾
폭격
복잡
학살
유전
복장
아우
82
대우
떡밥
릭
##lo
입력
구현
밝혀졌
편지
##껏
##융
개통
생명력
사라졌
할지
호환
오빠
현지
97
니시
추락
신인
사자
천사
땐
도달
고향
콜라
동부
닌자
사토
##납
네덜
청년
네덜란드
86
##찾
창작
반지
##ᅦ이터
경비
통해서
점차
제이
작동
맞이
콘서트
연관
##ᅥᆼ이
토리
프레임
교황
보단
한국인
쓰레기
수송
출현
노예
##운다
스톤
기초
##캐
##거운
사쿠라
푸른
덧
##스턴
짱
모바
추격
아트
it
세워
킨
해체
해설
드러내
아티
69
해진다
아닐
객
##퍼스
다시피
##어버
몰래
##ᆷ프
조용
구도
충청
##ᅦᆯ라
의상
##모로
심판
엘프
진지
간격
공급
녹음
##노스
나루
키스
들어간
몰아
is
주먹
##히로
식물
아무것
막장
시위
조성
NPC
보냈
겟
프리미
##디아
전투기
조조
##ᆷ새
##IT
제자
연사
인하
##ᅳᆯ래
브레
##둥이
수술
##리티
무효
##와서
스마트
무너
연애
검색
슬롯
옮겨
실드
감시
스카이
US
그래픽
나갔
일제
블록
버릴
##오프
꼬리
레스
당할
일어났
아이스
법원
동쪽
##특별
마리오
경험치
구체
MS
고교
옛날
까다
##오카
##도로
An
통상
때리
총기
김정
##레나
뼈
범인
룡
구속
긍
베트남
세우
라이더
마스
##ust
끔
신규
신분
대립
##티나
장교
지나치
은하
연락
어깨
국립
샌
예외
무르
##럴
쿠키
앵
##주시
##다른
250
KT
##칼
강의
인근
마리아
입구
탱크
카미
지도자
신성
뷰
다섯
차단
규칙
##50
글자
되찾
불편
대대
##뜩
메카
이랑
겁
훔
보일
평타
프린
##헤
창조
요정
언제나
박살
코인
안습
바보
총선
##ᆼ이
유희
마도
모바일
만났
동작
토론
후기
전라
##비전
##홀
여러모로
환상
##밀리
##렘
189
거짓말
##ᅢᆫ스
노출
이리
기여
의료
##파이어
권총
세월
소총
리아
이득
에드
농구
어택
##즌
##자키
일원
##어진
다이아
빠진
자이언
무료
##워하
신호
블레이드
202
서쪽
##영상
이날
1992
##버트
부위
나뉘
출처
음성
정복
개혁
##렛
들어간다
미술
폭주
##깔
키리
극단
잠수
고생
글로
92
##옹
헌터
##BO
##ore
##ᅢᆼ이
##저히
간부
죽여
느리
겉
Ar
참전
반발
전직
이뤄
교전
편하
고용
투어
대체로
양산
일자
밀어
길이
보석
고문
폴란드
대량
키우
연도
상점
83
렙
라이프
제법
호평
상상
제어
사마
동영상
수영
정류장
걸쳐
승격
마루
전대
Te
출력
누리
갈리
##보드
사양
합격
89
기습
##FF
101
터치
##켰
93
1993
공학
잉글랜드
지휘관
북미
De
MAX
제작진
촌
기병
윌리
득표
##ᆯ린
중대
쟈
앱
94
요괴
더러
합성
미디어
머신
환승
나타내
인증
드물
날아가
법률
com
치가
79
상하
적어도
가시
파란
##다이
탄약
브루
조심
가량
박근
런던
##일드
회차
구출
매니
널리
요즘
스태
탱커
##FC
파일럿
의혹
##ᆨ시코
##타인
원소
re
돌아온
##뜨ᄅ
활성
동방
귀여
즐기
썬
보낸
떨어진다
유령
포탑
하수인
낸다
노멀
삼진
침공
트레
믹
분기
87
디지털
하고
의무
이재
톱
부수
개정
서양
알파
가톨릭
이루어지
묘지
인공
어쩌
올라오
마이클
가게
홀로
볼넷
이슬람
아프
똑같이
네임
첨
사이드
가속
다면서
결성
##one
예비
대략
스웨
학자
On
이자
히데
블러
패널
##쩡
경고
레인저
쾌
##우드
계정
괴롭
##폼
보고
##se
축제
##ip
헌법
소화
전면
이내
아일랜드
##AC
취하
부부
AI
DJ
특화
쿠로
##RE
줘야
익숙
써서
용사
상호
달린
횡
넘기
캐스
심한
갤럭
던져
##ᅮᆫ다
이시
##ere
버ᄐ
##먼트
그럼에도
문장
블리
그로
바이러스
메모리
걸어
워치
들이
근육
대항
람
불법
##PG
BGM
MC
슛
부리
돕
나와서
불린다
플레이오프
베스트
SN
자매
유행
한방
개체
어지
##준다
파크
##ity
도발
타케
어린이
##붕
##ath
김영
##녁
핫
##창기
고지
보안
일시
핸드
육성
##넣
##륜
예측
예고
냐며
소닉
빗
##닫
제임
자금
갤럭시
총리
루시
##어날
##컷
##로스
슈트
살려
검찰
취임
멕시코
FIFA
신기
터키
무언
마냥
정면
결론
사제
길드
##end
국방
##조리
리스트
형사
스톰
고백
1991
넘겨
루타
구멍
식사
마구
아기
리치
입히
세이브
그레
호텔
곧바로
##컴
레이스
상업
이명
감옥
태어난
!!
여유
##펙트
저장
번개
절망
개방
제임스
부서
맞서
진심
원자
투구
그랬
사이즈
구원
대가
유대
씬
볼트
초창기
플랫
세르
THE
700
타마
FA
##고리
피부
너무나
바위
배차
##워크
##요시
박정
청소년
오랫
팀원
웬만
##스키
흥행
으니까
강철
여지
일지
엮
럭
카타
고르
##김
콜로
몰려
착각
좌우
##특별시
된다면
전철
합쳐
리ᄆ
##구리
험
빨라
1988
파트너
발달
세포
왠
리메이크
MVP
끈
##톱
펼쳐
소형
쏴
처벌
그동안
서울특별시
이즈
현역
##쾌
레이드
신설
긍정
주식
융합
##끄러
훗
주간
셨
외계
##데스
아쉽
분량
아빠
차라리
펠
프라이
아름다운
정착
Ro
위장
잦
미카
##네스
##OT
인정받
반사
돼지
챕터
합의
사신
##디언
식민
랭킹
찾아가
림
##로나
지냈
내성
##성기
스미
봇
목격
알레
인연
누적
삐
사우
##폴
협박
통치
전문가
드림
내장
##드ᄅ
장악
단장
게스트
의뢰
화학
빌드
떨어졌
CC
방지
에서부터
포스트
도망치
립
에다
브레이크
무언가
잡지
박근혜
Wh
해병
영향력
공지
곁
크라
논리
방출
안드로이드
동의
태그
어울리
국왕
방사
는다면
내주
AK
##삭
시즈
도우
대지
타이거
조약
그대
뭉
한지
각자
요코
배트
한번
룸
관할
저녁
지능
##ect
돌아왔
멍
DLC
살리
실버
골든
하필
국군
htt
라면서
대폭
Se
1970
야스
흠
그레이
의존
최소한
양쪽
놀이
아크
손가락
토르
Le
악역
마침내
호주
스턴
동화
연맹
과목
변호사
닫
공무원
유치
걸린
'.
후속작
막차
붙이
모여
기구
으론
수련
수수
본작
##스ᄅ
무역
소지
He
면역
보관
소원
##ᅳᆯ레이
오랫동안
무덤
PD
빡
##age
어쨌든
##지마
올린
오사카
웹툰
주말
역임
오카
##IS
귀신
##바라
돌아다니
나간
육체
연인
기원전
al
혐의
해리
스튜디오
썩
내구
명중률
확대
재산
카오스
접촉
호감
기도
불교
노부
적대
kt
남겨
대리
##잡이
윌
##다리
대처
깜
네트
명성
써먹
강남
스틸
태평
익스
계단
##윈
올해
전후
Go
비행기
연료
예능
정비
Me
출마
가볍
갈라
간혹
슈팅
끌려
##페인
딘
오늘날
합체
트레이드
예ᄈ
싸울
화제
권한
컬러
모모
정치인
부장
뺏
마키
흐름
정원
섀
퀄리티
개성
츄
필리
소장
로즈
리드
시마
체인
받아들이
안내
학부
이지
오전
게시판
GT
준수
휴대
접속
저그
수익
블라
권리
1989
KIA
빚
특집
더라
연극
##og
외형
금융
##ake
칼리
##ide
박물
하우스
갇
하얀
선전
##달리
트래
김태
새벽
고마
허리
상당수
윌리엄
톰
##OM
Be
피격
이집
My
초간
이집트
WW
무렵
카스
공공
##미야
뻐
##흡
오스트리
주기
다를
환영
편곡
페이즈
일기
130
최다
둘째
시계
금속
포르투
플레
소스
나치
넉
고구
AR
메르
##ss
원칙
이루어진
결합
SC
##ark
##겐
지우
쉴
##ime
숭
연타
헤어
##ire
알렉산
바라보
누나
SM
편입
으려고
식당
리얼
어릴
할아버지
##구치
유물
개입
한동안
문재
캠퍼스
인조
어른
매직
렛
##세스
웅
향하
##티아
지진
거인
188
전신
그건
소중
아니면
극복
wh
116
블로그
전진
시선
성립
영문
##둘
##듭
my
Su
딩
##ES
정찰
사도
은근히
회상
헤비
정글
아바
기사단
바리
SD
협상
캐스팅
메뉴
궤도
뜯
스웨덴
##ID
주사
깨닫
시내버스
##셰
팬덤
##으면
Tr
음원
튼
태어나
부디
튀어나
유이
는지라
대개
작곡가
손해
##ite
##던가
대충
독특
재단
수십
동굴
비해서
##킨다
##아지
우위
젤
더더
보라
복무
##아시아
우라
고수
아닌가
안티
민주주의
용기
이길
식량
##부르크
트럭
160
뱅
띠
교차
종목
세이버
이익
해안
##회사
미라
처형
##ound
##맨드
조언
못할
일찍
멀쩡
SR
클래식
과제
리듬
이끄
드레
위상
내려가
##iv
원본
더더욱
##ᆺ지
HD
져서
''
##가스
커맨드
펀치
신비
줄어
김민
##베르
타인
박물관
플라이
잡혀
빛나
오가
트윈
힙
##미니
신부
스프리
이렇
##가미
##iz
##OP
삼국지
훗날
##ge
들어갈
증언
해적
갈수록
멘탈
날짜
허나
절대로
천재
적군
IC
자국
꽂
##리스트
일격
마비
내세
신앙
위원장
나갈
구사
##OW
나타난
별다른
노인
나눠
각본
재미있
무릎
코우
중독
나타난다
느라
기적
재정
비싸
죄다
세종
주포
멈추
외치
집행
양성
뭘
스승
철학
하락
참석
구나
마이너
지위
몰랐
캠페인
과연
비례
정수
죽일
개시
호수
예산
결코
국적
적응
패션
호위
교류
관중
작화
크리스마스
##큐어
한참
탄창
깡
나간다
알려졌
매체
이중
##가리
##LL
되돌
열쇠
##덩이
죽인
안경
히메
시아
상한
##ome
활발
##프레
노란
데이비
경기력
Gr
나아가
##쩍
어떻
펫
흐르
선출
투명
십자
툴
##테르
해상
바퀴
안타까
with
왈
냥
우연히
김종
루수
체크
##BA
희귀
명단
녹색
##UN
충성
화성
##마디
##리그
진보
곽
미안
스타크래프트
남겼
피스
고리
쳤
이영
칩
원주
칭찬
개수
사막
개막
첫차
주일
##아웃
결말
IS
위대
헝
행적
적혀
##쓸
켈
갖춘
전성기
##몬드
미츠
기아
모래
렉
제정
당일
첼
##크스
인지도
흔적
크레
1987
상급
기종
챌린
후방
업적
오스트리아
de
##드러
미터
강점
BE
px
임대
상성
다닌
140
어려움
농담
가져가
어지간
김동
포로
웃음
##스라
사유
계통
대수
심해
##MA
Pr
##블리
버스터
재현
대학원
취미
면적
줄이
무작
매년
##ord
스프링
Love
비상
오직
체육관
클릭
토끼
거치
심사
##ud
일반인
포항
고스트
으라
펑
찔
개량
앞두
##치기
사후
##닉스
신장
거점
프리큐어
돋
생존자
유적
이정
##값
남북
강도
헛
자책
과장
들어온
ch
본체
##빨
모조리
##양함
자본
어마
자극
괴수
##큰
덧붙
켜
세웠
예수
클레
이주
##코드
닥
##낼
가을
##mp
부지
파츠
##사자
화물
##데미
스탠
##10
부작
여야
저작
전멸
##멜
##ame
맥스
기용
텐데
소위
UE
선고
##ance
##팀
아메리카
캡틴
##다란
연금
추구
가해
들어서
아쉬운
아티스트
SKT
##ax
##카드
인격
흥미
스ᄅ
자세히
an
가짜
출입
판매량
휘두
JR
공세
채워
##ure
아카데미
유나이
유니폼
새끼
꽈
##ix
로그
900
일치
눌러
차기
GS
승점
채택
무라
포격
##뜻
공룡
일방
단편
유나이티
취향
##ick
소송
올라왔
##mer
스마트폰
##펴
도주
포드
집어
탈퇴
코코
일본인
##지로
##ice
막대
사형
으러
부자
연패
##이즈
기량
색깔
타율
할머니
바까
피아노
들리
바깥
로고
귀찮
##our
로우
제작자
한마디
Bo
유통
건조
코리아
상실
이루어져
타선
화장실
드라이브
아미
구경
후계
발라
흘리
치유
아즈
마린
라이온
지켜보
몽골
측정
EP
닭
영구
노벨
##나미
식민지
비주
요금
햄
##시로
씹
##맛
자전
보존
1986
거듭
본다
##시타
채우
##공화국
선택지
쌍둥이
내보
초코
잠재
사라진
1960
아이콘
가요
OST
상인
내렸
##든가
나타났
무방
레디
##켄
찢
컸
쵸
헐
훼
커피
강요
##코토
레이더
메시지
인민공화국
KO
##{{
들려
Un
간신
이른
언스
초보
이민
##고속
꿀
이슈
통산
어째서
팽
동력
가상
고도
Ex
포수
어드
신사
##짐
##얄
도끼
넥센
조연
색상
피터
##AD
캐논
명확
오타
##듈
벌어진
몰락
연승
##qu
주택
화재
사원
여객
##멘트
썰
루카
교장
네트워크
힌
주소
타락
벼
곡명
귀환
##oc
가루
어스
베네
냄새
{{{
외전
쟁
내지
몰라도
콜라보
##반도
유희왕
모토
제갈
딴
실망
판결
##80
소라
이브
##시스트
남녀
칭호
떠났
기울
##카리
GB
대선
담배
경로
레알
수장
##핵
불타
UEFA
항공기
펄
이터
스페이스
광역시
가하
핏
잡히
위반
##플레
깔끔
매니저
오라
생긴다
##그마
비싼
포르투갈
DS
고구려
타수
연합군
186
##own
sh
##ys
머물
##렁
약해
반동
아마도
라인업
순환
CPU
##노우
혐오
아요
##나카
교실
브라이
스터
영주
##가시
##스틱
항복
법인
백성
부른
챙겨
글러
너희
관찰
복지
찌르
뿔
타운
잠수함
##ber
미스터
풀리
모를
단단
비서
주역
주자
들여
숨겨진
적합
캠프
배터리
낚시
매장
수류
시노
거미
We
스와
관람
AM
릿
이겨
예시
유효
강원도
커리어
드래프트
##괄
줘서
데드
히어로즈
##저스
105
벌레
공성
공업
##av
아쿠
##OC
트라이
흑인
하단
인치
엿
유학
##쌍
이스라
튕
승객
고개
##old
##데이
예언
용량
##정부
김재
동성
등지
##땅
골라
.."
고작
본사
치킨
늘리
상단
승률
싸워
국경
##일보
추억
소프트웨어
CF
면모
천만
마약
포위
나선
휴식
서구
티켓
온다
##슬리
원하
관측
LI
철수
수출
일대
첩
성남
그러니까
##긋
##orld
도적
##랑이
곤란
중립
자폭
바이오
카운트
생략
##오르
##일러
개국
##섬
표지
적당히
느린
수류탄
터널
상술
턱
변환
음모
어리
##곱
조별
클랜
마드리
기생
정하
좌석
쫓아
허가
합병
다름없
봐서
추종
##위대
형상
남긴
윗
소대
얀
사이버
실전
언젠
##늬
##크리
정기
후술
아랍
문구
였을
김대
어려워
내전
마드리드
읍
통계
1984
디스크
보험
메달
인종
차이점
틸
마디
밝혀진
##머스
만날
##ont
1985
말리
글로벌
최신
근본
물려
##보이
복구
지경
입지
언더
액티브
사명
타로
연예인
187
서포터
증오
SH
지뢰
후손
함수
이스라엘
스트라이크
용서
아시안
후배
에르
구석
##프라
오크
3000
똥
사정거리
위성
일족
지르
시너지
대인
크리스탈
오마
모이
AD
##ies
허락
커다란
LC
기숙
고위
DF
급격
자막
그랜드
즉위
모노
휩
리타
숙련
논의
##죠
느낄
하차
전주
부각
텔레비전
공방
lo
KBO
행보
어뢰
미묘
경주
굿
이수
토벌
##하면
쓸모
모니
감각
발행
해피
올라온
새롭
##돌리
네요
이젠
##타이
언덕
서식
It
뻗
왕위
망치
##슬러
##lay
연령
넘치
특전
기뻐
XX
준우
##넬
살펴
중첩
이어서
태평양
부딪
취약
가만
뜬금
구글
후원
게리
오랜만
제약
쿼터
블러드
루나
##어마
까진
아츠
노동자
무척
침략
저렴
정화
간신히
세운
##자드
총알
구슬
기관총
##OD
침입
세븐
MF
드롭
간접
일본군
생년
파르
##US
아르헨
방어구
히나
워커
흡혈
분쟁
법정
입대
제트
구리
헬기
든다
학습
혹시
균형
드럼
맛있
가동
전이
아테
CV
진압
강자
이스
##눈
카카
산하
WWE
남아
.....
##PM
아르헨티나
사귀
빠졌
##ann
잡아먹
곳곳
찬스
공용
텍스트
소방
스리
평생
양자
여우
분열
네오
NE
아이언
SE
어마어마
주차
잘라
자이언츠
##40
관점
인디
중세
신전
약화
악당
금방
정차
125
치르
##pe
##프ᄅ
##첨
이토
거울
##30
##뚱
포트
트랜스
애정
부적
느려
페널
결심
루비
가라
##픔
지리
속한다
나리
경상북도
딜링
저질
반전
제작사
부러
격추
옳
제출
상기
##네임
성당
앨리스
##sh
연고
보호막
your
이혼
따라가
크림
스팀
노스
통화
라기
토너
##라이트
##NA
호흡
표면
폐쇄
코르
##블린
##배우
뎀
사령부
아저
금액
결전
구축함
엘리트
간주
##마크
히토
악화
저택
보완
뮤지컬
미즈
창원
구름
이식
리온
##크라
인권
얻어
아저씨
도망가
지라
충실
멜로
##VD
##란다
채팅
스크린
CJ
김현
선거구
분해
AS
용인
상관없
피할
늘어난
##츄
더군
참모
아까
전파
가리키
초록
열매
주둔
지불
DE
사라진다
도라
인용
하루카
유력
##은행
암시
대왕
천안
##키아
##ng
프란
##io
긴장
정예
교과
떠올리
##천시
흩
멋진
토니
동양
유발
##플레이
문재인
돼서
서서
보건
존재감
헨리
성별
공정
우에
##셋
경남
체결
로리
시인
배포
학력
상세
소유자
##틱
릴리
수석
시라
커플
후계자
;&
사인
악기
다룬
답변
비아
드라이버
모자라
짜증
상영
##oo
토너먼트
원리
재밌
수호자
도둑
전승
로이
엑스트라
악명
행운
개설
##그라
써야
호기
로버트
170
언젠가
숨기
이듬
도박
Pro
무서운
쓰였
구미
본관
업로드
잔뜩
미쿠
일으켜
테라
이겼
기인
선두
플리
은신
에요
##ᆻ다
기숙사
기운
##싱턴
##월일
죽였
베리
##ave
뱀파이어
만남
양식
실종
교도
중량
에다가
지팡
##포트
요인
백인
##걸이
받아들여
쭉
벌어졌
탐험
##LE
정황
불사
부임
임신
보인
난입
중력
아동
처분
대책
임금
동점
괴롭히
LV
관리자
캐스터
디지몬
큐브
미키
심심
##번트
##아나
방송국
that
논문
야생
칼날
##릿
UP
항의
##베이
관계자
생년월일
해명
백작
시카
유독
탄환
분명히
##센트
베타
##우마
호칭
##슬링
복합
도루
서번트
카와
금메달
말투
윈도우
##ION
크ᄅ
동명
##ᆺ갈
생명체
문단
진주
자녀
##ream
와일드
패키
할인
법칙
수백
가방
##엣
다이아몬드
려던
발렌
ED
1500
어딘
단축
뿜
절차
정통
잃어버
EN
해골
분신
외계인
무관
달하
쏠
마신
영광
기상
따온
운동장
루이스
데몬
어라
하향
온도
시합
선보였
라틴
이듬해
귀여운
주술
##드레
닛
분대
프로필
인력
리뷰
##ond
창고
1982
밍
->
딜레이
부스터
기름
이온
왠지
들어왔
리오
끔찍
광장
로얄
플래시
##게임
미네
##팩트
##iss
Com
5000
막내
사살
의학
기둥
가려
창설
뛰어넘
보드
전동
니스
건국
성질
전북
셜
조리
한쪽
신지
유인
##일리
공허
체험
싸웠
레딧
장인
나마
부사
퇴장
그렇지만
물고기
유격
존경
집착
민첩
커녕
울프
우정
##운서
삽입
디젤
아나운서
##탐
걸맞
걸린다
상식
##에르
참가자
아키라
승자
1950
공산당
##카이
##IP
망가
##11
창단
요약
휘말
둠
엔젤
가르쳐
시상
감지
시원
작년
부를
진학
시공
모터
솜
증상
그램
전제
독재
아인
마블
스케
수면
조기
1983
하츠
의장
애플
불펜
##60
학기
##다나
출구
##ian
복제
??
by
##이어
##소녀
##앤
의해서
놓치
오디션
##도르
he
싫어
나츠
웨스트
샌드
유산
천하
힐러
##그리
비전
덩치
##커스
철저
##뛰
선제
발굴
가공
여주
조이
##룩
BL
하이퍼
불렸
단원
깨달
투스
스위스
유전자
다녔
스폰
&#
반박
어두운
##유럽
go
그럭
레지
트럼프
맷
일으켰
항구
탕
구할
타석
리스크
어렸
##놀
미만
##세대
돌입
##저럭
안녕
꼼
갑작
코트
중형
스쿨
겹치
콘텐츠
##티스
스위치
동인
다카
비주얼
그럭저럭
싹
사법
주니어
##쟁이
노바
알아보
##Hz
통로
준우승
배정
걸렸
##TV
돔
수명
백제
마스크
사용자
대거
어필
씌
히라
이드
출격
기재
휘하
상륙
라이플
논쟁
쓰여
웨이브
럼
정교
열렸
이펙트
본진
슬래
단행
대조
자전거
다녀
가죽
##투스
배트맨
보충
살아가
토마
팟
##틸
##ory
딕
신도
##베스
##우리
훈장
호소
##필드
##TE
시리아
회담
스트레스
식품
격차
국장
축복
빅토
인질
##ace
##rom
케인
코미디
Co
##늄
##세서
실책
##틀러
폴리
근대
완결
위안
Bl
옹호
학문
파편
##카이도
태국
##춤
평양
지사
공화
유기
마우스
##레이터
##즐
;&#
경전
라니
공립
##누스
갈아
워싱턴
두들
팬텀
트리플
부근
무너지
적중
DVD
##필더
올릴
승인
미드필더
Br
원문
오키
토지
침묵
반해
돌아와
소음
빌려
##팬
마케
메이드
시켜서
##부로
소요
기갑
기동성
##끈
경직
플래그
부실
Or
중국어
세부
##뚝
노려
##oth
쓰러뜨리
와타
근거리
께서
뱅크
축하
해요
배출
##ows
내각
막판
결투
경상남도
곱
##ᅲᆷ
보이스
##산시
복선
시신
오염
트루
솔직
파동
방위
##MP
우르
연습생
마감
동계
남매
리카
수능
디즈
내일
삼각
루스
옮기
간단히
차체
과학자
휘두르
후퇴
동급
기후
##잠
아포
고객
임기
날카
##TS
##꼽
철거
센스
넘버
##빵
우세
##먼스
헝가리
무작위
수급
왜곡
상담
학위
손상
롬
##화점
##신교
##든지
국정
노조
한반도
##무시
괜히
지향
규격
무인
아끼
##IG
영지
장거리
야수
안개
##곽
##셔널
램
CG
약탈
마법소녀
일당
드러났
중시
하마
##주교
기세
무사히
##그나
##경기
##aw
늘어났
##잘
선행
185
##하마
토크
라라
쓰러지
유성
요한
##텐도
닌텐도
패키지
##딱
최상위
했으니
멜로디
장탄
싱크
떠난
휠
과도
##포르
미나미
##몸
야구장
콰
비치
간간
신발
대포
세인트
양상
록맨
성전
##ale
SNS
출루
사라져
카츠
프리미엄
지칭
타쿠
그날
끝난다
즈음
골키
변수
개발자
PV
##에이
킬러
##메이
스트리트
틴
주류
챈
##ike
륜
대치
모데
독일군
개별
해치
페이스북
후자
밝힌
##하시
무산
특별히
더군다나
여러분
영원히
임팩트
저러
사키
##밋
전망
장사
자르
초인
새겨
1945
입주
어딘가
물체
Cl
챌린지
집권
벙
업계
바디
농업
모로
For
무시무시
##틀랜드
군수
부착
원조
흰색
데이비드
동남
##야수
암살자
첼시
매번
주어
RPG
나미
왜냐
청주
만주
##OU
중복
브라운
##자와
Dr
커지
질병
손실
쏜
오이
야마토
데모
최적
악몽
##바닥
서서히
필리핀
##ep
선조
취득
##irl
벌였
##man
피트
폭행
핑크
동아리
##ach
##ile
175
동경
수비력
넨
리프
1981
Sc
인방
BB
바뀐다
여인
##여객
호랑이
골키퍼
OP
##블ᄅ
해양
부동
올스타
서클
구별
102
어이
##공항
잠입
줄어든
헤르
117
지팡이
꿰
##로그
고장
몰리
진격
인피
가진다
퍼지
파생
끊임
향한
##12
##슬라
Team
106
닐
배역
라우
못지
잎
교토
룩
##VA
LA
해킹
물량
##철도
##ink
플러스
Sk
선임
일으킨
일람
파울
제독
리라
아닌데
퍼포
의외로
사회주의
굵
Mo
내려오
체인지
퍼포먼스
페널티
##뇨
신나
직장
GP
합계
권위
중장
가만히
국당
기호
잡아내
레코드
공수
청와
DD
##데드
웰
마물
무술
115
쌀
##아키
응용
김경
세팅
사립
캐릭
데이트
코난
가져오
팡
원형
제네
이웃
평점
이종
약물
메이커
가디언
기동전
주행
귀국
언데드
신입
최우
##블로
연산
스펠
##ial
FM
##승부
풋
청와대
톨
캄
밀도
투쟁
개장
##토스
##킥
##ish
나빠
엘리자
##아이
장로
국어
틀리
당대
에릭
SU
파란색
1979
건가
서기
나비
후임
여전
풀려
에디
긴급
집합
UN
이와
만만
냐면
배달
엔드
카트
커서
징역
챔피언십
억지로
스파이더
프로토
포즈
오스만
선사
동해
테츠
합리
친한
쇼핑
개신교
분포
권장
오우
장신
김상
기장
행방
추방
##ower
택시
저하
천연
##뜨려
공백
회색
감동
##네시아
안양
전무
해산
발리
은지
일화
며칠
궁금
프리미어
연구원
독점
증폭
신자
수동
##플리
##슴
즉사
모스크
확산
##II
명의
관여
야간
주관
Bla
면허
교단
여학생
다닌다
공인
방치
스캔
재회
선보이
바꾼
임의
모집
폐기
듀오
##하르트
빌딩
유미
##오루
##앉
대단히
조상
혼돈
이글
라이너
만일
명백
김진
고인
##GE
저지르
전남
썬더
몫
##운동
맡기
프레이
코멘트
감상
아레나
캘리
바둑
성경
렌즈
버섯
사무소
CH
매출
도마
##늦
분당
we
캐치
고블린
##ᅳᆯ란
자비
피닉스
##벌레
스즈
발목
토시
돌연
BS
##IM
출간
조명
타이거즈
처참
Ne
##!!
##비치
불량
Star
벨트
오메
장미
광산
올라갔
깜짝
광선
박지
로빈
승무원
드릴
김기
##듯
리코
눈치채
거친
펴
이어졌
전라남도
달라지
구성원
드루
포켓몬스터
비웃
시트
상관없이
놀리
가까워
복원
처지
PR
해머
우월
고소
실장
ID
우주선
고로
##벳
막히
질투
히가시
목사
쿠라
스타디
되게
통틀
하인
평일
계수
##히코
간호
지연
난사
와카
##번에
배급
##쿠라
Wind
##를로
미국인
버드
수색
화산
바꿀
350
라이온즈
닝
유출
협정
##99
유언
##벅
세리
파이트
수립
탐정
터져
엄격
시외
조롱
up
##그ᄅ
##라기
풍부
무스
##전자
붐
스탠드
자꾸
운수
우유
줄여
서포트
LP
재학
파멸
심의
DC
골렘
한두
우익
##카락
국무
산맥
War
머리카락
fe
체감
And
정발
펼쳤
스텝
시바
의자
호시
검술
온천
##체스터
도저히
##ass
미루
텟
당사자
청구
치열
베ᄅ
나기
모험가
말ᄊ
합동
##브라
육상
토미
##타카
알라
포장
치즈
국제공항
뒤늦
사이코
##ms
반부
##me
키타
젤리
시사
올라간다
360
Man
레일
소용
실내
이라크
오로지
오니
다운로드
본토
진이
112
마코토
축소
기력
권유
특급
조용히
극도
에픽
규제
디즈니
승진
##펠
배수
키워
메이플
##gh
시비
따뜻
둘러싸
트릭
우치
##CG
세라
낙하
비명
루머
담긴
##가드
108
루크
##뮬
러시
##도리
All
세일
려다
AKB
나노
티아
거둔
극한
##tle
하계
니아
##pp
##ble
##amp
충청남도
반감
범죄자
바르셀
지인
루피
오락
출범
바르셀로나
##이나
바른
스테이
비유
간지
우즈
뮌
##ft
지목
여섯
수직
친해
베이징
페리
안쪽
토큰
##농
중지
단종
이걸로
##궐
일요일
103
프렌
수월
스러워
경북
세금
탐지
폭파
황후
##거지
능력자
넬
전당
협의
바니
리즈
어시스트
##yle
스타디움
서머
##70
그래서인지
실은
이글스
여파
신데
##ous
중순
물품
직선
메일
망했
미르
실현
배제
조우
모임
##졸
##사이
##now
베테
##atch
##sp
신학
막아내
리버풀
카구
불행
살펴보
분산
##튀
돌아갔
당당
조커
One
타르
다스
Mar
아가씨
모듈
##orm
귀엽
수염
미미
생전
손자
김해
평론
얻어맞
캐시
토키
유의
신용
New
To
##뚜
ON
명문
퍼부
엑시
모음
나섰
거북
타일
주어지
기묘
드론
추세
바론
여고
무승부
떠오르
ex
체중
막상
저지른
낙선
##스티벌
##ᅳ릿
나루토
나요
진상
사리
페스티벌
##버그
챙기
그만두
알바
수비수
IN
경악
토요일
던가
BR
맥주
하프
##민주
천문
##구나
까이
Part
스미스
수습
엽
태풍
뤼
가난
더빙
채보
KR
지녔
기수
가질
마카
연봉
함락
김용
Gam
할로
##쿨
강등
칭하
쳐서
##렐라
앗
비극
센서
강사
시로
되살
SF
주최
후회
패전
부ᄉ
힙합
홋
##ING
대성
극히
집어넣
잠실
산탄
고속도로
CS
좌절
적자
엄밀
국판
듀스
##뒀
명목
시달리
배려
동반
팁
##쉽
엎
끓
훼손
스핀
꽉
햇
인접
유망
대시
노가
실시간
개척
코마
##ment
철권
리가
기부
PP
##방송
에로
에반
사무실
##ae
흔들리
바스
반짝
케이블
야쿠
주체
늙
##64
하여
머무
##더라
128
뻥
원시
스티븐
압력
상반
고증
모스
장탄수
꼬마
캣
젖
샤이
자아
스테이션
##불명
유재
혜택
투척
도장
##뜨린
신속
포탄
닉네임
늘려
##클ᄅ
인자
##ase
혈액
호남
중화민국
##사기
배드
코믹
우드
농장
십시오
마땅
##잎
아이러
각지
##ree
장성
쉬워
이타
쳐들
사나
재개
바지
조카
고치
역습
추리
주교
걸즈
구르
매달
음료
유니크
휴가
벤치
히틀러
반도
##밭
암호
쇼크
내린
구조물
소니
버려서
고시
찾아보
에미
짙
도리
구장
날씨
샷건
##구장
변동
총장
En
캘리포
챔
##킷
네티
나르
확장팩
퍼즐
생길
쿤
##노리
##어트
제갈량
얽
그라운드
물러나
시상식
짐작
1978
이긴
##사리
질서
1973
오페
근원
믹스
레온
##들이
JT
함부로
##렐
##저리
느꼈
트로피
해병대
두들겨
어쩌면
184
사퇴
로맨
##우치
거론
들어와
오브젝트
##az
그치
##bo
아ᄐ
대행
캘리포니아
보라색
흔한
##혀서
찬성
라즈
첫째
##된
거든
갈색
짐승
AN
상사
가담
깊이
나뉜
각오
인재
##앞
여의
사로
World
##ason
뉘
양손
구동
##AY
111
##러그
갖춰
##딜
##케이션
그랑
샵
속한
쿠데
220
여럿
지워
비틀
##바르
안심
호불
##iki
호불호
퇴각
무용
백화점
껍
최저
##돌이
혁신
##베리
사야
공감
갚
183
크레이
강림
메트로
키보드
아ᄏ
정반
감싸
결제
지수
##키스탄
킷
베기
감수
가벼운
JP
##저기
오더
포스터
쫓겨
동서
프린세스
말기
트레이너
진급
마계
##이너
전날
계층
베어스
리미
고무
쏟아
네티즌
##테이
내게
원더
알렉스
시그
동아
가르치
##버리
##ear
So
중동
경호
빨간색
나스
대령
특별시
피로
동행
산타
흡사
##hen
후반기
하하
렐
##끗
장례
셔틀
노란색
여기저기
중부
장난감
마오
240
일어날
았었
사관
막강
타이탄
기리
리처
##MS
뜬금없이
신선
건네
접하
sp
수지
맞춘
퍼져
세뇌
##ᆯ릿
엔지
그거
핀란드
학생회
##키스
아베
##are
포획
드레스
견해
FW
무섭
베를린
##기에
탐색
드문
헬리
##릇
##스트라
요미
클린
인과
보좌
유혹
GO
매주
선수단
옴
##넌
먹히
양반
##붙이
교복
패밀리
유입
봉쇄
모은
국도
후미
페어
영감
우호
강렬
원곡
스코틀랜드
연쇄
뮌헨
상주
입자
##직자
케이드
선진
1974
##차기
워크
방송사
무공
문화재
마일
프랑스어
생체
재건
tv
클론
우측
박쥐
려다가
소재지
트라우마
##ᆺ불
##줘
줌
도어
해져
역명
점유
운송
토대
즐겨
콤비
방탄
무실
경찰서
아이러니
드로우
위로
왕실
결계
김준
와인
서바이
잭슨
흙
약자
신중
공격수
결혼식
세로
데려가
http
수여
##하나
침대
지부
1972
연금술
마라
복사
##90
##ven
끼치
래퍼
트윈스
##ife
굽
커스ᄐ
포터
쇄
관료
화폐
도덕
제물
전락
비스트
집회
기스
통칭
찾아오
바나
https
##싸움
윈드
##스톤
로이드
완공
튼튼
트랩
첸
##ade
허무
장판
프라임
순양함
리안
##AP
##으로
다가오
Wi
취업
##베이터
프론
역량
디시
스즈키
선장
탭
소금
콘솔
폭스
코스ᄐ
탐사
##박스
라마
세자
덴마크
영양
출혈
될지
##렉션
강경
디오
흔하
##와라
우회
##던지
쓸데
빈도
##act
도감
MB
##웰
##데레
글씨
~!
##ai
대타
일곱
홀드
##ank
아바타
##깨비
##gin
도트
연설
할까
이순
억제
튕겨
여단
간섭
%/
관통력
해라
카리
아ᄁ
상무
공대
낭비
do
단행본
하스
졌으며
##aby
루프
히든
부작용
노무
메이지
오노
모형
창문
104
영화제
청나라
승차
##out
전동차
##으므로
인도네시아
##ᅳ르
소통
법무
Fate
싼
no
트레일러
##흔
전격
침투
성씨
술사
비추
재직
태클
워크래프트
페미니
손꼽
푼
기다려
당초
매니아
한창
붓
다큐
돌아간다
1975
쿠데타
커스텀
라크
마피아
##lect
시카고
신데렐라
실상
타가
히로시
LIVE
간간히
부재
##톨
형편
백업
제재
파밍
띄우
123
설령
손오
출산
라가
성실
스탈
우루
깃발
##트리스
끊임없이
##ET
범용
##에른
##우트
##토니
공산주의
장애물
까마
스나이
경연
강간
김일
할리
스트라이커
##oll
NH
우승자
벨기에
끌어들
##스레
전향
소득
고쳐
##폴레
시호
스타리그
검증
조종사
##UM
##스틴
##모스
토요
중점
Up
품질
이른바
왕비
OS
노르웨이
여타
카자
1976
라스트
##다보
are
근접전
소나
말레이
나나
변이
치ᄅ
항해
외곽
III
##ork
렉스
##추어
##천군
크라이
스피릿
##륨
굴러
파도
성분
강릉
최선
원주민
일리
정석
마산
사악
##버려
사사
을수록
대접
혈통
섀도우
모니터
그러므로
##렷
발명
판사
이어진
유료
##바야
Do
단기
##ary
이어받
하급
구상
차리
특공
선박
리모
카더라
맞붙
Oh
제왕
공통점
왜냐하면
검열
광물
##way
하반
티스
전생
찾아내
왼손
포도
스텔
치러
넘어갔
##루션
동전
입문
119
브라이언
키라
유연
##바지
트리거
친하
천천
중상
해질
쓰인
명분
탄핵
##ey
마틴
##ich
명사
공헌
변해
고종
화해
장남
전송
원장
사로잡
##께끼
135
수수께끼
급행
소모량
중심지
단검
109
##슈타인
##모함
초콜릿
##어내
중고
김수
원한
박정희
미지
바이에른
초상
우울
코스튬
중기
지선
##저우
오지
##타입
ES
중위
트롤
확신
##콜
대변
##플링
Mk
공단
입증
베테랑
한나라
일체
모스크바
잔인
날뛰
##능력
한나라당
##키리
관우
치우
벅
이스트
엘리베이터
검토
오페라
시모
저자
너머
수인
시게
Ad
잉여
예약
시온
친다
단발
조국
부패
질주
친절
찾아볼
불태
손오공
대법
아이디어
lv
땅볼
부유
##샷
대동
겹쳐
처하
긁
##벤처
바치
교리
all
##동자
Day
어드벤처
##페이
진단
떠난다
강호
발판
보스턴
아스카
성배
##헬
터스
유망주
천황
찾아온
케빈
콘스탄
AFC
시외버스
곡인
느낀
이어진다
스태프
도쿠
부속
퀵
##뜨렸
이병
스트로
에버
천천히
nd
체코
버스트
렘
정해진
압축
##하루
충족
학사
##pt
고는
182
##orn
##크림
과자
카카오
이현
메리트
니혼
니콜라
##툼
카시
굴욕
구독
준다는
무제
드러난다
도깨비
그릇
##ᅦ이머
프로게이머
##올리
분할
올드
동정
손님
오메가
붙인
강전
화상
##둬
군부
자제
연수
나폴레
루마
토마스
친분
플랜
어색
후일
대박
라이언
지붕
되돌아
히스
위엄
민중
아지
싱가
싱가포르
항공모함
디자이너
평등
닦
마트
쯔
##가루
121
존스
홋카이도
치카
미궁
레이디
나폴레옹
마운
지력
##ᅳ레일리아
고고
얼라
삼성전자
라그나
따왔
1971
땡
일관
발레
##어져
##본다
머니
Windows
##첼
##의자
으려는
##네마
쫒
왕복
얇
레이블
박살내
와이번
FF
##톡
동구
이럴
테이블
폭격기
스택
에이지
이어져
145
물어
사촌
극대
107
아님
맹세
디펜
속해
망명
톡
="
이모
이경
현금
RA
열정
가져다
꼽히
잡아
이틀
찰스
엑시즈
광기
합작
1977
진에
점검
강점기
지오
대전차
##ah
김포
기르
엔트리
##EM
비리
일가
하이라이트
카리스
여포
질량
유탄
키를
창립
DP
다가가
변태
종결
썸
##사스
원숭이
후드
촉수
##니시
하사
기차
작위
무거운
마타
ML
아아
고집
사체
AA
엘레
퍼스트
묘하
##very
##ᅳ롤
신동
두려워
자율
리퍼
##uck
마술사
보고서
##클레
재배
존중
조화
츠카
본질
그레이트
독일어
표절
##막지
사족
무지막지
챔프
총합
오렌
원전
멈춰
ne
천장
선교
IT
공신
평행
날아오
엔지니어
본다면
나뉜다
보르
스런
br
석유
구로
그쳤
쳐들어
중거리
자존
감탄
브라더스
임진
자네
놓여
전라북도
피카
##ph
Sw
부숴
DPS
젬
자책점
BPM
게이머
바이올
JTBC
소집
정사
지분
농민
물자
란스
210
스포일러
메카닉
카마
봉사
노무현
연간
해소
178
인칭
##ero
몸통
울리
스가
저기
1969
움직일
과일
##자치
113
손쉽
유가
이대로
이이
스티브
털리
관장
리처드
".
대위
유격수
쿠스
교과서
굴리
무실점
착한
리틀
교차로
##ool
타구
사수
서적
동속
검정
레이어
노가다
165
##바나
오스트레일리아
광명
브레이커
마유
으라고
어나
아닐까
##둘러
김지
1968
하치
맨체스터
동대
솟
댐
##루미
1963
냉정
이오
데빌
주식회사
철저히
##ical
총독
뜬다
토트
쨩
놀라운
건데
불쌍
##그러
빙판
명시
아픈
출판사
시골
NBA
부원
프랜
러스
힘입
입사
필름
슌
주축
장타
##urn
부산광역시
가구
뜨거운
착륙
##퍼드
겜
백만
##ype
다니엘
Ph
병역
블리자드
탄압
실체
슬픔
##ARD
부천
Con
2021
말씀
에드워드
윤리
모순
##구미
배웠
##anc
주사위
호의
##센스
스노우
매각
##ᆺ속
고아
광경
마당
제니
지장
깨끗
유치원
터보
미오
알아내
매드
섹
불능
마인드
스폰서
페스
훔쳐
목걸이
지로
{{{#
어벤
부스트
##은색
김유
155
서열
##프로
배운
완화
지혜
용산
올라갈
Cr
변장
##ung
참사
평론가
태우
엄연히
줄기
유니버스
뽑아내
이라도
카레
멍청
OVA
한다며
수천
김승
울트라맨
싸운
답답
##멧
명명
우타
바ᄈ
문양
하나하나
보편
변했
슬라이
개명
122
Qu
서류
트윗
상금
납득
미러
초청
워프
##항공
배구
모델링
씨앗
외국어
평상
시뮬
Station
181
레인지
##테일
프로그래
제리
다닐
##업자
압권
TVA
이노
뚜렷
롤러
치안
열혈
가설
144
중구
정문
들어올
난무
친척
진동
펠리
취재
##떨어
련
집계
디바
중원
박수
엘리자베스
##소년
본능
수위
##시피
LO
발키리
향후
##ww
고사
앓
절친
좌익
아닌지
KOF
재앙
철갑
마케팅
##네이
자산
서명
##ᆫ다
주석
리나
싫어하
헷갈
성명
깨지
오죽
우연
녹화
고등학생
##끼리
이케
##iver
도심
케이크
우린
카지
애칭
무늬
##잉
초능력
소생
작정
어나더
at
패자
행진
서방
브래
강민
##들리
쿵
국토
사연
사직
시조
##DD
잃어버린
신하
베인
곤충
일까
어이없
152
서울대
일렉
테스
잊혀
아리아
지낸
드래곤볼
유아
용암
골프
love
##쥬
결의
로프
괴로
아마추어
경부
실용
액체
학대
실사
##폭탄
이태
시어
##ens
경사
산소
국방부
정성
발발
호크
벌인
멋대로
쫄
이대
자사
쿠니
##리나
마그
표적
츠바
전지
as
즐거
워터
편리
슨
벙커
트릴
사우스
좌측
##밤
일어난다
유엔
안타깝
##ost
스카우트
민간인
도색
##이동
##르타
TR
##스리
자칭
##테이션
침몰
114
엄밀히
##ᆺ말
워즈
가리킨다
사투
주머니
이소
마음대로
스케일
##워즈
##ence
1930
##흉
우마
다케
라이즈
거지
wiki
몰살
예쁘
잠들
마하
##마리
끝날
박성
인성
만점
미성
IM
##nt
변명
의정부
직책
##마루
##넨
개교
초록색
망토
##변이
개구리
돌연변이
from
기질
초점
항모
##ise
루리
옥상
각도
코토
각인
샀
법사
웜
##int
리본
##시스코
##버렸
이진
버틸
변한
습니까
파운드
텍사스
##롤
이누
1920
##이크
원피스
맞춰서
템플
마모
모시
##뱅
아자
##폴리
스컬
포크
망하
179
방학
만능
이념
고의
정밀
!"
##하여
아냐
발급
##AK
유스
통째
죄책
등극
학급
Super
이원
포탈
즐길
에디션
MG
Fr
격려
1940
이명박
BJ
can
##oy
로라
##지능
용자
인공지능
동성애
조항
아담
방심
##딴
포병
슈퍼맨
미인
혼인
이른다
정신력
제치
이빨
www
##ign
발탁
쳐도
적절히
##켈
CM
선동
오렌지
엉망
싸이
관직
종영
엮이
인벤
연전
##ans
협동
써도
바쿠
177
북아
익히
마찰
왓
안동
일커
돌아갈
일컫
기소
어설
대역
##타운
멧
제사
남동생
##부지
죄책감
소비자
##과이
튜버
끼워
에도
추후
달라진다
네이션
리사
호러
##ug
포착
최순
Dream
헬멧
펌프
풍선
##팽
정반대
갯
게르
다거나
##바이트
장벽
##바야시
아케이드
공속
감당
124
이윤
밝혀진다
은폐
##전차
블럭
##이치로
억울
1967
##야스
금강
선로
너스
어려울
저서
크래
닷
니다
##느리
##베트
유진
더럽
갱신
고가
원로
커스
버텨
반경
127
다시금
준다고
##글링
마에
USB
킴
해냈
그해
아무튼
오른손
교역
타츠
오다
협조
펭
페어리
나인
정점
씻
도약
용이
예의
##트론
##짱
아사히
부동산
아울
아쿠아
신곡
해운
시오
놨
this
##IR
인해서
내기
##뒤
유카
##나베
페르시아
1200
퍽
중국인
##코트
##vel
분홍
##셈
보낼
깐
쉴드
타치
450
잔혹
시타
실리
고발
카운티
부채
아이디
연동
다비
쿠마
왕족
두드러
기본기
피오
##철수
욕설
##ᆸ스
독립운동
##질랜드
보낸다
컴백
##지사
부시
ERA
##ode
군요
민감
뉴질랜드
출동
교도소
초과
필립
크래프트
아메리
누스
절벽
선원
카테
##uk
강했
##VER
버거
##젤레스
수신
지역구
떨어질
##빡
대차
비단
내보내
##쭉
호드
시크릿
네크로
가져온
수감
무도
후쿠오카
사방
어ᄊ
침착
갇혀
사무라이
Fl
발각
방침
스토어
뿌려
밭
Pl
감자
후유
회관
변한다
물리치
덩어리
부친
청춘
대세
팔라
툰
어려웠
물려받
마친
젼
보강
Ver
스로
밀어내
대피
바꿨
##나기
베스
##역사
연이
제의
CE
##생활
슬리
얹
칼라
그러면
섞여
자이
구형
급격히
저질렀
키미
스케이
게끔
EC
종전
철도역
진에어
부스
디스플레이
EXP
##텍
연소
카리스마
재즈
##공사
style
내외
함장
애완
놀랍
측근
쌓이
##민주당
발전소
떴
히카
방사능
말라
번지
날카로운
##헤이
그란
선포
로렌
꾀
스쿼
코스프레
코노
애인
가마
실존
겔
레나
유재석
##셨
##ier
마야
아랫
신한
궁합
가위
퇴치
미쳐
반성
토라
판도
강대
현자
카쿠
리바
격렬
기법
분자
워리어
산다
Sch
가오
예방
미아
잔류
##페이스
##나와
김구
Girl
당국
Season
사물
##뱃
인문
##틈
1962
##ash
징계
IP
오퍼
앞선
러쉬
박자
문신
##속기
왕가
부드러
ar
자이언트
근로
La
이놈
모빌
올린다
DM
##섰
시시
모욕
전담
화기
약혼
강타
NO
아름답
반역
##슐
162
이카
흡혈귀
##띠
유동
이단
정조
흑마
tr
사치
중견
118
흥분
왕후
종로
높여
친애
지루
올라와
화석
WC
시종
가져왔
점심
터졌
쿠바
퀴즈
##끄럽
고립
피자
제주도
그루
노아
기동력
카네
분배
##reat
1966
##IX
입힌다
아처
팔레
벨라
유우키
브론
타리
이용자
겐지
명나라
위쪽
부가
카피
레이싱
틀린
##꿈
단백
타이어
##렙
##ib
황당
만난다
##시고
박진
경성
계곡
실린
벌써
이행
부끄러
김치
314
달려가
##돌프
자존심
학술
달려들
##딸
##치아
##뱀
생김새
감추
제노
위해선
스나이퍼
건드리
던진
태생
탈환
##usic
월간
##끄
Max
##사랑
##보기
중소
피지컬
남동
##탐정
우두
관문
날렸
었었
일어
##우라
실적
로스트
한양
망설
750
입시
##방울
1964
바시
덧붙여
금요일
대검
뚱
골치
그간
홀리
안무
능가
적시타
불길
##수리
스프
Vol
TS
사와
뱅가드
숙소
라미
소서
유고
DNA
##트릭
여태
그쪽
정전
토트넘
잼
어째서인지
오케
내셔널
얼티
급속
스파이더맨
Ed
아오이
천상
##}}
##렉터
--
궁전
시범
중재
요격
##ose
ld
할로윈
통솔
노라
레아
모종
성사
대학생
코파
중도
나이프
사슬
헤라
탈취
스피어
진술
스타즈
##트럴
로키
AV
존슨
에메
까마귀
직위
한꺼
한꺼번에
##닛
##시대
소소
입원
호리
괴인
과시
나이츠
황태
도르
amp
욕망
계절
쓰리
##서스
불참
Col
비비
혼합
##부키
##te
야당
so
생태
넘쳐
기껏
피치
##미터
오만
시킵니다
학년도
항공사
GM
비자
저글링
점멸
HE
모인
질환
미정
##사르
극심
##ail
##msys
페르소
날린다
우지
##ition
ldmsys
원판
카를로
간판
케리
안겨
스탈린
천국
충청북도
스탭
히드라
터뜨리
이별
테르
도대
필사
과금
욱
마기
내린다
rd
보로
Night
각국
하지
##구니
욕심
BC
차장
아비
마르코
테리
얄
상냥
토우
나들
강인
not
조립
레버
시안
회로
##당초
모아서
앨런
태워
미녀
고추
나들목
스타트
리버스
##워프
##IL
군데
이사장
스모
김주
알렸
잡힌
뻘
아케
단자
스매
승패
지지율
##겔
요코하마
암컷
공국
##히토
얌
##ild
빠져나가
##랭
하여금
168
일일
##아치
김광
페르소나
오토바이
Let
수소
툭
##ᅣᆷ
조르
지크
물약
도미
제발
병행
##티노
희생자
디아블로
오사
실려
키요
학회
피난
단백질
탔
슬퍼
굶
상부
##깃
스크롤
난민
##ody
바텀
만렙
테니스
등재
목욕
사탕
빙결
Black
어원
펑크
159
##바리
한가
일환
여겼
코끼리
밀리언
갸
신작
무녀
스윙
이승만
##세지
미노
도배
퍼펙트
BD
평택
무신
##클린
말레이시아
껴
라인하르트
부처
예요
아마존
인쇄
리자
여주인
해변
##진호
옮겼
쓰러진
해역
오즈
파고
아리스
신생
##빗
팔리
화신
금발
무지개
환생
가이드
##브로
둥지
삿
마도카
터진
대니
두꺼
싸운다
직행
1948
배울
mar
##스카
##ough
깨어나
마쓰
응답
해전
발사기
아메리칸
국기
##렇
까다로운
진흥
맑
까다롭
AF
늪
뷔
MM
절단
엉덩이
1944
미소녀
세례
도대체
모의
무능
1965
성벽
OG
부제
히사
##33
##모습
명장
시켜야
쿠르
유머
중공
일조
로스앤
로스앤젤레스
퓨전
스텔스
섬멸
못해서
노부나가
충남
석사
방언
프랑크
회계
불상
스쿼드
노릇
아카네
##멘터리
주저
끝났
RE
섭취
울음
와이번스
수중
수아
모나
말려
때로
약체
필라
4000
눈앞
모았
Op
##gr
일명
들키
대국
조수
안토니
찔러
좌파
전임
##타리
빅토리아
지면
사임
카일
꿈꾸
고래
동상
집필
객관
출석
##aster
차가
접수
빌보드
공교
##무지
외야수
급하
##app
마을버스
그리스도
메디
##orts
끌려가
평상시
목포
확립
비평
인피니티
이나마
선회
피우
사이토
대안
##성군
그리핀
슬ᄅ
낮추
뾰
아유
대승
연세대
짠
유메
##uc
보살
쿄코
사르
베이비
사천
두루
교향
에코
드워프
애용
혼혈
1946
##고속도로
십자군
아수
신관
##은이
공동체
워드
성지
이계
주공
PK
다큐멘터리
##ᅩᆯ
주입
마르크
##시티
루미
해고
장본
알렉산더
무자
옐로
서울시
최상급
보우
컨디션
그려져
적힌
츤
그랑프리
코레
동북
위시
휴게
늘어난다
스카웃
김대중
##CE
이무
주파
챔스
스기
##ject
대면
en
편의점
스타워즈
껍질
평판
이니
교대
##OO
EXT
##ᆸ트
탄소
침해
..?
카토
블라디
득표율
가령
되돌리
아쉬움
##ari
단련
줄리
폭로
프랭크
math
낯
믿음
카게
자력
컴뱃
전도
방안
줍니다
면제
수컷
사지
퍼시
민폐
집사
le
휴대폰
AL
리리
흑막
진도
테이프
CR
독백
크롬
라비
히로시마
솔저
정서
팜
숙청
소마
달인
섬광
아르바이트
EZ
리프트
돌아올
두려움
막부
성대
##프란
리부
타우
##각형
와타나베
구호
달콤
밈
큐어
경제학
항성
원자력
##iel
감성
우미
사이클
공명
대해선
단서
##클리
강동
벗겨
지각
냉장
남학생
##퍼니
관광객
151
홈경기
##리얼
##미르
줄여서
찬양
하와
보복
격퇴
138
아름다
Gu
신념
스틱
로비
신조
SA
던지라
가해자
장본인
티저
늘어
광복
남양
개업
320
하도
172
##려고
기하
GSL
눈동자
은메달
##애나
타카하시
뺨
날아다니
정우
휴먼
벡터
수성
##오피스
틀어
뛰어들
으신
상시
남한
그려진
가이아
##TA
막혀
제라
김병
천주교
ATK
##ats
순천
다치
##ye
##도전
의의
정답
어벤져
단역
보직
강아지
변함
EU
##eah
##바람
견디
불화
동아시아
개막전
자루
주한
315
수라
시네마
나란
1961
##총장
##부인
컬렉션
걸까
풍경
GD
서바이벌
일각
천지
고맙
배후
걸음
테레
##중간
얼티밋
배리
투고
고난
TOP
마쳤
Mag
오공
158
균열
동사
##디스
대교
어제
다간
오른다
내정
그리하여
라이드
샹
CL
표기법
그렸
트러
볶
상원
##뜨
재질
도스
탁월
##다드
깃털
흑역사
카사
손잡이
가왕
악행
캡슐
무한도전
통보
스칼
##이센
마미
스톡
시련
추모
짬
로맨스
AB
민병
NT
##꿉
물리학
##쑤
여수
ver
리믹스
수확
카이저
흉내
동메달
내면
일산
숭배
비키
루마니아
UC
##oh
구울
##eth
드러냈
바랍니다
로제
이순신
충고
표식
##ron
위함
박스오피스
소꿉
쿠사
스파크
슬라이드
섞인
제대
독보
결과물
병살
##세요
올바
이세
금고
##룬
##ings
다투
아이즈
##짤
주차장
이호
##겹
김일성
마주치
노비
청사
쿠리
유마
구제
아스트
##메리카
사범
신상
제인
어판
유한
그레이드
매그
건립
레이지
176
공로
도요
파스
##운수
컴퍼니
방정
크라운
돌아온다
도사
떠돌
다저스
딥
삽질
will
간파
운반
펌
지미
Is
ME
재수
예고편
리플레
아무렇
테오
보가
##떡
##저래
직무
원했
##느님
계략
저항력
테란
병과
호응
발톱
##inal
궁수
심정
##==
126
차림
김윤
신임
1949
오로치
로크
드러난
안드레
정의당
마수
Am
과격
대명
완벽히
하느님
자작
기온
폴아웃
##성이
승려
자카
상어
친일
치렀
우두머리
이점
10000
식스
몸매
주의자
Don
보루
문법
팍
감금
퉁
유라
서원
타스
으려면
##ult
랴
크로우
라이트닝
무선
바이킹
응급
코로나
테크노
154
맡겨
사망자
like
레시피
LE
패왕
세르비아
##케이
총사
흉악
WH
방울
맷집
{{{-
블레이
KB
뒤쪽
Time
리볼
132
##총리
##MAN
내려갔
주황
##핏
전법
총선거
법안
유해
튀어나오
드루이드
##인드
무비
웨폰
거꾸
김성근
레슬링
센트럴
아테나
걸친
난리
new
##넛
##덕션
성폭
##런트
베어
어긋
성직자
강서
##13
멸종
떨어뜨리
기뻐하
응시
##빨리
지배자
이즈미
넘겼
##스트레이
강습
천체
벗어난
저승
이래저래
노린
218
##올라
완성도
##버린
이용객
테크닉
이리저리
르노
Mi
##낭
피드
파인
장신구
##GA
행하
예쁜
스크리
로열
코디
국민당
##ov
니트
취지
##oul
만지
급식
털어
충격파
트론
##18
상의
##곰
서리
라이징
손목
하우
선봉
리츠
##조합
이영호
탐구
유신
키노
당나라
짝사랑
더미
지터
##ob
제너
핑계
태조
였음
전염
리우스
야망
##나르
미남
##겸
과언
블랙홀
유능
후반전
어드ᄇ
고조
##ould
담겨
이쿠
키로
##전사
##처럼
통틀어
156
##보우
마가
..!
iOS
##트랙
무궁
Ser
마마
##친구
뢰
one
카제
스크래
164
##alk
미세
##tern
##yn
재벌
##레븐
숙련도
139
배율
나란히
필두
모에
##활약
보트
유카리
##15
고우
##슬림
시간대
이인
##이언스
##up
들으면
구청
153
조던
하츠네
아호
##라미
먼지
벚
교정
저격수
Gaming
하나님
##reak
반장
올라간
콜롬
공격기
거꾸로
무슬림
커플링
양심
합법
초등학생
빼앗기
가져갔
나열
김두
이광
##der
웃기
##able
GK
하드웨어
멋지
##고사
겁니다
##제스
접전
리터
전두
청장
엉뚱
성숙
세미
후면
지성
상공
오바
최하
148
거뒀
디비전
신주
Car
맞먹
##ions
##ᅮᆨ스
허브
인천광역시
##사고
연달
탄막
실업
셋째
##엘라
스케줄
표창
동등
Your
얼라이언스
베일
타키
##ᆼ가
단의
벌금
모른다는
주유
##문화
167
볼드
장시
김선
걸릴
냉장고
스마일
##널드
대등
즐겁
맞대
203
동지
북서
하비
배열
지표
열린다
몰아넣
카렌
가히
끊기
선지
##바스
황혼
프로덕션
##쿠스
애국
데미
SSR
지킬
창작물
##백과
##주의자
꾸미
##PA
사료
무색
1958
브라우
가나
1941
계시
음향
174
스나
오역
주술사
야마모토
승급
알려준다
##왜
영화배우
##ull
##스럽
##ᅰ어
누이
휴스턴
지나친
도모
공모
무죄
사야카
##프란시스코
##시다
샌프란시스코
어그
전례
라틴어
엇
진로
##재기
슬픈
##뼈
종말
여주인공
se
유타
타당
아수라
동년
##뱉
##스텔
Min
설탕
법학
버블
번식
##프라인
둬
적이
처녀
앞세
무안
RO
##셉트
시뮬레이션
142
##귄
자키
##니코
밀라
통행
지지자
바이크
사내
##상가
LTE
광범
레이븐
영등
##껑
문헌
일러스트레이
헤드샷
빈약
인명
염색
스페인어
##타르
##타니
주가
순간이동
##무네
163
던졌
##않
혼동
코프
스ᄂ
원화
런처
과감
박탈
가라앉
한층
##스트로
##기업
으리
배상
수령
덤벼
해준다
맹활약
토비
레인보우
득실
이오리
차일드
프로이센
##ube
##ECT
일련
러너
비즈
아슬
##해졌
마스코트
꼴찌
##로우
1954
우편
염두
BGA
레바
리볼버
##아티아
졸업식
크로아티아
훔치
강수
월요일
묻혀
##챈
네스
안보
##ll
제자리
##보라
전학
have
플레임
후쿠시마
사가
pr
태권
회견
맥락
제지
단식
찰나
설마
황실
out
주어진
레슨
절정
음력
오리온
수하
##퉁
밀레
기관포
페미니즘
대목
연막
##레인
먹여
능숙
른
발현
##뜨릴
대외
득표수
크리스토
장례식
상속
약칭
이룬다
이만
##스티스
##ICE
##랄드
내ᄈ
초상화
환호
대군
옌
단총
연고지
사소
라든가
NM
복음
토론토
따른다
안제
파우
143
137
인텔
공고
대법원
죄수
부호
앞면
향한다
당원
한강
미트
##크리트
소우
시흥
너클
릴리스
방벽
공짜
투사
##베르트
창당
313
현직
맞물
노골
혹평
Sum
무단
솔직히
평창
다지만
전해진다
인듯
내뱉
관해
한정판
소꿉친구
사당
박종
펙
양국
빙의
북동
해져서
##바루
차분
HS
인체
외관
ALL
플라스틱
##ᅨᆫ
오비
경찰청
꿇
가미
자포
두뇌
무식
CN
IV
여도
추출
##ᅳ레이크
랜서
이력
치마
##소수
1943
십자가
230
이준
전반기
앵커
알아차
반란군
찾아와
바티
오딘
넘어갈
아테네
태자
뮤지션
##대사
띄워
델타
지요
북구
순찰
맹독
남미
난투
오케스트라
프로스트
기술력
우산
157
관계없이
해상도
잡혔
##모어
강탈
오쿠
극악
133
숙주
##FL
슬슬
키드
기이
공자
갈리아
미시
##얀
내세우
당해서
un
브레스
출제
146
팬티
129
극우
뚝
잔해
떨어져서
윈터
확고
구독자
##더슨
000000
플레이버
1942
광범위
세키
별칭
지극
렀다
프레스
죽인다
##곧
청룡
화약
##STER
비참
제프
173
시에
나카무라
##이스
카오루
BO
미쳤
이루어진다
헤일
워너
##결승
종사
설비
진구
##탱
박명
힌트
관해서
키즈
경선
##드리히
내버려
채찍
여장
리뉴
리셋
##천사
기쁨
클리셰
원년
폐허
margin
##맷
섹스
실바
수영복
know
서치
로그인
카테고리
오디오
연안
멘붕
전수
해태
##무게
호출
텔레포트
몸무게
후대
칠레
폴리스
팀장
##MAX
set
##무이
방화
##DX
나락
생물학
보였으나
##날두
쟁이
청원
OF
호날두
통증
##블레
##뜨린다
기행
공습
공천
136
Play
편한
체스
리베
생애
BT
사나이
##믹
팩션
합치
미하
파랑
시초
##ica
정교회
CB
메테
##che
##소총
Of
해선
서장
애쉬
태종
##ock
히카루
우크라
라시
번갈
포니
판다
얼터
As
la
개판
미모
##풀이
글ᄅ
시달
망상
##브러
##YP
증기
달랐
제조사
메세지
빈번
저조
Red
##회장
럭키
Type
다스리
BM
하의
##제국
양대
##14
불문
##산역
오른팔
일러스트레이터
조력
심화
복도
##박이
클라우드
149
버터
##ᆺ대
대패
정준
오를
바인
혼다
라이센스
우파
박영
브루스
친정
산탄총
##에몽
쓰러져
##전설
치바
교육청
유선
바나나
때려잡
크리스티
트랜스포
##드려
샤오
킬로
BA
포맷
##ict
빠진다
미끼
범주
정한
##17
라파
심야
134
1900
슬라임
1956
미숙
인터페이스
불쾌
눕
오키나와
미도리
해독
경지
가의
TP
입국
냉동
가혹
지주
진리
목재
DI
##ster
레슬러
신세계
사일
책상
##툴
공손
퍼센트
##ange
나사
##ater
대사관
EV
개미
들어온다
부흥
달ᄀ
버림
푸르
운항
원한다
가로막
밧
깡패
건다
다룰
뫼
진짜로
##티넘
김천
플래티넘
카인
슈가
바그
구마
왕관
High
태미
슬램
쑤
무서워
##ons
오세
캇
##권자
##뿔
무수
##메라
춤추
자부
열세
마니
파손
심히
파괴력
트레이닝
제이슨
장갑차
pro
중후
맞출
앞뒤
##레슬링
땀
뺀
분쇄
교양
스매시
초래
플루
개개
자켓
무명
feat
진형
요우
입법
TE
원망
프로그래밍
NEW
펭귄
날린
로지
수시로
섹시
외면
프로레슬링
페이크
재림
슬러그
찰리
축구단
다툼
##왜란
여긴
악곡
둔다
임진왜란
##ple
증인
중급
열기
랜스
싱어
경질
칙
방정식
퇴역
쇼트
사천왕
전두환
##넉
들린다
스바루
##지오
##콕
시집
주고
모어
미칠
##ᅳᆯ린다
##교통
%.
뒷면
콕
##슬란
비기
##해야
연말
##니스트
147
와라
스팅
공과
꼽힌다
골목
비로소
불릴
Light
##차례
웨일
아래쪽
패스트
미식
들러
박해
여겨진다
호프
##나리
자회사
##두리
퓨처
상대식
##마르
심상
클러
AE
안철수
생선
앰
꽁
##주군
##무늬
##바다
폐선
280
세일러
팰
배우자
노하
실로
##아닌
##세서리
최정
엄폐
2500
소령
제우스
##카미
살라
헐크
하지메
가브리
저스티스
드리블
오프라인
MO
수용소
거칠
선인
GHz
할수록
철갑탄
##텍스
착지
직통
메구미
Gen
아랑
줄어드
관절
222
나뭇
차관
마켓
토막
##to
CO
의아
격리
테일러
히나타
보디
##구역
편견
##토랑
##니즘
##의회
실천
레스토랑
가르침
##에트
걸려서
따라잡
~"
수다
더구나
보잉
세츠
강세
내밀
수상자
1939
음색
##더기
배속
김연
##CC
개그맨
was
라임
파이프
브랜
What
제단
소행
눌
바란다
미쓰
발간
면접
꼼수
템포
찾아왔
감행
레규
프로세서
배신자
용의자
##산동
복용
취한
##고래
Kor
166
미호
손꼽히
증권
고음
타고
원종
연기력
1959
##컨드
반론
도쿠가와
지문
##ics
1936
야전
프랜차
명탐정
세컨드
동조
섬유
인트
소설가
롤링
##ᆯ로그
일삼
두목
##사관
신칸
우물
준공
냉기
술집
하후
탈당
붙였
쥰
##어졌
##투아
##다닌
재임
##ACK
화소
Heart
율리
산화
러닝
레프
공영
Tw
유즈
종착
돌보
마요
조교
소노
더러운
스콧
프랜차이즈
##les
달래
줄어든다
플로리
케리건
라곤
미수
내역
역학
LOVE
패했
필터
웨인
oh
1955
정해져
GPU
삼촌
미스터리
##ex
##사와
기피
뱃
병종
##BM
뒤지
이아
트랜스포머
비춰
모함
어벤져스
랙
거니
체격
뭔지
아이스크림
지그
자란
##모니
##어붙
하카
낡
투신
NHK
AG
##쫓
에그
떠올
##데르
반환
아이폰
찌질
알아채
전광
어린아이
위키백과
Mr
구한
호스
파문
##니스탄
올바른
신칸센
책략
동문
루키
어때
콘셉트
토가
채취
사모
기술자
책임지
Blo
동호
재활
PL
하이브리
경보
호무
속편
영등포
참으로
이방
시가
##ᅣᆯ
물가
야마다
하이브리드
그제
##lass
전열
##무실
테일즈
솔라
장학
##16
인구수
푹
특훈
부도
##테스
다름아닌
##드리아
냉각
봉기
레귤러
자질
반군
FPS
랏
MK
##AND
부당
투성이
준결승
뜰
장편
방호
##튠
휩쓸
TO
스트리밍
최대치
방송인
좌표
좋아한다
서민
마의
##아슬
아슬아슬
말년
Par
보행
정형
##전트
##스타인
하라
소사
##nder
##플러스
성기
##규모
인사이드
스크립트
로테이션
모던
1952
쐐
패드
라바
상행
전했
time
포식
뇌물
걸어가
적립
넘어간다
수량
가와
소매
전반전
공존
범행
부드러운
ll
330
주된
수도원
내뿜
빌라
##교육
##더링
하반기
엣지
달아
##좀
270
사슴
캔디
카즈야
이뤄지
##내리
##ors
Fe
##볼루션
교통사고
륙
패닉
얼어붙
풍기
노래방
도청
##ME
도호
표본
단과
죠죠
깔려
신수
김도
LED
카니
정계
##들여
느낀다
불가리아
경과
오타쿠
속력
유대인
서해
몹시
배워
스텔라
담임
직속
중년
뱉
끝장
스윕
##어버리
카우
캐슬
태극
순정
여배우
뚜껑
입양
에메랄드
매지
멋있
발라드
고마워
교섭
테러리스트
함성
우체
파키스탄
출고
디렉터
어미
1947
GTA
파격
동로
이에
원고
##단지
스퀘어
춘천
#!
솜씨
225
평안
네놈
모양새
##대기
Good
얕
두근
##콥터
전속
블레
르네
거품
심문
박상
맴
방공
직격
불려
놀란
심했
##트라이
소시
상쇄
영동
자랐
우상
곡선
선대
재빨리
저희
무고
현존
##테리
Per
돋보이
유지비
적색
세스
현황
다이노스
프리드리히
사투리
##딕
핸드폰
쓰러트리
멜론
##수수
바닷
영남
로저
그릴
커졌
모른다고
자각
순교
광대
쥬얼
호구
배리어
##뿌
##보내
단말
자칫
헤어지
산악
하행
##글라스
오락실
갈래
시가지
스파이크
##나갔
프랑스군
마초
카를로스
그랜
월등
신흥
생겨서
벚꽃
어워드
다기
##ᆺ집
앤디
SL
am
##HT
##파리
사탄
텀
넉넉
성서
지기
석상
발렌타인
하시
신병
느껴진다
익스ᄑ
대본
적재
레즈
260
스내
급히
라프
##eep
우천
1800
격전
래스터
유나
벌어진다
바닐라
요미우리
유니콘
하리
미유키
##윽
MSL
##뚫
메이트
타이완
더욱이
선우
구절
미들
부관
1919
리바운드
##무기
홀딩
냅
본의
합친
고산
갈구
호투
실력자
브이
휩싸
IIDX
호박
걸어서
부사관
뮈
공약
추궁
중학생
불신
아홉
##ott
원내
호르
즉각
프로모
심연
질풍
비타
간호사
야만
기함
상용
##거진
주워
차용
핸들
Kn
ab
정정
두르
상장
신정
일례
유니온
움직여
0900
퐁
남작
군림
소실
치루
징크스
모라
풀린
Li
##틀리
로스터
눈빛
보리
시부
꿰뚫
증발
클레이
박살나
카이사르
부류
지름
선형
유방
장원
운석
##메다
이례
EBS
단정
고분
적성
다중
카탈
wid
브레인
유정
포워드
프로토타입
Wii
쓰일
##문트
뒀
에바
##수아
츤데레
텅
도시락
박혀
##메스
최우수
프롤로그
This
따져
근력
안성
호그
드레드
훈훈
여관
미로
날라
설화
성비
하와이
악령
조준경
##산물
축적
페니
미티
픽셀
##IV
길거리
헬리콥터
구타
##자동
유무
양보
일으킨다
유승
회귀
Baby
더라면
##25
##IK
소규모
본가
페인
후루
망원
라던가
남서
##anna
허위
격투기
기관차
진정한
##두사
##파크
루루
자본주의
깽
교훈
트러블
스콜
프린스
실정
진수
제보
전산
켈리
농사
정재
바래
카디
습관
HARD
Sm
바오
불평
쏟아지
존대
일레븐
럴
ONE
스토커
탄탄
이선
버려진
동요
떄
충북
서정
유코
빈틈
히데요시
루터
킹덤
1953
대중교통
에필
##지도
에필로그
서태
자문
게임즈
밀집
대진
중성
샤워
주어진다
##델피아
필라델피아
GN
##포드
민정
1938
리키
심리학
##other
총괄
관념
누워
원작자
Rock
송출
격침
부ᄃ
##행위
첫날
169
프렌즈
us
낀
회화
단속
##19
##르바
박용
청산
석방
##바키아
구두
##세포
미팅
책정
독서
뽐
리부트
550
야외
치고
만료
만루
자격증
##똑
##앙스
총회
##스코
장풍
width
달라졌
고토
말미
양측
파벌
데려오
수수료
##팍
수평
##icro
Live
라나
고든
수복
요시다
일품
리조
김원
페르난
호세
생산량
병장
부턴
노트북
Ac
차가운
특이점
온몸
술탄
뉘앙스
보증
속이
##ins
죄송
내수
황태자
여권
들어와서
히카리
##ᆯ러스
멀리서
유유
감기
꾸며
리우
##토르
##웬
클립
할리우드
##oss
미니언
##ru
DB
희대
결사
연금술사
동래
그리드
에일리
대마
##하이
마차
미라이
내릴
결함
페이커
##ᆷ마
레이트
쌓여
여당
니카
가창
왕좌
독수리
우가
장동
##받침
완구
의석
교내
혜성
에밀리
하부
성수
처한
헥
유배
협약
##노스케
가두
자니
윌슨
쇠퇴
나고
cc
글리
고스
##떠
교시
은혜
아울러
후안
머무르
홈즈
OK
연의
다룬다
##gain
##ction
Blue
##턱
정체불명
경쟁자
Dark
##EL
버릇
누명
놔두
재위
1957
##지르
배송
도라에몽
사안
제작비
고성
체형
KTX
원활
가축
부드럽
한다거나
초교
##플리케이션
우루과이
아르카
오리진
무사시
저술
메모
라오
서대
텍스
##0000
짚
##킨스
""
전세
비꼬
켄지
방과
게시물
토마토
자크
편안
셰프
불어
진행자
천마
강팀
로브
주거
로컬
Champ
자발
말소
환수
더비
##툭
말아먹
예배
소비에트
속박
수강
특허
포대
원흉
격기
경순
##na
발차기
분기점
RC
오시
편찬
비토
##린다는
피에
Im
주파수
실루
유비트
분장
##케인
Sun
##ood
첨단
보구
##agon
브론즈
##UT
캐스트
유로파
진군
##자재
타다
가까웠
게릴라
탯이
닥치
트로이
넥서스
바이올린
++
친목
OCG
모친
닉스
Can
직결
뜯어
일일이
장제스
스케이팅
포럼
프랭
리액
랩터
Bat
해적단
선곡
깨알
상가
##스티니
수녀
떠날
MHz
back
타카시
환사
자손
니나
##ky
북극
무겁
연루
코즈
요리사
DR
유영
205
흐른
##토리얼
쓸데없이
##훼
했어도
재무
센티
다짐
##버드
경감
미성년
통수
용감
합쳐서
생겨났
오ᄏ
기획사
키트
정동
본성
튜토리얼
##꼴
이창
##놀이
주고받
##통수
달라붙
##마치
na
박재
미즈키
열람
열악
무제한
기성
흘러가
수식
후지와라
데스티니
Summer
대출
금색
RP
단선
권능
모범
니코니코
##일으
요시노
##ty
불러일으
플레어
김명
##irst
분홍색
야마구치
##사벽
넘사벽
벌리
매수
명곡
셸
##DS
민영
야심
농촌
당주
살상
브레이브
자판
산책
벌인다
빅토르
도검
##ady
목동
양키스
##무소
야시
##land
Korea
##ᅳ롱
흠좀
흠좀무
즐거운
대대로
Music
탄도
원천
헌신
##소스
제스
중추
항아리
창세
일으킬
동족
하워드
셰이
##셸
스파르타
따윈
거세
비시
그래프
서초
##드립
##리안
남발
자처
##드르
생겨나
레이첼
박찬
레이너
휴게소
함재기
엘리스
오피
발광
##저드
다다
소극
BEMAN
타나카
해내
##코스
세레
라트
##균관
병합
급기
줄줄
넘어지
1914
행렬
아제
개칭
노동당
코지
계란
토이
루이지
프리즘
겸하
도마뱀
무진
안산
카타르
기괴
슈터
필연
어느새
베이스볼
강행
반대편
잠재력
합당
임원
BEMANI
장안
파산
실무
캐서
##현우
악의
치아
만행
일렉트로
##OID
감전
토로
루팡
나레이션
Fire
##석민
무상
인데다
다이스케
기다렸
후한
설상가
리턴
윌리엄스
프로모션
설상가상
제휴
블래
##놔
##기지
##현진
금호
##마당
인어
성모
재난
OB
전과
now
학점
돌려주
교관
솔리
김형
벌여
댄서
##숍
성균관
##커녕
밀란
유난
650
야기
반기
하원
살인마
노릴
음악가
이룬
힐링
정벌
펜듈
펜듈럼
창업
조직원
211
주심
여진
실습
손톱
##곡동
지어
목적지
줄게
마운트
화합
대각
문고
북방
입체
이질
위탁
복면
아타
총격
후궁
시코
악어
차선
포토
##ium
지온
광속
청동
호기심
여정
평원
달걀
정립
폭동
쐐기
세션
##티지
농락
##테이너
##틀린
귀중
듀크
치사
피에르
GG
점사
Life
CA
서독
뒤통수
진나라
##혁명
계열사
끌어올
가성
육지
사다
3164
##즈카
##ush
냉전
해수
STR
고령
재판소
로코
##메어
양호
퓨리
##기사
한발
소동
문어
반항
어선
실명
성도
Ma
분화
피카츄
##ount
스냅
바꿔서
##줌
가급
모닝
달라진
스캔들
까닭
But
##서야
세탁
리엘
염려
별점
1951
미끄러
동탁
##프스
오디
호노
Just
똑똑
어퍼
로저스
##르기
증가량
풍속
##그룹
204
##멋
자수
총재
##룸
프런
##코프
한탄
그립
돌이
진성
투니
월급
내륙
동체
받아들였
일수록
대상자
##쉐
네이트
진료
스킵
아토
로워
신대
선제골
연회
불로
##그레
DX
##CH
나이트메어
싣
후예
고속도
창시
##궤
지극히
네코
대공포
시몬
플로리다
선방
Ste
잘려
##때로
이복
우아
day
숀
모른
##년기
한숨
Sy
##ger
일진
레기
이긴다
프로리그
##봐도
털어놓
사면
박경
##퍼런스
FFF
하타
향기
pt
남극
감히
개개인
##덮
스레
##크라이
##플라
Dance
에스파
사찰
강연
캐리어
마운드
박명수
스완
일본식
해임
공익
개연
행방불명
츠바사
할당
파장
출근
##저것
이것저것
현상금
FB
상표
야드
한도
발칸
Gold
여친
나폴리
홍성
석탄
CON
지상파
실루엣
국산
질리
샨
호로
Grand
주황색
적료
나타낸다
섬기
이노우
스퍼
##블릿
테루
지휘자
##듣
물러났
Pre
오의
회고
산지
페루
저상
Ev
민법
##티콘
기복
음주
1600
콘티
광전사
VOC
구단주
블루스
##줬
효소
##ne
암울
##ally
HK
아프가
괄
채집
##ution
서지
이속
시간표
LCK
예언자
성체
슬로우
비운
글래
아르메
기타리스트
대주
##준표
괴상
아깝
차후
괴력
##트린
난감
##미스
아줌마
##pr
지중
화자
번트
라구
일식
대표작
피고
##트니
관동
스네이크
##징어
영진
##잖
매너
전교
접점
망한
구급
파수
파업
넘어서
열등
바비
##봐야
수락
get
통신사
카이토
부여받
사우루스
##마침
됐으며
살아나
샘플
##클럽
##슬로
떠올라
##미즈
밀려나
TW
Over
##보그
케이지
정세
목요일
놀랐
코다
군복
이변
콘크리트
부평
교직
투하
셉
1937
카르마
램프
##사이드
샬
리마
##ator
훅
뛰쳐
브란
ARM
추기
매스
포효
호쿠
경찰관
정확도
아틀레
정자
신축
때마침
딸기
beat
젝
##장난
출루율
미사키
출연진
소피아
고질
전리
박치기
합창
러셀
한스
가브리엘
따내
##빼
아이유
매출액
무궁화
UF
변질
외래
금화
차종
샐러
##베르토
리에
선구
##흘
홍진호
DJMAX
서인
##봇
행정부
예지
회오리
##air
각기
휘둘
클레어
자진
연발
뷰티
Sec
코바야시
두려워하
비장
어리석
왠만
남아프리카
퇴출
등교
tvN
픽업
대부
챌린저
처절
시치
크루즈
##아스
대쉬
일절
최영
묻혔
##네이터
배기
개인전
베네치아
코카
백신
##르드
세세
고요
이를
##브레
##토시
출중
피츠
##바ᄁ
아카리
##엎
##나드
교향곡
아프가니스탄
매운
밝힌다
BBC
부과
지날
동창
Out
캉
지침
조영
커비
영리
사극
##궈
접근성
느니
고릴라
한성
달렸
쪼개
마누
볼까
태수
신원
만세
쾨
##inc
광부
점거
간선
둘러싼
상류
##히트
스릴
회심
간략
경매
수험
경희
코요
딱딱
부딪히
검은색
이은
부려
으리라
##축구
##장이
체이
영조
완수
밋
부대원
스피커
컨트롤러
요건
강해서
입힐
풍자
##츠카
달빛
상체
몰아내
묘한
리티
##로이드
양주
El
Dis
but
아드
책임자
Win
전년
##흙
미판
사이보그
##꿈치
케이트
사스케
강판
유난히
##동원
타니
상하이
수요일
새우
저렇게
VOCAL
조형
##펑
군함
베이더
묶여
총열
외우
빅뱅
은밀
##...
고선
뒤덮
이용해
리플렉
용맹
천공
##펄
후문
계좌
콜드
콜롬비아
##휴일
총사령
연구실
소수자
##ART
막아
백색
촉진
천둥
카구라
UI
소감
미술관
잔디
##use
##바시
평민
벵
바우
고속버스
##쩌
##플ᄅ
전류
몬테
sc
케로
정크
6000
##앵
런닝
##수스
미코토
못지않
자신감
여더
##로니
조제
##터스
밀렸
Mon
예명
스플리
혹사
##베이스
기밀
준하
웨어
HG
워낙에
##라노
조인
제다이
김두한
영장
##ring
성형
안면
민원
앙리
중견수
판권
##XT
페이트
man
차남
비즈니스
~~
##LS
매칭
레이나
Af
조류
역과
오인
이동하
퓨어
이야말로
레몬
권고
도망쳐
장기간
비요
카가미
라자
우와
Power
태블릿
임관
지났
학계
대문
함포
샴
##브ᄅ
사출
던진다
##ina
##대교
##몫
튜닝
Res
애드
철회
정렬
매개
넘어간
스님
샤프
##관총
집결
후진
취해
줘도
우체국
내야수
관하
아폴로
뽕
정거
퍼붓
간다는
보여서
소절
형편없
망령
380
퀄컴
매진
발전기
기합
At
호전
섀도
리전
무효화
##소문
체리
건전
터질
OPS
도피
패미
}}}
바주
##ᅡᆼ스
피스트
혈액형
지자
퇴사
경쟁력
여덟
노엘
였으니
256
입술
키무라
추첨
나고야
직구
똘
SCP
캐서린
NG
접어들
욕구
유서
전전
이성계
조달
Fem
강성
금성
국사
##범죄
미ᄅ
당첨
자취
베니
때때로
동갑
카지노
공휴일
동참
속공
##하하
##포스
농협
섬세
무너져
볼리
캘
아카이
존속
세워진
볼륨
##맥스
맏
안다
페가
타치바나
##ᅢ신
총탄
김영삼
어쌔신
코시
쌓인
증후
##ittle
무빙
틀림
타국
영미
쑥
적발
sm
경량
##베리아
초고
##아르
유포
김택
Fi
서사
질러
MR
옵티
오징어
직역
립스
무소
색채
성역
아르메니아
MX
##심장
악용
채소
명대사
휘말려
페더
궤적
가호
방어선
집중력
여사
내구력
애시
공성전
부추
건재
화가
허공
가급적
코이
따돌리
대인배
Sing
카노
조력자
낙인
끌어올리
거제
본국
##베르크
1910
아부
FL
##숨에
단숨에
마에다
장병
도메
저널
쳐다보
##ERO
츠나
SG
카즈마
##싹
##de
라드
노기
##춘다
가솔
광탈
##be
넥슨
피드백
gr
지켰
레닌
궁지
횡단
고안
러시아어
젊은이
허구
부식
##ello
베토
괴리
공방전
재고
##트릭스
갑작스럽
정거장
사육
타나
MT
가명
태세
##reen
SV
소용돌이
쿠루
서진
##ual
피라미
김정은
피처
창의
비니
승천
IG
적진
생산력
족장
##대부
##삐
세조
예장
억지
견인
근성
돌릴
로사
무전
맞춤
증세
##첸
포지
막바지
기미
복싱
절규
##ᅳ레이트
정명
줄거리
##르노
돌격소총
통용
군사력
하임
노이즈
휴전
주재
MLB
##바퀴
바뀔
동인지
데우스
Pv
모방
디펜스
후후
Rem
라지만
뒤이
맥도
건축물
서킷
표방
기보
카오리
Ep
가뜩
친선
깰
추적자
역병
##ational
원격
쏟아져
999
연예계
대파
군기
타시
##돼
흘러나
어인
수군
##았
##riend
##af
발상
아이작
나왔으며
히토미
##ars
카바
파이브
##bs
신주쿠
리트
터진다
므
작인
두부
##틀ᄅ
설계도
소진
결장
출몰
루카스
Vo
깊숙
기한
카에
##IE
가뜩이나
초당
슈퍼스타
정은
홍준표
##해군
양파
모호
스타팅
발악
후려
급기야
숏
##ivers
주방
##퇴근
수비진
증후군
노드
테이크
네모
폭포
트렌
##코어
자유자재
인벤토리
조폭
VOCALOID
쫓기
간다고
양현
청하
그려지
IDOL
리쿠
악랄
꽝
초선
오로라
판서
럼블
돌아간
포트리스
박격
고양시
Leg
King
##스러
수원시
상임
블래스트
##에이터
시킴
중전차
애교
고원
연호
김희
풋볼
베가
##회의
미야자키
마이어
병단
실황
깽판
HT
핵무기
YOU
될까
BF
강변
자유주의
벽돌
just
##쏠
시스터
차려
히노
이치고
무림
아몬
제시카
태그팀
제르
에이전트
상회
세인
##외선
엄지
표출
세나
징징
쏠쏠
분경
응원가
코타로
추기경
콘테
헤매
억압
##SS
일자리
School
##MC
지령
신시
운운
Miss
선도
##클레스
김창
마테
CEO
키사
랜턴
1935
##ᆺ이
팔찌
##atic
간행
인맥
UFC
진가
Rec
삼거리
GR
대제
풀렸
렸
끈질
##일본
바루
유토
what
사사키
배분
옥타
츠루
고베
재사
경유지
???
##카즈
수고
스티커
##토미
극소수
뒷받침
에우
밀접
1918
치명상
못한다는
##니클
##ern
소피
티베트
마르크스
다단
자바
포고
##itch
조지아
코스타
벅스
당분
알고리
달아나
데카
이노우에
##ts
장타율
빨강
베드
STER
별자리
1934
운동가
##롤라
레스터
본디
Che
덥
허리케인
쿠파
습한
131
창병
아이언맨
드립니다
놨다
하르
파파
스타크
떠서
ADV
'''
기마
일보
국력
임상
손아
아의
##연합
##사전
여고생
플래닛
어드밴스
평면
게임기
악한
묻히
천도
##셔츠
고폭탄
End
퍼시픽
프론트
방금
자주포
천적
줄일
##날드
시중
로만
VR
##rain
Ge
Di
피겨
전한
쿠시
올림
##큘라
이가
위나라
함경
도리어
인내
독성
Air
쇼군
##tr
단골
포레
마이너스
편대
세간
디에
메라
과부
남구
방황
선보인
미스트
군산
##루살
새로이
대명사
무성
입성
##루살렘
고어
넓이
노조미
도도
명령어
성문
알고리즘
헬스
##oot
키가
갈린다
Mod
한심
줄곧
사부
나온다는
마사키
강유
##노미야
글러브
군벌
if
전편
##힘
##긍
종일
마이트
야쿠자
그리스어
단조
교주
인프라
걸작
멀쩡히
자민
표명
예술가
마티
실험실
안나
경신
##재판
깨어난
모여서
흡연
교란
##의사
초사
붙여서
드라큘라
서드
취직
위즈
포털
##ren
마커
피리
굴복
피코
에일리언
정유
뇨
이화
박주
착수
남용
당기
관악
시립
##꿀
송도
솔로몬
col
담당자
광신
##푼
킹스
##같이
체질
금전
작별
단절
타케시
샤크
덫
첨가
##UE
악장
상반기
EMP
##리히
아이리스
##크라이나
우크라이나
움직인다
지망
##칼리
카스미
휘둘러
##55
##쿠로
예비군
집정
예루살렘
해운대
여의도
넘긴
저격총
PVP
메스
직관
천계
왕궁
시드니
관제
이치로
학번
##UR
옵티머스
새겨진
원호
휴일
제후
##데아
성추
그걸로
초원
잘리
로딩
추이
토오루
광석
미성년자
건너가
만류
##rist
night
다뤄
찐
사교
주범
비늘
매사
진흙
손녀
타노스
도미니
##ony
보인다는
##ma
##뎌
청색
카린
Sound
토착
사쿠라이
POP
느냐는
Hy
염소
키워드
회복력
화요일
총대
##중국
양도
스트레
제식
##사우
문과
정중
연희
열려
광저우
돌렸
하세
불멸
컨테이너
해지
백합
한지라
해커
신다
무작정
##세데스
김전
뵈
메르세데스
되돌려
##iew
이끈
##ᅡᆫ히
쿠노
요동
끼어들
고독
괴담
아역
카로
프런트
거주지
DO
유소년
출퇴근
상수
군중
블라디미르
진작
연구자
팔라딘
울려
don
##ope
벼슬
행태
좌익수
유교
양면
##시계
조운
MASTER
##ᅳᆯ래시
겨루
노숙
대칭
오너
현명
##그램
요르
아산
##데기
성채
애틀ᄅ
모터스
바주카
애틀랜
##티오
어우
잉크
##수엘라
법무부
인테르
신디
발트
민족주의
시한
MD
눈ᄊ
고려대
EM
ㅋㅋ
나날
유수
징병
##ana
유목
손바닥
노이
반다이
커리
아야카
게리온
후유증
빌헬
배지
툼
먹방
##atale
기와
무거
드라군
##즈루
선비
##어찌
과실
카무이
깎이
치이
굴려
제멋
교육부
클라이
깬
조장
넵
##던트
데이비스
스코프
프레데
하야토
상해
Femme
##oon
베토벤
박힌
청량
로망
퍼스
사업자
준다면
갇힌
##라비아
콜로니
효력
그닥
SO
웃긴
Cat
사에
시그마
저리
칼럼
맛보
way
끝냈
황족
휘말리
##패스
액셀
니콜
명작
이마트
##ox
농어
BAS
이안
의거
##생긴
빈사
어찌어찌
나진
레이터
##ield
대용
재팬
##덩
언행
마도사
라지
브라더
금기
일부분
득점자
경인
박준
사우디아
##천동
얼핏
bl
학업
텔레콤
섭외
성주
가치관
##22
애당초
티코
애프
베르크
샤를
다나카
베네수엘라
역설
EA
미토
1100
이관
수산
매복
빠질
##안군
소심
무어
##노이
우시
펄스
쟁탈
##무장
1932
##야샤
타협
극찬
스위트
이누야샤
WE
생사
흑백
기쁘
한몫
경장
알코
각색
리노
강해졌
##의정
활주
친밀
줍
##olog
진해
알프레
트림
1931
그놈
피라미드
##레미
광학
1933
XP
댔
##가요
수준급
##스트리
이우
민국
링컨
해인
초토
선체
아루
택배
미지수
대잠
##티어
보답
총통
폴더
겉보기
친위대
이윽
사바
이윽고
나눌
증원
껄
어둡
재혼
##언정
확연히
로드리
패기
대두
양념
창원시
브릿지
조율
돌아와서
일쑤
어떨
중앙선
광주광역시
강적
##변속기
스루
##무스
씁
##Fatale
전리품
조선일보
##맨더
나눈
FemmeFatale
중얼
탤
With
반말
끌어내
병살타
Hard
성가
자연스레
여겨졌
Run
다던가
피어
스테이트
드러낸
##콰
빅터
효과음
위화
카도
외출
안토니오
##다닌다
다정
마모루
미타
건의
시력
타고난
바하
##퀄
피곤
참패
XXX
##돼지
자잘
쾌속
지중해
다인
김전일
부회장
마징가
추석
두께
사위
임용
수려
복종
CT
가든
칭송
##제이
##AA
연비
인테
후타
탈옥
번영
엇갈
##무진
##블랜드
수작
맞히
성폭행
미디
340
토머스
부화
클리블랜드
Not
정장
중령
내려온
쏜다
베라
커브
머물렀
전념
폭발물
든가
봉황
App
카가
직감
이스터
신이치
진공
셜록
치뤄
가솔린
안테
승기
손흥
##elf
Rev
슈타인
가산
따라오
여건
##암동
입맛
추대
토하
##ouse
도전자
RS
놀림
설득력
말장난
프랑켄
소이
1928
##선거
쫓아내
제정신
214
캡콤
##ᅥᆫ지
##사의
기병대
CCTV
식신
스폰지
동봉
송구
흑화
압살
아그
RG
충주
환원
도망쳤
도널드
호대
토탈
성공회
셀프
제이스
생겨난
dis
후세
부츠
다른데
명인
채무
##저트
술법
##그라드
미셸
예리
키퍼
난전
악세
Da
바늘
치중
꼭두
환각
체조
게재
페로
손흥민
발해
사용법
무의
든든
쓸모없
들이대
박격포
외무
듀엣
아지트
서문
카세
송이
쇼핑몰
##75
VIP
가출
냄
##무니
장래
시동
쓸데없
이ᄆ
의병
접시
안도
서식지
순진
육식
충성심
키리토
마포
경위
##투수
SHOW
피신
좀처럼
어긋나
미라클
뾰족
유감
망가지
밀어주
쇼코
재사용
종자
재해
바이스
부름
패한
협곡
찍힌
얼리
반칙
스왑
분사
##따라
마작
삼각형
메테오
##아아
서면
광양
도호쿠
완전체
공채
위생
선발투수
##마사
봐선
아종
괴롭힘
변종
아즈사
##득점
상권
선진국
진과
릉
밀린다
부서지
사우디아라비아
UM
임하
트린
시궁
계보
##라이어
##킴
육박
날아간다
Elect
하코
임창
관습
오스카
마음껏
사각
서북
##껍
기만
윈스턴
돋보
아치
시구
##니치
허세
RAW
어처
온화
북유럽
##츠루
평했
바흐
무너진
시위대
리포트
초식
##방향
빌미
혼종
흘려
불가사의
폭사
##컨대
co
##ORE
미츠루
Ke
141
She
학창
웨이트
310
대강
동국
땜
만회
사마의
순조
호노카
체가
콜린
8000
제비
두터
잠복
뽑히
스플래시
펼쳐지
정인
##투표
결별
격돌
프레디
작살
꼬이
액세서리
취했
##we
저번
##ecial
가가
과다
최전
석궁
홈구장
서부터
도르트
동물원
에리카
연주자
현행
백미
##치오
제구
향수
입학식
버지
구자
철학자
사과문
패트릭
벡
따랐
대여
조세
Get
낙원
입당
김혜
협의회
사다리
존댓말
아픔
앞쪽
발산
패하
렴
만두
드러낸다
해한다
수법
정적
뮬
행해
##조각
탄종
풀백
대관
단테
##요환
홍대
쌈
본문
##asy
제이크
기요
호스트
##ane
하이드
포르노
쩔
라거나
##66
수렴
승부차기
콜라보레이션
불사조
레고
앨리
우기
샌디
평정
##its
DT
두드러지
Ang
스크래치
애플리케이션
world
상정
##언스
블레이즈
사설
오미
나타날
타라
받쳐
어려우
느껴질
##28
비석
임요환
한해서
김세
수레
와우
정제
어처구니
비정
생각나
오리콘
시엘
콧
무자비
1924
정류소
##미사
터트리
뭉치
열풍
섰
까먹
꺼지
고를
유죄
왼팔
##히사
최면
white
크로니클
거물
당당히
듀티
엑소
480
스튜어트
대담
속삭
송병
설사
김인
헌데
학파
식별
소인
##짜기
기각
##먼드
순교자
보태
진한
차세대
쫓아가
강당
볼텍스
분수
지켜야
##EX
양동
재선
왔으며
느냐고
제이드
촉구
안장
##ze
밸리
손수
들어선
SW
영분
알루미
앞장
처했
침체
007
키운
헷갈리
##용차
끌어들이
원동
가까스로
밀라노
박병
##ᆯ레
수배
더스트
0000
Cy
다이브
한조
대전광역시
탐욕
추산
시애
부합
하드코어
깠
영락
헤딩
네메
선공
##원수
열받
대변인
##크로스
니키
스칼렛
##포로
우익수
콘스탄티노
su
##ness
망원경
난동
베른
720
주주
사이퍼
가네
기총
착공
플랫폼
어비스
전태
에덴
Song
목성
프리즈
Big
다이어트
거스
애리
Comm
시저
호조
해서인지
발렌시아
옮긴
국무총리
안치
##24
자위대
비약
편제
합방
Back
선명
모을
##인간
부풀
처단
클로즈
동포
##appy
주작
데이빗
도르트문트
420
폿
팔꿈치
강남구
마른
정무
신민
Arm
류현진
##매매
마더
##도니아
선교사
이과
##즈마
시애틀
노렸
의미심장
이류
디트로
디트로이트
서점
불태우
룽
교구
광화
검찰청
빌헬름
레트
커먼
안기
불린
승계
품종
황자
화수
삽화
매트
갈아타
##지대
방대
망자
익스프레스
##ny
유쾌
출입구
화장품
이산
격노
동대문
코이치
대한항공
오버로드
##제리
매거진
조선인
리젠
돌아보
항로
목표물
##ke
교감
##벨트
누군지
##평가
바쳐
랫
히로유키
틀렸
특권
쓰러진다
##드래
기라
창출
Order
유명세
##제품
##틱스
##RAM
골리
##sc
##슬라비아
유고슬라비아
적정
##부대
끼쳤
주어졌
1929
거슬러
미주
대각선
##모자
바바
1911
부두
빡빡
민병대
포화
뛴
역기
카야
로마자
와이드
잠금
##다간
착하
후일담
알루미늄
대장군
Skill
마고
리액션
젤다
스케치
미련
나우
내비
##쿤
거느리
단신
센트
전복
갈기
꼭대기
서재
정현
택하
치른
송파
방랑
##네트
커네
인디언
con
주군
두꺼운
>,
##35
김준호
대머리
법령
국수
뭉쳐
KS
던질
플러그
셀레
망해
배척
유추
선천
벌칙
집정관
독재자
서커스
농부
##chor
스탠다드
웨일스
주성
매입
씁쓸
TB
나주
케네
##평군
프리스트
리조트
태연
지아
사이오
퇴근
안드로메다
##공격
첩보
아벨
##어쓰
허영
클락
인즈
차출
UR
입힌
즘
발효
겸임
1925
시즈카
아론
문의
열전
가제
Every
페인트
떨구
사토시
다라
자택
과반
행선
코리
##느니
좀비
##카스
##let
토네이
김정일
토네이도
세균
버금
노후
새해
수분
일직
토의
졸개
바쁘
무협
정규군
연기자
##실히
당분간
오재
보유자
PSP
cl
듬
##나간
서경
윤종
분교
##드릭
빼앗긴
국정원
투르
조회
입상
디테일
병영
장단
난폭
##UC
모티
경이
내년
태고
##AG
양아치
##예프
운전자
나지
##니트
짤방
영화판
석화
리히
That
##파니
비행선
사상자
나나미
위조
알코올
어휘
뛸
가즈
속옷
총사령관
##각시
상대편
마늘
수반
타지
왕녀
박세
난해
1917
성추행
구이
커터
##자카
성취
느긋
qu
208
해협
화랑
이에야스
활주로
간식
가차
##눅스
동거
샤아
단거리
##양군
지독
##묻
전염병
생리
치타
##패드
추월
##작전
##타자
합산
나선다
조비
노랑
##페스트
심포
공병
괴도
상경
갈고리
펜스
선발전
프랭클린
##폴리스
te
##ᆺ거리
지체
온전히
라운
춘추
이따
자석
마장
TCG
인민군
신종
##비우스
격하
졌으나
시노부
비숍
##마이
점하
복권
홍수
자부심
넘어오
단말기
불리우
늘어놓
마는
개화
숙종
212
켄타
##괘
츠카사
리눅스
공직
출세
역전승
해저
마그마
펼쳐진
원산
비욘
##버릴
##정역
##끄러운
카트라이
##애미
세이부
관광지
유행어
##bps
쓰러졌
Des
스트라
마이애미
최진
이어인
동남아시아
대적
교재
제멋대로
Har
##운전
위임
##바위
##ert
갑판
교원
비밀리
##옌
콩고
초급
잔당
토요타
##ious
##정동
불운
낭만
나츠미
##끝
##푸스
FX
등산
영기
의대
171
##ient
라이터
NL
Top
가주
앞마당
왕따
게이밍
타쿠미
구세
항쟁
235
올리버
튜너
모건
요일
##단체
침식
쫒아
체이스
##net
판본
연방군
##놨
무너졌
채굴
크롤
능동
##모사
떠들
스펙터
GL
아델
파열
막힌
자의
영창
파고들
개종
렀
850
유체
Tri
누마
##위치
심부
법조
의리
##게요
##비히
EXH
##유산
크리스토퍼
야채
##노기
벗어날
##ret
사절
255
이제동
태어났으며
1927
조슈
FR
##렉트
농도
##ideo
으라는
후작
NS
..'
패거리
다이너
악보
바빠
리오스
키웠
오드
어중간
일선
직계
가한다
키메라
푸드
마츠모토
정진
관대
근래
가변
플레이트
##튀기
캬
##니지
장녀
레이크
##이언트
일찍이
비대
백악
##르르
법정동
클라이언트
##넓
구치
외로
래스
##pl
뻥튀기
주임
RF
해밀
줄리아
데려온
안타까운
##호도
##olution
신한은행
Amer
골대
헌병
##둘기
는군
공전
중산
와일드카드
미완
내심
매트릭스
어로
반하
쉘
어지간히
햇빛
모기
왕건
슬퍼하
##토록
꺼리
Em
초동
용품
싸워야
206
스플릿
##주곡
채울
트리오
연평
특출
유니버
이의
상고
이승엽
유세
애틀랜타
와이어
인스
부메
서스
따라다니
나탈
바란
자며
했으므로
안중
투기
PO
몰린
텐션
DEF
드레이크
##IST
인신
LCD
작렬
##ᆼ크
##자스
바쁜
off
삿포로
럽
아름다움
##co
전한다
경호원
##버릇
끼어
소량
리브
##ERS
각본가
유민
버디
오아
정직
가메
##비언
바트
리바이
사역
면은
커트
성남시
댄다
알파벳
중공업
구애
이지스
우로
##교도
벨벳
켄이치
333
게르만
장학금
주스
Act
프라이즈
기통
벌어질
UFO
부메랑
요크
원제
가쿠
정경
드리프트
깨우
치부
데뷔작
209
무로
도왔
이신
카터
메아리
버니
청주시
##ful
사비
##밟
엘런
##mania
ve
판도라
에프
절묘
데이브
괴로워
290
이로
Pe
##라이터
지바
지친
kn
기겁
LS
케르
구했
우메
메소
줄줄이
꼭두각시
남원
달했
이어질
피크
쭈
##츠라
작물
##누르
무난히
튜브
KG
코지마
햄버
리투아
토템
암석
리투아니아
동선
##피어
정종
소아
소음기
##ner
##ham
##고쿠
뇌격
TD
형법
##사우루스
특공대
토와
향했
##틀링
주름
미뤄
인기투표
내려놓
Bar
Fre
215
진전
받침
쳐내
받아들일
선풍
친근
오바마
파드
##슘
가창력
트레이서
스쳐
서둘러
데프
성녀
외야
단단히
##캐슬
세단
##하니
아니하
머스
Ext
##다르
소중히
##조선
접한
비틀즈
##하늘
루즈
런닝맨
어기
AMD
시정
알림
이민자
##태우
시궁창
자드
God
자연수
아닙니다
데일리
Str
1926
생계
통역
데스크
희미
송곳
나루호도
되려
레미
다이묘
반가
항우
뉴캐슬
브로드
독립운동가
##숭
달라서
둘러보
##곡리
모를까
##ning
동산
GDP
괴멸
탈리
나가사키
브라우저
Hot
빼내
팩토리
Bea
재상
카를
##미아
가중
Ab
경관
##ERT
STAR
##캐스트
비어
밀러
오마주
규명
RAM
anchor
키움
덩크
위화감
으ᄅ
살린
우투
앞둔
마드
말린
음양
##ump
아우구
세워졌
김제
샤이닝
가세
클라우
나츠키
어린애
Char
고스ᄅ
노사
항소
전폭
성종
자정
##서리
보전
고스란히
러블리
새겨져
'-
케네디
일지도
로페
##ward
가신
뚫리
으시
심심찮
마카오
Met
Rain
심슨
시발
##day
다구
점포
여긴다
우습
Sil
통한다
굶주
소셜
초중
산체
every
대의
서남
중소기업
마천
공시
최성
헛소리
##들인
알맞
##ATION
인장
위인
갭
데이즈
FN
##여행
경상도
무심
아이리
랄까
탄수
붙잡혀
평지
오일
최적화
동유럽
간장
산호
스몰
박민
투여
**
뮤즈
만화가
해결책
빠져서
수리검
시르
영재
체류
want
넘길
이시다
쎄
성령
어울린다
##상스
뛰어났
이목
재화
FE
이분
아다
White
##88
##겨서
비하인드
Inf
옥스
헤라클레스
로버
##내기
치도
찬사
랜디
밀어붙이
최우선
신촌
1400
헌납
yout
세무
팔레스타인
채권
##트럼
빗나가
##트림
셔츠
경의
심플
미얀
인피니트
요지
기판
대리인
수주
레비
문호
##매니아
카자흐
제각
발도
십상
바사
눈부
주시
수료
유우야
이송
계승자
사생활
젯
코나미
KD
포이
로니
명품
북두
맞물려
루드
충동
성동
바람직
진다는
알아듣
군단장
수영장
안테나
조승
세토
현수
역관
앤더슨
퀑
김태균
down
한다던가
최재
긴장감
more
탬
단다
멸자
과잉
황무지
오덕
녹여
May
몰렸
불분
버지니아
길목
애리조
##대표
건너편
정연
207
마케도니아
그물
키바
감속
스트레이트
이치카
Pop
잔여
살릴
IDOLM
다이렉트
한인
주부
도보
개틀링
권역
##살이
빨려
오퍼레이터
대도
발령
빈스
로로
저스틴
여행자
근로자
Master
청문
주권
장막
내무
##소통
흑룡
배럴
남긴다
대한제국
터무니
##대군
##뜬
의류
의사소통
하렘
트랜
##son
체로
지자체
한결
창세기
하데스
내려왔
편집자
노마
영국인
##드래곤
게ᄋ
투항
##뮤직
##au
##쌀
부녀
분과
서울역
유부
##ANC
올려서
PA
외교관
자음
우사
##oud
농어촌
##쿠버
튕기
냐면서
병맛
박기
머들
볼프
심리전
##ves
##트르
아르테
익명
사단장
##지리아
단연
감도
나이지리아
치밀
길러
낮춰
포유
##피탈
몸체
Game
시크
뺏기
고모
대입
초연
##밖
숙명
나기사
도망친
공석
불분명
##엠
이범
지갑
##실록
노동조합
멧돼지
무법
여객철도
OR
사병
##밑
촛불
플라워
요하
로자
스펙트럼
나시
는데도
충실히
수년
##뚤
수뇌
안식
분전
외쳤
161
죄인
경희대
미분
##마츠
they
며느리
끝판
감시자
##지물
펼친
##쓴
1922
사카모토
##ift
내걸
티탄
송라이터
행동력
데려다
여대
체급
란트
만화책
##릭
##블랑
거신
리비아
엠파이어
##ship
즉석
전용기
명확히
서유럽
호타
불러서
스패
##노프
날릴
##ape
애프터
COM
동독
너구리
쿠미
라데
유시
제품군
##부짖
성검
울부짖
중심부
Are
븐
##갱
한중
경시
카에데
신령
##감치
랄프
GAM
기공
그토록
##원군
오반
공적
##찌감치
둥글
피고인
조로
치세
미하일
들통
##그로
경합
리언
1923
열렬
놓인
지출
체내
세츠나
TN
행각
WAR
민지
기생충
국물
절약
역전패
간편
터리
1921
고갈
기린
자재
구만
##현동
TG
외래어
스노
김택용
##lock
좌석버스
##ᆺ빛
레베
불가피
카트라이더
크러
차마
반자동
원한다면
메커
산출
요양
몸집
트레인
Bu
재빠
애써
가야
무네
Bra
##또
멀린
나데
520
##을지도
only
시세
로미
언론사
마오쩌
마오쩌둥
##ien
아노
마우
##도사
멱
시프트
익스트림
천문학
Yeah
부설
아킬
버즈
경전철
##관계
마비노기
##미리
애덤
속했
DA
켠
의약
단번에
##less
필기
사시
준장
쿼드
이장
비둘기
##ize
특색
news
학부모
소망
짓밟
크림슨
##산면
아만
##장구
도타
순순
##zy
음식점
루시퍼
Cont
##LD
마취
완패
절감
케어
##니케이션
디디
메이크
이트
솔리드
피니시
리시
헤더
성급
피버
커뮤니케이션
오스틴
pl
욘
터미네이터
신공
걸스
제명
하얀색
아란
등용
제네시스
##EE
일컬
이라든가
프란츠
졸라
##형제
탤런트
##아라
티나
밴시
예하
산산
Hea
##떼
창간
서약
친화
트레버
##ᅪᆫ
##플러
치소
인분
사라질
쌓았
##45
월터
르네상스
임페
이도
항속
장대
활기
##led
##레이드
인다
##고루
유스케
셔서
##omb
아껴
일갈
섹터
강령
전투원
자치구
아세
당근
일생
포괄
극동
궁정
##준호
비범
콘테스트
영화관
남아공
다마
독도
구스타
설문
붙여진
쏴서
무패
급여
붉은색
구비
종로구
운임
어려서
##똥
간첩
폐하
거쳤
급제
위태
독설
포진
저거
댈러스
##기어
단간
출생지
재차
##ited
Project
교직원
##HD
##법인
그지
락스
팀킬
온게임
온게임넷
##마드
와타루
7000
세련
리포
배고
##람쥐
민속
##문화재
복부
Joh
회자
##조작
다이스
##ALL
Off
자위
온전
Battle
불허
##마트
이상민
TEC
응징
생포
붕대
1912
쫓겨나
읊
외침
TF
노스케
불안감
쉔
플라잉
정선
선상
이유로
스릴러
다트
우동
메츠
계약자
순순히
##ita
승부조작
유다
밀쳐
다이빙
정주
발자
회유
이어폰
##준혁
팔려
JC
##소타
선별
Open
몰려오
##ORM
톡톡
성유
동이
##ton
원상
반죽
태후
DDR
~'
가져와
정국
협공
조나
성품
척하
빵빵
##29
노브
순차
천연가스
wiz
칸나
뭣
Sky
돌풍
지못
백지
지못미
화내
패미컴
##낮
Moon
나뭇잎
치를
쥔
조니
전투복
브리핑
케미
우이
번거
......
조부
##웹
소주
설레
221
##ENT
BASIC
이석
연장전
노원
기염
관건
알비
미네소타
##선스
앞세워
일직선
777
무너뜨리
얀데레
맞대결
good
##23
스켈
카르타
구워
힌두
저력
타츠야
라리
전라도
하늘색
##27
##row
레코
1300
풀어
맞췄
부서진
##촬
야자
섭정
예뻐
꼼짝
##돔
##슬란드
##메르
짤막
급진
넵튠
##개골
어우러
아틀
네타
차크라
카즈키
감염자
Like
다듬
##com
##위원
남짓
내려찍
체구
아이슬란드
무모
성원
마코
라이선스
청취
초회
바꾼다
수족
WCS
##ling
라든지
소탕
매도
희박
경비원
김현수
Special
##즐리
엠블ᄅ
화속
2022
인플ᄅ
조개
오모
음란
순항
흉터
여느
갱단
거둬
마자
졸지
##말라
beatmania
##의지
니즘
방어전
개드립
##타기
올라온다
반짝이
네메시스
Bad
눈썹
탈탈
류지
노프
샌드박스
도메인
아틀라스
재주
비서관
탄다
강호동
##교회
짊
톱니
누락
온건
검거
##뜸
관현
이나즈마
막말
보인다고
도망친다
둔화
낙하산
정했
중사
음모론
루리웹
경영학
디에고
하천
TT
때릴
티셔츠
탈주
일정량
산체스
업자
악인
이북
빼놓
릭스
통학
데이터베이스
Soul
숨겨져
합금
바이올렛
##일관
파병
치과
백수
다이크
추위
부상자
팽창
Med
코팅
세이지
는구나
##rop
멕
미달
모치
주립
급상
탈것
프라이드
성범죄
특촬
채운
착취
원로원
사죄
##도스
##브러리
벤츠
둥근
브래드
213
드래곤즈
##방식
임프
거창
잘린
반대쪽
이천
##질러
이시카와
크레이지
지폐
마호
급한
마셔
호라이
##UB
칠흑
진행할
키나
박태
서스펜
형벌
end
Po
##vent
마사무네
앵글
티타
Hey
over
정관
피쳐
환불
생방송
입혀
쪽지
대지진
FBI
##산리
픽처
이메일
##line
일간
쓸어버리
##ute
Now
WOR
무당
일파
조현
반납
자기장
헬로
저질러
저렇
시빌
Dragon
성희
폴라
Bur
엘라
여하
223
찜
몰라서
##play
유노
시킨다는
넘쳐나
빽
##부리
명백히
our
사카이
##xt
철벽
##나들
275
내려와
밀양
밸브
해프
드미
히코
스피리
햄버거
전갈
##지기
메커니즘
##다녔
놀란다
##먹이
스탠딩
바실리
부통령
키울
##드류
baby
관용
양지
막스
##나가와
자자
파괴자
정부군
##stem
래쉬
001
불러오
미처
니즈
헤지
#,
이바
신봉
지나갈
##oney
거처
세속
옥수수
Eng
뽑혔
에테르
미유
달린다
장동민
거머
매점
순례
##소니
버퍼
치히로
대장장이
사오
지질
미카엘
fl
성운
처한다
반달
돌린
왕립
급습
##스러운
원나라
##맵
1907
##방사기
화염방사기
하시모토
##96
만장
연성
벨리
스탠스
민심
팬클럽
수차례
폭군
스투
자선
일찌감치
구루
본드
액트
ac
신탁
영령
손책
에로게
퍼진
비행장
무찌
개관
쓰러뜨린
아카기
Way
쩌
코브라
일개
##글러
올리브
제너럴
던져서
민사
파나
급증
강서구
인승
결선
##규어
##두근
종속
슬쩍
노보
퍼졌
Alb
##FFF
조원
##IGHT
골리앗
결단
외환
린다
패권
지으며
수당
##미츠
원어
##eng
설립자
햐
써니
해프닝
다친
수납
엠마
see
볼일
라이브러리
마리사
겸비
1905
바빌
관전
암기
펠트
황소
케니
카논
스쿠
연대기
세운다
행군
테슬라
##벅지
새신
포자
설교
디비
##는데
##lt
문성
럭스
수퍼
번번
참모총장
제국주의
##콥
탄두
튀김
갈아입
DAY
러시아군
아득
골짜기
빈센트
구스
뒤쳐
태백
슬라이딩
##나우
Int
송신
365
거쳐서
Cent
조문
방관
max
레그
악질
속사
미나토
Comp
망설이
현무
##레즈
증진
향년
막혔
초전
전령
일괄
쓸쓸
희생양
Match
모리스
부기
앤드류
타케루
##툭튀
##시즘
선글라스
티모
트리스
슬러
지쳐
##홍철
차오
골고루
코로
##영향
됬
수송선
모로코
코일
료마
클로버
Ass
은가
거행
극성
샤르
갑툭튀
##ᆺ소리
216
대구광역시
최형
두개골
백두
##26
지탱
보급품
바깥쪽
##짖
제드
변모
맡겼
블루투스
반주
총구
명장면
부어
검출
내줬
구라
"'
사생
미용
하남
거니와
물음
아이오
Yes
초필
충무
욕먹
템플러
자결
명실
데니스
본거지
밴쿠버
##건설
##스탕스
370
레지스탕스
좆
언락
왕성
끊이
아데
다량
동아일보
마공
##드루
막론
파기
리더십
say
시베리아
블랑
NAS
최하위
여명
정한다
행세
리얼리
Fla
증강
사업가
큼
레프트
right
사주
라일
알제리
이남
자판기
복식
메두사
재규어
이문
매지컬
걸치
격납
암흑기
재발
푸른색
수속
미공
승하
덕택
정대
서유
토토
만년
코칭
두른
떠올랐
kr
매매
양육
##열차
##세이더
크루세이더
홰
소란
경전차
##렁이
해발
텐더
한복
세레나
달한다
##ude
교제
##독부
포상
메르시
어진
##맹이
전위
CIA
##원지
##천리
샬로
장기전
Ook
##내셔널
인터내셔널
부르크
라파엘
사파이어
##디우스
좌완
광동
하버드
미코
PvP
포레스트
이달
##ata
잠식
레오나
##ᆺ밤
약해서
찍혀
베이커
SUP
##공주
에어컨
에노
아츠시
사서
토사
왕세
봐라
구실
드래그
##큐버스
케로로
리벤
오카다
##뜯
수혜
시오리
사력
공안
연화
폐위
시연
사드
선역
Last
아날
몽땅
XY
쌩
에러
호우
총애
상승세
시종일관
우즈베
뽑힌
거미줄
동맹군
IF
보호자
멜리
척추
##게이
밀가루
이터널
부술
화판
개찰
장담
TWICE
무안타
결투장
##짚
차갑
현질
누님
부전
처방
##ius
북서쪽
쟁탈전
거유
명왕
래리
크로노스
떨어진다는
굉
헤븐
카메오
소름
쿠퍼
화질
명은
자멸
급상승
아랍어
플레인
##고스
야구단
도입부
440
가ᄂ
정윤
세비
공중전
막시
미약
카트리
나카노
##III
##red
부적절
수뇌부
배반
유족
마운틴
적기
난장
나온다고
카멜
자치령
하반신
였으므로
잽
네로
기어이
간직
벗어났
의존도
추상
입니까
에티오
순삭
에티오피아
팰리스
이강
불발
Core
BRV
##ets
퇴임
자백
크리에이터
될수록
정보원
지도부
늘릴
이룰
한국군
Mir
Show
##76
죽임
##ated
시라이
보이드
there
납품
스맥
좌상
조그
발병
##매치
##ara
두각
왕정
철퇴
관세
츠바키
감찰
아이젠
석가
배급사
최장
돌기
필승
원반
예매
국내외
스맥다운
오피스
쌍용
덤비
공민
비잔
Nor
데스매치
1908
편도
취할
조선소
가했
원성
##cl
백룡
센트리
사이먼
깜빡
톈
신약
피칭
질수록
##가타
장려
쉬우
his
배운다
아리사
걷어
HOT
정몽
프론티어
우대
크리드
##데라
소모품
뒤바ᄁ
MI
수전
저축
횡령
깁
##볶
승낙
또래
보름
시어터
베레
악수
얌전
바이퍼
퇴마
##44
보좌관
대북
##페어
견고
묵직
테츠야
능하
판과
끝낼
적도
리비
호화
pe
##지리
##천역
밝혀져
아레스
가넷
오보
micro
자가
신격
필적
퍼트
잔재
바운드
슬로건
례
성단
##일기
솔루션
물류
엘소드
모탈
위아
##ely
##클론
마실
수박
연하
연못
반려
tw
승승
##블루
원자로
통근
몰입
노태우
##산군
밀린
무방비
Mark
문인
투석
쿠도
시녀
##테면
컨퍼런스
저항군
##라트
신빙
전문학교
##로프
오산
변속기
란다
미얀마
노획
소나무
커맨더
얼룩
If
##이즈미
이를테면
##UST
##거스
제복
충공
빈곤
슬래시
근위
컬링
##나시
비열
다크니스
갇히
에어리어
각별
뜬공
Art
지명타자
Best
레니
First
차린
##임수
##영수
이니셜
고른
혈관
##픈뮤직
팝픈뮤직
쿠폰
깔리
RPM
수제
허술
##시장
##선다
##디난
난쟁이
스케이트
이탈리아어
엮인
Sur
블리츠
서태지
got
남산
##KO
오클랜드
김소
터프
악영향
튀어나온
##워했
삼국사기
들려주
호르몬
해낼
How
험한
놓이
맨날
빨라서
가늠
그제서야
긋
파주
바드
첨부
액수
돌봐
재미없
크리스티안
##찔
who
##트루
시미즈
츠치
틈새
##OCK
용왕
id
큰일
허벅지
##꼼
식인
인플레
여운
커져
칼리지
-.
부피
직면
베아
통찰
금서
Sl
고뇌
열광
쓴다는
Christ
언론인
##85
Ap
##멈
어딜
카프
히이
근방
평하
219
##INE
이대호
심해서
위안부
이형
피그
감마
분출
##니르
간절
연합국
끝낸
이규
압둘
가르시아
##넘기
중론
페달
훈련소
구미호
##ga
아스타
부토
후카
푸쉬
셧
알몸
프리드
웨딩
자유당
##udio
해밀턴
어쩌다
틀어막
낱
옐
##ERF
문관
사하
무리수
인제
평의회
머릿속
토코
한족
거라
시리우스
비타민
린치
Down
소폭
다이어
김신
난징
복각
급속도
RED
망할
중화기
FFFFFF
임페리얼
저음
폰트
남친
정시
곧장
책봉
Never
NA
##푸르트
엿볼
동급생
추론
##ric
갈려
유창
민트
Sam
투르크
950
처해
키치
벼락
전황
낯선
##만도
오자
섣
Tour
약수
겉모습
마키나
말살
파탄
feel
도망칠
화전
군세
송병구
백과
밤중
##work
벌일
눈치챈
Free
NAT
어웨이
들으며
티거
활약상
다지
추운
##통일
물들
이조
하이브
540
클럭
아유미
##ther
나오키
시커
금곡
골수
##ley
덩달
닛산
퍼니
주루
마토
내쫓
소홀
잊혀진
용인시
고고학
매그넘
활발히
화룡
Na
시술
단타
김호
Side
질질
전우
검도
이뤄졌
뚱뚱
대나무
동결
장자
##세우스
받아들인
##ux
##깽
지저
가르쳤
진다고
된다며
재래
GX
화끈
416
GPS
미움
Magic
튀어나와
병신
환산
편해
옵스
##메이션
##NG
##HC
전쟁터
##럴드
하쿠
카츠키
독단
중의원
분비
키쿠
##ᆷ핑
일기토
나리타
그분
와도
제동
사쿠야
궤멸
조짐
사복
영수
한들
##다듬
개리
선후
치워
##erm
미니게임
동성애자
yeah
##hy
치곤
투수진
페이퍼
엑셀
인테리어
##캣
Track
몸싸움
##ᆼ스
##황후
전패
세가
##요리
슐
정치가
겹쳐서
미완성
서동
판명
투표율
로선
외장
곡사
유역
박차
허니
탐험가
페미니스트
이반
마르티
엄폐물
트라웃
개더링
다채
패트리
형주
지석
통영
Sim
정승
토바
까다로
##사관학교
동남아
갑주
개헌
박히
9000
직진
창시자
상서
배틀필드
정착지
로토
내공
픽처스
지하실
시속
KN
조선총
전곡
검색어
아재
진범
페라리
해설자
체크카드
KCC
라르
스커
경비병
엠블럼
다발
내준
태어날
끝없이
톰슨
제곱
알프레드
거액
차인
충원
윤성
태양계
마크로스
신년
##ird
조선총독부
KA
한미
공연장
랍시고
##가르드
살아온
바그너
마라톤
한눈
Pol
##러기
페드로
면도
야말로
##뭉
흩어져
포식자
girl
##스런
일어서
사학
오레
성희롱
City
보리스
프리킥
노선도
PM
##스부르크
##전쟁
##생물
체하
조공
빅토리
화보
##월드
대영
오데
245
드러머
오아시스
Happy
앤드
땄
스턴트
이뤄진
방망
공황
불계
대구경
성시
난데
Party
##고생
##사람
참수
##BOX
##이인
##트려
절제
축출
깨진
##삭스
밧줄
광화문
충공깽
우여
포섭
슬립
Edition
두근두근
##UL
가무
미우
현종
지상군
코데
김한
플랑
잠정
##rew
족보
쿡
야마자키
Perf
메탈기어
AW
##니컬
초계
올레
험악
##21
리제
재결
골절
노블
능욕
스러웠
평준
##소년단
비룡
야인
##슬쩍
090
잊어버
짱구
캄보
라카
오도
멘토
##UK
청문회
라다
카르텔
의뢰인
##파일
Cap
낙동
##플렉스
BP
YG
넷째
쥬라기
Fall
234
숙지
고아원
di
깍
신천
쓴다면
할지라도
이츠키
물결
샬롯
Final
실감
천왕
초딩
엑스맨
콩두
옴니
이ᄈ
아와
코러스
약사
##aka
##ᆺ코
선율
##코스터
가져간다
벤트
로어
아날로그
RT
##엉
모였
그리폰
왔으나
끌어당
##yes
퍼플
수사관
life
해낸다
원치
치프
그러다가
EB
블룸
즐거움
박병호
차우
허다
삽입곡
롤러코스터
토우마
애니메이터
권하
난다고
226
싱크로
Will
아로
##ris
##블렘
난장판
우디
풀이
249
알바니아
엠블렘
주화
부우
로스쿨
김하
다비드
##프레이
야스오
동명이인
미식축구
송나라
아야노
##거래
규율
붙인다
판단력
마사토
포구
라티
출국
이어주
로렌스
블로킹
PT
##트레
세바스
부록
스트림
잠든
안톤
악평
위닝
밀려서
방사선
안젤리
##오버
##분투
##레톤
망각
꾹
주지
카툰
호각
소방서
업종
북동쪽
넬슨
도봉
바알
사냥터
소나타
티라노
방탄소년단
만성
백병
Angel
호라이즌
생식
토카
남인
##핍
우선시
메가트론
켈트
RX
저명
스켈레톤
##카르
소양
카자마
##해져
길래
관현악
야구부
유승민
##글리
분양
치는
Stage
Net
뻔하
Spring
make
강진
흡입
##게스
효용
적과
이룩
겁쟁이
숫
클라크
니퍼
귀한
재보
##que
맥시
##arius
SEED
우먼
217
최원
보이즈
팔렸
곧이어
함유
스테이크
오리지날
WHIP
상소
슈리
퇴직
410
카츠라
컬럼
들켜
찾아갔
##하임
신태
배수량
김은
##데오
방영일
BMW
시프
올라서
증대
어시
엘더스
제주특별
##자치도
제주특별자치도
##ONE
경순양함
##재욱
재일
인삼
##tain
동률
##곡절
흉기
사적
속주
싫어한다
린이
Boy
플랜트
보성
##부사
파비
Club
생몰
예민
우여곡절
댈
루돌프
##ision
자행
에이미
웍스
디바이
그레이브
끼친
깃든
모셔
애시당초
하강
##럭스
##높
반도체
괄호
기교
전자기
질려
론가
멈출
호족
디럭스
표준어
깐다
샌드위치
ff
챙겼
귤
발사체
슬라이더
도래
##모델
경부선
요가
1906
월등히
혼잡
228
ABC
BW
사요
소품
Come
Great
픈
쑨
##str
RR
미상
233
##걸음
압승
빨아들
옅
매료
산전
좋아했
중순양함
레바논
향토
스러움
##네이션
피노
라이토
잔존
계약서
##폴트
쌔
##로이
홉
최연
애니플러스
가맹
익산
##95
한승
Cor
경멸
파커
초라
겨누
끌리
캠핑
마석
토드
기울이
리만
내용물
##ASS
도네
검기
억양
아돌프
루기
##ader
김시
칼질
##ama
혈압
모자란
교무실
##OWN
싸인
궁궐
치토
옥타브
유상
잘생긴
박한
고철
미도
과열
이보
##ague
기념일
소대장
악단
양말
여중
독살
티르
##신기
쓴다고
part
수만
천진
캄보디아
##쑥
커진다
골격
철자
용호
중대장
미네랄
Class
황폐
트렌드
##ause
타원
걸쳐서
구한다
진기
##팔로
예컨대
##IME
편애
224
IMF
평이
잠자
뽐내
초구
파라오
Break
MY
나왔었
스팟
Fly
##거렸
포커
투영
속임수
약품
잔소리
375
##ross
텐트
황색
##ival
연마
##ᆯ리온
실탄
취항
역전재판
사우디
버금가
has
아르타
SKE
받아들인다
서주
엘릭
im
아디
Legend
염동
발열
##보살
설진
친왕
바티칸
신진
발포
피파
항일
목조
자릿수
cont
산림
##겨운
Little
하자드
PH
##츰
구가
버크
티격
경대
##바인
인원수
강대국
기보단
##ism
사이비
퍼블리
센고쿠
##83
임재
##관리
환율
최형우
들어섰
누렸
aqu
##눌
기증
하인리히
허약
복수심
머독
청자
열릴
내세워
시부야
기압
##상부
신승
쓰여진
문경
계신
나눈다
띵
발하
조각상
위저드
였었
발기
##와르
세울
젠지
골라서
자서
시우
##장치
레볼루션
양방향
광폭
Girls
북벌
코퍼
틀림없
우등
용납
##att
갈라지
Univers
알아차리
클러치
발족
코우지
깨졌
##뻔
##모트
집요
만우
##테라
예비역
전해졌
##레인저
##IVE
견뎌
코바
황해
낙서
거든요
해온
마레
만악
보스니아
RB
뜸
세터
털렸
어설트
는커녕
세계수
Swe
구식
##erry
수송기
'~
ER
NFL
지나간
##불리
교황청
고참
못했으며
서산
키사라기
정찰기
꺼려
묻힌
승용차
##슐리
회원국
fr
코요미
##댄
##대왕
##끌
공평
초음
는다며
잠겨
사춘
김구라
뮐러
시급
나설
보그
파워레인저
강정
John
EXO
조동
잖아요
프랑크푸르트
은색
아누
모금
별거
찍히
APC
윤종신
폭언
수목
심복
이완
로젠
치하
김규
숨결
머물러
##르슈
##네즈
연합회
폄
##ᆯ로지
빙글
아소
대주교
전주시
##도어
내세운
카자흐스탄
몬트리
never
몬트리올
에마
출진
301
내려서
음료수
슴
녹스
떨치
레인저스
셔먼
스틸러스
비방
##교사
벳
코미디언
모차
박원
포메이션
출연자
뽑아
글래스
비야
팻
마이티
##클로
남아메리카
우왕
##uch
목장
아슈
증표
냉혹
again
초심
천자
성우진
바이트
만우절
야나기
##구멍
##매김
순회
해부
피했
평야
heart
이바라
##티티
Gl
후사
몰두
추축
빈민
##피온
치솟
우려먹
자객
자리매김
켓
컵스
CGV
미스테리
개전
오거
몰아붙이
호위함
위아래
열대
광해군
돗
오정
크로스오버
스테판
시메
227
하동
폭넓
나아지
##ords
PRO
정민
##보스
헌트
망가진
Mem
Take
호문
러스트
이면
악연
하로
##시온
거침
##전함
호모
올인
착안
마사히로
도요토미
봄버
히다
레이카
견딜
##충류
램지
히브리
겨냥
성소
##서니
국보
슬프
사츠키
매기
콴
사춘기
무예
헤엄
노홍철
실록
담보
##샤인
취한다
조슈아
TBS
명지
패해
쇼타
강국
390
1913
악세사리
대기실
살피
비평가
em
헤이세이
에버튼
통폐
린드
건축가
미공개
뺑
보류
지원군
##람회
눈보라
볶음
한판
인계
원사
모자이크
놓쳤
낙양
라몬
512
교묘
##마니
범하
화성시
##미트
데인
니르
윤영
##ubl
강희
화합물
라이엇
우울증
제때
요령
매튜
비우
1909
차고
오우거
북위
은신처
레티
휴지
루시안
캔자스
프렌드
남겨진
힘내
##베트남
동탄
##조림
##칼리버
징집
##란트
비견
지식인
나아졌
제천
갔으나
프로토콜
생생
괴이
가져올
가한
미시마
##스타일
이여
시끄럽
숙박
고야
sk
브리지
정설
줄무늬
서신
편향
점성
빼돌
##브론
에라
가할
대련
임정
1915
마방
돌려서
스미레
이리스
교명
정치력
알라딘
중종
가둬
남동쪽
##포동
은빛
011
시켰으며
인턴
무함
키는
토치
xx
계엄
갈비
유권자
기다려야
##그래
##body
정근
Cry
mA
##집니다
뻔뻔
의약품
케일
오승
오컬
큐트
저상버스
Hol
가온
어르
도가
1700
타쿠야
의결
근황
##정리
오베
각광
맹렬
북아메리카
대니얼
반입
선가
나오미
흘렸
##토모
##ital
견습
김종국
유키노
흑색
뜬금없
크류
모하
철혈
제네레이션
에디터
대성공
사칭
총수
##apan
스냅드래곤
수첩
칭한다
뜻밖
종파
돌변
품목
##주니어
##세움
쌍검
원가
딸리
맹수
정명훈
분파
활력
식용
시티즌
시칠리아
##스기
위드
페가수스
애착
양양
ISO
내분
재기
내려간
개표
장지
##iny
크리스티나
시트콤
울산광역시
모사
알려준
EPL
껌
얍
풀려나
타도
반공
쿄스케
##넌트
나크
##리즘
##제프
거래소
##ᆯ림
백스
빼앗겼
ad
달릴
반쪽
푸시
##ura
##전대
더듬
투덜
폐업
##뉴스
OO
##시간
주선
예거
서대문
통폐합
나성
##박혀
전압
비터
##ople
기권
둔기
뚫려
아틀란
재계
##ler
키시
씌우
##cy
김종민
귀속
숙제
##마을
띈다
here
아린
폐인
##REME
Ho
간과
오컬트
Gal
##ᅥᆯ트
DSP
도맡
오사무
어썰트
당겨
허물
담원
뉴타입
Sn
이븐
넘어선
클레멘
1904
니콜라스
##DDR
오현
##펠러
문예
트인
크레인
관람객
747
코네
꼬박
스스
Ind
OM
무마
Mbps
##라이어티
HR
~?
경복
버라이어티
##oun
표류
슬로바키아
기금
타오
브뤼
둘째치
씌워
bb
브록
정박
쾌락
펠릭스
남서쪽
군청
##ino
데미안
바닷가
강해진다
전조
카오
인기가요
##훈련
밤새
##irect
소외
손발
김장
치러진
naver
매크로
날아갔
MUS
에너
거둔다
\]
동자
릴레이
##78
내레이션
야요
헤어진
합숙
공소
풀타임
아쉬웠
기념관
##메이트
##IO
##TH
##팽이
시제
요르단
보여진다
로더
여차
일면
엄연
카즈미
GTX
도넛
자물
스러울
입점
확진
펩
모용
상층
나타낸
231
다이노
우스개
느려서
단결
커진
세이야
체이서
성북
테드
역도
잔치
##십자
##헤드
설리
##길이
쟤
전광판
고온
방아
오라클
FO
루가
트리니티
노미야
증식
추격전
|[
걸러
우즈베키스탄
Real
프레데터
aquarius
사고방식
1916
끈질기
##가키
일전
이레
##벡
자물쇠
Rad
선샤인
마스터즈
##aker
bo
운하
무트
뛰어다니
NORM
조경
상역
서라
252
SMG
when
지효
##소연
류우
급감
응하
튀르크
환장
꽃잎
당부
금세
진중
단호
접한다
가비
##후미
완주
타카히로
사각형
때렸
라이덴
섬뜩
염증
콜레
경비대
닛폰
Sou
##AE
##by
그늘
카밀
강급
식구
컬트
실물
암묵
교통부
역적
238
짝퉁
서바이버
닷컴
트롤링
프레드
카라스
미친다
##식물
특혜
서강
백종
아라시
나카지마
선단
가까울
장시간
gu
주지사
그딴
노노
수학자
뱌
타일러
파헤
꺼져
let
##ᆺ값
숙이
툭하면
Aut
##lex
순전히
아오키
##UD
중용
NORMAL
올라타
친일파
코스모스
베풀
이동기
딸려
훔친
When
이따금
야요이
조만
##젓
질책
덮치
협주곡
신뢰도
유괴
신해
아이파크
##줄기
430
좁혀
any
##유예
샛
주변인
돌려받
데이지
계주
기대감
다리우스
펼친다
닳
가락
주조
뿌요
선보인다
Park
만신
손길
명심
Single
##BY
무함마드
새턴
이코
애꾸
##너드
고체
수없이
어쩐지
익혀
전단
똑바로
##드라인
로켓단
공모전
##36
그린다
조건부
세이프
하가
웨스턴
츳코
성매매
##노트
에니
카니발
송곳니
싯
##부수
Who
샤이니
Esp
등기
독소
엑스포
나츠메
고영
내세웠
해봐도
EXTREME
멱살
play
마커스
##lection
노미
근교
##onder
외친다
뒤서
머큐
PG
공표
신노스케
먹혀
Hi
마일리
웬디
##anger
##gy
스타킹
숙적
타사
집게
프로테
폭투
금정
걔
가도
방주
영도
롱주
탁구
##48
실컷
양분
원술
매춘
농성
도키
향신
브리튼
날카롭
하르트
우의
테디
원정대
냅다
선량
피렌
출토
가계
차차
타카오
##나타
카디널
고군
##사노
사이다
Feel
퍼레이드
안주
래빗
달려드
min
일루
##설수
육신
이크
카모
공구
기념비
Du
레타
##raft
펠레
Album
Je
무례
잃어버렸
그랜트
mAh
가늘
엣
수양
루팅
합격자
버팔로
JYP
을시
광란
프리퀄
알렉산드로
뜨겁
북아프리카
명제
살아왔
##RO
여제
전범
##무르
메우
##ONG
갑작스런
서슴
입혔
들어도
동맹국
아틀란티스
하즈
개요
진명
코니
한국식
싸워서
백웅
팔다리
Cal
Mix
##져야
낙사
ap
개머리
감춰
금단
사무총장
아카이브
##닷
우터
동시대
hp
데르
틈타
des
차츰
기형
타깃
스프레이
Inv
플리트
즌
홍익
파충류
격분
오웬
업소
서스펜션
자오
부대장
하야테
##게이트
지평
분실
분광
팽팽
##로니카
신스
치요
열강
코비
레베카
##산부
풍습
SNK
##ᆸ시고
키네
외동
##98
포커스
계책
코스모
##ya
주점
이효
탄산
red
데려왔
WWF
Ret
방콕
완승
기신
찼
츠네
Hero
음파
박동
Kim
도면
테두리
규슈
주유소
야유
수식어
##타마
연정
광년
##비슷
앙상
우치하
베가스
조반
익힌
##태격
쿠보
어떡
굴림
티격태격
항공대
##여겨
##ations
실권
재편
투지
부러지
Ult
은혼
놀러
강함
짓거리
근육질
껍데기
QP
##혐
236
##뽀
대첩
공문
이광수
킬로미터
장민
텝
넥스트
##ᆷ없이
사보
감격
##ouble
코라
##클립
플롯
다테
##제비
굳건
단국
껴안
모차르트
##뮬러
대서
마셨
면담
공무
작자
슈테
계몽
뒤섞
##ball
성물
다나
서큐버스
눈길
Blood
소자
코아
##병기
##뇽
라디
관내
윤석민
Fun
some
은근슬쩍
역행
대장간
가까우
배당
음절
STA
한신
나눠서
KE
속출
경제력
자습
평온
불계승
치환
장문
지원자
국지
뜨거
나자
요절
여길
살아갈
##나르도
어정
##정사
통통
##uture
인페
피시
Sol
리플
누른
크래시
공예
별장
몽환
루트비히
지치
수비대
를르슈
터너
보크
오기
##eck
달려오
##러지
최민
##떨어진
아구
노린다
탄력
지날수록
##vil
자일
성화
총무
라이스
늘어날
독일인
엥
##더리
need
이라든지
원안
Sweet
##르도
로아
##더미
윤지
010
격납고
지네
수트
##eek
승승장구
매혹
악재
다람쥐
##사태
변기
굳히
##ocal
KBL
Ag
##떨
##ather
스콜피온
앞부분
잭스
시게루
Val
원료
코타
##배기
논하
어울려
일렉트릭
스무
##숲
제련
Tech
횃불
화순
피어스
줄인
둘러싸여
중수
열화
자서전
##TC
요요
피통
혹독
돌고래
천안시
유니버설
이견
신야
사타
265
홀수
햄튼
사념
실격
반열
하모니
##비어
마리나
##볼트
마르셀
실린더
CBS
박인
들이닥
합쳐진
꼼꼼
워스
짜여
조련
유품
스트롱
결번
소리치
하룻밤
합쳐져
투자자
넷플리
넷플릭스
정액
강북
희소
금천
앙쥬
개머리판
Say
면치
왕권
밝기
##HN
한류
내신
료코
주둔지
로드리게스
부순
조례
스펜
박살난
USS
전면전
피쉬
지킨다
순종
##날레
##암리
끌어안
##ANCED
재탕
##arth
3500
초밥
봉건
거머쥐
한없이
비화
명계
치어리
간다면
##리학
루디
격변
클라라
이언
가열
불륜
매달리
이윤열
아멜
설날
청량리
캅
최승
##피드
Def
야가미
복판
##onna
교육감
510
Space
바카
언뜻
눈여겨
도카이
호크스
802
왼발
컷인
죽여야
야권
다케다
홍차
기색
장이
난도
232
맥도날드
이다
사루
충당
로밍
스메
정신병
흑발
반년
매카
부끄러워
##34
말뚝
사이클론
잡힌다
them
제이미
대항전
노련
Beat
##뚜기
레터
##태인
돌려보내
최준
##바탕
프리랜
##ours
옐로우
클루
후추
앞머리
이불
##리아나
특별자치
빙하
노리코
특별자치시
공판
경계선
조시
하루히
예선전
뭉개
르블랑
상디
얽힌
댁
국한
메릴
기니
염기
치뤘
시영
히타
높였
페르디난
일제히
시달렸
her
다르크
훌쩍
산산조각
레이브
대항해
이연
한문
기껏해야
판례
타이베이
로빈슨
가우스
##사무소
명절
##티시
변칙
##ena
이루어질
실기
비지
##hammer
작센
##더스트
위그
WORLD
붙일
렬
엽기
태반
대덕
수교
원군
히로미
알렌
메기
변속
640
안즈
외과
프랑켄슈타인
##뽕
번성
Orig
영정
컨버
##ames
제각각
클리프
ADVANCED
꼬맹이
쥴
메모리얼
부포
직사
러서
희한
인위
랠리
GC
미우라
공식전
우라늄
물려주
하네
애호
카리브
서초구
마니아
그레이스
##워진
삼켜
하얗
깃들
향신료
만연
팔아먹
족족
세카
파미
##출력
총체
떨어뜨려
이부키
##지부
스캇
통솔력
##걱
오소
##와일
얼른
지나간다
Dest
월트
파라과이
덧붙였
딱지
묶인
갈릴
Mac
##토니아
이리야
세습
##발리
##매기
스트링
불명예
마음먹
레드삭스
LCS
다던
칼데아
##ement
##thing
히데키
였음을
##게일
표했
엘사
사일런트
외할
##내려
고라
알아볼
##봤
이국
연막탄
신영
Zero
발진
레테
황녀
!!!
LOL
보아
건드ᄅ
홍련
##rough
##콧
조그만
##aid
##노부
코피
밀리터리
속죄
##욕장
밀어붙
세네
##츈
##ways
장영
아라비아
##투사
병풍
밀짚
젠더
GOT
분단
슈타
결속
##입구역
밀수
자하
포박
프로세스
분담
독창
포뮬러
신재
카나코
고딕
번쩍
단가
트란
Story
타타
장발
종업
무궁화호
황룡
워킹
셴
305
푸딩
나니
강좌
폭죽
나와야
덴마
파피
##알라
교량
형용
한테서
찬란
첩자
무토
편차
325
들이받
she
작아
쇼우
##프로스
PERF
길가
클라이맥스
Home
##DER
모란
유린
아스가르드
##느러
##우옌
##경민
##UG
피의자
공격진
프리랜서
##느러미
##ta
연장선
아닌지라
한라
플린
역마
가져간
이모티콘
##ano
그려진다
뫼비우스
와해
빠져나
뻔한
수로
안영
실비아
살포
놓친
파이팅
수렵
고이
##마르크
과하
우소
다는데
철구
디스코
-!
마즈
알린
##une
정근우
자초
선한
##투르
등록금
열도
쿠루미
러프
동일본
##so
다의
불어넣
KC
조병
##뉴얼
주저앉
달랑
더욱더
##테르담
정변
머큐리
Ry
대방
##로리
브리스
권력자
##ait
웅장
쿠즈
##ANG
내보냈
##티모어
팔린
NASA
구부
심볼
에인
전구
봉투
갉
간수
잠자리
빡세
어려워졌
근친
금빛
왕세자
고비
은둔
상병
관례
뒤엎
통치자
불태워
마세요
특례
교외
피아니스트
동호회
IBM
이을
가희
사파
쏙
의과
구운
깨져
수기
폐교
들렸
호루스
##조사
조나단
Japan
##데시
유가족
Stri
짭
인플레이션
에비
조라
교포
질럿
포세이
이뤘
물어뜯
포세이돈
미야코
방수
셰퍼드
아라이
소굴
건널
왓슨
였음에도
기폭
걸림
리얼리티
김건
섬머
로건
우니
친숙
땅굴
##self
행정동
포츈
##신문
김우
##err
수모
묵묵
피스톨
메사
사회학
선호도
MAD
엿보
택했
인디애나
장진
그리워
아키타
이사벨
마츠다
기조
반신
다이애나
클레오
에지
고척
마개
직렬
각주
치아키
넘긴다
##bal
고압
오줌
마구잡이
Hel
함부르크
중앙일보
붕어
위축
독주
딜런
피렌체
본대
떠도
엑스칼리버
Lee
칵
못한다면
##ASY
Fight
남코
먹일
스에
종식
덧붙이
비르
피해야
돼지고기
##ML
유흥
토성
이슬람교
생소
국외
재킷
아이덴
아이덴티티
Bro
Gun
bit
에볼루션
강과
현저히
사이키
허정
람보
빨라진다
강민호
대물
우한
발랄
줄리엣
기하학
괴짜
미니건
단수
절실
달라질
##ands
드로이드
동백
흔치
신예
디나
양천
클로이
약해진
매달려
##어야
##날리
문화유산
Young
BLACK
##jo
##르바이
장화
마네
증차
페라
##arm
납부
아키코
셀렉
##르바이잔
##카타
앞당
가요제
니콜라이
AAA
ph
##TER
에리스
토모코
여객기
항만
묘소
갔으며
캡쳐
Wanna
Champion
발자국
사옥
위계
간담
쓸려
지닌다
셀러
노무라
앳
##65
##위성
됐었
거쳐야
SUV
##ᅥᆼ크
경산
##iful
로미오
수프
타코
Pla
일회
갈망
에그맨
기로
총점
##light
비들
국문
동향
판교
들어야
229
243
##osh
포터블
##츠리
아제르바이잔
가우
개인차
이클립
클래시
이클립스
망신
##elie
##진구
##위원회
기단
당진
무리뉴
수호신
페널티가
스탠리
바가지
단도
감명
승선
경기관총
급소
몰아붙
조성주
DL
자그마
쿠페
야오
##팝
뒤따라
찾아다니
다림
리디
660
이브스
##회전
737
불굴
Storm
아오바
김학
뒤쫓
about
컬럼비아
클로드
골랐
지마
용족
급수
블러디
박진영
뿜어내
없음
##ortex
유희열
펌웨어
NXT
존기
이하일
과부하
안대
쉰
워페어
방탄복
DIO
마성
동강
공격대
육아
아사쿠라
표지판
얌전히
##껴
어항
625
쓰러뜨릴
아쉬워하
##놀드
이케다
MIX
##들린
##바꿈
볼티모어
상반신
Pa
루시아
익사
Kill
가닥
한겨
중남
교화
패트
슬하
되살아
EL
IEM
##깊
바바리
정가
유구
돌출
담장
잔잔
경원
분지
바퀴벌레
라키
미적
엘더
지방도
정상급
피츠버그
마로
김홍
##eter
티오
정훈
##보레
직종
봉화
560
눌러서
##ᅪᆨ
##니발
소고
몰아치
##수원
Jo
TC
황산
노우
요법
비닐
충신
터빈
sec
시그널
SUPER
노을
##lease
하야시
;/
옹립
결정력
##브르
##리온
바운
천리
래더
약혼자
했다간
동두
속아
넛
2400
정준하
Friend
백호
자연히
권혁
타케우치
##산성
저속
콜로세움
심영
힛
사토미
XBOX
다분
카스티
프라모델
불량배
양현종
아귀
버들
못한다고
##다이스
휘둘리
나돌
타오르
건달
혹시나
목욕탕
컨트리
맥크리
심부름
프로페
Line
목격자
칩셋
태극기
##ume
Warhammer
##구석
자동변속기
공조
게이츠
들려오
공용어
명동
##ines
264
##센터
##77
마담
##윤수
There
이매
낙태
국악
클린턴
응우옌
##퀸
자상
정오
벽화
분대장
볼프강
##ATE
여군
FS
##구르
현악
사이렌
임종
come
하오
오하
체르
주제가
조예
미행
티비
their
구매자
마슈
##굽
##합니다
조종당
##OK
의인
##인더
유주
##현수
터뜨려
국공
청각
클러스터
어머
나오토
##ene
##드런
거란
케도
##학생회
신문사
모색
벌려
아카시
요나
##일랜드
디언
포도주
미츠키
니스트
##떨어지
포이즌
고트
침범
밑바닥
가뭄
##ral
도하
들인
래디
League
사이코패스
페르난도
약했
체코슬로
체코슬로바키아
도핑
노장
계룡
투혼
##벌이
지켜봐야
핑거
전시회
스도
치료제
로디
학명
ATM
노화
노려보
가차없이
끼얹
나온다면
밀짚모자
res
사오리
노하우
백종원
프리티
소각
##들였
##노세
EXTRA
도살
징수
##샤바
Road
가장자리
황인
굴절
Apple
ma
입각
Green
슬럼프
들어맞
지니어스
765
쾌적
대격
전경
포신
초신
라오스
##리카와
데려와
구룡
파나마
덤블
원만
부착물
힌두교
대함
따름
평시
헬싱
히키
피콜로
성산
당내
관행
커밍
꾸민
이재명
##낌
다그
##자락
백설
곡물
매뉴얼
한큐
양의지
파운
얏
요네
호적
##zz
연행
헤비급
##ODE
무구
과거사
우에노
나즈
비와
명실상부
##und
##무로
루니
장정
리빌
Intern
내림
서자
선더
뎁
캐롤라
볼리비아
##ORA
순발
효자
두어
몸값
거스ᄅ
세리카
GE
체면
303
관리인
글로브
##수아비
가관
허수아비
##라잇
노어
251
샤인
제타
리차
##에스
총학생회
됐으나
거주민
아코
은인
안파
교활
터트ᄅ
트와일
찾아온다
러시아인
데스노트
트와일라잇
유파
디셉
사이킥
Death
성의
소말
##utiful
컬쳐
탈락자
순발력
Tom
모성
케이스케
살벌
참치
종사자
net
와야
공의회
뱃지
스캐
창법
백마
##ha
연두
합스부르크
Dead
양정
룰렛
노기자카
##환경
르브론
호시노
갖췄
사벨
화이
단층
슬라브
티아라
코퍼레이션
고쿠
구레
실례
타이가
##VEL
NATO
AO
SB
해줘
보헤
253
나타낼
상록
손대
색소
화나
장작
연어
프로그래머
늄
궁예
청혼
어설프
외상
양재
##백호
아드리
##ible
피셔
슈퍼주니어
##플라이
##PN
황천
남방
국영
병자
316
정신기
하피
뒤돌
##동물
건만
완투
##ᆺ감
신룡
피지
##INAL
부팅
코만도
인페르노
살육
스텐
알렉산드르
모조
모태
전보
237
가격대
Champions
다우
제아
김남
##에리
죠셉
놀려
NV
민수
한나
완력
대대장
안팎
사변
Del
##대장
불곰
##창민
샬러
긍지
1896
미나모토
스코어링
아우라
-,
노다
레진
함인
연구회
원내대표
스트레인지
펑펑
로맨틱
타츠미
원동력
바사라
."
공양
성자
##베다
239
프리덤
개찰구
지간
소니아
반반
니지
높일
##rol
글루
TEAM
##뿌리
##펀
김응
라울
##독스
##송이
탐지기
허접
궁중
후타바
##AF
노지
원대
양평
비오
##마이트
피르
##펫
환기
##빔
인대
냉철
지난해
조계
판독
사토루
입찰
씨름
구내
스타더스트
페널티킥
##기둥
맨서
드래건
액스
날아간
살인범
앙상블
Mal
Que
##END
하키
보람
친족
왔었
모니카
내포
##가짐
삭스
460
앤서니
니까요
디스트로
허드
한니발
크랭크
어정쩡
파오
고창
김문
항전
제니퍼
이방원
남대
인가요
##꼬리
##해머
분식
군포
##츠미
터뜨렸
##썩
나토
샘플링
hats
해트
발당
##루냐
쿠토
하세가와
<<
이베
중앙아시아
한겨레
유이치
미역
##신저
살렸
사나다
명치
브룩
분투
종회
양조
환관
접할
연산군
꼰
라벨
저편
아이카
프롬
봉해졌
루시우
##췌
느와르
김상수
난다는
물리학자
디스트로이어
비나
##uss
아사미
##OUR
낄
성계
성악
받들
범퇴
##총사
거북이
비호
넘어온
보위
##키오
충이
이회
EXPERT
##84
한수
농어촌버스
걷어차
##즉
은총
비료
베로니카
사카키
폐기물
레츠
순화
##성장
촉매
펀드
전산망
가발
신검
##oup
두루마리
DH
##vy
원통
애원
레이서
나와도
##융합
보안관
물방울
천성
##할시
바로잡
돌발
OC
의기
천수
충청도
힐러리
스노우볼
파우스트
어류
핵융합
Full
문파
계투
하나같이
중퇴
팥
번들
##ental
멈춘
낙동강
도자기
Pass
코쿠
아이코
효고
광교
옆집
핍
혐한
나아진
헤드폰
아놀드
과대
니라
헤카
망설임
름
유투
조준기
에일
##대상
제레미
다이너마이트
필리프
깨달음
빙글빙
hatsan
XC
젓
골문
웬리
거하
1895
이타치
##??
김보
빙글빙글
수이
혈연
의구
풍미
쉬워진다
곧잘
에델
속국
넓히
픽션
TSM
아르테미스
서커
짜장
쌍방울
레전더리
##ᅢᆨ스
무법자
안락
어떨까
번화
페퍼
##린다고
석탑
##ily
##우먼
비누
다급
자궁
가릴
명상
통장
속여
올림피아
위크
호도
손잡
짝수
흘러나오
훤
시진
끊겼
백악관
프랑스인
아키야마
호가
위용
시즈쿠
왕창
줄지
협업
낙타
레일건
Tra
이큐
삼키
##aser
WCW
모선
니티
흑기사
칸다
Games
모나코
발주
안건
포옹
##보잡
어두워
알아챈
브렛
##댔
파스타
칠곡
엔도
##ground
패럴
듣보잡
귀여워
##리케
폭락
아서스
흉노
패러독스
떨쳐
부양
##훤
도화
##ᆺ자루
그렌
포제
스타터
242
##퐁
남해
탈바꿈
숙부
어부
##OSS
시브
조셉
##공원
태아
501
태권도
럿
황재
팬더
선점
명맥
통조림
##리아스
징벌
Set
퀀
우루스
244
즐겼
##에이고
샌디에이고
호라
농림
차르
느슨
아키텍
선구자
아키텍처
미화
휘발
히로키
냄비
떄문
스니
설치류
차징
니케
##UND
left
버린다는
나약
파치
타이머
스레드
##퓨
사샤
청계
샤먼
로메
리어스
쾰
하체
요술
가져갈
##awn
##슬ᄅ
알마
산란
공산주의자
FT
남궁
뼈아
MAN
아샤
거슬리
후원자
빠름
탈영
왜구
적외선
와이파이
때린
반대파
랜드마크
##ormal
OT
비문
살림
Pack
모서리
감리
잘난
해야지
앤트
유형문화재
유대교
GAME
샬럿
의구심
per
안산시
##빠진
난데없이
IR
쁘
도류
프루
카이바
##스티아
가위바위
가위바위보
##이라
SKY
MUSIC
방아쇠
##86
##ttack
##볶이
보임
변할
파라다이스
메이크업
약초
##밍고
사냥감
정할
권속
알렉산드리아
바오로
훈련장
위법
연장자
메이스
##74
보육
Mad
##사상
원점
대통령령
달아났
마츠리
##IDE
##눕
라피
개소
숨긴
부러진
sw
신의
하산
풍요
##ISS
연꽃
구덩이
탑승자
속초
##gg
방전
입석
고귀
##레오
##ider
백병전
군용
무기고
글렌
옮길
아그니
어업
물러난
객차
##ᆼ아
사스
유네스
경화
후리
라쿠
##하키
보통학교
볼링
부잣집
역부
울릉
벗기
공포증
이시스
오트
동진
건방
양팔
괴뢰
돼요
귀여움
대림
위너스
승마
행크
송지
530
무의미
베티
선거법
박람회
탄자
##드라이
부조리
서두
항마
레이팅
##아내리
##티움
##절로
성폭력
딤
해온다
서귀
##윗
메꾸
취역
##폭풍
맞춰야
고구마
짬뽕
지단
사구
스구
양수
pop
로움
소림
플루토
Ah
모국
##야구
안방
만든다
프랑코
자급
개원
두세
우리나라
long
##꽁
북경
퓨처스
쉐보레
##빼미
적시
세분
출소
##다이라
예견
아르마
실세
뉴비
##leep
이동한
##OWER
역장
알아낸
특검
라이저
바르샤바
윤상
네기
환술
츠지
압수
어르신
##꾼
246
헌정
재판부
wanna
##전력
꺼낸
촉한
블리치
비겁
위급
선취
올바르
##ouch
SDRAM
요제프
구축전차
콘스탄티
##화물
##스텐
into
촌장
아즈텍
켄트
내려간다
이비
실크
크리스틴
핵폭탄
##ESS
승자전
앞장서
고해
건대
##코르
##프리트
없앨
Bet
Long
소프
긴가
규범
켐
진풍
참호
쳇
미겔
요코야마
김광현
경주시
왜냐면
op
기약
만담
변조
심도
분당선
제위
저절로
명하
판넬
##onic
신학교
##솥
조그마
노카
동복
김봉
태초
254
치어리더
척도
호타루
주춤
신변
초빙
유공
문하
고층
##진우
승조
석조
되살리
##ience
어감
불상사
기꺼
거너
강압
증축
금물
거리낌
갑작스레
Tem
블링
전륜
발작
델라
단기간
유목민
시디
##마음
윈도
동방신기
드럼매니아
약탈자
로트
문건
반찬
코드네임
##푸르
##ology
세르게이
다자
초조
니어
복서
궈
고글
재량
##워키
워해머
울타리
##yo
브금
트로트
재생성
GU
커널
페러
밀크
제조업
한하
##고르
위선
뒷담
거들
##니엄
경도
규탄
사운드트랙
신세기
헐리
코사
재물
군장
구세주
기일
비올
자이로
##덩어리
지울
은평
중전
##reet
펼칠
Step
갈라져
Glo
한국사
##바라기
디바이스
크툴
텃
모모코
크툴루
재빠르
MTV
바벨
알버트
따를
릴리즈
NR
미흡
처칠
##지부지
박건
흐지부지
오토봇
벨라루스
사이타마
종업원
거시
윤회
오피셜
영덕
##임새
너비
뒤져
##ᅳ라이즈
been
카나타
쫓아오
NMB
;,
Dem
##코리아
방한
바쳤
묘비
빨래
##웨이트
겁먹
폄하
자경
콥
려나
카미조
힘드
NCT
1080
##저곳
삼총사
이곳저곳
##도시
##자위대
저것
봉지
방망이
고군분투
기업인
watch
줄였
##괭이
##ting
자대
일그러
##버섯
비스마르크
연장포
##box
조끼
황궁
##iet
이블
마일리지
##ᆨ션
오두
등대
민망
배틀로
Ele
에콰
빗자루
서든
난간
USA
맹독충
에콰도르
야미
다가와
AH
##메트
##꼬박
크라이시스
꼬박꼬박
마부
라멘
요도
디어
먹힌다
금상
248
휴양
##ots
굼
알래
쿠사나기
##get
도산
수세
외화
##illa
마르틴
스크랩
그지없
쾰른
성불
애벌레
친부
크레용
Brave
구위
##비지
##테인
지드
레토
호밍
##네시
보였으며
수완
##부진
신천지
nm
진위
실재
학군
카나메
프라이스
유적지
비주류
##br
하운드
##자유
만물
오성
총검
욕하
카루
지금껏
퀼
보옥
##글라
맨손
콜트
카미야
유네스코
TRA
##셀러
VI
bla
다스ᄅ
사채
국교
엄호
브루노
Level
##흠
소관
불시
싸그리
야쿠르트
바랬
##za
쿠웨이트
겹친다
##이야
적의
피사
Chap
냈으며
666
해안가
Her
어려워서
시발점
정산
안구
감축
쓰러뜨려
해치우
##본부
박승
##까봐
306
액자
우에다
디멘
기아스
디멘션
스톨
##32
노년
스테미
다승
안착
데비
레퀴
단군
##저지
달력
손질
글ᄊ
##ander
박지성
알래스카
nb
부치
리지
질타
박찬호
차질
통지
속칭
연구생
케이티
ATP
구청장
에뮬
넋
톡톡히
번복
##GP
눈알
큐라
수두
##국수
##들러
System
도난
허준
코코로
Cortex
금수
도우미
양복
페미
프랑수아
신인왕
Call
반디
두리
285
스필
올빼미
포르쉐
유키코
Key
이홍
##너티브
총칭
얼터너티브
이신형
화살표
사카가미
##mas
##노버
방향키
졸지에
##ᅪᆼ
선착
합하
근소
김재환
투옥
법제
귀걸이
##풋
Spe
MOV
벌집
들였
말버릇
흥국
신혼
설원
극명
녕
뉴저지
에스토니아
오랑
포천
문무
남색
표범
타카미
미소년
Ant
샐러드
레너드
##IAL
##체어
블로우
반역자
Direct
세밀
온다는
시험장
대금
한기
위스
코그
크나
20000
해리슨
공손찬
커튼
Stand
적잖
쿠지
불릿
오구
야마시타
까칠
약해졌
오열
경음
봐요
ah
주특
계양
LPDDR
주특기
Mil
실제론
##블러
멸시
요시카
밀려났
나코
포톤
순양
토리노
성대모사
단추
##enn
떡볶이
휠체어
GA
위스키
외주
인조인간
변호인
가샤
자형
지만은
야루
그려졌
쟝
주희
했었으나
Cha
외교부
충실하
po
이세이
하교
가람
와다
와드
요충
손견
##ense
팍팍
해남
추력
##함수
Mer
이스탄
서고
이스탄불
##94
크나큰
소거
곡괭이
뉴턴
몽키
밀레니엄
어쿠
중랑
월화
##천년
꾀하
음주운전
##WAR
발버
잠잠
도로시
미야모토
소송법
의복
##햄
선술
편파
애슐리
이상일
스톱
##OTH
North
##ied
과묵
247
프란체
재수없
Eur
다네
매리
엑스박스
##ka
가타
번역본
포스코
무찌르
기꺼이
에토
##궂
새천년
블랭크
부딪혀
카디널스
인술
수진
수병
비관
구와
잠적
져야
마귀
동면
머나
##효과
전기톱
모의고사
et
서ᄑ
역이
메즈
맥아
디바인
Gener
아브
구작
##차원
##파르
LB
유년기
브라이트
에인절
사계
980
시라이시
어의
구토
쉼
키쿠치
머나먼
Die
LM
화교
take
아발
남주
재결합
역부족
다이나
도인
특무
송정
BMS
시경
차명
##갈색
다짜
##고짜
교배
채웠
크루저
다짜고짜
파출
EASY
나래
전고
활로
산성
##프레소
무라카미
정품
성행
262
한자어
쿼터백
에스파냐
color
레논
종양
밀워키
호아
유틸
리세
명언
호신
꾸리
보컬로이드
그렉
유토피아
유틸리티
##ILL
요금제
##ki
직설
##베니아
늦추
동차
메로
HKT
둘레
마츠이
이산화
연휴
단락
리그베다
놀랄
아브라
무가
심경
농경
##미사일
스펜서
시이
쇄도
TECHN
##뿐
조광
권투
판자
레이코
Mel
Mnet
길들이
웅진
무형
신명
패망
혼용
##드라마
발성
박석민
부적합
챙길
회식
결정타
린네
철제
헤르메스
비잔티움
데일
던데
키프로스
쉬웠
애기
종반
바이어
##ove
본점
녹이
##쓸이
Hell
발단
바야
후크
##윅
수조
진하
알트
Heaven
##my
나연
약국
슬로베니아
전근
옆구리
구원자
마누엘
함량
토기
센다이
굴러가
##원장
실렸
현관
승수
총신
망언
쿠우
꿔
실증
렴구
서귀포
어학
근위대
유유히
외로움
먹인
콘스
김연아
은어
로베르토
우러
축전
필립스
##샹
모면
앤드루
##ents
Port
UK
을까요
레오나르도
이양
공범
장창
외견
470
지낼
관련자
아미타
거센
엘렌
열등감
##트러
음역
무기력
간결
마땅히
cr
하층
셔터
##St
어김
##도현
##거린다
백발
숄
##누마
쉬워졌
##go
##룰
308
무용지물
세손
순번
상류층
문체
복숭아
노이드
쓰레기통
비키니
##하고
##구려
680
공물
기념물
아람
홈플러스
거르
제퍼
되돌아가
시멘트
현세
##ember
대법관
결집
##바흐
##에타
수학여행
후지타
건국대
의왕
해했
jp
요마
맡긴다
펜타
아이린
소켓
움직였
룰루
##화당
미켈
버나
최용
Shad
김유진
다방
점장
핸디
부담감
갈굼
명랑
탈피
전해져
객실
걸어다니
라트비아
번작
케이틀린
환상향
송파구
어쿠스틱
슬레이
에미야
면하
오션
이마이
재판관
시공간
레퀴엠
모지
절판
이희
선종
맛집
유의미
어다
도안
절도
말썽
겨자
##umb
토모야
이륙
모교
키예프
##합중국
그만둔
##껄
##고로
구판
용접
혼수
가리켜
ROX
대의원
메이슨
##경찰
천차
##ince
꼬여
서해안
Hello
스칸
탄피
아키하
생물체
##IF
##클라
본업
착시
경쾌
##워커
dr
해바라기
적국
니치
흘린다
굴릴
하락세
배달부
QS
어윤수
결핍
!!"
비행단
묵시
나빴
KGC
우후
당뇨
건가요
리벤지
일침
추앙
Rep
볼드모트
직급
베누
손색
맡긴
쳐들어오
##yr
색적
911
영사
군량
힘써
습지
흐트러
징표
구인
문정
필명
##트륨
카트리지
Lun
종용
터져서
레이다
덩굴
미네르바
팟캐스트
##add
숨통
황금기
단축키
카빈
관성
치즈루
커크
##uth
적나라
야사
양날
아이스하키
구스타프
일병
제츠
관상
침수
##va
모레
조미
솔러
노역
산물
켄시로
산업단지
미합중국
북아일랜드
사이퍼즈
드레이
도굴
오나라
영산
둔갑
눈치챘
알린다
##생명
엘다
벌어져
자명
전권
월광
신창
##파치
병음
노르망
인공위성
마진
용시
304
스타스
##ection
샤우
241
카카오톡
에보
경마
돌핀
케이타
동위
카푸
템페스트
상동
부사장
구마모토
헤임
카키
##바드
기다릴
디셉티콘
##39
미워하
우진
정신줄
밤하늘
##ures
사무엘
시즈오카
에밀
최태
신경전
쟈니
오지환
위압
##iri
서일본
야타
강가
난관
에스프레소
##녹
강기
덤벼들
해마
##사슬
군정
김강
증설
브렌
김성현
RGB
부렸
조디
##일치
네버
붙잡힌
스카이워커
한술
위니
샐
##ility
Fil
##ates
희극
김기태
Network
알폰
도부
오와
버저
원서
디폴트
Inc
헤이즈
1899
Cup
##ELL
사울
영천
문항
##irc
즐거워
진홍
슬기
유리창
맹장
씰
가옥
대열
타무라
##보리
저스트
로이스
나았
Mach
ser
아레
확충
솟아
ㅋㅋㅋ
Esports
중파
역순
길티
타카기
흩어지
연평균
인척
역동
##렌스
캘리포니아주
이덕
뿌린
ZZ
이나바
##테르부르크
라칸
참신
##aph
쾌감
아즈마
미륵
University
##WA
##펙터
미츠루기
한림
311
##ometh
##십리
그레고리
선동열
기나
내란
누비
조종석
환승역
Again
구명
동치
처장
호송
후쿠다
##벙
구구
앰프
이용규
울림
밀림
아약
어설픈
모세
불빛
매화
빙그레
##튬
올려야
노량
개중
##razy
look
아캄
##궐선거
재보궐선거
rem
자속
본심
벤처
몽고
김해시
마샤
##미디어
##조부
##ORPG
브랜든
상아
마이스터
세주
맨몸
##사병
잘렸
사냥개
제라드
소행성
누릴
퇴화
중얼거리
EE
게오르
칸자키
싹쓸이
하디
전소
##ᅳᆯ루
펜싱
미어
샌즈
로바
노쇠
문학상
세비야
##부상
기동대
거주자
미노루
모신
타란
풍성
꾸려
미니맵
철폐
울버린
번역가
##닭
##어머니
군자
##atter
즐긴다
영등포구
어는
윳
##위안
이용한
Only
더해져
실화
몸길이
집행유예
무스메
컴플레
옮겨졌
카르타고
Burst
컴플렉스
bet
궐
디온
소용없
주니치
파시즘
별반
mg
놋
노하라
변방
뒷부분
아나스타
##bit
사미
##hem
##집합
LPL
Dig
은화
##태현
판타스틱
인산
수축
헬레나
고운
비축
찾아낸
우스갯소리
##윙
##ᆨ스피어
셔플
에밀리아
신차
반포
태운
질린
접해
홍문
내려갈
방위군
백조
##AKA
셰익스피어
소린
소고기
장흥
리토
맞선
몬스터즈
얽히
Days
##공화당
양궁
민주공화당
패자전
오심
담담
찔리
부끄럽
관음
패티
네이션스
##pm
##보트
무서워하
눈부신
##플린
비등
당했으며
알리스타
키아
꿍
##뱅이
고찰
##전생
콤플렉스
여신전생
##ether
무수히
패퇴
찾아와서
스터디
간담회
로케
MiG
##TN
장윤
파가
디저트
잡음
사업소
Winter
##ips
최단
점프ᄅ
점프력
로카
모독
##우로스
스치
안ᄃ
싸구려
제이콥
리옹
영월
초안
최유
풀린다
능통
자립
숟
##에나
섣불리
도란
알로
튀니지
마주친
대소
자림
think
브루클린
천문학자
지코
302
랜딩
합성수
LF
여래
레반
죄악
nbsp
지낸다
수난
유화
트립
stay
윽
##LA
불의
에스퍼
깎인
은지원
해수욕장
Gh
낌
살려서
필멸
가졌으며
토리코
미끄러지
신통
머피
질렀
놓쳐
##평동
꺼냈
잊어버리
손아귀
"...
라흐
##더지
마음가짐
박용택
##갱이
걸림돌
기나긴
Jack
##uj
##영웅
귀가
##ids
IB
이름값
슈우
온의
이공
고졸
시국
그리스인
율리우스
손아섭
아약스
부조
구설수
디노
태사
아리마
안양시
##cess
##제르
방청
메신저
몰려들
뒤흔
아이비
아모
문화방송
##imes
##unk
INT
로군
##기수
##레로
암스
##샵
깔린
앙고
군마
키타로
육탄
신음
송광
시설물
Va
수갑
스크림
##걸스
춥
격발
없앤
원심
Sports
name
스사노
##als
타마키
복음서
피에로
라사
버트
외쳐
푸에르
노동력
사인회
차근
갈렸
뒷모습
미카도
꾸짖
신형
외양
좌천
자장
원투
강시
흉부
1903
##어진다
토해
수도사
룩셈
비정규
전액
윅
반한
범퍼
굵직
둬야
##ᆺ가
빗대
##톨레
페일
##진보
음질
골머리
빙빙
보조금
Inter
WA
산요
룩셈부르크
유예
##코인
서프라이즈
수회
체자
내려졌
DEX
도원
만인
##일비
학설
권수
간사이
따라붙
송창
제리코
티타늄
Kar
뻑
부의
섞이
테레비
공관
##산업
건드려
드링크
##uman
630
쿠미코
가고
대참
둘러싸인
기승
고동
##진창
레일리
Knight
House
대망
데어
카가미네
속속
##커버리
##그라운드
엘레나
출입문
2100
색기
##이지
##못해
사생아
부트
필리스
린스
노르망디
프로펠러
오릭스
보수당
세워져
music
에루
발췌
주박
차렸
##ald
전업
칠드런
##XX
##지우
때우
말단
들어올리
오사카부
대모
적분
불씨
누드
Wr
만수
구금
##orce
푸틴
관중석
이너
화풍
올라프
드미트리
##치히
종신
창건
푸치
코너킥
쇠사슬
##ved
심기
작품상
빼먹
토목
논산
행선지
갖가지
착탄
##팔구
연다
바랐
수잔
강구
오른발
북동부
도태
유폐
당과
잔상
슈퍼볼
크랙
원체
십중
안드레아스
GF
모루
세타
번외
따라선
그람
십중팔구
끼우
유골
승화
##ico
계약금
렌더링
겸손
플릭
사선
불경
케냐
##혜진
시니어
늘렸
iP
##37
적장
제패
산드라
개당
##거슨
웰스
에인절스
어야지
헌팅
근간
##폭력
개인기
##isode
파밀리아
가린
자야
분개
니깐
키카
아인슈타인
카탈루냐
조만간
Snow
##수단
종래
에레
선데이
##양이
##emy
게일
네온
눈매
윤보
##REAM
엉망진창
CLG
초토화
두껍
바로크
포르투갈어
전서
무한히
올가
다이나미
끼칠
다이나믹
More
##으려
천년기
철판
유세이
장료
증정
나가토
뿅
속마음
토레스
착오
염라
##VEN
도교
##기념
##공업
종군
괴로워하
쿠르드
##IKA
성조
파천
편집장
다녀오
백두산
바크
##부르
캐쉬
탈모
샌드백
초판
##적으로
미국식
떠다니
오토메
베르나
NCR
오키타
플러그인
처박
잡담
이사회
사나에
도울
후우
##거시
마포구
흘린
##lin
After
오유
##31
순천시
객원
타이거스
수은
리허
##겨우
칭했
경부고속도로
반갑
객체
에반스
파묻
출항
달팽이
티온
획기
공민왕
어김없이
##진보당
were
##사업
내력
힘쓰
뜻대로
덮개
탐험대
공백기
주이
카이지
히데오
은지라
이프
도선
중증
처자
죽여서
선승
뽑아낼
다물
일신
오펜
나이스
SSD
광명시
핸들링
요시코
mod
의성
산동
다이버
떨쳤
찔려
Ice
한바탕
영의정
##내티
홀로그램
끈다
신시내티
##BE
기물
침략자
##ella
##국적
안상
삼가
##갈이
김동현
남양주시
딛
길동
돌아서
웨스
##림동
나뭇가지
서건
##ᆯ리니
시식
일류
구약
서현
컨설
뚫린
깡통
물어본다
Year
속수
760
공기업
배틀로얄
미마
럭비
##드린
다진
기뢰
발화
투게
질소
%]
가나가와
위구르
놀래
교의
김무
온리
아나키
묵인
영화상
골든글러
골든글러브
송시
정치학
조승우
리크
귀인
빨랐
보령
타파
아이샤
990
장로회
학장
아이패드
용역
그래미
염원
아머드
xC
하청
네프
보드게임
영통
##왈
555
승산
##ori
##헐
파프
사이조
봄이
데릭
근거지
놔서
##기스
만져
까치
현혹
접착
석판
발버둥
##fl
도합
보어
빈자리
마사유키
번번히
이바라키
하복
아과
미개
팝콘
진구지
총살
심포니
악녀
투게더
이징
혼내
밀착
찝
##촌동
받아
메피스
권법
백상
##oph
쟁취
렐름
him
장만
They
Lost
펼쳐진다
마그네
아톰
연필
##세어
보일러
##기니
전처
정호
유타카
토양
황건
960
우르스
공화정
강수량
PPV
라모스
##72
정태
항문
헤일로
##어처
방글라
우버
저우
미니어처
핫토리
방글라데시
올라섰
맥스웰
중성자
~.
2200
케스
윤치
하야미
부천시
음표
빠뜨리
잡혀서
와스
영예
마르세
정해졌
야만인
game
수순
마이크로
섹션
열폭
비웃음
##피디아
날렵
Arc
때린다
매월
재방송
삼척
트랭크
하진
TA
로엔
소파
박제
##현실
황도
보나
공파
히터
농산물
생활관
공생
위키피디아
자라나
##프레이즈
책임감
사유리
흐른다
Under
대작
요스케
반증
알론
주택가
최경
맘대로
험난
점원
그런가
올라올
##마이오스
##othing
잡힐
##남동
295
부지기수
수문
키르
투창
독사
병실
죠타
바빌론
리차드
면세
통곡
##륵
굴곡
킬링
Rob
치켜
합세
404
610
우에스기
면회
실각
얽혀
Cur
##촨
호이
##잖아
##zer
에르난
소시지
Mc
갈아엎
영력
보여도
카메룬
프린터
사마귀
대전차포
dream
##만화
후견
초유
퍼거슨
프리츠
네이밍
Imp
관청
##....
자가용
아편
헬레
도망간다
포르테
정공
제이나
Gra
상응
몰이
컬처
침입자
역이용
카봇
580
바닷물
##ving
Anim
정복자
동양인
png
무투
##호마
축물
특별법
교통국
덧붙여서
VC
용문
##ITE
펠리페
##자마
미스틱
강우
세바스찬
삭감
질투심
MMORPG
쑹
도출
도무지
주세
간사
조선왕
관심사
버텼
##YS
Why
간간이
##컥
샤를로
칼로리
신기록
블라인드
주상
명색
봉신
stop
강승
행한
퍼블
마유미
테레사
수두룩
보더
##ARK
하류
도용
공언
능한
당도
독신
##ᅥᆯ없
고쳤
로시
장보
승전
단체전
##캐피탈
뱃속
피날레
남하
재야
천정
##지아
포그
top
880
헤어졌
튀어나온다
##order
Kiss
걍
자만
채색
이리나
자타
바를
##ᅢᆫ티지
405
콜럼
탯은
강의실
어드밴티지
##omething
다희
가독
수심
야크
이라던가
캐치프레이즈
해답
마조
미워
노면
구걸
원탑
##천면
Spir
소질
##ᆺ가루
무참
갬
체육복
짖
기모
장터
문선
브렉
Enter
대천사
##랑카
##92
002
살라딘
어땠
##fore
연무
Secret
비너스
##테라스
##베로스
좋아해서
쭉쭉
vol
다곤
기고
산재
쓰러뜨렸
기흥
공상
김범
풍신
머스키
여하튼
소말리아
##WS
대종
266
##덕지
김대엽
파출소
자갈
즉흥
빌린
쓰러뜨린다
혁명군
물러서
##82
전래
##구름
체온
시뮬레이터
모녀
판인
남양주
거장
##차림
형체
언리얼
난이
온통
##INK
미야기
##쿨루스
결여
초소
속기
외인
현대캐피탈
여력
파주시
귀도
490
HL
Ann
war
위세
루갈
박현
왕도
##광이
##ANCE
ACT
크라켄
중기관총
비뚤
소미
사이언스
포스팅
갉아먹
TL
신교
불복
##ury
튠
아리랑
저쪽
토했
달리기
혈전
쿠로사키
기민
##부림
애니맥스
속삭임
away
중무장
매듭
혈족
유리카
마사시
아오야마
FINAL
blo
양세
아마테라스
Pan
졸리
제철
변덕
길쭉
미제
건과
블레이크
파이크
쇠약
붙잡히
쟁쟁
##씌
서영
겨우겨우
악귀
습성
의논
##해하
광신도
한진
나팔
부자연
일주
오닐
박성준
오거리
머슬
하이스
찾아간다
매그너스
쿠가
가젯
마킹
카시오
말다
그래피
윤정
빤
##mon
본연
##중심
박형
##시아키
Roy
성욕
##렉스
퇴진
막아서
##URE
상선
단면
카밀라
SNH
Dan
베이시스트
425
알아냈
Reg
합성어
고장나
김주찬
알렉산드로스
만찬
습하
돼야
이래서
1890
마제
생도
폐차
아나토
톱니바퀴
가부
정읍
레저
독고
독실
초심자
IZ
##Pa
미노리
##일체
##활성
가톨릭교회
Hun
Sal
##라면
동당
명소
강남역
blue
JB
수시
속보
##병원
Remix
코마츠
ed
의역
연옥
특대
##페르
뚜벅
시계탑
Normal
light
일색
##미온
타노
데저트
트렁크
햄스터
##반짝
우릴
세이렌
무더기
성룡
외지
반짝반짝
서건창
Vir
유모
반월
강력히
##aking
아키토
부엌
비일비
통나무
비일비재
전일
발가락
천룡
악취
넥타이
개정안
민영화
From
되풀이
얼떨
찍혔
떠오른
쐈
Plus
쇼트트랙
알아주
Micro
해리스
문도
실태
현저
나타냈
다이고
응모
도운
지민
기저
태화
열중
우주인
피부색
찢어지
위너
입김
훈련병
엡
장조
발터
새기
올리비아
토론회
로하
글라스
플라자
BEST
깨물
일일히
요충지
애비
견훤
API
피한다
str
무효표
변함없
display
Nat
영종
##틸러스
트램
마두
노틸러스
폭염
탄식
로마인
##스턴트
타루
연격
신타로
초장
080
마사루
밥상
고분군
GRE
해결사
용산구
지름길
##바겐
검문
상급자
America
had
킵
앵무
실과
##esh
이그
사산
인스턴트
영유
퇴학
베이컨
##뚝뚝
HA
##저버
캐롤
커질
짤짤
두꺼비
Easy
리알
##코타
옵저버
##엔드
사치코
PERFECT
add
무표
도련
거린다
##코지
345
돌려보
당파
원탁
뒤편
고심
은거
명수
치른다
점령지
By
LR
##ney
무뚝뚝
공격자
무릅
할려고
작명
##불복
005
꺾이
JAP
과천
##급수
붙들
플로우
결탁
긴토
시코쿠
화사
비법
방진
재력
복불복
혼잣말
을래
로터스
우방
엘리엇
##듐
Dri
##리언
상봉
창녕
Band
##땐
하긴
유병
납작
셰리
패스트볼
총대주교
형용사
해왔
검투사
진풍경
소정
스테레오
##GO
지프
함양
박소
글로리
수서
저게
질색
당선자
크래쉬
심신
항시
자작곡
XI
##38
식칼
칠성
면했
더글라스
국과
이뤄지지
Ob
손패
Ha
능선
색감
810
정파
구린
##파시
드리스
배신감
브레멘
퍼스널
이부
##erson
소방관
288
발암
##손자
안티오
모뎀
경례
재촉
긴밀
허드슨
조아
##차근
달마
청순
##OLD
멈췄
차근차근
현란
산적
레이더스
대학살
이끌려
Wol
##con
518
경복궁
##페리온
퀘이크
스테인
페네
한동
출품
##연의
유니코드
도미니카
동학
사이언
기대치
da
수긍
일판
관구
피한
잠긴
시마즈
준결승전
레코딩
##무책
참혹
돌린다
한단
##히드
영애
진시
문희
코앞
토에이
루주
돈다
임창용
PTS
롤리
야지
##무트
식이
송은
뺐
272
휘감
Fant
오치
내쉬
권영
볼거리
MSI
GIR
##기구
수훈
15000
홍진
미치광이
다뤘
리아스
Series
사본
사흘
모기업
학실
늘어지
아키오
유키오
연명
땅콩
숱
무턱
포티
명부
택지
챌
범람
이해도
780
##테이커
would
##게티
권선
##스탱
버려야
말려들
한다든지
경치
명종
힘겹
평가전
고려사
튀기
신분증
AJ
##감독
bu
##orry
##메드
한대
시끄러
신학자
근현
미스코리아
두렵
유혈
연한
##순환
지켜본
언더테이커
기쁜
모닝구
Video
야한
재조
떨어트리
570
꺼낼
돛
영연
별세
##협회
빼앗겨
두건
막사
드려
##반구
김미
오가타
미혼
재경기
탐사선
GEN
##닿
소스케
상층부
평평
##ublic
##나스
단언
누를
고루
판박이
쉬울
법규
숨겼
840
기프트
소다
초승
드가
보주
파블로
쳐다
폼페이
##도르프
번화가
특강
뒤틀린
식단
중개
걸레
스커트
편히
액세스
짧아
괴롭혔
MED
고강
미자
왕래
차량기지
1901
##블레스
하퍼
텔레파시
기득
아이치
박헌
태안
프래
##wn
유야
탐탁
##idae
마상
려니
병법
탈진
척탄
가인
게인
리니어
회랑
코우타
에고
석재
머스킷
PE
거ᄂ
동형
당수
재외
아라타
대주자
다목
창구
##길동
OGN
메피스토
여리
번뇌
레거시
주제곡
극단주의
속수무책
부총리
키보
국제선
MOD
민요
숟가락
af
변화구
쥐어
보건소
노려볼
승룡
만장일치
진통
재연
용신
모아야
1860
알아들
함교
멀록
지청
쓰다듬
401
연합뉴스
지선버스
오재원
가고시마
다재
##키치
286
GIT
따라간다
복량
근사
##ato
미사토
코스타리카
UB
조쉬
노토
영영
##피오
SPEC
서연
비스타
오오타
중공군
톈진
응수
지구력
JK
xB
사커
마노
박희
비트코인
Force
##타니아
맹공
가로지르
칵테일
##케이크
도이
화분
금주
문화사
ACE
##ITY
저기압
결점
절멸
이경규
매개체
인양
후부키
홍명
마나카
페르시
심상정
발린
스트ᄅ
주문서
SHD
카카시
하노이
지노
작성자
춘천시
의수
명함
그리워하
토도
역사학
1898
지안
주정
신현
치수
레이튼
스파이럴
니퍼트
카코
물의
##ATA
ro
##MI
한답시고
장현
창조주
용기사
용지
산토스
321
사민
플랭크
난조
공학부
중독자
고드
정열
분분
순이
천명
민선
##쿠사
299
스포츠카
하노버
##ison
아랑전설
가망
타쿠마
사황
찮
##마키
당직
찡
동호인
장검
국철
윗부분
길리
##미안
동거리
##외과
누설
센토
##umber
##기리
위문
예감
트렉
!!!!
STAGE
620
번호판
제네바
되살아나
##hn
도나
##TLE
파마
RES
모니터링
편법
##파르트
픽시
1902
과반수
Div
안데르
용돈
얼려
알레르기
##현희
슈마
몰아주
닫힌
이겨야
싸늘
기계식
정미
발송
죽전
널려
호문쿨루스
상국
안지
히트맨
FK
##만별
폭우
독립군
천차만별
무턱대
기전
화단
후지와라노
Lu
아흐
구획
말렸
쇠고기
어쨌거나
본전
허점
도망갔
캥
##메리
GITAD
제논
##디나
체의
금광
몸소
우노
총력
향교
지냈으며
출자
이해관계
EF
##권력
논외
영웅전설
차례차례
삼국지연의
하하하
검법
헥터
날아갈
재계약
질식
와시
야하
두더지
페트로
1897
KV
아네
발군
정윤종
짤짤이
##꿔
##석희
치에
몽둥이
구수
##BT
완장
다녀온
무신론
##트페
상트페
##벗
이동해
영업소
MOVIE
부의장
상트페테르부르크
바짝
조엘
##즙
파티마
프란치
아자르
도성
바레
##루가
##샘
뎃
깼
퀘벡
플라스
먹잇감
Ta
강지
메오
레기온
무표정
고국
자생
312
린코
셋쇼
셋쇼마루
점막
JAPAN
성신
개소리
타순
출정
사라져서
Future
췌
##댄다
오븐
타개
접목
##tm
야키
##핑크
폭스바겐
나성범
세네갈
die
불스
준이치
357
유도탄
boy
자퇴
불패
링고
블랙리스트
ZERO
거진
화원
건들
넓혀
쏟아부
힘껏
##amb
than
조선왕조
820
##비행
라고도
천호
얀다
비드
결방
쫓겨난
음식물
끓여
묵묵히
pre
고저
한상
수저
엘튼
장난치
국방군
총독부
##넨탈
다쳤
신안
계파
건반
용광
북서부
하코다
장단점
곡사포
쿰
케라
FD
채광
307
밥값
355
출장소
두터운
리허설
Here
처우
호머
##방위
Fin
el
이한
다느니
수거
비안
진언
행정학
엉터리
디아스
수아레스
Championship
너트
Aq
꾸역
흘렀
무턱대고
cod
##다능
##지옥
이랜드
벽면
종착역
로데
영암
스리랑카
다재다능
마틸
박철
블라드
막대기
발의
der
역세
웨이드
하울
면사무소
유자
발사관
##irth
카우보이
전량
피안
휴재
왈츠
could
오대
중학
산티아
##read
335
늦춰
International
가트
거만
들릴
자우
연약
안달
원단
##hed
갈라진
불러일으키
마르세유
유년
광자
쿠타
네이비
소인수
##나츠
##해튼
##강하
2600
무인역
교부
직함
흥하
친했
청도
##득이
##odu
코즈믹
초승달
지스
기내
일축
##브스
몬드
##acy
선후배
Queen
##ror
퇴원
1894
##46
반문
간헐
따돌림
경작
망나
Exper
이수근
프란시스
모티프
김하성
황재균
새천년민주당
기류
했어야
화승
프톨레
프톨레마이오스
소변
애도
만주국
잣대
오ᄅ
리자드
##분별
페트
드라고
스물
직경
복역
말다툼
조나라
멩스
GITADORA
일수
계급장
리콜
섬광탄
해파리
자조
조진
리저
급강하
리포터
맞닿
양덕
녜
다레
##어질
청라
묶음
나지완
##무쌍
코볼트
열연
쉽사리
메인보드
모덴
아우르
적재량
최전방
로또
추태
속인
대성당
셔틀버스
power
주신
만기
역공
교파
심층
트럼
테크니컬
Pat
특사
알람
외로운
첼로
매킨
육수
왜건
엔지니어링
Old
채식
태엽
줬으며
셀카
증명서
관찰사
산티아고
마동
암스ᄐ
youtu
호른
아마노
##테크
황야
숙성
흔들림
시비르
how
대합
는데요
옷차림
##ctor
페르난데스
중남미
Ill
켰
이서
심할
지나갔
앙코르
##맞춤
안드레아
묵시록
다윗
지략
노론
##두고
억누르
이경우
호두
##워졌
루이즈
##드름
아케치
FOR
떡칠
Mor
전학생
날려서
금나라
경찰차
시에라
##마다
후열
잔다
##unch
##RC
벤자
강경파
##ᅳ렁
여과
##화기
세공
Look
BLUE
##iw
오수
미신
권한다
오르페
710
Work
꼬꼬
틈틈
아나킨
유시민
pla
데바
달달
황급
봉우리
##icle
옥토
카이로
테크놀로지
시들
접대
지지부진
깎여
수백만
##iant
거구
라메
파이어볼
VT
야포
강백호
사회당
최연성
오영
상이
용모
고함
도수
본기
포항시
스며
##노르
토레
털린
##리쿠
로도스
할려
우키
피력
컨벤
이제야
플러
가로채
화난
##아프리카
강물
핵전쟁
합창단
##꿍
마아
모카
##프스키
되돌릴
JD
호연
짤리
도카이도
지킨
원주시
애런
애증
메이든
횡포
##티아스
보보
유례
암스트롱
미생물
코랄
호쾌
손승
시리얼
아야메
정찰병
아우구스
카츠라기
Er
Fore
Give
##고양이
##ces
선녀
코린
크레이그
이근
세실
토아
통행료
내무부
청취자
비활성
장강
포포
국세
폭약
넘어섰
세이라
##QU
주안
이봉
불러도
유실
무분별
배양
화포
리빙
왕전
온다고
##메탈
놓아
플라톤
Dyn
츠요시
어울릴
무릅쓰
밀릴
공리
방통
걸프
효종
나루미
아까운
Cla
마셜
맨해튼
자카르타
돋보인다
##cal
##LY
미첼
심취
궁녀
##otion
프랜시스
##가야
비워
문종
##els
클라인
갱생
피난민
Aqours
Ber
##su
생겼으며
앞섰
김민철
후세인
짊어지
핥
일라이
장승
애너
각하
탈레
##ᅳᆯ라호마
오클라호마
##WC
마그나
스털
냈으나
게으ᄅ
강풍
국부
소유주
한국전력
고의로
문수
346
전화기
기울여
##ᆷ스
276
칸국
빌리지
의용
여실히
배낭
베리아
급조
음악중심
션트
보컬리스트
스탬프
구미시
er
유관
법관
##브리지
Dav
주괴
들린
자해
번안
영화사
알프스
치매
백석
##불사
송환
전국구
맹주
콜렉션
타미
함종
대표자
성리학
##글러스
구조대
케이코
가려져
낱말
리거
메들리
##파트라
##에미리
아득히
클레오파트라
##가나
총액
퍼니셔
와트
진사
칸트
놀이터
아랍에미리
아랍에미리트
공직자
원초
강박
##ask
더글러스
청부
##혜원
브리오
##ender
피타
속내
조선족
하이트
끊겨
더라고
##엉이
뒷목
만다
##박사
##ami
당해도
황금색
여수시
비벼
제수
동귀
본다는
술래
추축국
이철
속곡
에이핑크
본다고
절로
ARC
Plan
np
##시원
마중
마오카
식감
휴고
즙
##sy
라타
지원금
RNG
##리지
요직
충만
사조
히미
온천욕
루미너스
이그니스
Fort
미요시
방독
양민
금연
슈이치
아우디
TFT
키네시스
카다
결렬
김밥
소비량
죽여도
TBD
이설
학관
달서
광주시
동해선
Player
구급차
개항
##다오
러커
낸다는
CI
##치락
큐티
sy
친동생
마주쳤
그레이엄
넘버링
##대신
파훼
교신
쿠쿠
글꼴
육군사관학교
발명품
##원숭이
See
##주석
우레
말싸움
출가
롭스
high
델리
치욕
나가노
친해졌
엎드려
애드온
전태양
간토
페페
망쳐
##ular
##그라들
파로
최지
효도
큐리
지지층
타임스
한다든가
##여래
##elieve
PTSD
비교적
안젤라
초신성
괌
세심
국유
슈츠
어려워진다
##재주
접선
나눔
##젠더
art
후려치
MH
##기름
리파
반야
드나들
베이직
모모카
가마쿠라
WIN
한껏
관철
항체
프라하
##SH
##사탕
예식
자코
변론
디그
낙점
펀딩
고흥
연중
포츠
##예스
얽매
Sub
아폴
반향
메트
##테리아
철인
침실
선제공격
인내심
고상
도그
으세요
카톡
스타인
아폴론
hPa
상습
갔었
언어학
직장인
Ever
필로
써져
주성욱
컨벤션
배회
치치
줬으나
흥덕
우치다
INF
오두막
##레일
남경
##뿔소
매물
금관
쾌거
스털링
Dec
시일
최종병기
Another
펼쳐졌
시바타
Make
Squ
670
##캡
이정훈
부딪치
사노
우성
나옴
풀릴
기어코
무쌍
선의
못했으나
무전기
##tus
##EP
주리
펀트
이랬
신해철
무드
쿠와
258
이승기
끌어들여
IOC
슬링
진열
최동
퍼뜨리
답니다
덴오
꼽혔
Wonder
안마
완치
그래야
트랙터
카나에
샌더스
CU
ml
##쏘
독스
어지럽
엇갈리
조석
##ICK
비취
분탕
룻
골밑
웡
격상
감독관
707
940
론도
970
말미암
어메이
지검
##대원군
두드리
257
든다고
찬다
야마가타
미카사
오블리
실마리
판별
터틀
승하차
벤자민
가쓰
성호
본즈
Roll
rec
##itt
##트리아
385
포위망
##거미
에드가
정실
화음
서운
선악
예금
중생
히요리
열망
##덴부르크
its
광둥
얼버
##추세
뜯어내
상계
차오르
장합
밀폐
APK
##호크
하양
잡졸
택한
박지원
장항
독음
키리시마
끊임없
무진장
깁슨
자유민주
나트륨
수혈
군국
은하영웅
기상청
츳코미
은하영웅전설
##ddy
부차
찹
##비티
배웅
용액
페티
꿋
##쓰기
여객선
낌새
노블레스
동군
박하
탈리스
뉴올리
##ᆺ수염
Ben
하구
기입
설명서
맹목
선보여
브롤
얼떨결
유원지
신참
심재
석회
263
찬탈
특출난
알론소
데꿀
규합
코스케
비올레
데꿀멍
San
부릴
아누비스
송은범
중일
죽창
아타리
파사
궁이
바이저
탯을
소매치기
이딴
핌
후시
후륜
류큐
##지먼트
레브
철강
매니지먼트
간소
울트론
##OME
발걸음
민자
콘도
각성기
왼손잡이
성왕
남길
외벽
커티스
##93
대혁명
파즈
김갑
극회
525
org
하녀
가전
탈의
곤도
아주머니
LoL
휩ᄊ
세미나
징병제
Card
##vice
고하
##도바
##버른
삼림
상륙작전
양부
라이오
팬서
##곡역
즉발
bbq
다키
구릉
학우
##저찌
김부
##포인트
떠돌이
좋아해
어찌저찌
이승현
Sea
무루
연유
찾아냈
쳐야
끊긴
이슈타르
무도회
##미남
류노스케
블락
딴지
##side
##서도
모체
소르
단시간
맞아
낙후
##ellow
심해졌
된장
구문
요루
빠를
김포시
아워
자아내
영차
알베르토
궁을
타카야마
오야
장도
포틀랜드
토종
덜덜
일리노이
평택시
들러붙
암스테르담
비결
##실신
금동
에리나
오블리비언
Ko
인건
내막
방종
##ᆯ리우스
추진력
hello
부비
액정
Mind
이교도
승리자
전임자
지산
자메이
세제
살아난
요시히로
프레이야
아리스토
자메이카
과외
##유리
판테
프리스
강할
군도
##any
##hes
잔느
벨로
떡실신
미치루
걸어오
방사성
##ava
브래들리
총격전
대꾸
만리
조난
호나우
##민턴
귄
수리비
BY
오름
유표
리서
스토크
우승컵
좌회전
데프콘
사륜
필리아
전문점
%~
버마
##카운
도로는
잉카
매사추세
매사추세츠
##실베이
학도
펜실베이
한양대
펜실베이니아
에두
세바
방계
발끈
##피언
##츠크
마다가스
송금
듀란
기네스
귀하
사무국
눌렀
불도
백야
사귄
사대부
스푼
##ote
##PGA
##네이루
매카트니
노먼
##카가
단맛
시스터즈
포가
죠니
즐비
배드민턴
AGE
##크루
주현
##가르트
당혹
종언
삼중
유리코
##셰비
팔레트
글레이
후신
##모아
오퍼레이션
칙령
경의선
비정규직
소박
문대
뒤바뀌
국내선
730
로페즈
Pal
##form
방귀
니시노
닥쳐
유즈키
제하
##빅
진루
캐넌
달려서
황선
273
이시이
자청
데코
참판
산정
뿌리치
급속히
Ra
메드
맡길
조직력
소화기
실리콘
모처럼
장렬
영판
지난번
나나세
야인시대
꿋꾸
영생
양해
독침
산군
##막이
칭기
폭주족
아미노
곶
국면
십니까
뒤쳐지
시보
수표
세시
필하
시작점
병아리
맥기
-'
이펙터
양각
##reas
아낌
고사하고
성년
##개미
운동회
흥선
리딩
야영
링크스
통신망
대참사
에린
도지사
생쥐
치닫
##레마
쫓겨났
강신
믿기
투표수
star
마르스
그로기
under
원유
뱌쿠
판테온
##ican
이즈모
주무
서예
다양체
youtube
SPECIAL
황급히
##ih
소연
반일
루아
##ories
골판
깔보
불꽃놀이
디펜더
시어머니
이색
도형
일설
오호
##구동
역인
독기
얻어먹
##니파
요란
김석
왜성
연예대상
푸르지오
오시리스
##YY
미비
컴파일
9999
카타리나
Beautiful
HIV
버틴다
인파
##마차
코딩
아르고
맥아더
Emp
고룡
사피
본교
김사
쥬리
정영
구야
캐럴
크론
##oto
True
GSM
볼드체
회고록
구시
장구
따진다
군관
친아버지
라이어
공대공
대양
대죄
##진군
##몬트
##ffer
yul
유강
콜리
격자
멜버른
망가져
피로도
YTN
제프리
종국
청담
벌벌
##필레이션
마리카
컴필레이션
##치우
코소
배너
놓였
끌려갔
다윈
시이나
402
gonna
오송
태커
애니멀
유사시
미즈노
애호가
조민
유랑
비빔
소티
교인
복속
핀치
을지언정
리버티
다녀왔
어메이징
에테
수의
소치
연립
버로우
온난
동일시
전반부
거룩
민회
웅덩이
##ollow
{{{#!
그루브
Electr
KM
어니스트
주영
##요한
프리트
글쎄
고착
구려
선미
##토프
잉어
토미노
다마스
다국적
##ᅳ릴
상도
뽀삐
가져온다
나쁠
구박
카산
관입
##iness
국민회
앵그리
리라는
칭기즈
볼로
324
흠집
Id
ep
마안
##처리
전미
정색
원할
스위칭
나탈리
지저분
입소
막힌다
유우나
MSM
Trans
##미나
930
SI
##슬레
정찬
정략
등짝
건륭
크리스티아
경영자
트라이얼
은커녕
미형
양학
##북자
스팸
회생
집시
벌점
##ific
커넥트
줘요
진다면
조연상
기척
팀워크
독가스
우림
283
가르드
트레이스
TOUR
위업
크로즈
김민성
군부대
시판
미스티
등신
두고
뽀뽀
올라갈수록
비슈
타의
##재호
##난방
총동원
민경
##큘
##ister
에른
그어
##핸
띄운
마요이
맞춤법
손익
멈춘다
고칠
포세
검진
혹자
마리코
흥원
유희관
라이프치히
동티
결판
마나미
맞춰져
SSS
시타델
두고두고
급사
Bus
아연
최현
색다른
켄치
해괴
주마
타이트
##달리스트
여태껏
차우찬
방독면
로커
##토메
석권
행진곡
##press
사표
선다
참회
영웅전
헬렌
리오넬
끓이
##scape
로울
284
386
무서워서
러서는
묶이
멍청이
국호
##워스
백동
멜라
플로어
##쯔
네드
스타드
헤로
도플
피폭
##락스
플라밍고
김유신
으뜸
카본
진주시
희석
261
붙여졌
박원순
하물
##자원
픽스
004
Shadow
VF
여간
추증
반점
##드레드
비비안
선례
리븐
##ress
지류
기다린다
엄친
##ada
정준영
밋밋
오락가락
-.-
Av
VOD
소국
극락
령우
렐리아
초석
종주
##현상
흔드
덮쳐
클로즈업
##태자
Arch
상세히
알비온
비켜
결산
아니마
아스널
불로불사
OFF
이학
로다
##당당
##onight
##해방
유충
후폭풍
애쓰
금괴
트이
뛰어가
sky
아스트라
숙달
Dep
기뻐했
배타
##세우
##las
발표회
시흥시
깊숙히
정년
무위
개근
백승
윤서
마사미
햇살
박보
##bow
##부치
올라와서
엘자
익혔
아라키
정몽주
YES
##쿵
원킬
##벌리
##컬레이터
에스컬레이터
테이머
염색체
일렉트로닉
##afe
du
남군
프로파
##amage
##스티안
이지선
송시열
이등
히치
보호법
돌림
남겨둔
##금속
종단
용법
밝혀내
가루다
프란시스코
플릿
여진족
투석기
피플
대서양
TECHNIKA
##민정
직권
딸린
##ives
Ve
구력
산스
비행사
김동준
##oid
맬
현은
러버
터득
황위
떨어뜨린
Two
한식
더치
물든
항법
##APP
방랑자
아만다
277
의례
##토크
##디슨
쓰시마
케이이치
무한대
Ka
did
유루
인민해방
근본주의
인민해방군
비엔
영상물
경쟁사
이정현
으르렁
Hz
패인
앞날
사쿠마
개척자
잡아냈
라쿠텐
Fro
##나물
##와트
축구팀
사나운
Chapter
Tur
시테
감화
##뎅이
내통
폴로
레노
맞닥
보디가드
돌이킬
이택
성교
추악
항변
성가신
##MM
해일
야성
##누이
나아갈
바렛
야후
##군다
후지이
고관
살생
맨션
묘역
강화도
015
걸어야
파스칼
조서
노포
월경
관저
용검
양준혁
수동변속기
유하
파니
파급
찾아간
춰
##잭
부영
정병
진천
주창
동그라
판국
요시유키
김태원
호수비
베네딕
재조명
독려
##쿠젠
스핑
아발론
추존
##ini
줄까
Intel
지양
으셨
습기
전군
남송
순혈
스테파
870
안일
323
율법
Leader
신동엽
전의
키코
해졌으며
인문학
하기
금산
4500
##캉
##맡
코에이
양키
민가
통합진보당
하후돈
티라노사우루스
920
TK
타바
타블로
작아지
디안
완충
꼬드
딜레마
화염병
베스트셀러
Vi
군가
하루하루
##샨
Head
Cost
KK
부럽
상전
덴버
사가라
불고기
난타
프리스타일
테마파크
풀려났
사로잡혀
오디세이
무에
동종
##회원
커세어
덜렁
잰
주구장
CHA
노원구
주구장창
UD
아탈
전상
빅스
##비안
총평
민주자유
멸칭
부지런
이종범
##갱어
쌤
도플갱어
민주자유당
##ja
##어사
안ᄊ
핵미사일
려는데
전망대
신우
왕릉
악동
창녀
희곡
뻔히
캔자스시티
##AMP
동갑내기
리보
피살
뺄
무심코
셧아웃
프란치스코
생모
키오
나잇
료타
Christmas
Earth
띤다
##97
파쿠
실베
보패
형광
금사
##골목
덮여
아시카가
친선경기
Silver
Burn
느림
##무사
점쳐
양극
이범호
미학
군의
294
##먼지
날아온
특촬물
NBC
##제철
추신
키도
다가올
발사대
대문자
옴니버스
Tok
이왕
에무
비서실
miss
대청
만한
잿
녹턴
현대인
마닐라
Global
##CO
야코
황보
레즈비언
내시
##라이즈
히데아키
공수부대
영락없
Double
모피
척탄병
수액
소체
북스
레스큐
동력원
리츠코
강정호
.?
아드리아
세피
씨족
헤아
냉소
HERO
work
##디트
베오
##ones
러일
274
Street
다운타운
쩐
신일본
뽑혀
세기말
리턴즈
효능
뉴올리언스
##꽝
##Boy
##시설
##도록
위례
데포르
##티엄
변변
끝자락
악세서리
펜티엄
코코아
Hand
JO
완행
##친왕
Want
XL
다든가
학비
메노
원산지
휘발유
올랐으며
##ASH
트랜스젠더
이끼
리의
포인
##ery
식탁
고우키
터무니없
벗겨지
하찮
글귀
050
Cloud
하물며
다현
거둘
버클리
예보
여성향
003
들여서
중흥
선덕
타카다
2800
창립자
무반
타령
누에
##ᅳᆯ리에
Reb
===
네츠
증류
휩쓸려
LD
어태
노크
리무진
우겨
반다
267
무한정
수색대
랴오
Techn
미발
경춘
각개
담화
뿌렸
노르드
거침없이
한일
##상어
동고
##보성
농지
338
리미터
##베라
착실
##충전
도망갈
소지품
지크프리트
##앵글
##껍질
##리코
코메
감차
농가
부끄러운
아케미
메디치
##KE
나침
백정
아웃사이
EDG
아웃사이더
김나
병마
라이노
쇼타로
##과학
치진
박력
누굴
옮긴다
롯데월드
천문대
big
했을지도
##해진
##미널
피스톤
왜군
##aint
아츠코
미케
##부쿠로
선왕
외판
온다면
흩어진
지법
친해진
ind
음독
박선
친히
머금
널널
김정우
##ii
교도관
##카이저
##ues
##port
##케이드
아트로
등불
신드
##홈
다가왔
준말
캠벨
렌지
젊음
미주리
보헤미아
오차
정월
리퀴
파시스트
재충전
김풍
곰팡
동대구
세인트루
맥시멈
Hal
이능
현과
##코비치
경차
연작
황교
오르간
리플레이
강석
번주
순욱
법대
271
아쉬울
브루드
PART
##츠로
대웅
미온
영식
##레우스
궁사
268
명목상
법조인
어림
기침
사간
실효
아유무
미확
단풍
##팜
츠노
아쉬워
##67
여초
키릴
맞설
복직
샤드
트라이앵글
조군
권세
중간중간
스즈카
##OTHER
MOM
쎈
맞은
논평
세르히
##전등
재원
##ating
유일무이
through
Thank
제퍼슨
##ken
하버
불후
##탄두
의무병
가져다주
싸이코
뺨치
헉
##거품
켄신
화물선
하이스쿨
##gen
해동
나일
정단
야고
참배
경기병
임성
경제학자
꽁꽁
부득이
효성
전란
바네
동떨어진
##쿠보
케이프
모터쇼
상환
찻
아야네
바티스타
Second
점성술
Oper
##천후
띤
금제
살아났
해로운
거성
수풀
베히
수원역
몰아가
먹혔
라던지
부군
조전
영연방
Pur
위자
곡식
관계없
성장기
타임즈
맞은편
임박
블럼
체인지업
##라지
##타스
플란
몰카
마츠오카
신앙심
어가
마쿠
Studio
415
Cho
안치홍
##하타
피니
표차
항렬
순양전함
박대
루시드
TUN
수스
반미
외워
응원단
고지대
DREAM
신겐
치장
베일리
##HS
로터
잡혀가
##aa
오선
해법
##iko
헤이안
카스티야
중문
혈투
##어먹
수건
청정
환시
정의감
Vita
##YO
장부
받아치
핏줄
##bert
서강대
give
건져
짤렸
무지하
야쿠모
통찰력
MAR
소이치로
서른
반정부
딧
액터
초음파
AU
475
주사기
che
##KA
시현
리암
코야마
휘장
##높이
수력
뭇
유럽연합
클라리
퇴계
퀸시
주거지
줄래
287
징조
헥토르
##꼭
카림
탄성
Hor
##jor
이발
##어냈
자스
관서
학당
혼나
빵집
##사건
문득
산개
엘리시
치료법
Group
Electrical
Water
병조
폴드
codice
RW
정돈
숨길
부산시
앙드레
댕
모텔
##화학
노시
교문
귀순
##딩크
Qual
외딴
바꿔치기
스테파니
LIG
라네
풀려난
마천루
시무
자파
당사
##발트
촉발
1880
서사시
가평
아차
성좌
최수
손주
괴한
하이드라
헬름
자외선
##레프
천인
머스탱
모이라
대마초
Sign
XG
필중
레이프
##진다는
블로거
석가모니
##나도
문산
실프
현충
쇠뇌
배재
먹였
##던스
불사신
##ael
외롭
파이퍼
스위프트
트럼펫
샤라
##oman
프로그레
수집가
짜장면
우완
아니한
경향신문
이웃집
리네
##홀름
다항
개의
##stal
암살단
뼈대
거실
라엘
무속
##쿠니
다이몬
Gre
XIII
이찬
잡이
##lad
자유도
##꾸역
호동
악순환
이태양
꾸역꾸역
Vers
피넛
부녀자
##ior
##랙
조식
노자
##토쿠
패튼
톳
별빛
홀더
닭고기
거듭나
기하급수
수줍
Jr
Wel
비버
Radio
떄문에
HC
연시
신오
백혈
##스트ᄅ
국민정부
녹색당
뛰쳐나
다로
시럽
too
롯데마트
태양광
황건적
연신
요셉
날조
히딩크
기능사
다를까
이효리
나방
츠키
318
만듭니다
##꾸러기
떨리
뒤집어쓰
Bill
데크
갈겨
노니
표하
지하철역
개정판
쑤셔
오명
공덕
##면체
##개발
청송
에이즈
##ANT
카스가
원더걸스
나경
대식
피조
740
가나가와현
금리
끼친다
작업장
+,
해보
바키
코모
현도
##imate
오프사이드
휴식기
##기아
전회
##니카
바친
포용
포교
자유투
레인즈
프로그레시브
피나
송영
변국
완파
침례
넥톤
폭풍우
조리개
모비스
소신
축약
쥘
핏빛
##uz
국명
하이데
스프린
마무
##미경
친자
육손
켄타로
디스토
의문점
##ipp
노량진
시역
##대전
##하트
소타
노구
##왕후
Right
##만장
서천
본색
꼬치
Know
퓌
모더
소독
서핑
메뚜기
일지라도
Cross
##uff
타에
##호테
오리아나
류중
몰타
묘호
키리코
플랑크
Speed
는다거나
티라
309
590
이병규
##셰비키
여몽
중보
성심
애드립
절기
몽크
마틸다
조소
##비나
저지른다
들여다보
Original
Sin
상작
유급
히지
압구
##ters
갓난
대주주
지으면
일장
단두
##포츠
식욕
송강
스티어
무너질
손꼽힌다
DOS
캐터
새긴
병무
윤석
건너뛰
양산시
세리아
알토
알콜
##덕이
플로라
쫒겨
탈레반
지으
세하
그러다
달렉
네빌
투병
쇼고
낚아
##axy
run
말벌
##챙이
가뿐
교동
##usion
스모크
맞섰
호그와트
##이스트
정강
음유
흑자
최윤
##세르크
타이라
##애자
옆면
다녀야
##roid
초대장
END
god
##come
화풀이
중서
첫눈
밸류
대원군
카게야마
나침반
TM
##수선
강현
아야세
read
남동부
조타
매립
묵살
Where
인더스
막심
##쿠르
슈퍼컵
국제법
리베로
이방인
Episode
#==
케임
모랄
##당선
Extra
시진핑
##마켓
부르주
정우람
카탈로그
도저
##부아르
친형
미치코
지와
월남
개역
포에
외친
황성
259
조지프
##썬
유러
통할
TRPG
Ki
##어가
바타
신랑
급부상
kW
##쩔
고승
대작전
비위
안재
알렉세이
호흡기
쏟아졌
인코
자폐
입안
##바오
샤론
기념품
VOL
배꼽
현수막
장권
연선
라일라
##ative
빠짐없이
pack
##다녀
소하
요트
보상금
타케다
끈끈
##겹살
치토세
South
늘린
노회
머리띠
김성주
일기장
일회용
video
보훈
픽시브
해적선
모노레일
아트록스
##live
원석
문물
저수
반지름
Lab
##68
공론
문맥
호건
빨라졌
디나모
Ju
먀
하중
동태
네스트
합시다
슈미트
힐데
전사자
##그란
Born
유장
칫
관리국
지구인
야마노
채무자
유러피언
공법
노도
##키드
불출
##버스터
별관
삼겹살
돌아다닌다
으려다
뒤집어
끌어오
쩔쩔
little
size
올랜
리시버
야노
김효
청록
##북면
중요도
브라보
와카야마
불시착
Mill
Us
고은
지병
##젤로
혹성
Shin
잡아당
Land
기해
신계
신판
역경
축산
##UMI
최전선
더위
토록
친딸
팝업
Pres
유라시아
COL
전말
신궁
살인자
Walk
기정사
##적거리
김옥
환전
282
정규직
집단군
프레시
신조어
기정사실
티엘
오카야마
한다던지
노총
원샷
배영수
검단
##stic
POWER
TNA
하아
우도
결실
##창호
가져와서
꼰대
진우
역수
##저냥
느닷
오오츠카
탁자
뷰어
기말
무득점
개사
니켈
직류
누카
휴학
어딨
나카타
할로우
Rel
외고
승상
버렸으며
정상인
춘향
로버츠
##ji
스컴
류중일
FP
도매
대손
탈선
져도
##펜하
해산물
PRE
이스타
전뇌
슈투
마사코
효고현
Some
유종
물병
수호천사
하후연
이마스
도킹
라브
장어
발길
깨어났
취약점
Mid
##ks
가나다
확연
투아
산신
##벼락
문호준
htm
유생
답장
기모노
friend
부심
발원
향로
니시무라
오카베
히다카
준코
샐리
주먹밥
흉내내
인덕
명회
Chall
노벨상
적출
프로즌
펜던트
##갛
##마타
009
피폐
외삼
스탄
그레고
강태
숍
아키모토
제제
장태
호퍼
점퍼
종장
파이로
퇴위
버려졌
조중
저전
317
이성열
알렉산드라
may
##yl
안목
양승
약관
중앙부
블리스
김재호
와카바
SoC
사대
레더
론드
마사오
바운스
후렴
그냥저냥
홍시
민병헌
청동기
Iron
##**
이롭
민스
혹한
겁니까
닫히
아우구스투스
세인트루이스
도다
바일
가져야
KL
속어
떠넘기
이동국
##웃음
##셔리
마르쿠스
연주회
Ref
동질
##바도르
식수
백금
런들
럭셔리
풀어놓
라던
콧수염
남베트남
##ora
낙오
##깍
부왕
##정보
골자
##트라인
##akes
West
car
다든지
##고시
동과
##유사
버틀러
아오모리
승조원
흐리
상심
포우
강선
역주
티티
279
창업주
미추
캐로
승단
Forever
골판지
로치
수경
##립니다
밝힐
298
네덜란드어
##다임
##아다니
리도
재지
자유민주당
쏠리
아라드
청소부
이카리
거사
급박
##슈타
카즈토
카와이
##자치단체
운다
##날린
나눴
수혜자
성토
카스트
존엄
근절
패러다임
##REAK
턱없이
black
##vin
장차
난방
따라갈
일깨
선양
이봐
##풍선
핸드볼
앞세운
##here
기가
나위
외신
##hel
탈북자
댄싱
File
VV
하태
정희
말린다
코보
계명
##더니
폐렴
가입자
##aeb
장원준
이혜
##퉁이
순애
손재주
길버트
칼초
츠츠
하라다
명반
문지기
##공학
##aki
힘든데
아프간
저작물
이회창
하코다테
Dynam
나베
불순
청탁
int
룸메이트
세르히오
위헌
매몰
패링
교통카드
##IZ
전병
부다
피워
폐역
항공편
융통
카운트다운
##FE
##ᅳ렸
시의
발할
빨아먹
곤잘
그레인
라운지
공권력
##ese
한다면서
##raw
주치
성정
걸출
아르토
협력자
기급
부엉이
유달리
성찬
스기타
people
##부패
개굴
변해서
헌제
##HO
바케
부정부패
WBC
채영
따라갔
COST
돋보였
##ault
##of
현생
속담
##평리
나올지
제스처
##큘럼
고배
356
훌린
선인장
해시
데블
갈매기
278
어벤저스
끌어당기
오승환
위도
내던
##유희
호실
격한
인편
자른
##라시
신보
캐피탈
키라리
꼭지
##볕
신대륙
빨아들이
도당
센텀
전근대
Ray
고열
지은
제미니
구파
남초
갈레
다이쇼
020
ha
mind
##댕
도지
라로
파쇄
김도우
##셔스
드락
comp
Circ
이족
인부
전희
영하
렉터
함흥
##바바
테트리스
289
윤희
##edia
틀어지
올랜도
Lord
##IVER
##버러
씽
탐방
시켰으나
쾌활
컨버터
##티에
참작
정전식
어우러져
대했
리니
##네그로
단체장
커리큘럼
경시청
촘
루도
보이콧
급작
시킨다고
미에
메키
극작
전가
하루나
##돈나
수십만
미라쥬
이데아
에어로
본따
협소
=,
아플
##주얼
비무장
저건
김천시
용가
심성
Prot
사법부
동음
2300
신분당선
림프
##크레
다와
숯
조규
테트라
검수
금강산
보름달
ElectricalBoy
Award
수현
키츠
고노
폭장
칼집
칸타
크로마
카이사
지배했
소대원
무거워
아키하바라
NFC
##사메
일본도
LT
시끄러운
체스터
듄
미군정
Collection
아킬레스
대항해시대
에르난데스
아나톨리아
다혈
##연기
악성
삑
이와타
선지자
##cc
##꺽
히마
남서부
옥스퍼드
Pet
sl
증서
츠구미
##스름
미하엘
끌어올려
박민우
미확인
OL
##핌
##뿍
해주
타테
후마
요한다
##실험
먹인다
쇼지
차이나
sur
장모
게임차
매니악
사형수
미성숙
미운
소풍
##와키
반했
스토킹
월계
원균
캐주얼
910
집어삼
##드레날린
맞춘다
Gar
방도
버질
남장
참새
히비
조인성
라치오
오파
위배
산양
벤제
##스토
##승지
백모
##맞이
안무가
아랑곳
고명
로랑
경종
성내
속셈
외질
008
실패작
1889
비이
알베르
가디
##수소
##처치
269
솔트
냉면
부추기
총기류
JS
##들레
가레스
자란다
위연
입담
이베이
한성부
더운
학동
##텔레스
들판
##라도나
불러들이
##끓
하카타
앵무새
##킨슨
병약
터트려
황충
그럴싸
룩스
스완지
텃밭
mon
나이키
나이토
브리기
불타오르
건널목
나포
##사쿠
장마
식초
플레이스
def
꾸몄
지존
정용
상명
카잔
카락스
치비
망정
책사
핵탄두
작사가
TER
물거품
쿠소
엄정
쓸어버
마쓰다이라
LH
초롱
아마게
펜리
APEX
후쿠오카현
mag
##냉
소코
컴팩
경영진
레버쿠젠
벤제마
Wild
고액
집념
빙자
핀잔
챙긴
매달린
Plat
시퀀
극치
돈독
지휘부
아리스토텔레스
Ze
온실
혼령
링링
교육학
리카르도
군의관
구강
서성
매끄럽
접어
압록
어지러
다혈질
##ios
자길
메르스
이케부쿠로
형량
##andy
스핑크스
하즈키
입헌
DRA
도재욱
보면
조총
골목길
지느러미
예절
##제트
##공신
스턴스
지회
강병
탈리아
선취점
##uh
##행성
##멜로
바레인
리호
내리막
벼랑
백과사전
홍천
마음속
가속도
은닉
그나
유두
코크
##놀림
권외
궁기
폭발력
토모미
##이야기
##공산
급전
휴즈
갈림
백자
##이어티
이로하
||
주나라
마론
라피스
##개토
순경
독약
민물
296
리서치
fire
##LV
초성
치노
절충
히이라기
브뤼셀
도탄
서너
명가
간대
곡예
넘나들
득점력
주먹질
간청
곤봉
444
니시키
##메이커
후견인
에른스트
RK
마스터스
둔감
오카자키
아드레날린
부축
비행대
ass
리튬
채태인
급급
배기량
##일점
박시
##ouri
EXE
콤비네이션
음양사
자영
스네이
당구
망한다
혹여
##빽
에트
로한
민호
쓰러질
아닐지
용기병
1870
스톡홀름
슈가맨
소사이어티
의태
노로
구포
프리깃
순정만화
##ᆸ니까
로베르
화강
호지
돌격대
김유정
다져
보시
안위
감점
##lear
보수주의
떠오른다
미적분
해짐
저마다
직각
양질
홍지
협찬
다이어리
운전석
리벨리온
바움
##데자
차역
국화
물기
##파인더
광개토
뛰어올라
호소다
##크린
방조
원해
니모
국가원수
띄어쓰
감염증
\[
닷지
도진
인회
##인명
레우스
외가
약함
트집
품위
빽빽
Lim
지탄
보관소
##ISE
fun
일말
쓰촨
앙헬
690
되살려
imp
##스톱
국고
떨어뜨린다
험하
del
font
고세이
기우
때려서
펼쳐져
1884
에디슨
Ban
빌더
자료실
MCU
부러워
백운
행정관
리자몽
은발
기엔
적수
정모
예우
명과
##노동
##불교
박정현
전준
위버
##물질
체벌
임했
몸담
리우데자
외동딸
피조물
리우데자네이루
자괴
현우
닉슨
IL
하소연
조재
산역
단두대
TJ
제창
코츠
384
리스본
때려눕
##동사
재치
스카프
뭉쳐서
시아파
읍내
시찰
소바
초속
피디
006
삼성그룹
브리기테
Hall
면전
만든다고
281
충전기
측정기
토벌전
폴리곤
오현민
Mich
WD
wr
##xy
용수
still
지리산
사이좋
Bon
##가면
상큼
토고
광원
297
헬륨
카즈오
코노미
Vf
##ᆺ물
리소스
코뿔소
##두라스
군무
온두라스
쉬운데
육전
짜내
밝혔으며
앙숙
와이즈
##istory
루스벨트
##심원
금치
EG
KAC
##다발
구전
신마
코오
먹힐
스포르
여호
부응
안다고
내려치
Child
떠올려
관악구
##히메
구기
푸아
##드롬
CONC
몬테네그로
Jump
구심
영과
데니
보여줘
레이즈
토모에
미시시피
에타
##하우스
공보
장경
임파
옥황
336
포니테일
Round
몰수
옥좌
멤
든다는
##폭스
기슭
사부로
바랄
우표
##받이
하여튼
서한
장고
교우
손전등
히로아키
만신창
대권
무주
갑작스러운
Mart
Nav
Wo
파레
쿨러
바꿔야
카산드라
##ba
배설
증산
##ising
살아간다
베르나르
덮친
기뻐한다
일으켜서
히라가나
ft
랜더
팩터
샐러리
듬뿍
HAPP
전입
스몬
홍설
윤하
Guard
아무로
격화
웨슬리
롤스터
베르디
박해민
Eyes
##uel
과소
포춘
강룡
그리움
##cept
요금소
해버릴
수필
브리타니아
모래시계
굶주린
내디
##태평
770
레스테
내보낸
약혼녀
센티넬
전년도
애덤스
박건우
##TO
비보
빛깔
레드불
요오
워렌
헤비메탈
하등
도일
유현
음직
북측
내려온다
Dist
조스
카발
군소
씨스타
##잔치
동반자
조안
입금
##츠바
온과
농축
##찌개
네이마르
경춘선
Bas
##볐
이지만
적설
합전
츠시
##땀
Rh
우타이
쿠다
앞바다
헤쳐
대법원장
불러일으켰
도축
수화
경무
##타리오
음차
30000
##뇰
Ball
##ever
메구
보이저
봉선
##reme
컵라면
히토시
sub
아보
공제
무왕
데자
역린
음악실
아울렛
깨진다
하이바라
생활비
##oke
지어서
RD
##토무
독식
불러올
샌가
플렉스
where
어조
유리아
후쿠이
페르디난트
케임브리지
tell
대야
와리오
##비에
삼지
아마미
바라볼
라세
만월
요츠바
니이
독학
프시
안타까움
콘스탄티노폴리스
Royal
의향
잤
적병
수족관
OH
전초
조윤
##여왕
포경
호죠
319
고장난
고춧가루
GDI
으레
노파
창백
##ᅳᆯ로러
휴머
갑니다
서장훈
익스플로러
나탈리아
par
비탄
폭렬
에이트
유키나
흐려
기선
무희
노상
행패
합본
골인
흐릿
거상
꼬인
낙엽
뇌신
Inst
삼국유사
스벤
안부
##호란
종북
투데이
떠맡
팔콘
품격
이겨서
에뮬레이터
흥선대원군
가논
코버
예프
종시
판치
##inity
산불
권위주의
LEVEL
파우더
American
온건파
two
##ker
도큐
라플라
화법
비긴
노른
할애
장량
목판
홍백
물리쳤
##푸드
##들ᄅ
깁스
제원
지나칠
밥줄
##56
##cer
아라곤
##똘
블린
핵실험
부여군
후훗
마역
타크
파스텔
반투
양력
짰
휘청
맴돌
대합실
RM
뤄
우현
불살
용마
마스미
이티
내동
신월
집니다
양구
새뮤
티미
교육자
뭉친
미덕
리링
생화학
난항
잔나
860
##뷔
##찜
고환
로베르트
무브
##ᆯ리스크
배짱
괴로운
강동구
간선버스
오벨리스크
송창식
합참
책자
##교동
커쇼
##쿠마
철조
마사지
날카로
열람실
VO
뗀
에렌
와전
김철
깨워
석양
##캐롤라
##캐롤라이나
tri
리피
리그컵
결정체
326
Style
헐리우드
라그
히루
천거
페레
김재현
Parad
sing
번즈
머릿수
익룡
건넨
산청
406
입장권
항해사
끈질긴
##타나
언동
벤다
##둥절
어리둥절
굽히
할래
카파
팀플레이
박은
##ddle
##스트림
벌어들이
어퍼컷
둑
종가
쿠치
##추얼
물리친
벤쳐
구해야
성전환
들끓
제군
동공
카포
꿀리
도미노
제니스
외식
네즈
강해질
Luc
부린다
정청
야라
호국
저해
열거
산다는
알베르트
산단
그래비티
##acle
박살났
보안법
마가렛
관현악단
가곡
##산맥
평형
덕아웃
##제일
안시
잡다
수감자
고출력
도토리
오목
##비크
##역학
##vers
요시키
호쿠토
##ugh
##BL
##akao
스테파노
Fa
전할
코고로
산수
충렬
292
젓가락
first
보노
신랄
요이치
피라
심수
레이건
참모장
##ㅋㅋ
카고
살의
Stop
숭실
화정
차녀
요상
real
무브먼트
##기병
포부
디브
꽃미남
알아본
##빌라이
비올라
진서
타카유키
욱일기
마샬
padd
인품
대당
광휘
넘나드
NEXT
닛타
일과
했잖아
만무
덕수
밀려난
피오나
사디
장외
장년
초이스
약소
함경남도
영능
덜하
흘러갔
Bell
HO
등부
꽂혀
브로드웨이
유공자
가모
재석
친환경
##alth
빌려서
이치노세
~!!
고프
##대성
신족
롤백
2030
##르츠
신이치로
흑사병
찬가
사우론
바네사
와선
타박
루츠
커즈
교통수단
자책골
중재자
고물
비수
리니지
감싼
임산부
찬반
영남대
##73
노안
베개
##배추
##악단
지상주의
휘말린
곰팡이
하일
지겹
마돈나
보궐
육사
크로커
벤투
##샤오
삥
칼리스타
시한부
OUT
이간
##나항공
미연
선라이즈
신아
니시오
아시아나항공
Cast
돌프
언저리
앞발
1885
##즈미
##민당
##덧
헷
풍족
람다
곤잘레스
펜리르
사하라
적벽
영걸
반해서
엉성
양성소
홀딩스
##ule
꼬시
MSX
2023
명문가
괴로움
제노스
##른베르크
##락부
극비
대졸
엔드게임
Golden
##이시
와일리
##자루
폭정
##이츠
레카
배합
군비
쉬움
Alex
구해서
기간제
촬영장
해적판
라미아
알폰소
Our
은사
드니
##rie
exp
##trl
서유기
박헌영
##핸드
자구
수포
소희
모리슨
장타력
거스르
VII
순결
잘라서
스스무
시퀀스
##즈ᄅ
공해
배움
루브
망전
바쿠간
섬멸전
##43
작열
니노
교가
쉬워서
어떤지
3200
붉히
STX
##르ᄅ
비친
카요
설욕
외톨
프리뷰
힐다
네이팜
스파게티
글로리아
ref
이씨
모우
노와
성진
찬물
좁히
가로질러
Far
아뢰
시네
남우
치웠
천억
금품
꽃피
매킨토시
느닷없이
FU
암드
then
재판장
할퀴
묠
##ᆷ픽
##슝
얄짤
얄짤없
HMS
테네시
퇴적
굴하
스트릭
카미유
느릿
Dear
##min
해버
요시아키
불우
대표단
기관지
익주
모리타
이주민
카세트
서당
##유행
문턱
코스터
##디부아르
판금
##석탑
베츠
친위
축조
데려간다
김영철
멍하니
코트디부아르
Flash
손승락
봅
##타주
1001
##슛
졸전
육탄전
꺄
가브
##데우스
우시오
호성
식료
갑각
##ARE
##눈물
파피루스
?"
고바야시
폐해
셰필드
하수구
갇혔
유성구
강릉시
가맹점
애꿎
조반니
아산시
은유
중신
레비아
교지
페그
##걸리
국민학교
위기감
##층석탑
연대장
이지영
레비아탄
rpm
군신
토호
약학
요시타카
스파르
무인기
Mini
수나라
서러
활짝
##애플
##ᆷ피스
떠나가
Stars
키노시타
시망
##시험
##인구
독차
악덕
레이버
역사가
연주가
물러난다
##ought
군체
아라카와
카시와
수성구
새뮤얼
Code
전유
장서
분별
난바
넘친다
에스페
허리띠
김수현
설레발
이츠카
지소
인디아
최충
애절
세계사
일단락
뿌린다
트레저
성전사
고을
대란
라헬
정판
화형
선화
##랜더
##바이크
GOLD
MIN
영세
카슈
논술
상점가
황교안
Attack
라간
말풍선
종편
간디
페스트
회사원
남녀공학
함의
철창
뮤츠
트리스탄
대관식
콘스탄티노플
윤성환
컨설팅
전등
왕왕
류승
샤프트
정조준
html
고티
나영
대연
온타리오
덕양
##iter
오카모토
##ucky
other
##ko
##por
##ᆺ사
이데오
##만큼
형질
##파스
총상
갈증
블록버스터
must
song
##GN
장충
더그
겸직
휴게실
##ternal
디비시온
Ti
Ur
노려서
영제
원당
불합
레다
배팅
엔투스
취침
705
오버래
예종
##피카
##천하
느껴졌
간절히
염라대왕
pp
~,
##AV
그친
집무실
헬리오스
ret
로킹
연개
예멘
증감
칼슘
343
공사장
##랄라
BAT
단짝
염보성
도민
으로선
자업자
빼돌리
움켜
자업자득
bec
구례
실신
토니아
##레온
탄광
##amu
서양인
Rap
기주
815
사마소
지운
피눈물
##orrow
미야비
생몰년
사이타마현
의형제
투시
830
Mob
background
아탈란
공터
##문고
성관
발드
채권자
양아버지
총학
쿠르트
인덱스
Ven
WOW
##kn
깅
주니
##주머니
안가
뉴타운
아카바
부르주아
로큰
여분
상연
##소디
야근
##탈출
답례
419
삼국전
그리스도교
Engine
padding
app
노모
노점
출도
점착
병동
책장
아키즈키
지켜볼
533
고고학자
NTR
친일인명
성북구
친일인명사전
도제
모는
군산시
##예술
벌목
야구팬
331
트래비스
나나코
이택근
act
##bat
빈유
조용필
PVE
##gar
명기
485
쥬스
달려온
hellojo
##po
가용
무카이
선입
난국
산둥
끝장내
히타치
우솝
지른다
나단
수구
매국
음악회
휙
계산기
line
##under
타계
원이
291
패럴리
지반
중의
송승
구자욱
TNT
모치즈키
Chaos
이바지
밉
##eca
검사장
평안북도
;;
Yo
##Force
마라도나
모드레드
행실
허스키
##패닉
염주
클로저
히스패닉
크리스티아누
코에
역자
변성
극렬
곤살
떠올린다
무소속
탈리야
소홀히
break
마정
타전
영자
니토
홍길동
퇴색
뒷골목
오피스텔
유익
터로
##박쥐
흔쾌
렌치
뒷이야기
록키
가역
용례
완다
미카미
여차하면
HYP
##땡
정평
지켜본다
불렀으며
Princ
박주영
Fair
할게요
버나드
멤피스
npc
자시
차수
서막
맞받
양배추
철기
담론
꿈속
##ORY
##그래피
레모
국소
판문
크리에이
국민은행
실종자
##uke
컴팩트
크리에이티브
GUMI
##도그
성가시
집안일
히메네스
두들기
하하하하
되도록
사철
내재
준주
322
미라지
요격기
쉬프
망고
쁘띠
##케이트
의정
##스태
모략
세크
##오른
기타프리
빗발
always
씌운
되돌아오
기타프릭스
Wave
도륙
잿빛
곤경
쏘아
킬라
조선왕조실록
Got
##42
오에
정순
포리
료우
435
중추원
아방
아칸
높인
난립
가르친
##셔닝
보병대
아사노
낭독
캣츠
포지셔닝
LW
노진
참견
양주시
쿠션
어대
부린
절박
케모
border
fall
##자르
노이어
개점
번리
매디슨
천신
커드
들으면서
쬐
몸부림
351
애완견
비대칭
CAN
DG
부랴
레퍼
간만
Galaxy
OZ
성냥
불변
표제
북송
브리티시
하비에르
가와사키
소포
노심
네리
충칭
러니
중국식
랩소디
##olding
EVER
비공
군락
혼신
도독
호통
매터
체공
삼보
[...]
