[PAD]	0
[UNK]	0
[BOS]	0
[EOS]	0
[CLS]	0
[SEP]	0
[MASK]	0
▁1	-0
▁2	-1
▁이	-2
▁분	-3
▁분류	-4
▁20	-5
▁(	-6
으로	-7
에서	-8
▁사	-9
▁있	-10
▁대	-11
▁19	-12
▁그	-13
▁3	-14
▁아	-15
▁시	-16
▁제	-17
▁수	-18
▁지	-19
▁-	-20
▁201	-21
▁가	-22
▁기	-23
이다	-24
▁전	-25
()	-26
▁하	-27
었다	-28
▁한	-29
▁선	-30
▁정	-31
▁4	-32
▁200	-33
▁일	-34
▁다	-35
▁중	-36
20	-37
▁있다	-38
▁영	-39
▁공	-40
▁경	-41
▁5	-42
▁주	-43
했다	-44
▁자	-45
▁유	-46
▁인	-47
▁역	-48
▁미	-49
하였	-50
19	-51
▁동	-52
▁부	-53
▁마	-54
▁오	-55
하는	-56
▁보	-57
▁위	-58
▁조	-59
▁것	-60
▁스	-61
▁6	-62
▁연	-63
▁소	-64
▁나	-65
국의	-66
▁개	-67
학교	-68
되었다	-69
▁고	-70
▁모	-71
▁10	-72
▁출	-73
▁국	-74
▁등	-75
▁7	-76
▁*	-77
▁의	-78
▁도	-79
하고	-80
▁여	-81
▁서	-82
▁비	-83
▁8	-84
▁신	-85
▁구	-86
하였다	-87
▁세	-88
er	-89
하여	-90
▁프	-91
▁발	-92
▁상	-93
▁S	-94
▁9	-95
▁0	-96
▁후	-97
한다	-98
▁성	-99
으며	-100
in	-101
an	-102
▁방	-103
▁해	-104
▁남	-105
▁대한	-106
on	-107
▁~	-108
▁선수	-109
▁교	-110
에는	-111
▁199	-112
▁관	-113
▁김	-114
▁M	-115
▁장	-116
▁우	-117
▁배	-118
▁12	-119
▁무	-120
▁때	-121
▁C	-122
▁작	-123
▁바	-124
▁11	-125
▁A	-126
▁최	-127
▁T	-128
▁영화	-129
▁노	-130
▁문	-131
▁있는	-132
▁리	-133
▁포	-134
▁진	-135
▁현	-136
▁만	-137
부터	-138
▁축	-139
▁내	-140
▁어	-141
▁"	-142
▁통	-143
00	-144
▁강	-145
▁원	-146
ar	-147
▁에	-148
지만	-149
▁않	-150
▁결	-151
▁거	-152
▁로	-153
▁파	-154
에게	-155
or	-156
▁F	-157
되어	-158
en	-159
▁18	-160
스트	-161
▁축구	-162
▁또	-163
▁라	-164
까지	-165
▁불	-166
▁생	-167
▁사람	-168
▁당	-169
▁알	-170
▁안	-171
at	-172
▁설	-173
al	-174
▁B	-175
된다	-176
▁198	-177
▁단	-178
▁실	-179
▁P	-180
▁카	-181
▁반	-182
▁계	-183
▁예	-184
▁명	-185
적인	-186
▁없	-187
▁)	-188
▁차	-189
▁대한민	-190
es	-191
▁같	-192
201	-193
:19	-194
200	-195
적으로	-196
▁D	-197
▁재	-198
▁타	-199
리아	-200
▁()	-201
▁코	-202
▁음	-203
▁요	-204
▁데	-205
▁K	-206
▁일본	-207
▁두	-208
레이	-209
이라	-210
▁함	-211
▁참	-212
▁사용	-213
▁감	-214
▁말	-215
▁따	-216
▁승	-217
▁15	-218
▁프로	-219
▁특	-220
▁받	-221
he	-222
▁L	-223
▁초	-224
▁(19	-225
▁종	-226
▁#	-227
▁올	-228
면서	-229
▁군	-230
들이	-231
▁16	-232
▁게	-233
▁박	-234
에서는	-235
되었	-236
▁및	-237
▁이후	-238
▁더	-239
▁운	-240
▁한다	-241
.0	-242
▁베	-243
▁매	-244
하기	-245
ic	-246
하게	-247
▁드	-248
▁건	-249
대한	-250
▁독	-251
▁피	-252
is	-253
▁양	-254
▁추	-255
년에	-256
▁본	-257
▁행	-258
it	-259
들은	-260
▁태	-261
▁호	-262
▁I	-263
▁R	-264
▁G	-265
▁외	-266
),	-267
▁화	-268
▁입	-269
▁평	-270
▁경기	-271
등학교	-272
▁크	-273
▁t	-274
▁14	-275
▁17	-276
▁197	-277
▁산	-278
▁13	-279
▁메	-280
BS	-281
▁임	-282
았다	-283
▁변	-284
주의	-285
▁H	-286
▁미국	-287
▁회	-288
▁왕	-289
▁형	-290
으나	-291
시아	-292
였다	-293
▁활	-294
▁과	-295
▁목	-296
▁N	-297
▁철	-298
▁레	-299
▁배우	-300
▁번	-301
▁한국	-302
▁E	-303
▁많	-304
▁열	-305
▁,	-306
▁되었다	-307
▁총	-308
대한민	-309
▁민	-310
▁적	-311
▁은	-312
▁북	-313
▁그는	-314
▁야	-315
▁그리	-316
▁토	-317
▁위해	-318
▁각	-319
le	-320
▁196	-321
▁학	-322
는데	-323
▁표	-324
▁지역	-325
▁시작	-326
▁같은	-327
▁브	-328
이며	-329
들의	-330
▁달	-331
▁국가	-332
들어	-333
▁편	-334
▁청	-335
▁W	-336
▁대한민국	-337
스의	-338
▁함께	-339
▁간	-340
▁디	-341
ion	-342
▁o	-343
re	-344
▁때문	-345
대한민국의	-346
▁이름	-347
▁출생	-348
▁새	-349
랜드	-350
▁직	-351
▁애	-352
▁되	-353
▁사이	-354
▁O	-355
ro	-356
들을	-357
▁서울	-358
▁천	-359
us	-360
▁따라	-361
▁물	-362
▁처	-363
▁저	-364
라이	-365
▁광	-366
▁:	-367
▁항	-368
▁경우	-369
▁속	-370
하며	-371
18	-372
▁다른	-373
10	-374
▁삼	-375
▁자신	-376
▁집	-377
▁금	-378
▁세계	-379
대학교	-380
▁30	-381
▁체	-382
하다	-383
▁U	-384
라는	-385
▁투	-386
▁약	-387
▁기록	-388
21	-389
▁합	-390
▁또한	-391
▁출신	-392
▁존	-393
▁그러	-394
▁s	-395
ol	-396
▁버	-397
▁게임	-398
세기	-399
el	-400
▁현재	-401
as	-402
▁다음	-403
▁작품	-404
▁히	-405
▁트	-406
하지	-407
▁of	-408
▁/	-409
▁법	-410
▁순	-411
▁복	-412
▁195	-413
도의	-414
라고	-415
▁플	-416
▁J	-417
▁194	-418
▁.	-419
▁황	-420
ing	-421
▁페	-422
▁25	-423
▁2010	-424
라마	-425
▁점	-426
▁네	-427
▁필	-428
▁백	-429
▁창	-430
▁하나	-431
▁심	-432
il	-433
▁2012	-434
▁방송	-435
▁조선	-436
▁2014	-437
▁판	-438
▁확	-439
▁패	-440
▁월	-441
am	-442
▁(201	-443
▁당시	-444
▁여자	-445
위원	-446
▁그의	-447
▁감독	-448
이나	-449
기도	-450
▁클	-451
▁루	-452
▁가장	-453
▁아이	-454
▁팀	-455
et	-456
▁2008	-457
▁치	-458
.1	-459
에도	-460
▁때문에	-461
▁살	-462
▁사망	-463
▁2013	-464
▁언	-465
▁뒤	-466
▁첫	-467
▁2011	-468
ch	-469
있는	-470
om	-471
▁충	-472
▁된다	-473
▁증	-474
▁2015	-475
되는	-476
▁2009	-477
▁것을	-478
▁21	-479
ou	-480
▁(,	-481
▁프랑	-482
▁못	-483
▁용	-484
▁2016	-485
▁남자	-486
▁완	-487
▁위치	-488
▁또는	-489
▁의해	-490
-1	-491
▁취	-492
▁는	-493
▁리그	-494
and	-495
▁참가	-496
리스	-497
이지	-498
리그	-499
이스	-500
▁(200	-501
▁시즌	-502
▁준	-503
이트	-504
▁24	-505
리는	-506
▁것으로	-507
기를	-508
▁대한민국의	-509
▁그러나	-510
▁병	-511
▁활동	-512
▁2018	-513
▁23	-514
▁돌	-515
▁있으며	-516
▁했다	-517
림픽	-518
일에	-519
▁2017	-520
BC	-521
▁22	-522
기에	-523
▁테	-524
▁있었다	-525
▁것이	-526
미국의	-527
▁V	-528
▁할	-529
▁2007	-530
▁근	-531
니아	-532
▁설립	-533
▁친	-534
▁그리고	-535
시의	-536
▁통해	-537
졸업	-538
▁음악	-539
▁동문	-540
▁권	-541
일본	-542
000	-543
▁손	-544
는다	-545
디오	-546
리를	-547
▁죽	-548
▁쓰	-549
ac	-550
▁뉴	-551
.2	-552
졌다	-553
▁채	-554
지는	-555
대로	-556
▁철도	-557
ed	-558
▁정치	-559
▁2006	-560
▁28	-561
▁26	-562
▁아니	-563
id	-564
▁포함	-565
▁들어	-566
▁홍	-567
▁캐	-568
▁2019	-569
회의	-570
텔레	-571
이라고	-572
▁m	-573
비전	-574
▁27	-575
▁높	-576
했고	-577
▁우승	-578
▁올림픽	-579
이션	-580
▁d	-581
▁하는	-582
▁다시	-583
▁허	-584
▁연구	-585
▁이상	-586
▁키	-587
아있는	-588
▁많은	-589
▁프로그	-590
▁193	-591
되고	-592
▁졸업	-593
ig	-594
▁것이다	-595
▁사회	-596
하면서	-597
▁드라마	-598
▁가지	-599
▁식	-600
.5	-601
▁29	-602
▁육	-603
▁독일	-604
▁대해	-605
▁제작	-606
사를	-607
▁대학	-608
▁전쟁	-609
▁국제	-610
▁the	-611
▁중국	-612
▁2005	-613
▁텔레	-614
▁수상	-615
살아있는	-616
ent	-617
▁와	-618
▁러	-619
▁**	-620
▁모두	-621
15	-622
▁모든	-623
스터	-624
나라	-625
▁있었	-626
▁블	-627
도로	-628
▁일부	-629
리카	-630
로서	-631
▁송	-632
▁온	-633
▁f	-634
▁여러	-635
하였고	-636
▁대표	-637
이었다	-638
▁2020	-639
▁폐	-640
개의	-641
▁텔레비전	-642
▁길	-643
통령	-644
▁규	-645
16	-646
▁2004	-647
km	-648
▁윤	-649
▁환	-650
um	-651
▁큰	-652
px	-653
▁검	-654
▁정부	-655
스는	-656
학자	-657
▁프로그램	-658
▁p	-659
▁역사	-660
ad	-661
un	-662
이자	-663
고등학교	-664
▁KBS	-665
▁문화	-666
st	-667
리에	-668
이고	-669
▁위한	-670
.3	-671
▁도시	-672
▁날	-673
17	-674
장을	-675
상을	-676
보다	-677
ur	-678
▁홈	-679
이라는	-680
▁미국의	-681
▁공식	-682
란드	-683
대의	-684
▁처음	-685
12	-686
▁c	-687
(),	-688
▁b	-689
14	-690
▁이용	-691
▁선거	-692
리가	-693
▁섬	-694
되었고	-695
▁걸	-696
위를	-697
▁농	-698
▁100	-699
▁대회	-700
▁끝	-701
▁별	-702
▁슈	-703
성을	-704
▁하였다	-705
ation	-706
▁프랑스	-707
▁엔	-708
▁대통령	-709
군의	-710
이는	-711
지를	-712
▁영국	-713
▁2000	-714
▁앞	-715
▁가능	-716
▁알려	-717
▁자신의	-718
자가	-719
이었	-720
특별	-721
▁석	-722
▁니	-723
▁있어	-724
▁헤	-725
▁일반	-726
▁31	-727
▁협	-728
▁The	-729
기의	-730
▁음반	-731
▁발매	-732
-0	-733
거나	-734
FA	-735
▁개발	-736
년대	-737
대표	-738
▁싱	-739
▁구성	-740
▁골	-741
50	-742
:201	-743
▁앨	-744
위원회	-745
▁존재	-746
ot	-747
▁볼	-748
시에	-749
▁사건	-750
인의	-751
▁폭	-752
▁이루	-753
▁2003	-754
▁설치	-755
스타	-756
▁등의	-757
iv	-758
리즈	-759
년부터	-760
▁맞	-761
▁2002	-762
▁담	-763
▁논	-764
▁대학교	-765
▁밀	-766
▁문제	-767
탈리아	-768
력을	-769
대학	-770
호선	-771
▁시간	-772
▁귀	-773
민주	-774
▁극	-775
프트	-776
▁맡	-777
▁좋	-778
▁즉	-779
▁스타	-780
▁나타	-781
▁향	-782
▁지방	-783
▁소속	-784
▁접	-785
했으며	-786
▁이어	-787
▁(199	-788
30	-789
ag	-790
▁교육	-791
▁잘	-792
▁글	-793
▁케	-794
▁1,	-795
▁라이	-796
▁진행	-797
.4	-798
▁누	-799
▁FC	-800
▁발표	-801
ter	-802
▁결과	-803
jp	-804
▁사랑	-805
로운	-806
▁+	-807
▁전투	-808
▁동안	-809
났다	-810
▁것은	-811
▁관련	-812
jpg	-813
버지	-814
부분	-815
▁공격	-816
▁번째	-817
▁봉	-818
▁곡	-819
▁행정	-820
리의	-821
광역	-822
▁가수	-823
▁자유	-824
▁타이	-825
▁TV	-826
▁등이	-827
▁월드	-828
▁하지만	-829
ay	-830
▁커	-831
ir	-832
im	-833
▁쿠	-834
13	-835
▁없다	-836
문화	-837
▁갖	-838
▁막	-839
▁효	-840
우스	-841
비아	-842
:200	-843
.6	-844
기가	-845
하면	-846
초등학교	-847
▁관계	-848
▁되어	-849
▁중앙	-850
번째	-851
년에는	-852
▁곳	-853
방송	-854
자의	-855
▁범	-856
▁애니	-857
로부터	-858
▁탈	-859
em	-860
▁이전	-861
).	-862
▁중심	-863
▁줄	-864
.7	-865
,000	-866
도록	-867
시키	-868
▁책	-869
▁변경	-870
▁출연	-871
▁하고	-872
▁등장	-873
남도	-874
.8	-875
▁밝	-876
--	-877
▁마이	-878
.9	-879
▁St	-880
▁발견	-881
os	-882
▁최초	-883
들과	-884
▁2001	-885
▁태어	-886
(19	-887
▁데이	-888
▁머	-889
▁노래	-890
▁등을	-891
▁and	-892
센터	-893
▁Y	-894
th	-895
ec	-896
▁MBC	-897
기는	-898
▁진출	-899
▁경제	-900
▁이는	-901
▁발생	-902
▁운영	-903
ul	-904
▁in	-905
▁절	-906
▁주장	-907
ia	-908
사가	-909
▁갈	-910
▁이러	-911
명의	-912
▁암	-913
되었으며	-914
▁독립	-915
od	-916
▁면	-917
▁아들	-918
메이션	-919
사의	-920
서는	-921
▁레이	-922
ap	-923
▁이러한	-924
▁그녀	-925
▁지정	-926
▁192	-927
op	-928
로는	-929
와의	-930
▁쇼	-931
▁난	-932
▁최고	-933
▁지원	-934
월에	-935
11	-936
정을	-937
▁--	-938
에서도	-939
어진	-940
▁이를	-941
머니	-942
공화	-943
▁로마	-944
레스	-945
▁기술	-946
했던	-947
▁얻	-948
구의	-949
▁참여	-950
▁철도역	-951
▁영향	-952
▁유럽	-953
▁질	-954
▁일본의	-955
년까지	-956
(,	-957
▁터	-958
르크	-959
성이	-960
▁된	-961
▁러시아	-962
▁의미	-963
▁혼	-964
야마	-965
들에게	-966
가지	-967
▁대부분	-968
▁대전	-969
▁다음과	-970
▁부산	-971
▁애니메이션	-972
▁인해	-973
▁----	-974
▁뜻	-975
▁기준	-976
카이	-977
▁스페	-978
▁득	-979
▁악	-980
리스트	-981
▁50	-982
TV	-983
▁이에	-984
렸다	-985
▁그룹	-986
스를	-987
▁울	-988
▁국가대표	-989
하였으며	-990
스크	-991
▁잡	-992
자를	-993
▁수도	-994
▁교수	-995
▁탄	-996
▁생각	-997
▁엘	-998
ut	-999
:199	-1000
ers	-1001
니다	-1002
▁급	-1003
▁폴	-1004
▁기업	-1005
▁1999	-1006
학과	-1007
광역시	-1008
▁새로운	-1009
▁콘	-1010
이드	-1011
▁부분	-1012
▁1998	-1013
▁시대	-1014
▁찾	-1015
▁일어	-1016
▁필요	-1017
다는	-1018
▁사실	-1019
▁같이	-1020
40	-1021
▁민주	-1022
선의	-1023
운드	-1024
▁고려	-1025
▁침	-1026
80	-1027
원의	-1028
▁결정	-1029
중학교	-1030
▁아버지	-1031
도를	-1032
60	-1033
▁다양	-1034
▁특히	-1035
▁데뷔	-1036
oc	-1037
-2	-1038
ow	-1039
자로	-1040
북도	-1041
▁형태	-1042
▁X	-1043
▁야구	-1044
▁측	-1045
르는	-1046
▁만들어	-1047
▁앨범	-1048
▁칼	-1049
▁벌	-1050
▁프리	-1051
▁l	-1052
스템	-1053
므로	-1054
다고	-1055
자는	-1056
▁학교	-1057
▁시리즈	-1058
▁싱글	-1059
▁정보	-1060
▁항공	-1061
시마	-1062
▁빌	-1063
▁여성	-1064
▁40	-1065
▁이탈리아	-1066
▁돌아	-1067
▁없는	-1068
▁1996	-1069
과의	-1070
▁업	-1071
나다	-1072
▁구조	-1073
▁해당	-1074
서울	-1075
스가	-1076
▁받았다	-1077
거리	-1078
▁넘	-1079
부의	-1080
▁성공	-1081
▁경상	-1082
▁운동	-1083
▁들	-1084
▁팔	-1085
▁인터	-1086
▁모습	-1087
대를	-1088
인이	-1089
▁받아	-1090
인민	-1091
▁상태	-1092
▁노선	-1093
▁n	-1094
▁v	-1095
▁기타	-1096
ist	-1097
▁작곡	-1098
잉글	-1099
▁딸	-1100
▁브라	-1101
▁국민	-1102
학급	-1103
▁좌	-1104
▁컴	-1105
ov	-1106
▁위원	-1107
식을	-1108
25	-1109
▁190	-1110
처럼	-1111
버스	-1112
▁을	-1113
명을	-1114
으로서	-1115
▁이것	-1116
다가	-1117
피언	-1118
▁있고	-1119
▁현대	-1120
자인	-1121
기로	-1122
가와	-1123
▁이야	-1124
▁후보	-1125
▁운행	-1126
▁In	-1127
▁있던	-1128
▁워	-1129
▁1995	-1130
▁계속	-1131
▁잠	-1132
▁공동	-1133
▁헌	-1134
▁w	-1135
▁중요	-1136
▁1997	-1137
장이	-1138
운동	-1139
ce	-1140
▁매우	-1141
▁바이	-1142
요일	-1143
▁국가대표팀	-1144
▁가지고	-1145
일본의	-1146
▁주로	-1147
해서	-1148
▁뮤	-1149
에서의	-1150
되지	-1151
▁눈	-1152
ra	-1153
▁다이	-1154
연구	-1155
▁얼	-1156
▁SBS	-1157
쪽으로	-1158
▁마지	-1159
리오	-1160
▁플레이	-1161
잉글랜드	-1162
▁Ch	-1163
▁만들	-1164
영화	-1165
▁이유	-1166
▁생산	-1167
▁힘	-1168
ie	-1169
70	-1170
▁a	-1171
▁챔	-1172
명이	-1173
▁않았다	-1174
전을	-1175
▁내용	-1176
원전	-1177
48	-1178
og	-1179
▁조직	-1180
:20	-1181
페이지	-1182
교육	-1183
어로	-1184
▁배경	-1185
▁빠	-1186
▁역할	-1187
경기	-1188
▁소재	-1189
▁도쿄	-1190
▁떠	-1191
▁주요	-1192
art	-1193
2)	-1194
▁둘	-1195
네일	-1196
▁퍼	-1197
한국	-1198
드는	-1199
▁엄	-1200
수의	-1201
▁개최	-1202
▁건축	-1203
▁제공	-1204
▁1990	-1205
▁몇	-1206
르트	-1207
▁녹	-1208
▁인구	-1209
간의	-1210
▁아니라	-1211
▁FI	-1212
▁&	-1213
▁특별	-1214
▁챔피언	-1215
▁전체	-1216
▁상대	-1217
도가	-1218
▁마지막	-1219
▁출전	-1220
로스	-1221
왔다	-1222
▁몸	-1223
▁맥	-1224
▁결국	-1225
▁희	-1226
포츠	-1227
▁외국	-1228
23	-1229
▁티	-1230
▁계획	-1231
24	-1232
했지만	-1233
▁거주	-1234
리지	-1235
▁공화	-1236
▁않고	-1237
▁아래	-1238
▁능	-1239
▁풍	-1240
▁차지	-1241
▁월드컵	-1242
원을	-1243
▁않는다	-1244
일부터	-1245
성의	-1246
▁교통	-1247
89	-1248
운데	-1249
하자	-1250
음을	-1251
▁인물	-1252
시간	-1253
▁묘	-1254
프리카	-1255
▁떨	-1256
하기도	-1257
사로	-1258
동차	-1259
▁홈페이지	-1260
▁웹	-1261
▁열린	-1262
▁1994	-1263
▁모델	-1264
▁웨	-1265
▁관한	-1266
▁이미	-1267
스코	-1268
권을	-1269
ill	-1270
.)	-1271
▁밴	-1272
▁많이	-1273
화를	-1274
수를	-1275
나는	-1276
진다	-1277
▁콜	-1278
▁위치한	-1279
▁방법	-1280
▁소설	-1281
사는	-1282
▁추가	-1283
▁비고	-1284
▁아르	-1285
▁시스템	-1286
▁격	-1287
트로	-1288
▁방면	-1289
리고	-1290
▁결혼	-1291
인민공화	-1292
▁지하	-1293
▁몰	-1294
▁구간	-1295
장으로	-1296
▁하계	-1297
ess	-1298
냈다	-1299
▁연결	-1300
▁를	-1301
ri	-1302
▁휴	-1303
▁목록	-1304
▁응	-1305
35	-1306
▁어머니	-1307
▁샤	-1308
▁오스트	-1309
▁어린	-1310
▁유명	-1311
▁푸	-1312
사관	-1313
▁사업	-1314
▁하여	-1315
특별시	-1316
▁가운데	-1317
모토	-1318
igh	-1319
▁따르	-1320
가는	-1321
▁인도	-1322
달리스트	-1323
▁전국	-1324
▁한편	-1325
▁경기도	-1326
비스	-1327
점을	-1328
▁표현	-1329
▁다양한	-1330
▁2021	-1331
▁폐지	-1332
▁붙	-1333
,5	-1334
86	-1335
▁32	-1336
▁각각	-1337
▁189	-1338
▁공개	-1339
▁겸	-1340
▁대구	-1341
45	-1342
됐다	-1343
▁FIFA	-1344
▁슬	-1345
상의	-1346
으로써	-1347
▁보고	-1348
▁1992	-1349
▁같다	-1350
est	-1351
1)	-1352
ak	-1353
▁앤	-1354
▁너	-1355
하던	-1356
주시	-1357
▁나라	-1358
으로부터	-1359
▁생활	-1360
스탄	-1361
85	-1362
▁인천	-1363
러스	-1364
ine	-1365
▁기능	-1366
▁인정	-1367
했으나	-1368
이가	-1369
ab	-1370
▁1993	-1371
:18	-1372
▁유지	-1373
22	-1374
부에	-1375
▁높은	-1376
if	-1377
▁작은	-1378
▁먹	-1379
▁전라	-1380
원이	-1381
▁관리	-1382
ard	-1383
▁그리스	-1384
였던	-1385
인다	-1386
▁대신	-1387
제로	-1388
이의	-1389
▁뛰	-1390
전에	-1391
사카	-1392
▁거의	-1393
▁벨	-1394
▁35	-1395
▁언어	-1396
▁과정	-1397
력이	-1398
▁제국	-1399
▁시절	-1400
▁아시	-1401
▁않은	-1402
장은	-1403
87	-1404
▁남아	-1405
하려	-1406
▁정의	-1407
▁대상	-1408
▁지금	-1409
▁기간	-1410
촬영	-1411
▁오브	-1412
▁이동	-1413
37	-1414
▁임명	-1415
▁옥	-1416
이어	-1417
지의	-1418
▁직접	-1419
▁밤	-1420
▁이름을	-1421
36	-1422
▁취임	-1423
▁학생	-1424
ang	-1425
▁보여	-1426
▁배경으로	-1427
▁도로	-1428
▁작가	-1429
▁순위	-1430
수가	-1431
▁=	-1432
▁성우	-1433
▁명칭	-1434
▁지도	-1435
자와	-1436
26	-1437
27	-1438
ct	-1439
▁자연	-1440
나이	-1441
▁되는	-1442
▁경찰	-1443
군은	-1444
▁개인	-1445
▁색	-1446
▁압	-1447
▁상황	-1448
▁g	-1449
▁윌	-1450
도는	-1451
▁이루어	-1452
▁1991	-1453
84	-1454
일의	-1455
▁긴	-1456
all	-1457
▁e	-1458
▁k	-1459
해야	-1460
지에	-1461
▁선정	-1462
▁지구	-1463
선거	-1464
▁빈	-1465
▁훈	-1466
▁연도	-1467
▁평가	-1468
▁건물	-1469
사에	-1470
▁활약	-1471
드리	-1472
▁영향을	-1473
av	-1474
▁60	-1475
지고	-1476
▁편성	-1477
▁후에	-1478
세의	-1479
▁우리	-1480
있다	-1481
▁크리스	-1482
▁나오	-1483
웨어	-1484
29	-1485
장의	-1486
▁따라서	-1487
스로	-1488
▁1980	-1489
▁고등학교	-1490
▁느	-1491
▁싸	-1492
▁건설	-1493
인을	-1494
스와	-1495
▁본선	-1496
▁승강	-1497
▁않는	-1498
제를	-1499
▁갑	-1500
▁수록	-1501
대에	-1502
으로는	-1503
▁알려져	-1504
었고	-1505
▁탐	-1506
▁낮	-1507
ity	-1508
▁서로	-1509
▁촬영	-1510
ell	-1511
▁망	-1512
47	-1513
▁정치인	-1514
▁전문	-1515
군이	-1516
▁핵	-1517
트리	-1518
▁정당	-1519
▁..	-1520
▁방식	-1521
제가	-1522
▁예선	-1523
▁따르면	-1524
▁완전	-1525
▁개교	-1526
철도	-1527
▁그래	-1528
39	-1529
▁가족	-1530
린다	-1531
▁판매	-1532
▁그것	-1533
▁1988	-1534
▁슈퍼	-1535
년도	-1536
퓨터	-1537
먼트	-1538
시켰	-1539
▁친구	-1540
▁제외	-1541
▁노동	-1542
▁충청	-1543
프랑	-1544
▁기본	-1545
▁계약	-1546
▁...	-1547
2,	-1548
카와	-1549
지로	-1550
46	-1551
▁?	-1552
▁통합	-1553
▁퇴	-1554
부를	-1555
▁혹	-1556
▁동시에	-1557
ep	-1558
▁이사	-1559
위에	-1560
▁만든	-1561
하라	-1562
치는	-1563
▁기념	-1564
전에서	-1565
민주당	-1566
ng	-1567
75	-1568
독교	-1569
83	-1570
▁36	-1571
▁공연	-1572
▁과학	-1573
▁2,	-1574
▁탑	-1575
지방	-1576
단의	-1577
▁1987	-1578
▁스포츠	-1579
▁히로	-1580
▁정도	-1581
▁클럽	-1582
49	-1583
▁그가	-1584
▁연합	-1585
지가	-1586
▁마을	-1587
레일	-1588
기관	-1589
갔다	-1590
▁원래	-1591
▁군사	-1592
▁않았	-1593
▁이론	-1594
원으로	-1595
미디	-1596
▁동물	-1597
일까지	-1598
바이	-1599
▁인간	-1600
ub	-1601
▁1989	-1602
드의	-1603
ight	-1604
치를	-1605
▁발전	-1606
nd	-1607
▁육군	-1608
▁외국인	-1609
▁이적	-1610
▁출시	-1611
FC	-1612
▁여객	-1613
▁센	-1614
▁비디오	-1615
▁있는데	-1616
76	-1617
멤버	-1618
▁데이터	-1619
▁도입	-1620
▁가진	-1621
▁궁	-1622
▁역시	-1623
제의	-1624
▁착	-1625
▁아닌	-1626
▁낙	-1627
▁단체	-1628
른다	-1629
▁덕	-1630
드로	-1631
계를	-1632
▁중화	-1633
▁나가	-1634
▁실시	-1635
ip	-1636
▁국회의	-1637
▁솔	-1638
대회	-1639
크로	-1640
ong	-1641
▁베이	-1642
▁h	-1643
들에	-1644
▁뿐	-1645
▁비롯	-1646
90	-1647
▁연극	-1648
여자	-1649
섬네일	-1650
ST	-1651
▁일으	-1652
▁공간	-1653
스키	-1654
프로	-1655
▁야마	-1656
▁어떤	-1657
드라마	-1658
▁윈	-1659
정보	-1660
88	-1661
과학	-1662
1,	-1663
▁평균	-1664
▁민족	-1665
▁전기	-1666
▁최종	-1667
▁크게	-1668
▁놓	-1669
인은	-1670
▁제목	-1671
대가	-1672
사와	-1673
▁기관	-1674
정부	-1675
문을	-1676
자리	-1677
▁거쳐	-1678
▁33	-1679
주는	-1680
▁풀	-1681
▁말한다	-1682
▁중요한	-1683
▁사고	-1684
▁혁	-1685
▁팬	-1686
▁차량	-1687
되면서	-1688
▁보통	-1689
나무	-1690
ian	-1691
▁요구	-1692
장에	-1693
▁요시	-1694
임을	-1695
▁70	-1696
▁라디오	-1697
축구	-1698
EFA	-1699
▁뉴욕	-1700
스티	-1701
▁기원전	-1702
▁의한	-1703
오카	-1704
▁삼성	-1705
메리카	-1706
ae	-1707
▁담당	-1708
▁사이에	-1709
어를	-1710
원은	-1711
▁정책	-1712
79	-1713
▁광주	-1714
▁반대	-1715
ud	-1716
트의	-1717
▁연기	-1718
3)	-1719
▁기반	-1720
▁사진	-1721
스카	-1722
스테	-1723
▁환경	-1724
ob	-1725
▁사무	-1726
▁형성	-1727
소를	-1728
▁멤버	-1729
베이	-1730
▁우주	-1731
▁34	-1732
▁연속	-1733
ith	-1734
▁최초의	-1735
▁옮	-1736
▁염	-1737
▁개의	-1738
이를	-1739
65	-1740
▁수행	-1741
스턴	-1742
▁견	-1743
▁숙	-1744
일랜드	-1745
▁위하여	-1746
▁태어났다	-1747
▁산업	-1748
▁컨	-1749
▁하였	-1750
▁바로	-1751
서관	-1752
▁캐나다	-1753
▁45	-1754
▁국도	-1755
▁홀	-1756
장에서	-1757
ue	-1758
▁소프트	-1759
▁연주	-1760
하지만	-1761
이었던	-1762
덜란드	-1763
사업	-1764
▁있을	-1765
▁컴퓨터	-1766
▁전통	-1767
▁찾아	-1768
국민	-1769
수로	-1770
▁승리	-1771
트남	-1772
▁기존	-1773
▁이르	-1774
28	-1775
▁되고	-1776
34	-1777
▁1986	-1778
▁시작했다	-1779
▁최대	-1780
소년	-1781
▁마르	-1782
▁처음으로	-1783
▁여기	-1784
▁메이	-1785
▁결승	-1786
▁서울특별시	-1787
▁과거	-1788
our	-1789
▁열차	-1790
▁아시안	-1791
67	-1792
리아의	-1793
▁특징	-1794
명은	-1795
▁아시아	-1796
ort	-1797
▁달리	-1798
▁지나	-1799
▁보호	-1800
ant	-1801
▁역임	-1802
▁국내	-1803
▁역할을	-1804
드를	-1805
ew	-1806
▁만화	-1807
▁개통	-1808
트를	-1809
▁하이	-1810
▁초기	-1811
라인	-1812
▁런	-1813
군을	-1814
▁1985	-1815
▁1970	-1816
mm	-1817
부는	-1818
64	-1819
(200	-1820
라스	-1821
▁경기에서	-1822
중에	-1823
▁방향	-1824
:00	-1825
대는	-1826
하였으나	-1827
▁de	-1828
하는데	-1829
지털	-1830
▁연방	-1831
되며	-1832
공항	-1833
78	-1834
▁액	-1835
▁류	-1836
▁획	-1837
▁흑	-1838
up	-1839
▁국립	-1840
▁80	-1841
이기도	-1842
격을	-1843
▁적용	-1844
▁실패	-1845
▁혹은	-1846
▁피해	-1847
▁***	-1848
조선	-1849
▁될	-1850
▁종교	-1851
▁이야기	-1852
▁먼	-1853
서를	-1854
▁스페인	-1855
회를	-1856
▁Z	-1857
지역	-1858
▁비슷	-1859
정한	-1860
▁선발	-1861
▁칸	-1862
기술	-1863
▁익	-1864
▁오늘	-1865
▁부문	-1866
▁비판	-1867
▁선택	-1868
▁있다고	-1869
▁km	-1870
▁교황	-1871
69	-1872
사키	-1873
▁Al	-1874
▁사상	-1875
▁Q	-1876
▁주인	-1877
▁하며	-1878
▁방영	-1879
▁지휘	-1880
▁조지	-1881
마다	-1882
수는	-1883
▁이와	-1884
▁차트	-1885
체의	-1886
▁맨	-1887
▁꽃	-1888
▁그림	-1889
▁대하여	-1890
시대	-1891
물을	-1892
리와	-1893
시코	-1894
▁주변	-1895
년의	-1896
▁소련	-1897
▁초대	-1898
33	-1899
▁옛	-1900
혔다	-1901
▁1984	-1902
▁기독교	-1903
▁모양	-1904
▁어느	-1905
▁돈	-1906
하이	-1907
▁Th	-1908
라의	-1909
55	-1910
ive	-1911
KBS	-1912
▁확인	-1913
▁라는	-1914
▁씨	-1915
▁영어	-1916
68	-1917
▁부르	-1918
차로	-1919
▁설명	-1920
▁유일	-1921
▁덴	-1922
▁쌍	-1923
▁교장	-1924
동을	-1925
적을	-1926
속도로	-1927
▁헬	-1928
▁잔	-1929
으면	-1930
관리	-1931
ev	-1932
나의	-1933
▁이때	-1934
▁으로	-1935
..	-1936
▁이끌	-1937
▁39	-1938
이치	-1939
▁나이	-1940
▁입학	-1941
▁없이	-1942
사회	-1943
-19	-1944
▁몽	-1945
."	-1946
▁예정	-1947
베르	-1948
ack	-1949
▁받은	-1950
했는데	-1951
어는	-1952
▁비교	-1953
토리	-1954
동안	-1955
▁괴	-1956
▁록	-1957
우승	-1958
▁작업	-1959
▁분리	-1960
루스	-1961
웨이	-1962
74	-1963
과는	-1964
▁다카	-1965
조의	-1966
▁미술	-1967
▁예술	-1968
,0	-1969
▁흥	-1970
협회	-1971
▁잉글랜드	-1972
▁버전	-1973
▁아카	-1974
▁불가	-1975
▁밖	-1976
▁자기	-1977
rom	-1978
사이	-1979
ne	-1980
▁보내	-1981
예술	-1982
▁유니	-1983
cm	-1984
▁흔	-1985
▁표준	-1986
▁좋은	-1987
ran	-1988
▁좋아	-1989
ER	-1990
▁미국인	-1991
▁추정	-1992
의를	-1993
체를	-1994
▁스테	-1995
위로	-1996
▁마음	-1997
리학	-1998
▁빅	-1999
선을	-2000
▁겨	-2001
ry	-2002
▁프로젝	-2003
▁변화	-2004
▁디지털	-2005
라도	-2006
▁자신이	-2007
▁개시	-2008
사이트	-2009
▁강원	-2010
구역	-2011
▁떨어	-2012
톨릭	-2013
32	-2014
라운드	-2015
지원	-2016
성은	-2017
▁해외	-2018
ok	-2019
▁공항	-2020
르게	-2021
니스	-2022
하거나	-2023
쪽에	-2024
불어	-2025
▁형식	-2026
38	-2027
호를	-2028
▁아나	-2029
▁지배	-2030
▁1983	-2031
호로	-2032
▁상당	-2033
대상	-2034
▁태양	-2035
▁하루	-2036
▁일반적으로	-2037
▁아키	-2038
▁징	-2039
▁대체	-2040
정에	-2041
▁메달리스트	-2042
▁그를	-2043
스케	-2044
인민공화국	-2045
▁정규	-2046
▁후지	-2047
,9	-2048
(201	-2049
▁라고	-2050
나가	-2051
▁to	-2052
▁알렉	-2053
▁조사	-2054
▁규모	-2055
도우	-2056
▁늘	-2057
릭터	-2058
▁의원	-2059
▁UEFA	-2060
물관	-2061
ain	-2062
▁받고	-2063
▁증가	-2064
▁가까	-2065
▁이다	-2066
▁개업	-2067
▁명의	-2068
▁넓	-2069
▁시청	-2070
민주주의	-2071
웨덴	-2072
부르크	-2073
▁당선	-2074
▁중심으로	-2075
무를	-2076
▁받았	-2077
▁포르	-2078
무라	-2079
CA	-2080
▁시민	-2081
▁제주	-2082
▁1982	-2083
▁땅	-2084
리포	-2085
종의	-2086
▁시설	-2087
▁37	-2088
메이	-2089
▁있다는	-2090
▁휘	-2091
▁38	-2092
일을	-2093
▁획득	-2094
ON	-2095
▁문학	-2096
31	-2097
▁후반	-2098
▁자료	-2099
▁전자	-2100
▁1960	-2101
▁왜	-2102
▁에서	-2103
▁채널	-2104
io	-2105
군에	-2106
이지만	-2107
배우	-2108
아의	-2109
66	-2110
▁있지만	-2111
ib	-2112
▁엔진	-2113
▁II	-2114
▁소프트웨어	-2115
▁거주한	-2116
▁득점	-2117
▁뛰어	-2118
▁올라	-2119
스페	-2120
▁출판	-2121
▁이것은	-2122
▁분야	-2123
움을	-2124
▁Ar	-2125
▁프로듀	-2126
▁몬	-2127
▁넣	-2128
▁곧	-2129
포르	-2130
쳤다	-2131
59	-2132
정의	-2133
▁브라질	-2134
▁1981	-2135
ord	-2136
개월	-2137
▁동일	-2138
▁국회의원	-2139
▁이상의	-2140
워드	-2141
시즌	-2142
▁승격	-2143
▁밴드	-2144
ex	-2145
▁지지	-2146
워크	-2147
어가	-2148
시켰다	-2149
당의	-2150
77	-2151
▁아프리카	-2152
호는	-2153
인트	-2154
NA	-2155
▁소유	-2156
회사	-2157
4)	-2158
▁활동을	-2159
리로	-2160
▁칭	-2161
eg	-2162
▁잃	-2163
81	-2164
단을	-2165
▁뮤직	-2166
▁가리	-2167
▁캐릭터	-2168
메달	-2169
eb	-2170
▁후쿠	-2171
▁건축물	-2172
ff	-2173
▁준우승	-2174
▁때문이다	-2175
▁개봉	-2176
상이	-2177
멕시코	-2178
▁수상자	-2179
▁그녀는	-2180
▁종류	-2181
▁되었고	-2182
▁지하철	-2183
▁지상	-2184
▁칠	-2185
▁영국의	-2186
▁흐	-2187
▁조건	-2188
57	-2189
82	-2190
▁하다	-2191
▁유로	-2192
동에	-2193
.01	-2194
▁페르	-2195
▁for	-2196
치가	-2197
▁선수권	-2198
계의	-2199
▁더불어	-2200
▁바탕	-2201
스에	-2202
▁초등학교	-2203
▁Sp	-2204
ens	-2205
▁회사	-2206
ea	-2207
▁마사	-2208
어의	-2209
도에	-2210
체가	-2211
▁개념	-2212
은행	-2213
▁종합	-2214
기와	-2215
.07	-2216
대전	-2217
▁이런	-2218
▁핀	-2219
▁경영	-2220
ich	-2221
▁언론	-2222
했다고	-2223
▁최초로	-2224
▁이름은	-2225
▁파이	-2226
버트	-2227
▁프레	-2228
ast	-2229
▁벤	-2230
했을	-2231
▁공화국	-2232
▁두고	-2233
56	-2234
▁그린	-2235
연합	-2236
시킨	-2237
공사	-2238
▁있어서	-2239
▁찬	-2240
문학	-2241
▁식물	-2242
▁Un	-2243
교회	-2244
▁등에	-2245
세가	-2246
렇게	-2247
원에	-2248
▁1979	-2249
심을	-2250
▁on	-2251
▁아마	-2252
부가	-2253
▁효과	-2254
▁꿈	-2255
학년	-2256
▁북한	-2257
▁아내	-2258
▁이해	-2259
▁선출	-2260
스토	-2261
▁자동차	-2262
면에	-2263
▁정신	-2264
▁울산	-2265
▁사라	-2266
▁빛	-2267
▁네덜란드	-2268
▁영화이다	-2269
체육	-2270
▁보인다	-2271
▁관할	-2272
▁에이	-2273
▁센터	-2274
ert	-2275
ial	-2276
▁걸쳐	-2277
학생	-2278
-3	-2279
▁주민	-2280
▁가톨릭	-2281
▁펜	-2282
▁스트	-2283
▁앙	-2284
로나	-2285
성과	-2286
end	-2287
▁내려	-2288
▁서비스	-2289
시켜	-2290
▁오사카	-2291
난다	-2292
사단	-2293
문화재	-2294
▁모습을	-2295
The	-2296
58	-2297
▁명령	-2298
로의	-2299
▁베트남	-2300
세이	-2301
44	-2302
▁육상	-2303
▁통과	-2304
▁부족	-2305
▁비밀	-2306
▁케이	-2307
중앙	-2308
▁특수	-2309
정이	-2310
대한민국	-2311
:0	-2312
제는	-2313
▁공산	-2314
▁군인	-2315
프리	-2316
▁윌리	-2317
▁에너	-2318
ik	-2319
▁입단	-2320
▁An	-2321
테인	-2322
▁비행	-2323
▁뉴스	-2324
▁여름	-2325
▁1950	-2326
.03	-2327
겼다	-2328
리그의	-2329
ect	-2330
▁종료	-2331
▁최근	-2332
습니다	-2333
미국	-2334
시아의	-2335
▁하지	-2336
▁움	-2337
▁없었다	-2338
▁런던	-2339
렀다	-2340
▁헌법	-2341
▁조약	-2342
▁전에	-2343
:21	-2344
▁장관	-2345
▁구역	-2346
성에	-2347
▁구분	-2348
54	-2349
ont	-2350
▁엘리	-2351
▁어려	-2352
현의	-2353
▁선언	-2354
ge	-2355
73	-2356
▁교회	-2357
▁동생	-2358
▁대부분의	-2359
▁인터넷	-2360
PG	-2361
▁멀	-2362
▁강화	-2363
▁디자인	-2364
▁소비	-2365
세는	-2366
▁소재로	-2367
▁(20	-2368
▁구단	-2369
▁스튜	-2370
우수	-2371
ate	-2372
▁Sh	-2373
▁(1	-2374
▁기준으로	-2375
소가	-2376
▁스위	-2377
ary	-2378
마크	-2379
모리	-2380
▁90	-2381
▁Pro	-2382
▁자리	-2383
▁캠	-2384
▁제품	-2385
▁주연	-2386
년간	-2387
지션	-2388
BO	-2389
시키는	-2390
세를	-2391
▁등으로	-2392
가의	-2393
▁법률	-2394
▁오후	-2395
▁목표	-2396
시로	-2397
산업	-2398
트는	-2399
▁맺	-2400
▁폴란드	-2401
▁유형	-2402
▁나카	-2403
일에는	-2404
▁언급	-2405
▁오른	-2406
▁유사	-2407
72	-2408
구를	-2409
▁설립된	-2410
다이	-2411
▁나온	-2412
ust	-2413
임스	-2414
▁더욱	-2415
▁놀	-2416
71	-2417
▁명예	-2418
▁제한	-2419
피아	-2420
qu	-2421
적이	-2422
되었으나	-2423
▁제조	-2424
▁이유로	-2425
▁요리	-2426
▁품	-2427
▁바르	-2428
▁소개	-2429
▁영업	-2430
▁배우이다	-2431
▁깊	-2432
▁반응	-2433
▁에피	-2434
▁이름으로	-2435
63	-2436
디아	-2437
▁있었던	-2438
▁1973	-2439
43	-2440
부로	-2441
적은	-2442
▁경상북도	-2443
▁있게	-2444
▁55	-2445
▁웹사이트	-2446
▁은퇴	-2447
▁개칭	-2448
▁싶	-2449
▁실제	-2450
ory	-2451
한다는	-2452
데미	-2453
명으로	-2454
▁실험	-2455
▁분석	-2456
▁작사	-2457
키는	-2458
▁지속	-2459
▁지정되었다	-2460
▁믿	-2461
▁기획	-2462
▁편입	-2463
▁쓴	-2464
아이	-2465
▁여행	-2466
구에	-2467
ass	-2468
▁대중	-2469
▁1945	-2470
캘리포	-2471
▁코미디	-2472
▁확장	-2473
▁술	-2474
내는	-2475
주를	-2476
원에서	-2477
eat	-2478
해의	-2479
▁주인공	-2480
터테인	-2481
하도록	-2482
42	-2483
만을	-2484
비를	-2485
년을	-2486
▁고대	-2487
경제	-2488
치고	-2489
이란	-2490
▁베이스	-2491
▁알고	-2492
▁가문	-2493
▁Pr	-2494
▁종목	-2495
▁네이	-2496
ure	-2497
▁만나	-2498
▁경상남도	-2499
▁사용하는	-2500
▁49	-2501
▁설계	-2502
인가	-2503
▁계열	-2504
트워크	-2505
그룹	-2506
▁불구	-2507
캘리포니아	-2508
▁합계	-2509
철도의	-2510
▁프랑스의	-2511
▁1974	-2512
만이	-2513
ld	-2514
니어	-2515
41	-2516
▁부여	-2517
▁깨	-2518
▁3,	-2519
전자	-2520
▁혈	-2521
▁밝혔다	-2522
▁결성	-2523
지지	-2524
터테인먼트	-2525
소의	-2526
▁미래	-2527
▁승강장	-2528
▁통일	-2529
▁1978	-2530
이탈리아	-2531
AR	-2532
▁하나의	-2533
▁방문	-2534
▁널	-2535
▁아직	-2536
▁re	-2537
▁드러	-2538
▁그런	-2539
▁1972	-2540
차전	-2541
▁십	-2542
age	-2543
▁졸업식	-2544
▁신설	-2545
▁것이라고	-2546
▁st	-2547
함으로써	-2548
▁부인	-2549
ly	-2550
나라의	-2551
▁타이틀	-2552
▁블랙	-2553
▁블루	-2554
▁맡았다	-2555
uc	-2556
▁표시	-2557
▁그들의	-2558
▁점령	-2559
▁독일의	-2560
▁윌리엄	-2561
어서	-2562
▁at	-2563
자들은	-2564
▁끌	-2565
▁Com	-2566
평양	-2567
62	-2568
▁자주	-2569
▁나무	-2570
▁r	-2571
51	-2572
르의	-2573
▁황제	-2574
나미	-2575
▁현재의	-2576
▁숨	-2577
61	-2578
▁예를	-2579
데이	-2580
▁외교	-2581
로드	-2582
미야	-2583
리어	-2584
▁오스트레일	-2585
성군	-2586
▁올랐	-2587
▁춘	-2588
▁현재는	-2589
98	-2590
라노	-2591
hy	-2592
인으로	-2593
▁클래	-2594
▁우수	-2595
▁문화재	-2596
▁포함한	-2597
월부터	-2598
ey	-2599
▁하나이다	-2600
화가	-2601
르고	-2602
▁수용	-2603
▁물리	-2604
5)	-2605
▁시행	-2606
하마	-2607
▁로스	-2608
▁성장	-2609
레이션	-2610
자치	-2611
▁투수	-2612
금을	-2613
52	-2614
▁자치	-2615
▁중학교	-2616
▁말했다	-2617
시오	-2618
▁미사	-2619
▁바다	-2620
웠다	-2621
타이	-2622
지컬	-2623
ies	-2624
데스	-2625
의회	-2626
▁사이의	-2627
하의	-2628
▁당원	-2629
53	-2630
인데	-2631
▁사람이	-2632
▁연장	-2633
▁베르	-2634
▁움직	-2635
학적	-2636
AN	-2637
도시	-2638
투갈	-2639
미널	-2640
▁수비	-2641
6)	-2642
법을	-2643
천시	-2644
▁잇	-2645
골을	-2646
MBC	-2647
▁않아	-2648
었으며	-2649
▁세이	-2650
▁by	-2651
▁1971	-2652
▁일원	-2653
영어	-2654
▁멜	-2655
▁김영	-2656
▁국회	-2657
▁위에	-2658
ond	-2659
티아	-2660
기업	-2661
▁국제공항	-2662
티드	-2663
▁스웨덴	-2664
man	-2665
▁치료	-2666
▁정식	-2667
우리	-2668
코드	-2669
으므로	-2670
▁경험	-2671
롯데	-2672
▁위험	-2673
관은	-2674
▁지역의	-2675
▁정확	-2676
부문	-2677
▁1975	-2678
▁곤	-2679
조선의	-2680
디어	-2681
▁세포	-2682
▁집합	-2683
▁제국의	-2684
▁르	-2685
▁번역	-2686
▁배치	-2687
▁가르	-2688
ite	-2689
▁에피소	-2690
▁거두	-2691
▁시티	-2692
▁것에	-2693
▁알려진	-2694
OS	-2695
▁해군	-2696
▁바람	-2697
▁이곳	-2698
▁출장	-2699
▁발행	-2700
산시	-2701
자들이	-2702
▁중에	-2703
법인	-2704
▁48	-2705
▁공작	-2706
▁접근	-2707
▁카를	-2708
되기	-2709
▁사이트	-2710
▁불구하고	-2711
ide	-2712
▁1976	-2713
▁고양	-2714
▁폰	-2715
▁라이브	-2716
oh	-2717
▁불교	-2718
상에	-2719
▁의하여	-2720
▁남부	-2721
▁득표	-2722
▁달러	-2723
▁패배	-2724
▁버스	-2725
▁42	-2726
▁게이	-2727
국제	-2728
▁성격	-2729
요시	-2730
▁파리	-2731
▁살아	-2732
▁델	-2733
쿠라	-2734
▁아무	-2735
▁파괴	-2736
▁자동	-2737
▁정도로	-2738
브라	-2739
▁투표	-2740
~19	-2741
없이	-2742
▁1.	-2743
계에	-2744
▁등록	-2745
▁요청	-2746
▁이듬	-2747
감을	-2748
▁유래	-2749
▁이들은	-2750
▁봄	-2751
▁비해	-2752
▁성립	-2753
▁바뀌	-2754
▁제안	-2755
▁빨	-2756
점이	-2757
▁펼	-2758
간다	-2759
위의	-2760
▁최우수	-2761
▁세워	-2762
▁글로	-2763
인지	-2764
▁결합	-2765
▁남편	-2766
.12	-2767
▁프로듀서	-2768
▁편집	-2769
▁갖고	-2770
▁민주당	-2771
▁개편	-2772
▁복귀	-2773
들로	-2774
형을	-2775
정은	-2776
▁불리	-2777
▁지진	-2778
▁나머	-2779
ove	-2780
▁오리	-2781
▁아사	-2782
역을	-2783
▁제시	-2784
▁각본	-2785
▁LG	-2786
신을	-2787
▁엑	-2788
▁때까지	-2789
▁습	-2790
▁44	-2791
7)	-2792
단에	-2793
오프	-2794
식이	-2795
▁수준	-2796
남도의	-2797
▁추진	-2798
▁행동	-2799
▁삶	-2800
산을	-2801
▁의사	-2802
▁왕국	-2803
▁CD	-2804
▁스코	-2805
항공	-2806
▁마찬	-2807
▁경쟁	-2808
▁기여	-2809
▁조각	-2810
▁피아	-2811
▁회장	-2812
▁가능하다	-2813
직을	-2814
▁신인	-2815
▁1968	-2816
▁크로	-2817
▁쉽	-2818
▁잭	-2819
▁조성	-2820
▁그대로	-2821
▁마리	-2822
▁마찬가지	-2823
래프트	-2824
▁수원	-2825
▁중단	-2826
개발	-2827
티브	-2828
▁지난	-2829
라우	-2830
▁차례	-2831
▁작곡가	-2832
▁지명	-2833
소리	-2834
▁음악가	-2835
▁보유	-2836
▁500	-2837
▁1969	-2838
▁강력	-2839
▁43	-2840
▁촌	-2841
▁포지션	-2842
▁노르	-2843
▁이듬해	-2844
법원	-2845
상으로	-2846
▁촉	-2847
▁오래	-2848
▁대수	-2849
iz	-2850
주로	-2851
월에는	-2852
▁임시	-2853
▁오늘날	-2854
▁그녀의	-2855
▁짧	-2856
▁아침	-2857
체는	-2858
로그	-2859
▁완전히	-2860
▁있도록	-2861
▁궤	-2862
▁죽은	-2863
▁주의	-2864
▁박사	-2865
▁범죄	-2866
▁하나로	-2867
▁프로젝트	-2868
▁1977	-2869
▁왼	-2870
▁존재한다	-2871
ark	-2872
▁변호	-2873
▁전해	-2874
▁멸	-2875
▁1963	-2876
▁스스로	-2877
헝가	-2878
▁밝혀	-2879
나고	-2880
▁젊	-2881
▁특정	-2882
▁아일랜드	-2883
▁You	-2884
▁선수이다	-2885
▁선수로	-2886
다운	-2887
ish	-2888
IN	-2889
▁영토	-2890
상은	-2891
와는	-2892
▁시기	-2893
지에서	-2894
▁우승을	-2895
헨티	-2896
교통	-2897
▁보이	-2898
ug	-2899
▁SK	-2900
▁150	-2901
▁300	-2902
▁시험	-2903
관을	-2904
▁미상	-2905
▁전반	-2906
▁전라남도	-2907
▁이로	-2908
▁바탕으로	-2909
스에서	-2910
틀랜드	-2911
▁Bl	-2912
화의	-2913
낸다	-2914
마이	-2915
▁필리	-2916
▁꼬	-2917
▁교체	-2918
.06	-2919
시티	-2920
▁그들은	-2921
물의	-2922
▁회원	-2923
었던	-2924
AT	-2925
▁관광	-2926
▁처리	-2927
95	-2928
▁신문	-2929
▁네트워크	-2930
감독	-2931
셔널	-2932
.02	-2933
▁선생	-2934
▁링	-2935
▁널리	-2936
ace	-2937
▁중간	-2938
▁뇌	-2939
▁해결	-2940
마스	-2941
▁헨	-2942
▁기자	-2943
▁등과	-2944
경찰	-2945
▁부임	-2946
▁셀	-2947
▁상호	-2948
▁먼저	-2949
▁못했다	-2950
▁달성	-2951
고를	-2952
▁여겨	-2953
전의	-2954
▁발사	-2955
▁베스트	-2956
지도	-2957
만의	-2958
▁탈락	-2959
▁에드	-2960
즈의	-2961
▁41	-2962
▁상징	-2963
학을	-2964
프랑스의	-2965
▁의회	-2966
가를	-2967
▁기초	-2968
▁벽	-2969
SS	-2970
사무	-2971
▁제도	-2972
▁사용한다	-2973
ical	-2974
▁많다	-2975
▁천황	-2976
▁겨울	-2977
▁일제	-2978
▁린	-2979
보드	-2980
▁이주	-2981
▁홍콩	-2982
▁다니	-2983
일러	-2984
▁한국의	-2985
인민공화국의	-2986
▁흡	-2987
통신	-2988
▁속하는	-2989
▁국왕	-2990
무원	-2991
ind	-2992
선수	-2993
▁이승	-2994
ational	-2995
위가	-2996
▁들어가	-2997
▁제임스	-2998
자료	-2999
▁읽	-3000
▁합병	-3001
▁통산	-3002
▁년	-3003
▁스피	-3004
출연	-3005
▁없음	-3006
ment	-3007
면을	-3008
선이	-3009
▁식민	-3010
▁재판	-3011
▁1967	-3012
▁혜	-3013
▁윈도우	-3014
,6	-3015
▁최고의	-3016
▁가져	-3017
▁이스	-3018
▁유나이	-3019
(18	-3020
▁훈련	-3021
▁에어	-3022
▁건강	-3023
▁동계	-3024
▁알렉산	-3025
com	-3026
▁아름	-3027
▁청소년	-3028
규모	-3029
ph	-3030
▁원작	-3031
세계	-3032
▁근처	-3033
▁미니	-3034
▁%	-3035
ence	-3036
96	-3037
▁되었	-3038
▁장애	-3039
음악	-3040
파트	-3041
▁과정에서	-3042
▁비롯한	-3043
▁켄	-3044
▁개혁	-3045
▁사람들이	-3046
▁01	-3047
들도	-3048
일보	-3049
부산	-3050
▁물질	-3051
▁컬	-3052
이사	-3053
후의	-3054
▁생성	-3055
▁유명한	-3056
부장	-3057
▁멕시코	-3058
▁가정	-3059
▁내각	-3060
▁연출	-3061
▁즐	-3062
ear	-3063
▁해석	-3064
▁이외	-3065
▁강점	-3066
▁듀	-3067
로를	-3068
▁뮤지컬	-3069
▁체결	-3070
아시아	-3071
시설	-3072
ivers	-3073
▁안전	-3074
▁마쓰	-3075
시장	-3076
▁준공	-3077
▁파일	-3078
▁장소	-3079
(1	-3080
▁마드리	-3081
.10	-3082
받았다	-3083
천군	-3084
구가	-3085
▁에피소드	-3086
▁높이	-3087
▁단순	-3088
▁찰	-3089
력은	-3090
지게	-3091
▁상대로	-3092
▁때는	-3093
▁만에	-3094
▁발달	-3095
92	-3096
▁샌	-3097
▁경우가	-3098
▁보컬	-3099
▁금지	-3100
메리	-3101
인과	-3102
생활	-3103
▁강원도	-3104
ore	-3105
신의	-3106
▁46	-3107
러운	-3108
▁않다	-3109
▁대응	-3110
▁롯데	-3111
마트	-3112
▁스튜디오	-3113
▁스파	-3114
▁일을	-3115
위는	-3116
▁표기	-3117
▁공립	-3118
▁살해	-3119
기간	-3120
▁사용할	-3121
.11	-3122
mer	-3123
마을	-3124
▁도착	-3125
식의	-3126
▁부모	-3127
▁작용	-3128
지와	-3129
▁다르	-3130
▁전철	-3131
아가	-3132
▁던	-3133
경을	-3134
▁기록했다	-3135
ver	-3136
▁from	-3137
▁북부	-3138
ber	-3139
▁내부	-3140
▁붕	-3141
▁엔터테인먼트	-3142
민족	-3143
▁따른	-3144
▁1966	-3145
오는	-3146
▁꾸	-3147
▁방어	-3148
▁바꾸	-3149
▁유리	-3150
미터	-3151
oy	-3152
▁조선민주주의	-3153
우는	-3154
주의자	-3155
▁부정	-3156
▁있으나	-3157
▁보다	-3158
▁준비	-3159
▁1964	-3160
▁지역에	-3161
▁오스트리아	-3162
▁소녀	-3163
▁국방	-3164
▁혁명	-3165
▁47	-3166
동생	-3167
.5%	-3168
▁시대의	-3169
량이	-3170
▁1962	-3171
▁안정	-3172
우주	-3173
▁해안	-3174
▁팀의	-3175
▁맹	-3176
▁평화	-3177
▁전환	-3178
▁활용	-3179
하다가	-3180
▁적이	-3181
▁값	-3182
바라	-3183
트가	-3184
▁어린이	-3185
▁비슷한	-3186
▁죄	-3187
▁마이크로	-3188
▁x	-3189
▁반란	-3190
▁녹음	-3191
성우	-3192
3,	-3193
게임	-3194
▁나는	-3195
플레이	-3196
▁킹	-3197
미어	-3198
▁동부	-3199
▁군주	-3200
▁논란	-3201
▁파견	-3202
▁억	-3203
▁이란	-3204
▁Cl	-3205
▁기사	-3206
함을	-3207
▁세종	-3208
사령	-3209
▁다만	-3210
▁완성	-3211
▁64	-3212
▁전설	-3213
되기도	-3214
",	-3215
ile	-3216
▁역대	-3217
▁목적으로	-3218
94	-3219
▁경기장	-3220
▁이라는	-3221
▁180	-3222
▁시도	-3223
8)	-3224
▁둔	-3225
▁얼굴	-3226
▁Re	-3227
한다고	-3228
▁거부	-3229
▁완공	-3230
▁i	-3231
▁마찬가지로	-3232
단체	-3233
▁여기서	-3234
▁충청남도	-3235
▁불리는	-3236
준다	-3237
▁귀족	-3238
영국의	-3239
▁교차로	-3240
▁인수	-3241
▁납	-3242
시는	-3243
AM	-3244
▁래	-3245
▁남쪽	-3246
▁겪	-3247
...	-3248
ire	-3249
▁수영	-3250
자에	-3251
공업	-3252
▁듣	-3253
공원	-3254
많은	-3255
▁동맹	-3256
▁주도	-3257
orm	-3258
▁대륙	-3259
정책	-3260
저우	-3261
싱턴	-3262
히로	-3263
▁선거구	-3264
▁이집	-3265
▁댄	-3266
▁객	-3267
.3%	-3268
▁이시	-3269
구치	-3270
▁지냈다	-3271
▁(2009	-3272
단이	-3273
▁끝에	-3274
▁인한	-3275
하기로	-3276
aw	-3277
▁이들	-3278
▁아카데미	-3279
카이도	-3280
OR	-3281
▁에스	-3282
▁전주	-3283
운서	-3284
▁극장	-3285
.2%	-3286
und	-3287
▁하늘	-3288
▁레드	-3289
▁전시	-3290
▁근무	-3291
97	-3292
▁혐	-3293
▁미국에서	-3294
대학원	-3295
ice	-3296
소는	-3297
▁관련된	-3298
.4%	-3299
화된	-3300
메달리스트	-3301
▁굴	-3302
고속도로	-3303
과에	-3304
▁통치	-3305
te	-3306
.1%	-3307
SBS	-3308
▁가입	-3309
▁형사	-3310
▁김정	-3311
▁체포	-3312
라이나	-3313
▁셰	-3314
▁너무	-3315
▁가는	-3316
졌고	-3317
▁남북	-3318
▁왕조	-3319
자유	-3320
▁거리	-3321
AC	-3322
▁가능한	-3323
▁요코	-3324
국이	-3325
▁회의	-3326
▁새로	-3327
▁서부	-3328
현재	-3329
▁중국의	-3330
kg	-3331
자이	-3332
▁보수	-3333
▁1965	-3334
▁중에서	-3335
▁==	-3336
▁미드	-3337
행정	-3338
▁이름이	-3339
▁전달	-3340
ss	-3341
▁y	-3342
▁기억	-3343
▁모리	-3344
▁인구는	-3345
▁필요한	-3346
▁북쪽	-3347
▁위해서	-3348
▁못한	-3349
려고	-3350
나카	-3351
▁홈런	-3352
주교	-3353
했다는	-3354
.8%	-3355
▁협력	-3356
▁형태로	-3357
구는	-3358
량을	-3359
▁보존	-3360
.6%	-3361
에르	-3362
▁문서	-3363
드가	-3364
독일의	-3365
EC	-3366
▁것과	-3367
장과	-3368
▁오스트레일리아	-3369
브리	-3370
nt	-3371
유럽	-3372
▁친일	-3373
라비아	-3374
▁(2010	-3375
▁인민	-3376
,7	-3377
▁인디	-3378
▁규정	-3379
▁보도	-3380
▁츠	-3381
로로	-3382
▁위의	-3383
▁오르	-3384
▁강한	-3385
크의	-3386
.0%	-3387
▁트리	-3388
▁마이클	-3389
▁1948	-3390
▁소년	-3391
라엘	-3392
▁묘사	-3393
.9%	-3394
▁1961	-3395
-4	-3396
ost	-3397
▁관측	-3398
▁네이버	-3399
▁젊은	-3400
▁은행	-3401
▁밑	-3402
iss	-3403
▁부른다	-3404
ood	-3405
▁분포	-3406
▁수많은	-3407
하였는데	-3408
▁아나운서	-3409
▁것이었다	-3410
▁검은	-3411
▁미야	-3412
▁낳	-3413
▁대해서	-3414
.05	-3415
▁즉위	-3416
IA	-3417
.7%	-3418
▁대사	-3419
▁간의	-3420
▁오픈	-3421
▁항상	-3422
관이	-3423
▁이렇게	-3424
점으로	-3425
▁Sc	-3426
▁최소	-3427
메라	-3428
▁나머지	-3429
▁실행	-3430
군과	-3431
젤레스	-3432
3.	-3433
기원전	-3434
▁구성되어	-3435
99	-3436
▁다루	-3437
▁말을	-3438
▁코치	-3439
▁안에	-3440
▁출신의	-3441
▁유나이티드	-3442
▁New	-3443
하나	-3444
▁근거	-3445
▁전략	-3446
아르	-3447
▁작전	-3448
▁롤	-3449
명한	-3450
▁동료	-3451
케이	-3452
▁마리아	-3453
▁아우	-3454
들목	-3455
유키	-3456
▁옆	-3457
▁길이	-3458
왕의	-3459
형의	-3460
▁소장	-3461
▁벗	-3462
시를	-3463
중국	-3464
▁빼	-3465
▁유일한	-3466
ah	-3467
대와	-3468
▁경우에는	-3469
전쟁	-3470
인물	-3471
▁120	-3472
▁1949	-3473
테르	-3474
▁본래	-3475
치원	-3476
▁영역	-3477
▁매주	-3478
▁Pl	-3479
▁동쪽	-3480
▁이루어진	-3481
▁나들목	-3482
▁없어	-3483
▁있기	-3484
▁얼마	-3485
자키	-3486
단은	-3487
비드	-3488
자이다	-3489
IC	-3490
부인	-3491
▁쉬	-3492
▁51	-3493
으면서	-3494
▁남성	-3495
▁챔피언스	-3496
▁시인	-3497
소프트	-3498
▁오스	-3499
▁작성	-3500
▁만약	-3501
act	-3502
▁52	-3503
▁기계	-3504
▁생물	-3505
▁베네	-3506
▁경기를	-3507
레인	-3508
가로	-3509
JPG	-3510
AS	-3511
았고	-3512
▁제이	-3513
tern	-3514
▁포르투갈	-3515
:17	-3516
▁출발	-3517
북도의	-3518
▁감독의	-3519
▁75	-3520
▁연맹	-3521
▁아메리카	-3522
▁그렇	-3523
치의	-3524
▁율	-3525
▁일어나	-3526
her	-3527
▁니시	-3528
▁기재	-3529
▁아니다	-3530
▁개업한	-3531
▁뒷	-3532
▁사용된다	-3533
였고	-3534
▁1946	-3535
▁1954	-3536
롭게	-3537
olog	-3538
▁있지	-3539
▁계승	-3540
▁54	-3541
▁시작하였다	-3542
▁의하면	-3543
▁1958	-3544
▁인근	-3545
▁엄마	-3546
▁쌓	-3547
ee	-3548
▁대표적인	-3549
두고	-3550
시리즈	-3551
▁자이	-3552
▁터키	-3553
▁각종	-3554
▁구축	-3555
내고	-3556
▁컵	-3557
국유	-3558
▁함수	-3559
▁서식	-3560
93	-3561
ork	-3562
▁신라	-3563
▁제거	-3564
▁닛	-3565
orld	-3566
▁합류	-3567
▁냉	-3568
▁중의	-3569
▁정리	-3570
vN	-3571
▁떠나	-3572
▁제기	-3573
▁지역에서	-3574
-10	-3575
▁공포	-3576
▁브랜드	-3577
▁조정	-3578
사건	-3579
▁못하고	-3580
ix	-3581
▁충돌	-3582
▁떨어진	-3583
로가	-3584
르타	-3585
▁통신	-3586
력의	-3587
▁이번	-3588
▁인가	-3589
▁타카	-3590
권의	-3591
▁전용	-3592
만에	-3593
오스트	-3594
프가	-3595
▁일어난	-3596
▁이슬	-3597
▁지역을	-3598
▁편곡	-3599
공의	-3600
분에	-3601
세대	-3602
▁전차	-3603
▁음력	-3604
▁사령	-3605
분을	-3606
리트	-3607
본부	-3608
월까지	-3609
▁챔피언십	-3610
대구	-3611
리기	-3612
사에서	-3613
▁있었고	-3614
도와	-3615
▁그레이	-3616
▁(2	-3617
노동	-3618
이기	-3619
▁옮겨	-3620
평가	-3621
▁대해서는	-3622
안을	-3623
01	-3624
▁서쪽	-3625
▁1:	-3626
▁개정	-3627
▁좀	-3628
▁것도	-3629
▁나누	-3630
▁문자	-3631
▁유도	-3632
가타	-3633
어나	-3634
▁죽음	-3635
앤젤레스	-3636
ock	-3637
상과	-3638
▁뒤에	-3639
니아의	-3640
▁지적	-3641
▁선의	-3642
▁해체	-3643
▁세르	-3644
▁온라인	-3645
sv	-3646
▁with	-3647
산의	-3648
▁맛	-3649
시가	-3650
▁이라	-3651
점에서	-3652
▁사이에서	-3653
붉은	-3654
제국	-3655
▁낮은	-3656
▁픽	-3657
▁사망하였다	-3658
▁콩	-3659
▁상업	-3660
IV	-3661
전문	-3662
체국	-3663
▁학사	-3664
였으며	-3665
▁흰	-3666
ction	-3667
▁교토	-3668
▁촬영한	-3669
▁아이돌	-3670
:2010	-3671
▁유대	-3672
▁김성	-3673
▁인식	-3674
버그	-3675
이즈	-3676
▁그려	-3677
ick	-3678
트라	-3679
▁시장	-3680
▁대학원	-3681
▁오전	-3682
▁IS	-3683
학회	-3684
▁넘어	-3685
▁이라고	-3686
메리칸	-3687
▁척	-3688
▁검사	-3689
▁홍보	-3690
▁섬네일	-3691
▁몇몇	-3692
II	-3693
▁로버트	-3694
교도	-3695
▁Me	-3696
스크바	-3697
▁물론	-3698
▁겐	-3699
▁56	-3700
작용	-3701
기고	-3702
지마	-3703
잉글랜드의	-3704
▁참전	-3705
▁의견	-3706
▁1940	-3707
▁2.	-3708
더스	-3709
호가	-3710
az	-3711
▁승점	-3712
국민학교	-3713
▁감소	-3714
▁수학	-3715
라이언	-3716
▁보여주	-3717
▁정상	-3718
▁1955	-3719
▁제외한	-3720
▁직후	-3721
가이다	-3722
를린	-3723
,3	-3724
전이	-3725
화에	-3726
▁이래	-3727
▁숲	-3728
역으로	-3729
▁솔로	-3730
선거구	-3731
▁경계	-3732
키아	-3733
▁태풍	-3734
▁th	-3735
연상	-3736
▁탄생	-3737
▁힐	-3738
▁방송국	-3739
▁의미한다	-3740
력으로	-3741
.09	-3742
캐나다	-3743
▁전사	-3744
▁주목	-3745
▁협회	-3746
아버지	-3747
▁계산	-3748
▁알아	-3749
ft	-3750
▁옹	-3751
per	-3752
▁프란	-3753
▁사실을	-3754
▁가까운	-3755
해졌다	-3756
▁끼	-3757
추어	-3758
▁베이징	-3759
▁FA	-3760
▁승차	-3761
아프리카	-3762
전히	-3763
도르	-3764
비가	-3765
주에서	-3766
▁펠	-3767
▁호텔	-3768
경상	-3769
시키고	-3770
에게는	-3771
▁문제를	-3772
▁공급	-3773
▁마법	-3774
▁Part	-3775
성으로	-3776
▁일이	-3777
되자	-3778
▁My	-3779
▁설정	-3780
▁제작된	-3781
▁관계를	-3782
▁하기	-3783
▁플로	-3784
ern	-3785
타로	-3786
▁장군	-3787
하에	-3788
관으로	-3789
▁도서관	-3790
▁숫	-3791
▁히데	-3792
▁트랙	-3793
▁(2015	-3794
▁주어	-3795
▁1941	-3796
당은	-3797
▁제정	-3798
▁Love	-3799
되었던	-3800
기획	-3801
류의	-3802
▁만들었다	-3803
91	-3804
▁Mar	-3805
▁문제가	-3806
▁태평양	-3807
▁핀란드	-3808
▁플랫	-3809
svg	-3810
▁이용하여	-3811
▁시내	-3812
2.	-3813
▁허용	-3814
▁덴마크	-3815
▁조별	-3816
▁썼	-3817
ung	-3818
▁주식	-3819
▁스페셜	-3820
▁확대	-3821
▁엠	-3822
선은	-3823
▁만드는	-3824
▁서울대학교	-3825
▁갤	-3826
나와	-3827
▁자체	-3828
son	-3829
권이	-3830
▁주는	-3831
세에	-3832
가시	-3833
코의	-3834
▁65	-3835
▁수가	-3836
▁탑재	-3837
▁수정	-3838
비치	-3839
▁박정	-3840
▁재직	-3841
▁불린다	-3842
rop	-3843
Hz	-3844
▁어떻	-3845
▁이재	-3846
▁(2014	-3847
.04	-3848
산군	-3849
▁책임	-3850
문에	-3851
▁필리핀	-3852
▁정부는	-3853
▁아르헨티	-3854
▁단계	-3855
▁1930	-3856
sh	-3857
사인	-3858
리노	-3859
▁농구	-3860
메달을	-3861
▁53	-3862
▁광고	-3863
소에	-3864
실을	-3865
▁1956	-3866
▁텍	-3867
즈키	-3868
정치	-3869
▁신경	-3870
ann	-3871
복지	-3872
▁농업	-3873
▁집단	-3874
▁오토	-3875
터리	-3876
▁사용하여	-3877
▁Tr	-3878
▁레코드	-3879
▁(2013	-3880
조를	-3881
▁실제로	-3882
▁기능을	-3883
▁고향	-3884
▁400	-3885
▁골든	-3886
종합	-3887
▁곳에	-3888
▁선고	-3889
▁전라북도	-3890
▁수는	-3891
량의	-3892
▁시나	-3893
▁캘리포니아	-3894
과를	-3895
St	-3896
▁나중에	-3897
▁업무	-3898
▁1959	-3899
서트	-3900
개를	-3901
▁취급	-3902
▁불러	-3903
one	-3904
▁라인	-3905
병원	-3906
)(	-3907
▁집중	-3908
▁플레이오프	-3909
▁마크	-3910
▁분쟁	-3911
석을	-3912
▁스미	-3913
량은	-3914
서로	-3915
▁건너	-3916
▁AFC	-3917
식은	-3918
pt	-3919
▁서비	-3920
▁자신을	-3921
▁팝	-3922
▁만들어진	-3923
해를	-3924
적이고	-3925
▁박물관	-3926
ll	-3927
▁사람은	-3928
▁마드리드	-3929
▁*19	-3930
▁연예	-3931
▁총선	-3932
▁살인	-3933
퍼드	-3934
▁영화배우	-3935
신이	-3936
에이	-3937
▁스티	-3938
▁둘러	-3939
▁무장	-3940
▁평양	-3941
▁다섯	-3942
▁기존의	-3943
▁1944	-3944
▁저장	-3945
▁토론	-3946
▁(2011	-3947
▁무렵	-3948
▁(2012	-3949
▁카이	-3950
▁개선	-3951
▁주었다	-3952
▁미디어	-3953
바르	-3954
▁기록을	-3955
의로	-3956
▁애플	-3957
▁닥	-3958
의의	-3959
▁사는	-3960
▁부근	-3961
▁마련	-3962
동으로	-3963
▁통하여	-3964
-20	-3965
▁워싱턴	-3966
주군	-3967
▁행복	-3968
▁Br	-3969
▁어떻게	-3970
▁헤이	-3971
시스	-3972
▁인사	-3973
▁반면	-3974
▁피아노	-3975
▁민간	-3976
▁고정	-3977
▁화학	-3978
▁판단	-3979
▁스크	-3980
▁메이저	-3981
▁러브	-3982
▁낭	-3983
로마	-3984
▁붕괴	-3985
▁Ph	-3986
▁쪽	-3987
▁폭발	-3988
▁소방	-3989
▁톰	-3990
ica	-3991
▁고등	-3992
▁****	-3993
▁정부의	-3994
소수	-3995
In	-3996
,8	-3997
▁그래서	-3998
올림픽	-3999
▁Univers	-4000
-200	-4001
▁짐	-4002
▁김종	-4003
▁황금	-4004
사전	-4005
▁시각	-4006
광역시의	-4007
▁하드	-4008
▁삭	-4009
연구소	-4010
▁(2016	-4011
자동차	-4012
▁정치적	-4013
▁인생	-4014
(2	-4015
리나	-4016
▁Con	-4017
,4	-4018
연대	-4019
고로	-4020
▁나타나	-4021
네스	-4022
▁족	-4023
▁저항	-4024
▁되었으며	-4025
▁::	-4026
관계	-4027
물이	-4028
도쿄	-4029
▁US	-4030
▁1920	-4031
도서관	-4032
▁원자	-4033
▁올랐다	-4034
▁니콜	-4035
Ch	-4036
세포	-4037
▁부산광역시	-4038
가가	-4039
▁형제	-4040
교의	-4041
▁영상	-4042
키스탄	-4043
적으로는	-4044
질을	-4045
▁성인	-4046
리케	-4047
▁올해의	-4048
역이다	-4049
구로	-4050
학의	-4051
같은	-4052
▁대회에서	-4053
▁헝가	-4054
▁생활을	-4055
▁붉은	-4056
▁체계	-4057
▁보면	-4058
박물관	-4059
▁Col	-4060
구려	-4061
▁감염	-4062
▁홋	-4063
▁왔다	-4064
▁둥	-4065
▁(2008	-4066
기념	-4067
▁하자	-4068
▁유엔	-4069
▁이후에	-4070
▁공공	-4071
까지의	-4072
IS	-4073
타카	-4074
▁노력	-4075
호의	-4076
하시	-4077
ult	-4078
▁강조	-4079
▁끊	-4080
▁중화인민공화국	-4081
▁킬	-4082
일은	-4083
▁노부	-4084
안전	-4085
▁인하여	-4086
인도	-4087
▁1952	-4088
▁일반적인	-4089
▁청년	-4090
▁전투에서	-4091
▁출입	-4092
▁플랫폼	-4093
▁수립	-4094
▁경주	-4095
▁관찰	-4096
▁올리	-4097
VD	-4098
▁코파	-4099
아일랜드	-4100
▁트로	-4101
▁코드	-4102
했기	-4103
▁사회적	-4104
▁무역	-4105
쪽으로는	-4106
지기	-4107
▁머리	-4108
▁있었지만	-4109
ime	-4110
행을	-4111
▁장기	-4112
▁탁	-4113
▁나폴	-4114
▁NH	-4115
▁이스라엘	-4116
종이	-4117
▁루이	-4118
네시아	-4119
(15	-4120
▁위원회	-4121
우드	-4122
▁사용되는	-4123
레이드	-4124
자들의	-4125
▁구조를	-4126
EN	-4127
슈타	-4128
고등	-4129
▁FM	-4130
이던	-4131
int	-4132
지사	-4133
▁카드	-4134
▁관료	-4135
▁무기	-4136
▁모스크바	-4137
▁시청률	-4138
▁적극	-4139
▁(18	-4140
▁랭	-4141
▁힘을	-4142
▁확보	-4143
주가	-4144
▁인터뷰	-4145
면의	-4146
▁57	-4147
▁사용한	-4148
▁정보를	-4149
▁계약을	-4150
▁공유	-4151
BA	-4152
▁섭	-4153
▁쉽게	-4154
▁플라	-4155
졌으며	-4156
▁확정	-4157
▁밖에	-4158
소로	-4159
▁여전히	-4160
위원장	-4161
▁합격	-4162
▁대형	-4163
카고	-4164
중국의	-4165
▁이슬람	-4166
▁지리	-4167
프레	-4168
▁(2007	-4169
▁1951	-4170
▁포항	-4171
고속	-4172
테네	-4173
▁PC	-4174
▁이정	-4175
당한	-4176
▁유형문화재	-4177
질의	-4178
▁공격을	-4179
▁중화민	-4180
▁위치하고	-4181
밖에	-4182
ook	-4183
▁고속	-4184
조가	-4185
▁정착	-4186
▁몽골	-4187
입니다	-4188
▁58	-4189
▁액션	-4190
▁주말	-4191
▁하게	-4192
use	-4193
▁증거	-4194
▁위치해	-4195
▁He	-4196
프의	-4197
▁1000	-4198
▁이성	-4199
진을	-4200
▁렌	-4201
▁유키	-4202
보다는	-4203
ai	-4204
▁등장하는	-4205
▁왔	-4206
▁뿐만	-4207
▁원년	-4208
킨다	-4209
▁원정	-4210
파의	-4211
▁욕	-4212
동의	-4213
관의	-4214
▁충분	-4215
대신	-4216
▁아오	-4217
100	-4218
로도	-4219
▁시작한	-4220
▁곽	-4221
▁금융	-4222
▁장착	-4223
▁한나라	-4224
▁잠시	-4225
▁1938	-4226
▁공군	-4227
▁1953	-4228
ach	-4229
고려	-4230
▁털	-4231
▁1947	-4232
이와	-4233
당이	-4234
니는	-4235
▁사람의	-4236
머스	-4237
▁숭	-4238
받은	-4239
▁답	-4240
프는	-4241
부와	-4242
당을	-4243
조사	-4244
▁기후	-4245
▁사장	-4246
▁암살	-4247
▁태어난	-4248
▁장치	-4249
▁수여	-4250
▁듯	-4251
▁De	-4252
대에서	-4253
자에게	-4254
▁이루어져	-4255
국은	-4256
▁균	-4257
▁희망	-4258
ohn	-4259
▁스토	-4260
면이	-4261
▁채택	-4262
pl	-4263
▁강력한	-4264
하다고	-4265
TBC	-4266
경의	-4267
.08	-4268
연맹	-4269
▁한국어	-4270
▁쇠	-4271
▁사회주의	-4272
대사관	-4273
▁자리를	-4274
▁드래	-4275
시대의	-4276
▁나오는	-4277
)"	-4278
비의	-4279
▁프리미어	-4280
▁아주	-4281
▁1957	-4282
사랑	-4283
▁방식으로	-4284
▁에너지	-4285
ign	-4286
오리	-4287
▁흘	-4288
년대에	-4289
동이	-4290
▁창원	-4291
베이스	-4292
▁단편	-4293
▁챔피언스리그	-4294
▁행사	-4295
▁만족	-4296
▁발표했다	-4297
ics	-4298
로서의	-4299
네이	-4300
끄는	-4301
산리	-4302
조합	-4303
▁잘못	-4304
▁총리	-4305
▁Sch	-4306
▁불가능	-4307
▁부활	-4308
받아	-4309
인들이	-4310
단으로	-4311
▁여객철도	-4312
▁자격	-4313
▁한정	-4314
▁당시의	-4315
페라	-4316
▁옷	-4317
▁위협	-4318
력과	-4319
▁목적	-4320
▁체육	-4321
ier	-4322
▁전개	-4323
업을	-4324
비시	-4325
▁행성	-4326
▁측정	-4327
▁뛰어난	-4328
▁가격	-4329
▁그곳	-4330
▁묻	-4331
▁않을	-4332
▁재정	-4333
▁타고	-4334
▁찍	-4335
se	-4336
레나	-4337
문이	-4338
▁미드필	-4339
FM	-4340
▁유전	-4341
인천	-4342
▁석사	-4343
▁해방	-4344
론을	-4345
▁짓	-4346
리즘	-4347
▁===	-4348
▁라틴	-4349
시와	-4350
▁(2006	-4351
▁회복	-4352
았으며	-4353
타마	-4354
▁저녁	-4355
년과	-4356
노스	-4357
▁국무	-4358
▁받아들	-4359
IT	-4360
▁건국	-4361
▁루이스	-4362
▁요한	-4363
▁분할	-4364
▁수입	-4365
어도	-4366
소설	-4367
질랜드	-4368
ital	-4369
▁다운	-4370
▁통한	-4371
니의	-4372
▁도움	-4373
(16	-4374
▁아버	-4375
▁경향	-4376
부에서	-4377
▁미드필더	-4378
▁창설	-4379
▁조금	-4380
▁란	-4381
되었는데	-4382
are	-4383
▁조선민주주의인민공화국	-4384
▁보물	-4385
약을	-4386
마의	-4387
부작	-4388
▁하면서	-4389
▁아라	-4390
▁스탠	-4391
▁받는	-4392
▁종종	-4393
▁특집	-4394
07	-4395
▁때에는	-4396
▁승리를	-4397
디션	-4398
게이	-4399
분의	-4400
▁*201	-4401
▁노벨	-4402
▁매년	-4403
▁최다	-4404
▁외에도	-4405
▁전역	-4406
대사	-4407
▁보이는	-4408
▁떨어져	-4409
다른	-4410
릭스	-4411
아메리카	-4412
▁갖춘	-4413
▁공사	-4414
▁로드	-4415
소속	-4416
차를	-4417
▁비용	-4418
▁인간의	-4419
관광	-4420
▁동아	-4421
▁창립	-4422
▁관심을	-4423
▁사례	-4424
▁왼쪽	-4425
▁법정	-4426
▁지어	-4427
▁부터	-4428
까지는	-4429
land	-4430
리다	-4431
▁Te	-4432
자기	-4433
▁59	-4434
▁사운드	-4435
일로	-4436
▁속에	-4437
▁시기에	-4438
▁택	-4439
▁의료	-4440
▁날짜	-4441
▁경우도	-4442
▁샘	-4443
▁첨	-4444
▁등에서	-4445
▁원칙	-4446
▁1943	-4447
과대학	-4448
났으며	-4449
▁우선	-4450
▁속에서	-4451
▁중계	-4452
▁파워	-4453
인에	-4454
페르	-4455
▁뿌	-4456
▁나고	-4457
▁초반	-4458
ict	-4459
하려는	-4460
독일	-4461
▁그해	-4462
▁사후	-4463
ase	-4464
력에	-4465
▁(3	-4466
시스템	-4467
▁릴	-4468
▁타이완	-4469
▁사람을	-4470
▁DF	-4471
▁가을	-4472
▁브리	-4473
▁김동	-4474
▁은하	-4475
▁웨스트	-4476
공립	-4477
대장	-4478
▁아랍	-4479
old	-4480
리우스	-4481
▁자본	-4482
▁원주	-4483
▁팀은	-4484
▁베를린	-4485
-18	-4486
행위	-4487
▁잎	-4488
▁지식	-4489
▁공부	-4490
▁조합	-4491
idae	-4492
▁뽑	-4493
상에서	-4494
었으나	-4495
▁메인	-4496
▁보안	-4497
▁사람들은	-4498
▁이중	-4499
타르	-4500
▁Ex	-4501
-5	-4502
▁튀	-4503
조는	-4504
▁고전	-4505
▁인기	-4506
▁tvN	-4507
▁이집트	-4508
▁게스트	-4509
피스	-4510
해진	-4511
서울특별시	-4512
▁이탈리아의	-4513
▁세운	-4514
▁이제	-4515
▁화물	-4516
▁충청북도	-4517
~201	-4518
:15	-4519
법에	-4520
▁번호	-4521
▁배역	-4522
▁천안	-4523
▁66	-4524
▁피터	-4525
교수	-4526
▁매일	-4527
이탈리아의	-4528
라드	-4529
▁귀국	-4530
▁보조	-4531
▁변호사	-4532
▁아미	-4533
▁간주	-4534
▁고구려	-4535
▁계급	-4536
▁차이	-4537
라가	-4538
▁인원	-4539
마르	-4540
pr	-4541
▁삼국	-4542
▁리더	-4543
▁전혀	-4544
ink	-4545
▁우크	-4546
계획	-4547
▁까	-4548
사스	-4549
▁Man	-4550
▁현실	-4551
▁클래식	-4552
arl	-4553
▁짧은	-4554
▁데이비드	-4555
▁써	-4556
▁나와	-4557
▁에도	-4558
▁일종	-4559
▁플래	-4560
ax	-4561
고기	-4562
▁개신	-4563
▁시작되었다	-4564
▁World	-4565
▁도움을	-4566
▁도요	-4567
▁이하	-4568
에만	-4569
ext	-4570
▁본관은	-4571
▁나의	-4572
▁캄	-4573
▁경성	-4574
▁점차	-4575
족의	-4576
ID	-4577
▁등은	-4578
비는	-4579
형이	-4580
되었지만	-4581
▁비율	-4582
▁로맨	-4583
▁백작	-4584
▁자이언	-4585
신문	-4586
▁대장	-4587
▁벨기에	-4588
PS	-4589
▁1914	-4590
미의	-4591
▁무엇	-4592
▁클라	-4593
크래프트	-4594
품을	-4595
▁MF	-4596
서의	-4597
OM	-4598
▁스코틀랜드	-4599
▁내에서	-4600
▁오프	-4601
▁스프	-4602
ame	-4603
▁띠	-4604
▁약속	-4605
▁4,	-4606
▁고속도로	-4607
▁(2017	-4608
었는데	-4609
▁j	-4610
토니	-4611
극장	-4612
▁취득	-4613
▁뒤를	-4614
▁연재	-4615
▁미스터	-4616
▁헨리	-4617
▁내용을	-4618
▁행정구역	-4619
과정	-4620
"(	-4621
▁En	-4622
타를	-4623
▁가로	-4624
원의원	-4625
어스	-4626
▁인기를	-4627
▁이끄는	-4628
류를	-4629
▁용어	-4630
▁경남	-4631
▁이민	-4632
리히	-4633
심이	-4634
▁대상으로	-4635
▁성남	-4636
▁al	-4637
▁이전에	-4638
▁후손	-4639
서에	-4640
▁포지션은	-4641
▁셋	-4642
▁주간	-4643
▁침공	-4644
▁세인트	-4645
▁살고	-4646
▁파라	-4647
명이다	-4648
ata	-4649
▁시상	-4650
▁불과	-4651
▁복잡	-4652
▁투자	-4653
제에	-4654
주에	-4655
▁트랜	-4656
번의	-4657
(3	-4658
점에	-4659
:16	-4660
한국어	-4661
회장	-4662
▁증명	-4663
▁풋	-4664
▁개국	-4665
▁료	-4666
▁타이거	-4667
▁했지만	-4668
▁University	-4669
함에	-4670
▁아티	-4671
▁참여하였다	-4672
▁Wh	-4673
▁이것이	-4674
텐츠	-4675
타지	-4676
▁보는	-4677
▁의해서	-4678
▁캔	-4679
▁김태	-4680
▁가나	-4681
▁1939	-4682
투스	-4683
우라	-4684
▁소수	-4685
삼거리	-4686
드라	-4687
▁99	-4688
▁권한	-4689
하고자	-4690
▁앞두고	-4691
▁1942	-4692
원군	-4693
▁삽	-4694
ium	-4695
룬다	-4696
리언	-4697
세기에	-4698
야시	-4699
▁그레	-4700
▁Le	-4701
▁운전	-4702
너스	-4703
▁미사일	-4704
오스	-4705
▁개관	-4706
면에서	-4707
이었으나	-4708
▁본격	-4709
cl	-4710
프랑스	-4711
▁한다는	-4712
화로	-4713
09	-4714
▁대립	-4715
▁단일	-4716
▁사토	-4717
마루	-4718
▁77	-4719
ition	-4720
▁직원	-4721
▁(),	-4722
겠다고	-4723
스포츠	-4724
▁나서	-4725
▁임명되었다	-4726
umb	-4727
려는	-4728
▁슬로	-4729
▁오른쪽	-4730
었지만	-4731
▁역을	-4732
리안	-4733
디움	-4734
▁설치되어	-4735
스포	-4736
▁사용되었다	-4737
▁생명	-4738
화는	-4739
US	-4740
크는	-4741
▁09	-4742
▁더불어민주당	-4743
▁없고	-4744
없는	-4745
▁나뉘	-4746
▁단백	-4747
▁급제	-4748
▁주교	-4749
▁개봉한	-4750
▁레오	-4751
▁페이지	-4752
전은	-4753
▁참석	-4754
용으로	-4755
▁개최된	-4756
▁골드	-4757
▁판결	-4758
스럽	-4759
의원	-4760
ton	-4761
▁강점기의	-4762
▁집안	-4763
▁비교적	-4764
선에	-4765
▁과정을	-4766
▁동일한	-4767
보통	-4768
▁문신	-4769
베르크	-4770
▁형태의	-4771
다면	-4772
▁구성된	-4773
ath	-4774
▁수사	-4775
rist	-4776
▁갖추	-4777
▁임진	-4778
▁반복	-4779
산면	-4780
▁사실상	-4781
코스	-4782
▁서버	-4783
환경	-4784
▁근대	-4785
▁삼각	-4786
론가	-4787
▁되지	-4788
▁수출	-4789
▁정차	-4790
▁고유	-4791
▁대항	-4792
▁구체	-4793
▁대규모	-4794
▁아름다운	-4795
▁꼭	-4796
국가	-4797
시험	-4798
▁사립	-4799
미니	-4800
▁신성	-4801
ET	-4802
수와	-4803
▁MC	-4804
퍼스	-4805
amp	-4806
▁가와	-4807
▁있었으나	-4808
▁벡	-4809
차례	-4810
▁천문	-4811
았던	-4812
튜브	-4813
▁프로세	-4814
▁63	-4815
▁밥	-4816
▁영웅	-4817
▁층	-4818
rap	-4819
▁주장했다	-4820
무부	-4821
▁닥터	-4822
▁한다고	-4823
▁팀이	-4824
▁시간이	-4825
지구	-4826
▁기재된	-4827
ool	-4828
▁No	-4829
▁브루	-4830
▁코리아	-4831
당에	-4832
▁맡고	-4833
사우	-4834
▁때에	-4835
제작	-4836
훈장	-4837
▁독립운동	-4838
▁(2005	-4839
▁도중	-4840
net	-4841
련의	-4842
▁프린	-4843
특별자치	-4844
재판	-4845
▁되면서	-4846
국을	-4847
▁공주	-4848
체스터	-4849
▁이영	-4850
▁교사	-4851
▁보급	-4852
▁보건	-4853
▁재위	-4854
▁지금의	-4855
▁타임	-4856
스러운	-4857
▁핫	-4858
카드	-4859
▁역사상	-4860
년경	-4861
▁진입	-4862
▁글로벌	-4863
▁정도의	-4864
▁전공	-4865
▁이종	-4866
▁투입	-4867
▁중반	-4868
▁말레이	-4869
▁예산	-4870
▁테마	-4871
AP	-4872
치로	-4873
▁OST	-4874
05	-4875
▁덮	-4876
주년	-4877
▁외에	-4878
적이다	-4879
▁등장인물	-4880
드레	-4881
이에	-4882
▁랜	-4883
우고	-4884
▁자살	-4885
공학	-4886
▁수훈	-4887
▁바라	-4888
하려고	-4889
▁시대에	-4890
▁사항	-4891
▁손자	-4892
님의	-4893
▁알게	-4894
uk	-4895
▁이야기를	-4896
캐나다의	-4897
▁Or	-4898
▁장남	-4899
CD	-4900
ES	-4901
ina	-4902
▁도전	-4903
▁적은	-4904
▁운용	-4905
▁코로나	-4906
▁위반	-4907
시킬	-4908
▁강남	-4909
인들은	-4910
▁한번	-4911
▁러시아의	-4912
양군	-4913
▁했으나	-4914
▁포트	-4915
▁이기	-4916
▁한자	-4917
타운	-4918
더라도	-4919
▁테러	-4920
▁천체	-4921
▁있었으며	-4922
▁상하이	-4923
▁발매되었다	-4924
▁음식	-4925
▁안동	-4926
수록	-4927
아키	-4928
▁흔히	-4929
승을	-4930
▁융	-4931
~200	-4932
▁로스앤젤레스	-4933
▁물러	-4934
▁히로시마	-4935
▁벌어	-4936
▁포유	-4937
▁테이	-4938
▁다케	-4939
▁전후	-4940
권에	-4941
▁절대	-4942
▁양성	-4943
ree	-4944
▁탈출	-4945
▁만큼	-4946
전으로	-4947
색을	-4948
▁동작	-4949
▁저지	-4950
물로	-4951
▁일요일	-4952
▁대성	-4953
▁Sing	-4954
▁해리	-4955
▁오히	-4956
▁닌	-4957
전라	-4958
번호	-4959
-21	-4960
이었고	-4961
▁대기	-4962
▁알파	-4963
▁한때	-4964
▁헤르	-4965
▁발생한	-4966
문의	-4967
해도	-4968
▁완료	-4969
▁3.	-4970
▁내에	-4971
▁리처	-4972
▁해양	-4973
▁와이	-4974
▁카르	-4975
아서	-4976
▁사람들	-4977
08	-4978
통합	-4979
▁vs	-4980
국에	-4981
야수	-4982
▁기반으로	-4983
▁하는데	-4984
▁1919	-4985
ale	-4986
▁켈	-4987
▁위원장	-4988
▁큐	-4989
모델	-4990
일이	-4991
비디오	-4992
▁오카	-4993
▁예비	-4994
▁스카	-4995
▁후쿠오카	-4996
어와	-4997
▁앞서	-4998
▁68	-4999
▁72	-5000
우의	-5001
▁사법	-5002
orn	-5003
▁출마	-5004
▁도쿠	-5005
▁지도자	-5006
▁오랜	-5007
건설	-5008
▁도망	-5009
ED	-5010
신은	-5011
▁95	-5012
▁ch	-5013
(17	-5014
▁통계	-5015
바시	-5016
산동	-5017
▁시사	-5018
만큼	-5019
지면서	-5020
▁성적	-5021
▁특별한	-5022
.,	-5023
생물	-5024
받고	-5025
베스	-5026
▁이지	-5027
▁대표팀	-5028
▁추정된다	-5029
치아	-5030
▁자세	-5031
▁열대	-5032
▁건립	-5033
▁자는	-5034
▁그에	-5035
▁예상	-5036
인이다	-5037
점은	-5038
▁무덤	-5039
▁여객철도의	-5040
▁마케	-5041
▁Ed	-5042
ance	-5043
슨은	-5044
HE	-5045
▁지역은	-5046
ound	-5047
형은	-5048
))	-5049
에트	-5050
▁KT	-5051
▁핵심	-5052
AD	-5053
ild	-5054
▁파트	-5055
등을	-5056
▁SS	-5057
술을	-5058
▁등급	-5059
▁드라이	-5060
▁프라	-5061
▁62	-5062
▁지닌	-5063
▁퀸	-5064
ram	-5065
▁아스	-5066
▁포기	-5067
크스	-5068
▁얻었다	-5069
▁베이스볼	-5070
▁쫓	-5071
AL	-5072
BN	-5073
▁67	-5074
▁제출	-5075
에게서	-5076
▁비난	-5077
특별시의	-5078
리시	-5079
터스	-5080
▁Se	-5081
▁일본에서	-5082
원과	-5083
▁시간을	-5084
체에	-5085
▁집행	-5086
▁프랭	-5087
▁레인	-5088
▁생존	-5089
▁학습	-5090
▁라이트	-5091
야구	-5092
▁웃	-5093
필드	-5094
▁03.	-5095
씨의	-5096
도에서	-5097
▁태어나	-5098
▁1936	-5099
ru	-5100
▁고문	-5101
▁부상	-5102
▁야스	-5103
▁항복	-5104
▁횡	-5105
클리	-5106
▁유니버	-5107
▁거절	-5108
경영	-5109
▁콘서트	-5110
06	-5111
비아의	-5112
▁공화국의	-5113
▁세계에서	-5114
슬링	-5115
▁경기에	-5116
▁했고	-5117
▁대공	-5118
yn	-5119
▁정복	-5120
▁노예	-5121
진의	-5122
ubl	-5123
04	-5124
▁현재까지	-5125
▁포켓	-5126
▁화이트	-5127
뮤니	-5128
▁약간	-5129
▁입학식	-5130
보는	-5131
▁심각	-5132
yst	-5133
뉴욕	-5134
▁모험	-5135
보병	-5136
누스	-5137
▁흡수	-5138
자들	-5139
그래	-5140
▁있음	-5141
▁방출	-5142
여서	-5143
▁마이크로소프트	-5144
▁김대	-5145
03	-5146
▁프로그래	-5147
▁김민	-5148
▁출간	-5149
▁누구	-5150
▁팀을	-5151
▁시드	-5152
바일	-5153
▁그것은	-5154
:2014	-5155
▁확실	-5156
▁추측	-5157
▁남동	-5158
▁됐다	-5159
:1	-5160
▁김현	-5161
▁접속	-5162
▁세웠다	-5163
▁승인	-5164
▁해서	-5165
하다는	-5166
▁둘째	-5167
▁패션	-5168
▁역으로	-5169
▁축구단	-5170
일제	-5171
▁동남	-5172
▁가능성이	-5173
▁진주	-5174
▁스마트	-5175
▁(2019	-5176
령을	-5177
▁Be	-5178
▁병사	-5179
▁녹색	-5180
광주	-5181
▁자녀	-5182
▁합의	-5183
▁유명하다	-5184
이라고도	-5185
분이	-5186
▁레알	-5187
▁창조	-5188
년이	-5189
권은	-5190
검찰	-5191
▁내가	-5192
▁인공	-5193
체로	-5194
▁JTBC	-5195
▁레전	-5196
우치	-5197
▁멸망	-5198
▁이용해	-5199
ys	-5200
▁강제	-5201
▁하면	-5202
▁검찰	-5203
▁있었는데	-5204
▁보아	-5205
att	-5206
▁88	-5207
▁사단	-5208
▁스위스	-5209
▁5,	-5210
▁생긴	-5211
▁이즈	-5212
▁지낸	-5213
▁거대한	-5214
독립	-5215
▁훨	-5216
미가	-5217
스트라	-5218
▁리그의	-5219
▁개설	-5220
▁동해	-5221
▁정부가	-5222
▁됨	-5223
▁국경	-5224
▁점에서	-5225
,500	-5226
▁단독	-5227
▁토요일	-5228
▁앞에	-5229
결승	-5230
▁일정	-5231
▁시즌을	-5232
그램	-5233
▁공원	-5234
▁청주	-5235
오른	-5236
▁타워	-5237
▁서양	-5238
▁대비	-5239
▁어렵	-5240
포로	-5241
▁마침	-5242
▁올스타	-5243
자들을	-5244
▁해당하는	-5245
▁69	-5246
fer	-5247
▁ST	-5248
▁오히려	-5249
▁|	-5250
였으나	-5251
▁넓은	-5252
▁진보	-5253
▁주고	-5254
▁규칙	-5255
▁보잉	-5256
유산	-5257
경기에	-5258
기에는	-5259
보이	-5260
▁For	-5261
ron	-5262
▁고용	-5263
▁미치	-5264
▁브라운	-5265
▁빠져	-5266
▁투어	-5267
언을	-5268
호쿠	-5269
▁이익	-5270
▁이끌고	-5271
서가	-5272
▁위성	-5273
라고도	-5274
▁훨씬	-5275
▁빙	-5276
으로도	-5277
대대	-5278
▁다음은	-5279
▁전북	-5280
키의	-5281
▁직업	-5282
레오	-5283
거운	-5284
▁0.2	-5285
수에	-5286
증을	-5287
조판	-5288
▁드래곤	-5289
ox	-5290
▁바르셀	-5291
:2012	-5292
▁사건을	-5293
러시아의	-5294
4,	-5295
구와	-5296
▁로켓	-5297
▁신앙	-5298
▁Fl	-5299
▁싱어	-5300
▁콤	-5301
▁le	-5302
공화국	-5303
▁시카고	-5304
▁정지	-5305
▁결과를	-5306
회가	-5307
▁이후에는	-5308
당했다	-5309
▁스타디움	-5310
▁HD	-5311
버드	-5312
ash	-5313
▁되면	-5314
▁주재	-5315
▁부하	-5316
▁85	-5317
▁언제	-5318
▁스트리	-5319
▁변경되었다	-5320
▁(2000	-5321
▁머물	-5322
▁그것을	-5323
▁화가	-5324
▁취소	-5325
선으로	-5326
▁앵	-5327
▁잡지	-5328
▁조카	-5329
▁해설	-5330
02	-5331
ans	-5332
사거리	-5333
▁뉴질랜드	-5334
종은	-5335
▁어디	-5336
▁더블	-5337
▁핑	-5338
▁이수	-5339
▁구속	-5340
▁빠른	-5341
-8	-5342
▁철학	-5343
지며	-5344
▁무게	-5345
▁(2018	-5346
▁신호	-5347
▁61	-5348
트와	-5349
▁식민지	-5350
개가	-5351
판을	-5352
한국의	-5353
▁이용한	-5354
▁능력을	-5355
▁신청	-5356
▁학술	-5357
▁1937	-5358
▁Ad	-5359
▁상당히	-5360
▁대략	-5361
▁홋카이도	-5362
드시	-5363
▁발매일	-5364
▁스키	-5365
▁요새	-5366
▁때부터	-5367
조직	-5368
▁논쟁	-5369
▁생겨	-5370
학원	-5371
▁때의	-5372
▁처음에는	-5373
▁강의	-5374
▁그에게	-5375
▁오래된	-5376
▁북서	-5377
▁흉	-5378
out	-5379
▁보였다	-5380
▁응용	-5381
세와	-5382
▁차지했다	-5383
안군	-5384
▁스티븐	-5385
▁차이가	-5386
▁Is	-5387
▁빅토	-5388
미를	-5389
▁조종	-5390
▁찰스	-5391
▁사용하고	-5392
모를	-5393
보고	-5394
분교	-5395
기압	-5396
▁화성	-5397
▁계획을	-5398
▁장식	-5399
▁바둑	-5400
세대학교	-5401
조에	-5402
▁수집	-5403
▁라운드	-5404
:2000	-5405
장관	-5406
▁제어	-5407
▁부대	-5408
▁잉	-5409
▁구별	-5410
▁했으며	-5411
▁지니	-5412
▁발표한	-5413
대문	-5414
WE	-5415
▁등장한다	-5416
▁강릉	-5417
▁사망했다	-5418
▁중인	-5419
▁국가의	-5420
▁수송	-5421
▁방향으로	-5422
리게	-5423
▁거래	-5424
스테이션	-5425
▁페이스	-5426
▁전남	-5427
소에서	-5428
▁주관	-5429
가포르	-5430
▁소속으로	-5431
▁MV	-5432
ail	-5433
▁신축	-5434
▁제일	-5435
에른	-5436
▁변환	-5437
애니	-5438
바로	-5439
▁페이	-5440
▁법칙	-5441
마쓰	-5442
박쥐	-5443
슬러	-5444
가에	-5445
▁마츠	-5446
▁점을	-5447
▁이유는	-5448
:2008	-5449
▁서구	-5450
▁무소속	-5451
▁DVD	-5452
▁왕국의	-5453
▁상행	-5454
▁선교	-5455
▁한반	-5456
▁후속	-5457
BM	-5458
▁포함되어	-5459
▁하였고	-5460
▁리버	-5461
화한	-5462
▁득표율	-5463
▁회차	-5464
▁기상	-5465
▁김용	-5466
▁달라	-5467
▁활발	-5468
한의	-5469
usic	-5470
▁사랑을	-5471
▁질병	-5472
▁자이언츠	-5473
▁금속	-5474
우체국	-5475
▁메시	-5476
▁On	-5477
▁잡아	-5478
노미야	-5479
라이터	-5480
▁도달	-5481
학부	-5482
▁김해	-5483
▁1935	-5484
▁지급	-5485
료를	-5486
슬로	-5487
시킨다	-5488
▁다큐	-5489
군으로	-5490
법은	-5491
▁교환	-5492
▁지원을	-5493
▁웅	-5494
rans	-5495
▁간단	-5496
화와	-5497
▁미쓰	-5498
▁늦	-5499
▁통제	-5500
히는	-5501
isc	-5502
▁병원	-5503
▁천연	-5504
▁지키	-5505
TC	-5506
▁이른	-5507
▁Vol	-5508
▁불법	-5509
형으로	-5510
▁동의	-5511
▁뜨	-5512
▁붙여	-5513
차원	-5514
여자고등학교	-5515
▁얻어	-5516
▁통해서	-5517
igital	-5518
▁경기는	-5519
리코	-5520
▁벼	-5521
▁마치	-5522
▁반영	-5523
리지널	-5524
왕후	-5525
OV	-5526
▁화재	-5527
총독	-5528
적의	-5529
그리	-5530
▁의상	-5531
OL	-5532
씨는	-5533
이었으며	-5534
300	-5535
▁늘어	-5536
▁레전드	-5537
▁잇는	-5538
▁우크라이나	-5539
▁1934	-5540
▁장수	-5541
▁시에	-5542
▁안양	-5543
▁pro	-5544
산은	-5545
▁선수가	-5546
▁아틀	-5547
▁독자	-5548
▁미나	-5549
ology	-5550
▁순간	-5551
▁면적은	-5552
OC	-5553
개혁	-5554
▁임의의	-5555
▁받지	-5556
▁정기	-5557
▁깊은	-5558
▁*200	-5559
▁EP	-5560
▁엄청	-5561
년에서	-5562
▁두었다	-5563
▁국민의	-5564
▁요소	-5565
▁저술	-5566
▁분기	-5567
▁후에는	-5568
▁참조	-5569
▁KBO	-5570
OP	-5571
▁이르는	-5572
지자	-5573
회에	-5574
▁It	-5575
리티	-5576
▁김지	-5577
▁샤를	-5578
▁파크	-5579
카의	-5580
▁라이온	-5581
▁세부	-5582
▁터미널	-5583
▁연대	-5584
▁경북	-5585
▁작품을	-5586
장애	-5587
▁스케	-5588
▁그런데	-5589
▁76	-5590
▁kg	-5591
공주	-5592
▁하행	-5593
▁조작	-5594
▁주둔	-5595
▁96	-5596
켰다	-5597
티스	-5598
▁승객	-5599
오스트레일	-5600
▁회전	-5601
▁후기	-5602
렸고	-5603
▁산맥	-5604
ons	-5605
세로	-5606
▁지붕	-5607
▁배출	-5608
▁김진	-5609
▁98	-5610
▁IC	-5611
▁희생	-5612
▁나고야	-5613
▁요코하마	-5614
▁공을	-5615
▁복합	-5616
▁영입	-5617
▁전쟁이	-5618
식으로	-5619
작곡	-5620
스컵	-5621
우에	-5622
▁없다고	-5623
▁춤	-5624
ake	-5625
▁창단	-5626
인들의	-5627
▁며	-5628
▁김재	-5629
ise	-5630
▁동일본	-5631
▁포유류	-5632
▁뜻을	-5633
▁로봇	-5634
검찰청	-5635
▁기록한	-5636
일리	-5637
▁조선의	-5638
▁아사히	-5639
ome	-5640
▁남은	-5641
마치	-5642
yp	-5643
진흥	-5644
erv	-5645
▁(4	-5646
연구원	-5647
차가	-5648
▁가스	-5649
▁쥐	-5650
어들	-5651
쿠스	-5652
▁저작	-5653
르기	-5654
▁대결	-5655
둥이	-5656
미술	-5657
▁건조	-5658
시스코	-5659
▁청나라	-5660
▁출신으로	-5661
own	-5662
토의	-5663
▁3:	-5664
▁사우	-5665
석이	-5666
타의	-5667
ife	-5668
▁장교	-5669
즈니	-5670
▁재개	-5671
▁해산	-5672
▁아르헨티나	-5673
oll	-5674
▁지방의	-5675
▁기대	-5676
기록	-5677
-6	-5678
▁오오	-5679
▁보낸	-5680
▁상승	-5681
▁공통	-5682
yl	-5683
IM	-5684
▁갈라	-5685
▁핸	-5686
ism	-5687
▁크루	-5688
ii	-5689
리가의	-5690
▁스토리	-5691
▁개막	-5692
러리	-5693
릴러	-5694
▁반도	-5695
▁NHK	-5696
타나	-5697
파이	-5698
▁채용	-5699
영의	-5700
▁사랑의	-5701
▁중이다	-5702
▁(2004	-5703
▁화장	-5704
▁현역	-5705
▁향상	-5706
▁보병	-5707
곡리	-5708
▁등판	-5709
▁아티스트	-5710
동물	-5711
정으로	-5712
상태	-5713
▁미나미	-5714
▁아들이	-5715
▁비록	-5716
면은	-5717
▁반드시	-5718
누리	-5719
단계	-5720
월드	-5721
▁기록하였다	-5722
▁종로	-5723
▁다르다	-5724
▁전쟁을	-5725
iel	-5726
▁대리	-5727
▁북동	-5728
SL	-5729
▁수훈자	-5730
▁외부	-5731
▁프라이	-5732
왕이	-5733
▁중화민국	-5734
▁지켜	-5735
▁카메라	-5736
훗날	-5737
류가	-5738
▁뜻한다	-5739
▁위해서는	-5740
▁코너	-5741
▁길이는	-5742
▁제대로	-5743
▁명명	-5744
▁기술을	-5745
▁김일	-5746
▁(1999	-5747
로우	-5748
즈카	-5749
▁태국	-5750
▁리처드	-5751
▁인천광역시	-5752
▁것처럼	-5753
페이	-5754
오른쪽	-5755
▁주니어	-5756
▁내셔널	-5757
▁원소	-5758
▁가리킨다	-5759
▁징역	-5760
미는	-5761
▁아리	-5762
번째로	-5763
iet	-5764
▁이치	-5765
회에서	-5766
▁혼란	-5767
테이	-5768
▁성능	-5769
org	-5770
▁인도네시아	-5771
▁만주	-5772
방향	-5773
▁틀	-5774
▁거짓	-5775
니버스	-5776
▁오페라	-5777
▁읍	-5778
▁mm	-5779
▁유한	-5780
기상	-5781
즈는	-5782
▁이혼	-5783
%)	-5784
OT	-5785
겠다	-5786
뉴스	-5787
되면	-5788
▁부르는	-5789
안에	-5790
png	-5791
▁장악	-5792
▁상륙	-5793
▁참고	-5794
▁무한	-5795
▁소비에트	-5796
▁수상했다	-5797
▁넘는	-5798
▁곳에서	-5799
▁철도역이다	-5800
▁철학자	-5801
▁보장	-5802
법의	-5803
▁사건이	-5804
ple	-5805
▁쓰는	-5806
▁무사	-5807
-201	-5808
▁선보	-5809
▁콘스탄	-5810
▁빼앗	-5811
▁상품	-5812
▁남서	-5813
ations	-5814
▁보관	-5815
▁앤드	-5816
▁받는다	-5817
▁돌아가	-5818
프를	-5819
.25	-5820
전기	-5821
▁나이트	-5822
▁번째로	-5823
▁용인	-5824
▁보스	-5825
야의	-5826
▁기업인	-5827
운영	-5828
역이	-5829
사람	-5830
▁경우는	-5831
▁방법을	-5832
▁우에	-5833
▁단위	-5834
▁철도의	-5835
틀러	-5836
▁경유	-5837
▁다다	-5838
▁가게	-5839
비트	-5840
세요	-5841
작가	-5842
▁수석	-5843
▁뮌	-5844
산이	-5845
시청	-5846
디스	-5847
:30	-5848
인조	-5849
▁맞이	-5850
터를	-5851
▁FW	-5852
RE	-5853
▁쓸	-5854
박스	-5855
▁알바	-5856
출판	-5857
▁포켓몬	-5858
▁합성	-5859
▁히어로	-5860
▁CF	-5861
SP	-5862
▁중부	-5863
▁크기	-5864
▁1910	-5865
▁덧	-5866
▁임대	-5867
▁78	-5868
대교	-5869
▁출범	-5870
▁커뮤니	-5871
▁나타내는	-5872
사무소	-5873
▁97	-5874
▁양자	-5875
▁유튜브	-5876
▁추천	-5877
만원	-5878
▁받게	-5879
▁동원	-5880
▁나치	-5881
▁그래픽	-5882
▁댄스	-5883
▁명이	-5884
왜란	-5885
▁그와	-5886
▁개명	-5887
▁체제	-5888
OU	-5889
란색	-5890
▁JR	-5891
▁불명	-5892
▁결승전	-5893
▁의무	-5894
▁이것을	-5895
▁아들로	-5896
▁1933	-5897
▁프로그램을	-5898
음이	-5899
영상	-5900
▁한글	-5901
밀리	-5902
▁비트	-5903
:2016	-5904
▁효율	-5905
합니다	-5906
▁불안	-5907
ount	-5908
▁이전의	-5909
▁74	-5910
▁오다	-5911
KB	-5912
▁소리	-5913
보호	-5914
-11	-5915
보를	-5916
▁마스터	-5917
▁돼	-5918
커스	-5919
▁마지막으로	-5920
▁도와	-5921
▁의존	-5922
▁보냈다	-5923
▁승진	-5924
▁전파	-5925
▁인권	-5926
▁작품이다	-5927
▁힙	-5928
▁시의	-5929
기에서	-5930
론의	-5931
▁크로스	-5932
▁행위	-5933
▁꺾	-5934
eng	-5935
▁가서	-5936
가락	-5937
▁SF	-5938
▁발매된	-5939
▁영화제	-5940
▁서비스를	-5941
연히	-5942
오의	-5943
▁했던	-5944
개국	-5945
▁당초	-5946
▁느끼	-5947
▁쓰고	-5948
▁안내	-5949
▁계기로	-5950
▁유사한	-5951
▁평일	-5952
수원	-5953
▁시작으로	-5954
방을	-5955
뱅크	-5956
▁모토	-5957
▁피해를	-5958
:2006	-5959
▁발표하였다	-5960
가미	-5961
▁총독	-5962
▁쾌	-5963
▁스페인의	-5964
으니	-5965
form	-5966
소녀	-5967
▁시나리오	-5968
▁예측	-5969
▁블로그	-5970
▁1918	-5971
▁1932	-5972
▁논란이	-5973
국대학교	-5974
▁가이	-5975
▁역임했다	-5976
▁이명	-5977
▁개조	-5978
▁신사	-5979
row	-5980
▁분노	-5981
▁상위	-5982
▁아버지는	-5983
▁목포	-5984
▁동양	-5985
▁트레이	-5986
:2011	-5987
루수	-5988
▁노스	-5989
▁발견된	-5990
질이	-5991
▁PD	-5992
▁이뤄	-5993
연속	-5994
▁끝난	-5995
러시아	-5996
▁스릴러	-5997
▁각각의	-5998
▁공식적으로	-5999
-15	-6000
▁해상	-6001
▁00	-6002
▁멘	-6003
다리	-6004
▁싱어송	-6005
▁아이스	-6006
▁높아	-6007
▁받을	-6008
▁종류의	-6009
(4	-6010
성화	-6011
법이	-6012
▁풋볼	-6013
▁소재지	-6014
▁쓰인다	-6015
데르	-6016
▁웨이	-6017
수도	-6018
▁짝	-6019
KBO	-6020
▁마틴	-6021
.00	-6022
저스	-6023
-17	-6024
itt	-6025
▁잉글랜드의	-6026
ole	-6027
▁정비	-6028
▁판타지	-6029
▁잠수	-6030
▁방사	-6031
▁나온다	-6032
와이	-6033
진이	-6034
패를	-6035
▁내의	-6036
▁구현	-6037
이상	-6038
면으로	-6039
au	-6040
▁신뢰	-6041
▁연애	-6042
▁프로그램이다	-6043
▁문헌	-6044
▁제외하고	-6045
▁비례	-6046
▁1928	-6047
▁73	-6048
▁하우스	-6049
(5	-6050
닉스	-6051
▁AM	-6052
▁Cent	-6053
▁오리지널	-6054
▁중구	-6055
▁주택	-6056
▁김수	-6057
▁대사관	-6058
enn	-6059
▁시작하여	-6060
▁통상	-6061
시타	-6062
여객	-6063
마니아	-6064
▁비상	-6065
유의	-6066
미디어	-6067
▁개발한	-6068
▁헝가리	-6069
▁반발	-6070
루가	-6071
▁어떠	-6072
:2018	-6073
▁닛폰	-6074
▁싱어송라이터	-6075
고가	-6076
▁가치	-6077
▁신화	-6078
▁맡아	-6079
▁프로토	-6080
▁1931	-6081
:2015	-6082
▁사태	-6083
OW	-6084
문제	-6085
트랙	-6086
해군	-6087
▁지내	-6088
▁활동했다	-6089
▁All	-6090
▁리드	-6091
▁김기	-6092
▁한나라당	-6093
▁굿	-6094
▁체코	-6095
▁존재하는	-6096
▁동방	-6097
▁아야	-6098
▁묶	-6099
anc	-6100
▁대구광역시	-6101
보통학교	-6102
티노	-6103
(14	-6104
▁빠르게	-6105
미르	-6106
간에	-6107
료로	-6108
▁가슴	-6109
▁주최	-6110
▁메모리	-6111
▁대통령이	-6112
통을	-6113
▁프랑크	-6114
▁감사	-6115
▁데이터베이스	-6116
▁향해	-6117
▁미스	-6118
▁김씨	-6119
▁되자	-6120
▁죽었다	-6121
▁진압	-6122
등급	-6123
▁김상	-6124
종을	-6125
▁(2002	-6126
-12	-6127
▁이씨	-6128
국유철도의	-6129
▁그러한	-6130
▁목표로	-6131
총리	-6132
▁1/	-6133
▁코르	-6134
▁1924	-6135
처스	-6136
▁SM	-6137
▁진화	-6138
▁bar	-6139
베르트	-6140
TS	-6141
고의	-6142
▁매니	-6143
▁사전	-6144
베리	-6145
겠다는	-6146
ican	-6147
우주연상	-6148
▁Single	-6149
▁열렸다	-6150
▁Am	-6151
▁110	-6152
어버	-6153
▁시작한다	-6154
▁여기에	-6155
▁넷	-6156
뿐만	-6157
츠키	-6158
▁포도	-6159
▁이후로	-6160
▁유행	-6161
(6	-6162
▁스프링	-6163
주차	-6164
▁엑스	-6165
▁이사장	-6166
건을	-6167
▁가요	-6168
명과	-6169
무리	-6170
헤이	-6171
▁사용자	-6172
▁선거에서	-6173
▁(2003	-6174
▁대학교에서	-6175
교를	-6176
▁하나는	-6177
크를	-6178
▁해에	-6179
▁브레이	-6180
▁주연으로	-6181
▁깃	-6182
▁좁	-6183
▁롱	-6184
▁지냈	-6185
▁않았고	-6186
일스	-6187
ley	-6188
▁새겨	-6189
하였지만	-6190
에선	-6191
▁SC	-6192
▁다리	-6193
▁포위	-6194
▁에르	-6195
▁훌	-6196
인터	-6197
▁오키	-6198
▁가졌다	-6199
▁시위	-6200
▁평가를	-6201
▁Art	-6202
계약	-6203
▁치러	-6204
이닝	-6205
▁전직	-6206
명에	-6207
▁바이에른	-6208
회는	-6209
▁넥	-6210
▁모아	-6211
oot	-6212
음에도	-6213
루의	-6214
▁카운	-6215
▁전동차	-6216
▁벡터	-6217
구조	-6218
▁101	-6219
▁묵	-6220
워즈	-6221
▁정수	-6222
등의	-6223
▁속의	-6224
▁극장판	-6225
iew	-6226
▁않으며	-6227
마에	-6228
:10	-6229
▁아메리칸	-6230
절한	-6231
강의	-6232
▁루트	-6233
▁준결승	-6234
▁브레	-6235
▁지은	-6236
▁CP	-6237
등이	-6238
▁김경	-6239
▁그때	-6240
▁독특	-6241
제르	-6242
니치	-6243
▁말았다	-6244
▁71	-6245
▁간행	-6246
충청	-6247
▁일찍	-6248
-7	-6249
▁에드워드	-6250
실의	-6251
프라	-6252
▁테스트	-6253
▁여동생	-6254
내에	-6255
▁발굴	-6256
▁문화재자료	-6257
▁이은	-6258
▁텐	-6259
▁심리	-6260
▁알려졌다	-6261
토시	-6262
▁0.3	-6263
▁개원	-6264
▁실질	-6265
▁장비	-6266
▁Gr	-6267
▁구글	-6268
란드의	-6269
▁수학자	-6270
월의	-6271
▁이벤	-6272
▁사냥	-6273
ject	-6274
▁크레	-6275
port	-6276
개로	-6277
▁모여	-6278
irl	-6279
▁도모	-6280
곡을	-6281
부사	-6282
이센	-6283
키퍼	-6284
소수자	-6285
▁MVP	-6286
지인	-6287
ream	-6288
트릭	-6289
▁무대	-6290
▁월화	-6291
레옹	-6292
▁훈장	-6293
▁기구	-6294
수한	-6295
▁그렇게	-6296
▁미군	-6297
iam	-6298
▁되며	-6299
▁작품은	-6300
▁수도권	-6301
부터는	-6302
▁우리는	-6303
ower	-6304
부대	-6305
거래	-6306
▁소설가	-6307
스페인의	-6308
▁공업	-6309
▁무신	-6310
▁알리	-6311
페이스	-6312
히코	-6313
▁글을	-6314
▁사임	-6315
▁예수	-6316
▁운동을	-6317
동과	-6318
▁세상을	-6319
▁Digital	-6320
▁1929	-6321
선과	-6322
▁히트	-6323
▁속한다	-6324
▁명단	-6325
▁이룬다	-6326
▁궤도	-6327
▁제작한	-6328
▁환승	-6329
했었다	-6330
▁다수의	-6331
▁$	-6332
▁소송	-6333
▁갖는	-6334
▁분위	-6335
▁올려	-6336
▁감독이	-6337
▁z	-6338
▁La	-6339
ins	-6340
▁라이프	-6341
▁아테네	-6342
▁(2001	-6343
▁문제로	-6344
▁디스크	-6345
▁Go	-6346
믹스	-6347
enc	-6348
▁부장	-6349
▁엘리자	-6350
금의	-6351
플로	-6352
▁이름의	-6353
▁농민	-6354
▁디스	-6355
▁어워드	-6356
▁연산	-6357
▁화산	-6358
ode	-6359
▁사마	-6360
▁우려	-6361
만은	-6362
▁능력	-6363
▁여왕	-6364
중화	-6365
▁논의	-6366
▁펜싱	-6367
프란	-6368
▁중세	-6369
▁크라	-6370
▁썼다	-6371
▁세계의	-6372
▁조절	-6373
▁싫	-6374
니시	-6375
월호	-6376
▁닫	-6377
재를	-6378
클린	-6379
▁시즌에	-6380
▁뮌헨	-6381
▁파르	-6382
카타	-6383
▁포스트	-6384
▁부친	-6385
▁나이로	-6386
▁의정부	-6387
▁캡	-6388
-16	-6389
▁세력	-6390
▁첼	-6391
다의	-6392
▁자전	-6393
화학	-6394
펙트	-6395
▁유일하게	-6396
▁무시	-6397
▁것이며	-6398
▁Gu	-6399
▁고시	-6400
국장	-6401
▁Hist	-6402
▁이들의	-6403
▁파악	-6404
▁결방	-6405
▁노래를	-6406
▁카라	-6407
▁크리	-6408
ward	-6409
클럽	-6410
▁군대를	-6411
▁바뀌었다	-6412
▁79	-6413
▁멀리	-6414
▁일부를	-6415
▁시리즈의	-6416
비행	-6417
▁어떠한	-6418
▁박영	-6419
▁준다	-6420
럼비아	-6421
▁형태를	-6422
▁제공한다	-6423
병을	-6424
▁점점	-6425
▁타율	-6426
수이다	-6427
▁싱가포르	-6428
▁사용되고	-6429
▁크리스티	-6430
▁모바일	-6431
▁John	-6432
▁졸업생	-6433
보살	-6434
▁모양의	-6435
▁스틸	-6436
몰년	-6437
구리	-6438
▁or	-6439
방의	-6440
▁코스	-6441
▁재단	-6442
▁차별	-6443
공신	-6444
▁달려	-6445
▁길을	-6446
▁이세	-6447
라에	-6448
▁is	-6449
▁Press	-6450
oul	-6451
바의	-6452
서양	-6453
▁역이	-6454
파크	-6455
▁경우에	-6456
way	-6457
▁돕	-6458
▁예정이다	-6459
▁SP	-6460
▁문장	-6461
▁훗날	-6462
▁임진왜란	-6463
GB	-6464
▁두산	-6465
에서만	-6466
황후	-6467
▁혐의로	-6468
▁무인	-6469
▁과학자	-6470
수산	-6471
▁즈	-6472
▁시모	-6473
▁인종	-6474
▁받았고	-6475
▁안타	-6476
▁서일본	-6477
▁아이디	-6478
▁나타난다	-6479
▁스타크래프트	-6480
▁논문	-6481
▁그들이	-6482
▁동성	-6483
▁속도	-6484
▁평안	-6485
▁연습	-6486
▁정확한	-6487
으로서의	-6488
▁1923	-6489
▁1925	-6490
▁an	-6491
▁부속	-6492
▁클로	-6493
계가	-6494
ystem	-6495
유치원	-6496
▁골키퍼	-6497
▁감독을	-6498
온의	-6499
▁기원	-6500
▁쳐	-6501
기지	-6502
▁듣고	-6503
▁시게	-6504
▁크로아	-6505
▁하나인	-6506
▁일치	-6507
▁학위를	-6508
▁뷰	-6509
▁아빠	-6510
▁항성	-6511
▁똑	-6512
▁의학	-6513
▁고베	-6514
스티벌	-6515
ade	-6516
▁전화	-6517
▁119	-6518
▁일시	-6519
주고	-6520
▁사우스	-6521
아나	-6522
▁합쳐	-6523
들이다	-6524
▁특이	-6525
▁딜	-6526
니가	-6527
inal	-6528
▁파티	-6529
▁당시에는	-6530
▁확률	-6531
계열	-6532
국으로	-6533
랐다	-6534
▁포함한다	-6535
▁CM	-6536
로와	-6537
순위	-6538
~)	-6539
▁다수	-6540
▁Gre	-6541
관에	-6542
▁동구	-6543
▁학문	-6544
▁혼합	-6545
▁1921	-6546
▁오스만	-6547
름을	-6548
▁백제	-6549
▁시리아	-6550
▁태어났으며	-6551
▁6,	-6552
▁갤럭	-6553
경에	-6554
right	-6555
▁번의	-6556
▁Par	-6557
▁신학	-6558
▁반대로	-6559
▁위대한	-6560
▁1900	-6561
책을	-6562
▁혼자	-6563
▁예능	-6564
카미	-6565
▁관련자	-6566
투아	-6567
▁고종	-6568
▁인기가	-6569
▁하위	-6570
▁풍부	-6571
▁스파이	-6572
▁1926	-6573
토미	-6574
한국당	-6575
산화	-6576
▁이웃	-6577
▁레이블	-6578
소와	-6579
▁나왔다	-6580
▁드림	-6581
▁빌보드	-6582
▁익스	-6583
▁현상	-6584
되었을	-6585
▁바르셀로나	-6586
▁퀴	-6587
▁전당	-6588
ternational	-6589
▁순서	-6590
안의	-6591
▁클레	-6592
▁어깨	-6593
영국	-6594
시에서	-6595
동맹	-6596
▁터널	-6597
기구	-6598
▁창작	-6599
▁사용된	-6600
주인	-6601
리타	-6602
▁무너	-6603
▁마음을	-6604
▁기록이	-6605
▁아파트	-6606
▁없으며	-6607
티오	-6608
하였다고	-6609
ius	-6610
▁가문의	-6611
설을	-6612
▁요미	-6613
▁유기	-6614
▁연주자	-6615
▁나타낸다	-6616
▁프로그래밍	-6617
특수	-6618
판이	-6619
▁탈퇴	-6620
▁폐쇄	-6621
▁노르웨이	-6622
IP	-6623
▁메리	-6624
▁칼리지	-6625
▁띄	-6626
식에	-6627
▁War	-6628
▁금메달리스트	-6629
▁않게	-6630
발전	-6631
▁ar	-6632
:2020	-6633
라와	-6634
▁04	-6635
▁말에	-6636
였지만	-6637
▁(1)	-6638
이었지만	-6639
선에서	-6640
SC	-6641
▁드럼	-6642
네덜란드	-6643
베트남	-6644
▁불렀다	-6645
▁하였으나	-6646
▁주어진	-6647
되었다가	-6648
드와	-6649
이므로	-6650
▁1.5	-6651
▁돈을	-6652
▁전부	-6653
▁하였으며	-6654
센트	-6655
주의를	-6656
▁DNA	-6657
▁부상을	-6658
▁식물상	-6659
▁역사적	-6660
혁명	-6661
▁수목	-6662
▁할아버지	-6663
지정	-6664
▁뚜	-6665
비에	-6666
석은	-6667
▁교명	-6668
▁처형	-6669
▁다음날	-6670
표를	-6671
▁단지	-6672
▁인쇄	-6673
스케이	-6674
▁앞에서	-6675
▁영화는	-6676
치기	-6677
▁사유	-6678
▁전쟁의	-6679
▁이후의	-6680
:2004	-6681
▁뜻하는	-6682
무늬	-6683
▁1922	-6684
어져	-6685
▁나폴레옹	-6686
▁웰	-6687
ual	-6688
▁닉	-6689
▁신의	-6690
슬라	-6691
▁요금	-6692
▁푸른	-6693
▁1-0	-6694
▁오이	-6695
▁트위	-6696
▁의미를	-6697
▁것이라	-6698
공산	-6699
주었다	-6700
▁둘러싸	-6701
▁일부는	-6702
-9	-6703
▁Car	-6704
▁제작에	-6705
▁앉	-6706
기까지	-6707
▁지금은	-6708
▁89	-6709
▁그로	-6710
▁600	-6711
:2017	-6712
산에	-6713
시아드	-6714
▁로렌	-6715
▁돔	-6716
니스탄	-6717
▁조선총독	-6718
▁들고	-6719
▁선전	-6720
▁후원	-6721
▁세르비아	-6722
▁위치한다	-6723
▁관계가	-6724
▁단백질	-6725
▁음악을	-6726
▁목소	-6727
▁임기	-6728
▁군의	-6729
르가	-6730
영화제	-6731
▁젠	-6732
▁곡을	-6733
▁조선시대	-6734
대부	-6735
색의	-6736
났고	-6737
▁1927	-6738
애나	-6739
ank	-6740
▁없다는	-6741
▁발명	-6742
▁꼽	-6743
섰다	-6744
▁작업을	-6745
▁250	-6746
슨의	-6747
실은	-6748
▁AP	-6749
▁갔	-6750
▁연구를	-6751
▁84	-6752
동은	-6753
▁이미지	-6754
세트	-6755
▁의혹	-6756
▁발견된다	-6757
ings	-6758
▁선박	-6759
▁심사	-6760
▁And	-6761
▁있음을	-6762
▁팽	-6763
aj	-6764
공식	-6765
라이트	-6766
ott	-6767
▁따로	-6768
▁역은	-6769
▁알레	-6770
▁전신	-6771
하우스	-6772
▁들어서	-6773
▁안에서	-6774
▁스테이지	-6775
스팅	-6776
▁행렬	-6777
졸업생	-6778
ull	-6779
▁다스	-6780
▁사람들의	-6781
물은	-6782
▁연관	-6783
▁마침내	-6784
▁한신	-6785
▁ex	-6786
▁랩	-6787
해가	-6788
라디	-6789
▁지금까지	-6790
일과	-6791
▁정원	-6792
▁힙합	-6793
▁AT	-6794
▁한성	-6795
▁목소리	-6796
장군	-6797
▁부탁	-6798
▁다큐멘	-6799
▁돌아온	-6800
▁전력	-6801
너먼트	-6802
▁변형	-6803
▁THE	-6804
▁가지는	-6805
주와	-6806
편성	-6807
석의	-6808
▁명확	-6809
▁인지	-6810
▁Op	-6811
▁히가시	-6812
▁좋아하는	-6813
▁바이러스	-6814
▁보유하고	-6815
▁해야	-6816
하였던	-6817
▁오랫	-6818
▁전면	-6819
▁한일	-6820
주시의	-6821
▁발음	-6822
▁캐나다의	-6823
고리	-6824
▁800	-6825
행성	-6826
▁토모	-6827
▁흘러	-6828
▁출시되었다	-6829
▁주식회사	-6830
▁공장	-6831
▁싸움	-6832
▁),	-6833
▁대동	-6834
▁맡은	-6835
▁섞	-6836
령이	-6837
▁86	-6838
▁주제	-6839
타는	-6840
계에서	-6841
▁후보로	-6842
▁침입	-6843
▁가고	-6844
▁텍사스	-6845
▁짜	-6846
▁로빈	-6847
▁성을	-6848
▁접촉	-6849
▁펼쳐	-6850
라디오	-6851
카스	-6852
▁곡은	-6853
▁빨간	-6854
▁메트로	-6855
중의	-6856
▁쓰이는	-6857
칸센	-6858
▁바깥	-6859
▁상무	-6860
▁수리	-6861
▁소멸	-6862
주의의	-6863
▁새벽	-6864
▁중지	-6865
정원	-6866
sc	-6867
▁Ac	-6868
보험	-6869
▁선정되었다	-6870
▁레지	-6871
경이	-6872
:2013	-6873
작전	-6874
▁EBS	-6875
선생	-6876
▁감독으로	-6877
▁포함하여	-6878
▁뱀	-6879
▁다이묘	-6880
▁행동을	-6881
▁남극	-6882
▁1912	-6883
니스트	-6884
▁Christ	-6885
▁전통적인	-6886
▁주전	-6887
미나	-6888
▁상당한	-6889
▁인접	-6890
▁인디언	-6891
▁거두었다	-6892
▁카페	-6893
복을	-6894
ere	-6895
▁안드로	-6896
▁(2020	-6897
▁못하는	-6898
▁오랫동안	-6899
▁DJ	-6900
▁sh	-6901
▁상황에서	-6902
▁아버지의	-6903
▁트윈	-6904
▁망명	-6905
▁론	-6906
▁유효	-6907
▁편찬	-6908
▁아웃	-6909
▁방법으로	-6910
씨가	-6911
▁신체	-6912
|2	-6913
▁필립	-6914
레의	-6915
▁이원	-6916
▁갔다	-6917
▁text	-6918
▁분열	-6919
폴리스	-6920
red	-6921
임이	-6922
▁함락	-6923
LE	-6924
보기	-6925
▁활동하고	-6926
포트	-6927
▁마산	-6928
▁com	-6929
▁보기	-6930
점의	-6931
자원	-6932
▁실현	-6933
일본국유철도의	-6934
▁사망한	-6935
이면	-6936
▁병합	-6937
▁병설	-6938
▁메달	-6939
대원	-6940
소방	-6941
▁정체	-6942
▁일본어	-6943
▁정책을	-6944
▁맨체스터	-6945
Pa	-6946
각을	-6947
고는	-6948
▁느낌	-6949
▁이토	-6950
화되어	-6951
MA	-6952
▁속한	-6953
▁전형	-6954
▁교육을	-6955
▁82	-6956
친구	-6957
▁좌우	-6958
▁어려운	-6959
▁발발	-6960
특별출연	-6961
▁말하는	-6962
▁에릭	-6963
▁그랜드	-6964
▁가리키는	-6965
▁방정	-6966
▁철수	-6967
협의회	-6968
▁새롭게	-6969
(10	-6970
▁골을	-6971
▁내용은	-6972
▁Comp	-6973
▁노출	-6974
시키기	-6975
챌린	-6976
rid	-6977
:1990	-6978
강전	-6979
중인	-6980
함과	-6981
().	-6982
▁81	-6983
▁검색	-6984
▁저서	-6985
▁공헌	-6986
▁급행	-6987
해져	-6988
▁수호	-6989
▁시상식	-6990
▁영원	-6991
▁메이지	-6992
▁발렌	-6993
▁자신들의	-6994
▁승려	-6995
▁왕자	-6996
마가	-6997
마리	-6998
▁CH	-6999
가족	-7000
▁시조	-7001
▁왕의	-7002
▁한양	-7003
▁올렸다	-7004
▁것이라는	-7005
▁다르게	-7006
▁긍	-7007
▁포맷	-7008
▁{	-7009
▁강등	-7010
▁동북	-7011
▁하차	-7012
단지	-7013
하루	-7014
.15	-7015
▁(1990	-7016
erm	-7017
▁부동	-7018
치오	-7019
:2007	-7020
▁센트	-7021
▁제공하는	-7022
sk	-7023
que	-7024
▁얻은	-7025
▁많아	-7026
레이터	-7027
▁곱	-7028
교육청	-7029
▁청춘	-7030
머리	-7031
▁배급	-7032
amb	-7033
▁엄청난	-7034
▁졸업하고	-7035
가능	-7036
▁고객	-7037
▁점수	-7038
▁끝나	-7039
당과	-7040
▁구로	-7041
▁자라	-7042
▁퓨	-7043
▁구입	-7044
▁폐지된	-7045
베트	-7046
시안	-7047
▁네이션	-7048
▁공개된	-7049
열차	-7050
▁사격	-7051
.03.01	-7052
스럽게	-7053
▁섹	-7054
별로	-7055
▁입력	-7056
▁103	-7057
▁클리	-7058
▁이현	-7059
▁스카이	-7060
올린	-7061
코프	-7062
▁이나	-7063
▁연기대상	-7064
▁처벌	-7065
▁기울	-7066
les	-7067
▁역이다	-7068
▁이루어졌다	-7069
ames	-7070
5,	-7071
나르	-7072
채널	-7073
크가	-7074
▁col	-7075
민의	-7076
▁명예의	-7077
균관	-7078
▁상태로	-7079
▁유럽의	-7080
주쿠	-7081
▁전원	-7082
▁표창	-7083
▁지상역이다	-7084
MS	-7085
▁커버	-7086
▁해당한다	-7087
▁바닥	-7088
▁침략	-7089
▁순환	-7090
자이너	-7091
▁만들어졌다	-7092
▁두려	-7093
▁겹	-7094
결과	-7095
▁어드	-7096
▁평론가	-7097
▁대부분은	-7098
▁식품	-7099
▁토론토	-7100
▁메탈	-7101
▁발간	-7102
▁자매	-7103
▁la	-7104
▁0.5	-7105
들로부터	-7106
▁추구	-7107
단과	-7108
▁알고리즘	-7109
▁지바	-7110
내셔널	-7111
지방법원	-7112
▁유성	-7113
▁자극	-7114
▁지방도	-7115
▁활동하였다	-7116
▁계통	-7117
OD	-7118
▁대우	-7119
▁아동	-7120
▁멀티	-7121
세스	-7122
▁2:	-7123
▁부분을	-7124
(20	-7125
▁간다	-7126
▁대개	-7127
▁개그	-7128
▁법무	-7129
▁집에	-7130
▁영광	-7131
▁오버	-7132
▁화려	-7133
▁공화당	-7134
함이	-7135
▁남양	-7136
▁가진다	-7137
▁승부	-7138
▁장르	-7139
권도	-7140
▁명을	-7141
▁규모의	-7142
▁공중	-7143
▁폭탄	-7144
▁공연을	-7145
▁월요일	-7146
내기	-7147
ner	-7148
▁탐사	-7149
웨이트	-7150
▁재배	-7151
▁디비시	-7152
▁알렉산드	-7153
역사	-7154
연을	-7155
역에서	-7156
▁이경	-7157
▁내렸다	-7158
▁로마의	-7159
▁연호	-7160
▁재즈	-7161
▁Day	-7162
▁배구	-7163
▁지시	-7164
▁87	-7165
▁동경	-7166
▁성향	-7167
▁완벽	-7168
로디	-7169
루타	-7170
바다	-7171
▁카즈	-7172
▁새누리	-7173
:2002	-7174
훈련	-7175
▁맞아	-7176
▁Ge	-7177
▁연간	-7178
▁성적을	-7179
제도	-7180
▁1917	-7181
▁프리드리	-7182
▁7,	-7183
▁명칭은	-7184
Th	-7185
▁선임	-7186
▁시작된	-7187
we	-7188
▁이노	-7189
▁이진	-7190
:2009	-7191
▁AC	-7192
▁그랑	-7193
▁후계	-7194
▁Amer	-7195
inc	-7196
▁거듭	-7197
▁한화	-7198
▁130	-7199
▁전송	-7200
▁대화	-7201
▁브라이언	-7202
▁기회를	-7203
▁독특한	-7204
PC	-7205
▁WWE	-7206
▁설치된	-7207
지어	-7208
▁여섯	-7209
하므로	-7210
달러	-7211
▁월간	-7212
사령부	-7213
▁스피드	-7214
Al	-7215
▁발견되었다	-7216
브로	-7217
역의	-7218
▁출처	-7219
▁안토니	-7220
▁(1998	-7221
▁미리	-7222
조정	-7223
Feat	-7224
▁가치가	-7225
▁돌아와	-7226
▁배포	-7227
▁이르러	-7228
IR	-7229
▁갑자기	-7230
▁활약을	-7231
서울대학교	-7232
어요	-7233
평균	-7234
▁겸임	-7235
▁단어	-7236
▁재건	-7237
어야	-7238
▁금메달을	-7239
▁갤럭시	-7240
▁마천	-7241
eth	-7242
ement	-7243
후쿠	-7244
▁드래프트	-7245
▁존재하지	-7246
▁1907	-7247
▁토너먼트	-7248
타니	-7249
▁재생	-7250
▁콘텐츠	-7251
▁유닛	-7252
▁일일	-7253
ous	-7254
▁기다	-7255
UN	-7256
▁가마	-7257
리에서	-7258
정당	-7259
▁와카	-7260
▁의식	-7261
▁이글	-7262
색으로	-7263
▁말이다	-7264
▁Res	-7265
▁일으키	-7266
▁규슈	-7267
▁신칸센	-7268
▁다소	-7269
▁초상	-7270
서울특별시의	-7271
▁복원	-7272
ograp	-7273
측면	-7274
▁기둥	-7275
▁일부가	-7276
▁운항	-7277
▁만들고	-7278
▁진행되었다	-7279
지면	-7280
▁나뉜	-7281
▁챌린	-7282
▁일어났다	-7283
▁(5	-7284
▁93	-7285
▁콜롬	-7286
▁낸	-7287
▁개입	-7288
▁돌려	-7289
▁공격수	-7290
▁방영된	-7291
▁성소수자	-7292
▁옵	-7293
▁구매	-7294
격한	-7295
▁도쿄도	-7296
▁시가	-7297
▁게임을	-7298
진은	-7299
호사	-7300
앨범	-7301
▁BBC	-7302
:2019	-7303
니까	-7304
활동	-7305
▁힌	-7306
루미	-7307
str	-7308
인에게	-7309
▁83	-7310
▁.3	-7311
ye	-7312
타임	-7313
▁편이다	-7314
▁관직	-7315
다이라	-7316
▁남아프리카	-7317
▁고교	-7318
▁입고	-7319
▁(10	-7320
▁대표하는	-7321
히고	-7322
▁신도	-7323
ute	-7324
▁상임	-7325
▁조지아	-7326
층의	-7327
▁철거	-7328
▁가담	-7329
▁위로	-7330
강원	-7331
▁구미	-7332
▁연료	-7333
▁혈액	-7334
금융	-7335
당시	-7336
ese	-7337
▁마라	-7338
▁임무	-7339
▁용산	-7340
심의	-7341
▁자리에	-7342
▁Music	-7343
▁광복	-7344
▁만든다	-7345
▁대통령의	-7346
▁사람들을	-7347
▁편의	-7348
▁2.0	-7349
▁받았으며	-7350
전사	-7351
▁동시	-7352
▁주석	-7353
▁경제적	-7354
▁일본에	-7355
:14	-7356
▁(1996	-7357
▁가상	-7358
▁재임	-7359
▁National	-7360
IG	-7361
ym	-7362
노르	-7363
▁심판	-7364
▁92	-7365
(13	-7366
테쓰	-7367
▁개신교	-7368
터의	-7369
▁재학	-7370
▁덩	-7371
▁서울시	-7372
▁펑	-7373
▁적합	-7374
인명	-7375
▁보여준다	-7376
재단	-7377
▁굳	-7378
우가	-7379
▁근본	-7380
EL	-7381
▁사실이	-7382
▁심각한	-7383
런트	-7384
oo	-7385
▁대한민국에서는	-7386
▁분명	-7387
▁역사를	-7388
년제	-7389
▁만다	-7390
▁작품으로	-7391
▁확립	-7392
▁수비수	-7393
아카	-7394
:1988	-7395
▁Qu	-7396
▁정치인이다	-7397
▁톱	-7398
▁94	-7399
▁국토	-7400
업체	-7401
정리	-7402
▁호소	-7403
▁눈에	-7404
자로서	-7405
▁나누어	-7406
친다	-7407
▁유적	-7408
▁절반	-7409
ors	-7410
▁마무리	-7411
▁멈	-7412
▁(1997	-7413
▁폴리	-7414
락을	-7415
타스	-7416
▁연구소	-7417
to	-7418
▁밝은	-7419
▁성씨	-7420
▁해도	-7421
경은	-7422
공간	-7423
르노	-7424
받는	-7425
ric	-7426
▁변화를	-7427
▁특정한	-7428
▁놓고	-7429
▁사양	-7430
▁마르크	-7431
▁Fran	-7432
아파트	-7433
이로	-7434
널드	-7435
카오	-7436
▁설득	-7437
로지	-7438
▁아가	-7439
▁Ind	-7440
:1992	-7441
도리	-7442
되었다고	-7443
:1996	-7444
▁하원의원	-7445
조참	-7446
▁방송일	-7447
▁포함하고	-7448
아웃	-7449
▁OS	-7450
▁하인	-7451
식물	-7452
전과	-7453
▁할머니	-7454
▁1908	-7455
데이트	-7456
▁(1989	-7457
계는	-7458
ana	-7459
▁08	-7460
▁교류	-7461
app	-7462
▁인용	-7463
ater	-7464
▁기소	-7465
▁파트너	-7466
▁쏘	-7467
었을	-7468
▁대원	-7469
하여야	-7470
▁않지만	-7471
▁전문가	-7472
CN	-7473
▁플레이어	-7474
▁쿨	-7475
9)	-7476
이시	-7477
했다가	-7478
▁연결하는	-7479
▁IT	-7480
orea	-7481
▁Ver	-7482
▁공무원	-7483
중한	-7484
과학기술	-7485
▁금요일	-7486
▁교향	-7487
▁기동	-7488
▁부담	-7489
▁말레이시아	-7490
▁사업을	-7491
통일	-7492
▁필요가	-7493
▁일종이다	-7494
▁기호	-7495
▁세리에	-7496
)/	-7497
라를	-7498
수리	-7499
▁빚	-7500
박사	-7501
ument	-7502
▁부분이	-7503
▁상속	-7504
III	-7505
비로	-7506
분으로	-7507
sp	-7508
▁천주교	-7509
▁발탁	-7510
▁광역	-7511
▁인증	-7512
집합	-7513
▁자원	-7514
미사	-7515
▁조명	-7516
▁창간	-7517
정과	-7518
▁그라	-7519
▁아트	-7520
▁임금	-7521
▁2-1	-7522
▁필요하다	-7523
hel	-7524
▁축제	-7525
종으로	-7526
▁내용이	-7527
▁메르	-7528
▁중추	-7529
▁추기	-7530
▁곳으로	-7531
▁논리	-7532
▁초청	-7533
▁쓰여	-7534
▁이루고	-7535
ution	-7536
수사	-7537
▁재능	-7538
스트로	-7539
▁신고	-7540
")	-7541
▁출력	-7542
▁발레	-7543
▁양의	-7544
▁대회에	-7545
▁입장을	-7546
▁토마스	-7547
문은	-7548
투표	-7549
카가	-7550
▁수의	-7551
여자대학교	-7552
▁1906	-7553
▁프로이센	-7554
▁SN	-7555
▁Dr	-7556
▁시스템을	-7557
토스	-7558
▁(1994	-7559
▁세계대전	-7560
▁관여	-7561
▁특급	-7562
▁방해	-7563
▁데뷔하였다	-7564
격으로	-7565
▁105	-7566
치게	-7567
ral	-7568
▁로즈	-7569
▁주장하였다	-7570
ener	-7571
▁않으면	-7572
디자인	-7573
oph	-7574
▁주기	-7575
able	-7576
▁몸을	-7577
▁첩	-7578
▁남녀	-7579
▁받아들여	-7580
안타	-7581
조부	-7582
▁모드	-7583
▁사퇴	-7584
평군	-7585
후보	-7586
▁무비	-7587
▁연인	-7588
▁자랑	-7589
만으로	-7590
▁셔	-7591
▁윗	-7592
▁상을	-7593
▁여수	-7594
생의	-7595
▁쓰러	-7596
▁나아가	-7597
▁도쿠가와	-7598
▁현지	-7599
▁오디션	-7600
소송	-7601
▁Mon	-7602
▁파울	-7603
민당	-7604
▁설립인가	-7605
▁(1995	-7606
▁이탈	-7607
▁떠났다	-7608
▁외계	-7609
▁이들을	-7610
▁현장	-7611
▁앨런	-7612
치에	-7613
▁개찰	-7614
▁암호	-7615
▁희극	-7616
▁디자이너	-7617
▁NC	-7618
브레	-7619
▁Co	-7620
프란시스코	-7621
▁프리드리히	-7622
실이	-7623
▁높다	-7624
스페인	-7625
▁어머니는	-7626
▁빌딩	-7627
▁오빠	-7628
▁왕이	-7629
▁효과를	-7630
▁et	-7631
▁토지	-7632
▁하에	-7633
▁물리학	-7634
▁역에서	-7635
▁말이	-7636
▁학살	-7637
▁친선	-7638
▁합동	-7639
▁수익	-7640
로써	-7641
▁블록	-7642
▁구원	-7643
▁무용	-7644
또는	-7645
▁방지	-7646
▁나라의	-7647
기독교	-7648
▁가미	-7649
하지는	-7650
포를	-7651
▁시마	-7652
▁오직	-7653
▁전까지	-7654
아라	-7655
▁상관	-7656
▁다큐멘터리	-7657
식품	-7658
▁Ap	-7659
카리	-7660
▁사촌	-7661
▁중에는	-7662
▁기도	-7663
▁호는	-7664
들에서	-7665
▁작동	-7666
▁크고	-7667
▁유통	-7668
청년	-7669
▁보이지	-7670
▁타입	-7671
▁람	-7672
감이	-7673
▁부천	-7674
▁이순	-7675
되는데	-7676
운트	-7677
보건	-7678
었기	-7679
▁그것이	-7680
▁얻을	-7681
▁Eng	-7682
▁소화	-7683
▁스크린	-7684
▁1905	-7685
파이어	-7686
▁상태에서	-7687
▁삽입	-7688
니카	-7689
일드	-7690
res	-7691
법으로	-7692
▁갖는다	-7693
제이	-7694
▁건담	-7695
라면	-7696
▁UN	-7697
▁본명	-7698
▁열차가	-7699
군사	-7700
▁정류	-7701
홈런	-7702
만한	-7703
▁영혼	-7704
듯이	-7705
urn	-7706
▁태조	-7707
▁자리잡	-7708
리며	-7709
라트	-7710
▁05	-7711
▁실점	-7712
▁연고	-7713
▁카나	-7714
▁사쿠라	-7715
▁없을	-7716
▁2-0	-7717
▁퀘	-7718
▁날개	-7719
▁카자	-7720
▁지위를	-7721
비히	-7722
터가	-7723
▁초등학교이다	-7724
▁입장	-7725
▁방송사	-7726
▁음반은	-7727
▁언덕	-7728
.18	-7729
기사	-7730
령의	-7731
베리아	-7732
십자	-7733
폴리	-7734
▁발언	-7735
▁북구	-7736
▁관련이	-7737
▁발생하는	-7738
▁?)	-7739
▁집권	-7740
▁선생님	-7741
포스	-7742
▁till	-7743
▁문을	-7744
었다고	-7745
▁지역으로	-7746
▁사이클	-7747
노리	-7748
▁Off	-7749
▁알렉산더	-7750
▁불렸다	-7751
▁항공기	-7752
▁특징이다	-7753
론이	-7754
▁Ag	-7755
▁분해	-7756
▁위키	-7757
▁청구	-7758
▁완전한	-7759
▁주제가	-7760
▁포인트	-7761
파로	-7762
▁점이	-7763
▁상실	-7764
런스	-7765
망을	-7766
▁가면	-7767
▁혼인	-7768
▁주소	-7769
oon	-7770
▁관객	-7771
▁박정희	-7772
▁픽처스	-7773
조건	-7774
▁91	-7775
▁One	-7776
▁반란을	-7777
▁아버지가	-7778
▁신장	-7779
백만	-7780
터는	-7781
파를	-7782
▁만난	-7783
▁투쟁	-7784
▁도시의	-7785
▁박지	-7786
▁갖추고	-7787
▁02.	-7788
▁1,000	-7789
발을	-7790
창군	-7791
▁Gl	-7792
▁요미우리	-7793
▁있었다고	-7794
ren	-7795
:1998	-7796
▁상대적으로	-7797
▁보르	-7798
▁구성원	-7799
전국	-7800
▁기념물	-7801
▁공산주의	-7802
▁레벨	-7803
▁박근	-7804
▁다이아	-7805
▁연구에	-7806
▁겉	-7807
▁나왔	-7808
▁페르시아	-7809
스웨덴	-7810
▁몰아	-7811
▁복음	-7812
▁Soc	-7813
▁왕조의	-7814
▁지니고	-7815
UEFA	-7816
▁에스파	-7817
▁우리가	-7818
▁잊	-7819
▁긍정	-7820
▁도덕	-7821
▁노선을	-7822
▁되는데	-7823
▁순천	-7824
처를	-7825
▁변신	-7826
▁사건의	-7827
▁크리스토	-7828
▁닮	-7829
포구	-7830
▁해피	-7831
▁오프닝	-7832
▁복무	-7833
▁외무	-7834
▁플레	-7835
▁성공을	-7836
▁배틀	-7837
다시	-7838
파는	-7839
▁벌어진	-7840
▁이름이다	-7841
례를	-7842
▁이복	-7843
▁착공	-7844
아메리칸	-7845
불교	-7846
▁사카	-7847
ean	-7848
▁오리콘	-7849
▁이라크	-7850
▁Ab	-7851
▁보았다	-7852
▁위에서	-7853
검사	-7854
▁권리	-7855
재인	-7856
▁의심	-7857
바나	-7858
ve	-7859
▁예방	-7860
▁서기	-7861
▁각본가	-7862
▁민영화	-7863
ML	-7864
▁호남	-7865
▁오타	-7866
▁유아	-7867
느냐	-7868
위와	-7869
▁+1	-7870
▁생태	-7871
라이더	-7872
▁Comm	-7873
▁유치원	-7874
▁럭	-7875
▁탓	-7876
hem	-7877
▁결성된	-7878
▁이로써	-7879
▁대한민국에서	-7880
▁에디	-7881
▁높이는	-7882
세츠	-7883
연의	-7884
rat	-7885
▁측면	-7886
자들에게	-7887
▁리가	-7888
▁양산	-7889
모의	-7890
병대	-7891
▁갈색	-7892
화되었다	-7893
▁데에	-7894
▁열매	-7895
▁즉시	-7896
▁Rep	-7897
▁서브	-7898
▁타격	-7899
▁기록은	-7900
▁만들기	-7901
ret	-7902
▁가야	-7903
구미	-7904
아리	-7905
▁나타나는	-7906
그레	-7907
▁손을	-7908
▁재산	-7909
▁첫째	-7910
▁일본인	-7911
생을	-7912
▁개별	-7913
:1994	-7914
▁게임의	-7915
▁여겨진다	-7916
▁미국과	-7917
▁실내	-7918
▁필수	-7919
되어야	-7920
는지	-7921
▁수요	-7922
▁십자	-7923
몬드	-7924
▁함경	-7925
오사카	-7926
▁이관	-7927
▁아들인	-7928
온은	-7929
▁다운로드	-7930
▁참여했다	-7931
체와	-7932
▁루마니아	-7933
▁랑	-7934
일반	-7935
▁개량	-7936
▁쥬	-7937
▁방송을	-7938
▁끌어	-7939
▁스콧	-7940
▁해적	-7941
미아	-7942
사이드	-7943
▁타케	-7944
▁빅토리아	-7945
▁정이	-7946
▁역사가	-7947
▁그만	-7948
▁일정한	-7949
▁락	-7950
민족행위	-7951
▁한국방송	-7952
▁고려대학교	-7953
천리	-7954
▁검토	-7955
▁비서	-7956
브리지	-7957
▁트럼	-7958
▁보험	-7959
▁카메	-7960
▁명칭을	-7961
▁초기의	-7962
▁사용하였다	-7963
▁(1987	-7964
6,	-7965
▁진영	-7966
ble	-7967
▁소련의	-7968
▁형식으로	-7969
▁감시	-7970
▁사형	-7971
특별위원회	-7972
▁오케	-7973
▁도호쿠	-7974
▁인구가	-7975
▁안녕	-7976
▁위치를	-7977
도사	-7978
ett	-7979
▁여러가지	-7980
▁조용	-7981
▁코난	-7982
▁있었기	-7983
de	-7984
모가	-7985
▁않음	-7986
우스의	-7987
▁공룡	-7988
▁대부분이	-7989
▁리얼	-7990
▁폭스	-7991
▁남구	-7992
▁덧붙	-7993
▁리틀	-7994
du	-7995
미즈	-7996
.20	-7997
▁소스	-7998
▁추락	-7999
▁콜로	-8000
▁전쟁에	-8001
▁기록하며	-8002
▁이윤	-8003
▁평택	-8004
▁피겨	-8005
바야시	-8006
▁삿	-8007
▁아케	-8008
▁엔딩	-8009
강에	-8010
▁커피	-8011
ensis	-8012
▁관계로	-8013
▁모터	-8014
▁인상	-8015
▁선수단	-8016
▁책을	-8017
목적	-8018
▁상주	-8019
▁음성	-8020
▁운영하고	-8021
▁추가로	-8022
ha	-8023
범위	-8024
▁그녀가	-8025
▁책임을	-8026
시픽	-8027
식과	-8028
▁호주	-8029
▁크로아티아	-8030
스피	-8031
lect	-8032
.19	-8033
▁마주	-8034
▁대법	-8035
▁못하였다	-8036
마를	-8037
▁밀라노	-8038
▁한국인	-8039
▁가끔	-8040
유대	-8041
▁가쓰	-8042
▁유학	-8043
▁수상하였다	-8044
▁프리미어리그	-8045
▁탱	-8046
론은	-8047
▁되돌	-8048
▁1909	-8049
▁좋지	-8050
세르	-8051
▁입은	-8052
평을	-8053
-09	-8054
▁AR	-8055
▁부진	-8056
▁후임	-8057
▁걷	-8058
니와	-8059
▁잭슨	-8060
▁1911	-8061
▁이전에는	-8062
ery	-8063
▁뜻은	-8064
▁벗어나	-8065
▁갱	-8066
스톤	-8067
▁의장	-8068
사추	-8069
▁만한	-8070
▁크다	-8071
co	-8072
사한	-8073
▁sp	-8074
▁TBS	-8075
무스	-8076
▁모노	-8077
▁1896	-8078
▁사건으로	-8079
▁뮤직비디오	-8080
프가니스탄	-8081
▁차남	-8082
▁업데이트	-8083
자동	-8084
▁이른다	-8085
주의적	-8086
▁CON	-8087
▁팔레	-8088
▁폭력	-8089
▁상황을	-8090
투니버스	-8091
▁물을	-8092
▁160	-8093
메르	-8094
백과	-8095
▁영구	-8096
숭이	-8097
▁전반기	-8098
▁주장한다	-8099
▁밀려	-8100
환으로	-8101
픽셀	-8102
▁박성	-8103
▁지점	-8104
▁표면	-8105
▁일어나는	-8106
uss	-8107
▁다니엘	-8108
TA	-8109
▁1)	-8110
물에	-8111
▁운영하는	-8112
▁장면	-8113
▁스미스	-8114
가루	-8115
▁착용	-8116
▁보스턴	-8117
▁대전광역시	-8118
▁쌀	-8119
끼리	-8120
청장	-8121
▁코믹	-8122
공동	-8123
▁확산	-8124
이후	-8125
▁부부	-8126
▁기종	-8127
▁삶을	-8128
▁암컷	-8129
▁쿠데	-8130
icial	-8131
▁부분은	-8132
air	-8133
▁이인	-8134
팩트	-8135
음력	-8136
▁복수	-8137
▁일대	-8138
▁차단	-8139
터미널	-8140
정동	-8141
▁07	-8142
▁1~	-8143
▁성직	-8144
▁화합	-8145
▁06	-8146
▁브래	-8147
▁전작	-8148
▁보여주는	-8149
▁일컫	-8150
▁이끌었다	-8151
▁대한민국인	-8152
시민	-8153
▁참가한	-8154
파일	-8155
▁공산당	-8156
▁섬의	-8157
인치	-8158
기인	-8159
▁아베	-8160
현을	-8161
▁목숨	-8162
어리	-8163
같이	-8164
▁명령을	-8165
파가	-8166
▁명나라	-8167
▁출연하였다	-8168
각형	-8169
트롤	-8170
▁직전	-8171
덕션	-8172
▁생애	-8173
조판서	-8174
-01	-8175
.30	-8176
▁빌리	-8177
▁일은	-8178
▁타운	-8179
▁신부	-8180
▁불참	-8181
▁스톤	-8182
▁영양	-8183
▁des	-8184
족이	-8185
▁대체로	-8186
▁김포	-8187
▁Sup	-8188
▁들어갔다	-8189
▁미즈	-8190
▁항구	-8191
▁졸	-8192
▁CJ	-8193
▁오는	-8194
▁영화의	-8195
▁We	-8196
▁세력을	-8197
▁불가리아	-8198
목을	-8199
▁모음	-8200
▁2)	-8201
▁(1988	-8202
▁가라	-8203
▁맞서	-8204
다란	-8205
▁1-1	-8206
어트	-8207
▁도서	-8208
▁아틀레	-8209
▁Rec	-8210
▁죽음을	-8211
▁속해	-8212
▁인터페이스	-8213
▁고급	-8214
▁선조	-8215
▁연세대학교	-8216
활동을	-8217
▁360	-8218
▁출연하였고	-8219
af	-8220
▁성경	-8221
▁없게	-8222
500	-8223
▁민중	-8224
▁싫어	-8225
▁위상	-8226
▁테니스	-8227
재로	-8228
▁개방	-8229
라델	-8230
▁휠	-8231
▁작품의	-8232
▁참여한	-8233
집을	-8234
스케이팅	-8235
▁이후에도	-8236
▁소형	-8237
▁게다가	-8238
7,	-8239
▁기록되어	-8240
▁140	-8241
▁대변	-8242
▁곳이다	-8243
▁곰	-8244
▁남겼다	-8245
▁출전하여	-8246
▁덜	-8247
▁추적	-8248
▁정권	-8249
▁페스티벌	-8250
ini	-8251
▁지구의	-8252
▁주문	-8253
▁주지	-8254
▁앞으로	-8255
스위	-8256
▁나뉜다	-8257
재위	-8258
시노	-8259
▁주립	-8260
조지	-8261
▁사도	-8262
나마	-8263
울산	-8264
하키	-8265
▁인류	-8266
▁이상이	-8267
오와	-8268
(12	-8269
▁Ro	-8270
▁이르렀다	-8271
▁역임하였다	-8272
와라	-8273
즈가	-8274
▁미네	-8275
▁1,0	-8276
▁나타났다	-8277
▁경력	-8278
▁미키	-8279
▁세웠	-8280
▁시라	-8281
▁윙	-8282
여성	-8283
▁리듬	-8284
▁라이벌	-8285
▁탐험	-8286
바키아	-8287
년부터는	-8288
돌프	-8289
르바	-8290
▁입법	-8291
▁신한	-8292
▁유고	-8293
▁번호는	-8294
▁고위	-8295
테스	-8296
▁Air	-8297
제와	-8298
:2005	-8299
▁생년	-8300
사추세츠	-8301
지이다	-8302
조차	-8303
힌다	-8304
▁2.5	-8305
▁되기	-8306
▁1913	-8307
oss	-8308
▁센트럴	-8309
육군	-8310
▁싸우	-8311
▁굵	-8312
▁ed	-8313
▁집필	-8314
차는	-8315
▁아시안컵	-8316
왕은	-8317
▁해협	-8318
제국의	-8319
▁수록곡	-8320
MI	-8321
니즘	-8322
▁원래는	-8323
▁방식을	-8324
경기도의	-8325
▁크리스마스	-8326
▁테일러	-8327
▁International	-8328
▁사용했다	-8329
▁신용	-8330
▁정무	-8331
▁근처에	-8332
▁클라우	-8333
▁설립되었다	-8334
▁엘리자베스	-8335
▁이자	-8336
▁여성의	-8337
▁1904	-8338
▁가까이	-8339
me	-8340
▁버지	-8341
▁지향	-8342
ave	-8343
▁래퍼	-8344
ara	-8345
▁허가	-8346
▁대통령은	-8347
▁8,	-8348
▁석유	-8349
▁이루는	-8350
▁낙선	-8351
▁마루	-8352
▁미카	-8353
▁양쪽	-8354
▁헤비	-8355
▁호세	-8356
▁}	-8357
▁동반	-8358
▁산하	-8359
▁키스	-8360
린이	-8361
▁무라	-8362
▁여우	-8363
▁조건을	-8364
▁개장	-8365
oid	-8366
▁격파	-8367
▁Life	-8368
▁(1993	-8369
이야	-8370
▁국장	-8371
▁진학	-8372
▁Per	-8373
▁이병	-8374
▁밝혀졌다	-8375
FF	-8376
▁이케	-8377
MB	-8378
나타	-8379
▁구마	-8380
▁수술	-8381
▁동서	-8382
경찰서	-8383
되지만	-8384
rit	-8385
▁춘천	-8386
▁테크	-8387
론에	-8388
▁장편	-8389
▁초등	-8390
▁그녀를	-8391
조선민주주의	-8392
LA	-8393
▁At	-8394
▁말해	-8395
▁종사	-8396
▁특성	-8397
▁올림픽에서	-8398
가스	-8399
▁권력	-8400
▁MP	-8401
▁직결	-8402
▁북아메리카	-8403
▁거행	-8404
▁선포	-8405
▁남쪽으로	-8406
▁사람들에게	-8407
배를	-8408
▁참가자	-8409
등록	-8410
▁고고	-8411
▁전쟁에서	-8412
▁북극	-8413
▁서술	-8414
▁700	-8415
:1980	-8416
클라	-8417
▁충남	-8418
▁Rev	-8419
생명	-8420
초의	-8421
카르	-8422
▁PS	-8423
ky	-8424
▁유치	-8425
▁세계적으로	-8426
양이	-8427
▁진짜	-8428
학에서	-8429
▁연결되어	-8430
▁102	-8431
▁완공된	-8432
▁차관	-8433
▁납치	-8434
▁히틀러	-8435
▁유니버시아드	-8436
▁사막	-8437
▁존스	-8438
▁(1992	-8439
터널	-8440
▁가시	-8441
▁Gro	-8442
▁일으켜	-8443
▁1500	-8444
▁그곳에서	-8445
▁토니	-8446
시스트	-8447
▁pl	-8448
▁대량	-8449
▁경기가	-8450
▁경전	-8451
▁김승	-8452
▁노무	-8453
▁집을	-8454
안이	-8455
▁황태	-8456
▁시범	-8457
▁시드니	-8458
▁매각	-8459
▁혁신	-8460
▁직무	-8461
공을	-8462
▁제네	-8463
▁참가했다	-8464
여단	-8465
▁실종	-8466
▁초에	-8467
DP	-8468
▁꺼	-8469
총장	-8470
▁공기	-8471
▁항의	-8472
사상	-8473
▁중장	-8474
실에서	-8475
▁주장을	-8476
▁비롯하여	-8477
▁지속적으로	-8478
▁병설유치원	-8479
▁샬	-8480
edia	-8481
▁III	-8482
▁동안에	-8483
OK	-8484
역에	-8485
중심	-8486
폐합	-8487
▁일곱	-8488
/2	-8489
▁서명	-8490
▁일상	-8491
▁Can	-8492
홍콩	-8493
▁금강	-8494
CC	-8495
▁결의	-8496
▁농촌	-8497
▁이행	-8498
도니아	-8499
▁밸	-8500
기자	-8501
▁복잡한	-8502
▁시로	-8503
MP	-8504
▁램	-8505
.16	-8506
▁삭제	-8507
▁지지를	-8508
▁남아있	-8509
▁이온	-8510
▁자가	-8511
수아	-8512
▁브로	-8513
▁따서	-8514
▁세우	-8515
공화당	-8516
▁소식을	-8517
▁세상	-8518
▁로맨스	-8519
슬라비아	-8520
▁구멍	-8521
▁사기	-8522
여자중학교	-8523
▁탑승	-8524
▁소요	-8525
▁미니시리즈	-8526
▁가즈	-8527
▁동화	-8528
▁월화드라마	-8529
▁펄	-8530
그로	-8531
영은	-8532
▁새누리당	-8533
▁진실	-8534
▁우라	-8535
▁가난	-8536
텐도	-8537
▁상대식	-8538
▁개체	-8539
▁곤충	-8540
▁조별리그	-8541
ris	-8542
▁그리스의	-8543
▁긴급	-8544
았으나	-8545
ose	-8546
▁레코	-8547
▁이화	-8548
▁실천	-8549
맥스	-8550
▁원더	-8551
▁광주광역시	-8552
▁기본적으로	-8553
게는	-8554
▁흑인	-8555
▁질량	-8556
▁하기도	-8557
스틴	-8558
▁감정	-8559
▁억제	-8560
▁다음의	-8561
▁원인	-8562
▁하트	-8563
▁어두	-8564
apan	-8565
▁노동자	-8566
:1995	-8567
:1999	-8568
▁새끼	-8569
▁언더	-8570
시절	-8571
▁내놓	-8572
▁늑	-8573
▁세트	-8574
▁시립	-8575
▁문제에	-8576
▁유전자	-8577
천만	-8578
▁Sm	-8579
기능	-8580
그리스	-8581
▁디즈니	-8582
오로	-8583
▁(17	-8584
▁0.4	-8585
▁Har	-8586
▁단순한	-8587
▁이외의	-8588
편의	-8589
▁북미	-8590
▁득표수	-8591
▁까지	-8592
▁프로리그	-8593
▁갓	-8594
▁좋다	-8595
▁든	-8596
▁나타내	-8597
▁소속의	-8598
▁추방	-8599
요코	-8600
▁오노	-8601
orth	-8602
▁있으므로	-8603
라미	-8604
▁넣어	-8605
▁대대	-8606
▁들면	-8607
대책	-8608
렬한	-8609
▁김병	-8610
▁1.2	-8611
본을	-8612
▁개척	-8613
▁매장	-8614
▁대상이	-8615
율을	-8616
조로	-8617
▁수료	-8618
▁비잔	-8619
▁사가	-8620
상업	-8621
▁쿼	-8622
가공의	-8623
▁사다	-8624
▁여의	-8625
▁ro	-8626
▁번주	-8627
버스터	-8628
웨이의	-8629
▁스즈키	-8630
▁친일반	-8631
▁>	-8632
▁임신	-8633
▁지불	-8634
▁최대의	-8635
▁하여금	-8636
▁분야에서	-8637
▁닐	-8638
리크	-8639
말로	-8640
▁랭킹	-8641
▁Pol	-8642
범죄	-8643
속의	-8644
ald	-8645
▁원주민	-8646
▁임무를	-8647
▁충북	-8648
▁초기에	-8649
▁출연했다	-8650
▁사찰	-8651
▁한강	-8652
중이다	-8653
탐정	-8654
▁공정	-8655
▁종이	-8656
▁10,	-8657
쟁이	-8658
▁가깝	-8659
▁마시	-8660
▁역명	-8661
▁통행	-8662
곡동	-8663
양을	-8664
▁가사	-8665
▁심장	-8666
▁이며	-8667
▁피고	-8668
▁당시에	-8669
▁별도의	-8670
▁토머스	-8671
▁관심	-8672
▁*#	-8673
▁올림	-8674
▁이광	-8675
▁중동	-8676
▁회사의	-8677
▁Will	-8678
▁메가	-8679
▁프로필	-8680
▁했는데	-8681
보로	-8682
▁방언	-8683
▁이른바	-8684
▁모래	-8685
▁그들을	-8686
평화	-8687
▁주파	-8688
CS	-8689
▁디젤	-8690
▁업무를	-8691
ene	-8692
▁입단하였다	-8693
역은	-8694
회관	-8695
▁비정	-8696
▁김준	-8697
고려의	-8698
라며	-8699
월일	-8700
되게	-8701
왼쪽	-8702
▁우익	-8703
▁자전거	-8704
▁도루	-8705
▁서서	-8706
▁시즈	-8707
차의	-8708
타가	-8709
▁포함하는	-8710
서구	-8711
코토	-8712
▁페이스북	-8713
▁선출되었다	-8714
▁필름	-8715
▁데이터를	-8716
▁고가	-8717
▁해운	-8718
▁고양이	-8719
현이	-8720
▁나쁜	-8721
▁신동	-8722
인명사전	-8723
▁백성	-8724
ions	-8725
▁최상	-8726
▁게임이다	-8727
▁자금	-8728
기계	-8729
오스트레일리아의	-8730
▁왕비	-8731
▁수소	-8732
▁Ass	-8733
▁우리의	-8734
협력	-8735
▁대선	-8736
▁압축	-8737
▁이벤트	-8738
Cl	-8739
ever	-8740
▁홈런을	-8741
란다	-8742
실록	-8743
▁틈	-8744
▁면적	-8745
▁체험	-8746
▁충분히	-8747
▁마감	-8748
▁꾸준	-8749
▁학원	-8750
렸으며	-8751
▁박상	-8752
ouse	-8753
▁아래에	-8754
▁이태	-8755
▁왕족	-8756
▁1895	-8757
환을	-8758
▁탄핵	-8759
크라	-8760
▁패러	-8761
▁Sci	-8762
▁붙어	-8763
▁에이스	-8764
▁영국에서	-8765
▁as	-8766
▁이어지는	-8767
디아라비아	-8768
▁신흥	-8769
▁후인	-8770
▁Her	-8771
▁Time	-8772
mp	-8773
▁근육	-8774
▁내세	-8775
▁년도	-8776
▁칼리	-8777
▁전투를	-8778
▁황후	-8779
▁인텔	-8780
▁케이블	-8781
산성	-8782
우옌	-8783
공사의	-8784
간이	-8785
▁자문	-8786
태평양	-8787
na	-8788
ific	-8789
▁여신	-8790
▁아래와	-8791
니에	-8792
학사	-8793
▁부르고	-8794
해양	-8795
현대	-8796
▁Of	-8797
▁좌익	-8798
루과	-8799
판은	-8800
▁128	-8801
▁도시로	-8802
▁레슬링	-8803
▁받아들이	-8804
세한	-8805
▁모임	-8806
▁권력을	-8807
▁친일반민족행위	-8808
▁휴대	-8809
능력	-8810
랑이	-8811
모어	-8812
▁무릎	-8813
▁호흡	-8814
:1991	-8815
▁음반이다	-8816
고쿠	-8817
리케이션	-8818
▁커뮤니티	-8819
벤처	-8820
우스는	-8821
▁살아남	-8822
:2003	-8823
▁출신이다	-8824
전투	-8825
its	-8826
▁글씨	-8827
▁사령관	-8828
▁계속해서	-8829
▁4:	-8830
로에	-8831
eph	-8832
▁배정	-8833
▁동굴	-8834
▁파키스탄	-8835
▁(1991	-8836
악기	-8837
▁벼슬	-8838
야스	-8839
도어	-8840
▁AS	-8841
▁무료	-8842
▁진행자	-8843
▁제니	-8844
▁학자	-8845
▁개인의	-8846
즈를	-8847
▁un	-8848
:1984	-8849
.14	-8850
▁안산	-8851
▁모습이	-8852
작사	-8853
구장	-8854
▁마이크	-8855
▁울산광역시	-8856
▁상영	-8857
▁이들이	-8858
린의	-8859
▁본질	-8860
▁비틀	-8861
▁뼈	-8862
고에	-8863
▁수컷	-8864
▁왕립	-8865
▁다크	-8866
▁역의	-8867
▁평생	-8868
:1989	-8869
NN	-8870
국어	-8871
ason	-8872
▁브라질의	-8873
마뱀	-8874
▁입사	-8875
서비스	-8876
▁못한다	-8877
▁!	-8878
▁GK	-8879
▁전임	-8880
ited	-8881
Ar	-8882
호와	-8883
▁걸친	-8884
▁사건에	-8885
ari	-8886
▁스트라이	-8887
되거나	-8888
▁아레나	-8889
에서부터	-8890
한국방송	-8891
▁딱	-8892
나리	-8893
유니	-8894
즈니스	-8895
렉스	-8896
▁김창	-8897
▁모로	-8898
로서는	-8899
▁돌아왔다	-8900
▁공개되었다	-8901
▁발표되었다	-8902
▁Mc	-8903
눅스	-8904
바타	-8905
베르토	-8906
▁Ne	-8907
▁1.3	-8908
▁북쪽으로	-8909
여래	-8910
▁빵	-8911
▁구름	-8912
내의	-8913
▁##	-8914
▁기병	-8915
▁배열	-8916
▁아즈	-8917
▁운동가	-8918
DS	-8919
▁캘	-8920
▁해발	-8921
▁해제	-8922
▁이용할	-8923
▁폐교	-8924
▁방법은	-8925
ublic	-8926
▁고성	-8927
▁말로	-8928
▁밀양	-8929
사관학교	-8930
▁꼬리	-8931
▁History	-8932
가수	-8933
▁4.	-8934
▁미국은	-8935
왕을	-8936
▁연안	-8937
▁영주	-8938
▁한국영화	-8939
계로	-8940
속에	-8941
사지	-8942
▁특허	-8943
▁프랭크	-8944
-08	-8945
▁이창	-8946
미래	-8947
유가	-8948
▁CB	-8949
▁인조	-8950
츠의	-8951
▁손에	-8952
▁영등	-8953
관리위원회	-8954
▁트라	-8955
실로	-8956
▁끝으로	-8957
▁부드	-8958
▁본격적으로	-8959
▁To	-8960
▁드물	-8961
▁El	-8962
▁Stud	-8963
▁SH	-8964
▁말라	-8965
▁실수	-8966
분교장	-8967
ux	-8968
게이머	-8969
살이	-8970
▁향토	-8971
▁훌륭	-8972
하기를	-8973
▁반응을	-8974
-13	-8975
▁최저	-8976
▁분자	-8977
▁쇼트	-8978
▁(16	-8979
▁1915	-8980
▁본인	-8981
:1986	-8982
▁습격	-8983
▁태권도	-8984
▁동기	-8985
▁이상을	-8986
▁영화를	-8987
편곡	-8988
천동	-8989
alk	-8990
▁특징을	-8991
다니	-8992
▁관중	-8993
▁본명은	-8994
▁대표이사	-8995
▁경부	-8996
▁이마	-8997
▁구사	-8998
▁분데스	-8999
▁한반도	-9000
ference	-9001
▁대지	-9002
▁구간이	-9003
▁대표로	-9004
▁마천루	-9005
석탑	-9006
▁권리를	-9007
chn	-9008
▁구동	-9009
국에서	-9010
체육관광	-9011
▁축소	-9012
운동장	-9013
층에	-9014
ane	-9015
▁성균관	-9016
▁뻗	-9017
▁벨라	-9018
였는데	-9019
▁그리하여	-9020
▁오세	-9021
▁전의	-9022
▁문제는	-9023
EP	-9024
▁지중	-9025
지방검찰청	-9026
긴다	-9027
▁역도	-9028
자책	-9029
▁레이다	-9030
▁시내버스	-9031
▁승계	-9032
▁후반기	-9033
▁Live	-9034
티움	-9035
▁108	-9036
▁하나가	-9037
0)	-9038
▁개성	-9039
▁보좌	-9040
▁시흥	-9041
let	-9042
▁태그	-9043
outh	-9044
▁동쪽으로	-9045
수엘	-9046
▁고백	-9047
▁발생하였다	-9048
▁마케팅	-9049
▁물려	-9050
▁광범위	-9051
▁잠수함	-9052
가요	-9053
▁관할한다	-9054
▁(1986	-9055
▁Alb	-9056
▁바이올린	-9057
▁차지하고	-9058
▁단순히	-9059
▁셋째	-9060
▁104	-9061
칭은	-9062
▁(2)	-9063
▁브라우	-9064
▁플로리다	-9065
▁멋	-9066
▁강요	-9067
바이러스	-9068
▁9,	-9069
문화방송	-9070
오나	-9071
▁파이어	-9072
▁버지니아	-9073
ress	-9074
▁통폐합	-9075
모로	-9076
▁도메	-9077
▁법학	-9078
하르트	-9079
▁몬스터	-9080
▁마쓰다이라	-9081
▁노트	-9082
▁일단	-9083
산으로	-9084
▁블라디	-9085
천면	-9086
▁그렇다면	-9087
▁옛날	-9088
▁상태를	-9089
▁대한제국	-9090
▁툴	-9091
라리	-9092
통계	-9093
▁목사	-9094
연기상	-9095
용의	-9096
제품	-9097
▁아이템	-9098
일자	-9099
▁돌파	-9100
▁서쪽으로	-9101
▁Korea	-9102
프스	-9103
▁본다	-9104
▁원하는	-9105
▁성공했다	-9106
▁햄	-9107
CAF	-9108
▁하마	-9109
구에서	-9110
▁스티브	-9111
▁정교	-9112
▁언제나	-9113
▁야쿠	-9114
▁Rob	-9115
▁사고로	-9116
▁횟	-9117
.17	-9118
▁스트리트	-9119
▁정식으로	-9120
민주연합	-9121
ember	-9122
▁Bar	-9123
▁주장하는	-9124
블로	-9125
초에	-9126
▁의미하는	-9127
▁미국으로	-9128
-14	-9129
▁포함된다	-9130
▁할리	-9131
▁Station	-9132
▁가속	-9133
▁꿈을	-9134
IL	-9135
▁모듈	-9136
▁(15	-9137
▁스웨덴의	-9138
EO	-9139
▁he	-9140
▁나타난	-9141
▁Colle	-9142
사장	-9143
아스	-9144
카라	-9145
화물	-9146
▁수십	-9147
▁주력	-9148
▁제도를	-9149
▁원인이	-9150
▁위치에	-9151
RA	-9152
▁현존	-9153
▁호수	-9154
▁Star	-9155
▁감옥	-9156
▁당사	-9157
▁발휘	-9158
:1993	-9159
▁링크	-9160
▁나뉘어	-9161
▁박근혜	-9162
▁이어서	-9163
▁고지	-9164
▁동래	-9165
▁Up	-9166
▁주거	-9167
-03	-9168
▁재료	-9169
마는	-9170
.13	-9171
▁강동	-9172
▁선호	-9173
▁MS	-9174
▁유배	-9175
▁세계를	-9176
▁Girl	-9177
▁김명	-9178
▁마스	-9179
▁비평가	-9180
나게	-9181
▁가설	-9182
▁장난	-9183
▁1.4	-9184
메이크	-9185
▁개념을	-9186
▁마리오	-9187
▁본선에	-9188
▁일으켰다	-9189
▁빗	-9190
아는	-9191
▁유인	-9192
▁이적하였다	-9193
분석	-9194
▁방위	-9195
▁인도의	-9196
▁이스트	-9197
▁과학기술	-9198
ike	-9199
병으로	-9200
▁놀라	-9201
▁적도	-9202
▁광산	-9203
▁하느	-9204
▁프레임	-9205
▁거느	-9206
▁계곡	-9207
공연	-9208
유를	-9209
▁마그	-9210
▁데려	-9211
▁라스	-9212
▁바람에	-9213
▁외교관	-9214
▁모르	-9215
▁수를	-9216
▁신입	-9217
▁안성	-9218
▁피트	-9219
▁트라이	-9220
▁앱	-9221
▁프랜	-9222
▁Night	-9223
현재의	-9224
▁Bo	-9225
▁106	-9226
▁조선민주주의인민공화국의	-9227
위안	-9228
점과	-9229
▁대니	-9230
▁뤼	-9231
▁망원	-9232
▁서경	-9233
▁맥스	-9234
▁원시	-9235
▁유격	-9236
천년	-9237
▁사과	-9238
하기에	-9239
▁설치되었다	-9240
▁오렌	-9241
판에	-9242
▁(6	-9243
▁판사	-9244
▁후안	-9245
▁*****	-9246
▁쉐	-9247
하를	-9248
▁일행	-9249
▁부통령	-9250
▁고리	-9251
▁사회의	-9252
▁발매한	-9253
예를	-9254
▁발족	-9255
▁York	-9256
키가	-9257
▁잡고	-9258
▁비판을	-9259
밀한	-9260
▁이준	-9261
▁시트	-9262
▁어릴	-9263
▁cm	-9264
▁AKB	-9265
▁조선총독부	-9266
aster	-9267
키스	-9268
▁교실	-9269
▁단행	-9270
▁본토	-9271
▁숫자	-9272
케이션	-9273
▁하나님	-9274
▁갖게	-9275
▁보살	-9276
▁총재	-9277
▁테오	-9278
:1997	-9279
▁있습니다	-9280
효과	-9281
.28	-9282
ION	-9283
▁강수	-9284
▁커플	-9285
후에	-9286
▁서북	-9287
▁달하는	-9288
▁무관	-9289
▁수반	-9290
▁존슨	-9291
▁지형	-9292
▁하던	-9293
▁명으로	-9294
린은	-9295
▁미스터리	-9296
▁손님	-9297
아들	-9298
파리	-9299
▁코어	-9300
체육관	-9301
포르투갈	-9302
무기	-9303
▁ISO	-9304
나기	-9305
▁우편	-9306
%,	-9307
▁담고	-9308
▁수수	-9309
▁군대	-9310
▁수직	-9311
목으로	-9312
서와	-9313
▁영동	-9314
▁태양의	-9315
:2001	-9316
▁김선	-9317
호에	-9318
ator	-9319
▁*20	-9320
투수	-9321
▁르네	-9322
▁생방송	-9323
프로듀	-9324
▁관하여	-9325
토벤	-9326
eck	-9327
▁1916	-9328
히메	-9329
▁스타일	-9330
▁최후의	-9331
라델피아	-9332
됨에	-9333
▁김형	-9334
▁끈	-9335
틀랜	-9336
ma	-9337
▁일련의	-9338
▁했	-9339
▁컬러	-9340
호선의	-9341
▁나가사키	-9342
▁험	-9343
디에	-9344
▁기부	-9345
▁하야	-9346
▁집에서	-9347
▁경향이	-9348
▁스타리그	-9349
~18	-9350
▁하얀	-9351
가고	-9352
▁자바	-9353
▁무효	-9354
EX	-9355
▁기아	-9356
▁서머	-9357
▁3000	-9358
좌상	-9359
▁영남	-9360
▁운송	-9361
stit	-9362
ated	-9363
▁수업	-9364
▁장미	-9365
비와	-9366
참모	-9367
클레	-9368
▁국기	-9369
공단	-9370
담을	-9371
아과	-9372
침을	-9373
▁보편	-9374
발의	-9375
▁조연	-9376
▁후에도	-9377
순환	-9378
▁김윤	-9379
▁인물로	-9380
해에	-9381
▁프로게이머	-9382
네마	-9383
예프	-9384
교실	-9385
▁대칭	-9386
▁사범	-9387
▁선물	-9388
▁클래스	-9389
군단	-9390
ony	-9391
▁가득	-9392
▁조기	-9393
▁125	-9394
▁감독은	-9395
▁장애인	-9396
:1987	-9397
▁School	-9398
▁샌프란시스코	-9399
루션	-9400
▁신학자	-9401
항을	-9402
▁알라	-9403
▁독립을	-9404
세종	-9405
▁~)	-9406
▁그려져	-9407
▁생년월일	-9408
양의	-9409
▁중성	-9410
년만에	-9411
ino	-9412
▁커다란	-9413
▁조선시대의	-9414
국도	-9415
출장	-9416
▁눈을	-9417
▁발표된	-9418
▁방송된	-9419
▁영향으로	-9420
GC	-9421
다드	-9422
che	-9423
erg	-9424
▁김광	-9425
▁또다른	-9426
▁상호작용	-9427
▁도구	-9428
▁먹는	-9429
▁믹	-9430
유한	-9431
▁사용하지	-9432
▁역전	-9433
▁성격을	-9434
스코틀랜드	-9435
▁포함되었다	-9436
▁낱	-9437
▁담은	-9438
▁일종의	-9439
▁올림픽에	-9440
▁아래의	-9441
▁팩	-9442
▁전망	-9443
▁위험한	-9444
?)	-9445
▁산타	-9446
▁패턴	-9447
▁1.0	-9448
▁기하	-9449
▁0.6	-9450
▁후보가	-9451
▁가수이다	-9452
▁딴	-9453
▁쿄	-9454
슬림	-9455
▁명시	-9456
▁케빈	-9457
브라질의	-9458
억원	-9459
▁맞춰	-9460
▁IN	-9461
▁정교회	-9462
시피	-9463
았지만	-9464
대왕	-9465
▁결선	-9466
교사	-9467
▁항공사	-9468
▁대학교의	-9469
▁장갑	-9470
ates	-9471
▁있어야	-9472
▁김대중	-9473
▁프로덕션	-9474
에너	-9475
▁골프	-9476
구간	-9477
▁페르난	-9478
보다도	-9479
▁특별히	-9480
▁행위를	-9481
팀이	-9482
▁Top	-9483
▁시작했고	-9484
든지	-9485
▁적극적으로	-9486
DR	-9487
프레스	-9488
▁않기	-9489
▁유력	-9490
▁금메달	-9491
▁제주특별자치	-9492
▁수상작	-9493
▁아이스하키	-9494
ke	-9495
400	-9496
▁교차	-9497
▁때마다	-9498
▁없지만	-9499
란트	-9500
▁법원	-9501
기준	-9502
▁게르	-9503
▁나이에	-9504
▁라이언	-9505
▁경고	-9506
이라면	-9507
line	-9508
▁이끌어	-9509
파와	-9510
▁홀로	-9511
▁극복	-9512
▁미노	-9513
▁상태가	-9514
▁정부에	-9515
티코	-9516
▁칩	-9517
▁전형적인	-9518
▁막기	-9519
▁시집	-9520
▁계절	-9521
▁가치를	-9522
▁교회의	-9523
▁대학의	-9524
파르	-9525
▁일렉	-9526
플라	-9527
▁가공	-9528
▁관해	-9529
▁뚜렷	-9530
▁탄압	-9531
▁사쿠	-9532
▁네이션스컵	-9533
▁애플리케이션	-9534
▁대만	-9535
▁지연	-9536
urg	-9537
▁태종	-9538
▁강하게	-9539
▁리그에서	-9540
▁쌍둥이	-9541
▁신분	-9542
▁줄어들	-9543
류는	-9544
지점	-9545
현은	-9546
▁대외	-9547
▁스쿨	-9548
▁물고기	-9549
▁외야수	-9550
▁메디	-9551
아르헨티	-9552
▁As	-9553
메니아	-9554
▁이외에도	-9555
리조	-9556
ype	-9557
▁하와이	-9558
킨스	-9559
연속극	-9560
▁상황에	-9561
eter	-9562
▁곁	-9563
위대	-9564
당하고	-9565
▁5000	-9566
(8	-9567
▁보냈	-9568
▁포함된	-9569
▁베네치아	-9570
▁당해	-9571
▁실용	-9572
경상남도의	-9573
과장	-9574
▁미션	-9575
▁토마	-9576
▁열리는	-9577
▁물리학자	-9578
▁젤	-9579
▁코트	-9580
▁갈등	-9581
에게도	-9582
▁비례대표	-9583
리브	-9584
희의	-9585
경기에서	-9586
ij	-9587
▁사로	-9588
의정	-9589
▁사직	-9590
▁업체	-9591
▁남겨	-9592
유로	-9593
령으로	-9594
▁연락	-9595
▁진도	-9596
▁도중에	-9597
▁최근에는	-9598
Sh	-9599
▁정해	-9600
타이완	-9601
치와	-9602
▁장례	-9603
▁훔	-9604
▁불상	-9605
▁증언	-9606
▁핸드	-9607
디의	-9608
▁유발	-9609
▁하노	-9610
오르	-9611
▁게시	-9612
irst	-9613
기기	-9614
▁유물	-9615
▁하천	-9616
▁정통	-9617
▁처음에	-9618
▁탕	-9619
보의	-9620
▁수준의	-9621
▁발견한	-9622
▁지원하는	-9623
▁EX	-9624
▁예외	-9625
▁흐름	-9626
(7	-9627
.21	-9628
▁스승	-9629
▁토크	-9630
▁0.7	-9631
▁내장	-9632
Un	-9633
화점	-9634
▁소집	-9635
▁con	-9636
그라	-9637
차량	-9638
▁허락	-9639
▁주변의	-9640
▁초기에는	-9641
MC	-9642
누엘	-9643
▁압도	-9644
▁중복	-9645
▁사이타마	-9646
(9	-9647
▁거대	-9648
▁촌이	-9649
▁이하의	-9650
▁무산	-9651
▁안드레	-9652
▁하드웨어	-9653
▁추가되었다	-9654
기타	-9655
훼손	-9656
▁구리	-9657
▁주된	-9658
▁톨	-9659
~20	-9660
▁예전	-9661
▁김혜	-9662
▁순수	-9663
▁돌아오	-9664
▁color	-9665
문과	-9666
▁이날	-9667
▁베어	-9668
▁힘들	-9669
세기의	-9670
▁대부분을	-9671
처리	-9672
타케	-9673
▁참모	-9674
▁188	-9675
국인	-9676
▁잠재	-9677
▁치렀다	-9678
롤라이나	-9679
▁나나	-9680
▁호르	-9681
▁폐지되었다	-9682
▁System	-9683
ield	-9684
▁매니저	-9685
▁사람이다	-9686
마사	-9687
▁남원	-9688
▁최신	-9689
▁통화	-9690
▁Dream	-9691
▁구장	-9692
층석탑	-9693
▁2022	-9694
▁됐	-9695
노의	-9696
율이	-9697
Mar	-9698
▁등장한	-9699
▁수록되어	-9700
인간	-9701
▁Sec	-9702
계와	-9703
열을	-9704
일간	-9705
▁Pe	-9706
▁소득	-9707
▁트레	-9708
▁(1985	-9709
진영	-9710
con	-9711
inn	-9712
스테르	-9713
▁모습으로	-9714
▁싶어	-9715
실베이	-9716
▁김희	-9717
▁놓여	-9718
▁사적	-9719
▁크림	-9720
▁정확히	-9721
조연상	-9722
▁그러므로	-9723
▁사위	-9724
▁흰색	-9725
티에	-9726
▁성질	-9727
가인	-9728
란의	-9729
▁포수	-9730
▁플루	-9731
▁메모	-9732
▁무리	-9733
학교를	-9734
▁사이드	-9735
말을	-9736
119	-9737
▁그대	-9738
▁오디오	-9739
년까지는	-9740
실장	-9741
site	-9742
▁선수이자	-9743
▁사진을	-9744
아카데미	-9745
▁유대인	-9746
PD	-9747
▁맺고	-9748
정도	-9749
▁근로	-9750
건의	-9751
담당	-9752
▁GT	-9753
▁유용	-9754
매치	-9755
lex	-9756
▁대서양	-9757
▁탤	-9758
▁교과	-9759
경기장	-9760
▁두번째	-9761
:1985	-9762
▁안드로이드	-9763
▁인터뷰에서	-9764
면과	-9765
삼성	-9766
역과	-9767
▁와서	-9768
▁지대	-9769
레이크	-9770
흐스탄	-9771
아트	-9772
-23	-9773
▁토요	-9774
▁구성된다	-9775
테나	-9776
벨기에	-9777
▁지원한다	-9778
비야	-9779
ler	-9780
▁경비	-9781
강을	-9782
▁버튼	-9783
▁섬식	-9784
▁캠페	-9785
|200	-9786
▁명칭으로	-9787
▁목록이다	-9788
계승	-9789
▁GS	-9790
▁아프가니스탄	-9791
▁CR	-9792
▁참가하였다	-9793
히토	-9794
▁기능이	-9795
▁발전을	-9796
문관	-9797
미에	-9798
▁공학	-9799
▁막부	-9800
▁철저	-9801
타나베	-9802
지리	-9803
차에	-9804
았는데	-9805
▁리스트	-9806
▁보이고	-9807
▁재무	-9808
▁아마추어	-9809
-06	-9810
코는	-9811
▁베타	-9812
▁이념	-9813
하라는	-9814
헬름	-9815
하면서도	-9816
▁무선	-9817
▁색깔	-9818
▁0.9	-9819
▁황제의	-9820
▁소리를	-9821
오가	-9822
▁부제	-9823
한다면	-9824
▁은퇴한	-9825
작품	-9826
▁LA	-9827
▁지질	-9828
▁지칭	-9829
▁촉진	-9830
▁호환	-9831
▁Lib	-9832
▁디비전	-9833
초등학교로	-9834
▁고안	-9835
▁자신은	-9836
족은	-9837
▁많았다	-9838
프로듀서	-9839
▁케네	-9840
▁다룬	-9841
▁되찾	-9842
▁칠레	-9843
글로	-9844
▁캐스팅	-9845
▁부르기도	-9846
▁얀	-9847
▁마에	-9848
▁별로	-9849
사리	-9850
▁단선	-9851
▁펀	-9852
▁경제학	-9853
▁관계에	-9854
▁대다	-9855
푸르트	-9856
라기	-9857
▁산화	-9858
▁언니	-9859
신으로	-9860
▁0.8	-9861
▁베토벤	-9862
벌레	-9863
▁극단	-9864
하이오	-9865
▁VS	-9866
▁실업	-9867
▁그들	-9868
▁누나	-9869
▁야생	-9870
▁총괄	-9871
▁더글	-9872
버리	-9873
제주	-9874
▁국정	-9875
avid	-9876
▁방송인	-9877
시기	-9878
적이며	-9879
▁(12	-9880
▁아비	-9881
플러스	-9882
▁받으며	-9883
터와	-9884
▁넘겨	-9885
▁피에	-9886
반의	-9887
▁리치	-9888
▁파이널	-9889
▁일본국유	-9890
▁우즈	-9891
▁쿠바	-9892
▁부상으로	-9893
lo	-9894
▁107	-9895
▁마치고	-9896
▁트럭	-9897
▁붙잡	-9898
법과	-9899
법률	-9900
▁걸려	-9901
▁장로	-9902
▁땅을	-9903
▁응우옌	-9904
실베이니아	-9905
▁실제로는	-9906
운동을	-9907
,2	-9908
미노	-9909
주식	-9910
▁당나라	-9911
조선민주주의인민공화국의	-9912
투자	-9913
▁기여했다	-9914
▁쓴다	-9915
▁일으킨	-9916
▁주목을	-9917
의가	-9918
▁맞추	-9919
▁복구	-9920
ille	-9921
▁하사	-9922
:13	-9923
▁be	-9924
▁아울	-9925
영사관	-9926
ange	-9927
▁CPU	-9928
번지	-9929
▁아서	-9930
▁한국에서	-9931
권과	-9932
ze	-9933
▁01.	-9934
▁덕분에	-9935
▁하다가	-9936
대수	-9937
▁되기도	-9938
▁진격	-9939
▁thumb	-9940
전주	-9941
▁우정	-9942
▁흙	-9943
동기	-9944
lin	-9945
케이팅	-9946
▁프로토콜	-9947
▁Not	-9948
▁의견을	-9949
▁여인	-9950
▁이소	-9951
An	-9952
이스케	-9953
분야	-9954
▁시절에	-9955
erc	-9956
▁위기	-9957
DA	-9958
▁킨	-9959
안은	-9960
▁적응	-9961
ford	-9962
▁원자력	-9963
▁회색	-9964
▁영토를	-9965
ebsite	-9966
▁템	-9967
▁CS	-9968
▁산다	-9969
▁아파	-9970
라이어	-9971
령은	-9972
생년	-9973
▁비중	-9974
▁적을	-9975
▁중학교이다	-9976
ms	-9977
▁BS	-9978
▁IP	-9979
▁어른	-9980
▁유우	-9981
▁후쿠시마	-9982
CH	-9983
노프	-9984
선수권	-9985
사기	-9986
▁범주	-9987
▁아는	-9988
▁소설을	-9989
▁입었다	-9990
ative	-9991
향을	-9992
군에게	-9993
▁간접	-9994
▁파생	-9995
래의	-9996
▁위탁	-9997
▁찾는	-9998
▁추억	-9999
▁우체국	-10000
▁불렀	-10001
▁토벌	-10002
▁기지	-10003
▁소규모	-10004
제프	-10005
▁선형	-10006
▁드라이브	-10007
▁않았지만	-10008
전대	-10009
▁내는	-10010
▁몸무	-10011
▁청와	-10012
지방도	-10013
▁종로구	-10014
뮤직	-10015
미와	-10016
버러	-10017
▁독재	-10018
▁자식	-10019
▁사건은	-10020
성도	-10021
▁수감	-10022
▁민주주의	-10023
청의	-10024
▁GP	-10025
▁1.6	-10026
▁스마트폰	-10027
▁서초	-10028
▁도움이	-10029
암리	-10030
▁성과	-10031
▁착륙	-10032
▁캠프	-10033
보면	-10034
자스	-10035
자연	-10036
▁Don	-10037
▁분기점	-10038
:1983	-10039
▁석방	-10040
▁미하	-10041
▁서남	-10042
▁들어간	-10043
▁편입되었다	-10044
▁CC	-10045
▁노리	-10046
▁찬성	-10047
슈타인	-10048
▁톤	-10049
▁리스	-10050
▁장성	-10051
:1982	-10052
▁사람으로	-10053
▁SU	-10054
▁헐	-10055
uck	-10056
▁저널	-10057
▁대단	-10058
▁약탈	-10059
▁목요일	-10060
▁분류군	-10061
▁기타리스트	-10062
▁플레이스테이션	-10063
컴퓨터	-10064
루는	-10065
▁자체가	-10066
▁티베트	-10067
전한	-10068
▁시간에	-10069
▁시간은	-10070
음의	-10071
플러	-10072
uth	-10073
▁필드	-10074
하에서	-10075
very	-10076
▁맺었다	-10077
▁범위	-10078
메이저	-10079
진군	-10080
▁헌액	-10081
▁Your	-10082
▁의도	-10083
over	-10084
▁열었다	-10085
▁있으면	-10086
▁Song	-10087
치지	-10088
회로	-10089
▁부처	-10090
-02	-10091
▁공간을	-10092
▁Park	-10093
▁데뷔했다	-10094
-)	-10095
온다	-10096
▁소위	-10097
▁뜻으로	-10098
GM	-10099
-07	-10100
판의	-10101
▁계층	-10102
트리올	-10103
▁세워진	-10104
▁김유	-10105
▁튜	-10106
영을	-10107
LS	-10108
ps	-10109
▁뚫	-10110
리야	-10111
▁고통	-10112
▁전술	-10113
나스	-10114
▁Kn	-10115
▁오지	-10116
리노이	-10117
▁노선이	-10118
▁선배	-10119
▁기반을	-10120
▁Cont	-10121
▁은메달리스트	-10122
▁Bro	-10123
네의	-10124
▁뒤로	-10125
▁성의	-10126
▁다루는	-10127
기서	-10128
▁결심	-10129
▁끝내	-10130
덴마크	-10131
▁크기가	-10132
▁오키나와	-10133
ersion	-10134
▁과거에	-10135
▁뜻이다	-10136
▁사제	-10137
▁게이트	-10138
슬리	-10139
▁고민	-10140
▁건물은	-10141
급의	-10142
살렘	-10143
졌다고	-10144
▁인물이다	-10145
▁AN	-10146
▁tr	-10147
▁도심	-10148
▁양도	-10149
▁원내	-10150
▁아무런	-10151
CE	-10152
▁스탈	-10153
▁화려한	-10154
▁영화배우이다	-10155
런던	-10156
출소	-10157
▁직책	-10158
▁밖으로	-10159
▁획득했다	-10160
보안	-10161
▁맥도	-10162
▁후퇴	-10163
.(	-10164
네가	-10165
무로	-10166
▁거리를	-10167
▁170	-10168
▁콜롬비아	-10169
공파	-10170
▁간에	-10171
바이트	-10172
▁텔	-10173
sch	-10174
▁윤치	-10175
여행	-10176
츠는	-10177
▁엔지	-10178
▁정유	-10179
▁딘	-10180
되던	-10181
▁비스	-10182
▁정재	-10183
▁살았다	-10184
▁전체를	-10185
▁톈	-10186
▁포크	-10187
였다고	-10188
구성	-10189
탄을	-10190
▁02	-10191
▁타자	-10192
바이잔	-10193
▁목숨을	-10194
▁굽	-10195
러브	-10196
▁세대	-10197
▁엉	-10198
▁지었다	-10199
▁강을	-10200
우크	-10201
▁Des	-10202
포드	-10203
▁귀환	-10204
▁상상	-10205
▁주오	-10206
동면	-10207
역학	-10208
▁잃어버	-10209
▁굉	-10210
미스	-10211
▁데스	-10212
호선과	-10213
▁Best	-10214
제르바이잔	-10215
용을	-10216
▁원형	-10217
▁언론인	-10218
▁오피스	-10219
제한	-10220
티의	-10221
서원	-10222
▁그럼	-10223
▁모모	-10224
▁싶은	-10225
▁중소	-10226
▁주변에	-10227
▁오스트레일리아의	-10228
실에	-10229
이게	-10230
▁중시	-10231
루살렘	-10232
▁(1984	-10233
생산	-10234
▁미분	-10235
▁체조	-10236
▁지역이	-10237
▁관람	-10238
▁벗어	-10239
▁교수로	-10240
▁남아메리카	-10241
▁활성화	-10242
받침	-10243
▁양식	-10244
▁후한	-10245
우를	-10246
▁동치	-10247
▁본부	-10248
▁중국어	-10249
▁백인	-10250
ball	-10251
▁되었는데	-10252
▁왓	-10253
회전	-10254
▁페어	-10255
▁Mag	-10256
▁군사를	-10257
▁막내	-10258
▁트위터	-10259
저지	-10260
▁수성	-10261
군다	-10262
▁109	-10263
▁입대	-10264
▁멸종	-10265
▁상의	-10266
▁Cor	-10267
▁못하게	-10268
▁심지어	-10269
▁독점	-10270
▁박종	-10271
▁자율	-10272
▁도카이	-10273
▁상태에	-10274
▁생각을	-10275
▁이명박	-10276
악의	-10277
▁곳은	-10278
▁소총	-10279
▁KIA	-10280
▁샹	-10281
하니	-10282
▁의거	-10283
▁크레이	-10284
▁퍼시픽	-10285
CACAF	-10286
▁충격	-10287
▁독립운동가	-10288
▁Ev	-10289
러스트	-10290
(199	-10291
▁115	-10292
▁차트에서	-10293
▁화면	-10294
▁판정	-10295
▁적어도	-10296
▁질환	-10297
▁생일	-10298
프라이	-10299
▁반대하는	-10300
▁중에서도	-10301
▁칙	-10302
고시	-10303
디는	-10304
▁입문	-10305
▁거친	-10306
▁뛰고	-10307
▁법인	-10308
공무원	-10309
▁동아시아	-10310
규칙	-10311
▁카트	-10312
실한	-10313
any	-10314
관계를	-10315
ael	-10316
까지도	-10317
▁있다가	-10318
▁나를	-10319
▁응답	-10320
▁올라가	-10321
마저	-10322
특집	-10323
▁곳을	-10324
▁제도의	-10325
▁지내고	-10326
갔고	-10327
▁미시	-10328
▁사자	-10329
▁죽고	-10330
▁최연	-10331
▁카를로스	-10332
▁올린	-10333
생활을	-10334
▁무슬림	-10335
모는	-10336
관과	-10337
▁성당	-10338
▁마녀	-10339
▁반지	-10340
▁화폐	-10341
▁문재인	-10342
▁미국에	-10343
▁보이며	-10344
▁졸업한	-10345
tr	-10346
통상	-10347
▁대조	-10348
돌이	-10349
▁im	-10350
▁삶의	-10351
▁심야	-10352
Pro	-10353
국제공항	-10354
▁참가하여	-10355
모니	-10356
EBS	-10357
황제	-10358
ena	-10359
바흐	-10360
▁소환	-10361
▁Black	-10362
▁PR	-10363
▁민속	-10364
▁삼았다	-10365
▁1889	-10366
▁전성	-10367
▁먹는다	-10368
쳤고	-10369
▁과도	-10370
▁행정동	-10371
▁결승전에서	-10372
펙트럼	-10373
연한	-10374
▁DC	-10375
▁연계	-10376
▁창당	-10377
브스	-10378
시대에	-10379
erson	-10380
GA	-10381
▁스케이팅	-10382
▁소니	-10383
▁오가	-10384
▁일자	-10385
직할	-10386
▁cl	-10387
▁시노	-10388
▁얻게	-10389
투아니아	-10390
▁사랑하는	-10391
▁일본국유철도	-10392
▁나선	-10393
▁정사	-10394
▁헤드	-10395
졌으나	-10396
▁두려워	-10397
▁성과를	-10398
▁So	-10399
▁Sw	-10400
▁감각	-10401
▁후의	-10402
오고	-10403
▁이슈	-10404
리자	-10405
바스	-10406
전공	-10407
책임	-10408
▁거제	-10409
졌을	-10410
.31	-10411
▁산악	-10412
▁흐르는	-10413
동리	-10414
▁용의	-10415
▁루트비히	-10416
경남	-10417
▁당신	-10418
▁나가노	-10419
▁1898	-10420
즈와	-10421
▁무궁	-10422
대리	-10423
소스	-10424
▁실시된	-10425
▁마키	-10426
▁111	-10427
번길	-10428
ures	-10429
▁112	-10430
▁차지하였다	-10431
▁대로	-10432
▁시그	-10433
▁일로	-10434
▁충주	-10435
▁1.8	-10436
▁옐	-10437
▁1-2	-10438
▁걱	-10439
시내	-10440
.26	-10441
▁옮겼다	-10442
꼬리	-10443
방에	-10444
▁죽자	-10445
▁\	-10446
푸르	-10447
IVE	-10448
▁김원	-10449
▁들여	-10450
▁사용이	-10451
▁대해서도	-10452
고도	-10453
절을	-10454
▁불리며	-10455
수동	-10456
als	-10457
▁하시	-10458
▁나루	-10459
▁디렉	-10460
▁왕위	-10461
▁인구의	-10462
▁첫번째	-10463
▁관심이	-10464
국과	-10465
령에	-10466
▁중립	-10467
▁향년	-10468
▁로맨틱	-10469
▁머리를	-10470
타리	-10471
▁(0	-10472
▁애덤	-10473
▁곧바로	-10474
▁Sport	-10475
▁정치가	-10476
▁Good	-10477
방이	-10478
졌던	-10479
▁간부	-10480
▁막을	-10481
▁세븐	-10482
▁평균자책	-10483
▁상하	-10484
▁위안	-10485
▁앨범을	-10486
▁서해	-10487
▁잃고	-10488
래스카	-10489
▁들었다	-10490
▁깊이	-10491
▁법적	-10492
▁사원	-10493
▁관계는	-10494
▁드라마이다	-10495
▁(8	-10496
▁재발	-10497
▁하버드	-10498
▁에어버스	-10499
카트	-10500
작으로	-10501
▁link	-10502
삼진	-10503
큐어	-10504
▁SE	-10505
▁수백	-10506
▁청룡	-10507
▁실버	-10508
▁거둔	-10509
ella	-10510
▁Ser	-10511
▁용어는	-10512
산과	-10513
인터넷	-10514
▁오렌지	-10515
▁크기의	-10516
:1981	-10517
▁비극	-10518
▁것이고	-10519
▁의미가	-10520
:1970	-10521
▁발생한다	-10522
▁피에르	-10523
▁온천	-10524
▁비롯해	-10525
▁센다이	-10526
암동	-10527
마일	-10528
▁복지	-10529
rain	-10530
▁니가타	-10531
▁현상을	-10532
▁기생	-10533
▁소관	-10534
▁조반	-10535
▁명단에	-10536
▁모집	-10537
▁민영화에	-10538
▁폼	-10539
▁그리스도	-10540
정신	-10541
EST	-10542
재의	-10543
▁따뜻	-10544
▁지표	-10545
▁사이버	-10546
▁이었다	-10547
▁이야기가	-10548
▁유고슬라비아	-10549
▁넬	-10550
▁활동한	-10551
들리	-10552
원구	-10553
▁헤어	-10554
▁제자	-10555
▁창업	-10556
▁기본적인	-10557
▁여우주연상	-10558
렸을	-10559
▁바른	-10560
▁안의	-10561
클랜드	-10562
~3	-10563
.27	-10564
▁데리고	-10565
ugh	-10566
▁지나지	-10567
▁제후	-10568
▁합리	-10569
윈도우	-10570
atch	-10571
▁없었던	-10572
▁리메이크	-10573
▁교구	-10574
▁심한	-10575
▁말할	-10576
▁선두	-10577
▁김인	-10578
▁Int	-10579
▁빌헬름	-10580
▁발생했다	-10581
터키	-10582
▁기용	-10583
▁비즈니스	-10584
체육관광부	-10585
졌지만	-10586
▁내야수	-10587
▁룩	-10588
으려	-10589
▁원장	-10590
▁주에	-10591
▁증축	-10592
▁항해	-10593
리스토	-10594
▁부분에	-10595
▁설립한	-10596
▁일본은	-10597
by	-10598
유행	-10599
소련의	-10600
▁김제	-10601
▁빨리	-10602
▁정도이다	-10603
경상북도의	-10604
:3	-10605
▁게재	-10606
▁구간은	-10607
▁적절한	-10608
ura	-10609
▁띤	-10610
▁겨우	-10611
▁의뢰	-10612
프와	-10613
▁초록	-10614
▁에너지를	-10615
▁국방부	-10616
미상	-10617
▁광장	-10618
▁본관	-10619
▁책은	-10620
▁폐기	-10621
▁로얄	-10622
▁능력이	-10623
위원회가	-10624
nh	-10625
져서	-10626
▁(9	-10627
▁교도	-10628
▁아기	-10629
▁학부	-10630
▁프로그램의	-10631
▁폭격	-10632
▁후궁	-10633
▁대학에서	-10634
노래	-10635
▁아폴	-10636
(+	-10637
모스	-10638
▁맞는	-10639
▁의석	-10640
▁구성하는	-10641
슈퍼	-10642
▁전승	-10643
▁아직도	-10644
▁슐	-10645
▁모닝	-10646
▁에버	-10647
▁조부	-10648
fr	-10649
자문	-10650
▁내지	-10651
▁달아	-10652
▁클린	-10653
▁이론을	-10654
earch	-10655
러드	-10656
카를	-10657
▁모형	-10658
▁옆에	-10659
▁트루	-10660
▁남한	-10661
▁남해	-10662
▁숨겨	-10663
이었는데	-10664
아를	-10665
▁군수	-10666
▁전진	-10667
▁수록된	-10668
ck	-10669
▁못해	-10670
▁농림	-10671
▁마인	-10672
ray	-10673
▁삿포로	-10674
래스	-10675
신학	-10676
▁보니	-10677
▁주차	-10678
▁세우고	-10679
▁필요로	-10680
▁영향력을	-10681
림을	-10682
연예	-10683
주간	-10684
.29	-10685
~10	-10686
▁이선	-10687
▁얘	-10688
▁쇼핑	-10689
▁온도	-10690
면서도	-10691
▁명칭이	-10692
▁이리	-10693
▁페루	-10694
▁(14	-10695
▁앨리스	-10696
▁네덜란드의	-10697
▁해군의	-10698
▁전해진다	-10699
8,	-10700
▁짙	-10701
목에	-10702
▁고도	-10703
▁음반을	-10704
▁히로시	-10705
▁삼아	-10706
▁크기는	-10707
▁오늘날의	-10708
▁공용	-10709
▁이반	-10710
▁힘이	-10711
▁반환	-10712
iver	-10713
▁비잔티움	-10714
주리	-10715
▁내용의	-10716
▁대법원	-10717
▁(1983	-10718
▁상황이	-10719
▁없었고	-10720
임브리지	-10721
크와	-10722
▁어둠	-10723
득점	-10724
현악	-10725
▁다음을	-10726
주기	-10727
▁디아	-10728
▁스펙트럼	-10729
▁영문	-10730
캐롤라이나	-10731
▁수신	-10732
▁모델로	-10733
▁3-0	-10734
▁이용하는	-10735
코가	-10736
▁Rem	-10737
Ph	-10738
하러	-10739
▁찾기	-10740
▁아들을	-10741
▁시호는	-10742
▁엔진을	-10743
자나	-10744
▁누계	-10745
▁부회장	-10746
▁아이치	-10747
▁총장	-10748
▁명성을	-10749
사고	-10750
▁번뇌	-10751
▁하남	-10752
전차	-10753
지오	-10754
치며	-10755
▁무죄	-10756
▁섬에	-10757
cess	-10758
▁Mac	-10759
▁그룹의	-10760
▁다가	-10761
▁두드	-10762
▁약간의	-10763
▁컨트롤	-10764
되었다는	-10765
티나	-10766
▁페리	-10767
해지고	-10768
▁밴드의	-10769
▁03	-10770
▁출생지	-10771
▁1899	-10772
▁졸업했다	-10773
트에	-10774
▁누가	-10775
▁않았던	-10776
라이나의	-10777
▁로열	-10778
▁밝히	-10779
▁신인상	-10780
더슨	-10781
▁군단	-10782
▁등재	-10783
약품	-10784
종교	-10785
인들을	-10786
ision	-10787
yr	-10788
▁대주교	-10789
▁노비	-10790
▁Med	-10791
철의	-10792
ien	-10793
▁경희	-10794
사용	-10795
▁해밀	-10796
▁효과가	-10797
▁도시철도	-10798
▁Pa	-10799
▁추대	-10800
▁세계에	-10801
ka	-10802
복합	-10803
부르	-10804
예정	-10805
▁시달	-10806
▁개발을	-10807
▁허리케	-10808
▁입단했다	-10809
▁당선되었다	-10810
▁지름	-10811
▁하라	-10812
▁아니고	-10813
테크	-10814
▁저택	-10815
치료	-10816
산시의	-10817
AK	-10818
▁신비	-10819
▁라틴어	-10820
▁운반	-10821
▁굉장	-10822
▁폭풍	-10823
▁12.	-10824
▁세력이	-10825
▁High	-10826
선거관리위원회	-10827
형사	-10828
형태	-10829
▁리눅스	-10830
디언	-10831
▁동지	-10832
▁오라	-10833
▁진출에	-10834
▁값을	-10835
▁미츠	-10836
▁있다면	-10837
우정	-10838
▁대교	-10839
▁관련하여	-10840
물질	-10841
▁-1	-10842
석으로	-10843
학과를	-10844
▁로저	-10845
▁신규	-10846
▁적의	-10847
부산광역시	-10848
▁깔	-10849
▁부설	-10850
▁침몰	-10851
군에서	-10852
oint	-10853
▁꾸준히	-10854
▁허브	-10855
하겠다고	-10856
▁스파르타	-10857
▁야마구치	-10858
formation	-10859
▁무술	-10860
▁안나	-10861
▁열차는	-10862
하임	-10863
▁물이	-10864
▁선진	-10865
▁프랑스어	-10866
글라	-10867
▁제휴	-10868
▁3.5	-10869
▁수밖에	-10870
▁fl	-10871
▁분산	-10872
▁종전	-10873
청이	-10874
▁약한	-10875
▁곡으로	-10876
▁방향을	-10877
▁블루스	-10878
▁+2	-10879
▁만남	-10880
함으로	-10881
▁사이토	-10882
변경	-10883
▁권한을	-10884
▁반면에	-10885
▁우리나라	-10886
▁필라델피아	-10887
▁리버풀	-10888
▁작품이	-10889
▁닿	-10890
▁막아	-10891
▁서방	-10892
▁타원	-10893
▁계기가	-10894
남자	-10895
▁und	-10896
▁(7	-10897
▁모니	-10898
▁비로	-10899
▁오염	-10900
퍼니	-10901
▁면역	-10902
▁소닉	-10903
▁줄리	-10904
▁국가가	-10905
▁본선의	-10906
▁Rock	-10907
▁공동으로	-10908
▁Award	-10909
▁시를	-10910
분은	-10911
▁Su	-10912
▁입증	-10913
▁공채	-10914
▁레이저	-10915
▁이어져	-10916
▁모양으로	-10917
지대	-10918
()"	-10919
공장	-10920
▁엘리베이	-10921
엔터테인먼트	-10922
경기도	-10923
▁Cal	-10924
▁중국에서	-10925
보스	-10926
▁살펴	-10927
▁오쿠	-10928
▁주한	-10929
ondon	-10930
AF	-10931
포항	-10932
▁세이부	-10933
▁위기에	-10934
▁선제	-10935
▁플라스	-10936
등에	-10937
▁타이틀곡	-10938
/3	-10939
▁바티	-10940
▁집으로	-10941
fl	-10942
농업	-10943
▁0.0	-10944
▁Inter	-10945
비나	-10946
▁굵은	-10947
▁김은	-10948
▁피난	-10949
네스코	-10950
▁가해	-10951
▁리오	-10952
▁예로	-10953
▁청주시	-10954
▁스페이스	-10955
▁Trans	-10956
▁114	-10957
▁패밀리	-10958
▁되었다고	-10959
▁아르메니아	-10960
보가	-10961
액을	-10962
▁지옥	-10963
▁목격	-10964
가와현	-10965
실점	-10966
▁다녔	-10967
▁떠난	-10968
▁Mnet	-10969
▁콘스탄티노	-10970
▁초래	-10971
▁출현	-10972
▁관장	-10973
▁도로이다	-10974
대군	-10975
▁라이선	-10976
되다	-10977
청은	-10978
▁원로	-10979
▁피부	-10980
▁세계적인	-10981
my	-10982
코르	-10983
▁아우구	-10984
토르	-10985
▁반사	-10986
▁Japan	-10987
류에	-10988
본은	-10989
아와	-10990
▁우연히	-10991
렉션	-10992
코쿠	-10993
~15	-10994
▁아역	-10995
erman	-10996
출을	-10997
ING	-10998
▁히라	-10999
▁결혼을	-11000
▁그랑프리	-11001
금은	-11002
관에서	-11003
너는	-11004
습을	-11005
아마	-11006
▁흔들	-11007
▁you	-11008
위성	-11009
cc	-11010
족을	-11011
▁평범	-11012
▁대회를	-11013
▁문화적	-11014
주곡	-11015
▁대행	-11016
▁좌표	-11017
▁브라더스	-11018
물리학	-11019
과대학교	-11020
olution	-11021
▁서정	-11022
▁신정	-11023
▁음향	-11024
▁현대의	-11025
▁City	-11026
팀은	-11027
▁눈물	-11028
▁세로	-11029
▁숙종	-11030
▁시외	-11031
aceae	-11032
▁크리스토퍼	-11033
▁진단	-11034
▁이어졌다	-11035
ody	-11036
▁가도	-11037
▁쇠퇴	-11038
▁이규	-11039
▁아이를	-11040
▁동메달리스트	-11041
사시	-11042
이름	-11043
제일	-11044
▁기요	-11045
▁연설	-11046
들과의	-11047
로미터	-11048
▁1.7	-11049
▁며느	-11050
▁Min	-11051
▁길이가	-11052
▁수록자	-11053
▁자료를	-11054
하리	-11055
▁노인	-11056
SF	-11057
전선	-11058
▁남동생	-11059
ideo	-11060
▁ISBN	-11061
▁이루어진다	-11062
▁차지하는	-11063
날레	-11064
▁AL	-11065
▁되었으나	-11066
EM	-11067
▁웬	-11068
러는	-11069
권으로	-11070
▁멜로디	-11071
▁획득하였다	-11072
▁대승	-11073
▁조상	-11074
▁간섭	-11075
▁강경	-11076
▁영국과	-11077
▁주요한	-11078
)-	-11079
▁화살	-11080
▁변화가	-11081
결정	-11082
▁발효	-11083
▁윌슨	-11084
▁피어	-11085
▁제공하고	-11086
▁제약	-11087
▁얼마나	-11088
▁의미로	-11089
미쓰	-11090
▁DS	-11091
▁그랜	-11092
▁말은	-11093
▁몸길	-11094
▁승률	-11095
▁표지	-11096
▁피렌	-11097
aint	-11098
ular	-11099
▁도시이다	-11100
편이	-11101
▁이르기까지	-11102
▁옌	-11103
▁이장	-11104
▁정동	-11105
졌는데	-11106
하였을	-11107
▁연평균	-11108
▁나카무라	-11109
▁113	-11110
▁쟁	-11111
인구	-11112
▁과장	-11113
▁구상	-11114
▁등도	-11115
▁항공모	-11116
▁휴스턴	-11117
▁CONCACAF	-11118
9,	-11119
직한	-11120
▁부품	-11121
▁테레	-11122
▁천문학자	-11123
▁중화인민공화국의	-11124
▁모친	-11125
네덜란드의	-11126
년생	-11127
der	-11128
▁풍부한	-11129
▁서독	-11130
▁열어	-11131
▁American	-11132
소한	-11133
▁애국	-11134
▁연수	-11135
▁유입	-11136
▁프레스	-11137
론과	-11138
블리	-11139
▁누군	-11140
▁물건	-11141
▁사천	-11142
▁캠퍼스	-11143
oug	-11144
▁박재	-11145
▁교향곡	-11146
▁와일드	-11147
▁운동에	-11148
▁않았으며	-11149
berg	-11150
▁강점기	-11151
▁확인할	-11152
:1973	-11153
▁때도	-11154
▁공동체	-11155
즈에	-11156
▁많고	-11157
▁버리고	-11158
▁예루살렘	-11159
▁당한	-11160
▁바그	-11161
▁약칭	-11162
▁카스	-11163
그라드	-11164
▁라트	-11165
▁사사	-11166
▁임상	-11167
▁토르	-11168
스타인	-11169
▁뿐이다	-11170
고한	-11171
▁디스플레이	-11172
등한	-11173
보리	-11174
▁역과	-11175
▁결과로	-11176
▁King	-11177
▁제프	-11178
지기도	-11179
▁동아일보	-11180
중화인민공화국의	-11181
▁닭	-11182
:12	-11183
▁거울	-11184
▁공직	-11185
▁광명	-11186
▁볼넷	-11187
▁해변	-11188
▁별도로	-11189
▁했다고	-11190
전문학교	-11191
편을	-11192
▁sc	-11193
▁세월	-11194
▁자유를	-11195
▁학교를	-11196
▁찌	-11197
▁이별	-11198
▁부동산	-11199
▁야마토	-11200
▁전세계	-11201
나시	-11202
iation	-11203
▁썬	-11204
보에	-11205
▁보인	-11206
▁Project	-11207
카는	-11208
우지	-11209
▁스캔	-11210
로스앤젤레스	-11211
다르	-11212
ury	-11213
▁대의	-11214
▁전향	-11215
▁어울	-11216
▁카탈	-11217
atus	-11218
▁제인	-11219
:1972	-11220
▁가고시마	-11221
언어	-11222
▁Bus	-11223
▁진정한	-11224
▁이오	-11225
▁제트	-11226
▁자격을	-11227
직원	-11228
▁없기	-11229
▁사람에게	-11230
▁en	-11231
▁밤에	-11232
▁사르	-11233
▁이닝	-11234
지휘	-11235
▁금성	-11236
편에	-11237
ift	-11238
받지	-11239
▁윤리	-11240
▁출연한	-11241
▁포켓몬스터	-11242
FI	-11243
▁타이틀을	-11244
▁홍보대사	-11245
bl	-11246
▁수단	-11247
▁없애	-11248
▁350	-11249
▁총선에서	-11250
▁죠	-11251
방울	-11252
▁부호	-11253
▁프렌	-11254
▁존재를	-11255
▁캘리포니아주	-11256
▁젖	-11257
후지	-11258
▁손상	-11259
▁창의	-11260
경기를	-11261
SA	-11262
해주	-11263
▁루스	-11264
▁매치	-11265
▁정찰	-11266
▁어두운	-11267
시나	-11268
▁복사	-11269
유니버	-11270
▁우수한	-11271
▁이곳에	-11272
열의	-11273
ows	-11274
▁미얀	-11275
▁123	-11276
▁광저우	-11277
색이	-11278
▁왕실	-11279
타리오	-11280
▁수상한	-11281
iety	-11282
▁지정되어	-11283
먼드	-11284
▁니혼	-11285
▁야기	-11286
ient	-11287
▁나라를	-11288
공개	-11289
▁보이스	-11290
▁파란색	-11291
버스터미널	-11292
▁수동	-11293
:1979	-11294
▁도시를	-11295
▁동영상	-11296
▁Team	-11297
중대	-11298
▁말하고	-11299
▁모양을	-11300
▁에스파냐	-11301
▁총무	-11302
▁본사	-11303
▁친척	-11304
문학상	-11305
▁만화가	-11306
토를	-11307
▁부흥	-11308
▁사이가	-11309
쿠니	-11310
▁부른	-11311
▁전체적으로	-11312
.24	-11313
암으로	-11314
▁이곳에서	-11315
▁ID	-11316
▁급격	-11317
▁스노	-11318
▁Ang	-11319
▁당했다	-11320
신경	-11321
▁환상	-11322
▁737	-11323
▁사우디아라비아	-11324
보컬	-11325
비서	-11326
▁포드	-11327
▁pr	-11328
▁이익을	-11329
토가	-11330
▁평소	-11331
▁식당	-11332
▁지혜	-11333
▁1901	-11334
▁와타나베	-11335
ta	-11336
금이	-11337
수수	-11338
평리	-11339
▁꺾고	-11340
▁바위	-11341
▁이적했다	-11342
함은	-11343
으로의	-11344
▁문화방송	-11345
▁쏟	-11346
omb	-11347
▁분당	-11348
▁원제	-11349
▁간단한	-11350
▁소속되어	-11351
거진	-11352
영이	-11353
▁토착	-11354
▁화석	-11355
테스트	-11356
▁잘못된	-11357
미네	-11358
하차	-11359
▁승무원	-11360
▁작전을	-11361
스퍼드	-11362
▁말하며	-11363
▁형성된	-11364
▁활동에	-11365
▁다음으로	-11366
▁트레이드	-11367
▁편지	-11368
|250	-11369
▁타이베이	-11370
관찰	-11371
▁마찰	-11372
년으로	-11373
▁롬	-11374
▁설이	-11375
이라며	-11376
마자	-11377
▁가질	-11378
▁의지	-11379
▁아울러	-11380
결을	-11381
로이	-11382
▁보충	-11383
▁신주쿠	-11384
▁작사가	-11385
▁뿌리	-11386
▁죽을	-11387
▁증권	-11388
사령관	-11389
▁파운드	-11390
▁제목으로	-11391
▁불꽃	-11392
of	-11393
산로	-11394
▁아담	-11395
▁냈다	-11396
▁인문	-11397
▁통영	-11398
▁Out	-11399
▁가짜	-11400
▁국어	-11401
▁3-1	-11402
▁인터내셔널	-11403
조와	-11404
피를	-11405
TP	-11406
디가	-11407
▁링컨	-11408
▁성벽	-11409
▁정선	-11410
▁자유형	-11411
▁가능성을	-11412
곡면	-11413
▁응원	-11414
▁진술	-11415
일본어	-11416
연이	-11417
▁않도록	-11418
▁하나를	-11419
고지	-11420
소타	-11421
▁명문	-11422
▁육성	-11423
▁162	-11424
▁경험을	-11425
▁노무현	-11426
▁현급	-11427
▁멤버로	-11428
▁사거리	-11429
▁휩	-11430
레알	-11431
.22	-11432
드리아	-11433
성에서	-11434
▁사실은	-11435
밴드	-11436
▁이천	-11437
▁방법이	-11438
▁특성을	-11439
?"	-11440
▁IBM	-11441
자르	-11442
장인	-11443
▁착수	-11444
▁Arch	-11445
▁몬트리올	-11446
Sp	-11447
▁ab	-11448
▁비가	-11449
▁빛을	-11450
해진다	-11451
▁손가락	-11452
▁프랑크푸르트	-11453
▁Mod	-11454
▁닌텐도	-11455
▁1890	-11456
▁떼	-11457
▁들은	-11458
중에서	-11459
▁차지한다	-11460
타인	-11461
rol	-11462
▁선을	-11463
▁220	-11464
▁영화로	-11465
ography	-11466
ops	-11467
▁me	-11468
▁(1979	-11469
▁뿔	-11470
들인	-11471
OVE	-11472
▁김주	-11473
▁아유	-11474
화하는	-11475
▁문화의	-11476
~4	-11477
우와	-11478
하가	-11479
-05	-11480
▁찾을	-11481
▁결과가	-11482
▁여덟	-11483
▁전투기	-11484
~16	-11485
▁야간	-11486
▁에우	-11487
▁(1978	-11488
버린	-11489
▁상세	-11490
▁사용해	-11491
▁책봉	-11492
루이스	-11493
▁수요일	-11494
▁윌리엄스	-11495
▁수목드라마	-11496
EG	-11497
▁점은	-11498
▁김영삼	-11499
▁부평	-11500
▁전두	-11501
▁좁은	-11502
▁탄소	-11503
원숭이	-11504
▁풀어	-11505
이치로	-11506
▁후기의	-11507
▁학력	-11508
▁술탄	-11509
▁점프	-11510
▁카와	-11511
▁합창	-11512
▁비공식	-11513
▁사로잡	-11514
▁에스토	-11515
나라를	-11516
▁144	-11517
▁문화를	-11518
▁아들이다	-11519
회말	-11520
uch	-11521
▁Im	-11522
▁의병	-11523
▁금호	-11524
▁예언	-11525
▁파스	-11526
▁현의	-11527
▁시대를	-11528
사우루스	-11529
▁시계	-11530
▁정권을	-11531
▁심사위원	-11532
된다는	-11533
▁글로브	-11534
▁무궁화	-11535
누마	-11536
▁끝까지	-11537
▁역사는	-11538
아시아의	-11539
1/	-11540
▁압박	-11541
어머니	-11542
▁규모가	-11543
민이	-11544
une	-11545
▁결과는	-11546
▁계열의	-11547
▁유니폼	-11548
▁작곡한	-11549
▁1902	-11550
▁단종	-11551
▁대답	-11552
▁분야의	-11553
Re	-11554
리온	-11555
ham	-11556
▁팬아메리칸	-11557
바오	-11558
oman	-11559
▁화요일	-11560
인인	-11561
▁근접	-11562
▁별칭	-11563
▁HIV	-11564
▁데뷔전을	-11565
▁자리에서	-11566
마츠	-11567
▁남긴	-11568
▁11,	-11569
▁마음이	-11570
▁원래의	-11571
▁오케스트라	-11572
▁어항	-11573
문자	-11574
-04	-11575
▁동성애	-11576
▁일환으로	-11577
▁놀이	-11578
▁무늬	-11579
▁미라	-11580
▁인간이	-11581
공업고등학교	-11582
쿠로	-11583
키타	-11584
코리아	-11585
▁나이지	-11586
▁베네수엘	-11587
국립	-11588
다카	-11589
색은	-11590
청을	-11591
▁회계	-11592
▁Boy	-11593
▁못했고	-11594
▁1894	-11595
▁그럼에도	-11596
북면	-11597
ird	-11598
▁훈련을	-11599
▁Tour	-11600
고자	-11601
주일	-11602
/19	-11603
▁평행	-11604
▁천황의	-11605
▁측은	-11606
▁콜린	-11607
하라고	-11608
▁사용자가	-11609
▁자손	-11610
▁속으로	-11611
▁사단법인	-11612
▁성공적으로	-11613
효소	-11614
영화상	-11615
▁구마모토	-11616
▁봐	-11617
링턴	-11618
친일	-11619
▁135	-11620
▁계획이	-11621
▁유네스코	-11622
멘트	-11623
무역	-11624
입구	-11625
▁브라우저	-11626
류로	-11627
▁wh	-11628
▁공식적인	-11629
▁덴마크의	-11630
▁유신	-11631
▁향한	-11632
▁경계를	-11633
▁그래프	-11634
▁정부를	-11635
있고	-11636
▁경신	-11637
▁요원	-11638
▁침해	-11639
▁900	-11640
▁개통과	-11641
도바	-11642
▁규격	-11643
▁병력을	-11644
▁주제로	-11645
▁담당하는	-11646
▁흩	-11647
워스	-11648
▁선거에	-11649
▁(1980	-11650
▁공무	-11651
▁부착	-11652
▁1,6	-11653
:1968	-11654
▁바꿔	-11655
진과	-11656
aur	-11657
▁브뤼	-11658
▁그동안	-11659
▁사용을	-11660
▁소재의	-11661
▁웨일스	-11662
▁지어진	-11663
▁유혹	-11664
angu	-11665
▁추기경	-11666
한테	-11667
▁Do	-11668
▁고분	-11669
▁법조	-11670
▁제주도	-11671
학자이다	-11672
▁디비시온	-11673
교로	-11674
안동	-11675
의학	-11676
▁차기	-11677
▁들어와	-11678
사항	-11679
▁pp	-11680
▁레닌	-11681
▁융합	-11682
연합회	-11683
▁관광객	-11684
▁달성했다	-11685
▁Tw	-11686
▁택시	-11687
▁회고	-11688
▁머무	-11689
▁바이오	-11690
▁법정동	-11691
Bl	-11692
실험	-11693
진구	-11694
▁빛의	-11695
나라는	-11696
▁3.0	-11697
▁라파	-11698
▁보라	-11699
ring	-11700
전라남도의	-11701
▁꽤	-11702
때로	-11703
▁구간을	-11704
전에서는	-11705
▁(1981	-11706
:2	-11707
말라	-11708
운수	-11709
▁공휴	-11710
장이다	-11711
▁활약하였다	-11712
천의	-11713
티시	-11714
▁뜨거운	-11715
▁이외에	-11716
++	-11717
▁쪽으로	-11718
▁자유한국당	-11719
▁추증	-11720
공학과	-11721
▁킴	-11722
마케	-11723
물과	-11724
▁제갈	-11725
▁126	-11726
▁미치는	-11727
▁드라이버	-11728
▁엽	-11729
스퍼	-11730
▁적색	-11731
▁보내는	-11732
▁추모	-11733
▁우루과	-11734
▁종교적	-11735
▁IM	-11736
▁매직	-11737
▁추이	-11738
주의와	-11739
▁고립	-11740
▁점유	-11741
학년도	-11742
▁정측면	-11743
▁옴	-11744
▁펴	-11745
ycl	-11746
▁이가	-11747
▁접하고	-11748
▁1903	-11749
▁베니	-11750
▁진흥	-11751
▁협상	-11752
▁어드벤처	-11753
포시	-11754
▁밖의	-11755
▁10.	-11756
로동	-11757
세키	-11758
츠와	-11759
▁달린	-11760
▁천재	-11761
RT	-11762
토모	-11763
▁민법	-11764
▁연루	-11765
▁워너	-11766
▁1897	-11767
▁엔지니어	-11768
석기	-11769
▁걸어	-11770
▁밀접	-11771
▁랜드	-11772
▁봉사	-11773
▁아부	-11774
▁일기	-11775
▁이승만	-11776
ters	-11777
:1960	-11778
:1976	-11779
▁Av	-11780
▁기체	-11781
▁장녀	-11782
되었기	-11783
▁유지하고	-11784
▁일원으로	-11785
보르	-11786
▁눈이	-11787
▁마야	-11788
▁미국이	-11789
▁Phil	-11790
▁히어로즈	-11791
▁Heart	-11792
▁개최되었다	-11793
▁시점	-11794
▁전속	-11795
▁벌였다	-11796
▁영감을	-11797
▁일본군	-11798
ichael	-11799
▁좌석	-11800
▁친정	-11801
오루	-11802
▁그날	-11803
▁내외	-11804
▁중독	-11805
▁여행을	-11806
▁전체의	-11807
노바	-11808
일기	-11809
ney	-11810
▁취약	-11811
▁인테르	-11812
장치	-11813
ther	-11814
▁실시간	-11815
▁운행을	-11816
간을	-11817
과도	-11818
파에	-11819
▁유희	-11820
▁경력을	-11821
▁공략	-11822
시부터	-11823
▁기록하고	-11824
▁루시	-11825
▁상수	-11826
▁와이번	-11827
▁중추원	-11828
/4	-11829
▁상태이다	-11830
▁하나님의	-11831
▁로고	-11832
라에몽	-11833
▁하인리히	-11834
▁다녀	-11835
▁잃은	-11836
▁때문이었다	-11837
-30	-11838
통합당	-11839
▁낳았다	-11840
▁안토니오	-11841
▁알바니아	-11842
미엄	-11843
▁송신	-11844
▁편지를	-11845
▁국유	-11846
▁아니면	-11847
▁아버지와	-11848
마키	-11849
▁액체	-11850
▁한명	-11851
패로	-11852
▁보상	-11853
▁상장	-11854
▁전염	-11855
스웨덴의	-11856
▁요구하는	-11857
키지	-11858
▁선이	-11859
▁조항	-11860
▁환자	-11861
▁이상한	-11862
▁중이던	-11863
▁채로	-11864
▁얇	-11865
필리	-11866
ords	-11867
orge	-11868
▁Fil	-11869
프로그램	-11870
▁현대자동차	-11871
rib	-11872
▁5.	-11873
▁고무	-11874
▁내고	-11875
사이다	-11876
▁끝났다	-11877
▁사카이	-11878
▁시작하는	-11879
도스	-11880
▁키보드	-11881
태후	-11882
▁차원	-11883
▁홍성	-11884
▁116	-11885
산초등학교	-11886
▁맵	-11887
바닥	-11888
▁에밀	-11889
▁파이터	-11890
▁결정했다	-11891
▁마케도니아	-11892
님이	-11893
선언	-11894
▁먹고	-11895
모음	-11896
▁노란색	-11897
률은	-11898
전시	-11899
▁경인	-11900
▁산림	-11901
▁der	-11902
▁고등학교이다	-11903
보라	-11904
씨를	-11905
작은	-11906
och	-11907
▁마린	-11908
▁창시	-11909
▁점성	-11910
웨스트	-11911
John	-11912
▁제로	-11913
▁코코	-11914
▁평창	-11915
ros	-11916
받는다	-11917
인도의	-11918
화에서	-11919
▁훌륭한	-11920
▁유럽에서	-11921
▁딕	-11922
남면	-11923
증이	-11924
혁신	-11925
▁관통	-11926
▁바가	-11927
▁127	-11928
▁고토	-11929
▁요르	-11930
▁우드	-11931
▁무대에	-11932
▁어렵다	-11933
▁Open	-11934
▁프로그램은	-11935
올로	-11936
▁별의	-11937
▁코스타	-11938
단위	-11939
▁나열	-11940
▁무승	-11941
▁독일어	-11942
▁부의	-11943
▁손해	-11944
▁원산	-11945
ript	-11946
▁쟈	-11947
지붕	-11948
▁레논	-11949
with	-11950
▁꾀	-11951
▁스리	-11952
자이자	-11953
▁버전은	-11954
▁자유롭게	-11955
▁122	-11956
▁하워드	-11957
▁김홍	-11958
▁상처	-11959
▁적대	-11960
▁효고	-11961
BI	-11962
▁뭐	-11963
곡이	-11964
▁맞게	-11965
▁아벨	-11966
▁충족	-11967
▁Ret	-11968
▁애틀랜	-11969
번을	-11970
▁마오	-11971
▁몬테	-11972
▁소울	-11973
▁게임은	-11974
▁대회이다	-11975
▁곡의	-11976
▁내전	-11977
▁전한	-11978
회원	-11979
▁133	-11980
▁동맹을	-11981
▁학교법인	-11982
아일랜드의	-11983
▁원수	-11984
▁지방에	-11985
els	-11986
▁말한	-11987
▁브로드	-11988
▁멈추	-11989
▁바뀐	-11990
▁왈	-11991
▁햇	-11992
▁ph	-11993
▁달의	-11994
▁배드	-11995
reak	-11996
▁155	-11997
▁우승에	-11998
strument	-11999
▁BC	-12000
▁Sn	-12001
▁몸에	-12002
▁출가	-12003
요리	-12004
회담	-12005
▁정한	-12006
위원회의	-12007
남부	-12008
▁비타	-12009
데이터	-12010
ural	-12011
레아	-12012
▁콩고	-12013
▁심리학	-12014
▁활동이	-12015
▁지방자치	-12016
▁전선	-12017
▁정벌	-12018
▁지목	-12019
트에서	-12020
홍콩의	-12021
▁그림을	-12022
▁프로레	-12023
!"	-12024
고래	-12025
.23	-12026
▁쾌속	-12027
▁노선은	-12028
▁북한의	-12029
RI	-12030
부리	-12031
서면	-12032
▁박용	-12033
▁졸업하였다	-12034
왔고	-12035
▁수필	-12036
▁요괴	-12037
▁뱅	-12038
▁(13	-12039
▁아니었다	-12040
올라	-12041
▁곳이	-12042
▁대학생	-12043
텔레비전	-12044
▁리우	-12045
▁맡게	-12046
▁아츠	-12047
유럽의	-12048
▁인근에	-12049
▁원작으로	-12050
현동	-12051
ior	-12052
▁레이싱	-12053
▁운행하는	-12054
▁제주특별자치도	-12055
증권	-12056
티는	-12057
▁이바	-12058
▁차이를	-12059
▁활약하고	-12060
▁삼척	-12061
ster	-12062
▁117	-12063
▁지중해	-12064
▁목적을	-12065
▁출전했다	-12066
조약	-12067
▁몰락	-12068
▁양주	-12069
▁아이슬	-12070
▁한미	-12071
▁덤	-12072
▁프랑스는	-12073
호텔	-12074
▁지폐	-12075
▁도미니	-12076
번뇌	-12077
성한	-12078
▁경연	-12079
▁군산	-12080
▁세라	-12081
▁증손	-12082
▁아이들	-12083
반을	-12084
ipp	-12085
▁마친	-12086
▁안티	-12087
▁통칭	-12088
▁난카이	-12089
류와	-12090
rav	-12091
▁연쇄	-12092
집단	-12093
▁호쿠	-12094
▁With	-12095
▁오스트리아의	-12096
왕조	-12097
▁조치	-12098
▁210	-12099
▁포함해	-12100
▁상원의원	-12101
경북	-12102
학에	-12103
▁내륙	-12104
▁라우	-12105
▁상원	-12106
▁소실	-12107
▁쇼와	-12108
▁텍스트	-12109
스부르크	-12110
고대	-12111
란을	-12112
률이	-12113
▁스톡	-12114
▁다목적	-12115
▁자유당	-12116
▁Book	-12117
▁프랑스인	-12118
▁분데스리가	-12119
▁꿈꾸	-12120
▁조르	-12121
EA	-12122
잡이	-12123
아시안	-12124
▁모두가	-12125
바리	-12126
▁공익	-12127
▁애비	-12128
▁결정을	-12129
▁바꾸었다	-12130
산맥	-12131
지나	-12132
▁강도	-12133
컬럼비아	-12134
▁Eu	-12135
▁요크	-12136
▁트래	-12137
▁퍼져	-12138
▁경찰서	-12139
▁맡았으며	-12140
▁ac	-12141
▁독일인	-12142
▁시대에는	-12143
았을	-12144
▁다중	-12145
▁로이	-12146
▁코치로	-12147
▁내리	-12148
▁하원	-12149
work	-12150
▁사용하며	-12151
▁조선일보	-12152
▁꼴	-12153
리얼	-12154
150	-12155
▁미토	-12156
▁생기	-12157
▁승자	-12158
▁가지게	-12159
▁과거의	-12160
렸던	-12161
미로	-12162
▁방식의	-12163
▁특수한	-12164
▁프리메라	-12165
건축	-12166
하늘	-12167
▁외의	-12168
공산당	-12169
년대를	-12170
주얼	-12171
▁Da	-12172
▁옹호	-12173
▁최진	-12174
▁시작해	-12175
▁조치를	-12176
차전에서	-12177
드에	-12178
▁이고	-12179
세리에	-12180
▁포스터	-12181
~6	-12182
미코	-12183
▁곳곳	-12184
▁다나카	-12185
차별	-12186
▁사나이	-12187
▁조직의	-12188
루를	-12189
슬레	-12190
시다	-12191
▁김연	-12192
OH	-12193
▁빠진	-12194
▁서원	-12195
▁유진	-12196
▁정경	-12197
▁어워즈	-12198
▁전인	-12199
▁펠리	-12200
이라도	-12201
▁12,	-12202
▁배제	-12203
▁최성	-12204
▁Red	-12205
▁조사를	-12206
▁u	-12207
만명	-12208
ars	-12209
▁뒤인	-12210
▁알제	-12211
reet	-12212
▁승리로	-12213
분과	-12214
심한	-12215
▁무지	-12216
▁박경	-12217
▁결과적으로	-12218
시게	-12219
어족	-12220
▁공로	-12221
▁광양	-12222
▁통근	-12223
:1978	-12224
▁서울에서	-12225
▁포스	-12226
내에서	-12227
어진다	-12228
▁기술이	-12229
▁다루고	-12230
▁때때로	-12231
축제	-12232
▁심의	-12233
▁안장	-12234
▁초과	-12235
있으며	-12236
▁대신에	-12237
▁모르는	-12238
사진	-12239
슨이	-12240
▁바실	-12241
▁Bi	-12242
▁이호	-12243
▁독자적인	-12244
▁헌법재판	-12245
▁가톨릭교회	-12246
PM	-12247
대행	-12248
본이	-12249
수영	-12250
홀름	-12251
▁최강	-12252
▁출토	-12253
▁넓이는	-12254
팀인	-12255
해방	-12256
ola	-12257
ume	-12258
▁건의	-12259
▁MHz	-12260
▁뒤에는	-12261
▁알려지지	-12262
소니	-12263
por	-12264
▁끝이	-12265
▁메타	-12266
▁시부	-12267
기이다	-12268
쪽의	-12269
현에	-12270
▁하동	-12271
마르크	-12272
:1974	-12273
▁2,000	-12274
▁Center	-12275
▁MA	-12276
▁스핀	-12277
▁오비	-12278
▁일으켰	-12279
▁방영되었다	-12280
스러	-12281
유도	-12282
▁세션	-12283
문으로	-12284
view	-12285
▁1,2	-12286
▁접한다	-12287
▁최종적으로	-12288
솔린	-12289
신라	-12290
리이	-12291
장로	-12292
▁할당	-12293
▁불리기도	-12294
▁장학	-12295
▁탐정	-12296
▁패널	-12297
ello	-12298
▁등이다	-12299
▁기숙	-12300
▁몰래	-12301
테르부르크	-12302
▁갑작	-12303
▁시스템의	-12304
▁부과	-12305
▁슈팅	-12306
▁천사	-12307
▁만나게	-12308
▁KB	-12309
▁해주	-12310
▁개발된	-12311
▁따르는	-12312
▁합병해	-12313
▁칼라	-12314
목소리	-12315
▁가능하게	-12316
▁성립한다	-12317
마와	-12318
티넘	-12319
▁듀얼	-12320
▁제수	-12321
▁Pre	-12322
베키스탄	-12323
변을	-12324
▁채무	-12325
▁해임	-12326
리조나	-12327
▁부르며	-12328
▁마르크스	-12329
진보	-12330
▁우치	-12331
▁아름다	-12332
▁전투에	-12333
▁한동안	-12334
스코리아	-12335
▁캐시	-12336
▁그냥	-12337
▁재활	-12338
▁된다는	-12339
수면	-12340
작을	-12341
▁박준	-12342
▁카타	-12343
▁의원이	-12344
▁(1977	-12345
XX	-12346
론적	-12347
형에	-12348
▁주장이	-12349
▁창원시	-12350
루아	-12351
▁대하	-12352
▁언어로	-12353
▁쿠르	-12354
▁구조의	-12355
요한	-12356
▁김미	-12357
▁여론	-12358
동에서	-12359
베니아	-12360
amil	-12361
▁작품상	-12362
▁팜	-12363
▁국적	-12364
▁승부차	-12365
놀이	-12366
속도	-12367
▁내보	-12368
▁이브	-12369
▁일에	-12370
▁태평	-12371
된다고	-12372
▁최근에	-12373
▁플라이	-12374
oe	-12375
▁//	-12376
▁니콜라	-12377
▁죽음의	-12378
▁실패했다	-12379
▁타이거즈	-12380
철도가	-12381
▁사무소	-12382
▁발렌시아	-12383
▁쇼군	-12384
▁훼손	-12385
주년을	-12386
▁후보에	-12387
병이	-12388
▁낱말	-12389
주의는	-12390
▁리그에	-12391
▁영화상	-12392
:1971	-12393
▁진출했다	-12394
▁중도	-12395
▁호출	-12396
▁ver	-12397
▁밟	-12398
▁한스	-12399
ident	-12400
▁다이아몬드	-12401
율은	-12402
▁GO	-12403
▁am	-12404
▁배달	-12405
▁흥행	-12406
▁유로파	-12407
▁경주시	-12408
▁앨범은	-12409
노부	-12410
환의	-12411
▁스폰	-12412
▁장안	-12413
유대계	-12414
▁신라의	-12415
▁국가에서	-12416
▁프로듀싱	-12417
숙한	-12418
▁대피	-12419
▁마약	-12420
▁음반의	-12421
▁보스니아	-12422
▁보여주고	-12423
▁야마모토	-12424
▁남우주연상	-12425
▁급진	-12426
▁약물	-12427
▁Ber	-12428
투를	-12429
▁니코	-12430
▁동명	-12431
▁노래는	-12432
▁단축	-12433
▁힌두	-12434
▁마이너	-12435
▁초점을	-12436
플레이스테이션	-12437
▁맘	-12438
시즌을	-12439
▁직접적인	-12440
지부	-12441
▁신지	-12442
▁장려	-12443
▁정성	-12444
▁처녀	-12445
▁동대문	-12446
▁도움으로	-12447
▁지미	-12448
▁태백	-12449
▁작품에	-12450
▁테이블	-12451
▁트랜스	-12452
▁형식의	-12453
레는	-12454
ama	-12455
▁고령	-12456
프로스	-12457
▁민주화	-12458
▁제이슨	-12459
연방	-12460
▁감지	-12461
▁하비	-12462
▁0.1	-12463
▁시절의	-12464
▁에디션	-12465
▁Spec	-12466
▁한국에서는	-12467
(1)	-12468
▁날아	-12469
▁들이	-12470
▁탓에	-12471
▁조약을	-12472
800	-12473
▁상반	-12474
▁수치	-12475
▁아니며	-12476
▁.5	-12477
▁대폭	-12478
▁중력	-12479
▁움직임	-12480
▁충분한	-12481
la	-12482
만화	-12483
▁경로	-12484
▁실린	-12485
▁일도	-12486
▁계획은	-12487
▁공민	-12488
▁손녀	-12489
▁워터	-12490
▁0-1	-12491
▁또다시	-12492
트로이트	-12493
order	-12494
아역	-12495
▁di	-12496
useum	-12497
▁보여주었다	-12498
▁.2	-12499
▁내내	-12500
▁쓰인	-12501
:1964	-12502
▁한국철도	-12503
ada	-12504
▁동네	-12505
▁수렴	-12506
▁0-0	-12507
▁남아있다	-12508
공립보통학교	-12509
▁추격	-12510
▁포로	-12511
▁본격적인	-12512
AI	-12513
석에	-12514
▁해태	-12515
▁연구는	-12516
▁지역구	-12517
▁김도	-12518
▁땅에	-12519
▁염색	-12520
▁막대한	-12521
▁불만을	-12522
▁일찍이	-12523
▁크리스티안	-12524
▁성은	-12525
천시의	-12526
▁근처의	-12527
▁일본이	-12528
~5	-12529
▁IV	-12530
omas	-12531
▁강남구	-12532
▁선교사	-12533
▁없으나	-12534
▁매사추세츠	-12535
:9	-12536
인사	-12537
추진	-12538
▁분광	-12539
▁최영	-12540
▁불계승	-12541
▁모순	-12542
▁Sum	-12543
▁일본에서는	-12544
가르	-12545
무네	-12546
▁중앙에	-12547
▁크라이	-12548
▁봉해졌다	-12549
리드	-12550
바논	-12551
시켰고	-12552
▁오리온	-12553
▁자회사	-12554
▁움직이는	-12555
메다	-12556
▁3)	-12557
▁진출하였다	-12558
터로	-12559
oth	-12560
▁각기	-12561
▁교섭	-12562
▁수평	-12563
▁득점을	-12564
▁자신에게	-12565
▁가벼	-12566
▁등극	-12567
▁연령	-12568
▁구체적인	-12569
▁미들	-12570
▁존경	-12571
▁발전에	-12572
▁껍	-12573
▁Cr	-12574
▁무려	-12575
▁장의	-12576
▁항일	-12577
▁현존하는	-12578
▁se	-12579
▁기름	-12580
▁싸이	-12581
가에서	-12582
▁1.1	-12583
▁사고가	-12584
▁체육관	-12585
▁가톨릭교도	-12586
▁맑	-12587
형제	-12588
▁터보	-12589
때문에	-12590
중에는	-12591
▁생각하는	-12592
란이	-12593
▁규제	-12594
▁정의할	-12595
보수	-12596
트맨	-12597
▁목조	-12598
▁공동제작	-12599
▁Instit	-12600
LC	-12601
가쿠	-12602
몽골	-12603
▁식별	-12604
▁얼음	-12605
▁영조	-12606
▁비슷하다	-12607
고종	-12608
▁수페르	-12609
▁그리스어	-12610
큐슈	-12611
▁않는다는	-12612
▁십자가	-12613
▁운동의	-12614
집행	-12615
한정	-12616
▁바닷	-12617
▁우울	-12618
▁앙리	-12619
▁하키	-12620
▁호위	-12621
▁Sports	-12622
▁대령	-12623
▁콘크	-12624
▁일부로	-12625
렀고	-12626
▁매출	-12627
▁석조	-12628
▁송파	-12629
▁활성	-12630
▁케네디	-12631
체인	-12632
ida	-12633
▁듯한	-12634
▁2.4	-12635
▁내부의	-12636
▁한국시리즈	-12637
애틀	-12638
였기	-12639
펜하	-12640
▁역에	-12641
▁수천	-12642
▁캐서	-12643
▁폴란드의	-12644
진행	-12645
▁살던	-12646
▁퇴역	-12647
▁치료를	-12648
▁송도	-12649
▁용이	-12650
▁들어가는	-12651
▁급식	-12652
▁목적은	-12653
파출소	-12654
▁요소를	-12655
국사	-12656
나를	-12657
도비	-12658
▁마하	-12659
▁산요	-12660
▁옵션	-12661
주의에	-12662
▁군대가	-12663
▁서서히	-12664
▁언어를	-12665
▁슌	-12666
공이	-12667
|19	-12668
▁뜻이	-12669
▁off	-12670
▁마을의	-12671
▁림	-12672
려서	-12673
전략	-12674
퀘어	-12675
▁부서	-12676
▁타쿠	-12677
견을	-12678
▁김구	-12679
브리엘	-12680
판으로	-12681
▁범유행	-12682
▁하거나	-12683
:5	-12684
있던	-12685
▁단층	-12686
▁리뷰	-12687
▁옷을	-12688
시까지	-12689
자였던	-12690
▁찾아가	-12691
▁중앙선거관리위원회	-12692
elf	-12693
▁사이에는	-12694
▁121	-12695
▁성공한	-12696
▁요시다	-12697
▁정도가	-12698
애니메이션	-12699
▁Met	-12700
▁트리플	-12701
병의	-12702
▁부적	-12703
▁얻는	-12704
▁전에는	-12705
▁기갑	-12706
▁섭취	-12707
▁죽이고	-12708
▁Count	-12709
로프	-12710
플레	-12711
▁퇴임	-12712
▁Reg	-12713
:1963	-12714
▁생각하고	-12715
▁시작된다	-12716
▁하더라도	-12717
▁EC	-12718
▁왕복	-12719
▁웹툰	-12720
▁자책	-12721
금으로	-12722
릴라	-12723
▁김규	-12724
▁좌파	-12725
era	-12726
▁AD	-12727
▁일관	-12728
도쿄도	-12729
강점	-12730
ines	-12731
AY	-12732
빌딩	-12733
스런	-12734
▁Em	-12735
▁전부터	-12736
▁LP	-12737
▁Rad	-12738
▁거리에	-12739
▁털이	-12740
▁행선	-12741
▁Dev	-12742
▁서울대	-12743
▁유소년	-12744
▁느낀	-12745
▁둘은	-12746
▁부수	-12747
▁부패	-12748
산에서	-12749
ales	-12750
▁국가를	-12751
▁강사	-12752
▁기권	-12753
▁명성	-12754
마스터	-12755
▁북쪽에	-12756
▁예술가	-12757
겼고	-12758
내면	-12759
ush	-12760
▁게오	-12761
라이브	-12762
▁지역과	-12763
▁행복한	-12764
▁프랑수아	-12765
duction	-12766
▁컸	-12767
됐고	-12768
번대	-12769
▁헬로	-12770
▁출시된	-12771
▁토대로	-12772
ero	-12773
▁업그	-12774
▁포괄	-12775
▁마르코	-12776
▁사라진	-12777
▁데이비스	-12778
▁싱글이다	-12779
교가	-12780
▁국무총리	-12781
노스케	-12782
▁공간의	-12783
▁감독이다	-12784
▁사용하기	-12785
▁시작했으며	-12786
▁사육	-12787
▁정말	-12788
▁차장	-12789
▁명명한	-12790
촌리	-12791
▁사랑에	-12792
▁경제학자	-12793
▁괜	-12794
났을	-12795
리사	-12796
여우	-12797
▁면허	-12798
▁전투가	-12799
▁카를로	-12800
▁특유의	-12801
단에서	-12802
청소년	-12803
▁검은색	-12804
be	-12805
▁댐	-12806
▁바나	-12807
▁해역	-12808
lish	-12809
▁기업의	-12810
▁셸	-12811
노는	-12812
회와	-12813
흥군	-12814
▁신하	-12815
▁이방	-12816
분데스	-12817
티아의	-12818
레드	-12819
시고	-12820
▁고수	-12821
▁마블	-12822
▁쉬운	-12823
소학교	-12824
▁때로는	-12825
▁신입생	-12826
바른	-12827
선조	-12828
:40	-12829
MHz	-12830
미치	-12831
▁대덕	-12832
▁문명	-12833
▁물에	-12834
▁입체	-12835
텔레콤	-12836
브르	-12837
칼라	-12838
▁(1976	-12839
세다	-12840
▁풀려	-12841
▁website	-12842
▁작고	-12843
▁취재	-12844
▁측근	-12845
▁어머니의	-12846
▁한국전쟁	-12847
종이다	-12848
▁거기에	-12849
▁형식을	-12850
▁카자흐스탄	-12851
▁앓	-12852
미트	-12853
철학	-12854
▁글리	-12855
▁다마	-12856
▁오로	-12857
▁진급	-12858
▁사랑과	-12859
▁속도를	-12860
▁연구가	-12861
ature	-12862
▁길고	-12863
▁성명	-12864
▁오바	-12865
▁두드러	-12866
▁말하였다	-12867
▁프로그램이	-12868
동성	-12869
에의	-12870
주민	-12871
▁118	-12872
▁카이사	-12873
외선	-12874
캐슬	-12875
▁공모	-12876
▁도둑	-12877
▁박쥐	-12878
▁초창	-12879
▁데이빗	-12880
▁서울의	-12881
트페	-12882
▁성동	-12883
▁가족의	-12884
▁이미지를	-12885
ya	-12886
▁동년	-12887
▁러셀	-12888
▁전례	-12889
▁연속으로	-12890
:50	-12891
▁거짓말	-12892
▁지금도	-12893
과로	-12894
쿠버	-12895
▁대관	-12896
▁사료	-12897
▁에서는	-12898
▁사망하고	-12899
▁컬럼비아	-12900
음에	-12901
▁두루	-12902
▁무력	-12903
▁핑크	-12904
동일본	-12905
모델링	-12906
▁간사이	-12907
오스트레일리아	-12908
▁고조	-12909
▁삼고	-12910
▁동물의	-12911
▁후반에	-12912
▁신한은행	-12913
▁문예	-12914
▁상담	-12915
▁성주	-12916
▁조달	-12917
▁피츠	-12918
▁관현악	-12919
▁근거로	-12920
▁Super	-12921
▁진해	-12922
NE	-12923
글리	-12924
용이	-12925
alt	-12926
▁끊임	-12927
ious	-12928
▁들어오	-12929
▁형태가	-12930
▁Wind	-12931
▁(1982	-12932
천사	-12933
▁아크	-12934
▁악화	-12935
▁터치	-12936
▁합작	-12937
측의	-12938
토는	-12939
▁성종	-12940
소방서	-12941
▁1,9	-12942
▁명탐정	-12943
TE	-12944
러가	-12945
에미	-12946
진에	-12947
당으로	-12948
▁구출	-12949
▁아쿠	-12950
▁캄보	-12951
▁개념은	-12952
▁과학적	-12953
▁미술관	-12954
▁받기도	-12955
▁중순	-12956
▁특이한	-12957
▁율리우스	-12958
금지	-12959
▁박탈	-12960
▁신기	-12961
▁유해	-12962
▁정면	-12963
ross	-12964
▁자세히	-12965
▁학생들이	-12966
DI	-12967
감한	-12968
구르	-12969
▁이타	-12970
▁별자리	-12971
고등학교를	-12972
▁(1968	-12973
LG	-12974
▁객관	-12975
▁남쪽에	-12976
▁페르디	-12977
▁야마가타	-12978
형과	-12979
ula	-12980
▁작센	-12981
▁해밀턴	-12982
▁팰	-12983
자본	-12984
err	-12985
▁프랑스에서	-12986
yc	-12987
원제	-12988
▁거북	-12989
▁도시는	-12990
▁총선거	-12991
SK	-12992
▁샐	-12993
▁카디	-12994
▁토미	-12995
▁건물을	-12996
▁09:00	-12997
▁대안	-12998
▁굉장히	-12999
▁London	-13000
▁항목	-13001
▁Act	-13002
:1969	-13003
알라	-13004
▁HT	-13005
▁배신	-13006
▁이틀	-13007
에너지	-13008
ival	-13009
▁후보를	-13010
▁시스템은	-13011
▁William	-13012
체고	-13013
arm	-13014
▁차가	-13015
▁히메	-13016
▁아키라	-13017
▁지배를	-13018
▁아래로	-13019
▁야구장	-13020
학습	-13021
▁MB	-13022
▁줄어	-13023
|300	-13024
▁국내외	-13025
▁시기의	-13026
너의	-13027
▁검증	-13028
▁당의	-13029
▁문경	-13030
식에서	-13031
▁중기의	-13032
각의	-13033
준의	-13034
▁재팬	-13035
▁끝나고	-13036
▁라스트	-13037
▁서대문	-13038
▁개신교도	-13039
률을	-13040
주택	-13041
▁이건	-13042
▁자신과	-13043
1.	-13044
▁공인	-13045
▁선구	-13046
▁직선	-13047
▁전한다	-13048
루냐	-13049
lor	-13050
▁기어	-13051
▁창건	-13052
ourn	-13053
▁지역에서는	-13054
반응	-13055
▁Di	-13056
▁대명	-13057
▁셈	-13058
▁정렬	-13059
▁속도로	-13060
▁해남	-13061
▁출입구	-13062
▁학교에서	-13063
▁Group	-13064
▁돌연	-13065
▁평면	-13066
셈부르크	-13067
▁스튜어트	-13068
선수권대회	-13069
수용	-13070
우며	-13071
▁("	-13072
▁고양시	-13073
▁알렉스	-13074
수지	-13075
▁미만	-13076
▁병력	-13077
▁초연	-13078
▁거슬러	-13079
▁곡이다	-13080
네시아의	-13081
니즈	-13082
수정	-13083
직에	-13084
▁고발	-13085
▁동독	-13086
▁배를	-13087
▁임명되어	-13088
AB	-13089
Sc	-13090
곡의	-13091
받을	-13092
포병	-13093
▁매달	-13094
▁세균	-13095
▁새정치	-13096
▁동메달을	-13097
▁제작되었다	-13098
ets	-13099
▁qu	-13100
▁관악	-13101
▁성모	-13102
▁라이온즈	-13103
▁자동으로	-13104
▁갇	-13105
드르	-13106
▁유이	-13107
▁정조	-13108
▁타점	-13109
요코하마	-13110
이었다고	-13111
▁오하이오	-13112
▁복선	-13113
▁사망자	-13114
▁인정받아	-13115
▁Tim	-13116
▁전설의	-13117
▁얻기	-13118
.000	-13119
▁나이가	-13120
▁라고도	-13121
석과	-13122
우트	-13123
▁간이	-13124
▁부를	-13125
▁중심지	-13126
백을	-13127
▁신조	-13128
▁마코토	-13129
▁도라에몽	-13130
▁성공적인	-13131
▁네오	-13132
▁기상청	-13133
▁모나	-13134
▁그렇지	-13135
▁로그	-13136
▁성질을	-13137
열이	-13138
▁베리	-13139
이어서	-13140
vent	-13141
▁달러를	-13142
▁사랑은	-13143
틱스	-13144
▁퀴즈	-13145
▁만나는	-13146
남녀	-13147
▁괴롭	-13148
▁조리	-13149
▁쫓겨	-13150
▁다음에	-13151
장한	-13152
폭력	-13153
ats	-13154
the	-13155
▁다니는	-13156
▁지상파	-13157
▁시골	-13158
▁채권	-13159
▁캠퍼	-13160
Inst	-13161
▁일본으로	-13162
▁구체적으로	-13163
외국어	-13164
콘서트	-13165
▁Val	-13166
▁활약한	-13167
위원회는	-13168
:1945	-13169
가게	-13170
bit	-13171
unn	-13172
▁딸을	-13173
▁불어	-13174
▁건물이	-13175
▁환원	-13176
▁가솔린	-13177
▁재산을	-13178
▁챌린지	-13179
▁한국에	-13180
▁화제가	-13181
▁고인	-13182
▁미터	-13183
▁평등	-13184
▁규정하고	-13185
▁경우를	-13186
▁면에서	-13187
▁속도가	-13188
▁차지한	-13189
▁관점에서	-13190
▁일러스트	-13191
신인	-13192
엑스	-13193
▁가맹	-13194
▁추상	-13195
곡으로	-13196
인원	-13197
ept	-13198
~14	-13199
▁더빙	-13200
▁역임한	-13201
▁생각한다	-13202
ano	-13203
▁호프	-13204
▁구스타	-13205
▁발생할	-13206
▁루이지	-13207
▁이르고	-13208
CO	-13209
다테	-13210
▁최적	-13211
▁협약	-13212
베스트	-13213
▁마음작용	-13214
▁익스프레스	-13215
▁TN	-13216
▁누르	-13217
▁둥근	-13218
▁에미	-13219
▁이의	-13220
▁Mart	-13221
▁일제강점	-13222
▁(1965	-13223
▁피겨스케이팅	-13224
EE	-13225
▁정인	-13226
▁쿠로	-13227
▁곡이	-13228
▁방콕	-13229
▁국립공원	-13230
트페테르부르크	-13231
아지	-13232
▁이누	-13233
▁증기	-13234
bo	-13235
시트	-13236
▁악기	-13237
▁죄를	-13238
▁시절부터	-13239
에스	-13240
gram	-13241
▁분포한다	-13242
▁South	-13243
제철	-13244
행동	-13245
▁삼촌	-13246
▁Mic	-13247
▁세상에	-13248
▁판결을	-13249
▁ad	-13250
▁자발	-13251
▁중심의	-13252
러의	-13253
▁난이	-13254
▁도미	-13255
됐으며	-13256
▁기록에	-13257
▁뉘	-13258
샤바	-13259
▁내무	-13260
▁박진	-13261
▁앞면	-13262
▁이식	-13263
▁대회는	-13264
▁마음에	-13265
▁사이를	-13266
▁참고로	-13267
재가	-13268
▁대책	-13269
▁드라	-13270
▁유출	-13271
▁쫓아	-13272
▁호칭	-13273
레스트	-13274
▁학교에	-13275
▁현상이	-13276
닐라	-13277
hed	-13278
▁1884	-13279
▁생각했다	-13280
광고	-13281
라르	-13282
신과	-13283
▁일조	-13284
▁신화의	-13285
La	-13286
▁콰	-13287
▁쿤	-13288
샤오	-13289
▁대처	-13290
▁불을	-13291
▁오고	-13292
▁맞추어	-13293
▁모하	-13294
▁Web	-13295
▁가능하며	-13296
희는	-13297
▁팀에	-13298
▁포터	-13299
▁선수를	-13300
어졌다	-13301
체제	-13302
oun	-13303
▁끌려	-13304
▁나츠	-13305
▁이모	-13306
▁연방의	-13307
▁은메달을	-13308
▁5,000	-13309
▁아틀레티코	-13310
포의	-13311
▁사모	-13312
▁의사를	-13313
업에	-13314
▁+3	-13315
▁시뮬	-13316
교회의	-13317
▁왕으로	-13318
▁상징하는	-13319
▁지지하는	-13320
▁못할	-13321
▁압둘	-13322
▁일명	-13323
▁1,5	-13324
서스	-13325
이하	-13326
▁간호	-13327
▁감정을	-13328
▁둘러싼	-13329
▁발매했다	-13330
▁어려움을	-13331
▁Official	-13332
Le	-13333
구나	-13334
루시아	-13335
▁지냈으며	-13336
연세대학교	-13337
삼국	-13338
▁서귀	-13339
▁짓고	-13340
▁학위	-13341
DB	-13342
▁대위	-13343
▁Win	-13344
▁당선자	-13345
▁천문학	-13346
▁도카이도	-13347
국적	-13348
aby	-13349
▁Mr	-13350
▁May	-13351
▁베어스	-13352
▁트윈스	-13353
▁아제르바이잔	-13354
바키	-13355
▁KO	-13356
▁마술	-13357
▁황제가	-13358
:1950	-13359
▁플래티넘	-13360
아야	-13361
판매	-13362
▁변수	-13363
▁퇴각	-13364
▁의원은	-13365
▁자치구	-13366
▁진나라	-13367
그리스의	-13368
▁노조	-13369
메이지	-13370
생으로	-13371
▁13,	-13372
▁서식한다	-13373
▁나비	-13374
▁상인	-13375
▁존중	-13376
▁주축	-13377
▁진정	-13378
▁프론	-13379
▁OCN	-13380
▁지명을	-13381
▁플래시	-13382
▁돌아갔다	-13383
▁회의에서	-13384
인권	-13385
▁난다	-13386
출판사	-13387
▁NBA	-13388
▁붓	-13389
타워	-13390
▁달러의	-13391
▁전통적으로	-13392
파니	-13393
▁지역이다	-13394
투쟁	-13395
▁신설된	-13396
▁발견했다	-13397
▁세계유산	-13398
▁GN	-13399
▁아산	-13400
▁한쪽	-13401
▁피해자	-13402
짜리	-13403
▁올드	-13404
▁며느리	-13405
베트남의	-13406
▁잦	-13407
▁God	-13408
▁일하는	-13409
공립국민학교	-13410
▁구제	-13411
▁맞지	-13412
라이드	-13413
▁아무도	-13414
한을	-13415
ude	-13416
▁괜찮	-13417
▁대합	-13418
▁뒤집	-13419
▁워크	-13420
▁축하	-13421
ocal	-13422
▁Way	-13423
▁레이디	-13424
▁.4	-13425
▁Hol	-13426
▁제국이	-13427
▁기록하여	-13428
▁담당하고	-13429
격이	-13430
▁조영	-13431
▁마라톤	-13432
▁제작자	-13433
▁Album	-13434
▁며칠	-13435
▁박스	-13436
체육대회	-13437
▁진행된다	-13438
메가	-13439
▁124	-13440
▁거리가	-13441
▁이처럼	-13442
사태	-13443
코올	-13444
▁복제	-13445
▁써서	-13446
글라데	-13447
ship	-13448
타입	-13449
▁#"	-13450
▁du	-13451
▁구해	-13452
▁윈도	-13453
▁얻는다	-13454
▁제외하고는	-13455
▁끓	-13456
ling	-13457
▁건너가	-13458
▁카운티	-13459
▁선언했다	-13460
일체	-13461
▁깨닫	-13462
▁외곽	-13463
교차로	-13464
▁노력을	-13465
두산	-13466
람쥐	-13467
양함	-13468
의에	-13469
▁김소	-13470
▁협박	-13471
uman	-13472
▁태그팀	-13473
▁룰	-13474
메드	-13475
▁재혼	-13476
ages	-13477
▁누르고	-13478
▁일했다	-13479
▁악마	-13480
칠리아	-13481
▁240	-13482
▁건물의	-13483
▁고려의	-13484
rd	-13485
▁시키	-13486
▁것인가	-13487
▁군대는	-13488
가나	-13489
120	-13490
▁중종	-13491
▁현종	-13492
리학자	-13493
▁게이지	-13494
▁정확하게	-13495
문학과	-13496
▁탤런트	-13497
인승	-13498
▁물어	-13499
▁섬을	-13500
▁유저	-13501
▁조이	-13502
▁실험을	-13503
▁하였는데	-13504
코로	-13505
▁법을	-13506
▁아니지만	-13507
▁일으키는	-13508
반도	-13509
아사	-13510
▁SD	-13511
▁SL	-13512
학위를	-13513
▁생각해	-13514
▁(1973	-13515
▁공과대학교	-13516
그러	-13517
▁차례로	-13518
▁황해도	-13519
ootball	-13520
led	-13521
▁체제를	-13522
▁되었지만	-13523
▁걱정	-13524
▁볼리	-13525
▁방식은	-13526
▁영상을	-13527
▁Society	-13528
▁낫	-13529
오를	-13530
▁담긴	-13531
▁실려	-13532
▁르네상	-13533
▁세종특별자치	-13534
za	-13535
작의	-13536
▁북위	-13537
▁조현	-13538
▁찰리	-13539
▁올스타전	-13540
▁보완	-13541
▁뷰티	-13542
▁촉구	-13543
▁편리	-13544
마니아의	-13545
:1967	-13546
▁독일에서	-13547
데라	-13548
▁낭만	-13549
▁매개	-13550
▁버려	-13551
▁순교	-13552
▁히사	-13553
기념물	-13554
:1975	-13555
▁성별	-13556
▁회사는	-13557
TN	-13558
▁석탄	-13559
▁바이러	-13560
ional	-13561
▁아케이드	-13562
▁Bu	-13563
▁난징	-13564
▁토끼	-13565
▁왕위를	-13566
▁(1974	-13567
▁블라디미르	-13568
▁입구	-13569
▁모델을	-13570
▁오카야마	-13571
yd	-13572
▁창녕	-13573
▁최하	-13574
캐스트	-13575
▁11.	-13576
▁평범한	-13577
심사	-13578
ala	-13579
▁느껴	-13580
▁몸이	-13581
▁이남	-13582
▁이내	-13583
▁종결	-13584
▁투구	-13585
▁하치	-13586
▁영역을	-13587
▁이듬해인	-13588
▁조건으로	-13589
놓은	-13590
▁꼭짓	-13591
▁명백	-13592
▁허리케인	-13593
코와	-13594
▁시종	-13595
▁식량	-13596
▁신생	-13597
▁대전의	-13598
▁있어서는	-13599
▁리사	-13600
▁생략	-13601
▁양궁	-13602
치면서	-13603
▁아이언	-13604
년대부터	-13605
▁승강장은	-13606
▁시즌에는	-13607
운다	-13608
▁전압	-13609
▁역사적으로	-13610
▁릭	-13611
개는	-13612
수학	-13613
▁int	-13614
하였다가	-13615
톨레	-13616
uel	-13617
▁복면	-13618
▁중퇴	-13619
▁빨간색	-13620
▁줄여서	-13621
▁중의원	-13622
▁민사	-13623
▁유언	-13624
▁Cap	-13625
▁만났다	-13626
▁생기는	-13627
▁야마다	-13628
프리미어	-13629
▁Gold	-13630
불가	-13631
원자	-13632
표준	-13633
▁무서	-13634
▁재미	-13635
▁치명	-13636
세에게	-13637
▁결혼했다	-13638
길을	-13639
▁군을	-13640
▁대왕	-13641
▁오류	-13642
▁호조	-13643
▁감독상	-13644
▁시즌의	-13645
▁Techn	-13646
푸스	-13647
ize	-13648
▁탐지	-13649
▁사랑해	-13650
strumental	-13651
어에	-13652
▁병행	-13653
▁브랜	-13654
▁신이	-13655
▁앵커	-13656
노동당	-13657
▁3.1	-13658
▁val	-13659
▁가난한	-13660
▁그러자	-13661
press	-13662
리쿠	-13663
사자	-13664
팀의	-13665
▁자오	-13666
부장관	-13667
:"	-13668
경주	-13669
▁최정	-13670
▁후배	-13671
▁히타	-13672
▁펌	-13673
하려면	-13674
▁kt	-13675
▁교외	-13676
▁서재	-13677
▁제독	-13678
▁시즈오카	-13679
▁냄	-13680
▁맏	-13681
나우	-13682
olf	-13683
▁내린	-13684
▁합법	-13685
▁목표를	-13686
▁에티오	-13687
▁프레드	-13688
인칭	-13689
▁대웅	-13690
▁말기	-13691
▁보지	-13692
▁사와	-13693
▁대회의	-13694
▁소나무	-13695
▁bl	-13696
▁동명의	-13697
기관으로	-13698
▁경상남도의	-13699
:4	-13700
감사	-13701
려면	-13702
▁직통	-13703
▁임시정부	-13704
▁동남아시아	-13705
노선	-13706
거리는	-13707
대성	-13708
▁남우	-13709
▁재현	-13710
페스트	-13711
-300	-13712
▁자세한	-13713
서리	-13714
용은	-13715
▁성격이	-13716
▁가마쿠라	-13717
니티	-13718
▁강이	-13719
▁견해	-13720
▁바퀴	-13721
▁사상을	-13722
림의	-13723
700	-13724
▁비치	-13725
▁아인	-13726
▁입자	-13727
▁Bea	-13728
▁공사가	-13729
▁컨트리	-13730
▁Road	-13731
▁그레이트	-13732
▁일어난다	-13733
업무	-13734
질로	-13735
▁선로	-13736
▁쓰기	-13737
게이트	-13738
▁오사카부	-13739
▁프리미어리그의	-13740
▁돋	-13741
(2)	-13742
▁백상	-13743
▁패트릭	-13744
▁파리에서	-13745
▁2014.	-13746
".	-13747
가왕	-13748
모르	-13749
포터	-13750
▁사헌	-13751
▁후일	-13752
▁철도가	-13753
▁나이지리아	-13754
출력	-13755
▁반공	-13756
▁카츠	-13757
▁주니치	-13758
▁거주하는	-13759
▁비슷하게	-13760
설립	-13761
업이	-13762
외교	-13763
▁안드	-13764
▁카롤	-13765
▁극작가	-13766
▁국보	-13767
▁음원	-13768
문화유산	-13769
▁등장했다	-13770
▁프리미엄	-13771
히데	-13772
▁무슨	-13773
러피언	-13774
세데스	-13775
▁일어날	-13776
▁주파수	-13777
▁플러스	-13778
:1966	-13779
▁민주공화당	-13780
각이	-13781
과거	-13782
에쓰	-13783
족과	-13784
▁대영	-13785
▁분배	-13786
icle	-13787
▁맡았고	-13788
▁더글러스	-13789
▁에스토니아	-13790
▁펜실베이니아	-13791
);	-13792
FL	-13793
Wh	-13794
연료	-13795
▁국소	-13796
▁디오	-13797
론에서	-13798
무스메	-13799
미국에	-13800
헝가리	-13801
양성	-13802
▁해를	-13803
▁다리를	-13804
▁되었을	-13805
(0	-13806
▁맷	-13807
▁기적	-13808
하였다는	-13809
▁광범위한	-13810
▁국가대표팀의	-13811
▁사용될	-13812
▁소행성	-13813
▁프란체	-13814
브루	-13815
산물	-13816
ein	-13817
ita	-13818
▁삼진	-13819
▁하우	-13820
▁무거운	-13821
▁1885	-13822
▁이상으로	-13823
상황	-13824
후기	-13825
▁전념	-13826
▁영화에	-13827
▁투르크	-13828
▁지속적인	-13829
sy	-13830
설이	-13831
▁가오	-13832
▁유산	-13833
▁적절	-13834
▁전도	-13835
▁진동	-13836
날로그	-13837
년간의	-13838
▁대학에	-13839
▁주지사	-13840
필리핀	-13841
▁LOVE	-13842
▁확인되었다	-13843
서부	-13844
▁붙은	-13845
▁소매	-13846
자였다	-13847
▁175	-13848
▁교육부	-13849
▁세워졌다	-13850
Ad	-13851
▁베네딕	-13852
▁중간에	-13853
▁잉글랜드인	-13854
▁블루윙	-13855
▁어려움	-13856
디나	-13857
통제	-13858
▁신선	-13859
▁영유	-13860
▁분리되어	-13861
▁소속이다	-13862
▁각색	-13863
▁장인	-13864
▁나오지	-13865
▁충격을	-13866
other	-13867
▁한양대학교	-13868
방위	-13869
▁Net	-13870
▁새겨져	-13871
▁완벽한	-13872
▁지정된	-13873
▁출전해	-13874
시드	-13875
▁Sk	-13876
당에서	-13877
reat	-13878
▁4.5	-13879
▁구조는	-13880
▁특징은	-13881
▁부정적인	-13882
▁리투아니아	-13883
▁낼	-13884
사르	-13885
▁열고	-13886
▁프리큐어	-13887
놓고	-13888
초를	-13889
이거나	-13890
▁지나치게	-13891
▁솟	-13892
민은	-13893
▁유타	-13894
▁커널	-13895
▁개발에	-13896
천을	-13897
▁뜻의	-13898
▁145	-13899
▁정읍	-13900
▁조직을	-13901
:2021	-13902
▁리모델링	-13903
▁시절에는	-13904
상업고등학교	-13905
로니	-13906
:05	-13907
▁다테	-13908
▁바꾼	-13909
리스타	-13910
인들에게	-13911
야는	-13912
▁누적	-13913
▁원리	-13914
음으로	-13915
화하여	-13916
▁Mil	-13917
망이	-13918
▁안쪽	-13919
▁받았으나	-13920
▁유령	-13921
tain	-13922
▁법무부	-13923
▁부문에	-13924
▁진행된	-13925
▁전쟁으로	-13926
▁낮아	-13927
▁운동이	-13928
▁대한항공	-13929
▁(2021	-13930
건이	-13931
취급	-13932
▁Let	-13933
라이어티	-13934
번에	-13935
우편	-13936
▁밝혔	-13937
▁왼손	-13938
▁입원	-13939
▁129	-13940
▁분야에	-13941
게소	-13942
브를	-13943
온이	-13944
▁공전	-13945
▁꼬마	-13946
▁경험이	-13947
pm	-13948
서도	-13949
▁공감	-13950
▁유영	-13951
운동가	-13952
준비	-13953
▁가자	-13954
▁은퇴를	-13955
hys	-13956
블랜드	-13957
▁결과에	-13958
▁않았기	-13959
▁대통령을	-13960
▁들어간다	-13961
GE	-13962
▁나아	-13963
▁추첨	-13964
▁캐리	-13965
버렸다	-13966
▁Mor	-13967
▁특별출연	-13968
▁모으	-13969
캠퍼스	-13970
▁(1969	-13971
소득	-13972
▁거론	-13973
▁성북	-13974
▁연금	-13975
▁각본을	-13976
기갑	-13977
off	-13978
▁Ke	-13979
▁도주	-13980
▁분장	-13981
▁수도원	-13982
▁음악의	-13983
다오	-13984
성면	-13985
▁로버	-13986
▁RNA	-13987
UT	-13988
▁덧붙여	-13989
▁얼굴을	-13990
▁조금씩	-13991
▁회원국	-13992
▁Science	-13993
AE	-13994
쿠르	-13995
현과	-13996
▁나눠	-13997
▁별이	-13998
도르프	-13999
평론가	-14000
▁킥	-14001
▁고든	-14002
▁상용	-14003
▁아홉	-14004
▁유죄	-14005
경으로	-14006
▁장거리	-14007
고등보통학교	-14008
▁불편	-14009
▁시크	-14010
▁칭찬	-14011
▁플랑	-14012
ayer	-14013
▁Sun	-14014
▁에어로	-14015
▁서울특별시의	-14016
피는	-14017
▁희극인	-14018
길이	-14019
▁동행	-14020
▁수녀	-14021
▁밴드는	-14022
▁어머니가	-14023
ady	-14024
▁제곱	-14025
▁캡틴	-14026
▁탁구	-14027
▁대학을	-14028
:1977	-14029
▁(1970	-14030
▁변경하였다	-14031
▁아일랜드의	-14032
결합	-14033
전도	-14034
달라고	-14035
루스의	-14036
▁군사적	-14037
▁스포르	-14038
▁정부와	-14039
씨와	-14040
창원	-14041
▁게리	-14042
▁형법	-14043
▁원자로	-14044
▁긍정적인	-14045
목의	-14046
실과	-14047
아오	-14048
▁격투	-14049
▁그루	-14050
▁받기	-14051
▁소금	-14052
▁신속	-14053
▁청송	-14054
▁기반의	-14055
▁당신의	-14056
▁중심이	-14057
▁생각된다	-14058
ASA	-14059
▁NT	-14060
▁데드	-14061
▁주사	-14062
▁2.3	-14063
▁Sim	-14064
▁아버지를	-14065
▁3,000	-14066
께끼	-14067
▁롤링	-14068
▁선도	-14069
▁했다는	-14070
▁뭉	-14071
▁강연	-14072
▁사정	-14073
▁입주	-14074
▁재난	-14075
▁한계	-14076
형이다	-14077
rown	-14078
▁vol	-14079
충청남도의	-14080
▁프로레슬링	-14081
▁다항	-14082
▁출산	-14083
▁건축가	-14084
▁슈퍼컵	-14085
▁식으로	-14086
▁이론은	-14087
▁가브리엘	-14088
▁일시적으로	-14089
▁개화	-14090
▁체중	-14091
페오나	-14092
urch	-14093
▁강제로	-14094
▁긴테쓰	-14095
▁미야자키	-14096
NH	-14097
플루	-14098
▁빌려	-14099
▁샘플	-14100
▁소지	-14101
▁종착	-14102
▁지수	-14103
▁밑에서	-14104
▁헤르체고	-14105
~17	-14106
▁시켜	-14107
▁종점	-14108
/201	-14109
▁깨달	-14110
▁방패	-14111
▁현저	-14112
바라키	-14113
▁아키타	-14114
▁소유하고	-14115
▁Robert	-14116
랴오	-14117
파울	-14118
▁치열	-14119
도마뱀	-14120
위에서	-14121
▁다음영화	-14122
▁턱	-14123
세자	-14124
▁매체	-14125
▁사커	-14126
▁기관차	-14127
▁선수들이	-14128
도군	-14129
▁관습	-14130
▁보일	-14131
▁세조	-14132
▁사람과	-14133
▁프랑스와	-14134
두리	-14135
▁성서	-14136
AV	-14137
Com	-14138
▁자신도	-14139
▁행성의	-14140
교는	-14141
itz	-14142
▁슬라	-14143
▁줄기	-14144
자리에	-14145
▁회사를	-14146
▁Back	-14147
▁짱	-14148
장수	-14149
ied	-14150
▁루터	-14151
▁석탑	-14152
▁야당	-14153
년이다	-14154
▁국경을	-14155
▁연구하는	-14156
▁준우승을	-14157
▁참여하여	-14158
ally	-14159
▁수행하는	-14160
IX	-14161
간지	-14162
왕전	-14163
코타	-14164
콜라	-14165
day	-14166
▁이한	-14167
▁최후	-14168
▁Inc	-14169
▁승리한	-14170
▁의회의	-14171
▁제품을	-14172
(2010	-14173
▁쇼트트랙	-14174
▁이집트의	-14175
론자	-14176
상규	-14177
▁국군	-14178
▁주행	-14179
스카르	-14180
지역의	-14181
ones	-14182
▁영향력	-14183
탄의	-14184
▁Sl	-14185
▁강희	-14186
▁나주	-14187
▁만의	-14188
▁End	-14189
▁모리스	-14190
▁배우자	-14191
적이었다	-14192
▁선수이며	-14193
파인	-14194
▁중대	-14195
▁간호사	-14196
▁급제하여	-14197
레타	-14198
▁TR	-14199
▁팽창	-14200
화하고	-14201
101	-14202
▁담배	-14203
▁부딪	-14204
▁수색	-14205
▁요정	-14206
▁유벤	-14207
▁유재	-14208
▁카우	-14209
▁컨셉	-14210
▁향후	-14211
▁경기로	-14212
▁된다고	-14213
▁에이지	-14214
ization	-14215
티보	-14216
ump	-14217
▁전지	-14218
▁747	-14219
▁여학생	-14220
▁100%	-14221
다지	-14222
망의	-14223
▁예배	-14224
▁진수	-14225
▁플러	-14226
▁회담	-14227
▁퍼스트	-14228
년대에는	-14229
▁노부나가	-14230
▁급속	-14231
▁미루	-14232
▁폐위	-14233
▁교수가	-14234
▁민족문제	-14235
▁Fe	-14236
▁문법	-14237
▁섬유	-14238
▁중위	-14239
레이트	-14240
▁청와대	-14241
▁시작되어	-14242
▁프로세서	-14243
바람	-14244
추는	-14245
히사	-14246
▁경사	-14247
▁리에	-14248
▁첨가	-14249
▁회화	-14250
▁남부의	-14251
▁형태는	-14252
("	-14253
야가	-14254
유리	-14255
▁쌓아	-14256
편으로	-14257
▁네이버영화	-14258
대륙	-14259
▁완봉	-14260
▁직행	-14261
▁David	-14262
음은	-14263
▁이긴	-14264
▁CEO	-14265
▁나갔다	-14266
잉글리시	-14267
arles	-14268
▁의령	-14269
atic	-14270
▁남아있는	-14271
bs	-14272
ja	-14273
▁길게	-14274
▁놓은	-14275
▁몰려	-14276
루미늄	-14277
미술관	-14278
테이션	-14279
▁마을을	-14280
▁우승팀	-14281
▁의견이	-14282
▁룸	-14283
▁남자의	-14284
▁삼성전자	-14285
예술고등학교	-14286
HD	-14287
널티	-14288
▁관공	-14289
▁소통	-14290
건은	-14291
증으로	-14292
▁사이먼	-14293
▁선거를	-14294
▁정책에	-14295
▁활약했다	-14296
▁ft	-14297
▁퍼포	-14298
▁플랜	-14299
강에서	-14300
권에서	-14301
폴란드	-14302
▁소수의	-14303
▁여성이	-14304
▁점이다	-14305
▁설립했다	-14306
쿠치	-14307
▁권총	-14308
▁모방	-14309
▁물고	-14310
▁종의	-14311
년동안	-14312
▁데스크	-14313
▁보고서	-14314
▁본인의	-14315
칸의	-14316
▁it	-14317
je	-14318
▁패자	-14319
▁나타낼	-14320
▁프란츠	-14321
▁추정되는	-14322
사토	-14323
시에는	-14324
▁할리우드	-14325
인수	-14326
지능	-14327
▁기묘	-14328
▁중기	-14329
▁연결된	-14330
▁숀	-14331
▁유카	-14332
▁성공회	-14333
▁이루었다	-14334
▁있었다는	-14335
▁중에서는	-14336
ichard	-14337
▁사회민주당	-14338
란히	-14339
▁갈아	-14340
▁슬픔	-14341
▁09.	-14342
▁Kh	-14343
▁구의	-14344
▁해병	-14345
▁영어로	-14346
▁North	-14347
비언	-14348
▁위임	-14349
▁대상을	-14350
▁소나타	-14351
히트	-14352
▁사하	-14353
▁소셜	-14354
▁사범대학	-14355
▁권고	-14356
▁넘버	-14357
▁유라	-14358
이었기	-14359
▁성공하였다	-14360
▁섀	-14361
▁과정은	-14362
박한	-14363
성동	-14364
▁최재	-14365
▁Mat	-14366
▁실질적인	-14367
관련	-14368
내어	-14369
▁히스	-14370
▁버전의	-14371
▁station	-14372
▁데뷔를	-14373
광장	-14374
기동	-14375
연장	-14376
▁BL	-14377
▁고체	-14378
▁아예	-14379
▁CBS	-14380
▁활동은	-14381
▁활발한	-14382
▁강철	-14383
▁시공	-14384
▁효소	-14385
▁man	-14386
▁최악의	-14387
▁우승하였다	-14388
네시	-14389
발사	-14390
▁보드	-14391
▁공사를	-14392
퓨팅	-14393
▁그레고	-14394
▁않았으나	-14395
▁태극	-14396
량으로	-14397
▁How	-14398
▁넣었다	-14399
▁1871	-14400
▁시점에서	-14401
▁AV	-14402
▁불이	-14403
▁기록된	-14404
▁미야기	-14405
▁1880	-14406
인한	-14407
▁유동	-14408
▁주부	-14409
▁치안	-14410
▁한큐	-14411
▁177	-14412
하겠다는	-14413
▁꿀	-14414
ope	-14415
▁고래	-14416
▁아세	-14417
▁모델은	-14418
▁분류된다	-14419
▁대치	-14420
▁약화	-14421
▁엔터	-14422
▁MTV	-14423
▁성남시	-14424
▁지키는	-14425
▁클라이언	-14426
▁정미	-14427
▁단위로	-14428
▁마음의	-14429
▁문과에	-14430
▁겁	-14431
토론	-14432
▁카프	-14433
ison	-14434
▁뉴욕에서	-14435
▁생겼다	-14436
▁시네마	-14437
NG	-14438
~8	-14439
톤의	-14440
▁고사	-14441
▁고쳐	-14442
▁리비아	-14443
▁아마도	-14444
ART	-14445
▁마카	-14446
▁정글	-14447
▁제너	-14448
▁지쿠	-14449
▁힘든	-14450
시의회	-14451
▁전라도	-14452
히라	-14453
▁믿고	-14454
직에서	-14455
▁도널드	-14456
프리미어리그의	-14457
리니	-14458
포동	-14459
▁미셸	-14460
▁이강	-14461
▁지능	-14462
▁한중	-14463
▁부족한	-14464
▁Miss	-14465
남동	-14466
▁격퇴	-14467
▁오를	-14468
▁마누엘	-14469
▁마스크	-14470
▁발견되는	-14471
▁Enter	-14472
▁중앙대학교	-14473
rew	-14474
▁사바	-14475
▁선원	-14476
▁현금	-14477
성이다	-14478
▁2.6	-14479
▁물리적	-14480
▁1800	-14481
▁방송되었다	-14482
▁자유민주당	-14483
▁Museum	-14484
HT	-14485
▁틸	-14486
공격	-14487
채를	-14488
키와	-14489
거리를	-14490
결산	-14491
ues	-14492
▁박씨	-14493
▁전날	-14494
▁팀명	-14495
페오나투	-14496
ittle	-14497
네오	-14498
함의	-14499
▁실전	-14500
▁피로	-14501
하였기	-14502
▁Leg	-14503
▁쓰였다	-14504
▁제주시	-14505
전남	-14506
중계	-14507
▁신중	-14508
▁(3)	-14509
▁것에서	-14510
▁Show	-14511
▁2013.	-14512
감에	-14513
경과	-14514
마드	-14515
전설	-14516
집에	-14517
(11	-14518
▁박태	-14519
▁키타	-14520
▁포토	-14521
▁165	-14522
2000	-14523
▁파일럿	-14524
▁스트레스	-14525
한국방송공사의	-14526
모노	-14527
rand	-14528
▁조선인	-14529
마로	-14530
▁무성	-14531
▁민영	-14532
▁전체가	-14533
▁잃어버린	-14534
예술대학교	-14535
▁지고	-14536
어에서	-14537
▁132	-14538
▁시즌이	-14539
핀란드의	-14540
▁온타리오	-14541
▁임용	-14542
▁집계	-14543
▁팀인	-14544
▁10%	-14545
▁시간대	-14546
▁미국에서는	-14547
포럼	-14548
▁fr	-14549
▁1860	-14550
▁설립하였다	-14551
▁붐	-14552
▁밀란	-14553
▁스기	-14554
▁조세	-14555
어이다	-14556
▁연예인	-14557
▁몸무게는	-14558
▁여기에는	-14559
고려대학교	-14560
천년민주당	-14561
무장	-14562
▁반박	-14563
▁순회	-14564
▁싶다	-14565
▁총대	-14566
▁헤라	-14567
▁요금소	-14568
▁학교의	-14569
번은	-14570
해지는	-14571
▁그림자	-14572
▁사회에	-14573
▁찾아서	-14574
▁파일을	-14575
▁획득한	-14576
▁Class	-14577
라니	-14578
랑카	-14579
층은	-14580
타우	-14581
▁시바	-14582
▁유연	-14583
▁치즈	-14584
▁컨페	-14585
테이너	-14586
▁그려진	-14587
▁미시간	-14588
▁주에서	-14589
▁지방에서	-14590
▁걸린	-14591
디지털	-14592
▁가이드	-14593
▁안도	-14594
▁카사	-14595
▁하락	-14596
▁Mem	-14597
▁데니스	-14598
▁기점으로	-14599
▁나라에서	-14600
▁주인공으로	-14601
IF	-14602
이동	-14603
▁GB	-14604
ible	-14605
▁유격수	-14606
▁Pres	-14607
▁활동하는	-14608
▁(1957	-14609
▁슬로바키아	-14610
장사	-14611
▁my	-14612
▁음모	-14613
▁이곳은	-14614
당하였다	-14615
▁일어나자	-14616
▁고쿠	-14617
▁자카	-14618
▁138	-14619
▁LIVE	-14620
▁봤	-14621
▁단단	-14622
▁밑에	-14623
▁서민	-14624
▁콜라	-14625
▁과정에	-14626
▁구조로	-14627
▁바꾸어	-14628
▁페널티	-14629
지아	-14630
▁마나	-14631
▁발급	-14632
▁희귀	-14633
rary	-14634
▁순수한	-14635
▁영국은	-14636
▁Mark	-14637
min	-14638
▁쿠퍼	-14639
▁수술을	-14640
▁지식을	-14641
▁커뮤니케이션	-14642
▁솜	-14643
속을	-14644
▁보성	-14645
렸으나	-14646
속으로	-14647
▁Assoc	-14648
럴드	-14649
없음	-14650
for	-14651
▁DN	-14652
바스티	-14653
:1946	-14654
▁trans	-14655
▁아르헨티나의	-14656
악한	-14657
▁좌절	-14658
▁소속이	-14659
▁일리노이	-14660
▁AB	-14661
▁조조	-14662
▁Are	-14663
▁방법이다	-14664
▁특별기획	-14665
▁정부로부터	-14666
▁전제	-14667
▁육군의	-14668
▁아시카가	-14669
▁가네	-14670
▁인형	-14671
▁제압	-14672
▁파나	-14673
▁서바이	-14674
▁호평을	-14675
▁수수께끼	-14676
것도	-14677
유적	-14678
토크	-14679
포가	-14680
▁.6	-14681
▁브루스	-14682
▁캔자스	-14683
▁으	-14684
골든	-14685
포리	-14686
▁아날로그	-14687
▁인정하지	-14688
과정을	-14689
▁드러나	-14690
무관	-14691
lev	-14692
▁신임	-14693
▁전격	-14694
터키의	-14695
▁Cat	-14696
▁시기는	-14697
IE	-14698
따라	-14699
집이	-14700
덴마크의	-14701
▁Prof	-14702
▁재단법인	-14703
▁참가하는	-14704
,19	-14705
▁1.9	-14706
▁del	-14707
▁우주의	-14708
츠크	-14709
▁밀어	-14710
▁이끈	-14711
:1952	-14712
▁Blue	-14713
▁College	-14714
고문	-14715
더는	-14716
애미	-14717
▁괴물	-14718
▁권위	-14719
▁정종	-14720
▁건물로	-14721
▁지휘관	-14722
▁라이브러리	-14723
▁플레이어가	-14724
▁보령	-14725
▁주류	-14726
일에서	-14727
▁1,3	-14728
▁MSL	-14729
▁교수는	-14730
▁레스토	-14731
▁줄리아	-14732
네티	-14733
리라	-14734
▁Ma	-14735
▁얻고	-14736
▁위장	-14737
▁직장	-14738
정부의	-14739
ique	-14740
▁한성부	-14741
멕시코의	-14742
▁아카데미상	-14743
▁10,000	-14744
▁Jr	-14745
▁군은	-14746
▁브룩	-14747
▁읍면	-14748
▁일산	-14749
구의회	-14750
▁생몰년	-14751
▁서쪽에	-14752
▁체계를	-14753
:1962	-14754
▁켈리	-14755
▁국가에	-14756
▁김일성	-14757
▁아름답	-14758
▁선보였다	-14759
▁정보통신	-14760
그는	-14761
대손	-14762
벨라	-14763
보장	-14764
우기	-14765
▁BM	-14766
▁쓰레	-14767
▁발라드	-14768
▁아미노	-14769
▁카리브	-14770
▁조선인민	-14771
ournal	-14772
▁추출	-14773
▁하코	-14774
비오	-14775
▁벌금	-14776
▁헌터	-14777
▁동메달	-14778
▁별다른	-14779
▁전두환	-14780
▁Serv	-14781
▁대신하여	-14782
▁발을	-14783
▁아랫	-14784
▁블랙홀	-14785
▁캐서린	-14786
언론	-14787
음과	-14788
카시	-14789
▁리베	-14790
▁잠실	-14791
▁체인	-14792
▁항소	-14793
▁그러던	-14794
더레이션	-14795
이스라엘	-14796
▁제외하면	-14797
▁측면에서	-14798
▁엿	-14799
년은	-14800
후군	-14801
▁글자	-14802
▁늑대	-14803
▁대가	-14804
▁뛰어나	-14805
연출	-14806
▁간토	-14807
▁설탕	-14808
▁천도	-14809
▁춘추	-14810
▁무기를	-14811
보병사단	-14812
CP	-14813
▁극히	-14814
▁박수	-14815
▁부지	-14816
:1956	-14817
▁노동조합	-14818
▁다이스케	-14819
▁신설되었다	-14820
▁짙은	-14821
▁초회	-14822
▁min	-14823
▁도야마	-14824
의사	-14825
학은	-14826
▁델타	-14827
▁화순	-14828
▁하루카	-14829
오스트리아의	-14830
▁결코	-14831
▁지점에	-14832
▁팀으로	-14833
▁연상	-14834
▁품질	-14835
▁소비자	-14836
▁장군의	-14837
▁탈삼진	-14838
▁탈환	-14839
신성	-14840
일즈	-14841
해튼	-14842
▁넣고	-14843
▁조인	-14844
▁자체는	-14845
▁하이드	-14846
▁해리스	-14847
▁니콜라이	-14848
▁유러피언	-14849
eneral	-14850
~9	-14851
르지	-14852
전리	-14853
▁높고	-14854
▁이대	-14855
▁모니터	-14856
▁신학교	-14857
두는	-14858
▁자의	-14859
▁역까지	-14860
▁있으면서	-14861
▁경기에서는	-14862
희가	-14863
pro	-14864
▁담겨	-14865
메이트	-14866
▁제국은	-14867
▁무비스트	-14868
시카	-14869
~12	-14870
레인저	-14871
생몰년	-14872
▁5.5	-14873
▁최대한	-14874
▁양호	-14875
▁어휘	-14876
방에서	-14877
▁Bel	-14878
대회에서	-14879
예술대상	-14880
:1948	-14881
▁경기도의	-14882
irt	-14883
▁날에	-14884
왔으며	-14885
▁회사가	-14886
▁First	-14887
조리	-14888
풍을	-14889
▁두개	-14890
▁타마	-14891
▁협의	-14892
▁2.8	-14893
▁50%	-14894
▁들어온	-14895
▁수원시	-14896
▁사라졌다	-14897
▁이노우에	-14898
액의	-14899
운의	-14900
▁초빙	-14901
이면서	-14902
▁함부르크	-14903
▁개축	-14904
▁양키	-14905
▁선수는	-14906
기관이다	-14907
▁약혼	-14908
▁제네바	-14909
브의	-14910
▁매입	-14911
▁파인	-14912
▁기능은	-14913
▁이어진	-14914
▁일본을	-14915
했습니다	-14916
▁부위원장	-14917
▁빔	-14918
방식	-14919
▁강성	-14920
▁모티브	-14921
주식회사	-14922
▁경우에도	-14923
▁중소기업	-14924
동아	-14925
적이지	-14926
타이완의	-14927
워서	-14928
▁음료	-14929
▁시설이	-14930
▁Club	-14931
Ex	-14932
▁눌	-14933
교양	-14934
▁에반	-14935
▁싱글로	-14936
▁둘러싸고	-14937
▁시스템이	-14938
▁않는다고	-14939
▁참여하는	-14940
레를	-14941
▁송시	-14942
▁출구	-14943
▁팔라	-14944
▁회수	-14945
arth	-14946
▁앤더슨	-14947
▁우승자	-14948
▁콘테스트	-14949
정수	-14950
▁경호	-14951
▁나가는	-14952
▁여부를	-14953
▁초반에	-14954
▁Long	-14955
▁위치하며	-14956
Ed	-14957
▁종족	-14958
▁나섰다	-14959
▁되지만	-14960
▁아폴로	-14961
▁태도를	-14962
▁Year	-14963
▁월드컵에서	-14964
▁Street	-14965
융합	-14966
▁그릇	-14967
▁산소	-14968
▁칭호를	-14969
▁카스티	-14970
▁색을	-14971
▁음식을	-14972
▁조건이	-14973
▁출전한	-14974
▁포르투갈의	-14975
네는	-14976
도전	-14977
명인	-14978
▁art	-14979
(2007	-14980
사쿠	-14981
▁Ha	-14982
▁간선	-14983
▁일화	-14984
▁정밀	-14985
▁힘입	-14986
구무스메	-14987
▁라트비아	-14988
~1	-14989
무가	-14990
붙이	-14991
▁LC	-14992
▁연봉	-14993
▁왜냐	-14994
되지는	-14995
▁사고를	-14996
▁피해가	-14997
▁캄보디아	-14998
위해	-14999
인들	-15000
▁디지	-15001
▁쓰시마	-15002
▁요소가	-15003
폴란드의	-15004
iction	-15005
버른	-15006
▁도봉	-15007
▁포장	-15008
▁흑백	-15009
▁귀중한	-15010
▁기관총	-15011
▁버클리	-15012
네트워크	-15013
ridge	-15014
▁Institute	-15015
▁깎	-15016
경비	-15017
▁실력	-15018
▁초월	-15019
▁마쳤다	-15020
▁아이슬란드	-15021
VA	-15022
친왕	-15023
▁NE	-15024
▁OB	-15025
▁사당	-15026
▁혼다	-15027
까지만	-15028
▁15,	-15029
▁정신적	-15030
발이	-15031
arg	-15032
▁동창	-15033
▁거리는	-15034
▁관리하는	-15035
▁이시카와	-15036
▁콜로라도	-15037
▁벵	-15038
▁싣	-15039
노트	-15040
포는	-15041
▁술을	-15042
▁프로젝트를	-15043
니오	-15044
목이	-15045
▁극동	-15046
▁이희	-15047
▁했을	-15048
▁최상위	-15049
▁캉	-15050
신당	-15051
▁히데요시	-15052
▁Power	-15053
▁발매하였다	-15054
리치	-15055
림이	-15056
▁기수	-15057
▁김세	-15058
▁네팔	-15059
▁시몬	-15060
▁진출을	-15061
irect	-15062
권자	-15063
▁.9	-15064
▁김천	-15065
임에도	-15066
▁구조가	-15067
▁정리한	-15068
▁판매량	-15069
▁Line	-15070
▁지어졌다	-15071
▁친일인명사전	-15072
푸아	-15073
▁국악	-15074
▁비용을	-15075
▁알렸다	-15076
▁준비를	-15077
▁구릉	-15078
▁박현	-15079
▁쓰지	-15080
끄러운	-15081
here	-15082
▁인물이	-15083
▁1600	-15084
아래	-15085
▁당일	-15086
▁샌드	-15087
▁인격	-15088
▁피오	-15089
시키며	-15090
▁승인을	-15091
로부터의	-15092
▁나올	-15093
▁이봉	-15094
ople	-15095
▁USS	-15096
iness	-15097
▁중심기압	-15098
보우	-15099
봉사	-15100
서기	-15101
▁이산	-15102
▁추산	-15103
▁배웠다	-15104
▁알프레	-15105
▁일컫는	-15106
▁클레이	-15107
▁사회과학	-15108
▁House	-15109
▁렉	-15110
스콘	-15111
쾰른	-15112
▁기습	-15113
▁급제자	-15114
attle	-15115
판사	-15116
▁들려	-15117
▁외손	-15118
▁소속된	-15119
▁카드를	-15120
▁클라우드	-15121
▁디트로이트	-15122
ico	-15123
▁받침	-15124
▁자를	-15125
▁0-2	-15126
▁시애틀	-15127
▁홉	-15128
전용	-15129
-1)	-15130
▁궁전	-15131
▁넣은	-15132
burg	-15133
▁20,	-15134
▁빛나는	-15135
▁것으로서	-15136
▁않았다고	-15137
르며	-15138
▁나미	-15139
▁박찬	-15140
▁사구	-15141
▁제천	-15142
▁총합	-15143
▁협정	-15144
▁기간에	-15145
▁인스타	-15146
(2011	-15147
▁디비시온의	-15148
파라	-15149
폭탄	-15150
▁상공	-15151
▁크롬	-15152
프스키	-15153
▁용인시	-15154
▁위기를	-15155
▁콤팩트	-15156
변이	-15157
자료실	-15158
▁Paul	-15159
▁가와사키	-15160
서야	-15161
▁가드	-15162
▁함유	-15163
자유당	-15164
조참판	-15165
진으로	-15166
▁2.7	-15167
▁동쪽에	-15168
▁앨범의	-15169
▁은메달	-15170
▁케이트	-15171
ander	-15172
▁이후로는	-15173
슬로바키아	-15174
어항	-15175
▁스텔	-15176
▁전무	-15177
rich	-15178
▁Sol	-15179
▁나타낸	-15180
▁출판사	-15181
▁퍼포먼	-15182
▁1870	-15183
ora	-15184
▁기해	-15185
▁두어	-15186
▁안보	-15187
▁Story	-15188
Co	-15189
▁6.	-15190
▁시오	-15191
▁파랑	-15192
▁야쿠르트	-15193
▁낚	-15194
▁뉴턴	-15195
▁말씀	-15196
▁성취	-15197
▁부대를	-15198
▁쓰이고	-15199
▁항공의	-15200
▁존재하며	-15201
▁반해	-15202
▁추석	-15203
▁저술가	-15204
▁좋아한다	-15205
동초등학교	-15206
▁룩셈부르크	-15207
▁버라이어티	-15208
약성	-15209
▁모자	-15210
▁자택	-15211
포인트	-15212
▁개혁을	-15213
▁장면을	-15214
▁해병대	-15215
TR	-15216
▁`	-15217
던트	-15218
재는	-15219
할때	-15220
▁대부	-15221
▁선사	-15222
▁(1975	-15223
감과	-15224
냈고	-15225
▁청원	-15226
▁국가로	-15227
▁양식을	-15228
▁결정되었다	-15229
UR	-15230
▁서스	-15231
▁다룬다	-15232
▁되었다가	-15233
▁대소	-15234
▁붙인	-15235
스트리	-15236
▁계획에	-15237
▁베이커	-15238
▁(1967	-15239
ME	-15240
▁군에	-15241
▁그중	-15242
▁이문	-15243
▁전적	-15244
▁450	-15245
네트	-15246
▁우르	-15247
심에서	-15248
해왔다	-15249
▁감독과	-15250
▁여기에서	-15251
▁중요하다	-15252
▁부분적으로	-15253
야를	-15254
▁만세	-15255
▁멕시코의	-15256
▁복면가왕	-15257
중량	-15258
층이	-15259
▁단기	-15260
▁달콤	-15261
▁함대	-15262
▁게임이	-15263
▁Great	-15264
▁첸	-15265
바위	-15266
▁상표	-15267
▁온다	-15268
▁다카라	-15269
▁신호를	-15270
▁거느리고	-15271
▁관련한	-15272
▁나폴리	-15273
▁노벨상	-15274
▁비행기	-15275
▁여배우	-15276
▁우라늄	-15277
▁이후부터	-15278
▁(1955	-15279
▁딸로	-15280
▁콘서	-15281
▁터뜨	-15282
▁소피아	-15283
:1965	-15284
세손	-15285
▁빌라	-15286
텍사스	-15287
▁별명을	-15288
▁우승한	-15289
▁이름인	-15290
▁트로이	-15291
▁Aust	-15292
연수	-15293
▁억압	-15294
▁마르티	-15295
▁웨스턴	-15296
▁협주곡	-15297
ca	-15298
▁고아	-15299
▁밀러	-15300
▁아소	-15301
▁시티즌	-15302
▁전투는	-15303
허가	-15304
▁수장	-15305
▁아다	-15306
▁256	-15307
▁장치를	-15308
▁치러진	-15309
▁기각	-15310
▁생생	-15311
▁시정	-15312
▁일컬	-15313
▁거기서	-15314
▁언어의	-15315
▁의식을	-15316
▁프랭클린	-15317
석사	-15318
편집	-15319
▁김옥	-15320
▁누이	-15321
▁수습	-15322
▁자크	-15323
년대의	-15324
▁Law	-15325
▁따른다	-15326
▁CG	-15327
▁수련	-15328
▁2015.	-15329
안보	-15330
▁레온	-15331
▁영산	-15332
▁도착한	-15333
▁문서는	-15334
후쿠오카	-15335
▁미스코리아	-15336
Ge	-15337
HO	-15338
▁얹	-15339
경쟁	-15340
iro	-15341
방으로	-15342
어지는	-15343
▁136	-15344
▁애슬레	-15345
비안	-15346
▁비평	-15347
독일계	-15348
▁공로로	-15349
▁급격히	-15350
▁미래의	-15351
▁미얀마	-15352
▁사회를	-15353
▁주장하고	-15354
▁개발되었다	-15355
루트	-15356
원장	-15357
New	-15358
▁던져	-15359
▁원조	-15360
▁포획	-15361
▁마우스	-15362
▁쑤	-15363
난성	-15364
바는	-15365
▁감마	-15366
▁루카	-15367
▁중산	-15368
itch	-15369
▁비주얼	-15370
▁왕위에	-15371
▁이글스	-15372
▁이즈미	-15373
(2006	-15374
▁포스트시즌	-15375
▁컨페더레이션	-15376
▁떡	-15377
애를	-15378
▁드문	-15379
▁무상	-15380
▁밀리	-15381
▁신념	-15382
우리당	-15383
▁여름에	-15384
▁공신	-15385
▁담아	-15386
▁통틀	-15387
▁하프	-15388
:1961	-15389
▁댓	-15390
수욕	-15391
▁우측	-15392
▁조병	-15393
▁버렸다	-15394
니코	-15395
프턴	-15396
▁바보	-15397
▁143	-15398
▁Mov	-15399
▁센고쿠	-15400
▁차량은	-15401
쇼와	-15402
차드	-15403
텍처	-15404
▁궁극	-15405
▁상급	-15406
▁이석	-15407
달의	-15408
도서	-15409
모와	-15410
양구	-15411
())	-15412
▁Ep	-15413
▁기술의	-15414
▁삼국지	-15415
▁알루미늄	-15416
께서	-15417
통의	-15418
▁꽃이	-15419
▁넥센	-15420
▁사살	-15421
▁서지	-15422
▁레스토랑	-15423
▁나눈	-15424
▁비유	-15425
▁표명	-15426
▁기온은	-15427
▁베이비	-15428
▁알코올	-15429
▁후지와	-15430
고등법원	-15431
▁디자인을	-15432
풍의	-15433
▁배수	-15434
▁떨어지는	-15435
기니	-15436
▁마요	-15437
▁메릴	-15438
▁미정	-15439
▁기자회	-15440
▁시설을	-15441
▁펼쳤다	-15442
전라북도의	-15443
기하	-15444
비키	-15445
클로	-15446
▁디나	-15447
▁보전	-15448
▁전세	-15449
▁협동	-15450
(2009	-15451
▁결정적인	-15452
▁미네소타	-15453
▁Reference	-15454
rie	-15455
▁분화	-15456
▁지선	-15457
▁230	-15458
▁어렸을	-15459
피의	-15460
▁라마	-15461
▁주가	-15462
▁투명	-15463
▁Hot	-15464
▁소리가	-15465
▁향하는	-15466
▁Soul	-15467
▁스테이션	-15468
트넘	-15469
▁적고	-15470
ough	-15471
▁메시지를	-15472
▁체포되어	-15473
▁시초	-15474
ness	-15475
▁원작자	-15476
▁West	-15477
▁오클랜드	-15478
경희	-15479
심상	-15480
타와	-15481
▁놓았다	-15482
▁근처에서	-15483
플래	-15484
▁동위	-15485
▁잡은	-15486
▁주를	-15487
▁학과	-15488
▁Dec	-15489
▁직전에	-15490
▁포르투	-15491
특수학급	-15492
▁페르디난	-15493
▁Fr	-15494
▁가죽	-15495
▁건륭	-15496
▁당대	-15497
▁연기를	-15498
상으로는	-15499
▁Free	-15500
DC	-15501
idd	-15502
▁맞은	-15503
▁머신	-15504
▁웹드라마	-15505
농협	-15506
막극	-15507
스기	-15508
▁담임	-15509
▁왕은	-15510
▁후루	-15511
커니즘	-15512
agon	-15513
▁137	-15514
▁Fri	-15515
▁Stand	-15516
개정	-15517
것을	-15518
나오	-15519
▁말의	-15520
▁부모님	-15521
▁환경을	-15522
콜로	-15523
피크	-15524
▁띠고	-15525
▁로비	-15526
▁백과	-15527
ense	-15528
▁ABC	-15529
▁내부에	-15530
▁손으로	-15531
▁있었을	-15532
▁호랑이	-15533
▁그리스도의	-15534
▁피아니스트	-15535
▁Season	-15536
▁깜	-15537
부상	-15538
▁대종	-15539
▁딸인	-15540
▁복싱	-15541
▁존속	-15542
톨레마이	-15543
:1958	-15544
▁베트남의	-15545
통계시스템	-15546
오일	-15547
ids	-15548
▁다름	-15549
▁축출	-15550
▁4.0	-15551
▁따뜻한	-15552
▁기록하는	-15553
▁플레이어는	-15554
▁퐁	-15555
소련	-15556
체계	-15557
▁미디	-15558
(2008	-15559
▁축구단의	-15560
▁선거통계시스템	-15561
▁구할	-15562
▁수면	-15563
▁Sound	-15564
▁일방	-15565
▁한인	-15566
▁휴식	-15567
▁Ann	-15568
▁오스틴	-15569
층을	-15570
▁경의	-15571
▁상해	-15572
▁134	-15573
▁요청을	-15574
값을	-15575
개소	-15576
▁마가	-15577
▁희곡	-15578
▁146	-15579
▁들어갔	-15580
▁배우로	-15581
▁프레데	-15582
▁앰	-15583
욕을	-15584
해석	-15585
▁+4	-15586
▁디자	-15587
----	-15588
elop	-15589
▁기리기	-15590
▁버전이	-15591
▁관할하는	-15592
▁선종	-15593
▁지각	-15594
▁지주	-15595
▁GHz	-15596
▁와중에	-15597
Te	-15598
oto	-15599
▁미친	-15600
▁보은	-15601
▁진지	-15602
▁고스트	-15603
▁마르틴	-15604
▁부분의	-15605
▁전쟁은	-15606
▁첫사랑	-15607
unction	-15608
▁틴	-15609
▁-2	-15610
▁고기	-15611
▁호의	-15612
▁행사를	-15613
▁모델이다	-15614
돌을	-15615
여름	-15616
▁업적을	-15617
▁동국대학교	-15618
츠가	-15619
▁로페	-15620
▁배상	-15621
▁탐색	-15622
▁14,	-15623
▁문제의	-15624
▁인기가요	-15625
▁대한민국은	-15626
▁헥	-15627
츠카	-15628
▁적혀	-15629
▁함양	-15630
▁res	-15631
▁매카트	-15632
▁1888	-15633
▁가면라이더	-15634
가이	-15635
▁기저	-15636
▁리옹	-15637
▁문과	-15638
▁앤디	-15639
▁어긋	-15640
ague	-15641
▁139	-15642
▁2,0	-15643
▁아리아	-15644
▁이래로	-15645
▁법과대학	-15646
▁운행한다	-15647
▁복귀하였다	-15648
▁선정한	-15649
▁부문에서	-15650
▁지구에서	-15651
YP	-15652
ua	-15653
함대	-15654
화문	-15655
▁무어	-15656
▁바우	-15657
▁오기	-15658
▁not	-15659
▁가지며	-15660
▁달리는	-15661
방향으로	-15662
▁(1972	-15663
mas	-15664
rad	-15665
▁대진	-15666
▁지녔	-15667
▁체크	-15668
▁중국인	-15669
NC	-15670
▁땄	-15671
창조	-15672
▁청소	-15673
원이다	-15674
▁의미의	-15675
▁사건이다	-15676
/10	-15677
▁헬싱	-15678
▁논문을	-15679
▁아이디얼	-15680
노에	-15681
함수	-15682
▁Je	-15683
▁가축	-15684
▁바비	-15685
▁발트	-15686
▁비오	-15687
▁암흑	-15688
▁정진	-15689
나가는	-15690
▁부시	-15691
▁사랑이	-15692
▁자연스럽게	-15693
JR	-15694
▁무안	-15695
▁불확	-15696
▁잎은	-15697
▁도르트	-15698
▁차량을	-15699
▁하느님	-15700
▁편성으로	-15701
▁대한민국에	-15702
▁:*	-15703
▁교양	-15704
▁김호	-15705
▁비자	-15706
▁비전	-15707
▁요절	-15708
▁반지름	-15709
▁삼각형	-15710
▁일본식	-15711
건강	-15712
교토	-15713
람회	-15714
배치	-15715
에어	-15716
ube	-15717
▁어뢰	-15718
▁연희	-15719
▁데이브	-15720
성남	-15721
▁von	-15722
▁시간의	-15723
▁인디애나	-15724
장조	-15725
지명	-15726
▁너의	-15727
▁실책	-15728
▁겪었다	-15729
WA	-15730
▁미녀	-15731
▁테라	-15732
▁규모는	-15733
▁정신을	-15734
▁파리의	-15735
▁화장실	-15736
▁도입되었다	-15737
그의	-15738
▁가쿠	-15739
▁기기	-15740
▁데이트	-15741
enter	-15742
Pr	-15743
▁뻔	-15744
라톱	-15745
렐라	-15746
▁박은	-15747
▁케냐	-15748
▁투르	-15749
▁행진	-15750
▁헌정	-15751
으려고	-15752
▁레바논	-15753
▁전주시	-15754
▁왜냐하면	-15755
ological	-15756
▁옮김	-15757
▁읽는	-15758
물이다	-15759
▁1,4	-15760
▁예산결산	-15761
▁함으로써	-15762
▁(2017)	-15763
▁상트페테르부르크	-15764
위기	-15765
▁대거	-15766
▁부가	-15767
▁오산	-15768
▁2-2	-15769
▁크리에	-15770
▁Hall	-15771
▁경희대학교	-15772
일부	-15773
최고	-15774
cus	-15775
▁엔젤	-15776
▁영월	-15777
▁한상	-15778
▁비난을	-15779
▁생각할	-15780
▁없어진	-15781
▁NASA	-15782
▁(1959	-15783
학술	-15784
▁만성	-15785
▁형상	-15786
▁규정에	-15787
▁드러머	-15788
▁인접한	-15789
라리가의	-15790
▁통합하여	-15791
▁하나였다	-15792
▁닦	-15793
리버	-15794
▁나눌	-15795
▁석가	-15796
▁채워	-15797
▁핸드볼	-15798
:1959	-15799
아르헨티나의	-15800
▁컨페더레이션스컵	-15801
▁이룬	-15802
▁자선	-15803
▁제왕	-15804
▁품고	-15805
▁Sam	-15806
▁그쳤다	-15807
▁되돌아	-15808
▁아스널	-15809
동원	-15810
▁돼지	-15811
▁앉아	-15812
▁개인전	-15813
▁특징이	-15814
▁출전하였다	-15815
공로	-15816
언스	-15817
▁충전	-15818
분부터	-15819
▁군대의	-15820
▁배치되어	-15821
▁광둥	-15822
▁임관	-15823
▁한림	-15824
▁Video	-15825
만여	-15826
야만	-15827
하로	-15828
▁낸다	-15829
▁워커	-15830
▁풍자	-15831
▁하타	-15832
▁Pat	-15833
뉴얼	-15834
▁가동	-15835
▁깨끗	-15836
▁동상	-15837
▁먹을	-15838
▁번식	-15839
▁시호	-15840
▁이차	-15841
▁정서	-15842
▁조수	-15843
직할시	-15844
▁시코쿠	-15845
▁유래한	-15846
:1955	-15847
▁중단되었다	-15848
▁열심	-15849
체이다	-15850
▁느낌을	-15851
▁대통령에	-15852
▁가려	-15853
▁봉쇄	-15854
▁제리	-15855
▁166	-15856
▁공격에	-15857
▁그래도	-15858
▁인스타그램	-15859
~2	-15860
거스	-15861
▁자칭	-15862
▁투옥	-15863
▁구간의	-15864
▁유니버스	-15865
▁(1966	-15866
▁알렉산드르	-15867
식스	-15868
▁듀오	-15869
▁트로트	-15870
▁키프로스	-15871
▁대회에서는	-15872
▁후지와라노	-15873
GO	-15874
더의	-15875
▁SA	-15876
나라에	-15877
▁1:0	-15878
▁본사는	-15879
▁자체를	-15880
▁프레이	-15881
▁인테르나	-15882
▁시작하였고	-15883
닷컴	-15884
▁멜로	-15885
▁슈트	-15886
말레이	-15887
▁저명한	-15888
▁지방을	-15889
▁1883	-15890
▁이어진다	-15891
▁여객철도가	-15892
▁썸	-15893
질환	-15894
항의	-15895
후이	-15896
▁들을	-15897
▁청계	-15898
▁요시노	-15899
▁작가의	-15900
▁주어진다	-15901
▁횟수	-15902
있었다	-15903
▁131	-15904
▁978	-15905
▁스톡홀름	-15906
▁차원에서	-15907
▁대하드라마	-15908
▁멍	-15909
강화	-15910
생이	-15911
코파	-15912
▁닌자	-15913
▁병역	-15914
▁것보다	-15915
▁노르웨이의	-15916
▁프로그램에	-15917
▁각주	-15918
▁돌격	-15919
▁마유	-15920
▁불화	-15921
▁조언	-15922
▁캐롤	-15923
서일본	-15924
▁경상도	-15925
▁마르세	-15926
▁작성된	-15927
▁힘입어	-15928
▁플라스틱	-15929
▁에티오피아	-15930
판과	-15931
▁상류	-15932
▁즐겨	-15933
▁경찰에	-15934
▁작위를	-15935
▁(2013)	-15936
공은	-15937
루와	-15938
목은	-15939
▁시와	-15940
▁울프	-15941
▁취항	-15942
▁다음해	-15943
▁본인이	-15944
▁(2012)	-15945
매를	-15946
▁신해	-15947
▁하부	-15948
▁해소	-15949
아니아	-15950
이즈미	-15951
▁무조건	-15952
▁엄격한	-15953
▁장관을	-15954
▁전자기	-15955
▁런던에서	-15956
oz	-15957
나드	-15958
나비	-15959
해주는	-15960
▁역사의	-15961
▁자금을	-15962
▁최연소	-15963
▁토리노	-15964
▁Port	-15965
▁생산하는	-15966
니를	-15967
지스	-15968
대통령	-15969
▁가벼운	-15970
▁보한다	-15971
▁차량이	-15972
▁White	-15973
대중	-15974
▁고산	-15975
▁아저	-15976
▁엄격	-15977
▁Del	-15978
▁있는지	-15979
▁문화체육관광부	-15980
5%	-15981
▁신탁	-15982
ency	-15983
▁밀도는	-15984
▁애틀랜타	-15985
는가	-15986
▁가환	-15987
▁갈릴	-15988
▁닫힌	-15989
가지의	-15990
▁Over	-15991
▁가나가와현	-15992
로쿠	-15993
투어	-15994
풍속	-15995
▁이혜	-15996
▁찍은	-15997
▁허드	-15998
▁3-2	-15999
▁인근의	-16000
▁찾아볼	-16001
▁처음부터	-16002
홍보	-16003
:11	-16004
ces	-16005
▁오아	-16006
▁오른손	-16007
~7	-16008
▁엮	-16009
재산	-16010
-50	-16011
▁가구	-16012
▁기점	-16013
▁류큐	-16014
▁서면	-16015
feat	-16016
▁애비뉴	-16017
▁영국인	-16018
▁cont	-16019
세인	-16020
수소	-16021
▁안경	-16022
▁책의	-16023
▁뮤지션	-16024
▁일대를	-16025
▁재능을	-16026
▁정해진	-16027
▁집안의	-16028
▁자유로운	-16029
▁2012.	-16030
!)	-16031
교류	-16032
▁날카	-16033
▁좌측	-16034
▁올리버	-16035
▁하나이며	-16036
PR	-16037
유예	-16038
질은	-16039
▁띤다	-16040
▁목을	-16041
▁씨의	-16042
▁죽이	-16043
자들과	-16044
▁San	-16045
▁다케다	-16046
▁시트콤	-16047
▁차량의	-16048
▁스파이더	-16049
▁감리	-16050
▁목록은	-16051
▁컴퓨팅	-16052
벨기에의	-16053
아프리카계	-16054
unt	-16055
▁도요토미	-16056
▁알래스카	-16057
▁(2016)	-16058
루에	-16059
번이	-16060
▁노태	-16061
▁탱크	-16062
▁하반	-16063
▁회로	-16064
▁횡단	-16065
▁제사를	-16066
▁불가능하다	-16067
조한	-16068
▁선우	-16069
리면서	-16070
사업을	-16071
스카야	-16072
▁3.3	-16073
▁잃었다	-16074
▁1893	-16075
종합운동장	-16076
고양	-16077
보니	-16078
()(	-16079
▁우아	-16080
▁원반	-16081
▁카네	-16082
▁헬리	-16083
▁154	-16084
▁자유주의	-16085
UM	-16086
유소	-16087
정지	-16088
▁강민	-16089
▁나인	-16090
▁낙동	-16091
▁발원	-16092
▁전경	-16093
▁청량	-16094
크리스	-16095
▁독립된	-16096
▁제안을	-16097
▁표현을	-16098
▁아오모리	-16099
▁직접적으로	-16100
▁예정이었으나	-16101
uz	-16102
▁대역	-16103
▁베른	-16104
쳤으며	-16105
iter	-16106
▁148	-16107
▁남기고	-16108
▁다이빙	-16109
▁솔루션	-16110
▁요구했다	-16111
▁Christian	-16112
▁불리고	-16113
▁저작권	-16114
▁환경에서	-16115
심상소학교	-16116
빈의	-16117
▁갱신	-16118
▁고창	-16119
▁윤종	-16120
▁폭행	-16121
▁TOP	-16122
▁브뤼셀	-16123
▁q	-16124
모양	-16125
기관의	-16126
부원군	-16127
▁개발이	-16128
▁관리를	-16129
▁그다지	-16130
▁This	-16131
▁얽	-16132
티즌	-16133
▁귀여	-16134
▁냉각	-16135
▁숭배	-16136
▁이완	-16137
▁진군	-16138
▁호크	-16139
어린이	-16140
▁밀접한	-16141
▁글로브상	-16142
▁대통령과	-16143
▁이야기는	-16144
더니	-16145
운을	-16146
▁과일	-16147
▁비단	-16148
▁현황	-16149
▁황해	-16150
펜하겐	-16151
▁아돌프	-16152
▁엔진은	-16153
▁기록했고	-16154
▁승강장이	-16155
/)	-16156
▁랄	-16157
레즈	-16158
부키	-16159
▁가왕	-16160
▁워드	-16161
▁지평	-16162
▁142	-16163
▁필리프	-16164
▁스스로를	-16165
▁승격되었다	-16166
텍스	-16167
▁입성	-16168
문트	-16169
▁디에	-16170
▁쏟아	-16171
▁이유를	-16172
▁목소리를	-16173
QL	-16174
지다	-16175
▁김보	-16176
백화점	-16177
였을	-16178
폭풍	-16179
▁발라	-16180
▁저자	-16181
▁현악	-16182
▁아카이	-16183
▁외국어	-16184
▁헌액자	-16185
▁실패하였다	-16186
발로	-16187
oft	-16188
불교의	-16189
▁모델이	-16190
▁물건을	-16191
▁시장에	-16192
▁아이폰	-16193
▁코드를	-16194
▁성우이다	-16195
네르	-16196
단장	-16197
▁가산	-16198
▁측의	-16199
궐선거	-16200
▁용어를	-16201
▁전하는	-16202
▁우즈베키스탄	-16203
당해	-16204
▁남산	-16205
▁드리	-16206
▁에콰	-16207
경찰청	-16208
▁Fre	-16209
▁바다의	-16210
▁아나키	-16211
▁이라고도	-16212
레븐	-16213
연은	-16214
줬다	-16215
▁명에	-16216
▁280	-16217
▁Work	-16218
li	-16219
▁계몽	-16220
▁모용	-16221
▁침투	-16222
▁본사를	-16223
▁중앙위원회	-16224
▁녀	-16225
▁북방	-16226
심리학	-16227
▁16,	-16228
▁레이스	-16229
▁1892	-16230
▁서울중앙	-16231
▁와카야마	-16232
▁Light	-16233
오늘	-16234
amm	-16235
▁처럼	-16236
▁기록해	-16237
▁실패로	-16238
▁어려워	-16239
▁이유가	-16240
▁자리잡고	-16241
성장	-16242
작이	-16243
▁Mi	-16244
▁노바	-16245
▁단역	-16246
▁따온	-16247
▁블로	-16248
▁What	-16249
ograph	-16250
모션	-16251
주자	-16252
▁곡선	-16253
▁사리	-16254
▁에게	-16255
▁탄도	-16256
▁포병	-16257
▁구축함	-16258
▁방식이	-16259
▁브라질인	-16260
▁떠올	-16261
ince	-16262
▁경기수	-16263
▁방문한	-16264
▁북부의	-16265
▁중국에	-16266
링을	-16267
정비	-16268
▁예고	-16269
▁홀리	-16270
▁흥선	-16271
▁불교의	-16272
▁최근의	-16273
▁특징으로	-16274
▁(2006)	-16275
골로	-16276
살의	-16277
영업	-16278
▁교리	-16279
▁모은	-16280
▁완투	-16281
나갔다	-16282
▁Tri	-16283
▁1868	-16284
ection	-16285
KO	-16286
▁댈	-16287
성사	-16288
조각	-16289
▁교역	-16290
▁조승	-16291
▁중견	-16292
▁타츠	-16293
▁파커	-16294
bert	-16295
▁185	-16296
▁캐스터	-16297
곡은	-16298
녀를	-16299
자일	-16300
토쿠	-16301
▁민선	-16302
▁사내	-16303
▁아타	-16304
▁트렌	-16305
▁경찰은	-16306
▁국민당	-16307
▁비판했다	-16308
▁자격으로	-16309
De	-16310
주지	-16311
▁권장	-16312
▁릴리	-16313
▁스태	-16314
▁저격	-16315
▁부대는	-16316
▁1887	-16317
▁총대주교	-16318
상행	-16319
성인	-16320
회분	-16321
▁강서	-16322
▁스포	-16323
▁API	-16324
:1954	-16325
▁상태였다	-16326
▁예선에서	-16327
▁핀란드의	-16328
공군	-16329
궁의	-16330
독한	-16331
유는	-16332
하트	-16333
▁Er	-16334
▁난민	-16335
▁이도	-16336
▁제퍼	-16337
▁하쿠	-16338
▁한해	-16339
▁공부를	-16340
▁보유한	-16341
▁불리게	-16342
▁제니퍼	-16343
스테르담	-16344
▁아버지인	-16345
▁(1964	-16346
감염	-16347
메스	-16348
집의	-16349
▁버그	-16350
▁조형	-16351
▁중형	-16352
▁티켓	-16353
출장소	-16354
Fran	-16355
▁147	-16356
▁156	-16357
▁Pal	-16358
▁Sil	-16359
▁기사를	-16360
▁정류장	-16361
▁아니라고	-16362
면적	-16363
▁do	-16364
▁가량	-16365
▁성분	-16366
▁Enc	-16367
▁방식이다	-16368
▁올림피아	-16369
▁(1954	-16370
오기	-16371
▁Ant	-16372
▁것인데	-16373
▁참여하고	-16374
보도	-16375
한이	-16376
▁새겨진	-16377
▁항공모함	-16378
▁이루어지고	-16379
▁독서	-16380
▁잡혀	-16381
▁포럼	-16382
들과는	-16383
정의당	-16384
코미디	-16385
▁들어갈	-16386
▁전체에	-16387
영웅	-16388
청구	-16389
▁불량	-16390
▁사슬	-16391
▁종은	-16392
본으로	-16393
▁AGB	-16394
▁비로소	-16395
▁섬에서	-16396
▁주장한	-16397
복지센터	-16398
▁앨범이다	-16399
친일인명사전	-16400
ks	-16401
▁울릉	-16402
▁침묵	-16403
▁간단히	-16404
▁시리즈를	-16405
▁의과대학	-16406
▁Island	-16407
니크	-16408
임은	-16409
카페	-16410
▁각자	-16411
▁펑크	-16412
▁빅토르	-16413
안전센터	-16414
GS	-16415
액은	-16416
-35	-16417
▁SV	-16418
▁오해	-16419
▁이코	-16420
▁않으나	-16421
▁위협을	-16422
본의	-16423
카즈	-16424
평동	-16425
▁냄새	-16426
로이드	-16427
▁공휴일	-16428
▁시기를	-16429
▁움직임을	-16430
▁글렌	-16431
▁봉안	-16432
▁자서	-16433
▁잔류	-16434
▁조국	-16435
▁비타민	-16436
▁줄무늬	-16437
▁거주하고	-16438
▁월드컵에	-16439
월과	-16440
▁객원	-16441
▁두께	-16442
▁리나	-16443
▁없어서	-16444
▁컬렉션	-16445
▁확실히	-16446
국민회의	-16447
▁문화예술	-16448
▁쇄	-16449
내며	-16450
천여	-16451
▁처분	-16452
▁추존	-16453
▁환영	-16454
▁지구를	-16455
▁사회복지	-16456
▁적극적인	-16457
▁세인트루이스	-16458
한양	-16459
호대	-16460
▁계수	-16461
▁물의	-16462
▁임원	-16463
변호사	-16464
▁무엇이	-16465
▁카카오	-16466
▁코러스	-16467
▁설명했다	-16468
▁가온	-16469
▁세미	-16470
▁안치	-16471
▁연꽃	-16472
▁이북	-16473
▁이이	-16474
▁클루	-16475
AA	-16476
▁운명	-16477
▁쾰른	-16478
드리게	-16479
▁She	-16480
▁리믹스	-16481
GP	-16482
기본	-16483
척의	-16484
▁긴키	-16485
▁뻗어	-16486
▁생겼	-16487
▁야외	-16488
등으로	-16489
▁일본과	-16490
▁Game	-16491
▁프톨레마이	-16492
▁맞고	-16493
▁세키	-16494
▁카타르	-16495
화산	-16496
회계	-16497
▁가옥	-16498
▁꽃은	-16499
▁마우	-16500
▁선과	-16501
▁스즈	-16502
신라의	-16503
▁가수로	-16504
▁노선의	-16505
▁문자를	-16506
▁여자의	-16507
▁콘스탄티노폴리스	-16508
특히	-16509
▁대마	-16510
▁도는	-16511
▁박원	-16512
▁볼로	-16513
체에서	-16514
현으로	-16515
▁먹이를	-16516
▁대학교에	-16517
▁(2007)	-16518
베네	-16519
▁막시	-16520
▁키워	-16521
▁판례	-16522
▁의회는	-16523
▁결정한다	-16524
▁Every	-16525
▁(2014)	-16526
TO	-16527
▁라그	-16528
▁기술은	-16529
▁무대를	-16530
▁세리이	-16531
▁아이즈	-16532
▁1886	-16533
▁방글라데	-16534
갈색	-16535
쓰마	-16536
▁유정	-16537
레스의	-16538
▁지휘자	-16539
▁서식하는	-16540
▁캐나다인	-16541
▁2009-10	-16542
▁옳	-16543
츠를	-16544
▁가리키	-16545
▁개그맨	-16546
▁아이가	-16547
▁트럼프	-16548
▁0.00	-16549
▁바르샤바	-16550
중추	-16551
▁가다	-16552
▁기증	-16553
▁양국	-16554
▁오미	-16555
▁입양	-16556
렸는데	-16557
▁바오로	-16558
▁시장을	-16559
▁프로야구	-16560
pos	-16561
▁나노	-16562
▁주와	-16563
▁솔로몬	-16564
▁오이타	-16565
ility	-16566
▁스페인어	-16567
▁Europ	-16568
살인	-16569
원년	-16570
코치	-16571
▁7.	-16572
▁라오	-16573
▁리만	-16574
▁외래	-16575
▁주먹	-16576
▁칼럼	-16577
▁테리	-16578
번으로	-16579
▁152	-16580
▁기간을	-16581
▁부천시	-16582
▁시위를	-16583
▁함수의	-16584
▁학자들은	-16585
▁로스앤젤레스에서	-16586
ima	-16587
▁상사	-16588
▁한겨	-16589
크로아	-16590
▁Jul	-16591
▁국가는	-16592
▁노동당	-16593
▁적합한	-16594
▁결혼하여	-16595
▁주민들이	-16596
▁(2008)	-16597
이집	-16598
테면	-16599
하행	-16600
▁서적	-16601
▁안젤	-16602
▁조니	-16603
▁춤을	-16604
▁탐구	-16605
당한다	-16606
▁Mad	-16607
▁규모로	-16608
▁무료로	-16609
▁차이나	-16610
▁캠페인	-16611
▁선언하였다	-16612
▁뷔	-16613
▁반경	-16614
루에서	-16615
▁관공서	-16616
▁장면이	-16617
▁서쪽으로는	-16618
▁시뮬레이션	-16619
▁유로파리그	-16620
-22	-16621
▁주체	-16622
▁부유한	-16623
말의	-16624
ava	-16625
▁위와	-16626
▁발언을	-16627
▁그룹이다	-16628
▁""	-16629
▁즉각	-16630
소송법	-16631
▁(11	-16632
헌법	-16633
ays	-16634
▁보헤	-16635
▁소말	-16636
▁역설	-16637
▁조셉	-16638
-100	-16639
▁실력을	-16640
▁미쓰비시	-16641
두를	-16642
먼은	-16643
촌동	-16644
▁te	-16645
▁단장	-16646
▁백색	-16647
▁팀에서	-16648
▁개발하고	-16649
▁자동차도	-16650
▁남쪽으로는	-16651
승지	-16652
시브	-16653
▁금정	-16654
▁부사	-16655
▁관리하고	-16656
▁엑스박스	-16657
날의	-16658
오버	-16659
▁빛이	-16660
▁장원	-16661
▁칠곡	-16662
감으로	-16663
▁168	-16664
▁김정은	-16665
▁독일은	-16666
▁분명히	-16667
▁스테이	-16668
orean	-16669
▁등지에서	-16670
▁업그레이드	-16671
▁쿡	-16672
기원	-16673
치히	-16674
통이	-16675
▁부에	-16676
▁바티칸	-16677
▁북쪽의	-16678
▁존재가	-16679
▁과거에는	-16680
▁기록하면서	-16681
술의	-16682
행사	-16683
ape	-16684
▁숙부	-16685
▁여고	-16686
▁증설	-16687
▁퀘벡	-16688
▁키가	-16689
▁허위	-16690
▁153	-16691
▁Just	-16692
▁나머지는	-16693
▁Football	-16694
KT	-16695
다스	-16696
▁OF	-16697
▁목성	-16698
▁온갖	-16699
▁절망	-16700
행위를	-16701
▁이스탄	-16702
▁투표를	-16703
▁inter	-16704
스코틀랜드의	-16705
리마	-16706
▁루크	-16707
▁브란	-16708
▁색상	-16709
▁직할	-16710
▁키드	-16711
무대	-16712
이케	-16713
▁결론	-16714
▁둥글	-16715
▁설도	-16716
▁설치한	-16717
아일랜드계	-16718
▁전수	-16719
▁파우	-16720
▁패럴	-16721
▁풍경	-16722
obal	-16723
▁갈수록	-16724
들에게는	-16725
총영사관	-16726
▁물러났다	-16727
▁몫	-16728
▁주자	-16729
사우스	-16730
ives	-16731
▁가족은	-16732
▁황제로	-16733
▁이스탄불	-16734
▁존재했던	-16735
▁팡	-16736
외과	-16737
▁고소	-16738
▁월터	-16739
▁초콜	-16740
▁카지	-16741
플라이	-16742
▁20%	-16743
▁시미즈	-16744
▁살인사건	-16745
yo	-16746
▁매력	-16747
▁방화	-16748
▁병살	-16749
▁성산	-16750
▁여진	-16751
▁이언	-16752
▁이효	-16753
▁시베리아	-16754
▁역임하고	-16755
농구	-16756
청사	-16757
▁단식	-16758
▁Sal	-16759
▁리그컵	-16760
▁보호를	-16761
▁제작을	-16762
▁페르난도	-16763
▁평안남도	-16764
▁결혼하였다	-16765
▁늙	-16766
플리	-16767
DVD	-16768
▁만일	-16769
▁현립	-16770
▁결정전	-16771
▁라파엘	-16772
▁새마을	-16773
▁세비야	-16774
유공	-16775
ona	-16776
▁극대	-16777
▁필사	-16778
▁갈등을	-16779
▁드물게	-16780
▁질량은	-16781
원수	-16782
▁낳은	-16783
▁무함	-16784
▁응시	-16785
▁도입된	-16786
▁속도는	-16787
▁지진이	-16788
▁진출한	-16789
▁삼층석탑	-16790
▁시리즈에서	-16791
2(	-16792
천읍	-16793
청에	-16794
코어	-16795
enz	-16796
▁고마	-16797
▁암시	-16798
▁축적	-16799
▁피를	-16800
▁피의	-16801
▁17,	-16802
▁동생인	-16803
▁많으며	-16804
▁선수들	-16805
▁전통을	-16806
▁출신인	-16807
▁푸에르	-16808
▁유니버설	-16809
▁문인	-16810
▁와타	-16811
스트의	-16812
▁관직을	-16813
▁해체된	-16814
▁후측면	-16815
▁작사작곡	-16816
▁민족문제연구	-16817
세라	-16818
연극	-16819
▁느꼈	-16820
▁명사	-16821
브리아	-16822
업으로	-16823
▁151	-16824
▁유학을	-16825
▁1891	-16826
▁아라비아	-16827
▁딥	-16828
▁바스	-16829
운동에	-16830
inae	-16831
▁친구가	-16832
▁연구학교	-16833
7%	-16834
바인	-16835
바퀴	-16836
▁서산	-16837
▁진공	-16838
▁첼시	-16839
▁레인저	-16840
▁자본주의	-16841
공립심상소학교	-16842
덕왕	-16843
hPa	-16844
uit	-16845
▁us	-16846
교육을	-16847
▁레드삭	-16848
▁올리고	-16849
▁포항시	-16850
▁1882	-16851
▁아래에서	-16852
He	-16853
WS	-16854
▁전장	-16855
▁퍼즐	-16856
장애인	-16857
▁가르시아	-16858
오스트리아	-16859
▁슬로베니아	-16860
준호	-16861
▁김우	-16862
▁주위	-16863
▁Mix	-16864
▁관광지	-16865
▁지휘하는	-16866
▁형태이다	-16867
몬트	-16868
시인	-16869
은하	-16870
yle	-16871
▁델라	-16872
▁사관	-16873
▁사인	-16874
▁우호	-16875
▁이론의	-16876
위원으로	-16877
문고	-16878
▁장사	-16879
하이드	-16880
▁배터리	-16881
▁콘크리트	-16882
으로부터의	-16883
▁평균자책점	-16884
▁백상예술대상	-16885
설계	-16886
영리	-16887
▁기회가	-16888
▁오늘의	-16889
▁일하고	-16890
▁James	-16891
병에	-16892
중주	-16893
ely	-16894
지금의	-16895
▁Che	-16896
▁Lou	-16897
▁new	-16898
▁가까워	-16899
▁브래드	-16900
▁일이다	-16901
▁제목의	-16902
▁발생하여	-16903
▁시외버스	-16904
▁Research	-16905
계리	-16906
▁관념	-16907
▁달걀	-16908
▁미소	-16909
▁유년	-16910
히어로	-16911
▁용도로	-16912
▁민족주의	-16913
▁(2011)	-16914
And	-16915
▁균형	-16916
▁벌인	-16917
▁신종	-16918
▁유비	-16919
▁조경	-16920
▁폭로	-16921
▁iOS	-16922
▁아래는	-16923
▁환경에	-16924
▁.000	-16925
▁동쪽으로는	-16926
▁샤이	-16927
▁에는	-16928
▁320	-16929
▁마을에	-16930
▁다카라즈카	-16931
LL	-16932
예가	-16933
▁무작	-16934
▁신상	-16935
▁내용으로	-16936
▁스위스의	-16937
▁쉴	-16938
트륨	-16939
풀이	-16940
ato	-16941
▁막부의	-16942
▁묘사한	-16943
▁라이선스	-16944
▁1,500	-16945
▁육군사관학교	-16946
방은	-16947
요원	-16948
항에	-16949
▁2,5	-16950
▁런던의	-16951
복음	-16952
하르	-16953
▁두는	-16954
▁입상	-16955
▁콘솔	-16956
▁고등학교를	-16957
고개	-16958
상담	-16959
시경	-16960
이타	-16961
트르	-16962
품이	-16963
▁세례	-16964
▁옹립	-16965
▁철회	-16966
▁Lab	-16967
▁어느날	-16968
▁중국과	-16969
▁컴퍼니	-16970
▁회장을	-16971
스위스의	-16972
▁쿠웨이트	-16973
달아	-16974
아비	-16975
천안	-16976
▁BO	-16977
▁멋진	-16978
▁박해	-16979
▁신형	-16980
▁늘어나	-16981
▁설명한다	-16982
방면	-16983
유지	-16984
adem	-16985
▁지냈고	-16986
▁돗	-16987
타점	-16988
▁EN	-16989
▁더비	-16990
▁지부	-16991
▁일렉트로	-16992
▁클리블랜드	-16993
레디	-16994
일으	-16995
▁공손	-16996
▁클러	-16997
▁태자	-16998
천군의	-16999
▁Gen	-17000
▁머리에	-17001
▁있기도	-17002
▁일컫는다	-17003
3%	-17004
신도	-17005
▁다쓰	-17006
▁도박	-17007
▁명인	-17008
▁문정	-17009
▁바빌	-17010
▁정승	-17011
▁파란	-17012
omen	-17013
▁3.6	-17014
▁이내에	-17015
▁피하기	-17016
포르티보	-17017
▁프린세스	-17018
등기	-17019
▁교전	-17020
▁만료	-17021
▁취업	-17022
계약을	-17023
스콘신	-17024
았다고	-17025
▁골드컵	-17026
▁교육의	-17027
▁다음이	-17028
▁점수를	-17029
▁제도가	-17030
▁브레이크	-17031
ki	-17032
yg	-17033
공공	-17034
도부	-17035
동부	-17036
이론	-17037
헤드	-17038
▁메뉴	-17039
▁불평	-17040
STER	-17041
▁안에는	-17042
▁Rain	-17043
uf	-17044
드래	-17045
체험	-17046
▁격하	-17047
▁때가	-17048
▁오크	-17049
▁카테	-17050
비서관	-17051
▁Bas	-17052
▁남자가	-17053
▁정보가	-17054
▁케이스	-17055
▁시칠리아	-17056
교에	-17057
▁아프	-17058
가톨릭	-17059
▁KTX	-17060
▁2009.	-17061
▁Journal	-17062
우회	-17063
▁본거	-17064
▁속초	-17065
▁첨단	-17066
▁고통을	-17067
▁남쪽의	-17068
▁끊임없이	-17069
동화	-17070
슨과	-17071
▁(-	-17072
▁보리	-17073
▁신원	-17074
▁문서를	-17075
▁성능을	-17076
▁싸우는	-17077
▁안으로	-17078
▁용어로	-17079
▁통틀어	-17080
▁패배를	-17081
ington	-17082
▁조슈	-17083
▁공간이	-17084
▁총리가	-17085
:1951	-17086
▁활동기간	-17087
▁교량	-17088
▁미에	-17089
▁버펄	-17090
▁사서	-17091
▁전함	-17092
▁중일	-17093
▁패전	-17094
ider	-17095
▁만족시키는	-17096
My	-17097
개와	-17098
두로	-17099
소비	-17100
ios	-17101
▁데미	-17102
▁목회	-17103
▁신자	-17104
eder	-17105
▁넘어가	-17106
▁뉴저지	-17107
문서	-17108
사범	-17109
순이	-17110
▁돌입	-17111
▁유미	-17112
강원도	-17113
▁놀라운	-17114
▁로마자	-17115
▁말기에	-17116
▁저기압	-17117
▁케임브리지	-17118
▁콕	-17119
노가	-17120
▁발현	-17121
▁변광	-17122
▁일체	-17123
▁조립	-17124
▁치른	-17125
▁폭넓	-17126
ents	-17127
▁병으로	-17128
▁소속사	-17129
▁차이는	-17130
▁친구들	-17131
ugust	-17132
▁게임에서	-17133
▁Association	-17134
▁강변	-17135
▁양이	-17136
▁1876	-17137
▁북쪽으로는	-17138
anguage	-17139
루이	-17140
어촌	-17141
익을	-17142
있게	-17143
측은	-17144
혹한	-17145
▁공천	-17146
▁섭정	-17147
▁원격	-17148
idth	-17149
▁나리타	-17150
▁원인은	-17151
▁조지프	-17152
▁시즌에서	-17153
▁애리조나	-17154
▁경선	-17155
▁수확	-17156
▁앨리	-17157
▁이홍	-17158
▁호리	-17159
▁세상의	-17160
▁어려서	-17161
▁영원한	-17162
계급	-17163
들여	-17164
화성	-17165
▁당주	-17166
▁동영	-17167
수도권	-17168
atab	-17169
▁Big	-17170
▁벨라루스	-17171
반에	-17172
의료	-17173
▁맞붙	-17174
주머니	-17175
▁음악에	-17176
▁중계방송	-17177
선발	-17178
제학	-17179
osh	-17180
raw	-17181
▁이양	-17182
▁조로	-17183
▁에스페	-17184
▁사운드트랙	-17185
거는	-17186
▁ng	-17187
▁시합	-17188
▁쓰촨	-17189
oma	-17190
▁id	-17191
▁꼭대	-17192
▁밝힌	-17193
▁아닐	-17194
▁조광	-17195
alth	-17196
▁파라과	-17197
▁지적했다	-17198
▁진행하고	-17199
냐는	-17200
숙종	-17201
leg	-17202
▁가볍	-17203
▁당진	-17204
▁얻지	-17205
▁중재	-17206
리스는	-17207
시카고	-17208
▁게임에	-17209
▁메시지	-17210
▁아마존	-17211
▁다양하다	-17212
▁English	-17213
결혼	-17214
그린	-17215
만장	-17216
트루	-17217
▁동점	-17218
▁가족을	-17219
▁경기의	-17220
▁밝히고	-17221
▁운동은	-17222
▁대한민국과	-17223
▁정치인으로	-17224
로봇	-17225
타이드	-17226
▁예수의	-17227
2%	-17228
▁삐	-17229
▁유가	-17230
▁충성	-17231
▁몬테네	-17232
프라이즈	-17233
▁살아있는	-17234
▁인정하고	-17235
,000,000	-17236
기게	-17237
봉을	-17238
▁뽑아	-17239
▁성사	-17240
▁왕을	-17241
▁천마	-17242
국민당	-17243
▁상태의	-17244
회의에서	-17245
▁(2018)	-17246
Pl	-17247
약한	-17248
지상	-17249
▁감행	-17250
▁강당	-17251
▁견인	-17252
▁조문	-17253
▁척추	-17254
▁기하여	-17255
▁연구원	-17256
▁크기를	-17257
충류	-17258
▁경복	-17259
▁기장	-17260
▁숨어	-17261
▁흔한	-17262
▁Pap	-17263
▁밴쿠버	-17264
▁베드로	-17265
고교	-17266
▁-3	-17267
▁지위	-17268
▁마법사	-17269
▁반도체	-17270
▁터키의	-17271
▁이용한다	-17272
열에	-17273
택을	-17274
▁보석	-17275
▁유료	-17276
▁해인	-17277
▁교사로	-17278
▁리그를	-17279
▁서초구	-17280
▁유지하는	-17281
▁베네수엘라	-17282
▁Report	-17283
▁성균관대학교	-17284
▁컷	-17285
개선	-17286
내지	-17287
란한	-17288
립트	-17289
분해	-17290
▁아메	-17291
▁앞의	-17292
▁용병	-17293
▁인재	-17294
▁절차	-17295
▁종속	-17296
▁패한	-17297
▁해고	-17298
▁혐의	-17299
심으로	-17300
▁부작용	-17301
▁담당했다	-17302
▁성립하였다	-17303
▁Summer	-17304
뛰기	-17305
베를린	-17306
▁로렌스	-17307
▁백제의	-17308
▁클라크	-17309
▁회의를	-17310
▁불러일으	-17311
▁Special	-17312
RC	-17313
패스	-17314
▁높게	-17315
▁사면	-17316
▁양천	-17317
▁영등포	-17318
▁의미에서	-17319
포르투갈의	-17320
마니	-17321
발매	-17322
아랍	-17323
와도	-17324
▁별은	-17325
▁스킬	-17326
weet	-17327
▁158	-17328
▁270	-17329
▁나중에는	-17330
▁설명하는	-17331
란은	-17332
트레	-17333
▁당연히	-17334
▁고려시대	-17335
▁국가지원	-17336
▁니콜라스	-17337
평면	-17338
ias	-17339
▁1/3	-17340
▁도시가	-17341
▁불가능한	-17342
▁(2010)	-17343
거를	-17344
수상	-17345
정상	-17346
코딩	-17347
Rob	-17348
▁개가	-17349
▁교원	-17350
▁발각	-17351
▁버드	-17352
▁인명	-17353
▁자산	-17354
▁해저	-17355
스페셜	-17356
▁260	-17357
▁제국을	-17358
구라	-17359
품의	-17360
▁몸의	-17361
▁영덕	-17362
▁이철	-17363
▁카미	-17364
▁코카	-17365
지는데	-17366
▁뚜렷한	-17367
▁미주리	-17368
▁민족의	-17369
▁일대에	-17370
▁결정된다	-17371
(3)	-17372
fin	-17373
▁개종	-17374
▁검정	-17375
▁기법	-17376
▁청사	-17377
슬라프	-17378
▁단막극	-17379
▁부근에	-17380
▁요구를	-17381
▁한민족	-17382
▁시장에서	-17383
kt	-17384
네갈	-17385
▁넷째	-17386
▁30%	-17387
▁Div	-17388
▁대회가	-17389
▁올랐고	-17390
▁연결된다	-17391
느러	-17392
정권	-17393
▁메소	-17394
▁뱅크	-17395
▁빈곤	-17396
▁살려	-17397
▁서진	-17398
▁테츠	-17399
나고야	-17400
판에서	-17401
▁USB	-17402
▁데뷔하였고	-17403
▁프로젝트의	-17404
▁메카	-17405
선생님	-17406
▁이사회	-17407
:1940	-17408
▁대통령으로	-17409
▁(2015)	-17410
8%	-17411
aff	-17412
▁대각	-17413
▁배가	-17414
▁씌	-17415
군주	-17416
막을	-17417
▁보게	-17418
▁실망	-17419
▁영암	-17420
미사일	-17421
▁모양이	-17422
▁성장을	-17423
▁1200	-17424
HA	-17425
아버	-17426
▁리브	-17427
▁이형	-17428
▁적다	-17429
▁바꾸는	-17430
▁스코틀랜드의	-17431
▁America	-17432
▁까닭	-17433
▁사야	-17434
저우시	-17435
▁내리는	-17436
▁리더십	-17437
▁이산화	-17438
▁클린턴	-17439
위원회를	-17440
▁Brit	-17441
액션	-17442
▁편에	-17443
iana	-17444
▁708	-17445
▁변화에	-17446
▁스위치	-17447
▁스코어	-17448
▁신기록	-17449
▁정도였다	-17450
▁공산주의자	-17451
마귀	-17452
워너	-17453
▁강과	-17454
▁상경	-17455
▁칸의	-17456
▁것임을	-17457
▁살았던	-17458
▁종류가	-17459
▁정부에서	-17460
▁사키	-17461
▁원을	-17462
▁전산	-17463
▁컴백	-17464
▁페니	-17465
▁다이어	-17466
충청북도의	-17467
▁Company	-17468
UE	-17469
데자	-17470
레가	-17471
마디	-17472
증의	-17473
프에	-17474
ger	-17475
▁간첩	-17476
▁라쿠	-17477
▁시선	-17478
▁대응하는	-17479
▁셜	-17480
110	-17481
raz	-17482
▁죽어	-17483
▁포인	-17484
▁149	-17485
▁per	-17486
iginal	-17487
나로	-17488
림동	-17489
서치	-17490
illa	-17491
▁159	-17492
▁var	-17493
▁드레스	-17494
▁특별상	-17495
▁이름에서	-17496
▁추측된다	-17497
▁United	-17498
▁스튜디오에서	-17499
두에	-17500
▁막스	-17501
▁캐논	-17502
▁위치는	-17503
▁이에야	-17504
▁Disc	-17505
▁부분으로	-17506
▁트랜스포	-17507
보훈	-17508
중을	-17509
▁+5	-17510
▁노보	-17511
▁부채	-17512
▁추서	-17513
▁State	-17514
▁@	-17515
전력	-17516
참여	-17517
omy	-17518
ule	-17519
▁관세	-17520
▁단절	-17521
▁악의	-17522
▁피신	-17523
▁동일하다	-17524
▁르네상스	-17525
군수	-17526
렌스	-17527
제곱	-17528
환이	-17529
▁서사	-17530
▁성악	-17531
▁조화	-17532
▁강서구	-17533
▁있거나	-17534
필레이션	-17535
바둑	-17536
▁곳의	-17537
▁군이	-17538
▁유교	-17539
▁청동	-17540
,600	-17541
inus	-17542
▁모습은	-17543
▁한국은	-17544
ister	-17545
섬의	-17546
영과	-17547
▁값이	-17548
▁구이	-17549
▁렌즈	-17550
▁추리	-17551
퍼런스	-17552
▁161	-17553
▁정도를	-17554
▁해운대	-17555
▁시즌이다	-17556
▁해상에서	-17557
▁결정하였다	-17558
김해	-17559
레니	-17560
로워	-17561
▁기회	-17562
▁남매	-17563
▁밀집	-17564
▁소모	-17565
▁자아	-17566
▁정은	-17567
▁정주	-17568
▁직면	-17569
로동당	-17570
▁엘리트	-17571
▁열심히	-17572
▁효고현	-17573
▁스트리밍	-17574
▁헤비웨이트	-17575
da	-17576
▁매매	-17577
▁알지	-17578
▁완화	-17579
하자면	-17580
▁말기의	-17581
그림	-17582
▁김한	-17583
▁서인	-17584
▁1,7	-17585
▁산티아	-17586
▁소송을	-17587
▁결정하는	-17588
▁Library	-17589
▁놈	-17590
토와	-17591
ago	-17592
관계가	-17593
태국의	-17594
▁205	-17595
▁Dis	-17596
▁대도시	-17597
▁대표적	-17598
▁천안시	-17599
▁분위기를	-17600
▁선수들을	-17601
▁타이거스	-17602
▁2011.	-17603
▁Champ	-17604
요의	-17605
rey	-17606
▁부총	-17607
▁입을	-17608
▁제사	-17609
▁스퀘어	-17610
▁므	-17611
수인	-17612
카쓰	-17613
▁검출	-17614
▁발칸	-17615
▁상동	-17616
▁세자	-17617
FIFA	-17618
ruct	-17619
▁141	-17620
▁Die	-17621
▁클레멘	-17622
▁협상을	-17623
▁헝가리의	-17624
▁(2009)	-17625
심은	-17626
▁그후	-17627
▁황족	-17628
▁목표는	-17629
▁잡았다	-17630
▁프란체스코	-17631
▁예산결산특별위원회	-17632
▁헛	-17633
상도	-17634
자카	-17635
▁.7	-17636
▁랴오	-17637
▁박세	-17638
▁부도	-17639
▁183	-17640
▁영화가	-17641
▁1848	-17642
LD	-17643
pe	-17644
쾌한	-17645
피탈	-17646
▁개를	-17647
▁무의	-17648
▁아바	-17649
▁하니	-17650
,800	-17651
:1953	-17652
:1957	-17653
▁존재하고	-17654
▁표현하는	-17655
▁(1960	-17656
만과	-17657
▁무척	-17658
▁부재	-17659
▁세기	-17660
거리가	-17661
▁MBN	-17662
▁Nov	-17663
▁실시한	-17664
▁아이콘	-17665
▁정하는	-17666
▁부분에서	-17667
▁연극영화	-17668
양은	-17669
▁ke	-17670
▁김두	-17671
▁여는	-17672
▁자국	-17673
▁때에도	-17674
▁쳐들어	-17675
▁feat	-17676
나서	-17677
(1,	-17678
▁기쁨	-17679
▁수염	-17680
▁정자	-17681
▁지장	-17682
▁LED	-17683
▁개념이	-17684
▁관련해	-17685
▁클라이	-17686
▁마이애미	-17687
▁계속되었다	-17688
▁밭	-17689
해온	-17690
▁RB	-17691
▁스톰	-17692
▁선생의	-17693
▁위치로	-17694
▁장군이	-17695
▁취하고	-17696
▁우루과이	-17697
▁천연기념물	-17698
웍스	-17699
▁반전	-17700
iano	-17701
▁Lee	-17702
▁멜버른	-17703
▁아스카	-17704
▁머물렀다	-17705
9%	-17706
▁찐	-17707
▁계단	-17708
▁당락	-17709
▁저주	-17710
▁테르	-17711
▁가지가	-17712
▁미국을	-17713
▁실패한	-17714
▁작성한	-17715
▁휘하의	-17716
▁승강장을	-17717
▁(1949	-17718
▁(1971	-17719
리면	-17720
티어	-17721
화재	-17722
▁양정	-17723
▁이데	-17724
▁충실	-17725
당하는	-17726
▁똑같은	-17727
▁암호화	-17728
▁열차의	-17729
▁차이로	-17730
그라운드	-17731
▁News	-17732
▁추가적인	-17733
▁프랜시스	-17734
마당	-17735
▁산의	-17736
▁정형	-17737
▁누구나	-17738
▁물질을	-17739
▁일으킬	-17740
▁영등포구	-17741
강이	-17742
민정	-17743
▁청산	-17744
▁해전	-17745
방송의	-17746
▁우수상	-17747
▁정의한다	-17748
▁간신	-17749
▁사절	-17750
▁어벤	-17751
▁없었기	-17752
▁죽였다	-17753
ering	-17754
▁그녀에게	-17755
▁사회에서	-17756
▁아무것도	-17757
▁국가지원지방도	-17758
펭귄	-17759
▁가토	-17760
▁남작	-17761
형문화재	-17762
Or	-17763
▁욱	-17764
쪽은	-17765
틀리	-17766
▁up	-17767
▁김치	-17768
▁매드	-17769
▁패스	-17770
▁게르만	-17771
뉴질랜드	-17772
히로시마	-17773
▁미나모토	-17774
▁인정하는	-17775
▁진행되고	-17776
도라	-17777
▁세금	-17778
▁손꼽	-17779
▁연말	-17780
▁웨인	-17781
▁해의	-17782
속에서	-17783
▁노래가	-17784
▁초상화	-17785
▁표현한	-17786
가정	-17787
청주	-17788
213	-17789
▁8.	-17790
▁왜곡	-17791
능력을	-17792
점이다	-17793
▁전체적인	-17794
수송	-17795
▁Sa	-17796
▁개항	-17797
▁우지	-17798
▁종영	-17799
▁화랑	-17800
▁독일이	-17801
▁바이킹	-17802
320	-17803
▁두꺼	-17804
▁문고	-17805
▁탁월	-17806
▁히카	-17807
차이나	-17808
학교에	-17809
▁아오이	-17810
데자네이	-17811
▁국토교통	-17812
▁독립적인	-17813
▁크리스틴	-17814
훈의	-17815
▁개소	-17816
▁궁정	-17817
▁몽고	-17818
▁생모	-17819
▁원천	-17820
▁후예	-17821
시키지	-17822
▁4-0	-17823
▁버전을	-17824
▁소장품	-17825
▁Young	-17826
▁프란시스코	-17827
4%	-17828
▁슛	-17829
달라	-17830
▁것인	-17831
▁송출	-17832
▁이범	-17833
▁지사	-17834
▁Gal	-17835
▁출연자	-17836
▁0.000	-17837
구청	-17838
로맨	-17839
비용	-17840
▁배려	-17841
▁적지	-17842
▁보내고	-17843
▁왕국을	-17844
▁쿠데타	-17845
▁비엔	-17846
▁위헌	-17847
▁Rel	-17848
▁Tom	-17849
▁밴드를	-17850
▁사무실은	-17851
▁실질적으로	-17852
IO	-17853
링크	-17854
▁4)	-17855
▁광학	-17856
▁닮은	-17857
▁배속	-17858
▁치고	-17859
▁방정식	-17860
(2005	-17861
▁복귀했다	-17862
▁설치하고	-17863
도호	-17864
치쿠	-17865
▁163	-17866
▁Und	-17867
▁뉴캐슬	-17868
▁타격을	-17869
▁벌어졌다	-17870
▁유사하다	-17871
ful	-17872
▁Ca	-17873
▁각료	-17874
▁동인	-17875
▁때인	-17876
▁선비	-17877
▁선행	-17878
▁대가로	-17879
▁비판이	-17880
▁조감독	-17881
:1949	-17882
yclop	-17883
▁(1956	-17884
▁후쿠오카현	-17885
공무	-17886
창의	-17887
▁데뷔한	-17888
▁마을에서	-17889
▁미시시피	-17890
부리그	-17891
연수원	-17892
▁3.8	-17893
▁콘스탄티	-17894
왔던	-17895
▁마셜	-17896
▁서력	-17897
▁슈투	-17898
▁코우	-17899
▁톈진	-17900
▁남부에	-17901
▁범위를	-17902
▁북부에	-17903
▁스탈린	-17904
덴부르크	-17905
▁시범학교	-17906
우크라이나의	-17907
▁요하	-17908
▁일요	-17909
▁사무실	-17910
▁역사에	-17911
▁이란의	-17912
▁2010.	-17913
▁설치하였다	-17914
ts	-17915
불을	-17916
▁el	-17917
▁모범	-17918
▁서문	-17919
▁세속	-17920
▁친왕	-17921
▁파산	-17922
만원을	-17923
▁157	-17924
▁기존에	-17925
▁말하면	-17926
▁그레고리	-17927
▁되어있다	-17928
▁시어	-17929
▁해명	-17930
▁현행	-17931
디스크	-17932
생물학	-17933
erry	-17934
▁6.4	-17935
▁리차드	-17936
▁벼슬을	-17937
▁계획이다	-17938
▁부드러운	-17939
▁사용하면	-17940
▁해당된다	-17941
▁2007.	-17942
▁value	-17943
▁벚	-17944
▁감안	-17945
▁김석	-17946
▁끝날	-17947
▁알을	-17948
▁즐거	-17949
워싱턴	-17950
mann	-17951
▁2.2	-17952
▁3.4	-17953
▁Str	-17954
▁USA	-17955
▁옥스퍼드	-17956
▁Edition	-17957
위한	-17958
혹은	-17959
tvN	-17960
▁Af	-17961
▁감수	-17962
▁시는	-17963
▁싸워	-17964
▁유승	-17965
▁정명	-17966
▁영원히	-17967
▁종료한	-17968
▁Fire	-17969
▁그렇지만	-17970
▁미사일을	-17971
르스	-17972
웠고	-17973
터에	-17974
▁더해	-17975
▁도스	-17976
▁이쿠	-17977
▁싸움을	-17978
▁헬리콥	-17979
다페스트	-17980
ication	-17981
▁앗	-17982
벽을	-17983
북부	-17984
▁DM	-17985
▁공방	-17986
▁남미	-17987
▁별세	-17988
▁연못	-17989
▁단어는	-17990
▁마카오	-17991
▁상처를	-17992
▁형성한다	-17993
▁산란	-17994
▁총칭	-17995
층으로	-17996
▁고유의	-17997
▁순위를	-17998
▁인상을	-17999
▁받았지만	-18000
▁(1958	-18001
개인	-18002
▁박주	-18003
▁산성	-18004
▁세컨	-18005
▁없었	-18006
▁점에	-18007
▁학급	-18008
▁뉴욕의	-18009
▁하늘을	-18010
:1936	-18011
▁평안북도	-18012
강과	-18013
강릉	-18014
매매	-18015
전트	-18016
키를	-18017
▁병을	-18018
▁브렌	-18019
▁순조	-18020
시간이	-18021
▁루돌프	-18022
▁카르타	-18023
:1947	-18024
▁사망하자	-18025
▁프로그래머	-18026
상블	-18027
▁예하	-18028
▁조류	-18029
▁코시	-18030
▁새로이	-18031
▁올바른	-18032
▁주계열	-18033
▁site	-18034
시한	-18035
▁데모	-18036
▁칼뱅	-18037
▁같은해	-18038
▁사례가	-18039
▁투수가	-18040
(2012	-18041
round	-18042
▁진출한다	-18043
▁프랑스에	-18044
180	-18045
▁조례	-18046
운동의	-18047
▁4.3	-18048
▁1866	-18049
▁Last	-18050
▁로드리게	-18051
분류	-18052
▁반포	-18053
▁양반	-18054
▁잘라	-18055
▁튀니	-18056
▁회상	-18057
브라질	-18058
▁기초로	-18059
▁안산시	-18060
▁자기의	-18061
▁유나이티	-18062
▁Manag	-18063
모닝	-18064
민속	-18065
용인	-18066
▁ME	-18067
▁Ox	-18068
▁마일	-18069
▁이겨	-18070
▁중량	-18071
이야기	-18072
oice	-18073
▁모른다	-18074
▁신민당	-18075
▁근무했다	-18076
▁1.000	-18077
비노	-18078
현실	-18079
훈을	-18080
omys	-18081
▁마에다	-18082
▁사람도	-18083
서니	-18084
▁"(	-18085
▁고치	-18086
▁득실	-18087
▁차를	-18088
▁닛폰햄	-18089
▁코펜하겐	-18090
▁알려져있다	-18091
▁기단	-18092
▁봉화	-18093
▁단어를	-18094
▁언급한	-18095
▁출신이며	-18096
▁Records	-18097
Tr	-18098
락이	-18099
시킴	-18100
호마	-18101
reen	-18102
▁수행할	-18103
▁이루며	-18104
▁피라미	-18105
궤도	-18106
르카	-18107
민을	-18108
운행	-18109
arn	-18110
▁가든	-18111
▁쌓은	-18112
▁정립	-18113
▁충무	-18114
▁후미	-18115
되므로	-18116
▁기준을	-18117
(2013	-18118
▁것이므로	-18119
위치	-18120
칼리	-18121
▁모스	-18122
▁셰이	-18123
▁신당	-18124
▁조나	-18125
▁대니얼	-18126
▁더이상	-18127
▁여의도	-18128
라나	-18129
▁UK	-18130
▁양재	-18131
▁정문	-18132
▁블러드	-18133
▁허가를	-18134
▁현재에	-18135
▁스틸러스	-18136
▁역사적인	-18137
▁Radio	-18138
BE	-18139
근의	-18140
아니	-18141
▁번에	-18142
▁장흥	-18143
▁2.9	-18144
▁나오고	-18145
▁다양체	-18146
▁동일하게	-18147
▁중요성을	-18148
▁상록	-18149
▁씨앗	-18150
파일러	-18151
:01/	-18152
ester	-18153
예산	-18154
흐트	-18155
▁Po	-18156
▁에바	-18157
▁장덕	-18158
▁고향인	-18159
▁교황의	-18160
▁딸이다	-18161
▁아이치현	-18162
▁행정구역이다	-18163
LB	-18164
가라	-18165
벨트	-18166
사법	-18167
지영	-18168
치안	-18169
▁레버	-18170
▁분홍	-18171
▁질문	-18172
회사로	-18173
▁구단의	-18174
▁조정에	-18175
▁평화를	-18176
ouble	-18177
▁Jack	-18178
▁고구려의	-18179
▁연극배우	-18180
▁개통되었다	-18181
▁은평	-18182
▁절친	-18183
▁선거명	-18184
▁주장은	-18185
▁통일신라	-18186
:6	-18187
기둥	-18188
▁*(	-18189
레이루	-18190
cher	-18191
▁사헌부	-18192
▁섬으로	-18193
▁남우조연상	-18194
레미	-18195
▁감싸	-18196
▁검거	-18197
▁은혜	-18198
티모어	-18199
▁더욱이	-18200
▁손해배	-18201
▁하이퍼	-18202
파티	-18203
파울루	-18204
▁가족이	-18205
▁미래를	-18206
▁후보는	-18207
▁Mont	-18208
▁벅	-18209
OUR	-18210
▁수에	-18211
ware	-18212
▁알리는	-18213
▁여우조연상	-18214
▁한국철도공사	-18215
El	-18216
야와	-18217
토로	-18218
▁:#	-18219
▁웨일	-18220
▁타인	-18221
▁독일과	-18222
▁사업에	-18223
atabase	-18224
▁앳	-18225
▁인제	-18226
▁나란히	-18227
▁앤드류	-18228
▁점령한	-18229
되어있다	-18230
▁자카르타	-18231
KA	-18232
▁년에	-18233
▁유코	-18234
▁한층	-18235
(2002	-18236
▁메커니즘	-18237
▁그레고리오	-18238
무의	-18239
준이	-18240
16)	-18241
▁딜런	-18242
▁윤보	-18243
▁167	-18244
▁동안의	-18245
▁영화감독	-18246
▁봉건	-18247
▁2:0	-18248
▁발전소	-18249
▁역사와	-18250
티넨	-18251
▁CO	-18252
▁간사	-18253
▁사에	-18254
▁캐슬	-18255
▁팀과	-18256
▁대신해	-18257
▁게임으로	-18258
▁알려지게	-18259
▁크리에이	-18260
Instrumental	-18261
▁맺은	-18262
▁정몽	-18263
▁의미는	-18264
▁이론에	-18265
▁종으로	-18266
▁지나는	-18267
▁스트라이커	-18268
Se	-18269
uan	-18270
▁것들이	-18271
▁기사단	-18272
▁뒷받침	-18273
▁물러나	-18274
▁선택할	-18275
▁장비를	-18276
▁제목은	-18277
▁뱀파이어	-18278
닌다	-18279
롭고	-18280
정관	-18281
▁나은	-18282
▁단원	-18283
▁도사	-18284
군이다	-18285
▁도메인	-18286
▁와이번스	-18287
▁인천국제공항	-18288
uff	-18289
▁가의	-18290
▁국사	-18291
▁동력	-18292
▁반야	-18293
▁사간	-18294
▁스와	-18295
▁고성군	-18296
▁(2005)	-18297
FS	-18298
격투	-18299
종과	-18300
리어스	-18301
파르트	-18302
▁바람의	-18303
▁방송이	-18304
▁이순신	-18305
▁존재할	-18306
▁그들에게	-18307
▁진행되는	-18308
이한	-18309
▁XP	-18310
▁분비	-18311
▁산둥	-18312
▁수령	-18313
▁마운트	-18314
▁순으로	-18315
▁전했다	-18316
▁1881	-18317
▁수록되었다	-18318
rab	-18319
▁익산	-18320
▁전복	-18321
▁전역에	-18322
▁표면에	-18323
▁위치하는	-18324
▁Dance	-18325
▁Elect	-18326
6%	-18327
▁).	-18328
▁잠깐	-18329
▁교육과	-18330
▁구하기	-18331
▁당하고	-18332
▁붙여진	-18333
▁비율이	-18334
▁수도인	-18335
▁크라운	-18336
학자들은	-18337
▁다카하시	-18338
▁시대부터	-18339
유기	-18340
준은	-18341
21)	-18342
▁RE	-18343
▁공의	-18344
▁평정	-18345
레이스	-18346
▁연고로	-18347
▁즉위한	-18348
uring	-18349
▁우리들의	-18350
▁암스테르담	-18351
드에서	-18352
▁기억을	-18353
▁무대로	-18354
▁패러디	-18355
▁하늘의	-18356
▁위원회의	-18357
사사	-18358
장성	-18359
프린	-18360
▁연동	-18361
▁달한다	-18362
▁밖에도	-18363
▁아미타	-18364
▁운영을	-18365
▁Version	-18366
적에	-18367
▁가신	-18368
▁권유	-18369
▁등용	-18370
▁여주	-18371
▁열쇠	-18372
▁용암	-18373
▁카토	-18374
▁라이너	-18375
▁Fest	-18376
▁이스라엘의	-18377
▁임차	-18378
▁파동	-18379
스트림	-18380
하자는	-18381
▁매거진	-18382
트가르트	-18383
▁국제적인	-18384
▁기독교의	-18385
▁노면	-18386
안드로	-18387
▁mod	-18388
▁마르셀	-18389
버지니아	-18390
헝가리의	-18391
▁Home	-18392
▁주어졌다고	-18393
무르	-18394
하우	-18395
▁공수	-18396
▁성숙	-18397
는지는	-18398
왕후의	-18399
▁Mal	-18400
▁디나모	-18401
▁복소수	-18402
▁초콜릿	-18403
▁친구인	-18404
▁파나마	-18405
▁하시모토	-18406
디드	-18407
용차	-18408
▁생식	-18409
▁저렴	-18410
|201	-18411
▁202	-18412
▁포로로	-18413
▁행정대학원	-18414
▁챙	-18415
통과	-18416
▁에두	-18417
▁죽인	-18418
▁피치	-18419
▁홍수	-18420
것으로	-18421
▁드레이	-18422
▁소관의	-18423
▁연구의	-18424
근이	-18425
▁가타	-18426
▁금산	-18427
▁노란	-18428
▁읽고	-18429
▁표방	-18430
협회상	-18431
▁Jan	-18432
▁주제를	-18433
▁승격하였다	-18434
▁싼	-18435
능한	-18436
사유	-18437
코를	-18438
호르	-18439
▁수다	-18440
▁입각	-18441
우스가	-18442
▁개인이	-18443
▁전력을	-18444
▁피닉스	-18445
▁포기하고	-18446
▁코스타리카	-18447
▁스피드스케이팅	-18448
끄러	-18449
조치	-18450
▁규범	-18451
▁길에	-18452
▁동백	-18453
▁살라	-18454
▁체류	-18455
▁군대에	-18456
▁자메이	-18457
▁2005.	-18458
ih	-18459
uv	-18460
ATA	-18461
▁없던	-18462
▁오락	-18463
▁와인	-18464
▁접수	-18465
▁확진	-18466
▁건설을	-18467
▁평가된다	-18468
▁후임으로	-18469
▁세종특별자치시	-18470
ko	-18471
카쿠	-18472
▁여운	-18473
▁오정	-18474
상규명	-18475
▁가사를	-18476
▁확실한	-18477
사라	-18478
팀을	-18479
▁돌출	-18480
▁둔다	-18481
▁바오	-18482
▁재회	-18483
▁채취	-18484
▁러시아인	-18485
▁보호하기	-18486
▁진행한다	-18487
lection	-18488
소총	-18489
▁갤러	-18490
▁김학	-18491
▁헌신	-18492
▁지구에	-18493
▁1861	-18494
▁Land	-18495
▁보건복지	-18496
▁보도했다	-18497
▁성격으로	-18498
▁컨테이너	-18499
▁컴필레이션	-18500
▁브라질레이루	-18501
란스	-18502
천로	-18503
▁원인을	-18504
▁이루어지지	-18505
지식	-18506
한화	-18507
호리	-18508
~13	-18509
▁YG	-18510
▁선동	-18511
▁이빨	-18512
▁카시	-18513
▁도마뱀	-18514
▁인간을	-18515
:1944	-18516
▁학생들의	-18517
▁메르세데스	-18518
PA	-18519
▁산출	-18520
▁서자	-18521
▁성도	-18522
▁Pet	-18523
▁배트맨	-18524
▁선발로	-18525
▁회고록	-18526
른베르크	-18527
▁지정되었다가	-18528
미한	-18529
AND	-18530
▁의류	-18531
▁TBC	-18532
▁기초를	-18533
▁이케다	-18534
▁일어났	-18535
▁지도를	-18536
▁1864	-18537
▁Baby	-18538
▁올라간다	-18539
▁이루어지는	-18540
▁이탈리아에서	-18541
▁이화여자대학교	-18542
(:	-18543
▁님	-18544
▁바흐	-18545
▁아디	-18546
▁정작	-18547
▁알파벳	-18548
▁친일파	-18549
▁찔	-18550
국방	-18551
mar	-18552
▁대출	-18553
▁지오	-18554
▁후작	-18555
요시의	-18556
▁개인적인	-18557
▁기업이다	-18558
기아	-18559
법상	-18560
혜진	-18561
▁대북	-18562
▁서태	-18563
▁피셔	-18564
▁330	-18565
▁되었던	-18566
▁본인은	-18567
▁여파로	-18568
▁열린다	-18569
▁위험을	-18570
▁자유의	-18571
▁호스트	-18572
▁극장에서	-18573
대한제국의	-18574
▁Remix	-18575
▁Master	-18576
나에	-18577
베쓰	-18578
ota	-18579
▁국영	-18580
▁에마	-18581
▁학칙	-18582
▁Ben	-18583
▁차례의	-18584
▁해결하기	-18585
lement	-18586
TF	-18587
▁9.	-18588
▁바꿀	-18589
▁예약	-18590
▁카니	-18591
▁콜드	-18592
어지고	-18593
udio	-18594
▁그룹은	-18595
amily	-18596
ource	-18597
▁아리스토	-18598
▁중화민국의	-18599
▁2007-08	-18600
▁럭비	-18601
▁맞춤	-18602
▁신봉	-18603
▁줄여	-18604
민스터	-18605
익스피	-18606
호선이	-18607
uter	-18608
▁갖추어	-18609
바키아의	-18610
소재	-18611
피오	-18612
▁파손	-18613
케라톱	-18614
▁데이비	-18615
▁안전한	-18616
▁자료가	-18617
▁함경남도	-18618
법칙	-18619
팀에	-18620
▁나갔	-18621
▁도키	-18622
▁용서	-18623
▁(4)	-18624
▁구분된다	-18625
▁기록으로	-18626
▁도입하였다	-18627
▁발해	-18628
▁스윙	-18629
▁정현	-18630
▁176	-18631
▁내무부	-18632
학적으로	-18633
▁고려하여	-18634
▁실시하고	-18635
▁주민들은	-18636
자도	-18637
▁관동	-18638
▁시우	-18639
▁왕과	-18640
안으로	-18641
▁Mel	-18642
▁떨어뜨	-18643
▁병원에서	-18644
피에	-18645
하드	-18646
▁AA	-18647
▁운수	-18648
▁킬러	-18649
렸지만	-18650
▁계약이	-18651
▁생산을	-18652
▁의원을	-18653
▁이곳을	-18654
▁죽는다	-18655
▁중대한	-18656
▁클리어	-18657
▁벨기에의	-18658
감은	-18659
기병	-18660
더를	-18661
▁구부	-18662
▁모던	-18663
▁수산	-18664
▁어쩔	-18665
▁혼성	-18666
▁직책명	-18667
방지	-18668
제어	-18669
피가	-18670
▁발병	-18671
▁섹스	-18672
▁이송	-18673
▁차용	-18674
▁NGC	-18675
▁영향이	-18676
▁행정학	-18677
▁Conc	-18678
▁상관없이	-18679
▁자신들이	-18680
▁진행했다	-18681
진주	-18682
▁고모	-18683
▁글꼴	-18684
▁명종	-18685
▁애칭	-18686
▁창출	-18687
▁과정이	-18688
▁생명의	-18689
▁최소한	-18690
▁현대화	-18691
인산	-18692
▁보증	-18693
▁아데	-18694
▁포털	-18695
스카이	-18696
▁4.4	-18697
축구협회	-18698
:1914	-18699
umber	-18700
이탈리아계	-18701
▁스트라이크	-18702
▁누리	-18703
▁독창	-18704
▁모건	-18705
▁모인	-18706
▁에리	-18707
▁타르	-18708
석에서	-18709
▁들어올	-18710
▁앤드루	-18711
▁페트로	-18712
▁진행하는	-18713
국제영화제	-18714
복의	-18715
irc	-18716
▁럭키	-18717
▁정관	-18718
네티컷	-18719
ophy	-18720
▁04.	-18721
▁자랐다	-18722
▁힘으로	-18723
▁Like	-18724
▁공격으로	-18725
▁팔레스타인	-18726
노미	-18727
업은	-18728
▁돌고	-18729
▁이덕	-18730
▁쪽은	-18731
▁키즈	-18732
현에서	-18733
icus	-18734
▁가족과	-18735
▁경찰이	-18736
▁마닐라	-18737
▁환자의	-18738
▁등장하였다	-18739
▁(2003)	-18740
▁괄	-18741
받게	-18742
acy	-18743
▁EU	-18744
▁김효	-18745
▁밤의	-18746
▁세가	-18747
▁연소	-18748
▁화강	-18749
▁광주시	-18750
▁공개했다	-18751
▁선수로서	-18752
▁일일연속극	-18753
시즘	-18754
왕과	-18755
왕에	-18756
▁성운	-18757
▁스텝	-18758
▁중랑	-18759
▁화를	-18760
드래곤	-18761
▁것인지	-18762
▁엔진이	-18763
▁Church	-18764
나도	-18765
마켓	-18766
지수	-18767
▁Lo	-18768
▁매킨	-18769
▁산청	-18770
▁절단	-18771
진흥원	-18772
프라노	-18773
▁교통국	-18774
▁물질의	-18775
▁속하며	-18776
▁요제프	-18777
▁전기의	-18778
▁미래통합당	-18779
들러	-18780
▁딸이	-18781
▁세토	-18782
▁실무	-18783
▁정씨	-18784
▁169	-18785
▁경전철	-18786
▁그러다가	-18787
▁경상북도의	-18788
▁프로그램으로	-18789
선형	-18790
컨대	-18791
▁no	-18792
▁구형	-18793
▁리조	-18794
▁민병	-18795
▁촉매	-18796
피아의	-18797
▁대기업	-18798
▁샌디에	-18799
▁투수로	-18800
▁1865	-18801
▁Play	-18802
▁시리즈에	-18803
▁샀	-18804
거의	-18805
방법	-18806
par	-18807
urt	-18808
▁고원	-18809
▁토목	-18810
되도록	-18811
▁316	-18812
▁시크릿	-18813
▁유닉스	-18814
▁작용을	-18815
▁1863	-18816
▁사용되지	-18817
▁width	-18818
▁뾰	-18819
▁강은	-18820
▁거뒀	-18821
▁공예	-18822
▁말리	-18823
▁의결	-18824
▁자작	-18825
그룹의	-18826
승으로	-18827
▁구하는	-18828
▁부드럽	-18829
▁비율은	-18830
▁숨겨진	-18831
[...]
