▁▃ -0
▁ㅇ -1
▁ㄱ -2
▁ㄷ -3
▁ㅎ -4
▁ㅈ -5
▁ㅇㅣ -6
▁ㅅ -7
▁ㄴ -8
ㅡㄴ -9
ㅡㄹ -10
▁ㅁ -11
ㅏㄴ -12
▁ㅂ -13
▁ㄹ -14
▁. -15
▁ㅇㅔ -16
▁ㄷㅏ -17
▁ㄴㅡㄴ -18
▁ㅎㅏ -19
ㅏㅇ -20
ㅓㄴ -21
ㅇㅣ -22
▁ㄱㅏ -23
▁ㅇㅢ -24
▁ㅇㅡㄹ -25
ㅕㄴ -26
ㅅㅓ -27
▁ㅊ -28
▁ㄱㅗ -29
▁, -30
▁ㅇㅓ -31
ㄹㅗ -32
ㄹㅣ -33
▁ㅍ -34
▁ㅇㅏ -35
ㅜㄴ -36
ㅕㅇ -37
▁ㅈㅣ -38
ㅈㅣ -39
▁ㄷㅗ -40
ㄷㅏ -41
▁ㅎㅏㄴ -42
▁ㄹㅡㄹ -43
▁ㅌ -44
▁ㅅㅣ -45
▁ㅇㅡㄴ -46
ㅅㅣ -47
▁ㄱㅣ -48
ㅓㅇ -49
▁ㅋ -50
▁ㅇㅡ -51
ㅏㄹ -52
ㅅㅡ -53
▁1 -54
ㅜㄹ -55
▁ㅎㅐ -56
ㅗㅇ -57
ㅏㄱ -58
▁ㄹㅗ -59
▁ㅇㅣㅆ -60
ㅕㄱ -61
▁ㄱㅡ -62
▁2 -63
▁ㄷㅚ -64
ㅗㄱ -65
▁ㄱㅓ -66
▁ㅅㅏ -67
▁ㅈㅜ -68
▁ㅂㅗ -69
▁ㄸ -70
ㅓㄱ -71
ㅡㅇ -72
ㄱㅣ -73
▁ㄴㅏ -74
ㅇㅓ -75
▁ㅇㅣㄴ -76
▁ㅁㅏ -77
▁ㅈㅏ -78
ㄴㅏ -79
▁ㄷㅡㄹ -80
ㄹㅏ -81
▁ㄱㅔ -82
▁ㄷㅐ -83
▁ㄱㅘ -84
▁ㅅㅜ -85
ㄱㅏ -86
ㄱㅗ -87
ㅗㄴ -88
▁ㄹㅏ -89
ㅐㅇ -90
ㄷㅗ -91
ㅓㅁ -92
▁ㅇㅕ -93
ㅜㄱ -94
▁ㅇㅣㄹ -95
▁ㅇㅘ -96
▁ㅁㅗ -97
ㄴㅣ -98
ㄷㅡ -99
ㅝㄴ -100
▁ㅈㅓㄴ -101
ㅓㄹ -102
▁ㅇㅓㅆ -103
ㅌㅡ -104
ㅇㅛ -105
ㅇㅣㄴ -106
▁- -107
ㅅㅏ -108
▁ㅅㅡ -109
▁ㅁㅕㄴ -110
ㅈㅏㅇ -111
ㅇㅜ -112
▁ㄲ -113
▁ㅂㅏ -114
▁ㅈㅓㄱ -115
ㅁㅏㄴ -116
▁ㅂㅜ -117
ㅈㅏ -118
▁ㄱㅓㅅ -119
▁ㅁㅏㄴ -120
ㅡㅁ -121
ㄷㅐ -122
▁3 -123
▁ㅇㅗ -124
ㅊㅣ -125
▁ㅎㅐㅆ -126
ㅎㅐ -127
▁ㅎㅘ -128
ㄹㅓ -129
▁ㅈㅓㅇ -130
▁ㅁㅣ -131
▁ㅈㅗ -132
▁ㅅㅏㅇ -133
ㅕㄹ -134
ㅁㅣ -135
ㅎㅘ -136
▁ㅇㅠ -137
ㅎㅏ -138
ㅅㅜ -139
▁20 -140
ㅇㅏ -141
▁ㅂㅣ -142
▁ㄸㅐ -143
ㅈㅓㅇ -144
ㄴㅡㄴ -145
ㅇㅑ -146
ㅌㅓ -147
▁' -148
▁ㄱㅗㅇ -149
▁ㄴㅕㄴ -150
▁ㅎㅏㄴㄷㅏ -151
▁: -152
ㄷㅔ -153
ㅅㅏㅇ -154
ㄱㅔ -155
ㅈㅓㄴ -156
▁ㅈㅔ -157
ㅈㅜ -158
ㅐㄱ -159
▁ㅇㅟ -160
▁ㄱㅕㅇ -161
ㄹㅕㄱ -162
▁ㅈㅜㅇ -163
▁ㄷㅚㄴ -164
ㅎㅣ -165
▁ㅊㅏ -166
ㅇㅛㅇ -167
ㄹㅕ -168
ㅎㅏㄴ -169
▁ㅅㅗ -170
▁ㅁㅜ -171
▁ㅆ -172
ㅈㅔ -173
▁ㅇㅓㅄ -174
ㅅㅣㄴ -175
ㄹㅡ -176
▁ㅅㅔ -177
▁ㄴㅗ -178
ㄱㅜㄱ -179
ㅁㅕㄴ -180
▁4 -181
ㅡㄱ -182
ㅁㅜㄴ -183
ㄹㅐ -184
ㅅㅓㅇ -185
ㅑㅇ -186
▁ㅅㅓㅇ -187
ㅂㅜ -188
ㅋㅣ -189
ㅝㄹ -190
▁ㄷㅡㅇ -191
▁ㅎㅏㄹ -192
ㄱㅕㄱ -193
ㄹㅔ -194
▁ㄱㅐ -195
ㄱㅜ -196
▁ㅇㅏㄶ -197
▁ㅁㅕ -198
ㅁㅏ -199
ㄱㅘ -200
ㅇㅗ -201
▁5 -202
ㄱㅏㄴ -203
▁ㄷㅓㄴ -204
ㅌㅏ -205
▁ㅌㅏ -206
ㄷㅗㅇ -207
▁ㄴㅐ -208
▁0 -209
ㅇㅝㄴ -210
▁ㄹㅣ -211
▁ㅅㅓ -212
▁ㄱㅜ -213
ㅂㅓ -214
▁ㅂㅓ -215
▁" -216
▁ㅇㅝㄹ -217
ㅈㅣㄴ -218
▁ㄷㅡ -219
ㄱㅡ -220
▁ㅍㅣ -221
▁201 -222
▁ㅈㅏㅇ -223
▁/ -224
▁ㅂㅏㅇ -225
ㄹㄹㅣ -226
▁ㄷㅗㅇ -227
▁ㅅㅓㄴ -228
▁ㅋㅏ -229
ㅇㅣㄹ -230
▁ㄹㅔ -231
ㅂㅣ -232
▁ㅊㅣ -233
▁ㅇㅕㄴ -234
▁ㅇㅜ -235
▁ㅅㅣㄴ -236
▁ㅇㅛ -237
ㅇㅠ -238
▁ㅎㅜ -239
▁ㅇㅏㄴ -240
▁ㅇㅕㅇ -241
▁ㅁㅏㄹ -242
▁ㅃ -243
▁ㄲㅏ -244
▁ㅅㅐㅇ -245
ㅊㅔ -246
▁ㄷㅏㅇ -247
▁ㄷㅓ -248
ㅅㅓㄴ -249
▁ㅇㅑ -250
ㄱㅓ -251
▁ㅂㅏㄹ -252
ㅅㅗ -253
▁ㅈㅣㄴ -254
▁ㄷㅔ -255
ㅣㅁ -256
ㅈㅏㄱ -257
▁ㄴㅡㄴㄷㅔ -258
ㅋㅡ -259
ㅁㅕㅇ -260
ㅁㅜ -261
ㅇㅕ -262
▁ㅍㅏ -263
▁ㅊㅜ -264
▁6 -265
▁ㅊㅓ -266
▁ㅎㅚ -267
▁ㅇㅝㄴ -268
▁ㅍㅗ -269
▁ㄱㅏㅇ -270
ㅇㅜㄴ -271
ㄱㅖ -272
▁10 -273
ㅂㅗ -274
▁ㅁㅕㅇ -275
ㅈㅐ -276
▁ㅊㅚ -277
ㅐㄴ -278
ㅌㅣ -279
ㅁㅕ -280
▁ㅉ -281
▁ㅅㅣㄹ -282
▁ㅁㅜㄴ -283
ㅇㅟ -284
ㅅㅣㄱ -285
▁ㅂㅜㄹ -286
ㄹㅡㄴ -287
▁ㅋㅗ -288
ㄷㅏㅇ -289
ㅋㅏ -290
ㅈㅡ -291
ㅇㅣㅁ -292
▁ㅂㅓㄴ -293
ㅈㅓ -294
ㅎㅜ -295
▁7 -296
▁ㄱㅏㅌ -297
ㅅㅣㄹ -298
▁ㄷㅏㄴ -299
ㄴㅡㅇ -300
ㅇㅘ -301
ㅁㅜㄹ -302
▁ㅇㅕㅆ -303
ㅇㅢ -304
▁ㅎㅗ -305
▁! -306
▁ㄷㅚㄴㄷㅏ -307
▁ㄱㅘㄴ -308
▁ㅂㅏㄷ -309
ㅇㅡㅁ -310
▁S -311
▁ㅌㅡㄱ -312
▁ㅁㅔ -313
▁ㅂㅐ -314
▁8 -315
ㅍㅡ -316
ㅎㅐㅇ -317
ㄹㅜ -318
▁ㅊㅗ -319
ㄷㅏㄴ -320
▁ㅁㅏㄶ -321
ㄹㅏㅁ -322
▁ㄱㅕㄹ -323
▁ㅂㅏㄴ -324
▁ㅇㅏㅆ -325
ㅍㅣ -326
ㄷㅣ -327
▁ㅈㅏㄱ -328
ㅁㅗ -329
▁ㅈㅓ -330
ㅌㅗ -331
▁ㅁㅐ -332
ㄷㅡㄹ -333
ㄱㅗㅇ -334
ㄱㅛ -335
ㅅㅗㄱ -336
ㅕㅆ -337
ㅇㅕㄱ -338
▁ㅍㅡ -339
▁ㅇㅕㄱ -340
ㅈㅓㅁ -341
ㅊㅏ -342
▁19 -343
ㅅㅔ -344
▁ㅁㅕㄴㅅㅓ -345
ㄴㅐ -346
ㅂㅏㄴ -347
▁ㄴㅣ -348
▁ㄱㅖ -349
▁ㅇㅏㄹ -350
▁9 -351
▁ㄱㅕㅇㅇㅜ -352
ㅌㅔ -353
ㅂㅜㄴ -354
▁ㅂㅜㄴ -355
ㅎㅏㄱ -356
▁ㄱㅗㅇㄱㅕㄱ -357
ㅅㅐㅇ -358
▁ㄴㅏㅁ -359
ㅎㅚ -360
ㅈㅗ -361
ㄱㅏㄱ -362
▁ㅎㅏㅁ -363
▁ㄱㅓㄴ -364
ㄹㅗㄱ -365
ㅂㅗㄴ -366
ㅈㅜㅇ -367
▁A -368
▁ㅁㅜㄹ -369
▁ㅊㅜㄹ -370
▁ㅂㅗㄴ -371
▁ㅋㅣ -372
ㄹㅓㄴ -373
ㅇㅕㄴ -374
ㅔㄹ -375
▁ㄱㅜㄱ -376
▁ㅋㅐ -377
▁ㅁㅗㅅ -378
ㅅㅏㄴ -379
▁ㅎㅕㄴ -380
▁ㅋㅡ -381
ㄷㅜ -382
▁ㅍㅐ -383
▁ㅍㅕㄴ -384
ㄹㅣㄴ -385
ㅎㅗ -386
▁ㅈㅗㅎ -387
▁M -388
ㄹㅠ -389
▁ㅇㅣㅂ -390
▁ㅈㅓㅁ -391
▁ㅇㅖ -392
▁ㄷㅜ -393
▁ㄱㅏㅁ -394
▁% -395
ㅌㅐ -396
ㄹㅡㅁ -397
▁ㅌㅡ -398
▁ㅈㅐ -399
ㄱㅘㄴ -400
▁ㄷㅣ -401
▁ㄸㅏ -402
▁ㅎㅏㄱ -403
ㅇㅕㅇ -404
ㄱㅡㅂ -405
ㄴㅗ -406
▁ㄱㅛ -407
ㄱㅜㄴ -408
ㅇㅏㄴ -409
ㅈㅜㄴ -410
▁ㅈㅓㅇㄷㅗ -411
ㅋㅗ -412
ㅇㅡ -413
ㄱㅡㅁ -414
▁ㅇㅐ -415
▁ㅌㅗㅇ -416
ㅂㅡ -417
▁ㅌㅔ -418
▁C -419
ㅈㅓㄱ -420
ㅂㅏ -421
▁ㄸㅗ -422
▁ㅅㅗㄱ -423
ㅅㅡㅂ -424
ㅜㅁ -425
▁ㅍㅡㄹ -426
ㅂㅓㅂ -427
ㄴㅏㄴ -428
ㅂㅏㄹ -429
ㄷㅡㄴ -430
ㄱㅓㄴ -431
ㄱㅕㅇ -432
▁B -433
▁T -434
▁ㄱㅣㅁ -435
▁ㅌㅗ -436
▁ㅅㅓㄹ -437
ㅇㅝ -438
ㅈㅗㅇ -439
▁ㄴㅓ -440
ㅂㅏㅇ -441
ㅇㅗㄴ -442
ㅁㅣㄴ -443
▁ㅊㅏㅁ -444
ㄹㅗㄴ -445
▁ㅎㅕㅇ -446
▁ㄴㅔ -447
▁ㅇㅚ -448
▁ㅍㅕㅇ -449
▁ㄷㅡㅇㅈㅏㅇ -450
ㅌㅗㅇ -451
ㅅㅡㅇ -452
ㅅㅜㄹ -453
▁~ -454
▁D -455
▁ㅆㅡ -456
ㅍㅗ -457
▁ㄱㅜㄴ -458
▁+ -459
ㅇㅓㅂ -460
ㄹㄹㅏ -461
▁? -462
▁ㅅㅏㄹ -463
ㅅㅕㄴ -464
▁ㅈㅜㄱ -465
▁ㅊㅔ -466
ㅍㅏ -467
▁ㅈㅗㅇ -468
▁12 -469
▁ㅇㅡㅁ -470
ㄹㅛ -471
▁ㅎㅣ -472
▁ㅅㅡㅇ -473
ㅔㄴ -474
ㅇㅑㅇ -475
ㄴㅕ -476
▁ㄱㅝㄴ -477
▁ㄴㅡㄴㄷㅏ -478
▁ㅌㅣㅁ -479
▁ㄱㅏㄴ -480
▁ㅍㅏㄴ -481
▁.. -482
ㅌㅜ -483
ㅈㅣㄱ -484
er -485
▁ㄷㅗㄹ -486
▁ㄹㅜ -487
▁ㄷㅟ -488
▁ㄱㅓㄹ -489
▁200 -490
▁11 -491
▁ㅈㅏㄹ -492
▁ㅈㅣㄱ -493
ㅅㅣㅁ -494
▁ㅇㅛㅇ -495
▁L -496
ㅇㅣㅂ -497
ㄱㅐ -498
00 -499
▁ㅁㅏㅈ -500
▁ㅎㅘㄱ -501
▁ㅅㅣㅁ -502
▁ㅎㅐㅇ -503
▁ㄱㅕㅇㄱㅣ -504
▁ㅂㅕㄴ -505
in -506
ㅍㅏㄴ -507
ㅈㅕ -508
▁ㅂㅏㄱ -509
▁ㅇㅜㄴ -510
▁ㄷㅡㅅ -511
ㄹㅏㄴ -512
▁F -513
▁ㅇㅔㄴ -514
▁ㄴㅏㄹ -515
ㅍㅛ -516
ㅇㅔ -517
▁P -518
ㄹㅣㄱ -519
▁ㅊㅐ -520
ㅇㅜㄹ -521
▁ㅂㅔ -522
▁ㄲㅡ -523
ㄹㅓㅁ -524
ㅎㅘㅇ -525
ㄹㅕㄴ -526
▁ㅌㅜ -527
ㅅㅓㄱ -528
ㅇㅑㄱ -529
ㅈㅗㄱ -530
▁ㅍㅣㄹ -531
ㄴㅓ -532
ㄹㅏㅇ -533
ㅊㅡ -534
ㅎㅕㅇ -535
▁ㅋㅓ -536
ㄹㅑㅇ -537
▁ㄷㅏㄹ -538
ㄷㅓ -539
▁ㅁㅗㄱ -540
ㅅㅓㄹ -541
▁ㅈㅣㅂ -542
▁ㅇㅓㄴ -543
ㅁㅐ -544
▁ㄴㅗㅍ -545
▁ㅇㅑㄱ -546
▁G -547
▁ㅎㅘㄹ -548
ㄲㅏ -549
▁ㅅㅜㄴ -550
ㅊㅜㄹ -551
ㅂㅗㄱ -552
ㅋㅣㄹ -553
ㄹㅕㅇ -554
ㅁㅔ -555
ㅊㅓㅇ -556
▁ㅈㅜㄴ -557
ㅇㅓㄴ -558
▁ㄱㅏㄱ -559
▁ㅍㅛ -560
ㅍㅜㅁ -561
▁ㅅㅏㅇㄷㅐ -562
▁ㅇㅑㅇ -563
ㅁㅏㅇ -564
▁E -565
ㅈㅓㄹ -566
ㅎㅕㄴ -567
▁ㅋㅡㄹ -568
▁ㄹㅕ -569
ㅎㅑㅇ -570
an -571
ㄲㅔ -572
▁ㄴㅡㅇ -573
ㅇㅚ -574
ㄴㅔ -575
ㅎㅏㅂ -576
▁ㅈㅗㄴ -577
▁ㅎㅛ -578
▁ㅁㅜㄴㅈㅔ -579
on -580
▁15 -581
▁ㅂㅗㄹ -582
▁ㅈㅏㅂ -583
▁ㅇㅣㄹㅂㅗㄴ -584
ㅈㅣㄹ -585
▁ㅎㅏㅁㄲㅔ -586
▁ㅍㅔ -587
▁ㅌㅣ -588
ㅂㄴㅣ -589
▁ㅎㅣㅁ -590
▁ㅇㅘㅇ -591
▁ㅅㅗㄴ -592
ㅎㅘㄴ -593
▁ㅌㅐ -594
ㅁㅓ -595
▁ㅈㅡㅇ -596
▁ㅅㅐㅇㄱㅏㄱ -597
ㄹㅓㅎ -598
▁ㅂㅕㅇ -599
▁ㄱㅔㅆ -600
▁ㅂㅕㄹ -601
▁ㄴㅡ -602
▁ㅍㅡㄹㄹㅔ -603
▁ㄴㅏㄴ -604
▁ㅎㅏㄴㄱㅜㄱ -605
▁ㅇㅣㅁ -606
▁# -607
▁H -608
ㅈㅡㄴ -609
ㅎㅕ -610
▁ㅂㅡ -611
▁ㅁㅏㄱ -612
▁R -613
▁ㅅㅐ -614
▁ㅇㅘㄴ -615
▁ㅊㅓㄴ -616
▁ㅁㅏㄴㄷㅡㄹ -617
▁K -618
▁ㅍㅗㄱ -619
▁ㄲㅡㅌ -620
ㄹㅣㄱㅌㅓ -621
▁ㄷㅡㄹㅇㅓ -622
ㅁㅗㄱ -623
▁ㄴㅡㅇㄹㅕㄱ -624
ㄴㄷㅏ -625
▁t -626
ㅂㅕㅇ -627
▁ㅊㅗㅇ -628
▁ㄷㅗㄱ -629
▁ㅂㅡㄹ -630
▁I -631
▁ㅁㅓㄱ -632
ㅋㅔ -633
▁N -634
▁ㅎㅏㅇ -635
▁ㄱㅡㄴ -636
ㅎㅓㅁ -637
ㅅㅗㅇ -638
ㄷㅗㄱ -639
▁ㄱㅘㅇ -640
ㄹㅕㅆ -641
▁ㅋㅜ -642
▁ㅈㅜㄹ -643
ㅊㅓㄴ -644
ㅁㅏㄱ -645
▁ㅂㅗㄱ -646
▁m -647
▁ㅅㅣㄱ -648
▁ㅆㅏ -649
▁ㅅㅏㅇㅎㅘㅇ -650
▁ㄱㅓㅁ -651
ㄹㅏㄱ -652
ㅂㅐ -653
▁ㅅㅏㅁ -654
ㅜㅇ -655
▁ㄴㅜ -656
or -657
ㄷㅏㅁ -658
ㅂㅔㄹ -659
ㅁㅏㄹ -660
ㅍㅔ -661
ㅈㅕㅆ -662
▁ㅅㅏㅇㅌㅐ -663
▁ㅆㅣ -664
▁ㄷㅏㅇㅅㅣ -665
▁ㅊㅣㄴ -666
▁ㅁㅓ -667
ㅍㅓ -668
▁ㅃㅏ -669
ㄴㅕㄴ -670
▁ㅅㅠ -671
ㄱㅏㅁ -672
ar -673
▁ㄱㅕㄹㄱㅜㄱ -674
ㄱㅕ -675
▁ㅂㅐㄱ -676
▁ㅊㅜㅇ -677
▁ㅌㅓ -678
ㅅㅐㄱ -679
▁ㅅㅏㄴ -680
▁ㅇㅕㄹ -681
ㅎㅐㅆ -682
ㅅㅏㄹ -683
▁ㄹㅓ -684
▁ㄱㅣㄹ -685
▁ㄱㅗㄱ -686
▁ㅇㅓㅂ -687
▁ㅇㅏㅍ -688
ㄱㅡㄴ -689
▁18 -690
ㅌㅏㄴ -691
▁16 -692
ㄹㅣㅂ -693
▁ㅇㅏㄱ -694
ㅊㅓ -695
ㄱㅕㄹ -696
▁ㄴㅓㅁ -697
▁ㅅㅟ -698
▁ㄱㅡㅁ -699
▁ㅁㅏㄶㅇㅣ -700
▁ㄴㅜㄴ -701
▁O -702
▁ㅈㅓㄴㅌㅜ -703
ㅋㅜ -704
▁30 -705
ㄴㅣㄴ -706
▁ㅇㅓㄹ -707
ㄹㅣㅁ -708
ㄴㅑㅇ -709
at -710
ㅋㅓ -711
ㄱㅓㅅ -712
▁ㅁㅣㅊ -713
ㅓㄹㅇㅓ -714
ㅇㅏㄱ -715
▁ㄱㅡㅂ -716
▁ㅋㅔ -717
▁ㄷㅚㄹ -718
▁ㅇㅗㄴ -719
ㅎㅏㅁ -720
ㅊㅗ -721
▁13 -722
▁ㅁㅣㄴ -723
▁ㅅㅓㄴㅅㅜ -724
▁s -725
he -726
▁ㅎㅏㅂ -727
▁] -728
▁W -729
ㅍㅕㄴ -730
▁ㅈㅗㄴㅈㅐ -731
ㅇㅜㅁ -732
ㅉㅗㄱ -733
▁14 -734
ㅌㅐㄱ -735
▁ㅎㅕㄴㅈㅐ -736
▁[ -737
▁ㅋㅡㄴ -738
ㅎㅏㄹ -739
ㄷㅡㅇ -740
ㅈㅓㅂ -741
▁ㅊㅟ -742
ㄴㅏㅁ -743
▁ㄱㅚ -744
▁ㅅㅏㅇㄷㅏㅇ -745
▁ㄱㅣㄴ -746
ㅇㅖ -747
ㅈㅐㅇ -748
▁ㅁㅜㄹㄹㅗㄴ -749
▁ㅍㅐㄴ -750
ㄱㅡㄹ -751
▁ㅊㅓㅅ -752
▁ㅈㅓㄹ -753
▁ㄱㅡㄱ -754
▁ㅎㅓ -755
▁ㅌㅏㄴ -756
en -757
▁ㅇㅓㅁ -758
ㅇㅣㄴㄷㅏ -759
ㅎㅏㅇ -760
▁c -761
▁ㅊㅏㅈ -762
▁ㅇㅓㄷ -763
▁ㅎㅘㅇ -764
▁17 -765
ㅈㅗㄴ -766
▁ㄱㅗㄹ -767
ㅊㅕ -768
▁ㅊㅏㅇ -769
ㅇㅘㅆ -770
▁ㅃㅜㄴ -771
▁100 -772
ㅂㅓㅁ -773
▁00 -774
ㄷㅡㄱ -775
ㅌㅔㅁ -776
▁ㅇㅝ -777
▁ㅅㅣㄹㅈㅔ -778
▁ㅊㅓㅇ -779
▁ㅌㅏㄹ -780
ㅍㅐ -781
ㄱㅅㅡ -782
ㄱㅏㅇ -783
▁25 -784
▁ㄱㅘㄴㄹㅕㄴ -785
ou -786
ㅇㅡㄴ -787
ㅈㅣㅂ -788
▁ㄱㅏㅌㅇㅣ -789
ㄴㅏㄹ -790
▁V -791
al -792
▁ㄱㅕ -793
ㄱㅕㄴ -794
▁ㅍㅣㄹㅇㅛ -795
ㅌㅡㄹ -796
▁ㅎㅔ -797
▁ㅇㅣㄴㄷㅔ -798
ㄱㅠ -799
▁U -800
ㅇㅘㅇ -801
▁ㄷㅏㄹㄹㅣ -802
▁ㅂㅏㅇㅅㅗㅇ -803
ㅂㅕㄹ -804
▁ㄲㅗ -805
ㄴㅓㄹ -806
▁ㅇㅣㄴㅈㅣ -807
▁ㅁㅗㄴ -808
▁ㅇㅕㄱㅅㅣ -809
▁ㅂㅓㅂ -810
▁ㅊㅓㄹ -811
▁ㄱㅟ -812
▁ㄱㅗㅅ -813
ㄴㅡ -814
▁ㅂㅏㅇㅇㅓ -815
ㄹㅐㄴ -816
ㅋㅡㅁ -817
▁ㄷㅗㄹㅇㅏ -818
▁ㅇㅣㄹㅂㅏㄴ -819
ㅌㅏㄹ -820
▁ㅉㅐ -821
▁ㅎㅘㄴ -822
▁ㅈㅏㅁ -823
▁ㅎㅗㄴ -824
ㄱㅗㄱ -825
▁ㄷㅙ -826
▁2017 -827
ㅇㅕㄹ -828
▁ㅈㅣㄹ -829
▁199 -830
▁ㄷㅜㄹ -831
▁ㅂㅜㄱ -832
▁ㄴㅑ -833
▁ㅂㅓㅁ -834
▁ㅎㅐㅆㅇㅡ -835
ㅎㅏㄱㄱㅛ -836
▁ㄱㅡㄹ -837
ㅂㅓㄴ -838
▁ㅈㅗㅁ -839
▁2018 -840
▁ㅂㅜㅌ -841
▁ㄹㅠ -842
▁ㄱㅏㄹ -843
▁ㄴㅗㅎ -844
▁ㅂㅘ -845
ㅂㅏㄱ -846
▁ㄱㅕㄱ -847
ㅂㅡㄹ -848
▁ㅌㅡㄱㅎㅣ -849
▁ㄹㅏㄴ -850
▁ㄴㅡㄴㅈㅣ -851
▁ㅉㅣ -852
▁ㅂㅏㄲ -853
ㅊㅣㅇ -854
ㅈㅣㄴㄷㅏ -855
▁k -856
▁ㅇㅓㅄㅇㅣ -857
▁ㅅㅣㅍ -858
▁ㄸㅓㄹㅇㅓ -859
▁ㅈㅣㄴㅎㅐㅇ -860
ㅊㅜ -861
es -862
ㅊㅏㄱ -863
▁ㅇㅕㅇㅎㅘ -864
▁ㅌㅗㅇㅎㅐ -865
▁ㅎㅏㄱㄱㅛ -866
▁ㅂㅗㄴㅇㅣㄴ -867
▁ㅇㅣㄴㄱㅏㄴ -868
ㄹㅓㅎㄱㅔ -869
▁ㅇㅗㄹㄹㅏ -870
ㄹㅓㅂ -871
ㅇㅣㄴㄱㅗㅇ -872
▁ㅇㅗㄹ -873
ㅊㅏㅇ -874
ㄷㅏㄹ -875
▁ㅁㅗㅅㅎㅏ -876
▁ㅊㅏㅁㄱㅗ -877
▁2019 -878
▁ㅈㅡㅇㄱㅏ -879
▁ㅈㅡㄱ -880
▁ㅅㅑ -881
▁ㄱㅠ -882
it -883
ㄱㅚ -884
ㅋㅕ -885
ㄸㅐ -886
ㅊㅏㄴ -887
▁ㄷㅏㅁ -888
▁ㅅㅡㄹ -889
▁ㅍㅜㄹ -890
▁ㄷㅡㄴ -891
ㅂㅕㄴ -892
▁ㅁㅏㄴㅋㅡㅁ -893
▁ㅇㅞ -894
▁ㅅㅗㄱㄷㅗ -895
▁ㅎㅕ -896
▁ㅁㅗㅁ -897
▁ㅈㅏㄱㅍㅜㅁ -898
ㅌㅓㄴ -899
▁21 -900
▁ㄸㅓ -901
ㅈㅣㅇ -902
▁ㄷㅓㄱ -903
▁50 -904
▁X -905
▁ㅂㅏㄺ -906
ㅍㅡㄹ -907
ㄹㅖ -908
▁2016 -909
▁ㄸㅡ -910
ㅇㅓㅄ -911
ㅎㅢ -912
ㅇㅡㄹ -913
ㄹㅠㄹ -914
ㅂㅔ -915
▁ㅅㅡㅂㄴㅣ -916
ㅎㅗㄴ -917
ㅊㅏㄹ -918
▁ㄱㅗㅇㄱㅕㄱㄹㅕㄱ -919
ㅇㅗㄴㄷㅏ -920
ㅎㅘㄹ -921
▁ㅇㅣㄴㅁㅜㄹ -922
ㄹㄹㅓ -923
▁ㅈㅓㅂ -924
ㄲㅣ -925
▁& -926
is -927
ㅅㅡㅅ -928
ㅇㅠㄱ -929
re -930
▁ㅇㅏㅁ -931
▁ㅁㅕㅊ -932
▁ㅍㅏㄹ -933
ㄱㅝㄴ -934
ㅈㅓㄴㅎㅣ -935
▁ㅉㅗㄱ -936
ㅅㅜㄴ -937
▁w -938
▁ㄷㅗㅇㅇㅏㄴ -939
ㄹㅣㄴㄷㅏ -940
▁ㅁㅣㄹ -941
ㅇㅝㄹ -942
▁ㅇㅣㄹㅂㅜ -943
▁22 -944
▁ㄱㅜㄱㄱㅏ -945
▁ㅇㅣㄴㅎㅐ -946
le -947
ㅊㅓㄹ -948
ㄴㅣㅅ -949
▁ㅎㅗㅁ -950
▁ㅅㅏㅇㄷㅏㅇㅎㅣ -951
▁ㅍㅕㅇㄱㅏ -952
ㄹㅣㄹ -953
▁ㅊㅜㄱ -954
▁ㅎㅢ -955
ㅂㅔㄴ -956
▁ㅎㅘㄹㄷㅗㅇ -957
▁ㄱㅘㄴㄱㅖ -958
ㄱㅏㄹ -959
ㄱㅘㅇ -960
▁ㄴㅏㅈ -961
▁ㅂㅓㄹ -962
ㅎㅏㄴㄷㅏ -963
ㅇㅕㅆ -964
▁ㅇㅕㅇㅅㅏㅇ -965
ㅅㅡㄴ -966
▁J -967
ㄷㅗㄹ -968
▁d -969
▁ㅇㅜㄹ -970
ㄱㅡㄱ -971
ㅁㅂㅓ -972
▁ㅍㅓ -973
▁24 -974
ㅇㅐ -975
▁ㄱㅏㅁㄷㅗㄱ -976
▁ㄸㅟ -977
▁ㅁㅡ -978
▁ㅁㅏㅌ -979
▁ㅁㅜㄴㅅㅓ -980
▁ㅅㅓㅇㄱㅗㅇ -981
ㅇㅡㅇ -982
ㄹㅑ -983
ㅊㅣㄴ -984
ㅂㅜㄹ -985
▁ㄴㅗㄴ -986
▁ㅎㅗㅇ -987
▁ㅎㅡ -988
ing -989
ㅅㅡㄹ -990
▁ㄴㅓㅎ -991
▁ㅁㅓㄴ -992
ic -993
ㅂㅓㄹ -994
▁ㅊㅡ -995
▁f -996
ㅇㅠㄹ -997
▁ㅁㅏㅇ -998
▁ㅈㅜㅇㄱㅜㄱ -999
ㄹㅑㄱ -1000
▁ㅁㅗㄴㅅㅡ -1001
ㄹㄹㅗ -1002
as -1003
ㅆㅣ -1004
▁ㅅㅓㄹㅈㅓㅇ -1005
▁b -1006
▁ㄱㅕㄹㄱㅘ -1007
▁ㅁㅐㄴ -1008
▁ㅈㅓㅇㅂㅗ -1009
▁ㅉㅏ -1010
ㄴㅏㅆ -1011
▁ㅁㅗㄹ -1012
▁ㅈㅓㄴㅈㅐㅇ -1013
▁ㅅㅡㅇㄹㅣ -1014
ㄱㅟ -1015
ㄱㅜㄹ -1016
▁23 -1017
▁2015 -1018
▁ㅁㅔㅁㅂㅓ -1019
ㅁㅗㄴ -1020
▁ㅅㅔㄴ -1021
▁ㅇㅓㄴㄱㅡㅂ -1022
▁ㅆㅡㄹ -1023
▁ㅈㅝ -1024
▁ㄴㅣㅁ -1025
▁ㅆㅓ -1026
▁ㅇㅝㄴㄹㅐ -1027
▁ㅇㅗㄹㄹㅣ -1028
▁ㅋㅏㄹ -1029
▁40 -1030
▁ㅈㅣㄱㅈㅓㅂ -1031
ㅈㅡㅇ -1032
▁ㅅㅓㅇㅇㅜ -1033
▁ㅋㅓㄴ -1034
▁ㅅㅓㄹㅁㅕㅇ -1035
▁ㄹㅣㅇ -1036
▁ㅇㅠㄱ -1037
▁ㅅㅓㄴㅌㅐㄱ -1038
▁ㅈㅓㄴㅊㅔ -1039
ㅂㅐㄱ -1040
▁ㅅㅟㅂ -1041
ㄱㅓㄹ -1042
▁a -1043
ㅇㅜㄴㄷㅡ -1044
▁ㅆㅣㄱ -1045
ㅉㅏ -1046
▁ㅁㅛ -1047
▁ㅎㅠ -1048
ㅇㅜㅇ -1049
▁ㅇㅙ -1050
▁ㅎㅕㅂ -1051
▁< -1052
▁ㅂㅗㅇ -1053
▁ㄴㅠ -1054
▁ㄲㅐ -1055
▁ㅇㅓㅁㅊㅓㅇ -1056
ㅁㅐㄴ -1057
ㄴㅣㅇ -1058
▁ㅅㅛ -1059
▁ㅊㅣㄴㄱㅜ -1060
▁ㄷㅗㄴ -1061
▁ㅂㅏㅇㅂㅓㅂ -1062
▁) -1063
▁ㄴㅡㄹ -1064
▁ㅊㅡㄱ -1065
ㄷㅣㅇ -1066
▁ㅈㅏㅇㅁㅕㄴ -1067
▁ㄱㅏㅂ -1068
ㄱㅣㄴ -1069
ㅊㅐㄱ -1070
▁ㄷㅙㅆ -1071
▁ㅊㅜㄹㅇㅕㄴ -1072
▁ㅈㅜㄴㄷㅏ -1073
▁ㅈㅡ -1074
ㄴㅡㄹ -1075
ㅊㅜㄱ -1076
ㅇㅜㄱ -1077
om -1078
ㄲㅟ -1079
▁ㅃㅐ -1080
▁p -1081
▁ㄲㅙ -1082
am -1083
▁ㅌㅏㅂ -1084
▁h -1085
ㅋㅔㅅ -1086
▁ㅎㅑㅇ -1087
ㅋㅣㄴ -1088
ㅊㅗㅇ -1089
ㄱㅗㄴ -1090
ㅎㅚㄱ -1091
ㅂㅜㄱ -1092
ㄹㅡㄹ -1093
▁ㅎㅗㄱ -1094
▁ㄱㅗㅇㅅㅣㄱ -1095
▁ㅇㅏㅂ -1096
▁ㅇㅔㄹ -1097
ㄴㅕㅁ -1098
ㅌㅣㅇ -1099
▁ㅃㅏㄹ -1100
▁ㄷㅏㅇㅎㅏ -1101
▁ㅅㅗㅇ -1102
▁ㄱㅏㅈ -1103
▁198 -1104
el -1105
ㅅㅟ -1106
▁ㅊㅐㄱ -1107
▁ㅈㅓㄴㅂㅜ -1108
ㅂㅔㄴㅌㅡ -1109
▁o -1110
▁ㅇㅕㄴㄱㅜ -1111
▁ㅊㅣㅁ -1112
ㅍㅕㅇ -1113
▁ㄴㅏㅁㅈㅏ -1114
ㅋㅡㄹ -1115
▁ㅁㅏㄴㄷㅡㄴ -1116
ㄹㄹㅣㄴ -1117
ㅊㅣㅁ -1118
▁ㅅㅗㄱㅅㅓㅇ -1119
ㅇㅏㅇ -1120
▁26 -1121
▁ㄱㅜㅇ -1122
▁ㄷㅏㅂ -1123
▁ㄷㅣㄹ -1124
▁ㅇㅏㄹㄹㅕ -1125
▁2014 -1126
▁ㄷㅗㅇㅅㅣ -1127
▁n -1128
ㄱㅏㅆ -1129
▁ㄷㅡㄷ -1130
▁ㄱㅏㅇㅎㅘ -1131
ㅍㅣㄹ -1132
▁ㅇㅕㄱㅅㅏ -1133
▁ㅈㅓㅇㅁㅏㄹ -1134
▁ㅈㅏㄴ -1135
▁ㅊㅡㅇ -1136
▁28 -1137
ㄹㅐㄱ -1138
▁ㅃㅗ -1139
ㄸㅓ -1140
▁ㅅㅐㄱ -1141
ㅂㅗㅇ -1142
ㄱㅣㄹ -1143
ㅋㅓㄹ -1144
▁ㅅㅓㅇㄴㅡㅇ -1145
▁ㅉㅣㄱ -1146
▁ㅎㅏㄱㅅㅐㅇ -1147
▁ㄹㅐ -1148
▁the -1149
▁27 -1150
ㄱㅕㅆ -1151
ㅁㅓㄱ -1152
▁ㅇㅜㄴㅇㅕㅇ -1153
▁ㅅㅓㄱ -1154
▁ㅁㅓㄹ -1155
▁ㄷㅏㅇㅇㅕㄴ -1156
▁31 -1157
ㅇㅓㄹ -1158
▁= -1159
▁ㅊㅜㄹㅅㅣㄴ -1160
▁ㄴㅗㅇ -1161
ㄹㅓㄴㄷㅔ -1162
ㅁㅕㄴㅅㅓ -1163
▁ㅌㅡㄱㅅㅓㅇ -1164
▁ㅇㅣㄹㅇㅓ -1165
ㅁㅣㄹ -1166
▁ㅇㅣㄴㅌㅓ -1167
▁ㄱㅏㅇㄹㅕㄱ -1168
ㅇㅕㅁ -1169
▁ㅎㅟ -1170
ㅂㅕㄱ -1171
ㄱㅏㅂ -1172
▁ㄱㅗㅇㄱㅐ -1173
▁ㅎㅘㄱㄹㅠㄹ -1174
ㅎㅜㄴ -1175
▁ㅋㅗㄴ -1176
ㅁㅍㅣ -1177
▁ㅊㅏㄱ -1178
▁ㅇㅜㅁ -1179
ㅉㅣ -1180
ㄹㅐㄴㄷㅡ -1181
▁ㄲㅣ -1182
▁ㅂㅏㄹㅁㅐ -1183
▁ㅌㅓㄴ -1184
ol -1185
ㄹㅣㅇ -1186
▁ㅂㅏㅇㅅㅣㄱ -1187
ㅇㅓㅆ -1188
▁ㅂㅏㄹㅅㅐㅇ -1189
▁000 -1190
ㅊㅏㄴㄱㅏ -1191
▁ㅈㅓㅇㅅㅣㄴ -1192
▁ㅌㅡㄱㅅㅜ -1193
▁ㄱㅕㄹㅈㅓㅇ -1194
▁ㅇㅕㅇㅎㅑㅇ -1195
▁ㄲㅡㄹ -1196
▁ㅇㅝㄹㄷㅡ -1197
ㄷㅔㄹ -1198
ion -1199
et -1200
ㅎㅘㄱ -1201
ㅈㅏㅂ -1202
▁ㅂㅕㄴㄱㅕㅇ -1203
▁ㅈㅏㅇㅂㅣ -1204
▁ㅇㅕㅇㅇㅜㅇ -1205
ac -1206
ㄹㅡㄴㄷㅏ -1207
▁ㄹㅡ -1208
▁ㅇㅕㄱㅎㅏㄹ -1209
ㅇㅗㄹ -1210
▁ㅇㅣㄴㄱㅣ -1211
ㄸㅓㄴ -1212
▁ㄸㅡㅅ -1213
▁ㅂㅣㄹ -1214
▁ㅈㅏㄱㅈㅜㅇ -1215
ㅇㅓㄱ -1216
▁32 -1217
▁ㅇㅓㄱ -1218
▁ㅅㅓㅁ -1219
▁ㄴㅏㄴㅇㅣ -1220
▁ㅈㅜㅇㅇㅛ -1221
▁ㅈㅘ -1222
▁ㅎㅕㅇㅌㅐ -1223
▁Y -1224
▁ㅅㅜㄹ -1225
▁ㅇㅣㄹㄷㅏㄴ -1226
▁ㅅㅓㅇㄱㅕㄱ -1227
▁ㅇㅕㅆㅇㅡ -1228
▁ㅅㅣㅇ -1229
▁ㅎㅐㅇㄷㅗㅇ -1230
▁ㅁㅗㅅㅎㅐㅆ -1231
il -1232
us -1233
▁29 -1234
ㄸㅡ -1235
▁ㅎㅡㄱ -1236
▁ㅁㅐㅂ -1237
▁ㅇㅐㄱ -1238
ig -1239
▁v -1240
▁ㅈㅕㅆ -1241
▁ㅅㅣㅁㅈㅣ -1242
ow -1243
▁ㅍㅜ -1244
▁ㅇㅡㅁㅇㅏㄱ -1245
ㅍㅜㅇ -1246
▁ㅃㅗㅂ -1247
ㄱㅐㄱ -1248
ㅍㅗㄱ -1249
ed -1250
▁2013 -1251
ㅁㅣㄴㄱㅜㄱ -1252
▁ㅂㅣㄴ -1253
▁ㅂㅣㅊ -1254
▁ㅂㅏㄹㄷㅗㅇ -1255
▁ㅇㅘㅆ -1256
▁ㅅㅜㅁ -1257
▁ㅇㅠㄴ -1258
ㅊㅡㄱ -1259
▁ㅇㅣㅂㅈㅏㅇ -1260
▁ㅁㅏㄴㄴㅏ -1261
▁ㅊㅏㅈㅇㅏ -1262
▁ㅍㅜㅇ -1263
ㅐㅇㅋㅡ -1264
▁ㅍㅖ -1265
▁ㅇㅐㄹ -1266
ㄷㅓㄱ -1267
▁ㅎㅘㄱㅇㅣㄴ -1268
ㄱㅏㄴㄷㅏ -1269
▁l -1270
▁ㅎㅣㅁㄷㅡㄹ -1271
ㅎㅟ -1272
▁ㄴㅓㅁㅇㅓ -1273
ㄹㅕㅂ -1274
ㄹㅔㄴ -1275
▁ㅁㅝ -1276
▁ㅋㅏㄴ -1277
▁ㅁㅓㄴㅈㅓ -1278
▁ㅈㅓㅇㅊㅣ -1279
▁ㅎㅚㄱ -1280
▁x -1281
▁ㅎㅡㄴ -1282
▁ㅇㅡㅇ -1283
ㄸㅓㅎ -1284
▁60 -1285
ㅅㅜㄱ -1286
▁ㅎㅏㅇㅁㅗㄱ -1287
▁ㅎㅘㄹㅇㅑㄱ -1288
ㅐㄴㄷㅡ -1289
ㅉㅐ -1290
▁ㅁㅠ -1291
▁ㅎㅜㄴ -1292
▁ㅇㅝㄴㅈㅏㄱ -1293
▁ㄷㅓㄱㅂㅜㄴ -1294
▁35 -1295
▁ㄷㅡㄱ -1296
▁ㅎㅏㅂㄴㅣ -1297
ㅇㅈㅏㅇ -1298
▁ㄱㅗㄴ -1299
ㅌㅚ -1300
▁ㄴㅗㄱ -1301
▁ㅇㅘㄴㅈㅓㄴㅎㅣ -1302
ㅁㅕㄹ -1303
ㅎㅏㄴㅁㅣㄴㄱㅜㄱ -1304
id -1305
▁ㄲㅓ -1306
▁Lv -1307
▁ㄱㅏㅁㅅㅗ -1308
ㅆㅓ -1309
ㄲㅜ -1310
▁ㅆㅗ -1311
ㄹㅐㅁ -1312
ㅌㅡㄴ -1313
ㅇㅣㄴㅌㅡ -1314
ㅇㅗㄱ -1315
▁ㄷㅠ -1316
▁ㅅㅜㄴㄱㅏㄴ -1317
▁ㄷㅗㄱㅇㅣㄹ -1318
▁ㅁㅕㅇㅊㅣㅇ -1319
ㅅㅐ -1320
ay -1321
▁ㅇㅓㄹㄱㅜㄹ -1322
▁ㅈㅓㄴㅎㅕ -1323
▁2012 -1324
ad -1325
▁ㄱㅘㄴㄹㅣ -1326
▁ㄱㅕㅇㅊㅏㄹ -1327
▁ㅇㅣㅀ -1328
ㄷㅓㄴ -1329
▁ㅌㅡㄱㅈㅣㅇ -1330
ㄴㅐㄴ -1331
▁01 -1332
ㅁㅡ -1333
ㅇㅜㅅ -1334
▁ㅈㅓㄱㅇㅛㅇ -1335
ㄴㅜ -1336
ㅅㅗㄴ -1337
ㄹㅚ -1338
▁ㅇㅕㅇㅇㅓ -1339
⊸⊸ -1340
▁ㄱㅚㅇㅈㅏㅇ -1341
ㅂㅗㄹ -1342
▁r -1343
ㅗㅊ -1344
▁ㅈㅓㅇㅂㅜ -1345
ㄱㅌㅡ -1346
▁of -1347
▁ㅅㅣㄹㅍㅐ -1348
ㅁㅓㄴ -1349
▁ㅊㅕ -1350
ㄱㅗㄹ -1351
ㅇㅓㅄㅇㅣ -1352
▁ㅈㅛ -1353
▁ㅈㅣㅅ -1354
▁ㅇㅐㄹㅂㅓㅁ -1355
▁ㅅㅐㅇㅅㅏㄴ -1356
ot -1357
▁ㅇㅓㄹㅁㅏ -1358
▁ㄱㅓㄴㅁㅜㄹ -1359
ㄲㅡㅁ -1360
ㄹㅛㅇ -1361
ve -1362
and -1363
▁ㄱㅕㄴ -1364
▁ㅎㅗㄱㅇㅡㄴ -1365
▁ㅅㅏㅇㅅㅡㅇ -1366
▁ㅂㅏㄲㅇㅔ -1367
ㅌㅏㄱ -1368
▁ㄱㅜㄱㄴㅐ -1369
▁ㅈㅏㄱㄱㅏ -1370
▁ㄸㅏㄹ -1371
▁TV -1372
▁ㅎㅚㄱㄷㅡㄱ -1373
▁ㅂㅏㄹㄱㅕㄴ -1374
▁ㅅㅣㄹㄹㅕㄱ -1375
▁ㅂㅏㄴㅇㅡㅇ -1376
ㄹㅓㄱ -1377
▁y -1378
▁ㅋㅞ -1379
ㅊㅏㄶ -1380
▁ㅈㅓㅇㅎㅘㄱ -1381
▁ㄷㅔㄱ -1382
▁ㅊㅏㅁㅈㅗ -1383
▁ㅁㅏㄴㅎㅘ -1384
▁ㅇㅕㅇㄱㅜㄱ -1385
▁ㄷㅗㅇㅇㅣㄹ -1386
▁ㅎㅕㄴㄷㅐ -1387
▁ㅋㅣㅇ -1388
20 -1389
ㅊㅜㅇ -1390
▁ㅅㅓㄴㅂㅏㄹ -1391
▁ㄹㅏㅇ -1392
ㄹㅗㅅ -1393
▁ㅂㅏㄴㄷㅐ -1394
ㅇㅝㅆ -1395
ㄱㅗㅅ -1396
▁ㅁㅏㅅ -1397
▁ㄷㅏㅁㄷㅏㅇ -1398
▁ㅅㅡㅂ -1399
ch -1400
▁ㄸㅏㅇ -1401
▁ㅊㅜㄹㅅㅣ -1402
▁ㅎㅏㄴㅌㅔ -1403
▁ㅁㅐㄱ -1404
▁ㅋㅜㄹ -1405
▁ㄹㅑㅇ -1406
▁ㅂㅔㄹ -1407
▁ㄷㅏㄴㄱㅖ -1408
▁ㅂㅏㅁ -1409
▁ㅇㅜㅁㅈㅣㄱ -1410
▁ㅆㅡㄴ -1411
▁ㄸㅏㄱ -1412
un -1413
▁ㅎㅓㄴ -1414
▁ㅍㅏㄴㅁㅐ -1415
ㅌㅠ -1416
▁ㅂㅓㅁㅇㅟ -1417
ㄴㅏㄴㄷㅏ -1418
▁ㅌㅚ -1419
ㄴㅗㅎ -1420
▁37 -1421
ㅇㅣㄱ -1422
▁The -1423
ㅇㅔㄹ -1424
▁2010 -1425
▁ㅌㅡㄹ -1426
BS -1427
ㅇㅞ -1428
▁ㅂㅜㄹㄹㅣ -1429
▁g -1430
▁ㅌㅏㅁ -1431
▁ㅍㅗㄱㅂㅏㄹ -1432
▁ㅅㅏㅇㅇㅟ -1433
▁ㅁㅜㄴㅎㅘ -1434
ㄹㅜㅂ -1435
▁ㅁㅜㄹㄹㅣ -1436
▁ㄷㅡㅇㄱㅡㅂ -1437
ㅎㅕㅆ -1438
▁ㅎㅘㄱㅅㅣㄹ -1439
▁80 -1440
ㄸㅓㅎㄱㅔ -1441
▁ㅈㅓㄹㄷㅐ -1442
▁ㄲㅜ -1443
▁500 -1444
▁ㅇㅜㅅ -1445
▁ㅈㅣㄴㅉㅏ -1446
▁ㅈㅜㄱㅇㅣ -1447
ㄷㅓㅁ -1448
▁ㄱㅚㅇㅈㅏㅇㅎㅣ -1449
ㅁㅗㅅ -1450
▁St -1451
▁ㅇㅣㄴㅈㅓㅇ -1452
ㅅㅠ -1453
ㄱㅠㄴ -1454
▁45 -1455
▁ㅋㅡㄹㄹㅣ -1456
▁ㄱㅕㅇㅎㅓㅁ -1457
▁ㅂㅏㄹㅅㅏ -1458
ER -1459
▁ㅅㅐㅇㅎㅘㄹ -1460
▁ㅋㅓㅁ -1461
ㄱㅓㅁ -1462
▁09 -1463
ㄴㅐㅆ -1464
▁ㅂㅏㄺㅎㅕ -1465
▁ㄴㅏㄱ -1466
▁* -1467
ㅇㅏㅂ -1468
▁ㅈㅗㄱ -1469
▁ㅌㅡㄱㅂㅕㄹ -1470
ㅎㅣㄴ -1471
▁ㅎㅘㄹㅇㅛㅇ -1472
ㅈㅚ -1473
▁ㄱㅜㄹ -1474
▁ㅈㅝㅆ -1475
▁ㅈㅜㅇㅇㅏㅇ -1476
▁ㅍㅕㄹ -1477
▁ㅎㅗㄴㅈㅏ -1478
ㅂㅟ -1479
ㄴㅔㅅ -1480
▁ㅇㅕㄴㄱㅣ -1481
▁02 -1482
▁ㅂㅏㅇㅎㅑㅇ -1483
▁03 -1484
dd -1485
▁ㄷㅡㅅㅇㅣ -1486
▁197 -1487
▁ㅈㅣㄴㅊㅜㄹ -1488
ㅍㅗㄴ -1489
ㅊㅝ -1490
ㄹㅏㅇㅅㅡ -1491
▁ㅇㅜㄴㄷㅗㅇ -1492
ㄷㅏㅂ -1493
▁km -1494
ㅁㅣㅇ -1495
▁ㅎㅏㄴㅈㅓㅇ -1496
▁ㅈㅜㅇㄱㅏㄴ -1497
▁ㅁㅣㄷ -1498
▁ㄲㅜㅁ -1499
▁ㄱㅙ -1500
▁ㅅㅜㄱ -1501
ㅌㅏㅇ -1502
▁ㅅㅐㅇㅁㅕㅇ -1503
ㅇㅣㄴㅁㅜㄹ -1504
▁ㅂㅜㄹㄹㅓ -1505
▁ㅈㅜㄴㅂㅣ -1506
▁ㄹㅣㄴ -1507
ㅅㅣㄹㅅㅏㅇ -1508
▁ㅎㅐㄱ -1509
▁2011 -1510
▁ㅇㅔㄴㄷㅣㅇ -1511
▁ㅈㅗㄹ -1512
▁ㄷㅏㅇㅇㅕㄴㅎㅣ -1513
ㅇㅛㄱ -1514
ㅎㅛ -1515
▁ㅅㅓㄴㄱㅓ -1516
▁ㅇㅏㄴㅌㅏ -1517
ff -1518
▁ㅇㅕㅍ -1519
▁ㅎㅕㄴㅅㅣㄹ -1520
ㅎㅗㄱ -1521
ㅂㅠ -1522
▁ㅇㅓㅁㅊㅓㅇㄴㅏㄴ -1523
▁ㄷㅡㅇㅈㅏㅇㅇㅣㄴㅁㅜㄹ -1524
▁ㄴㅗㄴㄹㅏㄴ -1525
▁ㅈㅚ -1526
▁ㅇㅛㄱ -1527
ir -1528
ㅆㅣㄴ -1529
▁05 -1530
▁ㅌㅔㄴ -1531
▁ㅅㅜㄴㅇㅟ -1532
ㅌㅗㅇㄹㅕㅇ -1533
▁ㅁㅜㄷ -1534
ㄴㅑ -1535
▁ㅇㅒ -1536
ㄷㅡㅇㅎㅏㄱㄱㅛ -1537
▁ㅎㅡㅂ -1538
▁ㅅㅣㅀ -1539
ㅅㅔㄴ -1540
▁ㅂㅜㄴㅇㅟ -1541
▁ㄱㅙㄴ -1542
▁ㄹㅓㄴ -1543
ㅊㅕㅆ -1544
▁Z -1545
os -1546
▁( -1547
▁ㅎㅔㄹ -1548
▁ㄷㅏㄴㅅㅜㄴ -1549
ㅊㅐ -1550
▁ㅅㅐㅇㄱㅣ -1551
▁ㅁㅣㄴㅈㅜ -1552
▁ㅊㅐㅁㅍㅣ -1553
▁ㅊㅏㅁㅇㅕ -1554
▁08 -1555
▁70 -1556
▁90 -1557
▁ㅂㅡㄹㄹㅐㄱ -1558
▁ㅎㅏㄱㄴㅕㄴ -1559
▁ㄷㅗㅇㄹㅛ -1560
ㅋㅕㅆ -1561
▁ㄱㅏㅆ -1562
▁ㅎㅝㄹ -1563
▁07 -1564
im -1565
▁ㅇㅑㄱㄱㅏㄴ -1566
ㄱㅜㅇ -1567
▁ㅈㅜㅇㅅㅣㅁ -1568
▁ㅊㅏㄴ -1569
▁ㄴㅗㄹ -1570
▁ㄹㅣㅇㅋㅡ -1571
▁ㅁㅗㅅㅎㅏㄴ -1572
▁ㅇㅠㄹ -1573
▁... -1574
ㅃㅏ -1575
▁ㅈㅣㄱㅇㅓㅂ -1576
▁ㅅㅣㅂ -1577
▁ㄸㅗㄱ -1578
ㅉㅏㄱ -1579
▁ㅎㅡㅇ -1580
▁ㅋㅗㅁ -1581
▁48 -1582
▁ㄹㅗㄴ -1583
▁ㅎㅝㄹㅆㅣㄴ -1584
▁ㅈㅡㄹ -1585
▁ㄱㅕㄹㅎㅗㄴ -1586
▁ㅅㅓㄹㅊㅣ -1587
▁HP -1588
▁ㅇㅕㅁ -1589
ter -1590
▁ㅈㅕ -1591
▁ㅇㅣㅂㄴㅣ -1592
▁ㅈㅓㄴㅇㅛㅇ -1593
ㄲㅣㅁ -1594
▁ㅂㅜㄹㄱㅜ -1595
▁ㅂㅏㅇㅁㅕㄴ -1596
▁06 -1597
▁ㅅㅏㄹㅇㅏ -1598
▁ㅋㅠ -1599
▁ㅇㅣㄺ -1600
▁ㅅㅓㅇㅈㅓㄱ -1601
▁ㅌㅏㅅ -1602
▁2000 -1603
▁ㅊㅜㄱㄱㅜ -1604
▁ㅇㅣㄹㅈㅓㅇ -1605
▁mm -1606
▁ㅁㅗㄱㅈㅓㄱ -1607
ㄷㅏㄱ -1608
▁300 -1609
▁ㅇㅕㄴㅅㅗㄱ -1610
▁ㄱㅏㅇㅎㅏㄴ -1611
ㄹㅗㅂ -1612
▁33 -1613
ㅋㅣㅇ -1614
▁ㅌㅟ -1615
ur -1616
▁ㅇㅣㄱ -1617
▁ㅈㅣㅇ -1618
▁ㅇㅗㅂ -1619
▁ㅆㅏㅇ -1620
▁ㅅㅓㅇㅈㅏㅇ -1621
▁04 -1622
▁ㄹㅠㄹ -1623
▁ㅂㅕㄱ -1624
▁ㅈㅏㄹㅁㅗㅅ -1625
▁ㅅㅏㅁㅅㅓㅇ -1626
ㅎㅖ -1627
▁36 -1628
▁ㅈㅗㅇㄹㅠ -1629
▁ㄱㅏㄱㄱㅏㄱ -1630
ㅌㅣㄴ -1631
▁ㅇㅓㄴㅈㅔ -1632
▁e -1633
▁ㅍㅐㄱ -1634
▁ㄷㅏㅇㅅㅣㄴ -1635
▁ㅊㅏㅁㄱㅏ -1636
▁ㅇㅣㄹㅎㅐㅇ -1637
od -1638
ㅂㅣㄴ -1639
▁ㄹㅕㄱ -1640
ㄱㅏㅌ -1641
▁ㅇㅔㄹㄹㅣ -1642
ㅎㅕㄱ -1643
ㅎㅕㄹ -1644
▁ㅂㅏㄹㅍㅛ -1645
▁ㄹㅐㄴ -1646
▁th -1647
▁ㄴㅕ -1648
ㅈㅜㄴㄷㅏ -1649
▁ㅈㅓㄴㅅㅓㄹ -1650
▁ㅂㅔㄴ -1651
ag -1652
▁ㄴㅡㄹㅇㅓ -1653
▁ㅈㅓㄴㅁㅜㄴ -1654
▁ㄱㅓㄹㄹㅣ -1655
▁ㅉㅏㄼ -1656
▁you -1657
▁ㅇㅣㄹㅇㅡ -1658
ㅎㅕㅂ -1659
▁ㄱㅜㄷ -1660
▁ㅂㅓㅅ -1661
▁ㅂㅏㅇㅇㅕㅇ -1662
ㄹㅓㄹ -1663
▁ㅂㅓㄹㅇㅓ -1664
▁ㄲㅡㄶ -1665
ㅌㅔㄴ -1666
ㅊㅏㅁ -1667
ㅇㅐㄱ -1668
▁ㅈㅗㅇㅈㅗㄱ -1669
▁ㅅㅔㄴㅌㅓ -1670
▁ㅇㅗㄱ -1671
ㅁㅐㅇ -1672
▁ㅈㅗㅇㄹㅛ -1673
ㅊㅣㄱ -1674
▁ㅇㅜㄴㅎㅐㅇ -1675
▁ㅈㅜㄱㅇㅡㅁ -1676
ㅊㅣㄹ -1677
▁ㅊㅜㅇㅂㅜㄴ -1678
▁ㄱㅡㄴㅈㅓㅂ -1679
▁ㄱㅏㄱㅅㅓㅇ -1680
▁ㅅㅗㄹ -1681
▁ㅁㅏㄴㄷㅡ -1682
▁ㅂㅘㅆ -1683
▁FC -1684
ub -1685
ㅇㅣㄹㄹㅓ -1686
ㅇㅓㅅ -1687
▁ㅍㅣㄱ -1688
▁ㅋㅐㅁ -1689
▁ㄹㅔㄴ -1690
▁ㅈㅏㅇㅊㅏㄱ -1691
ㅇㅘㄴ -1692
▁ㅊㅣㅇ -1693
▁ㄱㅜㄱㅁㅣㄴ -1694
▁ㅅㅏㄱ -1695
ㅂㅗㅅ -1696
ㅊㅓㄱ -1697
▁ㅊㅓㄱ -1698
ㅅㅑ -1699
▁ㅈㅠ -1700
ㄱㅌㅓ -1701
▁ㄷㅓㅁ -1702
▁ㅇㅏㄴㅈㅓㅇ -1703
▁ㅇㅓㅂㄷㅔ -1704
ㅊㅜㄴ -1705
▁ㄱㅕㅇㅈㅔ -1706
▁cm -1707
▁SK -1708
▁ㅈㅓㅁㅅㅜ -1709
▁ㅎㅏㅇㄱㅗㅇ -1710
igh -1711
▁ㅇㅔㄴㅈㅣㄴ -1712
▁ㅍㅗㄹ -1713
▁ㅊㅜㅇㄱㅕㄱ -1714
▁ㄷㅏㄹㅅㅓㅇ -1715
▁ㅈㅓㅇㅅㅏㅇ -1716
▁ㄱㅗㄷ -1717
ㅇㅓㅁ -1718
▁ㅂㅓㄴㅎㅗ -1719
▁ㅋㅔㄴ -1720
ㅂㅏㄷ -1721
▁ㅈㅏㄱㅈㅓㄴ -1722
ver -1723
▁ㅁㅗㄱㅅㅗ -1724
▁ㅂㅓㄴㅇㅕㄱ -1725
▁ㅅㅔㅁ -1726
▁ㄸㅗㄱㄱㅏㅌ -1727
▁ㄴㅏㄹㅇㅏ -1728
▁ㅈㅓㅇㅊㅔ -1729
ak -1730
ent -1731
▁ㅁㅗㄱㄹㅗㄱ -1732
ㄹㅗㄹ -1733
ㅋㅔㅅㅁㅗㄴ -1734
ㄷㅜㅇ -1735
▁ㄷㅏㅇㅎㅐㅆ -1736
▁196 -1737
▁ㄴㅏㅁㅅㅓㅇ -1738
▁34 -1739
▁ㅍㅜㅁ -1740
▁ㅈㅓㄴㅈㅏㄱ -1741
▁ㅎㅜㄴㄹㅕㄴ -1742
▁ㅈㅓㄴㅊㅏ -1743
▁ㅊㅜㄹㅈㅓㄴ -1744
▁ㅇㅏㄱㅁㅏ -1745
▁ㅈㅓㄴㅅㅏ -1746
▁ㄱㅗㅇㅈㅜㅇ -1747
▁ㅂㅣㅇ -1748
▁ㄱㅏㅇㅎㅏ -1749
▁ㅁㅏㄴㅇㅑㄱ -1750
▁ㄸㅜ -1751
▁ㅂㅜㄴㄴㅗ -1752
▁ㅋㅡㄹㄹㅐ -1753
▁ㅍㅡㄹㄹㅐ -1754
▁ㄱㅙㄴㅊㅏㄶ -1755
ㅊㅟ -1756
▁ㅁㅔㄴ -1757
▁ㅂㅕㄴㅎㅘ -1758
▁ㅅㅐㅇㅈㅗㄴ -1759
▁ㅎㅕㄹ -1760
▁ㅎㅗㅁㄹㅓㄴ -1761
ㄲㅡ -1762
ㅋㅣㄴㄷㅏ -1763
▁ㅅㅣㄴㄱㅕㅇ -1764
▁ㄷㅗㅇㅁㅜㄹ -1765
um -1766
▁ㅎㅐㅆㅇㅓㅆ -1767
▁ㄷㅡㄱㅈㅓㅁ -1768
▁ㄷㅟㅅ -1769
ㅌㅗㄴ -1770
▁ㅎㅏㄴㄷㅔ -1771
▁ㅇㅣㄴㅅㅏ -1772
ㄴㅣㄱ -1773
BC -1774
▁ㅅㅕㄴ -1775
ㅆㅏ -1776
ㅇㅠㄴ -1777
▁ㅇㅕㄴㄱㅕㄹ -1778
ㄹㅣㅅ -1779
▁ㄷㅏㄴㅈㅓㅁ -1780
▁75 -1781
▁ㅍㅣㄹㄷㅡ -1782
ㅋㅠ -1783
ut -1784
▁ㅂㅣㄱ -1785
▁ㅎㅏㄴㅍㅕㄴ -1786
▁ㄱㅜㄱㅈㅔ -1787
▁ㅈㅏㅇㄱㅏㅂ -1788
▁ㄱㅓㄴㄷㅏㅁ -1789
▁ㄴㅐㅇ -1790
▁ㅌㅡㄱㅈㅓㅇ -1791
▁ㅂㅏㄴㅁㅕㄴ -1792
▁ㅇㅕㄴㅎㅏㅂ -1793
ec -1794
▁ㄹㅛ -1795
▁ㅈㅓㄴㄱㅣ -1796
▁vs -1797
▁ㅍㅏㄴㅈㅓㅇ -1798
▁38 -1799
▁ㅈㅏㅇㅅㅗ -1800
▁ㅇㅣㄹㄹㅓ -1801
▁in -1802
▁ㄱㅗㅇㅇㅕㄴ -1803
ㄹㄹㅔ -1804
▁ㅁㅐㅇ -1805
▁ㄷㅏㄹㄹㅏ -1806
▁ㄹㅗㅅ -1807
▁ㅅㅣㅇㄱㅡㄹ -1808
▁ㅎㅏㅇㅅㅏㅇ -1809
▁ㅁㅕㄹ -1810
▁ㅁㅗㄱㅍㅛ -1811
▁ㅁㅣㄹㄹㅣ -1812
▁ㅈㅓㅇㅈㅏㄱ -1813
▁ㅇㅕㄴㅊㅜㄹ -1814
ㅇㅏㄹ -1815
▁ㄱㅘㄴㅅㅣㅁ -1816
▁55 -1817
▁ㄲㅗㅊ -1818
▁2009 -1819
▁ㄷㅓㄴㅈㅓㄴ -1820
ㅇㅣㄴㅈㅣ -1821
▁ㅎㅡㄹ -1822
ㅂㅜㅌ -1823
ㄷㅗㅇㅇㅏㄴ -1824
▁Q -1825
▁ㅂㅕㄹㄹㅗ -1826
▁ㅊㅓㄹㄷㅗ -1827
▁ㄷㅏㄹㄹㅕ -1828
ㄴㅠ -1829
▁to -1830
▁ㅎㅗㄹ -1831
▁ㅂㅕㄴㅅㅣㄴ -1832
ST -1833
ro -1834
ㅋㅗㄴ -1835
ㄹㅠㄱ -1836
ㄹㅕㄹ -1837
ㅈㅡㅁ -1838
▁ㄴㅓㄼ -1839
▁ㅇㅏㄹㅇㅏ -1840
▁ㅈㅓㅇㅅㅣㄱ -1841
ㅎㅏㄱㅅㅐㅇ -1842
▁ㄲㅏㄹ -1843
▁ㅈㅏㄱㄱㅗㄱ -1844
▁ㄴㅗㅁ -1845
ㅃㅡ -1846
▁ㄱㅕㄹㅅㅡㅇ -1847
▁ㅇㅗㅅ -1848
▁_ -1849
▁ㅇㅣㄴㄱㅏ -1850
▁ㄱㅏㅂㅈㅏ -1851
▁ㄱㅏㄱㅈㅗㅇ -1852
ㅘㄹ -1853
▁ㅎㅘㅇㅈㅔ -1854
▁ㅎㅘㄱㅈㅓㅇ -1855
▁ㅈㅗㄹㅇㅓㅂ -1856
▁ㅋㅟ -1857
ㅍㅖ -1858
▁ㄹㅗㄱ -1859
▁ㅂㅕㅇㄹㅕㄱ -1860
▁ㅆㅏㅎ -1861
▁ㅇㅐㄴ -1862
▁ㅈㅓㄴㅂㅏㄴ -1863
ㅅㅔㅂ -1864
▁ㅈㅣㄴㅎㅘ -1865
▁ㅂㅜㄱㅎㅏㄴ -1866
▁ㄷㅜㄴ -1867
ㅅㅙ -1868
▁ㅌㅡㄱㅇㅣ -1869
▁ㅂㅏㄹㅈㅓㄴ -1870
▁ㅇㅚㄴ -1871
ㅇㅏㅁ -1872
▁ㅋㅓㄹ -1873
ㅁㅠ -1874
▁ㄱㅓㄴㅅㅓㄹ -1875
▁ㅉㅡㅁ -1876
▁ㅇㅏㅂㄷㅗ -1877
ㅈㅣㅅ -1878
ㄴㅅㅡ -1879
ㅌㅔㄹ -1880
em -1881
ㅁㅏㄹㄹㅗ -1882
ㅂㅡㄴ -1883
▁EX -1884
▁2008 -1885
▁ㅇㅕㄱㄷㅐ -1886
▁ㄱㅏㅁㅈㅓㅇ -1887
▁ㄷㅏㅇㅎㅏㄴ -1888
▁ㅌㅏㄹㅊㅜㄹ -1889
▁ㅅㅏㄱㅈㅔ -1890
▁ㅈㅣㄱㅈㅓㄴ -1891
ㄲㅏㅂ -1892
ight -1893
▁ㄸㅢ -1894
▁ㅁㅝㄴ -1895
ㄲㅡㄹ -1896
ㅎㅓ -1897
▁ㅇㅣㅁㅁㅜ -1898
▁ㄴㅏㅂ -1899
ㄷㅜㅁ -1900
▁ㄱㅐㄹ -1901
ㄴㅏㄱ -1902
ㅈㅜㄹ -1903
▁ㄱㅗㄹㄷㅡ -1904
AN -1905
▁ㅊㅣㄹ -1906
▁ㄴㅐㄴ -1907
▁ㅈㅣㅂㅈㅜㅇ -1908
ㅎㅡㅇ -1909
▁ㅈㅓㅁㅍㅡ -1910
▁ㄱㅣㅍ -1911
ㅇㅏㅅ -1912
AR -1913
▁ㅇㅣㅇ -1914
ㄹㄹㅣㅇ -1915
▁ㅇㅣㄴㄱㅜ -1916
▁ㅈㅓㄴㄱㅜㄱ -1917
▁ㅅㅏㅇㄱㅘㄴ -1918
ㅍㅡㄴ -1919
▁ㄲㅜㄴ -1920
▁ㅁㅕㅇㄹㅕㅇ -1921
▁ㅂㅜㄴㄹㅠ -1922
▁ㅈㅏㄱㅇㅓㅂ -1923
▁ㄴㅚ -1924
▁ㄹㅐㅇㅋㅡ -1925
▁ㅇㅘㄴㅈㅓㄴ -1926
▁ㅇㅣㄴㅅㅣㄱ -1927
ㅈㅔㄱㅌㅡ -1928
▁ㅇㅕㄴㅅㅡㅂ -1929
▁ㄱㅗㅇㄱㅏㄴ -1930
▁ㄷㅓㄴㅈㅣ -1931
▁ㄹㅗㄹ -1932
▁ㅁㅜㄹㄱㅓㄴ -1933
ap -1934
▁ㅈㅏㅁㅅㅣ -1935
▁ㄱㅕㅇㅈㅐㅇ -1936
▁ㄱㅡㄱㅈㅏㅇ -1937
▁ㅇㅖㅅ -1938
▁42 -1939
▁ㅈㅏㅇㅈㅓㅁ -1940
ㅋㅓㅂ -1941
ON -1942
▁41 -1943
▁ㅍㅗㄴ -1944
▁ㅂㅕㄹㅁㅕㅇ -1945
▁ㅋㅓㅂ -1946
▁ㄱㅜㄴㅅㅏ -1947
▁ㅊㅘㄹ -1948
▁ㅇㅓㅂㄱㅡ -1949
▁ㅎㅐㅇㅈㅓㅇ -1950
▁ㄷㅏㄴㅇㅓ -1951
▁ㅂㅕㅇㅇㅝㄴ -1952
▁ㄱㅡㄴㅊㅓ -1953
▁ㅁㅗㅇ -1954
▁ㅇㅣㄴㅊㅓㄴ -1955
▁194 -1956
▁No -1957
▁ㅂㅏㄹㅇㅓㄴ -1958
▁ㅈㅣㅁ -1959
▁ㅂㅜㄹㄱㅏ -1960
▁ㅈㅓㄴㄹㅕㄱ -1961
▁ㅁㅗㄹㄹㅏ -1962
▁ㄱㅏㄴㄷㅏ -1963
ㄲㅓ -1964
▁ㅅㅏㄹㅇㅣㄴ -1965
▁39 -1966
▁ㅍㅡㄹㄹㅏ -1967
▁ㅍㅔㄴ -1968
▁ㅇㅡㄴㄷㅔ -1969
▁Ch -1970
▁ㄲㅡㅌㄴㅏ -1971
ㅊㅗㄴ -1972
▁ㅈㅓㄴㄱㅐ -1973
▁> -1974
▁ㅈㅓㄴㅈㅏ -1975
▁ㅅㅣㄴㅊㅔ -1976
ㅂㅏㅂ -1977
▁ㅈㅓㅇㄹㅣ -1978
▁ㅌㅓㄹ -1979
▁', -1980
▁ㄱㅕㅁ -1981
▁ㅍㅏㄴㄷㅏㄴ -1982
▁ㄱㅏㅇㅈㅔ -1983
ㅂㅓㅂㅅㅏ -1984
▁ㅊㅘㄹㅇㅕㅇ -1985
▁ㅁㅣㅌ -1986
▁ㅇㅗㄹㄹㅕ -1987
▁ㅂㅗㄴㄹㅐ -1988
ㅇㅜㄴㄷㅔ -1989
ul -1990
ㄹㅔㄱ -1991
▁kg -1992
▁ㅂㅏㄷㅇㅏ -1993
▁ㅂㅜㅇ -1994
▁st -1995
▁44 -1996
▁ㄱㅗㅇㅈㅜ -1997
▁ㅃㅜ -1998
▁ㅅㅔㅅ -1999
▁ㅂㅕㅇㅅㅏ -2000
▁ㅅㅓㄴㅅㅐㅇ -2001
▁ㄹㅗㅂ -2002
▁ㅍㅕㅇㄱㅠㄴ -2003
ce -2004
ik -2005
▁ㄷㅗㄱㄹㅣㅂ -2006
▁2020 -2007
▁; -2008
▁ㅇㅘㅇㄱㅜㄱ -2009
ㅊㅡㅇ -2010
▁ㅂㅜㄴㅁㅕㅇ -2011
▁ㅎㅏㄱㅇㅝㄴ -2012
▁ㅎㅗㅁㅍㅔ -2013
▁ㅍㅗㄱㅌㅏㄴ -2014
000 -2015
▁ㄲㅗㄱ -2016
▁ㅅㅐㅇㄱㅕㅆ -2017
ㅅㅜㅁ -2018
▁99 -2019
▁ㄱㅜㄴㄷㅐ -2020
▁ㄷㅗㅇㅅㅐㅇ -2021
▁ㄹㅗㅅㄷㅔ -2022
▁LG -2023
▁ㄴㅣㄴ -2024
▁ㅈㅜㅇㅂㅏㄴ -2025
ㅎㅡ -2026
▁ㅂㅜㄺ -2027
ㅌㅏㄹㄹㅣ -2028
▁ㅎㅐㅇㅇㅟ -2029
▁ㄷㅏㄴㅊㅔ -2030
▁ㅇㅡㅁㅅㅣㄱ -2031
▁ㅌㅐㅇ -2032
ㅅㅕ -2033
▁ㄱㅕㄲ -2034
▁ㅋㅣㄹ -2035
▁ㄸㅓㄱ -2036
▁ㅇㅞㅂ -2037
▁ㅇㅘㄴㅂㅕㄱ -2038
▁ㅇㅗㅂㅅㅕㄴ -2039
ㄱㅔㄴ -2040
ㅅㅓㅂ -2041
▁2007 -2042
▁ㅎㅕㄴㅅㅏㅇ -2043
▁ㅂㅏㄴㄷㅡ -2044
▁ㅉㅗㅊ -2045
▁195 -2046
all -2047
ㅅㅡㅁ -2048
▁ㅌㅏㄹㄹㅏㄱ -2049
▁43 -2050
▁ㅇㅝㄴㅇㅣㄴ -2051
ㄱㅈㅓㅇ -2052
▁ㅈㅜㄹㅇㅓ -2053
▁ㅇㅘㄴㅅㅓㅇ -2054
IN -2055
ㅋㅛ -2056
▁ㅌㅗㅇㅎㅏㅂ -2057
ㅁㅛ -2058
ㄷㅗㅇㅊㅏ -2059
ㄹㅏㄴㄷㅡ -2060
▁ㅈㅓㄴㄹㅑㄱ -2061
▁ㅈㅣㄱㅎㅜ -2062
▁ㄴㅗㄹㄹㅏ -2063
▁MA -2064
▁ㄷㅏㄴㅈㅣ -2065
▁ㄴㅓㄹ -2066
▁ㅂㅗㄱㄱㅟ -2067
▁ㅌㅔㅁ -2068
ㅂㅕ -2069
▁ㅎㅘㄴㄱㅕㅇ -2070
nd -2071
ㅉㅣㄱ -2072
▁ㅎㅣㄹ -2073
▁ㅂㅗㄱㅅㅜ -2074
▁ㄱㅘㅇㅇㅕㄱ -2075
▁ㄴㅡㅈ -2076
▁ㄱㅓㄱㅈㅓㅇ -2077
▁ㅅㅑㅅ -2078
▁ㅇㅕㄴㅈㅐ -2079
▁ㅇㅣㄴㄷㅗ -2080
▁ㅎㅏㄴㄱㅡㄹ -2081
▁46 -2082
▁47 -2083
ㅊㅓㅂ -2084
▁ㅈㅓㅇㄱㅠ -2085
▁ㅅㅕ -2086
▁ㅂㅏㅂ -2087
▁ㅇㅕㄴㅈㅏㅇ -2088
▁2006 -2089
▁ㅅㅣㅁㄱㅏㄱ -2090
▁ㅍㅕㅇㅂㅓㅁ -2091
▁ㅈㅣㄴㄷㅏ -2092
▁ㅇㅗㄻ -2093
▁ㅊㅐㄱㅇㅣㅁ -2094
▁ㅃㅏㄹㄹㅣ -2095
▁ㅃㅓㄴ -2096
▁ㄱㅗㅇㅍㅗ -2097
▁ㅁㅏㅈㅊㅝ -2098
▁ㅍㅕㄹㅊㅣ -2099
ㅁㅔㄴ -2100
▁ㅅㅣㄹㅎㅓㅁ -2101
th -2102
▁ㅈㅓㅁㅈㅓㅁ -2103
▁51 -2104
▁ㅋㅐㅂ -2105
ㅅㅣㅇ -2106
▁ㄱㅜㄷㅇㅣ -2107
tt -2108
▁ㅅㅏㅇㅅㅔ -2109
▁ㅌㅐㄱ -2110
ㅅㅓㅅ -2111
▁ㅍㅣㄹㅅㅏㄹ -2112
▁ㅁㅏㅈㅊㅜ -2113
▁ㅍㅗㅁ -2114
▁ㅅㅖ -2115
▁ㅈㅓㅂㄱㅡㄴ -2116
▁ㅅㅓㅇㅎㅑㅇ -2117
ㄴㅣㅁ -2118
▁ㅈㅗㅎㅇㅏ -2119
▁ㄱㅓㄹㄹㅗ -2120
▁ㅈㅜㅇㅎㅏㄱㄱㅛ -2121
ㅎㅗㅇ -2122
▁ㅅㅣㄹㅈㅓㅁ -2123
▁ㅎㅏㄴㄱㅖ -2124
ㅁㅏㅈ -2125
op -2126
▁ㅋㅗㄹ -2127
▁ㅇㅕㅇㅎㅗㄴ -2128
ㅊㅓㅇㅈㅏ -2129
▁ㅅㅐㅇㄱㅣㄴ -2130
ㄷㅠ -2131
ㄲㅝ -2132
▁ㅇㅔㄱㅅㅡ -2133
▁ㅈㅐㄱ -2134
ㅈㅘ -2135
▁ㅌㅗㄴ -2136
ㅃㅡㄴ -2137
▁ㄱㅜㄱㅎㅚ -2138
▁SP -2139
▁ㅁㅓㅅ -2140
st -2141
ㅈㅜㄱ -2142
▁ㅇㅏㅁㅅㅏㄹ -2143
▁ㅈㅓㅇㅎㅘㄱㅎㅣ -2144
▁ㅇㅏㅇ -2145
ㅌㅏㅂ -2146
ㅂㅣㅇ -2147
▁ㅎㅏㅁㅈㅓㅇ -2148
ㄴㅣㄹ -2149
▁ㅇㅟㄴ -2150
ㄷㅜㄴ -2151
▁ㅍㅕㅇㅅㅗ -2152
▁ㅈㅓㅇㅇㅢ -2153
▁ㄷㅔㄴ -2154
ation -2155
ㅍㅣㄱ -2156
▁ㄱㅘㅇㄱㅗ -2157
▁ㅈㅏㅇㄹㅡ -2158
▁ㅎㅕㄱ -2159
ra -2160
▁ㄷㅏㅇㅎㅐ -2161
▁ㅂㅓㅁㅈㅚ -2162
▁ㅂㅗㅇㅇㅣㄴ -2163
▁ㅅㅜㅍ -2164
▁1000 -2165
▁ㅂㅐㄹ -2166
ㅇㅑㅇㅇㅣ -2167
ack -2168
▁ㅎㅘㄱㅈㅏㅇ -2169
ia -2170
▁ㅇㅜㄴㅇㅛㅇ -2171
▁ㅈㅓㄴㅎㅘ -2172
▁ㅂㅏㄺㅎㅕㅆ -2173
▁ㅎㅏㅂㄹㅠ -2174
▁ㄱㅗㅇㄹㅑㄱ -2175
▁ㅈㅏㅇㅊㅣ -2176
▁and -2177
▁ㅃㅏㅇ -2178
ㅁㅕㅊ -2179
ㅅㅕㄹ -2180
▁ㅁㅕㅊㅁㅕㅊ -2181
▁ㄴㅐㅆ -2182
▁ㄱㅓㅁㅅㅏ -2183
ㄲㅗㅊ -2184
oc -2185
▁ㄱㅡㅁㅈㅣ -2186
ㅊㅚ -2187
▁ㄴㅏㅅ -2188
▁ㅇㅏㄹㄹㅣ -2189
▁ㅈㅗㅇㅈㅗㅇ -2190
▁ㅇㅣㅅ -2191
▁150 -2192
▁ㅊㅜㅇㅂㅜㄴㅎㅣ -2193
▁ㅈㅓㅇㄷㅏㅇ -2194
▁65 -2195
▁ㅅㅣㄹㅅㅜ -2196
▁ㅈㅟ -2197
▁ㅌㅡㄱㅇㅠ -2198
ㄹㅝ -2199
▁ㄸㅜㅀ -2200
ㄹㅗㅇ -2201
▁ㄱㅡㄴㄷㅔ -2202
▁ㄱㅐㄹㄹㅓ -2203
ㅇㅣㅆ -2204
ㄷㅗㄴ -2205
▁ㅇㅣㅈ -2206
▁ㅋㅡㄹㄹㅓㅂ -2207
▁VS -2208
▁ㅂㅡㄹㄹㅜ -2209
▁ㅇㅔㅁ -2210
ㅍㅔㄴ -2211
▁ㅂㅗㄴㄱㅕㄱ -2212
ㅈㅔㄴ -2213
▁ㄴㅡㄴㄱㅏ -2214
▁ㅇㅣㄴㅎㅏㄴ -2215
ㅅㅈㅏ -2216
ㅅㅣㅂ -2217
▁ㅈㅓㄴㅇㅝㄴ -2218
▁ㅈㅗㅇㄱㅛ -2219
▁ㅎㅕㅇㅈㅔ -2220
ㄴㅐㄹ -2221
ㅁㅏㄶ -2222
ie -2223
ill -2224
▁ㅎㅐㅇㅅㅏ -2225
ㅈㅔㄹ -2226
ㄲㅏㄴ -2227
▁ㅇㅣㄴㅅㅏㅇ -2228
ㄴㅕㅇ -2229
ㅌㅡㄱ -2230
▁ㅇㅏㅍㅅㅓ -2231
ㅎㅓㄴ -2232
▁ㅇㅓㅁㅊㅓㅇㄴㅏ -2233
▁ㅂㅏㄹㅇㅡㅁ -2234
▁ㅎㅠㅇ -2235
▁%, -2236
▁ㅅㅏㅇㅈㅣㅇ -2237
▁2005 -2238
▁52 -2239
▁ㅇㅝㄴㅈㅓㅇ -2240
▁KBS -2241
▁ㅈㅗㅇㅎㅏㅂ -2242
▁II -2243
▁ㅂㅐㄴㄷㅡ -2244
▁ㅂㅡㄹㄹㅔ -2245
ㄹㅏㄹ -2246
art -2247
ㄷㅣㄴ -2248
▁ㅌㅠ -2249
▁64 -2250
▁ㄱㅜㄴㄷㅏㄴ -2251
ㅁㅗㅇ -2252
ㅍㅠ -2253
▁ㅎㅣㅁㄷㅡㄴ -2254
▁ㅁㅝㄴㄱㅏ -2255
ㅌㅔㄴㅊㅡ -2256
ㄲㅕ -2257
▁ㄴㅏㄹㄹㅕ -2258
▁ㅂㅏㅇㅍㅐ -2259
▁ㅇㅜㅁㅈㅣㄱㅇㅣ -2260
▁ㅇㅣㄴㅇㅝㄴ -2261
ㅌㅓㄹ -2262
▁ㅅㅐㅇㅁㅜㄹ -2263
▁ㅂㅜㄹㅁㅕㅇ -2264
▁ㄱㅏㄴㄷㅏㄴ -2265
▁ㄹㅏㄱ -2266
ㄴㅓㅁ -2267
▁ㅇㅣㄹㅂㅗㄴㅇㅓ -2268
▁ㅈㅏㅇㄴㅏㄴ -2269
▁ㅎㅕㅇㅅㅣㄱ -2270
▁ㅇㅑㄱㅈㅓㅁ -2271
▁ㄱㅘㄴㅌㅗㅇ -2272
▁ㅋㅓㄴㅅㅔㅂ -2273
▁ㅅㅓㄲ -2274
▁ㅂㅐㄴ -2275
▁ㅁㅗㅂ -2276
▁ㄷㅏㄹㄹㅓ -2277
▁ㄱㅘㅇㅈㅜ -2278
ㄴㅐㄴㄷㅏ -2279
▁You -2280
ㅂㅣㅊ -2281
▁ㅎㅐㅇㅅㅓㅇ -2282
ㄹㅓㄴㅅㅡ -2283
▁2004 -2284
▁ㄴㅜㄴㅁㅜㄹ -2285
ri -2286
▁ㅈㅓㅇㅊㅐㄱ -2287
▁ㅈㅓㄴㅅㅜㄹ -2288
▁ㅅㅏㅇㅈㅏ -2289
▁ㅌㅗㅇㅅㅣㄴ -2290
▁ㄴㅣㄱ -2291
ㅁㅐㄱ -2292
uby -2293
▁ㅂㅓㅅㅇㅓ -2294
▁ㅇㅏㄵ -2295
▁ㅇㅐㄱㅅㅕㄴ -2296
▁ㅂㅏㄱㅅㅏ -2297
ab -2298
▁49 -2299
▁ㄷㅗㄹㄹㅕ -2300
▁ㅈㅓㄻ -2301
▁ㅁㅗㅅㅎㅏㄴㄷㅏ -2302
RA -2303
▁AP -2304
▁ㅁㅕㅇㅈㅜㅇ -2305
▁ㅆㅡㄴㄷㅏ -2306
▁ㅂㅏㄴㅂㅗㄱ -2307
▁ㄹㅐㅇ -2308
▁ㅇㅝㄴㄱㅓ -2309
▁ㅇㅣㄴㅎㅕㅇ -2310
▁56 -2311
ㄱㅅㅣ -2312
▁ㅋㅜㄹㅌㅏ -2313
ㄲㅗ -2314
▁ㄹㅏㅂ -2315
est -2316
▁ST -2317
ㅇㅝㄴㅎㅚ -2318
▁ㅊㅐㅇ -2319
▁400 -2320
▁ruby -2321
▁ㄷㅡㅇㄹㅗㄱ -2322
▁ㄱㅡㄴㄱㅓ -2323
▁ㅇㅕㅇㅇㅣㅂ -2324
▁ㄱㅗㅇㄷㅗㅇ -2325
▁MBC -2326
ㅍㅣㅇ -2327
ㄲㅐ -2328
▁ㅇㅓㄴㄹㅗㄴ -2329
▁ㄱㅏㅄ -2330
▁ㄴㅏㅆ -2331
▁In -2332
▁dd -2333
▁ㅇㅕㄹㅊㅏ -2334
▁ㅁㅗㄱㅅㅜㅁ -2335
▁ㅋㅛ -2336
ㅇㅕㅂ -2337
ㅍㅣㄴ -2338
ttp -2339
▁ㄷㅓㄹ -2340
AL -2341
ㅇㅜㄴㅌㅓ -2342
▁http -2343
▁ㅅㅓㄴㅇㅓㄴ -2344
▁85 -2345
ㅇㅗㅅ -2346
▁ㅇㅞㄴ -2347
▁ㅎㅏㄴㄱㅜㄱㅇㅓ -2348
▁ㄸㅡㄴ -2349
▁ㅎㅕㅁ -2350
ㅋㅟ -2351
▁ㅇㅓㄴㅇㅓ -2352
ㅍㅏㄹ -2353
▁ㅎㅖ -2354
ㅌㅓㅁ -2355
▁ㅎㅡㅂㅅㅜ -2356
▁ㅅㅓㄹㄱㅖ -2357
ㅅㅅㅜ -2358
▁ㅅㅡㅇㅂㅜ -2359
ㅎㅣㄴㄷㅏ -2360
▁ㅂㅏㅇㅎㅐ -2361
▁ㅇㅕㄱㅈㅓㄴ -2362
▁ㅈㅔㄴ -2363
▁ㅌㅐㅅ -2364
▁193 -2365
▁53 -2366
▁54 -2367
ㄷㅔㄴ -2368
ㅂㅣㄹ -2369
▁2002 -2370
▁ㄱㅘㄴㅎㅏㄴ -2371
▁ㅇㅓㅁㅁㅏ -2372
ㄷㅡㅁ -2373
▁ㅇㅗㄹㄹㅣㅁㅍㅣ -2374
▁ㅇㅕㄴㄱㅖ -2375
▁ㅅㅜㅅㅈㅏ -2376
▁ㅋㅡㄹㄹㅏ -2377
▁ㅋㅓㅁㅍㅠ -2378
▁ㅍㅠ -2379
▁ㄲㅡㅌㄴㅐ -2380
▁ㅍㅣㄹㅅㅏㄹㄱㅣ -2381
▁ㄷㅏㄻ -2382
▁ㅇㅡㄹㅈㅣ -2383
▁ㅈㅏㅂㅇㅏ -2384
▁ㅈㅣㄴㅇㅣㅂ -2385
▁ㅂㅜㄹㄱㅘ -2386
▁ㄹㅏㄹ -2387
ㅇㅕㄴㅎㅣ -2388
▁ㅎㅘㅇㄱㅡㅁ -2389
ㅋㅗㅇ -2390
▁PC -2391
▁ㅇㅘㄴㄹㅛ -2392
▁ㅁㅐㅈ -2393
▁ㅈㅣㄹㅁㅜㄴ -2394
▁ㅈㅏㅇㄱㅣ -2395
▁ㅌㅔㄹ -2396
▁ㅅㅏㄴㅇㅓㅂ -2397
▁ㅅㅐㅇㅅㅓㅇ -2398
▁ㅊㅏㄱㅇㅛㅇ -2399
▁ㄷㅗㄹㄹㅣ -2400
▁ㅈㅓㄱㅈㅓㄹ -2401
▁ㄷㅓㅇ -2402
▁Sh -2403
▁ㄱㅗㅇㅎㅘ -2404
▁ㄷㅏㄴㅅㅜㄴㅎㅣ -2405
ㄷㅗㅇㅅㅐㅇ -2406
▁ㅍㅣㅇ -2407
dddd -2408
▁ㄴㅏㄹㄱㅐ -2409
▁dddddd -2410
▁ㅁㅓㅁ -2411
▁ㄱㅕㅂ -2412
▁ㅅㅔㄹ -2413
▁ㅆㅓㅆ -2414
▁ㅍㅣㄹㅅㅜ -2415
▁ㄸㅏㄱㅎㅣ -2416
▁ㅅㅣㄹㅅㅣ -2417
▁ㅋㅓㅅ -2418
▁ㄷㅗㄱㅈㅏ -2419
▁ㄲㅡㄹㅇㅓ -2420
▁ㅍㅕㄴㅅㅓㅇ -2421
ㄴㅗㄴ -2422
▁ff -2423
▁ㅇㅣㄴㄹㅠ -2424
▁ㅅㅓㄴㅈㅓㅇ -2425
ㄹㅜㄴ -2426
▁ㅎㅐㅇㅈㅓㄱ -2427
▁ㅈㅓㄴㅎㅘㄴ -2428
▁ㅅㅓㄴㅁㅜㄹ -2429
▁ㅎㅘㄱㅅㅣㄹㅎㅣ -2430
up -2431
▁ㅅㅡㅂㄱㅕㄱ -2432
▁ㄴㅔㄱ -2433
▁ㄱㅏㅁㅇㅏㄴ -2434
ㅋㅏㄴ -2435
▁ㄷㅏㅇㅈㅏㅇ -2436
▁ㅎㅜㄹ -2437
▁ㅇㅚㄴㅉㅗㄱ -2438
▁ㅌㅡㄱㄱㅣ -2439
▁ㄲㅗㄹ -2440
▁ㅂㅏㄱㅅㅡ -2441
▁ㅈㅣㅂㄷㅏㄴ -2442
▁ㅎㅏㅁㄷㅐ -2443
▁ㅈㅏㄶ -2444
▁ㅎㅐㄴ -2445
▁ㅅㅗㄹㄹㅗ -2446
▁ㅇㅏㄴㅈㅓㄴ -2447
▁ㄱㅔㄴ -2448
ㅌㅣㄱ -2449
▁re -2450
▁i -2451
ㅂㅌㅓ -2452
▁ㄴㅗㅍㅇㅣ -2453
▁ㅇㅕㄴㅈㅜ -2454
▁59 -2455
▁ㅈㅏㅁㄲㅏㄴ -2456
▁ㅅㅣㅁㅎㅏ -2457
▁ㅎㅘㄱㅂㅗ -2458
▁ㄸㅔ -2459
▁ㅁㅗㅅㅎㅐ -2460
▁MP -2461
▁ㅎㅐㅇㅂㅗㄱ -2462
▁ㄱㅕㅇㄹㅕㄱ -2463
VE -2464
ㄱㅜㄱㅇㅣㄴ -2465
▁ㄷㅗㄹㅍㅏ -2466
▁ㅌㅗㅇㄱㅘ -2467
▁ㅅㅓㄹㄹㅣㅂ -2468
▁Re -2469
▁ㅇㅗㄹㄹㅣㅁㅍㅣㄱ -2470
▁ㅈㅏㅇㄱㅜㄴ -2471
▁ㅇㅣㄹㅈㅗㅇ -2472
ate -2473
ㅁㅗㄹ -2474
▁ㅈㅣㄴㅈㅓㅇ -2475
▁ㅈㅓㄴㅌㅗㅇ -2476
▁Sp -2477
ㅁㅣㄱㅅㅡ -2478
▁58 -2479
ㅇㅔㄴ -2480
▁ㅇㅏㄴㄷㅡ -2481
▁ㅋㅓㄴㅌㅡ -2482
▁ㅅㅏㅇㅊㅓ -2483
ard -2484
▁ㅁㅓㄹㅌㅣ -2485
▁ㅈㅓㄱㄱㅡㄱ -2486
▁ㅎㅚㅅㅅㅜ -2487
ㄷㅡㄹㅇㅣ -2488
▁ㄱㅗㅇㅎㅏㅇ -2489
▁120 -2490
▁ㅅㅓㄴㅂㅗ -2491
▁ㄱㅗㅇㅅㅏ -2492
AT -2493
▁ㅊㅗㄱ -2494
ㅍㅜㄹ -2495
ㄷㅚ -2496
▁ㄷㅣㄹㄹㅓ -2497
▁ㅍㅕㄴㅈㅣㅂ -2498
▁ㅂㅏㅇㅁㅜㄴ -2499
▁ㅋㅐㄴ -2500
ang -2501
OR -2502
▁ㅁㅜㄴㅁㅕㅇ -2503
▁57 -2504
▁ㅍㅓㄴ -2505
▁ㄷㅚㅁ -2506
▁ㄴㅜㄴㅊㅣ -2507
▁ㅂㅐㅁ -2508
▁ㄹㅗㅇ -2509
▁ㅎㅕㄴㅈㅏㅇ -2510
▁ㅁㅜㄲ -2511
▁66 -2512
▁95 -2513
▁ㅇㅓㅇ -2514
▁ㄷㅗㅇㅁㅐㅇ -2515
▁ㄷㅐㅅ -2516
▁ㅂㅣㄹㄹㅣ -2517
▁2003 -2518
▁ㅈㅏㄱㅅㅓㅇ -2519
▁ㅈㅣㄴㅇㅕㅇ -2520
▁ㅋㅗㅇ -2521
▁ㅈㅓㄴㅈㅏㅇ -2522
▁ㄱㅐㅇ -2523
▁ㅂㅜㄴㄹㅣ -2524
▁ㅈㅏㅇㅈㅓㄴ -2525
▁ㅈㅓㄴㅎㅐ -2526
▁ㅎㅏㄴㅈㅏ -2527
ㅅㅚ -2528
▁ㅇㅡㄹㄲㅏ -2529
IA -2530
▁ㅇㅠㄱㄱㅜㄴ -2531
▁ㅇㅜㄹㅌㅡ -2532
ㅇㅟㄴ -2533
▁ㄱㅗㅇㅂㅜ -2534
▁ㄴㅏㄴㄷㅏ -2535
ㅅㅏㅁ -2536
▁ㄱㅏㄹㄹㅣ -2537
▁ㅅㅏㅁㄱㅜㄱ -2538
PS -2539
ㄱㅣㄴㄷㅏ -2540
▁ㄱㅞ -2541
▁ㄲㅏㄲ -2542
▁ㅊㅓㅇㅅㅗ -2543
▁ㄸㅓㄹ -2544
▁ㅇㅕㄹㄹㅣ -2545
▁be -2546
ess -2547
ok -2548
ant -2549
▁ㅍㅕㅇㅎㅘ -2550
▁ㅈㅗㅂ -2551
▁Bl -2552
ㄹㅡㄴㅉㅗㄱ -2553
▁BG -2554
▁110 -2555
▁ㅅㅓㅇㅇㅣㄴ -2556
▁ㄲㅗㅂ -2557
▁ㄱㅕㄴㅈㅔ -2558
▁on -2559
▁ㅍㅣㄴ -2560
▁ㄹㅜㄹ -2561
▁ㅇㅛㅇㅂㅕㅇ -2562
▁ㅁㅓㄹㄹㅣ -2563
▁ㅈㅓㅁㄹㅕㅇ -2564
▁ㄱㅜㅇㄱㅡㄱ -2565
ㅊㅣㄴㄷㅏ -2566
▁ㅌㅏㅂㅈㅐ -2567
ell -2568
▁ㄱㅡㄱㅈㅏㅇㅍㅏㄴ -2569
▁ㅊㅜㅁ -2570
IC -2571
▁SS -2572
▁or -2573
▁ㅈㅣㄴㅅㅣㄹ -2574
ct -2575
▁ㅊㅜㅇㅈㅓㄴ -2576
▁62 -2577
ㅌㅣㅁ -2578
ㅅㅟㅂ -2579
▁ㅈㅣㄱㅇㅝㄴ -2580
▁ㄴㅏㅁㅍㅕㄴ -2581
ㄱㅜㄴㄱㅏ -2582
▁373 -2583
▁ㄱㅘㄴㄱㅘㅇ -2584
ue -2585
ine -2586
▁ㅈㅓㅇㄹㅕㅇ -2587
▁ㄴㅏㄹㄹㅣ -2588
ㅂㅏㄴㅂㅜ -2589
▁ㅅㅜㄴㅅㅓ -2590
▁ㅇㅡㄴㅌㅚ -2591
▁ㄴㅐㄹ -2592
▁ㄷㅐㄴㅅㅡ -2593
▁ㅂㅡㄹㄹㅗ -2594
▁ㅇㅗㄴㄹㅏ -2595
▁ㅌㅡㅁ -2596
ㅜㄹㄹㅓ -2597
▁ㅎㅏㄴㅎㅘ -2598
▁.... -2599
▁NP -2600
▁ㅁㅕㄹㅁㅏㅇ -2601
▁ㄱㅏㅇㅎㅐ -2602
▁Al -2603
▁ㄱㅓㄹㄹㅕ -2604
▁ㄱㅕㄱㅌㅜ -2605
▁ㄱㅏㅅ -2606
▁ㅂㅐㄹㄹㅓㄴㅅㅡ -2607
▁ㅂㅣㅁ -2608
▁ㅇㅑㄱㅅㅗㄱ -2609
ist -2610
▁ㅇㅓㄹㅇㅡㅁ -2611
▁76 -2612
▁Th -2613
ove -2614
ore -2615
▁ㅁㅣㄹㄹㅕ -2616
ㅎㅡㄱ -2617
▁com -2618
▁ㄷㅡㅇㄷㅡㅇ -2619
ㅁㅏㄴㅋㅡㅁ -2620
▁ㅉㅗ -2621
ㅁㅓㄹ -2622
▁77 -2623
▁ㄷㅗㄹㄱㅕㄱ -2624
▁ㅇㅠㅇ -2625
▁61 -2626
▁ㅂㅓㄹㅇㅣ -2627
ㅉㅓㄹ -2628
▁ㅅㅏㄻ -2629
▁{ -2630
▁ㅅㅐㅇㅇㅣㄹ -2631
ㄴㅚ -2632
▁ㅍㅏㄴㅌㅏ -2633
▁ㅂㅗㄴㅅㅓㄴ -2634
ort -2635
▁ㅂㅕㅇㄱㅣ -2636
▁88 -2637
ㅁㅕㅇㅌㅏ -2638
▁72 -2639
▁ㅈㅜㅇㄷㅏㄴ -2640
ㅁㅕㄴㄹㅏ -2641
▁ㄹㅐㄴㄷㅓㅁ -2642
▁ㅊㅡㄱㅁㅕㄴ -2643
▁ㅈㅏㅇㅇㅐ -2644
▁ㅂㅜㄴㅇㅑ -2645
ㅅㅣㅁㅎㅣ -2646
▁} -2647
ㄹㅠㅇ -2648
▁2001 -2649
▁ㅊㅑ -2650
▁ㅊㅏㄹ -2651
▁ㄷㅏㄱㅌㅓ -2652
▁ㄴㅘ -2653
▁ㅇㅓㄴㄴㅣ -2654
▁ㅂㅏㄹㅎㅟ -2655
ㅈㅓㄴㅈㅏ -2656
ㅎㅔ -2657
▁ㄷㅜㄹㄹㅓ -2658
▁ㅂㅗㅁ -2659
▁ㄴㅔㅅ -2660
ive -2661
▁ㄹㅜㄴ -2662
▁ㅅㅐㅇㄱㅕ -2663
▁ㅇㅣㅂㅅㅜ -2664
▁ㅇㅣㄴㅅㅐㅇ -2665
▁ㅅㅏㄹㅎㅐ -2666
▁ㅅㅏㅂ -2667
▁⊸ -2668
▁ffff -2669
▁ㄱㅕㅇㄱㅖ -2670
ㅈㅓㄴㄷㅡ -2671
▁ㄱㅗㅇㅌㅗㅇ -2672
OS -2673
▁ㅋㅝ -2674
ong -2675
▁ㄱㅜㄴㅈㅜ -2676
ㅅㅛ -2677
▁ㄱㅗㅇㅇㅝㄴ -2678
▁ㄷㅔㄹ -2679
▁ㄱㅜㄱㅈㅓㄱ -2680
▁SBS -2681
▁ㅁㅣㄴㅈㅗㄱ -2682
▁ㄱㅗㅇㅈㅏㅇ -2683
▁ㅅㅡㅇㄱㅏㅇ -2684
▁ffffff -2685
ers -2686
AM -2687
▁ㅇㅗㄴㄱㅏ -2688
▁ㅈㅏㅇㅅㅜ -2689
▁ㅋㅣㄱ -2690
▁ㅇㅟㅇ -2691
▁ㅎㅐㄱㅅㅣㅁ -2692
▁ㅉㅏㄹ -2693
▁ㅎㅑㅇㅎㅐ -2694
ㄴㅗㅎㄱㅗ -2695
▁ㄱㅓㄴㅈㅣ -2696
ㅈㅣㅁ -2697
▁PS -2698
ㄹㅕㅇㄱㅘㄴ -2699
▁ㅂㅜㅇㄱㅚ -2700
AS -2701
ㅇㅜㄴㄷㅏ -2702
▁98 -2703
ㄷㅓㄹ -2704
▁ㅇㅗㄴㄱㅏㅈ -2705
▁ㄷㅏㄴㄷㅗㄱ -2706
▁191 -2707
ㅈㅏㄴ -2708
▁ㅊㅜㄹㅅㅐㅇ -2709
▁ㅇㅛㅇㄷㅗ -2710
▁ㅇㅕㅇㅇㅕㄱ -2711
▁ㄱㅏㅂㅇㅗㅅ -2712
ㄹㅐㅅ -2713
▁ㄷㅏㅇㅅㅓㄴ -2714
▁ㅋㅡㄹㄹㅗ -2715
▁ㅌㅏㄴㅅㅐㅇ -2716
▁ㅇㅑㄱㅎㅏㄴ -2717
▁ㅅㅏㄹㅉㅏㄱ -2718
▁ㅊㅜㄹㅂㅏㄹ -2719
▁ㅎㅏㅁㅅㅓㄴ -2720
▁ㅇㅡㄴㄱㅡㄴ -2721
ED -2722
▁ㄴㅏㅂㅊㅣ -2723
ip -2724
▁ㅂㅜㄴㅅㅓㄱ -2725
ㅎㅣㄹ -2726
ㅈㅜㄴㅎㅣ -2727
▁ㅇㅡㄴㅎㅐㅇ -2728
▁ㅈㅏㄱㅅㅏ -2729
▁ㄲㅡㅌㄴㅏㄴ -2730
ㅍㅜ -2731
▁ㅅㅜㄴㅅㅜ -2732
ain -2733
▁ㅅㅓㄴㅂㅐ -2734
ㅂㅘ -2735
▁CD -2736
▁ㅅㅜㅁㄱㅕ -2737
▁ㅈㅡㅇㄱㅓ -2738
if -2739
▁600 -2740
▁ㅅㅡㅂㄷㅡㄱ -2741
ㅋㅏㄹ -2742
▁ㅅㅓㅂ -2743
▁ㅂㅜㅌㅇㅕ -2744
▁ㅆㅗㄷ -2745
▁ㅎㅗㅇㅂㅗ -2746
▁ㅇㅓㅂㅁㅜ -2747
ㅍㅡㄹㄹㅔ -2748
▁ㅎㅕㅂㄹㅕㄱ -2749
ee -2750
▁ㄷㅏㅇㅎㅘㅇ -2751
ㄹㅡㅅ -2752
▁ㅁㅗㄹㅇㅏ -2753
▁1990 -2754
ㅋㅓㄴ -2755
▁ㄱㅜㄴㅇㅣㄴ -2756
▁| -2757
▁ㅎㅜㄹㄹㅠㅇ -2758
ㅅㅗㄹ -2759
▁ㅈㅏㄶㅇㅏ -2760
EN -2761
▁ㅂㅏㄼ -2762
▁ㅇㅕㄹㅅㅣㅁㅎㅣ -2763
▁ㅂㅗㄴㄷㅏ -2764
ㅎㅏㄱㅈㅏ -2765
▁ㅈㅓㄱㄷㅏㅇ -2766
▁ㅍㅗㄱㅍㅜㅇ -2767
▁ㅅㅣㄴㅎㅘ -2768
▁ㄱㅕㅇㅇㅠ -2769
▁ㄷㅐㅅㄱㅡㄹ -2770
▁ㅇㅕㅇㅇㅝㄴ -2771
ㅇㅗㄹㄹㅣ -2772
▁ㅇㅡㅇㅇㅝㄴ -2773
▁ㅇㅕㄹㄹㅣㄴ -2774
▁ㅎㅡㄴㅎㅣ -2775
▁MV -2776
▁ㄷㅏㅇㅎㅏㄴㄷㅏ -2777
ㄴㅟ -2778
▁ㅇㅘㅇㅈㅏ -2779
▁ㅂㅜㄹㅇㅏㄴ -2780
▁63 -2781
ㅆㅡ -2782
ㄹㅔㅁ -2783
▁ㅋㅝㄹ -2784
ㄱㅓㅂ -2785
▁ㅈㅓㅇㅁㅏㄹㄹㅗ -2786
▁ㅁㅏㄴㅈㅗㄱ -2787
▁ㅌㅣㄱ -2788
▁ㅌㅏㅂㅅㅡㅇ -2789
▁ㅊㅜㄹㅊㅓ -2790
▁ㅈㅗㅇㅈㅓㅁ -2791
▁ㅈㅏㅇㄱㅘㄴ -2792
▁ㅎㅗㄴㄹㅏㄴ -2793
ㅌㅣㄹ -2794
▁68 -2795
▁ㄱㅏㅁㅅㅏ -2796
ㄹㅐㅆ -2797
▁ㅈㅓㄴㅎㅏㅁ -2798
ㅎㅐㅇㅎㅣ -2799
ith -2800
ld -2801
▁ㅂㅗㄴㅁㅕㅇ -2802
▁ㄹㅐㅂ -2803
▁ㅋㅓㄴㅌㅔㄴㅊㅡ -2804
▁ㅁㅔㄹ -2805
ㅇㅣㄴㅈㅓ -2806
ㅉㅓ -2807
ly -2808
▁ㅇㅜㄴㅁㅕㅇ -2809
▁ㅅㅣㄹㅈㅣㄹ -2810
▁ㄷㅗㅇㅇㅏ -2811
ㄷㅜㄱ -2812
▁ㅂㅏㄴㄱㅕㄱ -2813
▁800 -2814
▁ㄴㅓㄴ -2815
▁ㄴㅡㄱ -2816
▁ㅇㅗㅇ -2817
▁71 -2818
▁ㄱㅠㄴ -2819
▁ㅈㅜㅇㄱㅖ -2820
▁ㅈㅓㅇㄹㅠ -2821
ind -2822
▁ㄱㅣㅁㅅㅓㅇ -2823
▁ㄱㅓㄴㄴㅓ -2824
▁ㅉㅏㄱ -2825
ㅅㅔㄹ -2826
ㄴㅗㅁ -2827
ㅇㅑㄴ -2828
▁ㄷㅗㄹㅈㅣㄴ -2829
▁ㅈㅓㅇㅎㅐ -2830
▁74 -2831
▁AC -2832
ㅌㅜㄴ -2833
▁ㅈㅓㄴㄱㅗㅇ -2834
▁ㅇㅕㄴㄷㅗ -2835
▁ㄹㅐㄴㄷㅡ -2836
▁ㅇㅕㄴㅇㅖ -2837
OL -2838
▁ㅎㅡㄹㄹㅓ -2839
▁ㄱㅗㅇㄱㅜㄴ -2840
ㅝㅆ -2841
▁67 -2842
▁ㅅㅓㄹㄷㅡㄱ -2843
▁ㄴㅏㄲ -2844
ew -2845
▁ㅎㅢㄴ -2846
ㅍㅐㄱ -2847
▁ㅇㅣㄹㅈㅏ -2848
ㄹㅣㅁㅈㅏ -2849
▁ㅌㅗㅇㅇㅣㄹ -2850
▁ㅊㅜㅇㄷㅗㄹ -2851
ㅁㅣㄹㄹㅣ -2852
▁ㅂㅏㄴㅇㅕㅇ -2853
▁ㅎㅡㄴㄷㅡㄹ -2854
▁ㅈㅡㄱㅅㅣ -2855
ㅁㅓㅇ -2856
▁ㄷㅏㄴㅇㅟ -2857
ㅇㅣㄹㄹㅣ -2858
▁ㄴㅏㅎ -2859
ry -2860
▁ㅁㅜㄴㅈㅏ -2861
▁73 -2862
▁ㄴㅏㅁㄱㅣ -2863
▁ㅂㅜㄹㄲㅗㅊ -2864
▁TH -2865
ㄹㅔㅅ -2866
▁ㅍㅕㄴㅇㅢ -2867
▁ㅇㅏㄴㅅㅡㅂ -2868
ast -2869
▁ㄷㅏㅎ -2870
▁96 -2871
▁ㅎㅗㅇㅋㅗㅇ -2872
▁ㅎㅏㄱㄱㅘ -2873
▁NC -2874
▁AT -2875
ㄹㅓㄴㅈㅣ -2876
▁me -2877
IT -2878
ㅍㅔㄱ -2879
▁ㅅㅡㄹㄹㅗㅅ -2880
ㄹㅡㅁㄷㅏ -2881
▁ㅅㅞ -2882
▁ㄷㅚㅂㄴㅣ -2883
▁ㄸㅓㄱㅂㅏㅂ -2884
▁ㅅㅏㅇㅎㅑㅇ -2885
LC -2886
▁ㅅㅐㅇㅁㅕㅇㄹㅕㄱ -2887
▁ㅅㅣㄴㄹㅚ -2888
▁ㅈㅓㅇㅈㅣ -2889
▁ㅂㅕㄴㅎㅏ -2890
▁ㅇㅑㄱㅎㅏ -2891
▁ㄱㅕㄱㅍㅏ -2892
EC -2893
▁81 -2894
▁ㄱㅘㄴㄱㅐㄱ -2895
ㄹㅓㅇ -2896
▁ㅇㅏㅁㅎㅡㄱ -2897
▁ㅅㅣㅁㅈㅏㅇ -2898
▁ㄱㅣㅅ -2899
▁ㅅㅣㄴㄱㅗ -2900
▁CP -2901
▁ㅅㅡㄹㄹㅏ -2902
▁ㄴㅣㄴㅈㅏ -2903
▁ㄱㅗㅁ -2904
▁ㄷㅡㅇㅍㅏㄴ -2905
▁ㄴㅡㄱㄷㅐ -2906
▁ㄷㅗㅇㄴㅔ -2907
▁ㅂㅜㅌㅈㅏㅂ -2908
▁j -2909
▁ㅇㅔㄹㅍㅡ -2910
FA -2911
ㄹㅡㅇ -2912
▁192 -2913
ㅍㅏㅇ -2914
▁1999 -2915
▁ㅇㅕㄴㅅㅏ -2916
▁ㅂㅕㄹㄱㅐ -2917
ㅁㅜㄱ -2918
▁ㄷㅓㅍ -2919
ㅊㅗㄱ -2920
ㅌㅗㅁ -2921
▁ㅁㅏㅁ -2922
ㄴㅕㅆ -2923
▁ㅇㅏㅂㅂㅏㄱ -2924
▁ㅈㅣㅂㅇㅏㄴ -2925
▁NPC -2926
▁78 -2927
ㅅㅣㄱㄱㅏㄴ -2928
▁84 -2929
▁ㅂㅗㄴㅂㅜ -2930
▁ㄱㅡㄴㅁㅜ -2931
end -2932
▁ㄱㅓㄴㄱㅏㅇ -2933
▁ㅊㅏㅇㅈㅏㄱ -2934
▁ㅅㅜㄴㅅㅣㄱㄱㅏㄴ -2935
▁ㅊㅜㄴ -2936
▁ㅁㅏㄱㅈㅏㅇ -2937
▁91 -2938
▁ㅉㅏㅇ -2939
▁ㄷㅡㄴㅈㅣ -2940
▁ㄴㅐㄴㄷㅏ -2941
▁ㅂㅏㄴㄹㅏㄴ -2942
▁ㅅㅣㄴㅅㅔ -2943
▁an -2944
▁ㅈㅜㄱㅇㅕ -2945
▁ㅅㅣㄹㄷㅡ -2946
▁ㅇㅓㅄㅇㅐ -2947
▁ㅇㅓㅂㅊㅔ -2948
▁ㄹㅛㅇ -2949
▁ㅈㅏㅇㅅㅣㄱ -2950
ㅉㅐㅆ -2951
ㄸㅏ -2952
▁ㅍㅏㅂ -2953
▁1998 -2954
▁ㅂㅜㄹㅁㅏㄴ -2955
▁it -2956
▁ㅈㅓㄴㅈㅓㄱ -2957
▁ㅇㅣㅂㅎㅏㄱ -2958
▁!! -2959
▁ㄱㅕㅇㅎㅑㅇ -2960
▁ㅈㅡㅇㅁㅕㅇ -2961
▁ㄱㅕㅇㅎㅓㅁㅊㅣ -2962
og -2963
▁ㅅㅏㅇㅍㅜㅁ -2964
▁ㅁㅜㄱ -2965
▁ㅊㅓㄴㅅㅏ -2966
ㅎㅠ -2967
ㅅㅜㄹㅅㅏ -2968
ㄹㅕㅁ -2969
▁ㄸㅐㄴ -2970
▁ㅎㅕㅇㅅㅓㅇ -2971
▁ㄴㅏㅇ -2972
▁An -2973
▁ㅈㅓㄴㅂㅏㅇ -2974
▁ㅌㅗㅇㅎㅏ -2975
▁ㄱㅔㅅ -2976
▁ㄷㅓㄴㅈㅕ -2977
▁ㅋㅗㄹㄹㅏ -2978
ㅅㅗㄱㄷㅗ -2979
▁ㅈㅓㄹㅂㅏㄴ -2980
ㄲㅓㅅ -2981
▁ㄹㅣㄱ -2982
▁97 -2983
▁ㅈㅓㅇㄱㅝㄴ -2984
ㅋㅐ -2985
▁ㅌㅣㅇ -2986
▁ㄱㅏㅁㅇㅕㅁ -2987
▁ㅇㅔㄱ -2988
▁ㅃㅏㄹㄱㅏㄴ -2989
▁ㅁㅏㄴㄴㅏㄴ -2990
▁Ar -2991
▁ㄱㅓㄷ -2992
▁He -2993
ㄱㅘㅇㅇㅕㄱ -2994
▁ㄹㅕㅇ -2995
▁82 -2996
▁ㄱㅏㅇㅈㅗ -2997
▁ㅅㅐㅁ -2998
▁69 -2999
▁ㄷㅏㄴㅇㅣㄹ -3000
▁ㅅㅓㄴㅎㅗ -3001
▁ㅇㅕㄴㅅㅏㅇ -3002
▁ㅂㅗㄱㅈㅏㅇ -3003
▁ㅂㅕㄹㄷㅗ -3004
▁ㅇㅔㄴㅌㅓ -3005
▁ㅈㅓㄴㅅㅓㄴ -3006
▁ㅈㅑ -3007
▁ㅈㅓㄱㅇㅓ -3008
ㅇㅡㅂ -3009
▁is -3010
ㅍㅔㄱㅌㅡ -3011
▁ㅅㅣㄹㅎㅐㅇ -3012
▁ㅎㅏㄹㅈㅣ -3013
▁250 -3014
▁ㄱㅗㅇㄱㅣ -3015
▁ㄱㅗㅇㅈㅏㄱ -3016
ㅋㅗㅁ -3017
▁for -3018
▁ㅈㅏㄱㅇㅛㅇ -3019
▁ㅍㅣㄹㄹㅣ -3020
ㄱㅘㅇㅇㅕㄱㅅㅣ -3021
▁ㅎㅏㄴㄸㅐ -3022
▁180 -3023
▁MAX -3024
▁ㅂㅏㄴㅈㅣ -3025
▁86 -3026
▁ㅍㅕㅇㅌㅏ -3027
▁SN -3028
▁ㄱㅗㅇㅇㅠ -3029
▁ㅋㅣㄴ -3030
▁ㅂㅜㄹㄹㅓㅆ -3031
▁190 -3032
▁ㅎㅓㄴㅌㅓ -3033
▁ㅎㅏㅂㅊㅕ -3034
▁ㄱㅝㄴㄹㅕㄱ -3035
▁ㅅㅚ -3036
▁ㄱㅏㄴㄱㅕㄱ -3037
▁ㅊㅜㄹㅎㅕㄴ -3038
▁ㅅㅣㄴㅊㅓㅇ -3039
▁ㅊㅗㅇㄱㅣ -3040
▁ㅈㅓㄴㅎㅕㅇ -3041
▁ㄲㅡㅁ -3042
▁ㅂㅏㄺㅎㅣ -3043
ㄸㅡㄱ -3044
▁ㅁㅗㄹㄹㅐ -3045
▁ㅌㅐㅇㅋㅡ -3046
▁ㅇㅗㄹㄹㅕㅆ -3047
▁ㅊㅜㄹㅈㅏㅇ -3048
ㅁㅅㅐ -3049
▁ㅂㅏㄱㅅㅏㄹ -3050
▁ㅇㅜㅁㅈㅣㄱㅇㅣㅁ -3051
▁ㄷㅏㅇㅎㅏㄹ -3052
▁ㄲㅔ -3053
ㅁㅍㅡ -3054
ath -3055
▁ㅇㅜㄹㅅㅏㄴ -3056
▁ㅇㅕㄴㅇㅐ -3057
▁BGM -3058
▁ㄱㅕㅇㅅㅏㅇ -3059
▁ㅌㅏㄱ -3060
ㅎㅔㄴ -3061
▁ㅁㅕㅇㅇㅖ -3062
▁ㄱㅝㄴㅊㅗㅇ -3063
▁ㅂㅓㅁㅇㅣㄴ -3064
av -3065
▁ㄷㅗㅇㄱㅣ -3066
▁ㄱㅕㅇㅂㅣ -3067
RE -3068
▁ㅍㅗㄱㄱㅕㄱ -3069
▁1997 -3070
50 -3071
ㅊㅏㅈ -3072
▁De -3073
▁ㄱㅕㅇㅇㅕㅇ -3074
▁Te -3075
▁ㅅㅣㅁㄹㅣ -3076
▁ㅅㅣㄴㄱㅠ -3077
ㅆㅏㄴ -3078
▁ㅍㅗㄱㅈㅜ -3079
▁ㅅㅣㅁㅍㅏㄴ -3080
▁ㅇㅝㄴㅅㅜ -3081
▁ㅂㅡㄹㄹㅗㄱ -3082
▁ㅁㅜㄹㄹㅓ -3083
ㄷㅜㅇㅇㅣ -3084
▁ㅇㅜㄴㅈㅓㄴ -3085
ㅈㅣㅅㅁㅏㄹ -3086
▁ㅇㅕㅇㅇㅓㅂ -3087
▁ㄱㅏㄹㄷㅡㅇ -3088
▁MS -3089
ㅐㅇㅇㅣ -3090
se -3091
▁ㅅㅏㄹㄹㅕ -3092
▁ㅂㅕㄴㅎㅗ -3093
▁ㅇㅣㄹㅅㅏㅇ -3094
▁ㅌㅏㄴㅇㅑㄱ -3095
one -3096
▁ㅈㅣㄴㅈㅣ -3097
▁ㅈㅓㄴㄷㅐ -3098
▁ㅎㅘㄴㅅㅏㅇ -3099
▁ㅁㅓㄱㅇㅣ -3100
▁ㅋㅟㄴ -3101
▁ㅎㅏㄱㅅㅏㄹ -3102
▁ㅌㅗㅇㅈㅔ -3103
▁ㅂㅜㄱㅁㅣ -3104
▁ㄹㅔㅂ -3105
▁ㅅㅏㅇㅈㅓㅁ -3106
▁Be -3107
▁ㅍㅕㄴㅎㅏ -3108
▁ㅇㅣㅂㄹㅕㄱ -3109
ㅍㅔㄹ -3110
▁ㅂㅕㄴㅎㅕㅇ -3111
▁ㅆㅓㄴ -3112
ㄴㅏㅁㄷㅗ -3113
▁83 -3114
▁ㄱㅏㅈㅊㅜ -3115
▁ㅍㅗㄱㄹㅕㄱ -3116
▁ㄷㅜㅇ -3117
▁ㅇㅖㅅㄴㅏㄹ -3118
▁ㅎㅜㅁ -3119
▁ㅌㅐㅇㅋㅓ -3120
▁ㅎㅕㄱㅁㅕㅇ -3121
▁ㅂㅜㄹㅍㅕㄴ -3122
ㅈㅏㄱㅈㅣㄴ -3123
▁ㅌㅗㅇㅅㅏㅇ -3124
▁ㅂㅡㄹㄹㅓ -3125
▁ㅈㅏㄱㄷㅗㅇ -3126
▁KT -3127
▁ㄱㅓㄹㅇㅓ -3128
ust -3129
▁92 -3130
▁ㅇㅛㅇㅅㅏ -3131
▁89 -3132
▁ㄷㅗㅇㅇㅝㄴ -3133
ㅇㅣㄹㄹㅓㅅ -3134
ㅇㅣㄹㄷㅡ -3135
▁94 -3136
ㄴㅏㅂ -3137
▁ㅅㅡㅇㄱㅏㅇㅈㅏㅇ -3138
▁ㅂㅠ -3139
▁ㅇㅕㄴㄷㅐ -3140
▁ㅁㅣㄹㅇㅓ -3141
▁ㅁㅣㄴㄱㅏㄴ -3142
▁ㅃㅕ -3143
▁ㅎㅕㄴㅈㅣ -3144
ide -3145
▁ㅎㅏㄴㄱㅜㄱㅇㅣㄴ -3146
▁ㅃㅣ -3147
▁ㄱㅓㅁㅅㅐㄱ -3148
▁79 -3149
▁ㅇㅐㅇ -3150
▁Le -3151
▁ㅇㅣㅂㄱㅜ -3152
ㅉㅓㅇ -3153
ㅋㅜㄹ -3154
▁ㅅㅣㄴㅇㅣㄴ -3155
▁ㄲㅓㄲ -3156
▁Se -3157
ity -3158
▁93 -3159
▁ㄷㅗㅇㅇㅕㅇ -3160
▁ㅋㅗㄴㅅㅓ -3161
▁ㅅㅣㄴㅈㅏㅇ -3162
PG -3163
▁US -3164
▁ㄱㅏㅁㅅㅣ -3165
▁ㅁㅣㄱ -3166
▁ㅊㅐㅂㅌㅓ -3167
▁ㅍㅕㄴㅈㅣ -3168
▁ㅇㅡㅁㅂㅏㄴ -3169
▁ㄱㅡㅇ -3170
OT -3171
▁ㄷㅗㅇㅂㅏㅇ -3172
▁87 -3173
▁ㄷㅓㅅ -3174
▁ㄱㅗㅇㅅㅏㄴ -3175
▁ㅁㅏㅈㅇㅣ -3176
▁1996 -3177
▁101 -3178
▁ㄱㅗㅇㅎㅏㄱ -3179
▁ㅌㅔㄹㄹㅔ -3180
ㅌㅗㅂ -3181
▁ㄷㅗㅇㅇㅕㅇㅅㅏㅇ -3182
▁ㄱㅣㄹㄷㅡ -3183
▁ㅅㅏㅇㅅㅏㅇ -3184
▁ㅎㅏㄴㅂㅏㅇ -3185
▁ㅇㅕㄴㄹㅏㄱ -3186
▁AI -3187
▁ㅂㅗㄹㄴㅔㅅ -3188
▁ㅇㅛㅇㅇㅓ -3189
▁1995 -3190
ere -3191
ㅇㅜㄹㄹㅣ -3192
▁DJ -3193
ㅂㅜㄱㄷㅗ -3194
▁MC -3195
▁ㅈㅓㄴㅎㅏ -3196
▁ㅇㅡㅁㅅㅓㅇ -3197
AC -3198
▁ㄱㅓㅂ -3199
▁ㅅㅠㅅ -3200
ㄷㅓㅇ -3201
▁ㅇㅐㅂ -3202
▁ㅇㅕㄴㅂㅏㅇ -3203
▁ㄹㅣㄹㄹㅣ -3204
▁ㄸㅗㄱㄱㅏㅌㅇㅣ -3205
▁ㄱㅣㅁㅈㅓㅇ -3206
▁ㅌㅡㄱㅎㅘ -3207
▁On -3208
age -3209
▁ㅂㅓㄴㄱㅐ -3210
▁ㅁㅏㄴㄴㅏㅆ -3211
▁ㅎㅡㅇㅎㅐㅇ -3212
▁ㅂㅗㄹㅌㅡ -3213
▁ㅇㅕㄴㄱㅘㄴ -3214
▁ㄱㅏㅇㅊㅓㄹ -3215
▁ㅎㅐㄴㄷㅡ -3216
▁ㅈㅏㅁㅅㅜ -3217
▁ㅇㅣㄱㅅㅜㄱ -3218
▁ㄱㅏㄴㅂㅜ -3219
▁ㄱㅕㄹㅅㅡㅇㅈㅓㄴ -3220
ㄲㅏㄹ -3221
▁ㅈㅗㅇㅇㅣ -3222
▁ㄴㅗㅇㄱㅜ -3223
▁ㅅㅣㄴㅁㅜㄴ -3224
▁ㅌㅗㅇㅎㅏㄴ -3225
▁ㅈㅓㄴㄷㅏㄹ -3226
▁ㄱㅡㄱㄷㅏㄴ -3227
▁ㅅㅏㅁㅈㅣㄴ -3228
▁ㅅㅣㄴㅂㅜㄴ -3229
ㄴㅜㄴ -3230
▁ㅎㅑㅇㅅㅏㅇ -3231
▁@ -3232
ㄴㅣㄴㄷㅏ -3233
ㅇㅣㅇ -3234
▁ㄱㅓㅌ -3235
▁..... -3236
▁ㅈㅓㄴㅈㅣㄱ -3237
▁ㅈㅡㄹㄱㅣ -3238
▁ㅇㅑㅇㅅㅏㄴ -3239
▁ㅍㅡㄹㄹㅗ -3240
▁ㄴㅓㅁㄱㅣ -3241
ㅈㅓㄴㅊㅏ -3242
ㄹㅓㅆ -3243
▁ㅊㅜㄹㄹㅕㄱ -3244
▁ㅂㅣㄹㄷㅡ -3245
▁ㄷㅡㄹㅇㅣ -3246
▁ㅎㅘㄴㅈㅏ -3247
▁ㅂㅡㄹㄹㅣ -3248
ㄹㅠㄴ -3249
▁ㅇㅗㄴㄷㅏ -3250
▁ㅅㅣㄴㅅㅓㅇ -3251
▁ㅅㅣㄴㄱㅣ -3252
▁ㅋㅡㄹㄹㅔ -3253
▁ㅂㅏㄱㄱㅡㄴ -3254
▁ㅈㅏㅇㄱㅛ -3255
▁ㅈㅓㄴㅇㅕㄱ -3256
▁ㅂㅗㄱㅈㅏㅂ -3257
▁ㅌㅣㅁㅇㅝㄴ -3258
▁ㅈㅣㄴㅅㅣㅁ -3259
▁ㅎㅔㄴ -3260
▁ㅇㅙㄴ -3261
ㅇㅇㅣ -3262
▁ㅇㅣㄹㅈㅣ -3263
▁ㄷㅗㅇㅈㅏㄱ -3264
▁ㅎㅘㄴㅅㅡㅇ -3265
▁ㅇㅣㅁㅁㅕㅇ -3266
▁ㄱㅡㄹㅈㅏ -3267
▁ㅋㅙ -3268
▁ㄱㅐㄹㄹㅓㄱ -3269
qu -3270
▁px -3271
▁ㅂㅗㅅ -3272
ㅋㅓㅁ -3273
▁ㅇㅣㅂㄷㅏㄴ -3274
▁ㅆㅣㄴ -3275
▁ㅇㅗㄹㄹㅏㅆ -3276
▁ㅅㅣㄹㅂㅓ -3277
ㅍㅗㅁ -3278
ㅂㅕㅇㄷㅐ -3279
▁ㅈㅓㄹㅁㅏㅇ -3280
▁DLC -3281
ood -3282
▁ㅇㅣㅂㅎㅣ -3283
▁ㅎㅗㄹㄹㅗ -3284
ㄷㅡㄹㅇㅕ -3285
▁ㄷㅏㄹㄹㅣㄴ -3286
▁ㅅㅓㅇㄱㅘ -3287
▁AK -3288
▁ㅃㅏㄹㄹㅏ -3289
▁ㅅㅓㅇㅂㅕㄹ -3290
ㄴㅓㅎ -3291
▁ㅇㅣㅁㅅㅣ -3292
▁ㅆㅘ -3293
ㅊㅏㅇㄱㅣ -3294
▁ㅁㅗㄹㄹㅕ -3295
▁ㅁㅕㅇㅈㅜㅇㄹㅠㄹ -3296
▁ㅎㅏㅅ -3297
▁THE -3298
BO -3299
▁ㅊㅏㄱㄱㅏㄱ -3300
ㄹㅓㅁㅇㅔ -3301
▁ㅊㅓㄹㅈㅓ -3302
▁ㅇㅏㄹㅍㅏ -3303
▁MVP -3304
▁ㅁㅏㄱㅊㅏ -3305
▁ㅈㅓㄴㅅㅣ -3306
▁ㄱㅡㄴㅇㅠㄱ -3307
▁ㄱㅐㄹㄹㅓㄱㅅㅣ -3308
▁ㄷㅡㄱㅍㅛ -3309
ㄹㅏㄴㅅㅐㄱ -3310
▁ㅇㅠㄱㅅㅓㅇ -3311
▁ㅁㅓㅇ -3312
ㅇㅜㄴㅌㅡ -3313
▁Wh -3314
▁ㅈㅜㅇㅎㅘ -3315
IS -3316
▁ㅅㅣㅁㅎㅏㄴ -3317
are -3318
▁ㄱㅕㅇㄱㅗ -3319
ㅁㅏㅇㅊㅣ -3320
PM -3321
▁CC -3322
▁ㅊㅏㅇㅈㅗ -3323
▁ㅇㅣㄴㅅㅜ -3324
▁ㅋㅝㄹㄹㅣ -3325
▁ㅇㅏㄹㄹㅔㄱ -3326
▁ㅃㅏㄱ -3327
ㅎㅗㄹ -3328
▁ㅊㅠ -3329
▁ㅅㅕㅆ -3330
▁ㅇㅠㅇㅎㅏㅂ -3331
▁ㄱㅡㄹㄹㅗ -3332
ㄹㄹㅣㄱ -3333
▁ㄱㅗㅇㅈㅣ -3334
▁ㅂㅜㄴㄱㅣ -3335
▁ㅊㅏㅁㅈㅓㄴ -3336
ㅇㅓㄴㄱㅏ -3337
▁1994 -3338
▁ㄱㅏㅇㅇㅝㄴ -3339
▁ㅁㅜㄹㅈㅣㄹ -3340
▁ㅇㅣㄴㅈㅡㅇ -3341
▁$ -3342
▁ㅇㅕㄲ -3343
▁ㅂㅣㅅ -3344
ㄷㅏㄷ -3345
▁ㅇㅣㄴㅇㅕㄴ -3346
▁ㄹㅏㅁ -3347
▁1980 -3348
▁ㄹㅓㄱ -3349
▁ㄴㅏㄹㅉㅏ -3350
ㅃㅓ -3351
▁ㅎㅕㅂㅎㅚ -3352
▁ㅈㅓㅁㅊㅏ -3353
▁ㅅㅣㄱㅅㅏ -3354
OM -3355
▁ㅅㅐㄴ -3356
▁ㅂㅜㄴㄹㅑㅇ -3357
ㅁㅣㄱ -3358
▁ㄴㅏㅁㅂㅜ -3359
ob -3360
▁ㅊㅓㅇㄴㅕㄴ -3361
▁ㅇㅏㄱㅇㅕㄱ -3362
▁700 -3363
▁ㅅㅣㅁㅎㅐ -3364
ㄱㅣㅁ -3365
▁ㄱㅐㄱ -3366
ㅅㅓㅆ -3367
▁Tr -3368
▁ㅎㅡㅁ -3369
▁ㅎㅏㅂㄱㅕㄱ -3370
ock -3371
▁ㅈㅓㅇㅂㅗㄱ -3372
▁ㅂㅏㄴㅂㅏㄹ -3373
▁ㅈㅜㅇㄷㅐ -3374
▁ㅎㅕㅂㅂㅏㄱ -3375
▁ㄱㅣㅁㅇㅕㅇ -3376
▁ㄴㅗㄱㅇㅡㅁ -3377
▁ㅎㅏㅂㅊㅔ -3378
ake -3379
▁ㄱㅏㅁㅇㅗㄱ -3380
ㅁㅓㄴㅌㅡ -3381
▁'' -3382
▁ㄱㅕㄹㄹㅗㄴ -3383
ect -3384
▁ㅇㅣㄴㅎㅏ -3385
our -3386
OW -3387
ㅉㅐㅆㄷㅡㄴ -3388
ㅇㅛㅇㅈㅏ -3389
▁ㄱㅗㄷㅂㅏ -3390
ㄹㅜㄱ -3391
ass -3392
ㄱㅘㄴㅊㅗㅇ -3393
▁he -3394
▁ㅇㅏㄹㄹㅔ -3395
ㅎㅐㅇㄱㅣ -3396
▁ㅎㅓㅁ -3397
oy -3398
▁ㄴㅓㅁㄱㅕ -3399
▁ㅍㅔㄹ -3400
▁FI -3401
ㅇㅠㅇ -3402
▁ㅊㅜㄹㅍㅏㄴ -3403
ire -3404
ㅅㅏㄱ -3405
▁ㄱㅏㅇㅇㅢ -3406
▁ㅈㅏㅈ -3407
ㅂㅏㄴㄱㅣ -3408
▁ㅇㅞㅂㅌㅜㄴ -3409
ark -3410
ㅅㅗㄱㅈㅏㄱ -3411
▁ㅅㅏㅁㄱㅜㄱㅈㅣ -3412
▁ㅆㅓㄱ -3413
▁ㅈㅓㅇㅁㅕㄴ -3414
▁ㅎㅏㅂㅅㅓㅇ -3415
▁ㅇㅞㄴㅁㅏㄴ -3416
ㅋㅙ -3417
ite -3418
▁ㅅㅏㄹㄹㅣ -3419
ㅌㅐㄴ -3420
▁ㅎㅏㄴㅈㅣ -3421
▁ㄹㅐㅇㅋㅣㅇ -3422
▁ㅊㅜㄱㅈㅔ -3423
▁ㅁㅜㄴㅈㅏㅇ -3424
▁ㄷㅗㅇㅎㅘ -3425
▁ㅁㅜㅇ -3426
▁ㅇㅣㄹㅅㅣ -3427
▁ㅍㅕㄴㄱㅗㄱ -3428
ㄷㅗㅇㅈㅏ -3429
▁ㅂㅗㄴㅈㅏㄱ -3430
▁ㅅㅒ -3431
▁ㄱㅗㅇㄱㅡㅂ -3432
ㅅㅓㅇㄱㅣ -3433
▁ㄲㅏㅁ -3434
▁ㄷㅗㅂ -3435
ah -3436
▁ㅇㅣㄴㄱㅗㅇ -3437
▁ㄹㅔㅅ -3438
▁ㄷㅏㄴㅈㅏㅇ -3439
▁FA -3440
▁ㅎㅚㅇ -3441
▁SR -3442
▁wh -3443
▁ㄱㅓㄹㄹㅣㄴ -3444
▁ㅍㅕㄹㅊㅕ -3445
▁ㄹㅜㅁ -3446
▁ㅃㅐㅅ -3447
▁ㅈㅓㄴㅁㅕㄴ -3448
▁ㅇㅡㄴㅎㅏ -3449
FC -3450
ES -3451
▁kt -3452
▁Cl -3453
ㅂㅅㅡ -3454
▁AR -3455
▁ㅅㅗㄴㄱㅏ -3456
▁ㄱㅕㅌ -3457
▁ㄲㅡㄴ -3458
ㄴㅕㄱ -3459
▁ㅍㅡㄹㄹㅐㅅ -3460
▁ㅌㅔㄱㅅㅡ -3461
▁ㅎㅘㄹㅅㅓㅇ -3462
▁ㅇㅐㄱㅌㅣ -3463
UN -3464
ㅁㅐㄴㄷㅡ -3465
▁ㅅㅣㄴㅎㅗ -3466
▁ㅉㅗㅊㅇㅏ -3467
▁ㅁㅗㄱㄱㅕㄱ -3468
▁ㄴㅓㄱ -3469
▁ㅋㅓㄹㄹㅓ -3470
▁ㅇㅘㅇㅈㅗ -3471
▁GT -3472
▁ㅇㅕㄴㅌㅏ -3473
▁ㄱㅗㅇㅁㅜ -3474
iz -3475
ound -3476
▁ㅇㅗㄻㄱㅕ -3477
▁ㅈㅓㄱㄱㅜㄴ -3478
▁ㄱㅘㄴㅈㅜㅇ -3479
▁ㄱㅏㄴㅎㅗㄱ -3480
▁ㄱㅡㅇㅈㅓㅇ -3481
▁ㄱㅣㅁㅌㅐ -3482
▁ㅁㅜㄴㅎㅏㄱ -3483
▁ㅍㅐㄴㄷㅓㅁ -3484
ㄷㅓㄴㄱㅏ -3485
▁ㅇㅣㄹㅇㅝㄴ -3486
▁ㅂㅏㄱㄱㅡㄴㅎㅖ -3487
ime -3488
▁ㅂㅏㄴㅅㅏ -3489
▁ㅈㅓㅇㄱㅡㄹ -3490
▁ㅅㅣㄱㅁㅜㄹ -3491
▁ㄴㅗㄹㅇㅣ -3492
ㅅㅏㅇㅈㅏ -3493
▁ㅇㅠㄱㅊㅔ -3494
ㄷㅏㄹㄹㅣ -3495
▁my -3496
▁ㅅㅣㄴㄹㅏ -3497
▁ㅍㅓㄴㅊㅣ -3498
ㅂㅕㅂ -3499
▁SD -3500
▁PD -3501
ㅇㅗㅇ -3502
▁ㄱㅣㅁㅁㅣㄴ -3503
▁ㅇㅕㄴㅇㅣㄴ -3504
▁ㅇㅡㄴㄱㅡㄴㅎㅣ -3505
LL -3506
▁ㅅㅏㅇㅅㅓㅇ -3507
▁Gr -3508
▁ㄲㅡㄹㄹㅕ -3509
iv -3510
▁ㅈㅜㄴㅅㅜ -3511
▁ㅇㅑㄱㅎㅐ -3512
ㅆㅡㄹ -3513
▁ㅅㅟㄹ -3514
ㅈㅏㅂㅇㅣ -3515
▁ㄷㅡㄴㄷㅏ -3516
▁SC -3517
▁Me -3518
▁KIA -3519
▁ㅇㅣㄴㄱㅡㄴ -3520
▁ㅂㅜㄹㅂㅓㅂ -3521
▁ㅂㅜㅌㅇㅣ -3522
▁ㅇㅣㄹㄱㅕㄱ -3523
ID -3524
▁ㅅㅏㅇㅎㅏ -3525
▁ㄱㅏㄱㅈㅏ -3526
▁116 -3527
▁ㅌㅡㄱㅈㅣㅂ -3528
▁ㄷㅣㅇ -3529
▁ㅈㅓㄴㅊㅓㄹ -3530
▁ㅎㅘㄴㅇㅕㅇ -3531
▁ㅇㅕㅇㅌㅗ -3532
▁ㄷㅗㅇㅂㅜ -3533
▁ㅂㅏㄱㅈㅓㅇ -3534
▁ㄱㅗㄱㅁㅕㅇ -3535
▁ㅇㅕㅇㅁㅜㄴ -3536
▁ㅈㅓㄱㄷㅐ -3537
▁ㄸㅡㄷ -3538
▁ㅂㅐㅇ -3539
▁SM -3540
ㅋㅗㄹ -3541
▁ㅁㅔㄴㅌㅏㄹ -3542
▁ㅁㅓㄹㅉㅓㅇ -3543
▁My -3544
OP -3545
▁ㄴㅜㄹㄹㅓ -3546
▁ㄱㅜㄱㄱㅜㄴ -3547
▁ㄱㅓㄴㅊㅜㄱ -3548
▁130 -3549
▁ㅇㅣㄱㅅㅡ -3550
▁ㄹㅣㅁ -3551
▁ㅊㅣㅁㄱㅗㅇ -3552
ㄹㅣㄴㅇㅣ -3553
▁ㅇㅝㄴㅂㅗㄴ -3554
▁ㄴㅑㅇ -3555
ㅇㅝㄴㅈㅏㅇ -3556
▁ㅎㅕㅇㅅㅏ -3557
▁ㄱㅏㅇㄴㅏㅁ -3558
ㄲㅟㄴ -3559
▁ㅇㅏㄴㄴㅐ -3560
▁ㅈㅓㅂㅅㅗㄱ -3561
ㅇㅣㅁㅅㅡ -3562
▁ㅁㅝㄹ -3563
▁ㄱㅏㄷ -3564
▁ㅋㅐㅁㅍㅓ -3565
▁ㅌㅏㄴㅊㅏㅇ -3566
▁ㅎㅜㅅ -3567
▁Pr -3568
▁ㄱㅕㄹㅁㅏㄹ -3569
▁ㅇㅗㄹㄹㅣㄴ -3570
▁{{ -3571
▁ㅈㅔㄹ -3572
ㄴㅣㄴㄱㅏ -3573
▁ㅋㅏㄹㄹㅣ -3574
▁ㅊㅓㅁ -3575
▁ㅈㅓㅇㅊㅏㄹ -3576
ge -3577
▁ㅁㅕㄴㅇㅕㄱ -3578
▁ㄲㅏㅇ -3579
▁ㄱㅗㄹㄷㅡㄴ -3580
▁{{{ -3581
▁ㅍㅔㅅ -3582
▁ㄴㅏㅁㄱㅕ -3583
▁ㅇㅐㄹㄹㅣ -3584
▁https -3585
▁ㅎㅏㄱㅂㅜ -3586
▁ㅎㅕㄴㅇㅕㄱ -3587
▁BE -3588
▁ㅇㅡㅁㅇㅝㄴ -3589
▁ㄷㅏㄷ -3590
▁ㅅㅣㄱㄷㅏㅇ -3591
▁ㅈㅏㄱㅎㅘ -3592
▁ㄷㅣㄴ -3593
▁ㅂㅣㅊㄴㅏ -3594
ome -3595
ax -3596
ㅇㅣㄹㄹㅐㄴㄷㅡ -3597
▁ㅅㅏㅇㄷㅏㅇㅅㅜ -3598
▁ㅎㅏㄹㅇㅏ -3599
▁ㅇㅣㄹㄱㅣ -3600
ㄷㅓㄹㄹㅏㄴㄷㅡ -3601
▁DF -3602
▁ㅈㅓㄴㅁㅜㄴㄱㅏ -3603
ance -3604
▁ㅈㅓㄴㅈㅣㄴ -3605
uc -3606
▁ㄲㅗㅈ -3607
ㅅㅡㄹㄹㅏㅁ -3608
▁ㅌㅡㄴ -3609
ㅇㅣㄴㅇㅓㅂ -3610
ick -3611
▁MF -3612
▁ㅇㅟㄹㄹㅣ -3613
▁ㅊㅓㄴㅈㅐ -3614
▁ㅎㅏㄴㄷㅗㅇㅇㅏㄴ -3615
ㅉㅓㄱ -3616
▁ㅋㅗㄹㄹㅗ -3617
▁ㅇㅕㄹㅅㅚ -3618
▁ㅎㅏㄴㅂㅓㄴ -3619
▁Pl -3620
▁ch -3621
ㄴㅣㄱㅅㅡ -3622
▁ㄱㅓㅁㅊㅏㄹ -3623
▁ㅈㅜㄱㅇㅣㄹ -3624
▁ㅎㅏㄴㅊㅏㅁ -3625
▁ㅊㅗㅇㅅㅓㄴ -3626
▁ㅂㅏㅇㅈㅣ -3627
▁ㅊㅗㄴ -3628
▁ㅊㅓㅅㅊㅏ -3629
▁HD -3630
ㅈㅏㅇㅅㅣㄹ -3631
▁ㅅㅡㅇㄱㅕㄱ -3632
10 -3633
ㄲㅜㄴ -3634
▁ㅁㅗㄹㄹㅏㅆ -3635
▁\ -3636
▁ㅇㅛㅇㄱㅣ -3637
ix -3638
MA -3639
▁ㅊㅛ -3640
▁WW -3641
ord -3642
▁ㅂㅏㅇㅅㅏ -3643
mer -3644
▁ㅈㅏㅂㅎㅕ -3645
▁ㅁㅏㅇㄱㅏ -3646
▁?? -3647
ㅁㅔㄹ -3648
▁ㄱㅏㄹㅅㅜ -3649
▁ㅂㅕㄹㄷㅏ -3650
▁ㅅㅗㄱㅎㅏ -3651
▁ㅇㅏㄴㄱㅕㅇ -3652
▁ㅇㅑㅇㅉㅗㄱ -3653
▁ㅁㅗㅅㅎㅏㄹ -3654
▁160 -3655
ure -3656
ㅋㅡㄴ -3657
▁ㅎㅏㄴㅁㅏ -3658
▁ㄴㅗㅇㄷㅏㅁ -3659
▁ㄹㅔㄱ -3660
▁ㅅㅏㅇㅎㅏㄴ -3661
▁ㅋㅐㅁㅍㅔ -3662
▁GB -3663
ㅈㅓㅇㄱㅓ -3664
▁ㅅㅣㄴㅂㅣ -3665
ㄷㅓㅇㅇㅣ -3666
▁ㅋㅐㅂㅌㅣㄴ -3667
▁ㅍㅡㄹㄹㅓ -3668
▁ㅂㅣㅈ -3669
▁ㅅㅏㅇㄱㅡㅂ -3670
▁ㄷㅗㅇㄱㅜㄹ -3671
▁ㅇㅜㅇ -3672
▁ㄱㅜㄱㅇㅓ -3673
▁ㅇㅕㅇㅎㅑㅇㄹㅕㄱ -3674
▁ㅈㅓㄴㄹㅏ -3675
ㅌㅡㄱㅂㅕㄹ -3676
▁with -3677
▁ㅁㅜㄴㅈㅐ -3678
▁ㅃㅓ -3679
▁OST -3680
▁ㅂㅜㄹㄹㅣㄴㄷㅏ -3681
▁ㅈㅣㅂㅇㅓ -3682
ㅊㅣㅁㄴㅐ -3683
▁1992 -3684
ㄹㅐㅅㄷㅗㅇㅇㅏㄴ -3685
ㄹㅣㄱㅅㅡ -3686
▁ㅈㅜㄱㅇㅣㄴ -3687
▁ㅇㅜㅅㅇㅡㅁ -3688
ㄴㅝ -3689
▁ㄱㅓㄹㅊㅕ -3690
▁ㅂㅜㄱㅂㅜ -3691
▁ㅂㅏㅇㅊㅜㄹ -3692
ㄲㅣㄹ -3693
ㄷㅗㄱㄱㅛ -3694
ㅂㅜㅇ -3695
▁ㅈㅜㄹㅇㅕ -3696
▁ㄱㅣㅁㄷㅗㅇ -3697
▁ㅁㅏㅈㅅㅓ -3698
▁1993 -3699
▁KO -3700
▁ㅇㅕㄴㄹㅛ -3701
ud -3702
▁ㅂㅡㄹㄹㅏ -3703
▁ㅇㅗㄹㅎㅐ -3704
▁ㅌㅔㄴㄷㅔ -3705
▁ㄹㅣㅅ -3706
▁ㅇㅏㄴㅌㅣ -3707
▁ㅈㅏㅇㅇㅏㄱ -3708
▁ㅇㅝㄴㅅㅗ -3709
▁ㄱㅡㄱㅂㅗㄱ -3710
▁ㅈㅓㅂㅊㅗㄱ -3711
▁ㅈㅓㅇㅇㅝㄴ -3712
▁ㅋㅡㄹㄹㅣㄱ -3713
ㅇㅑㅇㅎㅏㅁ -3714
ㅌㅗㄹㄹㅣㄱ -3715
▁ㅈㅜㅇㄷㅗㄱ -3716
▁ㄱㅜㄱㅂㅏㅇ -3717
▁SKT -3718
▁ㅁㅓㅁㅊㅜ -3719
▁ㅇㅣㄹㅈㅔ -3720
▁ㅇㅣㄴㅈㅓㅇㅂㅏㄷ -3721
ㅈㅡㄹ -3722
▁ㄱㅕㄹㅋㅗ -3723
▁ㅇㅘㄹ -3724
▁ㄸㅣ -3725
▁ㅅㅣㄱㄹㅑㅇ -3726
▁ㅅㅓㄴㅌㅐㄱㅈㅣ -3727
ㅋㅓㅅ -3728
▁140 -3729
▁ㅅㅐㅇㅈㅗㄴㅈㅏ -3730
▁ㅌㅗㅁ -3731
ㅈㅟ -3732
▁Ex -3733
▁ㅈㅓㄴㅅㅣㄴ -3734
▁ㅋㅕ -3735
ame -3736
80 -3737
ㅁㅔㄴㅌㅡ -3738
▁sh -3739
▁ㅎㅓㅅ -3740
▁ㅊㅣㅇㅊㅏㄴ -3741
▁ㅂㅗㄴㅊㅔ -3742
▁ㅅㅣㄴㅅㅓㄹ -3743
▁ㅊㅐㄹㄹㅣㄴ -3744
▁ㅇㅟㄹ -3745
▁ㅁㅔㄱㅅㅣ -3746
ㅇㅠㄱㄱㅘㄴ -3747
▁ㅈㅓㄴㅁㅕㄹ -3748
ㅎㅡㅂ -3749
▁JR -3750
AD -3751
▁ㅈㅓㄴㅅㅓㅇㄱㅣ -3752
▁ㅅㅗㄴㅎㅐ -3753
▁ㅈㅓㄱㅎㅕ -3754
▁", -3755
▁ㄴㅗㄴㄹㅣ -3756
▁ㅊㅕㅆ -3757
▁ㄷㅏㄱ -3758
ㅁㅗㄴㄷㅡ -3759
▁de -3760
▁ㅆㅣㅂ -3761
▁ㄱㅏㄹㄹㅏ -3762
▁IC -3763
▁ㄷㅡㄹㄹㅕ -3764
ㄹㅡㅍ -3765
ost -3766
▁ㄷㅡㄹㄹㅣ -3767
▁ㅇㅓㄱㅈㅣ -3768
▁ㄷㅗㄷ -3769
▁ㅊㅜㅇㅅㅓㅇ -3770
ㅁㅏㅅ -3771
ㅈㅏㄱㅈㅏ -3772
out -3773
▁ㅈㅓㅇㅂㅣ -3774
▁ㄱㅣㅁㅈㅗㅇ -3775
▁ㄷㅗㅇㅇㅢ -3776
▁Love -3777
▁ㅌㅜㄹ -3778
ㅇㅣㄴㄷㅡ -3779
old -3780
▁ㅇㅣㄹㅂㅏㄴㅇㅣㄴ -3781
▁ㄲㅘ -3782
ㄷㅡㄴㄱㅏ -3783
▁GS -3784
ㅈㅓㅇㅂㅜ -3785
▁ㄷㅏㅇㅇㅣㄹ -3786
▁ㅂㅏㄴㄷㅗㅇ -3787
▁ㅁㅕㅇㅅㅓㅇ -3788
▁900 -3789
▁ㅈㅓㄱㅇㅡㅇ -3790
▁Un -3791
▁ㅁㅐㄱㅅㅡ -3792
▁ㅊㅜㅇㅊㅓㅇ -3793
▁ㅈㅏㄱㄱㅗㄱㄱㅏ -3794
own -3795
▁ㅈㅡㅇㅇㅓㄴ -3796
ㅇㅑㄹ -3797
ㄲㅡㄴ -3798
▁ㄷㅜㄹㅉㅐ -3799
▁202 -3800
▁ㅎㅏㅂㅇㅢ -3801
▁ㅂㅓㅂㄹㅠㄹ -3802
▁ㅌㅔㄱ -3803
▁ㅇㅓㅂㅈㅓㄱ -3804
▁ㅅㅓㄴㅈㅓㄴ -3805
ㅃㅏㄹ -3806
▁ㅇㅣㅇㄱㅡㄹ -3807
▁ㅎㅏㄹㅁㅓ -3808
▁ㄲㅜㄹ -3809
▁ㅌㅗㅂ -3810
ㅋㅔㄴ -3811
ㄲㅏㅌ -3812
▁ㅇㅕㄴㄱㅡㅁ -3813
▁ㅆㅓㄹ -3814
▁ㅅㅣㄴㅂㅜ -3815
▁ㅎㅣㅂ -3816
▁ㅉㅣㅈ -3817
▁ㅍㅣㅅ -3818
▁ㅎㅑㅇㅎㅏ -3819
▁ㅅㅏㅇㅇㅓㅂ -3820
▁ㅈㅏㅂㅈㅣ -3821
ㄹㅓㅅ -3822
▁ㅍㅗㄹㄹㅏㄴㄷㅡ -3823
▁SH -3824
US -3825
ㄱㅓㄹㄹㅗ -3826
▁ㄱㅘㄱ -3827
▁ㅂㅜㄱㅉㅗㄱ -3828
▁ㅇㅣㄴㄷㅣ -3829
▁ㄴㅔㄱㅅㅔㄴ -3830
▁ㅈㅓㅇㅅㅜ -3831
▁LI -3832
ㄱㅕㄱㅅㅜ -3833
▁ㄷㅡㄹㅇㅕ -3834
▁ㅇㅝㄴㅈㅜ -3835
▁ㅇㅣㄹㅂㅏㅇ -3836
ㄷㅗㄹㄹㅣ -3837
ㄷㅡㅂ -3838
▁ㄷㅏㄺ -3839
▁EP -3840
▁ㅈㅓㄴㅎㅜ -3841
▁ㅋㅔㄹ -3842
ㄷㅣㅅ -3843
ㄹㅗㅁ -3844
▁wik -3845
ave -3846
▁ㅂㅓㄹㄹㅔ -3847
▁ㅂㅗㄱㅁㅜ -3848
ㅂㅡㄹㄹㅣㄴ -3849
▁ㄲㅏㄹㄲㅡㅁ -3850
▁ㄸㅗㅇ -3851
▁ㄴㅏㄲㅅㅣ -3852
▁ㅆㅏㅇㄷㅜㅇㅇㅣ -3853
▁ㅂㅏㄹㄹㅏ -3854
▁ㅅㅡㅇㅈㅓㅁ -3855
▁ㅊㅐㅇㄱㅕ -3856
▁ㅊㅜㄹㅁㅏ -3857
▁ㄱㅡㅁㅅㅗㄱ -3858
▁FF -3859
pe -3860
▁ㅍㅓㅇ -3861
▁IS -3862
ace -3863
▁ㄷㅣㄹㄹㅔ -3864
▁ㄱㅕㄹㅅㅓㅇ -3865
▁ㅈㅓㅇㅊㅏㄱ -3866
▁ㄴㅏㅁㅉㅗㄱ -3867
▁ㅇㅣㄴㄱㅕㄱ -3868
per -3869
▁ㅅㅣㅇㅋㅡ -3870
ㄱㅡㅅ -3871
▁ㅇㅣㄴㅈㅗ -3872
▁ㅎㅡㄴㅈㅓㄱ -3873
▁ㅇㅕㄴㅍㅐ -3874
▁XX -3875
▁ㅂㅜㄹㅌㅏ -3876
ㅈㅛ -3877
▁ㅎㅓㄹ -3878
▁ㄷㅗㅇㄹㅕㄱ -3879
ng -3880
▁ㅂㅓㅂㅇㅝㄴ -3881
ㅆㅏㅇ -3882
▁ㅈㅏㅁㅈㅐ -3883
▁ㅌㅟㅇ -3884
▁ㅊㅣㅂ -3885
▁ㄷㅗㄱㅌㅡㄱ -3886
▁ㄴㅐㅁㅅㅐ -3887
ice -3888
▁ㅎㅜㅅㄴㅏㄹ -3889
▁ㄱㅏㄴㅅㅣㄴ -3890
▁ㄴㅏㅁㄴㅕ -3891
▁ㄱㅝㄴㅎㅏㄴ -3892
ㄲㅜㄹ -3893
▁1991 -3894
▁ㄱㅗㅇㅅㅓㅇ -3895
▁ㄱㅏㅇㄷㅗ -3896
▁ㅈㅏㅂㅎㅣ -3897
▁ㅅㅏㅇㅎㅗ -3898
ㄱㅏㅄ -3899
▁ㅁㅏㄱㅇㅏ -3900
▁ㅇㅣㄹㅉㅣㄱ -3901
ont -3902
▁ㄱㅡㄹㄹㅓ -3903
ㄸㅡㅅ -3904
▁ㅍㅜㄹㄹㅣ -3905
▁ㅇㅕㄴㅅㅡㅇ -3906
▁CV -3907
▁ㅅㅡㄹㄹㅗ -3908
▁ㄱㅜㄱㄹㅣㅂ -3909
ㅈㅕㅆㅇㅡ -3910
▁1988 -3911
ov -3912
▁ㄱㅗㅇㄹㅛㅇ -3913
▁ㅍㅗㄹㄹㅣ -3914
▁AD -3915
ㄹㅏㅇㅇㅣ -3916
▁ㅋㅡㄹㄹㅐㄴ -3917
▁CF -3918
▁ㅁㅗㄹㄹㅏㄱ -3919
▁We -3920
ㄷㅜㄹ -3921
▁ㅈㅓㄴㅈㅜ -3922
OD -3923
ㄷㅠㄹ -3924
▁ㅊㅔㄹ -3925
▁ㅎㅐㅇㅂㅗ -3926
ㄹㅐㅇㅋㅡ -3927
▁ㄹㅓㄴㄷㅓㄴ -3928
▁ㅈㅓㄱㄷㅏㅇㅎㅣ -3929
▁ㄱㅏㄱㅂㅗㄴ -3930
▁ㅆㅗㄷㅇㅏ -3931
▁ㄱㅣㅁㅈㅐ -3932
▁ㅅㅣㄹㅁㅏㅇ -3933
▁ㅅㅏㅇㅅㅜㄹ -3934
▁ㅎㅡㅇㅁㅣ -3935
▁ㅅㅡㅇㄹㅠㄹ -3936
ㅎㅏㄱㅇㅝㄴ -3937
▁ㅅㅐㄱㄲㅏㄹ -3938
▁ㄱㅗㅇㅅㅔ -3939
▁ㅎㅕㅁㅇㅗ -3940
▁ㅅㅜㄱㄹㅕㄴ -3941
▁105 -3942
▁ㅎㅕㄹㅇㅐㄱ -3943
▁AM -3944
▁ㅇㅓㄴㅈㅔㄴ -3945
▁ㅈㅜㄹㅇㅣ -3946
▁ㄱㅘㅇㅇㅕㄱㅅㅣ -3947
▁ㅎㅐㅁ -3948
▁ㄴㅗㄱㅅㅐㄱ -3949
▁ㅅㅜㅇ -3950
▁ㅅㅐㅇㄱㅣㄴㄷㅏ -3951
▁ㄱㅣㄹㅇㅣ -3952
▁ㄸㅡㄴㄱㅡㅁ -3953
ㅌㅗㄱ -3954
ㅅㅖ -3955
orld -3956
ㅈㅏㄱㅅㅏ -3957
ㄹㅡㅁㅇㅓㅄ -3958
ies -3959
▁ㅇㅣㄴㅁㅣㄴ -3960
▁DS -3961
▁ㅇㅣㄹㄹㅏㅁ -3962
ㅍㅕ -3963
▁ㅋㅓㅆ -3964
▁ㄴㅓㄹㄹㅣ -3965
▁ㄱㅗㄹㄹㅏ -3966
▁ㅁㅏㅇㅊㅣ -3967
ㄷㅏㄴㅎㅣ -3968
▁.." -3969
ann -3970
▁ㅎㅏㄱㄹㅕㄱ -3971
▁ㅅㅐㅇㄴㅕㄴ -3972
ㄹㅐㅂ -3973
▁ㅅㅐㄱㅅㅏㅇ -3974
▁ㄱㅡㅁㅇㅠㅇ -3975
▁ㄱㅜㄱㅇㅘㅇ -3976
▁ㅌㅡㄱㅈㅓㄴ -3977
▁SNS -3978
▁ㅁㅕㄴㅁㅗ -3979
▁ㄱㅘㄴㄹㅏㅁ -3980
▁ㅇㅕㅇㄱㅜ -3981
▁ED -3982
▁ㅎㅡㅂㅎㅕㄹ -3983
ㄹㅏㄴㄷㅏ -3984
▁ㄷㅓㅅㅂㅜㅌ -3985
▁ㅎㅡㄹㄹㅣ -3986
OC -3987
▁ㅅㅣㅁㅅㅏ -3988
ㄷㅗㅇㅅㅓㅇ -3989
ㅌㅡㄱㅂㅕㄹㅅㅣ -3990
▁ㅆㅡㄹㅁㅗ -3991
▁ㅃㅜㄹ -3992
ㄹㅐㄴㅁㅏㄴ -3993
▁ㄷㅏㅁㅂㅐ -3994
▁ㅍㅓㄹ -3995
▁ㅈㅡㅇㅇㅗ -3996
BA -3997
▁ㅈㅜㅇㄹㅑㅇ -3998
ㅇㅜㄹㅌㅡㄱㅂㅕㄹㅅㅣ -3999
▁CPU -4000
ㄸㅏㅇ -4001
▁ㅊㅣㅇㅎㅗ -4002
ㅊㅠ -4003
▁ㅈㅐㅇ -4004
▁ㄱㅗㅇㄱㅗㅇ -4005
▁ㅅㅐㅇㄹㅑㄱ -4006
▁ㅇㅣㅇㄱㅡㄹㄹㅐㄴㄷㅡ -4007
▁ㅎㅗㄱㅅㅣ -4008
LE -4009
▁ㅁㅏㅅㅇㅣㅆ -4010
▁ㅇㅕㅅ -4011
▁ㅈㅜㅇㅊㅓㅂ -4012
▁DE -4013
ㄷㅡㅇㅎㅏㄱㅅㅐㅇ -4014
▁ㅁㅏㄴㄴㅏㄹ -4015
▁ㅎㅕㅁㅇㅢ -4016
▁ㅁㅣㄴㅊㅓㅂ -4017
▁ㅎㅞ -4018
▁ㅇㅕㄴㄹㅕㅇ -4019
▁ㅍㅕㄴㅇㅣㅂ -4020
▁ㅊㅗㅇㅇㅏㄹ -4021
▁ㅅㅣㅂㅈㅏ -4022
▁ㅇㅓㄴㄷㅓ -4023
▁ㄷㅐㄴ -4024
▁ㅎㅕㅂㅅㅏㅇ -4025
▁ㄸㅏㄴ -4026
▁ㅅㅏㅇㄷㅏㄴ -4027
▁ㅅㅣㄹㅈㅓㄴ -4028
▁LC -4029
▁ㅇㅕㅇㅈㅜ -4030
▁ㄷㅏㄴㅍㅕㄴ -4031
▁ㅅㅣㄴㅅㅏ -4032
▁ㅅㅏㅇㅇㅣㄴ -4033
▁your -4034
▁ㄱㅗㄴㄹㅏㄴ -4035
▁ㅈㅓㅇㅎㅘ -4036
▁ㅊㅏㄴㅅㅡ -4037
ber -4038
▁ㅇㅛㅇㅅㅓ -4039
▁LV -4040
▁ㅁㅏㄱㄷㅐ -4041
▁NE -4042
▁ㄷㅣㄹㄹㅣㅇ -4043
▁ㄱㅏㅇㅇㅛ -4044
▁ㅈㅜㅇㄱㅜㄱㅇㅓ -4045
▁ㅍㅓㅁ -4046
▁ㄴㅏㅁㄱㅕㅆ -4047
ㄹㅓㅁㅍㅡ -4048
▁ㅌㅏㄹㅌㅚ -4049
▁ㅇㅓㄴㅅㅡ -4050
ys -4051
▁189 -4052
▁ㄷㅗㅇㅉㅗㄱ -4053
▁ㅇㅣㅁㄷㅐ -4054
▁ㅁㅜㄴㄱㅜ -4055
ㄷㅣㅈ -4056
▁ㄱㅗㅇㅂㅏㅇ -4057
▁ㄱㅏㅇㅈㅏ -4058
▁ㅇㅛㅇㄹㅑㅇ -4059
▁SE -4060
▁ㅌㅓㄱ -4061
der -4062
▁ㅇㅝㄴㅊㅣㄱ -4063
▁ㄱㅣㅁㅎㅕㄴ -4064
aw -4065
▁ㅋㅐㅁㅍㅡ -4066
ION -4067
▁ㅈㅣㄴㅂㅗ -4068
▁ㄴㅓㅁㅊㅣ -4069
▁ㅇㅏㄱㄷㅏㅇ -4070
▁It -4071
▁ㄱㅡㅁㅂㅏㅇ -4072
▁ㅅㅏㅇㅅㅣㄹ -4073
▁ㅇㅣㄹㄹㅔ -4074
▁ㅊㅗㅇㄹㅣ -4075
ㅎㅓㅁㄱㅏ -4076
60 -4077
▁ㅁㅏㄹㄹㅣ -4078
▁ㅅㅏㅇㄱㅘㄴㅇㅓㅄ -4079
▁ㅎㅏㄱㅈㅏ -4080
oo -4081
▁ㅇㅝㄴㅎㅏ -4082
ㄱㅏㄴㅎㅣ -4083
▁ㅈㅣㅂㅎㅐㅇ -4084
FF -4085
ㄴㅔㄹ -4086
▁ㅇㅣㄴㅊㅣ -4087
40 -4088
▁ㄷㅔㅁ -4089
▁EN -4090
▁ㄱㅜㅅ -4091
▁BPM -4092
▁ㅇㅓㄷㅇㅓ -4093
ㅂㅓㄴㅌㅡ -4094
▁ㅇㅝㄴㅁㅜㄴ -4095
ike -4096
ream -4097
▁ㄱㅕㄹㅈㅓㄴ -4098
▁ㄱㅏㄴㅅㅣㄴㅎㅣ -4099
▁ㅇㅣㄹㅈㅗㄱ -4100
▁ㅂㅐㅁㅍㅏ -4101
ㄸㅜㅇ -4102
▁125 -4103
ㅌㅏㅁ -4104
▁1989 -4105
▁ㅎㅘㄹㅂㅏㄹ -4106
▁ㅍㅐㅇ -4107
▁ㅅㅣㄴㅇㅏㅇ -4108
▁ㅈㅜㅇㄹㅣㅂ -4109
▁ㅇㅣㅂㅈㅣ -4110
▁ㅎㅔㄹㄱㅣ -4111
▁Com -4112
ㄹㅏㅆ -4113
ory -4114
▁ㅂㅗㄱㅈㅣ -4115
▁ㄴㅏㅁㄱㅣㄴ -4116
▁ㅋㅏㄹㄴㅏㄹ -4117
▁3000 -4118
ㅇㅝㄹㅇㅣㄹ -4119
ㅁㅏㅇㄱㅏ -4120
ㄹㅏㅂ -4121
▁ㅊㅓㅂ -4122
▁PV -4123
▁ㅈㅓㅇㅇㅖ -4124
▁ww -4125
▁ㅅㅓㅇㄴㅏㅁ -4126
ㅁㅣㅆ -4127
▁ㅎㅣㄴ -4128
▁ㅇㅏㄴㄴㅕㅇ -4129
▁UP -4130
▁ㅁㅜㄹㄹㅕ -4131
▁ㅎㅐㅇㅇㅜㄴ -4132
▁ㅇㅣㄹㅂㅗㄴㅇㅣㄴ -4133
iss -4134
ㅍㅐㄱㅌㅡ -4135
▁ㅅㅣㄴㅈㅣ -4136
▁ㅅㅐㅇㄴㅕㄴㅇㅝㄹㅇㅣㄹ -4137
▁ㅂㅏㄴㅈㅓㄴ -4138
ㅍㅏㅇㅇㅣ -4139
▁ㅇㅡㅁㅁㅗ -4140
ㅊㅜㄱㅎㅏㅁ -4141
▁ㅅㅜㄴㅎㅘㄴ -4142
▁ㅂㅣㄱㅌㅗ -4143
▁www -4144
ㄹㅐㄴㅅㅡ -4145
▁ㄱㅕㄱㅊㅜ -4146
▁ㅈㅏㄴㄸㅡㄱ -4147
▁AS -4148
▁ㄱㅓㄴㄷㅡ -4149
▁ㅁㅓㅅㅈㅣㄴ -4150
▁ㅊㅏㅁㅅㅓㄱ -4151
▁ㄱㅗㅇㅎㅓ -4152
▁ㅎㅟㅂ -4153
▁ㅇㅏㄹㄹㅔㄱㅅㅏㄴ -4154
▁ㅅㅣㅁㅅㅣㅁ -4155
ㅅㅜㄱㅅㅏ -4156
▁-> -4157
ㄱㅓㄹㅇㅣ -4158
▁ㅇㅓㄴㅈㅔㄴㄱㅏ -4159
▁BL -4160
▁ㄱㅗㅇㅇㅛㅇ -4161
ㅈㅣㅂㅌㅡ -4162
30 -4163
▁ㅂㅜㄴㅅㅣㄴ -4164
▁that -4165
ian -4166
▁ㅂㅜㄴㄷㅐ -4167
chor -4168
▁ㅅㅏㅇㄱㅣ -4169
▁ㅈㅜㄴㅇㅜ -4170
▁ㅇㅗㅀ -4171
▁ㅌㅗㅇㅅㅏㄴ -4172
▁CJ -4173
▁ㅁㅟ -4174
▁ㅉㅜㄱ -4175
▁ㄴㅏㄴㅇㅣㅂ -4176
▁ㅁㅕㅇㄷㅏㄴ -4177
▁ㄱㅝㄴㄹㅣ -4178
▁ㅌㅏㄴㅎㅘㄴ -4179
▁ㅎㅘㄱㄷㅐ -4180
ㅍㅡㅁ -4181
▁ㅊㅓㅇㅈㅜ -4182
▁ㅅㅣㄱㅁㅣㄴ -4183
▁Pro -4184
ㅇㅓㄴㅌㅡ -4185
io -4186
▁ㅂㅗㄱㄱㅜ -4187
▁ㄱㅕㅇㄹㅗ -4188
▁ㅇㅙㄴㅈㅣ -4189
▁ㅊㅜㄹㅇㅣㅂ -4190
▁ㅇㅡㄴㅅㅣㄴ -4191
▁ㅈㅗㅇㅁㅗㄱ -4192
▁ㅅㅣㄴㅈㅓㄴ -4193
▁ㅁㅏㄹㅌㅜ -4194
▁ㅇㅏㄱㅁㅕㅇ -4195
▁ㅁㅣㅇ -4196
▁1970 -4197
▁ㄱㅓㄴㅈㅗ -4198
▁ㅇㅔㄴㅈㅔㄹ -4199
ㄱㅜㄴㄷㅏ -4200
▁ㅂㅜㄹㅅㅏ -4201
▁ㅎㅕㅇㅅㅏㅇ -4202
▁ㄷㅜㅁ -4203
▁ㄱㅏㄴㅈㅓㅂ -4204
▁ㅇㅓㅂㄹㅗ -4205
▁Fl -4206
▁ㅂㅏㄹㄷㅏㄹ -4207
ㄸㅟ -4208
▁ㅇㅑㅇㅅㅓㅇ -4209
▁ㅇㅕㄴㅁㅐㅇ -4210
▁ㅂㅏㄴㅎㅐ -4211
▁ㅊㅓㄴㅁㅏㄴ -4212
▁ㅇㅝㄴㅈㅏ -4213
▁ㅁㅔㄹㄹㅗ -4214
▁ㄱㅣㅁㄷㅐ -4215
▁ㅅㅜㅁㄱㅣ -4216
▁ㅇㅣㄹㅊㅣ -4217
▁ㅈㅓㄱㅎㅏㅂ -4218
▁Br -4219
▁ㅁㅕㅇㅎㅘㄱ -4220
▁ㅈㅏㅇㅌㅏㄴ -4221
0000 -4222
ㄹㅗㅂㅎㅣ -4223
▁ㅅㅏㄹㅍㅕ -4224
▁ㅇㅟㅅ -4225
▁ㅃㅜㅁ -4226
▁ㅈㅓㄴㅇㅣ -4227
ㅅㅔㅅ -4228
▁ㅇㅕㄴㄱㅡㄱ -4229
▁ㅂㅣㄹㄹㅕ -4230
▁ㅈㅓㅇㅎㅘㅇ -4231
▁anchor -4232
▁ㅆㅗㄹ -4233
▁;& -4234
ㅅㅡㅇㅈㅏ -4235
▁ㅍㅐㄴㅌㅓㅁ -4236
▁ㄲㅡㅁㅉㅣㄱ -4237
▁ㄱㅏㅇㅈㅓㅁ -4238
▁ㅎㅓㄴㅂㅓㅂ -4239
▁wiki -4240
▁WWE -4241
▁ㄱㅗㅅㄱㅗㅅ -4242
▁ㅅㅣㄹㅊㅐㄱ -4243
▁ㅇㅜㄹㅍㅡ -4244
▁ㄱㅏㅈㅊㅜㄴ -4245
IP -4246
ㄹㅐㅇ -4247
▁ㅎㅏㄹㅇㅣㄴ -4248
▁le -4249
▁&# -4250
▁ㅂㅐㄱㅅㅓㅇ -4251
▁170 -4252
▁ㅈㅡㄹㄱㅓ -4253
▁ㅅㅕㄹ -4254
ㅇㅗㄹㄹㅏ -4255
▁ㅍㅕㅇㅅㅐㅇ -4256
▁ㅇㅏㅁㅅㅣ -4257
▁Or -4258
▁ㅇㅏㅍㄷㅜ -4259
▁ㅈㅕㅆㅇㅡ -4260
▁ㅁㅜㄴㄷㅏㄴ -4261
▁ㅅㅐㄴㄷㅡ -4262
ㅅㄱㅏㄹ -4263
▁ㅁㅏㄴㄴㅏㅁ -4264
UM -4265
ㅍㅐㄴ -4266
IG -4267
▁ㅇㅜㄴㄷㅗㅇㅈㅏㅇ -4268
ㅅㅡㄹㄹㅓ -4269
▁ㅎㅣㄹㄹㅓ -4270
VD -4271
▁ㅇㅓㄴㄷㅓㄱ -4272
▁ㄷㅏㅂㅂㅕㄴ -4273
▁ㄷㅏㄴㅊㅜㄱ -4274
▁ㅊㅜㅇㅅㅣㄹ -4275
▁ㄱㅡㅁㅇㅐㄱ -4276
ㅊㅓㅁ -4277
ㄹㅓㄱㅈㅓ -4278
▁ㅃㅓㄷ -4279
▁ㅅㅡㅇㄱㅐㄱ -4280
TE -4281
▁ㄱㅓㄹㅁㅏㅈ -4282
▁by -4283
▁ㄷㅓㅇㅊㅣ -4284
▁1987 -4285
▁ㅂㅕ -4286
▁ㅂㅏㄱㅁㅜㄹ -4287
▁ㅂㅜㄹㅍㅔㄴ -4288
▁ㄱㅏㅁㄱㅏㄱ -4289
oth -4290
▁ㅅㅏㅇㅅㅣㄱ -4291
ㅇㅔㅅ -4292
ㅇㅓㄴㅊㅡ -4293
▁ㅇㅕㅆㅇㅡㄹ -4294
▁ㅎㅏㅇㄱㅗㅇㄱㅣ -4295
▁Dr -4296
▁ㅅㅓㅇㄹㅣㅂ -4297
az -4298
ㅋㅣㅅ -4299
▁ㄲㅗㅁ -4300
▁ㄱㅕㅇㅈㅜ -4301
ㄲㅟㄴㄷㅏ -4302
▁ㅅㅡㅇㅈㅏ -4303
▁ㅊㅜㄹㄱㅕㄱ -4304
▁ㅅㅏㅇㅇㅕㅇ -4305
▁ㅇㅣㅀㅇㅓ -4306
ep -4307
▁ㄱㅣㄴㅈㅏㅇ -4308
man -4309
▁ㅊㅜㄱㅂㅗㄱ -4310
▁ㅇㅣㅂㄷㅐ -4311
▁ㅋㅣㄹㄹㅓ -4312
▁ㄴㅓㅁㅂㅓ -4313
▁ㅅㅔㄴㅌㅡ -4314
▁ㅅㅓㄴㄱㅗ -4315
▁ㄹㅓㅁ -4316
▁ㄱㅓㄹㄹㅣㄴㄷㅏ -4317
▁ㅈㅣㅂㅊㅏㄱ -4318
▁ㅊㅓㄴㅎㅏ -4319
▁ㄱㅡㅂㄱㅕㄱ -4320
OU -4321
▁ㄹㅗㄱㅁㅐㄴ -4322
▁ㅎㅡㅌ -4323
▁ㄴㅗㅎㅊㅣ -4324
ale -4325
▁;&# -4326
▁ㄱㅝㄴㅈㅏㅇ -4327
▁OP -4328
▁ㄷㅗㅇㅅㅓㅇ -4329
▁ㅈㅏㄱㄴㅕㄴ -4330
▁ㅊㅏㅇㄱㅗ -4331
ㅂㅓㅂㅅㅗ -4332
VA -4333
▁ㄴㅘㅆ -4334
▁ㄱㅕㅂㅊㅣ -4335
▁ㅌㅗㅇㅊㅣ -4336
▁ㅇㅣㄹㄷㅐ -4337
▁ㅅㅣㅀㅇㅓ -4338
▁ㅁㅐㅅ -4339
▁ㅈㅓㄱㅈㅜㅇ -4340
▁ㅍㅕㅇㅈㅓㅁ -4341
▁ㅂㅜㄴㅁㅕㅇㅎㅣ -4342
▁ㅈㅣㄴㅈㅜ -4343
▁ㅎㅏㄴㅉㅗㄱ -4344
▁ㄱㅕㄹㅅㅣㅁ -4345
ㅈㅏㅁ -4346
▁RPG -4347
70 -4348
ach -4349
ㅈㅐㅇㅇㅣ -4350
▁ㅈㅓㅇㅎㅏ -4351
▁ㅈㅏㄹㄹㅏ -4352
▁ㅅㅣㄹㅈㅗㅇ -4353
▁ㄷㅗㅇㅈㅓㅁ -4354
▁ㄱㅘㄴㅎㅏㄹ -4355
▁ㅇㅕㄹㅁㅐ -4356
arg -4357
ㅇㅜㄴㅅㅓ -4358
▁1500 -4359
▁Sc -4360
▁ㅎㅏㄱㄱㅣ -4361
ook -4362
ㄹㅓㅎㅈㅣ -4363
▁ㅈㅜㄱㅇㅕㅆ -4364
▁ㅇㅛㅇㅇㅣㄴ -4365
▁ㅎㅡㄱㅇㅣㄴ -4366
▁ㅂㅗㄴㅈㅣㄴ -4367
▁ㅆㅏㄱ -4368
▁ㅈㅜㅇㅎㅕㅇ -4369
▁ㅇㅑㄱㅎㅘ -4370
▁ㄱㅕㄹㅎㅏㅂ -4371
▁ㄱㅕㄹㅌㅜ -4372
ows -4373
▁ㅂㅓㅂㅇㅣㄴ -4374
▁ㄱㅕㅇㅈㅣㄱ -4375
▁5000 -4376
▁ㅈㅓㅇㄱㅣ -4377
▁ㄹㅣㄹ -4378
▁ㅍㅏㅅ -4379
▁ㅅㅗㅁ -4380
▁111 -4381
orm -4382
▁ㅈㅏㅇㄱㅓ -4383
▁ㄱㅙㄴㅎㅣ -4384
▁ㅁㅏㄱㄴㅐ -4385
ㅃㅏㅇ -4386
▁ㅅㅐㅇㅁㅕㅇㅊㅔ -4387
▁ㄷㅡㅇㅈㅣ -4388
▁ㅎㅓㅇ -4389
▁ㅁㅣㄱㅅㅡ -4390
▁ㅇㅏㅁㅅㅏㄹㅈㅏ -4391
▁ㅂㅏㄹㄹㅔㄴ -4392
▁ㅅㅔㄴㅅㅡ -4393
ㅁㅏㄴㅎㅣ -4394
ish -4395
ky -4396
▁ㅇㅕㄴㅎㅏㅂㄱㅜㄴ -4397
▁Team -4398
▁ㅇㅏㄱㅁㅗㅇ -4399
▁ㅊㅓㄴㅇㅏㄴ -4400
▁KBO -4401
▁ㅇㅘㄴㄱㅕㄹ -4402
▁ㄱㅡㄴㅂㅗㄴ -4403
▁ㄷㅣㄱ -4404
▁}} -4405
▁ㅈㅓㅇㅊㅏ -4406
▁ㄱㅏㄹㅇㅏ -4407
▁ㅂㅕㄴㅎㅘㄴ -4408
ㄷㅗㅇㄹㅕㄱ -4409
▁ㅂㅜㄹㄱㅛ -4410
▁ㅂㅗㄴㅅㅏ -4411
▁ㅅㅗㄹㅈㅣㄱ -4412
▁BB -4413
▁ㄱㅏㄴㅈㅣ -4414
▁ㅇㅔㄴㄷㅡ -4415
ㅈㅏㄱㅇㅟ -4416
▁Go -4417
▁ㅅㅓㄴㄷㅜ -4418
▁ㅊㅣㅁㄹㅑㄱ -4419
ae -4420
▁ㅇㅕㄴㅅㅡㅂㅅㅐㅇ -4421
▁ㅊㅣㅁㅁㅜㄱ -4422
▁ㅂㅏㄱㅁㅜㄹㄱㅘㄴ -4423
▁ㅌㅗㅇㅎㅘ -4424
ㄹㅕㅇㅂㅜ -4425
GE -4426
▁ㅊㅣㅁㅇㅣㅂ -4427
ug -4428
▁ㅈㅏㅇㅇㅣㄴ -4429
Hz -4430
ade -4431
rom -4432
ㅇㅣㄹㅂㅗ -4433
▁ㅇㅗㄹㄹㅣㄹ -4434
▁ㄷㅗㅇㄱㅡㅂ -4435
ㅇㅏㅆ -4436
ㅍㅡㄹㄹㅓ -4437
ㅁㅣㅅ -4438
ㄷㅡㄴㅈㅣ -4439
▁ㄷㅗㄹㅇㅣㅂ -4440
ile -4441
▁ㅇㅡㅂ -4442
▁ㅌㅗㅇㄱㅖ -4443
▁ㅊㅐㄴ -4444
▁ㅁㅕㄴㅈㅓㄱ -4445
▁ㅍㅏㄴㄱㅕㄹ -4446
yle -4447
▁ㅇㅏㄴㄱㅐ -4448
▁FIFA -4449
▁ㅊㅏㅁㅁㅗ -4450
▁ㄱㅓㄴㄱㅏ -4451
▁ㅇㅕㅇㄱㅘㅇ -4452
ㅇㅟㅅ -4453
▁ㅇㅣㄹㅂㅗㄴㄱㅜㄴ -4454
▁ㅇㅣㅁㅍㅐㄱㅌㅡ -4455
▁ㅂㅓㅂㅈㅓㅇ -4456
ash -4457
ower -4458
irl -4459
ink -4460
▁ㅅㅣㄴㄴㅏ -4461
▁1986 -4462
▁ㅊㅓㄹㅅㅜ -4463
ㅂㅏㄴㄷㅗ -4464
▁ㅂㅓㅇ -4465
▁ㅆㅢ -4466
▁ㅊㅜㄹㄱㅜ -4467
ㄱㅘㄹ -4468
▁ㄱㅠㄴㅎㅕㅇ -4469
ㅌㅡㄹㄹㅓ -4470
▁ㅇㅓㄴㄷㅔ -4471
▁ㅇㅣㅁㅅㅣㄴ -4472
▁ㅇㅣㄴㅍㅣ -4473
▁ㄹㅣㅂ -4474
▁ㄱㅓㄹㄹㅕㅆ -4475
▁CH -4476
TS -4477
▁ㄱㅏㅁㅈㅣ -4478
▁CG -4479
ㅇㅡㄴㅎㅐㅇ -4480
▁ㅁㅜㄹㄱㅗ -4481
▁ㅎㅏㅇㅂㅗㄱ -4482
atch -4483
▁ㅁㅗㄹㄹㅣ -4484
▁ㅇㅣㄴㅈㅣㄹ -4485
▁ㅇㅣㄴㅈㅗㅇ -4486
▁ㅇㅣㄴㄹㅕㄱ -4487
▁ㅅㅣㄴㅂㅏㄹ -4488
▁ㄴㅗㄹㄹㅣ -4489
▁ㅆㅓㄴㄷㅓ -4490
▁FW -4491
▁ㄱㅕㄱㅊㅏ -4492
▁ㅁㅏㄱㅍㅏㄴ -4493
▁ㅅㅏㅂㅇㅣㅂ -4494
▁we -4495
ㄷㅣㄴㄱㅏ -4496
▁ㅂㅏㄴㅂㅏㄱ -4497
ㅅㅔㄴㅌㅡ -4498
▁ㅁㅏㅇㅎㅐㅆ -4499
▁ㅇㅣㄴㅂㅏㅇ -4500
ㄸㅏㄱ -4501
▁ㄴㅏㅁㅂㅜㄱ -4502
▁ㄷㅏㄴㅇㅝㄴ -4503
IM -4504
▁ㅍㅣㅇㅋㅡ -4505
▁ㅎㅏㅁㅂㅜ -4506
▁DD -4507
▁ㄱㅕㅇㄴㅏㅁ -4508
▁ㅊㅜㄹㄹㅜ -4509
ㅂㅏㄹㅈㅏ -4510
▁ㅃㅗㅂㅇㅏ -4511
ㅅㅡㄹㄹㅣㅇ -4512
▁ㅊㅏㅇㅇㅝㄴ -4513
▁ㄹㅐㅁ -4514
ial -4515
ㅋㅔㅅㅁㅗㄴㅅㅡ -4516
sh -4517
▁ㅈㅗㄴㄱㅕㅇ -4518
▁ㅂㅐㄱㅇㅣㄴ -4519
CG -4520
▁ㄱㅕㅂㅊㅕ -4521
▁ㅈㅓㄴㅅㅡㅇ -4522
▁ㄴㅏㅁㅁㅐ -4523
▁ㅌㅔㅅ -4524
ㄴㅣㄴㄷㅔ -4525
ㄲㅕㅆ -4526
▁ㅁㅗㅇㄱㅗㄹ -4527
ㅅㅓㅁ -4528
ㅅㅏㄴㅅㅣ -4529
▁ㅇㅕㅇㅇㅝㄴㅎㅣ -4530
ㅈㅓㄴㄱㅓ -4531
▁ㄱㅗㄹㄹㅔㅁ -4532
ㅁㅓㄴㅅㅡ -4533
▁ㅆㅗㄴ -4534
ㅈㅏㄹ -4535
ㄹㅜㄹ -4536
ㅁㅗㅁ -4537
▁ㅊㅐㄹㄹㅣㄴㅈㅣ -4538
ㅊㅜㅁ -4539
▁ㅇㅣㄴㅇㅛㅇ -4540
▁ㅂㅗㄱㅈㅔ -4541
▁ㄷㅗㅇㅇㅑㅇ -4542
▁ㅇㅣㄹㄷㅏㅇ -4543
▁ㄱㅣㅁㄱㅕㅇ -4544
ㄸㅜㄱ -4545
▁ID -4546
▁War -4547
▁ㅂㅗㄱㅅㅓㄴ -4548
ㄴㅡㄹㄴㅏㄹ -4549
▁ㅌㅣㅂ -4550
ㅇㅕㅆㅇㅡ -4551
▁ㄹㅠㄴ -4552
▁ㅇㅑㄴ -4553
▁ㄱㅜㄱㄷㅏㅇ -4554
▁ㅎㅏㄱㅅㅡㅂ -4555
▁ㄱㅏㅂㅈㅏㄱ -4556
ㅌㅠㅁ -4557
▁LA -4558
▁Star -4559
▁ㅁㅜㄹㄹㅑㅇ -4560
▁106 -4561
▁ㅈㅜㅇㅂㅗㄱ -4562
ㄹㅔㄹㄹㅏ -4563
▁ㄲㅡㅌㄴㅏㄴㄷㅏ -4564
▁up -4565
ㅎㅐㄱ -4566
▁ㅌㅏㅇ -4567
▁ㄷㅗㅇㅁㅕㅇ -4568
▁ㄴㅏㄹㅋㅏ -4569
▁ㅈㅡㄱㅅㅏ -4570
▁ㄱㅏㄴㄷㅏㄴㅎㅣ -4571
▁ㅅㅓㄴㅎㅐㅇ -4572
ㄱㅗㅂ -4573
ㄷㅗㅇㅈㅓㄴ -4574
ㅍㅣㄹㄷㅡ -4575
▁ㅅㅏㅇㄷㅏㅁ -4576
▁ㅊㅜㄱㅎㅏ -4577
ㄴㅢ -4578
▁ㅈㅏㅇㅅㅣㄴ -4579
▁ㅂㅜㄴㅇㅕㄹ -4580
▁ㅍㅜㄹㄹㅕ -4581
ㅌㅔㅂ -4582
▁ㅈㅓㅇㅌㅗㅇ -4583
▁ㅁㅗㅅㅈㅣ -4584
▁ㅌㅣㄹ -4585
▁ㄷㅗㅇㅇㅣㄴ -4586
▁ㅈㅏㅁㅇㅣㅂ -4587
▁ㅈㅜㅇㄹㅕㄱ -4588
ㅊㅓㄴㅅㅣ -4589
▁ㅎㅗㄴㄷㅗㄴ -4590
▁ㄴㅣㄱㄴㅔ -4591
▁DVD -4592
▁ㅂㅏㅇㅇㅟ -4593
▁ㄷㅡㄹㅇㅡ -4594
▁PR -4595
▁115 -4596
▁ㅍㅏㅇ -4597
▁ㅎㅏㅇㅇㅢ -4598
▁ㄱㅗㅇㅇㅓㅂ -4599
▁ㅈㅓㄴㅂㅜㄱ -4600
▁ㄲㅞ -4601
▁ㅎㅟㄹ -4602
▁ㅋㅘ -4603
▁ㅂㅏㄹㄹㅣ -4604
▁ㅅㅓㄴㅈㅔ -4605
▁ON -4606
▁ㅅㅡㅇㅁㅜ -4607
ㄲㅗㅂ -4608
▁ㅂㅜㄴㅎㅐ -4609
▁ㅂㅔㄹㅌㅡ -4610
▁ㅈㅣㄴㅇㅏㅂ -4611
▁ㄷㅏㄴㅎㅐㅇ -4612
▁102 -4613
▁ㄴㅔㄴ -4614
▁ㅇㅏㄱㄱㅣ -4615
ING -4616
▁ㅇㅔㄹㄹㅔ -4617
▁fe -4618
ous -4619
ㄷㅡㅅ -4620
▁ㅇㅣㅂㅈㅜ -4621
ㅋㅐㄴ -4622
▁For -4623
▁Ne -4624
▁ㅈㅏㅇㅌㅏㄴㅅㅜ -4625
▁And -4626
att -4627
▁ㅇㅏㄱㅎㅘ -4628
▁ㄷㅗㅁ -4629
amp -4630
▁ㅅㅓㅇㅈㅓㄴ -4631
▁ㄱㅜㅇㄱㅡㅁ -4632
▁ㅇㅡㄴㅈㅣ -4633
▁ㅋㅗㄴㅌㅔㄴㅊㅡ -4634
▁ㅇㅗㅇㅎㅗ -4635
▁ㄴㅣㅅ -4636
▁ㅂㅏㄺㅎㅣㄴ -4637
▁ㅌㅗㅇㄹㅗ -4638
▁}}} -4639
▁ㅈㅓㅇㅂㅏㄹ -4640
▁ㅂㅜㄴㅈㅐㅇ -4641
▁ㅈㅓㄴㅈㅔ -4642
▁ㅂㅏㄱㅈㅣ -4643
▁ㅅㅣㄴㅇㅣㅂ -4644
▁GP -4645
▁ㅊㅔㄹㅅㅣ -4646
▁ㅊㅓㄹㅎㅏㄱ -4647
▁175 -4648
▁ㅌㅏㅁㅈㅓㅇ -4649
▁Cr -4650
▁ㅊㅣㄴㄷㅏ -4651
▁188 -4652
▁ㄴㅗㄴㅇㅢ -4653
▁Wind -4654
ㅅㅏㅇㅇㅟ -4655
▁ㄲㅏㅁㅉㅏㄱ -4656
ㅎㅔㄴㅌㅣ -4657
▁ㅈㅔㄹㄹㅣ -4658
▁1985 -4659
▁ㄱㅣㅁㅅㅏㅇ -4660
▁ㅎㅐㅇㅂㅏㅇ -4661
▁ㅊㅣㄴㅎㅏㄴ -4662
ㅇㅓㅂㅈㅏ -4663
▁ㄱㅘㅇㅅㅓㄴ -4664
▁ㅁㅏㄴㅁㅏㄴ -4665
me -4666
ㄴㅓㄹㅌㅣ -4667
▁ㅂㅐㅇㅋㅡ -4668
▁ㅅㅏㄴㅎㅏ -4669
ㅈㅗㄹ -4670
▁bl -4671
▁ㅇㅑㅇㅅㅏㅇ -4672
▁ㅈㅣㄴㅎㅏㄱ -4673
AY -4674
▁ㅁㅏㄱㅎㅣ -4675
▁ㅈㅏㅇㅁㅣ -4676
▁ㅈㅡㅇㅍㅗㄱ -4677
ㅌㅔㄴㄷㅗ -4678
▁ㄴㅣㄴㅌㅔㄴㄷㅗ -4679
▁wid -4680
ms -4681
▁ㅇㅏㅅ -4682
▁ㄴㅡㄹㄹㅕ -4683
ㅋㅣㄱ -4684
▁ㄱㅏㅇㅇㅝㄴㄷㅗ -4685
ib -4686
64 -4687
▁ㄹㅗㅁ -4688
▁ㄱㅣㅁㅈㅣㄴ -4689
▁ㄷㅗㄱㅈㅐ -4690
▁ㄱㅘㄴㅈㅓㅁ -4691
▁ㄴㅏㄴㅅㅏ -4692
▁ㅍㅗㄱㅎㅐㅇ -4693
▁ㄱㅡㅁㅁㅔ -4694
ㅂㅓㄱ -4695
▁ㅂㅏㅇㅊㅣ -4696
▁al -4697
ㅂㅓㄹㄹㅔ -4698
ft -4699
▁ㅇㅓㅂㄱㅖ -4700
▁ㅊㅣㄴㅎㅐ -4701
▁ㄱㅓㅁㅅㅜㄹ -4702
ㄷㅗㄹㅇㅏ -4703
now -4704
▁ㅎㅏㄴㄷㅜ -4705
▁ㄱㅗㅇㅅㅜ -4706
▁ㅈㅓㄴㅍㅏ -4707
▁ㅈㅣㄹㅌㅜ -4708
ㅇㅝㄴㅈㅓㄴ -4709
▁350 -4710
▁ㅅㅣㄴㄷㅔ -4711
▁ㅈㅓㄴㅁㅜ -4712
▁width -4713
▁ㅌㅐㄱㅅㅣ -4714
▁ㄷㅏㅇㅅㅏ -4715
▁ㅈㅜㅇㅅㅔ -4716
▁ㅎㅜㄴㅈㅏㅇ -4717
ㅅㄱㅏ -4718
▁Gam -4719
ㅅㅡㅇㅂㅜ -4720
▁ㄷㅏㄴㄷㅏㄴ -4721
▁ㅂㅜㄹㄹㅑㅇ -4722
MP -4723
▁PP -4724
ps -4725
▁ㄴㅏㅁㅇㅏ -4726
▁ㅈㅜㄹㄹㅣ -4727
▁ㅊㅡㄱㅈㅓㅇ -4728
▁IN -4729
ㅌㅐㄴㄷㅡ -4730
▁ㅈㅜㅇㅈㅏㅇ -4731
▁ㅂㅏㅇㅅㅗㅇㄱㅜㄱ -4732
▁ㅁㅕㄴㅎㅓ -4733
▁BS -4734
▁ㅅㅗㄱㅎㅏㄴㄷㅏ -4735
ㅅㅓㅇㅇㅝㄴ -4736
▁ㄱㅏㅁㄷㅗㅇ -4737
▁ㅅㅣㄴㄷㅗ -4738
▁ㄱㅣㅁㄱㅣ -4739
▁ㄴㅡㄹㄹㅣ -4740
▁ㄴㅡㅇㄹㅕㄱㅈㅏ -4741
oll -4742
▁1984 -4743
ㅁㅏㄴㄷㅜ -4744
▁ㅇㅑㄱㅌㅏㄹ -4745
ㅍㅕㅇㅇㅑㅇ -4746
ㅂㅡㄹㄹㅗ -4747
ㅅㅏㅇㅅㅣㄱ -4748
TV -4749
▁ㅇㅔㄱㅅㅣ -4750
▁ㅁㅏㅌㄱㅣ -4751
pl -4752
▁BR -4753
▁Man -4754
▁ㅂㅏㄹㅁㅗㄱ -4755
12 -4756
ㄴㅡㅈ -4757
▁AKB -4758
▁ㄱㅏㅁㅅㅏㅇ -4759
▁ㅅㅏㄴㅌㅏㄴ -4760
▁ㄱㅜㄱㅍㅏㄴ -4761
▁ㅇㅗㄻㄱㅣ -4762
▁ㄹㅜㄱ -4763
ㅇㅟㅇ -4764
▁ㅇㅜㄴㅅㅜ -4765
ㅇㅏㄵ -4766
port -4767
ㅅㅣㄴㄱㅛ -4768
▁UN -4769
ㅂㅣㅅ -4770
▁All -4771
▁ㄴㅣㅇ -4772
▁ㄱㅘㅇㅈㅏㅇ -4773
▁ㅅㅣㅂㅅㅣ -4774
▁ㅇㅘㅇㅇㅟ -4775
ㅂㅓㄴㅇㅔ -4776
▁ㅅㅣㄱㅁㅣㄴㅈㅣ -4777
▁ㄱㅗㅇㅈㅓㅇ -4778
▁ㅅㅏㅇㄱㅘㄴㅇㅓㅄㅇㅣ -4779
▁ㅅㅑㅅㄱㅓㄴ -4780
ㅇㅛㅇㅎㅣ -4781
ㅇㅓㄴㅅㅡ -4782
▁ex -4783
▁ㅎㅕㄹㅇㅐㄱㅎㅕㅇ -4784
▁ㅇㅏㄹㄹㅏ -4785
ㄴㅗㄹ -4786
▁ㅂㅏㄴㅉㅏㄱ -4787
▁ㅇㅝㄴㄷㅓ -4788
▁ㄷㅓㄴㄱㅏ -4789
▁ㅊㅏㅇㄷㅏㄴ -4790
▁Part -4791
▁ㅊㅓㄹㄱㅝㄴ -4792
ㅅㅈㅣ -4793
▁ㅎㅏㄹㄹㅗ -4794
▁SU -4795
ㄱㅣㅅ -4796
▁112 -4797
ㅇㅣㄹㅈㅡ -4798
ㄱㅕㅇㄱㅣ -4799
ㄸㅜ -4800
▁KR -4801
ㅇㅜㄴㄹㅗ -4802
▁ㄱㅗㅇㅂㅐㄱ -4803
▁ㅌㅣㄴ -4804
▁ㅁㅕㅇㅇㅢ -4805
▁ㅇㅝㄴㄹㅣ -4806
▁En -4807
▁ㅂㅜㄴㄷㅏㅇ -4808
▁ㅂㅜㅁ -4809
▁ㄱㅏㄴㅎㅗ -4810
▁ㅇㅣㄹㅎㅘ -4811
▁ㅈㅏㅇㅅㅏ -4812
▁ㅎㅏㄴㄴㅏ -4813
ond -4814
▁ㄲㅡㄶㅇㅣㅁ -4815
▁ㅎㅑㅇㅎㅏㄴ -4816
▁ㅇㅕㄴㄱㅗ -4817
▁ㅃㅓㅇ -4818
▁ㅈㅣㄴㅇㅣ -4819
▁ㅊㅓㄹㄱㅓ -4820
▁ㅂㅐㄱㅈㅏㄱ -4821
▁DC -4822
▁ㄷㅗㄹㅇㅕㄴ -4823
ment -4824
▁ㅅㅣㄹㅈㅏㅇ -4825
▁LP -4826
▁ㅁㅗㄳ -4827
▁ㅈㅜㅇㅅㅣ -4828
▁ㅋㅐㅅ -4829
▁Sup -4830
ㅅㅔㄹㄹㅗ -4831
▁ㄱㅜㄺ -4832
▁ㅇㅞㄹ -4833
ㄹㅜㄴㄷㅏ -4834
ㅍㅣㄹㄷㅓ -4835
▁ㅈㅓㄹㅊㅏ -4836
▁ㅈㅜㄹㄱㅓ -4837
▁Mar -4838
▁Fate -4839
▁ㅈㅓㄴㅁㅏㅇ -4840
▁108 -4841
ase -4842
▁ㅁㅏㄱㅅㅏㅇ -4843
▁ㅂㅏㄴㅂㅜ -4844
▁ㄱㅏㅂㅈㅏㄱㅅㅡ -4845
▁ㅂㅕㄴㅎㅐ -4846
▁AN -4847
▁ㄱㅕㅇㅇㅏㄱ -4848
▁ㅊㅐㅇㄱㅣ -4849
ㄱㅡㄹㅅㅡ -4850
▁ㅇㅗㄴㅊㅓㄴ -4851
▁ㅎㅏㅂㅂㅕㅇ -4852
ㄹㅔㄹ -4853
▁ㅂㅐㄱㅎㅘ -4854
▁ㄴㅔㄹ -4855
▁ㅌㅡㄱㄱㅡㅂ -4856
▁ㄱㅘㄴㅎㅐ -4857
ㄷㅡㄹㅇㅓ -4858
▁ㄱㅣㄴㄱㅡㅂ -4859
ㅇㅗㄴㅈㅡ -4860
▁ㅇㅝㄴㅈㅗ -4861
ool -4862
ㅌㅟ -4863
▁ㅅㅣㄱㅍㅜㅁ -4864
▁ㅇㅣㄹㅇㅛ -4865
▁ㄱㅗㄹㅋㅣ -4866
▁ㅇㅣㄴㄱㅝㄴ -4867
▁ㅍㅕㅇㅇㅣㄹ -4868
▁360 -4869
▁ㄴㅏㄱㅎㅏ -4870
ㅇㅘㅆㅇㅡ -4871
▁117 -4872
▁ㅎㅏㅂㄱㅖ -4873
ㄱㅘㄱ -4874
▁ㅊㅓㅇㅇㅘ -4875
▁ㅅㅐㅇㅇㅐ -4876
▁ㄱㅓㄹㅈㅡ -4877
▁ㅅㅓㅇㄷㅏㅇ -4878
ㄹㅓㄴㅌㅡ -4879
▁ㅂㅏㄹㄱㅜㄹ -4880
▁ㅇㅗㄹㅅㅡ -4881
▁ㅂㅗㄱㅎㅏㅂ -4882
▁ㅅㅣㄹㅇㅡㄴ -4883
▁ㅋㅣㅅ -4884
▁ㅈㅣㄱㅈㅏㅇ -4885
▁ㅇㅏㄴㅇㅑㅇ -4886
▁ㅈㅡㅇㅅㅏㅇ -4887
▁ㅇㅣㅁㄱㅡㅁ -4888
▁One -4889
▁GO -4890
▁ㄱㅏㅇㄹㅣㅁ -4891
ph -4892
▁ㅍㅗㄱㅍㅏ -4893
ㅅㅇㅣ -4894
▁ㅁㅏㄴㅇㅣㄹ -4895
▁ㅎㅘㄱㅈㅏㅇㅍㅐㄱ -4896
ㄷㅗㄹㅇㅣ -4897
▁ㄷㅏㄹㅎㅏ -4898
ㄹㅣㄴㅅㅔ -4899
▁ㄱㅗㅇㅇㅣㄴ -4900
▁ㅈㅏㅁㅅㅣㄹ -4901
▁ㄱㅜㄱㄱㅕㅇ -4902
▁ㄲㅘㄱ -4903
▁ㄷㅏㅇㄷㅏㅇ -4904
ree -4905
▁Oh -4906
▁ㄱㅡㄱㅎㅏㄴ -4907
▁ㅊㅐㅁ -4908
▁ㅁㅕㅇㅂㅐㄱ -4909
▁ㅌㅡㄱㅂㅕㄹㅎㅣ -4910
▁ㅌㅗㅇㅌㅡㄹ -4911
▁ㅇㅕㄱㅅㅡㅂ -4912
▁ㅅㅓㄴㅅㅏ -4913
ㅋㅗㄹㄹㅣ -4914
▁ㅎㅔㄴㄹㅣ -4915
▁ㅎㅏㄱㅅㅐㅇㅎㅚ -4916
▁ㅇㅑㅇㅈㅏ -4917
ㄷㅡㄹㄱㅕ -4918
▁As -4919
▁ㄱㅡㄱㄷㅗ -4920
▁ㅇㅓㅍ -4921
▁New -4922
▁ㄱㅗㅂ -4923
ㅋㅔㄹ -4924
▁ㅆㅡㄹㄷㅔ -4925
ason -4926
ㄹㅣㄹㄹㅏ -4927
▁FM -4928
ㅂㅜㄹㅁㅕㅇ -4929
▁ㄱㅘㄴㅊㅏㄹ -4930
▁ㄸㅡㄴㄱㅡㅁㅇㅓㅄㅇㅣ -4931
▁103 -4932
ai -4933
aby -4934
▁ㄹㅔㄴㅈㅡ -4935
▁ㅅㅓㅇㅈㅣㄹ -4936
▁ㅁㅏㄹㅆ -4937
ㅂㅜㄹㅎㅗ -4938
▁ㅅㅜㄹㅅㅏ -4939
ㅈㅜㅁ -4940
▁ㅅㅣㄹㅈㅗㄴ -4941
▁ㅇㅑㅇㅅㅗㄴ -4942
▁ㅎㅢㄴㅅㅐㄱ -4943
▁ㅇㅏㄹㅂㅏ -4944
▁1960 -4945
▁ㄷㅗㅇㄱㅕㅇ -4946
▁ㅎㅡㄴㄷㅡㄹㄹㅣ -4947
▁ㅈㅏㅇㄹㅗ -4948
ㅂㅔㅅ -4949
▁220 -4950
ㅈㅝ -4951
▁ㄱㅏㄱㅇㅗ -4952
▁CS -4953
▁JP -4954
▁ㅁㅜㄹㅍㅜㅁ -4955
▁ㄱㅕㄹㄱㅖ -4956
▁ㄴㅣㄹ -4957
▁ㅇㅟㄴㄷㅗ -4958
▁un -4959
▁ㅎㅏㅇㄱㅜ -4960
▁ㅅㅑㅂ -4961
▁ㅅㅗㄴㅅㅏㅇ -4962
ㅅㄷㅐ -4963
▁ㅅㅣㅁㅇㅢ -4964
▁ㅇㅟㄴㄷㅡ -4965
▁ㅇㅕㄴㅂㅗㅇ -4966
▁z -4967
▁UE -4968
▁240 -4969
▁ㅂㅓㅂㅊㅣㄱ -4970
▁ㄱㅜㄱㅈㅓㅇ -4971
▁ㅇㅝㄴㄱㅗㄱ -4972
▁tv -4973
oon -4974
▁ㅍㅜㅅ -4975
▁ㅈㅣㄴㄱㅕㄱ -4976
▁ㅅㅗㄴㅅㅣㄹ -4977
▁ㄷㅏㅁㄱㅣㄴ -4978
▁128 -4979
90 -4980
▁ㅈㅓㅇㅂㅏㄴ -4981
ㅅㅣㅇㅌㅓㄴ -4982
▁ㄴㅡㄺ -4983
▁ㄱㅣㅁㅇㅛㅇ -4984
▁ㅎㅗㄹㄷㅡ -4985
MS -4986
▁ㄱㅓㄴㄱㅜㄱ -4987
▁ㄴㅏㄹㄸㅟ -4988
▁ㄱㅜㄱㅈㅏㅇ -4989
▁ㄱㅘㅇㅅㅏㄴ -4990
▁ㅅㅣㄴㅅㅓㄴ -4991
▁ㅅㅏㄴㄷㅏ -4992
▁ㅁㅐㄱㅈㅜ -4993
▁ㅇㅕㅇㅈㅣ -4994
act -4995
ㄷㅜㄹㄹㅓ -4996
▁ㅈㅡㄱㅇㅟ -4997
ㄱㅏㄹㄹㅑㅇ -4998
ox -4999
ㄲㅣㄴ -5000
ㅇㅏㅍ -5001
▁ㅇㅣㅁㄱㅣ -5002
▁ㅇㅓㅁㅁㅣㄹ -5003
▁ㅍㅕ -5004
▁ㅈㅣㅁㅅㅡㅇ -5005
▁ㅁㅓㄱㅎㅣ -5006
▁ㅈㅏㅇㅍㅏㄴ -5007
▁ㅈㅜㅇㅅㅜㄴ -5008
▁ㄷㅗㄷㅂㅗ -5009
hen -5010
▁ㅋㅡㄹㄹㅗㄴ -5011
▁ㄷㅏㄴㄱㅣ -5012
▁ㅂㅏㄴㄱㅏㅁ -5013
ARD -5014
▁ㅎㅏㅂㄹㅣ -5015
▁ㅅㅐㅇㄱㅣㄹ -5016
▁ㅌㅏㅁㅈㅣ -5017
▁ㅇㅏㄴㅅㅣㅁ -5018
▁go -5019
▁ㄱㅏㄴㅈㅜ -5020
▁TVA -5021
▁ㅇㅣㄹㄹㅣ -5022
▁ㅋㅜㄴ -5023
▁%/ -5024
ㅂㅗㄴㄷㅏ -5025
▁ㅇㅏㄹㄹㅔㄱㅅㅡ -5026
▁ㄷㅗㄱㅈㅓㅁ -5027
ank -5028
▁ㅂㅐㄱㅈㅔ -5029
ㄱㅜㄱㅇㅓ -5030
▁ㄷㅏㅇㄷㅐ -5031
▁ㅎㅐㅅ -5032
▁ㄱㅘㄴㅌㅗㅇㄹㅕㄱ -5033
▁ㅈㅏㅇㄴㅏㄴㄱㅏㅁ -5034
▁ㄷㅏㄴㄱㅓㅁ -5035
▁ㅂㅏㅇㅌㅏㄴ -5036
▁ㅅㅣㄴㅇㅛㅇ -5037
ㅂㅡㄹㄹㅣ -5038
▁ㅅㅏㅇㄹㅠㄱ -5039
ich -5040
▁ㅅㅐㅇㅈㅓㄴ -5041
ㄴㅛ -5042
ㄸㅓㄱ -5043
▁ㅂㅔㄴㅊㅣ -5044
▁ㄱㅣㅁㅈㅜㄴ -5045
▁ㅋㅗㅁㅂㅣ -5046
▁World -5047
▁1982 -5048
▁ㄴㅏㄹㅆㅣ -5049
▁ㅅㅣㄴㅈㅏ -5050
▁ㅌㅗㄹ -5051
▁JT -5052
▁ㄷㅏㄴㅈㅗㅇ -5053
ear -5054
ㄷㅝㅆ -5055
▁ㅌㅡㄹㅇㅓ -5056
▁ㅎㅏㄹㄲㅏ -5057
▁ㅌㅏㅁㅎㅓㅁ -5058
ife -5059
ㅇㅓㄴㅅㅣㅂ -5060
ary -5061
lect -5062
▁Mk -5063
▁ㅅㅣㄴㅅㅗㄱ -5064
▁ㅈㅓㄱㅅㅣ -5065
▁ㅅㅗㄴㅇㅗ -5066
▁ㅇㅡㅁㄹㅛ -5067
▁ㅅㅓㄴㅇㅣㅁ -5068
▁ㄱㅝㄴㅇㅠ -5069
ㄹㅏㄴㅎㅣ -5070
ㄹㅕㅆㅇㅡ -5071
▁ㅂㅕㄴㅅㅜ -5072
▁ㄷㅗㄱㅇㅣㄹㄱㅜㄴ -5073
▁ㄱㅏㅍ -5074
▁ㅅㅔㄴㅅㅓ -5075
▁ㅂㅏㅇㅅㅗㅇㅅㅏ -5076
▁ㄷㅗㅇㅎㅐ -5077
▁ㄱㅡㄴㅇㅝㄴ -5078
▁ㄱㅝㄴㅇㅟ -5079
▁ㅅㅜㄴㅇㅑㅇㅎㅏㅁ -5080
▁ㄹㅔㄹ -5081
▁ㅁㅏㄱㄱㅏㅇ -5082
ㅈㅗㅇㅅㅏ -5083
▁ㅌㅟㅇㄱㅕ -5084
▁ㅅㅡㄹㄹㅓ -5085
▁ㅅㅣㄹㄴㅐ -5086
▁ㄱㅓㄴㄴㅔ -5087
▁ㄸㅡㄴㄷㅏ -5088
uk -5089
AP -5090
▁all -5091
▁ㅅㅏㅇㅅㅏ -5092
ㅁㅠㄹㄹㅔ -5093
ㄴㅡㄴㄷㅔ -5094
▁ㄱㅕㅇㅎㅗ -5095
ET -5096
▁LIVE -5097
▁ㅇㅑㄱㅁㅜㄹ -5098
▁ㄲㅡㅀ -5099
▁ㅈㅓㄴㅅㅐㅇ -5100
way -5101
▁SF -5102
▁ㅈㅣㅁㅈㅏㄱ -5103
▁ㅆㅏㄹ -5104
▁ㄱㅕㄹㅈㅔ -5105
▁ㅈㅓㄴㄴㅏㅁ -5106
▁ㄷㅚㄹㅈㅣ -5107
▁ㅌㅐㅂ -5108
▁ㅇㅓㄺ -5109
▁ㅎㅜㅁㅊㅕ -5110
▁ㅎㅡㅂㅅㅏ -5111
ple -5112
▁185 -5113
▁ㄱㅡㄱㅎㅣ -5114
▁ㅊㅣㅁㄷㅐ -5115
▁Day -5116
▁ㅇㅕㅂ -5117
▁ㄱㅣㅁㅎㅐ -5118
▁ㄱㅡㄴㅈㅓㅂㅈㅓㄴ -5119
▁Fr -5120
▁1983 -5121
▁ㄴㅗㄴㅈㅐㅇ -5122
▁ㅅㅓㄹㄹㅕㅇ -5123
ㅋㅗㄹㄹㅏ -5124
▁ㅈㅜㅁ -5125
▁ㅈㅣㄴㅅㅏㅇ -5126
▁ㅈㅓㅇㅅㅓㄱ -5127
▁ㄴㅏㄱㅅㅓㄴ -5128
▁ㄱㅏㅁㅅㅜ -5129
▁ㅇㅏㅆㅇㅓㅆ -5130
▁ㄱㅕㅇㅂㅜㄱ -5131
▁ㅎㅡㄴㅎㅏㄴ -5132
▁ㄱㅏㅇㅅㅏ -5133
▁ㄱㅏㅈㅊㅝ -5134
▁ㄷㅗㅇㅅㅗㄱ -5135
ㅂㅏㅌ -5136
▁are -5137
▁ㄱㅏㅁㅆㅏ -5138
ㅅㅑㅅ -5139
▁ㅎㅏㅂㄷㅗㅇ -5140
▁ㅊㅏㅇㅅㅓㄹ -5141
▁ㄱㅏㄴㄱㅏㄴㅎㅣ -5142
▁119 -5143
▁ㅁㅜㄹㅊㅔ -5144
▁ㅇㅕㄱㅇㅣㅁ -5145
ype -5146
ens -5147
▁do -5148
▁nd -5149
▁DPS -5150
▁ㅈㅣㅂㄱㅝㄴ -5151
▁ㄴㅏㅇㅂㅣ -5152
▁ㅅㅓㅇㅂㅐ -5153
▁ㅇㅝㄴㅎㅕㅇ -5154
▁ㅁㅏㅈㅊㅜㄴ -5155
▁lv -5156
ㄷㅓㄴㅈㅣ -5157
▁{{{# -5158
▁ㄹㅔㄱㅅㅡ -5159
▁ㅈㅓㄴㄴㅏㄹ -5160
▁ㅅㅓㄴㅈㅏㅇ -5161
▁ㅇㅔㄴㅌㅡ -5162
▁ㅈㅓㄱㅈㅏ -5163
aster -5164
▁ㅂㅓㅁㅇㅛㅇ -5165
▁MB -5166
▁ㅂㅣㄹㄷㅣㅇ -5167
orn -5168
ork -5169
▁ㅈㅓㅇㄱㅛ -5170
▁ㅁㅕㅇㅁㅗㄱ -5171
▁ㅌㅡㄴㅌㅡㄴ -5172
ㅈㅣㄱㅇㅝㄴ -5173
▁ㄱㅜㄹㄹㅓ -5174
▁ㅌㅡㄱㄱㅗㅇ -5175
▁ㄱㅕㄴㄷㅣ -5176
▁ㅊㅜㄹㅎㅕㄹ -5177
▁ㅍㅕㄹㅊㅕㅆ -5178
▁123 -5179
▁ㅇㅓㅁㄱㅕㄱ -5180
▁ㄷㅗㅇㄴㅏㅁ -5181
▁104 -5182
▁ㄱㅗㅇㄱㅏㅁ -5183
▁ㅂㅕㄴㅌㅐ -5184
ㅅㅓㄴㄷㅏ -5185
▁ㅎㅏㄴㅂㅏㄴㄷㅗ -5186
▁ㅅㅏㅁㄱㅏㄱ -5187
▁ㅋㅗㄴㅅㅗㄹ -5188
▁ㅍㅜㄴ -5189
11 -5190
ㅇㅐㄴ -5191
ㅂㅗㄴㄱㅣ -5192
▁ㅈㅣㄹㅂㅕㅇ -5193
▁ㅅㅐㅇㅊㅔ -5194
▁ㅎㅔㄹㄹㅣ -5195
▁ㄸㅐㅇ -5196
▁ㅈㅣㄹㅈㅜ -5197
ans -5198
▁DP -5199
▁Ad -5200
▁Up -5201
▁ㅋㅟㄱ -5202
▁Wi -5203
▁109 -5204
▁ㄱㅏㅇㄹㅕㄹ -5205
▁ㅂㅗㄱㅇㅝㄴ -5206
ons -5207
▁ㅈㅓㅈ -5208
▁ㄷㅗㅇㅎㅐㅇ -5209
▁ㄱㅘㄴㅊㅡㄱ -5210
▁ㅇㅑㅇㅂㅏㄴ -5211
▁Sw -5212
ㄹㅗㄱㅅㅐㄱ -5213
▁ㅅㅣㄹㅅㅏㅇ -5214
▁AA -5215
▁ㅁㅜㄹㅇㅓ -5216
▁ㅈㅣㄱㅅㅓㄴ -5217
▁ㅃㅏㄹㄱㅏㄴㅅㅐㄱ -5218
▁ㄱㅗㅇㄷㅐ -5219
▁OVA -5220
▁ㅌㅏㅁㅅㅐㄱ -5221
▁ㄷㅏㄴㅎㅐㅇㅂㅗㄴ -5222
▁style -5223
▁ㅂㅗㄴㅌㅗ -5224
▁ㅌㅡㄱㅂㅕㄹㅅㅣ -5225
ey -5226
▁ㅂㅜㄹㅎㅐㅇ -5227
▁ㅈㅣㄴㄱㅡㅂ -5228
▁KOF -5229
▁ㅉㅑㅇ -5230
▁ㅇㅑㄱㅈㅏ -5231
▁ㅈㅓㄴㄹㅏㄱ -5232
▁ㅇㅣㄴㅈㅏ -5233
▁ㅈㅜㅇㅅㅏㅇ -5234
very -5235
▁sp -5236
▁ㄱㅘㄴㅇㅕ -5237
▁ㅅㅓㄴㅈㅗ -5238
▁ㄱㅘㅇㄱㅣ -5239
▁ㅇㅔㄴㅈㅣ -5240
ㅎㅡㄴ -5241
▁ㅇㅕㄴㅅㅙ -5242
▁ES -5243
▁ㅇㅣㅇㅇㅕ -5244
▁ㅈㅡㄹㄱㅕ -5245
NA -5246
ex -5247
ung -5248
ㅈㅏㄱㅇㅛㅇ -5249
▁ㄱㅜㄱㅁㅜ -5250
▁ㅊㅗㅇㅎㅏㅂ -5251
ㅌㅗㄹ -5252
▁ㅂㅗㄴㄱㅘㄴ -5253
▁III -5254
ㄱㅗㅇㅎㅏㅇ -5255
▁ㅊㅣㄴㅈㅓㄹ -5256
▁ㄸㅏㅇㅂㅗㄹ -5257
▁ㄴㅗㄴㅁㅜㄴ -5258
▁ㅎㅏㄴㅊㅏㅇ -5259
▁ㅈㅏㅇㅅㅓㅇ -5260
▁ㅇㅣㄴㅈㅐ -5261
▁ㅂㅐㄱㅇㅓㅂ -5262
▁ㄱㅜㄴㅅㅜ -5263
▁ㅆㅏㄴ -5264
ㅂㅏㄱㅅㅡ -5265
▁ㅊㅗㄱㅅㅜ -5266
▁ㅈㅓㄴㄱㅕㄱ -5267
▁ㄱㅡㄺ -5268
▁UEFA -5269
ㅍㅗㄹ -5270
▁ㄴㅟ -5271
▁ㅊㅣㄴㅎㅏ -5272
▁ㅇㅗㅁ -5273
ㅍㅗㄹㄹㅣ -5274
▁ㄷㅏㄴㅂㅏㄹ -5275
▁ㅁㅕㅇㅁㅜㄴ -5276
▁ㅊㅜㄱㅅㅗ -5277
▁ㅇㅡㄹㅅㅜ -5278
EM -5279
▁ㅇㅡㅇㅇㅛㅇ -5280
ㄴㅡㅇㄹㅕㄱ -5281
▁ㅈㅜㅇㅈㅣ -5282
▁ㅂㅓㄱ -5283
ㅅㅏㅇㅅㅣ -5284
▁ㅉㅗㅈ -5285
▁ㅈㅜㅇㄱㅗ -5286
▁ㅎㅕㅇㅍㅕㄴ -5287
ㄹㅡㄹㄹㅗ -5288
▁ㅂㅏㄱㅅㅏㄹㄴㅐ -5289
▁ㅅㅓㅇㅅㅣㄹ -5290
ㅇㅟㄴㅅㅡ -5291
▁ㅂㅕㄴㄷㅗㅇ -5292
▁RA -5293
▁ㅉㅡ -5294
▁!" -5295
▁ㄱㅏㅇㅎㅗ -5296
ll -5297
▁ㅂㅜㄹㄹㅕㅆ -5298
▁ㅇㅏㄴㅉㅗㄱ -5299
▁ㅇㅕㄱㄹㅑㅇ -5300
anc -5301
▁as -5302
▁ㅎㅘㄱㅅㅏㄴ -5303
ㅋㅝ -5304
▁ㄷㅏㄹㅇㅏ -5305
▁ㅊㅏㅇㅁㅜㄴ -5306
▁ㅈㅣㅌ -5307
AK -5308
▁ㅅㅏㅇㅈㅜ -5309
ㅅㅡㄹㄹㅏ -5310
▁ㅉㅗㅊㄱㅕ -5311
▁ㅈㅣㅇㅇㅕㄱ -5312
▁ㄱㅔㅁ -5313
ㅁㅏㅇㅈㅜ -5314
▁Windows -5315
▁ㅇㅝㄴㅍㅣ -5316
ㄴㅠㅁ -5317
▁ㅍㅡㄹㄹㅣ -5318
ㅋㅗㄹㄹㅣㅅ -5319
▁ㅇㅕㄱㅁㅕㅇ -5320
▁ㅅㅏㄴㅌㅏ -5321
▁ㅆㅓㅁ -5322
▁ㅂㅣㄴㄷㅗ -5323
▁ㄱㅣㅅㅂㅏㄹ -5324
▁no -5325
▁ㄱㅗㅇㅌㅗㅇㅈㅓㅁ -5326
▁ㄱㅏㅇㄷㅡㅇ -5327
ㅅㅏㄴㅇㅕㄱ -5328
▁en -5329
▁ㅊㅓㄴㅇㅕㄴ -5330
ㅅㅝ -5331
▁ㅂㅜㄹㅆㅏㅇ -5332
▁ㅇㅗㄴㄷㅗ -5333
▁ㄱㅕㅇㅅㅏㅇㅂㅜㄱㄷㅗ -5334
▁ㄱㅜㄹㅇㅛㄱ -5335
▁ㄹㅏㄴㅅㅡ -5336
ㅊㅣㅅ -5337
▁ㅂㅜㄴㅅㅏㄴ -5338
▁ㅎㅣㅂㅎㅏㅂ -5339
▁ㅇㅗㄹㄷㅡ -5340
▁ㅇㅓㄹㄹㅏ -5341
▁ㅅㅡㅇㅊㅏ -5342
▁ㅂㅗㅇㅅㅙ -5343
▁ㄴㅗㅇㅈㅏㅇ -5344
ero -5345
ㅁㅏㄱㅈㅣ -5346
argin -5347
35 -5348
▁ㅇㅝㄴㅎㅏㄴ -5349
▁ㅌㅗㅇㅊㅣㅇ -5350
ㅍㅡㄹㄹㅣㅇ -5351
▁ㅈㅓㄴㄷㅏㅇ -5352
▁ㄱㅘㄴㅇㅜ -5353
ㄱㅗㄴㅂㅗㄹ -5354
▁ㄷㅗㅇㅂㅏㄴ -5355
▁ㅈㅔㅁ -5356
▁ㄲㅓㅂ -5357
▁ㅊㅣㅇㅎㅏ -5358
▁187 -5359
oss -5360
▁ㅂㅏㄹㅍㅏㄴ -5361
▁ㅋㅡㄹㄹㅣㄴ -5362
▁Ph -5363
▁So -5364
▁ㅈㅜㅇㄱㅓ -5365
ㄷㅝ -5366
▁Qu -5367
▁LO -5368
▁ㅅㅓㅇㅆㅣ -5369
ㄴㅓㄴ -5370
ㅂㅔㄴㅊㅓ -5371
▁Station -5372
▁ㅂㅏㄹㅋㅣ -5373
▁ㅂㅏㄹㅎㅐㅇ -5374
▁ㄷㅔㄴㅁㅏ -5375
▁ㅊㅓㄴㅊㅓㄴ -5376
▁ㅊㅐㅁㅍㅡ -5377
ㅂㅜㅌㅇㅣ -5378
▁ㅅㅗㄴㄴㅣㅁ -5379
▁ㅇㅝㄴㅅㅣ -5380
▁margin -5381
▁ㅈㅣㄴㅇㅔ -5382
▁ㄱㅕㄹㅎㅗㄴㅅㅣㄱ -5383
▁ㅎㅡㄴㅎㅏ -5384
▁ㄱㅗㅇㅅㅏㄴㄷㅏㅇ -5385
▁ㅈㅏㄴㅇㅣㄴ -5386
▁ㄱㅡㅂㅎㅐㅇ -5387
▁ML -5388
▁ㅂㅣㅇㅍㅏㄴ -5389
▁135 -5390
99 -5391
▁ㅁㅓㅇㅊㅓㅇ -5392
▁ㄱㅗㅇㄷㅏㄴ -5393
▁ㄱㅏㅇㄱㅏㄴ -5394
▁ㅌㅗㄱ -5395
pt -5396
▁ㅂㅕㄴㅇㅣ -5397
▁ㅅㅙ -5398
▁ㅍㅗㄱㅅㅡ -5399
▁ㅍㅕㅇㅇㅑㅇ -5400
▁210 -5401
ㅈㅓㄴㅅㅏ -5402
▁121 -5403
▁ㅊㅣㅁㅌㅜ -5404
▁ㅅㅣㄴㅈㅜㅇ -5405
▁ㅎㅘㅇㅎㅜ -5406
▁ㅅㅗㄴㄲㅗㅂ -5407
ise -5408
▁ㅁㅓㅁㅊㅝ -5409
▁ㄱㅓㄴㄷㅔ -5410
▁ㄹㅟ -5411
▁ㄱㅓㅁㅇㅕㄹ -5412
▁ㅌㅓㄹㄹㅣ -5413
▁ㄹㅔㅁ -5414
ㅇㅣㄱㅅㅜ -5415
▁ㅋㅜㅇ -5416
▁ㅇㅣㄴㄱㅘ -5417
ical -5418
▁ㄱㅕㅇㅇㅕㄴ -5419
ㄹㅠㅁ -5420
▁107 -5421
▁ㅅㅓㄴㅊㅜㄹ -5422
ㅈㅠ -5423
▁ㅁㅗㄱㄱㅓㄹㅇㅣ -5424
▁ㅊㅓㄴㅊㅓㄴㅎㅣ -5425
▁ㅌㅡㄱㅎㅜㄴ -5426
ㄱㅝㄹ -5427
▁Ver -5428
ㄴㅎㅔㄴ -5429
▁ㄱㅏㅇㅁㅣㄴ -5430
▁ㄴㅏㄴㅁㅜ -5431
▁ㄱㅣㅁㅅㅜ -5432
▁ㅇㅚㄴㅅㅗㄴ -5433
▁ㅇㅕㄹㅎㅕㄹ -5434
▁1981 -5435
▁-- -5436
▁ㄲㅡㄶㅇㅣㅁㅇㅓㅄㅇㅣ -5437
▁ㄱㅏㅇㄱㅕㅇ -5438
▁ㄱㅜㄹㄹㅣ -5439
▁ㅅㅣㄴㄷㅗㅇ -5440
ㅇㅣㄴㅂㅗ -5441
▁ㅇㅣㄹㄲㅏ -5442
▁ㅅㅓㄲㅇㅕ -5443
▁MG -5444
▁ㅂㅜㄹㅌㅐ -5445
▁ㅇㅣㄴㅊㅣㅇ -5446
ㄴㅣㄹㄲㅏ -5447
▁ㄱㅏㅁㅌㅏㄴ -5448
▁ㄱㅘㅇㅁㅜㄹ -5449
▁ㅁㅕㅇㅂㅜㄴ -5450
ㅁㅔㅅ -5451
▁ㅊㅏㄱㅎㅏㄴ -5452
▁pl -5453
▁ㄷㅏㅂㄷㅏㅂ -5454
▁ㅁㅏㅈㅂㅜㅌ -5455
▁ㄷㅓㅅㅂㅜㅌㅇㅕ -5456
▁ㄱㅣㅁㅈㅣ -5457
ign -5458
▁ㅈㅓㅁㄱㅓㅁ -5459
▁ㅎㅕㄹㅌㅗㅇ -5460
▁ㅇㅏㅂㄱㅝㄴ -5461
ㄷㅡㄹㄹㅣ -5462
▁ㅉㅗㄹ -5463
▁ㅎㅏㅇㄱㅗㅇㅁㅗ -5464
gh -5465
▁ㅎㅓㅇㄱㅏ -5466
ㅁㅣㄴㅈㅜ -5467
▁ㅊㅓㅅㅉㅐ -5468
▁ㅅㅓㄴㅈㅣㄴ -5469
▁ㄴㅐㅇㅈㅓㅇ -5470
ㄷㅔㄹㄹㅣㅇ -5471
▁ㄱㅕㅇㅊㅏㄹㅅㅓ -5472
▁ㅇㅓㅁㅇㅕㄴㅎㅣ -5473
▁love -5474
▁ㅊㅔㄴ -5475
▁ㅈㅓㅁㅇㅠ -5476
▁ㄱㅣㅁㅅㅡㅇ -5477
▁EC -5478
ㄴㅏㄴㅎㅣ -5479
▁ㅊㅜㄹㄱㅏㄴ -5480
▁ㅊㅓㄹㄱㅏㅂ -5481
▁ㅍㅕㅇㄹㅗㄴ -5482
▁ㄱㅗㅇㄱㅕㄱㅅㅜ -5483
▁ㅂㅗㄱㅅㅏ -5484
▁ㅎㅔㅅㄱㅏㄹ -5485
▁ㅎㅡㄺ -5486
▁ㅇㅛㅇㅈㅏ -5487
ㅅㅔㄴㅅㅡ -5488
ㅂㅅㅣ -5489
▁ㅈㅜㅇㅇㅟ -5490
▁ㅇㅣㅁㅇㅢ -5491
IR -5492
▁ㅁㅏㅇㅌㅗ -5493
▁TR -5494
▁ㅁㅐㅇㅅㅔ -5495
▁ㅅㅗㄴㅅㅟㅂ -5496
▁ㅍㅗㄱㄱㅕㄱㄱㅣ -5497
ail -5498
▁ㅍㅡㄹㄹㅐㄴ -5499
urn -5500
▁ㅊㅣㄴㅂㅜㄴ -5501
▁ㅈㅏㅇㅌㅏ -5502
▁ㅈㅜㅇㄷㅗㅇ -5503
▁math -5504
▁ㅋㅗㄴㅅㅡ -5505
ㄸㅣ -5506
▁Sk -5507
ㅅㅣㄹㅈㅓㅁ -5508
▁ㅂㅗㄴㄴㅡㅇ -5509
▁ㅇㅗㄹㅂㅏ -5510
▁ㅍㅜㅇㅂㅜ -5511
▁ㅇㅕㄹㅈㅓㅇ -5512
▁ㅈㅣㄹㅅㅓ -5513
▁186 -5514
▁ㅅㅣㄹㅅㅏ -5515
▁ㅂㅓㄹㅇㅕㅆ -5516
▁ㅂㅜㅅ -5517
▁JTBC -5518
▁ㄴㅏㅂㄷㅡㄱ -5519
ㅊㅐㄱㄱㅏㅁ -5520
ence -5521
▁ㅇㅕㅇㄱㅏㅁ -5522
▁ㅅㅟㄹㄷㅡ -5523
▁ㅅㅏㅇㅁㅜ -5524
▁ㄷㅗㅇㅈㅓㅇ -5525
▁ㄱㅜㄴㅇㅛ -5526
▁To -5527
▁ㅎㅏㄹㄹㅣ -5528
▁ㅂㅜㄹㄴㅡㅇ -5529
ㅊㅔㄹ -5530
▁ㄹㅗㄹㄹㅓ -5531
▁=" -5532
VER -5533
ㅌㅡㄹㄹㅐㄴㄷㅡ -5534
▁Super -5535
▁ㅂㅕㄴㅈㅏㅇ -5536
▁ㄲㅗㅂㅎㅣ -5537
ㅍㅗㄴㅅㅓ -5538
▁122 -5539
ㄹㅏㄴㅅㅣ -5540
▁ㄱㅗㅇㅅㅗㄱ -5541
▁ㄱㅘㅇㄱㅕㅇ -5542
▁ㅊㅏㄴㅅㅓㅇ -5543
▁ㅇㅝㅁ -5544
▁ㅈㅓㅇㅅㅣㄴㄹㅕㄱ -5545
▁BJ -5546
▁ㅈㅏㄱㅈㅓㅇ -5547
▁ㄱㅘㅇㅁㅕㅇ -5548
▁ㅎㅘㄱㅅㅣㄴ -5549
▁ㅂㅓㅇㅋㅓ -5550
▁ㅁㅓㅅㄷㅐ -5551
▁ㅇㅣㅈㅎㅕ -5552
▁Dream -5553
ㄲㅝㅆ -5554
▁ㄱㅓㅁㅈㅓㅇ -5555
▁ㅇㅜㅁㅈㅣㄱㅇㅣㄹ -5556
▁ㄱㅡㄴㄷㅐ -5557
▁ㄷㅏㅅ -5558
▁ㅇㅣㄹㄱㅏ -5559
▁ㅇㅕㄴㅅㅏㄴ -5560
▁ㄱㅣㅁㅇㅠ -5561
▁ㅂㅏㄱㅅㅜ -5562
▁ㅇㅣㄴㅂㅔㄴ -5563
▁ㅅㅏㅁㅅㅓㅇㅈㅓㄴㅈㅏ -5564
▁ㅁㅗㅁㅌㅗㅇ -5565
▁ㅅㅔㄱ -5566
▁ㄷㅏㄲ -5567
▁ㅈㅜㅇㅈㅓㅁ -5568
▁ㄱㅡㄱㄷㅐ -5569
▁LE -5570
▁ㅉㅣㄹㄹㅓ -5571
▁ㅈㅏㅇㄹㅖ -5572
▁ㅇㅘㅅ -5573
▁1979 -5574
▁ㅇㅝㄴㅅㅜㅇㅇㅣ -5575
▁ㅊㅜㄹㅂㅓㅁ -5576
▁ㅂㅓㅂㅅㅏ -5577
ier -5578
▁ㅂㅏㄱㅅㅓㅇ -5579
▁ㅂㅕㄴㅁㅕㅇ -5580
ㅅㅣㄴㅈㅏ -5581
▁ㄱㅣㅁㅍㅗ -5582
▁ㅊㅗㅇㅈㅏㅇ -5583
ㄱㅡㄹㄹㅣㅇ -5584
ㄴㅣㄴㅈㅣ -5585
▁ㅂㅕㄴㅎㅐㅆ -5586
ㄱㅡㄹㄹㅏ -5587
▁can -5588
▁EXP -5589
▁ㄱㅜㅂ -5590
▁145 -5591
▁ㄱㅗㄱㅇㅣㄴ -5592
▁ㅎㅗㅅ -5593
▁ㅁㅣㄴㄱㅜㄱ -5594
▁ㅊㅓㅇㄱㅜ -5595
ble -5596
▁ㅊㅜㄹㅅㅏㄴ -5597
▁ㅁㅏㄴㄴㅡㅇ -5598
ㅇㅞㄹ -5599
▁ㅈㅏㅁㄷㅡㄹ -5600
▁ㄱㅏㄷㅎㅕ -5601
▁ㅍㅓㄱ -5602
▁ㅇㅏㄴㄷㅏ -5603
▁ㅅㅡㄹㅍㅡㅁ -5604
ㅇㅣㅅ -5605
▁ㅂㅜㅌㅇㅣㄴ -5606
▁ㅁㅏㄴㅈㅜ -5607
▁ㄱㅓㅂㄴㅣ -5608
▁ㅂㅡㄹㄹㅓㄱ -5609
▁ㅅㅣㄹㅎㅕㄴ -5610
IX -5611
▁ㅈㅗㄴㅅㅡ -5612
▁ㅊㅏㅇㅈㅏㄱㅁㅜㄹ -5613
oun -5614
ㄲㅡㅅ -5615
ㄸㅓㄹㅇㅓ -5616
▁ㅂㅗㅇㅅㅏ -5617
▁NO -5618
▁ㅎㅔㄹㅁㅔㅅ -5619
ㅂㅏㅁ -5620
▁ㅂㅏㅇㅅㅣㅁ -5621
▁113 -5622
▁ㅎㅏㄱㄱㅡㅂ -5623
▁ㅇㅏㅁㅎㅗ -5624
▁IM -5625
▁Ap -5626
ㅇㅕㄱㅅㅏ -5627
▁ㅍㅔㅇ -5628
▁ㅍㅜㅇㅅㅓㄴ -5629
▁ㄱㅓㅁㅈㅡㅇ -5630
ㅎㅠㅇ -5631
▁165 -5632
iver -5633
▁1950 -5634
▁ㅇㅘㅇㅂㅗㄱ -5635
▁ㅇㅓㅇㅁㅏㅇ -5636
▁ㅇㅕㄲㅇㅣ -5637
ott -5638
▁ㅁㅗㄹㅅㅏㄹ -5639
ㅌㅜㅁ -5640
▁ㄱㅏㄱㅇㅣㄴ -5641
▁ㅎㅏㅇㅁㅗ -5642
▁ㅇㅣㄴㅈㅓㅂ -5643
▁ㄱㅡㄹㅆㅣ -5644
▁ㅅㅗㄴㅈㅏ -5645
▁IT -5646
▁144 -5647
▁ㅁㅕㅇㅅㅏ -5648
ㅈㅣㄹㄹㅓㅆ -5649
▁ㅂㅕㅇㅇㅕㄱ -5650
▁ㅇㅕㄹㄹㅕㅆ -5651
▁ㅇㅓㅁㅁㅣㄹㅎㅣ -5652
ㅌㅕ -5653
▁ㅇㅣㄴㅅㅓㅇ -5654
ㄷㅚㄴ -5655
▁155 -5656
▁ㅇㅜㄴㅅㅗㅇ -5657
▁ATK -5658
▁ㅈㅓㄹㅊㅣㄴ -5659
▁at -5660
▁ㅇㅗㄱㅅㅏㅇ -5661
▁ㄱㅏㄴㅅㅓㅂ -5662
▁CM -5663
▁ㅌㅗㅇㅉㅐ -5664
▁ㅅㅡㅇㅇㅣㄴ -5665
▁ㅋㅏㅁ -5666
▁ㄷㅗㅇㅈㅓㄴ -5667
▁ㅍㅜㅁㅈㅣㄹ -5668
▁ㅎㅕㄴㄱㅡㅁ -5669
▁ㅈㅕㄴ -5670
uck -5671
eah -5672
▁ㅂㅏㅇㅎㅏㄱ -5673
▁Max -5674
▁ㅁㅏㅇㅎㅏ -5675
▁ㅎㅡㅌㅇㅓ -5676
▁ㅇㅕㅇㅇㅑㅇ -5677
ㅈㅣㄴㅎㅗ -5678
▁114 -5679
▁ㅇㅕㄴㅅㅜ -5680
▁ㅍㅔㄹㄹㅣ -5681
ㅇㅡㅁㄷㅐ -5682
ㅍㅗㄱㅌㅏㄴ -5683
▁ㅁㅗㄱㅅㅏ -5684
▁ㅇㅕㄴㅈㅓㄴ -5685
▁ㅊㅡㄴ -5686
▁ㄷㅗㄱㅇㅣㄹㅇㅓ -5687
▁ㅇㅣㄹㄱㅗㅂ -5688
ㄹㅔㄴㅈㅣ -5689
ㅉㅏㅇ -5690
▁ㅊㅓㄴㅈㅏㅇ -5691
▁ㅅㅏㅇㄱㅡㅁ -5692
▁BD -5693
ode -5694
ㅃㅏㄱ -5695
▁ㄱㅣㅍㅇㅣ -5696
▁ㅇㅣㅂㅁㅜㄴ -5697
▁ㅇㅑㅇㅅㅣㄱ -5698
▁ERA -5699
▁ㅎㅏㅁㄹㅏㄱ -5700
▁ㅈㅣㅂㅎㅚ -5701
▁ㅁㅣㄹㄹㅔ -5702
II -5703
ㅋㅣㅁ -5704
oh -5705
▁this -5706
▁ㄲㅏㄴ -5707
▁ㅇㅝㄴㅈㅓㄴ -5708
▁ㄷㅗㅇㄷㅐ -5709
▁ㅎㅕㄴㅈㅏ -5710
▁ㅁㅟㄴㅎㅔㄴ -5711
▁ㅂㅐㅇㄱㅏ -5712
ㄸㅏㄴ -5713
ㅇㅣㄴㅎㅏ -5714
ㅅㅗㄱㄱㅣ -5715
▁ㅎㅕㄱㅅㅣㄴ -5716
▁ㅅㅡㅇㅈㅣㄴ -5717
▁ㄱㅏㅁㅈㅏ -5718
ㅂㅐㅅ -5719
▁ㅇㅜㄹㄹㅣ -5720
▁ㅇㅛㅇㅇㅏㅁ -5721
▁ㅂㅕㄴㅎㅏㄴ -5722
ㅇㅣㅁㅈㅡ -5723
▁ㅅㅓㅇㄱㅕㅇ -5724
ㄴㅗㅇ -5725
▁ㅊㅏㅁㅅㅏ -5726
▁ㅈㅓㄴㅎㅑㅇ -5727
▁ㅈㅓㅇㅁㅜㄴ -5728
ㅋㅣㅂㄴㅣ -5729
▁ㅈㅗㅇㄱㅕㄹ -5730
▁ㅁㅔㅅ -5731
▁ㄴㅓㅁㅊㅕ -5732
▁ㄱㅜㅇㅎㅏㅂ -5733
▁ㄴㅗㄱㅎㅘ -5734
▁ㅅㅗㅅ -5735
▁750 -5736
▁ㄴㅗㅍㅇㅕ -5737
▁ㅇㅝㄴㅈㅏㅇ -5738
▁..! -5739
▁ㅊㅣㄴㅇㅐ -5740
▁ㅈㅓㄴㄷㅗㅇㅊㅏ -5741
▁ㅁㅏㄱㅎㅕ -5742
▁ㅁㅏㄴㅈㅓㅁ -5743
▁GK -5744
▁from -5745
▁ㅈㅓㅇㅂㅏㄴㄷㅐ -5746
ㅅㅂㅜㄹ -5747
▁HE -5748
▁ne -5749
ㄷㅡㄹㅇㅣㄴ -5750
▁ㅇㅡㄴㅍㅖ -5751
▁ㅍㅕㅇㅎㅐㅇ -5752
ㅂㅕㄴㅇㅣ -5753
▁ㄷㅗㄹㅇㅕㄴㅂㅕㄴㅇㅣ -5754
▁ㅎㅡㄱㅁㅏ -5755
▁ㅎㅕㅂㅇㅢ -5756
▁??? -5757
▁ㅈㅐㄱㅅㅡㄴ -5758
bs -5759
int -5760
▁ㅁㅏㄹㅆㅡㅁ -5761
▁OS -5762
ㄷㅗㅇㅅㅏㄴ -5763
▁ㅎㅏㅇㅎㅐ -5764
▁ㅅㅡㄴ -5765
▁ㅁㅏㄹㄹㅔ -5766
▁ㅅㅣㄹㅊㅔ -5767
▁ㅈㅓㄱㅈㅓㄹㅎㅣ -5768
ㅇㅜㄴㄷㅗㅇ -5769
▁ㅎㅡㅂㅎㅕㄹㄱㅟ -5770
▁450 -5771
▁ㅊㅜㅇㅈㅗㄱ -5772
▁tr -5773
▁NBA -5774
▁Season -5775
ㅎㅏㅇㄱㅗㅇ -5776
▁ㅈㅓㅇㅅㅓㅇ -5777
▁AB -5778
ㅈㅣㄱㅈㅏ -5779
▁ㄷㅗㅇㅅㅓ -5780
▁ㅈㅗㅇㅇㅕㅇ -5781
▁ㅎㅏㄱㅁㅜㄴ -5782
itt -5783
▁ㄱㅔㄴㅈㅣ -5784
IL -5785
▁ㅂㅏㄹㄹㅔ -5786
▁ㅈㅜㅇㅇㅝㄴ -5787
ㅊㅓㄹㄷㅗ -5788
ose -5789
▁ㅇㅛㄱㅅㅓㄹ -5790
▁ㅇㅣㄹㄱㅘㄴ -5791
▁ㅇㅓㄹㅌㅣ -5792
▁new -5793
ㄹㅔㅂ -5794
▁ㅎㅏㄱㄷㅐ -5795
▁{{{- -5796
▁ㅊㅣㅁㅊㅏㄱ -5797
▁ㅇㅓㄱㅇㅜㄹ -5798
ㅅㅁㅏㄹ -5799
▁ㅇㅣㄱㅎㅣ -5800
▁ㅇㅣㅂㅈㅡㅇ -5801
▁ㅁㅏㄹㄹㅕ -5802
▁EXT -5803
▁ㄱㅏㄱㅈㅣ -5804
▁ㅇㅑㄼ -5805
▁ㄴㅗㄹㄹㅏㅂ -5806
▁ㄸㅓㅆ -5807
▁ㅂㅜㄴㅎㅗㅇ -5808
▁ㅎㅕㅂㅈㅓㅇ -5809
▁La -5810
▁ㅁㅜㄹㅈㅏ -5811
ㅈㅏㅇㄱㅗ -5812
ㅇㅝㄴㄱㅜㄴ -5813
▁ㅈㅗㄴㅈㅜㅇ -5814
▁Im -5815
▁ㄱㅏㅁㄷㅏㅇ -5816
▁EZ -5817
▁ㅈㅏㄴㅎㅗㄱ -5818
ㄹㅜㅁ -5819
▁ㅇㅣㅂㅎㅣㄴㄷㅏ -5820
▁ㄲㅡㅌㄴㅏㄹ -5821
▁314 -5822
▁ㅈㅐㅁ -5823
▁ㅎㅏㅁㅈㅏㅇ -5824
ㅌㅏㅁㅈㅓㅇ -5825
▁ㅁㅣㄹㄷㅗ -5826
reat -5827
ㄴㅏㅆㅇㅡ -5828
▁ㅂㅐㅅ -5829
▁ㅎㅏㅂㅈㅏㄱ -5830
ㅌㅐㅂ -5831
▁ㅌㅜㄴ -5832
ㄹㅔㄱㅅㅕㄴ -5833
ㅇㅡㄴㅅㅐㄱ -5834
▁ㄱㅏㅇㄹㅡㅇ -5835
▁Con -5836
▁Vol -5837
▁ㄱㅕㄱㄹㅕ -5838
▁ㄱㅏㄹㅅㅐㄱ -5839
▁124 -5840
▁ㅎㅏㄱㄴㅕㄴㄷㅗ -5841
▁ㅇㅣㄴㄱㅗㅇㅈㅣ -5842
▁ㅇㅕㄴㅅㅔ -5843
▁ㅍㅏㄹㄹㅏ -5844
▁Sch -5845
▁ㅅㅣㄴㄱㅗㄱ -5846
▁ㄱㅏㅇㅌㅏ -5847
ㅊㅓㄹㅅㅜ -5848
▁ㅈㅓㅁㅁㅕㄹ -5849
▁Ed -5850
▁ㅍㅏㄴㄷㅗ -5851
▁rd -5852
▁ㅅㅔㄹㄹㅔ -5853
▁ㅆㅏㅎㅇㅣ -5854
▁ㅊㅜㄹㅍㅏㄴㅅㅏ -5855
ube -5856
▁ㅎㅘㅇㄷㅏㅇ -5857
ㅉㅜㄱ -5858
▁Girl -5859
▁ㅁㅜㄹㅇㅑㄱ -5860
▁ㅈㅓㅁㅅㅣㅁ -5861
▁ㅁㅣㄴㄱㅏㄴㅇㅣㄴ -5862
▁ㄱㅏㅇㅈㅓㄴ -5863
▁ㅌㅡㄹㄹㅣㄴ -5864
▁ㅅㅗㄱㅎㅏㄴ -5865
▁ㅎㅣㅁㅇㅣㅂ -5866
▁ㅍㅓㅁㅍㅡ -5867
▁ㅇㅏㅂㄹㅕㄱ -5868
▁ㅇㅣㄴㅌㅔ -5869
▁ㅈㅓㅇㅅㅏ -5870
▁ㅋㅏㄹㄹㅏ -5871
▁ld -5872
▁RE -5873
▁ㄱㅏㅇㅎㅐㅆ -5874
▁Night -5875
ㅂㅏㅇㅅㅗㅇ -5876
▁USB -5877
▁ㅅㅏㅆ -5878
▁183 -5879
▁ㅇㅏㅂㅊㅜㄱ -5880
ition -5881
ari -5882
▁ㄸㅜㅇ -5883
ㄱㅗㅇㅅㅏ -5884
usic -5885
▁ㅂㅓㄹㅆㅓ -5886
▁ㅅㅏㄴㅁㅐㄱ -5887
ㅅㅠㄹ -5888
▁ㅇㅗㄹㄹㅣㄴㄷㅏ -5889
msys -5890
▁ㅅㅐㅇㄱㅣㅁㅅㅐ -5891
▁ㄷㅗㅇㄱㅜ -5892
▁ㅂㅣㅇㄱㅕㄹ -5893
▁ㅂㅓㄹㅇㅣㄴ -5894
▁ldmsys -5895
▁ㅂㅓㅂㅁㅜ -5896
▁ㅆㅣㅅ -5897
▁ㄱㅐㅅ -5898
ㅌㅡㅁ -5899
▁152 -5900
▁ㅁㅏㅇㅅㅓㄹ -5901
ㄱㅟㄴ -5902
15 -5903
▁ㅂㅕㅇㅅㅏㄹ -5904
▁ㅈㅜㅇㄱㅕㄴ -5905
▁ㄱㅕㅇㅂㅜ -5906
▁ㅈㅡㄹㄱㅣㄹ -5907
▁ㅅㅣㄹㄹㅣ -5908
ats -5909
▁ㄴㅏㄹㄹㅣㄴㄷㅏ -5910
▁TS -5911
ㄹㅣㄴㅅㅡ -5912
▁ㅊㅜㄹㄷㅗㅇ -5913
ㅈㅗㄴㅅㅣㅁ -5914
▁ㅇㅕㄴㅅㅓㄹ -5915
▁ㄱㅣㅁㅈㅜ -5916
▁..? -5917
▁ㅎㅗㄹㄹㅣ -5918
▁ㄷㅓㅇㅇㅓ -5919
ㄹㅡㄴㅂㅏ -5920
ㅍㅡㄹㄹㅣ -5921
ㄹㅡㄴㅅㅗㄴ -5922
ㅅㅏㅇㄱㅡㅂ -5923
▁ㅁㅏㄴㄹㅔㅂ -5924
▁1200 -5925
▁Black -5926
▁ㄹㅕㄴ -5927
▁ㅂㅕㄴㅎㅏㄴㄷㅏ -5928
▁ㅈㅣㅂㄱㅖ -5929
▁BC -5930
ㅊㅐㄱㅈㅓㅁ -5931
▁ㄱㅡㅁㅇㅛ -5932
▁ㄱㅗㄹㅍㅡ -5933
▁182 -5934
▁ㅂㅏㄱㅈㅣㄴ -5935
▁WC -5936
ㅎㅔㄹ -5937
▁ㅈㅏㅇㅂㅕㄱ -5938
▁Bo -5939
▁ㄴㅗㅇㅇㅓㅂ -5940
▁NH -5941
13 -5942
▁ㄷㅐㅁ -5943
yn -5944
▁ver -5945
▁ㅁㅜㄴㅇㅑㅇ -5946
▁ㅅㅓㄴㄷㅗㅇ -5947
▁ㅊㅓㄴㅅㅏㅇ -5948
▁ㅇㅝㄴㅍㅏㄴ -5949
▁ㅌㅗㅇㅅㅗㄹ -5950
▁ㅇㅣㄹㄹㅔㄱㅌㅡ -5951
▁ㅇㅓㄱㅈㅔ -5952
▁ㅈㅓㄹㅂㅕㄱ -5953
▁ㄷㅡㅇㄱㅡㄱ -5954
▁ㄴㅏㅁㄷㅗㅇㅅㅐㅇ -5955
▁ㅇㅕㄴㄷㅗㅇ -5956
▁127 -5957
ㄷㅟ -5958
▁ㄱㅏㄱㄷㅗ -5959
▁ㅂㅜㄹㄱㅣㄹ -5960
▁ㄱㅑ -5961
▁ㅋㅣㅁ -5962
▁ㅅㅏㅇㄴㅑㅇ -5963
▁ㄱㅘㄴㅈㅏㅇ -5964
▁Let -5965
▁ㅂㅏㄱㅈㅏ -5966
▁not -5967
app -5968
ㅇㅜㄹㄷㅐ -5969
ㄷㅏㅇㅊㅗ -5970
▁ㅎㅕㄴㅎㅘㅇ -5971
▁ㅂㅏㄹㅁㅕㅇ -5972
▁ㅇㅏㅀ -5973
▁ㅌㅏㄴㅎㅐㄱ -5974
▁ㅊㅐㅁㅅㅡ -5975
▁ㅅㅗㄹㅈㅓ -5976
▁DM -5977
▁MM -5978
ㄲㅜㅁ -5979
▁118 -5980
DD -5981
▁ㅃㅓㄹ -5982
▁ㅇㅘㅇㅅㅣㄹ -5983
▁ㅂㅏㄹㄱㅡㅂ -5984
ㄹㅕㅅ -5985
▁ㅇㅘㅇㅂㅣ -5986
ough -5987
ㄹㅝㅆ -5988
▁ㅅㅓㅁㄱㅘㅇ -5989
▁OG -5990
▁ㅎㅏㄴㄱㅏ -5991
▁184 -5992
▁ㅎㅑㅇㅎㅜ -5993
▁ㅊㅏㄱㄹㅠㄱ -5994
ㄱㅏㄴㄷㅐ -5995
ㅍㅐㅇ -5996
▁ㅈㅓㄴㄷㅏㅁ -5997
▁ㄷㅓㄴㅈㅣㄴ -5998
ㄷㅡㄴㄷㅏ -5999
▁SSR -6000
▁ㅎㅘㄴㅅㅐㅇ -6001
▁Am -6002
▁ㅎㅕㅂㄷㅗㅇ -6003
▁ㅎㅏㄱㅅㅏ -6004
ㅅㅕㅆ -6005
gr -6006
▁ㅅㅠㄴ -6007
▁ㄱㅔㄹ -6008
▁Op -6009
▁ㅅㅜㄱㅅㅗ -6010
▁ㅇㅣㅂㅅㅣ -6011
▁Str -6012
▁ㄱㅣㅁㄷㅗ -6013
ㅌㅔㄹㅅㅡ -6014
▁ㅂㅏㄴㅅㅓㅇ -6015
▁Col -6016
▁AF -6017
ㅇㅕㅇㅎㅗ -6018
▁ㅎㅐㅆㅇㅓ -6019
▁ㅇㅣㅍ -6020
▁ㅈㅓㅇㅁㅣㄹ -6021
ye -6022
▁ㅎㅐㅇㅈㅣㄴ -6023
▁ㄲㅕ -6024
▁GM -6025
▁ㅇㅑㅁ -6026
▁ㅁㅣㄴㅍㅖ -6027
▁ㅊㅓㅇㅊㅜㄴ -6028
▁000000 -6029
ㄹㅡㄹㄹㅣㄴ -6030
▁ㅋㅓㅁㅂㅐㅅ -6031
▁ㄱㅏㅁㅊㅜ -6032
▁ㅇㅛㅇㅇㅣ -6033
▁ㅍㅣㄹㄹㅡㅁ -6034
▁ㅅㅣㄹㅇㅛㅇ -6035
▁ㅇㅛㄱㅅㅣㅁ -6036
▁ㅇㅑㄹ -6037
▁Mag -6038
▁ㅍㅏㄴㄷㅏ -6039
CE -6040
ㅇㅡㄹㅂㅓ -6041
▁ㅅㅓㄴㅂㅏㄱ -6042
iel -6043
ㅎㅏㅇㄹㅕㄱ -6044
▁ㅅㅣㅇㄱㅏ -6045
▁ㄱㅏㅇㅇㅣㄴ -6046
▁ㅍㅕㄴㄹㅣ -6047
ㅎㅏㄴㄷㅗ -6048
▁ㄱㅐㅇㅅㅣㄴ -6049
▁ㅊㅣㄴㅊㅓㄱ -6050
▁ㄱㅡㅁㅂㅏㄹ -6051
▁ㅅㅡㅇㅍㅐ -6052
▁ㅈㅣㄱㅊㅐㄱ -6053
▁ㄱㅣㅁㅊㅣ -6054
▁ㅌㅜㄱ -6055
ㅁㅏㅂ -6056
▁AV -6057
▁ㅇㅣㄹㅇㅣㄹ -6058
▁ㅎㅡㅇㅂㅜㄴ -6059
▁ㅌㅏㅁㅅㅏ -6060
▁1978 -6061
▁ㅂㅏㄹㄱㅏㄱ -6062
▁ㅇㅜㄱ -6063
ㅂㅔㄴㅈㅕ -6064
ull -6065
vel -6066
▁ㅊㅣㅁㅁㅗㄹ -6067
▁ㅎㅏㄴㄲㅓ -6068
▁AL -6069
▁ㅈㅓㄴㅅㅗㅇ -6070
▁ㅍㅗㄹㅇㅏ -6071
▁ㅎㅗㅅㅋㅏ -6072
▁ㅅㅓㅁㅁㅕㄹ -6073
▁ㅇㅐㄱㅅㅔ -6074
▁ㅈㅓㄴㅈㅣ -6075
▁ㄱㅣㅁㄱㅘㅇ -6076
▁ㅇㅘㄴㅎㅘ -6077
▁ㄱㅕㅇㅈㅓㄴ -6078
▁ㅎㅡㄱㅇㅕㄱㅅㅏ -6079
▁ㅇㅏㄴㅁㅜ -6080
▁ㅅㅓㄴㅇㅝㄴ -6081
▁ㅈㅣㄴㄷㅏㄴ -6082
▁ㄴㅡㅇㄱㅏ -6083
▁ㄱㅜㄴㅂㅜ -6084
ㅑㅁ -6085
▁ㅇㅏㄹㄹㅔㄱㅅㅏㄴㄷㅡ -6086
▁ㅎㅡㄱㅁㅏㄱ -6087
▁ㅊㅓㄴㄱㅜㄱ -6088
▁ㄷㅡㄹㅋㅣ -6089
ult -6090
▁ㅈㅜㅇㄱㅜ -6091
▁178 -6092
ㅗㄹ -6093
▁ㅅㅓㅇㅁㅕㅇ -6094
▁ㅋㅓㅁㅂㅐㄱ -6095
▁CL -6096
ㅂㅐㄴ -6097
ㄹㅡㅁㄷㅏㅂ -6098
able -6099
▁ㅁㅣㄴㄱㅏㅁ -6100
▁ㄱㅘㄴㅁㅜㄴ -6101
▁ㅂㅏㄴㄱㅕㅇ -6102
▁ㅇㅑㄱㅎㅗㄴ -6103
ㅋㅡㄹㄹㅔ -6104
▁1945 -6105
ject -6106
ㅌㅔㄱ -6107
▁ㅂㅏㄴㅇㅕㄱ -6108
▁ㅅㅣㄴㄱㅘㄴ -6109
▁ㅇㅕㄴㅇㅣ -6110
▁ㅇㅘㄴㄱㅗㅇ -6111
ㄴㅔㄴ -6112
▁ㅇㅣㄴㅁㅜㄴ -6113
▁PK -6114
▁ㅇㅓㅆㅇㅓㅆ -6115
▁ㄷㅗㅇㄱㅖ -6116
ㅋㅞ -6117
▁ㅁㅏㄴㄴㅏㄴㄷㅏ -6118
▁CE -6119
▁ㄷㅡㅇㅈㅐ -6120
▁ㅇㅏㄴㄱㅕ -6121
▁ㅇㅓㅇㄷㅓㅇㅇㅣ -6122
▁ㄱㅕㅇㅅㅏㅇㄴㅏㅁㄷㅗ -6123
▁ㄷㅏㄹㅇㅣㄴ -6124
▁ㅁㅓㄱㅇㅕ -6125
18 -6126
▁Co -6127
▁ㅇㅣㄹㅊㅔ -6128
▁ㅅㅡㄹㅍㅓ -6129
▁cl -6130
eth -6131
▁ㅈㅜㅂㄴㅣ -6132
▁ㄱㅏㅇㄷㅐ -6133
▁ㄱㅏㄴㅍㅏㄴ -6134
▁ㅈㅣㄱㅎㅐㅇ -6135
ㅂㅏㅇㅇㅜㄹ -6136
▁ㅅㅣㄴㅈㅏㄱ -6137
ㅍㅗㄹㄹㅔ -6138
▁ㄷㅗㄱㅂㅐㄱ -6139
▁ㅇㅜㄹㅇㅡㅁ -6140
MAN -6141
▁ㅈㅏㅂㅎㅣㄴ -6142
ㅌㅐㅇ -6143
▁ㅇㅑㄱㅊㅔ -6144
▁ㅈㅏㅇㄴㅏㅁ -6145
▁ㅈㅓㅇㅈㅓㅁ -6146
▁ㅈㅓㅇㄷㅏㅂ -6147
▁ㅁㅕㅇㅈㅏㅇ -6148
▁ㅂㅜㄹㅇㅓ -6149
▁ㅌㅏㄹㅊㅟ -6150
▁ㄸㅡㄷㅇㅓ -6151
▁ㄱㅓㄹㄲㅏ -6152
▁ㅉㅏㅁ -6153
▁ㅎㅏㅁㅅㅜ -6154
ㄸㅓㄹ -6155
▁ㄴㅡㅍ -6156
▁ㄷㅏㄴㅈㅏ -6157
▁ㄴㅜㄴㅇㅏㅍ -6158
▁ㅂㅜㄹㅊㅏㅁ -6159
▁ㅇㅓㄵ -6160
▁ㅅㅣㄹㅈㅓㄱ -6161
▁Is -6162
ㅉㅏㄹ -6163
ㄷㅡㄹㅇㅕㅆ -6164
▁Do -6165
▁ㅎㅟㅂㅆㅡㄹ -6166
▁ㅁㅣㅁ -6167
▁TOP -6168
▁BO -6169
ild -6170
ㅋㅗㅅ -6171
▁ㅇㅣㅂㅅㅏ -6172
▁ㅌㅏㅆ -6173
▁ㅂㅏㄱㅈㅓㅇㅎㅢ -6174
▁ㄴㅗㅎㅇㅕ -6175
▁ㅇㅛㄱㅁㅏㅇ -6176
▁ㅁㅗㄱㅇㅛㄱ -6177
ㄹㅏㅂㄴㅣ -6178
25 -6179
ㅁㅂㅣ -6180
▁ㅉㅏㄴ -6181
▁ㅅㅣㄴㅎㅏㄴ -6182
▁AFC -6183
▁ㅁㅐㄴㅊㅔ -6184
▁ㅅㅣㄴㅎㅏ -6185
▁4000 -6186
▁ㅍㅕㅇㅅㅏㅇㅅㅣ -6187
▁ㄱㅡㅂㅎㅏ -6188
▁ㄴㅜㄴㄷㅗㅇㅈㅏ -6189
▁ㅅㅏㅂㅈㅣㄹ -6190
ㅅㅐㅇㅎㅘㄹ -6191
▁ㄹㅓㅆ -6192
▁ㄱㅗㄴㅊㅜㅇ -6193
▁ㄱㅜㄻ -6194
ㄸㅏㄹ -6195
▁ㅈㅣㄴㄷㅗㅇ -6196
inal -6197
▁BGA -6198
ㄱㅕㄱㅈㅓㄴ -6199
▁ㄱㅗㅇㅅㅣㄴ -6200
▁ㅈㅣㅂㅅㅏ -6201
▁ㄱㅣㅁㅇㅣㄹ -6202
▁ㄴㅏㅁㅎㅏㄱㅅㅐㅇ -6203
▁ㅍㅕㅇㄹㅗㄴㄱㅏ -6204
▁ㅁㅐㅅㅈㅣㅂ -6205
▁SA -6206
▁ㅇㅖㄹㄹㅗ -6207
ㅈㅜㅇㄱㅏㄴ -6208
▁ME -6209
▁ㄷㅏㄴㄹㅕㄴ -6210
ㅇㅝㄴㅈㅏ -6211
▁ㅈㅓㅇㅇㅜ -6212
▁Gaming -6213
▁ㄱㅓㅁㅌㅗ -6214
ㅅㅏㅇㄱㅏ -6215
▁ㅈㅣㅇㄱㅖ -6216
▁ㅈㅜㅇㅅㅗ -6217
▁CR -6218
▁320 -6219
▁1973 -6220
▁ㅋㅓㄴㄷㅣ -6221
▁ㅌㅏㄹㄹㅣ -6222
▁ㅅㅓㄴㅎㅚ -6223
▁ㄷㅏㄹㅋㅗㅁ -6224
▁ㅈㅏㅇㅂㅗㄴ -6225
▁ㅁㅕㅇㅅㅣ -6226
ings -6227
▁GSL -6228
▁315 -6229
▁ㅋㅐㅂㅅㅠㄹ -6230
▁ㅅㅓㅇㅂㅜㄴ -6231
ㅂㅓㄴㅅㅡ -6232
▁ㅅㅡㄹㄹㅐ -6233
▁ㅅㅜㄱㄹㅕㄴㄷㅗ -6234
▁Gl -6235
▁ㄷㅏㅇㅊㅗ -6236
▁ㅈㅏㅇㅅㅣㄴㄱㅜ -6237
▁ㅋㅓㄹㄹㅔㄱㅅㅕㄴ -6238
DX -6239
▁ㅅㅣㄱㅅㅡ -6240
TA -6241
▁ㅈㅜㅇㄱㅣ -6242
▁ㄱㅏㅇㅇㅏ -6243
▁ㅎㅕㅂㅈㅗ -6244
▁Gu -6245
▁ㅈㅜㅇㄱㅜㄱㅇㅣㄴ -6246
▁ㅈㅜㅇㄷㅗ -6247
▁ㅈㅜㅇㅂㅜ -6248
reak -6249
ㅌㅔㄹㄹㅏ -6250
▁ㄱㅜㄴㄷㅔ -6251
▁ㅇㅣㄹㅁㅕㅇ -6252
ㅁㅕㅇㅂㅏㄱ -6253
▁ㅁㅣㄴㅈㅜㅇ -6254
ㅅㅣㄴㄱㅏㅁ -6255
ㄲㅜㅂ -6256
▁ㄱㅜㅇㅅㅜ -6257
ron -6258
▁ㅈㅏㅇㅂㅗㄴㅇㅣㄴ -6259
▁ㅈㅏㄴㄹㅠ -6260
▁ㅋㅐㄹㄹㅣ -6261
▁ㅇㅐㄴㄷㅡ -6262
▁ㄷㅙㅆㅇㅡ -6263
▁ㄱㅗㅇㄱㅛ -6264
ㅅㅏㅇㄷㅗ -6265
▁so -6266
▁ㅇㅏㄴㅌㅗ -6267
▁ㅅㅗㄱㅎㅐ -6268
▁ㄱㅡㅁㄱㅏㅇ -6269
▁ㄱㅡㅂㅅㅣㄱ -6270
▁ㅈㅓㅂㅎㅏ -6271
▁ㅂㅔㄹㄱㅣ -6272
▁ㅇㅘㅆㅇㅡ -6273
ㅊㅓㄴㄱㅜㄴ -6274
▁ㅃㅑㅁ -6275
▁ㄱㅡㅂㄱㅕㄱㅎㅣ -6276
▁ㅎㅏㄱㅇㅟ -6277
▁ㅂㅏㅌ -6278
▁ㅅㅏㅇㅅㅣ -6279
▁168 -6280
ㅇㅗㄹㄹㅣㄴ -6281
▁like -6282
ㅅㅡㄹㄹㅣ -6283
▁ㅍㅏㄴㅅㅏ -6284
▁ㄱㅜㄱㄷㅗ -6285
▁ㅎㅗㄴㅎㅕㄹ -6286
ㄴㅣㄹㄹㅏ -6287
▁ㅈㅓㄱㅎㅣㄴ -6288
▁ㄴㅏㄴㄹㅣ -6289
▁ㄴㅏㅊ -6290
▁203 -6291
▁ㅂㅏㅇㅊㅣㅁ -6292
▁ㅍㅕㅇㅌㅐㄱ -6293
ㅇㅛㅇㄱㅐㄱ -6294
▁will -6295
▁ㄱㅗㅇㅎㅓㄴ -6296
ㄹㅣㅂㄴㅣ -6297
14 -6298
▁NM -6299
▁ㅁㅜㄷㅎㅕ -6300
▁ㅇㅠㄴㄹㅣ -6301
▁ㅃㅛ -6302
▁ㅅㅓㅇㄷㅐ -6303
ㅅㅏㄴㄱㅘㅇㅇㅕㄱㅅㅣ -6304
▁ㅇㅏㄱㅎㅐㅇ -6305
ㅈㅣㅈ -6306
PA -6307
ㄱㅕㅂ -6308
▁ㅁㅗㅁㅁㅐ -6309
ㅁㅏㄹㄹㅣ -6310
▁ㅂㅓㅅㄱㅕ -6311
▁ㅊㅓㄴㅈㅣ -6312
▁ㅅㅡㅇㄱㅡㅂ -6313
ㄴㅟㄴㄷㅏ -6314
ㅇㅜㄴㅅㅜ -6315
▁ㅎㅠㅇㅇㅏㄱ -6316
▁218 -6317
17 -6318
▁Min -6319
▁ㄱㅣㅁㅂㅕㅇ -6320
ㅂㅐㅇ -6321
▁ㄱㅠㄴㅇㅕㄹ -6322
ㅅㅐㅇㅈㅏ -6323
▁ㄲㅜㅁㄲㅜ -6324
▁ㅇㅑㅇㅇㅏ -6325
▁ㄱㅜㄱㅌㅗ -6326
▁ㄷㅗㄱㅂㅗ -6327
ㅇㅝㄴㅅㅣ -6328
▁ㄷㅏㄴㅇㅕㄱ -6329
▁ㄷㅏㄴㅊㅗㅇ -6330
▁ㅊㅜㅇㅊㅓㅇㄴㅏㅁㄷㅗ -6331
▁ㄹㅓㄴㅊㅓ -6332
▁ㄱㅏㅇㄷㅗㅇ -6333
▁ㅎㅘㅇㅎㅗㄴ -6334
▁ㅂㅗㄲ -6335
GA -6336
▁ㅇㅣㄹㅅㅜ -6337
▁ㅌㅏㄴㅇㅏㅂ -6338
▁one -6339
ㄲㅣㄴㄷㅏ -6340
▁10000 -6341
▁ㅇㅜㅅㄱㅣ -6342
▁ㅅㅓㄹㅁㅏ -6343
▁ㅇㅠㄱㅅㅏㅇ -6344
ㅃㅡㅁ -6345
▁ㅍㅣㄹㅅㅏ -6346
ECT -6347
ㅅㅓㅇㅇㅣ -6348
▁ㅈㅓㄹㄷㅏㄴ -6349
▁ㅂㅣㅅㄴㅏ -6350
ㅌㅗㅇㅅㅜ -6351
▁ㅊㅜㅇㄱㅕㄱㅍㅏ -6352
▁ㄱㅕㅇㅅㅏ -6353
▁ㄱㅜㄱㅂㅏㅇㅂㅜ -6354
▁ㄷㅏㄴㅅㅓ -6355
▁ㅁㅕㄴㅈㅔ -6356
ㅊㅓㄴㅇㅘㅇ -6357
ㄷㅗㅇㄱㅣ -6358
ㅁㅏㅇㅈㅏ -6359
▁Ro -6360
▁ㅂㅕㄴㅎㅏㅁ -6361
▁ㅂㅓㄴㅈㅣ -6362
▁iOS -6363
▁ㅌㅏㄴㅁㅏㄱ -6364
▁ㅈㅏㄱㅇㅟ -6365
▁ㅊㅏㄹㅅㅡ -6366
▁ㄱㅣㅁㅅㅓㅇㄱㅡㄴ -6367
▁ㅇㅜㅁㅈㅣㄱㅇㅕ -6368
▁ㅅㅣㄹㄹㅣㄴ -6369
▁RO -6370
ㄷㅗㄱㅈㅏ -6371
ICE -6372
▁ㅇㅣㄴㅁㅕㅇ -6373
▁na -6374
▁ㅅㅓㅇㅈㅣ -6375
▁ㄱㅕㄴㅎㅐ -6376
▁ㅇㅝㄴㄹㅗ -6377
▁ㅁㅓㅅㅈㅣ -6378
▁ㄱㅓㄹㅇㅡㅁ -6379
ㄱㅏㄴㅍㅛ -6380
oul -6381
ㅍㅣㅅ -6382
▁ALL -6383
▁ㅇㅘㅇㅈㅗㄱ -6384
▁ㅇㅔㅁㅂㅡㄹ -6385
ㅌㅔㄱㅅㅡ -6386
MAX -6387
ould -6388
▁ㅈㅓㅇㅈㅓㄴ -6389
AND -6390
▁1974 -6391
▁Play -6392
▁ㅎㅠㅇㄴㅐ -6393
▁ㄴㅏㄹㄹㅕㅆ -6394
▁ㅍㅏㄹㄹㅣ -6395
▁ㅇㅣㅂㅇㅝㄴ -6396
▁ㅅㅓㅇㅅㅏ -6397
▁ㅍㅕㅇㅍㅏㄴ -6398
▁KB -6399
▁ㅍㅓㅇㅋㅡ -6400
▁Red -6401
▁ㄲㅚ -6402
▁ㅇㅣㄴㅌㅡ -6403
▁Ser -6404
▁ㄱㅡㄱㅅㅣㅁ -6405
ㅈㅏㅇㄴㅏㄴ -6406
ㅍㅔㄱㅌㅓ -6407
▁Type -6408
▁ㅇㅘㄴㅂㅕㄱㅎㅣ -6409
ㅊㅣㄴㄱㅜ -6410
ody -6411
▁ㄱㅕㄱㄹㅕㄹ -6412
▁NT -6413
▁ㄱㅗㅇㄱㅕㄱㄱㅣ -6414
▁ㄱㅏㄴㅍㅏ -6415
▁ㅋㅏㅅ -6416
▁ㄷㅜㅇㅈㅣ -6417
▁UC -6418
▁ㅊㅜㄹㅅㅓㄱ -6419
▁ㅇㅣㄴㄷㅡㅅ -6420
▁ㅂㅏㄴㄷㅗ -6421
▁177 -6422
▁ㅂㅏㄴㅈㅏㅇ -6423
▁se -6424
▁ㄷㅜㄴㄷㅏ -6425
▁Don -6426
▁ㅇㅐㄱㅊㅔ -6427
ions -6428
▁ㅁㅏㄴㅈㅣ -6429
▁ㅂㅏㄹㅌㅗㅂ -6430
▁ㅌㅏㄹㅎㅘㄴ -6431
▁ㅈㅓㄴㅂㅓㅂ -6432
▁ㅅㅜㄴㄱㅏㄴㅇㅣ -6433
▁ㅊㅜㅇㄱㅗ -6434
▁ㄷㅓㅁㅂㅕ -6435
▁ㅇㅕㄴㅁㅏㄱ -6436
▁ㄹㅐㄴㅅㅓ -6437
▁ㄱㅣㅅㅌㅓㄹ -6438
▁Car -6439
▁ㄱㅣㅁㅇㅠㄴ -6440
ㅈㅏㅇㄱㅜㄴ -6441
ㅂㅗㄹㅂㅓ -6442
▁ㄱㅏㅁㅅㅓㅇ -6443
STER -6444
▁ㄱㅏㅇㅅㅡㅂ -6445
▁ㅎㅏㄴㅇㅑㅇ -6446
▁ㅂㅔㄹㄹㅏ -6447
▁ㅅㅓㄴㄹㅗ -6448
▁ㅅㅗㄴㅈㅏㅂㅇㅣ -6449
▁ㅈㅣㄴㅎㅕㅇ -6450
▁ㅅㅏㅇㅇㅢ -6451
▁ㅁㅏㄺ -6452
▁ㅅㅓㄲㅇㅣㄴ -6453
▁ㅉㅏㄱㅅㅏ -6454
▁ㅎㅗㅁㄱㅕㅇㄱㅣ -6455
ㅁㅕㅇㅅㅜ -6456
▁ㅁㅏㅌㄱㅕ -6457
▁ㅊㅏㅁㅇㅡ -6458
▁ㅂㅓㅈ -6459
▁ㅂㅏㅇㅇㅜㄹ -6460
▁ㄱㅓㄴㄷㅏ -6461
▁us -6462
ㄹㅏㅇㅋㅡ -6463
ㄹㅔㄴㄷㅡ -6464
▁138 -6465
▁ㄱㅡㅁㄱㅗ -6466
▁ㅇㅣㄴㅅㅡ -6467
▁1975 -6468
▁ㅇㅣㅂㅈㅏ -6469
▁ㅈㅜㅇㅈㅐ -6470
ㄷㅏㄺ -6471
▁ㄱㅗㅇㅁㅕㅇ -6472
▁ㅈㅓㅂㅅㅜ -6473
▁ㅂㅕㅇㄱㅘ -6474
▁ㅁㅐㅇㄷㅗㄱ -6475
▁ㅅㅣㄹㄹㅕ -6476
▁ㅊㅡㄱㄱㅡㄴ -6477
▁Es -6478
▁ㄷㅗㅇㅅㅓㅇㅇㅐ -6479
▁ㄷㅝ -6480
ven -6481
16 -6482
▁ㅅㅏㅇㅇㅓ -6483
▁ㅌㅓㄹㅇㅓ -6484
alk -6485
ㅇㅕㄴㅅㅜ -6486
▁ㅅㅓㄱㅇㅠ -6487
▁ㅅㅏㄴㅌㅏㄴㅊㅗㅇ -6488
▁ㄷㅣㅂ -6489
▁ㄴㅐㅇㅈㅏㅇㄱㅗ -6490
▁ㅊㅏㄴㅇㅑㅇ -6491
▁ㅇㅘㄴㅅㅓㅇㄷㅗ -6492
ㅇㅕㅇㅂㅗㄱ -6493
▁ㅅㅣㄹㅂㅏ -6494
▁ㅍㅏㄱ -6495
▁ㄴㅏㅈㅊㅜ -6496
▁ㅈㅗㄹㅇㅓㅂㅅㅣㄱ -6497
▁ㅂㅐㄱㅁㅏㄴ -6498
▁ㅇㅝㄴㅎㅘ -6499
▁Time -6500
▁''' -6501
af -6502
ㄴㅓㅅ -6503
▁ㅂㅗㄴㅈㅣㄹ -6504
▁162 -6505
▁ㅇㅝㄹㄱㅏㄴ -6506
▁ㅇㅣㄹㄱㅏㄱ -6507
▁EU -6508
ㅂㅏㄴㅈㅓㄴ -6509
▁have -6510
▁126 -6511
te -6512
▁ㅂㅜㄴㅎㅏㄹ -6513
ㅂㅐㅌ -6514
ㄷㅡㅁㅎㅐ -6515
▁ㅂㅣㅇㅇㅢ -6516
▁ㅇㅓㅇㄸㅜㅇ -6517
ㅁㅐㄱㅅㅡ -6518
▁ㅈㅐㅇㅇㅣ -6519
▁ㅍㅕㅇㄷㅡㅇ -6520
ㅅㅏㄴㅁㅜㄹ -6521
▁WH -6522
▁ㅍㅣㅇㄱㅖ -6523
▁ㅈㅗㅇㅅㅏ -6524
▁ㄱㅣㅁㅅㅓㄴ -6525
ics -6526
ㅇㅕㄱㄱㅜ -6527
▁ㄱㅣㅁㄷㅜ -6528
▁ㅅㅣㅁㅈㅓㅇ -6529
▁ㅅㅣㄴㅅㅐㅇ -6530
ㅃㅏㄹㄹㅣ -6531
▁ㅍㅗㄱㄹㅗ -6532
▁ㅇㅕㄴㅅㅗ -6533
▁ㅇㅘㅇㄱㅏ -6534
▁Sum -6535
ㄱㅘㄴㅍㅗ -6536
▁ㅁㅏㄹㄱㅣ -6537
▁ㅇㅡㅇㄱㅡㅂ -6538
ㄹㅏㄹㄷㅡ -6539
▁ㄲㅗㄹㅉㅣ -6540
YP -6541
ㅈㅣㄹㄹㅓ -6542
ㄱㅗㅁ -6543
▁ㅅㅣㄴㄷㅏ -6544
▁ㅅㅗㄴㅁㅗㄱ -6545
ㅍㅔㄴㅅㅡ -6546
▁ㅅㅗㄹㅈㅣㄱㅎㅣ -6547
▁ㅍㅔㄱ -6548
▁ㄱㅗㅇㅉㅏ -6549
▁ㅇㅛㅇㅇㅢ -6550
▁ㅂㅕㅇㅎㅐㅇ -6551
▁ㅁㅏㅈㅁㅓㄱ -6552
▁ㄲㅡㄶㄱㅣ -6553
▁ㅋㅓㅁㅍㅓ -6554
▁ㅈㅣㄱㅇㅟ -6555
▁ㄷㅗㅇㅅㅏㅇ -6556
▁~" -6557
▁ㅍㅐㄱㅅㅕㄴ -6558
ACK -6559
▁BT -6560
▁know -6561
▁ㅇㅏㄴㅈㅔ -6562
▁ㅁㅔㄴㅂㅜㅇ -6563
ㄹㅡㄹㄲㅏ -6564
▁ㅅㅣㄴㅅㅏㅇ -6565
▁out -6566
▁oh -6567
▁ㄱㅣㅁㄱㅜ -6568
▁IIDX -6569
ㅇㅡㄴㅇㅣ -6570
▁CB -6571
▁BA -6572
▁ㅈㅗㅇㄹㅗ -6573
▁ㅂㅜㄴㅂㅐ -6574
▁ㅍㅐㄴㅌㅣ -6575
▁ㄴㅏㄴㅌㅜ -6576
▁ㅈㅡㄹㄱㅓㅂ -6577
▁ㅂㅏㅇㅂㅕㄱ -6578
▁ㅅㅡㄹㅅㅡㄹ -6579
▁ㅍㅏㅁ -6580
▁ㅅㅣㄴㅇㅣ -6581
▁ㅂㅟ -6582
▁ㅊㅡㄴㄷㅔ -6583
▁ㅇㅓㅅ -6584
▁1976 -6585
▁ㅅㅜㄱㅊㅓㅇ -6586
ㅅㅔㅂㅌㅡ -6587
tern -6588
ins -6589
▁Kore -6590
▁ㄱㅡㄱㅇㅏㄱ -6591
ict -6592
▁313 -6593
▁ㅂㅗㄹㄷㅡ -6594
▁EV -6595
▁ㅅㅡㄹㅍㅡㄴ -6596
ㄲㅜㅂㅊㅣㄴㄱㅜ -6597
▁pr -6598
▁ㅂㅏㄹㅈㅓㄴㅅㅗ -6599
▁ㅅㅣㄴㅈㅗ -6600
ㄹㅗㄹㄹㅗ -6601
▁ㄴㅓㅁㄱㅕㅆ -6602
▁ㅎㅏㄴㅈㅓㅇㅍㅏㄴ -6603
▁LTE -6604
▁132 -6605
▁ㅅㅓㄴㅈㅣ -6606
▁ㄱㅓㄹㄹㅣㄹ -6607
▁ㄴㅏㄴㅁㅣㄴ -6608
▁ㄱㅕㄹㅇㅢ -6609
▁!!! -6610
▁ㅅㅏㅇㅂㅜ -6611
ange -6612
ㅈㅓㄴㅅㅓㄹ -6613
▁ㅊㅏㄹㄴㅏ -6614
▁ㅇㅑㄱㅊㅣㅇ -6615
ater -6616
▁ㄹㅓㄱㅋㅣ -6617
▁ㅎㅜㅁㅊㅣ -6618
▁ㅂㅣㄴㅇㅑㄱ -6619
ㅇㅣㄴㅂㅐ -6620
▁Sun -6621
▁DI -6622
▁1972 -6623
▁ㅈㅜㅇㅎㅜ -6624
▁ㄱㅡㄴㄹㅗ -6625
▁set -6626
▁ㅋㅐㄴㄷㅣ -6627
ㅎㅕㄴㅇㅜ -6628
▁ㅈㅓㄱㅇㅣ -6629
▁ㅂㅕㅇㅈㅗㅇ -6630
▁ㅇㅕㄴㄱㅏㄴ -6631
ㅊㅐㄴ -6632
▁ㅅㅓㄴㅂㅗㅇ -6633
▁ㅈㅗㅇㅈㅓㄴ -6634
▁ㅅㅏㄴㅅㅗ -6635
▁ㅈㅓㅂㅈㅓㄴ -6636
▁158 -6637
▁ㅎㅘㄴㅎㅗ -6638
▁ㄱㅏㅇㅌㅏㄹ -6639
▁feat -6640
▁ㅈㅣㄴㄹㅗ -6641
▁ㅌㅏㄱㅇㅝㄹ -6642
▁IP -6643
ㄷㅏㅅ -6644
▁ㅌㅜㅇ -6645
ㅇㅣㄹㄹㅏ -6646
19 -6647
▁GD -6648
▁ㅈㅓㅇㅈㅜㄴ -6649
ㄷㅗㄹㅍㅡ -6650
ㄹㅏㅇㅍㅡ -6651
ㅁㅏㄱㅈㅓㄴ -6652
▁TP -6653
▁MO -6654
ㅇㅏㅅㄱㅣ -6655
▁ㅇㅛㅇㅅㅏㄴ -6656
▁ㅇㅣㄹㅈㅗ -6657
▁1977 -6658
▁ㅎㅣㄴㅌㅡ -6659
▁ㅁㅕㅇㄷㅐ -6660
ㅅㅣㄱㅎㅚ -6661
▁IV -6662
▁230 -6663
ㄱㅠㄹㄹㅓ -6664
▁ㅇㅡㅇㄷㅏㅂ -6665
▁ㅅㅣㄴㄴㅕㅁ -6666
▁ㄱㅘㄴㄹㅛ -6667
▁ㅂㅏㄴㄷㅏ -6668
▁High -6669
▁ㅇㅏㄱㅅㅔ -6670
ㅎㅘㄹㅇㅑㄱ -6671
▁ㄸㅜㄱ -6672
▁ㄲㅏㅇㅍㅐ -6673
▁ㅇㅣㅁㅈㅣㄴ -6674
ㅇㅏㄶ -6675
▁172 -6676
ㅅㅜㄴㅅㅣㄴ -6677
▁ㅈㅜㅇㄱㅡㅂ -6678
▁ㅍㅕㄴㅎㅏㄴ -6679
▁HS -6680
▁ㅍㅣㄹㄷㅜ -6681
▁ㅊㅜㅇㄴㅏㅁ -6682
▁ㅇㅝㄹㅇㅛ -6683
▁Light -6684
▁ㅇㅣㄹㅅㅏㄴ -6685
▁ㄹㅏㅅ -6686
▁ㅇㅐㄹㄹㅓㄴ -6687
▁ㄲㅓㅂㅈㅣㄹ -6688
▁ㄱㅏㅁㄱㅡㅁ -6689
▁ㅈㅜㄹㄱㅣ -6690
ㅂㅐㅁ -6691
ㅌㅜㅇ -6692
▁ㅈㅠㄴ -6693
ㅈㅜㄴㄱㅕㅇ -6694
▁TE -6695
ㅊㅓㄴㅅㅏ -6696
▁ㅈㅜㄱㅇㅣㄴㄷㅏ -6697
▁ㅇㅏㄹㅍㅡ -6698
▁ㅎㅓㄹㅋㅡ -6699
che -6700
ME -6701
▁ㄲㅜㅀ -6702
▁ㅇㅑㅇㅅㅣㅁ -6703
ㅎㅐㅇㅈㅏ -6704
▁133 -6705
▁ㅎㅗㄱㅍㅕㅇ -6706
▁ㅈㅓㅇㅈㅗ -6707
▁ㅅㅜㄴㅊㅓㄴ -6708
▁ㅂㅏㄱㅈㅟ -6709
▁ㅅㅓㅂㅊㅟ -6710
▁LOVE -6711
▁ㅇㅠㄹㄹㅣ -6712
ㅂㅕㄴㅇㅣㄴ -6713
▁ㄱㅗㅇㄱㅜㄱ -6714
▁ㄹㅐㄴㅅㅡ -6715
▁ㅋㅔㄴㅈㅣ -6716
▁ㅌㅣㅁㅈㅏㅇ -6717
▁Your -6718
▁ㄱㅐㄱㄱㅘㄴ -6719
▁ㅈㅣㄴㄱㅜ -6720
ㅅㅜㄹㄹㅕㄱ -6721
▁ㄱㅏㅇㅅㅓ -6722
▁ㄴㅐㅇㄱㅣ -6723
▁ㅇㅓㄹㅌㅓ -6724
▁ㅅㅜㄴㅊㅏㄹ -6725
ㅆㅜ -6726
ㅈㅗㅁ -6727
▁ㅈㅗㄴㅅㅡㄴ -6728
▁Tw -6729
▁ㅅㅣㄴㅎㅏㄱ -6730
ㄷㅓㄱㅅㅕㄴ -6731
▁ㅇㅕㄴㄷㅏㄹ -6732
ㄷㅣㄹ -6733
▁la -6734
▁148 -6735
▁ㅇㅟㄴㅌㅓ -6736
▁ㅌㅗㅇㅂㅗ -6737
▁NEW -6738
ㅅㅡㄹㅇㅏ -6739
▁ㅂㅏㄱㅈㅗㅇ -6740
ㅍㅜㄴ -6741
▁ㅇㅐㅇㅋㅓ -6742
▁ㅇㅏㄹㄹㅕㅆ -6743
ㅈㅏㄱㅂㅣ -6744
▁ㅊㅜㄹㅈㅔ -6745
▁179 -6746
▁ㅎㅘㅇㅌㅐ -6747
▁Mr -6748
▁ㅂㅗㄱㄷㅗ -6749
▁ㅁㅏㅇㅅㅏㅇ -6750
ㄲㅓㅇ -6751
▁ㅎㅑㅇㅎㅏㄴㄷㅏ -6752
▁OF -6753
▁ㄴㅡㅇㅅㅜㄱ -6754
▁ㅁㅏㅇㅁㅕㅇ -6755
▁ㅇㅏㅍㅅㅓㄴ -6756
ica -6757
▁ㅌㅡㄹㄹㅣ -6758
▁ㄱㅕㄱㅌㅚ -6759
ㅇㅣㄴㅇㅓ -6760
ㄹㅔㄱㅌㅓ -6761
▁ㄴㅏㄹㄹㅏ -6762
▁ㄹㅣㅂㅅㅡ -6763
▁ㅅㅓㅇㅂㅕㄱ -6764
ㄹㅡㄴㅍㅏㄹ -6765
▁Gen -6766
▁ㄱㅗㅇㅅㅏㄴㅈㅜ -6767
▁ㅈㅏㅇㄱㅏㅂㅊㅏ -6768
▁GTA -6769
ㅁㅐㄴㅅㅡ -6770
▁ㅅㅣㅁㅎㅣ -6771
▁ㅂㅏㄴㄹㅗㄴ -6772
▁Mi -6773
IK -6774
▁ㄴㅜㅂ -6775
▁156 -6776
▁ㅁㅏㄹㄹㅏ -6777
▁Em -6778
▁ㅍㅜㅇㄱㅕㅇ -6779
▁am -6780
▁ㅅㅔㄱㅅㅣ -6781
▁ㅇㅕㅁㄷㅜ -6782
ㄴㅏㄹㄷㅜ -6783
▁154 -6784
▁ar -6785
▁ㅊㅓㄹㄱㅏㅂㅌㅏㄴ -6786
▁ㄲㅗㅁㅅㅜ -6787
▁ㅂㅏㄱㅎㅕ -6788
▁ㅌㅏㅁㄱㅜ -6789
▁ㅈㅗㅇㅁㅏㄹ -6790
▁ㅋㅗㄹㄹㅔ -6791
ors -6792
ㅅㅏㅇㅎㅘ -6793
▁Par -6794
ㅇㅠㄱㅊㅓㅇ -6795
ㅂㅜㅅ -6796
FL -6797
▁159 -6798
▁ㅂㅏㄹㅊㅏ -6799
▁ㅇㅏㅍㅅㅔ -6800
▁ㅂㅏㅅ -6801
ㅂㅏㄱㅇㅣ -6802
▁ㅈㅣㄴㅅㅜㄹ -6803
▁ㄷㅡㄹㄹㅣㄴㄷㅏ -6804
▁ㅁㅐㅇㅎㅘㄹㅇㅑㄱ -6805
▁ㅊㅓㄴㅈㅜ -6806
▁ㅇㅡㅁㅎㅑㅇ -6807
▁176 -6808
▁ㅇㅑㅇㅋㅣ -6809
▁ㄴㅏㄹㄹㅣㄴ -6810
▁222 -6811
▁ㅈㅣㄴㅎㅡㅇ -6812
HT -6813
▁ㅇㅣㄹㅋㅓ -6814
▁ㅊㅜㅁㅊㅜ -6815
▁ㅇㅣㄹㅋㅓㄷ -6816
▁MK -6817
▁ㅇㅡㅇㅅㅣ -6818
▁ㅊㅏㄱㅈㅣ -6819
▁ㅇㅏㄴㄷㅗㅇ -6820
▁ㅈㅓㄴㅂㅏㄴㄱㅣ -6821
▁ㄱㅗㅇㄹㅣㅂ -6822
▁ㅂㅜㄴㅅㅙ -6823
▁HARD -6824
▁ㅂㅏㄹㅌㅏㄱ -6825
▁1971 -6826
▁ㄷㅡㄱㅅㅣㄹ -6827
▁ㅈㅓㄴㅎㅏㄱ -6828
▁u -6829
▁ㅂㅡㄹㄹㅐㄱㅎㅗㄹ -6830
▁ㅂㅏㄹㅂㅏㄹ -6831
▁ㅅㅐㅇㅌㅐ -6832
▁ㅁㅣㄷㅇㅡㅁ -6833
▁ㅍㅏㄹㄹㅔ -6834
▁ㅁㅏㅈㅊㅜㄹ -6835
▁ㄹㅡㄴ -6836
▁ㅇㅓㅁㅍㅖ -6837
▁ㅅㅓㅇㅍㅗㄱ -6838
▁129 -6839
▁ㅁㅏㅈㅁㅜㄹ -6840
▁ㅍㅔㅇㄱㅟㄴ -6841
▁ㅌㅗㅇㅌㅡㄹㅇㅓ -6842
▁173 -6843
▁ㅎㅕㄴㅈㅣㄱ -6844
▁OCG -6845
▁ㅍㅣㄴㄹㅏㄴㄷㅡ -6846
▁FPS -6847
ㅋㅡㄹㄹㅣㄴ -6848
▁ㅈㅓㄴㅇㅣㅁ -6849
▁ㄴㅏㅁㅇㅑㅇ -6850
▁ㅈㅏㅂㅎㅕㅆ -6851
▁AE -6852
▁ㅊㅐㄱㅅㅏㅇ -6853
▁ㅌㅔㄱㅅㅏ -6854
▁153 -6855
ㄱㅗㅇㅍㅗ -6856
ㄹㅔㄴㅈㅡ -6857
▁ㅁㅕㅇㅌㅏㅁㅈㅓㅇ -6858
▁PL -6859
▁was -6860
▁ㅊㅓㄴㅁㅜㄴ -6861
▁ㅇㅣㅈㅇㅓ -6862
▁ㄲㅏㄹㄹㅕ -6863
CH -6864
▁ㅂㅏㄹㄹㅔㄴㅌㅏ -6865
▁ll -6866
ㅁㅔㄴㅌㅓ -6867
▁ㅈㅓㄴㄷㅗ -6868
ㅍㅣㄹㄹㅗ -6869
▁ㅅㅓㄴㅍㅗ -6870
ㄱㅕㅁ -6871
▁ㄴㅏㅁㅎㅏㄴ -6872
▁ㅅㅣㄴㅈㅜ -6873
ㅌㅏㄹㄹㅣㄴ -6874
▁ㄲㅗㅇ -6875
▁ㅈㅏㅇㅈㅔ -6876
pr -6877
▁ㅇㅔㄹㄷㅓ -6878
▁ㅈㅣㄹㅍㅜㅇ -6879
UT -6880
▁ㅁㅝㄴㅈㅣ -6881
▁ㅅㅑㅇ -6882
▁137 -6883
▁Kn -6884
eep -6885
▁ㅁㅏㅈㄷㅐ -6886
▁Of -6887
▁ㅅㅏㄹㄹㅏ -6888
▁ㄴㅐㅇㄷㅗㅇ -6889
▁ㅎㅗㄴㄷㅏ -6890
ㅌㅜㄹ -6891
ㄹㅏㄱㅅㅣㄹ -6892
▁ㅇㅝㄴㅎㅐㅆ -6893
▁ㅈㅏㄴㅎㅐ -6894
ㄹㅡㅁㅇㅏ -6895
▁ㅈㅓㄹㅈㅓㅇ -6896
▁~~ -6897
les -6898
▁What -6899
▁ㅊㅐㄱㄹㅑㄱ -6900
▁ㅇㅕㅇㄷㅡㅇ -6901
ㅇㅓㄴㅈㅏ -6902
▁ㅃㅐㄴ -6903
ㅅㅔㅁ -6904
▁GHz -6905
▁ㅁㅗㄱㅍㅗ -6906
▁ㅊㅓㅇㄹㅛㅇ -6907
ㄷㅗㄹㄹㅕ -6908
▁ㅁㅓㅅㅇㅣㅆ -6909
▁ㅂㅜㄹㅁㅜㄴ -6910
▁ㄱㅗㄹㅊㅣ -6911
▁ㅋㅔㄴㅌㅏ -6912
ㅅㅓㅇㄱㅜㄴ -6913
▁ㅇㅝㄴㅎㅏㄴㄷㅏ -6914
▁ㅁㅏㄹㅅㅗ -6915
ㅇㅜㄹㅅㅣ -6916
▁1969 -6917
▁ㅈㅏㅇㅅㅣ -6918
ㄱㅗㄷ -6919
▁ㅁㅓㄴㅈㅣ -6920
ㄴㅓㄱ -6921
▁280 -6922
▁ㅊㅗㅇㅅㅏ -6923
▁ㄷㅔㄹㅌㅏ -6924
▁ㅅㅡㄹㄹㅐㅁ -6925
▁BM -6926
▁ㅅㅜㅇㅂㅐ -6927
▁ㅇㅓㄹㅇㅓ -6928
ㄹㅕㄱㅈㅏ -6929
▁ㅎㅗㄴㅇㅣㄴ -6930
▁174 -6931
▁ㅊㅗㅇㅅㅓㄴㄱㅓ -6932
▁225 -6933
▁ㅁㅕㄴㅈㅓㅂ -6934
▁ㅇㅔㅅㅈㅣ -6935
▁ㄱㅕㅇㅂㅗ -6936
▁ㄱㅗㄹㅁㅗㄱ -6937
▁139 -6938
▁ㅈㅜㅇㄱㅗㅇ -6939
▁Per -6940
▁134 -6941
▁163 -6942
ㅂㅗㄹㄹㅜ -6943
▁ㅇㅝㄴㅁㅏㅇ -6944
▁ㄴㅘㅆㄷㅏ -6945
ㄴㅕㄴㄱㅣ -6946
▁167 -6947
▁ㅊㅓㅇㅅㅏ -6948
▁ㄷㅗㅇㄴㅏㅁㅇㅏ -6949
▁ㅇㅕㄹㄱㅣ -6950
▁143 -6951
▁ㅅㅣㅁㅇㅕㄴ -6952
▁ㅇㅕㅆㅇㅡㅁ -6953
▁ㄷㅡㄹㄹㅓ -6954
▁Fe -6955
▁ㅍㅣㄹㄹㅏ -6956
▁ㅇㅏㄱㄱㅗㄱ -6957
▁TO -6958
▁ㄷㅏㄴㅇㅢ -6959
▁GPU -6960
▁ㅂㅜㄴㅍㅗ -6961
▁Heart -6962
ㅇㅣㄹㅅㅡ -6963
▁ㅇㅕㄹㄹㅣㄴㄷㅏ -6964
ㄱㅔㄹ -6965
▁ㅈㅣㄴㄷㅗ -6966
ㅂㅏㄴㅅㅣㄴ -6967
▁ㅆㅏㅎㅇㅕ -6968
▁Good -6969
ㅊㅗㅇㅈㅏㅇ -6970
▁ㅈㅣㅇㅋㅡ -6971
ㅋㅓㄴㄷㅡ -6972
▁ㅅㅣㄹㄹㅗ -6973
▁yout -6974
▁142 -6975
▁ㅈㅓㄴㄱㅘㅇ -6976
▁CO -6977
▁ㅎㅏㅁㅅㅓㅇ -6978
▁2500 -6979
agon -6980
▁ㅅㅣㄴㅅㅜ -6981
▁ㅇㅘㅇㅎㅜ -6982
▁ㄷㅓㄴㅈㅕㅆ -6983
ㅅㅏㄴㄷㅗㅇ -6984
▁ㅇㅘㅇㄱㅘㄴ -6985
ㅌㅡㄹㄹㅣ -6986
▁ㄷㅗㄱㅅㅜ -6987
▁ㅈㅓㄴㅅㅜ -6988
▁ㄱㅘㄴㄱㅘㅇㄱㅐㄱ -6989
ㅇㅟㅂ -6990
ert -6991
▁ㅂㅏㄴㄹㅏㄴㄱㅜㄴ -6992
▁164 -6993
ㄱㅗㅇㅎㅘ -6994
▁ㅎㅏㅇㄱㅗㅇㅅㅏ -6995
▁CN -6996
▁beat -6997
▁ㄸㅏㅁ -6998
▁ㅂㅜㄹㅋㅙ -6999
▁pro -7000
EL -7001
ㄹㅣㄴㅇㅏ -7002
▁ㄱㅜㄱㄱㅣ -7003
▁ㅎㅏㄹㅅㅜ -7004
▁ㅅㅣㅁㅇㅑ -7005
▁ㅇㅐㅁ -7006
▁ㄱㅏㄹㄱㅜ -7007
▁ㄷㅏㅁㄱㅕ -7008
▁ONE -7009
▁ㅇㅡㅁㅅㅐㄱ -7010
▁ㅊㅓㅇㅈㅏㅇ -7011
▁ㄱㅡㄱㅇㅜ -7012
▁ㅅㅓㄴㅇㅣㄴ -7013
▁ㄷㅗㅇㅅㅏ -7014
▁ㅈㅣㄱㄱㅕㄱ -7015
ㅈㅣㄹㄹㅐㄴㄷㅡ -7016
▁ㅇㅏㄱㄹㅕㅇ -7017
▁ㅈㅣㄱㅌㅗㅇ -7018
▁136 -7019
▁ㅂㅐㅌ -7020
▁ㄱㅗㅇㄱㅗ -7021
▁ㄱㅣㅁㅊㅓㄴ -7022
ㅈㅗㅁㅁㅜ -7023
▁ㅎㅡㅁㅈㅗㅁㅁㅜ -7024
▁ㅂㅣㄹㅂㅗ -7025
▁ㅋㅗㄴㅅㅔㅂㅌㅡ -7026
▁ㅋㅣㅇㄷㅓㅁ -7027
ㄴㅜㄹ -7028
▁ㅂㅓㅈㄲㅗㅊ -7029
▁Dark -7030
}} -7031
▁KC -7032
▁time -7033
▁ㅌㅔㅁㅍㅗ -7034
▁ㄲㅐㅇ -7035
▁ㅈㅓㄱㄹㅣㅂ -7036
▁ㅇㅏㄴㅊㅓㄹㅅㅜ -7037
▁ㅂㅏㅇㅇㅏㄴ -7038
▁ㄹㅐㄱ -7039
▁ㅇㅣㄹㅎㅘㄴ -7040
▁ㅈㅓㅂㅇㅓ -7041
ㅂㅐㄱㄱㅘ -7042
▁ㄱㅜㅇㅈㅓㄴ -7043
▁ㅇㅏㄹㄹㅔㄱㅅㅏㄴㄷㅓ -7044
ㄹㅣㅂㅌㅡ -7045
▁ㄱㅕㅇㅊㅏㄹㅊㅓㅇ -7046
▁ㅇㅏㅍㄷㅟ -7047
▁ㅎㅏㄴㅊㅡㅇ -7048
▁ㅇㅘㄴㄱㅜ -7049
▁ㄷㅗㅇㄱㅓ -7050
▁ㅂㅓㄴㄱㅏㄹ -7051
▁ㄱㅕㅇㅈㅣ -7052
▁ㅌㅓㅁ -7053
▁ㅎㅜㄴㅎㅜㄴ -7054
▁ㅁㅗㅁㅁㅜ -7055
▁1963 -7056
ㅃㅜㅁ -7057
▁ㅅㅜㄱㅈㅜ -7058
▁157 -7059
ㅇㅑㅇㅅㅐ -7060
ㅍㅏㄱ -7061
▁ㅈㅜㅇㅅㅣㅁㅈㅣ -7062
▁330 -7063
▁0900 -7064
▁ㅅㅜㄹㅈㅣㅂ -7065
other -7066
ㅍㅜㄹㅇㅣ -7067
ㄸㅜㅀ -7068
▁ㅇㅕㄴㅇㅢ -7069
iew -7070
▁ㅇㅕㄹㅅㅔ -7071
▁ab -7072
▁ㅎㅗㄴㄷㅗㅇ -7073
▁ㅊㅜㄹㄱㅗ -7074
ideo -7075
land -7076
ㅌㅠㄴ -7077
▁ㅁㅜㄴㅅㅣㄴ -7078
▁Sm -7079
▁ㄱㅡㄴㄹㅕㄱ -7080
▁ㅍㅜㄹㅇㅓ -7081
▁ㅂㅏㅇㅎㅗ -7082
▁ㄷㅏㅇㄴㅏ -7083
▁ㅈㅓㅇㅅㅓ -7084
▁ㄲㅡㅌㅈㅏㅇ -7085
▁ㅇㅑㅇㄷㅐ -7086
▁ㅈㅓㄴㅂㅏㄴㅈㅓㄴ -7087
▁ㅅㅜㄴㅈㅓㅇ -7088
▁ㄴㅜㄴㅂㅣㅊ -7089
▁ㅂㅏㄱㅅㅏㄹㄴㅏ -7090
▁ㅂㅜㄹㄹㅕ -7091
▁ㅂㅜㄹㄹㅣㄹ -7092
▁ㅍㅐㄹ -7093
air -7094
ㅈㅜㅇㄱㅛ -7095
▁ㅊㅏㅇㄹㅣㅂ -7096
ㅃㅜ -7097
▁Sl -7098
▁ㅎㅏㅂㅊㅣ -7099
▁ㅇㅕㄴㄱㅡㅁㅅㅜㄹㅅㅏ -7100
ㅎㅕㄴㅈㅣㄴ -7101
▁1968 -7102
▁270 -7103
▁ㅅㅓㄹㅌㅏㅇ -7104
▁ㅅㅓㅇㅅㅜㄱ -7105
▁ㅆㅡㄹㅇㅓ -7106
▁ㅊㅜㄹㅇㅕㄴㅈㅣㄴ -7107
▁ㅂㅗㄴㅇㅢ -7108
▁ㅊㅣㅁㅎㅐ -7109
▁ㅈㅣㅂㅍㅣㄹ -7110
▁Blue -7111
▁ㄴㅗㅇㅁㅣㄴ -7112
▁Baby -7113
ator -7114
ㅍㅡㄹㄹㅔㄱㅅㅡ -7115
▁AG -7116
▁ㄷㅏㄹㄹㅏㅆ -7117
▁ㅉㅣㅈㅇㅓ -7118
▁...... -7119
oot -7120
▁ㄸㅒ -7121
▁ㅈㅓㄴㅇㅕㄹ -7122
▁ㅎㅘㄴㅅㅏ -7123
▁Ac -7124
anna -7125
▁ㅈㅏㅇㅍㅜㅇ -7126
ㅅㅜㄹㅈㅏ -7127
▁ㅅㅗㄹㄹㅏ -7128
▁ㅅㅓㄴㄱㅛ -7129
▁ㅈㅗㄴㄷㅐ -7130
▁ㄷㅗㅇㅎㅗ -7131
▁ㅊㅓㅇㄴㅏ -7132
▁ㅂㅏㄱㅅㅏㅇ -7133
▁ㅂㅓㄹㄱㅡㅁ -7134
▁ㄴㅐㅂ -7135
ush -7136
▁ㅅㅔㄱㅅㅡ -7137
▁ㅈㅣㅂㅎㅏㅂ -7138
▁ㅇㅕㄴㅎㅚ -7139
▁ㄷㅏㅁㅇㅣㅁ -7140
▁ㅎㅏㅁㅈㅐ -7141
▁149 -7142
ㄹㅗㄴㅈㅡ -7143
▁ㅂㅏㅇㅇㅓㄴ -7144
▁ㅌㅐㅅㅇㅣ -7145
▁ㅂㅏㅇㄱㅗㅇ -7146
▁ㅅㅣㅁㅅㅏㅇ -7147
▁ㅈㅏㅁㅈㅏ -7148
▁ㅍㅜㄹㄹㅣㄴ -7149
▁ㄱㅏㅇㅅㅔ -7150
▁ㅇㅑㅇㅈㅜ -7151
▁ㅆㅙ -7152
▁ㄱㅏㄱㄱㅜㄱ -7153
ㅇㅑㅇㅅㅣ -7154
ㅇㅔㄹㄹㅏ -7155
▁ㄴㅓㄱㄴㅓㄱ -7156
ㄹㅗㄹㄹㅓ -7157
▁ㄱㅣㅁㅇㅕㄴ -7158
▁ㅊㅗㅇㄷㅗㄱ -7159
▁ㄹㅚ -7160
▁146 -7161
▁ㅅㅏㅇㅅㅙ -7162
▁ㅁㅏㄹㅇㅏ -7163
▁ㅍㅜㄱ -7164
▁ㅈㅜㅇㄴㅕㄴ -7165
▁ㅎㅘㄱㄱㅗ -7166
▁Li -7167
▁ㅎㅘㅇㅅㅣㄹ -7168
▁OK -7169
▁Fire -7170
▁ㄱㅗㅇㅁㅗ -7171
▁ㅁㅔㄹㄹㅗㄴ -7172
▁ㅅㅗㄴㄲㅗㅂㅎㅣ -7173
ㅌㅣㄹㄹㅓ -7174
na -7175
▁ㅆㅜ -7176
▁ㄴㅏㅁㅁㅣ -7177
▁ㄱㅕㄱㅈㅓㄴ -7178
▁ㅅㅣㅁㅎㅐㅆ -7179
▁ㅍㅜㅇㄱㅣ -7180
▁ㅇㅏㅁㅋㅓㅅ -7181
▁ㄸㅡㄹ -7182
▁ㅊㅏㄹㄹㅣ -7183
▁ㅋㅡㄹㄹㅓ -7184
▁260 -7185
ㅈㅓㄴㅌㅡ -7186
▁ㄴㅏㄺ -7187
▁ㅈㅗㅇㅊㅏㄱ -7188
▁ㅅㅣㅁㅎㅘ -7189
▁ㅇㅣㄹㅅㅏㅁ -7190
▁ㅈㅏㅇㄷㅗㅇ -7191
▁El -7192
ㅇㅡㄱ -7193
▁sm -7194
▁ㅂㅏㅇㅎㅘ -7195
▁ㅇㅝㄹㄷㅡㅇ -7196
▁ㄹㅓㄹ -7197
▁ㅂㅣㄴㅌㅡㅁ -7198
▁ㄱㅗㅇㅇㅕㅇ -7199
ㅌㅗㅇㅅㅏ -7200
▁ㅁㅏㄹㄴㅕㄴ -7201
▁ㅂㅕㅇㅈㅏㅇ -7202
▁ㅅㅏㅅ -7203
ㄷㅏㄴㅈㅣ -7204
▁ㄱㅕㅇㄱㅘ -7205
▁ㅅㅓㅇㄱㅏ -7206
▁Dis -7207
▁ㄱㅏㅆㅇㅡ -7208
OID -7209
▁ㄷㅝㅆ -7210
ㄹㅐㄴㅊㅏ -7211
▁ㅅㅏㅇㅈㅏㅇ -7212
▁ㅇㅣㄴㅊㅔ -7213
▁ㅁㅐㄱㄹㅏㄱ -7214
▁ㄹㅐㅂㅌㅓ -7215
ady -7216
▁ㅈㅓㄱㅅㅓㅇ -7217
▁ㅈㅜㄹㄱㅔ -7218
▁ㅇㅣㄹㅍㅜㅁ -7219
▁ㅅㅣㄹㄹㅕㄱㅈㅏ -7220
▁BEMAN -7221
▁ㅅㅏㅇㄱㅗㅇ -7222
▁ㅈㅓㄱㅈㅐ -7223
▁ㄱㅗㅇㅅㅗㄴ -7224
▁kr -7225
ㅁㅏㅇㅊㅕ -7226
▁ㅎㅏㅂㅂㅓㅂ -7227
▁ㅊㅐㄱㅇㅣㅁㅈㅣ -7228
▁ㅅㅓㄱㅅㅏㅇ -7229
▁ㅈㅜㅇㅎㅏㄱㅅㅐㅇ -7230
▁ㅎㅐㄴㄷㅡㄹ -7231
▁ㅅㅣㄴㅂㅕㅇ -7232
▁ㄹㅑ -7233
▁ㅂㅕㄹㅊㅣㅇ -7234
ㄴㅏㅇ -7235
▁ㅍㅕㄴㄱㅕㄴ -7236
▁ㅇㅜㄴㅂㅏㄴ -7237
▁ㄴㅗㄹㄹㅏㄴ -7238
▁ㅅㅗㄱㄹㅕㄱ -7239
▁DJMAX -7240
▁BEMANI -7241
▁ㅁㅜㄴㅂㅓㅂ -7242
▁ㄱㅕㄱㄱㅣ -7243
ㄷㅡㄹㅇㅣㄹ -7244
▁ㅇㅣㄴㅍㅡㄹㄹㅔ -7245
▁ㅅㅐㅇㅅㅓㄴ -7246
▁ㅁㅚ -7247
▁ㄷㅟㅅㅁㅕㄴ -7248
▁fl -7249
▁ㅂㅣㄴㅂㅓㄴ -7250
▁Champ -7251
ㅌㅓㄴㅌㅡ -7252
▁ㅅㅗㄱㄱㅗㅇ -7253
▁ㅂㅜㄹㅎㅘ -7254
▁ㅇㅕㄴㅁㅏㄹ -7255
ution -7256
▁STR -7257
▁cc -7258
▁ㄷㅏㄹㄹㅐ -7259
▁ㅂㅗㄴㄱㅏ -7260
ㅇㅏㅇㅅㅡ -7261
▁ㅁㅕㅇㅁㅕㅇ -7262
ㅍㅡㄹㄹㅔㄱ -7263
▁ㄱㅕㄱㄹㅣ -7264
▁ㅅㅡㄹㄹㅣ -7265
▁ㅂㅏㄱㅁㅕㅇㅅㅜ -7266
▁ㅁㅜㅇㅊㅕ -7267
▁Pre -7268
▁ㅌㅗㅇㅎㅐㅇ -7269
ㅃㅜㄹ -7270
▁ㅎㅏㅇㅇㅏ -7271
▁ㅂㅜㄱㄱㅜ -7272
▁ㄴㅓㅁㅅㅏ -7273
▁Ev -7274
▁205 -7275
▁1967 -7276
▁ㅁㅐㅁ -7277
ㅉㅗㅊ -7278
▁ㅅㅗㅁㅆㅣ -7279
▁ㅍㅕㅇㅊㅏㅇ -7280
▁ㄷㅏㅇㄱㅜㄱ -7281
▁ㅇㅐㄴㄷㅣ -7282
▁DB -7283
ㄴㅐㅂ -7284
▁ㄷㅗㄱㄹㅣㅂㅇㅜㄴㄷㅗㅇ -7285
▁ㅈㅓㅇㅎㅕㅇ -7286
▁ㅅㅓㄴㄱㅗㄱ -7287
▁ㅈㅡㅇㅇㅣㄴ -7288
▁ㅅㅓㅇㄱㅣ -7289
▁ㅇㅏㅍㅁㅕㄴ -7290
ㄸㅗㄱ -7291
▁ㄱㅕㅇㅈㅣㄹ -7292
▁ㅃㅗㅁ -7293
▁ㅈㅣㄹㄹㅣ -7294
▁ㅅㅣㄴㅇㅣㅁ -7295
▁ㅈㅓㄴㅇㅕㅁ -7296
▁ㅇㅣㄹㄹㅖ -7297
▁ㅋㅡㄹㄹㅣㅂ -7298
▁ㅂㅏㄱㅇㅛㅇ -7299
▁ㅇㅝㄴㅎㅠㅇ -7300
ㅅㅓㄱㅁㅣㄴ -7301
▁ㄷㅏㄴㅅㅣㄱ -7302
ium -7303
▁550 -7304
▁RP -7305
▁GG -7306
ㅌㅜㄱ -7307
▁ㅅㅓㄱㅅㅏ -7308
▁ㅈㅣㄹㅎㅘㄴ -7309
▁ㅈㅓㅇㅈㅐ -7310
▁ㅇㅜㄴㅅㅓㄱ -7311
▁ㄲㅡㅌㄴㅏㅆ -7312
▁147 -7313
▁ㄷㅗㅇㄹㅗ -7314
▁ㄱㅘㅇㅈㅓㄴㅅㅏ -7315
▁ㄱㅏㅇㅈㅓㅁㄱㅣ -7316
ㄸㅡㄱㅇㅣ -7317
▁Grand -7318
▁ㅁㅗㅂㅅㅣ -7319
▁ㅂㅡㄹㄹㅐ -7320
▁Rock -7321
ㅃㅐ -7322
▁ㅇㅝㄴㅈㅏㄱㅈㅏ -7323
▁ㅋㅗㄱ -7324
▁back -7325
▁ㄴㅔㄱㅅㅓ -7326
▁ㅂㅓㅁㅎㅐㅇ -7327
ㅁㅜㄴㅅㅓ -7328
▁Summer -7329
ㄷㅠㄹㄹㅓㅁ -7330
▁ㅍㅔㄴㄷㅠㄹㄹㅓㅁ -7331
ㅁㅏㄹㄹㅕ -7332
ㅇㅛㅇㅅㅗ -7333
▁ㄷㅗㅇㄴㅕㄴ -7334
▁ㄱㅜㄹㄹㅕ -7335
▁ㅇㅣㅂㄱㅜㄱ -7336
▁SCP -7337
▁211 -7338
▁ㅁㅜㄲㅇㅕ -7339
gain -7340
ㅈㅏㅇㅇㅣ -7341
▁ㄷㅗㅇㄷㅡㅇ -7342
▁ㅈㅓㄴㄷㅜ -7343
▁ㅌㅏㄴㅌㅏㄴ -7344
▁ㅊㅗㅇㅍㅕㅇ -7345
▁now -7346
▁ㅌㅗㅇㅅㅜ -7347
▁ㅂㅗㄱㅁㅕㄴ -7348
▁Over -7349
▁ㅂㅏㄱㅊㅏㄴ -7350
▁ㅇㅝㄴㅈㅗㅇ -7351
▁ㅁㅏㄴㄹㅜ -7352
▁ㅈㅓㄴㄹㅖ -7353
▁ㄱㅗㅇㅅㅡㅂ -7354
▁This -7355
ㅍㅕㅇㄱㅏ -7356
▁day -7357
▁ㄲㅗㅂㅎㅣㄴㄷㅏ -7358
▁ㄱㅜㄴㄹㅣㅁ -7359
▁ㅂㅕㄹㅈㅏ -7360
▁ㅇㅣㄴㅇㅓ -7361
▁ㄱㅝㄴㄴㅡㅇ -7362
▁ㄱㅏㅁㅈㅓㄴ -7363
▁ㅇㅡㄴㅁㅔ -7364
▁ㅎㅘㄴㅅㅜ -7365
▁ㄱㅏㅇㅌㅣㅁ -7366
▁ㅅㅣㅁㅁㅜㄴ -7367
ction -7368
▁ㅇㅕㅇㄷㅡㅇㅍㅗ -7369
▁ㅌㅓㅇ -7370
▁ㄱㅡㄴㅇㅟ -7371
▁LED -7372
▁Dance -7373
▁ㅎㅣㄹㄹㅣㅇ -7374
▁But -7375
▁ㅅㅣㄹㄹㅜ -7376
▁ㅅㅗㄱㅂㅏㄱ -7377
▁ㅇㅗㄴㅁㅗㅁ -7378
▁ㅅㅏㄹㅇㅣㄴㅁㅏ -7379
▁ㅎㅏㄴㄱㅏㅇ -7380
ㅅㅡㅇㅁㅣㄴ -7381
▁ㅂㅏㅇㄱㅘ -7382
▁ㄱㅘㄴㅈㅓㄹ -7383
▁DR -7384
▁ㄱㅣㄹㄱㅓ -7385
▁ㄱㅘㅇㅅㅗㄱ -7386
▁ㅇㅕㅁㅅㅐㄱ -7387
▁ㄷㅗㅇㅂㅜㄱ -7388
▁ㅎㅗㄹㄷㅣㅇ -7389
ne -7390
irst -7391
▁ㅈㅓㅁㅅㅏ -7392
ㄱㅕㄹㅅㅡㅇ -7393
▁ㄷㅏㄱㅊㅣ -7394
ㄷㅗㅇㅎㅏ -7395
▁VOC -7396
▁ㅍㅣㄱㅅㅔㄹ -7397
▁ㅂㅏㄱㅌㅏㄹ -7398
▁SL -7399
ㅅㅡㄹㄹㅣㅁ -7400
▁ㅂㅗㄹㄲㅏ -7401
▁ㄱㅕㄱㅊㅣㅁ -7402
▁ㅈㅣㄱㅅㅗㄱ -7403
ㅈㅓㄱㄷㅏㄴ -7404
▁ㅁㅜㄴㄱㅗ -7405
ㄴㅘ -7406
▁Wii -7407
▁ㄱㅏㅁㄱㅣ -7408
▁ㅂㅜㄹㅍㅕㅇ -7409
▁ㅌㅗㅇㅈㅡㅇ -7410
▁ㄲㅣㄴ -7411
▁ㅅㅗㄱㅍㅕㄴ -7412
▁ㄱㅗㅇㅊㅓㄴ -7413
▁ㅂㅏㄹㅎㅕㄴ -7414
▁MSL -7415
ount -7416
▁Ste -7417
ㅈㅔㄹㄹㅔ -7418
▁ㅂㅏㄱㅈㅐ -7419
▁ㄱㅕㅇㅅㅜㄴ -7420
▁ㅁㅗㄱㅈㅐ -7421
ㅅㅓㄹㄱㅏ -7422
▁Gold -7423
ㄱㅕㄱㅈㅡㅇ -7424
▁ㅇㅣㄴㅌㅔㄹ -7425
▁ㅅㅓㅇㅈㅣㄱㅈㅏ -7426
▁ㅁㅕㅇㄴㅏ -7427
▁ㅅㅓㅇㅂㅣ -7428
▁3164 -7429
▁HG -7430
ㅋㅗㅂㅌㅓ -7431
▁ㅅㅏㅇㅎㅐㅇ -7432
▁DX -7433
▁Just -7434
▁ㄴㅣㄱㅅㅡ -7435
▁ㅇㅘㅇㅈㅘ -7436
▁ㄷㅗㅇㅁㅔ -7437
▁ㅅㅓㅇㅅㅜ -7438
▁ㅊㅣㄴㅇㅟ -7439
▁ㅅㅔㅅㅉㅐ -7440
▁ㄴㅏㅁㅂㅏㄹ -7441
▁ㅈㅜㄹㅈㅜㄹ -7442
let -7443
▁1966 -7444
▁ㅊㅓㅅㄴㅏㄹ -7445
▁ㄷㅏㄴㅁㅏㄹ -7446
▁HK -7447
ring -7448
▁ㄴㅗㅇㄹㅏㄱ -7449
▁ㄱㅜㄱㅁㅣㄴㄷㅏㅇ -7450
ㅈㅜㅁㅁㅏ -7451
▁ㄷㅗㅇㅈㅗ -7452
▁ㅇㅣㄹㅇㅣㄹㅇㅣ -7453
▁news -7454
ㅃㅕ -7455
▁FL -7456
▁ㅅㅗㄱㅇㅣ -7457
ㅎㅚㄱㅅㅏ -7458
▁ㅂㅏㄱㅊㅣ -7459
▁ㅈㅡㅇㅂㅏㄹ -7460
▁ㅂㅏㅇㅅㅗㅇㅇㅣㄴ -7461
▁204 -7462
▁ㅊㅏㅇㅅㅔ -7463
ㄱㅓㅅㅈㅓ -7464
▁ㅅㅏㅁㅊㅗㄴ -7465
▁ㅁㅜㄹㄱㅏ -7466
▁ㅁㅕㄹㅈㅗㅇ -7467
▁ㅅㅗㄴㅌㅗㅂ -7468
▁ㅂㅕㄹㅈㅓㅁ -7469
eng -7470
▁DNA -7471
▁ㅂㅓㄴㅅㅣㄱ -7472
DS -7473
▁ㅅㅐㄴㅍㅡ -7474
▁ㅂㅏㄱㅇㅕㅇ -7475
▁ㅈㅓㅇㅎㅏㄴ -7476
ㅋㅣㅂ -7477
▁ㅎㅗㄴㅎㅏㅂ -7478
▁ㄱㅗㅇㅈㅗㄴ -7479
▁166 -7480
ㅂㅗㄱㄹㅕㄱ -7481
▁ㅎㅟㅂㅆㅏ -7482
▁ㄱㅕㅇㄱㅏㅁ -7483
▁ㅎㅏㄴㅅㅜㅁ -7484
ports -7485
▁TW -7486
▁ㅊㅐㄱㅈㅓㅇ -7487
▁ㅂㅗㄱㅇㅛㅇ -7488
▁ㄱㅡㅂㅎㅣ -7489
▁pt -7490
▁ㅊㅣㄴㅁㅗㄱ -7491
▁ㄱㅗㅇㅈㅏ -7492
ㄱㅝ -7493
▁ㅈㅓㅇㅈㅓㅇ -7494
▁ㄱㅡㄱㅅㅗ -7495
▁ㅈㅣㄱㅁㅜ -7496
▁Can -7497
▁ㄷㅗㅇㅈㅗㄱ -7498
▁ㅂㅓㄹㅇㅕ -7499
▁Korea -7500
▁ㅈㅓㅇㅋㅡ -7501
▁ㅁㅕㅇㄱㅗㄱ -7502
▁ㅇㅣㄴㅅㅙ -7503
▁ㄹㅗㄹㄹㅣㅇ -7504
▁ㄷㅏㄴㄱㅘ -7505
▁ㅇㅏㄱㅇㅓ -7506
ㄱㅏㄱㅎㅕㅇ -7507
ㅈㅏㄶ -7508
▁ㅎㅕㄴㅅㅏㅇㄱㅡㅁ -7509
▁FB -7510
▁CA -7511
▁ㅂㅏㄱㅎㅐ -7512
ㅇㅣㄴㅈㅓㄴ -7513
ㅅㅣㄹㄹㅣ -7514
ina -7515
▁ㄹㅠㄱ -7516
ㅌㅡㄹㄹㅣㄴ -7517
▁VOCAL -7518
▁ㅂㅓㄹㄹㅣ -7519
▁ㄷㅗㄹㅂㅗ -7520
▁ㅅㅣㄹㅅㅡㅂ -7521
ally -7522
ㄹㅔㄴㅅㅡ -7523
▁ㅁㅏㄴㅎㅐㅇ -7524
▁ㅍㅣㄹㅌㅓ -7525
▁ㅅㅓㄹㅅㅏㅇㄱㅏ -7526
▁ㅈㅔㄱ -7527
▁KTX -7528
ERO -7529
▁ㅇㅑㅌ -7530
▁ㅁㅏㅇㅎㅐ -7531
▁ㅆㅗㄴㄷㅏ -7532
▁ㅂㅓㄹㅇㅣㄴㄷㅏ -7533
▁Sec -7534
▁ㅈㅏㅇㅇㅝㄴ -7535
▁ㅇㅏㄹㅂㅔ -7536
ㅎㅘㅇㅅㅐㄱ -7537
ㄷㅡㄷ -7538
▁ㄱㅣㅁㅇㅝㄴ -7539
▁ㅇㅣㄴㅊㅓㄴㄱㅘㅇㅇㅕㄱㅅㅣ -7540
▁ㅂㅏㄴㄱㅜㄴ -7541
ㅑㄹ -7542
▁ㅎㅗㅇㅈㅣㄴㅎㅗ -7543
OO -7544
UR -7545
▁ㅈㅣㄴㅅㅜ -7546
▁650 -7547
▁ㅁㅜㄴㅇㅓ -7548
▁ㅅㅣㄴㅈㅓㅇ -7549
▁MHz -7550
▁ㄴㅏㄴㄱㅏㅁ -7551
▁ㅇㅖㄴ -7552
▁ㄱㅘㅇㄷㅐ -7553
▁ㅅㅗㄹㄹㅣ -7554
▁At -7555
▁Music -7556
▁++ -7557
▁EBS -7558
ㅆㅐ -7559
▁ㅂㅕㅇㅅㅏㄹㅌㅏ -7560
▁ㄸㅗㄱㄸㅗㄱ -7561
▁ㅅㅔㅂ -7562
ㄹㅏㄴㅌㅡ -7563
▁ㅅㅓㄴㅇㅜ -7564
▁ㅊㅓㄴㅁㅏ -7565
▁ㅂㅜㄴㅎㅗㅇㅅㅐㄱ -7566
▁ㅇㅗㄻㄱㅕㅆ -7567
ㅅㅓㅇㄴㅕㄴ -7568
▁ㅂㅏㄱㄱㅕㅇ -7569
▁Su -7570
ㅋㅕㅆㅇㅡ -7571
▁ㅅㅏㄹㅅㅏㅇ -7572
▁ㄱㅏㅁㅎㅐㅇ -7573
▁ㅂㅜㄱㅇㅏ -7574
▁1962 -7575
▁Ep -7576
▁ㅈㅣㅍ -7577
▁ㄱㅣㅁㅎㅕㅇ -7578
ㅇㅗㅁ -7579
▁ㅇㅣㅂㅇㅑㅇ -7580
▁ㅍㅗㅇ -7581
▁ㅊㅗㅇㅇㅕㄹ -7582
▁ㅎㅗㅁㅈㅡ -7583
▁ㅇㅕㄹㄹㅏㅁ -7584
▁ㅁㅏㅇㄹㅕㅇ -7585
▁ㄸㅏㄹㄱㅣ -7586
▁ㅅㅡㅂㄱㅘㄴ -7587
▁ㅎㅏㄴㅂㅏㄹ -7588
▁Live -7589
▁ㅃㅗㅇ -7590
▁ㅎㅏㄱㅈㅓㅁ -7591
▁get -7592
▁ㅈㅏㅇㅎㅏㄱ -7593
ART -7594
▁ㅇㅏㄱㅇㅢ -7595
▁Comm -7596
▁ㅈㅣㄴㄹㅣ -7597
▁ㅊㅜㄴㅊㅓㄴ -7598
▁ㄷㅏㄴㅈㅓㅇ -7599
ㅅㅛㅂ -7600
ㄴㅓㄹㄷㅡ -7601
▁GN -7602
ㅇㅓㄹㄱㅓ -7603
▁ㄱㅘㄴㅈㅣㄱ -7604
▁ㄷㅏㄹㅂㅣㅊ -7605
▁ㅇㅑㅇㅂㅗ -7606
▁ㅇㅏㅁㅇㅜㄹ -7607
ㅊㅜㄹㅇㅐㄱ -7608
▁ㅅㅓㄴㄷㅐ -7609
▁ㅈㅏㄹㄹㅕ -7610
ㅈㅓㄱㅈㅏ -7611
▁ㅍㅏㄴㄱㅝㄴ -7612
ㅃㅣ -7613
use -7614
▁ㄷㅗㅇㅁㅜㄴ -7615
▁ㅁㅏㅇㅎㅏㄴ -7616
▁ㅂㅏㄹㄱㅘㅇ -7617
▁ㄱㅡㅁㅅㅐㄱ -7618
▁MX -7619
▁ㄷㅡㅇㄱㅛ -7620
▁ㄱㅏㅇㅅㅜ -7621
ㅈㅓㅇㅅㅣㄴ -7622
son -7623
▁ㄷㅗㄹㄱㅕㄱㅅㅗ -7624
▁UF -7625
ㅈㅝㅆ -7626
ㄱㅜㄱㅈㅜ -7627
▁169 -7628
▁ㅊㅓㄴㄱㅗㅇ -7629
▁ㅇㅛㅇㄱㅏㅁ -7630
▁` -7631
▁ㅎㅏㅂㅊㅣㄴ -7632
▁ㄱㅏㄹㄹㅐ -7633
▁ㅇㅕㄴㅂㅏㄹ -7634
▁man -7635
▁ㄸㅗㄹ -7636
▁1800 -7637
▁ㅇㅏㄴㅂㅗ -7638
▁ㅅㅏㄴㅊㅐㄱ -7639
▁BF -7640
ㅊㅜㄴㄷㅏ -7641
ㅈㅓㅇㅅㅣㄱ -7642
▁ㅈㅣㄴㅅㅓㅇ -7643
▁gr -7644
▁ㄱㅕㅇㅈㅐㅇㅈㅏ -7645
▁ㅈㅓㄴㅅㅗㄱ -7646
▁ㅎㅏㄴㅌㅏㄴ -7647
ㅁㅜㄴㅌㅡ -7648
▁ㅊㅓㄴㄷㅜㅇ -7649
▁ㅁㅗㄱㄷㅗㅇ -7650
itch -7651
▁ㄷㅏㄴㅅㅗㄱ -7652
▁ㅋㅔㄹㄹㅣ -7653
tr -7654
▁ㅂㅓㄴㅌㅡ -7655
▁ㅂㅣㄹㄹㅏ -7656
▁ㅅㅣㄹㅇㅓㅂ -7657
▁but -7658
▁1944 -7659
▁ㄷㅗㄹㅇㅣ -7660
▁ㅇㅕㅇㅈㅣㄴ -7661
reen -7662
▁GR -7663
ㅋㅡㄹㄹㅣ -7664
== -7665
▁Res -7666
▁Power -7667
▁1940 -7668
▁Leg -7669
▁Af -7670
▁ㅇㅗㅂㅌㅣ -7671
ㅇㅗㄹㄹㅏㅆ -7672
▁ㅇㅙㄴㅁㅏㄴ -7673
attle -7674
▁ㄱㅡㅂㄱㅣ -7675
ㅎㅞ -7676
inn -7677
ㅇㅓㅇ -7678
▁ㅂㅗㄹㅌㅔㄱㅅㅡ -7679
▁ㅍㅕㄴㅎㅐ -7680
▁ㄱㅕㄹㅅㅏ -7681
▁ㅂㅓㅂㅇㅏㄴ -7682
▁ㄴㅏㅁㅈㅏㄱ -7683
ㄷㅣㅈㅎㅣ -7684
▁ㅎㅐㅇㅂㅏㅇㅂㅜㄹㅁㅕㅇ -7685
▁Hard -7686
▁ㅇㅡㄴㅎㅖ -7687
▁RC -7688
▁MR -7689
▁ㅅㅗㅇㅊㅜㄹ -7690
▁ㅇㅕㅇㄴㅏㅁ -7691
▁ㅇㅝㄹㄱㅡㅂ -7692
▁Pv -7693
▁ㄴㅗㄹㄹㅏㅆ -7694
▁ㅇㅕㄹㅇㅏㄱ -7695
ㅋㅗㄱ -7696
▁ㅈㅓㅂㅈㅓㅁ -7697
ㅁㅗㅅㅁㅣ -7698
▁ㄹㅓㄴㄴㅣㅇ -7699
▁ㅎㅗㄱㅅㅏ -7700
▁ㄱㅏㅁㅎㅣ -7701
▁UI -7702
▁ㄱㅗㅇㅇㅑㄱ -7703
ㅈㅣㅇㅇㅓ -7704
ㅇㅛㅇㄷㅗㄹㅇㅣ -7705
ㄴㅗㄹㅇㅣ -7706
▁ㅈㅓㄴㅅㅏㄴ -7707
▁ㄴㅐㅇㄱㅏㄱ -7708
▁ㅈㅜㄴㄱㅕㄹㅅㅡㅇ -7709
▁ARM -7710
ㄴㅏㄱㅇㅔ -7711
▁ㄱㅕㅇㅅㅓㄴ -7712
ㄷㅗㅇㅇㅝㄴ -7713
▁ㅈㅣㄱㄱㅕㄹ -7714
▁Ma -7715
▁Sing -7716
▁ㅍㅕㄴㅇㅏㄴ -7717
▁Che -7718
▁ㅊㅜㄹㅈㅜㅇ -7719
▁ㅊㅜㄹㄱㅡㄴ -7720
75 -7721
▁Life -7722
ern -7723
▁ㅈㅣㄴㅎㅐㅇㅈㅏ -7724
▁co -7725
▁ㄷㅗㅇㅇㅛ -7726
XT -7727
▁ㅈㅜㄴㄱㅗㅇ -7728
▁ㄱㅗㅇㄱㅘ -7729
▁ㄷㅗㄱㅅㅓ -7730
ㅈㅜㄴㅍㅛ -7731
▁Master -7732
▁ㅇㅡㅇㅇㅝㄴㄱㅏ -7733
▁ㅂㅜㄴㅈㅏㅇ -7734
TC -7735
▁ㅅㅓㄴㅂㅏㅇ -7736
▁ADV -7737
ㅁㅐㅅ -7738
ㄹㅗㄴㅌㅡ -7739
ars -7740
▁ㅇㅣㅂㅎㅣㄹ -7741
▁ㅅㅣㄹㅈㅓㅇ -7742
▁ㅎㅐㅇㅎㅏ -7743
▁ㅎㅓㅅㅅㅗ -7744
▁ㅈㅓㅇㅎㅘㄱㄷㅗ -7745
▁im -7746
▁Rem -7747
▁ㅅㅐㄹㄹㅓ -7748
▁ㄱㅓㄹㅊㅣㄴ -7749
▁ㅅㅓㄹㅎㅘ -7750
ㄷㅡㄹㅁㅗㄱ -7751
▁VOCALOID -7752
▁ㅌㅏㄹㄷㅏㅇ -7753
asy -7754
▁ㅈㅓㄴㅅㅔ -7755
▁ㄱㅘㅇㅌㅏㄹ -7756
ㅇㅓㅍ -7757
▁ㅈㅣㅇㅈㅣㅇ -7758
ㅌㅓㄱ -7759
to -7760
▁LCK -7761
▁ㅎㅗㅇㅅㅓㅇ -7762
▁Lo -7763
▁ㅎㅜㄱ -7764
ㅊㅗㅇㄹㅣ -7765
▁ㄴㅗㅇㅅㅏ -7766
▁ㅎㅏㄴㄷㅗ -7767
rain -7768
ㅎㅐㅇㅇㅓ -7769
▁ㄷㅗㅇㅌㅏㄱ -7770
ㅇㅜㄱㅇㅣ -7771
▁ㅎㅕㅇㅍㅕㄴㅇㅓㅄ -7772
ㅇㅣㅍ -7773
ㅌㅡㄹㄹㅏ -7774
▁Fem -7775
▁ㅇㅝㄴㅎㅘㄹ -7776
▁ㄷㅗㅇㅊㅔ -7777
IE -7778
▁ㄱㅡㄹㄹㅏ -7779
▁1930 -7780
▁ㅁㅗㅅㅎㅐㅆㅇㅡ -7781
▁ㄷㅏㅇㅊㅓㅁ -7782
▁Out -7783
▁ㅎㅔㄱ -7784
▁ㅎㅏㄴㅎㅐ -7785
UE -7786
▁ㅊㅜㅇㅊㅓㅇㅂㅜㄱㄷㅗ -7787
▁ㄷㅗㅇㅈㅣ -7788
▁ㅍㅣㄱㅇㅓㅂ -7789
▁ㅈㅡㅇㄱㅣ -7790
▁ㅁㅣㄴㅈㅓㅇ -7791
ㅍㅡㄹㄹㅐ -7792
ana -7793
▁ㅇㅕㄹㄷㅡㅇ -7794
▁ㅅㅣㄹㅁㅕㅇ -7795
▁ㄱㅡㄴㅅㅓㅇ -7796
▁ㄷㅐㄴㅅㅓ -7797
ㅅㅣㅁㅈㅏㅇ -7798
▁ㅌㅔㅁㅍㅡㄹ -7799
▁ㅅㅣㄴㄷㅐ -7800
▁ㄴㅗㅇㅎㅕㅂ -7801
▁ㅁㅗㄱㅇㅛ -7802
▁ㅊㅏㅇㅂㅕㅇ -7803
▁ㅌㅏㄴㄷㅏ -7804
ㄷㅏㄴㅈㅜ -7805
▁OPS -7806
▁ㄱㅡㅁㅎㅗ -7807
ㅁㅗㄳ -7808
▁ㅇㅣㄹㅈㅓㄹ -7809
▁ㅅㅔㄴㅌㅣ -7810
▁ㄷㅓㄴㅈㅣㄴㄷㅏ -7811
ㅅㅞ -7812
▁OB -7813
▁151 -7814
▁ㄱㅡㅁㅎㅘ -7815
cl -7816
▁ㅍㅣㄹㄹㅣㅂ -7817
▁ㄱㅏㄴㅅㅓㄴ -7818
ield -7819
ㅆㅏㄱ -7820
▁ㅊㅣㄴㅈㅓㅇ -7821
▁ㄷㅡㄱㅈㅓㅁㅈㅏ -7822
▁ㅁㅣㄹㄹㅣㄴㄷㅏ -7823
▁ㅇㅡㅁㅈㅜ -7824
▁ㅁㅗㄱㅈㅓㄱㅈㅣ -7825
▁999 -7826
▁ㅅㅓㄹㅂㅣ -7827
▁ㅅㅏㅇㅇㅛㅇ -7828
▁ㅎㅏㄱㅅㅜㄹ -7829
▁ㅈㅓㄴㄱㅘ -7830
ㅇㅜㄹㄹㅣㄴㄷㅏ -7831
24 -7832
▁ㅃㅏㄹㅇㅏ -7833
▁End -7834
ㅁㅐㄴㄷㅓ -7835
▁256 -7836
riend -7837
▁ㅋㅣㅇㅅㅡ -7838
ㅇㅜㄴㅌㅣ -7839
ㄱㅡㄱㅎㅣ -7840
▁POP -7841
▁Hell -7842
▁ㅍㅡㄹㄹㅜ -7843
▁ㅁㅣㄹㄹㅏ -7844
ㅅㅈㅣㅂ -7845
▁ㅅㅓㅇㅇㅕㄱ -7846
▁ㅇㅣㄴㅂㅔㄴㅌㅗ -7847
▁ㅈㅜㅇㅈㅓㄴㅊㅏ -7848
▁ㄱㅜㄴㅂㅗㄱ -7849
▁ㅅㅣㄴㅋㅏㄴ -7850
▁ㅍㅏㄹㅉㅣ -7851
atic -7852
▁ㅅㅛㄴ -7853
▁ㅂㅏㄺㅎㅣㄴㄷㅏ -7854
▁1964 -7855
▁ㄷㅗㅇㄱㅏㅂ -7856
▁1965 -7857
▁just -7858
ㅇㅛㅇㅎㅐ -7859
▁ㄲㅐㅇㅍㅏㄴ -7860
▁Fi -7861
ㅋㅡㄹㄹㅓㅂ -7862
ㅇㅜㄴㄷㅐ -7863
▁ㅈㅏㄴㄷㅣ -7864
ㅈㅜㅇㅎㅣ -7865
▁ㄱㅏㄹㄱㅗ -7866
▁ㅈㅣㄹㄹㅓ -7867
▁ㅍㅣㄹㅇㅕㄴ -7868
ㅇㅓㄴㅁㅐㄴ -7869
▁ㄱㅣㅁㅇㅣㄹㅅㅓㅇ -7870
▁ㅎㅏㅁㅍㅗ -7871
▁ㅅㅣㄴㅋㅏㄴㅅㅔㄴ -7872
▁ㅂㅜㄹㄹㅗ -7873
▁ㅂㅓㅂㅎㅏㄱ -7874
▁ㅂㅏㄴㄱㅣ -7875
▁"" -7876
▁Miss -7877
▁ㅎㅘㄱㄹㅣㅂ -7878
▁PVP -7879
▁ㅅㅑㄴ -7880
33 -7881
▁ㅊㅜㅇㅂㅜㄱ -7882
▁ㄱㅏㄹㄹㅣㄴㄷㅏ -7883
▁sc -7884
ittle -7885
▁ㅅㅛㅅ -7886
ㄴㅣㅂㄴㅣ -7887
ㅈㅣㄴㅇㅕㅇ -7888
▁ㅂㅗㄴㅅㅓㅇ -7889
▁ㅈㅓㄴㅎㅐㅆ -7890
▁ㅈㅓㄹㄱㅠ -7891
▁ㅂㅏㄹㅇㅏㄱ -7892
▁ㅋㅝㄹㅋㅓㅁ -7893
ㅎㅗㅂ -7894
▁Air -7895
▁night -7896
▁ㅆㅜㄱ -7897
▁ㅅㅜㄴㄱㅛ -7898
▁q -7899
ㅋㅐㄴㄷㅡㄹ -7900
▁SG -7901
▁ㅈㅣㅂㅈㅜㅇㄹㅕㄱ -7902
▁ㅎㅑㅇㄱㅣ -7903
▁what -7904
ㄹㅟ -7905
▁ㅅㅏㅇㄱㅏ -7906
▁ㅇㅜㄹㄹㅕ -7907
▁6000 -7908
▁ㅇㅕㅇㄷㅗㅇ -7909
LS -7910
▁ㅂㅏㄴㅎㅏㅇ -7911
▁ㄹㅏㄱㅅㅡ -7912
▁ㅈㅜㅇㄱㅕㄴㅅㅜ -7913
ㅂㅡㄹㄹㅣㅅ -7914
▁Vo -7915
▁380 -7916
▁ㄱㅣㅁㅌㅐㄱ -7917
ㄱㅡㅂㅈㅓㄱ -7918
▁ㄹㅓㅁㅂㅡㄹ -7919
▁ㄲㅐㄹ -7920
▁ㅇㅣㄹㅂㅗㄴㅅㅣㄱ -7921
▁ㅇㅏㄱㄹㅏㄹ -7922
▁ㅇㅣㄹㅈㅣㄴ -7923
▁Hy -7924
▁ㄹㅐㄴㅌㅓㄴ -7925
▁ㅇㅕㄱㅂㅕㅇ -7926
ㄱㅑㄹ -7927
ㄹㅡㄴㄷㅔ -7928
▁ㅋㅗㄹㄷㅡ -7929
▁ㅈㅣㄱㅇㅕㄱ -7930
▁ㅎㅏㄱㅂㅓㄴ -7931
▁VR -7932
▁ㅅㅣㄴㅎㅡㅇ -7933
▁Mod -7934
▁ㅅㅗㄴㅇㅏ -7935
▁ㅊㅜㄹㅁㅗㄹ -7936
▁ㅇㅏㄴㅅㅓㅇ -7937
▁ㅈㅣㄱㄱㅜ -7938
▁EMP -7939
▁ㅂㅗㄹㄹㅠㅁ -7940
▁ㄱㅜㄱㅅㅏㄴ -7941
▁ㄴㅔㄱㅅㅡㄴ -7942
▁1920 -7943
ㅌㅣㄴㅇㅓ -7944
ㅆㅗㄹ -7945
▁ㅅㅓㅇㅎㅕㅇ -7946
▁ㅇㅑㅇㅊㅡㄱ -7947
▁ㅆㅗㄹㅆㅗㄹ -7948
▁ㅈㅡㄱㄱㅏㄱ -7949
28 -7950
▁ㄱㅏㅇㅎㅐㅇ -7951
▁YOU -7952
▁ㅊㅐㄹㄹㅣㄴㅈㅓ -7953
▁ㅅㅏㅇㅊㅔ -7954
▁ㅅㅡㅇㄹㅕ -7955
▁Di -7956
▁MT -7957
▁ㅈㅓㅂㄱㅡㄴㅅㅓㅇ -7958
▁ㄱㅏㅇㅍㅏㄴ -7959
ㄷㅓㅍ -7960
▁ㅈㅓㄴㅍㅗㄱ -7961
▁ㅎㅏㄴㅅㅣㅁ -7962
▁ㅅㅓㄹㄹㅔ -7963
▁ㅇㅕㄴㅂㅣ -7964
▁ㄷㅗㄹㄹㅣㄹ -7965
▁King -7966
▁Sy -7967
ㅇㅗㄹㄹㅕ -7968
▁Ang -7969
▁ㅇㅣㅁㅇㅝㄴ -7970
▁XXX -7971
▁ㅊㅗㅇㅌㅏㄴ -7972
ㅇㅜㄹㄹㅓ -7973
▁EA -7974
▁ㅂㅜㅌㅇㅕㅆ -7975
▁ㅈㅣㄴㄹㅛ -7976
▁ㅇㅏㄱㅇㅛㅇ -7977
▁ㄱㅓㄴㅈㅐ -7978
▁ㅋㅗㄴㅌㅣ -7979
▁ㅅㅡㅇㅊㅓㄴ -7980
▁ㅇㅛㅇㅁㅐㅇ -7981
▁ㅈㅓㄱㅈㅣㄴ -7982
▁tvN -7983
ony -7984
ㅅㅜㅁㅇㅔ -7985
▁ㅂㅣㄴㅅㅏ -7986
▁ㅁㅣㄹㄹㅕㅆ -7987
▁ㄷㅏㄴㅅㅜㅁㅇㅔ -7988
▁IG -7989
▁ㅊㅓㅁㄷㅏㄴ -7990
ㄲㅟㄹ -7991
▁ㅈㅓㄴㄹㅣ -7992
▁ㅆㅏㅎㅇㅣㄴ -7993
ㄲㅜㄴㄷㅏ -7994
▁ㅁㅣㄹㅈㅣㅂ -7995
▁ㄴㅏㅁㄷㅗㅇ -7996
▁ㅂㅏㄱㄱㅕㄱ -7997
▁ㅁㅓㄱㅂㅏㅇ -7998
▁ㅁㅣㅅ -7999
▁ㄷㅚㄹㄲㅏ -8000
▁ㅂㅓㄱㅅㅡ -8001
▁0000 -8002
ㅋㅠㄹㄹㅏ -8003
▁ㅂㅏㄴㅈㅏ -8004
▁ㄸㅏㄱㄸㅏㄱ -8005
▁UFC -8006
▁ㅅㅐㅇㅅㅏㄴㄹㅕㄱ -8007
ㄹㅡㄱ -8008
▁ㅇㅟㄴㅅㅡ -8009
▁ㅁㅣㄹㄹㅏㄴ -8010
▁ㄷㅗㅇㅇㅣㄴㅈㅣ -8011
▁ㄱㅣㅁㅁㅕㅇ -8012
▁ㅁㅏㄹㅁㅣ -8013
▁ㅇㅜㄴㅇㅜㄴ -8014
▁ㄷㅏㄹㄹㅕㅆ -8015
ㅈㅜㄴㅎㅗ -8016
▁ㅈㅣㄴㄱㅏ -8017
▁ㅅㅑㅁ -8018
mania -8019
▁ㅇㅏㄴㅅㅏㄴ -8020
▁STER -8021
ma -8022
ㄷㅣㄱ -8023
▁ㅇㅝㄴㄴㅐ -8024
ㄷㅙ -8025
▁ㅅㅓㅁㄱㅣ -8026
▁ㅇㅡㄴㅁㅣㄹ -8027
▁ㅅㅣㄹㅎㅘㅇ -8028
ㅁㅕㅇㅅㅏㅇ -8029
▁ㅇㅏㄴㅁㅕㄴ -8030
▁ㅁㅏㄴㄹㅛ -8031
ㄱㅕㄱㅊㅗㅇ -8032
▁ㄷㅓㅊ -8033
▁Cy -8034
▁ㅎㅏㄱㅎㅚ -8035
▁ㅅㅣㄴㅅㅣ -8036
ㄱㅗㄱㄷㅗㅇ -8037
▁ㅅㅡㅂㅎㅏㄴ -8038
▁ㄴㅏㄱㅇㅣㄴ -8039
▁ㅈㅜㄴㅎㅏ -8040
▁ㅂㅕㄴㅈㅣㄹ -8041
▁Run -8042
▁1600 -8043
▁ㄱㅘㄴㄷㅗㅇ -8044
▁ㅂㅏㅇㄱㅡㅁ -8045
▁ㅁㅓㄹㅉㅓㅇㅎㅣ -8046
ㄷㅏㄴㅊㅔ -8047
▁ㅇㅝㄴㄱㅗ -8048
▁ㅉㅗㅈㅇㅏ -8049
▁ㅊㅓㄴㄱㅖ -8050
▁IDOL -8051
ㅅㅏㄹㅇㅏ -8052
be -8053
ual -8054
▁ㅇㅕㅁㄹㅕ -8055
▁ㅌㅡㄹㄹㅣㅁ -8056
▁ㄱㅗㅇㅅㅓㅇㅈㅓㄴ -8057
▁131 -8058
ret -8059
▁ㅅㅐㅇㅅㅏㄴㄹㅑㅇ -8060
ㄱㅜㅇㅎㅘ -8061
ㅅㅡㅇㅁㅏㄴ -8062
▁ㅊㅜㄱㅈㅓㄱ -8063
▁ㅊㅓㅇㅅㅏㄴ -8064
▁ㅈㅏㅇㅍㅕㄴ -8065
▁SV -8066
ㅇㅕㄹㅅㅏ -8067
▁ㅁㅣㄴㅇㅝㄴ -8068
▁ㄱㅘㅇㅂㅗㄱ -8069
▁white -8070
▁ㅁㅏㄱㅂㅏ -8071
▁MLB -8072
▁UM -8073
▁ㄹㅐㅁㅍㅡ -8074
▁ㅂㅔㄱㅌㅓ -8075
▁ㅊㅣㄹㄹㅔ -8076
ㅁㅕㅇㅅㅏ -8077
▁MASTER -8078
▁ㅈㅓㄴㄱㅛ -8079
▁ㅈㅓㄴㅍㅕㄴ -8080
▁ㅂㅣㄱㅂㅐㅇ -8081
▁ㄹㅓㅆㄷㅏ -8082
▁don -8083
ecial -8084
▁ㅊㅓㅇㅇㅝㄴ -8085
▁ㄷㅏㄴㄱㅗㄹ -8086
ㅅㅏㅇㅍㅏ -8087
▁School -8088
▁ㅇㅝㄴㅎㅗ -8089
▁ㄷㅗㅇㅊㅏㅇ -8090
▁ㅇㅣㄴㅁㅐㄱ -8091
▁SO -8092
ㅈㅣㅇㄱㅏ -8093
ane -8094
▁ㅇㅣㅂㅎㅏㄱㅅㅣㄱ -8095
▁ㄱㅜㅇㅈㅣ -8096
▁ㅌㅗㅇㅅㅣㄴㅅㅏ -8097
▁ㄷㅏㄹㄱㅑㄹ -8098
▁ㅅㅣㄹㅁㅜ -8099
▁ㅎㅡㄱㅎㅘ -8100
ㅍㅗㄹㄹㅗ -8101
▁ㄱㅕㄹㅎㅏㅁ -8102
▁ㅂㅐㄱㅎㅏㅂ -8103
▁ㅇㅕㅇㅁㅣ -8104
▁Rec -8105
▁ㄱㅕㅇㅁㅐ -8106
ㅇㅛㅇㅂㅓㅂ -8107
ㅂㅓㅁㅈㅚ -8108
▁ㅌㅏㄴㄷㅗ -8109
ㄱㅝㄴㅈㅏ -8110
▁ㄱㅏㅇㅅㅓㅇ -8111
▁ㅎㅗㅇㅈㅜㄴㅍㅛ -8112
▁ㅅㅖㄹ -8113
▁ㄱㅣㅁㅈㅓㄴ -8114
▁way -8115
▁ㅈㅡㅇㄱㅝㄴ -8116
▁ㅊㅣㄱ -8117
▁ㄷㅐㄴㄷㅏ -8118
▁Sound -8119
ope -8120
▁ㄲㅡㄴㅈㅣㄹ -8121
▁Art -8122
▁ㄱㅣㅁㅎㅢ -8123
▁Arm -8124
▁ㅎㅏㅂㄷㅏㅇ -8125
▁ㅇㅣㄴㄴㅐ -8126
ㅇㅐㄱㅅㅕㄴ -8127
Fat -8128
▁ㅇㅣㄹㄹㅕㄴ -8129
▁Yeah -8130
▁ㅇㅘㄴㅅㅜ -8131
ㅈㅏㅇㅍㅜㅁ -8132
▁ㅍㅕㄴㄷㅐ -8133
ㄹㅗㄴㅌㅗ -8134
▁ㅎㅓㄴㅅㅣㄴ -8135
▁ㄱㅗㅇㄹㅗ -8136
ㄷㅏㄹㄹㅕ -8137
ㅎㅐㅇㅇㅟ -8138
▁ㅉㅗㅊㄱㅣ -8139
▁ㅁㅜㄷㅎㅣ -8140
ㅎㅐㅇㅅㅓㄴ -8141
ㅂㅔㄹㄹㅣ -8142
elf -8143
ㅎㅡㄺ -8144
▁BAS -8145
▁ㄱㅏㅇㅈㅓㄱ -8146
ㅅㅗㄱㅂㅓ -8147
▁ㅈㅓㄱㄹㅛ -8148
▁ㅇㅜㅅㄱㅣㄴ -8149
▁EM -8150
ㅇㅠㄱㅂㅜ -8151
ㅇㅣㄹㅇㅡ -8152
▁ㅂㅏㄱㅈㅜ -8153
▁ㄷㅗㅇㄹㅐ -8154
ision -8155
ㅅㅡㅇㅇㅜ -8156
▁Femme -8157
▁ㄲㅏㄲㅇㅣ -8158
ㅍㅓㅇ -8159
▁ㅈㅏㄱㅂㅕㄹ -8160
▁Rev -8161
ㅇㅐㄴㅈㅔㄹㄹㅔ -8162
▁1961 -8163
▁Cat -8164
▁ㄱㅘㄹ -8165
▁ㅇㅑㅇㄱㅜㄱ -8166
▁ㅍㅜㄹㄹㅕㅆ -8167
ㅅㅜㅇ -8168
▁Ge -8169
▁WE -8170
▁VIP -8171
▁ㄱㅕㅇㅎㅢ -8172
▁ㄱㅏㄴㄹㅑㄱ -8173
▁ㅈㅏㄱㅇㅣㄴ -8174
▁ㅇㅝㄴㅊㅓㄴ -8175
ㅌㅣㄱㅅㅡ -8176
▁ㅊㅗㅇㄱㅘㄹ -8177
ㅍㅡㄹㄹㅏ -8178
▁ㅋㅔㄴㅇㅣ -8179
▁ㅂㅏㄹㅋㅏㄴ -8180
▁ㅂㅜㄹㅁㅕㄹ -8181
▁ㅅㅣㄷ -8182
▁ㅅㅣㄴㄷㅣ -8183
▁ㄱㅣㅁㅈㅓㄴㅇㅣㄹ -8184
▁ㅇㅣㅂㅅㅜㄹ -8185
▁ㄲㅘㅇ -8186
▁ㄱㅗㅇㅂㅏㅇㅈㅓㄴ -8187
ㅂㅐㄴㅅㅡ -8188
▁ㅃㅏㄹㄱㅏㅇ -8189
▁DO -8190
▁ㅈㅣㄴㄴㅏ -8191
ㅇㅣㄹㄷㅏㅁ -8192
▁ㅅㅜㄹㅂㅓㅂ -8193
we -8194
▁ㅈㅣㄴㅈㅓㅇㅎㅏㄴ -8195
ㅇㅣㄴㅈㅡ -8196
ㅆㅓㄹ -8197
▁ㅅㅣㄱㅅㅣㄴ -8198
ㅋㅝㄹ -8199
ㅈㅏㄱㅈㅓㅇ -8200
▁ㅈㅏㄹㄹㅣ -8201
▁ㅅㅓㄱㄱㅜㅇ -8202
▁ㄱㅜㄴㄱㅣ -8203
▁ㅈㅗㄱㅈㅏㅇ -8204
▁ㅅㅏㅁㄱㅓ -8205
▁ㄱㅕㅇㄹㅑㅇ -8206
ㅅㅇㅣㅍ -8207
Fatale -8208
▁ㅂㅏㄹㅈㅓㄴㄱㅣ -8209
▁FemmeFatale -8210
ㄲㅜㅁㅊㅣ -8211
▁ㅇㅕㄹㄹㅕ -8212
▁ㅈㅣㄴㅈㅏㄱ -8213
ㄷㅏㄴㅈㅏㅇ -8214
str -8215
▁ㅂㅏㄴㅁㅏㄹ -8216
ational -8217
ㄱㅏㅌㅇㅣ -8218
▁ㅇㅏㄱㅎㅏㄴ -8219
ㅇㅑㄱㅈㅏ -8220
▁ㅇㅣㄹㅂㅗ -8221
ㅅㅐㅇㄱㅣㄴ -8222
▁ㅁㅏㄴㄷㅡㄴㄷㅏ -8223
▁ㅂㅏㅇㅎㅘㅇ -8224
▁ㅈㅓㅇㄱㅖ -8225
ouse -8226
▁dis -8227
▁ㄱㅕㅇㅅㅓㅇ -8228
▁ㅁㅜㄷㅎㅕㅆ -8229
ㅎㅡㄹ -8230
SS -8231
▁ㄹㅕㅆ -8232
▁ㅅㅓㅇㄷㅗ -8233
▁ㅇㅕㄴㄱㅡㅁㅅㅜㄹ -8234
appy -8235
▁ㅇㅑㅇㅍㅏ -8236
▁ㅊㅜㅇㅈㅜ -8237
▁ㄲㅓㄹ -8238
▁NHK -8239
▁ㄱㅓㅁㅇㅡㄴㅅㅐㄱ -8240
▁ㅇㅓㄹㅍㅣㅅ -8241
AG -8242
▁ㅅㅓㅁㅇㅠ -8243
▁ㅎㅔㄹㅅㅡ -8244
ORE -8245
ㅇㅓㄴㅈㅓㅇ -8246
▁ㅎㅗㄴㅈㅗㅇ -8247
▁ㅋㅗㄹㄹㅗㅁㅂㅣ -8248
ㅋㅏㄹㄹㅔㅅ -8249
▁ㅂㅏㄴㅎㅘㄴ -8250
▁br -8251
▁ㅎㅡㄹㄹㅕ -8252
▁ㅊㅏㅇㅇㅓㅂ -8253
▁ㄱㅘㅇㅅㅓㄱ -8254
▁ㅂㅕㅇㄷㅏㄴ -8255
ㅊㅜㄱㄱㅜ -8256
ㅇㅡㅁㄱㅣ -8257
▁ㅇㅓㄹㄹㅣ -8258
ㅅㅡㅇㅎㅕㄴ -8259
▁Order -8260
▁ㅁㅏㅅㅂㅗ -8261
ness -8262
▁ㅅㅏㅇㅎㅚ -8263
▁ㄴㅐㅆㅇㅡ -8264
▁1100 -8265
▁ㄷㅏㅇㅇㅝㄴ -8266
ㅈㅜㄴㄱㅡㅂ -8267
ㅍㅡㄴㅁㅠ -8268
▁ㅍㅏㅂㅍㅡㄴㅁㅠ -8269
▁ㄴㅏㄴㅈㅓㄴ -8270
▁ㅈㅓㅁㄱㅓ -8271
ㅁㅏㅌ -8272
▁ㅌㅐㄱㅂㅐ -8273
▁MD -8274
ㅅㅖㄹ -8275
ㅖㄴ -8276
▁ㅊㅓㄴㅈㅓㄱ -8277
ㅈㅓㅇㅇㅕㄱ -8278
ㅇㅕㄴㅅㅡ -8279
▁ㅅㅓㅇㅊㅐ -8280
ㅅㅣㄴㄱㅣ -8281
▁Elect -8282
▁ㅇㅓㅁㅈㅣ -8283
▁ㄱㅣㅁㅎㅖ -8284
ㄹㅏㅇㅋㅔㄴ -8285
▁ㅍㅓㄹㅅㅡ -8286
▁ㅇㅑㅇㅎㅕㄴ -8287
▁ㅈㅓㄱㅂㅏㄹ -8288
▁ㅍㅗㄱㄷㅗㅇ -8289
▁^ -8290
▁ㅈㅓㅇㄹㅣㅂ -8291
ㄷㅔㄹㅍㅣ -8292
▁ㄷㅏㅇㅈㅜ -8293
▁ㅎㅏㄴㅁㅗㄳ -8294
▁ㅇㅘㄴㅈㅓㄴㅊㅔ -8295
▁ㅂㅏㄱㅈㅜㄴ -8296
▁ㄸㅐㅁ -8297
▁ㅈㅗㅇㅇㅣㄹ -8298
ㅇㅘㅂ -8299
▁ㅈㅓㅇㅁㅕㅇ -8300
inc -8301
▁TCG -8302
▁ㄲㅐㄴ -8303
▁ㄱㅣㅍㅅㅜㄱ -8304
▁ㅂㅜㄹㅅㅣㄴ -8305
▁EXH -8306
ㅅㅓㅇㄱㅖ -8307
ㅌㅏㄴㅌㅣ -8308
ㄷㅜㄴㄷㅏ -8309
▁ㄷㅐㅆ -8310
ㄷㅡㄹㅇㅣㄴㄷㅏ -8311
▁ㅂㅗㄱㅅㅣㅇ -8312
▁ㄱㅗㅇㅎㅠ -8313
▁CON -8314
▁ㄱㅘㅇㅂㅓㅁ -8315
▁ㅁㅏㄹㅈㅏㅇㄴㅏㄴ -8316
ㅓㄴㅈㅣ -8317
▁ㅂㅗㄴㄷㅣ -8318
▁ㅂㅏㄱㅎㅣㄴ -8319
▁ㅈㅓㄱㅅㅐㄱ -8320
▁ㄱㅕㄹㅈㅏㅇ -8321
▁ㅅㅓㄴㅂㅏㄹㅌㅜ -8322
ㄴㅏㄹㄷㅡ -8323
▁ㅇㅜㄴㅎㅏㅇ -8324
▁world -8325
ㅅㅡㅇㅇㅕㅂ -8326
▁214 -8327
▁RG -8328
▁ㅇㅑㅇㅎㅗ -8329
▁ㅁㅏㅈㅁㅜㄹㄹㅕ -8330
▁ㅂㅗㄹㅍㅡ -8331
▁ㅅㅐㅇㅅㅏ -8332
▁ㅆㅡㅂ -8333
▁ㄷㅡㄴㄱㅏ -8334
▁ㅇㅣㄹㅆㅜ -8335
▁ㄴㅐㅇㅈㅓㄴ -8336
▁She -8337
▁ㄷㅏㅇㄱㅣ -8338
▁ㅍㅗㄹㄷㅓ -8339
▁SHOW -8340
▁ㅅㅗㄴㅎㅡㅇ -8341
▁ㅈㅏㄱㅅㅏㄹ -8342
ㄷㅕ -8343
▁ㄴㅔㅂ -8344
▁ㄴㅓㅁㄱㅣㄴ -8345
▁ㄴㅗㄹㄹㅣㅁ -8346
▁ㅈㅓㅇㅇㅡㄴ -8347
ㄱㅡㅅㄴㅏ -8348
▁ㄷㅏㅇㅂㅜㄴ -8349
▁ㄱㅕㅇㅈㅏㅇ -8350
IV -8351
▁ㅁㅏㅈㅎㅣ -8352
▁ㄱㅏㅇㅇㅠ -8353
▁ㅉㅣㄹ -8354
▁ㅎㅏㄴㅈㅗ -8355
day -8356
▁ㄱㅗㄹㄹㅣ -8357
omb -8358
▁ㅈㅓㅇㄱㅓ -8359
▁1943 -8360
ㅍㅗㄴㅈㅣ -8361
▁ㅅㅏㄴㅇㅏㄱ -8362
its -8363
▁ㅅㅓㅇㅊㅜ -8364
▁ㅌㅏㄴㅈㅗㅇ -8365
ㅅㅜㄹㄱㅏ -8366
▁ㅎㅏㄴㅅㅡ -8367
▁ㅅㅐㅁㅍㅡㄹ -8368
▁ㅈㅜㅂ -8369
▁ㅅㅡㅇㄱㅣ -8370
▁ㄱㅓㄴㅈㅓㄴ -8371
▁ㅇㅏㅂㅅㅏㄹ -8372
▁ㅁㅐㄱㅅㅣ -8373
▁ㅇㅣㅁㅊㅏㅇ -8374
▁Da -8375
▁ㅇㅓㄴㅎㅐㅇ -8376
▁ㅅㅗㄱㅅㅏㄱ -8377
ㄹㅣㅅㅈㅣ -8378
▁ㅅㅗㄴㅎㅡㅇㅁㅣㄴ -8379
▁ap -8380
▁ㅅㅓㅂㅇㅚ -8381
ㅇㅣㄴㄱㅏㄴ -8382
▁ㅁㅕㅇㅈㅏㄱ -8383
▁ㅌㅏㄴㅅㅗ -8384
▁naver -8385
▁ㅅㅔㄹㅍㅡ -8386
▁** -8387
▁340 -8388
▁beatmania -8389
▁ㅎㅐㅇㅌㅐ -8390
▁1942 -8391
▁ㅁㅏㅈㅊㅜㅁ -8392
▁ㅈㅣㄱㄱㅏㅁ -8393
ham -8394
ㄱㅡㅇ -8395
▁141 -8396
▁ㅅㅏㅇㅅㅗㄱ -8397
ㅈㅓㅇㄱㅘㄴ -8398
▁ㅎㅘㄱㅇㅕㄴㅎㅣ -8399
▁ㅂㅏㄱㄱㅕㄱㅍㅗ -8400
▁ㅇㅜㅁㅈㅣㄱㅇㅣㄴㄷㅏ -8401
ious -8402
▁ㅉㅓㄹ -8403
▁ㅌㅜㅁ -8404
ㅅㅓㅇㄴㅕㄴㅈㅏ -8405
▁ㄱㅡㄹㄹㅐ -8406
▁ㅇㅔㄱㅅㅗ -8407
▁ㅈㅐㅇㅌㅏㄹ -8408
▁ㅍㅗㄱㅂㅏㄹㅁㅜㄹ -8409
▁ㅈㅗㅁㅂㅣ -8410
▁ㅇㅟㄹㅅㅡㄴ -8411
▁ㅎㅘㅇㅁㅜ -8412
▁ㅅㅣㄴㅅㅡ -8413
ㄱㅡㄹㄹㅓ -8414
▁ㅈㅗㄴㄷㅐㅅㅁㅏㄹ -8415
▁SW -8416
ㄹㅣㅅㅅㅜ -8417
▁ㅊㅜㄹㅌㅚ -8418
ㅍㅓㄹ -8419
▁ㄱㅗㅇㅇㅣㄱ -8420
ㅋㅏㄹㄹㅣ -8421
EX -8422
▁ㅎㅕㄴㅁㅕㅇ -8423
▁ㅈㅏㅇㅂㅕㅇ -8424
▁ㅇㅏㄴㄴㅏ -8425
ㅇㅣㄴㄱㅣ -8426
▁ㅈㅡㅇㅅㅔ -8427
▁te -8428
ㅇㅣㅁㄱㅣ -8429
▁ㅍㅗㄱㅅㅏ -8430
▁ㅊㅏㅇㄷㅏㅇ -8431
▁ㅅㅕㄹㄹㅗㄱ -8432
▁ㅅㅏㅇㄱㅝㄴ -8433
▁ㅅㅣㄴㅊㅜㄱ -8434
▁Not -8435
▁ㅇㅗㄱㅌㅏ -8436
▁ㄱㅘㅇㅂㅓㅁㅇㅟ -8437
▁ㄱㅏㄷㅎㅣㄴ -8438
▁ㅈㅣㄴㄱㅜㄴ -8439
ㅇㅡㄹㅈㅣ -8440
▁ㅇㅣㅂㅁㅏㅅ -8441
▁ㅋㅐㅂㅋㅗㅁ -8442
▁ㅎㅏㅂㅊㅏㅇ -8443
▁ㅈㅝㅆㅇㅡ -8444
▁ㄱㅣㅁㅊㅏㅇ -8445
▁ㅍㅣㄱㅅㅣ -8446
▁ㄱㅜㄴㅎㅏㅁ -8447
▁ㄷㅗㅇㅂㅗㅇ -8448
▁ㅅㅜㄹㅌㅏㄴ -8449
ㅈㅓㅇㅎㅕㄴ -8450
aut -8451
ivers -8452
ㅂㅕㅇㅎㅗ -8453
▁ㅅㅗㅇㄱㅜ -8454
▁ㅅㅣㅇㅇㅓ -8455
▁ㅍㅗㅅ -8456
▁ㄷㅡㄴㄷㅡㄴ -8457
▁ㄱㅜㄱㄹㅕㄱ -8458
ㄷㅓㄴㅌㅡ -8459
▁DEF -8460
▁ㅋㅣㄹㄹㅗ -8461
▁ㅈㅏㅇㅇㅏㄴ -8462
▁Ke -8463
▁ㅁㅏㄱㅂㅜ -8464
ㅇㅓㅁㅅㅡ -8465
▁ㅁㅠㄹ -8466
▁ㄱㅗㅇㄷㅗㅇㅊㅔ -8467
▁With -8468
27 -8469
▁ㅈㅣㄹㄹㅑㅇ -8470
▁ㅅㅏㅇㅂㅏㄴㄱㅣ -8471
▁RAW -8472
ERS -8473
23 -8474
ㅌㅡㄹㄹㅔ -8475
▁Every -8476
ANC -8477
ㅇㅡㅁㄲㅓㅅ -8478
olution -8479
▁ㄹㅐㅅ -8480
ㅅㅏㅇㅁㅣㄴ -8481
▁ㅎㅓㄴㄷㅔ -8482
▁ㄴㅡㄴㄱㅜㄴ -8483
▁ㄲㅏㅆ -8484
▁ㅅㅏㅇㅍㅛ -8485
▁ㅅㅡㄹㄹㅔ -8486
▁ㅅㅗㄴㅂㅏ -8487
▁ㅆㅏㅁ -8488
▁ㄲㅗㄱㄷㅜ -8489
▁ㅇㅣㅁㅇㅛ -8490
▁ㅈㅓㅇㅅㅔ -8491
▁ㅅㅐㅇㄱㅏㄱㄴㅏ -8492
▁ㅁㅏㅇㅈㅏ -8493
▁ㅈㅓㄴㅈㅓㄴ -8494
▁ㅌㅏㄹㅇㅗㄱ -8495
ㅇㅝㄴㅇㅕㄱ -8496
▁ㅇㅕㄹㅂㅏㄷ -8497
ㄱㅗㅇㄱㅕㄱ -8498
▁ㄱㅘㄴㄴㅕㅁ -8499
ㄱㅞ -8500
▁ㅈㅓㅇㅈㅏㅇ -8501
olog -8502
ㅁㅓㅅㄷㅐ -8503
45 -8504
▁ph -8505
▁ㄹㅕㅁ -8506
UC -8507
▁310 -8508
▁ㅇㅚㄴㅍㅏㄹ -8509
ㅌㅐㄴㄷㅏ -8510
ㅎㅐㅇㅅㅏ -8511
▁ㅂㅐㄱㅁㅣ -8512
▁ㅍㅕㅇㅁㅣㄴ -8513
ㅋㅜㄴ -8514
▁ㄱㅣㅁㅈㅜㄴㅎㅗ -8515
▁ㅈㅣㅂㄱㅕㄹ -8516
▁ㅎㅔㅅㄱㅏㄹㄹㅣ -8517
▁ㅎㅘㄴㄱㅏㄱ -8518
▁ㅇㅝㄴㅈㅔ -8519
ㄱㅘㄴㅊㅏ -8520
▁if -8521
▁ㅅㅜㄴㅈㅣㄴ -8522
▁Get -8523
▁ㄱㅕㅇㅊㅏㄹㄱㅘㄴ -8524
▁Chr -8525
▁1946 -8526
▁ㄴㅏㄱㅇㅝㄴ -8527
▁ㅋㅑ -8528
29 -8529
▁EB -8530
▁007 -8531
▁ㅂㅜㄹㅅㅏㅇ -8532
66 -8533
▁ㅉㅏㄹㅂㅏㅇ -8534
▁ㅉㅣㄱㅎㅣㄴ -8535
▁FR -8536
▁CT -8537
▁ㄱㅣㅁㅈㅓㅇㅇㅡㄴ -8538
▁ㅂㅜㄴㄱㅕㅇ -8539
ㅇㅞㄴ -8540
▁ㄱㅣㅁㅅㅔ -8541
ely -8542
▁TB -8543
▁ㅈㅜㄹㄱㅗㄷ -8544
▁ㄴㅡㄴㄱㅜ -8545
ty -8546
▁Har -8547
▁ㅎㅡㅂㅇㅕㄴ -8548
▁Boy -8549
▁ㄱㅜㄷㅇㅓ -8550
ㅋㅣㄴㅅㅡ -8551
▁ㅂㅏㄴㅊㅣㄱ -8552
▁ㄴㅗㄱㅇㅏ -8553
▁ㅅㅣㄴㅇㅝㄴ -8554
▁ㅇㅕㅇㄱㅣ -8555
▁ㅂㅔㅇ -8556
icro -8557
▁ㅌㅏㅁㅇㅛㄱ -8558
▁ㅃㅏㄱㅃㅏㄱ -8559
ny -8560
▁ㅋㅏㅇ -8561
▁1954 -8562
▁ㅈㅏㄱㅇㅏ -8563
▁ㄷㅏㅇㄷㅏㅇㅎㅣ -8564
▁ㅇㅕㄴㅎㅢ -8565
ㅅㅣㄴㅎㅕㅇ -8566
▁Skill -8567
▁ㄷㅏㅁㄷㅏㅇㅈㅏ -8568
ㅂㅏㄷㅊㅣㅁ -8569
▁ㅈㅜㅇㅇㅏㅇㅅㅓㄴ -8570
ters -8571
▁ㅎㅗㅇㄷㅐ -8572
▁720 -8573
▁ㅁㅣㄴㅇㅕㅇ -8574
▁Des -8575
▁ㄱㅡㅁㄱㅣ -8576
▁ㅈㅜㄹㅇㅣㄹ -8577
▁1958 -8578
▁ㅂㅏㄹㅅㅏㅇ -8579
▁ㅇㅠㄱㅈㅣ -8580
▁ㄴㅗㄱㅇㅕ -8581
ㅅㅣㄴㄷㅏ -8582
▁>, -8583
ㅇㅓㄹㄹㅣ -8584
▁ㅇㅕㅇㅂㅜㄴ -8585
▁Ab -8586
▁ㅁㅏㄴㄷㅜ -8587
▁ㅅㅓㅁㅅㅔ -8588
▁ㄱㅓㄹㅈㅏㄱ -8589
▁ㄱㅜㄹㅂㅗㄱ -8590
▁ㄱㅣㅁㅎㅏ -8591
▁ㅁㅏㄴㅅㅔ -8592
▁ㅈㅓㄴㅌㅐ -8593
▁ㅅㅑㄹ -8594
▁ㅂㅜㄱㅂㅏㅇ -8595
▁ㅅㅓㄹㄷㅡㄱㄹㅕㄱ -8596
▁ㅂㅏㄷㅊㅕ -8597
▁ㄷㅏㄴㅅㅓㄴ -8598
▁CCTV -8599
ㅇㅣㄹㄹㅗ -8600
▁ㄷㅏㄴㅌㅔ -8601
▁ㄸㅓㄹㄱㅜ -8602
▁1941 -8603
▁ㅇㅣㄴㅈㅡ -8604
▁ㅈㅣㄴㅎㅡㄺ -8605
▁ㅈㅔㄹㄷㅏ -8606
▁171 -8607
▁=, -8608
ㅍㅡㄹㄹㅣㅅ -8609
ient -8610
▁ㅈㅗㄹㄱㅐ -8611
▁ㅁㅏㄴㄹㅠ -8612
▁480 -8613
▁ㄷㅏㄴㅈㅗ -8614
▁ㅍㅏㄹㅇㅏ -8615
▁ㅊㅜㅇㅅㅓㅇㅅㅣㅁ -8616
▁ㅅㅐㅇㅁㅜㄹㅎㅏㄱ -8617
▁DA -8618
▁ㄴㅛ -8619
▁ㅅㅓㅇㅊㅔ -8620
▁OO -8621
ㄹㅗㅂㅎㅣㅁ -8622
▁Big -8623
▁ㄱㅕㅁㅎㅏ -8624
▁ㅇㅣㅇㅋㅡ -8625
▁ㅇㅑㅇㄴㅕㅁ -8626
▁id -8627
ㅆㅓㅂ -8628
▁1900 -8629
▁ㅅㅓㄱㅎㅘ -8630
▁ㅅㅓㅇㄴㅕ -8631
▁PSP -8632
▁ㅋㅗㅅ -8633
▁ㅎㅕㅂㄱㅗㄱ -8634
▁Tri -8635
ㄲㅗㄹ -8636
▁png -8637
▁kn -8638
▁ㅇㅣㅁㄱㅘㄴ -8639
▁ㅂㅗㄱㅇㅡㅁ -8640
▁ㅅㅓㄴㄱㅗㅇ -8641
▁ㅋㅡㄹㄹㅏㄱ -8642
▁ㅇㅕㅁㅅㅗ -8643
▁181 -8644
▁8000 -8645
▁ㅂㅜㅌㅈㅏㅂㅎㅕ -8646
▁ㅂㅣㄱㅌㅓ -8647
▁ㄱㅕㅇㅈㅐㅇㄹㅕㄱ -8648
▁UR -8649
▁ㅍㅕㅇㅇㅝㄴ -8650
▁ㅈㅓㅇㄷㅗㅇ -8651
▁ㅁㅜㄴㅎㅓㄴ -8652
▁DT -8653
▁ㅁㅏㄴㅎㅚ -8654
▁ㅇㅣㅂㅊㅔ -8655
ful -8656
uch -8657
▁ㅋㅐㄹ -8658
▁ㄷㅗㅇㅊㅏㅁ -8659
▁ㄱㅜㄴㅂㅓㄹ -8660
▁ㅆㅡㅂㅆㅡㄹ -8661
ㄱㅜㄴㅈㅣ -8662
▁ㅂㅗㅇㄱㅣ -8663
▁ㅈㅏㅁㄱㅡㅁ -8664
ㅇㅙ -8665
ㄷㅜㅂ -8666
▁ㅇㅕㄴㅎㅕㄱ -8667
▁ㄱㅕㄱㄷㅗㄹ -8668
ㄹㅣㅇㅋㅡ -8669
▁ㅇㅝㄴㄱㅕㄱ -8670
▁ㅊㅓㄴㅎㅘㅇ -8671
▁ㅊㅏㅇㅇㅢ -8672
▁ㅂㅏㅇㄹㅏㅇ -8673
▁Ext -8674
▁ㄱㅏㄹㄱㅣ -8675
▁ㄴㅏㄴㄷㅗㅇ -8676
▁XP -8677
ㅅㅡㅇㅎㅘㄴ -8678
bl -8679
▁ㅅㅓㅇㅁㅗ -8680
▁ㄱㅕㄱㄴㅗ -8681
ㅇㅕㅇㅈㅏㅇ -8682
▁ㄱㅕㄴㅇㅣㄴ -8683
▁ㅅㅐㅇㅁㅗㄹ -8684
▁ㅈㅣㄱㄱㅘㄴ -8685
ㅈㅣㅂㅇㅓ -8686
▁ㅌㅗㅇㅇㅛㅇ -8687
▁RS -8688
ship -8689
▁ㅇㅝㄴㄴㅕㄴ -8690
85 -8691
▁ㅂㅗㅇㅎㅘㅇ -8692
▁ㅅㅓㅇㄱㅠㄴ -8693
▁ㅅㅓㄴㅊㅔ -8694
▁ㅅㅏㅇㅇㅝㄴ -8695
▁ㅂㅏㄱㅅㅔ -8696
▁ㅅㅗㅇㅇㅣ -8697
ㅈㅜㅇㄱㅜㄱ -8698
▁STAR -8699
▁ㅁㅜㅇㅊㅣ -8700
▁ㅇㅠㄴㅈㅗㅇ -8701
▁ㅅㅓㅇㄱㅠㄴㄱㅘㄴ -8702
▁ㅇㅑㅇㅁㅕㄴ -8703
▁ㅉㅣㄱㅎㅕ -8704
▁ㅃㅗㅂㅎㅣ -8705
▁1948 -8706
▁ㅎㅏㄱㅊㅏㅇ -8707
▁ㅂㅜㄴㅅㅏ -8708
▁ㅈㅏㅁㅂㅗㄱ -8709
▁ㅅㅗㅇㅂㅕㅇ -8710
▁ㅇㅕㄱㄱㅣ -8711
▁ㅎㅡㄱㅂㅐㄱ -8712
▁qu -8713
▁ㅍㅜㅇㅈㅏ -8714
▁ㅌㅡㄹㄹㅕㅆ -8715
▁255 -8716
ㅈㅓㄴㄱㅣ -8717
▁Inf -8718
▁Bar -8719
▁Sil -8720
ㅇㅕㅇㅅㅜ -8721
▁ㄱㅏㄹㄹㅕ -8722
▁ㅇㅣㅁㅍㅡ -8723
ㄱㅜㅇㅊㅏㅇ -8724
ㅇㅛㄴ -8725
▁ㅂㅓㄹㅊㅣㄱ -8726
▁KS -8727
▁ㄱㅜㄴㅅㅏㄴ -8728
▁ㅊㅓㅇㄹㅑㅇ -8729
ㅊㅘㄹ -8730
▁ㅈㅓㄴㄴㅕㄴ -8731
▁ㅇㅘㅇㄱㅜㅇ -8732
▁OR -8733
▁White -8734
▁Win -8735
▁ㅅㅗㄴㄴㅕ -8736
▁Back -8737
▁ㅅㅗㅇㄷㅗ -8738
▁ㅈㅣㄴㄱㅘ -8739
▁ㅊㅏㅇㅅㅣ -8740
ump -8741
ㅁㅜㅅ -8742
co -8743
▁ㅈㅗㅁㅊㅓ -8744
▁ㅈㅣㄹㄹㅕ -8745
▁ㅈㅏㄱㄹㅕㄹ -8746
▁ㅇㅘㅇㄸㅏ -8747
ㅎㅕㄱㅁㅕㅇ -8748
▁ㅂㅚ -8749
▁ㄴㅗㅇㅇㅓ -8750
▁ㅋㅗㄴㅋㅡ -8751
▁PO -8752
▁ㅇㅣㄴㄷㅏ -8753
26 -8754
▁ㅊㅏㄱㅎㅏ -8755
▁ㄷㅓㄴㅈㅣㄹ -8756
ift -8757
▁PM -8758
▁ㅇㅕㄴㄹㅜ -8759
▁jp -8760
▁ㅉㅜ -8761
▁ㄷㅏㄴㅅㅣㄴ -8762
▁Fre -8763
▁ㅈㅓㅂㅅㅣ -8764
▁ㅍㅗㄱㅍㅗ -8765
▁down -8766
ㅇㅣㄴㄷㅓ -8767
▁ㅋㅏㄴㄴㅏ -8768
▁ㅂㅏㄱㅁㅣㄴ -8769
▁ㄱㅏㄴㅅㅣㄱ -8770
▁ㅃㅓㅇㅌㅟ -8771
RAM -8772
▁NG -8773
▁420 -8774
▁ㅇㅗㄹㄹㅣㅁ -8775
ㅈㅓㅇㅅㅏ -8776
▁ㅎㅏㄱㄱㅖ -8777
ㅇㅡㄱㄱㅗ -8778
ㅌㅡㄹㄹㅣㅇ -8779
▁ㅌㅡㄱㅊㅘㄹ -8780
▁ㅅㅣㄹㅎㅓㅁㅅㅣㄹ -8781
▁ㅅㅐㄱㅊㅐ -8782
▁ㅎㅏㄹㄹㅕ -8783
ㅈㅓㅇㄷㅗㅇ -8784
▁GL -8785
▁ㅋㅓㄴㅌㅔ -8786
▁ㄱㅡㅁㅈㅓㄴ -8787
▁215 -8788
▁ㅇㅏㅍㅁㅏ -8789
ㅇㅝㅆㅇㅡ -8790
▁ㅁㅐㄱㄷㅗ -8791
ENT -8792
ㅅㅓㄴㅈㅣ -8793
▁ㄱㅘㄴㅇㅏㄱ -8794
▁ㅁㅏㄷ -8795
▁ㅂㅐㄱㅅㅐㄱ -8796
▁ㅌㅔㄴㅅㅕㄴ -8797
▁ㅎㅚㅇㄷㅏㄴ -8798
▁FE -8799
▁off -8800
▁1949 -8801
ATION -8802
ㅇㅐㅇ -8803
▁ㅊㅣㄴㅁㅣㄹ -8804
▁every -8805
ㄱㅙ -8806
▁ㅉㅓ -8807
▁Met -8808
ㅊㅓㄴㄷㅗㅇ -8809
▁ㅇㅛㄱㄱㅜ -8810
▁ㅈㅜㅇㅇㅓㄹㄱㅓ -8811
edia -8812
▁ㄱㅏㅇㅂㅕㄴ -8813
▁ㅅㅣㄹㅊㅓㄴ -8814
▁ㅈㅓㅇㅇㅠ -8815
▁ㅋㅗㄴㅌㅔ -8816
ㅈㅗㅇㅇㅣㄹ -8817
ㅍㅣㅇㅁㅗㄹ -8818
ㅇㅜㄹㅇㅕㄱ -8819
▁Sky -8820
ㄱㅏㄱㅅㅣ -8821
▁ㅂㅣㄹㅁㅣ -8822
ㄷㅡㄱㅈㅓㅁ -8823
▁ㅅㅓㅇㅍㅗㄱㅎㅐㅇ -8824
▁Hey -8825
ㅂㅗㄴㅈㅜ -8826
▁ㅅㅓㅇㅅㅓ -8827
▁ㅅㅓㄴㄱㅜ -8828
▁CEO -8829
ㅌㅣㄹㄹㅣ -8830
▁ㅇㅕㄹㅍㅜㅇ -8831
▁ㅇㅣㄴㅈㅏㅇ -8832
▁ㅇㅏㄴㄷㅗ -8833
▁ㅇㅣㄴㅍㅡ -8834
▁ㅇㅠㄱㅂㅏㄱ -8835
▁ㄷㅡㅁ -8836
▁ㅈㅣㄴㅎㅐ -8837
▁ㅇㅓㅅㄱㅏㄹ -8838
▁ㅇㅑㅇㄷㅗㅇ -8839
ALL -8840
▁208 -8841
▁ㅂㅕㅇㅁㅏㅅ -8842
▁ㅎㅕㄴㅈㅗㄴ -8843
▁ㅂㅕㄴㅈㅗㅇ -8844
▁ㅁㅣㄴㅈㅗㄱㅈㅜ -8845
▁ㄹㅓㅂ -8846
▁ㅉㅣㄴ -8847
▁ㄴㅏㅁㅇㅛㅇ -8848
▁ㄱㅘㅇㅂㅜ -8849
▁Act -8850
▁235 -8851
ERT -8852
▁UFO -8853
▁ㄷㅗㅇㅅㅓㄴ -8854
▁}{ -8855
▁FN -8856
ㅎㅏㄴㅎㅏㅇㄱㅗㅇ -8857
▁ㅇㅠㄱㅅㅣㄱ -8858
ㅇㅏㄴㄱㅜㄴ -8859
▁1936 -8860
▁ㅎㅑㅇㅅㅜ -8861
ㅇㅔㅁ -8862
ㅅㅓㄴㄷㅗ -8863
▁ㄹㅓㄴㄴㅣㅇㅁㅐㄴ -8864
▁333 -8865
▁ㅈㅓㅇㅎㅕㄴ -8866
▁ㄱㅐㅂ -8867
▁ㅅㅏㅂㅎㅘ -8868
BM -8869
▁ㅁㅏㄱㅎㅣㄴ -8870
oud -8871
▁ㅍㅕㄴㅈㅔ -8872
▁ㅊㅜㄹㅅㅐㅇㅈㅣ -8873
▁ㅂㅕㅇㅇㅕㅇ -8874
▁FX -8875
ㄴㅘㅆ -8876
less -8877
ㄹㅣㄴㅌㅡ -8878
▁ve -8879
▁That -8880
▁ㄹㅏㄹㄲㅏ -8881
▁TD -8882
▁ㅇㅏㄹㄹㅜ -8883
▁ㅊㅓㄹㅎㅚ -8884
▁ㅂㅏㄹㄱㅏㄴ -8885
▁206 -8886
▁ㄷㅓㅇㅋㅡ -8887
ize -8888
▁NL -8889
ㅍㅣㅇㅋㅡ -8890
▁ㅎㅏㅂㅂㅏㅇ -8891
▁Song -8892
▁ㄴㅏㄴㅍㅗㄱ -8893
▁em -8894
▁ㅇㅏㄹㅂㅣ -8895
▁ㅈㅓㅇㅈㅏ -8896
▁ㅎㅏㅇㅅㅗㄱ -8897
▁ㄱㅡㄱㅊㅏㄴ -8898
ㄷㅗㅇㅂㅕㄴ -8899
95 -8900
▁ㅎㅔㄹㄹㅔ -8901
ㄷㅗㅇㅂㅕㄴㅅㅗㄱㄱㅣ -8902
▁con -8903
▁May -8904
▁ㅊㅏㅁㅍㅐ -8905
▁ㅅㅓㅇㅁㅜㄴ -8906
▁ㅅㅓㄹㅅㅏ -8907
bps -8908
ㅂㅏㅇㅎㅑㅇ -8909
▁ㅁㅜㄴㅇㅢ -8910
▁ㄱㅕㅇㅇㅣㄴ -8911
▁ㅅㅗㄱㅇㅗㅅ -8912
▁ㅈㅓㄻㅇㅡㄴㅇㅣ -8913
▁161 -8914
▁ㅁㅕㄹㅈㅏ -8915
▁ㅇㅕㅇㄹㅣ -8916
▁ㄷㅏㄴㄷㅏ -8917
▁ㅂㅗㄴㄱㅜㄱ -8918
▁ㅅㅞㄹ -8919
VEL -8920
▁ㅅㅓㅇㄱㅓㅁ -8921
▁ㄱㅘㅇㅈㅓ -8922
ㄱㅡㅂㅅㅏ -8923
ㅁㅏㅇㅊㅕㅆ -8924
▁ㄲㅡㅌㄴㅐㅆ -8925
ape -8926
▁ㅌㅣㅁㅋㅣㄹ -8927
▁GAM -8928
▁850 -8929
UB -8930
▁ㅇㅑㄴㄷㅔ -8931
▁want -8932
▁God -8933
ㅅㅓㄱㅂㅓ -8934
▁ㄲㅡㅌㅍㅏㄴ -8935
ㅂㅓㅂㅇㅝㄴ -8936
▁ㅍㅜㄹㅂㅐㄱ -8937
ㅁㅕㅇㅅㅔ -8938
ㅁㅜㄷ -8939
ger -8940
▁ㅅㅗㅇㄱㅗㅅ -8941
▁ㅈㅓㅇㅂㅓㄹ -8942
▁ㄷㅗㄹㄹㅕㅆ -8943
▁ㅂㅐㄴㅅㅣ -8944
IST -8945
▁ㅈㅏㅇㄹㅐ -8946
▁ㅍㅏㄹㄹㅕ -8947
96 -8948
ㅂㅏㅇㅅㅏ -8949
▁ㅇㅣㅂㅎㅕ -8950
▁ㅂㅕㄱㄷㅗㄹ -8951
▁ㅅㅓㄴㅂㅏㄹㅈㅓㄴ -8952
▁Rain -8953
▁ㅂㅜㄱㄱㅡㄱ -8954
aka -8955
▁RAM -8956
▁ㄷㅗㄱㅅㅓㅇ -8957
ㄱㅏㅆㅇㅡ -8958
ㄱㅅㅕㄴ -8959
▁ㅇㅕㅇㅈㅏㅇ -8960
ita -8961
▁ㅇㅓㄴㄹㅏㄱ -8962
▁ㅅㅗㄴㅅㅜ -8963
▁ㄴㅏㅁㄱㅜ -8964
ㅅㅣㄹㅎㅣ -8965
▁ㅇㅣㅁㅎㅏ -8966
▁ㅇㅕㅇㅊㅏㅇ -8967
▁ㅈㅣㅇㅂㅕㅇ -8968
▁ㅊㅓㅇㅅㅐㄱ -8969
▁ㅂㅜㄱㄷㅜ -8970
▁290 -8971
ㄹㅣㄴㅇㅐ -8972
▁ㅅㅓㅇㅈㅜ -8973
▁ㅇㅣㅂㅎㅣㄴ -8974
▁ㅂㅗㄱㅈㅗㅇ -8975
▁RF -8976
zy -8977
▁ㅂㅜㄹㅇㅜㄴ -8978
▁ㅅㅣㅁㅅㅣㅁㅊㅏㄶ -8979
▁Top -8980
ㄹㅓㄱㅅㅡ -8981
▁ㄴㅏㄴㅎㅐ -8982
▁ㄱㅘㅇㅅㅣㄴ -8983
▁ㅈㅓㅇㄹㅕㄹ -8984
▁ㄱㅕㅇㅇㅟ -8985
▁ㄴㅔㄱㅅㅡ -8986
ㅈㅔㅅ -8987
76 -8988
▁ㅅㅓㄴㄷㅗ -8989
ORM -8990
▁ㄷㅏㄴㄱㅏㄴ -8991
▁ㄷㅏㅇㅂㅜㄴㄱㅏㄴ -8992
ㄲㅡㅌ -8993
▁ㅊㅣㄴㅇㅣㄹ -8994
▁ㅇㅏㄹㄹㅣㅁ -8995
▁." -8996
▁ㅈㅗㅈ -8997
ㄱㅏㄱㅅㅓㄴ -8998
ㅇㅘㅆㅇㅓㅆ -8999
ㅇㅏㅅㄱㅣㄴ -9000
▁ㅋㅝㅇ -9001
▁more -9002
▁ㅇㅕㄹㅈㅓㄴ -9003
▁ㅈㅔㅅ -9004
rop -9005
ㄱㅕㄱㄱㅣ -9006
▁ㅇㅜㄹㅂㅜ -9007
▁ㅌㅡㄱㅊㅜㄹ -9008
▁ㅈㅓㄹㅁㅛ -9009
▁ㅈㅜㄹㅈㅜㄹㅇㅣ -9010
ㅇㅕㄴㅎㅏㅂ -9011
▁ㅅㅓㄱㅌㅏㄴ -9012
▁ㅋㅏㄹㄹㅓㅁ -9013
▁ㅊㅐㄱㅇㅣㅁㅈㅏ -9014
▁Pe -9015
▁WAR -9016
ㄴㅏㄴㄷㅔ -9017
▁ㅈㅓㄴㅇㅛㅇㄱㅣ -9018
ㅇㅜㄴㅈㅓㄴ -9019
▁ㅂㅐㄹㄹㅣ -9020
▁1955 -9021
ㅇㅏㅁㄷㅗㅇ -9022
▁ㅎㅐㅁㅂㅓ -9023
▁ㅇㅕㄱㅎㅏㄱ -9024
▁ㅈㅗㄴㅅㅗㄱ -9025
▁Battle -9026
▁ㄴㅏㅁㅇㅑㅇㅈㅜ -9027
▁ㅌㅡㄱㄱㅗㅇㄷㅐ -9028
ㅊㅏㅇㄹㅕㄱ -9029
▁ㅈㅓㄴㅇㅜ -9030
IGHT -9031
▁Moon -9032
▁ㅊㅣㅇㅅㅗㅇ -9033
ㅋㅘ -9034
ㅈㅏㄱㅈㅓㄴ -9035
▁ㅇㅕㄱㅈㅓㄴㅅㅡㅇ -9036
ㅊㅓㄴㅇㅕㄱ -9037
▁Game -9038
▁ㅈㅜㅇㅅㅓㅇ -9039
▁ㄱㅏㅂㅍㅏㄴ -9040
bo -9041
net -9042
ㅈㅜㄴㅎㅕㄱ -9043
▁ㅆㅔ -9044
ward -9045
▁ㅇㅣㄹㅈㅣㄱ -9046
▁ㅎㅐㅇㄷㅗㅇㄹㅕㄱ -9047
ㄱㅕㅇㅁㅣㄴ -9048
ara -9049
▁ㅅㅓㄴㅍㅜㅇ -9050
▁TEC -9051
▁ㅊㅗㅇㅌㅗㅇ -9052
▁ㅌㅟㅇㄱㅣ -9053
▁ㄱㅗㄱㅅㅓㄴ -9054
row -9055
ㅇㅣㄴㅅㅡ -9056
▁ㅁㅏㅇㅇㅝㄴ -9057
OK -9058
▁ㅇㅕㅇㄹㅏㄱ -9059
▁ㄸㅜㅀㄹㅣ -9060
com -9061
▁ㅅㅣㄴㄴㅗ -9062
ㅇㅜㅅㅇㅡㅁ -9063
ㅂㅡㄹㄹㅐㄴㄷㅡ -9064
ren -9065
▁ㅇㅣㄴㅁㅣㄴㄱㅗㅇㅎㅘ -9066
▁ㄱㅗㄹㄷㅐ -9067
▁SUP -9068
ㅁㅜㄴㅈㅏ -9069
▁Dragon -9070
▁KG -9071
ㄸㅜㄹ -9072
▁ㄱㅕㅇㅇㅣ -9073
▁212 -9074
▁ㄸㅟㄹ -9075
▁NS -9076
ㅂㅏㄼ -9077
▁max -9078
▁ㅈㅗㅇㅈㅏ -9079
▁ㄱㅣㅁㅇㅣㄴ -9080
▁ㅅㅣㅁㅍㅡㄹ -9081
▁ㅁㅣㄴㅈㅣ -9082
▁ㅂㅜㄱㅇㅠ -9083
▁ㅇㅏㄴㄱㅣ -9084
▁LS -9085
▁Bra -9086
▁ㅍㅐㄱㅌㅗ -9087
▁1959 -9088
▁ㄱㅏㅇㄷㅏㅇ -9089
▁ㅁㅗㄴㅌㅔ -9090
▁ㅂㅗㄴㅁㅜㄴ -9091
▁ㅎㅡㄱㄹㅛㅇ -9092
▁ㅇㅘㅇㄴㅕ -9093
ㅅㅓㅇㅈㅜ -9094
led -9095
▁ㅅㅏㅇㅎㅐ -9096
▁they -9097
▁LCD -9098
ㅅㅏㅇㅎㅕㄴ -9099
ㅅㅗㄹㄹㅣㄴ -9100
▁Special -9101
ㄸㅗ -9102
▁ㄱㅣㅁㅎㅕㄴㅅㅜ -9103
▁ㄱㅘㄴㅈㅔ -9104
▁ㅎㅏㄹㄷㅏㅇ -9105
ㄹㅣㅁㅅㅡㄴ -9106
ㄱㅐㅇ -9107
▁ㅂㅗㄹㄹㅣ -9108
▁ㅅㅣㄹㅂㅣ -9109
▁ㅂㅏㄹㅅㅏㄴ -9110
▁ㄱㅘㅇㅎㅘ -9111
ㄴㅏㄴㄷㅗ -9112
▁ㅁㅗㄹㄹㅣㄴ -9113
▁ㅇㅏㅇㄹㅣ -9114
▁ㅎㅕㅂㄱㅗㅇ -9115
▁ㄱㅜㄱㅅㅏ -9116
▁ㅍㅔㄴㅅㅡ -9117
▁ㅈㅏㄴㄷㅏㅇ -9118
▁001 -9119
▁ㅂㅡㄴ -9120
▁ㅇㅕㄴㅂㅏㅇㄱㅜㄴ -9121
▁ㅎㅐㄱㅁㅜ -9122
▁ㅇㅗㄴㅈㅓㄴㅎㅣ -9123
aven -9124
▁ㅇㅐㄴㄷㅓ -9125
▁ㅎㅔㄹㄹㅗ -9126
▁ㄴㅓㅁㄱㅣㄹ -9127
▁ㅂㅣㄴㅅㅡ -9128
▁1956 -9129
▁ㅈㅓㅇㅇㅣㄴ -9130
▁ㄷㅏㄴㄷㅏㄴㅎㅣ -9131
▁ㅎㅘㄹㅈㅜ -9132
▁ㄷㅟㅅㅂㅏㄷㅊㅣㅁ -9133
▁ㅌㅡㄱㅎㅓ -9134
▁wiz -9135
▁Amer -9136
LD -9137
▁ㅍㅕㅇㅎㅐㅆ -9138
ㄸㅔ -9139
▁ㄱㅏㅇㅇㅕㄴ -9140
▁Pop -9141
▁ㅂㅔㄹㅂㅔㅅ -9142
▁ㅈㅏㅇㅁㅏㄱ -9143
▁ㅎㅕㅂㅇㅑㄱ -9144
▁Track -9145
▁ㅅㅣㄴㄱㅗㅇ -9146
▁ㄷㅡㅇㅅㅏㄴ -9147
▁ㄴㅏㄹㄹㅣㄹ -9148
▁DAY -9149
▁tw -9150
▁ㅌㅏㄹㄱㅓㅅ -9151
ㅆㅏㄹ -9152
▁ㅇㅣㄴㅂㅜㄴ -9153
▁ㅊㅣㄹㅎㅡㄱ -9154
▁FFFF -9155
▁ㅇㅗㄴㅎㅘ -9156
▁ㅅㅓㄱㅂㅏㅇ -9157
▁ㅇㅣㅂㅅㅓㅇ -9158
▁TG -9159
▁ㅋㅚ -9160
▁ㅇㅡㅁㅇㅑㅇ -9161
▁ㅎㅏㅂㅅㅏㄴ -9162
ㅂㅏㅇㅅㅣㄱ -9163
▁ㅂㅐㄱㅅㅣㄴ -9164
▁ㄹㅏㄹㅍㅡ -9165
▁ㅅㅓㄴㅈㅣㄴㄱㅜㄱ -9166
▁ㅋㅏㄹㄹㅗ -9167
▁ㅅㅏㄹㄹㅣㄹ -9168
▁ㅅㅣㄴㄹㅕㅇ -9169
▁ㅈㅓㅁㅎㅏ -9170
ㅊㅔㄴ -9171
▁Cont -9172
▁ㅃㅐㅅㄱㅣ -9173
ㅇㅗㄹㄹㅔㅅ -9174
▁ㅌㅐㄱㅎㅏ -9175
▁ㅊㅓㅂㅂㅗ -9176
▁1939 -9177
▁ㅁㅔㄹㄹㅣ -9178
▁ㅈㅓㄱㅈㅓㅇ -9179
▁ㄱㅕㅇㅅㅣㄴ -9180
▁TN -9181
▁ㄷㅏㄴㅈㅓㄹ -9182
▁ㄱㅏㅁㄷㅗ -9183
ㄹㅔㄱㅌㅡ -9184
▁ㅇㅣㅁㅈㅣㄴㅇㅙ -9185
ㄲㅓㅂ -9186
▁ㄱㅏㄱㄱㅣ -9187
▁ㅇㅔㅁㅍㅏ -9188
ㄱㅡㅂㅍㅜㅁ -9189
▁ㅃㅏㅇㅃㅏㅇ -9190
▁ㅇㅕㄱㄱㅘㄴ -9191
▁ㅁㅔㅅㄷㅙ -9192
▁ㅈㅔㄴㅈㅣ -9193
play -9194
ㅈㅏㅇㄱㅜ -9195
▁ㅈㅡㅇㅎㅜ -9196
▁ㅃㅏㄹㄹㅕ -9197
▁". -9198
ands -9199
▁Yes -9200
▁ㅅㅞㄴ -9201
▁ㅁㅕㅇㄹㅕㅇㅇㅓ -9202
▁ㅍㅏㄹㄲㅜㅁㅊㅣ -9203
▁ㅈㅜㅇㅇㅢ -9204
▁207 -9205
34 -9206
▁ㅌㅗㅇㅎㅏㄴㄷㅏ -9207
▁ㅎㅘㅇㅈㅏ -9208
▁ㄷㅏㄴㄱㅓ -9209
▁baby -9210
▁COM -9211
▁ㅁㅝㅅ -9212
ㅇㅣㅂㄱㅜ -9213
ㅈㅓㅇㅎㅗ -9214
▁ㄹㅐㄴㄷㅣ -9215
▁ㄷㅏㄴㅂㅐㄱ -9216
ㅇㅞㅂ -9217
▁ㅅㅓㅆ -9218
▁ㄱㅘㄴㄷㅐ -9219
▁ㅍㅜㅅㅂㅗㄹ -9220
▁ㄷㅗㅇㅁㅜㄹㅇㅝㄴ -9221
▁ㅂㅏㄴㄱㅏ -9222
▁ㄷㅏㄴㅁㅏㄹㄱㅣ -9223
ze -9224
ㅈㅜㄴㅅㅓㄱ -9225
▁ㅂㅜㄹㄱㅣ -9226
ㅈㅓㄱㅎㅘ -9227
▁ㄱㅓㅌㅂㅗ -9228
▁ㄷㅓㅁㅂㅣ -9229
▁ㅋㅕㄴ -9230
▁ㅂㅜㄴㅈㅏ -9231
▁520 -9232
ㅁㅣㅌ -9233
▁ㅎㅕㄴㅈㅓ -9234
▁good -9235
▁ㄱㅏㄱㅅㅐㄱ -9236
▁ㅊㅓㅇㅎㅏ -9237
▁ㅇㅣㄴㅅㅣㄴ -9238
ㅌㅡㄹㅍㅣㄹㄷㅡ -9239
ien -9240
▁777 -9241
▁over -9242
▁ㅇㅕㅇㅈㅐ -9243
ㅊㅐㅆ -9244
▁ㅂㅏㄱㄱㅣ -9245
▁ㅂㅜㅇㄷㅐ -9246
▁PA -9247
▁ㄱㅗㅇㅂㅕㅇ -9248
▁ㄱㅡㅁㅅㅓㅇ -9249
▁Hot -9250
ㅇㅛㅇㅊㅏ -9251
ㅍㅜㅁㄱㅜㄴ -9252
▁BASIC -9253
▁ㄷㅡㄹㅌㅗㅇ -9254
ited -9255
▁ㅊㅓㄴㅊㅔ -9256
▁ㅊㅣㄴㄱㅡㄴ -9257
ㅇㅕㅁㅂㅏㅇㅅㅏ -9258
▁ㄴㅔㅂㅌㅠㄴ -9259
▁ㅅㅏㅇㅈㅓㅇ -9260
ㅂㅣㄱ -9261
▁ㅁㅜㄴㅎㅗ -9262
▁ㅇㅗㄱㅅㅜ -9263
▁ㅎㅏㅇㄹㅗ -9264
▁ㅊㅓㄹㅂㅕㄱ -9265
▁Mir -9266
▁ㅈㅣㅂㅈㅓㅇㄱㅘㄴ -9267
▁ㅅㅗㅇㅍㅏ -9268
▁ㄷㅏㄴㅇㅕㄴ -9269
▁ㅈㅣㄴㅎㅏㄴ -9270
▁..' -9271
▁IDOLM -9272
▁ㅅㅓㅇㄱㅡㅂ -9273
▁ㅈㅓㅇㅈㅔ -9274
▁ㅎㅏㄴㄱㅕㄹ -9275
▁209 -9276
▁ㄷㅗㅇㅍㅗ -9277
▁ㄴㅜㄴㅂㅜ -9278
▁ㅃㅜㅁㅇㅓ -9279
▁ㅁㅣㄹㅊㅕ -9280
▁ㄴㅜㄹ -9281
ㄷㅗㅇㄷㅏㅇ -9282
ㄸㅗㅇ -9283
▁ㅂㅏㄹㅌㅡ -9284
▁ㅅㅏㅇㄹㅠ -9285
▁ㅇㅏㄴㅌㅔ -9286
▁ㄱㅣㅁㅌㅐㄱㅇㅛㅇ -9287
ㄷㅜㄹㄱㅣ -9288
▁Bur -9289
▁ㄱㅏㅁㅅㅗㄱ -9290
au -9291
▁~' -9292
▁ㅅㅜㄴㅅㅜㄴ -9293
▁ㅅㅣㅁㅅㅡㄴ -9294
▁ㅈㅏㅇㄷㅗㅇㅁㅣㄴ -9295
▁ㅅㅓㄴㅂㅣ -9296
▁col -9297
▁ㅈㅜㅇㄹㅕㅇ -9298
▁ㅅㅓㄴㅁㅕㅇ -9299
▁ㅇㅣㄹㄱㅏㄹ -9300
▁Project -9301
▁ㅇㅓㄱㅇㅏㅂ -9302
▁ㅅㅏㄹㄹㅣㄴ -9303
▁TF -9304
ㅂㅡㄹㄹㅏㅇ -9305
▁ㅁㅣㄴㅂㅕㅇㄷㅐ -9306
▁ㄴㅏㅁㄱㅣㄴㄷㅏ -9307
▁ㄱㅣㅁㅇㅕㅇㅅㅏㅁ -9308
ㅂㅏㄲ -9309
▁ㅈㅓㄴㄹㅠ -9310
ㅌㅐㄴㄷㅣㅇ -9311
▁ㄷㅓㅂ -9312
▁Sur -9313
▁1400 -9314
▁ㄱㅏㄴㅈㅏㅇ -9315
▁ㄷㅏㅇㄱㅡㄴ -9316
▁ㅁㅕㅇㅇㅣㄴ -9317
▁ㅈㅡㅇㅇㅝㄴ -9318
▁ㅂㅏㄹㄷㅗ -9319
36 -9320
▁ㅅㅣㄴㅊㅗㄴ -9321
▁ㅈㅏㅇㄷㅏㄴ -9322
▁ㅈㅓㅇㅈㅣㄱ -9323
▁Off -9324
ㄹㅏㄴㅊㅡ -9325
ㄹㅗㄴㅌㅣ -9326
▁ㅂㅐㄱㅅㅜ -9327
▁ㅌㅏㄴㅅㅜ -9328
▁yeah -9329
▁ㄱㅣㄴㅈㅏㅇㄱㅏㅁ -9330
▁ㅎㅕㄴㅈㅣㄹ -9331
▁ㅎㅘㅇㅈㅗㄱ -9332
▁ㄱㅜㄴㅈㅜㅇ -9333
▁ㅇㅜㄴㅈㅓㄴㅈㅏ -9334
▁ㅂㅏㄴㅉㅏㄱㅇㅣ -9335
ius -9336
▁ㅌㅗㄱㅌㅗㄱ -9337
▁ㅎㅐㅇㅈㅓㅇㅂㅜ -9338
▁ㅈㅣㅅㅂㅏㄼ -9339
▁ㅇㅕㄱㅈㅓㄴㅍㅐ -9340
▁ㄱㅜㄴㄷㅏㄴㅈㅏㅇ -9341
▁ㄴㅗㄹㄹㅏㄴㄷㅏ -9342
21 -9343
▁ㄱㅡㄹㄹㅣ -9344
▁KD -9345
▁ㅊㅏㅇㅇㅝㄴㅅㅣ -9346
▁ㄱㅜㄻㅈㅜ -9347
▁ㅊㅣㅁㅅㅣㄱ -9348
▁ㄱㅕㄹㅂㅕㄹ -9349
▁ㅇㅣㅁㅍㅔ -9350
▁ㅊㅜㄹㅅㅔ -9351
▁FFFFFF -9352
▁Bad -9353
▁ㅇㅗㄻㄱㅣㄴ -9354
▁ㅌㅏㄹㅌㅏㄹ -9355
▁ㅅㅓㄴㅎㅕㅇ -9356
oney -9357
▁ㅅㅣㅁㅍㅗ -9358
ㄴㅡㄹㅅㅐㄱ -9359
HD -9360
UK -9361
▁ㅊㅓㄴㄷㅗ -9362
ata -9363
ㄱㅜㄱㅁㅣㄴ -9364
▁ㅇㅐㄱㅌㅡ -9365
AA -9366
ㅌㅐㄴㅅㅡ -9367
▁ㅌㅔㅁㅍㅡㄹㄹㅓ -9368
▁ㅂㅜㄴㅈㅓㄴ -9369
▁1938 -9370
▁ㅈㅓㄴㄱㅏㄹ -9371
▁WOR -9372
ㅁㅏㅇㅊㅣㄴ -9373
▁ㄱㅗㅇㅅㅓㄱ -9374
▁ㅇㅏㄴㅈㅜㅇ -9375
▁bo -9376
▁ㄴㅏㅈㅊㅝ -9377
▁ㄱㅕㄱㅎㅏ -9378
▁ㅅㅜㄴㅅㅜㄴㅎㅣ -9379
ㅍㅏㄴㅅㅗ -9380
▁ㅅㅏㄴㅎㅘ -9381
▁ㄱㅘㄴㄱㅓㄴ -9382
▁ㅈㅓㅇㅇㅕㄴ -9383
▁Po -9384
▁ㅇㅛㄴ -9385
▁ㅁㅕㅇㅍㅜㅁ -9386
▁ㅎㅏㄱㅇㅓㅂ -9387
▁Int -9388
▁ㄱㅓㄹㅅㅡ -9389
ㅅㅏㅇㄱㅜㄴ -9390
ㄹㅏㄴㅌㅣ -9391
▁ac -9392
▁ㄱㅝㄴㄱㅗ -9393
INE -9394
▁ㄱㅗㄷㅇㅣ -9395
▁ㅂㅔㄱ -9396
▁ㅁㅕㄴㅇㅡㄴ -9397
▁ㅅㅏㄴㅅㅏㄴ -9398
vent -9399
▁ㄱㅣㅁㅅㅗ -9400
▁ㅅㅔㄱㅌㅓ -9401
▁ㅎㅕㄴㅎㅐㅇ -9402
▁ㅇㅕㅇㄹㅕㅇ -9403
▁Are -9404
▁ㅈㅗㄹㅈㅣ -9405
ㄱㅏㅁㅊㅣ -9406
▁Ul -9407
▁ㄷㅏㄴㅂㅓㄴㅇㅔ -9408
▁DDR -9409
▁ㄲㅗㅁㅉㅏㄱ -9410
▁ㅇㅡㅇㅈㅣㅇ -9411
▁ㅊㅗㅇㄱㅜ -9412
▁ㅋㅗㄹㄹㅣㄴ -9413
▁275 -9414
▁ㅅㅓㅇㅇㅠ -9415
▁ㅎㅑ -9416
▁WCS -9417
▁say -9418
line -9419
▁ㅈㅜㄴㅇㅣ -9420
▁ㅈㅡㄱㅅㅓㄱ -9421
ㅋㅓㄴㄷㅐ -9422
▁Ass -9423
ㅈㅏㅇㅈㅏㅇㅇㅣ -9424
▁#, -9425
▁JC -9426
▁ㅅㅐㄴㄷㅣ -9427
▁ㅇㅡㄴㄱㅏ -9428
▁'- -9429
▁ㄱㅘㅇㅎㅏㄱ -9430
▁ㅆㅐㅇ -9431
▁ㄱㅐㅇㄷㅏㄴ -9432
▁ㅈㅡㅁ -9433
▁ㅇㅘㄴㅈㅜ -9434
▁TWICE -9435
▁PvP -9436
▁ㅅㅏㄴㅊㅔ -9437
▁ㅅㅣㄴㅎㅏㄴㅇㅡㄴㅎㅐㅇ -9438
▁org -9439
ㅎㅗㅇㅊㅓㄹ -9440
▁ㅇㅛㅇㅍㅜㅁ -9441
▁221 -9442
▁ㅇㅣㄹㄹㅜ -9443
▁ㅊㅓㄱㅎㅏ -9444
ㅌㅜㄱㅌㅟ -9445
▁ㅎㅐㅇㄱㅏㄱ -9446
▁ㄹㅣㄱㅅㅡ -9447
UL -9448
▁ㄱㅓㄴㄹㅣㅂ -9449
▁ㅁㅓㄹㄹㅣㄴ -9450
ague -9451
ㅌㅡㄹㄹㅐㄴ -9452
ㅆㅡㄴ -9453
▁ㄹㅏㄴㅌㅡ -9454
▁ㄱㅏㅂㅌㅜㄱㅌㅟ -9455
▁AMD -9456
▁ㅍㅗㄱㅌㅜ -9457
ㄷㅓㄼ -9458
▁ㅇㅔㄹㅅㅗ -9459
▁ㅁㅔㄱ -9460
ton -9461
▁Eng -9462
▁see -9463
▁ㅂㅓㄴㄱㅓ -9464
▁ㅍㅗㄱㄱㅜㄴ -9465
ㅋㅔㄹㄹㅔ -9466
▁Match -9467
▁ㅇㅣㄹㅉㅣ -9468
ck -9469
UST -9470
78 -9471
▁ㅉㅗㄱㅈㅣ -9472
▁Char -9473
ㄱㅗㅇㅈㅜ -9474
▁ㄱㅣㄹㅁㅗㄱ -9475
▁ㅈㅗㄹㄹㅏ -9476
▁ㅎㅗㅁㄱㅜ -9477
▁ㅉㅏㄹㅁㅏㄱ -9478
▁ㄱㅕㅇㅈㅓㄴㅊㅏ -9479
▁ㄹㅡㅇ -9480
▁ㄱㅜㄱㅅㅜ -9481
▁ㅇㅏㅍㅉㅗㄱ -9482
▁ㅈㅣㄴㄱㅗㅇ -9483
▁fr -9484
ㅋㅡㄹㄹㅐㄴㄷㅡ -9485
▁1952 -9486
▁ㅇㅜㄹㅂㅓ -9487
und -9488
ㄱㅕㄱㄷㅐ -9489
▁ㅌㅏㄹㅈㅜ -9490
▁ㅂㅏㅇㄷㅐ -9491
▁XY -9492
ㅍㅏㄴㄱㅣ -9493
▁Now -9494
▁ㅅㅡㄹㅉㅓㄱ -9495
▁RED -9496
▁ㅂㅗㄹㅇㅣㄹ -9497
erm -9498
ㅁㅏㅇㅊㅣㄴㄷㅏ -9499
ute -9500
▁ㅇㅣㄹㅅㅓㄴ -9501
▁ㅇㅏㄴㅊㅣ -9502
ㄷㅐㄴ -9503
ㅁㅣㄴㅎㅗ -9504
▁ㅇㅛㄱㅁㅓㄱ -9505
▁ㄱㅡㅁㄱㅗㄱ -9506
▁ㅈㅓㅇㅈㅜㅇ -9507
ㅅㅓㅇㅅㅣ -9508
▁ㅁㅜㄱㅈㅣㄱ -9509
▁ㅇㅣㄹㅈㅣㄱㅅㅓㄴ -9510
▁ㄷㅚㅆ -9511
▁ㄱㅕㅇㅅㅣ -9512
ILL -9513
▁ㅌㅐㅁ -9514
ㅎㅏㅇㄱㅜㄴ -9515
▁ㅇㅣㄹㅈㅓㅇㄹㅑㅇ -9516
▁216 -9517
▁ㄸㅏㄹㄹㅕ -9518
ㅁㅐㅇㅇㅣ -9519
▁ㄴㅗㅇㅊㅗㄴ -9520
▁Core -9521
▁ㅎㅠㅇㅌㅓ -9522
▁ㅎㅘㄴㅂㅜㄹ -9523
▁ㅈㅓㅇㅈㅓㄱ -9524
▁ㅎㅐㅅㅂㅣㅊ -9525
▁right -9526
▁ㅁㅕㅇㅈㅏㅇㅁㅕㄴ -9527
▁ㅂㅏㄹㄹㅔㄴㅅㅣ -9528
▁Blood -9529
▁ㅇㅏㄱㅇㅣㄴ -9530
▁ㅎㅕㄴㅅㅜ -9531
▁ㄹㅓㄱㅅㅡ -9532
red -9533
▁BW -9534
ㄸㅡㄴ -9535
▁416 -9536
▁}}}} -9537
▁2021 -9538
▁ㅊㅜㅇㅅㅣㄹㅎㅣ -9539
hy -9540
▁ㄱㅚㅇ -9541
▁213 -9542
ㄴㅜㄴㄷㅏ -9543
▁Joh -9544
▁our -9545
ㅇㅝㄴㅅㅜ -9546
▁ㅂㅜㄴㅅㅜ -9547
▁ㅊㅜㅇㄷㅗㅇ -9548
▁ㅅㅜㄱㅁㅕㅇ -9549
▁ㅅㅣㅁㅂㅜ -9550
ㄹㅗㄹㄹㅏ -9551
▁ㄷㅗㅇㄱㅜㄱ -9552
▁}}}}}} -9553
ㅈㅓㅇㅎㅜㄴ -9554
▁BRV -9555
▁ㅈㅏㅇㄴㅕ -9556
▁Rob -9557
▁ㅊㅜㅇㄱㅗㅇ -9558
ㄴㅐㅆㅇㅡ -9559
ㅈㅗㅇㅅㅓㄱ -9560
▁ㅅㅗㄱㅅㅏ -9561
▁ㅇㅗㄴㄱㅔ -9562
▁ㄱㅗㄹㄱㅗ -9563
▁ㅅㅓㄴㄱㅡㄹㄹㅏ -9564
▁ㅍㅕㅇㅇㅏㄴ -9565
▁ㄱㅏㄴㅍㅕㄴ -9566
▁ㄱㅜㄱㅁㅜㄹ -9567
▁ㅁㅏㅈㅊㅝㅆ -9568
ㅅㅗㅇㅅㅓㄴ -9569
55 -9570
▁ㅊㅗㅇㅎㅚ -9571
▁Ook -9572
ㅁㅓㄱㅇㅣ -9573
ㅇㅣㅁㄴㅔㅅ -9574
▁ㄱㅜㄱㅈㅓㅇㅇㅝㄴ -9575
▁BBC -9576
▁ㄴㅡㅇㄷㅗㅇ -9577
ism -9578
▁ㄱㅕㅇㅇㅢ -9579
▁ㄱㅘㄴㅈㅓㄴ -9580
▁ㅊㅣㄴㅅㅓㄴ -9581
▁ㄸㅟㄴ -9582
▁ㄷㅜㄴㅎㅘ -9583
▁ㅅㅓㄴㅊㅓㄴ -9584
▁ㅈㅏㄹㄹㅣㄴ -9585
▁ㅈㅣㄻ -9586
▁Last -9587
ㄲㅗㅁ -9588
▁1300 -9589
▁ㅈㅜㅇㅅㅏ -9590
ㄹㅜㅅ -9591
ㅅㅏㄴㄹㅣ -9592
▁ㅂㅕㅇㅅㅣㄴ -9593
▁1953 -9594
ㄴㅕㄴㄷㅏㄴ -9595
▁ㅍㅣㄹㄱㅣ -9596
▁ㄱㅡㅂㅅㅏㅇ -9597
▁cr -9598
III -9599
▁ㅊㅣㄴㅎㅘ -9600
▁ㄱㅏㅇㄴㅏㅁㄱㅜ -9601
▁ㄷㅗㄹㅍㅜㅇ -9602
OCK -9603
▁ㅇㅏㅍㅈㅏㅇ -9604
ㅇㅓㅂㄱㅏ -9605
▁ㄱㅡㄴㄹㅐ -9606
ㅅㅐㅇㅊㅜㅇ -9607
▁ㅇㅏㄱㅈㅣㄹ -9608
▁ㅍㅣㄹㅅㅡㅇ -9609
▁ㅉㅣㅁ -9610
ㅁㅏㄴㄷㅗ -9611
▁ㅊㅓㄴㄹㅣ -9612
▁ㅇㅘㄴㅍㅐ -9613
▁ㅅㅜㄴㅅㅏㄱ -9614
▁ㄱㅓㅁㅊㅏㄹㅊㅓㅇ -9615
ㅈㅣㅍ -9616
▁ㅂㅔㄴㅌㅡ -9617
ㄴㅜㄱ -9618
ets -9619
▁ㅆㅡㄹㅆㅡㄹ -9620
▁ㅈㅣㄱㄱㅖ -9621
▁ㅇㅏㄴㅅㅣㄱ -9622
▁ㄱㅕㅇㅇㅕㅇㅎㅏㄱ -9623
88 -9624
ㅎㅕㄴㄷㅗㅇ -9625
▁ㅌㅗㅇㅎㅏㄱ -9626
ㅅㅓㄴㅇㅣㄹㅂㅗ -9627
▁ㅇㅏㅁㅎㅡㄱㄱㅣ -9628
▁ㄷㅏㄴㅂㅐㄱㅈㅣㄹ -9629
▁pe -9630
ㄴㅕㅁㅇㅣㄹ -9631
ㄱㅡㄴㄷㅜ -9632
▁ㅈㅓㄴㄱㅗ -9633
▁ㅁㅏㅇㅎㅏㄹ -9634
add -9635
▁ㅂㅐㄱㄹㅛㅇ -9636
ㅅㅐㅇㅇㅑㅇ -9637
▁ㄱㅡㄱㅅㅓㅇ -9638
▁ㅁㅏㄱㅎㅕㅆ -9639
▁ㅊㅗㅇㄷㅐ -9640
▁ㄴㅜㄴㅆㅓㅂ -9641
OWN -9642
▁NA -9643
▁ㅈㅐㅂ -9644
▁ㅇㅓㅂㅈㅗㅇ -9645
▁ㅇㅔㄹㄹㅓㄴ -9646
▁ㅇㅏㅁㄱㅣ -9647
ㅁㅜㅅㅇㅣㅍ -9648
ㅎㅕㅇㅇㅜ -9649
▁Magic -9650
ㅃㅏㅆ -9651
▁ㅂㅏㄱㅌㅐ -9652
▁ㅍㅐㄴㅋㅡㄹㄹㅓㅂ -9653
ㅈㅏㅇㅍㅏㄴ -9654
▁RR -9655
▁7000 -9656
▁ㅊㅣㅁㅊㅔ -9657
▁ㅍㅐㄹㄹㅣ -9658
ama -9659
ㄱㅗㄴㅈㅡ -9660
▁ㄴㅗㅇㅂㅜ -9661
▁ㅇㅑㅇㄷㅗ -9662
ㅋㅐㅅ -9663
ㅁㅐㅂ -9664
▁Like -9665
▁ㅌㅐㄹ -9666
ㅌㅏㄹㄱㅣ -9667
▁there -9668
▁ㅇㅗㅁㄴㅣ -9669
ㅅㅓㄴㄱㅓ -9670
▁HOT -9671
▁Alb -9672
ㄲㅐㅇ -9673
▁ㅍㅜㅇㅅㅗㄱ -9674
▁ㅂㅜㄹㅇㅏㄴㄱㅏㅁ -9675
ㅁㅓㅁ -9676
▁ㄷㅗㄹㅂㅘ -9677
▁ㅂㅏㅇㄱㅘㄴ -9678
ㄹㅐㅇㅋㅡㄹㄹㅣㄴ -9679
▁ㅊㅓㅁㄱㅏ -9680
▁ㄷㅏㅇㄱㅕ -9681
▁ㅂㅏㄴㄷㅏㄹ -9682
▁ㅂㅏㅇㅈㅓㅇㅅㅣㄱ -9683
▁ㅂㅜㄹㅎㅓ -9684
▁ㅁㅗㅇㄸㅏㅇ -9685
▁ㅇㅝㄴㅇㅓ -9686
▁Soul -9687
▁ㄱㅘㄴㄱㅘㅇㅈㅣ -9688
▁Happy -9689
ther -9690
ㅌㅏㅇㅅㅡ -9691
▁ㅇㅏㄱㅂㅗ -9692
▁ㅋㅗㄴㄷㅗ -9693
▁RPM -9694
▁ㄱㅡㅂㅎㅏㄴ -9695
▁ㄴㅏㅁㄱㅡㄱ -9696
▁ㄱㅝㄴㅇㅕㄱ -9697
▁ㅁㅗㅁㅈㅣㅂ -9698
ㅅㅜㄹㄱㅘㄴ -9699
ader -9700
▁ㅈㅓㅇㄷㅐ -9701
ㅅㅓㄹㅈㅏ -9702
ㅎㅕㅇㅈㅔ -9703
▁ㅇㅝㄹㅌㅓ -9704
▁ㅈㅓㅇㅇㅠㄴ -9705
▁ㅌㅔㄴㄷㅓ -9706
▁ㅅㅓㅇㄴㅏㅁㅅㅣ -9707
ERF -9708
ㅂㅡㄹㄹㅜ -9709
▁ㅂㅓㅁㅈㅜ -9710
▁ㅇㅡㅁㄹㅏㄴ -9711
ㅂㅗㄲ -9712
▁ㅅㅜㄴㅈㅗ -9713
▁Nor -9714
▁ㅈㅏㄴㅇㅕ -9715
▁ㅅㅓㅇㄷㅗㅇ -9716
▁223 -9717
ㄹㅓㅇㅇㅣ -9718
▁ㅈㅓㅇㅈㅗㅇ -9719
▁ㅅㅑㄹㄹㅗ -9720
▁ㅁㅏㄱㅁㅏㄹ -9721
▁ㅋㅡㄴㅇㅣㄹ -9722
▁ㄷㅗㄹㄹㅣㄴ -9723
▁ㅂㅗㄴㄷㅡ -9724
▁ㅊㅓㄹㅌㅚ -9725
▁ㅁㅏㅇㅅㅓㄹㅇㅣ -9726
▁ㅎㅐㅇㅎㅐ -9727
▁TT -9728
▁ㅇㅣㅁㅇㅛㅇ -9729
▁ㅂㅓㅂㅈㅓㅇㄷㅗㅇ -9730
▁ㅇㅕㄱㅅㅓㄹ -9731
▁his -9732
▁ㅇㅕㅇㅈㅗ -9733
▁ㄹㅏㄴㄷㅏ -9734
▁ㄲㅏㅁㅃㅏㄱ -9735
▁ㅅㅣㄴㅈㅗㅇ -9736
▁ㅇㅔㄱㅅㅔㄹ -9737
▁ㄹㅜㅇ -9738
▁ㅇㅡㄿ -9739
▁ㅅㅏㅇㄱㅗ -9740
▁ㅁㅓㄱㅎㅕ -9741
▁who -9742
▁ㅅㅓㄴㅇㅕㄱ -9743
▁Party -9744
▁ㅅㅏㅂㅇㅣㅂㄱㅗㄱ -9745
▁ㅁㅐㄴㄴㅏㄹ -9746
▁365 -9747
ocal -9748
▁net -9749
ㅈㅗㅇㅇㅣㄹㄱㅘㄴ -9750
▁ㅁㅕㄱ -9751
▁ㅆㅐ -9752
ㅂㅓㄱㅈㅣ -9753
ㄸㅡㄷ -9754
▁watch -9755
▁ㅂㅐㄱㅈㅣ -9756
▁ㅊㅜㅇㄱㅗㅇㄲㅐㅇ -9757
▁got -9758
▁Side -9759
ㄱㅕㄹㅊㅐㄱ -9760
▁ㄷㅏㄹㄹㅣㄴㄷㅏ -9761
ㅎㅑㅇㄱㅗㄱ -9762
▁ㄴㅏㅁㅊㅣㄴ -9763
▁ㅅㅣㄱㅇㅣㄴ -9764
▁GX -9765
ㅇㅣㅂㅂㅜ -9766
▁ㄱㅓㄷㅇㅓ -9767
▁ㅅㅏㄴㅎㅗ -9768
▁ㅇㅛㅇㅇㅘㅇ -9769
▁ㄱㅏㅁㅇㅕㅁㅈㅏ -9770
▁ㄷㅗㅇㅁㅕㅇㅇㅣ -9771
▁ㅇㅡㅁㅅㅣㄱㅈㅓㅁ -9772
▁1957 -9773
▁girl -9774
ㄱㅗㅇㄱㅐ -9775
▁ㅇㅕㄱㄱㅘ -9776
▁Sim -9777
▁ㅅㅓㅇㅎㅢ -9778
▁ㅇㅏㅍㄷㅜㄴ -9779
▁ㅇㅕㄴㅅㅓㅇ -9780
▁ㅈㅏㅇㅎㅏㄱㄱㅡㅁ -9781
ㅅㅣㄴㅈㅓㄴ -9782
▁ㅂㅜㄺㅇㅡㄴㅅㅐㄱ -9783
▁ㅇㅏㅁㅅㅡ -9784
uz -9785
▁ㄱㅗㅇㅈㅜㅇㅈㅓㄴ -9786
OWER -9787
▁Show -9788
▁ㄷㅓㄱㅌㅐㄱ -9789
▁ㅊㅓㅇㅁㅜㄴ -9790
▁ㅈㅏㅇㄷㅏㅁ -9791
▁ㅁㅣㄴㅌㅡ -9792
▁IF -9793
▁ㅇㅕㄴㅇㅏㄴ -9794
ga -9795
▁ㅈㅓㄱㄱㅣ -9796
▁ㅇㅑㅁㅈㅓㄴ -9797
▁ㅅㅓㅇㅂㅓㅁㅈㅚ -9798
▁ㄱㅕㅇㅎㅏㅂ -9799
▁Edition -9800
BOX -9801
▁Open -9802
ㅇㅣㄹㄱㅣ -9803
ONE -9804
▁feel -9805
▁ㅂㅜㄹㄹㅣㄴ -9806
ated -9807
▁ㄱㅕㄱㄴㅏㅂ -9808
▁ㄷㅗㅇㅅㅏㄴ -9809
▁ㄸㅡㄴㄱㅗㅇ -9810
▁ㅈㅣㄴㅎㅐㅇㅎㅏㄹ -9811
▁ㄹㅣㅇㅋㅓㄴ -9812
▁ㅈㅐㅇㅌㅏㄹㅈㅓㄴ -9813
▁370 -9814
▁ㅇㅕㄲㅇㅣㄴ -9815
▁ㄱㅘㄴㅎㅏ -9816
▁ㅈㅓㄴㅂㅗㄱ -9817
rew -9818
▁ㅈㅏㄱㅁㅜㄹ -9819
▁ㅍㅡㄹㄹㅐㅅㅍㅗㅁ -9820
84 -9821
ㅈㅗㄴㄷㅗ -9822
▁Cap -9823
▁ㄴㅡㅇㅇㅛㄱ -9824
▁Way -9825
▁ㅇㅏㄹㅋㅗ -9826
▁ㄱㅡㅂㅅㅏㅇㅅㅡㅇ -9827
▁Und -9828
▁ㅃㅐㄱ -9829
ㄹㅏㅁㅈㅣㄱ -9830
▁ㅁㅏㄴㅇㅏㄱ -9831
▁ㅇㅘㅇㄱㅓㄴ -9832
ASS -9833
ㅂㅏㄱㅎㅕ -9834
▁ㅍㅕㅇㅈㅓㅇ -9835
ley -9836
amu -9837
▁Mark -9838
▁ㅅㅣㄴㄴㅕㄴ -9839
work -9840
▁ㄱㅣㅁㅎㅗ -9841
▁ㅂㅗㄱㄱㅝㄴ -9842
▁ㄴㅏㄴㄷㅔ -9843
▁ㅎㅘㄹㅇㅑㄱㅅㅏㅇ -9844
▁ㅊㅗㅇㅈㅐ -9845
▁ㅌㅡㄱㄱㅝㄴ -9846
hammer -9847
ster -9848
ㄴㅓㅁㄱㅣ -9849
▁ㄴㅏㅁㅈㅣㅅ -9850
▁ㅁㅗㅁㅊㅔ -9851
▁ㅇㅔㅁㅁㅏ -9852
▁ㅈㅣㄻㅇㅓ -9853
ird -9854
▁1947 -9855
▁ㅈㅏㅁㅅㅣㄱ -9856
ㅇㅑㄱㅅㅓ -9857
▁ㅇㅏㄹㅁㅏㅈ -9858
▁Pol -9859
ㅇㅝㄴㅈㅣ -9860
▁Angel -9861
▁ㅇㅣㄱㅁㅕㅇ -9862
▁ㅈㅣㄹㅅㅜ -9863
▁ㅅㅏㅇㅇㅣㅁ -9864
▁ㅈㅓㅇㄱㅕㅇ -9865
ㅅㅗㅅ -9866
▁ㄲㅗㄱㄷㅐ -9867
▁ㅇㅗㅂㅅㅡ -9868
▁ㅊㅜㄹㅇㅕㄴㅈㅏ -9869
ㄷㅗㅇㄷㅐ -9870
▁ㅊㅓㄴㅇㅕㄴㄱㅏ -9871
ㅂㅔㄹㅌㅡ -9872
▁ㅅㅐㅇㅍㅗ -9873
▁SKE -9874
ㅅㅂㅣㅊ -9875
▁ㅈㅓㄴㄹㅕㅇ -9876
ㅈㅣㄴㅇㅜ -9877
▁ㄷㅗㅇㅇㅠ -9878
▁ㅎㅏㅇㅇㅜ -9879
▁ㄱㅡㄴㅎㅘㅇ -9880
▁ㅈㅜㅇㅊㅜ -9881
▁FBI -9882
▁ㅍㅕㄹㅊㅣㄴ -9883
▁Val -9884
▁ㄲㅏㄹㄹㅣ -9885
▁ㄱㅕㅇㅅㅜㄴㅇㅑㅇㅎㅏㅁ -9886
▁ㅅㅏㄴㅌㅗ -9887
▁Na -9888
ㅂㅏㅇㅂㅣ -9889
▁ㅎㅓㄴㄴㅏㅂ -9890
▁ㅂㅜㄴㄱㅘ -9891
▁ㅎㅐㅇㅅㅔ -9892
▁ㅈㅓㄹㅇㅑㄱ -9893
▁ㅂㅏㅇㅇㅕㅇㅇㅣㄹ -9894
▁Comp -9895
▁micro -9896
▁ㅌㅗㅇㅇㅕㄱ -9897
▁ㅁㅕㅇㅇㅡㄴ -9898
▁ㅂㅗㄱㄱㅏㄱ -9899
▁ㄷㅐㄹㄹㅓ -9900
IVE -9901
▁950 -9902
▁ㅇㅣㅂㅂㅓㅂ -9903
▁ㅇㅕㄱㅈㅓㄴㅈㅐ -9904
▁ㅅㅕㅅ -9905
▁234 -9906
▁ㅂㅗㅁㅂㅓ -9907
▁ㅅㅓㄴㅂㅕㄹ -9908
▁ㄱㅡㅁㅅㅓ -9909
▁ㄱㅗㅇㅅㅣ -9910
▁ㅎㅘㄹㄱㅣ -9911
▁ㅈㅓㅁㅍㅗ -9912
▁ㄷㅚㄹㅅㅜ -9913
▁ㅅㅏㅇㄱㅕㅇ -9914
▁ㅁㅜㄹㅇㅡㅁ -9915
▁Stage -9916
▁ㅊㅗㅅㅂㅜㄹ -9917
▁ㅂㅗㄱㅂㅜ -9918
ㅌㅡㄹㄹㅐㄴㅌㅏ -9919
▁ㅇㅓㅍㄷㅡ -9920
▁Fly -9921
▁ㄱㅏㄴㅅㅏ -9922
▁ㅇㅏㄹㅁㅗㅁ -9923
▁ㅈㅓㄴㄴㅕㅁ -9924
▁ㅅㅏㅇㅅㅡㅇㅅㅔ -9925
▁life -9926
▁ㅂㅜㄹㅂㅜㄴ -9927
▁ㅇㅑㅇㅍㅕㅇ -9928
▁ㄱㅣㄹㄹㅓ -9929
▁249 -9930
74 -9931
▁ㅂㅏㄱㅂㅕㅇㅎㅗ -9932
▁Fall -9933
▁ㅇㅗㄴㅈㅓㄴ -9934
▁090 -9935
▁ㅂㅓㄴㅇㅕㅇ -9936
▁ㅈㅓㄴㅇㅕㅁㅂㅕㅇ -9937
▁Legend -9938
▁First -9939
▁ㄱㅓㅁㄷㅗ -9940
▁ㄷㅏㄴㅌㅏ -9941
ㄹㅣㅅㅅㅗㄱ -9942
▁ㅅㅣㅂㅅㅏㅇ -9943
▁219 -9944
▁ㅁㅣㄹㄹㅣㄴ -9945
▁ㅈㅜㅇㄱㅗㅇㅇㅓㅂ -9946
▁245 -9947
▁ㄱㅕㅁㅂㅣ -9948
▁ㅅㅡㅇㅅㅡㅇ -9949
▁ㅁㅏㄱㄹㅗㄴ -9950
▁ㅈㅜㅇㄹㅗㄴ -9951
stem -9952
▁ㅅㅣㄴㅁㅣㄴ -9953
ㅇㅜㄴㅌㅣㄴ -9954
ura -9955
▁ㄱㅓㅁㄱㅣ -9956
ㅅㅓㄹㅌㅡ -9957
▁ㄹㅏㅂㅅㅣ -9958
▁ㅅㅗㄱㅇㅕ -9959
▁ㅂㅜㄹㅂㅜㄴㅁㅕㅇ -9960
▁ㅇㅣㅁㅅㅏㅇ -9961
▁ㅈㅓㄴㄱㅕㅇ -9962
ㅁㅍㅣㅇ -9963
▁ㄱㅏㅂㅈㅜ -9964
▁ㅂㅣㄹㅎㅔㄹ -9965
▁ㅎㅙ -9966
▁ㅈㅣㄴㅂㅓㅁ -9967
▁Free -9968
▁Perf -9969
ㄱㅓㄴㅅㅓㄹ -9970
▁ㅈㅜㅇㅅㅜㄴㅇㅑㅇㅎㅏㅁ -9971
ㄹㅗㄹㄹㅣㅇ -9972
▁ㄱㅡㅂㅅㅡㅂ -9973
tm -9974
▁ㅃㅗㅂㅎㅣㄴ -9975
▁ㅍㅏㄴㄱㅘ -9976
ㄹㅡㄴㅅㅐㄱ -9977
▁ㄱㅡㅂㅅㅗㄱ -9978
▁ㄷㅓㅇㄷㅏㄹ -9979
▁ㄱㅕㅇㅈㅓㄴㅊㅓㄹ -9980
ㅅㅡㄹㅉㅓㄱ -9981
▁ㅅㅗㄴㅊㅐㄱ -9982
▁Break -9983
▁ㅁㅣㄹㄹㅓ -9984
▁ㄱㅓㅂㅈㅐㅇㅇㅣ -9985
▁540 -9986
▁ㄲㅡㅌㄴㅐㄹ -9987
▁Er -9988
udio -9989
▁ㅎㅏㄴㄷㅡㄹ -9990
▁ㅈㅓㅂㅎㅏㄴ -9991
▁ㅈㅜㄴㅈㅏㅇ -9992
ㅁㅏㄴㄷㅏ -9993
▁ㅈㅣㄹㅈㅣㄹ -9994
▁ㅊㅏㅁㅅㅜ -9995
▁ㅇㅓㄴㄹㅗㄴㅅㅏ -9996
▁ㅋㅗㅇㄷㅜ -9997
ㅁㅣㄴㅅㅜ -9998
ㅇㅣㄴㅅㅜ -9999
▁Class -10000
▁ㄴㅡㄹㄹㅣㄹ -10001
▁top -10002
▁How -10003
▁ㄹㅣㄴㄷㅏ -10004
▁ㅁㅕㅇㅂㅐㄱㅎㅣ -10005
▁Final -10006
▁ㅍㅕㅇㅈㅣ -10007
▁ㅇㅜㄴㅇㅣㅁ -10008
▁ㄱㅡㅅ -10009
▁ㅅㅗㅇㅂㅕㅇㄱㅜ -10010
ㅅㅓㄱㄱㅣ -10011
▁ㄱㅣㅁㅅㅣㄴ -10012
err -10013
▁ㅅㅓㄴㅅㅏㅇ -10014
▁ㅁㅔㄴㅌㅗ -10015
▁ㅇㅕㄹㄹㅕㄹ -10016
▁ㅇㅏㄱㅅㅜ -10017
▁ㅆㅏㅇㅇㅛㅇ -10018
▁ㅂㅏㄴㅎㅏ -10019
ling -10020
▁GDP -10021
▁ㅎㅏㄴㅅㅓㅇ -10022
▁If -10023
▁440 -10024
ㅋㅗㄹㄹㅗ -10025
▁ㅂㅓㅂㅈㅗ -10026
TH -10027
yes -10028
ㅇㅑㅇㄱㅜㄴ -10029
▁ㅈㅓㅇㅎㅏㄴㄷㅏ -10030
ㄸㅡㅁ -10031
▁Never -10032
▁ㅅㅣㄴㄱㅕㄱ -10033
ㅅㅋㅗ -10034
▁City -10035
▁ㅁㅏㅇㄱㅏㄱ -10036
▁ㅇㅔㅁㅂㅡㄹㄹㅓㅁ -10037
▁ㄸㅜㅇㄸㅜㅇ -10038
▁ㅊㅏㅇㅊㅜㄹ -10039
ㄱㅕㄹㅅㅏ -10040
▁ㅇㅑㅇㅈㅣ -10041
▁ㅈㅏㄴㅈㅐ -10042
▁Spring -10043
▁ㅂㅏㄱㅎㅣ -10044
arius -10045
▁ㅂㅣㄴㅅㅔㄴㅌㅡ -10046
ㅇㅑㄴㅅㅐㄱ -10047
ux -10048
▁ㄱㅣㅁㅈㅓㅇㅇㅣㄹ -10049
▁ㅈㅜㅇㅍㅏ -10050
▁ㅂㅓㄴㅂㅓㄴ -10051
▁Cor -10052
▁ㅂㅔㄴㅊㅡ -10053
▁ㄱㅏㄷㅎㅣ -10054
▁ㄱㅓㅌㅁㅗ -10055
▁Down -10056
ㅇㅏㄴㅌㅏ -10057
▁ㅇㅔㄹㄹㅏ -10058
▁ㄷㅗㅇㄱㅡㅂㅅㅐㅇ -10059
AGE -10060
▁MAN -10061
▁224 -10062
ㄴㅑㅇㅌㅓ -10063
▁ㄱㅣㅁㅈㅔ -10064
ㄴㅏㄹㅅㅜ -10065
ㅈㅡㄹㄹㅣ -10066
▁ㅂㅏㄹㅈㅏ -10067
ause -10068
▁ㅍㅜㅁㅈㅗㅇ -10069
▁1951 -10070
▁ㅂㅜㄴㅎㅘ -10071
▁Mon -10072
▁AW -10073
▁ㅇㅣㄹㄱㅐ -10074
▁ㅎㅏㄴㄱㅜㄱㄱㅜㄴ -10075
▁ㄸㅣㅇ -10076
ㅈㅓㄴㅅㅓㄴ -10077
▁ㅅㅣㄴㅌㅐ -10078
▁ㅇㅏㄴㅈㅔㄹㄹㅣ -10079
▁ㄱㅘㅇㅍㅗㄱ -10080
▁ㄴㅏㄴㅈㅏㅇㅍㅏㄴ -10081
▁PRO -10082
▁ㅇㅐㄱㅅㅔㄹ -10083
▁ㅅㅓㄴㅎㅜ -10084
▁ㅍㅗㄹㄹㅏ -10085
▁ㅅㅏㅅㅍㅗ -10086
▁ㅅㅏㄴㅈㅣ -10087
▁ㅅㅓㄷ -10088
▁ㅋㅡㅁ -10089
tain -10090
▁sk -10091
▁ㅍㅕㄴㄷㅗ -10092
ㅇㅕㅇㅎㅑㅇ -10093
▁KCC -10094
ㅇㅜㄹㄹㅕ -10095
▁ㅈㅣㄱㅈㅣㄴ -10096
▁cont -10097
▁GOT -10098
▁ㅎㅑㅇㅎㅐㅆ -10099
▁ㅎㅏㄴㅈㅜㅇ -10100
▁1914 -10101
▁ㅌㅏㄴㄷㅜ -10102
REME -10103
▁ㅅㅓㅇㅍㅜㅁ -10104
ㅈㅓㄴㄱㅘㅇㅇㅕㄱㅅㅣ -10105
▁ㅇㅕㄴㅎㅗ -10106
ㅁㅏㅇㅊㅣㄹ -10107
▁ㅎㅓㅁㅎㅏㄴ -10108
▁ㄲㅡㄶㅇㅓ -10109
▁BP -10110
▁ㅅㅡㅇㄱㅖ -10111
ㅁㅜㅇ -10112
▁ㅁㅗㄹㄹㅕㅆ -10113
▁ㅈㅓㅇㅁㅜ -10114
▁ㅂㅏㄴㄴㅏㅂ -10115
▁ㅅㅓㅇㄹㅕㅇ -10116
▁ㄲㅡㅌㅇㅓㅄㅇㅣ -10117
▁ㅇㅔㅁㅂㅡㄹㄹㅔㅁ -10118
▁9000 -10119
▁ㅂㅜㄹㅂㅏㄹ -10120
IME -10121
▁ㅇㅕㅁㄷㅗㅇ -10122
▁ㅅㅜㄱㅈㅣ -10123
▁226 -10124
▁ㅊㅣㄴㅇㅏ -10125
▁ㅍㅏㄴㅂㅗㄴ -10126
▁ㅎㅐㅇㄱㅜㄴ -10127
▁ㅉㅏㅇㄱㅜ -10128
▁ㄱㅓㄴㅊㅜㄱㅁㅜㄹ -10129
▁Sn -10130
raft -10131
▁ㅊㅓㅇㅊㅟ -10132
▁ㅇㅣㄴㅅㅡㅇ -10133
▁ㄲㅏㄴㄷㅏ -10134
▁ㅎㅕㄴㅁㅜ -10135
ㄴㅡㅁ -10136
▁ㅂㅐㄹㅂㅡ -10137
▁ㅇㅏㄹㅌㅡ -10138
▁ㄱㅕㄹㄷㅏㄴ -10139
▁ㅅㅜㄴㅎㅏㅇ -10140
▁Swe -10141
▁ㅁㅜㄴㅈㅣ -10142
▁ㅈㅟㄴ -10143
erry -10144
▁end -10145
▁ㄱㅣㄹㄹㅐ -10146
▁ㅇㅣㅂㄷㅏㅇ -10147
▁Mem -10148
ㅅㅓㅇㅁㅣㄴ -10149
▁ㅅㅣㄴㅂㅗㅇ -10150
▁ㅇㅔㄹㄹㅣㄱ -10151
▁ㄱㅏㅇㅎㅏㅁ -10152
iny -10153
▁"' -10154
▁ㄱㅗㄱㅅㅏ -10155
▁ㅁㅏㄹㅅㅏㄹ -10156
▁ㅇㅏㄱㅈㅏㅇ -10157
▁ㄱㅗㅇㅊㅐ -10158
▁ㅁㅣㄹㅈㅓㅂ -10159
ㅇㅑㅎ -10160
▁ㅈㅓㅇㅅㅣ -10161
ㅇㅗㄹㄹㅕㅆ -10162
▁ㅃㅓㄴㅎㅏ -10163
ㅍㅕㅇㄱㅠㄴ -10164
▁ㄲㅜㄱ -10165
▁make -10166
▁ㅋㅏㄹㄷㅔ -10167
▁ㅇㅏㄹㅂㅓ -10168
▁ㅇㅏㅂㅅㅜ -10169
ㅅㅡㅇㅎㅗ -10170
▁ㅁㅕㅇㅇㅘㅇ -10171
▁ㅎㅜㄴㄹㅕㄴㅅㅗ -10172
ㅇㅘㄴㅅㅓㅇ -10173
▁ㅅㅑㄹㄹㅗㅅ -10174
▁ㅂㅕㄴㅅㅗㄱㄱㅣ -10175
▁ㄱㅘㅇㄷㅗㅇ -10176
ㄱㅘㅇㅅㅜ -10177
▁ㅁㅗㅁㅆㅏ -10178
▁ㅅㅡㄹㄹㅣㅂ -10179
▁ㅍㅡㄴ -10180
▁ㅅㅜㅁㄱㅕㄹ -10181
83 -10182
ㅈㅗㅇㅇㅝㄴ -10183
▁ㅃㅡ -10184
▁ㅎㅏㅂㄱㅡㅁ -10185
▁ㅇㅣㄱㅎㅕ -10186
▁011 -10187
▁ㄱㅓㄹㅊㅣ -10188
▁ㅂㅣㅇㄱㅡㄹ -10189
▁ㅍㅕㅇㅈㅜㄴ -10190
▁1937 -10191
▁APC -10192
▁ㅋㅏㄹㅈㅣㄹ -10193
▁ㄱㅓㅁㅅㅐㄱㅇㅓ -10194
▁ㄷㅏㅇㅎㅐㅆㅇㅡ -10195
de -10196
▁ㄲㅡㄶㅇㅣ -10197
▁ㅍㅔㄹㅌㅡ -10198
▁ㅎㅓㅁㅇㅏㄱ -10199
▁ㅅㅐㅇㄱㅖ -10200
▁ㅂㅏㅇㅁㅏㅇ -10201
▁ㅂㅏㄴㅈㅜㄱ -10202
ival -10203
▁ㅇㅑㅂ -10204
ㅃㅓㄴ -10205
▁play -10206
ㅋㅡㄹㄹㅏ -10207
▁ㄷㅡㄹㅋㅕ -10208
▁RX -10209
ㄷㅗㅇㅈㅗ -10210
▁ㅊㅏㄱㅅㅜ -10211
ㅅㅏㄹㄹㅔㅁ -10212
▁ㄹㅣㄴㅇㅣ -10213
▁ㅁㅏㄴㅇㅜ -10214
ㄱㅓㄹㅇㅡㅁ -10215
▁ㅋㅐㅁㅍㅣㅇ -10216
▁ㅂㅏㄴㄹㅕ -10217
ㅅㅏㅇㅇㅣㄹ -10218
▁ㄱㅓㄴㅇㅢ -10219
▁ㅂㅏㄹㅎㅐ -10220
▁ㅎㅣㅁㄴㅐ -10221
▁ㅊㅏㄱㅊㅟ -10222
▁ㄱㅏㅇㄹㅕㅇ -10223
▁ㄱㅏㄴㅈㅓㄹ -10224
▁Christ -10225
▁ㅇㅑㅇㅁㅏㄹ -10226
▁ㅈㅏㄴㅅㅗ -10227
▁PT -10228
▁ㅌㅗㅂㄴㅣ -10229
ㅅㅡㅇㅎㅜㄴ -10230
ATE -10231
▁part -10232
▁ㅇㅣㄹㅅㅐㅇ -10233
▁ㄱㅣㅁㅇㅡㄴ -10234
▁375 -10235
▁ㄴㅗㅎㅇㅣㄴ -10236
▁ㅆㅏㅇㄱㅓㅁ -10237
▁ㅍㅏㄴㄷㅏㄴㄹㅕㄱ -10238
RO -10239
▁ㄴㅓㅁㄴㅏ -10240
▁ㅁㅕㄴㄷㅗ -10241
ㄱㅏㄱㄱㅏㄱ -10242
▁ㅅㅐㅇㅂㅏㅇㅅㅗㅇ -10243
▁ㅊㅜㄴㅊㅜ -10244
▁ㅂㅏㄱㅎㅏㄴ -10245
ㅁㅓㄴㄷㅡ -10246
22 -10247
▁aqu -10248
ㅎㅕㄴㅁㅣㄴ -10249
▁ㅇㅝㄴㅅㅏㅇ -10250
que -10251
▁ㅍㅕㄴㅇㅐ -10252
▁ㅎㅠㅇㄱㅣ -10253
▁233 -10254
▁ㅅㅓㅇㅅㅣ -10255
▁ㄱㅗㄹㅉㅏ -10256
▁ㅊㅏㄴㅅㅏ -10257
ㅍㅏㅅ -10258
ㅍㅏㄹㄹㅗ -10259
▁ㅋㅓㄹㄹㅣㅇ -10260
▁Hol -10261
▁Come -10262
▁410 -10263
ㅆㅓㄹㅌㅡ -10264
ㅇㅣㅁㅅㅜ -10265
ㄴㅓㄴㅌㅡ -10266
▁ㅅㅓㅇㅇㅝㄴ -10267
▁EXTREME -10268
ONG -10269
▁again -10270
▁ㅊㅜㅇㅇㅝㄴ -10271
▁ㄷㅗㅇㄱㅡ -10272
▁ㅇㅠㄴㅈㅣ -10273
▁ㅇㅏㄱㅇㅕㅇㅎㅑㅇ -10274
ㅂㅕㅇㄱㅣ -10275
▁ㅂㅓㄹㅇㅣㄹ -10276
▁ㅇㅏㄱㅍㅕㅇ -10277
▁ㄱㅗㄷㅈㅏㅇ -10278
▁ㅎㅏㄴㅂㅗㄱ -10279
▁ㅂㅜㄹㄱㅓ -10280
▁ㄱㅣㅁㅎㅏㄴ -10281
▁Club -10282
lo -10283
▁KE -10284
idd -10285
▁ㄷㅗㄱㄷㅗ -10286
▁ㅅㅏㄴㄷㅡ -10287
▁ㅍㅣㄹㅈㅓㄱ -10288
ino -10289
▁ㅂㅜㄱㅅㅓ -10290
▁ㄲㅏㄱ -10291
erg -10292
▁ㄱㅡㅂㅇㅕ -10293
ㅊㅏㅇㅁㅣㄴ -10294
ㅈㅓㄴㅎㅏㅁ -10295
▁ㅅㅓㄹㅈㅣㄴ -10296
▁ㅈㅣㄴㅈㅓㄴ -10297
ㄹㅏㅎ -10298
▁ㅅㅣㄱㅂㅕㄹ -10299
▁ㅅㅣㄹㅌㅏㄴ -10300
▁ㅈㅓㄴㅍㅐ -10301
▁ㅍㅕㄴㅈㅣㅂㅈㅏ -10302
▁MIX -10303
▁ㅂㅗㄴㄱㅓ -10304
▁hp -10305
▁ㅅㅜㄴㄹㅖ -10306
▁ㅁㅕㅇㅎㅘㄱㅎㅣ -10307
▁ㅇㅝㄴㅅㅓㅇ -10308
ㅁㅐㄱㄷㅏ -10309
▁ㄷㅜㄴㄱㅣ -10310
▁ㅅㅡㅁ -10311
▁never -10312
▁Cry -10313
ㅈㅓㄴㄷㅓ -10314
▁ㅎㅘㅇㅅㅗ -10315
▁ㅈㅏㄹㅅㅐㅇㄱㅣㄴ -10316
▁ㄹㅣㄴㅊㅣ -10317
▁ㅈㅓㄱㄱㅘ -10318
ya -10319
▁ㅎㅏㅇㅈㅐㅇ -10320
▁ㅈㅣㄴㄱㅣ -10321
▁ㅂㅐㄱㅂㅕㅇ -10322
▁ㄱㅣㅁㅈㅗㅇㄱㅜㄱ -10323
ㅈㅣㅂㄴㅣ -10324
▁ㅍㅗㄴㅌㅡ -10325
▁ㅂㅜㅌㅇㅣㄴㄷㅏ -10326
ㄱㅘㄴㄱㅖ -10327
▁ㅅㅓㅇㅊㅟ -10328
ㅁㅜㄹㅅㅓㄴ -10329
ㅅㅏㅇㄱㅡㅁ -10330
▁ㅈㅏㅁㄷㅡㄴ -10331
▁ㅈㅓㄹㄱㅏㅁ -10332
▁ㅇㅏㄴㅈㅏㅇ -10333
aker -10334
▁SMG -10335
▁ㅌㅓㄹㄹㅕㅆ -10336
MC -10337
▁ㅅㅓㅇㅅㅗ -10338
ㅈㅓㅇㅁㅣㄴ -10339
▁ㅇㅣㄴㅇㅝㄴㅅㅜ -10340
▁xx -10341
▁WHIP -10342
▁heart -10343
▁ㅇㅡㅁㄹㅕㄱ -10344
▁ㄹㅗㄴㄱㅏ -10345
▁ㅇㅕㄴㅎㅏ -10346
ㅋㅡㄹㄹㅗㄴ -10347
▁ㅈㅡㅇㅍㅛ -10348
▁ㅌㅡㅁㅅㅐ -10349
▁CIA -10350
▁ㄸㅜㅀㄹㅕ -10351
▁ㅂㅏㅅㅈㅜㄹ -10352
▁ㅇㅣㅁㅈㅐ -10353
▁KA -10354
ㅇㅛㅇㄹㅑㅇ -10355
▁ㄷㅗㅇㅌㅏㄴ -10356
▁has -10357
▁ㅅㅣㄴㄷㅡ -10358
ㅅㅏㄴㅁㅕㄴ -10359
BY -10360
▁ㅎㅘㄴㅇㅝㄴ -10361
▁ㅈㅏㅁㄱㅕ -10362
▁ㄱㅘㄴㅇㅛㅇ -10363
▁ㅂㅏㅁㅈㅜㅇ -10364
ㄷㅡㄴㅇㅛ -10365
▁ㅈㅜㅇㅅㅏㄴ -10366
ㅂㅕㅇㅎㅓㄴ -10367
▁ㄷㅗㅇㄱㅕㄹ -10368
▁ㅅㅓㄹㅁㅜㄴ -10369
▁ㅅㅣㄹㄱㅏㅁ -10370
▁ㅅㅣㄴㅂㅣㅇ -10371
▁ㄱㅕㄱㅂㅕㄴ -10372
▁ㅇㅗㄹㄱㅏ -10373
▁ㅇㅗㄴㄱㅓㄴ -10374
▁ㄹㅣㄹㄹㅔ -10375
▁ㅇㅠㄴㅈㅗㅇㅅㅣㄴ -10376
▁di -10377
▁ㅇㅡㄴㅎㅗㄴ -10378
HN -10379
cy -10380
▁ㅇㅐㄱㅅㅡ -10381
▁ㅅㅔㄴㄷㅏ -10382
ㅇㅕㄹㅊㅏ -10383
▁ㄴㅜㄴㅂㅗ -10384
▁ㅊㅐㅇㄱㅕㅆ -10385
▁ㅉㅣㄱㅎㅣ -10386
▁ㅈㅓㄴㅎㅏㄴ -10387
▁bb -10388
▁ㅁㅗㄹㅇㅣㅂ -10389
▁ㅃㅐㅇ -10390
▁only -10391
ㅇㅛㅇㅁㅜㄹ -10392
▁ㅍㅕㅇㅇㅣ -10393
NG -10394
▁Will -10395
▁ㅅㅜㄴㅊㅏ -10396
ㅇㅣㄹㅂㅗㄴ -10397
▁ㄱㅣㅅㄷㅡㄴ -10398
▁ㅁㅣㄴㅅㅣㅁ -10399
▁Ah -10400
▁PH -10401
▁ㄴㅏㅂㅍㅜㅁ -10402
anger -10403
ㅅㅓㅇㄱㅗㅇ -10404
▁NORM -10405
▁ㄱㅏㄴㅊㅓㅂ -10406
▁ㄸㅡㄴㄱㅡㅁㅇㅓㅄ -10407
▁ㄷㅐㄹ -10408
▁\] -10409
▁ㅁㅔㅇ -10410
▁1919 -10411
▁ㄱㅕㅇㄷㅐ -10412
▁ㅂㅗㄲㅇㅡㅁ -10413
▁ㅊㅜㅇㅁㅜ -10414
▁ㅇㅗㄹㅇㅣㄴ -10415
▁Girls -10416
ㅈㅓㄴㅈㅐㅇ -10417
▁ㅇㅛㅇㅎㅗ -10418
▁ㅃㅓㄴㅃㅓㄴ -10419
OUR -10420
▁ㅋㅓㄴㅍㅓ -10421
▁ㅈㅓㄴㅈㅐㅇㅌㅓ -10422
▁ㄱㅏㄱㅂㅕㄹ -10423
▁MY -10424
▁ㅈㅓㄴㅎㅘㅇ -10425
▁XC -10426
ORA -10427
▁ㅇㅕㄹㄱㅘㅇ -10428
▁ㄱㅣㅁㅈㅗㅇㅁㅣㄴ -10429
▁ㅅㅐㅇㄱㅕㅆㅇㅡ -10430
ㅅㅓㄴㅅㅣ -10431
▁ㅁㅓㅁㅊㅜㄹ -10432
86 -10433
ument -10434
onder -10435
▁ㅇㅡㅁㅇㅏㄱㄱㅏ -10436
ㅈㅜㄴㄱㅣ -10437
▁NORMAL -10438
▁here -10439
▁ㅊㅓㅁㅂㅜ -10440
▁ㅋㅓㄴㅂㅓ -10441
▁ㅎㅏㄹㄱㅔ -10442
ㅆㅜㄱ -10443
▁ㅇㅕㅇㅅㅏ -10444
▁ㅇㅝㄹㄷㅡㅇㅎㅣ -10445
▁RB -10446
▁ㅅㅓㅇㄱㅗㅇㅎㅚ -10447
▁ㅃㅗㅁㄴㅐ -10448
▁ㅉㅏㄱㅌㅜㅇ -10449
▁ㅊㅓㄴㅈㅣㄴ -10450
▁ㄴㅏㄴㅈㅐㅇㅇㅣ -10451
▁ㅇㅐㄱㅅㅜ -10452
▁ㅈㅓㅇㄱㅡㄴ -10453
▁Sol -10454
▁Great -10455
▁ㅇㅕㄴㅁㅏ -10456
▁ㅎㅘㄹㄹㅕㄱ -10457
▁Best -10458
ㅂㅜㄹㄹㅣ -10459
▁ㅂㅏㄱㅊㅏ -10460
ball -10461
▁ㅈㅏㅇㄷㅐ -10462
▁ㅇㅕㄴㅈㅏㅇㅈㅓㄴ -10463
▁ㅁㅜㄴㄱㅘ -10464
▁ㅎㅏㄴㅍㅏㄴ -10465
▁MUS -10466
▁EXO -10467
▁SEED -10468
▁ㅂㅡㄹㄹㅏㅇ -10469
▁ㅇㅣㅂㅅㅏㅇ -10470
▁ㅈㅓㅇㅎㅐㅆ -10471
▁ㄴㅡㅇㅎㅏ -10472
▁ㅂㅐㄱㅅㅡ -10473
▁ㅇㅕㄴㅎㅘ -10474
ㅅㅐㅇㅁㅜㄹ -10475
▁ㄱㅜㄹㄹㅣㅁ -10476
▁ㅇㅠㄴㅅㅓㅇ -10477
▁ㅈㅓㄴㅇㅟ -10478
ㅅㅣㄱㅊㅜㄱㄱㅜ -10479
ㅈㅓㄱㅈㅓㄹ -10480
osh -10481
▁ㅈㅡㅇㄱㅏㅇ -10482
▁ㅇㅏㄱㅇㅕㄴ -10483
▁ㄷㅓㅍㅊㅣ -10484
▁ㅂㅜㄱㄷㅗㅇ -10485
▁ㅎㅏㄴㄴㅜㄴ -10486
▁ㅇㅓㄱㅇㅑㅇ -10487
ㅋㅗㄹㅍㅣ -10488
▁ㅊㅓㄹㅎㅕㄹ -10489
▁217 -10490
▁Net -10491
▁ㄴㅏㄱㅅㅓ -10492
▁ㅎㅘㄴㅅㅏㄴ -10493
UD -10494
▁Ind -10495
▁ㅇㅕㅅㅂㅗ -10496
▁ㄱㅠㄹ -10497
▁OM -10498
▁Dest -10499
ㅇㅝㄹㄷㅡ -10500
▁ㅇㅓㅂㅈㅏ -10501
▁ㄱㅣㅂ -10502
▁Little -10503
▁ㄴㅏㅊㅅㅓㄴ -10504
▁ㅃㅗㅂㅎㅕㅆ -10505
▁1911 -10506
▁ㅁㅜㄹㄹㅠ -10507
▁ㅇㅑㄱㅅㅜ -10508
▁ㅍㅡㄹㄹㅐㄴㅌㅡ -10509
ㅈㅓㅇㄹㅣ -10510
▁ㅅㅏㄴㅈㅓㄴ -10511
light -10512
ㅈㅜㄴㅇㅓ -10513
▁ㅁㅐㄱㅋㅡ -10514
▁str -10515
▁ㄴㅏㅇㅁㅏㄴ -10516
▁ㅂㅏㄹㄹㅕㅇ -10517
▁red -10518
▁gu -10519
▁ㄱㅓㅁㄱㅓ -10520
▁ㅈㅓㄴㄱㅗㄱ -10521
ㅈㅏㅇㅊㅣ -10522
ㅈㅓㄴㄹㅕㄱ -10523
ㅎㅣㅁ -10524
▁ㅇㅡㄴㅂㅣㅊ -10525
▁ㅇㅣㅂㅅㅗ -10526
▁ㅎㅗㅇㅅㅜ -10527
▁'~ -10528
▁ㅈㅓㅇㅅㅓㄴ -10529
▁KN -10530
▁ㄸㅏㄹㄹㅣ -10531
ㄴㅓㄹㅅㅡ -10532
▁ㅅㅐㅇㄹㅣ -10533
ㅈㅓㄱㅈㅣ -10534
▁ㅌㅗㅇㅊㅏㄹ -10535
ㅅㅜㅍ -10536
ㅈㅓㅇㅇㅜ -10537
▁ㄷㅗㄱㄷㅏㄴ -10538
ㅇㅡㅁㅅㅗㄱ -10539
▁Take -10540
▁ㅇㅝㄴㅅㅏ -10541
▁228 -10542
▁ㄴㅐㅇㅎㅗㄱ -10543
▁ㄲㅓㄹㄲㅡ -10544
▁ㅍㅣㄱㅊㅓ -10545
▁ㅂㅕㄴㅁㅗ -10546
HC -10547
▁ㅋㅔㄴㅅㅣ -10548
▁ㅇㅐㅇㄱㅡㄹ -10549
▁let -10550
▁ㅁㅐㅇㅅㅜ -10551
ANCED -10552
▁BMW -10553
▁ad -10554
▁Mix -10555
▁ㄱㅗㄹㅅㅜ -10556
▁FO -10557
ㄱㅏㄴㅇㅣ -10558
ㅅㅓㄴㅅㅗ -10559
▁ㅅㅡㄹㅍㅡ -10560
▁ㄴㅡㄴㅋㅓ -10561
▁Single -10562
eek -10563
▁GPS -10564
▁010 -10565
ASY -10566
▁Sam -10567
▁Inv -10568
ㅅㅓㅇㅇㅓ -10569
▁ㅈㅓㅇㅈㅜ -10570
▁NFL -10571
▁ㅇㅑㅇㅇㅢ -10572
ㅋㅔㅅㄷㅏㄴ -10573
▁ㅅㅏㅇㅂㅏㄴ -10574
▁ㅇㅣㄱㅅㅏㄴ -10575
ㅂㅡㄹㄹㅔ -10576
▁ㅎㅘㄴㅈㅏㅇ -10577
▁ㅇㅕㅇㄱㅜㄱㅇㅣㄴ -10578
▁ㅇㅓㅄㅇㅡㅁ -10579
▁Ult -10580
▁ㅎㅕㅇㅂㅓㄹ -10581
▁ㅅㅡㅇㄴㅏㄱ -10582
▁ㅈㅓㅇㄱㅜㄱ -10583
▁ㅊㅜㄹㅇㅣㅂㄱㅜ -10584
▁CGV -10585
▁ㅎㅓㄴㅌㅡ -10586
▁301 -10587
▁Aut -10588
▁ㄱㅘㅇㄹㅏㄴ -10589
▁ㅌㅡㄱㅅㅐㄱ -10590
▁ㅂㅐㄱㄷㅜ -10591
▁ㅈㅒ -10592
▁ㅅㅡㅇㅎㅏ -10593
IO -10594
▁ㅂㅣㄹㅎㅔㄹㄹㅡㅁ -10595
ena -10596
94 -10597
ㄲㅗㄱ -10598
▁ㅁㅏㅌㄱㅕㅆ -10599
lex -10600
▁ㅅㅣㄴㅊㅓㄴ -10601
▁ㅂㅏㅇㅌㅏㄴㅅㅗ -10602
▁ㅂㅏㄴㅈㅜ -10603
▁ㅈㅣㅂㅇㅛ -10604
▁YG -10605
ㄴㅏㅈ -10606
▁ㅁㅕㅇㅈㅣ -10607
▁ㅁㅣㄹㄱㅏ -10608
uture -10609
▁ㄱㅒ -10610
⊸⊸⊸ -10611
ㅋㅓㄹㅌㅡ -10612
ㅈㅏㅇㄱㅏㄴ -10613
▁ㄷㅏㅁㅇㅝㄴ -10614
▁252 -10615
▁ㄲㅓㅁ -10616
▁ㅊㅗㄱㅈㅣㄴ -10617
▁EPL -10618
▁ㅊㅗㄱㄱㅜ -10619
▁ㅍㅗㄱㅇㅓㄴ -10620
▁aquarius -10621
▁ㅅㅗㄱㅇㅣㅁㅅㅜ -10622
▁ㅌㅗㅇㅅㅗㄹㄹㅕㄱ -10623
▁Real -10624
▁ㅇㅓㄹㄹㅜㄱ -10625
ㄱㅡㅁㄱㅏ -10626
▁ㄱㅗㅇㅈㅣㄱ -10627
ㅅㅣㄱㅈㅏ -10628
▁ㄴㅗㄱㅅㅡ -10629
▁ㅎㅏㄴㄱㅜㄱㅅㅣㄱ -10630
ㅋㅏㅁ -10631
▁ㅂㅕㄹㄱㅓ -10632
▁ADVANCED -10633
▁ㅇㅑㅅ -10634
▁ㄸㅡㅁ -10635
▁mA -10636
ital -10637
▁512 -10638
ㄱㅗㄱㅈㅓㄹ -10639
ㅉㅓㄴㅈㅣ -10640
▁ㅅㅣㄴㅇㅑ -10641
▁ㅇㅝㄴㅊㅣ -10642
▁|[ -10643
▁DSP -10644
▁Dec -10645
ㄴㅐㅂㄷㅡ -10646
▁Storm -10647
▁ㅇㅣㄹㄹㅏ -10648
▁ㅇㅘㅇㅅㅓㅇ -10649
98 -10650
▁2022 -10651
▁ㅇㅗㄹㄹㅔ -10652
▁ㄱㅕㄴㄷㅕ -10653
▁ㄴㅏㄴㄷㅗ -10654
▁ㅅㅓㅁㄸㅡㄱ -10655
▁ㅁㅜㄴㄱㅘㄴ -10656
ㅅㅏㅇㅂㅓ -10657
▁ㅎㅏㄱㅍㅏ -10658
ano -10659
▁ㅅㅓㄴㄱㅏ -10660
ㅁㅜㄹㄹㅓㅆ -10661
▁ㄷㅜㅇㄱㅡㄹ -10662
▁ㅇㅞㄴㄷㅣ -10663
▁ㄱㅣㅁㅅㅣ -10664
▁ㅈㅓㅇㄱㅘㄴ -10665
▁ㅌㅡㄹㄹㅣㅁㅇㅓㅄ -10666
▁ㅌㅔㄴㅌㅡ -10667
▁ㅎㅚㅇㄹㅕㅇ -10668
▁any -10669
▁ㅇㅠㄴㅅㅓㄱㅁㅣㄴ -10670
ㄴㅓㄼ -10671
▁ㅇㅜㄴㄷㅗㅇㄱㅏ -10672
ㅃㅗ -10673
▁ㄴㅣㅅㅅㅏㄴ -10674
▁ㅅㅗㄴㄱㅣㄹ -10675
▁Med -10676
▁ㅊㅡㅅㅋㅗ -10677
▁ㄱㅡㅂㅅㅗㄱㄷㅗ -10678
▁ㅇㅕㅅㅂㅗㄹ -10679
▁ㅋㅔㅅ -10680
▁ㄱㅏㅇㄱㅡㅂ -10681
aid -10682
▁Def -10683
▁ㅂㅔㄹㄹㅣ -10684
▁Gun -10685
ㄹㅏㅂㅇㅓ -10686
▁ㅈㅓㄹㄷㅗ -10687
▁htm -10688
ㄱㅗㅇㅎㅏㄱ -10689
▁ㄷㅡㅇㅇㅛㅇ -10690
ude -10691
▁ㄷㅗㅅ -10692
▁ㅂㅏㄹㅎㅏ -10693
▁ㅈㅓㅇㅊㅏㄹㄱㅣ -10694
▁ㄷㅗㄱㅅㅓㄹ -10695
▁QP -10696
▁youtu -10697
▁ㅅㅓㄴㅅㅑ -10698
▁ㄱㅕㅇㄱㅘㄴ -10699
▁ㅈㅓㅇㅁㅗㅇ -10700
▁ㄷㅗㄹㅂㅕㄴ -10701
▁when -10702
▁ㄸㅗㄱㅂㅏ -10703
▁ㅊㅏㄱㄱㅗㅇ -10704
▁ㄱㅘㄴㅅㅡㅂ -10705
▁ㅈㅓㅇㅊㅏㄱㅈㅣ -10706
▁HR -10707
▁ㅅㅏㄴㅊㅜㄹ -10708
▁youtube -10709
▁ER -10710
▁Hero -10711
▁Rad -10712
▁ㅋㅡㄹㄹㅓㄱ -10713
▁Zero -10714
65 -10715
UG -10716
apan -10717
unt -10718
ㅊㅜㄴㄱㅣ -10719
▁ㅇㅣㄴㅈㅔ -10720
▁ㄱㅗㅇㅇㅏㄴ -10721
32 -10722
ning -10723
▁ㅇㅏㅂㅅㅡㅇ -10724
▁EXTRA -10725
▁ㄹㅣㄴㄷㅡ -10726
▁Cal -10727
▁ㄹㅐㅁㅈㅣ -10728
▁ㅇㅓㅁㅇㅕㄴ -10729
DDR -10730
ours -10731
▁ㄱㅡㅂㅈㅡㅇ -10732
▁ㅇㅏㅁㅅㅓㄱ -10733
▁ㅇㅡㄴㅅㅐㄱ -10734
▁ㅅㅗㅇㄱㅗㅅㄴㅣ -10735
arm -10736
ett -10737
ler -10738
▁ㅅㅣㄴㅈㅐ -10739
▁ㅇㅡㄴㅅㅣㄴㅊㅓ -10740
ather -10741
ㅇㅜㄴㅈㅣ -10742
▁ㅌㅜㄱㅎㅏ -10743
▁Warhammer -10744
ㅍㅗㄹㅌㅡ -10745
▁ㅁㅜㄷㅎㅣㄴ -10746
▁ㄷㅗㅇㅁㅐㅇㄱㅜㄴ -10747
▁390 -10748
▁ㅍㅜㄹㅇㅣ -10749
unk -10750
▁ㄴㅐㅂㄷㅏ -10751
ㄷㅏㄹㄹㅕㅆ -10752
▁ㅋㅘㄴ -10753
▁ㅌㅏㅁㅎㅓㅁㄱㅏ -10754
▁ㅈㅓㅇㅁㅕㅇㅎㅜㄴ -10755
ㄴㅗㅂㅅㅣ -10756
▁ㅃㅏㄴ -10757
▁1934 -10758
▁Ry -10759
▁227 -10760
ㅂㅓㅂㅈㅏ -10761
▁ㅂㅐㄱㅇㅏㄱ -10762
▁ㅊㅗㅇㅈㅓㅁ -10763
▁ㄹㅗㅇㅈㅜ -10764
▁Ag -10765
▁Park -10766
▁ㅆㅡㄹㄹㅕ -10767
▁ㅁㅏㄴㅈㅏㅇ -10768
▁ㅁㅕㄱㅅㅏㄹ -10769
ㅁㅜㄹㄹㅓ -10770
▁ㄱㅗㅇㄱㅜ -10771
▁ㅇㅡㄹㅅㅣ -10772
▁ㅍㅕㅇㅎㅏ -10773
▁ㅅㅜㄱㅈㅔ -10774
ㅌㅡㄹㄹㅏㄴㅌㅣ -10775
ㅁㅗㅅㅎㅐ -10776
▁ㅎㅏㅂㅅㅜㄱ -10777
▁ㅇㅛㅇㄴㅏㅂ -10778
▁Sweet -10779
▁ㄱㅝㄴㅎㅏ -10780
lection -10781
▁ㅂㅜㄴㅇㅑㅇ -10782
irect -10783
▁!!!! -10784
▁ㅇㅝㄱㅅㅡ -10785
BE -10786
▁ㅇㅣㄴㅅㅏㅁ -10787
▁ㅊㅗㅇㄱㅕㄱ -10788
▁Mbps -10789
▁ㄸㅡㅅㅂㅏㄲ -10790
▁ㅅㅣㄹㅋㅓㅅ -10791
ㅎㅕㄴㅅㅜ -10792
une -10793
ㅋㅣㄹㄹㅔ -10794
▁BLACK -10795
▁ㅁㅣㅌㅂㅏ -10796
ㅍㅔㅅ -10797
▁ㄸㅢㄴㄷㅏ -10798
▁John -10799
▁ㄲㅡㅌㄴㅐㄴ -10800
▁ㅂㅏㄴㅉㅗㄱ -10801
▁ㅎㅗㅇㄹㅕㄴ -10802
ㅅㅏㄹㅇㅣ -10803
ㄷㅐㅆ -10804
ouble -10805
▁ㅅㅣㅁㅂㅗㄱ -10806
▁ㅇㅕㄴㅁㅏㄱㅌㅏㄴ -10807
ords -10808
▁op -10809
▁ㅇㅏㄴㅈㅡ -10810
▁Hel -10811
▁ㄷㅏㄹㅎㅐㅆ -10812
▁ㅇㅠㄴㅇㅕㅇ -10813
ople -10814
▁ㅍㅕㅁ -10815
▁ㅁㅕㅇㅅㅣㅁ -10816
▁== -10817
▁ㄷㅗㅇㅇㅣ -10818
▁ㅅㅏㄹㅍㅣ -10819
▁ㅈㅗㅂㅎㅕ -10820
▁ㄱㅗㅇㅈㅓㄱ -10821
▁ㅁㅜㄹㅇㅡ -10822
▁ㅁㅗㅇㅎㅘㄴ -10823
▁Say -10824
▁min -10825
▁ㄹㅗㄹㅅㅡ -10826
▁ㅇㅕㅇㅅㅜ -10827
▁Space -10828
▁ㅈㅣㅅㄱㅓ -10829
▁ㅇㅑㅇㅂㅏㅇㅎㅑㅇ -10830
▁Gal -10831
▁ㅌㅏㄱㄱㅜ -10832
ㅋㅏㅅ -10833
▁ㅈㅣㄴㅁㅕㅇ -10834
ames -10835
ㅅㅗㅇㄱㅣ -10836
ㅁㅜㄹㅅㅚ -10837
uct -10838
ㄴㅏㄹㄹㅗ -10839
▁ㅂㅐㄴㅋㅜ -10840
▁ㅇㅛㅇㅈㅗㄱ -10841
ㄱㅓㄴㅂㅜ -10842
ㅎㅐㅇㅅㅓㅇ -10843
▁ㄴㅏㄱㅅㅏ -10844
▁ㅇㅡㄴㄱㅡㄴㅅㅡㄹㅉㅓㄱ -10845
▁231 -10846
ㅅㅏㄴㄱㅜㄴ -10847
▁ㅋㅓㅅㅇㅣㄴ -10848
▁ㅈㅜㄱㅇㅣㅁ -10849
▁ㅍㅏㄴㅁㅕㅇ -10850
thing -10851
▁ㄱㅕㅇㅅㅏㅇㄷㅗ -10852
▁ㅅㅜㅅ -10853
▁ㅇㅕㅌ -10854
▁ㅎㅡㄱㄱㅣ -10855
uff -10856
▁Feel -10857
br -10858
▁ㄷㅏㄹㄹㅣㄹ -10859
▁PG -10860
▁need -10861
▁ㄱㅡㄴㅂㅏㅇ -10862
▁ㅂㅐㄱㅇㅜㅇ -10863
oj -10864
ㅇㅜㄹㅇㅣ -10865
KO -10866
▁ㄱㅘㄴㄹㅏㅁㄱㅐㄱ -10867
▁ㅇㅑㄱㅍㅜㅁ -10868
▁Je -10869
ㅃㅡㄹ -10870
oe -10871
ㄹㅣㅂㅅㅡ -10872
ㅅㅡㄹㄹㅗ -10873
▁LEVEL -10874
▁ㅂㅓㄹㄹㅕ -10875
▁ㅇㅏㄴㅌㅗㄴ -10876
TER -10877
▁HT -10878
▁ㄱㅏㄴㅈㅣㄱ -10879
▁ㄲㅡㄴㅈㅣㄹㄱㅣ -10880
▁ㅂㅏㅇㅈㅜ -10881
▁ㄱㅡㅁㄷㅏㄴ -10882
▁ㅎㅏㅁㄱㅕㅇ -10883
END -10884
vil -10885
yr -10886
▁ㅈㅣㅂㄱㅔ -10887
▁ㅅㅓㄹㄹㅣㅂㅈㅏ -10888
▁ㅇㅕㅆㅇㅓㅆ -10889
▁ㅌㅔㅂ -10890
▁ㅂㅓㅂㄹㅕㅇ -10891
▁ㄱㅕㅇㅁㅕㄹ -10892
▁Kim -10893
▁ㄱㅕㄴㄱㅗ -10894
▁ㅊㅜㄹㅈㅣㄴ -10895
ㅇㅕㅇㅎㅜㄴ -10896
ㅎㅐㅇㅈㅏㅇ -10897
▁ㅎㅐㅁㅌㅡㄴ -10898
▁mAh -10899
▁ㅇㅏㅇㅈㅠ -10900
▁ㅅㅗㄴㅂㅏㄹ -10901
ㅊㅓㄴㄹㅣ -10902
▁ㅈㅐㄱㅅㅡ -10903
▁Sport -10904
▁ㅊㅓㅇㅁㅜㄴㅎㅚ -10905
▁ㅂㅏㅁㅅㅐ -10906
▁ㅈㅓㅇㅈㅣㄴ -10907
ㅁㅜㄴㅎㅘ -10908
▁ㅇㅣㅅㅅㅔ -10909
▁ㅁㅜㄹㄷㅡㄹ -10910
▁ㅂㅕㅇㅎㅏㅂ -10911
▁JYP -10912
▁ㅇㅣㄹㄱㅏㄴ -10913
▁ㅅㅗㅅㅇㅏ -10914
ㅊㅏㄱㅁㅜㄹ -10915
▁them -10916
▁Ret -10917
ㄱㅗㄱㄹㅣ -10918
ㅂㅜㄴㅌㅜ -10919
▁ㅁㅏㄱㅅㅡ -10920
ㅊㅠㄴ -10921
▁ㅅㅣㄱㄱㅜ -10922
▁some -10923
▁ㅎㅡㄱㅂㅏㄹ -10924
▁ㅎㅡㄹㄹㅕㅆ -10925
ㄱㅕㄱㅌㅐ -10926
ㅅㅓㄹㅅㅜ -10927
▁ㄹㅡㄹㄹㅡ -10928
▁ㅂㅕㄴㄱㅣ -10929
ㅁㅣㄴㅊㅓㄹ -10930
▁Dem -10931
ㅅㅣㄴㄹㅛ -10932
▁ㅁㅕㅇㄱㅖ -10933
▁ㄱㅕㅁㅇㅣㅁ -10934
▁ㄱㅗㄹㅈㅓㄹ -10935
▁ㅍㅕㅇㅁㅕㄴ -10936
▁ㅅㅓㅇㅁㅜㄹ -10937
▁GTX -10938
▁Sou -10939
▁ㅇㅏㄹㅈㅔ -10940
ㄷㅏㅇㄱㅣ -10941
▁ㅎㅕㅇㅈㅜ -10942
▁ㅆㅏㅎㅇㅏㅆ -10943
▁ㅁㅗㄴㅌㅡ -10944
▁ㄷㅗㅇㄹㅠㄹ -10945
▁Kill -10946
▁ㅋㅓㄹㅌㅡ -10947
▁ㅌㅗㅁㅅㅡㄴ -10948
▁Tour -10949
▁ㄴㅏㅁㅅㅏㄴ -10950
ㅇㅓㅂㅅㅗ -10951
ㅈㅜㅇㅎㅐ -10952
▁ㅂㅏㄱㅅㅏㄹㄴㅏㄴ -10953
▁ㅂㅏㄹㅇㅕㄹ -10954
ㅇㅏㄴㅂㅜ -10955
ㄹㅏㅇㅋㅔㄴㅅㅠ -10956
ODE -10957
▁ㄷㅏㅀ -10958
▁ㅈㅓㄴㄱㅘㅇㅍㅏㄴ -10959
▁ㅂㅏㅇㅇㅏ -10960
ㄷㅗㅇㅁㅜㄹ -10961
▁ㄱㅕㄴㅅㅡㅂ -10962
arth -10963
▁GC -10964
▁ㅇㅕㄱㅁㅏ -10965
▁430 -10966
▁ㅌㅐㄹㄹㅓㄴㅌㅡ -10967
▁ㄱㅡㄴㅇㅠㄱㅈㅣㄹ -10968
▁ㅁㅏㄴㄴㅕㄴ -10969
▁ㅇㅣㅂㅈㅓㅁ -10970
▁LOL -10971
▁ㅇㅝㄴㄱㅏ -10972
▁ㅇㅔㄹㅅㅏ -10973
▁236 -10974
aser -10975
ㄱㅐㅅ -10976
▁KBL -10977
onna -10978
ㅅㅠㄹㄹㅣ -10979
▁ㅎㅜㅁㅊㅣㄴ -10980
▁ㅁㅜㅇㄱㅐ -10981
▁ㅊㅏㅁㅊㅣ -10982
ner -10983
▁ㅈㅓㅇㄱㅡㄴㅇㅜ -10984
▁ㄸㅓㄹㅊㅣ -10985
▁ㅊㅓㄹㄱㅜ -10986
ㅇㅠㄴㅇㅕㄹ -10987
ㅃㅗㅇ -10988
▁Orig -10989
▁ㄱㅣㅁㅇㅜ -10990
▁ㄴㅗㄹㄹㅓ -10991
▁ㅍㅏㄹㄷㅏ -10992
▁ㅇㅣㄴㅌㅓㄴ -10993
▁her -10994
▁ㄱㅏㄴㄱㅘ -10995
▁ㄴㅗㅎㅇㅣ -10996
▁ㅎㅐㅆㄷㅏ -10997
ways -10998
▁Beat -10999
▁ㅇㅕㄹㅎㅘ -11000
▁ㄱㅏㅁㅊㅏㄹ -11001
▁ㅁㅗㄱㅈㅏㅇ -11002
▁ㄷㅗㄹㄱㅗ -11003
ㄹㅓㅁㅁㅐ -11004
▁ㅂㅏㅇㅌㅏㄴㅂㅗㄱ -11005
ㅂㅗㄹㅌㅡ -11006
▁ㄱㅏㄹㅂㅣ -11007
ㅇㅣㄹㄹㅓㄴㅌㅡ -11008
▁ㄱㅕㄱㄴㅏㅂㄱㅗ -11009
▁WORLD -11010
▁ㅇㅝㄴㅈㅓㅇㄷㅐ -11011
▁ㄱㅜㄴㅅㅔ -11012
▁ㅅㅏㅇㅂㅕㅇ -11013
▁265 -11014
▁ㅈㅣㄹㄹㅓㅅ -11015
▁ㅂㅔㅅ -11016
▁ㅅㅣㅅ -11017
ormal -11018
ㅅㅏㅇㅅㅡ -11019
▁ㅇㅣㄹㅍㅏ -11020
▁ㅌㅔㅁㅍㅔ -11021
▁NAS -11022
ㅍㅐㅇㅇㅣ -11023
▁ㅈㅏㅇㅁㅜㄴ -11024
▁<< -11025
▁ㅎㅏㄴㅁㅣ -11026
iful -11027
ㅇㅕㅇㅈㅣㄴ -11028
▁ㅂㅗㄱㅅㅣㄱ -11029
▁PERF -11030
▁ㄱㅣㅁㄱㅓㄴ -11031
▁Luc -11032
▁ㅈㅠㄹ -11033
▁ㄱㅓㄹㄹㅓ -11034
▁Story -11035
▁ㄱㅕㄴㄷㅣㄹ -11036
UND -11037
▁ㅅㅜㄱㅇㅣ -11038
▁ㅌㅗㅇㅌㅗㅇ -11039
ㅁㅜㄴㅈㅓㅁ -11040
▁ㅇㅣㄹㅈㅓㄴ -11041
ㄴㅜㅂ -11042
▁3500 -11043
▁MAD -11044
44 -11045
▁When -11046
▁ㅎㅏㅇㅅㅗ -11047
▁ㅊㅓㅇㄷㅗㅇ -11048
ㅅㅓㅇㅇㅐ -11049
▁ㅋㅜㄱ -11050
▁ㅇㅏㅍㅁㅓ -11051
▁ㅃㅏㄱㅅㅔ -11052
▁she -11053
▁Tech -11054
▁ㄱㅏㅁㅊㅝ -11055
▁ㅈㅏㅇㅈㅣ -11056
▁ㄱㅗㅇㅍㅕㅇ -11057
▁ㅍㅕㄴㅊㅏㄴ -11058
ANG -11059
▁ㅂㅐㄱㄱㅘ -11060
▁ㅇㅑㄱㅅㅏ -11061
▁ㄱㅗㅇㅇㅕㄴㅈㅏㅇ -11062
▁ㅉㅏㅂ -11063
▁ㅁㅏㄱㅅㅣ -11064
ㅇㅜㄹㅈㅡㅇ -11065
▁ㅍㅗㄱㅈㅜㄱ -11066
▁ㅎㅏㄴㅇㅣㄴ -11067
▁ㄱㅏㅇㅁㅣㄴㅎㅗ -11068
▁ㄴㅗㅎㅊㅕㅆ -11069
▁ㅅㅜㄴㅈㅓㄴㅎㅣ -11070
▁WWF -11071
▁ㄴㅗㅎㅊㅕ -11072
ㅎㅕㅁ -11073
▁ㅆㅜㄴ -11074
▁ㅅㅗㅇㅈㅣ -11075
▁ㅅㅓㄴㅇㅠㄹ -11076
▁ㅈㅗㄱㅈㅗㄱ -11077
▁ㅊㅜㄹㄱㅜㄱ -11078
▁ㅎㅏㄴㅇㅓㅄㅇㅣ -11079
▁ㅈㅓㅇㅅㅓㄹ -11080
▁ㅋㅗㅂ -11081
▁Album -11082
▁ㄸㅏㅇㄱㅜㄹ -11083
fl -11084
ations -11085
ㅁㅏㄴㅇㅣㄴ -11086
▁DIO -11087
▁ㅂㅓㅁㅎㅏ -11088
▁Who -11089
▁ㅅㅏㅇㄷㅣ -11090
▁ㅂㅜㄹㄱㅜㄹ -11091
▁ㅎㅜㄹㅉㅓㄱ -11092
▁ㅅㅓㄴㄷㅓ -11093
▁ㅅㅣㄴㅌㅏ -11094
▁ㅍㅜㄹㅌㅏ -11095
▁ㅇㅏㅁㅁㅜㄱ -11096
▁ㅍㅐㅅ -11097
▁GE -11098
ㄲㅓㅅㅎㅐ -11099
ㄹㅏㅁㅈㅟ -11100
▁ㄱㅡㅂㄱㅏㅁ -11101
▁ㅈㅓㅇㅈㅜㄴㅎㅏ -11102
ait -11103
▁Step -11104
▁ㅇㅓㄹㄹㅡㄴ -11105
▁ㅅㅣㄹㄱㅣ -11106
ㅂㅏㄹㄹㅕㄱ -11107
▁ㅅㅐㅅ -11108
39 -11109
▁ㅈㅡㄴ -11110
ㅅㅣㄱㅇㅓ -11111
▁ㅅㅏㅁㄱㅜㄱㅅㅏ -11112
ㅅㅣㄹㄹㅗㄱ -11113
▁ㅂㅓㄴㅉㅓㄱ -11114
ㅋㅗㅂ -11115
▁232 -11116
▁ㅉㅣㄹㄹㅣ -11117
ㅌㅗㅇㅇㅣㄹ -11118
▁art -11119
▁ㄱㅡㅁㅅㅔ -11120
▁ㅇㅣㄴㅍㅏ -11121
ㅈㅏㅇㅈㅏ -11122
▁ㅇㅕㄱㅈㅓㄱ -11123
▁ㅁㅐㄴㅅㅓ -11124
▁ㅅㅜㄱㅈㅓㄱ -11125
ㅇㅠㄴㅅㅜ -11126
▁ㅇㅡㅁㅍㅏ -11127
▁ㄱㅘㅇㅇㅑㅇ -11128
▁ㅈㅓㄴㅎㅏㄴㄷㅏ -11129
▁ㅎㅐㅇㄹㅕㄹ -11130
▁ㅍㅕㄹㅊㅣㄴㄷㅏ -11131
▁ㅎㅣㅅ -11132
▁ㅅㅏㄴㅅㅏㄴㅈㅗ -11133
▁Death -11134
▁ㅁㅜㄹㄱㅕㄹ -11135
▁ㅇㅣㄴㅍㅔ -11136
ㅁㅣㄴㅈㅏ -11137
▁sec -11138
▁ㅇㅠㄱㅅㅣㄴ -11139
▁ㅇㅣㄹㄱㅘㄹ -11140
▁ㅎㅏㅇㅅㅓㅇ -11141
▁ㅇㅕㅂㄱㅣ -11142
▁ㅇㅓㄴㄸㅡㅅ -11143
▁ㅊㅏㅆ -11144
▁ㅇㅗㄱㅅㅡ -11145
▁ㅈㅣㄴㅈㅜㅇ -11146
▁ㄱㅗㅇㄱㅕㄱㄷㅐ -11147
ㄱㅏㄱㅅㅏㅇ -11148
▁ㅊㅗㅇㅇㅐ -11149
▁ㅎㅗㅇㅊㅏ -11150
body -11151
ㄷㅣㅈㅎㅕ -11152
▁ㄱㅘㄹㅎㅗ -11153
▁ㄷㅗㄱㅅㅏㄹ -11154
▁ㅂㅕㄴㅅㅗㄱ -11155
▁ㄱㅡㅁㅂㅣㅊ -11156
▁ㅍㅡㄹㄹㅗㅅ -11157
▁ㅈㅏㅂㅎㅣㄴㄷㅏ -11158
▁1931 -11159
ㅅㅗㅇㅇㅣ -11160
▁ㄱㅕㄹㅂㅓㄴ -11161
OSS -11162
▁about -11163
ㅅㅓㄴㅇㅣㄴ -11164
ㅇㅣㄹㄱㅓㄴ -11165
▁ㅂㅜㄹㄹㅠㄴ -11166
▁ㅅㅓㅁㅁㅓ -11167
▁ㅇㅑㅇㅇㅠㄱ -11168
▁ㅊㅣㅇㅎㅏㄴㄷㅏ -11169
ㅂㅏㄱㅅㅏ -11170
ㅅㅏㄴㄷㅐ -11171
▁ㅃㅓㄴㅎㅏㄴ -11172
ene -11173
▁ㅊㅓㄴㅈㅏ -11174
▁ㅇㅣㄹㅋㅓㄹ -11175
▁ㄴㅔㄹㅅㅡㄴ -11176
▁ㅁㅟㄹㄹㅓ -11177
▁ㅅㅡㅇㅅㅡㅇㅈㅏㅇㄱㅜ -11178
▁510 -11179
▁ㅅㅏㅁㅋㅕ -11180
▁ㅇㅣㄱㅎㅣㄴ -11181
▁ㅎㅗㄴㅈㅏㅂ -11182
▁ㄴㅏㅁㅅㅓ -11183
▁ㅍㅕㅇㅇㅢ -11184
▁ㅇㅝㄴㅅㅏㄴ -11185
▁Champion -11186
▁ㄹㅖ -11187
uss -11188
▁1935 -11189
▁ㅅㅣㅁㅇㅕㅇ -11190
▁ㅊㅏㄱㅇㅏㄴ -11191
▁SNK -11192
ㄹㅐㄴㅌㅡ -11193
ㅅㅓㅇㄱㅜ -11194
▁ㅅㅏㅇㅅㅜ -11195
▁ㅎㅘㅇㄴㅕ -11196
▁ㅇㅑㅇㅎㅕㄴㅈㅗㅇ -11197
37 -11198
▁ㅇㅔㅅ -11199
▁ㅍㅏㄴㅌㅔ -11200
rough -11201
▁ㄴㅗㄹㄹㅕ -11202
▁ㅇㅘㅇㅈㅓㅇ -11203
▁ㅊㅓㅂㅈㅏ -11204
ume -11205
ㅘㄱ -11206
ㄱㅏㄹㅅㅜ -11207
AE -11208
▁ㅈㅗㄱㅂㅗ -11209
ㅅㅓㄹㅁㅜㄹ -11210
▁Line -11211
▁ㅈㅣㄹㅊㅐㄱ -11212
▁ㅊㅓㄹㅈㅏ -11213
IDE -11214
▁Tra -11215
▁1700 -11216
ㅇㅣㄴㄹㅣ -11217
ㅂㅣㅇㄱㅡㄹ -11218
▁ㄲㅗㅁㄲㅗㅁ -11219
▁ㅎㅘㄴㅇㅠㄹ -11220
▁ㅎㅡㄱㅅㅐㄱ -11221
▁come -11222
▁ㅋㅐㅂㅊㅕ -11223
▁ㄷㅏㅅㅋㅓㅁ -11224
▁ㅈㅏㅇㅂㅏㄹ -11225
ㅇㅛㅇㅈㅣ -11226
ㅇㅜㄴㅅㅡ -11227
▁LCS -11228
lease -11229
▁ㅇㅚㄴㅂㅏㄹ -11230
▁ㅅㅓㄴㄹㅑㅇ -11231
ㄴㅗㅍ -11232
▁XBOX -11233
▁ㄷㅗㅇㅈㅏ -11234
▁ㅁㅣㄹㅈㅣㅍ -11235
▁ㅈㅓㄴㅁㅕㄴㅈㅓㄴ -11236
▁Du -11237
▁ㅌㅏㄹㄹㅏㄱㅈㅏ -11238
▁ㅈㅗㄴㄱㅣ -11239
ESS -11240
▁ㅂㅑ -11241
orever -11242
▁ㅂㅕㄴㅊㅣㄱ -11243
▁Apple -11244
▁ㅅㅣㅂㄴㅣ -11245
ㅈㅗㅇㅇㅜㄱ -11246
▁305 -11247
ㅇㅣㄴㅊㅡ -11248
ㅇㅣㄴㅎㅚ -11249
▁ㅎㅐㅆㅇㅓㅆㅇㅡ -11250
self -11251
▁Bus -11252
▁ㄱㅏㅁㄱㅕㄱ -11253
ral -11254
▁ㅅㅗㄱㅎㅐㅆ -11255
▁TRA -11256
▁ㅎㅙㅅㅂㅜㄹ -11257
▁ㅂㅏㄱㅇㅝㄴ -11258
▁747 -11259
▁ㄷㅏㄹㄹㅏㅇ -11260
ㄴㅏㄹㄹㅣ -11261
▁ㄱㅝㄴㅎㅕㄱ -11262
▁238 -11263
▁ㄱㅡㅂㅅㅗ -11264
▁ㄸㅏㄱㅈㅣ -11265
▁ㅈㅡㅇㅊㅏ -11266
▁ㅅㅔㄹㄹㅔㄱ -11267
INAL -11268
ㄹㄹㅣㅁ -11269
▁ㅅㅣㄹㅁㅜㄹ -11270
ㅇㅛㄱㅈㅏㅇ -11271
▁ㅇㅝㄴㅇㅏㄴ -11272
▁RT -11273
ㄷㅔㄴㅌㅣ -11274
▁ind -11275
ㅈㅓㅇㄱㅜ -11276
▁ㄱㅜㄱㅈㅣ -11277
ㅂㅓㅂㅇㅣㄴ -11278
▁Electr -11279
▁2400 -11280
▁ㅇㅣㄹㅉㅣㄱㅇㅣ -11281
▁ㄱㅣㅅㄷㅡㄹ -11282
ㅈㅗㅇㄷㅏㅇ -11283
▁ㅎㅕㄹㅇㅏㅂ -11284
▁ㅇㅑㅁㅈㅓㄴㅎㅣ -11285
▁ㄱㅔㅆㄷㅏ -11286
▁ㅍㅐㅇㅍㅐㅇ -11287
▁SB -11288
ㄱㅡㄴㄱㅓ -11289
▁ㅎㅐㅇㅋㅡ -11290
elie -11291
▁ㅂㅐㄱㅎㅗ -11292
▁ㅎㅏㅂㄱㅕㄱㅈㅏ -11293
▁SUPER -11294
▁640 -11295
▁Green -11296
▁ㅈㅓㄹㅈㅔ -11297
▁ㅇㅘㄴㅅㅡㅇ -11298
▁ㅅㅓㄹㄴㅏㄹ -11299
▁Mal -11300
▁ㅎㅘㅇㅊㅓㄴ -11301
▁ㄱㅜㄷㅎㅣ -11302
▁ㅂㅏㄹㅎㅛ -11303
ㅂㅏㅇㄱㅜㄴ -11304
▁ㄱㅗㅇㅈㅓㄴ -11305
ander -11306
▁ㅇㅏㄴㅇㅕㅇ -11307
▁ㅅㅏㅁㄱㅏㄱㅎㅕㅇ -11308
▁325 -11309
ㄹㅡㅂ -11310
▁Dead -11311
▁ㅇㅏㄱㅈㅐ -11312
▁ㅈㅏㅇㅎㅘ -11313
▁Tem -11314
autiful -11315
▁ㅁㅏㅇㅅㅣㄴ -11316
▁ㅊㅓㄴㅇㅘㅇ -11317
▁ㄱㅏㄱㅂㅗㄴㄱㅏ -11318
▁ㅅㅣㄴㄹㅛㅇ -11319
▁Pass -11320
▁ㅇㅣㄴㄱㅖ -11321
ines -11322
▁ㅈㅏㄴㅈㅗㄴ -11323
▁ㄷㅗㄱㄹㅣㅂㅇㅜㄴㄷㅗㅇㄱㅏ -11324
▁ㅇㅕㄴㅁㅗㅅ -11325
▁ㄱㅗㅇㄱㅕㄱㅈㅣㄴ -11326
▁ㅎㅘㅇㅍㅖ -11327
▁1910 -11328
▁NV -11329
▁ㄱㅏㄱㅈㅜ -11330
▁ㄱㅏㄴㅅㅜ -11331
▁Ant -11332
▁ㅂㅗㄹㅌㅣ -11333
ㅌㅡㄹㅈㅡ -11334
▁ㄷㅏㄴㄷㅗ -11335
▁ㅁㅓㄱㅇㅣㄹ -11336
awn -11337
▁ㅍㅔㄹㄹㅔ -11338
ortex -11339
▁ㄷㅏㅇㅂㅜ -11340
▁ㅂㅐㄱㅁㅏ -11341
▁ㅊㅗㅇㅅㅜ -11342
ㅋㅡㄹㄹㅣㅂㅅㅡ -11343
ㅂㅘㅆ -11344
ㅁㅣㄹㄹㅏ -11345
▁ㅈㅓㅇㅅㅣㄴㄱㅣ -11346
▁NAT -11347
ㄷㅏㅇㄱㅕ -11348
▁IEM -11349
▁1918 -11350
▁ㄲㅓㅂㄷㅔ -11351
▁ㅂㅜㄹㄱㅖ -11352
▁ㄱㅜㄷㄱㅓㄴ -11353
ㅅㅡㄹㄹㅏㄴㄷㅡ -11354
▁Home -11355
▁EXPERT -11356
▁ㅆㅗㄱ -11357
ㅇㅣㄴㅊㅏ -11358
ㅎㅏㅂㄴㅣ -11359
▁ㄱㅡㄱㄷㅗㅇ -11360
ㅎㅜㄴㄹㅕㄴ -11361
▁ㅂㅗㄱㅍㅏㄴ -11362
▁Lee -11363
▁League -11364
▁ah -11365
▁da -11366
▁ㄱㅏㄱㄱㅘㅇ -11367
▁ㅇㅣㄹㅎㅚ -11368
▁ㅈㅜㄹㅇㅣㄴ -11369
▁ㅊㅓㅇㄹㅑㅇㄹㅣ -11370
▁EASY -11371
▁sw -11372
▁AAA -11373
▁ㅇㅏㅇㅅㅏㅇ -11374
ㄹㅡㄹㅌㅔ -11375
▁ㅂㅐㄱㅈㅗㅇㅇㅝㄴ -11376
▁ma -11377
▁Tom -11378
▁Wanna -11379
▁ㄱㅓㅁㅊㅜㄹ -11380
▁ㅅㅓㄹㄱㅛ -11381
▁ㅅㅗㄹㄹㅜ -11382
▁EL -11383
▁ㄱㅏㄺ -11384
ㅍㅔㄹㄹㅓ -11385
ㅇㅏㅅㄱㅕㅆ -11386
ily -11387
▁TEAM -11388
▁ㅋㅓㅂㅅㅡ -11389
▁ㅋㅓㄹㅊㅕ -11390
▁ㅂㅜㄴㅅㅣㄹ -11391
▁ㅅㅜㄱㅂㅏㄱ -11392
▁ㅈㅜㅇㅅㅣㅁㅂㅜ -11393
▁ㅎㅗㅂ -11394
▁ㄴㅓㅁㄱㅣㄴㄷㅏ -11395
ㅅㅓㄲ -11396
▁Del -11397
▁ㄹㅜㄹㄹㅔㅅ -11398
▁ㄷㅐㄱ -11399
▁ㅂㅜㄱㅂㅓㄹ -11400
▁!!" -11401
▁ㄹㅐㄹㄹㅣ -11402
▁Level -11403
ㅂㅐㄱㅎㅗ -11404
▁ㅁㅏㄹㄸㅜㄱ -11405
▁ㄱㅓㄴㄷㅏㄹ -11406
▁ㄴㅜㄴㅇㅕ -11407
▁ㅋㅗㅇㄱㅗ -11408
▁IMF -11409
▁ㄷㅏㄴㅎㅗ -11410
IAL -11411
▁ㅍㅕㅇㅇㅗㄴ -11412
▁ㅁㅏㄹㅂㅓ -11413
eter -11414
▁ㄴㅓㅅ -11415
▁GAME -11416
▁ㄱㅏㅇㄱㅜㄱ -11417
▁ㄴㅜㄴㄱㅣㄹ -11418
ㅇㅜㄹㅇㅓ -11419
▁ㄷㅔㄹㄹㅣ -11420
▁ㄷㅏㄴㄱㅏ -11421
▁ㅈㅓㅇㅎㅜㄴ -11422
▁ㅎㅘㅇㄹㅛㅇ -11423
ㄱㅗㅇㄱㅏㄴ -11424
▁ㅁㅐㅇㄹㅕㄹ -11425
▁ㅇㅏㄴㄷㅐ -11426
▁Friend -11427
▁ㅁㅜㄱㅁㅜㄱ -11428
▁ㅈㅗㅇㅅㅗㄱ -11429
▁ㅍㅜㅁㅁㅗㄱ -11430
▁ㅂㅜㅌㅇㅣㄹ -11431
▁ㄷㅗㄱㅅㅗ -11432
▁ㅇㅝㄴㅅㅜㄹ -11433
▁ㄴㅏㅁㅈㅜ -11434
▁ㄴㅗㅎㅊㅣㄴ -11435
ㄷㅜㄹㄹㅣ -11436
▁229 -11437
▁ㄷㅗㅇㄸㅓㄹㅇㅓ -11438
▁ㄱㅕㄹㅈㅓㅇㄹㅕㄱ -11439
ISS -11440
▁ㅇㅛㅇㅇㅣㄴㅅㅣ -11441
▁Cha -11442
▁ㅂㅏㄹㅍㅗ -11443
▁ㄱㅕㄱㅂㅜㄴ -11444
rol -11445
▁bit -11446
▁ㅅㅗㅇㅅㅣㄴ -11447
▁ㅂㅐㄱㅅㅓㄹ -11448
ible -11449
ider -11450
▁ㅈㅓㅇㅅㅣㄴㅂㅕㅇ -11451
▁244 -11452
ㅇㅛㅇㅅㅏ -11453
▁ㅇㅓㄴㄹㅣ -11454
▁ㄱㅗㄹㄹㅏㅆ -11455
▁ㅁㅏㅈㅊㅜㄴㄷㅏ -11456
▁ㄷㅔㅂ -11457
▁ㄷㅡㄷㅂㅗ -11458
▁Univers -11459
▁ㅂㅜㄹㄹㅑㅇㅂㅐ -11460
ouch -11461
▁BMS -11462
▁their -11463
▁ㅂㅏㄱㅈㅣㄴㅇㅕㅇ -11464
72 -11465
▁ㅅㅣㄹㄱㅕㄱ -11466
▁Mac -11467
ㅈㅏㄱㅂㅓㅂ -11468
▁ㄱㅗㄹㄱㅕㄱ -11469
▁ㅈㅓㅇㅇㅐㄱ -11470
▁ㅍㅜㄹㄹㅣㄴㄷㅏ -11471
▁hell -11472
▁ㅂㅜㄹㄱㅗㅁ -11473
▁ㅇㅘㄴㄹㅕㄱ -11474
31 -11475
ves -11476
onic -11477
▁Chap -11478
▁ㄷㅙㅆㅇㅓㅆ -11479
▁ㅅㅓㅇㄱㅖ -11480
▁ㅎㅕㄴㅅㅔ -11481
▁765 -11482
▁DL -11483
▁ㄹㅕㄹ -11484
▁Pack -11485
▁ㄷㅗㄹㄱㅣ -11486
▁ㅂㅣㄴㅁㅣㄴ -11487
▁ㅈㅏㅇㅇㅕㅇ -11488
▁AO -11489
ㄹㅣㄹㄹㅓ -11490
▁ㅅㅗㄱㅊㅜㄹ -11491
▁ㅍㅣㅇㄱㅓ -11492
▁ㄱㅣㅁㅅㅏㅇㅅㅜ -11493
▁TBS -11494
ㅂㅓㄹㅇㅣ -11495
ㄱㅘㄴㅎㅏㄱㄱㅛ -11496
ㅇㅕㅇㅇㅜㅇ -11497
my -11498
▁ㅇㅑㅇㅇㅑㅇ -11499
ㅅㅠㅁ -11500
▁251 -11501
▁ㅂㅐㅅㅈㅣ -11502
▁ㅇㅕㅇㄷㅗ -11503
ㅇㅑㄱㄱㅡㅁ -11504
▁ㄱㅏㅇㅂㅜㄱ -11505
▁ㄷㅓㅅㅂㅜㅌㅇㅣ -11506
▁ㄱㅕㄹㅅㅓㄴ -11507
oom -11508
▁ㅎㅏㄴㄹㅠ -11509
ㄲㅏㅌㅉㅗㄱ -11510
▁ㅂㅏㄹㄹㅏㄹ -11511
▁ㅇㅑㄱㅌㅏㄹㅈㅏ -11512
▁ㅁㅜㄲㅇㅣㄴ -11513
bsp -11514
▁ABC -11515
ㅇㅝㄴㄱㅡㅁ -11516
▁ㅍㅓㅇㅍㅓㅇ -11517
▁NXT -11518
ㄷㅗㄱㅅㅡ -11519
ㅅㅓㄹㅍㅡ -11520
▁Japan -11521
▁ㄱㅘㅇㅎㅐ -11522
▁ㅇㅓㅂㅅㅗ -11523
▁ㅂㅏㄱㄷㅗㅇ -11524
▁ㅇㅝㄴㅎㅐ -11525
DER -11526
ㄱㅓㄱ -11527
▁ATM -11528
▁ㅂㅏㄴㅅㅣㄴ -11529
▁Young -11530
ㅇㅣㄴㅅㅓㅇ -11531
icle -11532
▁ㅅㅣㄴㄱㅓㅁ -11533
ㄷㅏㅅㄱㅏ -11534
ㅇㅗㄹㄹㅗ -11535
▁ㄱㅗㄴㄷㅗ -11536
▁ㅈㅏㅁㅈㅓㅇ -11537
▁ㅂㅣㅇㄱㅡㄹㅂㅣㅇㄱㅡㄹ -11538
ㅂㅏㅇㅅㅓ -11539
▁ㅅㅡㅇㅇㅛㅇㅊㅏ -11540
ubl -11541
alent -11542
ㅈㅏㅅㅈㅣㅂ -11543
▁ㅅㅏㄹㅂㅓㄹ -11544
▁ㅎㅕㅁㅎㅏㄴ -11545
▁ㅅㅓㄹㄹㅣ -11546
▁ㅈㅣㅇㅈㅣㅂ -11547
▁ㅅㅜㄴㅂㅏㄹㄹㅕㄱ -11548
▁ㅌㅡㄱㅎㅖ -11549
▁ㅅㅣㄴㅈㅣㄴ -11550
▁ㅁㅣㄹㅈㅣㅍㅁㅗ -11551
▁hats -11552
▁ㅇㅏㄹㄱㅗ -11553
ㅈㅗㅇㅂㅓㅁ -11554
▁660 -11555
▁ㅋㅔㄹㅌㅡ -11556
▁Que -11557
▁Full -11558
ㄷㅡㄱㅎㅣ -11559
▁nbsp -11560
ement -11561
▁ㅈㅓㄴㅈㅗ -11562
▁ㅎㅗㅇㅇㅣㄱ -11563
ㄴㅔㄹㄹㅣ -11564
ㅅㅓㄴㅅㅡ -11565
ha -11566
ㄹㅔㄴㅌㅡ -11567
leep -11568
ㅌㅜㄹㄹㅜ -11569
ㅇㅡㅁㅁㅓㄱ -11570
ㄷㅔㅁ -11571
▁560 -11572
▁ㅇㅕㄹㄹㅣㄹ -11573
St -11574
▁res -11575
▁ㅂㅏㄴㅂㅏㄴ -11576
▁ㅇㅕㄱㅎㅐㅇ -11577
▁Champions -11578
ㅈㅣㄴㄱㅜ -11579
ㅂㅏㅇㄱㅘㄴ -11580
▁ㅂㅜㄴㅅㅣㄱ -11581
ㅍㅔㄴㅅㅕㄴ -11582
press -11583
▁ㄱㅣㅁㅈㅏㅇ -11584
▁ㅁㅣㄹㅅㅜ -11585
▁ㅈㅓㅇㄱㅏ -11586
▁ㅎㅕㅇㅂㅓㅂ -11587
▁.? -11588
▁264 -11589
▁ㅅㅐㅇㅅㅗ -11590
▁ㅇㅡㄴㅇㅣㄴ -11591
▁ㅎㅘㅇㅅㅐㄱ -11592
ㅇㅓㄵ -11593
▁ㄱㅘㄴㅅㅔ -11594
▁ㅊㅓㄱㅊㅜ -11595
ㅎㅏㅇㅎㅐ -11596
▁ㅎㅘㅇㅈㅐ -11597
ㄹㅜㅅㅂㅏㅁ -11598
uj -11599
▁ㄱㅣㄹㄱㅏ -11600
OTH -11601
▁TSM -11602
▁ㅅㅣㄴㅎㅐ -11603
ㅍㅕㅇㄱㅜ -11604
▁ㄷㅗㅇㄷㅗㄱ -11605
▁ㄱㅡㅇㅈㅣ -11606
▁ㅅㅓㅇㅇㅢ -11607
▁ㅇㅏㄴㅈㅜ -11608
gg -11609
▁ㄱㅓㄴㅁㅏㄴ -11610
▁ㅅㅏㅇㅂㅏㄴㅅㅣㄴ -11611
▁des -11612
ㅈㅓㅇㅉㅓㅇ -11613
ㅅㅏㄴㄷㅡ -11614
▁ㄴㅏㅁㅋㅗ -11615
▁ㅁㅕㄴㅊㅣ -11616
▁ㅅㅓㅇㅇㅜㄴ -11617
ㅊㅜㄱㅈㅓㄴㅊㅏ -11618
▁ㅂㅗㅇㅌㅜ -11619
▁ㅇㅞㄴㄹㅣ -11620
▁ㅂㅏㄴㄴㅕㄴ -11621
▁ㅂㅜㄴㅊㅜㄹ -11622
▁OT -11623
▁ㅈㅓㄹㅅㅣㄹ -11624
▁ㅎㅏㄴㅅㅡㅇ -11625
ots -11626
ㄸㅓㄹㄲㅏ -11627
▁ㅇㅘㅇㅅㅔ -11628
▁ㅈㅏㄴㅈㅏㄴ -11629
38 -11630
▁ㄲㅣㄹ -11631
▁hatsan -11632
IF -11633
ㅈㅓㅅ -11634
ㅌㅡㄹㄹㅗ -11635
▁Ho -11636
▁ㅅㅣㅁㅂㅗㄹ -11637
▁ㅈㅏㅇㅈㅏ -11638
ㅁㅣㄹㅌㅓㄴ -11639
▁ㅅㅏㅇㅊㅡㅇ -11640
▁ㅎㅘㄴㅅㅜㄹ -11641
▁ㅅㅗㄴㄷㅐ -11642
▁html -11643
▁ㅍㅏㄴㄱㅛ -11644
▁ㅅㅏㄹㅇㅠㄱ -11645
▁-, -11646
ㄱㅙㅇㅇㅣ -11647
ㅅㅏㄹㄹㅣ -11648
▁237 -11649
ㄱㅝㄴㄷㅗ -11650
ㅂㅏㄹㄹㅣ -11651
▁ㄴㅗㅇㄷㅗ -11652
▁ㅅㅗㄱㅇㅏ -11653
▁ㅋㅏㄱ -11654
ㅁㅔㄴㅅㅕㄴ -11655
ㄱㅘㄴㄹㅣ -11656
▁ㄱㅣㅁㅂㅗ -11657
ㅅㅏㄴㅂㅜ -11658
▁ㅂㅏㄹㄷㅏㅇ -11659
ㄹㅗㄱㅅㅡ -11660
▁GA -11661
ㅅㅏㄱㅅㅡ -11662
▁ㅂㅓㅁㅌㅚ -11663
▁ㅅㅏㄹㅍㅗ -11664
▁ㅇㅏㅍㅂㅜ -11665
▁ㄴㅏㄴㅈㅣㅇ -11666
▁316 -11667
▁Ele -11668
▁20000 -11669
ㅍㅗㄱㅍㅜㅇ -11670
▁ㅂㅏㄱㄱㅓㄴ -11671
▁POWER -11672
▁ㄱㅏㅁㅁㅏ -11673
▁ㅇㅣㄹㅍㅕㅇㄱㅠㄴ -11674
▁ㅇㅕㄴㄷㅜ -11675
▁ㅈㅣㄱㅈㅗㅇ -11676
▁ㄱㅣㄴㄱㅏ -11677
▁ㅁㅜㄴㅍㅏ -11678
▁ㅇㅔㄴㄷㅗ -11679
▁ㄱㅡㄴㅊㅣㄴ -11680
▁ㅁㅕㅇㅊㅣ -11681
▁ㅊㅜㅇㅇㅣ -11682
▁ㄱㅣㅁㄱㅘㅇㅎㅕㄴ -11683
▁ㅇㅓㄺㅎㅣㄴ -11684
ㅂㅜㄱㅇㅣ -11685
▁ㅅㅓㄴㅎㅏㄴ -11686
▁ㅎㅘㄹㅂㅏㄹㅎㅣ -11687
▁ㄴㅔㅅㅉㅐ -11688
▁ㅊㅔㅅ -11689
ㅅㅏㅇㅈㅜ -11690
▁ㅊㅏㄴㄹㅏㄴ -11691
▁ㄷㅏㄴㅊㅜㄱㅋㅣ -11692
▁ㅇㅑㄱㅎㅗㄴㅈㅏ -11693
▁Shad -11694
▁ㄷㅡㄹㄹㅕㅆ -11695
ㄹㅐㄴㅅㅓ -11696
▁ㅉㅣㄹㄹㅕ -11697
ㅅㅓㄱㅈㅣㄴ -11698
▁ㅂㅏㄴㅇㅣㅂ -11699
▁ㅇㅣㄹㅁㅕㄴ -11700
▁ㅈㅓㅇㅅㅏㅇㄱㅡㅂ -11701
▁ㅁㅗㅇㅋㅣ -11702
▁ㄱㅓㄹㄹㅣㅁ -11703
▁ㅁㅏㅇㅇㅝㄴㄱㅕㅇ -11704
▁ㄲㅗㅊㅇㅣㅍ -11705
▁ㅇㅑㅇㅂㅜㄴ -11706
▁SUV -11707
▁ㄷㅓㅁㅂㅡㄹ -11708
▁ㄱㅡㅁㅊㅓㄴ -11709
▁ㅅㅐㄴㄷㅓ -11710
▁ㅅㅔㄹㄹㅓ -11711
▁DH -11712
▁ㅇㅏㄹㅁㅏ -11713
▁ㄱㅣㅁㄴㅏㅁ -11714
▁boy -11715
▁ㅎㅡㄴㅊㅣ -11716
▁Mad -11717
▁NMB -11718
▁1917 -11719
ㅅㅡㅇㅈㅜㄴ -11720
ㄷㅗㅇㄱㅏㅇ -11721
▁ㅍㅔㄹㄹㅣㄱㅅㅡ -11722
▁Att -11723
▁ㅅㅗㄱㅈㅚ -11724
▁ㄹㅏㅁㅂㅗ -11725
▁ㅎㅏㄴㄹㅏ -11726
▁ㅅㅓㄴㄷㅏㄴ -11727
▁ㅎㅡㅂㅇㅣㅂ -11728
▁ㅋㅗㄹㅌㅡ -11729
▁ㅂㅡㄹㄹㅜㅁ -11730
hn -11731
▁ㄱㅕㄹㅅㅗㄱ -11732
ㅅㅓㄴㅂㅓ -11733
▁ㄴㅠㅁ -11734
ground -11735
▁ㅁㅗㄱㅇㅛㄱㅌㅏㅇ -11736
▁Lun -11737
▁ㅇㅏㅂㄷㅜㄹ -11738
ㄱㅏㄴㅈㅔ -11739
▁254 -11740
▁There -11741
ㄷㅏㄹㄹㅣㄴ -11742
▁ㅂㅏㄹㅂㅕㅇ -11743
▁MUSIC -11744
yo -11745
▁ㅅㅣㄹㄹㅖ -11746
ㅊㅗㅇㅅㅏ -11747
ㄹㅓㄹㄷㅡ -11748
ㅍㅕㅇㄷㅗㅇ -11749
▁ㅋㅏㄴㄷㅏ -11750
▁ㅇㅕㄴㅈㅏㅇㅍㅗ -11751
▁Mil -11752
▁ㅁㅏㅇㅅㅓㄹㅇㅣㅁ -11753
▁Mel -11754
▁ㅌㅡㅁㅌㅏ -11755
▁ㅌㅗㅇㅈㅏㅇ -11756
▁1933 -11757
ㅇㅛㅇㄱㅠ -11758
ㅈㅏㅇㅊㅏㅇ -11759
▁ㅌㅡㄱㄹㅖ -11760
▁ESP -11761
ㅂㅗㄲㅇㅣ -11762
▁ㅈㅏㄱㅈㅏ -11763
▁ㅋㅡㄹㄹㅜ -11764
▁ㅍㅐㄴㄷㅓ -11765
▁ㅎㅏㄴㅁㅜㄴ -11766
ㅂㅕㅇㄱㅠ -11767
ori -11768
ㄱㅣㅍ -11769
▁ㄱㅘㅇㄱㅛ -11770
▁ㄴㅔㅅㅍㅡㄹ -11771
▁ㅇㅕㅍㅈㅣㅂ -11772
▁ㄴㅔㅅㅍㅡㄹㄹㅣㄱㅅㅡ -11773
ㅆㅓㄱ -11774
▁HKT -11775
▁ㅁㅕㅇㅈㅓㄹ -11776
▁ㄱㅏㄹㅁㅏㅇ -11777
▁ㄴㅐㅇㅊㅓㄹ -11778
▁ㄷㅏㄹㅎㅏㄴㄷㅏ -11779
▁ㅅㅔㄴㄱㅗ -11780
▁ㄱㅗㄱㄱㅙㅇㅇㅣ -11781
▁ㅃㅛㅇ -11782
▁ㅌㅗㅇㅍㅖ -11783
▁ㄴㅔㄱㅌㅏ -11784
▁ㄱㅜㄱㅂㅗ -11785
▁ㅇㅏㄹㄹㅔㄴ -11786
ㅊㅡㅁ -11787
▁ㅉㅏㅁㅃㅗㅇ -11788
▁Hi -11789
▁Mer -11790
▁ㅎㅏㄴㄱㅜㄱㅅㅏ -11791
▁ㅁㅣㄴㅅㅜ -11792
ㅇㅠㄱㄱㅏㅁ -11793
▁ㄷㅗㅇㄱㅏㅇ -11794
ㅁㅏㄹㄹㅏ -11795
▁ㅈㅑㅇ -11796
▁ㅇㅕㄴㄷㅏ -11797
ㅉㅣㄹ -11798
ㅇㅜㄱㄷㅓ -11799
▁ㅇㅣㄱㅅㅏ -11800
▁ㄱㅓㄴㅂㅏㅇ -11801
▁Pa -11802
▁ㅎㅗㄱㄷㅗㄱ -11803
ㅋㅏㅇ -11804
▁242 -11805
ㅎㅏㄱㅇㅕ -11806
▁ㅁㅐㅇㄷㅗㄱㅊㅜㅇ -11807
▁ㄱㅡㄹㅆ -11808
▁ㅍㅓㅁㅇㅞ -11809
▁ㅁㅗㄹㄷㅜ -11810
▁ㅅㅣㄴㅌㅏㄱ -11811
▁ㅇㅑㄱㅎㅐㅆ -11812
▁ㅈㅏㄹㄴㅏㄴ -11813
ㄷㅜㄴㅈㅣ -11814
▁ㅈㅡㅇㅅㅣㄱ -11815
▁ㅈㅓㄴㅂㅓㅁ -11816
▁ㅇㅕㅆㅇㅡㅁㅇㅔ -11817
▁ㅇㅘㅇㅊㅏㅇ -11818
▁ㅍㅏㄴㄴㅔㄹ -11819
▁ㅈㅏㅇㅈㅏㄱ -11820
▁ㅇㅏㄹㄹㅣㄴ -11821
▁ㅅㅓㅇㅂㅜㄱ -11822
ㅅㅐㅇㅅㅓㅇ -11823
ㅇㅏㄴㄱㅘㄴ -11824
ility -11825
▁ㅇㅡㄴㄷㅜㄴ -11826
▁ㅅㅓㄹㅇㅝㄴ -11827
▁ㅂㅜㄹㅁㅕㅇㅇㅖ -11828
▁ㅂㅜㄹㄹㅣㅅ -11829
▁ㅅㅣㄱㅇㅛㅇ -11830
▁ㄴㅏㄱㅇㅑㅇ -11831
▁Games -11832
▁ㄱㅜㅇㅈㅓㅇ -11833
▁Easy -11834
▁wanna -11835
▁ㅈㅓㄱㄷㅗ -11836
▁ㅈㅓㅇㅂㅏㄱ -11837
ㅍㅏㅂ -11838
▁ㅇㅐㄴㅌㅡ -11839
▁dr -11840
▁ㅈㅏㄴㅊㅣ -11841
▁ㅁㅜㄴㄱㅕㅇ -11842
▁ㅎㅏㄴㅈㅗㄱ -11843
▁246 -11844
▁left -11845
▁ㅇㅣㅂㅎㅕㅆ -11846
▁ㄷㅡㄹㅇㅣㄴ -11847
▁ㅎㅏㅇㅁㅏ -11848
▁ㅂㅏㄴㅇㅕㄹ -11849
82 -11850
▁ㄴㅏㅁㄷㅏ -11851
▁ㅂㅗㄴㄷㅐ -11852
ison -11853
▁SKY -11854
ㅅㅓㅇㅎㅜㄴ -11855
▁ㅌㅏㄴㄹㅕㄱ -11856
▁ㅍㅕㄴㅎㅑㅇ -11857
▁Spe -11858
▁ㅊㅗㅇㅊㅔ -11859
▁ㅈㅣㅇㅂㅓㄹ -11860
avy -11861
▁EE -11862
▁ㄷㅗㄴㄷㅏ -11863
ense -11864
▁ㅁㅏㄴㅅㅣㄴ -11865
▁ㅇㅏㄹㅌㅔ -11866
▁ㅍㅕㄴㅊㅏ -11867
▁ㅂㅏㄹㄷㅏㄴ -11868
▁ㅊㅣㅂㅅㅔㅅ -11869
▁ㅌㅐㄱㅎㅐㅆ -11870
ㄴㅏㄹㄹㅔ -11871
▁ㄷㅓㄴㄷㅔ -11872
.. -11873
▁460 -11874
▁ㄷㅟㅅㄷㅏㅁ -11875
▁Road -11876
▁ㅅㅣㄴㅇㅑㄱ -11877
▁ㅊㅓㄹㅎㅏㄱㅈㅏ -11878
▁ㅎㅏㅇㄱㅗㅇㄷㅐ -11879
▁ㅅㅓㅂㅈㅓㅇ -11880
▁ㅂㅏㄱㅅㅗ -11881
▁ㅌㅗㅇㅈㅗ -11882
▁ㄱㅡㅁㅁㅜㄹ -11883
ㅅㅣㄹㅅㅏㅇㅂㅜ -11884
▁ㅁㅕㅇㅅㅣㄹㅅㅏㅇㅂㅜ -11885
ㅂㅏㅇㅇㅝㄴ -11886
▁ㄱㅗㅇㅁㅣㄴ -11887
▁ㄱㅗㅇㅎㅘㅇ -11888
▁per -11889
▁VC -11890
ㅎㅘㅇㅎㅜ -11891
▁ㅅㅣㄹㄹㅗㄱ -11892
▁Port -11893
▁ㅇㅣㄴㄷㅓ -11894
ㄴㅜㄱㅅㅡ -11895
ㄹㅣㄴㅌㅓ -11896
▁ㄲㅗㄴ -11897
▁ㄴㅐㅁㅂㅣ -11898
ㅊㅜㅇㄹㅠ -11899
▁ㅇㅣㄴㅅㅜㄹ -11900
ㅊㅗㄴㅂㅓ -11901
ㅈㅕㅆㅇㅓㅆ -11902
▁ㅅㅐㄱㅈㅓㄱ -11903
▁ㅂㅓㄴㄷㅡㄹ -11904
!! -11905
▁ㄷㅗㅇㅂㅐㄱ -11906
▁1928 -11907
▁Brave -11908
▁737 -11909
▁ㅅㅣㄹㄹㅣㄴㄷㅓ -11910
mon -11911
▁ㄲㅡㄹㄹㅣ -11912
92 -11913
ㅊㅏㅇㅅㅣㄱ -11914
ㅈㅡㄱ -11915
▁666 -11916
▁ㅁㅏㅈㅇㅏ -11917
▁ㅂㅣㅅㅈㅏ -11918
▁ㅇㅝㄴㄷㅐ -11919
▁ㅅㅓㅇㅈㅗㅇ -11920
▁ㅅㅓㄴㅊㅟ -11921
ㅁㅏㄴㅇㅡㄴ -11922
▁ㅅㅏㄹㄹㅕㅆ -11923
▁FT -11924
▁ㅇㅡㄱ -11925
▁ㅈㅣㄴㅍㅜㅇ -11926
▁ㅎㅕㄹㄱㅘㄴ -11927
▁ㅇㅔㄹㄷㅏ -11928
▁ㅇㅏㄹㄹㅔㄱㅅㅣ -11929
▁ㅅㅖㄴ -11930
▁ㅇㅕㄴㅈㅏㅇㅅㅓㄴ -11931
▁ㅂㅏㅇㅅㅜ -11932
▁ㄷㅏㄴㄱㅜㄱ -11933
▁et -11934
▁php -11935
▁ㅇㅠㅅ -11936
▁ㅇㅕㄱㅈㅏㅇ -11937
ㄱㅣㅅㄱㅓ -11938
▁ㄱㅓㅂㅁㅓㄱ -11939
▁ㅂㅏㄷㅊㅣㅁ -11940
▁Long -11941
▁501 -11942
▁namu -11943
ㄴㅑㅇㄱㅏㅁ -11944
▁Call -11945
▁ㄱㅜㅇㄱㅝㄹ -11946
▁Va -11947
ㅋㅓㄹㄹㅗ -11948
▁Esports -11949
▁Snow -11950
ㅂㅓㅇ -11951
▁ㅈㅜㅇㅇㅛㅇ -11952
▁FS -11953
▁ㅈㅏㄴㄷㅏ -11954
▁ㅎㅗㄹㅅㅜ -11955
▁ㅎㅣㅁㄷㅡ -11956
▁ㅈㅏㅇㅇㅣ -11957
oup -11958
▁ㅁㅗㅁㄱㅏㅄ -11959
▁ㅅㅏㅁㅋㅣ -11960
ㄷㅏㄹㅂㅜ -11961
▁ㅌㅏㅂㅅㅡㅇㅈㅏ -11962
ㄲㅗㅇ -11963
▁ㅎㅏㄴㅅㅣㄴ -11964
▁ㅁㅜㄹㅂㅏㅇㅇㅜㄹ -11965
▁ㅅㅗㄱㅈㅜ -11966
▁ㅎㅘㅇㅇㅣㄴ -11967
▁Bu -11968
▁243 -11969
▁ㅍㅏㅌ -11970
▁been -11971
▁Key -11972
▁ㄱㅣㄹㅌㅣ -11973
▁ㅌㅏㄴㅅㅏㄴ -11974
▁ㅁㅓㄱㅎㅣㄴㄷㅏ -11975
▁ㄷㅡㅇㄹㅗㄱㄱㅡㅁ -11976
▁ㄷㅗㄹㅂㅏㄹ -11977
▁ㅇㅑㅇㅍㅏㄹ -11978
▁1932 -11979
▁ㄸㅓㄹㅊㅕ -11980
▁ㅅㅡㄹㄹㅓㅁㅍㅡ -11981
▁Bet -11982
▁ㅋㅝㄴ -11983
▁ㅇㅓㄹㄹㅕ -11984
box -11985
▁ㅇㅝㄹㄱㅘㅇ -11986
▁ㅇㅑㅇㅈㅐ -11987
▁ㄱㅗㄷㅈㅏㄹ -11988
▁530 -11989
▁ㅅㅣㄴㄱㅛ -11990
▁ㅊㅓㅇㅈㅏ -11991
▁285 -11992
ㅂㅏㄱㄲㅗ -11993
▁ㅁㅏㄴㄷㅏㅁ -11994
▁Arc -11995
▁ㅍㅕㅇㅅㅣ -11996
▁ㅇㅠㄴㅎㅚ -11997
▁ㅊㅓㄴㅇㅏㄴㅅㅣ -11998
▁1927 -11999
▁ㄱㅕㅇㅅㅏㄴ -12000
▁ㅁㅕㅇㅇㅓㄴ -12001
▁ㅊㅗㅇㄱㅓㅁ -12002
▁ㄷㅗㅇㄷㅜ -12003
▁ㅊㅓㅇㅎㅗㄴ -12004
▁WCW -12005
▁ㅅㅏㄹㅇㅣㄴㅂㅓㅁ -12006
▁ㅋㅏㄴㅈㅏ -12007
ㄷㅗㅇㅇㅜㄱ -12008
▁ㅎㅑㅇㅅㅣㄴㄹㅛ -12009
▁ㅁㅏㄴㅈㅕ -12010
▁ㅇㅡㄴㅇㅓ -12011
▁ㄱㅝㄴㄹㅕㄱㅈㅏ -12012
▁ㅎㅏㄴㅅㅜ -12013
▁ㅍㅏㄹㄹㅕㅆ -12014
ITE -12015
▁ㅊㅓㄴㅁㅜㄴㅎㅏㄱ -12016
▁pop -12017
▁war -12018
▁ㄴㅜㄴㅇㅏㄹ -12019
▁ㅎㅝㄴ -12020
▁ㅇㅛㄱㅎㅏ -12021
ㅊㅓㅇㅈㅏㅇ -12022
▁ㄱㅏㄴㄷㅏㅁ -12023
iri -12024
▁LB -12025
▁ㅇㅣㄹㄱㅡ -12026
▁ㅂㅜㄴㄷㅏㅇㅅㅓㄴ -12027
by -12028
▁Her -12029
▁802 -12030
▁1929 -12031
▁ㄴㅗㅇㅅㅓㅇ -12032
▁ㅅㅜㄴㅇㅑㅇ -12033
▁ㅂㅏㅇㅎㅑㅇㅋㅣ -12034
WAR -12035
ㅁㅠㄹㄹㅓ -12036
ㄴㅛㅇ -12037
▁ㄹㅓㅅ -12038
▁es -12039
▁ㅎㅏㄱㄱㅜㄴ -12040
▁ㅊㅣㄴㅅㅜㄱ -12041
enn -12042
▁ACT -12043
▁Secret -12044
▁ㅁㅗㄱㄷㅗ -12045
ㄹㅓㄴㄱㅏ -12046
▁ㅅㅣㄴㅇㅖ -12047
▁ㅁㅏㄴㅇㅕㄴ -12048
▁GIT -12049
ㄷㅓㅇㅇㅓ -12050
▁TECHN -12051
▁1925 -12052
▁ㄱㅏㄹㄱㅜㅁ -12053
▁ㅅㅓㅇㄷㅏㄴ -12054
▁ㅇㅕㄴㅎㅏㅂㄱㅜㄱ -12055
VEN -12056
▁ㅊㅏㅇㅂㅓㅂ -12057
▁ㅊㅗㄴㅈㅏㅇ -12058
▁ㅅㅐㅇㅁㅗㄹㄴㅕㄴ -12059
ㅈㅣㄴㄱㅣ -12060
▁ㅇㅡㄴㅊㅗㅇ -12061
▁ㅂㅏㄱㅅㅓㄱㅁㅣㄴ -12062
ㅅㅣㅂㅈㅏ -12063
▁ㅂㅐㄱㅂㅕㅇㅈㅓㄴ -12064
LY -12065
als -12066
xt -12067
▁Kar -12068
▁NCT -12069
▁Gh -12070
▁248 -12071
▁take -12072
▁ㅅㅡㅇㅈㅗ -12073
▁Knight -12074
▁MI -12075
ㅇㅘㄹ -12076
▁into -12077
▁ㅂㅗㄱㅅㅓ -12078
▁ㅇㅠㄱㅇㅏ -12079
▁ㅅㅓㄴㅈㅓㅁ -12080
▁ㅍㅏㄱㅍㅏㄱ -12081
▁ㅌㅗㅇㅇㅕㅇ -12082
▁ZZ -12083
▁ㄱㅏㅈㅊㅝㅆ -12084
▁ㅂㅜㄴㄷㅏㅁ -12085
▁ㅇㅜㅇㅈㅏㅇ -12086
▁ㅂㅏㄱㅊㅏㄴㅎㅗ -12087
▁OC -12088
▁VI -12089
ㅎㅏㅇㅈㅓㄴ -12090
▁ㅁㅐㄴㅅㅗㄴ -12091
▁ㅅㅏㅁㅊㅗㅇㅅㅏ -12092
▁GITAD -12093
▁ㅂㅕㅇㅍㅜㅇ -12094
▁ㅇㅘㅆㅇㅓㅆ -12095
▁ㅂㅜㄹㅅㅏㅇㅅㅏ -12096
▁LM -12097
▁ㄸㅓㄱㅂㅗㄲㅇㅣ -12098
ㅂㅣㅁ -12099
▁jpg -12100
ember -12101
▁580 -12102
razy -12103
▁Bro -12104
ㅈㅓㄴㄷㅐ -12105
▁SDRAM -12106
▁ㄱㅜㅁ -12107
▁ㅈㅣㄱㅁㅕㄴ -12108
ㅂㅣㄴㅅㅡㄴ -12109
ㅎㅕㄴㅈㅜㄴ -12110
▁NR -12111
▁ㅇㅑㅇㅊㅓㄴ -12112
▁ROX -12113
ㄷㅡㄹㄹㅓ -12114
▁ㄷㅏㄴㅅㅜ -12115
▁ㅇㅡㅇㅎㅏ -12116
ㄷㅗㄹㄹㅣㅁ -12117
ㅅㅓㅇㅇㅜㄱ -12118
▁ㅂㅗㄹㄹㅣㅇ -12119
ㅎㅏㄱㅅㅐㅇㅎㅚ -12120
ㅘㄴ -12121
ㄱㅗㅅㅈㅓ -12122
▁ㅌㅗㅇㄱㅡㄴ -12123
▁625 -12124
ㅇㅏㄹㄹㅏ -12125
ㄷㅗㅁ -12126
ㅇㅗㄹㅈㅣ -12127
▁303 -12128
GP -12129
ㅅㅣㄴㅈㅓㄴㅅㅐㅇ -12130
ㅊㅏㅇㅎㅗ -12131
▁ㄱㅣㅁㅂㅗㅇ -12132
▁ㅁㅕㄴㄷㅏㅁ -12133
ugh -12134
▁VP -12135
AKA -12136
▁ㅁㅣㄹㅋㅡ -12137
▁ㅈㅜㄹㅈㅣ -12138
▁Cortex -12139
▁ㅅㅣㄴㅇㅕㅇ -12140
▁ㄱㅓㄴㄷㅐ -12141
▁ㅂㅏㄹㅂㅓ -12142
▁LPDDR -12143
▁ㄱㅘㄴㄴㅐ -12144
▁ㅅㅜㅁㄱㅣㄴ -12145
▁ㅎㅓㄴㅂㅕㅇ -12146
▁ㄱㅏㅇㅈㅘ -12147
▁ㅂㅓㄴㅇㅚ -12148
▁ㅌㅗㄱㅌㅗㄱㅎㅣ -12149
▁ㅁㅗㄱㄱㅕㄱㅈㅏ -12150
ㅂㅔㄴㅈㅣ -12151
▁Hello -12152
▁Gener -12153
▁ㅅㅗㅇㄹㅏ -12154
▁ㅈㅔㄴㄷㅓ -12155
▁ㄱㅣㅁㅁㅜㄴ -12156
▁ㅂㅣㄴㄱㅗㄴ -12157
▁ㄱㅣㅁㅅㅓㅇㅎㅕㄴ -12158
isode -12159
ㄱㅡㅂㅎㅣ -12160
ㅌㅗㅇㅂㅜ -12161
▁ㅂㅓㅅㄱㅣ -12162
▁ㄱㅣㅁㅎㅏㄱ -12163
▁ㄲㅡㄶㄱㅕㅆ -12164
▁ㅁㅏㅇㅇㅓㄴ -12165
▁ㄱㅕㄹㅈㅓㅇㅌㅏ -12166
▁ㄹㅜㄹㄹㅜ -12167
▁ㅎㅗㅁㅍㅡㄹㄹㅓ -12168
▁MOV -12169
ㅋㅓㄹㄹㅣ -12170
▁ㅂㅡㄹㄹㅐㅇㅋㅡ -12171
▁ㅈㅜㅇㅇㅏㅇㅇㅏ -12172
▁ㅂㅏㅇㅁㅏㅇㅇㅣ -12173
▁ㅇㅏㅇㅅㅏㅇㅂㅡㄹ -12174
▁long -12175
▁ㄱㅣㅁㄱㅏㅇ -12176
ied -12177
ㅃㅜㄴ -12178
▁ㄱㅕㅇㅂㅗㄱ -12179
▁ㅍㅣㅂ -12180
ㄱㅡㅁㅈㅔ -12181
▁ㄷㅗㄱㅈㅜ -12182
▁ㅅㅓㄴㅅㅜㄹ -12183
▁Days -12184
▁Stand -12185
▁ㅎㅣㄴㄷㅜ -12186
▁ㄱㅗㄹㅁㅜㄴ -12187
▁ㄷㅜㅇㄱㅡㄴ -12188
ether -12189
▁sl -12190
reet -12191
ㅈㅏㄱㅁㅜㄹ -12192
▁ㄱㅝㄴㅅㅗㄱ -12193
▁ㅇㅣㄹㅅㅣㄱ -12194
▁ㅊㅓㄴㅅㅓㅇ -12195
▁ㅈㅜㅇㅇㅏㅇㅇㅣㄹㅂㅗ -12196
ㅋㅟㄴ -12197
▁ㄷㅗㄹㄹㅣㄴㄷㅏ -12198
▁ㅊㅗㅇㅎㅏㄱㅅㅐㅇㅎㅚ -12199
▁ㅈㅣㄴㅎㅗㅇ -12200
▁Fil -12201
▁ㅂㅓㄴㅎㅘ -12202
ㄷㅗㄹㄹㅣㄹ -12203
REAM -12204
ㅌㅡㄱㄱㅣ -12205
▁ㅈㅓㅁㅈㅏㅇ -12206
▁ㅈㅡㅇㅈㅣㄴ -12207
▁247 -12208
▁stay -12209
▁Trans -12210
▁Normal -12211
▁ㅅㅓㅇㅁㅐ -12212
▁ㅍㅏㄴㄷㅗㄱ -12213
uction -12214
▁ㅍㅐㅇㅊㅏㅇ -12215
▁GITADORA -12216
▁ㄷㅗㅇㅂㅏㅇㅅㅣㄴㄱㅣ -12217
▁ㄷㅏㅁㅂㅗ -12218
▁ㅂㅜㄴㅍㅏ -12219
▁ㅈㅓㄴㅅㅗ -12220
irc -12221
▁ㅇㅑㄱㅊㅗ -12222
▁ㄱㅏㅁㅁㅕㅇ -12223
▁ㅈㅓㅇㅅㅣㄴㅈㅜㄹ -12224
▁ㄹㅣㄴㅅㅡ -12225
ㅇㅇㅏ -12226
ㄱㅜㅈ -12227
▁306 -12228
▁ㅎㅏㄴㄴㅣ -12229
▁ㄱㅜㅇㅇㅖ -12230
▁ㄱㅣㅁㅇㅡㅇ -12231
▁ㅇㅓㅄㅇㅐㄹ -12232
▁Eur -12233
▁INT -12234
atter -12235
ㅇㅜㅅㅅㅏ -12236
▁ㅈㅓㄴㄷㅗㅇ -12237
ience -12238
▁ㅇㅕㄱㅇㅣ -12239
▁ㄱㅘㄴㅎㅕㄴ -12240
▁ㅇㅕㄴㅈㅏㅇㅈㅏ -12241
▁ㄱㅕㅂㅊㅣㄴㄷㅏ -12242
ㅆㅡㄹㅇㅣ -12243
ㄱㅡㅁㄲㅓㅅ -12244
▁ㅇㅘㄴㄱㅡㅂ -12245
▁ㄷㅏㄴㄱㅕㄹ -12246
▁ㅇㅓㄱㄴㅜ -12247
ㅅㅣㄱㅈㅣ -12248
▁ㅈㅗㅇㅎㅚ -12249
▁ㄱㅣㄹㄷㅡㄹㅇㅣ -12250
▁game -12251
▁ㅅㅜㄴㅎㅘ -12252
▁ㅇㅕㄴㅇㅓ -12253
▁ㄱㅜㄴㅍㅗ -12254
ㄹㅡㄴㅂㅏㄹ -12255
▁ㅁㅏㄴㅅㅓㅇ -12256
▁ㅂㅣㅇㄱㅡ -12257
▁ㅍㅣㄱㅅㅕㄴ -12258
esh -12259
▁Jack -12260
▁ㅅㅣㄹㅅㅔ -12261
ella -12262
▁Cup -12263
▁ㅇㅐㅅ -12264
ㄹㅜㄱㅅㅡ -12265
▁North -12266
ㅎㅓㅁㅈㅏㅇ -12267
▁ㅌㅏㄹㅇㅕㅇ -12268
ka -12269
▁ㅇㅕㄱㅂㅜ -12270
▁ㅅㅓㅇㅂㅜㄹ -12271
▁color -12272
▁ㅈㅣㅇㅍㅛ -12273
▁ㅈㅓㅇㅍㅜㅁ -12274
▁239 -12275
▁ㅎㅜㄴㄹㅕㄴㅈㅏㅇ -12276
ㅅㅗㅌ -12277
▁ㅂㅐㄱㅂㅏㄹ -12278
48 -12279
ince -12280
▁Ins -12281
▁ㅃㅓㄱ -12282
ㄸㅜㄹㅇㅓ -12283
▁xC -12284
▁ㄹㅔㄴㄷㅓ -12285
▁ㅇㅑㅇㄴㅏㄹ -12286
▁ㅎㅘㄴㅅㅏㅇㅎㅑㅇ -12287
▁470 -12288
▁Only -12289
ㅂㅏㅇㄷㅗ -12290
ㅈㅓㄹㄹㅗ -12291
▁ㅇㅏㄴㅈㅣ -12292
ㅅㅓㅇㅎㅑㅇ -12293
▁GU -12294
ㄲㅓㄹ -12295
▁1926 -12296
▁ㅇㅑㅇㅈㅓㅇ -12297
▁ㅂㅕㄹㅈㅏㅇ -12298
▁ㅂㅏㄱㅇㅛㅇㅌㅐㄱ -12299
▁AH -12300
icon -12301
▁ㅂㅓㄴㅈㅏㄱ -12302
▁ㅈㅓㄴㄷㅏㄴ -12303
ㄷㅏㄹㅇㅡㅁ -12304
▁Direct -12305
▁ㄹㅏㅇㄱㅡ -12306
▁ㅅㅗㄴㅈㅏㅂ -12307
▁ㅈㅓㅂㅎㅏㄹ -12308
ㅅㅔㅂㅌㅣ -12309
▁ㅈㅓㄱㅇㅢ -12310
▁ㅈㅓㅇㅌㅐ -12311
ㅊㅜㄹㄹㅕㄱ -12312
▁ㄴㅗㅍㅇㅣㄹ -12313
▁ㅍㅜㅇㅅㅡㅂ -12314
ㅇㅏㅁㄹㅣ -12315
▁ㄴㅗㄴㅎㅏ -12316
▁ㅍㅗㄱㄹㅏㄱ -12317
▁STAGE -12318
▁ㅎㅏㄴㄱㅣ -12319
ㅇㅛㅇㅇㅓㅄ -12320
▁ㄱㅜㄹㄹㅣㄹ -12321
▁ㅊㅐㅇㄱㅣㄹ -12322
▁1080 -12323
▁ㅇㅘㄴㅌㅜ -12324
▁ㅅㅗㄱㅊㅣㅇ -12325
▁ㅇㅕㄹㄷㅡㅇㄱㅏㅁ -12326
ㄱㅏㅇㄷㅐ -12327
▁ㄱㅣㅁㄱㅠ -12328
▁ㄲㅡㄶㄱㅕ -12329
▁ㅁㅣㄴㅁㅏㅇ -12330
▁ㅈㅏㅂㄷㅏㅁ -12331
ㅂㅓㅁㅅㅜ -12332
▁ㅍㅔㄴㅌㅏ -12333
▁ㅍㅕㅁㅎㅏ -12334
▁rev -12335
▁ㅅㅜㄹㅈㅏ -12336
▁TC -12337
▁bet -12338
ㅅㅓㄴㅈㅓㄴ -12339
▁look -12340
▁ㄴㅏㅁㅅㅐㄱ -12341
▁ser -12342
▁ㅎㅏㅁㅇㅣㄴ -12343
▁ㄲㅡㅌㅁㅏ -12344
▁Ice -12345
▁Mach -12346
▁ㅈㅓㄱㅈㅏㄶ -12347
ㄱㅣㅁㅇㅓㅄㅇㅣ -12348
▁Gra -12349
afe -12350
▁ㅇㅔㅇ -12351
▁1924 -12352
▁think -12353
▁ㄴㅏㅁㄱㅜㅇ -12354
▁ㅂㅏㄴㅊㅏㄴ -12355
▁Burst -12356
▁ㅇㅕㄴㅁㅜ -12357
▁ㅇㅣㄹㅂㅕㅇ -12358
▁ㅍㅕㄹㅊㅣㄹ -12359
ㄱㅡㄱㄱㅣ -12360
▁ㅂㅗㅇㅈㅣ -12361
▁308 -12362
▁ㄷㅏㅁㅈㅏㅇ -12363
ㅇㅟㄱ -12364
uman -12365
ㄷㅐㄴㄷㅏ -12366
▁Som -12367
▁ㅎㅐㅁㅅㅡ -12368
ㄹㅐㄴㄷㅡㄴ -12369
▁ㅌㅡㄱㅂㅕㄹㅈㅏ -12370
▁ㅅㅐㄱㄱㅣ -12371
▁ㅂㅕㄴㅎㅏㄹ -12372
▁ㅊㅜㄱㅊㅜㄹ -12373
▁ㄹㅡㅁ -12374
▁ㄱㅗㅇㅅㅗ -12375
▁ㄴㅏㅁㅎㅐ -12376
▁ㅅㅗㄹㄹㅓ -12377
▁ㅇㅣㄹㅊㅣㅁ -12378
▁ㅇㅕㅁㄹㅏ -12379
mas -12380
▁WA -12381
ㅋㅡㄹㄹㅗ -12382
▁ㅂㅜㄴㅌㅜ -12383
ㄹㅡㅁㄱㅏㅄ -12384
▁ㅅㅜㅁㅌㅗㅇ -12385
ㅁㅣㄴㅇㅜ -12386
▁ㅁㅓㄱㅇㅣㄴ -12387
▁ㅅㅡㅇㅅㅓㄴ -12388
▁ㅈㅏㅇㅈㅣㄴ -12389
▁ㅈㅓㄴㅅㅏㄴㅁㅏㅇ -12390
ㅇㅣㅁㅅㅐ -12391
▁ㄱㅜㄴㅈㅏㅇ -12392
▁SHD -12393
ㅅㅔㄴㅌㅓ -12394
▁ㅍㅜㅇㅁㅣ -12395
▁ㅎㅏㄴㅅㅜㄹ -12396
ELL -12397
▁iP -12398
▁ㅅㅑㄹㄹㅓ -12399
▁ㄷㅣㅁ -12400
ㄹㅏㅇㅋㅗ -12401
▁Intern -12402
▁ㅁㅣㄴㅅㅏ -12403
ㅍㅜㅅ -12404
▁ㅎㅐㄴㄷㅣ -12405
▁ㄴㅗㅅ -12406
ㅅㄱㅏㅁ -12407
▁PPV -12408
▁ㅅㅜㄴㅂㅓㄴ -12409
▁ㅈㅣㄱㄹㅕㄹ -12410
emy -12411
▁ㄴㅏㄱㅌㅐ -12412
▁-. -12413
ㅊㅏㅁㅎㅣ -12414
▁ㅅㅗㄴㅈㅣㄹ -12415
▁ㅅㅐㄹ -12416
▁ㅇㅝㄴㄷㅗㅇㄹㅕㄱ -12417
▁262 -12418
▁ㄱㅏㅇㅎㅢ -12419
▁ㅎㅡㄹㄹㅣㄴㄷㅏ -12420
▁ㄱㅏㅇㅅㅣ -12421
▁ㅌㅡㄱㅁㅜ -12422
▁ㄱㅡㄱㅁㅕㅇ -12423
ㅁㅣㅇㄱㅗ -12424
▁980 -12425
▁ㅎㅕㄹㅇㅕㄴ -12426
IKA -12427
▁ㄷㅟㅅㅁㅗ -12428
▁ㅈㅣㄱㅅㅏ -12429
ㅎㅘㅇㅊㅓㅇ -12430
ald -12431
▁USS -12432
▁241 -12433
▁MiG -12434
▁ㅅㅗㄹㅌㅡ -12435
▁ㄴㅗㄹㄹㅏㄹ -12436
ANCE -12437
▁ㄱㅡㅁㅅㅜ -12438
ㄱㅜㄴㅂㅜㄴㅌㅜ -12439
▁ㄲㅡㄴㄷㅏ -12440
ㄷㅗㄹㄹㅣㄴ -12441
▁ed -12442
▁ㅋㅏㅂ -12443
▁ㅌㅡㄱㄱㅓㅁ -12444
▁Ha -12445
ㅅㅏㄹㅍㅛ -12446
▁ㄱㅜㄱㅇㅚ -12447
▁ㅇㅣㄹㄱㅓ -12448
▁ㄷㅗㅇㅁㅐㅇㄱㅜㄱ -12449
ㄴㅕㅆㅇㅡ -12450
ㅂㅣㄹㄹㅏ -12451
▁ㅇㅝㄴㅂㅏㄴ -12452
▁ㅈㅏㅁㅈㅓㄱ -12453
▁ㄱㅗㅇㅍㅏㄴ -12454
▁ㅇㅣㅂㅅㅓㄱ -12455
▁ㅈㅏㄹㄹㅕㅆ -12456
ㅌㅗㅇㄹㅕㅇㄹㅕㅇ -12457
▁ㅂㅜㄹㅅㅣ -12458
▁IR -12459
▁KGC -12460
ology -12461
▁ㄹㅕㅁㄱㅜ -12462
▁ㅍㅕㄴㅍㅏ -12463
▁ㅂㅓㄹㅈㅣㅂ -12464
ㄴㅗㄹㄷㅡ -12465
ㅂㅡㄹㄹㅓ -12466
ㄱㅗㅇㅇㅝㄴ -12467
▁ㅅㅜㄱㅈㅗㅇ -12468
▁ㅇㅏㄴㅊㅏㄱ -12469
▁ㅎㅐㄴㄷㅡㄹㄹㅣㅇ -12470
▁ㅎㅐㅇㅈㅓㅇㄷㅗㅇ -12471
URE -12472
ㅅㅓㄹㅍㅡㄴ -12473
▁ㅈㅓㄹㅍㅏㄴ -12474
ids -12475
▁ㅅㅡㄹㄱㅣ -12476
▁ㅈㅜㅇㄴㅏㅁ -12477
▁ㄱㅣㅁㄷㅗㅇㅎㅕㄴ -12478
▁ㄱㅜㄴㅁㅜ -12479
▁ㄱㅣㄴㅌㅗ -12480
▁ㅂㅏㄴㄱㅏㅂ -12481
▁ㅂㅏㄹㅈㅣㄴ -12482
▁HA -12483
▁ㅈㅏㅁㅈㅏㅁ -12484
ORPG -12485
▁ㅇㅣㄴㅁㅣㄴㄱㅜㄴ -12486
aph -12487
▁DEX -12488
ㄱㅐㅅㅅㅗ -12489
▁ㄱㅕㅇㅇㅡㅁ -12490
▁ㅊㅜㅇㄷㅏㅇ -12491
▁ㅍㅣㄹㅁㅕㄹ -12492
ㅊㅕㅆㅇㅡ -12493
▁Winter -12494
▁ㅈㅗㅇㅇㅓㅂ -12495
▁ㅆㅣㄹ -12496
▁ㅌㅏㄴㅍㅣ -12497
▁ㄷㅗㅇㅂㅗㄱ -12498
▁ㅆㅏㄱㅆㅡㄹㅇㅣ -12499
▁304 -12500
▁ㅅㅣㄴㅎㅗㄴ -12501
ARK -12502
uth -12503
▁music -12504
▁ㄴㅏㄱㅌㅏ -12505
▁ㅇㅗㄹㅃㅐ -12506
▁ㅂㅣㅇㅎㅏ -12507
▁ㅅㅓㄴㅊㅏㄱ -12508
ates -12509
ㅇㅑㄱㅍㅜㅁ -12510
ㅁㅏㅎ -12511
ㅅㅡㅇㄱㅣ -12512
▁ㄸㅏㅆ -12513
ㅎㅏㄴㅈㅔ -12514
▁ㅎㅏㄴㄱㅕ -12515
▁680 -12516
▁ㄴㅗㄱㅇㅣ -12517
▁ㅇㅝㄴㅌㅜ -12518
▁ㅊㅓㄴㅊㅏ -12519
WA -12520
INK -12521
ㄱㅜㄱㅅㅜ -12522
▁ㅂㅗㄴㅇㅓㅂ -12523
▁ㅇㅏㄴㄱㅓㄴ -12524
▁ㅈㅣㄱㅅㅓㄹ -12525
▁ㅅㅣㄴㅊㅓㄴㅈㅣ -12526
▁ㅅㅣㅁㄷㅗ -12527
ㄷㅏㅁㄱㅏㅁ -12528
ㅈㅓㄴㅇㅕㄱ -12529
OLD -12530
▁ㄴㅓㄳ -12531
▁talent -12532
▁ㅈㅏㅇㄹㅕ -12533
▁ㅂㅜㅇㅇㅓ -12534
▁ㄹㅔㅇ -12535
▁NATO -12536
▁ㅂㅏㄹㄱㅣ -12537
▁ㅇㅛㅇㄹㅖ -12538
▁ㅇㅘㅅㅅㅡㄴ -12539
▁311 -12540
▁ㅇㅓㄺㅎㅕ -12541
▁ㅊㅣㄴㅂㅜ -12542
ㄷㅗㅇㅎㅏㄴ -12543
▁ㅁㅐㄴㅁㅗㅁ -12544
▁ㅇㅕㄹㅍㅗㄱ -12545
oph -12546
▁Die -12547
▁ㄲㅜㅇ -12548
▁ㄱㅏㅇㄱㅣ -12549
▁ㅌㅏㄹㅂㅏ -12550
▁253 -12551
ㅇㅠㄱㅂㅗㄱ -12552
▁ㅅㅓㅇㅈㅏ -12553
▁ㅁㅏㅅㅈㅣㅂ -12554
▁ㅌㅖㄴ -12555
ㅍㅓㄴ -12556
▁MOD -12557
▁ㅈㅓㅇㅎㅏㄹ -12558
▁ㄱㅡㄹㄹㅔ -12559
▁ㅇㅕㄴㅎㅠ -12560
▁ㅂㅣㅇㅂㅣㅇ -12561
▁630 -12562
ㅇㅑㅇㄱㅖ -12563
▁ㄱㅣㄹㄹㅣ -12564
▁ㄱㅜㄴㅊㅓㅇ -12565
67 -12566
▁ㅇㅐㄱㅈㅏ -12567
▁ㄱㅡㅂㅈㅣㄴ -12568
▁ㅁㅏㄹㅆㅓㅇ -12569
▁ㅇㅕㄴㅎㅏㅂㅎㅚ -12570
▁002 -12571
▁ㄱㅓㄴㄴㅓㄹ -12572
▁ㄹㅔㄹㄹㅡㅁ -12573
▁ㅅㅑㄹㄹㅓㅅ -12574
▁ㅇㅕㄱㅅㅜㄴ -12575
tus -12576
▁Cur -12577
▁ㅊㅣㄹㄷㅡ -12578
▁ㅇㅏㄹㄹㅣㄴㄷㅏ -12579
▁302 -12580
ㄴㅑㅇㄱㅐ -12581
▁ㄷㅏㅇㅈㅣㄴ -12582
ㅅㅏㅇㅎㅜㄴ -12583
▁ㅁㅏㄹㄹㅣㄴ -12584
▁ㅌㅏㄹㅁㅗ -12585
ㅈㅣㄴㅊㅏㅇ -12586
ㄱㅜㅂ -12587
▁ㅅㅐㅁㅍㅡㄹㄹㅣㅇ -12588
▁Pan -12589
ㄱㅐㄱㄱㅣ -12590
▁ㅇㅏㄱㄷㅏㄴ -12591
▁ㅅㅐㄴㅈㅡ -12592
▁ㄱㅗㅇㅅㅗㄴㅊㅏㄴ -12593
▁HL -12594
ㅁㅜㅁ -12595
ㄹㅏㄱㅅㅔ -12596
▁ㅇㅕㄱㄷㅗ -12597
▁ㅎㅘㄴㄱㅣ -12598
▁LF -12599
▁ㅇㅣㄴㄷㅐ -12600
▁ㅂㅏㄴㅇㅕㄱㅈㅏ -12601
▁ㄱㅗㅇㅅㅣㄱㅈㅓㄴ -12602
▁ㅂㅣㄴㅈㅏ -12603
▁fff -12604
▁ㄲㅏㄲㅇㅣㄴ -12605
ㅇㅡㅁㄱㅏ -12606
ㅇㅗㄹㄹㅣㄹ -12607
▁ㅍㅏㅂㅋㅗㄴ -12608
▁ㅁㅏㅌㄱㅣㄴㄷㅏ -12609
▁ㅂㅕㄹㅂㅏㄴ -12610
▁ㅅㅗㄴㄱㅕㄴ -12611
▁ㅈㅜㅇㅈㅓㄴ -12612
▁ㅅㅐㅇㅎㅘㄹㄱㅘㄴ -12613
iki -12614
▁Sports -12615
▁ㅁㅓㅁㅊㅜㄴ -12616
▁Network -12617
▁ㅇㅑㅇㄱㅏㄱ -12618
▁ㅇㅓㅇㅁㅏㅇㅈㅣㄴㅊㅏㅇ -12619
▁ㅂㅏㄱㅎㅏ -12620
▁ㅈㅓㄱㄴㅏ -12621
▁ㅇㅗㄹㄹㅏㅆㅇㅡ -12622
▁ㅈㅏㅇㅊㅏㅇ -12623
▁ㅍㅡㄹㄹㅣㄱ -12624
▁CLG -12625
▁ㅇㅣㄴㅇㅟ -12626
▁ㅍㅏㄹㄹㅣㄴ -12627
▁ㅅㅓㄷㅂㅜㄹㄹㅣ -12628
▁ㅅㅓㄴㄷㅗㅇㅇㅕㄹ -12629
ㅈㅏㄶㅇㅏ -12630
▁ㅂㅕㅇㅇㅡㅁ -12631
▁ㅋㅓㅁㅍㅡㄹㄹㅔㄱㅅㅡ -12632
▁Inc -12633
▁ㅊㅗㅇㅁㅜ -12634
▁ㄱㅜㄴㅇㅛㅇ -12635
▁ㅈㅏㄴㅅㅏㅇ -12636
▁ㅊㅣㄹㄱㅗㄱ -12637
▁ㅇㅜㄹㅌㅏ -12638
▁After -12639
▁SNH -12640
ㅅㅏㅇㅇㅜ -12641
▁ㄱㅡㅁㅅㅏㅇ -12642
▁ㅂㅜㄴㅂㅣ -12643
▁ㅊㅗㄱㅎㅏㄴ -12644
▁ㅂㅗㄴㅅㅣㅁ -12645
tor -12646
▁ㅎㅘㄹㄹㅗ -12647
ㅅㅡㅇㅇㅝㄴ -12648
▁ㅊㅏㄱㅌㅏㄴ -12649
ㅇㅖㄴ -12650
▁ㄷㅡㅇㄷㅐ -12651
ki -12652
bit -12653
▁ㅌㅓㅅ -12654
ㅍㅏㄹㄱㅜ -12655
▁ㅂㅏㅇㅈㅓㄴ -12656
▁ㅈㅓㅇㅇㅗ -12657
ures -12658
▁ㅁㅗㄱㅅㅓㅇ -12659
ㅊㅞ -12660
▁ㅅㅏㄴㄹㅣㅁ -12661
▁ㅁㅐㅇㅈㅏㅇ -12662
ㅇㅣㄹㅂㅣ -12663
▁ㅅㅣㅂㅈㅜㅇ -12664
▁760 -12665
▁ㅅㅜㄷ -12666
ㄴㅕㅁㄱㅘㄴ -12667
▁ㅁㅏㅌㄱㅣㄴ -12668
▁ㅅㅗㄴㅅㅐㄱ -12669
▁ㅇㅗㄻㄱㅣㄹ -12670
▁ㅅㅣㅂㅈㅜㅇㅍㅏㄹㄱㅜ -12671
▁ㅇㅕㅆㅇㅡㅁㅇㅡㄹ -12672
ㅂㅏㄹㅈㅓㅁ -12673
ks -12674
▁away -12675
▁IZ -12676
ㄱㅡㄹㄹㅣ -12677
▁ㅎㅏㄴㅂㅏ -12678
▁ㅇㅑㅇㅂㅗㄱ -12679
▁ㅈㅏㅇㅇㅠㄴ -12680
za -12681
ㅂㅐㅇㅇㅣ -12682
▁ㅁㅕㄹㅅㅣ -12683
ㅂㅏㄴㅉㅏㄱ -12684
ㄴㅏㄴㅎㅐ -12685
▁dream -12686
▁ㅂㅏㄺㅎㅕㅆㅇㅡ -12687
▁ㅂㅏㄴㅉㅏㄱㅂㅏㄴㅉㅏㄱ -12688
▁ㄱㅑㅇ -12689
ami -12690
▁ㅋㅔㅁ -12691
▁ㅂㅏㅇㅋㅗㄱ -12692
ㄷㅗㅇㅅㅗ -12693
▁ㅅㅣㄹㅋㅡ -12694
▁ㅉㅏㄼㅇㅏ -12695
▁ㅊㅏㅁㅎㅗ -12696
▁ㄱㅣㅁㅇㅕㄴㅇㅏ -12697
lin -12698
▁ㅌㅣㅁㅇㅝ -12699
▁USA -12700
ㄹㅡㅂㄴㅣ -12701
▁ㅎㅘㅇㄱㅣ -12702
▁ㅈㅣㄱㄱㅡㅂ -12703
▁Reg -12704
▁ㅍㅜㅇㅅㅣㄴ -12705
▁ㅂㅜㅌㅈㅏㅂㅎㅣㄴ -12706
▁Spir -12707
▁ㅁㅣㄹㄹㅣㅁ -12708
▁Lost -12709
uh -12710
▁ㅈㅓㄴㄹㅠㄴ -12711
▁ㅈㅣㄹㄹㅣㄴ -12712
▁ㅈㅗㅇㅍㅏ -12713
▁House -12714
▁ㅁㅕㅇㅁㅐㄱ -12715
▁ㅊㅜㅇㅅㅣㄹㅎㅏ -12716
▁GF -12717
▁ㅂㅗㄱㅅㅜㅇㅇㅏ -12718
▁ㅇㅓㅁㅎㅗ -12719
▁ㅎㅏㄱㅅㅣㄹ -12720
▁ㅅㅟㄴ -12721
▁ㄱㅝㄴㅅㅜ -12722
▁ㅇㅠㄱㅌㅏㄴ -12723
▁NCR -12724
▁ㅅㅡㅇㅅㅜ -12725
ㄱㅓㄴㅊㅏㅇ -12726
▁Roy -12727
ㅍㅔㄴㄷㅓ -12728
▁ㅊㅏㄱㅅㅣ -12729
ㅈㅣㄹㄱㅏㅁ -12730
▁ㅇㅏㄴㄹㅏㄱ -12731
▁RES -12732
▁ㅉㅣㅂ -12733
ㅅㅣㄴㅈㅓ -12734
▁ㅇㅛㅇㅅㅣ -12735
unch -12736
▁ㅇㅏㄱㄴㅕ -12737
▁ㄲㅝ -12738
ㅅㅣㅂㄹㅣ -12739
▁ㅇㅝㄹㅌㅡ -12740
▁Kiss -12741
▁Again -12742
▁ㄱㅕㄱㅂㅏㄹ -12743
▁ㄷㅜㄴㄱㅏㅂ -12744
▁ㅂㅏㄹㅈㅜ -12745
▁ㅇㅡㅁㅈㅓㄹ -12746
▁ㅊㅜㅇㅅㅣㄴ -12747
▁ㅅㅗㄱㅅㅏㄱㅇㅣㅁ -12748
▁TL -12749
▁ㄱㅗㄹㅁㅓ -12750
▁ㅂㅓㄴㅇㅕㄱㅂㅗㄴ -12751
▁LPL -12752
GO -12753
▁blue -12754
▁005 -12755
▁ㅇㅝㄴㅊㅔ -12756
▁him -12757
▁2100 -12758
▁rem -12759
▁Inter -12760
▁ㄷㅏㄴㅊㅜ -12761
▁ㅇㅝㄴㄴㅏ -12762
▁TA -12763
▁Dig -12764
▁ㅂㅏㄹㅅㅓㅇ -12765
▁ㅅㅏㄹㄹㅣㅁ -12766
▁ㅇㅕㅇㄹㅕㄱ -12767
▁ㄱㅘㅇㅅㅣㄴㄷㅗ -12768
ato -12769
ㅅㅑㅂ -12770
va -12771
▁ㅂㅗㅁㅇㅣ -12772
YS -12773
▁QS -12774
▁RGB -12775
▁ㅅㅟㅁ -12776
▁ㅅㅛㄹ -12777
▁ㅇㅗㄴㄹㅣ -12778
ㅌㅡㄱㅂㅕㄹㅈㅏ -12779
▁ㄴㅏㅁㄷㅐ -12780
▁ㅊㅓㅇㄱㅏㄱ -12781
▁555 -12782
▁ㅆㅏㅇㅂㅏㅇㅇㅜㄹ -12783
▁ㅅㅣㄴㅊㅏ -12784
▁ㅇㅐㅁㅍㅡ -12785
ething -12786
▁MOM -12787
▁SPEC -12788
▁ㄲㅏㄲㅇㅕ -12789
▁ㅁㅗㄱㅈㅗ -12790
▁ㅅㅣㄴㅂㅕㄴ -12791
▁Wol -12792
▁ㅊㅣㅁㅂㅓㅁ -12793
▁%] -12794
▁080 -12795
▁FINAL -12796
▁ㄱㅣㅁㅁㅣ -12797
▁ㅁㅣㄹㅊㅣ -12798
▁ㅈㅣㄹㅌㅏ -12799
▁Fun -12800
ㅈㅓㅇㄱㅠ -12801
ㅍㅣㅂ -12802
▁mod -12803
▁ㅊㅜㄹㅅㅗ -12804
ㅋㅜㄹㄹㅜ -12805
▁light -12806
▁ㅈㅓㅇㅅㅏㄴ -12807
▁ㅇㅓㄴㄹㅗㄴㅇㅣㄴ -12808
▁ㄱㅡㄹㄹㅔㄴ -12809
▁ㅅㅣㄴㅇㅡㅁ -12810
▁Why -12811
ㄱㅕㅇㅇㅜ -12812
▁ㅅㅡㅇㅁㅏ -12813
▁ㅇㅕㄹㄱㅏㅇ -12814
▁ㅇㅜㄹㅅㅏㄴㄱㅘㅇㅇㅕㄱㅅㅣ -12815
QU -12816
▁Dan -12817
▁display -12818
▁ㄲㅡㅀㅇㅕ -12819
▁ㅂㅏㄹㄱㅏ -12820
▁ㅅㅜㄱㅂㅜ -12821
▁ㅇㅝㄴㅅㅓ -12822
▁ㅎㅠㅇㅂㅜ -12823
ㅅㅓㅇㅈㅏㅇ -12824
▁ㄲㅏㅇㅌㅗㅇ -12825
ㅁㅗㄱㅁㅣㄴ -12826
▁ㅇㅕㄴㄱㅕㄱ -12827
▁ㅈㅏㅇㄷㅏㄴㅈㅓㅁ -12828
▁were -12829
▁ㅅㅗㄱㅁㅏ -12830
▁ㅍㅏㅅㅋㅐ -12831
▁ㄱㅗㅇㅎㅏㄱㅂㅜ -12832
▁ㅅㅐㅇㅅㅐㅇ -12833
WS -12834
▁ㄱㅗㅇㅂㅓㅁ -12835
ㅅㅓㅇㄷㅗㅇ -12836
▁Tim -12837
▁ㅎㅘㅇㄱㅜㅇ -12838
▁ㄴㅜㄴㅁㅐ -12839
▁ㄷㅏㄹㄹㅕㄱ -12840
▁ㅁㅕㅇㄹㅏㅇ -12841
▁ㅇㅓㄺㅎㅣ -12842
ㅈㅏㅇㅁㅕㄴ -12843
▁ㄷㅏㅁㄷㅏㅁ -12844
ㄸㅏㅇㅎㅣ -12845
▁ㄹㅣㄴㄴㅔ -12846
▁ㅇㅡㄹㄹㅐ -12847
ㅎㅐㅇㄷㅏㄴ -12848
▁ㄱㅜㄺㅈㅣㄱ -12849
▁ㅎㅏㅇㅈㅓㄴ -12850
▁stop -12851
▁ㅈㅓㅂㄷㅜ -12852
▁JB -12853
ㅉㅐㅆㄱㅓ -12854
▁vol -12855
▁Anim -12856
▁ㅋㅓㄹㅊㅓ -12857
▁2200 -12858
▁ㅁㅗㄹㅇㅣ -12859
▁sup -12860
▁ㄹㅐㄴㄷㅣㅇ -12861
▁ㅂㅓㄴㅇㅕㄱㄱㅏ -12862
▁ㅊㅓㄴㄴㅕㄴㄱㅣ -12863
▁ㄷㅓㅅㅂㅜㅌㅇㅕㅆ -12864
▁ㅇㅑㅇㅅㅔ -12865
▁ㄱㅏㄹㄹㅕㅆ -12866
pm -12867
▁ㅁㅓㄹㄹㅗㄱ -12868
▁ㅎㅕㄴㅈㅗㅇ -12869
▁Mo -12870
▁UK -12871
▁990 -12872
▁Dri -12873
▁ㄴㅡㅈㅊㅜ -12874
▁ㅅㅏㅇㅅㅓ -12875
ㅈㅓㄱㅎㅏㅂ -12876
▁ㄴㅏㄴㄱㅘㄴ -12877
ㄱㅐㄹ -12878
order -12879
▁They -12880
▁ㅅㅗㄱㅊㅗ -12881
▁Heaven -12882
TLE -12883
▁ㅂㅗㄴㅈㅓㅁ -12884
▁ㅇㅣㅂㅊㅏㄹ -12885
▁ㅊㅏㅁㅅㅣㄴ -12886
▁ㅊㅣㅁㄹㅑㄱㅈㅏ -12887
▁Cent -12888
▁ㅁㅏㅁㄷㅐ -12889
▁ㅅㅓㅇㅎㅘ -12890
ITY -12891
▁ㄲㅏㄹㄹㅣㄴ -12892
ury -12893
▁Wr -12894
▁ㄱㅡㄴㅅㅗ -12895
▁ㅅㅜㄴㅈㅗㅇ -12896
ㅋㅓㄱ -12897
▁ㅂㅏㅇㅎㅏㄴ -12898
▁ㅇㅡㅁㄷㅗㄱ -12899
ㅈㅓㅇㅈㅣ -12900
▁ㅅㅓㄱㄱㅏ -12901
▁ㅇㅏㄴㄱㅜ -12902
▁ㅅㅗㅇㅈㅓㅇ -12903
▁ㅇㅔㄹㄹㅔㄴ -12904
ㄴㅔㄱㅌㅡ -12905
ㅌㅐㄴㄹㅣ -12906
▁15000 -12907
▁ㅅㅗㄱㄱㅜㄱ -12908
iet -12909
▁ㅁㅗㄴㄷㅡ -12910
▁ㅂㅜㄹㅂㅣㅊ -12911
▁299 -12912
▁System -12913
▁TM -12914
▁ㅇㅖㄹ -12915
▁gl -12916
▁add -12917
▁ㅎㅏㅂㅅㅓㅇㅅㅜ -12918
▁ㄱㅜㄱㄱㅛ -12919
▁ㅇㅏㅍㅈㅏㅇㅅㅓ -12920
▁ㅎㅐㄱㅍㅗㄱㅌㅏㄴ -12921
aking -12922
▁ㅂㅜㄴㄷㅏㄴ -12923
▁ㅌㅐㅅㅇㅡㄴ -12924
▁ㄲㅣㅁ -12925
▁ㅁㅜㄱㅅㅣ -12926
ㅊㅓㄴㄴㅕㄴ -12927
ㅅㅣㄱㅇㅣㄴ -12928
ㅈㅓㅇㅇㅏㄴ -12929
▁ㄱㅝ -12930
idae -12931
▁ㅈㅏㅇㄹㅛ -12932
▁ㅋㅐㄴㅈㅏ -12933
▁ㅂㅏㅇㅊㅓㅇ -12934
acy -12935
ㅉㅏㄹㅇㅣ -12936
▁ㅅㅣㅁㄱㅕㅇ -12937
ㅎㅏㅁㅁㅏ -12938
▁ㄱㅏㅇㅇㅏㅂ -12939
ㄸㅐㅆ -12940
ㅁㅜㄴㄱㅜ -12941
▁ㅎㅏㅅㅌㅗ -12942
▁ㅈㅓㄴㄱㅡㄴ -12943
▁ㅉㅜㄱㅉㅜㄱ -12944
▁ㅌㅠㄴ -12945
▁ㅈㅣㄴㅇㅟ -12946
▁ㄱㅕㅇㅇㅝㄴ -12947
▁ㅇㅓㅄㅇㅐㄴ -12948
▁nm -12949
▁SSD -12950
▁Fant -12951
ㅈㅗㅇㅅㅜ -12952
▁Remix -12953
ㅍㅕㅇㄱㅜㄴ -12954
▁ㅅㅣㄴㄱㅕㅇㅈㅓㄴ -12955
▁295 -12956
▁Sal -12957
▁ㅎㅗㄴㄴㅐ -12958
▁ㅁㅕㅇㅅㅏㅇ -12959
enter -12960
ㅇㅗㅂㄴㅣ -12961
ㅇㅛㅇㅎㅏㄴ -12962
▁ㅎㅐㅆㅇㅡㄹㅈㅣ -12963
▁ㄷㅗㄱㄱㅗ -12964
▁UB -12965
▁GEN -12966
▁ㅇㅝㄴㅌㅏㅂ -12967
▁ㅅㅣㄴㅇㅣㄴㅇㅘㅇ -12968
ㄱㅘㅇㅇㅣ -12969
ㄹㅣㅁㄷㅗㅇ -12970
▁ㅅㅣㄹㄱㅝㄴ -12971
▁ㅎㅕㄴㅎㅗㄱ -12972
▁GRE -12973
ㅍㅣㄹㄹㅣ -12974
▁ㅁㅕㄴㅅㅏ -12975
ㅁㅏㄴㄱㅏㄴ -12976
▁ㄱㅜㄹㅈㅓㄹ -12977
ㄲㅣㅁㅇㅓㅄㅇㅣ -12978
▁ㅊㅗㅇㅅㅣㄴ -12979
ㄱㅝㄹㅅㅓㄴㄱㅓ -12980
▁ㅋㅟㄹ -12981
▁ㄱㅗㅇㅇㅖ -12982
▁ㅅㅐㅇㅅㅣㄱ -12983
▁ㄷㅗㅇㅁㅕㄴ -12984
▁ㅉㅏㄱㅅㅜ -12985
▁ㅈㅡㄹㄱㅣㄴㄷㅏ -12986
ㄷㅓㄱㅈㅣ -12987
othing -12988
▁ㄱㅕㅇㅎㅘ -12989
▁ㅅㅏㄴㅇㅓㅂㄷㅏㄴㅈㅣ -12990
cape -12991
▁MMORPG -12992
ㅂㅐㄴㅌㅣ -12993
▁ㅍㅏㄴㄹㅖ -12994
▁ㅇㅕㄴㅇㅗㄱ -12995
▁ㅇㅕㅇㅈㅓㅇ -12996
▁ㅅㅏㅇㅇㅏ -12997
ㄷㅡㄹㄹㅔ -12998
▁ㅇㅏㄴㅍㅏ -12999
▁ㅌㅡㄱㄷㅐ -13000
ㅁㅣㄴㅈㅓㅇ -13001
▁ㅂㅓㄴㅂㅗㄱ -13002
▁ㅈㅏㅇㅈㅓㅇ -13003
ㅁㅐㄴㅌㅣㄱ -13004
▁ㄱㅗㅇㅍㅛ -13005
▁ㅅㅣㅁㄱㅣ -13006
▁ㅇㅗㄴㅇㅢ -13007
▁ㄱㅣㄹㄷㅗㅇ -13008
▁ㄷㅣㄹㄹㅓㄴ -13009
46 -13010
▁266 -13011
ㅇㅣㄱㅅㅡ -13012
▁ㅎㅓㄹㄹㅣ -13013
▁ㄱㅜㄱㅎㅏㄴ -13014
▁ㅇㅏㅇㅋㅗ -13015
77 -13016
▁PE -13017
▁405 -13018
▁ㅍㅜㅇㅇㅛ -13019
▁ㅇㅏㄴㅍㅏㄲ -13020
▁ㅂㅜㄹㅆㅣ -13021
▁ㄱㅝㄴㅂㅓㅂ -13022
▁ㅈㅣㄹㄹㅓㅆ -13023
▁mg -13024
▁ㄱㅓㅁㅌㅜ -13025
▁ㄴㅏㅂㅂㅜ -13026
ㅇㅝㄴㅅㅓㄱ -13027
org -13028
▁ㄷㅏㄴㄹㅏㄱ -13029
▁ㅇㅡㅁㅈㅣㄹ -13030
▁ㅈㅡㅇㅊㅜㄱ -13031
▁ㄱㅏㅇㄴㅏㅁㅇㅕㄱ -13032
▁425 -13033
▁ㅎㅘㄱㅈㅣㄴ -13034
▁ㄱㅓㄴㄱㅜㄱㄷㅐ -13035
ㅁㅏㄴㅎㅘ -13036
▁ㄱㅣㅁㅁㅜ -13037
▁ㅊㅓㄹㅈㅔ -13038
▁PERFECT -13039
ㅎㅝㄴ -13040
▁ZERO -13041
▁Series -13042
▁VF -13043
▁Force -13044
▁ㅊㅏㄴㄷㅏ -13045
ㅂㅜㄹㅂㅗㄱ -13046
read -13047
▁Ann -13048
▁ㅎㅗㄴㅅㅜ -13049
ㅈㅓㅇㅇㅝㄴ -13050
▁ㅂㅗㄱㅂㅜㄹㅂㅗㄱ -13051
▁XI -13052
irth -13053
▁1922 -13054
ㄲㅡㄹㄹㅕ -13055
▁ㄷㅗㄱㅅㅏ -13056
▁ㄴㅏㄴㄱㅏㄴ -13057
▁ㅅㅏㅇㄹㅗㄱ -13058
▁ㅎㅡㅌㅃㅜ -13059
▁ㄱㅜㄱㄱㅗㅇ -13060
▁ㅈㅏㅂㅎㅣㄹ -13061
iw -13062
ㅅㅏㄴㅇㅓㅂ -13063
▁ㅁㅣㄴㅂㅓㅂ -13064
▁Vir -13065
▁ㅎㅐㅇㅅㅓㄴㅈㅣ -13066
▁ㅎㅘㅇㄱㅡㅁㄱㅣ -13067
▁ㄱㅡㅂㅅㅜ -13068
▁ㅂㅏㄹㅇㅏㅁ -13069
▁ㅅㅣㄱㅋㅏㄹ -13070
▁ㅈㅡㄹㄱㅕㅆ -13071
hem -13072
▁ㅎㅏㅇㅁㅏㄴ -13073
▁ㅇㅣㄹㅇㅣㄹㅎㅣ -13074
▁ㅂㅏㄱㅅㅓㅇㅈㅜㄴ -13075
cess -13076
▁ㅁㅣㄹㅇㅝ -13077
▁ㅂㅕㄴㅈㅗ -13078
▁ㅇㅝㄴㄱㅜㄴ -13079
▁BLUE -13080
▁ㅁㅕㅇㅅㅐㄱ -13081
ㅁㅏㅇㄱㅏㄴㄷㅏ -13082
ㅌㅏㄹㄹㅗ -13083
▁ㅅㅡㅇㅅㅏㄴ -13084
▁ㅇㅘㅇㄱㅝㄴ -13085
▁ㄱㅏㅇㅈㅣㄴ -13086
▁ㅅㅗㄱㅅㅜ -13087
▁ㅇㅑㄱㄱㅜㄱ -13088
▁Ta -13089
fore -13090
▁ㅇㅜㄹㄹㅣㅁ -13091
ㅅㅣㅁㅈㅏ -13092
▁ㄷㅗㅇㅎㅑㅇ -13093
▁ㅅㅣㄴㅎㅕㅇ -13094
▁ㅎㅜㄴㄹㅕㄴㅂㅕㅇ -13095
▁ㄴㅓㄼㅎㅣ -13096
▁490 -13097
▁af -13098
ㅈㅣㅂㄱㅏ -13099
▁ㅇㅡㄴㅎㅘ -13100
▁ㅇㅟㄱ -13101
▁ㅅㅗㅇㅇㅡㄴ -13102
▁ㅅㅣㄴㅁㅕㅇ -13103
▁ㅈㅓㅇㅎㅗ -13104
▁ㅇㅣㄹㅍㅏㄴ -13105
▁ㅎㅗㄴㅈㅏㅅㅁㅏㄹ -13106
ㅍㅗㅇ -13107
orry -13108
ㅊㅣㄹㄹㅣ -13109
▁ㄱㅏㄹㅁㅐ -13110
▁ㄴㅏㄹㄹㅕㅂ -13111
SE -13112
▁GIR -13113
ㅂㅓㅂㅂㅜ -13114
▁ㅎㅘㅇㅅㅏㄴ -13115
ㅂㅏㄴㅅㅡ -13116
▁ㅁㅜㄴㅇㅖ -13117
▁ㅇㅏㄴㄷㅔ -13118
▁ㅂㅏㅁㅎㅏ -13119
ㄱㅕㅇㄱㅠ -13120
ㄱㅓㄹㅅㅡ -13121
▁ㅈㅗㅇㅂㅏㄴ -13122
▁ㅍㅗㄱㄴㅓㄼ -13123
umb -13124
▁ㅈㅡㅇㄷㅐ -13125
ㄹㅡㅁㄱㅣㄹ -13126
▁ㅊㅜㅂ -13127
▁ㅅㅣㄴㅌㅗㅇ -13128
▁Championship -13129
ㅇㅑㄴㅁㅏ -13130
▁ㅃㅏㄹㄹㅐ -13131
▁ㅇㅜㅇㅈㅣㄴ -13132
▁ㅅㅓㅁㄱㅘㅇㅌㅏㄴ -13133
▁NASA -13134
ㅇㅕㄴㅅㅓㅇ -13135
▁ㅅㅠㄹ -13136
ㄹㅏㄱㄱㅏ -13137
▁ㅁㅏㄴㅁㅜㄹ -13138
▁LR -13139
▁Future -13140
ICK -13141
▁ㅁㅔㅇㅅㅡ -13142
ㅇㅣㄴㅈㅓㄹ -13143
▁ㄱㅓㅁㅂㅓㅂ -13144
ㅇㅣㅁㅈㅏ -13145
▁ㅅㅡㅇㄹㅛㅇ -13146
▁ㅇㅕㄴㅎㅐㅇ -13147
▁ㅍㅡㄹㄹㅐㅇㅋㅡ -13148
▁ㅇㅣㅁㅊㅏㅇㅇㅛㅇ -13149
▁ㅁㅣㄴㅅㅡ -13150
▁ㅈㅜㅇㅁㅜ -13151
▁ㄱㅏㄴㄱㅏㄴㅇㅣ -13152
▁ㄱㅕㅇㅋㅙ -13153
▁ㅇㅝㄴㅈㅓㅁ -13154
▁Plus -13155
▁ㅎㅡㄹㄹㅣㄴ -13156
▁ㅊㅣㅁㅇㅣㅂㅈㅏ -13157
ㅘㅇ -13158
ㄸㅐㄴ -13159
▁ㅇㅏㄱㄱㅟ -13160
▁ㅈㅣㄹㅅㅐㄱ -13161
▁ㅂㅏㄴㅎㅏㄴ -13162
▁ㅇㅓㄹㄸㅓㄹ -13163
▁880 -13164
▁ㅇㅡㄹㄹㅕ -13165
ㅇㅕㅇㅇㅜㅇㅈㅓㄴㅅㅓㄹ -13166
iant -13167
▁ㅈㅓㄱㄱㅜㄱ -13168
▁ㅇㅏㄴㅁㅏ -13169
▁ㅂㅜㅌㄷㅡㄹ -13170
▁Set -13171
ㅎㅕㄴㅎㅢ -13172
▁ㅆㅓㅆㅇㅡ -13173
▁ㅇㅏㄹㄹㅗ -13174
▁ㅎㅏㄴㅋㅠ -13175
▁288 -13176
▁CBS -13177
▁ㅇㅓㅍㅇㅓ -13178
▁ㄱㅓㄹㄹㅣㅁㄷㅗㄹ -13179
▁Reb -13180
ㅅㅓㅇㅂㅓㅁ -13181
▁ㅊㅓㄹㅍㅏㄴ -13182
▁Mc -13183
ㅇㅛㅇㅅㅜ -13184
▁ㄱㅘㄴㄹㅖ -13185
▁ㅋㅣㄹㄹㅣㅇ -13186
TN -13187
▁ㅂㅕㅇㅅㅣㄹ -13188
▁Aq -13189
ㅎㅡㅁ -13190
otion -13191
▁More -13192
ㄱㅏㄹㅇㅣ -13193
▁ㅅㅓㅇㄹㅛㅇ -13194
▁ㅅㅣㄴㅊㅏㅇ -13195
▁960 -13196
▁MED -13197
ㅁㅜㅅㄱㅏ -13198
adding -13199
▁ㅅㅏㄱㅅㅡ -13200
ㅈㅏㅇㅅㅜ -13201
▁ㅋㅗㅁㅍㅡㄹㄹㅔㄱㅅㅡ -13202
HA -13203
HI -13204
▁ㄸㅜㅀㄹㅣㄴ -13205
▁ㅍㅜㅇㅅㅓㅇ -13206
▁ㅎㅗㄴㅇㅛㅇ -13207
▁ㅌㅏㅁㅎㅓㅁㄷㅐ -13208
▁ㅉㅣㅇ -13209
ㅍㅔㄴㅅㅓ -13210
ㅅㅣㄴㅁㅜㄴ -13211
▁ㅋㅏㅁㅂㅗ -13212
ㄱㅜㄱㅅㅣㄱ -13213
ㅅㅡㄹㄹㅏㄴ -13214
▁ㅊㅏㅇㄱㅏㄴ -13215
▁ㄷㅏㄴㅅㅣ -13216
▁ㅇㅕㅇㅌㅗㅇ -13217
ㄷㅗㅇㅇㅕㄱ -13218
▁ㅇㅏㄴㅅㅏㄴㅅㅣ -13219
▁ㅅㅣㄴㅇㅢ -13220
▁Mnet -13221
ㅅㅐㅇㅁㅕㅇ -13222
▁ㅍㅗㄱㅇㅕㅁ -13223
▁ㅈㅣㄴㅍㅜㅇㄱㅕㅇ -13224
ㄹㅑㅇㄱㅣ -13225
▁ㅂㅗㄱㄹㅑㅇ -13226
orce -13227
▁ㅎㅟㄹㅊㅔ -13228
▁ㅅㅣㄹㅎㅘ -13229
ㄷㅏㅇㅇㅕㄱ -13230
▁ㄱㅗㅇㅁㅜㄹ -13231
▁ㅁㅜㄴㅎㅏㅇ -13232
▁ㅂㅜㄴㄱㅛ -13233
▁ㅂㅗㅇㅎㅘ -13234
ㅎㅕㄴㅅㅏㅇ -13235
▁ㅇㅗㅂㅈㅓ -13236
▁ㅈㅡㅇㅅㅓㄹ -13237
ㅅㅣㄴㄹㅗㄴ -13238
ㄴㅕㅁㅂㅣ -13239
▁ㅇㅑㅇㅈㅗ -13240
▁ㅍㅏㄴㅂㅏㄱㅇㅣ -13241
▁ㅎㅓㅁㄴㅏㄴ -13242
▁po -13243
▁ㄱㅏㄺㅇㅏ -13244
▁ㄱㅓㄹㄹㅔ -13245
▁ㅂㅓㅁㅍㅓ -13246
▁ㄱㅏㅇㅈㅣ -13247
▁ㅂㅐㅅㅅㅗㄱ -13248
▁ㅅㅐㅇㅁㅜㄹㅊㅔ -13249
▁ㄸㅡㅅㄷㅐ -13250
79 -13251
els -13252
▁ㅎㅕㄴㄹㅏㄴ -13253
▁ㅅㅗㄴㅍㅐ -13254
▁ㅇㅕㅍㄱㅜ -13255
▁ㅂㅕㄴㄷㅓㄱ -13256
▁ㅈㅓㄴㅇㅣㄹ -13257
▁ㅇㅣㄹㅅㅐㄱ -13258
▁ㅈㅜㄹㅁㅜ -13259
aint -13260
▁610 -13261
ㅇㅗㄴㅈㅣ -13262
▁ㅁㅕㅇㅅㅜ -13263
▁ㅇㅛㅇㅅㅣㄴ -13264
▁ㅈㅓㅁㅇㅝㄴ -13265
▁Video -13266
▁had -13267
ㅇㅣㄴㅎㅘ -13268
▁ㅅㅓㄲㅇㅣ -13269
▁ㅎㅘㅇㄱㅓㄴ -13270
ㅅㅐㅇㅇㅏ -13271
▁would -13272
▁ㅂㅜㄹㅍㅐ -13273
▁ㅈㅏㅇㅂㅗ -13274
▁ㅎㅓㄴㅌㅣㅇ -13275
▁ㄷㅗㅇㅇㅑㅇㅇㅣㄴ -13276
▁ㄱㅗㄹㄷㅡㄴㄱㅡㄹㄹㅓ -13277
▁ㄷㅓㅍㅊㅕ -13278
ㅌㅕㅆ -13279
▁ㅆㅘㅆ -13280
ㅈㅏㅇㄴㅏ -13281
▁ㅅㅔㄹㅋㅏ -13282
▁ㅌㅡㄱㅊㅘㄹㅁㅜㄹ -13283
ents -13284
ㅍㅕㅇㅇㅕㄱ -13285
▁ㅅㅓㄱㅍㅏㄴ -13286
▁ㅊㅓㄴㄹㅛㅇ -13287
▁ㅈㅏㅇㅈㅗ -13288
ㅆㅢ -13289
▁ㅇㅐㄴㅅㅓ -13290
▁ㄱㅗㅇㅇㅑㅇ -13291
▁ㅅㅗㄱㅅㅗㄱ -13292
ㄹㅏㄱㅅㅡ -13293
▁ISO -13294
ery -13295
▁ㄷㅟㅅㅂㅜ -13296
▁ㅇㅕㅁㅈㅡㅇ -13297
▁ㅈㅏㅇㅁㅏㄴ -13298
ATA -13299
▁ㅈㅡㅇㅈㅓㅇ -13300
▁ㅅㅓㅇㅍㅗㄱㄹㅕㄱ -13301
EP -13302
▁404 -13303
erson -13304
▁view -13305
▁ㄴㅗㅍㅇㅕㅆ -13306
sy -13307
ㅅㅅㅗㄱ -13308
ottom -13309
ㅂㅜㅌㅇㅕㅆ -13310
▁ㄱㅜㄱㅁㅜㄴ -13311
▁ㅇㅕㄱㅈㅓㅇ -13312
▁ㄷㅏㄹㅍㅐㅇㅇㅣ -13313
▁ㅂㅓㄴㅂㅓㄴㅎㅣ -13314
▁PTS -13315
▁ㅇㅣㅂㄱㅣㅁ -13316
▁EXE -13317
▁Nat -13318
ㅇㅝㄴㄱㅜ -13319
ㄸㅜㄱㄸㅜㄱ -13320
▁ㅈㅏㄱㅁㅕㅇ -13321
▁ㅎㅡㅇㄱㅜㄱ -13322
con -13323
▁ㅊㅓㄴㅅㅜ -13324
ext -13325
▁ㄷㅓㅇㄱㅜㄹ -13326
ke -13327
▁ㅂㅏㄱㅎㅕㅇ -13328
▁ㅈㅗㅇㅇㅛㅇ -13329
▁FD -13330
roid -13331
ㅍㅗㄱㄹㅕㄱ -13332
▁ㅎㅏㅁㅈㅗㅇ -13333
ih -13334
▁345 -13335
▁ㅉㅏㄹㅉㅏㄹㅇㅣ -13336
▁ㅇㅑㅇㅅㅜ -13337
▁ㅇㅗㄴㅌㅗㅇ -13338
▁ㅈㅓㅇㅊㅏㄹㅂㅕㅇ -13339
▁ㄱㅓㄴㄱㅘ -13340
▁ㅅㅗㄱㅂㅗ -13341
▁ㅎㅔㄱㅌㅓ -13342
▁ㅈㅓㅇㅅㅡㅇ -13343
▁Kr -13344
▁ㅌㅏㄴㅅㅣㄱ -13345
▁911 -13346
ender -13347
▁1912 -13348
▁ㅅㅡㅂㅎㅏ -13349
▁ㅇㅜㅁㅈㅣㄱㅇㅕㅆ -13350
▁star -13351
ㅇㅣㄴㅅㅠ -13352
ㅇㅣㅂㅈㅏ -13353
▁board -13354
▁By -13355
▁ㅈㅣㅈ -13356
▁ㅁㅣㄴㅅㅗㄱ -13357
▁ㅃㅏㄹㄹㅏㅆ -13358
▁OGN -13359
▁Squ -13360
▁ㅇㅛㅇㄱㅏ -13361
▁}}}}}}}} -13362
▁ㅈㅓㅇㅂㅗㄱㅈㅏ -13363
▁ㄷㅡㅇㄱㅣ -13364
▁ㅁㅕㄴㅅㅔ -13365
▁ㅇㅗㄱㅌㅗ -13366
▁ㅇㅛㅇㅈㅓㅂ -13367
▁ㅈㅜㅇㅈㅡㅇ -13368
▁ㅌㅗㅇㄱㅗㄱ -13369
ta -13370
▁ㅊㅏㄶ -13371
▁ㅊㅐㄹ -13372
▁ㅈㅏㅇㄷㅗ -13373
▁ㅇㅕㄴㅈㅓㅇ -13374
ㄱㅡㄴㅊㅏ -13375
ula -13376
▁Ball -13377
▁ㄱㅘㄴㅎㅕㄴㅇㅏㄱ -13378
uit -13379
▁ㅁㅏㅇㅊㅕ -13380
▁840 -13381
▁Card -13382
▁ㄴㅗㄴㅇㅚ -13383
▁ㅇㅜㄴㄷㅏ -13384
▁ㅊㅓㅇㅅㅜㄴ -13385
▁ㄴㅡㅇㅎㅏㄴ -13386
ㅁㅜㄴㅋㅜㄹㄹㅜ -13387
▁ㅇㅕㅇㅇㅜㅇㅈㅓㄴㅅㅓㄹ -13388
▁ㅈㅗㄹㄹㅣ -13389
▁ㅈㅓㄴㅁㅜㄴㅎㅏㄱㄱㅛ -13390
▁ㅅㅏㅇㄱㅡㅂㅈㅏ -13391
▁ㅂㅕㄴㅎㅏㅁㅇㅓㅄ -13392
▁ㄴㅏㅌ -13393
▁ㅂㅣㅅㄷㅐ -13394
▁ㅍㅕㄴㅎㅣ -13395
▁MSI -13396
▁power -13397
▁Aqours -13398
▁ㅇㅝㄴㅌㅏㄱ -13399
▁Dyn -13400
▁ㄹㅣㄴㅋㅗ -13401
▁ㅍㅏㄴㅈㅏ -13402
▁ㅂㅗㅇㅅㅣㄴ -13403
▁ㅈㅓㅇㅇㅠㄴㅈㅗㅇ -13404
▁Div -13405
ㅅㅓㄴㅇㅘㅇ -13406
▁ㅈㅐㅇㅈㅐㅇ -13407
▁ㅍㅏㄴㅇㅣㄴ -13408
▁ㅎㅏㄴㄷㅏㅂㅅㅣ -13409
▁272 -13410
▁780 -13411
▁ㅃㅐㅆ -13412
▁810 -13413
LA -13414
▁TBD -13415
ㅍㅡㄹㄹㅗ -13416
ㄱㅕㄹㅎㅏㅂ -13417
ㅈㅜㄴㅇㅕㅇ -13418
▁xB -13419
ㅈㅓㄱㄱㅓ -13420
▁ㅇㅝㄹㅎㅘ -13421
▁SPECIAL -13422
▁Year -13423
ㄹㅔㄹㄹㅣ -13424
▁ㄱㅝㄴㅌㅜ -13425
ㅎㅜㅅ -13426
▁ㄷㅣㄷ -13427
ㅅㅏㄴㅎㅘ -13428
▁ㅎㅏㄴㅎㅏ -13429
wn -13430
▁%~ -13431
▁ㅅㅕㄴㅌㅡ -13432
▁ㅁㅏㄴㅇㅣㄴ -13433
▁ㅎㅕㄴㄱㅘㄴ -13434
▁Band -13435
▁ㅈㅜㅇㅅㅜ -13436
▁ㅁㅜㄴㄱㅓㄴ -13437
▁IB -13438
▁ㅂㅏㄹㅈㅏㄱ -13439
▁JD -13440
▁ACE -13441
▁ARC -13442
ㄱㅓㄴㅅㅗ -13443
ㅇㅜㄹㅇㅕ -13444
▁ㅅㅔㄴㅌㅗ -13445
▁ㅇㅡㅁㅍㅛ -13446
▁ㅈㅏㅇㄴㅏㄴㅊㅣ -13447
▁ㅇㅡㅇㅁㅗ -13448
▁1923 -13449
▁ㅋㅣㄹㄹㅣ -13450
▁ㄱㅘㄴㅈㅜㅇㅅㅓㄱ -13451
▁ㅂㅐㄱㅇㅏㄱㄱㅘㄴ -13452
▁video -13453
▁ㄱㅏㅇㅂㅐㄱㅎㅗ -13454
▁Lov -13455
▁ㄱㅗㅇㅂㅐㄱㄱㅣ -13456
▁Fort -13457
ㅌㅓㄱㄷㅐ -13458
▁ㄴㅏㅁㅂㅏㅇ -13459
▁ㅌㅏㄹㅈㅣㄴ -13460
▁ㅎㅘㄴㄱㅘㄴ -13461
ico -13462
▁820 -13463
▁pre -13464
▁Queen -13465
▁ㅁㅏㄴㅅㅜ -13466
▁ㅎㅐㅇㅈㅓㅇㅎㅏㄱ -13467
hes -13468
▁⊸⊸ -13469
▁ㅂㅏㄹㅎㅘ -13470
▁KV -13471
po -13472
ㄲㅜㅇ -13473
▁ㄱㅏㄴㄷㅏㅁㅎㅚ -13474
▁ㅊㅐㄱㅇㅣㅁㄱㅏㅁ -13475
▁AJ -13476
ㅅㅓㄱㅎㅢ -13477
▁ㅍㅓㄴㄷㅡ -13478
▁Ever -13479
▁ㅅㅗㄱㄱㅣ -13480
▁ㅅㅓㅇㅇㅏㄱ -13481
▁ㅇㅑㄴㄷㅏ -13482
▁Wonder -13483
▁ㄷㅗㄱㅊㅏㅇ -13484
▁ㅂㅗㄴㅈㅓㄴ -13485
▁America -13486
▁ㄱㅘㅇㅁㅕㅇㅅㅣ -13487
▁Mons -13488
▁ㅅㅜㄷㄱㅏ -13489
▁ㅈㅓㄴㅎㅏㄱㅅㅐㅇ -13490
▁ㅁㅜㄴㅅㅓㄴ -13491
▁ㅅㅏㄴㅈㅓㄱ -13492
▁ㅇㅘㅇㄹㅣㅂ -13493
▁ㅌㅡㄱㄱㅏㅇ -13494
▁ㅎㅕㄹㅈㅓㄴ -13495
▁ㅉㅣㄱㅎㅕㅆ -13496
ican -13497
▁Shadow -13498
▁ㅇㅡㅁㅇㅕㄱ -13499
▁Vers -13500
▁ㅌㅗㅇㄴㅏ -13501
ㅇㅣㄴㅅㅣ -13502
ㅅㅡㅇㅎㅢ -13503
ㅎㅏㄴㅎㅣ -13504
▁ㅂㅏㅂㄱㅏㅄ -13505
ㅂㅔㄱ -13506
▁INF -13507
▁ㅇㅘㅇㄷㅗ -13508
▁ㅎㅕㄹㅈㅗㄱ -13509
▁ㅇㅕㅇㅇㅐ -13510
▁ㅁㅕㄴㅎㅚ -13511
▁ㅈㅣㄴㅎㅏ -13512
ㅈㅜㅂ -13513
▁ㅎㅣㅁㄱㅕㅂ -13514
▁ㅂㅡㄹㄹㅐㄱㄹㅣ -13515
▁ㅅㅔㅅㅅㅛ -13516
▁ㅈㅓㄴㅇㅓㅂ -13517
▁ㅂㅜㅌㅈㅏㅂㅎㅣ -13518
▁321 -13519
▁Ill -13520
▁From -13521
ㅈㅗㅇㅂㅕㅇㄱㅣ -13522
▁Exper -13523
▁ㅅㅏㄴㅌㅣ -13524
▁ㅎㅏㄴㄷㅐ -13525
▁ㅇㅏㅇㅌㅜ -13526
APP -13527
▁ㄸㅓㄱㅊㅣㄹ -13528
▁ㅈㅗㅇㅅㅣㄱ -13529
▁ㅇㅛㅇㄷㅗㄴ -13530
▁ㅎㅕㅇㅊㅔ -13531
▁ㄱㅓㄴㄷㅡㄹ -13532
▁ㅂㅕㅇㅈㅏ -13533
▁ㅎㅏㅁㅇㅠ -13534
73 -13535
▁ㅈㅜㄱㅊㅏㅇ -13536
93 -13537
▁ㅇㅗㄴㅊㅓㄴㅇㅛㄱ -13538
hed -13539
▁ㅈㅏㄱㅅㅓㅇㅈㅏ -13540
▁ㅇㅕㄱㅅㅔ -13541
ㄹㅏㅇㅈㅓㄴㅅㅓㄹ -13542
▁could -13543
▁ㅇㅐㅇㅁㅜ -13544
live -13545
▁ㅁㅏㅇㄴㅏ -13546
▁ㄱㅐㄹㄹㅣ -13547
▁355 -13548
▁570 -13549
▁ㄲㅓㄲㅇㅣ -13550
▁padding -13551
ㄹㅓㅇㄱㅓ -13552
▁ㅅㅡㅇㅎㅘ -13553
▁ㅇㅕㅇㅇㅕㅇ -13554
▁}}}}}}}}} -13555
ㅂㅏㅇㅇㅟ -13556
▁ㅎㅔㄹㅅㅣㅇ -13557
▁ㅇㅏㄱㅊㅟ -13558
▁ㅎㅏㅁㄱㅛ -13559
▁ㅂㅓㄴㅅㅓㅇ -13560
ㅁㅔㄹㄹㅣ -13561
▁ㅁㅜㄴㄷㅗ -13562
▁ㅊㅣㄴㅇㅘㅇ -13563
▁JK -13564
▁1921 -13565
▁ㅁㅜㄴㅎㅢ -13566
▁ㅂㅜㄹㅇㅢ -13567
▁ㅁㅜㄱㅇㅣㄴ -13568
▁Chapter -13569
▁ㅁㅏㄱㅅㅏ -13570
▁Player -13571
▁how -13572
▁ㅃㅗㅂㅎㅕ -13573
▁ㅎㅣㅁㄲㅓㅅ -13574
▁ㅅㅓㄴㄷㅏ -13575
▁ㅊㅓㅇㄱㅖ -13576
▁ㅇㅕㅁㅇㅝㄴ -13577
▁ㅇㅜㄹㄹㅡㅇ -13578
ㅌㅐㄱㄱㅏ -13579
ㅎㅡㅇㄱㅜㄴ -13580
▁ㅂㅐㄱㅅㅏㅇ -13581
▁ㅈㅏㅂㅇㅡㅁ -13582
ask -13583
▁read -13584
▁ㅅㅣㄹㅍㅡ -13585
zer -13586
▁San -13587
▁ㅁㅓㅁㅊㅜㄴㄷㅏ -13588
ㅇㅏㄴㄱㅕㅇ -13589
▁Round -13590
la -13591
▁ㅅㅜㄴㅇㅣ -13592
▁ㅂㅏㄱㅈㅔ -13593
▁ㄱㅜㄱㅇㅏㄱ -13594
▁ㅇㅕㄴㅍㅣㄹ -13595
▁TFT -13596
▁ㅎㅏㅇㅅㅣ -13597
▁than -13598
ㅇㅓㅇㅇㅣ -13599
▁ㅇㅕㅇㄷㅓㄱ -13600
oto -13601
▁ㅇㅘㄹㅊㅡ -13602
▁ㅎㅘㅇㅇㅑ -13603
ㅇㅝㄴㄱㅜㄱ -13604
▁ㅇㅝㄴㅁㅏㄴ -13605
▁ㅈㅏㅇㄱㅓㅁ -13606
▁FOR -13607
▁ㅍㅐㄴㅅㅓ -13608
▁ㄱㅕㅁㅅㅗㄴ -13609
▁ㅈㅏㅁㄱㅣㄴ -13610
ㅇㅣㄴㅈㅓㄹㅅㅡ -13611
▁Enter -13612
▁ㄱㅐㅁ -13613
ㅇㅏㅅㄱㅕ -13614
▁ㄱㅏㅁㅊㅜㄱ -13615
▁sky -13616
ㅇㅑㄱㅅㅡ -13617
▁ㅁㅓㅁㅊㅝㅆ -13618
▁ㅁㅏㄹㄷㅏ -13619
▁ㅇㅣㄹㅅㅣㄴ -13620
▁ㅌㅓㄹㄹㅣㄴ -13621
▁UTC -13622
ㅈㅜㅇㅅㅣㅁ -13623
▁ㄷㅏㅂㄴㅣ -13624
ㅎㅘㄴㄱㅕㅇ -13625
▁ㄱㅣㅁㅂㅏㅂ -13626
▁ㅁㅐㅇㄱㅗㅇ -13627
▁620 -13628
▁ㅉㅏㄹㄹㅣ -13629
▁ㄱㅜㄴㅈㅏ -13630
▁ㄴㅏㅆㅇㅡ -13631
▁ㄱㅕㄹㅈㅣㅂ -13632
▁ㅂㅏㄱㅇㅣㄴ -13633
▁ㅇㅐㅇㄱㅡ -13634
▁ㄱㅣㅁㄱㅏㅂ -13635
aze -13636
▁1905 -13637
▁BEST -13638
ㄷㅗㅇㅎㅕㄴ -13639
▁ㅅㅓㄴㅅㅡㅇ -13640
▁ㅅㅓㅇㅇㅛㄱ -13641
▁Under -13642
▁ㅎㅕㅂㅈㅜ -13643
▁ㅇㅛㅇㄱㅘㅇ -13644
ㄹㅏㄴㄷㅗ -13645
▁ㄴㅓㄹㄹㅕ -13646
▁ㄹㅗㅂㅅㅡ -13647
ㅇㅗㄹㄹㅣㄴㄷㅏ -13648
▁ㄱㅕㅇㄷㅗ -13649
▁ㅍㅕㄴㅂㅓㅂ -13650
68 -13651
▁high -13652
ㄱㅕㅇㅈㅣ -13653
▁ㄱㅏㅆㄷㅏ -13654
▁ㅌㅓㄹㄹㅕ -13655
▁ㅈㅜㅇㄹㅏㅇ -13656
▁ㅎㅑㅇㄴㅕㄴ -13657
▁004 -13658
ollow -13659
ㄱㅡㅂㅈㅏㅇ -13660
▁ㄱㅣㅁㅎㅗㅇ -13661
▁ㅅㅐㄱㄱㅏㅁ -13662
▁ㅇㅏㄴㅇㅑㅇㅅㅣ -13663
▁EF -13664
▁JAP -13665
▁MOVIE -13666
ㅁㅏㄴㅂㅕㄹ -13667
▁ㄷㅔㄴㅇㅗ -13668
▁ㅅㅏㅁㄱㅏ -13669
▁ㄷㅔㅅ -13670
▁ㅋㅓㅁㅍㅏ -13671
ㄱㅗㅇㅈㅏ -13672
▁ㅇㅜㄴㅎㅏ -13673
▁ㄴㅡㅇㅌㅗㅇ -13674
▁ㄱㅡㄱㄷㅏㄴㅈㅜ -13675
amage -13676
ㅌㅡㄹㅂㅓ -13677
▁ㄴㅓㄼㅇㅣ -13678
ㄷㅗㅇㅅㅣㄱ -13679
▁9999 -13680
▁ㅋㅏㄱㅌㅔ -13681
▁ㅆㅐㅁ -13682
▁ㅅㅜㄹㄹㅐ -13683
▁ㄱㅕㅇㄹㅖ -13684
ㅎㅏㅂㅈㅜㅇㄱㅜㄱ -13685
▁ㅅㅡㄹㅎㅏ -13686
ㅇㅠㅇㅎㅏㅂ -13687
▁ㄷㅏㅇㄱㅜ -13688
▁ㅎㅐㄱㅇㅠㅇㅎㅏㅂ -13689
ㄷㅗㅇㅅㅏ -13690
▁ㅈㅗㅇㅇㅓㅂㅇㅝㄴ -13691
▁ㅈㅏㅅㄷㅐ -13692
▁ㅍㅔㄴㄹㅣ -13693
▁ㄱㅜㄱㅁㅣㄴㅎㅚ -13694
ㄱㅏㄹㅇㅓ -13695
▁ㄴㅗㄴㄷㅏ -13696
▁Ben -13697
ㅌㅓㅇ -13698
▁Old -13699
▁ㅂㅏㅇㄷㅗㄱ -13700
▁ㅅㅏㅇㅂㅗㅇ -13701
obal -13702
▁312 -13703
▁710 -13704
ㅅㅏㄴㅅㅓㅇ -13705
▁ㄱㅣㅁㅁㅣㄴㅊㅓㄹ -13706
▁ㅇㅕㅇㅊㅏ -13707
amb -13708
▁335 -13709
▁ㅈㅣㅇㅅㅜ -13710
ㅅㅜㄴㅎㅘㄴ -13711
▁ㅁㅓㄱㅇㅣㅅㄱㅏㅁ -13712
▁ㄷㅟㅅㅁㅗㄱ -13713
▁ㅇㅕㄹㄷㅐ -13714
▁ㅇㅣㄹㄹㅠ -13715
▁ㅇㅕㅇㅇㅓㅂㅅㅗ -13716
▁ㅎㅏㄴㄷㅏㄴ -13717
▁np -13718
umber -13719
▁ㄷㅗㅇㄱㅟ -13720
▁ㅅㅐㄱㄷㅏ -13721
▁ㅎㅔㄱㅌㅗ -13722
▁ㅎㅡㅇㅎㅏ -13723
▁AGE -13724
▁ㅂㅜㄹㅅㅡ -13725
▁ㅈㅓㄴㄱㅜ -13726
▁ㅂㅣㄹㄹㅣㄴ -13727
▁ㅅㅣㄹㄱㅘ -13728
▁ㅇㅝㄴㄹㅛ -13729
▁ㄱㅗㅇㅇㅓㄴ -13730
▁Ra -13731
ㄴㅜㅁ -13732
ㅅㅑㅇ -13733
▁RNG -13734
▁ㅋㅔㄴㅌㅡ -13735
▁ㅇㅕㄴㅎㅏㅂㄴㅠ -13736
ada -13737
ㅈㅜㄹㄱㅣ -13738
▁ㄱㅗㅇㅇㅛㅇㅇㅓ -13739
ular -13740
▁ㄷㅏㄹㄷㅏㄹ -13741
▁ㄷㅡㄹㄹㅣㄹ -13742
▁CU -13743
▁ㅅㅗㅇㄴㅏ -13744
▁ㄱㅗㅇㅅㅐㅇ -13745
ㄷㅣㅈㅊㅣ -13746
ㅍㅏㄴㅂㅜ -13747
▁ㄱㅏㅇㄱㅏ -13748
▁ㄱㅣㅁㅅㅏ -13749
▁Another -13750
▁ㄱㅏㄱㅅㅓㅇㄱㅣ -13751
▁Look -13752
▁ㅈㅏㅈㅇㅏ -13753
▁ㄱㅓㅁㅁㅜㄴ -13754
▁ㅁㅕㄴㅎㅐㅆ -13755
▁1907 -13756
▁ㅅㅜㄴㅎㅚ -13757
▁ㅌㅏㄹㅍㅣ -13758
▁ㅂㅕㄴㅂㅏㅇ -13759
▁ㅁㅗㅇㄷㅜㅇㅇㅣ -13760
OME -13761
ney -13762
▁ㅂㅗㄴㅈㅡ -13763
▁ㅅㅏㅇㅅㅗ -13764
▁ㅁㅏㅈㅅㅓㄴ -13765
▁ㅂㅕㅇㅂㅓㅂ -13766
▁ㅊㅣㄴㅈㅗㄱ -13767
▁ㅋㅕㅆ -13768
▁ㅂㅏㄱㅎㅢ -13769
▁ㅍㅓㄴㅌㅡ -13770
ㅈㅏㄱㄱㅗㄱ -13771
▁ㅁㅕㅇㅎㅏㅁ -13772
▁ㅋㅡㄹㄹㅣㄴㅌㅓㄴ -13773
▁WIN -13774
▁ㄷㅡㄹㅇㅕㅆ -13775
▁ㅂㅏㄹㄱㅜㄴ -13776
▁ㄱㅜㄴㅁㅏ -13777
▁ㅌㅏㅁㅌㅏㄱ -13778
▁ㅎㅏㄱㄱㅘㄴ -13779
▁401 -13780
▁ㅈㅣㄴㅅㅣ -13781
▁ㅂㅏㄴㅇㅝㄹ -13782
▁ㅊㅣㅁㅅㅜ -13783
▁ㅅㅗㅇㅇㅡㄴㅂㅓㅁ -13784
UMI -13785
▁ㅎㅏㄾ -13786
ㄱㅐㅇㅇㅣ -13787
ㅇㅔㄴㄷㅡ -13788
ories -13789
▁ㅆㅣㅇ -13790
ㄱㅐㅇㅇㅓ -13791
ㄹㅓㅇㅋㅡ -13792
▁ㄷㅗㅇㅅㅜ -13793
▁ㅈㅜㄹㅇㅕㅆ -13794
ㅍㅡㄹㄱㅐㅇㅇㅓ -13795
ora -13796
reas -13797
▁bbq -13798
▁ㅇㅓㅇㅌㅓ -13799
▁ㅂㅗㄴㅇㅕㄴ -13800
▁ㄱㅕㅇㅊㅏㄹㅊㅏ -13801
▁ㅈㅜㅇㄷㅗㄱㅈㅏ -13802
▁ep -13803
▁ㅁㅕㄴㅎㅏ -13804
▁ㅈㅓㅇㅁㅣ -13805
▁ㄱㅐㅇㅅㅐㅇ -13806
▁ㅁㅣㄹㄹㅣㄹ -13807
▁Av -13808
RC -13809
▁Plan -13810
ㄲㅜㄹㅁㅓㅇ -13811
▁ㅅㅗㅇㄱㅘㅇ -13812
▁ㄱㅡㄹㅆㅔ -13813
▁Work -13814
▁ㅅㅜㅁㄱㅕㅆ -13815
▁ㅈㅏㅂㅈㅗㄹ -13816
▁ㄱㅡㄴㄱㅛ -13817
▁ㄷㅡㅇㅉㅏㄱ -13818
▁ㅎㅏㄴㅈㅣㄴ -13819
▁die -13820
▁ㅍㅕㅇㅇㅑ -13821
▁ㄷㅏㄱㅊㅕ -13822
▁ㅁㅜㄹㄱㅣ -13823
▁ㅅㅣㄴㅂㅜㄴㅈㅡㅇ -13824
▁RM -13825
▁ㄷㅗㄱㅅㅡ -13826
▁CHA -13827
ㅈㅣㄴㅈㅏㅇ -13828
▁ㅂㅏㄴㅍㅗ -13829
▁ㄱㅜㄴㄹㅑㅇ -13830
▁ㅅㅣㄴㅁㅜㄴㅅㅏ -13831
ayer -13832
▁ㅎㅘㅇㅎㅐ -13833
ㄱㅕㅇㅊㅏㄹ -13834
▁ㅁㅜㄱㅁㅜㄱㅎㅣ -13835
▁Leader -13836
▁ㅂㅏㄹㄹㅣㄴ -13837
bow -13838
▁ㅇㅕㄱㄱㅗㅇ -13839
elieve -13840
▁ㅇㅑㅇㄷㅓㄱ -13841
ㅇㅘㄱ -13842
▁Tur -13843
▁ㅂㅏㄷㄷㅡㄹ -13844
▁Ka -13845
aki -13846
▁ㄹㅗㄹㄹㅣ -13847
▁ㅊㅓㅇㄹㅏ -13848
▁ㅂㅜㄴㅌㅏㅇ -13849
ㅂㅗㄴㅂㅜ -13850
ote -13851
ㅇㅑㅇㅇㅣㄴ -13852
ㄱㅏㅇㅎㅏ -13853
▁ㅈㅜㄹㄲㅏ -13854
▁ㅎㅟㅂㅆㅡㄹㄹㅕ -13855
ㅋㅜㅇ -13856
▁258 -13857
▁Pat -13858
▁ㅌㅏㄴㅈㅏ -13859
▁Lu -13860
▁som -13861
ㅇㅗㄹㄹㅔ -13862
▁ㅅㅐㄱㅅㅗ -13863
▁ㅇㅞㄹㅅㅡ -13864
▁ㅇㅡㅇㅅㅜ -13865
▁ㅅㅓㅇㅅㅏㄴ -13866
▁ㅊㅐㄱㅂㅗㅇ -13867
▁ㅅㅓㅇㅅㅣㄴ -13868
▁ㅎㅘㄴㅅㅡㅇㅇㅕㄱ -13869
ㅁㅏㅈㅊㅜㅁ -13870
▁SSS -13871
▁APK -13872
▁ㅂㅏㄺㄱㅣ -13873
ㅇㅜㄹㄹㅣㄹ -13874
▁ㄱㅝㄴㅎㅏㄴㄷㅏ -13875
ㅅㅏㄹㅈㅏ -13876
ㄷㅗㅇㅈㅜㄴ -13877
▁ㄱㅡㅂㄱㅏㅇㅎㅏ -13878
▁VT -13879
▁286 -13880
ㄹㅐㄱㅌㅓ -13881
▁ㅂㅔㄹㄹㅗ -13882
▁ㄷㅏㅇㅈㅣㄱ -13883
▁ㄷㅓㄹㄷㅓㄹ -13884
▁ㅊㅏㄱㅇㅗ -13885
▁PTSD -13886
ㅇㅠㄱㅎㅏㄱ -13887
ister -13888
ㅌㅐㅁㅍㅡ -13889
ㅎㅕㄴㅈㅜ -13890
▁ㅇㅕㅇㅇㅜㅇㅈㅓㄴ -13891
ros -13892
▁ㅇㅏㄹㄹㅏㅁ -13893
▁ㅅㅓㄴㄷㅔ -13894
▁ㅌㅗㅇㅈㅣ -13895
▁ㅌㅏㄹㅇㅢ -13896
▁ㄱㅜㄹㄱㅗㄱ -13897
ㅅㅓㅇㅎㅗ -13898
▁ㅁㅏㄹㅆㅏ -13899
▁ㅂㅐㄱㄷㅗ -13900
▁ㅈㅓㄴㅊㅓ -13901
ㄱㅗㄱㅇㅕㄱ -13902
▁ㅈㅓㅂㅊㅏㄱ -13903
▁ㅊㅏㅁㅎㅗㄱ -13904
▁ㅅㅣㅁㅎㅏㄹ -13905
▁ㄴㅏㄱㄷㅗㅇㄱㅏㅇ -13906
▁ㄹㅣㅇㄱㅗ -13907
▁ㅂㅏㄹㅊㅞ -13908
▁050 -13909
▁ㅇㅕㄲㅇㅕ -13910
▁ㅎㅏㅂㅅㅔ -13911
▁ㅈㅡㄱㅂㅏㄹ -13912
▁ㅇㅏㄴㅈㅔㄹㄹㅏ -13913
▁357 -13914
▁ㅇㅓㄹㅂㅓ -13915
ㄴㅏㅁㄷㅗㅇ -13916
▁Pal -13917
▁ㅇㅣㄴㅊㅓㄱ -13918
▁ml -13919
ㅎㅓㄹ -13920
▁Here -13921
ㅈㅓㅇㄱㅣ -13922
▁ㅂㅏㅇㄱㅟ -13923
▁ㅇㅕㄱㄷㅗㅇ -13924
▁ㄱㅡㅂㅈㅗ -13925
▁ㅅㅓㄴㄴㅕ -13926
▁ㅅㅟㅂㅅㅏ -13927
▁Mic -13928
iness -13929
ㄹㅐㄴㄷㅓ -13930
ㅎㅏㄹㅁㅓ -13931
▁ㅁㅣㄴㄷㅏ -13932
▁ㄱㅡㄴㅎㅕㄴ -13933
▁ㅅㅓㅇㅎㅐㅇ -13934
▁University -13935
▁ㄷㅗㄹㅊㅜㄹ -13936
▁ㅅㅡㄹㄹㅣㅇ -13937
▁Arch -13938
▁ㄱㅐㄱㅊㅏ -13939
▁ㅂㅕㅇㅇㅏ -13940
▁ㅂㅏㄴㅁㅜㄴ -13941
▁ㅇㅡㅁㅇㅏㄱㅈㅜㅇㅅㅣㅁ -13942
▁See -13943
▁ㅈㅗㅇㅇㅓㄴ -13944
▁ㅎㅕㅂㅇㅓㅂ -13945
REAK -13946
▁ㅊㅣㄴㅎㅐㅆ -13947
ㅂㅔㄹㄹㅏ -13948
▁ㅂㅏㅇㅈㅣㄴ -13949
▁ㅂㅗㅇㄱㅓㄴ -13950
▁ㅈㅐㅇㅊㅟ -13951
ㅅㅣㄹㅅㅣㄴ -13952
▁ㄷㅗㅇㅈㅣㄴ -13953
▁ㅌㅐㅅㅇㅡㄹ -13954
OTHER -13955
▁ㅁㅜㄴㅊㅔ -13956
▁ㅂㅏㅇㅌㅗㅇ -13957
▁ㄸㅓㄱㅅㅣㄹㅅㅣㄴ -13958
IZ -13959
▁ㄴㅏㄴㅈㅗ -13960
▁YES -13961
▁ㅂㅗㄹㄱㅓ -13962
ㄹㅗㅂㅎㅕㅆ -13963
▁ㄷㅗㄱㅇㅡㅁ -13964
▁Beautiful -13965
▁Sub -13966
ㅂㅡㄴㅅㅡ -13967
▁ㅊㅓㅇㅂㅜ -13968
▁ㅇㅠㄴㅅㅏㅇ -13969
ㄱㅡㅂㅅㅜ -13970
▁ㄱㅗㄹㅁㅣㅌ -13971
▁ㄱㅣㅁㅁㅣㄴㅅㅓㅇ -13972
ㅇㅕㄴㅇㅢ -13973
▁ㅁㅓㅇㅊㅓㅇㅇㅣ -13974
ㅅㅣㄱㄱㅏ -13975
▁ㅁㅣㄹㅊㅏㄱ -13976
▁ㅂㅜㄹㄱㅗ -13977
▁ㅅㅗㄱㄴㅐ -13978
▁ㅇㅕㄹㄷㅗ -13979
43 -13980
ㄴㅗㄱ -13981
▁ㄹㅜㅅ -13982
▁ㄷㅗㄱㅇㅣㄹㅇㅣㄴ -13983
▁Give -13984
▁ㄱㅏㅇㄱㅜ -13985
▁ㅅㅗㄴㅅㅡㅇ -13986
▁003 -13987
▁ㅈㅏㄴㄴㅡ -13988
▁ㅇㅕㅇㅍㅏㄴ -13989
▁ㄱㅗㅇㄱㅕㄱㅈㅏ -13990
▁ㅋㅗㄹㄹㅔㄱㅅㅕㄴ -13991
▁ㅍㅜㄹㄹㅣㄹ -13992
▁ㅅㅣㄹㄹㅕㅆ -13993
▁ㅅㅡㅂㅈㅣ -13994
▁ㅂㅡㄹㄹㅏㄱ -13995
▁ㅂㅏㅇㄹㅏㅇㅈㅏ -13996
▁ㅇㅓㄹㄸㅓㄹㄱㅕㄹ -13997
▁JAPAN -13998
▁ㅂㅐㄱㅈㅗ -13999
▁ㅈㅜㅇㅌㅚ -14000
▁its -14001
ㅊㅜㄹㅅㅗ -14002
▁ㅈㅏㅇㅌㅓ -14003
▁Double -14004
▁ㅅㅣㅁㅅㅏㅇㅈㅓㅇ -14005
ror -14006
onight -14007
▁ㅇㅣㄴㅇㅑㅇ -14008
▁ㅅㅜㅌ -14009
▁Oper -14010
▁ㄱㅐㄱㅅㅣㄹ -14011
▁ㄷㅗㄱㅊㅣㅁ -14012
ja -14013
▁OFF -14014
▁ㅅㅜㄴㅊㅓㄴㅅㅣ -14015
▁name -14016
ㅅㅣㄱㅁㅜㄹ -14017
▁ㄱㅏㄹㄹㅣㄹ -14018
KE -14019
▁under -14020
▁ㅁㅏㄴㅌㅏ -14021
▁ㅇㅑㅇㅎㅏㄱ -14022
▁Pur -14023
ㄱㅕㄱㅈㅏ -14024
ㅎㅏㄹㅅㅣ -14025
▁ㅊㅓㄱㅌㅏㄴ -14026
▁ㅎㅐㄱㅈㅓㄴㅈㅐㅇ -14027
▁670 -14028
▁ㄴㅗㄹㄹㅐ -14029
▁ㅁㅜㄹㄱㅓ -14030
▁ㅁㅣㄷㄱㅣ -14031
▁ㅂㅏㄹㄱㅓㄹㅇㅡㅁ -14032
ini -14033
▁ㄴㅕㅇ -14034
▁ㅇㅕㄴㅁㅕㅇ -14035
▁ㅍㅗㄱㅇㅑㄱ -14036
▁ㅇㅜㄴㄷㅗㅇㅎㅚ -14037
▁385 -14038
▁ㅎㅕㄴㅇㅏㄱ -14039
▁MAR -14040
▁ㄱㅏㅈㄱㅏ -14041
▁ㅂㅐㄱㅇㅑ -14042
▁ㅅㅓㅇㄱㅛ -14043
▁HERO -14044
▁ㅅㅏㅇㅊㅡㅇㅂㅜ -14045
▁ㅇㅕㄴㅅㅏㄴㄱㅜㄴ -14046
42 -14047
▁ㄷㅔㄱㅅㅡ -14048
▁ㄷㅗㅇㅊㅏ -14049
▁ㅇㅓㅁㅊㅣㄴ -14050
▁Ref -14051
▁ㅇㅣㅁㅈㅗㅇ -14052
▁ㅊㅣㄴㅇㅣㄹㅍㅏ -14053
▁ㅅㅣㄱㄱㅏㅁ -14054
▁ㅈㅓㄴㅂㅏㄴㅂㅜ -14055
RAS -14056
▁ㅅㅣㄴㅂㅗ -14057
▁ㅅㅣㄱㄷㅏㄴ -14058
▁Gre -14059
▁True -14060
▁yul -14061
ㅅㅡㄹㄹㅏㅁㄱㅛ -14062
89 -14063
▁ㅇㅠㄴㅅㅓ -14064
▁ㅂㅜㄱㅇㅟ -14065
▁307 -14066
▁Make -14067
▁ㅂㅏㄹㄲㅡㄴ -14068
▁ㅍㅣㄹㅁㅕㅇ -14069
any -14070
▁ㅈㅜㄹㄹㅐ -14071
▁ㅊㅓㄴㅎㅗ -14072
▁ㅇㅏㄹㄹㅗㄴ -14073
ㅅㅔㄹㄹㅓ -14074
▁ㅊㅓㄱㄷㅗ -14075
▁ㅅㅣㄴㅊㅏㅁ -14076
▁ㅇㅐㄱㅌㅓ -14077
▁ㄱㅝㄴㅅㅓㄴ -14078
ellow -14079
▁gonna -14080
▁ㅂㅓㄹㅈㅓㅁ -14081
▁ㅎㅏㄴㄲㅓㅅ -14082
▁-.- -14083
▁Burn -14084
▁ㅇㅗㅅㅊㅏ -14085
▁ㄷㅡㄹㄹㅣㄴ -14086
▁ㅌㅡㄱㅊㅜㄹㄴㅏㄴ -14087
ㅂㅜㄹㅅㅏ -14088
▁ㅂㅜㄴㄱㅐ -14089
▁ㄱㅏㄴㅎㅐㅇ -14090
▁ㄴㅗㄴㅅㅏㄴ -14091
▁ㄲㅣㅁㅅㅐ -14092
▁ㄷㅏㅇㄷㅗ -14093
▁ㅈㅏㄱㅍㅜㅁㅅㅏㅇ -14094
▁ㄱㅏㄹㄱㅕ -14095
▁ㄷㅗㄱㅅㅣㄹ -14096
▁FFF -14097
ㅇㅑㅇㄱㅜ -14098
▁ㄸㅏㄴㅈㅣ -14099
▁ㅂㅏㅇㄷㅗㄱㅁㅕㄴ -14100
▁ㄲㅑ -14101
ㄱㅡㅂㅊㅏ -14102
ㅅㅡㅇㄷㅏㄹ -14103
▁MH -14104
▁ㅈㅓㄴㅇㅐㄱ -14105
ㅈㅓㄴㅂㅏㅇ -14106
▁Doc -14107
▁Mov -14108
▁Ve -14109
▁ㄱㅣㄹㅉㅜㄱ -14110
▁ㅇㅑㅇㄱㅜㅇ -14111
▁MSM -14112
▁ㅇㅝㄴㅌㅗㅇ -14113
▁TK -14114
▁2600 -14115
▁ㄴㅗㅎㅇㅏ -14116
▁ㅈㅓㅇㄱㅗㅇ -14117
▁ㅎㅡㄹㄹㅓㅆ -14118
▁ㄷㅏㅇㄴㅐ -14119
▁ㅈㅓㅂㄷㅐ -14120
▁ㅈㅗㅇㅊㅏㄱㅇㅕㄱ -14121
▁ㄱㅓㄴㅂㅏㄴ -14122
▁ㄹㅔㄹㄹㅣ -14123
▁ㅈㅓㅇㅇㅕㄹ -14124
ㅌㅣㄴㄷㅏ -14125
▁ㄱㅣㅁㅍㅜㅇ -14126
▁ㅌㅡㅁㅌㅡㅁ -14127
▁ㅈㅓㅇㅈㅜㄴㅇㅕㅇ -14128
▁Hal -14129
ㅇㅕㅇㅁㅣㄴ -14130
▁ㄱㅡㅂㅅㅏ -14131
▁ㄷㅗㄱㄱㅣ -14132
▁ㅇㅛㅇㄱㅓㅁ -14133
▁ㄱㅓㄴㅈㅕ -14134
▁ㅂㅕㄱㅎㅘ -14135
ㅅㅓㄴㅇㅕㅇ -14136
ANT -14137
ㅁㅏㄴㅅㅜ -14138
▁ㄹㅕㅇㅇㅜ -14139
▁ㄱㅘㄴㅎㅐㅇ -14140
ㅍㅏㄴㄱㅘㄴ -14141
▁ㅌㅗㅅ -14142
▁ㄱㅕㄹㅂㅏㅇ -14143
▁ㄱㅣㅁㄷㅗㅇㅈㅜㄴ -14144
▁BY -14145
▁ㄲㅏㄹㅂㅗ -14146
▁ㅂㅏㄴㅈㅡㅇ -14147
▁ㅈㅓㅇㅂㅕㄴ -14148
▁ㅎㅘㄱㅊㅜㅇ -14149
▁ㅁㅜㄴㅁㅜ -14150
ㅅㅏㅇㅈㅓㄴ -14151
▁ㅊㅓㄴㅈㅓㅇ -14152
▁ㅊㅝ -14153
▁1916 -14154
▁miss -14155
ㄴㅣㅇㄱㅜ -14156
ㅊㅏㅁㅅㅏ -14157
ㅂㅏㄹㄹㅗㄴ -14158
▁did -14159
▁ㄴㅡㅈㅊㅝ -14160
▁\[ -14161
▁ㄱㅏㅇㅎㅏㄹ -14162
ㅌㅏㄴㅂㅜㄹ -14163
▁ㅇㅛㅇㅁㅜㄴ -14164
ㄴㅔㄴㅌㅏㄹ -14165
▁ㅍㅗㄱㅈㅏㅇ -14166
ris -14167
▁ㅈㅏㅇㅎㅕㄴ -14168
▁ㅈㅣㄴㅌㅗㅇ -14169
▁Hor -14170
▁Mind -14171
▁ㅋㅔㄴㅊㅣ -14172
ㄴㅏㄴㅂㅓㄴ -14173
ㅍㅏㅁ -14174
▁ㄱㅕㅇㅁㅏ -14175
▁ㄱㅡㅁㅈㅜ -14176
▁Bon -14177
▁1913 -14178
ㅇㅡㄴㅅㅓㅇ -14179
▁ㅁㅏㄱㅎㅣㄴㄷㅏ -14180
▁ㅋㅚㄹ -14181
▁ㄷㅗㄱㄱㅏ -14182
▁ㅁㅐㄱㅇㅏ -14183
▁ㅎㅘㅇㄱㅡㅁㅅㅐㄱ -14184
▁ㅊㅞ -14185
ㅁㅕㅇㄱㅣ -14186
▁ㅈㅓㄹㄹㅗ -14187
▁707 -14188
ㅂㅓㅁㅎㅗ -14189
▁ㅇㅏㅍㅂㅏ -14190
▁ㅋㅓㄹㄹㅓㅁ -14191
andy -14192
▁ㅈㅓㄴㅅㅓ -14193
▁TECHNIKA -14194
▁VO -14195
ㄱㅘㄴㅅㅣㄱ -14196
▁ㅎㅏㅂㅅㅡ -14197
▁525 -14198
ㅂㅣㄹㄹㅗㄴ -14199
▁ㅂㅓㄹㅂㅓㄹ -14200
▁ㅇㅕㄹㅇㅕㄴ -14201
▁ㅈㅣㄹㅅㅣㄱ -14202
ives -14203
ㅍㅏㄴㅈㅣ -14204
▁ㄷㅏㄴㅇㅓㄴ -14205
▁ㅇㅝㄴㅋㅣㄹ -14206
▁ㅍㅣㅅㅂㅣㅊ -14207
▁ㅅㅓㄹㅁㅕㅇㅅㅓ -14208
▁ㅇㅣㄴㄱㅗㅇㅇㅟ -14209
Boy -14210
ava -14211
▁ㅁㅕㅇㄷㅗㅇ -14212
ㅎㅗㅁ -14213
▁ㅅㅓㅇㅈㅗ -14214
ㅂㅗㅁ -14215
ㅆㅓㅆ -14216
ㄱㅏㄴㅈㅣ -14217
▁ㅈㅓㄱㅇㅚ -14218
▁ㄱㅏㅆㅇㅓㅆ -14219
▁ㄱㅓㄴㅊㅜㄱㄱㅏ -14220
▁ㅈㅓㅁㄹㅕㅇㅈㅣ -14221
ㄹㅜㅇ -14222
▁Head -14223
ipedia -14224
▁ㄱㅡㅂㅂㅜ -14225
▁ㄷㅏㄴㄱㅜㄴ -14226
▁ㅈㅓㄴㅇㅏㅂ -14227
ㅇㅣㄹㅊㅔ -14228
▁DREAM -14229
▁Roll -14230
ㅌㅡㄹㄱㅓ -14231
▁ㅇㅛㅇㄷㅜ -14232
▁ㅂㅏㅇㅈㅗㅇ -14233
▁OUT -14234
ㅇㅏㄴㄱㅏ -14235
▁ㅇㅏㄴㅂㅏㅇ -14236
▁ㅈㅓㅇㅊㅏㄴ -14237
▁mid -14238
ㅇㅣㄹㅊㅣ -14239
ㄷㅏㅇㄷㅏㅇ -14240
▁ㄲㅡㄶㄱㅣㄴ -14241
▁ㅁㅏㄴㅊㅏㄴ -14242
▁Silver -14243
▁ㄱㅏㄴㄱㅕㄹ -14244
▁ㅂㅜㄹㄲㅗㅊㄴㅗㄹㅇㅣ -14245
▁1915 -14246
▁ㅇㅑㅇㅊㅣ -14247
▁ㄲㅜㅅ -14248
▁ㅂㅏㄱㅊㅓㄹ -14249
▁970 -14250
▁icon -14251
▁ㅇㅕㄱㅅㅜ -14252
▁ㅍㅣㄱㅅㅡ -14253
▁ㅊㅗㅇㅅㅏㄹ -14254
ㄷㅔㅇㅇㅣ -14255
ㅈㅣㄴㅂㅗ -14256
ㅇㅏㅂㄱㅏㅁ -14257
ㅆㅗ -14258
ㅂㅓㅅ -14259
ㄴㅕㄴㅊㅡㅇ -14260
▁ㅅㅡㅇㅈㅓㄴ -14261
▁ㅊㅓㄹㅇㅣㄴ -14262
FE -14263
▁Shin -14264
olding -14265
▁ㅍㅏㄹㄹㅗ -14266
ㄱㅏㅁㄷㅗㄱ -14267
▁.! -14268
▁ㅂㅏㅂㅅㅏㅇ -14269
▁ㅇㅕㄴㅇㅑㄱ -14270
ㅎㅘㄹㅅㅓㅇ -14271
▁ㅈㅓㅇㅅㅐㄱ -14272
▁ㅊㅜㄹㅎㅏㅇ -14273
ㅈㅓㅇㅎㅘㄴ -14274
▁ㅇㅑㅇㅁㅣㄴ -14275
▁263 -14276
ㅅㅏㅇㄱㅣ -14277
▁ㄸㅏㅇㅋㅗㅇ -14278
▁ㅆㅜㅇ -14279
ㅂㅕㅇㅇㅝㄴ -14280
era -14281
▁CI -14282
▁009 -14283
▁ㄴㅣㅅㅍㅗㄴ -14284
▁XM -14285
vice -14286
▁ㅇㅠㄱㅅㅜ -14287
▁ㅇㅕㄹㅈㅜㅇ -14288
▁Episode -14289
▁ㄱㅘㄴㄹㅕㄴㅈㅏ -14290
▁Imp -14291
▁ㅇㅔㄹㅈㅏ -14292
▁ㄷㅏㅇㅅㅓㄴㅈㅏ -14293
▁ㅂㅜㄴㅂㅜㄴ -14294
▁ㅇㅡㅁㄱㅏㄱ -14295
▁ㄱㅡㅁㄱㅚ -14296
▁ㅍㅣㄹㄹㅗ -14297
ㅎㅕㄴㅈㅓㅇ -14298
YO -14299
usion -14300
▁PART -14301
ㅎㅐㅁ -14302
▁346 -14303
▁402 -14304
itter -14305
▁ㅅㅣㄴㅁㅏ -14306
▁ㅎㅣㅁㅆㅡ -14307
▁ㅁㅣㄴㄱㅕㅇ -14308
▁ㅈㅓㅁㅁㅏㄱ -14309
▁ㅍㅣㄹㅈㅜㅇ -14310
▁el -14311
ㄷㅗㅇㄱㅜㄱ -14312
▁ㅂㅐㄱㅅㅓㄱ -14313
▁Second -14314
▁ㄷㅡㅇㅅㅣㄴ -14315
▁ㅅㅜㄴㅎㅕㄹ -14316
▁ㅁㅗㅁㅅㅗ -14317
▁ㅎㅕㄱㅁㅕㅇㄱㅜㄴ -14318
▁870 -14319
▁4500 -14320
ㄹㅏㅁㅎㅚ -14321
▁ㅅㅡㅂㅅㅓㅇ -14322
▁Cost -14323
ㅇㅕㅇㅁㅜ -14324
ㅌㅓㄴㅈㅡ -14325
▁ㄴㅜㄹㄹㅓㅆ -14326
▁ㅈㅜㅇㄴㅏㅁㅁㅣ -14327
ㅎㅘㄱㅇㅣㄴ -14328
▁ㅈㅏㅇㅎㅏㅂ -14329
ㅊㅓㄴㄴㅕㄴㅁㅣㄴㅈㅜ -14330
▁ㅎㅗㅇㅁㅕㅇ -14331
ㄷㅗㅇㅎㅐ -14332
▁ㅎㅜㄴㄷㅗㄱ -14333
▁276 -14334
▁283 -14335
ㅈㅓㄱㅂㅜㄴ -14336
▁ㅅㅜㄴㅇㅑㅇㅈㅓㄴㅎㅏㅁ -14337
▁ㄲㅜㅅㄲㅜ -14338
▁HC -14339
▁Sea -14340
▁ㄱㅝㄹ -14341
▁ㅈㅓㅇㅍㅏ -14342
ㅋㅐㅂ -14343
▁ㅇㅚㄴㅅㅗㄴㅈㅏㅂㅇㅣ -14344
▁ㅈㅣㄱㅈㅏㅇㅇㅣㄴ -14345
▁ㅎㅏㄴㄱㅜㄱㅈㅓㄴㄹㅕㄱ -14346
▁730 -14347
ㅇㅕㅁㅂㅕㅇ -14348
▁att -14349
▁ㄷㅏㄹㅁㅏ -14350
▁ㅈㅓㅂㅎㅐ -14351
▁ㅅㅏㄴㄷㅗㅇ -14352
▁;; -14353
▁Speed -14354
▁ㅅㅗㄴㅈㅐ -14355
▁ㅇㅕㅁㄱㅣ -14356
▁ㄹㅔㄴㅈㅣ -14357
▁RW -14358
▁ㅎㅐㅅㅅㅏㄹ -14359
▁ㅈㅓㄴㄱㅜㄱㄱㅜ -14360
BT -14361
▁-' -14362
▁940 -14363
▁ㄱㅡㅁㅇㅕㄴ -14364
▁ㅈㅓㄴㅁㅜㄴㅈㅓㅁ -14365
ific -14366
▁ㄱㅡㅁㅅㅏ -14367
ㅊㅗㄴㄷㅗㅇ -14368
hel -14369
▁ㅂㅏㄹㅌㅓ -14370
ㅈㅜㄴㅈㅓㅁ -14371
▁ㅅㅔㄱㅅㅕㄴ -14372
▁ㅋㅔㄴㅅㅣㄴ -14373
▁ㄱㅏㅇㅈㅓㅇㅎㅗ -14374
▁sy -14375
▁Fin -14376
▁ㅅㅓㅇㅈㅘ -14377
ㄱㅗㄹㅁㅗㄱ -14378
▁ㅁㅏㄹㄹㅕㅆ -14379
▁ㅇㅡㄴㅋㅓ -14380
▁ㅇㅣㄴㄱㅓㄴ -14381
▁ㅇㅏㄴㅆㅡ -14382
▁ㅇㅣㅇㅇㅓ -14383
▁ㅇㅕㅇㅊㅓㄴ -14384
▁ㅂㅏㄹㅁㅕㅇㅍㅜㅁ -14385
▁ㅍㅡㄹㄹㅣㅅ -14386
▁ㅎㅓㄱ -14387
ㄴㅗㄹㄹㅗ -14388
▁LoL -14389
▁ㄷㅏㅁㅇㅏ -14390
go -14391
▁ㄴㅡㄹㄹㅕㅆ -14392
▁ㅁㅏㅌㄱㅣㄹ -14393
▁ㅂㅏㄹㄹㅗ -14394
▁ㄴㅏㅁㅇㅝㄴ -14395
ㄱㅡㄹㄱㅓ -14396
ken -14397
▁ㅋㅗㄴㅌㅡ -14398
▁ㄴㅗㄱㅌㅓㄴ -14399
▁Cloud -14400
▁ㅂㅔㄴㅈㅏ -14401
▁ㅈㅣㄴㄹㅜ -14402
▁ㅎㅠㅇㄴㅗ -14403
▁ㄱㅕㄹㅍㅏㄴ -14404
▁ㅇㅕㅇㄹㅏㄱㅇㅓㅄ -14405
▁ㅎㅡㅁㅈㅣㅂ -14406
▁ㅍㅣㄹㄹㅣㅂㅅㅡ -14407
▁VOD -14408
▁ㅎㅏㅂㅎㅏ -14409
▁XG -14410
▁ㄴㅏㅁㅇㅣㄴ -14411
ㅈㅓㄴㄷㅡㅇ -14412
▁ㄷㅡㅇㅂㅜㄹ -14413
▁ㅍㅏㄴㄱㅜㄱ -14414
71 -14415
ㅈㅡㅂ -14416
▁ㄱㅗㄱㅁㅜㄹ -14417
▁015 -14418
▁920 -14419
▁Rep -14420
▁ㅊㅏㅂ -14421
▁ㅅㅣㅁㅈㅐ -14422
▁ㅎㅏㅇㅁㅜㄴ -14423
ㄹㅓㅂㅎㅣ -14424
▁ㅂㅜㄱㅅㅡ -14425
ㅈㅣㄱㄹㅕㄱ -14426
▁ㅊㅗㅇㄹㅕㄱ -14427
▁ㅋㅚㄹㄹㅡㄴ -14428
ese -14429
▁ㄲㅗㄴㄷㅐ -14430
▁ㅃㅓㄴㅎㅣ -14431
▁ㄱㅡㄴㄱㅏㄴ -14432
▁ㅇㅕㅇㅇㅕㄴ -14433
▁ㅌㅏㄹㄹㅔ -14434
▁ㄱㅕㄹㅅㅏㄴ -14435
▁ㅁㅐㅇㅈㅜ -14436
▁ㅂㅣㅈㅇㅓ -14437
▁TUN -14438
ㄷㅡㄱㅇㅣ -14439
▁EDG -14440
▁Cross -14441
▁ㄱㅜㅇㅅㅏ -14442
▁ㅇㅕㅇㅅㅣㄱ -14443
▁ㅇㅘㅆㄷㅏ -14444
▁ㄱㅕㄹㅈㅓㅁ -14445
ㅍㅐㅁ -14446
▁ㅉㅏㄹㄹㅕㅆ -14447
ㅍㅡㄹㄹㅣㄴ -14448
▁ㄱㅗㄹㅊㅣㅅ -14449
▁work -14450
ㅎㅡㅇㅅㅣ -14451
▁Thank -14452
▁index -14453
▁ㄱㅏㅁㅊㅏ -14454
▁ㅅㅏㄴㅅㅏ -14455
▁ㅅㅏㅇㅅㅡㅂ -14456
▁ㅌㅗㅇㅎㅐㅇㄹㅛ -14457
▁ㅎㅘㅇㄱㅡㅂㅎㅣ -14458
▁XIII -14459
ㅍㅣㄴㅅㅡ -14460
▁ㅈㅏㅇㄹㅕㄹ -14461
▁Mid -14462
ㅈㅏㅂㅎㅕ -14463
▁International -14464
▁Earth -14465
▁STAND -14466
▁ㄴㅏㄴㅌㅏ -14467
▁ㅁㅕㄹㅊㅣㅇ -14468
▁ㅇㅕㅇㅅㅐㅇ -14469
of -14470
▁ㅊㅣㅅ -14471
▁Sign -14472
▁ㅋㅐㅇ -14473
▁ㄹㅗㄴㄷㅗ -14474
▁KK -14475
▁der -14476
▁ㅅㅣㄴㅍㅏ -14477
▁ㅌㅐㄱㅎㅏㄴ -14478
▁261 -14479
▁ㄴㅓㄹㄴㅓㄹ -14480
▁ㅇㅛㅇㅇㅕㄱ -14481
▁big -14482
ㅂㅕㅇㅈㅐ -14483
▁inf -14484
ㄷㅏㅇㅅㅓㄴ -14485
ㅎㅕㄴㅅㅓㄱ -14486
▁ㅅㅏㄹㅅㅐㅇ -14487
▁ㅈㅓㅂㅅㅓㄴ -14488
ㅅㄱㅏㅄ -14489
▁ㅎㅏㄱㅇㅜ -14490
WC -14491
ㅅㅓㅇㅇㅕㄹ -14492
eck -14493
▁273 -14494
▁ㅃㅑㅁㅊㅣ -14495
▁ㅎㅏㅂㅅㅣ -14496
▁ㅎㅡㄱㅅㅏ -14497
▁ㄱㅜㅇㅇㅡㄹ -14498
ㅅㅐㄱㄷㅐ -14499
▁ㄷㅚㄴㅈㅏㅇ -14500
ㅁㅕㄴㅊㅔ -14501
ㅌㅗㄹㄹㅣ -14502
ㅅㅏㅇㅊㅓㄴ -14503
▁ㅁㅐㄱㄱㅣ -14504
▁ㅁㅕㅇㅈㅔ -14505
ㄱㅕㅇㅎㅘㄴ -14506
AMP -14507
▁ㅅㅣㄹㅌㅐ -14508
▁ㅅㅣㅁㅅㅣㄴ -14509
▁ㅇㅏㄱㄷㅗㅇ -14510
▁ㅇㅏㄹㅍㅗㄴ -14511
▁ㅇㅝㄴㅎㅏㄹ -14512
▁930 -14513
ating -14514
ought -14515
▁ㅈㅡㄹㅂㅣ -14516
▁ㄷㅗㅊ -14517
ㄴㅡㅇㅅㅏ -14518
▁ㄱㅏㅇㅅㅣㄴ -14519
▁END -14520
▁ㅅㅣㄴㅇㅜ -14521
91 -14522
▁JO -14523
▁2800 -14524
ㅎㅏㄹㅇㅏ -14525
ㅁㅏㅇㄱㅏㅆ -14526
▁ㄴㅏㅁㄱㅣㄹ -14527
▁ㄷㅓㅍㅇㅓ -14528
▁ㅂㅗㄴㄱㅛ -14529
▁ㅈㅣㄴㅇㅕㄹ -14530
▁ㅍㅓㄴㄷㅣㅇ -14531
rip -14532
▁ㅇㅏㄴㅇㅣㄹ -14533
▁ㅎㅏㄴㅇㅑㅇㄷㅐ -14534
▁ㅇㅝㅇ -14535
▁ㄱㅜㅇㅇㅣ -14536
▁ㅆㅔㄴ -14537
ㄹㅏㄴㅊㅔ -14538
▁nhn -14539
▁Dav -14540
▁ㄷㅏㅇㄴㅛ -14541
ㄷㅗㅇㅈㅣㄴ -14542
ㅇㅐㅇㄱㅡㄹ -14543
ㅎㅏㄴㅈㅓㅇ -14544
▁ㄱㅜㅇㅈㅜㅇ -14545
GHT -14546
ima -14547
▁VOL -14548
▁black -14549
▁ㅂㅓㄴㅇㅏㄴ -14550
▁ㄷㅏㅇㅎㅗㄱ -14551
▁ㅁㅐㅇㅁㅗㄱ -14552
arn -14553
▁Tok -14554
▁doc -14555
▁ㅇㅛㅇㅁㅗ -14556
▁ㅈㅓㅁㅊㅕ -14557
▁ㅌㅐㄱㅈㅣ -14558
HO -14559
imate -14560
ㅌㅔㄱㅊㅓ -14561
▁Water -14562
▁ㄱㅡㅁㄱㅘㅇ -14563
▁ㅈㅓㄹㅁㅕㄹ -14564
ule -14565
ㅃㅜㄹㅅㅗ -14566
ㅂㅓㅂㄱㅘㄴ -14567
▁ㅇㅓㅅㄱㅏㄹㄹㅣ -14568
▁257 -14569
▁GSM -14570
▁ㅇㅣㅅㄸㅏ -14571
▁ㄱㅣㅁㅈㅓㅇㅇㅜ -14572
▁ㄱㅕㅇㅊㅣ -14573
▁ㅁㅗㄹㅋㅏ -14574
▁ㅅㅓㄴㅇㅢ -14575
▁ㅅㅕㅅㅇㅏ -14576
ㅎㅏㄱㅅㅏㄹ -14577
ojo -14578
▁ㅈㅡㅅ -14579
ㅅㅓㄴㅈㅗㄱ -14580
▁ㅅㅗㄱㅇㅣㄴ -14581
uts -14582
oman -14583
▁590 -14584
ㅁㅜㄴㅇㅔ -14585
ㅅㅏㄹㄹㅕ -14586
▁30000 -14587
▁Rel -14588
▁bottom -14589
▁ㅁㅜㄲㅇㅡㅁ -14590
▁ㅂㅕㄹㄱㅘㄴ -14591
▁ㅅㅓㄴㅇㅏㄱ -14592
▁1909 -14593
▁ㅅㅜㄱㄷㅏㄹ -14594
▁ㅇㅕㅇㅈㅗㅇ -14595
▁ㅈㅗㅇㅇㅑㅇ -14596
▁COL -14597
ㅁㅔㄹㄹㅗ -14598
▁ㅎㅗㄴㅁㅏ -14599
▁ㅇㅜㅇㄷㅓㅇㅇㅣ -14600
BLE -14601
▁ㅁㅜㄴㄷㅐ -14602
ㅇㅝㄴㅈㅜㄴ -14603
▁ㅊㅗㅇㄱㅕㄱㅈㅓㄴ -14604
▁ㅁㅓㄱㅎㅕㅆ -14605
ault -14606
▁ㄲㅐㅆ -14607
ㄴㅓㄹㄹㅣ -14608
ㅍㅗㄹㄹㅗㄴ -14609
▁ㄱㅕㄴㅎㅝㄴ -14610
▁ㅎㅐㅇㅎㅏㄴ -14611
▁ㅅㅣㄴㄷㅗㅇㅇㅕㅂ -14612
▁ㅎㅡㄴㄷㅡㄹㄹㅣㅁ -14613
ㅈㅣㄹㅈㅣ -14614
ㄴㅏㄴㅂㅏㅇ -14615
▁ㅂㅕㄹㅂㅣㅊ -14616
KA -14617
▁ㄲㅗㅇㄲㅗㅇ -14618
▁Electrical -14619
CO -14620
▁bu -14621
▁Wel -14622
▁pack -14623
ㅊㅜㅇㅈㅓㄴ -14624
▁ㅅㅏㄴㅁㅜㄹ -14625
▁ㅊㅜㅇㅁㅏㄴ -14626
▁ㅊㅜㄹㅇㅣㅂㅁㅜㄴ -14627
▁1908 -14628
ㅅㅏㅇㅇㅓ -14629
▁ㅅㅗㄴㅇㅣㄱ -14630
▁ㅈㅜㄴㅁㅏㄹ -14631
41 -14632
▁give -14633
▁ㄱㅏㄱㅎㅏ -14634
▁ㅅㅣㄴㅇㅗ -14635
ㅁㅏㅇㄱㅏㄹ -14636
▁ㄷㅗㅇㄹㅕㄱㅇㅝㄴ -14637
87 -14638
▁Pres -14639
▁Vita -14640
▁ㅅㅓㄴㅁㅣ -14641
▁ㄱㅏㄴㅎㅓㄹ -14642
▁ㅇㅔㄹㅌㅡㄴ -14643
▁ㅊㅓㅇㄷㅏㅁ -14644
ㄷㅡㄹㄱㅣ -14645
ㅅㅣㅁㅋㅗ -14646
ㅈㅓㅇㅅㅜ -14647
▁Extra -14648
▁ㄱㅕㅇㅊㅏ -14649
▁ㄱㅏㅁㄷㅗㄱㄱㅘㄴ -14650
▁ㅁㅣㄴㅂㅕㅇㅎㅓㄴ -14651
▁ㅁㅗㅇㅋㅡ -14652
▁ㅅㅜㄴㅇㅜㄱ -14653
▁ㄷㅏㄹㅅㅓ -14654
▁ㄹㅗㄴㄷㅡ -14655
ㅎㅕㄴㅇㅕㄱ -14656
▁ㄱㅕㄹㅌㅏㄱ -14657
▁ㅈㅡㄱㅎㅡㅇ -14658
▁ㅂㅜㄹㄹㅓㅆㅇㅡ -14659
▁ㅇㅡㅁㅅㅣㄱㅁㅜㄹ -14660
▁ㅅㅏㅁㅊㅓㄱ -14661
▁Guard -14662
▁ㄱㅜㄴㄱㅏ -14663
▁ㅇㅣㄹㅈㅜ -14664
▁Ki -14665
▁DIS -14666
▁Two -14667
▁ㅇㅝㄴㅊㅗ -14668
▁ㅅㅣㄴㅇㅏㄴ -14669
▁TRPG -14670
ㅇㅕㄱㄲㅜ -14671
ㄷㅡㄹㄹㅣㄴ -14672
▁ㅅㅏㅇㄷㅗㅇ -14673
▁ㅇㅘㅇㅈㅓㄴ -14674
▁ㅈㅓㄴㄱㅝㄴ -14675
ㅈㅜㄴㅇㅜ -14676
▁ㅎㅏㄴㄹㅣㅁ -14677
▁ㅊㅜㄴㅊㅓㄴㅅㅣ -14678
▁too -14679
ㄱㅣㄹㄷㅗㅇ -14680
▁ㄴㅔㄱㅌㅗㄴ -14681
▁ㅎㅏㅇㄹㅕㄹ -14682
▁ㅇㅏㅁㅅㅏㄹㄷㅏㄴ -14683
▁ㅎㅗㄱㅈㅏ -14684
ㄱㅝㄴㄹㅕㄱ -14685
ㅂㅏㄴㅅㅜ -14686
▁ㅍㅗㄱㅇㅜ -14687
▁ㅁㅏㄹㄹㅣㄴㄷㅏ -14688
▁KM -14689
ㄲㅏㄱ -14690
▁277 -14691
ㅁㅜㄹㅁㅕ -14692
▁ㄱㅏㅇㅇㅜ -14693
ㅅㅣㄱㅈㅏㅇ -14694
▁wikipedia -14695
63 -14696
▁ㄱㅜㄱㄱㅘ -14697
▁Ob -14698
▁ㅇㅏㅍㅅㅓㅆ -14699
▁ㄴㅐㅁ -14700
▁Qual -14701
▁ㅎㅏㄹㅋㅟ -14702
▁ㅁㅐㄴㅅㅕㄴ -14703
▁ㅁㅜㄲㅇㅣ -14704
ㅁㅣㄴㅌㅓㄴ -14705
▁ㅎㅏㄱㅁㅕㅇ -14706
▁Id -14707
▁ㅇㅕㅇㅇㅝㄹ -14708
▁ㅌㅏㄹㄹㅗ -14709
▁ㅇㅕㅇㄱㅓㄹ -14710
▁ㅁㅜㄹㅇㅢ -14711
▁ㅎㅗㄴㄴㅏ -14712
▁ㅎㅚㅇㅍㅗ -14713
ㅂㅜㄴㅂㅕㄹ -14714
ㅅㅏㅇㅇㅜㄱ -14715
▁ㄱㅗㅇㅅㅏㅇ -14716
▁ㅁㅣㄹㅍㅖ -14717
▁ㅂㅡㄹㄹㅓㅁ -14718
▁ㅇㅏㄴㄷㅏㄹ -14719
IVER -14720
come -14721
▁ㄲㅗㅈㅎㅕ -14722
▁ㅁㅜㄹㄷㅡㄴ -14723
▁ㅅㅣㄴㅂㅜㄴㄷㅏㅇㅅㅓㄴ -14724
ㅅㅓㅇㅈㅐ -14725
▁ㅂㅏㄱㄹㅕㄱ -14726
▁Maj -14727
▁HAPP -14728
ㄹㅗㄴㅎㅚ -14729
ㅈㅣㄴㅍㅛ -14730
▁friend -14731
▁ㅅㅣㅁㅊㅡㅇ -14732
▁ㅇㅗㄹㄹㅕㅆㅇㅡ -14733
▁Prot -14734
▁ㄱㅜㅇㄴㅕ -14735
▁ㄴㅓㄼㅎㅕ -14736
ㅊㅣㅁㅇㅓㅄㅇㅣ -14737
▁ㅇㅑㅇㅂㅜ -14738
▁ㅅㅣㅂㅇㅣ -14739
▁ㅇㅣㄹㅊㅜㄱ -14740
▁415 -14741
▁Chall -14742
▁through -14743
▁Ban -14744
▁ㅊㅣㅁㅅㅣㄹ -14745
▁ㄱㅏㅇㄱㅕㅇㅍㅏ -14746
ection -14747
▁Fight -14748
▁ㄱㅏㄱㄱㅐ -14749
▁ㄱㅏㅇㅂㅏㄱ -14750
▁ㅇㅝㄴㅅㅑㅅ -14751
▁ㅅㅣㄹㅍㅣ -14752
▁ㅈㅐㅅ -14753
▁ㅋㅣㅂ -14754
97 -14755
▁ㅈㅗㅇㄱㅜㄱ -14756
ㄴㅝㅆ -14757
▁ㅇㅏㄹㄹㅐ -14758
▁PRE -14759
ㄹㅏㅇㅋㅏ -14760
▁ㅅㅏㄴㅇㅛ -14761
ㅈㅓㄱㅅㅓㄴ -14762
▁ㅇㅕㄴㅅㅣ -14763
ues -14764
▁#== -14765
▁ㅂㅕㄴㅂㅕㄴ -14766
▁ㅇㅏㄴㅅㅏㅇ -14767
ㅇㅓㅋ -14768
IUM -14769
▁Dynam -14770
▁ㅇㅏㄴㅈㅐ -14771
▁ㅇㅡㅁㅇㅠ -14772
▁ㅅㅏㅁㄱㅜㄱㅈㅓㄴ -14773
▁Jump -14774
▁ㅉㅗㅈㄱㅕ -14775
▁ㅊㅜㅇㅊㅓㅇㄷㅗ -14776
▁910 -14777
▁ㅇㅕㅇㅅㅏㅇㅁㅜㄹ -14778
47 -14779
▁mag -14780
▁ㅆㅗㄹㄹㅣ -14781
▁ㅈㅜㅇㅎㅏㄱ -14782
▁Original -14783
▁ㄱㅣㅍㅅㅜㄱㅎㅣ -14784
▁ㄷㅗㅇㄱㅏㅂㄴㅐ -14785
axy -14786
enc -14787
ota -14788
▁fire -14789
▁ㅇㅘㄴㅊㅣ -14790
ㅇㅣㄴㅇㅕㄱ -14791
ㅇㅣㄹㄹㅣㅇ -14792
▁271 -14793
▁Cho -14794
ㅁㅓㄴㅈㅣ -14795
▁ㅃㅣㄱ -14796
▁ㅎㅚㄱㄱㅣ -14797
▁MTV -14798
▁ㅅㅗㄴㅈㅜ -14799
▁ㅂㅏㄱㄷㅐ -14800
▁ㅁㅏㄴㄷㅡㅂㄴㅣ -14801
▁XL -14802
▁ㄷㅣㅅ -14803
ㄷㅗㅇㅎㅘ -14804
ㅁㅏㄱㅇㅣ -14805
istory -14806
▁ㅂㅏㄴㄱㅗㅇ -14807
▁ㅍㅕㄴㅈㅣㅂㅈㅏㅇ -14808
▁ㅎㅡㄴㄷㅡ -14809
▁ㅂㅜㄱㄱㅕㅇ -14810
▁ㅍㅔㄴㄷㅓㄴㅌㅡ -14811
▁ㅋㅜㅁ -14812
▁ㅇㅗㅇㄹㅣㅂ -14813
▁ㅈㅏㄱㅅㅔㄴ -14814
▁Ray -14815
ㄹㅔㄴㅊㅣ -14816
ㅎㅏㄴㄷㅐ -14817
▁ㄱㅣㅁㅅㅓㅇㅈㅜ -14818
▁ㅎㅕㅇㅇㅛㅇㅅㅏ -14819
▁du -14820
▁ㅅㅏㄴㅈㅐ -14821
ㅍㅜㅇㅅㅓㄴ -14822
▁ATP -14823
▁ㅂㅗㄴㅅㅐㄱ -14824
▁ㅈㅓㄴㅁㅏㄹ -14825
▁Jr -14826
▁sur -14827
▁ㅅㅣㄱㅇㅣ -14828
▁ㅇㅓㄺㅁㅐ -14829
▁ㅇㅕㄴㅅㅣㄴ -14830
▁ㅎㅏㅁㄹㅑㅇ -14831
ved -14832
▁WD -14833
ㄹㅔㄱㅅㅡ -14834
▁ㅅㅣㄹㅈㅡㅇ -14835
▁ㅇㅣㅂㄱㅏㄱ -14836
▁Hand -14837
▁ㅍㅏㄴㅊㅣ -14838
▁ㅇㅏㅍㄴㅏㄹ -14839
▁ㅇㅡㅇㅇㅝㄴㄷㅏㄴ -14840
ㄷㅣㅆ -14841
▁475 -14842
▁ㄷㅗㄹㄹㅣㅁ -14843
▁ㅎㅏㄴㅅㅣㄱ -14844
▁RK -14845
▁Sin -14846
▁ㄱㅗㅇㅈㅗ -14847
▁ㅈㅓㄴㄴㅚ -14848
▁ㄱㅕㅇㅊㅜㄴ -14849
▁ㄱㅣㅁㄴㅏ -14850
▁ㄱㅗㅇㅁㅜㄴ -14851
▁ㅈㅗㅇㅈㅏㅇ -14852
▁ㅊㅣㅇㅎㅐㅆ -14853
▁Forever -14854
▁ㅈㅜㅇㅂㅗ -14855
▁Street -14856
▁ㅇㅑㅇㅈㅜㄴㅎㅕㄱ -14857
ㅇㅕㅇㅈㅐ -14858
▁ㅊㅓㄴㅁㅕㅇ -14859
ㄹㅏㄹㄹㅏ -14860
ㄹㅡㅂㅆㅡ -14861
▁Intel -14862
▁little -14863
aeb -14864
▁ro -14865
▁che -14866
ISE -14867
▁DRA -14868
▁ㅊㅜㄹㅈㅏㅇㅅㅗ -14869
▁nic -14870
▁ㄱㅏㄴㅅㅓㄴㅂㅓ -14871
▁god -14872
▁ㅈㅡㅂ -14873
▁ㄸㅓㄹㄹㅣ -14874
▁ㄲㅗㅂㅎㅕㅆ -14875
▁ㅅㅜㄱㅅㅓㅇ -14876
por -14877
akes -14878
▁ㅅㅣㅁㅊㅟ -14879
▁ㅍㅣㄴㅊㅣ -14880
▁Ko -14881
▁518 -14882
▁Mill -14883
▁Parad -14884
▁ㄱㅘㄴㅅㅓㅇ -14885
▁ㅈㅓㄴㄹㅑㅇ -14886
▁ㅈㅜㅇㅈㅗㅇ -14887
▁ㅁㅏㄴㅎㅏㄴ -14888
▁Cle -14889
ㄴㅑㅇㅈㅓ -14890
▁ㅅㅓㄱㅈㅐ -14891
▁ㄱㅕㄹㅇㅕ -14892
▁ㅅㅣㄹㅁㅏ -14893
ㅌㅓㄹㄹㅣㅇ -14894
▁ㄱㅏㅂㄴㅣ -14895
▁ㅊㅏㅇㄴㅕ -14896
▁ㄱㅜㄱㅇㅕㅇ -14897
▁TJ -14898
▁ㄷㅐㅇ -14899
▁ㅂㅏㄱㅁㅜ -14900
▁ㅊㅏㅁㅎㅚ -14901
▁ㅎㅐㅇㅈㅣㄴㄱㅗㄱ -14902
▁338 -14903
▁act -14904
ㅁㅣㄴㅅㅓㄱ -14905
▁020 -14906
▁Chaos -14907
▁ㅈㅣㅂㅎㅐㅇㅇㅠ -14908
▁323 -14909
▁ㅂㅐㄱㄱㅣ -14910
▁ㄴㅏㄱㅈㅓㅁ -14911
▁ㄷㅏㄴㅁㅏㅅ -14912
over -14913
▁run -14914
ㅈㅜㅇㅇㅣㄹ -14915
▁ㅅㅗㄱㄱㅗㄱ -14916
▁ㅇㅝㄴㅅㅓㄱ -14917
▁ㄱㅘㅇㅇㅕㄱㅈㅏ -14918
▁ㅈㅏㅇㅇㅝㄴㅈㅜㄴ -14919
ㄷㅔㄱ -14920
▁ㄴㅏㄱㅎㅜ -14921
▁ㅎㅣㄹㄷㅔ -14922
ㅈㅏㅇㅎㅜㄴ -14923
▁Lab -14924
▁ㄱㅡㄹㄹㅜ -14925
▁ㅃㅏㅇㅈㅣㅂ -14926
▁ㅁㅣㄴㅅㅓㄴ -14927
▁ㅍㅣㅅㅈㅜㄹ -14928
▁Dep -14929
▁ㅂㅐㄹㄹㅠ -14930
▁ㅈㅜㄴㅋㅗ -14931
▁ㅂㅏㄹㅅㅗㅇ -14932
▁Right -14933
ㅅㅏㅇㅇㅛㅇ -14934
oft -14935
ㅋㅠㄹ -14936
▁ㄱㅏㅁㅎㅘ -14937
ㅁㅓㄱㅂㅏㅂ -14938
▁ㄱㅘㅇㄴㅕㄴ -14939
▁ㅊㅏㄱㅅㅣㄹ -14940
ㄷㅐㄹ -14941
▁ㅂㅔㄴㅊㅓ -14942
▁Global -14943
▁Cast -14944
ㅈㅓㄱㅇㅡ -14945
▁ㅇㅏㄹㅌㅏ -14946
▁ㄷㅗㅇㅇㅡㅁ -14947
▁Iron -14948
▁ㄱㅓㅁㅈㅣㄴ -14949
▁ㅈㅏㅇㄱㅝㄴ -14950
▁ㅃㅐㄹ -14951
▁COST -14952
▁ㄲㅡㅀㅇㅣ -14953
under -14954
▁ㅈㅓㅇㄹㅑㄱ -14955
ㄷㅗㄹㄹㅣㄴㄷㅏ -14956
▁ㅂㅏㄱㅁㅣㄴㅇㅜ -14957
▁Ur -14958
▁ㅂㅣㄱㅅㅡ -14959
▁ㅇㅣㄴㅍㅕㄴ -14960
▁ㅊㅣㄴㄷㅗㅇㅅㅐㅇ -14961
▁ㅁㅜㅅ -14962
▁ㅂㅏㄱㄱㅓㄴㅇㅜ -14963
▁ㅂㅗㄴㄱㅣ -14964
▁ㅁㅏㅈㅊㅜㅁㅂㅓㅂ -14965
▁282 -14966
ㄹㅏㄴㅊㅣ -14967
▁ㅈㅣㄴㅈㅓ -14968
ael -14969
▁lat -14970
ㅅㅏㅇㅅㅏ -14971
ㅈㅣㄴㄹㅕㄱ -14972
iko -14973
▁ㄱㅟㄴ -14974
inity -14975
▁ㄷㅗㄱㅅㅣㄴ -14976
▁ㅁㅏㄹㄷㅏㄴ -14977
▁ㅁㅣㄹㅇㅑㅇ -14978
▁ㅈㅜㅇㅇㅣㄹ -14979
▁cb -14980
ㅅㅣㄴㅅㅜ -14981
▁ㄱㅡㄹㄱㅟ -14982
▁ㄱㅡㅁㅈㅔ -14983
▁ㅎㅕㄹㅌㅜ -14984
▁ㅅㅣㄱㅌㅏㄱ -14985
▁ㅎㅗㄹㄷㅓ -14986
▁ㅇㅑㅇㅎㅐ -14987
▁ㅂㅜㄴㄱㅘㅇ -14988
▁ㅊㅣㄹㅅㅓㅇ -14989
▁........ -14990
acle -14991
cept -14992
▁ㄷㅏㅇㄱㅘ -14993
▁ㅂㅔㄴㄷㅏ -14994
▁ㅊㅗㄱㅁㅐ -14995
ㅈㅏㅇㅇㅕㄱ -14996
▁ㅎㅗㄱㅅㅓㅇ -14997
ㅌㅐㄱㄱㅡㄴ -14998
▁Studio -14999
▁ㅂㅏㄹㅈㅗㄱ -15000
▁ㅎㅗㄱㅎㅏㄴ -15001
▁Christmas -15002
▁ㅈㅡㅇㅁㅕㅇㅅㅓ -15003
▁Circ -15004
▁324 -15005
▁ㅇㅠㄱㅅㅗㄴ -15006
▁ㅉㅓㄹㅉㅓㄹ -15007
▁ㅌㅡㄱㅂㅕㄹㅂㅓㅂ -15008
ㅅㅡㄹㄹㅔ -15009
ㅈㅗㅎ -15010
ㄷㅏㄱㄸㅡ -15011
▁ㅎㅏㅂㅅㅓㅇㅇㅓ -15012
▁ㅇㅡㅁㅇㅏㄱㅅㅣㄹ -15013
▁ㅎㅓㄴㅈㅓㅇ -15014
▁ㅅㅏㅇㄹㅠㄱㅈㅏㄱㅈㅓㄴ -15015
▁ㅈㅐㄴ -15016
▁ㅂㅏㄹㄷㅡ -15017
▁ㅂㅓㅂㄱㅠ -15018
▁ㄱㅐㄱㅇㅝㄴ -15019
▁ㅁㅏㅈㄷㅏㄱㄸㅡ -15020
ㄷㅏㅎ -15021
▁ㄲㅡㅌㅈㅏ -15022
▁ㅂㅗㅇㅎㅐ -15023
▁ㅇㅛㅇㅁㅏ -15024
▁ㅈㅏㅇㅁㅏ -15025
ㄷㅡㅇㅂㅕㅇ -15026
ㅇㅜㅅㅈㅣㅂ -15027
HS -15028
▁ㅎㅗㅇㅅㅣ -15029
▁ㅁㅜㄴㄷㅡㄱ -15030
▁TER -15031
ㅇㅣㄹㅁㅜ -15032
▁ㅁㅣㅅㅁㅣㅅ -15033
pha -15034
ㄴㅏㄴㅁㅣㄴ -15035
▁ㅇㅕㄴㄲㅗㅊ -15036
▁sub -15037
▁ㄱㅓㄹㅍㅡ -15038
▁ㅈㅓㄴㅇㅢ -15039
▁ㅈㅓㅇㄷㅏㄴ -15040
▁ㅎㅘㄴㅅㅣ -15041
▁ㄱㅏㅇㅁㅜㄹ -15042
▁ㅂㅓㅁㄹㅏㅁ -15043
▁ㅍㅗㄱㄹㅕㄹ -15044
▁268 -15045
▁GUMI -15046
▁mind -15047
ㄷㅏㅅㅁㅜㄹ -15048
ㄷㅗㅇㅎㅜㄴ -15049
▁YTN -15050
ㅈㅔㄴㄷㅓ -15051
▁ㅈㅏㅇㅈㅐ -15052
▁ㄱㅘㄴㅅㅣㅁㅅㅏ -15053
▁ㅇㅡㅁㅇㅑㅇㅅㅏ -15054
yl -15055
▁ee -15056
▁309 -15057
ㅇㅕㄴㄱㅣ -15058
▁ㅂㅏㄹㄷㅔ -15059
▁ㅈㅏㅇㅌㅐ -15060
ㅅㅗㄱㅅㅓㄴ -15061
▁ㅁㅓㄱㅇㅕㅆ -15062
▁Lord -15063
▁ㅁㅏㄹㅂㅓㄹ -15064
▁ㅅㅏㄱㄱㅏㅁ -15065
▁ㅍㅏㄹㅋㅗㄴ -15066
▁ㅂㅜㄹㄷㅗ -15067
▁ㅅㅜㅁㄱㅣㄹ -15068
▁Walk -15069
▁size -15070
▁ㅎㅏㄹㄹㅐ -15071
ㅇㅗㄴㅅㅡ -15072
▁ㄷㅏㄴㄷㅜ -15073
ipp -15074
▁ㅎㅏㅂㅎㅐ -15075
▁ㅂㅜㄹㅎㅜ -15076
▁ㅈㅏㅇㅎㅏㅇ -15077
▁Plat -15078
ㅎㅕㅇㅊㅏ -15079
▁ㅂㅕㄱㅁㅕㄴ -15080
▁006 -15081
no -15082
▁?" -15083
▁ㄴㅖ -15084
▁ㄷㅔㄹㄹㅏ -15085
▁ㅈㅓㄴㅎㅢ -15086
▁people -15087
▁Dist -15088
▁ㅁㅏㄴㄹㅣ -15089
▁ㅅㅓㅇㅎㅗ -15090
▁740 -15091
▁ㄴㅏㄲㅇㅏ -15092
▁ㅂㅣㄴㅌㅣ -15093
▁ㅁㅏㅈㅅㅓㄹ -15094
ios -15095
ㄴㅏㄹㄹㅣㄴ -15096
▁ㄹㅓㄴㄷㅡㄹ -15097
▁ㄱㅗㄹㅍㅏㄴㅈㅣ -15098
▁ㅅㅜㄴㅇㅐ -15099
ㄱㅕㅂㅅㅏㄹ -15100
▁ㄹㅣㅇㄹㅣㅇ -15101
▁ㅈㅣㄱㅎㅏㅁ -15102
▁ElectricalBoy -15103
ba -15104
reme -15105
ㅈㅏㄱㅈㅓㅁ -15106
PGA -15107
▁may -15108
ㄷㅗㄱㅅㅓㅇ -15109
▁ㅇㅏㄱㅅㅜㄴㅎㅘㄴ -15110
ㄱㅜㄱㅈㅓㄱ -15111
▁File -15112
▁Hall -15113
▁ㅅㅏㄴㄷㅗ -15114
▁ㅂㅜㄹㅂㅗㄱ -15115
▁ㅅㅏㅁㄱㅕㅂㅅㅏㄹ -15116
▁ㄷㅠㄴ -15117
▁Armor -15118
▁ㄱㅜㅇㄱㅣ -15119
ㅅㅓㄱㅎㅕㄴ -15120
ㅈㅓㅇㅍㅏㄴ -15121
▁ㅈㅓㅇㅅㅏㅇㅇㅣㄴ -15122
▁294 -15123
▁ㄴㅐㅇㅅㅗ -15124
▁ㅂㅏㄴㅇㅑ -15125
▁ㅅㅣㄴㅇㅣㄹㅂㅗㄴ -15126
▁Bill -15127
▁ㅎㅐㅇㅅㅓㄴ -15128
▁ㄱㅕㅇㅈㅐㅇㅅㅏ -15129
▁ㅈㅣㅇㅂㅕㅇㅈㅔ -15130
▁EG -15131
▁wr -15132
pect -15133
▁ㅅㅏㅇㅅㅓㄴ -15134
▁ㅎㅣㅁㄷㅡㄴㄷㅔ -15135
▁Ak -15136
ㅂㅏㄷㅇㅏ -15137
▁ㅁㅣㄴㄴㅏ -15138
▁ㅂㅏㄱㅅㅣ -15139
▁Group -15140
▁ㅅㅓㅇㅇㅘㅇ -15141
▁ㅎㅗㄴㄹㅕㅇ -15142
▁Where -15143
▁ㄱㅏㅇㅌㅐ -15144
ㅎㅡㄴㄷㅡㄹ -15145
▁Ven -15146
▁Ju -15147
ㅂㅜㄴㅎㅣ -15148
▁ㄱㅣㅁㅂㅜ -15149
ㅂㅏㅇㅇㅣㄴ -15150
▁ㅅㅔㄴㅌㅓㅁ -15151
▁ㅋㅟㄴㅅㅣ -15152
▁ㅊㅣㄴㄸㅏㄹ -15153
uke -15154
▁TOUR -15155
▁ㅊㅜㄹㅌㅗ -15156
▁ㅅㅓㅇㅈㅏㅇㄱㅣ -15157
ㄹㅣㄹㄹㅣ -15158
▁ㅊㅓㅅㄴㅜㄴ -15159
▁ㅍㅕㅇㅌㅐㄱㅅㅣ -15160
▁GOLD -15161
62 -15162
ㅎㅕㅇㅅㅜ -15163
▁Radio -15164
▁ㄱㅜㄱㅂㅏㅇㄱㅜㄴ -15165
▁ㄱㅗㅇㅇㅢ -15166
▁ㅇㅛㅇㅂㅓㅂ -15167
▁ㅅㅓㄴㄹㅖ -15168
▁ㄷㅐㄴㅅㅣㅇ -15169
▁ㅅㅏㄴㄷㅏㄴ -15170
▁PVE -15171
ㄹㅓㄹㅆㅏ -15172
▁ㄷㅟㅅㅇㅣ -15173
raw -15174
▁259 -15175
▁APEX -15176
ㅇㅣㄴㄷㅔ -15177
ㅍㅣㄹㄹㅔ -15178
▁ㅁㅜㄴㅅㅜ -15179
▁ㅈㅓㅁㅍㅓ -15180
▁ㄱㅏㅇㄹㅛㅇ -15181
▁ㅁㅣㄴㅈㅏ -15182
▁ㅎㅣㅁㄱㅕ -15183
ㅅㅓㄱㄱㅜ -15184
▁ㄴㅗㅇㄹㅣㅁ -15185
ㅅㅐㅁ -15186
▁KAC -15187
▁NTR -15188
▁ㄹㅜㄱㅅㅡ -15189
▁ㄱㅘㄴㅊㅓㄹ -15190
ㄴㅣㄹㅈㅣ -15191
▁ㅁㅏㄴㄱㅣ -15192
▁FP -15193
ㅊㅐㅇㅇㅣ -15194
ㅅㅓㅇㄴㅡㅇ -15195
▁ㅂㅜㄹㄱㅕㅇ -15196
▁Mor -15197
▁ㅇㅠㄴㅎㅢ -15198
▁ㅈㅓㄴㅇㅣㅁㅈㅏ -15199
ㅅㅓㅇㅇㅣㄴ -15200
▁ㄷㅏㄹㄹㅔㄱ -15201
Lv -15202
▁008 -15203
ㅎㅕㅂㅎㅚ -15204
▁ㄱㅝㄴㅇㅚ -15205
▁ㅊㅜㄹㅍㅜㅁ -15206
▁ㄸㅓㄹㅊㅕㅆ -15207
ㄷㅏㄴㅂㅓㅂㅇㅣㄴ -15208
▁Collection -15209
▁ㄱㅘㅇㅎㅟ -15210
ㅅㅡㅇㅊㅓㄹ -15211
▁ㄱㅏㅅㄴㅏㄴ -15212
▁ㅅㅏㄴㅇㅕㄱ -15213
▁ㅇㅑㄱㅎㅏㅁ -15214
▁ㅇㅣㄹㅈㅏㅇ -15215
▁ㅎㅘㅇㄱㅓㄴㅈㅓㄱ -15216
ative -15217
▁Flash -15218
▁ㅎㅘㄴㅈㅓㄴ -15219
▁ㅈㅓㅇㅈㅓㄴㅅㅣㄱ -15220
ㅂㅜㄱㅈㅏ -15221
▁ㅅㅗㄴㅈㅓㄴㄷㅡㅇ -15222
▁Disc -15223
▁ㅎㅘㅇㄱㅛ -15224
▁ㅎㅘㅇㅂㅗ -15225
ㅁㅏㄹㄹㅣㄴ -15226
ㅊㅜㄱㄱㅜㄱ -15227
▁ㅎㅏㄱㅈㅏㅇ -15228
▁ㅈㅜㅇㄱㅏㄴㅈㅜㅇㄱㅏㄴ -15229
GN -15230
here -15231
▁ㅎㅔㅅ -15232
▁ㅅㅣㄴㅍㅏㄴ -15233
▁ins -15234
▁ㅇㅔㄴㄹㅣ -15235
▁ㅎㅔㄹㄹㅡㅁ -15236
▁+, -15237
▁Jo -15238
▁435 -15239
▁ㅅㅏㅇㄷㅗ -15240
XX -15241
▁Us -15242
ㅇㅕㅇㅈㅜㄴ -15243
▁ㅅㅏㅇㅈㅏㄱ -15244
▁318 -15245
ㅇㅣㅁㅊㅏ -15246
ior -15247
▁vlive -15248
ㅃㅜㄱ -15249
▁ㅋㅗㅅㅅㅜ -15250
▁ㅇㅡㄴㅂㅏㄹ -15251
▁ㅌㅏㅁㅂㅏㅇ -15252
▁ㅇㅛㅇㅅㅏㄴㄱㅜ -15253
ㅆㄷㅏ -15254
▁Bell -15255
ㅊㅓㄴㅁㅕㄴ -15256
▁ㅁㅏㅇㅈㅓㅇ -15257
▁ㅅㅏㄴㄱㅜㄴ -15258
▁ㅇㅕㄱㅇㅣㄴ -15259
▁ㅊㅓㄱㅌㅏㄴㅂㅕㅇ -15260
OB -15261
▁ㅊㅏㅇㄱㅜ -15262
ㄱㅏㅇㅎㅗ -15263
▁ㄹㅓㄱㅅㅕ -15264
▁ㅁㅓㅇㅎㅏ -15265
▁ㅂㅐㄱㅁㅗ -15266
▁ㅅㅏㅇㅈㅓㄴ -15267
▁287 -15268
ㅂㅔㄴㅈㅓ -15269
▁ㅇㅝㄴㄷㅏㄴ -15270
▁ㅈㅓㄻㅇㅡㅁ -15271
ㄷㅣㅇㅋㅡ -15272
ㅁㅏㅈㅇㅣ -15273
▁NFC -15274
▁SoC -15275
▁ㄱㅘㄴㅇㅣㅂ -15276
▁ㅇㅕㄱㄹㅣㄴ -15277
▁ㅇㅏㄹㄹㅗㄴㅅㅗ -15278
▁ㄷㅏㅇㅍㅏ -15279
▁ㅂㅏㅇㄱㅖ -15280
▁ㅅㅓㄴㄹㅏ -15281
ㅂㅓㄹㅈㅓㄴ -15282
▁ㅁㅏㄴㅈㅏㅇㅇㅣㄹㅊㅣ -15283
ji -15284
▁ㅍㅔㄹㄹㅏ -15285
earch -15286
ㅁㅏㅇㄷㅣ -15287
▁ㅇㅕㄱㅈㅜ -15288
eca -15289
ㅋㅓㅇ -15290
▁IBM -15291
▁South -15292
▁ㄱㅗㅇㅍㅏ -15293
▁ㅅㅗㄱㄷㅏㅁ -15294
▁ㅅㅣㄹㄱㅏㄱ -15295
▁ㅅㅓㅁㅁㅕㄹㅈㅓㄴ -15296
▁ㅇㅠㄴㅅㅓㅇㅎㅘㄴ -15297
▁267 -15298
▁ㅍㅏㅂㅇㅓㅂ -15299
oke -15300
▁Want -15301
ㅋㅏㄹㄹㅏ -15302
▁Style -15303
▁ㅈㅣㅂㅅㅣ -15304
▁font -15305
ㅋㅠㄹㄹㅓㅁ -15306
▁Attack -15307
ㄷㅓㄹㄱㅓ -15308
ㅇㅜㄴㄷㅓ -15309
▁ㅋㅓㄴㅅㅓㄹ -15310
ㅂㅐㄱㅁㅏㄴ -15311
▁ㅈㅓㄱㅈㅏㅇ -15312
▁Fa -15313
▁ㄲㅡㄴㄲㅡㄴ -15314
▁ㅂㅏㄹㅎㅏㄹ -15315
▁ㅅㅏㅇㅁㅕㅇ -15316
▁ㄲㅡㄶㅇㅣㅁㅇㅓㅄ -15317
▁284 -15318
ㅁㅓㄱㅈㅣㄹ -15319
▁ㅇㅘㄴㅈㅏㅇ -15320
▁ㅍㅣㄴㅈㅏㄴ -15321
▁ㅈㅣㅂㄴㅕㅁ -15322
▁BAT -15323
▁289 -15324
▁West -15325
▁ㄱㅗㅇㅊㅏ -15326
▁ㅇㅛㅇㅈㅣ -15327
▁ㅁㅓㄱㅇㅣㄴㄷㅏ -15328
ㄷㅓㄱㅇㅣ -15329
ㅁㅔㄹㄹㅔ -15330
ㅁㅣㄴㅅㅏㅇ -15331
▁ㅂㅏㄴㅎㅐㅆ -15332
▁Royal -15333
▁ㅎㅗㅇㅅㅓㄹ -15334
▁ㅈㅣㄴㅇㅜ -15335
ㅅㅓㅇㅅㅜㄱ -15336
ㅇㅛㅇㅈㅜ -15337
▁ㄱㅣㅁㅇㅣ -15338
▁ㅍㅏㄴㅂㅕㄹ -15339
▁ㅂㅏㄱㅇㅝㄴㅅㅜㄴ -15340
ief -15341
▁Rh -15342
apon -15343
ㄴㅕㅁㅍㅜㅁ -15344
▁ㅅㅗㅇㄱㅡㅁ -15345
▁ㅌㅗㅇㅎㅏㄹ -15346
▁ㅃㅣㅇ -15347
▁2300 -15348
▁ㄹㅜㅁㅁㅔ -15349
▁ㅅㅐㄹㄹㅣ -15350
▁ㄴㅐㅇㅁㅕㄴ -15351
bat -15352
ㄱㅏㅎ -15353
ㅎㅏㅁㅅㅜ -15354
▁ㅎㅗㄱㅇㅕ -15355
▁ㅎㅗㅇㅈㅣ -15356
▁ㅂㅏㅂㅈㅜㄹ -15357
▁ㄱㅏㅇㄹㅕㄱㅎㅣ -15358
▁ㅅㅜㄴㅈㅓㅇㅁㅏㄴㅎㅘ -15359
ㄲㅓㄱ -15360
ㅈㅓㅇㅈㅏ -15361
ㅌㅓㄴㅅㅡ -15362
▁ㅇㅏㅂㄱㅜ -15363
▁ㅈㅣㅇㅈㅗ -15364
▁ㅁㅏㅈㄷㅏㅎ -15365
▁ㅎㅏㅇㅇㅣㄹ -15366
▁ㅇㅗㄻㄱㅣㄴㄷㅏ -15367
▁NEXT -15368
▁still -15369
▁ㅊㅐㄱㅅㅏ -15370
▁real -15371
ㄷㅔㄱㅅㅡ -15372
▁ㅈㅏㅂㅇㅣ -15373
ㄹㅑㅇㅈㅣㄴ -15374
kn -15375
▁ㄷㅜㄴㄱㅏㅁ -15376
▁ㅈㅓㅇㄷㅗㄴ -15377
▁ㅊㅗㅇㅇㅐㄱ -15378
▁ㅁㅏㅇㅎㅏㄴㄷㅏ -15379
ㄱㅐㄱㅅㅓㄴ -15380
▁ㅅㅣㄴㅇㅏㅇㅅㅣㅁ -15381
ㅉㅡ -15382
▁Pet -15383
▁ㅇㅘㄴㅍㅏ -15384
▁ㅇㅣㄹㄱㅘ -15385
comm -15386
▁ㅂㅕㅇㅁㅜ -15387
▁ㅁㅜㄴㅈㅓㅇ -15388
▁ㄱㅗㅇㅈㅣㄱㅈㅏ -15389
TO -15390
▁Mob -15391
▁ㅈㅓㅂㅁㅗㄱ -15392
ouri -15393
ㅊㅓㄴㅅㅜ -15394
▁class -15395
ㅊㅓㅇㅇㅕㄱ -15396
▁ㅁㅜㄴㅇㅣㄴ -15397
▁ㅅㅐㅇㄷㅗ -15398
ㄹㅡㅁㄷㅏㄹ -15399
▁ㄱㅕㄹㄹㅕㄹ -15400
▁ㅁㅜㄹㅂㅕㅇ -15401
▁ㅅㅏㅇㅋㅡㅁ -15402
▁ㅇㅐㄱㅈㅓㅇ -15403
▁Hz -15404
▁ㅁㅜㄴㅅㅓㅇ -15405
▁ㅂㅣㄴㅇㅠ -15406
ORY -15407
▁ㄱㅕㅇㅁㅜ -15408
▁ㅎㅕㄴㅇㅜ -15409
ㅌㅏㄹㅊㅜㄹ -15410
▁ㅁㅏㄴㅇㅝㄹ -15411
ㅈㅣㅁㅇㅓㅄㅇㅣ -15412
cal -15413
▁386 -15414
▁ㅅㅣㄹㅈㅐ -15415
▁ㅎㅐㅆㅈㅏㄶㅇㅏ -15416
▁ㅅㅗㄴㅅㅡㅇㄹㅏㄱ -15417
ㅎㅕㄹㅈㅣㄹ -15418
▁MIN -15419
ㅅㅏㄴㄱㅣ -15420
ㅇㅛㅇㅎㅗ -15421
▁ㄲㅐㄴㄷㅏ -15422
▁ㅌㅓㄱㅇㅓㅄㅇㅣ -15423
▁ass -15424
▁ㄱㅜㄴㅇㅢ -15425
▁274 -15426
▁Bas -15427
▁279 -15428
▁MCU -15429
▁ㅂㅗㅇㅇㅜ -15430
▁ㅈㅓㅇㅁㅗ -15431
▁ㅈㅏㄱㅇㅓㅂㅈㅏㅇ -15432
sw -15433
▁ㅅㅐㄴㄱㅏ -15434
▁ㅅㅗㄱㅇㅓ -15435
▁ㅈㅏㅇㅇㅓ -15436
▁ㅍㅗㄱㅍㅜㅇㅇㅜ -15437
roy -15438
▁Know -15439
ㅅㅏㅇㅎㅗ -15440
▁ㄱㅡㄺㅇㅓ -15441
ㅇㅡㄴㅍㅕㄴ -15442
▁ㄴㅏㅂㅈㅏㄱ -15443
▁690 -15444
▁444 -15445
▁ㅅㅗㄱㅅㅔㅁ -15446
ㄴㅗㄹㄹㅣㅁ -15447
ㅈㅣㄴㅍㅣㅇ -15448
▁ㄱㅡㅁㅈㅓㅇ -15449
trl -15450
▁Rap -15451
▁Dear -15452
▁ㅁㅓㄱㅎㅣㄹ -15453
ateg -15454
▁car -15455
▁ㄷㅏㅅㅈㅣ -15456
▁ㅇㅣㅂㄷㅏㅁ -15457
▁Vi -15458
ㅍㅏㅆ -15459
ones -15460
ㅇㅣㄴㅅㅓㄴ -15461
▁ㅁㅏㅈㅇㅡㄴㅍㅕㄴ -15462
** -15463
▁UD -15464
▁ㄹㅏㄹㄹㅏ -15465
▁ㅍㅗㄹㄷㅡ -15466
ㅇㅓㄴㅈㅏㅇ -15467
▁ㅎㅏㅇㅂㅕㄴ -15468
ㄹㅓㄴㄷㅏ -15469
awa -15470
▁Golden -15471
▁ㅂㅔㄴㅈㅔ -15472
ㅂㅜㄴㄱㅜㄴ -15473
▁ㅇㅣㄱㅎㅕㅆ -15474
▁ㅎㅘㄱㅇㅕㄴ -15475
▁ㅎㅘㅇㅊㅜㅇ -15476
▁ㅇㅏㄴㅁㅗㄱ -15477
▁Pf -15478
ㅇㅣㄴㄱㅘ -15479
▁ㅈㅏㅂㅎㅘ -15480
▁ㅅㅏㅇㅅㅣㅁ -15481
ㅈㅐㄱ -15482
ㅎㅐㄴ -15483
akao -15484
▁HAPPY -15485
▁ㄹㅔㄱㅌㅓ -15486
▁ㅇㅘㅇㄹㅐ -15487
▁tell -15488
▁Log -15489
ising -15490
▁ㅇㅣㄹㅁㅏㄹ -15491
▁278 -15492
ㄱㅏㅆㄷㅏ -15493
▁ㅁㅣㄴㅎㅗ -15494
ㅂㅕㅇㄹㅕㄹ -15495
▁356 -15496
▁WOW -15497
▁ㄱㅡㄱㅎㅚ -15498
▁ㅇㅠㄴㅎㅏ -15499
▁ㅈㅏㄱㅇㅕㄹ -15500
▁HYP -15501
▁Tig -15502
▁Some -15503
▁ㄷㅓㅍㄱㅐ -15504
▁ㅅㅣㄴㄱㅖ -15505
▁ㅋㅜㄹㄹㅓ -15506
▁ㄱㅣㅂㅅㅡㄴ -15507
▁ㄷㅏㅂㅈㅏㅇ -15508
▁Gar -15509
▁Land -15510
▁ㄴㅏㅁㄷㅗ -15511
▁ㅁㅣㄹㅋㅣ -15512
▁ㅈㅏㅇㄱㅜ -15513
▁ㄱㅡㅁㄱㅘㄴ -15514
ㅌㅗㅇㅋㅏ -15515
▁ㄱㅕㅇㅂㅗㄱㄱㅜㅇ -15516
▁ㅈㅑㄴ -15517
▁sing -15518
▁song -15519
▁ㄴㅏㄱㅇㅗ -15520
▁ㅈㅣㅂㄴㅣ -15521
▁ㄱㅡㅂㅂㅏㄱ -15522
▁ㅅㅗㅇㅊㅏㅇㅅㅣㄱ -15523
GM -15524
▁Born -15525
▁where -15526
▁ㄱㅡㄱㅊㅣ -15527
▁ㅅㅣㄱㅅㅜ -15528
▁ㄱㅏㄹㄹㅣㅁ -15529
▁ㄱㅗㄴㅂㅗㅇ -15530
▁ㄷㅏㄴㅍㅜㅇ -15531
▁ㅂㅏㄱㅈㅓㅇㅎㅕㄴ -15532
▁LD -15533
▁ㅋㅘㅇ -15534
▁ㅇㅡㅂㄴㅐ -15535
▁ㅎㅔㅅㄱㅏㄹㄹㅕ -15536
AV -15537
▁ㅈㅏㅇㄱㅏㅇ -15538
▁fall -15539
▁ㅇㅐㄹㅂㅓ -15540
▁ㅊㅐㅇㄱㅣㄴ -15541
▁ㄱㅗㄹㅁㅗㄱㄱㅣㄹ -15542
ㅇㅕㄴㅅㅏㅇ -15543
ㅊㅜㅅㄱㅏ -15544
▁281 -15545
▁Fair -15546
ㅇㅕㄴㅈㅜ -15547
▁ㄱㅏㄴㅅㅗ -15548
▁ㅂㅣㅇㅈㅏ -15549
▁ㄷㅡㅁㅃㅜㄱ -15550
▁ㅊㅏㄴㅌㅏㄹ -15551
▁ㅋㅏㄹㅈㅣㅂ -15552
▁FU -15553
▁KL -15554
▁ㅈㅓㅇㅇㅛㅇ -15555
▁ㅁㅏㄴㅅㅣㄴㅊㅏㅇ -15556
▁ㅍㅣㅁ -15557
▁ㅇㅗㄱㅎㅘㅇ -15558
▁ㅇㅡㄴㄴㅣㄱ -15559
▁ㅇㅣㄴㄷㅓㄱ -15560
▁ㅁㅣㄴㅇㅕㅇㅎㅘ -15561
▁ㅌㅗㅇㅊㅏㄹㄹㅕㄱ -15562
ㅎㅏㅇㅅㅣ -15563
▁ㅋㅓㄴㅂㅔㄴ -15564
▁ㅎㅏㄴㅇㅣㄹ -15565
ㄷㅓㄴㅈㅕ -15566
▁ㅂㅏㅇㄷㅗ -15567
▁ㅎㅏㄱㄷㅗ -15568
▁ㅈㅓㅇㅁㅣㄴ -15569
ㄲㅘㅇ -15570
▁Mart -15571
ㅇㅓㅂㅇㅣㄴ -15572
ㅊㅣㅇㅅㅡ -15573
ㅌㅏㄹㄹㅜ -15574
▁ㅈㅏㄴㄴㅏ -15575
ARE -15576
ener -15577
ublic -15578
▁ㅅㅏㄹㅇㅣㄴㅈㅏ -15579
OG -15580
min -15581
▁WBC -15582
▁ㄹㅐㄴㄷㅓ -15583
▁ㅍㅗㅁㅍㅔ -15584
▁ㄱㅕㄱㅎㅏㄴ -15585
▁ㅈㅓㄱㅊㅜㄹ -15586
▁ㅂㅓㄴㅈㅡ -15587
▁ㅇㅏㅁㄷㅡ -15588
▁ㅁㅏㅇㅈㅓㄴ -15589
▁ㅊㅣㄴㅈㅏ -15590
▁ㅊㅗㅇㄷㅗㅇㅇㅝㄴ -15591
mar -15592
▁ㄱㅕㄹㅍㅣㅂ -15593
USH -15594
▁Eyes -15595
ㅂㅏㅇㄷㅐ -15596
▁ㄲㅜㄹㄹㅣ -15597
ㄷㅗㅇㅁㅜㄹㅁㅜㄴ -15598
▁LH -15599
▁298 -15600
ㅅㅣㄱㄱㅣ -15601
▁ㅁㅕㅇㅎㅏ -15602
▁ㅂㅔㄴㅊㅕ -15603
▁ㅅㅣㄹㅂㅔ -15604
▁ㅈㅓㅇㅇㅡㅂ -15605
▁Ros -15606
▁ㅁㅛㄹ -15607
▁LT -15608
▁Alex -15609
ㄹㅣㅁㅅㅏ -15610
LV -15611
▁ft -15612
▁ㄱㅜㄱㅊㅓㄹ -15613
▁Android -15614
▁Wave -15615
▁ㅅㅏㄹㅇㅢ -15616
▁ㅈㅗㄴㄴㅏ -15617
▁ㄱㅏㅇㅅㅓㄱ -15618
▁ㅂㅕㄴㄱㅜㄱ -15619
▁ㅅㅓㅇㄴㅕㄴ -15620
▁ㄱㅏㅁㅈㅓㅁ -15621
▁ㄱㅓㄹㅇㅡ -15622
▁ㅈㅗㅇㅈㅜ -15623
ㅊㅣㅁㅂㅏㄴ -15624
▁ㅇㅏㅇㅅㅜㄱ -15625
▁ㄱㅡㄴㅂㅗㄴㅈㅜ -15626
▁ㅇㅣㄹㅂㅗㄴㄷㅗ -15627
▁ㅌㅣㅁㅍㅡㄹㄹㅔ -15628
▁OL -15629
▁Mini -15630
ㅅㅗㄱㅊㅓㄹㄷㅗ -15631
▁ㅎㅏㄱㅅㅏㄹㅈㅏ -15632
▁VV -15633
ㅇㅡㅁㅍㅏ -15634
▁ㅋㅗㄹㄹㅓㅁ -15635
▁two -15636
▁ㅋㅓㅂㄹㅏ -15637
ㅌㅔㄱㅌㅓ -15638
▁ㅊㅏㅇㅊㅓㄴ -15639
ㅅㅗㅂ -15640
▁ㅅㅓㅇㅅㅣㅁ -15641
▁ㅁㅕㅇㅁㅗㄱㅅㅏㅇ -15642
▁ㅎㅐㄱㅁㅣ -15643
▁ㅇㅕㅇㄴㅡㅇ -15644
▁ㄸㅟㄴㄷㅏ -15645
▁ㅂㅏㄴㅁㅣ -15646
▁ㄴㅏㅁㄱㅕㅇ -15647
▁ㅂㅏㄱㅅㅏㄹㄴㅏㅆ -15648
▁List -15649
▁ㅈㅓㅁㅅㅓㅇ -15650
▁770 -15651
ㅂㅏㄹㅇㅠ -15652
ㅇㅣㄹㄹㅣㄴ -15653
▁ㅂㅏㄴㅇㅣㄹ -15654
ㄸㅗㄹ -15655
▁ㅁㅕㅇㅅㅗ -15656
▁ㄱㅓㄹㅊㅜㄹ -15657
ㄷㅏㄱㄱㅓ -15658
ㄴㅜㄴㅁㅜㄹ -15659
▁ㄱㅡㄱㅂㅗㄴ -15660
▁ㅎㅔㄹㄹㅔㄴ -15661
▁ㅈㅏㅆ -15662
▁ㅅㅏㄴㄱㅐ -15663
▁ㅇㅗㄱㅈㅘ -15664
ㅌㅣㄹㄷㅏ -15665
▁ㄱㅘㅇㅈㅏ -15666
▁ㄷㅗㄹㄱㅕㄱㄷㅐ -15667
▁ㅈㅓㄴㄱㅡㄴㄷㅐ -15668
▁ㄷㅏㄷㅎㅣ -15669
▁ㅁㅏㄱㅅㅣㅁ -15670
▁ㅎㅡㅇㅇㅝㄴ -15671
▁~, -15672
ㅇㅜㄹㄹㅗ -15673
▁ㅍㅔㄴㅅㅣㅇ -15674
ㅊㅓㄴㅎㅜ -15675
▁ㅁㅕㅇㄱㅏ -15676
▁ㅇㅣㅁㅎㅐ -15677
ㄹㅏㅇㄱㅗㅅ -15678
ㅇㅜㄹㄹㅔㅅ -15679
▁ㅇㅕㄹㅁㅏㅇ -15680
▁first -15681
▁ㅅㅏㅇㅈㅓㅁㄱㅏ -15682
▁269 -15683
ㅉㅏㄹㅇㅓㅄ -15684
▁ㅂㅕㄴㄹㅗㄴ -15685
▁ㅇㅠㅇㅌㅗㅇ -15686
▁ㅇㅑㄹㅉㅏㄹㅇㅓㅄ -15687
▁LW -15688
▁Stop -15689
▁ㅁㅕㅇㅂㅜ -15690
▁ㄴㅡㄹㄹㅣㄴ -15691
ㄷㅜㅇㅈㅓㄹ -15692
▁ㅇㅠㄱㅈㅓㄴ -15693
▁ㅎㅡㅇㄷㅓㄱ -15694
▁ㅂㅜㄱㄷㅗㅇㅉㅗㄱ -15695
▁dark -15696
ㅇㅓㅂㅊㅔ -15697
ㅈㅏㄴㅊㅣ -15698
ira -15699
▁ㅇㅕㄴㅇㅠ -15700
ric -15701
▁ㅈㅓㄹㄱㅣ -15702
▁ㅅㅣㄴㅈㅗㄱ -15703
▁030 -15704
▁Wild -15705
▁ㄱㅣㅁㅎㅛ -15706
▁ㄹㅔㅅㅊㅡ -15707
▁ㅇㅘㄴㅊㅜㅇ -15708
▁bec -15709
▁ㄱㅓㅁㄷㅏㄴ -15710
▁ㄹㅗㄹㅂㅐㄱ -15711
ㄸㅏㅁ -15712
▁comp -15713
▁ㅈㅣㅂㅁㅜ -15714
▁ㄱㅗㄴㅈㅏㄹ -15715
▁ㅅㅓㄴㅇㅣㄴㅈㅏㅇ -15716
▁ㅇㅠㄱㅌㅏㄴㅈㅓㄴ -15717
▁Hun -15718
ㅇㅣㄴㄱㅜ -15719
▁ㄷㅓㅍㅂㅏㅂ -15720
▁ㅈㅓㄱㅂㅏㄴ -15721
▁ㅊㅜㅇㅈㅓㄴㄱㅣ -15722
alth -15723
ㅁㅕㅇㄷㅗ -15724
▁ㄱㅓㅁㅅㅜ -15725
▁Engine -15726
ㄸㅓㄴㅈㅣ -15727
▁ㄷㅔㄴㅂㅓ -15728
▁ㅇㅏㅇㄱㅗ -15729
▁ㅇㅠㄴㅂㅗ -15730
▁ㅋㅏㄴㅌㅡ -15731
▁ㅎㅣㄹㄷㅏ -15732
▁ㄱㅏㄴㅁㅏㄴ -15733
▁ㅅㅣㄱㅇㅛㄱ -15734
▁ㅈㅓㄴㄱㅜㄴ -15735
AF -15736
▁ㅂㅓㅂㄷㅐ -15737
▁ㅍㅗㄱㄹㅚ -15738
▁ㄱㅗㄹㅇㅣㄴ -15739
[...]
