[PAD]	0
[UNK]	0
[BOS]	0
[EOS]	0
[CLS]	0
[SEP]	0
[MASK]	0
▁▃	-0
▁.	-1
▁이	-2
▁에	-3
▁다	-4
▁의	-5
▁는	-6
▁,	-7
▁하	-8
▁을	-9
▁은	-10
▁가	-11
▁1	-12
▁고	-13
▁를	-14
▁한	-15
▁으	-16
▁년	-17
▁로	-18
▁으로	-19
▁2	-20
▁에서	-21
▁지	-22
▁있	-23
▁대	-24
▁기	-25
▁되	-26
▁사	-27
▁인	-28
▁었	-29
▁그	-30
▁시	-31
▁도	-32
▁일	-33
▁과	-34
▁아	-35
▁들	-36
▁수	-37
▁했	-38
▁전	-39
▁어	-40
▁적	-41
▁와	-42
▁여	-43
▁였	-44
▁자	-45
▁20	-46
▁월	-47
▁부	-48
▁제	-49
▁19	-50
▁라	-51
▁정	-52
▁주	-53
▁중	-54
▁위	-55
▁공	-56
▁된	-57
▁보	-58
▁해	-59
▁경	-60
▁개	-61
▁세	-62
▁나	-63
▁게	-64
▁것	-65
▁유	-66
▁3	-67
▁조	-68
▁"	-69
▁한다	-70
▁선	-71
▁등	-72
▁스	-73
▁성	-74
▁마	-75
▁만	-76
▁미	-77
▁연	-78
▁동	-79
▁오	-80
▁상	-81
▁소	-82
▁구	-83
▁서	-84
▁모	-85
▁영	-86
▁비	-87
▁국	-88
▁발	-89
▁면	-90
▁며	-91
▁201	-92
▁'	-93
▁4	-94
▁관	-95
▁후	-96
▁신	-97
▁명	-98
▁프	-99
▁5	-100
▁역	-101
▁때	-102
▁200	-103
▁장	-104
▁할	-105
▁-	-106
▁방	-107
▁던	-108
▁거	-109
▁대한	-110
▁교	-111
▁바	-112
▁리	-113
▁문	-114
▁차	-115
▁생	-116
▁당	-117
▁우	-118
▁무	-119
▁내	-120
▁원	-121
▁진	-122
▁통	-123
▁계	-124
▁현	-125
▁분	-126
▁노	-127
▁군	-128
▁남	-129
▁포	-130
▁화	-131
▁6	-132
▁또	-133
▁학	-134
▁않	-135
▁까	-136
▁작	-137
▁결	-138
▁았	-139
▁출	-140
▁같	-141
▁까지	-142
▁강	-143
▁파	-144
▁불	-145
▁에게	-146
▁받	-147
▁함	-148
▁단	-149
▁번	-150
▁으며	-151
▁최	-152
▁7	-153
▁반	-154
▁10	-155
▁8	-156
▁된다	-157
▁알	-158
▁배	-159
▁호	-160
▁데	-161
▁안	-162
▁회	-163
▁초	-164
▁실	-165
▁지만	-166
▁형	-167
▁예	-168
▁카	-169
▁두	-170
▁재	-171
▁말	-172
▁따	-173
▁없	-174
▁부터	-175
▁타	-176
▁사용	-177
▁종	-178
▁9	-179
▁미국	-180
▁요	-181
▁음	-182
▁특	-183
▁라고	-184
▁이후	-185
▁설	-186
▁라는	-187
▁산	-188
▁면서	-189
▁코	-190
▁일본	-191
▁운	-192
▁레	-193
▁행	-194
▁는데	-195
▁권	-196
▁감	-197
▁활	-198
민국	-199
▁독	-200
▁더	-201
으며	-202
▁다음	-203
▁추	-204
▁왕	-205
▁건	-206
▁처	-207
▁베	-208
▁태	-209
▁김	-210
▁입	-211
▁간	-212
▁대한민국	-213
▁지역	-214
▁평	-215
▁피	-216
▁크	-217
▁양	-218
▁민	-219
▁매	-220
▁199	-221
▁및	-222
▁참	-223
▁많	-224
▁12	-225
▁올	-226
▁경기	-227
▁18	-228
▁승	-229
▁목	-230
▁본	-231
▁다른	-232
▁드	-233
▁임	-234
▁다고	-235
▁프로	-236
▁대학	-237
▁열	-238
리아	-239
▁;	-240
▁총	-241
00	-242
▁속	-243
스트	-244
▁그리	-245
▁야	-246
▁위해	-247
▁북	-248
▁S	-249
▁집	-250
▁외	-251
or	-252
▁법	-253
▁변	-254
▁트	-255
▁체	-256
▁11	-257
▁때문	-258
▁달	-259
▁각	-260
▁물	-261
▁시작	-262
▁천	-263
▁토	-264
▁표	-265
▁직	-266
▁메	-267
▁사람	-268
▁&	-269
▁따라	-270
▁선수	-271
▁팀	-272
▁A	-273
▁그러	-274
▁함께	-275
▁점	-276
▁박	-277
▁또한	-278
▁한국	-279
▁항	-280
▁투	-281
▁저	-282
▁청	-283
▁치	-284
▁브	-285
▁세계	-286
▁약	-287
▁영화	-288
▁)	-289
▁사이	-290
▁버	-291
▁광	-292
▁판	-293
▁자신	-294
▁C	-295
la	-296
▁새	-297
▁디	-298
▁M	-299
▁용	-300
▁국가	-301
▁경우	-302
▁기록	-303
▁루	-304
▁복	-305
▁f	-306
▁T	-307
▁축	-308
▁F	-309
▁네	-310
▁현재	-311
시아	-312
▁편	-313
▁하나	-314
▁존	-315
▁이름	-316
▁활동	-317
▁198	-318
▁삼	-319
▁확	-320
▁다는	-321
▁당시	-322
▁가장	-323
▁위치	-324
▁테	-325
▁_	-326
▁철	-327
▁합	-328
▁필	-329
▁조선	-330
주의	-331
▁학교	-332
▁가지	-333
▁리그	-334
▁이나	-335
▁뒤	-336
▁살	-337
▁그러나	-338
▁(	-339
▁15	-340
▁플	-341
▁증	-342
▁금	-343
▁언	-344
▁페	-345
▁for	-346
▁째	-347
▁심	-348
▁대표	-349
▁백	-350
mu	-351
▁창	-352
▁역사	-353
레이	-354
▁의해	-355
mula	-356
▁식	-357
▁formula	-358
▁연구	-359
▁근	-360
▁16	-361
▁병	-362
▁못	-363
▁쓰	-364
▁프랑	-365
▁또는	-366
▁니	-367
부터	-368
▁/	-369
▁클	-370
▁통해	-371
▁사회	-372
▁그리고	-373
▁황	-374
▁애	-375
▁규	-376
▁시즌	-377
▁D	-378
▁돌	-379
으나	-380
▁0	-381
▁m	-382
▁순	-383
▁충	-384
▁17	-385
▁]	-386
▁패	-387
▁[	-388
▁첫	-389
▁B	-390
▁러	-391
▁197	-392
▁히	-393
▁완	-394
▁아니	-395
랜드	-396
▁보다	-397
▁중국	-398
▁다시	-399
▁만들	-400
▁키	-401
▁협	-402
▁높	-403
▁시대	-404
▁정부	-405
▁프랑스	-406
▁서울	-407
▁K	-408
▁:	-409
▁I	-410
▁영국	-411
▁채	-412
학교	-413
▁는다	-414
▁대해	-415
▁전쟁	-416
▁k	-417
▁도시	-418
▁포함	-419
▁뜻	-420
▁여러	-421
▁문화	-422
▁196	-423
▁14	-424
▁독일	-425
▁죽	-426
▁친	-427
▁대회	-428
▁로서	-429
▁아이	-430
▁~	-431
▁다가	-432
▁으나	-433
▁별	-434
▁큰	-435
er	-436
▁길	-437
▁축구	-438
▁취	-439
▁g	-440
▁13	-441
▁엔	-442
▁P	-443
▁뉴	-444
▁온	-445
▁위원	-446
▁정치	-447
▁가능	-448
▁곡	-449
▁준	-450
▁모두	-451
in	-452
▁동안	-453
▁환	-454
▁논	-455
▁모든	-456
▁손	-457
▁감독	-458
▁이상	-459
▁문제	-460
▁방송	-461
▁구성	-462
▁배우	-463
▁194	-464
▁개발	-465
▁일부	-466
▁석	-467
▁허	-468
▁L	-469
▁l	-470
▁지방	-471
▁사건	-472
▁대학교	-473
▁제작	-474
▁처음	-475
▁알려	-476
▁위한	-477
▁검	-478
▁이루	-479
▁%	-480
▁캐	-481
▁국제	-482
▁골	-483
▁농	-484
▁작품	-485
▁케	-486
▁관계	-487
라이	-488
▁였으며	-489
▁이용	-490
▁세기	-491
▁될	-492
▁시간	-493
▁날	-494
▁게임	-495
▁끝	-496
▁일반	-497
▁씨	-498
▁G	-499
▁교육	-500
▁줄	-501
▁운동	-502
▁존재	-503
▁향	-504
▁폭	-505
▁급	-506
▁인구	-507
▁쿠	-508
▁티	-509
▁밀	-510
▁볼	-511
▁정도	-512
▁주장	-513
▁N	-514
▁걸	-515
▁음악	-516
▁gt	-517
▁즉	-518
▁섬	-519
▁곳	-520
▁효	-521
▁앞	-522
니아	-523
▁195	-524
on	-525
▁접	-526
▁려	-527
▁경제	-528
▁육	-529
▁km	-530
리스	-531
▁중심	-532
▁나타	-533
▁거나	-534
▁lt	-535
▁선거	-536
▁극	-537
▁이러	-538
▁맡	-539
▁U	-540
▁전투	-541
▁R	-542
▁귀	-543
▁터	-544
▁새로	-545
▁절	-546
▁30	-547
▁맞	-548
▁블	-549
▁발견	-550
통령	-551
▁질	-552
▁민주	-553
▁했으며	-554
이스	-555
화국	-556
▁H	-557
부분	-558
▁기술	-559
▁담	-560
▁올림	-561
▁E	-562
▁글	-563
▁봉	-564
▁측	-565
▁홍	-566
▁슈	-567
▁발표	-568
▁누	-569
▁막	-570
▁갖	-571
▁결과	-572
▁암	-573
▁구조	-574
▁태어	-575
▁영향	-576
▁도록	-577
▁아들	-578
▁책	-579
▁시키	-580
▁잘	-581
▁사망	-582
▁2010	-583
▁우승	-584
▁헤	-585
▁공격	-586
▁의미	-587
▁대통령	-588
▁로부터	-589
▁커	-590
▁들어	-591
▁과정	-592
▁대부분	-593
▁올림픽	-594
▁라이	-595
▁갈	-596
▁관련	-597
an	-598
▁앨	-599
▁송	-600
▁지원	-601
▁밝	-602
▁프로그	-603
000	-604
리카	-605
▁탄	-606
▁업	-607
▁발생	-608
▁참여	-609
▁잡	-610
▁193	-611
▁센	-612
▁유럽	-613
▁진행	-614
▁머	-615
▁중앙	-616
▁범	-617
▁독립	-618
▁행정	-619
20	-620
▁최초	-621
란드	-622
▁c	-623
▁얻	-624
▁자유	-625
▁25	-626
▁결정	-627
▁고등	-628
▁부분	-629
▁난	-630
▁제국	-631
지만	-632
▁설립	-633
▁특히	-634
▁형태	-635
▁악	-636
▁탈	-637
▁다양	-638
▁됐	-639
▁폐	-640
▁발매	-641
▁W	-642
▁상태	-643
나라	-644
▁설치	-645
▁어서	-646
버지	-647
▁이전	-648
▁2008	-649
▁초등	-650
▁소속	-651
▁같이	-652
▁스타	-653
▁러시아	-654
▁좌	-655
▁일어	-656
▁사실	-657
▁침	-658
디오	-659
▁21	-660
우스	-661
▁하지만	-662
▁르	-663
▁새로운	-664
▁그녀	-665
▁로마	-666
▁좋	-667
▁나라	-668
▁인해	-669
▁프로그램	-670
▁인민	-671
▁폴	-672
▁타이	-673
▁참가	-674
▁여성	-675
▁으로서	-676
▁팔	-677
▁조직	-678
▁정보	-679
▁생각	-680
▁2011	-681
▁2012	-682
▁등장	-683
▁주로	-684
▁혼	-685
▁필요	-686
▁싱	-687
▁주요	-688
▁벌	-689
▁출신	-690
▁관리	-691
▁운영	-692
▁이탈	-693
▁기준	-694
▁이것	-695
▁계획	-696
▁2009	-697
▁윤	-698
▁생산	-699
▁위원회	-700
▁100	-701
▁지정	-702
▁기관	-703
▁2014	-704
en	-705
어진	-706
▁중요	-707
▁여자	-708
▁2007	-709
▁란	-710
므로	-711
▁음반	-712
▁상대	-713
▁t	-714
▁바이	-715
▁성공	-716
▁시절	-717
▁계속	-718
▁콘	-719
▁국민	-720
▁헌	-721
▁데이	-722
▁a	-723
▁데뷔	-724
▁2013	-725
▁매우	-726
▁O	-727
▁빌	-728
▁레이	-729
▁해서	-730
▁철도	-731
▁넘	-732
▁사업	-733
▁과학	-734
▁해당	-735
▁시스	-736
▁대전	-737
리즈	-738
▁발전	-739
he	-740
▁생활	-741
▁고려	-742
프트	-743
▁뿐	-744
▁방법	-745
▁칼	-746
▁이탈리아	-747
▁아버지	-748
르크	-749
스터	-750
▁몇	-751
▁엘	-752
▁생애	-753
▁묘	-754
▁자리	-755
▁191	-756
▁따르	-757
▁찾	-758
▁초기	-759
▁2015	-760
▁23	-761
▁24	-762
▁쇼	-763
▁2018	-764
라마	-765
▁억	-766
▁월드	-767
▁내용	-768
레스	-769
ar	-770
이션	-771
▁능	-772
▁처럼	-773
▁앨범	-774
▁000	-775
▁출연	-776
▁차지	-777
▁2016	-778
▁보이	-779
남도	-780
▁이어	-781
▁최고	-782
▁인도	-783
▁후보	-784
▁그룹	-785
▁돌아	-786
▁시리즈	-787
▁마이	-788
▁가리	-789
▁결국	-790
▁평가	-791
▁J	-792
▁아래	-793
es	-794
▁22	-795
▁전체	-796
FA	-797
▁방식	-798
이트	-799
▁2006	-800
▁고등학교	-801
▁이유	-802
▁회사	-803
▁그리스	-804
▁둘	-805
▁격	-806
▁한편	-807
▁떨	-808
▁퍼	-809
▁졌	-810
▁수상	-811
▁우리	-812
비아	-813
▁개요	-814
▁얼	-815
▁분류	-816
▁192	-817
▁인간	-818
▁풍	-819
▁태어났	-820
▁스페	-821
▁연합	-822
▁층	-823
▁2017	-824
▁시기	-825
▁공식	-826
▁인터	-827
▁였으나	-828
▁제공	-829
▁힘	-830
▁항공	-831
▁의원	-832
▁정의	-833
운데	-834
▁드라마	-835
▁역할	-836
▁시스템	-837
▁못하	-838
▁빠	-839
▁많이	-840
▁군사	-841
▁조사	-842
▁컴	-843
▁떠	-844
▁제도	-845
▁잠	-846
▁기업	-847
▁워	-848
▁출전	-849
▁몸	-850
▁민족	-851
▁유명	-852
▁가운데	-853
▁반대	-854
한다	-855
▁기능	-856
▁거의	-857
▁교회	-858
▁s	-859
▁지구	-860
▁텔	-861
▁색	-862
▁먼	-863
비스	-864
▁언어	-865
▁으로써	-866
▁현대	-867
▁표현	-868
▁목록	-869
▁응	-870
▁대신	-871
▁울	-872
▁유지	-873
▁녹	-874
▁개인	-875
▁해야	-876
인다	-877
▁느	-878
▁특별	-879
▁으로부터	-880
▁홈	-881
▁대상	-882
▁이론	-883
▁웨	-884
▁26	-885
▁류	-886
▁동시	-887
▁규모	-888
▁!	-889
▁자연	-890
▁몰	-891
▁졸	-892
▁노동	-893
▁프리	-894
at	-895
야기	-896
▁공개	-897
▁모습	-898
▁이르	-899
▁이미	-900
▁야구	-901
▁지도	-902
▁연결	-903
▁마지	-904
▁따라서	-905
▁28	-906
▁열린	-907
▁승리	-908
▁특징	-909
▁2019	-910
▁진출	-911
▁푸	-912
▁놓	-913
▁27	-914
▁단체	-915
▁각각	-916
▁밖	-917
▁인정	-918
▁칸	-919
▁목적	-920
▁여기	-921
▁브라	-922
▁정책	-923
▁붙	-924
▁핵	-925
▁V	-926
▁산업	-927
▁상황	-928
▁인물	-929
▁시장	-930
▁시켰	-931
▁2005	-932
▁2000	-933
▁긴	-934
▁기원	-935
▁임명	-936
▁마지막	-937
▁밴	-938
▁플레이	-939
북도	-940
▁가진	-941
▁족	-942
▁아르	-943
▁수도	-944
▁습	-945
▁전문	-946
▁샤	-947
▁기간	-948
▁이야기	-949
머니	-950
▁희	-951
▁먹	-952
▁눈	-953
▁구역	-954
▁알려져	-955
▁경상	-956
▁혁	-957
▁직접	-958
▁모델	-959
▁왔	-960
▁빈	-961
ic	-962
al	-963
니다	-964
▁슬	-965
▁압	-966
▁뛰	-967
스크	-968
▁서로	-969
▁계약	-970
▁오스트	-971
▁했으나	-972
▁추가	-973
▁불리	-974
▁건설	-975
BS	-976
▁공동	-977
▁FC	-978
▁개최	-979
▁2004	-980
▁콜	-981
▁망	-982
▁경찰	-983
▁공간	-984
▁형성	-985
▁결혼	-986
▁건물	-987
▁사상	-988
▁벨	-989
▁자동	-990
▁활약	-991
▁노선	-992
▁변화	-993
▁50	-994
▁기타	-995
▁훈	-996
▁스페인	-997
▁관한	-998
▁부산	-999
▁TV	-1000
▁국회	-1001
▁보여	-1002
▁31	-1003
▁변경	-1004
▁거리	-1005
학자	-1006
▁노래	-1007
▁29	-1008
킨다	-1009
▁너	-1010
▁교수	-1011
▁졸업	-1012
▁나이	-1013
▁그것	-1014
▁으면	-1015
▁텔레	-1016
▁b	-1017
▁공화국	-1018
▁의하	-1019
is	-1020
▁완전	-1021
▁경력	-1022
▁마을	-1023
it	-1024
▁궁	-1025
re	-1026
이드	-1027
▁인민공	-1028
▁인민공화국	-1029
▁부르	-1030
▁클럽	-1031
비전	-1032
▁사랑	-1033
▁2020	-1034
▁휴	-1035
▁비롯	-1036
▁190	-1037
▁역시	-1038
▁낮	-1039
▁비판	-1040
▁학생	-1041
▁서비스	-1042
▁맥	-1043
ou	-1044
▁실제	-1045
▁론	-1046
▁견	-1047
▁보통	-1048
▁중학교	-1049
운드	-1050
▁요구	-1051
▁최대	-1052
▁잉	-1053
▁보호	-1054
프리카	-1055
▁소설	-1056
▁의회	-1057
▁가수	-1058
▁탑	-1059
▁지금	-1060
▁우주	-1061
거리	-1062
▁기본	-1063
▁딸	-1064
▁중화	-1065
대로	-1066
▁전국	-1067
▁겠	-1068
▁지지	-1069
▁종교	-1070
▁메이	-1071
▁일으	-1072
▁다이	-1073
▁속하	-1074
른다	-1075
르트	-1076
▁자기	-1077
▁거쳐	-1078
▁겸	-1079
▁지하	-1080
▁판매	-1081
▁실시	-1082
▁없이	-1083
▁옥	-1084
▁황제	-1085
▁시설	-1086
▁싱글	-1087
▁전통	-1088
역시	-1089
▁차이	-1090
▁혹	-1091
▁퇴	-1092
▁밴드	-1093
▁엄	-1094
▁달리	-1095
▁기반	-1096
▁한다는	-1097
▁탐	-1098
▁그래	-1099
▁원래	-1100
▁싸	-1101
▁2002	-1102
▁어떤	-1103
▁지나	-1104
▁세력	-1105
▁운행	-1106
▁만든	-1107
로스	-1108
▁자료	-1109
▁교통	-1110
▁환경	-1111
▁가족	-1112
▁위하	-1113
▁경기도	-1114
▁설명	-1115
▁명칭	-1116
▁40	-1117
▁소련	-1118
▁못했	-1119
스탄	-1120
▁센터	-1121
▁월드컵	-1122
▁전기	-1123
▁2003	-1124
▁수행	-1125
▁회의	-1126
▁승강	-1127
▁뮤	-1128
▁공연	-1129
▁아닌	-1130
▁부대	-1131
▁전자	-1132
러스	-1133
▁모양	-1134
▁도로	-1135
▁애니	-1136
▁컵	-1137
▁교황	-1138
▁분야	-1139
린다	-1140
▁기념	-1141
▁흐	-1142
▁기독	-1143
▁예술	-1144
▁도쿄	-1145
▁사고	-1146
▁통합	-1147
▁앤	-1148
나다	-1149
▁득	-1150
▁이동	-1151
어져	-1152
▁텔레비전	-1153
▁나오	-1154
▁작업	-1155
▁남자	-1156
▁도입	-1157
mp	-1158
▁동물	-1159
▁행동	-1160
le	-1161
▁염	-1162
▁연방	-1163
▁십	-1164
▁풀	-1165
▁선정	-1166
▁차량	-1167
▁대해서	-1168
▁소프트	-1169
▁능력	-1170
▁의한	-1171
▁=	-1172
▁작용	-1173
▁문학	-1174
▁숙	-1175
▁출시	-1176
▁군대	-1177
스타	-1178
▁바로	-1179
▁피해	-1180
의원	-1181
▁전라	-1182
너지	-1183
▁기독교	-1184
▁형식	-1185
▁행위	-1186
▁증가	-1187
▁방향	-1188
▁기존	-1189
▁확인	-1190
▁지휘	-1191
▁넓	-1192
▁남쪽	-1193
어지	-1194
▁효과	-1195
▁혁명	-1196
▁나가	-1197
▁작가	-1198
▁국내	-1199
▁북쪽	-1200
▁착	-1201
▁승강장	-1202
▁과거	-1203
▁제외	-1204
▁이때	-1205
▁작곡	-1206
▁이끌	-1207
진다	-1208
▁비슷	-1209
▁옮	-1210
▁므로	-1211
▁FI	-1212
▁낙	-1213
▁윌	-1214
▁어머니	-1215
▁주변	-1216
▁지배	-1217
▁런	-1218
▁몽	-1219
▁왕국	-1220
▁컴퓨	-1221
▁태양	-1222
▁캐나다	-1223
▁열차	-1224
▁챔	-1225
▁마다	-1226
▁종류	-1227
▁갑	-1228
▁사무	-1229
▁역임	-1230
▁유일	-1231
▁비교	-1232
▁이적	-1233
▁뉴욕	-1234
▁한다고	-1235
▁정당	-1236
BC	-1237
리오	-1238
▁흥	-1239
▁협회	-1240
▁솔	-1241
▁높이	-1242
▁어린	-1243
▁보내	-1244
▁남부	-1245
▁혹은	-1246
▁공산	-1247
▁링	-1248
▁스포	-1249
▁잔	-1250
▁적용	-1251
▁추정	-1252
▁반응	-1253
자리	-1254
▁시민	-1255
▁성장	-1256
▁건축	-1257
▁흔	-1258
▁이사	-1259
▁담당	-1260
▁베이	-1261
▁1990	-1262
▁동일	-1263
▁육군	-1264
▁장관	-1265
▁즈	-1266
▁개념	-1267
▁홀	-1268
▁대사	-1269
▁획	-1270
▁인기	-1271
▁2001	-1272
▁돈	-1273
▁챔피	-1274
▁X	-1275
▁버스	-1276
▁스트	-1277
▁맨	-1278
▁윈	-1279
▁세포	-1280
▁공사	-1281
▁징	-1282
▁동쪽	-1283
▁시켜	-1284
▁구간	-1285
▁데이터	-1286
▁덴	-1287
▁멤	-1288
▁에너지	-1289
▁컴퓨터	-1290
▁사단	-1291
메이션	-1292
▁쪽	-1293
▁품	-1294
▁예정	-1295
▁p	-1296
▁곧	-1297
▁상당	-1298
▁디자	-1299
▁오늘	-1300
▁물리	-1301
▁마음	-1302
▁크기	-1303
▁작전	-1304
▁민주주의	-1305
▁움	-1306
▁조지	-1307
▁조건	-1308
▁마르	-1309
이지	-1310
▁차례	-1311
▁대하	-1312
▁흑	-1313
▁189	-1314
▁액	-1315
▁버전	-1316
▁서쪽	-1317
▁가까	-1318
▁FIFA	-1319
▁실패	-1320
▁록	-1321
▁넣	-1322
▁수록	-1323
▁충청	-1324
▁연기	-1325
▁칭	-1326
▁자체	-1327
▁율	-1328
▁땅	-1329
▁컨	-1330
▁애니메이션	-1331
▁어느	-1332
▁다르	-1333
▁선언	-1334
▁특정	-1335
▁올라	-1336
▁이런	-1337
▁덕	-1338
▁연주	-1339
▁고대	-1340
▁늘	-1341
드리	-1342
버스	-1343
▁쌍	-1344
▁연속	-1345
▁방영	-1346
▁결승	-1347
▁부족	-1348
▁페르	-1349
▁체제	-1350
▁d	-1351
▁선택	-1352
▁익	-1353
▁규정	-1354
▁멤버	-1355
▁내부	-1356
카이	-1357
▁국립	-1358
▁공항	-1359
▁대체	-1360
▁해군	-1361
el	-1362
▁곤	-1363
루스	-1364
▁조약	-1365
▁대구	-1366
▁아시아	-1367
▁개혁	-1368
et	-1369
▁속도	-1370
▁정신	-1371
웨어	-1372
가지	-1373
▁명령	-1374
▁연대	-1375
▁단계	-1376
▁헌법	-1377
▁위해서	-1378
▁선출	-1379
▁최종	-1380
▁지냈	-1381
▁북부	-1382
▁왜	-1383
▁벤	-1384
▁이라	-1385
글랜드	-1386
▁몬	-1387
▁인지	-1388
▁지명	-1389
▁기원전	-1390
▁인천	-1391
▁분석	-1392
▁포르	-1393
▁는지	-1394
▁가치	-1395
▁밝혔	-1396
▁크리스	-1397
▁입단	-1398
▁찬	-1399
▁설계	-1400
▁자치	-1401
▁치료	-1402
▁영어	-1403
ion	-1404
▁로스	-1405
▁옛	-1406
▁물질	-1407
▁최근	-1408
▁친구	-1409
트남	-1410
▁출판	-1411
▁체계	-1412
▁관할	-1413
▁걸쳐	-1414
ing	-1415
▁의사	-1416
▁논란	-1417
▁팬	-1418
▁보인다	-1419
▁달러	-1420
▁척	-1421
▁밤	-1422
▁핀	-1423
▁강화	-1424
▁비행	-1425
▁소비	-1426
▁일어나	-1427
▁평균	-1428
시마	-1429
▁1999	-1430
▁더욱	-1431
▁휘	-1432
▁표준	-1433
▁북한	-1434
메리카	-1435
▁술	-1436
▁스포츠	-1437
▁배치	-1438
21	-1439
▁집단	-1440
ol	-1441
▁널	-1442
▁대중	-1443
스코	-1444
▁법원	-1445
▁잉글랜드	-1446
난다	-1447
▁하이	-1448
▁제품	-1449
▁후반	-1450
▁1998	-1451
▁실험	-1452
▁부문	-1453
▁엔진	-1454
▁Y	-1455
▁함수	-1456
▁관심	-1457
▁겨	-1458
▁머리	-1459
▁현상	-1460
▁언급	-1461
▁예선	-1462
▁쥐	-1463
▁헬	-1464
▁내려	-1465
▁확장	-1466
라스	-1467
▁획득	-1468
▁개월	-1469
▁조정	-1470
▁스테	-1471
▁씩	-1472
▁선발	-1473
▁분리	-1474
▁유사	-1475
▁1980	-1476
▁하계	-1477
▁파리	-1478
▁cm	-1479
▁o	-1480
▁재판	-1481
▁공원	-1482
▁지속	-1483
▁배경	-1484
▁처리	-1485
렇게	-1486
▁가리킨다	-1487
▁챔피언	-1488
▁부상	-1489
▁60	-1490
▁목표	-1491
디어	-1492
▁요소	-1493
▁주민	-1494
▁당하	-1495
▁통일	-1496
리지	-1497
▁맺	-1498
▁베르	-1499
▁문자	-1500
▁소유	-1501
▁칠	-1502
▁편성	-1503
▁자동차	-1504
▁마리	-1505
▁35	-1506
▁시도	-1507
▁정규	-1508
▁유래	-1509
▁구단	-1510
▁어려	-1511
▁외국	-1512
▁어야	-1513
▁이해	-1514
▁도움	-1515
▁고자	-1516
▁장군	-1517
▁시험	-1518
▁에스	-1519
▁꽃	-1520
▁공립	-1521
▁뛰어	-1522
▁주도	-1523
▁점령	-1524
▁거주	-1525
▁나무	-1526
▁가문	-1527
아들	-1528
▁행사	-1529
▁mm	-1530
▁요시	-1531
▁주인	-1532
▁원자	-1533
▁디자인	-1534
▁기사	-1535
▁앙	-1536
▁원인	-1537
▁네덜	-1538
▁네덜란드	-1539
▁통신	-1540
▁려고	-1541
▁들어가	-1542
▁파이	-1543
▁책임	-1544
▁언론	-1545
▁투표	-1546
▁다면	-1547
▁학자	-1548
▁동맹	-1549
▁캠	-1550
▁안정	-1551
▁잃	-1552
▁괴	-1553
▁웹	-1554
▁n	-1555
▁혈	-1556
▁사령	-1557
▁결합	-1558
▁고속	-1559
▁준비	-1560
▁불교	-1561
▁본선	-1562
광역시	-1563
▁제한	-1564
▁장치	-1565
▁아프리카	-1566
▁수준	-1567
▁은퇴	-1568
젝트	-1569
▁일종	-1570
▁알렉	-1571
▁개봉	-1572
▁베트남	-1573
▁성적	-1574
om	-1575
▁용어	-1576
▁깊	-1577
나무	-1578
▁통치	-1579
▁불구	-1580
▁1997	-1581
야마	-1582
▁촉	-1583
▁구분	-1584
▁길이	-1585
▁문서	-1586
▁비디오	-1587
▁방문	-1588
일랜드	-1589
▁광주	-1590
▁유전	-1591
▁사진	-1592
▁듯	-1593
▁빛	-1594
▁제조	-1595
▁아마	-1596
▁나타나	-1597
▁정권	-1598
▁바르	-1599
▁가정	-1600
▁신문	-1601
▁요리	-1602
▁만나	-1603
▁인데	-1604
▁비해	-1605
▁갔	-1606
▁정리	-1607
st	-1608
▁해석	-1609
▁폴란드	-1610
▁경험	-1611
▁평화	-1612
▁일제	-1613
▁정확	-1614
▁믿	-1615
▁그림	-1616
▁1996	-1617
▁amp	-1618
메달	-1619
▁드러	-1620
▁The	-1621
▁왕조	-1622
▁분포	-1623
▁1995	-1624
▁서식	-1625
▁대로	-1626
▁프로젝트	-1627
▁32	-1628
▁올랐	-1629
▁오늘날	-1630
▁통과	-1631
▁추진	-1632
▁부인	-1633
▁끌	-1634
▁멸	-1635
스턴	-1636
▁부여	-1637
▁값	-1638
▁70	-1639
▁런던	-1640
▁알려진	-1641
▁거두	-1642
▁경영	-1643
▁입장	-1644
▁신라	-1645
▁아직	-1646
▁종합	-1647
▁려는	-1648
▁경쟁	-1649
▁병원	-1650
▁그런	-1651
▁멀	-1652
▁쉽	-1653
인트	-1654
▁슈퍼	-1655
스로	-1656
▁프레	-1657
특별	-1658
▁인터넷	-1659
▁방어	-1660
▁발달	-1661
▁주제	-1662
▁영역	-1663
▁폐지	-1664
▁이곳	-1665
▁경기장	-1666
▁쓴	-1667
▁훈련	-1668
▁보도	-1669
▁부정	-1670
▁민주당	-1671
▁미사	-1672
▁노력	-1673
▁500	-1674
▁만화	-1675
웨이	-1676
▁면적	-1677
▁총리	-1678
▁츠	-1679
▁이듬	-1680
▁널리	-1681
▁파괴	-1682
▁제주	-1683
▁사라	-1684
▁오르	-1685
▁미술	-1686
▁생물	-1687
▁국회의원	-1688
레일	-1689
▁제안	-1690
▁놀	-1691
▁도서	-1692
am	-1693
▁번호	-1694
▁식민	-1695
▁80	-1696
▁회장	-1697
▁복귀	-1698
▁기여	-1699
▁the	-1700
▁델	-1701
리트	-1702
▁삼성	-1703
▁주연	-1704
▁철학	-1705
▁서부	-1706
▁외교	-1707
▁법률	-1708
▁꼬	-1709
라인	-1710
▁행성	-1711
▁정상	-1712
▁세대	-1713
▁궤	-1714
▁세워	-1715
▁빅	-1716
▁완전히	-1717
▁UE	-1718
▁라디오	-1719
▁남성	-1720
▁야마	-1721
▁요청	-1722
▁188	-1723
▁가르	-1724
▁이듬해	-1725
▁무기	-1726
▁연맹	-1727
▁나온	-1728
▁자주	-1729
▁투수	-1730
▁+	-1731
▁경계	-1732
▁등록	-1733
▁동부	-1734
▁여겨	-1735
▁1970	-1736
▁금지	-1737
▁인식	-1738
▁폰	-1739
▁1994	-1740
▁수용	-1741
▁UEFA	-1742
il	-1743
▁아서	-1744
톨릭	-1745
▁움직	-1746
▁소재	-1747
▁지진	-1748
▁잇	-1749
▁무대	-1750
▁발사	-1751
▁전해	-1752
▁아시	-1753
▁펼	-1754
▁표기	-1755
▁연구소	-1756
▁업무	-1757
▁접근	-1758
▁깨	-1759
▁뇌	-1760
▁영토	-1761
ac	-1762
▁박물	-1763
▁끼	-1764
▁지도자	-1765
▁KBS	-1766
▁노르	-1767
▁더불	-1768
▁바탕	-1769
▁결성	-1770
머지	-1771
▁강원	-1772
▁조각	-1773
▁나머지	-1774
▁뉴스	-1775
▁거부	-1776
▁성격	-1777
▁지대	-1778
▁득점	-1779
▁반면	-1780
▁스스로	-1781
▁든	-1782
▁수학	-1783
▁받아들	-1784
▁상호	-1785
▁아일랜드	-1786
▁오스	-1787
▁벽	-1788
▁트리	-1789
▁정식	-1790
▁펜	-1791
▁필리	-1792
▁오른	-1793
▁보수	-1794
▁은행	-1795
▁주의	-1796
▁기초	-1797
▁오래	-1798
▁마찬	-1799
▁마찬가지	-1800
▁의식	-1801
▁가톨릭	-1802
▁1992	-1803
▁당했	-1804
▁공작	-1805
▁지난	-1806
토리	-1807
▁소리	-1808
▁임시	-1809
▁다리	-1810
▁다수	-1811
ro	-1812
▁찾아	-1813
시코	-1814
▁짧	-1815
▁45	-1816
요일	-1817
▁스웨	-1818
▁아카	-1819
▁장애	-1820
▁박사	-1821
▁검사	-1822
▁파일	-1823
임스	-1824
▁화학	-1825
▁죽음	-1826
▁장소	-1827
▁캐릭	-1828
▁바다	-1829
▁해결	-1830
▁케이	-1831
워드	-1832
▁36	-1833
▁차원	-1834
▁총선	-1835
▁박물관	-1836
▁로써	-1837
▁차트	-1838
▁패배	-1839
▁카드	-1840
▁초대	-1841
ed	-1842
▁활용	-1843
▁돼	-1844
▁유로	-1845
▁유니	-1846
모토	-1847
▁브라질	-1848
▁관측	-1849
▁마이크	-1850
▁이스	-1851
▁윌리	-1852
▁린	-1853
▁순위	-1854
▁습니다	-1855
▁그대로	-1856
▁실제로	-1857
▁스위	-1858
▁여행	-1859
▁of	-1860
▁안전	-1861
▁기구	-1862
▁둔	-1863
▁묘사	-1864
▁식물	-1865
▁지리	-1866
▁계열	-1867
▁밝혀	-1868
▁인사	-1869
▁강력	-1870
▁표시	-1871
▁집합	-1872
▁바뀌	-1873
▁오브	-1874
▁1960	-1875
▁제시	-1876
▁여름	-1877
로나	-1878
▁연극	-1879
▁무역	-1880
▁일정	-1881
▁캐릭터	-1882
▁소프트웨어	-1883
▁이외	-1884
▁권력	-1885
▁단순	-1886
ig	-1887
▁회원	-1888
▁에이	-1889
▁멕	-1890
▁그린	-1891
▁디지	-1892
▁스웨덴	-1893
▁1991	-1894
▁기계	-1895
▁반란	-1896
부르크	-1897
▁셀	-1898
트리	-1899
▁위험	-1900
▁쓰이	-1901
▁오스트리아	-1902
▁붕	-1903
▁삶	-1904
▁지적	-1905
레일리아	-1906
▁관광	-1907
▁조성	-1908
▁히로	-1909
▁개국	-1910
▁1993	-1911
▁먼저	-1912
▁33	-1913
▁아무	-1914
▁형제	-1915
▁근처	-1916
▁발행	-1917
▁중단	-1918
▁가져	-1919
▁흡	-1920
▁중간	-1921
▁협력	-1922
▁시행	-1923
베이	-1924
▁기획	-1925
▁기자	-1926
▁굴	-1927
트로	-1928
▁뮤직	-1929
▁캘	-1930
▁만큼	-1931
배우	-1932
▁도착	-1933
▁량	-1934
▁스튜	-1935
▁여객	-1936
▁스코	-1937
▁쉬	-1938
낸다	-1939
▁소개	-1940
▁외부	-1941
▁멜	-1942
▁사이트	-1943
od	-1944
▁윈도	-1945
▁지하철	-1946
▁렌	-1947
▁코드	-1948
▁유형	-1949
▁전시	-1950
소년	-1951
▁다만	-1952
나이	-1953
워크	-1954
▁번역	-1955
사카	-1956
버트	-1957
▁나타내	-1958
니스	-1959
특별시	-1960
▁연장	-1961
▁후기	-1962
▁단어	-1963
▁죄	-1964
▁태평	-1965
▁하루	-1966
ve	-1967
▁투자	-1968
▁서울특별시	-1969
▁혜	-1970
▁카이	-1971
▁성립	-1972
▁186	-1973
▁파견	-1974
▁해안	-1975
▁근거	-1976
주시	-1977
무원	-1978
▁꾸	-1979
▁기후	-1980
▁",	-1981
▁공장	-1982
▁세상	-1983
as	-1984
▁혐	-1985
▁상징	-1986
▁본부	-1987
▁내각	-1988
▁보유	-1989
▁오스트레일리아	-1990
▁떠나	-1991
▁수많	-1992
▁통하	-1993
▁확대	-1994
▁위기	-1995
▁제기	-1996
▁생성	-1997
▁겪	-1998
▁보존	-1999
지션	-2000
▁감소	-2001
▁다카	-2002
▁옹	-2003
▁양식	-2004
▁네트	-2005
▁극장	-2006
▁지상	-2007
▁경상남도	-2008
▁전략	-2009
▁지식	-2010
▁래	-2011
▁윌리엄	-2012
▁균	-2013
▁수사	-2014
▁귀족	-2015
▁?	-2016
▁촬	-2017
▁유대	-2018
▁경상북도	-2019
▁특수	-2020
▁상업	-2021
▁특성	-2022
▁멕시코	-2023
▁출생	-2024
▁달성	-2025
▁대응	-2026
간다	-2027
▁1988	-2028
▁숨	-2029
▁바꾸	-2030
▁원소	-2031
▁춘	-2032
▁영상	-2033
▁동생	-2034
▁187	-2035
▁당선	-2036
▁세웠	-2037
▁디지털	-2038
▁떨어진	-2039
▁유리	-2040
▁h	-2041
▁촌	-2042
▁완성	-2043
▁이슬	-2044
▁단위	-2045
▁촬영	-2046
▁계승	-2047
▁미래	-2048
▁근무	-2049
▁학위	-2050
▁체포	-2051
▁종목	-2052
▁식민지	-2053
▁님	-2054
아시아	-2055
▁이렇게	-2056
▁따른	-2057
▁시티	-2058
▁보였	-2059
▁34	-2060
티아	-2061
어졌	-2062
▁권리	-2063
▁젊	-2064
▁코치	-2065
▁률	-2066
▁이집	-2067
▁그렇	-2068
▁38	-2069
▁이집트	-2070
▁전달	-2071
▁수비	-2072
가리	-2073
회사	-2074
▁올리	-2075
▁체결	-2076
▁생명	-2077
▁타이틀	-2078
▁옆	-2079
▁시청	-2080
▁직후	-2081
▁문화재	-2082
▁승격	-2083
▁듀	-2084
▁나중	-2085
▁측정	-2086
▁소수	-2087
id	-2088
▁2021	-2089
▁몇몇	-2090
▁정치인	-2091
▁이루어진	-2092
▁설정	-2093
▁알렉산	-2094
▁이란	-2095
▁판단	-2096
▁마사	-2097
▁맹	-2098
▁90	-2099
▁48	-2100
▁국왕	-2101
▁크로	-2102
▁본관	-2103
▁대륙	-2104
▁채널	-2105
▁도서관	-2106
▁자본	-2107
▁1989	-2108
가와	-2109
▁헨	-2110
▁으므로	-2111
▁아내	-2112
▁관찰	-2113
▁1950	-2114
모리	-2115
▁주식	-2116
▁미군	-2117
▁개정	-2118
▁전환	-2119
▁라인	-2120
▁이주	-2121
▁컬	-2122
▁톤	-2123
▁스키	-2124
▁싶	-2125
▁이라고	-2126
▁개통	-2127
▁즐	-2128
ec	-2129
▁결승전	-2130
▁엘리	-2131
▁신경	-2132
▁세르	-2133
NA	-2134
▁청년	-2135
▁홍콩	-2136
▁의견	-2137
▁납	-2138
▁다루	-2139
▁낳	-2140
▁녹음	-2141
us	-2142
▁동계	-2143
▁시위	-2144
▁지위	-2145
▁밑	-2146
▁텍	-2147
▁포르투	-2148
▁미사일	-2149
▁해외	-2150
▁취임	-2151
▁제정	-2152
▁종료	-2153
▁즉위	-2154
▁얼마	-2155
▁부른다	-2156
▁계산	-2157
▁은하	-2158
▁발매되	-2159
▁범죄	-2160
▁',	-2161
▁셰	-2162
and	-2163
▁사회주의	-2164
▁헝	-2165
▁교체	-2166
디아	-2167
▁져	-2168
▁음식	-2169
스티	-2170
코드	-2171
▁예수	-2172
▁주인공	-2173
▁충돌	-2174
▁300	-2175
▁전차	-2176
▁남북	-2177
▁|	-2178
▁e	-2179
▁MBC	-2180
▁아키	-2181
▁쌓	-2182
▁장기	-2183
ad	-2184
▁빨	-2185
교회	-2186
▁천황	-2187
▁사후	-2188
▁후쿠	-2189
▁자격	-2190
▁비용	-2191
▁주목	-2192
▁수정	-2193
▁개선	-2194
▁찰	-2195
▁신학	-2196
▁바이러스	-2197
▁건강	-2198
▁제임스	-2199
▁벗	-2200
▁강한	-2201
▁못한	-2202
▁소장	-2203
▁원정	-2204
▁이래	-2205
▁1945	-2206
▁스티	-2207
▁명단	-2208
▁전라남도	-2209
▁비밀	-2210
▁공급	-2211
▁계기	-2212
러운	-2213
▁궤도	-2214
라도	-2215
전히	-2216
▁본래	-2217
▁네트워크	-2218
▁만드	-2219
▁공부	-2220
▁보냈	-2221
ent	-2222
▁펠	-2223
▁합류	-2224
▁카운	-2225
▁체육	-2226
▁심리	-2227
▁부모	-2228
스카	-2229
▁라운드	-2230
▁명예	-2231
▁제거	-2232
▁성우	-2233
▁시내	-2234
▁가격	-2235
▁홈런	-2236
▁자원	-2237
▁감염	-2238
▁옮겨	-2239
▁입학	-2240
▁농업	-2241
50	-2242
▁에드	-2243
▁객	-2244
▁샌	-2245
▁물론	-2246
▁인근	-2247
▁천문	-2248
▁각종	-2249
▁거대	-2250
▁작성	-2251
▁롤	-2252
▁군인	-2253
▁증명	-2254
▁랑	-2255
▁가입	-2256
▁공군	-2257
▁집중	-2258
▁이슬람	-2259
▁으면서	-2260
▁소송	-2261
▁오후	-2262
▁전사	-2263
▁저항	-2264
▁읽	-2265
▁듣	-2266
▁베네	-2267
피아	-2268
▁왼	-2269
▁학문	-2270
▁피아	-2271
▁병력	-2272
▁터미	-2273
▁국경	-2274
▁측면	-2275
베르	-2276
티나	-2277
▁통제	-2278
▁울산	-2279
▁미디어	-2280
▁가리키	-2281
▁준다	-2282
▁신호	-2283
▁썼	-2284
▁강조	-2285
니어	-2286
▁인수	-2287
▁블랙	-2288
▁나누	-2289
▁다니	-2290
▁세이	-2291
▁광고	-2292
▁질량	-2293
▁포지션	-2294
▁플로	-2295
▁일어난	-2296
리포	-2297
▁실행	-2298
▁태평양	-2299
▁아우	-2300
▁해방	-2301
▁St	-2302
▁콩	-2303
▁변호	-2304
도로	-2305
▁병사	-2306
▁엑	-2307
▁만약	-2308
▁정착	-2309
▁가까운	-2310
▁마치	-2311
▁지내	-2312
▁기회	-2313
▁터키	-2314
ot	-2315
▁터미널	-2316
▁이루어져	-2317
▁너무	-2318
▁이번	-2319
▁무장	-2320
어나	-2321
▁털	-2322
▁틀	-2323
▁냉	-2324
▁비트	-2325
▁겨울	-2326
▁최소	-2327
▁노동자	-2328
▁강원도	-2329
▁x	-2330
▁빼	-2331
▁약간	-2332
드로	-2333
▁몽골	-2334
아가	-2335
▁유도	-2336
▁제목	-2337
un	-2338
▁국방	-2339
▁잎	-2340
▁편집	-2341
동안	-2342
▁마리아	-2343
▁금융	-2344
철도	-2345
▁37	-2346
▁전반	-2347
ow	-2348
▁짓	-2349
▁둘러	-2350
▁사례	-2351
▁바람	-2352
▁환자	-2353
▁쇠	-2354
▁마쓰	-2355
▁in	-2356
▁가졌	-2357
▁표면	-2358
스키	-2359
▁고전	-2360
▁전개	-2361
▁지점	-2362
▁재산	-2363
▁인한	-2364
▁허용	-2365
▁혐의	-2366
▁밀도	-2367
▁나왔	-2368
▁도중	-2369
▁카르	-2370
소리	-2371
▁인디	-2372
▁합병	-2373
▁건너	-2374
▁무렵	-2375
▁가스	-2376
▁선수단	-2377
▁마련	-2378
▁이하	-2379
▁힐	-2380
▁학년	-2381
▁전력	-2382
▁충분	-2383
▁근대	-2384
▁1987	-2385
▁재정	-2386
▁윈도우	-2387
▁겐	-2388
▁유엔	-2389
오카	-2390
▁붕괴	-2391
▁등급	-2392
▁여전히	-2393
▁라이브	-2394
▁루이	-2395
▁민간	-2396
▁헝가리	-2397
▁현실	-2398
▁오사카	-2399
▁양성	-2400
▁보고	-2401
▁전역	-2402
▁그해	-2403
▁킹	-2404
▁모리	-2405
▁대수	-2406
▁뒷	-2407
▁계급	-2408
▁재직	-2409
▁포르투갈	-2410
▁령	-2411
▁흰	-2412
▁시킨	-2413
ra	-2414
▁갖추	-2415
▁범위	-2416
▁숲	-2417
마크	-2418
▁충청남도	-2419
▁w	-2420
▁41	-2421
▁공공	-2422
▁꼬리	-2423
▁강제	-2424
▁51	-2425
▁성질	-2426
▁영화배우	-2427
▁봄	-2428
▁원칙	-2429
▁조치	-2430
▁엔터	-2431
▁위협	-2432
▁공주	-2433
▁임무	-2434
▁적극	-2435
▁동료	-2436
▁오리	-2437
▁군주	-2438
▁전선	-2439
▁온도	-2440
▁스튜디오	-2441
▁1986	-2442
▁위원장	-2443
▁짐	-2444
▁토론	-2445
▁대학원	-2446
▁승인	-2447
▁1984	-2448
▁이미지	-2449
▁인하	-2450
▁그려	-2451
▁캘리포	-2452
▁논문	-2453
▁수입	-2454
▁대대	-2455
▁구축	-2456
▁업체	-2457
▁양자	-2458
▁클라	-2459
▁답	-2460
▁위성	-2461
▁불린다	-2462
▁상하	-2463
▁불러	-2464
▁고구	-2465
▁미치	-2466
▁공업	-2467
▁꿈	-2468
▁전하	-2469
▁거래	-2470
▁성인	-2471
▁킬	-2472
▁교사	-2473
▁출발	-2474
▁공산당	-2475
▁수립	-2476
▁회복	-2477
▁점차	-2478
▁아시안	-2479
▁둥	-2480
▁섭	-2481
▁필리핀	-2482
▁수단	-2483
▁역대	-2484
▁증거	-2485
▁드래	-2486
▁확보	-2487
▁캘리포니아	-2488
▁잭	-2489
▁다섯	-2490
▁항상	-2491
▁의료	-2492
▁채택	-2493
마스	-2494
테르	-2495
▁장비	-2496
▁스타일	-2497
▁그래서	-2498
▁핀란드	-2499
▁후지	-2500
▁규칙	-2501
주교	-2502
고리	-2503
▁강의	-2504
ch	-2505
▁남아	-2506
▁잡지	-2507
▁시인	-2508
▁첨	-2509
▁합의	-2510
▁스파	-2511
바이	-2512
▁에피	-2513
▁폭발	-2514
▁39	-2515
ur	-2516
▁신화	-2517
▁개편	-2518
▁만족	-2519
▁얼굴	-2520
▁됨	-2521
▁선생	-2522
▁남편	-2523
▁진화	-2524
▁흘	-2525
▁기대	-2526
▁400	-2527
▁이스라	-2528
▁욕	-2529
▁일원	-2530
▁아라	-2531
▁이승	-2532
▁기지	-2533
▁대기	-2534
▁스위스	-2535
▁나카	-2536
▁부근	-2537
▁냈	-2538
▁라며	-2539
▁강점	-2540
▁매년	-2541
▁모스크	-2542
▁64	-2543
로드	-2544
▁II	-2545
▁해체	-2546
▁토지	-2547
▁불가	-2548
▁1985	-2549
▁경향	-2550
▁가사	-2551
▁통계	-2552
▁장면	-2553
▁군단	-2554
▁대형	-2555
▁이스라엘	-2556
▁끊	-2557
▁붉	-2558
▁간주	-2559
▁스리	-2560
▁경주	-2561
▁분자	-2562
▁아나	-2563
▁종이	-2564
▁귀국	-2565
▁아름	-2566
▁태풍	-2567
▁항성	-2568
데미	-2569
▁종종	-2570
우드	-2571
리스트	-2572
▁띠	-2573
▁아주	-2574
▁게이	-2575
▁낭	-2576
▁조합	-2577
▁캄	-2578
레이드	-2579
▁롭	-2580
키아	-2581
ut	-2582
▁수원	-2583
▁튀	-2584
▁알리	-2585
▁기억	-2586
▁서양	-2587
백질	-2588
▁아랍	-2589
▁의학	-2590
▁청소년	-2591
▁아메리카	-2592
▁i	-2593
▁라면	-2594
▁버리	-2595
▁이제	-2596
▁사항	-2597
▁스피	-2598
▁삼국	-2599
▁성과	-2600
▁확실	-2601
▁맛	-2602
▁열렸	-2603
▁대장	-2604
▁레코드	-2605
▁불렀	-2606
고기	-2607
um	-2608
▁초반	-2609
▁침공	-2610
▁클래	-2611
▁투어	-2612
▁에게서	-2613
▁그곳	-2614
▁탑재	-2615
▁일어났	-2616
▁43	-2617
▁폼	-2618
▁향상	-2619
▁좀	-2620
▁아카데미	-2621
▁장식	-2622
▁고양	-2623
▁해도	-2624
▁융	-2625
오프	-2626
▁LG	-2627
▁평양	-2628
▁세우	-2629
▁메이저	-2630
▁보장	-2631
▁랭	-2632
▁청나라	-2633
▁가로	-2634
▁카메	-2635
▁어떻	-2636
▁감정	-2637
▁고구려	-2638
어들	-2639
▁자금	-2640
오스	-2641
▁42	-2642
▁소년	-2643
▁선고	-2644
▁줄거리	-2645
▁불과	-2646
요시	-2647
▁켄	-2648
보드	-2649
▁나치	-2650
▁보병	-2651
▁떨어져	-2652
▁br	-2653
▁박쥐	-2654
▁남동	-2655
▁중화민국	-2656
네스	-2657
▁선거구	-2658
▁신앙	-2659
▁고문	-2660
▁전설	-2661
▁카운티	-2662
▁숭	-2663
ver	-2664
▁세운	-2665
▁잠시	-2666
일러	-2667
▁만주	-2668
▁단백질	-2669
▁독자	-2670
▁우선	-2671
타인	-2672
운동	-2673
소드	-2674
▁스케	-2675
▁1982	-2676
라노	-2677
▁신설	-2678
▁단지	-2679
ir	-2680
▁확정	-2681
▁55	-2682
▁라틴	-2683
▁빠르	-2684
▁아야	-2685
▁우수	-2686
▁이끄	-2687
▁나폴	-2688
▁스카	-2689
▁살해	-2690
틀랜드	-2691
▁판결	-2692
▁차별	-2693
▁육상	-2694
▁지시	-2695
에르	-2696
▁의장	-2697
▁함대	-2698
▁광역시	-2699
▁모르	-2700
▁철도역	-2701
▁복잡	-2702
▁삭	-2703
▁갖춘	-2704
네시아	-2705
▁탄생	-2706
▁편입	-2707
FC	-2708
▁왕위	-2709
▁창설	-2710
▁구체	-2711
▁비율	-2712
▁대립	-2713
▁온라인	-2714
▁의해서	-2715
▁재단	-2716
▁검찰	-2717
▁예상	-2718
im	-2719
▁알려졌	-2720
▁솔로	-2721
누스	-2722
▁전화	-2723
▁법인	-2724
▁덴마크	-2725
▁마크	-2726
▁44	-2727
▁브랜드	-2728
다이	-2729
▁강점기	-2730
▁세종	-2731
▁1983	-2732
▁공유	-2733
▁동의	-2734
▁성당	-2735
▁유학	-2736
트라	-2737
▁수출	-2738
▁저서	-2739
▁뛰어난	-2740
▁고향	-2741
▁브리	-2742
▁쓰인다	-2743
▁아파	-2744
▁보급	-2745
의회	-2746
셔널	-2747
▁나뉘	-2748
▁참석	-2749
▁냐	-2750
하라	-2751
▁나와	-2752
▁태어난	-2753
▁마드리	-2754
▁시킬	-2755
싱턴	-2756
이크	-2757
▁반도	-2758
▁텐	-2759
▁47	-2760
▁통한	-2761
▁암살	-2762
▁노예	-2763
▁고정	-2764
▁애플	-2765
▁협상	-2766
▁집행	-2767
▁하늘	-2768
▁전후	-2769
▁핵심	-2770
▁후손	-2771
▁마드리드	-2772
▁법칙	-2773
반도	-2774
룬다	-2775
ay	-2776
▁보안	-2777
▁뿌	-2778
▁저장	-2779
▁사전	-2780
▁회전	-2781
▁이루어지	-2782
▁했었	-2783
▁본격	-2784
▁Z	-2785
없이	-2786
▁롯	-2787
▁올렸	-2788
▁이성	-2789
▁오픈	-2790
▁중반	-2791
비드	-2792
▁권한	-2793
▁관료	-2794
▁주교	-2795
▁카를	-2796
퍼스	-2797
▁자세	-2798
▁75	-2799
▁댄	-2800
▁의무	-2801
▁사우	-2802
▁순서	-2803
▁대비	-2804
▁플랫	-2805
▁논리	-2806
▁184	-2807
▁아르헨	-2808
▁대항	-2809
▁숫	-2810
각형	-2811
▁전용	-2812
▁180	-2813
CA	-2814
▁태어나	-2815
문화	-2816
▁헤이	-2817
▁앞두	-2818
▁옷	-2819
원군	-2820
▁산맥	-2821
▁공학	-2822
▁플레이오프	-2823
▁유적	-2824
▁베이스	-2825
레이션	-2826
▁이익	-2827
▁어린이	-2828
▁연고	-2829
▁시킨다	-2830
▁에피소드	-2831
▁전혀	-2832
▁갈등	-2833
▁지키	-2834
▁시각	-2835
▁공기	-2836
▁상품	-2837
▁하위	-2838
▁1972	-2839
▁단일	-2840
▁베를	-2841
▁아르헨티나	-2842
▁CD	-2843
▁로버트	-2844
▁켈	-2845
▁말기	-2846
▁v	-2847
터리	-2848
▁1920	-2849
▁직원	-2850
▁프란	-2851
▁중세	-2852
▁인상	-2853
▁의도	-2854
▁46	-2855
▁스크	-2856
▁아스	-2857
▁운전	-2858
▁조금	-2859
▁보조	-2860
▁협정	-2861
▁인권	-2862
▁공무원	-2863
▁공포	-2864
▁바라	-2865
▁변호사	-2866
▁묻	-2867
▁요한	-2868
▁잘못	-2869
▁창조	-2870
▁비난	-2871
▁워싱턴	-2872
▁글로	-2873
▁아미	-2874
▁수여	-2875
▁원주	-2876
▁효소	-2877
▁중심지	-2878
▁1979	-2879
▁하드	-2880
해졌	-2881
▁별도	-2882
▁원리	-2883
▁에선	-2884
▁레드	-2885
▁전라북도	-2886
▁정복	-2887
▁흔히	-2888
▁덮	-2889
정부	-2890
퍼드	-2891
▁파크	-2892
리어	-2893
▁물러	-2894
▁교류	-2895
▁성경	-2896
▁투입	-2897
▁작곡가	-2898
▁엠	-2899
▁우크	-2900
▁방면	-2901
▁벡	-2902
▁kg	-2903
▁소식	-2904
▁셋	-2905
▁저지	-2906
▁1930	-2907
▁논쟁	-2908
▁넘어	-2909
▁현장	-2910
▁건국	-2911
▁장착	-2912
▁In	-2913
▁공화	-2914
▁항복	-2915
무라	-2916
▁심각	-2917
10	-2918
▁플라	-2919
▁1981	-2920
▁아침	-2921
▁앞서	-2922
▁호텔	-2923
▁150	-2924
▁1973	-2925
▁금메달	-2926
▁택	-2927
▁논의	-2928
▁출마	-2929
▁오히	-2930
▁공산주의	-2931
▁훨	-2932
▁본인	-2933
▁강하	-2934
사키	-2935
▁헨리	-2936
▁빙	-2937
▁돌아가	-2938
▁세인트	-2939
▁유전자	-2940
▁건조	-2941
▁니콜	-2942
▁어떻게	-2943
▁멘	-2944
▁요새	-2945
▁운용	-2946
▁노스	-2947
▁창립	-2948
▁오랜	-2949
▁연산	-2950
▁인류	-2951
▁김정	-2952
▁교토	-2953
▁훨씬	-2954
▁오토	-2955
▁마이클	-2956
▁투쟁	-2957
▁연합군	-2958
os	-2959
▁무리	-2960
▁사태	-2961
▁코스	-2962
▁짜	-2963
▁중부	-2964
▁합성	-2965
▁방출	-2966
▁오른쪽	-2967
▁금속	-2968
▁예산	-2969
▁멸망	-2970
▁로드	-2971
▁산하	-2972
▁코미	-2973
▁플레이어	-2974
▁추측	-2975
▁에어	-2976
▁서기	-2977
▁원작	-2978
▁릴	-2979
▁한때	-2980
▁인정받	-2981
▁1940	-2982
▁왼쪽	-2983
▁인가	-2984
BO	-2985
▁태국	-2986
30	-2987
▁형사	-2988
▁트랙	-2989
▁절대	-2990
▁베이징	-2991
▁인공	-2992
일보	-2993
▁낸	-2994
▁복합	-2995
▁노르웨이	-2996
▁라도	-2997
▁제자	-2998
▁주위	-2999
em	-3000
▁갤	-3001
▁사령관	-3002
▁찍	-3003
▁1974	-3004
▁탁	-3005
시스	-3006
▁해양	-3007
▁미니	-3008
ter	-3009
▁자이	-3010
▁구별	-3011
▁185	-3012
▁블루	-3013
▁효율	-3014
▁파라	-3015
▁사법	-3016
▁전철	-3017
▁일으키	-3018
▁모스크바	-3019
▁인종	-3020
▁읍	-3021
▁메시	-3022
▁반복	-3023
▁정비	-3024
▁북서	-3025
▁오전	-3026
▁스코틀랜드	-3027
▁연관	-3028
젤레스	-3029
▁군수	-3030
▁열리	-3031
▁집안	-3032
▁제출	-3033
▁출장	-3034
▁신체	-3035
▁입자	-3036
▁SBS	-3037
▁뽑	-3038
▁내렸	-3039
▁숫자	-3040
카와	-3041
▁주기	-3042
▁해상	-3043
▁웨스트	-3044
▁포위	-3045
▁오히려	-3046
▁분쟁	-3047
▁진다	-3048
▁마침	-3049
▁노부	-3050
▁소방	-3051
▁흡수	-3052
▁베를린	-3053
머스	-3054
▁슬로	-3055
▁1948	-3056
▁인조	-3057
▁축제	-3058
나이티	-3059
듀서	-3060
▁중대	-3061
▁프로듀서	-3062
▁54	-3063
▁그레	-3064
▁이민	-3065
▁디스	-3066
▁거절	-3067
▁유나이티	-3068
▁수송	-3069
▁목사	-3070
▁우스	-3071
▁각본	-3072
▁이어지	-3073
▁1968	-3074
▁지니	-3075
▁시점	-3076
▁포기	-3077
▁지닌	-3078
▁활발	-3079
▁취급	-3080
▁소녀	-3081
▁1976	-3082
▁불렸	-3083
도르	-3084
▁건립	-3085
▁개시	-3086
▁인터뷰	-3087
▁관점	-3088
▁출입	-3089
▁아름다	-3090
▁전공	-3091
▁명성	-3092
▁보스	-3093
▁경성	-3094
▁이기	-3095
▁생겨	-3096
다리	-3097
▁견해	-3098
▁붙여	-3099
▁사령부	-3100
▁고용	-3101
▁밖에	-3102
▁주택	-3103
▁진보	-3104
▁한국어	-3105
▁북동	-3106
▁활성	-3107
▁구속	-3108
▁주전	-3109
▁부활	-3110
▁1975	-3111
op	-3112
▁들어갔	-3113
데스	-3114
▁보험	-3115
▁장악	-3116
▁머물	-3117
▁안타	-3118
▁프라	-3119
▁내리	-3120
▁응용	-3121
▁취득	-3122
▁신성	-3123
▁동원	-3124
▁히데	-3125
▁농민	-3126
서트	-3127
▁불법	-3128
▁자라	-3129
▁통해서	-3130
▁음력	-3131
▁성능	-3132
▁유물	-3133
▁어렵	-3134
▁여부	-3135
▁하나님	-3136
▁총독	-3137
▁국도	-3138
▁소스	-3139
▁죽이	-3140
▁생기	-3141
▁일치	-3142
▁비록	-3143
▁후원	-3144
▁고유	-3145
▁영화제	-3146
▁명명	-3147
▁정체	-3148
▁직전	-3149
▁56	-3150
▁학습	-3151
▁보컬	-3152
▁1978	-3153
▁직업	-3154
▁전부	-3155
▁미드	-3156
▁Q	-3157
▁국장	-3158
▁1971	-3159
▁써	-3160
ag	-3161
▁폭력	-3162
▁북아	-3163
▁1963	-3164
▁52	-3165
▁연료	-3166
▁대리	-3167
키스탄	-3168
에트	-3169
리케	-3170
▁포도	-3171
▁천체	-3172
어스	-3173
▁한자	-3174
▁혼란	-3175
산시	-3176
▁항공기	-3177
쿠라	-3178
▁선교	-3179
▁속한다	-3180
▁문헌	-3181
▁편지	-3182
▁49	-3183
▁더라도	-3184
▁수술	-3185
▁브레	-3186
▁교차	-3187
▁65	-3188
▁시리아	-3189
▁해졌	-3190
▁타이완	-3191
▁여객철도	-3192
▁주관	-3193
▁관직	-3194
▁약속	-3195
▁그리스도	-3196
메리	-3197
▁다운	-3198
▁로스앤	-3199
▁로스앤젤레스	-3200
▁도달	-3201
▁철수	-3202
▁상당히	-3203
▁코미디	-3204
세이	-3205
▁랜	-3206
▁백제	-3207
▁닌	-3208
▁일대	-3209
▁임금	-3210
기에	-3211
릭스	-3212
▁아테	-3213
ce	-3214
▁화물	-3215
다가	-3216
▁테러	-3217
▁미나	-3218
자기	-3219
▁지낸	-3220
▁팝	-3221
▁반영	-3222
▁상륙	-3223
▁수집	-3224
▁예비	-3225
▁1969	-3226
▁고종	-3227
▁도구	-3228
▁179	-3229
▁일으켰	-3230
▁넷	-3231
▁대화	-3232
▁학술	-3233
▁캠퍼스	-3234
▁취하	-3235
▁십자	-3236
▁00	-3237
▁계통	-3238
▁의존	-3239
노스	-3240
▁영업	-3241
▁무엇	-3242
▁증상	-3243
▁교환	-3244
▁다며	-3245
▁본사	-3246
OS	-3247
▁스마	-3248
▁장교	-3249
▁제어	-3250
▁프로세	-3251
▁보관	-3252
▁전파	-3253
▁주간	-3254
▁콘서트	-3255
▁학부	-3256
▁떠났	-3257
▁정원	-3258
▁항구	-3259
▁해산	-3260
▁폴리	-3261
▁자살	-3262
▁롯데	-3263
▁정지	-3264
▁코로나	-3265
▁재료	-3266
▁모드	-3267
▁하우스	-3268
▁데이비드	-3269
▁톰	-3270
▁SK	-3271
▁프리미	-3272
▁방사	-3273
▁아사	-3274
▁부임	-3275
▁1946	-3276
▁백작	-3277
▁개체	-3278
▁김영	-3279
▁스미	-3280
▁이른	-3281
▁사운드	-3282
▁구성원	-3283
▁53	-3284
▁판서	-3285
▁주식회사	-3286
라비아	-3287
▁핑	-3288
▁영향력	-3289
▁그런데	-3290
▁연재	-3291
공항	-3292
▁좁	-3293
▁박정	-3294
▁불상	-3295
▁허가	-3296
▁살인	-3297
▁상승	-3298
준다	-3299
▁간단	-3300
▁반발	-3301
▁전문가	-3302
▁로운	-3303
▁공통	-3304
▁망명	-3305
▁질병	-3306
▁기도	-3307
▁빠른	-3308
프리	-3309
▁사유	-3310
▁헤르	-3311
▁리스	-3312
▁발언	-3313
▁브루	-3314
▁제일	-3315
▁진입	-3316
oc	-3317
병대	-3318
▁시호	-3319
▁보건	-3320
▁셔	-3321
▁거기	-3322
▁외국인	-3323
▁..	-3324
▁알아	-3325
▁파트	-3326
▁영입	-3327
▁1964	-3328
▁자녀	-3329
▁접하	-3330
미터	-3331
▁신분	-3332
▁화성	-3333
▁락	-3334
▁위반	-3335
▁포트	-3336
▁렀	-3337
▁니시	-3338
이어	-3339
▁서버	-3340
▁학원	-3341
▁대략	-3342
▁베스트	-3343
▁충청북도	-3344
▁쳐	-3345
▁갈라	-3346
▁한반도	-3347
▁US	-3348
▁벨기에	-3349
▁절차	-3350
▁변형	-3351
▁소비에트	-3352
▁모여	-3353
▁참전	-3354
▁고리	-3355
▁미터	-3356
▁저작	-3357
▁진압	-3358
▁감사	-3359
▁사장	-3360
▁99	-3361
▁피아노	-3362
▁변환	-3363
▁스프	-3364
ri	-3365
▁승진	-3366
▁고도	-3367
▁시카	-3368
▁창단	-3369
▁임대	-3370
▁당한	-3371
▁학회	-3372
▁꼭	-3373
▁인도네시아	-3374
▁횡	-3375
정식	-3376
▁가을	-3377
▁트랜	-3378
▁벼	-3379
▁복무	-3380
▁탈출	-3381
▁1000	-3382
▁통상	-3383
▁리더	-3384
▁식품	-3385
▁부장	-3386
▁마케	-3387
▁스토	-3388
▁도망	-3389
▁조작	-3390
하마	-3391
▁닥	-3392
▁픽	-3393
▁58	-3394
▁국제공항	-3395
▁PC	-3396
▁콤	-3397
▁현역	-3398
▁지붕	-3399
▁채용	-3400
▁주년	-3401
▁and	-3402
▁공동체	-3403
▁루이스	-3404
▁신청	-3405
▁페이	-3406
▁모아	-3407
▁탈락	-3408
▁요인	-3409
▁문장	-3410
▁다스	-3411
▁분열	-3412
▁청구	-3413
▁방송국	-3414
▁에도	-3415
▁작사	-3416
천군	-3417
▁생태	-3418
▁요코	-3419
▁장수	-3420
▁민법	-3421
저우	-3422
▁합격	-3423
▁친일	-3424
▁수영	-3425
▁큐	-3426
▁포로	-3427
▁1977	-3428
▁학과	-3429
▁쫓	-3430
▁동남	-3431
▁기호	-3432
▁말레이	-3433
▁화면	-3434
▁라이트	-3435
▁트라	-3436
▁트로	-3437
▁스러운	-3438
▁기하	-3439
▁이중	-3440
▁젠	-3441
▁임의	-3442
아버지	-3443
▁예측	-3444
▁조절	-3445
▁엑스	-3446
▁1949	-3447
▁FA	-3448
▁위상	-3449
▁탄소	-3450
▁부부	-3451
igh	-3452
▁특이	-3453
▁연출	-3454
성군	-3455
▁상원	-3456
▁신인	-3457
▁이치	-3458
크스	-3459
▁지급	-3460
▁흐르	-3461
▁기법	-3462
▁빠져	-3463
문화재	-3464
▁메모리	-3465
▁88	-3466
▁서식지	-3467
▁국무	-3468
▁생긴	-3469
▁정기	-3470
▁독립운동	-3471
▁참고	-3472
▁수소	-3473
▁배출	-3474
▁수리	-3475
▁카메라	-3476
▁취소	-3477
▁동작	-3478
▁레오	-3479
▁화재	-3480
▁코파	-3481
▁황금	-3482
▁선조	-3483
▁1962	-3484
ation	-3485
▁누구	-3486
▁이뤄	-3487
▁앵	-3488
▁선보	-3489
로그	-3490
▁처형	-3491
▁레스	-3492
▁전동	-3493
▁62	-3494
▁선전	-3495
▁출간	-3496
▁스토리	-3497
▁개조	-3498
▁주둔	-3499
▁흉	-3500
타르	-3501
▁실수	-3502
드시	-3503
▁막부	-3504
▁먹이	-3505
▁생존	-3506
▁보낸	-3507
▁장르	-3508
▁로켓	-3509
▁왕자	-3510
▁광장	-3511
▁1967	-3512
▁방지	-3513
▁기체	-3514
▁이승만	-3515
▁오페	-3516
▁샘	-3517
▁서원	-3518
▁오스만	-3519
브리	-3520
▁동성	-3521
▁임진	-3522
▁콘스탄	-3523
카이도	-3524
▁스럽	-3525
▁57	-3526
▁호수	-3527
천시	-3528
▁서구	-3529
▁롱	-3530
▁어떠	-3531
▁메인	-3532
▁이시	-3533
▁경로	-3534
▁현지	-3535
▁루트	-3536
▁그라	-3537
▁태어났으며	-3538
▁흑인	-3539
▁공정	-3540
▁희망	-3541
포르	-3542
▁방정식	-3543
▁연안	-3544
▁달하	-3545
▁You	-3546
▁는가	-3547
바르	-3548
▁농구	-3549
▁남서	-3550
▁천연	-3551
바라	-3552
▁고지	-3553
▁히트	-3554
▁여단	-3555
▁도전	-3556
수록	-3557
▁Ch	-3558
▁크리	-3559
▁남겼	-3560
▁뿌리	-3561
▁의혹	-3562
▁입니다	-3563
▁싸움	-3564
▁반드시	-3565
▁전주	-3566
▁등지	-3567
▁무덤	-3568
▁동기	-3569
▁좌우	-3570
▁나갔	-3571
▁늦	-3572
▁성향	-3573
▁진주	-3574
▁제대로	-3575
▁나타났	-3576
▁일본군	-3577
비치	-3578
▁뜨	-3579
먼트	-3580
▁우려	-3581
▁터널	-3582
▁톱	-3583
▁동아	-3584
▁시드	-3585
▁181	-3586
▁분명	-3587
nd	-3588
▁이온	-3589
▁여야	-3590
▁압력	-3591
▁된다는	-3592
▁법정	-3593
▁전면	-3594
▁맞이	-3595
▁코르	-3596
인물	-3597
에이	-3598
더스	-3599
▁전형	-3600
▁타임	-3601
▁노벨	-3602
▁둘째	-3603
▁스탠	-3604
▁내전	-3605
▁치렀	-3606
▁파악	-3607
▁삽	-3608
▁녹색	-3609
▁그레이	-3610
▁해리	-3611
▁엄청	-3612
ST	-3613
방송	-3614
▁한계	-3615
▁66	-3616
라이언	-3617
▁개신	-3618
▁범주	-3619
▁에르	-3620
▁목소리	-3621
▁1966	-3622
▁끝나	-3623
▁처벌	-3624
▁r	-3625
▁독특	-3626
▁비평	-3627
▁신뢰	-3628
▁살아	-3629
▁꺾	-3630
티브	-3631
▁유기	-3632
▁매일	-3633
▁물체	-3634
▁KBO	-3635
▁미국인	-3636
▁글자	-3637
▁덧	-3638
▁리처	-3639
▁부사	-3640
▁유행	-3641
▁아파트	-3642
▁이룬다	-3643
▁68	-3644
▁아프	-3645
▁치러	-3646
▁람	-3647
▁%,	-3648
▁체코	-3649
▁복지	-3650
▁1965	-3651
▁바둑	-3652
▁분할	-3653
베스	-3654
▁퀸	-3655
▁별명	-3656
▁오프	-3657
▁모형	-3658
▁분해	-3659
▁밥	-3660
▁간행	-3661
▁순환	-3662
▁방해	-3663
▁클레	-3664
▁183	-3665
▁61	-3666
▁알렉산드	-3667
▁타격	-3668
▁집권	-3669
치아	-3670
▁구현	-3671
▁평등	-3672
▁추구	-3673
질랜드	-3674
▁웅	-3675
▁묶	-3676
▁실질	-3677
▁홋	-3678
▁아동	-3679
▁나타난다	-3680
▁묵	-3681
▁김일	-3682
▁움직임	-3683
▁구하	-3684
▁뉴질랜드	-3685
▁광복	-3686
▁캔	-3687
르타	-3688
▁화산	-3689
▁나들	-3690
ON	-3691
ER	-3692
피스	-3693
▁일식	-3694
▁희생	-3695
▁마르크	-3696
▁일찍	-3697
이치	-3698
▁한정	-3699
▁찰스	-3700
▁아리	-3701
▁완료	-3702
▁싸우	-3703
▁시조	-3704
▁풍부	-3705
▁최다	-3706
▁부진	-3707
▁첼	-3708
텐츠	-3709
▁사립	-3710
▁플래	-3711
▁올려	-3712
▁벡터	-3713
유럽	-3714
▁가상	-3715
art	-3716
▁끝난	-3717
▁파르	-3718
▁손자	-3719
디션	-3720
▁대법	-3721
▁버렸	-3722
▁어도	-3723
▁나들목	-3724
▁1961	-3725
▁마시	-3726
▁800	-3727
▁중기	-3728
▁호주	-3729
▁션	-3730
▁향해	-3731
▁분기	-3732
▁사냥	-3733
▁마침내	-3734
▁대개	-3735
▁빼앗	-3736
▁물리학	-3737
투스	-3738
▁확산	-3739
▁전원	-3740
▁일본인	-3741
▁갈색	-3742
▁86	-3743
▁마법	-3744
▁통산	-3745
▁테이	-3746
ice	-3747
▁사원	-3748
▁근본	-3749
▁판사	-3750
▁출범	-3751
▁사형	-3752
▁점점	-3753
▁카라	-3754
▁알파	-3755
▁부하	-3756
▁악기	-3757
▁600	-3758
▁향하	-3759
▁레인	-3760
▁120	-3761
▁웨이	-3762
▁의지	-3763
▁IS	-3764
▁창원	-3765
▁기둥	-3766
▁가시	-3767
▁리가	-3768
▁프린	-3769
▁분위	-3770
▁충격	-3771
▁쓸	-3772
▁교향	-3773
▁완공	-3774
▁메리	-3775
▁사임	-3776
▁회담	-3777
est	-3778
▁오페라	-3779
▁무게	-3780
▁시카고	-3781
▁유치	-3782
▁날개	-3783
▁명확	-3784
▁발굴	-3785
은행	-3786
▁달라	-3787
▁훗	-3788
▁저술	-3789
▁대공	-3790
▁편찬	-3791
▁단독	-3792
사자	-3793
라드	-3794
▁영웅	-3795
▁인증	-3796
▁사마	-3797
▁여론	-3798
▁개입	-3799
▁맞추	-3800
▁제이	-3801
▁닛	-3802
틀러	-3803
ap	-3804
사스	-3805
▁조별	-3806
▁악화	-3807
▁홍보	-3808
다는	-3809
▁1919	-3810
▁문명	-3811
▁인접	-3812
▁모토	-3813
▁상위	-3814
▁탐사	-3815
▁둘러싸	-3816
▁98	-3817
▁뚜	-3818
▁가나	-3819
▁이자	-3820
ak	-3821
▁re	-3822
TV	-3823
▁함락	-3824
▁명나라	-3825
▁의심	-3826
▁조종	-3827
▁적절	-3828
리히	-3829
▁훌	-3830
▁연간	-3831
▁포인트	-3832
▁으려	-3833
▁기기	-3834
▁연구원	-3835
▁된다고	-3836
▁서명	-3837
▁도와	-3838
▁났	-3839
▁무시	-3840
▁1944	-3841
▁성분	-3842
▁당초	-3843
▁나뉜	-3844
▁득표	-3845
▁접촉	-3846
▁추천	-3847
▁자극	-3848
▁곽	-3849
▁새겨	-3850
▁임기	-3851
▁새롭	-3852
▁학살	-3853
▁각지	-3854
▁넓이	-3855
▁순간	-3856
▁포항	-3857
믹스	-3858
민주	-3859
▁이닝	-3860
라이나	-3861
AR	-3862
▁드라이	-3863
버그	-3864
▁순수	-3865
▁사실상	-3866
우리	-3867
▁사정	-3868
ia	-3869
▁모임	-3870
▁등장인물	-3871
▁징역	-3872
▁도쿠	-3873
▁입법	-3874
▁진정	-3875
▁뮤지	-3876
▁행렬	-3877
▁고속도로	-3878
▁느끼	-3879
▁링크	-3880
▁나아가	-3881
▁올해	-3882
▁팽	-3883
▁구원	-3884
▁밝히	-3885
▁변수	-3886
▁세르비아	-3887
▁63	-3888
▁그때	-3889
▁동서	-3890
▁독일군	-3891
▁스마트	-3892
▁프리미어	-3893
▁개막	-3894
▁1941	-3895
▁골든	-3896
▁루스	-3897
▁95	-3898
▁DNA	-3899
▁등판	-3900
연히	-3901
▁흘러	-3902
메이	-3903
▁심사	-3904
일리	-3905
학생	-3906
시오	-3907
▁자전	-3908
▁경전	-3909
▁네이	-3910
▁태도	-3911
러리	-3912
▁74	-3913
▁정하	-3914
▁59	-3915
▁공헌	-3916
▁기온	-3917
▁한국인	-3918
▁오랫	-3919
▁재배	-3920
▁아티	-3921
▁확률	-3922
▁실현	-3923
▁바위	-3924
▁꼽	-3925
▁Lo	-3926
▁프로그래	-3927
▁공로	-3928
▁페르시아	-3929
무부	-3930
▁백성	-3931
▁혼합	-3932
▁시사	-3933
▁수석	-3934
ct	-3935
▁매장	-3936
▁보고서	-3937
▁닉	-3938
숭이	-3939
▁튜	-3940
▁뱅	-3941
▁언제	-3942
▁IC	-3943
▁감시	-3944
▁예전	-3945
▁커뮤	-3946
▁앤드	-3947
▁178	-3948
▁균형	-3949
▁방위	-3950
▁춤	-3951
▁대선	-3952
▁개신교	-3953
▁추산	-3954
대부	-3955
▁양쪽	-3956
▁출력	-3957
▁특별시	-3958
▁랜드	-3959
▁침략	-3960
▁훗날	-3961
▁급제	-3962
▁오랫동안	-3963
코스	-3964
▁긍	-3965
▁떨어지	-3966
▁프라이	-3967
▁왕실	-3968
▁안드로	-3969
ul	-3970
▁1958	-3971
▁줄기	-3972
▁이라크	-3973
▁지형	-3974
▁영지	-3975
▁미쓰	-3976
▁텍사스	-3977
▁재건	-3978
▁커뮤니	-3979
▁승부	-3980
▁흐름	-3981
▁띄	-3982
▁82	-3983
▁SS	-3984
▁복원	-3985
▁에드워드	-3986
▁단편	-3987
▁1947	-3988
▁신부	-3989
▁분위기	-3990
▁리처드	-3991
이너	-3992
▁76	-3993
▁대량	-3994
▁피터	-3995
▁160	-3996
▁합쳐	-3997
▁한다면	-3998
▁동해	-3999
▁그래픽	-4000
▁내셔널	-4001
▁원형	-4002
▁72	-4003
▁무사	-4004
▁경남	-4005
▁to	-4006
▁저녁	-4007
▁발발	-4008
▁안토	-4009
▁다케	-4010
▁여왕	-4011
▁타자	-4012
▁1956	-4013
▁승객	-4014
▁점수	-4015
▁권위	-4016
▁미야	-4017
거운	-4018
▁제사	-4019
▁프랑크	-4020
▁멀리	-4021
▁AFC	-4022
▁아이돌	-4023
▁;/	-4024
▁비상	-4025
▁우라	-4026
▁확립	-4027
▁에서부터	-4028
리노	-4029
▁가와	-4030
▁77	-4031
▁보물	-4032
▁마무	-4033
▁테스트	-4034
▁교구	-4035
▁시상	-4036
▁석유	-4037
▁침입	-4038
▁속한	-4039
▁일상	-4040
▁작위	-4041
▁동명	-4042
ie	-4043
▁데스	-4044
▁리버	-4045
▁안동	-4046
▁입력	-4047
▁복수	-4048
▁진단	-4049
▁포켓	-4050
▁복음	-4051
▁업적	-4052
▁앉	-4053
▁개설	-4054
▁수익	-4055
▁잠수	-4056
메리칸	-4057
▁한글	-4058
▁바깥	-4059
▁과학자	-4060
▁연예	-4061
▁받아들여	-4062
▁가설	-4063
▁민중	-4064
▁펼쳐	-4065
레옹	-4066
▁1939	-4067
▁정수	-4068
▁타워	-4069
▁67	-4070
▁브라운	-4071
▁더블	-4072
레나	-4073
▁사자	-4074
▁Th	-4075
▁도요	-4076
▁폭탄	-4077
▁파워	-4078
▁나폴레옹	-4079
▁일시	-4080
▁혁신	-4081
▁섞	-4082
▁기울	-4083
▁축구단	-4084
▁가공	-4085
▁와이	-4086
▁정해	-4087
▁본질	-4088
▁창작	-4089
▁밝혀졌	-4090
왜란	-4091
▁계층	-4092
▁기소	-4093
▁임진왜란	-4094
▁당국	-4095
▁어깨	-4096
▁자식	-4097
IA	-4098
일스	-4099
▁동양	-4100
ud	-4101
▁신고	-4102
에른	-4103
▁신자	-4104
▁암호	-4105
▁곱	-4106
▁병합	-4107
▁사제	-4108
▁대왕	-4109
▁벌였	-4110
▁지켜	-4111
▁심지	-4112
og	-4113
▁겹	-4114
▁시마	-4115
▁쌀	-4116
▁기에	-4117
▁힌	-4118
이센	-4119
▁85	-4120
▁턴	-4121
▁주최	-4122
▁후계	-4123
마니아	-4124
▁공중	-4125
▁움직이	-4126
▁폐쇄	-4127
▁빅토	-4128
▁평론	-4129
ly	-4130
▁부지	-4131
th	-4132
▁국기	-4133
▁산화	-4134
▁훈장	-4135
▁그렇게	-4136
▁인쇄	-4137
▁어디	-4138
▁가진다	-4139
▁력	-4140
▁대성	-4141
▁구글	-4142
▁거듭	-4143
▁도모	-4144
▁발음	-4145
▁자이언	-4146
레인	-4147
ist	-4148
▁깃	-4149
▁가량	-4150
▁후속	-4151
▁빌보드	-4152
▁벗어나	-4153
▁가담	-4154
▁노출	-4155
▁1954	-4156
▁평안	-4157
▁총회	-4158
▁돌아왔	-4159
▁보상	-4160
아티아	-4161
▁크로아티아	-4162
▁블라	-4163
▁듯이	-4164
▁동방	-4165
▁어려운	-4166
▁가이	-4167
▁고통	-4168
▁돕	-4169
ight	-4170
BA	-4171
▁탱	-4172
체스터	-4173
▁고기	-4174
▁생물학	-4175
▁아름다운	-4176
▁비서	-4177
▁누르	-4178
▁레알	-4179
조합	-4180
▁라스	-4181
▁1952	-4182
▁참모	-4183
▁대지	-4184
▁아트	-4185
▁세리	-4186
▁DV	-4187
▁96	-4188
▁실력	-4189
▁인용	-4190
▁73	-4191
▁뮤지컬	-4192
▁국정	-4193
▁김대	-4194
▁박정희	-4195
▁포스트	-4196
▁전신	-4197
▁아테네	-4198
▁탈퇴	-4199
▁도덕	-4200
▁무한	-4201
▁결론	-4202
▁다소	-4203
▁역학	-4204
▁타운	-4205
▁상관	-4206
▁뷰	-4207
▁조조	-4208
▁작동	-4209
▁행복	-4210
▁보살	-4211
▁비례	-4212
▁로봇	-4213
▁교리	-4214
▁*	-4215
▁81	-4216
▁피해자	-4217
▁환승	-4218
▁Al	-4219
▁이혼	-4220
▁바닥	-4221
▁예방	-4222
▁심장	-4223
▁화이트	-4224
▁그만	-4225
▁매체	-4226
▁오카	-4227
▁나타낸다	-4228
▁뤼	-4229
너스	-4230
▁중력	-4231
AS	-4232
▁뮌	-4233
▁알바	-4234
▁78	-4235
▁소득	-4236
마르	-4237
▁따로	-4238
▁최후	-4239
▁타이거	-4240
▁절반	-4241
▁스타디	-4242
▁수도원	-4243
▁바이에른	-4244
필더	-4245
▁인생	-4246
▁나뉜다	-4247
▁김성	-4248
▁재학	-4249
▁화장	-4250
하여	-4251
▁좋아	-4252
▁청주	-4253
▁미드필더	-4254
타이	-4255
▁불만	-4256
AT	-4257
▁장남	-4258
▁지향	-4259
▁덜	-4260
▁부담	-4261
▁전남	-4262
▁유한	-4263
▁질환	-4264
▁천안	-4265
▁화합	-4266
의정	-4267
▁메달	-4268
▁센트	-4269
▁손상	-4270
▁지사	-4271
▁기상	-4272
▁전투기	-4273
토스	-4274
▁포스	-4275
▁가까이	-4276
▁약물	-4277
▁디아	-4278
▁사무소	-4279
▁국군	-4280
세포	-4281
터스	-4282
▁총장	-4283
▁옮겼	-4284
나가	-4285
▁하인	-4286
▁콘스탄티	-4287
▁전직	-4288
▁황후	-4289
▁께	-4290
▁산소	-4291
▁보르	-4292
▁여섯	-4293
▁202	-4294
클리	-4295
▁녀	-4296
▁기리	-4297
▁아웃	-4298
▁AT	-4299
▁는다는	-4300
▁메시지	-4301
ess	-4302
▁골드	-4303
▁패션	-4304
자치	-4305
▁검토	-4306
▁주력	-4307
▁91	-4308
▁선박	-4309
▁71	-4310
▁긍정	-4311
▁혼인	-4312
▁1959	-4313
▁심판	-4314
▁당나라	-4315
▁빌딩	-4316
▁유산	-4317
▁규제	-4318
▁피하	-4319
▁벌이	-4320
▁NH	-4321
▁개방	-4322
▁모바	-4323
▁유통	-4324
▁피부	-4325
▁사우스	-4326
▁Li	-4327
직자	-4328
▁마무리	-4329
▁백만	-4330
▁상실	-4331
▁끝내	-4332
스트라	-4333
▁177	-4334
▁관여	-4335
▁글로벌	-4336
▁문신	-4337
▁세부	-4338
▁신사	-4339
▁수요	-4340
▁이명	-4341
▁윗	-4342
쿠스	-4343
▁인원	-4344
▁햄	-4345
▁호소	-4346
▁결의	-4347
▁가마	-4348
▁처분	-4349
▁하원	-4350
▁가요	-4351
▁심지어	-4352
▁설득	-4353
▁요금	-4354
▁프로이센	-4355
▁액션	-4356
가락	-4357
IV	-4358
▁승려	-4359
▁;,	-4360
▁상역	-4361
▁분노	-4362
▁엄청난	-4363
▁소멸	-4364
▁왕비	-4365
▁쿠데	-4366
▁가슴	-4367
▁연습	-4368
▁위키	-4369
▁디스크	-4370
▁1942	-4371
▁통화	-4372
▁오직	-4373
▁이어졌	-4374
▁구매	-4375
▁퀴	-4376
▁두려	-4377
▁창당	-4378
▁여겨진다	-4379
▁적합	-4380
▁대책	-4381
▁김일성	-4382
리학	-4383
▁페이지	-4384
▁개성	-4385
▁위대	-4386
▁AP	-4387
▁87	-4388
▁좌상	-4389
드리히	-4390
▁비치	-4391
▁사격	-4392
▁크루	-4393
▁일기	-4394
▁음악가	-4395
미야	-4396
▁선임	-4397
▁억제	-4398
▁잭슨	-4399
▁말레이시아	-4400
▁조카	-4401
▁모바일	-4402
ub	-4403
▁부친	-4404
▁주석	-4405
▁드래프트	-4406
▁쿠데타	-4407
▁1943	-4408
▁이른다	-4409
▁st	-4410
▁올라가	-4411
가니	-4412
▁시나	-4413
▁전당	-4414
▁사도	-4415
▁필드	-4416
▁쾌	-4417
▁진영	-4418
▁프랭	-4419
▁159	-4420
▁나온다	-4421
▁테크	-4422
▁알고리	-4423
▁돌아와	-4424
▁1955	-4425
▁톨	-4426
▁맞서	-4427
▁상속	-4428
▁부산광역시	-4429
▁야스	-4430
▁일체	-4431
▁홋카이도	-4432
▁프리드리히	-4433
▁싱가	-4434
▁불안	-4435
▁싱가포르	-4436
▁무료	-4437
▁어려움	-4438
▁발탁	-4439
▁원년	-4440
▁1953	-4441
▁카스	-4442
▁700	-4443
▁왕후	-4444
▁크로스	-4445
▁84	-4446
▁조지아	-4447
▁천주교	-4448
▁유고	-4449
▁일본어	-4450
▁스타디움	-4451
▁주어진	-4452
▁루마니아	-4453
▁닫	-4454
▁힙	-4455
▁세자	-4456
▁조차	-4457
▁벌어진	-4458
▁1936	-4459
▁타인	-4460
▁웃	-4461
미르	-4462
▁기동	-4463
▁였을	-4464
▁폭격	-4465
ab	-4466
▁테마	-4467
▁티베	-4468
▁\	-4469
▁굳	-4470
유산	-4471
▁알고리즘	-4472
▁김종	-4473
데이	-4474
▁사무실	-4475
▁일컫	-4476
▁토론토	-4477
▁궁전	-4478
▁즉시	-4479
▁콘텐츠	-4480
▁태조	-4481
▁1910	-4482
▁독재	-4483
▁이와	-4484
해서	-4485
▁리드	-4486
▁유형문화재	-4487
▁여우	-4488
▁본다	-4489
▁전북	-4490
아내	-4491
▁Re	-4492
▁연설	-4493
▁용도	-4494
▁막대	-4495
▁챔피언십	-4496
▁딜	-4497
▁정차	-4498
▁졌으며	-4499
슬러	-4500
주군	-4501
▁1900	-4502
▁누리	-4503
▁발명	-4504
ine	-4505
▁깊이	-4506
▁부동	-4507
▁전동차	-4508
▁검색	-4509
▁자는	-4510
▁학사	-4511
▁97	-4512
▁각국	-4513
▁오이	-4514
▁음성	-4515
▁대체로	-4516
▁스티븐	-4517
▁원주민	-4518
▁히틀러	-4519
▁딘	-4520
▁후쿠오카	-4521
▁추방	-4522
▁남아프리카	-4523
▁구입	-4524
▁쓰여	-4525
리나	-4526
▁진격	-4527
시스코	-4528
래프트	-4529
구리	-4530
▁강릉	-4531
▁대우	-4532
▁영양	-4533
▁사양	-4534
▁아메리칸	-4535
▁주소	-4536
▁DVD	-4537
▁조상	-4538
▁메이지	-4539
바로	-4540
오르	-4541
원경	-4542
▁수호	-4543
▁세트	-4544
▁휴대	-4545
▁개칭	-4546
▁포켓몬	-4547
베르트	-4548
▁1957	-4549
ew	-4550
▁전술	-4551
▁사기	-4552
▁속해	-4553
▁전송	-4554
▁수업	-4555
▁사과	-4556
▁코리아	-4557
란색	-4558
▁필수	-4559
머리	-4560
▁자국	-4561
▁초점	-4562
▁최우	-4563
▁스미스	-4564
▁본명	-4565
▁보여준다	-4566
▁신장	-4567
▁느낌	-4568
미니	-4569
▁동북	-4570
▁이즈	-4571
▁인디언	-4572
독부	-4573
▁1914	-4574
▁광범	-4575
▁69	-4576
리그	-4577
히로	-4578
▁92	-4579
▁이마	-4580
▁덩	-4581
▁핫	-4582
▁급격	-4583
▁원수	-4584
▁불가리아	-4585
▁넥	-4586
▁늘어	-4587
▁미리	-4588
▁클로	-4589
▁게르	-4590
ue	-4591
▁개량	-4592
▁섹	-4593
▁신도	-4594
▁천만	-4595
▁라이프	-4596
▁빚	-4597
지사	-4598
▁서술	-4599
▁연락	-4600
▁선형	-4601
▁완벽	-4602
EC	-4603
제국	-4604
▁랄	-4605
▁림	-4606
구치	-4607
▁노트	-4608
▁스프링	-4609
로지	-4610
▁재즈	-4611
▁유효	-4612
▁바르셀	-4613
▁똑	-4614
▁도마	-4615
▁커버	-4616
▁바르셀로나	-4617
▁펑	-4618
▁="	-4619
▁렀다	-4620
▁후임	-4621
▁상인	-4622
▁부위	-4623
▁이내	-4624
▁101	-4625
▁게다가	-4626
▁1938	-4627
▁미술관	-4628
▁핸	-4629
▁스탈	-4630
▁배포	-4631
▁고급	-4632
▁HD	-4633
▁닥터	-4634
▁마르크스	-4635
드라	-4636
▁빌리	-4637
▁와서	-4638
총리	-4639
▁주니어	-4640
▁윙	-4641
▁립	-4642
▁고시	-4643
▁시내버스	-4644
▁랩	-4645
▁오키	-4646
▁저자	-4647
▁01	-4648
▁소비자	-4649
▁밀려	-4650
▁화려	-4651
산화	-4652
▁달려	-4653
▁려면	-4654
▁물건	-4655
▁상주	-4656
▁석사	-4657
▁손실	-4658
▁늑	-4659
▁알레	-4660
▁질문	-4661
▁화석	-4662
▁모음	-4663
▁실천	-4664
▁언덕	-4665
▁마스터	-4666
▁라우	-4667
▁연평	-4668
다란	-4669
▁운항	-4670
▁추기	-4671
비히	-4672
▁소형	-4673
▁라틴어	-4674
▁1918	-4675
▁주체	-4676
자키	-4677
▁국적	-4678
▁암컷	-4679
▁오가	-4680
▁집회	-4681
▁웰	-4682
▁돌려	-4683
▁언스	-4684
▁의문	-4685
▁사퇴	-4686
▁상수	-4687
▁료	-4688
▁방언	-4689
▁블록	-4690
▁대만	-4691
▁고위	-4692
▁백인	-4693
▁해발	-4694
▁내세	-4695
▁올스타	-4696
BM	-4697
▁정교회	-4698
▁반사	-4699
▁풋	-4700
펙트	-4701
민주당	-4702
▁이념	-4703
▁조선총	-4704
▁미스	-4705
▁개별	-4706
▁만났	-4707
▁조선총독부	-4708
▁느냐	-4709
▁일련	-4710
▁감각	-4711
여금	-4712
▁차단	-4713
▁갑자기	-4714
▁1951	-4715
▁경비	-4716
친다	-4717
▁프랑스군	-4718
▁영주	-4719
▁줄어들	-4720
▁짝	-4721
▁당해	-4722
▁계곡	-4723
필드	-4724
▁1932	-4725
드레	-4726
▁경제학	-4727
▁거짓	-4728
▁분화	-4729
▁미시	-4730
▁자본주의	-4731
▁1937	-4732
▁성남	-4733
▁발간	-4734
▁선포	-4735
▁탄압	-4736
▁고객	-4737
▁노리	-4738
▁격파	-4739
▁on	-4740
▁실업	-4741
▁뮌헨	-4742
▁생겼	-4743
▁재개	-4744
▁용인	-4745
▁{	-4746
무늬	-4747
▁구상	-4748
▁당원	-4749
▁이웃	-4750
▁화제	-4751
▁퀘	-4752
▁진학	-4753
▁추기경	-4754
▁찬성	-4755
▁후계자	-4756
▁89	-4757
▁기부	-4758
▁다다	-4759
▁마틴	-4760
▁엘리자	-4761
▁우크라	-4762
▁싱어	-4763
▁면역	-4764
바키아	-4765
▁첩	-4766
저스	-4767
▁체험	-4768
▁크라	-4769
▁이스트	-4770
▁받아들이	-4771
▁칭호	-4772
▁클리	-4773
▁비스	-4774
▁회로	-4775
ect	-4776
▁수치	-4777
▁93	-4778
▁파티	-4779
▁흰색	-4780
▁화폐	-4781
▁옵	-4782
▁사찰	-4783
▁1935	-4784
▁광범위	-4785
▁변하	-4786
▁설치류	-4787
▁합니다	-4788
어도	-4789
▁트레이드	-4790
▁182	-4791
▁고양이	-4792
사전	-4793
▁시트	-4794
▁항의	-4795
▁타율	-4796
▁비행기	-4797
▁곡선	-4798
▁로렌	-4799
▁증언	-4800
▁Be	-4801
▁분교	-4802
▁질서	-4803
▁되돌	-4804
▁중추	-4805
▁접한다	-4806
▁겉	-4807
▁자산	-4808
하이	-4809
▁반지	-4810
동생	-4811
▁덧붙	-4812
▁공신	-4813
▁세월	-4814
▁촉진	-4815
▁OS	-4816
▁꾸준	-4817
▁유배	-4818
▁내놓	-4819
▁항공사	-4820
▁아티스트	-4821
가시	-4822
▁극단	-4823
▁구멍	-4824
▁클래식	-4825
▁허락	-4826
▁법학	-4827
▁줄이	-4828
▁개척	-4829
▁쿨	-4830
▁양산	-4831
▁오버	-4832
▁가속	-4833
▁남기	-4834
▁남녀	-4835
▁습격	-4836
▁전적	-4837
▁지수	-4838
▁소화	-4839
▁운송	-4840
▁수백	-4841
센트	-4842
▁전망	-4843
런스	-4844
▁보편	-4845
▁탄핵	-4846
▁마루	-4847
▁목성	-4848
▁영원	-4849
슈타인	-4850
▁대법원	-4851
▁일으켜	-4852
▁쿼	-4853
▁마주	-4854
▁축소	-4855
▁잠수함	-4856
▁탕	-4857
▁소문	-4858
리우스	-4859
다수	-4860
▁직무	-4861
IN	-4862
ore	-4863
▁소위	-4864
추어	-4865
▁시모	-4866
어로	-4867
▁툴	-4868
▁팩	-4869
벤트	-4870
▁강남	-4871
▁쟁	-4872
▁거치	-4873
▁FM	-4874
▁94	-4875
▁티베트	-4876
▁물고기	-4877
▁산지	-4878
▁원시	-4879
▁소집	-4880
▁CP	-4881
our	-4882
▁동화	-4883
▁1933	-4884
▁히어로	-4885
▁조항	-4886
▁매치	-4887
ell	-4888
▁대칭	-4889
도사	-4890
▁군부	-4891
▁베리	-4892
▁무용	-4893
▁선호	-4894
▁약화	-4895
▁정류	-4896
▁프랑스어	-4897
▁아오	-4898
▁힘들	-4899
▁영구	-4900
▁익스	-4901
▁1928	-4902
▁뼈	-4903
▁수십	-4904
▁콜로	-4905
공사	-4906
▁프로그래밍	-4907
▁멀티	-4908
▁경사	-4909
▁칠레	-4910
▁충분히	-4911
▁밸	-4912
▁쓰였	-4913
▁하여금	-4914
▁끈	-4915
슬링	-4916
프레	-4917
▁그리하여	-4918
▁주일	-4919
ID	-4920
▁누스	-4921
▁이행	-4922
▁혼자	-4923
▁실내	-4924
▁당신	-4925
▁시신	-4926
▁정통	-4927
▁고교	-4928
▁국토	-4929
▁태종	-4930
▁틴	-4931
▁돌아오	-4932
▁동경	-4933
▁지불	-4934
▁치르	-4935
닉스	-4936
▁발레	-4937
▁해제	-4938
▁간부	-4939
▁자매	-4940
사이	-4941
▁79	-4942
▁재능	-4943
▁이른바	-4944
▁09	-4945
▁개명	-4946
▁댄스	-4947
▁조기	-4948
▁1924	-4949
▁자이언츠	-4950
▁판정	-4951
▁틈	-4952
▁부속	-4953
▁펀	-4954
▁돌아온	-4955
▁멈	-4956
▁손해	-4957
▁이재	-4958
▁입대	-4959
▁메트로	-4960
▁콜롬	-4961
▁사막	-4962
▁토마스	-4963
▁파키스탄	-4964
▁이어진	-4965
▁04	-4966
▁동인	-4967
▁진실	-4968
▁토너	-4969
▁형상	-4970
end	-4971
▁김해	-4972
▁브로	-4973
▁110	-4974
▁개장	-4975
▁상대식	-4976
▁열매	-4977
▁합동	-4978
▁토대	-4979
▁원자력	-4980
▁정면	-4981
과이	-4982
▁강전	-4983
▁사이드	-4984
▁으니	-4985
▁의정부	-4986
▁구름	-4987
▁오류	-4988
▁안티	-4989
▁지중	-4990
▁종사	-4991
▁프로토	-4992
▁이벤트	-4993
▁동굴	-4994
페이스	-4995
▁러브	-4996
▁아마추어	-4997
▁액체	-4998
▁재생	-4999
▁전제	-5000
▁토착	-5001
▁170	-5002
코프	-5003
▁대승	-5004
▁유아	-5005
▁주문	-5006
▁코너	-5007
▁회색	-5008
▁가난	-5009
▁걸친	-5010
▁하와	-5011
▁초상	-5012
▁쏘	-5013
리다	-5014
▁주어졌	-5015
▁단순히	-5016
▁MS	-5017
▁08	-5018
▁무력	-5019
▁행적	-5020
▁로즈	-5021
브라	-5022
▁지표	-5023
▁룸	-5024
▁경고	-5025
▁법안	-5026
▁퓨	-5027
▁존스	-5028
▁스카이	-5029
ill	-5030
▁장점	-5031
▁총재	-5032
▁베네치아	-5033
▁당대	-5034
▁서방	-5035
▁보스턴	-5036
테스	-5037
▁스크린	-5038
ers	-5039
▁수컷	-5040
▁양국	-5041
베리아	-5042
▁안토니	-5043
▁성서	-5044
▁Co	-5045
▁분산	-5046
▁엄격	-5047
▁놀이	-5048
▁배열	-5049
▁자랑	-5050
▁밀리	-5051
티스	-5052
ain	-5053
▁강도	-5054
▁흔적	-5055
▁가깝	-5056
▁비잔	-5057
▁평면	-5058
▁오케	-5059
▁인민군	-5060
▁다큐	-5061
▁우에	-5062
▁봉기	-5063
▁세로	-5064
▁스톤	-5065
▁편의	-5066
▁뻗	-5067
성기	-5068
▁못한다	-5069
▁늑대	-5070
▁중동	-5071
▁투스	-5072
▁호흡	-5073
▁힙합	-5074
▁들어오	-5075
▁중계	-5076
▁토너먼트	-5077
▁일단	-5078
AN	-5079
▁부서	-5080
▁장로	-5081
▁엉	-5082
▁아인	-5083
▁스케이	-5084
▁젤	-5085
▁개찰	-5086
▁83	-5087
▁페리	-5088
▁경북	-5089
데르	-5090
▁대가	-5091
▁메탈	-5092
▁북미	-5093
▁주재	-5094
▁쿠바	-5095
▁레닌	-5096
▁메르	-5097
▁혈액	-5098
▁De	-5099
▁철거	-5100
▁대사관	-5101
▁국방부	-5102
▁맨체스터	-5103
▁추적	-5104
▁한성	-5105
조선	-5106
▁동지	-5107
ard	-5108
▁야당	-5109
▁행하	-5110
▁선로	-5111
뜨리	-5112
▁드물	-5113
▁재임	-5114
▁마저	-5115
▁강요	-5116
▁안쪽	-5117
▁나이트	-5118
▁요코하마	-5119
▁대원	-5120
▁장례	-5121
▁세워졌	-5122
▁벼슬	-5123
▁포드	-5124
▁경찰서	-5125
▁마감	-5126
에도	-5127
레오	-5128
▁함경	-5129
▁근육	-5130
▁주자	-5131
▁탓	-5132
고속	-5133
▁농장	-5134
베르크	-5135
▁할아버지	-5136
제르	-5137
▁판타	-5138
▁해설	-5139
▁아프가니	-5140
▁1934	-5141
▁빵	-5142
▁중지	-5143
세대	-5144
키퍼	-5145
▁발전소	-5146
크래프트	-5147
야스	-5148
공업	-5149
▁리아	-5150
▁안내	-5151
▁골키퍼	-5152
▁노동당	-5153
▁간다	-5154
▁접속	-5155
▁광산	-5156
▁나섰	-5157
▁구사	-5158
▁카리	-5159
▁스탈린	-5160
▁시계	-5161
▁닐	-5162
▁놓여	-5163
▁코어	-5164
▁뱀	-5165
▁르네	-5166
▁입구	-5167
▁페이스	-5168
▁동구	-5169
▁현존	-5170
▁철학자	-5171
▁리스트	-5172
▁본토	-5173
▁사망자	-5174
▁대동	-5175
▁구로	-5176
아르	-5177
유키	-5178
▁정조	-5179
▁항해	-5180
▁동메달	-5181
▁킨	-5182
▁식량	-5183
▁꾼	-5184
▁얀	-5185
▁거느	-5186
▁곤충	-5187
▁관계자	-5188
▁130	-5189
▁글리	-5190
▁레지	-5191
즈니	-5192
▁조문	-5193
▁정확히	-5194
▁Me	-5195
위대	-5196
무르	-5197
▁거점	-5198
▁재판소	-5199
▁복사	-5200
▁토머스	-5201
▁화합물	-5202
▁선물	-5203
▁계수	-5204
▁유키	-5205
▁심리학	-5206
▁사카	-5207
ne	-5208
▁남극	-5209
▁140	-5210
▁부작	-5211
▁도쿠가와	-5212
▁부호	-5213
▁아프가니스탄	-5214
▁모자	-5215
▁중성	-5216
▁테르	-5217
▁모노	-5218
▁역전	-5219
▁증권	-5220
▁알렉산더	-5221
▁은메달	-5222
▁Sh	-5223
▁부처	-5224
▁돔	-5225
사르	-5226
▁김구	-5227
▁나선	-5228
▁오염	-5229
▁종전	-5230
▁풍속	-5231
▁대다수	-5232
▁필립	-5233
▁초청	-5234
▁독점	-5235
▁휘하	-5236
▁훼	-5237
▁새끼	-5238
OR	-5239
▁석방	-5240
▁세금	-5241
▁펄	-5242
▁아과	-5243
▁이정	-5244
▁폭풍	-5245
▁교향곡	-5246
▁멸종	-5247
▁칼리지	-5248
▁농촌	-5249
돌프	-5250
▁합리	-5251
안군	-5252
▁위안	-5253
▁클래스	-5254
우치	-5255
▁체육관	-5256
AM	-5257
▁특별히	-5258
▁그러므로	-5259
▁필라	-5260
▁진동	-5261
▁th	-5262
레이크	-5263
▁매주	-5264
▁새벽	-5265
▁아비	-5266
▁봉해졌	-5267
▁로맨	-5268
▁지질	-5269
▁히로시마	-5270
▁윤리	-5271
▁ST	-5272
▁성명	-5273
▁문재	-5274
베리	-5275
▁파울	-5276
▁박근	-5277
▁간격	-5278
▁자유주의	-5279
▁비중	-5280
▁관객	-5281
클린	-5282
▁부품	-5283
▁금강	-5284
▁유력	-5285
▁그래프	-5286
▁1931	-5287
사관	-5288
힌다	-5289
▁원조	-5290
▁아틀	-5291
▁그리스어	-5292
▁타카	-5293
▁기생	-5294
▁일곱	-5295
▁존슨	-5296
all	-5297
▁기병	-5298
▁대결	-5299
▁전한	-5300
▁아이스	-5301
▁미카	-5302
▁감옥	-5303
▁강등	-5304
▁타원	-5305
▁타점	-5306
▁펼쳤	-5307
▁마그	-5308
▁사신	-5309
▁연호	-5310
▁부드	-5311
느님	-5312
▁명시	-5313
▁특허	-5314
▁훌륭	-5315
게이	-5316
▁트랜스	-5317
▁하느님	-5318
나르	-5319
▁공세	-5320
▁대변	-5321
▁후퇴	-5322
▁목포	-5323
▁캠프	-5324
▁이어서	-5325
▁뚜렷	-5326
▁An	-5327
▁꺼	-5328
▁유대인	-5329
▁cod	-5330
▁지휘관	-5331
▁인터페이스	-5332
▁좌파	-5333
▁도메	-5334
▁문법	-5335
▁사관	-5336
▁코트	-5337
▁250	-5338
▁대한제국	-5339
▁스트라이	-5340
▁공룡	-5341
▁비즈	-5342
▁동성애	-5343
▁무늬	-5344
▁버지	-5345
▁가구	-5346
▁놀라	-5347
▁1921	-5348
▁교도	-5349
▁구리	-5350
▁단장	-5351
▁집필	-5352
▁해협	-5353
▁176	-5354
▁네이션	-5355
▁건담	-5356
▁유발	-5357
▁고고	-5358
▁김대중	-5359
▁칙	-5360
둥이	-5361
▁박스	-5362
ang	-5363
▁숙종	-5364
▁배웠	-5365
▁하버	-5366
▁협약	-5367
▁소요	-5368
▁킬로	-5369
▁커다란	-5370
▁약탈	-5371
▁캡	-5372
생활	-5373
▁수산	-5374
▁첫째	-5375
▁스테이션	-5376
▁삼각	-5377
▁키스	-5378
▁극복	-5379
▁지칭	-5380
▁05	-5381
▁수비수	-5382
▁빗	-5383
널드	-5384
▁동반	-5385
▁수반	-5386
▁1929	-5387
▁물려	-5388
▁연계	-5389
▁바이올	-5390
▁닮	-5391
▁목숨	-5392
▁성씨	-5393
▁착용	-5394
▁미분	-5395
▁원장	-5396
▁입사	-5397
▁드리	-5398
▁의석	-5399
▁운동가	-5400
▁일환	-5401
시스트	-5402
여서	-5403
▁덕분	-5404
▁고서	-5405
▁평론가	-5406
수량	-5407
▁라트	-5408
▁조화	-5409
▁매니	-5410
▁곰	-5411
▁틱	-5412
미아	-5413
▁잠재	-5414
▁크레	-5415
▁기갑	-5416
밀리	-5417
키스	-5418
▁갤럭	-5419
▁섬유	-5420
▁타입	-5421
마이	-5422
▁AC	-5423
▁압축	-5424
▁롬	-5425
투아	-5426
▁발렌	-5427
▁y	-5428
▁공국	-5429
▁비틀	-5430
▁경유	-5431
▁지부	-5432
▁연상	-5433
▁설비	-5434
▁첸	-5435
▁불화	-5436
ss	-5437
▁쯤	-5438
▁1925	-5439
▁험	-5440
▁는다고	-5441
▁1923	-5442
▁플로리다	-5443
▁과일	-5444
▁이수	-5445
▁임신	-5446
▁중립	-5447
페인	-5448
▁성직자	-5449
▁북아메리카	-5450
▁안드로이드	-5451
▁램	-5452
▁SC	-5453
▁서적	-5454
▁영감	-5455
▁근로	-5456
▁어두	-5457
▁빠지	-5458
▁갤럭시	-5459
▁그럼	-5460
베이스	-5461
▁07	-5462
▁추락	-5463
▁장갑	-5464
▁트레이	-5465
▁도호	-5466
▁모로	-5467
▁비하	-5468
▁진흥	-5469
▁고분	-5470
▁관리자	-5471
▁망원경	-5472
▁라이온	-5473
▁연평균	-5474
▁레벨	-5475
▁번지	-5476
▁민속	-5477
▁요원	-5478
▁선교사	-5479
▁딱	-5480
▁추대	-5481
▁웨일스	-5482
▁지역구	-5483
타카	-5484
▁가끔	-5485
▁악장	-5486
▁영혼	-5487
니즘	-5488
▁유성	-5489
ity	-5490
▁디오	-5491
▁모험	-5492
▁우드	-5493
▁남아메리카	-5494
▁갱	-5495
무게	-5496
▁발휘	-5497
▁삭제	-5498
▁몸무게	-5499
▁유비	-5500
▁수직	-5501
▁진술	-5502
▁박근혜	-5503
▁살아남	-5504
▁프로세서	-5505
▁샤를	-5506
▁캘리포니아주	-5507
▁영광	-5508
카스	-5509
▁수명	-5510
▁유가	-5511
▁페루	-5512
▁제약	-5513
▁하와이	-5514
대문	-5515
▁교과	-5516
▁무너	-5517
▁시게	-5518
▁EP	-5519
▁일자	-5520
▁기관차	-5521
▁채권	-5522
▁명사	-5523
▁북서쪽	-5524
▁사당	-5525
▁벨라	-5526
▁똑같	-5527
▁변신	-5528
▁필름	-5529
▁그랜드	-5530
▁수상자	-5531
▁161	-5532
▁복구	-5533
▁북극	-5534
▁단선	-5535
▁소설가	-5536
▁어항	-5537
▁사거리	-5538
▁서인	-5539
프란	-5540
▁청동	-5541
▁음모	-5542
▁이조	-5543
▁데리	-5544
ff	-5545
▁엽	-5546
▁돌파	-5547
▁어원	-5548
▁카자	-5549
▁WW	-5550
▁종로	-5551
▁홀로	-5552
▁다이묘	-5553
▁드러나	-5554
▁돌아갔	-5555
▁저널	-5556
행성	-5557
▁결심	-5558
▁어워드	-5559
▁프레임	-5560
▁주류	-5561
▁빅토리아	-5562
일본	-5563
보이	-5564
▁쇠퇴	-5565
▁모시	-5566
▁압도	-5567
▁철저	-5568
슬리	-5569
▁수장	-5570
▁향토	-5571
▁파트너	-5572
▁삼각형	-5573
▁준우	-5574
▁트럼	-5575
애나	-5576
▁황태	-5577
▁그려져	-5578
▁표지	-5579
▁틸	-5580
▁175	-5581
▁바오	-5582
▁부탁	-5583
▁레이블	-5584
▁가톨릭교회	-5585
▁투구	-5586
▁건축물	-5587
▁파운드	-5588
▁codice	-5589
즈키	-5590
▁여인	-5591
▁피트	-5592
부사	-5593
▁My	-5594
▁SM	-5595
▁변동	-5596
▁도마뱀	-5597
▁파생	-5598
▁화가	-5599
▁중시	-5600
▁평생	-5601
▁KT	-5602
▁랭킹	-5603
▁지연	-5604
▁넘겨	-5605
▁무릎	-5606
▁무인	-5607
▁문인	-5608
▁아기	-5609
▁1922	-5610
▁엘리자베스	-5611
▁규슈	-5612
▁동일본	-5613
타운	-5614
▁노무	-5615
▁유역	-5616
▁칼리	-5617
▁떼	-5618
스팅	-5619
▁도어	-5620
▁부유	-5621
▁왕가	-5622
▁토벌	-5623
▁나서	-5624
▁각자	-5625
▁중구	-5626
▁라마	-5627
▁빨간	-5628
▁유용	-5629
▁de	-5630
▁리치	-5631
▁버지니아	-5632
▁모래	-5633
▁직선	-5634
라이터	-5635
IS	-5636
눅스	-5637
오리	-5638
▁인천광역시	-5639
▁전승	-5640
▁쓰러	-5641
▁이날	-5642
▁굽	-5643
▁국민당	-5644
▁구미	-5645
▁고안	-5646
▁윤치	-5647
메니아	-5648
▁죠	-5649
▁노비	-5650
▁연령	-5651
▁직위	-5652
▁1912	-5653
멘트	-5654
▁자치구	-5655
▁최상	-5656
▁침해	-5657
▁리눅스	-5658
▁루트비히	-5659
▁봉사	-5660
▁공격수	-5661
▁색상	-5662
▁무산	-5663
▁일어난다	-5664
▁간섭	-5665
▁납치	-5666
▁인력	-5667
▁모니	-5668
▁다양체	-5669
▁스케이팅	-5670
▁패턴	-5671
▁왈	-5672
▁고르	-5673
▁포유	-5674
▁교차로	-5675
▁JR	-5676
▁탐험	-5677
▁Love	-5678
▁단행	-5679
▁Go	-5680
▁주사	-5681
▁아르메니아	-5682
양군	-5683
▁""	-5684
▁글씨	-5685
▁모듈	-5686
▁164	-5687
▁상무	-5688
▁항목	-5689
▁동아시아	-5690
ong	-5691
▁넬	-5692
▁이종	-5693
▁릭	-5694
▁베토	-5695
▁연소	-5696
▁퍼시	-5697
▁하사	-5698
▁MV	-5699
▁사토	-5700
▁영조	-5701
▁지중해	-5702
▁베타	-5703
▁관하	-5704
▁전향	-5705
up	-5706
▁삽입	-5707
▁적응	-5708
▁상처	-5709
▁올린	-5710
▁교역	-5711
▁06	-5712
▁블라디	-5713
▁1908	-5714
▁장사	-5715
▁들어서	-5716
▁배상	-5717
▁제주도	-5718
슬로	-5719
▁매각	-5720
▁시아	-5721
멘터리	-5722
▁남겨	-5723
▁토르	-5724
▁플레	-5725
▁목조	-5726
▁돼지	-5727
ED	-5728
▁마카	-5729
▁태자	-5730
▁출현	-5731
지마	-5732
▁과도	-5733
▁수지	-5734
▁호조	-5735
▁사촌	-5736
▁조명	-5737
▁1906	-5738
▁1917	-5739
ip	-5740
▁자책	-5741
▁행해	-5742
보살	-5743
OM	-5744
ld	-5745
▁가해	-5746
▁마라	-5747
▁실점	-5748
▁커피	-5749
▁크림	-5750
▁시외	-5751
▁안양	-5752
도니아	-5753
▁부동산	-5754
▁에스파	-5755
ant	-5756
야수	-5757
▁보통학교	-5758
▁03	-5759
▁옮기	-5760
▁외계	-5761
▁정서	-5762
▁우루	-5763
▁시상식	-5764
▁패러	-5765
▁굿	-5766
▁시집	-5767
▁정자	-5768
▁비전	-5769
▁히가시	-5770
▁렉	-5771
▁아울	-5772
▁육성	-5773
▁종족	-5774
▁참조	-5775
▁우익	-5776
▁기하학	-5777
▁남동쪽	-5778
▁준우승	-5779
영상	-5780
▁옹호	-5781
▁SN	-5782
▁인자	-5783
▁호르	-5784
▁앱	-5785
▁명문	-5786
▁입문	-5787
▁송라이터	-5788
몬드	-5789
▁통로	-5790
▁폐기	-5791
▁럭	-5792
▁싫	-5793
▁관중	-5794
▁띤	-5795
▁동사	-5796
▁기종	-5797
▁몬테	-5798
▁의병	-5799
▁연금	-5800
▁스와	-5801
▁사이클	-5802
▁낸다	-5803
▁보좌	-5804
▁이토	-5805
▁자전거	-5806
▁1927	-5807
▁유인	-5808
▁체인	-5809
▁다큐멘터리	-5810
▁무선	-5811
▁정류장	-5812
란다	-5813
▁노인	-5814
▁대행	-5815
▁배급	-5816
▁밀라노	-5817
▁적어도	-5818
▁들여	-5819
▁산타	-5820
▁앨런	-5821
▁전작	-5822
▁창간	-5823
▁표본	-5824
▁1907	-5825
이즈	-5826
▁과장	-5827
▁석조	-5828
▁우크라이나	-5829
▁북동쪽	-5830
▁BBC	-5831
▁사라지	-5832
▁협의회	-5833
▁아가	-5834
▁내장	-5835
▁진지	-5836
▁베토벤	-5837
▁최우수	-5838
▁낼	-5839
▁1926	-5840
▁흙	-5841
▁유닛	-5842
▁자문	-5843
▁포크	-5844
▁세워진	-5845
AC	-5846
튜브	-5847
▁호남	-5848
▁묘지	-5849
페이지	-5850
▁산악	-5851
▁오리지	-5852
▁수감	-5853
▁예외	-5854
▁탑승	-5855
▁트윈	-5856
티움	-5857
▁PD	-5858
▁노조	-5859
▁스틸	-5860
▁상영	-5861
▁안보	-5862
▁아무런	-5863
av	-5864
▁슐	-5865
▁별로	-5866
▁스페셜	-5867
▁유신	-5868
스토	-5869
▁왕립	-5870
플레이	-5871
▁번식	-5872
▁유튜브	-5873
▁기아	-5874
▁대교	-5875
어트	-5876
▁걷	-5877
▁사료	-5878
▁He	-5879
▁유입	-5880
▁주거	-5881
▁지름	-5882
▁헤드	-5883
▁168	-5884
▁때로	-5885
▁합계	-5886
▁세조	-5887
▁데려	-5888
▁맞춰	-5889
런트	-5890
ind	-5891
▁하천	-5892
▁점성	-5893
▁상하이	-5894
▁문하	-5895
▁할리	-5896
슬라	-5897
▁정사	-5898
▁카페	-5899
▁선제	-5900
다니	-5901
로프	-5902
▁라이벌	-5903
▁대안	-5904
▁홈페이지	-5905
▁Sp	-5906
▁버그	-5907
▁디즈니	-5908
브스	-5909
생물	-5910
▁드래곤	-5911
▁커뮤니티	-5912
ame	-5913
다이라	-5914
▁문화유산	-5915
▁찌	-5916
▁에릭	-5917
▁레이다	-5918
▁연고지	-5919
▁겨우	-5920
▁급속	-5921
▁여서	-5922
▁좌익	-5923
▁광역	-5924
▁증기	-5925
▁룩	-5926
▁상세	-5927
▁민족주의	-5928
▁시에	-5929
▁요미	-5930
▁NHK	-5931
▁166	-5932
▁칩	-5933
세스	-5934
▁데이터베이스	-5935
총장	-5936
▁자바	-5937
▁레이스	-5938
▁원로	-5939
▁콩고	-5940
프란시스코	-5941
se	-5942
▁기름	-5943
▁대조	-5944
▁162	-5945
▁독일어	-5946
▁1905	-5947
▁제후	-5948
▁십자군	-5949
▁현황	-5950
▁기압	-5951
▁샌프란시스코	-5952
▁엄마	-5953
▁꾸준히	-5954
▁비평가	-5955
▁색깔	-5956
▁나폴리	-5957
텐도	-5958
▁닌텐도	-5959
▁이어져	-5960
▁모집	-5961
▁소니	-5962
▁수수	-5963
▁품질	-5964
긴다	-5965
▁아크	-5966
▁반환	-5967
ES	-5968
▁비단	-5969
▁특급	-5970
▁주말	-5971
▁151	-5972
▁출산	-5973
▁조선인	-5974
ry	-5975
다른	-5976
▁진도	-5977
▁트럭	-5978
▁딴	-5979
▁쥬	-5980
▁묘소	-5981
▁운명	-5982
▁리얼	-5983
스티벌	-5984
▁리듬	-5985
▁선진	-5986
▁스승	-5987
▁유고슬	-5988
▁유고슬라비아	-5989
▁||	-5990
▁원산	-5991
▁주파	-5992
▁칭하	-5993
▁챌	-5994
▁구마	-5995
▁방안	-5996
▁흥미	-5997
▁가르치	-5998
▁가쓰	-5999
▁신비	-6000
▁페스티벌	-6001
▁정계	-6002
▁스피드	-6003
무네	-6004
▁그쳤	-6005
ort	-6006
▁02	-6007
▁플루	-6008
▁해진	-6009
▁단층	-6010
▁마일	-6011
▁지바	-6012
▁뚫	-6013
▁야생	-6014
▁재무	-6015
▁주한	-6016
▁늘어나	-6017
▁목격	-6018
▁와카	-6019
엘라	-6020
▁도리	-6021
▁역과	-6022
ith	-6023
▁배정	-6024
▁펼치	-6025
▁158	-6026
▁크리스토	-6027
▁줬	-6028
▁모터	-6029
▁상소	-6030
▁셋째	-6031
▁랴	-6032
결승	-6033
▁곧바로	-6034
나카	-6035
▁주의자	-6036
▁보전	-6037
▁수천	-6038
▁협의	-6039
▁문과	-6040
▁한화	-6041
스케	-6042
▁렌즈	-6043
▁오리지널	-6044
▁동전	-6045
▁이오	-6046
▁전해진다	-6047
▁일행	-6048
▁스테이지	-6049
▁오디션	-6050
▁가미	-6051
▁동치	-6052
▁분배	-6053
▁입증	-6054
▁옛날	-6055
▁사면	-6056
▁적색	-6057
▁무관	-6058
▁급행	-6059
▁운반	-6060
▁이리	-6061
▁토니	-6062
▁한나라	-6063
▁거둔	-6064
▁도심	-6065
▁복제	-6066
▁푸른	-6067
▁템	-6068
▁동영상	-6069
▁한나라당	-6070
ok	-6071
▁쿠르	-6072
▁심하	-6073
▁케이블	-6074
회의	-6075
▁인텔	-6076
▁남서쪽	-6077
▁기점	-6078
▁기념물	-6079
해군	-6080
▁문제점	-6081
▁미네	-6082
교육	-6083
리케이션	-6084
프스	-6085
▁기단	-6086
▁호환	-6087
▁출판사	-6088
▁지휘자	-6089
▁브라이언	-6090
▁거친	-6091
▁베이스볼	-6092
▁되찾	-6093
▁마스	-6094
▁사직	-6095
▁디자이너	-6096
▁배제	-6097
▁향년	-6098
▁예언	-6099
▁일으킨	-6100
▁교전	-6101
▁연주자	-6102
▁기용	-6103
▁긴급	-6104
▁알라	-6105
으므로	-6106
▁콜롬비아	-6107
▁서북	-6108
▁우르	-6109
▁직장	-6110
▁마케도니아	-6111
▁련	-6112
▁부패	-6113
▁예술가	-6114
▁이루어진다	-6115
프라	-6116
루살	-6117
▁정교	-6118
▁회원국	-6119
▁개수	-6120
▁신임	-6121
▁인치	-6122
▁프랜	-6123
▁당사자	-6124
▁수면	-6125
루살렘	-6126
▁비즈니스	-6127
▁단종	-6128
▁하드웨어	-6129
▁나타난	-6130
▁선사	-6131
▁폭스	-6132
▁걸려	-6133
▁모순	-6134
▁미만	-6135
▁석탑	-6136
▁쓴다	-6137
▁파나	-6138
▁좌석	-6139
▁드러내	-6140
▁콘스탄티노	-6141
▁서경	-6142
▁기재	-6143
▁집계	-6144
▁도메인	-6145
▁스펙트	-6146
▁1904	-6147
▁Un	-6148
▁관장	-6149
▁가하	-6150
▁드림	-6151
▁무신	-6152
▁붙잡	-6153
▁용기	-6154
▁오타	-6155
▁초래	-6156
▁포맷	-6157
▁판타지	-6158
모니	-6159
▁다녔	-6160
▁합작	-6161
▁그럼에도	-6162
▁왕족	-6163
▁평소	-6164
▁시달	-6165
▁신용	-6166
▁이력	-6167
▁165	-6168
▁트레	-6169
▁살펴	-6170
▁의거	-6171
▁센트럴	-6172
▁신하	-6173
▁내륙	-6174
▁임상	-6175
문학	-6176
▁스펙트럼	-6177
▁마쓰다이라	-6178
▁사로	-6179
▁연애	-6180
▁항일	-6181
▁역명	-6182
▁154	-6183
▁Wh	-6184
▁가게	-6185
▁걸리	-6186
▁전염	-6187
ord	-6188
▁자사	-6189
qu	-6190
▁Se	-6191
▁챌린	-6192
▁옌	-6193
ob	-6194
▁사르	-6195
▁아도	-6196
▁예루살렘	-6197
▁계단	-6198
▁AM	-6199
▁용산	-6200
▁여동생	-6201
▁무슬	-6202
페이	-6203
▁팅	-6204
▁이지	-6205
▁권고	-6206
▁이글	-6207
식물	-6208
▁DJ	-6209
▁자회사	-6210
PS	-6211
경기	-6212
▁받침	-6213
가스	-6214
▁마케팅	-6215
▁사범	-6216
▁스쿨	-6217
▁과제	-6218
▁바이올린	-6219
▁상임	-6220
▁그랑	-6221
▁번주	-6222
▁압박	-6223
▁무슬림	-6224
▁167	-6225
▁163	-6226
우옌	-6227
▁여신	-6228
▁진상	-6229
▁900	-6230
▁리투아	-6231
▁리투아니아	-6232
▁두려워	-6233
디스	-6234
▁156	-6235
▁행정부	-6236
▁봐	-6237
ate	-6238
▁만난	-6239
▁무라	-6240
▁얼음	-6241
▁이명박	-6242
IC	-6243
▁SF	-6244
▁서브	-6245
▁스마트폰	-6246
▁조류	-6247
▁노무현	-6248
▁말라	-6249
▁가득	-6250
▁발효	-6251
▁파동	-6252
▁훼손	-6253
▁니스	-6254
▁혜성	-6255
▁크리스티	-6256
운서	-6257
▁차관	-6258
▁교섭	-6259
▁한양	-6260
▁아나운서	-6261
▁부수	-6262
▁부흥	-6263
▁착륙	-6264
▁타마	-6265
▁서울시	-6266
▁비아	-6267
▁AS	-6268
▁장편	-6269
▁UN	-6270
▁부리	-6271
▁선보였	-6272
랑이	-6273
▁끼리	-6274
▁두드	-6275
▁저기	-6276
▁샬	-6277
커스	-6278
▁미얀	-6279
▁분지	-6280
▁댐	-6281
▁고립	-6282
▁식사	-6283
▁애국	-6284
▁정벌	-6285
▁조국	-6286
▁비잔티움	-6287
▁쇼군	-6288
▁오다	-6289
▁퍼져	-6290
▁게시	-6291
▁마쳤	-6292
▁예능	-6293
카르	-6294
▁바그	-6295
▁비로	-6296
▁머물렀	-6297
▁샹	-6298
껍질	-6299
▁대단	-6300
▁밀접	-6301
▁충남	-6302
▁하트	-6303
▁출구	-6304
▁친정	-6305
▁스타크래프트	-6306
▁지주	-6307
▁오케스트라	-6308
▁피렌	-6309
▁부통령	-6310
▁우지	-6311
▁참판	-6312
▁규격	-6313
▁피스	-6314
▁성공회	-6315
아지	-6316
▁차체	-6317
▁진나라	-6318
리크	-6319
▁사인	-6320
▁점유	-6321
ET	-6322
마치	-6323
▁용량	-6324
▁디비전	-6325
▁융합	-6326
▁소나	-6327
▁자마	-6328
▁일요일	-6329
잡이	-6330
▁간접	-6331
▁구장	-6332
▁지장	-6333
▁학파	-6334
▁브라우	-6335
▁뛰어나	-6336
▁좋아하	-6337
▁페어	-6338
▁주립	-6339
킨스	-6340
▁바티	-6341
▁요크	-6342
▁아이디	-6343
▁싸웠	-6344
▁사리	-6345
로디	-6346
▁시체	-6347
▁귀환	-6348
▁아베	-6349
▁와중	-6350
데이트	-6351
럼비아	-6352
▁성종	-6353
예프	-6354
▁김동	-6355
▁낱	-6356
길이	-6357
▁최신	-6358
▁농도	-6359
▁두산	-6360
▁전이	-6361
▁139	-6362
▁알바니아	-6363
▁업데이트	-6364
▁쿠스	-6365
▁강연	-6366
▁몰락	-6367
ast	-6368
부인	-6369
▁거인	-6370
▁발족	-6371
▁선두	-6372
▁제네	-6373
▁투명	-6374
▁HIV	-6375
▁벌어지	-6376
▁맥스	-6377
▁월간	-6378
▁145	-6379
▁전지	-6380
▁개발자	-6381
▁대령	-6382
▁부도	-6383
DP	-6384
▁완화	-6385
▁사사	-6386
▁다이아	-6387
▁마천	-6388
▁MVP	-6389
▁공과	-6390
▁서열	-6391
▁아세	-6392
▁피렌체	-6393
▁기타리스트	-6394
▁미나미	-6395
▁스트리트	-6396
▁애플리케이션	-6397
▁잊	-6398
▁공용	-6399
▁야기	-6400
▁마리오	-6401
▁준결승	-6402
랑크	-6403
트롤	-6404
▁중국어	-6405
▁DS	-6406
▁고조	-6407
▁충성	-6408
▁하노	-6409
산물	-6410
▁심한	-6411
▁위주	-6412
레이터	-6413
▁주머니	-6414
▁경선	-6415
▁착수	-6416
▁관찰사	-6417
트랙	-6418
▁측근	-6419
▁형법	-6420
▁사라졌	-6421
들리	-6422
▁해인	-6423
▁벌어졌	-6424
▁응우옌	-6425
▁푼	-6426
▁전두	-6427
▁아이디어	-6428
▁킬로미터	-6429
수아	-6430
▁빨리	-6431
▁아종	-6432
if	-6433
▁마산	-6434
▁깔	-6435
▁부자	-6436
▁시드니	-6437
▁공전	-6438
▁이슈	-6439
▁전류	-6440
▁해전	-6441
IT	-6442
▁중도	-6443
▁흥행	-6444
▁게이트	-6445
▁굉	-6446
트니	-6447
▁부시	-6448
▁몸길이	-6449
주곡	-6450
▁뱅크	-6451
▁관광객	-6452
ive	-6453
▁검증	-6454
▁규명	-6455
▁던지	-6456
▁사바	-6457
▁IP	-6458
▁중독	-6459
▁전임	-6460
▁지각	-6461
▁요미우리	-6462
악기	-6463
▁붓	-6464
▁이에	-6465
▁알렸	-6466
리티	-6467
란트	-6468
▁소송법	-6469
▁1896	-6470
ack	-6471
카드	-6472
▁관습	-6473
▁로빈	-6474
▁연수	-6475
▁책봉	-6476
▁권유	-6477
▁노동조합	-6478
▁천문학	-6479
▁좌표	-6480
▁서일본	-6481
▁구동	-6482
▁인과	-6483
균관	-6484
ure	-6485
▁제의	-6486
▁피에르	-6487
▁메디	-6488
▁세례	-6489
▁친선	-6490
▁젖	-6491
▁마운	-6492
▁백신	-6493
▁사명	-6494
▁들어간	-6495
▁아울러	-6496
▁디젤	-6497
▁174	-6498
▁실용	-6499
▁여덟	-6500
▁정찰	-6501
▁수신	-6502
아리	-6503
츠키	-6504
▁스콧	-6505
▁오렌	-6506
▁통행	-6507
▁석탄	-6508
폴리스	-6509
▁수학자	-6510
▁청와	-6511
▁쇼핑	-6512
▁우즈	-6513
▁플라스	-6514
▁시라	-6515
▁존경	-6516
▁뷔	-6517
▁피난	-6518
루미	-6519
▁복소	-6520
▁프로세스	-6521
▁옐	-6522
토미	-6523
ock	-6524
▁자율	-6525
▁짙	-6526
▁성벽	-6527
▁전장	-6528
로운	-6529
▁테오	-6530
▁청와대	-6531
▁5000	-6532
iv	-6533
▁조용	-6534
▁행진	-6535
▁152	-6536
▁들어와	-6537
▁시외버스	-6538
▁꼴	-6539
▁리오	-6540
▁붙이	-6541
▁찾아가	-6542
나와	-6543
▁전진	-6544
▁저기압	-6545
▁테일러	-6546
▁로고	-6547
▁미하	-6548
ck	-6549
▁다룬	-6550
▁달아	-6551
▁전문학교	-6552
▁자손	-6553
▁신칸	-6554
▁룬	-6555
▁회수	-6556
▁판매량	-6557
문관	-6558
▁미스터	-6559
▁고사	-6560
▁보드	-6561
▁Ar	-6562
▁번뇌	-6563
▁157	-6564
▁과목	-6565
▁염색	-6566
▁신전	-6567
▁유년	-6568
▁장성	-6569
▁WWE	-6570
▁금성	-6571
▁밀양	-6572
▁퇴각	-6573
▁한강	-6574
▁독립운동가	-6575
▁MP	-6576
▁취약	-6577
▁상상	-6578
▁구제	-6579
▁자면	-6580
▁준공	-6581
혁명	-6582
▁얼마나	-6583
▁비극	-6584
▁동남아시아	-6585
▁뿔	-6586
▁급진	-6587
▁빌헬	-6588
▁관현	-6589
▁무효	-6590
창기	-6591
▁제휴	-6592
▁관념	-6593
▁루수	-6594
▁지분	-6595
▁호평	-6596
12	-6597
▁곁	-6598
▁고개	-6599
외선	-6600
가루	-6601
▁승차	-6602
▁적대	-6603
▁악마	-6604
▁히스	-6605
▁하버드	-6606
▁쇄	-6607
포스	-6608
▁유출	-6609
▁카시	-6610
▁문재인	-6611
▁국어	-6612
▁어릴	-6613
▁파스	-6614
▁할당	-6615
▁해임	-6616
▁연구자	-6617
산군	-6618
▁대외	-6619
▁쏟	-6620
▁장인	-6621
▁성균관	-6622
▁김용	-6623
▁식당	-6624
▁일화	-6625
▁동위	-6626
▁마찰	-6627
▁응답	-6628
▁창업	-6629
일드	-6630
▁루터	-6631
▁이순	-6632
▁가즈	-6633
▁프로토콜	-6634
수수	-6635
니스트	-6636
▁j	-6637
▁가질	-6638
▁나미	-6639
▁서독	-6640
▁메가	-6641
▁에티	-6642
▁연루	-6643
전자	-6644
▁박영	-6645
▁카나	-6646
▁물러나	-6647
메르	-6648
▁PS	-6649
▁희극	-6650
▁외무	-6651
▁소금	-6652
▁매출	-6653
▁소총	-6654
▁패전	-6655
▁신칸센	-6656
▁상류	-6657
▁성전	-6658
▁105	-6659
▁히라	-6660
델피아	-6661
원숭이	-6662
하르트	-6663
▁필라델피아	-6664
악단	-6665
▁남인	-6666
▁1500	-6667
▁125	-6668
▁니아	-6669
▁146	-6670
▁소지	-6671
▁청사	-6672
▁MC	-6673
▁믿음	-6674
▁여수	-6675
▁이노	-6676
▁휩	-6677
자와	-6678
▁마오	-6679
▁노드	-6680
▁남양	-6681
▁오클	-6682
▁우정	-6683
▁항공모	-6684
▁3000	-6685
▁저택	-6686
▁예배	-6687
▁가라	-6688
▁흩	-6689
▁개원	-6690
▁단점	-6691
▁술탄	-6692
▁힌두	-6693
팩트	-6694
▁강사	-6695
▁매개	-6696
▁충족	-6697
▁소닉	-6698
▁중점	-6699
▁환원	-6700
▁추모	-6701
▁원나라	-6702
▁자고	-6703
▁착공	-6704
▁폴리스	-6705
▁1911	-6706
▁153	-6707
▁배구	-6708
AP	-6709
one	-6710
▁증후	-6711
라트	-6712
▁윌슨	-6713
▁유언	-6714
고속도로	-6715
▁이이	-6716
▁조언	-6717
서양	-6718
▁Le	-6719
▁민국	-6720
▁여래	-6721
▁우주선	-6722
▁초창기	-6723
ime	-6724
▁고무	-6725
▁단원	-6726
▁포장	-6727
▁하마	-6728
▁지지자	-6729
▁반격	-6730
▁천사	-6731
▁자책점	-6732
▁법령	-6733
▁참가자	-6734
ML	-6735
▁아즈	-6736
▁회계	-6737
네이	-6738
▁보잉	-6739
▁서서	-6740
▁카트	-6741
▁소관	-6742
▁됐으며	-6743
▁곳곳	-6744
▁성모	-6745
▁순천	-6746
▁와인	-6747
▁얇	-6748
▁이복	-6749
▁소재지	-6750
▁나열	-6751
▁일렉	-6752
▁Pro	-6753
▁고원	-6754
▁여진	-6755
▁편곡	-6756
▁출입구	-6757
OC	-6758
▁석가	-6759
▁제트	-6760
▁주권	-6761
▁친척	-6762
▁회화	-6763
▁103	-6764
▁별자리	-6765
▁기장	-6766
상스	-6767
▁떨어졌	-6768
▁사지	-6769
▁미얀마	-6770
▁빌헬름	-6771
▁지목	-6772
▁내내	-6773
▁눈물	-6774
▁회견	-6775
▁비틀즈	-6776
▁디비	-6777
▁연인	-6778
▁카자흐	-6779
▁조르	-6780
▁리메	-6781
▁환상	-6782
▁봤	-6783
제프	-6784
토시	-6785
▁강수량	-6786
대군	-6787
▁셈	-6788
▁근접	-6789
▁두드러	-6790
▁이글스	-6791
▁못해	-6792
▁공략	-6793
▁정치가	-6794
▁이원	-6795
▁개업	-6796
▁고베	-6797
▁공자	-6798
▁점프	-6799
▁중장	-6800
▁최적	-6801
▁패스	-6802
▁유해	-6803
어리	-6804
동물	-6805
▁따위	-6806
▁없애	-6807
▁여의	-6808
▁채무	-6809
▁특유	-6810
즈카	-6811
▁진리	-6812
▁닭	-6813
▁공인	-6814
▁보충	-6815
▁우편	-6816
▁인격	-6817
▁매사	-6818
▁민사	-6819
▁후자	-6820
▁오디오	-6821
▁주파수	-6822
▁일관	-6823
▁컨트롤	-6824
▁선원	-6825
▁취재	-6826
▁테스	-6827
▁협동	-6828
▁ISO	-6829
▁클린	-6830
▁굵	-6831
▁떠난	-6832
▁인형	-6833
▁실종	-6834
▁양상	-6835
▁위장	-6836
▁사로잡	-6837
▁나리	-6838
▁버튼	-6839
▁토크	-6840
▁상자	-6841
▁삿	-6842
▁오렌지	-6843
▁레전	-6844
▁한데	-6845
▁증후군	-6846
기니	-6847
소스	-6848
▁시립	-6849
▁이영	-6850
▁중종	-6851
▁항공모함	-6852
노리	-6853
▁해역	-6854
▁겸임	-6855
▁허브	-6856
▁트라이	-6857
▁대답	-6858
▁155	-6859
▁민영	-6860
▁발해	-6861
▁별개	-6862
▁약한	-6863
▁카타	-6864
te	-6865
▁법무	-6866
리언	-6867
▁승무원	-6868
▁토리	-6869
▁각본가	-6870
노프	-6871
▁룰	-6872
▁아군	-6873
▁갓	-6874
▁게재	-6875
▁나고	-6876
▁담배	-6877
▁유격	-6878
▁르네상스	-6879
받침	-6880
▁내지	-6881
▁동등	-6882
▁합법	-6883
▁각기	-6884
▁유교	-6885
▁평행	-6886
▁전례	-6887
▁미소	-6888
▁생일	-6889
▁이인	-6890
io	-6891
▁밭	-6892
마사	-6893
▁성주	-6894
▁사가	-6895
▁지나가	-6896
▁사물	-6897
▁스파이	-6898
플러	-6899
▁Bo	-6900
▁격렬	-6901
▁레이저	-6902
▁#	-6903
▁얘	-6904
시온	-6905
▁연도	-6906
▁모으	-6907
▁108	-6908
▁아리스	-6909
▁Con	-6910
▁아바	-6911
▁앞면	-6912
▁베르크	-6913
▁포수	-6914
▁일족	-6915
▁호칭	-6916
▁스터	-6917
▁즐기	-6918
▁매력	-6919
▁북동부	-6920
▁전두환	-6921
▁캠페인	-6922
▁사우디아	-6923
▁자발	-6924
▁연혁	-6925
▁영동	-6926
▁이바	-6927
▁가르침	-6928
▁세균	-6929
시티	-6930
▁서해	-6931
▁이슬람교	-6932
▁고체	-6933
▁금액	-6934
▁복장	-6935
▁어두운	-6936
▁히데요시	-6937
▁하얀	-6938
▁드라이브	-6939
▁감지	-6940
▁토요일	-6941
▁컸	-6942
모어	-6943
▁IT	-6944
▁에디	-6945
▁해운	-6946
▁거슬러	-6947
▁화살	-6948
베이터	-6949
▁야간	-6950
▁외곽	-6951
▁입상	-6952
▁하우	-6953
pe	-6954
▁생명체	-6955
▁이사장	-6956
▁트럼프	-6957
때로	-6958
ber	-6959
▁박탈	-6960
▁상장	-6961
▁홍수	-6962
▁일찍이	-6963
▁메타	-6964
▁배틀	-6965
▁개찰구	-6966
▁건의	-6967
▁아케	-6968
▁김영삼	-6969
▁퍼시픽	-6970
▁교장	-6971
▁크리스마스	-6972
Pa	-6973
항공	-6974
▁상대방	-6975
▁유니폼	-6976
▁캐스팅	-6977
▁교단	-6978
▁시청자	-6979
▁에이스	-6980
▁옴	-6981
산면	-6982
▁향후	-6983
산리	-6984
▁콜라	-6985
라이트	-6986
▁나고야	-6987
▁헐	-6988
▁고발	-6989
▁브래	-6990
러미	-6991
화점	-6992
▁마친	-6993
▁상부	-6994
▁추격	-6995
▁서서히	-6996
▁외국어	-6997
▁펴	-6998
퍼니	-6999
▁만세	-7000
▁앙리	-7001
▁일생	-7002
▁치세	-7003
▁하인리히	-7004
▁골프	-7005
▁전함	-7006
▁궁정	-7007
▁아우구	-7008
라미	-7009
▁기금	-7010
▁때때로	-7011
▁호세	-7012
▁가계	-7013
▁전도	-7014
▁다중	-7015
▁트위	-7016
▁대주교	-7017
▁꾀	-7018
▁톈	-7019
▁튼	-7020
▁128	-7021
ge	-7022
▁1909	-7023
집합	-7024
▁어드	-7025
칠리아	-7026
▁유소년	-7027
▁남긴	-7028
▁슬라	-7029
▁최저	-7030
▁운동장	-7031
가타	-7032
▁긴장	-7033
▁무려	-7034
▁사다	-7035
▁안장	-7036
▁부착	-7037
▁속성	-7038
▁트루	-7039
▁149	-7040
▁사이버	-7041
▁명의	-7042
▁발현	-7043
▁중재	-7044
▁레전드	-7045
구장	-7046
▁물자	-7047
▁102	-7048
▁방침	-7049
▁쉐	-7050
▁섭취	-7051
▁건축가	-7052
▁Bl	-7053
▁대군	-7054
▁주지사	-7055
▁보스니아	-7056
▁텍스트	-7057
행위	-7058
▁개관	-7059
▁수성	-7060
람회	-7061
▁정밀	-7062
▁피고	-7063
▁향교	-7064
▁사우디아라비아	-7065
▁고가	-7066
▁발원	-7067
▁세미	-7068
▁팽창	-7069
▁사용자	-7070
▁존중	-7071
▁GT	-7072
▁계절	-7073
▁자유당	-7074
▁셸	-7075
▁초연	-7076
▁송나라	-7077
다드	-7078
▁남한	-7079
▁원자로	-7080
▁직책	-7081
▁네이버	-7082
▁제작자	-7083
▁포도주	-7084
▁에스파냐	-7085
▁기수	-7086
▁조리	-7087
▁자마자	-7088
▁끊임	-7089
▁기다리	-7090
▁물러났	-7091
▁짜리	-7092
▁중국인	-7093
▁후안	-7094
▁문양	-7095
▁시오	-7096
▁토스	-7097
리즘	-7098
트릭	-7099
▁전대	-7100
▁캄보	-7101
먼드	-7102
▁단기	-7103
▁키프	-7104
▁안드레	-7105
▁지나치	-7106
iz	-7107
백과	-7108
▁낙선	-7109
▁향한	-7110
AD	-7111
▁여주	-7112
▁차남	-7113
▁병역	-7114
▁사절	-7115
▁취지	-7116
▁탐지	-7117
▁포괄	-7118
▁강경	-7119
▁고래	-7120
▁에우	-7121
▁김태	-7122
▁입체	-7123
붙이	-7124
▁수평	-7125
▁딩	-7126
▁객관	-7127
▁숭배	-7128
▁아미타	-7129
▁룽	-7130
▁동독	-7131
▁턱	-7132
▁계몽	-7133
▁청장	-7134
▁태생	-7135
▁$	-7136
▁CPU	-7137
▁최소한	-7138
우라	-7139
age	-7140
▁토마	-7141
▁손가락	-7142
▁엘리베이터	-7143
사기	-7144
▁경과	-7145
▁패하	-7146
▁대니	-7147
▁충주	-7148
▁아미노	-7149
▁볼리	-7150
▁컬러	-7151
▁겔	-7152
▁로프	-7153
orld	-7154
▁둥근	-7155
▁수군	-7156
▁팔레스	-7157
▁그랑프리	-7158
▁왜성	-7159
▁음원	-7160
수엘라	-7161
▁뢰	-7162
▁갑작	-7163
▁침몰	-7164
▁프랭크	-7165
차례	-7166
▁블루스	-7167
서리	-7168
▁추상	-7169
▁뉘	-7170
▁굉장	-7171
▁원하	-7172
▁촉구	-7173
▁명목	-7174
▁무죄	-7175
▁조반	-7176
▁127	-7177
▁경부	-7178
▁진군	-7179
▁147	-7180
▁끌어	-7181
▁김재	-7182
▁하이드	-7183
▁타이거즈	-7184
▁디스플레이	-7185
▁팜	-7186
▁북방	-7187
▁심의	-7188
▁제곱	-7189
▁건너가	-7190
▁리메이크	-7191
▁어업	-7192
보기	-7193
노부	-7194
▁알코	-7195
▁저명	-7196
▁스릴	-7197
▁시그	-7198
▁추증	-7199
▁효력	-7200
▁도라	-7201
▁분광	-7202
▁171	-7203
▁부천	-7204
▁수렴	-7205
▁죽였	-7206
▁머신	-7207
▁케네	-7208
▁로맨스	-7209
▁1915	-7210
▁난민	-7211
▁북구	-7212
▁오키나와	-7213
석기	-7214
▁센서	-7215
▁노란색	-7216
▁언론인	-7217
▁라파	-7218
▁마하	-7219
포트	-7220
▁마비	-7221
▁모스	-7222
▁베네수엘라	-7223
▁엔지	-7224
▁협조	-7225
▁후일	-7226
▁윌리엄스	-7227
▁수동	-7228
▁신흥	-7229
▁전성기	-7230
▁서사	-7231
▁투르크	-7232
▁김수	-7233
자스	-7234
▁버린	-7235
▁원고	-7236
▁종결	-7237
▁테니스	-7238
▁주축	-7239
▁황해	-7240
▁문학상	-7241
▁1913	-7242
▁달린	-7243
▁위키백과	-7244
▁김진	-7245
▁동당	-7246
기지	-7247
▁보리	-7248
다고	-7249
▁결선	-7250
▁원반	-7251
▁타르	-7252
ik	-7253
▁세계관	-7254
▁네이션스	-7255
▁천문학자	-7256
EN	-7257
▁SP	-7258
▁창건	-7259
▁풍경	-7260
크리트	-7261
트리올	-7262
▁트윈스	-7263
▁몬트리올	-7264
▁따뜻	-7265
▁옥스	-7266
▁코프	-7267
▁상당수	-7268
▁이민자	-7269
창군	-7270
▁이어받	-7271
▁인재	-7272
▁개미	-7273
▁반박	-7274
▁재미	-7275
▁출토	-7276
무기	-7277
▁대처	-7278
▁부과	-7279
▁창시	-7280
▁청원	-7281
▁공직	-7282
▁광년	-7283
▁언제나	-7284
▁가져왔	-7285
▁프레스	-7286
▁탈환	-7287
▁태수	-7288
▁동래	-7289
▁둘레	-7290
▁대포	-7291
▁스핀	-7292
▁기습	-7293
▁시공	-7294
▁아폴	-7295
▁예시	-7296
▁스파르타	-7297
▁닿	-7298
▁대역	-7299
▁바흐	-7300
▁동년	-7301
자치도	-7302
▁아이템	-7303
▁제주특별	-7304
▁제주특별자치도	-7305
sp	-7306
▁넨	-7307
▁전한다	-7308
▁휠	-7309
▁미쳤	-7310
▁유수	-7311
▁169	-7312
▁섭정	-7313
MS	-7314
▁이틀	-7315
▁강과	-7316
▁비문	-7317
▁주차	-7318
▁정무	-7319
▁둘러싼	-7320
포구	-7321
▁동력	-7322
▁든지	-7323
▁수령	-7324
▁카탈	-7325
▁라이언	-7326
▁링컨	-7327
▁버려	-7328
선거	-7329
▁이진	-7330
▁가르쳤	-7331
▁1895	-7332
공신	-7333
▁Tr	-7334
▁지폐	-7335
▁통칭	-7336
명사전	-7337
▁초상화	-7338
▁남원	-7339
▁무제	-7340
▁유연	-7341
▁폐위	-7342
▁나가사키	-7343
▁광부	-7344
▁온천	-7345
▁후대	-7346
▁자기장	-7347
와라	-7348
▁대제	-7349
▁적자	-7350
▁팔레스타인	-7351
▁캄보디아	-7352
▁번영	-7353
▁식별	-7354
▁신세	-7355
▁베어스	-7356
▁정말	-7357
▁사회학	-7358
▁별칭	-7359
▁후세	-7360
그라드	-7361
▁총선거	-7362
▁다운로드	-7363
▁양주	-7364
▁하부	-7365
네스코	-7366
▁141	-7367
평군	-7368
▁북위	-7369
▁장학	-7370
▁hPa	-7371
▁아사히	-7372
▁걱	-7373
▁차종	-7374
▁al	-7375
▁고백	-7376
▁국사	-7377
▁무상	-7378
▁법제	-7379
▁탤	-7380
▁어스	-7381
벌레	-7382
태우	-7383
▁날짜	-7384
▁수용소	-7385
▁한동안	-7386
▁나주	-7387
▁다녀	-7388
▁총괄	-7389
▁아틀레	-7390
▁멈추	-7391
▁삼진	-7392
▁135	-7393
▁여파	-7394
▁풀려	-7395
ust	-7396
▁서머	-7397
▁거느리	-7398
▁리버풀	-7399
▁십자가	-7400
▁소실	-7401
▁에다	-7402
▁차기	-7403
▁111	-7404
▁해병대	-7405
박쥐	-7406
▁민회	-7407
▁부른	-7408
▁도호쿠	-7409
▁바실	-7410
▁북서부	-7411
▁영리	-7412
▁파업	-7413
▁관람	-7414
▁풋볼	-7415
▁NC	-7416
▁장미	-7417
키지	-7418
▁교원	-7419
▁대위	-7420
▁정전	-7421
▁그로	-7422
▁원내	-7423
▁조달	-7424
▁첨가	-7425
▁문화방송	-7426
▁천도	-7427
▁카리브	-7428
▁신중	-7429
▁소환	-7430
▁중순	-7431
▁144	-7432
GC	-7433
리에	-7434
▁서울대	-7435
▁컴퍼니	-7436
▁지냈으며	-7437
▁캉	-7438
선스	-7439
▁휴전	-7440
▁귀중	-7441
▁김포	-7442
▁CE	-7443
▁여겼	-7444
▁중소	-7445
int	-7446
▁CO	-7447
▁위임	-7448
▁언더	-7449
ep	-7450
▁고인	-7451
▁더글	-7452
▁오빠	-7453
▁제수	-7454
▁함유	-7455
▁휴식	-7456
▁도스	-7457
▁내외	-7458
▁명백	-7459
▁이광	-7460
▁119	-7461
니치	-7462
▁교양	-7463
▁께서	-7464
▁루시	-7465
▁스티브	-7466
▁덤	-7467
▁모방	-7468
▁의상	-7469
▁외교관	-7470
▁구이	-7471
▁기요	-7472
▁당일	-7473
▁드라	-7474
▁불편	-7475
▁자랐	-7476
▁연세대	-7477
▁컬럼비아	-7478
▁드럼	-7479
▁선구	-7480
그로	-7481
▁간호	-7482
▁병조	-7483
▁실전	-7484
루션	-7485
▁TH	-7486
▁인산	-7487
▁카이사르	-7488
릴라	-7489
푸스	-7490
▁신학교	-7491
▁TO	-7492
리케인	-7493
▁아레나	-7494
ib	-7495
▁걱정	-7496
▁정렬	-7497
▁해수	-7498
케이션	-7499
누엘	-7500
▁두루	-7501
▁신학자	-7502
▁관통	-7503
▁며칠	-7504
▁충실	-7505
▁룡	-7506
▁It	-7507
▁공모	-7508
▁다니엘	-7509
▁스페이스	-7510
▁할리우드	-7511
▁매카	-7512
▁선종	-7513
▁아벨	-7514
▁요르	-7515
▁총대	-7516
▁허리케인	-7517
▁왓	-7518
▁써서	-7519
▁총사	-7520
▁평야	-7521
▁편리	-7522
▁스릴러	-7523
▁케네디	-7524
▁마이너	-7525
▁케이스	-7526
▁라이선스	-7527
▁꽤	-7528
▁김상	-7529
▁신기	-7530
▁유니버	-7531
▁콘크리트	-7532
▁마인	-7533
▁172	-7534
라리	-7535
▁공채	-7536
▁바꿔	-7537
▁쇼트	-7538
▁테레	-7539
말라	-7540
▁인연	-7541
▁평일	-7542
▁엔지니어	-7543
▁유네스코	-7544
▁고민	-7545
▁미즈	-7546
▁우연히	-7547
▁We	-7548
▁껍질	-7549
▁미주	-7550
▁소통	-7551
ome	-7552
▁버린다	-7553
▁슈트	-7554
▁역설	-7555
▁항소	-7556
▁바퀴	-7557
▁영남	-7558
▁공의회	-7559
시로	-7560
▁미토	-7561
▁NBA	-7562
▁베드	-7563
▁장난	-7564
▁구조물	-7565
▁연패	-7566
▁리어	-7567
▁오세	-7568
▁좌절	-7569
▁증진	-7570
▁106	-7571
▁묘역	-7572
▁바치	-7573
페르	-7574
▁겸하	-7575
▁그렸	-7576
▁쿤	-7577
▁서남	-7578
▁제갈	-7579
▁도주	-7580
▁스러	-7581
▁장안	-7582
▁니콜라	-7583
▁가벼	-7584
▁중량	-7585
▁바이오	-7586
▁보완	-7587
▁실린	-7588
▁애덤	-7589
▁에버	-7590
▁장려	-7591
▁진짜	-7592
▁평범	-7593
▁한성부	-7594
▁승점	-7595
▁의의	-7596
▁지혜	-7597
▁시나리오	-7598
▁해변	-7599
▁넘어가	-7600
▁친일인	-7601
▁친일인명사전	-7602
▁콰	-7603
▁돌연	-7604
▁등재	-7605
▁배신	-7606
▁초과	-7607
ian	-7608
▁우울	-7609
▁아이슬	-7610
▁에스토	-7611
▁고수	-7612
▁공단	-7613
▁전압	-7614
▁합창	-7615
▁애틀	-7616
ude	-7617
▁단식	-7618
▁닷	-7619
▁탱크	-7620
▁열대	-7621
▁표명	-7622
▁우라늄	-7623
▁프랑수아	-7624
▁어요	-7625
▁오비	-7626
▁지능	-7627
▁포격	-7628
내셔널	-7629
▁황태자	-7630
▁인터내셔널	-7631
져서	-7632
▁낱말	-7633
▁누군	-7634
▁몰려	-7635
▁방패	-7636
▁양도	-7637
▁치열	-7638
▁멋	-7639
▁그루	-7640
▁마츠	-7641
▁부채	-7642
▁생전	-7643
라이더	-7644
주의자	-7645
▁잦	-7646
ire	-7647
▁느낀	-7648
▁부재	-7649
실록	-7650
치오	-7651
▁격투	-7652
▁차이점	-7653
▁라이온즈	-7654
▁로열	-7655
▁발트	-7656
▁입지	-7657
▁바라보	-7658
▁책임자	-7659
▁훔	-7660
블로	-7661
유행	-7662
▁아이슬란드	-7663
▁도왔	-7664
세츠	-7665
▁레바	-7666
▁영장	-7667
▁들어온	-7668
▁마약	-7669
▁투르	-7670
▁들어왔	-7671
▁횟	-7672
▁상서	-7673
▁쓰인	-7674
▁업계	-7675
▁나스	-7676
▁도르	-7677
▁동문	-7678
▁충북	-7679
▁호위	-7680
ere	-7681
▁봉쇄	-7682
▁매사추	-7683
▁쫓겨	-7684
▁바리	-7685
▁일어날	-7686
▁매사추세츠	-7687
▁HT	-7688
▁대웅	-7689
▁불명	-7690
▁암석	-7691
▁파장	-7692
▁통근	-7693
▁배터리	-7694
▁협주곡	-7695
▁개그	-7696
▁고령	-7697
▁낭만	-7698
▁첼시	-7699
▁생식	-7700
▁호프	-7701
▁다항	-7702
▁어휘	-7703
나리	-7704
▁쉬운	-7705
▁신속	-7706
▁일조	-7707
오피아	-7708
▁스페인어	-7709
▁에티오피아	-7710
의자	-7711
▁기어	-7712
▁상담	-7713
▁중추원	-7714
▁김기	-7715
▁위탁	-7716
▁에스토니아	-7717
▁닝	-7718
ace	-7719
▁탈당	-7720
▁특집	-7721
▁리비아	-7722
▁퍼센트	-7723
IM	-7724
▁시흥	-7725
▁신생	-7726
▁청하	-7727
▁소유자	-7728
▁사슬	-7729
▁오피스	-7730
ide	-7731
▁교외	-7732
▁도루	-7733
▁오노	-7734
▁냄	-7735
▁친왕	-7736
▁평택	-7737
▁대전광역시	-7738
▁밟	-7739
ment	-7740
▁서정	-7741
▁햇	-7742
번스	-7743
▁해소	-7744
▁무거운	-7745
제리	-7746
▁조연	-7747
▁출처	-7748
바이잔	-7749
▁지선	-7750
▁파이어	-7751
▁닛폰	-7752
▁바른	-7753
▁여지	-7754
▁오사	-7755
▁재위	-7756
▁슬로바키아	-7757
▁".	-7758
▁명제	-7759
▁육지	-7760
▁창고	-7761
▁기인	-7762
▁난다	-7763
▁물리학자	-7764
위원	-7765
▁어울	-7766
▁추세	-7767
▁현금	-7768
▁중심부	-7769
▁시선	-7770
▁하락	-7771
▁아제르	-7772
마드	-7773
▁숨겨	-7774
석탑	-7775
▁성운	-7776
▁순회	-7777
▁신탁	-7778
▁패키지	-7779
▁우루과이	-7780
▁보일	-7781
▁치즈	-7782
층석탑	-7783
▁실시간	-7784
▁전라도	-7785
야시	-7786
▁돌리	-7787
▁병행	-7788
▁응원	-7789
▁추출	-7790
▁이사회	-7791
▁아제르바이잔	-7792
중국	-7793
▁세션	-7794
▁끓	-7795
▁나쁜	-7796
▁부적	-7797
▁입당	-7798
▁신념	-7799
▁주행	-7800
▁즈음	-7801
▁국무총리	-7802
▁극동	-7803
▁148	-7804
▁시초	-7805
▁의뢰	-7806
▁결혼식	-7807
▁바뀐	-7808
▁의약	-7809
▁페르난	-7810
▁1916	-7811
▁호기	-7812
지리아	-7813
▁스튜어트	-7814
▁나이지리아	-7815
▁구도	-7816
▁브라우저	-7817
▁유동	-7818
▁136	-7819
▁박해	-7820
▁지류	-7821
하면	-7822
▁바닷	-7823
▁객체	-7824
▁동상	-7825
▁벗어	-7826
▁워드	-7827
▁내린	-7828
승지	-7829
▁서재	-7830
▁수습	-7831
▁쌍둥이	-7832
▁펌	-7833
▁DC	-7834
▁산림	-7835
▁작센	-7836
▁허리	-7837
▁말리	-7838
▁대의원	-7839
▁솜	-7840
▁구호	-7841
▁포터	-7842
▁애틀랜	-7843
▁휴스턴	-7844
▁경연	-7845
▁막내	-7846
▁면허	-7847
▁바스	-7848
▁우세	-7849
▁해밀	-7850
▁원숭이	-7851
▁고소	-7852
▁실장	-7853
▁IBM	-7854
시피	-7855
▁격퇴	-7856
▁LP	-7857
▁리틀	-7858
▁빠졌	-7859
▁앓	-7860
▁분당	-7861
▁노부나가	-7862
▁딕	-7863
▁택시	-7864
바다	-7865
▁백색	-7866
▁실리	-7867
▁약칭	-7868
▁자아	-7869
▁해적	-7870
▁삼국지	-7871
▁끌려	-7872
▁냉각	-7873
▁중위	-7874
▁급격히	-7875
▁사헌	-7876
▁신한	-7877
▁저하	-7878
▁신규	-7879
▁얘기	-7880
▁백화점	-7881
▁라이브러리	-7882
▁가동	-7883
▁안성	-7884
▁깨달	-7885
▁산다	-7886
▁반감	-7887
▁데이비스	-7888
▁되게	-7889
▁한지	-7890
▁아마도	-7891
▁만남	-7892
▁전념	-7893
▁현종	-7894
▁시칠리아	-7895
람쥐	-7896
▁회고	-7897
▁138	-7898
▁내려가	-7899
▁가면	-7900
▁그램	-7901
▁대표작	-7902
▁거론	-7903
▁도미	-7904
▁평원	-7905
▁한스	-7906
▁리우스	-7907
▁성숙	-7908
▁구릉	-7909
▁시즈	-7910
▁이세	-7911
▁주이	-7912
▁후한	-7913
▁360	-7914
▁중성자	-7915
▁도장	-7916
▁솟	-7917
어버	-7918
▁토성	-7919
▁모른다	-7920
▁영의정	-7921
양함	-7922
▁미라	-7923
▁탐구	-7924
▁횟수	-7925
타로	-7926
▁고성	-7927
▁비리	-7928
드리아	-7929
▁페르디	-7930
▁내보	-7931
▁혈통	-7932
▁라트비아	-7933
▁la	-7934
▁감리	-7935
▁레논	-7936
▁복선	-7937
▁치러진	-7938
cl	-7939
리니	-7940
▁극히	-7941
타나	-7942
▁트래	-7943
▁후방	-7944
▁후쿠시마	-7945
▁가짜	-7946
▁거제	-7947
▁상공	-7948
▁실려	-7949
▁환영	-7950
▁사헌부	-7951
▁전했	-7952
▁치명	-7953
▁게르만	-7954
▁뭉	-7955
아이	-7956
▁모니터	-7957
▁춘천	-7958
▁춘추	-7959
▁테이블	-7960
▁오바	-7961
▁임용	-7962
대신	-7963
토모	-7964
▁AK	-7965
▁붙였	-7966
▁오해	-7967
▁잡아	-7968
데시	-7969
브레	-7970
▁반도체	-7971
▁최악	-7972
래스카	-7973
▁104	-7974
▁거행	-7975
▁스톡	-7976
▁아부	-7977
▁주가	-7978
▁En	-7979
▁성체	-7980
▁나타낼	-7981
타고	-7982
▁순교	-7983
▁재현	-7984
▁적분	-7985
▁여겨졌	-7986
▁사우루스	-7987
▁릉	-7988
여래	-7989
▁동점	-7990
▁산란	-7991
▁이식	-7992
▁방송사	-7993
▁최상위	-7994
▁그날	-7995
▁피에	-7996
▁할지	-7997
▁CON	-7998
▁대학생	-7999
▁명령어	-8000
스틴	-8001
▁비시	-8002
푸르트	-8003
▁리라	-8004
▁목판	-8005
▁이를	-8006
▁정한	-8007
▁차장	-8008
▁스트레스	-8009
▁한쪽	-8010
▁갑작스	-8011
▁나비	-8012
▁송시	-8013
▁제독	-8014
▁피츠	-8015
▁칼라	-8016
베르토	-8017
▁교황청	-8018
회장	-8019
▁부당	-8020
▁잔류	-8021
▁주주	-8022
▁109	-8023
곡리	-8024
▁폭동	-8025
▁다스리	-8026
▁CS	-8027
▁성취	-8028
▁루프	-8029
▁맵	-8030
마쓰	-8031
▁반경	-8032
▁보인	-8033
고쿠	-8034
ark	-8035
▁우위	-8036
▁한인	-8037
▁새겨져	-8038
하시	-8039
▁견제	-8040
▁고치	-8041
▁공수	-8042
▁주름	-8043
▁법조	-8044
▁폭행	-8045
▁호랑이	-8046
살이	-8047
▁AR	-8048
▁코무네	-8049
은색	-8050
▁인플	-8051
▁정점	-8052
▁이케	-8053
▁축하	-8054
▁야구장	-8055
▁터치	-8056
▁통증	-8057
▁플랜	-8058
▁하워드	-8059
▁히어로즈	-8060
리안	-8061
▁다발	-8062
▁왜냐	-8063
▁주역	-8064
▁래퍼	-8065
▁억압	-8066
▁치아	-8067
▁바나	-8068
▁음료	-8069
▁123	-8070
▁매달	-8071
▁팡	-8072
▁관구	-8073
▁몰아	-8074
▁일러	-8075
▁현저	-8076
▁힘입	-8077
▁별다른	-8078
▁매입	-8079
▁수련	-8080
▁품종	-8081
▁광물	-8082
▁광학	-8083
▁시바	-8084
▁육체	-8085
▁연합회	-8086
▁공산주의자	-8087
▁고장	-8088
▁사모	-8089
▁아홉	-8090
AL	-8091
▁경관	-8092
▁노바	-8093
▁여당	-8094
▁공천	-8095
▁소매	-8096
▁열정	-8097
▁아담	-8098
▁충전	-8099
▁해명	-8100
▁다이아몬드	-8101
글리	-8102
더슨	-8103
▁팔라	-8104
▁카자흐스탄	-8105
포드	-8106
▁분비	-8107
▁기적	-8108
▁부르크	-8109
▁눌	-8110
차기	-8111
▁리우	-8112
▁신조	-8113
실베이	-8114
실베이니아	-8115
▁CC	-8116
▁모이	-8117
▁상점	-8118
▁축적	-8119
▁펜실베이니아	-8120
헤이	-8121
▁이윤	-8122
▁플라이	-8123
법인	-8124
▁마야	-8125
▁소나타	-8126
란히	-8127
은이	-8128
▁베스	-8129
▁처녀	-8130
▁암시	-8131
▁청춘	-8132
▁143	-8133
▁관해	-8134
▁벌금	-8135
▁상용	-8136
▁요하	-8137
▁적당	-8138
▁염기	-8139
▁태양계	-8140
▁Op	-8141
▁비자	-8142
▁신주	-8143
▁드로	-8144
▁증대	-8145
▁동아일보	-8146
▁공관	-8147
▁목재	-8148
▁성사	-8149
▁요건	-8150
▁분기점	-8151
▁킥	-8152
▁이화	-8153
▁컴파	-8154
▁종로구	-8155
바시	-8156
▁김경	-8157
▁나눌	-8158
▁너비	-8159
▁자민	-8160
▁태권	-8161
▁헤라	-8162
▁규범	-8163
▁못할	-8164
▁부설	-8165
권자	-8166
▁가죽	-8167
▁무지	-8168
▁토모	-8169
▁관해서	-8170
▁블로그	-8171
▁공습	-8172
▁히메	-8173
▁생산량	-8174
▁롤링	-8175
브리지	-8176
▁부제	-8177
▁상반	-8178
▁존속	-8179
▁상단	-8180
▁통영	-8181
▁경상도	-8182
▁덧붙여	-8183
▁박람회	-8184
▁돋	-8185
ile	-8186
▁제프	-8187
▁이에야스	-8188
▁가군	-8189
▁신약	-8190
▁조선일보	-8191
▁날씨	-8192
▁이소	-8193
▁티스	-8194
▁유로파	-8195
▁국소	-8196
▁펑크	-8197
산동	-8198
ies	-8199
▁공익	-8200
▁운하	-8201
▁알코올	-8202
▁사육	-8203
▁조세	-8204
▁친일파	-8205
기업	-8206
▁근교	-8207
▁나트	-8208
▁유죄	-8209
▁이타	-8210
▁레일	-8211
▁남동부	-8212
▁살리	-8213
▁왜곡	-8214
▁col	-8215
▁서진	-8216
▁황실	-8217
▁아예	-8218
▁그동안	-8219
▁블라디미르	-8220
▁보석	-8221
▁신민	-8222
▁카롤	-8223
▁허위	-8224
▁엿	-8225
▁상사	-8226
▁시골	-8227
▁화해	-8228
▁누군가	-8229
▁동국	-8230
▁모았	-8231
▁비유	-8232
▁라오스	-8233
▁루이지	-8234
레기	-8235
ite	-8236
비나	-8237
▁성단	-8238
▁포럼	-8239
▁늘어났	-8240
▁양키스	-8241
▁드문	-8242
▁제재	-8243
▁평의회	-8244
▁범인	-8245
▁RNA	-8246
▁플러스	-8247
수리	-8248
▁누이	-8249
▁협박	-8250
xt	-8251
▁끄	-8252
▁쳤	-8253
▁누가	-8254
▁원했	-8255
▁장거리	-8256
▁흠	-8257
▁설탕	-8258
▁소셜	-8259
▁인체	-8260
▁뜨거운	-8261
▁우승자	-8262
▁갇	-8263
의장	-8264
▁맥락	-8265
▁필터	-8266
도리	-8267
▁CF	-8268
▁미션	-8269
▁확신	-8270
▁112	-8271
▁트위터	-8272
스부르크	-8273
▁달했	-8274
▁이순신	-8275
▁키프로스	-8276
▁경보	-8277
▁구출	-8278
▁보증	-8279
▁히사	-8280
▁사업자	-8281
▁중의원	-8282
▁단단	-8283
▁마디	-8284
▁미르	-8285
▁126	-8286
▁시베리아	-8287
▁거북	-8288
▁깨닫	-8289
▁성별	-8290
▁교과서	-8291
▁구축함	-8292
▁인문	-8293
▁근원	-8294
▁수법	-8295
▁시어	-8296
▁경찰청	-8297
▁이산화	-8298
▁브라더스	-8299
▁개교	-8300
▁누나	-8301
▁SE	-8302
▁나르	-8303
▁믹스	-8304
▁우호	-8305
▁탐사선	-8306
▁Pr	-8307
▁대폭	-8308
▁떨어	-8309
▁연쇄	-8310
▁왜냐하면	-8311
▁자선	-8312
▁107	-8313
▁희생자	-8314
▁카를로스	-8315
▁세라	-8316
▁속했	-8317
▁우유	-8318
▁핸드	-8319
▁언니	-8320
▁후사	-8321
랑카	-8322
▁결함	-8323
▁헤비	-8324
고래	-8325
▁드레	-8326
▁창원시	-8327
도바	-8328
▁Te	-8329
▁후궁	-8330
▁아랍어	-8331
▁전자기	-8332
▁맥주	-8333
▁빠진	-8334
▁실체	-8335
▁법무부	-8336
▁삼층석탑	-8337
▁거울	-8338
▁신선	-8339
▁탐색	-8340
▁인명	-8341
▁투옥	-8342
▁굉장히	-8343
▁조종사	-8344
▁릿	-8345
▁퐁	-8346
▁이경	-8347
▁소원	-8348
거진	-8349
▁is	-8350
▁몰리	-8351
▁지평	-8352
▁KIA	-8353
ft	-8354
▁드러났	-8355
▁송시열	-8356
그레이드	-8357
▁교정	-8358
▁이긴	-8359
▁입원	-8360
▁117	-8361
▁다크	-8362
▁당주	-8363
▁할머니	-8364
▁냉전	-8365
▁샘플	-8366
▁제니	-8367
ound	-8368
▁빈곤	-8369
▁게스트	-8370
▁대웅전	-8371
▁업그레이드	-8372
▁공방	-8373
단체	-8374
▁천장	-8375
▁받아들였	-8376
▁네스	-8377
▁수색	-8378
▁옆면	-8379
▁고속도	-8380
▁가마쿠라	-8381
연합	-8382
▁느껴	-8383
▁곡인	-8384
▁몰래	-8385
▁줄무늬	-8386
▁핵무기	-8387
▁클라우드	-8388
OL	-8389
다지	-8390
▁워터	-8391
▁일방	-8392
▁제대	-8393
▁com	-8394
▁살아가	-8395
▁신시	-8396
▁데모	-8397
▁승계	-8398
▁그만두	-8399
▁빌려	-8400
▁판본	-8401
▁수용체	-8402
ath	-8403
▁담긴	-8404
▁진공	-8405
▁키우	-8406
▁요동	-8407
▁이브	-8408
▁물리치	-8409
▁생겨났	-8410
갈색	-8411
▁도마뱀붙이	-8412
▁LC	-8413
▁일가	-8414
▁테이프	-8415
▁화장실	-8416
▁CR	-8417
▁방화	-8418
▁약력	-8419
▁철회	-8420
▁350	-8421
▁사생활	-8422
▁연합국	-8423
끼리	-8424
크라	-8425
▁일반인	-8426
▁담겨	-8427
▁121	-8428
▁고고학	-8429
▁문예	-8430
▁다룬다	-8431
▁진급	-8432
▁포병	-8433
▁극장판	-8434
▁내려오	-8435
▁라이너	-8436
▁킴	-8437
▁펠리	-8438
▁해고	-8439
▁기업인	-8440
▁가축	-8441
▁스캔	-8442
▁요약	-8443
▁을지	-8444
▁찾아볼	-8445
시타	-8446
▁세속	-8447
▁137	-8448
▁삼성전자	-8449
무스	-8450
▁기다	-8451
게이머	-8452
▁173	-8453
▁프로게이머	-8454
▁헥	-8455
▁IM	-8456
▁통틀	-8457
▁바우	-8458
▁비르	-8459
▁대명	-8460
▁지미	-8461
▁치안	-8462
베니아	-8463
▁도미니	-8464
▁맘	-8465
▁양측	-8466
▁1894	-8467
▁아카데미상	-8468
▁김현	-8469
▁113	-8470
승부	-8471
▁만일	-8472
▁말년	-8473
▁항쟁	-8474
▁근로자	-8475
▁빨간색	-8476
▁왔으며	-8477
ond	-8478
▁문구	-8479
▁바오로	-8480
▁브로드	-8481
▁알제리	-8482
마루	-8483
수소	-8484
▁무어	-8485
▁최강	-8486
▁레온	-8487
▁총독부	-8488
▁슬로베니아	-8489
나스	-8490
ory	-8491
▁결코	-8492
▁바티칸	-8493
지붕	-8494
▁나눠	-8495
▁상표	-8496
▁시뮬	-8497
조부	-8498
톨레	-8499
▁공백	-8500
▁왕복	-8501
▁용병	-8502
▁농림	-8503
▁띤다	-8504
man	-8505
▁군정	-8506
▁초월	-8507
▁필리프	-8508
▁붐	-8509
▁상해	-8510
▁서민	-8511
▁타당	-8512
▁물려받	-8513
▁거쳤	-8514
▁대피	-8515
▁뒤집	-8516
▁카카	-8517
▁멜로디	-8518
▁몬스터	-8519
▁사상자	-8520
▁구해	-8521
▁적도	-8522
규모	-8523
▁계정	-8524
▁궁극	-8525
▁둥지	-8526
▁힘든	-8527
▁게이지	-8528
▁먼지	-8529
▁원전	-8530
▁혈관	-8531
▁SU	-8532
▁피오	-8533
아프리카	-8534
▁가장자리	-8535
▁갈릴	-8536
▁공민	-8537
▁내정	-8538
▁프랑크푸르트	-8539
대기	-8540
로이	-8541
▁뒷면	-8542
▁칭찬	-8543
▁오프닝	-8544
▁코스타	-8545
▁크리스토퍼	-8546
ov	-8547
▁떠올	-8548
▁학계	-8549
▁미키	-8550
▁캐시	-8551
블리	-8552
퍼런스	-8553
▁극심	-8554
▁성도	-8555
▁개종	-8556
▁로우	-8557
▁로이	-8558
▁성문	-8559
▁124	-8560
셰비	-8561
▁구절	-8562
▁하동	-8563
▁커뮤니케이션	-8564
린스	-8565
▁말씀	-8566
▁일컬	-8567
▁주어지	-8568
▁강서	-8569
▁즉각	-8570
▁땃	-8571
박스	-8572
▁야쿠	-8573
▁옵션	-8574
▁횡단	-8575
▁독일인	-8576
▁최대한	-8577
▁World	-8578
▁그냥	-8579
▁체크	-8580
▁탤런트	-8581
mer	-8582
▁곤란	-8583
▁국내외	-8584
▁z	-8585
▁륙	-8586
▁배후	-8587
iver	-8588
로니	-8589
▁기질	-8590
▁더니	-8591
프레스	-8592
▁그랜	-8593
▁욕구	-8594
▁제인	-8595
▁야마토	-8596
▁미루	-8597
▁서초	-8598
▁On	-8599
▁관음	-8600
▁모친	-8601
▁부딪	-8602
▁정세	-8603
▁가루	-8604
▁자오	-8605
▁자연수	-8606
▁러시	-8607
▁파이널	-8608
▁디렉	-8609
▁체조	-8610
▁땄	-8611
▁돌격	-8612
▁오라	-8613
▁침투	-8614
▁평정	-8615
▁브리지	-8616
축구	-8617
▁외모	-8618
▁자비	-8619
▁풍자	-8620
▁김정일	-8621
▁감자	-8622
대원군	-8623
IP	-8624
▁데르	-8625
▁유저	-8626
▁드라이버	-8627
▁New	-8628
▁챌린지	-8629
줄기	-8630
▁매매	-8631
▁영산	-8632
▁우파	-8633
▁프로덕	-8634
▁be	-8635
▁붙인	-8636
▁제압	-8637
▁부작용	-8638
▁오리콘	-8639
▁므	-8640
▁징계	-8641
▁초록	-8642
▁방사선	-8643
▁블랙홀	-8644
▁슨	-8645
▁EC	-8646
▁검찰청	-8647
드르	-8648
▁뉴턴	-8649
▁이어진다	-8650
▁남서부	-8651
▁베네딕	-8652
▁사쿠라	-8653
▁1890	-8654
▁발라	-8655
▁이준	-8656
▁정변	-8657
▁소규모	-8658
▁트로이	-8659
▁예조	-8660
▁SD	-8661
▁설화	-8662
▁아랫	-8663
렉스	-8664
▁양호	-8665
▁자음	-8666
▁쾌속	-8667
▁빔	-8668
▁114	-8669
ich	-8670
▁태극	-8671
▁퇴임	-8672
▁베니	-8673
▁따른다	-8674
▁플래시	-8675
▁맑	-8676
▁미노	-8677
▁봉건	-8678
▁계열사	-8679
▁시위대	-8680
▁들어간다	-8681
▁스칼	-8682
▁파인	-8683
▁분명히	-8684
▁윤치호	-8685
▁김규	-8686
▁이드	-8687
▁관세	-8688
▁그치	-8689
▁시정	-8690
▁선비	-8691
▁악단	-8692
▁팔리	-8693
▁학업	-8694
▁캔자스	-8695
▁벵	-8696
▁고쳐	-8697
▁로그	-8698
▁안토니오	-8699
▁경신	-8700
▁그대	-8701
▁정주	-8702
▁조부	-8703
ial	-8704
▁요정	-8705
▁컨셉	-8706
▁구스타	-8707
▁가드	-8708
▁어미	-8709
▁에미	-8710
▁연이	-8711
▁이남	-8712
▁학명	-8713
▁알루미	-8714
지스	-8715
▁체스	-8716
▁연승	-8717
▁지침	-8718
▁컷	-8719
저지	-8720
▁도청	-8721
▁통치자	-8722
황후	-8723
ign	-8724
▁대거	-8725
▁땃쥐	-8726
▁변이	-8727
▁자택	-8728
▁과반	-8729
▁괴물	-8730
▁비주	-8731
▁어긋	-8732
▁원로원	-8733
러드	-8734
▁Sc	-8735
▁주부	-8736
▁115	-8737
▁매니저	-8738
▁깎	-8739
먼스	-8740
조건	-8741
▁심해	-8742
▁증손	-8743
▁118	-8744
▁하프	-8745
▁숙청	-8746
▁커널	-8747
▁럼	-8748
교도	-8749
▁구와	-8750
▁생체	-8751
타리오	-8752
▁소방서	-8753
기념	-8754
▁군중	-8755
▁재상	-8756
▁경찰관	-8757
▁세이브	-8758
문트	-8759
▁내주	-8760
▁대부	-8761
▁키르	-8762
▁흔하	-8763
▁공감	-8764
▁운수	-8765
▁지인	-8766
▁진사	-8767
▁하르	-8768
▁일리노	-8769
▁팰	-8770
닐라	-8771
▁공조	-8772
▁GP	-8773
▁답변	-8774
▁만료	-8775
hn	-8776
함수	-8777
▁은데	-8778
▁중형	-8779
▁퍼지	-8780
▁헬리	-8781
▁동정	-8782
▁서자	-8783
▁용이	-8784
▁혜택	-8785
▁뉴저지	-8786
▁1898	-8787
▁일리노이	-8788
▁크리스티안	-8789
TS	-8790
▁모로코	-8791
▁반지름	-8792
▁우즈베	-8793
마이오스	-8794
▁미하일	-8795
▁꿀	-8796
▁극작	-8797
▁취업	-8798
▁레바논	-8799
▁줄여서	-8800
▁승부차기	-8801
▁본국	-8802
▁파란색	-8803
▁외관	-8804
▁비로소	-8805
▁나올	-8806
▁남미	-8807
▁앵글	-8808
▁성리학	-8809
▁GS	-8810
▁왕세	-8811
▁남구	-8812
▁바빌	-8813
▁축출	-8814
▁카우	-8815
보르	-8816
▁vs	-8817
▁순조	-8818
벨트	-8819
▁기각	-8820
▁종착	-8821
▁헬기	-8822
▁범유행	-8823
▁뇌물	-8824
▁웹툰	-8825
▁연예인	-8826
▁체코슬로	-8827
▁체코슬로바키아	-8828
미사	-8829
▁반해	-8830
▁이끈	-8831
▁전년	-8832
▁레슬링	-8833
▁디비시온	-8834
▁우측	-8835
▁희귀	-8836
▁광해군	-8837
▁스크립	-8838
▁가옥	-8839
▁한족	-8840
▁셨	-8841
하루	-8842
▁밀집	-8843
▁종속	-8844
▁웨스턴	-8845
▁관제	-8846
▁리뷰	-8847
▁선도	-8848
▁어렸	-8849
▁필사	-8850
▁스폰	-8851
▁III	-8852
▁`	-8853
▁믹	-8854
틱스	-8855
▁기증	-8856
▁였음	-8857
▁무승부	-8858
▁시가지	-8859
▁스타리그	-8860
타니	-8861
▁봉안	-8862
▁부스	-8863
▁직면	-8864
▁패럴	-8865
▁렐	-8866
▁무성	-8867
▁통보	-8868
▁의약품	-8869
바닥	-8870
시즘	-8871
▁소모	-8872
▁케냐	-8873
▁코카	-8874
▁카디	-8875
▁그레고	-8876
▁미세	-8877
▁임원	-8878
▁척추	-8879
▁129	-8880
▁발급	-8881
▁대변인	-8882
레타	-8883
▁재혼	-8884
▁발병	-8885
▁사적	-8886
▁핑크	-8887
쟁이	-8888
▁나눈	-8889
▁날아	-8890
▁사위	-8891
▁지우	-8892
▁외야수	-8893
히코	-8894
▁화력	-8895
▁센티	-8896
▁워크	-8897
▁응시	-8898
▁젊은이	-8899
▁쯔	-8900
아키	-8901
▁로비	-8902
▁승자	-8903
▁예고	-8904
▁글루	-8905
▁등기	-8906
▁말미	-8907
▁모나	-8908
▁재선	-8909
▁중산	-8910
▁켈리	-8911
▁호출	-8912
▁달한다	-8913
▁마운트	-8914
▁부의장	-8915
▁프로덕션	-8916
▁닦	-8917
화물	-8918
▁배수	-8919
▁파산	-8920
▁살펴보	-8921
▁맏	-8922
개미	-8923
속기	-8924
▁맥도	-8925
▁미들	-8926
▁성폭	-8927
▁실망	-8928
▁개막전	-8929
타리	-8930
▁JT	-8931
▁부피	-8932
▁장례식	-8933
▁옳	-8934
▁퉁	-8935
▁마력	-8936
▁무명	-8937
▁세이부	-8938
▁1899	-8939
▁알루미늄	-8940
▁러셀	-8941
▁연산자	-8942
▁Ne	-8943
▁밝기	-8944
▁서신	-8945
▁천재	-8946
▁폭넓	-8947
▁어려워	-8948
▁괘	-8949
▁어른	-8950
▁힌두교	-8951
▁벨라루스	-8952
ph	-8953
rom	-8954
그리	-8955
레아	-8956
▁첨단	-8957
▁회관	-8958
▁총사령	-8959
우트	-8960
▁황족	-8961
▁웬	-8962
▁예하	-8963
▁원천	-8964
▁종래	-8965
▁케빈	-8966
치기	-8967
▁저주	-8968
▁지옥	-8969
▁케임	-8970
테르부르크	-8971
▁구할	-8972
▁오오	-8973
▁난징	-8974
▁유라	-8975
▁스트리	-8976
온다	-8977
코딩	-8978
▁극한	-8979
▁남작	-8980
▁오크	-8981
▁창출	-8982
▁커지	-8983
▁컴백	-8984
▁토양	-8985
▁브리튼	-8986
▁각도	-8987
▁양반	-8988
▁천문대	-8989
▁끼쳤	-8990
▁유방	-8991
▁흔들	-8992
▁ID	-8993
▁벽돌	-8994
▁사간	-8995
▁전속	-8996
▁토끼	-8997
▁기술자	-8998
▁끌어들	-8999
▁키보드	-9000
▁중공	-9001
느러미	-9002
방송공사	-9003
▁만성	-9004
▁토미	-9005
▁142	-9006
▁콕	-9007
▁소생	-9008
▁옹립	-9009
▁유진	-9010
▁흔한	-9011
니까	-9012
▁ch	-9013
▁대치	-9014
▁적혀	-9015
▁폭포	-9016
▁혼동	-9017
▁조지프	-9018
▁확실히	-9019
MA	-9020
포로	-9021
▁바꾼	-9022
▁사본	-9023
▁시범	-9024
▁싸이	-9025
▁청산	-9026
▁월요일	-9027
진군	-9028
▁리프	-9029
▁지출	-9030
셰비키	-9031
▁플라스틱	-9032
로우	-9033
urn	-9034
▁구경	-9035
▁워너	-9036
▁형조	-9037
▁프란츠	-9038
▁타임스	-9039
토르	-9040
▁신원	-9041
▁학기	-9042
▁희곡	-9043
▁썬	-9044
▁CJ	-9045
▁감행	-9046
▁에밀	-9047
▁마르티	-9048
▁청주시	-9049
▁BS	-9050
▁설교	-9051
▁채워	-9052
▁대서양	-9053
▁대패	-9054
▁무함	-9055
▁안테	-9056
▁뒷받침	-9057
▁부여받	-9058
▁프톨레	-9059
▁프톨레마이오스	-9060
▁공적	-9061
▁화상	-9062
롤라이나	-9063
ction	-9064
▁독서	-9065
▁룩셈	-9066
▁아리아	-9067
pp	-9068
▁공리	-9069
▁병기	-9070
▁거래소	-9071
▁룩셈부르크	-9072
▁교통국	-9073
▁도카이	-9074
▁가야	-9075
▁김지	-9076
▁보위	-9077
▁본문	-9078
▁그래미	-9079
▁스즈키	-9080
▁더글러스	-9081
럴드	-9082
▁마녀	-9083
▁발리	-9084
▁의자	-9085
▁자크	-9086
▁중복	-9087
▁축물	-9088
▁화자	-9089
▁광주광역시	-9090
▁스턴	-9091
▁체류	-9092
▁점성술	-9093
▁감마	-9094
▁서장	-9095
▁코시	-9096
▁페널	-9097
▁잃어버	-9098
▁얹	-9099
ens	-9100
▁벨트	-9101
▁정성	-9102
▁총칭	-9103
▁피겨	-9104
파이어	-9105
타주	-9106
TA	-9107
브르	-9108
올라	-9109
▁Man	-9110
천리	-9111
▁동네	-9112
▁유체	-9113
▁정려	-9114
▁태그	-9115
▁온타리오	-9116
▁밍	-9117
▁발기	-9118
▁시코	-9119
▁왼손	-9120
▁혐오	-9121
▁익스프레스	-9122
▁동학	-9123
▁수분	-9124
▁1902	-9125
▁쟈	-9126
글라	-9127
샤바	-9128
▁광둥	-9129
▁니코	-9130
▁금요일	-9131
lan	-9132
▁서류	-9133
▁함정	-9134
덩이	-9135
▁정적	-9136
▁포획	-9137
▁피신	-9138
▁기사단	-9139
두리	-9140
▁물품	-9141
▁촉매	-9142
▁표적	-9143
▁보이스	-9144
▁가신	-9145
▁명종	-9146
▁대성당	-9147
▁던져	-9148
▁우체	-9149
▁채소	-9150
▁다항식	-9151
▁준결승전	-9152
▁가환	-9153
▁간선	-9154
▁걸렸	-9155
▁기차	-9156
▁늘리	-9157
▁위쪽	-9158
▁초신	-9159
크로	-9160
▁영문	-9161
▁플랫폼	-9162
▁게리	-9163
▁로라	-9164
▁시가	-9165
▁마스크	-9166
▁끊임없이	-9167
▁깃발	-9168
▁해밀턴	-9169
▁강변	-9170
▁독성	-9171
▁원종	-9172
▁지식인	-9173
▁제국주의	-9174
▁그릇	-9175
▁가벼운	-9176
▁바깥쪽	-9177
▁스위치	-9178
▁메커	-9179
▁선행	-9180
▁코끼리	-9181
▁표기법	-9182
▁연꽃	-9183
▁관광지	-9184
▁''	-9185
▁판례	-9186
▁제네바	-9187
▁단절	-9188
▁엔딩	-9189
▁영등	-9190
▁탄도	-9191
▁대합	-9192
▁동행	-9193
▁선배	-9194
▁정동	-9195
▁머무르	-9196
lic	-9197
▁국영	-9198
▁기숙	-9199
▁대손	-9200
▁부를	-9201
▁사슴	-9202
▁캐서	-9203
▁호르몬	-9204
▁느꼈	-9205
▁염증	-9206
▁입국	-9207
▁러시아어	-9208
그룹	-9209
▁면제	-9210
▁비석	-9211
▁빌라	-9212
▁세비	-9213
▁갈수록	-9214
▁몫	-9215
▁주조	-9216
▁가까워	-9217
▁서유럽	-9218
폴리	-9219
▁개소	-9220
▁수확	-9221
▁이관	-9222
▁참의	-9223
▁아돌프	-9224
TC	-9225
ary	-9226
▁간토	-9227
▁광명	-9228
▁기니	-9229
▁매수	-9230
▁상금	-9231
▁얽	-9232
▁검열	-9233
▁약자	-9234
▁이용자	-9235
▁강동	-9236
▁따온	-9237
▁버드	-9238
▁하단	-9239
▁고양시	-9240
▁소나무	-9241
나우	-9242
▁나노	-9243
▁습지	-9244
▁퀘벡	-9245
▁비행장	-9246
▁고아	-9247
▁코믹스	-9248
▁울프	-9249
▁부회장	-9250
▁토착종	-9251
▁포켓몬스터	-9252
▁성지	-9253
▁채우	-9254
▁헌신	-9255
▁복용	-9256
▁산출	-9257
▁페르디난	-9258
▁단축	-9259
▁부가	-9260
▁에디션	-9261
▁나갈	-9262
▁불꽃	-9263
▁이단	-9264
▁조립	-9265
▁뮤지션	-9266
▁아이오	-9267
LS	-9268
국사	-9269
▁브뤼	-9270
▁아산	-9271
▁이건	-9272
▁임관	-9273
▁특권	-9274
▁한테	-9275
▁폭격기	-9276
카가	-9277
▁단의	-9278
▁소시	-9279
▁역량	-9280
▁오를	-9281
▁매카트니	-9282
ys	-9283
▁커스	-9284
▁연기자	-9285
▁겁	-9286
테인	-9287
▁색채	-9288
▁드러머	-9289
디나	-9290
텍처	-9291
ach	-9292
▁광대	-9293
▁생생	-9294
▁쓰촨	-9295
▁트리플	-9296
▁아키텍처	-9297
짓점	-9298
ert	-9299
▁둥글	-9300
▁1901	-9301
구르	-9302
링턴	-9303
미트	-9304
타임	-9305
out	-9306
▁보복	-9307
▁입성	-9308
▁직결	-9309
▁크롬	-9310
▁꼭짓점	-9311
▁둔다	-9312
▁들이	-9313
▁민감	-9314
▁서문	-9315
▁열도	-9316
▁축조	-9317
▁울산광역시	-9318
▁렘	-9319
▁No	-9320
▁보트	-9321
▁생략	-9322
▁압둘	-9323
▁일산	-9324
▁코코	-9325
▁호모	-9326
▁당한다	-9327
▁사회당	-9328
▁갱신	-9329
▁레즈	-9330
▁실버	-9331
▁정립	-9332
▁경성부	-9333
자르	-9334
피어	-9335
▁박지	-9336
▁쌓았	-9337
▁이겼	-9338
▁사이토	-9339
▁례	-9340
그라	-9341
모스	-9342
▁김창	-9343
▁분수	-9344
▁어류	-9345
▁공명	-9346
▁시네	-9347
▁페니	-9348
▁화강	-9349
▁삿포로	-9350
IG	-9351
LE	-9352
아웃	-9353
▁수축	-9354
▁체르	-9355
▁쿄	-9356
▁공예	-9357
▁대두	-9358
▁원료	-9359
▁이현	-9360
▁하치	-9361
▁바이킹	-9362
▁염색체	-9363
▁메커니즘	-9364
▁kt	-9365
▁일으킬	-9366
루아	-9367
▁개화	-9368
▁실적	-9369
▁여운	-9370
▁권총	-9371
▁전방	-9372
▁정문	-9373
▁개인전	-9374
▁케임브리지	-9375
▁누적	-9376
▁무궁	-9377
▁원본	-9378
▁입각	-9379
▁자작	-9380
▁학대	-9381
▁현은	-9382
▁언어학	-9383
파르	-9384
▁천하	-9385
▁체중	-9386
▁표방	-9387
▁알렉산드르	-9388
▁낫	-9389
▁카미	-9390
▁토기	-9391
▁영국인	-9392
▁아라비아	-9393
▁MB	-9394
▁광저우	-9395
▁어려서	-9396
▁즐겨	-9397
▁차르	-9398
클레스	-9399
▁쓰레기	-9400
▁보헤	-9401
▁퇴역	-9402
쿠버	-9403
▁날카	-9404
▁동조	-9405
▁패했	-9406
▁그다지	-9407
▁아시카가	-9408
▁라그	-9409
ype	-9410
▁스텔	-9411
▁조수	-9412
레슬링	-9413
▁방송인	-9414
▁요르단	-9415
▁괴롭	-9416
▁김제	-9417
▁소말	-9418
▁크레이	-9419
▁패밀리	-9420
▁옥스퍼드	-9421
펜하	-9422
▁카프	-9423
▁사업가	-9424
▁아리스토	-9425
▁고산	-9426
▁불신	-9427
▁갈리아	-9428
▁트로피	-9429
▁134	-9430
▁간단히	-9431
▁발렌시아	-9432
기스	-9433
일으	-9434
▁극대	-9435
▁손꼽	-9436
▁조이	-9437
라이어	-9438
▁노태우	-9439
▁불러일으	-9440
▁아인슈타인	-9441
ug	-9442
대장	-9443
▁가역	-9444
▁두께	-9445
▁마우	-9446
▁섹스	-9447
▁어뢰	-9448
▁잡혀	-9449
▁장기간	-9450
▁파이터	-9451
▁푸에르	-9452
정리	-9453
▁기르	-9454
▁미륵	-9455
▁전염병	-9456
▁지도부	-9457
▁EX	-9458
▁공고	-9459
▁교대	-9460
▁하비	-9461
▁리만	-9462
▁선동	-9463
베트남	-9464
테르담	-9465
▁무함마드	-9466
▁토요	-9467
▁THE	-9468
방울	-9469
▁강간	-9470
▁검출	-9471
▁공황	-9472
▁슈팅	-9473
▁패널	-9474
▁All	-9475
▁모서리	-9476
▁피고인	-9477
▁알렉산드리아	-9478
ase	-9479
▁AN	-9480
▁동이	-9481
▁연봉	-9482
▁이병	-9483
▁이태	-9484
▁제치	-9485
▁타케	-9486
▁특색	-9487
▁패한	-9488
노미야	-9489
▁리더십	-9490
▁만주국	-9491
▁홈구장	-9492
▁프로레슬링	-9493
▁}	-9494
카미	-9495
▁도요토미	-9496
▁스님	-9497
▁헌정	-9498
올로	-9499
퀘어	-9500
▁다마	-9501
▁파병	-9502
▁드레스	-9503
그래	-9504
그레	-9505
▁와일드	-9506
▁미시시피	-9507
▁삼촌	-9508
▁어둠	-9509
▁회상	-9510
▁상고	-9511
▁전위	-9512
▁주된	-9513
▁1903	-9514
▁대구광역시	-9515
▁엇	-9516
▁노보	-9517
▁아브	-9518
▁좌측	-9519
▁직경	-9520
▁One	-9521
▁쓰시마	-9522
▁아폴로	-9523
▁군산	-9524
▁명하	-9525
▁오쿠	-9526
▁제로	-9527
▁질소	-9528
▁터보	-9529
▁기념관	-9530
▁신도비	-9531
▁페널티	-9532
▁Cl	-9533
▁정선	-9534
▁정유	-9535
▁1884	-9536
사리	-9537
카타	-9538
▁에콰	-9539
▁정해진	-9540
▁에콰도르	-9541
처스	-9542
▁LA	-9543
▁실재	-9544
▁방글라	-9545
▁슬라브	-9546
▁와이번스	-9547
▁방글라데시	-9548
역학	-9549
▁구형	-9550
▁남매	-9551
▁루타	-9552
천사	-9553
▁차가	-9554
▁하리	-9555
▁기념비	-9556
▁이성계	-9557
▁1800	-9558
▁로저	-9559
▁모은	-9560
▁취미	-9561
도스	-9562
▁함선	-9563
▁당연히	-9564
리코	-9565
하키	-9566
▁원더	-9567
▁장벽	-9568
▁조형	-9569
▁회피	-9570
라이언트	-9571
11	-9572
▁단면	-9573
▁반공	-9574
▁복합체	-9575
불교	-9576
▁아나키	-9577
▁프레드	-9578
▁인질	-9579
▁콤팩트	-9580
▁클라이언트	-9581
▁IN	-9582
▁군함	-9583
▁비타	-9584
▁우치	-9585
▁잘라	-9586
▁들어갈	-9587
▁클라이	-9588
▁복소수	-9589
고스	-9590
▁Gr	-9591
▁각색	-9592
▁경작	-9593
▁발칸	-9594
▁실무	-9595
▁우회	-9596
▁중령	-9597
▁퇴적	-9598
▁륜	-9599
▁강대	-9600
▁기분	-9601
▁밀란	-9602
▁의결	-9603
▁히타	-9604
▁니콜라이	-9605
ke	-9606
번뇌	-9607
▁구스	-9608
▁김홍	-9609
▁티코	-9610
▁도널드	-9611
▁야마구치	-9612
▁갈래	-9613
▁상응	-9614
▁유부	-9615
▁쥐과	-9616
사이드	-9617
테이션	-9618
▁대문	-9619
▁샌디	-9620
▁추첨	-9621
▁충청도	-9622
▁물가	-9623
▁마르틴	-9624
ree	-9625
▁농부	-9626
▁따왔	-9627
▁상가	-9628
▁염소	-9629
▁마르코	-9630
▁중앙아시아	-9631
▁벌인	-9632
▁프란체	-9633
▁북아프리카	-9634
간지	-9635
히토	-9636
▁도선	-9637
▁지녔	-9638
▁진전	-9639
▁갤러리	-9640
▁꼭대기	-9641
▁소수자	-9642
▁조반니	-9643
니시	-9644
▁관절	-9645
▁데카	-9646
▁전구	-9647
▁준주	-9648
▁진료	-9649
▁카사	-9650
▁컨트리	-9651
▁팟	-9652
▁가산	-9653
▁당수	-9654
▁철폐	-9655
▁토시	-9656
▁소행성	-9657
▁GO	-9658
▁마키	-9659
▁선우	-9660
▁되돌아	-9661
▁히로시	-9662
▁가오	-9663
▁세키	-9664
▁코믹	-9665
▁거짓말	-9666
▁더욱이	-9667
▁CN	-9668
▁곡물	-9669
▁방사성	-9670
▁비뉴	-9671
▁흥선	-9672
▁무너지	-9673
▁전시회	-9674
▁총대주교	-9675
사우	-9676
▁건륭	-9677
▁기저	-9678
▁다름	-9679
▁달걀	-9680
▁뒤쪽	-9681
▁하차	-9682
가르	-9683
▁모모	-9684
▁분출	-9685
▁소자	-9686
▁음향	-9687
▁이북	-9688
▁정화	-9689
▁해남	-9690
포터	-9691
▁교량	-9692
▁러스	-9693
▁상경	-9694
▁활주	-9695
사업	-9696
▁Ad	-9697
▁돌기	-9698
▁불린	-9699
가와현	-9700
▁뉴욕주	-9701
▁득표율	-9702
▁스토어	-9703
▁진행자	-9704
▁공약	-9705
▁구약	-9706
▁권장	-9707
▁까닭	-9708
▁상트	-9709
▁추론	-9710
pt	-9711
▁용서	-9712
▁전복	-9713
▁아미노산	-9714
▁가브리	-9715
▁데스크	-9716
▁앰	-9717
구역	-9718
▁간신	-9719
▁안경	-9720
▁창녕	-9721
ass	-9722
▁싸워	-9723
▁취항	-9724
▁그레이트	-9725
▁궁중	-9726
▁우물	-9727
▁자형	-9728
▁다케다	-9729
▁강희	-9730
▁견인	-9731
▁살라	-9732
▁상법	-9733
▁침체	-9734
▁프론	-9735
개골	-9736
▁경인	-9737
▁급수	-9738
▁밝힌	-9739
▁오사카부	-9740
▁반전	-9741
▁신축	-9742
▁모리스	-9743
▁일렉트로	-9744
▁페이스북	-9745
▁반군	-9746
▁분량	-9747
▁116	-9748
▁남동생	-9749
▁민간인	-9750
산맥	-9751
▁불타	-9752
▁유대교	-9753
▁카를로	-9754
▁with	-9755
▁볼리비아	-9756
파리	-9757
▁가려	-9758
▁냄새	-9759
▁대출	-9760
▁막스	-9761
▁장자	-9762
기념물	-9763
▁인테르	-9764
▁올라간다	-9765
▁쑤	-9766
▁감안	-9767
▁등용	-9768
▁맞붙	-9769
▁무슨	-9770
▁발령	-9771
▁샌드	-9772
▁시야	-9773
▁카스티	-9774
▁포스터	-9775
▁찐	-9776
▁Br	-9777
▁세바	-9778
▁종말	-9779
▁거주지	-9780
▁버클리	-9781
▁연대기	-9782
▁스크립트	-9783
act	-9784
▁이룬	-9785
▁교도소	-9786
▁가열	-9787
▁겐지	-9788
▁기슭	-9789
▁델타	-9790
▁심화	-9791
▁절단	-9792
▁220	-9793
▁기관총	-9794
▁디트로	-9795
▁디트로이트	-9796
▁글래	-9797
▁수목	-9798
▁평창	-9799
▁부드러운	-9800
▁깨끗	-9801
▁농사	-9802
몰로지	-9803
▁해진다	-9804
▁브란	-9805
▁일자리	-9806
곡동	-9807
벤처	-9808
▁현감	-9809
▁어드벤처	-9810
▁폭로	-9811
▁후작	-9812
▁스트라이크	-9813
▁낙동	-9814
▁마니	-9815
▁보성	-9816
▁1860	-9817
▁네오	-9818
▁시킴	-9819
▁한층	-9820
ream	-9821
▁마카오	-9822
▁새겨진	-9823
▁으려고	-9824
▁1897	-9825
▁라오	-9826
▁마가	-9827
▁민정	-9828
▁일파	-9829
▁체력	-9830
▁홉	-9831
▁피치	-9832
▁몰아내	-9833
▁씌	-9834
버리	-9835
▁가의	-9836
▁격차	-9837
▁애리	-9838
▁홍문관	-9839
▁대관	-9840
▁오로	-9841
▁올드	-9842
▁지지율	-9843
▁후반기	-9844
▁떡	-9845
▁Ex	-9846
▁리조	-9847
▁안산	-9848
▁효고	-9849
▁카타르	-9850
▁태백	-9851
▁배우자	-9852
▁일부분	-9853
▁복권	-9854
▁한국방송공사	-9855
▁북경	-9856
▁아소	-9857
▁솔루션	-9858
▁캐서린	-9859
▁접수	-9860
▁타우	-9861
▁효종	-9862
▁강남구	-9863
▁나루	-9864
▁동형	-9865
▁장제	-9866
▁찰리	-9867
▁단행본	-9868
▁마블	-9869
▁바르샤바	-9870
▁랍	-9871
▁벽화	-9872
▁브랜	-9873
▁종파	-9874
▁합당	-9875
▁애틀랜타	-9876
나드	-9877
▁입주	-9878
▁전산	-9879
▁공손	-9880
▁적군	-9881
▁중원	-9882
▁청소	-9883
▁확진	-9884
▁교육청	-9885
바른	-9886
▁느리	-9887
▁서리	-9888
▁수료	-9889
▁팔레	-9890
▁휴가	-9891
▁모티브	-9892
▁미네소	-9893
▁과실	-9894
▁델라	-9895
▁르노	-9896
▁마당	-9897
▁신동	-9898
▁생겨나	-9899
▁시켰으며	-9900
츠크	-9901
▁다를	-9902
▁수중	-9903
▁신정	-9904
▁왕정	-9905
▁중공업	-9906
▁넘기	-9907
▁그려진	-9908
▁유닉스	-9909
▁경제학자	-9910
▁줘	-9911
▁Is	-9912
▁사살	-9913
▁마라톤	-9914
▁;&	-9915
▁온대	-9916
▁쿠니	-9917
▁게릴라	-9918
푸아	-9919
▁버마	-9920
▁청색	-9921
▁카즈	-9922
▁아름답	-9923
▁이주하	-9924
▁리히	-9925
▁저렴	-9926
▁학력	-9927
▁122	-9928
▁공용어	-9929
▁알프레	-9930
피언	-9931
▁BM	-9932
▁돌입	-9933
▁스퀘어	-9934
부리	-9935
산성	-9936
▁빈도	-9937
▁함부르크	-9938
캐롤라이나	-9939
반구	-9940
▁노이	-9941
▁소행	-9942
▁사카이	-9943
▁상트페	-9944
▁천연기념물	-9945
▁상트페테르부르크	-9946
▁가가	-9947
▁석불	-9948
▁세네	-9949
▁이반	-9950
▁조인	-9951
▁타협	-9952
▁2022	-9953
푸르	-9954
▁연동	-9955
▁이빨	-9956
▁프렌	-9957
스카르	-9958
▁아마존	-9959
▁경위	-9960
▁무로	-9961
▁보강	-9962
▁집결	-9963
▁고토	-9964
▁메라	-9965
▁무술	-9966
▁전격	-9967
▁정경	-9968
▁칼뱅	-9969
▁안드레아	-9970
퍼슨	-9971
CAF	-9972
▁가져오	-9973
▁1880	-9974
▁파라과이	-9975
ii	-9976
▁거처	-9977
▁다툼	-9978
▁호쿠	-9979
ake	-9980
▁김민	-9981
▁분파	-9982
▁석회	-9983
▁클라크	-9984
▁ES	-9985
▁거뒀	-9986
▁두꺼	-9987
▁브룩	-9988
▁진해	-9989
▁++	-9990
▁갑옷	-9991
▁옥수수	-9992
▁강철	-9993
▁루크	-9994
▁마애	-9995
▁입양	-9996
▁짐작	-9997
▁창의	-9998
▁극작가	-9999
▁속편	-10000
▁아닐	-10001
▁con	-10002
기구	-10003
콥터	-10004
▁막시	-10005
▁용암	-10006
▁쥐속	-10007
▁그림자	-10008
▁두개골	-10009
▁설립자	-10010
▁흥선대원군	-10011
iss	-10012
▁유령	-10013
▁유스	-10014
▁호응	-10015
▁제작사	-10016
▁제조업	-10017
▁키예프	-10018
나미	-10019
▁듀얼	-10020
▁윤보	-10021
▁NGC	-10022
▁나간다	-10023
▁새로이	-10024
▁그레고리오	-10025
니지	-10026
으니	-10027
▁무스	-10028
▁숙주	-10029
▁안치	-10030
▁화순	-10031
▁133	-10032
▁셜	-10033
네시	-10034
케이	-10035
▁동요	-10036
▁블리	-10037
▁장원	-10038
자치시	-10039
▁특별자치시	-10040
▁군청	-10041
▁봉해	-10042
▁유정	-10043
▁였으므로	-10044
▁메릴	-10045
▁약하	-10046
▁프롤	-10047
▁그리스인	-10048
▁낚	-10049
▁도사	-10050
▁오락	-10051
▁원격	-10052
▁콘테	-10053
▁사무총장	-10054
▁주어진다	-10055
▁엮	-10056
▁모용	-10057
▁선장	-10058
▁스노	-10059
▁애칭	-10060
▁이장	-10061
▁나란히	-10062
▁이용객	-10063
▁뻔	-10064
▁어리	-10065
▁예명	-10066
▁위생	-10067
▁이언	-10068
▁출석	-10069
▁경쟁력	-10070
사관학교	-10071
▁요법	-10072
▁이데	-10073
▁제왕	-10074
▁종점	-10075
▁DM	-10076
▁기성	-10077
▁이규	-10078
▁재해	-10079
▁타지	-10080
▁해부	-10081
▁법정동	-10082
▁더비	-10083
▁열심	-10084
▁장단	-10085
▁함양	-10086
▁일러스트	-10087
▁대국	-10088
▁번성	-10089
▁일괄	-10090
▁확고	-10091
▁결핍	-10092
▁극도	-10093
▁등극	-10094
▁수녀	-10095
▁어로	-10096
▁연못	-10097
▁우상	-10098
▁지켰	-10099
▁쳐들	-10100
▁추종	-10101
▁펜싱	-10102
▁미생물	-10103
▁옮겨졌	-10104
타케	-10105
▁따랐	-10106
▁야시	-10107
▁자결	-10108
▁파우	-10109
▁교육부	-10110
▁지방산	-10111
▁스트라이커	-10112
▁고추	-10113
▁빛나	-10114
▁소령	-10115
▁을까	-10116
▁제리	-10117
▁헬륨	-10118
▁위나라	-10119
▁이동하	-10120
▁프랭클린	-10121
UR	-10122
▁인프라	-10123
▁가네	-10124
▁살려	-10125
▁심야	-10126
▁워치	-10127
▁이득	-10128
HO	-10129
own	-10130
▁결제	-10131
▁몽고	-10132
▁반역	-10133
▁붙여진	-10134
▁포도당	-10135
▁넌	-10136
▁스로	-10137
▁재난	-10138
▁진수	-10139
▁엘리트	-10140
▁그렇지만	-10141
GA	-10142
해튼	-10143
▁농어	-10144
▁겉보기	-10145
▁문경	-10146
▁현행	-10147
▁CBS	-10148
▁섀	-10149
▁가볍	-10150
▁자카	-10151
▁정관	-10152
▁무궁화	-10153
old	-10154
▁격자	-10155
▁조계	-10156
▁치른	-10157
▁평민	-10158
▁CEO	-10159
▁GDP	-10160
▁대지진	-10161
▁시뮬레이션	-10162
세기	-10163
▁개항	-10164
▁국유	-10165
▁명분	-10166
▁정인	-10167
▁파문	-10168
▁Mus	-10169
▁그레고리	-10170
▁국악	-10171
▁앨리스	-10172
▁스리랑카	-10173
렉션	-10174
삭스	-10175
▁리모	-10176
▁아치	-10177
▁동성애자	-10178
버러	-10179
▁암흑	-10180
▁앞장	-10181
위성	-10182
▁덮여	-10183
▁선거법	-10184
▁아래쪽	-10185
미스	-10186
▁Ro	-10187
▁만년	-10188
▁자생	-10189
▁장흥	-10190
▁파이프	-10191
▁툰	-10192
멘스	-10193
타마	-10194
▁NE	-10195
▁미셸	-10196
끄러운	-10197
▁불행	-10198
▁탁월	-10199
▁된다면	-10200
▁마우스	-10201
▁가도	-10202
▁샐	-10203
에미	-10204
▁강풍	-10205
▁니카	-10206
▁수년	-10207
▁자르	-10208
▁기상청	-10209
림픽	-10210
파크	-10211
▁도우	-10212
▁총무	-10213
▁대사헌	-10214
▁열린다	-10215
뜨렸	-10216
▁들려	-10217
▁온갖	-10218
▁정국	-10219
▁주화	-10220
▁후진	-10221
▁무조건	-10222
거래	-10223
▁PR	-10224
▁속주	-10225
▁타석	-10226
▁132	-10227
▁광양	-10228
위원회	-10229
▁모터스	-10230
▁복음서	-10231
▁인디애나	-10232
▁대각	-10233
▁신상	-10234
▁대성전	-10235
▁아스널	-10236
▁삼국사기	-10237
원장	-10238
▁듀오	-10239
▁아데	-10240
▁조병	-10241
▁주지	-10242
▁비주얼	-10243
clude	-10244
▁감동	-10245
▁닫힌	-10246
▁베른	-10247
▁지청	-10248
▁상연	-10249
▁글로브	-10250
Hz	-10251
▁쾰	-10252
ork	-10253
▁빈번	-10254
▁수심	-10255
▁황도	-10256
스기	-10257
헌영	-10258
▁초원	-10259
▁후속작	-10260
벨라	-10261
lo	-10262
▁슛	-10263
변이	-10264
▁국당	-10265
▁낙하	-10266
▁동참	-10267
▁스태	-10268
▁호족	-10269
▁기병대	-10270
▁아니하	-10271
▁돌연변이	-10272
▁댓	-10273
▁른	-10274
라기	-10275
미즈	-10276
▁시애	-10277
▁보헤미아	-10278
▁아이스하키	-10279
▁공파	-10280
▁미친	-10281
▁시리	-10282
▁현직	-10283
▁헛	-10284
▁발각	-10285
▁울리	-10286
▁오클랜드	-10287
▁합스부르크	-10288
ix	-10289
▁시종	-10290
▁총기	-10291
aw	-10292
메다	-10293
▁단과	-10294
▁루비	-10295
할시	-10296
ick	-10297
▁대본	-10298
▁저격	-10299
▁표창	-10300
▁마다가	-10301
▁김병	-10302
▁맹세	-10303
▁자세히	-10304
▁or	-10305
▁상기	-10306
▁투항	-10307
EM	-10308
▁소울	-10309
▁장대	-10310
바야시	-10311
▁미주리	-10312
▁자치체	-10313
▁청동기	-10314
운다	-10315
▁극락	-10316
▁김옥	-10317
▁패럴림픽	-10318
▁메일	-10319
▁모인	-10320
▁복식	-10321
▁재질	-10322
ence	-10323
▁타이베이	-10324
▁가타	-10325
▁감금	-10326
▁국수	-10327
▁농산물	-10328
▁시애틀	-10329
▁애리조	-10330
▁요제프	-10331
▁활주로	-10332
▁낮추	-10333
▁성령	-10334
▁아빠	-10335
▁양육	-10336
▁하고	-10337
▁호의	-10338
▁pro	-10339
▁마르크스주의	-10340
▁짱	-10341
▁난이	-10342
▁초고	-10343
▁세워져	-10344
▁소피아	-10345
▁볼셰비키	-10346
루냐	-10347
십자	-10348
▁부조	-10349
▁의과	-10350
▁페로	-10351
▁피로	-10352
▁통틀어	-10353
▁공표	-10354
마리	-10355
홀름	-10356
▁세븐	-10357
▁세손	-10358
▁이모	-10359
()	-10360
▁청자	-10361
브리아	-10362
ance	-10363
▁둘러싸여	-10364
▁앗	-10365
▁야구단	-10366
▁관동	-10367
▁매직	-10368
▁붙여졌	-10369
▁SL	-10370
▁밀러	-10371
▁왜구	-10372
▁제너	-10373
▁포고	-10374
▁우체국	-10375
▁1870	-10376
▁평안남도	-10377
▁즘	-10378
다르	-10379
▁리터	-10380
▁입수	-10381
▁매거진	-10382
▁올바른	-10383
공산	-10384
플로	-10385
▁계시	-10386
▁아쿠	-10387
▁카바	-10388
타이드	-10389
▁Mar	-10390
▁NAS	-10391
▁예선전	-10392
▁네이션스컵	-10393
▁시국	-10394
▁호리	-10395
▁창시자	-10396
▁우즈베키스탄	-10397
어질	-10398
테면	-10399
▁로리	-10400
▁배속	-10401
▁대장군	-10402
▁이를테면	-10403
▁생계	-10404
▁이븐	-10405
▁맨해튼	-10406
관리	-10407
▁뾰	-10408
▁머스	-10409
▁우아	-10410
▁스폰서	-10411
▁엥	-10412
▁감수	-10413
▁원심	-10414
▁학설	-10415
▁1885	-10416
제이	-10417
▁To	-10418
▁돌출	-10419
▁비늘	-10420
▁숀	-10421
ear	-10422
▁참사	-10423
▁오로지	-10424
▁민요	-10425
▁증인	-10426
▁청룡	-10427
▁수교	-10428
▁신종	-10429
▁일리	-10430
▁지로	-10431
▁화랑	-10432
▁센고쿠	-10433
▁평안북도	-10434
지오	-10435
쩌둥	-10436
티시	-10437
파이	-10438
▁AD	-10439
▁un	-10440
▁내면	-10441
▁벤치	-10442
테리아	-10443
▁450	-10444
▁중앙부	-10445
▁마오쩌둥	-10446
▁내성	-10447
▁볼프	-10448
▁수염	-10449
▁중생	-10450
▁프랜시스	-10451
▁유료	-10452
▁중상	-10453
▁로렌스	-10454
▁쿡	-10455
▁Ph	-10456
▁실존	-10457
▁전날	-10458
▁전단	-10459
▁꼽힌다	-10460
▁1871	-10461
▁개헌	-10462
▁앞쪽	-10463
▁제동	-10464
▁테일	-10465
▁퇴장	-10466
▁함자	-10467
▁선보이	-10468
▁프레이	-10469
▁알래스카	-10470
등식	-10471
▁바디	-10472
▁역도	-10473
▁편집자	-10474
▁활발히	-10475
▁1600	-10476
▁경질	-10477
▁로페	-10478
▁출가	-10479
▁티켓	-10480
▁퍼포	-10481
▁흉노	-10482
▁240	-10483
ild	-10484
▁남용	-10485
▁당내	-10486
▁반성	-10487
▁지성	-10488
▁해저	-10489
▁휴게	-10490
▁실험실	-10491
▁파나마	-10492
ection	-10493
테쓰	-10494
▁수다	-10495
▁카니	-10496
▁다람쥐	-10497
▁마닐라	-10498
▁퍼포먼스	-10499
▁리바	-10500
▁수인	-10501
▁유러	-10502
▁콜레	-10503
텔레스	-10504
▁USS	-10505
▁양성자	-10506
▁프로리그	-10507
▁맷	-10508
▁GN	-10509
▁요지	-10510
▁이양	-10511
irl	-10512
▁줄어	-10513
▁지오	-10514
▁케라	-10515
lass	-10516
▁관행	-10517
▁푸르	-10518
▁빅토르	-10519
▁유러피언	-10520
▁앤더슨	-10521
▁콘스탄티노폴리스	-10522
▁분과	-10523
▁자칭	-10524
▁일으킨다	-10525
▁쉴	-10526
▁루카	-10527
사상	-10528
▁CM	-10529
▁정제	-10530
▁카터	-10531
▁프라하	-10532
면체	-10533
지기	-10534
▁갈리	-10535
▁반하	-10536
▁위스	-10537
▁조광	-10538
▁왕세자	-10539
▁자란다	-10540
▁감싸	-10541
▁국보	-10542
▁독도	-10543
▁이완	-10544
▁중서	-10545
▁내무부	-10546
▁박헌영	-10547
▁1200	-10548
▁올림피아	-10549
▁각성	-10550
▁궁궐	-10551
▁재외	-10552
▁반란군	-10553
▁아리스토텔레스	-10554
OV	-10555
맥스	-10556
▁성실	-10557
▁호크	-10558
▁김정은	-10559
▁수원시	-10560
▁퍼스트	-10561
▁올랐으며	-10562
▁리비	-10563
▁줄여	-10564
▁친분	-10565
▁only	-10566
▁멍	-10567
▁고쿠	-10568
▁교실	-10569
▁냐는	-10570
▁능선	-10571
▁무척	-10572
▁온다	-10573
▁조례	-10574
▁퍼스	-10575
▁EBS	-10576
▁케이프	-10577
▁끝났	-10578
▁봉수	-10579
▁생선	-10580
▁알렉스	-10581
▁유권자	-10582
▁구니	-10583
▁잡아먹	-10584
으로	-10585
▁걸린	-10586
▁상급	-10587
▁테라	-10588
▁불어	-10589
▁성화	-10590
▁송도	-10591
▁이방	-10592
▁시달리	-10593
▁윤보선	-10594
▁구마모토	-10595
체고	-10596
▁서산	-10597
▁징병	-10598
▁동물원	-10599
▁역사가	-10600
체고비나	-10601
▁마다가스카르	-10602
▁부각	-10603
▁오미	-10604
▁평형	-10605
▁다나카	-10606
▁다저스	-10607
▁앤드루	-10608
▁하노이	-10609
라고	-10610
▁이룩	-10611
▁탑신	-10612
▁김규식	-10613
▁러시아인	-10614
ans	-10615
▁개개	-10616
▁다투	-10617
▁려던	-10618
▁몸통	-10619
▁화기	-10620
▁동유럽	-10621
▁부원군	-10622
▁괄	-10623
▁Sy	-10624
▁재활	-10625
▁칙령	-10626
▁루돌프	-10627
▁미군정	-10628
▁예정자	-10629
▁오른손	-10630
▁구청	-10631
▁글러	-10632
▁초빙	-10633
▁통역	-10634
▁밴쿠버	-10635
GM	-10636
▁바트	-10637
▁시중	-10638
▁지쿠	-10639
▁칼럼	-10640
▁경영자	-10641
▁유년기	-10642
메스	-10643
▁강령	-10644
▁뉴클	-10645
▁사쿠	-10646
▁수필	-10647
▁시합	-10648
▁영예	-10649
▁창문	-10650
▁부드럽	-10651
▁유치원	-10652
▁돌보	-10653
▁섬세	-10654
▁차용	-10655
▁레이크	-10656
▁위너스	-10657
▁관문	-10658
▁남산	-10659
▁넘어갔	-10660
▁클레이	-10661
▁해리슨	-10662
무소	-10663
▁경시	-10664
▁농경	-10665
▁공민왕	-10666
▁레이싱	-10667
▁신문사	-10668
▁아무것	-10669
어사	-10670
▁경희	-10671
▁메뉴	-10672
▁총애	-10673
▁동대문	-10674
▁헬리콥터	-10675
▁ex	-10676
▁약혼	-10677
OD	-10678
컨대	-10679
환경	-10680
▁리조트	-10681
▁브레이크	-10682
▁에프	-10683
▁총통	-10684
▁편제	-10685
▁포식	-10686
▁배려	-10687
▁허드	-10688
▁정의당	-10689
▁나우	-10690
▁예수회	-10691
ivers	-10692
코토	-10693
▁독창	-10694
▁커플	-10695
▁트릭	-10696
▁솔로몬	-10697
▁크라이	-10698
▁고속버스	-10699
통일	-10700
▁김원	-10701
▁케플러	-10702
천면	-10703
▁검정	-10704
▁메카	-10705
▁명소	-10706
▁산호	-10707
▁화엄	-10708
▁대대로	-10709
▁CONCA	-10710
바흐	-10711
토랑	-10712
▁제퍼슨	-10713
▁레스토랑	-10714
TP	-10715
▁남해	-10716
▁소음	-10717
▁일당	-10718
▁파도	-10719
▁성남시	-10720
▁얕	-10721
▁경호	-10722
▁마술	-10723
▁처하	-10724
▁특전	-10725
▁나타냈	-10726
▁대합실	-10727
▁CONCACAF	-10728
RA	-10729
▁광도	-10730
▁모의	-10731
▁시노	-10732
▁전래	-10733
▁주입	-10734
▁천왕	-10735
▁포착	-10736
▁어려웠	-10737
▁클린턴	-10738
매매	-10739
ish	-10740
▁모호	-10741
▁뾰족	-10742
▁안녕	-10743
▁하반	-10744
▁한미	-10745
▁효자	-10746
원수	-10747
▁보행	-10748
▁케인	-10749
▁하류	-10750
▁사각형	-10751
▁@	-10752
에스	-10753
▁드미	-10754
▁마차	-10755
▁신발	-10756
▁추이	-10757
▁MTV	-10758
▁브루스	-10759
▁싣	-10760
▁카지	-10761
▁하키	-10762
▁호스	-10763
▁해리스	-10764
▁통용	-10765
▁해져	-10766
▁서재필	-10767
▁관청	-10768
▁수양	-10769
▁절망	-10770
▁카테	-10771
▁보라	-10772
▁유혹	-10773
▁가져온	-10774
▁는다면	-10775
include	-10776
oun	-10777
▁나인	-10778
▁스가	-10779
▁긴테쓰	-10780
▁보로	-10781
▁씨앗	-10782
▁연한	-10783
▁욕망	-10784
▁스테파	-10785
▁플라톤	-10786
fe	-10787
▁도교	-10788
▁시부	-10789
▁컴퓨팅	-10790
▁뉴클레오	-10791
▁Jo	-10792
▁실정	-10793
▁주임	-10794
▁허정	-10795
아나	-10796
▁가늘	-10797
▁박종	-10798
▁블로	-10799
▁선천	-10800
▁내려졌	-10801
신문	-10802
▁대북	-10803
▁어쩔	-10804
▁침묵	-10805
▁아키라	-10806
▁문고	-10807
▁신지	-10808
▁바이트	-10809
히트	-10810
are	-10811
▁":	-10812
▁김유	-10813
▁찬사	-10814
블랜드	-10815
▁방어선	-10816
▁스톡홀름	-10817
▁총사령관	-10818
▁로버	-10819
▁이렇	-10820
▁자제	-10821
▁테리	-10822
▁분류군	-10823
▁요시다	-10824
▁친위대	-10825
▁무실	-10826
▁이점	-10827
▁폭파	-10828
▁벅	-10829
지르	-10830
▁라자	-10831
▁만장	-10832
▁블레	-10833
▁수복	-10834
▁제물	-10835
▁NT	-10836
▁국공	-10837
▁함경남도	-10838
EG	-10839
▁가솔	-10840
▁결별	-10841
▁도둑	-10842
▁마켓	-10843
▁불변	-10844
▁클리블랜드	-10845
지능	-10846
▁sc	-10847
▁리보	-10848
▁색소	-10849
▁보낸다	-10850
▁인공지능	-10851
▁북아일랜드	-10852
정원	-10853
창호	-10854
▁별세	-10855
▁보수당	-10856
▁오리온	-10857
▁당연	-10858
▁럭비	-10859
▁시몬	-10860
▁정거	-10861
▁카피	-10862
▁비밀리	-10863
▁피라미	-10864
▁다테	-10865
▁라서	-10866
▁어군	-10867
▁이겨	-10868
▁캐롤	-10869
▁타스	-10870
az	-10871
▁고든	-10872
▁드루	-10873
▁맞대	-10874
▁소극	-10875
▁원통	-10876
▁전무	-10877
▁퇴직	-10878
▁나트륨	-10879
▁비타민	-10880
▁넷째	-10881
▁본성	-10882
▁전담	-10883
▁개구리	-10884
▁리프트	-10885
▁타이거스	-10886
대표	-10887
▁CH	-10888
▁담보	-10889
▁사역	-10890
▁엄밀	-10891
▁영유	-10892
▁향했	-10893
▁화약	-10894
ical	-10895
놀이	-10896
라니	-10897
▁릴리	-10898
▁묘비	-10899
▁내야수	-10900
▁샀	-10901
군다	-10902
▁AV	-10903
▁동로	-10904
▁리베	-10905
▁방콕	-10906
▁스텝	-10907
▁약사	-10908
▁유선	-10909
▁포토	-10910
▁황소	-10911
▁ABC	-10912
▁대원군	-10913
▁서대문	-10914
▁알파벳	-10915
▁초신성	-10916
▁프린스	-10917
▁DD	-10918
▁마셜	-10919
▁제노	-10920
▁가이드	-10921
▁아키타	-10922
려서	-10923
▁백두	-10924
▁천국	-10925
▁210	-10926
▁선구자	-10927
▁유아기	-10928
▁투자자	-10929
▁가맹	-10930
▁벤처	-10931
▁알프스	-10932
▁자치주	-10933
EL	-10934
▁모어	-10935
▁야전	-10936
▁제명	-10937
▁차출	-10938
▁찬양	-10939
▁채취	-10940
▁올라갔	-10941
lat	-10942
▁쾰른	-10943
▁ATP	-10944
▁로크	-10945
▁그래도	-10946
▁피아니스트	-10947
▁멧	-10948
메드	-10949
사고	-10950
▁Fr	-10951
▁노론	-10952
▁동향	-10953
▁치과	-10954
▁파손	-10955
FL	-10956
▁왕권	-10957
▁웨인	-10958
▁튀르크	-10959
▁구두	-10960
▁리사	-10961
▁마천루	-10962
▁쓰여진	-10963
▁연극배우	-10964
암동	-10965
▁소중	-10966
▁실권	-10967
▁천거	-10968
▁톈진	-10969
▁펌프	-10970
▁경전철	-10971
▁토스카	-10972
▁가브리엘	-10973
언스	-10974
▁상행	-10975
▁우림	-10976
▁장시	-10977
▁헬싱	-10978
▁로드리	-10979
▁적외선	-10980
덴부르크	-10981
▁슬픔	-10982
▁종식	-10983
▁추리	-10984
▁동시대	-10985
▁주차장	-10986
대교	-10987
대사	-10988
클레	-10989
▁넘치	-10990
▁모셔	-10991
▁임정	-10992
▁정부군	-10993
▁구내	-10994
▁로얄	-10995
▁켈트	-10996
▁연산군	-10997
▁아름다움	-10998
▁콘테스트	-10999
▁딥	-11000
▁간첩	-11001
▁감상	-11002
▁감찰	-11003
▁구실	-11004
▁미수	-11005
▁와라	-11006
▁김형	-11007
▁사방	-11008
▁삼존	-11009
▁야드	-11010
▁형질	-11011
▁위그	-11012
▁플리	-11013
소통	-11014
수스	-11015
질러	-11016
▁가락	-11017
▁마에	-11018
▁밸리	-11019
▁불참	-11020
▁송신	-11021
▁실록	-11022
▁여권	-11023
▁운임	-11024
▁이의	-11025
▁칸국	-11026
▁마누엘	-11027
▁헤르체고비나	-11028
▁리본	-11029
▁스칸	-11030
▁안드	-11031
▁중합	-11032
▁아나톨	-11033
▁봇	-11034
휴일	-11035
ica	-11036
▁악보	-11037
▁정형	-11038
▁합친	-11039
▁안테나	-11040
▁타이어	-11041
카리	-11042
캐슬	-11043
티넘	-11044
▁방치	-11045
▁사설	-11046
공산당	-11047
▁용인시	-11048
▁플래티넘	-11049
러지	-11050
▁본작	-11051
▁삼림	-11052
▁슬하	-11053
▁직통	-11054
▁프레데	-11055
▁화강암	-11056
▁브루클린	-11057
ey	-11058
▁극우	-11059
▁아날	-11060
▁어는	-11061
▁준수	-11062
테이너	-11063
▁메이커	-11064
▁의사소통	-11065
▁목회	-11066
▁여유	-11067
▁예약	-11068
▁잇따	-11069
▁지자	-11070
▁친족	-11071
해살이	-11072
▁AKB	-11073
▁유격수	-11074
60	-11075
▁모하	-11076
▁져서	-11077
▁즐길	-11078
▁목요일	-11079
▁오바마	-11080
▁대영	-11081
▁산성	-11082
▁영정	-11083
▁유목	-11084
▁중퇴	-11085
▁스카우트	-11086
다운	-11087
충류	-11088
합성	-11089
▁he	-11090
▁공존	-11091
▁다윈	-11092
▁봉화	-11093
▁기관지	-11094
▁메디치	-11095
▁아이폰	-11096
▁강렬	-11097
▁무형	-11098
▁삼중	-11099
▁왕건	-11100
▁전전	-11101
▁절정	-11102
▁집정	-11103
▁두려움	-11104
▁스트로	-11105
▁김준	-11106
▁모금	-11107
▁비야	-11108
▁캐리	-11109
▁하시	-11110
▁이뤄졌	-11111
▁로트	-11112
▁시크	-11113
▁외형	-11114
▁죽인	-11115
▁나타낸	-11116
▁엔트리	-11117
▁반포	-11118
▁어찌	-11119
▁사라진	-11120
▁1889	-11121
난성	-11122
들여	-11123
▁그저	-11124
▁끼치	-11125
▁불량	-11126
▁이송	-11127
▁소말리아	-11128
망디	-11129
천동	-11130
▁건전	-11131
▁러서	-11132
▁마땅	-11133
▁매트	-11134
▁비엔	-11135
▁송출	-11136
▁해태	-11137
와라노	-11138
▁후지와라노	-11139
위안	-11140
▁서임	-11141
▁의류	-11142
▁피지	-11143
▁엣	-11144
▁강해	-11145
▁라리	-11146
▁백과	-11147
▁사탕	-11148
▁연말	-11149
▁기숙사	-11150
▁뉴캐슬	-11151
▁시네마	-11152
▁늙	-11153
바나	-11154
▁감성	-11155
▁격리	-11156
▁메소	-11157
▁베트	-11158
▁요충	-11159
▁종자	-11160
▁취했	-11161
▁말미암	-11162
▁패트릭	-11163
AF	-11164
부로	-11165
▁So	-11166
▁갈아	-11167
▁고딕	-11168
▁요격	-11169
▁작물	-11170
▁처지	-11171
▁치환	-11172
▁벌여	-11173
▁토트	-11174
▁OST	-11175
▁생존자	-11176
bo	-11177
▁pr	-11178
▁니혼	-11179
▁리옹	-11180
▁열강	-11181
▁투여	-11182
▁호대	-11183
애미	-11184
▁볼트	-11185
▁사서	-11186
▁자란	-11187
▁For	-11188
▁열심히	-11189
▁마이애미	-11190
부르	-11191
▁겹쳐	-11192
▁주계	-11193
▁드디어	-11194
▁발라드	-11195
IL	-11196
▁도피	-11197
▁비준	-11198
▁징수	-11199
▁트렌	-11200
▁간신히	-11201
▁피라미드	-11202
▁혀	-11203
▁나아	-11204
▁애정	-11205
▁음운	-11206
▁정종	-11207
▁중수	-11208
▁한중	-11209
▁찾아내	-11210
▁챙	-11211
▁훙	-11212
가미	-11213
▁EU	-11214
▁김명	-11215
▁은거	-11216
▁쿠퍼	-11217
▁낙동강	-11218
▁똑같이	-11219
▁공소	-11220
▁삽화	-11221
▁휩쓸	-11222
▁로마인	-11223
▁장학금	-11224
▁의령	-11225
▁카카오	-11226
▁Live	-11227
란토	-11228
▁금호	-11229
▁모색	-11230
▁바꿨	-11231
▁잠정	-11232
도르프	-11233
▁지상파	-11234
sh	-11235
교통	-11236
프로	-11237
▁수락	-11238
▁자유민주당	-11239
유예	-11240
▁고쳤	-11241
▁노면	-11242
▁원군	-11243
추부사	-11244
▁JTBC	-11245
▁가나가와현	-11246
▁기이	-11247
▁유희	-11248
▁하야	-11249
▁항만	-11250
▁후배	-11251
▁힘썼	-11252
바이트	-11253
▁Sou	-11254
▁프란체스코	-11255
▁양심	-11256
▁정작	-11257
▁공휴일	-11258
에미리트	-11259
▁아랍에미리트	-11260
▁병자	-11261
▁유의	-11262
▁생긴다	-11263
▁공성	-11264
▁금산	-11265
▁연정	-11266
▁정읍	-11267
▁천주	-11268
▁Com	-11269
▁브레이	-11270
▁토리노	-11271
▁프랑스인	-11272
EE	-11273
▁싼	-11274
에몽	-11275
▁Mo	-11276
▁급여	-11277
▁반기	-11278
▁비추	-11279
마르크	-11280
▁미야자키	-11281
▁센티미터	-11282
▁츄	-11283
▁들어올	-11284
▁스타트	-11285
▁여배우	-11286
▁나카무라	-11287
▁앙골	-11288
▁페트	-11289
클리드	-11290
▁Part	-11291
풀이	-11292
▁성곽	-11293
▁순종	-11294
하이오	-11295
tern	-11296
▁국제법	-11297
▁에이즈	-11298
▁오하이오	-11299
▁줄기세포	-11300
▁카탈루냐	-11301
화문	-11302
▁Ma	-11303
▁김광	-11304
▁모욕	-11305
▁자서	-11306
▁해독	-11307
▁대승불교	-11308
▁깜	-11309
▁귀신	-11310
▁벨리	-11311
▁워즈	-11312
▁평판	-11313
▁광복군	-11314
▁레이더	-11315
▁격추	-11316
▁도래	-11317
▁베어	-11318
▁서태	-11319
▁라이더	-11320
▁댈	-11321
▁내걸	-11322
▁무과	-11323
▁문집	-11324
▁습윤	-11325
▁암스	-11326
▁유식	-11327
▁최진	-11328
▁가솔린	-11329
▁대법관	-11330
▁1848	-11331
▁레드삭스	-11332
▁캅	-11333
▁거미	-11334
▁Col	-11335
▁놀라운	-11336
▁뛰어났	-11337
▁레이트	-11338
▁보수주의	-11339
▁워커	-11340
▁탄약	-11341
▁프랑스령	-11342
▁매킨	-11343
▁한신	-11344
▁우루스	-11345
▁유니버설	-11346
▁걸어	-11347
▁교의	-11348
▁응급	-11349
▁교통부	-11350
▁드러냈	-11351
▁굴절	-11352
▁익숙	-11353
▁추력	-11354
▁클러	-11355
▁평평	-11356
▁미야기	-11357
▁여의도	-11358
▁사운드트랙	-11359
말로	-11360
▁EM	-11361
▁해피	-11362
▁일본국	-11363
▁정거장	-11364
▁Time	-11365
의사	-11366
▁쌍대	-11367
▁포털	-11368
▁API	-11369
▁마이어	-11370
▁볼로	-11371
▁비정	-11372
▁사쓰	-11373
▁음절	-11374
▁튀니지	-11375
▁무네	-11376
▁바지	-11377
▁여사	-11378
▁int	-11379
▁마법사	-11380
▁정치학	-11381
▁여고	-11382
▁추억	-11383
▁검은색	-11384
▁카스티야	-11385
▁공영	-11386
▁수로	-11387
▁자명	-11388
▁티아	-11389
▁어시스트	-11390
거스	-11391
자루	-11392
▁공대	-11393
▁코리	-11394
▁대리인	-11395
▁바그너	-11396
메니	-11397
▁"&	-11398
▁기전	-11399
▁느린	-11400
▁오만	-11401
▁인칭	-11402
▁파란	-11403
▁한림	-11404
uc	-11405
현동	-11406
lay	-11407
row	-11408
▁SNS	-11409
나마	-11410
▁동진	-11411
▁때려	-11412
▁라르	-11413
▁패러디	-11414
▁프란치	-11415
관계	-11416
브로	-11417
워하	-11418
지부	-11419
▁BC	-11420
▁권역	-11421
▁비대	-11422
▁사민	-11423
▁부총리	-11424
나오	-11425
▁국한	-11426
▁산둥	-11427
▁재팬	-11428
▁줄리	-11429
▁지배자	-11430
▁하노버	-11431
▁김인	-11432
▁비토	-11433
▁셀레	-11434
▁총격	-11435
▁방사능	-11436
▁시멘트	-11437
▁시켜서	-11438
▁가혹	-11439
▁진로	-11440
▁특화	-11441
▁하행	-11442
페스트	-11443
프랑크	-11444
▁고인돌	-11445
▁꼽히	-11446
▁남군	-11447
▁댄서	-11448
▁리카	-11449
orn	-11450
ous	-11451
▁국외	-11452
▁동산	-11453
▁모건	-11454
▁우한	-11455
▁만화가	-11456
▁명확히	-11457
▁시코쿠	-11458
정동	-11459
ows	-11460
▁대마	-11461
▁로키	-11462
▁류큐	-11463
▁설문	-11464
▁점포	-11465
▁지법	-11466
▁치카	-11467
▁경복	-11468
▁사림	-11469
▁사수	-11470
▁업자	-11471
▁재일	-11472
▁종군	-11473
span	-11474
▁졌으나	-11475
워서	-11476
지아	-11477
▁맞춘	-11478
▁무안	-11479
▁부합	-11480
▁안개	-11481
▁제위	-11482
▁대니얼	-11483
▁법원장	-11484
▁어긋나	-11485
▁페트로	-11486
OP	-11487
▁GB	-11488
▁검거	-11489
▁다치	-11490
▁보령	-11491
▁용액	-11492
▁절벽	-11493
▁클라우	-11494
▁onlyinclude	-11495
▁거란	-11496
▁골격	-11497
▁글꼴	-11498
▁랴오	-11499
▁문단	-11500
▁방대	-11501
▁실증	-11502
▁연립	-11503
▁항체	-11504
파니아	-11505
▁아이즈	-11506
▁카메룬	-11507
서스	-11508
▁누렸	-11509
▁합치	-11510
▁맬	-11511
ann	-11512
▁관상	-11513
▁단결	-11514
▁부평	-11515
▁선명	-11516
olog	-11517
▁커리어	-11518
▁Your	-11519
▁관현악단	-11520
▁섰	-11521
▁모빌	-11522
▁노르망디	-11523
▁근사	-11524
▁모라	-11525
▁고로	-11526
▁배분	-11527
▁수식	-11528
▁편견	-11529
메이카	-11530
▁정보원	-11531
▁자메이카	-11532
▁가쿠	-11533
▁간략	-11534
▁고생	-11535
▁남방	-11536
▁든다	-11537
▁마테	-11538
▁선봉	-11539
▁오디	-11540
레스트	-11541
▁Bla	-11542
▁그랜트	-11543
▁그라운드	-11544
▁녕	-11545
▁메스	-11546
▁바꿀	-11547
▁신곡	-11548
▁커서	-11549
▁케르	-11550
▁대단히	-11551
▁이뤄지	-11552
▁욱	-11553
용차	-11554
▁가중	-11555
▁범행	-11556
▁숙부	-11557
▁황색	-11558
▁131	-11559
▁NASA	-11560
버른	-11561
▁도박	-11562
▁헬레	-11563
▁모범	-11564
▁속력	-11565
▁초콜	-11566
▁형벌	-11567
▁제우스	-11568
▁GM	-11569
▁라인업	-11570
▁시켜야	-11571
▁저지대	-11572
▁촛	-11573
▁국교	-11574
▁사학	-11575
▁쾨	-11576
시노	-11577
칼리	-11578
▁보루	-11579
▁소외	-11580
▁종양	-11581
▁파일럿	-11582
▁곶	-11583
센스	-11584
▁전보	-11585
▁콘솔	-11586
▁공화정	-11587
▁대나무	-11588
▁판소리	-11589
거지	-11590
▁재편	-11591
▁절감	-11592
▁정반	-11593
▁u	-11594
▁찔	-11595
▁리즈	-11596
▁연희	-11597
▁영화상	-11598
▁줄리아	-11599
▁1883	-11600
틀리	-11601
▁공무	-11602
▁도키	-11603
▁서귀	-11604
▁평지	-11605
▁항우	-11606
▁에스페	-11607
▁기해	-11608
▁녹화	-11609
▁부다	-11610
▁타락	-11611
▁하코	-11612
▁혼다	-11613
▁라파엘	-11614
▁다듬	-11615
▁무작	-11616
▁적료	-11617
▁최선	-11618
▁홀리	-11619
▁고분군	-11620
▁부상자	-11621
▁다우	-11622
▁단군	-11623
▁모세	-11624
▁식스	-11625
▁안방	-11626
▁유공	-11627
빌라이	-11628
▁스칼라	-11629
▁연구회	-11630
▁해상도	-11631
▁가토	-11632
▁기세	-11633
▁맞춤	-11634
▁야외	-11635
▁외치	-11636
▁은혜	-11637
▁접한	-11638
네그로	-11639
▁뛰어들	-11640
▁체인지	-11641
▁at	-11642
▁기와	-11643
▁라바	-11644
▁발상	-11645
▁열전	-11646
▁지석	-11647
▁코소	-11648
▁큐브	-11649
른스트	-11650
▁ref	-11651
▁에이전	-11652
▁전반기	-11653
CC	-11654
제품	-11655
▁계주	-11656
▁라디	-11657
▁선대	-11658
▁피리	-11659
▁달라지	-11660
▁교향악단	-11661
▁유클리드	-11662
히사	-11663
▁SA	-11664
▁이터	-11665
▁조교	-11666
▁카네	-11667
▁팔렸	-11668
▁플러	-11669
티모어	-11670
▁제이슨	-11671
▁텍사스주	-11672
ink	-11673
▁고의	-11674
▁봉인	-11675
▁중엽	-11676
▁할인	-11677
▁가져다	-11678
▁중소기업	-11679
80	-11680
▁리마	-11681
▁사영	-11682
▁온난	-11683
▁쳐들어	-11684
▁바쳤	-11685
▁병마	-11686
▁산요	-11687
▁엔드	-11688
▁탄자	-11689
▁노벨상	-11690
▁다이어	-11691
▁RS	-11692
▁세습	-11693
▁유우	-11694
▁비서관	-11695
RT	-11696
워스	-11697
▁가우	-11698
▁송파	-11699
▁이회	-11700
▁카마	-11701
▁원산지	-11702
▁흐른다	-11703
들이	-11704
▁밀어	-11705
▁뫼	-11706
ood	-11707
▁Ge	-11708
▁대좌	-11709
▁외래	-11710
▁위조	-11711
▁자수	-11712
▁스캔들	-11713
토프	-11714
프턴	-11715
▁RP	-11716
▁기량	-11717
▁도네	-11718
▁요절	-11719
▁하남	-11720
▁Sch	-11721
▁멜버른	-11722
▁Wind	-11723
▁잃어버린	-11724
돌이	-11725
치히	-11726
▁간사	-11727
▁관례	-11728
▁꿈꾸	-11729
▁너머	-11730
▁스루	-11731
▁위구르	-11732
▁프로그래머	-11733
▁콥	-11734
▁tv	-11735
▁객차	-11736
▁니키	-11737
▁단속	-11738
▁루키	-11739
▁수위	-11740
▁우산	-11741
▁유생	-11742
▁콜럼	-11743
▁해치	-11744
▁통신사	-11745
▁OB	-11746
▁라기	-11747
▁파벌	-11748
▁나간	-11749
▁약해	-11750
▁왕궁	-11751
▁연장전	-11752
▁예컨대	-11753
▁천수	-11754
▁함량	-11755
도라	-11756
▁내력	-11757
▁램프	-11758
▁위로	-11759
▁최영	-11760
스트리	-11761
▁330	-11762
▁국정원	-11763
▁아이언	-11764
▁토마토	-11765
▁내일	-11766
▁월터	-11767
▁유서	-11768
▁지극	-11769
▁미토콘	-11770
▁북유럽	-11771
▁쿠빌라이	-11772
▁미토콘드리아	-11773
II	-11774
ern	-11775
▁고마	-11776
▁상어	-11777
▁안나	-11778
▁요양	-11779
▁걸쳐서	-11780
▁해안선	-11781
▁야마가타	-11782
에고	-11783
▁거성	-11784
▁고노	-11785
▁고흥	-11786
▁달랐	-11787
▁부왕	-11788
▁성동	-11789
▁시안	-11790
▁정은	-11791
40	-11792
▁단정	-11793
▁배달	-11794
▁부교	-11795
▁북군	-11796
▁정정	-11797
▁달아났	-11798
▁카스트	-11799
▁1882	-11800
▁아날로그	-11801
융합	-11802
화학	-11803
▁가고	-11804
▁관악	-11805
▁세요	-11806
▁항원	-11807
ost	-11808
▁덮개	-11809
▁동포	-11810
▁씨족	-11811
▁아유	-11812
▁주선	-11813
▁Day	-11814
▁올리브	-11815
▁파시즘	-11816
▁대인	-11817
▁재래	-11818
▁족보	-11819
▁프로모	-11820
포시	-11821
▁FK	-11822
▁몰타	-11823
▁협업	-11824
▁단체전	-11825
▁사업소	-11826
▁해운대	-11827
▁다이노스	-11828
▁부파	-11829
▁대표자	-11830
▁슈퍼컵	-11831
▁핵융합	-11832
▁컨트롤러	-11833
데라	-11834
여객	-11835
▁군데	-11836
▁급증	-11837
▁출자	-11838
▁회귀	-11839
▁군사력	-11840
▁미스터리	-11841
▁줌	-11842
서니	-11843
▁분단	-11844
▁상록	-11845
▁새우	-11846
▁장덕	-11847
▁관계없이	-11848
▁결사	-11849
▁받들	-11850
▁세련	-11851
▁식용	-11852
▁정월	-11853
▁조셉	-11854
▁레오폴	-11855
▁호스트	-11856
호란	-11857
▁강행	-11858
▁항로	-11859
▁내세우	-11860
▁너무나	-11861
▁부르주	-11862
▁산티아	-11863
US	-11864
▁La	-11865
▁동적	-11866
▁수열	-11867
▁아목	-11868
▁제천	-11869
▁지르	-11870
▁직속	-11871
오르크	-11872
▁데니스	-11873
▁필립스	-11874
▁느낄	-11875
▁러일	-11876
▁성원	-11877
▁우시	-11878
▁종영	-11879
▁선진국	-11880
▁폐기물	-11881
▁몹	-11882
▁강당	-11883
▁랭크	-11884
▁서면	-11885
▁주창	-11886
▁진한	-11887
▁타일	-11888
▁태후	-11889
▁대상자	-11890
▁독수리	-11891
▁영원히	-11892
▁중공군	-11893
▁Girl	-11894
▁노사	-11895
▁단말	-11896
▁법관	-11897
▁우월	-11898
▁안티오	-11899
▁시즈오카	-11900
▁컨테이너	-11901
팡이	-11902
▁산시	-11903
▁어파	-11904
▁타수	-11905
▁표정	-11906
▁기념일	-11907
▁리믹스	-11908
▁냥	-11909
나갔	-11910
▁남하	-11911
▁여도	-11912
OT	-11913
▁군벌	-11914
▁묻혔	-11915
▁보름	-11916
▁옮긴	-11917
▁무실점	-11918
▁법조인	-11919
▁휴게소	-11920
▁괌	-11921
▁그릴	-11922
▁넬슨	-11923
▁대진	-11924
▁번창	-11925
▁빙하	-11926
▁조슈	-11927
▁LED	-11928
▁제갈량	-11929
▁테네시	-11930
▁사회민주당	-11931
▁관목	-11932
▁사안	-11933
▁사치	-11934
▁양보	-11935
▁증폭	-11936
▁오일러	-11937
▁4000	-11938
▁규탄	-11939
▁매리	-11940
▁소프	-11941
▁염려	-11942
▁여성주의	-11943
▁Or	-11944
▁교직	-11945
▁딜런	-11946
▁발동	-11947
▁신입	-11948
▁영덕	-11949
▁잠깐	-11950
▁피드	-11951
▁형편	-11952
▁후예	-11953
▁경주시	-11954
▁베이커	-11955
▁비해서	-11956
▁어울리	-11957
▁오스틴	-11958
▁지닌다	-11959
본부	-11960
▁라미	-11961
▁제단	-11962
스탄불	-11963
▁생겨난	-11964
▁파푸아	-11965
▁이스탄불	-11966
▁뇨	-11967
게스	-11968
지리	-11969
▁맡기	-11970
▁떠오르	-11971
▁사이타마	-11972
▁렛	-11973
▁청계	-11974
▁오아	-11975
▁우의정	-11976
▁쪼	-11977
▁내분	-11978
▁사천	-11979
▁앞선	-11980
▁전수	-11981
▁쩐	-11982
oll	-11983
▁거세	-11984
▁고트	-11985
▁양수	-11986
▁일각	-11987
▁만난다	-11988
▁1868	-11989
▁메릴랜드	-11990
▁농지	-11991
▁놓인	-11992
▁밀레	-11993
▁new	-11994
▁알아보	-11995
▁지붕돌	-11996
▁과테	-11997
▁김윤	-11998
▁대도	-11999
▁성악	-12000
▁키워	-12001
▁하의	-12002
펜하겐	-12003
▁급속히	-12004
▁프랜차	-12005
▁과테말라	-12006
▁레인저스	-12007
▁코펜하겐	-12008
▁교부	-12009
▁능동	-12010
▁우왕	-12011
▁호아	-12012
웨이트	-12013
▁치러졌	-12014
▁몬테네그로	-12015
협회	-12016
▁분사	-12017
▁절제	-12018
▁축전	-12019
▁TR	-12020
▁노후	-12021
▁뒤이	-12022
▁생리	-12023
▁스콜	-12024
▁이항	-12025
▁헌장	-12026
▁로마자	-12027
▁히브리	-12028
바오	-12029
▁DF	-12030
▁라카	-12031
▁버터	-12032
▁위력	-12033
▁점거	-12034
▁앙골라	-12035
▁접어들	-12036
▁샨	-12037
▁소아	-12038
▁접종	-12039
▁편향	-12040
▁각료	-12041
▁국철	-12042
▁습관	-12043
▁외과	-12044
▁이메	-12045
▁증오	-12046
▁초안	-12047
▁컨설	-12048
▁타리	-12049
▁피핀	-12050
▁요충지	-12051
▁이바지	-12052
▁암스테르담	-12053
▁찢	-12054
▁성산	-12055
▁시비	-12056
▁영월	-12057
▁장병	-12058
▁저조	-12059
▁켄트	-12060
▁헤이안	-12061
▁산티아고	-12062
LA	-12063
▁복종	-12064
▁정몽	-12065
▁충렬	-12066
루이스	-12067
▁320	-12068
▁대명사	-12069
▁프랜차이즈	-12070
▁금전	-12071
▁무서	-12072
▁안무	-12073
▁잔인	-12074
▁종신	-12075
▁치유	-12076
▁피할	-12077
▁좌의정	-12078
▁주계열	-12079
▁야마모토	-12080
▁루이지애나	-12081
히드	-12082
▁박성	-12083
▁배드	-12084
▁브릿	-12085
▁았었	-12086
▁우연	-12087
▁위촉	-12088
▁카세	-12089
▁발전기	-12090
▁자서전	-12091
▁베르나르	-12092
게임	-12093
웍스	-12094
▁공안	-12095
▁사비	-12096
▁치하	-12097
▁퍼즐	-12098
▁end	-12099
▁위안부	-12100
▁프란시스코	-12101
▁김선	-12102
▁넥센	-12103
▁서주	-12104
▁조영	-12105
▁천마	-12106
▁추서	-12107
▁신주쿠	-12108
▁요하네스	-12109
▁수량	-12110
▁영암	-12111
▁은신	-12112
▁전세	-12113
▁정령	-12114
▁정재	-12115
▁차선	-12116
▁척도	-12117
▁출동	-12118
▁서사시	-12119
19	-12120
내리	-12121
▁네티	-12122
▁도상	-12123
▁청도	-12124
▁아케이드	-12125
걸이	-12126
▁고온	-12127
▁바울	-12128
▁김옥균	-12129
▁쿠웨이트	-12130
꼬리	-12131
amp	-12132
▁대청	-12133
▁슈테	-12134
▁자재	-12135
▁주심	-12136
▁피우	-12137
▁수요일	-12138
▁화장품	-12139
▁게끔	-12140
▁대덕	-12141
▁배역	-12142
▁페더	-12143
▁동맹국	-12144
▁흩어져	-12145
▁코스타리카	-12146
▁슌	-12147
▁배리	-12148
▁샤프	-12149
▁순차	-12150
▁축산	-12151
▁사이먼	-12152
디나비아	-12153
▁복음주의	-12154
▁스칸디나비아	-12155
공주	-12156
▁끝날	-12157
▁새긴	-12158
▁양대	-12159
▁톰슨	-12160
토리코	-12161
▁효고현	-12162
▁니콜라스	-12163
▁육군사관학교	-12164
▁colspan	-12165
독립	-12166
▁고이	-12167
▁김승	-12168
▁노아	-12169
▁상국	-12170
▁준장	-12171
▁함흥	-12172
▁놈	-12173
▁늪	-12174
▁리코	-12175
▁이아	-12176
▁직행	-12177
▁카툰	-12178
라이드	-12179
▁게오르크	-12180
OW	-12181
익스	-12182
gin	-12183
▁꾀하	-12184
▁데드	-12185
▁압록	-12186
▁위함	-12187
▁타로	-12188
▁피크	-12189
▁떠난다	-12190
▁포르노	-12191
▁NP	-12192
▁전락	-12193
▁주성	-12194
▁브뤼셀	-12195
▁텔레콤	-12196
▁마이크로	-12197
▁갯	-12198
우에	-12199
▁거지	-12200
▁결핵	-12201
▁모차	-12202
▁문종	-12203
▁첼로	-12204
▁후유	-12205
▁교육자	-12206
▁서해안	-12207
▁장로교	-12208
gr	-12209
▁박상	-12210
▁측량	-12211
▁헌터	-12212
▁부르고	-12213
▁시트콤	-12214
니파	-12215
▁by	-12216
▁긴밀	-12217
▁리튬	-12218
▁결과물	-12219
▁그만큼	-12220
▁데이브	-12221
▁컬렉션	-12222
▁에른스트	-12223
▁촐	-12224
▁대차	-12225
▁배양	-12226
▁전학	-12227
▁푸에르토리코	-12228
▁대종	-12229
▁소대	-12230
▁스킴	-12231
▁충무	-12232
▁페오	-12233
▁203	-12234
▁280	-12235
▁도자기	-12236
▁철저히	-12237
▁톡	-12238
▁레프	-12239
▁무언	-12240
▁문무	-12241
▁백악	-12242
▁서스	-12243
▁탈취	-12244
로이드	-12245
▁당할	-12246
▁재발	-12247
▁칭송	-12248
▁헤로	-12249
▁트리오	-12250
셀러	-12251
▁Am	-12252
▁관성	-12253
▁금동	-12254
▁정했	-12255
▁짐승	-12256
▁차츰	-12257
▁코네	-12258
▁학장	-12259
▁한번	-12260
▁IOC	-12261
▁글래스	-12262
▁유적지	-12263
▁천안시	-12264
▁1893	-12265
▁이탈리아어	-12266
les	-12267
▁AB	-12268
▁공양	-12269
▁내무	-12270
▁아흐	-12271
▁었었	-12272
▁유족	-12273
▁해왕	-12274
▁어웨이	-12275
▁가고시마	-12276
▁Fe	-12277
▁영천	-12278
▁스포르	-12279
▁펠릭스	-12280
업자	-12281
ung	-12282
▁김치	-12283
▁아드	-12284
▁우두	-12285
▁원활	-12286
▁폐렴	-12287
▁흡사	-12288
▁가라앉	-12289
▁윗부분	-12290
퍼레이션	-12291
▁함경북도	-12292
비크	-12293
▁격려	-12294
▁고집	-12295
▁선인	-12296
▁자진	-12297
▁조제	-12298
▁천천	-12299
▁보여준	-12300
▁지리학	-12301
▁플랑크	-12302
계승	-12303
세유	-12304
▁심포	-12305
▁민병대	-12306
▁유학자	-12307
▁높여	-12308
▁앤디	-12309
▁집착	-12310
▁나타날	-12311
▁노미야	-12312
▁비스타	-12313
▁생리학	-12314
몬트	-12315
▁흥분	-12316
▁발사체	-12317
▁아라곤	-12318
▁Comp	-12319
북구	-12320
상시	-12321
▁낚시	-12322
▁미성	-12323
▁온화	-12324
▁한큐	-12325
▁핏	-12326
티에	-12327
▁과시	-12328
▁관우	-12329
▁기쁨	-12330
▁이황	-12331
▁조니	-12332
▁TBS	-12333
▁로베르	-12334
▁천천히	-12335
▁초콜릿	-12336
IR	-12337
eth	-12338
▁le	-12339
▁반동	-12340
▁소사	-12341
▁심상	-12342
▁유영	-12343
▁특기	-12344
▁하타	-12345
▁논리학	-12346
▁데일리	-12347
▁동맹군	-12348
▁가했	-12349
▁톱니	-12350
▁하급	-12351
▁탄자니아	-12352
레드	-12353
▁높였	-12354
▁도출	-12355
▁마트	-12356
▁불사	-12357
▁녹색당	-12358
▁서바이	-12359
▁케이크	-12360
들러	-12361
▁도이	-12362
▁마타	-12363
▁막판	-12364
▁버러	-12365
▁숨기	-12366
▁애인	-12367
▁사상가	-12368
▁우울증	-12369
▁부르고뉴	-12370
▁갚	-12371
▁림프	-12372
▁심부	-12373
▁조롱	-12374
▁칼슘	-12375
▁공방전	-12376
▁해안가	-12377
나기	-12378
▁김천	-12379
▁전미	-12380
▁제철	-12381
▁한문	-12382
▁순양함	-12383
▁Rock	-12384
▁인공위성	-12385
oth	-12386
▁간직	-12387
▁구금	-12388
▁구독	-12389
▁기뻐	-12390
▁바비	-12391
▁버섯	-12392
▁취한	-12393
▁로스쿨	-12394
▁서초구	-12395
익스피어	-12396
▁후쿠오카현	-12397
▁구한	-12398
▁불경	-12399
▁아츠	-12400
▁위즈	-12401
▁주세	-12402
▁하이퍼	-12403
▁셰익스피어	-12404
▁귀속	-12405
▁까마	-12406
▁특사	-12407
▁Rec	-12408
▁기업가	-12409
▁수나라	-12410
▁왔으나	-12411
▁핼	-12412
▁대주	-12413
▁미아	-12414
▁에로	-12415
▁유포	-12416
▁점검	-12417
▁휴양	-12418
▁강화도	-12419
▁픽처스	-12420
▁명부	-12421
▁물결	-12422
▁보낼	-12423
▁고려대	-12424
▁도로는	-12425
▁도야마	-12426
▁서포터	-12427
▁프리스	-12428
▁에스페란토	-12429
태평	-12430
폭탄	-12431
▁IV	-12432
▁Su	-12433
▁당뇨	-12434
▁미츠	-12435
▁아메	-12436
▁에바	-12437
▁오하	-12438
▁장녀	-12439
▁청량	-12440
▁현판	-12441
▁성매매	-12442
▁도카이도	-12443
▁미나모토	-12444
▁플로리다주	-12445
▁Univers	-12446
▁견고	-12447
▁라즈	-12448
▁무단	-12449
▁소동	-12450
▁용품	-12451
▁침례	-12452
▁GNU	-12453
▁더블린	-12454
▁매끄러운	-12455
▁공법	-12456
▁과잉	-12457
▁상정	-12458
▁심문	-12459
▁위계	-12460
▁합하	-12461
▁황산	-12462
▁게오르	-12463
▁도르트	-12464
▁참모총장	-12465
▁구치	-12466
▁라흐	-12467
▁스런	-12468
▁Sup	-12469
▁국제선	-12470
▁다이빙	-12471
▁밝혀진	-12472
▁지켜보	-12473
▁가와사키	-12474
그마	-12475
▁가부	-12476
▁노랑	-12477
▁스투	-12478
▁월트	-12479
▁이우	-12480
▁풍습	-12481
▁다스렸	-12482
▁절도사	-12483
바리	-12484
▁명인	-12485
▁발자	-12486
▁악곡	-12487
▁철강	-12488
▁파편	-12489
▁휘말	-12490
로니아	-12491
민스터	-12492
▁다면서	-12493
▁러시아군	-12494
▁상관없이	-12495
▁중앙은행	-12496
국적	-12497
유사	-12498
트르	-12499
▁겹치	-12500
▁공시	-12501
▁에마	-12502
▁재차	-12503
▁230	-12504
▁펫	-12505
▁Do	-12506
▁노프	-12507
▁시속	-12508
▁이범	-12509
▁자립	-12510
▁불계승	-12511
▁조선왕	-12512
▁데스크톱	-12513
▁율리우스	-12514
헤드	-12515
▁나뭇	-12516
▁발목	-12517
▁연회	-12518
▁입헌	-12519
▁경계선	-12520
▁지바현	-12521
▁CG	-12522
▁강성	-12523
▁강진	-12524
▁대접	-12525
▁라가	-12526
▁산수	-12527
▁내린다	-12528
▁평안도	-12529
▁마르세유	-12530
▁뮐	-12531
▁슈타	-12532
▁웃음	-12533
▁직계	-12534
▁피사	-12535
▁가르시아	-12536
▁달라진다	-12537
연의	-12538
▁닉슨	-12539
▁제창	-12540
▁베르타	-12541
▁스탠리	-12542
▁박테리아	-12543
▁계량	-12544
▁끝냈	-12545
▁리차	-12546
▁무르	-12547
▁사변	-12548
▁아와	-12549
▁울릉	-12550
▁향기	-12551
▁서기관	-12552
▁차세대	-12553
▁1888	-12554
▁계보	-12555
▁모던	-12556
▁코사	-12557
▁USB	-12558
▁들어섰	-12559
▁카운트	-12560
▁펠리페	-12561
▁from	-12562
▁Sw	-12563
▁동종	-12564
▁코호	-12565
▁관현악	-12566
ublic	-12567
▁둘러싸인	-12568
▁프레임워크	-12569
둘기	-12570
자동	-12571
▁마요	-12572
▁미식	-12573
▁세레	-12574
▁유무	-12575
▁재앙	-12576
▁형용	-12577
미디어	-12578
▁로이드	-12579
▁세네갈	-12580
▁대중교통	-12581
▁볼티모어	-12582
▁펩	-12583
▁네모	-12584
▁데미	-12585
▁변종	-12586
▁소용	-12587
▁순례	-12588
▁주먹	-12589
▁청송	-12590
▁하임	-12591
▁쇠고기	-12592
▁이바라	-12593
▁활동가	-12594
연수	-12595
▁배기	-12596
▁원유	-12597
▁자코	-12598
▁카야	-12599
▁Car	-12600
▁세비야	-12601
▁수차례	-12602
▁스탠드	-12603
▁아브라	-12604
▁1892	-12605
▁푹	-12606
▁고스	-12607
▁복싱	-12608
▁사키	-12609
▁시우	-12610
▁장래	-12611
▁정진	-12612
▁취해	-12613
▁로빈슨	-12614
▁유전학	-12615
▁덱	-12616
철수	-12617
▁견디	-12618
▁붕어	-12619
▁사커	-12620
▁수력	-12621
▁시문	-12622
▁중고	-12623
▁문자열	-12624
▁소학교	-12625
▁케이트	-12626
▁허드슨	-12627
▁노스캐롤라이나	-12628
사태	-12629
▁메틸	-12630
▁애초	-12631
▁이봉	-12632
▁펠트	-12633
▁산스크	-12634
▁산스크리트	-12635
▁겟	-12636
▁납부	-12637
▁농축	-12638
▁서예	-12639
▁조현	-12640
▁우에스기	-12641
▁가면라이더	-12642
클라	-12643
▁라드	-12644
▁어의	-12645
▁옥타	-12646
▁하구	-12647
▁볼로냐	-12648
AE	-12649
AI	-12650
▁뱃	-12651
네트	-12652
보리	-12653
티노	-12654
▁죄수	-12655
▁터지	-12656
▁퇴위	-12657
▁고려사	-12658
▁사간원	-12659
▁애덤스	-12660
▁해결책	-12661
▁프린스턴	-12662
▁면모	-12663
▁이산	-12664
▁해병	-12665
▁다카라	-12666
▁덧붙였	-12667
▁레이디	-12668
▁보좌관	-12669
▁주니치	-12670
홍색	-12671
▁ar	-12672
▁반주	-12673
▁온건	-12674
▁교구장	-12675
ron	-12676
▁낙양	-12677
▁백자	-12678
▁새뮤	-12679
▁선양	-12680
▁게시판	-12681
▁대전차	-12682
▁사절단	-12683
▁후원자	-12684
▁굶	-12685
▁거룩	-12686
▁댓글	-12687
▁수하	-12688
▁재결	-12689
▁대공국	-12690
▁좌표계	-12691
▁1876	-12692
▁알렉산드로스	-12693
▁씻	-12694
라호	-12695
뮬러	-12696
▁과연	-12697
▁구문	-12698
▁너스	-12699
▁니켈	-12700
▁통폐	-12701
분열	-12702
▁단조	-12703
▁맥아	-12704
▁미미	-12705
▁일진	-12706
▁앤서니	-12707
쓰기	-12708
코르	-12709
큐어	-12710
▁경무	-12711
▁대금	-12712
▁레버	-12713
▁물류	-12714
▁부양	-12715
▁으리	-12716
▁임계	-12717
▁채색	-12718
▁카레	-12719
▁토이	-12720
▁북조선	-12721
▁용의자	-12722
▁SV	-12723
▁도제	-12724
▁산청	-12725
▁아디	-12726
▁약점	-12727
▁이니	-12728
▁포츠	-12729
▁스테판	-12730
광성	-12731
암리	-12732
▁구르	-12733
▁군관	-12734
▁긴키	-12735
▁신진	-12736
▁애슬	-12737
▁에반	-12738
▁초전	-12739
▁펀드	-12740
▁Gre	-12741
▁사단장	-12742
▁전주시	-12743
▁조나라	-12744
▁인플레이션	-12745
로쿠	-12746
▁본체	-12747
▁부류	-12748
▁송환	-12749
▁축성	-12750
▁바이어	-12751
▁올리버	-12752
▁토트넘	-12753
▁생모	-12754
▁파파	-12755
▁독립군	-12756
▁민영화	-12757
▁베이비	-12758
▁페미니	-12759
▁웨스트민스터	-12760
EST	-12761
▁깃털	-12762
▁당황	-12763
▁도약	-12764
▁두각	-12765
▁로브	-12766
▁박수	-12767
▁실각	-12768
▁완도	-12769
▁유능	-12770
▁전권	-12771
▁필하	-12772
▁경영학	-12773
▁금나라	-12774
▁브래드	-12775
▁장제스	-12776
▁1866	-12777
▁ML	-12778
▁마린	-12779
▁베일	-12780
▁알폰	-12781
▁유다	-12782
▁이호	-12783
▁조소	-12784
르타뉴	-12785
리카락	-12786
▁아무리	-12787
▁머리카락	-12788
▁브르타뉴	-12789
▁프리미엄	-12790
네임	-12791
▁wh	-12792
▁손녀	-12793
▁원상	-12794
▁저우	-12795
▁조개	-12796
▁코소보	-12797
▁집행유예	-12798
▁프란치스코	-12799
▁co	-12800
▁라시	-12801
▁앨리	-12802
▁중개	-12803
▁역사학	-12804
▁1886	-12805
▁구스타프	-12806
▁페르난도	-12807
▁베이시스트	-12808
ble	-12809
▁간혹	-12810
▁발의	-12811
▁제르	-12812
▁포탄	-12813
▁260	-12814
▁덩어리	-12815
▁장난감	-12816
▁통폐합	-12817
▁도미니카	-12818
우회	-12819
▁SH	-12820
▁거스	-12821
▁출혈	-12822
▁270	-12823
▁스테인	-12824
▁삼국지연의	-12825
ah	-12826
▁펭	-12827
▁도성	-12828
▁바시	-12829
▁스모	-12830
▁즐거	-12831
▁행방	-12832
▁베네딕토	-12833
▁KB	-12834
▁나름	-12835
▁엘런	-12836
▁퍼졌	-12837
▁으려는	-12838
른베르크	-12839
▁Tour	-12840
▁꽂	-12841
너드	-12842
▁광선	-12843
▁마나	-12844
▁비지	-12845
▁슬램	-12846
▁얼룩	-12847
▁작중	-12848
▁접해	-12849
▁차수	-12850
▁파커	-12851
▁이즈미	-12852
▁레트	-12853
▁번갈	-12854
▁성기	-12855
▁익명	-12856
▁합천	-12857
▁Wii	-12858
▁모나코	-12859
하임	-12860
▁무수	-12861
▁페스	-12862
▁프루	-12863
▁간사이	-12864
▁강서구	-12865
▁Dream	-12866
슈타	-12867
▁배척	-12868
▁아자	-12869
▁오산	-12870
▁천지	-12871
▁바로크	-12872
▁삼각주	-12873
▁카르타고	-12874
DA	-12875
▁세분	-12876
▁오지	-12877
▁유머	-12878
▁지면	-12879
▁촛불	-12880
▁펠로	-12881
▁사쓰마	-12882
▁새뮤얼	-12883
▁요금소	-12884
▁돌아다니	-12885
▁드미트리	-12886
▁모차르트	-12887
꿈치	-12888
▁구획	-12889
▁동창	-12890
▁라니	-12891
▁몰랐	-12892
▁박자	-12893
▁세무	-12894
▁습득	-12895
▁현과	-12896
▁보너스	-12897
▁장애물	-12898
▁1861	-12899
▁1887	-12900
▁마르쿠스	-12901
▁브리티시	-12902
레시	-12903
▁거칠	-12904
▁여타	-12905
▁피어	-12906
▁바람직	-12907
▁재단법인	-12908
비안	-12909
▁도하	-12910
▁산물	-12911
▁자판	-12912
▁당선자	-12913
▁축구팀	-12914
▁TC	-12915
▁Up	-12916
▁빅뱅	-12917
▁여건	-12918
▁지아	-12919
land	-12920
▁보살상	-12921
▁부분군	-12922
▁화요일	-12923
▁렙	-12924
린트	-12925
즐리	-12926
짜기	-12927
▁무자	-12928
▁외환	-12929
▁홍성	-12930
▁1850	-12931
▁Life	-12932
직경	-12933
▁마구	-12934
▁오대	-12935
▁위시	-12936
▁위패	-12937
▁직사	-12938
▁타구	-12939
▁컨텐츠	-12940
▁코스트	-12941
▁고창	-12942
▁오메	-12943
▁올레	-12944
▁자궁	-12945
▁환관	-12946
▁스테이	-12947
▁시직경	-12948
▁이어주	-12949
▁집정관	-12950
▁해석학	-12951
▁낭만주의	-12952
▁클레멘스	-12953
왕후	-12954
ult	-12955
▁RT	-12956
▁급히	-12957
▁배운	-12958
▁복위	-12959
▁요괴	-12960
▁포화	-12961
▁공연장	-12962
ition	-12963
▁남조	-12964
▁놓이	-12965
▁모닝	-12966
▁버크	-12967
▁완결	-12968
▁정예	-12969
▁토목	-12970
▁개정안	-12971
▁보안법	-12972
▁신세계	-12973
▁가로지르	-12974
▁싹	-12975
제비	-12976
▁강세	-12977
▁앵커	-12978
▁전과	-12979
▁편안	-12980
브리드	-12981
▁근거지	-12982
▁지나간다	-12983
▁헤라클레스	-12984
니오	-12985
동자	-12986
▁가닥	-12987
▁교지	-12988
▁부름	-12989
▁에두	-12990
▁접합	-12991
▁가해자	-12992
▁프로모션	-12993
▁AG	-12994
▁갖춰	-12995
▁사내	-12996
▁유타	-12997
▁자릿	-12998
▁증세	-12999
라호마	-13000
스코트	-13001
▁달아나	-13002
▁오클라호마	-13003
▁돗	-13004
코타	-13005
▁it	-13006
▁단거리	-13007
▁도라에몽	-13008
▁유니버스	-13009
열차	-13010
▁기밀	-13011
▁내포	-13012
▁몰두	-13013
▁수이	-13014
▁파직	-13015
▁알아내	-13016
▁홈경기	-13017
▁1864	-13018
▁동차	-13019
▁죽임	-13020
▁해냈	-13021
▁프랑코	-13022
▁오스트리	-13023
▁경건	-13024
▁모국	-13025
▁승단	-13026
▁음주	-13027
▁허블	-13028
▁홀딩	-13029
▁마을버스	-13030
▁하이브리드	-13031
▁뭐	-13032
디슨	-13033
orm	-13034
▁다행	-13035
▁불분	-13036
▁뛰어넘	-13037
▁아카이	-13038
▁재판부	-13039
▁황해도	-13040
▁후세인	-13041
아메리카	-13042
▁석가모니	-13043
▁깁	-13044
예술	-13045
▁리트	-13046
▁삭스	-13047
▁양현	-13048
▁장전	-13049
▁표절	-13050
솔리니	-13051
▁노동력	-13052
▁Open	-13053
▁스트리밍	-13054
EP	-13055
달마	-13056
▁나마	-13057
▁왕관	-13058
▁전교	-13059
▁추존	-13060
▁혼혈	-13061
▁네티즌	-13062
▁백악기	-13063
▁공판	-13064
▁광업	-13065
▁만점	-13066
▁발톱	-13067
▁암모	-13068
▁잔디	-13069
▁패권	-13070
▁평탄	-13071
▁도르트문트	-13072
▁쥘	-13073
콘신	-13074
▁라라	-13075
▁만날	-13076
▁워킹	-13077
▁치우	-13078
▁음악원	-13079
▁참의원	-13080
▁위스콘신	-13081
▁다카라즈카	-13082
▁가독	-13083
▁관용	-13084
▁오일	-13085
▁격투기	-13086
▁데이빗	-13087
▁카이로	-13088
타입	-13089
플린	-13090
▁Ed	-13091
▁근래	-13092
▁방공	-13093
▁예의	-13094
▁푸아	-13095
▁히토	-13096
▁재판관	-13097
▁주나라	-13098
▁미네소타	-13099
▁크리에이	-13100
▁쑨	-13101
▁뒤늦	-13102
▁백업	-13103
▁뷰티	-13104
▁승하	-13105
▁현미	-13106
▁내보내	-13107
▁사나이	-13108
▁생성물	-13109
해살이풀	-13110
▁남베트남	-13111
ational	-13112
▁캣	-13113
ION	-13114
▁눈치	-13115
▁섞여	-13116
▁아편	-13117
▁전리	-13118
▁쿼크	-13119
▁홈즈	-13120
라이어티	-13121
▁컴파일러	-13122
▁트레이닝	-13123
▁버라이어티	-13124
▁객원	-13125
▁관내	-13126
▁구례	-13127
▁말단	-13128
▁애완	-13129
▁침대	-13130
▁경매	-13131
▁러닝	-13132
▁관련자	-13133
▁1830	-13134
▁두려워하	-13135
ton	-13136
▁배트	-13137
▁스윙	-13138
▁이별	-13139
▁정황	-13140
▁조경	-13141
바도르	-13142
▁행정동	-13143
▁남송	-13144
▁리에	-13145
▁생도	-13146
▁이은	-13147
ject	-13148
▁무작위	-13149
▁인해서	-13150
브웨	-13151
▁도산	-13152
▁쓰루	-13153
▁청문	-13154
▁카와	-13155
▁필연	-13156
▁iOS	-13157
▁감리교	-13158
▁대표단	-13159
▁피닉스	-13160
▁1881	-13161
▁루스벨트	-13162
클럽	-13163
▁대강	-13164
▁루나	-13165
▁목욕	-13166
▁민물	-13167
▁응하	-13168
▁이누	-13169
▁잠실	-13170
▁짐바	-13171
▁평했	-13172
▁헌납	-13173
▁반대파	-13174
▁압록강	-13175
▁유전체	-13176
▁Music	-13177
▁군세	-13178
▁복직	-13179
▁세간	-13180
▁열려	-13181
▁왕성	-13182
▁처해	-13183
▁코난	-13184
▁황자	-13185
▁흘리	-13186
렌스	-13187
▁보정	-13188
▁승지	-13189
▁재벌	-13190
▁난이도	-13191
▁XP	-13192
▁선율	-13193
▁아다	-13194
▁오우	-13195
다오	-13196
ave	-13197
▁김희	-13198
▁등등	-13199
▁삼척	-13200
▁스몰	-13201
▁알맞	-13202
▁조심	-13203
▁기획사	-13204
▁대교구	-13205
▁모멘트	-13206
▁외무부	-13207
▁이메일	-13208
▁합창단	-13209
▁피츠버그	-13210
두르	-13211
▁en	-13212
▁if	-13213
▁마티	-13214
▁메츠	-13215
▁벌레	-13216
▁부실	-13217
▁산기	-13218
▁소라	-13219
▁스기	-13220
▁양조	-13221
▁까마귀	-13222
▁캐스트	-13223
▁킷	-13224
▁an	-13225
▁다비	-13226
▁매진	-13227
▁부전	-13228
▁의례	-13229
▁종업	-13230
▁농어촌	-13231
▁여학생	-13232
▁아이디얼	-13233
께끼	-13234
뛰기	-13235
화경	-13236
▁괘불	-13237
▁기고	-13238
▁기통	-13239
▁닛산	-13240
▁미상	-13241
▁태우	-13242
▁판관	-13243
▁헤일	-13244
▁끝난다	-13245
▁로맨틱	-13246
▁1872	-13247
▁날카로운	-13248
▁수수께끼	-13249
▁아타	-13250
▁익산	-13251
▁일지	-13252
▁쿠로	-13253
▁통지	-13254
▁파주	-13255
▁750	-13256
▁마르셀	-13257
▁아이콘	-13258
TE	-13259
▁모신	-13260
▁발포	-13261
▁상한	-13262
▁용사	-13263
▁흑백	-13264
▁라치오	-13265
▁대한항공	-13266
바인	-13267
▁경도	-13268
▁곱셈	-13269
▁레비	-13270
▁배아	-13271
▁갔으며	-13272
▁HTML	-13273
▁부르주아	-13274
▁BL	-13275
▁교제	-13276
▁북벌	-13277
▁야망	-13278
▁양면	-13279
▁콘티	-13280
▁롬바르	-13281
▁화성시	-13282
▁이시카와	-13283
▁쵸	-13284
덕왕	-13285
리드	-13286
▁그란	-13287
▁닌자	-13288
▁별장	-13289
▁신봉	-13290
▁여호	-13291
▁투하	-13292
▁트란	-13293
▁헤어	-13294
올로기	-13295
▁이데올로기	-13296
루크	-13297
▁꼬마	-13298
▁로니	-13299
▁배향	-13300
▁순항	-13301
▁지경	-13302
▁캐피	-13303
▁파열	-13304
▁슬로건	-13305
QL	-13306
평리	-13307
▁가곡	-13308
▁머니	-13309
▁뽑혔	-13310
▁진흙	-13311
▁취향	-13312
▁범죄자	-13313
▁참가국	-13314
러진	-13315
리야	-13316
ics	-13317
▁경량	-13318
▁곡면	-13319
▁금고	-13320
▁내재	-13321
▁당과	-13322
▁매스	-13323
▁원동	-13324
▁종묘	-13325
▁중랑	-13326
▁해킹	-13327
태평양	-13328
▁다비드	-13329
▁도망치	-13330
▁라이스	-13331
▁불분명	-13332
▁무솔리니	-13333
나파	-13334
▁레아	-13335
▁베풀	-13336
▁샤이	-13337
▁시원	-13338
▁죽여	-13339
리아스	-13340
▁부다페스트	-13341
▁엡	-13342
림사	-13343
▁국호	-13344
▁당진	-13345
▁묻혀	-13346
▁입시	-13347
▁파기	-13348
▁세르게이	-13349
느리	-13350
▁친밀	-13351
▁켄터	-13352
▁개체군	-13353
▁파충류	-13354
▁호크스	-13355
▁화학자	-13356
리쿠	-13357
비오	-13358
쿠니	-13359
▁Sm	-13360
▁교동	-13361
▁단국	-13362
▁발산	-13363
▁승상	-13364
▁이례	-13365
▁코뮌	-13366
▁선제골	-13367
▁센다이	-13368
▁세계유산	-13369
성경	-13370
▁"-	-13371
▁AL	-13372
▁Ab	-13373
▁te	-13374
▁가든	-13375
▁고모	-13376
▁반죽	-13377
▁브렌	-13378
▁의용	-13379
▁인위	-13380
▁팔작	-13381
슬라프	-13382
▁다시금	-13383
▁교통사고	-13384
데자	-13385
▁리브	-13386
▁복역	-13387
▁옹주	-13388
▁을사	-13389
▁페라	-13390
▁햇빛	-13391
▁Don	-13392
▁계승자	-13393
▁전해졌	-13394
데자네이	-13395
▁유라시아	-13396
▁두어	-13397
▁사나	-13398
▁열릴	-13399
▁조시	-13400
▁조장	-13401
▁클릭	-13402
▁탄산	-13403
▁구슬	-13404
▁모란	-13405
▁서지	-13406
▁섬기	-13407
▁어우	-13408
▁완비	-13409
▁주고	-13410
▁경복궁	-13411
▁청년회	-13412
워즈	-13413
▁몸돌	-13414
▁미칠	-13415
▁인제	-13416
▁정명	-13417
▁허목	-13418
▁챌린저	-13419
▁타임즈	-13420
▁코호몰로지	-13421
ru	-13422
번에	-13423
▁과다	-13424
▁병단	-13425
▁앞세	-13426
▁왓슨	-13427
▁걸린다	-13428
▁공통점	-13429
▁하얀색	-13430
▁샵	-13431
ode	-13432
▁대의	-13433
▁양궁	-13434
▁엘라	-13435
▁킹스	-13436
▁탐정	-13437
▁해시	-13438
▁폼페이	-13439
▁1865	-13440
더지	-13441
▁경마	-13442
▁도봉	-13443
▁박진	-13444
▁상파	-13445
▁슈고	-13446
▁오트	-13447
▁장쑤	-13448
▁직관	-13449
▁토로	-13450
▁티모	-13451
▁피카	-13452
변속기	-13453
▁승용차	-13454
▁였음을	-13455
▁초록색	-13456
▁1873	-13457
▁아비달마	-13458
ier	-13459
▁봉황	-13460
▁밀가루	-13461
▁탐험가	-13462
▁1863	-13463
▁거꾸	-13464
▁살짝	-13465
▁위법	-13466
▁처방	-13467
▁태아	-13468
▁국민회	-13469
▁박영효	-13470
▁안산시	-13471
▁유니언	-13472
▁마스코트	-13473
▁계좌	-13474
▁등단	-13475
▁머무	-13476
▁신대	-13477
▁열렬	-13478
▁이야	-13479
▁합금	-13480
▁휩싸	-13481
▁고성군	-13482
▁여진족	-13483
▁작품상	-13484
▁항아리	-13485
데자네이루	-13486
▁리우데자네이루	-13487
▁가두	-13488
▁감추	-13489
▁법전	-13490
▁어촌	-13491
▁작년	-13492
▁조공	-13493
▁피셔	-13494
▁세군다	-13495
▁제프리	-13496
▁오카야마	-13497
▁Night	-13498
매김	-13499
▁고난	-13500
▁대목	-13501
▁루즈	-13502
▁맡겼	-13503
▁반항	-13504
▁버펄	-13505
▁비싼	-13506
▁코마	-13507
▁포대	-13508
▁픽셀	-13509
▁그나마	-13510
▁시간대	-13511
지로	-13512
쿠르	-13513
ool	-13514
▁--	-13515
▁가비	-13516
▁납작	-13517
▁착취	-13518
▁충당	-13519
▁페인	-13520
▁무언가	-13521
▁발기인	-13522
▁이뤄진	-13523
UC	-13524
단위	-13525
▁단자	-13526
▁덴쇼	-13527
▁뒤따	-13528
▁리자	-13529
▁어선	-13530
▁외상	-13531
▁우간다	-13532
사화	-13533
▁NS	-13534
▁구강	-13535
▁쇼크	-13536
▁한창	-13537
stem	-13538
▁시티즌	-13539
▁와이드	-13540
▁지자체	-13541
▁1891	-13542
▁공군기지	-13543
친왕	-13544
▁경지	-13545
▁계엄	-13546
▁란스	-13547
▁모함	-13548
▁미인	-13549
▁잡히	-13550
▁적발	-13551
▁진이	-13552
▁철종	-13553
▁노르드	-13554
▁승정원	-13555
▁조선소	-13556
▁야쿠르트	-13557
미쓰	-13558
인구	-13559
▁야심	-13560
▁재고	-13561
▁혈압	-13562
부아르	-13563
▁공식전	-13564
▁앤드류	-13565
▁무로마치	-13566
NG	-13567
시대	-13568
훈장	-13569
▁도도	-13570
▁요즘	-13571
플렉스	-13572
▁IMF	-13573
▁몰도바	-13574
▁생화학	-13575
▁아닌가	-13576
▁자리매김	-13577
동맹	-13578
ise	-13579
▁걸작	-13580
▁볼넷	-13581
▁산책	-13582
▁입술	-13583
▁캐치	-13584
▁하스	-13585
▁현무	-13586
▁켄터키	-13587
바지	-13588
타스	-13589
▁PM	-13590
▁매도	-13591
▁매립	-13592
▁부추	-13593
▁촉발	-13594
▁다국적	-13595
▁제너럴	-13596
▁짐바브웨	-13597
▁MA	-13598
▁굴복	-13599
▁반점	-13600
▁카슈	-13601
▁Good	-13602
▁베스트셀러	-13603
▁괜	-13604
거나	-13605
▁AI	-13606
▁마모	-13607
▁유태	-13608
▁최장	-13609
▁키즈	-13610
이스케	-13611
▁다마스	-13612
▁두꺼운	-13613
▁따라가	-13614
▁해부학	-13615
참찬	-13616
che	-13617
▁과격	-13618
▁라크	-13619
▁스킬	-13620
▁에치	-13621
▁여대	-13622
▁자켓	-13623
▁ret	-13624
▁발가락	-13625
▁MM	-13626
▁나탈	-13627
▁무고	-13628
▁불로	-13629
▁시진	-13630
▁릴레이	-13631
▁백악관	-13632
▁종업원	-13633
▁삼국유사	-13634
▁꿰	-13635
▁세단	-13636
▁체내	-13637
▁제작진	-13638
▁크루즈	-13639
▁트로트	-13640
▁포항시	-13641
레반	-13642
▁연행	-13643
▁우마	-13644
▁후미	-13645
▁노르만	-13646
▁벗어난	-13647
▁수시로	-13648
▁테무르	-13649
레타리아	-13650
▁Black	-13651
▁온타리오주	-13652
▁프롤레타리아	-13653
▁샴	-13654
▁성가	-13655
▁오즈	-13656
▁주저	-13657
▁직교	-13658
▁진원	-13659
▁터빈	-13660
▁필두	-13661
▁두드러지	-13662
▁스테이트	-13663
▁극찬	-13664
▁반론	-13665
▁베라	-13666
▁소작	-13667
▁신의	-13668
▁위헌	-13669
▁증강	-13670
▁투신	-13671
▁튼튼	-13672
▁650	-13673
▁받침돌	-13674
▁자유형	-13675
▁콧	-13676
▁더러	-13677
▁부에	-13678
▁용감	-13679
▁조준	-13680
▁가리켜	-13681
70	-13682
▁믈	-13683
무제	-13684
▁교서	-13685
▁리키	-13686
▁분경	-13687
▁채굴	-13688
내티	-13689
세다	-13690
▁국부	-13691
▁네임	-13692
▁농성	-13693
▁당당	-13694
▁문정	-13695
▁병과	-13696
▁원한	-13697
▁Can	-13698
▁거꾸로	-13699
▁취리히	-13700
▁신시내티	-13701
▁조선왕조	-13702
상어	-13703
킨슨	-13704
▁노란	-13705
▁활자	-13706
▁흡연	-13707
합중국	-13708
▁김성수	-13709
▁타이탄	-13710
▁씬	-13711
▁걸프	-13712
▁사드	-13713
▁증발	-13714
▁헌병	-13715
ower	-13716
고르	-13717
티야	-13718
포타	-13719
▁qu	-13720
▁간판	-13721
▁나빠	-13722
▁내역	-13723
▁사교	-13724
▁서위	-13725
▁연화	-13726
▁연주회	-13727
▁하반기	-13728
▁이바라키	-13729
DS	-13730
ai	-13731
▁강호	-13732
▁무도	-13733
▁신해	-13734
▁양양	-13735
▁오보	-13736
▁이강	-13737
▁조어	-13738
▁반정부	-13739
▁자외선	-13740
▁팔작지붕	-13741
▁El	-13742
▁송진	-13743
▁앞둔	-13744
▁조석	-13745
▁파랑	-13746
▁횡령	-13747
타나베	-13748
▁550	-13749
▁연출가	-13750
으면	-13751
▁기묘	-13752
▁모반	-13753
▁수퍼	-13754
▁진언	-13755
▁숨겨진	-13756
▁스코어	-13757
▁용산구	-13758
포타미아	-13759
▁메소포타미아	-13760
펠러	-13761
▁광자	-13762
▁열쇠	-13763
▁캐논	-13764
▁타도	-13765
▁토록	-13766
▁황폐	-13767
선거구	-13768
▁엑스포	-13769
▁이성질	-13770
▁페르디난트	-13771
대전	-13772
ank	-13773
▁광배	-13774
▁기운	-13775
▁다닌	-13776
▁오름	-13777
▁장신	-13778
▁저축	-13779
▁커졌	-13780
▁행보	-13781
▁705	-13782
▁레인저	-13783
▁미카엘	-13784
▁q	-13785
단지	-13786
▁국력	-13787
▁군자	-13788
▁대담	-13789
▁사하	-13790
▁용해	-13791
▁전멸	-13792
▁접전	-13793
▁토유	-13794
▁입법부	-13795
▁플러그	-13796
▁1862	-13797
▁라이프치히	-13798
▁DR	-13799
▁Qu	-13800
▁루피	-13801
▁변증	-13802
▁산신	-13803
▁아델	-13804
▁양군	-13805
▁증식	-13806
▁처장	-13807
▁페드로	-13808
▁1867	-13809
▁section	-13810
정사	-13811
▁독주	-13812
▁연달	-13813
▁Let	-13814
▁사무국	-13815
센터	-13816
▁Ac	-13817
▁교훈	-13818
▁성수	-13819
▁심정	-13820
▁패해	-13821
세우스	-13822
▁MSL	-13823
▁앨버트	-13824
▁타타르	-13825
▁궐	-13826
진구	-13827
▁LS	-13828
▁길드	-13829
▁분별	-13830
▁이선	-13831
▁티저	-13832
▁현도	-13833
▁갈라져	-13834
▁거쳐서	-13835
▁경희대	-13836
▁부등식	-13837
▁언론사	-13838
▁아오모리	-13839
▁사이타마현	-13840
▁-&	-13841
▁UC	-13842
▁경은	-13843
▁노브	-13844
▁들리	-13845
▁스톰	-13846
▁예종	-13847
▁온두	-13848
▁저해	-13849
▁적정	-13850
▁푸드	-13851
드라마	-13852
▁변광성	-13853
▁사보이	-13854
▁6000	-13855
▁미합중국	-13856
▁온두라스	-13857
▁협동조합	-13858
▁챈	-13859
다발	-13860
▁서한	-13861
▁엇갈	-13862
▁조서	-13863
▁코모	-13864
ings	-13865
▁이브스	-13866
방군	-13867
비언	-13868
▁AU	-13869
▁객실	-13870
▁도발	-13871
▁모조	-13872
▁심소	-13873
▁옥시	-13874
▁유구	-13875
▁잔존	-13876
▁쿠라	-13877
▁히노	-13878
▁백과사전	-13879
▁이노우에	-13880
▁간결	-13881
▁나사	-13882
▁내란	-13883
▁키릴	-13884
▁미친다	-13885
▁알폰소	-13886
▁팍	-13887
디언	-13888
렐라	-13889
위치	-13890
▁고찰	-13891
▁하중	-13892
▁Ser	-13893
▁감염증	-13894
▁손잡이	-13895
▁움직일	-13896
활약	-13897
lar	-13898
▁당파	-13899
▁벵골	-13900
▁청각	-13901
▁체하	-13902
▁특별법	-13903
▁프로테	-13904
▁변모	-13905
▁보직	-13906
▁상선	-13907
▁완수	-13908
▁절약	-13909
▁폴라	-13910
▁갈라지	-13911
▁웨이브	-13912
▁제조사	-13913
▁종사자	-13914
▁탬	-13915
▁동탁	-13916
▁에겐	-13917
▁임하	-13918
▁지그	-13919
▁지문	-13920
▁해지	-13921
▁가르쳐	-13922
▁맹활약	-13923
▁증조부	-13924
▁국민학교	-13925
▁썩	-13926
▁동자	-13927
▁성품	-13928
▁수당	-13929
▁유망	-13930
▁지탱	-13931
▁회유	-13932
절도사	-13933
▁마그네	-13934
▁치료제	-13935
중추부사	-13936
▁비스마르크	-13937
루엔	-13938
▁꺼내	-13939
▁건륭제	-13940
▁페르미	-13941
▁플루토	-13942
▁신한은행	-13943
▁낡	-13944
▁됩	-13945
▁던졌	-13946
▁번개	-13947
▁잉크	-13948
▁충칭	-13949
▁일본식	-13950
▁편집장	-13951
젤로	-13952
▁괄호	-13953
▁교화	-13954
▁버진	-13955
▁엘레	-13956
▁유림	-13957
rist	-13958
▁And	-13959
▁인지도	-13960
▁지질학	-13961
ky	-13962
▁SO	-13963
▁가극	-13964
▁꽃잎	-13965
▁논하	-13966
▁새겼	-13967
▁아지	-13968
▁차림	-13969
▁처한	-13970
▁키로	-13971
가르트	-13972
▁대리석	-13973
▁댈러스	-13974
▁신기록	-13975
▁출입문	-13976
▁서거	-13977
▁자행	-13978
▁표출	-13979
▁필명	-13980
▁자릿수	-13981
▁컴파일	-13982
▁1878	-13983
▁고등학생	-13984
ee	-13985
▁삐	-13986
▁건널	-13987
▁꾸며	-13988
▁직물	-13989
▁충신	-13990
▁항생	-13991
▁행군	-13992
▁경쟁자	-13993
▁나치오	-13994
▁홀딩스	-13995
▁프라이즈	-13996
▁미나모토노	-13997
북면	-13998
▁구부	-13999
▁802	-14000
▁기원후	-14001
▁사대부	-14002
▁데카르트	-14003
▁스파이더	-14004
ta	-14005
끄러	-14006
니티	-14007
산부	-14008
할린	-14009
▁그럴	-14010
▁급성	-14011
▁보류	-14012
▁세토	-14013
▁영미	-14014
▁참수	-14015
▁현악	-14016
▁후드	-14017
▁라면서	-14018
▁저지른	-14019
▁행해졌	-14020
자원	-14021
▁각주	-14022
▁내림	-14023
▁라다	-14024
▁손님	-14025
▁옥천	-14026
▁용수	-14027
▁점진	-14028
▁중용	-14029
▁추축	-14030
▁무사히	-14031
tr	-14032
빌리	-14033
▁RC	-14034
▁국화	-14035
▁바쿠	-14036
▁수급	-14037
▁시르	-14038
▁지린	-14039
▁참패	-14040
▁텍스	-14041
에이고	-14042
플로러	-14043
▁샌디에이고	-14044
▁익스플로러	-14045
▁밋	-14046
▁Ag	-14047
▁박원	-14048
▁북대	-14049
▁서점	-14050
▁솔라	-14051
▁완만	-14052
▁유화	-14053
▁지체	-14054
▁취할	-14055
▁토라	-14056
▁외교부	-14057
▁프랑스와	-14058
퉁이	-14059
hem	-14060
▁PL	-14061
▁정박	-14062
▁줄일	-14063
▁콜드	-14064
▁부여군	-14065
▁수도회	-14066
▁세인트루이스	-14067
▁밧	-14068
구나	-14069
벤션	-14070
▁글렌	-14071
▁영사	-14072
▁일설	-14073
▁자부	-14074
▁잔해	-14075
▁피처	-14076
▁뉴기니	-14077
▁영유권	-14078
▁원자핵	-14079
▁포뮬러	-14080
▁프리츠	-14081
▁핵분열	-14082
▁명성황후	-14083
마디	-14084
정보	-14085
▁고국	-14086
▁과자	-14087
▁떠날	-14088
▁수레	-14089
▁습성	-14090
▁시역	-14091
▁추계	-14092
시아드	-14093
▁액세스	-14094
▁연예계	-14095
▁주고받	-14096
▁프라임	-14097
▁스케이트	-14098
▁요리토모	-14099
▁팻	-14100
르바	-14101
시게	-14102
일치	-14103
▁구아	-14104
▁국인	-14105
▁모티	-14106
▁부군	-14107
▁이끼	-14108
▁출국	-14109
▁헤더	-14110
▁형주	-14111
▁HMS	-14112
▁베르나	-14113
▁일리노이주	-14114
▁유니버시아드	-14115
▁강우	-14116
▁봉하	-14117
▁소피	-14118
▁저그	-14119
▁기동전	-14120
▁아이젠	-14121
▁쿠르드	-14122
▁키르기스	-14123
▁버티	-14124
▁부관	-14125
▁생길	-14126
▁아뢰	-14127
▁축일	-14128
▁불가피	-14129
▁수비대	-14130
▁유엔군	-14131
▁인코딩	-14132
테이	-14133
▁근방	-14134
▁다량	-14135
▁무비	-14136
▁스에	-14137
▁육식	-14138
▁의정	-14139
▁쿼터	-14140
▁패킷	-14141
뉴기니	-14142
▁봉우리	-14143
▁후지와라	-14144
누마	-14145
▁기조	-14146
▁매슈	-14147
▁반입	-14148
▁수증	-14149
▁일선	-14150
▁516	-14151
▁며느리	-14152
▁와세다	-14153
▁운동량	-14154
사우루스	-14155
▁1869	-14156
▁글로브상	-14157
▁와타나베	-14158
▁코퍼레이션	-14159
▁넘버	-14160
▁부두	-14161
▁애기	-14162
▁추후	-14163
▁헤겔	-14164
▁골짜기	-14165
▁방위군	-14166
▁아우구스	-14167
▁tr	-14168
▁가방	-14169
▁개기	-14170
▁거사	-14171
▁면직	-14172
▁상의	-14173
▁집어	-14174
▁포천	-14175
▁업로드	-14176
▁줄어든	-14177
▁패스트	-14178
▁레지스터	-14179
▁힐베르트	-14180
곡면	-14181
▁그물	-14182
▁길러	-14183
▁닉스	-14184
▁대타	-14185
▁로시	-14186
▁몸체	-14187
▁무색	-14188
▁사소	-14189
▁시시	-14190
▁처치	-14191
▁치사	-14192
▁토키	-14193
스타인	-14194
▁마포구	-14195
▁1840	-14196
BI	-14197
노르	-14198
뜨려	-14199
▁교파	-14200
▁귀인	-14201
▁넘겼	-14202
▁변질	-14203
▁이목	-14204
▁컴필	-14205
▁퀴즈	-14206
▁패망	-14207
▁포탑	-14208
▁다가오	-14209
▁변한다	-14210
▁사이언스	-14211
▁컴필레이션	-14212
▁랙	-14213
▁목동	-14214
▁초음	-14215
▁출세	-14216
▁컵스	-14217
▁팔린	-14218
셔주	-14219
▁부풀	-14220
▁오자	-14221
▁자정	-14222
▁포자	-14223
▁Song	-14224
▁매킨토시	-14225
▁둠	-14226
질렀	-14227
▁민심	-14228
▁청취	-14229
▁칭했	-14230
▁됩니다	-14231
▁오스카	-14232
블릿	-14233
작전	-14234
탄두	-14235
▁공상	-14236
▁디나	-14237
▁사부	-14238
▁내세웠	-14239
▁네이트	-14240
▁에이전트	-14241
▁낯	-14242
▁벳	-14243
▁다목	-14244
▁숙소	-14245
▁하라	-14246
▁하수	-14247
▁휘발	-14248
▁금강산	-14249
▁시니어	-14250
▁치료법	-14251
▁아나키스트	-14252
암사	-14253
티컷	-14254
▁단역	-14255
▁벤츠	-14256
▁상식	-14257
▁입출	-14258
▁1592	-14259
▁친선경기	-14260
▁코네티컷	-14261
선언	-14262
▁AA	-14263
▁VS	-14264
▁고제	-14265
▁단서	-14266
▁멋진	-14267
▁빈민	-14268
▁쌍성	-14269
▁에트	-14270
▁위도	-14271
▁절친	-14272
▁천상	-14273
ount	-14274
▁바닷물	-14275
▁보유자	-14276
▁여객기	-14277
pr	-14278
효소	-14279
ade	-14280
▁KN	-14281
▁린다	-14282
▁베오	-14283
▁소박	-14284
▁자처	-14285
▁강력히	-14286
▁사라져	-14287
▁스트림	-14288
▁안동시	-14289
▁예언자	-14290
▁장로회	-14291
▁채권자	-14292
크라테스	-14293
ata	-14294
per	-14295
▁Pe	-14296
▁논산	-14297
▁렉스	-14298
▁스택	-14299
▁자질	-14300
▁자취	-14301
▁리차드	-14302
▁목적지	-14303
▁팔꿈치	-14304
수염	-14305
▁고을	-14306
▁국세	-14307
▁그랬	-14308
▁다닐	-14309
▁빅터	-14310
▁사귀	-14311
▁캐슬	-14312
▁Mon	-14313
▁밝혀져	-14314
▁운전자	-14315
▁적십자	-14316
▁파시스트	-14317
▁크리스티나	-14318
IF	-14319
▁끔	-14320
구스	-14321
날레	-14322
▁겨루	-14323
▁금색	-14324
▁냐고	-14325
▁미학	-14326
▁바인	-14327
▁블러	-14328
▁유자	-14329
▁지하역	-14330
조사	-14331
▁날려	-14332
▁마레	-14333
▁변혁	-14334
▁온실	-14335
▁이거	-14336
▁튜브	-14337
▁피살	-14338
▁고등교육	-14339
▁남아시아	-14340
▁괜찮	-14341
▁암수	-14342
▁영수	-14343
▁오마	-14344
▁의복	-14345
▁입히	-14346
▁자루	-14347
▁철자	-14348
▁풀리	-14349
▁호그	-14350
▁글러브	-14351
▁병자호란	-14352
수단	-14353
찬성	-14354
ium	-14355
▁me	-14356
▁강인	-14357
▁병풍	-14358
▁유골	-14359
▁인승	-14360
▁텐서	-14361
▁도망쳤	-14362
▁로타르	-14363
▁세미나	-14364
▁이랜드	-14365
▁볶	-14366
▁계룡	-14367
▁슈투	-14368
▁최하	-14369
▁맥아더	-14370
▁어도비	-14371
▁Windows	-14372
90	-14373
IX	-14374
보당	-14375
▁성대	-14376
▁어사	-14377
▁준동	-14378
▁탁구	-14379
▁KTX	-14380
▁관심사	-14381
▁창립자	-14382
▁피의자	-14383
▁근본번뇌	-14384
▁로드리게스	-14385
전선	-14386
▁Gl	-14387
▁기행	-14388
▁란트	-14389
▁수만	-14390
▁악명	-14391
▁양파	-14392
▁여포	-14393
▁유이	-14394
▁직렬	-14395
▁내려와	-14396
▁테크놀	-14397
▁필사본	-14398
▁모자이크	-14399
▁Heart	-14400
▁백조	-14401
▁아어	-14402
▁중일	-14403
▁환율	-14404
이치로	-14405
▁끌어올	-14406
▁파주시	-14407
▁심리학자	-14408
▁아나톨리아	-14409
▁거창	-14410
▁염화	-14411
▁워스	-14412
▁웍스	-14413
▁이카	-14414
▁구단주	-14415
▁여우원숭이	-14416
날드	-14417
▁규율	-14418
▁농가	-14419
▁다쓰	-14420
▁볼록	-14421
▁오도	-14422
▁의주	-14423
▁임종	-14424
▁펼친	-14425
▁과반수	-14426
▁차가운	-14427
▁클리어	-14428
세르	-14429
욕장	-14430
▁니케	-14431
▁독살	-14432
▁바보	-14433
▁비키	-14434
▁삭감	-14435
▁상동	-14436
▁지요	-14437
▁흥원	-14438
▁머물러	-14439
▁비둘기	-14440
▁뉘른베르크	-14441
넌트	-14442
던트	-14443
로움	-14444
▁ab	-14445
▁동호	-14446
▁사주	-14447
▁시찰	-14448
▁실사	-14449
▁아쉬	-14450
▁연해	-14451
▁예식	-14452
▁친화	-14453
▁해트	-14454
▁형용사	-14455
▁히타치	-14456
▁8000	-14457
▁그린란드	-14458
▁지장보살	-14459
▁return	-14460
ae	-14461
▁김연	-14462
▁뉴런	-14463
▁능가	-14464
▁라프	-14465
▁셔틀	-14466
▁실상	-14467
▁윤휴	-14468
▁개그맨	-14469
▁리스본	-14470
▁보호법	-14471
▁종착역	-14472
▁찾아와	-14473
▁크메르	-14474
▁펜실베이니아주	-14475
테랑	-14476
히데	-14477
히메	-14478
ale	-14479
▁Aw	-14480
▁겸직	-14481
▁루도	-14482
▁문체	-14483
▁발착	-14484
▁설리	-14485
▁연중	-14486
▁외면	-14487
▁이심	-14488
▁정오	-14489
▁중견	-14490
▁질투	-14491
▁정해져	-14492
▁준다는	-14493
▁와카야마	-14494
링겐	-14495
▁강습	-14496
▁늘려	-14497
▁문중	-14498
▁상과	-14499
▁원문	-14500
▁친한	-14501
▁380	-14502
▁성폭행	-14503
▁지나친	-14504
▁떨어진다	-14505
기아	-14506
▁디바	-14507
▁사와	-14508
▁에리	-14509
▁오시	-14510
▁외척	-14511
▁위크	-14512
▁페레	-14513
▁한민	-14514
▁내세워	-14515
▁1875	-14516
▁권익	-14517
▁조비	-14518
▁침식	-14519
▁담당자	-14520
▁안창호	-14521
▁집단군	-14522
▁친환경	-14523
▁헤르만	-14524
사유	-14525
▁걸음	-14526
▁방울	-14527
▁사각	-14528
▁서약	-14529
▁잠입	-14530
▁키리	-14531
▁타나	-14532
▁호른	-14533
▁영등포구	-14534
구니	-14535
기즈	-14536
▁As	-14537
▁기한	-14538
▁숙련	-14539
▁왜군	-14540
▁차명	-14541
▁포인	-14542
▁신석기	-14543
▁바빌로니아	-14544
▁유카	-14545
▁콜린	-14546
▁키드	-14547
레이트	-14548
▁Gen	-14549
▁가환환	-14550
▁시미즈	-14551
▁올라오	-14552
▁토요타	-14553
▁한다며	-14554
▁알프레드	-14555
▁랠	-14556
놀드	-14557
세서	-14558
▁기린	-14559
▁다자	-14560
▁불복	-14561
▁원단	-14562
▁은밀	-14563
▁재보	-14564
▁Out	-14565
▁대항전	-14566
▁사이즈	-14567
▁예비역	-14568
▁학술지	-14569
계사	-14570
▁DB	-14571
▁도적	-14572
▁막강	-14573
▁몹시	-14574
▁열세	-14575
▁율법	-14576
▁징집	-14577
▁특공	-14578
▁강대국	-14579
▁스피커	-14580
▁이와테	-14581
▁진주시	-14582
PA	-14583
방향	-14584
▁결말	-14585
▁다룰	-14586
▁로사	-14587
▁미지	-14588
▁불려	-14589
▁AMD	-14590
▁데이트	-14591
▁레스터	-14592
▁스케치	-14593
▁크라운	-14594
▁회고록	-14595
▁노현	-14596
▁면담	-14597
▁변해	-14598
▁생원	-14599
▁선상	-14600
▁어부	-14601
▁착각	-14602
▁혼잡	-14603
▁고문서	-14604
▁나리타	-14605
▁보리스	-14606
▁컨벤션	-14607
▁항공대	-14608
son	-14609
▁기판	-14610
▁선체	-14611
▁인먼	-14612
▁표제	-14613
▁게임기	-14614
▁다이쇼	-14615
▁돌고래	-14616
▁파스칼	-14617
▁풀려났	-14618
▁목장	-14619
▁비료	-14620
▁엔젤	-14621
▁이씨	-14622
▁이희	-14623
세데스	-14624
▁매디슨	-14625
▁열역학	-14626
▁테오도	-14627
▁포르투갈어	-14628
▁싯	-14629
itt	-14630
▁TS	-14631
▁sh	-14632
▁명상	-14633
▁바늘	-14634
▁절충	-14635
▁정칙	-14636
▁집전	-14637
▁첩보	-14638
▁출품	-14639
▁폐허	-14640
루엔자	-14641
▁스케줄	-14642
▁칭기즈	-14643
▁코트디	-14644
▁표트르	-14645
▁메르세데스	-14646
▁코트디부아르	-14647
르카	-14648
이에	-14649
▁김두	-14650
▁리크	-14651
▁애착	-14652
▁야수	-14653
▁여럿	-14654
▁예프	-14655
▁일명	-14656
▁최남	-14657
▁태안	-14658
▁통신망	-14659
▁몽고메리	-14660
▁벙	-14661
▁실명	-14662
▁파라오	-14663
UN	-14664
더링	-14665
두사	-14666
행파	-14667
▁슬리	-14668
▁이길	-14669
▁칸트	-14670
▁터너	-14671
▁슈타인	-14672
▁아세틸	-14673
▁중앙선	-14674
▁페널티킥	-14675
▁안드로메다	-14676
▁구루	-14677
▁노원	-14678
▁버트	-14679
▁아노	-14680
▁안중	-14681
▁취직	-14682
▁베르트	-14683
▁일부러	-14684
▁땀	-14685
▁결전	-14686
▁니까	-14687
▁모피	-14688
▁문관	-14689
▁순식	-14690
▁야권	-14691
▁의성	-14692
▁일차	-14693
그래피	-14694
▁쇼핑몰	-14695
▁함경도	-14696
▁남양주시	-14697
▁쇼트트랙	-14698
▁오프라인	-14699
부대	-14700
▁단양	-14701
▁박재	-14702
▁안식	-14703
▁용지	-14704
▁맥스웰	-14705
▁통도사	-14706
▁합성어	-14707
▁브란덴부르크	-14708
세키	-14709
▁격하	-14710
▁구시	-14711
▁극소	-14712
▁날리	-14713
▁달콤	-14714
▁묘호	-14715
▁술라	-14716
▁월화	-14717
▁자장	-14718
▁타쿠	-14719
▁토피	-14720
▁강희제	-14721
▁부적절	-14722
▁장갑차	-14723
▁타일러	-14724
VA	-14725
▁뵈	-14726
화당	-14727
▁금정	-14728
▁등산	-14729
▁레몬	-14730
▁로큰	-14731
▁배당	-14732
▁배반	-14733
▁서클	-14734
▁성행	-14735
▁수은	-14736
▁에레	-14737
록대부	-14738
able	-14739
▁DOS	-14740
▁송파구	-14741
▁아리랑	-14742
▁이사벨	-14743
▁클레어	-14744
▁프론트	-14745
알라	-14746
은사	-14747
임새	-14748
ody	-14749
▁WC	-14750
▁거시	-14751
▁기마	-14752
▁로바	-14753
▁에코	-14754
▁원효	-14755
▁Vol	-14756
엽수	-14757
▁KO	-14758
▁생쥐	-14759
▁체로	-14760
▁향신	-14761
▁235	-14762
▁선거인	-14763
▁채무자	-14764
▁인플루엔자	-14765
13	-14766
어류	-14767
▁교관	-14768
▁서당	-14769
▁싫어	-14770
▁영락	-14771
▁지치	-14772
▁돌아갈	-14773
모음	-14774
시험	-14775
▁동거	-14776
▁방호	-14777
▁쏟아	-14778
▁왕래	-14779
▁장정	-14780
▁치킨	-14781
▁활기	-14782
▁Par	-14783
▁로큰롤	-14784
▁북극점	-14785
▁상반기	-14786
▁야마다	-14787
▁텅	-14788
▁구타	-14789
▁보우	-14790
▁양지	-14791
▁정언	-14792
▁출격	-14793
▁획기	-14794
해방군	-14795
▁광둥성	-14796
▁꽃차례	-14797
▁동아리	-14798
▁자격증	-14799
▁인민해방군	-14800
▁샷	-14801
박사	-14802
▁경의	-14803
▁구세	-14804
▁규약	-14805
▁기공	-14806
▁끼친	-14807
▁라울	-14808
▁박용	-14809
▁위트	-14810
▁이질	-14811
▁잉카	-14812
▁초회	-14813
▁콘스	-14814
▁캐스터	-14815
우주	-14816
▁라벨	-14817
▁무능	-14818
▁세일	-14819
▁수역	-14820
▁스펜	-14821
▁웨어	-14822
▁키트	-14823
▁연속극	-14824
▁정치국	-14825
▁카디널	-14826
ng	-14827
건설	-14828
몽골	-14829
▁가세	-14830
▁골라	-14831
▁메모	-14832
▁모체	-14833
▁문수	-14834
▁시제	-14835
▁헤센	-14836
▁"()	-14837
▁달린다	-14838
▁로버츠	-14839
▁바나나	-14840
▁통계청	-14841
▁저널리스트	-14842
벌리	-14843
윽고	-14844
▁IR	-14845
▁이홍	-14846
▁되풀이	-14847
▁이윽고	-14848
스코리아	-14849
루즈	-14850
▁가모	-14851
▁실렸	-14852
▁이달	-14853
올리언	-14854
▁중앙아메리카	-14855
▁맴	-14856
르산	-14857
▁가명	-14858
▁경순	-14859
▁기미	-14860
▁망치	-14861
▁샤르	-14862
▁실은	-14863
▁월남	-14864
▁찌르	-14865
▁케리	-14866
▁205	-14867
▁반감기	-14868
▁스케일	-14869
▁최성기	-14870
▁흔들리	-14871
▁라이베리아	-14872
▁보컬리스트	-14873
▁경종	-14874
▁대류	-14875
▁모사	-14876
▁법규	-14877
▁보그	-14878
▁수마	-14879
▁안톤	-14880
▁야코	-14881
▁집사	-14882
▁비단털	-14883
▁사학자	-14884
▁펼쳐져	-14885
▁콜럼버스	-14886
▁탭	-14887
데기	-14888
촌리	-14889
▁거머	-14890
▁동군	-14891
▁상계	-14892
▁열악	-14893
▁패치	-14894
▁가이아	-14895
▁됐으나	-14896
▁보조금	-14897
▁순식간	-14898
▁비단털쥐	-14899
▁엑스박스	-14900
▁아우구스투스	-14901
18	-14902
쿠사	-14903
IVE	-14904
▁노라	-14905
▁래리	-14906
▁베티	-14907
▁빌드	-14908
▁양서	-14909
▁염두	-14910
▁정승	-14911
▁조봉	-14912
▁출사	-14913
▁타시	-14914
진보당	-14915
▁관음보살	-14916
▁University	-14917
▁배워	-14918
▁병렬	-14919
▁석기	-14920
▁외할	-14921
▁은폐	-14922
▁자키	-14923
▁전조	-14924
▁정에	-14925
▁젤리	-14926
▁후루	-14927
▁708	-14928
▁NBC	-14929
▁데뷔작	-14930
▁뉴올리언	-14931
▁유가행파	-14932
양이	-14933
연구	-14934
주크	-14935
▁At	-14936
▁금환	-14937
▁나쁘	-14938
▁데일	-14939
▁실효	-14940
▁아연	-14941
▁재화	-14942
▁정글	-14943
▁초계	-14944
▁한겨	-14945
very	-14946
▁대수학	-14947
▁썼으며	-14948
▁브로드웨이	-14949
▁조선공산당	-14950
▁AE	-14951
▁라플	-14952
▁미첼	-14953
▁사미	-14954
▁숙박	-14955
▁시의	-14956
▁싱크	-14957
▁안기	-14958
▁안심	-14959
▁양극	-14960
▁이룰	-14961
▁자위	-14962
▁젠더	-14963
▁ATC	-14964
▁사할린	-14965
▁슈미트	-14966
▁Hell	-14967
▁뤄	-14968
보내	-14969
텐셜	-14970
▁JC	-14971
▁군복	-14972
▁묶여	-14973
▁바니	-14974
▁변천	-14975
▁신병	-14976
▁아끼	-14977
▁폐교	-14978
▁시그마	-14979
▁콘라트	-14980
▁터뜨리	-14981
▁서비스업	-14982
▁스틸러스	-14983
▁지하철역	-14984
보라	-14985
▁경화	-14986
▁근세	-14987
▁차오	-14988
▁축복	-14989
▁교육감	-14990
▁청문회	-14991
▁호흡기	-14992
▁잼	-14993
▁뮐러	-14994
▁복부	-14995
▁에노	-14996
▁당뇨병	-14997
▁무지개	-14998
▁슈퍼스타	-14999
사와	-15000
에쓰	-15001
▁가뭄	-15002
▁균일	-15003
▁세스	-15004
▁시성	-15005
▁악당	-15006
▁안팎	-15007
▁외손	-15008
▁족장	-15009
▁포니	-15010
▁품목	-15011
▁가요제	-15012
▁빼앗기	-15013
▁퍼텐셜	-15014
▁그레이엄	-15015
▁셴	-15016
▁썰	-15017
▁퀄	-15018
anc	-15019
▁cc	-15020
▁기스	-15021
▁나기	-15022
▁불쾌	-15023
▁에볼	-15024
▁옥사	-15025
▁잉여	-15026
▁카로	-15027
▁칼륨	-15028
▁해질	-15029
▁후이	-15030
▁간호사	-15031
▁서스펜	-15032
▁오르간	-15033
▁오릭스	-15034
▁못했으며	-15035
▁단발	-15036
▁리시	-15037
▁불태	-15038
▁서안	-15039
▁애드	-15040
▁읍성	-15041
▁치마	-15042
▁확충	-15043
▁김해시	-15044
▁시마즈	-15045
▁테두리	-15046
▁name	-15047
열대	-15048
net	-15049
▁골절	-15050
▁노카	-15051
▁라지	-15052
▁비옥	-15053
▁손목	-15054
▁올릴	-15055
▁잔혹	-15056
▁코바	-15057
▁한복	-15058
▁호로	-15059
▁물려주	-15060
▁성폭력	-15061
라르	-15062
변수	-15063
▁마흐	-15064
▁빨라	-15065
▁소양	-15066
▁유충	-15067
▁일주	-15068
▁풀백	-15069
폴리탄	-15070
▁거주자	-15071
▁신호장	-15072
▁조각상	-15073
▁로베르토	-15074
▁메트로폴리탄	-15075
▁뜰	-15076
▁가온	-15077
▁고층	-15078
▁남단	-15079
▁낭비	-15080
▁무가	-15081
▁스펙	-15082
▁화원	-15083
▁다녀왔	-15084
▁전시관	-15085
14	-15086
▁맡겨	-15087
▁발작	-15088
▁베크	-15089
▁외삼	-15090
▁일간	-15091
▁창구	-15092
▁하산	-15093
▁사무관	-15094
▁조각가	-15095
▁한겨레	-15096
▁1874	-15097
▁가졌으며	-15098
▁우두머리	-15099
▁일렉트릭	-15100
▁나한	-15101
▁놓치	-15102
▁산문	-15103
▁소론	-15104
▁솜씨	-15105
▁우표	-15106
▁줄곧	-15107
▁통솔	-15108
▁향수	-15109
▁화승	-15110
▁tvN	-15111
▁반대편	-15112
▁안양시	-15113
▁유명세	-15114
▁핸드볼	-15115
▁바이마르	-15116
▁오아시스	-15117
so	-15118
황색	-15119
▁sp	-15120
▁리나	-15121
▁양평	-15122
▁예제	-15123
▁중남	-15124
▁침범	-15125
▁코로	-15126
스크림	-15127
▁라스트	-15128
▁전해져	-15129
▁This	-15130
▁벚	-15131
민당	-15132
악산	-15133
▁동백	-15134
▁리타	-15135
▁무예	-15136
▁버니	-15137
▁사중	-15138
▁종가	-15139
▁쳐서	-15140
▁키타	-15141
▁학당	-15142
▁출판물	-15143
▁콘퍼런스	-15144
me	-15145
▁멱	-15146
바드	-15147
범죄	-15148
신저	-15149
ATO	-15150
▁강좌	-15151
▁도형	-15152
▁안겨	-15153
▁칠성	-15154
▁코크	-15155
▁화음	-15156
▁남극점	-15157
▁셀주크	-15158
▁손꼽히	-15159
▁트레일	-15160
▁미스코리아	-15161
▁알렉산데르	-15162
큐슈	-15163
▁SR	-15164
▁몰수	-15165
▁볼드	-15166
▁산조	-15167
▁싸울	-15168
▁요직	-15169
▁일삼	-15170
▁잔여	-15171
▁적법	-15172
▁총영	-15173
▁로페스	-15174
▁천도교	-15175
▁컨퍼런스	-15176
▁클러스터	-15177
소문	-15178
▁강국	-15179
▁뉴멕	-15180
▁델리	-15181
▁요가	-15182
▁조동	-15183
▁쫓아	-15184
▁쿠마	-15185
▁행선	-15186
▁재미있	-15187
▁컨설팅	-15188
▁해준다	-15189
▁가로질러	-15190
▁뉴멕시코	-15191
▁파푸아뉴기니	-15192
au	-15193
계약	-15194
데일	-15195
프랑	-15196
피크	-15197
ala	-15198
▁발판	-15199
▁부엌	-15200
▁이문	-15201
▁인성	-15202
▁자성	-15203
▁재회	-15204
▁클랜	-15205
▁교육학	-15206
▁시달렸	-15207
▁포식자	-15208
▁핵탄두	-15209
▁휴대폰	-15210
▁바그다드	-15211
▁멀티미디어	-15212
스퍼	-15213
▁내릴	-15214
▁마늘	-15215
▁이색	-15216
▁인스	-15217
▁하지	-15218
▁협곡	-15219
▁홍익	-15220
▁비잔틴	-15221
▁갈릴레오	-15222
▁유니코드	-15223
▁나일	-15224
▁석권	-15225
야누스	-15226
▁공주시	-15227
▁플루토늄	-15228
15	-15229
일기	-15230
▁다쿠	-15231
▁송이	-15232
▁우니	-15233
▁의제	-15234
▁탄수	-15235
▁퇴진	-15236
▁Dra	-15237
▁게임즈	-15238
▁공학자	-15239
▁저스틴	-15240
▁책임지	-15241
▁호소카와	-15242
GB	-15243
ax	-15244
네르	-15245
oid	-15246
▁AF	-15247
▁YG	-15248
▁떨쳤	-15249
▁모치	-15250
▁소인	-15251
▁에페	-15252
▁화염	-15253
▁회차	-15254
▁204	-15255
▁CIA	-15256
▁부르봉	-15257
▁아놀드	-15258
▁지리산	-15259
▁항공편	-15260
▁후쿠이	-15261
▁트라야누스	-15262
▁감축	-15263
▁레나	-15264
▁엄지	-15265
▁판명	-15266
▁에스컬	-15267
▁서아프리카	-15268
▁에스컬레이터	-15269
비에	-15270
징어	-15271
▁GR	-15272
▁넷플	-15273
▁되살	-15274
▁맞물	-15275
▁선단	-15276
▁전범	-15277
▁주군	-15278
▁동남쪽	-15279
▁외계인	-15280
▁허베이	-15281
▁넷플릭스	-15282
ash	-15283
▁격전	-15284
▁공문	-15285
▁과세	-15286
▁무주	-15287
▁미겔	-15288
▁받치	-15289
▁변론	-15290
▁싸운	-15291
▁코린	-15292
▁사하라	-15293
▁1877	-15294
▁바야	-15295
▁블랑	-15296
▁소주	-15297
▁쓰일	-15298
▁앨라	-15299
▁예금	-15300
▁예멘	-15301
▁캠벨	-15302
▁Bab	-15303
▁개화파	-15304
▁스타드	-15305
▁올라와	-15306
▁클로드	-15307
▁레닌주의	-15308
yn	-15309
▁쿰	-15310
혈구	-15311
▁문물	-15312
▁복속	-15313
▁지크	-15314
▁프레슬리	-15315
▁띈	-15316
더릭	-15317
▁경내	-15318
▁보어	-15319
▁승낙	-15320
▁재물	-15321
▁제비	-15322
▁템플	-15323
▁퇴치	-15324
▁아우르	-15325
▁앞바다	-15326
▁한국군	-15327
▁현미경	-15328
▁Best	-15329
HC	-15330
co	-15331
▁챠	-15332
운수	-15333
▁고승	-15334
▁김우	-15335
▁너희	-15336
▁두뇌	-15337
▁문맥	-15338
▁민원	-15339
▁박찬	-15340
▁아킬	-15341
▁원사	-15342
▁물러난	-15343
▁여운형	-15344
▁중거리	-15345
▁참전하	-15346
▁7000	-15347
▁Mi	-15348
▁논증	-15349
▁바투	-15350
▁사연	-15351
▁서품	-15352
▁APG	-15353
▁Her	-15354
▁루이즈	-15355
▁원주시	-15356
▁툼	-15357
▁라임	-15358
▁레크	-15359
▁밸브	-15360
▁소르	-15361
▁스플	-15362
▁앞뒤	-15363
▁양천	-15364
▁여정	-15365
▁제지	-15366
▁지령	-15367
▁518	-15368
▁브리스	-15369
▁억제제	-15370
▁오리엔	-15371
▁페스트	-15372
▁탔	-15373
재판	-15374
ose	-15375
▁경합	-15376
▁곤살	-15377
▁바쳐	-15378
▁본존	-15379
▁북측	-15380
▁처마	-15381
▁토바	-15382
▁울트라	-15383
▁인류학	-15384
▁콘티넨	-15385
22	-15386
의식	-15387
▁승률	-15388
▁시발	-15389
▁오니	-15390
▁게이밍	-15391
▁대사간	-15392
▁수백만	-15393
▁아키텐	-15394
▁연방군	-15395
▁사무라이	-15396
제철	-15397
ict	-15398
▁et	-15399
▁산체	-15400
▁추운	-15401
▁사다리	-15402
▁1700	-15403
▁얄	-15404
▁켜	-15405
▁KS	-15406
▁달력	-15407
▁도안	-15408
▁도읍	-15409
▁돌렸	-15410
▁로망	-15411
▁미트	-15412
▁바젤	-15413
▁백지	-15414
▁산술	-15415
▁상환	-15416
▁숙명	-15417
▁순찰	-15418
▁통찰	-15419
▁투사	-15420
▁케이드	-15421
▁라이센스	-15422
▁카디널스	-15423
▁프리큐어	-15424
▁뜬	-15425
▁웜	-15426
양구	-15427
티지	-15428
▁거병	-15429
▁결장	-15430
▁나투	-15431
▁대입	-15432
▁콜린스	-15433
장사	-15434
토크	-15435
▁김주	-15436
▁방학	-15437
▁강화군	-15438
▁경부선	-15439
▁엘비스	-15440
▁이론가	-15441
▁1859	-15442
▁만장일치	-15443
▁캄파니아	-15444
▁랏	-15445
▁켐	-15446
뜨린	-15447
▁베다	-15448
▁부식	-15449
▁억울	-15450
▁요도	-15451
▁유창	-15452
▁인계	-15453
▁카일	-15454
▁하층	-15455
▁625	-15456
▁미트라	-15457
▁다카하시	-15458
▁뉴클레오타이드	-15459
▁결여	-15460
▁도부	-15461
▁미켈	-15462
▁반달	-15463
▁블룸	-15464
▁산재	-15465
▁서체	-15466
▁펭귄	-15467
▁앙드레	-15468
▁이주민	-15469
▁트레인	-15470
ps	-15471
▁곡식	-15472
▁명왕	-15473
▁무공	-15474
▁백운	-15475
▁북인	-15476
▁산정	-15477
▁오구	-15478
▁완장	-15479
▁난쟁이	-15480
▁통계학	-15481
▁갑작스럽	-15482
▁했으므로	-15483
무장	-15484
▁관아	-15485
▁니즈	-15486
▁롤러	-15487
▁리안	-15488
▁문건	-15489
▁미러	-15490
▁사병	-15491
▁차역	-15492
▁폐차	-15493
▁후회	-15494
▁루카스	-15495
▁카리스	-15496
▁클레오	-15497
▁사이클론	-15498
▁자이언트	-15499
로트	-15500
마을	-15501
▁se	-15502
▁가선	-15503
▁구전	-15504
▁네브	-15505
▁뒤덮	-15506
▁뚜껑	-15507
▁매기	-15508
▁맹렬	-15509
▁상설	-15510
▁성조	-15511
▁곧이어	-15512
▁빌바오	-15513
▁순천시	-15514
▁아파치	-15515
▁출장소	-15516
장조	-15517
형제	-15518
EEE	-15519
▁공병	-15520
▁비싸	-15521
▁상감	-15522
▁주포	-15523
▁타선	-15524
▁가져가	-15525
▁이케다	-15526
▁메모리얼	-15527
▁스테파노	-15528
동원	-15529
배마	-15530
▁발광	-15531
▁불릴	-15532
▁선과	-15533
▁중건	-15534
▁테헤	-15535
▁플랑	-15536
▁헬스	-15537
▁홀수	-15538
▁후견	-15539
▁결의안	-15540
▁셰퍼드	-15541
▁혼합물	-15542
▁앨라배마	-15543
▁자카르타	-15544
남면	-15545
다보	-15546
매기	-15547
▁us	-15548
▁두르	-15549
▁원점	-15550
▁이창	-15551
▁태화	-15552
▁함장	-15553
▁길거리	-15554
▁슈투트	-15555
▁서바이벌	-15556
▁슈투트가르트	-15557
▁짚	-15558
나시	-15559
▁구가	-15560
▁김도	-15561
▁만류	-15562
▁대혁명	-15563
▁안철수	-15564
▁뮈	-15565
과학	-15566
완다	-15567
투리	-15568
uck	-15569
▁관위	-15570
▁군기	-15571
▁다윗	-15572
▁사산	-15573
▁수프	-15574
▁어학	-15575
▁왕당	-15576
▁장경	-15577
▁츠카	-15578
▁푸젠	-15579
▁미성년	-15580
▁빈센트	-15581
▁우에노	-15582
▁찾아오	-15583
▁테크놀로지	-15584
스톤	-15585
정변	-15586
▁소서	-15587
▁율리	-15588
▁이만	-15589
▁퇴출	-15590
▁튜링	-15591
▁피자	-15592
▁개최지	-15593
▁튀어나	-15594
▁아이스크림	-15595
▁세제	-15596
▁전서	-15597
▁정역	-15598
▁타파	-15599
▁학창	-15600
▁가우스	-15601
▁가치관	-15602
▁바스크	-15603
▁브레멘	-15604
▁향신료	-15605
▁미야기현	-15606
고사	-15607
▁모교	-15608
▁사생	-15609
▁후면	-15610
▁기념장	-15611
▁서태지	-15612
▁제니퍼	-15613
▁직사각	-15614
HL	-15615
크리	-15616
▁레티	-15617
▁로보	-15618
▁로코	-15619
▁발터	-15620
▁알로	-15621
▁일면	-15622
▁자백	-15623
▁하후	-15624
게이트	-15625
reak	-15626
▁개막식	-15627
▁무신론	-15628
▁순교자	-15629
▁소아시아	-15630
de	-15631
▁로디	-15632
▁산남	-15633
▁어지	-15634
▁오인	-15635
▁입찰	-15636
▁자갈	-15637
▁코이	-15638
▁평하	-15639
▁화풍	-15640
레틱스	-15641
▁쓰촨성	-15642
▁아스카	-15643
▁IEEE	-15644
▁크리스틴	-15645
▁애슬레틱스	-15646
▁펙	-15647
소니	-15648
▁경원	-15649
▁리언	-15650
▁속국	-15651
▁수구	-15652
▁수질	-15653
▁원만	-15654
▁화소	-15655
▁정착지	-15656
▁국가원수	-15657
▁^	-15658
댓값	-15659
주사	-15660
▁금관	-15661
▁선별	-15662
▁섹션	-15663
▁수주	-15664
▁오와	-15665
▁전봉	-15666
▁진심	-15667
▁총감	-15668
▁터스	-15669
▁흐트	-15670
공화당	-15671
▁바빌론	-15672
▁탈레반	-15673
▁아드리아	-15674
▁민주공화당	-15675
oo	-15676
패드	-15677
▁FF	-15678
▁근간	-15679
▁김학	-15680
▁뉴잉	-15681
▁변성	-15682
▁안주	-15683
▁자네	-15684
▁정청	-15685
▁처칠	-15686
▁실린더	-15687
▁선거관리	-15688
▁무형문화재	-15689
▁선거관리위원회	-15690
그램	-15691
들였	-15692
티어	-15693
팩스	-15694
학파	-15695
▁관군	-15696
▁도끼	-15697
▁사탄	-15698
▁아누	-15699
▁어라	-15700
▁의인	-15701
▁조회	-15702
▁희미	-15703
▁310	-15704
▁340	-15705
▁대관식	-15706
▁로저스	-15707
▁목표물	-15708
▁선제후	-15709
▁이치현	-15710
▁환승역	-15711
TF	-15712
둘러	-15713
vel	-15714
▁담양	-15715
▁발진	-15716
▁시력	-15717
▁왕명	-15718
▁용맹	-15719
▁유틸	-15720
▁짝수	-15721
▁교황령	-15722
▁로스트	-15723
▁아이치	-15724
▁예문관	-15725
▁원정대	-15726
▁세웠으며	-15727
▁유틸리티	-15728
▁뽀	-15729
▁공석	-15730
▁모션	-15731
▁무위	-15732
▁보디	-15733
▁슬러	-15734
▁타밀	-15735
▁호화	-15736
▁개척자	-15737
▁마코토	-15738
▁볼프강	-15739
▁오슬로	-15740
▁그래픽스	-15741
버터	-15742
조류	-15743
▁거문	-15744
▁상층	-15745
▁예보	-15746
▁철기	-15747
하마드	-15748
▁레이건	-15749
▁아미타불	-15750
▁Super	-15751
나주	-15752
바퀴	-15753
주석	-15754
ail	-15755
▁과달	-15756
▁나바	-15757
▁동급	-15758
▁멜라	-15759
▁보국	-15760
▁센타	-15761
▁수문	-15762
▁진천	-15763
▁청정	-15764
▁호국	-15765
▁호적	-15766
▁호투	-15767
▁국내선	-15768
▁엄청나	-15769
▁합병증	-15770
▁Star	-15771
▁고바야시	-15772
▁모니터링	-15773
▁뉴올리언스	-15774
▁교인	-15775
▁버밍	-15776
▁베가	-15777
▁특명	-15778
▁기생충	-15779
▁대제학	-15780
▁저질렀	-15781
▁콘스탄티누스	-15782
▁교감	-15783
▁구라	-15784
▁도매	-15785
▁비어	-15786
▁스완	-15787
▁통감	-15788
▁호이	-15789
▁라그랑	-15790
▁두드러진	-15791
▁아이파크	-15792
▁오토바이	-15793
▁중앙일보	-15794
디드	-15795
버라	-15796
▁갇혀	-15797
▁매듭	-15798
▁무진	-15799
▁양동	-15800
▁으러	-15801
▁황위	-15802
▁무사시	-15803
▁정해졌	-15804
▁해인사	-15805
▁1812	-15806
▁매사추세츠주	-15807
▁DO	-15808
▁ad	-15809
▁as	-15810
▁개경	-15811
▁박경	-15812
▁손수	-15813
▁잡힌	-15814
▁디에고	-15815
▁에세이	-15816
▁울주군	-15817
▁헬레니즘	-15818
▁넓혀	-15819
▁넓히	-15820
▁노마	-15821
▁놓였	-15822
▁메드	-15823
▁부락	-15824
▁스쿼	-15825
▁체질	-15826
▁퀸스	-15827
▁허물	-15828
▁Sun	-15829
▁단말기	-15830
▁분류학	-15831
▁아니면	-15832
▁파르마	-15833
▁한자어	-15834
▁Soul	-15835
▁뉴잉글랜드	-15836
구미	-15837
▁게놈	-15838
▁닷컴	-15839
▁로런	-15840
▁로컬	-15841
▁지검	-15842
▁추장	-15843
▁커브	-15844
▁포상	-15845
▁하강	-15846
▁209	-15847
▁you	-15848
▁떠올랐	-15849
▁리바이	-15850
▁이광수	-15851
▁지석묘	-15852
▁ICBM	-15853
플레	-15854
▁Kn	-15855
▁개표	-15856
▁걸스	-15857
▁공경	-15858
▁아칸	-15859
▁청일	-15860
▁토프	-15861
▁피그	-15862
▁공성전	-15863
▁조르주	-15864
▁주거지	-15865
▁IF	-15866
▁강유	-15867
▁두터	-15868
▁추밀	-15869
▁충동	-15870
▁해커	-15871
▁에이지	-15872
▁여러분	-15873
▁북대서양	-15874
▁안토니우스	-15875
iel	-15876
▁ON	-15877
▁my	-15878
▁금기	-15879
▁김덕	-15880
▁논평	-15881
▁명륜	-15882
▁배타	-15883
▁속초	-15884
▁아호	-15885
▁유보	-15886
▁App	-15887
▁대대장	-15888
▁셀레우	-15889
▁송진우	-15890
▁스러워	-15891
▁베르사유	-15892
▁쑹	-15893
샤오	-15894
▁Mr	-15895
▁관개	-15896
▁귀순	-15897
▁근위	-15898
▁기권	-15899
▁산인	-15900
▁샤오	-15901
▁은지	-15902
▁지날	-15903
▁타라	-15904
▁탄두	-15905
하우스	-15906
▁르완다	-15907
▁에이브	-15908
▁자본가	-15909
▁테헤란	-15910
▁후쿠시마현	-15911
EA	-15912
OK	-15913
ray	-15914
▁나시	-15915
▁당상	-15916
▁부기	-15917
▁주유	-15918
▁천자	-15919
▁카파	-15920
▁투니	-15921
▁항문	-15922
▁접미사	-15923
▁불법행위	-15924
도감	-15925
탄올	-15926
▁금천	-15927
▁빨강	-15928
▁소포	-15929
▁영도	-15930
▁유계	-15931
▁장지	-15932
▁천적	-15933
▁카보	-15934
▁평방	-15935
▁206	-15936
▁윤치영	-15937
▁자오선	-15938
▁조광조	-15939
▁파르티아	-15940
▁Christ	-15941
59	-15942
gh	-15943
▁썸	-15944
초프	-15945
▁Tw	-15946
▁교재	-15947
▁도자	-15948
▁무찌	-15949
▁세밀	-15950
▁점토	-15951
▁정실	-15952
▁바뀐다	-15953
▁클라리	-15954
▁아브라함	-15955
▁궈	-15956
▁름	-15957
네오	-15958
반정	-15959
▁도파	-15960
▁레저	-15961
▁루드	-15962
▁법상	-15963
▁안면	-15964
▁조던	-15965
▁지카	-15966
▁패자	-15967
▁자치현	-15968
▁HP	-15969
▁가창	-15970
▁로지	-15971
▁반정	-15972
▁산동	-15973
▁수라	-15974
▁울루	-15975
▁자석	-15976
▁장강	-15977
▁코우	-15978
▁한하	-15979
▁휴일	-15980
시아키	-15981
▁남북조	-15982
▁삼거리	-15983
▁여수시	-15984
▁영사관	-15985
▁인산화	-15986
▁태블릿	-15987
▁John	-15988
RI	-15989
방스	-15990
블릭	-15991
▁구비	-15992
▁루손	-15993
▁수족	-15994
▁유상	-15995
▁장이	-15996
▁죽일	-15997
라이스	-15998
▁게이오	-15999
▁음식점	-16000
▁알렉세이	-16001
스레	-16002
ute	-16003
▁과감	-16004
▁규합	-16005
▁그늘	-16006
▁김시	-16007
▁듀스	-16008
▁리퍼	-16009
▁맞배	-16010
▁방탄	-16011
▁아람	-16012
▁의논	-16013
▁현수	-16014
▁레코딩	-16015
▁록히드	-16016
▁물리쳤	-16017
▁보이즈	-16018
▁의병장	-16019
▁조봉암	-16020
▁쏜	-16021
▁NM	-16022
▁갑신	-16023
▁고후	-16024
▁끔찍	-16025
▁니치	-16026
▁이코	-16027
▁익히	-16028
▁춘계	-16029
▁카펠	-16030
▁콜론	-16031
▁풀이	-16032
로세서	-16033
▁747	-16034
▁백두산	-16035
▁사우디	-16036
▁주제가	-16037
16	-16038
라는	-16039
분투	-16040
▁동맥	-16041
▁식이	-16042
▁인척	-16043
▁중등	-16044
▁카토	-16045
▁효능	-16046
▁그러면	-16047
▁기울이	-16048
▁독재자	-16049
▁연대장	-16050
▁1879	-16051
▁막시밀리	-16052
레앙	-16053
▁불문	-16054
▁위축	-16055
▁유세	-16056
▁잡혔	-16057
▁조우	-16058
▁총생	-16059
▁해주	-16060
▁선수상	-16061
▁슈트라	-16062
▁안데스	-16063
▁건국훈장	-16064
네프	-16065
티보	-16066
▁PA	-16067
▁단수	-16068
▁사파	-16069
▁스킨	-16070
▁양념	-16071
▁양원	-16072
▁양정	-16073
▁유민	-16074
▁개개인	-16075
▁광합성	-16076
▁로널드	-16077
산업	-16078
슐리	-16079
여지	-16080
▁대여	-16081
▁동대	-16082
▁범람	-16083
▁초식	-16084
▁컬링	-16085
▁420	-16086
▁트리스	-16087
▁피어스	-16088
▁슈트라우스	-16089
면적	-16090
▁군마	-16091
▁눌러	-16092
▁라쿠	-16093
▁머큐	-16094
▁소량	-16095
▁시영	-16096
▁우기	-16097
▁자존	-16098
▁전열	-16099
▁정맥	-16100
▁집적	-16101
▁차차	-16102
▁치른다	-16103
▁카지노	-16104
17	-16105
자드	-16106
태자	-16107
▁부화	-16108
▁쿠루	-16109
▁폐하	-16110
▁고지대	-16111
▁석회암	-16112
▁스태프	-16113
▁아이작	-16114
▁에다가	-16115
▁항생제	-16116
▁리바운드	-16117
▁농담	-16118
▁두부	-16119
▁딱딱	-16120
▁떠돌	-16121
▁모태	-16122
▁반납	-16123
▁상이	-16124
▁자각	-16125
▁쿠시	-16126
▁도망쳐	-16127
▁최진실	-16128
▁일렉트로닉	-16129
YP	-16130
▁쿵	-16131
▁국문	-16132
▁꾸몄	-16133
▁당장	-16134
▁반향	-16135
▁빛깔	-16136
▁유관	-16137
▁임실	-16138
▁택하	-16139
▁폴로	-16140
▁풍요	-16141
▁des	-16142
▁끌려가	-16143
▁변호인	-16144
▁붙잡혀	-16145
▁오메가	-16146
▁제이크	-16147
▁테크노	-16148
▁꽝	-16149
▁남경	-16150
▁대방	-16151
▁부트	-16152
▁불능	-16153
▁생김	-16154
▁용역	-16155
▁커리	-16156
▁클럭	-16157
▁호시	-16158
▁힐스	-16159
▁CoA	-16160
▁리그컵	-16161
▁바닷가	-16162
▁사가미	-16163
▁태어날	-16164
리아누스	-16165
▁뜯	-16166
▁퀼	-16167
나들	-16168
▁노역	-16169
▁실베	-16170
▁영종	-16171
▁인삼	-16172
▁일보	-16173
▁촐라	-16174
▁투기	-16175
▁투병	-16176
▁글리제	-16177
▁암스트	-16178
▁페이퍼	-16179
링크	-16180
수지	-16181
▁상회	-16182
▁이설	-16183
▁최용	-16184
▁할구	-16185
▁여행자	-16186
▁접근성	-16187
선교	-16188
연맹	-16189
화산	-16190
VID	-16191
▁대등	-16192
▁사목	-16193
▁아요	-16194
▁압수	-16195
▁애호	-16196
▁역동	-16197
▁제고	-16198
▁죄인	-16199
▁증축	-16200
▁카다	-16201
▁항전	-16202
▁기울였	-16203
▁버스터	-16204
▁재결합	-16205
▁즐거움	-16206
신보	-16207
일체	-16208
▁Gu	-16209
▁감당	-16210
▁능숙	-16211
▁두스	-16212
▁무겁	-16213
▁사체	-16214
▁시타	-16215
▁안락	-16216
▁앙상	-16217
▁열람	-16218
▁온전	-16219
▁요셉	-16220
▁할로	-16221
▁알칼리	-16222
▁펼쳐진	-16223
▁포틀랜드	-16224
▁불러일으켰	-16225
▁Record	-16226
대비	-16227
ull	-16228
▁강가	-16229
▁말려	-16230
▁스텐	-16231
▁킬러	-16232
▁Per	-16233
▁국방군	-16234
▁군주제	-16235
▁스텔스	-16236
▁드러난다	-16237
▁다마스쿠스	-16238
다임	-16239
의금	-16240
▁도나	-16241
▁이한	-16242
▁적힌	-16243
▁전곡	-16244
▁체리	-16245
▁트림	-16246
▁후추	-16247
▁베이직	-16248
▁산투스	-16249
▁영화관	-16250
▁후반전	-16251
▁당했으며	-16252
▁원종공신	-16253
▁크리스탈	-16254
▁엔지니어링	-16255
▁권투	-16256
▁변함	-16257
▁수아	-16258
▁이석	-16259
▁화이	-16260
▁환산	-16261
로그램	-16262
▁수영장	-16263
▁유기체	-16264
바이러스	-16265
가요	-16266
▁광시	-16267
▁균등	-16268
▁노엘	-16269
▁보아	-16270
▁소진	-16271
▁왕릉	-16272
▁왕좌	-16273
▁제방	-16274
▁코인	-16275
리오스	-16276
▁440	-16277
▁니가타	-16278
▁매니아	-16279
▁본거지	-16280
▁양산시	-16281
▁여주인	-16282
▁페르시	-16283
▁대법원장	-16284
▁타지키스탄	-16285
ual	-16286
▁리노	-16287
▁성자	-16288
▁성형	-16289
▁접목	-16290
▁야구부	-16291
▁조용히	-16292
▁패러다임	-16293
울루	-16294
장군	-16295
▁기피	-16296
▁미타	-16297
▁바바	-16298
▁양구	-16299
▁열거	-16300
▁기본법	-16301
▁스위트	-16302
▁엘리엇	-16303
▁토론회	-16304
▁플래닛	-16305
▁2500	-16306
▁아우구스트	-16307
▁신익	-16308
▁아역	-16309
▁용문	-16310
▁들어선	-16311
▁라고도	-16312
▁엔리케	-16313
▁엘리스	-16314
▁올라왔	-16315
▁잠비아	-16316
▁주머니쥐	-16317
러져	-16318
발트	-16319
▁CA	-16320
▁KD	-16321
▁MD	-16322
▁궁주	-16323
▁금리	-16324
▁나토	-16325
▁동두	-16326
▁수표	-16327
▁응력	-16328
▁입혔	-16329
▁256	-16330
▁바실리	-16331
▁실리콘	-16332
▁이회창	-16333
▁지극히	-16334
길준	-16335
데오	-16336
피카	-16337
▁po	-16338
▁교명	-16339
▁내시	-16340
▁무패	-16341
▁문어	-16342
▁브이	-16343
▁영성	-16344
▁왕녀	-16345
▁코니	-16346
▁콜리	-16347
▁트램	-16348
▁파출	-16349
▁911	-16350
▁Str	-16351
▁디스코	-16352
▁제시카	-16353
▁춘천시	-16354
니에	-16355
덕궁	-16356
레미	-16357
쿠치	-16358
▁"|	-16359
▁고독	-16360
▁리지	-16361
▁망가	-16362
▁멘델	-16363
▁성현	-16364
▁세울	-16365
▁정직	-16366
▁파고	-16367
▁행운	-16368
▁Win	-16369
▁바레인	-16370
▁print	-16371
▁public	-16372
높이	-16373
자나	-16374
황제	-16375
▁강자	-16376
▁강했	-16377
▁광동	-16378
▁담수	-16379
▁매복	-16380
▁북마	-16381
▁성교	-16382
▁스팀	-16383
▁작자	-16384
▁탈피	-16385
▁호찌	-16386
▁오우치	-16387
▁카스텔	-16388
▁후유증	-16389
25	-16390
무지	-16391
▁고요	-16392
▁교학	-16393
▁라사	-16394
▁Hot	-16395
▁비행사	-16396
▁왕당파	-16397
▁캅카스	-16398
▁판매고	-16399
▁이루어질	-16400
ty	-16401
▁짠	-16402
스틱	-16403
▁담임	-16404
▁따지	-16405
▁마거	-16406
▁명동	-16407
▁사스	-16408
▁시온	-16409
▁아루	-16410
▁오차	-16411
▁이보	-16412
▁종실	-16413
▁피질	-16414
▁환초	-16415
▁랴오닝	-16416
▁시에라	-16417
▁오토모	-16418
▁요나라	-16419
▁허버트	-16420
▁호기심	-16421
▁드래곤즈	-16422
능력	-16423
스텐	-16424
▁nm	-16425
▁날렸	-16426
▁무소	-16427
▁실책	-16428
▁아로	-16429
▁연하	-16430
▁유미	-16431
▁은평	-16432
▁되돌려	-16433
▁렌더링	-16434
▁초고층	-16435
▁리치먼드	-16436
▁앳	-16437
는점	-16438
RNA	-16439
▁내기	-16440
▁농협	-16441
▁바타	-16442
▁사조	-16443
▁쌍용	-16444
▁우타	-16445
▁카츠	-16446
▁코일	-16447
▁향로	-16448
고로드	-16449
▁거느렸	-16450
▁길버트	-16451
▁습니까	-16452
▁예비군	-16453
▁쐐	-16454
훈련	-16455
▁'.	-16456
▁교내	-16457
▁군도	-16458
▁던전	-16459
▁동체	-16460
▁섞인	-16461
▁셔츠	-16462
▁워낙	-16463
▁접시	-16464
▁조율	-16465
▁중신	-16466
▁고다이	-16467
▁날아가	-16468
▁머큐리	-16469
▁웨슬리	-16470
▁잠재력	-16471
▁콜라보	-16472
▁프리드	-16473
빨리	-16474
▁HS	-16475
▁가결	-16476
▁관저	-16477
▁따돌	-16478
▁원곡	-16479
▁225	-16480
▁디아스	-16481
▁브릿지	-16482
▁생산자	-16483
▁유도탄	-16484
▁이세이	-16485
▁추축국	-16486
▁독립선언	-16487
▁돌아간다	-16488
▁천문단위	-16489
포리	-16490
▁간지	-16491
▁노름	-16492
▁대용	-16493
▁득실	-16494
▁미녀	-16495
▁변한	-16496
▁쐐기	-16497
▁악어	-16498
▁여관	-16499
▁우디	-16500
▁즐겼	-16501
▁침수	-16502
▁탄력	-16503
▁히코	-16504
레이즈	-16505
ogle	-16506
▁유물론	-16507
▁mu	-16508
▁석재	-16509
▁세타	-16510
▁지브	-16511
▁칠곡	-16512
▁사무엘	-16513
▁아미타여래	-16514
ll	-16515
무트	-16516
자락	-16517
커우	-16518
평면	-16519
▁Ke	-16520
▁NA	-16521
▁동률	-16522
▁무루	-16523
▁신천	-16524
▁아님	-16525
▁안시	-16526
▁애프	-16527
▁즉흥	-16528
▁진성	-16529
▁함의	-16530
던지기	-16531
▁앙상블	-16532
▁주둔지	-16533
▁프로필	-16534
이상	-16535
▁가전	-16536
▁깊숙	-16537
▁도화	-16538
▁박태	-16539
▁소노	-16540
▁아구	-16541
▁이가	-16542
▁커넥	-16543
▁현관	-16544
▁고스트	-16545
▁브루노	-16546
▁사천왕	-16547
▁제품군	-16548
▁총생산	-16549
▁1789	-16550
▁1801	-16551
▁Back	-16552
▁프린세스	-16553
▁플랑드르	-16554
▁구애	-16555
▁노골	-16556
▁느슨	-16557
▁부안	-16558
▁정중	-16559
▁제타	-16560
▁진위	-16561
▁트론	-16562
▁파피	-16563
▁208	-16564
▁냈으며	-16565
▁브루크	-16566
▁사망률	-16567
▁인문학	-16568
제사	-16569
▁군림	-16570
▁마른	-16571
▁유독	-16572
▁탄성	-16573
▁호지	-16574
▁마운틴	-16575
▁사법부	-16576
▁알베르	-16577
▁압둘라	-16578
▁예수교	-16579
▁을수록	-16580
▁쏠	-16581
▁캥	-16582
불명	-16583
▁거품	-16584
▁구명	-16585
▁미디	-16586
▁이크	-16587
▁조연상	-16588
▁기타큐슈	-16589
GO	-16590
▁NL	-16591
▁균열	-16592
▁케로	-16593
스트림	-16594
▁광주시	-16595
▁방법론	-16596
▁영문학	-16597
▁오이타	-16598
▁유길준	-16599
▁제주시	-16600
▁1400	-16601
▁Kore	-16602
▁암스트롱	-16603
▁베오그라드	-16604
▁ㅣ	-16605
▁뭔	-16606
▁Fl	-16607
▁강타	-16608
▁봉분	-16609
▁생장	-16610
▁승마	-16611
▁초석	-16612
▁총국	-16613
▁최순	-16614
▁코딩	-16615
▁다행히	-16616
▁영장류	-16617
▁탄수화물	-16618
모닉	-16619
ove	-16620
▁기일	-16621
▁누마	-16622
▁도식	-16623
▁로만	-16624
▁솔직	-16625
▁안건	-16626
▁청중	-16627
▁카인	-16628
lect	-16629
▁넘어서	-16630
▁아르테	-16631
▁조제프	-16632
▁미식축구	-16633
▁해수욕장	-16634
▁폼페이우스	-16635
▁킵	-16636
▁궁수	-16637
▁귀여	-16638
▁악의	-16639
▁약품	-16640
▁에픽	-16641
▁오웬	-16642
▁윤곽	-16643
▁중학	-16644
▁채집	-16645
▁첫날	-16646
▁흡입	-16647
프리드	-16648
▁페라리	-16649
▁NATO	-16650
▁비로자나	-16651
▁생물학자	-16652
인산	-16653
▁겨냥	-16654
▁군량	-16655
▁사일	-16656
▁성부	-16657
▁열기	-16658
▁엿볼	-16659
▁타키	-16660
ames	-16661
▁370	-16662
▁Get	-16663
▁남아공	-16664
▁네바다	-16665
▁렬	-16666
득점	-16667
라과	-16668
▁BO	-16669
▁교란	-16670
▁먼로	-16671
▁예편	-16672
▁운석	-16673
▁유재	-16674
▁철근	-16675
▁통킹	-16676
▁동일시	-16677
▁오리건	-16678
▁Intern	-16679
ors	-16680
▁DA	-16681
▁강구	-16682
▁격침	-16683
▁격화	-16684
▁결투	-16685
▁김장	-16686
▁모였	-16687
▁발열	-16688
▁변했	-16689
▁서곡	-16690
▁시편	-16691
▁재심	-16692
▁출정	-16693
▁코디	-16694
▁MIT	-16695
▁내몽골	-16696
▁와이어	-16697
▁남한산성	-16698
▁관원	-16699
▁다채	-16700
▁면하	-16701
▁미로	-16702
▁신궁	-16703
▁야만	-16704
▁초판	-16705
▁흑색	-16706
▁기네스	-16707
▁마거릿	-16708
▁붉은색	-16709
▁지배했	-16710
▁트럼펫	-16711
▁항공우주	-16712
ox	-16713
▁뿜	-16714
레븐	-16715
심원	-16716
파니	-16717
let	-16718
▁고는	-16719
▁국산	-16720
▁극회	-16721
▁나날	-16722
▁배지	-16723
▁유감	-16724
▁책정	-16725
▁폭주	-16726
▁로런스	-16727
▁메신저	-16728
▁미요시	-16729
▁양평군	-16730
▁클라인	-16731
그라운드	-16732
▁이성질체	-16733
▁소크라테스	-16734
▁BB	-16735
▁가령	-16736
▁듀엣	-16737
▁민선	-16738
▁버거	-16739
▁유익	-16740
▁장승	-16741
▁장차	-16742
▁호전	-16743
▁흉내	-16744
▁GPS	-16745
▁Mag	-16746
▁급속도	-16747
▁나카노	-16748
▁디렉터	-16749
▁만주족	-16750
▁사이다	-16751
▁선보인	-16752
▁어드밴	-16753
▁태양광	-16754
▁해수면	-16755
▁Baby	-16756
▁안티오키아	-16757
UM	-16758
경찰	-16759
남동	-16760
▁군위	-16761
▁깨지	-16762
▁니트	-16763
▁다라	-16764
▁만물	-16765
▁수화	-16766
▁약수	-16767
▁오랑	-16768
▁윈드	-16769
▁의대	-16770
▁천태	-16771
▁표어	-16772
▁하세	-16773
▁화교	-16774
▁황하	-16775
▁후난	-16776
▁민의원	-16777
▁방문객	-16778
▁부천시	-16779
▁오른다	-16780
▁이유로	-16781
▁이지스	-16782
▁항소심	-16783
▁레오나르	-16784
▁트로츠키	-16785
▁셀레우코스	-16786
▁둑	-16787
오드	-16788
▁가변	-16789
▁공평	-16790
▁명장	-16791
▁생포	-16792
▁승선	-16793
▁제헌	-16794
▁직각	-16795
▁청군	-16796
▁출항	-16797
▁블러드	-16798
▁시나노	-16799
▁요시카	-16800
▁펼쳐지	-16801
▁한정판	-16802
▁니카라과	-16803
▁리하르트	-16804
▁시킨다는	-16805
든가	-16806
투르	-16807
▁결렬	-16808
▁고관	-16809
▁사옥	-16810
▁소마	-16811
▁어둡	-16812
▁지킬	-16813
▁지회	-16814
▁치밀	-16815
▁나와서	-16816
▁쌍방울	-16817
ology	-16818
▁이마가와	-16819
TN	-16820
▁공훈	-16821
▁레반	-16822
▁명중	-16823
▁실태	-16824
▁양위	-16825
▁춘향	-16826
▁카노	-16827
▁캡틴	-16828
▁효모	-16829
inal	-16830
▁이리하여	-16831
▁NX	-16832
▁결집	-16833
▁라테	-16834
▁베아	-16835
▁수선	-16836
▁알마	-16837
▁캔터	-16838
▁피시	-16839
▁핼리	-16840
▁행한	-16841
▁효성	-16842
▁부사장	-16843
▁스트라	-16844
▁아열대	-16845
▁전망대	-16846
▁행해진	-16847
▁혈액형	-16848
ature	-16849
▁모노이드	-16850
▁서귀포시	-16851
▁선거인단	-16852
락부	-16853
박이	-16854
월드	-16855
▁OK	-16856
▁누에	-16857
▁대소	-16858
▁박동	-16859
▁비방	-16860
▁어인	-16861
▁에인	-16862
▁증류	-16863
▁출병	-16864
▁키치	-16865
▁탄광	-16866
▁라이드	-16867
▁범어사	-16868
▁베테랑	-16869
▁연금술	-16870
노스아이	-16871
▁돼지고기	-16872
▁로베르트	-16873
노스아이레스	-16874
▁부에노스아이레스	-16875
덱스	-16876
메랄	-16877
enn	-16878
▁RA	-16879
▁개축	-16880
▁결단	-16881
▁무쓰	-16882
▁비고	-16883
▁아쉽	-16884
▁조엘	-16885
▁카불	-16886
▁풋살	-16887
피에르	-16888
▁리그전	-16889
▁신안군	-16890
▁지포스	-16891
▁직할시	-16892
던스	-16893
무실	-16894
백색	-16895
▁공지	-16896
▁꾸미	-16897
▁도난	-16898
▁도보	-16899
▁설과	-16900
▁연어	-16901
▁주스	-16902
▁총수	-16903
▁풍기	-16904
▁허구	-16905
▁대학살	-16906
▁디나모	-16907
▁이치로	-16908
▁체육회	-16909
▁게오르기	-16910
▁라이온스	-16911
▁프레더릭	-16912
가키	-16913
금속	-16914
▁Cr	-16915
▁SG	-16916
▁갑오	-16917
▁경산	-16918
▁굴욕	-16919
▁기형	-16920
▁변조	-16921
▁비긴	-16922
▁사계	-16923
▁세도	-16924
▁습도	-16925
▁친히	-16926
▁호박	-16927
코비치	-16928
▁리카르	-16929
▁시아파	-16930
▁정몽주	-16931
▁에두아르	-16932
나비	-16933
민정	-16934
현실	-16935
▁그간	-16936
▁매튜	-16937
▁봉헌	-16938
▁북송	-16939
▁선서	-16940
▁성찬	-16941
▁타오	-16942
▁필로	-16943
▁학도	-16944
▁해머	-16945
▁365	-16946
▁Res	-16947
▁감마선	-16948
▁김종직	-16949
▁주세페	-16950
▁리얼리티	-16951
▁이오니아	-16952
▁PH	-16953
▁SW	-16954
▁고취	-16955
▁굳이	-16956
▁김은	-16957
▁불길	-16958
▁외가	-16959
▁장론	-16960
▁장서	-16961
▁하츠	-16962
▁합장	-16963
▁207	-16964
▁Way	-16965
▁다카시	-16966
▁두더지	-16967
▁스펜서	-16968
▁알레산	-16969
▁올라갈	-16970
▁전동기	-16971
▁태극기	-16972
처럼	-16973
컨드	-16974
app	-16975
▁Dr	-16976
▁개리	-16977
▁건네	-16978
▁끼워	-16979
▁에든	-16980
▁쟁점	-16981
▁한꺼	-16982
말라야	-16983
▁강릉시	-16984
▁국무부	-16985
▁동북부	-16986
▁무정부	-16987
▁포인터	-16988
▁필리스	-16989
▁함부로	-16990
▁에든버러	-16991
▁한꺼번에	-16992
▁아르바이트	-16993
FS	-16994
시카	-16995
즈미	-16996
▁깁슨	-16997
▁도량	-16998
▁레르	-16999
▁롤리	-17000
▁본진	-17001
▁스틱	-17002
▁으뜸	-17003
▁인노	-17004
▁잔치	-17005
▁전극	-17006
▁창씨	-17007
▁나눈다	-17008
▁알아차	-17009
▁조합원	-17010
▁프린터	-17011
의금부사	-17012
▁1815	-17013
▁1820	-17014
▁나왔으며	-17015
로프로세서	-17016
▁System	-17017
▁마이크로프로세서	-17018
za	-17019
갱이	-17020
▁에뮬	-17021
▁이구	-17022
▁콘셉	-17023
▁특혜	-17024
이즈미	-17025
▁내려갔	-17026
▁야행성	-17027
▁유공자	-17028
▁Amer	-17029
▁유럽연합	-17030
24	-17031
▁훅	-17032
▁기교	-17033
▁노하	-17034
▁리서	-17035
▁본능	-17036
▁살레	-17037
▁서역	-17038
▁월경	-17039
▁조너	-17040
▁토의	-17041
▁Dis	-17042
▁노무라	-17043
▁서대문구	-17044
니츠	-17045
입자	-17046
▁"'	-17047
▁모질	-17048
▁시차	-17049
▁옵티	-17050
▁트롤	-17051
▁특위	-17052
▁퍼플	-17053
▁형광	-17054
▁농민군	-17055
▁세컨드	-17056
▁일제히	-17057
▁페레스	-17058
▁Cent	-17059
▁욘	-17060
마니	-17061
실험	-17062
ina	-17063
ret	-17064
▁결실	-17065
▁기주	-17066
▁내게	-17067
▁로제	-17068
▁미추	-17069
▁벗겨	-17070
▁베컴	-17071
▁분담	-17072
▁산마	-17073
▁신안	-17074
▁위배	-17075
▁음양	-17076
▁이삭	-17077
▁직류	-17078
▁천리	-17079
ange	-17080
ater	-17081
▁TOP	-17082
▁피드백	-17083
▁혁명가	-17084
▁카롤루스	-17085
▁히말라야	-17086
▁갸	-17087
다스	-17088
ons	-17089
▁공보	-17090
▁마초	-17091
▁맞닿	-17092
▁모잠	-17093
▁쓰리	-17094
▁아약	-17095
▁음역	-17096
▁자막	-17097
▁종단	-17098
▁탈리	-17099
▁퇴계	-17100
▁그리드	-17101
▁생김새	-17102
▁모잠비크	-17103
▁프로방스	-17104
▁레닌그라드	-17105
광사	-17106
끄럽	-17107
테일	-17108
▁공해	-17109
▁담장	-17110
▁디펜	-17111
▁만수	-17112
▁사보	-17113
▁술집	-17114
▁정현	-17115
▁치루	-17116
▁테살	-17117
▁한라	-17118
스티안	-17119
▁War	-17120
▁도나우	-17121
▁돌아올	-17122
▁모델링	-17123
▁트랜싯	-17124
▁폴리네시아	-17125
자유	-17126
▁경구	-17127
▁김석	-17128
▁마취	-17129
▁벅스	-17130
▁소켓	-17131
▁좌랑	-17132
▁지반	-17133
▁충고	-17134
▁쿠사	-17135
▁피쳐	-17136
▁연습생	-17137
▁오징어	-17138
▁지방도	-17139
▁진정한	-17140
▁후베이	-17141
▁오스트로	-17142
▁필하모닉	-17143
▁밈	-17144
▁격상	-17145
▁기근	-17146
▁당사	-17147
▁센다	-17148
▁완산	-17149
▁융기	-17150
▁이부	-17151
▁전란	-17152
▁조나	-17153
지먼트	-17154
▁가디언	-17155
▁모터쇼	-17156
▁일진회	-17157
▁제노바	-17158
▁조병옥	-17159
▁사라진다	-17160
▁매니지먼트	-17161
▁노총	-17162
▁녹말	-17163
▁니체	-17164
▁달마	-17165
▁더라	-17166
▁더빙	-17167
▁발췌	-17168
▁살피	-17169
▁새해	-17170
▁슐레	-17171
▁양분	-17172
▁이게	-17173
▁지뢰	-17174
▁USA	-17175
▁마피아	-17176
▁1858	-17177
▁마쓰모토	-17178
▁막시밀리안	-17179
▁캔자스시티	-17180
베인	-17181
비츠	-17182
토바	-17183
▁'-	-17184
▁미완	-17185
▁봐야	-17186
▁코넬	-17187
▁태상	-17188
▁펜스	-17189
▁프록	-17190
▁허들	-17191
▁힘쓰	-17192
▁아약스	-17193
▁알베르트	-17194
▁알렉산드라	-17195
쓰네	-17196
▁영위	-17197
▁징후	-17198
▁Mac	-17199
▁Tra	-17200
▁도망가	-17201
▁저지르	-17202
▁지팡이	-17203
▁학생회	-17204
▁고고학자	-17205
거루	-17206
당류	-17207
적분	-17208
퍼트	-17209
▁고택	-17210
▁기욤	-17211
▁낙태	-17212
▁데니	-17213
▁매질	-17214
▁사악	-17215
▁세실	-17216
▁수훈	-17217
▁위태	-17218
▁청했	-17219
▁Int	-17220
▁라쿠텐	-17221
▁선데이	-17222
▁신익희	-17223
▁액티브	-17224
▁중심핵	-17225
ux	-17226
랭크	-17227
운전	-17228
▁급사	-17229
▁기민	-17230
▁소탕	-17231
▁아토	-17232
▁출루	-17233
▁콤비	-17234
▁쿠리	-17235
▁퀘이	-17236
▁하카	-17237
ions	-17238
▁광화문	-17239
▁노트북	-17240
▁아드리	-17241
▁안티고	-17242
▁크레타	-17243
▁합쳐져	-17244
▁Type	-17245
▁마그네슘	-17246
▁알베르토	-17247
▁귤	-17248
▁관대	-17249
▁광서	-17250
▁도표	-17251
▁만연	-17252
▁수강	-17253
▁엠마	-17254
▁목포시	-17255
▁즐거운	-17256
▁쫓겨나	-17257
▁프렌즈	-17258
▁조선왕조실록	-17259
ley	-17260
▁FS	-17261
▁견지	-17262
▁능하	-17263
▁대정	-17264
▁로어	-17265
▁말소	-17266
▁소정	-17267
▁안재	-17268
▁좌천	-17269
▁테드	-17270
▁헬로	-17271
▁관찰자	-17272
▁군산시	-17273
▁도치기	-17274
▁모조리	-17275
▁High	-17276
정제	-17277
▁궁내	-17278
▁기악	-17279
▁남궁	-17280
▁마도	-17281
▁멘토	-17282
▁보카	-17283
▁엠블	-17284
▁용접	-17285
▁재주	-17286
▁정공	-17287
▁펠레	-17288
▁포섭	-17289
가하라	-17290
▁Not	-17291
▁스와프	-17292
▁오나라	-17293
▁적절히	-17294
▁조너선	-17295
▁티무르	-17296
▁파블로	-17297
▁갑작스런	-17298
▁보호구역	-17299
▁천연가스	-17300
동리	-17301
라나	-17302
싸움	-17303
코인	-17304
▁갈비	-17305
▁고갈	-17306
▁납품	-17307
▁농작	-17308
▁던진	-17309
▁동티	-17310
▁마고	-17311
▁스팅	-17312
▁우이	-17313
▁유승	-17314
▁육박	-17315
▁제보	-17316
▁합산	-17317
▁미우라	-17318
▁봉수대	-17319
▁분홍색	-17320
▁비올라	-17321
▁시게루	-17322
▁정확도	-17323
▁class	-17324
▁동아프리카	-17325
기둥	-17326
사랑	-17327
전쟁	-17328
촌동	-17329
ART	-17330
▁군비	-17331
▁니라	-17332
▁독실	-17333
▁로타	-17334
▁벨벳	-17335
▁보육	-17336
▁아핀	-17337
▁완주	-17338
▁이철	-17339
▁전액	-17340
▁전집	-17341
▁진구	-17342
▁커져	-17343
▁푸틴	-17344
▁휴먼	-17345
▁수증기	-17346
▁무궁화호	-17347
▁토스카나	-17348
스테	-17349
재단	-17350
▁군집	-17351
▁노화	-17352
▁덕수	-17353
▁마신	-17354
▁마틸	-17355
▁성제	-17356
▁애매	-17357
▁앨버	-17358
▁의왕	-17359
▁장택	-17360
▁증직	-17361
▁핑계	-17362
▁내려온	-17363
▁리포트	-17364
▁마에다	-17365
▁유성구	-17366
▁플래그	-17367
▁합쳐서	-17368
▁혁명군	-17369
▁type	-17370
▁맞배지붕	-17371
▁암모니아	-17372
▁리온	-17373
▁바하	-17374
▁스쿠	-17375
▁알렌	-17376
▁우대	-17377
▁제법	-17378
▁주상	-17379
▁혼돈	-17380
▁베일리	-17381
▁선언문	-17382
▁수도사	-17383
▁패트리	-17384
▁서프랑크	-17385
토쿠	-17386
att	-17387
▁늘렸	-17388
▁리츠	-17389
▁문성	-17390
▁미자	-17391
▁비호	-17392
▁수의	-17393
▁신관	-17394
▁아말	-17395
▁영재	-17396
▁정일	-17397
▁증원	-17398
▁토드	-17399
▁패드	-17400
▁효용	-17401
지스터	-17402
▁IEC	-17403
▁MLB	-17404
▁WHO	-17405
▁막아내	-17406
▁무너져	-17407
▁지방관	-17408
▁평상시	-17409
▁1300	-17410
▁1814	-17411
▁프로이트	-17412
▁클라이맥스	-17413
▁여러해살이풀	-17414
▁엎	-17415
거성	-17416
▁Vf	-17417
▁실크	-17418
▁예일	-17419
▁우도	-17420
▁원생	-17421
▁이덕	-17422
▁정과	-17423
▁직권	-17424
▁총살	-17425
▁키아	-17426
▁팬아	-17427
▁290	-17428
▁LCK	-17429
▁건널목	-17430
▁전철역	-17431
▁파출소	-17432
▁평의원	-17433
▁What	-17434
▁그래미상	-17435
▁받아들일	-17436
▁샌드위치	-17437
▁서아시아	-17438
▁자연주의	-17439
▁그리스도인	-17440
식스	-17441
▁규장	-17442
▁레딧	-17443
▁모를	-17444
▁민가	-17445
▁바사	-17446
▁비욘	-17447
▁선지	-17448
▁패퇴	-17449
▁포진	-17450
▁풍수	-17451
▁헬렌	-17452
▁맞대결	-17453
▁사이공	-17454
▁스타즈	-17455
▁주교좌	-17456
▁취약점	-17457
▁산업단지	-17458
▁자유민주	-17459
▁플레이스	-17460
BN	-17461
데냐	-17462
마일	-17463
▁ED	-17464
▁Of	-17465
▁나눔	-17466
▁당명	-17467
▁데인	-17468
▁루지	-17469
▁목화	-17470
▁부탄	-17471
▁소치	-17472
▁손쉽	-17473
▁씨름	-17474
▁이다	-17475
▁고조선	-17476
▁깨달음	-17477
▁니스트	-17478
▁등록금	-17479
▁미시간	-17480
▁성명서	-17481
▁수번뇌	-17482
▁플라자	-17483
▁돌아와서	-17484
▁사르데냐	-17485
▁트랜지스터	-17486
▁페더레이션	-17487
회원	-17488
▁EN	-17489
▁구자	-17490
▁모식	-17491
▁보궐	-17492
▁슬퍼	-17493
▁아랑	-17494
▁아픔	-17495
▁약학	-17496
▁어쨌	-17497
▁열망	-17498
▁열풍	-17499
▁올랭	-17500
▁캐럴	-17501
▁틈타	-17502
▁학급	-17503
▁흥덕	-17504
정보부	-17505
▁MHz	-17506
▁거머쥐	-17507
▁견훤	-17508
▁군락	-17509
▁급기	-17510
▁옥상	-17511
▁키웠	-17512
▁한가	-17513
씨식물	-17514
학생회	-17515
▁건너편	-17516
▁겨울철	-17517
▁대항해	-17518
▁스레드	-17519
▁충주시	-17520
▁커티스	-17521
▁평택시	-17522
▁포스코	-17523
▁크리스천	-17524
▁Google	-17525
전차	-17526
천국	-17527
▁면은	-17528
▁미에	-17529
▁민권	-17530
▁병인	-17531
▁북상	-17532
▁석등	-17533
▁인대	-17534
▁지층	-17535
▁총액	-17536
▁할양	-17537
▁홍천	-17538
▁훈족	-17539
▁연구실	-17540
▁1795	-17541
▁아나키즘	-17542
▁총학생회	-17543
▁그리스도교	-17544
ye	-17545
카라	-17546
▁구석	-17547
▁레미	-17548
▁선회	-17549
▁이뤘	-17550
▁이효	-17551
▁일람	-17552
▁진하	-17553
▁포교	-17554
▁헤임	-17555
▁남조선	-17556
▁다면체	-17557
▁상대론	-17558
▁우승컵	-17559
▁하모니	-17560
살바도르	-17561
▁아틀레틱	-17562
▁카테고리	-17563
▁세키가하라	-17564
▁윔	-17565
림동	-17566
어냈	-17567
▁승전	-17568
▁어쩌	-17569
▁정여	-17570
▁헨드	-17571
▁블루어	-17572
▁성북구	-17573
▁어려울	-17574
▁여긴다	-17575
▁올라온	-17576
▁재빨리	-17577
▁준다고	-17578
▁갑신정변	-17579
▁석가여래	-17580
건적	-17581
구멍	-17582
yle	-17583
▁kW	-17584
▁감기	-17585
▁랜덤	-17586
▁매춘	-17587
▁암초	-17588
▁에린	-17589
▁웅진	-17590
▁윗면	-17591
▁장조	-17592
▁초당	-17593
▁가져갔	-17594
▁넥스트	-17595
▁창업자	-17596
▁With	-17597
▁렝	-17598
ger	-17599
▁개전	-17600
▁고해	-17601
▁괴뢰	-17602
▁려다	-17603
▁켈빈	-17604
▁페데	-17605
▁헤지	-17606
주니어	-17607
▁238	-17608
▁850	-17609
▁TBC	-17610
▁공기업	-17611
▁변속기	-17612
▁원정군	-17613
▁윤리학	-17614
▁다리우스	-17615
▁디렉터리	-17616
▁뱌	-17617
니코	-17618
레프	-17619
르모	-17620
팽이	-17621
enc	-17622
▁감탄	-17623
▁김세	-17624
▁도정	-17625
▁브람	-17626
▁세베	-17627
▁소도	-17628
▁스톨	-17629
▁원술	-17630
▁장준	-17631
▁국문학	-17632
▁트루먼	-17633
▁프리킥	-17634
▁보였으나	-17635
▁부위원장	-17636
ING	-17637
alk	-17638
▁Di	-17639
▁MT	-17640
▁반야	-17641
▁보훈	-17642
▁얼터	-17643
▁에런	-17644
▁차분	-17645
▁코지	-17646
▁토비	-17647
▁Art	-17648
▁익산시	-17649
▁통신부	-17650
▁홉킨스	-17651
▁황태후	-17652
UI	-17653
▁켓	-17654
뉴스	-17655
▁남포	-17656
▁도색	-17657
▁미숙	-17658
▁본초	-17659
▁우사	-17660
▁웰스	-17661
디우스	-17662
▁돌아간	-17663
▁드러난	-17664
▁무너졌	-17665
▁헬싱키	-17666
▁사탕수수	-17667
부미	-17668
▁광택	-17669
▁로동	-17670
▁미코	-17671
▁쇠약	-17672
▁윈터	-17673
▁율령	-17674
▁480	-17675
▁남반구	-17676
▁바로잡	-17677
▁보행자	-17678
▁빅토리	-17679
▁여객선	-17680
▁초대칭	-17681
▁합천군	-17682
▁COVID	-17683
블린	-17684
▁니나	-17685
▁몬태	-17686
▁민생	-17687
▁부녀	-17688
▁유시	-17689
▁직함	-17690
▁첨부	-17691
네소스	-17692
ough	-17693
▁남해군	-17694
▁로렌초	-17695
▁창덕궁	-17696
▁드레이크	-17697
▁어드밴스	-17698
▁언어학자	-17699
▁먀	-17700
▁골수	-17701
▁군국	-17702
▁만기	-17703
▁유원	-17704
▁이형	-17705
▁인신	-17706
▁종친	-17707
▁착한	-17708
▁천정	-17709
▁특례	-17710
▁벤피카	-17711
▁MPEG	-17712
▁받아들인	-17713
▁수마트라	-17714
▁키르기스스탄	-17715
개혁	-17716
글러	-17717
하스	-17718
▁과부	-17719
▁국지	-17720
▁독소	-17721
▁루머	-17722
▁머피	-17723
▁숭실	-17724
▁심플	-17725
▁정강	-17726
▁줄였	-17727
▁평신	-17728
▁필기	-17729
독립당	-17730
코스트	-17731
▁공직자	-17732
▁알레르	-17733
▁제이스	-17734
▁타블로	-17735
▁페테르	-17736
▁Blue	-17737
▁기념사업	-17738
▁요시아키	-17739
▁한국독립당	-17740
23	-17741
▁간디	-17742
▁경이	-17743
▁교주	-17744
▁굶주	-17745
▁돌핀	-17746
▁묘법	-17747
▁버시	-17748
▁세탁	-17749
▁신구	-17750
▁장항	-17751
▁팀장	-17752
▁판다	-17753
▁페터	-17754
시우스	-17755
▁북반구	-17756
▁손바닥	-17757
▁유격대	-17758
▁찾아왔	-17759
▁체스터	-17760
▁가나자와	-17761
▁안드레이	-17762
▁국과	-17763
▁기시	-17764
▁논설	-17765
▁데메	-17766
▁리저	-17767
▁바일	-17768
▁박승	-17769
▁불평	-17770
▁솔트	-17771
▁어딘	-17772
▁연유	-17773
▁이트	-17774
▁Rev	-17775
▁돋보이	-17776
▁스타인	-17777
▁에히메	-17778
▁크라스	-17779
▁중앙정보부	-17780
BT	-17781
재란	-17782
쳐서	-17783
▁교묘	-17784
▁덩굴	-17785
▁데쓰	-17786
▁마조	-17787
▁맛있	-17788
▁산불	-17789
▁수렵	-17790
▁순정	-17791
▁엄정	-17792
▁여과	-17793
▁월북	-17794
▁이국	-17795
▁정병	-17796
▁존엄	-17797
▁천구	-17798
▁하디	-17799
플레잉	-17800
▁223	-17801
▁노르트	-17802
▁데포르	-17803
▁산체스	-17804
▁아쿠아	-17805
▁에밀리	-17806
▁충렬왕	-17807
▁키워드	-17808
▁1793	-17809
▁롤플레잉	-17810
▁정유재란	-17811
26	-17812
IO	-17813
▁뚱	-17814
OVE	-17815
▁갤러	-17816
▁고운	-17817
▁구룡	-17818
▁권하	-17819
▁낙타	-17820
▁대뇌	-17821
▁멜론	-17822
▁서강	-17823
▁오호	-17824
▁주경	-17825
▁펀치	-17826
연화경	-17827
▁보호관	-17828
▁쓰여졌	-17829
▁이완용	-17830
▁이베리아	-17831
▁꼼	-17832
모자	-17833
▁각광	-17834
▁걸치	-17835
▁구토	-17836
▁설사	-17837
▁언젠	-17838
▁역모	-17839
▁참배	-17840
▁쿠릴	-17841
▁표결	-17842
캐스트	-17843
▁기뻐하	-17844
▁상속인	-17845
▁안데르	-17846
▁테트라	-17847
▁팩토리	-17848
▁페인트	-17849
▁평화상	-17850
▁브루나이	-17851
▁하이웨이	-17852
나물	-17853
바람	-17854
▁당분	-17855
▁박기	-17856
▁보츠	-17857
▁본당	-17858
▁새기	-17859
▁성내	-17860
▁심근	-17861
▁악역	-17862
▁와해	-17863
비우스	-17864
슬라브	-17865
웨스트	-17866
▁COM	-17867
▁메이트	-17868
▁문하시	-17869
▁보라색	-17870
▁빼앗겼	-17871
▁전기장	-17872
▁중서부	-17873
▁포위전	-17874
스트리트	-17875
▁1846	-17876
▁갈릴레이	-17877
▁물리학상	-17878
▁낀	-17879
래시	-17880
질량	-17881
que	-17882
ump	-17883
▁내구	-17884
▁무당	-17885
▁발단	-17886
▁방조	-17887
▁베버	-17888
▁브롱	-17889
▁억류	-17890
▁해일	-17891
다람쥐	-17892
▁737	-17893
▁낙하산	-17894
▁농작물	-17895
▁시어터	-17896
▁아칸소	-17897
▁중앙아프리카	-17898
대성	-17899
섬유	-17900
처리	-17901
패스	-17902
der	-17903
▁경멸	-17904
▁구인	-17905
▁귀양	-17906
▁내수	-17907
▁니콘	-17908
▁범용	-17909
▁봉작	-17910
▁인출	-17911
▁LCD	-17912
▁Min	-17913
▁데려가	-17914
▁시공간	-17915
▁엉덩이	-17916
▁추밀원	-17917
▁time	-17918
▁비지니스	-17919
▁에드먼드	-17920
▁하시모토	-17921
▁촘	-17922
메트	-17923
▁게일	-17924
▁공덕	-17925
▁괴멸	-17926
▁다지	-17927
▁몸집	-17928
▁서보	-17929
▁윤석	-17930
▁추위	-17931
▁톨킨	-17932
▁하순	-17933
▁해자	-17934
▁현충	-17935
▁가입자	-17936
▁베드로	-17937
▁아산시	-17938
▁아테나	-17939
▁외무성	-17940
▁1839	-17941
▁오브젝트	-17942
▁자동변속기	-17943
리가	-17944
파스	-17945
▁ME	-17946
▁디디	-17947
▁미묘	-17948
▁박인	-17949
▁박준	-17950
▁부윤	-17951
▁육아	-17952
▁윤원	-17953
▁총체	-17954
▁파드	-17955
▁Top	-17956
▁국무원	-17957
▁버나드	-17958
▁산둥성	-17959
▁오비탈	-17960
▁입출력	-17961
▁지난해	-17962
총리대신	-17963
▁미성년자	-17964
▁블레이드	-17965
▁초등학생	-17966
▁히로부미	-17967
▁아오모리현	-17968
▁내각총리대신	-17969
HD	-17970
▁넉	-17971
든지	-17972
▁갑각	-17973
▁마한	-17974
▁말린	-17975
▁망루	-17976
▁섬겼	-17977
▁환기	-17978
티우스	-17979
▁214	-17980
▁기부금	-17981
▁배수량	-17982
▁이브라	-17983
▁1854	-17984
▁상파울루	-17985
▁여주인공	-17986
▁시즈오카현	-17987
▁퓌	-17988
사회	-17989
우어	-17990
정권	-17991
후이	-17992
▁간염	-17993
▁느라	-17994
▁등대	-17995
▁마는	-17996
▁볼륨	-17997
▁성추	-17998
▁유폐	-17999
▁인피	-18000
▁존상	-18001
▁찬탈	-18002
▁칼레	-18003
▁클루	-18004
▁퇴단	-18005
▁트러	-18006
▁페가	-18007
▁핵산	-18008
▁후시	-18009
▁휘트	-18010
▁다이나	-18011
▁공화주의	-18012
▁이해관계	-18013
▁차량기지	-18014
▁브론	-18015
▁상작	-18016
▁손책	-18017
▁아민	-18018
▁이견	-18019
▁준하	-18020
▁케도	-18021
▁후백	-18022
니다드	-18023
▁가시마	-18024
▁건국대	-18025
▁최하위	-18026
▁하카타	-18027
▁후임자	-18028
▁기독교인	-18029
▁트리니다드	-18030
28	-18031
고트	-18032
▁걸맞	-18033
▁교포	-18034
▁깜짝	-18035
▁반려	-18036
▁부이	-18037
▁분양	-18038
▁사흘	-18039
▁석상	-18040
▁욕설	-18041
▁조력	-18042
▁종주	-18043
▁쪼개	-18044
▁치중	-18045
타니아	-18046
프랑스	-18047
▁경비대	-18048
▁식물원	-18049
▁증명서	-18050
▁지난다	-18051
▁진보당	-18052
▁파트리	-18053
▁PP	-18054
▁가니	-18055
▁고하	-18056
▁낙랑	-18057
▁바덴	-18058
▁비참	-18059
▁새턴	-18060
▁야로	-18061
▁우동	-18062
▁제식	-18063
▁코레	-18064
▁건너갔	-18065
▁구청장	-18066
▁비행대	-18067
▁안중근	-18068
▁데포르티보	-18069
▁럴	-18070
▁뺏	-18071
버드	-18072
천년	-18073
▁고압	-18074
▁담론	-18075
▁메사	-18076
▁미모	-18077
▁역습	-18078
▁유장	-18079
▁유품	-18080
▁한서	-18081
▁화북	-18082
▁교직원	-18083
▁대머리	-18084
▁돗토리	-18085
▁러서는	-18086
▁조계종	-18087
▁비트코인	-18088
▁플로이드	-18089
▁돛	-18090
러기	-18091
▁단사	-18092
▁단성	-18093
▁라몬	-18094
▁매월	-18095
▁모기	-18096
▁수류	-18097
▁시경	-18098
▁어기	-18099
▁어이	-18100
▁오딘	-18101
▁치수	-18102
▁폰트	-18103
▁현령	-18104
atch	-18105
▁교토부	-18106
▁보나파	-18107
▁절대로	-18108
베이거스	-18109
▁마음대로	-18110
▁소용돌이	-18111
▁보나파르트	-18112
렁이	-18113
재기	-18114
▁걸로	-18115
▁견습	-18116
▁배설	-18117
▁사죄	-18118
▁상투	-18119
▁셔먼	-18120
▁실로	-18121
▁언약	-18122
▁장령	-18123
▁적성	-18124
▁제원	-18125
▁페드	-18126
쿠스틱	-18127
트로피	-18128
▁419	-18129
▁나가노	-18130
▁레인보	-18131
▁보르도	-18132
▁찬드라	-18133
▁하이든	-18134
▁향한다	-18135
▁1849	-18136
▁Beat	-18137
▁끌어들이	-18138
▁어쿠스틱	-18139
▁크레이그	-18140
▁라스베이거스	-18141
▁깡	-18142
▁쥔	-18143
깨비	-18144
담회	-18145
왕국	-18146
▁간장	-18147
▁김문	-18148
▁두껍	-18149
▁매번	-18150
▁분장	-18151
▁센스	-18152
▁소홀	-18153
▁시주	-18154
▁오닐	-18155
▁웅장	-18156
▁치가	-18157
▁친절	-18158
▁태세	-18159
▁북극해	-18160
▁반공주의	-18161
OU	-18162
누아	-18163
탐정	-18164
호프	-18165
▁KC	-18166
▁낙엽	-18167
▁남로	-18168
▁변방	-18169
▁분쇄	-18170
▁비크	-18171
▁소란	-18172
▁수배	-18173
▁알비	-18174
▁원성	-18175
▁웨일	-18176
▁윤영	-18177
▁제학	-18178
▁조승	-18179
▁철원	-18180
리어스	-18181
▁211	-18182
▁430	-18183
▁레이어	-18184
▁에리크	-18185
▁1856	-18186
86	-18187
오린	-18188
전기	-18189
▁TG	-18190
▁광경	-18191
▁라티	-18192
▁명주	-18193
▁신작	-18194
▁연임	-18195
▁이안	-18196
▁임베	-18197
▁적재	-18198
▁화전	-18199
궐선거	-18200
루리아	-18201
직할시	-18202
icro	-18203
▁감염자	-18204
▁갖가지	-18205
▁취한다	-18206
▁특이점	-18207
▁노동자당	-18208
▁델라웨어	-18209
▁사보이아	-18210
▁서스펜션	-18211
▁올랭피크	-18212
▁임베디드	-18213
▁정사각형	-18214
▁네덜란드어	-18215
▁오하이오주	-18216
▁재보궐선거	-18217
▁통합진보당	-18218
케스	-18219
▁계투	-18220
▁낯선	-18221
▁대세	-18222
▁디온	-18223
▁만국	-18224
▁밀스	-18225
▁북해	-18226
▁상체	-18227
▁서상	-18228
▁여생	-18229
▁예속	-18230
▁추궁	-18231
▁틀리	-18232
▁팔려	-18233
▁페티	-18234
▁쓰여져	-18235
▁아가씨	-18236
▁테이크	-18237
▁캐나다인	-18238
▁녜	-18239
일라	-18240
▁계란	-18241
▁반열	-18242
▁본디	-18243
▁오기	-18244
▁파격	-18245
▁FBI	-18246
▁어리석	-18247
▁저작물	-18248
▁핵실험	-18249
▁핵폭탄	-18250
츠부르크	-18251
▁1851	-18252
▁크리에이티브	-18253
니크	-18254
바꿈	-18255
쿠젠	-18256
호르	-18257
▁DL	-18258
▁ER	-18259
▁마자	-18260
▁생가	-18261
▁요아	-18262
▁으론	-18263
▁잠복	-18264
▁301	-18265
▁Med	-18266
▁가속기	-18267
▁명명법	-18268
▁스나이	-18269
▁카운터	-18270
▁해럴드	-18271
▁스탠퍼드	-18272
니엄	-18273
연대	-18274
증권	-18275
하늘	-18276
ery	-18277
▁IA	-18278
▁결탁	-18279
▁경색	-18280
▁국면	-18281
▁도독	-18282
▁드니	-18283
▁방수	-18284
▁수서	-18285
▁심슨	-18286
▁인테	-18287
▁정시	-18288
▁촌은	-18289
▁카잔	-18290
▁히다	-18291
고양이	-18292
제르맹	-18293
▁배트맨	-18294
▁웨이트	-18295
▁장택상	-18296
▁지평선	-18297
▁투데이	-18298
타고라스	-18299
려야	-18300
봉사	-18301
체어	-18302
oup	-18303
▁단호	-18304
▁박격	-18305
▁보문	-18306
▁헤엄	-18307
cess	-18308
▁노스케	-18309
▁대주주	-18310
▁시부야	-18311
▁애벌레	-18312
▁언젠가	-18313
▁은하단	-18314
▁참모장	-18315
▁청교도	-18316
▁펠로폰	-18317
▁Free	-18318
▁빠져나가	-18319
▁프란시스	-18320
▁펠로폰네소스	-18321
29	-18322
▁힉	-18323
지대	-18324
▁비이	-18325
▁쌓여	-18326
▁아모	-18327
▁외동	-18328
▁잇달	-18329
▁주치	-18330
▁지소	-18331
▁태워	-18332
▁히나	-18333
▁글리코	-18334
▁다닌다	-18335
▁대각선	-18336
▁수산물	-18337
▁수수료	-18338
▁하동군	-18339
▁황도대	-18340
▁1855	-18341
▁1857	-18342
▁다이스케	-18343
27	-18344
연료	-18345
카테	-18346
투안	-18347
하르	-18348
▁YM	-18349
▁대광	-18350
▁대열	-18351
▁발송	-18352
▁버퍼	-18353
▁서천	-18354
▁성간	-18355
▁쇼팽	-18356
▁원가	-18357
▁정년	-18358
▁항모	-18359
▁공사관	-18360
▁구석기	-18361
▁그로스	-18362
▁기념식	-18363
▁바란다	-18364
▁베르디	-18365
▁변증법	-18366
▁봉사자	-18367
▁일간지	-18368
▁작사가	-18369
▁집어넣	-18370
▁생제르맹	-18371
▁스티븐스	-18372
▁엔트로피	-18373
▁폴란드인	-18374
레토	-18375
소득	-18376
▁기물	-18377
▁랜디	-18378
▁벚꽃	-18379
▁벽면	-18380
▁소망	-18381
▁열반	-18382
▁음경	-18383
▁찬스	-18384
▁캔디	-18385
▁헐리	-18386
▁현명	-18387
들랜드	-18388
▁마그마	-18389
▁새천년	-18390
▁캥거루	-18391
▁행정관	-18392
메니스탄	-18393
▁투르크메니스탄	-18394
로아	-18395
쇼프	-18396
흐트	-18397
▁CL	-18398
▁니즘	-18399
▁덧셈	-18400
▁무왕	-18401
▁빌미	-18402
▁성년	-18403
▁착안	-18404
▁체첸	-18405
▁해금	-18406
▁동의어	-18407
▁성추행	-18408
▁세운다	-18409
▁시흥시	-18410
▁잇따라	-18411
▁휠체어	-18412
▁이와테현	-18413
▁태평천국	-18414
▁민족주의자	-18415
버거	-18416
산읍	-18417
테른	-18418
▁CT	-18419
▁과업	-18420
▁몰라	-18421
▁분개	-18422
▁슈바	-18423
▁신명	-18424
▁실습	-18425
▁택지	-18426
▁한참	-18427
▁현생	-18428
▁구미시	-18429
▁병원체	-18430
▁상세히	-18431
▁출생지	-18432
▁뛴	-18433
댄스	-18434
▁거액	-18435
▁노다	-18436
▁맛보	-18437
▁성채	-18438
▁수스	-18439
▁이로	-18440
▁이학	-18441
▁타고	-18442
▁템포	-18443
▁픽션	-18444
콥스키	-18445
▁Pop	-18446
▁루터교	-18447
▁마인드	-18448
▁모여서	-18449
▁서북쪽	-18450
▁포브스	-18451
▁포천시	-18452
▁Will	-18453
▁스포르팅	-18454
▁열렸으며	-18455
▁병마절도사	-18456
▁좡	-18457
▁권세	-18458
▁셀룰	-18459
▁신영	-18460
▁압송	-18461
▁외벽	-18462
▁위니	-18463
▁중첩	-18464
▁친목	-18465
시오날	-18466
▁나주시	-18467
▁컨디션	-18468
▁형무소	-18469
▁나시오날	-18470
▁들어와서	-18471
모습	-18472
▁고증	-18473
▁김한	-18474
▁노회	-18475
▁변장	-18476
▁본기	-18477
▁역행	-18478
▁이공	-18479
▁잊혀	-18480
▁크세	-18481
▁포구	-18482
▁회부	-18483
▁NAD	-18484
▁베르그	-18485
▁샘플링	-18486
▁쫓아내	-18487
▁하이델	-18488
▁항구역	-18489
서구	-18490
▁만리	-18491
▁방한	-18492
▁살림	-18493
▁장구	-18494
▁지병	-18495
▁탄원	-18496
▁퇴사	-18497
▁무서운	-18498
▁비정규	-18499
▁시우바	-18500
▁팰리스	-18501
▁헤이스	-18502
▁불렀으며	-18503
스탕	-18504
평가	-18505
활성	-18506
ont	-18507
▁계파	-18508
▁까다	-18509
▁뇌졸	-18510
▁명지	-18511
▁버즈	-18512
▁슬픈	-18513
▁요네	-18514
▁율곡	-18515
▁카렐	-18516
▁한도	-18517
▁합체	-18518
▁모티프	-18519
▁비엔나	-18520
▁오카다	-18521
▁포위망	-18522
▁1776	-18523
▁플루오린	-18524
▁간파	-18525
▁교복	-18526
▁급습	-18527
▁대적	-18528
▁서드	-18529
▁음란	-18530
▁재원	-18531
▁준위	-18532
▁팔자	-18533
메데스	-18534
▁독립국	-18535
▁려다가	-18536
▁베리아	-18537
▁아세트	-18538
▁해설자	-18539
▁미주리주	-18540
▁누락	-18541
▁대흥	-18542
▁라데	-18543
▁미안	-18544
▁알론	-18545
▁액수	-18546
▁연천	-18547
▁와트	-18548
▁이연	-18549
▁지남	-18550
▁코민	-18551
▁파사	-18552
메네스	-18553
▁XML	-18554
▁메이플	-18555
▁보니파	-18556
▁수송기	-18557
▁이범석	-18558
▁좋아했	-18559
▁찾아온	-18560
▁국민회의	-18561
▁무라카미	-18562
▁원내대표	-18563
▁클라리넷	-18564
ma	-18565
가야	-18566
마타	-18567
day	-18568
▁HK	-18569
▁몬트	-18570
▁산탄	-18571
▁셰이	-18572
▁영아	-18573
▁윤선	-18574
▁조식	-18575
▁직제	-18576
▁칸타	-18577
▁포탈	-18578
중국해	-18579
▁달라이	-18580
▁바이스	-18581
▁시설물	-18582
▁에인절	-18583
▁청구인	-18584
▁사카모토	-18585
▁그레고리력	-18586
광선	-18587
를린	-18588
▁당기	-18589
▁로로	-18590
▁몰입	-18591
▁미팅	-18592
▁반가	-18593
▁사성	-18594
▁심신	-18595
▁원제	-18596
▁총알	-18597
▁케니	-18598
▁퇴화	-18599
▁현청	-18600
노벨라	-18601
▁233	-18602
▁End	-18603
▁거제시	-18604
▁크리켓	-18605
▁프로파	-18606
▁올랐으나	-18607
▁텔레노벨라	-18608
페리	-18609
▁Po	-18610
▁골목	-18611
▁구운	-18612
▁국채	-18613
▁금광	-18614
▁버릴	-18615
▁부총	-18616
▁비기	-18617
▁사극	-18618
▁음소	-18619
▁퓨전	-18620
▁픽업	-18621
▁Bro	-18622
▁브레인	-18623
▁서기장	-18624
▁가까스로	-18625
▁10000	-18626
BL	-18627
돼지	-18628
▁BR	-18629
▁FX	-18630
▁ne	-18631
▁땅콩	-18632
▁만다	-18633
▁문교	-18634
▁상시	-18635
▁서던	-18636
▁양손	-18637
▁연좌	-18638
▁청탁	-18639
▁포에	-18640
▁화신	-18641
▁엑스선	-18642
▁포레스트	-18643
▁레오나르도	-18644
계리	-18645
버섯	-18646
행사	-18647
aut	-18648
▁국고	-18649
▁귀납	-18650
▁끊이	-18651
▁발주	-18652
▁생사	-18653
▁입안	-18654
▁호가	-18655
▁김종필	-18656
▁레너드	-18657
▁리서치	-18658
▁부활절	-18659
▁코미디언	-18660
▁묘법연화경	-18661
볼트	-18662
▁MW	-18663
▁괴팅	-18664
▁교우	-18665
▁미망	-18666
▁어진	-18667
▁지단	-18668
▁최경	-18669
▁클론	-18670
▁판별	-18671
▁표상	-18672
▁하쿠	-18673
레시브	-18674
▁급기야	-18675
▁사모아	-18676
▁심포니	-18677
▁영등포	-18678
▁영산회	-18679
▁클라라	-18680
▁프로그레시브	-18681
HS	-18682
슐린	-18683
▁가메	-18684
▁각별	-18685
▁누각	-18686
▁미움	-18687
▁시왕	-18688
▁여긴	-18689
▁장타	-18690
▁조참	-18691
▁지어	-18692
▁지워	-18693
▁진안	-18694
▁타현	-18695
▁혹독	-18696
더니즘	-18697
덜랜드	-18698
▁가까웠	-18699
▁동북쪽	-18700
▁서둘러	-18701
▁유니온	-18702
▁이어질	-18703
▁네브래스카	-18704
▁캄파니아주	-18705
▁쉰	-18706
워키	-18707
its	-18708
▁간소	-18709
▁대양	-18710
▁로젠	-18711
▁명절	-18712
▁반일	-18713
▁세브	-18714
▁수잔	-18715
▁안다	-18716
▁쿠키	-18717
▁표했	-18718
▁다시피	-18719
▁서로마	-18720
▁원한다	-18721
▁특공대	-18722
▁퍼펙트	-18723
▁미시간주	-18724
▁프로토타입	-18725
니발	-18726
저민	-18727
▁JP	-18728
▁노미	-18729
▁로미	-18730
▁린드	-18731
▁맞섰	-18732
▁정파	-18733
▁천명	-18734
▁215	-18735
▁del	-18736
▁벤저민	-18737
▁피에트로	-18738
br	-18739
개발	-18740
▁CV	-18741
▁TN	-18742
▁독감	-18743
▁라비	-18744
▁아속	-18745
▁접착	-18746
▁정약	-18747
▁창안	-18748
▁치이	-18749
▁한방	-18750
▁황보	-18751
irst	-18752
▁510	-18753
▁가로막	-18754
▁목걸이	-18755
▁수메르	-18756
▁쓰러져	-18757
▁알레르기	-18758
▁플레이트	-18759
▁언더그라운드	-18760
노동	-18761
IDS	-18762
▁나나	-18763
▁도핑	-18764
▁로자	-18765
▁살상	-18766
▁세가	-18767
▁어필	-18768
▁에나	-18769
▁영연	-18770
▁요세	-18771
▁원화	-18772
▁정철	-18773
▁청화	-18774
▁포즈	-18775
▁홀드	-18776
▁239	-18777
▁set	-18778
▁계약서	-18779
▁단기간	-18780
▁미카사	-18781
▁버려진	-18782
▁파이브	-18783
▁조기어류	-18784
급시	-18785
▁감명	-18786
▁경수	-18787
▁구면	-18788
▁배영	-18789
▁서훈	-18790
▁위드	-18791
▁장보	-18792
▁정량	-18793
▁처했	-18794
▁콘월	-18795
▁타가	-18796
▁Big	-18797
▁사중주	-18798
▁생태학	-18799
▁LIVE	-18800
▁Rain	-18801
▁캔터베리	-18802
▁WH	-18803
▁마마	-18804
▁상피	-18805
▁우문	-18806
▁유즈	-18807
▁전갈	-18808
▁체임	-18809
▁틈새	-18810
▁DFB	-18811
▁문화사	-18812
▁해적단	-18813
EX	-18814
미치	-18815
빼미	-18816
에리	-18817
▁SI	-18818
▁공녀	-18819
▁노먼	-18820
▁레베	-18821
▁루소	-18822
▁루아	-18823
▁밑면	-18824
▁북제	-18825
▁서킷	-18826
▁수난	-18827
▁시로	-18828
▁영세	-18829
▁점하	-18830
▁주어	-18831
▁편하	-18832
핵생물	-18833
▁논산시	-18834
▁돌려주	-18835
▁버밍엄	-18836
▁퀘스트	-18837
▁계몽주의	-18838
▁돌아온다	-18839
▁아틀라스	-18840
▁개간	-18841
▁까치	-18842
▁다의	-18843
▁매드	-18844
▁메콩	-18845
▁부원	-18846
▁시동	-18847
▁시료	-18848
▁열광	-18849
▁우랄	-18850
▁제향	-18851
▁주둥	-18852
▁추석	-18853
▁카쿠	-18854
▁쿠페	-18855
▁BMW	-18856
▁게이츠	-18857
▁권력자	-18858
▁브리트	-18859
▁서남쪽	-18860
▁월리스	-18861
▁전년도	-18862
▁프리랜	-18863
▁후반부	-18864
▁인테리어	-18865
보스	-18866
이인	-18867
▁금화	-18868
▁도금	-18869
▁듀크	-18870
▁신재	-18871
▁실드	-18872
[...]
