[PAD]	0
[UNK]	0
[BOS]	0
[EOS]	0
[CLS]	0
[SEP]	0
[MASK]	0
▁▃	-0
▁ㅇ	-1
▁ㄴ	-2
ㅡㄴ	-3
ㅡㄹ	-4
▁하	-5
▁ㄱ	-6
▁.	-7
▁ㄹ	-8
▁ㄷ	-9
▁이	-10
▁ㅇㅡㄹ	-11
▁ㅇㅔ	-12
▁ㄴㅡㄴ	-13
▁ㄷㅏ	-14
▁ㅇㅢ	-15
▁ㅇㅓ	-16
▁ㅇㅏ	-17
▁ㅇㅣ	-18
▁,	-19
ㅅㅓ	-20
▁ㄹㅡㄹ	-21
▁ㅇㅡㄴ	-22
▁ㄱㅏ	-23
▁ㄱㅗ	-24
ㄷㅏ	-25
▁1	-26
ㅁㅕ	-27
▁있	-28
▁되	-29
ㅈㅣ	-30
▁2	-31
▁ㅇㅓㅆ	-32
▁ㄴㄷㅏ	-33
▁ㄷㅗ	-34
▁ㅇㅔㅅㅓ	-35
▁ㄹㅗ	-36
▁그	-37
▁사	-38
▁ㅇㅡㄹㅗ	-39
▁ㅇㅏㅆ	-40
▁들	-41
▁시	-42
▁아	-43
▁ㅈㅣ	-44
▁ㅁㅕ	-45
ㅏㄴ	-46
▁대	-47
▁수	-48
▁보	-49
▁가	-50
▁지	-51
▁것	-52
▁일	-53
▁ㄱㅣ	-54
▁전	-55
▁기	-56
▁주	-57
▁나	-58
▁ㄱㅔ	-59
▁-	-60
▁자	-61
ㅁㅏㄴ	-62
▁다	-63
▁적	-64
▁ㅁㅕㄴ	-65
▁스	-66
▁3	-67
▁마	-68
▁ㄱㅘ	-69
▁정	-70
▁상	-71
▁ㅇㅘ	-72
▁모	-73
ㄱㅗ	-74
▁ㄹㅏ	-75
▁20	-76
▁오	-77
▁때	-78
▁'	-79
▁공	-80
▁년	-81
▁:	-82
▁경	-83
▁인	-84
▁중	-85
▁유	-86
▁제	-87
▁부	-88
ㅓㄴ	-89
▁위	-90
▁한	-91
▁없	-92
▁비	-93
▁4	-94
▁무	-95
▁ㅈㅣㅁㅏㄴ	-96
▁소	-97
▁성	-98
▁등	-99
▁어	-100
▁않	-101
ㄱㅔ	-102
▁ㅇㅔㄱㅔ	-103
▁5	-104
▁만	-105
▁개	-106
▁미	-107
ㄷㅔ	-108
▁0	-109
▁ㄷㅓㄴ	-110
▁여	-111
▁세	-112
▁바	-113
▁"	-114
▁ㅂ	-115
▁월	-116
▁내	-117
▁조	-118
▁ㅇㅡ	-119
▁고	-120
▁201	-121
▁장	-122
▁/	-123
▁방	-124
▁거	-125
▁동	-126
▁카	-127
▁타	-128
▁도	-129
▁선	-130
▁말	-131
▁연	-132
ㄲㅏ	-133
▁안	-134
▁영	-135
▁신	-136
ㄴㅡㄴ	-137
▁생	-138
▁후	-139
▁화	-140
▁구	-141
▁ㅁㅏㄴ	-142
▁버	-143
▁당	-144
▁차	-145
▁발	-146
▁리	-147
▁ㄴㅡㄴㄷㅔ	-148
▁ㅇㅡㅁㅕ	-149
▁레	-150
▁ㄹㅏㄴ	-151
▁때문	-152
▁6	-153
▁크	-154
▁원	-155
▁ㅇㅏㅅㅓ	-156
▁ㅇㅕ	-157
▁ㅈ	-158
▁강	-159
▁파	-160
▁우	-161
▁10	-162
▁아니	-163
▁ㄲㅏ	-164
▁명	-165
▁ㄲㅏㅈㅣ	-166
▁최	-167
▁의	-168
▁실	-169
▁서	-170
▁노	-171
▁문	-172
▁데	-173
▁번	-174
▁7	-175
▁해	-176
▁ㄹㅏㄱㅗ	-177
▁더	-178
▁ㄹㅏㄴㅡㄴ	-179
▁불	-180
▁같	-181
▁포	-182
▁회	-183
▁진	-184
▁!	-185
▁나오	-186
▁단	-187
▁관	-188
▁받	-189
▁S	-190
▁특	-191
▁8	-192
▁많	-193
▁결	-194
▁초	-195
▁라	-196
▁반	-197
▁ㅈㅏ	-198
▁ㄷㅏㄱㅗ	-199
▁작	-200
▁알	-201
▁프	-202
▁보이	-203
▁역	-204
▁쓰	-205
▁19	-206
▁게	-207
▁배	-208
▁드	-209
▁ㅁㅕㄴㅅㅓ	-210
▁피	-211
▁계	-212
▁9	-213
▁경우	-214
▁코	-215
▁ㅇㅓㅅㅓ	-216
▁공격	-217
▁분	-218
▁추	-219
▁남	-220
ㄱㅏ	-221
ㄷㅗ	-222
▁ㄷㅏㄴㅡㄴ	-223
▁A	-224
▁물	-225
▁사용	-226
▁ㄴㅏ	-227
▁출	-228
ㅁㅕㄴ	-229
▁치	-230
▁에	-231
▁국	-232
▁두	-233
▁못	-234
▁현	-235
▁자신	-236
레이	-237
▁매	-238
▁좋	-239
▁M	-240
▁점	-241
▁편	-242
▁패	-243
▁달	-244
▁이후	-245
▁저	-246
▁%	-247
▁감	-248
▁그리	-249
▁호	-250
▁트	-251
ㅌㅓ	-252
ㅜㅌㅓ	-253
▁학	-254
▁따	-255
▁로	-256
▁교	-257
▁정도	-258
▁재	-259
▁사람	-260
▁메	-261
▁통	-262
▁요	-263
▁C	-264
▁입	-265
▁예	-266
▁또	-267
▁속	-268
ㅇㅑ	-269
스트	-270
▁플	-271
▁B	-272
▁가능	-273
▁캐	-274
▁T	-275
▁김	-276
▁설	-277
▁위하	-278
▁참	-279
▁본	-280
▁형	-281
▁함	-282
▁평	-283
▁등장	-284
▁대하	-285
▁ㅂㅜㅌㅓ	-286
▁~	-287
▁ᄆ	-288
▁D	-289
ㄴㅏ	-290
▁과	-291
▁돌	-292
▁+	-293
▁시키	-294
▁?	-295
▁죽	-296
▁다른	-297
▁종	-298
▁아이	-299
▁12	-300
▁승	-301
▁토	-302
▁버리	-303
▁체	-304
▁ㅇㅣㄴㅏ	-305
▁권	-306
▁게임	-307
▁외	-308
▁ㄴㅡㄴㄷㅏ	-309
▁살	-310
▁팀	-311
▁군	-312
▁ㅂㅗ	-313
▁ㅂㅗㄷㅏ	-314
▁..	-315
er	-316
▁직	-317
▁200	-318
▁11	-319
▁애	-320
▁용	-321
▁L	-322
▁처	-323
▁판	-324
▁그리고	-325
00	-326
▁가지	-327
▁키	-328
▁ㅅ	-329
▁ㅇㅡㄴㅏ	-330
▁잘	-331
▁ㅅㅓ	-332
▁맞	-333
▁확	-334
▁심	-335
ㄴㅣ	-336
▁올	-337
▁하나	-338
어지	-339
▁그러	-340
▁행	-341
▁경기	-342
▁사실	-343
▁변	-344
in	-345
ㅓㄹ	-346
▁박	-347
▁못하	-348
▁만들	-349
▁필	-350
▁시간	-351
▁F	-352
▁운	-353
▁ㄴㅣ	-354
▁P	-355
▁뒤	-356
▁ㅇㅕㅆ	-357
▁ㄷㅏㄱㅏ	-358
▁베	-359
▁날	-360
▁투	-361
ㄴㅣㄷㅏ	-362
▁모습	-363
▁디	-364
▁네	-365
▁목	-366
▁간	-367
▁집	-368
▁ㅁ	-369
▁높	-370
▁히	-371
▁ㄱㅓㄴ	-372
▁약	-373
▁이상	-374
▁G	-375
▁활	-376
▁루	-377
▁사이	-378
▁이름	-379
지만	-380
▁각	-381
▁순	-382
▁언	-383
▁표	-384
▁상대	-385
▁양	-386
▁E	-387
▁건	-388
▁야	-389
▁테	-390
스터	-391
an	-392
▁능	-393
▁ㄹㅕ	-394
▁너	-395
▁시작	-396
▁하지만	-397
▁ㅇㅡㅁㅕㄴ	-398
▁문제	-399
▁효	-400
▁존	-401
on	-402
▁15	-403
▁일본	-404
▁잡	-405
▁함께	-406
▁터	-407
▁ㄱㅓㄴㅏ	-408
▁힘	-409
▁왕	-410
▁손	-411
▁증	-412
▁생각	-413
▁ㄱㅔㅆ	-414
▁병	-415
▁별	-416
▁한국	-417
ㄹㅗ	-418
▁#	-419
▁캐릭	-420
▁H	-421
▁열	-422
▁브	-423
▁막	-424
▁R	-425
▁천	-426
어나	-427
▁K	-428
▁폭	-429
▁완	-430
▁끝	-431
▁캐릭터	-432
▁따르	-433
▁듯	-434
▁능력	-435
대로	-436
▁프로	-437
▁들어	-438
▁t	-439
▁ㄴㄷㅔ	-440
▁다시	-441
ㅓㄹㅓ	-442
▁블	-443
▁총	-444
▁플레이	-445
▁클	-446
▁독	-447
▁ㅊ	-448
▁I	-449
▁시즌	-450
▁먹	-451
▁N	-452
▁스킬	-453
▁페	-454
ㅓㄹㅓㅁ	-455
▁ㅊㅓㄹㅓㅁ	-456
▁항	-457
이트	-458
▁ㄴㅈㅣ	-459
▁ㅇㅏㅇㅑ	-460
▁근	-461
▁광	-462
▁음	-463
▁추가	-464
▁새	-465
▁복	-466
▁식	-467
▁m	-468
▁당하	-469
▁빠	-470
▁ㅇㅑ	-471
▁채	-472
▁ㅇㅏㄷㅗ	-473
▁상황	-474
▁검	-475
▁그렇	-476
▁가장	-477
▁태	-478
▁또한	-479
▁카드	-480
▁삼	-481
▁누	-482
or	-483
미지	-484
▁상태	-485
▁얼	-486
▁당시	-487
▁걸	-488
▁모두	-489
ar	-490
▁결국	-491
▁길	-492
▁백	-493
▁충	-494
▁효과	-495
▁업	-496
▁곡	-497
▁앞	-498
▁모든	-499
▁18	-500
▁16	-501
▁다만	-502
▁악	-503
▁친	-504
▁쿠	-505
▁ㅇㅡㅁ	-506
▁넘	-507
▁금	-508
▁많이	-509
▁눈	-510
▁O	-511
▁전투	-512
▁30	-513
at	-514
▁시리	-515
▁티	-516
▁싸	-517
▁ㄴㄷㅏㄴㅡㄴ	-518
▁및	-519
▁임	-520
▁급	-521
▁산	-522
▁커	-523
▁13	-524
▁민	-525
▁선수	-526
▁s	-527
he	-528
▁레벨	-529
▁세계	-530
▁]	-531
▁W	-532
▁합	-533
▁존재	-534
▁여기	-535
라이	-536
▁엔	-537
▁14	-538
ㅇㅛ	-539
▁현재	-540
▁[	-541
▁ㅓ	-542
▁ㅂㄴㅣㄷㅏ	-543
▁머	-544
▁라이	-545
▁매우	-546
▁그런	-547
▁시리즈	-548
▁취	-549
▁무기	-550
▁슈	-551
▁상당	-552
ㄹㅏ	-553
▁느	-554
▁달리	-555
▁스타	-556
▁물론	-557
▁그러나	-558
▁레이	-559
▁절	-560
▁첫	-561
▁골	-562
▁통하	-563
▁마법	-564
▁극	-565
en	-566
▁엄	-567
▁ㅅㅣ	-568
▁c	-569
▁찾	-570
▁팬	-571
▁황	-572
▁얻	-573
▁17	-574
▁ㄷㅏㅁㅕㄴ	-575
▁난	-576
▁밀	-577
▁허	-578
▁자체	-579
▁창	-580
▁기술	-581
▁100	-582
▁00	-583
▁벌	-584
▁이런	-585
ㅡㄹㅗ	-586
거리	-587
▁실제	-588
▁청	-589
▁니	-590
▁주인	-591
▁놓	-592
▁모르	-593
▁이유	-594
▁줄	-595
▁떨	-596
▁25	-597
▁관련	-598
ou	-599
▁탈	-600
▁인하	-601
▁이것	-602
▁V	-603
al	-604
이지	-605
▁필요	-606
▁이용	-607
▁들어가	-608
▁U	-609
▁방송	-610
▁다음	-611
▁케	-612
▁해당	-613
▁기본	-614
▁ㅁㅏ	-615
▁철	-616
▁지역	-617
▁바로	-618
▁법	-619
▁역시	-620
▁은	-621
▁처음	-622
▁기록	-623
▁워	-624
▁부르	-625
▁ㅇㅓㅇㅑ	-626
▁곳	-627
▁방어	-628
▁돌아	-629
▁일반	-630
▁거의	-631
▁ㄴㄷㅏㄱㅗ	-632
▁환	-633
▁째	-634
▁잠	-635
▁귀	-636
▁혼	-637
▁그래	-638
▁2017	-639
▁나가	-640
리스	-641
▁199	-642
▁피해	-643
▁다르	-644
▁북	-645
▁범	-646
▁대학	-647
▁아무	-648
이스	-649
▁ㄴㅑ	-650
▁좀	-651
▁2018	-652
▁붙	-653
▁같이	-654
▁사건	-655
▁이야	-656
▁여러	-657
▁미국	-658
▁격	-659
▁이야기	-660
▁ㄴㅡㄴㅈㅣ	-661
▁특히	-662
▁탄	-663
▁싶	-664
▁글	-665
▁없이	-666
▁k	-667
▁부분	-668
▁진행	-669
▁몬	-670
es	-671
리아	-672
▁영화	-673
지막	-674
▁학교	-675
▁본인	-676
▁인간	-677
▁ㄴㄱㅏ	-678
▁둘	-679
▁참고	-680
▁2019	-681
▁풀	-682
▁증가	-683
▁즉	-684
▁쉽	-685
it	-686
ㄹㅗㄱ	-687
▁담	-688
▁팔	-689
▁리그	-690
▁엘	-691
▁뿐	-692
▁주인공	-693
부분	-694
▁자기	-695
▁면	-696
▁제작	-697
▁마지막	-698
▁속도	-699
▁헤	-700
▁몸	-701
▁준	-702
▁작품	-703
▁그냥	-704
▁몰	-705
▁의하	-706
▁21	-707
▁와	-708
▁덕	-709
▁50	-710
▁X	-711
▁ㅅㅡ	-712
▁밝	-713
▁내용	-714
▁떨어지	-715
▁넣	-716
▁2016	-717
▁ㅇㅡㄴㅣ	-718
▁슬	-719
▁ㅅㅡㅂ	-720
▁지나	-721
▁공격력	-722
▁계속	-723
▁ㅇㅓㄷㅗ	-724
▁수준	-725
▁대표	-726
▁우리	-727
▁대부분	-728
▁인물	-729
▁접	-730
▁생기	-731
▁&	-732
▁개요	-733
▁올리	-734
is	-735
▁갈	-736
re	-737
▁암	-738
▁몇	-739
▁쪽	-740
전히	-741
▁ㄹㅏㅁㅕㄴ	-742
▁질	-743
▁어느	-744
▁위치	-745
▁비슷	-746
▁w	-747
▁동안	-748
▁비하	-749
▁딜	-750
▁ㅅㅡㅂㄴㅣㄷㅏ	-751
▁대신	-752
▁22	-753
▁국가	-754
le	-755
▁지금	-756
▁강하	-757
토리	-758
▁홈	-759
▁상당히	-760
▁평가	-761
▁축	-762
▁기사	-763
▁타이	-764
▁활동	-765
▁관계	-766
▁일부	-767
▁만나	-768
▁이전	-769
▁낮	-770
▁울	-771
▁영상	-772
▁J	-773
▁보스	-774
▁알리	-775
▁d	-776
▁멀	-777
▁서울	-778
▁올라	-779
▁규	-780
▁너무	-781
▁그대로	-782
▁체력	-783
▁24	-784
▁유닛	-785
▁감독	-786
▁최대	-787
▁맡	-788
▁문서	-789
▁뛰	-790
▁괴	-791
▁성공	-792
▁기준	-793
▁빠르	-794
▁죽이	-795
▁시절	-796
ㅇㅔ	-797
▁홍	-798
▁떠	-799
ing	-800
ic	-801
▁러	-802
▁제외	-803
▁f	-804
▁밝히	-805
▁데미지	-806
▁실제로	-807
▁망	-808
▁중국	-809
▁ㅁㅡㄹㅗ	-810
▁희	-811
▁ㅏ	-812
▁몬스터	-813
▁츠	-814
as	-815
▁바람	-816
▁유저	-817
▁메이	-818
▁설정	-819
▁b	-820
▁결과	-821
라지	-822
▁정보	-823
▁멤	-824
▁그녀	-825
시아	-826
▁논	-827
▁전쟁	-828
▁지원	-829
▁어렵	-830
▁승리	-831
▁이미	-832
▁23	-833
▁멤버	-834
▁2015	-835
▁소속	-836
▁자리	-837
▁ㅁㅏㄷㅏ	-838
▁언급	-839
▁님	-840
▁애니	-841
▁ㄷㅗㄹㅗㄱ	-842
▁원래	-843
▁퍼	-844
▁온	-845
▁맨	-846
▁칼	-847
▁40	-848
▁직접	-849
▁싸우	-850
▁ㄴㄷㅏㅁㅕㄴ	-851
버지	-852
▁성우	-853
▁설명	-854
▁던	-855
▁육	-856
▁도시	-857
▁컨	-858
▁그것	-859
▁선택	-860
▁이동	-861
▁전체	-862
▁의미	-863
▁마음	-864
▁여자	-865
▁a	-866
▁배우	-867
▁씩	-868
운드	-869
▁깨	-870
▁듣	-871
▁뭐	-872
▁과거	-873
가지	-874
▁머리	-875
▁늘	-876
▁보내	-877
▁협	-878
▁<	-879
랜드	-880
▁봉	-881
▁엄청	-882
▁플레이어	-883
▁친구	-884
▁묘	-885
▁차이	-886
▁방법	-887
▁돈	-888
▁힘들	-889
▁)	-890
▁나타	-891
▁측	-892
▁아이템	-893
▁장면	-894
▁이루	-895
▁출연	-896
▁갑	-897
▁뉴	-898
이션	-899
▁소리	-900
▁ㄷㅡㄴ	-901
▁거리	-902
▁버전	-903
▁스토리	-904
om	-905
▁씨	-906
▁p	-907
am	-908
▁탑	-909
▁답	-910
▁h	-911
▁센	-912
▁향	-913
▁꽤	-914
▁빌	-915
▁즈	-916
▁놀	-917
▁대사	-918
▁바뀌	-919
▁스럽	-920
▁류	-921
▁사랑	-922
▁혹	-923
▁모드	-924
▁공식	-925
▁파이	-926
▁압	-927
▁프리	-928
벤트	-929
▁조금	-930
▁이렇	-931
▁송	-932
▁개발	-933
▁갖	-934
▁198	-935
▁까	-936
▁대상	-937
▁초반	-938
el	-939
▁책	-940
학교	-941
▁전부	-942
▁ㄹㅗㅅㅓ	-943
▁버스	-944
▁o	-945
▁연구	-946
▁침	-947
▁남자	-948
▁이벤트	-949
▁ㄹㅕㄱㅗ	-950
▁최고	-951
▁제대로	-952
▁ㄷㅡ	-953
▁ㄹㅓ	-954
▁속성	-955
▁볼	-956
▁링	-957
▁26	-958
▁궁	-959
▁걸리	-960
▁2014	-961
▁만큼	-962
▁동시	-963
▁n	-964
▁여성	-965
▁강화	-966
▁파괴	-967
▁빠지	-968
▁유명	-969
▁기타	-970
이도	-971
다가	-972
▁정말	-973
▁층	-974
▁나이	-975
▁아버지	-976
▁스테	-977
▁28	-978
▁역사	-979
▁드래	-980
▁색	-981
▁소환	-982
▁쇼	-983
▁성능	-984
▁찍	-985
▁자주	-986
▁왜	-987
▁불리	-988
▁학생	-989
▁the	-990
▁빼	-991
▁27	-992
▁아직	-993
▁최종	-994
▁운영	-995
▁누구	-996
▁우승	-997
▁회복	-998
▁석	-999
▁후반	-1000
▁당연	-1001
▁31	-1002
▁=	-1003
▁출신	-1004
이드	-1005
▁앨	-1006
▁농	-1007
▁마이	-1008
▁ㄷㅐ	-1009
▁그런데	-1010
▁다니	-1011
▁특성	-1012
▁인터	-1013
▁강력	-1014
ㅓㄹㅏ	-1015
▁이때	-1016
▁공개	-1017
▁ㄹㅏㄷㅗ	-1018
▁마리	-1019
▁확률	-1020
▁서로	-1021
▁사망	-1022
▁유지	-1023
▁끼	-1024
▁엄청나	-1025
리어	-1026
▁콘	-1027
▁노래	-1028
▁주로	-1029
ㅂㅜㅌㅓ	-1030
▁착	-1031
▁끌	-1032
▁밖	-1033
▁노선	-1034
▁ㄷㅡㅅ	-1035
▁ㄷㅐㄹㅗ	-1036
▁발매	-1037
▁ㅎ	-1038
ol	-1039
▁샤	-1040
▁이기	-1041
▁방식	-1042
▁잔	-1043
▁느끼	-1044
▁슈퍼	-1045
▁발생	-1046
▁라인	-1047
▁000	-1048
▁마찬	-1049
▁마찬가지	-1050
▁정신	-1051
▁특수	-1052
▁시스	-1053
▁결정	-1054
▁이러	-1055
▁오히	-1056
▁영향	-1057
▁나라	-1058
ㅇㅓ	-1059
▁대전	-1060
▁월드	-1061
▁오히려	-1062
▁솔	-1063
ㅇㅓㅆ	-1064
아가	-1065
ion	-1066
▁오르	-1067
et	-1068
▁이제	-1069
▁변경	-1070
▁비교	-1071
▁포함	-1072
▁영웅	-1073
▁장비	-1074
▁어떻	-1075
▁기존	-1076
▁나타나	-1077
ac	-1078
▁빨	-1079
▁일어나	-1080
▁역할	-1081
▁게다가	-1082
▁보통	-1083
▁ㄷㅓㄹㅏ	-1084
머니	-1085
▁인기	-1086
▁르	-1087
▁뜻	-1088
▁작중	-1089
▁먼	-1090
▁32	-1091
▁움	-1092
▁사라지	-1093
▁억	-1094
▁쓰이	-1095
▁맵	-1096
▁짓	-1097
▁마을	-1098
▁차량	-1099
▁중요	-1100
▁푸	-1101
▁아예	-1102
▁어떤	-1103
▁수록	-1104
▁바꾸	-1105
▁형태	-1106
▁섬	-1107
▁Y	-1108
▁술	-1109
▁ㅇㅓㅇㅛ	-1110
▁일단	-1111
▁성격	-1112
▁좌	-1113
▁싱	-1114
▁행동	-1115
▁세트	-1116
▁이번	-1117
▁난이도	-1118
▁가깝	-1119
il	-1120
us	-1121
▁대한	-1122
▁29	-1123
프트	-1124
▁과정	-1125
▁주장	-1126
우스	-1127
▁모양	-1128
▁흑	-1129
▁액	-1130
▁v	-1131
ig	-1132
▁심지	-1133
ow	-1134
▁시대	-1135
▁음악	-1136
▁부족	-1137
▁대회	-1138
▁뽑	-1139
▁드라	-1140
레이드	-1141
ed	-1142
▁최초	-1143
▁2013	-1144
▁심지어	-1145
민국	-1146
▁사회	-1147
▁구하	-1148
▁맞추	-1149
너지	-1150
▁끝나	-1151
▁구성	-1152
▁빛	-1153
▁이렇게	-1154
▁발동	-1155
▁숨	-1156
▁새롭	-1157
▁스트	-1158
▁윤	-1159
▁입장	-1160
▁ㄱㅜ	-1161
▁풍	-1162
▁휴	-1163
▁폐	-1164
▁거기	-1165
▁뜨	-1166
▁확인	-1167
▁l	-1168
▁유일	-1169
▁바이	-1170
▁사진	-1171
▁다이	-1172
▁먼저	-1173
▁획	-1174
▁정치	-1175
▁애니메	-1176
▁x	-1177
▁흔	-1178
▁응	-1179
▁60	-1180
▁아래	-1181
▁항목	-1182
▁활약	-1183
▁여담	-1184
▁조건	-1185
▁어리	-1186
▁자세	-1187
▁모델	-1188
▁어디	-1189
▁돌아오	-1190
▁훈	-1191
▁원작	-1192
▁내리	-1193
▁콜	-1194
▁덕분	-1195
▁들어오	-1196
▁35	-1197
▁득	-1198
▁하이	-1199
▁시스템	-1200
▁녹	-1201
▁완전히	-1202
▁대한민국	-1203
id	-1204
▁따라	-1205
▁굉	-1206
▁주변	-1207
▁Lv	-1208
▁감소	-1209
▁드러	-1210
▁그래서	-1211
▁ㅂㅏ	-1212
▁프랑	-1213
인트	-1214
▁자유	-1215
▁챔	-1216
▁순간	-1217
▁독일	-1218
▁명칭	-1219
▁ㄹㅏㅁㅕ	-1220
ay	-1221
▁날리	-1222
▁얼굴	-1223
▁전혀	-1224
▁2012	-1225
▁ㄹㅜ	-1226
▁관리	-1227
ad	-1228
▁애니메이션	-1229
▁잃	-1230
▁경찰	-1231
▁특징	-1232
▁우주	-1233
▁차지	-1234
▁자동	-1235
▁01	-1236
버스	-1237
나마	-1238
▁할	-1239
▁부대	-1240
▁짜	-1241
▁적용	-1242
▁교육	-1243
▁영어	-1244
▁굉장	-1245
▁무엇	-1246
▁가격	-1247
▁지키	-1248
▁듀	-1249
▁r	-1250
▁ㄷㅓㄹㅏㄷㅗ	-1251
▁정부	-1252
▁패배	-1253
▁돌아가	-1254
▁뮤	-1255
▁of	-1256
▁드래곤	-1257
▁고등	-1258
▁아군	-1259
▁마스터	-1260
▁실패	-1261
▁웨	-1262
▁그렇게	-1263
▁기간	-1264
없이	-1265
▁휘	-1266
소드	-1267
▁오브	-1268
▁개인	-1269
▁생산	-1270
▁얼마	-1271
▁앨범	-1272
ot	-1273
▁건물	-1274
▁시점	-1275
ve	-1276
▁이거	-1277
and	-1278
▁아들	-1279
▁그나마	-1280
▁견	-1281
▁혹은	-1282
▁하루	-1283
▁ㅂㅏㄲ	-1284
▁ㅂㅏㄲㅇㅔ	-1285
▁지속	-1286
▁넘어	-1287
▁상승	-1288
▁모으	-1289
▁덱	-1290
주의	-1291
▁기능	-1292
▁국내	-1293
▁처리	-1294
▁작가	-1295
▁지구	-1296
▁떠나	-1297
▁기억	-1298
디오	-1299
▁틀	-1300
▁턴	-1301
▁TV	-1302
레스	-1303
▁획득	-1304
▁발견	-1305
▁패치	-1306
▁에피	-1307
▁실력	-1308
▁반응	-1309
▁물리	-1310
▁y	-1311
▁제국	-1312
▁소개	-1313
▁정확	-1314
▁도움	-1315
▁퀘	-1316
▁참조	-1317
▁랭	-1318
▁익	-1319
▁만화	-1320
▁영국	-1321
▁동일	-1322
▁킹	-1323
20	-1324
▁홀	-1325
▁대학교	-1326
▁쏘	-1327
▁선발	-1328
▁현대	-1329
▁반대	-1330
아내	-1331
▁칸	-1332
ㅌㅔ	-1333
▁ㅎㅏㄴ	-1334
▁맛	-1335
▁담당	-1336
▁올라가	-1337
▁습	-1338
ch	-1339
▁땅	-1340
▁그림	-1341
▁ㅎㅏㄴㅌㅔ	-1342
▁출시	-1343
▁맥	-1344
▁계획	-1345
▁에피소드	-1346
▁딸	-1347
▁ㄷㅏㅁㅕ	-1348
▁기관	-1349
▁초기	-1350
▁쿨	-1351
▁량	-1352
▁드라마	-1353
▁아마	-1354
▁세대	-1355
▁단계	-1356
ㅇㅣ	-1357
▁밤	-1358
▁움직	-1359
▁딱	-1360
▁롭	-1361
▁ㅈㅗ	-1362
un	-1363
ㅊㅏ	-1364
▁ㅈㅗㅊㅏ	-1365
▁판매	-1366
▁또는	-1367
▁범위	-1368
▁폴	-1369
▁ㄹㅏㅅㅓ	-1370
▁헬	-1371
소리	-1372
▁퇴	-1373
▁37	-1374
▁버프	-1375
▁시청	-1376
▁The	-1377
▁2010	-1378
▁ㅇㅏㅆㅇㅓㅆ	-1379
뜨리	-1380
BS	-1381
▁벨	-1382
▁패턴	-1383
▁쉬	-1384
▁회사	-1385
▁g	-1386
▁탐	-1387
▁데이	-1388
▁폭발	-1389
▁문화	-1390
▁상위	-1391
▁시기	-1392
▁표현	-1393
▁등급	-1394
▁대미지	-1395
▁밀리	-1396
▁요구	-1397
▁무시	-1398
▁ㅇㅡㅁㅡㄹㅗ	-1399
▁타입	-1400
▁확실	-1401
▁수비	-1402
▁80	-1403
▁던지	-1404
▁어떻게	-1405
▁500	-1406
▁라운드	-1407
▁진짜	-1408
▁굉장히	-1409
▁사고	-1410
▁St	-1411
▁미치	-1412
▁인정	-1413
▁스페	-1414
▁겨	-1415
▁이미지	-1416
▁45	-1417
▁경험	-1418
▁ㄹㅏㅇ	-1419
▁발사	-1420
▁꾸	-1421
▁가족	-1422
들이	-1423
▁졸	-1424
ER	-1425
▁생활	-1426
▁ㅇㅡㄹㅗㅅㅓ	-1427
ㅈㅏ	-1428
▁주의	-1429
▁컴	-1430
▁ㄹㅕㄴㅡㄴ	-1431
▁피하	-1432
▁소모	-1433
▁파워	-1434
▁09	-1435
▁낙	-1436
▁ㅇㅣㄹㅏ	-1437
▁묘사	-1438
▁ㅕ	-1439
▁굴	-1440
▁세이	-1441
▁오리	-1442
▁*	-1443
▁심하	-1444
▁족	-1445
▁특별	-1446
▁활용	-1447
▁아주	-1448
▁율	-1449
▁중앙	-1450
ㅆㅓ	-1451
▁묻	-1452
▁대체	-1453
▁헌	-1454
▁연기	-1455
▁02	-1456
▁방향	-1457
▁03	-1458
dd	-1459
▁디자	-1460
▁197	-1461
▁진출	-1462
로스	-1463
▁린	-1464
▁운동	-1465
▁나쁘	-1466
▁km	-1467
▁트리	-1468
▁펼	-1469
▁한정	-1470
▁중간	-1471
▁히로	-1472
▁믿	-1473
▁꿈	-1474
▁지니	-1475
▁엑	-1476
▁싸움	-1477
▁빈	-1478
▁웃	-1479
▁프랑스	-1480
▁데뷔	-1481
▁숙	-1482
▁그룹	-1483
▁ㄹㅈㅣ	-1484
▁생명	-1485
인물	-1486
▁준비	-1487
▁남기	-1488
▁약하	-1489
▁그래도	-1490
▁포인트	-1491
▁핵	-1492
▁유리	-1493
▁2011	-1494
▁엔딩	-1495
▁혼자	-1496
▁당연히	-1497
▁야구	-1498
▁위험	-1499
▁흐	-1500
▁선거	-1501
▁안타	-1502
▁스테이지	-1503
ff	-1504
▁옆	-1505
▁현실	-1506
▁ㅇㅗ	-1507
▁후보	-1508
▁시장	-1509
▁노리	-1510
▁등장인물	-1511
▁조합	-1512
▁논란	-1513
▁아르	-1514
▁욕	-1515
ir	-1516
▁05	-1517
▁순위	-1518
통령	-1519
▁무장	-1520
▁내려	-1521
▁더욱	-1522
▁어머니	-1523
▁죄	-1524
▁얘	-1525
▁흡	-1526
▁미션	-1527
▁퀘스트	-1528
ㅡㅁ	-1529
▁싫	-1530
▁분위	-1531
아오	-1532
▁괜	-1533
▁사실상	-1534
▁Z	-1535
▁민주	-1536
▁표기	-1537
▁크리스	-1538
스크	-1539
os	-1540
▁(	-1541
▁브라	-1542
▁비판	-1543
▁단순	-1544
▁고등학교	-1545
▁챔피	-1546
▁참여	-1547
▁08	-1548
▁프로그	-1549
▁구조	-1550
▁70	-1551
▁90	-1552
▁분위기	-1553
▁블랙	-1554
▁계약	-1555
▁학년	-1556
▁동료	-1557
▁훨	-1558
▁07	-1559
im	-1560
▁약간	-1561
▁대통령	-1562
▁중심	-1563
▁조선	-1564
▁취급	-1565
▁링크	-1566
▁투수	-1567
▁바라	-1568
▁...	-1569
▁방어력	-1570
▁ㄹㄲㅏ	-1571
▁그거	-1572
▁직업	-1573
▁똑	-1574
▁흥	-1575
▁설치	-1576
▁ㄴㅔ	-1577
▁열리	-1578
▁콤	-1579
ㅅㅣ	-1580
▁48	-1581
▁나무	-1582
▁보호	-1583
▁훨씬	-1584
▁이어지	-1585
▁여전히	-1586
▁즐	-1587
▁결혼	-1588
머지	-1589
비스	-1590
▁돕	-1591
▁나머지	-1592
▁HP	-1593
▁시도	-1594
리카	-1595
▁ㅈㅏㅁㅕㄴ	-1596
▁구간	-1597
▁ㄱㅣㅇㅔ	-1598
▁계열	-1599
ter	-1600
ㅁㅏ	-1601
▁다양	-1602
▁염	-1603
▁위원	-1604
▁뛰어나	-1605
▁전용	-1606
▁불구	-1607
▁방면	-1608
러지	-1609
이크	-1610
▁다루	-1611
▁06	-1612
으키	-1613
▁ㅇㅡㅁㅕㄴㅅㅓ	-1614
▁읽	-1615
니아	-1616
▁주요	-1617
▁성적	-1618
▁디자인	-1619
▁터지	-1620
▁일정	-1621
▁2000	-1622
▁축구	-1623
티브	-1624
▁300	-1625
▁보상	-1626
▁mm	-1627
▁기대	-1628
▁목적	-1629
▁탓	-1630
▁소녀	-1631
▁탱	-1632
▁연속	-1633
▁도망	-1634
▁33	-1635
▁수정	-1636
▁갤	-1637
▁배틀	-1638
▁지하	-1639
▁꼬	-1640
▁가져	-1641
ur	-1642
▁세력	-1643
▁고려	-1644
▁론	-1645
▁대화	-1646
▁쌍	-1647
▁성장	-1648
▁04	-1649
▁률	-1650
▁벽	-1651
▁잘못	-1652
▁삼성	-1653
▁부산	-1654
스로	-1655
▁36	-1656
▁종류	-1657
▁각각	-1658
▁아프	-1659
▁이해	-1660
다리	-1661
▁올라오	-1662
▁징	-1663
▁지방	-1664
▁캠	-1665
▁e	-1666
▁팩	-1667
▁해결	-1668
▁당신	-1669
▁일행	-1670
▁참가	-1671
od	-1672
▁의견	-1673
▁넘어가	-1674
▁력	-1675
▁발표	-1676
ㅜㄴ	-1677
▁th	-1678
▁털	-1679
▁부상	-1680
▁세우	-1681
ㅋㅡㅁ	-1682
▁마치	-1683
▁전설	-1684
▁변하	-1685
▁포켓	-1686
▁느낌	-1687
▁픽	-1688
ag	-1689
▁전문	-1690
▁큐	-1691
▁거대	-1692
▁짧	-1693
▁you	-1694
▁예정	-1695
▁일으키	-1696
▁펼치	-1697
▁벗	-1698
▁굳	-1699
▁방영	-1700
▁끊	-1701
▁스피	-1702
▁힐	-1703
▁움직이	-1704
▁종족	-1705
▁센터	-1706
▁프로그램	-1707
▁향하	-1708
▁랜	-1709
▁밴	-1710
▁ㅁㅏㄴㅋㅡㅁ	-1711
▁종료	-1712
▁과학	-1713
▁운행	-1714
▁죽음	-1715
▁전하	-1716
▁소설	-1717
▁부활	-1718
▁충분	-1719
▁근접	-1720
▁도중	-1721
▁각성	-1722
▁조사	-1723
지션	-1724
▁FC	-1725
▁배치	-1726
ub	-1727
▁녀	-1728
▁렌	-1729
▁무리	-1730
▁최근	-1731
▁장착	-1732
▁빅	-1733
▁칭	-1734
▁국민	-1735
ㅈㅓ	-1736
▁삭	-1737
▁아이돌	-1738
▁러시아	-1739
▁옥	-1740
▁세상	-1741
▁척	-1742
데이트	-1743
▁덤	-1744
▁안정	-1745
▁절대	-1746
▁업데이트	-1747
▁점수	-1748
▁나중	-1749
▁스카	-1750
▁가리	-1751
▁경제	-1752
▁스스로	-1753
▁제공	-1754
▁cm	-1755
▁이루어지	-1756
▁SK	-1757
▁항공	-1758
▁지도	-1759
igh	-1760
▁유니	-1761
▁엔진	-1762
▁어찌	-1763
▁제목	-1764
▁오래	-1765
▁자연	-1766
▁충격	-1767
▁붙이	-1768
▁달성	-1769
▁정상	-1770
▁곧	-1771
▁켄	-1772
▁번호	-1773
▁벌어지	-1774
▁만드	-1775
▁챔피언	-1776
▁미사	-1777
자기	-1778
▁추정	-1779
▁작전	-1780
ver	-1781
▁배경	-1782
▁목소리	-1783
▁번역	-1784
▁셈	-1785
▁똑같	-1786
▁비행	-1787
▁롤	-1788
▁조직	-1789
▁정체	-1790
▁가끔	-1791
ak	-1792
ent	-1793
▁사이트	-1794
▁목록	-1795
너스	-1796
▁미래	-1797
▁요소	-1798
▁규모	-1799
스타	-1800
▁포켓몬	-1801
▁스파	-1802
▁남성	-1803
▁196	-1804
▁레어	-1805
▁34	-1806
▁품	-1807
▁전작	-1808
▁훈련	-1809
▁벌이	-1810
어들	-1811
▁전차	-1812
▁출전	-1813
▁십	-1814
▁악마	-1815
▁파티	-1816
▁전사	-1817
▁빙	-1818
▁공중	-1819
▁타격	-1820
▁돌리	-1821
▁스타일	-1822
▁ㄹㅗㅂㅜㅌㅓ	-1823
▁클리어	-1824
▁만약	-1825
▁위기	-1826
▁타카	-1827
▁분노	-1828
▁괜찮	-1829
▁얘기	-1830
▁사냥	-1831
▁변화	-1832
▁생존	-1833
다니	-1834
▁다리	-1835
▁에너지	-1836
▁혈	-1837
▁그만	-1838
▁홈런	-1839
▁나누	-1840
▁신경	-1841
▁동물	-1842
▁ㅁㅏㅈㅓ	-1843
▁ㄹㄹㅗ	-1844
um	-1845
▁클래	-1846
▁애초	-1847
▁자랑	-1848
▁뒷	-1849
▁득점	-1850
▁저지	-1851
▁더불	-1852
BC	-1853
▁수상	-1854
▁연결	-1855
▁크리	-1856
▁요리	-1857
▁단점	-1858
▁75	-1859
▁ㅇㅡㄹㅕ	-1860
▁필드	-1861
ut	-1862
▁한편	-1863
▁장갑	-1864
▁국제	-1865
▁로봇	-1866
▁건담	-1867
▁포지션	-1868
디어	-1869
▁소재	-1870
러스	-1871
▁냉	-1872
▁특정	-1873
▁반면	-1874
▁연합	-1875
ec	-1876
▁기동	-1877
▁ㄴㅣㄲㅏ	-1878
▁시험	-1879
▁vs	-1880
▁판정	-1881
▁비용	-1882
▁38	-1883
▁런	-1884
▁장소	-1885
▁in	-1886
▁넘기	-1887
▁전기	-1888
▁맹	-1889
▁공연	-1890
▁ㄹㅣ	-1891
▁예상	-1892
▁사항	-1893
▁ㄷㅡㅅㅇㅣ	-1894
▁롯	-1895
▁싱글	-1896
▁항상	-1897
▁멸	-1898
▁목표	-1899
▁무대	-1900
▁화력	-1901
▁정작	-1902
▁옵	-1903
▁가르	-1904
▁최소	-1905
▁연출	-1906
▁기체	-1907
▁사거리	-1908
▁늘어나	-1909
▁관심	-1910
▁사업	-1911
▁시설	-1912
▁꽃	-1913
▁55	-1914
▁유럽	-1915
▁엘리	-1916
▁인터뷰	-1917
▁2009	-1918
▁교체	-1919
▁던전	-1920
▁내부	-1921
▁하늘	-1922
트리	-1923
▁비밀	-1924
▁지휘	-1925
▁제일	-1926
▁카이	-1927
▁인사	-1928
▁찌	-1929
▁야마	-1930
▁사격	-1931
▁별로	-1932
동안	-1933
▁찬	-1934
▁Q	-1935
▁철도	-1936
리오	-1937
▁to	-1938
▁변신	-1939
▁란	-1940
▁다크	-1941
▁바르	-1942
ST	-1943
ro	-1944
▁놈	-1945
▁나름	-1946
▁수치	-1947
▁록	-1948
▁넓	-1949
▁기계	-1950
▁수도	-1951
▁정식	-1952
▁벤	-1953
▁작곡	-1954
▁스포	-1955
▁시전	-1956
▁결승	-1957
▁카운	-1958
▁파일	-1959
▁_	-1960
▁옷	-1961
▁교통	-1962
▁비롯	-1963
▁오버	-1964
▁ㄴㅑㄱㅗ	-1965
▁쌓	-1966
▁케이	-1967
나라	-1968
▁따로	-1969
▁각종	-1970
▁오늘	-1971
▁부여	-1972
▁황제	-1973
▁언제	-1974
▁마나	-1975
▁확정	-1976
▁졸업	-1977
▁레인	-1978
▁코스	-1979
▁지상	-1980
▁갑자기	-1981
▁이탈	-1982
▁일러	-1983
▁병력	-1984
▁지지	-1985
▁특이	-1986
▁전반	-1987
▁치명	-1988
▁따라서	-1989
▁진화	-1990
▁이쪽	-1991
▁깔	-1992
▁북한	-1993
▁거두	-1994
▁도로	-1995
▁기업	-1996
보이	-1997
▁제한	-1998
▁드러나	-1999
▁드리	-2000
▁라이브	-2001
▁발전	-2002
▁살리	-2003
▁아키	-2004
▁때리	-2005
▁튀	-2006
▁왼	-2007
▁건설	-2008
▁쯤	-2009
▁시티	-2010
▁무슨	-2011
▁압도	-2012
▁어쩌	-2013
▁누르	-2014
▁이외	-2015
▁꺼	-2016
▁의외	-2017
▁사정	-2018
▁ㅃ	-2019
em	-2020
▁이르	-2021
▁EX	-2022
▁가사	-2023
▁외국	-2024
▁2008	-2025
▁ㄷㅓㄴㅣ	-2026
▁나이트	-2027
▁아파	-2028
▁이끌	-2029
▁역대	-2030
▁일러스트	-2031
▁감정	-2032
▁탈출	-2033
▁주문	-2034
▁삭제	-2035
▁직전	-2036
▁ㅃㅜㄴ	-2037
▁저항	-2038
ight	-2039
▁티어	-2040
▁베이	-2041
▁띄	-2042
▁임무	-2043
▁납	-2044
▁고양	-2045
▁이닝	-2046
▁느리	-2047
▁프레	-2048
라인	-2049
▁골드	-2050
▁위력	-2051
▁자원	-2052
▁보유	-2053
어로	-2054
▁거치	-2055
▁텐	-2056
▁아카	-2057
AN	-2058
▁정하	-2059
▁로드	-2060
▁마시	-2061
▁사례	-2062
▁집중	-2063
▁세기	-2064
▁서비스	-2065
▁점프	-2066
▁깊	-2067
▁표시	-2068
▁노트	-2069
▁어둠	-2070
AR	-2071
▁마르	-2072
▁잉	-2073
▁전국	-2074
▁인구	-2075
▁상관	-2076
▁효율	-2077
▁명령	-2078
▁분류	-2079
▁작업	-2080
▁페이	-2081
▁기회	-2082
▁랭크	-2083
▁완전	-2084
▁ㅋ	-2085
▁인식	-2086
▁아스	-2087
젝트	-2088
▁공간	-2089
▁연습	-2090
▁오른	-2091
▁뇌	-2092
▁히어로	-2093
▁루트	-2094
▁기다리	-2095
▁회피	-2096
▁관하	-2097
▁물건	-2098
▁파트	-2099
ap	-2100
▁도전	-2101
▁잇	-2102
▁태어나	-2103
▁잠시	-2104
▁가수	-2105
▁경쟁	-2106
▁극장	-2107
▁지내	-2108
▁화면	-2109
▁옛	-2110
▁42	-2111
▁장점	-2112
▁버티	-2113
▁높이	-2114
▁녀석	-2115
ON	-2116
▁41	-2117
▁사기	-2118
▁부모	-2119
▁컬	-2120
▁션	-2121
▁폰	-2122
▁키우	-2123
▁별명	-2124
▁컵	-2125
▁촬	-2126
▁군사	-2127
▁개념	-2128
▁레드	-2129
▁래	-2130
그레이드	-2131
▁업그레이드	-2132
▁행정	-2133
▁단어	-2134
▁병원	-2135
무리	-2136
▁몽	-2137
▁근처	-2138
▁인천	-2139
▁추천	-2140
▁194	-2141
▁이어	-2142
▁No	-2143
▁빌리	-2144
▁발언	-2145
▁ㄹㅕㅁㅕㄴ	-2146
▁오프	-2147
▁전력	-2148
▁ㅇㅡㄴㄷㅔ	-2149
▁살인	-2150
▁의식	-2151
▁포기	-2152
▁39	-2153
▁무려	-2154
▁펜	-2155
▁꾼	-2156
▁ㅈㅛ	-2157
▁불가	-2158
▁Ch	-2159
▁아파트	-2160
▁전개	-2161
▁>	-2162
▁크기	-2163
▁신체	-2164
▁정리	-2165
▁킬	-2166
▁숨기	-2167
학생	-2168
▁미니	-2169
▁',	-2170
▁겸	-2171
▁판단	-2172
▁주제	-2173
▁강제	-2174
▁촬영	-2175
▁나서	-2176
▁노력	-2177
▁밑	-2178
▁본래	-2179
▁잡히	-2180
▁히트	-2181
▁고정	-2182
ul	-2183
▁부정	-2184
▁붕	-2185
▁낫	-2186
▁타임	-2187
아들이	-2188
▁ㅓㅆ	-2189
▁kg	-2190
ㄷㅓㄴ	-2191
▁이하	-2192
페이지	-2193
▁st	-2194
▁44	-2195
▁라이트	-2196
▁공주	-2197
▁빨리	-2198
▁셋	-2199
▁병사	-2200
라스	-2201
▁ㅏㅆ	-2202
▁데스	-2203
▁선생	-2204
▁버그	-2205
▁뿌	-2206
▁평균	-2207
ce	-2208
▁스코	-2209
▁멘	-2210
ik	-2211
▁독립	-2212
▁최강	-2213
▁2020	-2214
▁;	-2215
▁왕국	-2216
▁제거	-2217
▁분명	-2218
▁끝내	-2219
▁학원	-2220
▁갖추	-2221
▁부탁	-2222
▁살아	-2223
▁홈페이지	-2224
▁폭탄	-2225
▁구매	-2226
000	-2227
▁꼭	-2228
▁조종	-2229
▁곤	-2230
▁제품	-2231
▁칠	-2232
▁닥	-2233
▁99	-2234
▁군대	-2235
▁동생	-2236
▁쫓	-2237
▁마법사	-2238
▁롯데	-2239
▁가드	-2240
▁속하	-2241
▁LG	-2242
▁위키	-2243
▁닌	-2244
▁중반	-2245
▁고속	-2246
▁리더	-2247
▁윈	-2248
▁앞서	-2249
▁예전	-2250
▁여행	-2251
요일	-2252
▁붉	-2253
▁행위	-2254
▁짐	-2255
▁단체	-2256
▁음식	-2257
믹스	-2258
▁겪	-2259
▁떡	-2260
▁웹	-2261
▁완벽	-2262
▁옵션	-2263
▁전자	-2264
▁2007	-2265
▁현상	-2266
▁195	-2267
▁가문	-2268
▁수행	-2269
▁모이	-2270
▁대구	-2271
all	-2272
▁탈락	-2273
▁43	-2274
▁원인	-2275
드시	-2276
▁요시	-2277
▁그야	-2278
▁바다	-2279
▁완성	-2280
▁ㄱㅗㄴ	-2281
▁구분	-2282
▁ㅇㅔㄱㅔㅅㅓ	-2283
▁새로	-2284
야마	-2285
이치	-2286
▁반드시	-2287
IN	-2288
▁대기	-2289
▁의원	-2290
모토	-2291
▁통합	-2292
▁쓸	-2293
▁개그	-2294
란드	-2295
▁주민	-2296
▁전략	-2297
▁직후	-2298
드리	-2299
▁차원	-2300
▁MA	-2301
▁크로	-2302
▁재료	-2303
▁복귀	-2304
▁하드	-2305
▁ㅇㅡㄹㅗㅆㅓ	-2306
▁단지	-2307
▁템	-2308
▁마사	-2309
▁흘	-2310
▁환경	-2311
nd	-2312
▁쥬	-2313
말로	-2314
▁광역	-2315
▁걱	-2316
▁늦	-2317
▁그야말로	-2318
▁마무리	-2319
▁치료	-2320
▁기반	-2321
▁걱정	-2322
▁아쉽	-2323
튜브	-2324
타임	-2325
러리	-2326
▁연재	-2327
▁밸	-2328
▁인도	-2329
트라	-2330
▁한글	-2331
▁해군	-2332
▁46	-2333
▁서버	-2334
이어	-2335
▁47	-2336
▁다행	-2337
▁ㅈㅏㅁㅏ	-2338
▁정규	-2339
▁지정	-2340
▁밥	-2341
▁연장	-2342
▁2006	-2343
▁다수	-2344
▁대장	-2345
▁해외	-2346
▁멜	-2347
▁도착	-2348
▁보병	-2349
ㅜㄹㅗㄱ	-2350
▁심각	-2351
▁평범	-2352
▁옮	-2353
▁줄이	-2354
▁우선	-2355
▁책임	-2356
아하	-2357
조건	-2358
▁뻔	-2359
▁워낙	-2360
▁공포	-2361
▁보너스	-2362
▁월드컵	-2363
▁타이틀	-2364
▁조작	-2365
▁미사일	-2366
▁아무리	-2367
▁포스	-2368
▁입히	-2369
▁유사	-2370
▁추측	-2371
▁실험	-2372
▁재미	-2373
▁ㅈㅏㅁㅏㅈㅏ	-2374
르트	-2375
th	-2376
▁점점	-2377
▁샷	-2378
▁51	-2379
▁받아들이	-2380
▁캡	-2381
▁가면	-2382
▁굳이	-2383
▁타자	-2384
tt	-2385
▁덜	-2386
루스	-2387
▁디스	-2388
▁상세	-2389
▁코스트	-2390
▁택	-2391
▁필살	-2392
▁다소	-2393
▁폼	-2394
▁접근	-2395
▁성향	-2396
▁무조건	-2397
▁좋아하	-2398
▁즐기	-2399
▁닉	-2400
▁중학교	-2401
▁실점	-2402
▁한계	-2403
▁교수	-2404
▁의사	-2405
▁대결	-2406
▁로마	-2407
op	-2408
▁ㄴㅑㄴㅡㄴ	-2409
▁영혼	-2410
▁채우	-2411
▁부하	-2412
▁잭	-2413
▁톤	-2414
▁모자	-2415
▁무한	-2416
▁사무	-2417
운데	-2418
▁고르	-2419
▁국회	-2420
▁멋	-2421
▁SP	-2422
▁복수	-2423
st	-2424
▁비중	-2425
▁정확히	-2426
▁암살	-2427
▁지배	-2428
▁보조	-2429
▁함정	-2430
▁아내	-2431
▁죠	-2432
▁댄	-2433
▁평소	-2434
▁정의	-2435
▁엠	-2436
▁옮기	-2437
ation	-2438
▁인터넷	-2439
▁광고	-2440
▁장르	-2441
▁혁	-2442
ra	-2443
시마	-2444
▁마력	-2445
▁와중	-2446
▁범죄	-2447
▁봉인	-2448
▁알아	-2449
▁숲	-2450
▁투표	-2451
▁1000	-2452
아지	-2453
ack	-2454
▁전화	-2455
무라	-2456
▁확장	-2457
ia	-2458
▁운용	-2459
▁채널	-2460
▁사령	-2461
▁이곳	-2462
▁앙	-2463
▁합류	-2464
▁공략	-2465
▁도쿄	-2466
버리	-2467
나이	-2468
▁소련	-2469
▁장치	-2470
▁and	-2471
▁가치	-2472
▁빵	-2473
▁몇몇	-2474
▁검사	-2475
ㅅㅜㄹㅗㄱ	-2476
▁기념	-2477
oc	-2478
▁금지	-2479
▁아웃	-2480
▁시청자	-2481
▁에이	-2482
▁종종	-2483
▁이적	-2484
▁다운	-2485
로그	-2486
▁초등	-2487
▁소유	-2488
▁가운데	-2489
▁150	-2490
▁정당	-2491
▁충분히	-2492
▁도입	-2493
▁65	-2494
▁오리지	-2495
▁실수	-2496
▁특유	-2497
▁네이	-2498
▁플래	-2499
시브	-2500
▁뚫	-2501
▁유튜브	-2502
▁미드	-2503
▁보컬	-2504
▁코드	-2505
▁사쿠	-2506
▁근데	-2507
▁대로	-2508
▁브레이	-2509
▁잊	-2510
▁VS	-2511
▁클럽	-2512
▁줄어들	-2513
ㄷㅡㄴ	-2514
▁소년	-2515
▁화염	-2516
▁취하	-2517
▁시민	-2518
▁기지	-2519
▁본격	-2520
▁프로젝트	-2521
▁투입	-2522
▁저격	-2523
▁고대	-2524
▁개조	-2525
▁뉴스	-2526
▁무사	-2527
▁ㄴㅡㄴㄱㅏ	-2528
▁도망치	-2529
▁시나	-2530
▁전원	-2531
▁괴물	-2532
▁종교	-2533
▁형제	-2534
▁얼마나	-2535
ie	-2536
▁수많	-2537
ill	-2538
▁희생	-2539
▁%,	-2540
▁셀	-2541
▁고양이	-2542
▁행사	-2543
려가	-2544
▁로스	-2545
▁ㅇㅡㄹㅈㅣ	-2546
▁요청	-2547
▁스포츠	-2548
▁인상	-2549
▁릴	-2550
비아	-2551
▁앤	-2552
▁이탈리아	-2553
▁흉	-2554
로드	-2555
▁대중	-2556
▁발음	-2557
▁사태	-2558
▁원정	-2559
▁터미	-2560
▁카메	-2561
▁상징	-2562
▁2005	-2563
라이더	-2564
▁52	-2565
일러	-2566
▁KBS	-2567
▁종합	-2568
▁쥐	-2569
▁II	-2570
▁밴드	-2571
▁끄	-2572
art	-2573
▁숫	-2574
▁구역	-2575
▁넥	-2576
▁클래스	-2577
▁대형	-2578
▁64	-2579
▁군단	-2580
려오	-2581
▁따지	-2582
▁올림	-2583
▁대비	-2584
▁외모	-2585
▁위협	-2586
텐츠	-2587
▁스크	-2588
▁방패	-2589
▁조정	-2590
▁그저	-2591
▁이사	-2592
▁인원	-2593
▁뿌리	-2594
▁패러	-2595
▁서브	-2596
니티	-2597
▁서술	-2598
▁생물	-2599
▁불명	-2600
▁ㅇㅣㄹㅏㄱㅗ	-2601
▁자료	-2602
▁최후	-2603
오르	-2604
▁일본어	-2605
▁장난	-2606
▁형식	-2607
▁관통	-2608
▁약점	-2609
▁컨셉	-2610
▁섞	-2611
▁몹	-2612
▁광주	-2613
▁달러	-2614
▁You	-2615
▁드러내	-2616
▁행성	-2617
▁2004	-2618
런스	-2619
▁앉	-2620
▁눈물	-2621
ri	-2622
▁정책	-2623
▁전술	-2624
▁통신	-2625
▁상자	-2626
uby	-2627
▁바닥	-2628
▁거부	-2629
▁놀라	-2630
▁빼앗	-2631
▁액션	-2632
▁모험	-2633
▁비고	-2634
▁부수	-2635
ab	-2636
▁49	-2637
시스	-2638
▁들리	-2639
▁ㄴㅈㅣㄹㅏ	-2640
▁젊	-2641
▁미리	-2642
RA	-2643
▁오리지널	-2644
▁AP	-2645
▁박사	-2646
▁의도	-2647
▁명중	-2648
▁반복	-2649
▁간단	-2650
▁벗어나	-2651
▁인형	-2652
▁ㅇㅛ	-2653
▁56	-2654
▁트랙	-2655
▁쿨타임	-2656
로우	-2657
▁회장	-2658
▁그때	-2659
est	-2660
▁ST	-2661
래프트	-2662
▁개월	-2663
▁매일	-2664
▁챙	-2665
▁400	-2666
▁ruby	-2667
▁의지	-2668
▁등록	-2669
▁ㄴㅡㄴㄷㅏㄴㅡㄴ	-2670
▁영입	-2671
▁해석	-2672
▁공동	-2673
▁구단	-2674
▁대응	-2675
▁마크	-2676
▁지적	-2677
▁MBC	-2678
▁이치	-2679
▁언론	-2680
▁값	-2681
▁웬	-2682
▁먹이	-2683
▁열차	-2684
▁리어	-2685
▁오토	-2686
▁In	-2687
▁찾아오	-2688
▁dd	-2689
▁지명	-2690
▁목숨	-2691
▁오랜	-2692
▁개봉	-2693
▁주력	-2694
▁원거리	-2695
▁코어	-2696
ttp	-2697
AL	-2698
▁가하	-2699
스케	-2700
▁선언	-2701
▁http	-2702
▁85	-2703
▁한국어	-2704
▁혐	-2705
▁소식	-2706
▁차례	-2707
▁언어	-2708
▁윌	-2709
자리	-2710
▁흡수	-2711
▁더블	-2712
▁데이터	-2713
▁거짓	-2714
▁사상	-2715
▁사과	-2716
▁설계	-2717
▁풀리	-2718
▁ㄴㅡㄴㅑ	-2719
▁지나가	-2720
▁승부	-2721
▁방해	-2722
▁자동차	-2723
▁역전	-2724
▁쓰러지	-2725
▁탯	-2726
▁193	-2727
▁텔	-2728
▁53	-2729
▁혜	-2730
▁편하	-2731
▁54	-2732
▁저지르	-2733
▁카즈	-2734
▁2002	-2735
리트	-2736
▁엄마	-2737
▁카페	-2738
퓨터	-2739
▁살아남	-2740
▁대단	-2741
▁디지	-2742
▁여름	-2743
▁ㄱㅗㅈㅏ	-2744
▁연계	-2745
▁망하	-2746
▁긴	-2747
▁숫자	-2748
▁모티브	-2749
▁핑	-2750
▁필살기	-2751
▁합치	-2752
▁조각	-2753
▁닮	-2754
▁저주	-2755
▁원하	-2756
▁기자	-2757
▁떼	-2758
▁ㅏㅅㅓ	-2759
올리	-2760
오스	-2761
▁미스	-2762
▁소울	-2763
▁진입	-2764
▁불과	-2765
나가	-2766
▁겹	-2767
▁쳐	-2768
▁체육	-2769
▁황금	-2770
▁PC	-2771
▁수리	-2772
▁ㅇㅓㄹㅏ	-2773
▁상대방	-2774
▁완료	-2775
▁유우	-2776
▁맺	-2777
▁질문	-2778
▁쿄	-2779
▁ㅇㅏㅇㅛ	-2780
▁텍	-2781
▁가정	-2782
▁장기	-2783
▁무섭	-2784
▁수호	-2785
▁산업	-2786
▁생성	-2787
▁착용	-2788
▁적절	-2789
▁덩	-2790
▁Sh	-2791
▁해제	-2792
▁공화	-2793
어내	-2794
▁컴퓨터	-2795
▁단순히	-2796
동생	-2797
▁터미널	-2798
dddd	-2799
▁dddddd	-2800
▁꼴	-2801
▁멈	-2802
▁가져오	-2803
▁표정	-2804
▁드라이	-2805
▁들이	-2806
▁필수	-2807
니스	-2808
▁카운터	-2809
▁테마	-2810
▁에이스	-2811
▁딱히	-2812
▁실시	-2813
▁컷	-2814
▁독자	-2815
▁의심	-2816
▁편성	-2817
▁ff	-2818
▁선정	-2819
▁행적	-2820
▁유도	-2821
▁비트	-2822
▁선물	-2823
▁확실히	-2824
up	-2825
▁습격	-2826
▁무력	-2827
▁전환	-2828
▁기어	-2829
▁연주	-2830
▁감안	-2831
▁당장	-2832
▁드립	-2833
▁훌	-2834
▁페르	-2835
▁꾸준	-2836
▁왼쪽	-2837
▁특기	-2838
▁날개	-2839
▁뮤직	-2840
▁걷	-2841
▁인류	-2842
▁집단	-2843
▁패시브	-2844
▁기점	-2845
▁함대	-2846
▁아름	-2847
▁솔로	-2848
▁소비	-2849
▁안전	-2850
▁퓨	-2851
▁개선	-2852
▁제도	-2853
▁보다	-2854
▁박스	-2855
▁re	-2856
▁i	-2857
▁횟	-2858
▁데리	-2859
▁59	-2860
▁잠깐	-2861
▁가스	-2862
▁날아가	-2863
▁위원회	-2864
▁확보	-2865
▁사장	-2866
▁행복	-2867
▁MP	-2868
▁경력	-2869
▁회전	-2870
VE	-2871
▁구축	-2872
▁돌파	-2873
▁친하	-2874
▁부리	-2875
▁코치	-2876
▁ㄹㅗㅆㅓ	-2877
▁마츠	-2878
▁지옥	-2879
▁스킨	-2880
▁챙기	-2881
▁ㅇㅡㄹㅗㅂㅜㅌㅓ	-2882
▁희망	-2883
▁테크	-2884
▁설립	-2885
▁비싸	-2886
▁Re	-2887
▁ㅇㅡㄹㄲㅏ	-2888
▁랍	-2889
▁스마	-2890
▁제압	-2891
▁올림픽	-2892
▁장군	-2893
▁일종	-2894
▁시나리오	-2895
▁진정	-2896
ate	-2897
▁블루	-2898
▁전통	-2899
▁Sp	-2900
▁가슴	-2901
▁58	-2902
레이션	-2903
▁꺼내	-2904
▁멈추	-2905
▁시내	-2906
▁상처	-2907
▁통과	-2908
▁하위	-2909
ard	-2910
▁대답	-2911
▁멀티	-2912
▁적극	-2913
▁라디오	-2914
▁횟수	-2915
▁듀얼	-2916
▁마침	-2917
▁공항	-2918
▁120	-2919
▁수사	-2920
▁셰	-2921
▁공사	-2922
▁패스	-2923
▁인지	-2924
▁체제	-2925
모리	-2926
▁지나치	-2927
▁안드	-2928
▁초대	-2929
▁촉	-2930
AT	-2931
▁딜러	-2932
▁편집	-2933
▁방문	-2934
ang	-2935
OR	-2936
▁문명	-2937
▁57	-2938
▁버튼	-2939
▁비디오	-2940
▁펀	-2941
▁의문	-2942
▁해금	-2943
연히	-2944
▁위주	-2945
▁롱	-2946
▁리스	-2947
▁현장	-2948
▁묶	-2949
▁66	-2950
▁95	-2951
▁눈치	-2952
▁처치	-2953
▁수원	-2954
▁케이스	-2955
▁태도	-2956
▁동맹	-2957
▁댓	-2958
▁선보이	-2959
트롤	-2960
울리	-2961
▁2003	-2962
▁귀엽	-2963
▁고통	-2964
▁코너	-2965
▁작성	-2966
▁진영	-2967
▁대놓	-2968
▁투자	-2969
▁콩	-2970
▁뱀	-2971
▁전장	-2972
▁갱	-2973
▁태양	-2974
▁크로스	-2975
▁분리	-2976
▁장전	-2977
▁유키	-2978
▁엉	-2979
▁계기	-2980
▁비난	-2981
▁마왕	-2982
▁노동	-2983
▁예선	-2984
▁핸	-2985
▁스페인	-2986
▁한자	-2987
▁제안	-2988
▁최악	-2989
IA	-2990
▁랩	-2991
▁제로	-2992
▁흐르	-2993
▁육군	-2994
▁공부	-2995
▁ㅇㅔㄷㅏ	-2996
▁에스	-2997
▁료	-2998
▁고유	-2999
▁가까	-3000
▁후속	-3001
▁삼국	-3002
ㅏㄴㅡㄴ	-3003
▁아름답	-3004
▁스위	-3005
PS	-3006
▁깎	-3007
▁겨우	-3008
▁게시	-3009
▁스펙	-3010
▁레이저	-3011
▁be	-3012
ess	-3013
▁시체	-3014
ok	-3015
▁배신	-3016
▁회의	-3017
ant	-3018
▁평화	-3019
▁좁	-3020
▁Bl	-3021
▁오른쪽	-3022
▁가져가	-3023
▁BG	-3024
▁110	-3025
▁개최	-3026
▁성인	-3027
▁그라	-3028
▁꼽	-3029
르크	-3030
▁다가	-3031
▁아머	-3032
▁내려가	-3033
▁나카	-3034
▁조준	-3035
▁게이지	-3036
▁견제	-3037
▁on	-3038
▁여부	-3039
▁룰	-3040
▁용병	-3041
▁멀리	-3042
▁점령	-3043
▁ㄹㅅㅜㄹㅗㄱ	-3044
▁컨트롤	-3045
▁궤	-3046
▁기획	-3047
▁궁극	-3048
▁달라지	-3049
▁탑재	-3050
▁젤	-3051
▁타이밍	-3052
라리	-3053
ell	-3054
▁청소	-3055
▁극장판	-3056
▁매치	-3057
▁보급	-3058
▁봄	-3059
▁카메라	-3060
▁춤	-3061
IC	-3062
▁SS	-3063
▁락	-3064
▁가볍	-3065
▁or	-3066
▁진실	-3067
ㅇㅏ	-3068
▁어울리	-3069
머리	-3070
▁베이스	-3071
▁ㅓㅅㅓ	-3072
▁애매	-3073
▁자라	-3074
▁쓰러	-3075
▁최대한	-3076
ct	-3077
▁충전	-3078
▁62	-3079
▁직원	-3080
▁남편	-3081
▁에어	-3082
▁373	-3083
마스	-3084
▁관광	-3085
ue	-3086
ine	-3087
▁기분	-3088
▁정령	-3089
▁그레이	-3090
▁체인	-3091
아리	-3092
▁순서	-3093
▁게이	-3094
▁보도	-3095
▁스피드	-3096
▁댄스	-3097
▁은퇴	-3098
▁후반부	-3099
▁수단	-3100
▁온라인	-3101
▁오스	-3102
의원	-3103
▁틈	-3104
▁ㅋㅜ	-3105
▁모션	-3106
▁한화	-3107
▁민주당	-3108
▁....	-3109
▁하트	-3110
▁늘리	-3111
래도	-3112
▁아무래도	-3113
▁NP	-3114
▁멸망	-3115
▁레전	-3116
▁허용	-3117
▁튜	-3118
▁트레	-3119
▁교회	-3120
▁Al	-3121
▁격투	-3122
▁세계관	-3123
▁밸런스	-3124
▁약속	-3125
무원	-3126
▁보수	-3127
ist	-3128
▁알렉	-3129
▁얼음	-3130
▁76	-3131
▁스코어	-3132
▁트위	-3133
▁여왕	-3134
▁ㄹㅏㄱ	-3135
▁치르	-3136
▁Th	-3137
▁스탠	-3138
ove	-3139
▁파이터	-3140
ore	-3141
▁우수	-3142
▁부담	-3143
▁갤러리	-3144
▁토스	-3145
▁스프	-3146
▁대원	-3147
▁ㄱㅗㅅㅓ	-3148
▁등등	-3149
▁com	-3150
워하	-3151
다르	-3152
▁갓	-3153
▁빔	-3154
▁후지	-3155
▁오오	-3156
▁ㄱㅜㄴ	-3157
▁유용	-3158
▁헤드	-3159
▁로켓	-3160
▁울트라	-3161
▁77	-3162
▁융	-3163
▁돌격	-3164
▁61	-3165
▁뱅	-3166
▁막히	-3167
▁무게	-3168
▁삶	-3169
▁{	-3170
▁고급	-3171
▁생일	-3172
▁지식	-3173
▁규정	-3174
▁기절	-3175
▁샌	-3176
▁갈리	-3177
▁차별	-3178
▁판타	-3179
▁본선	-3180
▁미나	-3181
▁커뮤	-3182
▁아프리카	-3183
ort	-3184
▁렉	-3185
ㅏㄱㅗ	-3186
▁병기	-3187
▁ㄴㅡㄴㄷㅏㄱㅗ	-3188
▁88	-3189
▁끼리	-3190
피스	-3191
붙이	-3192
▁72	-3193
▁그리스	-3194
▁중단	-3195
▁가면라이더	-3196
▁ㅇㅏㄹㅏ	-3197
▁측면	-3198
▁랜덤	-3199
▁장애	-3200
▁분야	-3201
심히	-3202
▁퍼지	-3203
▁자이	-3204
▁스케	-3205
▁트레이	-3206
▁지점	-3207
▁}	-3208
두르	-3209
▁2001	-3210
▁겹치	-3211
▁닥터	-3212
▁따위	-3213
로이드	-3214
▁마녀	-3215
▁언니	-3216
▁패러디	-3217
▁셔	-3218
바이	-3219
▁발휘	-3220
▁경기도	-3221
▁주목	-3222
▁자살	-3223
▁넷	-3224
▁회수	-3225
▁도서	-3226
▁드물	-3227
▁제시	-3228
ive	-3229
▁외부	-3230
▁인생	-3231
▁입수	-3232
▁피해자	-3233
▁포르	-3234
▁취소	-3235
▁살해	-3236
▁외치	-3237
▁ㅈㅏㄱㅗ	-3238
▁ㄹㅔ	-3239
▁ffff	-3240
▁웨이	-3241
▁경계	-3242
▁자르	-3243
▁공통	-3244
▁내주	-3245
▁삽	-3246
OS	-3247
▁유래	-3248
▁미야	-3249
▁도구	-3250
ong	-3251
▁아사	-3252
▁군주	-3253
▁교환	-3254
▁공원	-3255
▁커버	-3256
워드	-3257
▁릭	-3258
달리	-3259
▁ㅇㅜ	-3260
▁개편	-3261
▁국적	-3262
▁오프닝	-3263
▁아침	-3264
▁어차	-3265
▁민족	-3266
▁SBS	-3267
▁트위터	-3268
▁아라	-3269
▁공장	-3270
▁승강	-3271
▁ffffff	-3272
ers	-3273
▁어차피	-3274
AM	-3275
▁스페셜	-3276
▁장수	-3277
▁젠	-3278
▁계산	-3279
▁킥	-3280
오리	-3281
▁재판	-3282
▁윙	-3283
▁서포	-3284
▁핵심	-3285
▁페이스	-3286
▁부진	-3287
크래프트	-3288
▁대놓고	-3289
▁PS	-3290
▁붕괴	-3291
▁사단	-3292
▁끌어	-3293
AS	-3294
▁98	-3295
▁이성	-3296
▁교사	-3297
▁구입	-3298
▁온갖	-3299
▁제기	-3300
▁낳	-3301
▁단독	-3302
▁191	-3303
▁바탕	-3304
▁거절	-3305
▁겨울	-3306
▁몰리	-3307
▁어린	-3308
▁소수	-3309
▁브랜드	-3310
유키	-3311
▁찌르	-3312
▁출생	-3313
▁용도	-3314
스티	-3315
니어	-3316
▁영역	-3317
▁갑옷	-3318
다수	-3319
▁당선	-3320
▁건너	-3321
▁메탈	-3322
터리	-3323
▁펠	-3324
▁탄생	-3325
▁아야	-3326
▁살짝	-3327
▁출발	-3328
▁함선	-3329
▁ㄲ	-3330
▁아시아	-3331
▁카나	-3332
▁요원	-3333
▁상하	-3334
▁은근	-3335
ED	-3336
▁납치	-3337
어리	-3338
ip	-3339
▁분석	-3340
피아	-3341
▁꾸준히	-3342
▁귀족	-3343
▁은행	-3344
▁스파이	-3345
▁페이지	-3346
▁오후	-3347
▁주연	-3348
▁작사	-3349
▁선배	-3350
▁화살	-3351
▁타워	-3352
▁순수	-3353
ain	-3354
▁자식	-3355
▁CD	-3356
즈키	-3357
▁증거	-3358
▁파악	-3359
▁재생	-3360
if	-3361
▁600	-3362
▁습득	-3363
▁가르치	-3364
▁엑스	-3365
▁대공	-3366
▁하수	-3367
하라	-3368
▁섭	-3369
▁자격	-3370
▁쏟	-3371
▁예술	-3372
▁홍보	-3373
▁업무	-3374
▁이스	-3375
가락	-3376
▁협력	-3377
ee	-3378
▁ㅓㅇㅑ	-3379
▁당황	-3380
리티	-3381
▁고민	-3382
▁1990	-3383
▁무너지	-3384
▁군인	-3385
▁유형	-3386
▁|	-3387
▁보정	-3388
▁훌륭	-3389
디션	-3390
▁베르	-3391
티컬	-3392
▁테러	-3393
▁플라	-3394
아나	-3395
▁사카	-3396
EN	-3397
▁밟	-3398
▁미소	-3399
▁프라	-3400
▁열심히	-3401
▁레전드	-3402
▁신화	-3403
▁적당	-3404
▁폭풍	-3405
▁경유	-3406
▁카르	-3407
▁영원	-3408
▁쓰레	-3409
▁댓글	-3410
▁마인	-3411
▁응원	-3412
▁흔히	-3413
▁MV	-3414
▁내내	-3415
▁가로	-3416
▁맡기	-3417
▁모리	-3418
▁지우	-3419
▁뒤집	-3420
▁불안	-3421
▁괴롭	-3422
▁63	-3423
▁없애	-3424
▁보물	-3425
▁비록	-3426
▁러브	-3427
▁주도	-3428
▁퀄	-3429
▁흘리	-3430
▁거래	-3431
▁틱	-3432
▁정말로	-3433
▁부인	-3434
▁왕자	-3435
▁탑승	-3436
▁만족	-3437
▁소드	-3438
▁ㄷㅏㄴ	-3439
▁출처	-3440
세이	-3441
▁장관	-3442
▁종점	-3443
▁혼란	-3444
▁챠	-3445
▁누리	-3446
▁우려	-3447
▁68	-3448
▁무적	-3449
들리	-3450
▁채용	-3451
▁감사	-3452
▁아리	-3453
▁스트라이	-3454
▁네이버	-3455
ith	-3456
▁ㄹㅣㅇ	-3457
ld	-3458
▁운전	-3459
▁본명	-3460
▁컨텐츠	-3461
▁찾아가	-3462
▁대다수	-3463
▁문제점	-3464
ly	-3465
▁운명	-3466
▁실질	-3467
▁파이어	-3468
▁나뉘	-3469
▁반격	-3470
▁내놓	-3471
▁800	-3472
▁늑	-3473
▁계급	-3474
▁트라	-3475
▁옹	-3476
▁균	-3477
▁71	-3478
▁라스	-3479
▁미군	-3480
▁중계	-3481
레인	-3482
▁커뮤니티	-3483
▁정류	-3484
▁라이벌	-3485
▁오해	-3486
ind	-3487
▁김성	-3488
▁초월	-3489
▁짝	-3490
▁지급	-3491
▁돌진	-3492
▁푸르	-3493
▁오류	-3494
▁두산	-3495
▁수입	-3496
▁74	-3497
▁가까이	-3498
▁AC	-3499
▁전함	-3500
아먹	-3501
▁전공	-3502
▁연도	-3503
▁랜드	-3504
▁파라	-3505
▁연예	-3506
OL	-3507
▁카라	-3508
▁메타	-3509
▁치명타	-3510
▁공군	-3511
▁67	-3512
▁설득	-3513
▁체계	-3514
▁낚	-3515
▁소문	-3516
▁찰	-3517
다지	-3518
▁메가	-3519
이터	-3520
▁기기	-3521
ew	-3522
▁아트	-3523
▁캔	-3524
▁통일	-3525
▁충돌	-3526
▁여신	-3527
▁반영	-3528
▁아오	-3529
▁즉시	-3530
▁단위	-3531
▁화장	-3532
▁거주	-3533
ry	-3534
▁문자	-3535
▁73	-3536
▁코믹스	-3537
▁불꽃	-3538
바로	-3539
▁그림자	-3540
▁TH	-3541
▁편의	-3542
▁안습	-3543
ast	-3544
▁말리	-3545
▁지시	-3546
▁닿	-3547
▁NC	-3548
▁96	-3549
▁홍콩	-3550
▁학과	-3551
▁레오	-3552
▁전투력	-3553
▁짜리	-3554
▁크루	-3555
▁AT	-3556
▁주년	-3557
▁걸치	-3558
▁해방	-3559
▁내려오	-3560
▁다행히	-3561
▁아나	-3562
▁시야	-3563
▁me	-3564
▁크리티컬	-3565
▁비율	-3566
카와	-3567
▁둘러	-3568
▁제조	-3569
IT	-3570
나다	-3571
▁슬롯	-3572
츠키	-3573
▁국회의원	-3574
▁제하	-3575
▁으	-3576
▁피아	-3577
▁떡밥	-3578
▁ㅈㅏㄶ	-3579
▁상향	-3580
▁일부러	-3581
LC	-3582
▁생명력	-3583
▁신뢰	-3584
▁정지	-3585
▁널	-3586
▁격파	-3587
▁공화국	-3588
EC	-3589
▁81	-3590
▁그다지	-3591
▁써	-3592
▁관객	-3593
▁암흑	-3594
▁심장	-3595
▁깃	-3596
▁소프트	-3597
▁신고	-3598
▁수업	-3599
▁오로	-3600
▁지켜	-3601
▁파이널	-3602
▁CP	-3603
▁쓰러뜨리	-3604
ㅡㄹㅏ	-3605
▁토모	-3606
▁닌자	-3607
▁그만큼	-3608
▁사전	-3609
▁등판	-3610
▁무난	-3611
▁동네	-3612
▁늑대	-3613
▁판타지	-3614
▁맘	-3615
▁가득	-3616
▁마주	-3617
▁붙잡	-3618
▁j	-3619
▁엘프	-3620
FA	-3621
▁가입	-3622
사카	-3623
▁유비	-3624
▁192	-3625
▁연사	-3626
▁1999	-3627
▁별개	-3628
▁덮	-3629
▁고기	-3630
▁사운드	-3631
▁압박	-3632
▁마술	-3633
ㅓㄴㅏ	-3634
▁본부	-3635
▁집안	-3636
▁NPC	-3637
▁78	-3638
식간	-3639
▁아티	-3640
▁84	-3641
▁리버	-3642
▁건강	-3643
▁근무	-3644
end	-3645
▁재능	-3646
▁창작	-3647
▁순식간	-3648
▁막장	-3649
▁91	-3650
▁짱	-3651
▁니시	-3652
▁ㄷㅡㄴㅈㅣ	-3653
▁반란	-3654
▁an	-3655
▁드디어	-3656
▁실드	-3657
고기	-3658
▁업체	-3659
▁저런	-3660
▁추적	-3661
▁룡	-3662
▁지하철	-3663
▁장식	-3664
▁지켜보	-3665
▁제주	-3666
▁곰	-3667
▁뛰어	-3668
▁지형	-3669
▁화이트	-3670
▁신세	-3671
▁팝	-3672
▁묵	-3673
▁1998	-3674
▁it	-3675
▁가이	-3676
▁불만	-3677
▁전적	-3678
▁입학	-3679
▁경향	-3680
▁증명	-3681
▁!!	-3682
▁처하	-3683
▁수학	-3684
▁경험치	-3685
▁쿼	-3686
▁상품	-3687
og	-3688
세우	-3689
▁천사	-3690
▁브리	-3691
▁게이트	-3692
▁기원	-3693
▁ㅕㅅㅓ	-3694
▁사쿠라	-3695
▁대만	-3696
▁낭	-3697
▁형성	-3698
▁신청	-3699
▁쌓이	-3700
▁An	-3701
▁전방	-3702
▁테이	-3703
▁예고	-3704
▁스티	-3705
▁여동생	-3706
▁매력	-3707
▁오픈	-3708
▁블레이드	-3709
▁쓰레기	-3710
▁노멀	-3711
▁지르	-3712
▁적히	-3713
▁절반	-3714
▁정권	-3715
▁콜라	-3716
▁사령관	-3717
▁97	-3718
▁클로	-3719
▁쿠키	-3720
아버지	-3721
▁나루	-3722
▁팅	-3723
▁섹	-3724
▁주먹	-3725
▁감염	-3726
▁이마	-3727
ㅍㅣ	-3728
▁마도	-3729
▁마이크	-3730
ㅅㅣㅍㅣ	-3731
▁ㄷㅏㅅㅣㅍㅣ	-3732
▁의상	-3733
▁여론	-3734
▁룬	-3735
▁외국인	-3736
▁Ar	-3737
광역	-3738
▁He	-3739
▁령	-3740
▁오빠	-3741
▁타점	-3742
▁82	-3743
▁회차	-3744
▁강조	-3745
▁유희	-3746
▁라이더	-3747
▁69	-3748
▁키스	-3749
▁덴	-3750
돼지	-3751
▁단일	-3752
▁사토	-3753
▁이론	-3754
지컬	-3755
▁메카	-3756
▁이승	-3757
▁선호	-3758
▁어택	-3759
▁근거	-3760
▁소멸	-3761
▁연상	-3762
▁복장	-3763
▁ㅈㅏㄶㅇㅏ	-3764
▁별도	-3765
▁엔터	-3766
▁전선	-3767
▁바보	-3768
▁코인	-3769
▁고치	-3770
▁is	-3771
▁실행	-3772
돌리	-3773
▁대륙	-3774
타로	-3775
▁250	-3776
트로	-3777
▁스톤	-3778
▁주전	-3779
▁공작	-3780
▁for	-3781
▁썰	-3782
▁작용	-3783
광역시	-3784
▁최상	-3785
▁아가	-3786
▁디아	-3787
▁아무것	-3788
▁한때	-3789
▁공기	-3790
▁아메	-3791
▁180	-3792
▁핀	-3793
▁MAX	-3794
▁86	-3795
▁반지	-3796
▁부품	-3797
▁평타	-3798
▁SN	-3799
▁화려	-3800
▁요정	-3801
▁190	-3802
▁스토	-3803
▁헌터	-3804
어버리	-3805
▁흔하	-3806
▁해설	-3807
▁권력	-3808
▁찾아	-3809
▁간격	-3810
▁요새	-3811
▁출현	-3812
▁호환	-3813
파이어	-3814
▁따오	-3815
모로	-3816
▁전형	-3817
▁총기	-3818
▁뉴욕	-3819
▁몰래	-3820
▁탱크	-3821
▁퀸	-3822
▁추격	-3823
▁출장	-3824
▁키리	-3825
둥이	-3826
▁바라보	-3827
▁박살	-3828
▁토리	-3829
▁구도	-3830
▁조용	-3831
▁굽	-3832
▁울산	-3833
▁사자	-3834
▁무효	-3835
▁돌아다니	-3836
▁주위	-3837
ath	-3838
▁마스	-3839
▁스카이	-3840
레나	-3841
▁경상	-3842
▁연애	-3843
▁BGM	-3844
▁프레임	-3845
▁탁	-3846
▁시드	-3847
더스	-3848
▁명예	-3849
서트	-3850
▁여러모로	-3851
▁마리오	-3852
▁권총	-3853
▁범인	-3854
av	-3855
▁폭격	-3856
▁이슬	-3857
▁경비	-3858
▁주어지	-3859
RE	-3860
▁1997	-3861
▁동기	-3862
▁추락	-3863
드라	-3864
▁ㅈㅏㄴㅡㄴ	-3865
50	-3866
▁De	-3867
▁경영	-3868
▁테스트	-3869
▁대우	-3870
▁심리	-3871
▁제이	-3872
▁우스	-3873
▁Te	-3874
타인	-3875
▁아무런	-3876
▁신규	-3877
▁지대	-3878
▁심판	-3879
▁폭주	-3880
▁모바	-3881
▁놓치	-3882
듀서	-3883
▁블록	-3884
▁프로듀서	-3885
▁클라	-3886
▁후쿠	-3887
▁소총	-3888
웨이	-3889
▁영업	-3890
▁갈등	-3891
▁거짓말	-3892
▁공유	-3893
▁MS	-3894
▁아크	-3895
▁하수인	-3896
se	-3897
▁변호	-3898
▁일상	-3899
▁수요	-3900
▁탄약	-3901
▁계승	-3902
one	-3903
▁외교	-3904
히로	-3905
▁고교	-3906
▁전대	-3907
어스	-3908
▁환상	-3909
▁메인	-3910
▁그래픽	-3911
▁메이저	-3912
▁고전	-3913
▁학살	-3914
▁통제	-3915
▁요괴	-3916
▁브라질	-3917
▁북미	-3918
▁사양	-3919
겨나	-3920
▁렙	-3921
▁상점	-3922
▁언제나	-3923
▁Be	-3924
▁보석	-3925
▁마련	-3926
▁시각	-3927
▁입력	-3928
사키	-3929
▁변형	-3930
남도	-3931
▁이득	-3932
▁83	-3933
▁터치	-3934
▁폭력	-3935
▁ㄹㅏㄹ	-3936
▁띄우	-3937
▁제법	-3938
▁공학	-3939
▁훔	-3940
▁옛날	-3941
▁만든	-3942
▁탱커	-3943
▁혁명	-3944
▁맞서	-3945
▁유령	-3946
▁빗	-3947
▁불편	-3948
▁블러	-3949
▁제작진	-3950
▁통상	-3951
▁커맨	-3952
퍼스	-3953
▁그곳	-3954
▁작동	-3955
▁미츠	-3956
▁KT	-3957
▁리스트	-3958
▁ㅇㅣㄹㅏㅇ	-3959
▁믹	-3960
스트라	-3961
ust	-3962
▁92	-3963
▁용사	-3964
▁89	-3965
▁예외	-3966
▁동원	-3967
가와	-3968
▁전투기	-3969
▁조치	-3970
▁진지	-3971
▁타케	-3972
▁94	-3973
▁ㄲㅔ	-3974
▁조심	-3975
▁휘두르	-3976
▁승강장	-3977
▁연대	-3978
▁고생	-3979
▁민간	-3980
▁구현	-3981
▁수집	-3982
▁스마트	-3983
▁미디어	-3984
▁머신	-3985
자키	-3986
도우	-3987
▁파일럿	-3988
▁현지	-3989
ide	-3990
▁한국인	-3991
▁프로필	-3992
▁둥	-3993
▁일자	-3994
▁포탑	-3995
▁검색	-3996
▁79	-3997
려움	-3998
▁네임	-3999
▁워치	-4000
▁앵	-4001
▁쿠로	-4002
▁Le	-4003
▁입구	-4004
노스	-4005
▁이리	-4006
▁챕	-4007
▁조조	-4008
▁메시	-4009
보내	-4010
▁사이즈	-4011
▁쇠	-4012
▁되찾	-4013
▁신인	-4014
▁경기장	-4015
▁모바일	-4016
▁꺾	-4017
▁조절	-4018
일드	-4019
▁Se	-4020
나무	-4021
▁멋지	-4022
▁93	-4023
ity	-4024
▁동영	-4025
▁차단	-4026
▁신장	-4027
PG	-4028
▁콘서트	-4029
▁요즘	-4030
ㄴㅣㄲㅏ	-4031
▁겐	-4032
▁US	-4033
▁부위	-4034
▁감시	-4035
▁물러	-4036
▁표준	-4037
▁카미	-4038
▁레스	-4039
▁다이아	-4040
▁챕터	-4041
▁레인저	-4042
▁보장	-4043
▁교전	-4044
▁편지	-4045
▁긍	-4046
▁음반	-4047
▁수송	-4048
저히	-4049
▁마루	-4050
▁시행	-4051
OT	-4052
▁정류장	-4053
▁동방	-4054
▁87	-4055
▁도발	-4056
▁폐지	-4057
어도	-4058
▁덧	-4059
일리	-4060
▁공산	-4061
▁프린	-4062
▁맞이	-4063
▁스톰	-4064
▁1996	-4065
▁101	-4066
▁동영상	-4067
▁길드	-4068
▁상상	-4069
▁한방	-4070
▁연락	-4071
▁배차	-4072
▁ㄷㅏㅁㅕㄴㅅㅓ	-4073
▁패널	-4074
▁리얼	-4075
▁기습	-4076
▁AI	-4077
▁볼넷	-4078
▁ㅇㅡㄴㅣㄲㅏ	-4079
▁용어	-4080
▁1995	-4081
북도	-4082
ere	-4083
▁MC	-4084
▁DJ	-4085
▁구출	-4086
▁겁	-4087
▁자이언	-4088
AC	-4089
▁음성	-4090
▁슛	-4091
▁텔레	-4092
▁프리미	-4093
▁호평	-4094
▁루타	-4095
▁연방	-4096
▁앱	-4097
▁똑같이	-4098
▁그치	-4099
▁이재	-4100
▁태우	-4101
▁김정	-4102
▁어깨	-4103
ㅌㅇㅣ	-4104
▁ㄱㅏㅌㅇㅣ	-4105
▁특화	-4106
▁어지	-4107
▁훔치	-4108
▁루시	-4109
▁On	-4110
▁라이프	-4111
▁도달	-4112
age	-4113
▁나타내	-4114
▁쟁	-4115
▁추진	-4116
▁ㄴㅑㅁㅕ	-4117
▁계정	-4118
▁세월	-4119
▁도서관	-4120
▁흥행	-4121
▁볼트	-4122
▁이날	-4123
▁사이드	-4124
▁연관	-4125
▁잠수	-4126
▁강철	-4127
▁익숙	-4128
▁매니	-4129
▁간부	-4130
▁핸드	-4131
▁무료	-4132
▁결승전	-4133
펙트	-4134
▁슈트	-4135
▁농구	-4136
▁신문	-4137
▁지휘관	-4138
▁전달	-4139
▁번개	-4140
▁레이드	-4141
▁노예	-4142
▁헤이	-4143
▁웬만	-4144
▁극단	-4145
▁삼진	-4146
▁신분	-4147
▁도망가	-4148
▁향상	-4149
▁@	-4150
▁가시	-4151
오프	-4152
▁고향	-4153
▁사마	-4154
▁겉	-4155
▁주소	-4156
▁.....	-4157
▁전직	-4158
▁리메	-4159
▁수술	-4160
▁신기	-4161
▁양산	-4162
메달	-4163
▁켜	-4164
▁그동안	-4165
▁출력	-4166
▁빌드	-4167
▁켈	-4168
▁묘지	-4169
▁환자	-4170
▁조지	-4171
레이터	-4172
▁넘치	-4173
▁신성	-4174
▁노출	-4175
▁빛나	-4176
▁마구	-4177
▁캐리	-4178
▁가상	-4179
▁박근	-4180
▁아우	-4181
▁장교	-4182
▁전역	-4183
▁진심	-4184
▁복잡	-4185
▁팀원	-4186
▁제자	-4187
▁스튜	-4188
▁레이스	-4189
▁샘	-4190
조리	-4191
▁헨	-4192
▁가속	-4193
▁동작	-4194
▁적어도	-4195
▁환승	-4196
▁임명	-4197
▁글자	-4198
▁베트	-4199
ㄱㅓㄴㅏ	-4200
▁갤럭	-4201
qu	-4202
▁부문	-4203
▁멕	-4204
▁소닉	-4205
▁px	-4206
▁세이브	-4207
▁봇	-4208
▁입단	-4209
▁듯이	-4210
▁커플	-4211
▁가게	-4212
오카	-4213
▁절망	-4214
▁DLC	-4215
ood	-4216
▁캐스	-4217
▁내구	-4218
▁대체로	-4219
▁쾌	-4220
▁차리	-4221
▁AK	-4222
▁ㄹㅕㄷㅏ	-4223
▁반하	-4224
▁해체	-4225
▁기병	-4226
▁내성	-4227
▁성별	-4228
▁타마	-4229
▁망치	-4230
▁임시	-4231
창기	-4232
▁아빠	-4233
▁명중률	-4234
▁틀리	-4235
▁핫	-4236
▁종이	-4237
▁구속	-4238
▁THE	-4239
BO	-4240
▁착각	-4241
▁브레이크	-4242
▁페이즈	-4243
▁알파	-4244
▁ㅇㅓㅆㅇㅓㅆ	-4245
▁여유	-4246
▁MVP	-4247
▁너무나	-4248
▁전시	-4249
▁막차	-4250
▁차라리	-4251
▁근육	-4252
▁플레	-4253
▁득표	-4254
▁갤럭시	-4255
▁수영	-4256
▁육성	-4257
▁연구소	-4258
란색	-4259
▁발매되	-4260
▁Wh	-4261
▁중화	-4262
▁뼈	-4263
IS	-4264
▁이즈	-4265
are	-4266
▁고백	-4267
▁경고	-4268
▁CC	-4269
PM	-4270
▁인수	-4271
▁그럼	-4272
▁대량	-4273
▁빡	-4274
▁융합	-4275
▁공지	-4276
▁창조	-4277
▁개통	-4278
▁자매	-4279
끄럽	-4280
▁리메이크	-4281
▁이자	-4282
▁강원	-4283
▁참전	-4284
▁분기	-4285
▁1994	-4286
▁배트	-4287
▁하필	-4288
▁물질	-4289
전자	-4290
▁아끼	-4291
▁인증	-4292
▁$	-4293
▁엮	-4294
▁규칙	-4295
▁남부	-4296
▁의뢰	-4297
▁카오스	-4298
▁ㅕㅆ	-4299
▁대대	-4300
▁럭	-4301
▁인연	-4302
▁묻히	-4303
▁1980	-4304
▁시즈	-4305
▁파리	-4306
▁이시	-4307
▁소화	-4308
▁초창기	-4309
▁리치	-4310
▁날짜	-4311
▁지능	-4312
▁실버	-4313
▁멍	-4314
▁먹히	-4315
▁글로	-4316
▁제어	-4317
▁협회	-4318
브리	-4319
▁구체	-4320
▁게스트	-4321
▁점차	-4322
▁톱	-4323
▁식사	-4324
▁뭉	-4325
OM	-4326
▁끼치	-4327
▁카타	-4328
▁분량	-4329
▁가량	-4330
▁성과	-4331
ob	-4332
▁청년	-4333
크스	-4334
▁악역	-4335
▁700	-4336
▁고용	-4337
▁그대	-4338
▁태그	-4339
▁이내	-4340
▁의혹	-4341
▁객	-4342
▁미카	-4343
▁대립	-4344
▁누적	-4345
▁Tr	-4346
▁투구	-4347
▁어둡	-4348
▁흠	-4349
▁합격	-4350
▁찾아보	-4351
▁돼지	-4352
▁회원	-4353
티나	-4354
ock	-4355
▁떠올리	-4356
▁정복	-4357
▁반발	-4358
▁중대	-4359
▁테일	-4360
▁여지	-4361
▁왠	-4362
▁김영	-4363
▁협박	-4364
▁메모리	-4365
▁녹음	-4366
▁귀신	-4367
▁합체	-4368
ake	-4369
▁감옥	-4370
▁위장	-4371
▁뚜	-4372
먼트	-4373
▁의료	-4374
▁''	-4375
▁둔	-4376
▁결론	-4377
▁이명	-4378
▁웅	-4379
▁아니면	-4380
▁춘	-4381
ect	-4382
▁꼬리	-4383
구리	-4384
▁체포	-4385
our	-4386
OW	-4387
▁오가	-4388
▁호감	-4389
▁아시	-4390
▁ㄴㅡㄴㄷㅏㅁㅕㄴ	-4391
▁파트너	-4392
ass	-4393
▁곧바로	-4394
▁he	-4395
▁몰아	-4396
▁어쨌	-4397
oy	-4398
▁피격	-4399
▁게시판	-4400
▁출판	-4401
▁FI	-4402
▁써먹	-4403
ire	-4404
▁외계	-4405
▁떠오르	-4406
▁뷰	-4407
보드	-4408
▁잦	-4409
▁강의	-4410
도로	-4411
▁스턴	-4412
▁웹툰	-4413
▁모모	-4414
▁후속작	-4415
지마	-4416
ark	-4417
▁차트	-4418
▁ㄹㄹ	-4419
▁와이	-4420
▁히데	-4421
▁츄	-4422
▁기초	-4423
▁썩	-4424
▁삼국지	-4425
▁정면	-4426
▁예비	-4427
▁아기	-4428
▁쟈	-4429
▁깨지	-4430
▁부서	-4431
▁합성	-4432
▁서부	-4433
▁유로	-4434
▁괴롭히	-4435
▁예쁘	-4436
▁베스트	-4437
ite	-4438
▁림	-4439
▁마키	-4440
▁카스	-4441
▁축제	-4442
▁구멍	-4443
▁ㅎㅏㄱㅗ	-4444
▁사제	-4445
▁랭킹	-4446
▁문장	-4447
웨어	-4448
▁햄	-4449
▁동화	-4450
▁블리	-4451
▁토론	-4452
▁편곡	-4453
▁본작	-4454
▁퀄리티	-4455
▁토르	-4456
▁깜	-4457
▁공급	-4458
▁불러	-4459
▁부부	-4460
▁수련	-4461
▁저그	-4462
▁비아	-4463
▁개방	-4464
▁대가	-4465
주시	-4466
ah	-4467
▁인공	-4468
▁렛	-4469
▁안드로이드	-4470
▁단장	-4471
▁횡	-4472
▁FA	-4473
▁마리아	-4474
▁wh	-4475
▁SR	-4476
▁소형	-4477
▁다섯	-4478
▁룸	-4479
▁소원	-4480
▁매체	-4481
▁전면	-4482
▁고문	-4483
▁은하	-4484
▁곁	-4485
성기	-4486
FC	-4487
▁대폭	-4488
▁ㅇㅡㄹㅕㄱㅗ	-4489
▁kt	-4490
▁마이클	-4491
ES	-4492
▁슈팅	-4493
▁Cl	-4494
▁트로	-4495
라이언	-4496
▁AR	-4497
▁유행	-4498
디아	-4499
▁립	-4500
▁뺏	-4501
▁플랫	-4502
▁해병	-4503
▁예능	-4504
▁활성	-4505
▁캐나다	-4506
▁투어	-4507
▁과목	-4508
▁초간	-4509
UN	-4510
▁클리	-4511
▁문학	-4512
▁파견	-4513
▁뜬	-4514
▁신호	-4515
▁대략	-4516
릭스	-4517
▁일시	-4518
▁목격	-4519
▁매직	-4520
▁세이버	-4521
▁에드	-4522
▁움직임	-4523
▁손가락	-4524
▁내장	-4525
▁넉	-4526
▁커맨드	-4527
▁아일	-4528
▁왕조	-4529
▁시위	-4530
▁컬러	-4531
▁GT	-4532
▁연타	-4533
iz	-4534
ound	-4535
▁적군	-4536
▁달하	-4537
▁관중	-4538
▁외형	-4539
▁포스트	-4540
▁간혹	-4541
▁스틸	-4542
▁긍정	-4543
▁커지	-4544
▁김태	-4545
▁팬덤	-4546
▁ㄱㅜㄴㅏ	-4547
▁야스	-4548
▁구원	-4549
▁이지	-4550
▁박근혜	-4551
▁일원	-4552
ime	-4553
ㄷㅓㄴㄱㅏ	-4554
▁피부	-4555
▁의무	-4556
▁플레이오프	-4557
▁반사	-4558
▁식물	-4559
▁정글	-4560
▁희귀	-4561
▁데모	-4562
▁소지	-4563
▁프라이	-4564
▁다가오	-4565
▁최소한	-4566
▁육체	-4567
▁my	-4568
▁펀치	-4569
▁신라	-4570
▁수수	-4571
▁들어서	-4572
▁SD	-4573
▁블로그	-4574
스턴	-4575
▁ㅇㅓㄷㅏ	-4576
▁코우	-4577
▁PD	-4578
어나오	-4579
▁바위	-4580
▁김민	-4581
▁나아가	-4582
▁은근히	-4583
▁연인	-4584
▁크라	-4585
LL	-4586
우드	-4587
▁상성	-4588
▁Gr	-4589
iv	-4590
▁준수	-4591
▁널리	-4592
▁타이거	-4593
▁대처	-4594
▁피스	-4595
잡이	-4596
▁SC	-4597
▁KIA	-4598
▁ㅓㄷㅗ	-4599
▁굴리	-4600
▁Me	-4601
▁멘탈	-4602
▁수용	-4603
▁주말	-4604
▁대충	-4605
▁킨	-4606
▁섞이	-4607
밀리	-4608
▁ㄴㅡㄴㅈㅣㄹㅏ	-4609
▁인근	-4610
▁오카	-4611
▁파크	-4612
▁불법	-4613
버트	-4614
▁섀	-4615
▁일격	-4616
▁메뉴	-4617
ID	-4618
▁ㄴㄷㅏㅁㅕ	-4619
▁떨어	-4620
페인	-4621
큐어	-4622
▁각자	-4623
▁까다	-4624
▁예측	-4625
▁자치	-4626
▁개체	-4627
▁116	-4628
▁스미	-4629
▁실리	-4630
▁특집	-4631
▁털리	-4632
▁환영	-4633
▁전철	-4634
▁딩	-4635
▁영토	-4636
▁동부	-4637
▁박정	-4638
▁헤비	-4639
▁곡명	-4640
▁영문	-4641
▁냄	-4642
▁조성	-4643
▁적대	-4644
▁뜯	-4645
▁다스	-4646
▁놀랍	-4647
▁홀로	-4648
▁SM	-4649
▁멀쩡	-4650
▁My	-4651
▁기사단	-4652
▁ㅇㅡㄹㅓ	-4653
▁로즈	-4654
▁보안	-4655
▁더더	-4656
시코	-4657
▁따라가	-4658
OP	-4659
▁국군	-4660
▁건축	-4661
▁130	-4662
▁형사	-4663
▁서양	-4664
▁소중	-4665
▁커스	-4666
▁침공	-4667
디언	-4668
▁오랫	-4669
▁누나	-4670
▁원본	-4671
▁왈	-4672
▁냥	-4673
구치	-4674
미야	-4675
▁계단	-4676
▁바리	-4677
▁강남	-4678
▁바치	-4679
▁안내	-4680
▁접속	-4681
▁더더욱	-4682
▁이래	-4683
▁거인	-4684
▁어린이	-4685
▁아바	-4686
▁주포	-4687
▁갇	-4688
▁좌우	-4689
▁튀어나오	-4690
▁탄창	-4691
▁어른	-4692
▁훗	-4693
▁쉐	-4694
▁Pr	-4695
▁결말	-4696
▁호텔	-4697
▁{{	-4698
▁대지	-4699
▁플로	-4700
▁호주	-4701
▁기독	-4702
▁첨	-4703
▁유이	-4704
▁정찰	-4705
▁지도자	-4706
▁사우	-4707
ge	-4708
데스	-4709
▁면역	-4710
▁골든	-4711
▁깡	-4712
가미	-4713
▁회상	-4714
▁처벌	-4715
▁ㄹㅓㄴ	-4716
▁죄다	-4717
▁허나	-4718
▁알아보	-4719
▁미안	-4720
▁까다롭	-4721
▁액티브	-4722
▁대항	-4723
▁갇히	-4724
▁시선	-4725
▁시내버스	-4726
▁{{{	-4727
▁펫	-4728
▁험	-4729
▁시마	-4730
▁https	-4731
▁후기	-4732
▁절대로	-4733
▁학부	-4734
▁치우	-4735
▁현역	-4736
▁BE	-4737
▁음원	-4738
▁씌	-4739
▁딘	-4740
▁닫	-4741
▁식당	-4742
▁작화	-4743
▁퀴	-4744
▁괴수	-4745
ome	-4746
▁상당수	-4747
ax	-4748
▁포트	-4749
▁깨닫	-4750
▁히메	-4751
▁과연	-4752
▁메르	-4753
▁요코	-4754
▁ㅇㅔㅅㅓㅂㅜㅌㅓ	-4755
▁해적	-4756
▁어떠	-4757
▁하야	-4758
▁취미	-4759
▁아이스	-4760
▁재미있	-4761
▁캐스팅	-4762
▁저녁	-4763
▁일기	-4764
덜란드	-4765
▁도우	-4766
▁네덜란드	-4767
▁버스터	-4768
▁그로	-4769
▁DF	-4770
▁전문가	-4771
▁새벽	-4772
▁고스트	-4773
▁삐	-4774
ance	-4775
▁전진	-4776
▁프리큐어	-4777
uc	-4778
▁꽂	-4779
▁주간	-4780
▁과제	-4781
▁로그	-4782
려주	-4783
▁리아	-4784
▁라인업	-4785
ick	-4786
▁모자라	-4787
▁MF	-4788
▁천재	-4789
▁리듬	-4790
▁시계	-4791
▁한동안	-4792
▁혀	-4793
▁아티스트	-4794
▁비행기	-4795
▁열쇠	-4796
▁한번	-4797
▁유치	-4798
▁고지	-4799
▁스키	-4800
▁Pl	-4801
▁ch	-4802
스탄	-4803
▁예시	-4804
닉스	-4805
▁검찰	-4806
▁오스트	-4807
▁기적	-4808
▁그러니	-4809
▁자금	-4810
▁하얗	-4811
▁한참	-4812
▁방지	-4813
▁총선	-4814
▁촌	-4815
가시	-4816
▁고수	-4817
▁첫차	-4818
▁HD	-4819
▁니코	-4820
요시	-4821
▁승격	-4822
▁리드	-4823
10	-4824
▁용기	-4825
▁\	-4826
ix	-4827
▁우위	-4828
MA	-4829
▁WW	-4830
▁주사	-4831
▁익히	-4832
▁트레이드	-4833
▁트럭	-4834
ord	-4835
▁마비	-4836
mer	-4837
▁트윈	-4838
▁파츠	-4839
▁경기력	-4840
▁방사	-4841
▁챌	-4842
▁드레	-4843
▁??	-4844
▁이슬람	-4845
▁별다르	-4846
▁어지간	-4847
▁휴대	-4848
▁안경	-4849
▁저장	-4850
▁양쪽	-4851
▁짤	-4852
▁스타크래프트	-4853
▁160	-4854
ure	-4855
아웃	-4856
▁코코	-4857
▁램	-4858
▁대리	-4859
▁한마	-4860
▁허리	-4861
▁보라	-4862
▁토끼	-4863
▁할아버지	-4864
▁개성	-4865
▁농담	-4866
▁물러나	-4867
▁어쨌든	-4868
▁디지털	-4869
▁캠페인	-4870
덩이	-4871
▁GB	-4872
▁갈수	-4873
▁신비	-4874
▁캡틴	-4875
▁ㄱㅔㅅ	-4876
▁크리스마스	-4877
고리	-4878
프레	-4879
▁청소년	-4880
▁캠퍼스	-4881
이즈	-4882
▁빚	-4883
▁상급	-4884
▁동굴	-4885
▁꼽히	-4886
▁개정	-4887
▁갈수록	-4888
▁전라	-4889
▁국어	-4890
▁무덤	-4891
▁영향력	-4892
특별	-4893
▁with	-4894
▁문재	-4895
▁OST	-4896
▁마침내	-4897
▁1992	-4898
▁오랫동안	-4899
▁조언	-4900
▁로우	-4901
▁체크	-4902
▁이영	-4903
지로	-4904
▁유희왕	-4905
▁웃음	-4906
▁북부	-4907
▁시아	-4908
▁터키	-4909
▁방출	-4910
▁호위	-4911
▁화제	-4912
▁기독교	-4913
바라	-4914
▁미술	-4915
▁인지도	-4916
▁마이너	-4917
▁김동	-4918
▁클래식	-4919
▁ㄴㅡㄹㅏ	-4920
▁바퀴	-4921
▁어마	-4922
▁KO	-4923
▁해리	-4924
▁1993	-4925
▁델	-4926
▁연료	-4927
▁아이콘	-4928
▁올해	-4929
라드	-4930
ud	-4931
▁곽	-4932
▁칭하	-4933
▁장악	-4934
▁빼앗기	-4935
▁극복	-4936
▁안티	-4937
▁원소	-4938
▁접촉	-4939
▁정원	-4940
▁원수	-4941
양함	-4942
▁클릭	-4943
▁의존	-4944
톨릭	-4945
▁베트남	-4946
▁비추	-4947
▁중독	-4948
▁국방	-4949
▁귀찮	-4950
▁SKT	-4951
▁노인	-4952
▁일제	-4953
▁사도	-4954
▁인정받	-4955
▁결코	-4956
라이트	-4957
▁팔리	-4958
▁데려오	-4959
▁바이러스	-4960
▁ㄹㅏㅁㅕㄴㅅㅓ	-4961
▁하락	-4962
▁식량	-4963
▁선택지	-4964
▁미라	-4965
▁톰	-4966
▁140	-4967
▁흐름	-4968
▁무겁	-4969
▁생존자	-4970
▁놀이	-4971
▁무작	-4972
▁담기	-4973
▁Ex	-4974
▁모조리	-4975
▁헛	-4976
▁살아가	-4977
ame	-4978
▁수익	-4979
▁전신	-4980
▁하우스	-4981
80	-4982
▁윌리	-4983
▁sh	-4984
▁칭찬	-4985
▁본체	-4986
쳐지	-4987
멘트	-4988
▁신설	-4989
▁보관	-4990
▁챌린	-4991
▁ㅇㅡㅅㅣ	-4992
▁캐논	-4993
▁전멸	-4994
임스	-4995
▁흔들리	-4996
▁JR	-4997
▁부장	-4998
▁투명	-4999
▁공무원	-5000
▁커리어	-5001
▁",	-5002
AD	-5003
▁손해	-5004
▁전성기	-5005
▁외전	-5006
▁라면	-5007
▁핏	-5008
▁도끼	-5009
치기	-5010
▁체육관	-5011
▁취향	-5012
▁개수	-5013
▁앞두	-5014
▁논리	-5015
몬드	-5016
▁de	-5017
▁이브	-5018
▁후방	-5019
▁치유	-5020
▁한마디	-5021
▁스승	-5022
▁노부	-5023
세스	-5024
▁씹	-5025
▁IC	-5026
▁수십	-5027
▁루수	-5028
리그	-5029
ost	-5030
▁비주	-5031
▁우연히	-5032
▁모래	-5033
▁돋	-5034
▁충성	-5035
▁카트	-5036
▁어스	-5037
▁기종	-5038
▁무릎	-5039
▁에리	-5040
▁최다	-5041
▁데드	-5042
out	-5043
▁정비	-5044
▁김종	-5045
▁가톨릭	-5046
▁동의	-5047
▁교장	-5048
▁기아	-5049
▁Love	-5050
▁툴	-5051
▁이터	-5052
▁변호사	-5053
▁무지	-5054
▁콜라보	-5055
▁마린	-5056
▁재현	-5057
코토	-5058
old	-5059
다랗	-5060
카리	-5061
▁일반인	-5062
▁유니폼	-5063
▁레이더	-5064
▁첼	-5065
▁구경	-5066
▁불타	-5067
▁사막	-5068
▁GS	-5069
▁제작자	-5070
▁당일	-5071
▁힙	-5072
▁우라	-5073
▁반동	-5074
▁세르	-5075
▁칩	-5076
▁명성	-5077
▁날아오	-5078
▁고맙	-5079
스키	-5080
▁적응	-5081
▁900	-5082
ㅇㅗ	-5083
▁Un	-5084
▁제임스	-5085
▁이정	-5086
▁타선	-5087
▁맥스	-5088
▁충청	-5089
▁기여	-5090
▁구사	-5091
▁트랜	-5092
▁작곡가	-5093
own	-5094
▁코미	-5095
▁법률	-5096
▁증언	-5097
▁소스	-5098
▁카츠	-5099
▁거미	-5100
▁오전	-5101
네스	-5102
▁잘리	-5103
▁사정거리	-5104
▁집어	-5105
▁수류	-5106
▁쵸	-5107
▁선전	-5108
▁합의	-5109
▁접하	-5110
▁202	-5111
▁자세히	-5112
▁업적	-5113
▁타인	-5114
▁패션	-5115
▁멕시코	-5116
▁무방	-5117
카드	-5118
▁잉글	-5119
▁개입	-5120
▁기량	-5121
▁둘째	-5122
▁아일랜드	-5123
워크	-5124
▁아즈	-5125
▁타락	-5126
▁연금	-5127
▁ㅂㅅㅣ	-5128
▁초보	-5129
▁바깥	-5130
▁가짜	-5131
▁로고	-5132
▁유통	-5133
▁소라	-5134
▁스트리	-5135
▁기도	-5136
▁판매량	-5137
▁다름	-5138
▁찢	-5139
▁법원	-5140
▁자국	-5141
▁눕	-5142
▁빨갛	-5143
▁할머니	-5144
▁잡지	-5145
▁상업	-5146
▁드라이브	-5147
▁스웨	-5148
▁ㄴㄷ	-5149
▁울리	-5150
▁폴란드	-5151
▁SH	-5152
▁아쿠	-5153
US	-5154
시로	-5155
▁북쪽	-5156
▁신부	-5157
▁의회	-5158
▁넥센	-5159
▁취임	-5160
▁화장실	-5161
▁조연	-5162
▁정수	-5163
▁LI	-5164
다이	-5165
▁일방	-5166
▁포격	-5167
▁수류탄	-5168
▁닭	-5169
▁박히	-5170
▁EP	-5171
▁유물	-5172
▁주식	-5173
▁전후	-5174
▁루카	-5175
▁무라	-5176
▁보고	-5177
▁wik	-5178
미니	-5179
ave	-5180
▁구리	-5181
▁안타깝	-5182
▁복무	-5183
▁벌레	-5184
▁깔끔	-5185
▁가루	-5186
▁차기	-5187
▁그러니까	-5188
▁히나	-5189
▁똥	-5190
▁주기	-5191
▁쌍둥이	-5192
▁ㅌ	-5193
▁새끼	-5194
▁교실	-5195
▁과장	-5196
▁승점	-5197
▁출마	-5198
▁금속	-5199
▁대개	-5200
▁FF	-5201
pe	-5202
▁펑	-5203
▁IS	-5204
▁구르	-5205
▁어드	-5206
ace	-5207
▁결성	-5208
▁기르	-5209
▁오사카	-5210
▁팽	-5211
▁정착	-5212
▁남쪽	-5213
▁도주	-5214
▁인격	-5215
▁위상	-5216
▁드롭	-5217
per	-5218
▁싱크	-5219
▁인조	-5220
▁포드	-5221
▁비례	-5222
▁흔적	-5223
▁연패	-5224
▁즐겁	-5225
▁XX	-5226
▁주일	-5227
▁너희	-5228
▁자폭	-5229
▁동력	-5230
▁사라	-5231
노우	-5232
▁내세우	-5233
ng	-5234
▁교차	-5235
▁처형	-5236
▁ㅣ	-5237
▁잠재	-5238
▁튕	-5239
▁냄새	-5240
▁독특	-5241
ice	-5242
▁도적	-5243
▁훗날	-5244
▁간신	-5245
▁스텔	-5246
▁방어구	-5247
▁숭	-5248
▁공성	-5249
▁1991	-5250
▁거점	-5251
▁더럽	-5252
▁스터	-5253
네임	-5254
▁강도	-5255
▁스마트폰	-5256
▁스프링	-5257
▁위대	-5258
▁대인	-5259
▁상호	-5260
▁화학	-5261
▁ㄴㅔㅇㅛ	-5262
▁ㄹㅐ	-5263
▁자책	-5264
▁매니저	-5265
▁일찍	-5266
ont	-5267
▁정치인	-5268
려나	-5269
▁블러드	-5270
▁라이온	-5271
▁남녀	-5272
▁국립	-5273
▁놓이	-5274
▁연승	-5275
▁클레	-5276
▁CV	-5277
ㄷㅡㄴㄱㅏ	-5278
▁1988	-5279
▁공룡	-5280
▁람	-5281
ov	-5282
▁패하	-5283
▁노르	-5284
▁비상	-5285
▁부작	-5286
▁포항	-5287
▁포수	-5288
▁AD	-5289
▁기용	-5290
▁클랜	-5291
▁귀환	-5292
▁몰락	-5293
▁미루	-5294
▁시너지	-5295
▁CF	-5296
▁We	-5297
▁후술	-5298
▁권한	-5299
▁제갈	-5300
▁고작	-5301
OD	-5302
▁추억	-5303
▁스튜디오	-5304
▁유대	-5305
▁행보	-5306
▁크리스탈	-5307
▁타수	-5308
▁스페이스	-5309
▁런던	-5310
▁이슈	-5311
랑이	-5312
▁개량	-5313
▁적당히	-5314
▁오타	-5315
▁각본	-5316
▁사신	-5317
▁김재	-5318
▁지뢰	-5319
▁실망	-5320
▁사유	-5321
▁상술	-5322
랭크	-5323
▁시달리	-5324
▁가리키	-5325
나카	-5326
▁시노	-5327
▁승률	-5328
▁아케	-5329
▁아츠	-5330
▁색깔	-5331
▁트라이	-5332
▁흥미	-5333
▁공세	-5334
▁혐오	-5335
▁주역	-5336
▁숙련	-5337
▁개막	-5338
▁105	-5339
자드	-5340
▁어려움	-5341
▁혈액	-5342
▁다치	-5343
▁커피	-5344
▁이중	-5345
▁AM	-5346
▁광역시	-5347
▁녹색	-5348
▁루나	-5349
▁재단	-5350
▁뜬금	-5351
▁카운트	-5352
▁내지	-5353
▁미스터	-5354
로나	-5355
▁터뜨리	-5356
블린	-5357
orld	-5358
▁타로	-5359
▁자막	-5360
▁해피	-5361
▁다름없	-5362
ies	-5363
▁인민	-5364
▁소위	-5365
▁길이	-5366
▁히어로즈	-5367
▁DS	-5368
▁서포터	-5369
팡이	-5370
▁끊기	-5371
▁일람	-5372
▁코리아	-5373
▁.."	-5374
ann	-5375
▁화성	-5376
▁학력	-5377
▁생년	-5378
▁계통	-5379
▁금융	-5380
▁색상	-5381
▁나치	-5382
▁리타	-5383
▁스트라이크	-5384
▁국왕	-5385
▁티켓	-5386
▁특전	-5387
▁SNS	-5388
▁관람	-5389
▁면모	-5390
▁ED	-5391
▁제작사	-5392
▁요금	-5393
▁흡혈	-5394
▁아마도	-5395
▁영구	-5396
▁미터	-5397
▁구슬	-5398
시타	-5399
▁펴	-5400
OC	-5401
▁심사	-5402
특별시	-5403
▁ㅅㅠ	-5404
▁아이언	-5405
▁쪼	-5406
▁오크	-5407
▁릿	-5408
고속	-5409
▁쓸모	-5410
▁차이점	-5411
▁단단	-5412
▁튕기	-5413
▁뿔	-5414
▁오직	-5415
▁하단	-5416
▁배터리	-5417
▁기숙	-5418
럼프	-5419
▁오랜만	-5420
▁들키	-5421
▁재산	-5422
▁찾아내	-5423
▁소대	-5424
▁증오	-5425
▁디지몬	-5426
▁펄	-5427
▁개시	-5428
▁세종	-5429
BA	-5430
▁시그	-5431
▁썬	-5432
▁서울특별시	-5433
▁중량	-5434
▁CPU	-5435
▁아서	-5436
▁추종	-5437
▁사이버	-5438
▁미묘	-5439
▁칭호	-5440
▁어뢰	-5441
▁공공	-5442
▁호수	-5443
▁생략	-5444
▁세븐	-5445
▁잉글랜드	-5446
▁혹시	-5447
▁맛있	-5448
LE	-5449
▁중첩	-5450
▁DE	-5451
▁가만	-5452
▁고구	-5453
▁보호막	-5454
▁좌석	-5455
▁스팀	-5456
▁혐의	-5457
베르	-5458
▁오라	-5459
▁민첩	-5460
▁히토	-5461
▁연령	-5462
▁지경	-5463
▁총알	-5464
▁부지	-5465
▁편입	-5466
▁워커	-5467
▁뎀	-5468
▁십자	-5469
▁언더	-5470
▁협상	-5471
▁치루	-5472
▁덧붙이	-5473
▁애플	-5474
▁그만두	-5475
▁마약	-5476
저스	-5477
▁해상	-5478
려들	-5479
▁쿼터	-5480
▁메리	-5481
▁상단	-5482
▁휴식	-5483
▁실전	-5484
▁LC	-5485
▁아저	-5486
▁단편	-5487
▁연예인	-5488
▁신사	-5489
▁네오	-5490
어마	-5491
▁하차	-5492
▁LV	-5493
▁상인	-5494
▁타율	-5495
▁아저씨	-5496
▁눈치채	-5497
▁이익	-5498
▁예언	-5499
▁노벨	-5500
▁your	-5501
▁후배	-5502
시스트	-5503
로디	-5504
▁곤란	-5505
▁구석	-5506
▁네트	-5507
▁정화	-5508
▁찬스	-5509
▁용서	-5510
ber	-5511
▁막대	-5512
▁NE	-5513
▁딜링	-5514
▁강요	-5515
▁중국어	-5516
▁펌	-5517
바르	-5518
▁수장	-5519
▁탈퇴	-5520
▁어마어마	-5521
▁카카	-5522
▁떨어뜨리	-5523
▁기관총	-5524
ys	-5525
▁익스	-5526
▁흘러	-5527
▁예산	-5528
사자	-5529
▁임대	-5530
▁189	-5531
▁동쪽	-5532
▁언스	-5533
▁데려가	-5534
▁강자	-5535
▁공방	-5536
▁문구	-5537
▁턱	-5538
▁용량	-5539
▁SE	-5540
▁개혁	-5541
▁가요	-5542
der	-5543
▁오마	-5544
▁하루카	-5545
▁원칙	-5546
▁김현	-5547
aw	-5548
▁캠프	-5549
▁모노	-5550
ION	-5551
▁자극	-5552
▁진보	-5553
▁악당	-5554
▁It	-5555
▁엿	-5556
▁소장	-5557
▁수호자	-5558
▁금방	-5559
▁3000	-5560
▁상실	-5561
▁잠수함	-5562
▁원주	-5563
▁부각	-5564
▁드럼	-5565
▁ㅇㅔㅇㅛ	-5566
▁총리	-5567
▁기울	-5568
▁포로	-5569
60	-5570
▁틸	-5571
▁큐브	-5572
▁상관없	-5573
▁칼리	-5574
oo	-5575
▁깨어나	-5576
▁잡아내	-5577
▁ㄷㅓㄴㅈㅣ	-5578
이너	-5579
▁마디	-5580
▁교류	-5581
▁인치	-5582
▁루이	-5583
▁학자	-5584
▁집행	-5585
▁포르투	-5586
FF	-5587
40	-5588
▁EN	-5589
▁굿	-5590
▁BPM	-5591
▁찍히	-5592
▁며	-5593
ike	-5594
▁앨리스	-5595
▁원문	-5596
▁유효	-5597
▁자전	-5598
ream	-5599
▁메달	-5600
▁얻어	-5601
▁저작	-5602
▁결전	-5603
▁사귀	-5604
▁표지	-5605
나미	-5606
▁간신히	-5607
▁채팅	-5608
▁일족	-5609
▁가을	-5610
▁후계	-5611
▁뱀파이어	-5612
▁로리	-5613
▁미쿠	-5614
▁125	-5615
▁1989	-5616
▁무척	-5617
▁타운	-5618
▁활발	-5619
▁엑스트라	-5620
▁신앙	-5621
▁중립	-5622
▁입지	-5623
▁헬기	-5624
▁Com	-5625
▁엘리트	-5626
▁모토	-5627
가스	-5628
▁메시지	-5629
위대	-5630
▁피터	-5631
▁힌	-5632
술사	-5633
▁사형	-5634
▁저렴	-5635
▁해골	-5636
▁화물	-5637
▁무렵	-5638
▁카와	-5639
▁도루	-5640
▁낚시	-5641
▁기생	-5642
▁담배	-5643
티아	-5644
▁제트	-5645
▁마그	-5646
▁이끄	-5647
▁복지	-5648
ory	-5649
▁서번	-5650
▁칼날	-5651
▁짜증	-5652
▁묘하	-5653
월일	-5654
▁첩	-5655
▁PV	-5656
▁정예	-5657
▁사명	-5658
▁서번트	-5659
▁ww	-5660
▁요약	-5661
▁고개	-5662
▁루비	-5663
▁끈	-5664
▁안녕	-5665
▁재밌	-5666
▁추구	-5667
▁UP	-5668
▁미즈	-5669
▁나리	-5670
▁일본인	-5671
▁행운	-5672
▁거울	-5673
▁위원장	-5674
▁동아	-5675
▁레알	-5676
▁부딪	-5677
▁존재감	-5678
iss	-5679
▁영주	-5680
팩트	-5681
▁딜레이	-5682
▁잡아먹	-5683
▁거듭	-5684
▁애정	-5685
▁그랜드	-5686
▁터널	-5687
▁생년월일	-5688
▁조이	-5689
▁엮이	-5690
▁ㄹㅏㄱㅣ	-5691
▁반전	-5692
▁대학원	-5693
▁주자	-5694
▁도둑	-5695
▁구축함	-5696
▁음모	-5697
▁착하	-5698
▁바이오	-5699
▁순환	-5700
▁커다랗	-5701
▁불사	-5702
▁www	-5703
▁철학	-5704
▁가동	-5705
▁격추	-5706
▁테라	-5707
데이	-5708
▁지라	-5709
▁캐스터	-5710
▁잔뜩	-5711
▁최신	-5712
▁AS	-5713
▁ㄷㅏㄴㅣ	-5714
▁사원	-5715
▁무역	-5716
▁플라이	-5717
라기	-5718
▁엔젤	-5719
▁피아노	-5720
▁텍스트	-5721
▁참석	-5722
▁언젠	-5723
▁태평	-5724
▁언젠가	-5725
▁공허	-5726
▁서쪽	-5727
▁휩	-5728
▁생겨나	-5729
무르	-5730
▁알렉산	-5731
▁기구	-5732
▁ㅅㅗ	-5733
▁모니	-5734
▁부적	-5735
▁심심	-5736
▁기숙사	-5737
걸이	-5738
▁성남	-5739
▁->	-5740
▁부스터	-5741
▁BL	-5742
▁걸어	-5743
▁취약	-5744
▁비서	-5745
말리	-5746
▁이집	-5747
▁공용	-5748
▁주차	-5749
▁이집트	-5750
30	-5751
▁붓	-5752
▁분신	-5753
▁의대	-5754
▁that	-5755
▁드래프트	-5756
▁비치	-5757
ian	-5758
▁분대	-5759
테르	-5760
▁되돌리	-5761
하면	-5762
▁궤도	-5763
chor	-5764
▁상기	-5765
▁옳	-5766
▁준우	-5767
▁유적	-5768
▁통산	-5769
▁CJ	-5770
▁체중	-5771
회사	-5772
▁토벌	-5773
▁쭉	-5774
▁초록	-5775
▁난입	-5776
▁유나이	-5777
▁헤어지	-5778
▁권리	-5779
ㄱㅜ	-5780
▁우르	-5781
▁페널	-5782
▁교황	-5783
▁명단	-5784
▁확대	-5785
▁훼	-5786
▁탄환	-5787
▁이토	-5788
▁알아내	-5789
우마	-5790
▁윌리엄	-5791
▁식민	-5792
io	-5793
▁종목	-5794
▁Pro	-5795
▁도박	-5796
게임	-5797
▁씬	-5798
▁나츠	-5799
▁건드리	-5800
▁유나이티	-5801
▁베리	-5802
▁조리	-5803
▁복구	-5804
▁경로	-5805
▁은신	-5806
▁출입	-5807
▁신전	-5808
▁스펠	-5809
▁밍	-5810
▁이식	-5811
▁말투	-5812
▁브루	-5813
▁악명	-5814
▁대선	-5815
▁마주치	-5816
▁발리	-5817
▁하츠	-5818
소녀	-5819
▁왠지	-5820
▁외계인	-5821
▁1970	-5822
▁건조	-5823
▁동인	-5824
▁글로벌	-5825
▁코멘트	-5826
▁끔	-5827
▁트랜스	-5828
▁천하	-5829
▁간접	-5830
▁형상	-5831
▁윗	-5832
정부	-5833
▁이수	-5834
▁업로드	-5835
▁꾸미	-5836
▁Fl	-5837
▁ㅇㅔㄷㅏㄱㅏ	-5838
▁가방	-5839
▁해치	-5840
▁발달	-5841
▁양성	-5842
▁레딧	-5843
▁와일드	-5844
▁레슬	-5845
▁아미	-5846
▁연맹	-5847
▁하향	-5848
▁시라	-5849
▁천만	-5850
▁김대	-5851
▁일치	-5852
▁적합	-5853
▁Br	-5854
가리	-5855
▁명확	-5856
▁디스크	-5857
▁소유자	-5858
▁이드	-5859
▁제약	-5860
▁장탄	-5861
0000	-5862
▁내보내	-5863
▁뿜	-5864
▁유독	-5865
▁아메리카	-5866
▁빠져	-5867
▁전이	-5868
▁라이플	-5869
▁얀	-5870
▁연극	-5871
▁쏟아지	-5872
▁미키	-5873
▁그르	-5874
▁릴리	-5875
▁드라이버	-5876
▁구글	-5877
▁정황	-5878
▁사후	-5879
▁anchor	-5880
▁화재	-5881
▁;&	-5882
▁흰	-5883
▁이펙트	-5884
▁매장	-5885
▁ㅇㅣㄹ	-5886
▁딕	-5887
▁리스크	-5888
▁크림	-5889
▁끔찍	-5890
▁저택	-5891
▁팬텀	-5892
▁강점	-5893
▁헌법	-5894
▁도라	-5895
▁wiki	-5896
▁WWE	-5897
▁곳곳	-5898
▁주택	-5899
▁아키라	-5900
▁띠	-5901
▁실책	-5902
▁울프	-5903
IP	-5904
포트	-5905
▁로얄	-5906
▁할인	-5907
▁le	-5908
▁백성	-5909
▁&#	-5910
▁이민	-5911
▁인디	-5912
▁170	-5913
▁웃기	-5914
▁리뷰	-5915
▁셜	-5916
▁보완	-5917
▁평생	-5918
▁암시	-5919
▁그램	-5920
▁Or	-5921
▁다이아몬드	-5922
▁문단	-5923
▁렐	-5924
UM	-5925
IG	-5926
▁비주얼	-5927
▁운동장	-5928
▁하이퍼	-5929
▁그럭	-5930
▁조별	-5931
▁치킨	-5932
▁언덕	-5933
VD	-5934
▁마블	-5935
▁답변	-5936
▁단축	-5937
▁야수	-5938
▁허락	-5939
▁충실	-5940
▁금액	-5941
저럭	-5942
▁웨이브	-5943
▁어필	-5944
▁뻗	-5945
어하	-5946
▁만남	-5947
▁메이드	-5948
▁고위	-5949
▁치즈	-5950
▁그럭저럭	-5951
▁승객	-5952
▁테츠	-5953
▁여우	-5954
▁새기	-5955
▁토니	-5956
TE	-5957
▁걸맞	-5958
▁플래시	-5959
▁박물	-5960
▁스테이	-5961
▁딴	-5962
▁by	-5963
▁1987	-5964
▁호기	-5965
▁원자	-5966
▁시합	-5967
▁비스	-5968
▁덩치	-5969
▁샌드	-5970
▁불펜	-5971
▁뽑히	-5972
oth	-5973
▁감각	-5974
▁상식	-5975
▁자이언츠	-5976
▁항공기	-5977
▁등지	-5978
▁헤어	-5979
▁Dr	-5980
▁성립	-5981
▁위반	-5982
▁에르	-5983
▁파편	-5984
▁을	-5985
▁뛰어넘	-5986
az	-5987
▁스웨덴	-5988
▁꼼	-5989
▁안기	-5990
▁꿀	-5991
▁트롤	-5992
▁부자	-5993
▁스크린	-5994
▁승자	-5995
▁출격	-5996
▁잃어버리	-5997
데미	-5998
▁상영	-5999
▁토너	-6000
ep	-6001
▁ㄹㅕㄷㅓㄴ	-6002
▁시원	-6003
▁구미	-6004
▁긴장	-6005
▁헐	-6006
man	-6007
▁깔리	-6008
▁기동성	-6009
비드	-6010
▁입대	-6011
▁축복	-6012
▁배트맨	-6013
▁견디	-6014
▁선고	-6015
▁유학	-6016
▁매년	-6017
▁필리	-6018
▁집착	-6019
▁급격	-6020
OU	-6021
▁문재인	-6022
▁록맨	-6023
▁흩	-6024
▁니스	-6025
ale	-6026
▁보드	-6027
▁미네	-6028
▁;&#	-6029
▁권장	-6030
▁넘버	-6031
▁킬러	-6032
▁OP	-6033
▁동성	-6034
▁사살	-6035
▁서구	-6036
▁작년	-6037
▁지치	-6038
▁서서	-6039
▁호칭	-6040
VA	-6041
▁낮추	-6042
▁창고	-6043
▁퇴장	-6044
▁내전	-6045
▁기인	-6046
▁아카데미	-6047
▁일대	-6048
▁플래그	-6049
▁싫어하	-6050
▁토마	-6051
▁해명	-6052
▁스폰	-6053
▁참가자	-6054
▁평점	-6055
▁맷	-6056
▁적중	-6057
▁ㅌㅣ	-6058
▁분명히	-6059
▁한쪽	-6060
▁마법소녀	-6061
▁대수	-6062
▁고도	-6063
▁스즈	-6064
▁결심	-6065
▁곱	-6066
▁휘말리	-6067
70	-6068
쟁이	-6069
▁RPG	-6070
ach	-6071
▁시공	-6072
▁구름	-6073
▁우에	-6074
▁실종	-6075
▁교과	-6076
▁ㄹㄱㅔ	-6077
▁케인	-6078
▁노바	-6079
▁기운	-6080
▁신나	-6081
▁동점	-6082
군다	-6083
▁관할	-6084
리나	-6085
▁열매	-6086
▁탐험	-6087
arg	-6088
▁뜨겁	-6089
운서	-6090
▁아나운서	-6091
▁1500	-6092
▁중형	-6093
▁용인	-6094
▁전주	-6095
▁Sc	-6096
▁학기	-6097
부르크	-6098
ook	-6099
▁그렇지만	-6100
▁사키	-6101
▁흑인	-6102
▁근거리	-6103
▁타쿠	-6104
▁본진	-6105
▁싹	-6106
▁랄	-6107
▁약화	-6108
▁결합	-6109
▁결투	-6110
무시	-6111
ows	-6112
▁경직	-6113
▁법인	-6114
▁5000	-6115
▁커녕	-6116
▁정기	-6117
▁감추	-6118
▁리플	-6119
▁해안	-6120
갈리	-6121
▁팟	-6122
▁솜	-6123
▁111	-6124
▁호흡	-6125
orm	-6126
▁두들	-6127
▁토너먼트	-6128
▁수능	-6129
▁괜히	-6130
▁어판	-6131
▁전승	-6132
▁마스크	-6133
▁생명체	-6134
거지	-6135
▁호시	-6136
▁헝	-6137
▁발렌	-6138
▁믹스	-6139
▁암살자	-6140
▁야생	-6141
▁내일	-6142
▁센스	-6143
ish	-6144
▁채보	-6145
▁파르	-6146
ky	-6147
▁막내	-6148
▁럼	-6149
ㅗㄴ	-6150
▁연합군	-6151
▁악몽	-6152
▁Team	-6153
▁천안	-6154
▁KBO	-6155
스럽	-6156
▁완결	-6157
▁페이스북	-6158
▁지위	-6159
▁가라	-6160
▁근본	-6161
▁크레	-6162
▁}}	-6163
▁동아리	-6164
▁정차	-6165
▁뮤지컬	-6166
▁줍	-6167
▁변환	-6168
▁불교	-6169
▁솔직	-6170
▁스위치	-6171
▁우정	-6172
▁본사	-6173
▁BB	-6174
▁박물관	-6175
▁엔드	-6176
▁슬라이	-6177
▁Go	-6178
▁선두	-6179
▁침략	-6180
▁망가지	-6181
▁통화	-6182
ae	-6183
▁연습생	-6184
▁침묵	-6185
GE	-6186
▁침입	-6187
▁베타	-6188
▁보이스	-6189
▁지팡이	-6190
▁마우스	-6191
▁와타	-6192
ug	-6193
▁소음	-6194
▁장인	-6195
▁리카	-6196
Hz	-6197
ade	-6198
rom	-6199
▁초인	-6200
▁동급	-6201
일보	-6202
▁마물	-6203
커스	-6204
▁유발	-6205
▁트리플	-6206
▁타석	-6207
▁물리치	-6208
▁유력	-6209
ile	-6210
▁돌입	-6211
▁통계	-6212
▁면적	-6213
▁밀어	-6214
▁유격	-6215
▁판결	-6216
▁부실	-6217
yle	-6218
▁관리자	-6219
▁FIFA	-6220
▁참모	-6221
▁지불	-6222
▁키타	-6223
▁영광	-6224
▁교도	-6225
▁갈아	-6226
아다니	-6227
▁대왕	-6228
▁사인	-6229
▁지진	-6230
▁서클	-6231
▁임팩트	-6232
▁일본군	-6233
▁법정	-6234
ash	-6235
군다나	-6236
ower	-6237
irl	-6238
▁소방	-6239
ink	-6240
반도	-6241
▁수급	-6242
▁철수	-6243
▁1986	-6244
▁벙	-6245
프리	-6246
부로	-6247
데드	-6248
▁출구	-6249
▁균형	-6250
▁가죽	-6251
▁허가	-6252
▁무시무시	-6253
▁임신	-6254
▁통치	-6255
▁무작위	-6256
▁인피	-6257
펴보	-6258
▁살펴보	-6259
▁대거	-6260
▁노스	-6261
▁재정	-6262
▁더군다나	-6263
▁CH	-6264
▁무관	-6265
▁질리	-6266
▁우타	-6267
▁언데드	-6268
▁싸이	-6269
▁가디언	-6270
▁보험	-6271
▁수비력	-6272
▁프리미엄	-6273
TS	-6274
▁감지	-6275
▁세팅	-6276
▁CG	-6277
은행	-6278
▁이라	-6279
▁항복	-6280
▁콜로	-6281
▁간간	-6282
atch	-6283
▁속이	-6284
▁히라	-6285
▁인질	-6286
▁채택	-6287
▁급하	-6288
▁폐쇄	-6289
▁인종	-6290
▁인력	-6291
▁신발	-6292
▁썬더	-6293
▁FW	-6294
▁디젤	-6295
▁여러분	-6296
▁안개	-6297
▁막판	-6298
▁격차	-6299
▁바쁘	-6300
▁삽입	-6301
▁we	-6302
▁몽골	-6303
▁스쿨	-6304
▁반박	-6305
▁고블린	-6306
▁ㅂㅅㅣㅇㅗ	-6307
▁철저	-6308
▁인방	-6309
센트	-6310
▁기름	-6311
▁이혼	-6312
▁단원	-6313
그리	-6314
▁남북	-6315
▁토시	-6316
▁ㄲㅔㅅㅓ	-6317
▁제정	-6318
▁관계자	-6319
IM	-6320
▁바디	-6321
▁핑크	-6322
▁경남	-6323
▁비전	-6324
▁처지	-6325
▁DD	-6326
▁창원	-6327
▁출루	-6328
▁행하	-6329
▁유인	-6330
ial	-6331
▁리프	-6332
▁백인	-6333
▁존경	-6334
sh	-6335
머스	-6336
▁트럼프	-6337
CG	-6338
▁후계자	-6339
▁남매	-6340
▁그린	-6341
▁포위	-6342
다보	-6343
▁텟	-6344
▁여주	-6345
▁포켓몬스터	-6346
▁깨달	-6347
▁배포	-6348
▁고구려	-6349
▁스파이더	-6350
▁놀리	-6351
ㄷㅡㄴㅈㅣ	-6352
▁무사히	-6353
▁코르	-6354
▁아틀	-6355
▁이타	-6356
▁영원히	-6357
▁수면	-6358
▁골렘	-6359
▁투스	-6360
먼스	-6361
ㅈㅣㅁㅏㄴ	-6362
▁예수	-6363
▁스트레스	-6364
▁챌린지	-6365
▁War	-6366
▁복제	-6367
▁인용	-6368
▁매번	-6369
▁동양	-6370
▁일당	-6371
래시	-6372
▁김경	-6373
태우	-6374
▁끼우	-6375
▁두르	-6376
여객	-6377
▁ID	-6378
▁체인지	-6379
▁복선	-6380
▁쿠라	-6381
▁오늘날	-6382
▁팁	-6383
▁어이	-6384
▁기세	-6385
전차	-6386
▁국당	-6387
▁갑작	-6388
▁캐치	-6389
▁소송	-6390
▁학습	-6391
▁Star	-6392
▁LA	-6393
▁물량	-6394
▁중복	-6395
▁106	-6396
▁읍	-6397
▁개설	-6398
▁피우	-6399
▁포르투갈	-6400
▁슬프	-6401
코드	-6402
▁지리	-6403
▁가만히	-6404
▁아테	-6405
▁메이플	-6406
▁ㄴㅑㅁㅕㄴ	-6407
▁up	-6408
▁보충	-6409
▁수출	-6410
▁준우승	-6411
▁탕	-6412
▁왜곡	-6413
▁리오	-6414
▁펼쳐지	-6415
▁레지	-6416
▁에픽	-6417
▁동명	-6418
▁간단히	-6419
▁날카	-6420
▁즉사	-6421
필드	-6422
▁선행	-6423
▁보건	-6424
▁체험	-6425
▁해머	-6426
오루	-6427
▁코난	-6428
▁상담	-6429
▁축하	-6430
▁이란	-6431
▁해내	-6432
▁오디션	-6433
▁장신	-6434
▁물고기	-6435
▁분열	-6436
▁대책	-6437
▁마다	-6438
▁이글	-6439
▁토크	-6440
▁ㅇㅗㅂ	-6441
▁파이트	-6442
▁웰	-6443
▁기상	-6444
▁정통	-6445
카이	-6446
▁미만	-6447
▁잠입	-6448
▁피닉스	-6449
천시	-6450
▁이주	-6451
▁미나미	-6452
▁만만	-6453
▁데이트	-6454
▁네트워크	-6455
▁뽀	-6456
▁뭉치	-6457
▁중력	-6458
▁혼돈	-6459
▁코트	-6460
▁배정	-6461
▁라라	-6462
▁메이커	-6463
▁닉네임	-6464
▁DVD	-6465
티스	-6466
▁오키	-6467
▁하마	-6468
키지	-6469
▁버섯	-6470
▁처분	-6471
▁시크	-6472
▁멜로디	-6473
▁해킹	-6474
▁PR	-6475
▁전북	-6476
▁115	-6477
▁벼	-6478
▁항의	-6479
▁공업	-6480
▁부드	-6481
▁오우	-6482
▁포즈	-6483
화점	-6484
▁수석	-6485
▁선제	-6486
▁나미	-6487
▁ON	-6488
▁상한	-6489
▁날카롭	-6490
▁후원	-6491
▁여전	-6492
▁단행	-6493
▁진압	-6494
▁자전거	-6495
▁오메	-6496
▁억지로	-6497
▁102	-6498
▁야마토	-6499
▁악기	-6500
ING	-6501
▁패키지	-6502
▁트릭	-6503
▁개업	-6504
▁수백	-6505
▁ㄱㅓ	-6506
▁fe	-6507
ous	-6508
▁아랍	-6509
▁마드리	-6510
▁벨트	-6511
▁기재	-6512
▁고리	-6513
▁사령부	-6514
▁입주	-6515
▁자본	-6516
▁유산	-6517
▁둘러싸	-6518
▁퍼포	-6519
▁배역	-6520
▁퍼포먼스	-6521
▁장거리	-6522
▁기갑	-6523
▁For	-6524
▁수명	-6525
▁꿰	-6526
▁Ne	-6527
▁기동전	-6528
▁서포트	-6529
▁플러스	-6530
▁라그	-6531
▁장탄수	-6532
▁And	-6533
att	-6534
▁악화	-6535
▁돔	-6536
amp	-6537
▁대포	-6538
세대	-6539
▁모시	-6540
▁성전	-6541
▁마드리드	-6542
▁부드럽	-6543
자와	-6544
▁궁금	-6545
어놓	-6546
가드	-6547
▁콘텐츠	-6548
▁오스트리아	-6549
▁블라	-6550
▁사이코	-6551
▁옹호	-6552
▁대치	-6553
▁닛	-6554
▁호랑이	-6555
▁파멸	-6556
▁통로	-6557
▁분쟁	-6558
▁}}}	-6559
▁정발	-6560
▁우세	-6561
▁파동	-6562
▁전제	-6563
▁프레이	-6564
▁야구장	-6565
▁ㄹㅏㄴㅣ	-6566
게이	-6567
야수	-6568
▁ㄷㅓㄹㅓ	-6569
▁머무르	-6570
▁사용자	-6571
▁가공	-6572
▁그날	-6573
▁뽑아내	-6574
▁세부	-6575
▁신입	-6576
▁이스라	-6577
▁잠들	-6578
▁카구	-6579
▁GP	-6580
▁유미	-6581
▁나기	-6582
▁도감	-6583
▁모험가	-6584
▁첼시	-6585
▁175	-6586
▁주니어	-6587
▁탐정	-6588
▁기력	-6589
바닥	-6590
▁Cr	-6591
▁논의	-6592
▁188	-6593
▁재회	-6594
▁Wind	-6595
▁배달	-6596
▁다가가	-6597
▁무술	-6598
▁조약	-6599
▁최상위	-6600
아키	-6601
▁깜짝	-6602
▁아르헨	-6603
▁김상	-6604
▁공정	-6605
▁1985	-6606
▁비웃	-6607
▁처참	-6608
크로	-6609
▁행방	-6610
▁분해	-6611
▁광선	-6612
▁디즈	-6613
▁세포	-6614
▁젤리	-6615
▁파생	-6616
하시	-6617
▁건네	-6618
▁진주	-6619
me	-6620
▁ㄴㄷㅔㄷㅏ	-6621
▁버드	-6622
▁끌려가	-6623
▁나비	-6624
▁산하	-6625
▁계시	-6626
▁시트	-6627
▁모터	-6628
▁부서지	-6629
▁양상	-6630
▁bl	-6631
▁진학	-6632
▁무스	-6633
▁노조	-6634
▁체감	-6635
▁유성	-6636
▁나르	-6637
▁박지	-6638
▁차체	-6639
AY	-6640
▁위안	-6641
▁조우	-6642
▁후손	-6643
▁마코토	-6644
▁아르헨티나	-6645
▁장미	-6646
▁증폭	-6647
텐도	-6648
▁토키	-6649
▁닌텐도	-6650
▁롬	-6651
▁터스	-6652
▁레일	-6653
▁wid	-6654
▁왜냐	-6655
▁리온	-6656
ms	-6657
▁즈음	-6658
▁강원도	-6659
▁여학생	-6660
▁고로	-6661
ib	-6662
▁김진	-6663
64	-6664
▁독재	-6665
▁아동	-6666
▁관점	-6667
▁폭행	-6668
▁부착	-6669
▁주둔	-6670
▁니콜	-6671
▁al	-6672
▁방치	-6673
▁규격	-6674
▁기쁘	-6675
ft	-6676
▁업계	-6677
▁난사	-6678
▁검술	-6679
▁휘하	-6680
▁페널티	-6681
▁조기	-6682
▁베네	-6683
now	-6684
▁시카	-6685
▁드루	-6686
아이	-6687
▁한두	-6688
▁공수	-6689
▁듀오	-6690
▁전파	-6691
▁질투	-6692
▁몫	-6693
▁만지	-6694
▁마냥	-6695
▁350	-6696
▁무인	-6697
▁제독	-6698
벌레	-6699
▁전무	-6700
▁width	-6701
▁히가시	-6702
▁브레	-6703
▁중세	-6704
▁훈장	-6705
▁감싸	-6706
▁Gam	-6707
승부	-6708
▁택시	-6709
▁불량	-6710
▁톨	-6711
▁조커	-6712
MP	-6713
▁PP	-6714
▁베테	-6715
▁파란색	-6716
ps	-6717
▁경주	-6718
렐라	-6719
▁고장	-6720
▁뚫리	-6721
▁측정	-6722
▁감상	-6723
▁드론	-6724
▁IN	-6725
▁소요	-6726
▁자꾸	-6727
▁중장	-6728
▁면허	-6729
▁방송국	-6730
▁개발자	-6731
▁BS	-6732
▁스트리트	-6733
비전	-6734
▁감동	-6735
▁이스라엘	-6736
▁김기	-6737
▁스탠드	-6738
▁도저히	-6739
▁오염	-6740
▁능력자	-6741
▁전동	-6742
oll	-6743
▁토큰	-6744
▁승무원	-6745
▁1984	-6746
▁세인트	-6747
▁약탈	-6748
▁루스	-6749
▁최적	-6750
▁기원전	-6751
히코	-6752
▁부사	-6753
TV	-6754
▁후자	-6755
▁트루	-6756
▁추리	-6757
▁틴	-6758
▁이온	-6759
pl	-6760
▁지사	-6761
▁BR	-6762
▁시상	-6763
▁뒤지	-6764
▁발목	-6765
▁Man	-6766
12	-6767
▁신도	-6768
▁AKB	-6769
▁대단히	-6770
▁디바	-6771
▁하하	-6772
▁룩	-6773
▁산탄	-6774
▁국판	-6775
▁스캔	-6776
▁루머	-6777
▁운수	-6778
▁위성	-6779
▁피트	-6780
▁후퇴	-6781
태프	-6782
▁나루토	-6783
▁에디	-6784
port	-6785
▁UN	-6786
▁유니크	-6787
▁우월	-6788
▁티아	-6789
▁루이스	-6790
▁둠	-6791
▁닝	-6792
▁기장	-6793
▁All	-6794
▁우치	-6795
▁광장	-6796
▁주행	-6797
▁선거구	-6798
▁아시안	-6799
▁벌리	-6800
▁브로	-6801
▁이종	-6802
▁스텝	-6803
번에	-6804
▁왕위	-6805
▁루크	-6806
▁식민지	-6807
▁아레나	-6808
▁코마	-6809
신교	-6810
▁상관없이	-6811
▁샷건	-6812
▁바론	-6813
리스트	-6814
▁ex	-6815
▁혈액형	-6816
▁소용	-6817
▁나노	-6818
▁서서히	-6819
▁반짝	-6820
▁조용히	-6821
▁자비	-6822
▁ㄷㅓㄴㄱㅏ	-6823
카락	-6824
▁창단	-6825
▁머리카락	-6826
▁Part	-6827
▁ㄴㅏㅇㅛ	-6828
▁철권	-6829
▁꼬이	-6830
▁SU	-6831
▁과도	-6832
▁자녀	-6833
▁베기	-6834
▁아쉬	-6835
▁에반	-6836
▁제출	-6837
▁112	-6838
▁토미	-6839
경기	-6840
▁드림	-6841
▁라이너	-6842
▁ㄴㅗ	-6843
▁KR	-6844
▁까이	-6845
▁조롱	-6846
▁공백	-6847
▁기둥	-6848
▁아가씨	-6849
▁야간	-6850
▁분당	-6851
▁명의	-6852
▁다운로드	-6853
▁원리	-6854
▁En	-6855
▁붐	-6856
▁간호	-6857
▁비명	-6858
▁얻어맞	-6859
▁노가	-6860
▁일화	-6861
▁힐러	-6862
▁며칠	-6863
▁요인	-6864
ond	-6865
▁연고	-6866
▁수월	-6867
▁뻥	-6868
세서	-6869
키퍼	-6870
▁투척	-6871
▁마감	-6872
▁프렌	-6873
▁쇼핑	-6874
▁백작	-6875
▁대시	-6876
▁DC	-6877
▁장사	-6878
ment	-6879
▁실장	-6880
▁돌연	-6881
▁보존	-6882
▁LP	-6883
▁중시	-6884
▁캣	-6885
▁Sup	-6886
▁더빙	-6887
▁굵	-6888
필더	-6889
▁미드필더	-6890
▁절차	-6891
▁고증	-6892
▁리즈	-6893
▁줄거리	-6894
▁루피	-6895
▁Mar	-6896
▁Fate	-6897
▁철거	-6898
▁뒤늦	-6899
▁프란	-6900
▁전망	-6901
▁108	-6902
ase	-6903
▁범죄자	-6904
데레	-6905
▁시신	-6906
▁막상	-6907
▁반부	-6908
▁타이거즈	-6909
▁닐	-6910
▁무산	-6911
▁엑시	-6912
▁경악	-6913
▁AN	-6914
▁듀스	-6915
▁수동	-6916
▁수색	-6917
▁합병	-6918
▁호소	-6919
▁온천	-6920
▁쇼크	-6921
▁주류	-6922
▁저하	-6923
▁시외	-6924
도리	-6925
유럽	-6926
▁시바	-6927
▁오락	-6928
▁특급	-6929
▁긴급	-6930
▁원조	-6931
▁라이온즈	-6932
ool	-6933
하르트	-6934
우리	-6935
▁스리	-6936
▁바스	-6937
▁넘어지	-6938
▁여인	-6939
▁에릭	-6940
▁식품	-6941
▁고객	-6942
▁와카	-6943
▁골키퍼	-6944
▁나폴	-6945
▁배드	-6946
▁ㄴㅏㅁㅏ	-6947
▁인권	-6948
▁평일	-6949
▁낙하	-6950
▁360	-6951
▁합계	-6952
▁유재	-6953
▁117	-6954
▁배급	-6955
▁모로	-6956
▁꼬마	-6957
▁빅토	-6958
▁이나	-6959
▁막아내	-6960
▁청와	-6961
▁생애	-6962
▁의자	-6963
▁우유	-6964
우치	-6965
▁걸즈	-6966
▁마계	-6967
블로	-6968
▁ㄴㄷㅏㄱㅓㄴㅏ	-6969
▁교단	-6970
▁성당	-6971
▁세라	-6972
투스	-6973
▁지칭	-6974
▁발굴	-6975
▁타일	-6976
런트	-6977
▁택하	-6978
▁복합	-6979
▁킷	-6980
▁실은	-6981
▁직장	-6982
▁안양	-6983
▁카시	-6984
▁로빈	-6985
▁잠실	-6986
▁러시	-6987
▁샤이	-6988
▁증상	-6989
▁아아	-6990
▁임금	-6991
▁스포일러	-6992
▁One	-6993
저리	-6994
▁방위	-6995
▁강림	-6996
▁GO	-6997
ph	-6998
▁팡	-6999
▁살아나	-7000
▁폭파	-7001
▁고소	-7002
▁만일	-7003
▁확장팩	-7004
▁ㅂㄴㅣㄲㅏ	-7005
▁청와대	-7006
비치	-7007
▁공인	-7008
▁국경	-7009
▁어시스트	-7010
▁꽉	-7011
▁여고	-7012
▁때려	-7013
▁당당	-7014
▁부임	-7015
▁개별	-7016
▁남아	-7017
▁유의	-7018
산시	-7019
▁그라운드	-7020
▁후회	-7021
▁로이	-7022
틀러	-7023
ree	-7024
▁Oh	-7025
▁기묘	-7026
▁로버트	-7027
▁뱃	-7028
▁배수	-7029
▁뱅크	-7030
▁명백	-7031
▁오로지	-7032
▁거북	-7033
▁오이	-7034
▁프린세스	-7035
▁교복	-7036
▁코스튬	-7037
▁휠	-7038
▁예고편	-7039
▁특별히	-7040
▁포스터	-7041
▁선사	-7042
▁역습	-7043
▁통틀	-7044
플레이	-7045
▁그레	-7046
▁시로	-7047
▁학생회	-7048
▁청주	-7049
▁개장	-7050
▁히든	-7051
▁헨리	-7052
▁집어넣	-7053
▁As	-7054
도르	-7055
▁극도	-7056
▁아이러	-7057
▁엎	-7058
▁New	-7059
▁회담	-7060
▁쓸데	-7061
학자	-7062
▁도트	-7063
▁하이라이트	-7064
▁조명	-7065
▁되살	-7066
▁수염	-7067
▁ㄷㅜ	-7068
ason	-7069
▁끊임	-7070
베스	-7071
▁퍼즐	-7072
▁둘러보	-7073
불명	-7074
▁FM	-7075
▁관찰	-7076
▁뜬금없이	-7077
▁사야	-7078
▁여객	-7079
▁103	-7080
▁되게	-7081
카이도	-7082
ai	-7083
▁어쩌면	-7084
▁오더	-7085
aby	-7086
▁불행	-7087
▁렌즈	-7088
▁개신교	-7089
▁모집	-7090
▁헷	-7091
▁성질	-7092
▁술사	-7093
불호	-7094
▁호불호	-7095
러그	-7096
릴라	-7097
▁실존	-7098
▁비스트	-7099
나오	-7100
▁마케	-7101
▁양손	-7102
▁흰색	-7103
크라	-7104
▁세뇌	-7105
▁트레일러	-7106
▁부동	-7107
▁묶이	-7108
▁캘	-7109
▁1960	-7110
▁바지	-7111
▁유언	-7112
▁동경	-7113
▁에로	-7114
▁매출	-7115
▁셔틀	-7116
▁사리	-7117
▁장로	-7118
▁금메달	-7119
▁케이드	-7120
리온	-7121
▁220	-7122
▁보라색	-7123
▁비틀	-7124
▁유기	-7125
▁각오	-7126
▁CS	-7127
▁JP	-7128
▁물품	-7129
▁부딪히	-7130
▁결계	-7131
▁올스타	-7132
▁트레이너	-7133
▁우주선	-7134
▁과학자	-7135
▁프로토	-7136
▁지인	-7137
▁un	-7138
▁ㄱㅓㄷㅡㄴ	-7139
▁캐시	-7140
▁알라	-7141
▁모듈	-7142
▁항구	-7143
▁샵	-7144
▁손상	-7145
▁유망	-7146
▁오브젝트	-7147
▁초콜	-7148
▁타르	-7149
▁나스	-7150
▁심의	-7151
에이	-7152
▁타이탄	-7153
▁코미디	-7154
▁여파	-7155
▁웨스트	-7156
키아	-7157
▁회색	-7158
▁달려가	-7159
▁라크	-7160
▁z	-7161
▁연봉	-7162
돌이	-7163
▁UE	-7164
ㅔㅇㅛ	-7165
▁우즈	-7166
▁240	-7167
▁라즈	-7168
▁법칙	-7169
▁ㅇㅣㄹㅏㄴ	-7170
▁국정	-7171
▁윈드	-7172
▁비유	-7173
▁지향	-7174
▁원곡	-7175
▁tv	-7176
▁두렵	-7177
▁풋	-7178
oon	-7179
▁무승부	-7180
▁진격	-7181
▁폐기	-7182
▁포탄	-7183
▁이와	-7184
▁엘리자	-7185
▁태평양	-7186
▁손실	-7187
마크	-7188
ㅑㅇ	-7189
▁붙잡히	-7190
▁128	-7191
싱턴	-7192
▁치열	-7193
▁김용	-7194
90	-7195
▁ㅁㅏㄴㅑㅇ	-7196
▁드로우	-7197
▁늙	-7198
▁정반	-7199
▁홀드	-7200
베이	-7201
▁유출	-7202
▁포장	-7203
MS	-7204
▁건국	-7205
▁국장	-7206
▁날뛰	-7207
▁광산	-7208
▁신선	-7209
▁브라운	-7210
▁함부로	-7211
저기	-7212
▁따뜻	-7213
▁무공	-7214
▁영지	-7215
▁리버풀	-7216
▁갤러	-7217
▁랑	-7218
act	-7219
▁이글스	-7220
▁제갈량	-7221
▁즉위	-7222
▁우드	-7223
▁맥주	-7224
▁제네	-7225
ox	-7226
▁짐승	-7227
▁중순	-7228
▁임기	-7229
라노	-7230
▁두들기	-7231
▁엄밀	-7232
▁트랩	-7233
▁장판	-7234
▁코믹	-7235
토스	-7236
▁슬로	-7237
▁노동자	-7238
hen	-7239
▁클론	-7240
▁패전	-7241
▁깎이	-7242
▁단기	-7243
▁반감	-7244
▁배려	-7245
▁넘어서	-7246
▁이웃	-7247
▁하스	-7248
▁여기저기	-7249
▁합리	-7250
ARD	-7251
▁워크래프트	-7252
▁모스	-7253
▁서머	-7254
▁안심	-7255
▁탐지	-7256
▁go	-7257
▁원더	-7258
메이	-7259
▁ㄹㄹㅕ	-7260
▁스핀	-7261
▁튼	-7262
▁박살나	-7263
▁아바타	-7264
▁사이클	-7265
▁간주	-7266
▁TVA	-7267
▁네티	-7268
▁최우	-7269
▁하프	-7270
▁신데	-7271
▁양자	-7272
▁쿤	-7273
ㄹㅏㄷㅗ	-7274
▁%/	-7275
▁알렉스	-7276
▁기수	-7277
▁독점	-7278
▁커스텀	-7279
▁계수	-7280
▁백제	-7281
▁섀도우	-7282
ank	-7283
▁리안	-7284
▁트리거	-7285
▁트라우마	-7286
▁이모	-7287
▁휴가	-7288
▁로이드	-7289
▁마땅	-7290
▁쉴	-7291
▁당대	-7292
▁라틴	-7293
▁키라	-7294
▁트로피	-7295
▁흔들	-7296
뻐하	-7297
▁기뻐하	-7298
▁지연	-7299
아치	-7300
▁레온	-7301
▁관통력	-7302
▁신용	-7303
▁장난감	-7304
▁시비	-7305
▁단검	-7306
▁사립	-7307
▁방탄	-7308
▁스나이	-7309
▁후미	-7310
▁여럿	-7311
▁상륙	-7312
깨비	-7313
▁대조	-7314
ich	-7315
▁생전	-7316
▁벤치	-7317
▁야쿠	-7318
▁김준	-7319
▁콤비	-7320
▁일요일	-7321
▁옐	-7322
▁소프트웨어	-7323
▁World	-7324
▁날씨	-7325
▁1982	-7326
▁신자	-7327
▁디즈니	-7328
▁JT	-7329
▁우익	-7330
▁신데렐라	-7331
▁단종	-7332
포르	-7333
ear	-7334
▁시리아	-7335
▁아이러니	-7336
▁빨간	-7337
▁ㄹㅕㄷㅏㄱㅏ	-7338
▁밀어내	-7339
▁시인	-7340
▁혜택	-7341
ife	-7342
▁쳐들	-7343
▁챔피언십	-7344
▁프라임	-7345
▁토요일	-7346
ary	-7347
lect	-7348
려받	-7349
▁태국	-7350
▁신속	-7351
▁Mk	-7352
▁수습	-7353
▁선임	-7354
▁음료	-7355
▁사법	-7356
블리	-7357
▁권유	-7358
란히	-7359
▁손오	-7360
▁당사자	-7361
▁변수	-7362
▁파밍	-7363
▁독일군	-7364
▁갚	-7365
▁센서	-7366
▁도장	-7367
하나	-7368
▁허무	-7369
▁방송사	-7370
▁파울	-7371
▁순양함	-7372
▁근원	-7373
▁네티즌	-7374
▁권위	-7375
하마	-7376
▁막강	-7377
▁추세	-7378
▁스트라이커	-7379
▁벡	-7380
에르	-7381
▁스피릿	-7382
▁실내	-7383
▁디시	-7384
▁서바이	-7385
싸움	-7386
▁의학	-7387
▁서기	-7388
▁지목	-7389
반기	-7390
uk	-7391
AP	-7392
▁추방	-7393
▁all	-7394
▁빠져나가	-7395
▁상사	-7396
▁슬라	-7397
▁라스트	-7398
▁경호	-7399
▁후임	-7400
키리	-7401
더라	-7402
ET	-7403
▁약물	-7404
▁LIVE	-7405
렉션	-7406
▁전생	-7407
▁끓	-7408
▁쓰리	-7409
▁버스트	-7410
▁키보드	-7411
way	-7412
▁SF	-7413
▁마카	-7414
▁짐작	-7415
쿠라	-7416
▁탭	-7417
사기	-7418
▁카더라	-7419
▁결제	-7420
▁전남	-7421
사리	-7422
▁유혹	-7423
▁나아지	-7424
▁얽	-7425
▁표면	-7426
▁선장	-7427
▁끌리	-7428
▁드레스	-7429
▁조상	-7430
▁배출	-7431
▁185	-7432
▁흡사	-7433
▁극히	-7434
▁지력	-7435
▁후반기	-7436
ple	-7437
▁침대	-7438
▁구조물	-7439
▁ㅅㅕ	-7440
▁Day	-7441
▁유전자	-7442
▁김해	-7443
▁엽	-7444
타카	-7445
▁논쟁	-7446
▁근접전	-7447
▁샬	-7448
▁Fr	-7449
▁태클	-7450
▁토하	-7451
▁1983	-7452
▁당기	-7453
▁도리	-7454
▁기호	-7455
▁실시간	-7456
▁설령	-7457
▁진상	-7458
▁패밀리	-7459
▁경북	-7460
▁정석	-7461
▁낙선	-7462
▁감수	-7463
▁마피아	-7464
▁차갑	-7465
▁좌절	-7466
▁동속	-7467
▁강사	-7468
▁니혼	-7469
▁are	-7470
▁합동	-7471
▁페리	-7472
▁창설	-7473
▁매니아	-7474
▁간간히	-7475
▁스타디	-7476
숭이	-7477
▁로보	-7478
▁비극	-7479
▁비비	-7480
▁119	-7481
노리	-7482
▁쏠	-7483
▁포획	-7484
▁ㅇㅕㅇㅑ	-7485
▁물체	-7486
▁울트라맨	-7487
▁돋보이	-7488
▁do	-7489
▁nd	-7490
▁역임	-7491
ype	-7492
ens	-7493
▁집권	-7494
▁원형	-7495
▁DPS	-7496
▁낭비	-7497
▁백화점	-7498
▁성배	-7499
▁시온	-7500
▁중상	-7501
▁lv	-7502
▁조르	-7503
▁사무소	-7504
▁전날	-7505
▁{{{#	-7506
▁다투	-7507
▁가두	-7508
▁거스	-7509
aster	-7510
▁범용	-7511
▁MB	-7512
▁빌딩	-7513
▁정교	-7514
orn	-7515
ork	-7516
▁튼튼	-7517
▁손오공	-7518
▁명목	-7519
▁소모량	-7520
▁특공	-7521
▁홀리	-7522
▁해병대	-7523
▁연구원	-7524
▁페어	-7525
▁구동	-7526
▁피로	-7527
▁퀵	-7528
▁출혈	-7529
▁동남	-7530
▁마트	-7531
▁오지	-7532
▁엄격	-7533
▁123	-7534
사이	-7535
▁미궁	-7536
▁변태	-7537
▁의장	-7538
▁한반도	-7539
▁따라오	-7540
▁공감	-7541
▁104	-7542
▁위로	-7543
▁사악	-7544
▁콘솔	-7545
▁삼각	-7546
▁베어스	-7547
11	-7548
▁헤르	-7549
스티벌	-7550
▁지선	-7551
▁페스티벌	-7552
▁질병	-7553
▁생체	-7554
▁수직	-7555
▁부스트	-7556
▁호남	-7557
▁대타	-7558
▁베테랑	-7559
▁땡	-7560
▁배제	-7561
ans	-7562
▁질주	-7563
▁Ad	-7564
▁미미	-7565
▁Up	-7566
▁스태프	-7567
▁DP	-7568
▁하인	-7569
▁109	-7570
▁Wi	-7571
▁데이비드	-7572
▁ㅅㅕㄴ	-7573
▁복원	-7574
▁젖	-7575
▁강렬	-7576
▁제치	-7577
ons	-7578
▁동행	-7579
▁관측	-7580
▁바나	-7581
▁Sw	-7582
▁양반	-7583
▁넘어오	-7584
▁오메가	-7585
▁실상	-7586
우트	-7587
▁AA	-7588
▁직선	-7589
▁스즈키	-7590
▁빨간색	-7591
▁래퍼	-7592
▁OVA	-7593
▁공대	-7594
▁단행본	-7595
▁개국	-7596
▁엑시즈	-7597
▁제물	-7598
버그	-7599
▁탐색	-7600
▁본토	-7601
▁특별시	-7602
▁style	-7603
ey	-7604
▁우측	-7605
▁쌀	-7606
▁에서	-7607
▁진급	-7608
▁케이블	-7609
▁거칠	-7610
▁KOF	-7611
▁토요	-7612
▁쨩	-7613
▁도깨비	-7614
▁디펜	-7615
▁페미니	-7616
▁전락	-7617
▁약자	-7618
very	-7619
▁스플	-7620
▁닷	-7621
▁관여	-7622
▁sp	-7623
▁되돌	-7624
▁라그나	-7625
▁센트	-7626
▁블로	-7627
▁리코	-7628
▁장성	-7629
▁밀려나	-7630
▁브레이커	-7631
▁선조	-7632
▁광기	-7633
▁무실	-7634
▁손쉽	-7635
▁거론	-7636
▁메일	-7637
▁세금	-7638
▁ㅇㅡㄹㅅㅜㄹㅗㄱ	-7639
▁앰	-7640
▁연쇄	-7641
▁ES	-7642
▁여의	-7643
▁ㅈㅠ	-7644
▁우호	-7645
▁아스카	-7646
▁잉여	-7647
▁메리트	-7648
▁변동	-7649
NA	-7650
차기	-7651
ex	-7652
ung	-7653
▁마타	-7654
▁스와	-7655
▁고무	-7656
▁총합	-7657
▁본관	-7658
▁III	-7659
▁스테이션	-7660
▁엇	-7661
공항	-7662
▁앗	-7663
▁친절	-7664
▁땅볼	-7665
▁논문	-7666
▁한창	-7667
▁코토	-7668
▁인재	-7669
▁유탄	-7670
▁바둑	-7671
▁백업	-7672
▁워싱턴	-7673
렉스	-7674
▁군수	-7675
▁오노	-7676
▁해양	-7677
타입	-7678
▁촉수	-7679
▁히로시	-7680
▁전격	-7681
▁긁	-7682
▁훼손	-7683
박스	-7684
▁UEFA	-7685
▁위엄	-7686
ㄱㅜㄴ	-7687
▁그랑	-7688
▁수비수	-7689
▁그러다가	-7690
브라	-7691
▁단발	-7692
▁명문	-7693
▁하급	-7694
▁자네	-7695
▁축소	-7696
▁대박	-7697
▁장애물	-7698
▁마술사	-7699
▁리모	-7700
▁카를	-7701
EM	-7702
나기	-7703
▁응용	-7704
▁중지	-7705
▁민주주의	-7706
능력	-7707
▁프리미어	-7708
▁벅	-7709
▁형편	-7710
▁어색	-7711
▁박살내	-7712
▁마오	-7713
▁에이지	-7714
▁구장	-7715
▁돌보	-7716
▁재학	-7717
▁성실	-7718
께끼	-7719
▁수수께끼	-7720
▁취업	-7721
▁스타디움	-7722
▁치카	-7723
▁스위스	-7724
▁RA	-7725
▁할로	-7726
▁강호	-7727
▁!"	-7728
ll	-7729
▁최저	-7730
▁역량	-7731
▁안쪽	-7732
▁구성원	-7733
▁바르셀	-7734
▁as	-7735
anc	-7736
▁확산	-7737
▁바르셀로나	-7738
▁데빌	-7739
▁고스	-7740
▁창문	-7741
▁중고	-7742
▁짙	-7743
▁미지	-7744
▁우회	-7745
AK	-7746
▁리퍼	-7747
▁트윈스	-7748
▁징역	-7749
▁노란색	-7750
▁초콜릿	-7751
▁겜	-7752
▁츠카	-7753
▁유망주	-7754
▁Windows	-7755
▁ㄱㅗㄴㅡㄴ	-7756
▁제왕	-7757
▁노가다	-7758
▁딸리	-7759
▁역명	-7760
▁워크	-7761
체스터	-7762
▁소니	-7763
▁메카닉	-7764
▁썸	-7765
▁빈도	-7766
▁렉스	-7767
▁깃발	-7768
▁코바	-7769
▁no	-7770
▁인자	-7771
▁카카오	-7772
▁강등	-7773
▁이현	-7774
▁공통점	-7775
▁천연	-7776
▁윈도우	-7777
▁대행	-7778
▁키미	-7779
▁원피스	-7780
▁en	-7781
▁여타	-7782
▁퇴각	-7783
▁과자	-7784
▁경상북도	-7785
▁불쌍	-7786
누스	-7787
▁온도	-7788
▁굴욕	-7789
▁책임지	-7790
▁산타	-7791
▁부작용	-7792
▁란스	-7793
▁분산	-7794
▁힙합	-7795
▁티스	-7796
▁끌어올리	-7797
▁마유	-7798
▁폴리	-7799
▁껍	-7800
▁포터	-7801
▁유료	-7802
▁최선	-7803
▁승차	-7804
▁구독	-7805
▁레이디	-7806
▁봉쇄	-7807
▁농장	-7808
ero	-7809
▁나나	-7810
지막지	-7811
▁무지막지	-7812
▁우승자	-7813
35	-7814
argin	-7815
▁대령	-7816
▁엔지	-7817
▁통칭	-7818
▁수인	-7819
▁전당	-7820
▁대접	-7821
▁취득	-7822
▁이병	-7823
▁스미스	-7824
▁드래곤볼	-7825
▁관우	-7826
▁동반	-7827
▁스노우	-7828
▁터트리	-7829
▁젬	-7830
모스	-7831
▁올드	-7832
▁187	-7833
▁시상식	-7834
▁루프	-7835
루미	-7836
oss	-7837
▁발판	-7838
▁파도	-7839
▁클린	-7840
▁평하	-7841
▁이대로	-7842
▁Ph	-7843
▁So	-7844
▁그립	-7845
▁츠바	-7846
▁Qu	-7847
▁화산	-7848
▁LO	-7849
▁성씨	-7850
벤처	-7851
▁Station	-7852
▁어드벤처	-7853
▁챔프	-7854
▁어벤	-7855
▁발키리	-7856
▁발행	-7857
동자	-7858
▁천천	-7859
▁규제	-7860
▁국무	-7861
▁로맨	-7862
▁크레이	-7863
▁레이어	-7864
▁다이스	-7865
▁손님	-7866
▁원시	-7867
▁margin	-7868
▁머니	-7869
▁진에	-7870
▁블레이	-7871
▁번지	-7872
▁결혼식	-7873
▁오스만	-7874
니시	-7875
▁공산당	-7876
▁대전차	-7877
▁잔인	-7878
▁급행	-7879
▁ML	-7880
▁공단	-7881
▁멍청	-7882
▁135	-7883
▁빙판	-7884
99	-7885
▁카마	-7886
▁강간	-7887
▁톡	-7888
▁후드	-7889
▁가난	-7890
▁요한	-7891
pt	-7892
▁매드	-7893
▁변이	-7894
▁평양	-7895
▁큰	-7896
▁씌우	-7897
▁210	-7898
▁ㅇㅡㄹㅏㄱㅗ	-7899
▁침투	-7900
▁121	-7901
▁겔	-7902
▁표절	-7903
▁신중	-7904
▁황후	-7905
▁사족	-7906
▁손꼽	-7907
▁저렇	-7908
▁렘	-7909
▁ㅇㅡㄹㅕㄴㅡㄴ	-7910
구장	-7911
ise	-7912
▁잊히	-7913
▁아베	-7914
▁와인	-7915
▁외우	-7916
▁타치	-7917
▁주사위	-7918
▁검열	-7919
▁미오	-7920
군가	-7921
베이터	-7922
▁와이번	-7923
▁사로	-7924
▁인과	-7925
▁쿵	-7926
▁아깝	-7927
▁여포	-7928
▁카리스	-7929
▁스케일	-7930
▁세리	-7931
▁수지	-7932
▁피카	-7933
▁예약	-7934
▁경연	-7935
ical	-7936
▁소재지	-7937
▁107	-7938
▁선출	-7939
▁개척	-7940
▁블리자드	-7941
▁천천히	-7942
네마	-7943
▁목걸이	-7944
구미	-7945
▁게이머	-7946
▁쯔	-7947
▁이라크	-7948
▁특훈	-7949
▁누군가	-7950
▁뮌	-7951
셔널	-7952
▁스택	-7953
▁스타리그	-7954
▁Ver	-7955
▁시사	-7956
▁강민	-7957
▁김수	-7958
▁난무	-7959
▁쇄	-7960
▁미국인	-7961
▁어나	-7962
▁왼손	-7963
▁주체	-7964
▁케빈	-7965
▁의외로	-7966
▁여섯	-7967
▁열혈	-7968
▁1981	-7969
▁캄	-7970
▁--	-7971
▁호크	-7972
▁강경	-7973
▁끊임없이	-7974
▁신동	-7975
▁시외버스	-7976
▁페어리	-7977
▁마인드	-7978
▁간지	-7979
▁꿈꾸	-7980
▁이순	-7981
▁타츠	-7982
▁사체	-7983
▁MG	-7984
▁지수	-7985
▁엔트리	-7986
▁불태우	-7987
모함	-7988
▁조종사	-7989
▁인칭	-7990
▁부재	-7991
▁패자	-7992
리스타	-7993
▁기부	-7994
▁요미	-7995
▁덤비	-7996
▁그레이트	-7997
▁감탄	-7998
▁광물	-7999
▁끌어들이	-8000
▁명분	-8001
▁어나더	-8002
다운	-8003
▁제재	-8004
▁퍼스트	-8005
▁주관	-8006
▁워프	-8007
▁프랑스어	-8008
▁pl	-8009
▁답답	-8010
▁소통	-8011
▁사수	-8012
▁사관	-8013
베리	-8014
▁중거리	-8015
루션	-8016
ign	-8017
▁슌	-8018
▁김지	-8019
테이션	-8020
▁점검	-8021
▁혈통	-8022
하루	-8023
▁지오	-8024
스레	-8025
▁모니터	-8026
▁대성	-8027
▁교토	-8028
▁고시	-8029
▁마일	-8030
▁압권	-8031
▁스티븐	-8032
▁기리	-8033
▁알바	-8034
▁첫째	-8035
▁이경	-8036
▁소금	-8037
gh	-8038
▁맞붙	-8039
▁무용	-8040
▁선진	-8041
▁서식	-8042
▁토지	-8043
게이머	-8044
▁프로게이머	-8045
▁자존	-8046
▁냉정	-8047
▁트윗	-8048
▁모델링	-8049
▁폭스	-8050
▁경찰서	-8051
▁엄연히	-8052
▁ㅇㅣㄹㅏㄷㅗ	-8053
▁이노	-8054
▁스컬	-8055
▁파랗	-8056
▁미정	-8057
▁첸	-8058
어드	-8059
▁너머	-8060
▁루리	-8061
▁love	-8062
▁김승	-8063
▁미러	-8064
▁점유	-8065
▁철갑	-8066
▁동해	-8067
▁물어	-8068
▁출간	-8069
▁EC	-8070
▁레인지	-8071
▁평론	-8072
▁프론	-8073
▁해산	-8074
▁사사	-8075
▁폭격기	-8076
▁ㄷㅚ	-8077
▁공격수	-8078
▁자제	-8079
▁헷갈리	-8080
▁흙	-8081
센스	-8082
▁오죽	-8083
▁러스	-8084
▁레시	-8085
테일	-8086
▁중위	-8087
▁임의	-8088
▁쫒	-8089
▁망토	-8090
IR	-8091
▁구별	-8092
▁아스트	-8093
▁하여	-8094
▁TR	-8095
▁맹세	-8096
ail	-8097
▁플랜	-8098
urn	-8099
▁친분	-8100
▁연산	-8101
▁중동	-8102
▁보좌	-8103
▁장타	-8104
▁내버리	-8105
▁math	-8106
▁리나	-8107
▁크라이	-8108
▁외곽	-8109
▁페스	-8110
바나	-8111
▁날아다니	-8112
▁ㅇㅡㄴㅈㅣ	-8113
▁Sk	-8114
으로	-8115
▁라이즈	-8116
▁어이없	-8117
▁주최	-8118
▁용자	-8119
▁도어	-8120
▁왜냐하면	-8121
▁본능	-8122
▁비기	-8123
▁질서	-8124
▁열정	-8125
▁풍부	-8126
▁화상	-8127
▁이대	-8128
▁186	-8129
▁재개	-8130
▁고집	-8131
▁고사	-8132
▁개교	-8133
▁실사	-8134
▁마산	-8135
▁JTBC	-8136
▁납득	-8137
▁카레	-8138
ence	-8139
▁항공모함	-8140
▁그릇	-8141
▁쉴드	-8142
▁영감	-8143
▁동정	-8144
▁상무	-8145
▁하나하나	-8146
▁To	-8147
추어	-8148
▁불능	-8149
▁유니버스	-8150
민주	-8151
VER	-8152
▁유입	-8153
▁크래프트	-8154
▁="	-8155
▁시타	-8156
▁지부	-8157
틀랜드	-8158
▁사퇴	-8159
▁사무실	-8160
▁Super	-8161
▁변장	-8162
▁우울	-8163
▁스폰서	-8164
▁트릴	-8165
▁라이언	-8166
▁고속도로	-8167
▁122	-8168
▁초능력	-8169
▁기스	-8170
▁웜	-8171
▁광경	-8172
▁뉘	-8173
▁공속	-8174
▁찬성	-8175
의자	-8176
▁정신력	-8177
▁BJ	-8178
▁비리	-8179
▁작정	-8180
▁광명	-8181
▁확신	-8182
▁벙커	-8183
▁유연	-8184
바지	-8185
▁국제공항	-8186
▁어설	-8187
▁박성	-8188
▁Dream	-8189
이동	-8190
▁검정	-8191
▁근대	-8192
▁올바르	-8193
▁히틀러	-8194
▁멋대로	-8195
라미	-8196
▁우마	-8197
▁김유	-8198
▁리틀	-8199
▁엘리베이터	-8200
▁박수	-8201
▁에디션	-8202
▁몸통	-8203
▁인벤	-8204
▁삼성전자	-8205
▁코노	-8206
▁스가	-8207
▁까마	-8208
▁기본기	-8209
▁템플	-8210
▁꺼리	-8211
▁하치	-8212
▁애칭	-8213
▁닦	-8214
▁갑작스럽	-8215
▁중점	-8216
▁토트	-8217
▁ㅇㅕㅅㅓ	-8218
▁LE	-8219
▁장례	-8220
▁극대	-8221
▁1979	-8222
▁평상	-8223
▁출범	-8224
▁원숭이	-8225
▁법사	-8226
▁로키	-8227
▁슈퍼맨	-8228
배우	-8229
▁다지	-8230
▁체결	-8231
ier	-8232
▁김포	-8233
▁변명	-8234
▁에버	-8235
▁까지	-8236
▁아쿠아	-8237
▁총장	-8238
▁마모	-8239
▁타구	-8240
이나	-8241
▁카자	-8242
▁엘레	-8243
▁홋	-8244
▁일가	-8245
▁마라	-8246
▁can	-8247
▁EXP	-8248
▁카쿠	-8249
▁춥	-8250
▁145	-8251
▁투쟁	-8252
▁쳐들어	-8253
▁유치원	-8254
▁곡인	-8255
▁민국	-8256
▁출산	-8257
▁워리어	-8258
ble	-8259
▁만능	-8260
▁청구	-8261
▁할리	-8262
▁쿠마	-8263
▁노무	-8264
▁이어받	-8265
▁만주	-8266
▁비키	-8267
▁슬픔	-8268
▁조카	-8269
▁모임	-8270
▁퍽	-8271
▁부근	-8272
▁카네	-8273
▁도색	-8274
▁유격수	-8275
▁닥치	-8276
▁워즈	-8277
▁실현	-8278
▁블럭	-8279
IX	-8280
▁ㄱㅜㄴㅇㅛ	-8281
▁이누	-8282
▁창작물	-8283
▁무제	-8284
▁재앙	-8285
oun	-8286
▁부스	-8287
▁테이블	-8288
▁아처	-8289
▁브라더스	-8290
▁NO	-8291
▁롤러	-8292
▁부천	-8293
▁헬멧	-8294
워즈	-8295
▁매주	-8296
▁방심	-8297
▁후일	-8298
▁113	-8299
▁무실점	-8300
▁아지	-8301
▁히스	-8302
▁학급	-8303
▁가이드	-8304
▁브라이언	-8305
▁암호	-8306
▁IM	-8307
▁신지	-8308
▁튜버	-8309
▁Ap	-8310
▁고등학생	-8311
▁쿠니	-8312
▁씨앗	-8313
▁철저히	-8314
역사	-8315
▁검증	-8316
▁풍선	-8317
▁165	-8318
▁펭	-8319
이치로	-8320
▁항모	-8321
▁기차	-8322
iver	-8323
▁헝가리	-8324
▁1950	-8325
▁복사	-8326
▁마운	-8327
▁스쿼	-8328
▁니아	-8329
▁이이	-8330
▁엉망	-8331
▁왕복	-8332
▁터보	-8333
▁몰살	-8334
▁달려들	-8335
ott	-8336
▁각인	-8337
▁그러면	-8338
▁알레	-8339
▁케이크	-8340
▁인접	-8341
▁리가	-8342
▁손자	-8343
▁포탈	-8344
▁부시	-8345
▁글씨	-8346
▁호러	-8347
▁IT	-8348
▁144	-8349
▁사투	-8350
▁카지	-8351
▁병역	-8352
▁명사	-8353
▁사연	-8354
▁엄밀히	-8355
▁제니	-8356
▁운송	-8357
▁넬	-8358
리안	-8359
▁이카	-8360
▁인성	-8361
▁ㅅㅡㅂㄴㅣㄲㅏ	-8362
▁상주	-8363
▁155	-8364
지르	-8365
페라	-8366
▁레이블	-8367
▁유우키	-8368
▁매트	-8369
▁절친	-8370
▁옥상	-8371
▁ATK	-8372
▁at	-8373
▁쿠데	-8374
▁쫓겨나	-8375
▁간섭	-8376
▁화폐	-8377
▁통째	-8378
▁CM	-8379
▁세로	-8380
▁죄책	-8381
▁아무튼	-8382
▁생김	-8383
▁승인	-8384
▁조국	-8385
슬라	-8386
▁알아채	-8387
▁시뮬	-8388
▁동전	-8389
▁품질	-8390
▁사로잡	-8391
eah	-8392
▁현금	-8393
▁젼	-8394
아들	-8395
▁연수	-8396
▁연전	-8397
uck	-8398
▁방학	-8399
▁영양	-8400
▁Max	-8401
진호	-8402
▁흩어지	-8403
▁114	-8404
▁마음대로	-8405
▁제리	-8406
페이	-8407
▁일곱	-8408
폭탄	-8409
▁츤	-8410
▁오니	-8411
▁목사	-8412
▁독일어	-8413
▁거지	-8414
▁유재석	-8415
▁엔지니어	-8416
▁천장	-8417
▁상금	-8418
▁우연	-8419
▁깊이	-8420
▁입문	-8421
▁BD	-8422
ode	-8423
▁햇	-8424
▁비우	-8425
▁함락	-8426
▁양식	-8427
▁사나	-8428
▁ERA	-8429
▁마당	-8430
▁집회	-8431
코트	-8432
▁레나	-8433
▁죄책감	-8434
▁아오이	-8435
II	-8436
▁바쿠	-8437
▁스나이퍼	-8438
oh	-8439
▁원전	-8440
▁this	-8441
▁아자	-8442
▁동대	-8443
▁뮌헨	-8444
자치	-8445
▁너스	-8446
▁현자	-8447
▁이놈	-8448
▁히카	-8449
▁샐	-8450
▁뱅가드	-8451
▁솟	-8452
▁호드	-8453
▁유메	-8454
▁시크릿	-8455
▁미르	-8456
▁수위	-8457
야시	-8458
▁다큐	-8459
▁페르소	-8460
▁스틱	-8461
▁유카	-8462
▁기동력	-8463
▁화해	-8464
▁혁신	-8465
▁쿠스	-8466
▁승진	-8467
▁리본	-8468
▁호의	-8469
▁개구리	-8470
▁ㄷㅏㄱㅓㄴㅏ	-8471
▁스티브	-8472
▁감자	-8473
네시아	-8474
▁초록색	-8475
▁부패	-8476
▁용암	-8477
▁토대	-8478
가루	-8479
끼리	-8480
▁성경	-8481
▁손꼽히	-8482
▁이케	-8483
▁할로윈	-8484
▁스카우트	-8485
▁시모	-8486
▁전향	-8487
▁참사	-8488
▁정문	-8489
▁멧	-8490
▁종결	-8491
▁스피어	-8492
▁최순	-8493
▁코스프레	-8494
▁고아	-8495
▁궁합	-8496
▁러쉬	-8497
주교	-8498
▁전동차	-8499
▁녹화	-8500
▁오렌	-8501
▁미성	-8502
▁티저	-8503
▁원장	-8504
▁시게	-8505
▁750	-8506
▁맞히	-8507
▁..!	-8508
▁깨끗	-8509
▁한나라	-8510
▁친애	-8511
▁메트로	-8512
▁만점	-8513
▁사무라이	-8514
▁GK	-8515
▁아드	-8516
▁from	-8517
▁아이디어	-8518
▁아리아	-8519
▁정반대	-8520
▁한나라당	-8521
ㅂㅅㅣ	-8522
▁HE	-8523
케이션	-8524
▁ne	-8525
▁자율	-8526
▁은폐	-8527
▁대위	-8528
▁평행	-8529
▁흑마	-8530
변이	-8531
▁돌연변이	-8532
▁디자이너	-8533
▁떨치	-8534
▁잭슨	-8535
▁토우	-8536
▁미인	-8537
▁말씀	-8538
▁협의	-8539
▁???	-8540
bs	-8541
int	-8542
▁OS	-8543
▁도약	-8544
떨어지	-8545
▁교과서	-8546
▁나이프	-8547
▁필리핀	-8548
▁페르소나	-8549
▁항해	-8550
▁메이지	-8551
▁뺏기	-8552
▁기후	-8553
▁이력	-8554
▁자칭	-8555
▁풍기	-8556
▁실체	-8557
▁오퍼	-8558
▁정성	-8559
▁저글	-8560
▁적절히	-8561
▁유전	-8562
▁지분	-8563
▁합작	-8564
▁충족	-8565
▁다니엘	-8566
▁흡혈귀	-8567
▁450	-8568
▁tr	-8569
▁NBA	-8570
▁갯	-8571
▁이스트	-8572
▁ㅁㅓ	-8573
▁진에어	-8574
▁Season	-8575
항공	-8576
운동	-8577
▁AB	-8578
ㅁㅏㄹ	-8579
▁스매	-8580
▁마에	-8581
▁이틀	-8582
▁종영	-8583
▁동서	-8584
▁좌측	-8585
▁파스	-8586
▁부러지	-8587
▁치안	-8588
▁에미	-8589
▁학문	-8590
▁자이언트	-8591
▁트래	-8592
itt	-8593
▁중원	-8594
▁리사	-8595
IL	-8596
크리	-8597
▁ㄹㄹㅐ	-8598
▁여단	-8599
▁지혜	-8600
▁브론	-8601
ose	-8602
▁욕설	-8603
▁시골	-8604
▁임하	-8605
▁일관	-8606
▁서류	-8607
▁가위	-8608
▁가담	-8609
▁찔	-8610
직자	-8611
▁내기	-8612
느리	-8613
▁얼티	-8614
▁피자	-8615
▁학대	-8616
▁new	-8617
▁{{{-	-8618
▁스타트	-8619
▁이태	-8620
▁침착	-8621
▁저기	-8622
▁바이올	-8623
▁억울	-8624
▁히드라	-8625
▁입증	-8626
▁레코드	-8627
▁흘러가	-8628
▁ㅅㅑ	-8629
▁EXT	-8630
▁계층	-8631
▁헥	-8632
▁각지	-8633
▁매달리	-8634
▁얇	-8635
철도	-8636
▁협정	-8637
▁외국어	-8638
▁분홍	-8639
▁우루	-8640
▁스쿼드	-8641
▁포병	-8642
▁마기	-8643
▁La	-8644
렉터	-8645
▁물자	-8646
▁존중	-8647
▁해소	-8648
▁소생	-8649
▁덮치	-8650
▁Im	-8651
▁감당	-8652
▁달아나	-8653
▁EZ	-8654
▁추후	-8655
▁잔혹	-8656
▁314	-8657
▁베이징	-8658
▁함장	-8659
므로	-8660
탐정	-8661
▁카테	-8662
reat	-8663
▁밀도	-8664
▁고의	-8665
▁무도	-8666
▁아케이드	-8667
▁미아	-8668
▁강릉	-8669
▁로스트	-8670
▁나이츠	-8671
▁초상	-8672
▁고고	-8673
▁저글링	-8674
▁툰	-8675
▁녹이	-8676
슈타인	-8677
은색	-8678
▁Con	-8679
▁Vol	-8680
▁격려	-8681
▁카리스마	-8682
▁나인	-8683
▁대동	-8684
▁갈색	-8685
▁유스	-8686
▁부원	-8687
▁스탈	-8688
▁124	-8689
지능	-8690
▁학년도	-8691
▁인공지능	-8692
▁스파이더맨	-8693
▁이오	-8694
▁Sch	-8695
▁에메	-8696
▁가오	-8697
마루	-8698
철수	-8699
▁신곡	-8700
▁강타	-8701
▁잼	-8702
▁시어	-8703
▁점멸	-8704
▁존스	-8705
▁대세	-8706
▁Ed	-8707
▁부유	-8708
▁극한	-8709
▁피지컬	-8710
▁면하	-8711
부키	-8712
나베	-8713
▁rd	-8714
▁주석	-8715
▁판도	-8716
▁스타즈	-8717
▁출판사	-8718
ㅂㅅㅣㄱㅗ	-8719
ube	-8720
▁황당	-8721
ㅁㅏㄹㄹㅗ	-8722
우라	-8723
▁기울이	-8724
▁Girl	-8725
▁워터	-8726
▁민간인	-8727
▁점심	-8728
▁ㅊㅣ	-8729
▁물약	-8730
▁밀레	-8731
바이트	-8732
▁강전	-8733
▁힘입	-8734
▁과금	-8735
▁압력	-8736
▁정사	-8737
▁펌프	-8738
▁디아블로	-8739
▁ㅁㅗㄴ	-8740
▁세자	-8741
워프	-8742
▁ld	-8743
▁퀴즈	-8744
▁RE	-8745
▁표적	-8746
▁부속	-8747
슬리	-8748
▁대변	-8749
▁배구	-8750
▁대검	-8751
▁Night	-8752
▁라마	-8753
▁그러므로	-8754
방송	-8755
▁그쪽	-8756
▁USB	-8757
▁압축	-8758
▁이빨	-8759
▁183	-8760
ition	-8761
ari	-8762
▁뚱	-8763
▁어서	-8764
usic	-8765
▁괴인	-8766
▁벌써	-8767
▁예의	-8768
▁산맥	-8769
오피스	-8770
▁애완	-8771
▁생김새	-8772
▁마틴	-8773
▁빙결	-8774
msys	-8775
▁후유	-8776
▁ldmsys	-8777
업자	-8778
▁법무	-8779
▁씻	-8780
▁다시금	-8781
▁일지	-8782
▁노아	-8783
▁테스	-8784
▁내역	-8785
▁마하	-8786
▁키요	-8787
▁152	-8788
▁망설	-8789
▁하지	-8790
15	-8791
▁동구	-8792
▁중견	-8793
▁병살	-8794
▁제노	-8795
▁경부	-8796
▁보스턴	-8797
▁기껏	-8798
▁소소	-8799
▁레이싱	-8800
▁퇴치	-8801
ats	-8802
▁리버스	-8803
▁TS	-8804
▁지로	-8805
▁출동	-8806
▁대차	-8807
▁데몬	-8808
▁김주	-8809
▁연설	-8810
▁마케팅	-8811
▁덩어리	-8812
▁..?	-8813
른바	-8814
▁스탭	-8815
▁재건	-8816
▁발사기	-8817
리얼	-8818
▁이른바	-8819
▁아카네	-8820
▁1200	-8821
▁만렙	-8822
▁자존심	-8823
▁Black	-8824
▁노무현	-8825
▁도대	-8826
▁집계	-8827
▁박스오피스	-8828
▁BC	-8829
▁골프	-8830
▁이소	-8831
시오	-8832
▁기질	-8833
▁도덕	-8834
▁토마스	-8835
▁모형	-8836
사랑	-8837
▁자책점	-8838
▁로프	-8839
▁사촌	-8840
▁박진	-8841
▁선동	-8842
▁182	-8843
▁주축	-8844
▁농업	-8845
▁무녀	-8846
▁WC	-8847
▁디오	-8848
▁장벽	-8849
▁Bo	-8850
▁NH	-8851
13	-8852
▁모종	-8853
▁포착	-8854
▁휩쓸	-8855
▁자아	-8856
시대	-8857
▁바텀	-8858
▁서리	-8859
세지	-8860
▁들여	-8861
▁철도역	-8862
▁귀국	-8863
yn	-8864
▁ver	-8865
▁일렉	-8866
▁천상	-8867
▁문양	-8868
▁카게	-8869
▁절벽	-8870
▁원판	-8871
▁통솔	-8872
▁등극	-8873
▁억제	-8874
▁유진	-8875
▁남동생	-8876
▁레아	-8877
▁구상	-8878
▁발레	-8879
▁연동	-8880
토니	-8881
▁127	-8882
▁드워프	-8883
▁각도	-8884
▁Let	-8885
▁마도카	-8886
▁킴	-8887
▁그레이드	-8888
▁불길	-8889
▁리처	-8890
▁상냥	-8891
▁애인	-8892
▁머물	-8893
▁이원	-8894
▁관장	-8895
▁부끄럽	-8896
▁이윤	-8897
▁적시타	-8898
▁not	-8899
app	-8900
▁교차로	-8901
당초	-8902
▁오른손	-8903
▁탄핵	-8904
▁모스크	-8905
▁현황	-8906
▁발명	-8907
▁ㅔㅇㅛ	-8908
▁리바	-8909
▁뛰어들	-8910
▁모빌	-8911
▁앓	-8912
▁회관	-8913
▁도배	-8914
▁솔저	-8915
▁DM	-8916
▁MM	-8917
▁토라	-8918
▁아담	-8919
▁서울대	-8920
▁쿠데타	-8921
▁118	-8922
▁그란	-8923
▁타이어	-8924
▁왕실	-8925
려워하	-8926
▁라인하르트	-8927
DD	-8928
▁뻘	-8929
▁제발	-8930
▁협동	-8931
▁봉사	-8932
▁육상	-8933
▁발급	-8934
▁사치	-8935
▁ㅇㅣㅇㅑ	-8936
▁스크롤	-8937
▁얄	-8938
▁왕비	-8939
▁아마추어	-8940
▁퓨전	-8941
▁프랜	-8942
▁원주민	-8943
▁스토어	-8944
▁베를	-8945
▁용산	-8946
ough	-8947
▁벗기	-8948
▁섬광	-8949
▁돌려주	-8950
타이	-8951
▁착륙	-8952
▁OG	-8953
▁방사능	-8954
▁사방	-8955
▁향후	-8956
▁184	-8957
▁불러오	-8958
▁까마귀	-8959
▁아포	-8960
▁전담	-8961
▁라미	-8962
▁쿄코	-8963
▁하사	-8964
▁피오	-8965
▁지장	-8966
▁환생	-8967
▁SSR	-8968
▁Am	-8969
▁챔스	-8970
▁서열	-8971
gr	-8972
▁여태	-8973
▁시안	-8974
▁뤼	-8975
▁시시	-8976
▁ㄷㅔ	-8977
▁Op	-8978
▁학사	-8979
▁얼리	-8980
▁숙소	-8981
▁다스리	-8982
▁다카	-8983
▁반성	-8984
▁Str	-8985
▁얌	-8986
▁Col	-8987
▁AF	-8988
▁도대체	-8989
▁지루	-8990
▁베스	-8991
▁밀리언	-8992
▁잎	-8993
▁정밀	-8994
▁선박	-8995
▁입시	-8996
▁행진	-8997
▁박자	-8998
▁퍼펙트	-8999
ye	-9000
▁우두	-9001
▁이무	-9002
▁이별	-9003
▁GM	-9004
▁인피니티	-9005
▁청춘	-9006
▁민폐	-9007
▁노랗	-9008
▁어그	-9009
▁미녀	-9010
▁서적	-9011
▁옴	-9012
▁000000	-9013
▁시오	-9014
ㄲㅡㅁ	-9015
▁교도소	-9016
▁ㄱㅔㄲㅡㅁ	-9017
▁컴뱃	-9018
▁프롤	-9019
▁루마	-9020
어트	-9021
▁유가	-9022
▁큐어	-9023
▁팔라	-9024
▁필름	-9025
▁실용	-9026
▁욕심	-9027
▁얽히	-9028
▁달려오	-9029
▁보우	-9030
▁루미	-9031
▁Mag	-9032
CE	-9033
▁화기	-9034
▁그간	-9035
▁잠기	-9036
▁강인	-9037
▁아수	-9038
▁싱가	-9039
▁싱가포르	-9040
iel	-9041
▁카리	-9042
▁카피	-9043
▁리자	-9044
▁지크	-9045
▁스로	-9046
▁조화	-9047
▁편리	-9048
▁갱신	-9049
▁춤추	-9050
▁스타워즈	-9051
▁브래	-9052
▁친척	-9053
▁취재	-9054
▁금발	-9055
▁승패	-9056
▁직책	-9057
▁툭	-9058
▁김치	-9059
▁모순	-9060
▁선원	-9061
▁주공	-9062
▁오렌지	-9063
▁테리	-9064
▁건지	-9065
▁마을버스	-9066
무지	-9067
▁스네	-9068
▁화신	-9069
▁아무렇	-9070
▁일일	-9071
▁시호	-9072
▁AV	-9073
▁흥분	-9074
▁탐사	-9075
▁욱	-9076
▁발각	-9077
▁침몰	-9078
▁1978	-9079
▁이진	-9080
▁모나	-9081
ull	-9082
vel	-9083
▁어벤져	-9084
▁전송	-9085
▁스카웃	-9086
▁과일	-9087
▁아슬	-9088
▁한꺼	-9089
▁한꺼번에	-9090
▁AL	-9091
▁폴아웃	-9092
▁섬멸	-9093
▁우미	-9094
▁전지	-9095
▁이계	-9096
▁김광	-9097
▁완화	-9098
▁경전	-9099
프리카	-9100
▁스기	-9101
▁안무	-9102
▁흑역사	-9103
▁오다	-9104
▁군부	-9105
▁오토바이	-9106
서스	-9107
▁마야	-9108
▁정답	-9109
▁보강	-9110
▁쿠사	-9111
▁흑막	-9112
▁중구	-9113
▁일어	-9114
▁시간대	-9115
▁대역	-9116
▁천국	-9117
헤이	-9118
ult	-9119
▁해운	-9120
▁토트넘	-9121
▁모욕	-9122
▁오즈	-9123
▁성명	-9124
▁178	-9125
▁구형	-9126
키스탄	-9127
▁아사히	-9128
▁리부	-9129
▁가구	-9130
▁컴백	-9131
▁CL	-9132
▁소나	-9133
▁용이	-9134
▁도르	-9135
▁능가	-9136
▁민감	-9137
able	-9138
▁관문	-9139
▁약혼	-9140
▁반경	-9141
바리	-9142
▁스텔스	-9143
마리	-9144
▁이단	-9145
▁호리	-9146
▁홋카이도	-9147
▁사와	-9148
▁치이	-9149
에른	-9150
▁1945	-9151
ject	-9152
▁반역	-9153
▁신관	-9154
소년	-9155
▁미소녀	-9156
▁수라	-9157
▁엣	-9158
구니	-9159
▁주머니	-9160
▁완공	-9161
▁엉덩이	-9162
▁인문	-9163
▁PK	-9164
▁스윙	-9165
▁경상남도	-9166
▁동계	-9167
▁카일	-9168
ㅡㅅ	-9169
▁최상급	-9170
▁모에	-9171
▁CE	-9172
▁등재	-9173
▁일체	-9174
▁그리핀	-9175
▁레버	-9176
18	-9177
▁라비	-9178
▁헬리	-9179
▁Co	-9180
▁cl	-9181
eth	-9182
▁강대	-9183
▁매각	-9184
▁소득	-9185
▁유즈	-9186
▁시카고	-9187
▁내밀	-9188
▁간판	-9189
▁직행	-9190
▁사직	-9191
▁에코	-9192
▁얼티밋	-9193
바람	-9194
▁적자	-9195
방울	-9196
▁오만	-9197
▁타카하시	-9198
▁신작	-9199
틀리	-9200
▁마수	-9201
▁저자	-9202
▁코레	-9203
▁시종	-9204
▁독백	-9205
▁베이비	-9206
▁테란	-9207
▁머스	-9208
▁울음	-9209
모습	-9210
▁부채	-9211
▁라이트닝	-9212
MAN	-9213
▁엘리자베스	-9214
▁맛보	-9215
▁플라스	-9216
▁정점	-9217
▁프레스	-9218
▁장남	-9219
▁약체	-9220
▁수아	-9221
▁명장	-9222
▁사탕	-9223
타리	-9224
▁패트	-9225
▁뻔하	-9226
▁요격	-9227
▁걸어가	-9228
▁파운드	-9229
▁탈취	-9230
▁스마일	-9231
▁매그	-9232
▁레시피	-9233
▁꺼지	-9234
▁디스플레이	-9235
속기	-9236
▁여주인	-9237
▁모음	-9238
기에	-9239
▁수천	-9240
▁카제	-9241
▁늪	-9242
▁금요일	-9243
▁눈앞	-9244
드러지	-9245
▁겟	-9246
▁삼키	-9247
▁불참	-9248
▁단자	-9249
▁아랫	-9250
▁마미	-9251
▁카사	-9252
▁ㄷㅓㄴㅈㅣㄹㅏ	-9253
▁패왕	-9254
▁노릇	-9255
▁오케	-9256
▁얹	-9257
▁바이에른	-9258
▁실적	-9259
▁무능	-9260
▁파고	-9261
스크림	-9262
▁Is	-9263
▁쿠리	-9264
▁Do	-9265
▁편의점	-9266
▁도심	-9267
▁휴먼	-9268
▁소마	-9269
▁대피	-9270
▁들르	-9271
▁밈	-9272
▁교리	-9273
▁TOP	-9274
▁BO	-9275
▁레이지	-9276
ild	-9277
▁도쿠	-9278
▁크로우	-9279
▁박정희	-9280
▁카이저	-9281
▁입사	-9282
▁욕망	-9283
▁한하	-9284
▁목욕	-9285
▁과시	-9286
▁애용	-9287
25	-9288
▁일러스트레이터	-9289
▁태풍	-9290
▁맨체스터	-9291
▁신한	-9292
파이	-9293
▁AFC	-9294
▁신하	-9295
▁가왕	-9296
▁그러다	-9297
니코	-9298
▁4000	-9299
▁시범	-9300
▁눈동자	-9301
▁평상시	-9302
▁삽질	-9303
▁함수	-9304
생활	-9305
▁오공	-9306
▁자사	-9307
▁굶	-9308
▁곤충	-9309
▁스모	-9310
▁진동	-9311
▁좌익	-9312
inal	-9313
▁네크로	-9314
러브	-9315
▁BGA	-9316
▁물려받	-9317
▁아이디	-9318
▁공신	-9319
▁무지개	-9320
▁케리	-9321
▁집사	-9322
▁김일	-9323
▁소집	-9324
▁남학생	-9325
▁ㄹㅣㄹㅏ	-9326
▁이어서	-9327
▁웨폰	-9328
▁평론가	-9329
아시아	-9330
▁드루이드	-9331
▁맷집	-9332
▁SA	-9333
▁하이드	-9334
▁연이	-9335
▁단련	-9336
▁이쿠	-9337
▁타리	-9338
▁고가	-9339
도전	-9340
▁ME	-9341
▁돌려	-9342
▁가이아	-9343
쿠스	-9344
▁유아	-9345
▁냉장	-9346
▁보르	-9347
▁스파크	-9348
▁검토	-9349
▁정우	-9350
▁중소	-9351
▁Gaming	-9352
▁사천	-9353
▁징계	-9354
▁키노	-9355
▁하도	-9356
▁CR	-9357
▁유머	-9358
▁320	-9359
▁1973	-9360
▁선회	-9361
▁리볼	-9362
▁포크	-9363
▁달콤	-9364
▁명시	-9365
▁놔	-9366
▁초과	-9367
▁아마존	-9368
▁아쉬움	-9369
▁장본	-9370
▁마마	-9371
ings	-9372
▁이용자	-9373
▁GSL	-9374
▁모의	-9375
▁315	-9376
▁캡슐	-9377
▁성분	-9378
▁당초	-9379
▁숙련도	-9380
▁투고	-9381
▁컬렉션	-9382
▁Gl	-9383
▁장신구	-9384
DX	-9385
▁식스	-9386
트론	-9387
▁아르바이트	-9388
▁ㅊㅣㄱㅗ	-9389
TA	-9390
▁자력	-9391
▁무한도전	-9392
▁중기	-9393
▁시련	-9394
▁ㄴㄱㅏㅇㅛ	-9395
▁덥	-9396
▁부가	-9397
▁그루	-9398
▁협조	-9399
▁Gu	-9400
당기	-9401
▁위쪽	-9402
▁짬	-9403
▁라이드	-9404
▁중국인	-9405
▁중부	-9406
▁ㅇㅡㄹㅕㅁㅕㄴ	-9407
▁강아지	-9408
▁슬라이드	-9409
▁컨디션	-9410
▁대면	-9411
reak	-9412
▁아유	-9413
▁대법	-9414
▁민중	-9415
▁일명	-9416
▁유동	-9417
▁이명박	-9418
▁와타나베	-9419
▁가해	-9420
▁오로치	-9421
대사	-9422
▁진단	-9423
▁마찰	-9424
▁코끼리	-9425
▁인도네시아	-9426
히토	-9427
수리	-9428
▁궁수	-9429
ron	-9430
▁저항력	-9431
▁장본인	-9432
▁이호	-9433
▁잔류	-9434
▁미노	-9435
▁고발	-9436
▁리리	-9437
▁ㄴㄷㅡㅅ	-9438
▁소꿉	-9439
▁공교	-9440
▁무늬	-9441
▁무자	-9442
▁주저	-9443
▁주술사	-9444
▁캘리	-9445
▁so	-9446
▁유마	-9447
▁금강	-9448
티니	-9449
▁급식	-9450
▁표식	-9451
▁나폴레	-9452
타운	-9453
▁앤드	-9454
▁뺨	-9455
▁재수	-9456
▁외야수	-9457
▁가령	-9458
▁급격히	-9459
▁like	-9460
▁밭	-9461
▁168	-9462
▁와이번스	-9463
▁학위	-9464
▁상시	-9465
▁벨기에	-9466
▁서바이벌	-9467
▁고인	-9468
▁도마	-9469
▁네이션	-9470
▁일리	-9471
중간	-9472
▁보로	-9473
▁판사	-9474
▁국도	-9475
▁주술	-9476
▁혼혈	-9477
▁수신	-9478
▁겸하	-9479
▁평택	-9480
▁낯	-9481
▁고이	-9482
▁찔리	-9483
▁방침	-9484
▁203	-9485
▁나폴레옹	-9486
▁라가	-9487
▁will	-9488
▁이용객	-9489
▁내외	-9490
▁배리	-9491
▁휴대폰	-9492
닐라	-9493
▁공헌	-9494
▁유카리	-9495
▁크라운	-9496
14	-9497
▁NM	-9498
▁윤리	-9499
▁도미	-9500
▁부산광역시	-9501
사와	-9502
▁라이징	-9503
▁성대	-9504
▁악행	-9505
▁초청	-9506
▁개명	-9507
▁갈기	-9508
▁내각	-9509
▁보직	-9510
PA	-9511
▁쟁이	-9512
▁승급	-9513
▁강동	-9514
저래	-9515
▁몸매	-9516
▁흉악	-9517
▁조립	-9518
▁천지	-9519
성이	-9520
운수	-9521
▁218	-9522
17	-9523
▁김병	-9524
▁체코	-9525
▁이래저래	-9526
▁오페라	-9527
▁이즈미	-9528
▁헤라	-9529
▁Min	-9530
▁떨구	-9531
▁균열	-9532
▁원한	-9533
▁국토	-9534
▁쥬얼	-9535
▁수립	-9536
▁독보	-9537
▁자산	-9538
▁뚜렷	-9539
▁우기	-9540
▁시네마	-9541
마치	-9542
▁아테나	-9543
▁거세	-9544
▁고우	-9545
▁저격수	-9546
전사	-9547
▁단역	-9548
▁충청남도	-9549
▁단총	-9550
▁런처	-9551
▁레이븐	-9552
▁위시	-9553
▁마저	-9554
▁황혼	-9555
▁사슬	-9556
▁베를린	-9557
▁소우	-9558
▁휴게	-9559
▁볶	-9560
▁배율	-9561
▁어원	-9562
▁테크닉	-9563
GA	-9564
▁니트	-9565
▁탄압	-9566
▁서방	-9567
▁의정부	-9568
▁저승	-9569
ㄷㅓㄴㅈㅣ	-9570
▁one	-9571
▁부동산	-9572
▁떠돌	-9573
▁10000	-9574
▁차장	-9575
▁두려워하	-9576
르타	-9577
▁오사	-9578
▁대학생	-9579
주의자	-9580
▁필사	-9581
▁스치	-9582
▁버거	-9583
▁교역	-9584
▁설마	-9585
▁로크	-9586
ECT	-9587
▁적이	-9588
▁절단	-9589
▁빗나가	-9590
▁지지율	-9591
▁수중	-9592
▁리믹스	-9593
▁국방부	-9594
▁충격파	-9595
▁단서	-9596
▁리츠	-9597
▁보가	-9598
▁면제	-9599
▁경사	-9600
▁Ro	-9601
▁리프트	-9602
▁이오리	-9603
▁탄막	-9604
▁iOS	-9605
▁트론	-9606
▁비자	-9607
▁난리	-9608
▁작위	-9609
▁지터	-9610
▁하츠네	-9611
▁스코틀랜드	-9612
▁김성근	-9613
▁다녀	-9614
▁RO	-9615
▁살아오	-9616
▁타키	-9617
▁이리저리	-9618
▁대국	-9619
ICE	-9620
▁성지	-9621
▁인명	-9622
▁히사	-9623
▁아수라	-9624
▁견해	-9625
▁때로	-9626
▁플레임	-9627
▁na	-9628
▁걸음	-9629
▁자루	-9630
▁오역	-9631
▁원로	-9632
▁비단	-9633
▁시간표	-9634
oul	-9635
▁미남	-9636
▁왕족	-9637
▁더미	-9638
▁ALL	-9639
▁Play	-9640
▁엠블	-9641
▁정전	-9642
ould	-9643
▁습하	-9644
MAX	-9645
▁1974	-9646
보우	-9647
AND	-9648
▁흉내	-9649
▁칼라	-9650
▁팰	-9651
▁입원	-9652
▁버블	-9653
▁타우	-9654
▁평판	-9655
▁ㄴㄷㅏㄴ	-9656
▁사물	-9657
▁성사	-9658
▁KB	-9659
▁Red	-9660
▁펑크	-9661
▁점하	-9662
▁득표율	-9663
▁Ser	-9664
▁말레이	-9665
▁극심	-9666
▁보편	-9667
▁계략	-9668
▁사이토	-9669
▁중화민국	-9670
▁해역	-9671
▁가해자	-9672
▁주황	-9673
▁완벽히	-9674
▁Type	-9675
친구	-9676
▁요우	-9677
저우	-9678
▁토비	-9679
▁지면	-9680
▁공격기	-9681
▁달인	-9682
▁격렬	-9683
ody	-9684
▁NT	-9685
▁간파	-9686
▁출석	-9687
▁캇	-9688
▁둥지	-9689
▁UC	-9690
▁전법	-9691
▁샘플	-9692
▁사우스	-9693
▁재배	-9694
▁희생자	-9695
과이	-9696
다드	-9697
▁우두머리	-9698
▁반장	-9699
▁어제	-9700
▁177	-9701
▁se	-9702
▁연막	-9703
▁Don	-9704
▁액체	-9705
ions	-9706
▁발톱	-9707
▁탈환	-9708
▁계절	-9709
▁고난	-9710
▁다케	-9711
▁충고	-9712
▁헤드샷	-9713
▁순간이동	-9714
▁커플링	-9715
▁깃털	-9716
▁김윤	-9717
▁이듬	-9718
▁제의	-9719
▁주입	-9720
▁Car	-9721
▁해변	-9722
▁리볼버	-9723
▁감성	-9724
STER	-9725
▁강습	-9726
▁련	-9727
▁마르코	-9728
▁한양	-9729
ㅇㅡㄴ	-9730
▁플레이버	-9731
▁놔두	-9732
▁선로	-9733
▁ㄷㅡㄹㅏ	-9734
▁갈구	-9735
▁섬기	-9736
▁진형	-9737
▁손잡이	-9738
▁의의	-9739
▁벚	-9740
▁맑	-9741
▁짝사랑	-9742
▁랜서	-9743
▁홈경기	-9744
▁전라남도	-9745
▁딥	-9746
▁태생	-9747
▁무비	-9748
▁방울	-9749
▁반도	-9750
▁스콜	-9751
▁138	-9752
▁us	-9753
▁과언	-9754
텍스	-9755
▁슬라임	-9756
드로	-9757
▁중재	-9758
▁1975	-9759
▁레슨	-9760
▁입자	-9761
▁코디	-9762
▁ㅇㅣㄴㅏㅁㅏ	-9763
▁아이즈	-9764
▁안젤	-9765
▁이영호	-9766
▁금고	-9767
▁보루	-9768
▁두드러지	-9769
▁주교	-9770
▁서명	-9771
▁접수	-9772
▁사야카	-9773
▁병과	-9774
▁공명	-9775
▁맹독	-9776
▁크롬	-9777
▁측근	-9778
▁유지비	-9779
천군	-9780
▁동성애	-9781
▁차일드	-9782
▁Es	-9783
▁상의	-9784
16	-9785
ven	-9786
▁상어	-9787
▁중도	-9788
▁워드	-9789
▁너클	-9790
▁필립	-9791
alk	-9792
스카	-9793
▁석유	-9794
▁자켓	-9795
▁리처드	-9796
▁메테	-9797
▁산탄총	-9798
레븐	-9799
▁아리스	-9800
▁두려움	-9801
▁부제	-9802
▁냉장고	-9803
▁찬양	-9804
▁시끄럽	-9805
▁완성도	-9806
▁데미	-9807
▁러너	-9808
▁팍	-9809
▁바이크	-9810
▁타스	-9811
▁마지	-9812
라이언스	-9813
▁졸업식	-9814
▁생각나	-9815
▁테니스	-9816
▁프로스트	-9817
▁어드밴	-9818
▁이사장	-9819
▁월간	-9820
▁가히	-9821
▁백만	-9822
▁얼라이언스	-9823
▁Time	-9824
▁왓	-9825
▁원화	-9826
▁본질	-9827
▁삿	-9828
▁'''	-9829
▁교대	-9830
▁이념	-9831
af	-9832
야스	-9833
▁콘스탄	-9834
▁마스코트	-9835
▁레인보우	-9836
▁162	-9837
▁고래	-9838
▁몰려오	-9839
▁일각	-9840
▁EU	-9841
소총	-9842
▁우지	-9843
▁아울	-9844
▁have	-9845
▁126	-9846
te	-9847
스티스	-9848
▁수감	-9849
▁분할	-9850
▁어기	-9851
▁찰스	-9852
▁끌어내	-9853
▁트이	-9854
▁박명	-9855
▁아인	-9856
▁조수	-9857
▁빙의	-9858
▁이듬해	-9859
▁엉뚱	-9860
맥스	-9861
▁스바	-9862
▁슬러그	-9863
▁테일즈	-9864
▁카오루	-9865
▁평등	-9866
▁ㄹㄲㅏㅇㅛ	-9867
▁키즈	-9868
▁Sum	-9869
▁WH	-9870
▁로제	-9871
▁보고서	-9872
공사	-9873
▁핑계	-9874
보기	-9875
▁스칼	-9876
▁구로	-9877
▁김선	-9878
빨리	-9879
▁권하	-9880
▁김두	-9881
▁심정	-9882
ics	-9883
▁두껍	-9884
▁카렌	-9885
▁노부나가	-9886
▁지역구	-9887
그라	-9888
▁신생	-9889
▁차림	-9890
▁ㄹㅗㄹ	-9891
▁폭로	-9892
▁스매시	-9893
르드	-9894
▁깨우	-9895
마르	-9896
▁자키	-9897
▁연소	-9898
▁제조사	-9899
▁기관포	-9900
▁말기	-9901
▁응급	-9902
▁젝	-9903
▁누스	-9904
▁에드워드	-9905
▁텔레포트	-9906
▁왕가	-9907
▁클리셰	-9908
▁영화제	-9909
▁고립	-9910
랄드	-9911
▁주차장	-9912
▁초등학생	-9913
▁꼴찌	-9914
YP	-9915
▁조던	-9916
▁히카루	-9917
▁과격	-9918
▁고종	-9919
▁동상	-9920
▁손목	-9921
▁사회주의	-9922
▁무식	-9923
▁로비	-9924
▁후반전	-9925
▁공짜	-9926
▁민병	-9927
▁솔직히	-9928
▁펙	-9929
▁나락	-9930
▁회계	-9931
▁신상	-9932
재기	-9933
▁대니	-9934
▁결과물	-9935
▁병행	-9936
시스코	-9937
▁맞먹	-9938
▁꾀	-9939
▁직위	-9940
▁카토	-9941
▁팩션	-9942
▁~"	-9943
▁득표수	-9944
ACK	-9945
▁know	-9946
미터	-9947
▁주유	-9948
▁BT	-9949
▁팜	-9950
▁멘붕	-9951
▁쫓기	-9952
▁out	-9953
▁애드	-9954
▁oh	-9955
▁포도	-9956
▁카인	-9957
▁ㄷㅏㅈㅣㅁㅏㄴ	-9958
은이	-9959
▁IIDX	-9960
보라	-9961
▁BA	-9962
▁CB	-9963
▁김구	-9964
▁제너	-9965
▁콰	-9966
▁종로	-9967
▁팬티	-9968
▁갈라지	-9969
▁브레스	-9970
▁분배	-9971
▁피드	-9972
▁방벽	-9973
▁정의당	-9974
▁보복	-9975
▁조항	-9976
▁연세대	-9977
▁제자리	-9978
▁슬슬	-9979
▁투사	-9980
▁거꾸	-9981
▁재질	-9982
▁갸	-9983
▁쳐다보	-9984
▁야망	-9985
페이스	-9986
▁난투	-9987
▁숙청	-9988
▁1976	-9989
처럼	-9990
▁군데	-9991
▁긋	-9992
고사	-9993
tern	-9994
▁감기	-9995
▁후면	-9996
▁레귤	-9997
ins	-9998
▁Kore	-9999
▁극악	-10000
셉트	-10001
ict	-10002
시티	-10003
▁지배자	-10004
▁볼드	-10005
▁이세	-10006
▁313	-10007
▁EV	-10008
▁pr	-10009
▁소꿉친구	-10010
▁리셋	-10011
▁ㅋㅔ	-10012
▁신조	-10013
▁두루	-10014
▁발전소	-10015
긋나	-10016
▁몰아넣	-10017
▁내뱉	-10018
▁132	-10019
▁한정판	-10020
▁내면	-10021
▁상부	-10022
▁난민	-10023
▁LTE	-10024
▁페이크	-10025
▁결의	-10026
▁럭키	-10027
▁!!!	-10028
ange	-10029
▁해고	-10030
▁테이프	-10031
▁찰나	-10032
▁자포	-10033
▁미트	-10034
▁ㄹㄹㅏ	-10035
▁약칭	-10036
ater	-10037
▁제주도	-10038
전설	-10039
▁세츠	-10040
▁표기법	-10041
▁빈약	-10042
▁로그인	-10043
▁테르	-10044
▁Sun	-10045
▁DI	-10046
▁다저스	-10047
▁1972	-10048
▁개판	-10049
▁중후	-10050
▁채찍	-10051
▁바나나	-10052
▁카테고리	-10053
▁근로	-10054
▁페미니즘	-10055
▁수확	-10056
▁set	-10057
▁유비트	-10058
▁겨루	-10059
▁노하	-10060
▁해전	-10061
퍼니	-10062
▁캔디	-10063
▁일산	-10064
▁트랜스포	-10065
▁병종	-10066
레이크	-10067
▁연간	-10068
▁반기	-10069
▁지미	-10070
▁재벌	-10071
▁바이킹	-10072
▁수영복	-10073
▁ㄷㅏㅁㅏㄴ	-10074
ㄱㅣ	-10075
▁표하	-10076
▁츤데레	-10077
▁쑤	-10078
▁선봉	-10079
무이	-10080
▁종전	-10081
▁접전	-10082
▁158	-10083
▁강탈	-10084
▁하지메	-10085
▁환호	-10086
▁여주인공	-10087
▁산소	-10088
▁로렌	-10089
▁메디	-10090
상가	-10091
▁feat	-10092
▁IP	-10093
▁메세지	-10094
▁자카	-10095
▁구독자	-10096
▁탁월	-10097
▁퉁	-10098
▁오딘	-10099
▁구청	-10100
19	-10101
▁GD	-10102
▁제인	-10103
▁정준	-10104
▁도사	-10105
돌프	-10106
▁사각	-10107
▁그랑프리	-10108
▁TP	-10109
▁콧	-10110
▁MO	-10111
▁자작	-10112
▁가설	-10113
▁일조	-10114
▁라시	-10115
▁1977	-10116
▁진짜로	-10117
▁프롤로그	-10118
▁힌트	-10119
고속도로	-10120
▁초점	-10121
▁카이사	-10122
▁대등	-10123
▁스케줄	-10124
▁릴리스	-10125
▁교훈	-10126
▁IV	-10127
▁쿠바	-10128
▁230	-10129
▁서치	-10130
▁ㅇㅡㄹㅣ	-10131
▁내정	-10132
▁응답	-10133
▁레귤러	-10134
▁미도리	-10135
▁구호	-10136
▁수여	-10137
▁르노	-10138
▁신념	-10139
▁폐선	-10140
▁야마모토	-10141
▁관료	-10142
▁진로	-10143
▁거꾸로	-10144
▁이니	-10145
▁유능	-10146
▁프랭크	-10147
▁키드	-10148
▁무궁	-10149
▁High	-10150
▁댐	-10151
▁마가	-10152
▁이점	-10153
▁인트	-10154
활약	-10155
▁뚝	-10156
▁충남	-10157
▁임진	-10158
▁니코니코	-10159
▁깡패	-10160
▁실바	-10161
▁중급	-10162
사스	-10163
▁172	-10164
▁앨런	-10165
▁HS	-10166
▁프로그래	-10167
▁필두	-10168
▁무신	-10169
▁Light	-10170
▁껍질	-10171
▁감금	-10172
▁소비자	-10173
▁줄기	-10174
▁스바루	-10175
▁유라	-10176
▁대명	-10177
▁때려잡	-10178
▁밀어붙이	-10179
▁테레	-10180
▁쥰	-10181
▁개막전	-10182
▁다녀오	-10183
▁리뉴	-10184
▁TE	-10185
천사	-10186
▁바인	-10187
▁치바	-10188
▁헐크	-10189
▁태미	-10190
▁ㄹㅏㅁ	-10191
▁베어	-10192
▁트러	-10193
▁꿇	-10194
che	-10195
ME	-10196
▁스나	-10197
▁피난	-10198
▁컴퍼니	-10199
▁양심	-10200
▁망설이	-10201
민주당	-10202
▁이만	-10203
▁133	-10204
▁순천	-10205
▁혹평	-10206
▁박쥐	-10207
▁정조	-10208
▁덴마크	-10209
▁섭취	-10210
지사	-10211
▁플리	-10212
▁애쉬	-10213
▁LOVE	-10214
▁주식회사	-10215
키스	-10216
▁보트	-10217
▁이순신	-10218
▁공국	-10219
차리	-10220
▁재림	-10221
▁배후	-10222
▁아폴	-10223
▁무색	-10224
▁인텔	-10225
▁캐슬	-10226
▁도스	-10227
▁객관	-10228
▁렀	-10229
▁강서	-10230
▁랜스	-10231
▁팀장	-10232
▁파괴력	-10233
▁차분	-10234
▁Your	-10235
▁기술력	-10236
▁진구	-10237
▁냉기	-10238
▁망상	-10239
▁최하	-10240
▁순찰	-10241
▁얼터	-10242
▁신학	-10243
▁득실	-10244
제스	-10245
▁존슨	-10246
▁Tw	-10247
▁아비	-10248
▁호응	-10249
▁la	-10250
덕션	-10251
▁연달	-10252
▁과감	-10253
▁지붕	-10254
▁미끼	-10255
▁148	-10256
▁지성	-10257
▁급속	-10258
▁라우	-10259
▁수성	-10260
▁사내	-10261
▁여장	-10262
▁통보	-10263
▁박종	-10264
▁최정	-10265
▁윈터	-10266
▁NEW	-10267
▁히나타	-10268
▁고질	-10269
▁따내	-10270
▁출제	-10271
메라	-10272
▁황태	-10273
▁179	-10274
▁제작비	-10275
▁저스티스	-10276
▁Mr	-10277
▁일컫	-10278
▁펭귄	-10279
▁매지	-10280
▁앵커	-10281
▁스톡	-10282
▁메구미	-10283
▁복도	-10284
▁케리건	-10285
▁어벤져스	-10286
▁능숙	-10287
▁OF	-10288
▁찌질	-10289
▁노르웨이	-10290
▁망명	-10291
박이	-10292
▁샤오	-10293
▁조력	-10294
▁소노	-10295
ica	-10296
산역	-10297
▁두근	-10298
▁레슬러	-10299
▁세례	-10300
▁격퇴	-10301
▁파랑	-10302
▁미숙	-10303
▁제지	-10304
▁오른팔	-10305
▁모스크바	-10306
▁성벽	-10307
▁장갑차	-10308
세서리	-10309
▁라이센스	-10310
▁Gen	-10311
▁트랜스포머	-10312
▁GTA	-10313
▁립스	-10314
▁반론	-10315
▁로맨스	-10316
▁쳐들어오	-10317
▁심히	-10318
▁포니	-10319
▁ㅇㅜㅁ	-10320
▁리터	-10321
사고	-10322
▁교시	-10323
▁스팅	-10324
▁Mi	-10325
▁후쿠오카	-10326
▁드로	-10327
▁제대	-10328
IK	-10329
▁사지	-10330
▁156	-10331
교통	-10332
▁잠그	-10333
▁풍경	-10334
▁섹시	-10335
▁사나이	-10336
▁Em	-10337
▁노골	-10338
▁두뇌	-10339
▁am	-10340
▁염두	-10341
▁철갑탄	-10342
▁유타	-10343
▁154	-10344
날두	-10345
▁뒤쪽	-10346
▁종말	-10347
▁ar	-10348
▁파우	-10349
리칸	-10350
▁꼼수	-10351
▁미모	-10352
▁탐구	-10353
▁호날두	-10354
▁청하	-10355
▁시조	-10356
▁사소	-10357
▁혼인	-10358
▁쫓아내	-10359
생기	-10360
▁표창	-10361
ors	-10362
▁비참	-10363
▁Par	-10364
▁교육청	-10365
▁슈가	-10366
▁밧	-10367
▁159	-10368
▁진술	-10369
FL	-10370
▁치마	-10371
▁호무	-10372
▁노래방	-10373
▁능하	-10374
▁레슬링	-10375
▁앞세우	-10376
▁바닷	-10377
▁꾸리	-10378
▁맹활약	-10379
▁진흥	-10380
▁초코	-10381
▁음향	-10382
▁명대사	-10383
▁호구	-10384
▁미세	-10385
▁여수	-10386
▁176	-10387
▁안동	-10388
▁사가	-10389
▁재즈	-10390
▁222	-10391
▁알아차리	-10392
▁죄수	-10393
▁배신자	-10394
HT	-10395
▁사일	-10396
▁냉동	-10397
▁응시	-10398
▁MK	-10399
▁착지	-10400
▁분쇄	-10401
▁오쿠	-10402
▁전반기	-10403
▁비꼬	-10404
▁공립	-10405
▁미호	-10406
▁HARD	-10407
▁블랙홀	-10408
▁게르	-10409
▁발탁	-10410
▁1971	-10411
▁기행	-10412
▁전학	-10413
▁벨라	-10414
▁생태	-10415
▁u	-10416
▁발발	-10417
▁달래	-10418
▁믿음	-10419
▁성폭	-10420
▁코프	-10421
물리	-10422
▁엄폐	-10423
▁테오	-10424
▁범하	-10425
▁129	-10426
▁에그	-10427
▁른	-10428
▁레오나	-10429
▁통틀어	-10430
▁대목	-10431
▁폐허	-10432
▁사르	-10433
▁남양	-10434
▁173	-10435
▁가라앉	-10436
▁현직	-10437
▁핀란드	-10438
클린	-10439
▁OCG	-10440
▁리우스	-10441
▁불리우	-10442
▁전임	-10443
▁수하	-10444
▁FPS	-10445
▁사천왕	-10446
▁계곡	-10447
바스	-10448
티지	-10449
구나	-10450
▁굳히	-10451
퀘어	-10452
▁AE	-10453
▁무너	-10454
▁오리온	-10455
▁무너뜨리	-10456
▁책상	-10457
▁153	-10458
▁굴러	-10459
어붙	-10460
▁PL	-10461
▁천문	-10462
▁명탐정	-10463
▁의아	-10464
▁was	-10465
▁화석	-10466
▁ll	-10467
CH	-10468
▁세키	-10469
▁아니하	-10470
▁텍사스	-10471
▁캘리포	-10472
▁전도	-10473
▁나란히	-10474
▁남한	-10475
▁안드레	-10476
▁드리블	-10477
▁프로덕션	-10478
▁선포	-10479
멘터리	-10480
▁파이프	-10481
▁고음	-10482
▁신주	-10483
▁꽁	-10484
pr	-10485
▁질풍	-10486
▁시뮬레이션	-10487
▁샹	-10488
UT	-10489
▁토막	-10490
▁137	-10491
▁ㅈㅣㅇㅛ	-10492
▁나카무라	-10493
▁물어보	-10494
▁에메랄드	-10495
▁가마	-10496
▁테러리	-10497
▁Kn	-10498
▁풀려나	-10499
eep	-10500
▁맞대	-10501
▁우산	-10502
▁스탈린	-10503
▁Of	-10504
▁죠죠	-10505
▁마신	-10506
▁무단	-10507
▁캘리포니아	-10508
▁지각	-10509
▁호스	-10510
▁혼다	-10511
▁러닝	-10512
▁인플	-10513
슬링	-10514
▁에필	-10515
▁잔해	-10516
▁에필로그	-10517
▁이광	-10518
▁세일러	-10519
▁절정	-10520
▁래스터	-10521
▁오락실	-10522
▁문화재	-10523
▁대안	-10524
▁로스터	-10525
▁~~	-10526
하여	-10527
▁토가	-10528
▁저거	-10529
▁What	-10530
les	-10531
▁영등	-10532
타니	-10533
▁책략	-10534
▁애쓰	-10535
▁목포	-10536
▁ㄹㅏㄷㅓㄴㄱㅏ	-10537
▁교정	-10538
▁두목	-10539
▁이행	-10540
▁GHz	-10541
▁발렌타인	-10542
▁청룡	-10543
▁예방	-10544
▁멋있	-10545
▁배리어	-10546
▁로테이션	-10547
▁스텔라	-10548
▁불문	-10549
▁아랑	-10550
▁골치	-10551
지않	-10552
▁말소	-10553
▁요코하마	-10554
▁먼지	-10555
▁십자군	-10556
▁로열	-10557
▁투성이	-10558
▁장시	-10559
▁280	-10560
▁1969	-10561
▁빅토리아	-10562
▁신세계	-10563
▁델타	-10564
▁총사	-10565
▁유니콘	-10566
▁숭배	-10567
▁BM	-10568
▁얼어붙	-10569
▁슬램	-10570
▁기쁨	-10571
▁야당	-10572
▁다큐멘터리	-10573
아슬	-10574
▁174	-10575
▁아슬아슬	-10576
▁서울시	-10577
▁총선거	-10578
▁225	-10579
▁레바	-10580
▁가로막	-10581
▁골목	-10582
▁면접	-10583
▁엣지	-10584
▁격하	-10585
▁대교	-10586
▁139	-10587
▁Per	-10588
▁중공	-10589
▁163	-10590
더기	-10591
▁134	-10592
▁땀	-10593
▁원망	-10594
▁주파	-10595
▁따라잡	-10596
▁카즈야	-10597
플러스	-10598
▁깽	-10599
▁하의	-10600
▁월요일	-10601
▁167	-10602
▁보디	-10603
▁처녀	-10604
▁심연	-10605
▁열기	-10606
▁미식	-10607
▁버터	-10608
▁오바	-10609
▁143	-10610
▁단의	-10611
▁짤리	-10612
▁Fe	-10613
▁악곡	-10614
▁TO	-10615
▁나사	-10616
▁GPU	-10617
▁분포	-10618
▁Heart	-10619
▁건너가	-10620
▁이준	-10621
▁필라	-10622
볼루션	-10623
▁오타쿠	-10624
▁블라디	-10625
반신	-10626
▁스파이크	-10627
▁해상도	-10628
▁쓸데없이	-10629
▁끝장	-10630
▁스페인어	-10631
총장	-10632
▁최대치	-10633
▁루루	-10634
컨드	-10635
▁누이	-10636
▁Good	-10637
▁부처	-10638
▁로지	-10639
▁그제	-10640
▁세컨드	-10641
▁상장	-10642
▁퍼붓	-10643
▁yout	-10644
▁전광	-10645
▁함성	-10646
▁142	-10647
▁CO	-10648
▁인구수	-10649
▁청사	-10650
▁화약	-10651
▁퍼시	-10652
▁연기력	-10653
▁용의자	-10654
▁2500	-10655
agon	-10656
▁김도	-10657
▁모기	-10658
▁왕관	-10659
▁맞물리	-10660
▁태권	-10661
▁반란군	-10662
▁관광객	-10663
▁전수	-10664
▁패닉	-10665
ert	-10666
▁스윕	-10667
▁164	-10668
▁네스	-10669
공화	-10670
▁항공사	-10671
▁선수단	-10672
▁히카리	-10673
▁인사이드	-10674
▁CN	-10675
▁스토커	-10676
▁트레이닝	-10677
▁무안	-10678
▁비로	-10679
▁유나	-10680
▁beat	-10681
부인	-10682
▁ㄹㅏㄷㅡㄴㄱㅏ	-10683
▁드레드	-10684
▁미유키	-10685
ㅕㅇ	-10686
▁기소	-10687
▁불쾌	-10688
▁추모	-10689
▁구제	-10690
▁하후	-10691
▁pro	-10692
▁스트로	-10693
▁퓨처	-10694
▁끓이	-10695
ㅓㄴㅕㅇ	-10696
▁실로	-10697
EL	-10698
▁해태	-10699
▁야마다	-10700
▁하우	-10701
▁ㄹㅏㄱㅜ	-10702
▁진하	-10703
에몽	-10704
▁발하	-10705
▁거르	-10706
▁ㅡ	-10707
▁틀어	-10708
▁ㄷㅣ	-10709
▁국기	-10710
▁심야	-10711
▁기이	-10712
▁라임	-10713
▁마의	-10714
▁제단	-10715
▁극우	-10716
▁ONE	-10717
던지	-10718
▁왕후	-10719
▁음색	-10720
▁쫓아가	-10721
▁선인	-10722
▁청장	-10723
려보	-10724
▁이인	-10725
▁직격	-10726
▁페르시아	-10727
▁달라	-10728
▁뉴질	-10729
▁뉴질랜드	-10730
▁악령	-10731
▁어긋나	-10732
▁야전	-10733
▁패스트	-10734
▁동아시아	-10735
▁우투	-10736
▁홍성	-10737
▁동이	-10738
▁직통	-10739
▁136	-10740
▁뱉	-10741
▁공고	-10742
▁김연	-10743
▁관계없이	-10744
▁김천	-10745
▁지극	-10746
좀무	-10747
▁흠좀무	-10748
▁쓰러트리	-10749
▁벚꽃	-10750
▁킹덤	-10751
▁콘셉트	-10752
▁회로	-10753
▁징크스	-10754
▁참으로	-10755
▁로브	-10756
▁리부트	-10757
▁제이슨	-10758
▁Dark	-10759
}}	-10760
▁안철수	-10761
▁time	-10762
▁KC	-10763
▁템포	-10764
▁방안	-10765
▁적립	-10766
▁깃들	-10767
▁서장	-10768
▁개그맨	-10769
▁아이스크림	-10770
▁ㅇㅠ	-10771
▁랙	-10772
▁바닐라	-10773
▁일환	-10774
프란	-10775
▁궁전	-10776
백과	-10777
▁알렉산더	-10778
▁오프라인	-10779
▁핸드폰	-10780
립트	-10781
▁사범	-10782
▁타고	-10783
무실	-10784
▁동사	-10785
▁조준경	-10786
▁경찰청	-10787
▁유고	-10788
▁한층	-10789
▁경지	-10790
▁완구	-10791
▁번갈	-10792
▁유해	-10793
▁어린아이	-10794
▁샤를	-10795
▁자부	-10796
디스	-10797
▁텀	-10798
▁훈훈	-10799
무게	-10800
레이트	-10801
▁몸무게	-10802
▁유선	-10803
▁157	-10804
▁1963	-10805
▁숙주	-10806
▁미라이	-10807
▁중심지	-10808
▁체격	-10809
▁술집	-10810
▁죄송	-10811
▁메이트	-10812
▁330	-10813
▁0900	-10814
▁내뿜	-10815
▁중년	-10816
other	-10817
▁모던	-10818
▁세미	-10819
▁카니	-10820
풀이	-10821
▁모양새	-10822
▁연의	-10823
▁혼동	-10824
▁화소	-10825
iew	-10826
▁열세	-10827
▁ab	-10828
▁출고	-10829
▁문신	-10830
ideo	-10831
▁근력	-10832
land	-10833
▁좌파	-10834
▁뮤지션	-10835
▁Sm	-10836
▁정서	-10837
▁순정	-10838
▁방호	-10839
▁외면	-10840
▁앞뒤	-10841
▁배우자	-10842
티넘	-10843
▁양대	-10844
▁전반전	-10845
▁플래티넘	-10846
▁브루스	-10847
▁눈빛	-10848
▁라바	-10849
▁갈리아	-10850
▁사투리	-10851
▁호박	-10852
▁레프	-10853
▁휴스턴	-10854
▁안토니	-10855
애나	-10856
▁하카	-10857
▁브이	-10858
air	-10859
▁창립	-10860
▁패드	-10861
▁Sl	-10862
▁타다	-10863
▁줄리	-10864
지오	-10865
▁연금술사	-10866
▁주한	-10867
▁에일리	-10868
▁대중교통	-10869
▁우천	-10870
▁제우스	-10871
▁1968	-10872
▁제사	-10873
▁270	-10874
▁침해	-10875
▁저조	-10876
▁설탕	-10877
▁성숙	-10878
▁시흥	-10879
▁장례식	-10880
▁출연진	-10881
▁제프	-10882
▁본의	-10883
▁플라스틱	-10884
▁농민	-10885
▁집필	-10886
▁꿰뚫	-10887
▁Blue	-10888
▁냅	-10889
▁투신	-10890
▁타당	-10891
▁Baby	-10892
▁오키나	-10893
ator	-10894
▁AG	-10895
▁저러	-10896
▁나뭇	-10897
▁고자	-10898
▁해독	-10899
▁ㄹㄹㅕㄱㅗ	-10900
▁박상	-10901
▁미니언	-10902
▁외관	-10903
▁코즈	-10904
▁이아	-10905
▁도시락	-10906
▁클라우드	-10907
▁......	-10908
oot	-10909
▁워너	-10910
▁스케이	-10911
▁신수	-10912
▁전열	-10913
▁환사	-10914
anna	-10915
▁테러리스트	-10916
▁Ac	-10917
▁대진	-10918
▁유코	-10919
▁장풍	-10920
▁헤일	-10921
▁샤워	-10922
▁초교	-10923
▁기피	-10924
▁깨알	-10925
▁선교	-10926
▁김대중	-10927
▁하이브리	-10928
▁동호	-10929
▁벌금	-10930
▁저희	-10931
▁하이브리드	-10932
▁수시로	-10933
▁테루	-10934
▁세스	-10935
▁전라북도	-10936
▁더구나	-10937
▁무수	-10938
▁부사관	-10939
▁방언	-10940
▁청나라	-10941
▁미티	-10942
▁베일	-10943
▁우상	-10944
▁자칫	-10945
ush	-10946
▁집합	-10947
▁히로시마	-10948
▁모어	-10949
▁브레인	-10950
▁취지	-10951
▁담임	-10952
▁하시	-10953
▁149	-10954
▁오비	-10955
▁심상	-10956
▁방공	-10957
▁몰아붙이	-10958
▁하비	-10959
▁강세	-10960
▁브론즈	-10961
▁악하	-10962
▁센트럴	-10963
▁각국	-10964
▁사탄	-10965
▁적성	-10966
▁넉넉	-10967
▁되살리	-10968
▁희대	-10969
▁총독	-10970
▁146	-10971
▁상쇄	-10972
▁후루	-10973
▁푹	-10974
▁허브	-10975
▁경제학	-10976
▁트러블	-10977
▁황실	-10978
▁가혹	-10979
▁로라	-10980
▁모함	-10981
▁확고	-10982
▁야만	-10983
▁Li	-10984
▁OK	-10985
▁조교	-10986
▁공모	-10987
▁멜론	-10988
▁쳐내	-10989
▁마켓	-10990
▁Fire	-10991
르도	-10992
카미	-10993
▁지난	-10994
▁마초	-10995
▁체스	-10996
▁지문	-10997
na	-10998
▁기함	-10999
▁남미	-11000
토리얼	-11001
▁격전	-11002
▁하여금	-11003
▁연회	-11004
▁거품	-11005
▁브레이브	-11006
▁암컷	-11007
▁후쿠시마	-11008
▁튜토리얼	-11009
▁상공	-11010
▁기하	-11011
▁줌	-11012
▁찰리	-11013
▁260	-11014
▁낡	-11015
▁공영	-11016
▁일삼	-11017
▁오리진	-11018
▁주의자	-11019
▁심화	-11020
▁종착	-11021
▁털어놓	-11022
▁프로토타입	-11023
▁리액	-11024
▁장동	-11025
▁유니온	-11026
▁El	-11027
▁섹스	-11028
▁페이커	-11029
▁방화	-11030
▁마테	-11031
▁크롤	-11032
▁sm	-11033
▁소사	-11034
▁월등	-11035
▁프렌즈	-11036
▁루키	-11037
▁빈틈	-11038
▁럴	-11039
▁라프	-11040
▁소리치	-11041
▁경과	-11042
▁말년	-11043
▁병장	-11044
▁웨인	-11045
▁아르카	-11046
▁Dis	-11047
OID	-11048
▁랩터	-11049
글라스	-11050
▁쎄	-11051
▁초상화	-11052
▁레이너	-11053
▁맥락	-11054
▁슈터	-11055
▁인체	-11056
전트	-11057
ady	-11058
▁공손	-11059
▁밀어주	-11060
▁실력자	-11061
▁일레븐	-11062
▁ㅏㅇㅑ	-11063
넘기	-11064
더슨	-11065
▁일품	-11066
▁클러	-11067
▁주가	-11068
▁BEMAN	-11069
단지	-11070
▁kr	-11071
▁원자력	-11072
▁고추	-11073
▁브랜	-11074
▁오세	-11075
▁미스터리	-11076
▁개미	-11077
▁합법	-11078
▁타카시	-11079
▁오의	-11080
▁석상	-11081
▁중학생	-11082
▁고성	-11083
▁파격	-11084
▁신병	-11085
▁핸들	-11086
▁포워드	-11087
▁하라	-11088
두사	-11089
▁운반	-11090
▁적재	-11091
▁프로모	-11092
▁별칭	-11093
베트	-11094
▁켄지	-11095
▁격기	-11096
▁속력	-11097
▁편견	-11098
▁ㅓㅆㅇㅓㅆ	-11099
▁수량	-11100
▁자질	-11101
▁DJMAX	-11102
▁미즈키	-11103
▁BEMANI	-11104
▁문법	-11105
나리	-11106
▁무선	-11107
▁생선	-11108
▁져	-11109
▁부친	-11110
티노	-11111
▁미로	-11112
▁파손	-11113
▁도검	-11114
토랑	-11115
▁뒷면	-11116
▁레스토랑	-11117
▁fl	-11118
▁빈번	-11119
▁Champ	-11120
▁ㄷㅓㄹㅏㅁㅕㄴ	-11121
메어	-11122
▁속공	-11123
▁말아먹	-11124
▁불화	-11125
▁가성	-11126
▁연말	-11127
▁우편	-11128
▁리바운드	-11129
▁성기	-11130
▁다이노스	-11131
ution	-11132
▁프랜차	-11133
▁다면	-11134
▁통행	-11135
▁STR	-11136
▁cc	-11137
▁호출	-11138
▁본가	-11139
앙스	-11140
▁아까	-11141
▁주고	-11142
▁므	-11143
▁명명	-11144
▁하반기	-11145
▁발차기	-11146
▁유유	-11147
▁수령	-11148
레드	-11149
▁스트리밍	-11150
▁쐐	-11151
▁격리	-11152
레슬링	-11153
▁가브리	-11154
▁피카츄	-11155
▁유승	-11156
▁소령	-11157
▁박명수	-11158
▁데스티니	-11159
스틴	-11160
▁Pre	-11161
▁매기	-11162
▁북구	-11163
사벽	-11164
▁넘사벽	-11165
▁재빨리	-11166
▁Ev	-11167
▁프랜차이즈	-11168
▁프로레슬링	-11169
▁205	-11170
▁뚜껑	-11171
▁수컷	-11172
▁맴	-11173
▁1967	-11174
저드	-11175
더링	-11176
구역	-11177
▁솜씨	-11178
▁나이트메어	-11179
▁자각	-11180
▁평창	-11181
▁퇴역	-11182
▁당국	-11183
▁뉘앙스	-11184
엘라	-11185
▁추출	-11186
▁DB	-11187
▁정형	-11188
▁대승	-11189
▁독립운동	-11190
▁앤디	-11191
▁선곡	-11192
와라	-11193
▁증인	-11194
▁앞면	-11195
▁니나	-11196
▁프리즘	-11197
▁경질	-11198
ㅏㄴㅣ	-11199
▁박용	-11200
▁신임	-11201
▁이방	-11202
▁잊어버리	-11203
▁정체불명	-11204
▁일례	-11205
▁전염	-11206
▁하와	-11207
▁뽐	-11208
▁원흉	-11209
▁탯이	-11210
▁클립	-11211
석민	-11212
▁무죄	-11213
치아	-11214
▁단식	-11215
▁간호사	-11216
ium	-11217
▁550	-11218
▁우파	-11219
▁RP	-11220
▁애국	-11221
▁GG	-11222
▁정재	-11223
▁네코	-11224
▁아메리칸	-11225
▁부관	-11226
▁타나카	-11227
▁교통사고	-11228
▁운석	-11229
▁질환	-11230
▁Summer	-11231
듈럼	-11232
▁동로	-11233
▁우가	-11234
▁가의	-11235
▁147	-11236
▁광전사	-11237
▁나열	-11238
▁강점기	-11239
▁디비전	-11240
▁석사	-11241
▁나레이션	-11242
▁개개	-11243
▁츠바사	-11244
▁여관	-11245
▁메우	-11246
▁수수료	-11247
미르	-11248
▁몹시	-11249
▁오시	-11250
▁드릴	-11251
▁Grand	-11252
▁블래	-11253
▁Rock	-11254
▁노블	-11255
▁범행	-11256
▁호그	-11257
▁조그	-11258
▁미들	-11259
▁퓨리	-11260
▁콕	-11261
▁원작자	-11262
▁back	-11263
리드	-11264
▁넥서스	-11265
▁게임즈	-11266
▁미팅	-11267
▁우체	-11268
▁푼	-11269
▁무고	-11270
▁서두르	-11271
▁잖	-11272
▁추궁	-11273
▁펜듈럼	-11274
▁플레어	-11275
▁하드웨어	-11276
▁뭔	-11277
▁동년	-11278
▁저것	-11279
▁타고나	-11280
▁무명	-11281
▁토마토	-11282
▁입국	-11283
통수	-11284
▁SCP	-11285
▁211	-11286
퍼드	-11287
▁쫓아오	-11288
gain	-11289
▁동등	-11290
▁멀리서	-11291
모어	-11292
▁내셔널	-11293
▁페인	-11294
▁브라우	-11295
▁버릇	-11296
▁탄탄	-11297
▁유신	-11298
▁전두	-11299
▁now	-11300
▁줄어드	-11301
▁총평	-11302
현우	-11303
▁폴리스	-11304
▁특이점	-11305
▁통수	-11306
▁배속	-11307
▁복면	-11308
▁떄	-11309
▁원종	-11310
▁유무	-11311
▁Over	-11312
▁공습	-11313
▁만루	-11314
▁전례	-11315
▁체형	-11316
▁This	-11317
▁대외	-11318
▁메모	-11319
▁아이폰	-11320
▁권능	-11321
▁코지	-11322
▁day	-11323
▁군림	-11324
▁사슴	-11325
▁인어	-11326
▁싣	-11327
▁재활	-11328
▁감전	-11329
▁퓨어	-11330
▁환수	-11331
▁게시물	-11332
▁영등포	-11333
▁은메달	-11334
▁강팀	-11335
고래	-11336
▁심문	-11337
노스케	-11338
ction	-11339
▁텅	-11340
▁더하	-11341
▁십자가	-11342
▁대패	-11343
▁호노	-11344
▁사교	-11345
▁에바	-11346
▁그리드	-11347
▁무슬	-11348
▁포식	-11349
▁아래쪽	-11350
▁힐링	-11351
▁LED	-11352
▁Dance	-11353
▁말레이시아	-11354
▁But	-11355
평가	-11356
▁실루	-11357
▁속박	-11358
▁온몸	-11359
▁제보	-11360
▁살인마	-11361
▁레이첼	-11362
▁리키	-11363
▁한강	-11364
▁방과	-11365
▁광속	-11366
▁알렉산드	-11367
▁루팡	-11368
▁관절	-11369
▁파문	-11370
▁함재기	-11371
▁DR	-11372
ㄹㅐ	-11373
▁별자리	-11374
▁동북	-11375
▁배송	-11376
▁염색	-11377
▁무제한	-11378
▁대군	-11379
▁홀딩	-11380
▁보구	-11381
▁옌	-11382
ne	-11383
결승	-11384
▁점사	-11385
irst	-11386
▁셰프	-11387
▁노비	-11388
▁미스트	-11389
▁진도	-11390
▁내구력	-11391
▁밀치	-11392
▁VOC	-11393
▁길거리	-11394
▁호투	-11395
▁픽셀	-11396
▁이창	-11397
▁교내	-11398
파리	-11399
▁격침	-11400
▁박탈	-11401
▁SL	-11402
▁화내	-11403
▁직속	-11404
▁노트북	-11405
▁우물	-11406
▁어느새	-11407
▁새우	-11408
▁통증	-11409
트랙	-11410
▁Wii	-11411
▁불평	-11412
▁채취	-11413
▁경순	-11414
▁라파	-11415
▁오디오	-11416
▁MSL	-11417
▁속편	-11418
▁요리사	-11419
▁공천	-11420
▁발현	-11421
▁발라드	-11422
▁미수	-11423
▁박찬	-11424
▁박재	-11425
▁가창	-11426
ount	-11427
▁무슬림	-11428
▁Ste	-11429
▁쫄	-11430
▁여배우	-11431
▁목재	-11432
기사	-11433
츠카	-11434
▁카우	-11435
▁Gold	-11436
▁보행	-11437
▁리엘	-11438
▁박영	-11439
▁기괴	-11440
▁클레이	-11441
▁자격증	-11442
▁ㄹㅈㅣㄹㅏㄷㅗ	-11443
▁라드	-11444
▁성직자	-11445
자동	-11446
▁네놈	-11447
▁시초	-11448
▁해적단	-11449
▁성비	-11450
박히	-11451
▁3164	-11452
▁머릿	-11453
▁HG	-11454
▁캐스트	-11455
느님	-11456
▁포효	-11457
▁격투기	-11458
콥터	-11459
▁하행	-11460
▁교양	-11461
▁상행	-11462
▁무사시	-11463
현진	-11464
▁Just	-11465
▁DX	-11466
▁닉스	-11467
▁왕좌	-11468
▁누명	-11469
▁스퀘어	-11470
▁구타	-11471
▁동문	-11472
▁셋째	-11473
▁안드로	-11474
▁증가량	-11475
▁지지자	-11476
▁남발	-11477
▁줄줄	-11478
▁스네이크	-11479
▁동메달	-11480
▁타치바나	-11481
▁단말	-11482
▁하느님	-11483
let	-11484
▁성수	-11485
▁첫날	-11486
▁1966	-11487
▁HK	-11488
ring	-11489
▁농락	-11490
▁뒤통수	-11491
줌마	-11492
▁동조	-11493
▁국민당	-11494
▁대공포	-11495
▁지온	-11496
▁일일이	-11497
▁news	-11498
▁빌보드	-11499
▁FL	-11500
▁달라붙	-11501
▁좁히	-11502
▁어설프	-11503
▁미사키	-11504
▁둥글	-11505
▁여친	-11506
▁증발	-11507
▁기획사	-11508
▁방송인	-11509
▁삼촌	-11510
저것	-11511
▁창세	-11512
▁204	-11513
▁이것저것	-11514
▁아줌마	-11515
▁수강	-11516
▁륙	-11517
▁돌아보	-11518
▁찢어지	-11519
▁멸종	-11520
▁손톱	-11521
플렉스	-11522
▁명나라	-11523
▁별점	-11524
eng	-11525
▁DNA	-11526
▁물가	-11527
▁번식	-11528
▁제스	-11529
▁대쉬	-11530
어쓰	-11531
▁쇼트	-11532
▁리턴	-11533
무네	-11534
DS	-11535
▁회견	-11536
▁샌프란	-11537
▁샌프란시스코	-11538
▁몰아내	-11539
▁혼합	-11540
▁뷔	-11541
▁166	-11542
레일	-11543
▁공존	-11544
▁크리스토	-11545
▁스킵	-11546
▁독수리	-11547
▁회복력	-11548
▁카구라	-11549
▁한숨	-11550
▁휩싸	-11551
▁비즈	-11552
▁경감	-11553
▁사망자	-11554
▁TW	-11555
ports	-11556
▁책정	-11557
▁기합	-11558
▁스크립트	-11559
▁쓸어버리	-11560
▁커트	-11561
두리	-11562
▁복용	-11563
▁급히	-11564
▁시가	-11565
▁오키나와	-11566
메스	-11567
▁pt	-11568
▁괴력	-11569
▁사모	-11570
▁친목	-11571
▁후대	-11572
▁셸	-11573
▁직무	-11574
▁공자	-11575
▁소서	-11576
▁정정	-11577
▁재사	-11578
소수	-11579
▁프로모션	-11580
▁정크	-11581
▁동족	-11582
▁Can	-11583
▁사료	-11584
자재	-11585
▁트렌	-11586
▁다이스케	-11587
▁Korea	-11588
산동	-11589
▁주심	-11590
▁회귀	-11591
▁명곡	-11592
▁반짝이	-11593
▁인쇄	-11594
▁롤링	-11595
▁악어	-11596
▁현상금	-11597
▁단과	-11598
▁기술자	-11599
▁코바야시	-11600
▁회오리	-11601
▁FB	-11602
▁접어들	-11603
▁계란	-11604
▁CA	-11605
▁사우루스	-11606
▁슬로우	-11607
파크	-11608
ina	-11609
▁카이토	-11610
프라	-11611
▁호프	-11612
▁VOCAL	-11613
스트림	-11614
▁포대	-11615
▁이례	-11616
▁만행	-11617
▁비로소	-11618
▁실습	-11619
▁키트	-11620
▁박치기	-11621
▁헬리콥터	-11622
▁토이	-11623
▁회심	-11624
ally	-11625
▁아카리	-11626
▁카르마	-11627
▁분장	-11628
▁도라에몽	-11629
▁연고지	-11630
▁필터	-11631
▁박해	-11632
▁김원	-11633
상가상	-11634
▁설상가상	-11635
▁하리	-11636
▁얕	-11637
▁KTX	-11638
보그	-11639
▁캐리어	-11640
ERO	-11641
▁고조	-11642
▁인천광역시	-11643
▁반군	-11644
▁장원	-11645
▁부류	-11646
▁Sec	-11647
▁피스트	-11648
▁미하	-11649
▁경보	-11650
▁홍진호	-11651
▁가나	-11652
▁스냅	-11653
ㅋㅓㄴㅕㅇ	-11654
OO	-11655
▁로컬	-11656
▁비타	-11657
UR	-11658
▁니카	-11659
▁미판	-11660
▁진수	-11661
▁650	-11662
▁빠뜨리	-11663
▁브릿	-11664
▁듀크	-11665
▁문어	-11666
▁신정	-11667
조합	-11668
▁슬퍼	-11669
▁광대	-11670
▁유정	-11671
▁난감	-11672
▁MHz	-11673
소문	-11674
▁프린스	-11675
▁시부	-11676
▁At	-11677
▁디렉터	-11678
▁Music	-11679
▁++	-11680
▁타시	-11681
▁EBS	-11682
▁똑똑	-11683
▁재직	-11684
▁병살타	-11685
▁셉	-11686
▁선우	-11687
▁우메	-11688
티콘	-11689
▁루마니아	-11690
▁이속	-11691
▁미성년	-11692
▁천마	-11693
▁박경	-11694
▁유영	-11695
네이터	-11696
▁분홍색	-11697
▁살상	-11698
▁가급	-11699
▁유난	-11700
마당	-11701
▁Su	-11702
▁ㅋㅋ	-11703
▁감행	-11704
▁태극	-11705
▁보살	-11706
▁엘리스	-11707
▁개연	-11708
▁무진	-11709
▁퍼센트	-11710
▁김형	-11711
▁파수	-11712
▁로저	-11713
니카	-11714
▁아이유	-11715
▁퐁	-11716
▁1962	-11717
▁짚	-11718
▁Ep	-11719
▁바티	-11720
▁리플렉	-11721
▁괴상	-11722
▁입양	-11723
▁실루엣	-11724
▁프랑크	-11725
▁딸기	-11726
▁총열	-11727
▁갈아타	-11728
▁조직원	-11729
▁홈즈	-11730
▁망령	-11731
▁아타	-11732
▁피치	-11733
▁열람	-11734
▁해치우	-11735
▁습관	-11736
바다	-11737
▁쿠시	-11738
▁스완	-11739
▁끼어들	-11740
▁로코	-11741
▁츠나	-11742
▁한발	-11743
▁텍스	-11744
▁Live	-11745
▁뽕	-11746
▁대마	-11747
▁레이트	-11748
▁학점	-11749
▁get	-11750
▁레즈	-11751
ART	-11752
▁장학	-11753
▁그리하여	-11754
누르	-11755
▁항아리	-11756
▁악의	-11757
▁춘천	-11758
▁단정	-11759
▁Comm	-11760
▁진리	-11761
널드	-11762
▁험하	-11763
▁GN	-11764
▁어퍼	-11765
▁에도	-11766
얼거리	-11767
▁관직	-11768
▁달빛	-11769
▁가미	-11770
▁야외	-11771
▁예지	-11772
▁암울	-11773
▁고토	-11774
▁목동	-11775
▁케이지	-11776
▁카가미	-11777
▁서태	-11778
▁콜롬	-11779
장난	-11780
▁레기	-11781
▁양보	-11782
▁저렇게	-11783
▁판권	-11784
젤레스	-11785
▁요시다	-11786
▁BF	-11787
use	-11788
▁고릴라	-11789
▁ㄴㄷㅡㄹ	-11790
▁발광	-11791
▁세탁	-11792
▁갈라	-11793
▁금색	-11794
▁경유지	-11795
▁후문	-11796
▁주거	-11797
▁MX	-11798
▁위키백과	-11799
▁기법	-11800
▁강수	-11801
▁빼내	-11802
▁파벌	-11803
▁대인배	-11804
son	-11805
▁키무라	-11806
▁돌격소총	-11807
▁사이보그	-11808
▁리티	-11809
▁UF	-11810
▁천공	-11811
▁169	-11812
▁클라이	-11813
▁받치	-11814
▁용감	-11815
▁응하	-11816
▁`	-11817
▁바그	-11818
▁도청	-11819
▁진성	-11820
▁오케스트라	-11821
▁저서	-11822
▁고든	-11823
▁연발	-11824
▁뇌물	-11825
▁안보	-11826
▁man	-11827
▁사스케	-11828
▁요시노	-11829
▁똘	-11830
▁1800	-11831
일라	-11832
▁김명	-11833
▁투니	-11834
▁산책	-11835
▁레이나	-11836
▁카에	-11837
▁바주	-11838
▁구급	-11839
▁전속	-11840
▁북아	-11841
▁경쟁자	-11842
▁gr	-11843
▁한탄	-11844
▁코요	-11845
문트	-11846
▁단속	-11847
▁천둥	-11848
▁소절	-11849
▁바니	-11850
▁서민	-11851
▁베이더	-11852
itch	-11853
▁코다	-11854
관총	-11855
▁섀도	-11856
▁실업	-11857
▁디펜스	-11858
tr	-11859
▁번트	-11860
▁영진	-11861
ㅇㅘ	-11862
▁but	-11863
▁커비	-11864
▁1944	-11865
▁꽂히	-11866
▁돌이	-11867
▁타니	-11868
reen	-11869
▁GR	-11870
▁어미	-11871
▁외롭	-11872
▁잠재력	-11873
==	-11874
▁Res	-11875
▁Power	-11876
▁수용소	-11877
▁1940	-11878
▁ㄴㄷㅏㄷㅓㄴㄱㅏ	-11879
▁Leg	-11880
▁Af	-11881
▁로저스	-11882
attle	-11883
▁그랜	-11884
▁급기	-11885
▁우습	-11886
▁주황색	-11887
▁재사용	-11888
▁귀하	-11889
▁숙이	-11890
inn	-11891
▁스퍼	-11892
▁페이트	-11893
▁슬퍼하	-11894
▁차용	-11895
▁배상	-11896
▁결사	-11897
▁법안	-11898
▁볼텍스	-11899
▁남작	-11900
▁행방불명	-11901
▁제다이	-11902
▁처절	-11903
▁은혜	-11904
▁치사	-11905
▁Hard	-11906
▁추적자	-11907
▁RC	-11908
▁교관	-11909
▁조력자	-11910
▁MR	-11911
▁송출	-11912
▁영남	-11913
▁월급	-11914
▁Pv	-11915
▁열악	-11916
▁자판	-11917
▁청원	-11918
▁히토미	-11919
▁접점	-11920
▁혹사	-11921
▁따라다니	-11922
못미	-11923
▁감히	-11924
▁런닝	-11925
▁거스르	-11926
▁지못미	-11927
▁고산	-11928
▁넓히	-11929
▁장제스	-11930
▁공약	-11931
▁UI	-11932
▁저상	-11933
▁크리스티	-11934
▁마요	-11935
▁쿠루	-11936
▁전산	-11937
▁냉각	-11938
▁닫히	-11939
▁리조	-11940
▁준결승	-11941
▁ARM	-11942
▁마운드	-11943
▁워낙에	-11944
아라	-11945
▁경선	-11946
▁채집	-11947
▁코이	-11948
▁호로	-11949
징어	-11950
▁Ma	-11951
▁수복	-11952
▁쐐기	-11953
▁직결	-11954
쌔신	-11955
▁카즈마	-11956
▁Sing	-11957
▁어쌔신	-11958
▁편안	-11959
▁Che	-11960
▁카를로스	-11961
▁배기	-11962
▁카밀	-11963
놀이	-11964
▁여정	-11965
▁노려보	-11966
▁베인	-11967
▁출근	-11968
▁출중	-11969
장이	-11970
75	-11971
▁매너	-11972
▁켈리	-11973
▁진행자	-11974
▁Life	-11975
니클	-11976
ern	-11977
▁co	-11978
▁구두	-11979
▁동요	-11980
▁기복	-11981
XT	-11982
▁공과	-11983
▁보잉	-11984
▁준공	-11985
▁미코토	-11986
▁천주교	-11987
▁독서	-11988
▁블래스트	-11989
▁제원	-11990
▁Master	-11991
▁응원가	-11992
▁트리스	-11993
▁쪼개	-11994
▁선방	-11995
TC	-11996
▁ADV	-11997
▁모닝	-11998
▁ㄴㅡㄴㅣ	-11999
▁가호	-12000
규모	-12001
▁무르	-12002
큘라	-12003
ars	-12004
▁김두한	-12005
▁키사	-12006
▁미끄	-12007
▁실정	-12008
▁여권	-12009
▁주고받	-12010
▁무효화	-12011
▁정확도	-12012
토르	-12013
▁im	-12014
▁제라	-12015
▁망가	-12016
▁나들	-12017
▁슬리	-12018
▁호기심	-12019
▁무빙	-12020
▁Rem	-12021
준표	-12022
▁전두환	-12023
▁설화	-12024
▁부럽	-12025
▁코파	-12026
▁전세	-12027
▁튜닝	-12028
▁나들목	-12029
▁예언자	-12030
▁VOCALOID	-12031
▁탈당	-12032
asy	-12033
▁화나	-12034
▁광탈	-12035
▁불신	-12036
▁징징	-12037
▁휴게소	-12038
니스트	-12039
to	-12040
▁훅	-12041
▁토로	-12042
▁LCK	-12043
▁출루율	-12044
총리	-12045
▁Lo	-12046
▁한도	-12047
▁농사	-12048
▁동탁	-12049
▁일어서	-12050
rain	-12051
▁헤매	-12052
▁반대편	-12053
▁러시아어	-12054
▁형편없	-12055
▁불어	-12056
▁뷰티	-12057
▁데우스	-12058
▁민정	-12059
▁비장	-12060
▁Fem	-12061
▁시가지	-12062
▁원활	-12063
▁야심	-12064
▁사안	-12065
▁사출	-12066
▁동체	-12067
IE	-12068
▁당첨	-12069
▁1930	-12070
▁충청북도	-12071
▁네이트	-12072
▁부흥	-12073
▁Out	-12074
▁카오리	-12075
▁쩔	-12076
▁노기	-12077
▁다짐	-12078
UE	-12079
▁이변	-12080
▁리전	-12081
▁소매	-12082
▁픽업	-12083
▁실명	-12084
▁더욱이	-12085
▁증기	-12086
▁지주	-12087
▁카디	-12088
▁부당	-12089
ana	-12090
▁열등	-12091
▁카노	-12092
▁교향	-12093
▁테일러	-12094
▁근성	-12095
▁더비	-12096
▁탬	-12097
▁매칭	-12098
▁댄서	-12099
심장	-12100
▁농협	-12101
▁시에	-12102
▁자처	-12103
▁늦추	-12104
▁창병	-12105
▁무림	-12106
▁매출액	-12107
▁체리	-12108
▁금호	-12109
▁차후	-12110
▁OPS	-12111
마침	-12112
▁일절	-12113
차례	-12114
▁마차	-12115
▁뽐내	-12116
▁센티	-12117
▁궤적	-12118
▁사당	-12119
▁서지	-12120
▁저리	-12121
▁포트리스	-12122
▁상용	-12123
▁태자	-12124
테이	-12125
▁OB	-12126
▁금화	-12127
▁포맷	-12128
▁151	-12129
▁자회사	-12130
cl	-12131
▁간선	-12132
ield	-12133
▁구단주	-12134
▁친정	-12135
▁목적지	-12136
▁매달	-12137
▁보리	-12138
▁음주	-12139
▁이질	-12140
▁득점자	-12141
▁때마침	-12142
▁동지	-12143
▁등교	-12144
▁문고	-12145
▁999	-12146
▁어리석	-12147
▁내수	-12148
▁모범	-12149
▁유방	-12150
▁학술	-12151
▁허공	-12152
▁막아	-12153
▁아델	-12154
24	-12155
년기	-12156
▁중전차	-12157
▁괴리	-12158
▁End	-12159
▁준하	-12160
▁256	-12161
▁지극히	-12162
riend	-12163
▁숀	-12164
▁POP	-12165
▁Hell	-12166
▁성역	-12167
▁이은	-12168
▁군복	-12169
▁세레	-12170
▁인벤토리	-12171
무소	-12172
▁신칸	-12173
대기	-12174
▁팔찌	-12175
▁유난히	-12176
atic	-12177
▁코타로	-12178
▁아이리스	-12179
▁깽판	-12180
▁사극	-12181
▁just	-12182
▁1964	-12183
▁교감	-12184
▁동갑	-12185
▁초선	-12186
▁1965	-12187
코어	-12188
클럽	-12189
▁Fi	-12190
▁수험	-12191
▁잔디	-12192
▁이노우	-12193
▁지표	-12194
▁부대원	-12195
▁부호	-12196
▁서해	-12197
▁세세	-12198
▁필연	-12199
▁스타팅	-12200
▁소시	-12201
▁못지않	-12202
▁이용해	-12203
▁아이언맨	-12204
▁수식	-12205
지부	-12206
▁안성	-12207
▁충북	-12208
▁함포	-12209
▁김일성	-12210
▁클레어	-12211
▁신칸센	-12212
▁ㄷㅏㄱㅣ	-12213
▁""	-12214
▁불로	-12215
▁법학	-12216
▁시스터	-12217
▁확립	-12218
▁휩싸이	-12219
▁배열	-12220
▁PVP	-12221
▁Miss	-12222
33	-12223
▁빅토르	-12224
▁억지	-12225
▁sc	-12226
▁가뜩	-12227
▁세일	-12228
▁애교	-12229
ittle	-12230
▁숏	-12231
▁본성	-12232
▁엿보	-12233
▁아몬	-12234
▁커먼	-12235
▁리마	-12236
▁절규	-12237
▁야마구치	-12238
▁발악	-12239
▁퀄컴	-12240
▁향기	-12241
▁구절	-12242
▁파파	-12243
▁Air	-12244
▁night	-12245
▁타나	-12246
▁쑥	-12247
▁반갑	-12248
▁순교	-12249
▁q	-12250
▁SG	-12251
▁스캔들	-12252
▁개개인	-12253
▁what	-12254
▁애시	-12255
▁포토	-12256
▁집중력	-12257
▁대법원	-12258
▁영동	-12259
▁웨어	-12260
▁가뜩이나	-12261
▁교직	-12262
▁아카이	-12263
▁6000	-12264
▁신대	-12265
▁카스미	-12266
▁조폭	-12267
LS	-12268
동원	-12269
▁에일리언	-12270
▁반항	-12271
▁중견수	-12272
▁설비	-12273
▁아홉	-12274
▁김택	-12275
▁오징어	-12276
▁팔라딘	-12277
▁Vo	-12278
▁케로	-12279
▁서정	-12280
▁후예	-12281
▁연구실	-12282
▁이치고	-12283
▁380	-12284
▁ㄱㅓㄴㅣ	-12285
▁트로이	-12286
▁럼블	-12287
▁가급적	-12288
▁일본식	-12289
▁악랄	-12290
▁랜턴	-12291
▁액셀	-12292
▁Hy	-12293
▁바비	-12294
▁역병	-12295
▁콜드	-12296
▁초당	-12297
▁자크	-12298
▁신흥	-12299
▁직역	-12300
▁학번	-12301
블릿	-12302
▁스타크	-12303
▁VR	-12304
▁왠만	-12305
▁쿠파	-12306
▁소감	-12307
▁소동	-12308
▁Mod	-12309
▁손아	-12310
▁수녀	-12311
▁출몰	-12312
▁자주포	-12313
뮤직	-12314
▁바주카	-12315
▁샤크	-12316
▁고폭탄	-12317
▁국산	-12318
▁레몬	-12319
▁직구	-12320
▁EMP	-12321
▁볼륨	-12322
▁야드	-12323
▁임원	-12324
▁폿	-12325
▁넥슨	-12326
레스트	-12327
▁스콧	-12328
▁1920	-12329
▁게릴라	-12330
▁설계도	-12331
▁성형	-12332
▁차관	-12333
▁패미	-12334
▁포지	-12335
▁양측	-12336
▁즉각	-12337
▁토오루	-12338
▁쏠쏠	-12339
▁토네	-12340
▁로딩	-12341
▁페르난	-12342
28	-12343
▁강행	-12344
▁노엘	-12345
▁서대	-12346
▁시코	-12347
▁Di	-12348
▁챌린저	-12349
▁승려	-12350
▁YOU	-12351
▁라틴어	-12352
▁상체	-12353
▁MT	-12354
▁차선	-12355
▁페니	-12356
▁따돌리	-12357
▁접근성	-12358
▁한심	-12359
▁강판	-12360
▁전폭	-12361
▁무전	-12362
▁마도사	-12363
▁그려	-12364
▁뮬	-12365
▁연비	-12366
▁퍼부	-12367
사관	-12368
▁하타	-12369
▁패기	-12370
▁King	-12371
▁자신감	-12372
▁Sy	-12373
▁가르침	-12374
▁조영	-12375
▁공산주의	-12376
▁칙	-12377
▁예장	-12378
▁총탄	-12379
▁Ang	-12380
▁드라군	-12381
▁수상자	-12382
▁매스	-12383
▁살피	-12384
▁소규모	-12385
▁일렉트로	-12386
▁최영	-12387
▁XXX	-12388
▁마에다	-12389
▁노조미	-12390
▁상가	-12391
▁도요	-12392
▁정동	-12393
▁자수	-12394
▁타케시	-12395
▁EA	-12396
▁기성	-12397
▁노이즈	-12398
▁밋	-12399
이센	-12400
▁진료	-12401
▁바루	-12402
▁건재	-12403
▁악용	-12404
▁파이브	-12405
▁승천	-12406
▁오로라	-12407
▁수고	-12408
▁페가	-12409
▁용맹	-12410
숨에	-12411
포드	-12412
▁리에	-12413
▁시몬	-12414
▁적진	-12415
▁호쿠	-12416
▁단숨에	-12417
ony	-12418
▁tvN	-12419
▁에밀리	-12420
란트	-12421
▁첨단	-12422
▁IG	-12423
▁빈사	-12424
▁ㅇㅣㅇㅑㅁㅏㄹㄹㅗ	-12425
무기	-12426
▁리우	-12427
테이너	-12428
▁전리	-12429
▁광신	-12430
▁밀집	-12431
▁박격	-12432
▁펠리	-12433
▁먹방	-12434
▁다비	-12435
▁허위	-12436
▁카타르	-12437
▁파인	-12438
▁초사	-12439
▁퇴출	-12440
▁태조	-12441
▁0000	-12442
▁샤프	-12443
▁크루즈	-12444
▁인터페이스	-12445
로프	-12446
▁타국	-12447
▁밉	-12448
▁콘티	-12449
▁깁	-12450
▁ㅇㅜㄹ	-12451
▁딱딱	-12452
▁생산력	-12453
▁UFC	-12454
▁퇴사	-12455
▁밀란	-12456
▁말미	-12457
▁동인지	-12458
▁카무이	-12459
▁서킷	-12460
▁수비진	-12461
▁타노스	-12462
▁운운	-12463
▁리쿠	-12464
▁사임	-12465
▁우아	-12466
▁안산	-12467
▁길들이	-12468
▁오인	-12469
▁사사키	-12470
어먹	-12471
mania	-12472
▁소극	-12473
▁카린	-12474
▁대상자	-12475
▁스피커	-12476
▁STER	-12477
▁플루	-12478
ma	-12479
▁원내	-12480
▁와이어	-12481
▁안면	-12482
▁은밀	-12483
▁선대	-12484
▁실황	-12485
▁원고	-12486
▁총격	-12487
미스	-12488
▁선제골	-12489
▁드라큘라	-12490
▁로사	-12491
▁대대로	-12492
▁만료	-12493
▁재위	-12494
▁옵티	-12495
▁자연수	-12496
▁재난	-12497
▁웨이트	-12498
▁저격총	-12499
▁카탈	-12500
▁대주	-12501
▁이우	-12502
▁이선	-12503
▁대출	-12504
▁솔라	-12505
▁유토	-12506
▁프랭	-12507
▁아이작	-12508
▁투하	-12509
▁덫	-12510
▁멀쩡히	-12511
▁학회	-12512
▁Cy	-12513
▁낙인	-12514
▁보증	-12515
▁게리온	-12516
▁카지노	-12517
▁일진	-12518
▁변질	-12519
곡동	-12520
타르	-12521
▁방금	-12522
▁태세	-12523
▁Run	-12524
▁관동	-12525
▁천계	-12526
▁1600	-12527
단체	-12528
▁벅스	-12529
▁진가	-12530
▁소용돌이	-12531
▁가브리엘	-12532
▁포럼	-12533
▁IDOL	-12534
밀리아	-12535
▁치명상	-12536
▁태블릿	-12537
▁되살아나	-12538
be	-12539
▁공성전	-12540
▁카이사르	-12541
터스	-12542
▁초래	-12543
▁야쿠자	-12544
▁염려	-12545
▁목요일	-12546
▁스티커	-12547
ual	-12548
인드	-12549
▁캐롤	-12550
▁메테오	-12551
▁131	-12552
ret	-12553
서야	-12554
▁생산량	-12555
▁스위트	-12556
▁든	-12557
▁부평	-12558
▁주방	-12559
▁무궁화	-12560
▁남동	-12561
▁좌표	-12562
▁축적	-12563
▁사에	-12564
▁청산	-12565
▁다단	-12566
▁마사키	-12567
▁물리학	-12568
하하	-12569
▁장편	-12570
▁마이트	-12571
회장	-12572
▁SV	-12573
▁민원	-12574
▁자유자재	-12575
▁케이트	-12576
▁광복	-12577
▁아야카	-12578
▁UM	-12579
▁지그	-12580
▁샴	-12581
▁수요일	-12582
▁white	-12583
▁우체국	-12584
▁괴담	-12585
▁경성	-12586
▁칠레	-12587
▁MLB	-12588
▁램프	-12589
▁서초	-12590
페르	-12591
▁벡터	-12592
▁우루과이	-12593
▁빅뱅	-12594
▁외래	-12595
▁호전	-12596
▁사로잡히	-12597
▁MASTER	-12598
▁전교	-12599
▁전편	-12600
▁골리	-12601
미즈	-12602
▁다중	-12603
▁don	-12604
▁내야수	-12605
ecial	-12606
ㅈㅓㅇ	-12607
▁부도	-12608
▁단골	-12609
▁이승만	-12610
▁대각	-12611
ㄱㅜㄴㅏ	-12612
▁뒤덮	-12613
▁School	-12614
▁하야토	-12615
▁동창	-12616
▁원호	-12617
▁인맥	-12618
권자	-12619
무장	-12620
▁SO	-12621
▁가축	-12622
▁제르	-12623
셔츠	-12624
징가	-12625
▁ㄹㅏㅈㅣㅁㅏㄴ	-12626
▁마징가	-12627
▁통신사	-12628
ane	-12629
▁입학식	-12630
▁궁지	-12631
▁물들	-12632
▁미타	-12633
▁백합	-12634
▁분기점	-12635
▁달걀	-12636
▁욕하	-12637
▁테이크	-12638
▁대파	-12639
▁흑화	-12640
내리	-12641
▁결함	-12642
▁영미	-12643
▁세나	-12644
▁강성	-12645
▁경매	-12646
▁Rec	-12647
▁꺾이	-12648
▁마커	-12649
▁미시	-12650
▁렀다	-12651
범죄	-12652
▁장타율	-12653
▁도도	-12654
▁소실	-12655
▁탄도	-12656
▁고속도	-12657
▁지상파	-12658
▁증권	-12659
▁막바지	-12660
▁홍준표	-12661
▁김전	-12662
▁way	-12663
질기	-12664
ope	-12665
▁Sound	-12666
▁김희	-12667
▁여고생	-12668
▁합당	-12669
▁끈질기	-12670
▁제시카	-12671
▁쉘	-12672
▁박준	-12673
▁인내	-12674
▁Art	-12675
▁Arm	-12676
▁마운트	-12677
▁마이너스	-12678
▁Yeah	-12679
▁피에	-12680
▁피드백	-12681
▁사쿠라이	-12682
▁루카스	-12683
▁아루	-12684
티어	-12685
행위	-12686
▁일련	-12687
퇴근	-12688
▁매수	-12689
▁시집	-12690
Fat	-12691
▁이과	-12692
▁괄	-12693
▁설레	-12694
▁히노	-12695
▁둘러싸이	-12696
▁어인	-12697
▁완수	-12698
▁헌신	-12699
▁소설가	-12700
▁베가	-12701
▁계열사	-12702
니즘	-12703
어찌	-12704
▁공로	-12705
▁프로리그	-12706
▁계좌	-12707
▁이마트	-12708
려드	-12709
부시	-12710
▁바이스	-12711
바퀴	-12712
▁레지스	-12713
elf	-12714
▁강적	-12715
▁리트	-12716
베르트	-12717
▁BAS	-12718
▁소피아	-12719
▁박주	-12720
▁적료	-12721
▁고속버스	-12722
▁고어	-12723
▁그닥	-12724
▁기밀	-12725
▁동래	-12726
일으키	-12727
▁당나라	-12728
▁마모루	-12729
수수	-12730
▁EM	-12731
▁루이지	-12732
▁불러일으키	-12733
▁두부	-12734
▁컨트롤러	-12735
ision	-12736
▁Femme	-12737
재판	-12738
▁작별	-12739
▁로스앤	-12740
▁로스앤젤레스	-12741
▁오너	-12742
▁아멜	-12743
▁튀기	-12744
▁Rev	-12745
▁1961	-12746
▁부츠	-12747
▁Cat	-12748
대교	-12749
▁리베	-12750
▁양국	-12751
▁레이터	-12752
▁허구	-12753
▁스코프	-12754
▁편대	-12755
▁어찌어찌	-12756
▁부식	-12757
▁소행	-12758
▁대본	-12759
▁자진	-12760
▁플래닛	-12761
▁세르비아	-12762
▁Ge	-12763
▁간략	-12764
▁경희	-12765
▁모친	-12766
▁슈퍼스타	-12767
▁WE	-12768
▁VIP	-12769
▁브라더	-12770
▁그놈	-12771
▁원천	-12772
▁아그	-12773
▁총괄	-12774
야샤	-12775
▁이누야샤	-12776
에이터	-12777
▁발칸	-12778
▁실무	-12779
▁불멸	-12780
▁꽝	-12781
▁극소수	-12782
▁김전일	-12783
▁술법	-12784
▁입술	-12785
▁구마	-12786
▁비시	-12787
▁공방전	-12788
즈카	-12789
▁빨강	-12790
▁후일담	-12791
▁어드밴스	-12792
▁DO	-12793
we	-12794
▁야시	-12795
▁태그팀	-12796
▁뒤집히	-12797
▁식신	-12798
▁파산	-12799
▁카가	-12800
▁우크라	-12801
수스	-12802
▁쿠르	-12803
▁지령	-12804
▁무작정	-12805
▁여당	-12806
▁요하	-12807
▁석궁	-12808
▁돌아서	-12809
▁페더	-12810
▁군기	-12811
▁족장	-12812
▁사용법	-12813
카즈	-12814
▁제멋	-12815
▁경량	-12816
▁할리우드	-12817
▁시궁	-12818
▁피처	-12819
▁발전기	-12820
Fatale	-12821
꿈치	-12822
▁자취	-12823
▁FemmeFatale	-12824
▁진작	-12825
▁쓸데없	-12826
쿠로	-12827
▁무언	-12828
▁허세	-12829
▁아의	-12830
▁ㄷㅏㄷㅓㄴㄱㅏ	-12831
str	-12832
▁수락	-12833
▁반말	-12834
▁정명	-12835
▁다이나	-12836
ational	-12837
같이	-12838
▁회화	-12839
▁일보	-12840
▁방황	-12841
▁정계	-12842
▁대잠	-12843
▁이에	-12844
▁크로니클	-12845
▁예명	-12846
▁하세	-12847
ouse	-12848
▁dis	-12849
수아	-12850
▁황태자	-12851
SS	-12852
▁메꾸	-12853
▁가명	-12854
▁신디	-12855
▁성도	-12856
▁양파	-12857
▁연금술	-12858
▁에이전트	-12859
▁소진	-12860
appy	-12861
▁껄	-12862
▁마작	-12863
▁하워드	-12864
▁넵	-12865
▁NHK	-12866
▁뛰쳐	-12867
▁검은색	-12868
▁그려지	-12869
▁얼핏	-12870
▁이스터	-12871
AG	-12872
▁섬유	-12873
▁헬스	-12874
▁급기야	-12875
ORE	-12876
▁혼종	-12877
▁로만	-12878
▁반환	-12879
▁악세	-12880
▁스칼렛	-12881
▁키리토	-12882
▁소심	-12883
▁창업	-12884
▁효과음	-12885
▁하임	-12886
▁미츠루	-12887
▁br	-12888
▁후타	-12889
▁네모	-12890
▁호노카	-12891
▁화수	-12892
▁광석	-12893
▁병단	-12894
축구	-12895
▁배지	-12896
스트로	-12897
케인	-12898
▁애당초	-12899
▁유로파	-12900
▁하부	-12901
▁Order	-12902
▁교섭	-12903
▁상회	-12904
ness	-12905
휴일	-12906
▁당원	-12907
▁점거	-12908
▁카도	-12909
투아	-12910
▁수준급	-12911
▁1100	-12912
▁삼거리	-12913
▁신주쿠	-12914
▁난전	-12915
▁팝픈	-12916
ㅇㅓㄴ	-12917
▁팝픈뮤직	-12918
제국	-12919
▁스플래시	-12920
▁키퍼	-12921
▁교주	-12922
▁택배	-12923
▁제정신	-12924
▁MD	-12925
▁초필	-12926
▁미지수	-12927
▁바하	-12928
▁좌익수	-12929
ㅇㅓㄴㅈㅓㅇ	-12930
라이나	-12931
▁아즈사	-12932
▁자잘	-12933
▁주범	-12934
▁주작	-12935
▁기미	-12936
▁토론토	-12937
▁천적	-12938
▁성채	-12939
▁호세	-12940
▁양키스	-12941
▁김혜	-12942
▁양현	-12943
▁엄지	-12944
▁Elect	-12945
▁폭동	-12946
▁조운	-12947
▁적발	-12948
▁코카	-12949
▁펄스	-12950
▁이치로	-12951
▁매진	-12952
▁콜로니	-12953
▁기마	-12954
델피아	-12955
▁필라델피아	-12956
먹이	-12957
▁소피	-12958
▁^	-12959
▁당주	-12960
▁시엘	-12961
▁정립	-12962
▁한몫	-12963
▁완전체	-12964
▁요미우리	-12965
사이드	-12966
시계	-12967
▁과부	-12968
▁미라클	-12969
▁히데요시	-12970
▁깊숙	-12971
▁종일	-12972
inc	-12973
▁들려오	-12974
▁다인	-12975
▁흐리	-12976
▁TCG	-12977
▁빼돌리	-12978
▁파고들	-12979
▁블레이즈	-12980
▁까닭	-12981
저트	-12982
▁이안	-12983
▁EXH	-12984
▁ㄷㅡㄴㄱㅏ	-12985
▁프로세서	-12986
▁기한	-12987
▁복싱	-12988
▁빌라	-12989
▁서드	-12990
▁피곤	-12991
▁쓸모없	-12992
▁어비스	-12993
▁옵티머스	-12994
▁CON	-12995
투수	-12996
▁연예계	-12997
▁프랑켄	-12998
▁광범	-12999
▁기온	-13000
▁말장난	-13001
▁전리품	-13002
▁시한	-13003
▁수평	-13004
▁태종	-13005
▁프론트	-13006
▁본디	-13007
▁도리어	-13008
▁적색	-13009
▁선발투수	-13010
▁결장	-13011
▁대사관	-13012
▁운항	-13013
날드	-13014
▁지망	-13015
▁휴일	-13016
▁world	-13017
▁신이치	-13018
데아	-13019
▁지기	-13020
▁스왑	-13021
▁양호	-13022
▁214	-13023
▁RG	-13024
▁연하	-13025
▁일쑤	-13026
▁고령	-13027
▁볼프	-13028
▁후궁	-13029
▁씁	-13030
▁부추	-13031
히트	-13032
▁냉전	-13033
▁조형	-13034
▁유포	-13035
▁She	-13036
그룹	-13037
▁스크래	-13038
▁폴더	-13039
▁리노	-13040
▁손흥	-13041
▁사이퍼	-13042
▁작살	-13043
우루스	-13044
▁SHOW	-13045
▁정은	-13046
▁경장	-13047
▁당분	-13048
▁키워드	-13049
▁강유	-13050
▁교란	-13051
IV	-13052
▁재고	-13053
▁리브	-13054
▁돌려보내	-13055
▁루터	-13056
▁다이브	-13057
▁고독	-13058
▁비토	-13059
▁한조	-13060
day	-13061
omb	-13062
▁정거	-13063
▁1943	-13064
▁산악	-13065
▁공휴일	-13066
▁스폰지	-13067
▁제식	-13068
▁불사조	-13069
▁도호	-13070
its	-13071
▁탄종	-13072
사의	-13073
▁성추	-13074
▁후안	-13075
▁이노우에	-13076
▁도전자	-13077
▁노숙	-13078
▁프런트	-13079
▁건전	-13080
▁승기	-13081
▁들이대	-13082
▁압살	-13083
▁유서	-13084
▁Da	-13085
▁속삭	-13086
▁임창	-13087
▁아지트	-13088
▁언행	-13089
▁대표작	-13090
▁섭외	-13091
▁손흥민	-13092
▁ap	-13093
▁명작	-13094
▁더스트	-13095
▁도쿠가와	-13096
▁다툼	-13097
▁탄소	-13098
▁예비군	-13099
▁코시	-13100
퍼런스	-13101
▁초토	-13102
투표	-13103
▁셀프	-13104
▁naver	-13105
▁정교회	-13106
인간	-13107
▁**	-13108
▁340	-13109
▁정류소	-13110
▁상속	-13111
▁행태	-13112
▁beatmania	-13113
▁직감	-13114
▁에리카	-13115
▁제이드	-13116
▁1942	-13117
ham	-13118
▁141	-13119
▁ㅇㅏㅅ	-13120
▁ㄴㅡㄴㅑㄴㅡㄴ	-13121
스톤	-13122
▁해수	-13123
▁확연히	-13124
▁오버로드	-13125
▁여사	-13126
▁토탈	-13127
▁박격포	-13128
▁콜라보레이션	-13129
▁미성년자	-13130
▁텔레비전	-13131
▁트린	-13132
ious	-13133
▁툼	-13134
▁겨누	-13135
▁쟁탈	-13136
▁사부	-13137
▁애프	-13138
▁엑소	-13139
▁폭발물	-13140
▁좀비	-13141
▁레스터	-13142
▁개인전	-13143
▁윌슨	-13144
댓말	-13145
▁존댓말	-13146
▁프로이센	-13147
▁공익	-13148
EX	-13149
투르	-13150
▁SW	-13151
▁어처	-13152
▁출퇴근	-13153
▁오클	-13154
아티아	-13155
▁올라서	-13156
▁크로아티아	-13157
▁게임기	-13158
▁장병	-13159
▁현명	-13160
▁불가사의	-13161
▁도피	-13162
▁캐서	-13163
세데스	-13164
▁메르세데스	-13165
▁증세	-13166
▁창당	-13167
▁서원	-13168
▁te	-13169
▁폭사	-13170
▁셜록	-13171
▁신축	-13172
▁상대식	-13173
▁상권	-13174
▁양주	-13175
▁합하	-13176
▁프로그래밍	-13177
▁지자	-13178
▁액세서리	-13179
▁까먹	-13180
▁저번	-13181
▁글러브	-13182
▁다정	-13183
▁Not	-13184
▁광범위	-13185
▁입맛	-13186
▁진군	-13187
▁평원	-13188
지원	-13189
▁캡콤	-13190
▁위즈	-13191
▁합창	-13192
▁정거장	-13193
▁러셀	-13194
▁스파르타	-13195
▁자연스레	-13196
▁김창	-13197
▁하드코어	-13198
▁오모	-13199
▁옥타	-13200
주리	-13201
▁군함	-13202
▁거느리	-13203
▁동봉	-13204
▁술탄	-13205
▁송구	-13206
▁종사	-13207
▁미끄러지	-13208
▁ㄹㅏㄱㅓㄴㅏ	-13209
aut	-13210
▁든든	-13211
▁디디	-13212
▁시그마	-13213
ivers	-13214
▁스크래치	-13215
▁싱어	-13216
▁장안	-13217
▁국력	-13218
▁피라미	-13219
던트	-13220
▁반다이	-13221
▁표본	-13222
▁DEF	-13223
▁리액션	-13224
요환	-13225
▁막부	-13226
▁위탁	-13227
▁Ke	-13228
▁바우	-13229
▁사이오	-13230
▁로망	-13231
▁네메	-13232
▁주되	-13233
▁공동체	-13234
패스	-13235
▁With	-13236
27	-13237
▁위화	-13238
▁질량	-13239
▁상반기	-13240
▁글래	-13241
▁아부	-13242
▁RAW	-13243
23	-13244
ERS	-13245
▁프리즈	-13246
데르	-13247
▁상표	-13248
▁윌리엄스	-13249
▁세션	-13250
▁화자	-13251
▁브릿지	-13252
▁랫	-13253
▁마음껏	-13254
▁Every	-13255
ANC	-13256
olution	-13257
▁체질	-13258
레미	-13259
▁군사력	-13260
▁ㄴㅡㄴㄱㅜㄴ	-13261
매니아	-13262
▁오재	-13263
▁ㅈㅏㄴㅣ	-13264
▁내걸	-13265
▁정세	-13266
▁와우	-13267
▁꼭두	-13268
▁마이어	-13269
▁아역	-13270
▁임요환	-13271
▁전전	-13272
▁캐서린	-13273
▁열받	-13274
▁탈옥	-13275
▁망자	-13276
▁프리스트	-13277
▁정장	-13278
▁외출	-13279
▁관념	-13280
▁뾰	-13281
▁체이	-13282
▁카바	-13283
▁재임	-13284
▁우시	-13285
olog	-13286
▁손바닥	-13287
▁어처구니	-13288
▁넘쳐	-13289
45	-13290
▁호르	-13291
▁뢰	-13292
▁ph	-13293
▁왼팔	-13294
UC	-13295
▁랏	-13296
▁평민	-13297
▁킹스	-13298
▁310	-13299
무늬	-13300
▁백미	-13301
▁제구	-13302
▁코이치	-13303
▁ㄲㅗ	-13304
▁방정	-13305
▁김준호	-13306
▁대문	-13307
라이어	-13308
▁집결	-13309
▁커리	-13310
▁윈스턴	-13311
▁진정하	-13312
▁고장나	-13313
▁표출	-13314
▁논하	-13315
▁시즈카	-13316
▁사다	-13317
▁환각	-13318
▁원제	-13319
▁소수자	-13320
▁신원	-13321
무니	-13322
지리	-13323
▁if	-13324
▁수원시	-13325
▁최면	-13326
▁나나미	-13327
▁구자	-13328
▁순진	-13329
▁무상	-13330
▁듀티	-13331
▁박병	-13332
▁옐로	-13333
▁피츠	-13334
▁Get	-13335
▁낙원	-13336
▁불상	-13337
▁생사	-13338
▁헌데	-13339
▁경찰관	-13340
▁보답	-13341
▁나날	-13342
▁Chr	-13343
▁류현진	-13344
▁1946	-13345
29	-13346
▁EB	-13347
▁007	-13348
▁도모	-13349
▁정중	-13350
▁주파수	-13351
▁촛	-13352
▁스루	-13353
66	-13354
▁짤방	-13355
▁쾌속	-13356
▁르네	-13357
데기	-13358
▁FR	-13359
▁안나	-13360
▁어우	-13361
▁가솔	-13362
▁CT	-13363
▁커터	-13364
▁해커	-13365
▁미야자키	-13366
▁분경	-13367
▁김정은	-13368
▁최우수	-13369
▁메라	-13370
▁사과문	-13371
▁시저	-13372
▁추석	-13373
▁대부	-13374
▁대명사	-13375
▁시노부	-13376
▁김세	-13377
▁줄곧	-13378
조각	-13379
ely	-13380
▁TB	-13381
▁가출	-13382
▁화요일	-13383
ty	-13384
▁Har	-13385
▁흡연	-13386
▁탐욕	-13387
▁자발	-13388
▁Boy	-13389
▁굳어지	-13390
▁키메라	-13391
▁무자비	-13392
▁해운대	-13393
▁반칙	-13394
나드	-13395
아아	-13396
▁토네이도	-13397
▁벵	-13398
베르토	-13399
▁비하인드	-13400
리에	-13401
킨스	-13402
▁예배	-13403
▁양아치	-13404
icro	-13405
▁빡빡	-13406
ny	-13407
▁기총	-13408
▁1954	-13409
▁스님	-13410
▁영화판	-13411
▁연희	-13412
▁작아지	-13413
▁당당히	-13414
의사	-13415
▁마더	-13416
▁걸어오	-13417
▁담당자	-13418
▁Skill	-13419
즈마	-13420
▁아폴로	-13421
▁슈타인	-13422
▁중앙선	-13423
▁바오	-13424
ters	-13425
받침	-13426
▁민영	-13427
▁한스	-13428
▁홍대	-13429
▁후유증	-13430
▁720	-13431
▁금기	-13432
▁지침	-13433
▁추첨	-13434
▁켄타	-13435
▁부여받	-13436
▁Des	-13437
▁비오	-13438
▁에덴	-13439
▁무협	-13440
▁발상	-13441
▁혜성	-13442
▁1958	-13443
노기	-13444
▁육지	-13445
▁취직	-13446
베리아	-13447
▁괴도	-13448
▁>,	-13449
▁방어선	-13450
▁영분	-13451
▁의미심장	-13452
▁Ab	-13453
▁굴복	-13454
▁마누	-13455
▁리포트	-13456
▁이동하	-13457
▁걸작	-13458
▁섬세	-13459
▁만세	-13460
▁초고	-13461
소스	-13462
▁전태	-13463
▁설득력	-13464
▁북방	-13465
▁인즈	-13466
▁CCTV	-13467
▁단선	-13468
▁리젠	-13469
▁유대인	-13470
▁웨일	-13471
▁매복	-13472
▁추이	-13473
▁츠루	-13474
▁사마의	-13475
▁이어인	-13476
▁대용	-13477
▁예리	-13478
▁1941	-13479
▁영기	-13480
▁진흙	-13481
▁단테	-13482
테스	-13483
▁젤다	-13484
▁지름	-13485
▁만류	-13486
▁171	-13487
버린	-13488
▁=,	-13489
▁가든	-13490
▁졸개	-13491
ient	-13492
▁단조	-13493
▁다이어트	-13494
▁480	-13495
▁피어	-13496
▁생물학	-13497
▁충성심	-13498
▁DA	-13499
▁미디	-13500
▁체가	-13501
▁성체	-13502
▁시력	-13503
▁OO	-13504
▁교화	-13505
▁부메	-13506
▁수작	-13507
▁기라	-13508
▁미상	-13509
▁Big	-13510
▁조율	-13511
▁트림	-13512
라이즈	-13513
▁양념	-13514
▁잉크	-13515
리우스	-13516
체스	-13517
▁듀엣	-13518
▁id	-13519
▁석화	-13520
▁1900	-13521
르기	-13522
▁성녀	-13523
▁차종	-13524
▁PSP	-13525
▁총사령	-13526
▁견인	-13527
▁자문	-13528
▁협곡	-13529
▁부메랑	-13530
▁카운티	-13531
▁Tri	-13532
▁ㄴㄷㅏㅁㅕㄴㅅㅓ	-13533
▁메스	-13534
▁빡세	-13535
▁유행어	-13536
▁피리	-13537
▁드리프트	-13538
▁png	-13539
▁kn	-13540
▁라오	-13541
▁선공	-13542
▁임관	-13543
▁복음	-13544
▁라자	-13545
▁클락	-13546
▁튜너	-13547
▁제이스	-13548
▁오피스	-13549
▁181	-13550
▁8000	-13551
▁세간	-13552
▁경쟁력	-13553
▁UR	-13554
▁데카	-13555
▁문헌	-13556
▁바바	-13557
▁빅터	-13558
▁틀어지	-13559
▁수다	-13560
크리트	-13561
▁DT	-13562
▁시동	-13563
▁입체	-13564
ful	-13565
uch	-13566
▁기만	-13567
▁만회	-13568
▁태연	-13569
▁채소	-13570
▁동참	-13571
▁미련	-13572
▁어워드	-13573
▁군벌	-13574
칼리	-13575
▁씁쓸	-13576
▁상원	-13577
▁스탠다드	-13578
▁파장	-13579
▁연혁	-13580
▁격돌	-13581
▁원격	-13582
▁조장	-13583
▁고분	-13584
▁천황	-13585
▁방랑	-13586
▁샤이닝	-13587
▁봉기	-13588
▁염소	-13589
▁초식	-13590
▁Ext	-13591
▁스펙터	-13592
▁난동	-13593
▁모라	-13594
무진	-13595
▁XP	-13596
▁부화	-13597
▁오디	-13598
▁낯설	-13599
▁가치관	-13600
bl	-13601
▁격노	-13602
▁성모	-13603
▁귀중	-13604
클레스	-13605
▁생몰	-13606
▁증원	-13607
▁직관	-13608
토시	-13609
프레스	-13610
▁창의	-13611
▁통용	-13612
▁불러들이	-13613
▁RS	-13614
ship	-13615
기업	-13616
▁봉황	-13617
▁기관차	-13618
▁원년	-13619
85	-13620
▁성균	-13621
▁선체	-13622
슬러	-13623
▁유감	-13624
▁STAR	-13625
▁가토	-13626
▁아제	-13627
▁제비	-13628
▁츠카사	-13629
▁ㄹㄱㅔㅇㅛ	-13630
▁박세	-13631
▁윤종	-13632
▁자위대	-13633
▁성균관	-13634
▁만두	-13635
▁송병	-13636
▁샤아	-13637
▁양면	-13638
▁회고	-13639
테리	-13640
▁장기간	-13641
▁퍼스	-13642
▁나츠미	-13643
ㅂㄴㅣㄷㅏ	-13644
자카	-13645
▁학창	-13646
▁이성계	-13647
▁1948	-13648
▁야하	-13649
▁갈래	-13650
▁비숍	-13651
▁디테일	-13652
▁잠복	-13653
▁흑백	-13654
기지	-13655
▁qu	-13656
▁부풀	-13657
▁역기	-13658
▁풍자	-13659
▁클로즈	-13660
▁려	-13661
▁송이	-13662
▁255	-13663
▁느긋	-13664
▁배분	-13665
▁정인	-13666
▁수리검	-13667
리케이션	-13668
▁Inf	-13669
▁모호	-13670
▁히로유키	-13671
▁조제	-13672
▁벌칙	-13673
▁Bar	-13674
▁Sil	-13675
▁우익수	-13676
▁뫼	-13677
▁타라	-13678
▁서커스	-13679
▁프레디	-13680
▁웍	-13681
▁시궁창	-13682
▁ㄷㅓ	-13683
▁군산	-13684
▁퇴근	-13685
레트	-13686
▁KS	-13687
▁베니	-13688
▁즐거	-13689
▁청량	-13690
▁그리스도	-13691
정역	-13692
▁전년	-13693
▁왕궁	-13694
▁텔레콤	-13695
▁아테네	-13696
▁커브	-13697
▁OR	-13698
▁White	-13699
▁손녀	-13700
▁오드	-13701
▁판도라	-13702
니트	-13703
▁토템	-13704
▁다이너	-13705
버릇	-13706
▁진과	-13707
▁창시	-13708
▁Win	-13709
▁솔로몬	-13710
▁프레데	-13711
▁요일	-13712
▁Back	-13713
▁송도	-13714
ump	-13715
▁크래	-13716
▁농어	-13717
▁스테이트	-13718
co	-13719
▁여의도	-13720
▁좀처럼	-13721
산물	-13722
▁작렬	-13723
혁명	-13724
공격	-13725
▁왕따	-13726
▁콘크리트	-13727
▁파키스탄	-13728
▁ㅇㅡㄹㅏㄴㅡㄴ	-13729
▁치중	-13730
▁PO	-13731
▁늘어놓	-13732
모사	-13733
▁떠들	-13734
26	-13735
▁타쿠미	-13736
▁바이올린	-13737
▁특촬	-13738
▁공병	-13739
▁피에르	-13740
▁접시	-13741
▁재팬	-13742
▁하와이	-13743
튀기	-13744
ift	-13745
▁태고	-13746
▁PM	-13747
▁단신	-13748
▁바늘	-13749
▁연루	-13750
▁jp	-13751
▁고양시	-13752
▁폭포	-13753
▁샨	-13754
▁아틀레	-13755
▁최전	-13756
▁Fre	-13757
▁간식	-13758
▁down	-13759
▁박민	-13760
▁뻥튀기	-13761
▁ㅇㅡㄹㅏ	-13762
▁초원	-13763
▁제이크	-13764
▁NG	-13765
▁나기사	-13766
호도	-13767
노미야	-13768
RAM	-13769
▁초급	-13770
▁허영	-13771
▁이윽	-13772
▁420	-13773
▁실험실	-13774
틀링	-13775
▁학계	-13776
▁이윽고	-13777
▁215	-13778
▁러블리	-13779
도스	-13780
▁색채	-13781
▁마비노기	-13782
▁제멋대로	-13783
▁금전	-13784
▁지독	-13785
▁GL	-13786
▁카세	-13787
▁거슬리	-13788
▁관악	-13789
▁맥도	-13790
▁어지간히	-13791
▁맏	-13792
▁갈고리	-13793
ENT	-13794
▁백색	-13795
▁심리학	-13796
따르	-13797
▁텐션	-13798
▁컨테이너	-13799
▁집정	-13800
▁소음기	-13801
▁어중간	-13802
▁횡단	-13803
▁거주지	-13804
▁켄이치	-13805
▁FE	-13806
▁도타	-13807
▁off	-13808
▁1949	-13809
▁앞마당	-13810
마츠	-13811
▁오덕	-13812
▁하르	-13813
▁사토시	-13814
ATION	-13815
▁친밀	-13816
▁트레이서	-13817
▁every	-13818
▁서독	-13819
▁포털	-13820
▁수소	-13821
▁포고	-13822
레인지	-13823
▁사육	-13824
▁Met	-13825
▁중얼거리	-13826
▁흘러나오	-13827
▁강변	-13828
▁욕구	-13829
▁자드	-13830
▁실천	-13831
▁자손	-13832
edia	-13833
▁정유	-13834
▁시구	-13835
▁헤딩	-13836
▁쇼핑몰	-13837
▁성서	-13838
▁메아리	-13839
▁성폭행	-13840
각시	-13841
▁나츠키	-13842
▁빌미	-13843
득점	-13844
▁Sky	-13845
모니	-13846
바위	-13847
▁Hey	-13848
▁테크노	-13849
▁가차	-13850
▁열풍	-13851
▁인장	-13852
▁ㄴㅡㄴㅑㄱㅗ	-13853
▁틀림	-13854
▁하코	-13855
링크	-13856
▁쇠퇴	-13857
▁유엔	-13858
▁CEO	-13859
▁늘어지	-13860
▁나고	-13861
▁육박	-13862
▁후려	-13863
▁인프라	-13864
▁퍼뜨리	-13865
▁듬	-13866
▁라운	-13867
▁아론	-13868
▁선구	-13869
▁안도	-13870
▁인기투표	-13871
▁양동	-13872
▁제휴	-13873
▁이승엽	-13874
▁남용	-13875
▁변종	-13876
▁최성	-13877
ALL	-13878
▁병맛	-13879
▁208	-13880
▁현존	-13881
▁럽	-13882
▁무의	-13883
▁오퍼레이터	-13884
▁광부	-13885
▁235	-13886
▁Act	-13887
▁서진	-13888
▁동선	-13889
▁파업	-13890
ERT	-13891
▁UFO	-13892
▁}{	-13893
▁FN	-13894
▁패거리	-13895
▁대한항공	-13896
▁향수	-13897
▁거제	-13898
▁편제	-13899
▁육식	-13900
▁수배	-13901
▁1936	-13902
▁시중	-13903
▁체이스	-13904
▁비늘	-13905
▁되돌아가	-13906
케이	-13907
▁뇌격	-13908
▁대여	-13909
▁대머리	-13910
▁런닝맨	-13911
▁갭	-13912
▁바시	-13913
▁정현	-13914
▁333	-13915
BM	-13916
▁거물	-13917
▁삽화	-13918
▁사다리	-13919
oud	-13920
▁하렘	-13921
▁출생지	-13922
▁도르트	-13923
사우루스	-13924
▁병영	-13925
▁알아듣	-13926
드래	-13927
▁메소	-13928
여행	-13929
▁ve	-13930
▁마장	-13931
▁처단	-13932
▁FX	-13933
less	-13934
▁유쾌	-13935
▁휩쓸리	-13936
▁비행선	-13937
▁That	-13938
▁ㄹㅏㄹㄲㅏ	-13939
▁TD	-13940
니스탄	-13941
▁206	-13942
▁철회	-13943
지대	-13944
▁덩크	-13945
네트	-13946
▁아픔	-13947
ize	-13948
▁카멜	-13949
▁NL	-13950
▁본국	-13951
▁코지마	-13952
▁아이리	-13953
▁합방	-13954
▁개틀링	-13955
▁난폭	-13956
▁어머	-13957
▁Song	-13958
▁초동	-13959
▁세츠나	-13960
▁em	-13961
▁김하	-13962
▁살라	-13963
▁극찬	-13964
▁항속	-13965
린스	-13966
▁나루호도	-13967
95	-13968
▁비약	-13969
변속기	-13970
▁디스코	-13971
▁기겁	-13972
▁오마주	-13973
▁설사	-13974
▁심플	-13975
▁con	-13976
천동	-13977
▁경인	-13978
▁참패	-13979
▁May	-13980
▁성문	-13981
▁떨어트리	-13982
▁키바	-13983
▁미쓰	-13984
공화국	-13985
▁문의	-13986
▁아울러	-13987
러드	-13988
bps	-13989
의회	-13990
▁영리	-13991
▁피라미드	-13992
▁속옷	-13993
▁올라타	-13994
▁ㄹㅈㅣㄷㅗ	-13995
▁커넥	-13996
▁ㅅㅓㅂㅜㅌㅓ	-13997
▁젊은이	-13998
방향	-13999
▁부치	-14000
▁161	-14001
▁멸자	-14002
▁김인	-14003
▁성검	-14004
▁헛소리	-14005
▁마츠모토	-14006
▁와일드카드	-14007
▁누마	-14008
▁쭈	-14009
▁소이	-14010
VEL	-14011
▁ㅇㅡㄹㅣㄹㅏ	-14012
▁계보	-14013
▁이따	-14014
▁유목	-14015
▁개드	-14016
▁베라	-14017
ape	-14018
▁라트	-14019
▁팀킬	-14020
빠르	-14021
▁GAM	-14022
▁850	-14023
▁상대편	-14024
▁위나라	-14025
▁마그마	-14026
▁스플릿	-14027
▁내년	-14028
UB	-14029
▁우로	-14030
▁리오스	-14031
▁얀데레	-14032
▁김태균	-14033
▁배급사	-14034
▁페인트	-14035
▁want	-14036
▁감시자	-14037
▁유우야	-14038
▁God	-14039
▁데이브	-14040
▁명인	-14041
▁크러	-14042
▁끝판	-14043
▁표방	-14044
▁풀백	-14045
▁좌석버스	-14046
▁송곳	-14047
▁스릴	-14048
▁정벌	-14049
ger	-14050
▁장래	-14051
▁카에데	-14052
▁가까스로	-14053
▁밴시	-14054
▁불가리아	-14055
IST	-14056
타자	-14057
▁토와	-14058
96	-14059
▁일자리	-14060
▁야기	-14061
▁다나카	-14062
▁디에	-14063
▁모터스	-14064
▁가물	-14065
▁벽돌	-14066
▁여진	-14067
▁선발전	-14068
▁도마뱀	-14069
▁Rain	-14070
▁북극	-14071
aka	-14072
▁독성	-14073
▁호대	-14074
▁RAM	-14075
▁ㅂㅅㅣㄷㅏ	-14076
▁버금	-14077
▁소인	-14078
▁이복	-14079
▁되려	-14080
▁영장	-14081
▁오미	-14082
▁지아	-14083
실히	-14084
ita	-14085
▁언락	-14086
▁내려놓	-14087
▁영창	-14088
▁손수	-14089
▁무법	-14090
▁비욘	-14091
▁보태	-14092
▁징병	-14093
▁때우	-14094
▁인피니트	-14095
때로	-14096
▁청색	-14097
▁북두	-14098
▁어린애	-14099
▁경위	-14100
▁290	-14101
▁플라워	-14102
▁복종	-14103
▁ㅈㅏㅁㅕ	-14104
▁마드	-14105
▁도르트문트	-14106
zy	-14107
▁RF	-14108
▁불운	-14109
▁신시	-14110
▁정렬	-14111
▁심심찮	-14112
모자	-14113
▁난해	-14114
▁Top	-14115
▁무난히	-14116
▁망원	-14117
76	-14118
▁수레	-14119
▁괴로	-14120
ORM	-14121
▁단간	-14122
▁여건	-14123
▁알프레	-14124
주군	-14125
▁서면	-14126
▁열전	-14127
▁하데스	-14128
▁친일	-14129
▁당분간	-14130
▁코스타	-14131
▁페로	-14132
▁좆	-14133
▁."	-14134
▁선도	-14135
▁대강	-14136
▁고려대	-14137
▁마니	-14138
▁포이	-14139
▁퀑	-14140
▁more	-14141
▁콘테	-14142
▁피고	-14143
▁대각선	-14144
▁젯	-14145
▁데이즈	-14146
레인저	-14147
rop	-14148
▁한가	-14149
▁정규군	-14150
▁울부	-14151
▁절묘	-14152
▁특출	-14153
▁책임자	-14154
▁석탄	-14155
▁야채	-14156
▁유추	-14157
▁칼럼	-14158
▁줄줄이	-14159
연합	-14160
▁버디	-14161
▁순교자	-14162
▁Pe	-14163
운전	-14164
▁남구	-14165
▁WAR	-14166
▁친위대	-14167
▁이제동	-14168
▁전용기	-14169
▁내륙	-14170
▁역학	-14171
▁위화감	-14172
▁바실	-14173
▁축구단	-14174
렉트	-14175
암동	-14176
▁1955	-14177
▁스몰	-14178
▁존속	-14179
▁게리	-14180
토록	-14181
▁자부심	-14182
▁드레이크	-14183
▁Battle	-14184
▁스케치	-14185
▁특공대	-14186
▁뒤틀리	-14187
버거	-14188
▁라이터	-14189
▁꼭두각시	-14190
무스	-14191
▁매트릭스	-14192
작전	-14193
IGHT	-14194
▁갑판	-14195
▁칭송	-14196
▁Moon	-14197
▁역전승	-14198
▁미셸	-14199
▁중성	-14200
▁Game	-14201
포스	-14202
▁화속	-14203
▁가창력	-14204
▁인테르	-14205
bo	-14206
▁최재	-14207
net	-14208
▁일직	-14209
ward	-14210
▁자아내	-14211
기어	-14212
비우스	-14213
▁행동력	-14214
▁코로나	-14215
▁노브	-14216
ara	-14217
▁과실	-14218
▁선풍	-14219
▁총통	-14220
▁TEC	-14221
▁성추행	-14222
▁플레이트	-14223
▁곡선	-14224
row	-14225
▁이신	-14226
OK	-14227
▁호타	-14228
▁영락	-14229
▁스케이팅	-14230
블랜드	-14231
com	-14232
▁분사	-14233
▁새로이	-14234
▁클리블랜드	-14235
ren	-14236
▁SUP	-14237
▁킬로	-14238
리아나	-14239
▁부추기	-14240
▁경이	-14241
▁골대	-14242
▁인민공화국	-14243
메다	-14244
▁허리케인	-14245
▁Dragon	-14246
▁새해	-14247
▁KG	-14248
▁레트	-14249
▁카야	-14250
▁태수	-14251
▁나데	-14252
▁내심	-14253
▁212	-14254
버드	-14255
▁독재자	-14256
▁반자동	-14257
▁유명세	-14258
▁터미네이터	-14259
▁NS	-14260
▁max	-14261
▁경호원	-14262
▁북유럽	-14263
▁밸리	-14264
▁개드립	-14265
▁LS	-14266
▁의리	-14267
▁코나미	-14268
▁진나라	-14269
▁데프	-14270
▁Bra	-14271
▁오반	-14272
▁왕녀	-14273
▁치부	-14274
▁강당	-14275
▁본문	-14276
▁흑룡	-14277
▁1959	-14278
▁루시퍼	-14279
클리	-14280
▁광저우	-14281
▁울부짖	-14282
▁부과	-14283
▁대담	-14284
led	-14285
▁소중히	-14286
▁캬	-14287
▁ㄴㅑㅁㅕㄴㅅㅓ	-14288
▁나고야	-14289
▁교육부	-14290
▁they	-14291
러기	-14292
▁LCD	-14293
▁팩토리	-14294
▁뭣	-14295
▁ㄹㅣㅇㅗㄴ	-14296
▁가메	-14297
▁니키	-14298
▁추월	-14299
부대	-14300
▁피겨	-14301
▁가솔린	-14302
▁사이언	-14303
▁티코	-14304
짜기	-14305
▁Special	-14306
니엄	-14307
▁ㅁㅗ	-14308
▁보단	-14309
▁김현수	-14310
▁치타	-14311
▁토요타	-14312
▁푸른	-14313
▁관제	-14314
▁ㅅㅏ	-14315
▁할당	-14316
▁베이스볼	-14317
▁해임	-14318
▁호스트	-14319
▁목표물	-14320
▁발산	-14321
▁크림슨	-14322
▁원동	-14323
▁조달	-14324
▁밀레니엄	-14325
▁광화	-14326
▁자석	-14327
▁파괴자	-14328
▁민지	-14329
▁협공	-14330
▁요건	-14331
▁잔당	-14332
▁앙리	-14333
▁핵무기	-14334
▁001	-14335
테나	-14336
▁도미니	-14337
▁연방군	-14338
▁온전히	-14339
▁서점	-14340
▁와이드	-14341
▁마티	-14342
코프	-14343
▁십상	-14344
▁의석	-14345
▁서울역	-14346
▁플로리	-14347
▁무찌	-14348
aven	-14349
▁스트레이트	-14350
▁탤	-14351
▁펜스	-14352
▁데이빗	-14353
▁전투원	-14354
▁가변	-14355
▁지갑	-14356
▁들려주	-14357
▁무성	-14358
히사	-14359
▁광양	-14360
▁종자	-14361
럭스	-14362
▁여리	-14363
▁1956	-14364
▁마포	-14365
▁단단히	-14366
▁행선	-14367
▁이치카	-14368
▁카트라이더	-14369
▁빈스	-14370
▁휘둘	-14371
▁베드	-14372
▁우사	-14373
▁쿠미	-14374
▁활주	-14375
▁아산	-14376
▁뒷받침	-14377
▁강연	-14378
▁서사	-14379
▁주군	-14380
▁특허	-14381
▁슐	-14382
▁wiz	-14383
그레	-14384
▁Hot	-14385
LD	-14386
▁레고	-14387
▁무심	-14388
▁미완	-14389
▁Amer	-14390
▁피니시	-14391
▁뮤즈	-14392
▁머들	-14393
▁벨벳	-14394
▁기와	-14395
▁레미	-14396
▁협약	-14397
▁카즈키	-14398
▁안드로메다	-14399
▁신공	-14400
▁장막	-14401
▁Pop	-14402
▁부회장	-14403
▁Track	-14404
카스	-14405
▁등산	-14406
▁심리전	-14407
▁사파이어	-14408
▁ㅏㅇㅛ	-14409
▁되돌아오	-14410
▁에우	-14411
패드	-14412
하이	-14413
▁조회	-14414
▁DAY	-14415
▁플러그	-14416
그래	-14417
▁ㄴㅡㄴㄷㅔㄷㅗ	-14418
▁임프	-14419
▁tw	-14420
▁귀도	-14421
▁탈것	-14422
▁인분	-14423
▁칠흑	-14424
▁토의	-14425
▁물려주	-14426
여지	-14427
▁나시	-14428
▁석방	-14429
▁스켈	-14430
▁FFFF	-14431
▁온화	-14432
▁오스카	-14433
▁이상민	-14434
▁입성	-14435
▁포르노	-14436
▁ㅁㅏㄴㅡㄴ	-14437
▁TG	-14438
▁코리	-14439
▁파드	-14440
▁국사	-14441
▁음양	-14442
▁게이밍	-14443
▁아란	-14444
▁합산	-14445
▁ㅇㅣㄹㅏㄷㅡㄴㄱㅏ	-14446
▁랄프	-14447
▁백신	-14448
▁선진국	-14449
▁발간	-14450
▁무찌르	-14451
▁신령	-14452
▁유민	-14453
▁차남	-14454
▁익스트림	-14455
내기	-14456
바키아	-14457
▁계약자	-14458
▁이시다	-14459
▁Cont	-14460
▁바이올렛	-14461
▁첩보	-14462
▁에스파	-14463
▁대적	-14464
▁1939	-14465
▁적정	-14466
▁경신	-14467
▁마늘	-14468
▁이분	-14469
▁나폴리	-14470
왜란	-14471
▁가네	-14472
▁우와	-14473
▁트리오	-14474
▁TN	-14475
▁네메시스	-14476
▁단절	-14477
▁프랑스군	-14478
▁각기	-14479
▁주스	-14480
▁리바이	-14481
▁임진왜란	-14482
▁아치	-14483
▁사면	-14484
▁멧돼지	-14485
▁마고	-14486
▁뛰어다니	-14487
▁빵빵	-14488
▁역관	-14489
지물	-14490
▁황무지	-14491
▁증후	-14492
play	-14493
▁위인	-14494
▁와타루	-14495
▁팔꿈치	-14496
▁".	-14497
▁감도	-14498
▁초회	-14499
ands	-14500
▁Yes	-14501
▁명령어	-14502
▁내려찍	-14503
▁너구리	-14504
▁금성	-14505
▁뾰족	-14506
▁오피	-14507
▁기병대	-14508
▁패트릭	-14509
▁모티	-14510
▁이화	-14511
▁두드리	-14512
▁날아오르	-14513
▁광주광역시	-14514
▁207	-14515
▁이지스	-14516
34	-14517
▁화장품	-14518
▁교재	-14519
▁차세대	-14520
▁창세기	-14521
▁황자	-14522
▁플라잉	-14523
▁baby	-14524
▁노랑	-14525
▁위생	-14526
▁COM	-14527
두근	-14528
▁단백	-14529
▁청동	-14530
▁외야	-14531
▁풋볼	-14532
▁동물원	-14533
▁티탄	-14534
▁단말기	-14535
쿠버	-14536
▁불기	-14537
ze	-14538
▁구세	-14539
▁넵튠	-14540
▁배고	-14541
▁기타리스트	-14542
바시	-14543
▁매지컬	-14544
▁분자	-14545
▁새신	-14546
▁터무니	-14547
▁래스	-14548
▁서문	-14549
▁520	-14550
▁슈타	-14551
▁유세	-14552
▁ㄴㅜ	-14553
▁네타	-14554
▁푸드	-14555
▁각색	-14556
▁겉보기	-14557
▁good	-14558
▁바사	-14559
▁초중	-14560
▁인신	-14561
▁로자	-14562
▁ㄴㅡㄴㄱㅜㄴㅏ	-14563
▁루리웹	-14564
▁과하	-14565
▁777	-14566
ien	-14567
▁이터널	-14568
▁지휘자	-14569
▁정진	-14570
▁채굴	-14571
그러지	-14572
▁over	-14573
▁영재	-14574
▁무어	-14575
▁트레버	-14576
▁박기	-14577
▁타협	-14578
▁붕대	-14579
▁무언가	-14580
▁나우	-14581
▁PA	-14582
아스	-14583
▁고스란히	-14584
교육	-14585
용차	-14586
▁타츠야	-14587
▁버금가	-14588
▁동거	-14589
캐스트	-14590
▁제품군	-14591
▁재해	-14592
큐버스	-14593
▁BASIC	-14594
▁들통	-14595
▁체급	-14596
▁상정	-14597
▁문호	-14598
▁친근	-14599
▁조비	-14600
▁포화	-14601
방사기	-14602
▁화염방사기	-14603
▁천체	-14604
ited	-14605
▁그래프	-14606
▁최적화	-14607
▁그지	-14608
▁송파	-14609
▁철벽	-14610
▁항로	-14611
▁Mir	-14612
▁집정관	-14613
▁몰아치	-14614
▁단연	-14615
▁독설	-14616
▁자의	-14617
▁비정	-14618
▁..'	-14619
▁IDOLM	-14620
▁보유자	-14621
▁도널드	-14622
▁성급	-14623
▁애프터	-14624
▁정제	-14625
▁ㄹㅏㄷㅡㄴㅈㅣ	-14626
겨지	-14627
▁배럴	-14628
▁일부분	-14629
▁구치	-14630
▁로로	-14631
▁한결	-14632
▁동포	-14633
▁호라이	-14634
▁크레이지	-14635
▁블라디미르	-14636
▁209	-14637
▁강호동	-14638
▁뿜어내	-14639
▁다트	-14640
▁김택용	-14641
▁부딪치	-14642
르바	-14643
▁전투복	-14644
준호	-14645
▁상류	-14646
둘기	-14647
위치	-14648
▁그토록	-14649
▁소모품	-14650
▁미공	-14651
▁Bur	-14652
▁감속	-14653
▁순순	-14654
▁심슨	-14655
거진	-14656
파니	-14657
▁다이렉트	-14658
▁배틀필드	-14659
au	-14660
▁~'	-14661
▁선비	-14662
▁터리	-14663
▁장동민	-14664
중국	-14665
▁이가	-14666
▁중령	-14667
▁col	-14668
▁자라나	-14669
▁콜롬비아	-14670
▁사시	-14671
▁선명	-14672
▁일갈	-14673
▁Project	-14674
▁억압	-14675
▁사설	-14676
블랑	-14677
▁휴전	-14678
▁로드리	-14679
▁버니	-14680
▁탈리	-14681
▁주시	-14682
▁골리앗	-14683
▁로마자	-14684
▁민병대	-14685
▁TF	-14686
▁투타	-14687
로이	-14688
▁두텁	-14689
▁김영삼	-14690
▁대제	-14691
▁류지	-14692
▁시세	-14693
▁ㅇㅕㄷㅗ	-14694
▁당근	-14695
▁모방	-14696
▁전류	-14697
▁스탠딩	-14698
▁Sur	-14699
▁간장	-14700
▁신촌	-14701
▁장단	-14702
▁1400	-14703
▁안토니오	-14704
▁미유	-14705
36	-14706
▁비범	-14707
▁정직	-14708
▁단거리	-14709
▁시프트	-14710
▁마코	-14711
▁주성	-14712
▁이어폰	-14713
▁시제	-14714
▁Off	-14715
▁백수	-14716
▁차마	-14717
▁솔리드	-14718
▁최우선	-14719
▁탄수	-14720
▁투기	-14721
▁yeah	-14722
▁황족	-14723
ius	-14724
▁긴장감	-14725
▁세이지	-14726
▁관대	-14727
▁현질	-14728
드리히	-14729
▁군중	-14730
▁끊이	-14731
▁운전자	-14732
▁행정부	-14733
▁비즈니스	-14734
▁톡톡	-14735
▁사바	-14736
▁창원시	-14737
▁콥	-14738
▁증후군	-14739
▁짓밟	-14740
▁랜디	-14741
▁군단장	-14742
▁역전패	-14743
▁노마	-14744
▁써니	-14745
▁이나즈마	-14746
21	-14747
▁나탈	-14748
▁칸나	-14749
▁인스	-14750
▁KD	-14751
▁자민	-14752
▁락스	-14753
▁아노	-14754
▁글리	-14755
▁노사	-14756
▁정연	-14757
▁침식	-14758
▁유스케	-14759
▁결별	-14760
▁찾아다니	-14761
▁가가	-14762
▁사카모토	-14763
▁출세	-14764
▁아르테	-14765
▁FFFFFF	-14766
▁제네시스	-14767
▁체조	-14768
▁대두	-14769
▁미토	-14770
▁선형	-14771
▁탈탈	-14772
▁Bad	-14773
▁프론티어	-14774
▁아르메	-14775
▁치히로	-14776
▁심포	-14777
▁액트	-14778
oney	-14779
HD	-14780
UK	-14781
▁루드	-14782
▁에로게	-14783
▁눌	-14784
▁재빠르	-14785
ata	-14786
▁마호	-14787
▁매사	-14788
▁분전	-14789
▁템플러	-14790
AA	-14791
▁동대문	-14792
▁전갈	-14793
▁천도	-14794
▁스탠스	-14795
▁저력	-14796
▁WOR	-14797
▁안중	-14798
▁1938	-14799
▁가산	-14800
▁공석	-14801
▁산화	-14802
▁휘둘리	-14803
▁엠파이어	-14804
▁bo	-14805
▁순순히	-14806
▁코브라	-14807
▁노이	-14808
▁매개	-14809
▁배척	-14810
▁구애	-14811
▁관건	-14812
▁지체	-14813
▁피버	-14814
▁파열	-14815
▁데뷔작	-14816
▁Po	-14817
▁명품	-14818
▁안치	-14819
▁학업	-14820
▁유노	-14821
▁요동	-14822
▁성가시	-14823
틱스	-14824
▁Int	-14825
▁결투장	-14826
▁프리드리히	-14827
▁페루	-14828
드래곤	-14829
준혁	-14830
방식	-14831
페스트	-14832
▁ac	-14833
▁버즈	-14834
▁치프	-14835
▁리조트	-14836
INE	-14837
▁쏠리	-14838
▁티나	-14839
제이	-14840
▁산산	-14841
▁섹터	-14842
▁비올	-14843
vent	-14844
마트	-14845
▁현행	-14846
▁Are	-14847
▁영령	-14848
▁졸지	-14849
▁단번에	-14850
▁메이크	-14851
렁이	-14852
▁조류	-14853
▁오아	-14854
▁자본주의	-14855
감치	-14856
▁올리버	-14857
▁ㅁㅕㄴㅇㅡㄴ	-14858
▁Ul	-14859
▁응징	-14860
▁조로	-14861
▁때때로	-14862
▁마리사	-14863
▁ㄹㅣㅇㅏ	-14864
▁걸스	-14865
▁멀린	-14866
찌감치	-14867
▁메두사	-14868
▁튜브	-14869
▁DDR	-14870
토미	-14871
▁입법	-14872
▁say	-14873
▁꼼짝	-14874
▁외래어	-14875
▁어도	-14876
▁두께	-14877
▁총구	-14878
고루	-14879
▁275	-14880
▁성유	-14881
▁카논	-14882
▁츠바키	-14883
▁#,	-14884
▁WCS	-14885
▁하늘색	-14886
▁외침	-14887
▁잿	-14888
▁마공	-14889
line	-14890
▁즉석	-14891
▁다이크	-14892
▁블루스	-14893
▁애틀	-14894
▁노스케	-14895
▁팻	-14896
컨대	-14897
▁샌디	-14898
▁Ass	-14899
▁음모론	-14900
▁JC	-14901
▁대장장이	-14902
▁브리핑	-14903
▁쌩	-14904
▁엇갈리	-14905
▁광학	-14906
비언	-14907
▁'-	-14908
▁소량	-14909
▁갱단	-14910
▁프라이즈	-14911
▁거듭나	-14912
▁TWICE	-14913
▁PvP	-14914
▁법무부	-14915
▁아츠시	-14916
▁신한은행	-14917
▁로미	-14918
▁베른	-14919
▁org	-14920
홍철	-14921
▁용품	-14922
▁만화책	-14923
▁가와	-14924
▁괴멸	-14925
▁시발	-14926
▁221	-14927
툭튀	-14928
▁치아	-14929
▁쿼드	-14930
▁행각	-14931
▁릭스	-14932
▁애틀랜	-14933
UL	-14934
▁래쉬	-14935
▁몬테	-14936
▁사생활	-14937
▁건립	-14938
▁수뇌	-14939
▁노후	-14940
▁레베	-14941
▁재혼	-14942
▁쪽지	-14943
ague	-14944
▁란트	-14945
▁교직원	-14946
▁수군	-14947
▁척하	-14948
▁노동당	-14949
▁즘	-14950
규어	-14951
▁갑툭튀	-14952
▁폭군	-14953
▁폭투	-14954
세이더	-14955
▁AMD	-14956
▁크루세이더	-14957
▁캉	-14958
▁발트	-14959
▁패미컴	-14960
▁거유	-14961
▁정자	-14962
▁아쉬워하	-14963
▁부합	-14964
▁에프	-14965
▁최진	-14966
▁뒤바	-14967
ton	-14968
▁케미	-14969
▁ㄴㄷㅏㄷㅡㄴㄱㅏ	-14970
어들이	-14971
▁see	-14972
▁번거	-14973
▁Eng	-14974
▁빼놓	-14975
▁시애	-14976
▁헬로	-14977
▁여행자	-14978
▁샌드박스	-14979
▁대관	-14980
▁시오리	-14981
▁Match	-14982
▁셔츠	-14983
ck	-14984
UST	-14985
▁제드	-14986
▁경전차	-14987
▁수영장	-14988
▁경비원	-14989
78	-14990
▁희미	-14991
▁중소기업	-14992
▁커맨더	-14993
▁길목	-14994
▁피크	-14995
▁클로버	-14996
▁Char	-14997
▁모치	-14998
▁힘쓰	-14999
▁짤막	-15000
▁케르	-15001
▁릉	-15002
▁제각	-15003
▁요르	-15004
▁타케루	-15005
▁홈구장	-15006
매매	-15007
피탈	-15008
▁세토	-15009
▁시르	-15010
▁여명	-15011
▁치밀	-15012
▁막아서	-15013
의지	-15014
▁시립	-15015
▁앞쪽	-15016
▁진공	-15017
▁하얀	-15018
▁바이퍼	-15019
▁부녀	-15020
▁플로리다	-15021
▁고원	-15022
▁fr	-15023
▁수도원	-15024
▁기린	-15025
매치	-15026
▁아재	-15027
▁부두	-15028
▁메르시	-15029
▁1952	-15030
und	-15031
▁조원	-15032
▁퇴마	-15033
▁아카기	-15034
▁데스매치	-15035
▁방대	-15036
▁탈주	-15037
▁힘겹	-15038
▁데이비스	-15039
▁XY	-15040
▁케어	-15041
▁Now	-15042
나들	-15043
장구	-15044
▁가쿠	-15045
▁슬쩍	-15046
▁여덟	-15047
레즈	-15048
▁유시	-15049
▁헤븐	-15050
▁볼일	-15051
▁RED	-15052
erm	-15053
▁타가	-15054
▁슬래시	-15055
▁엘소드	-15056
ute	-15057
▁일선	-15058
▁앨리	-15059
▁노드	-15060
▁레비	-15061
▁최형	-15062
▁금곡	-15063
▁리벤	-15064
▁욕먹	-15065
▁트레인	-15066
▁티타	-15067
▁자판기	-15068
▁저스틴	-15069
천역	-15070
▁묵직	-15071
▁넘쳐나	-15072
▁사업자	-15073
▁일직선	-15074
▁리언	-15075
▁히이	-15076
자루	-15077
▁리히	-15078
▁우동	-15079
▁조인	-15080
ILL	-15081
▁브란	-15082
▁농촌	-15083
▁위조	-15084
▁시애틀	-15085
▁일정량	-15086
▁루즈	-15087
▁216	-15088
맹이	-15089
▁흉터	-15090
▁Core	-15091
▁정적	-15092
▁선하	-15093
▁세단	-15094
▁스스	-15095
▁환불	-15096
▁햇빛	-15097
▁재규어	-15098
▁right	-15099
일관	-15100
▁소름	-15101
▁매거진	-15102
▁수속	-15103
▁츠치	-15104
▁명장면	-15105
▁발렌시아	-15106
▁도보	-15107
▁매점	-15108
▁화랑	-15109
▁바흐	-15110
▁스노	-15111
▁눈부시	-15112
▁악인	-15113
▁유배	-15114
▁Blood	-15115
▁가주	-15116
▁댈	-15117
▁부끄	-15118
▁현수	-15119
▁티셔츠	-15120
▁다크니스	-15121
▁모건	-15122
▁농어촌	-15123
▁고모	-15124
▁눕히	-15125
▁센트리	-15126
red	-15127
▁관전	-15128
▁누님	-15129
▁오일	-15130
▁BW	-15131
▁마토	-15132
▁럭스	-15133
▁416	-15134
▁충실히	-15135
▁}}}}	-15136
▁대장군	-15137
▁2021	-15138
▁해저	-15139
아내리	-15140
hy	-15141
▁213	-15142
▁아틀라스	-15143
▁고베	-15144
▁무모	-15145
▁헤라클레스	-15146
▁숙명	-15147
▁충동	-15148
▁Joh	-15149
▁our	-15150
▁서스	-15151
▁심부	-15152
▁후후	-15153
▁ㅇㅣㄴ	-15154
▁세무	-15155
▁우이	-15156
▁코칭	-15157
▁동국	-15158
▁헌병	-15159
▁기공	-15160
▁장녀	-15161
▁}}}}}}	-15162
▁조슈	-15163
▁아득	-15164
▁BRV	-15165
▁충공	-15166
▁Rob	-15167
▁분수	-15168
▁능동	-15169
▁건너편	-15170
▁학부모	-15171
▁선글라스	-15172
▁애리	-15173
▁햄버거	-15174
▁국물	-15175
▁후리	-15176
▁에테르	-15177
정동	-15178
▁평안	-15179
▁기염	-15180
▁시빌	-15181
▁아리사	-15182
▁레그	-15183
▁마사무네	-15184
▁간편	-15185
▁퍼시픽	-15186
55	-15187
게임넷	-15188
▁Ook	-15189
▁온게임넷	-15190
▁국정원	-15191
▁세실	-15192
▁야자	-15193
애미	-15194
▁사납	-15195
▁BBC	-15196
▁비둘기	-15197
▁ㄷㅏㄱㅜ	-15198
ism	-15199
수엘라	-15200
▁짊	-15201
▁경의	-15202
▁친선	-15203
▁보이드	-15204
▁마이애미	-15205
▁선천	-15206
▁소망	-15207
코스	-15208
▁둔화	-15209
▁사쿠야	-15210
▁Last	-15211
▁모탈	-15212
▁속사	-15213
▁1300	-15214
▁재화	-15215
▁중사	-15216
▁강남구	-15217
▁병신	-15218
▁필기	-15219
▁1953	-15220
▁급상	-15221
▁방어전	-15222
▁cr	-15223
▁여하	-15224
▁친화	-15225
▁여느	-15226
▁회자	-15227
▁블리츠	-15228
III	-15229
▁테츠야	-15230
▁익스프레스	-15231
조작	-15232
▁슬라이딩	-15233
▁돌풍	-15234
▁라지	-15235
OCK	-15236
▁앞장	-15237
어내리	-15238
▁미니게임	-15239
▁리시	-15240
▁임상	-15241
▁레이크	-15242
▁근래	-15243
▁필승	-15244
▁악질	-15245
▁완패	-15246
▁기생충	-15247
▁디트로	-15248
▁승부조작	-15249
▁승부차기	-15250
▁디트로이트	-15251
▁찜	-15252
▁튀김	-15253
▁검찰청	-15254
미사	-15255
뿌리	-15256
▁기통	-15257
▁과다	-15258
▁서유	-15259
▁소아	-15260
▁순삭	-15261
▁자자	-15262
▁기판	-15263
▁벤트	-15264
▁국수	-15265
▁타오르	-15266
▁서인	-15267
ets	-15268
▁쓸쓸	-15269
▁자가	-15270
▁직계	-15271
88	-15272
▁안식	-15273
▁경영학	-15274
▁통학	-15275
▁암흑기	-15276
타기	-15277
▁가세	-15278
▁세레나	-15279
▁재판소	-15280
▁구미호	-15281
▁단백질	-15282
▁두근두근	-15283
▁pe	-15284
▁토코	-15285
▁표명	-15286
미츠	-15287
▁조선일보	-15288
▁무네	-15289
▁호우	-15290
▁전고	-15291
괭이	-15292
add	-15293
▁마취	-15294
▁백룡	-15295
▁알비	-15296
▁사병	-15297
▁그해	-15298
▁눈썹	-15299
▁진해	-15300
▁풍속	-15301
▁극성	-15302
▁아종	-15303
▁희생양	-15304
▁피신	-15305
▁해프	-15306
▁유소년	-15307
▁토사	-15308
▁데스크	-15309
▁잽	-15310
OWN	-15311
▁NA	-15312
▁엘런	-15313
▁료마	-15314
▁시라이	-15315
▁업종	-15316
▁홉	-15317
그마	-15318
▁비석	-15319
▁재선	-15320
▁총대	-15321
▁베네수엘라	-15322
▁암기	-15323
▁이천	-15324
▁나뭇잎	-15325
▁동산	-15326
이프	-15327
▁활주로	-15328
▁데일리	-15329
▁Magic	-15330
포로	-15331
▁팬클럽	-15332
▁권고	-15333
▁7000	-15334
▁RR	-15335
▁가넷	-15336
▁초딩	-15337
▁침체	-15338
▁양도	-15339
▁이의	-15340
▁재미없	-15341
▁중화기	-15342
▁피칭	-15343
▁볼리	-15344
니지	-15345
ama	-15346
▁덤벼	-15347
▁이대호	-15348
▁농부	-15349
▁사위	-15350
▁서약	-15351
▁경희대	-15352
▁드래곤즈	-15353
▁날라	-15354
▁총사령관	-15355
▁고갈	-15356
▁포진	-15357
▁Like	-15358
▁there	-15359
▁ㅁㅐ	-15360
▁메탈기어	-15361
외선	-15362
▁박태	-15363
▁차출	-15364
▁프라이드	-15365
▁사력	-15366
▁이메	-15367
▁영화관	-15368
▁조세	-15369
▁갈아입	-15370
▁거미줄	-15371
▁그물	-15372
▁사단장	-15373
▁HOT	-15374
▁Alb	-15375
▁방관	-15376
▁불안감	-15377
▁니즘	-15378
▁드래그	-15379
▁첨가	-15380
▁히코	-15381
▁자멸	-15382
▁금하	-15383
▁아킬	-15384
▁자정	-15385
▁매그넘	-15386
장판	-15387
▁반달	-15388
▁정종	-15389
▁불허	-15390
▁방정식	-15391
▁카츠키	-15392
니르	-15393
▁몽땅	-15394
▁화룡	-15395
▁낙하산	-15396
▁잔여	-15397
▁수송선	-15398
▁프랭클린	-15399
▁케니	-15400
▁잘생기	-15401
▁신종	-15402
▁원어	-15403
▁거리표	-15404
▁관광지	-15405
▁Soul	-15406
▁이범	-15407
▁Happy	-15408
ther	-15409
▁해프닝	-15410
탕스	-15411
▁상하이	-15412
▁성남시	-15413
▁레지스탕스	-15414
▁권역	-15415
▁몸집	-15416
▁사역	-15417
▁악보	-15418
▁혼나	-15419
▁남극	-15420
▁RPM	-15421
▁화판	-15422
▁ㄱㅓㄴㅣㅇㅘ	-15423
▁토토	-15424
▁퍼니	-15425
▁ㄸ	-15426
▁연안	-15427
▁뒤쳐지	-15428
▁테슬라	-15429
▁정윤	-15430
ader	-15431
▁쌈	-15432
▁텐더	-15433
ERF	-15434
▁대입	-15435
▁장기전	-15436
▁범주	-15437
▁성동	-15438
▁순조	-15439
▁음란	-15440
▁사비	-15441
▁마키나	-15442
▁이목	-15443
▁Nor	-15444
▁기어이	-15445
▁베르크	-15446
▁포레스트	-15447
이인	-15448
▁223	-15449
▁대의	-15450
▁철퇴	-15451
▁룽	-15452
▁미나토	-15453
▁비대	-15454
▁하자드	-15455
▁막말	-15456
▁이로	-15457
▁리포	-15458
▁본드	-15459
▁클라우	-15460
▁임용	-15461
▁체구	-15462
▁큰일	-15463
▁아레스	-15464
자국	-15465
▁미달	-15466
▁비룡	-15467
▁역설	-15468
▁전과	-15469
▁TT	-15470
▁법정동	-15471
▁체로	-15472
니치	-15473
▁사요	-15474
▁엑셀	-15475
▁영조	-15476
▁his	-15477
▁깜빡	-15478
▁조나	-15479
▁읊	-15480
▁코로	-15481
트리스	-15482
▁김소	-15483
▁치키	-15484
▁바트	-15485
▁선역	-15486
▁정대	-15487
▁골고루	-15488
부리	-15489
▁who	-15490
ㄹㅏㄴㅡㄴ	-15491
▁산체스	-15492
▁하이브	-15493
▁계승자	-15494
▁마크로스	-15495
▁코팅	-15496
▁Party	-15497
▁네로	-15498
▁삽입곡	-15499
▁맨날	-15500
▁무당	-15501
▁임페	-15502
▁쿠도	-15503
▁365	-15504
▁주임	-15505
▁레프트	-15506
▁멱	-15507
ocal	-15508
베이스	-15509
▁시종일관	-15510
▁net	-15511
벅지	-15512
▁수법	-15513
▁일찌감치	-15514
▁ㄹㅑ	-15515
▁미용	-15516
▁충공깽	-15517
▁watch	-15518
▁문성	-15519
▁got	-15520
▁크리드	-15521
▁Side	-15522
▁투석	-15523
ㄲㅏㄴ	-15524
▁해결책	-15525
▁쩌	-15526
▁용왕	-15527
▁남친	-15528
▁식인	-15529
▁음식점	-15530
▁GX	-15531
▁교향곡	-15532
▁감염자	-15533
▁동명이인	-15534
▁내리치	-15535
▁1957	-15536
▁덕택	-15537
▁산호	-15538
▁성희	-15539
▁girl	-15540
▁아르메니아	-15541
▁연성	-15542
▁역과	-15543
▁도입부	-15544
uz	-15545
▁폐하	-15546
▁Sim	-15547
▁붉은색	-15548
▁장학금	-15549
▁Show	-15550
형제	-15551
▁시위대	-15552
▁ㄴㄷㅏㄷㅡㄴㅈㅣ	-15553
▁공중전	-15554
▁여대	-15555
▁청문	-15556
OWER	-15557
▁크로노스	-15558
▁노원	-15559
▁장담	-15560
▁사우디아	-15561
▁격납	-15562
▁수납	-15563
▁며느리	-15564
▁IF	-15565
▁민트	-15566
▁얌전	-15567
▁적기	-15568
ga	-15569
▁성범죄	-15570
▁에티	-15571
▁이쁘	-15572
▁경합	-15573
▁후려치	-15574
▁Edition	-15575
BOX	-15576
▁Open	-15577
ONE	-15578
▁에러	-15579
▁아유미	-15580
▁feel	-15581
▁남아공	-15582
▁보급품	-15583
▁진행하	-15584
▁뜬공	-15585
ated	-15586
▁링컨	-15587
▁특출나	-15588
▁쟁탈전	-15589
▁에어리어	-15590
▁전복	-15591
▁370	-15592
▁브라이	-15593
▁이츠키	-15594
▁잣	-15595
▁크리에이터	-15596
▁일기토	-15597
▁카메오	-15598
더리	-15599
rew	-15600
▁작물	-15601
▁타지	-15602
▁스피리	-15603
▁위태	-15604
▁플랫폼	-15605
84	-15606
▁레타	-15607
▁재무	-15608
▁토카	-15609
▁능욕	-15610
▁시커	-15611
▁내려지	-15612
▁임페리얼	-15613
▁터프	-15614
▁헤지	-15615
▁Cap	-15616
▁알파벳	-15617
▁부러	-15618
▁Way	-15619
▁급상승	-15620
▁김호	-15621
▁카터	-15622
▁왕건	-15623
▁빽	-15624
▁충주	-15625
▁Und	-15626
▁만악	-15627
▁바람직	-15628
▁인플레	-15629
ASS	-15630
▁평정	-15631
ley	-15632
▁유수	-15633
▁윤성	-15634
▁대변인	-15635
▁라이토	-15636
amu	-15637
▁구루	-15638
▁백지	-15639
▁신년	-15640
▁Mark	-15641
▁민족주의	-15642
▁키쿠	-15643
work	-15644
▁구라	-15645
▁떨리	-15646
▁베르나	-15647
▁아프가	-15648
▁변함	-15649
▁이도	-15650
▁바운드	-15651
▁복권	-15652
▁주루	-15653
▁특권	-15654
▁활약상	-15655
▁효력	-15656
▁무서	-15657
▁시드니	-15658
▁쿠폰	-15659
▁총재	-15660
▁토우마	-15661
▁남짓	-15662
▁전령	-15663
ster	-15664
▁ㄴㄷㅐ	-15665
▁푸쉬	-15666
▁후카	-15667
▁지자체	-15668
▁짊어지	-15669
hammer	-15670
▁카트리	-15671
▁몸체	-15672
▁의존도	-15673
▁ㅇㅡㄴㄱㅏ	-15674
▁헤더	-15675
ird	-15676
▁알맞	-15677
▁맞대결	-15678
▁1947	-15679
▁경순양함	-15680
▁잠식	-15681
▁정경	-15682
▁플레인	-15683
▁맞춤	-15684
▁상임	-15685
▁익명	-15686
▁Angel	-15687
선거	-15688
피드	-15689
▁누락	-15690
▁소주	-15691
▁화끈	-15692
▁Pol	-15693
▁디에고	-15694
▁하시모토	-15695
▁꼭대기	-15696
▁이끌리	-15697
▁출연자	-15698
▁프레드	-15699
▁천연가스	-15700
▁퍼트	-15701
▁희박	-15702
벨트	-15703
▁생포	-15704
▁도호쿠	-15705
▁벌어들이	-15706
▁소탕	-15707
▁입상	-15708
▁중추	-15709
▁SKE	-15710
▁근황	-15711
▁저항군	-15712
▁기각	-15713
▁옵스	-15714
▁항우	-15715
▁FBI	-15716
▁성주	-15717
▁유하	-15718
▁그리폰	-15719
▁의류	-15720
▁에어컨	-15721
▁자위	-15722
▁Val	-15723
▁무패	-15724
▁미카엘	-15725
▁알루미	-15726
▁블루투스	-15727
▁ㅎㅏ	-15728
▁어쩌다	-15729
▁Na	-15730
▁화질	-15731
▁알코	-15732
▁엠마	-15733
▁헌납	-15734
▁버퍼	-15735
▁벼락	-15736
▁분과	-15737
▁허니	-15738
▁아야노	-15739
▁하반신	-15740
▁부디	-15741
▁수족	-15742
▁절약	-15743
▁행세	-15744
▁방영일	-15745
▁배수량	-15746
▁댈러스	-15747
▁이유로	-15748
▁Comp	-15749
▁micro	-15750
▁통역	-15751
▁오리콘	-15752
▁한성	-15753
라비아	-15754
▁명은	-15755
▁복각	-15756
▁투표율	-15757
▁ㄴㄷㅔㄷㅏㄱㅏ	-15758
▁흐트	-15759
레톤	-15760
▁교무실	-15761
IVE	-15762
▁유교	-15763
▁화보	-15764
더스트	-15765
▁950	-15766
▁역전재판	-15767
▁선별	-15768
▁재주	-15769
▁그제서야	-15770
▁스켈레톤	-15771
▁봄버	-15772
▁비열	-15773
▁234	-15774
▁금서	-15775
▁공시	-15776
▁수분	-15777
▁활기	-15778
▁트라웃	-15779
▁점포	-15780
▁추위	-15781
▁과잉	-15782
▁상경	-15783
▁물음	-15784
▁비운	-15785
▁예매	-15786
▁촛불	-15787
ㄱㅓㄹ	-15788
▁틀어막	-15789
▁애틀랜타	-15790
혀가	-15791
▁꾀하	-15792
▁엑스맨	-15793
▁아프가니스탄	-15794
캐슬	-15795
▁Stage	-15796
▁상고	-15797
부수	-15798
▁레테	-15799
▁연기자	-15800
▁잡혀가	-15801
ㄷㅐ	-15802
▁로버	-15803
▁수박	-15804
▁양평	-15805
▁개화	-15806
▁부토	-15807
▁경비병	-15808
▁내공	-15809
▁Fly	-15810
▁엎드리	-15811
▁구비	-15812
▁불분	-15813
▁알몸	-15814
▁상승세	-15815
▁아스타	-15816
▁전념	-15817
▁반대쪽	-15818
▁미공개	-15819
▁life	-15820
▁시연	-15821
▁엄폐물	-15822
▁249	-15823
74	-15824
고생	-15825
▁후작	-15826
지기	-15827
해군	-15828
▁치토	-15829
▁가중	-15830
▁키시	-15831
▁박병호	-15832
▁베아	-15833
▁무방비	-15834
▁온전	-15835
▁피쳐	-15836
▁번영	-15837
▁신민	-15838
▁수뇌부	-15839
▁Fall	-15840
▁090	-15841
▁전염병	-15842
▁Legend	-15843
▁검도	-15844
▁엘더스	-15845
▁First	-15846
▁단타	-15847
▁머릿속	-15848
▁뉴캐슬	-15849
▁ㄱㅓㄹㅏ	-15850
▁ㄴㅗㄹㅏ	-15851
▁쥴	-15852
▁유한	-15853
무로	-15854
▁사죄	-15855
▁김구라	-15856
▁219	-15857
▁중공업	-15858
▁겸비	-15859
▁미처	-15860
▁좌완	-15861
▁중론	-15862
▁245	-15863
닥치	-15864
▁막론	-15865
▁승승	-15866
▁이석	-15867
▁중순양함	-15868
▁키사라기	-15869
치오	-15870
▁개더링	-15871
stem	-15872
▁엘릭	-15873
▁웨딩	-15874
▁조현	-15875
▁검기	-15876
▁마운틴	-15877
▁불분명	-15878
ura	-15879
▁불가피	-15880
▁어설트	-15881
▁호라이즌	-15882
▁전경	-15883
▁빅토리	-15884
▁ㄹㅏㅂㅅㅣㄱㅗ	-15885
▁갑주	-15886
▁이관	-15887
▁빌헬	-15888
▁포메	-15889
▁껴	-15890
▁진범	-15891
▁바드	-15892
▁Free	-15893
▁Perf	-15894
건설	-15895
소니	-15896
▁코일	-15897
▁유다	-15898
▁투르	-15899
▁후세	-15900
▁오바마	-15901
▁급습	-15902
▁세조	-15903
▁오카다	-15904
▁그리스어	-15905
tm	-15906
▁부기	-15907
▁덩달	-15908
▁이문	-15909
▁자바	-15910
▁판과	-15911
▁경전철	-15912
슬쩍	-15913
▁손책	-15914
▁총회	-15915
▁알루미늄	-15916
▁오리지날	-15917
▁자유주의	-15918
▁겁쟁이	-15919
▁Break	-15920
▁메츠	-15921
▁죄인	-15922
▁540	-15923
▁스튜어트	-15924
▁Er	-15925
▁김신	-15926
▁티거	-15927
udio	-15928
만다	-15929
▁복부	-15930
▁만화가	-15931
▁프리드	-15932
▁준장	-15933
▁질질	-15934
▁허술	-15935
▁카자마	-15936
▁선지	-15937
▁언론사	-15938
레일리아	-15939
▁콩두	-15940
▁아벨	-15941
▁top	-15942
▁송병구	-15943
▁Class	-15944
▁로페	-15945
▁체내	-15946
▁명백히	-15947
▁노프	-15948
▁푸른색	-15949
가요	-15950
▁부우	-15951
▁How	-15952
▁성우진	-15953
▁명실	-15954
▁무소	-15955
▁소폭	-15956
▁운임	-15957
ling	-15958
▁Final	-15959
▁수혜	-15960
▁대리인	-15961
▁무리수	-15962
▁유죄	-15963
▁케로로	-15964
err	-15965
▁비평	-15966
▁선상	-15967
피어	-15968
▁쇼군	-15969
▁쌍용	-15970
▁악수	-15971
▁열렬	-15972
▁졸리	-15973
페어	-15974
▁나지	-15975
▁잠자	-15976
▁유체	-15977
▁오우거	-15978
▁베끼	-15979
▁GDP	-15980
▁If	-15981
▁더러	-15982
▁440	-15983
▁동유럽	-15984
▁파워레인저	-15985
▁법조	-15986
▁뛰어내리	-15987
TH	-15988
▁창출	-15989
yes	-15990
▁신격	-15991
▁Never	-15992
▁수제	-15993
▁앤더슨	-15994
▁지명타자	-15995
▁루기	-15996
▁망각	-15997
▁베레	-15998
▁자치령	-15999
▁쥬라기	-16000
▁로토	-16001
▁엠블럼	-16002
▁City	-16003
▁뚱뚱	-16004
▁세가	-16005
▁잔재	-16006
▁한승	-16007
▁Spring	-16008
▁나카노	-16009
▁빈센트	-16010
▁평지	-16011
▁힘내	-16012
▁김정일	-16013
arius	-16014
▁밀러	-16015
▁슬래	-16016
▁조니	-16017
영수	-16018
▁또래	-16019
▁하얀색	-16020
ux	-16021
▁번번	-16022
▁벤츠	-16023
▁중파	-16024
▁Cor	-16025
▁사우디아라비아	-16026
▁봉하	-16027
▁Down	-16028
▁제복	-16029
▁카라스	-16030
▁김제	-16031
▁224	-16032
▁동급생	-16033
AGE	-16034
▁MAN	-16035
▁안테나	-16036
▁사냥터	-16037
▁이니셜	-16038
▁무안타	-16039
▁품종	-16040
그라드	-16041
ause	-16042
▁이시카와	-16043
▁하나님	-16044
▁분화	-16045
▁1951	-16046
고쿠	-16047
▁일개	-16048
▁Mon	-16049
▁AW	-16050
▁린다	-16051
▁자재	-16052
▁한국군	-16053
▁띵	-16054
▁신태	-16055
▁난장판	-16056
▁광폭	-16057
▁우먼	-16058
▁PRO	-16059
▁체크카드	-16060
▁선후	-16061
▁우려먹	-16062
▁의뢰인	-16063
▁걷어	-16064
▁지중	-16065
▁삿포로	-16066
▁티라노	-16067
▁청주시	-16068
피온	-16069
▁버겁	-16070
▁시녀	-16071
▁섣	-16072
▁어로	-16073
▁뛰어오르	-16074
▁하쿠	-16075
즐리	-16076
tain	-16077
▁팰리스	-16078
제리	-16079
영향	-16080
▁sk	-16081
▁직진	-16082
▁편도	-16083
▁나오키	-16084
스부르크	-16085
▁도메	-16086
▁마석	-16087
▁세이부	-16088
▁KCC	-16089
▁cont	-16090
▁대전광역시	-16091
▁굴러가	-16092
▁바알	-16093
▁한중	-16094
▁GOT	-16095
▁베토	-16096
▁전우	-16097
현동	-16098
▁오스틴	-16099
▁1914	-16100
▁성품	-16101
▁메가트론	-16102
REME	-16103
라이언트	-16104
▁최원	-16105
▁사복	-16106
▁연호	-16107
▁니퍼	-16108
▁BP	-16109
▁승계	-16110
▁오산	-16111
블루	-16112
▁맥시	-16113
▁성령	-16114
▁반납	-16115
▁끝없이	-16116
▁클라이언트	-16117
▁젓	-16118
▁ㅏㄹㅏ	-16119
▁엠블렘	-16120
▁9000	-16121
▁불발	-16122
▁저음	-16123
IME	-16124
▁염동	-16125
▁서스펜	-16126
▁레니	-16127
▁이형	-16128
▁숙지	-16129
▁226	-16130
재욱	-16131
▁베로	-16132
▁청취	-16133
▁판본	-16134
▁행군	-16135
▁노라	-16136
▁짱구	-16137
▁건축물	-16138
▁투여	-16139
▁결단	-16140
리히	-16141
▁Sn	-16142
▁주주	-16143
칼리버	-16144
raft	-16145
갔다	-16146
▁인승	-16147
신기	-16148
▁수전	-16149
▁밸브	-16150
▁저널	-16151
▁현무	-16152
▁알트	-16153
▁애시당초	-16154
▁순항	-16155
▁Swe	-16156
▁야스오	-16157
▁위닝	-16158
▁시리우스	-16159
나시	-16160
다듬	-16161
▁구이	-16162
▁마카오	-16163
▁코우지	-16164
▁이송	-16165
▁입당	-16166
▁end	-16167
erry	-16168
▁신봉	-16169
▁Mem	-16170
▁위저드	-16171
▁소란	-16172
▁허벅지	-16173
김없이	-16174
▁"'	-16175
▁말살	-16176
▁서동	-16177
▁스투	-16178
▁시프	-16179
iny	-16180
▁정치력	-16181
안군	-16182
▁곡사	-16183
▁광동	-16184
▁악장	-16185
▁회유	-16186
▁공채	-16187
▁밀접	-16188
▁어지럽	-16189
코스터	-16190
▁가늠	-16191
▁최형우	-16192
▁니즈	-16193
▁야인	-16194
▁국무총리	-16195
▁꾹	-16196
평균	-16197
▁박하	-16198
요리	-16199
▁체하	-16200
▁make	-16201
▁명왕	-16202
▁샬롯	-16203
▁슬러	-16204
▁다이빙	-16205
▁예술가	-16206
▁훈련소	-16207
▁티모	-16208
▁롤러코스터	-16209
▁사생	-16210
▁슬립	-16211
▁몸싸움	-16212
▁변속기	-16213
대표	-16214
▁라니	-16215
▁리제	-16216
▁월터	-16217
▁서재	-16218
▁페달	-16219
▁숨결	-16220
▁요양	-16221
▁후하	-16222
▁쇼타	-16223
▁브래드	-16224
83	-16225
▁합금	-16226
▁보호자	-16227
▁그레이브	-16228
테라	-16229
▁011	-16230
▁빙글	-16231
▁허다	-16232
▁시메	-16233
▁평준	-16234
▁얍	-16235
▁양양	-16236
▁블로킹	-16237
▁자택	-16238
▁베네치아	-16239
소통	-16240
▁1937	-16241
▁의사소통	-16242
▁칼질	-16243
▁호각	-16244
▁APC	-16245
▁검색어	-16246
▁반죽	-16247
de	-16248
▁험악	-16249
▁ㅇㅑㅁㅏㄹㄹㅗ	-16250
▁고뇌	-16251
▁생계	-16252
▁에버튼	-16253
▁미약	-16254
▁방망	-16255
▁노선도	-16256
▁오스트레일리아	-16257
▁과반	-16258
▁폴라	-16259
ival	-16260
테리어	-16261
▁세계수	-16262
살렘	-16263
▁play	-16264
▁탄두	-16265
▁토바	-16266
▁포자	-16267
▁사츠키	-16268
▁보성	-16269
▁어시	-16270
▁조개	-16271
▁착수	-16272
▁제너럴	-16273
▁코요미	-16274
▁RX	-16275
루살렘	-16276
리즘	-16277
▁크리스토퍼	-16278
걸음	-16279
▁반려	-16280
▁캠핑	-16281
▁키치	-16282
▁중산	-16283
▁애리조	-16284
▁ㄷㅏㄴㄷㅏ	-16285
▁착취	-16286
▁끌어오	-16287
▁강령	-16288
▁카르텔	-16289
▁어우러지	-16290
▁뺑	-16291
▁간절	-16292
▁린이	-16293
▁이강	-16294
▁큐트	-16295
가르드	-16296
▁연구자	-16297
▁만우	-16298
▁건의	-16299
▁양말	-16300
▁피그	-16301
▁잔소리	-16302
▁Christ	-16303
▁김은	-16304
▁PT	-16305
▁원성	-16306
▁야마자키	-16307
사람	-16308
▁톱니	-16309
▁사상자	-16310
ATE	-16311
▁일생	-16312
▁part	-16313
▁차오르	-16314
▁원상	-16315
▁판단력	-16316
▁츳	-16317
▁쌍검	-16318
▁펠트	-16319
▁375	-16320
RO	-16321
▁라리	-16322
▁받아치	-16323
▁근위	-16324
▁래리	-16325
▁면도	-16326
▁지하실	-16327
▁경시	-16328
▁생방송	-16329
먼드	-16330
하니	-16331
▁박차	-16332
▁춘추	-16333
▁디럭스	-16334
모델	-16335
▁매도	-16336
▁흉기	-16337
22	-16338
▁사찰	-16339
▁위아	-16340
▁aqu	-16341
que	-16342
▁편애	-16343
▁233	-16344
▁외장	-16345
▁이롭	-16346
▁찬사	-16347
▁정무	-16348
▁미도	-16349
▁사하	-16350
▁컬링	-16351
▁410	-16352
▁Hol	-16353
▁골짜기	-16354
▁Come	-16355
썰트	-16356
임수	-16357
▁고안	-16358
나가와	-16359
▁어썰트	-16360
넌트	-16361
▁성원	-16362
▁유승민	-16363
▁러스트	-16364
▁EXTREME	-16365
ONG	-16366
▁again	-16367
린더	-16368
▁김한	-16369
▁슈리	-16370
▁충원	-16371
이즈미	-16372
▁애니메이터	-16373
▁노획	-16374
▁태후	-16375
▁줄리아	-16376
▁예루살렘	-16377
전함	-16378
▁설진	-16379
▁오보	-16380
▁악영향	-16381
▁스테이크	-16382
▁악평	-16383
▁투수진	-16384
▁애니플러스	-16385
▁고철	-16386
▁곧장	-16387
▁한복	-16388
▁아르타	-16389
▁이달	-16390
▁Club	-16391
lo	-16392
▁KE	-16393
▁필적	-16394
idd	-16395
▁레코	-16396
▁북서	-16397
▁싱크로	-16398
▁앤드류	-16399
▁깍	-16400
ino	-16401
▁급여	-16402
▁성시	-16403
erg	-16404
▁조승	-16405
▁화가	-16406
▁만우절	-16407
▁물러서	-16408
이라	-16409
▁진전	-16410
▁노홍철	-16411
▁겉모습	-16412
▁이메일	-16413
▁식별	-16414
▁실탄	-16415
▁전패	-16416
▁포상	-16417
▁대구경	-16418
▁편집자	-16419
▁MIX	-16420
▁레이카	-16421
▁앞장서	-16422
일기	-16423
▁명확히	-16424
▁hp	-16425
▁순례	-16426
▁파탄	-16427
▁소프	-16428
▁스맥	-16429
▁황소	-16430
▁둔기	-16431
▁블레	-16432
▁스맥다운	-16433
▁린치	-16434
▁백병	-16435
▁never	-16436
▁류우	-16437
▁수퍼	-16438
▁Cry	-16439
▁코러스	-16440
▁레전더리	-16441
▁적과	-16442
▁항쟁	-16443
ya	-16444
▁알코올	-16445
▁에노	-16446
▁오승	-16447
▁진기	-16448
▁김종국	-16449
▁스미레	-16450
▁레볼루션	-16451
▁수산	-16452
▁폰트	-16453
베르크	-16454
▁다그	-16455
▁차우	-16456
aker	-16457
▁그분	-16458
▁재차	-16459
▁성희롱	-16460
▁개칭	-16461
▁참모총장	-16462
▁블랑	-16463
▁성취	-16464
▁세카	-16465
▁코만	-16466
▁미완성	-16467
▁어부	-16468
▁본거지	-16469
▁멩	-16470
▁유원	-16471
▁절감	-16472
▁적어지	-16473
ㄷㅏㄱㅏ	-16474
▁안장	-16475
▁퍼플	-16476
▁슬로건	-16477
▁교목	-16478
▁시어터	-16479
MC	-16480
▁귤	-16481
▁SMG	-16482
▁미네랄	-16483
▁성소	-16484
▁인원수	-16485
해야	-16486
▁xx	-16487
▁WHIP	-16488
▁heart	-16489
▁음력	-16490
▁이바	-16491
▁땜	-16492
▁이장	-16493
▁라이덴	-16494
▁강서구	-16495
▁마우	-16496
▁젠지	-16497
▁증표	-16498
▁틈새	-16499
공주	-16500
▁티격	-16501
▁CIA	-16502
▁독도	-16503
▁밧줄	-16504
▁어려	-16505
▁치과	-16506
ㄹㄹㅐ	-16507
▁악세사리	-16508
▁환원	-16509
▁어휘	-16510
▁동탄	-16511
▁루시안	-16512
▁벳	-16513
▁거머	-16514
▁불거지	-16515
회의	-16516
▁KA	-16517
▁카오	-16518
▁has	-16519
▁신드	-16520
▁정시	-16521
▁뻐	-16522
▁머독	-16523
BY	-16524
▁관용	-16525
▁제명	-16526
▁이에야스	-16527
▁밤중	-16528
▁신빙	-16529
▁이탈리아어	-16530
▁Ah	-16531
▁쇼코	-16532
▁수당	-16533
▁실감	-16534
▁동결	-16535
▁설문	-16536
▁하남	-16537
▁격변	-16538
▁ㄱㅓㄷㅡㄴㅇㅛ	-16539
관계	-16540
▁흥하	-16541
▁동남아	-16542
▁di	-16543
▁시정	-16544
▁지상군	-16545
▁수렴	-16546
▁윤종신	-16547
▁무로	-16548
▁호문	-16549
▁은혼	-16550
▁미워하	-16551
▁ㄷㅏㄷㅓㄴ	-16552
HN	-16553
cy	-16554
▁동그	-16555
▁대도	-16556
▁쿄스케	-16557
열차	-16558
▁눈보라	-16559
▁마사토	-16560
▁개종	-16561
▁끌어당기	-16562
르슈	-16563
▁bb	-16564
▁경대	-16565
▁몰입	-16566
▁채무	-16567
▁최연	-16568
▁수사관	-16569
자치단체	-16570
▁only	-16571
▁에너	-16572
▁일루	-16573
▁데니스	-16574
▁쁘	-16575
▁순차	-16576
▁평이	-16577
▁고아원	-16578
NG	-16579
▁돗	-16580
일본	-16581
▁Will	-16582
▁민심	-16583
anger	-16584
▁PH	-16585
▁납품	-16586
▁미우	-16587
▁세련	-16588
▁빨아들이	-16589
▁뜬금없	-16590
▁간첩	-16591
▁마자	-16592
▁유부	-16593
▁NORM	-16594
▁\]	-16595
▁매입	-16596
▁옴니	-16597
▁투항	-16598
▁해설자	-16599
▁1919	-16600
▁페미니스트	-16601
▁볶음	-16602
▁적시	-16603
▁올인	-16604
▁카프	-16605
▁다이노	-16606
전쟁	-16607
▁카모	-16608
▁콘테스트	-16609
▁유키노	-16610
▁Girls	-16611
▁개리	-16612
▁뻔뻔	-16613
▁브로드	-16614
▁우크	-16615
▁체이서	-16616
▁화전	-16617
OUR	-16618
▁전쟁터	-16619
▁나주	-16620
▁수료	-16621
▁점치	-16622
▁컨퍼런스	-16623
▁우크라이나	-16624
▁각별	-16625
▁자음	-16626
▁전황	-16627
▁용호	-16628
▁우대	-16629
▁마이티	-16630
▁MY	-16631
▁외환	-16632
▁차크라	-16633
▁XC	-16634
▁김종민	-16635
▁최하위	-16636
ORA	-16637
▁게재	-16638
▁다마	-16639
▁열광	-16640
▁ㅕㅇㅑ	-16641
▁복수심	-16642
쩌둥	-16643
▁임재	-16644
▁마오쩌둥	-16645
▁메트	-16646
▁미코	-16647
▁포커	-16648
86	-16649
▁체르	-16650
▁랠	-16651
전대	-16652
▁동하	-16653
▁우선시	-16654
▁트롤링	-16655
ument	-16656
▁음악가	-16657
onder	-16658
메리카	-16659
▁NORMAL	-16660
▁뿌요	-16661
▁포메이션	-16662
▁부전	-16663
▁페이퍼	-16664
▁인테리어	-16665
▁라파엘	-16666
▁서큐버스	-16667
▁천진	-16668
▁첨부	-16669
▁here	-16670
▁켐	-16671
푸스	-16672
▁에이미	-16673
▁제후	-16674
▁스턴트	-16675
▁월등히	-16676
▁프렌드	-16677
▁해인	-16678
▁성공회	-16679
▁RB	-16680
▁자백	-16681
▁정근	-16682
▁타쿠야	-16683
▁시술	-16684
▁짝퉁	-16685
폴리스	-16686
▁난쟁이	-16687
▁배반	-16688
팔로	-16689
▁액수	-16690
▁Sol	-16691
▁Great	-16692
▁스커	-16693
불리	-16694
▁활력	-16695
▁아이젠	-16696
▁후지와라	-16697
▁여중	-16698
▁연장전	-16699
▁Best	-16700
▁소대장	-16701
▁알라딘	-16702
ball	-16703
▁문과	-16704
▁수년	-16705
▁초심	-16706
▁한판	-16707
▁보크	-16708
▁MUS	-16709
▁부상자	-16710
▁비서관	-16711
▁사드	-16712
▁우의	-16713
▁EXO	-16714
▁장대	-16715
▁궤멸	-16716
▁연마	-16717
▁SEED	-16718
▁개전	-16719
▁피노	-16720
▁조짐	-16721
▁나츠메	-16722
▁ㅅㅡㅁ	-16723
▁거머쥐	-16724
▁연화	-16725
디우스	-16726
▁미식축구	-16727
▁사대	-16728
osh	-16729
▁제네레이션	-16730
샤인	-16731
▁고하	-16732
▁비터	-16733
▁악연	-16734
▁증강	-16735
오버	-16736
▁어르	-16737
▁남산	-16738
▁페트	-16739
▁한눈	-16740
고스	-16741
▁북동	-16742
▁시미즈	-16743
▁억양	-16744
▁옥타브	-16745
▁철혈	-16746
▁세이야	-16747
▁낙서	-16748
▁스팟	-16749
▁호화	-16750
▁과열	-16751
▁환산	-16752
▁217	-16753
▁Net	-16754
UD	-16755
▁올리브	-16756
▁다듬	-16757
▁데미안	-16758
▁스콜피온	-16759
▁Ind	-16760
▁끊어지	-16761
▁OM	-16762
▁업자	-16763
날리	-16764
▁이동기	-16765
▁Dest	-16766
▁슬라이더	-16767
▁내용물	-16768
▁1911	-16769
▁Little	-16770
월드	-16771
▁물류	-16772
▁주부	-16773
▁미스테리	-16774
▁초전	-16775
▁추기	-16776
▁교원	-16777
▁소나무	-16778
세포	-16779
▁고요	-16780
▁플랜트	-16781
▁승하	-16782
▁패권	-16783
▁부적절	-16784
light	-16785
▁산전	-16786
▁카니발	-16787
▁레닌	-16788
▁미술관	-16789
▁오컬	-16790
▁이보	-16791
▁발령	-16792
▁별거	-16793
▁파나	-16794
▁str	-16795
▁메모리얼	-16796
▁낭만	-16797
니컬	-16798
▁검거	-16799
▁우여	-16800
▁전곡	-16801
▁해밀	-16802
▁red	-16803
▁gu	-16804
▁정선	-16805
▁초라	-16806
티티	-16807
▁고마	-16808
▁로어	-16809
▁은빛	-16810
장치	-16811
▁독단	-16812
▁서프	-16813
▁클러치	-16814
▁오자	-16815
▁고참	-16816
▁'~	-16817
▁정승	-16818
▁라이엇	-16819
▁KN	-16820
▁대기실	-16821
▁베이커	-16822
▁괴이	-16823
▁소품	-16824
▁파주	-16825
▁부록	-16826
▁생리	-16827
▁브룩	-16828
▁폐업	-16829
▁잡아	-16830
▁통찰	-16831
▁우치하	-16832
와르	-16833
▁하노	-16834
▁허약	-16835
소년단	-16836
▁음료수	-16837
▁교명	-16838
▁나성	-16839
▁미움	-16840
▁러시아군	-16841
▁다량	-16842
▁약수	-16843
▁지탱	-16844
▁Take	-16845
▁해지	-16846
▁꼬시	-16847
▁노노	-16848
▁228	-16849
▁냉혹	-16850
▁사주	-16851
▁픽처	-16852
▁변모	-16853
▁미하일	-16854
HC	-16855
▁내쫓	-16856
▁요지	-16857
▁아라시	-16858
데라	-16859
▁소셜	-16860
▁앵글	-16861
▁정민	-16862
▁맹수	-16863
▁let	-16864
아오르	-16865
▁야나기	-16866
▁상반	-16867
▁재상	-16868
▁BMW	-16869
ANCED	-16870
▁기교	-16871
▁투덜	-16872
▁서태지	-16873
▁ad	-16874
▁체류	-16875
▁조선소	-16876
▁오아시스	-16877
▁FO	-16878
▁골수	-16879
▁Mix	-16880
▁카즈미	-16881
▁크류	-16882
서리	-16883
▁어떡	-16884
▁화합	-16885
▁Single	-16886
▁ㄴㅡㄴㅋㅓㄴㅕㅇ	-16887
▁뮐	-16888
eek	-16889
▁액스	-16890
▁GPS	-16891
▁세바스	-16892
▁고드	-16893
▁010	-16894
▁야구부	-16895
▁남아프리카	-16896
세움	-16897
▁예민	-16898
ASY	-16899
▁유창	-16900
▁Sam	-16901
▁나리타	-16902
▁Inv	-16903
▁게르만	-16904
▁래빗	-16905
▁무트	-16906
▁로켓단	-16907
▁익산	-16908
▁환장	-16909
▁NFL	-16910
▁승낙	-16911
비지	-16912
▁가야	-16913
▁드미	-16914
▁오컬트	-16915
▁정국	-16916
▁형벌	-16917
▁야구단	-16918
브론	-16919
▁강정	-16920
▁없음	-16921
▁피파	-16922
▁영국인	-16923
▁내레이션	-16924
▁세터	-16925
▁저축	-16926
▁마스터즈	-16927
▁티르	-16928
▁폐인	-16929
▁하계	-16930
▁Ult	-16931
▁헌트	-16932
▁광란	-16933
▁출입구	-16934
▁밝혀	-16935
▁301	-16936
▁CGV	-16937
▁백두	-16938
▁특색	-16939
▁Aut	-16940
IO	-16941
▁굴림	-16942
▁의거	-16943
▁둘째치	-16944
▁타카히로	-16945
▁요령	-16946
▁뉴타입	-16947
▁촉진	-16948
ena	-16949
▁뜯어	-16950
▁빌헬름	-16951
▁페라리	-16952
94	-16953
▁프레데터	-16954
시장	-16955
▁마방	-16956
lex	-16957
▁신천	-16958
▁방탄소년단	-16959
▁반주	-16960
▁소홀	-16961
▁집요	-16962
▁ㄴㄷㅏㅂㅅㅣㄱㅗ	-16963
▁YG	-16964
▁이트	-16965
▁파기	-16966
uture	-16967
▁ㄴㅡㄴㄷㅏㅁㅕ	-16968
▁우디	-16969
▁타카오	-16970
▁밀가루	-16971
▁유니버	-16972
▁호위함	-16973
▁담원	-16974
▁수차례	-16975
▁하야테	-16976
▁껌	-16977
▁252	-16978
▁를	-16979
▁들여오	-16980
▁퍼블	-16981
▁케네	-16982
▁재보	-16983
▁토드	-16984
▁라다	-16985
▁하즈	-16986
▁EPL	-16987
▁서유럽	-16988
▁니르	-16989
▁하로	-16990
각형	-16991
▁거창	-16992
▁촉구	-16993
▁공직	-16994
▁초계	-16995
▁폭언	-16996
▁백종	-16997
▁항성	-16998
▁속임수	-16999
▁aquarius	-17000
빠지	-17001
▁지효	-17002
▁통솔력	-17003
모트	-17004
▁얼룩	-17005
▁껄끄럽	-17006
▁아틀란	-17007
▁헤이세이	-17008
교사	-17009
▁교제	-17010
▁그딴	-17011
▁츠네	-17012
▁대성공	-17013
▁Real	-17014
▁알프레드	-17015
▁녹스	-17016
덱스	-17017
▁메커	-17018
▁광화문	-17019
▁처방	-17020
▁스트림	-17021
▁한국식	-17022
▁사이먼	-17023
▁ADVANCED	-17024
▁재발	-17025
▁mA	-17026
▁걷어차	-17027
곡절	-17028
대왕	-17029
▁멜리	-17030
▁사카이	-17031
ital	-17032
▁512	-17033
▁지저	-17034
▁포구	-17035
▁우여곡절	-17036
▁|[	-17037
▁왕성	-17038
▁DSP	-17039
▁Dec	-17040
▁Storm	-17041
▁스냅드래곤	-17042
98	-17043
▁멘토	-17044
▁코미디언	-17045
▁아날	-17046
▁카르타	-17047
▁2022	-17048
▁섬뜩	-17049
▁제때	-17050
▁최장	-17051
▁하원	-17052
세우스	-17053
▁로젠	-17054
▁문관	-17055
▁나오미	-17056
니케이션	-17057
▁스케이트	-17058
▁다라	-17059
▁학파	-17060
▁저상버스	-17061
ano	-17062
▁여차	-17063
▁정관	-17064
▁야가미	-17065
네즈	-17066
▁김시	-17067
▁아카이브	-17068
레오	-17069
▁커뮤니케이션	-17070
▁꼬박	-17071
▁횡령	-17072
▁틀림없	-17073
▁밝혀내	-17074
▁프란츠	-17075
▁텐트	-17076
▁any	-17077
▁츳코	-17078
▁운동가	-17079
▁윤석민	-17080
▁손길	-17081
▁급속도	-17082
▁닛산	-17083
▁도넛	-17084
▁브록	-17085
▁Med	-17086
▁켓	-17087
▁가즈	-17088
▁강급	-17089
▁신승	-17090
▁절도	-17091
요이	-17092
aid	-17093
▁베풀	-17094
▁쇼우	-17095
▁Def	-17096
▁Gun	-17097
▁야요이	-17098
지우	-17099
▁명지	-17100
▁샤르	-17101
▁스탬	-17102
성어	-17103
소연	-17104
▁다람	-17105
▁사춘	-17106
조림	-17107
▁등용	-17108
공학	-17109
▁아로	-17110
▁htm	-17111
▁거액	-17112
▁아토	-17113
ude	-17114
▁선샤인	-17115
▁정찰기	-17116
▁라티	-17117
▁QP	-17118
▁매료	-17119
▁경관	-17120
▁만신	-17121
▁트렌드	-17122
▁포식자	-17123
▁youtu	-17124
소타	-17125
▁ㅈㅔ	-17126
▁정몽	-17127
▁착공	-17128
경민	-17129
▁돌변	-17130
▁자릿	-17131
▁when	-17132
러미	-17133
▁관습	-17134
▁산출	-17135
▁베토벤	-17136
▁정착지	-17137
▁애플리케이션	-17138
▁HR	-17139
▁youtube	-17140
▁ER	-17141
▁요가	-17142
▁짜이	-17143
▁초구	-17144
▁Hero	-17145
▁부설	-17146
▁Zero	-17147
▁클럭	-17148
▁Rad	-17149
▁샌드위치	-17150
UG	-17151
마사	-17152
▁보그	-17153
▁내비치	-17154
65	-17155
apan	-17156
▁미네소타	-17157
unt	-17158
▁크래시	-17159
▁ㄹㅏㄴㄷㅏ	-17160
▁공안	-17161
▁오거	-17162
▁ㄱㅣㄹㄹㅐ	-17163
▁데이지	-17164
▁오정	-17165
노트	-17166
▁시급	-17167
ning	-17168
32	-17169
▁추격전	-17170
쩐지	-17171
▁재탕	-17172
▁어쩐지	-17173
▁루팅	-17174
▁압승	-17175
▁사이비	-17176
▁스프레이	-17177
▁보이즈	-17178
▁프리킥	-17179
▁EXTRA	-17180
▁엄연	-17181
리스크	-17182
▁송곳니	-17183
▁램지	-17184
▁시놉	-17185
▁Cal	-17186
DDR	-17187
▁급증	-17188
▁암석	-17189
▁은색	-17190
ours	-17191
▁대장간	-17192
▁툭하면	-17193
arm	-17194
ett	-17195
ler	-17196
▁은신처	-17197
ather	-17198
▁크로스오버	-17199
▁레터	-17200
▁욘	-17201
병기	-17202
▁Warhammer	-17203
폴트	-17204
▁차고	-17205
▁태백	-17206
▁풀이	-17207
▁동맹군	-17208
▁피고인	-17209
▁대련	-17210
▁블룸	-17211
▁390	-17212
▁보리스	-17213
▁정명훈	-17214
unk	-17215
▁콴	-17216
▁냅다	-17217
▁다채	-17218
▁탐험가	-17219
▁자습	-17220
▁붙여지	-17221
▁시놉시스	-17222
▁백악	-17223
▁227	-17224
▁1934	-17225
▁Ry	-17226
▁총점	-17227
▁롱주	-17228
▁예하	-17229
▁Ag	-17230
▁만장	-17231
▁멱살	-17232
▁Park	-17233
▁예거	-17234
▁표준어	-17235
▁투영	-17236
레마	-17237
▁우등	-17238
▁합숙	-17239
헤치	-17240
▁숙제	-17241
▁주름	-17242
▁용납	-17243
▁경부선	-17244
▁프리퀄	-17245
▁비밀리	-17246
▁Sweet	-17247
▁ㅇㅡㄹㅅㅣ	-17248
▁분양	-17249
▁인삼	-17250
▁!!!!	-17251
lection	-17252
▁신노스케	-17253
BE	-17254
▁오현	-17255
▁웍스	-17256
▁치요	-17257
▁사춘기	-17258
irect	-17259
▁나크	-17260
▁실컷	-17261
▁게으	-17262
▁뜻밖	-17263
▁조슈아	-17264
▁주변인	-17265
▁Mbps	-17266
▁시부야	-17267
방지	-17268
une	-17269
▁BLACK	-17270
▁정보원	-17271
▁노보	-17272
▁백웅	-17273
▁윤영	-17274
▁파비	-17275
▁휴지	-17276
▁John	-17277
하늘	-17278
▁반쪽	-17279
▁위임	-17280
▁파이팅	-17281
▁아틀란티스	-17282
▁사칭	-17283
▁서북	-17284
▁자객	-17285
▁홍련	-17286
▁최민	-17287
▁쿠보	-17288
▁포섭	-17289
▁보좌관	-17290
▁연막탄	-17291
ouble	-17292
살이	-17293
▁교가	-17294
▁난도	-17295
▁세균	-17296
▁심복	-17297
ords	-17298
▁op	-17299
▁안즈	-17300
▁우터	-17301
▁떠나가	-17302
▁미시마	-17303
▁아랍어	-17304
나타	-17305
▁공적	-17306
▁유상	-17307
▁Hel	-17308
▁명심	-17309
ople	-17310
▁홍수	-17311
▁계약서	-17312
▁핍	-17313
▁==	-17314
▁리비	-17315
▁영수	-17316
▁대지진	-17317
▁마사히로	-17318
▁몽환	-17319
▁아오키	-17320
▁주재	-17321
▁Say	-17322
▁min	-17323
▁구스	-17324
▁달려드	-17325
▁정부군	-17326
▁쿠퍼	-17327
▁샤이니	-17328
▁짓거리	-17329
▁Space	-17330
▁자물	-17331
▁햐	-17332
▁Gal	-17333
▁양방향	-17334
▁레이브	-17335
▁페가수스	-17336
▁보름	-17337
▁ㄸㅏ	-17338
▁재기	-17339
▁진명	-17340
▁깐	-17341
사노	-17342
▁토치	-17343
ames	-17344
▁밴쿠버	-17345
▁이리스	-17346
▁거침	-17347
▁린드	-17348
▁에디터	-17349
▁중대장	-17350
uct	-17351
▁낙사	-17352
▁용족	-17353
▁수송기	-17354
▁개머리	-17355
▁연대기	-17356
▁은근슬쩍	-17357
▁바래	-17358
▁올려	-17359
▁경상도	-17360
▁노리코	-17361
▁자물쇠	-17362
▁컷인	-17363
▁231	-17364
▁장민	-17365
▁판명	-17366
▁효용	-17367
thing	-17368
▁하가	-17369
▁옅	-17370
▁뭉개	-17371
▁구스타	-17372
uff	-17373
▁앉히	-17374
▁제련	-17375
▁흡입	-17376
▁쿠루미	-17377
▁웬디	-17378
▁Feel	-17379
▁후진	-17380
br	-17381
▁가르시아	-17382
▁폄	-17383
▁PG	-17384
▁료코	-17385
▁사념	-17386
▁유족	-17387
▁베가스	-17388
▁교활	-17389
▁아와	-17390
▁need	-17391
▁코스모스	-17392
▁근방	-17393
▁오라클	-17394
▁페드로	-17395
▁걔	-17396
▁비견	-17397
▁서바이버	-17398
▁고영	-17399
oj	-17400
▁불러내	-17401
KO	-17402
▁다다르	-17403
▁관람객	-17404
립스	-17405
▁간직	-17406
▁약품	-17407
▁옥수수	-17408
▁Je	-17409
▁코타	-17410
oe	-17411
▁브라우저	-17412
개골	-17413
▁안톤	-17414
▁LEVEL	-17415
TER	-17416
▁이부키	-17417
▁코스모	-17418
▁HT	-17419
ㅇㅕ	-17420
▁오소	-17421
▁이그	-17422
나우	-17423
▁방주	-17424
거스	-17425
▁함경	-17426
▁근로자	-17427
▁피쉬	-17428
▁금단	-17429
▁법령	-17430
END	-17431
vil	-17432
▁두각	-17433
▁집게	-17434
▁설립자	-17435
▁나가사키	-17436
▁ㅅㅜㄹㅗㄱ	-17437
yr	-17438
▁식구	-17439
▁즐거움	-17440
▁텝	-17441
▁ㄹㅏㅇㅜ	-17442
▁경멸	-17443
▁타타	-17444
▁견고	-17445
▁최준	-17446
▁뜸	-17447
교도	-17448
▁출진	-17449
▁Kim	-17450
후미	-17451
▁마쓰	-17452
▁햄튼	-17453
▁투지	-17454
▁라몬	-17455
▁주점	-17456
▁도봉	-17457
▁앙쥬	-17458
▁mAh	-17459
▁뜯어내	-17460
▁손발	-17461
▁판다	-17462
▁꼬맹이	-17463
▁저질	-17464
▁소양	-17465
▁지출	-17466
▁남녀공학	-17467
비슷	-17468
▁잭스	-17469
▁오사무	-17470
▁나카지마	-17471
▁트리니티	-17472
▁바카	-17473
▁Sport	-17474
▁대첩	-17475
▁사루	-17476
▁신스	-17477
▁양지	-17478
▁조공	-17479
▁청문회	-17480
▁협의회	-17481
▁난데	-17482
▁똑바로	-17483
▁병합	-17484
▁ㅇㅏㄴ	-17485
▁모리스	-17486
▁일간	-17487
▁피통	-17488
리아스	-17489
▁JYP	-17490
▁구식	-17491
자스	-17492
▁부착물	-17493
▁them	-17494
▁막스	-17495
▁아누	-17496
▁조련	-17497
▁조그맣	-17498
분투	-17499
▁로더	-17500
▁Ret	-17501
▁치솟	-17502
▁카나코	-17503
▁벗겨지	-17504
▁some	-17505
부르	-17506
▁외지	-17507
▁흑발	-17508
▁크레인	-17509
▁조동	-17510
▁형주	-17511
▁레베카	-17512
▁변기	-17513
로그램	-17514
▁지원군	-17515
곡리	-17516
태격	-17517
▁티격태격	-17518
▁말라	-17519
▁명계	-17520
▁를르슈	-17521
▁억누르	-17522
▁마즈	-17523
▁백스	-17524
▁Dem	-17525
▁여제	-17526
▁골절	-17527
▁겸임	-17528
▁사서	-17529
▁평면	-17530
▁성물	-17531
▁지네	-17532
▁GTX	-17533
▁Sou	-17534
▁카로	-17535
▁스타킹	-17536
설수	-17537
▁어려우	-17538
▁비화	-17539
▁코아	-17540
▁하강	-17541
마니	-17542
▁누비	-17543
▁후사	-17544
▁나이지	-17545
▁나이지리아	-17546
▁서남	-17547
로리	-17548
▁동률	-17549
▁셔먼	-17550
▁컬트	-17551
▁톰슨	-17552
▁Kill	-17553
▁Tour	-17554
노프	-17555
▁규율	-17556
▁덴마	-17557
▁발열	-17558
▁끌어안	-17559
▁동남아시아	-17560
▁닳	-17561
ODE	-17562
▁남원	-17563
▁버팔로	-17564
▁무서워하	-17565
▁프랑켄슈타인	-17566
▁전광판	-17567
▁껴안	-17568
▁부포	-17569
▁어정	-17570
▁위아래	-17571
▁견습	-17572
▁도가	-17573
▁개머리판	-17574
뚜기	-17575
▁횃	-17576
▁잘나	-17577
▁로밍	-17578
▁역마	-17579
arth	-17580
▁GC	-17581
▁뒤바뀌	-17582
▁탤런트	-17583
▁초밥	-17584
▁430	-17585
▁ㅇㅜㄴ	-17586
▁더듬	-17587
▁LOL	-17588
▁근육질	-17589
동물	-17590
▁매튜	-17591
▁포커스	-17592
린트	-17593
▁만년	-17594
▁입점	-17595
비야	-17596
▁마일리	-17597
▁부대장	-17598
제트	-17599
메이트	-17600
▁원가	-17601
▁포이즌	-17602
▁236	-17603
▁라카	-17604
▁방아	-17605
▁엘사	-17606
▁참치	-17607
aser	-17608
▁지중해	-17609
▁KBL	-17610
▁치아키	-17611
onna	-17612
▁짭	-17613
▁르블랑	-17614
▁노동조합	-17615
▁철구	-17616
▁정근우	-17617
▁아스가르드	-17618
ner	-17619
▁극하	-17620
도어	-17621
▁놀러	-17622
▁스메	-17623
▁팔다리	-17624
▁사절	-17625
▁요요	-17626
▁테디	-17627
▁파병	-17628
▁Orig	-17629
▁인턴	-17630
▁타깃	-17631
▁이북	-17632
▁하피	-17633
▁플리트	-17634
▁마커스	-17635
▁스틸러스	-17636
슬로	-17637
▁한인	-17638
▁격납고	-17639
▁치어리	-17640
▁마로	-17641
▁간과	-17642
▁her	-17643
ways	-17644
▁기대감	-17645
▁연주자	-17646
▁Beat	-17647
▁뒤집어쓰	-17648
▁목장	-17649
▁미니건	-17650
▁엑스칼리버	-17651
▁ㅇㅣㄹㅏㄷㅡㄴㅈㅣ	-17652
▁열화	-17653
슐리	-17654
▁이윤열	-17655
▁감찰	-17656
▁포츈	-17657
▁방탄복	-17658
▁군세	-17659
▁사오	-17660
▁WORLD	-17661
▁드럼매니아	-17662
▁이규	-17663
▁매크로	-17664
▁원정대	-17665
▁가로지르	-17666
▁싯	-17667
▁라나	-17668
▁아브	-17669
▁사일런트	-17670
▁파라오	-17671
▁표류	-17672
▁상병	-17673
▁코라	-17674
▁265	-17675
▁옐로우	-17676
▁일파	-17677
▁질럿	-17678
숭아	-17679
▁NAS	-17680
▁다비드	-17681
▁주유소	-17682
다카	-17683
▁일전	-17684
ormal	-17685
▁뫼비우스	-17686
▁올레	-17687
▁장문	-17688
팽이	-17689
▁<<	-17690
▁내신	-17691
▁로니	-17692
▁메커니즘	-17693
▁엘라	-17694
▁원사	-17695
▁하르트	-17696
▁구실	-17697
▁복식	-17698
iful	-17699
▁블러디	-17700
▁김건	-17701
▁루디	-17702
▁세이프	-17703
▁PERF	-17704
▁Luc	-17705
▁경기관총	-17706
▁통통	-17707
▁Story	-17708
▁마츠다	-17709
UND	-17710
▁하네	-17711
▁아날로그	-17712
▁로아	-17713
▁위안부	-17714
▁이리야	-17715
▁본뜨	-17716
▁3500	-17717
▁서슴	-17718
▁지석	-17719
구멍	-17720
▁신야	-17721
▁항소	-17722
▁넥스트	-17723
배기	-17724
▁수트	-17725
▁MAD	-17726
▁스트롱	-17727
▁밀리터리	-17728
44	-17729
▁티베트	-17730
▁When	-17731
▁쿡	-17732
▁루가	-17733
▁저술	-17734
문화	-17735
▁노미	-17736
▁바바리	-17737
▁앞머리	-17738
▁위드	-17739
▁공평	-17740
▁막시	-17741
▁she	-17742
▁곧이어	-17743
▁편찬	-17744
▁Tech	-17745
ANG	-17746
▁백과	-17747
▁약사	-17748
▁어진	-17749
▁사이킥	-17750
뉴스	-17751
▁공연장	-17752
▁피스톨	-17753
▁ㄹㅏㄴㅏ	-17754
▁폭죽	-17755
▁강민호	-17756
천리	-17757
▁쓸리	-17758
▁순전히	-17759
▁온건	-17760
▁한미	-17761
▁WWF	-17762
▁리비아	-17763
▁구기	-17764
입구역	-17765
▁사우디	-17766
▁한없이	-17767
▁선율	-17768
▁정설	-17769
▁족족	-17770
▁출국	-17771
주니어	-17772
▁케네디	-17773
▁개관	-17774
레스타인	-17775
리역	-17776
발리	-17777
▁땅굴	-17778
▁수첩	-17779
▁조라	-17780
▁Album	-17781
fl	-17782
▁이모티콘	-17783
▁레티	-17784
ations	-17785
▁재결	-17786
▁DIO	-17787
▁희한	-17788
▁시속	-17789
▁참수	-17790
▁불굴	-17791
▁사학	-17792
▁Who	-17793
▁마레	-17794
▁외화	-17795
▁훌쩍	-17796
▁팔아먹	-17797
▁갈비	-17798
▁상디	-17799
▁암묵	-17800
▁돌려받	-17801
▁겐지	-17802
▁얼른	-17803
▁대나무	-17804
▁코코로	-17805
▁풀타임	-17806
▁김장	-17807
▁세인	-17808
포동	-17809
▁급감	-17810
▁라르	-17811
▁로데	-17812
▁GE	-17813
▁아디	-17814
▁테드	-17815
▁정준하	-17816
▁기껏해야	-17817
▁샛	-17818
ait	-17819
▁실기	-17820
▁조부	-17821
▁Step	-17822
▁즌	-17823
▁내려치	-17824
▁픽처스	-17825
▁마개	-17826
▁가희	-17827
39	-17828
▁볼링	-17829
▁쿠즈	-17830
▁로드리게	-17831
시간	-17832
▁뒤이	-17833
▁헤엄	-17834
▁곁들이	-17835
▁칼데아	-17836
실록	-17837
▁번쩍	-17838
▁232	-17839
통일	-17840
▁금세	-17841
▁art	-17842
▁역적	-17843
▁맥크리	-17844
▁명하	-17845
▁드로이드	-17846
▁맨서	-17847
▁숙적	-17848
▁공구	-17849
▁물결	-17850
▁음파	-17851
▁의병	-17852
▁진중	-17853
▁호루스	-17854
▁행렬	-17855
▁힛	-17856
▁의약	-17857
▁일괄	-17858
▁전위	-17859
▁다르크	-17860
▁두개골	-17861
▁산산조각	-17862
▁무례	-17863
▁손대	-17864
▁Death	-17865
▁노어	-17866
페르노	-17867
▁마성	-17868
▁엽기	-17869
▁육신	-17870
▁sec	-17871
▁언뜻	-17872
프스	-17873
▁옥스	-17874
▁총애	-17875
▁공격대	-17876
▁왕정	-17877
▁원산	-17878
▁투혼	-17879
▁인기가요	-17880
▁인페르노	-17881
▁홍차	-17882
사무소	-17883
▁세리카	-17884
▁조건부	-17885
▁독살	-17886
예프	-17887
투사	-17888
body	-17889
▁찻	-17890
▁괄호	-17891
▁금빛	-17892
▁변속	-17893
▁도맡	-17894
▁쫒아	-17895
▁푸딩	-17896
▁플롯	-17897
게일	-17898
▁심영	-17899
▁대북	-17900
▁서강	-17901
▁1931	-17902
▁결번	-17903
▁소굴	-17904
사전	-17905
OSS	-17906
▁비행장	-17907
▁조성주	-17908
▁about	-17909
▁푸시	-17910
▁불륜	-17911
▁노우	-17912
▁양육	-17913
▁스캇	-17914
▁비타민	-17915
시즘	-17916
▁벨리	-17917
▁수없이	-17918
▁들어올리	-17919
▁넬슨	-17920
▁바빌	-17921
▁천자	-17922
ene	-17923
▁대영	-17924
▁수식어	-17925
▁구가	-17926
▁최승	-17927
▁뮐러	-17928
▁승승장구	-17929
▁팔레스타인	-17930
▁디나	-17931
▁510	-17932
▁퍼레이드	-17933
▁서경	-17934
▁혼잡	-17935
▁사이렌	-17936
▁이불	-17937
▁거너	-17938
▁무마	-17939
▁외교관	-17940
▁조각상	-17941
▁종로구	-17942
▁콘스탄티노	-17943
▁매혹	-17944
틀린	-17945
▁남서	-17946
▁안영	-17947
▁착안	-17948
▁포박	-17949
▁Champion	-17950
바야시	-17951
37	-17952
상부	-17953
uss	-17954
▁이크	-17955
▁리더십	-17956
▁1935	-17957
▁황녀	-17958
▁SNK	-17959
▁양현종	-17960
▁교묘	-17961
▁도면	-17962
▁삼국사기	-17963
그래피	-17964
rough	-17965
▁엘더	-17966
스틱	-17967
▁메기	-17968
▁에델	-17969
▁첩자	-17970
▁파커	-17971
▁ㄷㅏㄴㅡㄴㄷㅔ	-17972
▁댁	-17973
ume	-17974
▁니콜라	-17975
▁쿠토	-17976
AE	-17977
▁기색	-17978
▁족보	-17979
▁질책	-17980
▁케일	-17981
▁하야시	-17982
빙글	-17983
▁박원	-17984
▁비방	-17985
▁타츠미	-17986
▁Line	-17987
▁자결	-17988
▁철자	-17989
IDE	-17990
▁꼼꼼	-17991
▁카툰	-17992
▁Tra	-17993
▁1700	-17994
파일	-17995
▁환율	-17996
▁다이어	-17997
▁미츠키	-17998
▁신뢰도	-17999
▁come	-18000
마을	-18001
▁닷컴	-18002
▁흑색	-18003
▁쟤	-18004
▁캡쳐	-18005
▁내던지	-18006
▁클래시	-18007
슬라비아	-18008
lease	-18009
▁유고슬라비아	-18010
하임	-18011
▁자하	-18012
▁장발	-18013
▁ㅎㅏㄴㅌㅔㅅㅓ	-18014
▁왼발	-18015
▁이코	-18016
▁LCS	-18017
▁토모코	-18018
▁프리티	-18019
▁선량	-18020
▁타사	-18021
▁305	-18022
▁XBOX	-18023
▁밀짚	-18024
▁워페어	-18025
▁전면전	-18026
상스	-18027
▁Du	-18028
▁나즈	-18029
▁추축	-18030
▁사고방식	-18031
주곡	-18032
▁존기	-18033
▁떠넘기	-18034
▁탈락자	-18035
▁변칙	-18036
▁코만도	-18037
orever	-18038
ESS	-18039
▁섬머	-18040
욕장	-18041
▁Apple	-18042
▁겨냥	-18043
▁신진	-18044
▁자일	-18045
▁경비대	-18046
▁아오바	-18047
▁감격	-18048
▁딱지	-18049
▁모사	-18050
▁재킷	-18051
▁지겹	-18052
▁이민자	-18053
▁이클	-18054
self	-18055
▁Bus	-18056
ral	-18057
▁셧	-18058
▁횃불	-18059
▁TRA	-18060
▁대구광역시	-18061
▁권혁	-18062
▁달랑	-18063
▁에리스	-18064
▁된	-18065
▁747	-18066
▁추기경	-18067
윤수	-18068
▁괴짜	-18069
▁급소	-18070
▁쾌락	-18071
INAL	-18072
▁238	-18073
▁이따금	-18074
▁바퀴벌레	-18075
▁버크	-18076
▁셀렉	-18077
▁증차	-18078
▁공전	-18079
▁실물	-18080
▁바가지	-18081
▁아이슬	-18082
▁러프	-18083
▁애덤	-18084
▁못생기	-18085
▁물어뜯	-18086
▁스트링	-18087
▁모로코	-18088
▁원안	-18089
▁RT	-18090
▁국지	-18091
▁오기	-18092
▁기폭	-18093
▁니지	-18094
▁ind	-18095
▁공모전	-18096
▁Electr	-18097
▁짠	-18098
▁래더	-18099
▁일찍이	-18100
▁2400	-18101
▁자행	-18102
▁히로미	-18103
덴티티	-18104
▁얌전히	-18105
▁아이덴티티	-18106
▁팽팽	-18107
▁혈압	-18108
▁노련	-18109
▁양의지	-18110
▁SB	-18111
▁사오리	-18112
▁데스노트	-18113
▁가신	-18114
법인	-18115
▁개표	-18116
▁SUPER	-18117
▁뜯기	-18118
▁절제	-18119
▁백호	-18120
elie	-18121
▁합격자	-18122
▁에볼루션	-18123
▁ㅇㅓㅇㅑㅈㅣ	-18124
▁나선	-18125
▁640	-18126
▁Green	-18127
▁설날	-18128
▁수만	-18129
▁몰아가	-18130
▁타이가	-18131
▁화성시	-18132
비어	-18133
위원	-18134
▁완승	-18135
▁콜로세움	-18136
▁초음	-18137
▁황천	-18138
▁Mal	-18139
▁주저앉	-18140
▁발효	-18141
▁장영	-18142
▁디스트로	-18143
▁페널티가	-18144
▁극동	-18145
▁망신	-18146
▁오도	-18147
▁이바라	-18148
ander	-18149
훈련	-18150
▁조경	-18151
▁삼각형	-18152
다이스	-18153
▁325	-18154
▁바사라	-18155
▁예비역	-18156
▁디스트로이어	-18157
▁악재	-18158
▁이연	-18159
▁장화	-18160
▁천왕	-18161
▁원로원	-18162
▁Dead	-18163
펙터	-18164
▁내치	-18165
▁채권	-18166
▁초연	-18167
▁Tem	-18168
▁각본가	-18169
▁아이카	-18170
▁그레이스	-18171
▁오클랜드	-18172
autiful	-18173
▁신룡	-18174
▁유괴	-18175
▁Pass	-18176
▁윤지	-18177
▁인계	-18178
▁루시우	-18179
▁사벨	-18180
▁잔존	-18181
ines	-18182
▁ㄴㅛ	-18183
▁연못	-18184
▁공격진	-18185
▁타케우치	-18186
▁독립운동가	-18187
▁무예	-18188
▁황폐	-18189
▁각주	-18190
▁간수	-18191
▁아우구	-18192
▁전주시	-18193
▁1910	-18194
바탕	-18195
▁NV	-18196
▁Ant	-18197
▁마구잡이	-18198
▁허물	-18199
▁하루히	-18200
다주	-18201
▁단도	-18202
▁비어	-18203
▁지니어스	-18204
▁강대국	-18205
▁클로이	-18206
awn	-18207
▁카자흐	-18208
▁노기자카	-18209
▁당부	-18210
▁총수	-18211
▁파충	-18212
ortex	-18213
▁이클립스	-18214
▁사업가	-18215
▁스펙트	-18216
▁에그맨	-18217
▁정신기	-18218
▁새턴	-18219
▁NAT	-18220
▁장시간	-18221
▁혹시나	-18222
▁아이슬란드	-18223
리언	-18224
▁1918	-18225
▁쏙	-18226
▁불계	-18227
▁IEM	-18228
▁토머스	-18229
▁렴	-18230
▁굳건	-18231
▁Home	-18232
▁EXPERT	-18233
▁아키코	-18234
▁들이닥치	-18235
더미	-18236
▁완주	-18237
▁개인차	-18238
▁무리뉴	-18239
▁우즈베	-18240
▁노을	-18241
▁동자	-18242
▁샤인	-18243
▁껍데기	-18244
▁제각각	-18245
▁복판	-18246
▁시우	-18247
▁코퍼	-18248
현수	-18249
▁가온	-18250
▁바운	-18251
▁Lee	-18252
▁제국주의	-18253
▁League	-18254
▁넛	-18255
▁da	-18256
▁마천	-18257
▁이어주	-18258
▁흑기사	-18259
▁ah	-18260
▁각광	-18261
▁고척	-18262
▁일회	-18263
▁아이파크	-18264
▁AAA	-18265
▁시즈쿠	-18266
▁하룻	-18267
▁이하일	-18268
▁EASY	-18269
▁sw	-18270
▁비들	-18271
▁송신	-18272
▁심해	-18273
▁앙상	-18274
▁종속	-18275
▁시티즌	-18276
▁큘	-18277
▁야유	-18278
▁사토미	-18279
▁실비아	-18280
▁검출	-18281
▁스쿠	-18282
▁죠셉	-18283
▁과부하	-18284
▁백종원	-18285
▁ma	-18286
▁Tom	-18287
▁Wanna	-18288
▁자초	-18289
▁돌이키	-18290
▁솔루션	-18291
▁갉	-18292
▁다리우스	-18293
▁EL	-18294
▁숙박	-18295
▁코쿠	-18296
▁스구	-18297
▁북벌	-18298
ily	-18299
▁분실	-18300
▁장지	-18301
▁TEAM	-18302
▁이산	-18303
▁바그너	-18304
▁뒤섞	-18305
▁룰렛	-18306
▁인제	-18307
▁컬쳐	-18308
▁중심부	-18309
▁지도부	-18310
▁프라모델	-18311
볼트	-18312
▁미분	-18313
창민	-18314
▁Del	-18315
▁발사체	-18316
▁추대	-18317
▁분대장	-18318
▁선호도	-18319
▁호조	-18320
▁!!"	-18321
▁뒤떨어지	-18322
▁랠리	-18323
▁정주	-18324
▁말뚝	-18325
▁평온	-18326
▁Level	-18327
백호	-18328
▁무구	-18329
▁이효	-18330
▁트와	-18331
▁건달	-18332
▁알려주	-18333
츠미	-18334
▁ㅈㅑ	-18335
▁눈여	-18336
▁장진	-18337
▁단호	-18338
▁IMF	-18339
▁밀라노	-18340
아르	-18341
▁이를	-18342
▁들이받	-18343
IAL	-18344
▁디언	-18345
▁제이미	-18346
▁로스쿨	-18347
트릭	-18348
▁설교	-18349
eter	-18350
테면	-18351
▁자선	-18352
▁강국	-18353
▁눈길	-18354
▁코피	-18355
▁허접	-18356
▁마리나	-18357
▁GAME	-18358
▁모자이크	-18359
▁사이코패스	-18360
▁기념일	-18361
▁정훈	-18362
▁스무	-18363
▁황룡	-18364
▁조만	-18365
▁마니아	-18366
▁자릿수	-18367
▁이를테면	-18368
▁맹렬	-18369
▁박동	-18370
▁서커	-18371
▁하오	-18372
▁히키	-18373
리카와	-18374
▁무법자	-18375
▁토착	-18376
▁용인시	-18377
벌이	-18378
▁리라	-18379
▁묵묵	-18380
▁키네	-18381
▁나오토	-18382
▁품목	-18383
▁Friend	-18384
▁독소	-18385
▁히데키	-18386
문서	-18387
▁격분	-18388
▁나돌	-18389
▁에비	-18390
▁컨버	-18391
▁타코	-18392
▁229	-18393
▁결정력	-18394
▁동떨어지	-18395
ISS	-18396
▁가관	-18397
▁기시	-18398
▁발포	-18399
▁태반	-18400
▁사이키	-18401
▁디셉	-18402
▁Cha	-18403
마드	-18404
rol	-18405
▁로건	-18406
▁bit	-18407
▁백설	-18408
▁사보	-18409
▁제아	-18410
▁조지아	-18411
▁무토	-18412
▁이면	-18413
ible	-18414
ider	-18415
▁비틀즈	-18416
▁시그널	-18417
보잡	-18418
해머	-18419
▁엄하	-18420
▁장난치	-18421
▁정신병	-18422
▁라키	-18423
▁244	-18424
▁크리스티나	-18425
▁기권	-18426
▁신영	-18427
▁컵스	-18428
▁불량배	-18429
▁캅	-18430
▁듣보잡	-18431
▁라이저	-18432
▁대물	-18433
▁김상수	-18434
▁기울어지	-18435
▁ㄴㅣㄲㅏㅇㅛ	-18436
▁Univers	-18437
콜로	-18438
▁레츠	-18439
▁벼슬	-18440
▁재래	-18441
ouch	-18442
▁BMS	-18443
▁박진영	-18444
▁their	-18445
72	-18446
▁실격	-18447
▁승자전	-18448
▁맥도날드	-18449
▁뎁	-18450
▁골격	-18451
▁나자	-18452
▁에라	-18453
▁Mac	-18454
▁황인	-18455
▁클라라	-18456
▁분하	-18457
▁요크	-18458
▁정액	-18459
▁제이콥	-18460
▁글래스	-18461
ㄹㅕ	-18462
▁불곰	-18463
▁hell	-18464
▁완력	-18465
▁레일건	-18466
▁풀어내	-18467
▁마르크스	-18468
31	-18469
ves	-18470
▁성계	-18471
onic	-18472
▁알제리	-18473
▁Chap	-18474
▁에마	-18475
▁오줌	-18476
▁이큐	-18477
세이돈	-18478
▁포세이돈	-18479
▁렬	-18480
▁고군	-18481
▁돌기	-18482
▁빈민	-18483
▁765	-18484
▁DL	-18485
▁Pack	-18486
▁사이다	-18487
▁조종당	-18488
▁AO	-18489
▁속출	-18490
▁보살피	-18491
▁후타바	-18492
▁치세	-18493
▁스코어링	-18494
▁핑거	-18495
▁TBS	-18496
▁조선인	-18497
사관학교	-18498
▁강북	-18499
▁머큐	-18500
▁뒤돌	-18501
my	-18502
▁영도	-18503
▁계책	-18504
▁뱃지	-18505
▁일컬	-18506
▁차차	-18507
▁251	-18508
▁마르셀	-18509
▁미야코	-18510
도니아	-18511
▁르브론	-18512
▁사카키	-18513
▁조준기	-18514
▁괴로워하	-18515
▁결선	-18516
▁그늘	-18517
▁쿠노	-18518
▁루시아	-18519
▁파헤치	-18520
마이트	-18521
▁바깥쪽	-18522
▁약탈자	-18523
oom	-18524
▁한류	-18525
▁마츠리	-18526
▁뒤엎	-18527
▁Young	-18528
▁발랄	-18529
▁버지	-18530
▁외동	-18531
▁ABC	-18532
bsp	-18533
▁업소	-18534
▁펑펑	-18535
▁클리프	-18536
▁NXT	-18537
▁Japan	-18538
▁무궁화호	-18539
▁놀림	-18540
▁반신	-18541
▁야미	-18542
▁케이스케	-18543
구석	-18544
독스	-18545
DER	-18546
▁아이오	-18547
그럽	-18548
▁모선	-18549
▁ATM	-18550
▁잠정	-18551
▁굶주리	-18552
▁부르크	-18553
▁제동	-18554
▁틈타	-18555
icle	-18556
▁소니아	-18557
▁신검	-18558
▁빙글빙글	-18559
▁순발	-18560
▁바닷가	-18561
▁스테판	-18562
▁아이코	-18563
에트	-18564
▁대칭	-18565
▁승용차	-18566
▁잠자리	-18567
▁스트레인지	-18568
▁이타치	-18569
▁ㄱㅜㅁㅏㄴ	-18570
ubl	-18571
▁신재	-18572
도나	-18573
잣집	-18574
▁매뉴	-18575
alent	-18576
▁시게루	-18577
▁ㅁㅐㄴ	-18578
트니	-18579
▁살벌	-18580
▁저편	-18581
키오	-18582
회전	-18583
▁상수	-18584
▁서산	-18585
▁혐한	-18586
▁느와르	-18587
▁설리	-18588
▁징집	-18589
▁순발력	-18590
▁특혜	-18591
▁스릴러	-18592
▁유희열	-18593
▁서주	-18594
▁어웨이	-18595
플러	-18596
▁윅	-18597
▁마담	-18598
▁보류	-18599
▁hats	-18600
송이	-18601
▁매춘	-18602
▁역행	-18603
▁켈트	-18604
▁피콜로	-18605
▁660	-18606
▁구축전차	-18607
▁이남	-18608
▁Que	-18609
▁Full	-18610
▁밀짚모자	-18611
▁동호회	-18612
▁nbsp	-18613
▁펠레	-18614
▁개헌	-18615
▁금정	-18616
▁전조	-18617
▁퇴임	-18618
▁홍익	-18619
ement	-18620
일라잇	-18621
▁프리랜	-18622
▁트와일라잇	-18623
▁낙동	-18624
▁주권	-18625
▁마음먹	-18626
ha	-18627
▁안대	-18628
▁야루	-18629
▁형법	-18630
▁뉴비	-18631
leep	-18632
▁가차없이	-18633
▁셰이	-18634
▁이반	-18635
▁560	-18636
St	-18637
선스	-18638
▁반반	-18639
▁헤카	-18640
▁res	-18641
▁Champions	-18642
▁리빌	-18643
▁분식	-18644
▁에지	-18645
▁츠지	-18646
▁ㄱㅓㄴㅁㅏㄴ	-18647
▁아라이	-18648
▁동독	-18649
▁세속	-18650
▁루돌프	-18651
▁서스펜션	-18652
▁은인	-18653
▁포제	-18654
▁블리치	-18655
▁스노우볼	-18656
▁매매	-18657
▁밀수	-18658
▁노태우	-18659
press	-18660
▁피시	-18661
▁.?	-18662
▁264	-18663
▁노지	-18664
▁정가	-18665
▁로렌스	-18666
헤드	-18667
▁기형	-18668
▁황색	-18669
▁관세	-18670
▁끼얹	-18671
▁생소	-18672
▁라이선스	-18673
▁아구	-18674
▁척추	-18675
▁레이팅	-18676
▁다이애나	-18677
수염	-18678
▁긍지	-18679
▁로미오	-18680
▁리투아	-18681
▁리투아니아	-18682
▁다이너마이트	-18683
▁신해	-18684
▁여군	-18685
▁포톤	-18686
▁가격대	-18687
▁하룻밤	-18688
uj	-18689
제품	-18690
▁황재	-18691
▁르네상스	-18692
OTH	-18693
▁길가	-18694
▁리디	-18695
▁TSM	-18696
▁소방서	-18697
▁이광수	-18698
▁ㅅㅗㅅㅓ	-18699
▁럿	-18700
수아비	-18701
▁집어던지	-18702
▁허수아비	-18703
▁버들	-18704
태인	-18705
gg	-18706
▁탁구	-18707
▁상반신	-18708
▁카이바	-18709
▁스도	-18710
로트	-18711
▁희소	-18712
ㄹㅣ	-18713
▁소고	-18714
▁des	-18715
▁경제력	-18716
▁심부름	-18717
▁어정쩡	-18718
▁차징	-18719
▁사이클론	-18720
툴루	-18721
▁남코	-18722
▁야오	-18723
▁성운	-18724
▁웬리	-18725
▁코니	-18726
▁반년	-18727
▁봉투	-18728
▁분출	-18729
▁재일	-18730
▁절실	-18731
▁지브	-18732
▁콩고	-18733
▁사토루	-18734
▁호시노	-18735
ots	-18736
▁OT	-18737
▁왕세	-18738
▁지바	-18739
▁브리스	-18740
▁줄리엣	-18741
▁창시자	-18742
▁잔잔	-18743
38	-18744
IF	-18745
▁도살	-18746
▁상층	-18747
▁hatsan	-18748
매기	-18749
펠러	-18750
▁심볼	-18751
▁오웬	-18752
그러	-18753
▁Ho	-18754
▁장자	-18755
▁판교	-18756
레이브	-18757
▁수호신	-18758
▁아카시	-18759
▁티아라	-18760
▁스타더스트	-18761
▁살육	-18762
▁환술	-18763
▁피어스	-18764
▁경산	-18765
▁도래	-18766
▁html	-18767
멘션	-18768
▁-,	-18769
▁농도	-18770
▁모조	-18771
▁디멘션	-18772
▁호타루	-18773
▁패러독스	-18774
▁요네	-18775
▁237	-18776
▁칵	-18777
▁레진	-18778
▁마네	-18779
▁ㅓㅇㅛ	-18780
▁ㅠ	-18781
▁짜장	-18782
▁레인저스	-18783
바인	-18784
거래	-18785
▁발당	-18786
▁살포	-18787
▁난징	-18788
▁넷째	-18789
▁지원자	-18790
삭스	-18791
폭풍	-18792
▁GA	-18793
▁범퇴	-18794
▁성의	-18795
▁마라톤	-18796
디난	-18797
▁박건	-18798
▁히브리	-18799
▁316	-18800
▁Ele	-18801
▁미우라	-18802
▁20000	-18803
▁송정	-18804
▁앞부분	-18805
▁ㅅㅜ	-18806
플라이	-18807
▁POWER	-18808
보스	-18809
▁감마	-18810
▁그렌	-18811
[...]
