[PAD]	0
[UNK]	0
[BOS]	0
[EOS]	0
[CLS]	0
[SEP]	0
[MASK]	0
으	-0
다	-1
에	-2
ᅳᆫ	-3
는	-4
의	-5
을	-6
어	-7
로	-8
하ᄋ	-9
ᆻ다	-10
은	-11
서	-12
▁이	-13
고	-14
이	-15
ᅳᆯ	-16
를	-17
한	-18
▁1	-19
하아	-20
으로	-21
에서	-22
가	-23
▁있	-24
▁2	-25
었다	-26
며	-27
▁그	-28
▁대	-29
▁사	-30
하여	-31
이다	-32
과	-33
아	-34
지	-35
▁지	-36
▁수	-37
▁가	-38
도	-39
▁시	-40
▁20	-41
와	-42
▁아	-43
▁전	-44
▁기	-45
게	-46
인	-47
▁19	-48
▁있다	-49
▁하	-50
▁다	-51
었	-52
하았다	-53
▁제	-54
된	-55
▁일	-56
라	-57
▁정	-58
▁중	-59
▁주	-60
▁것	-61
기	-62
▁자	-63
하는	-64
되었다	-65
한다	-66
▁보	-67
▁공	-68
▁인	-69
▁경	-70
하였다	-71
▁유	-72
▁위	-73
하고	-74
▁오	-75
▁부	-76
▁등	-77
▁조	-78
▁3	-79
▁나	-80
으며	-81
▁미	-82
나	-83
하았	-84
▁한	-85
▁동	-86
이라	-87
▁모	-88
▁선	-89
▁마	-90
▁영	-91
▁연	-92
▁의	-93
▁소	-94
▁발	-95
면	-96
마	-97
▁201	-98
▁고	-99
에는	-100
▁세	-101
▁개	-102
▁스	-103
▁비	-104
▁구	-105
▁국	-106
▁상	-107
만	-108
▁서	-109
▁도	-110
▁후	-111
▁여	-112
더	-113
▁때	-114
▁200	-115
던	-116
▁관	-117
▁성	-118
▁프	-119
▁신	-120
았다	-121
▁있는	-122
▁4	-123
터	-124
부	-125
부터	-126
▁해	-127
▁방	-128
▁"	-129
되어	-130
▁바	-131
할	-132
▁5	-133
▁역	-134
까	-135
▁또	-136
▁않	-137
▁만	-138
ᆫ다	-139
▁무	-140
▁장	-141
▁통	-142
▁내	-143
▁남	-144
까지	-145
▁교	-146
에게	-147
▁현	-148
▁같	-149
▁문	-150
학교	-151
▁거	-152
▁포	-153
▁우	-154
▁출	-155
▁결	-156
적인	-157
어지	-158
적으로	-159
▁최	-160
▁원	-161
된다	-162
▁생	-163
국의	-164
▁어	-165
▁작	-166
▁알	-167
▁진	-168
▁노	-169
지만	-170
▁강	-171
▁당	-172
▁크	-173
▁불	-174
▁6	-175
▁반	-176
▁파	-177
▁따	-178
되었	-179
▁두	-180
▁10	-181
▁계	-182
▁리	-183
데	-184
▁받	-185
▁말	-186
▁분	-187
▁없	-188
년에	-189
▁사용	-190
하게	-191
들은	-192
▁실	-193
하기	-194
▁배	-195
▁에	-196
▁'	-197
이었다	-198
▁단	-199
▁명	-200
에서는	-201
▁이후	-202
▁7	-203
면서	-204
▁예	-205
자	-206
▁8	-207
▁안	-208
▁차	-209
들이	-210
▁재	-211
▁데	-212
▁함	-213
▁한다	-214
▁설	-215
▁일본	-216
았	-217
▁로	-218
▁요	-219
▁특	-220
▁카	-221
이라는	-222
▁초	-223
▁종	-224
▁군	-225
▁독	-226
▁그리	-227
으나	-228
00	-229
▁9	-230
▁추	-231
▁다음	-232
▁되었다	-233
▁그는	-234
▁199	-235
▁대한	-236
▁많	-237
▁김	-238
▁감	-239
▁따르	-240
▁활	-241
리아	-242
▁타	-243
스트	-244
▁대한	-245
▁더	-246
▁대한민	-247
▁및	-248
▁되	-249
▁태	-250
▁음	-251
▁입	-252
▁매	-253
이었	-254
▁라	-255
▁지역	-256
▁형	-257
▁운	-258
▁참	-259
▁다른	-260
▁같은	-261
이며	-262
▁양	-263
이라고	-264
▁피	-265
는데	-266
▁18	-267
▁위하아	-268
▁코	-269
▁평	-270
레이	-271
▁과	-272
▁건	-273
▁미국	-274
▁12	-275
▁열	-276
▁행	-277
or	-278
▁적	-279
들의	-280
▁베	-281
▁프로	-282
▁왕	-283
▁산	-284
▁호	-285
▁시작	-286
들을	-287
▁북	-288
▁승	-289
▁때문	-290
▁목	-291
▁화	-292
▁총	-293
▁번	-294
▁가지	-295
▁그러	-296
시키	-297
▁회	-298
▁또한	-299
▁임	-300
하며	-301
▁함께	-302
▁각	-303
▁사람	-304
하지	-305
▁경기	-306
어지	-307
▁변	-308
어나	-309
▁외	-310
▁들	-311
하였	-312
▁S	-313
▁표	-314
▁올	-315
▁11	-316
▁속	-317
▁처	-318
▁물	-319
하았으며	-320
▁자신	-321
▁달	-322
la	-323
야	-324
▁본	-325
시아	-326
▁경우	-327
▁쓰	-328
▁새	-329
▁민	-330
▁직	-331
▁저	-332
주의	-333
▁약	-334
▁학	-335
▁드	-336
▁선수	-337
▁그의	-338
▁영화	-339
▁현재	-340
하다	-341
▁메	-342
▁집	-343
▁세계	-344
▁아니	-345
▁한국	-346
▁f	-347
▁기록	-348
▁A	-349
▁이름	-350
▁198	-351
▁사이	-352
▁가장	-353
▁점	-354
▁당시	-355
에도	-356
▁항	-357
▁위치	-358
▁존	-359
▁하나	-360
▁간	-361
▁때문에	-362
▁체	-363
▁만들	-364
▁것을	-365
되는	-366
▁있으며	-367
스의	-368
▁그러나	-369
▁확	-370
▁게	-371
▁박	-372
▁국가	-373
리는	-374
스는	-375
▁토	-376
이나	-377
▁F	-378
▁뒤	-379
()	-380
▁M	-381
기도	-382
▁것으로	-383
▁레	-384
▁하았다	-385
▁브	-386
▁C	-387
▁청	-388
▁조선	-389
▁for	-390
mu	-391
▁축	-392
▁치	-393
▁투	-394
▁있었다	-395
▁복	-396
일에	-397
mula	-398
▁천	-399
▁광	-400
▁formula	-401
▁필	-402
▁따르아	-403
▁못	-404
▁활동	-405
▁디	-406
▁야	-407
▁통하아	-408
▁또는	-409
▁삼	-410
▁된다	-411
▁법	-412
▁그리고	-413
▁합	-414
▁프랑	-415
▁증	-416
었고	-417
▁철	-418
▁T	-419
▁금	-420
▁창	-421
하았고	-422
하였고	-423
▁의하아	-424
▁15	-425
▁근	-426
▁애	-427
등학교	-428
▁버	-429
▁판	-430
▁많은	-431
기를	-432
▁편	-433
▁첫	-434
리를	-435
▁언	-436
▁대한민국	-437
▁살	-438
▁것이다	-439
▁심	-440
▁197	-441
▁돌	-442
▁트	-443
되고	-444
랜드	-445
▁이루	-446
▁플	-447
▁충	-448
▁16	-449
▁황	-450
▁페	-451
하면서	-452
이어	-453
▁높	-454
▁하는	-455
▁다음과	-456
사를	-457
▁알리	-458
▁네	-459
▁다시	-460
이고	-461
▁대하아	-462
린	-463
는다	-464
▁서울	-465
▁완	-466
▁루	-467
라이	-468
▁백	-469
▁포함	-470
▁여러	-471
▁뜻	-472
이는	-473
▁17	-474
기에	-475
되었고	-476
▁것이	-477
▁196	-478
상을	-479
▁병	-480
▁사회	-481
로서	-482
▁패	-483
er	-484
▁시즌	-485
▁연구	-486
개의	-487
▁팀	-488
▁용	-489
▁독일	-490
20	-491
▁순	-492
니	-493
▁K	-494
▁죽	-495
▁길	-496
▁모두	-497
▁권	-498
어서	-499
라고	-500
▁B	-501
보	-502
▁배우	-503
장을	-504
in	-505
보다	-506
▁하였다	-507
▁D	-508
성을	-509
▁큰	-510
위를	-511
▁모든	-512
▁히	-513
▁대한민국의	-514
▁I	-515
▁아이	-516
▁채	-517
▁클	-518
▁중국	-519
▁194	-520
▁취	-521
▁규	-522
▁일부	-523
▁처음	-524
▁은	-525
려	-526
▁정부	-527
▁전쟁	-528
▁있었	-529
▁감독	-530
▁도시	-531
▁축구	-532
▁식	-533
▁등이	-534
▁위한	-535
거	-536
▁대표	-537
▁제작	-538
대의	-539
▁-	-540
▁14	-541
니아	-542
▁친	-543
년부터	-544
지를	-545
▁알리어지	-546
▁허	-547
lt	-548
▁등의	-549
하았으나	-550
▁뉴	-551
▁손	-552
▁이용	-553
▁정치	-554
▁자신의	-555
▁테	-556
▁끝	-557
자가	-558
나라	-559
도의	-560
▁존재	-561
▁영국	-562
년에는	-563
하ᄆ	-564
력을	-565
▁구성	-566
gt	-567
▁월	-568
▁이상	-569
부분	-570
▁리그	-571
록	-572
▁문제	-573
▁동안	-574
▁프랑스	-575
거나	-576
▁것은	-577
▁P	-578
▁일반	-579
치어	-580
러	-581
▁즉	-582
▁논	-583
▁작품	-584
▁캐	-585
▁13	-586
km	-587
on	-588
리스	-589
▁환	-590
▁앞	-591
▁러	-592
▁나타	-593
▁할	-594
▁부르	-595
▁이러	-596
▁가능	-597
▁195	-598
▁개발	-599
▁맡	-600
▁&	-601
▁L	-602
▁국제	-603
하아지	-604
리에	-605
이자	-606
시에	-607
▁이러한	-608
▁인구	-609
▁같다	-610
기의	-611
되었으며	-612
▁맞	-613
▁미국의	-614
▁나오	-615
▁중심	-616
년대	-617
통령	-618
▁접	-619
▁주장	-620
도록	-621
이었던	-622
▁밀	-623
▁발견	-624
▁협	-625
리어	-626
▁갖	-627
▁게임	-628
롭ᆫ	-629
▁이는	-630
▁곳	-631
▁향	-632
▁사건	-633
▁발표	-634
▁대회	-635
들과	-636
▁농	-637
▁되어	-638
위원	-639
▁검	-640
▁등을	-641
▁별	-642
군의	-643
자의	-644
림픽	-645
000	-646
로부터	-647
▁U	-648
리카	-649
▁방송	-650
▁G	-651
▁대부분	-652
▁키	-653
▁전투	-654
월에	-655
▁2010	-656
▁폭	-657
▁N	-658
▁번째	-659
▁영향	-660
▁귀	-661
▁음악	-662
an	-663
▁역사	-664
▁육	-665
리그	-666
▁문화	-667
스를	-668
▁들어	-669
정을	-670
었으며	-671
▁지방	-672
▁밝	-673
▁사망	-674
▁담	-675
▁대통령	-676
▁잘	-677
에서도	-678
이트	-679
하면	-680
▁공격	-681
▁홍	-682
지는	-683
▁섬	-684
▁없다	-685
▁걸	-686
▁막	-687
▁하고	-688
▁대학	-689
▁우승	-690
대를	-691
년까지	-692
▁의미	-693
인의	-694
명의	-695
리가	-696
하았던	-697
▁193	-698
-1	-699
▁이를	-700
기가	-701
▁R	-702
▁30	-703
▁참여	-704
▁석	-705
들에게	-706
▁발생	-707
란드	-708
자를	-709
▁효	-710
▁극	-711
▁얻	-712
▁진행	-713
▁정도	-714
기는	-715
▁결과	-716
▁최초	-717
▁프로그	-718
사가	-719
▁H	-720
써	-721
세기	-722
하아서	-723
▁관련	-724
지만	-725
▁관계	-726
▁특히	-727
▁태어나	-728
▁앨	-729
▁E	-730
▁곡	-731
▁블	-732
성이	-733
리의	-734
▁면	-735
쪽으로	-736
▁세우	-737
▁유럽	-738
이스	-739
▁경제	-740
▁절	-741
▁날	-742
도를	-743
▁설립	-744
▁설치	-745
▁올림픽	-746
▁선거	-747
▁책	-748
▁다양	-749
▁발매	-750
디오	-751
▁봉	-752
▁헤	-753
▁암	-754
스터	-755
▁위치한	-756
▁글	-757
▁하지만	-758
▁일어나	-759
▁2008	-760
▁그녀	-761
드는	-762
자는	-763
▁[	-764
▁된	-765
▁러시아	-766
▁이에	-767
▁새롭ᆫ	-768
▁독립	-769
▁이전	-770
리었다	-771
▁폐	-772
▁생각	-773
▁좋	-774
▁엔	-775
▁형태	-776
▁시간	-777
자로	-778
▁측	-779
▁자유	-780
▁사실	-781
았고	-782
스가	-783
▁같이	-784
▁이것	-785
▁준	-786
▁부분	-787
▁교육	-788
▁받았다	-789
원을	-790
요한	-791
▁벌	-792
▁소속	-793
▁여기	-794
▁인하아	-795
와의	-796
▁참가	-797
식을	-798
번째	-799
▁기술	-800
▁2011	-801
▁머	-802
▁중앙	-803
▁니	-804
▁범	-805
▁이탈	-806
en	-807
▁2012	-808
▁침	-809
될	-810
난	-811
▁로마	-812
화국	-813
▁질	-814
▁슈	-815
▁누	-816
으로서	-817
▁출신	-818
▁주로	-819
▁터	-820
▁프로그램	-821
사의	-822
▁있고	-823
▁아들	-824
▁보내	-825
▁2009	-826
▁2007	-827
▁송	-828
▁결정	-829
▁계속	-830
▁줄	-831
▁이르	-832
▁잡	-833
▁음반	-834
▁구조	-835
전을	-836
▁성공	-837
▁W	-838
▁2014	-839
▁등장	-840
사는	-841
▁탈	-842
▁상태	-843
▁골	-844
▁매우	-845
▁온	-846
어진	-847
▁데뷔	-848
대학교	-849
▁운영	-850
▁아니라	-851
▁밝히	-852
▁있어	-853
리즈	-854
▁기준	-855
프트	-856
▁타이	-857
학자	-858
▁오르	-859
▁있던	-860
도는	-861
르크	-862
명을	-863
지로	-864
ar	-865
he	-866
▁혼	-867
▁,	-868
부의	-869
▁않았다	-870
았으며	-871
▁넘	-872
라마	-873
▁케	-874
비아	-875
▁2013	-876
▁아버	-877
되지	-878
▁지정	-879
▁몇	-880
▁가지고	-881
▁생산	-882
▁갈	-883
▁상대	-884
▁이탈리아	-885
어지었다	-886
▁고려	-887
▁쿠	-888
▁0	-889
▁25	-890
▁팔	-891
대에	-892
▁탄	-893
▁악	-894
▁급	-895
인이	-896
ᅳ로	-897
▁찾	-898
▁운동	-899
처	-900
럼	-901
처럼	-902
▁차지	-903
하기도	-904
▁191	-905
▁윤	-906
스타	-907
▁싱	-908
▁라이	-909
로는	-910
이션	-911
▁여성	-912
▁일본의	-913
,000	-914
▁2018	-915
▁지내	-916
▁커	-917
에서의	-918
▁돌아	-919
우스	-920
하자	-921
▁해당	-922
군은	-923
▁2015	-924
▁100	-925
▁결국	-926
▁없는	-927
하았지만	-928
지의	-929
▁최고	-930
▁2016	-931
▁하아	-932
▁데이	-933
▁폴	-934
▁조직	-935
▁한편	-936
es	-937
▁계획	-938
▁이루어지	-939
권을	-940
음	-941
▁업	-942
▁떨	-943
▁출연	-944
▁전체	-945
FA	-946
수를	-947
화를	-948
장이	-949
▁한	-950
▁아래	-951
▁않고	-952
▁2006	-953
▁지원	-954
▁이유	-955
▁주요	-956
▁스타	-957
시	-958
간의	-959
▁빠	-960
▁행정	-961
운데	-962
▁192	-963
▁많이	-964
▁방법	-965
일부터	-966
▁좌	-967
스크	-968
수의	-969
▁제공	-970
도가	-971
▁21	-972
▁국민	-973
지가	-974
사로	-975
스템	-976
▁앨범	-977
▁내용	-978
▁레이	-979
장은	-980
▁2017	-981
▁콘	-982
하던	-983
명이	-984
▁다양한	-985
위원회	-986
초등학교	-987
▁역할	-988
▁힘	-989
▁유명	-990
▁월드	-991
▁대학교	-992
남도	-993
▁스페	-994
▁후보	-995
장으로	-996
at	-997
▁O	-998
선의	-999
▁칼	-1000
으로써	-1001
▁가운데	-1002
▁묘	-1003
▁몸	-1004
▁마이	-1005
▁엘	-1006
_1	-1007
▁떠	-1008
인민	-1009
인다	-1010
▁인터	-1011
am	-1012
므로	-1013
과의	-1014
▁J	-1015
▁얼	-1016
▁헌	-1017
▁거의	-1018
▁와	-1019
▁잠	-1020
대학	-1021
▁출전	-1022
부에	-1023
민주	-1024
가는	-1025
대표	-1026
▁컴	-1027
▁모습	-1028
▁둘	-1029
▁바이	-1030
▁수상	-1031
▁않는다	-1032
전에	-1033
▁표현	-1034
▁각각	-1035
회의	-1036
▁마지	-1037
수가	-1038
al	-1039
▁t	-1040
스와	-1041
▁드라마	-1042
점을	-1043
하려	-1044
▁격	-1045
머니	-1046
▁공식	-1047
▁24	-1048
▁따르면	-1049
성의	-1050
운동	-1051
▁연결	-1052
▁영향을	-1053
사에	-1054
▁반대	-1055
인은	-1056
▁이미	-1057
▁필요	-1058
▁뛰	-1059
으로부터	-1060
▁2019	-1061
▁과정	-1062
원은	-1063
▁졸	-1064
▁높은	-1065
▁능	-1066
주의	-1067
▁시리즈	-1068
▁진출	-1069
▁마지막	-1070
▁희	-1071
▁이름을	-1072
원의	-1073
▁떨어지	-1074
▁볼	-1075
▁정보	-1076
인을	-1077
어를	-1078
▁나타나	-1079
▁임명	-1080
▁붙	-1081
▁알리어지어	-1082
회의	-1083
▁2005	-1084
▁공개	-1085
제를	-1086
었던	-1087
▁가리	-1088
▁시스템	-1089
▁빌	-1090
▁인정	-1091
으로는	-1092
ic	-1093
▁직접	-1094
▁23	-1095
▁22	-1096
▁경상	-1097
▁녹	-1098
력이	-1099
원이	-1100
이가	-1101
도로	-1102
▁작은	-1103
텔레	-1104
▁쇼	-1105
문화	-1106
BS	-1107
▁몰	-1108
▁민주	-1109
▁자연	-1110
▁이야	-1111
▁열린	-1112
▁불리	-1113
전에서	-1114
치는	-1115
▁개최	-1116
▁추가	-1117
▁2000	-1118
른	-1119
▁대신	-1120
▁인도	-1121
▁유지	-1122
하아야	-1123
상의	-1124
▁평가	-1125
▁울	-1126
▁풍	-1127
이드	-1128
니다	-1129
있다	-1130
시의	-1131
▁기능	-1132
▁프리	-1133
21	-1134
▁상황	-1135
▁항공	-1136
▁생활	-1137
군이	-1138
▁오스트	-1139
▁그리스	-1140
▁브라	-1141
▁2004	-1142
▁않은	-1143
▁눈	-1144
▁지구	-1145
▁시대	-1146
▁활약	-1147
▁그룹	-1148
위에	-1149
▁먹	-1150
▁아르	-1151
어는	-1152
▁정의	-1153
▁그것	-1154
▁하여	-1155
▁티	-1156
▁되는	-1157
▁대전	-1158
수는	-1159
일	-1160
선을	-1161
으키	-1162
▁그가	-1163
▁제국	-1164
▁들어가	-1165
▁나라	-1166
르는	-1167
들에	-1168
▁홈	-1169
▁핵	-1170
레스	-1171
▁퍼	-1172
▁받아	-1173
▁관한	-1174
▁후에	-1175
르트	-1176
▁졸업	-1177
물을	-1178
▁압	-1179
is	-1180
▁발전	-1181
대로	-1182
▁FC	-1183
지에	-1184
▁서로	-1185
▁여자	-1186
it	-1187
비전	-1188
▁노래	-1189
▁크게	-1190
부는	-1191
▁비롯	-1192
북도	-1193
▁밴	-1194
▁시절	-1195
▁보이어	-1196
▁응	-1197
▁결혼	-1198
▁변경	-1199
인민공	-1200
세의	-1201
▁부산	-1202
부를	-1203
▁중요한	-1204
▁학교	-1205
re	-1206
10	-1207
▁지나	-1208
▁말한다	-1209
▁역시	-1210
▁모델	-1211
▁난	-1212
▁28	-1213
업을	-1214
계를	-1215
어지어	-1216
▁있는데	-1217
원으로	-1218
ou	-1219
▁놓	-1220
▁26	-1221
▁이론	-1222
▁낮	-1223
일까지	-1224
▁형성	-1225
▁190	-1226
▁센	-1227
문을	-1228
기어	-1229
▁실제	-1230
수로	-1231
▁건설	-1232
▁공동	-1233
▁뿐	-1234
▁워	-1235
▁V	-1236
]]	-1237
치를	-1238
전히	-1239
식으로	-1240
어로	-1241
▁따라	-1242
대는	-1243
서는	-1244
프리카	-1245
▁2020	-1246
▁관리	-1247
▁일으키	-1248
▁분류	-1249
▁들어	-1250
▁현대	-1251
▁27	-1252
▁철도	-1253
주는	-1254
▁뜻은	-1255
▁요구	-1256
▁기업	-1257
▁[[	-1258
리고	-1259
▁군사	-1260
▁푸	-1261
▁지금	-1262
회를	-1263
▁시작하았다	-1264
이기도	-1265
기로	-1266
광역	-1267
▁플레이	-1268
▁연합	-1269
장의	-1270
▁중화	-1271
군을	-1272
▁텔레	-1273
되면서	-1274
▁다이	-1275
▁노동	-1276
리오	-1277
▁실시	-1278
▁색	-1279
▁느	-1280
▁떠나	-1281
▁거치어	-1282
▁않는	-1283
스탄	-1284
▁사이에	-1285
카이	-1286
▁기원	-1287
▁원래	-1288
드의	-1289
▁목록	-1290
▁콜	-1291
▁비판	-1292
라는	-1293
▁딸	-1294
▁가진	-1295
le	-1296
특별	-1297
▁동시에	-1298
▁싸	-1299
▁싱글	-1300
▁혹	-1301
▁건물	-1302
제가	-1303
성은	-1304
▁전통	-1305
▁기본	-1306
▁어떤	-1307
▁계약	-1308
▁지도	-1309
대가	-1310
제의	-1311
트는	-1312
▁이끌	-1313
▁2002	-1314
▁사랑	-1315
▁학생	-1316
▁웨	-1317
▁맥	-1318
▁잉	-1319
▁야구	-1320
▁지하	-1321
상으로	-1322
▁역할을	-1323
▁휴	-1324
장에	-1325
▁달리	-1326
▁가리키	-1327
▁수도	-1328
▁자동	-1329
▁민족	-1330
▁지역의	-1331
▁판매	-1332
다가	-1333
상이	-1334
▁아닌	-1335
▁겸	-1336
▁인물	-1337
▁있다고	-1338
▁개인	-1339
온	-1340
나다	-1341
이란	-1342
▁2003	-1343
관은	-1344
드를	-1345
▁나타내	-1346
▁소련	-1347
▁위하여	-1348
▁샤	-1349
▁기간	-1350
▁기반	-1351
▁특징	-1352
대한	-1353
▁망	-1354
되며	-1355
정한	-1356
▁인간	-1357
▁처음으로	-1358
이의	-1359
19	-1360
▁다르	-1361
▁초기	-1362
▁이동	-1363
▁최초의	-1364
."	-1365
군에	-1366
소를	-1367
서를	-1368
▁기타	-1369
▁전국	-1370
▁승강	-1371
▁서비	-1372
▁수행	-1373
이를	-1374
▁견	-1375
▁50	-1376
있는	-1377
▁만나	-1378
▁이어	-1379
▁운행	-1380
▁~	-1381
▁혁	-1382
장에서	-1383
▁도쿄	-1384
▁교황	-1385
▁따라서	-1386
▁퇴	-1387
▁종교	-1388
▁엄	-1389
▁남아	-1390
▁전문	-1391
▁의한	-1392
▁29	-1393
▁특별	-1394
▁공간	-1395
트를	-1396
▁경기도	-1397
▁이때	-1398
▁도입	-1399
호를	-1400
체의	-1401
▁정책	-1402
▁보통	-1403
▁있을	-1404
명이다	-1405
명은	-1406
트의	-1407
▁기준으로	-1408
▁벨	-1409
적을	-1410
격을	-1411
▁궁	-1412
▁월드컵	-1413
▁기존	-1414
피언	-1415
▁전라	-1416
하았는데	-1417
었으나	-1418
독교	-1419
으면	-1420
▁개의	-1421
역이다	-1422
▁제외	-1423
체를	-1424
▁31	-1425
고등학교	-1426
▁나가	-1427
▁넓	-1428
▁훈	-1429
▁마을	-1430
▁옮	-1431
▁과학	-1432
▁명칭	-1433
▁출시	-1434
회는	-1435
▁볼	-1436
50	-1437
▁비슷	-1438
▁탑	-1439
호는	-1440
시키었다	-1441
▁영화이다	-1442
연구	-1443
▁최대	-1444
▁그래	-1445
리와	-1446
시마	-1447
▁메이	-1448
▁슬	-1449
▁하며	-1450
중에	-1451
이었고	-1452
▁경기에서	-1453
▁애니	-1454
세는	-1455
▁되고	-1456
단의	-1457
▁그렇	-1458
▁거두	-1459
▁국내	-1460
▁바로	-1461
▁될	-1462
▁역임	-1463
▁어머니	-1464
관을	-1465
무를	-1466
▁공연	-1467
▁일반적으로	-1468
▁이적	-1469
스코	-1470
리로	-1471
▁경찰	-1472
▁증가	-1473
▁언어	-1474
▁지배	-1475
▁탐	-1476
광역시	-1477
▁유일	-1478
드리	-1479
BC	-1480
▁연방	-1481
의를	-1482
하았을	-1483
▁알ᆯ	-1484
었는데	-1485
▁과거	-1486
▁텔레비전	-1487
▁사업	-1488
▁c	-1489
▁너	-1490
▁흐	-1491
▁아버지	-1492
호로	-1493
도에	-1494
▁윌	-1495
▁모양	-1496
동안	-1497
이지만	-1498
▁보고	-1499
▁소설	-1500
▁태양	-1501
▁옥	-1502
▁있다는	-1503
▁지휘	-1504
오았다	-1505
진	-1506
▁혹은	-1507
위로	-1508
운드	-1509
▁배우이다	-1510
▁변화	-1511
▁비교	-1512
▁컴퓨	-1513
자와	-1514
▁풀	-1515
▁뮤	-1516
▁이어지	-1517
▁갖추	-1518
▁FI	-1519
▁주변	-1520
st	-1521
▁받은	-1522
▁이것은	-1523
이기	-1524
▁캐나다	-1525
방송	-1526
▁산업	-1527
가지	-1528
▁적용	-1529
제는	-1530
▁챔	-1531
스에	-1532
▁중심으로	-1533
▁뉴욕	-1534
시간	-1535
▁그를	-1536
.5	-1537
하지만	-1538
▁추정	-1539
▁확인	-1540
▁있어서	-1541
상은	-1542
▁국가대표	-1543
지어	-1544
구의	-1545
친	-1546
▁자기	-1547
년의	-1548
▁흔	-1549
▁되었고	-1550
치었다	-1551
쪽에	-1552
▁동일	-1553
▁.	-1554
▁기독교	-1555
▁기관	-1556
▁1990	-1557
▁작곡	-1558
▁환경	-1559
▁행동	-1560
▁가족	-1561
▁착	-1562
▁규모	-1563
▁늘	-1564
▁선정	-1565
경기	-1566
▁2001	-1567
▁곧	-1568
▁설명	-1569
▁가수	-1570
▁통합	-1571
단을	-1572
인으로	-1573
-2	-1574
▁숙	-1575
▁밖	-1576
당의	-1577
▁지지	-1578
▁때문이다	-1579
▁낙	-1580
▁없이	-1581
▁나이	-1582
▁염	-1583
▁분야	-1584
▁클럽	-1585
이ᄆ	-1586
▁획	-1587
로를	-1588
mm	-1589
▁받고	-1590
로스	-1591
아서	-1592
▁바꾸	-1593
긴	-1594
조의	-1595
인민공화국	-1596
류의	-1597
▁챔피언	-1598
하거나	-1599
▁만들ᆫ	-1600
▁담당	-1601
▁40	-1602
▁마음	-1603
체가	-1604
▁실패	-1605
▁갑	-1606
제로	-1607
적은	-1608
▁충청	-1609
▁오늘	-1610
▁189	-1611
▁어느	-1612
▁대부분의	-1613
▁방향	-1614
▁우주	-1615
단은	-1616
종의	-1617
▁노선	-1618
▁차량	-1619
과를	-1620
기관	-1621
▁속하는	-1622
원에	-1623
었지만	-1624
▁활동을	-1625
▁득	-1626
▁기념	-1627
▁컴퓨터	-1628
▁자신이	-1629
정에	-1630
▁개념	-1631
.1	-1632
▁보호	-1633
▁이런	-1634
사와	-1635
마다	-1636
▁멤	-1637
스럽	-1638
트리	-1639
메이션	-1640
▁태어나았다	-1641
야마	-1642
▁상당	-1643
▁몽	-1644
30	-1645
▁할	-1646
학적	-1647
▁마르	-1648
▁지정되었다	-1649
▁대체	-1650
부가	-1651
▁이상의	-1652
▁두고	-1653
▁TV	-1654
▁윈	-1655
▁스페인	-1656
▁다루	-1657
▁방영	-1658
▁사고	-1659
하았다고	-1660
식은	-1661
▁열차	-1662
▁베이	-1663
아들	-1664
▁있지만	-1665
▁하나이다	-1666
나무	-1667
▁보이어주	-1668
았던	-1669
▁그녀는	-1670
자들은	-1671
et	-1672
▁넣	-1673
▁FIFA	-1674
▁흑	-1675
글랜드	-1676
▁데이터	-1677
었다고	-1678
▁기원전	-1679
el	-1680
일을	-1681
메리카	-1682
스키	-1683
일에는	-1684
▁1,	-1685
▁/	-1686
성에	-1687
면에	-1688
계의	-1689
어의	-1690
▁연주	-1691
교육	-1692
▁수록	-1693
식의	-1694
▁조지	-1695
▁선출	-1696
가아	-1697
▁멀	-1698
ion	-1699
시키는	-1700
▁건축	-1701
세가	-1702
▁위원	-1703
로는	-1704
▁작가	-1705
▁멤버	-1706
이었으며	-1707
▁인구는	-1708
트남	-1709
▁부족	-1710
과는	-1711
과에	-1712
▁빈	-1713
▁디자	-1714
▁인천	-1715
▁보인다	-1716
호선	-1717
동에	-1718
▁최근	-1719
이지	-1720
▁최종	-1721
▁있었던	-1722
▁런	-1723
▁옛	-1724
▁있게	-1725
▁가깝	-1726
▁더욱	-1727
중학교	-1728
▁등에	-1729
▁선택	-1730
심을	-1731
▁:	-1732
하도록	-1733
▁땅	-1734
ing	-1735
해를	-1736
▁수는	-1737
▁대하여	-1738
▁예정	-1739
세를	-1740
▁솔	-1741
▁는	-1742
▁공산	-1743
리에서	-1744
학을	-1745
▁나누	-1746
포츠	-1747
▁서울특별	-1748
되기	-1749
성과	-1750
나는	-1751
구	-1752
▁쉽	-1753
▁애니메이션	-1754
역을	-1755
▁하다	-1756
▁대구	-1757
상에	-1758
▁최초로	-1759
치가	-1760
▁결승	-1761
▁크리스	-1762
▁언급	-1763
▁1999	-1764
기와	-1765
되었으나	-1766
널리	-1767
▁등으로	-1768
스카	-1769
▁조사	-1770
▁자료	-1771
▁동물	-1772
▁불가	-1773
한다는	-1774
▁만들어	-1775
▁획득	-1776
▁시민	-1777
▁1998	-1778
기었다	-1779
ol	-1780
▁선언	-1781
▁우리	-1782
▁잉글랜드	-1783
▁평균	-1784
자인	-1785
인이다	-1786
▁이름은	-1787
▁반응	-1788
▁아시아	-1789
▁국립	-1790
om	-1791
회에서	-1792
▁조건	-1793
▁맺	-1794
▁치르	-1795
▁잔	-1796
▁것이라고	-1797
음을	-1798
법을	-1799
▁칭	-1800
바이	-1801
▁선수이다	-1802
▁지역에	-1803
▁지니	-1804
▁지속	-1805
▁1980	-1806
구에	-1807
식이	-1808
▁에너	-1809
▁없었다	-1810
▁어렵	-1811
▁북한	-1812
▁명령	-1813
▁그들의	-1814
▁불구	-1815
전은	-1816
amp	-1817
▁물리	-1818
▁좋은	-1819
버스	-1820
시키어	-1821
움을	-1822
▁구간	-1823
▁정당	-1824
12	-1825
▁연속	-1826
로의	-1827
소가	-1828
▁관할	-1829
▁예를	-1830
▁전기	-1831
명으로	-1832
▁흥	-1833
▁걸치어	-1834
▁점령	-1835
오아	-1836
스턴	-1837
▁유사	-1838
개월	-1839
▁전에	-1840
진을	-1841
구를	-1842
▁바뀌	-1843
▁선발	-1844
▁이들은	-1845
러스	-1846
▁국가대표팀	-1847
소는	-1848
▁예술	-1849
비를	-1850
덜란드	-1851
▁X	-1852
▁거주	-1853
하ᄆ으로써	-1854
▁컨	-1855
▁고대	-1856
학의	-1857
▁m	-1858
정부	-1859
체는	-1860
▁표준	-1861
▁휘	-1862
시대	-1863
베이	-1864
▁잃	-1865
라의	-1866
▁익	-1867
▁정규	-1868
가았다	-1869
▁소유	-1870
▁겨	-1871
자들이	-1872
.0	-1873
▁목표	-1874
지에서	-1875
▁출판	-1876
▁입단	-1877
▁징	-1878
어가	-1879
일랜드	-1880
▁움	-1881
▁먼	-1882
▁하이	-1883
모토	-1884
가의	-1885
▁왜	-1886
▁덕	-1887
년간	-1888
▁개봉	-1889
▁밝히었다	-1890
신을	-1891
▁소비	-1892
원에서	-1893
▁사용하는	-1894
았으나	-1895
▁끌	-1896
▁이름으로	-1897
레일	-1898
▁페르	-1899
▁사상	-1900
메달	-1901
▁후반	-1902
▁세포	-1903
시는	-1904
스티	-1905
▁모습을	-1906
▁포르	-1907
▁교통	-1908
▁네덜란드	-1909
▁영국의	-1910
▁밤	-1911
▁대중	-1912
▁알렉	-1913
▁쌍	-1914
선거	-1915
▁실험	-1916
▁전자	-1917
▁1997	-1918
▁팬	-1919
베르	-1920
지방	-1921
.2	-1922
▁강화	-1923
라스	-1924
구가	-1925
▁씨	-1926
▁서울특별시	-1927
인데	-1928
▁말하았다	-1929
정이	-1930
▁불구하고	-1931
▁베트남	-1932
▁웹	-1933
나이	-1934
▁돈	-1935
▁o	-1936
이라고도	-1937
▁주민	-1938
소의	-1939
▁사무	-1940
▁분석	-1941
▁수도	-1942
60	-1943
▁깊	-1944
▁드러	-1945
지역	-1946
▁맡았다	-1947
▁액	-1948
▁온	-1949
전의	-1950
▁홀	-1951
▁조약	-1952
▁Y	-1953
▁밴드	-1954
▁시설	-1955
루	-1956
관이	-1957
▁믿	-1958
▁승리	-1959
▁하나의	-1960
▁사이의	-1961
단에	-1962
라는	-1963
골을	-1964
로가	-1965
▁칸	-1966
▁구분	-1967
▁이해	-1968
▁현재는	-1969
회에	-1970
▁1996	-1971
▁남자	-1972
▁오늘날	-1973
지었다	-1974
금을	-1975
당은	-1976
▁이유로	-1977
▁알리어진	-1978
▁육군	-1979
▁아프리카	-1980
▁하지	-1981
단이	-1982
월에는	-1983
▁1995	-1984
▁분리	-1985
회가	-1986
계에	-1987
cm	-1988
직을	-1989
▁정확	-1990
▁가르	-1991
▁은퇴	-1992
민주주의	-1993
▁아직	-1994
▁하계	-1995
▁이곳	-1996
▁헬	-1997
▁폴란드	-1998
▁헌법	-1999
▁제품	-2000
-0	-2001
형을	-2002
으므로	-2003
쪽으로는	-2004
ac	-2005
▁않다	-2006
▁포함한	-2007
▁잇	-2008
▁소프트	-2009
▁그들은	-2010
▁경험	-2011
▁공화국	-2012
▁성장	-2013
부르크	-2014
▁이듬	-2015
▁국회의	-2016
▁올라	-2017
▁방문	-2018
기에	-2019
월부터	-2020
산을	-2021
하였는데	-2022
▁결합	-2023
▁부여	-2024
▁그림	-2025
▁프로젝	-2026
▁것에	-2027
▁널리	-2028
▁치료	-2029
▁깨	-2030
▁언론	-2031
▁이사	-2032
▁작업	-2033
스테	-2034
▁다니	-2035
▁하나로	-2036
_2	-2037
▁요시	-2038
▁통과	-2039
▁괴	-2040
었을	-2041
인지	-2042
▁공립	-2043
았지만	-2044
▁광주	-2045
서는	-2046
트로	-2047
▁런던	-2048
나의	-2049
경을	-2050
루스	-2051
▁비행	-2052
화가	-2053
▁기여	-2054
▁지상	-2055
▁이듬해	-2056
▁완전히	-2057
▁제안	-2058
구는	-2059
▁수준	-2060
스	-2061
▁본	-2062
▁그런	-2063
▁단체	-2064
11	-2065
40	-2066
▁지키	-2067
▁중에	-2068
▁설계	-2069
▁유래	-2070
▁발달	-2071
▁꽃	-2072
시코	-2073
▁앤	-2074
주를	-2075
배우	-2076
▁우승을	-2077
▁비하아	-2078
사카	-2079
▁제조	-2080
문에	-2081
▁아마	-2082
▁차례	-2083
▁the	-2084
스에서	-2085
▁못하았다	-2086
▁때까지	-2087
▁물질	-2088
▁의하여	-2089
임을	-2090
▁공항	-2091
▁이들	-2092
▁UE	-2093
르의	-2094
▁중요	-2095
▁맨	-2096
▁위에	-2097
▁나뉘	-2098
습	-2099
이었으나	-2100
아의	-2101
▁이어	-2102
▁요청	-2103
르어	-2104
▁움직	-2105
ᄇ니다	-2106
문의	-2107
TV	-2108
사에서	-2109
톨릭	-2110
▁펼	-2111
장과	-2112
▁고등학교	-2113
▁188	-2114
▁UEFA	-2115
▁프랑스의	-2116
정은	-2117
▁1970	-2118
자리	-2119
▁1994	-2120
▁스스	-2121
국은	-2122
▁인터넷	-2123
위가	-2124
▁자주	-2125
▁더불	-2126
▁배치	-2127
들로	-2128
▁되었	-2129
▁등과	-2130
감을	-2131
▁독일의	-2132
de	-2133
▁덴	-2134
▁현재의	-2135
대로	-2136
선에	-2137
▁사라	-2138
▁이와	-2139
▁슈퍼	-2140
▁스포츠	-2141
▁많다	-2142
▁나머	-2143
▁정도로	-2144
▁받아들	-2145
▁외국	-2146
▁정신	-2147
오는	-2148
▁멸	-2149
관으로	-2150
▁바탕	-2151
il	-2152
치고	-2153
▁제주	-2154
하의	-2155
거리	-2156
▁있도록	-2157
▁비롯한	-2158
15	-2159
위는	-2160
▁마찬	-2161
▁유전	-2162
▁식민	-2163
▁영토	-2164
▁명의	-2165
▁바르	-2166
▁갖고	-2167
▁더불어	-2168
라인	-2169
▁파괴	-2170
▁오래	-2171
▁통일	-2172
▁제한	-2173
▁파이	-2174
▁빛	-2175
▁접근	-2176
고를	-2177
▁주연	-2178
▁확장	-2179
▁연기	-2180
점이	-2181
▁경쟁	-2182
조는	-2183
▁선수로	-2184
▁브라질	-2185
▁사람이	-2186
들도	-2187
▁KBS	-2188
▁끝나	-2189
▁돕	-2190
▁오스트리아	-2191
▁에이	-2192
동을	-2193
▁찾아	-2194
▁감독의	-2195
지와	-2196
전이	-2197
위의	-2198
▁록	-2199
▁추진	-2200
▁도로	-2201
▁km	-2202
▁논란	-2203
as	-2204
▁이렇	-2205
▁모으	-2206
하이	-2207
어진다	-2208
가지로	-2209
시를	-2210
▁1992	-2211
▁달러	-2212
▁강원	-2213
ro	-2214
▁혈	-2215
오	-2216
▁주인	-2217
규모	-2218
▁자리	-2219
▁과정에서	-2220
한다고	-2221
▁불교	-2222
▁촉	-2223
스토	-2224
▁복귀	-2225
부에서	-2226
▁패배	-2227
물의	-2228
▁짧	-2229
▁서식	-2230
▁품	-2231
▁p	-2232
자이다	-2233
습니다	-2234
받았다	-2235
▁수용	-2236
▁아시	-2237
력은	-2238
부로	-2239
▁유명한	-2240
▁프레	-2241
▁찬	-2242
▁특정	-2243
▁개혁	-2244
▁소재	-2245
▁느끼	-2246
▁하았으나	-2247
선이	-2248
▁삼성	-2249
선은	-2250
트가	-2251
▁필리	-2252
▁선수권	-2253
▁올리	-2254
▁그대로	-2255
▁60	-2256
▁스웨	-2257
▁핀	-2258
▁앙	-2259
화국의	-2260
▁효과	-2261
▁빅	-2262
▁사람들이	-2263
주에	-2264
▁of	-2265
시즌	-2266
▁법률	-2267
군과	-2268
▁습	-2269
▁해석	-2270
다이	-2271
▁술	-2272
되기도	-2273
▁윌리	-2274
도와	-2275
크의	-2276
웨이	-2277
▁초등학교	-2278
일의	-2279
하기로	-2280
18	-2281
ig	-2282
요	-2283
▁이로	-2284
아시아	-2285
▁강력	-2286
▁경우가	-2287
▁자치	-2288
수이다	-2289
▁스트	-2290
▁작용	-2291
ve	-2292
행을	-2293
▁b	-2294
드가	-2295
▁기초	-2296
레일리아	-2297
▁하았으며	-2298
▁폐지	-2299
▁스테	-2300
우는	-2301
냐	-2302
▁스위	-2303
없이	-2304
▁목적으로	-2305
▁뛰어나	-2306
▁1960	-2307
▁s	-2308
디어	-2309
▁기록하았다	-2310
소년	-2311
▁초대	-2312
웨어	-2313
기술	-2314
▁회사	-2315
▁것이었다	-2316
멕시코	-2317
▁야마	-2318
▁칠	-2319
▁아카	-2320
대	-2321
많은	-2322
▁먼저	-2323
형의	-2324
하ㅕ	-2325
▁해결	-2326
히어	-2327
▁십	-2328
▁이외	-2329
▁1991	-2330
▁단순	-2331
프로	-2332
▁제시	-2333
▁마이크	-2334
엔	-2335
▁제국의	-2336
▁가톨릭	-2337
국이	-2338
▁근처	-2339
하다가	-2340
▁거부	-2341
▁있기	-2342
▁스웨덴	-2343
센터	-2344
▁그녀의	-2345
인과	-2346
▁자동차	-2347
▁부정	-2348
▁이야기	-2349
▁제작된	-2350
적이	-2351
릭터	-2352
디아	-2353
인트	-2354
부와	-2355
▁엔진	-2356
▁구성되어	-2357
▁1993	-2358
▁미국에서	-2359
▁친구	-2360
▁의	-2361
▁노르	-2362
가이다	-2363
의원	-2364
▁외교	-2365
▁도착	-2366
▁여름	-2367
16	-2368
▁관측	-2369
▁가능하다	-2370
프는	-2371
학과	-2372
▁불리는	-2373
크는	-2374
▁생성	-2375
▁지역에서	-2376
▁집합	-2377
▁결성	-2378
▁상호	-2379
▁있으나	-2380
▁존재한다	-2381
정의	-2382
량이	-2383
사이	-2384
▁유니	-2385
▁아무	-2386
▁70	-2387
▁반란	-2388
릴	-2389
▁겪	-2390
▁다카	-2391
▁수많은	-2392
▁라디오	-2393
▁경영	-2394
지션	-2395
▁일제	-2396
자에	-2397
안을	-2398
▁조선민주주의	-2399
▁보다	-2400
▁몬	-2401
▁가아	-2402
▁임시	-2403
▁놀	-2404
나가	-2405
이라고	-2406
▁다만	-2407
▁비슷한	-2408
▁여기서	-2409
▁대하아서	-2410
▁상대로	-2411
▁파견	-2412
▁지난	-2413
▁이주	-2414
13	-2415
▁팀의	-2416
▁위험	-2417
▁지내었다	-2418
▁지진	-2419
하았다는	-2420
▁엘리	-2421
란	-2422
▁동맹	-2423
량을	-2424
어야	-2425
왕의	-2426
▁삶	-2427
▁방어	-2428
▁캠	-2429
▁때는	-2430
▁캐릭터	-2431
성으로	-2432
▁의하면	-2433
▁투표	-2434
▁바다	-2435
▁일종	-2436
▁분포	-2437
▁것과	-2438
▁오스트레일리아	-2439
▁의원	-2440
▁만에	-2441
▁디지	-2442
기로	-2443
▁시도	-2444
트워	-2445
▁않아	-2446
철도	-2447
▁조각	-2448
▁연극	-2449
겠다	-2450
화의	-2451
▁황제	-2452
▁영어	-2453
▁죽음	-2454
수한	-2455
▁사용한다	-2456
",	-2457
▁궤	-2458
▁시행	-2459
▁주도	-2460
▁마찬가지로	-2461
▁긴	-2462
▁훈련	-2463
▁내려	-2464
▁아일랜드	-2465
▁근거	-2466
대와	-2467
년을	-2468
▁중간	-2469
▁윈도	-2470
▁공작	-2471
▁의미한다	-2472
▁꾸	-2473
▁윌리엄	-2474
ᆫ다는	-2475
▁스튜	-2476
리	-2477
가를	-2478
▁위하아서	-2479
▁지역을	-2480
어들	-2481
▁있지	-2482
▁나무	-2483
ed	-2484
▁오브	-2485
트에서	-2486
▁뇌	-2487
조를	-2488
▁1988	-2489
▁발행	-2490
▁상징	-2491
평양	-2492
▁흡	-2493
▁교회	-2494
▁형태로	-2495
70	-2496
되었던	-2497
14	-2498
80	-2499
▁성립	-2500
▁시기	-2501
정보	-2502
▁끝에	-2503
▁시작하였다	-2504
만이	-2505
▁대표적인	-2506
▁재판	-2507
사업	-2508
▁히로	-2509
촬영	-2510
▁준비	-2511
▁한국의	-2512
화된	-2513
▁대응	-2514
▁활용	-2515
▁지하철	-2516
▁이렇게	-2517
▁붕	-2518
▁중단	-2519
하는데	-2520
내었다	-2521
관의	-2522
리지	-2523
▁처리	-2524
▁르	-2525
버트	-2526
가로	-2527
▁듣	-2528
▁벽	-2529
▁숨	-2530
▁일을	-2531
▁길ᆫ	-2532
▁서비스	-2533
▁미사	-2534
▁체포	-2535
▁멕시코	-2536
▁고속	-2537
▁몇몇	-2538
▁북쪽	-2539
로나	-2540
▁사용된다	-2541
▁중에서	-2542
▁시험	-2543
▁보유	-2544
▁있었고	-2545
▁문학	-2546
교회	-2547
▁벌어지	-2548
▁원자	-2549
▁등록	-2550
▁루이	-2551
역은	-2552
▁띠	-2553
▁남쪽	-2554
점으로	-2555
▁센터	-2556
▁따른	-2557
▁이스	-2558
▁베르	-2559
NA	-2560
▁사용할	-2561
▁귀족	-2562
▁벤	-2563
면을	-2564
▁가정	-2565
▁규정	-2566
▁The	-2567
인들이	-2568
▁관련된	-2569
ᅮᆫ	-2570
▁낳	-2571
연합	-2572
▁타이틀	-2573
▁체결	-2574
▁굴	-2575
▁회의	-2576
▁비디오	-2577
▁이집	-2578
주시	-2579
▁안정	-2580
오카	-2581
다고	-2582
소에	-2583
니스	-2584
량은	-2585
▁승강장	-2586
▁아내	-2587
▁크로	-2588
_3	-2589
▁모르	-2590
▁쓴	-2591
.3	-2592
▁캘	-2593
▁제기	-2594
▁알렉산	-2595
▁싸우	-2596
국을	-2597
▁당선	-2598
▁80	-2599
선에서	-2600
▁표시	-2601
이던	-2602
▁정부는	-2603
▁혁명	-2604
us	-2605
임스	-2606
▁직후	-2607
워드	-2608
▁통치	-2609
▁사진	-2610
▁로스	-2611
▁지적	-2612
▁얼마	-2613
▁여객	-2614
▁1989	-2615
▁디지털	-2616
▁묘사	-2617
',	-2618
▁나머지	-2619
▁맞추	-2620
▁남부	-2621
든	-2622
▁피해	-2623
▁유로	-2624
▁새로	-2625
메이	-2626
od	-2627
▁케이	-2628
▁혐	-2629
만을	-2630
▁억	-2631
사회	-2632
▁동생	-2633
일은	-2634
티아	-2635
트로	-2636
▁금지	-2637
▁하루	-2638
▁곤	-2639
▁자라	-2640
▁개통	-2641
▁해안	-2642
▁달성	-2643
▁번역	-2644
▁계열	-2645
▁교수	-2646
력의	-2647
▁젊	-2648
리포	-2649
▁부른다	-2650
▁오았다	-2651
▁종합	-2652
▁값	-2653
▁이름이	-2654
았는데	-2655
ch	-2656
▁내각	-2657
▁주어지	-2658
▁유대	-2659
대로	-2660
문이	-2661
▁보존	-2662
▁이슬	-2663
▁홍콩	-2664
비는	-2665
나라의	-2666
▁계승	-2667
▁가리킨다	-2668
미터	-2669
and	-2670
뿐	-2671
▁보이	-2672
▁적이	-2673
▁못한	-2674
▁대륙	-2675
▁2021	-2676
▁대하아서는	-2677
▁대사	-2678
▁가능한	-2679
▁1950	-2680
▁류	-2681
▁완성	-2682
단으로	-2683
▁펜	-2684
작용	-2685
▁포르투	-2686
공항	-2687
▁곳에	-2688
▁쌓	-2689
회사	-2690
▁종료	-2691
▁중국의	-2692
와는	-2693
물이	-2694
▁밑	-2695
▁빼	-2696
▁촬영	-2697
계가	-2698
당이	-2699
▁즉위	-2700
▁출생	-2701
▁간의	-2702
▁만화	-2703
▁조성	-2704
학생	-2705
멀ᆫ	-2706
▁스코	-2707
▁폰	-2708
산의	-2709
17	-2710
▁주인공	-2711
▁취임	-2712
피아	-2713
▁발사	-2714
▁년	-2715
▁강한	-2716
치의	-2717
▁해외	-2718
▁싶	-2719
드	-2720
▁종류	-2721
▁본래	-2722
권의	-2723
자들의	-2724
▁유일한	-2725
되자	-2726
하에	-2727
과학	-2728
▁못하고	-2729
당을	-2730
론을	-2731
▁뮤직	-2732
▁보수	-2733
주교	-2734
역으로	-2735
▁완전	-2736
▁소개	-2737
▁의견	-2738
시키고	-2739
ent	-2740
소로	-2741
이었지만	-2742
▁경기를	-2743
-3	-2744
▁1945	-2745
▁수비	-2746
▁건너	-2747
▁합류	-2748
력으로	-2749
조가	-2750
▁벗	-2751
▁꼬	-2752
롭게	-2753
▁경상북도	-2754
▁물론	-2755
▁전환	-2756
▁안에	-2757
▁정치적	-2758
ㅏㅆ	-2759
관리	-2760
▁전달	-2761
▁낮은	-2762
드로	-2763
▁근무	-2764
▁충돌	-2765
▁떨어진	-2766
▁사이에서	-2767
▁인민	-2768
▁녹음	-2769
▁승격	-2770
세에	-2771
▁안전	-2772
▁주목	-2773
▁관계를	-2774
계는	-2775
▁천황	-2776
▁죄	-2777
▁것도	-2778
두고	-2779
▁후쿠	-2780
▁인근	-2781
려고	-2782
도시	-2783
▁게이	-2784
▁동쪽	-2785
관에	-2786
하는데	-2787
▁문제를	-2788
하아지었다	-2789
▁지명	-2790
▁문제가	-2791
.4	-2792
▁반면	-2793
승을	-2794
▁32	-2795
▁어린	-2796
▁필요한	-2797
스로	-2798
▁오후	-2799
▁일어나ㄴ	-2800
▁제거	-2801
▁남북	-2802
▁평화	-2803
▁관광	-2804
▁참여하였다	-2805
ad	-2806
문화재	-2807
▁186	-2808
▁주는	-2809
▁되었으며	-2810
은행	-2811
▁미술	-2812
▁사망하였다	-2813
▁전략	-2814
▁이래	-2815
▁경상남도	-2816
▁표기	-2817
▁각종	-2818
▁에드	-2819
린다	-2820
▁난	-2821
월까지	-2822
인들은	-2823
▁가깝ᆫ	-2824
즈의	-2825
▁즐	-2826
▁헨	-2827
▁끼	-2828
요일	-2829
▁왼	-2830
석을	-2831
▁명예	-2832
산으로	-2833
▁멜	-2834
이ᄆ을	-2835
▁종목	-2836
▁비밀	-2837
족의	-2838
분을	-2839
▁부모	-2840
다는	-2841
▁세르	-2842
았을	-2843
▁이루어지어	-2844
▁중화인민공화국	-2845
메달을	-2846
비가	-2847
▁MBC	-2848
전으로	-2849
▁읽	-2850
▁통하여	-2851
ot	-2852
▁베네	-2853
▁미래	-2854
▁주의	-2855
▁문서	-2856
문은	-2857
▁말을	-2858
어주	-2859
▁이용하여	-2860
▁은	-2861
량의	-2862
▁인식	-2863
▁네트워	-2864
▁경우에는	-2865
▁해군	-2866
문학	-2867
▁수가	-2868
▁포지션	-2869
▁위치하고	-2870
헝가	-2871
미널	-2872
의로	-2873
▁납	-2874
▁집중	-2875
그룹	-2876
▁최고의	-2877
▁아우	-2878
분에	-2879
▁하기	-2880
▁d	-2881
▁오사카	-2882
▁위치하아	-2883
▁가입	-2884
▁강조	-2885
▁위의	-2886
페이	-2887
적으로는	-2888
▁너무	-2889
▁실제로	-2890
도로	-2891
아메리카	-2892
트에	-2893
▁뒤에	-2894
신의	-2895
un	-2896
▁기록을	-2897
전쟁	-2898
▁생물	-2899
▁전시	-2900
▁전투에서	-2901
▁이슬람	-2902
단체	-2903
상에서	-2904
▁공급	-2905
25	-2906
▁제도	-2907
ow	-2908
되었는데	-2909
▁상업	-2910
파의	-2911
▁카운	-2912
아프리카	-2913
이면	-2914
▁오르았다	-2915
▁오스	-2916
▁오아	-2917
대회	-2918
▁출신의	-2919
▁아니다	-2920
▁187	-2921
▁사실을	-2922
▁정착	-2923
▁국회의원	-2924
만에	-2925
▁만약	-2926
▁짓	-2927
▁오른	-2928
년대에	-2929
인가	-2930
▁기존의	-2931
▁맹	-2932
동차	-2933
▁사람은	-2934
▁바탕으로	-2935
▁북부	-2936
▁옆	-2937
▁만들어진	-2938
라노	-2939
▁마련	-2940
적이고	-2941
br	-2942
보다는	-2943
▁최소	-2944
점에서	-2945
▁만들었다	-2946
▁스스로	-2947
▁전반	-2948
▁빠르	-2949
▁인한	-2950
▁기후	-2951
▁여전히	-2952
▁가는	-2953
▁연장	-2954
▁친일	-2955
▁저항	-2956
▁마리아	-2957
48	-2958
라우	-2959
▁구조를	-2960
▁스토	-2961
▁아키	-2962
▁서쪽	-2963
화는	-2964
니는	-2965
ct	-2966
기업	-2967
▁나의	-2968
▁제목	-2969
생활	-2970
▁시작되었다	-2971
▁그해	-2972
▁허용	-2973
▁가져	-2974
▁레코	-2975
▁터키	-2976
▁감소	-2977
.6	-2978
▁성격	-2979
권이	-2980
2,	-2981
▁대회에서	-2982
타이	-2983
▁사용하여	-2984
▁정식	-2985
▁주었다	-2986
하ㅕ서	-2987
▁정부의	-2988
▁프로듀	-2989
▁사회주의	-2990
▁35	-2991
▁실행	-2992
▁신라	-2993
▁인디	-2994
년과	-2995
산은	-2996
▁이후에	-2997
▁1987	-2998
▁배경	-2999
질을	-3000
시가	-3001
▁에스	-3002
▁작성	-3003
▁내부	-3004
상과	-3005
▁이번	-3006
..	-3007
▁혜	-3008
치로	-3009
▁무렵	-3010
▁적극	-3011
▁의사	-3012
하았기	-3013
▁a	-3014
▁재직	-3015
▁영화배우	-3016
▁교체	-3017
계에서	-3018
드와	-3019
▁몽골	-3020
▁기능을	-3021
▁사람을	-3022
세이	-3023
슨은	-3024
▁뿐만	-3025
▁확대	-3026
▁바람	-3027
되었지만	-3028
▁블랙	-3029
ur	-3030
▁정리	-3031
▁일반적인	-3032
▁전라남도	-3033
산업	-3034
▁자체	-3035
▁윈도우	-3036
▁높이	-3037
▁건강	-3038
주가	-3039
▁나중에	-3040
▁만드는	-3041
자에게	-3042
▁전하아지	-3043
▁=	-3044
리스트	-3045
▁국방	-3046
▁사회적	-3047
▁입학	-3048
▁사령	-3049
▁국왕	-3050
원과	-3051
▁포르투갈	-3052
▁생활을	-3053
▁n	-3054
▁관찰	-3055
주로	-3056
.7	-3057
▁위협	-3058
▁객	-3059
▁시대의	-3060
역에	-3061
▁피아	-3062
▁던	-3063
▁뒷	-3064
▁편집	-3065
세포	-3066
FC	-3067
▁불린다	-3068
▁1986	-3069
▁겨울	-3070
▁카이	-3071
▁제임스	-3072
▁2,	-3073
영화	-3074
리포니아	-3075
차를	-3076
▁점차	-3077
▁1984	-3078
▁이루어진	-3079
▁차이	-3080
아지	-3081
▁채택	-3082
실을	-3083
▁나서	-3084
▁제외한	-3085
의회	-3086
▁유리	-3087
▁사용되는	-3088
▁동계	-3089
▁보도	-3090
▁충분	-3091
▁동료	-3092
바르	-3093
▁시기에	-3094
▁옹	-3095
파이	-3096
물로	-3097
▁노력	-3098
▁출발	-3099
▁발매되었다	-3100
▁생기	-3101
▁계산	-3102
가와	-3103
▁범죄	-3104
▁울산	-3105
▁채널	-3106
▁유엔	-3107
▁항상	-3108
사건	-3109
시킨	-3110
장이다	-3111
개발	-3112
해의	-3113
▁자본	-3114
im	-3115
▁붕괴	-3116
▁외에도	-3117
▁여행	-3118
군으로	-3119
역에서	-3120
▁St	-3121
교의	-3122
.8	-3123
▁사람들은	-3124
래프트	-3125
▁확보	-3126
▁앞서	-3127
데미	-3128
▁구단	-3129
▁방식	-3130
▁제정	-3131
▁계약을	-3132
▁성우	-3133
24	-3134
가가	-3135
▁예선	-3136
▁장기	-3137
▁데이비	-3138
▁빨	-3139
티브	-3140
▁감염	-3141
▁집단	-3142
▁전개	-3143
이어서	-3144
브리	-3145
▁판단	-3146
사령	-3147
설을	-3148
었기	-3149
인에	-3150
는지	-3151
로로	-3152
▁민간	-3153
▁아나	-3154
▁하게	-3155
▁보면	-3156
▁스튜디오	-3157
라엘	-3158
▁그래서	-3159
▁마쓰	-3160
▁유형	-3161
고속	-3162
▁찰	-3163
▁남편	-3164
▁합병	-3165
▁쉽게	-3166
트와	-3167
화에	-3168
▁어떻	-3169
끄는	-3170
▁라이브	-3171
▁나온	-3172
id	-3173
▁매년	-3174
라도	-3175
▁장애	-3176
▁끊	-3177
▁고구	-3178
대에서	-3179
국에	-3180
▁구축	-3181
▁500	-3182
▁동부	-3183
ay	-3184
▁척	-3185
▁증거	-3186
▁발표하았다	-3187
▁둘러	-3188
▁측정	-3189
▁필리핀	-3190
▁샌	-3191
▁냉	-3192
▁미치	-3193
ᄆ으로써	-3194
종은	-3195
▁마사	-3196
▁종종	-3197
▁다섯	-3198
세기에	-3199
시대의	-3200
자치	-3201
ir	-3202
▁핀란드	-3203
▁책임	-3204
▁봄	-3205
▁캘리포니아	-3206
▁쇠	-3207
▁간주	-3208
▁뒤를	-3209
▁부근	-3210
90	-3211
▁1985	-3212
당에	-3213
▁등은	-3214
▁신경	-3215
▁요리	-3216
▁있었지만	-3217
▁일이	-3218
▁컬	-3219
하다고	-3220
▁탑재	-3221
ut	-3222
▁후지	-3223
▁자리를	-3224
▁관심을	-3225
▁남성	-3226
르타	-3227
▁수학	-3228
여자	-3229
▁엑	-3230
호가	-3231
오프	-3232
▁강원도	-3233
하려는	-3234
▁in	-3235
▁페이	-3236
로드	-3237
일본	-3238
즈는	-3239
▁이승	-3240
력과	-3241
▁주장하았다	-3242
▁전사	-3243
면의	-3244
▁90	-3245
▁강력한	-3246
로서의	-3247
초등학교는	-3248
계로	-3249
▁그곳	-3250
▁털	-3251
▁정보를	-3252
23	-3253
▁꿈	-3254
▁파리	-3255
▁밖에	-3256
▁하지만	-3257
▁경향	-3258
▁임명되었다	-3259
▁옮기	-3260
라비아	-3261
▁공공	-3262
스럽ᆫ	-3263
▁수립	-3264
▁침공	-3265
▁사례	-3266
▁모스크	-3267
▁셀	-3268
▁등에서	-3269
▁초등학교이다	-3270
경제	-3271
▁공격을	-3272
력에	-3273
▁태평양	-3274
▁승리를	-3275
나았다	-3276
름답	-3277
um	-3278
▁방식으로	-3279
▁서부	-3280
▁득점	-3281
▁균	-3282
티는	-3283
▁자신을	-3284
▁잭	-3285
▁수입	-3286
▁인간의	-3287
▁변호	-3288
▁경우도	-3289
민족	-3290
▁한다고	-3291
▁얼굴	-3292
개를	-3293
모리	-3294
▁이스라엘	-3295
▁쪽	-3296
▁사용한	-3297
법에	-3298
▁세이	-3299
신이	-3300
일러	-3301
▁춘	-3302
▁마리	-3303
하고자	-3304
▁비용	-3305
▁인수	-3306
▁이것이	-3307
▁트리	-3308
▁헝가	-3309
ᄆ에	-3310
약을	-3311
▁면적은	-3312
▁텍	-3313
▁화학	-3314
키아	-3315
▁콩	-3316
바	-3317
이이다	-3318
▁남동	-3319
법은	-3320
으면서	-3321
트라	-3322
법원	-3323
면에서	-3324
자들을	-3325
항공	-3326
하ᄆ을	-3327
▁나폴	-3328
네시아	-3329
류를	-3330
▁대규모	-3331
▁한다는	-3332
소에서	-3333
▁정상	-3334
▁아랍	-3335
틀랜드	-3336
▁주연으로	-3337
▁평양	-3338
▁연맹	-3339
▁회복	-3340
어와	-3341
ver	-3342
씨는	-3343
에게는	-3344
당한	-3345
제에	-3346
드로	-3347
여	-3348
▁잠시	-3349
▁불과	-3350
▁하자	-3351
후의	-3352
이므로	-3353
▁저지	-3354
▁가리키는	-3355
▁해방	-3356
힌	-3357
▁린	-3358
▁회원	-3359
서에	-3360
▁당시의	-3361
▁증명	-3362
포르	-3363
고리	-3364
▁다음을	-3365
신은	-3366
데스	-3367
▁나카	-3368
▁이끄는	-3369
종이	-3370
▁좀	-3371
▁네트워크	-3372
▁인하여	-3373
▁대형	-3374
▁내에서	-3375
박쥐	-3376
▁메이저	-3377
▁둥	-3378
▁농업	-3379
터테	-3380
에르	-3381
▁에피	-3382
▁충청남도	-3383
▁아름답	-3384
▁고구려	-3385
▁따르ㅏ	-3386
▁수정	-3387
▁중학교	-3388
사키	-3389
까지의	-3390
▁1982	-3391
▁본관은	-3392
레이션	-3393
▁소프트웨어	-3394
▁링	-3395
▁45	-3396
▁받는	-3397
라크	-3398
▁기획	-3399
▁힘을	-3400
▁하면서	-3401
▁만족	-3402
▁숲	-3403
▁대상	-3404
▁갖춘	-3405
▁일종이다	-3406
싱턴	-3407
고로	-3408
▁중화민	-3409
▁조정	-3410
▁개편	-3411
▁비교적	-3412
▁시장	-3413
수와	-3414
▁귀국	-3415
▁사람의	-3416
▁시청	-3417
▁아시안	-3418
▁무역	-3419
적이다	-3420
▁돌아가	-3421
▁팀은	-3422
▁사후	-3423
▁말이다	-3424
▁과정을	-3425
▁고전	-3426
▁형식	-3427
▁붉	-3428
▁시내	-3429
드에서	-3430
▁사용되었다	-3431
▁보이는	-3432
서관	-3433
▁쓰인다	-3434
케이	-3435
▁기계	-3436
▁폭발	-3437
▁잎	-3438
▁뛰어난	-3439
▁셰	-3440
▁원칙	-3441
▁설립된	-3442
▁복잡	-3443
마스	-3444
▁알고	-3445
점에	-3446
까지는	-3447
▁않을	-3448
▁의하ㅕ서	-3449
▁전차	-3450
도에서	-3451
▁개정	-3452
▁편입	-3453
▁덴마	-3454
▁태어난	-3455
▁플로	-3456
▁기억	-3457
▁인기를	-3458
▁족	-3459
▁특수	-3460
22	-3461
티나	-3462
▁고양	-3463
▁떨어지어	-3464
▁신문	-3465
▁섭	-3466
▁신설	-3467
▁어린	-3468
일보	-3469
▁죽은	-3470
▁조선민주주의인민공화국	-3471
라운드	-3472
니어	-3473
▁도움을	-3474
▁포지션은	-3475
▁라틴	-3476
▁인사	-3477
▁둘러싸	-3478
▁시대에	-3479
권은	-3480
시오	-3481
▁속에	-3482
▁은행	-3483
형은	-3484
대전	-3485
▁1983	-3486
▁부문	-3487
인들의	-3488
▁묻	-3489
▁오리	-3490
받아	-3491
▁롤	-3492
▁저장	-3493
▁대상으로	-3494
품을	-3495
▁본격	-3496
▁선의	-3497
▁LG	-3498
▁이전에	-3499
▁대립	-3500
▁태풍	-3501
▁설치되어	-3502
▁일어나ㅏㅆ	-3503
료를	-3504
유럽	-3505
▁홈런	-3506
료로	-3507
▁단백	-3508
▁지역은	-3509
▁가격	-3510
▁개선	-3511
물은	-3512
서로	-3513
▁이기	-3514
▁토론	-3515
▁점을	-3516
▁에서	-3517
명한	-3518
▁통한	-3519
▁초반	-3520
▁구성된	-3521
볼	-3522
경에	-3523
▁카메	-3524
▁사실상	-3525
▁본선	-3526
▁때에는	-3527
▁살아	-3528
▁참석	-3529
▁에너지	-3530
▁우선	-3531
▁있었으며	-3532
▁살해	-3533
정책	-3534
시와	-3535
▁마이크로	-3536
▁근대	-3537
▁바라	-3538
선수	-3539
▁캄	-3540
▁후손	-3541
점은	-3542
리학	-3543
▁설정	-3544
▁불가능	-3545
셔널	-3546
▁속에서	-3547
CA	-3548
▁구체	-3549
프리	-3550
학년	-3551
의의	-3552
▁박물	-3553
▁앞두고	-3554
▁행사	-3555
.9	-3556
프의	-3557
▁아카데미	-3558
▁되지	-3559
공업	-3560
▁형태의	-3561
법의	-3562
드에	-3563
카와	-3564
하라	-3565
▁전혀	-3566
▁카를	-3567
▁통신	-3568
em	-3569
kg	-3570
▁재정	-3571
▁사는	-3572
▁짧은	-3573
무원	-3574
동은	-3575
▁고향	-3576
분의	-3577
마이	-3578
▁유도	-3579
▁해체	-3580
▁외에	-3581
하아주	-3582
▁스피	-3583
▁창설	-3584
▁발견된다	-3585
▁듀	-3586
낸	-3587
경의	-3588
▁내용을	-3589
▁애플	-3590
▁핵심	-3591
▁암살	-3592
▁마드리	-3593
▁열대	-3594
▁부인	-3595
▁아르헨	-3596
▁나오는	-3597
경찰	-3598
를린	-3599
▁공유	-3600
▁잘못	-3601
▁1972	-3602
▁300	-3603
조선	-3604
▁편성	-3605
▁무엇	-3606
▁중반	-3607
내는	-3608
용으로	-3609
▁펠	-3610
수에	-3611
ᆫ다고	-3612
권에	-3613
▁그린	-3614
▁하았지만	-3615
▁중의	-3616
축구	-3617
▁이란	-3618
▁조금	-3619
▁다음은	-3620
형이	-3621
같은	-3622
▁비난	-3623
▁아주	-3624
▁파일	-3625
▁세우었다	-3626
▁w	-3627
45	-3628
시킬	-3629
▁브리	-3630
▁역사상	-3631
세계	-3632
▁수여	-3633
▁있었으나	-3634
▁짐	-3635
차례	-3636
▁확정	-3637
미디	-3638
▁답	-3639
르고	-3640
▁현실	-3641
▁뉴스	-3642
▁삼국	-3643
▁문화재	-3644
음악	-3645
어지는	-3646
예술	-3647
하려고	-3648
▁협력	-3649
▁등장하는	-3650
씨의	-3651
▁1920	-3652
▁흔히	-3653
▁추정된다	-3654
받은	-3655
▁뿌	-3656
▁1979	-3657
▁수출	-3658
▁시키	-3659
▁뜨	-3660
도르	-3661
번의	-3662
이었는데	-3663
▁세운	-3664
▁브랜드	-3665
▁비율	-3666
▁공부	-3667
▁보급	-3668
▁때에	-3669
▁모스크바	-3670
▁개봉한	-3671
협회	-3672
주에서	-3673
▁을	-3674
▁요한	-3675
ag	-3676
▁보아	-3677
스리그	-3678
▁업무	-3679
▁II	-3680
체에	-3681
▁유명하다	-3682
▁장착	-3683
▁위치한다	-3684
주와	-3685
▁33	-3686
▁옷	-3687
▁고정	-3688
▁자는	-3689
▁로버트	-3690
▁플랫	-3691
▁넘어	-3692
▁블루	-3693
▁하았고	-3694
▁탄생	-3695
▁숫	-3696
이라며	-3697
▁그것은	-3698
역의	-3699
▁버스	-3700
▁프란	-3701
▁단일	-3702
듯	-3703
▁심각	-3704
▁훨	-3705
▁항복	-3706
▁뜻이	-3707
▁예상	-3708
▁선고	-3709
▁오히	-3710
▁역대	-3711
▁워싱턴	-3712
▁베이징	-3713
유의	-3714
▁정도의	-3715
▁권한	-3716
▁동일한	-3717
▁세계에서	-3718
▁현재까지	-3719
▁물러	-3720
▁어떻게	-3721
리어	-3722
▁하였고	-3723
▁박사	-3724
▁그에	-3725
테르	-3726
os	-3727
▁맛	-3728
BO	-3729
▁1930	-3730
▁되면서	-3731
▁180	-3732
무라	-3733
면은	-3734
▁젊은	-3735
버그	-3736
200	-3737
▁훨씬	-3738
▁36	-3739
▁기사	-3740
▁투자	-3741
▁노예	-3742
▁클래	-3743
▁북서	-3744
▁적은	-3745
▁튀	-3746
▁시각	-3747
▁나는	-3748
▁머리	-3749
지원	-3750
하였지만	-3751
▁식물	-3752
▁1981	-3753
▁조합	-3754
▁있었는데	-3755
간에	-3756
▁가로	-3757
▁출마	-3758
▁하늘	-3759
▁발생한	-3760
▁까	-3761
▁왕국	-3762
▁1973	-3763
▁을	-3764
색을	-3765
▁투입	-3766
▁길이는	-3767
▁시티	-3768
▁기반으로	-3769
▁수원	-3770
▁헤이	-3771
▁무기	-3772
▁오랜	-3773
호의	-3774
▁프로그램이다	-3775
▁형제	-3776
구로	-3777
▁오픈	-3778
체육	-3779
동의	-3780
비의	-3781
▁우크	-3782
▁정부가	-3783
하다는	-3784
▁보이었다	-3785
미는	-3786
▁한때	-3787
려는	-3788
▁가능성이	-3789
▁제작에	-3790
▁에어	-3791
보를	-3792
▁디자인	-3793
▁덮	-3794
▁점에서	-3795
▁차지하았다	-3796
▁벗어나	-3797
보는	-3798
▁맡고	-3799
▁내에	-3800
▁이끌고	-3801
▁율	-3802
▁낭	-3803
지고	-3804
▁금융	-3805
▁추측	-3806
[]	-3807
인멀ᆫ	-3808
시설	-3809
▁신앙	-3810
년이	-3811
중앙	-3812
▁마이클	-3813
보드	-3814
▁계급	-3815
만의	-3816
등을	-3817
니의	-3818
▁정복	-3819
▁없고	-3820
▁그에게	-3821
데이	-3822
▁넓은	-3823
▁누구	-3824
▁교토	-3825
▁광고	-3826
▁이탈리아의	-3827
▁무장	-3828
▁원작	-3829
지이다	-3830
▁대항	-3831
▁시즌을	-3832
▁반복	-3833
▁첨	-3834
교통	-3835
▁청나라	-3836
터테인멀ᆫ	-3837
35	-3838
27	-3839
하마	-3840
▁멸망	-3841
령을	-3842
에이	-3843
슈타	-3844
자들	-3845
서가	-3846
26	-3847
▁이중	-3848
▁오히려	-3849
생의	-3850
▁1974	-3851
▁1940	-3852
▁글로	-3853
▁결과를	-3854
▁보고	-3855
경기에	-3856
▁목적	-3857
▁욕	-3858
▁관심	-3859
▁찍	-3860
소프트	-3861
▁뜻을	-3862
국가	-3863
▁힐	-3864
리케	-3865
▁니콜	-3866
▁일본에서	-3867
자기	-3868
▁원정	-3869
▁만큼	-3870
안에	-3871
▁주교	-3872
세대	-3873
▁요새	-3874
▁확실	-3875
▁공포	-3876
▁경기에	-3877
▁철학	-3878
▁들어오	-3879
언을	-3880
▁국가의	-3881
▁구별	-3882
▁창립	-3883
▁판결	-3884
▁거절	-3885
▁SBS	-3886
▁마침	-3887
당하았다	-3888
▁시간이	-3889
▁절대	-3890
▁방출	-3891
▁문자	-3892
타를	-3893
▁듯	-3894
op	-3895
▁러시아의	-3896
_4	-3897
▁얻었다	-3898
▁도움	-3899
▁솔로	-3900
▁천문	-3901
▁활발	-3902
▁제출	-3903
▁스크	-3904
▁오토	-3905
하겠다	-3906
▁세종	-3907
▁나아	-3908
우리	-3909
리기	-3910
▁스코틀랜드	-3911
▁1948	-3912
밖	-3913
▁38	-3914
받고	-3915
▁전쟁이	-3916
쿠라	-3917
OS	-3918
▁융	-3919
▁아메리카	-3920
▁전후	-3921
▁이라는	-3922
판을	-3923
체로	-3924
▁계획을	-3925
▁철도역이다	-3926
▁뽑	-3927
▁하는데	-3928
어지고	-3929
▁행정구	-3930
▁남기	-3931
서의	-3932
음에도	-3933
▁포함되어	-3934
조에	-3935
▁킹	-3936
▁1968	-3937
과의	-3938
▁검은	-3939
ce	-3940
오르	-3941
▁시작한	-3942
▁따르ㅏ서	-3943
국에서	-3944
국민	-3945
▁이후에는	-3946
▁살고	-3947
▁아침	-3948
▁인터뷰	-3949
▁1976	-3950
전과	-3951
▁의료	-3952
▁서양	-3953
▁CD	-3954
▁전설	-3955
▁함수	-3956
시로	-3957
▁e	-3958
리우	-3959
▁인공	-3960
나이티	-3961
▁청소년	-3962
▁원주	-3963
▁산맥	-3964
28	-3965
▁길이	-3966
▁거대한	-3967
화로	-3968
기에	-3969
▁지원을	-3970
▁단백질	-3971
리노	-3972
▁팀을	-3973
▁북동	-3974
▁오전	-3975
▁보내어	-3976
▁김정	-3977
▁논쟁	-3978
하아진	-3979
▁머무	-3980
▁185	-3981
으로도	-3982
인민공화국의	-3983
▁플랫폼	-3984
▁차이가	-3985
네스	-3986
▁에피소	-3987
▁사용하고	-3988
밖에	-3989
▁1975	-3990
▁베를린	-3991
▁발표한	-3992
▁통제	-3993
▁이제	-3994
▁전용	-3995
▁를	-3996
소와	-3997
비치	-3998
▁투수	-3999
재를	-4000
▁삭	-4001
▁세인트	-4002
▁숭	-4003
아이	-4004
▁전쟁을	-4005
저우	-4006
▁건립	-4007
년에서	-4008
▁보는	-4009
석은	-4010
▁팀이	-4011
병을	-4012
▁늘어나	-4013
▁마치	-4014
더라도	-4015
▁이민	-4016
키스탄	-4017
▁장악	-4018
터는	-4019
▁보내었다	-4020
▁주식	-4021
▁공산주의	-4022
▁약간	-4023
▁통하아서	-4024
▁양성	-4025
▁음력	-4026
▁비록	-4027
ra	-4028
▁1978	-4029
세와	-4030
▁온라인	-4031
▁하드	-4032
▁1971	-4033
술을	-4034
▁합의	-4035
제국	-4036
▁롯	-4037
기를	-4038
ter	-4039
화와	-4040
▁식민지	-4041
익을	-4042
▁고등	-4043
면이	-4044
역이	-4045
▁상당히	-4046
▁대표팀	-4047
▁돌아오	-4048
▁이르는	-4049
▁1963	-4050
▁도달	-4051
▁트레이	-4052
▁타이완	-4053
▁청년	-4054
▁병사	-4055
▁강제	-4056
▁대비	-4057
▁신인	-4058
▁오래된	-4059
▁부활	-4060
▁삼각	-4061
▁가았다	-4062
▁이야기를	-4063
▁없다고	-4064
▁유나이티	-4065
▁준	-4066
리트	-4067
▁금속	-4068
29	-4069
로도	-4070
▁미드	-4071
안의	-4072
▁되면	-4073
노동	-4074
산이	-4075
▁그것을	-4076
▁지낸	-4077
▁반영	-4078
▁래	-4079
▁위하아서는	-4080
▁취득	-4081
▁하아서	-4082
▁알아	-4083
아버	-4084
산에	-4085
▁컵	-4086
▁은하	-4087
▁작전	-4088
▁취급	-4089
법이	-4090
▁받지	-4091
에트	-4092
▁각본	-4093
형으로	-4094
▁쥐	-4095
시티	-4096
▁해당하는	-4097
▁레드	-4098
▁이유는	-4099
게임	-4100
ST	-4101
에게서	-4102
▁In	-4103
▁기자	-4104
증을	-4105
▁약속	-4106
▁타고	-4107
마르	-4108
류가	-4109
▁1969	-4110
진은	-4111
500	-4112
프레	-4113
▁지식	-4114
▁150	-4115
▁출입	-4116
▁랭	-4117
▁전라북도	-4118
▁시간을	-4119
▁자이	-4120
▁처음에는	-4121
레	-4122
리아의	-4123
국제	-4124
개가	-4125
▁Z	-4126
▁운용	-4127
▁붉은	-4128
이니	-4129
▁사망하았다	-4130
▁혼란	-4131
메리	-4132
▁공화	-4133
▁그런데	-4134
교를	-4135
기에서	-4136
▁육상	-4137
▁강의	-4138
▁1946	-4139
연맹	-4140
▁아테	-4141
▁하나님	-4142
47	-4143
▁한번	-4144
▁방법을	-4145
▁부임	-4146
▁의회	-4147
▁소수	-4148
▁400	-4149
▁생명	-4150
▁자격	-4151
정으로	-4152
▁경성	-4153
구와	-4154
▁건국	-4155
▁독자	-4156
로그	-4157
▁백작	-4158
▁대공	-4159
▁반발	-4160
▁대성	-4161
▁역을	-4162
▁잇는	-4163
▁거두었다	-4164
▁십자	-4165
▁인기	-4166
▁호텔	-4167
전문	-4168
▁웨스트	-4169
▁코미디	-4170
▁슬로	-4171
누스	-4172
경은	-4173
▁넘는	-4174
선으로	-4175
ri	-4176
하ᄆ에	-4177
▁대략	-4178
▁스티	-4179
▁둔	-4180
다가	-4181
▁속한다	-4182
리히	-4183
시스	-4184
▁사건을	-4185
▁경주	-4186
▁두었다	-4187
▁경계	-4188
▁보조	-4189
▁작품을	-4190
치에	-4191
▁동의	-4192
▁포기	-4193
분이	-4194
드시	-4195
가에	-4196
사단	-4197
▁동남	-4198
▁간단	-4199
생을	-4200
▁공식적으로	-4201
▁프리미	-4202
▁로	-4203
▁1964	-4204
이라도	-4205
▁빠른	-4206
▁하면	-4207
왕이	-4208
▁좁	-4209
▁행성	-4210
▁미니	-4211
▁말레이	-4212
▁개시	-4213
▁거래	-4214
▁미디어	-4215
간다	-4216
음을	-4217
▁이루어지었다	-4218
▁플라	-4219
플레이	-4220
_5	-4221
동이	-4222
▁때부터	-4223
▁발표하였다	-4224
▁후에는	-4225
▁장식	-4226
▁알게	-4227
▁규칙	-4228
▁남서	-4229
▁이것을	-4230
▁방향으로	-4231
▁옮기어	-4232
▁상륙	-4233
▁노부	-4234
▁번째로	-4235
니아의	-4236
▁활동하였다	-4237
▁흡수	-4238
일이	-4239
▁부상	-4240
라가	-4241
우어	-4242
론의	-4243
랗ᆫ	-4244
라를	-4245
▁베이스	-4246
▁거리	-4247
리게	-4248
▁시작하여	-4249
분류	-4250
▁의존	-4251
▁영입	-4252
▁건조	-4253
▁곳에서	-4254
▁고용	-4255
▁켄	-4256
▁헨리	-4257
국으로	-4258
▁포위	-4259
ᄆ을	-4260
▁도망	-4261
마트	-4262
▁버전	-4263
하나	-4264
랑	-4265
머스	-4266
▁뜻한다	-4267
▁시의	-4268
기압	-4269
▁그러한	-4270
▁경기는	-4271
당과	-4272
조합	-4273
▁and	-4274
키는	-4275
▁쫓	-4276
▁벨기에	-4277
▁아파	-4278
석이	-4279
▁명이	-4280
번째로	-4281
타는	-4282
▁않았고	-4283
▁렌	-4284
크를	-4285
가와	-4286
▁벡	-4287
▁만주	-4288
시킨다	-4289
▁수상하았다	-4290
▁갤	-4291
▁도중	-4292
▁트랙	-4293
이에	-4294
통신	-4295
▁인도네시아	-4296
▁시작으로	-4297
▁34	-4298
▁하나는	-4299
▁종류의	-4300
▁것처럼	-4301
앤젤	-4302
▁공통	-4303
▁박정	-4304
▁아프	-4305
▁탈락	-4306
▁프로젝트	-4307
▁김영	-4308
▁챔피언스리그	-4309
▁이들의	-4310
nd	-4311
조사	-4312
▁논의	-4313
▁한반	-4314
▁코로나	-4315
▁출연하였고	-4316
차원	-4317
▁국제공항	-4318
▁전공	-4319
oc	-4320
▁역임하았다	-4321
▁수사	-4322
▁분쟁	-4323
▁불법	-4324
▁히데	-4325
▁기록하였다	-4326
▁제이	-4327
▁유사한	-4328
▁선보	-4329
▁수송	-4330
igh	-4331
th	-4332
미의	-4333
▁개최된	-4334
▁띄	-4335
▁1977	-4336
이라면	-4337
▁체계	-4338
▁논란이	-4339
▁수집	-4340
▁전주	-4341
▁카르	-4342
▁해에	-4343
▁플레이오프	-4344
율을	-4345
▁1949	-4346
티노	-4347
▁보컬	-4348
미를	-4349
▁진	-4350
▁이집트	-4351
동으로	-4352
명에	-4353
▁탈출	-4354
▁피아노	-4355
▁변경되었다	-4356
박물	-4357
베르크	-4358
▁도시로	-4359
▁사태	-4360
▁때의	-4361
▁또다	-4362
▁프로세	-4363
▁각각의	-4364
▁받게	-4365
▁데이비드	-4366
▁총독	-4367
▁보장	-4368
36	-4369
▁기록한	-4370
▁전철	-4371
▁선수가	-4372
▁출신으로	-4373
▁자살	-4374
▁로스앤젤	-4375
▁집행	-4376
▁진입	-4377
▁앞에	-4378
▁법칙	-4379
ation	-4380
마의	-4381
▁쓰었다	-4382
식에	-4383
았기	-4384
▁그레	-4385
▁특별한	-4386
▁대수	-4387
세로	-4388
▁피해를	-4389
이야	-4390
▁하았던	-4391
▁기술을	-4392
▁꼭	-4393
▁대학교에서	-4394
▁승인	-4395
▁1962	-4396
이었다고	-4397
모를	-4398
바라	-4399
▁검찰	-4400
▁합격	-4401
▁힘들	-4402
다면	-4403
▁공을	-4404
▁활동하았다	-4405
▁g	-4406
▁성인	-4407
터를	-4408
이ᄇ니다	-4409
37	-4410
파는	-4411
▁사용되고	-4412
▁신성	-4413
▁참전	-4414
▁태어나았으며	-4415
▁이용한	-4416
되면	-4417
물이다	-4418
▁열리었다	-4419
종을	-4420
▁탁	-4421
▁라인	-4422
▁채용	-4423
▁SK	-4424
▁아미	-4425
▁브루	-4426
▁총리	-4427
▁중이다	-4428
▁군대를	-4429
▁콘서	-4430
▁주둔	-4431
시에서	-4432
▁v	-4433
▁운동을	-4434
▁요코	-4435
▁공개된	-4436
라이언	-4437
▁FA	-4438
▁보낸	-4439
▁37	-4440
▁1967	-4441
▁기대	-4442
▁이전의	-4443
론은	-4444
▁벼	-4445
구에서	-4446
타르	-4447
▁소녀	-4448
▁빠르게	-4449
되었을	-4450
▁응용	-4451
▁들어가아	-4452
▁말았다	-4453
▁국무	-4454
▁이시	-4455
▁스미	-4456
▁예측	-4457
▁발매된	-4458
브라	-4459
▁가을	-4460
▁관할한다	-4461
▁그레이	-4462
▁이용하아	-4463
▁선거에서	-4464
통을	-4465
▁진압	-4466
▁동원	-4467
차가	-4468
행위	-4469
▁지붕	-4470
▁어떠	-4471
▁방사	-4472
러는	-4473
▁서비스를	-4474
▁롯데	-4475
▁명명	-4476
제와	-4477
▁아사	-4478
▁장관	-4479
▁콘스탄	-4480
▁사건이	-4481
▁틀	-4482
▁1.	-4483
▁창조	-4484
린은	-4485
▁승진	-4486
▁반드시	-4487
▁마크	-4488
▁것이며	-4489
▁깊은	-4490
이와	-4491
▁요소	-4492
▁제대로	-4493
없는	-4494
▁상승	-4495
▁i	-4496
▁출간	-4497
▁장군	-4498
패를	-4499
▁셋	-4500
▁국경	-4501
등이	-4502
▁등급	-4503
▁생존	-4504
98	-4505
아는	-4506
▁나오았다	-4507
히었다	-4508
ER	-4509
▁학문	-4510
▁목표로	-4511
▁능력을	-4512
▁층	-4513
▁아들로	-4514
▁여기에	-4515
▁다르다	-4516
▁왕국의	-4517
▁선정되었다	-4518
▁중세	-4519
조판	-4520
▁선교	-4521
▁천연	-4522
에만	-4523
▁문헌	-4524
스케	-4525
▁교차	-4526
▁외부	-4527
▁발견된	-4528
종으로	-4529
일로	-4530
진의	-4531
▁가서	-4532
▁강점	-4533
프를	-4534
▁늦	-4535
고기	-4536
▁불안	-4537
▁제외하고	-4538
▁복합	-4539
▁서버	-4540
▁오페	-4541
▁이성	-4542
▁배출	-4543
▁주관	-4544
▁챔피언십	-4545
▁구속	-4546
▁공군	-4547
▁후속	-4548
▁평가를	-4549
▁미나	-4550
▁운전	-4551
▁임진	-4552
미가	-4553
▁마지막으로	-4554
▁톰	-4555
부터는	-4556
▁소장	-4557
▁좌우	-4558
공사	-4559
▁대기	-4560
적의	-4561
영은	-4562
▁엠	-4563
▁왼쪽	-4564
▁자녀	-4565
▁US	-4566
▁맞이	-4567
▁최다	-4568
▁리더	-4569
%,	-4570
▁꺾	-4571
▁둘째	-4572
▁독특	-4573
곡을	-4574
▁진보	-4575
토리	-4576
▁나치	-4577
▁존재하는	-4578
▁농민	-4579
▁연출	-4580
▁남은	-4581
ap	-4582
프가	-4583
▁정책을	-4584
▁지급	-4585
▁창단	-4586
▁알리어지었다	-4587
▁변환	-4588
뿐만	-4589
▁엄청	-4590
▁경우는	-4591
기에는	-4592
▁나타내는	-4593
▁소비에트	-4594
리적	-4595
▁끝난	-4596
주의를	-4597
▁연재	-4598
▁다수의	-4599
공화국	-4600
우	-4601
되었다고	-4602
▁이후로	-4603
▁세력	-4604
▁한국에서	-4605
▁저작	-4606
방을	-4607
▁작품은	-4608
퍼드	-4609
▁모리	-4610
▁받았고	-4611
▁전파	-4612
▁1966	-4613
▁방영된	-4614
38	-4615
▁소년	-4616
▁쓰는	-4617
▁형태를	-4618
▁목소	-4619
▁PC	-4620
▁파악	-4621
▁동작	-4622
▁트로	-4623
안은	-4624
▁되자	-4625
▁일부는	-4626
마을	-4627
기간	-4628
미야	-4629
▁사법	-4630
▁아라	-4631
터리	-4632
▁델	-4633
▁우려	-4634
▁그와	-4635
면으로	-4636
상태	-4637
▁진화	-4638
▁레오	-4639
▁포도	-4640
▁1965	-4641
하였던	-4642
46	-4643
들이다	-4644
▁거치	-4645
▁차별	-4646
리우스	-4647
▁마케	-4648
내고	-4649
간	-4650
▁시카	-4651
▁파라	-4652
▁합성	-4653
▁일정	-4654
질랜드	-4655
▁않으며	-4656
▁차트	-4657
▁댄	-4658
▁일찍	-4659
▁베스트	-4660
95	-4661
▁드물	-4662
▁향상	-4663
▁자신들의	-4664
▁보았다	-4665
▁KBO	-4666
▁덧	-4667
▁살	-4668
고의	-4669
▁나오아	-4670
현의	-4671
▁양자	-4672
▁출시되었다	-4673
항을	-4674
기념	-4675
▁빼앗	-4676
조로	-4677
▁대부분은	-4678
▁체코	-4679
▁군주	-4680
▁연구를	-4681
▁풍부	-4682
▁시즌에	-4683
▁상하이	-4684
▁오스만	-4685
들목	-4686
▁어떠한	-4687
▁개발한	-4688
평가	-4689
▁트랜	-4690
▁받을	-4691
▁계기로	-4692
ON	-4693
▁흉	-4694
▁정확한	-4695
▁위반	-4696
표를	-4697
▁어디	-4698
▁횡	-4699
▁미야	-4700
▁겐	-4701
▁교환	-4702
▁켈	-4703
▁미군	-4704
화되어	-4705
▁학위를	-4706
▁사단	-4707
▁오른쪽	-4708
▁없다는	-4709
투스	-4710
▁쉬	-4711
천시	-4712
▁이라고	-4713
▁검사	-4714
▁신뢰	-4715
으니	-4716
산시	-4717
▁스페인의	-4718
▁점점	-4719
▁리처	-4720
▁조작	-4721
▁실질	-4722
▁닥	-4723
▁개신	-4724
▁You	-4725
▁글을	-4726
▁국회	-4727
▁해양	-4728
▁Q	-4729
▁학습	-4730
▁세르비아	-4731
락을	-4732
▁그들이	-4733
▁관료	-4734
▁효율	-4735
▁전통적인	-4736
▁좋아	-4737
▁아버지는	-4738
▁헤르	-4739
경이	-4740
요시	-4741
▁55	-4742
로와	-4743
ice	-4744
▁지닌	-4745
▁에도	-4746
▁작품이다	-4747
▁서어	-4748
디션	-4749
-20	-4750
▁가까	-4751
▁1961	-4752
세한	-4753
선과	-4754
▁1000	-4755
망을	-4756
▁지방의	-4757
조직	-4758
▁완공	-4759
건을	-4760
▁부산광역시	-4761
복을	-4762
주의의	-4763
▁묶	-4764
▁3,	-4765
▁로켓	-4766
▁맞서	-4767
▁만나아	-4768
▁이룬다	-4769
▁택	-4770
▁무덤	-4771
▁민주당	-4772
▁해산	-4773
▁엔터테인멀ᆫ	-4774
▁김일	-4775
▁예비	-4776
텐츠	-4777
▁모시	-4778
▁지금의	-4779
▁성능	-4780
실은	-4781
명과	-4782
▁갖는	-4783
▁분열	-4784
레오	-4785
▁음식	-4786
▁받는다	-4787
▁제어	-4788
▁노벨	-4789
▁홋	-4790
▁것이라는	-4791
75	-4792
ak	-4793
▁대통령이	-4794
est	-4795
▁연관	-4796
▁마침내	-4797
류는	-4798
▁되며	-4799
▁팝	-4800
▁성적	-4801
▁수영	-4802
▁조별	-4803
▁동성	-4804
▁내의	-4805
▁명확	-4806
▁조절	-4807
계획	-4808
▁것ᆫ	-4809
▁내리	-4810
▁프로그램을	-4811
▁역사적	-4812
사관	-4813
이든	-4814
▁얻어	-4815
32	-4816
▁보관	-4817
▁회전	-4818
등의	-4819
▁독립운동	-4820
사인	-4821
▁뉴질랜드	-4822
▁가스	-4823
▁의미를	-4824
신으로	-4825
▁주장하였다	-4826
▁니시	-4827
일과	-4828
시키기	-4829
▁성을	-4830
▁포함하고	-4831
▁부르었다	-4832
레인	-4833
지인	-4834
온은	-4835
▁마이크로소프트	-4836
사무	-4837
민주당	-4838
▁감독을	-4839
느	-4840
▁킬	-4841
▁메시	-4842
▁활성	-4843
▁사립	-4844
▁특이	-4845
▁기록이	-4846
공원	-4847
▁완료	-4848
라와	-4849
▁페르시아	-4850
책을	-4851
▁릴	-4852
▁훗	-4853
▁상품	-4854
▁스프	-4855
비스	-4856
▁테이	-4857
▁사우	-4858
▁스탠	-4859
지는	-4860
▁위성	-4861
▁교육을	-4862
토니	-4863
ia	-4864
▁가지었다	-4865
AR	-4866
▁연대	-4867
▁단독	-4868
▁인접	-4869
▁이르렀	-4870
자료	-4871
▁1919	-4872
코는	-4873
▁감독이	-4874
▁스위스	-4875
시험	-4876
▁한정	-4877
▁맡아	-4878
왕은	-4879
▁학술	-4880
▁신청	-4881
-4	-4882
▁크리	-4883
산화	-4884
▁포함한다	-4885
▁있음을	-4886
▁줄	-4887
▁흰	-4888
▁않게	-4889
▁생겨	-4890
▁문제로	-4891
▁충청북도	-4892
▁진행되었다	-4893
연히	-4894
▁출범	-4895
▁이후의	-4896
자로서	-4897
▁통산	-4898
▁모양의	-4899
▁처형	-4900
▁예수	-4901
네	-4902
▁주전	-4903
▁관계가	-4904
art	-4905
바로	-4906
▁코드	-4907
▁무게	-4908
▁1944	-4909
92	-4910
천군	-4911
▁분할	-4912
▁아스	-4913
▁대개	-4914
▁말에	-4915
▁황금	-4916
▁도쿠	-4917
▁어린이	-4918
▁영화는	-4919
▁프로듀서	-4920
▁일치	-4921
▁테러	-4922
소송	-4923
▁로스앤젤레스	-4924
▁빅토	-4925
씨가	-4926
▁하나인	-4927
▁작업을	-4928
으로서의	-4929
▁와이	-4930
▁삽	-4931
ie	-4932
재판	-4933
▁함락	-4934
▁국도	-4935
오스	-4936
▁개막	-4937
▁알렉산드	-4938
▁장치	-4939
▁나타난다	-4940
▁포함하여	-4941
되었다가	-4942
학에서	-4943
▁의무	-4944
▁적절	-4945
▁크고	-4946
뮤니	-4947
들로부터	-4948
▁75	-4949
▁항성	-4950
▁경제적	-4951
▁역이다	-4952
보살	-4953
사우	-4954
▁간행	-4955
▁형사	-4956
▁향하아	-4957
▁오랫	-4958
▁아르헨티나	-4959
로마	-4960
야구	-4961
▁활동하고	-4962
▁발견되었다	-4963
▁구현	-4964
▁준우	-4965
▁것ᆯ	-4966
▁역은	-4967
들에서	-4968
▁저서	-4969
▁꼽	-4970
신	-4971
▁보안	-4972
▁48	-4973
▁1941	-4974
▁방법으로	-4975
올림픽	-4976
하였다고	-4977
▁네이	-4978
질이	-4979
히는	-4980
차는	-4981
▁나누어	-4982
31	-4983
하이었다	-4984
▁창원	-4985
▁제공한다	-4986
▁IS	-4987
▁그때	-4988
▁가문	-4989
▁의혹	-4990
개로	-4991
▁나이로	-4992
▁줄어들	-4993
▁없으며	-4994
▁당시에는	-4995
크가	-4996
▁후보로	-4997
▁쓰고	-4998
▁제작한	-4999
▁다다	-5000
령이	-5001
이여	-5002
▁급제	-5003
96	-5004
시리즈	-5005
터의	-5006
치아	-5007
판이	-5008
34	-5009
만을	-5010
▁태어나아	-5011
▁훗날	-5012
▁터미널	-5013
카와	-5014
무부	-5015
▁훌	-5016
▁후기	-5017
터가	-5018
이센	-5019
▁취소	-5020
▁뜻으로	-5021
자들에게	-5022
▁오랫동안	-5023
각을	-5024
▁통계	-5025
▁시리아	-5026
▁부르는	-5027
▁성향	-5028
▁인종	-5029
▁질병	-5030
▁추천	-5031
▁소속으로	-5032
▁발굴	-5033
▁잉글랜드의	-5034
▁유행	-5035
▁만들어지었다	-5036
스포	-5037
▁부대	-5038
하았었다	-5039
행정	-5040
토의	-5041
학은	-5042
▁상당한	-5043
개혁	-5044
▁펼치	-5045
화되었다	-5046
▁지상역이다	-5047
▁없어	-5048
▁퀸	-5049
방의	-5050
▁음악을	-5051
지컬	-5052
어이다	-5053
og	-5054
▁영상	-5055
▁규모의	-5056
▁사람들의	-5057
▁역으로	-5058
▁시위	-5059
▁근본	-5060
그라	-5061
▁프라	-5062
우주	-5063
▁조선의	-5064
▁지금까지	-5065
▁예정이다	-5066
▁흘	-5067
무늬	-5068
▁혐의로	-5069
성군	-5070
▁주택	-5071
▁올리었다	-5072
▁목록이다	-5073
▁새기	-5074
사이트	-5075
▁1958	-5076
ly	-5077
▁분위	-5078
▁당초	-5079
▁호는	-5080
▁이름의	-5081
겁ᆫ	-5082
드레	-5083
▁쓰이는	-5084
하지는	-5085
▁시작된	-5086
▁감독으로	-5087
▁불리었다	-5088
ᅳᆷ	-5089
;/	-5090
▁소송	-5091
색의	-5092
▁고문	-5093
▁찰스	-5094
▁코파	-5095
▁출장	-5096
▁DNA	-5097
▁명을	-5098
▁언제	-5099
니가	-5100
교는	-5101
▁보병	-5102
▁1947	-5103
▁해리	-5104
▁밀도는	-5105
ne	-5106
▁공업	-5107
▁캔	-5108
▁빈	-5109
▁실현	-5110
▁지은	-5111
▁프리미어	-5112
▁골든	-5113
▁뜻하는	-5114
▁추구	-5115
메리칸	-5116
▁경우에	-5117
▁|	-5118
▁희생	-5119
▁1956	-5120
리그의	-5121
▁내용은	-5122
사스	-5123
▁기둥	-5124
카는	-5125
쿠스	-5126
▁인지	-5127
▁이하	-5128
▁아이돌	-5129
▁시작한다	-5130
▁입장을	-5131
▁안동	-5132
양을	-5133
▁주고	-5134
-5	-5135
▁편찬	-5136
▁승객	-5137
▁재배	-5138
▁제일	-5139
▁개입	-5140
▁내리었다	-5141
▁졸업하고	-5142
▁무시	-5143
▁혼합	-5144
이치	-5145
▁빙	-5146
▁등장한다	-5147
▁Ch	-5148
루는	-5149
▁발발	-5150
▁속한	-5151
인들을	-5152
▁직업	-5153
이로	-5154
레옹	-5155
▁죽었다	-5156
▁높이는	-5157
AT	-5158
▁부하	-5159
▁중인	-5160
▁안에서	-5161
▁하위	-5162
▁연산	-5163
▁프린	-5164
64	-5165
론이	-5166
▁공헌	-5167
갈	-5168
다리	-5169
▁일부를	-5170
▁침략	-5171
▁마무	-5172
▁기울	-5173
▁세계의	-5174
▁접촉	-5175
▁바깥	-5176
단과	-5177
▁유기	-5178
동맹	-5179
카이도	-5180
▁덴마크	-5181
39	-5182
총독	-5183
▁사임	-5184
▁자극	-5185
르가	-5186
▁2.	-5187
▁묵	-5188
▁크로아	-5189
에른	-5190
▁처벌	-5191
▁마르크	-5192
▁뚜	-5193
▁떠나아	-5194
▁짜	-5195
▁픽	-5196
▁프로그래	-5197
▁l	-5198
ab	-5199
▁상위	-5200
▁고유	-5201
▁구역	-5202
▁저술	-5203
▁가지는	-5204
▁최우	-5205
▁화재	-5206
BA	-5207
▁변화를	-5208
체스터	-5209
▁망명	-5210
▁행위	-5211
▁골을	-5212
▁무너	-5213
▁침입	-5214
▁성적을	-5215
하여	-5216
▁Re	-5217
▁길을	-5218
▁확립	-5219
▁중화민국	-5220
▁콤	-5221
▁1939	-5222
화한	-5223
▁섞	-5224
▁정기	-5225
▁철수	-5226
내에	-5227
▁새롭게	-5228
▁아티	-5229
▁대한민국에서는	-5230
이었기	-5231
▁나들목	-5232
파를	-5233
▁사냥	-5234
▁심각한	-5235
▁플래	-5236
▁유일하게	-5237
▁이들을	-5238
▁확률	-5239
스럽게	-5240
▁주최	-5241
진다	-5242
▁쏘	-5243
자이	-5244
▁극장	-5245
▁곡을	-5246
미니	-5247
▁+	-5248
왜란	-5249
▁어렵ᆫ	-5250
▁가치가	-5251
▁k	-5252
▁미사일	-5253
▁모으아	-5254
▁앉	-5255
▁설립되었다	-5256
▁정지	-5257
▁단편	-5258
▁다스	-5259
체와	-5260
1,	-5261
▁임대	-5262
▁인구가	-5263
▁독특한	-5264
▁기회를	-5265
▁조종	-5266
76	-5267
관계	-5268
아르	-5269
▁그렇게	-5270
▁신호	-5271
▁들어서	-5272
▁루이스	-5273
▁얻은	-5274
▁부분을	-5275
▁왕조	-5276
▁받았으며	-5277
se	-5278
한의	-5279
▁놓고	-5280
ist	-5281
▁거듭	-5282
▁견해	-5283
▁듣고	-5284
▁나폴레옹	-5285
▁h	-5286
▁가담	-5287
▁인	-5288
▁분명	-5289
▁어려	-5290
격한	-5291
▁촌	-5292
▁사용된	-5293
▁캐나다의	-5294
름을	-5295
▁모이어	-5296
▁상황에서	-5297
IV	-5298
▁화물	-5299
▁상태로	-5300
▁멀리	-5301
▁곡은	-5302
▁저녁	-5303
슨의	-5304
ight	-5305
▁지역으로	-5306
기록	-5307
트릭	-5308
▁인권	-5309
▁준다	-5310
▁1954	-5311
▁대표하는	-5312
고등	-5313
장인	-5314
85	-5315
▁대리	-5316
▁제공하는	-5317
▁코르	-5318
▁정비	-5319
중의	-5320
▁부상을	-5321
▁임금	-5322
▁지위를	-5323
목록	-5324
99	-5325
▁스파	-5326
▁도요	-5327
▁매일	-5328
안이	-5329
▁금메달을	-5330
네이	-5331
▁스마트	-5332
▁미드필	-5333
베르트	-5334
▁작곡가	-5335
▁방정	-5336
▁공연을	-5337
▁에	-5338
▁구글	-5339
▁이루고	-5340
▁알파	-5341
AS	-5342
▁to	-5343
▁만들ᆯ	-5344
▁1952	-5345
▁상대적으로	-5346
86	-5347
▁등판	-5348
▁일본에	-5349
▁사운드	-5350
▁중에는	-5351
▁마시	-5352
▁타임	-5353
▁전형	-5354
▁AFC	-5355
▁임진왜란	-5356
▁다르게	-5357
▁어깨	-5358
층의	-5359
례를	-5360
타운	-5361
▁닛	-5362
▁가문의	-5363
▁노래를	-5364
▁닌	-5365
▁명칭은	-5366
▁총선	-5367
정치	-5368
석의	-5369
▁편이다	-5370
▁앞에서	-5371
▁가치	-5372
▁교향	-5373
구이다	-5374
▁노출	-5375
▁시인	-5376
▁진주	-5377
▁후계	-5378
▁드라이	-5379
나가	-5380
▁브라운	-5381
연을	-5382
▁활약을	-5383
▁행동을	-5384
▁사람들을	-5385
▁아테네	-5386
▁해당한다	-5387
▁긍	-5388
▁따로	-5389
▁만들고	-5390
▁전까지	-5391
▁자리잡	-5392
▁절반	-5393
론에	-5394
나아	-5395
▁후원	-5396
▁부터	-5397
▁유형문화재	-5398
▁심지	-5399
프랑	-5400
▁있으면	-5401
▁좋아	-5402
▁다수	-5403
▁인쇄	-5404
▁내셔널	-5405
▁바뀌었다	-5406
▁지시	-5407
▁그만	-5408
디는	-5409
▁군이다	-5410
▁돕아	-5411
▁번의	-5412
▁에르	-5413
▁연결하는	-5414
▁정차	-5415
▁단위	-5416
▁미드필더	-5417
▁곽	-5418
▁스카	-5419
실의	-5420
시장	-5421
▁영웅	-5422
식과	-5423
▁하에	-5424
▁헝가리	-5425
자키	-5426
▁피터	-5427
▁한나라	-5428
수	-5429
▁득표	-5430
▁앤	-5431
▁선생	-5432
주의적	-5433
▁장교	-5434
디움	-5435
색으로	-5436
▁도모	-5437
▁사업을	-5438
▁다케	-5439
지게	-5440
▁현상	-5441
▁폐쇄	-5442
▁장남	-5443
타의	-5444
▁나서	-5445
의가	-5446
츠는	-5447
▁인디언	-5448
▁연구에	-5449
▁보유하고	-5450
자유	-5451
▁어리	-5452
▁유럽의	-5453
▁효과를	-5454
▁칼리	-5455
▁평안	-5456
▁포켓	-5457
▁특정한	-5458
속에	-5459
포를	-5460
▁현역	-5461
▁그래픽	-5462
관과	-5463
▁조선시대	-5464
법으로	-5465
▁앞서어	-5466
베스	-5467
▁노스	-5468
▁서울대학교	-5469
▁다운	-5470
▁동양	-5471
▁하아야	-5472
▁계통	-5473
▁나뉜다	-5474
▁포항	-5475
▁법정	-5476
;,	-5477
▁단계	-5478
▁한글	-5479
▁들고	-5480
▁상을	-5481
_6	-5482
▁저의	-5483
루를	-5484
▁천주교	-5485
94	-5486
▁갈	-5487
▁다소	-5488
다의	-5489
▁그것이	-5490
▁안드로	-5491
미르	-5492
▁리버	-5493
▁국민의	-5494
▁설치된	-5495
이너	-5496
▁부르어	-5497
▁만들어지	-5498
▁김대	-5499
▁데뷔하였다	-5500
▁카드	-5501
되어야	-5502
▁반란을	-5503
▁학살	-5504
물에	-5505
▁1959	-5506
▁맡은	-5507
▁사마	-5508
▁변형	-5509
▁샘	-5510
▁관여	-5511
에선	-5512
▁아름답ᆫ	-5513
인에게	-5514
구치	-5515
▁이혼	-5516
▁가와	-5517
▁탈퇴	-5518
▁동아	-5519
▁시상	-5520
▁경남	-5521
▁설득	-5522
▁재건	-5523
혁명	-5524
▁박정희	-5525
▁떠나았다	-5526
▁팽	-5527
▁전직	-5528
▁프로이센	-5529
▁주장한다	-5530
▁일컫	-5531
▁굽	-5532
▁관련이	-5533
▁사망한	-5534
티오	-5535
어로	-5536
게이	-5537
▁방해	-5538
▁중부	-5539
▁발생하는	-5540
▁참여하았다	-5541
▁다음의	-5542
▁한일	-5543
▁소련의	-5544
▁프랑크	-5545
▁존재하지	-5546
▁여객철도	-5547
동생	-5548
▁끝내	-5549
▁돈을	-5550
▁시스템을	-5551
부대	-5552
▁무한	-5553
▁필요가	-5554
▁세력을	-5555
▁테스트	-5556
▁대회에	-5557
▁엄청난	-5558
IA	-5559
데르	-5560
▁앤드	-5561
▁여기어진다	-5562
▁64	-5563
ove	-5564
▁투쟁	-5565
▁일시	-5566
▁랜	-5567
▁분노	-5568
▁원소	-5569
▁시카고	-5570
본	-5571
▁가진다	-5572
▁앵	-5573
로에	-5574
▁겹	-5575
▁시리즈의	-5576
▁갈라	-5577
하므로	-5578
▁개설	-5579
▁영업	-5580
▁160	-5581
▁도시의	-5582
제에서	-5583
▁살아	-5584
▁커뮤니	-5585
▁신학	-5586
▁지도자	-5587
▁개신교	-5588
▁한국어	-5589
▁바이에른	-5590
▁대부분이	-5591
족이	-5592
차전	-5593
▁단지	-5594
▁선전	-5595
if	-5596
▁곱	-5597
▁데에	-5598
▁더블	-5599
▁1942	-5600
▁미국과	-5601
▁들어가았다	-5602
▁일어나ㅏㅆ다	-5603
ess	-5604
▁의심	-5605
▁라이트	-5606
▁운영하고	-5607
가니	-5608
▁뮤지컬	-5609
▁올림픽에	-5610
▁적합	-5611
▁선출되었다	-5612
▁참가하았다	-5613
▁지금은	-5614
▁통상	-5615
▁행렬	-5616
▁홍보	-5617
점의	-5618
▁에드워드	-5619
▁김성	-5620
▁찾아	-5621
▁뮌	-5622
▁작품으로	-5623
▁성공을	-5624
련의	-5625
라이나	-5626
▁리처드	-5627
▁녹색	-5628
▁연고	-5629
▁파트	-5630
▁광복	-5631
▁춤	-5632
진이	-5633
▁가이	-5634
마는	-5635
카의	-5636
...	-5637
▁오직	-5638
▁공화국의	-5639
▁개조	-5640
▁역사를	-5641
ub	-5642
페르	-5643
▁곳으로	-5644
▁나타낸다	-5645
가시	-5646
▁소방	-5647
▁노르웨이	-5648
▁대통령은	-5649
▁로드	-5650
▁음반은	-5651
▁전부	-5652
과정	-5653
▁프로토	-5654
▁발탁	-5655
VD	-5656
-19	-5657
대장	-5658
▁승려	-5659
▁명나라	-5660
▁NH	-5661
강에	-5662
▁정치인이다	-5663
▁하아도	-5664
▁전력	-5665
▁사실이	-5666
▁머무르	-5667
100	-5668
자동차	-5669
▁1943	-5670
▁깃	-5671
▁120	-5672
▁프리드리	-5673
▁기록은	-5674
키의	-5675
▁세상을	-5676
▁대통령의	-5677
▁연예	-5678
▁소멸	-5679
▁루마	-5680
▁주간	-5681
▁이로써	-5682
▁작사	-5683
▁내용이	-5684
▁필요하다	-5685
33	-5686
▁자전	-5687
별로	-5688
▁있었다고	-5689
▁군인	-5690
▁프랭	-5691
▁못하였다	-5692
▁웅	-5693
▁완전한	-5694
▁생긴	-5695
▁블라	-5696
▁1953	-5697
▁초기의	-5698
ine	-5699
▁루트	-5700
▁갖추고	-5701
▁바닥	-5702
▁자리에	-5703
▁출연하였다	-5704
▁비례	-5705
▁말레이시아	-5706
에서만	-5707
영의	-5708
▁정교	-5709
원이다	-5710
▁1955	-5711
▁도전	-5712
위와	-5713
즈가	-5714
▁않지만	-5715
격으로	-5716
▁있었기	-5717
▁밥	-5718
▁비상	-5719
▁못하는	-5720
▁공사	-5721
▁파르	-5722
후에	-5723
하기에	-5724
▁나타나았다	-5725
▁이와	-5726
겠다고	-5727
▁재개	-5728
▁도시이다	-5729
▁화성	-5730
▁1936	-5731
이구	-5732
담을	-5733
▁특징이다	-5734
생물	-5735
▁굳	-5736
▁대장	-5737
▁수요	-5738
▁잠수	-5739
▁희망	-5740
리나	-5741
▁징역	-5742
▁병합	-5743
르아	-5744
공의	-5745
▁군의	-5746
기이다	-5747
질의	-5748
공산	-5749
▁음반이다	-5750
범위	-5751
동과	-5752
▁나타나는	-5753
▁전면	-5754
▁레알	-5755
마를	-5756
보호	-5757
▁높다	-5758
▁39	-5759
▁오프	-5760
▁첼	-5761
수록	-5762
▁주장을	-5763
시스코	-5764
만의	-5765
▁여섯	-5766
▁화이트	-5767
▁이른다	-5768
께	-5769
▁이다	-5770
▁점이	-5771
▁1910	-5772
리언	-5773
▁동안에	-5774
▁남기었다	-5775
판은	-5776
세우	-5777
▁빌보드	-5778
▁스키	-5779
▁장비	-5780
▁하아주	-5781
▁이끌었다	-5782
78	-5783
문제	-5784
▁즈	-5785
바일	-5786
직에	-5787
왕을	-5788
▁문을	-5789
▁보이어준다	-5790
▁지지를	-5791
EC	-5792
▁천안	-5793
▁대체로	-5794
▁빠지어	-5795
▁선박	-5796
고가	-5797
▁개칭	-5798
▁민법	-5799
지사	-5800
피스	-5801
▁싱가	-5802
속의	-5803
▁폴리	-5804
ue	-5805
▁논문	-5806
▁기록되어	-5807
▁사용하였다	-5808
▁인용	-5809
▁살인	-5810
학자이다	-5811
▁눈에	-5812
▁참가한	-5813
▁남쪽으로	-5814
▁속의	-5815
▁얻을	-5816
▁조선총독	-5817
▁석유	-5818
▁즉시	-5819
▁선수단	-5820
▁남아프리카	-5821
▁일어나는	-5822
▁시사	-5823
65	-5824
가인	-5825
▁속하아	-5826
▁힌	-5827
▁분해	-5828
="	-5829
드라	-5830
▁선임	-5831
▁카운티	-5832
▁구입	-5833
▁긍정	-5834
오의	-5835
▁맞추어	-5836
▁창작	-5837
▁패션	-5838
▁스티븐	-5839
▁전쟁에	-5840
▁이후에도	-5841
▁세계적으로	-5842
▁신체	-5843
▁발언	-5844
▁파워	-5845
▁책임을	-5846
▁Th	-5847
▁AT	-5848
▁정권	-5849
▁파크	-5850
ive	-5851
▁집권	-5852
▁히틀	-5853
▁사건은	-5854
소설	-5855
▁1957	-5856
관에서	-5857
▁가슴	-5858
▁65	-5859
▁원주민	-5860
▁액션	-5861
것이	-5862
▁넓이는	-5863
코스	-5864
▁장수	-5865
▁사용하았다	-5866
▁초에	-5867
▁구매	-5868
독립	-5869
▁느낌	-5870
▁찌	-5871
레나	-5872
▁부분이	-5873
종합	-5874
우의	-5875
▁전쟁에서	-5876
▁해상	-5877
▁일정한	-5878
행성	-5879
고리즘	-5880
린의	-5881
▁열리	-5882
중을	-5883
▁임의의	-5884
감독	-5885
야의	-5886
▁심리	-5887
중학교는	-5888
▁주제	-5889
▁기록하며	-5890
버리	-5891
족은	-5892
▁텍사스	-5893
토는	-5894
▁로마의	-5895
▁호소	-5896
▁수상하였다	-5897
거래	-5898
▁나쁘	-5899
▁티베	-5900
▁사우스	-5901
▁이르렀다	-5902
학자들은	-5903
▁알바	-5904
▁아들인	-5905
▁명령을	-5906
▁기소	-5907
▁이승만	-5908
부장	-5909
▁궤도	-5910
▁정체	-5911
산과	-5912
▁김종	-5913
▁전남	-5914
▁쿠데	-5915
▁태국	-5916
평균	-5917
▁외국인	-5918
하기를	-5919
▁도덕	-5920
▁동방	-5921
▁SS	-5922
▁다리	-5923
▁지속적으로	-5924
▁빚	-5925
▁핑	-5926
▁시드	-5927
▁1914	-5928
▁부진	-5929
코의	-5930
▁이전에는	-5931
▁포스트	-5932
▁일부가	-5933
▁말하는	-5934
▁상황을	-5935
▁영화배우이다	-5936
▁의학	-5937
▁동북	-5938
▁나가	-5939
▁방식을	-5940
▁닫	-5941
백만	-5942
▁바르셀	-5943
▁조카	-5944
▁다음날	-5945
▁왕이	-5946
▁지니고	-5947
이면서	-5948
▁개체	-5949
▁비롯하여	-5950
서와	-5951
▁어머니는	-5952
▁디스	-5953
▁바둑	-5954
▁게다가	-5955
여래	-5956
▁순간	-5957
▁나온다	-5958
▁델	-5959
▁투어	-5960
▁전동차	-5961
영을	-5962
그램	-5963
▁발음	-5964
▁마무리	-5965
▁곳이다	-5966
년부터는	-5967
▁연습	-5968
목을	-5969
▁초기에	-5970
기까지	-5971
▁임무	-5972
▁츠	-5973
▁타이거	-5974
양의	-5975
장애	-5976
공을	-5977
▁이름이다	-5978
▁무사	-5979
▁후쿠오카	-5980
▁전쟁의	-5981
▁똑	-5982
▁종사	-5983
▁전북	-5984
▁터널	-5985
평을	-5986
듯이	-5987
▁미쓰	-5988
고는	-5989
학교를	-5990
전투	-5991
▁암컷	-5992
활동을	-5993
BM	-5994
▁1938	-5995
▁이었다	-5996
▁분야에서	-5997
▁메이지	-5998
미술	-5999
▁권력	-6000
▁복원	-6001
느냐	-6002
▁왕의	-6003
▁아리	-6004
러의	-6005
▁추가로	-6006
받는	-6007
▁권력을	-6008
▁내놓	-6009
▁부분은	-6010
▁북쪽으로	-6011
89	-6012
▁화려	-6013
▁강릉	-6014
▁표면	-6015
레는	-6016
▁보스	-6017
▁운영하는	-6018
▁드래프트	-6019
▁합치	-6020
이게	-6021
▁섬의	-6022
▁자이언	-6023
내어	-6024
▁후임	-6025
▁알고리즘	-6026
▁공중	-6027
▁동해	-6028
▁보건	-6029
처를	-6030
▁책을	-6031
기는	-6032
▁것이라	-6033
▁올림픽에서	-6034
▁글로벌	-6035
▁서구	-6036
▁없을	-6037
IN	-6038
다랗ᆫ	-6039
▁수리	-6040
▁문제에	-6041
▁큐	-6042
여금	-6043
▁47	-6044
▁수석	-6045
▁완벽	-6046
루의	-6047
다니	-6048
더스	-6049
▁1900	-6050
▁연간	-6051
▁유효	-6052
▁올리어	-6053
▁작동	-6054
실이	-6055
과는	-6056
▁되는데	-6057
▁미국은	-6058
하라	-6059
▁본다	-6060
▁방지	-6061
▁탐사	-6062
▁없게	-6063
▁위치를	-6064
▁밝히어지었다	-6065
▁갑자기	-6066
▁힙	-6067
▁전송	-6068
▁출전하여	-6069
▁IC	-6070
▁달라	-6071
▁청주	-6072
▁로봇	-6073
▁벌어진	-6074
▁농구	-6075
▁상태에서	-6076
▁롱	-6077
▁번호는	-6078
▁유치	-6079
▁않으면	-6080
청은	-6081
▁토지	-6082
▁벡터	-6083
▁재학	-6084
▁복무	-6085
파가	-6086
▁이들이	-6087
▁연결되어	-6088
▁덜	-6089
▁의식	-6090
하았다가	-6091
환으로	-6092
▁46	-6093
▁차지하고	-6094
즈를	-6095
▁공주	-6096
▁오페라	-6097
튜브	-6098
▁만든	-6099
▁시작하았으며	-6100
▁물을	-6101
사람	-6102
▁자금	-6103
▁포켓몬	-6104
▁1951	-6105
▁복잡한	-6106
▁상속	-6107
▁해발	-6108
▁게임을	-6109
▁사퇴	-6110
▁측면	-6111
▁특성	-6112
중한	-6113
▁1918	-6114
▁지구의	-6115
계약	-6116
리다	-6117
▁1932	-6118
▁검토	-6119
감이	-6120
▁사람들	-6121
▁프리드리히	-6122
▁44	-6123
▁스트리	-6124
너스	-6125
타마	-6126
▁유학	-6127
▁윗	-6128
▁단어	-6129
▁본질	-6130
하아도	-6131
▁현지	-6132
우를	-6133
▁아래와	-6134
▁싸움	-6135
▁대한민국에서	-6136
▁추기	-6137
▁양의	-6138
되지만	-6139
츠의	-6140
▁향토	-6141
동물	-6142
▁이루는	-6143
▁브레	-6144
▁1937	-6145
한국	-6146
▁비트	-6147
클리	-6148
▁서술	-6149
▁스케	-6150
호에	-6151
all	-6152
▁근처에	-6153
97	-6154
▁부친	-6155
▁순위	-6156
베리	-6157
▁히트	-6158
비로	-6159
분으로	-6160
▁되돌	-6161
루가	-6162
▁접한다	-6163
pe	-6164
지마	-6165
▁일으키었다	-6166
▁디스크	-6167
▁소식을	-6168
▁선포	-6169
▁협회	-6170
▁화산	-6171
▁개별	-6172
가능	-6173
모가	-6174
▁광범위	-6175
▁대량	-6176
44	-6177
▁AP	-6178
▁강등	-6179
▁꾸준	-6180
▁따서	-6181
▁그곳에서	-6182
슬링	-6183
▁형식으로	-6184
our	-6185
▁덧붙	-6186
씨를	-6187
ore	-6188
▁포트	-6189
▁되기	-6190
▁문제는	-6191
▁능력	-6192
사전	-6193
남도의	-6194
▁아메리칸	-6195
▁이명	-6196
열을	-6197
▁당시에	-6198
▁달하는	-6199
▁알레	-6200
월의	-6201
어도	-6202
▁이라크	-6203
강을	-6204
▁여성의	-6205
발을	-6206
차로	-6207
▁만한	-6208
▁히로시마	-6209
▁아이디	-6210
▁1935	-6211
▁HD	-6212
▁직원	-6213
▁격파	-6214
현은	-6215
▁고위	-6216
▁확산	-6217
▁이웃	-6218
치게	-6219
크래프트	-6220
▁화합	-6221
▁사용자	-6222
집을	-6223
타카	-6224
특별자치	-6225
▁최우수	-6226
비시	-6227
▁방법은	-6228
▁유나이티드	-6229
우가	-6230
▁전투를	-6231
▁조건을	-6232
▁남아있	-6233
▁일은	-6234
▁성경	-6235
▁뮌헨	-6236
▁갖는다	-6237
펙트	-6238
▁드래	-6239
▁스프링	-6240
▁아오	-6241
가락	-6242
쥐는	-6243
천만	-6244
렬한	-6245
▁핫	-6246
▁올스타	-6247
베리아	-6248
▁엘리자	-6249
▁프라이	-6250
▁개념을	-6251
군에서	-6252
▁언덕	-6253
비히	-6254
▁기병	-6255
▁오이	-6256
▁영국에서	-6257
▁암호	-6258
▁보이지	-6259
▁배포	-6260
▁상실	-6261
▁회장	-6262
▁이상이	-6263
▁아버지의	-6264
▁직전	-6265
어지었고	-6266
▁폭탄	-6267
조	-6268
▁상원	-6269
ID	-6270
▁유배	-6271
▁추방	-6272
▁캠퍼	-6273
▁크다	-6274
환을	-6275
▁왕조의	-6276
3,	-6277
▁위에서	-6278
▁세부	-6279
▁상관	-6280
▁등장인	-6281
크로	-6282
▁사람들에게	-6283
▁사랑을	-6284
▁양쪽	-6285
폴리스	-6286
▁지었다	-6287
▁개방	-6288
▁필수	-6289
차	-6290
정과	-6291
조차	-6292
87	-6293
▁입고	-6294
▁하기도	-6295
▁발간	-6296
하아지어	-6297
▁이르러	-6298
▁그린	-6299
른바	-6300
▁분기	-6301
형에	-6302
▁태양의	-6303
▁사건으로	-6304
▁역임하였다	-6305
▁넷	-6306
▁공개되었다	-6307
기고	-6308
▁서쪽으로	-6309
▁화장	-6310
공간	-6311
▁수소	-6312
▁유고	-6313
▁참여한	-6314
▁명단	-6315
율이	-6316
로써	-6317
니즘	-6318
▁잡지	-6319
▁계속하아서	-6320
▁하여금	-6321
▁카라	-6322
목에	-6323
▁중학교이다	-6324
▁단순한	-6325
▁자원	-6326
▁코치	-6327
▁그리하여	-6328
▁충분히	-6329
▁이온	-6330
▁돌아오아	-6331
▁인천광역시	-6332
▁가까이	-6333
▁권리를	-6334
▁한성	-6335
이닝	-6336
유를	-6337
▁드라마이다	-6338
▁1933	-6339
▁독립을	-6340
▁개국	-6341
▁좋지	-6342
▁동쪽으로	-6343
▁겉	-6344
▁열차가	-6345
▁미리	-6346
▁스테이	-6347
▁특징을	-6348
어도	-6349
▁이른바	-6350
▁토론토	-6351
▁란	-6352
▁업무를	-6353
▁흑인	-6354
본을	-6355
▁지향	-6356
주의자	-6357
마가	-6358
파로	-6359
하	-6360
▁성남	-6361
▁성직	-6362
▁입장	-6363
▁장소	-6364
본부	-6365
조건	-6366
ell	-6367
▁수십	-6368
ul	-6369
▁거짓	-6370
중인	-6371
▁만든다	-6372
▁우수	-6373
▁최대의	-6374
▁그들을	-6375
았다고	-6376
▁갈색	-6377
▁시나	-6378
▁명칭을	-6379
▁탄핵	-6380
▁개인의	-6381
제르	-6382
▁사전	-6383
▁1928	-6384
▁클레	-6385
신문	-6386
연대	-6387
▁42	-6388
항은	-6389
▁대표로	-6390
되는데	-6391
나카	-6392
부인	-6393
하ᄆ과	-6394
▁보편	-6395
▁본격적으로	-6396
▁쌀	-6397
▁반응을	-6398
▁나라의	-6399
▁인도의	-6400
▁하았는데	-6401
▁몸을	-6402
관광	-6403
▁아티스트	-6404
▁보물	-6405
▁오카	-6406
▁크루	-6407
▁포함하는	-6408
▁의대를	-6409
▁크레	-6410
▁체육	-6411
바는	-6412
IC	-6413
▁한자	-6414
▁그라	-6415
▁전문가	-6416
▁내리어	-6417
▁별도의	-6418
▁아래에	-6419
▁포함되었다	-6420
▁마틴	-6421
▁고객	-6422
▁몰아	-6423
▁걸친	-6424
▁둥글	-6425
▁메달	-6426
되거나	-6427
▁내가	-6428
▁1924	-6429
▁산화	-6430
▁재능	-6431
▁채우	-6432
어스	-6433
코프	-6434
▁재임	-6435
비트	-6436
어지지	-6437
목으로	-6438
▁멈	-6439
▁의미하는	-6440
▁우리는	-6441
▁CP	-6442
▁무대	-6443
▁오키	-6444
▁탄압	-6445
▁웨일	-6446
▁제도를	-6447
▁마음을	-6448
나르	-6449
서양	-6450
가고	-6451
▁삶을	-6452
▁교류	-6453
▁어둡	-6454
ㅓㅆ	-6455
▁모바일	-6456
▁손을	-6457
호와	-6458
▁골드	-6459
▁크로아티아	-6460
▁이어지는	-6461
▁분자	-6462
▁상태를	-6463
▁후인	-6464
령의	-6465
▁쾌	-6466
큼	-6467
▁위키	-6468
▁스타디움	-6469
▁바이러스	-6470
▁사회의	-6471
▁앞으로	-6472
▁대상이	-6473
▁노선을	-6474
▁상대식	-6475
▁억제	-6476
▁말이	-6477
만큼	-6478
▁기본적으로	-6479
▁단순히	-6480
무장	-6481
ain	-6482
▁4,	-6483
▁입법	-6484
▁지불	-6485
▁임무를	-6486
▁스탈	-6487
▁맞아	-6488
▁밝은	-6489
▁수컷	-6490
▁DVD	-6491
ill	-6492
▁로렌	-6493
하여야	-6494
▁불러	-6495
▁재생	-6496
▁출연하았다	-6497
▁뻗	-6498
키퍼	-6499
▁연료	-6500
▁기상	-6501
▁체제	-6502
로서는	-6503
▁걷	-6504
결승	-6505
▁포함된다	-6506
노스	-6507
-10	-6508
▁우크라이나	-6509
▁가수이다	-6510
▁가상	-6511
▁고종	-6512
▁행복	-6513
▁집에	-6514
그리	-6515
▁출신이다	-6516
▁56	-6517
▁중추	-6518
군에게	-6519
이ㄴ	-6520
▁반대로	-6521
▁북아메리카	-6522
안전	-6523
AM	-6524
조참	-6525
▁예산	-6526
▁카를	-6527
The	-6528
▁이재	-6529
▁가난	-6530
▁정부에	-6531
▁하인	-6532
▁있으므로	-6533
▁조선민주주의인민공화국의	-6534
▁개척	-6535
▁부동	-6536
▁커버	-6537
▁토착	-6538
민의	-6539
▁영화의	-6540
주의는	-6541
▁차단	-6542
너는	-6543
투아	-6544
▁흐르	-6545
▁버리	-6546
▁영구	-6547
학에	-6548
당으로	-6549
▁강남	-6550
▁역에서	-6551
계와	-6552
▁바꾸어	-6553
▁도서관	-6554
88	-6555
미아	-6556
▁위원회	-6557
▁교회의	-6558
▁입력	-6559
▁일으키어	-6560
방향	-6561
스트라	-6562
▁일원	-6563
▁보이어주는	-6564
▁쓸	-6565
▁크기	-6566
하를	-6567
▁것인지	-6568
▁펴	-6569
에스	-6570
▁검색	-6571
▁Al	-6572
▁비잔	-6573
층에	-6574
-6	-6575
▁Be	-6576
▁이상을	-6577
▁경향이	-6578
▁하나가	-6579
▁엑스	-6580
▁원인	-6581
▁경기가	-6582
▁모토	-6583
▁세우어	-6584
AN	-6585
▁비판을	-6586
크스	-6587
▁에서	-6588
▁변호사	-6589
▁그렇다면	-6590
공신	-6591
▁여러가지	-6592
93	-6593
▁풋	-6594
▁용인	-6595
▁성공하았다	-6596
비디오	-6597
43	-6598
▁구멍	-6599
링	-6600
▁일련의	-6601
즈니	-6602
스팅	-6603
▁그녀가	-6604
▁가설	-6605
▁꼬리	-6606
럽ᆫ	-6607
▁상주	-6608
▁대부분을	-6609
▁거느	-6610
▁뛰고	-6611
▁당나라	-6612
▁유통	-6613
▁클라	-6614
▁리그의	-6615
만한	-6616
노는	-6617
▁아버지가	-6618
▁사찰	-6619
▁수술	-6620
ard	-6621
ers	-6622
▁신도	-6623
▁이외에도	-6624
▁카운티는	-6625
▁산하	-6626
다는	-6627
모는	-6628
▁벼슬	-6629
▁자랑	-6630
파와	-6631
▁골키퍼	-6632
시스템	-6633
▁조선시대의	-6634
▁짝	-6635
▁안토니	-6636
▁콜롬	-6637
차의	-6638
▁멈추	-6639
▁함경	-6640
석탑	-6641
▁하았	-6642
▁백제	-6643
▁양산	-6644
▁마주	-6645
▁실천	-6646
▁권리	-6647
▁초청	-6648
▁최근에는	-6649
▁발표되었다	-6650
▁나뉘어	-6651
환경	-6652
▁아동	-6653
▁지중	-6654
크와	-6655
▁개찰	-6656
▁1934	-6657
▁대대	-6658
▁철거	-6659
▁콘텐츠	-6660
▁매장	-6661
라이나	-6662
보이	-6663
▁주력	-6664
▁원인이	-6665
▁멀티	-6666
▁보험	-6667
▁복음	-6668
▁노동자	-6669
▁틈	-6670
▁주장하는	-6671
▁도서	-6672
▁덩	-6673
end	-6674
▁가볍	-6675
▁지리	-6676
▁보르	-6677
▁하와	-6678
▁이즈	-6679
중이다	-6680
▁소프트웨	-6681
두	-6682
▁순환	-6683
▁파키스탄	-6684
▁가마	-6685
▁조지아	-6686
▁프로그래밍	-6687
미사	-6688
므로	-6689
▁생태	-6690
▁시작하았고	-6691
▁대다	-6692
▁팔레	-6693
▁고급	-6694
▁청구	-6695
바의	-6696
가니스탄	-6697
었다는	-6698
이거나	-6699
▁{	-6700
름이	-6701
▁남녀	-6702
▁일상	-6703
▁이적하였다	-6704
OR	-6705
▁아틀	-6706
용을	-6707
어지었으며	-6708
이상	-6709
▁열매	-6710
▁현존	-6711
속은	-6712
▁장르	-6713
▁위상	-6714
▁이외의	-6715
▁인구의	-6716
▁\	-6717
▁이벤	-6718
▁명으로	-6719
▁웹사이트	-6720
우스는	-6721
▁대동	-6722
▁원시	-6723
▁일종의	-6724
42	-6725
▁에피소드	-6726
▁사건의	-6727
▁가	-6728
▁넣어	-6729
▁메모리	-6730
▁마감	-6731
▁병원	-6732
▁사막	-6733
▁공산당	-6734
41	-6735
▁공장	-6736
▁식품	-6737
ᄆ에도	-6738
▁전화	-6739
▁키우	-6740
▁보스턴	-6741
▁환승	-6742
▁배경으로	-6743
▁멀ᆫ	-6744
▁블록	-6745
▁미국으로	-6746
▁입은	-6747
침을	-6748
▁이용할	-6749
▁칠레	-6750
▁웃	-6751
▁톱	-6752
너먼	-6753
▁대법	-6754
▁맨체스터	-6755
▁죽음을	-6756
▁신화	-6757
▁상호작용	-6758
▁경북	-6759
▁이익	-6760
성에서	-6761
프란	-6762
▁영역	-6763
리안	-6764
▁탓	-6765
▁이라	-6766
▁위대한	-6767
▁타격	-6768
리브	-6769
▁남극	-6770
스피	-6771
▁특별히	-6772
▁열리는	-6773
▁올해의	-6774
▁요코하마	-6775
▁모터	-6776
▁De	-6777
무게	-6778
▁정도이다	-6779
대문	-6780
▁떠날	-6781
▁결의	-6782
▁속도	-6783
▁게임의	-6784
▁마드리드	-6785
원숭	-6786
▁그러므로	-6787
▁가속	-6788
▁강요	-6789
시스트	-6790
▁오는	-6791
▁혈액	-6792
재로	-6793
절을	-6794
문이다	-6795
디스	-6796
릭스	-6797
▁백성	-6798
▁진격	-6799
▁주된	-6800
▁수호	-6801
프와	-6802
▁수를	-6803
▁매주	-6804
▁우리가	-6805
보통	-6806
▁진학	-6807
▁적극적으로	-6808
▁펑	-6809
▁Me	-6810
▁소득	-6811
▁혼자	-6812
▁박물관	-6813
▁홋카이도	-6814
판에	-6815
▁그리스의	-6816
▁r	-6817
▁영토를	-6818
왕후	-6819
▁도쿠가와	-6820
▁뚜렷	-6821
어요	-6822
▁치르었다	-6823
▁대학교의	-6824
년경	-6825
느님	-6826
▁대화	-6827
▁레인	-6828
▁새끼	-6829
▁북미	-6830
▁세계대전	-6831
발전	-6832
▁선호	-6833
▁할아버	-6834
▁비공	-6835
▁호주	-6836
보다도	-6837
법과	-6838
▁대학의	-6839
대신	-6840
▁가치를	-6841
▁원래는	-6842
▁질량	-6843
▁들면	-6844
▁감시	-6845
▁담고	-6846
▁정식으로	-6847
달러	-6848
▁기도	-6849
▁문신	-6850
운동을	-6851
▁힙합	-6852
▁전신	-6853
▁집필	-6854
되었다는	-6855
▁홈런을	-6856
전자	-6857
▁경기장	-6858
▁김해	-6859
▁사도	-6860
▁소리	-6861
▁소집	-6862
▁많아	-6863
_7	-6864
▁닉	-6865
▁개량	-6866
▁알렉산더	-6867
▁끝으로	-6868
▁1931	-6869
▁대원	-6870
▁싱어	-6871
▁x	-6872
▁43	-6873
▁일단	-6874
▁유력	-6875
▁초기에는	-6876
대부	-6877
령으로	-6878
55	-6879
▁MS	-6880
▁소속의	-6881
마뱀	-6882
▁갖게	-6883
브레	-6884
체이다	-6885
식에서	-6886
▁발레	-6887
하시	-6888
보험	-6889
▁사건에	-6890
▁생애	-6891
▁콘스탄티노	-6892
▁영향으로	-6893
▁멘	-6894
ang	-6895
▁지칭	-6896
▁시에	-6897
클레	-6898
배를	-6899
현을	-6900
▁셔	-6901
▁다큐	-6902
▁싱가포르	-6903
▁동서	-6904
▁후퇴	-6905
▁의정부	-6906
49	-6907
▁집을	-6908
버드	-6909
폴리	-6910
용의	-6911
▁예방	-6912
향을	-6913
▁필립	-6914
▁국정	-6915
▁데이터를	-6916
▁부드	-6917
카르	-6918
무네	-6919
어에서	-6920
작으로	-6921
▁오르아	-6922
▁모임	-6923
등급	-6924
▁OS	-6925
▁민중	-6926
▁방송을	-6927
▁잠수함	-6928
▁주에	-6929
▁구사	-6930
▁훌륭	-6931
권과	-6932
▁커다랗ᆫ	-6933
차이	-6934
▁개명	-6935
▁강하게	-6936
▁군대	-6937
▁목숨	-6938
나를	-6939
▁위치에	-6940
▁붓	-6941
지니아	-6942
▁작품의	-6943
▁소화	-6944
▁기반을	-6945
▁부르기도	-6946
란색	-6947
필드	-6948
▁간	-6949
▁정통	-6950
▁구성원	-6951
▁말로	-6952
▁1921	-6953
▁발표된	-6954
관계를	-6955
▁바꾸었다	-6956
조와	-6957
▁수의	-6958
▁1929	-6959
▁핸	-6960
▁막기	-6961
비행	-6962
주군	-6963
년도	-6964
▁약탈	-6965
결을	-6966
에서부터	-6967
▁되었는데	-6968
IS	-6969
통합	-6970
▁영양	-6971
▁주재	-6972
▁축소	-6973
▁3.	-6974
▁이론을	-6975
▁멸종	-6976
▁인상	-6977
▁영화를	-6978
사이다	-6979
로지	-6980
▁갈등	-6981
▁사유	-6982
▁흰	-6983
▁600	-6984
-7	-6985
▁아프가니스탄	-6986
▁부담	-6987
자이자	-6988
▁공기	-6989
▁첫째	-6990
▁서울시	-6991
훈련	-6992
▁새벽	-6993
▁붙어	-6994
율은	-6995
▁강을	-6996
▁대변	-6997
아일랜드	-6998
▁타워	-6999
▁또다른	-7000
▁심지어	-7001
법인	-7002
▁논리	-7003
고자	-7004
까지도	-7005
리며	-7006
슨이	-7007
어에	-7008
▁감독은	-7009
▁집안	-7010
치와	-7011
▁미국인	-7012
▁랑	-7013
▁연평균	-7014
▁근육	-7015
▁명시	-7016
▁이념	-7017
▁도쿄도	-7018
▁정확히	-7019
되ᄆ에	-7020
슬로	-7021
▁무인	-7022
▁중성	-7023
▁1925	-7024
▁처음에	-7025
▁살ᆫ	-7026
▁용어는	-7027
▁부속	-7028
드라마	-7029
곡은	-7030
머리	-7031
프라	-7032
키가	-7033
▁발휘	-7034
니스트	-7035
▁1923	-7036
근혜	-7037
▁루마니아	-7038
▁상태가	-7039
▁수준의	-7040
면과	-7041
▁상황에	-7042
▁행위를	-7043
▁연안	-7044
쿠	-7045
ew	-7046
▁넘어	-7047
슈	-7048
▁딜	-7049
▁자매	-7050
하에서	-7051
▁후에도	-7052
▁혼인	-7053
▁메탈	-7054
▁스웨덴의	-7055
▁게르	-7056
▁일본은	-7057
물과	-7058
▁몸무게	-7059
▁반대하는	-7060
ity	-7061
▁센트	-7062
▁가끔	-7063
▁농촌	-7064
▁허락	-7065
▁게임이다	-7066
▁발전을	-7067
▁안내	-7068
▁않기	-7069
비와	-7070
▁만들기	-7071
▁군사를	-7072
청년	-7073
호선의	-7074
국과	-7075
▁인터뷰에서	-7076
▁들ᆯ	-7077
▁불가리아	-7078
▁빅토리아	-7079
점과	-7080
경기에서	-7081
▁공원	-7082
▁살아남	-7083
령은	-7084
▁서명	-7085
▁열었다	-7086
▁늑	-7087
▁승부	-7088
▁남아메리카	-7089
▁잠재	-7090
▁맺고	-7091
▁하던	-7092
▁전형적인	-7093
▁리그에서	-7094
지도	-7095
▁170	-7096
▁유전자	-7097
슬라	-7098
▁미국에	-7099
▁시모	-7100
리티	-7101
▁비틀	-7102
주의와	-7103
▁주변의	-7104
토미	-7105
▁결승전	-7106
▁쓰이	-7107
▁보이고	-7108
위원회는	-7109
▁기여하았다	-7110
▁폭력	-7111
▁유발	-7112
▁파울	-7113
▁퀘	-7114
▁동반	-7115
▁문재	-7116
▁닮	-7117
▁목포	-7118
▁세리에	-7119
▁증언	-7120
름은	-7121
▁발매한	-7122
▁영원	-7123
▁관객	-7124
▁실내	-7125
저	-7126
▁트럼	-7127
일리	-7128
티스	-7129
▁동경	-7130
▁정수	-7131
▁800	-7132
▁관계에	-7133
하라는	-7134
포스	-7135
▁소스	-7136
만이	-7137
한다면	-7138
년까지는	-7139
▁해협	-7140
제도	-7141
▁개장	-7142
▁그리어지어	-7143
▁압도	-7144
▁며	-7145
강의	-7146
▁클로	-7147
▁이미지	-7148
▁되었다고	-7149
te	-7150
사랑	-7151
베이스	-7152
▁방송된	-7153
지도	-7154
실에서	-7155
▁세계를	-7156
▁착용	-7157
▁영향력을	-7158
▁이정	-7159
▁재산	-7160
심이	-7161
▁사이트	-7162
▁사람이다	-7163
▁참가하였다	-7164
▁동굴	-7165
희는	-7166
▁1,000	-7167
이냐	-7168
이러	-7169
층석탑	-7170
odice	-7171
-8	-7172
대상	-7173
우라	-7174
하ᄇ니다	-7175
▁철저	-7176
라이터	-7177
▁전체를	-7178
▁신고	-7179
▁몸길	-7180
밀한	-7181
▁하느님	-7182
당에서	-7183
▁호흡	-7184
▁바르셀로나	-7185
▁옮기었다	-7186
▁람	-7187
▁소요	-7188
▁방언	-7189
▁거스	-7190
▁주목을	-7191
▁곤충	-7192
▁땅을	-7193
▁회사의	-7194
▁없애	-7195
▁추산으로	-7196
▁촉진	-7197
▁데뷔하았다	-7198
▁랩	-7199
▁독재	-7200
▁좁은	-7201
▁부탁	-7202
당하고	-7203
▁관계는	-7204
각형	-7205
대원	-7206
▁위로	-7207
▁섹	-7208
치오	-7209
▁가시	-7210
▁대칭	-7211
▁북극	-7212
▁콘서트	-7213
▁쓰러	-7214
단에서	-7215
▁폐지되었다	-7216
▁스크린	-7217
시대에	-7218
하아오	-7219
기능	-7220
▁콜로	-7221
▁되기도	-7222
▁필라	-7223
대사	-7224
▁르네	-7225
▁41	-7226
▁오케	-7227
▁보기	-7228
▁교사	-7229
▁시조	-7230
▁종이	-7231
▁카자	-7232
▁판타	-7233
청의	-7234
▁수도권	-7235
▁뼈	-7236
▁안양	-7237
67	-7238
▁레지	-7239
적이며	-7240
▁황제의	-7241
▁않았지만	-7242
▁맺었다	-7243
▁구원	-7244
▁돌아오았다	-7245
▁구성하는	-7246
▁의견을	-7247
▁샤를	-7248
▁다이묘	-7249
공학	-7250
▁차트에서	-7251
▁동성애	-7252
▁후보가	-7253
음이	-7254
하면서도	-7255
AC	-7256
류에	-7257
행이	-7258
▁대선	-7259
▁발렌	-7260
차에	-7261
▁지어	-7262
▁나이에	-7263
▁이루어	-7264
▁입단하였다	-7265
▁오버	-7266
▁허가	-7267
▁일곱	-7268
▁준우승	-7269
▁론	-7270
▁건물은	-7271
▁극복	-7272
▁토마스	-7273
▁그들	-7274
중국	-7275
.'	-7276
천의	-7277
리코	-7278
▁감옥	-7279
▁1922	-7280
▁오른	-7281
▁이치	-7282
상이다	-7283
▁성과를	-7284
ip	-7285
▁)	-7286
▁오아서	-7287
▁발생하였다	-7288
▁소규모	-7289
후보	-7290
토를	-7291
▁상태이다	-7292
▁재즈	-7293
▁만다	-7294
91	-7295
▁감정	-7296
▁소형	-7297
▁나아가아	-7298
카드	-7299
▁클	-7300
문으로	-7301
▁무릎	-7302
의에	-7303
족을	-7304
▁갤럭	-7305
▁1912	-7306
석으로	-7307
▁원하는	-7308
▁명칭으로	-7309
▁WW	-7310
모의	-7311
하아서는	-7312
세기의	-7313
▁지나지	-7314
만으로	-7315
ED	-7316
ong	-7317
▁러브	-7318
▁세월	-7319
로의	-7320
민은	-7321
소수	-7322
▁고안	-7323
▁재료	-7324
▁특허	-7325
케이팅	-7326
▁영혼	-7327
▁현상을	-7328
바키아	-7329
주년	-7330
이었을	-7331
꼬리	-7332
▁메트로	-7333
가에서	-7334
▁받으며	-7335
▁사양	-7336
되던	-7337
우치	-7338
▁마그	-7339
▁구성된다	-7340
▁에너지를	-7341
▁EP	-7342
▁영광	-7343
▁원년	-7344
▁유용	-7345
▁스톤	-7346
▁본선에	-7347
▁법학	-7348
▁유적	-7349
해에	-7350
▁교수로	-7351
위원회가	-7352
▁없지만	-7353
▁코너	-7354
아웃	-7355
트랙	-7356
▁죽자	-7357
▁비롯하아	-7358
가타	-7359
겠다는	-7360
추어	-7361
▁마법	-7362
▁음성	-7363
▁모습이	-7364
▁성격을	-7365
▁중에서도	-7366
▁서방	-7367
▁상태에	-7368
▁획득하았다	-7369
▁야스	-7370
▁바이올	-7371
본은	-7372
▁담은	-7373
▁뮤직비디오	-7374
받침	-7375
▁제후	-7376
문과	-7377
▁도메	-7378
▁잡고	-7379
▁무산	-7380
▁손에	-7381
▁텐	-7382
▁삽입	-7383
▁운송	-7384
턴은	-7385
▁체험	-7386
▁설립한	-7387
▁유아	-7388
▁수직	-7389
▁대회는	-7390
▁넥	-7391
▁부유	-7392
▁토너먼	-7393
▁다루는	-7394
▁스트라이	-7395
▁부상으로	-7396
▁선조	-7397
▁포함된	-7398
▁대하아서도	-7399
68	-7400
▁블라디	-7401
▁즐기	-7402
▁거리에	-7403
▁그녀를	-7404
▁수록되어	-7405
▁AC	-7406
ld	-7407
▁입사	-7408
▁적응	-7409
▁1908	-7410
up	-7411
▁웨이	-7412
▁이날	-7413
▁스카이	-7414
OM	-7415
▁무리	-7416
▁토벌	-7417
▁도움이	-7418
▁기부	-7419
▁접속	-7420
▁KT	-7421
▁1906	-7422
▁결승전에서	-7423
▁Se	-7424
스트는	-7425
▁두려	-7426
▁반면에	-7427
보병	-7428
▁de	-7429
과대학	-7430
▁메인	-7431
▁세력이	-7432
▁감사	-7433
▁성질	-7434
중이	-7435
▁자체가	-7436
사지	-7437
▁고고	-7438
▁압축	-7439
▁적어도	-7440
야는	-7441
바다	-7442
카스	-7443
▁쇠퇴	-7444
ction	-7445
총리	-7446
▁규슈	-7447
▁지대	-7448
률을	-7449
ss	-7450
▁시절에	-7451
구조	-7452
토벤	-7453
플로	-7454
훼손	-7455
분은	-7456
DP	-7457
▁추락	-7458
▁세우어진	-7459
계열	-7460
▁윤치	-7461
나게	-7462
▁트라	-7463
티움	-7464
▁수백	-7465
건의	-7466
▁카메라	-7467
▁Sh	-7468
▁탑승	-7469
론과	-7470
▁많았다	-7471
▁MV	-7472
▁기하	-7473
▁요금	-7474
마저	-7475
▁한반도	-7476
▁박근혜	-7477
▁5,	-7478
▁바이러	-7479
낼	-7480
ind	-7481
▁발명	-7482
래의	-7483
리지	-7484
보고	-7485
▁곳은	-7486
▁석사	-7487
▁codice	-7488
▁없었고	-7489
▁거리를	-7490
률이	-7491
현이	-7492
▁1917	-7493
▁1927	-7494
▁플로리다	-7495
▁이종	-7496
▁지원하는	-7497
▁레이블	-7498
▁앨범을	-7499
호쿠	-7500
▁서기	-7501
▁일본인	-7502
▁의미가	-7503
▁움직임	-7504
▁이행	-7505
▁차지하였다	-7506
센트	-7507
▁당사	-7508
▁의도	-7509
▁과도	-7510
▁운항	-7511
▁뜻이다	-7512
▁페이스	-7513
▁st	-7514
▁다가	-7515
▁그랜드	-7516
즈키	-7517
▁우라	-7518
가며	-7519
▁1907	-7520
▁노무	-7521
▁번주	-7522
역과	-7523
▁싫	-7524
▁SM	-7525
▁클라우	-7526
▁먹는다	-7527
▁당선되었다	-7528
▁앨런	-7529
▁들어서	-7530
ES	-7531
럼비아	-7532
▁이어지었다	-7533
산에서	-7534
▁공정	-7535
▁이세	-7536
신과	-7537
▁토머스	-7538
만은	-7539
보의	-7540
▁아이스	-7541
▁국가가	-7542
▁단선	-7543
▁매니	-7544
▁머물	-7545
▁심장	-7546
▁주변에	-7547
▁이르기까지	-7548
▁수반	-7549
▁받아들이	-7550
리크	-7551
령에	-7552
▁아무런	-7553
▁주요한	-7554
자이었던	-7555
▁모험	-7556
▁크로스	-7557
리에	-7558
▁빌딩	-7559
▁아르메	-7560
▁포유	-7561
기구	-7562
▁금강	-7563
▁순서	-7564
▁겨우	-7565
▁높아	-7566
▁기본적인	-7567
널드	-7568
▁한국인	-7569
▁수밖에	-7570
건설	-7571
질	-7572
▁책은	-7573
▁단행	-7574
터와	-7575
▁140	-7576
▁밀라노	-7577
ame	-7578
▁1926	-7579
▁연구는	-7580
▁인물로	-7581
▁모양으로	-7582
▁남양	-7583
▁화폐	-7584
▁꾸준히	-7585
▁중국에서	-7586
▁망원	-7587
▁자신은	-7588
av	-7589
▁뱀	-7590
▁급속	-7591
▁57	-7592
▁SC	-7593
▁독점	-7594
▁전술	-7595
판의	-7596
▁섬에	-7597
▁못하게	-7598
▁몬테	-7599
▁성과	-7600
다이라	-7601
▁마치고	-7602
사이드	-7603
▁클리	-7604
내의	-7605
다른	-7606
▁동일본	-7607
▁등도	-7608
▁중시	-7609
실로	-7610
하겠다고	-7611
▁경유	-7612
▁석방	-7613
▁크기가	-7614
▁있어야	-7615
▁전작	-7616
▁가능하게	-7617
▁경전	-7618
▁고리	-7619
▁급격	-7620
▁기능이	-7621
▁물려	-7622
▁선형	-7623
자들과	-7624
▁발생한다	-7625
▁차지한다	-7626
▁실업	-7627
노의	-7628
▁퓨	-7629
▁종로	-7630
▁맞서어	-7631
▁이하의	-7632
▁인기가	-7633
▁대구광역시	-7634
끼리	-7635
▁리드	-7636
▁사촌	-7637
▁공간을	-7638
투표	-7639
▁수감	-7640
▁심사	-7641
▁다큐멘	-7642
우스의	-7643
돌프	-7644
▁보이며	-7645
▁권한을	-7646
▁툴	-7647
루미	-7648
▁파티	-7649
이었다는	-7650
마쓰	-7651
▁유입	-7652
류와	-7653
하아지고	-7654
▁법적	-7655
년만에	-7656
에게도	-7657
▁코스	-7658
▁베토벤	-7659
ㄴ다고	-7660
▁보이어주었다	-7661
그래	-7662
▁동시	-7663
▁장례	-7664
▁하우스	-7665
▁도중에	-7666
▁휴대	-7667
▁본명은	-7668
탄을	-7669
오리	-7670
▁무관	-7671
▁비정	-7672
▁모노	-7673
마리	-7674
▁예외	-7675
▁리이다	-7676
ok	-7677
에너	-7678
▁95	-7679
프란시스코	-7680
▁예로	-7681
▁실제로는	-7682
▁차지하는	-7683
▁사람으로	-7684
▁창간	-7685
▁변화가	-7686
▁졸업하았다	-7687
▁뷰	-7688
▁BBC	-7689
▁타원	-7690
스티벌	-7691
▁소리를	-7692
▁라이프	-7693
▁유키	-7694
▁곧바로	-7695
▁JR	-7696
▁유튜브	-7697
▁기동	-7698
▁첩	-7699
지구	-7700
▁건담	-7701
▁메리	-7702
▁명성을	-7703
▁크기는	-7704
주의에	-7705
▁역사는	-7706
▁1/	-7707
▁창당	-7708
류로	-7709
ry	-7710
▁마라	-7711
▁배열	-7712
▁있다가	-7713
▁기다	-7714
▁오리지	-7715
▁1905	-7716
▁나타나아	-7717
ith	-7718
▁메르	-7719
▁실수	-7720
▁영국과	-7721
83	-7722
슬라비아	-7723
▁없었던	-7724
▁거대	-7725
영이	-7726
▁계곡	-7727
▁전망	-7728
힌다	-7729
▁졸업한	-7730
▁전투는	-7731
▁전하아진다	-7732
▁베네치아	-7733
마에	-7734
▁동아시아	-7735
▁지역이	-7736
위에서	-7737
▁음반을	-7738
애나	-7739
카미	-7740
▁계층	-7741
▁젠	-7742
▁고통	-7743
즈와	-7744
▁내는	-7745
▁사용하지	-7746
러리	-7747
연구소	-7748
▁실시된	-7749
▁대회이다	-7750
▁이수	-7751
▁찬성	-7752
▁현대의	-7753
▁참가하여	-7754
고등학교는	-7755
▁리눅	-7756
▁파생	-7757
▁파트너	-7758
아나	-7759
▁광역	-7760
▁익스	-7761
▁하사	-7762
▁정부를	-7763
개국	-7764
파크	-7765
고에	-7766
▁셋째	-7767
식이다	-7768
▁병력을	-7769
▁대학에서	-7770
-15	-7771
▁감각	-7772
▁구로	-7773
▁추대	-7774
▁브레이	-7775
ik	-7776
ob	-7777
▁유인	-7778
하르트	-7779
▁결과로	-7780
AP	-7781
메르	-7782
지방법원	-7783
▁별로	-7784
▁조기	-7785
▁돌아온	-7786
▁아래의	-7787
스톤	-7788
클린	-7789
집합	-7790
병으로	-7791
유산	-7792
ant	-7793
▁박쥐	-7794
▁아울	-7795
▁삼았다	-7796
ff	-7797
▁사이를	-7798
▁갱	-7799
▁크기의	-7800
▁지역에서는	-7801
▁re	-7802
▁닌텐	-7803
▁돌파	-7804
▁삭제	-7805
▁일으킨	-7806
구리	-7807
▁호남	-7808
▁홈페이	-7809
▁총선에서	-7810
월드	-7811
생활을	-7812
▁흰색	-7813
▁되찾	-7814
재는	-7815
▁덕분에	-7816
▁중동	-7817
▁테크	-7818
루살	-7819
황후	-7820
▁NHK	-7821
▁교향곡	-7822
리케이션	-7823
칭은	-7824
▁에릭	-7825
도서관	-7826
활동	-7827
편을	-7828
▁이어지어	-7829
▁종교적	-7830
▁불리며	-7831
주었다	-7832
▁않았으며	-7833
▁54	-7834
▁결심	-7835
▁모래	-7836
피를	-7837
▁부처	-7838
▁천체	-7839
▁얻게	-7840
▁지나아	-7841
▁설치되었다	-7842
▁입단하았다	-7843
히로	-7844
교가	-7845
▁간에	-7846
▁바람에	-7847
하도	-7848
아야	-7849
▁오늘날의	-7850
▁퀴	-7851
▁라이벌	-7852
▁도시를	-7853
▁납치	-7854
▁아웃	-7855
▁황태	-7856
▁이용하는	-7857
ck	-7858
▁사형	-7859
▁초상	-7860
▁트위	-7861
▁향년	-7862
▁먹는	-7863
부사	-7864
학회	-7865
▁운동에	-7866
▁콜롬비아	-7867
▁사과	-7868
족과	-7869
▁공무원	-7870
▁꺼	-7871
▁An	-7872
건은	-7873
▁최상	-7874
로미터	-7875
▁모듈	-7876
▁인증	-7877
▁하ᄆ	-7878
인인	-7879
▁싱어송	-7880
lu	-7881
▁웰	-7882
▁초래	-7883
북도의	-7884
▁면역	-7885
▁순수	-7886
▁회색	-7887
▁때마다	-7888
▁학사	-7889
실한	-7890
낸다	-7891
▁곳을	-7892
▁효과가	-7893
▁브라질의	-7894
▁붙잡	-7895
▁시달	-7896
▁문화적	-7897
81	-7898
▁뚫	-7899
레이드	-7900
루살렘	-7901
▁나타난	-7902
▁패러	-7903
▁Love	-7904
복지	-7905
▁등장한	-7906
▁크리스토	-7907
▁락	-7908
one	-7909
▁동영	-7910
▁방위	-7911
률은	-7912
▁빗	-7913
▁왕립	-7914
페이스	-7915
▁죽고	-7916
▁풍부한	-7917
▁개발을	-7918
▁SN	-7919
▁배급	-7920
▁평론	-7921
▁합동	-7922
▁레코드	-7923
병원	-7924
앨범	-7925
▁크림	-7926
▁획득하였다	-7927
▁쿼	-7928
장군	-7929
▁매각	-7930
▁브라이언	-7931
화하는	-7932
▁대만	-7933
▁중지	-7934
▁코믹	-7935
▁시게	-7936
▁외계	-7937
▁주말	-7938
들어	-7939
버린	-7940
타임	-7941
▁시를	-7942
▁샌프란시스코	-7943
▁그렇ᄆ에도	-7944
▁딱	-7945
▁탐험	-7946
▁명단에	-7947
▁작전을	-7948
소리	-7949
▁안타	-7950
노미야	-7951
▁유니버	-7952
우옌	-7953
▁110	-7954
▁정권을	-7955
인들에게	-7956
▁대단	-7957
▁브로	-7958
iv	-7959
▁칙	-7960
▁가쓰	-7961
▁약간의	-7962
▁1904	-7963
▁필요로	-7964
▁아들이다	-7965
▁자가	-7966
PS	-7967
클럽	-7968
▁강수	-7969
▁생각을	-7970
트롤	-7971
▁레닌	-7972
▁갤럭시	-7973
▁에스파	-7974
▁홀로	-7975
▁하다가	-7976
▁프랑스는	-7977
▁역의	-7978
▁세계적인	-7979
▁입증	-7980
▁중립	-7981
▁라이온	-7982
▁문화를	-7983
▁있는지	-7984
▁밴드의	-7985
▁집에서	-7986
▁플레	-7987
▁이끌어	-7988
▁옛날	-7989
용은	-7990
▁들었다	-7991
qu	-7992
슬림	-7993
▁추적	-7994
▁테마	-7995
러가	-7996
▁마카	-7997
되었기	-7998
▁레벨	-7999
▁마스터	-8000
▁것이고	-8001
▁참모	-8002
▁세우고	-8003
▁의거	-8004
▁아마추어	-8005
▁적절한	-8006
구역	-8007
▁아케	-8008
▁방법이	-8009
▁제공하고	-8010
▁뤼	-8011
▁특성을	-8012
ate	-8013
▁간섭	-8014
▁모로	-8015
▁섬식	-8016
▁예전	-8017
▁지표	-8018
▁상황이	-8019
▁빵	-8020
▁제네	-8021
데이트	-8022
IT	-8023
▁타입	-8024
바이러스	-8025
▁흙	-8026
▁사제	-8027
▁서북	-8028
▁의미로	-8029
▁사진을	-8030
▁않았던	-8031
▁대승	-8032
▁오디션	-8033
▁규모가	-8034
▁옵	-8035
기획	-8036
르바	-8037
▁다음으로	-8038
▁국토	-8039
▁연락	-8040
▁카페	-8041
▁오염	-8042
청이	-8043
전에서는	-8044
▁바오	-8045
▁하원	-8046
▁49	-8047
▁동기	-8048
▁습격	-8049
▁펄	-8050
중심	-8051
▁주거	-8052
▁밖으로	-8053
▁오리지널	-8054
▁인류	-8055
▁해병	-8056
목은	-8057
▁지정되어	-8058
▁행정구역이다	-8059
▁시간에	-8060
▁역전	-8061
니와	-8062
실에	-8063
습을	-8064
▁진출에	-8065
▁이루어진다	-8066
▁방향을	-8067
▁공룡	-8068
▁꾸미	-8069
▁리듬	-8070
▁요미	-8071
▁싱어송라이터	-8072
_10	-8073
▁유성	-8074
방에	-8075
▁지바	-8076
▁지연	-8077
▁세계에	-8078
▁대회를	-8079
팀이	-8080
▁유럽에서	-8081
둔	-8082
▁낸	-8083
▁폭격	-8084
▁색깔	-8085
조판서	-8086
등에	-8087
펙트럼	-8088
▁접하고	-8089
▁국경을	-8090
▁85	-8091
▁직무	-8092
▁Go	-8093
▁보살	-8094
▁나이트	-8095
드러	-8096
300	-8097
▁자전거	-8098
▁만난	-8099
▁주니어	-8100
▁관하여	-8101
▁길이가	-8102
▁모습으로	-8103
ord	-8104
▁밸	-8105
▁모델로	-8106
▁못한다	-8107
사상	-8108
▁밀접	-8109
▁운반	-8110
▁도시는	-8111
▁가능성을	-8112
라트	-8113
▁분산	-8114
▁램	-8115
▁유물	-8116
▁관심이	-8117
▁비스	-8118
▁자세	-8119
▁부분에	-8120
▁공식적인	-8121
▁안드로이드	-8122
▁경력	-8123
▁인텔	-8124
▁활동에	-8125
▁항의	-8126
ET	-8127
▁계기가	-8128
▁전체적으로	-8129
챌린	-8130
비에	-8131
▁눈을	-8132
▁버지니아	-8133
▁캡	-8134
▁가득	-8135
커스	-8136
▁명칭이	-8137
▁엔진을	-8138
▁사아	-8139
하시	-8140
▁스승	-8141
▁크리스티	-8142
테스	-8143
▁드러나	-8144
▁성의	-8145
▁높아지	-8146
▁기용	-8147
▁예루살렘	-8148
▁유고슬라비아	-8149
가스	-8150
▁혁신	-8151
브를	-8152
▁벨라	-8153
▁130	-8154
▁아베	-8155
▁아우구	-8156
종이다	-8157
▁아직도	-8158
▁연설	-8159
해가	-8160
▁클래식	-8161
▁않았	-8162
▁과거에	-8163
▁읍	-8164
▁입대	-8165
▁현급	-8166
▁자료를	-8167
고속도로	-8168
▁근로	-8169
▁압박	-8170
▁추가되었다	-8171
▁크라	-8172
▁막을	-8173
▁지원한다	-8174
▁사항	-8175
▁마케도	-8176
로에서	-8177
칠	-8178
▁프랜	-8179
▁자유를	-8180
▁공동으로	-8181
▁놀라	-8182
▁이자	-8183
▁문화의	-8184
▁은퇴한	-8185
66	-8186
▁음악가	-8187
▁스마트폰	-8188
▁프리미어리그	-8189
▁일어나아	-8190
▁되었으나	-8191
▁긴급	-8192
▁물이	-8193
▁삼아	-8194
▁미국이	-8195
▁상영	-8196
민족행위	-8197
▁뿐이다	-8198
년으로	-8199
ast	-8200
▁본토	-8201
▁원자력	-8202
하라고	-8203
▁장갑	-8204
▁우리나라	-8205
모니	-8206
직에서	-8207
▁내용의	-8208
▁못하았고	-8209
▁고립	-8210
▁극단	-8211
▁변신	-8212
▁사로	-8213
▁말하며	-8214
이사	-8215
▁올린	-8216
▁입었다	-8217
▁서식한다	-8218
된다는	-8219
▁동맹을	-8220
▁이야기가	-8221
인도	-8222
▁빌리	-8223
▁사이클	-8224
▁일어난다	-8225
▁소위	-8226
▁코리아	-8227
▁수익	-8228
권으로	-8229
▁계획은	-8230
▁아비	-8231
▁!	-8232
▁호르	-8233
▁이스트	-8234
▁지내고	-8235
광역시의	-8236
▁조약을	-8237
자이었다	-8238
▁봉하아지었다	-8239
84	-8240
음의	-8241
▁심한	-8242
하아진다	-8243
▁선두	-8244
▁신분	-8245
▁우익	-8246
▁전원	-8247
▁찾는	-8248
닉스	-8249
▁탄소	-8250
▁스페셜	-8251
밀리	-8252
간을	-8253
▁말은	-8254
82	-8255
▁51	-8256
▁깊이	-8257
▁반도	-8258
▁친선	-8259
과로	-8260
▁유지하고	-8261
▁존재를	-8262
▁탱	-8263
전한	-8264
▁아니고	-8265
▁일환으로	-8266
돼지	-8267
화학	-8268
▁청동	-8269
▁돔	-8270
▁전승	-8271
개는	-8272
▁디자이너	-8273
형과	-8274
보면	-8275
▁하았다고	-8276
▁옹호	-8277
스포츠	-8278
▁형성된	-8279
▁산악	-8280
▁커뮤니티	-8281
편의	-8282
▁신의	-8283
ort	-8284
▁개성	-8285
▁이적하았다	-8286
▁중화인민공화국의	-8287
▁살았다	-8288
▁모순	-8289
▁피렌	-8290
로프	-8291
▁유닛	-8292
오가	-8293
▁무슬림	-8294
▁가미	-8295
파에	-8296
▁드래곤	-8297
계올림픽	-8298
▁흐르는	-8299
▁경험을	-8300
▁주어진	-8301
액을	-8302
체에서	-8303
▁기타리스트	-8304
환은	-8305
▁우루	-8306
더는	-8307
▁성공적으로	-8308
▁떼	-8309
스컵	-8310
▁주의	-8311
▁이곳에	-8312
▁구상	-8313
말을	-8314
▁운동의	-8315
▁고등학교이다	-8316
▁센트럴	-8317
▁으로	-8318
▁발생하았다	-8319
타가	-8320
으려	-8321
▁지방에	-8322
▁관련하여	-8323
▁개최되었다	-8324
▁MVP	-8325
작을	-8326
▁퍼지어	-8327
라리	-8328
▁시대에는	-8329
▁앱	-8330
제품	-8331
▁52	-8332
▁분야의	-8333
▁미치는	-8334
▁타이틀을	-8335
▁벌이었다	-8336
▁때문이었다	-8337
▁참조	-8338
석에	-8339
▁미분	-8340
▁비잔티움	-8341
판으로	-8342
▁서쪽으로는	-8343
▁이지	-8344
민이	-8345
▁활동이	-8346
▁영주	-8347
속으로	-8348
▁소속되어	-8349
▁이곳에서	-8350
▁씌	-8351
수아	-8352
▁이명박	-8353
▁베이스볼	-8354
뱅크	-8355
▁원로	-8356
▁가공	-8357
▁쓴다	-8358
▁가요	-8359
▁작품이	-8360
▁분포한다	-8361
▁이토	-8362
▁티베트	-8363
▁기록하고	-8364
▁문화재자료	-8365
▁남쪽으로는	-8366
전기	-8367
▁자바	-8368
▁엘리자베스	-8369
▁미네	-8370
▁퍼시	-8371
히고	-8372
▁없기	-8373
▁점은	-8374
런스	-8375
▁전향	-8376
현에	-8377
▁뒤로	-8378
▁1896	-8379
▁동치	-8380
▁전염	-8381
방이	-8382
▁애국	-8383
▁케이블	-8384
▁구간은	-8385
▁반사	-8386
▁주기	-8387
▁임신	-8388
▁두번째	-8389
연은	-8390
▁업데이트	-8391
지대	-8392
▁스펙트럼	-8393
▁시스템은	-8394
▁동쪽으로는	-8395
ure	-8396
▁대우	-8397
▁빨리	-8398
미와	-8399
▁수천	-8400
성도	-8401
▁항공기	-8402
▁데뷔전을	-8403
▁랭킹	-8404
▁상무	-8405
▁용어	-8406
▁첫번째	-8407
▁목숨을	-8408
▁네덜란드의	-8409
▁결과적으로	-8410
▁66	-8411
병이	-8412
▁부통령	-8413
▁거기	-8414
▁전두	-8415
곡이	-8416
년은	-8417
안군	-8418
▁빠지	-8419
▁활동한	-8420
▁결과는	-8421
▁패턴	-8422
▁별도로	-8423
▁상임	-8424
▁짙	-8425
▁우승에	-8426
▁DJ	-8427
▁옆에	-8428
▁확인할	-8429
래	-8430
▁이글	-8431
▁HIV	-8432
▁미얀	-8433
▁관광객	-8434
▁내세우	-8435
▁다룬	-8436
▁모양을	-8437
▁댄스	-8438
▁설이	-8439
작은	-8440
▁루트비히	-8441
▁오스트레일리아의	-8442
▁낱	-8443
우드	-8444
▁전임	-8445
▁합계	-8446
▁결과가	-8447
▁튜	-8448
.&	-8449
77	-8450
▁연계	-8451
함을	-8452
▁아들을	-8453
▁고교	-8454
▁좌익	-8455
출을	-8456
▁시호는	-8457
▁SF	-8458
▁성벽	-8459
▁힘쓰	-8460
ock	-8461
반의	-8462
▁선거에	-8463
▁학교를	-8464
▁놓이어	-8465
▁료	-8466
▁차이를	-8467
▁하노	-8468
등한	-8469
▁브라우	-8470
중은	-8471
조약	-8472
▁구마	-8473
▁잃고	-8474
션을	-8475
▁우수한	-8476
▁후기의	-8477
Pa	-8478
자와	-8479
코가	-8480
▁250	-8481
들어	-8482
즈카	-8483
▁175	-8484
▁이외에	-8485
▁깔	-8486
▁친	-8487
리시	-8488
▁점성	-8489
▁결정하았다	-8490
부르	-8491
▁가져오	-8492
▁빌헬	-8493
▁프레임	-8494
▁아들이	-8495
가들은	-8496
▁결정을	-8497
▁기재	-8498
▁뿌리	-8499
▁막대한	-8500
현악	-8501
▁My	-8502
▁사령관	-8503
▁He	-8504
▁UN	-8505
▁보좌	-8506
▁일대	-8507
환의	-8508
단계	-8509
네는	-8510
어지어	-8511
▁제도의	-8512
▁마르크스	-8513
▁측은	-8514
▁남아있다	-8515
▁챌린	-8516
▁파나	-8517
▁아나운	-8518
▁무선	-8519
▁들어간	-8520
▁가나	-8521
▁기구	-8522
▁대지	-8523
라이트	-8524
▁애플리케이션	-8525
▁김동	-8526
▁미시	-8527
업이	-8528
▁우리의	-8529
▁전체의	-8530
▁산타	-8531
▁잡아	-8532
▁인간이	-8533
▁피난	-8534
▁활약하였다	-8535
▁리그에	-8536
정도	-8537
좌상	-8538
▁AS	-8539
▁발효	-8540
▁정류	-8541
▁얼마나	-8542
▁히어로	-8543
토스	-8544
▁발족	-8545
▁책봉	-8546
▁과학자	-8547
금융	-8548
▁테오	-8549
미디어	-8550
▁데리고	-8551
▁경력을	-8552
▁험	-8553
시타	-8554
▁연애	-8555
▁오다	-8556
변을	-8557
▁간단한	-8558
▁대조	-8559
▁진술	-8560
▁등이다	-8561
▁쏟	-8562
리타	-8563
실록	-8564
온의	-8565
▁말하고	-8566
▁이익을	-8567
▁국가에서	-8568
유키	-8569
▁배제	-8570
▁야기	-8571
▁버리고	-8572
나라를	-8573
▁사격	-8574
▁일본이	-8575
▁엔터테인멀ᆫ트	-8576
산군	-8577
▁이오	-8578
▁서일본	-8579
▁신장	-8580
하가	-8581
▁걸리어	-8582
▁요구하는	-8583
▁스토리	-8584
금은	-8585
▁동지	-8586
▁성균	-8587
▁시마	-8588
초의	-8589
▁구간이	-8590
식물	-8591
디의	-8592
▁아울러	-8593
▁당하았다	-8594
ᄆ과	-8595
▁스틸	-8596
▁항구	-8597
아를	-8598
▁쪽으로	-8599
시키었고	-8600
반을	-8601
▁잊	-8602
▁디젤	-8603
▁포맷	-8604
▁경계를	-8605
▁로빈	-8606
▁어드	-8607
▁예능	-8608
▁호수	-8609
준은	-8610
▁나라를	-8611
프스	-8612
▁그리스도	-8613
재의	-8614
▁북쪽으로는	-8615
▁재단	-8616
▁쿠바	-8617
▁열차는	-8618
▁바티	-8619
▁해설	-8620
▁가질	-8621
스테이션	-8622
▁노선이	-8623
▁된다는	-8624
▁독자적인	-8625
▁훈련을	-8626
▁최신	-8627
▁계획이	-8628
▁순천	-8629
▁과학적	-8630
들과의	-8631
▁감독이다	-8632
▁그동안	-8633
피는	-8634
▁나가았다	-8635
▁모집	-8636
▁트윈	-8637
▁밀양	-8638
▁범주	-8639
▁재발	-8640
▁폐기	-8641
▁항해	-8642
▁지역과	-8643
▁선제	-8644
소송법	-8645
▁반도	-8646
▁주장이	-8647
▁톨	-8648
▁용산	-8649
▁마쓰다이라	-8650
▁게시	-8651
박물관	-8652
도서	-8653
토시	-8654
▁왕위	-8655
▁아가	-8656
▁많고	-8657
▁그랑	-8658
▁내륙	-8659
▁장편	-8660
▁협상	-8661
▁빛을	-8662
▁스파이	-8663
▁최근에	-8664
트르	-8665
▁이복	-8666
▁찾을	-8667
▁모니	-8668
▁담당하는	-8669
▁출전하았다	-8670
▁고성	-8671
▁적대	-8672
▁휩	-8673
▁타율	-8674
이오	-8675
청을	-8676
▁위기에	-8677
▁스타크래프트	-8678
팩트	-8679
▁백인	-8680
▁여왕	-8681
▁해제	-8682
▁스콧	-8683
▁미하	-8684
▁주파	-8685
▁WWE	-8686
▁어릴	-8687
▁앨범은	-8688
▁영감을	-8689
부문	-8690
▁적색	-8691
론적	-8692
▁대학원	-8693
▁적을	-8694
▁일원으로	-8695
▁조용	-8696
▁호환	-8697
칸센	-8698
▁오타	-8699
▁입문	-8700
▁준공	-8701
▁타운	-8702
악의	-8703
▁싱글이다	-8704
▁지역이다	-8705
문관	-8706
작가	-8707
▁한양	-8708
ML	-8709
나오	-8710
▁무료	-8711
하러	-8712
▁초점을	-8713
▁고베	-8714
▁콩고	-8715
편에	-8716
경기를	-8717
▁신사	-8718
안으로	-8719
▁주니	-8720
▁탕	-8721
클라	-8722
▁정벌	-8723
▁천황의	-8724
ime	-8725
▁주제로	-8726
▁확인되었다	-8727
▁흩	-8728
▁청와	-8729
재가	-8730
▁힘이	-8731
한을	-8732
수산	-8733
▁값을	-8734
▁편지를	-8735
▁자리에서	-8736
▁일렉	-8737
▁아니며	-8738
▁원래의	-8739
▁인근에	-8740
▁역이	-8741
▁이론은	-8742
▁직접적인	-8743
▁최종적으로	-8744
▁일본어	-8745
▁않도록	-8746
▁꺾고	-8747
▁쿨	-8748
▁아트	-8749
▁충분한	-8750
▁하나님의	-8751
같이	-8752
▁뒤인	-8753
저는	-8754
▁언어로	-8755
▁게임은	-8756
▁아니었다	-8757
크라	-8758
▁서독	-8759
▁북한의	-8760
▁개념은	-8761
▁수단	-8762
▁황후	-8763
와의	-8764
▁아르메니아	-8765
▁미카	-8766
대학원	-8767
버스터	-8768
▁ST	-8769
업에	-8770
74	-8771
▁서서	-8772
▁월간	-8773
보르	-8774
▁자손	-8775
▁잡아	-8776
▁마리오	-8777
▁능력이	-8778
▁원형	-8779
▁한화	-8780
연한	-8781
▁군대가	-8782
▁전투가	-8783
▁인물이다	-8784
▁테일러	-8785
▁조선총독부	-8786
▁간접	-8787
▁경고	-8788
▁충남	-8789
▁군대는	-8790
▁메디	-8791
▁응우옌	-8792
▁곁	-8793
▁전의	-8794
▁살펴	-8795
천을	-8796
▁얇	-8797
기인	-8798
▁그룹의	-8799
▁정도가	-8800
▁사용을	-8801
▁야생	-8802
▁연루	-8803
▁곳곳	-8804
▁급진	-8805
▁오렌	-8806
▁축제	-8807
▁충격	-8808
하ᄆ이	-8809
▁근거로	-8810
▁중이던	-8811
델	-8812
ack	-8813
▁코치로	-8814
▁데려	-8815
▁출현	-8816
▁이루었다	-8817
▁있습니다	-8818
▁통화	-8819
▁비평가	-8820
▁여기어지	-8821
▁물리학	-8822
OC	-8823
유는	-8824
▁정치인	-8825
▁발전에	-8826
▁자격을	-8827
▁재위	-8828
체인	-8829
▁두드러	-8830
▁중심지	-8831
▁후의	-8832
▁나열	-8833
먼은	-8834
▁*	-8835
▁라운드	-8836
▁여동생	-8837
세스	-8838
▁못하아	-8839
▁에우	-8840
바시	-8841
▁도심	-8842
▁여의	-8843
▁700	-8844
▁지어진	-8845
인조	-8846
▁플루	-8847
용이	-8848
어진	-8849
▁계열의	-8850
본이	-8851
▁포인트	-8852
▁넘기어	-8853
▁둔	-8854
▁곰	-8855
▁국가를	-8856
▁Un	-8857
MS	-8858
▁사로잡	-8859
▁마산	-8860
연의	-8861
▁때도	-8862
▁군을	-8863
▁지배를	-8864
▁사람에게	-8865
▁않는다는	-8866
금이	-8867
▁전투에	-8868
▁목적은	-8869
▁1911	-8870
▁밀리어	-8871
브로	-8872
▁착수	-8873
▁달의	-8874
▁디즈니	-8875
행은	-8876
▁왕실	-8877
스테르	-8878
▁하와이	-8879
▁소나	-8880
▁사카	-8881
발의	-8882
오와	-8883
하니	-8884
▁당한	-8885
io	-8886
역사	-8887
▁목조	-8888
▁승차	-8889
▁결혼을	-8890
▁하나를	-8891
▁서브	-8892
▁힌두	-8893
곡으로	-8894
▁메모	-8895
▁있다면	-8896
군사	-8897
제이	-8898
▁사장	-8899
편이	-8900
▁참고	-8901
▁말할	-8902
▁겸임	-8903
▁현존하는	-8904
▁한국에서는	-8905
등록	-8906
커는	-8907
▁불리기도	-8908
뉴스	-8909
▁한강	-8910
▁제국이	-8911
▁일본에서는	-8912
아가	-8913
▁당의	-8914
▁히가시	-8915
▁양식	-8916
▁예언	-8917
▁원수	-8918
▁페루	-8919
란의	-8920
받지	-8921
▁후반에	-8922
▁슐	-8923
공동	-8924
통일	-8925
되게	-8926
▁플라스	-8927
▁동남아시아	-8928
▁모델이다	-8929
투쟁	-8930
▁AM	-8931
▁거둔	-8932
▁믹	-8933
다르	-8934
▁법무	-8935
▁대신에	-8936
▁화려한	-8937
▁지지하는	-8938
범죄	-8939
급의	-8940
이어야	-8941
▁달러를	-8942
시절	-8943
▁정원	-8944
▁지목	-8945
▁삶의	-8946
▁주식회사	-8947
▁불만을	-8948
▁여덟	-8949
▁중력	-8950
▁머리를	-8951
▁본격적인	-8952
ib	-8953
▁y	-8954
산맥	-8955
▁53	-8956
▁포크	-8957
선수권	-8958
▁일로	-8959
▁낳았다	-8960
규칙	-8961
▁내장	-8962
▁상하	-8963
석과	-8964
연이	-8965
▁비극	-8966
▁대답	-8967
▁복구	-8968
▁비즈	-8969
▁이원	-8970
▁이어서	-8971
▁준결승	-8972
▁일본군	-8973
▁활성화	-8974
▁방식의	-8975
▁굉	-8976
▁주립	-8977
▁가지게	-8978
▁요소를	-8979
▁졸업하였다	-8980
▁미스	-8981
▁서경	-8982
61	-8983
그는	-8984
▁시기의	-8985
▁시간은	-8986
▁젖	-8987
조정	-8988
▁무늬	-8989
▁충족	-8990
팀인	-8991
▁언어를	-8992
▁목격	-8993
▁신칸센	-8994
▁임상	-8995
야시	-8996
있고	-8997
회와	-8998
▁필라델	-8999
▁잘못된	-9000
▁제휴	-9001
보통학교	-9002
▁번뇌	-9003
▁착륙	-9004
▁발견하았다	-9005
▁생각하았다	-9006
▁박영	-9007
▁이순	-9008
▁역사적으로	-9009
▁무신	-9010
▁착공	-9011
톤의	-9012
▁관점에서	-9013
▁폼	-9014
▁내내	-9015
▁대결	-9016
▁온도	-9017
▁사용자가	-9018
▁구름	-9019
ㄴ다	-9020
소한	-9021
▁음반의	-9022
년대부터	-9023
▁공략	-9024
▁보잉	-9025
▁가게	-9026
▁교과	-9027
▁누르	-9028
목의	-9029
만은	-9030
▁북쪽에	-9031
▁맡았으며	-9032
교도	-9033
▁날아	-9034
들인	-9035
▁적의	-9036
▁윙	-9037
▁인조	-9038
▁전쟁은	-9039
▁전통적으로	-9040
▁복수	-9041
쪽의	-9042
▁후보에	-9043
번호	-9044
스틴	-9045
▁실패하았다	-9046
▁가즈	-9047
▁친척	-9048
▁방영되었다	-9049
검찰	-9050
민당	-9051
▁이영	-9052
▁취약	-9053
▁타카	-9054
▁태조	-9055
▁서서히	-9056
동에서	-9057
▁시스템의	-9058
▁이처럼	-9059
▁구조의	-9060
▁승리로	-9061
▁프로토콜	-9062
양군	-9063
▁전성	-9064
▁특수한	-9065
서에서	-9066
▁제국은	-9067
ge	-9068
으로서는	-9069
▁선진	-9070
▁맞게	-9071
▁포함하아	-9072
▁술탄	-9073
▁내부의	-9074
시즌을	-9075
▁거스르어	-9076
▁끝나았다	-9077
▁사이에는	-9078
▁카자흐	-9079
▁간다	-9080
▁닐	-9081
때로	-9082
▁말한	-9083
▁프로그램은	-9084
▁브래	-9085
▁위기	-9086
▁지중해	-9087
▁피에르	-9088
▁수록된	-9089
▁말하였다	-9090
▁원산	-9091
▁해군의	-9092
▁다큐멘터리	-9093
iz	-9094
her	-9095
▁58	-9096
성이다	-9097
▁훌륭한	-9098
▁젤	-9099
▁다이아	-9100
관찰	-9101
age	-9102
마자	-9103
▁현의	-9104
디아라비아	-9105
▁흐르어	-9106
▁바이올린	-9107
▁응답	-9108
▁항일	-9109
▁어워드	-9110
해군	-9111
▁가사	-9112
▁중구	-9113
▁가르치	-9114
예프	-9115
▁흔들	-9116
▁일찍이	-9117
▁베타	-9118
터로	-9119
▁구체적인	-9120
62	-9121
▁종전	-9122
질은	-9123
▁구미	-9124
▁판타지	-9125
란을	-9126
▁민주주의	-9127
엘라	-9128
터에	-9129
▁약한	-9130
견을	-9131
자이며	-9132
▁프로그램의	-9133
▁굵	-9134
▁동구	-9135
▁방면	-9136
▁평생	-9137
보가	-9138
▁마친	-9139
▁일부로	-9140
▁뒤에는	-9141
▁기업의	-9142
▁시작하아	-9143
▁치료를	-9144
▁부흥	-9145
토가	-9146
▁법원	-9147
▁트레	-9148
백을	-9149
▁목적을	-9150
▁샬	-9151
▁로맨	-9152
▁실용	-9153
▁해임	-9154
▁까지	-9155
기관이다	-9156
▁시대를	-9157
▁배정	-9158
▁주와	-9159
▁형태가	-9160
▁옐	-9161
로이	-9162
차별	-9163
건	-9164
▁무려	-9165
▁손상	-9166
▁이리	-9167
성한	-9168
▁올라가	-9169
▁돌아가았다	-9170
로디	-9171
분교	-9172
▁안티	-9173
▁성공적인	-9174
▁꾀	-9175
▁반환	-9176
▁와카	-9177
건이	-9178
색이	-9179
▁위치하며	-9180
▁조사를	-9181
차전에서	-9182
하아지는	-9183
▁쟁	-9184
▁PS	-9185
▁165	-9186
▁아파트	-9187
▁무력	-9188
▁제약	-9189
▁퇴각	-9190
▁하버드	-9191
▁마음작용	-9192
경으로	-9193
사추	-9194
▁활약하고	-9195
▁88	-9196
포는	-9197
▁측근	-9198
측의	-9199
▁리얼	-9200
▁부패	-9201
▁선	-9202
▁오키나	-9203
론에서	-9204
▁방식은	-9205
:00	-9206
▁다루고	-9207
▁IP	-9208
▁김용	-9209
▁조치를	-9210
72	-9211
▁어둡ᆫ	-9212
▁얻는	-9213
▁페스티벌	-9214
수사	-9215
▁디아	-9216
▁인생	-9217
▁끝이	-9218
▁중앙에	-9219
▁본선의	-9220
▁정의할	-9221
▁기생	-9222
▁섭취	-9223
▁해적	-9224
금의	-9225
씨와	-9226
태평양	-9227
▁맞는	-9228
▁이르고	-9229
ud	-9230
▁요르	-9231
▁이마	-9232
▁커피	-9233
▁마케팅	-9234
▁융합	-9235
▁자식	-9236
▁가능하며	-9237
버리었다	-9238
▁칩	-9239
▁게재	-9240
▁주문	-9241
교회의	-9242
▁체제를	-9243
▁동명	-9244
▁마천	-9245
▁애틀	-9246
▁마케도니아	-9247
▁무대에	-9248
▁조치	-9249
▁남긴	-9250
이후	-9251
▁어렵다	-9252
EN	-9253
▁또다시	-9254
▁귀환	-9255
▁여수	-9256
즈에	-9257
▁사상을	-9258
▁박탈	-9259
▁펼쳐	-9260
르와	-9261
▁임명되어	-9262
▁연구하는	-9263
▁트럭	-9264
▁현장	-9265
병의	-9266
▁1500	-9267
4,	-9268
라미	-9269
▁아서	-9270
▁일관	-9271
▁하인리히	-9272
중에서	-9273
▁목록은	-9274
▁날개	-9275
▁바그	-9276
▁시집	-9277
▁여론	-9278
▁대주교	-9279
고야	-9280
▁토마	-9281
▁레이다	-9282
내에서	-9283
제프	-9284
▁막부	-9285
▁미루	-9286
▁비로	-9287
팀은	-9288
▁연고로	-9289
반민족행위	-9290
▁속도를	-9291
▁마찰	-9292
▁때때로	-9293
▁햄	-9294
저스	-9295
▁99	-9296
▁몰락	-9297
▁ISO	-9298
▁달리어	-9299
▁한국방송	-9300
▁성질을	-9301
▁저택	-9302
▁영화로	-9303
▁의원이	-9304
▁선수이자	-9305
▁사우디아라비아	-9306
누리	-9307
분야	-9308
▁82	-9309
리스토	-9310
▁1909	-9311
▁부정적인	-9312
▁굿	-9313
인명	-9314
온이	-9315
니를	-9316
▁노선은	-9317
둥이	-9318
마치	-9319
▁합법	-9320
69	-9321
고쿠	-9322
▁살해	-9323
▁털이	-9324
▁남쪽에	-9325
▁사용하아	-9326
▁자유롭게	-9327
세츠	-9328
▁서남	-9329
▁밖의	-9330
▁채로	-9331
▁보이어주고	-9332
가요	-9333
포트	-9334
▁진단	-9335
▁사용이	-9336
▁규정하고	-9337
▁발견되는	-9338
▁방송국	-9339
위원회의	-9340
▁따르는	-9341
▁회의에서	-9342
63	-9343
▁샹	-9344
▁흘러	-9345
초에	-9346
있으며	-9347
▁되었지만	-9348
모델	-9349
보에	-9350
▁대한제국	-9351
▁토대로	-9352
▁고가	-9353
▁며칠	-9354
▁펜실	-9355
▁합리	-9356
▁오디오	-9357
▁프랑스에서	-9358
▁정찰	-9359
▁오세	-9360
브는	-9361
▁덴마크의	-9362
소스	-9363
▁권유	-9364
▁하천	-9365
▁붙이어	-9366
▁곡으로	-9367
▁동메달을	-9368
▁피하아	-9369
▁의장	-9370
▁관계로	-9371
71	-9372
헌	-9373
▁각기	-9374
▁이른	-9375
▁들은	-9376
▁명예의	-9377
▁받기도	-9378
▁차남	-9379
▁쿠르	-9380
증이	-9381
▁대서양	-9382
의는	-9383
▁버전은	-9384
이였다	-9385
▁반지	-9386
▁개발된	-9387
▁화살	-9388
▁기록에	-9389
▁죽을	-9390
▁사용하기	-9391
라드	-9392
▁의지	-9393
고한	-9394
▁민속	-9395
▁미스터	-9396
▁항공모	-9397
▁기술이	-9398
▁병력	-9399
▁얻기	-9400
▁교섭	-9401
▁이에	-9402
▁선을	-9403
▁없으나	-9404
나미	-9405
공이	-9406
▁면에서	-9407
▁주에서	-9408
자원	-9409
▁그치	-9410
▁김태	-9411
▁제목으로	-9412
타나	-9413
▁피부	-9414
레의	-9415
타로	-9416
▁김영삼	-9417
▁실험을	-9418
리었고	-9419
▁얀	-9420
▁끌어	-9421
▁배틀	-9422
▁카이사	-9423
▁운동이	-9424
▁초창	-9425
곡의	-9426
▁구조는	-9427
▁금메달	-9428
▁바위	-9429
▁재편	-9430
▁사고로	-9431
년대에는	-9432
▁규제	-9433
▁갑작	-9434
▁레전	-9435
▁라틴어	-9436
▁빌헬름	-9437
▁캘리포니아주	-9438
고래	-9439
▁근처의	-9440
AD	-9441
반응	-9442
▁공용	-9443
▁철학자	-9444
▁고속도로	-9445
▁보내는	-9446
로우	-9447
▁도로이다	-9448
▁제작되었다	-9449
ᆯ수	-9450
▁비공식	-9451
▁득점을	-9452
▁복사	-9453
▁악화	-9454
층은	-9455
▁세로	-9456
▁진정한	-9457
책임	-9458
▁사다	-9459
▁주한	-9460
▁희극	-9461
▁네이션	-9462
▁사용하며	-9463
▁은메달을	-9464
▁선언하았다	-9465
과이	-9466
테이	-9467
▁MC	-9468
▁사직	-9469
▁훼손	-9470
▁달러의	-9471
▁몸무게는	-9472
▁구체적으로	-9473
▁고조	-9474
▁그림을	-9475
질로	-9476
▁땅에	-9477
▁현상이	-9478
▁사바	-9479
▁수치	-9480
▁최저	-9481
색은	-9482
자리에	-9483
▁거기에	-9484
▁이바	-9485
▁CPU	-9486
▁둘은	-9487
▁동화	-9488
▁맡게	-9489
▁세우어지었다	-9490
▁점유	-9491
▁포괄	-9492
▁성은	-9493
▁대전광역시	-9494
교로	-9495
매치	-9496
여객	-9497
▁무효	-9498
▁출력	-9499
심한	-9500
▁유한	-9501
홈런	-9502
▁석조	-9503
▁세균	-9504
슨과	-9505
▁케네	-9506
▁군사적	-9507
▁연구가	-9508
▁사실은	-9509
▁고도	-9510
▁사르	-9511
orld	-9512
▁오스트리아의	-9513
▁근접	-9514
▁향한	-9515
서이다	-9516
▁기온은	-9517
79	-9518
가루	-9519
마루	-9520
▁주축	-9521
투아니아	-9522
▁황제가	-9523
▁왕으로	-9524
▁공무	-9525
▁좋다	-9526
int	-9527
▁신라의	-9528
▁형식을	-9529
▁작고	-9530
▁꿈을	-9531
▁광범위한	-9532
▁부착	-9533
사령부	-9534
다드	-9535
한민	-9536
▁낮추	-9537
▁부품	-9538
▁한동안	-9539
리아는	-9540
상으로는	-9541
▁시드니	-9542
주년을	-9543
▁때로는	-9544
▁발매하았다	-9545
수수	-9546
▁굉장	-9547
▁르네상	-9548
금으로	-9549
▁후보를	-9550
▁껍	-9551
▁룩	-9552
▁얘	-9553
-21	-9554
▁살던	-9555
▁4.	-9556
열이	-9557
패로	-9558
▁회사는	-9559
▁되었을	-9560
sp	-9561
▁Ar	-9562
▁영화제	-9563
▁군은	-9564
▁제주특별자치	-9565
▁템	-9566
▁카탈	-9567
▁부르며	-9568
II	-9569
▁MP	-9570
▁에스토	-9571
▁1915	-9572
▁조직의	-9573
츠키	-9574
▁동독	-9575
▁우즈	-9576
크로	-9577
▁소재로	-9578
디	-9579
▁공전	-9580
▁대외	-9581
▁출시된	-9582
몬드	-9583
형태	-9584
츠와	-9585
▁법을	-9586
▁왕위를	-9587
▁의원은	-9588
▁파리에서	-9589
▁장면	-9590
열의	-9591
▁당하아	-9592
받는다	-9593
▁추증	-9594
르를	-9595
음은	-9596
oy	-9597
▁추모	-9598
▁유소년	-9599
▁작품에	-9600
▁거주하는	-9601
▁롬	-9602
▁스릴	-9603
양이	-9604
▁유니폼	-9605
▁중심의	-9606
▁알리어지지	-9607
▁끈	-9608
▁위안	-9609
▁따아	-9610
공은	-9611
세에게	-9612
▁쳐	-9613
▁대폭	-9614
두는	-9615
시민	-9616
업은	-9617
▁럭	-9618
▁보상	-9619
▁중계	-9620
▁Pro	-9621
▁별의	-9622
▁성공한	-9623
▁노래는	-9624
▁영국은	-9625
형이다	-9626
▁서울에서	-9627
아리	-9628
연속	-9629
▁중순	-9630
▁화면	-9631
ov	-9632
▁68	-9633
▁무용	-9634
숙한	-9635
▁열어	-9636
버는	-9637
생으로	-9638
아키	-9639
▁이인	-9640
스트의	-9641
하였기	-9642
▁무죄	-9643
▁보충	-9644
▁수신	-9645
▁속도로	-9646
▁이듬해인	-9647
▁관통	-9648
▁자발	-9649
▁촉구	-9650
진에	-9651
▁멤버로	-9652
▁일본으로	-9653
▁석탄	-9654
네스코	-9655
▁전한다	-9656
▁짓고	-9657
▁특유의	-9658
도사	-9659
▁공학	-9660
나가와	-9661
▁곳이	-9662
▁감지	-9663
내셔널	-9664
▁강점기	-9665
▁시작되어	-9666
▁특징은	-9667
▁따뜻	-9668
▁한신	-9669
▁형식의	-9670
불교	-9671
경과	-9672
웨이의	-9673
▁진영	-9674
▁라트	-9675
▁세대	-9676
▁1913	-9677
▁팩	-9678
라이더	-9679
▁곡의	-9680
▁디비전	-9681
▁향을	-9682
▁과정은	-9683
▁리메이	-9684
▁IT	-9685
▁지내었으며	-9686
주일	-9687
▁트라이	-9688
▁발생할	-9689
원군	-9690
작전	-9691
▁신흥	-9692
▁폴란드의	-9693
▁필라델피아	-9694
▁운행하는	-9695
란트	-9696
아니	-9697
▁베네수	-9698
▁5000	-9699
▁성우이다	-9700
▁아이를	-9701
처리	-9702
플라	-9703
▁가라	-9704
▁팽창	-9705
▁끝나고	-9706
▁창시	-9707
▁침몰	-9708
▁길고	-9709
▁정확하게	-9710
▁시작하는	-9711
▁두산	-9712
▁부수	-9713
▁흐름	-9714
▁3000	-9715
▁그러자	-9716
▁보스니아	-9717
▁노력을	-9718
▁전부터	-9719
▁대로	-9720
▁반박	-9721
▁에디	-9722
▁클린	-9723
해는	-9724
▁과거의	-9725
하아오았다	-9726
네의	-9727
하겠다는	-9728
▁전세계	-9729
▁분리되어	-9730
중에는	-9731
십자	-9732
▁실종	-9733
프에	-9734
▁안드레	-9735
▁정부와	-9736
소	-9737
▁펀	-9738
▁캄보	-9739
▁특급	-9740
▁학자	-9741
▁배를	-9742
▁학생들이	-9743
▁기요	-9744
▁숨기	-9745
▁평행	-9746
인들	-9747
▁끊임	-9748
케이션	-9749
▁조르	-9750
의회는	-9751
▁비슷하다	-9752
▁개업	-9753
▁빛의	-9754
▁캠페	-9755
▁들어가는	-9756
▁경제학	-9757
▁의견이	-9758
▁차례로	-9759
터스	-9760
▁서머	-9761
▁약물	-9762
트리올	-9763
▁셈	-9764
이자	-9765
▁일조	-9766
치어서	-9767
학위를	-9768
▁재산을	-9769
ph	-9770
▁역사가	-9771
생산	-9772
▁DS	-9773
▁분광	-9774
▁스리	-9775
직한	-9776
▁미나미	-9777
철은	-9778
장관	-9779
진과	-9780
▁물에	-9781
▁언제나	-9782
▁명문	-9783
▁이슈	-9784
▁되어서	-9785
GC	-9786
▁부천	-9787
▁스파르타	-9788
▁알바니아	-9789
▁되ㄴ다고	-9790
▁기호	-9791
▁자율	-9792
▁창업	-9793
▁건물을	-9794
▁연속으로	-9795
▁과학기술	-9796
▁사육	-9797
▁이광	-9798
▁생각된다	-9799
코드	-9800
▁1895	-9801
▁한국에	-9802
▁인정받아	-9803
▁경우를	-9804
▁강경	-9805
▁김재	-9806
▁출토	-9807
적에	-9808
▁발견한	-9809
▁이미지를	-9810
?"	-9811
헤이	-9812
▁밴드는	-9813
▁독일에서	-9814
▁제외하고는	-9815
자연	-9816
▁플레이어	-9817
▁신비	-9818
▁잃은	-9819
가르	-9820
▁수수	-9821
▁숙종	-9822
▁진도	-9823
번을	-9824
▁하였는데	-9825
▁왕족	-9826
란이	-9827
▁1.5	-9828
▁삼고	-9829
▁설립하였다	-9830
▁닿	-9831
누엘	-9832
위대	-9833
▁창건	-9834
▁삿	-9835
▁편의	-9836
목이	-9837
량으로	-9838
진으로	-9839
▁모델을	-9840
▁조직을	-9841
▁급행	-9842
▁네이버	-9843
▁외의	-9844
▁둘러싼	-9845
▁판결을	-9846
적이었다	-9847
▁톈	-9848
▁리버풀	-9849
거는	-9850
해방	-9851
▁라스	-9852
▁조반	-9853
▁호세	-9854
사추세츠	-9855
스키는	-9856
어트	-9857
▁필름	-9858
▁상의	-9859
풍을	-9860
지붕	-9861
▁72	-9862
▁사료	-9863
▁지각	-9864
▁주어	-9865
▁죽이고	-9866
강점	-9867
ome	-9868
▁쓰어	-9869
▁원작으로	-9870
▁전쟁으로	-9871
▁구리	-9872
▁김진	-9873
▁약화	-9874
주고	-9875
▁역임한	-9876
▁링컨	-9877
격이	-9878
티의	-9879
된다고	-9880
사고	-9881
▁소닉	-9882
▁일하았다	-9883
▁등재	-9884
▁역과	-9885
▁전당	-9886
▁흥행	-9887
▁누르고	-9888
▁운행을	-9889
▁명백	-9890
▁생기는	-9891
▁소속이다	-9892
▁않았기	-9893
~3	-9894
태우	-9895
ian	-9896
▁양키	-9897
▁영역을	-9898
▁집으로	-9899
노프	-9900
▁교외	-9901
▁민주화	-9902
▁부른	-9903
레를	-9904
시까지	-9905
▁일으키는	-9906
▁다중	-9907
▁당대	-9908
▁유신	-9909
설이	-9910
▁그렇지	-9911
법인이다	-9912
▁기록하여	-9913
버러	-9914
▁비즈니스	-9915
▁지금도	-9916
▁신용	-9917
▁아폴	-9918
▁못할	-9919
▁사용될	-9920
▁시기는	-9921
▁하거나	-9922
▁사천	-9923
▁시그	-9924
▁우연히	-9925
▁어려움을	-9926
▁걱	-9927
경영	-9928
바흐	-9929
▁물러나	-9930
▁남부의	-9931
▁정책에	-9932
▁시즌에는	-9933
▁이틀	-9934
▁찾기	-9935
▁에스파냐	-9936
▁특이한	-9937
400	-9938
▁77	-9939
▁서해	-9940
▁세미	-9941
▁함유	-9942
▁나고야	-9943
▁거리가	-9944
▁지속적인	-9945
▁심판	-9946
▁뻗어	-9947
▁점이다	-9948
와라	-9949
-11	-9950
▁안의	-9951
▁분류된다	-9952
겠	-9953
▁포인	-9954
▁광주광역시	-9955
초를	-9956
▁전에는	-9957
되	-9958
▁고분	-9959
▁키르	-9960
학교에	-9961
▁형태는	-9962
▁부과	-9963
▁이반	-9964
▁컨트롤	-9965
-17	-9966
▁두루	-9967
▁증권	-9968
있던	-9969
박스	-9970
▁사사	-9971
▁유출	-9972
▁리눅스	-9973
▁몬트리올	-9974
▁섬을	-9975
▁PD	-9976
▁섬유	-9977
▁액체	-9978
▁나가사키	-9979
▁선거를	-9980
로동	-9981
속을	-9982
▁모두가	-9983
▁죄를	-9984
▁독일은	-9985
▁쓰어서	-9986
▁꽤	-9987
희의	-9988
▁부르고	-9989
,8	-9990
ee	-9991
▁평소	-9992
▁아이슬	-9993
pp	-9994
▁객관	-9995
▁도호쿠	-9996
▁총선거	-9997
▁지명을	-9998
하였다는	-9999
IM	-10000
▁리스	-10001
▁이화	-10002
▁이루어지고	-10003
▁텔	-10004
▁""	-10005
▁고르	-10006
하우스	-10007
▁강이	-10008
▁팔레스타	-10009
진흥	-10010
▁닥터	-10011
▁중독	-10012
▁형법	-10013
▁트레이드	-10014
점이다	-10015
▁컬럼비아	-10016
테쓰	-10017
▁진출하았다	-10018
▁59	-10019
▁쌓아	-10020
▁낙선	-10021
▁단층	-10022
▁쉽ᆫ	-10023
▁정교회	-10024
사우루스	-10025
▁신하	-10026
보로	-10027
손은	-10028
▁노리	-10029
▁안장	-10030
▁침해	-10031
▁on	-10032
▁내외	-10033
▁친정	-10034
▁체계를	-10035
▁시라	-10036
▁올림	-10037
▁외곽	-10038
▁달린	-10039
도이다	-10040
▁식으로	-10041
들ᆫ	-10042
미국	-10043
▁사적	-10044
민을	-10045
▁친일인명	-10046
▁의사를	-10047
▁김수	-10048
▁알코	-10049
▁다니엘	-10050
스부르크	-10051
예를	-10052
▁지방에서	-10053
▁차지한	-10054
▁좌파	-10055
▁백악	-10056
▁번호	-10057
▁제갈	-10058
과도	-10059
▁이은	-10060
▁중기의	-10061
항으로	-10062
▁잦	-10063
▁그리어	-10064
▁관현악	-10065
▁팀에	-10066
류이다	-10067
▁여기에는	-10068
주식	-10069
▁분야에	-10070
▁145	-10071
▁아틀레	-10072
▁중심이	-10073
▁목표를	-10074
지ㄴ	-10075
능력	-10076
▁간부	-10077
▁김포	-10078
▁에버	-10079
▁유네스코	-10080
▁멕시코의	-10081
▁후안	-10082
▁일제강점	-10083
▁시작된다	-10084
▁자신에게	-10085
OV	-10086
▁학부	-10087
자리를	-10088
▁오키나와	-10089
과정을	-10090
ace	-10091
▁날짜	-10092
▁155	-10093
화하고	-10094
▁불을	-10095
▁대통령을	-10096
티모	-10097
▁말기	-10098
▁말라	-10099
츠가	-10100
▁Con	-10101
▁쓰인	-10102
▁위협을	-10103
:1	-10104
ire	-10105
왕에	-10106
▁스릴러	-10107
소이다	-10108
▁말하아	-10109
▁디스플레이	-10110
▁출전하아	-10111
▁맡았고	-10112
▁딴	-10113
▁기아	-10114
▁의병	-10115
번뇌	-10116
▁교구	-10117
▁애덤	-10118
▁원내	-10119
▁정말	-10120
너의	-10121
▁설립하았다	-10122
▁메가	-10123
▁과정에	-10124
▁일어날	-10125
▁나서었다	-10126
~19	-10127
▁레이저	-10128
▁다음이	-10129
▁출연한	-10130
▁조건으로	-10131
,0	-10132
▁바실	-10133
▁받기	-10134
▁긍정적인	-10135
주곡	-10136
▁무소	-10137
▁스쿨	-10138
▁외야	-10139
정부의	-10140
제국의	-10141
스에게	-10142
▁벗어나아	-10143
▁엉	-10144
▁내보	-10145
▁비단	-10146
▁영남	-10147
▁스티브	-10148
▁투르크	-10149
▁퍼시픽	-10150
▁건물이	-10151
▁지방도	-10152
▁수평	-10153
훈은	-10154
▁진출하였다	-10155
▁치열	-10156
▁비례대표	-10157
ber	-10158
▁고지	-10159
범한	-10160
우와	-10161
▁동물의	-10162
▁거주하고	-10163
바이잔	-10164
OP	-10165
▁무라	-10166
▁미토	-10167
▁영동	-10168
▁라이언	-10169
▁속으로	-10170
▁국가대표팀의	-10171
▁관습	-10172
▁관직	-10173
▁해인	-10174
▁모델은	-10175
▁루스	-10176
▁트랜스	-10177
런트	-10178
▁주를	-10179
▁하았다는	-10180
▁돌려	-10181
▁동래	-10182
▁공사가	-10183
ust	-10184
▁친일반민족행위	-10185
-12	-10186
화하여	-10187
▁아래로	-10188
마사	-10189
▁아바	-10190
▁황해	-10191
▁일에	-10192
무기	-10193
식품	-10194
▁염색	-10195
어지게	-10196
▁바닷	-10197
▁식별	-10198
▁장난	-10199
▁전한	-10200
▁수행하는	-10201
가미	-10202
▁CE	-10203
▁전세	-10204
▁나이지	-10205
▁페르난	-10206
투를	-10207
음이	-10208
▁미국에서는	-10209
▁갓	-10210
▁아즈	-10211
▁니콜라	-10212
▁라이선	-10213
▁에티오	-10214
받을	-10215
▁교도	-10216
▁소총	-10217
▁밟	-10218
전사	-10219
▁총괄	-10220
▁평등	-10221
제르바이잔	-10222
▁공채	-10223
▁전역	-10224
▁추상	-10225
▁부문에	-10226
▁속도가	-10227
▁성씨	-10228
▁수렴	-10229
▁가로지	-10230
▁상징하는	-10231
운트	-10232
▁고무	-10233
▁고발	-10234
▁아벨	-10235
▁코트	-10236
▁편리	-10237
양은	-10238
일에서	-10239
파르	-10240
▁국가에	-10241
▁다음에	-10242
▁여행을	-10243
▁하았을	-10244
73	-10245
공립	-10246
하면	-10247
▁분배	-10248
▁우에	-10249
▁무겁ᆫ	-10250
▁오렌지	-10251
▁가난한	-10252
▁건물의	-10253
블로	-10254
▁요크	-10255
▁기념물	-10256
단이다	-10257
호선은	-10258
▁비슷하게	-10259
퍼스	-10260
플러	-10261
!"	-10262
▁그로	-10263
▁식량	-10264
▁대처	-10265
▁비서	-10266
▁열고	-10267
▁탓에	-10268
년간의	-10269
▁영화에	-10270
▁마오	-10271
▁알라	-10272
▁듯한	-10273
▁오하이	-10274
▁사회에	-10275
▁검증	-10276
▁풋볼	-10277
▁화제가	-10278
▁회담	-10279
▁진행된	-10280
▁단종	-10281
▁어쩌	-10282
작품	-10283
▁개혁을	-10284
▁아이슬란드	-10285
OL	-10286
시노	-10287
▁글리	-10288
▁기갑	-10289
▁도구	-10290
▁비오	-10291
▁캐스팅	-10292
▁닭	-10293
산성	-10294
▁스핀	-10295
심의	-10296
▁허리케	-10297
▁선교사	-10298
▁엘리베이	-10299
▁있어서는	-10300
▁대니	-10301
란은	-10302
▁은퇴를	-10303
로니	-10304
▁광산	-10305
▁김상	-10306
▁봉사	-10307
▁엔지	-10308
▁외무	-10309
▁이노	-10310
▁강제로	-10311
▁시나리오	-10312
▁아르헨티	-10313
파일	-10314
마와	-10315
슈타인	-10316
편으로	-10317
▁교수는	-10318
▁기지	-10319
▁아세	-10320
▁후일	-10321
▁급격히	-10322
▁시즌의	-10323
▁이곳은	-10324
▁움직이는	-10325
▁생기었다	-10326
▁돌연	-10327
▁시가	-10328
▁제품을	-10329
▁조문이다	-10330
선언	-10331
▁신생	-10332
학자인	-10333
▁후쿠시마	-10334
터이	-10335
우주연	-10336
▁측면에서	-10337
자본	-10338
▁장로	-10339
▁리메이크	-10340
치료	-10341
▁기체	-10342
▁신속	-10343
▁지나치게	-10344
▁승강장은	-10345
▁조상	-10346
SS	-10347
▁자신과	-10348
▁훔	-10349
기준	-10350
바닥	-10351
안타	-10352
▁격퇴	-10353
▁큰	-10354
글라	-10355
ite	-10356
▁길게	-10357
▁영향력	-10358
▁기록된	-10359
칭으로	-10360
.25	-10361
▁||	-10362
▁입체	-10363
▁장의	-10364
▁결과에	-10365
▁구조로	-10366
크리	-10367
▁관람	-10368
▁붙이	-10369
드리아	-10370
환이	-10371
▁지점에	-10372
▁대학을	-10373
▁지어지었다	-10374
▁버튼	-10375
▁제수	-10376
▁지질	-10377
▁먹고	-10378
▁개발에	-10379
▁설치류의	-10380
▁남아있는	-10381
▁받았으나	-10382
카트	-10383
-16	-10384
▁계절	-10385
항에	-10386
▁리비아	-10387
▁울산광역시	-10388
▁있었다는	-10389
AL	-10390
사태	-10391
▁복지	-10392
생이	-10393
▁뜻의	-10394
▁전자기	-10395
▁고려의	-10396
▁동년	-10397
▁쇼핑	-10398
▁언더	-10399
▁사라지	-10400
▁1916	-10401
▁FM	-10402
▁어울	-10403
자도	-10404
하와	-10405
▁행성의	-10406
▁도움으로	-10407
pt	-10408
▁작센	-10409
▁카스	-10410
브리지	-10411
▁소유하고	-10412
▁참여하여	-10413
▁앓	-10414
시피	-10415
▁실시간	-10416
▁사랑의	-10417
▁자본주의	-10418
▁매출	-10419
▁메타	-10420
결합	-10421
분석	-10422
시내	-10423
자스	-10424
▁63	-10425
▁개관	-10426
포의	-10427
▁아이템	-10428
▁가지어	-10429
▁않았으나	-10430
자나	-10431
▁다른	-10432
▁레전드	-10433
▁병행	-10434
▁남기어	-10435
▁참가하는	-10436
▁끓	-10437
▁물리적	-10438
나라에	-10439
▁행정구역	-10440
가족	-10441
▁미주	-10442
▁전념	-10443
▁이상으로	-10444
▁거론	-10445
▁극히	-10446
▁매달	-10447
▁할당	-10448
▁스피드	-10449
▁참가하고	-10450
600	-10451
▁드럼	-10452
▁어려움	-10453
▁아버지와	-10454
IP	-10455
▁종결	-10456
고속도	-10457
▁마치었다	-10458
유적	-10459
카타	-10460
▁차기	-10461
베르토	-10462
▁싶어	-10463
하려면	-10464
▁뿔	-10465
카라	-10466
▁부장	-10467
▁토니	-10468
▁김대중	-10469
▁바가	-10470
▁인물을	-10471
▁개발되었다	-10472
서울	-10473
▁거제	-10474
▁라우	-10475
▁통근	-10476
▁페르디	-10477
▁나이가	-10478
▁활발한	-10479
TC	-10480
▁재활	-10481
▁중도	-10482
▁공화당	-10483
▁대회의	-10484
▁연방의	-10485
▁작위를	-10486
▁전례	-10487
푸르트	-10488
▁마이너	-10489
▁한국전쟁	-10490
▁김기	-10491
▁남원	-10492
인들과	-10493
▁옷을	-10494
스트를	-10495
▁향후	-10496
▁시절부터	-10497
▁일시적으로	-10498
▁막내	-10499
래스카	-10500
▁종의	-10501
으로의	-10502
▁것에서	-10503
▁데뷔하았으며	-10504
일간	-10505
일드	-10506
▁지폐	-10507
▁하마	-10508
님의	-10509
문제연구	-10510
▁왕비	-10511
▁곡이다	-10512
▁기간에	-10513
▁로열	-10514
타리오	-10515
때문에	-10516
▁작곡한	-10517
▁꼴	-10518
▁군수	-10519
▁증기	-10520
▁전체가	-10521
결정	-10522
▁공동체	-10523
▁제조업	-10524
▁공간의	-10525
▁쓰이고	-10526
▁매사추세츠	-10527
▁활약하았다	-10528
레아	-10529
▁채권	-10530
▁첨가	-10531
길을	-10532
▁Wh	-10533
▁시칠	-10534
▁의뢰	-10535
▁항공모함	-10536
▁()	-10537
▁상수	-10538
나와	-10539
▁IBM	-10540
▁내고	-10541
▁정이다	-10542
기관으로	-10543
▁성공하였다	-10544
▁으	-10545
▁구조가	-10546
타케	-10547
▁모음	-10548
▁소니	-10549
▁오빠	-10550
▁지혜	-10551
▁푸른	-10552
철도의	-10553
▁아니지만	-10554
▁성당	-10555
▁폐위	-10556
▁히데요	-10557
하기는	-10558
▁던지	-10559
자는	-10560
▁대한민	-10561
산면	-10562
▁리치	-10563
▁진짜	-10564
터미널	-10565
적이지	-10566
▁GT	-10567
▁가고	-10568
오를	-10569
▁교수가	-10570
▁소수의	-10571
도비	-10572
준	-10573
▁소실	-10574
▁치명	-10575
포가	-10576
▁대법원	-10577
▁끝까지	-10578
▁소설을	-10579
▁위키백	-10580
▁시는	-10581
▁시설이	-10582
▁주장하고	-10583
▁권위	-10584
▁사헌	-10585
▁평택	-10586
▁군에	-10587
▁아마도	-10588
▁나타낼	-10589
▁우승하였다	-10590
_8	-10591
▁베어	-10592
▁좌절	-10593
▁진동	-10594
▁노무현	-10595
▁인정하지	-10596
▁새기어지어	-10597
▁깨달	-10598
▁중소	-10599
▁평창	-10600
▁눈이	-10601
▁수록곡	-10602
▁딸을	-10603
HE	-10604
▁관장	-10605
▁로즈	-10606
▁힘입	-10607
▁에이스	-10608
시부터	-10609
▁학교에서	-10610
▁매개	-10611
▁성모	-10612
▁소환	-10613
▁신규	-10614
▁영상을	-10615
▁나라에서	-10616
▁Te	-10617
저의	-10618
▁그로	-10619
▁관리하고	-10620
▁생각하는	-10621
의정	-10622
회장	-10623
▁관중	-10624
▁일도	-10625
▁실질적인	-10626
▁활동은	-10627
▁내았다	-10628
동시	-10629
ark	-10630
ᄆ이	-10631
▁손해	-10632
▁동명의	-10633
대교	-10634
자책	-10635
▁넘기	-10636
▁장려	-10637
칭을	-10638
▁중요하다	-10639
턴의	-10640
for	-10641
▁th	-10642
▁레논	-10643
▁방법이다	-10644
▁선구	-10645
▁공사를	-10646
▁거행	-10647
▁둥글ᆫ	-10648
▁플레이스테이션	-10649
유행	-10650
▁대학에	-10651
▁활약한	-10652
무스	-10653
▁It	-10654
유가	-10655
▁결혼하았다	-10656
▁모드	-10657
▁유한	-10658
과가	-10659
▁부분적으로	-10660
_9	-10661
보건	-10662
▁현저	-10663
▁맞지	-10664
▁계획에	-10665
▁별다른	-10666
▁일컫는	-10667
면에는	-10668
▁모방	-10669
▁전진	-10670
천은	-10671
▁정부로부터	-10672
인치	-10673
▁손자	-10674
▁닛폰	-10675
▁부부	-10676
내기	-10677
▁내린	-10678
양함	-10679
▁줄기	-10680
린이	-10681
▁충격을	-10682
▁등장하았다	-10683
▁해운	-10684
▁조금씩	-10685
▁화가	-10686
황을	-10687
▁놓은	-10688
▁부대를	-10689
고등학교를	-10690
란히	-10691
사리	-10692
석기	-10693
▁경비	-10694
청에	-10695
▁NBA	-10696
시로	-10697
주로	-10698
▁볼리	-10699
▁한쪽	-10700
▁해밀	-10701
각은	-10702
림을	-10703
려면	-10704
셰비	-10705
▁다리를	-10706
여성	-10707
ies	-10708
▁안쪽	-10709
▁진정	-10710
▁태종	-10711
▁성균관	-10712
▁오고	-10713
▁요소가	-10714
당하였다	-10715
▁전선	-10716
▁아사히	-10717
▁운동은	-10718
,7	-10719
▁들ᆫ	-10720
▁코무네	-10721
▁해를	-10722
▁아제르바이잔	-10723
▁발원	-10724
▁회고	-10725
▁프랭크	-10726
▁생각하고	-10727
▁의회는	-10728
▁주석	-10729
▁페어	-10730
스트리	-10731
▁알리었다	-10732
▁군단	-10733
▁돼지	-10734
▁담당하고	-10735
그로	-10736
포구	-10737
는가	-10738
▁문서는	-10739
▁성립한다	-10740
▁올	-10741
▁정렬	-10742
▁맵	-10743
▁구릉	-10744
▁포로	-10745
▁라트비아	-10746
▁즈음	-10747
▁조선인	-10748
FM	-10749
▁공직	-10750
▁그중	-10751
▁왜냐	-10752
▁우울	-10753
▁시흥	-10754
▁존중	-10755
년동안	-10756
▁적도	-10757
inc	-10758
▁왕자	-10759
▁일요일	-10760
봉을	-10761
▁서쪽에	-10762
▁시내버스	-10763
▁학자들은	-10764
나가았다	-10765
▁애틀랜	-10766
▁승인을	-10767
▁유격	-10768
빈은	-10769
▁건너어	-10770
▁정리한	-10771
~20	-10772
▁선수들이	-10773
▁양식을	-10774
▁점으로	-10775
각이	-10776
▁만나게	-10777
▁중심기압	-10778
▁넣었다	-10779
톨레	-10780
▁SP	-10781
▁노비	-10782
쥐과에	-10783
채를	-10784
▁둘러싸고	-10785
,5	-10786
풍의	-10787
▁참고로	-10788
▁펼치었다	-10789
시안	-10790
▁투구	-10791
브의	-10792
ft	-10793
극장	-10794
▁충주	-10795
▁사이가	-10796
▁솟	-10797
▁Co	-10798
▁잭슨	-10799
▁앨범이다	-10800
▁일어나자	-10801
▁이루어지지	-10802
▁않았다고	-10803
나우	-10804
보안	-10805
약품	-10806
짜리	-10807
▁경험이	-10808
▁부대는	-10809
▁진행된다	-10810
하았음을	-10811
기사	-10812
▁개화	-10813
▁좌표	-10814
▁주차	-10815
▁나고	-10816
▁등장인물	-10817
▁펜실베이	-10818
▁만나았다	-10819
▁보완	-10820
▁전함	-10821
마르크	-10822
▁고양이	-10823
▁지역구	-10824
▁군대의	-10825
▁본사는	-10826
아지	-10827
▁사원	-10828
니까	-10829
▁명에	-10830
▁스타일	-10831
▁칭호를	-10832
▁부적	-10833
▁총재	-10834
▁곡이	-10835
▁하드웨어	-10836
참모	-10837
하우	-10838
▁전제	-10839
▁스케이팅	-10840
▁데뷔를	-10841
▁98	-10842
▁경부	-10843
▁메인	-10844
▁충북	-10845
프랑스	-10846
▁되돌아	-10847
ran	-10848
▁팔ᆫ	-10849
간이	-10850
클랜드	-10851
▁나쁜	-10852
▁음악의	-10853
▁선수를	-10854
리그에서	-10855
▁활동하았으며	-10856
▁사토	-10857
카를	-10858
CD	-10859
nt	-10860
▁회사를	-10861
만원	-10862
위안	-10863
▁탈환	-10864
▁할리우	-10865
▁진출을	-10866
▁체포되어	-10867
▁관할하는	-10868
하임	-10869
▁벌ᆫ	-10870
▁유언	-10871
어질	-10872
▁물고기	-10873
▁죽어	-10874
▁건물로	-10875
▁귀중한	-10876
▁단위로	-10877
▁거리는	-10878
▁한미	-10879
▁게이트	-10880
▁웨일스	-10881
▁이에야	-10882
▁규모는	-10883
▁준비를	-10884
하였다가	-10885
▁탤	-10886
소득	-10887
▁고시	-10888
▁어휘	-10889
▁춘천	-10890
▁육성	-10891
▁이진	-10892
▁헤드	-10893
▁휴스턴	-10894
▁영어로	-10895
▁시점에서	-10896
일체	-10897
방은	-10898
▁대상을	-10899
▁요구하았다	-10900
▁멋	-10901
가들이	-10902
ile	-10903
▁mm	-10904
▁대웅	-10905
버스터미널	-10906
MA	-10907
▁낼	-10908
▁목사	-10909
▁비싸	-10910
▁상상	-10911
▁시에	-10912
▁사회를	-10913
▁여기에서	-10914
▁추정되는	-10915
▁시절에는	-10916
미쓰	-10917
▁공인	-10918
▁배구	-10919
도마뱀	-10920
▁사이드	-10921
▁동쪽에	-10922
▁최후의	-10923
증으로	-10924
▁비용을	-10925
▁경기에서는	-10926
회담	-10927
▁아예	-10928
▁환원	-10929
▁데이터베이스	-10930
▁야간	-10931
▁연세	-10932
▁몸에	-10933
▁세계대	-10934
들이었다	-10935
▁딘	-10936
▁정신적	-10937
놓은	-10938
▁지정된	-10939
달라고	-10940
▁개그	-10941
▁상반	-10942
▁연구소	-10943
▁색을	-10944
▁중국과	-10945
되지는	-10946
▁kg	-10947
▁깨닫	-10948
년이다	-10949
▁프랑수아	-10950
▁음식을	-10951
소방	-10952
▁나눌	-10953
번은	-10954
화에서	-10955
▁이집트의	-10956
▁배우었다	-10957
▁그날	-10958
▁하락	-10959
사아	-10960
▁들어오ㅏ	-10961
▁억압	-10962
▁직선	-10963
▁탐지	-10964
▁권고	-10965
▁남한	-10966
링은	-10967
▁결정적인	-10968
▁용어를	-10969
▁LP	-10970
▁디오	-10971
▁서사	-10972
▁트루	-10973
수록	-10974
▁존재하며	-10975
▁중에서는	-10976
메라	-10977
지를	-10978
▁왕은	-10979
권에서	-10980
▁서식하는	-10981
▁갇	-10982
▁cm	-10983
▁호랑	-10984
▁얻고	-10985
▁견디	-10986
차와	-10987
▁새누리	-10988
▁부족한	-10989
나스	-10990
다지	-10991
만명	-10992
실험	-10993
▁닌텐도	-10994
xt	-10995
정당	-10996
▁다항	-10997
▁아부	-10998
▁전압	-10999
척의	-11000
▁유죄	-11001
▁평면	-11002
▁국가로	-11003
▁2,000	-11004
▁국가는	-11005
▁신호를	-11006
▁일본을	-11007
▁시작하였고	-11008
ide	-11009
▁송시	-11010
▁요미우리	-11011
▁중간에	-11012
▁밑에서	-11013
나리	-11014
전선	-11015
▁관념	-11016
▁다녀	-11017
▁야당	-11018
ment	-11019
▁프랑스어	-11020
▁각본을	-11021
▁사무실은	-11022
▁활동하는	-11023
▁편입되었다	-11024
▁에미	-11025
통이	-11026
▁샤를	-11027
대회에서	-11028
▁제외하면	-11029
▁알제	-11030
실과	-11031
▁높고	-11032
지역의	-11033
▁승리한	-11034
▁거느리고	-11035
▁있으면서	-11036
▁기회	-11037
▁뛰어	-11038
▁조선인민	-11039
시에는	-11040
▁비판하았다	-11041
▁인플	-11042
▁파스	-11043
게이머	-11044
▁시설을	-11045
▁기점으로	-11046
벤처	-11047
자르	-11048
▁대관	-11049
▁번식	-11050
▁역설	-11051
▁우라늄	-11052
▁연결된	-11053
노	-11054
▁턱	-11055
▁임기	-11056
▁부동산	-11057
▁기리기	-11058
▁초반에	-11059
▁하더라도	-11060
▁단단	-11061
▁코어	-11062
▁배치되어	-11063
▁변경하였다	-11064
니시	-11065
▁산소	-11066
▁신임	-11067
▁2.0	-11068
녀를	-11069
▁사건이다	-11070
▁카자흐스탄	-11071
▁하나이며	-11072
▁않는다고	-11073
기니	-11074
▁위임	-11075
창을	-11076
거리는	-11077
▁발매하였다	-11078
▁합치어	-11079
▁엽	-11080
▁쥬	-11081
▁62	-11082
▁계몽	-11083
▁제사	-11084
▁피에	-11085
박한	-11086
▁쇼와	-11087
강에서	-11088
▁하나이었다	-11089
국장	-11090
릴라	-11091
▁구동	-11092
▁김경	-11093
▁시초	-11094
▁동아일보	-11095
원들은	-11096
목적	-11097
▁마루	-11098
▁연호	-11099
▁정사	-11100
▁카롤	-11101
▁중의원	-11102
▁팀인	-11103
▁겪었다	-11104
▁쓰이었다	-11105
공산당	-11106
베트남	-11107
타와	-11108
▁이산화	-11109
▁띠고	-11110
▁보지	-11111
▁관하아	-11112
▁시스템이	-11113
▁옌	-11114
열대	-11115
▁빌	-11116
▁추출	-11117
▁엔진은	-11118
▁호평을	-11119
▁참여하는	-11120
▁방송되었다	-11121
구르	-11122
▁가짜	-11123
▁신념	-11124
▁도착한	-11125
▁여성이	-11126
▁왜냐하면	-11127
▁아일랜드의	-11128
▁얻는다	-11129
▁여신	-11130
▁자금을	-11131
▁펜실베이니아	-11132
▁지적하았다	-11133
▁햇	-11134
▁기습	-11135
층이	-11136
▁아미노	-11137
▁자체는	-11138
▁놀랍	-11139
▁주류	-11140
▁허브	-11141
▁최상위	-11142
▁선수이며	-11143
▁고수	-11144
▁총대	-11145
▁출산	-11146
▁감정을	-11147
노가	-11148
구성	-11149
▁더글	-11150
학적으로	-11151
▁이야기는	-11152
▁종은	-11153
▁도입되었다	-11154
▁셸	-11155
▁강과	-11156
▁통칭	-11157
타리	-11158
▁경사	-11159
▁도주	-11160
▁125	-11161
▁마을의	-11162
▁왕위에	-11163
▁블라디미르	-11164
▁지방을	-11165
도리	-11166
▁//	-11167
▁얼음	-11168
▁위장	-11169
▁테이블	-11170
▁문화체육	-11171
▁기름	-11172
▁추격	-11173
▁기술의	-11174
즈에서	-11175
▁차원에서	-11176
포로	-11177
▁라파	-11178
위원장	-11179
▁앨범의	-11180
▁리틀	-11181
▁국방부	-11182
▁월드컵에서	-11183
▁선보이었다	-11184
시에	-11185
▁몰래	-11186
▁담긴	-11187
▁기능은	-11188
법제	-11189
▁굉장히	-11190
▁찾아볼	-11191
▁거친	-11192
▁특징이	-11193
▁낱말	-11194
▁해변	-11195
▁밑에	-11196
▁고려대학교	-11197
▁종으로	-11198
▁생산하는	-11199
▁마하	-11200
▁순회	-11201
▁토요	-11202
▁천문학	-11203
▁것보다	-11204
▁시장을	-11205
▁태도를	-11206
네ㄴ	-11207
라브	-11208
▁괴롭	-11209
▁통틀	-11210
각의	-11211
모와	-11212
▁전투기	-11213
▁시즌이	-11214
▁실리어	-11215
▁아는	-11216
▁지식을	-11217
▁계속되었다	-11218
▁구제	-11219
▁조명	-11220
감과	-11221
▁RNA	-11222
▁논문을	-11223
▁사망하고	-11224
▁헐	-11225
벌레	-11226
▁AK	-11227
▁초과	-11228
택을	-11229
▁기반의	-11230
▁생각한다	-11231
▁빨간	-11232
▁수업	-11233
▁초등	-11234
밖에	-11235
▁AR	-11236
▁안보	-11237
▁마을을	-11238
면서도	-11239
의학	-11240
▁원리	-11241
거리를	-11242
▁대신하여	-11243
▁민족문제연구	-11244
▁림	-11245
▁고치	-11246
원숭이	-11247
찬을	-11248
▁시계	-11249
방에서	-11250
위원으로	-11251
▁결정되었다	-11252
▁평균자책	-11253
▁힘입어	-11254
▁수술을	-11255
▁자리잡고	-11256
▁돋	-11257
▁서정	-11258
▁오오	-11259
▁조달	-11260
▁집계	-11261
▁채무	-11262
▁협의	-11263
연구원	-11264
▁업적을	-11265
▁그치었다	-11266
센	-11267
rom	-11268
▁어항	-11269
▁한계	-11270
작의	-11271
시키며	-11272
▁신설되었다	-11273
채널	-11274
▁설탕	-11275
▁정면	-11276
야가	-11277
▁와중에	-11278
▁최근의	-11279
▁문장	-11280
▁비추	-11281
님이	-11282
▁만의	-11283
층을	-11284
▁띤다	-11285
▁밀접한	-11286
▁섬은	-11287
▁조건이	-11288
운드를	-11289
▁의식을	-11290
▁중단되었다	-11291
▁최하	-11292
▁이긴	-11293
▁주지	-11294
열은	-11295
▁장치를	-11296
외선	-11297
▁거칠	-11298
▁오바	-11299
▁위탁	-11300
▁여름에	-11301
▁이래로	-11302
보도	-11303
▁무승	-11304
▁이윤	-11305
▁초연	-11306
▁학위	-11307
▁잎은	-11308
▁환경을	-11309
▁변수	-11310
ㅓ서	-11311
가게	-11312
종과	-11313
▁쓰기	-11314
▁67	-11315
iver	-11316
ound	-11317
▁생각할	-11318
박사	-11319
▁미노	-11320
▁범위	-11321
▁쇼군	-11322
▁수동	-11323
▁105	-11324
▁순수한	-11325
나가는	-11326
왕으로	-11327
▁시호를	-11328
▁기록하는	-11329
▁넬	-11330
기스	-11331
리조	-11332
ory	-11333
▁성주	-11334
▁탄	-11335
▁통행	-11336
▁밤에	-11337
▁빠진	-11338
▁대회에서는	-11339
▁인물이	-11340
▁쉐	-11341
마일	-11342
물질	-11343
캐롤	-11344
지방선거	-11345
▁자세한	-11346
▁것인데	-11347
▁성별	-11348
▁체인	-11349
▁붙은	-11350
▁의미의	-11351
▁조선일보	-11352
▁학교에	-11353
▁취재	-11354
▁공로로	-11355
기지	-11356
작이	-11357
▁넣고	-11358
▁위기를	-11359
▁버리었다	-11360
서로	-11361
▁시점	-11362
크에	-11363
▁관리하는	-11364
▁놓았다	-11365
▁두개	-11366
▁재현	-11367
하게도	-11368
▁복제	-11369
대한민	-11370
▁구는	-11371
▁북부의	-11372
씨로	-11373
▁뜨겁ᆫ	-11374
▁소관의	-11375
~5	-11376
국사	-11377
are	-11378
▁매입	-11379
▁청원	-11380
▁민사	-11381
가이자	-11382
그레	-11383
▁비유	-11384
▁조선로동	-11385
만여	-11386
▁시골	-11387
▁주지	-11388
▁최적	-11389
망이	-11390
증은	-11391
▁싱글로	-11392
▁주장한	-11393
▁것으로서	-11394
▁먹이를	-11395
▁생각하아	-11396
▁결코	-11397
▁표명	-11398
▁가게	-11399
▁베어	-11400
▁코스타	-11401
원들이	-11402
▁인접한	-11403
▁대한민국에	-11404
▁봉쇄	-11405
▁신한	-11406
교에	-11407
철의	-11408
▁장관을	-11409
▁Le	-11410
▁대피	-11411
▁컬러	-11412
▁비가	-11413
선이다	-11414
준다	-11415
방으로	-11416
▁투옥	-11417
놓고	-11418
▁시장에	-11419
▁저명한	-11420
오고	-11421
▁근처에서	-11422
▁앙리	-11423
▁애비	-11424
▁연령	-11425
▁플랑	-11426
▁협약	-11427
▁힘들ᆫ	-11428
▁무기를	-11429
▁프로게이머	-11430
▁$	-11431
말라	-11432
▁재무	-11433
▁한스	-11434
▁알코올	-11435
▁통일신	-11436
▁문화방송	-11437
▁회사가	-11438
▁크리스토퍼	-11439
터널	-11440
▁아담	-11441
▁캠프	-11442
급을	-11443
▁철도의	-11444
▁부문에서	-11445
포드	-11446
▁낭만	-11447
▁불교의	-11448
▁자연스럽게	-11449
▁소셜	-11450
▁업그	-11451
가서	-11452
▁발을	-11453
▁이후부터	-11454
평화	-11455
▁설명하았다	-11456
학원	-11457
▁NC	-11458
▁마약	-11459
▁사자	-11460
▁이내	-11461
▁대통령에	-11462
▁자체를	-11463
▁고체	-11464
▁테레	-11465
▁폭스	-11466
▁사이버	-11467
강은	-11468
▁이후로는	-11469
▁앉아	-11470
▁직접적으로	-11471
▁도미	-11472
자들에	-11473
▁가수로	-11474
▁사이타마	-11475
▁프랑스와	-11476
▁개원	-11477
▁슬로베	-11478
계승	-11479
▁모친	-11480
▁부호	-11481
▁일본과	-11482
▁전통을	-11483
▁실패하였다	-11484
▁횟	-11485
▁두껍	-11486
▁부딪	-11487
▁1894	-11488
▁독립된	-11489
본으로	-11490
▁물질을	-11491
▁레바	-11492
통의	-11493
▁국내외	-11494
▁그레고	-11495
▁위험한	-11496
▁만나는	-11497
▁자동으로	-11498
▁사라지었다	-11499
▁만남	-11500
▁실패로	-11501
루션	-11502
▁지휘관	-11503
▁엄격한	-11504
▁이론의	-11505
▁Sp	-11506
▁네오	-11507
아와	-11508
프로그램	-11509
▁엿	-11510
▁모르는	-11511
▁시즌은	-11512
▁달성하았다	-11513
▁승격되었다	-11514
▁문명	-11515
▁사기	-11516
▁후궁	-11517
▁경찰은	-11518
미스	-11519
▁가축	-11520
▁장성	-11521
▁가마쿠라	-11522
▁유래한	-11523
이론	-11524
▁즉각	-11525
▁진군	-11526
▁희귀	-11527
▁도시가	-11528
▁사람과	-11529
누스는	-11530
▁지구에서	-11531
▁마츠	-11532
▁보전	-11533
액은	-11534
시즘	-11535
학이	-11536
▁마음이	-11537
▁자신도	-11538
▁친일인명사전	-11539
TS	-11540
▁비평	-11541
▁할머니	-11542
야를	-11543
운을	-11544
화이다	-11545
▁참여하고	-11546
어족	-11547
▁궁극	-11548
▁예배	-11549
▁임용	-11550
▁바티칸	-11551
▁심리학	-11552
▁제안을	-11553
▁이어진다	-11554
▁이경	-11555
▁전도	-11556
▁회계	-11557
고와	-11558
▁도미니	-11559
ㅓㅆ다	-11560
▁소속된	-11561
▁회사이다	-11562
▁뉴욕에서	-11563
하았습니다	-11564
학과	-11565
▁법조	-11566
▁스톡	-11567
▁다양하다	-11568
▁제국을	-11569
▁부지	-11570
▁성취	-11571
▁시뮬	-11572
▁스미스	-11573
▁시로	-11574
병은	-11575
▁제사를	-11576
▁서재	-11577
▁디비시	-11578
▁구간을	-11579
▁디자인을	-11580
▁출전하였다	-11581
▁국소	-11582
▁주소	-11583
▁통영	-11584
▁CON	-11585
▁프랑크푸르트	-11586
▁우주의	-11587
▁직전에	-11588
▁짙은	-11589
▁팜	-11590
▁안성	-11591
▁이케	-11592
▁가지며	-11593
▁섬으로	-11594
교수	-11595
플렉	-11596
▁인터페이스	-11597
왕조	-11598
▁78	-11599
▁미즈	-11600
풍으로	-11601
▁그러던	-11602
▁덧붙이어	-11603
무역	-11604
man	-11605
▁동인	-11606
▁그래프	-11607
▁후한	-11608
▁리투아니아	-11609
▁그리스도의	-11610
정원	-11611
▁믿고	-11612
▁규모로	-11613
▁가죽	-11614
▁구출	-11615
▁센	-11616
▁질량은	-11617
▁런던에서	-11618
ng	-11619
효소	-11620
▁받침	-11621
▁영조	-11622
▁제압	-11623
▁측의	-11624
▁리가	-11625
애를	-11626
▁다룬다	-11627
▁그랜	-11628
한이	-11629
▁거기서	-11630
크에서	-11631
희가	-11632
멘트	-11633
슬리	-11634
▁is	-11635
츠를	-11636
수리	-11637
omp	-11638
▁밀리	-11639
▁이식	-11640
디가	-11641
▁분명히	-11642
▁기록하았고	-11643
▁어긋	-11644
▁적고	-11645
▁모델이	-11646
▁이름인	-11647
함마	-11648
▁화석	-11649
이시	-11650
▁캄보디아	-11651
위원회를	-11652
▁하ᄆ으로써	-11653
▁고백	-11654
▁다투	-11655
▁문법	-11656
▁호위	-11657
▁보인	-11658
▁주장은	-11659
▁역에	-11660
▁요청을	-11661
학교에서	-11662
빈	-11663
푸스	-11664
▁로저	-11665
▁축하	-11666
▁패키	-11667
▁개발이	-11668
▁월드컵에	-11669
▁크리스마스	-11670
▁스스로를	-11671
▁있었을	-11672
▁선언하였다	-11673
▁빈곤	-11674
▁제프	-11675
▁지점	-11676
▁포르투갈의	-11677
리즘	-11678
소녀	-11679
훈장	-11680
ert	-11681
▁간호	-11682
▁인격	-11683
▁재혼	-11684
▁제독	-11685
▁2.5	-11686
▁휠	-11687
▁석가	-11688
이어	-11689
▁세션	-11690
▁하우	-11691
▁김일성	-11692
▁장군의	-11693
▁전체에	-11694
레스는	-11695
▁상태이었다	-11696
▁외교관	-11697
▁나오지	-11698
▁방식이	-11699
▁되었다가	-11700
~4	-11701
앤	-11702
▁개교	-11703
▁그냥	-11704
▁수습	-11705
▁지능	-11706
▁태평	-11707
▁풀려	-11708
▁세상에	-11709
▁톤	-11710
연방	-11711
▁문재인	-11712
▁교황의	-11713
▁그리스어	-11714
▁받아들이어	-11715
▁이루어지는	-11716
▁숭배	-11717
▁여주	-11718
카가	-11719
▁비로소	-11720
▁토요일	-11721
▁사고가	-11722
책으로	-11723
▁어머니의	-11724
▁아니라고	-11725
래스	-11726
레타	-11727
ial	-11728
▁협박	-11729
월과	-11730
▁프레스	-11731
작이다	-11732
주의가	-11733
▁이유를	-11734
총장	-11735
ign	-11736
▁마스	-11737
▁제트	-11738
▁구스타	-11739
군이다	-11740
▁출전한	-11741
TA	-11742
▁리우	-11743
▁시즈	-11744
타아	-11745
가지의	-11746
욕을	-11747
▁여부를	-11748
▁더불어민주당	-11749
▁양주	-11750
루미늄	-11751
림의	-11752
▁블로그	-11753
▁오프닝	-11754
▁버전의	-11755
▁건너가아	-11756
▁프로그램이	-11757
ich	-11758
▁대거	-11759
▁명성	-11760
▁샘플	-11761
▁시가	-11762
▁일컫는다	-11763
액의	-11764
▁1890	-11765
▁존재하았던	-11766
집이	-11767
▁반하아	-11768
▁북쪽의	-11769
▁속도는	-11770
코르	-11771
▁61	-11772
▁76	-11773
▁기르	-11774
▁뒤집	-11775
▁조리	-11776
왕과	-11777
등으로	-11778
▁비난을	-11779
방울	-11780
▁분화	-11781
▁순교	-11782
▁나아	-11783
▁프로레	-11784
▁부유한	-11785
▁황제로	-11786
▁그룹이다	-11787
▁지정하여	-11788
▁골프	-11789
▁인문	-11790
▁쫓겨	-11791
▁부드럽	-11792
▁일리노	-11793
▁들어온	-11794
~2	-11795
예정	-11796
▁발트	-11797
▁엄격	-11798
▁피고	-11799
절한	-11800
▁승부차	-11801
▁감독과	-11802
▁다운로드	-11803
▁도는	-11804
▁변화에	-11805
▁수도인	-11806
▁중국에	-11807
▁환경에	-11808
▁줄이어서	-11809
평군	-11810
▁토르	-11811
▁베네딕	-11812
▁베트남의	-11813
▁등지에서	-11814
인권	-11815
줄	-11816
풍속	-11817
▁랜드	-11818
▁아인	-11819
▁점에	-11820
▁1898	-11821
▁형태이다	-11822
▁잃었다	-11823
ond	-11824
▁단기	-11825
▁롤링	-11826
▁초월	-11827
▁이벤트	-11828
▁설명한다	-11829
▁마우	-11830
▁야쿠	-11831
▁전속	-11832
▁배우로	-11833
박쥐는	-11834
▁어머니가	-11835
▁아홉	-11836
년대의	-11837
▁인근의	-11838
▁킨	-11839
글리	-11840
▁공모	-11841
▁상용	-11842
▁진급	-11843
미에	-11844
준의	-11845
▁산다	-11846
▁차이는	-11847
▁베니	-11848
▁부사	-11849
▁입원	-11850
▁증손	-11851
더니	-11852
▁크어	-11853
▁언어의	-11854
▁온타리오	-11855
▁전하아	-11856
▁프로듀싱	-11857
▁요구를	-11858
▁특징으로	-11859
▁프로젝트를	-11860
▁la	-11861
▁로이	-11862
프라이	-11863
운동에	-11864
▁기록하아	-11865
▁사회에서	-11866
글로	-11867
선생	-11868
열차	-11869
▁양도	-11870
▁이남	-11871
▁나가아	-11872
▁불리게	-11873
▁코무네이다	-11874
케	-11875
▁#	-11876
대책	-11877
정신	-11878
▁바치	-11879
▁연쇄	-11880
▁용이	-11881
▁증후	-11882
▁춘추	-11883
크어	-11884
▁노란색	-11885
▁소행성	-11886
스트로	-11887
▁말기의	-11888
▁경우에도	-11889
▁모형	-11890
▁상처	-11891
▁아랫	-11892
▁두려워	-11893
▁내부에	-11894
▁경상남도의	-11895
르노	-11896
약성	-11897
▁말씀	-11898
▁맥스	-11899
▁불평	-11900
▁선이	-11901
▁향하는	-11902
▁문화체육관광	-11903
▁진흥	-11904
▁보일	-11905
▁깎	-11906
▁넣은	-11907
▁이어진	-11908
▁일종으로	-11909
]],	-11910
act	-11911
▁본인의	-11912
▁투표를	-11913
▁전인	-11914
▁관련한	-11915
▁느낌을	-11916
칼라	-11917
▁김현	-11918
▁냉각	-11919
현으로	-11920
▁밴드이다	-11921
-18	-11922
권도	-11923
즈로	-11924
▁바이오	-11925
▁프톨레	-11926
▁적극적인	-11927
▁왓	-11928
▁공민	-11929
▁불편	-11930
▁오리콘	-11931
▁북부에	-11932
▁일이다	-11933
▁원인은	-11934
▁블랙홀	-11935
▁획득한	-11936
▁것인가	-11937
▁과거에는	-11938
인간	-11939
께서	-11940
저를	-11941
▁공격에	-11942
▁빌리어	-11943
▁콘스탄티노폴리스	-11944
코쿠	-11945
하루	-11946
▁be	-11947
▁경신	-11948
▁장학	-11949
사령관	-11950
일이다	-11951
▁기간을	-11952
▁표현을	-11953
▁불확	-11954
▁옥스	-11955
▁컨셉	-11956
집에	-11957
▁물러나았다	-11958
국어	-11959
▁유대인	-11960
▁직면	-11961
▁평일	-11962
▁합창	-11963
반은	-11964
▁부분의	-11965
암으로	-11966
회의에서	-11967
ass	-11968
▁폭넓	-11969
기독교	-11970
▁에스토니아	-11971
▁유지하는	-11972
어리	-11973
▁결론	-11974
▁선물	-11975
▁영문	-11976
수용	-11977
▁96	-11978
▁물건	-11979
▁게르만	-11980
▁바른	-11981
▁제도가	-11982
▁지방자치	-11983
▁프로리그	-11984
▁관리를	-11985
▁방식이다	-11986
▁섬에서	-11987
▁가져오았다	-11988
▁뭉	-11989
순위	-11990
▁CF	-11991
▁바퀴	-11992
▁트래	-11993
한은	-11994
▁카를로스	-11995
▁나가는	-11996
▁가량	-11997
▁우편	-11998
▁10%	-11999
▁중추원	-12000
▁뉴저	-12001
▁히라	-12002
▁의미에서	-12003
팀의	-12004
▁기술은	-12005
▁아버지를	-12006
Hz	-12007
의료	-12008
▁존속	-12009
▁주민들이	-12010
카가	-12011
▁터뜨	-12012
측에	-12013
▁World	-12014
▁관직을	-12015
스로	-12016
차량	-12017
▁지주	-12018
▁처녀	-12019
▁천도	-12020
▁2-1	-12021
▁지고	-12022
▁종류가	-12023
▁대학교에	-12024
▁회의를	-12025
▁제곱	-12026
▁딸인	-12027
▁속하며	-12028
▁기업이다	-12029
▁보호를	-12030
▁에티오피아	-12031
▁맏	-12032
▁봉안	-12033
▁구할	-12034
▁크레이	-12035
링을	-12036
▁시기를	-12037
정리	-12038
▁우승한	-12039
▁타이틀곡	-12040
법칙	-12041
재단	-12042
▁우즈베	-12043
▁책의	-12044
▁테니스	-12045
▁준우승을	-12046
▁지휘하는	-12047
▁정도이었다	-12048
▁내전	-12049
▁사모	-12050
▁자문	-12051
▁끌어들	-12052
▁이끌ᆫ	-12053
▁왕국을	-12054
▁정신을	-12055
▁시트	-12056
▁아크	-12057
▁연기를	-12058
운영	-12059
▁초록	-12060
▁페리	-12061
▁문과에	-12062
▁환경에서	-12063
사기	-12064
서비스	-12065
악한	-12066
▁런던의	-12067
▁최악의	-12068
폭력	-12069
▁HT	-12070
▁난민	-12071
▁라마	-12072
▁봉건	-12073
▁일컬	-12074
미로	-12075
일으키	-12076
▁101	-12077
▁성장을	-12078
▁해상에서	-12079
▁맑	-12080
널티	-12081
블리	-12082
천여	-12083
토르	-12084
▁감싸	-12085
▁타이베이	-12086
▁선거는	-12087
▁데스	-12088
▁정밀	-12089
▁케냐	-12090
▁말의	-12091
▁미얀마	-12092
▁선정한	-12093
▁성격이	-12094
▁이루어지	-12095
▁협상을	-12096
동시지방선거	-12097
▁이름에서	-12098
느러	-12099
슬러	-12100
▁상트	-12101
▁최후	-12102
검찰청	-12103
먼드	-12104
방위	-12105
▁방패	-12106
바이트	-12107
▁루이지	-12108
국제공항	-12109
측은	-12110
▁가톨릭교회	-12111
▁인터내셔널	-12112
▁시리즈를	-12113
▁펌	-12114
아파	-12115
▁거울	-12116
▁옹립	-12117
▁것ᆫ축	-12118
▁드물ᆫ	-12119
▁결성된	-12120
▁않으나	-12121
▁왕복	-12122
▁존경	-12123
▁흥선	-12124
▁인정하고	-12125
▁네팔	-12126
▁말아	-12127
▁시와	-12128
▁장거리	-12129
▁의회의	-12130
▁체코슬로	-12131
▁피해가	-12132
정에서	-12133
▁없어서	-12134
▁브뤼	-12135
▁젊은	-12136
▁메시지를	-12137
붙이	-12138
이즈	-12139
▁감행	-12140
▁부서	-12141
▁선사	-12142
천이	-12143
▁붙인	-12144
퍼는	-12145
문에서	-12146
테르부르크	-12147
DS	-12148
▁덤	-12149
생명	-12150
아미	-12151
▁SE	-12152
▁기자회	-12153
▁날에	-12154
▁많으며	-12155
코와	-12156
불교의	-12157
▁진행되고	-12158
▁안에는	-12159
▁치르어진	-12160
▁신중	-12161
거를	-12162
▁차량은	-12163
가면서	-12164
▁노르웨이의	-12165
▁형성한다	-12166
로부터의	-12167
신경	-12168
지휘	-12169
▁노트	-12170
▁신선	-12171
▁중기	-12172
▁갈등을	-12173
▁그룹은	-12174
▁부분으로	-12175
▁얹	-12176
체제	-12177
▁사슬	-12178
▁소지	-12179
▁기사를	-12180
▁기록하면서	-12181
▁냄	-12182
▁비주	-12183
값을	-12184
▁아시안컵	-12185
▁터키의	-12186
lo	-12187
서원	-12188
아스	-12189
태후	-12190
▁시외	-12191
반이	-12192
군단	-12193
▁제주도	-12194
▁확실히	-12195
▁두는	-12196
▁수상한	-12197
▁쇄	-12198
덕션	-12199
모르	-12200
▁이준	-12201
▁출처	-12202
▁펠리	-12203
병에	-12204
셈부르크	-12205
▁임시정부	-12206
▁미국을	-12207
▁그들에게	-12208
▁옳	-12209
▁CR	-12210
▁그루	-12211
▁김규	-12212
▁합작	-12213
▁존재가	-12214
▁아래는	-12215
대학교에서	-12216
산리	-12217
올로	-12218
lic	-12219
▁아기	-12220
▁시위를	-12221
▁일하는	-12222
▁중앙위원회	-12223
상규	-12224
▁서초	-12225
▁나폴리	-12226
▁독일어	-12227
▁이유가	-12228
▁급제하여	-12229
▁고령	-12230
▁지켜	-12231
▁주식회	-12232
▁평범한	-12233
▁크리스티안	-12234
▁제주특별자치도	-12235
디나	-12236
매매	-12237
▁쫓아	-12238
▁커널	-12239
▁최대한	-12240
▁1899	-12241
▁주민들은	-12242
urn	-12243
▁디렉	-12244
▁북구	-12245
▁사범	-12246
▁노동조합	-12247
▁본사를	-12248
▁차량을	-12249
▁행사를	-12250
▁정치인으로	-12251
▁제기되었다	-12252
라이어	-12253
항이	-12254
전문학교	-12255
▁남쪽의	-12256
협력	-12257
▁건의	-12258
▁고민	-12259
▁무상	-12260
▁산림	-12261
▁술을	-12262
▁설명하는	-12263
그러	-12264
▁교역	-12265
▁김씨	-12266
▁양호	-12267
▁추기경	-12268
▁머무르었다	-12269
▁광장	-12270
▁암시	-12271
▁피츠	-12272
감한	-12273
▁말기에	-12274
▁자유주의	-12275
▁공익	-12276
▁등극	-12277
▁만일	-12278
▁일명	-12279
▁자택	-12280
▁떠오르	-12281
▁남부에	-12282
▁알루미늄	-12283
▁지구와	-12284
▁헌법재판	-12285
▁존재하고	-12286
▁자격으로	-12287
▁상류	-12288
▁소금	-12289
▁유교	-12290
▁최연	-12291
▁선거구	-12292
▁중국어	-12293
▁목을	-12294
▁적합한	-12295
▁대한민국은	-12296
ens	-12297
▁밀집	-12298
▁상장	-12299
▁한명	-12300
▁헤라	-12301
있었다	-12302
▁오르았고	-12303
죠	-12304
▁축출	-12305
▁개념이	-12306
▁뭐	-12307
▁소매	-12308
▁입자	-12309
▁컴퍼	-12310
▁딸로	-12311
▁끊임없이	-12312
▁팀으로	-12313
▁지내었고	-12314
테	-12315
▁가지가	-12316
▁학교의	-12317
▁시즌이다	-12318
하자는	-12319
_11	-12320
▁극동	-12321
라에	-12322
▁드물게	-12323
▁이론에	-12324
▁프톨레마이	-12325
▁시장에서	-12326
한	-12327
▁해소	-12328
표는	-12329
▁니콜라이	-12330
▁보유한	-12331
IG	-12332
LS	-12333
시청	-12334
언어	-12335
▁태우	-12336
▁자유롭ᆫ	-12337
색과	-12338
▁독일이	-12339
▁선거구이다	-12340
OU	-12341
대왕	-12342
지능	-12343
▁축적	-12344
열에	-12345
프로스	-12346
▁뒷받침	-12347
▁시베리아	-12348
▁제목의	-12349
▁기독교의	-12350
▁패배를	-12351
▁시리즈는	-12352
▁역임하았으며	-12353
▁오노	-12354
감은	-12355
▁낸다	-12356
▁문제의	-12357
▁추측된다	-12358
▁미치었다	-12359
▁복귀하였다	-12360
▁닦	-12361
▁시범	-12362
▁조언	-12363
돌을	-12364
위이다	-12365
▁결혼하였다	-12366
▁나주	-12367
▁왕세	-12368
▁흔한	-12369
▁별명을	-12370
LE	-12371
▁도라	-12372
▁줄무늬	-12373
▁꽃은	-12374
지로	-12375
타우	-12376
▁승계	-12377
▁척추	-12378
▁홈구	-12379
스카르	-12380
지도	-12381
▁스탈린	-12382
▁물질의	-12383
▁독립적인	-12384
▁EC	-12385
▁We	-12386
키와	-12387
▁바오로	-12388
▁카리브	-12389
▁정부에서	-12390
대륙	-12391
▁응원	-12392
▁페널티	-12393
▁핀란드의	-12394
▁SU	-12395
▁당일	-12396
▁리뷰	-12397
▁맥도	-12398
▁실전	-12399
▁철도가	-12400
으려고	-12401
▁찾아가아	-12402
함수	-12403
▁중대	-12404
한테	-12405
▁싶은	-12406
▁놀이	-12407
▁양국	-12408
▁항소	-12409
네가	-12410
▁도카이	-12411
▁따온	-12412
▁버전이	-12413
▁차량이	-12414
▁회장을	-12415
▁비자	-12416
▁생겨나	-12417
▁얻지	-12418
▁1902	-12419
▁나머지는	-12420
하았으므로	-12421
▁스폰	-12422
▁카디	-12423
▁레바논	-12424
▁오하이오	-12425
▁미디	-12426
▁발현	-12427
▁방송되었던	-12428
금지	-12429
의사	-12430
하ㄴ	-12431
▁구축함	-12432
▁완벽한	-12433
강전	-12434
▁강연	-12435
▁본부	-12436
▁시바	-12437
▁3.1	-12438
근은	-12439
▁달한다	-12440
▁이천	-12441
▁존스	-12442
량과	-12443
▁몬스터	-12444
설은	-12445
이였	-12446
▁국제적인	-12447
▁강수량은	-12448
보기	-12449
▁광둥	-12450
▁쇼트	-12451
▁압둘	-12452
▁중공	-12453
▁광저우	-12454
▁종로구	-12455
▁민족주의	-12456
▁난징	-12457
▁이차	-12458
▁자오	-12459
▁구마모토	-12460
감으로	-12461
▁5,000	-12462
▁리그를	-12463
▁Pr	-12464
▁정서	-12465
▁제자	-12466
▁목표는	-12467
▁대교	-12468
▁케임	-12469
바른	-12470
▁용도로	-12471
▁들어간다	-12472
▁CJ	-12473
▁삼촌	-12474
▁직결	-12475
격은	-12476
▁별은	-12477
음으로	-12478
▁있기도	-12479
▁타격을	-12480
ary	-12481
▁00	-12482
▁신탁	-12483
▁플랜	-12484
달아	-12485
▁달아	-12486
▁일방	-12487
▁편곡	-12488
▁비판이	-12489
▁고구려의	-12490
▁69	-12491
▁동국	-12492
▁우르	-12493
▁독일과	-12494
▁아무도	-12495
▁육군의	-12496
사업을	-12497
▁이소	-12498
▁그래미	-12499
▁미시간	-12500
▁시리즈에서	-12501
ree	-12502
▁기각	-12503
▁원더	-12504
포로	-12505
▁막아	-12506
▁삼각형	-12507
▁아레나	-12508
▁문자를	-12509
▁일대를	-12510
▁DC	-12511
▁세속	-12512
▁가볍ᆫ	-12513
두를	-12514
▁토너먼트	-12515
▁한나라당	-12516
▁3,000	-12517
▁위치는	-12518
out	-12519
▁에밀	-12520
▁설치한	-12521
▁장면을	-12522
▁이용한다	-12523
▁처음부터	-12524
▁중산	-12525
▁퀘벡	-12526
감에	-12527
▁범유행	-12528
▁파이널	-12529
▁마음에	-12530
▁일리노이	-12531
▁가족은	-12532
▁단어는	-12533
▁고등학교를	-12534
▁루터	-12535
▁유로파	-12536
동이다	-12537
▁아래에서	-12538
▁알리어지게	-12539
대손	-12540
▁담배	-12541
▁래퍼	-12542
하ㅕㅆ	-12543
▁드러머	-12544
▁우크라이나	-12545
폭탄	-12546
▁마일	-12547
▁우호	-12548
▁청춘	-12549
▁카우	-12550
항의	-12551
▁New	-12552
▁역사에	-12553
▁총대주교	-12554
▁선수들을	-12555
었는지	-12556
정의	-12557
▁입성	-12558
▁블루스	-12559
▁전라도	-12560
▁진나라	-12561
고는	-12562
▁떨어지는	-12563
▁얽	-12564
▁분당	-12565
▁어른	-12566
▁침투	-12567
풍이	-12568
▁적히어	-12569
▁역임하고	-12570
▁데뷔하였고	-12571
▁벌어지었다	-12572
연료	-12573
실	-12574
▁갈수록	-12575
▁팀에서	-12576
▁구분된다	-12577
▁중요성을	-12578
net	-12579
▁리오	-12580
▁웹툰	-12581
▁팔라	-12582
▁하트	-12583
▁쌍둥이	-12584
▁JT	-12585
▁연꽃	-12586
무는	-12587
▁출신인	-12588
▁페르디난	-12589
▁헝가리의	-12590
▁교전	-12591
▁정조	-12592
▁뚜렷한	-12593
▁피하기	-12594
▁것이ᄆ을	-12595
푸르	-12596
hPa	-12597
▁GS	-12598
▁IM	-12599
▁배신	-12600
▁나올	-12601
하아주는	-12602
▁성분	-12603
▁안산	-12604
행의	-12605
▁대표적	-12606
▁업체	-12607
▁칸	-12608
지리	-12609
▁비치	-12610
▁일일	-12611
▁지형	-12612
▁추산	-12613
강이	-12614
칸의	-12615
▁그다지	-12616
▁담기어	-12617
▁조약에	-12618
▁추가적인	-12619
▁틸	-12620
투자	-12621
교육을	-12622
▁무성	-12623
▁아야	-12624
▁케빈	-12625
▁서유럽	-12626
▁자치구	-12627
▁한국은	-12628
세기부터	-12629
▁알리어지어있다	-12630
_15	-12631
▁미만	-12632
▁필사	-12633
▁성공회	-12634
▁히브리	-12635
▁난다	-12636
▁따른다	-12637
▁선수는	-12638
▁얼굴을	-12639
▁전국동시지방선거	-12640
▁헤비	-12641
▁135	-12642
▁부작용	-12643
▁잡은	-12644
▁프로그램에	-12645
▁낫	-12646
트륨	-12647
▁손꼽	-12648
▁제니	-12649
▁불러일으키	-12650
▁사망하자	-12651
▁결정하였다	-12652
었습니다	-12653
▁마인	-12654
▁물고	-12655
지지	-12656
▁교육의	-12657
▁없었기	-12658
발이	-12659
▁일으킬	-12660
▁어리어서	-12661
:0	-12662
▁러셀	-12663
▁사절	-12664
▁주사	-12665
▁때인	-12666
▁기초를	-12667
▁입장에서	-12668
!!	-12669
ach	-12670
▁국기	-12671
▁유년	-12672
▁포획	-12673
법이다	-12674
▁몫	-12675
검사	-12676
미즈	-12677
▁성서	-12678
▁자회사	-12679
▁협주곡	-12680
▁견해를	-12681
네시	-12682
▁메소	-12683
▁안토니오	-12684
▁용어로	-12685
이ᄆ에도	-12686
주쿠	-12687
▁대치	-12688
▁생략	-12689
▁수확	-12690
▁심의	-12691
▁쓰촨	-12692
▁완화	-12693
주머니	-12694
▁360	-12695
▁벌인	-12696
▁아라비아	-12697
▁일대에	-12698
하기가	-12699
▁역사적인	-12700
▁프랑스에	-12701
갈색	-12702
라톱	-12703
선	-12704
▁만성	-12705
▁소말	-12706
▁숫자	-12707
▁유동	-12708
▁간단히	-12709
▁곳의	-12710
▁경찰에	-12711
▁차량의	-12712
▁출시한	-12713
▁정하아진	-12714
▁캉	-12715
브스	-12716
히메	-12717
▁꼭짓	-12718
▁바빌	-12719
▁종속	-12720
▁표방	-12721
▁협동	-12722
장한	-12723
▁브로드	-12724
▁적지	-12725
▁장군이	-12726
▁것이ᄇ니다	-12727
▁옴	-12728
대구	-12729
▁고기	-12730
▁존슨	-12731
커의	-12732
▁연결된다	-12733
샤	-12734
▁날카	-12735
▁농림	-12736
불을	-12737
▁아리스토	-12738
▁사고를	-12739
▁슬로바키아	-12740
▁정도를	-12741
▁중화민국의	-12742
제작	-12743
▁촉매	-12744
반에	-12745
▁빛이	-12746
▁가족의	-12747
▁주도로	-12748
타니	-12749
▁주행	-12750
▁시칠리아	-12751
▁연구의	-12752
▁되었다는	-12753
미트	-12754
장치	-12755
▁신부	-12756
▁달이	-12757
▁아이치	-12758
▁패한	-12759
▁밝히고	-12760
▁음악에	-12761
▁계획이다	-12762
ey	-12763
▁왈	-12764
산물	-12765
샤바	-12766
스파	-12767
▁국군	-12768
▁단축	-12769
▁문예	-12770
▁수련	-12771
▁50%	-12772
▁몸이	-12773
▁발언을	-12774
▁아르헨티나의	-12775
드릭	-12776
황제	-12777
▁스트리트	-12778
대학교의	-12779
▁밖에도	-12780
▁비율은	-12781
쟁이	-12782
▁대합	-12783
▁법인	-12784
▁송나라	-12785
▁백색	-12786
내며	-12787
▁1-0	-12788
▁군대에	-12789
▁전역에	-12790
▁룩셈부르크	-12791
년하	-12792
통제	-12793
▁사살	-12794
저가	-12795
해와	-12796
▁넓게	-12797
▁쓰시마	-12798
▁무료로	-12799
▁발견하였다	-12800
,9	-12801
▁모서	-12802
▁1901	-12803
▁플라스틱	-12804
▁전체적인	-12805
▁되었던	-12806
드르	-12807
▁악기	-12808
▁오라	-12809
▁태극	-12810
▁피신	-12811
▁문화가	-12812
▁고통을	-12813
▁재능을	-12814
종교	-12815
티코	-12816
▁Sc	-12817
▁미하일	-12818
▁시절의	-12819
▁할아버지	-12820
▁언어는	-12821
▁불상	-12822
▁호조	-12823
두에	-12824
▁한성부	-12825
하길	-12826
▁총리가	-12827
▁잡았다	-12828
기계	-12829
판매	-12830
▁연금	-12831
▁더욱이	-12832
▁손가락	-12833
▁언급한	-12834
▁정보가	-12835
▁주장하며	-12836
▁진행하고	-12837
되어있다	-12838
들과는	-12839
▁만세	-12840
▁산란	-12841
운의	-12842
▁비율이	-12843
▁취하고	-12844
데스리가	-12845
▁병으로	-12846
ase	-12847
▁워터	-12848
품이	-12849
▁아열대	-12850
▁강점기의	-12851
▁전력을	-12852
▁바나	-12853
▁스캔	-12854
▁주체	-12855
▁레슬링	-12856
▁보니	-12857
▁승강장이	-12858
▁자신들이	-12859
도바	-12860
시키지	-12861
▁현재에	-12862
층으로	-12863
▁공부를	-12864
▁사랑하는	-12865
▁특집	-12866
▁기존에	-12867
▁대회가	-12868
▁국영	-12869
▁마야	-12870
▁음모	-12871
▁이타	-12872
▁자국	-12873
▁철회	-12874
▁칼라	-12875
▁사례가	-12876
▁개발하고	-12877
▁태양을	-12878
부리	-12879
▁도	-12880
▁피겨	-12881
▁효소	-12882
▁바이킹	-12883
운동의	-12884
▁먹을	-12885
▁결혼하여	-12886
▁좋아하는	-12887
▁뉘	-12888
.5%	-12889
▁갈릴	-12890
량에	-12891
▁Man	-12892
생은	-12893
▁남기고	-12894
▁손으로	-12895
OD	-12896
전차	-12897
▁김창	-12898
▁중재	-12899
설에	-12900
▁1884	-12901
▁내용으로	-12902
세트	-12903
▁재미	-12904
▁텍스트	-12905
▁자이언츠	-12906
▁노래이다	-12907
▁솜	-12908
홀름	-12909
▁진실	-12910
▁KIA	-12911
▁사쿠라	-12912
▁왕을	-12913
▁나이지리아	-12914
▁안으로	-12915
▁왕국은	-12916
▁유학을	-12917
세르	-12918
ont	-12919
▁자선	-12920
위인	-12921
▁쓰지	-12922
▁과정이	-12923
하자면	-12924
▁살았던	-12925
▁각자	-12926
▁콜린	-12927
글라데	-12928
▁르네상스	-12929
▁밴드를	-12930
▁목소리를	-12931
▁On	-12932
▁Su	-12933
▁민영	-12934
변에	-12935
▁당연히	-12936
▁일본국	-12937
▁무대를	-12938
▁지키는	-12939
▁되지만	-12940
마크	-12941
봉사	-12942
▁박스	-12943
▁수성	-12944
▁시종	-12945
▁에콰	-12946
▁입각	-12947
▁하동	-12948
▁핸드	-12949
▁높게	-12950
▁이루며	-12951
노바	-12952
▁미들	-12953
▁브란	-12954
과와	-12955
보기	-12956
▁군이	-12957
▁무함마	-12958
▁누구가	-12959
정책을	-12960
▁결정하는	-12961
▁전하았다	-12962
위성	-12963
▁병역	-12964
▁성사	-12965
▁오비	-12966
▁중복	-12967
▁지우	-12968
팀을	-12969
▁기회가	-12970
▁아버지인	-12971
▁한국시리즈	-12972
리얼	-12973
문자	-12974
부시	-12975
▁Am	-12976
에너지	-12977
▁제국에	-12978
▁차이로	-12979
▁평가된다	-12980
주택	-12981
▁금성	-12982
▁포병	-12983
것도	-12984
▁전역에서	-12985
▁중종	-12986
▁한인	-12987
▁해수	-12988
▁프란츠	-12989
▁파일을	-12990
▁진행되는	-12991
sc	-12992
ost	-12993
▁균형	-12994
▁수비수	-12995
▁개인이	-12996
▁대통령으로	-12997
▁고창	-12998
▁선종	-12999
▁피트	-13000
▁엔지니어	-13001
양으로	-13002
▁후보는	-13003
▁이스라엘의	-13004
▁구성되었다	-13005
ect	-13006
▁점프	-13007
골로	-13008
▁멜로디	-13009
▁부근에	-13010
▁투어를	-13011
▁북방	-13012
▁시키어	-13013
▁유사하다	-13014
▁포켓몬스터	-13015
▁프로레슬링	-13016
▁시즌에서	-13017
▁김지	-13018
▁내걸	-13019
▁여진	-13020
▁영등	-13021
▁초신	-13022
근의	-13023
협의회	-13024
런은	-13025
▁산하에	-13026
▁올림픽의	-13027
▁조선로동당	-13028
▁끌려	-13029
▁년에	-13030
▁방문한	-13031
▁아시카가	-13032
▁예수의	-13033
▁이란의	-13034
▁소송을	-13035
▁실질적으로	-13036
슬ᆫ	-13037
▁다비	-13038
▁우드	-13039
▁환상	-13040
▁오피스	-13041
▁차례의	-13042
리면서	-13043
▁군산	-13044
▁두께	-13045
▁메커	-13046
루이스	-13047
스카이	-13048
SP	-13049
작곡	-13050
▁분비	-13051
개와	-13052
본의	-13053
▁수도원	-13054
▁1903	-13055
▁불리고	-13056
▁유래된	-13057
▁지정되었다가	-13058
cc	-13059
▁Op	-13060
▁까닭	-13061
▁신축	-13062
▁오쿠	-13063
▁예이다	-13064
▁때에도	-13065
▁고래	-13066
▁세상	-13067
▁각본가	-13068
것을	-13069
▁운행한다	-13070
▁모용	-13071
▁공간이	-13072
▁알렉산드르	-13073
판과	-13074
▁내어	-13075
▁미시시피	-13076
▁근무하았다	-13077
비나	-13078
연수	-13079
ath	-13080
▁사람도	-13081
▁점령한	-13082
▁설립되었으며	-13083
▁CC	-13084
▁감안	-13085
▁규범	-13086
▁정무	-13087
▁동생인	-13088
▁문서를	-13089
▁벵	-13090
com	-13091
-200	-13092
▁공격수	-13093
▁존재할	-13094
리어서	-13095
보수	-13096
빌딩	-13097
▁개종	-13098
▁브랜	-13099
▁사정	-13100
▁잃어	-13101
▁캔자스	-13102
▁페이지	-13103
집은	-13104
▁기초로	-13105
▁몸길이는	-13106
▁댐	-13107
찬	-13108
▁비타	-13109
▁실망	-13110
▁도시철도	-13111
▁발렌시아	-13112
▁파리의	-13113
▁차지하며	-13114
지면서	-13115
사용	-13116
▁걱정	-13117
▁맞붙	-13118
▁부설	-13119
▁앞면	-13120
프레스	-13121
▁원을	-13122
학부	-13123
▁무궁	-13124
▁연상	-13125
▁수학자	-13126
벽을	-13127
쪽은	-13128
▁실시한	-13129
▁즉위한	-13130
스와의	-13131
▁움직임을	-13132
▁콰	-13133
▁맥락	-13134
▁불명	-13135
▁알을	-13136
▁조정에	-13137
▁같은해	-13138
▁해결하기	-13139
▁다크	-13140
▁보헤	-13141
▁대도시	-13142
하아온	-13143
▁중앙아시아	-13144
▁캐서	-13145
▁북아프리카	-13146
▁표현하는	-13147
▁건설되었다	-13148
주간	-13149
▁한층	-13150
▁밝힌	-13151
머는	-13152
화물	-13153
▁그릇	-13154
▁플러	-13155
▁카를로	-13156
▁뉴욕의	-13157
▁아케이드	-13158
▁역사의	-13159
법에서	-13160
하ᄆ은	-13161
자이라고	-13162
▁지나면서	-13163
▁발칸	-13164
▁일체	-13165
▁클라이	-13166
온을	-13167
▁상태의	-13168
천으로	-13169
준비	-13170
▁대명	-13171
▁어찌	-13172
▁응시	-13173
러스트	-13174
품의	-13175
▁아나키	-13176
▁성능을	-13177
▁압력을	-13178
▁작용을	-13179
▁무엇인가	-13180
▁붐	-13181
▁춥	-13182
순환	-13183
▁김홍	-13184
▁총칭	-13185
두로	-13186
인한	-13187
▁트리플	-13188
림은	-13189
▁돌리어	-13190
▁방글라데	-13191
▁부분에서	-13192
▁사단법인이다	-13193
▁제안하았다	-13194
바둑	-13195
▁권장	-13196
▁지장	-13197
▁조지프	-13198
러를	-13199
▁들어갈	-13200
▁스위스의	-13201
▁되어있다	-13202
▁새기어진	-13203
▁받았지만	-13204
가수	-13205
잡이	-13206
▁그후	-13207
영과	-13208
이란	-13209
▁구단의	-13210
▁결정된다	-13211
▁꼭대	-13212
▁아소	-13213
피의	-13214
▁이룬	-13215
▁경기의	-13216
▁표면에	-13217
스터는	-13218
▁제도는	-13219
전국	-13220
천사	-13221
▁로그	-13222
▁이관	-13223
공무원	-13224
회의원	-13225
▁마르코	-13226
▁음악은	-13227
대대	-13228
산동	-13229
위기	-13230
지오	-13231
푸아	-13232
하키	-13233
더의	-13234
레이터	-13235
▁대전이	-13236
▁마이크로	-13237
▁보호하기	-13238
▁전하는	-13239
▁프랑스가	-13240
▁이때부터	-13241
OW	-13242
▁대행	-13243
▁부시	-13244
▁서울의	-13245
▁선배	-13246
▁투르	-13247
▁뮤지션	-13248
▁중반에	-13249
▁지키어	-13250
▁클라이언	-13251
▁위치하는	-13252
▁담당하았다	-13253
친구	-13254
▁달려	-13255
▁대책	-13256
▁무지	-13257
▁발급	-13258
▁카트	-13259
▁대학생	-13260
▁야마토	-13261
▁온도가	-13262
▁함수의	-13263
▁기준을	-13264
▁벼슬을	-13265
▁복귀하았다	-13266
▁강도	-13267
▁라오	-13268
레가	-13269
▁아미타	-13270
▁프란체	-13271
되어서	-13272
네르	-13273
▁거북	-13274
▁극대	-13275
▁세례	-13276
▁정한	-13277
▁연고지로	-13278
▁드러나았다	-13279
▁슈트	-13280
▁해남	-13281
술의	-13282
▁청와대	-13283
▁범위를	-13284
▁변화는	-13285
▁인상을	-13286
서구	-13287
히토	-13288
▁86	-13289
▁소비자	-13290
▁전두환	-13291
▁칸의	-13292
▁생산을	-13293
-9	-13294
▁국장	-13295
▁산출	-13296
▁치어	-13297
▁편에	-13298
▁대가로	-13299
▁드라이버	-13300
▁공신	-13301
▁기숙	-13302
▁배상	-13303
▁이병	-13304
팀에	-13305
심은	-13306
▁메커니즘	-13307
▁적용되었다	-13308
▁킴	-13309
신학	-13310
▁동행	-13311
▁쓰레	-13312
lude	-13313
▁고유의	-13314
협회는	-13315
▁코드를	-13316
억원	-13317
▁건륭	-13318
▁대안	-13319
▁이장	-13320
▁체류	-13321
ream	-13322
▁제네바	-13323
▁기하여	-13324
▁자료가	-13325
의식	-13326
▁73	-13327
▁민병	-13328
▁세금	-13329
보와	-13330
▁도널드	-13331
▁결론을	-13332
▁Tr	-13333
▁스타리그	-13334
▁쌓은	-13335
▁맡기	-13336
▁슈팅	-13337
▁안나	-13338
운이	-13339
증의	-13340
봉은	-13341
▁1897	-13342
▁경기로	-13343
▁드라이브	-13344
▁설치하고	-13345
▁예선에서	-13346
융합	-13347
▁97	-13348
▁하ㄴ	-13349
▁품고	-13350
▁그레이트	-13351
▁그리어진	-13352
적으로도	-13353
;&	-13354
리ᄆ	-13355
▁해의	-13356
루에서	-13357
심에서	-13358
MP	-13359
▁북위	-13360
▁의미는	-13361
▁스코틀랜드의	-13362
▁렉	-13363
도어	-13364
▁무조건	-13365
▁세력의	-13366
▁쪽은	-13367
▁혀	-13368
여우	-13369
▁기슭	-13370
▁저렴	-13371
▁횡단	-13372
빈의	-13373
레스의	-13374
▁실패한	-13375
행위를	-13376
▁로스앤젤레스에서	-13377
▁내지	-13378
받게	-13379
▁경상도	-13380
돌은	-13381
▁도입된	-13382
▁페이스북	-13383
리사	-13384
테크	-13385
▁74	-13386
▁개가	-13387
▁필리프	-13388
위하아	-13389
▁노선의	-13390
계약을	-13391
▁단어를	-13392
▁제작을	-13393
▁수준으로	-13394
으로부터의	-13395
▁김제	-13396
▁수면	-13397
▁쿠데타	-13398
▁확실한	-13399
나무는	-13400
▁다니는	-13401
▁원인을	-13402
▁정치를	-13403
▁6,	-13404
궁의	-13405
▁조선에	-13406
▁학문을	-13407
▁만족시키는	-13408
전시	-13409
▁불꽃	-13410
▁의석	-13411
지에	-13412
▁물의	-13413
▁즐기어	-13414
▁위험을	-13415
인구	-13416
칼리	-13417
▁AN	-13418
▁데모	-13419
▁돌입	-13420
▁사간	-13421
▁포드	-13422
▁씨의	-13423
▁포로로	-13424
▁위원회의	-13425
RA	-13426
공주	-13427
쿠버	-13428
▁석탑	-13429
왕후의	-13430
▁대통령과	-13431
▁연세대학교	-13432
▁운영을	-13433
▁형성하고	-13434
쿠니	-13435
▁경로	-13436
▁잔류	-13437
길이	-13438
하나	-13439
▁그레고리오	-13440
페테르부르크	-13441
브르	-13442
수소	-13443
▁등용	-13444
▁유연	-13445
▁이북	-13446
▁종족	-13447
조한	-13448
탄의	-13449
메드	-13450
얗ᆫ	-13451
▁강희	-13452
▁기증	-13453
▁영산	-13454
▁생방송	-13455
▁전반에	-13456
▁정권의	-13457
▁크기를	-13458
믹스	-13459
▁안치	-13460
파이어	-13461
▁국제적	-13462
▁게임에	-13463
월에서	-13464
▁이곳을	-13465
▁평가하았다	-13466
노리	-13467
▁Ne	-13468
▁창녕	-13469
▁새로이	-13470
임은	-13471
▁1800	-13472
▁학생들의	-13473
ii	-13474
에미	-13475
▁막시	-13476
▁환자	-13477
▁번에	-13478
▁가나가와	-13479
▁영향이	-13480
▁효과적으로	-13481
▁찬	-13482
▁증거가	-13483
▁공손	-13484
▁단절	-13485
▁주위	-13486
약한	-13487
적과	-13488
루스는	-13489
▁끄	-13490
▁깨끗	-13491
▁걸어	-13492
▁서울대	-13493
▁카스티	-13494
든지	-13495
▁1860	-13496
▁도요토미	-13497
▁민족의	-13498
판에서	-13499
US	-13500
화점	-13501
▁GP	-13502
▁무슨	-13503
▁퇴임	-13504
▁해명	-13505
그라드	-13506
▁900	-13507
집행	-13508
▁견제	-13509
집의	-13510
▁미네소	-13511
▁선수들	-13512
▁클래스	-13513
▁영화가	-13514
▁이데	-13515
▁호응	-13516
▁알프레	-13517
▁최소한	-13518
▁파이어	-13519
▁작가이다	-13520
▁내었다	-13521
▁정의한다	-13522
▁87	-13523
▁열ᆫ	-13524
게이트	-13525
▁승무원	-13526
▁에디션	-13527
린을	-13528
▁볼리비아	-13529
▁통일신라	-13530
▁시대부터	-13531
▁비판하였다	-13532
국립	-13533
단위	-13534
▁왜곡	-13535
선수단	-13536
▁정치에	-13537
▁공격하여	-13538
▁하에서	-13539
ake	-13540
▁감추	-13541
▁서민	-13542
▁코코	-13543
에는	-13544
▁유형의	-13545
공격	-13546
▁패럴	-13547
▁호출	-13548
▁소설가	-13549
▁동안의	-13550
▁불가능한	-13551
▁포스트시즌	-13552
▁예정이었으나	-13553
▁뱅	-13554
네마	-13555
▁감리	-13556
▁규정에	-13557
▁대학교를	-13558
▁때문이라고	-13559
▁시노	-13560
▁키스	-13561
▁가브리	-13562
▁나란히	-13563
▁더이상	-13564
▁흥선대원	-13565
위원을	-13566
▁알리어주	-13567
▁있거나	-13568
▁대표적으로	-13569
▁이탈리아에서	-13570
GB	-13571
▁모나	-13572
▁유라	-13573
▁진공	-13574
막을	-13575
▁본인이	-13576
▁선생의	-13577
▁작가의	-13578
▁작업에	-13579
▁열린다	-13580
것ᆯ	-13581
▁81	-13582
▁충실	-13583
스트로	-13584
▁매카트	-13585
▁요새를	-13586
▁나중에는	-13587
co	-13588
타워	-13589
▁루시	-13590
▁수축	-13591
▁지옥	-13592
▁테르	-13593
▁헬리	-13594
▁캠퍼스	-13595
▁이내에	-13596
▁주목할	-13597
▁언급하았다	-13598
메다	-13599
▁교리	-13600
▁대두	-13601
▁생체	-13602
▁성숙	-13603
▁엔딩	-13604
▁윤리	-13605
▁20%	-13606
▁산의	-13607
랴	-13608
▁ID	-13609
▁안테	-13610
▁자크	-13611
▁카타	-13612
▁포장	-13613
▁의원을	-13614
▁장비를	-13615
▁대학교는	-13616
▁기록되었다	-13617
▁신조	-13618
▁효고	-13619
발은	-13620
▁낳은	-13621
▁사업에	-13622
기록을	-13623
품으로	-13624
행동	-13625
▁오가	-13626
황이	-13627
▁크라이	-13628
▁조사에	-13629
▁말하면	-13630
▁아니면	-13631
발사	-13632
iss	-13633
▁가옥	-13634
▁공과	-13635
표가	-13636
▁혁명의	-13637
▁누구인가	-13638
시키었으며	-13639
▁강동	-13640
▁상세	-13641
나서	-13642
루스의	-13643
들에게는	-13644
▁도입하였다	-13645
▁쿤	-13646
바스	-13647
▁과일	-13648
▁무실	-13649
림이	-13650
여진	-13651
트로이트	-13652
▁제치고	-13653
▁임명되었고	-13654
관련	-13655
인터	-13656
지아	-13657
▁임관	-13658
혹한	-13659
▁데뷔한	-13660
▁설명할	-13661
▁주장에	-13662
▁문화체육관광부	-13663
GA	-13664
sh	-13665
▁달걀	-13666
▁조화	-13667
▁크롬	-13668
너가	-13669
▁격렬한	-13670
▁도시에	-13671
▁접하며	-13672
단지	-13673
역학	-13674
유지	-13675
▁편지	-13676
▁선과	-13677
▁고려시대	-13678
▁맺은	-13679
▁베네수엘라	-13680
▁포기하고	-13681
TP	-13682
어뜨	-13683
old	-13684
▁어둠	-13685
▁치른	-13686
지역에	-13687
▁중대한	-13688
수에서	-13689
▁돌아가아	-13690
▁출신이며	-13691
▁러시아는	-13692
▁진행하았다	-13693
aw	-13694
▁간신	-13695
▁고사	-13696
▁퇴역	-13697
▁화강	-13698
▁환영	-13699
▁다케다	-13700
통은	-13701
▁경계로	-13702
▁삼층석탑	-13703
▁점령하고	-13704
▁지나는	-13705
년하계올림픽	-13706
▁기록으로	-13707
계급	-13708
킨스	-13709
▁누리	-13710
▁말미	-13711
▁NGC	-13712
▁백제의	-13713
▁진출한	-13714
▁단계에서	-13715
▁7,	-13716
▁영지	-13717
▁지름	-13718
프로	-13719
▁리더십	-13720
▁사이토	-13721
▁칼리지	-13722
▁목록에	-13723
▁산업의	-13724
▁영국에	-13725
▁주제를	-13726
▁올라간다	-13727
▁받았다고	-13728
▁글루	-13729
▁조립	-13730
류이ㄴ	-13731
▁그렇지만	-13732
▁건설을	-13733
▁물건을	-13734
타로	-13735
own	-13736
▁낙동	-13737
▁생식	-13738
▁짐작	-13739
▁스페이스	-13740
도스	-13741
▁니코	-13742
▁리베	-13743
▁보성	-13744
▁여우	-13745
▁현금	-13746
▁비행기	-13747
▁사가	-13748
▁저작권	-13749
▁프레데	-13750
▁마을에	-13751
▁미래의	-13752
▁산하의	-13753
▁수행할	-13754
▁올리고	-13755
▁개인적인	-13756
▁뒤에도	-13757
▁수익을	-13758
상업	-13759
토모	-13760
▁수료	-13761
미한	-13762
▁1880	-13763
▁경제의	-13764
▁설치하여	-13765
▁해마다	-13766
▁주어진다	-13767
▁세키	-13768
▁시공	-13769
레이크	-13770
▁위와	-13771
▁게임이	-13772
▁취임하였다	-13773
▁검출	-13774
▁이닝	-13775
▁질환	-13776
친다	-13777
▁후임으로	-13778
MI	-13779
종이	-13780
▁급성	-13781
하이드	-13782
▁나선	-13783
호선이	-13784
▁엮	-13785
타스	-13786
타입	-13787
▁김병	-13788
▁버티	-13789
▁세라	-13790
▁카시	-13791
▁뉴저지	-13792
테는	-13793
▁뒤이어	-13794
▁마찬가지	-13795
▁따았다	-13796
ick	-13797
▁마블	-13798
▁창출	-13799
▁방사성	-13800
터에서	-13801
만큼	-13802
할때	-13803
▁30%	-13804
▁비용이	-13805
▁태국의	-13806
▁게임에서	-13807
▁대응하는	-13808
▁갱신	-13809
▁문인	-13810
▁성종	-13811
▁필드	-13812
▁스즈키	-13813
▁보내고	-13814
▁투수가	-13815
▁보도하았다	-13816
▁쓸	-13817
▁실력	-13818
▁중장	-13819
▁칼뱅	-13820
락이	-13821
▁아마존	-13822
▁알지	-13823
▁음악적	-13824
거리가	-13825
암은	-13826
▁각국의	-13827
▁알리는	-13828
▁재판을	-13829
▁도시에서	-13830
▁시작하면서	-13831
양성	-13832
▁국립공	-13833
▁친일파	-13834
▁국왕의	-13835
▁딸이다	-13836
▁함부르크	-13837
되므로	-13838
▁교회를	-13839
▁디트로이트	-13840
먼트	-13841
▁CS	-13842
▁여운	-13843
▁전지	-13844
▁남게	-13845
▁모양이	-13846
▁승강장을	-13847
▁그로부터	-13848
▁권총	-13849
▁빈번	-13850
학교의	-13851
▁드래프트에서	-13852
▁상트페테르부르크	-13853
브루	-13854
▁이산	-13855
▁탄도	-13856
▁회수	-13857
끄럽ᆫ	-13858
▁볼셰비	-13859
▁병을	-13860
▁행동에	-13861
▁시스템에	-13862
▁결정한다	-13863
▁킥	-13864
디언	-13865
집단	-13866
▁결함	-13867
▁직장	-13868
▁하차	-13869
▁함대	-13870
그의	-13871
▁청주시	-13872
순은	-13873
▁입을	-13874
▁장군은	-13875
▁수록되었다	-13876
거ㄴ	-13877
▁가동	-13878
▁간토	-13879
▁값이	-13880
▁끌고	-13881
▁환자의	-13882
명에서	-13883
▁경향을	-13884
▁가환	-13885
▁온갖	-13886
▁협정	-13887
▁히타	-13888
웨이트	-13889
▁웨스턴	-13890
채는	-13891
▁들이어	-13892
▁출판되었다	-13893
ix	-13894
▁싣	-13895
▁가오	-13896
과학기술	-13897
세우어	-13898
▁2022	-13899
▁공개하았다	-13900
부상	-13901
▁동참	-13902
▁로버	-13903
▁면허	-13904
▁장흥	-13905
▁탁월	-13906
▁태백	-13907
▁평정	-13908
살의	-13909
▁중점을	-13910
▁해당된다	-13911
▁다니었다	-13912
▁반공	-13913
▁판사	-13914
▁강에	-13915
▁푸에르	-13916
직은	-13917
▁기간은	-13918
▁용어이다	-13919
▁지도를	-13920
대학교는	-13921
▁위원회는	-13922
RE	-13923
티시	-13924
히데	-13925
▁영유	-13926
▁패널	-13927
음과	-13928
▁연합군	-13929
훈을	-13930
▁섬이다	-13931
▁휘하의	-13932
▁랴	-13933
▁빔	-13934
▁용병	-13935
▁CEO	-13936
▁넘게	-13937
▁느끼ㄴ	-13938
▁케네디	-13939
▁천연기념	-13940
고에서	-13941
▁버전을	-13942
▁자아	-13943
▁부드럽ᆫ	-13944
엔터테인멀ᆫ	-13945
사르	-13946
▁일기	-13947
▁컴백	-13948
테스트	-13949
▁붙여진	-13950
▁광양	-13951
▁길에	-13952
▁대의	-13953
▁덮이어	-13954
▁질량이	-13955
▁팔레스타인	-13956
되도록	-13957
▁마을에서	-13958
살이	-13959
▁79	-13960
▁스태	-13961
▁카카	-13962
루에	-13963
▁사카이	-13964
▁암호화	-13965
▁위원장	-13966
하진	-13967
▁학생들은	-13968
▁플레이어는	-13969
▁쑤	-13970
▁벌금	-13971
▁열심	-13972
▁폭행	-13973
루와	-13974
채가	-13975
▁GDP	-13976
운은	-13977
▁경찰의	-13978
▁문화와	-13979
▁체포되었다	-13980
캐슬	-13981
▁소모	-13982
▁수장	-13983
▁칭찬	-13984
▁메달을	-13985
▁인증을	-13986
▁집결	-13987
▁충성	-13988
▁보게	-13989
▁아돌프	-13990
직으로	-13991
▁지구를	-13992
▁끌었다	-13993
▁미사일을	-13994
▁커뮤니케이션	-13995
▁기록하았으며	-13996
루냐	-13997
애틀	-13998
▁동위	-13999
▁빠져	-14000
▁신정	-14001
▁어뢰	-14002
▁투명	-14003
▁명이다	-14004
▁자를	-14005
▁개념이다	-14006
▁역까지	-14007
▁정치적인	-14008
▁평화를	-14009
▁선도	-14010
▁유권	-14011
직의	-14012
▁제한	-14013
업으로	-14014
자이라는	-14015
St	-14016
해튼	-14017
▁감마	-14018
▁부대가	-14019
▁실시하고	-14020
▁의미하며	-14021
GM	-14022
▁Is	-14023
▁시립	-14024
▁현악	-14025
▁화순	-14026
마스터	-14027
▁파란색	-14028
▁고향인	-14029
▁시대가	-14030
▁없던	-14031
▁프로덕션	-14032
캐롤라이나	-14033
었기에	-14034
▁CN	-14035
▁LA	-14036
▁동점	-14037
▁이태	-14038
▁하비	-14039
러시아	-14040
말에	-14041
ence	-14042
▁통틀어	-14043
▁들을	-14044
▁분위기를	-14045
▁해체되었다	-14046
조부	-14047
▁밀려	-14048
▁워너	-14049
▁청소	-14050
▁허위	-14051
▁일렉트로	-14052
받았고	-14053
▁개념으로	-14054
▁세우어지어	-14055
국적	-14056
벨라	-14057
호텔	-14058
▁기어	-14059
▁세네	-14060
▁이이	-14061
▁사랑에	-14062
▁헌법에	-14063
▁똑같은	-14064
체고	-14065
▁김민	-14066
▁듀얼	-14067
▁애비뉴	-14068
▁허가를	-14069
▁등장하였다	-14070
히트	-14071
▁BS	-14072
▁실버	-14073
▁아산	-14074
▁이규	-14075
▁정립	-14076
▁헌정	-14077
간은	-14078
▁가지의	-14079
링턴	-14080
ype	-14081
▁84	-14082
▁냄새	-14083
▁두렵	-14084
▁메릴	-14085
▁샌디	-14086
업의	-14087
기관의	-14088
▁기여를	-14089
▁인간을	-14090
▁룰	-14091
코타	-14092
▁비영	-14093
▁조조	-14094
▁확신	-14095
▁어드벤처	-14096
▁역사와	-14097
▁회사인	-14098
▁오케스트라	-14099
▁하부	-14100
▁가야	-14101
▁선수로서	-14102
전략	-14103
형사	-14104
▁앞장	-14105
▁탐색	-14106
커가	-14107
취를	-14108
키아의	-14109
▁선출된	-14110
▁향토문화	-14111
나에서	-14112
사단은	-14113
▁가정에서	-14114
▁각지에서	-14115
▁불가능하다	-14116
ork	-14117
▁제퍼	-14118
다를	-14119
여명의	-14120
노르	-14121
-14	-14122
▁검은	-14123
도르프	-14124
초는	-14125
▁스튜디오에서	-14126
CAF	-14127
▁발각	-14128
▁발병	-14129
▁윤보	-14130
▁판정	-14131
벌을	-14132
▁교육과	-14133
▁공항은	-14134
▁대표는	-14135
▁돕았다	-14136
▁외에는	-14137
를테	-14138
▁궁전	-14139
▁자생	-14140
▁지수	-14141
▁지위	-14142
국인	-14143
를테면	-14144
▁측에	-14145
▁것들이	-14146
▁돌을	-14147
▁둔다	-14148
▁여우주연	-14149
▁이적하여	-14150
▁음반으로	-14151
건축	-14152
공연	-14153
형제	-14154
▁세기	-14155
▁탐구	-14156
근이	-14157
광을	-14158
당하는	-14159
안에서	-14160
▁궤도를	-14161
▁토지를	-14162
▁형성되어	-14163
▁사용하면	-14164
▁우승하았다	-14165
▁남해	-14166
▁동문	-14167
▁이방	-14168
년대와	-14169
▁작업이	-14170
번으로	-14171
의장	-14172
▁라그	-14173
▁사관	-14174
▁이빨	-14175
▁휩쓸	-14176
▁과의	-14177
▁꽃이	-14178
▁스리랑	-14179
▁아니라는	-14180
▁밭	-14181
▁71	-14182
▁서포	-14183
▁전격	-14184
▁처분	-14185
나에	-14186
철이	-14187
크리트	-14188
▁하이드	-14189
들보다	-14190
하ᄆ으로	-14191
▁꿈꾸	-14192
▁지미	-14193
▁비하여	-14194
▁상황은	-14195
▁이전까지	-14196
▁가르치었다	-14197
단의	-14198
쩌둥	-14199
▁No	-14200
▁각색	-14201
▁공습	-14202
▁III	-14203
▁이를테면	-14204
▁매매	-14205
▁유가	-14206
▁황족	-14207
▁동영상	-14208
▁마다가	-14209
▁활발히	-14210
▁나오고	-14211
▁위험이	-14212
▁점수를	-14213
되ᄆ으로써	-14214
▁합류하았다	-14215
▁마닐	-14216
▁추첨	-14217
▁호칭	-14218
에의	-14219
▁정권이	-14220
▁최대풍속	-14221
▁연구에서	-14222
MC	-14223
▁국어	-14224
▁형상	-14225
▁350	-14226
▁배가	-14227
▁자세히	-14228
▁모습은	-14229
▁반대로	-14230
▁시험을	-14231
▁일어나고	-14232
내었고	-14233
▁서식지는	-14234
어지면서	-14235
하아지었고	-14236
▁관악	-14237
▁온천	-14238
▁진지	-14239
▁데스크	-14240
▁흔적이	-14241
▁교수를	-14242
▁말까지	-14243
.11	-14244
▁유진	-14245
▁죽이	-14246
▁마르틴	-14247
▁창원시	-14248
염을	-14249
도는	-14250
▁종교개혁	-14251
▁표현한	-14252
▁사용되며	-14253
하아야만	-14254
가라	-14255
▁김옥	-14256
▁미셸	-14257
▁양반	-14258
▁치안	-14259
▁아닐	-14260
▁미네소타	-14261
▁소리가	-14262
▁임명된	-14263
▁떨어지었다	-14264
▁상인	-14265
피가	-14266
▁아스널	-14267
▁원의	-14268
▁주머니	-14269
▁1870	-14270
▁별개의	-14271
조에서	-14272
▁받아야	-14273
FF	-14274
큰	-14275
▁마녀	-14276
▁배후	-14277
▁조세	-14278
▁클레멘	-14279
당하아	-14280
▁사전에	-14281
▁현재도	-14282
▁뾰	-14283
▁당주	-14284
▁사면	-14285
▁종착	-14286
▁프렌	-14287
▁모티브	-14288
사들이	-14289
▁누구나	-14290
▁주위에	-14291
▁키는	-14292
▁거부하고	-14293
▁꼽힌다	-14294
▁세비	-14295
▁것일	-14296
▁기관총	-14297
▁때가	-14298
온다	-14299
▁국가와	-14300
▁믿는	-14301
▁조별리그	-14302
include	-14303
▁연결되는	-14304
_12	-14305
▁견인	-14306
▁천재	-14307
변의	-14308
▁개를	-14309
▁투수로	-14310
▁동일하다	-14311
▁쾰	-14312
ear	-14313
irl	-14314
복은	-14315
▁디비시온	-14316
▁일제의	-14317
것으로	-14318
▁공격으로	-14319
▁둘러싸이어	-14320
OT	-14321
▁콜라	-14322
롭고	-14323
명인	-14324
▁계약이	-14325
▁나은	-14326
▁엔진이	-14327
▁인터페이	-14328
▁선임되었다	-14329
▁썰	-14330
▁..	-14331
▁타협	-14332
▁퇴적	-14333
▁반도체	-14334
라에서	-14335
선수권대회	-14336
▁가문은	-14337
두르	-14338
▁중서	-14339
▁세이부	-14340
▁난을	-14341
▁나라는	-14342
▁실력을	-14343
▁가야	-14344
▁저하	-14345
준이	-14346
▁참여하았으며	-14347
치기	-14348
▁카나	-14349
러피언	-14350
▁1885	-14351
▁치열한	-14352
▁세력은	-14353
▁방송되는	-14354
▁프로젝트의	-14355
▁한편으로	-14356
▁취임하았다	-14357
ox	-14358
원자	-14359
▁맞대	-14360
▁세조	-14361
▁야마구치	-14362
▁어리었을	-14363
▁오르았으며	-14364
▁전날	-14365
▁타아	-14366
편은	-14367
하긴	-14368
▁연구와	-14369
해양	-14370
▁경연	-14371
▁카사	-14372
강과	-14373
▁예술가	-14374
▁저기압	-14375
▁키프로스	-14376
현에서	-14377
▁절차를	-14378
맥스	-14379
트니	-14380
▁다테	-14381
▁연못	-14382
내지	-14383
▁미술관	-14384
▁삿포로	-14385
▁원나라	-14386
▁파운드	-14387
학과를	-14388
었으므로	-14389
▁릭	-14390
▁숙청	-14391
▁앤더	-14392
▁NAS	-14393
▁로마에	-14394
▁주위를	-14395
▁선수단은	-14396
▁자라았다	-14397
++	-14398
모스	-14399
▁조광	-14400
▁헬륨	-14401
데스리	-14402
살이	-14403
자리의	-14404
석에서	-14405
▁간주된다	-14406
중추	-14407
▁SD	-14408
▁내야	-14409
▁노인	-14410
▁미터	-14411
▁회피	-14412
▁돌연변	-14413
▁애리조	-14414
▁오로지	-14415
▁강은	-14416
▁경찰이	-14417
▁발생하여	-14418
▁시뮬레이션	-14419
▁통합하여	-14420
▁프로젝트는	-14421
리야	-14422
▁김구	-14423
▁분출	-14424
▁수색	-14425
▁암흑	-14426
▁정유	-14427
lass	-14428
속에서	-14429
▁체코슬로바키아	-14430
▁워크	-14431
▁이룩	-14432
록을	-14433
▁지구에	-14434
▁전략을	-14435
▁진행하는	-14436
독일	-14437
▁통용	-14438
클레오	-14439
▁몸의	-14440
사회의	-14441
▁갑옷	-14442
▁곤란	-14443
▁순조	-14444
▁차용	-14445
▁조직이	-14446
▁사용되지	-14447
▁여성을	-14448
지었고	-14449
▁개봉되었다	-14450
au	-14451
수도	-14452
망의	-14453
▁아폴로	-14454
▁1871	-14455
▁집안의	-14456
▁뷔	-14457
▁89	-14458
▁기기	-14459
▁돌출	-14460
▁지평	-14461
▁모은	-14462
▁가사를	-14463
▁사리	-14464
사무소	-14465
▁길이의	-14466
▁나를	-14467
▁구단은	-14468
▁카드를	-14469
▁경기장이다	-14470
CC	-14471
고스	-14472
▁구절	-14473
▁연수	-14474
태를	-14475
박쥐과에	-14476
▁열매는	-14477
▁시즌부터	-14478
▁딕	-14479
▁장미	-14480
현과	-14481
▁80%	-14482
▁USS	-14483
▁아키텍	-14484
▁작성한	-14485
▁나타내고	-14486
▁기본으로	-14487
▁쓰이어진	-14488
체계	-14489
col	-14490
ere	-14491
보아	-14492
이한	-14493
▁마오쩌둥	-14494
공으로	-14495
팀으로	-14496
▁합스부르크	-14497
기둥	-14498
루아	-14499
비오	-14500
평론	-14501
포먼	-14502
▁곡선	-14503
▁잡아먹	-14504
▁콤팩트	-14505
관계가	-14506
▁반도의	-14507
▁인류의	-14508
위원회에	-14509
▁바꾸는	-14510
▁인정하는	-14511
컨대	-14512
▁당원	-14513
령과	-14514
▁가지로	-14515
▁기반한	-14516
▁일대의	-14517
▁평안남도	-14518
▁올리는	-14519
▁대한민국과	-14520
▁우즈베키스탄	-14521
출판	-14522
▁중국인	-14523
▁치고	-14524
▁카르타	-14525
▁관직에	-14526
▁인디애나	-14527
▁자란다	-14528
▁해군은	-14529
▁학생들을	-14530
러드	-14531
러브	-14532
▁예하	-14533
▁트리니	-14534
▁기간이	-14535
▁살리어	-14536
▁접근할	-14537
▁한국과	-14538
▁북아일랜드	-14539
▁연합군의	-14540
답ᆫ	-14541
메니	-14542
▁샌드	-14543
▁해고	-14544
▁도마뱀	-14545
▁별이	-14546
▁가격이	-14547
▁방법에	-14548
▁올바른	-14549
▁장소로	-14550
▁소련은	-14551
▁혁명을	-14552
▁부근에서	-14553
▁죽이었다	-14554
갛ᆫ	-14555
▁총장	-14556
▁표지	-14557
▁걸린	-14558
개이다	-14559
자에서	-14560
▁대대적인	-14561
▁은퇴하았다	-14562
콜라	-14563
▁늑대	-14564
▁박헌	-14565
▁수녀	-14566
▁자칭	-14567
▁조국	-14568
▁튀니	-14569
▁설도	-14570
▁센고쿠	-14571
▁적다	-14572
▁굵은	-14573
▁공격하았다	-14574
빌리	-14575
▁원조	-14576
개에	-14577
처는	-14578
▁킬로미터	-14579
티	-14580
▁광명	-14581
▁교양	-14582
▁내정	-14583
▁만료	-14584
▁휴전	-14585
신에	-14586
임이	-14587
▁103	-14588
▁리그인	-14589
▁묘사한	-14590
▁유러피언	-14591
▁이해할	-14592
▁눕	-14593
▁고소	-14594
▁명사	-14595
▁배수	-14596
▁상담	-14597
▁서원	-14598
▁애슬	-14599
▁파동	-14600
있게	-14601
▁문제와	-14602
▁시간의	-14603
▁시장의	-14604
어서는	-14605
▁병원에서	-14606
▁누적	-14607
▁삼척	-14608
▁스노	-14609
▁오크	-14610
▁극장판	-14611
▁성이	-14612
랑을	-14613
▁가을에	-14614
▁높이가	-14615
▁알리어	-14616
▁홍콩의	-14617
▁세종특별자치	-14618
아래	-14619
▁박람	-14620
▁안드	-14621
▁조병	-14622
▁흥미	-14623
포와	-14624
▁소문이	-14625
▁장을	-14626
▁유벤	-14627
▁사람들과	-14628
이든지	-14629
하았음에도	-14630
▁베른	-14631
▁체크	-14632
▁초빙	-14633
▁시애틀	-14634
ivers	-14635
▁선발로	-14636
▁이상한	-14637
▁나타나고	-14638
▁인간은	-14639
루수	-14640
▁목성	-14641
▁추종	-14642
개월간	-14643
▁경에	-14644
▁자유형	-14645
▁갈등이	-14646
▁본래의	-14647
▁수도를	-14648
▁코치를	-14649
년대까지	-14650
▁엇	-14651
플레	-14652
▁강진	-14653
교와	-14654
▁스포르	-14655
▁트로이	-14656
▁건설된	-14657
▁바꾸고	-14658
▁가열	-14659
복의	-14660
▁그곳에	-14661
▁따뜻한	-14662
▁자기의	-14663
▁허리케인	-14664
회의를	-14665
▁종목은	-14666
▁중국은	-14667
▁활동하다가	-14668
▁받으면서	-14669
루이	-14670
▁라	-14671
▁박지	-14672
린과	-14673
▁모인	-14674
▁오클랜드	-14675
▁위주로	-14676
▁논란을	-14677
▁뛰었다	-14678
현대	-14679
▁연소	-14680
▁마스크	-14681
▁맞고	-14682
▁스테파	-14683
▁저지르	-14684
▁플라이	-14685
규는	-14686
▁극심한	-14687
▁기업이	-14688
▁정의된다	-14689
진보	-14690
▁약혼	-14691
암의	-14692
▁All	-14693
▁컨트리	-14694
창은	-14695
▁무대로	-14696
▁물질이	-14697
▁알래스카	-14698
▁양을	-14699
▁수단으로	-14700
,6	-14701
az	-14702
700	-14703
▁궁궐	-14704
▁살피	-14705
▁양육	-14706
▁CBS	-14707
노를	-14708
▁구단이	-14709
▁바르샤바	-14710
▁균형을	-14711
▁다이아몬드	-14712
▁싸우는	-14713
▁역사에서	-14714
▁앰	-14715
보리	-14716
쿠르	-14717
▁동조	-14718
▁않자	-14719
▁규격	-14720
▁절차	-14721
▁태자	-14722
▁터치	-14723
▁토끼	-14724
▁제도에	-14725
▁제시한	-14726
학자이자	-14727
▁흐름을	-14728
▁프로그램으로	-14729
▁j	-14730
니치	-14731
▁상경	-14732
감의	-14733
▁생물학적	-14734
▁오사카부	-14735
▁제한된	-14736
▁통치를	-14737
▁사용하기도	-14738
▁섀	-14739
▁얕	-14740
히코	-14741
▁가구	-14742
▁음원	-14743
▁이현	-14744
▁저널	-14745
▁맨해튼	-14746
만명의	-14747
▁with	-14748
▁형성하는	-14749
▁종료되었다	-14750
편성	-14751
▁불규칙	-14752
▁차를	-14753
▁의무를	-14754
제학	-14755
▁간선	-14756
▁공표	-14757
▁년간	-14758
▁데카	-14759
다가	-14760
액이	-14761
케라톱	-14762
화할	-14763
▁Mus	-14764
▁One	-14765
▁가면	-14766
▁되어야	-14767
▁오르는	-14768
▁게임으로	-14769
▁배려	-14770
민과	-14771
▁팀과	-14772
▁플래시	-14773
▁막부의	-14774
▁음반에	-14775
주의적인	-14776
▁그룹을	-14777
▁정책은	-14778
▁살아있는	-14779
▁일이었다	-14780
▁%	-14781
티넘	-14782
▁가솔	-14783
▁아리스토텔레	-14784
▁필요성을	-14785
▁끼치었다	-14786
.6%	-14787
▁부도	-14788
▁사당	-14789
▁상응	-14790
▁하남	-14791
형인	-14792
▁싫어	-14793
덴부르크	-14794
▁동쪽의	-14795
년에도	-14796
▁클럽이다	-14797
▁남북으로	-14798
▁연기하았다	-14799
▁유래하았다	-14800
▁뻔	-14801
▁창의	-14802
▁타당	-14803
▁터보	-14804
▁피우	-14805
▁완성된	-14806
▁우크라이	-14807
▁붙었다	-14808
바오	-14809
파리	-14810
ife	-14811
▁들여	-14812
▁오류	-14813
▁우정	-14814
바야시	-14815
로스의	-14816
▁운영되고	-14817
▁현상은	-14818
대성	-14819
야스	-14820
▁뾰족	-14821
▁비주얼	-14822
▁사태가	-14823
▁종을	-14824
▁방문하여	-14825
▁실패하고	-14826
▁생겨나았다	-14827
FL	-14828
▁IN	-14829
▁가늘	-14830
▁마가	-14831
▁바우	-14832
▁호프	-14833
▁마라톤	-14834
▁가족과	-14835
▁박쥐의	-14836
▁분리된	-14837
▁옥스퍼드	-14838
▁고려하여	-14839
▁동일하게	-14840
▁10,000	-14841
이라고도	-14842
시게	-14843
▁아날	-14844
▁펜싱	-14845
회로	-14846
▁평안북도	-14847
▁대신하아	-14848
▁독립운동가	-14849
▁분석을	-14850
▁위에는	-14851
년동	-14852
_13	-14853
▁학원	-14854
아버지	-14855
▁책이다	-14856
▁맘	-14857
▁헥	-14858
람쥐	-14859
-13	-14860
lat	-14861
▁GN	-14862
▁결선	-14863
▁유산	-14864
▁히사	-14865
▁신이	-14866
누스의	-14867
▁순위를	-14868
▁따오았다	-14869
난성	-14870
▁경작	-14871
▁공수	-14872
▁자르	-14873
▁읽고	-14874
▁클라우드	-14875
삼존	-14876
▁고산	-14877
▁스텔	-14878
▁요약	-14879
▁함양	-14880
▁EBS	-14881
▁가족을	-14882
▁벨기에의	-14883
▁순으로	-14884
▁웬	-14885
기갑	-14886
리마	-14887
▁발기	-14888
▁요하	-14889
▁포착	-14890
▁풍자	-14891
▁브리튼	-14892
▁슬라브	-14893
▁결정에	-14894
▁의혹이	-14895
▁성적으로	-14896
▁요청하았다	-14897
.2%	-14898
▁드레	-14899
▁시어	-14900
▁원격	-14901
대통령	-14902
▁동유럽	-14903
▁것이기	-14904
▁안전한	-14905
▁않아서	-14906
▁지원하고	-14907
여자고등학교	-14908
었음을	-14909
조각	-14910
▁대북	-14911
타이드	-14912
▁트럼프	-14913
▁디자인은	-14914
▁시기에는	-14915
.4%	-14916
▁부재	-14917
▁후세	-14918
야에	-14919
▁늦게	-14920
▁뛰어들	-14921
▁소나타	-14922
▁앞의	-14923
▁키가	-14924
난을	-14925
▁미치지	-14926
▁조성된	-14927
제도를	-14928
▁의혹을	-14929
▁관할하았다	-14930
▁오았으며	-14931
▁상표	-14932
▁올드	-14933
▁제너	-14934
▁구간의	-14935
▁평을	-14936
▁시리즈에	-14937
▁오늘날에는	-14938
▁주어지었다고	-14939
▁감금	-14940
▁부각	-14941
망에	-14942
▁두개골	-14943
▁모니터	-14944
색이다	-14945
▁죽음의	-14946
▁내리는	-14947
▁도착하았다	-14948
▁형성되었다	-14949
▁낚	-14950
▁거창	-14951
▁손실	-14952
▁실리	-14953
▁현행	-14954
▁건축가	-14955
▁겪고	-14956
▁퍼포먼	-14957
▁나라가	-14958
▁독일에	-14959
▁자체의	-14960
부에는	-14961
Co	-14962
지스	-14963
▁고인	-14964
▁연인	-14965
▁하반	-14966
메어	-14967
▁슬로베니아	-14968
▁추구하는	-14969
▁기여하였다	-14970
ild	-14971
▁돌격	-14972
▁보드	-14973
▁음료	-14974
▁THE	-14975
▁가깝다	-14976
▁모두를	-14977
명이었다	-14978
":	-14979
▁흠	-14980
요리	-14981
▁삼중	-14982
▁실존	-14983
▁오로	-14984
▁이븐	-14985
▁MTV	-14986
▁1600	-14987
▁머리에	-14988
▁성으로	-14989
▁로마에서	-14990
▁이전부터	-14991
▁보리	-14992
▁식당	-14993
▁데서	-14994
밀하게	-14995
킬로미터	-14996
▁사건과	-14997
연으로	-14998
▁증가하고	-14999
▁무척	-15000
▁봉기	-15001
▁차원	-15002
▁법무부	-15003
▁서식지	-15004
▁성에	-15005
▁파이터	-15006
▁말부터	-15007
▁싸움을	-15008
▁싸우었다	-15009
주자	-15010
▁반경	-15011
▁최성	-15012
행에	-15013
ical	-15014
▁와이번	-15015
▁선택할	-15016
▁전투의	-15017
▁출연하여	-15018
카리	-15019
▁미라	-15020
▁복용	-15021
루시아	-15022
림과	-15023
▁그룹이	-15024
▁무렵에	-15025
교에서	-15026
과정에서	-15027
계에서는	-15028
이었기에	-15029
LA	-15030
▁꿀	-15031
은하	-15032
▁83	-15033
▁Ex	-15034
▁대마	-15035
▁델라	-15036
▁레온	-15037
▁충전	-15038
와라노	-15039
초로	-15040
▁숨어	-15041
▁소련이	-15042
과에서	-15043
▁판매를	-15044
▁수행한다	-15045
▁붙이었다	-15046
농업	-15047
▁의결	-15048
▁미주리	-15049
▁손해배	-15050
▁방향에	-15051
▁생산된	-15052
▁노선이다	-15053
세기에는	-15054
ah	-15055
~6	-15056
공무	-15057
▁''	-15058
▁전이	-15059
학적인	-15060
▁기념하여	-15061
감염	-15062
▁독창	-15063
▁불참	-15064
▁소통	-15065
▁폭로	-15066
▁레스토	-15067
▁짧고	-15068
▁물체의	-15069
▁자르아	-15070
▁공간은	-15071
ㅓ지	-15072
엘	-15073
▁정선	-15074
▁지쿠	-15075
▁차갑	-15076
▁캘	-15077
▁2-0	-15078
세이다	-15079
▁그레고리	-15080
▁던지어	-15081
▁서쪽의	-15082
▁남쪽은	-15083
▁가네	-15084
▁나비	-15085
▁농장	-15086
▁배속	-15087
▁신형	-15088
▁항쟁	-15089
▁김정은	-15090
▁서재필	-15091
▁돌아다니	-15092
▁되던	-15093
▁못하여	-15094
EG	-15095
군다	-15096
▁93	-15097
▁델타	-15098
▁우회	-15099
▁멜로	-15100
▁젊은이	-15101
차례의	-15102
▁연합의	-15103
▁발견되지	-15104
▁하도록	-15105
▁변경하았다	-15106
".	-15107
▁단식	-15108
영화제	-15109
▁긴테쓰	-15110
▁난카이	-15111
▁방면으로	-15112
▁명명되었다	-15113
오나	-15114
트루	-15115
lay	-15116
▁군함	-15117
▁대패	-15118
▁잇따	-15119
▁메어	-15120
▁하워드	-15121
티아의	-15122
▁상관없이	-15123
▁성향의	-15124
쪽에는	-15125
▁내부에서	-15126
▁선수들은	-15127
하았는지	-15128
되게	-15129
▁중퇴	-15130
▁협조	-15131
▁전통적	-15132
▁축구단	-15133
▁고치어	-15134
▁피를	-15135
정부는	-15136
▁서쪽은	-15137
▁총리는	-15138
▁국가대표팀에	-15139
법상	-15140
올	-15141
▁긴장	-15142
▁김원	-15143
▁백두	-15144
토와	-15145
▁국민당	-15146
우스가	-15147
▁비밀리에	-15148
▁아무것도	-15149
▁주연을	-15150
개국에서	-15151
▁수여받았다	-15152
▁실시되었다	-15153
페란	-15154
▁노이	-15155
▁벽돌	-15156
▁파산	-15157
▁스카우	-15158
▁1200	-15159
▁중심에	-15160
▁경기도의	-15161
▁퐁	-15162
디자	-15163
▁92	-15164
▁드림	-15165
▁석회	-15166
▁확진	-15167
능한	-15168
모로	-15169
▁115	-15170
▁서울에	-15171
▁여파로	-15172
▁발견하고	-15173
▁확정되었다	-15174
▁명목	-15175
족에	-15176
▁건물이다	-15177
들리	-15178
바나	-15179
▁Ad	-15180
▁넷째	-15181
▁스칸	-15182
▁적도	-15183
▁취업	-15184
라디오	-15185
▁합친	-15186
▁앨범에	-15187
박물관에	-15188
▁내용이다	-15189
▁은퇴하였다	-15190
▁미키	-15191
만과	-15192
승의	-15193
예정자	-15194
▁하루에	-15195
▁전국적으로	-15196
스페	-15197
▁vs	-15198
▁복소	-15199
▁서산	-15200
▁인명	-15201
▁5.1	-15202
▁전쟁과	-15203
▁제국과	-15204
▁조정의	-15205
▁지진이	-15206
▁필리핀의	-15207
▁도쿄에서	-15208
▁경희	-15209
▁고든	-15210
▁내무	-15211
▁전동	-15212
더를	-15213
▁달러에	-15214
▁승리에	-15215
▁예는	-15216
학교는	-15217
▁거부하았다	-15218
우에	-15219
츠크	-15220
che	-15221
ica	-15222
▁경질	-15223
▁방콕	-15224
▁자산	-15225
▁파손	-15226
테이션	-15227
▁가브리엘	-15228
▁클럽의	-15229
승으로	-15230
▁중국을	-15231
MB	-15232
자라	-15233
▁방화	-15234
▁아쿠	-15235
▁우측	-15236
쉽게	-15237
티미터	-15238
▁물어	-15239
▁100%	-15240
▁나라에	-15241
▁일하고	-15242
▁선수들의	-15243
▁하았었다	-15244
터키	-15245
ish	-15246
▁al	-15247
▁결별	-15248
▁리만	-15249
▁방침	-15250
▁옵션	-15251
묘한	-15252
▁동대문	-15253
▁지키기	-15254
▁발견되어	-15255
▁효과적인	-15256
▁내에서는	-15257
▁않았다는	-15258
ㅓ야	-15259
마로	-15260
▁열차의	-15261
▁유럽과	-15262
▁춤을	-15263
▁스트라이커	-15264
가았고	-15265
/0	-15266
▁번성	-15267
▁부총	-15268
▁첨단	-15269
▁독일인	-15270
▁솔로몬	-15271
▁실린	-15272
▁저널리	-15273
전이다	-15274
▁내용에	-15275
▁죽음에	-15276
대회를	-15277
▁제목은	-15278
▁협력을	-15279
oh	-15280
▁세자	-15281
▁원숭	-15282
▁하르	-15283
상규명	-15284
▁앨범인	-15285
▁연극배우	-15286
▁경쟁을	-15287
▁압도적인	-15288
▁영화제에서	-15289
▁과반	-15290
▁아유	-15291
▁회원국	-15292
심으로	-15293
▁무리를	-15294
▁의미이다	-15295
▁선수단이다	-15296
.7%	-15297
~10	-15298
▁난이	-15299
▁남미	-15300
▁취항	-15301
▁쾰른	-15302
▁티켓	-15303
▁표본	-15304
종에	-15305
▁접어들	-15306
각형의	-15307
▁나타낸	-15308
▁전기의	-15309
▁제출한	-15310
연대는	-15311
▁이용된다	-15312
▁맷	-15313
▁바흐	-15314
▁왼손	-15315
▁아이폰	-15316
▁관계없이	-15317
▁표현할	-15318
▁권위를	-15319
▁설명하고	-15320
▁주관하는	-15321
렉션	-15322
하늘	-15323
▁Gr	-15324
▁가면	-15325
▁트렌	-15326
▁세포의	-15327
▁단독으로	-15328
하르	-15329
▁EU	-15330
▁동학	-15331
▁신동	-15332
▁압력	-15333
▁청룡	-15334
▁투여	-15335
▁회화	-15336
병과	-15337
▁다를	-15338
▁신화의	-15339
▁심하게	-15340
▁영국이	-15341
▁정도에	-15342
▁더불어민주	-15343
▁나타내었다	-15344
▁하였지만	-15345
정상	-15346
-23	-15347
▁서적	-15348
▁용암	-15349
▁청산	-15350
▁투항	-15351
노에	-15352
전인	-15353
해로	-15354
▁인테르	-15355
▁철학적	-15356
당하여	-15357
ll	-15358
▁몽고	-15359
▁코카	-15360
블랜드	-15361
▁명은	-15362
▁경제는	-15363
▁영지를	-15364
▁유지하기	-15365
▁극장에서	-15366
▁낳는다	-15367
세이었다	-15368
아트	-15369
▁갈아	-15370
▁다마	-15371
▁품질	-15372
▁간신히	-15373
▁막는	-15374
▁브라우저	-15375
▁언론에	-15376
▁구하는	-15377
하아지자	-15378
▁도시로는	-15379
ax	-15380
럴드	-15381
▁인산	-15382
▁조류	-15383
▁가지	-15384
▁그만두	-15385
▁바다에	-15386
▁펼치어	-15387
7,	-15388
▁요동	-15389
▁이송	-15390
▁갈리아	-15391
▁고속도	-15392
가능한	-15393
태는	-15394
▁조약이	-15395
▁짓는	-15396
▁함경남도	-15397
조리	-15398
.3%	-15399
▁Cl	-15400
▁면적	-15401
▁정인	-15402
▁날이	-15403
▁영역에	-15404
▁제정된	-15405
능력을	-15406
▁보한다	-15407
▁들어오았다	-15408
▁임명하였다	-15409
밀히	-15410
사유	-15411
▁리모	-15412
▁박종	-15413
▁포수	-15414
▁고대의	-15415
▁생각이	-15416
▁전당에	-15417
▁진을	-15418
▁정의는	-15419
▁효과는	-15420
▁강조하았다	-15421
▁아끼	-15422
▁태그	-15423
▁헌신	-15424
창의	-15425
▁안티오	-15426
▁하시	-15427
▁홍문관	-15428
서었다	-15429
▁담당한다	-15430
▁고토	-15431
▁대각	-15432
▁시몬	-15433
▁유식	-15434
▁리스트	-15435
▁십자군	-15436
▁시도를	-15437
▁피아니스트	-15438
▁혼란을	-15439
법률	-15440
▁염기	-15441
▁음향	-15442
▁혼성	-15443
발로	-15444
▁똑같이	-15445
▁평론가	-15446
▁목성의	-15447
▁증상이	-15448
▁열차를	-15449
800	-15450
▁Bl	-15451
▁미륵	-15452
▁유혹	-15453
▁좌석	-15454
음보살	-15455
▁것의	-15456
▁공이	-15457
▁조반니	-15458
▁헬리콥	-15459
▁대화를	-15460
▁동쪽은	-15461
▁그리었다	-15462
월호	-15463
▁요인	-15464
▁전복	-15465
▁게릴라	-15466
▁도덕적	-15467
▁떨어뜨	-15468
▁소나무	-15469
▁소피아	-15470
▁이가	-15471
▁논쟁이	-15472
▁수록예정자	-15473
▁에너지가	-15474
pr	-15475
라르	-15476
▁제인	-15477
안과	-15478
only	-15479
준을	-15480
척을	-15481
▁1889	-15482
▁애틀랜타	-15483
▁인공지능	-15484
▁정의를	-15485
▁케임브리지	-15486
▁작품에서	-15487
▁판매하는	-15488
국인	-15489
나마	-15490
인당	-15491
▁씨앗	-15492
▁주입	-15493
로이드	-15494
▁90%	-15495
▁무궁화	-15496
▁삼국지	-15497
▁와일드	-15498
▁드는	-15499
▁바뀌어	-15500
▁시에서	-15501
▁인접하아	-15502
▁정기적으로	-15503
6,	-15504
▁팰	-15505
네티	-15506
▁갤러	-15507
▁목판	-15508
▁전래	-15509
위한	-15510
▁봄에	-15511
정부가	-15512
▁체계는	-15513
▁대체되었다	-15514
▁진행하였다	-15515
▁마셜	-15516
▁일간	-15517
축을	-15518
▁얇은	-15519
▁지키고	-15520
▁참여할	-15521
▁표현이	-15522
▁구역은	-15523
▁사상은	-15524
▁원인으로	-15525
었었다	-15526
란스	-15527
일자	-15528
▁미션	-15529
비치는	-15530
▁이라	-15531
▁장제	-15532
▁증대	-15533
리라	-15534
▁Mar	-15535
▁알파벳	-15536
▁역할은	-15537
▁한계를	-15538
▁사용되기도	-15539
▁입양	-15540
▁조형	-15541
▁열심히	-15542
▁즐길	-15543
CACAF	-15544
▁당대의	-15545
▁도입한	-15546
▁아이디얼	-15547
▁종교의	-15548
▁생긴다	-15549
▁조직은	-15550
▁하느님의	-15551
▁활동하며	-15552
노부	-15553
제곱	-15554
▁윌슨	-15555
▁헬싱	-15556
읍에	-15557
▁전국의	-15558
▁화를	-15559
▁도로를	-15560
▁세금을	-15561
▁박사학위를	-15562
밴드	-15563
해석	-15564
▁국유	-15565
▁김유	-15566
▁말리	-15567
▁문경	-15568
▁전무	-15569
▁토스카	-15570
틴은	-15571
▁수도로	-15572
▁아랍에미	-15573
청에서	-15574
▁보존되어	-15575
▁상처를	-15576
▁그녀에게	-15577
위원회에서	-15578
▁떡	-15579
지정	-15580
ous	-15581
▁프레이	-15582
▁헌법을	-15583
▁협정을	-15584
보았다	-15585
▁활동하던	-15586
남부	-15587
선형	-15588
에몽	-15589
▁공방	-15590
▁노조	-15591
▁부터	-15592
▁축조	-15593
▁토크	-15594
제이다	-15595
▁선수의	-15596
▁혐의를	-15597
▁후지와라노	-15598
▁만들어진다	-15599
RT	-15600
업체	-15601
▁고	-15602
▁걸리	-15603
▁절단	-15604
사한	-15605
▁가리지	-15606
▁남성의	-15607
▁발표하고	-15608
▁황제는	-15609
.8%	-15610
▁구형	-15611
▁아데	-15612
탈리아	-15613
▁대기업	-15614
▁아키타	-15615
▁유학생	-15616
▁지도자로	-15617
받았으며	-15618
▁늘어나았다	-15619
고르	-15620
마디	-15621
카쓰	-15622
▁선원	-15623
▁은거	-15624
▁제임	-15625
▁개인적	-15626
년도에	-15627
▁대표가	-15628
▁동등한	-15629
의원을	-15630
▁다양하게	-15631
▁힘으로	-15632
▁관하아서는	-15633
▁카즈	-15634
▁패트릭	-15635
▁리그로	-15636
▁주도한	-15637
▁규정을	-15638
▁활발하게	-15639
▁개통되었다	-15640
▁강풍	-15641
▁궁정	-15642
▁대부	-15643
▁이득	-15644
▁점수	-15645
▁패전	-15646
▁강남구	-15647
나오아	-15648
스키의	-15649
▁JTBC	-15650
▁당하고	-15651
▁스톡홀름	-15652
▁사항을	-15653
▁시정	-15654
▁유저	-15655
경기장	-15656
합을	-15657
▁검사를	-15658
물ᆫ	-15659
▁공백	-15660
▁매거	-15661
▁가상의	-15662
▁가져온	-15663
복음	-15664
▁드리	-15665
▁칼럼	-15666
▁초창기	-15667
락은	-15668
▁헤르체고	-15669
▁반응은	-15670
▁축구를	-15671
▁점령하았다	-15672
EL	-15673
다운	-15674
▁대영	-15675
▁동네	-15676
▁리바	-15677
▁모호	-15678
시한	-15679
▁마누엘	-15680
▁서울로	-15681
▁시작할	-15682
▁우려가	-15683
▁줄이어	-15684
▁친구인	-15685
▁한국을	-15686
여단	-15687
추진	-15688
▁가맹	-15689
▁로얄	-15690
▁아빠	-15691
▁정동	-15692
▁펑크	-15693
▁프롤	-15694
약의	-15695
▁케이스	-15696
▁내각의	-15697
▁반응이	-15698
▁아이가	-15699
▁장면이	-15700
결혼	-15701
증권	-15702
치히	-15703
▁그저	-15704
▁김명	-15705
▁성리	-15706
▁천거	-15707
▁행진	-15708
독한	-15709
▁서대문	-15710
궁을	-15711
숙은	-15712
▁그보다	-15713
▁자료이다	-15714
▁투수이다	-15715
▁노선으로	-15716
IL	-15717
▁격투	-15718
▁김광	-15719
▁생일	-15720
▁모시고	-15721
▁장르의	-15722
▁영업을	-15723
▁지휘를	-15724
▁총리를	-15725
▁클리블랜드	-15726
▁마에	-15727
▁선비	-15728
▁수령	-15729
▁일괄	-15730
▁정려	-15731
▁토미	-15732
물인	-15733
▁수학적	-15734
▁패럴림픽	-15735
치에서	-15736
▁약속을	-15737
▁만들었고	-15738
년제	-15739
_14	-15740
▁장사	-15741
▁치즈	-15742
런의	-15743
▁선은	-15744
▁출판된	-15745
▁간격으로	-15746
▁기수	-15747
▁리옹	-15748
▁산성	-15749
▁한해	-15750
span	-15751
▁몽골의	-15752
▁천황이	-15753
▁단체이다	-15754
▁주민들의	-15755
▁광학	-15756
▁차출	-15757
경찰서	-15758
우스와	-15759
▁교회는	-15760
▁전반적인	-15761
▁이야기이다	-15762
사범	-15763
row	-15764
▁Sy	-15765
▁계수	-15766
▁고원	-15767
▁갖지	-15768
▁불안정	-15769
▁의사소	-15770
▁노래가	-15771
▁마리의	-15772
▁운행하고	-15773
미래	-15774
▁이완	-15775
배가	-15776
운동장	-15777
▁죽인	-15778
▁교통의	-15779
▁달라고	-15780
▁공격하는	-15781
▁댓	-15782
▁SL	-15783
▁방치	-15784
▁보석	-15785
러와	-15786
리그에	-15787
▁명확한	-15788
▁여기어	-15789
▁천문학자	-15790
▁플래티넘	-15791
버스는	-15792
▁함수는	-15793
▁함수를	-15794
나시	-15795
레시	-15796
클로	-15797
.1%	-15798
ern	-15799
▁나노	-15800
▁이언	-15801
▁초고	-15802
▁최진	-15803
▁비영리	-15804
위까지	-15805
▁스타일을	-15806
EM	-15807
비에	-15808
▁ch	-15809
▁유타	-15810
▁정작	-15811
▁중형	-15812
버의	-15813
부인	-15814
ance	-15815
▁ATP	-15816
▁마르티	-15817
공사의	-15818
▁전신인	-15819
▁북쪽은	-15820
▁Br	-15821
▁메뉴	-15822
▁무찌	-15823
▁슬픔	-15824
▁잠정	-15825
▁기술적	-15826
▁대대로	-15827
▁열대폭	-15828
▁자메이	-15829
▁토리노	-15830
▁맞은	-15831
▁면이다	-15832
라기	-15833
청구	-15834
▁격추	-15835
▁공천	-15836
거가	-15837
▁겉보기	-15838
▁빅토르	-15839
▁왕실의	-15840
▁1,500	-15841
▁설립하여	-15842
세기까지	-15843
▁그룹으로	-15844
▁소울	-15845
▁요충	-15846
▁페니	-15847
▁헬레	-15848
▁요제프	-15849
경비	-15850
▁EX	-15851
▁노바	-15852
▁출가	-15853
▁뉴캐슬	-15854
▁앤드루	-15855
▁잃어	-15856
대학의	-15857
▁작성된	-15858
▁작전에	-15859
▁칸은	-15860
▁공격하아	-15861
▁관련하아	-15862
▁출발하여	-15863
▁재일	-15864
▁제대	-15865
▁출석	-15866
▁타르	-15867
▁한중	-15868
▁부를	-15869
▁엘리트	-15870
▁1848	-15871
대학을	-15872
▁여기었다	-15873
PC	-15874
▁구와	-15875
▁보증	-15876
▁세븐	-15877
▁수필	-15878
▁의문	-15879
▁회상	-15880
점인	-15881
▁적게	-15882
▁차로	-15883
▁수용할	-15884
▁유지할	-15885
▁고쿠	-15886
▁루카	-15887
▁부당	-15888
▁치세	-15889
▁쾌속	-15890
▁드디어	-15891
▁명확히	-15892
▁양식의	-15893
공화국의	-15894
onlyinclude	-15895
라바	-15896
복합	-15897
올리	-15898
클	-15899
▁연봉	-15900
▁평평	-15901
▁모리스	-15902
극을	-15903
▁제품의	-15904
▁사용되어	-15905
▁업그레이드	-15906
▁되도록	-15907
▁개발하았다	-15908
▁시즌에서는	-15909
orn	-15910
▁휴식	-15911
의와	-15912
▁불린	-15913
▁부모의	-15914
▁아날로그	-15915
▁유리한	-15916
▁사망자가	-15917
트넘	-15918
▁발령	-15919
▁입주	-15920
▁듣지	-15921
▁일반적	-15922
▁노래로	-15923
▁유대인	-15924
▁참가할	-15925
▁일어나지	-15926
▁소프트웨어를	-15927
▁브룩	-15928
▁우아	-15929
▁해저	-15930
심과	-15931
▁부모님	-15932
▁점과	-15933
코를	-15934
▁병원에	-15935
▁경로를	-15936
바리	-15937
소비	-15938
현실	-15939
-09	-15940
▁매체	-15941
▁상공	-15942
▁고양시	-15943
▁딸이	-15944
▁말고	-15945
▁스테이지	-15946
▁예전에	-15947
셔	-15948
놀이	-15949
▁AV	-15950
▁공존	-15951
▁구이	-15952
▁침묵	-15953
▁타케	-15954
▁피어	-15955
▁핑크	-15956
빌라이	-15957
▁복소수	-15958
▁아나톨	-15959
▁주위의	-15960
▁주제가	-15961
▁암컷은	-15962
▁고려시대의	-15963
▁여기어지고	-15964
티에	-15965
▁상행	-15966
▁정성	-15967
▁구의	-15968
▁바뀐	-15969
▁해병대	-15970
▁기간동안	-15971
▁느끼고	-15972
▁장애인	-15973
▁프란체스코	-15974
▁강조하는	-15975
▁그러다가	-15976
▁여기어지었다	-15977
벨트	-15978
▁NT	-15979
▁다윈	-15980
▁무작	-15981
자고	-15982
▁사거리	-15983
▁과도한	-15984
▁단체의	-15985
▁도로가	-15986
론으로	-15987
▁출전하지	-15988
탄	-15989
긴	-15990
▁개항	-15991
▁부채	-15992
▁생리	-15993
▁코소	-15994
▁씨가	-15995
▁언론인	-15996
▁컴퓨팅	-15997
▁찍은	-15998
▁의회에서	-15999
교사	-16000
ook	-16001
▁랴오	-16002
▁선행	-16003
▁승점	-16004
▁저격	-16005
레스트	-16006
▁쏘아	-16007
▁포스터	-16008
▁국무총리	-16009
▁프랜시스	-16010
▁호를	-16011
▁시작하고	-16012
대학교를	-16013
ows	-16014
▁부합	-16015
련된	-16016
오스트	-16017
▁노르망	-16018
▁마이애	-16019
▁무소속	-16020
▁묶어	-16021
▁씌어	-16022
▁클레이	-16023
▁호르몬	-16024
키를	-16025
▁국립공원	-16026
▁대전의	-16027
았었다	-16028
▁늙	-16029
▁이양	-16030
조참판	-16031
후가	-16032
▁로드리	-16033
▁밴쿠버	-16034
▁시청률	-16035
순위로	-16036
▁버전으로	-16037
▁캐나다에서	-16038
▁창설되었다	-16039
▁쿡	-16040
수지	-16041
▁김형	-16042
▁앙골	-16043
▁차체	-16044
▁포스	-16045
▁현종	-16046
▁대단히	-16047
▁프란치	-16048
▁식물의	-16049
▁카탈루냐	-16050
▁방안을	-16051
▁서비스가	-16052
▁이용하아서	-16053
▁증가하았다	-16054
▁한편으로는	-16055
공파	-16056
로쿠	-16057
바퀴	-16058
으로	-16059
컴퓨	-16060
힐	-16061
▁강대	-16062
▁렌즈	-16063
▁매력	-16064
▁이씨	-16065
▁최강	-16066
▁카지	-16067
▁코시	-16068
포에	-16069
▁...	-16070
▁가르침	-16071
▁놀랍ᆫ	-16072
▁득표율	-16073
도어가	-16074
화하기	-16075
▁단어가	-16076
▁입학하여	-16077
▁작용하는	-16078
▁붙이어지었다	-16079
코딩	-16080
oll	-16081
▁MB	-16082
▁공의	-16083
▁베리	-16084
▁철폐	-16085
다와	-16086
▁돌로	-16087
개국이	-16088
시간이	-16089
요를	-16090
▁서로의	-16091
▁에콰도르	-16092
▁흐르고	-16093
▁받아들이었다	-16094
▁홉	-16095
▁대왕	-16096
▁산둥	-16097
▁카테	-16098
▁AKB	-16099
▁교차로	-16100
그룹의	-16101
▁그랑프리	-16102
▁사이로	-16103
▁이름과	-16104
▁확실하지	-16105
▁개헌	-16106
▁국한	-16107
▁글자	-16108
▁막스	-16109
▁매킨	-16110
▁수양	-16111
▁중엽	-16112
물리학	-16113
▁값은	-16114
▁음악과	-16115
당한다	-16116
▁의문을	-16117
▁직위를	-16118
▁청나라의	-16119
몽골	-16120
쁜	-16121
정권	-16122
▁덴	-16123
▁호크	-16124
이슈	-16125
olog	-16126
▁장소에	-16127
▁않아도	-16128
천년	-16129
▁전전	-16130
▁정읍	-16131
▁미야기	-16132
▁전략적	-16133
▁지리적	-16134
▁갑작스럽ᆫ	-16135
▁의지를	-16136
▁부족으로	-16137
▁z	-16138
▁손님	-16139
▁220	-16140
▁왕가의	-16141
▁분야를	-16142
▁처분을	-16143
▁Ph	-16144
▁감수	-16145
▁병이	-16146
▁거두어	-16147
▁클럽인	-16148
▁후기에	-16149
▁새끼를	-16150
방정	-16151
▁WH	-16152
▁관절	-16153
▁느린	-16154
▁레드삭	-16155
▁섬과	-16156
▁어쩔	-16157
▁청동기	-16158
▁전화를	-16159
▁정치적으로	-16160
▁프로듀서이다	-16161
스퍼	-16162
호르	-16163
ann	-16164
▁상급	-16165
▁일차	-16166
▁집회	-16167
▁여배우	-16168
▁접한	-16169
▁챌린지	-16170
▁쳐들어	-16171
▁해가	-16172
▁생성된	-16173
▁스튜어트	-16174
▁어렵게	-16175
하아질	-16176
▁대표를	-16177
▁손실을	-16178
▁CONCACAF	-16179
비용	-16180
▁동정	-16181
▁매수	-16182
▁언니	-16183
▁천천	-16184
▁하치	-16185
되나	-16186
브리아	-16187
테이너	-16188
▁낮아	-16189
▁독일군	-16190
▁부대의	-16191
각으로	-16192
▁보낸다	-16193
▁원칙을	-16194
▁지원하기	-16195
▁설치하였다	-16196
/3	-16197
보스	-16198
▁un	-16199
▁링크	-16200
관계에	-16201
▁미군의	-16202
▁콘크리트	-16203
▁협회의	-16204
우리는	-16205
▁시리즈이다	-16206
▁영역에서	-16207
▁기인	-16208
▁마애	-16209
▁모색	-16210
▁서귀	-16211
▁오락	-16212
▁필	-16213
▁허드	-16214
▁살게	-16215
▁정하고	-16216
▁고문을	-16217
▁프로그램인	-16218
▁샐	-16219
▁승무	-16220
테리아	-16221
기가	-16222
▁죽게	-16223
▁하얗ᆫ	-16224
독을	-16225
▁NASA	-16226
▁소유한	-16227
▁아이스하키	-16228
▁않다고	-16229
▁영향력이	-16230
▁치르었고	-16231
공작	-16232
부로	-16233
_16	-16234
▁가산	-16235
▁선동	-16236
▁습윤	-16237
▁좌측	-16238
▁매니저	-16239
▁유닉스	-16240
▁각지의	-16241
▁연이어	-16242
▁음반이	-16243
재산	-16244
키타	-16245
.9%	-16246
▁줄리	-16247
▁하야	-16248
▁건조한	-16249
▁전자의	-16250
▁규모를	-16251
▁동치이다	-16252
▁부인은	-16253
▁일본군의	-16254
비르	-16255
▁기저	-16256
▁면제	-16257
▁선로	-16258
▁세트	-16259
보니	-16260
저기압	-16261
▁3.5	-16262
충은	-16263
▁레스토랑	-16264
▁벨라루스	-16265
▁해안에	-16266
▁논쟁을	-16267
▁중심지로	-16268
레우	-16269
아마	-16270
지부	-16271
▁복장	-16272
▁본뜨	-16273
더가	-16274
▁ABC	-16275
▁대사관	-16276
▁면이	-16277
냐는	-16278
▁사라진	-16279
▁국내에서	-16280
▁유목	-16281
▁입국	-16282
치지	-16283
▁앨리스	-16284
▁페트로	-16285
▁내리고	-16286
▁시작되었고	-16287
▁금호	-16288
▁김천	-16289
▁치루	-16290
▁70%	-16291
▁금요일	-16292
▁쪽에	-16293
▁1883	-16294
▁곳곳에	-16295
▁오케스트	-16296
▁증거를	-16297
▁수행하았다	-16298
트레	-16299
▁고아	-16300
▁매기	-16301
▁스포	-16302
▁이모	-16303
▁전담	-16304
섬의	-16305
▁아이언	-16306
▁충청도	-16307
▁많아지	-16308
▁무대에서	-16309
▁겁	-16310
▁극락	-16311
▁주조	-16312
▁많지	-16313
▁예컨대	-16314
좌를	-16315
▁선수이었다	-16316
유예	-16317
ref	-16318
▁무겁	-16319
▁찐	-16320
▁포터	-16321
▁키예프	-16322
록은	-16323
▁비롯된	-16324
▁안정된	-16325
행으로	-16326
▁다음하아	-16327
▁걸치어서	-16328
▁보았을	-16329
EE	-16330
이ㅓ	-16331
▁아타	-16332
▁지출	-16333
▁컴파	-16334
업과	-16335
우에	-16336
▁대니얼	-16337
▁신학자	-16338
▁마을이	-16339
▁자원을	-16340
▁성장하였다	-16341
▁전까지는	-16342
부산	-16343
▁경복	-16344
▁나루	-16345
▁성곽	-16346
▁희곡	-16347
▁기다리	-16348
▁소재의	-16349
▁정책의	-16350
▁공로를	-16351
▁기법을	-16352
▁의석을	-16353
▁정하는	-16354
▁행하는	-16355
▁캐릭터를	-16356
▁토착종이다	-16357
미치	-16358
세손	-16359
시카	-16360
▁국적	-16361
▁자결	-16362
▁인간과	-16363
▁안정적인	-16364
▁서울특별시의	-16365
철학	-16366
▁사쿠	-16367
▁이나	-16368
▁주자	-16369
▁OST	-16370
▁다양체	-16371
▁바꿀	-16372
▁노래의	-16373
▁시즈오카	-16374
리스는	-16375
만원을	-16376
▁공산당의	-16377
▁간략	-16378
배에	-16379
테의	-16380
▁아리아	-16381
▁형인	-16382
월을	-16383
역까지	-16384
▁표현은	-16385
▁경기장으로	-16386
기자	-16387
보장	-16388
하겐	-16389
▁SH	-16390
▁다듬	-16391
▁로페	-16392
▁직통	-16393
▁끌어	-16394
▁양자로	-16395
▁해당되는	-16396
는다는	-16397
▁밝히어지지	-16398
서스	-16399
▁관동	-16400
▁류큐	-16401
▁원통	-16402
▁인재	-16403
▁질문	-16404
고시마	-16405
▁게이지	-16406
▁글로브	-16407
▁다이어	-16408
▁목소리	-16409
부분에	-16410
▁지난날	-16411
고양	-16412
공화	-16413
버른	-16414
▁반포	-16415
▁서임	-16416
▁유해	-16417
▁의령	-16418
▁접수	-16419
▁테무	-16420
돌이	-16421
루로	-16422
초가	-16423
▁쿠빌라이	-16424
▁규칙을	-16425
▁네이션스컵	-16426
▁사용자의	-16427
하아준다	-16428
▁딥	-16429
▁밀어	-16430
▁우파	-16431
▁채취	-16432
헝가리	-16433
▁가도	-16434
▁뉴욕주	-16435
▁케이프	-16436
이ᄆ이	-16437
▁에스페란	-16438
▁정상적인	-16439
▁지명되었다	-16440
▁깜	-16441
공단	-16442
▁우치	-16443
레이트	-16444
▁시간대	-16445
균은	-16446
료는	-16447
▁답변	-16448
▁부평	-16449
▁비엔	-16450
▁인과	-16451
▁용인시	-16452
▁거두며	-16453
▁견해가	-16454
▁열을	-16455
▁오카야마	-16456
여자중학교	-16457
▁공으로	-16458
안보	-16459
키스	-16460
▁강간	-16461
▁문하	-16462
▁실재	-16463
▁우유	-16464
▁종군	-16465
▁화랑	-16466
가지	-16467
례로	-16468
ᄆ은	-16469
▁가솔린	-16470
년경에	-16471
▁경제를	-16472
▁보호하는	-16473
▁시에는	-16474
▁숀	-16475
다스	-16476
왕국	-16477
▁볼로	-16478
▁수락	-16479
▁예고	-16480
▁콘솔	-16481
그리스	-16482
▁양이	-16483
정이다	-16484
▁그것의	-16485
▁유력한	-16486
▁정상에	-16487
▁믿었다	-16488
▁옮기어지었다	-16489
▁간첩	-16490
▁무안	-16491
▁비늘	-16492
▁사쓰	-16493
▁유의	-16494
▁하키	-16495
▁항목	-16496
▁1-2	-16497
▁남자가	-16498
▁수업을	-16499
지기	-16500
▁로비	-16501
무의	-16502
복이	-16503
▁남동생	-16504
▁형이	-16505
운동이	-16506
호선과	-16507
▁구하기	-16508
▁생명을	-16509
▁원리를	-16510
▁크었다	-16511
▁독립적으로	-16512
▁못하았지만	-16513
▁5.	-16514
▁군부	-16515
▁니혼	-16516
▁폭파	-16517
배의	-16518
▁기관차	-16519
티를	-16520
▁문화에	-16521
▁물리치고	-16522
▁스트라이크	-16523
오았고	-16524
▁독자적으로	-16525
▁이번에는	-16526
▁남구	-16527
▁별세	-16528
▁법의	-16529
▁영국령	-16530
▁왕국이	-16531
▁프랑스령	-16532
▁모른다	-16533
▁전반적으로	-16534
▁낙하	-16535
▁베풀	-16536
▁유비	-16537
궁에	-16538
오르크	-16539
▁라파엘	-16540
▁이용객	-16541
▁미래통합	-16542
▁여지가	-16543
▁지역인	-16544
▁친구가	-16545
▁정보는	-16546
▁아프리카의	-16547
▁영화에서	-16548
8,	-16549
통상	-16550
ink	-16551
▁공감	-16552
▁백신	-16553
▁스와	-16554
▁은혜	-16555
▁중수	-16556
▁하프	-16557
▁허리	-16558
손의	-16559
하고	-16560
▁카메룬	-16561
운드의	-16562
▁바다의	-16563
층에서	-16564
▁설립되어	-16565
도라	-16566
▁야외	-16567
▁체조	-16568
▁타자	-16569
▁혼다	-16570
말로	-16571
지기	-16572
서도	-16573
▁국회의	-16574
▁조직에	-16575
▁성향을	-16576
▁형사소송법	-16577
단하았다	-16578
▁고흥	-16579
▁1882	-16580
▁벌이어	-16581
집으로	-16582
▁코스타리카	-16583
▁있는가	-16584
9,	-16585
메트	-16586
▁PR	-16587
▁불분	-16588
▁선천	-16589
▁유료	-16590
▁캐롤	-16591
▁말미암	-16592
▁최연소	-16593
▁카타르	-16594
▁파일럿	-16595
품은	-16596
▁대중의	-16597
▁지배하는	-16598
▁따르ㅏ서는	-16599
▁도래	-16600
▁반전	-16601
▁우한	-16602
▁API	-16603
▁빨간색	-16604
탄은	-16605
▁관련되어	-16606
▁쓰기도	-16607
▁정당이다	-16608
▁여객철도의	-16609
▁국회의원을	-16610
▁받았던	-16611
▁있어서의	-16612
▁차지하았고	-16613
포시	-16614
▁강철	-16615
▁나미	-16616
▁번영	-16617
▁장인	-16618
▁혼동	-16619
내가	-16620
노와	-16621
익스피	-16622
▁1.0	-16623
▁다나카	-16624
▁루돌프	-16625
▁사ㅏㅆ	-16626
등은	-16627
▁시장이	-16628
▁세인트루이스	-16629
▁발전하였다	-16630
▁극우	-16631
▁농어	-16632
▁모범	-16633
▁블레	-16634
▁피핀	-16635
▁시코쿠	-16636
▁월요일	-16637
▁피라미	-16638
▁이론이	-16639
▁지구가	-16640
▁목록을	-16641
▁종류는	-16642
어지어서	-16643
▁탈락하았다	-16644
동성	-16645
아과	-16646
전대	-16647
▁김인	-16648
▁찬양	-16649
▁40%	-16650
▁Your	-16651
적이라고	-16652
▁미드필더로	-16653
▁일으킨다	-16654
▁없었으며	-16655
스레	-16656
▁경인	-16657
▁부가	-16658
▁비전	-16659
▁자서	-16660
수도	-16661
▁너무나	-16662
▁산이	-16663
▁생겨난	-16664
▁패배한	-16665
▁산업은	-16666
▁수준을	-16667
▁지닌다	-16668
▁유지하았다	-16669
▁괄	-16670
옆면	-16671
▁집정	-16672
이래	-16673
케는	-16674
▁감옥에	-16675
▁방식에	-16676
▁프로세서	-16677
▁남았다	-16678
▁플레이어가	-16679
▁개발하였다	-16680
곡리	-16681
les	-16682
▁AD	-16683
▁단원	-16684
▁장안	-16685
▁폭풍	-16686
▁방사능	-16687
▁대륙의	-16688
▁도시인	-16689
▁생전에	-16690
▁활동의	-16691
▁후계자로	-16692
부작	-16693
▁보강	-16694
▁실무	-16695
야와	-16696
▁은메달	-16697
▁나에게	-16698
▁단계를	-16699
▁진행을	-16700
▁진출한다	-16701
OK	-16702
oo	-16703
ru	-16704
승지	-16705
▁BM	-16706
▁동력	-16707
▁밝혀	-16708
창이	-16709
퍼런스	-16710
▁미토콘	-16711
이라서	-16712
▁달리는	-16713
시키어야	-16714
대리	-16715
어넣	-16716
▁대역	-16717
▁추억	-16718
▁편의	-16719
것은	-16720
시이다	-16721
▁마음의	-16722
▁체제로	-16723
▁처럼	-16724
▁실시하는	-16725
스콘	-16726
출력	-16727
▁송신	-16728
민스터	-16729
티가	-16730
▁세우는	-16731
▁무산되었다	-16732
마귀	-16733
모어	-16734
솔리	-16735
자금	-16736
▁글꼴	-16737
▁반격	-16738
▁int	-16739
▁급속히	-16740
▁레오폴	-16741
▁바꾼	-16742
▁어느날	-16743
▁작다	-16744
좌상은	-16745
▁수사를	-16746
▁만들어지어	-16747
권에서는	-16748
▁미소	-16749
▁얘기	-16750
▁지극	-16751
브가	-16752
선거구	-16753
▁Sou	-16754
▁주기	-16755
▁죽기	-16756
▁미야자키	-16757
진에서	-16758
▁들어가게	-16759
▁원정을	-16760
▁분리되었다	-16761
끔	-16762
▁En	-16763
▁분지	-16764
▁재외	-16765
▁회로	-16766
▁히메	-16767
네이션	-16768
니에	-16769
말의	-16770
▁예선에	-16771
▁파는	-16772
▁알렉산드리아	-16773
▁못하았던	-16774
▁룸	-16775
▁쟈	-16776
메데	-16777
▁누이	-16778
▁스퀘	-16779
등과	-16780
▁레이싱	-16781
▁퍼스트	-16782
▁해밀턴	-16783
▁돕는	-16784
▁위치가	-16785
▁효율적으로	-16786
ec	-16787
경쟁	-16788
유가	-16789
▁본인	-16790
달의	-16791
죄로	-16792
▁10,	-16793
▁옮긴	-16794
스테르담	-16795
▁겪은	-16796
▁밖에서	-16797
▁증상을	-16798
▁컴퓨터를	-16799
세력	-16800
군	-16801
▁영장	-16802
▁정전	-16803
▁동로마	-16804
▁외국어	-16805
▁생활에	-16806
▁경상북도의	-16807
▁주인공으로	-16808
▁므	-16809
▁빌라	-16810
▁염려	-16811
▁잠깐	-16812
길에	-16813
▁잃게	-16814
르트의	-16815
▁이기고	-16816
▁대항하여	-16817
▁측에서	-16818
도서관은	-16819
▁담당하였다	-16820
EX	-16821
회원	-16822
▁사탕	-16823
▁커리	-16824
▁켈트	-16825
순의	-16826
음에	-16827
▁게오르	-16828
▁블루	-16829
▁선언을	-16830
강전에서	-16831
▁하나로서	-16832
알라	-16833
▁더비	-16834
▁무섭	-16835
▁소외	-16836
▁와인	-16837
▁포토	-16838
히지	-16839
스트가	-16840
▁명령에	-16841
▁용어가	-16842
지역에서	-16843
▁아직까지	-16844
▁여기어지는	-16845
AI	-16846
그마	-16847
▁국외	-16848
▁중합	-16849
▁터이	-16850
가기	-16851
▁놓인	-16852
▁맺어	-16853
진상규명	-16854
▁단계로	-16855
▁올림피아	-16856
▁전하고	-16857
로스는	-16858
번이나	-16859
▁작업은	-16860
▁대항하는	-16861
▁통과하는	-16862
▁91	-16863
▁연동	-16864
▁키보	-16865
▁풍속	-16866
두의	-16867
지며	-16868
▁공군의	-16869
▁기준이	-16870
▁더하아	-16871
▁나타나지	-16872
▁클럽은	-16873
▁적용된다	-16874
▁쿠데타를	-16875
▁첸	-16876
▁김준	-16877
▁미세	-16878
▁진해	-16879
일체유	-16880
▁메시지	-16881
▁가족이	-16882
▁교회가	-16883
▁신앙을	-16884
▁프랑스를	-16885
▁CM	-16886
▁공고	-16887
▁정자	-16888
▁픽처	-16889
▁SNS	-16890
▁상업적	-16891
▁단계에	-16892
고속도로의	-16893
들처럼	-16894
▁주었고	-16895
션	-16896
▁FK	-16897
▁마린	-16898
▁보라	-16899
▁조셉	-16900
▁조슈	-16901
당할	-16902
증에	-16903
▁미치ㄴ	-16904
▁점성술	-16905
▁Live	-16906
▁질문에	-16907
▁결합하여	-16908
▁아프리카계	-16909
▁자료는	-16910
▁저항을	-16911
여행	-16912
토프	-16913
▁가중	-16914
▁게리	-16915
▁소극	-16916
▁혐오	-16917
펜하겐	-16918
▁돌고	-16919
▁피할	-16920
후는	-16921
▁1868	-16922
▁근거가	-16923
▁목적이	-16924
▁학교는	-16925
▁사용하았으며	-16926
문서	-16927
세키	-16928
원수	-16929
▁교정	-16930
▁신입	-16931
▁신화에	-16932
▁가나가와현	-16933
▁기념하기	-16934
▁기타를	-16935
▁말미암아	-16936
▁요구하였다	-16937
비서	-16938
▁누나	-16939
▁몰ᆫ	-16940
▁연립	-16941
▁탄자	-16942
황의	-16943
▁바에	-16944
▁이의	-16945
욱은	-16946
▁북한이	-16947
▁차례에	-16948
산초등학교	-16949
▁결승전에	-16950
▁대학은	-16951
▁본부를	-16952
▁현장에서	-16953
▁전하아지는	-16954
변호	-16955
유도	-16956
투르	-16957
▁고딕	-16958
▁성전	-16959
▁에른	-16960
▁위촉	-16961
▁자작	-16962
▁장덕	-16963
▁제천	-16964
▁좀더	-16965
▁커플	-16966
한국	-16967
▁끝날	-16968
▁도메인	-16969
▁북유럽	-16970
▁영원히	-16971
▁자유당	-16972
근을	-16973
들이어	-16974
직하고	-16975
화되고	-16976
▁강화를	-16977
▁판정을	-16978
▁괌	-16979
비언	-16980
▁검거	-16981
▁파병	-16982
▁풀ᆯ	-16983
칸옆면	-16984
▁본질적	-16985
나라가	-16986
▁황제를	-16987
▁비판하는	-16988
▁1:	-16989
▁For	-16990
▁Wind	-16991
▁문학의	-16992
▁생기어	-16993
▁서울중앙	-16994
▁연맹이	-16995
▁체제의	-16996
▁곡들은	-16997
▁불과하다	-16998
▁사운드트랙	-16999
▁설계되었다	-17000
▁실시하았다	-17001
BL	-17002
▁통보	-17003
▁이바지	-17004
▁자란	-17005
▁기록과	-17006
▁유니버설	-17007
▁치는	-17008
▁표를	-17009
버린다	-17010
족으로	-17011
▁당국은	-17012
▁프랑스로	-17013
조치	-17014
▁8,	-17015
▁우지	-17016
▁멜버른	-17017
▁화학적	-17018
▁더글러스	-17019
▁산을	-17020
▁온다	-17021
▁이기어	-17022
▁참석한	-17023
▁흥미를	-17024
ㄴ데스리가	-17025
▁예전에는	-17026
.)	-17027
강의	-17028
▁GO	-17029
▁kt	-17030
▁초콜	-17031
▁화엄	-17032
지자	-17033
히게	-17034
▁법과	-17035
▁이스탄	-17036
▁민간인	-17037
▁구성은	-17038
놓았다	-17039
이었다가	-17040
▁죠	-17041
▁과테	-17042
디나비아	-17043
▁메릴랜드	-17044
▁지시를	-17045
▁아이들을	-17046
▁홍콩에서	-17047
▁콜로이라도	-17048
~8	-17049
▁부다	-17050
견이	-17051
월드컵	-17052
▁오일러	-17053
▁자기가	-17054
▁국적을	-17055
▁느끼는	-17056
▁뿌리를	-17057
▁어머니와	-17058
▁겔	-17059
▁나르	-17060
▁러일	-17061
▁세바	-17062
▁새긴	-17063
▁프로모	-17064
센터는	-17065
▁등판하아	-17066
▁흐른다	-17067
▁가르침을	-17068
▁것이므로	-17069
▁광범위하게	-17070
▁찢	-17071
니오	-17072
수단	-17073
▁산지	-17074
▁성명	-17075
▁휘말	-17076
▁낮다	-17077
▁도야마	-17078
▁마르세	-17079
▁몬테네	-17080
▁넣는	-17081
▁바탕에	-17082
▁유럽에	-17083
▁발표하여	-17084
▁법칙을	-17085
▁온도는	-17086
▁닷	-17087
▁파우	-17088
▁포럼	-17089
웨스트	-17090
▁가이드	-17091
▁요시다	-17092
▁이사회	-17093
▁제이슨	-17094
▁피해자	-17095
디를	-17096
요는	-17097
▁나카무라	-17098
▁가격은	-17099
▁박사는	-17100
▁설립하고	-17101
▁장소를	-17102
▁챙	-17103
당시	-17104
_21	-17105
▁관세	-17106
데이터	-17107
창한	-17108
▁배터리	-17109
▁빨갛ᆫ	-17110
▁지상파	-17111
사들은	-17112
▁국가대표로	-17113
▁후반부터	-17114
▁OB	-17115
▁몰려	-17116
▁카프	-17117
먼의	-17118
▁LED	-17119
▁이르게	-17120
▁프랭클린	-17121
▁공격은	-17122
▁문서이다	-17123
▁앗	-17124
▁헛	-17125
게ㄴ	-17126
▁고이	-17127
▁남인	-17128
▁무제	-17129
▁비대	-17130
▁산호	-17131
▁세레	-17132
▁현직	-17133
▁그만큼	-17134
▁사의	-17135
▁야마가타	-17136
▁털은	-17137
▁영어를	-17138
▁공성	-17139
▁드라	-17140
▁송도	-17141
▁전미	-17142
약이	-17143
양에	-17144
훈이	-17145
▁각자의	-17146
▁항복을	-17147
▁경기장에서	-17148
▁공개적으로	-17149
▁채택되었다	-17150
▁계단	-17151
▁모차	-17152
▁차츰	-17153
▁클러	-17154
▁느낄	-17155
▁새기어	-17156
▁자료에	-17157
▁종래의	-17158
▁러시아와	-17159
▁배우이자	-17160
▁사형을	-17161
▁찬사를	-17162
~1	-17163
올라	-17164
ung	-17165
▁굴절	-17166
▁몰리	-17167
▁악마	-17168
▁재상	-17169
▁조이	-17170
기나	-17171
▁pro	-17172
▁법에	-17173
▁산티아	-17174
▁철저히	-17175
▁교회에	-17176
▁보이게	-17177
▁사랑과	-17178
▁학생이	-17179
▁고속도로	-17180
▁공장을	-17181
▁자녀를	-17182
▁철학을	-17183
▁못하았으며	-17184
▁내주	-17185
▁전락	-17186
▁징병	-17187
▁차관	-17188
▁호쿠	-17189
불의	-17190
▁폭이	-17191
▁다리가	-17192
▁부근의	-17193
▁작품인	-17194
번호는	-17195
조사를	-17196
▁비교하여	-17197
▁책에서	-17198
▁어머니를	-17199
개미	-17200
어사	-17201
_20	-17202
▁금산	-17203
처의	-17204
▁파푸아	-17205
▁헤이안	-17206
▁거리의	-17207
▁교육에	-17208
▁주민의	-17209
▁문화는	-17210
▁보이어준	-17211
누마	-17212
장로	-17213
정지	-17214
▁송파	-17215
▁역도	-17216
▁지류	-17217
▁다목적	-17218
▁유니언	-17219
▁프리스	-17220
가지가	-17221
▁발달한	-17222
▁언어가	-17223
▁나이는	-17224
▁직책을	-17225
▁제정되었다	-17226
.,	-17227
▁쪼	-17228
리자	-17229
파울	-17230
▁상연	-17231
▁하시	-17232
료가	-17233
리아	-17234
파인	-17235
▁동메달	-17236
고등법원	-17237
퍼레이션	-17238
▁공간에	-17239
▁잦은	-17240
▁스타일의	-17241
거리에서	-17242
▁예로는	-17243
바브	-17244
_17	-17245
▁럭비	-17246
▁루키	-17247
▁시부	-17248
▁에레	-17249
페스트	-17250
▁비타민	-17251
▁시간과	-17252
▁프로야구	-17253
▁안타를	-17254
▁공장에서	-17255
▁유래되었다	-17256
▁거세	-17257
▁보복	-17258
▁자회	-17259
▁제의	-17260
▁프론	-17261
무가	-17262
있어	-17263
길은	-17264
박을	-17265
▁은하의	-17266
▁등에게	-17267
▁중요하게	-17268
▁투자를	-17269
▁하았기	-17270
▁맡았던	-17271
▁여인	-17272
▁우간	-17273
▁은신	-17274
딘은	-17275
▁할리우드	-17276
▁강의를	-17277
분열	-17278
▁베드	-17279
▁상기	-17280
설의	-17281
▁IOC	-17282
▁아이오	-17283
▁교사로	-17284
▁닮은	-17285
분부터	-17286
하지도	-17287
▁이동하는	-17288
▁거두었고	-17289
TE	-17290
gin	-17291
▁도네	-17292
▁동등	-17293
▁이코	-17294
▁경주시	-17295
▁모로코	-17296
▁가공의	-17297
▁프랜차이	-17298
르트는	-17299
▁연주를	-17300
▁완벽하게	-17301
▁훈장을	-17302
▁않다는	-17303
▁영국으로	-17304
▁스크린도어가	-17305
▁취소되었다	-17306
AE	-17307
▁군정	-17308
▁보령	-17309
▁칭송	-17310
클리드	-17311
▁내지	-17312
▁사실에	-17313
▁총을	-17314
▁서로를	-17315
▁형식은	-17316
▁우크라이나의	-17317
▁언급하였다	-17318
▁콕	-17319
고뉴	-17320
군주	-17321
▁상법	-17322
▁원활	-17323
▁추서	-17324
▁가라앉	-17325
▁싶다	-17326
▁경력이	-17327
▁계획의	-17328
▁급격한	-17329
▁맛을	-17330
▁몇몇의	-17331
▁씨는	-17332
▁의원의	-17333
▁행성이	-17334
▁제한을	-17335
으려는	-17336
▁일본군은	-17337
개씩	-17338
기동	-17339
▁서스	-17340
▁압록	-17341
▁적분	-17342
궐선거	-17343
▁가고시마	-17344
▁잡는	-17345
▁무역을	-17346
▁시신은	-17347
▁지방은	-17348
▁컴퓨터의	-17349
▁코로나바이러스	-17350
▁불행	-17351
▁안토	-17352
▁하코	-17353
용과	-17354
▁불확실	-17355
▁주지사	-17356
대한민국	-17357
쉬는	-17358
컵을	-17359
▁단체인	-17360
▁맡는	-17361
▁스페인어	-17362
▁존재로	-17363
▁코펜하겐	-17364
▁근본적인	-17365
▁맡기도	-17366
▁전역을	-17367
▁코드는	-17368
▁인기있는	-17369
끄럽	-17370
남자	-17371
▁다우	-17372
▁무술	-17373
▁불변	-17374
▁이누	-17375
▁포식	-17376
▁피오	-17377
▁하행	-17378
락의	-17379
▁이론과	-17380
▁파견하여	-17381
번지	-17382
▁고추	-17383
▁박성	-17384
▁엄마	-17385
▁후배	-17386
▁천천히	-17387
▁Part	-17388
▁의과대학	-17389
▁시절을	-17390
하더라도	-17391
▁달하았다	-17392
▁모으았다	-17393
▁이탈리아는	-17394
이었으므로	-17395
전달	-17396
치우	-17397
캠퍼	-17398
토크	-17399
ood	-17400
▁오아	-17401
▁합천	-17402
그가	-17403
▁3.0	-17404
▁풀어	-17405
▁결혼한	-17406
▁의회에	-17407
▁쿠웨이트	-17408
▁그리는	-17409
▁치명적인	-17410
ai	-17411
호대	-17412
▁공휴	-17413
▁연희	-17414
▁의약품	-17415
▁싸우어	-17416
▁체제가	-17417
▁상에서	-17418
▁적었다	-17419
▁인도네시아의	-17420
▁지역에는	-17421
보고	-17422
▁04	-17423
▁격려	-17424
▁경과	-17425
▁김승	-17426
▁노보	-17427
표의	-17428
▁말과	-17429
▁브뤼셀	-17430
▁감염된	-17431
▁왕조가	-17432
▁회사에	-17433
▁프란시스코	-17434
▁멍	-17435
노미	-17436
몰ᆫ	-17437
성장	-17438
lan	-17439
▁김윤	-17440
▁세습	-17441
▁후예	-17442
청소년	-17443
▁나트륨	-17444
▁피렌체	-17445
▁게오르크	-17446
▁한국철도	-17447
▁발탁되어	-17448
▁성명을	-17449
-08	-17450
▁안녕	-17451
▁정몽	-17452
금과	-17453
▁보이스	-17454
▁1893	-17455
▁사회민주	-17456
▁요구에	-17457
▁컨테이너	-17458
▁활동과	-17459
▁치었다	-17460
타인	-17461
▁입수	-17462
▁해역	-17463
▁다카라	-17464
▁오리온	-17465
▁나타날	-17466
▁비중이	-17467
▁새누리당	-17468
▁장점이	-17469
▁구성을	-17470
▁시신을	-17471
▁함대를	-17472
바위	-17473
▁송출	-17474
▁월터	-17475
▁해부	-17476
녀의	-17477
절의	-17478
▁공격이	-17479
▁몸은	-17480
▁보이기	-17481
▁포함되지	-17482
▁거리에서	-17483
▁BC	-17484
▁농경	-17485
▁회귀	-17486
송의	-17487
▁연한	-17488
▁계통의	-17489
▁그밖에	-17490
▁병력이	-17491
▁스트레스	-17492
▁기관이다	-17493
▁중심을	-17494
▁히틀러는	-17495
줄기	-17496
▁자책	-17497
▁첼시	-17498
▁라오스	-17499
▁느끼게	-17500
▁면을	-17501
▁지위에	-17502
전까지	-17503
▁방지하기	-17504
▁푸에르토리	-17505
▁하ㄴ다면	-17506
▁공개하였다	-17507
▁갚	-17508
▁산요	-17509
▁오디	-17510
▁주파수	-17511
▁참의원	-17512
▁책으로	-17513
DA	-17514
기아	-17515
사자	-17516
▁싸이	-17517
▁줄리아	-17518
▁언론의	-17519
▁사용하게	-17520
▁일제강점기	-17521
▁유아기를	-17522
▁투표에서	-17523
▁과장	-17524
▁도피	-17525
살에	-17526
▁담아	-17527
▁사헌부	-17528
▁아라곤	-17529
명이며	-17530
▁가리는	-17531
▁분포하고	-17532
▁침공을	-17533
▁현대자동차	-17534
▁들어오는	-17535
▁밝히어진	-17536
▁전적으로	-17537
▁받았는데	-17538
PG	-17539
▁퉁	-17540
티즌	-17541
▁봉화	-17542
▁재팬	-17543
▁택시	-17544
▁판례	-17545
타나베	-17546
▁대성당	-17547
▁알렉스	-17548
▁요청에	-17549
▁행동이	-17550
▁현대에	-17551
▁공화국이	-17552
▁귀국하여	-17553
었음에도	-17554
▁도둑	-17555
▁조롱	-17556
▁450	-17557
▁발전소	-17558
▁장기간	-17559
▁사상의	-17560
▁안되는	-17561
▁공간으로	-17562
▁스칸디나비아	-17563
▁향토문화유산	-17564
음으로써	-17565
되었음을	-17566
회관	-17567
▁at	-17568
▁반감	-17569
▁상록	-17570
▁용의	-17571
▁집착	-17572
▁한큐	-17573
하되	-17574
▁1-1	-17575
▁중성자	-17576
▁강하다	-17577
▁위키백과	-17578
▁읽는	-17579
▁선고받았다	-17580
▁군용	-17581
▁설문	-17582
▁어우	-17583
▁요격	-17584
▁이메	-17585
▁재선	-17586
절에	-17587
▁Day	-17588
▁미쓰비시	-17589
▁운행이	-17590
▁수행하고	-17591
▁질량을	-17592
▁것과는	-17593
▁스페인은	-17594
▁지칭하는	-17595
▁거치었다	-17596
_18	-17597
▁규탄	-17598
▁수에	-17599
▁따르고	-17600
▁로마로	-17601
▁미래에	-17602
▁작가가	-17603
▁잡히어	-17604
▁증거는	-17605
▁활용하여	-17606
▁효율적인	-17607
전에는	-17608
▁전달하는	-17609
▁유래하였다	-17610
나파	-17611
면적	-17612
▁대출	-17613
▁서열	-17614
▁수목	-17615
▁포털	-17616
극의	-17617
하로	-17618
▁교황청	-17619
▁나갈	-17620
▁찾고	-17621
▁테네시	-17622
른베르크	-17623
▁구조와	-17624
▁숨을	-17625
▁병사를	-17626
▁암스테르담	-17627
▁지내는	-17628
년동계올림픽	-17629
▁진행한다	-17630
▁드러내었다	-17631
▁촛	-17632
ool	-17633
▁가의	-17634
▁김선	-17635
▁헌액	-17636
▁당선된	-17637
▁줄이기	-17638
▁둘러싸인	-17639
▁사무를	-17640
▁패하았다	-17641
니코	-17642
청장	-17643
활성	-17644
▁94	-17645
▁노후	-17646
▁다발	-17647
▁대포	-17648
▁들이	-17649
▁전구	-17650
▁페로	-17651
▁홍수	-17652
▁별을	-17653
▁시설관리	-17654
▁어항이다	-17655
▁시작되었으며	-17656
변속	-17657
▁리조	-17658
▁산시	-17659
▁지오	-17660
▁지침	-17661
▁함흥	-17662
▁일반화	-17663
ublic	-17664
▁멤버가	-17665
자리는	-17666
▁비중을	-17667
▁연루되어	-17668
시키면서	-17669
IR	-17670
나드	-17671
비노	-17672
▁양측	-17673
▁영천	-17674
▁옥천	-17675
▁조선후	-17676
▁하니	-17677
민회의	-17678
▁요하네스	-17679
▁원하지	-17680
▁것들을	-17681
▁광고를	-17682
▁문신이다	-17683
▁살아남은	-17684
▁플랫폼을	-17685
니에	-17686
전도	-17687
▁신원	-17688
▁외래	-17689
▁원천	-17690
미술관	-17691
▁달고	-17692
▁로스쿨	-17693
▁심리적	-17694
▁계속된	-17695
▁반란이	-17696
▁우루과이	-17697
되다가	-17698
전부터	-17699
▁이용되고	-17700
▁입단하여	-17701
▁접근을	-17702
▁지붕은	-17703
단에는	-17704
▁맞았다	-17705
▁콘서트를	-17706
▁참가하았으며	-17707
길	-17708
▁평가가	-17709
▁목소리가	-17710
▁공항으로	-17711
▁판매되었다	-17712
선택	-17713
▁기성	-17714
▁우세	-17715
▁지자	-17716
▁청계	-17717
▁해피	-17718
▁캐서린	-17719
▁음악이	-17720
억원을	-17721
▁대규모의	-17722
▁발견되며	-17723
▁비교하아	-17724
득점	-17725
화문	-17726
▁사귀	-17727
미사일	-17728
질에	-17729
▁성남시	-17730
▁클라크	-17731
▁최고인	-17732
분까지	-17733
▁명확하게	-17734
▁활동으로	-17735
▁것이지만	-17736
▁국제적으로	-17737
▁성장하았다	-17738
▁냉전	-17739
▁도출	-17740
▁띤	-17741
▁아다	-17742
▁영암	-17743
▁원반	-17744
▁인원	-17745
▁달에	-17746
▁마카오	-17747
▁세네갈	-17748
▁펠리페	-17749
▁셰익스피	-17750
▁전투로	-17751
▁총리로	-17752
▁아틀레티코	-17753
▁흩어지어	-17754
공장	-17755
▁목재	-17756
▁점거	-17757
▁정제	-17758
▁평민	-17759
▁가깝게	-17760
▁과정의	-17761
▁기관의	-17762
▁추정하고	-17763
어항으로	-17764
▁앨범으로	-17765
▁슛	-17766
▁노면	-17767
▁셀	-17768
▁워드	-17769
▁찰리	-17770
▁해왕	-17771
베르타	-17772
▁매끄럽ᆫ	-17773
[...]
