[UNK]
[CLS]
[SEP]
[PAD]
[MASK]
!
"
#
$
%
&
'
(
)
*
+
,
-
.
/
0
1
2
3
4
5
6
7
8
9
:
;
<
=
>
?
@
A
B
C
D
E
F
G
H
I
J
K
L
M
N
O
P
Q
R
S
T
U
V
W
X
Y
Z
[
\
]
^
_
`
a
b
c
d
e
f
g
h
i
j
k
l
m
n
o
p
q
r
s
t
u
v
w
x
y
z
{
|
}
~

ᄀ
ᄁ
ᄂ
ᄃ
ᄄ
ᄅ
ᄆ
ᄇ
ᄈ
ᄉ
ᄊ
ᄋ
ᄌ
ᄍ
ᄎ
ᄏ
ᄐ
ᄑ
ᄒ
ᅡ
ᅢ
ᅣ
ᅤ
ᅥ
ᅦ
ᅧ
ᅨ
ᅩ
ᅪ
ᅫ
ᅬ
ᅭ
ᅮ
ᅯ
ᅰ
ᅱ
ᅲ
ᅳ
ᅴ
ᅵ
ᆨ
ᆩ
ᆪ
ᆫ
ᆬ
ᆭ
ᆮ
ᆯ
ᆰ
ᆱ
ᆲ
ᆳ
ᆴ
ᆵ
ᆶ
ᆷ
ᆸ
ᆹ
ᆺ
ᆻ
ᆼ
ᆽ
ᆾ
ᆿ
ᇀ
ᇁ
ᇂ
ㄱ
ㄲ
ㄳ
ㄴ
ㄵ
ㄶ
ㄷ
ㄸ
ㄹ
ㄺ
ㄻ
ㄼ
ㄽ
ㄾ
ㄿ
ㅀ
ㅁ
ㅂ
ㅃ
ㅄ
ㅅ
ㅆ
ㅇ
ㅈ
ㅉ
ㅊ
ㅋ
ㅌ
ㅍ
ㅎ
ㅏ
ㅐ
ㅑ
ㅒ
ㅓ
ㅔ
ㅕ
ㅖ
ㅗ
ㅘ
ㅙ
ㅚ
ㅛ
ㅜ
ㅝ
ㅞ
ㅟ
ㅠ
ㅡ
ㅢ
ㅣ
가
각
간
감
갑
갓
갔
강
같
개
거
건
걸
것
겄
게
겐
겟
겠
겨
곈
고
곡
곤
곰
곳
공
과
관
괴
교
구
군
굽
규
그
근
금
긋
긔
기
긴
길
까
깐
깝
깨
꺼
껀
껄
께
껭
껴
꼐
꼬
꾸
꿔
끄
끔
끼
나
난
남
내
냐
냔
냥
냬
냰
너
넌
네
넨
녀
녕
녜
노
논
놋
농
뇌
뇨
누
눈
느
는
늘
늠
능
늬
늰
니
닌
닛
닝
다
단
달
담
답
닷
당
대
댄
댑
댔
댜
더
던
덜
덧
덩
데
덴
뎁
뎌
도
돗
동
돠
되
두
둔
둥
뒈
드
득
든
들
듯
등
듸
디
딘
딩
따
떼
라
락
란
랄
람
랍
랏
랑
래
랜
랠
랩
랬
랴
랸
러
런
럴
럼
레
려
련
렴
렵
렷
렸
례
로
록
롤
롯
롱
롸
뢰
료
루
룩
류
르
른
를
리
린
릴
릿
링
마
만
많
말
망
매
맨
맹
먀
머
먼
멍
메
멘
며
면
모
목
몬
무
문
뭇
므
믄
미
민
바
밖
배
백
밲
버
벼
보
부
분
비
빈
뿐
사
살
삼
삽
상
새
샤
샨
샬
샴
샷
서
선
성
세
셔
션
셧
셨
셰
소
손
솝
송
쇠
쇼
숌
수
쉐
쉬
슈
스
슨
슴
습
시
신
실
심
십
싸
써
쎄
쎠
쏘
쏜
쑤
씨
씩
아
악
안
압
앗
았
앙
애
앱
앳
앴
야
약
얀
얄
얌
얏
얐
양
얘
얫
어
억
언
얼
엄
없
엇
었
엉
엊
에
엣
여
연
염
엿
였
영
예
옛
오
옥
온
올
옵
옷
와
완
왇
외
요
욘
욜
욤
욧
용
우
운
울
움
워
원
웓
월
웨
웬
웰
위
유
윤
윰
으
은
을
음
읍
응
의
이
인
일
잇
있
잉
자
작
잔
잖
잘
잡
장
재
쟈
쟛
쟤
저
정
제
젠
져
조
좁
좋
죠
죵
주
쥬
즈
즉
지
직
진
징
쩌
찌
차
처
치
침
카
캉
캤
커
케
코
쿠
큼
키
타
터
텀
텅
테
텨
투
튼
티
파
프
피
하
한
허
헌
혀
히
##5
##2
##6
##3
##0
##8
##ᅥ
##ᄋ
##ᅮ
##ᆨ
##ᄃ
##i
##g
##l
##e
##s
##r
##t
##y
##C
##H
##O
##a
##z
##o
##n
##u
##c
##f
##ᅦ
##ᄅ
##ᅳ
##ᅵ
##ᅴ
##ᄈ
##ᄍ
##ᄇ
##X
##L
##V
##"
##>
##*
##m
##ᄂ
##ᅡ
##ᄏ
##ᅩ
##ᄌ
##ᆫ
##4
##1
##7
##d
##k
##h
##ᅧ
##ᆷ
##ᆼ
##Z
##w
##T
##b
##ᅨ
##ᄀ
##ᅪ
##ᄉ
##\
##_
##ᄆ
##ᄐ
##ᅢ
##ᄑ
##p
##ᅬ
##ᆯ
##ᅱ
##ᄎ
##A
##S
##G
##P
##ᅯ
##ᅲ
##ᅭ
##R
##W
##ᄒ
##v
##Q
##U
##}
##^
##{
##ᆴ
##9
##N
##I
##ᆸ
##M
##q
##j
##ᅣ
##ᆺ
##ᆹ
##K
##D
##x
##Y
##ㄹ
##ㅈ
##B
##ᄄ
##ᇁ
##E
##F
##ᇂ
##ᆿ
##ㅋ
##ᆮ
##ᆾ
##ᄊ
##ᅤ
##J
##ᆩ
##ㅘ
##ㄽ
##ᅰ
##.
##'
###
##[
##ᄁ
##ᅫ
##ᆰ
##ᆱ
##ㅣ
##ㄴ
##ㅏ
##ㅁ
##ㅗ
##ㄱ
##ㅂ
##!
##/
##ㄷ
##ㅎ
##지
##면
##ㅐ
##ㅄ
##-
##)
##;
##ㅠ
##ᆲ
##ᆻ
##즉
##ㅚ
##ㄳ
##ᆽ
##=
##,
##ㅛ
##?
##라
##이
##ㅌ
##ㅇ
##ㅡ
##:
##ㄵ
##까
##마
##는
##ㅜ
##ᆳ
##ᆬ
##ㅓ
##ㅊ
##ㄲ
##ㅆ
##ㅕ
##ㅀ
##+
##ㅅ
##가
##니
##와
##던
##데
##요
##단
##ᆭ
##ㅍ
##ᇀ
##ᆶ
##%
##]
##냐
##도
##ᆪ
##|
##(
##답
##시
##고
##ㅒ
##ㄺ
##셔
##ᆵ
##ㅃ
##들
##ㅑ
##ㄼ
##ㅙ
##ㅞ
##&
##곤
##$
##ㅝ
##ㄶ
##유
##~
##ㄻ
##@
##러
##느
##ㅖ
##미
##오
##다
##만
##듸
##었
##서
##에
##나
##ㅔ
##ㅟ
##야
##차
##<
##은
##께
##더
##용
##드
##메
##걸
##ㅉ
##ㄿ
##늘
##대
##ㄸ
##텨
##ㄾ
##사
##구
##든
##잇
##디
##정
##스
##ㅢ
##죠
##란
##뇨
##예
##근
##거
##기
##제
##려
##여
##리
##래
##며
##두
##위
##`
##련
##꾸
##랍
##테
##건
##우
##먼
##진
##루
##길
##언
##셨
##신
##목
##랑
##개
##벼
##세
##네
##그
##어
##당
##저
##달
##선
##말
##군
##아
##랄
##로
##부
##터
##키
##손
##랏
##웨
##락
##갑
##매
##녀
##문
##랴
##옷
##소
##게
##옵
##겨
##치
##샤
##실
##쟈
##넌
##비
##자
##무
##감
##록
##간
##깐
##롱
##겠
##모
##듯
##밖
##슨
##랬
##써
##커
##녕
##피
##레
##직
##잉
##뎁
##쇼
##노
##냔
##넨
##잖
##람
##공
##댔
##찌
##습
##담
##재
##므
##뎌
##믄
##큼
##텅
##수
##교
##욧
##바
##겐
##꺼
##를
##댜
##룩
##카
##싸
##셰
##하
##렵
##양
##쥬
##놋
##끼
##장
##꼬
##료
##논
##따
##곳
##둥
##슈
##뿐
##져
##머
##런
##티
##텀
##댄
##동
##깨
##금
##규
##닛
##럼
##쏘
##등
##껀
##셧
##누
##각
##망
##쿠
##투
##난
##럴
##냥
##성
##멍
##르
##껄
##외
##랜
##숌
##껴
##렴
##굽
##으
##징
##쎠
##덴
##케
##씨
##염
##프
##강
##많
##새
##돠
##되
##파
##쏜
##작
##안
##십
##주
##캤
##빈
##렷
##닌
##온
##워
##꿔
##덩
##엇
##침
##압
##멘
##쇠
##
##보
##릴
##타
##른
##끔
하
이
##ᅡᆼ
##이
##ᅡᆫ
##ᅥᆫ
##리
##ᅩᆼ
##ᅧᆫ
##ᅧᆼ
##ᅥᆼ
##ᅳᆯ
##ᅡᆯ
##ᅮᆫ
시
##시
##지
##ᅡᆨ
##스
##ᅩᆨ
아
되
그
지
있
##ᅮᆯ
가
##하
주
##ᅧᆨ
거
에서
사
##ᅥᆨ
으로
ᆫ다
##기
##ᅩᆫ
##ᅳᆼ
##어
대
들
어
##르
수
기
##ᅢᆼ
나
마
보
##ᅮᆨ
##드
##가
##라
##로
것
##ᅥᆯ
자
##나
일
##ᅯᆫ
다
모
##ᅦ이
전
##ᅥᆷ
##트
##우
##사
적
##치
##장
오
##도
년
##ᅧᆯ
바
##자
##대
##요
스
##니
##ᅪᆫ
미
정
##러
##그
##미
조
20
상
유
부
##수
##정
##인
##아
화
##ᅣᆼ
##오
공
비
##주
##상
때
##전
##ᅢᆨ
위
##히
중
인
##화
제
경
##국
고
##용
차
도
##제
##ᅯᆯ
##력
##키
한
소
무
##구
##성
노
##신
##부
세
##고
없
##ᅳᆷ
등
성
##문
지만
여
##래
##ᅥᆸ
월
않
##원
개
##동
##ᅳᆨ
만
##격
에게
##마
##터
타
구
##타
내
리
동
201
피
##간
선
장
방
연
##비
##거
##다
후
##즈
##유
##ᅦᆯ
영
##ᅦᆫ
카
발
드
우
치
말
신
##체
요
당
생
안
##소
버
##작
##야
##ᅪᆼ
##크
##명
의
##무
##계
는데
서
##ᅵᆷ
##ᆯ리
19
추
포
파
크
##서
원
명
##일
회
##재
때문
까지
강
해
##보
##식
##위
##의
##00
##티
아서
##들
최
##만
##루
##당
##후
문
##카
##프
매
배
아니
더
##음
데
같
실
관
번
##교
##선
##물
받
##행
라고
호
불
코
라는
진
##학
##회
단
##역
##실
결
프
##능
##내
##단
라
반
초
##ᅡᆯ리
##공
많
##한
패
##디
특
로
역
작
으며
##람
##토
다고
야
##모
나오
##속
##피
계
##반
##버
면서
분
##과
보이
##려
쓰
##점
##레
레
국
남
##산
##분
##조
##ᅳᆫ
##생
그리
그러
10
두
경우
다르
##각
처
사용
출
##차
현
##두
##본
어서
에
##레이
##진
##연
물
다는
##중
저
##류
공격
##관
이후
##호
예
교
##안
캐
따
##태
통
##면
알
자신
감
학
또
재
못
점
##민
##군
애
편
##세
##영
##코
##런
좋
##노
사람
트
##바
위하
##름
디
##해
키
입
##급
##경
대하
##저
##방
##금
##법
##ᅮᆷ
정도
##발
##적
##브
##종
메
속
부터
형
설
너
함
##업
과
군
##통
##포
##스트
##록
참
##습
김
##양
플
가능
게이
평
외
##승
토
##매
본
##론
다른
##술
시키
종
##파
##료
##준
권
12
##직
승
##건
##녀
200
가지
으나
이나
##심
팀
죽
직
뒤
##션
등장
##투
##입
##표
는다
11
아이
히
보다
용
판
그리고
확
##어지
체
하나
행
게임
버리
변
경기
운
심
##운
돌
..
##여
만들
맞
##개
##판
##약
박
##족
##테
못하
살
끄
채
##er
##석
잘
##데
간
활
달
##설
투
##랑
##령
사실
집
##형
시간
##황
##량
##너
다가
목
양
건
약
##련
##출
사이
##합
필
네
각
##향
##츠
##릭
높
##께
시작
테
##란
모드
표
##현
루
##청
##품
일본
##추
새
##망
태
왕
이름
##복
이상
##것
##더
함께
언
모습
##절
열
존
따르
##니다
순
##언
베
##외
##게
독
증
상대
##어나
15
한국
프로
문제
##지만
##환
브
##울
음
##머
천
총
##ᅳᆯ리
병
거나
##in
손
효
##네
##임
잡
##독
으면
하지만
터
##스터
능
생각
별
완
##ᅵᆨ
힘
##즌
또한
##립
다시
##송
끝
##병
항
가장
막
##목
복
##천
폭
근
광
##ᆯ라
##배
##험
스키
들어
식
및
시즌
당시
날
##럽
티
플레이
캐릭
삼
##대로
18
누
##막
아야
산
ᆫ데
먹
듯
##on
##락
처럼
싸
당하
캐릭터
검
##년
능력
빠
모두
ᆫ지
니
##쪽
##색
##결
백
충
민
임
상황
상태
##ᅧᆸ
블
길
##근
모든
레이
그렇
##퍼
아도
느
##or
금
##감
세계
##질
##ᆫ드
선수
추가
##악
앞
##an
##초
라이
머
16
결국
##벨
커
친
곡
##담
##탄
현재
합
카드
##등
##미지
스킬
##쿠
업
##케
다음
슈
쿠
얼
##살
통하
##쟁
##편
지역
넘
악
##메
##함
##남
미국
ᆫ다는
많이
##말
전투
그러나
30
쉬
효과
급
존재
##라이
다만
눈
13
취
첫
199
##에
여기
시리
허
청
##항
##택
14
##접
법
엔
매우
##예
북
##ar
황
페
창
이러
대학
클
##견
17
##강
##존
바ᄁ
절
##냥
뜨
##ᅥᆯ어지
이ᄇ
달리
째
극
기록
골
##글
##처
얻
##he
의하
##범
그런
철
상당
##패
##at
인하
스타
시리즈
게
찾
레벨
##집
기술
ᄇ니다
##ᅮᆼ
괴
이유
##움
##득
여러
처음
##규
올리
어ᄄ
무기
엄
이용
영화
물론
그래
##왕
##와
##별
부르
놓
방송
난
은
다면
자체
곳
100
이것
환
팬
해당
##템
필요
줄
##널
##커
워
이런
##워
실제
##곡
25
일반
규
##열
##ᅧᆾ
들어가
귀
탈
모르
주인
마법
ᆫ다고
리그
##은
거의
돌아
어야
꼬
##끼
학교
##거리
역시
##느
혼
범
바로
##달
스ᄐ
사건
##틀
##en
잠
##으
나가
관련
특히
같이
위치
유니
##착
기본
축
2017
부분
와
##롭
즉
붙
대표
##박
국가
진행
류
##ou
##야기
피해
겨
면
##부분
제작
2018
##칭
탄
격
글
방어
아무
이야기
담
##례
##창
활동
마지
##권
동안
##찰
는지
없이
가ᄁ
알리
##육
좀
메이
##난
인간
작품
밝
##변
웨
걸
증가
대부분
싶
##시아
일부
##때
접
준
##al
둘
래
##괴
##페
풀
##ᆨ스
마지막
뿐
쉽
비스
##찬
엘
2019
씨
##혼
몸
##ᆯ러
암
지나
본인
계속
자기
##활
21
러
##es
##렵
감독
ᆫ가
서울
떨어지
##극
몇
우리
샤
##광
몬
생기
##ᇂ게
내용
##애
관계
흐
2016
중국
벌
맡
##린
##률
##철
헤
##순
##희
팔
넣
50
주인공
속도
##월
덕
이전
##전히
참고
대신
##베
수준
전쟁
##없
타이
오르
##징
##리스
나이
쪽
그냥
비슷
어도
어느
##응
##턴
까
##블
질
으니
##날
기준
비하
지금
희
성공
22
198
대한
도시
강하
##ᅦ인
만나
홍
협
라면
##민국
스토
낮
##ᅦ이스
논
도록
이루
##탈
밝히
##돌
뛰
멀
짜
떠
인물
##불
울
그녀
슬
배우
##율
##벌
결과
24
최대
연구
자리
##증
지원
습니다
##랴
##ᅦᆫ트
뉴
상당히
밀
기사
공격력
올라
평가
홈
##슨
##ᆷ버
시절
##할
##온
육
##플
##it
그대로
빠르
##략
대한민국
나타
의미
##림
너무
온
##버지
몰
제외
므로
보스
##축
죽이
##씨
망
측
##백
로서
##부터
소속
전체
실제로
##책
##북
##ᅦ이지
향
##리아
23
봉
보내
2015
승리
직접
##귀
이미
##라지
##ᆯ로
##을
퍼
개발
원래
여자
영상
그것
##획
어렵
##념
##큼
언급
##굴
유닛
체력
000
묘
마다
##st
##ing
##le
갖
##앙
##ic
##학교
멤버
갈
휴
츠
포함
데미지
이동
책
유저
정보
머리
##가지
40
마음
방법
##ᆷ피
##는
설정
##re
싸우
맨
문서
컨
선택
애니
뜻
과거
차이
씩
ᆫ다면
##늘
센
출연
##평
쇼
깨
##슬
님
##운드
가까
농
불리
던
석
듣
침
송
왜
사회
몬스터
##ᅦ이션
##몬
파이
친구
성우
발매
##욱
돈
##누
##닝
압
설명
우승
프리
빼
갑
여성
대상
##dd
거리
탑
혹
뭐
발생
##델
##총
최고
##봉
##짜
동시
##딩
시대
엄청
소리
플레이어
바람
어ᄍ
장면
아버지
공식
마이
버전
힘들
사망
프랑
사랑
대회
칼
##침
즈
영향
##팅
바뀌
##주의
유명
##웅
2014
주로
스럽
##켓
결정
##랜드
또는
주장
층
답
역사
어떠
색
궁
남자
출신
구성
26
꽤
##la
려고
정부
인터
일어나
조금
푸
콘
운영
학생
유지
공개
28
음악
나라
버스
##ff
걸리
초반
##염
아이템
빠지
오래
섬
서로
정치
중요
독일
전부
##밀
새롭
27
대사
방식
##쉬
르
과정
시스
the
##ᅦ일
월드
스토리
##el
노래
파괴
나타나
31
형태
##갑
최초
억
강화
자주
역할
제대로
만큼
후반
##컬
쏘
이때
아직
영국
##랙
최종
##쁘
밖
대전
다니
휘
##am
좌
##필
##om
##벽
아래
싱
착
##우스
마리
쓰이
##머니
변경
끼
딜
찍
바이
뽀
강력
##클
폐
누구
##확
이벤트
##얼
기존
회복
##곤
볼
정말
##잡
##맨
##객
197
조선
##측
비교
##먹
보통
잔
##is
##다가
##프트
그런데
정신
느끼
드래
어떤
마을
마찬
마찬가지
##아가
이기
소환
인기
특성
데이
발견
링
노선
라도
앨
행동
당연
성능
늘
##뜨
엄청나
2013
드라
##번
다이
움
프랑스
확률
윤
교육
먼
속성
##덕
바꾸
풍
##훈
슈퍼
아들
올
모양
자유
##퇴
##풍
오히
##이도
대로
이제
차량
대학교
가깝
오히려
29
##휘
라인
##라도
##너지
하이
차지
##억
##et
##렌
끌
부족
문화
짓
사라지
32
술
확인
특수
##손
##ol
활약
게다가
케
이번
생산
관리
##ion
유일
시스템
끝나
녹
모델
00
2012
성격
##웨
응
제국
수록
흑
스트
액
장비
따라
##답
##디오
내리
고등
##혀
훈
입장
구하
흔
영웅
맞추
선거
아예
빛
일단
축구
이렇게
##지어
##ᆫ스
##폭
어리
숨
득
##숙
계획
운동
맵
돌아오
반대
뽑
##골
##램
2010
202
획
에피
경찰
들어오
주변
먼저
##레스
기간
우주
자동
심지어
앨범
위원
개인
km
기능
완전히
##레이드
조건
그루
스ᄑ
##통령
##새
사진
거기
중심
##럼
적용
건물
애니ᄆ
##nd
지구
드러
부대
뮤
##ow
##ᅢᆼ크
##엇
##옥
감소
어요
##il
60
##ᆨ트
떠나
으로서
난이도
##ig
잃
중앙
발동
##멸
##ed
##든
현대
##곳
견
회사
초기
열리
자세
실패
지방
##롯
##ᅦ이트
어디
시기
대통령
참여
혹은
##니아
설치
##져
196
지키
##뷔
35
그래서
##균
##튼
세트
표현
작가
드라마
프로그
##뢰
민주
##충
돌아가
라며
클리
물리
다양
국내
##ᅩᆾ
덕분
##엘
듀
##ᆼ장
얼굴
##탁
기관
전혀
##먼
데뷔
TV
반응
동일
지속
##익
출시
패배
맥
##웃
처리
칸
오브
인정
원작
발표
하루
##압
판매
도움
순간
##ac
모으
획득
##슈
##as
애니메이션
그룹
퇴
얼마
무엇
날리
of
##버스
구조
크로
명칭
헌
담당
요구
더라도
후보
##BS
컴
정확
생활
2011
꾸
##룡
특별
##없이
땅
##나마
진출
벨
시점
그렇게
넘어
굉장
롭
밖에
선발
탐
족
작중
단계
##리카
영어
상승
국제
##아내
기억
움직
만화
경제
핵
가격
습
그림
아군
##ve
항목
##비스
##들이
##럭
Lv
밤
빌
##죄
올라가
##므로
##링
##소드
세우
마스터
##욕
The
아마
##싸
시장
실력
##놓
세이
량
그나마
미치
으므로
졸
가족
참가
로부터
헬
특징
야구
아르
드래곤
수비
대체
다며
낙
계약
##채
찌
았었
턴
킹
방향
##탕
이거
사고
딸
01
##넷
경험
2000
고려
려는
범위
러시아
연기
아주
##ot
덱
프로그램
밀리
맛
시청
디자
##소리
##스크
##뜨리
남기
숙
##찮
##이드
세대
묘사
퀘
어머니
500
패치
확실
지니
발사
한테
고등학교
결혼
조차
주의
폭발
믿
##으키
에피소드
80
트리
딱
##덤
활용
##맹
굴
브라
각각
목적
피하
비판
보호
##효
던지
어떻게
##ad
더욱
이ᄁ
준비
상위
무시
##밍
제공
중간
세기
나무
이르
라서
이어지
##못
인구
주요
국민
빈
조사
37
챔피
심하
45
과학
194
조직
유럽
오리
쿨
위험
펼
이미지
묻
라운드
##궁
히로
패턴
##혹
버프
굉장히
이루어지
내려
옆
단순
크리스
전하
##인트
염
참조
진짜
St
생명
죄
전문
꿈
##ᅦ임
##검
스ᄏ
다루
시도
스피
##뷰
거치
세력
흡
꺼
##틴
##칙
약하
가리
대미지
혼자
싸움
일으키
##갈
##씬
구간
불구
지하
율
연속
현실
##머지
나머지
나쁘
여담
아프
할
타입
파워
욕
ᆯ지
론
흥
유리
for
안타
소모
출전
돕
##id
부산
케이
성장
순위
익
조합
규모
웃
약간
논란
동료
70
오프
한정
포인트
사실상
항공
클래
##아오
지도
괘
훨
노리
여전히
디자인
뛰어나
기타
운행
##ay
##섭
##혁
폴
분위
바라
연결
이해
즐
무장
##나라
90
09
##스로
한편
195
징
FC
소설
##협
자연
학년
분위기
훨씬
예정
취급
으면서
성적
일정
린
부상
쌍
당연히
등급
사업
블랙
2009
투수
##ER
튀
센터
얘
태어나
읽
마치
싫
02
##ch
벽
기대
해결
향하
변화
mm
연합
플래
##닥
가스
##러지
삼성
##ᅡᆯ리아
옥
##킹
계열
##빈
가져
엔딩
##us
그래도
##ᆫ쪽
최근
##혜
추정
300
똑
##완
2008
방영
##ir
콤
발전
03
방면
스테이지
어두
괜
짧
률
수정
칭
종류
의견
##받
48
곧
미션
배치
##낌
##스타
##엄
기에
표기
도망
33
##짝
잘못
##혈
전용
##폰
##척
자면
ᆯ까
털
독립
##다리
그거
36
정상
벗
##렉
##ur
05
퀘스트
속하
척
터지
작전
소녀
수상
탓
거대
안정
##텐
대화
엔진
변하
철도
품
직업
수도
종료
나중
08
끊
움직이
충분
##참
죽음
요소
스스로
스카
챔피언
##티브
도중
큐
##둥
십
##샤
언제
캠
##파이
비행
##취
##륙
07
##액
올라오
에너지
세상
넘어가
펼치
기업
##암
나누
붙이
관하
##란드
공연
##볼
동물
특정
지내
##른
건설
비롯
달성
##같
지지
##센
##od
일행
느낌
로보
벌이
행정
벌어지
##BC
훈련
전기
싱글
당신
보상
만드
솔
HP
굳
전설
미사
##ᆩ이
졸업
렌
녀
무리
팩
빅
력
장착
##im
남성
신경
방어력
만큼
##..
런
부활
배틀
지휘
절대
06
로마
넓
위기
황제
삭
다리
관심
군사
th
##자기
##길
따라서
내부
반면
포켓
틀
번역
제목
##렬
스코
##뉴
미래
번호
2007
##ut
공간
더불
거두
##un
요리
목표
서비스
##어들
돌리
빨
점수
만약
바르
득점
##컵
근접
시험
전국
가르
아이돌
04
전차
##겁
마르
소재
충격
##층
의원
스페
##지션
SK
시설
멸
오늘
인사
목소리
록
뚜
##즘
홈런
전사
무대
정체
카이
##튜
##라고
34
덤
##데이트
사이트
인도
업데이트
지정
작업
픽
저지
##트리
분류
##흥
뒷
올림피
작곡
베이
놀
you
배경
장소
찬
똑같
가끔
최소
도로
타격
##큐
##ro
꽃
부여
빙
스포
셈
어찌
##인물
교체
혈
링크
으로써
공중
항상
##폐
##쇄
##촌
생존
##디어
냉
북한
높이
전작
##탈리아
혀
##닉
각성
맹
잉
벤
엘리
##알
##다니
파티
이끌
켄
예상
단체
그만
##트로
분노
정식
193
##너스
넘기
야마
으려
제한
가수
##흐
##붙
##ver
등장인물
겸
##igh
##ec
사냥
얘기
##ag
포켓몬
마저
자랑
아키
크리
홀
결승
38
컵
랜
##엽
2020
소개
늘어나
드리
2006
올림픽
cm
목록
##쓰
외국
종족
##ent
쌓
인터뷰
기계
이어
악마
깊
##동안
이탈리아
개념
명령
수행
필드
75
가운
초등
교통
##드리
스위
아카
##ᅪᆯ
애초
롯
이외
괜찮
듯이
ᆯ로
판정
타카
스타일
기반
연출
##이트
정하
각종
in
하늘
병력
지상
클리어
몽
로봇
군대
55
##콘
##보이
##허
제일
트위
전반
기체
바다
##던
비용
퀴
카운
##스티
확정
놀라
가운데
재미
기동
설립
크기
##텔
옛
페이
##최
살리
##화국
##뮤
##ak
표시
인식
파일
옷
경쟁
갖추
행위
##리오
건담
정작
##쿄
사항
평균
시티
레어
옵
##빠
##um
통합
교수
별로
##젝트
장갑
라이브
to
드러나
화력
##러스
포지션
납
##비아
수치
##겨
코미
니까
정의
료
왕국
뇌
사격
따로
##까
잇
근처
완전
스티
병원
진화
저항
감정
',
월드컵
국회
폰
보유
누르
집중
##짓
에이
사거리
란
노력
환경
##라인
혁
전자
비밀
갑자기
인천
##쉽
변신
기회
42
##꾸
##아들이
임무
##셉
나름
의식
자원
고양
단점
직전
##친
특이
##르트
정리
띄
옮
##em
부정
제품
스태
단어
코스
오버
부모
vs
현상
탈출
던전
촬
느리
##윤
냐고
위원회
사례
콜
##ST
##ula
어쩌
압도
마시
놈
이닝
레인
치료
펜
쯤
소련
##앗
주제
효율
판단
##ub
아파
잠시
다크
때리
극장
떨
사정
2005
밑
사무
##리어
촬영
시전
본래
지배
##헌
붕
쥬
컬
원인
나서
이쪽
가문
치명
주민
겪
아스
form
더니
정책
제거
요시
유사
도입
대구
옮기
ㅏㅆ
##000
##낙
##븐
여행
전력
무슨
상관
밴드
동생
192
삭제
고속
곤
##루스
주문
공동
##묘
기념
##싱
실험
도쿄
강제
해군
웹
파트
의외
책임
formula
##야마
중학교
병사
##어로
포기
키우
##째
역대
의사
연습
물건
텔
복귀
이하
##무리
발언
골드
새로
전개
도전
완성
##ight
언어
음식
##요일
앞서
고정
기다리
노트
위력
이적
2004
살인
으로부터
칠
41
차원
공주
모이
접근
다수
직후
화면
점프
려면
레드
루트
확장
제도
##로스
##섯
##좌
중반
##학생
불가
전략
39
뿌
받아들이
정당
도착
음반
끝내
별명
##모토
선생
셋
가치
시민
사상
텐
나이트
히어로
사기
정규
히트
빌리
버티
분명
에게서
##젤
붉
미니
산업
숨기
##특
잡히
션
엑
##셀
꼭
쫓
타임
티어
짐
어둠
##ce
##퓨
마나
연장
투표
무려
구역
LG
닥
대기
마사
조종
신체
종교
로드
장치
줄이
소유
일러
##os
자료
추천
아파트
쥐
ㅓㅆ
녀석
EX
셰
멜
은데
회피
반드
노동
살아
멘
고대
이곳
구매
##르크
형식
예전
##숨
##AR
닌
##ri
빨리
인터넷
리더
##끄
##시마
타이틀
##그레이드
업그레이드
라이트
탈락
사령
롯데
아라
폭탄
반드시
해외
44
##듀
단지
꾼
교회
아내
미사일
랭크
금지
학원
Ch
우선
##찍
앙
수마
완벽
부탁
심각
힐
달러
##밥
##벤
클럽
##AN
이사
2002
실시
이라고
##역시
일러스트
##맥
하드
범죄
장점
검사
낫
191
합류
늦
##ON
추측
구분
##ap
43
##나이
최강
##and
##몇
몇몇
선정
99
로스
조정
공포
대장
가사
전통
데이터
차례
##홍
마무리
취하
열차
요청
행사
No
위키
버그
프로젝트
그리스
종종
##덴
톤
선언
구단
스포츠
탱
##되
연재
##털
점점
대중
##듬
스페인
복수
##ᆨ정
st
수많
즐기
덜
컴퓨
가드
개최
개월
다소
서버
##ᅳᆯ린
##이치
잭
##탑
재료
설계
보병
##아하
옵션
##ᆯ린
뉴스
##십
46
롤
조작
형제
##빙
47
폼
밥
kg
51
광고
떡
브레이
택
민족
생물
##첩
##쳐
그야
입히
타자
마법사
암살
걱정
포스
트레이
부하
거부
좋아하
자마
언론
채우
KBS
##ter
개그
템
연주
숲
##롱
채널
성향
컴퓨터
통신
맺
and
해석
으
고자
코드
보조
자마자
평범
고르
한계
##말로
모자
값
종합
##걸
##죽
##조건
실점
디스
##셜
아쉽
기지
개봉
전화
행성
회의
그야말로
##맞
회장
##트라
2003
##아보
52
대결
뻔
##ul
박사
##ᆯ리스
##FA
투입
아무리
지적
비중
워낙
지명
가정
다행
원정
본격
미드
운용
한글
캡
자동차
##아지
광주
위협
무한
정확히
집단
영혼
소년
소비
인상
등록
실수
##ᆸ히
무조건
##ᆺ자
##op
%,
##무라
MA
##IN
젊
평소
냐는
상징
페르
1000
굳이
##ᅳᆯ링
닉
대응
공사
줄어들
생성
##타임
##수록
와중
##버리
##니스
##몽
카메
대형
체제
##ck
대비
충분히
통과
멋
##꽃
혐
사태
태양
##ation
는가
##의원
##ᆺ수
보컬
조각
엠
아웃
편성
먹이
##자리
##콩
쓸
군단
데스
여름
65
다운
전원
보너스
##로드
육군
150
분리
터미
이론
공항
##셔
대로
희생
긴
##펜
##라스
개조
형성
분야
시청자
방문
뿌리
##ra
뚫
촉
무사
혜
일종
흉
MBC
특유
기자
##리트
빵
도망치
가면
제안
고양이
샷
네이
리어
##ᆯ링
##돈
장군
SP
동맹
깔
치르
봉인
마력
##려가
떠오
디지
스크
벗어나
##엔
##칸
64
전환
II
보다
##톤
잊
##ᆫ만
발음
죠
##꼬
##ᅦ이크
오리지
장기
가하
얼마나
로써
반복
시나
장르
##스케
드러내
점령
안전
의도
튜
##튜브
##줄
간단
##있
You
하야
경기도
소식
ㅏ서
루이
##꺼
예선
불과
윈
빼앗
##넘
랭
유튜브
서술
##깨
개선
합치
앉
을지
##시스
함정
유도
사쿠
바닥
마크
##려오
흡수
영입
##텐츠
초대
##남도
공화국
갤러
평화
그때
근데
##빌
##니티
##오스
##art
400
##찌
코치
규정
괴물
는다는
##ᅧ보
의지
오토
저격
투자
기원
독자
라디오
비디오
숫자
밸
블루
확보
예술
전술
액션
최후
원하
에스
수사
방해
가져오
진입
##님
##나가
이치
따지
매일
##드로
##풀
##빛
필살
공략
49
화염
비트
2001
미리
주력
인원
##런스
클래스
그저
인류
적극
은퇴
외모
보도
56
관통
##랗
트래
##핑
걸치
흐르
시내
장난
승부
찾아오
들리
터미널
체육
지나가
적절
궤
VS
모험
왼쪽
목숨
패러
AP
계기
포르
컨셉
눈물
브리
In
아름
구축
방패
1990
느냐
상자
겹
작성
서브
자라
회전
##팔
완료
주연
뮤직
공부
사과
부수
##동생
트랙
몹
한국어
편집
54
장관
함대
의심
거짓
아프리카
53
분석
솔로
떼
##논
살아남
##모리
##퀴
오리지널
저지르
##나다
##바이
수리
보수
질문
들이
PC
역전
민주당
단순히
프레이
약점
챙
데리
인형
필수
아시아
ᆫ지라
##페이지
코어
경상
마침
핑
임명
황금
덩
##ia
...
##라이더
끌어
190
쓰러지
청소
재판
훌
풀리
날개
닮
장애
대단
85
##냐
사단
착용
##덜
성인
##토리
인민
오스
해제
중단
멈
##삼
경계
##래프트
꾸준
##ie
##레이션
##시브
##ill
홈페이지
드라이
쳐
비난
소프트
현장
승강
작용
하위
상대방
삶
앤
엄마
##옷
희망
사장
콩
이스
##를
습격
테러
허용
자치
수원
인지
걷
선보이
퓨
공원
진정
트로
편하
코스트
관광
더블
유래
제시
##깐
원거리
무력
지식
선물
수호
셀
영역
##몰
##RA
스마
남편
카페
기획
베르
가슴
주도
ST
명중
수단
바탕
##IA
아름답
##북도
스파이
##ik
부리
오른쪽
태도
본선
촌
모티브
거주
에이스
행복
##무원
탑재
확실히
카즈
비고
나카
저주
감안
리스
직원
체계
측면
쿄
##워드
꼴
59
##텀
지나치
롱
멈추
표정
도서
##ab
무섭
주목
테크
쿨타임
돌파
상처
고통
의문
텔레
##마스
베이스
친하
##est
제기
나타내
보급
고유
딱히
테마
뉴욕
##연히
##뉘
72
처치
업무
기점
당장
##녕
지점
공장
##푸
##랄
소울
58
망하
협력
텍
갈리
여부
멀티
120
기어
불명
부인
컷
##th
낳
비싸
##춘
유우
57
##픽
62
대답
온라인
순서
통일
문자
날아가
그레이
카메라
위주
퍼지
귀족
우수
연방
브랜드
후속
널
##all
제압
조지
##울리
멀리
계산
챙기
박스
잠깐
소수
나뉘
을까
아요
카운터
꺼내
문명
당선
##럴
MP
##ea
진영
멸망
66
1999
차별
##잔
95
건너
패스
갱
후지
은행
탯
횟수
엉
##뇌
버튼
약속
케이스
가ᄇ
혁명
시나리오
펀
드립
Lo
내려가
제조
Sh
셔
랩
##쇠
어라
가로
##ct
프레
국회의원
코너
융
에어
Re
넥
테이
오후
마츠
1998
겨우
살해
붕괴
춤
달라지
지옥
그라
락
자격
특기
오스트
댓
삼국
랍
미야
눈치
상하
최악
듀얼
뱀
크로스
on
증거
##붙이
균
연계
개편
외부
에다
ᆯ수록
늘리
다가
펠
시체
##머리
유키
가볍
딜러
##다르
##핀
군인
섭
##니어
Sp
겨울
군주
핵심
정권
틈
의회
공산
어린
gt
가져가
미스
매치
게시
중화
자이
ddd
제로
부담
교사
배신
미군
110
출발
컨트로
##릉
대놓
출생
##AT
게이지
옹
##AL
레이저
자살
웨이
니코
단위
드물
진실
##ddd
스프
dddddd
어울리
##학자
견제
해금
##ᆨ시
충돌
미나
##PS
최대한
##릿
아침
대원
##륭
##워하
ㅓ서
거절
장전
여왕
##터리
궁극
봄
가르치
플라
##OR
도구
필살기
##라리
전장
충전
댄스
홍콩
커뮤
Th
로켓
##아리
거래
유용
교환
카르
SS
용병
이성
룰
만족
##VE
반란
##달리
취소
부문
SBS
lt
귀엽
##ess
##사카
##멘
마왕
넷
체인
##ate
##쇼
피아
한화
고급
일본어
##킨
부진
쓰러
닥터
타이밍
는다고
##ard
표준
기분
##ell
블로
흔히
##광역시
##컨
스피드
61
협회
조준
피해자
발매되
Al
1997
남부
아메
근무
고서
##전자
76
애매
제주
##읍
단독
##ang
무게
##ue
##메달
마이크
스킨
토스
공군
필리
공통
얼음
##ers
신화
비록
##ant
파악
극장판
하트
##웨이
발휘
판타
핀
수입
비율
권력
세계관
유형
스파
장수
삽
##IC
건강
자르
어떻
끼리
경력
인생
헤드
##ine
겹치
가입
본부
##ack
##하라
한자
후반부
순수
근거
공작
막히
계급
레전
##헨
모션
##세이
FI
77
커버
##래도
아무래도
물질
88
혼란
지시
패시브
구입
격투
몰리
외교
프라
엑스
##촉
##다수
아머
쿼
감염
입단
##두르
지하철
자식
따위
해방
NP
파이터
연대
##아나
기독
탄생
##OS
덴
우려
정령
캐나다
지대
증명
회수
##어내
강조
등등
##피아
채용
빔
반영
내주
업체
생일
##젠
##심히
자고
스코어
##ᆯ레
스테
##흑
누리
홍보
노르
용도
입학
##가락
##밀리
실질
경영
승강장
##ok
아사
좁
폐지
밸런스
외치
ㅕ서
꾸준히
타워
##둑
대륙
갓
1996
문학
언니
납치
쪼
경향
CD
불안
지급
##ive
기절
병기
be
무너지
오오
덮
갤러리
대공
실행
윙
돌격
왕자
이슬
##디션
BG
1995
주어지
트라
1980
장식
젠
98
추진
요원
베트
##솔
출판
##멀
감사
광역
##고기
or
신문
##유키
",
랜덤
373
훌륭
600
온가
계승
쏟
페이스
파리
수학
맡기
재생
주년
시행
원수
온갖
사카
브라질
통제
마녀
아라
fff
##ast
가까이
스튜
낭
내내
집안
고기
없애
설득
울트라
내놓
패러디
건축
단일
##오리
기독교
스페셜
대다수
##렐
작사
쇠
심리
파라
사전
정지
찌르
##들리
서포
##AS
용어
아리
와이
헤이
스펙
화살
##멍
아나
찾아가
전선
신뢰
경기장
공유
고민
명예
오픈
상품
##카와
북쪽
##크래프트
별도
##피스
##어리
후쿠
즉시
영원
모리
오류
기기
##웨어
선배
어차
##휴
PS
##바로
살짝
령
폭풍
##ee
남쪽
밟
연예
킥
##즈키
어차피
##렴
68
적당
등판
##ED
800
가리키
괴롭
전달
페이지
지우
대놓고
화장
짝
보물
내려오
##스탄
변호
마련
이렇
##렘
미소
흘리
고전
63
ㅓ야
라스
##tt
##ong
아야
탑승
##ᆸ터
뒤집
소문
당황
공기
메탈
함선
러브
##uby
그곳
푸르
##다지
경유
말리
틱
오프닝
캔
은근
##팩
레오
열심히
가토
##AM
늑
레전드
커뮤니티
전라
입수
외국인
갤
민간
갑옷
신청
사령관
심장
##타인
한때
정류
##아먹
크루
##ort
랜드
##ith
운명
##if
반격
신고
##세우
엔터
조치
##도우
사운드
##ly
트위터
임시
##납
##딘
수업
74
댓글
연구소
1994
##ᆮ히
71
응원
알렉
이승
격파
가면라이더
처하
##나무
아트
깃
김성
##랜
##ld
불만
ruby
쓰레
라이벌
마주
마인
82
중계
편의
##아버지
갈등
컨트롤
환자
67
절반
습득
울산
73
주위
오해
##로우
관객
##ᆷ프
두산
하수
스트라이
퀄
카나
메이저
북부
니시
클라
요새
둥
닿
보정
여론
널리
출장
##ain
MV
정말로
지형
##ist
전공
카라
대만
##드라
짜리
유로
고치
서부
##겨나
팝
전시
회원
묵
결승전
아오
수용
보장
우스
시각
##fff
여신
주전
리버
....
180
차트
##ind
96
붙잡
재능
아시
가득
압박
##가와
별개
ffffff
메타
전형
추적
왕조
안드로
탁
영토
##티컬
쌓이
소멸
무르
가이
챠
##서트
무적
NC
##ᆯ릭
##쥐
전함
종점
##묵
AT
##듀서
프로듀서
초월
오로
운전
종이
네이버
판타지
TH
81
흔하
##돌리
아티
전역
폭력
메가
동기
도서관
체포
헨
늑대
AC
제하
녹음
선호
그다지
아우
##per
지ᄏ
컨텐츠
시야
타점
따오
화이트
##지컬
변형
써
파이어
돌진
개통
##ew
인수
##덜란드
네덜란드
##ps
##렁
강원
테스트
든지
무지
향상
동원
메시
##럿
쉐
물러
##EN
신라
91
##더스
##사키
맞서
이마
여동생
공급
동부
다행히
수요
일부러
불꽃
##툰
동네
화려
78
동쪽
조절
릭
파이널
도달
시드
##EC
적히
##츠키
성과
##ᅫ지
그만큼
수집
##융
##놈
문제점
그림자
본명
파견
클로
##콤
학과
자는
복잡
지켜보
##일랜드
뛰어
쓰러뜨리
상향
##어스
##려움
곰
##캐
##브리
유비
소드
오랜
연상
##깝
84
기초
일상
##OL
영업
연관
치명타
키스
식물
맘
틀리
현지
매력
##식간
부품
전적
##ry
##거나
최상
암흑
순식간
폭격
편지
신세
##lo
##팡
##따
팅
무난
##오카
달하
작동
전방
학살
구현
CP
##퍼스
게이트
지르
교황
시위
점차
92
법원
토모
97
##글랜드
맞이
킬
콘서트
##LC
코믹스
노예
신인
지도자
세포
##ᆷ치
해체
대우
청년
프레임
충청
바이오
전투력
86
수송
객
마술
me
크리티컬
사자
입력
복장
고향
토리
둘러
오빠
아가
국립
바라보
사토
호환
추락
서쪽
콜라
프리미
수술
기여
밴
모바
스톤
저런
드디어
##찾
그치
반지
경비
69
천사
키리
한국인
##껏
창작
찰
덧
조성
레스
아무런
간격
스마트
떡밥
##오프
189
생명력
출현
##노스
닌자
베트남
심판
An
##베이
폴란드
마스
해설
추격
##비전
제자
쓰레기
꼬리
블록
퀸
조용
전투기
묶
엘프
낚
짱
인근
뼈
구체
개혁
##히로
##렛
만든
##스트라
##둥이
##티나
##어버리
it
검색
US
긍
몰래
의상
켈
고용
##IT
is
감시
다시
다시피
##ᆷ새
의료
일제
그래픽
구도
아무것
규칙
사쿠라
주먹
##디아
나루
구속
접하
무효
썰
1992
은하
장교
마리오
후기
다섯
스카이
신호
##버트
조조
막장
연애
NPC
##헤
돌아다니
마리아
통상
에드
토론
##타로
##주시
일원
연사
슬롯
##ust
신성
실드
룬
MS
대립
대대
##레나
뷰
김정
고교
알아
춘
차단
강의
길이
신규
신분
##어도
놓치
연락
##홀
앵
어깨
##보내
##특별
까다
옛날
토크
총기
진지
예외
탱크
잉글랜드
범인
카미
노출
경험치
룡
250
##칠
미술
이래
런던
윌리
프린
##크스
##옹
창조
입구
##보드
디아
투어
라이더
모바일
되찾
KT
글자
정복
부위
##모로
동작
득표
농구
##ᆼ이
##도로
쿠키
불편
##50
아크
1993
메카
환상
##니까
글로
디지털
##ore
요정
앞두
제어
승격
가시
활성
학자
플로
전직
무료
굽
마도
언제나
겐
양산
##자키
##뜩
소총
미디어
바보
코인
고문
고생
Ar
##파이어
평타
유희
음성
권총
박살
De
이리
거짓말
안습
헌법
세월
총선
합성
##BO
잠수
출처
여러모로
극단
##영상
자이언
이득
공학
참전
대량
침공
라이프
대체로
법률
이슬람
블레이드
##FC
반발
어택
이날
##깔
83
상호
##ᆨ시코
수영
일자
그르
겉
가톨릭
앱
##다이
##룩
89
스웨
사마
교전
인증
간부
##ᅢᆼ이
칼리
헌터
##우드
##저히
Te
출력
북미
상상
호평
정류장
93
띄우
중대
폭주
환승
보석
마루
##ᆯ리아
합격
연도
상점
동영상
101
사양
의무
개정
##리티
톱
총리
알파
제이
94
샘
렙
79
기병
적어도
결성
띠
하고
유대
아일랜드
re
지휘관
서양
마이클
제법
가량
전대
터치
원소
첨
인공
##륜
반하
##FF
On
기습
사이드
다이아
끼치
근육
예비
분기
휘두르
머신
매니
태우
##일드
이시
잖아
##란색
제작진
com
FIFA
실리
##one
87
동방
이재
이자
MAX
대략
요괴
##덩
구출
깎
가속
홀로
경고
탄약
믹
이랑
##se
바이러스
조심
지진
##폼
의혹
묘지
파일럿
세르
##둔
슈트
삼진
유령
박근
소화
회차
AI
사우
전면
부부
요즘
히데
어린이
##AC
##ᆫ지
1991
##ᆸ스
대항
##ip
포탑
##먼트
탱커
플랫
##워크
횡
축제
화학
제임
이내
발달
메인
다면서
베스트
멋지
갤럭
가게
패널
노멀
하수인
상업
##로나
나아가
계정
똑같이
훔치
개체
예측
취임
문장
볼넷
블러
##ere
자금
캐스
현역
보안
불법
플레이오프
멕시코
오가
##컷
쾌
네임
국방
원자
정착
##ity
레인저
고지
었었
DJ
호텔
##쩡
메모리
핫
자매
유행
핸드
어둡
미츠
##RE
특화
스미
익숙
##PG
제임스
MC
##닫
루시
청소년
##ath
용사
갤럭시
묻히
##녁
결론
빗
워치
블리
같이
SN
들어서
파크
넘치
스튜디오
##붕
도망가
이즈
김영
형사
어지
타케
대리
검찰
슛
신설
어째
무역
저장
##end
피부
구멍
BGM
##고리
리스트
움직임
##창기
일시
육성
켜
예고
1970
도발
한방
연맹
소닉
##네스
빛나
리치
신기
개방
FA
사제
##넣
부서
쿠로
##요시
냐며
1988
카타
식민
불러
주식
##끄럽
##조리
식사
겁
레이스
합의
보고
조약
아기
콜로
정면
길드
##컴
관할
긍정
역임
으니까
감옥
고백
파트너
려다
대가
차리
700
구원
캐리
오랫
스톰
루타
스리
곧바로
##라이트
마구
타마
프라이
이명
결합
전철
바치
웬만
바위
Ro
세이브
방출
찾아보
##데스
동의
여유
럭
박정
##코드
인정받
##펙트
투구
##페인
전문가
초창기
볼트
소형
알레
절망
처벌
번개
!!
다스
진심
THE
사이즈
방지
주간
##끔
강철
오늘날
통치
여지
잡지
ㅕㅆ
기구
배차
융합
국왕
반사
너무나
훗
물러나
좌우
##구리
흥행
누적
리ᄆ
##성기
팀원
돼지
포스트
의존
듯이
방사
장악
##특별시
##레이터
##디언
카스
영향력
착각
떠오르
##멜
리메이크
##롤
위장
MVP
둔
##ect
##쾌
그동안
네트
정치인
목격
외계
미카
야스
기원전
에서부터
서울특별시
##ᆨ터
아끼
아빠
포트
레이드
랭킹
호주
망치
분량
내성
Wh
커지
봇
내장
잦
안드로이드
##OT
꺾
차라리
논리
면역
##릭스
곁
인연
의뢰
단장
해병
챕터
시즈
룸
혐의
CC
브레이크
게스트
협박
유치
섞
요코
칭하
Se
국군
##삭
양쪽
저녁
He
빌드
포르투
지능
태그
마침내
확대
보관
변호사
골든
Le
공지
각자
타이거
박근혜
불교
AK
펴
는다면
동화
윌리엄
태평
쟈
공무원
깨지
뭉
토르
최소한
괴롭히
권리
오카
떠올리
오사카
델
손가락
Me
무덤
놀이
접촉
재산
그대
먹히
몰아
한번
배트
대지
오랫동안
박물
터키
##티아
샌
대폭
1989
팔리
멍
후속작
메리
으려고
어다
188
윌
라면서
흠
DLC
##부르크
##톱
수수
하필
스턴
htt
##age
Go
출마
과목
실버
##IS
공공
전후
소장
노부
##섬
연료
삐
악역
오전
주말
하우스
소지
올해
섞이
##구치
금융
이집
이집트
소원
본작
리드
'.
PD
연인
명성
웹툰
소스
수련
이지
##바라
권한
막차
그럼
흐름
al
육체
패하
딘
수익
비행기
##og
적대
귀신
빡
주기
계단
정비
다가오
학부
왼
대처
예능
로즈
##흡
알렉산
##잡이
호수
정원
나치
시마
썩
내구
##아시아
피스
강남
##미야
무렵
스웨덴
금속
트레이드
놓이
깜
부장
연극
컬러
##ide
선출
톰
##ᅦ인트
휴대
명중률
험
kt
원칙
호감
카오스
어쨌
Be
My
씌
슈팅
안내
마키
해안
테일
합체
선전
간혹
GT
접속
숭
##넬
섀
편입
써먹
##회사
크라
화제
시계
캠퍼스
놀랍
##ime
##세스
허리
최다
빚
예쁘
츄
##ake
개성
모모
뻐
##셰
협상
ᆫ다며
준수
##ark
130
교차
담기
##OM
메르
일기
개입
##오르
떨어
퀄리티
##ss
둘째
##윈
새벽
종목
특집
##베르
궤도
게시판
Su
작곡가
SC
박물관
KIA
##ire
오른
뺏
상당수
김태
편곡
##어나오
외형
##ᆷ없
기도
저그
스위스
환영
성립
인조
꼽히
림
따라가
첼
고마
고구
갇히
복무
민주주의
##듭
유물
SM
##려주
할아버지
AR
전신
##바르
##지마
독특
알아보
웅
주사
피격
초간
재단
이익
깨닫
WW
한동안
이끄
Tr
식당
##가시
페이즈
젤
지위
##칼
사도
극복
수십
누나
헤비
딩
넉
흘
##무르
치우
재정
##가리
##ID
##ES
전진
렛
그로
어른
시선
철학
굴리
아이스
매직
회상
116
##ite
데이비
##ge
리얼
정찰
HD
wh
160
블로그
위상
연타
##iv
으러
소중
거인
영문
SD
아니면
##스턴
무겁
처형
양성
##ound
기사단
캐스팅
식량
뜬
##라드
##그마
메뉴
동굴
정글
대개
데모
용기
오스트리아
my
문재
면적
비례
안티
부디
##겐
익히
리아
시내버스
일찍
트럭
리듬
은근히
뜯
고리
##다랗
손해
클래식
우위
참석
ㅓ도
음원
조언
팬덤
##리스트
집행
뱅
힙
유이
과제
아바
튀어나오
##미니
보라
신앙
고수
위원장
별다르
는지라
##mp
해상
##iz
대충
IC
플라이
훗날
타인
각본
원본
##던가
더더
증언
자국
##테르
노인
개시
SR
신부
이중
세이버
털리
커스
측정
마비
날짜
##OP
신비
##가미
##ᆺ지
예산
김민
헝
##맨드
빼앗기
멀쩡
우라
##쳐지
펀치
''
##스키
중독
##슬리
매체
세종
적응
더더욱
무릎
살아가
킨
구사
커맨드
까다롭
천재
1987
캠페인
원주
이주
갈수
##리그
미터
##마디
적군
바리
해적
삼국지
##OW
국적
교류
제정
절대로
꽂
Gr
허나
##레드
패션
갈수록
##ome
하락
임대
대학원
스승
크리스마스
일격
활발
재미있
##큐어
기적
정수
녹색
툴
코우
하얗
이브
멘탈
구나
마이너
관중
결코
위대
화성
IS
명단
매년
시아
히메
주포
##팀
대수
##BA
##핵
죄다
호위
아미
##덩이
십자
UE
과연
작화
개막
진보
with
##데미
##ud
de
투명
충성
계통
##케이
모자라
Love
포로
##LL
내세우
탄창
한참
열쇠
##몬드
깡
어려움
##반도
새기
왈
체크
##갛
바퀴
희귀
주일
몽골
##에이
곽
브루
김종
Pr
우연히
펫
1960
칭찬
안경
뮈
유적
루수
남북
사후
##UN
사막
렉
냥
아카데미
경기력
##지로
데려오
비추
흔적
개수
140
##쩍
자본
채택
모래
##아웃
로그
기르
##ord
자극
후방
업적
흔들리
예수
아메리카
화물
비상
전성기
이영
당일
미안
피아노
일치
사유
펑
심사
강점
행적
결말
스타크래프트
해리
스프링
##공화국
보존
##MA
신장
오직
첫차
상급
이정
강도
인지도
재현
부지
기종
선고
아티스트
김동
단편
개량
BE
인민공화국
주택
사라
##닉스
무작
농담
부작
기울
람
도우
챌린
출입
추구
거점
기아
취미
가을
웃음
토끼
과장
##값
느라
저작
##사자
포항
상성
스탠
자책
버스터
관찰
고스트
어지간
포르투갈
식민지
합병
px
클릭
1986
생존자
일반인
네트워크
어쨌든
행하
소위
유나이
소송
맥스
##려나
구리
새끼
##ure
울리
프리큐어
더라
ch
헛
어스
유나이티
##일러
##ance
본체
경로
##our
카트
로우
이민
의대
건조
##나미
어마
##ᅡᇀ
바깥
##카드
##mer
스마트폰
공룡
기용
##ix
으시
##양함
연금
괴수
모조리
시달리
판매량
흥미
##ick
포드
EP
Bo
##ice
막대
##뜻
체육관
차기
돋
영구
공세
탈퇴
스트리
에리
파츠
상실
잠재
자세히
덧붙이
전멸
후계
가짜
##이즈
이스라
an
기ᄈ
인격
일본인
UEFA
며
코코
##켄
##치기
미라
캡틴
아즈
사형
유통
국경
포격
JR
타율
##ax
유니폼
186
제작자
칩
GS
코리아
노벨
900
도주
터널
연패
부자
불타
일방
##ᆼ기
승점
피터
색상
자전
SKT
클레
Un
생겨나
무라
판결
색깔
상인
관측
둘러싸
명확
할머니
취향
팽
드라이브
릴
햄
##랭크
가상
잘리
통산
항공기
메시지
요금
커피
레이더
기량
화장실
##시타
거듭
##가스
을
베네
로고
치유
선거구
닭
비주
화재
나포
어드
쌍둥이
내지
구경
강요
언스
순환
귀찮
라이온
마린
여객
##oc
한마디
##시로
등지
타선
미루
모토
##랑이
훼
레디
집어
##AD
이스라엘
##맛
Ex
##아다니
##시스트
쵸
##멘트
동력
루카
초코
오타
위반
사신
사원
소프트웨어
신사
##qu
칭호
수출
비치
날아오
찢
가루
아마도
##ᆫ색
이슈
아이콘
187
빨갛
##듈
##코토
선택지
주소
승객
포수
가요
OST
다치
##10
힌
데드
고개
트라이
간신
터뜨리
몰락
레알
##own
##괄
무방
##고속
초보
조이
KO
박히
대선
조연
##얄
연합군
양자
##{{
영주
스페이스
##스틱
##ber
아서
펄
도끼
교장
귀환
수장
##나카
##데이
남녀
담배
광역시
매장
적합
즐겁
연승
고도
냄새
구르
함수
GB
캐논
##80
본사
넥센
We
타락
서식
복지
##ys
##프리
실망
1984
동성
콜라보
외전
매니저
DS
타운
항복
##20
이터
텔레비전
그러니
안타깝
뿔
찾아내
고구려
미스터
트레
흑인
곡명
캠프
##카리
제갈
배터리
핏
백성
익스
비서
{{{
라인업
개국
유희왕
##av
##곱
통계
단단
이탈
인치
유효
변환
그만두
교실
잠수함
아랍
1985
아시안
예시
스와
AM
타수
##노우
붓
발행
커리어
혐오
공업
##블리
간주
깔끔
##정부
소라
일대
법인
주자
반동
##럼프
쟁
sh
철수
스터
##랭
천만
인종
마드리
CPU
정기
포위
##ame
주역
중립
에르
레코드
##orld
유학
벼
##old
용량
서구
시노
논의
ᄇ시
드래프트
허가
105
관람
노동자
표지
##크로
너희
인디
글로벌
마드리드
조별
낚시
카츠
커다랗
##든가
##저스
##OC
거미
후손
기생
##일보
흘러
턱
수류
마약
내전
김재
예언
끊기
립
히어로즈
첩
아쿠
공성
##쌍
##머스
하단
즉위
위성
사이버
벌레
상단
휴식
티켓
##NA
복구
##늬
디스크
곱
연령
음모
구글
##로디
##땅
보험
메달
생략
CF
##위대
##lay
꾸미
2021
LI
승률
.."
고위
태평양
##긋
고작
스텔
곤란
분쟁
웬
근본
##ont
윗
면모
베리
##김
좌석
펌
추억
형상
##ies
도적
김대
감각
급격
오크
튕기
이수
문구
표면
최신
노스
카운트
차이점
추종
준우
후원
파르
그러니까
그랜드
적당히
자폭
중세
수류탄
클랜
소대
AD
언덕
사명
##타이
상술
대인
치루
경주
아르헨
It
실전
모노
모니
왕위
마디
언더
학습
관점
허락
성남
다름없
끈
고맙
KBO
정차
더럽
연예인
스틸
입지
굿
후술
균형
엿
SH
##팩트
일족
제약
꼽
3000
구석
전주
아르헨티나
타로
##려들
후배
휩
분열
지뢰
용서
떨어뜨리
지리
뻗
일레
지경
액티브
DF
증오
취약
스트라이크
기숙
체결
서포터
똥
토벌
크리스탈
폐쇄
하차
공방
침략
오라
리타
숙련
진압
아츠
전이
머무르
시너지
데려가
사정거리
자막
침입
코르
산하
행보
제출
미묘
lo
주차
금메달
해피
부각
어뢰
저렴
우르
##말리
법정
부딪
쓸모
일본군
입대
들키
간접
##플레이
제트
XX
##라이언
분해
트랜스
텍스트
LC
이듬
워커
##키아
##마크
드럼
##하면
무척
특전
루비
정화
##OD
중첩
이란
오마
루나
읍
##US
##크라
네요
약화
블러드
아테
호흡
평생
##ann
기관총
쿼터
가만
간신히
소방
세븐
##쓸
총알
##어마
논문
오랜만
유발
연고
뜬금
##자드
가동
인권
알아내
드롭
CV
이토
사령부
눈치채
MF
생년
신전
릴리
통화
##첨
거울
히나
잡아먹
헬기
경상북도
씹
찍히
NE
흡혈
카카
악화
여우
크림
공용
로버트
곳곳
동인
방어구
아포
모시
나리
사귀
SE
놀리
남아
이혼
##pe
전파
혹시
인용
프란
강자
125
##PM
네오
다카
결심
토너
지불
부적
아이언
##블린
성당
##40
맛있
세인트
뮤지컬
보건
찬스
자이언츠
##sh
저택
공정
WWE
윈도우
.....
악당
이듬해
페널
스캐
다지
구슬
자녀
중력
어마어마
주둔
성별
아동
미즈
반전
히토
앨리스
애정
깨어나
제작사
암시
요인
##30
금방
내보내
보완
플레
상기
##뚱
이식
스크린
구름
복합
##io
잡아내
저러
금액
되돌리
수석
##VD
엘리트
격추
AS
##올
참모
얀
양식
시상
토니
온도
긴장
옳
En
##네임
게리
스팀
시카
애플
라기
용인
딜링
##싱턴
##픔
##은행
1950
원리
시인
구미
악기
큐브
발리
배포
라틴
##ᆯ라이
##네이
1982
이온
보호막
충실
구축함
your
물리치
후계자
뎀
아저
##거지
로이
##천시
헤어지
던지
##츄
아저씨
교과
유력
##눈
CJ
백작
결전
뽑히
동양
썬
김현
낮추
토너먼트
사인
부임
착하
대왕
의학
라면
헨리
개설
##배우
이라
##올리
초록
##셋
절차
불사
얻어
흩
천안
;&
채팅
딴
우에
유전자
백인
임신
DE
상세
서서
시라
상관없
열매
Pro
기상
소유자
해치
야생
임금
##oo
##죠
빠져
브로
하루카
상영
웨스트
170
##뛰
##슬링
교도
##라기
본관
베타
정예
##에르
증상
루이스
탐험
##센트
로리
비아
공산당
호기
뜨겁
드라이버
1983
창원
묘하
답변
안기
전승
실종
기인
법칙
##즐
선두
존재감
지라
코미디
학력
##ᆫ가
##ᆯ드
마주치
##도르
동명
도둑
수백
커플
광장
견디
언젠가
걸어
방송국
##ave
업로드
도라
창설
도박
악명
리뷰
항의
엮이
##비치
발렌
처분
뱀파이어
Com
문재인
테라
천하
짜증
강원도
중량
##포트
대책
행운
수호자
엑스트라
관리자
동점
에요
##ream
##펠
관계자
재밌
모터
닫
패키
미키
그린
분명히
##ond
기숙사
은신
##LE
만남
의장
씬
##누스
미쿠
쏟아지
승인
##ᅪᆨ
생명체
다이아몬드
정통
전동
진주
##걸이
인력
잔뜩
##팡이
닛
##월일
that
블라
조리
치즈
기둥
와일드
에다가
이드
카와
1500
정황
토지
니스
폴리
호칭
끔
물고기
캐스터
##를린
단축
농업
칼날
쭉
기름
난입
##엣
##iss
디지몬
##스럽
건국
유산
##ION
건드리
보드
LV
UP
무관
기후
##IP
##번트
##우마
심심
감지
성질
도루
창단
레지
잃어버리
유독
창고
부드
할인
문단
생년월일
부사
지치
해명
투스
탄환
려던
EN
가방
ED
##프레
학위
영광
말투
참가자
서번트
논쟁
출구
다니
미네
##군다
##탐
##필더
막내
미드필더
외계인
삽입
##펴보
살펴보
운동장
##ian
시공
릿
##갈리
하향
유기
가라
해골
내각
뿜
부근
프로필
샌드
5000
상륙
##유럽
분신
식품
울프
플래시
밍
존경
##틱
유인
시합
##이어
항구
헐
경남
주술
분대
한쪽
복제
장인
가공
미만
끔찍
발굴
비전
사살
렐
##태우
레딧
##어하
셜
그램
콘텐츠
조기
부드럽
사법
유격
부스터
진학
딜레이
##티스
우정
뛰어넘
준우승
정교
럼
주니어
디젤
->
로얄
##투스
요약
##게임
코트
그렇지만
왠지
아키라
전제
수면
카를
승자
퇴장
손상
두르
밀도
집착
슬로
탕
독재
##늄
태국
선제
통로
대조
공허
민첩
오디션
시리아
솜
##커스
상식
##운서
2022
스위치
아나운서
마블
걸맞
##TV
체험
휘말리
by
크레
엔젤
동계
학기
깔리
시트
##카이
워싱턴
감추
루스
헝가리
분포
##텐도
닌텐도
##60
시원
he
##셔널
BL
학문
작년
브레
수명
Br
스쿨
하츠
##닌
Co
헤어
과학자
##세대
훈장
호소
께서
불펜
##ᆺ갈리
철저
싫어하
##우리
전북
빅토
보충
##그리
마케
##베스
돔
갑작
힐러
근대
단원
반박
회담
##소녀
##팬
나츠
맷
여주
국장
하이퍼
배정
방위
자전거
??
공화
노바
공립
덩치
트럼프
##rom
##ory
##틀러
사용자
스폰
그레
go
중형
비주얼
##레인
질병
펼쳐지
옹호
##ace
스트레스
기재
111
배출
Bl
돌입
단행
##게이
고객
타석
##Hz
지사
휘하
##메이
오키
안녕
격차
평양
##쟁이
&#
기운
185
꿀
토마
깨달
마스크
1945
그럭
대거
리스크
삼각
##카이도
##세서
가죽
##포르
웃기
경전
꼼
싹
##필드
눕
##저럭
백제
임기
팟
본진
디즈
소요
데이비드
세부
웨이브
인질
출격
오염
히라
위안
그럭저럭
싸이
시신
##신교
트리플
속이
신도
어필
##TE
DVD
처지
마감
마우스
케인
요한
기갑
##oth
경상남도
하마
미나미
배트맨
뱅크
축복
Or
##산시
파편
라이플
##주교
영지
하계
파동
이펙트
토시
##틀랜드
스펠
나미
한반도
축하
시크
실책
동남
철거
중국어
헤르
완결
소음
장거리
##me
##뚝
롬
과도
피우
해양
개별
후퇴
지향
변수
차체
##하마
갈아
침묵
틴
원문
팬텀
이글
보이스
1981
리카
복선
##곽
와타
##ows
##부로
;&#
구별
물체
군수
적중
##MP
골키
메이드
날카
약탈
사회주의
상담
막판
치킨
플래그
우세
##TS
스트리트
취득
##끈
무인
경직
기동성
스케
후자
필리핀
간단히
남매
##먼스
왜곡
연습생
약물
손실
노조
결투
슬라이
리오
##무시
내일
근거리
솔직
브라운
랄
부실
두들
무작위
성전
램
신나
집합
규격
##잠
오이
1979
지칭
##륨
주류
##ᆫ들
부착
집권
수능
동급
급하
흰색
##화점
국정
테츠
선행
개발자
##빵
날카롭
중시
패키지
넘버
센스
멜로디
##IG
밀어
##aw
교토
##경기
만주
##ale
줍
딕
커녕
수급
독일군
CG
제네
스즈
바쁘
야수
전망
골키퍼
망가지
Sc
그날
유전
피트
유성
##그나
##다보
질리
안개
파생
킬러
최상위
일당
캄
특별히
##딱
무산
영화제
신발
최적
양상
기세
For
엔드
원조
무사히
캘리
괜히
##프리카
서기
베를린
즈음
##아키
##ike
##뇨
끼우
##하시
대포
##겹
핑크
싱크
모스크
틸
마법소녀
프리미엄
사키
##야수
##네시아
##몸
타쿠
##ep
잎
업계
SNS
##자와
간간
선조
##ach
Cl
여러분
##man
##공항
출루
##아이
이웃
야구장
청주
페이스북
장탄
주행
Dr
영원히
대치
##ᆯ로그
응용
175
바디
권위
진격
히가시
뭉치
##군다나
왜냐
##irl
랑
기호
##우치
입주
록맨
모로
뤼
첼시
##ile
##밋
Mo
부동
장사
PV
##OU
룩
계시
서서히
임팩트
이와
협정
중복
RPG
동경
벙
시비
해산
##바닥
호랑이
여인
더군다나
선임
야마토
102
폭행
챌린지
투쟁
원형
당대
며칠
초인
암살자
##둘
매번
벨트
후임
프리미어
관여
직장
올스타
무시무시
106
117
최우
GP
플러스
트루
귀국
풋
연산
나르
챔피언십
프로토
악몽
개신교
사리
##토스
오스만
FM
##지만
개장
##ink
리프
OP
연구원
슬프
신자
확산
추방
BB
##ial
서클
##철도
동아리
세리
고장
##하르트
천연
몫
Sk
아틀
사립
합계
잠입
##든지
엘리자
수비력
끌려가
퍼포
도마
퍼포먼스
꿰
어이
수립
페널티
합리
인방
구성원
LA
지팡이
제독
##ish
115
공수
웰
중장
에릭
무술
징역
##여객
권장
조상
인피
선사
팡
##VA
주관
성경
배역
굵
해킹
긴급
UN
Team
감싸
에서
상한
수동
배급
Bla
여야
드레
체인지
독점
이종
돌연
##승부
##ᅡᆯ린
물량
장로
##므
CH
파란색
임의
비비
##런트
메이커
에디
기동전
폐기
데이트
DD
의외로
나비
국어
국당
김경
가디언
ᆯ게
##킥
청와
하인
SU
회색
닐
저하
미국인
가만히
사무소
쇼핑
##콜
풍부
ᄇ시오
##데드
##어놓
신입
댄
해내
일람
##슴
##II
쌀
##ower
출간
평점
마물
김상
건네
##쿠라
세팅
코난
모집
조명
복원
렌즈
Ne
배달
##앉
##운동
트릭
청와대
언데드
야간
공백
면허
스타디
명백
공인
지연
##튬
포즈
스파이더
바둑
안양
화산
마다
광산
전라남도
여전
장신
증폭
교단
라이너
전무
만만
일화
##IM
##첼
냐면
목사
행방
육상
유미
억지로
감동
만일
다가가
와카
택시
##시오
듀오
간호
명의
기장
빌딩
뽑아내
재회
엄격
이라크
방치
김진
##슬라
아레나
무스
##ᆻ다
거스
이란
##블로
끊임
승무원
여학생
##GE
더러
분당
즉사
Star
택하
자비
##오루
감상
궁금
혼돈
장미
평일
BS
잠들
##언스
우주선
피닉스
썬더
대단히
발목
신학
버섯
매출
우즈
산맥
스테이
규제
##벳
유출
계수
불량
광선
##늦
타이거즈
추리
캐치
##키스탄
##리코
통틀
천문
청구
부서지
수색
오메
김기
##ᆺ이
we
##99
센트
닝
국무
포켓몬스터
쿠라
코멘트
뮌
DC
고소
##벌레
시사
수비수
페리
베이징
And
ID
350
고블린
깜짝
All
PR
우월
국제공항
##타카
뒤지
우드
재학
되게
##!!
처참
상관없이
우익
해머
Wind
##드레
실장
출범
박지
##히코
Man
본토
버드
드루
우유
붐
합동
배수
벌리
축소
시상식
실내
시바
기쁘
##체스터
War
##ass
뚫리
바르셀
만지
포장
안쪽
질투
바르셀로나
혈액
고로
##농
비웃
스탠드
심의
유언
조롱
##틀리
##번에
다운로드
톨
라이온즈
탐정
승진
레일
난사
디즈니
##나오
당사자
운수
##벅
파이트
토미
바스
호시
수직
온천
알라
LP
##gh
##11
세금
협의
로빈
여섯
##래시
리가
치열
스타디움
ᆫ데다
태풍
에픽
따뜻
##카락
##잘
평론
##궐
##ib
##뮬
##pp
머리카락
##춤
108
360
메이플
말ᄊ
충청남도
짤
스미스
파멸
up
의자
서포트
세라
112
루크
##orm
한두
캘리포
파울
권유
fe
##ft
##페라
실현
체감
골렘
##졸
젤리
극도
키타
##민주
압력
##사이
소용
시외
나기
스텝
인접
기리
우치
정발
오로지
기력
뒤늦
검술
전당
여파
황후
도저히
티아
타르
텟
모험가
특급
1978
##tle
스테이션
New
사이코
슬리
손자
탐지
낙하
One
캘리포니아
나노
모임
조용히
마코토
반부
중지
배제
##ous
##ᆯ러스
##릇
비유
오락
##스티벌
러시
페스티벌
미르
##렐라
라라
분산
103
아쉬
단종
지인
지목
직선
SF
물품
마카
루머
Mar
반감
##CG
묶이
##앤
비명
나마
범죄자
전남
신용
엽
스티븐
중순
마냥
자꾸
일요일
맥주
프렌
AKB
서머
가난
리즈
어시스트
모듈
##려받
##sp
조르
로맨
강등
붙잡히
주최
1973
주교
폭파
케이블
오우
바니
넘어서
##amp
동반
##가드
함락
##now
토큰
힙합
나스
##ms
##ment
재개
리버풀
이글스
미미
드림
기부
센서
생전
루피
캐시
##70
꼬이
거북
조커
수월
##yle
실은
농장
To
부딪히
추세
불행
무승부
강사
##atch
##튀
베테
유의
184
스핀
토키
암호
조우
낙선
홋
젖
막아내
체중
넘어지
명문
##버그
능력자
타일
##란히
인자
IN
고속도로
알바
카구
김해
기수
할로
이나
ex
수염
좌절
비틀
토요일
중부
연봉
Part
##도리
당당
비극
##뚜
대성
드론
원시
아가씨
신속
개척
명목
##플레
ON
중화민국
여고
적자
##테이
모스
깊이
##쿨
기묘
김용
얻어맞
진상
빨간
퍼부
수습
더빙
훼손
CS
음료
128
배드
끓
조카
##슬러
구조물
입자
BR
##케이션
패전
두렵
주체
바론
쿤
실시간
살아나
후회
막상
경악
극히
엄밀
야쿠
##hen
KR
##브라
Gam
던가
고시
183
믹스
도리
히틀러
리온
##ING
코마
까이
각지
영감
변동
##어트
##ree
억제
산탄
##저리
혜택
1974
채보
하여
쿠데
유망
##ae
##ase
나루토
엑시
듀스
##킷
소니
집어넣
에반
혁신
상반
까마
PP
리처
배려
샤이
엎
총장
질서
팁
##64
장성
잠실
둠
경북
되돌
World
캣
대시
하프
구동
재건
ᆫ다거나
국판
꽉
복사
번지
##놀
휴가
코믹
도장
구장
핀란드
바지
1972
늙
노가
호남
선수단
날씨
다투
시로
찬성
철권
이라
반짝
쇼크
##밭
포탄
견해
말기
계층
해병대
꼬마
벤치
얽
이타
그랑
대행
마땅
##불명
쳐들
##구장
지수
나요
##베리
##az
슬라
고증
##사리
스코틀랜드
투척
첫째
사퇴
동해
##방송
에로
닉네임
아이러
천황
유재
수여
뻥
장탄수
그라운드
갈색
##노리
카리
짙
사무실
메트로
트로피
퍼즐
사이클
제이스
레온
역습
껍
##기에
가담
달려가
운송
걸즈
제치
근원
할리
거론
유니크
JT
중동
사로
동행
##빨
공격수
프랑스어
네티
장례
샷건
수지
##ear
때려
동서
최저
짐작
ᄇ니까
산타
거칠
감수
확장팩
##ᅥ하
기뻐하
AN
키보드
휠
동아
여의
##ason
튼
제갈량
라즈
첸
유입
보라색
220
##12
평하
빨간색
공감
1975
뮌헨
So
무용
챔
함부로
상사
인재
세자
돌보
##클리
어쩌면
부시
포스터
고무
래퍼
##러그
노란색
패밀리
마일
잭슨
짐승
오브젝트
인과
퇴각
백화점
##느리
##AY
GO
리미
재직
여럿
샵
영양
왕실
특별시
매주
가구
덴마크
시그
보좌
##돌이
갚
마오
대령
##MS
인도네시아
##직자
결제
진급
##앞
각오
기스
1976
사관
엔지
알렉스
베기
##are
소재지
라크
베어스
양손
안심
피로
전날
정반
반도
JP
##이너
세로
##iki
##우트
페어
장난감
호불
호불호
강림
원더
와인
탐색
경호
사야
상주
셔틀
후반기
비기
##웰
##사기
완공
트레이너
240
드레스
여단
차갑
관료
킷
오더
연쇄
##토니
도덕
흔들
포획
모형
메이지
신선
##지르
카자
시카고
##차기
##저기
프린세스
##키스
당기
포도
도어
빠져나가
네티즌
연설
봉쇄
오니
##ng
흡사
마계
문화재
토대
지부
우호
##케이드
생체
가두
역명
##bo
국도
아베
탐사
밀어내
화폐
타이탄
sp
막강
점유
거든
##베이터
##ife
여기저기
하하
선진
##박스
쇄
##루미
유혹
결혼식
역량
우측
##gin
루프
학생회
세뇌
집회
양반
##ven
강렬
소금
##슈타인
요미
뜬금없이
콘솔
##렉션
OS
끌리
려다가
말레이
클론
시모
FW
출산
##레일리아
케이드
쿠데타
벨기에
두들기
경찰서
신중
흙
##껍
##AP
방탄
약자
깎이
날뛰
방송사
무실
교복
성분
ᆯ려
tv
다큐
원곡
서바이
청나라
후미
우회
돋보이
콤비
선박
##ade
침대
부작용
Wi
무공
모스크바
일곱
기차
트라우마
빈도
위로
바나
겔
박쥐
간섭
법무
중심지
AFC
윈드
발명
트윈스
노르웨이
공산주의
폭스
프라임
아이디어
전동차
김준
비스트
스즈키
원주민
제물
##에른
통칭
소득
아이러니
##90
##ᆫ바
침투
포터
##ᆺ불
변이
마라
##하나
출혈
마냥
로이드
트랩
##act
당초
연금술
이스트
취업
NH
드로우
##ank
전락
##헬
결계
창문
홀리
튼튼
리안
밀려나
##out
소통
강경
##천군
박살나
품질
토하
http
중점
MB
오노
104
##싸움
##아치
상무
탭
노무
소나
##ork
콘스탄
##lect
##oll
선장
체코
글씨
판사
123
허무
순양함
이순
단행본
부재
저자
장판
항해
https
하스
##와라
아바타
히로시
도쿠
제재
크라이
라니
전향
홀드
##aby
Do
명명
기하
손꼬
1971
혈통
명사
독일어
이른바
책임지
강간
성씨
검토
##흔
리코
낭비
다스리
나아지
도감
##데레
##깨비
##므로
공대
##ET
대타
쓸데
##ich
입증
##ai
분할
조종사
외곽
구상
시호
앤드
도트
발레
오지
검증
##루션
워크
클린
찰스
Up
전송
승차
장남
스트라이커
티스
신데
##ey
바이에른
1977
~!
공헌
히스
토요
페미니
마틴
트레일러
단기
관통력
##ary
%/
한창
경연
히든
do
모니터
##추어
깃발
III
장애물
끌어들이
왕비
광물
존스
우승자
전격
오페라
김일
끊임없이
대법
디시
브라이언
백업
싱가
태클
싱가포르
유연
넘어오
루마
Fate
##way
마피아
부유
오스트레일리아
진단
사사
질량
술사
no
실상
매니아
그러므로
엘리베이터
182
신데렐라
성실
##페이
을수록
워크래프트
형편
라스트
LIVE
보고서
커스텀
대변
강릉
마트
크레이
우울
##니시
부패
렉스
파도
간간히
드로
입문
교리
##바야
충족
손오
스나이
##저우
딸리
##ᆯ릿
최선
범용
손쉽
고고
동전
큰
135
설령
엘레
학사
##스카
재배
중기
리모
왜냐하면
파밍
올드
원장
검열
이어받
유료
대동
박정희
고종
Ad
119
##UM
레이블
창립
연간
확신
사로잡
천천
ES
여타
특공
##바지
쯔
대접
하반
사악
are
올바르
탄핵
보스턴
하급
나폴레
압축
초상
키라
Day
일체
109
스타리그
스피릿
뉘
급행
1969
##톡
마산
근접전
중위
맞붙
중상
섀도우
##플링
단백
1968
예약
지선
공통점
나폴레옹
끌어올리
왼손
토마스
평등
Oh
카시
따라오
정석
##넌
##벤처
명분
제왕
일관
어드벤처
##orn
##타입
초콜릿
##더라
한나라
시게
##pt
##모스
중고
한나라당
넬
유엔
시온
미지
전생
##렇
부속
조국
석유
벅
쿠스
디자이너
김수
##께끼
수수께끼
으려는
잔인
카더라
강전
자네
트리거
렘
##르타
케빈
트롤
##모함
곡인
불태우
마운
공단
##사스
##동자
저기
구독
본질
##으로
지붕
이현
천천히
얇
##어드
단검
흩어지
베테랑
Mk
터스
##의자
소모량
강호
군부
수인
친절
엔지니어
##능력
꿈꾸
리처드
스태프
코스튬
##가루
보르
망명
잉여
민중
메일
우루
질주
##퍼드
머물
긁
121
##키리
동구
발판
단발
홋카이도
##라미
관우
all
연수
갑작스럽
손오공
이병
선교
아스카
사촌
동정
##샷
화상
카카오
씌우
치카
##하루
유망주
145
땅볼
br
이오
비리
주식회사
성배
톡
1963
그릇
기울이
총독
고스
니혼
lv
플랜
이틀
##다운
과자
손님
무제
퀵
고는
##렷
굴욕
후일
버스트
이모
너머
nd
##네마
에이지
레이디
농민
테이블
쓰리
자제
친분
소집
107
##플리
프로게이
프로게이머
전라북도
##ah
메리트
도깨비
리퍼
하사
##iver
삼성전자
폭격기
##테이션
오메가
열정
="
머니
합작
극대
178
맹세
현금
달아나
명시
교차로
작위
Windows
어색
퍼스트
항공모함
위엄
자율
##마르
브라더스
RA
평행
김포
IT
에드워드
강점기
왕복
단백질
쫓겨나
춥
FF
미궁
그레이트
종결
##스레
블레이
땡
조화
디펜
지력
스택
##ph
엔트리
마그
라그나
원숭이
니아
ML
필름
이경
화해
점검
서명
165
리틀
마타
##EM
존중
백만
Sw
파운드
시외버스
대박
윤리
천장
박살내
썸
부스
##uck
스티브
오렌
카리스
에버
지분
자책점
가설
대전차
와이번
후드
일가
평론가
파스
완화
광기
##켈
프랜
임진
AA
신동
봉사
그립
DP
화석
출판사
하이라이트
분자
감자
##urn
진에
계곡
##군가
피카
물자
유치원
이이
터트리
정사
인칭
과일
촉수
변태
으라고
서적
공신
젬
매각
다니엘
엑시즈
고집
유탄
사체
섹
##우라
1930
여포
대위
보편
##소년
러스
##ool
츠카
원전
지오
##아들
스가
시골
자존
##ero
면하
누군가
113
관장
마술사
초점
Con
표절
".
##끗
잊히
해소
Ph
교과서
사우스
입사
ne
병역
맨체스터
앗
181
사족
유가
몸통
카마
진동
여서
탄압
하치
총합
프로그래
JTBC
노무현
##바나
수천
호크
##ical
외우
꺼리
210
무실점
지역구
쳐들어
자산
감탄
챔프
줄기
착륙
1920
이대로
산소
##막지
무지막지
까지
##anc
주축
경사
게이머
마케팅
떨치
NBA
란스
서열
사수
중거리
모순
광명
터보
서방
BPM
Cr
솟
임하
파랗
손꼽히
도심
스포일러
검정
실체
친척
DPS
개명
##구미
부원
초청
메카닉
유격수
155
타구
디오
김지
프론
힘입
부천
선로
국방부
지혜
토트
말씀
179
마유
표적
액체
동대
라이언
철저히
##겔
고아
테스
##지아
##ung
슬픔
브레이커
발발
호의
1940
##은색
제니
결의
##ype
부산광역시
닦
##센스
향후
냉정
배구
장타
동속
데빌
시뮬
노가다
Qu
엘리자베스
성명
122
152
로프
##업자
용산
매트
불쌍
빙판
불능
##변이
돌연변이
겸하
144
동성애
매드
미오
쨩
##ARD
에미
겜
곤충
지장
스노우
at
라마
이노
브래
##잉
마인드
주석
블리자드
##ᆺ속
1967
서류
북아
모델링
참사
##ens
이케
일렉트
우타
중구
##리칸
집계
일리
유니버스
레이어
때로
골프
외국어
그해
광경
치안
스폰서
김유
아깝
목걸이
앓
발탁
마당
##very
은지
다케
비우
##질랜드
##멧
로크
미러
가이드
변장
실용
뉴질랜드
기질
씨앗
행진
문양
모음
상금
부스트
페스
마하
김승
사직
어벤
아마추어
민간인
고사
내버리
##ence
##드러지
중원
##시피
amp
유아
취재
케이크
텍사스
기소
무늬
##항공
시어
좌익
정문
카지
{{{#
##시스코
워터
트윗
##테일
도르
학대
수위
주사위
##ost
아리아
날아다니
박수
울트라맨
멍청
엄연히
워프
##상시
##젤레스
OVA
애칭
##끼리
재앙
이라도
근로
닥치
나나
시조
Station
누스
전지
답답
리나
포크
물어
이빨
우연
질환
레인지
하나하나
녹화
정점
자사
납득
LO
##타운
아지
아아
예의
소비자
본능
햇
절친
스카우트
##nt
국토
쿠니
서울대
from
신하
고등학생
직책
##룬
디바
저서
각도
##ble
열혈
이태
##베트
TVA
난무
압권
##마리
어나
좌측
##ise
Fr
소생
철갑
네이션
편리
경부
강민
##int
##ww
as
관직
쿵
발키리
워즈
패자
초능력
##부지
주머니
정밀
일커
일컫
KOF
실사
혼인
헷갈리
라이즈
용암
침몰
##팽
정성
##밤
114
자칭
카레
오죽
##과이
조항
작정
이념
개교
어나더
##폭탄
드래곤볼
##DD
페르시아
TR
만점
타츠
장벽
##려워하
의정부
쫒
IM
##흉
##쥬
##지능
인공지능
덤비
##ans
##ign
사연
##뱅
도색
이원
love
유스
스케일
발급
어이없
미성
반경
아스트
교역
##띠
이진
##워즈
177
당국
예방
##탱
멋대로
가마
대역
츠바
원로
자아
##이동
엄밀히
포병
롤러
에도
뚜렷
중국인
벙커
아자
리플
남동
사투
웜
거지
박성
마음대로
DNA
아담
코토
재즈
CM
1962
##미터
학급
에디션
이어서
몰살
이대
##리나
리본
##ᆺ말
변명
인성
비키
킴
프레스
옥상
##ug
##야스
고가
안동
마찰
습니까
마모
Super
MG
고의
템플
제사
##민주당
이누
초록색
##툼
개구리
wiki
##oy
알아채
##AK
포착
오렌지
협동
망토
아케이드
##마루
펌프
갱신
방학
스타트
Dream
각인
신지
죄책
지로
초과
격려
튜버
##프라
1966
124
매달리
부채
법사
항모
남동생
민감
명나라
이명박
툰
##이나
극한
##하여
127
선동
스컬
##셈
풍기
혼합
디스플레이
게르
수신
시오
만능
피오
용이
아사히
바쿠
카운티
등극
베스
독립운동
멧
미인
달려들
부동산
통째
너스
1964
다비
원피스
##바야시
CE
수감
연이
!"
##자치
##지사
##텍
적절히
비평
들여
풍선
##떨어지
BJ
연소
마에
리사
can
오다
종영
선포
죄책감
덮치
포탈
코파
슈퍼맨
금강
추후
용자
유진
방심
정신력
대피
USB
헬멧
교도소
로렌
쿠바
협조
www
카테
발전소
으라
후쿠오카
호러
##돌프
아비
연전
##이치로
부러지
엉망
450
고발
##이크
갯
유고
인벤
##뱀
감당
종전
아이디
도약
기법
스케이
다시금
선원
정반대
##바이트
은폐
어설
벨라
신곡
연동
Pl
##vel
학술
내셔널
씻
비단
뛰어들
팔라
트윈
억울
##치아
오른손
스토어
##IR
##나베
최순
트릴
해운
이소
##코트
다거나
블럭
##전차
대차
##철수
펭
왕족
흘러가
스로
분홍
옴
##ode
##페이스
컴백
급격히
IP
덩어리
##뒤
잔혹
this
공속
방침
시타
물려받
유카
##폴
철도역
경성
위쪽
##다드
아울
우마
절벽
##uk
아쿠아
구로
밭
내기
##글링
##쭉
두드러지
보강
아무튼
Sch
페어리
타치
##생활
빌보드
아인
##써
크래프트
녹이
알렉산드
EC
제의
출동
##렉터
득표율
##짱
구형
고립
퍽
사나
뷔
Ver
##ier
발각
욕설
서리
유동
청춘
쉴드
학회
사방
##VER
맞히
얽히
왕가
후유
그러면
162
공동체
사슬
무도
잔류
사무라이
생태
격렬
오케
시크릿
ERA
인문
기본기
침착
##헤이
측근
쿠마
La
내외
사물
Girl
##빡
##속기
코노
##ash
진술
게끔
꾀
비오
호드
어ᄊ
회관
##말로
##나기
대세
##reat
얹
실존
수소
이윤
분배
아랫
마야
애완
리바
키미
나인
강대
젼
##역사
뺏기
문신
마쓰
1200
야당
바시
히카
현자
궁전
방사능
우크라
이행
정조
레이싱
ar
118
이단
미아
카리스마
신한
약혼
박자
전담
Season
애인
탄소
##공사
레나
시시
왕후
함장
##usic
퇴치
징계
부가
스쿼
제주도
월간
반성
중재
style
직위
쿠리
모욕
NO
카쿠
태생
워리어
카피
반역
EXP
판도
사치
DM
가위
존슨
로스앤
로스앤젤레스
진에어
강타
흥분
Col
오퍼
계절
가오
코스프레
제노
테르
중소
1965
러쉬
상부
tr
인쇄
##뱃
타이어
잠기
유재석
이용자
##꿈
노아
이카
김구
화기
충청북도
탈환
궁합
물리학
브론
모나
아리스
급속
리라
종로
자이언트
지루
WC
갈라지
스모
카네
1948
군요
Vol
##te
한양
로스트
암컷
중견
시종
앨런
박진
벗기
말레이시아
건너가
##IX
점심
피자
스탈린
아처
750
오사
정전
이놈
돌려주
콰
금요일
불러오
Ed
흑마
도미
흡혈귀
##사르
##수리
일환
##딸
안토니
중도
입원
비자
##티노
기동력
우지
친애
##ose
##슐
퀴즈
우두
Max
항공사
1944
유우키
##ail
Night
회로
은메달
난민
노랗
사임
관문
실적
등재
한하
314
루리
공국
고인
부처
황당
시범
마르코
##방울
에밀리
김치
레아
생김새
안무
청하
##리얼
자존심
방언
입시
학년도
동메달
황태
섬기
피지컬
섭취
##사랑
벌써
라미
대검
두려워하
##렙
방정
AV
스나이퍼
능가
TS
성사
##탐정
로키
숙소
천상
망설
적시타
조립
막부
코로나
##보기
건지
--
치이
대학생
극심
골치
뚱
그간
욕망
##닛
##ition
응답
토트넘
요격
불길
168
##ild
1946
석사
잼
GM
##톨
닷
욱
불참
프랑크
##킬
스타즈
탈취
##서스
거세
에메
해역
차장
스파이더맨
##시고
아오이
그란
리프트
쿠르
얼티
아메리칸
각국
##시대
뱅가드
통솔
과시
토라
까마귀
절단
무신
확립
할로윈
오만
라우
여태
나이프
그쪽
펑크
##부키
이야
스피어
련
피난
칼라
모종
Black
페르소
159
HE
부끄럽
나이츠
한꺼
헤라
희생자
한꺼번에
##바리
다녀
필사
천국
##구니
BC
Let
이별
요코하마
##}}
대안
so
인텔
하여금
ld
레버
필라
신생
##클린
미정
간판
경제학
테리
국기
고추
얼리
소소
아마존
##히토
부친
기껏
나들
모빌
괴인
이사장
테니스
강인
시안
나들목
아케
마기
##IL
해변
원판
일지
로비
일조
저글링
점멸
##멘터리
스탭
Op
로맨스
병행
어원
히드라
##당기
욕심
집필
##ody
도대
##msys
이승만
1961
ldmsys
토우
깨끗
과금
rd
들르
사탕
고이
김주
미노
목욕
단자
미녀
스트로
not
상냥
스매
리버스
##성군
페르소나
##깃
코끼리
키요
얌
김광
툭
수라
##워프
평택
지지율
교향
달려오
블라디
두껍
지크
##뼈
주한
성벽
굶
대니
##러브
사망자
승패
##미르
##타리
보로
회계
오토바이
스윙
히사
가해
메디
##무지
##당초
항성
사이토
뻘
진도
호리
하지
##틈
돌려
그리스도
오즈
삼키
일일
고래
갸
세례
##gr
멸종
둥지
빅토리아
수컷
삿
스크롤
다큐멘터리
ᆯ래
주파
중공
사르
얄
파고
광범
프랭크
늪
디아블로
BD
신작
##ough
##딴
##빗
덥
유머
전도
여주인
동사
직행
##uc
물약
AF
춤추
##각형
객관
해전
엉덩이
맑
바텀
전임
침해
댐
수중
만렙
식스
내밀
환생
조수
퍼펙트
믿음
동북
무녀
##세지
밀리언
어서
그랑프리
좌파
동상
빙결
라인하르트
부제
##진호
리자
##퍼니
도배
##프란
화신
보살
정서
일어
##33
퓨전
마도카
##메리카
MM
해고
대승
무지개
북서
맛보
세르비아
원자력
상원
금발
GD
루마니아
진흥
모의
무능
mar
껍질
알렉산더
발사기
접수
지각
벡터
도요
외야수
노부나가
십자군
RE
테이프
출석
##시티
주저
수아
4000
워드
김대중
불상
##모습
스텔스
두루
##app
간지
목포
미소녀
개업
명장
##aster
관광객
울음
1949
섬멸
뾰
에코
스쿼드
##그라
약체
도대체
138
노릇
아무렇
카토
아슬
챔스
주입
연세대
##은이
크롬
동아시아
##스크림
방안
팜
서울시
줄리
##애나
베이비
아카네
##이센
OG
휴게
일명
운반
Is
구호
en
대국
눈앞
하와
무자
151
두려움
둥글
면제
혼혈
공교
교대
카일
퍼시
공명
##ari
샹
알프
공로
북동
##CE
타우
##orts
와이번스
아니하
선회
스기
##ject
데몬
비로
평판
사천
폭로
성지
##벼
마을버스
걸어가
##총장
천주교
신념
평상시
AL
옐로
컬렉션
ㅔ요
아유
172
뺘
보우
루미
인피니티
히로시마
라비
사지
보복
위시
그리핀
##고속도로
유메
격퇴
PK
아수
숙청
광범위
쿄코
드워프
대사관
##OO
신관
휴대폰
이계
배리
가령
낯
컨디션
어제
애용
Gu
CR
집사
주공
남양
꺼지
라가
##긋나
풍경
가해자
편의점
##ᅩᆯ
큐어
정우
EU
장본
숭배
노비
최상급
158
le
이무
리부
카사
##디스
##아티아
츤
크로아티아
스타워즈
스카웃
컴퍼니
소마
려
SA
신조
Am
천체
##iel
밈
##TA
컴뱃
대면
단련
제발
와타나베
단서
성대
스틱
감성
자력
남한
레슬링
찬양
수성
달콤
##0000
320
EXT
##부인
##oh
..?
카게
휴먼
냉장
놔
스칼
유즈
우미
김병
떠돌
Time
정답
math
일련
으려면
##ye
독백
원한
테레
민폐
쑤
광복
아르바이트
아쉬움
섬광
Mag
솔저
홈경기
흑막
구제
권하
기온
케리
강동
테오
티저
점하
효소
EZ
법안
뻔하
수확
주차장
스톡
불화
제인
시네마
건립
가이아
남학생
추모
도스
대교
상시
##eth
지면
상어
뒤쪽
어기
보직
타카하시
무선
##ings
##쿠스
서바이벌
##ats
균열
표기법
하도
아드
176
코레
##조합
라이드
개막전
장본인
눈동자
AB
통보
던지라
##룸
민병
Don
신임
사범
적이
일각
##오피스
살아오
사와
##ron
이점
TOP
의의
안드레
하우
배후
트이
딥
리믹스
지미
단역
우기
GSL
UC
센트럴
대명
걸음
강아지
투고
내정
승려
자루
주의자
청사
문헌
315
CL
패트
카이저
탁월
오공
쿠사
순천
손잡이
고난
깃털
##eah
아이즈
ATK
##덕션
##낭
천지
어벤져
내면
재질
NT
전염
문법
얼티밋
다녀오
로제
##바람
실업
그리하여
직무
탐구
무슬리
김일성
무슬림
일산
126
찔리
##쑤
제대
캡슐
여수
유해
국민당
자카
##중간
결과물
시련
충남
##도전
##내리
##운수
슬라이드
보트
가나
마미
이호
볶
타스
악행
밀라
##ult
154
##총리
##마치
1958
응급
타리
블랙홀
동이
##꿉
성직자
132
이순신
염색
스파크
ver
흉내
자작
표식
금고
##성이
164
흑역사
총사
충고
##나르
신상
크라운
미세
총선거
박스오피스
매그
소꿉
김윤
로열
독보
ME
발톱
테크노
샤를
하나님
치고
이세
1941
정의당
마저
서원
친일
##트론
예고편
병살
리터
그레이드
##inal
##ov
무한도전
유마
피드
리우스
라틴어
다저스
고조
호응
레이지
토론토
어판
##뤼
합법
습하
보가
코프
표하
will
감금
iOS
심정
풀려나
팍
비즈
무비
재수
르노
병과
가왕
콜롬
계략
지지자
당나라
간파
##느님
클레이
도사
new
궁수
KB
마가
차림
과격
군데
1954
##떡
우두머리
성폭
바이킹
##널드
강수
LE
하느님
동등
주황
##로그
삽질
저항력
라이트닝
퉁
겟
렀다
Mi
보루
이즈미
##넛
성숙
방울
##짤
##타르
완벽히
겨루
WH
니트
배열
테란
##oul
쫓기
가미
강서
방정식
폴아웃
몸매
156
139
##GA
##ᆼ가
갈기
사료
유신
매기
##alk
태조
##==
거꾸
안보
취지
리리
##바스
거스르
Ser
인천광역시
어그
구청
지표
통틀어
크로우
진하
##tern
니콜라
아호
플리
오로치
like
허브
##yn
하드웨어
전법
스치
##ob
Your
리볼
응시
하비
리츠
강습
218
153
흉악
레시피
##리히
제너
##드리히
##up
패왕
손목
2023
##엘라
지배자
Car
##핏
##빨리
유라
세미
프로덕션
아테나
마수
맷집
##MAN
오키나
저승
생물학
{{{-
##베르트
발현
번식
이용객
프로이센
청장
##겸
나란히
##주의자
트론
드루이드
김성근
슌
##넨
공모
무색
먼지
테크닉
##활약
상공
웨폰
장신구
른
코디
##곰
후쿠시마
지터
상의
태권
이인
교정
빗나가
완성도
##프란시스코
반기
이쿠
미시
야망
샌프란시스코
더미
##ould
선봉
디비전
급식
이리저리
버거
어드배
##저래
148
엠블
유능
##제스
마티
##레이크
맥락
##reak
봉하
이래저래
키노
벌금
지성
충격파
##ions
짬
누이
난리
셋째
라이징
후면
섬유
레바
으리
마마
떨구
짝사랑
핑계
전두
##보우
설탕
오바
후반전
동년
167
브라우
##der
엮
나열
카제
재벌
이광
동지
법학
##13
미남
신주
163
필두
스크래
양심
이영호
##able
우편
표창
상속
##18
##타니
142
음향
Fl
감기
one
174
대법원
김선
초등학생
과언
긋
능하
워너
전례
무궁
시간대
조던
맞대
거꾸로
##친구
##처럼
파이프
접전
통행
##사고
1943
##전사
##고사
..!
종말
얼라이
모에
203
벚
복음
시뮬레이션
양국
네스
ᆫ가요
숙련도
##ᅰ어
커플링
이나마
휴스턴
무죄
##차리
범하
놔두
배상
몰려오
오케스트라
저격수
김두
도모
호스
네크로
박탈
유카리
배율
스페인어
##던지
타키
##왜
최하
반장
연달
혼동
사가
애국
공격기
파우
하츠네
야마모토
당원
##무네
Gaming
스케줄
볼드
##문화
GK
이니
장시
타당
추출
크리스토
1942
자키
##결승
고우
엉뚱
ᆫ단
부호
유타
##백과
통증
##트랙
종사
스마일
오역
10000
##ull
##기업
단의
SSR
##15
애드
어긋나
쫓아내
대등
맞먹
##ll
ᆫ듯
주유
데미
가히
##니코
꾸리
##셉트
얼라이언스
수도원
냉장고
장례식
제프
제리
137
쟁이
맹활약
사내
처녀
Min
수령
TP
절정
143
1956
se
##크리
플라스틱
달인
몰아넣
연안
버블
탄막
인명
황실
CN
황혼
무안
창당
카인
단식
RO
대외
pr
##투아
앞세우
가라앉
창작물
회견
약칭
##터스
시끄럽
주가
굳히
미쓰
칠레
월요일
스캔
##니즘
시에
여주인공
제자리
노하
숙주
아수라
연고지
마스코트
주술사
염두
##FL
##껑
한층
초상화
생애
승급
역학
범주
정교회
바이크
깨우
##니스탄
##재기
음력
갈구
##상가
##립트
157
밀레
##ᅨᆫ
산화
수하
원화
진로
쳐들어오
사야카
빈약
##뱉
원년
이준
미하
미트
차일드
사소
릴리스
현직
##더슨
영등
바비
태자
레인보우
레이븐
##ube
토비
전학
##퉁
##랄드
증기
LTE
제지
과감
바티
펙
인체
##보라
능숙
##모어
오리온
죄수
왓
플레임
NM
공고
129
순간이동
##ECT
득실
IV
런처
러너
졸업식
안제
헤드샷
have
므
꼴찌
오디오
레슨
사우루스
시흥
외관
리볼버
한강
오비
대군
무너
무너뜨리
앞면
이오리
트러
찰나
평창
133
클라우드
델타
생각나
별칭
out
잔해
라시
연막
오쿠
갈리아
##ICE
남미
이만
##물리
사당
관계없이
초래
##소수
유대인
카렌
투사
##귄
기관포
섹스
해상도
BGA
관절
축구단
몰아내
싱어
페미니즘
대목
환호
Sum
146
알아차리
세키
이력
베어
호프
##스티스
반란군
가와
무단
노골
설마
박종
##니스트
1939
득표수
격하
뮤지션
내ᄈ
경찰청
밀어붙이
소우
체스
두뇌
136
따내
바그
230
설비
순찰
313
전반기
십자가
북구
173
공습
청룡
단총
방벽
폴리스
한정판
입법
HS
혹평
확고
크리스티
후대
목재
차분
자포
너클
극우
##박이
쳐다보
##의회
##ica
un
망설이
##대사
공짜
우산
키드
##에트
기이
마니
스바
1959
스트레이
화약
꿇
##교통
경선
자회사
앵커
소꿉친구
기술력
내뱉
파키스탄
브레스
솔직히
푼
나카무라
프로그래밍
구독자
##제국
율리
##회장
1900
다지만
웨일
치마
호출
##che
빙의
기쁨
ALL
##믹
BM
Play
태종
인터페이스
테일즈
영화배우
쇼트
As
방화
아래쪽
##맷
##구나
끓이
공자
무식
1955
아테네
##티넘
플래티넘
BO
랜서
지주
오딘
표본
프로스트
##권자
149
##ict
친정
빈번
닫히
##무게
지극
입국
몸무게
1936
브루스
강탈
실바
##뿔
키즈
난투
비참
폐허
뚝
우파
##토랑
제조사
발하
번갈
레스토랑
##세포
진구
ᆯ까요
맹독
오키나와
동로
카테고리
공천
##스틴
134
극악
남서
바인
도쿠가와
##곧
라파
출제
슬슬
000000
팬티
Red
달래
시초
아노
##던지
뢰
가로막
카오루
미들
리뉴
전수
##ock
##콕
팀장
칙
넓히
서장
해태
채찍
플레이버
##STER
set
##YP
박명
BT
힌트
심화
혼다
뫼
##날두
##천사
얼터
경보
포니
호날두
프리드리히
##이스
la
샤오
사나이
부흥
수영복
##ater
서치
공과
OF
CB
하의
찰리
여장
know
저조
리셋
퍼센트
클리셰
파랑
진리
나사
CO
포맷
운항
수용소
147
EV
##DX
잠그
##무이
망상
대패
##주군
margin
##ons
미모
멘붕
히카루
가혹
텔레포트
##IV
유선
1952
##ange
##MAX
나락
Of
콕
##풀이
수상자
##ster
청원
애쉬
오세
High
Type
가의
해독
럭키
##ᅣᆯ
밧
##생기
일러스트레이터
##소총
양대
스ᄂ
박영
1947
복도
테일러
라이센스
퇴역
팩션
장갑차
바나나
##데르
박해
클러
불문
##탈리
무수
거느리
재임
애쓰
조력
##사관
슬램
심야
실천
냉동
아이폰
##산역
로라
BA
소행
파손
불가리아
오른팔
둘러싸이
치바
##카미
개판
##무늬
플루
시집
정준
교육청
메세지
선형
Light
구마
준결승
생선
곡선
뒷면
맞물리
다만
롤링
스콧
공손
왕관
##나리
##전설
가브리
지자
##왜란
교양
산탄총
##to
임진왜란
pro
소매
##란트
플로리
소령
개미
트랜스포
미숙
##에몽
경지
미스터리
제이슨
스나
##ple
열세
불쾌
분쇄
##ᆺ대
보디
##PA
미끼
배속
경질
차관
배우자
##14
슈가
앰
책상
Gen
무명
자부
때려잡
증권
루키
##지않
증인
종착
TE
레슬러
신세계
슬라임
로지
##바다
166
모어
트레이닝
사일
옌
복용
개개
##BM
AG
##살리
김천
Heart
랙
땀
연말
격리
악곡
비로소
편견
NEW
앞뒤
어워드
로그인
상대식
주고
##메라
##ics
280
레프
깡패
##레슬링
전두환
재림
지난
트리스
패스트
싣
달라
봉기
프랜차
캇
비꼬
파괴력
필터
하이브리
진짜로
하시
프로레슬링
스매시
외면
태미
##차례
##테스
퓨처
기행
##교육
랜스
하이브리드
What
##17
인트
프로세서
수시로
##규모
반환
원망
##넉
중급
##고래
요우
시가
라임
심히
스트리밍
##지오
중후
좌표
섹시
보잉
AE
열기
안철수
로브
프랜차이즈
##툴
소설가
##les
feat
##구역
포식
MO
미식
심상
자켓
was
스팅
##모니
진형
오프라인
스바루
실로
##세서리
마켓
사천왕
제우스
페이크
르네
##즈카
##티지
삼촌
푹
드라
1919
웨인
제단
직통
동조
반군
%.
Tw
강세
##산동
골목
준공
Kor
슬러그
##CC
폐선
최정
222
야전
선인
장학
Blo
꽁
탈당
감행
##nder
세일러
가르침
메구미
사모
냉각
드리블
용의자
넥스
러닝
GHz
템포
NHK
##텍스
보행
Fe
카우
음색
글리
하지메
면접
필립
동문
장편
##더기
##ex
적색
엄폐
조교
소노
착지
야마다
아랑
저스티스
원종
토막
김연
따라잡
재활
헐크
얕
히나타
성기
타고
지그
이아
입양
산악
지문
##수수
세츠
우물
신칸
불리우
개그맨
##lass
철갑탄
기피
공영
##대기
굴러
의아
술집
말년
메테
##컨드
DI
Par
세컨드
속편
~"
1953
##사와
도호
킬로
채취
##전트
일삼
거르
소사
반론
기술자
펭귄
정계
미수
미호
콘셉트
GPU
라바
위키백과
##ACK
PL
망원
꼼수
화소
레규
##두리
배신자
모함
TO
고음
미도리
Mr
아이스크림
하카
부당
명탐정
방송인
##ors
응하
LOVE
낡
연기력
주되
내역
체격
##플렉스
신칸센
라든가
두목
##쫓
뱃
토가
호르
물가
##바키아
지요
발라드
이방
교섭
평안
하후
time
발간
소시
솔라
원고
물어보
##어붙
카니
서해
파문
냉기
케리건
부도
전광
프랑스군
Good
고분
뇌물
경과
스크립트
투신
에그
정형
픽셀
이에
트랜스포머
모던
현존
oh
##딕
춘천
투성이
어린아이
전열
버터
캔디
고산
륙
330
심문
퍼붓
동호
스퀘어
자질
LED
접어들
기관차
어벤져스
270
쐐
병종
핸
패드
##무실
책략
화합
여배우
단과
어미
축적
ᆯ라
사슴
##수아
그제
로저
##AND
MK
라트
##무기
공존
중성
수량
영등포
다면
찌질
1938
레즈
범행
교통사고
마의
메우
Live
캐슬
참으로
##튠
더하
성서
2500
최우수
하부
전속
##좀
대중교통
하반기
##더링
방호
틀어
거품
호무
다중
윈터
도청
더구나
##며
구절
Per
카를로스
태극
최대치
쫓아가
테러리스트
클라이
보리
레귤러
비타
인사이드
특훈
직속
깃들
로테이션
광대
심리학
하리
FPS
탈리
특허
악하
##아슬
엣지
아슬아슬
그랜
져
전반전
순교
##볼루션
상행
속력
되살리
##플러스
##ME
몹시
석방
신수
##파리
더욱이
소규모
협약
1957
김도
소실
음악가
총회
방공
우체
세스
얼어붙
패닉
225
요미우리
서민
담임
뚜껑
내뿜
적립
라프
스텔라
영남
무고
즉각
##16
갈라
솜씨
중년
SL
불신
##단지
오타쿠
우상
남작
죠죠
ll
유방
시가지
인구수
현황
파벌
바닷
총괄
##뿌
쥰
카즈야
에메랄드
생산량
뱉
단말
신흥
스윕
순정
상쇄
서두르
파격
출고
저술
빌라
부류
영동
멋있
자본주의
##턱
노래방
사탄
하와이
스파이크
박상
홀딩
끝장
재빨리
아홉
##글라스
##eep
베일
신병
상장
함성
간호사
매지
두근
앤디
카디
루터
##포드
260
모양새
자문
헬리코
퐁
저거
하라
GTA
수평
텀
스내
프로모
차용
마초
혜성
This
Sm
Wii
따돌리
석상
직격
#!
머스
##ott
멜론
다이노스
적재
소비에트
페르난
저희
신정
카이사르
원내
Rock
""
##플리케이션
상용
호구
##HT
자각
장원
##윽
사투리
메이트
헬리콥터
am
핸드폰
짤리
##때로
##문트
급히
벚꽃
유지비
하행
지름
줌
유나
로스터
여관
쎄
예배
GN
배리어
발렌타인
월등
쓰러트리
##델피아
쥬얼
필라델피아
고토
아제
오락실
증발
##메스
새우
하원
##산물
이례
##려보
##ᆺ집
1800
털어놓
Kn
시부
프로토타입
넉넉
쇠퇴
리조
켈리
Li
##하이
양측
자칫
래스터
호투
허위
휩싸
미티
부사관
EBS
유정
##두사
브이
만료
ab
바닐라
주거
행렬
격전
양보
핸들
##받침
윌슨
선우
부관
우천
공약
유니콘
군림
할리우드
여권
쏠
ㅓㅆ었
선대
마신
야만
정정
포워드
미유키
회화
설화
바오
관념
레이트
중학생
미로
##파크
도마뱀
결함
##뚫
리바운드
추궁
실력자
아르메
구타
유니온
풍속
##ᆯ리언
농사
적성
본의
텅
가축
단정
에바
프린스
후루
습관
받치
MSL
밀집
술탄
169
Baby
##메다
타고나
몰아붙이
라구
야외
길거리
유로파
기함
노동당
##닐
페이트
냅
안성
서정
일례
호박
진수
편찬
IIDX
리키
쳐내
심연
히데요시
호세
자발
세션
##행위
재무
유무
엘리스
동요
페인
질풍
대진
게임즈
징크스
그래프
운석
근력
눈빛
펠리
##anna
꿰뚫
ᆯ지라도
유승
RC
##토르
니카
유배
송출
격투기
주파수
도시락
럴
ㅏ야
의석
소리치
0900
##other
DB
교훈
##자동
불평
##케인
요시다
정재
호그
리우
Ac
우루과이
고든
악령
조준경
드레드
민정
본가
프롤로그
카타르
탄탄
##IK
실정
스콜
츤데레
피에
ᆯ려고
우크
단속
##ins
악어
베르크
##팍
헥
일레븐
성비
훈훈
더라면
후안
##icro
바이올린
서태
책정
트러블
wid
##라이나
##ᆯ리티
전산
브레인
제보
청산
킹덤
##oss
회귀
우크라이나
깽
구두
550
루루
Blue
요하
독서
유코
미팅
여당
포럼
수수료
스케이팅
Can
대출
서독
후지와라
아프가
##ction
라던가
첫날
ONE
##ru
##버드
청동
재판소
자격증
원작자
분화
연루
말미
황태자
us
##일으키
불러일으키
1914
특이점
수복
중추
밀란
스토커
존대
HARD
재위
샤워
타다
우가
독수리
자손
줄어드
개칭
##코프
##페르
보증
##ood
에필로그
촉진
##기지
자크
##코스
Dark
##훼
##르기
떄
김원
달ᄀ
박용
동래
경쟁자
##넘기
프렌즈
배송
1951
##똑
##세기
리부트
##gain
할당
내수
트로이
마차
격침
뽐
농촌
마테
Sun
만루
성수
왕좌
크래
맴
가창
노트북
편안
##앙스
병장
첨단
##na
##소스
##19
오클
정동
그리드
장풍
북극
셰이
진군
##ᆷ마
살피
요시노
OK
좁히
원활
온몸
기타리스트
은혜
멀리서
유유
캐스트
##잎
사안
장동
히카리
진행자
##킨스
밀어주
비토
사다
분기점
Music
##land
일품
결사
##EL
프랭
엇
해저
메모
센티
야마구치
야기
아틀레
총재
서대
입체
남아프리카
모친
홈즈
Im
대마
피에르
오시
연금술사
더비
cc
##25
##그루
뉘앙스
죄송
병합
지중
아프가니스탄
width
장제스
원천
완구
키트
토마토
로컬
헌신
민영
당주
빅토르
텍스
##꼴
희대
파산
교내
셰프
##궤
##ty
##노스케
진정하
수녀
아르카
KTX
윌리엄스
누명
미라이
연의
체형
제작비
상가
게릴라
피치
미니언
##DS
짚
페이커
##셸
고성
방과
갈아타
교시
##균관
모리스
제휴
게시물
말소
아울러
베른
빠뜨리
때때로
수강
MHz
정체불명
피츠
열악
##UT
##irst
셸
잊어버리
본성
오리진
폭동
에티
##agon
Bat
버릇
하워드
산책
수식
무사시
##ky
디렉터
내륙
매달
오디
닉스
실루
비시
켄지
도라에몽
포대
Life
용감
실무
속박
요리사
Champ
유영
클립
BBC
루이지
아르메니아
##자재
초교
천마
DR
##놀이
++
205
분장
마운트
배기
강팀
기획사
일렉트로
기성
안산
환수
돌아보
휴게소
단선
미성년
해임
##툭
성균관
주고받
##어쓰
##ady
니나
해수
대대로
직결
타카시
모범
불어
재난
브론즈
육지
격기
Korea
경순
고령
발차기
박재
커트
원흉
분홍색
쫓아오
##크리트
제스
창업
말아먹
일일이
찢어지
Summer
경감
Fire
1937
베이스볼
임원
연하
매수
##통수
선곡
슬퍼
유비트
열람
반대편
아까
발광
야심
##아르
라드
플로리다
back
##무소
양키스
김명
넥서스
목동
##ium
페루
##스티니
리액
살상
금색
탄도
OCG
달라붙
RP
자판
정벌
총격
석탄
블래
환사
친목
깨알
##토리얼
잠재력
냉전
코지
##따르
백신
통수
포토
##로프
플레어
미끄
##혁명
쓸데없이
후궁
탯이
Ma
권능
튜토리얼
무진
프로모션
차선
스파르타
목적지
니코니코
미즈키
토이
##베르크
계란
항아리
무제한
세레
베네치아
파업
##ount
여정
합당
달걀
자처
소극
필연
na
동족
평원
합하
댄서
Sy
장안
데스티니
창시
명곡
벵
진료
김형
일자리
솔리
성모
650
이창
매개
##눅
충북
레이첼
시코
토로
##커녕
무상
아타
브레이브
##사벽
넘사벽
에스파
도검
귀하
##박히
##숍
타나카
실습
개인전
##퍼런스
행정부
회고
저것
빼내
밀치
비즈니스
저널
서초
정립
##스트림
금호
문고
강행
##듣
성도
나폴리
마요
북방
CA
남발
급기
숀
스캔들
레이너
흠좀
흠좀무
##테이너
부과
엿보
##ush
OB
코즈
귀중
대각
리턴
악의
##쉐
하타
이복
이질
샘플
##현우
후예
조직원
교관
슈터
증후
어느새
기괴
줄줄
사면
위탁
여진
네이트
##누르
고속도
쪼개
쐐기
만행
호기심
쩔
프리즘
몬테
함재기
소동
쾨
야드
리마
험하
로코
학점
BEMAN
계열사
##사이드
늦추
듀크
적료
광속
해적단
남극
다이스케
##곡동
시몬
치사
상류
설상가
Just
루팡
설상가상
##베이스
스냅
인어
부여받
나레이션
미스트
휩싸이
코리
감전
주심
파인
##ne
##석민
한스
211
콘크리트
BEMANI
힐링
Ste
화내
선구
시간표
지휘자
##ger
##현진
고자
##마당
자수
유난
역과
상표
레기
타이완
피카츄
까닭
파장
모닝
반항
살인마
화자
##OID
손톱
now
##주리
러셀
204
문어
대상자
박찬
뒤통수
피고
슬퍼하
##도스
연회
시치
로저스
가브리엘
이우
사찰
공익
동체
드릴
퓨리
영장
우아
아토
FB
강연
음주
##ᆯ럿
펜듈
펜듈럼
세탁
볼프
사로잡히
지온
##베르토
But
진나라
지침
교향곡
성체
염려
GG
서인
양호
복면
선제골
Pre
바우
##얀
실명
##pr
Ev
##펄
보구
어퍼
슬로우
##기사
농락
##ution
가성
CON
돌이
박경
호노
점사
민법
##블릿
##년기
준하
숙이
빈틈
똑똑
##CH
불로
투니
Gold
수락
미술관
네코
Out
뷰티
바흐
콘티
한탄
노블
##멋
지상파
3164
리엘
발칸
램프
어설프
가급
##메어
STR
영리
##체스
지극히
끌어내
Over
출근
선방
DX
##미스
경찰관
한도
한발
월급
훅
동탁
##덮
조류
별점
망가
캐리어
##ᅥᆫ지
주재
스킵
Dance
스완
진성
주황색
책임자
채집
일본식
합창
증후군
권고
Grand
뭔
##ally
대표작
대공포
이노우
리브
##ator
증가량
##징어
셉
1600
##앵
마누
쓸어버리
day
개개인
관동
##산화
##미즈
정렬
구급
##inc
가소
서지
예언자
호로
괄
세일
sc
스퍼
코다
나이트메어
##그룹
대주
마운드
홍성
##GC
각기
통신사
##로이드
##엉
내걸
향기
정자
부평
한숨
테루
행방불명
감히
호쿠
신대
프로리그
샤프
##라노
논하
아델
기복
콜롬비아
UF
pt
구단주
개연
##토시
예명
끼어들
##레스트
실루엣
현상금
저상
변질
투하
HK
전년
친선
##클럽
FFF
일식
츠바사
신축
##air
Sec
여친
##저것
이것저것
스네이크
대본
외래
##아라
전교
리히
장기간
##러리
고안
박명수
목요일
정확도
교직
젝
신원
##수스
추기
소피아
리에
정세
매스
콜드
##칼리
차후
##나드
암울
따라다니
열등
상하이
매너
괴상
전세
네놈
지자체
조영
오의
##준표
앙리
El
소수자
조달
##포스
##로니
군복
번트
케이지
차남
출연진
접근성
Dis
외롭
페니
tvN
코시
광전사
get
화나
코카
접점
VOC
##퇴근
아줌마
이속
##마침
반짝이
캐서
샐러
전류
##티콘
괴력
풍자
##빼
테이크
난감
1910
한성
검은색
추첨
케이트
##첸
영진
학계
여더
TW
전리
퇴출
컨트롤러
차종
다짐
출루율
이변
대부
비장
이동하
크루즈
##ina
##바시
철회
미사키
백색
ARM
리트
##보그
간선
건축물
##얼거리
때마침
카이토
어리석
카르마
클레어
완수
##쩌
##흙
픽업
금화
##베리아
꽂히
사육
자진
Mon
동창
이은
조제
최영
딸기
알고리
베토
밀접
##펑
총사령
ᆫ들
고질
Af
시정
경매
##꿈치
나고
beat
Win
수험
포효
##장난
간략
리티
예지
군함
세세
코바야시
화가
##축구
서진
##스톤
영조
일어서
볼리
만세
해치우
##라비아
일진
매출액
잔디
야시
##휴일
##use
점거
체이
등교
무궁화
##네이터
웨어
일절
At
박치기
Power
잖
계좌
아이유
조형
스피커
도피
딱딱
쫄
##봇
레닌
크리에이
연발
횡단
느니
경희
예술가
간행
양주
여덟
기밀
커비
SV
쿠시
1935
성형
출중
글래
연구실
사극
마르크스
은밀
욕구
아카리
고릴라
러시아어
회오리
Fla
홍진호
밋
처절
알코
태수
파수
UI
오피
고원
임관
아부
힘쓰
DJMAX
6000
뺨
부대원
그려
강판
평민
##ᆫ든
##엎
츠나
##ᆯ렛
대쉬
서사
존속
태블릿
카가미
##츠카
캐서린
빅뱅
Res
##장이
용맹
휴전
##힐
소감
베니
##ring
헤매
우와
타니
뒤덮
##여지
금성
1934
아폴로
스님
안면
오피스
경쟁력
정거
챌린저
뽐내
회심
##동원
갈래
자신감
천공
but
상체
체리
집결
우습
수요일
레몬
내야수
##카스
판권
비요
소서
코요
##프레스
달빛
##르드
##...
입술
모방
총열
베이더
데이비스
미코토
##맥스
매칭
##ART
1918
유난히
Fi
타시
아카이
이용해
혈액형
미판
스플리
민원
사이보그
케로
##범죄
다툼
##대부
오인
256
견인
우체국
채소
전전
후문
천둥
##ittle
티베트
김영삼
##LS
man
카바
유서
저렇게
공휴일
카구라
대문
380
모호
##라이어
리플렉
바주
##XT
##de
정크
ᆫ다던가
##ational
시드니
여사
자유주의
VOCAL
오징어
발트
Sing
퇴사
런닝
원격
##관총
샴
조지아
Rem
매진
풋볼
상임
레이나
쇼군
악장
튀기
##소문
강성
무소
못지않
평면
페더
혹사
리전
초고
튜닝
##흘
##외선
방어선
퓨어
중견수
유소년
카지노
MR
되살
독성
블루스
알고리즘
상수
##be
노려보
김두한
호전
함포
CEO
##대교
제다이
젊은이
제라
막아
워낙에
창의
피드백
하임
FL
유포
볼륨
자바
사출
MX
인프라
섬세
기미
맏
경량
국사
이성계
피처
색채
~~
동참
제르
뒷받침
##ello
로만
건전
피스트
소절
노엘
양파
LCK
낙인
##ivers
영미
퀄컴
EM
##글리
애틀
베인
OPS
적발
재고
본국
연구자
웨이트
형편없
뽕
사스케
코이
정은
부식
궤적
gr
패미
##루살
페가
망령
그리스어
키무라
자취
하르
##루살렘
줄거리
로사
##긴
직구
고속버스
섀도
카노
총탄
##ual
무효화
타국
기합
자민
에우
발전기
부추
정거장
립스
저리
맥도
가명
베드
출퇴근
##삐
똘
이야말로
HT
##아스
Rec
}}}
공방전
가호
동갑
장병
애틀랜
MT
대칭
폭포
뒤이
쿠루
군사력
SCP
##부시
핵무기
##reen
농협
나고야
당첨
Fem
타치바나
애시
라자
하이드
마에다
타나
코스타
운동가
##스트로
피라미
악용
허공
공성전
노이즈
성역
sm
무빙
쑥
##하하
속공
신시
퍼스
족장
정명
SG
##ᅢ신
어쌔신
직역
##해군
거제
표방
##바퀴
벽돌
옵티
집중력
메스
김정은
수군
김택
식별
##ern
윈스
복싱
##심장
빌헬
조그마
태세
넥슨
루카스
판서
마이어
##af
King
트렌
실험실
궁지
조력자
선도
건재
가급적
포지
유하
##ox
##회의
노기
명대사
강변
##숨에
단숨에
예루살렘
거니
허구
##ERO
세조
노드
랩터
서킷
내구력
첨가
결장
억압
##싹
통용
억지
두부
대인배
시립
소용돌이
##ars
표명
블래스트
아이작
##riend
생산력
##코어
연예계
주방
카즈마
Ep
적진
뵈
##bs
증세
수원시
막바지
##스부르크
괴리
분경
역병
발상
신주쿠
##토미
미야자키
광탈
에이전트
승천
MLB
지중해
군기
숏
999
돌려보내
##연합
디펜스
IG
집정
초당
돌아서
예장
게임기
무전
콘테
##ts
초선
서식지
깊숙
블라디미르
이선
School
단절
꺾이
프론트
세균
파이브
근성
대제
고양시
슈퍼스타
동인지
흐리
요르
데우스
소진
데카
히토미
히노
베가
고베
##클레스
돌격소총
절규
Ge
Leg
End
다기
대파
김창
Pv
길들이
##ᆺ잎
둘러보
단조
##노미야
수비진
후후
##itch
##IE
바루
포고
1933
추적자
삼거리
어인
무성
김희
박격
스위트
피리
카오리
추기경
라지만
남용
Miss
##SS
엄지
출몰
##메인
##악기
##rist
양현
리베
허리케인
##ᆷ없이
지령
수다
가뜩
급기야
Di
홍준표
미토
경신
매사
1932
스타팅
그려지
##그레
리쿠
설계도
함경
임상
기마
1931
##tr
##atic
착수
카에
요건
배지
성문
##사전
대명사
표출
민족주의
시스터
자유자재
131
네모
VR
레스터
별자리
포트리스
사사키
벅스
퍼시픽
##일본
제시카
꽝
상회
소피
파파
입성
베토벤
조폭
발악
라오
##질기
YOU
가뜩이나
배분
UFC
중전차
광학
오로라
유토
병단
##날드
옥타
인벤토리
Air
부럽
아몬
끈질기
카탈
광부
악랄
IDOL
BF
##ma
이노우에
just
실황
애교
양도
피겨
천도
토착
환원
도미니
##무스
흡연
럼블
아의
극소수
##투르
인맥
카로
1928
물들
스티커
초원
GR
디에
다단
솔로몬
VOCALOID
##수엘라
##rain
어드밴스
##의사
위즈
티코
쿠파
##니클
스타크
사부
품종
깽판
##쏠
외무
밉
무림
##oot
연호
빨강
##카즈
헬스
사우디아
장타율
선비
인테르
팔찌
쏠쏠
세간
진가
천적
징징
랜턴
모터스
수고
응원가
과부
시중
코타로
당분
이치고
일보
무어
교란
올라서
Mod
교육부
태그팀
운운
안나
##재판
UM
왠만
플래닛
스코프
새로이
##ony
명령어
치명상
경유지
##셔츠
what
이화
군벌
##노이
키사
넓이
여고생
도도
해리스
인내
징병
##ope
##ren
정유
본디
커리
재사
col
되살아나
염소
손아
불러들이
편대
Che
포털
내려지
총대
메라
아이언맨
남구
자주포
???
송도
STER
if
Sound
마커
정인
서드
베네수엘라
Hy
걸작
국력
다나카
반갑
피코
단골
ADV
툼
유목
비늘
고어
##큘라
관제
창병
샤크
거주지
방금
방황
금전
종일
군중
##그램
취직
철학자
굴복
초사
도리어
직관
고폭탄
어우
미끄러지
전편
우시
예비군
'''
사교
유수
학업
밀라노
이과
마이너스
킹스
마사키
두께
담당자
글러브
교주
왕궁
##중국
##쿠버
진흙
##던트
뒤집히
##사우
위나라
부풀
노조미
재팬
무언
국산
##긍
마이트
유교
해인
제후
상반기
작별
정중
##서야
디디
노이
줄곧
##슬라비아
유고슬라비아
야쿠자
민국
지기
손녀
DO
부치
##안군
Vo
토머스
한심
각색
리노
요동
강유
체질
##원군
치아
진공
알코올
역설
연주자
추이
프레데
법무부
##어먹
원호
##olog
드라큘라
광석
사업자
##iew
타케시
컨테이너
청색
##UE
에일리언
광저우
관습
반다이
박주
미성년자
노숙
멀쩡히
조장
이치로
##세데스
휴일
메르세데스
안토니오
##ana
지망
레지스
덫
황족
##같이
아이리스
POP
앞쪽
슈타인
천계
프런트
##데기
성추
##UR
아역
광신
##55
여의도
육식
연희
만류
서북
문과
화요일
의거
번영
욕하
벼슬
재선
양면
게재
##AA
사바
##려드
군산
효력
농도
즐거
##데아
하세
아치
현명
잉크
학번
애프
카린
전념
EMP
MD
눈ᄊ
망원경
해커
스플
피어
불멸
가솔린
##쿠로
카스미
옵티머스
주범
토오루
해운대
작아지
로딩
손바닥
사쿠라이
PVP
고독
저격총
느냐는
애플리케이션
성채
리투아
고려대
리투아니아
night
SO
득점자
유죄
##의정
플랫폼
##ield
타노스
신디
나날
성주
부회장
경인
친위대
타협
괴담
칼럼
재혼
뛰쳐
회복력
로망
과실
기한
타지
사우디아라비아
##제이
##그라드
제식
금기
메꾸
활주
백합
흑백
레이터
Cat
행태
CT
후유증
시한
스테이트
엇갈리
스루
링컨
도널드
##변속기
오너
삼각형
매복
이안
친밀
겉보기
트림
빼돌리
##미아
청량
Not
기와
사위
With
하야토
무작정
App
조운
수분
다정
좌익수
한모
don
아산
콜로니
바주카
##oon
생사
##거진
게리온
으리라
진작
대용
나우
김전
아야카
골리
XP
굳어지
팔라딘
일부분
키워드
임용
사에
##무장
##티어
##패스
제멋
1924
피라미드
대두
극찬
펄스
MASTER
##천동
빅터
먹방
조율
건의
시그마
빌헬름
총통
이윽
추대
가치관
이윽고
선체
박준
되돌아가
EA
WE
BAS
ㅋㅋ
양념
아그
텔레콤
농어
시력
##시계
가든
안테
##ouse
##atale
##슬로
카무이
미셸
##웬
Run
##어찌
재해
폴더
way
복종
Hard
브릿지
브라더
미타
체조
섭외
니콜
드라군
시위대
변종
Femme
##러미
보태
광주광역시
분사
다인
교구
파고들
이마트
그닥
들려오
칭송
1100
조선일보
##블랜드
RS
빈사
쟁탈
액셀
340
아루
가산
중령
카세
초토
탤
언행
##돼지
참패
클리블랜드
부화
소심
살라
##elf
바하
설레
Rev
낯설
무찌
명작
##its
보답
세나
##마사
출입구
얼핏
마도사
그놈
##먹이
어찌어찌
성공회
창원시
1929
추산
대잠
외출
페로
샨
데이빗
성폭행
경장
애당초
위생
서문
폭발물
한몫
호대
촉구
미디
##니치
정장
넵
중앙선
택배
승부차기
도호쿠
스펙트
아종
기요
카도
미지수
확연히
아멜
##야샤
이누야샤
Da
후타
기병대
뾰족
전리품
채무
협곡
협의회
수렴
버지
##퀄
수준급
XXX
일쑤
학파
투르
HG
무찌르
껄
오스카
쾌속
##테리
커브
피신
##맨더
##방향
##치오
의병
자연스레
강적
셀프
여건
연비
바이스
피곤
마모루
병살타
스튜어트
카자흐
214
셜록
정적
탈옥
##먼드
캡콤
동남아시아
위화
패기
종자
효과음
쇼핑몰
안도
봉황
##저트
Get
접시
추석
설득력
##Fatale
벡
다던가
프랑켄
명인
CCTV
FemmeFatale
반말
든가
바늘
데이브
##발리
수작
동국
겨누
##언정
시구
무의
장래
카가
도전자
듀엣
가로지르
서면
##암동
자잘
근로자
이관
마징가
단층
##구나
공채
이스터
경위
초식
동물원
콘스탄티노
꾀하
김전일
신이치
본문
##ane
선진국
충주
패트릭
dis
부츠
직감
입당
릉
##텁
브뤼
손흥
광양
박격포
Elect
대관
입맛
선교사
물려주
키퍼
승기
1925
조세
환각
정제
동봉
토탈
##사의
말장난
141
결별
발효
계보
온화
송구
웨일스
시동
Song
홈구장
사각
사용법
제정신
스폰지
아벨
##로이
식신
북유럽
충성심
##we
안치
현행
케네
Ke
하코
순진
꼭두
이ᄆ
분수
##75
수반
기각
##매매
##득점
쓸모없
목성
흑화
순조
익스프레스
치중
모라
VIP
가출
든든
특권
알루미
She
압살
발산
유감
씁
타라
손흥민
마포
반칙
##마이
룽
홍수
포르노
##제리
밸리
안장
유한
들이대
샌디
아지트
8000
##무니
캉
310
##미사
대변인
RG
bl
진과
난전
트린
악세
212
발렌시아
오미
쓸데없
대여
산지
프레디
앨리
송이
윈스턴
상권
기만
##컨대
레트
좀처럼
쇼코
착공
액세서리
SHOW
침체
##슘
아즈사
##투수
1911
니키
##ecial
퍼뜨리
사다리
호스트
미라클
팔레스
완전체
리포트
육박
향수
집정관
뮬
생리
술법
스왑
고장나
매거진
co
레고
브란
빌미
##쿤
제비
법령
잠복
##asy
차세대
키리토
선발투수
최전
학창
뒤틀리
마작
##라이즈
샬
재사용
걸어오
메테오
콧
##MC
가물
콜라보레이션
창출
시애
##레트
사설
##라이터
리조트
수법
호조
대담
체가
마음껏
비정
##제품
만회
시궁
도르트
가가
대강
에리카
허세
작물
임창
##히사
정무
불가사의
어처
구자
평정
풀백
Back
가네
설사
격돌
주주
상정
엑소
영락
김인
RAW
##눅스
최면
##투표
##ORE
비석
혼종
1917
##주곡
##푸스
수레
성취
폭사
미츠루
단테
베라
로드리
과반
농부
오리콘
제이크
호노카
편제
콩고
##조각
김혜
##지대
삽화
##ze
사마의
제구
##폴리스
##나가와
##네트
저번
##원수
Ang
Big
##66
석궁
아세
Comm
원동
앞장
시애틀
##도니아
작살
1927
입학식
꼭대기
탐욕
순교자
스플래시
늘어지
부합
틀어지
Cy
DT
백미
알루미늄
선천
운전자
480
리눅스
신민
가즈
##용차
디트로
사과문
디트로이트
만두
교감
##ᆺ거리
자택
암석
포화
광화
시엘
소인
부두
홍대
720
world
스크래치
존댓말
지바
팔레스타인
악보
공직
탄종
부추기
낙원
##유산
SW
거물
##벨트
승계
검찰청
##아아
선명
##짜기
##ness
해협
넘쳐
와우
무자비
매입
불사조
##요환
프리즈
라거나
방대
##양군
수배
크로니클
동포
양동
열풍
블레이즈
항로
겸임
노브
##ke
대전광역시
바바
인민군
강당
애리
##EX
사상자
느냐고
민병대
개종
화장품
황자
스칼렛
##ton
007
어처구니
젤다
팔꿈치
다이어트
차출
심플
왼팔
하드코어
가까스로
Every
김세
임요환
##옌
전복
white
되돌아오
아픔
전염병
##평군
더스트
제이드
국무총리
##포로
듀티
420
손수
와이드
su
서점
목표물
당당히
##ny
조선인
속삭
투여
파열
까먹
정류소
휩쓸
Arm
스릴러
영분
##예프
볼텍스
아우구
##패드
송병
스케치
사절
박병
##르바
##히트
0000
첩보
##sc
##appy
난동
로마자
구이
바트
인디언
에덴
커네
자위대
다이브
con
유니버
즘
흘러나오
위임
##평가
##페스트
예리
비대
That
##비히
우익수
##ᆷ비
##지리아
적정
네메
나이지리아
대장군
헤딩
##노프
GDP
한조
##선거
어도
자니
ᆫ다면서
여도
마더
선공
도르트문트
해밀
사이퍼
##부대
심부
TB
이민자
위조
행선
두텁
가제
커먼
괴로
자라나
강남구
어비스
분교
이에야스
열받
나주
유쾌
기총
##28
처단
플러그
지아
##무진
##인간
시저
유체
##틱스
에프
메커
비약
체르
페인트
모티
서커스
Har
클로즈
유명세
스펙트럼
전태
합방
폿
원산
망자
동대문
사비
어휘
프리스
코이치
격노
##부리
대한항공
심포
화수
배척
##쓸리
Amer
주작
카야
##작전
휩쓸리
총사령관
##UC
의미심장
대각선
##RAM
류현진
랫
레이크
노후
입상
독재자
동거
떠들
KS
##바ᄁ
히로유키
##24
이따
클락
오버로드
주성
qu
##파니
##드래
보유자
Order
정현
서재
UR
으라는
아론
리젠
주군
토의
매트릭스
오드
요크
방랑
신종
##애미
프리스트
늘어놓
국수
능동
마이애미
##노기
프랭클린
침식
Des
1926
##35
모건
##교도
마늘
##모자
활주로
미련
서경
송파
유추
발령
경이
역기
크리스토퍼
캬
낭만
안드로메다
상경
단신
빡빡
소셜
야하
미얀
##니지
대머리
조회
사토시
서스
후일담
숙종
##AG
새해
퇴근
기라
리액션
정규군
##비우스
마카오
채굴
Skill
내려놓
관광지
무협
라운
Pe
치타
출세
브로드
가변
올리버
일직
비밀리
김정일
토요타
스탠다드
##공격
나가사키
케네디
##니트
문의
태연
시즈카
복권
벌칙
씁쓸
조비
병영
합산
지체
김준호
인즈
##운전
버금
일찍이
토네이
토네이도
허영
단말기
>,
산호
##chor
게이밍
##자스
단거리
당분간
개화
춘추
선발전
비행선
##렉트
마는
PSP
열전
메소
공병
사이오
##실히
te
자석
누마
##괘
장학금
중산
피크
디테일
좀비
옥스
장단
윤종
##비언
온전히
소아
추월
교원
##ious
208
성추행
오재
Tri
졸개
정진
속옷
송라이터
크루세이
난폭
푸드
란트
##픈
간식
듬
장녀
튜브
Act
프레드
##위치
##넓
235
와이어
왕녀
마장
커터
NS
##자카
##각시
판본
항쟁
이트
국정원
##느니
연평
##즈마
Top
상대편
난해
GL
애틀랜타
느긋
##타자
랏
어로
눌
자부심
영화판
석화
펜스
교재
태고
상고
게르만
공전
노랑
후작
세이부
##빠르
Em
사역
##ert
갈고리
##pl
양아치
시노부
지독
나나미
##라이언트
짤방
박세
다이묘
서부터
케르
이어인
171
##net
가차
플레이트
RF
##정동
법조
Str
클라이언트
850
이의
비숍
내년
초급
수산
연기자
1922
마그마
비틀즈
자의
##상스
##피어
체이스
최진
괴도
갑판
##단체
구세
알파벳
빡세
주스
##그러지
조슈
항소
주권
##ient
화랑
줄리아
##힘
끊이
##co
대적
라이터
가쿠
##개골
비욘
가메
##olution
역전승
카멜
위저
찬사
1923
켄타
초연
헌데
나시
각본가
동독
카터
마드
트리오
제멋대로
소량
츠카사
거슬리
모기
야채
직계
밀러
TCG
불운
올라타
데스크
잔당
FX
샤아
프라이즈
##바위
클라우
유행어
스펙터
조인
주임
햇빛
##지원
헌병
##끝
##정역
오아
인신
255
UFO
FR
과다
##고쿠
리오스
##bps
자아내
이송
##둘기
보전
크롤
용품
근래
안중
##IST
투기
영창
포유
##랑카
래스
의리
##ret
206
일선
유세
##서리
미완
정경
쉘
천문학
나츠미
타쿠미
중공업
앞마당
영기
미분
노사
요일
##모사
다이너
성남시
cl
진전
왕따
중심부
편집자
NL
수년
형법
와일드카드
'-
동유럽
들려주
브라우저
튜너
##러기
버디
왕립
##ideo
해결책
구치
데프
로페
Ab
LCD
##ner
쏠리
중얼거리
드레이크
골대
등산
청주시
데뷔작
가중
요지
독립운동가
법정동
호우
1921
마츠모토
Bea
럽
연방군
푸른
신한은행
##나들
삿포로
메커니즘
주름
기통
서남
정직
..'
LS
앤더슨
EXH
생계
키메라
외교관
한가
디비
루즈
이제동
##ful
왕건
오일
패거리
떨어트리
초동
##토록
ve
어중간
구애
리비아
노동조합
거듭나
Fre
데일리
PO
우로
버니
부르크
##럭스
소이
오바마
내무
알아듣
경호원
파드
God
한인
off
세단
선하
경관
박민
290
Bar
Met
##튀기
평지
##ham
텐션
내심
레비
두드리
스플릿
유민
벨벳
333
Sil
리바이
특출
체류
Hot
##ward
##소통
불분
뻥튀기
는군
우메
관대
고모
특공대
##ning
영국인
209
의사소통
부메
작렬
##겨지
어지간히
미하일
자며
##호도
지출
규명
##ERS
이승엽
포괄
원제
##캐스트
##캐슬
과잉
드리프트
쭈
면은
인스
DEF
중소기업
##son
힌두
대한제국
이지스
##사우루스
산출
마고
성종
##트니
215
레미
마천
치부
말라
재상
항우
엘런
##인드
##버릇
AMD
##어들이
시르
Inf
##레오
관악
##밟
메아리
부딪치
이신
뉴캐슬
켄이치
팽창
희미
##day
정종
진해
우즈베
대리인
의류
##조선
인장
부메랑
Char
애덤
팩토리
수영장
단단히
##틀링
여리
로버
채권
##mania
러시아군
Rain
대의
불분명
판도라
자정
선풍
꼭두각시
후려
통역
토와
탄수
친근
TD
자드
버지니아
송곳
RAM
##곡리
궁정
받침
1912
자치구
햄버
코지마
츠루
증원
바람직
절묘
자연수
마우
줄줄이
kn
수료
동선
White
Ext
무난히
주립
동산
토템
재화
척추
마케도니아
가창력
기겁
치밀
##let
##뮤직
저렇
##au
경상도
이분
도보
의약
충동
##마트
김제
##고스
만화가
가세
##ATION
우투
최성
뇌격
소음기
경의
##마드
외야
주시
##ERT
전폭
성녀
두개골
바사
##숭
익명
##선스
소중히
최적화
무로
서유럽
##생물
급여
르네상스
인기투표
안테나
수주
세토
발도
코나미
헤라클레스
창간
버즈
트레이서
애리조
음양
여행자
Are
괴멸
시발
##oud
뮤즈
마취
젯
갭
May
KD
그물
알맞
간장
오마주
사생활
성령
##레즈
기판
자음
시궁창
코로
심슨
FE
되려
라이선스
STAR
건너편
FN
주부
##ump
셔츠
비평가
Pop
나루호도
세무
데이즈
최우선
버금가
분과
피고인
1400
포이
초중
잔여
점포
런닝맨
루드
금하
랜디
프란츠
공시
저스틴
샤이닝
배럴
탬
명확히
영재
##대표
헌납
이치카
이시다
고스란히
이목
때우
권역
투항
덩크
이가
제레
무심
현수
##라트
기생충
노프
##대군
스노
207
데이터베이스
창세기
트레인
무네
계승자
나츠키
위화감
위인
어린애
##여행
anchor
마오쩌
마오쩌둥
최재
청문
성동
제품군
아이리
러블리
##살이
빈스
only
want
브랜
down
군단장
혈관
헛소리
앞장서
##돔
##실록
##메르
ᆯ지도
이시카와
**
다이렉트
every
##하늘
유다
심심찮
긴장감
##니케이션
아르테
PA
안식
##EE
신촌
##내기
로로
인플
키바
커뮤니케이션
##22
치세
비하인드
ᆯ게요
북서쪽
공석
아이슬
고갈
##88
맞춤
급진
랄까
제각
월터
우사
인피니트
##ves
북두
친화
감도
정연
리언
##엠
Game
역관
Master
##떼
자재
도메인
감속
161
##밑
공적
##산면
조부
구스
##ape
장막
체로
ᄇ시다
문호
수리검
애프터
랄프
##마츠
스트레이트
yout
카프
아이슬란드
멧돼지
경합
간첩
Joh
황무지
##도사
유부
사단장
로자
길목
대입
##매니아
##켜
OR
more
원로원
TN
##HD
경시
찾아다니
여객철도
라리
##석기
유우야
터무니
다마
Open
개틀링
절약
남원
오스틴
플라워
김태균
요양
Cont
##less
체내
사카모토
극동
구스타
리시
##드래곤
오덕
제명
국물
민속
오퍼레이터
몸체
퀑
Bu
한결
멸자
열렬
쿼드
##피탈
며느리
급제
하렘
##밖
펠트
휘둘
심리전
IDOLM
조니
과하
무언가
카트라이더
기압
부녀
흑룡
조로
명하
박기
레코
스패
숙명
경전철
##ien
설문
##ift
하데스
기공
##소타
##플러
COM
서울역
Hea
가야
지갑
호타
무법
사병
이범
##zy
불가피
제네시스
모로코
단연
멀린
전과
체급
절감
해발
they
만화책
##ANC
기린
수뇌
충실히
일생
촛불
체하
케어
엠파이어
경희대
운임
몸집
농어촌
end
분전
언론사
##ship
머들
나기사
즉석
냐면서
하천
정선
부설
사시
병맛
티탄
미네소타
강령
간편
##푼
이라든가
발병
콘테스트
##지물
520
회자
##관계
준장
오반
쿠미
##뚤
유시
한중
복부
치프
명품
레베
예하
천리
TG
통근
DA
이장
몰아치
여대
뛰어다니
##led
감시자
선별
##갱
는데도
##현동
로미
##부짖
울부짖
섭정
전용기
터리
탤런트
그토록
너구리
외래어
보단
##감치
##lock
##위원
##찌감치
행동력
칼리지
##ize
영화관
신령
재빠르
발자
##파르
##형제
비둘기
막스
Bra
톱니
후하
관용
행각
걸스
##LD
활기
헤더
시프트
성검
붙여지
NG
특색
정착지
들통
GAM
반죽
역전패
댈러스
브룩
티나
다이빙
반자동
연장전
pl
멱
##리온
조나
온전
리포
카르타
카에데
끝판
익스트림
나데
차마
폐하
필기
##또
노마
시세
##법인
메이크
Moon
서약
순차
음식점
무패
노스케
장대
크러
솔리드
Like
등용
세츠나
WAR
설립자
소망
##omb
1907
자선
세속
##ited
헤일
##뿌리
Yeah
맞대결
Bad
Project
성급
피버
치소
김택용
짓밟
컬럼
Off
세련
단번에
민지
옥수수
좌석버스
##꿀
캐로
종속
하얀색
학부모
위태
크림슨
다트
뿜어내
ㅏ요
news
##오피아
피니시
에티오피아
트레버
생포
재차
완패
##ita
1905
전투원
헤지
붉은색
##45
천연가스
Sky
나지
##준호
당근
##교회
대지진
Med
나트
선상
산산
마비노기
정국
태후
순순
교직원
메츠
독도
패미컴
토사
출생지
이유로
다이스
ᆫ대
도타
개드
검거
마르티
자위
스몰
포진
직면
알비
##똥
구비
##열차
터미네이터
플라잉
7000
부통령
남아공
전라도
Now
섹터
루시퍼
원나라
항속
##row
치키
##렁이
Comp
TF
락스
소주
##부르
##람쥐
밴시
성품
##즐리
인분
신공
막시
유스케
조개
비범
치과
결선
##고루
회유
케미
Battle
코팅
##ute
바실리
서스펜
배고
칸나
드미
이북
콜리
아이오
감염자
수족
불허
검출
##ALL
일갈
이상민
팰
221
이탈리아어
##문화재
원상
읊
불안감
브래드
Way
계약자
이메일
성유
백지
착취
관현
와타루
척하
##낮
부상자
브리핑
##vent
##소니
미카엘
JC
독설
응징
자기장
##기어
##조작
눈부시
그지
청취
1300
관세
단간
지폐
우동
야자
돌풍
사업가
연대기
일간
희박
장려
밝혀
종로구
Soul
아란
모데
업자
경영학
힘겹
체구
비행장
우이
##내셔널
정부군
인터내셔널
정관
승부조작
기염
##stem
협공
Special
over
팀킬
빈센트
노원
릭스
붕대
알제리
세비
##준혁
순순히
파병
Po
TEC
남짓
전투복
온게임
온게임넷
##ENT
이바
눈썹
##장구
빼놓
777
다발
순례
스켈
이어폰
소탕
##시온
번거
비서관
화합물
흐트
벤츠
개관
폴라
디에고
벌어들이
FBI
BASIC
모치
DDR
톡톡
신탁
누락
##rop
사카이
다듬
픽처
##96
노보
산체스
휘둘리
##ORM
wiz
~'
태백
순항
빵빵
마코
TT
산림
솔루션
니즘
날아오르
졸리
바이올렛
일직선
##ling
##xt
브라이
음란
합금
아틀라스
##com
오모
프라이드
네타
플랑
지못
흉터
지못미
반대쪽
하늘색
Alb
음모론
타츠야
미얀마
경비원
바깥쪽
초회
꼼짝
매도
앵글
낙하산
하버드
파나
외침
......
무모
여느
올리브
송신
갱단
프리드
크레이지
성원
관건
##웹
튀김
밝혀내
밸브
급증
얀데레
good
아쉬워하
저력
213
성범죄
멕
##산리
짤막
양육
티타
둔화
설교
탈주
나뭇잎
Cent
##촬
형벌
호라이
##oney
북동쪽
카즈키
무당
##의지
피쳐
반납
재주
벤트
덮이
미코
타가
전위
티셔츠
진행하
향년
고고학
Bur
중사
한족
김현수
하시모토
깁
성운
##타기
라이브러리
이달
에테르
방어전
내려찍
조현
라든지
파기
악인
추위
지도부
성가시
통학
외환
히코
275
짊
사하
막말
##어내리
세이지
만장
WCS
린다
언론인
샌드박스
다이크
1908
##가타
류지
인승
앤드류
마호
헬로
##UB
졸지
##ude
이남
드래곤즈
화속
평의회
박태
백수
223
재발
시베리아
추상
사납
탈탈
아날
네메시스
##line
거행
일정량
신봉
거창
일파
##방식
사죄
beatmania
##나우
성희
강호동
친왕
명백히
카자흐스탄
데니스
급상
넵튠
개드립
ac
리온
Dragon
대도
레그
쪽지
##eng
제너럴
##play
아브
반달
거머
유노
미달
Hey
이나즈마
NAS
##핍
##틸
급습
밴쿠버
##미츠
환불
울버
참모총장
루리웹
라파엘
수퍼
구라
증진
WOR
니즈
민사
죄인
분비
대구광역시
##일관
본거지
뭣
저명
이천
마사무네
베풀
는구나
빽
생방송
임프
벨리
이끌리
수차례
특촬
아랍어
막아서
추론
투르크
탈것
##lt
제국주의
조문
여하
구루
라지
Eng
밀양
리아
전갈
키프
흰
이도
부피
ᆫ다든가
패권
눕히
칠흑
Int
our
티모
황소
##뜸
고하
초전
##시즘
365
선지
일컬
가주
햄버거
연성
레프트
001
스투
극성
이로
자자
어우러지
해프
증강
쿠퍼
강서구
본드
사서
부끄
다량
유역
코일
스탠딩
햐
##ᆯ린더
##맵
팬클럽
##23
변모
버퍼
현무
승하
돌기
복식
지탱
##독부
민심
보스니아
리더십
래쉬
매점
행군
##규어
처방
##지리
미유
부기
Ass
수당
철벽
폐위
정주
테슬라
쌔
시연
자결
일괄
액트
베이커
슬라이딩
가신
반주
파괴자
대장장이
##가요
포자
코브라
결단
호르몬
##27
마자
중의원
퇴임
폭군
##ata
엠마
넘쳐나
치히로
baby
사이먼
케니
##벅지
충무
IF
조원
생식
드러머
빈곤
일찌감치
#,
스스
감마
원어
##두근
일개
미용
스탠스
전령
##방사기
370
화염방사기
수납
장동민
바드
아카기
##닥치
관전
부적절
광동
겸비
자가
만년
왕세
동아일보
미처
머무
하남
토토
골짜기
래리
왕성
국내외
방사선
해지
속사
두각
럭스
"'
영령
문성
##아내리
##영향
보급품
에로게
오주
골리앗
Last
손책
see
카논
해프닝
##IGHT
##ius
라일
Yes
사생
암기
##짖
최하위
밀가루
Best
만성
##공주
근위
타오르
뒤쳐지
총애
슬쩍
미나토
부전
##FFF
번번
탄두
희생양
슬래
써니
클로버
##원지
블루투스
나선
216
마리사
오카다
갈아입
아득
신약
CIA
새신
##천리
max
자백
##콰
야구단
DAY
포상
##ated
볼일
수송선
악질
껴
서프
명실
Show
방관
##ᆺ밤
압둘
사주
거머쥐
미공
교제
슐
찜
##디난
연합국
좌완
블레
컨퍼런스
구실
쓸쓸
코칭
드래그
원자로
##탕스
레지스탕스
이문
선역
포레스트
텐더
여명
재규어
총구
막론
타케루
유족
편도
골고루
전문학교
나카노
Nor
##ᆺ소리
불거지
왕정
백두
원반
최형
물류
톈
책봉
아디
료마
마운틴
##red
수혜
##이즈미
Match
이강
제드
소란
저축
격납
보호자
Christ
매매
440
적도
후진
메두사
선글라스
right
행세
##툭튀
지질
카트리
푸른색
##ets
거니와
해밀턴
제곱
에노
골수
내리치
플레인
##홍철
물음
경전차
인제
퍼트
례
좆
연화
네로
갑툭튀
에어컨
크리에이터
세가
개찰
##푸르트
Sur
변함
##III
절제
암흑기
say
자판기
매지컬
자유당
비타민
언락
명장면
공안
##데라
##혀가
##럴드
템플러
Down
명은
초필
동맹군
Mir
리비
욕먹
마공
##건설
견고
잡혀가
잠식
크루세이더
세레나
폰트
서유
크리스티안
파비
정보원
정대
##ara
얼룩
페트
소나타
수속
동하
본뜨
SUP
덕택
무안타
하키
한복
감찰
조선소
최장
납품
동성애자
굉
ᆫ다든지
kr
사파이어
레니
배급사
##ric
석가
어지럽
아츠시
도입부
메르시
##거스
XY
Art
이터널
상승세
##맹이
가르시아
의존도
수전
통찰
화질
아이젠
카메오
사드
##ely
스케이트
장기전
포식자
PvP
짊어지
노태우
문인
##뜯
소나무
잘생기
##큐버스
Ook
오보
미약
##폴리
홰
불발
헤븐
자치령
슬로건
한국군
케로로
에러
몽땅
회원국
시오리
Core
보름
팰리스
거미줄
쩌
명왕
레오나
장담
분출
틈새
골격
##29
##산군
함유
시어터
공민
쟁탈전
보좌관
오클랜드
사력
덤벼
결투장
##페어
급상승
반려
쌩
공중전
First
정윤
소름
적기
수뇌부
호화
시종일관
화판
연못
##일기
날라
샬로
크로노스
박차
TWICE
-.
하반신
확진
##테리어
횡령
배반
또래
간직
시라이
보이드
NAT
자멸
남동쪽
슬러
하인리히
##76
엎드리
How
승낙
변속기
누님
##ᆺ빛
임페
MI
##ux
현질
If
우대
Mark
샤르
거유
난장
##cl
##ga
오산
정몽
성단
예매
##44
더러
캄보
부러
키시
Ap
필적
베레
pe
이규
his
신격
젓
위아
다이어
쌍용
there
기어이
##통일
Tour
대북
키치
필승
몰입
Never
철퇴
잽
순삭
알프레드
좌상
슬래시
BRV
창시자
떨리
알바니아
레바논
깜빡
슬립
츠바키
악수
프론티어
오자
##ley
컬링
장자
##늠
라르
난징
쌈
크리드
에어리어
시미즈
조공
혼나
바이퍼
이조
tw
판과
잔재
저항군
Sam
제동
##매치
무서
피그
아레스
노획
후카
백룡
퇴마
##HC
시녀
##천역
악영향
##더스트
바운드
피칭
모탈
##부수
원성
##udio
Free
가넷
난쟁이
데스매치
테츠야
보리스
##나시
스맥
센트리
발해
##26
아리사
이반
승승
첨부
##임수
츠치
소모품
페달
스맥다운
신빙
묵직
이바라
주화
##ther
판명
각별
제복
HOT
조승
쿡
카툰
micro
시술
근방
얌전
Pol
비열
뛰어내리
삼국사기
어웨이
남산
미도
##영수
열광
쿠도
활발히
이를
백과
특출나
파주
클라크
김소
##테면
태양계
적시
상서
남서쪽
페라리
아와
투표율
이를테면
RPM
공황
##세우스
토바
무방비
들여오
아날로그
알트
축출
서태지
허벅지
이형
다라
1906
##사관학교
고요
219
##UST
부토
우즈베키스탄
Na
루돌프
허술
엘소드
액수
커맨더
속주
RT
##hy
스피리
##INE
은가
재결
베아
950
터프
잠자
다크니스
##NG
비운
바그너
who
뜬공
용인시
이니셜
수박
골절
##레인저
##work
가늠
##트리스
쿠폰
낱
충공
웨딩
아스타
지명타자
##KO
식인
블리츠
got
톰슨
문관
##OCK
아로
##ird
토코
린치
Side
롤리
##메이션
대영
##총독부
조선총독부
다구
여운
끊어지
##꼼
동결
##ᆯ로지
Cor
그제서야
Will
용왕
어쩌다
수제
id
고뇌
팝픈
팝픈뮤직
##멈
탐험가
##erm
잠정
닛산
##85
베끼
임페리얼
ᆫ답
가무
후리
재보
김신
금서
아돌프
라다
맨날
재미없
킬로미터
정시
간절
위안부
##토니아
##데오
민트
훈련소
540
곁들이
마라톤
Sim
동급생
9000
NA
우디
밤중
큰일
급속도
픽처스
물결
곧장
구미호
대나무
소홀
건축가
City
KN
말살
반도체
##지기
히이
전자기
라카
약수
머릿속
라티
하이브
켈트
##니르
낙동
중론
소폭
면도
군세
마토
##블랑
즐거움
Magic
김호
전황
이대호
아유미
저음
광화문
화전
인테리어
외장
인플레
시리우스
활약상
틀어막
GPS
퍼플
##보살
파탄
교명
페미니스트
페드로
##ERF
환산
빅토리
티거
복각
송나라
발사체
캄보디아
미움
내쫓
남친
알몸
푸쉬
무리수
미워하
중화기
시속
Great
겉모습
미완성
RED
주루
뛰어오르
하쿠
다채
타원
나오키
스트림
에이미
페이퍼
아만
영수
해부
로어
키쿠
지하실
416
상소
섣
궤멸
한미
체크카드
시커
feel
혈압
넷째
벼락
후려치
##캣
동남아
FFFFFF
##yes
다비드
KA
##거래
퍼니
##요리
유창
도네
남인
전우
안톤
펩
뚱뚱
전쟁터
245
개헌
##보스
퍼블
스턴트
사학
재일
독단
금곡
덩달
마키나
투수진
##충류
정승
나리타
사복
프리킥
Fall
검도
사우디
##ris
송병구
허니
노선도
북아메리카
선후
##황후
넬슨
매그넘
단타
##rew
이룩
스쿠
통영
##짚
##덱스
수사관
##다듬
##디우스
리벤
후사
포섭
질질
##ᆷ핑
Cap
멜리
ᆫ데다가
이롭
##사람
곡사
Track
##하임
##오버
서동
오아시스
전곡
사쿠야
전패
천왕
규율
##전쟁
병신
Come
화룡
참수
멘토
##가르드
패트리
로렌스
옵스
해설자
##분투
홉
몸싸움
미니게임
엑셀
앉히
화끈
지상군
Perf
di
선율
밧줄
족보
흡입
##깽
동그
##토모
공연장
청문회
로토
Happy
자행
##월드
일기토
어시
부우
지석
쁘
거액
##룰
출국
##삭스
그분
형주
십상
GX
##que
신년
성희롱
KCC
##니컬
직진
한눈
현종
PM
yeah
##ision
##tain
몬트리
몬트리올
##링크
검색어
그러다가
토카
##게스
소방서
엠블럼
증대
EB
##이인
갑주
코러스
김한
234
퇴직
대구경
Edition
사적
##ᅦ이터
코퍼
애니메이터
Party
엄폐물
AW
개더링
트라웃
##소년단
시프
글ᄊ
끝없이
올레
미상
아재
성시
HR
라우
적어지
Net
충원
웍스
스커
보이즈
조짐
진범
##벡
온건
##부사
방망
조각상
윤성
빙하
옴니
도래
우여
경비병
##UL
세바스
배틀필드
깍
##쌀
기증
내공
249
아소
090
Boy
girl
약사
##UK
##뭉
##브레
걷어
하강
야인
티라노
야마자키
이석
리제
마크로스
PT
김하
김은
다다
BP
황폐
226
랍시고
##듯
카츠키
YG
이쁘
1913
두근두근
Final
가맹
차우
관현악
풀이
우선시
초계
끌어오
끌어당기
짱구
향토
고아원
##폴트
야말로
부록
이어주
BMW
브리지
##str
호모
카르텔
Univers
정치가
편향
클럭
호라이즌
어려
목조
화보
대주교
노라
샌드위치
위닝
의뢰인
동명이인
ABC
##고생
##BOX
미식축구
발족
열대
효용
험악
비룡
410
로스쿨
분양
217
망각
엠블렘
자릿수
방탄소년단
평준
삽입곡
충공깽
포구
실감
굴러가
야구부
쥬라기
##ᆺ코
능욕
메탈기어
프로토콜
바알
재래
숙지
Club
플랜트
숫
##프레이
John
토드
야스오
엑스맨
호족
업종
혼잡
##코스터
##슬쩍
곧이어
동률
##레톤
유승민
소양
##aka
버겁
매끄럽
평야
콩두
이츠키
그리폰
슈테
경멸
life
최원
Stage
주지
파커
초딩
엘라
싱크로
롤러코스터
시우
디럭스
슬로바키아
벨라루스
SEED
스켈레톤
엘릭
비잔
신천
판단력
프랑크푸르트
박병호
도봉
안젤리
잔존
난장판
허다
Sl
##타마
트랜
꾹
투영
비야
발열
매료
아야노
남아메리카
요가
강진
철자
Angel
Little
치하
양지
토우마
##리아스
##ᆼ스
모차
유권자
1909
##높
##길이
기금
신진
버크
내용물
IMF
기교
##헤드
##헤치
노미야
백병
황색
염증
기념일
호각
항일
Spring
발포
군청
흉기
다다르
피노
문경
들어올리
물러서
트렌드
##젓
압승
카자마
우먼
순회
뮐러
##미트
예민
악평
짜이
ISO
코바
사냥터
블로킹
##ords
make
셰리
거라
수만
##관리
스테이크
궁궐
##ism
샬롯
Break
린이
독살
라니
맥시
##ONE
##ASS
괄호
양방향
233
적과
옅
RR
겁쟁이
강대국
신태
슈리
1915
서신
콥
##곡절
바티칸
요르단
메가트론
##네이션
이완
cont
무함
디바이
파라오
우여곡절
티르
그레이브
히브리
##arius
RX
초음
RB
##람회
배수량
다그
보성
##와르
텐트
니퍼
##att
갈비
표준어
PH
코미디언
Fly
##ival
part
귤
점치
환율
유상
생몰
##ross
중대장
소대장
계약서
Class
경부선
WHIP
의약품
이보
자서
소품
산전
슬라이더
센고쿠
고체
발기
##래스카
##걸음
##재욱
228
원사
로트
##모델
김시
##ader
우울증
옥타브
사요
경순양함
피렌
오리지날
미네랄
##륵
방영일
##날리
초라
최연
로젠
인삼
##95
조동
예컨대
천진
엘더스
글래스
연마
BW
분지
악단
월등히
fl
##ause
##다가
카라스
포커
과열
황해
억양
운하
Girls
모금
컬럼비아
구가
224
im
스팟
고드
##ama
##팔로
모하
한승
여중
ff
북위
기하학
애시당초
수목
약품
클러치
##신기
용호
보그
##ague
##마니
서주
속임수
##OWN
##데시
375
Mer
라이토
빨아들이
Swe
잡아
고철
##제프
ER
##끌
캠핑
별거
Legend
##블루
1904
치토
MY
레티
익산
제주특별
##IME
##자치도
제주특별자치도
애니플러스
양말
중순양함
##츰
교황청
진기
##시장
미우
에마
취항
린드
루기
마석
차오르
##서니
튀르크
편애
폭넓
받아치
루가
견습
##하니
공평
검기
##uch
##구멍
팻
징집
칼질
아르타
구식
는커녕
서산
용납
시칠리아
로니
승용차
##슐리
예비역
실탄
레인저스
초구
교무실
협주곡
아누
피파
##느러미
##해야
평이
벳
##ital
연합회
크로스오버
##대왕
##도어
어르
줄무늬
광해군
은색
잔소리
틀림없
도요토미
##21
##르바이
##매김
has
##83
##쑥
식용
북벌
흥하
##르바이잔
차크라
##장치
##말라
경대
허약
헌트
신승
인원수
##베트남
자리매김
오데
우등
SKE
숨지
실록
역전재판
하자드
사춘
염동
##아오르
마사토
아제르바이잔
포메이션
390
젠지
세터
캔자스
마레
매튜
숙박
Take
라몬
##테라
낙서
단다
사이비
머독
몰두
##ubl
수송기
##모트
##꼽
설진
기울어지
무예
레볼루션
겨냥
공식전
1916
시메
데르
티격
컵스
지식인
스테판
시급
임재
통치자
보류
출진
천자
##네즈
모자이크
Mem
요법
집요
띵
세계수
바이트
수학자
추축
녹스
최형우
비방
##넌트
위저드
TBS
복수심
주지사
NFL
시부야
aqu
기시
김규
강희
라디
목장
니콜라스
##IVE
우루스
야나기
거래소
대니얼
반입
랴
오정
만우
광폭
파충류
301
##뻔
개표
셔먼
227
분파
청자
##스코
전압
APC
오거
시트콤
코우지
고참
힘내
헤엄
##불리
흑색
심복
'~
인계
전주시
##피온
Ind
주선
는다며
착안
어설트
파워레인저
의결
허물
가도
미시마
김구라
하동
fr
헤이세이
음료수
개전
Cry
##그로
만악
EXO
박원
이븐
담보
화성시
점성
거든요
치솟
##렌트
내비치
강국
빈민
조슈아
폭언
마이티
사춘기
강정
Hol
##티티
켓
위아래
마사히로
품목
폄
##시간
정찰기
반공
코요미
누비
웨스턴
숨결
마르셀
무함마드
윤종신
again
초심
펠릭스
명지
브록
호위함
키사라기
프로세스
빙글
스틸러스
1700
##식물
코라
컴파
콴
##르슈
위드
;/
지원군
출연자
성소
박하
never
##교사
냉혹
램지
주조
차고
##ler
증식
슈타
낙양
중종
국보
##샤인
모사
내분
##십자
증표
성우진
윤영
정민
만우절
인턴
동시대
정설
##body
##enc
시제
레이카
조그맣
성매매
러스트
미공개
하로
대기실
은신처
엥
통폐
자객
봄버
##사태
우왕
##지우
악연
512
미스테리
heart
PRO
계엄
##그래
카오
니르
프렌드
호문
교묘
종파
올인
기권
##조림
##ople
CGV
휴지
안드
문예
맹렬
코만
역도
##ura
울산광역시
em
사츠키
한판
토치
##칼리버
##전함
##apan
우려먹
알라딘
경복
요령
활력
쇼타
클레멘
##ino
##정리
재계
귀속
Gl
머큐
크레인
mA
올림
뺑
규슈
애착
제때
글루
Ho
타도
눈보라
푸시
동맹국
##라이어티
건너오
향신
버라이어티
악세사리
노홍철
임정
xx
기념관
비견
기념비
나크
나오미
시티즌
세인
소외
가온
각광
폐업
괴이
에버튼
땜
동탄
크리스티나
교외
고온
##브론
라이엇
Gal
##리즘
##로리
욘
다테
ad
고트
##뉴스
##주니어
Cal
##스기
총수
##oun
단결
##팽이
사무총장
루시안
가계
오컬
테드
ㅕ야
염기
오우거
sk
에디터
더듬
지평
사칭
##iny
##펠러
마방
##샘
##포동
이크
이리스
전조
Real
Rad
스미레
Sn
공소
크류
은빛
##푸르
##훈련
볶음
Aut
오승
##플릭스
넷플릭스
쾌락
제천
##AE
닛폰
서대문
FO
대련
도가
##세움
뜻밖
정치력
Sou
##너드
011
셴
대성공
치환
타쿠야
페가수스
정박
원가
스냅드래곤
OO
교통부
북아프리카
수첩
근황
저상버스
오현
재기
외지
게으
뻔뻔
김종국
간과
유키노
공모전
정근
##상부
경비대
오사무
상층
트리니티
껌
조반
개리
허드
틈타
뱌
뜸
사각형
반쪽
큐트
통폐합
##바인
철혈
릴레이
표류
맹수
정명훈
모용
분광
풀타임
노라
##by
##전대
실물
bo
예거
##irect
제네레이션
근교
돌변
모차르트
인가
독소
뜬금없
싯
투자자
##IO
나성
루트비히
DSP
동자
계주
양양
교량
탄산
EPL
오라클
##UD
방콕
쌍검
도맡
##lex
관람객
MUS
그랜트
피렌체
오컬트
ㅏ라
##TH
가비
Who
를
콜린
##줄기
샛
억누르
나카지마
조경
김장
순전히
뜯어
아틀란
껄끄럽
##ations
가늘
도키
무트
매크로
로더
담원
231
숙제
유니버설
Album
des
자물
투덜
급감
쿄스케
비터
얍
박동
손발
걷어차
##메이트
외과
컬트
OM
When
공표
##티시
에너
##빠지
도넛
무마
독일인
747
서강
거침
세네
입점
252
설리
취리히
둔기
관행
238
에스토니아
##lection
가장자리
here
그늘
##유예
탁구
Je
타사
장지
##마을
종양
아이파크
폐인
##aker
바닷가
뉴타입
Feel
##78
##ᅥᆯ트
매춘
김종민
어썰트
친일파
전광판
서스펜션
자물쇠
올려
카즈미
##REME
방아
꼬시
내레이션
명제
단호
담그
데미안
##gy
기니
어려우
극하
다이노
카스티
백스
##DDR
퍼레이드
신해
##소연
전구
꼬박
대항전
Mbps
일면
연정
##뮬러
브리튼
합숙
식구
잔치
인기가요
##ᆸ실
계몽
수록
닷컴
성북
아오키
ᆫ답시고
중용
출토
사고방식
라이덴
bb
min
고군
선샤인
히다
새턴
Mac
##anger
~?
##ᆺ값
둘째치
하가
가열
츠네
430
Single
Park
당부
암묵
체이서
이면
고영
개요
국지
가락
##요이
유괴
등기
아카이브
##onder
장시간
단국
완주
naver
##테인
피아니스트
이따금
벗겨지
셀레
일전
야요이
\]
##떠
세이야
GTX
##BY
공무
노미
##후미
합격자
광년
젠더
하르트
선단
엄연
떠나가
이슬람교
영도
코스모스
뿌요
##동물
봉건
타카히로
아라시
번성
브리스
꽃잎
우스개
추격전
when
특혜
신뢰도
Blood
프레데터
타이베이
금정
비어
펠레
상역
진중
역적
세이프
이코
열강
질책
수비대
안주
조건부
기형
조만
여차
국한
서바이버
재편
외동
합스부르크
환장
원정대
농성
송곳니
Ret
수교
넥스트
일렉트릭
let
풍습
똑바로
지효
캅
자오
다리우스
aquarius
일루
선량
섬뜩
카리브
Hi
류우
깐
피의자
라이스
마스터즈
백종
SMG
사회학
카디널
하즈
어진
Du
NORM
열도
데이지
양분
Inv
카모
플리트
아키타
엑스포
노노
구기
gu
요절
##36
이언
뒤서
대서
##arth
##TC
지저
숙적
피시
짝퉁
CBS
강급
|[
수없이
히타
트롤링
비르
##닷
##바뀌
##우옌
테두리
주변인
굴절
기대감
아구
뒤바뀌
스타킹
팔다리
Ag
돌려받
촉매
원료
그딴
테디
mAh
##48
우라늄
##vil
닳
공예
소자
실권
음절
업소
툭하면
##산부
금단
워스
##raft
카니발
##ya
방주
이동기
앙상
##RO
집게
총무
탄력
즌
나자
마커스
우의
샤이니
Val
길래
파헤치
함부르크
오기
any
##수원
도면
무례
레타
손길
바카
조례
신스
NORMAL
서라
별장
페르디난
오도
포커스
로빈슨
Ult
수양
전범
격분
로켓단
Fun
공구
만신
세습
##eek
Esp
프로테
음파
JYP
한신
버팔로
웬디
나츠메
명심
항공대
사이클론
애꾸
터너
껍데기
##나르도
Mix
##콥
Hero
##나타
##노트
마일리
ap
공문
작센
불러내
홍익
차츰
밝기
##사노
완승
폭투
광란
프리퀄
하야시
##르도
래빗
play
우터
사타
차차
매카
평온
##ONG
##로니카
멱살
거처
돗
진명
츳코
타카오
스프레이
롱주
Tech
분실
코비
자일
##ather
EXTREME
주점
판다
신노스케
##설수
걔
이효
조시
의과
한국식
개머리
배당
사보
##다주
형용
플롯
왕권
육신
역행
투지
면담
지원자
뭉개
팽팽
치요
아라비아
인플레이션
여제
직사
##린트
자서전
실컷
관내
##테르담
냅다
하모니
236
##uture
Dec
Say
##게이트
달려드
근육질
무서워하
이국
중수
Sweet
##ball
##하키
스펜
코스모
##뇽
hp
성화
후추
뜯어내
마리나
부대장
레베카
금천
##알라
예선전
향신료
타깃
코아
쿠보
교육감
아틀란티스
##제비
루팅
앞부분
주유소
Kim
계책
어쩐지
피어스
경계선
##클레
문화유산
##날레
시게루
##리학
비지
생생
머큐리
##98
##정사
홀수
SNK
키네
##ouble
보크
작자
독창
눈길
802
클라라
red
리라
낙사
수식어
을시
##뽀
말뚝
##방지
파라과이
Sol
대첩
돌고래
백웅
WWF
실린더
반열
굳건
위그
서슴
뒤따르
돼지고기
##혐
피쉬
##볼트
Space
감격
##매기
나토
티오
만연
레터
천안시
리크
장민
하야테
실격
애호
로드리게스
도카이
마르크
바래
텝
물리학자
장문
##콧
충당
공판
포뮬러
순종
한문
하룻밤
주둔지
수트
워킹
##비슷
강북
금세
혹독
가우스
야유
265
보살피
이광수
속출
베가스
이견
##ena
묘소
국영
저질
##태격
은혼
티격태격
성물
KE
짓거리
##ocal
010
QP
수로
경제력
렴
##ours
란다
뒤집어쓰
힌두교
껴안
스무
232
인위
최민
루디
가우
화순
발진
크래시
##병기
호크스
어떡
다람쥐
돌출
돌이키
한류
월트
종식
STA
KBL
승승장구
제련
##암리
다케다
##떨
Def
서큐버스
메모리얼
Beat
some
##so
보아
변기
몽환
원안
윤지
격납고
결번
열화
대장간
왼발
놀러
엄하
난데
지네
치어리
통통
장이
은근슬쩍
##뚜기
고딕
매혹
뒤떨어지
윤석민
사들이
라나
악재
need
스콜피온
NASA
##피드
##더미
맥도날드
##노부
USS
자습
비화
어정
야권
잘나
격변
스트롱
Home
들이닥치
##지부
미우라
관례
정신병
##샤바
신야
잭스
##틀린
반년
전면전
IBM
코타
요요
최승
트란
판례
##thing
제이미
클라이맥스
횃불
이연
리저
스탠리
를르슈
조련
클리프
이라든지
꼼꼼
코니
특례
##ement
##숲
##더리
510
햄튼
정액
위너스
알렌
불륜
분단
그레이스
특별자치
특별자치시
나돌
유품
안방
버트
심해
명절
외할
##ta
3500
개머리판
스메
##배기
세카
##onna
황녀
실기
변칙
내신
메기
변속
로아
희소
##도나
결속
대덕
스에
Story
대항해
PG
피통
##태인
한없이
이불
설날
노리코
##34
사오
눈여
에비
복판
동일본
640
##걱
언뜻
곡물
스트링
사루
사념
노련
총체
료코
인디애나
Dest
된
컨버
응우옌
앙쥬
알렉산드르
##HN
태반
컨트리
댁
딱지
전시회
옐로우
난도
them
한테서
연장선
남코
색소
끌어안
우치하
Pa
유네스
코피
재탕
손대
디스코
최준
##욕장
니콜라이
Orig
GC
SB
기색
##마르크
명계
페라
##브로
홍차
프리랜
##une
빗대
프리랜서
다의
국외
풀어내
밀수
하네
단수
레이브
레드삭스
캘리포니아주
##위원회
왕세자
렬
마네
##글라
딜런
견주
일제히
체코슬로
##ANCED
체코슬로바키아
타타
기껏해야
##바탕
##ways
##ML
로밍
야가미
하루히
이윤열
프랑켄슈타인
시영
수렵
원군
랠리
##조사
항만
앞머리
305
##ider
컷인
조나단
##사무소
외상
325
클레오
청량리
디나
독주
Pla
산산조각
오소
쓸리
##티모어
불명예
##rough
가닥
초밥
편차
##ano
마니아
SUV
Bro
쟤
르블랑
흑발
히로미
모국
유린
다르크
엽기
##눌
김건
메사
와해
ma
이베
리얼리티
히데키
분담
직렬
##구르
레테
her
자그마
사이키
훌쩍
성자
파피
굴림
소서
슬레이
WORLD
Zero
강좌
발자국
Ry
##게일
내던지
몰아가
##ait
웅장
서초구
##카타
깨뜨리
폐교
내치
실비아
속죄
##출력
길가
셰퍼드
친숙
조병
사이다
겐지
사일런트
제각각
협업
이케다
##hammer
마음먹
스캇
이리야
비문
신재
GOT
영정
##닿
안즈
라오스
##뉴얼
이부키
장영
##와일
납부
위축
백악
엘사
신영
Japan
KC
부포
##투사
다이애나
슬라브
##UG
자하
꼬맹이
수프
근친
미야코
##bal
양조
러프
Young
무토
##진구
희한
내려치
;,
액스
선호도
낙태
고압
동떨어지
국문
러시아인
쥴
ADVANCED
에인
얼른
동향
야오
효고
##eter
벽화
옹립
연막탄
분하
종업
등록금
칵
포박
족족
불어넣
무궁화호
Kill
피셔
공격진
팔아먹
홍련
Storm
##드르
쿠즈
통솔력
포세이
라키
파이팅
칼데아
포세이돈
봉투
읽히
왓슨
다던
정변
밀리터리
들이받
LOL
!!!
표지판
##위성
##입구역
리차
교포
이사벨
수기
옐
심볼
안영
에지
푸딩
##ANG
##츈
인대
권력자
헤비급
기조
황룡
이모티콘
자궁
모란
은둔
카나코
살포
##self
고비
도하
우한
토성
코퍼레이션
마즈
첩자
일회
한라
장발
급수
황산
몰려들
뫼비우스
##신문
사이타마
##코르
볼프강
김우
클러스터
프로페
병풍
폭죽
1896
요나
로디
##ands
조라
역마
쇼우
필리프
글로브
##DER
상디
클로드
번쩍
위계
로건
메릴
포도주
노우
잠자리
클래시
상병
수모
현저히
덴마
간수
육아
치료제
ATP
##und
봉화
피츠버그
Stri
목격자
치우치
대방
동강
철구
##경민
##arm
아스가르드
이재명
PERF
##뽕
자초
TC
she
모색
##iful
이브스
람보
유가족
ph
신예
EL
Jo
셀러
Gun
부어
여객기
밀짚
##드릭
더욱더
굶주리
Fight
고쿠
초신
뒤엎
다는데
재킷
셧
Dead
피스톨
유대교
##Pa
각주
달랑
-!
##묻
못생기
##에스
##ene
243
행정동
가뭄
##light
갉
김홍
금빛
앞당기
우소
쿠루미
셀렉
Wanna
사옥
##elie
중앙일보
공용어
정근우
파오
양천
블랑
볼티모어
포터블
기폭
보위
공의회
호루스
주저앉
줄리엣
라나
떠넘기
625
가희
중남
중앙아시아
##ection
물어뜯
동호회
##jo
고척
노무라
에볼루션
감명
승선
괴짜
어류
에리스
비닐
평시
LCS
오줌
리디
프록
##oup
섬머
헬싱
##osh
560
NATO
쏙
##TER
소굴
청각
마츠다
짭
징수
DL
짠
파나마
엑스칼리버
아이덴
터빈
아이덴티티
##ral
마성
차오
반신
묵묵
노화
땅굴
Apple
Line
마로
발랄
생소
Lee
##환경
강민호
포츈
침범
붕어
갈망
괴로워하
질럿
마개
간담
판교
동백
##루냐
입각
익사
피지
방탄복
클린턴
국공
경기관총
FS
치아키
##센터
미나모토
AAA
Hel
총점
229
MAD
토리노
아인슈타인
공조
##펫
##ume
bit
자동변속기
가요제
슬하
아키코
로미오
##현수
앤서니
수호신
660
이회
당내
안파
볼리비아
미적
경산
Death
마구잡이
아다
거란
정오
도자기
클로이
Friend
뒤쫓
절실
##리아나
There
김학
##팝
루시아
구매자
신문사
737
Champion
장화
방수
니스트
아라이
##ASY
BLACK
스텐
목욕탕
라그
Road
의인
##보레
블러디
유흥
결핍
##바꿈
드로이드
요네
페르난도
장진
1895
토모코
유구
##회전
허정
개인차
정상급
##ᆯ림
오하
증차
케일
아사쿠라
도핑
교화
미니건
Intern
핑거
산란
환기
##AF
보헤
충신
망신
카밀
##lease
척도
알려주
##65
어업
단도
##다이스
폐기물
담장
정가
이건
부양
라벨
에델
임종
쿠페
Tom
##ᆯ론
##산성
뜯기
res
이클리
비들
잔잔
이클립스
sec
이매
경원
한겨
about
게이츠
미역
저속
에그맨
##err
약혼자
전경
스도
##니발
정훈
급소
동두
헐리
대격
##그럽
불굴
넛
캡쳐
과부하
남방
프롬
블룸
펌웨어
시그널
연행
##덕이
펀드
##OK
직종
아미노
히키
하오
무리뉴
Green
어항
강과
티비
박진영
당진
2400
태극기
사이렌
조성주
페널티가
상반신
선구자
바운
바가지
아오바
엘더
자연히
주제가
거주자
나즈
명동
마담
264
NXT
안대
백호
##ortex
아이스하키
##깊
소고
존기
결정력
헌정
##77
##노세
이하일
SUPER
사토미
용족
바퀴벌레
심부름
유네스코
##캉
없음
입찰
주리
계룡
워페어
심영
대물
노을
공격대
유희열
콜로세움
DIO
자상
객차
MIX
바르샤바
얌전히
래더
지방도
##리카와
튀르
프라모델
탄자
소각
건달
##메트
콜트
호적
##ines
ATM
##PN
바바리
속아
커밍
거주민
디언
조셉
불계
their
불량배
학명
본대
##학생회
칩셋
도살
권혁
##벌이
궁중
노장
선거법
안팎
사파
비나
구룡
##무로
타케우치
유주
##zz
##구석
연구회
농경
힛
샘플링
시공간
오트
종사자
아카시
##비어
아키텍
##ATE
프로그래머
아키텍처
다분
화이
피르
##웨이트
정준하
##자락
프리티
##utiful
유티
매뉴얼
GE
여군
후원자
##ha
비료
두어
303
스트라
주세
제타
밑바닥
League
모니카
사변
공양
나오토
##나크
조예
##윤수
미행
차르
에라
수축
##베다
원만
포이즌
기로
태아
느슨
페널티킥
IEM
가쓰
패럴
혹시나
##uss
노하우
양현종
Que
XBOX
그리워하
친족
황인
##rol
장정
제조업
분대장
름
come
사벨
전보
한큐
765
Warhammer
바크
내포
251
슬럼프
##다이라
율리우스
로맨틱
원통
아귀
사이코패스
##간다
완투
왜구
253
맥크리
##ible
피콜로
미츠키
참치
관리인
모서리
사오리
조종당
놀림
성산
글렌
IR
해트
박람회
들어맞
쾌적
백설
선더
세르게이
쿠웨이트
양정
백마
net
모태
신학교
받들
투혼
상록
한나
판독
조계
병자
##신저
혈연
유적지
명상
##에리
원동력
명실상부
지겹
모성
프랑스인
덤블
239
탐지기
백종원
##얹
성악
끼얹
##융합
부착물
공산주의자
모조
샤인
##란다
과거사
앙상블
##대장
총학생회
효자
##ODE
##ᆯ른
경화
몸값
가차없이
핵융합
엑스박스
##가키
##마이트
포신
찬란
Mal
환관
늄
460
아지
연어
페퍼
컬쳐
티아라
EXTRA
라울
체면
사운드트랙
##수아비
루니
허수아비
슈퍼주니어
지니어스
##ᆺ감
모나코
요제프
알마
보통학교
서자
양의지
북경
규범
316
휘발
##라잇
덜하
흉노
집어던지
##펀
##췌
개찰구
중퇴
이산화
교활
유파
237
피사
##프로
감리
##ORA
고라
세분
남대
원내대표
무구
구내
은인
우에노
호시노
제니퍼
##기둥
노어
세리카
청혼
부팅
니케
삭스
레진
김남
시진
리빌
연두
순발
케이스케
원대
너비
김응
스트레인지
트와일
트와일라잇
어머
민수
##플라이
드래건
살인범
##윗
성의
타코
아우르
밀짚모자
탈락자
하피
가관
위크
장작
파스타
씨름
-,
적외선
소ᄆ
창법
백악관
순발력
스타더스트
충청도
아놀드
##키오
AO
##성장
##타일
디셉
당뇨
골문
NV
거들
##백호
위스
핍
사이킥
데스노트
콘스탄티
##페르노
노기자카
낙동강
Tra
대대장
르브론
룰렛
켄트
뱃지
뎁
눌리
Pass
고창
개소
살벌
##VEL
코만도
지간
인페르노
대함
궁예
픽션
분투
살육
타이가
군포
뒤돌
항전
니지
짝수
보육
국악
알렉산드리아
실례
##저지
김문
##INAL
노지
솔트
깨달음
비호
소니아
양수
장난치
태권도
후타바
구와
프루
죠셉
##꼬리
지난해
건만
##vy
아코
굽히
황천
올림피아
어야지
린스
번들
랜드마크
##송이
긍지
거북이
크랭크
레츠
Champions
퀀
반반
엔도
바로잡
MTV
신룡
원점
제아
풍미
가격대
보람
##ames
펑펑
242
네이션스
##퐁
##독스
##창민
OC
한니발
정신기
사토루
아즈텍
숙부
##ental
TEAM
##리우스
팥
완력
."
어부
노역
양재
##베니아
##가짐
##누마
힐러리
이방원
한수
분식
아이카
프리덤
불곰
속국
한겨레
천수
뉴저지
##사상
##그러
타츠미
바사라
에니
기업인
디스트로
##츠미
느와르
반대파
하세가와
그릴
종회
스코어링
수이
호른
501
##ground
얼라
앳
냉철
아키야마
연산군
파우스트
거하
미화
아이코
과대
##END
경도
##총사
Full
보안관
코사
로카
은총
사나다
##썩
노카
앤트
안건
허접
##OUR
의기
bla
248
니까요
두루마리
발주
레이서
슬로베니아
##ily
동진
쿠토
맨서
헤드폰
아사미
천성
저편
베로니카
와이파이
OT
안락
버들
물방울
뛰쳐나가
비누
호라
순화
트로트
가발
문파
244
DH
끝마치
구청장
라트비아
어정쩡
유이치
발당
충이
석조
광교
방글라
계투
##해머
브렛
탈바꿈
사카키
방글라데시
노티
Games
디스트로이어
딤
##ience
하산
금상
프랑코
강수량
칠곡
냄비
코쿠
hats
명치
옆집
<<
북동부
미주
##고로
의구
파란
범퇴
루시우
호가
##렁크
김상수
플루토
이비
그렌
스니
성계
통조림
영화상
nm
자급
Bet
소프
투옥
방위군
애원
낙타
Set
##세인
럿
혐한
다이너마이트
XC
시브
사스
안산시
번화
청계
구마모토
유목민
아르테미스
##gg
도화
##체어
김보
쌍방울
제네바
##ology
##대상
명맥
샬럿
떠다니
농어촌버스
Mad
##iet
남해
다자
베티
잇따르
##셀러
알프스
니티
몸길이
농림
석탑
스포트
EXPERT
호도
팬더
조준기
시즈오카
스구
##awn
프랑수아
Long
##이라
볼링
헤카
##워지
##mas
아데
울릉
##에이고
샌디에이고
무법자
구덩이
신검
파치
##공원
공포증
휠체어
불어나
덤벼들
FT
Ra
위법
양평
케냐
곧잘
per
손잡
스노우볼
##GP
고귀
##aser
하나같이
폭락
압수
서커
훈련장
요술
뉴턴
빙글빙
라피
스레드
##reet
설치류
빙글빙글
포옹
군용
이동한
징벌
파라다이스
레전더리
혼내
풍요
시빌
전륜
##아프
라쿠
훤
##훤
성폭력
hatsan
hPa
안구
돌발
탈영
웬리
아샤
다급
경주시
메이스
크리스틴
잠재우
야쿠르트
바오로
##??
##짐
소림
##탄불
시즈쿠
포제
##ouch
노동력
##OSS
라가
요도
##밍고
함량
TSM
##우먼
선점
남궁
들어주
큼
##br
이큐
외교부
위용
##제르
통장
##에미
패러독스
고층
##고르
무기고
Ele
아드리
커널
황재
취역
밀크
미켈
서귀
라흐
에콰
##illa
메이크업
에콰도르
##74
샤먼
하체
모선
히로키
전산망
NR
미겔
내림
실크
탑승자
재판부
WCW
의구심
문하
스타터
유공
##보잡
국교
사냥감
쾰른
나약
왕창
##onic
휴양
키프로스
pop
##84
규탄
##할시
레일건
방아쇠
사구
##프리트
##네시
듣보잡
흑기사
변조
##렌스
530
촌장
##ttack
아우라
오두
발작
초빙
##함수
아서스
##UND
Her
유투
승마
타이머
SKY
MAN
역부
알래스카
켐
대통령령
방전
##leep
리어스
##ᆺ자루
Pack
조차
학군
거시
연장자
출소
참호
심도
고구마
##ormal
울타리
레토
Dem
사샤
신의
##햄
모세
차징
##IDE
브루노
살림
단기간
실재
짜장
윤상
into
뿌리치
떄문
내비
MUSIC
난데없이
##ᅴ우
재결합
##볶이
뼈아프
동복
##ISS
Glo
Tem
마츠리
246
퓨처스
GAME
기약
System
대림
##절로
##ka
지단
진위
가위바위
가위바위보
라멘
츠지
퀼
재생성
해안가
무의미
도류
##화물
##야구
괴뢰
예견
행크
이시스
제위
강압
1080
254
해리슨
아그니
무가
연꽃
증축
Ah
핵폭탄
카이바
유형문화재
쉐보레
고군분투
재량
구토
op
녕
로메
권속
Step
부조리
재우
묘비
left
위급
##원장
##집합
이바라키
요코야마
sw
실세
치어리더
long
침수
필립스
부잣집
##전력
우리나라
송지
백병전
##노버
입석
프라이스
블링
후세
##니엄
##워키
##yo
오구
이사회
선취
##밀리아
오레
##erry
약초
##폭풍
보조금
두세
양팔
텃
화교
데비
네기
니어
USA
알버트
총칭
레이팅
저절로
##너티브
이스탄불
얼터너티브
특검
라이저
##꺼이
가타
##도시
##ESS
분당선
저기압
등대
방한
##OWER
##잖
##마음
통지
쳇
감축
어쿠
레너드
금수
은평
##꽁
김봉
권투
항마
Call
기일
노년
신변
##빼미
##ting
재물
속초
산물
쿠노
##box
바벨
비겁
아도
##ots
##갈색
##퀸
Ant
정산
도난
촉한
빠져나오
이타치
쟝
카루
역장
##바흐
승조
어르신
##자유
Die
문건
##진우
블리치
wanna
초조
기념물
GU
위선
뉴비
쳐들어가
진풍
윤회
Mil
##조부
삼가
김광현
교배
친부
비스마르크
습지
Stand
마부
매리
군장
구축전차
##ki
지드
##자위대
외화
토양
무라카미
##za
오성
복서
약탈자
디바이스
##get
동방신기
SDRAM
갑작스레
자형
영덕
배고프
##솥
스톨
코드네임
##바라기
황궁
에뮬
##코리아
환술
요시카
왜냐면
VI
주춤
##enn
바닥나
Gener
만담
고글
서투르
##브르
판넬
신세기
미흡
재판관
##86
##go
중전
한국사
난간
불상사
종업원
##드런
위스키
도지
타오
남다르
박건
승자전
Eur
시디
림프
태초
만물
로베르토
달력
구세주
어의
어감
Spe
자이로
##괭이
거너
맥아
자경
적분
차질
##루이
푸틴
릴리즈
##비지
실증
박승
튀니지
샐러드
오피셜
오랑
봉지
NCT
마누엘
토기
다이나
호타루
반디
반찬
계양
액자
케이티
삼총사
been
관상
디어
총검
근소
빨래
##흠
금물
헤치
표범
방망이
AH
##임새
306
##덩어리
수완
##본부
애벌레
##ander
Hell
바야
쿠지
나뭇
##ents
드럼매니아
##지부지
흐지부지
285
소송법
우에다
유틸리티
GA
이양
조끼
요충
이블
폄하
##ied
진이
페러
구만
신혼
워해머
##찔
Del
세손
의복
초안
브금
야마시타
모모코
비주류
세밀
커튼
포르쉐
고프
뒷담
크툴
번복
666
크툴루
개원
페미
지금껏
가져다주
겁먹
자대
프로파
짬뽕
NMB
포천
배틀로
미야모토
영월
추력
##버섯
변호인
##저곳
이곳저곳
야미
브라이트
##궐선거
North
재보궐선거
도산
불시
스톱
오토봇
Chap
화살표
카나타
오사카부
스크랩
하운드
안착
법제
보수당
에스파냐
기꺼이
동위
##천년
##hem
Key
et
월화
선착
watch
사채
동치
레논
성불
영사
Cha
크라이시스
려나
시경
동차
엄호
##BT
민망
사무엘
시발점
Brave
새천년
천문학자
주희
빗자루
구위
외로
벌집
카미조
TRA
적의
리옹
트램
노르망
마일리지
UK
980
아레
약국
연장포
카미야
크레용
그지없
연구생
거리낌
큐라
##녹
##화당
리세
미생물
문무
Direct
대금
쿠사나기
다물
애슐리
손질
262
말단
##ense
뛰어가
맹독충
어쿠스틱
데일
##32
##St
##꼬박
1899
꼬박꼬박
호밍
레퀴
##차원
양복
철제
##블러
Level
산성
##풋
북아일랜드
반역자
밀레니엄
가나가와
다승
질타
질소
University
##ove
속칭
선종
맨손
시험장
벤처
유키코
이홍
해남
번역본
##uth
신인왕
박지성
##ᆨ션
스필
구금
서고
도로시
쏴
넋
아즈마
섹션
Heaven
카디널스
가람
기저
성행
극명
247
흥국
디멘
허준
앙고
스펜서
디멘션
po
보옥
전근
수진
##my
단군
싸그리
암스
도우미
수두
외주
바이어
에인절
하층
코그
메로
이세이
유년기
도인
##에타
음주운전
연평균
사계
단추
##ures
동면
김재환
에토
눈알
부끄러
##플린
시멘트
##드기
카메룬
스테미
비관
군정
올빼미
후쿠다
쫒아
톡톡히
남색
카나메
Cortex
자명
달구
귀걸이
기아스
nb
중랑
타카미
##테르부르크
MOV
무형
밀워키
상류층
아람
리그베다
1903
코코로
충실하
name
Inc
헤엄치
911
유토피아
카빈
##윅
쉼
졸지에
어학
소거
불릿
몽키
윈도
사카가미
##39
상동
경음
트립
멸시
포스코
블로우
미소년
소켓
서든
ㅓ요
적잖
공손찬
이신형
LM
방향키
##IF
유의미
역부족
ah
조광
말버릇
##IAL
신천지
마귀
커크
그래미
둘레
센다이
인조인간
부적합
박찬호
나코
까칠
모여
오열
선술
신명
엘렌
넘어뜨리
##효과
주특
나진
스칸
주특기
다우
포톤
회식
근위대
숄
아발
가옥
경마
차명
판자
델라
단락
오션
공관
잠적
와드
부사장
룩셈
곡괭이
##irc
객실
로이스
소행성
##벙
설원
레오나르도
그레고리
하교
직설
떡볶이
이나바
##치히
순양
LPDDR
세비야
룩셈부르크
수조
석회
스리랑카
##OTH
##샹
인산
메즈
총신
성대모사
서귀포
##바드
간결
한자어
키쿠치
공물
굼
470
셔터
대법관
수병
파출
편파
이상일
##ella
대의원
지만은
해롭
관련자
마르틴
##ember
크나크
##레라
과묵
가샤
##록스
보컬로이드
##프레소
후크
혼용
노이드
##일치
역동
take
##궂
야루
블랭크
송정
생물체
모교
제퍼
문체
로바
Hello
##yr
성가
관성
전기톱
시라이시
##WAR
발성
손견
잠잠
축전
Port
##로트
전고
현관
음역
Again
mg
다방
팍팍
정품
메이슨
쇄도
color
Mel
##나멀
머나멀
##aph
공범
특무
활로
##ates
구스타프
도안
발버
패망
외로움
구인
크루저
웅진
한림
호신
20000
Mnet
##ILL
그람
승수
덩굴
환승역
쿼터백
디바인
심경
희극
마츠이
재수없
##토크
본점
린네
시이
##보리
역이
308
모의고사
Mach
리지
콘스
헤르메스
##뚤어지
연휴
말려들
레반
##va
남주
애기
혼수
의왕
군마
##umb
Shad
##사슬
인술
니치
구작
디노
가로채
몰아주
결집
펜싱
명언
강가
아미타
BMS
요금제
Dig
cr
능선
마땅히
서해안
렴구
##ᆼ아
다짜
##고짜
다짜고짜
필명
680
HKT
로마인
그리스인
Rep
인공위성
##ᆯ라이나
발단
호송
게오르
옆구리
종반
레이코
탈피
EASY
알폰
걸어다니
황금기
뒤섞이
부조
이륙
형체
장창
절도
묵시
카트리지
이프
심기
##ince
사미
##톨레
모면
우후
##쓸이
최용
용접
짧아지
건국대
##LA
241
몽고
Tim
라데
박석민
##뿐
결정타
비키니
전권
단체전
##해지
은어
TECHN
##리안
나연
조미
호아
열등감
##미사일
Only
실화
후지타
던데
마진
카탈루냐
이희
##ᆨ스피어
컨설
문학상
##티움
팟캐스트
아약
##도현
한기
구원자
김연아
304
쓰레기통
셰익스피어
##공화당
현세
쿠우
민주공화당
카르타고
##국적
파시즘
백발
LB
##pm
파가
이마이
경쾌
을까요
외견
철폐
홍문
룰루
겨자
베이시스트
핸디
드레이
유유히
QS
위니
비행단
아모
영산
망언
하락세
무용지물
마샤
문정
노르망디
##WA
##위안
샤우
##ids
브루클린
sa
타란
영예
명랑
디온
나래
적국
카푸
서일본
에보
에미야
ROX
데인
카키
##ometh
수학여행
자립
네버
순번
브렌
알아주
버나
상아
해바라기
홈플러스
산업단지
레퀴엠
키아
은화
착시
원심
푸에르
수도사
포르투갈어
시국
추앙
케이틀린
##미디어
상응
저스트
영천
아이린
덮개
항문
출입문
Days
Jack
보어
군량
절판
부담감
Fil
jp
증설
Lun
요마
박인
##ility
송파구
아과
조디
##딜
확충
미네르바
김유진
HIV
##BE
일병
본업
신경전
##razy
dr
강기
종용
말썽
가고
전소
##생명
블라인
Network
지마
대소
버저
점장
드미트리
배달부
대열
처장
난관
집행유예
인척
번역가
환상향
고찰
##구려
아이패드
바로크
토모야
수잔
바빌
파운
알로
아일
구명
##플로
구판
천차
Gh
번작
직급
손색
311
리벤지
내란
길티
유리창
단축키
유화
밤하늘
알렉산드로스
rem
부의
아키하
Inter
마조
##사병
관음
##합중국
케이타
##iri
랜딩
하디
##워커
오와
우진
탄피
iP
만인
징표
흉부
에스프레소
적나라
최태
!!"
신형
위구르
패퇴
군자
양날
볼드모트
ser
헤임
미륵
신창
머피
울림
카카오톡
##bit
대종
미어
김강
베누
조종석
EE
주니치
백상
##unk
헤이즈
KGC
##94
시니어
일침
어윤수
노다
숨통
비축
치즈루
색적
아약스
궐
도굴
##보트
야타
뒷부분
에밀리아
ZZ
냐
##ᅢᆨ스
참신
퀘벡
아나스타
둔갑
제츠
##국수
디저트
평평
양궁
자가용
원서
앰프
마이스터
맹장
켄시로
템페스트
Wr
이다
매화
병음
##파치
##atter
Cup
중증
##레일
ᆯ세
백조
풍성
위압
월광
변방
잡음
퇴화
중성자
도부
타카기
김해시
MiG
##cess
타무라
쾌감
사이퍼즈
미합중국
도출
솔러
구구
동맥
엘다
기동대
김기태
장흥
에트
김성현
제라드
용시
문항
##피디아
디폴트
브랜든
비등
##수단
종신
순하
오지환
##그라운드
##나스
중파
리토
##윙
라사
디셉티콘
이덕
##어머니
개중
불빛
제이콥
##굽
##ald
1890
망가뜨리
토목
편집장
스카이워커
오나라
진홍
##에나
정신줄
##부상
쟈니
##ether
부트
위키피디아
객체
역순
House
##add
빙그레
사냥개
한술
##레로
태사
302
짜내
##uman
선동열
독신
##십리
##ORPG
##ips
미야기
당과
능통
미노루
해수욕장
세타
리허
##펙터
복음서
##ᆷ돌
노량
##als
날라가
호이
패티
그렉
반포
##양이
정치학
Winter
ㅋㅋㅋ
울버린
전단
노쇠
라칸
Esports
bet
오심
피에로
신차
이용규
럭비
안드레아스
Year
구약
본심
콤플렉스
아캄
아리마
샌즈
획기
판타스틱
미츠루기
##공업
학설
티타늄
##TN
오릭스
싹쓸이
여래
미카도
북서부
More
구부
슬기
look
유골
ᆯ지언정
##닭
로케
어선
기나
세주
데어
로시
이용한
모레
범퍼
##핑크
기뢰
발췌
최단
귀가
안양시
After
간담회
Kar
LF
네프
##uj
유예
전액
컴플렉스
자속
윳
불의
##산업
맨몸
좌천
##ᆺ가
숟
메신저
건방지
##평동
비정규
수난
레일리
시설물
무수히
시들
노하라
강우
##샵
렌더링
정태
최유
만수
동형
헬레나
미니맵
도레
필리스
꾸짖
헬리오
무스메
"...
Under
접착
헤일로
##전생
삼척
무기력
##ico
셔플
여신전생
소용없
모독
창건
렀
타마키
Burst
##갱이
간사이
깨물
아린
장윤
##더지
영등포구
별반
윤보
기상청
쑨
##우로스
적장
##메드
송창
아나토
쿠르드
##마이오스
고졸
몬스터즈
관심사
WA
사본
신통
학장
담담
콜럼
스터디
이공
맛집
Sports
타일러
저우
객원
Enter
가독
해마
키르
칸자키
##lin
##커버리
마그네
뒤흔
산요
##esh
두꺼
마음가짐
죄악
사업소
우스갯소리
##헐
따름
종래
##AKA
윅
매듭
랑그
리차드
키카
아이비
누드
에르난
패자전
지코
##진보
온의
꿍
중생
도란
와다
가마쿠라
기나길
##뱅이
도원
체자
##orce
걸림돌
630
도교
헬리
강구
겸손
합성수
##도르프
사생아
하류
이너
수갑
내지르
행선지
##기니
타파
헌팅
##emy
장로회
손아귀
자장
미마
달팽이
알리스타
에반스
방청
처칠
##영웅
필멸
소고기
배양
초판
think
섣불리
Snow
로군
선데이
프로펠러
은지원
스크림
틀어박히
키예프
플러그인
점프력
힘드
낌
제패
작품상
자림
밤새
Va
들뜨
단면
##경찰
싸구려
웨스
stay
귀인
##odu
에스퍼
주박
##코인
순천시
손아섭
칠드런
관중석
윽
##ved
보나
도나
구설수
장조
농산물
스러
##거슨
강시
아나키
맥스웰
전래
오펜
신음
바꿔
올라프
육탄
탐험대
웰스
굵직
nbsp
도선
영의정
격발
잡아먹히
니아
공생
불경
외양
베르나
토리코
INT
대모
박용택
##하고
음질
긴밀
쿠미코
수문
기물
전업
성조
케스
키타로
이름값
2100
##기수
분개
헬레
타이거스
제레미
토레스
산동
갖가지
Knight
GF
도합
현은
송광
1901
준결승전
Mc
그래피
오른발
속속
권수
슈우
사인회
아흐
화풍
##oph
서프라이즈
아브라
수심
계약금
심포니
크랙
김미
믿기
뒷모습
공화정
불계승
차근
네온
음표
고서
##활성
푸치
액세스
소말리아
FD
##72
스사노
고동
원투
종군
근간
테레비
에루
music
기승
드링크
다양체
남양주시
엘레나
쇼트트랙
##XX
미혼
복숭아
대참
놋
간사
무한히
코너킥
우르스
수회
제리코
발화
승화
뻑
비니
##일비
불씨
혈전
유폐
골머리
빙빙
##걸스
관청
프리츠
바빌론
##기념
연필
신학자
생도
산드라
##남동
API
##드라마
수은
##사업
따라붙
##폭력
##내티
펠리페
신시내티
##진창
착오
##껄
대망
##호마
요시코
근거지
광명시
도태
저버리
##적으로
760
DEX
무신론
##촨
Lost
Gra
사선
##혜진
공기업
자야
990
Anim
두들겨
were
슈퍼볼
에인절스
색기
비잔티움
데릭
카가미네
##거시
쟁취
침략자
주이
트렁크
##눕
다이나미
올가
다이나믹
공상
다이버
##VEN
전서
전처
걸프
IB
즉흥
히데오
Rob
결여
삭감
번외
쇠사슬
##othing
##해하
##진보당
교의
##테리아
탈모
나이스
##팔구
이징
공민왕
형용사
파천
명소
조만간
출항
빼먹
공백기
미국식
십중
##촌동
아편
착탄
1902
코네
플릭
SSD
십중팔구
승전
잔상
오키타
기전
소파
원체
사이언스
축물
송시
초토화
투게
개인기
염라
신기록
마제
##현실
증정
꼰
일신
개당
내력
강풍
베이컨
##REAM
오유
천년기
##isode
기고
총살
니깐
##ury
붉히
일그러지
##아프리카
선승
남하
용역
티온
##ori
둘러대
소시지
Ice
까치
윤치
어다가
##zer
안상
밀착
사마귀
주상
파밀리아
실각
현저
직경
##림동
투게더
모루
의성
식이
뜻대로
쑹
정호
칼로리
They
960
나뭇가지
속마음
하청
일류
카펠
엉망진창
##거나
처자
눈매
마사유키
묵인
라모스
오토메
핸들링
Cur
Kiss
##ELL
보일러
경부고속도로
민영화
사울
매월
##갈이
서현
백두산
블라인드
##ney
##ving
후우
CLG
Micro
유세이
염원
이그
최경
반증
캐쉬
잡담
석판
홀로그램
레코딩
Imp
보주
장료
발터
개정안
장만
딛
샌드백
사나에
바닷물
RGB
Vir
포그
나가토
610
NCR
부천시
295
##IKA
##어처
미개
비이
길쭉
배틀로얄
와스
카이지
미니어처
LPL
유타카
마포구
시식
브렉
아머드
한바탕
영통
귀도
굴곡
야사
김동현
어김
메트
산재
깡통
어김없이
VC
증손
##겨우
온리
퍼거슨
Spir
Arc
아톰
철판
모니터링
황도
은지라
재방송
논산
속수
##파르트
2200
차량기지
1898
상트
알론
##글러브
골든글러브
파프
킬링
길동
생활관
후지와라노
##fore
수순
불복
히터
팝콘
우에스기
서건
메피스
게일
승산
면세
정복자
특별법
555
현혹
가톨릭교회
침입자
야만인
him
하복
후견
주택가
허드슨
봉신
악녀
TA
파주시
##태현
애비
포르테
%]
##기구
404
빈자리
통곡
아이샤
페트로
뿅
번번히
유모
트랭크
김무
보드게임
##37
발가락
코크
프린터
##프레이즈
보령
일주
##천면
##코타
식단
580
Sal
놓아
떠도
유병
피날레
요스케
플라스
날렵
렐름
xC
와시
Pan
거장
즈이
강력히
책임감
봄이
험난
뺨치
발버둥
자갈
합세
점원
권법
문화방송
##ITE
대작
사이조
독사
아리랑
진구지
찝
총대주교
로라
면회
컬처
##omething
킵
황건
사산
핫토리
블레이크
##YS
동당
우버
##세어
##츠크
405
납작
체온
##시아키
PPV
From
##자마
영종
초소
레저
266
죠타
만찬
엘리엇
880
스테레오
하야미
앵무
##꾼
Roy
1860
~.
영연
출품
빠름
쇠약
비웃음
##mon
하진
서영
점막
##미온
초유
##해튼
코스타리카
번뇌
박제
조선왕
Ann
용산구
다목
상선
병실
시마즈
테레사
Secret
TL
##ᆺ가루
김범
외인
정공
공언
열폭
Reg
Ha
로엔
마사시
세네갈
##92
범람
HL
용문
별세
혁명군
대전차포
Nat
미자
무투
은거
합성어
세바스찬
당도
재야
Remix
도미니카
이리나
사유리
##히드
박현
몰이
맘대로
채색
투창
타임스
MMORPG
문선
천정
달리기
난이
질투심
고국
강승
002
교통국
동양인
경복궁
game
소질
장보
##덕지
강의실
부지기수
캐치프레이즈
마유미
요충지
##치우
영력
dream
vol
쿰
고야
미스틱
경작
아오야마
아우구스
영유
카봇
##레르
##듐
##WS
정읍
제철
도용
발암
기모
말다
독고
스테인
1897
비너스
##만화
야크
##차림
폐차
퇴진
##order
간간이
##부림
당파
놀래
##INK
490
해답
습성
##....
America
안데르
광자
유니코드
갈아엎
시뮬레이터
##이다
볼로
근사
네이밍
오닐
살라딘
일구
미제
구걸
제이나
안티오
흩뿌리
역이용
돛
##82
공파
박형
글라스
##ARK
점령지
png
##컥
자타
자만
위세
##일체
top
Dan
##31
명색
뱃속
남양주
파출소
##반구
코마츠
##ᆫ티지
실태
폼페이
어드밴티지
Band
기흥
도무지
속기
Hun
짖
연무
판인
425
폭염
##aking
stop
카를로
상국
부총리
무참
의논
탐사선
달마
파이크
시코쿠
키보
본연
윤정
탯은
가부
개기
변덕
쇠고기
수두룩
ed
언리얼
345
##엔드
나팔
##테라스
미첼
검문
알레르기
##그라들
대천사
다희
구레
마르쿠스
플라자
나트륨
걍
여력
원탑
##루가
##베로스
##캐피탈
엔지니어링
가고시마
모녀
중개
소미
##바겐
머스키
온통
체육복
드나들
##급수
##ANCE
성룡
박한
역사학
##erson
카밀라
##GO
동학
색다르
부자연
##구름
건과
이라던가
톱니바퀴
war
캐롤
##광이
포스팅
중무장
양세
풍신
##스턴트
PE
기민
국과
통나무
루갈
독실
토론회
쭉쭉
타노
더글라스
ACT
신분증
브레멘
Ob
마두
성욕
쟁쟁
당수
왕도
하이스
과반수
지프
사커
명종
##중심
악취
##쿨루스
갉아먹
Wol
지민
전일
공격자
##브스
열중
크라켄
되풀이
##무트
애니맥스
혈족
더럽히
여하튼
FINAL
away
인스턴트
아마테라스
마킹
구획
악귀
피부색
노토
포티
속보
튠
Why
Dri
로터스
김대엽
가젯
페르시
중기관총
종착역
부풀리
저쪽
쑤시
대학살
사회당
현대캐피탈
시계탑
Plus
무효표
쿠로사키
By
한진
카시오
포츠
머슬
##브리지
만장일치
blo
소관
신타로
응모
##con
오거리
레이다
노면
데저트
실과
올리비아
활기차
##디나
법규
광신도
JAP
교인
과천
##병원
##페테르부르크
아킬
소방관
상트페테르부르크
Fant
수시
blue
IZ
캘
쿠가
격자
초심자
##ks
##URE
신교
의역
태화
다이고
JB
수훈
무더기
연옥
권영
매그너스
췌
겨우겨우
가인
810
속삭임
Easy
Normal
##부진
결탁
두꺼비
light
박성준
##ᆸ쓰
미노리
##터지
유리카
##다발
우방
창녕
탄식
##순환
찢기
김주찬
LR
대보
유혈
무릅쓰
햄스터
문도
##코지
##협회
심신
080
SNH
##ublic
반월
우주인
해결사
강남역
자작곡
하노버
일색
고해
##세유
담아내
퇴학
1894
엎치
오치
명수
맨해튼
넥타이
고분군
소정
로하
288
아키토
HA
비일비
택지
비일비재
XI
da
타루
##타니아
특대
재외
산적
마사루
갤리
##저버
사이언
BEST
정파
고심
##반짝
박소
견훤
뚜벅
옵저버
자우
회랑
폭우
스페이
훈련병
반짝반짝
입김
뒤편
탈레
세이렌
str
518
당선자
속삭이
초장
퍼스널
서건창
얼떨
염색체
GRE
쿠노
경치
플로우
건대
모기업
리알
원탁
박헌
고려사
변함없
##라면
화사
드리스
명부
재촉
##ison
570
글로리
지청
기계식
##뚝뚝
끝장내
사흘
막사
사치코
봉우리
272
왕래
퇴적
상급자
지름길
##르르
작명
근현
경례
프톨레
재력
display
프톨레마이오스
무뚝뚝
루주
##외과
유키오
노틸러스
마노
상봉
절멸
질식
엎어지
매개체
had
을래
도련
진통
일일히
##기스
##도바
무표
연격
##파시
삼림
840
모지
들여다보
방진
##ato
005
동그랗
을려
수서
다재
한동
##감독
##쿠사
윗부분
add
트럼
소변
색감
부엌
조엘
고강
항시
검투사
칠성
PERFECT
영애
비스타
디아스
아랍에미
아랍에미리트
연립
프래
땅콩
기대치
짤짤
패스트볼
GIR
##38
##을리
연명
##즙
출가
리아스
GEN
Here
cod
다윗
천룡
##리스타
긴토
민요
레이더스
이한
관구
석재
모뎀
##쯔
권선
잡아가
창구
Series
부의장
스포츠카
진풍경
Cla
치수
현란
아이치
평가전
혼잣말
780
KV
질색
##불복
칵테일
##MI
볼거리
리허설
항체
법관
PTS
##게티
복불복
아키오
배신감
##OLD
하노이
비드
발라
##umber
프랜시스
크래쉬
AJ
퀘이크
프라하
내무부
주정
국철
식칼
금나라
오오타
##wn
사민
드가
극단주의
상층부
##케이크
##씌우
하퍼
참혹
마르세유
초승
보컬리스트
지노
문희
##연의
트렉
손패
Div
Video
would
하긴
자생
청순
321
이해도
MSI
데바
##차근
용지
출자
International
차근차근
토에이
박희
베르트
수백만
bu
286
임창용
##높이
수긍
재경기
미치광이
프란치
FK
내쉬
##무책
휘감
코앞
함양
##orry
##페리온
스커트
레거시
재조
산토스
화분
국제선
##ctor
##피오
클라인
척탄
쉔
일판
국유
병법
힘차
홍진
##댕
특강
재연
용액
송은
##idae
숱
소다
결점
주제곡
EF
진시
단언
##토프
##모으
15000
작성자
##키치
슈마
미스코리아
톈진
천명
심상정
af
모닝구
숟가락
지스
출정
학실
벽면
##길동
고루
금주
401
번화가
지안
유야
비활성
메오
텔레파시
무턱
문화사
Lu
##덱
순이
299
리니어
발송
##벗
메드
간헐
페네
오가타
중독자
##테이커
Dav
뉴트
Force
대성당
재계약
후한
너트
체의
조선족
620
두건
##다스
산티아
##ATA
기득
공학부
##피언
분분
편히
용신
블라드
음식물
아라타
언더테이커
매사추
##세츠
녹아내리
메피스토
JK
소스케
신현
물의
기프트
오븐
도성
ro
장현
연합뉴스
첼로
서연
에고
매사추세츠
##hed
퍼블리
걸레
합창단
대주자
가트
기단
파마
향교
꽃피
##렁거리
앤드루
탈진
비트코인
둔하
이랜드
당직
칸국
미사토
머스킷
원단
쓰다듬
MED
유년
판박이
312
픽시
탐탁
관찰사
모티프
응수
지구력
이해관계
##ITY
국방군
이근
마상
매킨
페르난데스
MOD
Ta
조쉬
ACE
다네
려니
윤석
우노
##las
카이로
맹공
##덴부르크
코우타
속수무책
##hn
누설
번호판
동호인
Future
발의
변화구
증명서
유자
##다능
##카가
금광
폭스바겐
정미
괌
다재다능
노론
진사
에밀
##amb
테크놀로지
산티아고
마나카
영영
명함
필로
백혈
파티마
비안
으르
##젠더
##fl
##미안
히트맨
안드레아
비엔
위문
함교
춘천시
예감
승룡
창조주
지선버스
총독부
UB
교파
완장
난조
왈츠
불타오르
##대신
이동해
쿠타
2600
언어학
이수근
der
캥
카코
직함
GIT
인양
진언
접목
멀록
쥐어
먹잇감
까맣
강박
코소
용돈
레이튼
일리노이
Mor
pre
리빙
복량
오재원
JAPAN
##비행
Queen
Old
SPEC
만주국
##지옥
채광
이경규
후부키
독하
몸소
링고
영웅전설
##득이
수용체
xB
두더지
주문서
스파이럴
##현희
복역
##acy
찡
하코다
가망
미신
청도
SHD
Ber
Fin
장검
의수
허점
웨이드
센토
중공군
Pat
##ror
스물
토도
아랑전설
새천년민주당
해파리
문종
플랭크
건반
총력
335
##마키
야키
교부
맞닿
퍼트리
die
##기리
##라호마
안달
##방위
이봉
##권력
헥터
타쿠마
오클라호마
니퍼트
mod
열망
##any
355
820
용기사
제논
후세인
##바스티
죽전
벤자
Fore
타개
리만
채식
막대기
RES
Work
일축
깔보
천문대
307
STAGE
##tm
정열
영암
홍명
케라
행정학
빌리지
!!!!
프란시스
자폐
동거리
씽
Exper
Plan
반야
보건소
##넨탈
시에라
다나
싸늘
출장소
공리
본전
육수
왜건
##고양이
계파
플랑크
연약
몽둥이
호문쿨루스
아냐
기류
버마
##만별
국부
수아레스
자카르타
천차만별
마셜
화단
##루아
곤도
차례차례
플라톤
기내
자메이
국세
박철
천호
엘튼
357
자메이카
##RC
오대
##석희
##글러스
류큐
삼국지연의
조선왕조
사황
자퇴
제수
불스
편법
토아
심층
검법
논외
칸트
크레이그
Er
바스티
성신
만기
than
Ill
수거
여과
로데
##irth
##러붙
화원
컨벤
##친왕
무턱대
더글러스
용광
곡사포
##TLE
##아부
어쨌거나
ㅕ야지
구수
처우
##read
루이즈
GITAD
뎃
암스트
퇴원
발군
특사
##파트라
클레오파트라
화음
리보
시리얼
으로
아리스토
중학
대표자
녹슬
블랙리스트
전화기
##티아스
아자르
피안
장터
##분별
##면체
광둥
##els
숙성
네이비
하하하
레기온
장단점
MOVIE
유실
한상
독립군
Look
초승달
JD
el
타순
테크니컬
초신성
er
바짝
리콜
준이치
카우보이
전량
##레프
그레이엄
정윤종
묵묵히
말다툼
짤짤이
아타리
거진
힘껏
OGN
리포터
무표정
ZERO
장강
청라
송환
나성범
VT
##iant
외벽
토레
비법
건들
린코
ᆫ다던지
성리학
개소리
포포
영업소
##테크
글꼴
얀다
boy
우키
셋쇼
##맞춤
Championship
셋쇼마루
스타인
간토
민선
쏟아부
일수
강물
정실
이설
역세
##cal
호머
Dyn
##화기
라세
게인
##강하
발사관
엉터리
##ues
##46
수저
바레
신안
중남미
원주시
접대
##스타인
거만
찹
불패
페티
묶음
방사성
Give
공직자
##마다
효종
##cher
카카시
암스트롱
##WC
고저
구시
연중
에른
플러
면사무소
포항시
다키
라이프치히
무인역
선후배
Roll
미요시
세공
마다가
카다
로도스
태안
밥값
묵시록
마다가스카
퓌
황야
휴재
##필레이션
컴필레이션
옷차림
Aq
could
다느니
의용
남경
히미
수세
피타
급강하
스털
다윈
다국적
##수소
용모
소인수
무턱대고
##어가
자조
잣대
##나츠
오영
빠트리
꾸역
710
지류
자코
다레
리파
반문
총액
옥토
에이브
셔틀버스
청취자
조나라
오르페
##ular
최전방
세실
멩스
몬드
보보
오수
##킴
타미
소비량
암스테르담
알람
애너
와트
##ican
브래들리
철강
육군사관학교
##셰비
##form
마아
부차
##무쌍
궁녀
계급장
강경파
만하
호두
호연
히치
태엽
아마노
메인보드
여수시
황재균
까발리
망나
경찰차
##아떨어지
본기
횡포
뛰쳐나오
역공
화승
도수
##itt
셀카
적재량
코즈믹
##자원
제끼
무분별
즙
전학생
개항
로또
##락스
아미노산
마그나
리자드
양덕
메이든
사무국
광주시
하울
파사
필하
##icle
##otion
아케치
도카이도
##부치
낱말
김하성
power
침실
앙코르
지략
사노
고함
##레마
GITADORA
how
주신
비슈
##상어
후시
##박사
346
##텅
유관
##메탈
황급
귄
쉽사리
sy
이여
일설
부비
추태
섬광탄
##지먼트
끼이
##쓰기
매니지먼트
유례
피력
##실베이
야포
펜실베이
고의로
펜실베이니아
FOR
##가르트
요직
코랄
낙점
구급차
만다
을지언정
컨벤션
주안
코볼트
열연
나지완
추축국
오두막
애런
구조대
##덥
추증
달달
지지부진
발명품
피난민
See
선녀
는데요
추존
원초
##두고
디그
각하
칭기
rec
치매
##sy
지브
우레
휴고
징병제
내막
문수
삼중
CI
##iw
모덴
말린
밀폐
핵전쟁
유도탄
거구
ᆫ다던
모카
화포
소르
더디
결렬
심취
영화사
##몬트
##ava
youtu
마중
자해
강백호
애도
베이직
파이어볼
Another
시비르
틈틈
상륙작전
알베르토
이서
온난
촉발
아폴론
남동부
통행료
칙령
우성
반향
폭약
276
구미시
Make
##LY
꼬꼬
지원금
뉴올리
펀딩
놀이터
이경우
Ever
일라이
지검
애증
떡칠
BLUE
##side
##대원군
세심
후열
##노르
양민
art
벤자민
아나킨
격상
맹주
##ender
식감
친동생
청부
접선
게으르
##핀스
코딩
레브
백석
이제야
##달리스트
##네이루
##QU
내시
정찰병
##인더
구릉
##루크
큐티
##꿍
리서
왕전
유시민
사조
배낭
예금
아시카가
카츠라기
최연성
Mind
동티
##스트리
손승
스털링
후륜
룻
중일
금연
핥
찬탈
##뮈
고상
호쾌
에두
##ami
세미나
회고록
모여들
하양
노먼
high
애슬
##워스
Fort
금관
츠요시
스탬프
나루미
##elieve
남송
충만
콜렉션
아야메
아우디
이철
번안
군국
달서
클라리
끊임없
페일
도그
방통
모체
한국전력
##뿔소
대서양
Wonder
지브리
변론
웡
케이코
장승
야마가타
무드
속곡
##달프
##원숭이
깁슨
가나가와현
##EP
##적거리
커티스
세이라
리거
메들리
속내
완치
쿠쿠
하이트
트랙터
670
매카트니
전미
오야
학도
##여래
음악중심
##혜원
전국구
갱생
칭기즈
가전
구문
관철
##버른
김밥
970
김민철
김포시
여실히
Aqours
San
ml
##주석
브리오
판별
실리콘
쾌거
##SH
258
어니스트
관입
교신
함종
군도
론도
황금색
아득히
양부
급조
롭스
션트
참판
얽매
동해선
학관
페페
전임자
상이
치욕
##루이스
940
안젤라
주괴
##진군
##포인트
평택시
배회
슈츠
절로
큐리
소유주
##캡
캐롤라
버클리
##산맥
ARC
이교도
무루
라브
역인
##불사
동일시
샌더스
TFT
시역
뒷목
##엉이
효도
감독관
송금
Player
고흥
방독
파블로
희곡
퍼니셔
MH
##vice
마오카
치치
더라고
대혁명
어는
##ddy
IOC
Squ
무쌍
포틀랜드
비교적
추진력
org
우치다
애호가
PTSD
##가나
최동
포위망
257
경제학자
에드가
동귀
술래
##uh
동군
단가
예식
독스
터틀
흥덕
385
Hz
np
상습
슈이치
##ote
지지층
인내심
Sea
아네
영생
에이핑크
시바타
WIN
시일
원유
##예스
나가노
말미암
이그니스
루미너스
Pal
선의
간소
##hes
키네시스
CU
RNG
슬링
바이저
온천욕
##비티
##카르
군관
본즈
씨족
여객선
넘버링
TBD
##비나
직장인
애드온
탈리스
상계
비취
말싸움
파훼
러커
Ben
안마
반점
선제공격
INF
어라
한껏
성호
생모
707
지산
하녀
나탈리
매물
직권
its
의례
쿠와
철인
under
##시원
##재주
진열
펀트
Ka
##스토
세제
자유민주
##ICK
전태양
##구동
루아
규합
사대부
수혈
얏
건너뛰
조석
치닫
실마리
모모카
델리
솟아오르
##사탕
반일
이정훈
기네스
##민턴
팬서
신해철
알론소
부름
카톡
서운
시작점
극회
흥선
##ellow
부이
클루
탈의
승하차
##쏘
만리
과외
펜타
##맞추
-'
길리
선악
263
Card
525
급속히
디비시온
성왕
##발트
브롤
설명서
##tus
##니파
멜라
왜성
최종병기
리오넬
##기름
리버티
Trans
주성욱
흐트러지
어메이
정영
유원지
##리스크
이승기
배드민턴
대양
라이오
Emp
Id
서예
헤아리
떠돌이
기어코
무전기
pla
연유
##ffer
배웅
베스트셀러
왼손잡이
오호
후신
최지
국민회
촌은
덴오
무도회
총격전
Beautiful
##고치
##버무리
꿋
헬렌
멜버른
카나에
930
사가라
축구팀
미카사
콘도
레즈비언
맥아더
##호크
심재
스토크
맹목
이시이
헛되
기입
발걸음
얼버무리
APK
분탕
종주
히요리
ㅏㅆ었
비올레
마틸
일렉트로닉
효고현
사피
##ories
골밑
듀란
오블리
소박
장항
궁이
키리시마
거룩
조난
##거미
우림
##93
캐럴
독음
요시히로
##ᆺ수염
미즈노
아연
파즈
산정
전문점
창립자
수의
고착
복속
아스널
통신망
단시간
건륭
Ko
신참
단맛
스타드
잉카
##OME
조연상
으세
장합
서툴
국면
##iness
프로그레
아르마
치료법
은하영웅
은하영웅전설
273
1880
True
컴파일
BY
##빅
요루
데코
양해
4500
니시노
프란시스코
잡졸
스핑
돌림
한양대
무진장
마역
##유리
당혹
코스케
낌새
우승컵
스푼
Bus
미학
유충
방계
금동
나일
생쥐
##곡역
소매치기
얼떨결
정년
GSM
로페즈
병아리
민자
액정
마르스
이승현
불꽃놀이
김갑
급사
승리자
노블레스
츳코미
성년
폴로
애니멀
필리아
이슈타르
Christmas
아누비스
##를리
데꿀
글레이
울트론
##ific
데꿀멍
크론
낙후
##PGA
송은범
관저
팔레트
아주머니
730
수표
학우
토종
탯을
트랜스젠더
##ollow
아워
##디슨
류노스케
소화기
시보
##가야
번주
야영
증류
궁을
여진족
KM
농지
##큘
더군
주현
장도
해일
캐넌
##처리
각성기
경영자
%~
UD
곶
죽창
석권
Head
딴지
##press
##미남
도형
호나우
국호
오퍼레이션
Want
hello
수력
보더
방종
배타
##회원
김부
알아들
비정규직
대합실
자유민주당
즐비
프로그레시브
선례
영차
배너
##저찌
희석
국내선
어찌저찌
타바
##카운
실베
종언
즉발
##oto
밥상
bbq
들러붙
성교
불도
베리아
##컬레이터
에스컬레이터
시스터즈
된장
미치루
타카야마
다마스
검진
백야
벨로
에리나
마닐라
Ve
다항
비결
한지
##바오
##개미
좌회전
잔느
##ask
전반부
청동기
빅스
진루
결방
형광
##막이
민회
그루브
덜덜
오블리비언
장구
맥기
##겹살
박지원
유러
유표
리딩
오르간
묘역
폐렴
324
군부대
뒤덮이
##ih
대꾸
도이
로커
##벌리
시어머니
Sub
Tur
이학
자청
미비
소연
##부아르
문대
##실신
##민정
##테온
황선
핀치
은커녕
상도
유리코
커넥트
으세요
프레이야
##po
포가
##북자
수리비
판테온
##reas
경의선
월경
회생
마동
인파
에린
주창
소치
장렬
강신
효능
떡실신
Earth
SI
YTN
방귀
발끈
야코
예프
논평
푸르지오
다카라
인문학
데프콘
네츠
가르드
셀레스
##ister
Av
하버
유랑
본교
프리트
아르고
황급히
AGE
상세히
유러피언
파시스트
이즈모
공대공
지난번
시판
산군
친아버지
강지
조직력
잉어
죠니
스테파
부러뜨리
ha
흥원
링크스
투표수
고사하고
##화학
세시
독침
항법
402
운동회
메디치
레노
블락
##샨
디펜더
행진곡
케임
이펙터
주영
유즈키
종국
캠벨
헤이안
야인시대
Dam
사표
위업
청담
골판
개척자
볼드체
모처럼
종단
양각
카타리나
시럽
##미나
##해방
##금속
라이어
농가
으뜸
꿋꾸
나니
요란
비행사
나나세
리라는
남서부
연예대상
Group
시흥시
대참사
##마차
영판
에테
김사
##ones
몰타
283
Street
카산
초석
완충
유사시
오시리스
스팸
군가
민경
정맥
유강
삼겹살
##쿠젠
타임즈
자스
킬리
식도
핸드볼
Two
소티
파니
##ini
star
폭주족
SPECIAL
도지사
베네딕
픽스
##유행
진주시
반다
##YY
피플
투석기
##요한
집시
슈퍼컵
율법
경쟁사
쥬리
아라키
웅덩이
##ives
탈레반
du
대죄
남군
284
토미노
뱌쿠
정략
그로기
##ress
사륜
양극
ᆯ려면
친선경기
youtube
Vi
아스트라
9999
조민
얻어먹
주마
고룡
무위
동종
입소
독가스
지저분
어메이징
독기
보호법
무한대
트라이얼
시이나
미주리
뽀삐
피로도
##port
구박
참회
TOUR
태커
MSM
플로어
프리스타일
대식
##onight
##난방
러버
마리카
스위칭
글쎄
##미경
노시
##렉스
총동원
극락
영연방
숱하
화강
벌벌
인민해방
인민해방군
유루
피살
최현
넘나들
보헤미아
라쿠텐
LD
##bow
구야
카본
yul
오송
파스칼
뉴올리언스
정찬
선미
버로우
흠집
코모
맞아떨어지
숙달
전망대
##과학
에이즈
##얗
261
277
뽀뽀
323
386
시현
조서
타이트
004
gonna
쓰시마
##ᆸ스키
Electr
##scape
송시열
트럼펫
독려
쫓아다니
수동변속기
{{{#!
등신
타의
유우나
##잭
##ja
결산
트레이스
덴버
키릴
비비안
아우구스투스
피어나
국소
베오
손익
벌점
앵그리
김유신
##재호
예보
팀워크
송강
마리코
크로즈
##ada
고관
용법
고지대
정색
리플레이
포세
##팜
양학
김민성
Burn
##CO
미형
습기
맞춤법
Techn
기침
바타
##상하
두고
원산지
프란치스코
방독면
등짝
유럽연합
ep
데포르
소문나
기차역
다카라즈카
기척
야후
마사미
##bert
초음파
수스
소국
피폭
더치
결판
발표회
##닥뜨리
VF
이산
미스티
정강
오르내리
##roid
Shadow
두고두고
녜
##어사
강화도
마요이
NBC
##라마
맞닥뜨리
##쿠르
흔드
통찰력
리븐
##현상
마나미
시타델
##afe
자외선
정월
해괴
달렉
병들
유라시아
##MM
자파
윤서
영웅전
SSS
여태껏
귀순
##AMP
870
박원순
휘발유
부다
포인
크리스티아
켄치
유희관
렐리아
깊숙히
카스티야
XL
오벨
상환
노크
백승
케이프
피스톤
멍청이
차우찬
러일
혹자
알비온
영하
하기
인코
도플
다운타운
LoL
Intel
바렛
부군
개근
294
아다
하물
##코비치
##lad
민주자유
벅차
Global
민주자유당
대청
대손
백동
랴오
sky
전의
추하
##누이
노르드
햇살
##HS
플라밍고
티라노사우루스
KK
##디트
물들이
플릿
금괴
##탄두
후지이
닭고기
대문자
VOD
자시
야성
##aint
오락가락
##ker
이등
후폭풍
카스트
엄친
딜레마
codice
모피
조아
여간
누에
임박
타블로
구력
파급
##당당
##토메
꿀리
오디세이
캔자스시티
Hal
주거지
사간
식탁
북스
밋밋
방랑자
##비안
병마
앞날
황위
정규직
불로불사
YES
박보
민가
번거롭
-.-
추악
아니마
##태자
네드
##uts
비서실
한식
터득
녹턴
Reb
테이머
령우
##제철
Fro
수액
마안
전군
내통
진천
코코아
근본주의
정몽주
이딴
영상물
가루다
아만다
OFF
부영
앙드레
아발론
지양
상전
키오
274
발사대
지하철역
##APP
##셰비키
##홀름
정준영
did
아탈
노회
##토쿠
맨션
케이이치
부지런
ind
무디
감화
메노
항변
##쿵
요시유키
Chapter
TK
##ken
시테
커서
엘자
이색
전상
정병
동고
치에
코에이
920
이지선
김동준
카탈로그
클로즈업
Tok
디안
명목상
사이타마현
원킬
밟히
이택
리의
##oman
015
이정현
Silver
재원
참배
완행
복직
서사시
##맡
##뎅이
##와트
##껍질
Hand
오차
##무사
용검
사쿠마
모터쇼
TECHNIKA
양키
끝자락
보디가드
살생
왕릉
조지프
이왕
테마파크
노원구
옴니버스
무반
신우
파이퍼
중서
소체
데크
권세
양준혁
선왕
제퍼슨
피니
우니
멸칭
호수비
옥스퍼드
인더스
병조
267
050
녹색당
정단
위너
키코
군의
외딴
중흥
탄성
Studio
##펜하
Leader
신동엽
재조명
안일
현대인
공수부대
모질
호지
테트라
##천후
##ative
위례
판국
통합진보당
화염병
##97
거성
피나
파쿠
잿
HC
이부
실효
순혈
창녀
하루하루
Dep
쌤
##시설
비버
맞은
부산시
338
해동
김나
##쿠니
냉소
스위프트
믈
##꽝
오선
##히메
##타스
총평
악동
황보
화물선
곱하
##jor
라이노
Cost
work
전란
나잇
타카다
료타
김태원
Double
JO
요셉
꼬드기
CHA
반정부
##먼지
동력원
수색대
이회창
척탄병
추신
구강
선덕
박선
곡식
담화
히데아키
Water
나침
##포츠
샤드
려는데
##쓰럽
세르히
Cloud
동갑내기
무심코
터무니없
노포
금산
난타
271
알렉세이
하후돈
Hor
Pur
오웬
야고
현과
학비
##ior
미발
당사
금사
중앙부
Second
##갱어
도플갱어
조군
성나
바티스타
맞은편
Us
커세어
국제법
마쿠
연작
##골목
리턴즈
##앵글
##KE
제프리
김석
와카야마
금리
청정
침례
268
miss
주구장
항생
폴드
뻔히
주구장창
Oper
칼슘
베일리
마천루
##나물
##타나
작업장
셧아웃
지법
갔다
리무진
가꾸
##애자
왜군
세기말
소지품
갔다오
지느러미
신드
휘장
003
핵미사일
수집가
스즈카
법조인
kW
우러
에무
효성
법대
##베라
2800
HERO
보패
치진
##ery
글귀
여호
이종범
지크프리트
AU
대웅
문맥
친히
Cho
특촬물
얽매이
하찮
##티엄
펜티엄
호흡기
이범호
##니카
신일본
##쿠보
Ju
등불
##바꾸
스티어
레스큐
##YO
경춘
임성
미확
비빔
.?
드라고
리츠코
영락없
Bill
미온
타령
##프스키
##ASH
트라이앵글
##Boy
츠노
여성향
##충전
##젤로
노자
##마켓
각개
젊음
강정호
경차
단풍
변변
니켈
아웃사이
Radio
아웃사이더
Know
악세서리
##ating
성장기
1889
하물며
공법
세피
##슈타
415
롯데월드
교도관
기슭
다현
매립
백정
빼어나
##꼭
한일
##부쿠로
무한정
고요
다든가
고노
외판
코메
고우키
##보성
반미
로터
투병
쇼타로
##던스
거침없이
재충전
손주
아츠코
big
##KA
하중
부득이
리퀴
국명
리미터
점성술
최수
불고기
머금
황교
궁사
모더
위자
##레이트
##홈
마사코
미군정
마이크로
서강대
##cy
##퀀
알베르
냅두
Gre
PART
어태
##미널
내키
슈투
하이데
헬름
아슈
영식
관서
박력
음독
준말
착실
마틸다
헉
신겐
청송
Thank
Vita
거실
학당
슈미트
##stal
유일무이
##OTHER
Ki
이발
어림
##라시
여야
표차
값싸
장부
감차
스탈
렌지
그레고
동대구
미케
287
through
뼈대
싸이코
공덕
##전등
해법
카림
서른
배재
국민정부
맥시멈
===
치곤
에이트
##ael
이능
금제
태양광
반지름
바네
역사가
널널
1870
아케미
아유무
##만장
##카이저
MOM
시무
##티에
##공산
축약
켄신
이끼
여초
포용
자유도
퇴계
의무병
석가모니
##하타
##거품
김풍
휘어지
김정우
신앙심
나마
치장
부르주
475
퀸시
브루드
South
Right
경기병
순욱
베히
수풀
중문
탈선
하이스쿨
Vers
문득
##텔레스
블로거
개정판
다로
패튼
할퀴
##iko
조리개
꽁꽁
MAR
불후
체인지업
아드리아
Sign
Walk
강석
박대
중간중간
기하급수
포에
##역학
아야네
Wel
티라
블럼
몰카
응원단
##uff
스테파니
주사기
리암
코넬
메뚜기
수원역
마츠오카
루시드
##사건
코야마
현충
박이
관계없
징조
##67
조전
소독
성좌
##버러
##퉁이
괴한
핏줄
가평
피조
풀어놓
폭풍우
리네
변국
##imate
끌어내리
세인트루이스
제제
현생
항렬
DOS
DREAM
상작
318
디나모
나방
바키
소타
##타리오
저해
투아
다이쇼
순양전함
리튬
##프스
알토
Sin
##하트
요트
저수
산개
항공편
정의감
740
Sa
교문
친자
머스탱
아리스토텔레스
시퀀
수건
천인
야쿠모
안치홍
Land
기우
소이치로
##hel
묘호
빵집
Mid
라던지
이찬
모텔
레이프
TUN
홀더
꼭지
브뤼셀
##대전
라플
혈투
위도
갬
톳
액터
LIG
헥토르
대주주
+,
VV
환시
흑자
무지하
맴돌
Born
Cross
##기아
미에
칫
남베트남
식욕
##usion
Qual
##uz
무속
입안
##개발
별빛
Where
바꿔치기
RW
give
월남
최윤
타이라
590
경향신문
EDG
뇨
이레
딧
꼬치
오프사이드
모이라
##ters
아차
##다임
날조
츠키
이야
지팡
노구
##딩크
살인자
에른스트
답니다
조소
히지
##네그로
막심
끌려오
십이
휴식기
라엘
극작
패러다임
아낌
절기
엘리시
수줍
알콜
##바도르
네빌
지배하
##axy
Jr
Lab
개의
병무
309
##stic
연선
현도
악순환
하이드라
이웃집
매섭
결실
##꾸러기
로버츠
Electrical
유생
친형
난방
뻗치
부녀자
보훈
전회
우완
안재
교동
직류
관리국
IL
도매
호퍼
XG
아오모리
대마초
일회용
신랑
완파
암살단
디스토
쇠뇌
카스가
케임브리지
##도록
호동
잡이
축산
조승우
소신
우도
신오
루도
259
다이몬
##ANT
지병
지와
발원
Pres
길버트
불사신
Speed
XIII
조식
성심
서핑
양산시
##ces
개역
필중
기념품
##킨슨
Original
아나톨리아
마무
실프
노벨상
마정
아프간
##come
스모크
애덤스
불변
쇼고
이효리
유급
피넛
연신
계명
퇴위
후쿠오카현
시진핑
에르난데스
황건적
나침반
포교
##레아
히딩크
too
롯데마트
의문점
Some
오명
동질
##빌라이
시의
고승
동태
신궁
샤라
송영
282
몽크
##꾸역
엔리
레인즈
꾸역꾸역
조진
보이콧
##왕후
당뇨병
Forever
TM
연시
김효
해산물
이방인
##수선
##정보
공론
소하
타에
샤론
온실
숍
자유투
타케다
리벨
라치오
이태양
주치
강현
##북면
힐데
원더걸스
떄문에
불출
승상
##ora
켄타로
노량진
Mill
##fer
바레인
가역
핏빛
취약점
run
##뇰
Circ
바일
말벌
역수
황성
최전선
세리아
역경
본색
헤로
int
신조어
"-
West
##챙이
야노
##버스터
그러다
전사자
리베로
현수막
탈리아
가모
중보
배꼽
진우
촘
샐리
청록
나카타
플로라
모비스
버틀러
김옥
팝업
키리코
인건
근절
급부상
END
짜장면
##냉
##바바
식수
##막히
압구
넥톤
##이스트
##리지
조타
단두
음유
첫눈
육손
올랜
앙헬
집단군
1884
알렉산드라
노도
플레이스
환전
보상금
그레인
프레시
묵살
Collection
god
나베
외삼
야마노
으려다
협력자
라일라
이스타
위헌
세하
파쇄
승단
는다거나
별관
미치코
이치현
애드립
히다카
일장
성내
여몽
리호
##창호
##raw
사법부
미시시피
채무자
오리아나
문물
##셔리
##ji
신판
317
##akes
연주회
Shin
럭셔리
류중
탐내
옆면
네덜란드어
##here
이족
질기
밸류
##룩스
read
호그와트
Extra
비위
이병규
몬테네그로
FP
시편
가뿐
일기장
리시버
VOL
##당선
##공신
##호테
##세르크
체스터
신대륙
신계
브라보
닉슨
아야세
KL
가파르
노총
##디부아르
토고
갑각
모자르
##셔스
초대장
저작물
코트디부아르
Episode
잡아당기
##yl
수려
빠짐없이
지구인
##돈나
대원군
뷰어
미추
나경
##키드
##마타
민스
중요도
제스처
화풀이
무득점
강태
모노레일
대작전
캐터
기관지
니시무라
##큘럼
원석
입헌
##랄라
Wild
스탄
호건
오카베
콘스탄티노폴리스
유종
불순
존엄
칸타
크로마
오오츠카
브로드웨이
불시착
Award
size
##vin
배설
티엘
검단
물러가
정우람
더위
네스트
가입자
김성주
##ipp
카게야마
#==
COL
pack
장모
끈끈
할로우
두근거리
라운지
수혜자
이마스
도저
머리띠
답장
356
모리슨
LT
들판
도킹
리도
안쓰럽
탁자
TRPG
전말
적출
장권
픽시브
경영진
해적선
가디
장태
산신
##live
##쩔
수경
##평리
전근대
서한
##실험
에어로
휴학
커리큘럼
원샷
로치
역겹
298
미하엘
279
펜던트
선지자
Dynam
video
코보
##데자
골자
오카야마
스톡홀름
경색
해시
재지
악성
온타리오
little
신보
파로
카와이
JS
Pet
POWER
htm
성찬
로베르
친딸
창업주
치토세
Iron
OL
car
가극
정희
안목
누카
아트록스
가속도
##HO
유장
카파
마사오
청소부
리서치
생화학
스타이
혹성
핵탄두
##캐로
보관소
기정사
부심
비무장
##고비나
##체고비나
물병
정상인
수십만
기정사실
하아
고배
카잔
속어
티티
차이나
스컴
쩔쩔
기말
명회
약관
백금
향로
한성부
피폐
서천
로랑
키츠
검수
느닷
##ese
##받아치
보수주의
바운스
인덕
외고
양승
씹히
리우데자
American
리우데자네이루
이혜
가나다
탈북자
오스트리
블리스
SoC
##UMI
흉내내
컨버터
##캐롤라이나
PRE
Ray
들먹이
리그컵
기모노
도다
##고시
동과
장차
준코
##edia
##벼락
전병
상심
##노동
009
굴러다니
선양
데블
##승지
확연
Prot
꼰대
RNA
friend
##ios
배영수
갈매기
아키모토
수호천사
청탁
백과사전
##ᆺ물
##유사
포우
캐피탈
김천시
건널
프로즌
##처치
##깨우
건널목
점퍼
##저냥
함흥
외신
테트리스
후쿠이
댄싱
하라다
KG
발길
레더
식초
대표단
폐역
##자치단체
##부패
Chall
이와타
##날린
전뇌
개사
후렴
278
296
부정부패
매몰
춘향
류중일
may
라네
##깍
일깨우
조중
##드레날린
미성숙
##볕
하후연
세르히오
다와
부왕
파이로
낙오
Fa
이카리
지회
##사쿠
강선
종장
Child
승조원
유익
위배
289
레버쿠젠
하코다테
둑
아보
장마
칼초
헬륨
론드
Gar
기가
도야마
성정
콧수염
저전
스핑크스
제미니
문산
속담
플린
910
와카바
문호준
다든지
##공학
##태평
주먹밥
TNA
아라드
1885
##IZ
##FE
홍시
스포르
올랜도
거사
동음
선인장
Eyes
절충
김재호
카운트다운
비올라
##cc
인부
성토
269
comp
가브
역주
혹한
마스터스
룸메이트
바젤
이동국
조총
물기
##라이드
짜르
리스본
이성열
연산자
##**
명반
##루즈
그냥저냥
스토킹
민병헌
경시청
골판지
File
고열
평형
##웃음
융통
black
##ko
하태
##이츠
도당
카이사
people
네이마르
##랜더
런들
문지기
쇼지
윤희
Inst
작사가
Lord
공권력
차역
##비에
곤잘
나위
경종
##물질
이베이
과소
아르토
카즈토
mon
모랄
쓰촨
알베르트
이봐
빨아먹
금강산
숯
조규
치노
급작
방문객
턱없이
##oid
오목
##비츠
루브
순애
간청
협소
2024
##메이커
Hall
WBC
구전
리소스
급박
국가원수
##풍선
아카데미상
##리르
수필
소포
구파
처박히
심성
손재주
020
오카자키
##주얼
푸아
헌제
장원준
페르디난트
공보
인편
타테
비행대
리카르도
소바
우표
교통카드
sur
전가
증서
듄
##aki
##REAK
안무가
보름달
이데아
##하우스
부엉이
개굴
패링
걸출
센텀
##aeb
뒤흔들
미확인
기급
CONC
##por
바케
유달리
##유희
광원
월계
##두라스
온두라스
스기타
보시
에이리
에스텔
찰지
어벤저스
지파
소코
민물
프리깃
교육학
단체장
으스
오승환
Lim
대들
##사메
오파
차인
호실
야훼
참새
채영
나이키
Mich
mind
전입
전희
고명
느림
붙들
지휘부
베르나르
참작
루체
은닉
귀여
휴즈
츠츠
내리막
Ze
##궈
카슈
캐주얼
나이토
칼집
돌격대
##이어티
Plat
아드레날린
고환
행정관
그나
유두
훌린
쾌활
시아파
COST
대항해시대
##aa
급전
깨부수
감염증
미적분
앵무새
RM
fun
사하라
중합
버질
렉터
##심원
직각
히마
새뮤
슈와
2300
EG
제창
소풍
장경
호죠
재치
NFC
지반
학동
형량
용수
교육자
336
Arch
동반자
조반니
##IVER
자영
당구
남초
##와키
##트르
##행성
키라리
메키
몸담
사형수
텃밭
사대
다혈
##도라
병약
몰수
##삼키
소대원
스완지
RK
che
장어
김도우
친환경
운전석
신분당선
정전식
예우
쿠소
##andy
##멜로
소사이어티
##쭈
##일점
하루나
정용
상명
레우스
008
엄정
니시키
Vf
2030
백운
아킬레스
실패작
집어삼키
용가
농축
기능사
아키하바라
=,
방조
후마
##연기
예절
일본도
곡예
답하
루스벨트
LH
수현
방도
폭발력
박민우
압록
빌더
베르디
홀딩스
콜린스
바움
##제트
협찬
ElectricalBoy
삑
##꺽
뭇
치비
##크론
전년도
TER
폭장
##lear
매니악
스턴스
미라쥬
마쓰다이라
그럴
원균
로베르트
탐방
국고
히비
Ban
Mart
속셈
게임차
백모
나치오
플렉스
강병
초롱
남장
산불
츠구미
링링
마사지
##끓
메르스
수감자
인회
라고
혼령
벤제
아우렐
MCU
아랑곳
군의관
가레스
조안
고액
양질
격화
득점력
이주민
##그래피
Rh
공제
포춘
##추리
##맞이
고고학자
조인성
mag
위버
입담
순경
레이건
돈독
##istory
def
벼랑
선취점
의향
외질
##뿍
##불교
총기류
외동딸
후견인
##빽
판치
##추얼
품위
##개토
접종
##폭스
굴하
숭실
##스톱
위연
물거품
투데이
극치
곤봉
444
브리기
그럴싸
가논
경무
룩스
반투
##를로
충전기
측정기
다혈질
보고
집념
배기량
DRA
지존
로한
황충
책사
아마게
이케부쿠로
##파인더
베크
마음속
아라곤
대법원장
빽빽
시퀀스
도일
외가
산역
궁기
주나라
##미리
##동사
서너
##놀림
띄어쓰
둔감
ass
구심
281
컨설팅
벤제마
카락스
쿠치
브리타니아
fire
par
부응
저마다
민호
빙자
멜로
에디슨
흥선대원군
항생제
imp
안시
앞바다
690
용기병
하카타
사부로
에타
박시
벤투
##자르
##람스
변성
광개토
웨슬리
망정
토모미
##ISE
##LV
##이야기
체벌
APEX
Bas
가용
마론
데우
국화
감점
닷지
서성
명가
종가
목판
006
핀잔
##xy
이티
시찰
영과
와리오
핵실험
골목길
모국어
wr
하즈키
조재
도축
다이어리
자료실
지리산
하일
산양
297
양구
합전
팩터
EXE
곰팡이
보면
부축
명과
호국
코뿔소
접합
##rie
이로하
뤄
유현
도재욱
북측
수화
도탄
쿠다
##ising
384
레드불
326
음양사
독약
##cept
Bon
멤
니모
게스
font
안위
권외
레이즈
Ball
동공
초성
식히
폴리곤
권위주의
관악구
히이라기
Dist
WD
노파
파하
군무
빛깔
쥐어짜
##56
적수
노현
##ᆯ리니
##받이
콤비네이션
김유정
나탈리아
증산
##쿠마
급급
지리학
##ii
##대성
열거
천거
히로아키
주먹질
RD
리피
의태
라피스
홍천
OH
구포
혹여
잇달
읍내
Round
sing
깁스
##크림
형질
외손
##ᆷ피스
스카프
호소다
##르기스
이데오
채태인
철기
406
##클라
770
고세이
랜더
가와사키
새뮤얼
지탄
스네이
##인명
타크
카즈오
##mar
트집
##ddle
냉면
파레
육전
익룡
대관식
미덕
정모
차녀
창백
순정만화
적설
장고
와이즈
박정현
헤르체고비나
Royal
대권
정판
##아채
##토무
현우
양력
##ouri
낙엽
낚아채
요금소
슈가맨
리벨리온
##TO
조스
차수
피디
면전
비대칭
수족관
스테파노
TJ
보노
스벤
키르기스
독학
피조물
Wo
아틀리
교우
sub
카발
신마
코오
코츠
흐릿
##른베르크
리자몽
\[
어조
조윤
초속
임파
##reme
쿨러
##vers
복합체
사절단
내디
워렌
홍백
생활비
브리티시
성전환
로큰
Guard
우현
##브리아
츠시
마가렛
단두대
마돈나
##즈미
영세
##호란
삼성그룹
still
토벌전
GDI
전준
##푸리
이와테
일말
카포
프시
온과
319
부여군
닛타
알폰소
브리기테
Our
##ault
하소연
비보
아마미
##oke
익스플로
아울렛
익스플로러
탄광
할애
KAC
테네시
손전등
은발
앙숙
헤비메탈
Parad
마샬
##BL
자괴
노로
데니
##inity
접히
코노미
보이저
예멘
빚어지
김재현
HMS
주무
기선
상큼
##타주
음차
Nav
##교동
오현민
ft
이지만
화법
##레온
##acle
Cast
가곡
페스트
휴머
책자
옥황
where
마르크스주의
two
모래시계
경춘선
도큐
무왕
아무로
샐러리
박건우
카산드라
##of
##티드
더그
페터
포니테일
함경남도
사이좋
매킨토시
mac
군소
292
하이바라
파우더
Bell
아칸
##ener
윤하
Stop
토모에
꿰차
위트
안부
군락
김철
합본
와라
입장권
##iec
스몬
노상
옥좌
레스테
보안법
에뮬레이터
박헌영
HAPP
Luc
##ugh
티미
요시타카
히토시
약혼녀
내재
우타이
메구
아야지
아킬레
교통수단
도미노
고춧가루
비탄
포경
봉선
히라가나
파스텔
rpm
그리움
카세트
만신창
스며
정청
입금
샤프트
강릉시
박해민
헐리우드
군비
종시
임산부
##잔치
하여튼
제원
롤스터
##min
1850
난항
홍설
860
히타치
전초
상연
선라이즈
강룡
멤피스
컵라면
옮겨
센티넬
관현악단
카고
산둥
덕수
요시키
##땀
Far
거상
보궐
고바야시
에렌
##여왕
##푸드
하등
깅
무주
라벤
##민당
녹아들
혈청
ret
비수
독식
티치
삼국유사
유공자
VII
식료
투덜거리
렌트
철조
30000
sl
##이시
종북
박은
목회
엿보이
지소
사디
코버
과달
떠맡
볼셰비키
듬뿍
first
tell
적병
세관
##츠바
베츠
켜지
오벨리스크
세크
장량
요시아키
삼지
와전
씨스타
##아넘기
디렉
##악단
##ᆯ로기
Style
뇌신
항해사
이데올로기
내동
폭렬
||
유리아
공해
의정
역린
##데우스
골인
##림픽
흑사병
무브
만월
쉬프
음악실
패럴림픽
낚이
네즈
Stars
행패
심수
합참
은유
석양
바이브
참모장
tri
##피카
잔나
연대장
마스미
강동구
VO
초이스
##alth
팔콘
국민학교
이치노세
글로리아
피오나
로큰롤
Alex
##똘
주니
요츠바
##모프
##락부
품격
유키나
람다
서장훈
온건파
##ever
미연
리링
신월
버나드
니노
블린
자마
금품
환하
##샤오
LEVEL
사우론
Ur
라보
중재자
제군
돌프
산청
겸직
스테로이드
크리에이티브
##르츠
수나라
무희
타트
용마
그래비티
은사
결정체
포부
##레알
색인
이씨
일과
번즈
용해
투석
약소
밥줄
으레
ref
포도당
그라
화정
인품
등부
신랄
디브
휘청
화강암
아난
외식
루츠
연주가
del
이루
남우
히루
##배추
백자
담론
##iter
##찌개
무인기
FU
Jump
##ᆫ시
도토리
타이푼
Golden
대야
들끓
피라
장서
영걸
함의
네이팜
간선버스
후훗
송창식
이바지
상파
언동
커쇼
아산시
매디슨
집무실
잡다
쿠르트
욱일기
열람실
요이치
배짱
덕아웃
아탈란
바네사
무브먼트
bec
##인구
넘나드
염화
##바이크
real
선제후
##제일
아방
수포
중신
신이치로
야라
약학
폭정
곤살
##gar
고출력
프리뷰
어리둥
벤쳐
트래픽
Mob
어리둥절
HO
장외
네리
##닥거리
343
타카유키
아뢰
##자루
진서
분별
논술
Ref
NEXT
##코로
보내오
잔기
풍족
기간제
app
##기병
간디
투시
커즈
머릿수
어퍼컷
콜럼버스
##가면
팀플레이
Conc
예배당
젓가락
제니스
장년
완다
앞발
516
뜰
레카
순결
##orrow
찬반
830
호쿠토
고물
타박
배합
##석탑
충렬
##애플
해안선
부르주아
Got
##ba
구례
토호
exp
마다가스카르
극비
아사노
올려놓
대당
증감
준주
스스무
정순
호성
교지
살의
총상
징후
##층석탑
Dear
문턱
레퍼
점진
헤르만
Code
토니아
꽃미남
오카모토
##akao
아지므로
서당
코고로
계량
군신
친위
황정
헷
스파르
카미유
가맹점
노안
노와
리신
북송
지상주의
아라카와
와일리
명문가
소작
재석
##영화
군산시
니이
셰필드
MSX
Ti
지피
킬라
활자
떠돌아다니
이간
만무
카요
신족
예종
천억
##걸리
겹쳐지
토스카
해적판
자책골
padd
##ㅋㅋ
베개
광휘
##ste
양성소
얕보
##리쿠
어대
수증
실신
코스터
병동
##링턴
재판장
시한부
대연
인덱스
산수
3200
엉성
하비에르
Mini
전유
영능
##파스
판문
ᆫ데요
##예술
촬영장
삥
##43
여분
리니지
라헬
나단
적벽
##슝
롤백
블록버스터
트레저
곤잘레스
성행위
선과
데자
불우
##핸드
판금
##덧
찬물
양산박
영남대
안중근
OUT
일차
비뉴
성진
스파게티
##trl
오에
페그
암드
291
크로커
모리타
트리스탄
Engine
Ros
~!!
##73
훙
then
실종자
##ternal
##나항공
화형
제노스
언저리
스트릭
아시아나항공
장타력
##uke
모우
설욕
331
트래비스
엔드게임
##under
##스태
양아버지
세계사
1001
일단락
힐다
칼리스타
소희
외톨
케모
수성구
서유기
##ARE
펠로
1888
키노시타
Flash
중의
고을
##연구
폐해
렌치
Rap
오존
도노
작열
북해
##글거리
허리띠
1871
레다
815
유성구
라미아
꺄
##ᆼ굴
기주
도제
성관
만석
우시오
쿠빌라이
351
컴팩트
앙골라
노점
군체
##패닉
벌목
회사원
아카바
히스패닉
안드레이
전등
박테리아
육사
검사장
STX
낭독
##ucky
섬멸전
Attack
적십자
윔
내다보
불합
류승
억류
늘어
졸전
펜리르
파피루스
교가
##갈기
위기감
콘스탄티노플
코소보
##주머니
포카
식판
축조
대졸
##uel
노모
구지
우발
토프
익주
에스페
장충
버진
레이버
습도
##못하
느닷없이
##문고
원당
현악
점토
난바
망전
늘이
pp
성상
선화
임계
갈증
이브라
김수현
html
Face
##kn
수구
명기
덕양
육탄전
##ule
##AV
##치산
고티
독차
창세
뉴타운
322
705
485
김영철
이지영
남녀공학
통계학
##ought
네이션스컵
other
대란
경은
브로스
##슛
하수구
렛츠
마라도나
타계
아서라도
최충
채권자
악덕
제트기
나바
무카이
발드
매표
북대
Princ
잽싸
가결
##보르
깨우치
바쿠간
남도
루퍼
서양인
얄짤
얄짤없
MIN
로다
선입
커드
취침
느릿
영유권
나영
후각
영제
봉승
묠
533
멍하니
손승락
크리스티아누
Away
점착
계산기
Chaos
황교안
Pri
##소디
의형제
특명
342
쥬스
중추원
?"
안가
사용량
골반
435
##눈물
그리스도교
background
카멜레온
간절히
염라대왕
레퍼토리
##GN
발부
##소득
파내
##피크
레비아
애절
과세
활짝
양주시
충칭
뮤츠
아키즈키
상점가
레비아탄
Fair
GOLD
명군
배팅
용례
오버래
공사장
잦아지
재건축
요하네스
생몰년
애꿎
Tell
##트가르트
정평
라간
철창
쇼팽
쁘띠
Galaxy
슈투트가르트
도민
응축
설레발
##케이트
##bat
시망
바바라
요기
코린
레모
양배추
타이르
울먹이
곤경
419
카시와
블레어
소홀히
인코딩
must
##천하
답례
찬드라
##hone
이츠카
부교
공터
종편
홍길동
##훈장
스트립
song
und
국인
열량
개최지
성전사
단짝
터로
음악회
부탄
노이어
잡스
##enz
집안일
포인터
사철
##사유
연개
403
윤곽
칼리파
Wave
act
왕왕
중국식
헬리오스
##iam
##ique
개점
말풍선
무라사키
DN
~,
##sung
바울
망고
야구팀
미야비
사마소
상상력
쟁점
기부금
정조준
휴게실
후루카와
TNT
BAT
자성
바스크
허기
Yo
##들레
##ORY
히메네스
윤성환
Ak
책장
##eca
아킬레우스
WOW
##42
세그
골동
준위
이끌어내
키라라
라던
영자
천신
기관사
재정부
NTR
자업자
백기
갈림
쑨원
군국주의
자업자득
WS
파타
에치
캐내
히바
행실
극렬
송승
요격기
그로스
서막
로킹
청중
염보성
나카야마
조용필
친일인명
친일인명사전
매국
역자
플립
심혈
칼뱅
록키
평안북도
모치즈키
'"
거병
무정부
야근
재심
양서
총학
절박
2025
퇴색
콩트
양성자
부랴
쿠션
허스키
흔쾌
국민은행
캣츠
Crazy
피눈물
연임
빛내
미카미
##berg
나나코
경성부
함경북도
Ven
성덕
출도
낙관
뒷이야기
##스티아
아리안
과도기
이택근
Lady
노심
스탑
505
오피스텔
성북구
padding
난국
드리우
삼국전
line
##Force
타전
카베
엔투스
염주
꿈속
##ript
뉘른베르크
비사
##세다
표제
야구팬
보병대
랩소디
CAN
##찜
이직
도독
메다
이동식
412
##셔닝
우스꽝
787
클로저
포지셔닝
PVE
##도그
미라지
성냥
매터
접두사
다카하시
##dom
도파
빈유
뒷골목
구자욱
hellojo
절개
어딨
대리석
조선왕조실록
노진
휙
세그먼트
안지
참의원
##박쥐
##ota
무소속
;;
free
장석
##려내
박광
급유
안타까
가부장
소학교
성군
랄라
ND
모략
비준
번리
형평
모드레드
료우
김종필
예수회
여차하면
IX
마흐
코에
친아들
##itter
##olding
외삼촌
Count
##땡
도륙
삼보
산도
검객
난립
##탈출
##amu
##채기
##abe
빗발
야스히로
은평구
LW
이항
팔콤
395
탈리야
성동구
HYP
Lin
##HA
연제
니트로
백악기
몸부림
버추얼
328
쬐
되도록
힉스
퀘이
후지모토
공작원
애완견
가독성
npc
##드라이
단판
에어리얼
Low
##리치
시문
잿빛
##메리
텍스처
우솝
Dawn
GUMI
사별
##무제
슈프
##ima
컨셉트
겁나
always
하하하하
외할아버지
fall
다빈
##omet
마리우스
밀림
부다페스트
break
남만
내려다보
내려앉
비공
포리
원이
최병
##프릭스
##합성
좌지우
기타프릭스
원정군
코코넛
과감히
##ruct
##체스코
파올로
좌지우지
상쾌
서안
복병
신경질
##토리코
막시밀리
극작가
MID
간만
HTML
박주영
시물
아퀴
주종
두리
참견
갖은
MBT
EVER
OZ
Wal
음직
어렴
레이아웃
세계선
도로공사
덜렁
515
##pha
##cat
캐럿
선거관리
가라테
평안남도
히지카타
선거관리위원회
border
##ᅯᆼ
적개
비츠
미나모토노
고성군
타타르
부르고
은의
혼신
상영관
이준석
class
이권
무쇠
##런드
선수상
곡도
찌푸리
##뿌요
뿌요뿌요
푸에르토리코
GV
find
래디
기근
타니아
낸시
형무소
관찰자
골칫거리
Element
스칸디나
갈림길
스칸디나비아
##ᆻ다가
추스
현지인
BN
lea
호통
박서
음정
앞지르
##ITION
김정민
로리콘
year
마히
##후무
참관
현대차
공주시
전무후무
ESC
파인애플
도레미
방청객
스파르탄
Train
미란다
비클
##통행
퇴보
뿔뿔
모하메드
David
지에
##그네
비만
요안
간다르
목도
눈덩이
스트레
옥타비아
Point
추신수
간다르바
앞길
서로마
쌍방
어버
모씨
##사항
문전
라일리
클링
겨울철
live
사만
오답
노코
신구
역효과
극진
헨더슨
ACL
흩날리
제너레이션
고성능
핍박
고속철도
메디컬
##mo
##FS
수역
에세이
체공
유민상
##전드
리시브
교보
환희
##ffect
달성군
훼이크
거제시
역모
점액
외척
민생
스펀지
빅리그
탯에
Tig
Vis
설산
새하
왕십리
심리학자
선풍기
다니까
##려먹
식충
홍석
하이네
브리즈
지층
다리아
플레잉
홍주
학살자
Adren
하숙
난파
기업가
##제르맹
Machine
화백
비술
##의식
번뜩
클라우스
서양식
이코마
독차지
사그라들
일인
등수
영매
쿠로다
이매진
그레고리오
생제르맹
반시
음각
익산시
얹히
부평구
흔쾌히
ROCK
정일
##틸리
##티보
##룽
배영
##파람
투박
##롄
판매고
399
쟌
##USH
슬리퍼
Evil
쑥대
##aeboo
Ring
##/-
경품
##레인지
##극상
Bul
DG
정과
장광
진부
본방
오리엔
mp
웁
손보
특수전
밤낮
project
dark
유학생
연세
회송
문부
평신
데이드
떠나보내
수도회
지상전
##꽂
show
넨
다원
적반
정육
엣
철원
암약
이지훈
엇비슷
리퀴드
팽이
자학
세레스
신스케
던컨
시가전
##태평양
Caeboo
Lea
해왕
혁명가
아야코
프란체스코
구치소
XM
ㅠㅠ
##펌
가타카
차도
솥
음운
##unt
고위직
아낌없이
##르겐
문답
관공
손등
카와사키
재래식
아하
##하장
부검
비크
회선
항공전
유영혁
괴로움
해부학
Fest
##곶
아이튠
근세
깨트리
옷장
섀시
뜯어먹
아이튠즈
Hon
##스윙
공경
타현
남조
사우전드
##크라테스
응급실
##sm
##뻑
우트
현기
프로야구
호스팅
서대문구
사속
대미
후송
니카이도
왁
지부장
협동조합
Block
사세
수유
한남
타비
버벅
군악
349
타카라
##팔트
멥
MIT
유림
라쿤
청천
kill
사아
어군
모코
오행
화웨이
##악산
활동가
전시관
소방차
플랑드르
눈여기
Bang
라데
##즈컨
치기
강재
예기
루지
503
풍조
트리니
##cho
##몽골
이스즈
블리즈컨
도살자
##스태프
##89
종과
샐
재단법인
마일즈
경보병
##러레이터
조잡
도니
선식
##두스
은월
더니만
언어유희
브로크
액셀러레이터
"~
하바
##붐
레시
##중력
502
질감
5500
나카가와
숙련자
head
적폐
부고
패주
레조
##런타인
아이라
와세다
밸런타인
무솔리니
HAPPY
새하얗
##87
주얼
릴라
히포
침울
감소량
##eck
아스팔트
1882
볼로냐
부르고뉴
LUK
소냐
341
##GM
유학자
성탄
직물
케르베로스
성부
산장
신청서
영문학
의술
##분해
콩쿠르
아브라함
노즈
성황
##소프트
허망
광역버스
TIME
정봉
반가
외대
벡스
북로
부산대
##oday
루이지애나
폼페이우스
##카운터
Rel
해충
계진
아마데우스
##idge
경산시
내보이
##티넨탈
폭소
철근
컨티넨탈
Stud
070
페이탈
후쿠시마현
FTA
Son
비노
경미
##코스트
군종
완봉
범상
섭리
지우개
가오슝
##지휘
사헌
박문
금새
친모
접미사
타입문
솟구치
가이드북
대국민
TI
고충
천주
허탈
짜릿
아키히토
슬림
발명가
안타까워하
러니
##국사
도금
성간
야로
##era
송현
숙녀
inline
##드롬
바스트
위촉
피즈
최인
##급부
팔랑
팔아넘기
353
부담없이
United
이만수
서랍
국문학
이채
오작
무츠키
치켜
파벨
키요시
복위
반대급부
낙랑
##팔이
##지방
장유
데브
관군
야르
체념
스트로스
자치체
균등
최준석
핸디캡
#.
이두
소카
장호
당해
##포타
터닝
나무라
오리사
아파치
인드라
##내미
Log
오동
알카
까스
##새끼
맺히
Book
구로구
Missouri
아틀리에
비앙
이시하라
1887
call
##lish
신드롬
##버니
돈벌이
헛스윙
보르도
쿠니오
Armor
사오토메
인카운터
백련
##바스티안
프티
강화군
박정석
기욤
신태일
세도
청렴
마시멜로
들여보내
##RS
밀키
코칭스태프
##모닉
생각없이
인도인
툭툭
win
나체
마경
모반
세베
추노
교구장
설전
##넴
293
판매자
이호준
##gu
네거
민진
괴성
##린내
##apon
덮밥
공공연
ever
##47
잣
등반
##만고
존칭
아야토
##묻히
파묻히
##은성
잇세
##쇼프
스포트라이트
##핌
아어
검호
##할라
사업장
##트롤
수선
##장군
개심
터전
다이얼
지형지물
꿀벌
묠니르
Bal
유약
노루
매미
쿠엔
류세이
윤용
브로커
호크아이
필하모닉
Jun
비조
양원
이자벨
무참히
다항식
지어
리샤
신림
배성
잡아오
난처
떠안
출입국
무라타
미세먼지
Wall
마세
보두
인비
영성
안토
포물
창업자
운전사
메소포타
메소포타미아
DIS
테임
##캅
레게
편승
옥천
카시와기
SAM
하극상
여가
처사
금남
브라우닝
스자
##IDIA
오비완
사헌부
독과
임수
환마
##난만
르마
교통량
MBN
진시황
쾅
의제
챔버
완만
Any
Box
GBA
거포
디오스
음침
신호장
프로페서
우메다
라테
패딩
입회
기억력
배틀러
조리법
만주족
##earch
##comm
Honey
##랭이
기신
고단
새미
베니스
안정환
뒷문
should
##쿼
요람
얼추
드러눕
염구
플라스마
비티
외도
필히
백귀
떠받
천진난만
##sw
후치
해경
왕징
MAG
최신작
차태현
##서기
알테
재봉
쿨라
사카타
이소룡
기막히
아자젤
Mat
개고생
뉴이스트
##멘토
마름
훔
송수
뉴욕주
이재원
영수증
Paul
Kh
유원
코덱
두스
폭뢰
##탄올
##암역
마스다
비아냥
리베라
##NER
가렌
봉고
아나스타샤
적반하장
상해
프랑스령
땅바닥
미카즈키
Deep
적법
한영
최규
넴
##페아
486
##ole
후천
발신
입장료
337
혈기
컴퓨팅
시원찮
Ca
Ham
Lie
돌핀스
검지
짐바
개막식
고담
원예
반목
승소
태왕
손석희
오버히트
보관함
경전선
정성훈
마르티네스
아류
상극
부로
단파
김덕
암모
숨어들
헌혈
##나잇
성곽
집행자
##ubeat
주워
삼미
먹거리
030
트윙
Please
노히트
심지
복고
측량
웬만큼
데스크톱
PUB
사니
직할시
헤메
##aken
##anced
SY
##성어
##무가
단양
##모르
레리
에스트
동두천
Jour
dam
인포
번창
북상
기억나
카이리
떡하니
죠지
옹주
1893
교향악단
뷰티풀
##soft
수재
자프
##마쓰
생수
성시경
숄더
IW
리메
풍운
##ira
번역기
##죽이
다그치
Pf
오물
고각
루치아
불합격
원스
강용
고등교육
카스텔
Kr
hel
고현
신서
##테우스
타이타
##슬란
찬가
##RAS
쿵푸
뜯어보
보검
호되
에페
완강
왔다가
455
##ident
왔다갔다
Sat
대판
티타임
##광석
##겨보
안전장치
야간전
보행자
카시오페아
Jin
##gn
유압
방비
베데스
삼위
Stay
할배
셰어
1892
에스페란
베데스다
ET
eyes
예스
옥시
요시오
핫도그
골프장
연두색
Soc
##시네마
신아
나오코
##금니
악사
Alt
이재용
빠져들
후임자
##궤도
뒷담화
니라
소명
방선
##ᆯ리즘
관두
스타스크림
꼬집
훈족
훈독
1886
역주행
수륙
데메
송하
아르티
소개팅
1883
사발
위클리
매운
재가
키야마
살인죄
##ᆫ들러
사림
미진
단죄
연출가
사상가
병무청
Touch
추장
둥둥
고질라
스프링필드
view
기출
녹차
퀴어
에스테
도미닉
압록강
삼위일체
Dom
VP
keep
##EG
압박감
깎아내리
정착민
카도카와
구국
진경
앰버
입부
브링
니화
##콘신
앙심
해독제
위스콘신
청양
벌처
찬밥
스칼라
SideM
탄자니아
비슈누
ZEX
##ᆺ길
훑
군위
외편
창천
헤헤
착실히
이승환
시사회
세실리아
분가
##매장
임동
Records
시차
미조
세차
코사카
##연장
재작
종묘
티파니
술자리
가로우
공군기지
대공국
##헴
##iano
만신창이
모비
상법
요긴
매시
패니
휘파람
노르만
언더그라운드
##ook
마창
구종
프로메
이블린
석기
빙고
신기루
명성황후
대교구
UAE
바텐
미후
타잔
평탄
유니언
택틱스
윙크
1891
발레리
연수원
커넥션
PASS
상비
동수
##식스
코펜하
키호
패스트푸드
코펜하겐
이름표
민나
켄터
SPOT
Ghost
소도
심시티
엄중
류이치
벌크
아리엘
이명기
Spirit
!'
Tor
어가
부락
회군
티안
삼양
취사
허허
##amond
번역자
아드리안
일렬
바토리
상설
##붓
우군
양평군
테라스
와치
노비타
김명운
뵙
##tainment
RTS
}{
##OB
대정
니엘
삭발
##iving
Asia
도겸
라이카
드래고
염료
##LT
토야마
권익
감독상
최고령
여름철
에리코
허영무
Five
의령
삼층석탑
육안
타나토스
클레멘스
Wake
home
##ua
##성사
강퇴
눈뜨
전기철도
미레이
무정
충주시
절도사
자연사
NHL
광동어
아웅
대생
유착
데시
코이즈미
루블
극상
최신형
우월주의
Digital
부역
면목
고은
건장
고득점
해주
##선언
변혁
364
이민호
유색
경구
고카이저
키친
12000
루소
다이치
421
클린업
찝찌
##가을
모병
제과
태산
절연
출고가
찝찝
추서
바이마르
슈퍼카
Yout
##orean
댄디
퉁퉁
도가니
누아
##함대
하이스트
낙뢰
부산물
##imes
라라라
Doctor
전준우
Turn
하미
이운
개경
서빙
예문
##투리
백경
풀럼
덕선
설과
창피
##착륙
펜타곤
##뜰
사문
존나
슈즈
##곡면
부채꼴
응급처치
HYPER
트윙클
거금
모멘트
문란
배추
##모비스
현대모비스
연락처
대뜸
##모음
감량
메시아
뒷심
신용카드
bad
후아
##프랑
실에
관도
팔달
르망
##aper
NX
다드
버클
##브웨
오래가
##콘서트
Sword
고난도
NVIDIA
Tit
모후
챗
봉천
캡처
이주하
##63
정철
행인
타이베리
332
잉글리
샤를로트
갈비뼈
타이베리움
National
수질
전출
오베
급성장
눈꽃
중앙은행
으려던
롤랜드
PSY
그럴싸하
한별
결핵
토모카즈
jubeat
하구
경리
무등
엠버
광운
지배인
김민우
벵거
카론
완도
352
털털
##ACE
EDGE
중장거리
김선빈
아다치
스구루
라니까
##민호
네크론
피노키오
PX
##nam
##르카
출사
##란도
##복지부
봉안
윤동
그레이브즈
Talk
전능
##포화
식기
나타샤
##덜랜드
est
어금니
자인
고타
##메즈
알리사
하루미
포가튼
##벤트
연초
카무
##카테
손짓
##itz
##스타파
료스케
얻어터지
리저브
용광로
##OG
미각
결석
##분열
##멓
붙히
제작소
올랭
견학
코토미
유강남
##리크
가스트
피임
서곡
아이바
죄목
369
엄격히
HM
수열
라타
용하
염체
CDMA
히라노
양천구
East
Name
인솔
우화
##코니
디미
허경민
범실
동작구
기품
##장소
무우
외박
유기체
웜홀
연심
start
바그다드
jpg
SUN
##시게
사파리
한잔
메틸
##누키
##roy
추계
호호
초절
룹
태상
##lash
fuck
주원
젝스
발할라
우열
학벌
외눈
리모컨
애국심
울릉도
기혼
최남
예린
##경궁
창가
##릿사
펌핑
랑그릿사
Bel
DU
일순
##아노
고학
서럽
##ergy
쿠로사와
시원시원
상한선
IA
kHz
동글
하이에나
381
종교인
Vict
사성
서산시
김관
울분
마음씨
신속히
이가라시
마빈
비프
연혁
불황
냉방
프렌치
흥국생명
sn
김완
##onely
벤피카
이재호
block
카롤
##여대
##ination
##ural
##를레
피아트
rad
##라치
329
##롤터
여전사
ESPN
이병렬
부원군
Monster
Perfect
지브롤터
사레
로타
으으
[...]
