[UNK]	0
[CLS]	1
[SEP]	2
[PAD]	3
[MASK]	4
!	5
"	6
#	7
$	8
%	9
&	10
'	11
(	12
)	13
*	14
+	15
,	16
-	17
.	18
/	19
0	20
1	21
2	22
3	23
4	24
5	25
6	26
7	27
8	28
9	29
:	30
;	31
<	32
=	33
>	34
?	35
@	36
A	37
B	38
C	39
D	40
E	41
F	42
G	43
H	44
I	45
J	46
K	47
L	48
M	49
N	50
O	51
P	52
Q	53
R	54
S	55
T	56
U	57
V	58
W	59
X	60
Y	61
Z	62
[	63
\	64
]	65
^	66
_	67
`	68
a	69
b	70
c	71
d	72
e	73
f	74
g	75
h	76
i	77
j	78
k	79
l	80
m	81
n	82
o	83
p	84
q	85
r	86
s	87
t	88
u	89
v	90
w	91
x	92
y	93
z	94
{	95
|	96
}	97
~	98
	99
ᄀ	100
ᄁ	101
ᄂ	102
ᄃ	103
ᄄ	104
ᄅ	105
ᄆ	106
ᄇ	107
ᄈ	108
ᄉ	109
ᄊ	110
ᄋ	111
ᄌ	112
ᄍ	113
ᄎ	114
ᄏ	115
ᄐ	116
ᄑ	117
ᄒ	118
ᅡ	119
ᅢ	120
ᅣ	121
ᅤ	122
ᅥ	123
ᅦ	124
ᅧ	125
ᅨ	126
ᅩ	127
ᅪ	128
ᅬ	129
ᅭ	130
ᅮ	131
ᅯ	132
ᅰ	133
ᅱ	134
ᅲ	135
ᅳ	136
ᅴ	137
ᅵ	138
ᆨ	139
ᆩ	140
ᆫ	141
ᆭ	142
ᆮ	143
ᆯ	144
ᆷ	145
ᆸ	146
ᆹ	147
ᆺ	148
ᆻ	149
ᆼ	150
ᆽ	151
ᇀ	152
ᇂ	153
⫸	154
⭧	155
ㄱ	156
ㄲ	157
ㄳ	158
ㄴ	159
ㄵ	160
ㄶ	161
ㄷ	162
ㄸ	163
ㄹ	164
ㄺ	165
ㄻ	166
ㄼ	167
ㄽ	168
ㄾ	169
ㄿ	170
ㅀ	171
ㅁ	172
ㅂ	173
ㅃ	174
ㅄ	175
ㅅ	176
ㅆ	177
ㅇ	178
ㅈ	179
ㅉ	180
ㅊ	181
ㅋ	182
ㅌ	183
ㅍ	184
ㅎ	185
ㅏ	186
ㅐ	187
ㅑ	188
ㅒ	189
ㅓ	190
ㅔ	191
ㅕ	192
ㅖ	193
ㅗ	194
ㅘ	195
ㅙ	196
ㅚ	197
ㅛ	198
ㅜ	199
ㅝ	200
ㅞ	201
ㅟ	202
ㅠ	203
ㅡ	204
ㅢ	205
ㅣ	206
가	207
각	208
갂	209
갃	210
간	211
갅	212
갆	213
갇	214
갈	215
갉	216
갊	217
갋	218
갌	219
갍	220
갎	221
갏	222
감	223
갑	224
값	225
갓	226
갔	227
강	228
갖	229
갗	230
갘	231
같	232
갚	233
갛	234
개	235
객	236
갞	237
갟	238
갠	239
갡	240
갢	241
갣	242
갤	243
갥	244
갦	245
갧	246
갨	247
갩	248
갪	249
갫	250
갬	251
갭	252
갮	253
갯	254
갰	255
갱	256
갲	257
갳	258
갴	259
갵	260
갶	261
갷	262
갸	263
갹	264
갺	265
갻	266
갽	267
갾	268
갿	269
걀	270
걁	271
걂	272
걃	273
걄	274
걅	275
걆	276
걇	277
걈	278
걉	279
걊	280
걋	281
걌	282
걍	283
걎	284
걏	285
걐	286
걑	287
걒	288
걓	289
걔	290
걕	291
걖	292
걗	293
걙	294
걚	295
걛	296
걝	297
걞	298
걟	299
걠	300
걡	301
걢	302
걣	303
걤	304
걥	305
걦	306
걧	307
걨	308
걩	309
걪	310
걫	311
걬	312
걭	313
걮	314
걯	315
거	316
걱	317
걲	318
걳	319
건	320
걵	321
걶	322
걷	323
걸	324
걹	325
걺	326
걻	327
걼	328
걽	329
걾	330
걿	331
검	332
겁	333
겂	334
것	335
겄	336
겅	337
겆	338
겇	339
겈	340
겉	341
겊	342
겋	343
게	344
겍	345
겎	346
겏	347
겐	348
겑	349
겒	350
겓	351
겔	352
겕	353
겖	354
겗	355
겘	356
겙	357
겚	358
겛	359
겜	360
겞	361
겟	362
겠	363
겡	364
겢	365
겣	366
겤	367
겥	368
겦	369
겧	370
겨	371
격	372
겪	373
겫	374
견	375
겭	376
겮	377
겯	378
결	379
겱	380
겲	381
겳	382
겴	383
겵	384
겶	385
겷	386
겸	387
겹	388
겺	389
겻	390
겼	391
경	392
겾	393
겿	394
곀	395
곁	396
곂	397
곃	398
계	399
곅	400
곆	401
곇	402
곈	403
곉	404
곊	405
곋	406
곌	407
곍	408
곎	409
곏	410
곐	411
곑	412
곒	413
곓	414
곔	415
곕	416
곖	417
곗	418
곘	419
곙	420
곚	421
곛	422
곜	423
곝	424
곞	425
곟	426
고	427
곡	428
곢	429
곣	430
곤	431
곥	432
곦	433
곧	434
골	435
곩	436
곪	437
곫	438
곬	439
곭	440
곮	441
곯	442
곰	443
곱	444
곲	445
곳	446
곴	447
공	448
곶	449
곷	450
곸	451
곹	452
곺	453
곻	454
과	455
곽	456
곾	457
곿	458
관	459
괁	460
괂	461
괃	462
괄	463
괅	464
괆	465
괇	466
괈	467
괉	468
괊	469
괋	470
괌	471
괍	472
괎	473
괏	474
괐	475
광	476
괒	477
괓	478
괔	479
괕	480
괖	481
괗	482
괘	483
괙	484
괚	485
괛	486
괜	487
괝	488
괞	489
괟	490
괠	491
괡	492
괢	493
괣	494
괤	495
괥	496
괦	497
괧	498
괨	499
괩	500
괪	501
괫	502
괬	503
괭	504
괮	505
괯	506
괰	507
괱	508
괲	509
괳	510
괴	511
괵	512
괶	513
괷	514
괸	515
괹	516
괺	517
괻	518
괼	519
괽	520
괾	521
괿	522
굀	523
굁	524
굂	525
굃	526
굄	527
굅	528
굆	529
굇	530
굈	531
굉	532
굊	533
굋	534
굌	535
굍	536
굎	537
굏	538
교	539
굑	540
굒	541
굓	542
굔	543
굕	544
굖	545
굗	546
굘	547
굙	548
굚	549
굛	550
굜	551
굝	552
굞	553
굟	554
굠	555
굡	556
굢	557
굣	558
굤	559
굥	560
굦	561
굧	562
굨	563
굩	564
굪	565
굫	566
구	567
국	568
굮	569
굯	570
군	571
굱	572
굲	573
굳	574
굴	575
굵	576
굶	577
굷	578
굸	579
굹	580
굺	581
굻	582
굼	583
굽	584
굾	585
굿	586
궀	587
궁	588
궂	589
궃	590
궄	591
궅	592
궆	593
궇	594
궈	595
궉	596
궊	597
궋	598
권	599
궍	600
궎	601
궏	602
궐	603
궑	604
궒	605
궓	606
궔	607
궕	608
궖	609
궗	610
궘	611
궙	612
궚	613
궛	614
궜	615
궝	616
궞	617
궟	618
궠	619
궡	620
궢	621
궣	622
궤	623
궥	624
궦	625
궧	626
궨	627
궩	628
궪	629
궫	630
궬	631
궭	632
궮	633
궯	634
궰	635
궱	636
궲	637
궳	638
궴	639
궵	640
궶	641
궷	642
궸	643
궹	644
궺	645
궻	646
궼	647
궽	648
궾	649
궿	650
귀	651
귁	652
귂	653
귃	654
귄	655
귅	656
귆	657
귇	658
귈	659
귉	660
귊	661
귋	662
귌	663
귍	664
귎	665
귏	666
귐	667
귑	668
귒	669
귓	670
귔	671
귕	672
귖	673
귗	674
귘	675
귙	676
귚	677
귛	678
규	679
귝	680
귞	681
귟	682
균	683
귡	684
귢	685
귣	686
귤	687
귥	688
귦	689
귧	690
귨	691
귩	692
귪	693
귫	694
귬	695
귭	696
귮	697
귯	698
귰	699
귱	700
귲	701
귳	702
귴	703
귵	704
귶	705
귷	706
그	707
극	708
귺	709
귻	710
근	711
귽	712
귾	713
귿	714
글	715
긁	716
긂	717
긃	718
긄	719
긅	720
긆	721
긇	722
금	723
급	724
긊	725
긋	726
긌	727
긍	728
긎	729
긏	730
긐	731
긑	732
긒	733
긓	734
긔	735
긕	736
긖	737
긗	738
긘	739
긙	740
긚	741
긛	742
긜	743
긝	744
긞	745
긟	746
긠	747
긡	748
긢	749
긣	750
긤	751
긥	752
긦	753
긧	754
긨	755
긩	756
긪	757
긫	758
긬	759
긭	760
긮	761
긯	762
기	763
긱	764
긲	765
긳	766
긴	767
긵	768
긶	769
긷	770
길	771
긹	772
긺	773
긻	774
긼	775
긽	776
긾	777
긿	778
김	779
깁	780
깂	781
깃	782
깄	783
깅	784
깆	785
깇	786
깈	787
깉	788
깊	789
깋	790
까	791
깍	792
깎	793
깏	794
깐	795
깑	796
깒	797
깓	798
깔	799
깕	800
깖	801
깗	802
깘	803
깙	804
깚	805
깛	806
깜	807
깝	808
깞	809
깟	810
깡	811
깢	812
깣	813
깤	814
깥	815
깦	816
깧	817
깨	818
깩	819
깪	820
깫	821
깬	822
깭	823
깮	824
깯	825
깱	826
깲	827
깳	828
깴	829
깵	830
깶	831
깷	832
깸	833
깹	834
깺	835
깻	836
깽	837
깾	838
깿	839
꺀	840
꺁	841
꺂	842
꺃	843
꺄	844
꺅	845
꺆	846
꺇	847
꺈	848
꺉	849
꺊	850
꺋	851
꺌	852
꺍	853
꺎	854
꺏	855
꺐	856
꺑	857
꺒	858
꺓	859
꺔	860
꺕	861
꺖	862
꺗	863
꺘	864
꺙	865
꺚	866
꺛	867
꺜	868
꺝	869
꺞	870
꺟	871
꺠	872
꺡	873
꺢	874
꺣	875
꺤	876
꺥	877
꺦	878
꺧	879
꺨	880
꺩	881
꺪	882
꺫	883
꺬	884
꺭	885
꺮	886
꺯	887
꺰	888
꺱	889
꺲	890
꺳	891
꺴	892
꺵	893
꺶	894
꺷	895
꺸	896
꺹	897
꺺	898
꺻	899
꺼	900
꺽	901
꺾	902
꺿	903
껀	904
껁	905
껂	906
껃	907
껄	908
껅	909
껆	910
껇	911
껈	912
껉	913
껊	914
껋	915
껌	916
껍	917
껎	918
껏	919
껑	920
껒	921
껓	922
껔	923
껕	924
껖	925
껗	926
께	927
껙	928
껚	929
껛	930
껝	931
껞	932
껟	933
껠	934
껡	935
껢	936
껣	937
껤	938
껥	939
껦	940
껧	941
껨	942
껩	943
껪	944
껫	945
껬	946
껭	947
껮	948
껯	949
껰	950
껱	951
껲	952
껳	953
껴	954
껵	955
껶	956
껷	957
껸	958
껹	959
껺	960
껻	961
껼	962
껽	963
껾	964
껿	965
꼀	966
꼁	967
꼂	968
꼃	969
꼄	970
꼅	971
꼆	972
꼇	973
꼈	974
꼉	975
꼊	976
꼋	977
꼌	978
꼍	979
꼎	980
꼏	981
꼐	982
꼑	983
꼒	984
꼓	985
꼔	986
꼕	987
꼖	988
꼗	989
꼘	990
꼙	991
꼚	992
꼛	993
꼜	994
꼝	995
꼞	996
꼟	997
꼠	998
꼡	999
꼢	1000
꼣	1001
꼤	1002
꼥	1003
꼦	1004
꼧	1005
꼨	1006
꼩	1007
꼪	1008
꼫	1009
꼬	1010
꼭	1011
꼮	1012
꼯	1013
꼰	1014
꼱	1015
꼲	1016
꼳	1017
꼴	1018
꼵	1019
꼶	1020
꼷	1021
꼸	1022
꼹	1023
꼺	1024
꼻	1025
꼼	1026
꼽	1027
꼾	1028
꼿	1029
꽀	1030
꽁	1031
꽂	1032
꽃	1033
꽄	1034
꽅	1035
꽆	1036
꽇	1037
꽈	1038
꽉	1039
꽊	1040
꽋	1041
꽌	1042
꽍	1043
꽎	1044
꽏	1045
꽐	1046
꽑	1047
꽒	1048
꽓	1049
꽔	1050
꽕	1051
꽖	1052
꽗	1053
꽘	1054
꽙	1055
꽚	1056
꽛	1057
꽜	1058
꽝	1059
꽞	1060
꽟	1061
꽠	1062
꽡	1063
꽢	1064
꽣	1065
꽤	1066
꽥	1067
꽦	1068
꽧	1069
꽨	1070
꽩	1071
꽪	1072
꽫	1073
꽬	1074
꽭	1075
꽮	1076
꽯	1077
꽰	1078
꽱	1079
꽲	1080
꽳	1081
꽴	1082
꽵	1083
꽶	1084
꽷	1085
꽸	1086
꽹	1087
꽺	1088
꽻	1089
꽼	1090
꽽	1091
꽾	1092
꽿	1093
꾀	1094
꾁	1095
꾂	1096
꾃	1097
꾄	1098
꾅	1099
꾆	1100
꾇	1101
꾈	1102
꾉	1103
꾊	1104
꾋	1105
꾌	1106
꾍	1107
꾎	1108
꾏	1109
꾐	1110
꾑	1111
꾒	1112
꾓	1113
꾔	1114
꾕	1115
꾖	1116
꾗	1117
꾘	1118
꾙	1119
꾚	1120
꾛	1121
꾜	1122
꾝	1123
꾞	1124
꾟	1125
꾠	1126
꾡	1127
꾢	1128
꾣	1129
꾤	1130
꾥	1131
꾦	1132
꾧	1133
꾨	1134
꾩	1135
꾪	1136
꾫	1137
꾬	1138
꾭	1139
꾮	1140
꾯	1141
꾰	1142
꾱	1143
꾲	1144
꾳	1145
꾴	1146
꾵	1147
꾶	1148
꾷	1149
꾸	1150
꾹	1151
꾺	1152
꾻	1153
꾼	1154
꾽	1155
꾾	1156
꾿	1157
꿀	1158
꿁	1159
꿂	1160
꿃	1161
꿄	1162
꿅	1163
꿆	1164
꿇	1165
꿈	1166
꿉	1167
꿊	1168
꿋	1169
꿌	1170
꿍	1171
꿎	1172
꿏	1173
꿐	1174
꿑	1175
꿒	1176
꿓	1177
꿔	1178
꿕	1179
꿖	1180
꿗	1181
꿘	1182
꿙	1183
꿚	1184
꿛	1185
꿜	1186
꿝	1187
꿞	1188
꿟	1189
꿠	1190
꿡	1191
꿢	1192
꿣	1193
꿤	1194
꿥	1195
꿦	1196
꿧	1197
꿨	1198
꿩	1199
꿪	1200
꿫	1201
꿬	1202
꿭	1203
꿮	1204
꿯	1205
꿰	1206
꿱	1207
꿲	1208
꿳	1209
꿵	1210
꿶	1211
꿷	1212
꿹	1213
꿺	1214
꿻	1215
꿼	1216
꿽	1217
꿾	1218
꿿	1219
뀀	1220
뀁	1221
뀂	1222
뀃	1223
뀅	1224
뀆	1225
뀇	1226
뀈	1227
뀉	1228
뀊	1229
뀋	1230
뀌	1231
뀍	1232
뀎	1233
뀏	1234
뀐	1235
뀑	1236
뀒	1237
뀓	1238
뀕	1239
뀖	1240
뀗	1241
뀘	1242
뀙	1243
뀚	1244
뀛	1245
뀜	1246
뀝	1247
뀞	1248
뀟	1249
뀠	1250
뀡	1251
뀢	1252
뀣	1253
뀤	1254
뀥	1255
뀦	1256
뀧	1257
뀨	1258
뀩	1259
뀪	1260
뀫	1261
뀬	1262
뀭	1263
뀮	1264
뀯	1265
뀰	1266
뀱	1267
뀲	1268
뀳	1269
뀴	1270
뀵	1271
뀶	1272
뀷	1273
뀸	1274
뀹	1275
뀺	1276
뀻	1277
뀼	1278
뀽	1279
뀾	1280
뀿	1281
끀	1282
끁	1283
끂	1284
끃	1285
끄	1286
끅	1287
끆	1288
끇	1289
끈	1290
끉	1291
끊	1292
끋	1293
끌	1294
끍	1295
끎	1296
끏	1297
끐	1298
끑	1299
끒	1300
끓	1301
끔	1302
끕	1303
끖	1304
끗	1305
끘	1306
끙	1307
끚	1308
끛	1309
끜	1310
끝	1311
끞	1312
끟	1313
끠	1314
끡	1315
끢	1316
끣	1317
끤	1318
끥	1319
끦	1320
끧	1321
끨	1322
끩	1323
끪	1324
끫	1325
끬	1326
끭	1327
끮	1328
끯	1329
끰	1330
끱	1331
끲	1332
끳	1333
끴	1334
끵	1335
끶	1336
끷	1337
끸	1338
끹	1339
끺	1340
끻	1341
끼	1342
끽	1343
끾	1344
끿	1345
낀	1346
낁	1347
낂	1348
낃	1349
낄	1350
낅	1351
낆	1352
낇	1353
낈	1354
낉	1355
낊	1356
낋	1357
낌	1358
낍	1359
낎	1360
낏	1361
낐	1362
낑	1363
낒	1364
낓	1365
낔	1366
낕	1367
낖	1368
낗	1369
나	1370
낙	1371
낚	1372
낛	1373
난	1374
낝	1375
낞	1376
낟	1377
날	1378
낡	1379
낢	1380
낣	1381
낤	1382
낥	1383
낦	1384
낧	1385
남	1386
납	1387
낪	1388
낫	1389
났	1390
낭	1391
낮	1392
낯	1393
낰	1394
낱	1395
낲	1396
낳	1397
내	1398
낵	1399
낶	1400
낷	1401
낸	1402
낹	1403
낺	1404
낻	1405
낼	1406
낽	1407
낾	1408
낿	1409
냀	1410
냁	1411
냂	1412
냃	1413
냄	1414
냅	1415
냆	1416
냇	1417
냈	1418
냉	1419
냊	1420
냋	1421
냌	1422
냍	1423
냎	1424
냏	1425
냐	1426
냑	1427
냒	1428
냓	1429
냔	1430
냕	1431
냖	1432
냗	1433
냘	1434
냙	1435
냚	1436
냛	1437
냜	1438
냝	1439
냞	1440
냟	1441
냠	1442
냡	1443
냢	1444
냣	1445
냤	1446
냥	1447
냦	1448
냧	1449
냨	1450
냩	1451
냪	1452
냫	1453
냬	1454
냭	1455
냮	1456
냯	1457
냱	1458
냲	1459
냳	1460
냴	1461
냵	1462
냶	1463
냷	1464
냸	1465
냹	1466
냺	1467
냻	1468
냼	1469
냽	1470
냾	1471
냿	1472
넀	1473
넁	1474
넂	1475
넃	1476
넄	1477
넅	1478
넆	1479
넇	1480
너	1481
넉	1482
넊	1483
넋	1484
넌	1485
넍	1486
넎	1487
넏	1488
널	1489
넑	1490
넒	1491
넓	1492
넔	1493
넕	1494
넖	1495
넗	1496
넘	1497
넙	1498
넚	1499
넛	1500
넜	1501
넝	1502
넞	1503
넟	1504
넠	1505
넡	1506
넢	1507
넣	1508
네	1509
넥	1510
넦	1511
넧	1512
넨	1513
넩	1514
넪	1515
넫	1516
넬	1517
넭	1518
넮	1519
넯	1520
넰	1521
넱	1522
넲	1523
넳	1524
넴	1525
넵	1526
넶	1527
넷	1528
넸	1529
넹	1530
넺	1531
넻	1532
넼	1533
넽	1534
넾	1535
넿	1536
녀	1537
녁	1538
녂	1539
녃	1540
년	1541
녅	1542
녆	1543
녇	1544
녈	1545
녉	1546
녊	1547
녋	1548
녌	1549
녍	1550
녎	1551
녏	1552
념	1553
녑	1554
녒	1555
녓	1556
녔	1557
녕	1558
녖	1559
녗	1560
녘	1561
녙	1562
녚	1563
녛	1564
녜	1565
녝	1566
녞	1567
녟	1568
녠	1569
녡	1570
녢	1571
녣	1572
녤	1573
녥	1574
녦	1575
녧	1576
녨	1577
녩	1578
녪	1579
녫	1580
녬	1581
녭	1582
녮	1583
녯	1584
녰	1585
녱	1586
녲	1587
녳	1588
녴	1589
녵	1590
녶	1591
녷	1592
노	1593
녹	1594
녺	1595
녻	1596
논	1597
녽	1598
녾	1599
녿	1600
놀	1601
놁	1602
놂	1603
놃	1604
놄	1605
놅	1606
놆	1607
놇	1608
놈	1609
놉	1610
놊	1611
놋	1612
놌	1613
농	1614
놎	1615
놏	1616
놐	1617
놑	1618
높	1619
놓	1620
놔	1621
놕	1622
놖	1623
놗	1624
놘	1625
놙	1626
놚	1627
놛	1628
놜	1629
놝	1630
놞	1631
놟	1632
놠	1633
놡	1634
놢	1635
놣	1636
놤	1637
놥	1638
놦	1639
놧	1640
놨	1641
놩	1642
놪	1643
놫	1644
놬	1645
놭	1646
놮	1647
놯	1648
놰	1649
놱	1650
놲	1651
놳	1652
놴	1653
놵	1654
놶	1655
놷	1656
놸	1657
놹	1658
놺	1659
놻	1660
놼	1661
놽	1662
놾	1663
놿	1664
뇀	1665
뇁	1666
뇂	1667
뇃	1668
뇄	1669
뇅	1670
뇆	1671
뇇	1672
뇈	1673
뇉	1674
뇊	1675
뇋	1676
뇌	1677
뇍	1678
뇎	1679
뇏	1680
뇐	1681
뇑	1682
뇒	1683
뇓	1684
뇔	1685
뇕	1686
뇖	1687
뇗	1688
뇘	1689
뇙	1690
뇚	1691
뇛	1692
뇜	1693
뇝	1694
뇞	1695
뇟	1696
뇠	1697
뇡	1698
뇢	1699
뇣	1700
뇤	1701
뇥	1702
뇦	1703
뇧	1704
뇨	1705
뇩	1706
뇪	1707
뇫	1708
뇬	1709
뇭	1710
뇮	1711
뇯	1712
뇰	1713
뇱	1714
뇲	1715
뇳	1716
뇴	1717
뇵	1718
뇶	1719
뇷	1720
뇸	1721
뇹	1722
뇺	1723
뇻	1724
뇼	1725
뇽	1726
뇾	1727
뇿	1728
눀	1729
눁	1730
눂	1731
눃	1732
누	1733
눅	1734
눆	1735
눇	1736
눈	1737
눉	1738
눊	1739
눋	1740
눌	1741
눍	1742
눎	1743
눏	1744
눐	1745
눑	1746
눒	1747
눓	1748
눔	1749
눕	1750
눖	1751
눗	1752
눘	1753
눙	1754
눚	1755
눛	1756
눜	1757
눝	1758
눞	1759
눟	1760
눡	1761
눢	1762
눣	1763
눤	1764
눥	1765
눦	1766
눧	1767
눨	1768
눩	1769
눪	1770
눫	1771
눬	1772
눭	1773
눮	1774
눯	1775
눰	1776
눱	1777
눲	1778
눳	1779
눵	1780
눶	1781
눷	1782
눸	1783
눹	1784
눺	1785
눻	1786
눼	1787
눽	1788
눾	1789
눿	1790
뉀	1791
뉁	1792
뉂	1793
뉃	1794
뉄	1795
뉅	1796
뉆	1797
뉇	1798
뉈	1799
뉉	1800
뉊	1801
뉋	1802
뉌	1803
뉍	1804
뉎	1805
뉏	1806
뉐	1807
뉑	1808
뉒	1809
뉓	1810
뉔	1811
뉕	1812
뉖	1813
뉗	1814
뉘	1815
뉙	1816
뉚	1817
뉛	1818
뉜	1819
뉝	1820
뉞	1821
뉟	1822
뉡	1823
뉢	1824
뉣	1825
뉤	1826
뉥	1827
뉦	1828
뉧	1829
뉨	1830
뉩	1831
뉪	1832
뉫	1833
뉬	1834
뉭	1835
뉮	1836
뉯	1837
뉰	1838
뉱	1839
뉲	1840
뉳	1841
뉴	1842
뉵	1843
뉶	1844
뉷	1845
뉸	1846
뉹	1847
뉺	1848
뉻	1849
뉼	1850
뉽	1851
뉾	1852
뉿	1853
늀	1854
늁	1855
늂	1856
늃	1857
늄	1858
늅	1859
늆	1860
늇	1861
늈	1862
늉	1863
늊	1864
늋	1865
늌	1866
늍	1867
늎	1868
늏	1869
느	1870
늑	1871
늒	1872
늓	1873
는	1874
늕	1875
늖	1876
늗	1877
늘	1878
늙	1879
늚	1880
늛	1881
늜	1882
늝	1883
늞	1884
늟	1885
늠	1886
늡	1887
늢	1888
늣	1889
늤	1890
능	1891
늦	1892
늧	1893
늨	1894
늩	1895
늪	1896
늫	1897
늬	1898
늭	1899
늮	1900
늯	1901
늰	1902
늱	1903
늲	1904
늳	1905
늴	1906
늵	1907
늶	1908
늷	1909
늸	1910
늹	1911
늺	1912
늻	1913
늼	1914
늽	1915
늾	1916
늿	1917
닀	1918
닁	1919
닂	1920
닃	1921
닄	1922
닅	1923
닆	1924
닇	1925
니	1926
닉	1927
닊	1928
닋	1929
닌	1930
닍	1931
닎	1932
닏	1933
닐	1934
닑	1935
닒	1936
닓	1937
닔	1938
닕	1939
닖	1940
닗	1941
님	1942
닙	1943
닚	1944
닛	1945
닜	1946
닝	1947
닞	1948
닟	1949
닠	1950
닡	1951
닢	1952
닣	1953
다	1954
닥	1955
닦	1956
닧	1957
단	1958
닩	1959
닪	1960
닫	1961
달	1962
닭	1963
닮	1964
닯	1965
닰	1966
닱	1967
닲	1968
닳	1969
담	1970
답	1971
닶	1972
닷	1973
닸	1974
당	1975
닺	1976
닻	1977
닼	1978
닽	1979
닾	1980
닿	1981
대	1982
댁	1983
댂	1984
댃	1985
댄	1986
댅	1987
댆	1988
댇	1989
댈	1990
댉	1991
댊	1992
댋	1993
댌	1994
댍	1995
댎	1996
댏	1997
댐	1998
댑	1999
댒	2000
댓	2001
댔	2002
댕	2003
댖	2004
댗	2005
댘	2006
댙	2007
댚	2008
댛	2009
댜	2010
댝	2011
댞	2012
댟	2013
댠	2014
댡	2015
댢	2016
댣	2017
댤	2018
댥	2019
댦	2020
댧	2021
댨	2022
댩	2023
댪	2024
댫	2025
댬	2026
댭	2027
댮	2028
댯	2029
댰	2030
댱	2031
댲	2032
댳	2033
댴	2034
댵	2035
댶	2036
댷	2037
댸	2038
댹	2039
댺	2040
댻	2041
댼	2042
댽	2043
댾	2044
댿	2045
덀	2046
덁	2047
덂	2048
덃	2049
덄	2050
덅	2051
덆	2052
덇	2053
덈	2054
덉	2055
덊	2056
덋	2057
덌	2058
덍	2059
덎	2060
덏	2061
덐	2062
덑	2063
덒	2064
덓	2065
더	2066
덕	2067
덖	2068
덗	2069
던	2070
덙	2071
덚	2072
덛	2073
덜	2074
덝	2075
덞	2076
덟	2077
덠	2078
덡	2079
덢	2080
덣	2081
덤	2082
덥	2083
덦	2084
덧	2085
덨	2086
덩	2087
덪	2088
덫	2089
덬	2090
덭	2091
덮	2092
덯	2093
데	2094
덱	2095
덲	2096
덳	2097
덴	2098
덵	2099
덶	2100
덷	2101
델	2102
덹	2103
덺	2104
덻	2105
덼	2106
덽	2107
덾	2108
덿	2109
뎀	2110
뎁	2111
뎂	2112
뎃	2113
뎄	2114
뎅	2115
뎆	2116
뎇	2117
뎈	2118
뎉	2119
뎊	2120
뎋	2121
뎌	2122
뎍	2123
뎎	2124
뎏	2125
뎐	2126
뎑	2127
뎒	2128
뎓	2129
뎔	2130
뎕	2131
뎖	2132
뎗	2133
뎘	2134
뎙	2135
뎚	2136
뎛	2137
뎜	2138
뎝	2139
뎞	2140
뎟	2141
뎠	2142
뎡	2143
뎢	2144
뎣	2145
뎤	2146
뎥	2147
뎦	2148
뎧	2149
뎨	2150
뎩	2151
뎪	2152
뎫	2153
뎬	2154
뎭	2155
뎮	2156
뎯	2157
뎰	2158
뎱	2159
뎲	2160
뎳	2161
뎴	2162
뎵	2163
뎶	2164
뎷	2165
뎸	2166
뎹	2167
뎺	2168
뎻	2169
뎼	2170
뎽	2171
뎾	2172
뎿	2173
돀	2174
돁	2175
돂	2176
돃	2177
도	2178
독	2179
돆	2180
돇	2181
돈	2182
돉	2183
돊	2184
돋	2185
돌	2186
돍	2187
돎	2188
돏	2189
돐	2190
돑	2191
돒	2192
돓	2193
돔	2194
돕	2195
돖	2196
돗	2197
돘	2198
동	2199
돚	2200
돛	2201
돜	2202
돝	2203
돞	2204
돟	2205
돠	2206
돡	2207
돢	2208
돣	2209
돤	2210
돥	2211
돦	2212
돧	2213
돨	2214
돩	2215
돪	2216
돫	2217
돬	2218
돭	2219
돮	2220
돯	2221
돰	2222
돱	2223
돲	2224
돳	2225
돴	2226
돵	2227
돶	2228
돷	2229
돸	2230
돹	2231
돺	2232
돻	2233
돼	2234
돽	2235
돾	2236
돿	2237
됀	2238
됁	2239
됂	2240
됃	2241
됄	2242
됅	2243
됆	2244
됇	2245
됈	2246
됉	2247
됊	2248
됋	2249
됌	2250
됍	2251
됎	2252
됏	2253
됐	2254
됑	2255
됒	2256
됓	2257
됔	2258
됕	2259
됖	2260
됗	2261
되	2262
됙	2263
됚	2264
됛	2265
된	2266
됝	2267
됞	2268
됟	2269
될	2270
됡	2271
됢	2272
됣	2273
됤	2274
됥	2275
됦	2276
됧	2277
됨	2278
됩	2279
됪	2280
됫	2281
됬	2282
됭	2283
됮	2284
됯	2285
됰	2286
됱	2287
됲	2288
됳	2289
됴	2290
됵	2291
됶	2292
됷	2293
됸	2294
됹	2295
됺	2296
됻	2297
됼	2298
됽	2299
됾	2300
됿	2301
둀	2302
둁	2303
둂	2304
둃	2305
둄	2306
둅	2307
둆	2308
둇	2309
둈	2310
둉	2311
둊	2312
둋	2313
둌	2314
둍	2315
둎	2316
둏	2317
두	2318
둑	2319
둒	2320
둓	2321
둔	2322
둕	2323
둖	2324
둗	2325
둘	2326
둙	2327
둚	2328
둛	2329
둜	2330
둝	2331
둞	2332
둟	2333
둠	2334
둡	2335
둢	2336
둣	2337
둤	2338
둥	2339
둦	2340
둧	2341
둨	2342
둩	2343
둪	2344
둫	2345
둬	2346
둭	2347
둮	2348
둯	2349
둰	2350
둱	2351
둲	2352
둳	2353
둴	2354
둵	2355
둶	2356
둷	2357
둸	2358
둹	2359
둺	2360
둻	2361
둼	2362
둽	2363
둾	2364
둿	2365
뒁	2366
뒂	2367
뒃	2368
뒄	2369
뒅	2370
뒆	2371
뒇	2372
뒈	2373
뒉	2374
뒊	2375
뒋	2376
뒌	2377
뒍	2378
뒎	2379
뒏	2380
뒐	2381
뒑	2382
뒒	2383
뒓	2384
뒔	2385
뒕	2386
뒖	2387
뒗	2388
뒘	2389
뒙	2390
뒚	2391
뒛	2392
뒜	2393
뒝	2394
뒞	2395
뒟	2396
뒠	2397
뒡	2398
뒢	2399
뒣	2400
뒤	2401
뒥	2402
뒦	2403
뒧	2404
뒨	2405
뒩	2406
뒪	2407
뒫	2408
뒬	2409
뒭	2410
뒮	2411
뒯	2412
뒰	2413
뒱	2414
뒲	2415
뒳	2416
뒴	2417
뒵	2418
뒶	2419
뒷	2420
뒸	2421
뒹	2422
뒺	2423
뒻	2424
뒼	2425
뒽	2426
뒾	2427
뒿	2428
듀	2429
듁	2430
듂	2431
듃	2432
듄	2433
듅	2434
듆	2435
듇	2436
듈	2437
듉	2438
듊	2439
듋	2440
듌	2441
듍	2442
듎	2443
듏	2444
듐	2445
듑	2446
듒	2447
듓	2448
듔	2449
듕	2450
듖	2451
듗	2452
듘	2453
듙	2454
듚	2455
듛	2456
드	2457
득	2458
듞	2459
듟	2460
든	2461
듡	2462
듢	2463
듣	2464
들	2465
듥	2466
듦	2467
듧	2468
듨	2469
듩	2470
듪	2471
듫	2472
듬	2473
듭	2474
듮	2475
듯	2476
듰	2477
등	2478
듲	2479
듳	2480
듴	2481
듵	2482
듶	2483
듷	2484
듸	2485
듹	2486
듺	2487
듻	2488
듼	2489
듽	2490
듾	2491
듿	2492
딀	2493
딁	2494
딂	2495
딃	2496
딄	2497
딅	2498
딆	2499
딇	2500
딈	2501
딉	2502
딊	2503
딋	2504
딌	2505
딍	2506
딎	2507
딏	2508
딐	2509
딑	2510
딒	2511
딓	2512
디	2513
딕	2514
딖	2515
딗	2516
딘	2517
딙	2518
딚	2519
딛	2520
딜	2521
딝	2522
딞	2523
딟	2524
딠	2525
딡	2526
딢	2527
딣	2528
딤	2529
딥	2530
딦	2531
딧	2532
딨	2533
딩	2534
딪	2535
딫	2536
딬	2537
딭	2538
딮	2539
딯	2540
따	2541
딱	2542
딲	2543
딳	2544
딴	2545
딵	2546
딶	2547
딷	2548
딸	2549
딹	2550
딺	2551
딻	2552
딼	2553
딽	2554
딾	2555
딿	2556
땀	2557
땁	2558
땂	2559
땃	2560
땅	2561
땆	2562
땇	2563
땈	2564
땉	2565
땊	2566
땋	2567
때	2568
땍	2569
땎	2570
땏	2571
땐	2572
땑	2573
땒	2574
땓	2575
땔	2576
땕	2577
땖	2578
땗	2579
땘	2580
땙	2581
땚	2582
땛	2583
땜	2584
땝	2585
땞	2586
땟	2587
땠	2588
땡	2589
땢	2590
땣	2591
땤	2592
땥	2593
땦	2594
땧	2595
땨	2596
땩	2597
땪	2598
땫	2599
땬	2600
땭	2601
땮	2602
땯	2603
땰	2604
땱	2605
땲	2606
땳	2607
땴	2608
땵	2609
땶	2610
땷	2611
땸	2612
땹	2613
땺	2614
땻	2615
땼	2616
땽	2617
땾	2618
땿	2619
떀	2620
떁	2621
떂	2622
떃	2623
떄	2624
떅	2625
떆	2626
떇	2627
떈	2628
떉	2629
떊	2630
떋	2631
떌	2632
떍	2633
떎	2634
떏	2635
떐	2636
떑	2637
떒	2638
떓	2639
떔	2640
떕	2641
떖	2642
떗	2643
떘	2644
떙	2645
떚	2646
떛	2647
떜	2648
떝	2649
떞	2650
떟	2651
떠	2652
떡	2653
떢	2654
떣	2655
떤	2656
떥	2657
떦	2658
떧	2659
떨	2660
떩	2661
떪	2662
떫	2663
떬	2664
떭	2665
떮	2666
떯	2667
떰	2668
떱	2669
떲	2670
떳	2671
떵	2672
떶	2673
떷	2674
떸	2675
떹	2676
떺	2677
떻	2678
떼	2679
떽	2680
떾	2681
떿	2682
뗀	2683
뗁	2684
뗂	2685
뗃	2686
뗄	2687
뗅	2688
뗆	2689
뗇	2690
뗈	2691
뗉	2692
뗊	2693
뗋	2694
뗌	2695
뗍	2696
뗎	2697
뗏	2698
뗑	2699
뗒	2700
뗓	2701
뗔	2702
뗕	2703
뗖	2704
뗗	2705
뗘	2706
뗙	2707
뗚	2708
뗛	2709
뗜	2710
뗝	2711
뗞	2712
뗟	2713
뗠	2714
뗡	2715
뗢	2716
뗣	2717
뗤	2718
뗥	2719
뗦	2720
뗧	2721
뗨	2722
뗩	2723
뗪	2724
뗫	2725
뗭	2726
뗮	2727
뗯	2728
뗰	2729
뗱	2730
뗲	2731
뗳	2732
뗴	2733
뗵	2734
뗶	2735
뗷	2736
뗸	2737
뗹	2738
뗺	2739
뗻	2740
뗼	2741
뗽	2742
뗾	2743
뗿	2744
똀	2745
똁	2746
똂	2747
똃	2748
똄	2749
똅	2750
똆	2751
똇	2752
똈	2753
똉	2754
똊	2755
똋	2756
똌	2757
똍	2758
똎	2759
똏	2760
또	2761
똑	2762
똒	2763
똓	2764
똔	2765
똕	2766
똖	2767
똗	2768
똘	2769
똙	2770
똚	2771
똛	2772
똜	2773
똝	2774
똞	2775
똟	2776
똠	2777
똡	2778
똢	2779
똣	2780
똤	2781
똥	2782
똦	2783
똧	2784
똨	2785
똩	2786
똪	2787
똫	2788
똬	2789
똭	2790
똮	2791
똯	2792
똰	2793
똱	2794
똲	2795
똳	2796
똴	2797
똵	2798
똶	2799
똷	2800
똸	2801
똹	2802
똺	2803
똻	2804
똼	2805
똽	2806
똾	2807
똿	2808
뙀	2809
뙁	2810
뙂	2811
뙃	2812
뙄	2813
뙅	2814
뙆	2815
뙇	2816
뙈	2817
뙉	2818
뙊	2819
뙋	2820
뙌	2821
뙍	2822
뙎	2823
뙏	2824
뙐	2825
뙑	2826
뙒	2827
뙓	2828
뙔	2829
뙕	2830
뙖	2831
뙗	2832
뙘	2833
뙙	2834
뙚	2835
뙛	2836
뙜	2837
뙝	2838
뙞	2839
뙟	2840
뙠	2841
뙡	2842
뙢	2843
뙣	2844
뙤	2845
뙥	2846
뙦	2847
뙧	2848
뙨	2849
뙩	2850
뙪	2851
뙫	2852
뙬	2853
뙭	2854
뙮	2855
뙯	2856
뙰	2857
뙱	2858
뙲	2859
뙳	2860
뙴	2861
뙵	2862
뙶	2863
뙷	2864
뙸	2865
뙹	2866
뙺	2867
뙻	2868
뙼	2869
뙽	2870
뙾	2871
뙿	2872
뚀	2873
뚁	2874
뚂	2875
뚃	2876
뚄	2877
뚅	2878
뚆	2879
뚇	2880
뚈	2881
뚉	2882
뚊	2883
뚋	2884
뚌	2885
뚍	2886
뚎	2887
뚏	2888
뚐	2889
뚑	2890
뚒	2891
뚓	2892
뚔	2893
뚕	2894
뚖	2895
뚗	2896
뚘	2897
뚙	2898
뚚	2899
뚛	2900
뚜	2901
뚝	2902
뚞	2903
뚟	2904
뚠	2905
뚡	2906
뚢	2907
뚣	2908
뚤	2909
뚥	2910
뚦	2911
뚧	2912
뚨	2913
뚩	2914
뚪	2915
뚫	2916
뚬	2917
뚭	2918
뚮	2919
뚯	2920
뚰	2921
뚱	2922
뚲	2923
뚳	2924
뚴	2925
뚵	2926
뚶	2927
뚷	2928
뚸	2929
뚹	2930
뚺	2931
뚻	2932
뚼	2933
뚽	2934
뚾	2935
뚿	2936
뛀	2937
뛁	2938
뛂	2939
뛃	2940
뛄	2941
뛅	2942
뛆	2943
뛇	2944
뛈	2945
뛉	2946
뛊	2947
뛋	2948
뛌	2949
뛍	2950
뛎	2951
뛏	2952
뛐	2953
뛑	2954
뛒	2955
뛓	2956
뛔	2957
뛕	2958
뛖	2959
뛗	2960
뛘	2961
뛙	2962
뛚	2963
뛛	2964
뛜	2965
뛝	2966
뛞	2967
뛟	2968
뛠	2969
뛡	2970
뛢	2971
뛣	2972
뛤	2973
뛥	2974
뛦	2975
뛧	2976
뛨	2977
뛩	2978
뛪	2979
뛫	2980
뛬	2981
뛭	2982
뛮	2983
뛯	2984
뛰	2985
뛱	2986
뛲	2987
뛳	2988
뛵	2989
뛶	2990
뛷	2991
뛸	2992
뛹	2993
뛺	2994
뛻	2995
뛼	2996
뛽	2997
뛾	2998
뛿	2999
뜀	3000
뜁	3001
뜂	3002
뜃	3003
뜄	3004
뜅	3005
뜆	3006
뜇	3007
뜈	3008
뜉	3009
뜊	3010
뜋	3011
뜌	3012
뜍	3013
뜎	3014
뜏	3015
뜐	3016
뜑	3017
뜒	3018
뜓	3019
뜔	3020
뜕	3021
뜖	3022
뜗	3023
뜘	3024
뜙	3025
뜚	3026
뜛	3027
뜜	3028
뜝	3029
뜞	3030
뜟	3031
뜠	3032
뜡	3033
뜢	3034
뜣	3035
뜤	3036
뜥	3037
뜦	3038
뜧	3039
뜨	3040
뜩	3041
뜪	3042
뜫	3043
뜬	3044
뜭	3045
뜮	3046
뜯	3047
뜰	3048
뜱	3049
뜲	3050
뜳	3051
뜴	3052
뜵	3053
뜶	3054
뜷	3055
뜸	3056
뜹	3057
뜺	3058
뜻	3059
뜼	3060
뜽	3061
뜾	3062
뜿	3063
띀	3064
띁	3065
띂	3066
띃	3067
띄	3068
띅	3069
띆	3070
띇	3071
띉	3072
띊	3073
띋	3074
띍	3075
띎	3076
띏	3077
띐	3078
띑	3079
띒	3080
띓	3081
띔	3082
띕	3083
띖	3084
띗	3085
띘	3086
띙	3087
띚	3088
띛	3089
띜	3090
띝	3091
띞	3092
띟	3093
띠	3094
띡	3095
띢	3096
띣	3097
띤	3098
띥	3099
띦	3100
띧	3101
띨	3102
띩	3103
띪	3104
띫	3105
띬	3106
띭	3107
띮	3108
띯	3109
띰	3110
띱	3111
띲	3112
띳	3113
띴	3114
띵	3115
띶	3116
띷	3117
띸	3118
띹	3119
띺	3120
띻	3121
라	3122
락	3123
띾	3124
띿	3125
란	3126
랁	3127
랂	3128
랃	3129
랄	3130
랅	3131
랆	3132
랇	3133
랈	3134
랉	3135
랊	3136
랋	3137
람	3138
랍	3139
랎	3140
랏	3141
랐	3142
랑	3143
랒	3144
랓	3145
랔	3146
랕	3147
랖	3148
랗	3149
래	3150
랙	3151
랚	3152
랛	3153
랜	3154
랝	3155
랞	3156
랟	3157
랠	3158
랡	3159
랢	3160
랣	3161
랤	3162
랥	3163
랦	3164
랧	3165
램	3166
랩	3167
랪	3168
랫	3169
랬	3170
랭	3171
랮	3172
랯	3173
랰	3174
랱	3175
랲	3176
랳	3177
랴	3178
략	3179
랶	3180
랷	3181
랸	3182
랹	3183
랺	3184
랻	3185
랼	3186
랽	3187
랾	3188
랿	3189
럀	3190
럁	3191
럂	3192
럃	3193
럄	3194
럅	3195
럆	3196
럇	3197
럈	3198
량	3199
럊	3200
럋	3201
럌	3202
럍	3203
럎	3204
럏	3205
럐	3206
럑	3207
럒	3208
럓	3209
럔	3210
럕	3211
럖	3212
럗	3213
럘	3214
럙	3215
럚	3216
럛	3217
럜	3218
럝	3219
럞	3220
럟	3221
럠	3222
럡	3223
럢	3224
럣	3225
럤	3226
럥	3227
럦	3228
럧	3229
럨	3230
럩	3231
럪	3232
럫	3233
러	3234
럭	3235
럮	3236
럯	3237
런	3238
럱	3239
럲	3240
럳	3241
럴	3242
럵	3243
럶	3244
럷	3245
럸	3246
럹	3247
럺	3248
럻	3249
럼	3250
럽	3251
럾	3252
럿	3253
렀	3254
렁	3255
렂	3256
렃	3257
렄	3258
렅	3259
렆	3260
렇	3261
레	3262
렉	3263
렊	3264
렋	3265
렌	3266
렍	3267
렎	3268
렏	3269
렐	3270
렑	3271
렒	3272
렓	3273
렔	3274
렕	3275
렖	3276
렗	3277
렘	3278
렙	3279
렚	3280
렛	3281
렜	3282
렝	3283
렞	3284
렟	3285
렠	3286
렡	3287
렢	3288
렣	3289
려	3290
력	3291
렦	3292
렧	3293
련	3294
렩	3295
렪	3296
렫	3297
렬	3298
렭	3299
렮	3300
렯	3301
렰	3302
렱	3303
렲	3304
렳	3305
렴	3306
렵	3307
렶	3308
렷	3309
렸	3310
령	3311
렺	3312
렻	3313
렼	3314
렽	3315
렾	3316
렿	3317
례	3318
롁	3319
롂	3320
롃	3321
롄	3322
롅	3323
롆	3324
롇	3325
롈	3326
롉	3327
롊	3328
롋	3329
롌	3330
롍	3331
롎	3332
롏	3333
롐	3334
롑	3335
롒	3336
롓	3337
롔	3338
롕	3339
롖	3340
롗	3341
롘	3342
롙	3343
롚	3344
롛	3345
로	3346
록	3347
롞	3348
롟	3349
론	3350
롡	3351
롢	3352
롣	3353
롤	3354
롥	3355
롦	3356
롧	3357
롨	3358
롩	3359
롪	3360
롫	3361
롬	3362
롭	3363
롮	3364
롯	3365
롰	3366
롱	3367
롲	3368
롳	3369
롴	3370
롵	3371
롶	3372
롷	3373
롸	3374
롹	3375
롺	3376
롻	3377
롼	3378
롽	3379
롾	3380
롿	3381
뢀	3382
뢁	3383
뢂	3384
뢃	3385
뢄	3386
뢅	3387
뢆	3388
뢇	3389
뢈	3390
뢉	3391
뢊	3392
뢋	3393
뢌	3394
뢍	3395
뢎	3396
뢏	3397
뢐	3398
뢑	3399
뢒	3400
뢓	3401
뢔	3402
뢕	3403
뢖	3404
뢗	3405
뢘	3406
뢙	3407
뢚	3408
뢛	3409
뢜	3410
뢝	3411
뢞	3412
뢟	3413
뢠	3414
뢡	3415
뢢	3416
뢣	3417
뢤	3418
뢥	3419
뢦	3420
뢧	3421
뢨	3422
뢩	3423
뢪	3424
뢫	3425
뢬	3426
뢭	3427
뢮	3428
뢯	3429
뢰	3430
뢱	3431
뢲	3432
뢳	3433
뢴	3434
뢵	3435
뢶	3436
뢷	3437
뢸	3438
뢹	3439
뢺	3440
뢻	3441
뢼	3442
뢽	3443
뢾	3444
뢿	3445
룀	3446
룁	3447
룂	3448
룃	3449
룄	3450
룅	3451
룆	3452
룇	3453
룈	3454
룉	3455
룊	3456
룋	3457
료	3458
룍	3459
룎	3460
룏	3461
룐	3462
룑	3463
룒	3464
룓	3465
룔	3466
룕	3467
룖	3468
룗	3469
룘	3470
룙	3471
룚	3472
룛	3473
룜	3474
룝	3475
룞	3476
룟	3477
룠	3478
룡	3479
룢	3480
룣	3481
룤	3482
룥	3483
룦	3484
룧	3485
루	3486
룩	3487
룪	3488
룫	3489
룬	3490
룭	3491
룮	3492
룯	3493
룰	3494
룱	3495
룲	3496
룳	3497
룴	3498
룵	3499
룶	3500
룷	3501
룸	3502
룹	3503
룺	3504
룻	3505
룼	3506
룽	3507
룾	3508
룿	3509
뤀	3510
뤁	3511
뤂	3512
뤃	3513
뤄	3514
뤅	3515
뤆	3516
뤇	3517
뤈	3518
뤉	3519
뤊	3520
뤋	3521
뤌	3522
뤍	3523
뤎	3524
뤏	3525
뤐	3526
뤑	3527
뤒	3528
뤓	3529
뤔	3530
뤕	3531
뤖	3532
뤗	3533
뤘	3534
뤙	3535
뤚	3536
뤛	3537
뤜	3538
뤝	3539
뤞	3540
뤟	3541
뤠	3542
뤡	3543
뤢	3544
뤣	3545
뤤	3546
뤥	3547
뤦	3548
뤧	3549
뤨	3550
뤩	3551
뤪	3552
뤫	3553
뤬	3554
뤭	3555
뤮	3556
뤯	3557
뤰	3558
뤱	3559
뤲	3560
뤳	3561
뤴	3562
뤵	3563
뤶	3564
뤷	3565
뤸	3566
뤹	3567
뤺	3568
뤻	3569
뤼	3570
뤽	3571
뤾	3572
뤿	3573
륀	3574
륁	3575
륂	3576
륃	3577
륄	3578
륅	3579
륆	3580
륇	3581
륈	3582
륉	3583
륊	3584
륋	3585
륌	3586
륍	3587
륎	3588
륏	3589
륐	3590
륑	3591
륒	3592
륓	3593
륔	3594
륕	3595
륖	3596
륗	3597
류	3598
륙	3599
륚	3600
륛	3601
륜	3602
륝	3603
륞	3604
륟	3605
률	3606
륡	3607
륢	3608
륣	3609
륤	3610
륥	3611
륦	3612
륧	3613
륨	3614
륩	3615
륪	3616
륫	3617
륬	3618
륭	3619
륮	3620
륯	3621
륰	3622
륱	3623
륲	3624
륳	3625
르	3626
륵	3627
륶	3628
륷	3629
른	3630
륹	3631
륺	3632
륻	3633
를	3634
륽	3635
륾	3636
륿	3637
릀	3638
릁	3639
릂	3640
릃	3641
름	3642
릅	3643
릆	3644
릇	3645
릈	3646
릉	3647
릊	3648
릋	3649
릌	3650
릍	3651
릎	3652
릏	3653
릐	3654
릑	3655
릒	3656
릓	3657
릔	3658
릕	3659
릖	3660
릗	3661
릘	3662
릙	3663
릚	3664
릛	3665
릜	3666
릝	3667
릞	3668
릟	3669
릠	3670
릡	3671
릢	3672
릣	3673
릤	3674
릥	3675
릦	3676
릧	3677
릨	3678
릩	3679
릪	3680
릫	3681
리	3682
릭	3683
릮	3684
릯	3685
린	3686
릱	3687
릲	3688
릳	3689
릴	3690
릵	3691
릶	3692
릷	3693
릸	3694
릹	3695
릺	3696
릻	3697
림	3698
립	3699
릾	3700
릿	3701
맀	3702
링	3703
맂	3704
맃	3705
맄	3706
맅	3707
맆	3708
맇	3709
마	3710
막	3711
맊	3712
맋	3713
만	3714
맍	3715
많	3716
맏	3717
말	3718
맑	3719
맒	3720
맓	3721
맔	3722
맕	3723
맖	3724
맗	3725
맘	3726
맙	3727
맚	3728
맛	3729
맜	3730
망	3731
맞	3732
맟	3733
맠	3734
맡	3735
맢	3736
맣	3737
매	3738
맥	3739
맦	3740
맧	3741
맨	3742
맩	3743
맪	3744
맫	3745
맬	3746
맭	3747
맮	3748
맯	3749
맰	3750
맱	3751
맲	3752
맳	3753
맴	3754
맵	3755
맶	3756
맷	3757
맹	3758
맺	3759
맻	3760
맼	3761
맽	3762
맾	3763
맿	3764
먀	3765
먁	3766
먂	3767
먃	3768
먄	3769
먅	3770
먆	3771
먇	3772
먈	3773
먉	3774
먊	3775
먋	3776
먌	3777
먍	3778
먎	3779
먏	3780
먐	3781
먑	3782
먒	3783
먓	3784
먔	3785
먕	3786
먖	3787
먗	3788
먘	3789
먙	3790
먚	3791
먛	3792
먜	3793
먝	3794
먞	3795
먟	3796
먠	3797
먡	3798
먢	3799
먣	3800
먤	3801
먥	3802
먦	3803
먧	3804
먨	3805
먩	3806
먪	3807
먫	3808
먬	3809
먭	3810
먮	3811
먯	3812
먰	3813
먱	3814
먲	3815
먳	3816
먴	3817
먵	3818
먶	3819
먷	3820
머	3821
먹	3822
먺	3823
먻	3824
먼	3825
먽	3826
먾	3827
먿	3828
멀	3829
멁	3830
멂	3831
멃	3832
멄	3833
멅	3834
멆	3835
멇	3836
멈	3837
멉	3838
멊	3839
멋	3840
멌	3841
멍	3842
멎	3843
멏	3844
멐	3845
멑	3846
멒	3847
멓	3848
메	3849
멕	3850
멖	3851
멗	3852
멘	3853
멙	3854
멚	3855
멛	3856
멜	3857
멝	3858
멞	3859
멟	3860
멠	3861
멡	3862
멢	3863
멣	3864
멤	3865
멥	3866
멦	3867
멧	3868
멨	3869
멩	3870
멪	3871
멫	3872
멬	3873
멭	3874
멮	3875
멯	3876
며	3877
멱	3878
멲	3879
멳	3880
면	3881
멵	3882
멶	3883
멷	3884
멸	3885
멹	3886
멺	3887
멻	3888
멼	3889
멽	3890
멾	3891
멿	3892
몀	3893
몁	3894
몂	3895
몃	3896
몄	3897
명	3898
몆	3899
몇	3900
몈	3901
몉	3902
몊	3903
몋	3904
몌	3905
몍	3906
몎	3907
몏	3908
몐	3909
몑	3910
몒	3911
몓	3912
몔	3913
몕	3914
몖	3915
몗	3916
몘	3917
몙	3918
몚	3919
몛	3920
몜	3921
몝	3922
몞	3923
몟	3924
몠	3925
몡	3926
몢	3927
몣	3928
몤	3929
몥	3930
몦	3931
몧	3932
모	3933
목	3934
몪	3935
몫	3936
몬	3937
몭	3938
몮	3939
몯	3940
몰	3941
몱	3942
몲	3943
몳	3944
몴	3945
몵	3946
몶	3947
몷	3948
몸	3949
몹	3950
몺	3951
못	3952
몼	3953
몽	3954
몾	3955
몿	3956
뫀	3957
뫁	3958
뫂	3959
뫃	3960
뫄	3961
뫅	3962
뫆	3963
뫇	3964
뫈	3965
뫉	3966
뫊	3967
뫋	3968
뫌	3969
뫍	3970
뫎	3971
뫏	3972
뫐	3973
뫑	3974
뫒	3975
뫓	3976
뫔	3977
뫕	3978
뫖	3979
뫗	3980
뫘	3981
뫙	3982
뫚	3983
뫛	3984
뫜	3985
뫝	3986
뫞	3987
뫟	3988
뫠	3989
뫡	3990
뫢	3991
뫣	3992
뫤	3993
뫥	3994
뫦	3995
뫧	3996
뫨	3997
뫩	3998
뫪	3999
뫫	4000
뫬	4001
뫭	4002
뫮	4003
뫯	4004
뫰	4005
뫱	4006
뫲	4007
뫳	4008
뫴	4009
뫵	4010
뫶	4011
뫷	4012
뫸	4013
뫹	4014
뫺	4015
뫻	4016
뫼	4017
뫽	4018
뫾	4019
뫿	4020
묀	4021
묁	4022
묂	4023
묃	4024
묄	4025
묅	4026
묆	4027
묇	4028
묈	4029
묉	4030
묊	4031
묋	4032
묌	4033
묍	4034
묎	4035
묏	4036
묐	4037
묑	4038
묒	4039
묓	4040
묔	4041
묕	4042
묖	4043
묗	4044
묘	4045
묙	4046
묚	4047
묛	4048
묜	4049
묝	4050
묞	4051
묟	4052
묠	4053
묡	4054
묢	4055
묣	4056
묤	4057
묥	4058
묦	4059
묧	4060
묨	4061
묩	4062
묪	4063
묫	4064
묬	4065
묭	4066
묮	4067
묯	4068
묰	4069
묱	4070
묲	4071
묳	4072
무	4073
묵	4074
묶	4075
묷	4076
문	4077
묹	4078
묺	4079
묻	4080
물	4081
묽	4082
묾	4083
묿	4084
뭀	4085
뭁	4086
뭂	4087
뭃	4088
뭄	4089
뭅	4090
뭆	4091
뭇	4092
뭈	4093
뭉	4094
뭊	4095
뭋	4096
뭌	4097
뭍	4098
뭎	4099
뭏	4100
뭐	4101
뭑	4102
뭒	4103
뭓	4104
뭔	4105
뭕	4106
뭖	4107
뭗	4108
뭘	4109
뭙	4110
뭚	4111
뭛	4112
뭜	4113
뭝	4114
뭞	4115
뭟	4116
뭠	4117
뭡	4118
뭢	4119
뭣	4120
뭤	4121
뭥	4122
뭦	4123
뭧	4124
뭨	4125
뭩	4126
뭪	4127
뭫	4128
뭬	4129
뭭	4130
뭮	4131
뭯	4132
뭰	4133
뭱	4134
뭲	4135
뭳	4136
뭴	4137
뭵	4138
뭶	4139
뭷	4140
뭸	4141
뭹	4142
뭺	4143
뭻	4144
뭼	4145
뭽	4146
뭾	4147
뭿	4148
뮀	4149
뮁	4150
뮂	4151
뮃	4152
뮄	4153
뮅	4154
뮆	4155
뮇	4156
뮈	4157
뮉	4158
뮊	4159
뮋	4160
뮌	4161
뮍	4162
뮎	4163
뮏	4164
뮐	4165
뮑	4166
뮒	4167
뮓	4168
뮔	4169
뮕	4170
뮖	4171
뮗	4172
뮘	4173
뮙	4174
뮚	4175
뮛	4176
뮜	4177
뮝	4178
뮞	4179
뮟	4180
뮠	4181
뮡	4182
뮢	4183
뮣	4184
뮤	4185
뮥	4186
뮦	4187
뮧	4188
뮨	4189
뮩	4190
뮪	4191
뮫	4192
뮬	4193
뮭	4194
뮮	4195
뮯	4196
뮰	4197
뮱	4198
뮲	4199
뮳	4200
뮴	4201
뮵	4202
뮶	4203
뮷	4204
뮸	4205
뮹	4206
뮺	4207
뮻	4208
뮼	4209
뮽	4210
뮾	4211
뮿	4212
므	4213
믁	4214
믂	4215
믃	4216
믄	4217
믅	4218
믆	4219
믇	4220
믈	4221
믉	4222
믊	4223
믋	4224
믌	4225
믍	4226
믎	4227
믏	4228
믐	4229
믑	4230
믒	4231
믓	4232
믔	4233
믕	4234
믖	4235
믗	4236
믘	4237
믙	4238
믚	4239
믛	4240
믜	4241
믝	4242
믞	4243
믟	4244
믠	4245
믡	4246
믢	4247
믣	4248
믤	4249
믥	4250
믦	4251
믧	4252
믨	4253
믩	4254
믪	4255
믫	4256
믬	4257
믭	4258
믮	4259
믯	4260
믰	4261
믱	4262
믲	4263
믳	4264
믴	4265
믵	4266
믶	4267
믷	4268
미	4269
믹	4270
믺	4271
믻	4272
민	4273
믽	4274
믾	4275
믿	4276
밀	4277
밁	4278
밂	4279
밃	4280
밄	4281
밅	4282
밆	4283
밇	4284
밈	4285
밉	4286
밊	4287
밋	4288
밌	4289
밍	4290
밎	4291
및	4292
밐	4293
밑	4294
밒	4295
밓	4296
바	4297
박	4298
밖	4299
밗	4300
반	4301
밙	4302
밚	4303
받	4304
발	4305
밝	4306
밞	4307
밟	4308
밠	4309
밡	4310
밢	4311
밣	4312
밤	4313
밥	4314
밦	4315
밧	4316
밨	4317
방	4318
밪	4319
밫	4320
밬	4321
밭	4322
밮	4323
밯	4324
배	4325
백	4326
밲	4327
밳	4328
밴	4329
밵	4330
밶	4331
밷	4332
밸	4333
밹	4334
밺	4335
밻	4336
밼	4337
밽	4338
밾	4339
밿	4340
뱀	4341
뱁	4342
뱂	4343
뱃	4344
뱅	4345
뱆	4346
뱇	4347
뱈	4348
뱉	4349
뱊	4350
뱋	4351
뱌	4352
뱍	4353
뱎	4354
뱏	4355
뱐	4356
뱑	4357
뱒	4358
뱓	4359
뱔	4360
뱕	4361
뱖	4362
뱗	4363
뱘	4364
뱙	4365
뱚	4366
뱛	4367
뱜	4368
뱝	4369
뱞	4370
뱟	4371
뱠	4372
뱡	4373
뱢	4374
뱣	4375
뱤	4376
뱥	4377
뱦	4378
뱧	4379
뱨	4380
뱩	4381
뱪	4382
뱫	4383
뱬	4384
뱭	4385
뱮	4386
뱯	4387
뱰	4388
뱱	4389
뱲	4390
뱳	4391
뱴	4392
뱵	4393
뱶	4394
뱷	4395
뱸	4396
뱹	4397
뱺	4398
뱻	4399
뱼	4400
뱽	4401
뱾	4402
뱿	4403
벀	4404
벁	4405
벂	4406
벃	4407
버	4408
벅	4409
벆	4410
벇	4411
번	4412
벉	4413
벊	4414
벋	4415
벌	4416
벍	4417
벎	4418
벏	4419
벐	4420
벑	4421
벒	4422
벓	4423
범	4424
법	4425
벖	4426
벗	4427
벘	4428
벙	4429
벚	4430
벛	4431
벜	4432
벝	4433
벞	4434
벟	4435
베	4436
벡	4437
벢	4438
벣	4439
벤	4440
벥	4441
벦	4442
벧	4443
벨	4444
벩	4445
벪	4446
벫	4447
벬	4448
벭	4449
벮	4450
벯	4451
벰	4452
벱	4453
벲	4454
벳	4455
벴	4456
벵	4457
벶	4458
벷	4459
벸	4460
벹	4461
벺	4462
벻	4463
벼	4464
벽	4465
벾	4466
벿	4467
변	4468
볁	4469
볂	4470
볃	4471
별	4472
볅	4473
볆	4474
볇	4475
볈	4476
볉	4477
볊	4478
볋	4479
볌	4480
볍	4481
볎	4482
볏	4483
볐	4484
병	4485
볒	4486
볓	4487
볔	4488
볕	4489
볖	4490
볗	4491
볘	4492
볙	4493
볚	4494
볛	4495
볜	4496
볝	4497
볞	4498
볟	4499
볠	4500
볡	4501
볢	4502
볣	4503
볤	4504
볥	4505
볦	4506
볧	4507
볨	4508
볩	4509
볪	4510
볫	4511
볬	4512
볭	4513
볮	4514
볯	4515
볰	4516
볱	4517
볲	4518
볳	4519
보	4520
복	4521
볶	4522
볷	4523
본	4524
볹	4525
볺	4526
볻	4527
볼	4528
볽	4529
볾	4530
볿	4531
봀	4532
봁	4533
봂	4534
봃	4535
봄	4536
봅	4537
봆	4538
봇	4539
봈	4540
봉	4541
봊	4542
봋	4543
봌	4544
봍	4545
봎	4546
봏	4547
봐	4548
봑	4549
봒	4550
봓	4551
봔	4552
봕	4553
봖	4554
봗	4555
봘	4556
봙	4557
봚	4558
봛	4559
봜	4560
봝	4561
봞	4562
봟	4563
봠	4564
봡	4565
봢	4566
봣	4567
봤	4568
봥	4569
봦	4570
봧	4571
봨	4572
봩	4573
봪	4574
봫	4575
봬	4576
봭	4577
봮	4578
봯	4579
봰	4580
봱	4581
봲	4582
봳	4583
봴	4584
봵	4585
봶	4586
봷	4587
봸	4588
봹	4589
봺	4590
봻	4591
봼	4592
봽	4593
봾	4594
봿	4595
뵁	4596
뵂	4597
뵃	4598
뵄	4599
뵅	4600
뵆	4601
뵇	4602
뵈	4603
뵉	4604
뵊	4605
뵋	4606
뵍	4607
뵎	4608
뵏	4609
뵐	4610
뵑	4611
뵒	4612
뵓	4613
뵔	4614
뵕	4615
뵖	4616
뵗	4617
뵘	4618
뵙	4619
뵚	4620
뵛	4621
뵝	4622
뵞	4623
뵟	4624
뵠	4625
뵡	4626
뵢	4627
뵣	4628
뵤	4629
뵥	4630
뵦	4631
뵧	4632
뵨	4633
뵩	4634
뵪	4635
뵫	4636
뵬	4637
뵭	4638
뵮	4639
뵯	4640
뵰	4641
뵱	4642
뵲	4643
뵳	4644
뵴	4645
뵵	4646
뵶	4647
뵷	4648
뵸	4649
뵹	4650
뵺	4651
뵻	4652
뵼	4653
뵽	4654
뵾	4655
뵿	4656
부	4657
북	4658
붂	4659
붃	4660
분	4661
붅	4662
붆	4663
붇	4664
불	4665
붉	4666
붊	4667
붋	4668
붌	4669
붍	4670
붎	4671
붏	4672
붐	4673
붑	4674
붒	4675
붓	4676
붔	4677
붕	4678
붖	4679
붗	4680
붘	4681
붙	4682
붚	4683
붛	4684
붜	4685
붝	4686
붞	4687
붟	4688
붠	4689
붡	4690
붢	4691
붣	4692
붤	4693
붥	4694
붦	4695
붧	4696
붨	4697
붩	4698
붪	4699
붫	4700
붬	4701
붭	4702
붮	4703
붯	4704
붰	4705
붱	4706
붲	4707
붳	4708
붴	4709
붵	4710
붶	4711
붷	4712
붸	4713
붹	4714
붺	4715
붻	4716
붼	4717
붽	4718
붾	4719
붿	4720
뷀	4721
뷁	4722
뷂	4723
뷃	4724
뷄	4725
뷅	4726
뷆	4727
뷇	4728
뷈	4729
뷉	4730
뷊	4731
뷋	4732
뷌	4733
뷍	4734
뷎	4735
뷏	4736
뷐	4737
뷑	4738
뷒	4739
뷓	4740
뷔	4741
뷕	4742
뷖	4743
뷗	4744
뷘	4745
뷙	4746
뷚	4747
뷛	4748
뷜	4749
뷝	4750
뷞	4751
뷟	4752
뷠	4753
뷡	4754
뷢	4755
뷣	4756
뷤	4757
뷥	4758
뷦	4759
뷧	4760
뷨	4761
뷩	4762
뷪	4763
뷫	4764
뷬	4765
뷭	4766
뷮	4767
뷯	4768
뷰	4769
뷱	4770
뷲	4771
뷳	4772
뷴	4773
뷵	4774
뷶	4775
뷷	4776
뷸	4777
뷹	4778
뷺	4779
뷻	4780
뷼	4781
뷽	4782
뷾	4783
뷿	4784
븀	4785
븁	4786
븂	4787
븃	4788
븄	4789
븅	4790
븆	4791
븇	4792
븈	4793
븉	4794
븊	4795
븋	4796
브	4797
븍	4798
븎	4799
븏	4800
븐	4801
븑	4802
븒	4803
븓	4804
블	4805
븕	4806
븖	4807
븗	4808
븘	4809
븙	4810
븚	4811
븛	4812
븜	4813
븝	4814
븞	4815
븟	4816
븠	4817
븡	4818
븢	4819
븣	4820
븤	4821
븥	4822
븦	4823
븧	4824
븨	4825
븩	4826
븪	4827
븫	4828
븬	4829
븭	4830
븮	4831
븯	4832
븰	4833
븱	4834
븲	4835
븳	4836
븴	4837
븵	4838
븶	4839
븷	4840
븸	4841
븹	4842
븺	4843
븻	4844
븼	4845
븽	4846
븾	4847
븿	4848
빀	4849
빁	4850
빂	4851
빃	4852
비	4853
빅	4854
빆	4855
빇	4856
빈	4857
빉	4858
빊	4859
빋	4860
빌	4861
빍	4862
빎	4863
빏	4864
빐	4865
빑	4866
빒	4867
빓	4868
빔	4869
빕	4870
빖	4871
빗	4872
빘	4873
빙	4874
빚	4875
빛	4876
빜	4877
빝	4878
빞	4879
빟	4880
빠	4881
빡	4882
빢	4883
빣	4884
빤	4885
빥	4886
빦	4887
빧	4888
빨	4889
빩	4890
빪	4891
빫	4892
빬	4893
빭	4894
빮	4895
빯	4896
빰	4897
빱	4898
빲	4899
빳	4900
빴	4901
빵	4902
빶	4903
빷	4904
빸	4905
빹	4906
빺	4907
빻	4908
빼	4909
빽	4910
빾	4911
빿	4912
뺀	4913
뺁	4914
뺂	4915
뺃	4916
뺄	4917
뺅	4918
뺆	4919
뺇	4920
뺈	4921
뺉	4922
뺊	4923
뺋	4924
뺌	4925
뺍	4926
뺎	4927
뺏	4928
뺐	4929
뺑	4930
뺒	4931
뺓	4932
뺔	4933
뺕	4934
뺖	4935
뺗	4936
뺘	4937
뺙	4938
뺚	4939
뺛	4940
뺜	4941
뺝	4942
뺞	4943
뺟	4944
뺠	4945
뺡	4946
뺢	4947
뺣	4948
뺤	4949
뺥	4950
뺦	4951
뺧	4952
뺨	4953
뺩	4954
뺪	4955
뺫	4956
뺬	4957
뺭	4958
뺮	4959
뺯	4960
뺰	4961
뺱	4962
뺲	4963
뺳	4964
뺴	4965
뺵	4966
뺶	4967
뺷	4968
뺸	4969
뺹	4970
뺺	4971
뺻	4972
뺼	4973
뺽	4974
뺾	4975
뺿	4976
뻀	4977
뻁	4978
뻂	4979
뻃	4980
뻄	4981
뻅	4982
뻆	4983
뻇	4984
뻈	4985
뻉	4986
뻊	4987
뻋	4988
뻌	4989
뻍	4990
뻎	4991
뻏	4992
뻐	4993
뻑	4994
뻒	4995
뻓	4996
뻔	4997
뻕	4998
뻖	4999
뻗	5000
뻘	5001
뻙	5002
뻚	5003
뻛	5004
뻜	5005
뻝	5006
뻞	5007
뻟	5008
뻠	5009
뻡	5010
뻢	5011
뻣	5012
뻤	5013
뻥	5014
뻦	5015
뻧	5016
뻨	5017
뻩	5018
뻪	5019
뻫	5020
뻬	5021
뻭	5022
뻮	5023
뻯	5024
뻰	5025
뻱	5026
뻲	5027
뻳	5028
뻴	5029
뻵	5030
뻶	5031
뻷	5032
뻸	5033
뻹	5034
뻺	5035
뻻	5036
뻼	5037
뻽	5038
뻾	5039
뻿	5040
뼀	5041
뼁	5042
뼂	5043
뼃	5044
뼄	5045
뼅	5046
뼆	5047
뼇	5048
뼈	5049
뼉	5050
뼊	5051
뼋	5052
뼌	5053
뼍	5054
뼎	5055
뼏	5056
뼐	5057
뼑	5058
뼒	5059
뼓	5060
뼔	5061
뼕	5062
뼖	5063
뼗	5064
뼘	5065
뼙	5066
뼚	5067
뼛	5068
뼜	5069
뼝	5070
뼞	5071
뼟	5072
뼠	5073
뼡	5074
뼢	5075
뼣	5076
뼤	5077
뼥	5078
뼦	5079
뼧	5080
뼨	5081
뼩	5082
뼪	5083
뼫	5084
뼬	5085
뼭	5086
뼮	5087
뼯	5088
뼰	5089
뼱	5090
뼲	5091
뼳	5092
뼴	5093
뼵	5094
뼶	5095
뼷	5096
뼸	5097
뼹	5098
뼺	5099
뼻	5100
뼼	5101
뼽	5102
뼾	5103
뼿	5104
뽀	5105
뽁	5106
뽂	5107
뽃	5108
뽄	5109
뽅	5110
뽆	5111
뽇	5112
뽈	5113
뽉	5114
뽊	5115
뽋	5116
뽌	5117
뽍	5118
뽎	5119
뽏	5120
뽐	5121
뽑	5122
뽒	5123
뽓	5124
뽔	5125
뽕	5126
뽖	5127
뽗	5128
뽘	5129
뽙	5130
뽚	5131
뽛	5132
뽜	5133
뽝	5134
뽞	5135
뽟	5136
뽠	5137
뽡	5138
뽢	5139
뽣	5140
뽤	5141
뽥	5142
뽦	5143
뽧	5144
뽨	5145
뽩	5146
뽪	5147
뽫	5148
뽬	5149
뽭	5150
뽮	5151
뽯	5152
뽰	5153
뽱	5154
뽲	5155
뽳	5156
뽴	5157
뽵	5158
뽶	5159
뽷	5160
뽸	5161
뽹	5162
뽺	5163
뽻	5164
뽼	5165
뽽	5166
뽾	5167
뽿	5168
뾀	5169
뾁	5170
뾂	5171
뾃	5172
뾄	5173
뾅	5174
뾆	5175
뾇	5176
뾈	5177
뾉	5178
뾊	5179
뾋	5180
뾌	5181
뾍	5182
뾎	5183
뾏	5184
뾐	5185
뾑	5186
뾒	5187
뾓	5188
뾔	5189
뾕	5190
뾖	5191
뾗	5192
뾘	5193
뾙	5194
뾚	5195
뾛	5196
뾜	5197
뾝	5198
뾞	5199
뾟	5200
뾠	5201
뾡	5202
뾢	5203
뾣	5204
뾤	5205
뾥	5206
뾦	5207
뾧	5208
뾨	5209
뾩	5210
뾪	5211
뾫	5212
뾬	5213
뾭	5214
뾮	5215
뾯	5216
뾰	5217
뾱	5218
뾲	5219
뾳	5220
뾴	5221
뾵	5222
뾶	5223
뾷	5224
뾸	5225
뾹	5226
뾺	5227
뾻	5228
뾼	5229
뾽	5230
뾾	5231
뾿	5232
뿀	5233
뿁	5234
뿂	5235
뿃	5236
뿄	5237
뿅	5238
뿆	5239
뿇	5240
뿈	5241
뿉	5242
뿊	5243
뿋	5244
뿌	5245
뿍	5246
뿎	5247
뿏	5248
뿐	5249
뿑	5250
뿒	5251
뿓	5252
뿔	5253
뿕	5254
뿖	5255
뿗	5256
뿘	5257
뿙	5258
뿚	5259
뿛	5260
뿜	5261
뿝	5262
뿞	5263
뿟	5264
뿡	5265
뿢	5266
뿣	5267
뿤	5268
뿥	5269
뿦	5270
뿧	5271
뿨	5272
뿩	5273
뿪	5274
뿫	5275
뿬	5276
뿭	5277
뿮	5278
뿯	5279
뿰	5280
뿱	5281
뿲	5282
뿳	5283
뿴	5284
뿵	5285
뿶	5286
뿷	5287
뿸	5288
뿹	5289
뿺	5290
뿻	5291
뿼	5292
뿽	5293
뿾	5294
뿿	5295
쀀	5296
쀁	5297
쀂	5298
쀃	5299
쀄	5300
쀅	5301
쀆	5302
쀇	5303
쀈	5304
쀉	5305
쀊	5306
쀋	5307
쀌	5308
쀍	5309
쀎	5310
쀏	5311
쀐	5312
쀑	5313
쀒	5314
쀓	5315
쀔	5316
쀕	5317
쀖	5318
쀗	5319
쀘	5320
쀙	5321
쀚	5322
쀛	5323
쀜	5324
쀝	5325
쀞	5326
쀟	5327
쀠	5328
쀡	5329
쀢	5330
쀣	5331
쀤	5332
쀥	5333
쀦	5334
쀧	5335
쀨	5336
쀩	5337
쀪	5338
쀫	5339
쀬	5340
쀭	5341
쀮	5342
쀯	5343
쀰	5344
쀱	5345
쀲	5346
쀳	5347
쀴	5348
쀵	5349
쀶	5350
쀷	5351
쀸	5352
쀹	5353
쀺	5354
쀻	5355
쀼	5356
쀽	5357
쀾	5358
쀿	5359
쁀	5360
쁁	5361
쁂	5362
쁃	5363
쁄	5364
쁅	5365
쁆	5366
쁇	5367
쁈	5368
쁉	5369
쁊	5370
쁋	5371
쁌	5372
쁍	5373
쁎	5374
쁏	5375
쁐	5376
쁑	5377
쁒	5378
쁓	5379
쁔	5380
쁕	5381
쁖	5382
쁗	5383
쁘	5384
쁙	5385
쁚	5386
쁛	5387
쁜	5388
쁝	5389
쁞	5390
쁟	5391
쁠	5392
쁡	5393
쁢	5394
쁣	5395
쁤	5396
쁥	5397
쁦	5398
쁧	5399
쁨	5400
쁩	5401
쁪	5402
쁫	5403
쁬	5404
쁭	5405
쁮	5406
쁯	5407
쁰	5408
쁱	5409
쁲	5410
쁳	5411
쁴	5412
쁵	5413
쁶	5414
쁷	5415
쁸	5416
쁹	5417
쁺	5418
쁻	5419
쁼	5420
쁽	5421
쁾	5422
쁿	5423
삀	5424
삁	5425
삂	5426
삃	5427
삄	5428
삅	5429
삆	5430
삇	5431
삈	5432
삉	5433
삊	5434
삋	5435
삌	5436
삍	5437
삎	5438
삏	5439
삐	5440
삑	5441
삒	5442
삓	5443
삔	5444
삕	5445
삖	5446
삗	5447
삘	5448
삙	5449
삚	5450
삛	5451
삜	5452
삝	5453
삞	5454
삟	5455
삠	5456
삡	5457
삢	5458
삣	5459
삤	5460
삥	5461
삦	5462
삧	5463
삨	5464
삩	5465
삪	5466
삫	5467
사	5468
삭	5469
삮	5470
삯	5471
산	5472
삱	5473
삲	5474
삳	5475
살	5476
삵	5477
삶	5478
삷	5479
삸	5480
삹	5481
삺	5482
삻	5483
삼	5484
삽	5485
삾	5486
삿	5487
상	5488
샂	5489
샃	5490
샄	5491
샅	5492
샆	5493
샇	5494
새	5495
색	5496
샊	5497
샋	5498
샌	5499
샍	5500
샎	5501
샏	5502
샐	5503
샑	5504
샒	5505
샓	5506
샔	5507
샕	5508
샖	5509
샗	5510
샘	5511
샙	5512
샚	5513
샛	5514
생	5515
샞	5516
샟	5517
샠	5518
샡	5519
샢	5520
샣	5521
샤	5522
샥	5523
샦	5524
샧	5525
샨	5526
샩	5527
샪	5528
샫	5529
샬	5530
샭	5531
샮	5532
샯	5533
샰	5534
샱	5535
샲	5536
샳	5537
샴	5538
샵	5539
샶	5540
샷	5541
샸	5542
샹	5543
샺	5544
샻	5545
샼	5546
샽	5547
샾	5548
샿	5549
섀	5550
섁	5551
섂	5552
섃	5553
섄	5554
섅	5555
섆	5556
섇	5557
섈	5558
섉	5559
섊	5560
섋	5561
섌	5562
섍	5563
섎	5564
섏	5565
섐	5566
섑	5567
섒	5568
섓	5569
섔	5570
섕	5571
섖	5572
섗	5573
섘	5574
섙	5575
섚	5576
섛	5577
서	5578
석	5579
섞	5580
섟	5581
선	5582
섡	5583
섢	5584
섣	5585
설	5586
섥	5587
섦	5588
섧	5589
섨	5590
섩	5591
섪	5592
섫	5593
섬	5594
섭	5595
섮	5596
섯	5597
섰	5598
성	5599
섲	5600
섳	5601
섴	5602
섵	5603
섶	5604
섷	5605
세	5606
섹	5607
섺	5608
섻	5609
센	5610
섽	5611
섿	5612
셀	5613
셁	5614
셂	5615
셃	5616
셄	5617
셅	5618
셆	5619
셇	5620
셈	5621
셉	5622
셊	5623
셋	5624
셍	5625
셎	5626
셏	5627
셐	5628
셑	5629
셒	5630
셓	5631
셔	5632
셕	5633
셖	5634
셗	5635
션	5636
셙	5637
셚	5638
셛	5639
셜	5640
셝	5641
셞	5642
셟	5643
셠	5644
셡	5645
셢	5646
셣	5647
셤	5648
셥	5649
셦	5650
셧	5651
셨	5652
셩	5653
셪	5654
셫	5655
셬	5656
셭	5657
셮	5658
셯	5659
셰	5660
셱	5661
셲	5662
셳	5663
셴	5664
셵	5665
셶	5666
셷	5667
셸	5668
셹	5669
셺	5670
셻	5671
셼	5672
셽	5673
셾	5674
셿	5675
솀	5676
솁	5677
솂	5678
솃	5679
솄	5680
솅	5681
솆	5682
솇	5683
솈	5684
솉	5685
솊	5686
솋	5687
소	5688
속	5689
솎	5690
솏	5691
손	5692
솑	5693
솒	5694
솓	5695
솔	5696
솕	5697
솖	5698
솗	5699
솘	5700
솙	5701
솚	5702
솛	5703
솜	5704
솝	5705
솞	5706
솟	5707
솠	5708
송	5709
솢	5710
솣	5711
솤	5712
솥	5713
솦	5714
솧	5715
솨	5716
솩	5717
솪	5718
솫	5719
솬	5720
솭	5721
솮	5722
솯	5723
솰	5724
솱	5725
솲	5726
솳	5727
솴	5728
솵	5729
솶	5730
솷	5731
솸	5732
솹	5733
솺	5734
솻	5735
솼	5736
솽	5737
솾	5738
솿	5739
쇀	5740
쇁	5741
쇂	5742
쇃	5743
쇄	5744
쇅	5745
쇆	5746
쇇	5747
쇈	5748
쇉	5749
쇊	5750
쇋	5751
쇌	5752
쇍	5753
쇎	5754
쇏	5755
쇐	5756
쇑	5757
쇒	5758
쇓	5759
쇔	5760
쇕	5761
쇖	5762
쇗	5763
쇘	5764
쇙	5765
쇚	5766
쇛	5767
쇜	5768
쇝	5769
쇞	5770
쇟	5771
쇠	5772
쇡	5773
쇢	5774
쇣	5775
쇤	5776
쇥	5777
쇦	5778
쇧	5779
쇨	5780
쇩	5781
쇪	5782
쇫	5783
쇬	5784
쇭	5785
쇮	5786
쇯	5787
쇰	5788
쇱	5789
쇲	5790
쇳	5791
쇴	5792
쇵	5793
쇶	5794
쇷	5795
쇸	5796
쇹	5797
쇺	5798
쇻	5799
쇼	5800
쇽	5801
쇾	5802
쇿	5803
숀	5804
숁	5805
숂	5806
숃	5807
숄	5808
숅	5809
숆	5810
숇	5811
숈	5812
숉	5813
숊	5814
숋	5815
숌	5816
숍	5817
숎	5818
숏	5819
숐	5820
숑	5821
숒	5822
숓	5823
숔	5824
숕	5825
숖	5826
숗	5827
수	5828
숙	5829
숚	5830
숛	5831
순	5832
숝	5833
숞	5834
숟	5835
술	5836
숡	5837
숢	5838
숣	5839
숤	5840
숥	5841
숦	5842
숧	5843
숨	5844
숩	5845
숪	5846
숫	5847
숬	5848
숭	5849
숮	5850
숯	5851
숰	5852
숱	5853
숲	5854
숳	5855
숴	5856
숵	5857
숶	5858
숷	5859
숸	5860
숹	5861
숺	5862
숻	5863
숼	5864
숽	5865
숾	5866
숿	5867
쉀	5868
쉁	5869
쉂	5870
쉃	5871
쉄	5872
쉅	5873
쉆	5874
쉇	5875
쉈	5876
쉉	5877
쉊	5878
쉋	5879
쉌	5880
쉍	5881
쉎	5882
쉏	5883
쉐	5884
쉑	5885
쉒	5886
쉓	5887
쉔	5888
쉕	5889
쉖	5890
쉗	5891
쉘	5892
쉙	5893
쉚	5894
쉛	5895
쉜	5896
쉝	5897
쉞	5898
쉟	5899
쉠	5900
쉡	5901
쉢	5902
쉣	5903
쉤	5904
쉥	5905
쉦	5906
쉧	5907
쉨	5908
쉩	5909
쉪	5910
쉫	5911
쉬	5912
쉭	5913
쉮	5914
쉯	5915
쉰	5916
쉱	5917
쉲	5918
쉳	5919
쉴	5920
쉵	5921
쉶	5922
쉷	5923
쉸	5924
쉹	5925
쉺	5926
쉻	5927
쉼	5928
쉽	5929
쉾	5930
쉿	5931
슀	5932
슁	5933
슂	5934
슃	5935
슄	5936
슅	5937
슆	5938
슇	5939
슈	5940
슉	5941
슊	5942
슋	5943
슌	5944
슍	5945
슎	5946
슏	5947
슐	5948
슑	5949
슒	5950
슓	5951
슔	5952
슕	5953
슖	5954
슗	5955
슘	5956
슙	5957
슚	5958
슛	5959
슜	5960
슝	5961
슞	5962
슟	5963
슠	5964
슡	5965
슢	5966
슣	5967
스	5968
슥	5969
슦	5970
슧	5971
슨	5972
슩	5973
슪	5974
슫	5975
슬	5976
슭	5977
슮	5978
슯	5979
슰	5980
슱	5981
슲	5982
슳	5983
슴	5984
습	5985
슶	5986
슷	5987
슸	5988
승	5989
슺	5990
슻	5991
슼	5992
슽	5993
슾	5994
슿	5995
싀	5996
싁	5997
싂	5998
싃	5999
싄	6000
싅	6001
싆	6002
싇	6003
싈	6004
싉	6005
싊	6006
싋	6007
싌	6008
싍	6009
싎	6010
싏	6011
싐	6012
싑	6013
싒	6014
싓	6015
싔	6016
싕	6017
싖	6018
싗	6019
싘	6020
싙	6021
싚	6022
싛	6023
시	6024
식	6025
싞	6026
싟	6027
신	6028
싡	6029
싢	6030
싣	6031
실	6032
싥	6033
싦	6034
싧	6035
싨	6036
싩	6037
싪	6038
싫	6039
심	6040
십	6041
싮	6042
싯	6043
싰	6044
싱	6045
싲	6046
싳	6047
싴	6048
싵	6049
싶	6050
싷	6051
싸	6052
싹	6053
싺	6054
싻	6055
싼	6056
싽	6057
싾	6058
싿	6059
쌀	6060
쌁	6061
쌂	6062
쌃	6063
쌄	6064
쌅	6065
쌆	6066
쌇	6067
쌈	6068
쌉	6069
쌊	6070
쌋	6071
쌍	6072
쌎	6073
쌏	6074
쌐	6075
쌑	6076
쌒	6077
쌓	6078
쌔	6079
쌕	6080
쌖	6081
쌗	6082
쌘	6083
쌙	6084
쌚	6085
쌛	6086
쌜	6087
쌝	6088
쌞	6089
쌟	6090
쌠	6091
쌡	6092
쌢	6093
쌣	6094
쌤	6095
쌥	6096
쌦	6097
쌧	6098
쌩	6099
쌪	6100
쌫	6101
쌬	6102
쌭	6103
쌮	6104
쌯	6105
쌰	6106
쌱	6107
쌲	6108
쌳	6109
쌴	6110
쌵	6111
쌶	6112
쌷	6113
쌸	6114
쌹	6115
쌺	6116
쌻	6117
쌼	6118
쌽	6119
쌾	6120
쌿	6121
썀	6122
썁	6123
썂	6124
썃	6125
썄	6126
썅	6127
썆	6128
썇	6129
썈	6130
썉	6131
썊	6132
썋	6133
썌	6134
썍	6135
썎	6136
썏	6137
썐	6138
썑	6139
썒	6140
썓	6141
썔	6142
썕	6143
썖	6144
썗	6145
썘	6146
썙	6147
썚	6148
썛	6149
썜	6150
썝	6151
썞	6152
썟	6153
썠	6154
썡	6155
썢	6156
썣	6157
썤	6158
썥	6159
썦	6160
썧	6161
써	6162
썩	6163
썪	6164
썫	6165
썬	6166
썭	6167
썮	6168
썯	6169
썰	6170
썱	6171
썲	6172
썳	6173
썴	6174
썵	6175
썶	6176
썷	6177
썸	6178
썹	6179
썺	6180
썻	6181
썼	6182
썽	6183
썾	6184
썿	6185
쎀	6186
쎁	6187
쎂	6188
쎃	6189
쎄	6190
쎅	6191
쎆	6192
쎇	6193
쎈	6194
쎉	6195
쎊	6196
쎋	6197
쎌	6198
쎍	6199
쎎	6200
쎏	6201
쎐	6202
쎑	6203
쎒	6204
쎓	6205
쎔	6206
쎕	6207
쎖	6208
쎗	6209
쎙	6210
쎚	6211
쎛	6212
쎜	6213
쎝	6214
쎞	6215
쎟	6216
쎠	6217
쎡	6218
쎢	6219
쎣	6220
쎤	6221
쎥	6222
쎦	6223
쎧	6224
쎨	6225
쎩	6226
쎪	6227
쎫	6228
쎬	6229
쎭	6230
쎮	6231
쎯	6232
쎰	6233
쎱	6234
쎲	6235
쎳	6236
쎴	6237
쎵	6238
쎶	6239
쎷	6240
쎸	6241
쎹	6242
쎺	6243
쎻	6244
쎼	6245
쎽	6246
쎾	6247
쎿	6248
쏀	6249
쏁	6250
쏂	6251
쏃	6252
쏄	6253
쏅	6254
쏆	6255
쏇	6256
쏈	6257
쏉	6258
쏊	6259
쏋	6260
쏌	6261
쏍	6262
쏎	6263
쏏	6264
쏐	6265
쏑	6266
쏒	6267
쏓	6268
쏔	6269
쏕	6270
쏖	6271
쏗	6272
쏘	6273
쏙	6274
쏚	6275
쏛	6276
쏜	6277
쏝	6278
쏞	6279
쏟	6280
쏠	6281
쏡	6282
쏢	6283
쏣	6284
쏤	6285
쏥	6286
쏦	6287
쏧	6288
쏨	6289
쏩	6290
쏪	6291
쏫	6292
쏬	6293
쏭	6294
쏮	6295
쏯	6296
쏰	6297
쏱	6298
쏲	6299
쏳	6300
쏴	6301
쏵	6302
쏶	6303
쏷	6304
쏸	6305
쏹	6306
쏺	6307
쏻	6308
쏼	6309
쏽	6310
쏾	6311
쏿	6312
쐀	6313
쐁	6314
쐂	6315
쐃	6316
쐄	6317
쐅	6318
쐆	6319
쐇	6320
쐉	6321
쐊	6322
쐋	6323
쐌	6324
쐍	6325
쐎	6326
쐏	6327
쐐	6328
쐑	6329
쐒	6330
쐓	6331
쐔	6332
쐕	6333
쐖	6334
쐗	6335
쐘	6336
쐙	6337
쐚	6338
쐛	6339
쐜	6340
쐝	6341
쐞	6342
쐟	6343
쐠	6344
쐡	6345
쐢	6346
쐣	6347
쐤	6348
쐥	6349
쐦	6350
쐧	6351
쐨	6352
쐩	6353
쐪	6354
쐫	6355
쐬	6356
쐭	6357
쐮	6358
쐯	6359
쐱	6360
쐲	6361
쐳	6362
쐵	6363
쐶	6364
쐷	6365
쐸	6366
쐹	6367
쐺	6368
쐻	6369
쐼	6370
쐽	6371
쐾	6372
쐿	6373
쑀	6374
쑁	6375
쑂	6376
쑃	6377
쑄	6378
쑅	6379
쑆	6380
쑇	6381
쑈	6382
쑉	6383
쑊	6384
쑋	6385
쑌	6386
쑍	6387
쑎	6388
쑏	6389
쑐	6390
쑑	6391
쑒	6392
쑓	6393
쑔	6394
쑕	6395
쑖	6396
쑗	6397
쑘	6398
쑙	6399
쑚	6400
쑛	6401
쑜	6402
쑝	6403
쑞	6404
쑟	6405
쑠	6406
쑡	6407
쑢	6408
쑣	6409
쑤	6410
쑥	6411
쑦	6412
쑧	6413
쑨	6414
쑩	6415
쑪	6416
쑫	6417
쑭	6418
쑮	6419
쑯	6420
쑰	6421
쑱	6422
쑲	6423
쑳	6424
쑴	6425
쑵	6426
쑶	6427
쑷	6428
쑸	6429
쑹	6430
쑺	6431
쑻	6432
쑼	6433
쑽	6434
쑾	6435
쑿	6436
쒀	6437
쒁	6438
쒂	6439
쒃	6440
쒄	6441
쒅	6442
쒆	6443
쒇	6444
쒈	6445
쒉	6446
쒊	6447
쒋	6448
쒌	6449
쒍	6450
쒎	6451
쒏	6452
쒐	6453
쒑	6454
쒒	6455
쒓	6456
쒕	6457
쒖	6458
쒗	6459
쒘	6460
쒙	6461
쒚	6462
쒛	6463
쒜	6464
쒝	6465
쒞	6466
쒟	6467
쒠	6468
쒡	6469
쒢	6470
쒣	6471
쒤	6472
쒥	6473
쒦	6474
쒧	6475
쒨	6476
쒩	6477
쒪	6478
쒫	6479
쒬	6480
쒭	6481
쒮	6482
쒯	6483
쒰	6484
쒱	6485
쒲	6486
쒳	6487
쒴	6488
쒵	6489
쒶	6490
쒷	6491
쒸	6492
쒹	6493
쒺	6494
쒻	6495
쒽	6496
쒾	6497
쒿	6498
쓀	6499
쓁	6500
쓂	6501
쓃	6502
쓄	6503
쓅	6504
쓆	6505
쓇	6506
쓈	6507
쓉	6508
쓊	6509
쓋	6510
쓌	6511
쓍	6512
쓎	6513
쓏	6514
쓐	6515
쓑	6516
쓒	6517
쓓	6518
쓔	6519
쓕	6520
쓖	6521
쓗	6522
쓘	6523
쓙	6524
쓚	6525
쓛	6526
쓜	6527
쓝	6528
쓞	6529
쓟	6530
쓠	6531
쓡	6532
쓢	6533
쓣	6534
쓤	6535
쓥	6536
쓦	6537
쓧	6538
쓨	6539
쓩	6540
쓪	6541
쓫	6542
쓬	6543
쓭	6544
쓮	6545
쓯	6546
쓰	6547
쓱	6548
쓲	6549
쓳	6550
쓴	6551
쓵	6552
쓶	6553
쓷	6554
쓸	6555
쓹	6556
쓺	6557
쓻	6558
쓼	6559
쓽	6560
쓾	6561
쓿	6562
씀	6563
씁	6564
씂	6565
씃	6566
씄	6567
씅	6568
씆	6569
씇	6570
씈	6571
씉	6572
씊	6573
씋	6574
씌	6575
씍	6576
씎	6577
씏	6578
씑	6579
씒	6580
씓	6581
씔	6582
씕	6583
씖	6584
씗	6585
씘	6586
씙	6587
씚	6588
씛	6589
씜	6590
씝	6591
씞	6592
씟	6593
씠	6594
씡	6595
씢	6596
씣	6597
씤	6598
씥	6599
씦	6600
씧	6601
씨	6602
씩	6603
씪	6604
씫	6605
씬	6606
씭	6607
씮	6608
씯	6609
씰	6610
씱	6611
씲	6612
씳	6613
씴	6614
씵	6615
씶	6616
씷	6617
씸	6618
씹	6619
씺	6620
씻	6621
씼	6622
씽	6623
씾	6624
씿	6625
앀	6626
앁	6627
앂	6628
앃	6629
아	6630
악	6631
앆	6632
앇	6633
안	6634
앉	6635
않	6636
앋	6637
알	6638
앍	6639
앎	6640
앏	6641
앐	6642
앑	6643
앒	6644
앓	6645
암	6646
압	6647
앖	6648
앗	6649
았	6650
앙	6651
앚	6652
앛	6653
앜	6654
앝	6655
앞	6656
앟	6657
애	6658
액	6659
앢	6660
앣	6661
앤	6662
앥	6663
앦	6664
앧	6665
앨	6666
앩	6667
앪	6668
앫	6669
앬	6670
앭	6671
앮	6672
앯	6673
앰	6674
앱	6675
앲	6676
앳	6677
앵	6678
앶	6679
앷	6680
앸	6681
앹	6682
앺	6683
앻	6684
야	6685
약	6686
앾	6687
앿	6688
얀	6689
얁	6690
얂	6691
얃	6692
얄	6693
얅	6694
얆	6695
얇	6696
얈	6697
얉	6698
얊	6699
얋	6700
얌	6701
얍	6702
얎	6703
얏	6704
얐	6705
양	6706
얒	6707
얓	6708
얔	6709
얕	6710
얖	6711
얗	6712
얘	6713
얙	6714
얚	6715
얛	6716
얜	6717
얝	6718
얞	6719
얟	6720
얡	6721
얢	6722
얣	6723
얤	6724
얥	6725
얦	6726
얧	6727
얨	6728
얩	6729
얪	6730
얫	6731
얬	6732
얭	6733
얮	6734
얯	6735
얰	6736
얱	6737
얲	6738
얳	6739
어	6740
억	6741
얶	6742
얷	6743
언	6744
얹	6745
얺	6746
얻	6747
얼	6748
얽	6749
얾	6750
얿	6751
엀	6752
엁	6753
엂	6754
엃	6755
엄	6756
업	6757
없	6758
엇	6759
었	6760
엉	6761
엊	6762
엋	6763
엌	6764
엍	6765
엎	6766
엏	6767
에	6768
엑	6769
엒	6770
엓	6771
엔	6772
엕	6773
엖	6774
엗	6775
엘	6776
엙	6777
엚	6778
엛	6779
엜	6780
엝	6781
엞	6782
엟	6783
엠	6784
엡	6785
엢	6786
엣	6787
엤	6788
엥	6789
엦	6790
엧	6791
엨	6792
엩	6793
엪	6794
엫	6795
여	6796
역	6797
엮	6798
엯	6799
연	6800
엱	6801
엲	6802
엳	6803
열	6804
엵	6805
엶	6806
엷	6807
엸	6808
엹	6809
엺	6810
엻	6811
염	6812
엽	6813
엾	6814
엿	6815
였	6816
영	6817
옂	6818
옃	6819
옄	6820
옅	6821
옆	6822
옇	6823
예	6824
옉	6825
옊	6826
옋	6827
옌	6828
옍	6829
옎	6830
옏	6831
옐	6832
옑	6833
옒	6834
옓	6835
옔	6836
옕	6837
옖	6838
옗	6839
옘	6840
옙	6841
옚	6842
옛	6843
옜	6844
옝	6845
옞	6846
옟	6847
옠	6848
옡	6849
옢	6850
옣	6851
오	6852
옥	6853
옦	6854
옧	6855
온	6856
옩	6857
옪	6858
옫	6859
올	6860
옭	6861
옮	6862
옯	6863
옰	6864
옱	6865
옲	6866
옳	6867
옴	6868
옵	6869
옶	6870
옷	6871
옸	6872
옹	6873
옺	6874
옻	6875
옼	6876
옽	6877
옾	6878
옿	6879
와	6880
왁	6881
왂	6882
왃	6883
완	6884
왅	6885
왆	6886
왇	6887
왈	6888
왉	6889
왊	6890
왋	6891
왌	6892
왍	6893
왎	6894
왏	6895
왐	6896
왑	6897
왒	6898
왓	6899
왔	6900
왕	6901
왖	6902
왗	6903
왘	6904
왙	6905
왚	6906
왛	6907
왜	6908
왝	6909
왞	6910
왟	6911
왠	6912
왡	6913
왢	6914
왣	6915
왤	6916
왥	6917
왦	6918
왧	6919
왨	6920
왩	6921
왪	6922
왫	6923
왬	6924
왭	6925
왮	6926
왯	6927
왰	6928
왱	6929
왲	6930
왳	6931
왴	6932
왵	6933
왶	6934
왷	6935
외	6936
왹	6937
왺	6938
왻	6939
왼	6940
왽	6941
왾	6942
왿	6943
욀	6944
욁	6945
욂	6946
욃	6947
욄	6948
욅	6949
욆	6950
욇	6951
욈	6952
욉	6953
욊	6954
욋	6955
욌	6956
욍	6957
욎	6958
욏	6959
욐	6960
욑	6961
욒	6962
욓	6963
요	6964
욕	6965
욖	6966
욗	6967
욘	6968
욙	6969
욚	6970
욛	6971
욜	6972
욝	6973
욞	6974
욟	6975
욠	6976
욡	6977
욢	6978
욣	6979
욤	6980
욥	6981
욦	6982
욧	6983
욨	6984
용	6985
욪	6986
욫	6987
욬	6988
욭	6989
욮	6990
욯	6991
우	6992
욱	6993
욲	6994
욳	6995
운	6996
욵	6997
욶	6998
욷	6999
울	7000
욹	7001
욺	7002
욻	7003
욼	7004
욽	7005
욾	7006
욿	7007
움	7008
웁	7009
웂	7010
웃	7011
웄	7012
웅	7013
웆	7014
웇	7015
웈	7016
웉	7017
웊	7018
웋	7019
워	7020
웍	7021
웎	7022
웏	7023
원	7024
웑	7025
웒	7026
월	7027
웕	7028
웖	7029
웗	7030
웘	7031
웙	7032
웚	7033
웛	7034
웜	7035
웝	7036
웞	7037
웟	7038
웠	7039
웡	7040
웢	7041
웣	7042
웤	7043
웥	7044
웦	7045
웧	7046
웨	7047
웩	7048
웪	7049
웫	7050
웬	7051
웭	7052
웮	7053
웯	7054
웰	7055
웱	7056
웲	7057
웳	7058
웴	7059
웵	7060
웶	7061
웷	7062
웸	7063
웹	7064
웺	7065
웻	7066
웼	7067
웽	7068
웾	7069
웿	7070
윀	7071
윁	7072
윂	7073
윃	7074
위	7075
윅	7076
윆	7077
윇	7078
윈	7079
윉	7080
윊	7081
윋	7082
윌	7083
윍	7084
윎	7085
윏	7086
윐	7087
윑	7088
윒	7089
윓	7090
윔	7091
윕	7092
윖	7093
윗	7094
윘	7095
윙	7096
윚	7097
윛	7098
윜	7099
윝	7100
윞	7101
윟	7102
유	7103
육	7104
윢	7105
윣	7106
윤	7107
윥	7108
윦	7109
윧	7110
율	7111
윩	7112
윪	7113
윫	7114
윬	7115
윭	7116
윮	7117
윯	7118
윰	7119
윱	7120
윲	7121
윳	7122
윴	7123
융	7124
윶	7125
윷	7126
윸	7127
윹	7128
윺	7129
윻	7130
으	7131
윽	7132
윾	7133
윿	7134
은	7135
읁	7136
읂	7137
읃	7138
을	7139
읅	7140
읆	7141
읇	7142
읈	7143
읉	7144
읊	7145
읋	7146
음	7147
읍	7148
읎	7149
읏	7150
읐	7151
응	7152
읒	7153
읓	7154
읔	7155
읕	7156
읖	7157
읗	7158
의	7159
읙	7160
읚	7161
읛	7162
읜	7163
읝	7164
읞	7165
읟	7166
읠	7167
읡	7168
읢	7169
읣	7170
읤	7171
읥	7172
읦	7173
읧	7174
읨	7175
읩	7176
읪	7177
읫	7178
읬	7179
읭	7180
읮	7181
읯	7182
읰	7183
읱	7184
읲	7185
읳	7186
이	7187
익	7188
읶	7189
읷	7190
인	7191
읹	7192
읺	7193
읻	7194
일	7195
읽	7196
읾	7197
읿	7198
잀	7199
잁	7200
잂	7201
잃	7202
임	7203
입	7204
잆	7205
잇	7206
있	7207
잉	7208
잊	7209
잋	7210
잌	7211
잍	7212
잎	7213
잏	7214
자	7215
작	7216
잒	7217
잓	7218
잔	7219
잕	7220
잖	7221
잗	7222
잘	7223
잙	7224
잚	7225
잛	7226
잜	7227
잝	7228
잞	7229
잟	7230
잠	7231
잡	7232
잢	7233
잣	7234
장	7235
잦	7236
잧	7237
잨	7238
잩	7239
잪	7240
잫	7241
재	7242
잭	7243
잮	7244
잯	7245
잰	7246
잱	7247
잲	7248
잳	7249
잴	7250
잵	7251
잶	7252
잷	7253
잸	7254
잹	7255
잺	7256
잻	7257
잼	7258
잽	7259
잾	7260
잿	7261
쟁	7262
쟂	7263
쟃	7264
쟄	7265
쟅	7266
쟆	7267
쟇	7268
쟈	7269
쟉	7270
쟊	7271
쟋	7272
쟌	7273
쟍	7274
쟎	7275
쟏	7276
쟐	7277
쟑	7278
쟒	7279
쟓	7280
쟔	7281
쟕	7282
쟖	7283
쟗	7284
쟘	7285
쟙	7286
쟚	7287
쟛	7288
쟜	7289
쟝	7290
쟞	7291
쟟	7292
쟠	7293
쟡	7294
쟢	7295
쟣	7296
쟤	7297
쟥	7298
쟦	7299
쟧	7300
쟩	7301
쟪	7302
쟫	7303
쟬	7304
쟭	7305
쟮	7306
쟯	7307
쟰	7308
쟱	7309
쟲	7310
쟳	7311
쟴	7312
쟵	7313
쟶	7314
쟷	7315
쟸	7316
쟹	7317
쟺	7318
쟻	7319
쟼	7320
쟽	7321
쟾	7322
쟿	7323
저	7324
적	7325
젂	7326
젃	7327
전	7328
젅	7329
젆	7330
젇	7331
절	7332
젉	7333
젊	7334
젋	7335
젌	7336
젍	7337
젎	7338
젏	7339
점	7340
접	7341
젒	7342
젓	7343
젔	7344
정	7345
젖	7346
젗	7347
젘	7348
젙	7349
젚	7350
젛	7351
제	7352
젝	7353
젞	7354
젟	7355
젠	7356
젡	7357
젢	7358
젣	7359
젤	7360
젥	7361
젦	7362
젧	7363
젨	7364
젩	7365
젪	7366
젫	7367
젬	7368
젭	7369
젮	7370
젯	7371
젰	7372
젱	7373
젲	7374
젳	7375
젴	7376
젵	7377
젶	7378
젷	7379
져	7380
젹	7381
젺	7382
젻	7383
젼	7384
젽	7385
젾	7386
젿	7387
졀	7388
졁	7389
졂	7390
졃	7391
졄	7392
졅	7393
졆	7394
졇	7395
졈	7396
졉	7397
졊	7398
졋	7399
졌	7400
졍	7401
졎	7402
졏	7403
졐	7404
졑	7405
졒	7406
졓	7407
졔	7408
졕	7409
졖	7410
졗	7411
졘	7412
졙	7413
졚	7414
졛	7415
졜	7416
졝	7417
졞	7418
졟	7419
졠	7420
졡	7421
졢	7422
졣	7423
졤	7424
졥	7425
졦	7426
졧	7427
졨	7428
졩	7429
졪	7430
졫	7431
졬	7432
졭	7433
졮	7434
졯	7435
조	7436
족	7437
졲	7438
졳	7439
존	7440
졵	7441
졶	7442
졷	7443
졸	7444
졹	7445
졺	7446
졻	7447
졼	7448
졽	7449
졾	7450
졿	7451
좀	7452
좁	7453
좂	7454
좃	7455
좄	7456
종	7457
좆	7458
좇	7459
좈	7460
좉	7461
좊	7462
좋	7463
좌	7464
좍	7465
좎	7466
좏	7467
좐	7468
좑	7469
좒	7470
좓	7471
좔	7472
좕	7473
좖	7474
좗	7475
좘	7476
좙	7477
좚	7478
좛	7479
좜	7480
좝	7481
좞	7482
좟	7483
좠	7484
좡	7485
좢	7486
좣	7487
좤	7488
좥	7489
좦	7490
좧	7491
좨	7492
좩	7493
좪	7494
좫	7495
좬	7496
좭	7497
좮	7498
좯	7499
좰	7500
좱	7501
좲	7502
좳	7503
좴	7504
좵	7505
좶	7506
좷	7507
좸	7508
좹	7509
좺	7510
좻	7511
좼	7512
좽	7513
좾	7514
좿	7515
죀	7516
죁	7517
죂	7518
죃	7519
죄	7520
죅	7521
죆	7522
죇	7523
죈	7524
죉	7525
죊	7526
죋	7527
죌	7528
죍	7529
죎	7530
죏	7531
죐	7532
죑	7533
죒	7534
죓	7535
죔	7536
죕	7537
죖	7538
죗	7539
죙	7540
죚	7541
죛	7542
죜	7543
죝	7544
죞	7545
죟	7546
죠	7547
죡	7548
죢	7549
죣	7550
죤	7551
죥	7552
죦	7553
죧	7554
죨	7555
죩	7556
죪	7557
죫	7558
죬	7559
죭	7560
죮	7561
죯	7562
죰	7563
죱	7564
죲	7565
죳	7566
죴	7567
죵	7568
죶	7569
죷	7570
죸	7571
죹	7572
죺	7573
죻	7574
주	7575
죽	7576
죾	7577
죿	7578
준	7579
줁	7580
줂	7581
줃	7582
줄	7583
줅	7584
줆	7585
줇	7586
줈	7587
줉	7588
줊	7589
줋	7590
줌	7591
줍	7592
줎	7593
줏	7594
줐	7595
중	7596
줒	7597
줓	7598
줔	7599
줕	7600
줖	7601
줗	7602
줘	7603
줙	7604
줚	7605
줛	7606
줜	7607
줝	7608
줞	7609
줟	7610
줠	7611
줡	7612
줢	7613
줣	7614
줤	7615
줥	7616
줦	7617
줧	7618
줨	7619
줩	7620
줪	7621
줫	7622
줬	7623
줭	7624
줮	7625
줯	7626
줰	7627
줱	7628
줲	7629
줳	7630
줴	7631
줵	7632
줶	7633
줷	7634
줸	7635
줹	7636
줺	7637
줻	7638
줼	7639
줽	7640
줾	7641
줿	7642
쥀	7643
쥁	7644
쥂	7645
쥃	7646
쥄	7647
쥅	7648
쥆	7649
쥇	7650
쥈	7651
쥉	7652
쥊	7653
쥋	7654
쥌	7655
쥍	7656
쥎	7657
쥏	7658
쥐	7659
쥑	7660
쥒	7661
쥓	7662
쥔	7663
쥕	7664
쥖	7665
쥗	7666
쥘	7667
쥙	7668
쥚	7669
쥛	7670
쥜	7671
쥝	7672
쥞	7673
쥟	7674
쥠	7675
쥡	7676
쥢	7677
쥣	7678
쥤	7679
쥥	7680
쥦	7681
쥧	7682
쥨	7683
쥩	7684
쥪	7685
쥫	7686
쥬	7687
쥭	7688
쥮	7689
쥯	7690
쥰	7691
쥱	7692
쥲	7693
쥳	7694
쥴	7695
쥵	7696
쥶	7697
쥷	7698
쥸	7699
쥹	7700
쥺	7701
쥻	7702
쥼	7703
쥽	7704
쥾	7705
쥿	7706
즀	7707
즁	7708
즂	7709
즃	7710
즄	7711
즅	7712
즆	7713
즇	7714
즈	7715
즉	7716
즊	7717
즋	7718
즌	7719
즍	7720
즎	7721
즏	7722
즐	7723
즑	7724
즒	7725
즓	7726
즔	7727
즕	7728
즖	7729
즗	7730
즘	7731
즙	7732
즚	7733
즛	7734
즜	7735
증	7736
즞	7737
즟	7738
즠	7739
즡	7740
즢	7741
즣	7742
즤	7743
즥	7744
즦	7745
즧	7746
즨	7747
즩	7748
즪	7749
즫	7750
즬	7751
즭	7752
즮	7753
즯	7754
즰	7755
즱	7756
즲	7757
즳	7758
즴	7759
즵	7760
즶	7761
즷	7762
즸	7763
즹	7764
즺	7765
즻	7766
즼	7767
즽	7768
즾	7769
즿	7770
지	7771
직	7772
짂	7773
짃	7774
진	7775
짅	7776
짆	7777
짇	7778
질	7779
짉	7780
짊	7781
짋	7782
짌	7783
짍	7784
짎	7785
짏	7786
짐	7787
집	7788
짒	7789
짓	7790
짔	7791
징	7792
짖	7793
짗	7794
짘	7795
짙	7796
짚	7797
짛	7798
짜	7799
짝	7800
짞	7801
짟	7802
짠	7803
짡	7804
짢	7805
짣	7806
짤	7807
짥	7808
짦	7809
짧	7810
짨	7811
짩	7812
짪	7813
짫	7814
짬	7815
짭	7816
짮	7817
짯	7818
짱	7819
짲	7820
짳	7821
짴	7822
짵	7823
짶	7824
짷	7825
째	7826
짹	7827
짺	7828
짻	7829
짼	7830
짽	7831
짾	7832
짿	7833
쨀	7834
쨁	7835
쨂	7836
쨃	7837
쨄	7838
쨅	7839
쨆	7840
쨇	7841
쨈	7842
쨉	7843
쨊	7844
쨋	7845
쨌	7846
쨍	7847
쨎	7848
쨏	7849
쨐	7850
쨑	7851
쨒	7852
쨓	7853
쨔	7854
쨕	7855
쨖	7856
쨗	7857
쨘	7858
쨙	7859
쨚	7860
쨛	7861
쨜	7862
쨝	7863
쨞	7864
쨟	7865
쨠	7866
쨡	7867
쨢	7868
쨣	7869
쨤	7870
쨥	7871
쨦	7872
쨧	7873
쨨	7874
쨩	7875
쨪	7876
쨫	7877
쨬	7878
쨭	7879
쨮	7880
쨯	7881
쨰	7882
쨱	7883
쨲	7884
쨳	7885
쨴	7886
쨵	7887
쨶	7888
쨷	7889
쨸	7890
쨹	7891
쨺	7892
쨻	7893
쨼	7894
쨽	7895
쨾	7896
쨿	7897
쩀	7898
쩁	7899
쩂	7900
쩃	7901
쩄	7902
쩅	7903
쩆	7904
쩇	7905
쩈	7906
쩉	7907
쩊	7908
쩋	7909
쩌	7910
쩍	7911
쩎	7912
쩏	7913
쩐	7914
쩑	7915
쩒	7916
쩓	7917
쩔	7918
쩕	7919
쩖	7920
쩗	7921
쩘	7922
쩙	7923
쩚	7924
쩛	7925
쩜	7926
쩝	7927
쩞	7928
쩟	7929
쩠	7930
쩡	7931
쩢	7932
쩣	7933
쩤	7934
쩥	7935
쩦	7936
쩧	7937
쩨	7938
쩩	7939
쩪	7940
쩫	7941
쩬	7942
쩭	7943
쩮	7944
쩯	7945
쩰	7946
쩱	7947
쩲	7948
쩳	7949
쩴	7950
쩵	7951
쩶	7952
쩷	7953
쩸	7954
쩹	7955
쩺	7956
쩻	7957
쩼	7958
쩽	7959
쩾	7960
쩿	7961
쪀	7962
쪁	7963
쪂	7964
쪃	7965
쪄	7966
쪅	7967
쪆	7968
쪇	7969
쪈	7970
쪉	7971
쪊	7972
쪋	7973
쪌	7974
쪍	7975
쪎	7976
쪏	7977
쪐	7978
쪑	7979
쪒	7980
쪓	7981
쪔	7982
쪕	7983
쪖	7984
쪗	7985
쪘	7986
쪙	7987
쪚	7988
쪛	7989
쪜	7990
쪝	7991
쪞	7992
쪟	7993
쪠	7994
쪡	7995
쪢	7996
쪣	7997
쪤	7998
쪥	7999
쪦	8000
쪧	8001
쪨	8002
쪩	8003
쪪	8004
쪫	8005
쪬	8006
쪭	8007
쪮	8008
쪯	8009
쪰	8010
쪱	8011
쪲	8012
쪳	8013
쪴	8014
쪵	8015
쪶	8016
쪷	8017
쪸	8018
쪹	8019
쪺	8020
쪻	8021
쪼	8022
쪽	8023
쪾	8024
쪿	8025
쫀	8026
쫁	8027
쫂	8028
쫃	8029
쫄	8030
쫅	8031
쫆	8032
쫇	8033
쫈	8034
쫉	8035
쫊	8036
쫋	8037
쫌	8038
쫍	8039
쫎	8040
쫏	8041
쫐	8042
쫑	8043
쫒	8044
쫓	8045
쫔	8046
쫕	8047
쫖	8048
쫗	8049
쫘	8050
쫙	8051
쫚	8052
쫛	8053
쫜	8054
쫝	8055
쫞	8056
쫟	8057
쫠	8058
쫡	8059
쫢	8060
쫣	8061
쫤	8062
쫥	8063
쫦	8064
쫧	8065
쫨	8066
쫩	8067
쫪	8068
쫫	8069
쫭	8070
쫮	8071
쫯	8072
쫰	8073
쫱	8074
쫲	8075
쫳	8076
쫴	8077
쫵	8078
쫶	8079
쫷	8080
쫸	8081
쫹	8082
쫺	8083
쫻	8084
쫼	8085
쫽	8086
쫾	8087
쫿	8088
쬀	8089
쬁	8090
쬂	8091
쬃	8092
쬄	8093
쬅	8094
쬆	8095
쬇	8096
쬈	8097
쬉	8098
쬊	8099
쬋	8100
쬌	8101
쬍	8102
쬎	8103
쬏	8104
쬐	8105
쬑	8106
쬒	8107
쬓	8108
쬔	8109
쬕	8110
쬖	8111
쬗	8112
쬙	8113
쬚	8114
쬛	8115
쬜	8116
쬝	8117
쬞	8118
쬟	8119
쬡	8120
쬢	8121
쬣	8122
쬤	8123
쬥	8124
쬦	8125
쬧	8126
쬨	8127
쬩	8128
쬪	8129
쬫	8130
쬬	8131
쬭	8132
쬮	8133
쬯	8134
쬰	8135
쬱	8136
쬲	8137
쬳	8138
쬴	8139
쬵	8140
쬶	8141
쬷	8142
쬸	8143
쬹	8144
쬺	8145
쬻	8146
쬼	8147
쬽	8148
쬾	8149
쬿	8150
쭀	8151
쭁	8152
쭂	8153
쭃	8154
쭄	8155
쭅	8156
쭆	8157
쭇	8158
쭈	8159
쭉	8160
쭊	8161
쭋	8162
쭌	8163
쭍	8164
쭎	8165
쭏	8166
쭐	8167
쭑	8168
쭒	8169
쭓	8170
쭔	8171
쭕	8172
쭖	8173
쭗	8174
쭘	8175
쭙	8176
쭚	8177
쭛	8178
쭜	8179
쭝	8180
쭞	8181
쭟	8182
쭠	8183
쭡	8184
쭢	8185
쭣	8186
쭤	8187
쭥	8188
쭦	8189
쭧	8190
쭨	8191
쭩	8192
쭪	8193
쭫	8194
쭬	8195
쭭	8196
쭮	8197
쭯	8198
쭰	8199
쭱	8200
쭲	8201
쭳	8202
쭴	8203
쭵	8204
쭶	8205
쭷	8206
쭸	8207
쭹	8208
쭺	8209
쭻	8210
쭼	8211
쭽	8212
쭾	8213
쭿	8214
쮀	8215
쮁	8216
쮂	8217
쮃	8218
쮄	8219
쮅	8220
쮆	8221
쮇	8222
쮈	8223
쮉	8224
쮊	8225
쮋	8226
쮌	8227
쮍	8228
쮎	8229
쮏	8230
쮐	8231
쮑	8232
쮒	8233
쮓	8234
쮔	8235
쮕	8236
쮖	8237
쮗	8238
쮘	8239
쮙	8240
쮚	8241
쮛	8242
쮜	8243
쮝	8244
쮞	8245
쮟	8246
쮠	8247
쮡	8248
쮢	8249
쮣	8250
쮤	8251
쮥	8252
쮦	8253
쮧	8254
쮨	8255
쮩	8256
쮪	8257
쮫	8258
쮬	8259
쮭	8260
쮮	8261
쮯	8262
쮰	8263
쮱	8264
쮲	8265
쮳	8266
쮴	8267
쮵	8268
쮶	8269
쮷	8270
쮸	8271
쮹	8272
쮺	8273
쮻	8274
쮼	8275
쮽	8276
쮾	8277
쮿	8278
쯀	8279
쯁	8280
쯂	8281
쯃	8282
쯄	8283
쯅	8284
쯆	8285
쯇	8286
쯈	8287
쯉	8288
쯊	8289
쯋	8290
쯌	8291
쯍	8292
쯎	8293
쯏	8294
쯐	8295
쯑	8296
쯒	8297
쯓	8298
쯔	8299
쯕	8300
쯖	8301
쯗	8302
쯘	8303
쯙	8304
쯚	8305
쯛	8306
쯜	8307
쯝	8308
쯞	8309
쯟	8310
쯠	8311
쯡	8312
쯢	8313
쯣	8314
쯤	8315
쯥	8316
쯦	8317
쯧	8318
쯨	8319
쯩	8320
쯪	8321
쯫	8322
쯬	8323
쯭	8324
쯮	8325
쯯	8326
쯰	8327
쯱	8328
쯲	8329
쯳	8330
쯴	8331
쯵	8332
쯶	8333
쯷	8334
쯸	8335
쯹	8336
쯺	8337
쯻	8338
쯼	8339
쯽	8340
쯾	8341
쯿	8342
찀	8343
찁	8344
찂	8345
찃	8346
찄	8347
찅	8348
찆	8349
찇	8350
찈	8351
찉	8352
찊	8353
찋	8354
찌	8355
찍	8356
찎	8357
찏	8358
찐	8359
찑	8360
찒	8361
찓	8362
찔	8363
찕	8364
찖	8365
찗	8366
찘	8367
찙	8368
찚	8369
찛	8370
찜	8371
찝	8372
찞	8373
찟	8374
찠	8375
찡	8376
찢	8377
찣	8378
찤	8379
찥	8380
찦	8381
찧	8382
차	8383
착	8384
찪	8385
찫	8386
찬	8387
찭	8388
찮	8389
찯	8390
찰	8391
찱	8392
찲	8393
찳	8394
찴	8395
찵	8396
찶	8397
찷	8398
참	8399
찹	8400
찺	8401
찻	8402
창	8403
찾	8404
찿	8405
챀	8406
챁	8407
챂	8408
챃	8409
채	8410
책	8411
챆	8412
챇	8413
챈	8414
챉	8415
챊	8416
챋	8417
챌	8418
챍	8419
챎	8420
챏	8421
챐	8422
챑	8423
챒	8424
챓	8425
챔	8426
챕	8427
챖	8428
챗	8429
챘	8430
챙	8431
챚	8432
챛	8433
챜	8434
챝	8435
챞	8436
챟	8437
챠	8438
챡	8439
챢	8440
챣	8441
챤	8442
챥	8443
챦	8444
챧	8445
챨	8446
챩	8447
챪	8448
챫	8449
챬	8450
챭	8451
챮	8452
챯	8453
챰	8454
챱	8455
챲	8456
챳	8457
챴	8458
챵	8459
챶	8460
챷	8461
챸	8462
챹	8463
챺	8464
챻	8465
챼	8466
챽	8467
챾	8468
챿	8469
첀	8470
첁	8471
첂	8472
첃	8473
첄	8474
첅	8475
첆	8476
첇	8477
첈	8478
첉	8479
첊	8480
첋	8481
첌	8482
첍	8483
첎	8484
첏	8485
첐	8486
첑	8487
첒	8488
첓	8489
첔	8490
첕	8491
첖	8492
첗	8493
처	8494
척	8495
첚	8496
첛	8497
천	8498
첝	8499
첞	8500
첟	8501
철	8502
첡	8503
첢	8504
첣	8505
첤	8506
첥	8507
첦	8508
첧	8509
첨	8510
첩	8511
첪	8512
첫	8513
첬	8514
청	8515
첮	8516
첯	8517
첰	8518
첱	8519
첲	8520
첳	8521
체	8522
첵	8523
첶	8524
첷	8525
첸	8526
첹	8527
첺	8528
첻	8529
첼	8530
첽	8531
첾	8532
첿	8533
쳀	8534
쳁	8535
쳂	8536
쳃	8537
쳄	8538
쳅	8539
쳆	8540
쳇	8541
쳈	8542
쳉	8543
쳊	8544
쳋	8545
쳌	8546
쳍	8547
쳎	8548
쳏	8549
쳐	8550
쳑	8551
쳒	8552
쳓	8553
쳔	8554
쳕	8555
쳖	8556
쳗	8557
쳘	8558
쳙	8559
쳚	8560
쳛	8561
쳜	8562
쳝	8563
쳞	8564
쳟	8565
쳠	8566
쳡	8567
쳢	8568
쳣	8569
쳤	8570
쳥	8571
쳦	8572
쳧	8573
쳨	8574
쳩	8575
쳪	8576
쳫	8577
쳬	8578
쳭	8579
쳮	8580
쳯	8581
쳰	8582
쳱	8583
쳲	8584
쳳	8585
쳴	8586
쳵	8587
쳶	8588
쳷	8589
쳸	8590
쳹	8591
쳺	8592
쳻	8593
쳼	8594
쳽	8595
쳾	8596
쳿	8597
촀	8598
촁	8599
촂	8600
촃	8601
촄	8602
촅	8603
촆	8604
촇	8605
초	8606
촉	8607
촊	8608
촋	8609
촌	8610
촍	8611
촎	8612
촏	8613
촐	8614
촑	8615
촒	8616
촓	8617
촔	8618
촕	8619
촖	8620
촗	8621
촘	8622
촙	8623
촚	8624
촛	8625
촜	8626
총	8627
촞	8628
촟	8629
촠	8630
촡	8631
촢	8632
촣	8633
촤	8634
촥	8635
촦	8636
촧	8637
촨	8638
촩	8639
촪	8640
촫	8641
촬	8642
촭	8643
촮	8644
촯	8645
촰	8646
촱	8647
촲	8648
촳	8649
촴	8650
촵	8651
촶	8652
촷	8653
촸	8654
촹	8655
촺	8656
촻	8657
촼	8658
촽	8659
촾	8660
촿	8661
쵀	8662
쵁	8663
쵂	8664
쵃	8665
쵄	8666
쵅	8667
쵆	8668
쵇	8669
쵈	8670
쵉	8671
쵊	8672
쵋	8673
쵌	8674
쵍	8675
쵎	8676
쵏	8677
쵐	8678
쵑	8679
쵒	8680
쵓	8681
쵔	8682
쵕	8683
쵖	8684
쵗	8685
쵘	8686
쵙	8687
쵚	8688
쵛	8689
최	8690
쵝	8691
쵞	8692
쵟	8693
쵠	8694
쵡	8695
쵢	8696
쵣	8697
쵤	8698
쵥	8699
쵦	8700
쵧	8701
쵨	8702
쵩	8703
쵪	8704
쵫	8705
쵬	8706
쵭	8707
쵮	8708
쵯	8709
쵰	8710
쵱	8711
쵲	8712
쵳	8713
쵴	8714
쵵	8715
쵶	8716
쵷	8717
쵸	8718
쵹	8719
쵺	8720
쵻	8721
쵼	8722
쵽	8723
쵾	8724
쵿	8725
춀	8726
춁	8727
춂	8728
춃	8729
춄	8730
춅	8731
춆	8732
춇	8733
춈	8734
춉	8735
춊	8736
춋	8737
춌	8738
춍	8739
춎	8740
춏	8741
춐	8742
춑	8743
춒	8744
춓	8745
추	8746
축	8747
춖	8748
춗	8749
춘	8750
춙	8751
춚	8752
춛	8753
출	8754
춝	8755
춞	8756
춟	8757
춠	8758
춡	8759
춢	8760
춣	8761
춤	8762
춥	8763
춦	8764
춧	8765
춨	8766
충	8767
춪	8768
춫	8769
춬	8770
춭	8771
춮	8772
춯	8773
춰	8774
춱	8775
춲	8776
춳	8777
춴	8778
춵	8779
춶	8780
춷	8781
춸	8782
춹	8783
춺	8784
춻	8785
춼	8786
춽	8787
춾	8788
춿	8789
췀	8790
췁	8791
췂	8792
췃	8793
췄	8794
췅	8795
췆	8796
췇	8797
췈	8798
췉	8799
췊	8800
췋	8801
췌	8802
췍	8803
췎	8804
췏	8805
췐	8806
췑	8807
췒	8808
췓	8809
췔	8810
췕	8811
췖	8812
췗	8813
췘	8814
췙	8815
췚	8816
췛	8817
췜	8818
췝	8819
췞	8820
췟	8821
췠	8822
췡	8823
췢	8824
췣	8825
췤	8826
췥	8827
췦	8828
췧	8829
취	8830
췩	8831
췪	8832
췫	8833
췬	8834
췭	8835
췮	8836
췯	8837
췰	8838
췱	8839
췲	8840
췳	8841
췴	8842
췵	8843
췶	8844
췷	8845
췸	8846
췹	8847
췺	8848
췻	8849
췼	8850
췽	8851
췾	8852
췿	8853
츀	8854
츁	8855
츂	8856
츃	8857
츄	8858
츅	8859
츆	8860
츇	8861
츈	8862
츉	8863
츊	8864
츋	8865
츌	8866
츍	8867
츎	8868
츏	8869
츐	8870
츑	8871
츒	8872
츓	8873
츔	8874
츕	8875
츖	8876
츗	8877
츘	8878
츙	8879
츚	8880
츛	8881
츜	8882
츝	8883
츞	8884
츟	8885
츠	8886
측	8887
츢	8888
츣	8889
츤	8890
츥	8891
츦	8892
츧	8893
츨	8894
츩	8895
츪	8896
츫	8897
츬	8898
츭	8899
츮	8900
츯	8901
츰	8902
츱	8903
츲	8904
츳	8905
츴	8906
층	8907
츶	8908
츷	8909
츸	8910
츹	8911
츺	8912
츻	8913
츼	8914
츽	8915
츾	8916
츿	8917
칀	8918
칁	8919
칂	8920
칃	8921
칄	8922
칅	8923
칆	8924
칇	8925
칈	8926
칉	8927
칊	8928
칋	8929
칌	8930
칍	8931
칎	8932
칏	8933
칐	8934
칑	8935
칒	8936
칓	8937
칔	8938
칕	8939
칖	8940
칗	8941
치	8942
칙	8943
칚	8944
칛	8945
친	8946
칝	8947
칞	8948
칟	8949
칠	8950
칡	8951
칢	8952
칣	8953
칤	8954
칥	8955
칦	8956
칧	8957
침	8958
칩	8959
칪	8960
칫	8961
칬	8962
칭	8963
칮	8964
칯	8965
칰	8966
칱	8967
칲	8968
칳	8969
카	8970
칵	8971
칶	8972
칷	8973
칸	8974
칹	8975
칺	8976
칻	8977
칼	8978
칽	8979
칾	8980
칿	8981
캀	8982
캁	8983
캂	8984
캃	8985
캄	8986
캅	8987
캆	8988
캇	8989
캈	8990
캉	8991
캊	8992
캋	8993
캌	8994
캍	8995
캎	8996
캏	8997
캐	8998
캑	8999
캒	9000
캓	9001
캔	9002
캕	9003
캖	9004
캗	9005
캘	9006
캙	9007
캚	9008
캛	9009
캜	9010
캝	9011
캞	9012
캟	9013
캠	9014
캡	9015
캢	9016
캣	9017
캥	9018
캦	9019
캧	9020
캨	9021
캩	9022
캪	9023
캫	9024
캬	9025
캭	9026
캮	9027
캯	9028
캰	9029
캱	9030
캲	9031
캳	9032
캴	9033
캵	9034
캶	9035
캷	9036
캸	9037
캹	9038
캺	9039
캻	9040
캼	9041
캽	9042
캾	9043
캿	9044
컀	9045
컁	9046
컂	9047
컃	9048
컄	9049
컅	9050
컆	9051
컇	9052
컈	9053
컉	9054
컊	9055
컋	9056
컌	9057
컍	9058
컎	9059
컏	9060
컐	9061
컑	9062
컒	9063
컓	9064
컔	9065
컕	9066
컖	9067
컗	9068
컘	9069
컙	9070
컚	9071
컛	9072
컜	9073
컝	9074
컞	9075
컟	9076
컠	9077
컡	9078
컢	9079
컣	9080
커	9081
컥	9082
컦	9083
컧	9084
컨	9085
컩	9086
컪	9087
컫	9088
컬	9089
컭	9090
컮	9091
컯	9092
컰	9093
컱	9094
컲	9095
컳	9096
컴	9097
컵	9098
컶	9099
컷	9100
컹	9101
컺	9102
컻	9103
컼	9104
컽	9105
컾	9106
컿	9107
케	9108
켁	9109
켂	9110
켃	9111
켄	9112
켅	9113
켆	9114
켇	9115
켈	9116
켉	9117
켊	9118
켋	9119
켌	9120
켍	9121
켎	9122
켏	9123
켐	9124
켑	9125
켒	9126
켓	9127
켔	9128
켕	9129
켖	9130
켗	9131
켘	9132
켙	9133
켚	9134
켛	9135
켜	9136
켝	9137
켞	9138
켟	9139
켠	9140
켡	9141
켢	9142
켣	9143
켤	9144
켥	9145
켦	9146
켧	9147
켨	9148
켩	9149
켪	9150
켫	9151
켬	9152
켭	9153
켮	9154
켯	9155
켰	9156
켱	9157
켲	9158
켳	9159
켴	9160
켵	9161
켶	9162
켷	9163
켸	9164
켹	9165
켺	9166
켻	9167
켼	9168
켽	9169
켾	9170
켿	9171
콀	9172
콁	9173
콂	9174
콃	9175
콄	9176
콅	9177
콆	9178
콇	9179
콈	9180
콉	9181
콊	9182
콋	9183
콌	9184
콍	9185
콎	9186
콏	9187
콐	9188
콑	9189
콒	9190
콓	9191
코	9192
콕	9193
콖	9194
콗	9195
콘	9196
콙	9197
콚	9198
콛	9199
콜	9200
콝	9201
콞	9202
콟	9203
콠	9204
콡	9205
콢	9206
콣	9207
콤	9208
콥	9209
콦	9210
콧	9211
콨	9212
콩	9213
콪	9214
콫	9215
콬	9216
콭	9217
콮	9218
콯	9219
콰	9220
콱	9221
콲	9222
콳	9223
콴	9224
콵	9225
콶	9226
콷	9227
콸	9228
콹	9229
콺	9230
콻	9231
콼	9232
콽	9233
콾	9234
콿	9235
쾀	9236
쾁	9237
쾂	9238
쾃	9239
쾄	9240
쾅	9241
쾆	9242
쾇	9243
쾈	9244
쾉	9245
쾊	9246
쾋	9247
쾌	9248
쾍	9249
쾎	9250
쾏	9251
쾐	9252
쾑	9253
쾒	9254
쾓	9255
쾔	9256
쾕	9257
쾖	9258
쾗	9259
쾘	9260
쾙	9261
쾚	9262
쾛	9263
쾜	9264
쾝	9265
쾞	9266
쾟	9267
쾠	9268
쾡	9269
쾢	9270
쾣	9271
쾤	9272
쾥	9273
쾦	9274
쾧	9275
쾨	9276
쾩	9277
쾪	9278
쾫	9279
쾬	9280
쾭	9281
쾮	9282
쾯	9283
쾰	9284
쾱	9285
쾲	9286
쾳	9287
쾴	9288
쾵	9289
쾶	9290
쾷	9291
쾸	9292
쾹	9293
쾺	9294
쾻	9295
쾼	9296
쾽	9297
쾾	9298
쾿	9299
쿀	9300
쿁	9301
쿂	9302
쿃	9303
쿄	9304
쿅	9305
쿆	9306
쿇	9307
쿈	9308
쿉	9309
쿊	9310
쿋	9311
쿌	9312
쿍	9313
쿎	9314
쿏	9315
쿐	9316
쿑	9317
쿒	9318
쿓	9319
쿔	9320
쿕	9321
쿖	9322
쿗	9323
쿘	9324
쿙	9325
쿚	9326
쿛	9327
쿜	9328
쿝	9329
쿞	9330
쿟	9331
쿠	9332
쿡	9333
쿢	9334
쿣	9335
쿤	9336
쿥	9337
쿦	9338
쿧	9339
쿨	9340
쿩	9341
쿪	9342
쿫	9343
쿬	9344
쿭	9345
쿮	9346
쿯	9347
쿰	9348
쿱	9349
쿲	9350
쿳	9351
쿴	9352
쿵	9353
쿶	9354
쿷	9355
쿸	9356
쿹	9357
쿺	9358
쿻	9359
쿼	9360
쿽	9361
쿾	9362
쿿	9363
퀀	9364
퀁	9365
퀂	9366
퀃	9367
퀄	9368
퀅	9369
퀆	9370
퀇	9371
퀈	9372
퀉	9373
퀊	9374
퀋	9375
퀌	9376
퀍	9377
퀎	9378
퀏	9379
퀐	9380
퀑	9381
퀒	9382
퀓	9383
퀔	9384
퀕	9385
퀖	9386
퀗	9387
퀘	9388
퀙	9389
퀚	9390
퀛	9391
퀜	9392
퀝	9393
퀞	9394
퀟	9395
퀠	9396
퀡	9397
퀢	9398
퀣	9399
퀤	9400
퀥	9401
퀦	9402
퀧	9403
퀨	9404
퀩	9405
퀪	9406
퀫	9407
퀬	9408
퀭	9409
퀮	9410
퀯	9411
퀰	9412
퀱	9413
퀲	9414
퀳	9415
퀴	9416
퀵	9417
퀶	9418
퀷	9419
퀸	9420
퀹	9421
퀺	9422
퀻	9423
퀼	9424
퀽	9425
퀾	9426
퀿	9427
큀	9428
큁	9429
큂	9430
큃	9431
큄	9432
큅	9433
큆	9434
큇	9435
큈	9436
큉	9437
큊	9438
큋	9439
큌	9440
큍	9441
큎	9442
큏	9443
큐	9444
큑	9445
큒	9446
큓	9447
큔	9448
큕	9449
큖	9450
큗	9451
큘	9452
큙	9453
큚	9454
큛	9455
큜	9456
큝	9457
큞	9458
큟	9459
큠	9460
큡	9461
큢	9462
큣	9463
큤	9464
큥	9465
큦	9466
큧	9467
큨	9468
큩	9469
큪	9470
큫	9471
크	9472
큭	9473
큮	9474
큯	9475
큰	9476
큱	9477
큲	9478
큳	9479
클	9480
큵	9481
큶	9482
큷	9483
큸	9484
큹	9485
큺	9486
큻	9487
큼	9488
큽	9489
큾	9490
큿	9491
킀	9492
킁	9493
킂	9494
킃	9495
킄	9496
킅	9497
킆	9498
킇	9499
킈	9500
킉	9501
킊	9502
킋	9503
킌	9504
킍	9505
킎	9506
킏	9507
킐	9508
킑	9509
킒	9510
킓	9511
킔	9512
킕	9513
킖	9514
킗	9515
킘	9516
킙	9517
킚	9518
킛	9519
킜	9520
킝	9521
킞	9522
킟	9523
킠	9524
킡	9525
킢	9526
킣	9527
키	9528
킥	9529
킦	9530
킧	9531
킨	9532
킩	9533
킪	9534
킫	9535
킬	9536
킭	9537
킮	9538
킯	9539
킰	9540
킱	9541
킲	9542
킳	9543
킴	9544
킵	9545
킶	9546
킷	9547
킸	9548
킹	9549
킺	9550
킻	9551
킼	9552
킽	9553
킾	9554
킿	9555
타	9556
탁	9557
탂	9558
탃	9559
탄	9560
탅	9561
탆	9562
탇	9563
탈	9564
탉	9565
탊	9566
탋	9567
탌	9568
탍	9569
탎	9570
탏	9571
탐	9572
탑	9573
탒	9574
탓	9575
탔	9576
탕	9577
탖	9578
탗	9579
탘	9580
탙	9581
탚	9582
탛	9583
태	9584
택	9585
탞	9586
탟	9587
탠	9588
탡	9589
탢	9590
탣	9591
탤	9592
탥	9593
탦	9594
탧	9595
탨	9596
탩	9597
탪	9598
탫	9599
탬	9600
탭	9601
탮	9602
탯	9603
탰	9604
탱	9605
탲	9606
탳	9607
탴	9608
탵	9609
탶	9610
탷	9611
탸	9612
탹	9613
탺	9614
탻	9615
탼	9616
탽	9617
탾	9618
탿	9619
턀	9620
턁	9621
턂	9622
턃	9623
턄	9624
턅	9625
턆	9626
턇	9627
턈	9628
턉	9629
턊	9630
턋	9631
턌	9632
턍	9633
턎	9634
턏	9635
턐	9636
턑	9637
턒	9638
턓	9639
턔	9640
턕	9641
턖	9642
턗	9643
턘	9644
턙	9645
턚	9646
턛	9647
턜	9648
턝	9649
턞	9650
턟	9651
턠	9652
턡	9653
턢	9654
턣	9655
턤	9656
턥	9657
턦	9658
턧	9659
턨	9660
턩	9661
턪	9662
턫	9663
턬	9664
턭	9665
턮	9666
턯	9667
터	9668
턱	9669
턲	9670
턳	9671
턴	9672
턵	9673
턶	9674
턷	9675
털	9676
턹	9677
턺	9678
턻	9679
턼	9680
턽	9681
턾	9682
턿	9683
텀	9684
텁	9685
텂	9686
텃	9687
텅	9688
텆	9689
텇	9690
텈	9691
텉	9692
텊	9693
텋	9694
테	9695
텍	9696
텎	9697
텏	9698
텐	9699
텑	9700
텒	9701
텓	9702
텔	9703
텕	9704
텖	9705
텗	9706
텘	9707
텙	9708
텚	9709
텛	9710
템	9711
텝	9712
텞	9713
텟	9714
텠	9715
텡	9716
텢	9717
텣	9718
텤	9719
텥	9720
텦	9721
텧	9722
텨	9723
텩	9724
텪	9725
텫	9726
텬	9727
텭	9728
텮	9729
텯	9730
텰	9731
텱	9732
텲	9733
텳	9734
텴	9735
텵	9736
텶	9737
텷	9738
텸	9739
텹	9740
텺	9741
텻	9742
텼	9743
텽	9744
텾	9745
텿	9746
톀	9747
톁	9748
톂	9749
톃	9750
톄	9751
톅	9752
톆	9753
톇	9754
톈	9755
톉	9756
톊	9757
톋	9758
톌	9759
톍	9760
톎	9761
톏	9762
톐	9763
톑	9764
톒	9765
톓	9766
톔	9767
톕	9768
톖	9769
톗	9770
톘	9771
톙	9772
톚	9773
톛	9774
톜	9775
톝	9776
톞	9777
톟	9778
토	9779
톡	9780
톢	9781
톣	9782
톤	9783
톥	9784
톦	9785
톧	9786
톨	9787
톩	9788
톪	9789
톫	9790
톬	9791
톭	9792
톮	9793
톯	9794
톰	9795
톱	9796
톲	9797
톳	9798
톴	9799
통	9800
톶	9801
톷	9802
톸	9803
톹	9804
톺	9805
톻	9806
톼	9807
톽	9808
톾	9809
톿	9810
퇀	9811
퇁	9812
퇂	9813
퇃	9814
퇄	9815
퇅	9816
퇆	9817
퇇	9818
퇈	9819
퇉	9820
퇊	9821
퇋	9822
퇌	9823
퇍	9824
퇎	9825
퇏	9826
퇐	9827
퇑	9828
퇒	9829
퇓	9830
퇔	9831
퇕	9832
퇖	9833
퇗	9834
퇘	9835
퇙	9836
퇚	9837
퇛	9838
퇜	9839
퇝	9840
퇞	9841
퇟	9842
퇠	9843
퇡	9844
퇢	9845
퇣	9846
퇤	9847
퇥	9848
퇦	9849
퇧	9850
퇨	9851
퇩	9852
퇪	9853
퇫	9854
퇬	9855
퇭	9856
퇮	9857
퇯	9858
퇰	9859
퇱	9860
퇲	9861
퇳	9862
퇴	9863
퇵	9864
퇶	9865
퇷	9866
퇸	9867
퇹	9868
퇺	9869
퇻	9870
퇼	9871
퇽	9872
퇾	9873
퇿	9874
툀	9875
툁	9876
툂	9877
툃	9878
툄	9879
툅	9880
툆	9881
툇	9882
툈	9883
툉	9884
툊	9885
툋	9886
툌	9887
툍	9888
툎	9889
툏	9890
툐	9891
툑	9892
툒	9893
툓	9894
툔	9895
툕	9896
툖	9897
툗	9898
툘	9899
툙	9900
툚	9901
툛	9902
툜	9903
툝	9904
툞	9905
툟	9906
툠	9907
툡	9908
툢	9909
툣	9910
툤	9911
툥	9912
툦	9913
툧	9914
툨	9915
툩	9916
툪	9917
툫	9918
투	9919
툭	9920
툮	9921
툯	9922
툰	9923
툱	9924
툲	9925
툳	9926
툴	9927
툵	9928
툶	9929
툷	9930
툸	9931
툹	9932
툺	9933
툻	9934
툼	9935
툽	9936
툾	9937
툿	9938
퉀	9939
퉁	9940
퉂	9941
퉃	9942
퉄	9943
퉅	9944
퉆	9945
퉇	9946
퉈	9947
퉉	9948
퉊	9949
퉋	9950
퉌	9951
퉍	9952
퉎	9953
퉏	9954
퉐	9955
퉑	9956
퉒	9957
퉓	9958
퉔	9959
퉕	9960
퉖	9961
퉗	9962
퉘	9963
퉙	9964
퉚	9965
퉛	9966
퉜	9967
퉝	9968
퉞	9969
퉟	9970
퉠	9971
퉡	9972
퉢	9973
퉣	9974
퉤	9975
퉥	9976
퉦	9977
퉧	9978
퉨	9979
퉩	9980
퉪	9981
퉫	9982
퉬	9983
퉭	9984
퉮	9985
퉯	9986
퉰	9987
퉱	9988
퉲	9989
퉳	9990
퉴	9991
퉵	9992
퉶	9993
퉷	9994
퉸	9995
퉹	9996
퉺	9997
퉻	9998
퉼	9999
퉽	10000
퉾	10001
퉿	10002
튀	10003
튁	10004
튂	10005
튃	10006
튄	10007
튅	10008
튆	10009
튇	10010
튈	10011
튉	10012
튊	10013
튋	10014
튌	10015
튍	10016
튎	10017
튏	10018
튐	10019
튑	10020
튒	10021
튓	10022
튔	10023
튕	10024
튖	10025
튗	10026
튘	10027
튙	10028
튚	10029
튛	10030
튜	10031
튝	10032
튞	10033
튟	10034
튠	10035
튡	10036
튢	10037
튣	10038
튤	10039
튥	10040
튦	10041
튧	10042
튨	10043
튩	10044
튪	10045
튫	10046
튬	10047
튭	10048
튮	10049
튯	10050
튰	10051
튱	10052
튲	10053
튳	10054
튴	10055
튵	10056
튶	10057
튷	10058
트	10059
특	10060
튺	10061
튻	10062
튼	10063
튽	10064
튾	10065
튿	10066
틀	10067
틁	10068
틂	10069
틃	10070
틄	10071
틅	10072
틆	10073
틇	10074
틈	10075
틉	10076
틊	10077
틋	10078
틌	10079
틍	10080
틎	10081
틏	10082
틐	10083
틑	10084
틒	10085
틓	10086
틔	10087
틕	10088
틖	10089
틗	10090
틘	10091
틙	10092
틚	10093
틛	10094
틜	10095
틝	10096
틞	10097
틟	10098
틠	10099
틡	10100
틢	10101
틣	10102
틤	10103
틥	10104
틦	10105
틧	10106
틨	10107
틩	10108
틪	10109
틫	10110
틬	10111
틭	10112
틮	10113
틯	10114
티	10115
틱	10116
틲	10117
틳	10118
틴	10119
틵	10120
틶	10121
틷	10122
틸	10123
틹	10124
틺	10125
틻	10126
틼	10127
틽	10128
틾	10129
틿	10130
팀	10131
팁	10132
팂	10133
팃	10134
팄	10135
팅	10136
팆	10137
팇	10138
팈	10139
팉	10140
팊	10141
팋	10142
파	10143
팍	10144
팎	10145
팏	10146
판	10147
팑	10148
팒	10149
팓	10150
팔	10151
팕	10152
팖	10153
팗	10154
팘	10155
팙	10156
팚	10157
팛	10158
팜	10159
팝	10160
팞	10161
팟	10162
팠	10163
팡	10164
팢	10165
팣	10166
팤	10167
팥	10168
팦	10169
팧	10170
패	10171
팩	10172
팪	10173
팫	10174
팬	10175
팭	10176
팮	10177
팯	10178
팰	10179
팱	10180
팲	10181
팳	10182
팴	10183
팵	10184
팶	10185
팷	10186
팸	10187
팹	10188
팺	10189
팻	10190
팽	10191
팾	10192
팿	10193
퍀	10194
퍁	10195
퍂	10196
퍃	10197
퍄	10198
퍅	10199
퍆	10200
퍇	10201
퍈	10202
퍉	10203
퍊	10204
퍋	10205
퍌	10206
퍍	10207
퍎	10208
퍏	10209
퍐	10210
퍑	10211
퍒	10212
퍓	10213
퍔	10214
퍕	10215
퍖	10216
퍗	10217
퍘	10218
퍙	10219
퍚	10220
퍛	10221
퍜	10222
퍝	10223
퍞	10224
퍟	10225
퍠	10226
퍡	10227
퍢	10228
퍣	10229
퍤	10230
퍥	10231
퍦	10232
퍧	10233
퍨	10234
퍩	10235
퍪	10236
퍫	10237
퍬	10238
퍭	10239
퍮	10240
퍯	10241
퍰	10242
퍱	10243
퍲	10244
퍳	10245
퍴	10246
퍵	10247
퍶	10248
퍷	10249
퍸	10250
퍹	10251
퍺	10252
퍻	10253
퍼	10254
퍽	10255
퍾	10256
퍿	10257
펀	10258
펁	10259
펂	10260
펃	10261
펄	10262
펅	10263
펆	10264
펇	10265
펈	10266
펉	10267
펊	10268
펋	10269
펌	10270
펍	10271
펎	10272
펏	10273
펐	10274
펑	10275
펒	10276
펓	10277
펔	10278
펕	10279
펖	10280
펗	10281
페	10282
펙	10283
펚	10284
펛	10285
펜	10286
펝	10287
펞	10288
펟	10289
펠	10290
펡	10291
펢	10292
펣	10293
펤	10294
펥	10295
펦	10296
펧	10297
펨	10298
펩	10299
펪	10300
펫	10301
펬	10302
펭	10303
펮	10304
펯	10305
펰	10306
펱	10307
펲	10308
펳	10309
펴	10310
펵	10311
펶	10312
펷	10313
편	10314
펹	10315
펺	10316
펻	10317
펼	10318
펽	10319
펾	10320
펿	10321
폀	10322
폁	10323
폂	10324
폃	10325
폄	10326
폅	10327
폆	10328
폇	10329
평	10330
폊	10331
폋	10332
폌	10333
폍	10334
폎	10335
폏	10336
폐	10337
폑	10338
폒	10339
폓	10340
폔	10341
폕	10342
폖	10343
폗	10344
폘	10345
폙	10346
폚	10347
폛	10348
폜	10349
폝	10350
폞	10351
폟	10352
폠	10353
폡	10354
폢	10355
폣	10356
폤	10357
폥	10358
폦	10359
폧	10360
폨	10361
폩	10362
폪	10363
폫	10364
포	10365
폭	10366
폮	10367
폯	10368
폰	10369
폱	10370
폲	10371
폳	10372
폴	10373
폵	10374
폶	10375
폷	10376
폸	10377
폹	10378
폺	10379
폻	10380
폼	10381
폽	10382
폾	10383
폿	10384
퐀	10385
퐁	10386
퐂	10387
퐃	10388
퐄	10389
퐅	10390
퐆	10391
퐇	10392
퐈	10393
퐉	10394
퐊	10395
퐋	10396
퐌	10397
퐍	10398
퐎	10399
퐏	10400
퐐	10401
퐑	10402
퐒	10403
퐓	10404
퐔	10405
퐕	10406
퐖	10407
퐗	10408
퐘	10409
퐙	10410
퐚	10411
퐛	10412
퐜	10413
퐝	10414
퐞	10415
퐟	10416
퐠	10417
퐡	10418
퐢	10419
퐣	10420
퐤	10421
퐥	10422
퐦	10423
퐧	10424
퐨	10425
퐩	10426
퐪	10427
퐫	10428
퐬	10429
퐭	10430
퐮	10431
퐯	10432
퐰	10433
퐱	10434
퐲	10435
퐳	10436
퐴	10437
퐵	10438
퐶	10439
퐷	10440
퐸	10441
퐹	10442
퐺	10443
퐻	10444
퐼	10445
퐽	10446
퐾	10447
퐿	10448
푀	10449
푁	10450
푂	10451
푃	10452
푄	10453
푅	10454
푆	10455
푇	10456
푈	10457
푉	10458
푊	10459
푋	10460
푌	10461
푍	10462
푎	10463
푏	10464
푐	10465
푑	10466
푒	10467
푓	10468
푔	10469
푕	10470
푖	10471
푗	10472
푘	10473
푙	10474
푚	10475
푛	10476
표	10477
푝	10478
푞	10479
푟	10480
푠	10481
푡	10482
푢	10483
푣	10484
푤	10485
푥	10486
푦	10487
푧	10488
푨	10489
푩	10490
푪	10491
푫	10492
푬	10493
푭	10494
푮	10495
푯	10496
푰	10497
푱	10498
푲	10499
푳	10500
푴	10501
푵	10502
푶	10503
푷	10504
푸	10505
푹	10506
푺	10507
푻	10508
푼	10509
푽	10510
푾	10511
푿	10512
풀	10513
풁	10514
풂	10515
풃	10516
풄	10517
풅	10518
풆	10519
풇	10520
품	10521
풉	10522
풊	10523
풋	10524
풌	10525
풍	10526
풎	10527
풏	10528
풐	10529
풑	10530
풒	10531
풓	10532
풔	10533
풕	10534
풖	10535
풗	10536
풘	10537
풙	10538
풚	10539
풛	10540
풜	10541
풝	10542
풞	10543
풟	10544
풠	10545
풡	10546
풢	10547
풣	10548
풤	10549
풥	10550
풦	10551
풧	10552
풨	10553
풩	10554
풪	10555
풫	10556
풬	10557
풭	10558
풮	10559
풯	10560
풰	10561
풱	10562
풲	10563
풳	10564
풴	10565
풵	10566
풶	10567
풷	10568
풸	10569
풹	10570
풺	10571
풻	10572
풼	10573
풽	10574
풾	10575
풿	10576
퓀	10577
퓁	10578
퓂	10579
퓃	10580
퓄	10581
퓅	10582
퓆	10583
퓇	10584
퓈	10585
퓉	10586
퓊	10587
퓋	10588
퓌	10589
퓍	10590
퓎	10591
퓏	10592
퓐	10593
퓑	10594
퓒	10595
퓓	10596
퓔	10597
퓕	10598
퓖	10599
퓗	10600
퓘	10601
퓙	10602
퓚	10603
퓛	10604
퓜	10605
퓝	10606
퓞	10607
퓟	10608
퓠	10609
퓡	10610
퓢	10611
퓣	10612
퓤	10613
퓥	10614
퓦	10615
퓧	10616
퓨	10617
퓩	10618
퓪	10619
퓫	10620
퓬	10621
퓭	10622
퓮	10623
퓯	10624
퓰	10625
퓱	10626
퓲	10627
퓳	10628
퓴	10629
퓵	10630
퓶	10631
퓷	10632
퓸	10633
퓹	10634
퓺	10635
퓻	10636
퓼	10637
퓽	10638
퓾	10639
퓿	10640
픀	10641
픁	10642
픂	10643
픃	10644
프	10645
픅	10646
픆	10647
픇	10648
픈	10649
픉	10650
픊	10651
픋	10652
플	10653
픍	10654
픎	10655
픏	10656
픐	10657
픑	10658
픒	10659
픓	10660
픔	10661
픕	10662
픖	10663
픗	10664
픘	10665
픙	10666
픚	10667
픛	10668
픜	10669
픝	10670
픞	10671
픟	10672
픠	10673
픡	10674
픢	10675
픣	10676
픤	10677
픥	10678
픦	10679
픧	10680
픨	10681
픩	10682
픪	10683
픫	10684
픬	10685
픭	10686
픮	10687
픯	10688
픰	10689
픱	10690
픲	10691
픳	10692
픴	10693
픵	10694
픶	10695
픷	10696
픸	10697
픹	10698
픺	10699
픻	10700
피	10701
픽	10702
픾	10703
픿	10704
핀	10705
핁	10706
핂	10707
핃	10708
필	10709
핅	10710
핆	10711
핇	10712
핈	10713
핉	10714
핊	10715
핋	10716
핌	10717
핍	10718
핎	10719
핏	10720
핐	10721
핑	10722
핒	10723
핓	10724
핔	10725
핕	10726
핖	10727
핗	10728
하	10729
학	10730
핚	10731
핛	10732
한	10733
핝	10734
핞	10735
핟	10736
할	10737
핡	10738
핢	10739
핣	10740
핤	10741
핥	10742
핦	10743
핧	10744
함	10745
합	10746
핪	10747
핫	10748
핬	10749
항	10750
핮	10751
핯	10752
핰	10753
핱	10754
핲	10755
핳	10756
해	10757
핵	10758
핶	10759
핷	10760
핸	10761
핹	10762
핺	10763
핻	10764
핼	10765
핽	10766
핾	10767
핿	10768
햀	10769
햁	10770
햂	10771
햃	10772
햄	10773
햅	10774
햆	10775
햇	10776
했	10777
행	10778
햊	10779
햋	10780
햌	10781
햍	10782
햎	10783
햏	10784
햐	10785
햑	10786
햒	10787
햓	10788
햔	10789
햕	10790
햖	10791
햗	10792
햘	10793
햙	10794
햚	10795
햛	10796
햜	10797
햝	10798
햞	10799
햟	10800
햠	10801
햡	10802
햢	10803
햣	10804
햤	10805
향	10806
햦	10807
햧	10808
햨	10809
햩	10810
햪	10811
햫	10812
햬	10813
햭	10814
햮	10815
햯	10816
햰	10817
햱	10818
햲	10819
햳	10820
햴	10821
햵	10822
햶	10823
햷	10824
햸	10825
햹	10826
햺	10827
햻	10828
햼	10829
햽	10830
햾	10831
햿	10832
헁	10833
헂	10834
헃	10835
헄	10836
헅	10837
헆	10838
헇	10839
허	10840
헉	10841
헊	10842
헋	10843
헌	10844
헍	10845
헎	10846
헏	10847
헐	10848
헑	10849
헒	10850
헓	10851
헔	10852
헕	10853
헖	10854
헗	10855
험	10856
헙	10857
헚	10858
헛	10859
헝	10860
헞	10861
헟	10862
헠	10863
헡	10864
헢	10865
헣	10866
헤	10867
헥	10868
헦	10869
헧	10870
헨	10871
헩	10872
헪	10873
헫	10874
헬	10875
헭	10876
헮	10877
헯	10878
헰	10879
헱	10880
헲	10881
헳	10882
헴	10883
헵	10884
헶	10885
헷	10886
헹	10887
헺	10888
헻	10889
헼	10890
헽	10891
헾	10892
헿	10893
혀	10894
혁	10895
혂	10896
혃	10897
현	10898
혅	10899
혆	10900
혇	10901
혈	10902
혉	10903
혊	10904
혋	10905
혌	10906
혍	10907
혎	10908
혏	10909
혐	10910
협	10911
혒	10912
혓	10913
혔	10914
형	10915
혖	10916
혗	10917
혘	10918
혙	10919
혚	10920
혛	10921
혜	10922
혝	10923
혞	10924
혟	10925
혠	10926
혡	10927
혢	10928
혣	10929
혤	10930
혥	10931
혦	10932
혧	10933
혨	10934
혩	10935
혪	10936
혫	10937
혬	10938
혭	10939
혮	10940
혯	10941
혰	10942
혱	10943
혲	10944
혳	10945
혴	10946
혵	10947
혶	10948
혷	10949
호	10950
혹	10951
혺	10952
혻	10953
혼	10954
혽	10955
혾	10956
혿	10957
홀	10958
홁	10959
홂	10960
홃	10961
홄	10962
홅	10963
홆	10964
홇	10965
홈	10966
홉	10967
홊	10968
홋	10969
홌	10970
홍	10971
홎	10972
홏	10973
홐	10974
홑	10975
홒	10976
홓	10977
화	10978
확	10979
홖	10980
홗	10981
환	10982
홙	10983
홚	10984
홛	10985
활	10986
홝	10987
홞	10988
홟	10989
홠	10990
홡	10991
홢	10992
홣	10993
홤	10994
홥	10995
홦	10996
홧	10997
홨	10998
황	10999
홪	11000
홫	11001
홬	11002
홭	11003
홮	11004
홯	11005
홰	11006
홱	11007
홲	11008
홳	11009
홴	11010
홵	11011
홶	11012
홷	11013
홸	11014
홹	11015
홺	11016
홻	11017
홼	11018
홽	11019
홾	11020
홿	11021
횀	11022
횁	11023
횂	11024
횃	11025
횄	11026
횅	11027
횆	11028
횇	11029
횈	11030
횉	11031
횊	11032
횋	11033
회	11034
획	11035
횎	11036
횏	11037
횐	11038
횑	11039
횒	11040
횓	11041
횔	11042
횕	11043
횖	11044
횗	11045
횘	11046
횙	11047
횚	11048
횛	11049
횜	11050
횝	11051
횞	11052
횟	11053
횠	11054
횡	11055
횢	11056
횣	11057
횤	11058
횥	11059
횦	11060
횧	11061
효	11062
횩	11063
횪	11064
횫	11065
횬	11066
횭	11067
횮	11068
횯	11069
횰	11070
횱	11071
횲	11072
횳	11073
횴	11074
횵	11075
횶	11076
횷	11077
횸	11078
횹	11079
횺	11080
횻	11081
횼	11082
횽	11083
횾	11084
횿	11085
훀	11086
훁	11087
훂	11088
훃	11089
후	11090
훅	11091
훆	11092
훇	11093
훈	11094
훉	11095
훊	11096
훋	11097
훌	11098
훍	11099
훎	11100
훏	11101
훐	11102
훑	11103
훒	11104
훓	11105
훔	11106
훕	11107
훖	11108
훗	11109
훘	11110
훙	11111
훚	11112
훛	11113
훜	11114
훝	11115
훞	11116
훟	11117
훠	11118
훡	11119
훢	11120
훣	11121
훤	11122
훥	11123
훦	11124
훧	11125
훨	11126
훩	11127
훪	11128
훫	11129
훬	11130
훭	11131
훮	11132
훯	11133
훰	11134
훱	11135
훲	11136
훳	11137
훴	11138
훵	11139
훶	11140
훷	11141
훸	11142
훹	11143
훺	11144
훻	11145
훼	11146
훽	11147
훾	11148
훿	11149
휀	11150
휁	11151
휂	11152
휃	11153
휄	11154
휅	11155
휆	11156
휇	11157
휈	11158
휉	11159
휊	11160
휋	11161
휌	11162
휍	11163
휎	11164
휏	11165
휐	11166
휑	11167
휒	11168
휓	11169
휔	11170
휕	11171
휖	11172
휗	11173
휘	11174
휙	11175
휚	11176
휛	11177
휜	11178
휝	11179
휞	11180
휟	11181
휠	11182
휡	11183
휢	11184
휣	11185
휤	11186
휥	11187
휦	11188
휧	11189
휨	11190
휩	11191
휪	11192
휫	11193
휬	11194
휭	11195
휮	11196
휯	11197
휰	11198
휱	11199
휲	11200
휳	11201
휴	11202
휵	11203
휶	11204
휷	11205
휸	11206
휹	11207
휺	11208
휻	11209
휼	11210
휽	11211
휾	11212
휿	11213
흀	11214
흁	11215
흂	11216
흃	11217
흄	11218
흅	11219
흆	11220
흇	11221
흈	11222
흉	11223
흊	11224
흋	11225
흌	11226
흍	11227
흎	11228
흏	11229
흐	11230
흑	11231
흒	11232
흓	11233
흔	11234
흕	11235
흖	11236
흗	11237
흘	11238
흙	11239
흚	11240
흛	11241
흜	11242
흝	11243
흞	11244
흟	11245
흠	11246
흡	11247
흢	11248
흣	11249
흤	11250
흥	11251
흦	11252
흧	11253
흨	11254
흩	11255
흪	11256
흫	11257
희	11258
흭	11259
흮	11260
흯	11261
흰	11262
흱	11263
흲	11264
흳	11265
흵	11266
흶	11267
흷	11268
흸	11269
흹	11270
흺	11271
흻	11272
흼	11273
흽	11274
흾	11275
흿	11276
힀	11277
힁	11278
힂	11279
힃	11280
힄	11281
힅	11282
힆	11283
힇	11284
히	11285
힉	11286
힊	11287
힋	11288
힌	11289
힍	11290
힎	11291
힏	11292
힐	11293
힑	11294
힒	11295
힓	11296
힔	11297
힕	11298
힖	11299
힗	11300
힘	11301
힙	11302
힚	11303
힛	11304
힜	11305
힝	11306
힞	11307
힟	11308
힠	11309
힡	11310
힢	11311
힣	11312
##불	11313
##동	11314
##계	11315
##시	11316
##s	11317
##u	11318
##r	11319
##p	11320
##e	11321
##추	11322
##k	11323
##8	11324
##7	11325
##1	11326
##2	11327
##신	11328
##병	11329
##자	11330
##레	11331
##띠	11332
##a	11333
##h	11334
##i	11335
##m	11336
##c	11337
##t	11338
##쾌	11339
##라	11340
##l	11341
##포	11342
##N	11343
##C	11344
##H	11345
##A	11346
##T	11347
##E	11348
##D	11349
##쌍	11350
##n	11351
##q	11352
##o	11353
##b	11354
##d	11355
##일	11356
##러	11357
##호	11358
##킨	11359
##스	11360
##g	11361
##y	11362
##z	11363
##f	11364
##소	11365
##토	11366
##세	11367
##노	11368
##어	11369
##F	11370
##3	11371
##0	11372
##젯	11373
##디	11374
##파	11375
##루	11376
##국	11377
##대	11378
##만	11379
##도	11380
##르	11381
##키	11382
##예	11383
##탁	11384
##6	11385
##9	11386
##5	11387
##슙	11388
##슈	11389
##비	11390
##왑	11391
##빱	11392
##빠	11393
##숑	11394
##O	11395
##L	11396
##I	11397
##S	11398
##v	11399
##j	11400
##부	11401
##가	11402
##하	11403
##굴	11404
##4	11405
##G	11406
##R	11407
##펠	11408
##리	11409
##향	11410
##범	11411
##베	11412
##모	11413
##여	11414
##의	11415
##삼	11416
##사	11417
##감	11418
##수	11419
##를	11420
##M	11421
##P	11422
##우	11423
##한	11424
##Z	11425
##균	11426
##둥	11427
##지	11428
##환	11429
##상	11430
##피	11431
##화	11432
##B	11433
##U	11434
##w	11435
##런	11436
##종	11437
##제	11438
##현	11439
##V	11440
##K	11441
##운	11442
##휠	11443
##슨	11444
##ㅡ	11445
##공	11446
##격	11447
##기	11448
##찬	11449
##얼	11450
##왕	11451
##조	11452
##톨	11453
##실	11454
##드	11455
##염	11456
##워	11457
##들	11458
##아	11459
##푸	11460
##셀	11461
##츠	11462
##먼	11463
##게	11464
##크	11465
##Y	11466
##은	11467
##미	11468
##울	11469
##술	11470
##단	11471
##희	11472
##치	11473
##선	11474
##남	11475
##쓰	11476
##방	11477
##달	11478
##본	11479
##마	11480
##벼	11481
##락	11482
##뒤	11483
##돌	11484
##차	11485
##이	11486
##주	11487
##애	11488
##꿀	11489
##해	11490
##린	11491
##룰	11492
##는	11493
##천	11494
##보	11495
##야	11496
##ᆫ	11497
##ᄃ	11498
##ᅡ	11499
##혼	11500
##금	11501
##석	11502
##ᅳ	11503
##ᄅ	11504
##ᄋ	11505
##ᅩ	11506
##초	11507
##령	11508
##과	11509
##철	11510
##영	11511
##연	11512
##랜	11513
##오	11514
##체	11515
##렌	11516
##J	11517
##죄	11518
##길	11519
##충	11520
##재	11521
##거	11522
##골	11523
##섭	11524
##ᅣ	11525
##ᄂ	11526
##ᅵ	11527
##송	11528
##*	11529
##[	11530
##흉	11531
##귀	11532
##무	11533
##ㅝ	11534
##ㄵ	11535
##카	11536
##핀	11537
##태	11538
##와	11539
##고	11540
##티	11541
##겐	11542
##배	11543
##순	11544
##발	11545
##칸	11546
##언	11547
##ᅥ	11548
##ᅭ	11549
##ᆺ	11550
##타	11551
##당	11552
##인	11553
##식	11554
##취	11555
##나	11556
##문	11557
##웅	11558
##니	11559
##등	11560
##에	11561
##W	11562
##X	11563
##x	11564
##필	11565
##승	11566
##명	11567
##복	11568
##톤	11569
##륜	11570
##랄	11571
##물	11572
##까	11573
##덕	11574
##람	11575
##안	11576
##툰	11577
##누	11578
##구	11579
##로	11580
##버	11581
##암	11582
##.	11583
##창	11584
##형	11585
##관	11586
##잇	11587
##딩	11588
##첬	11589
##다	11590
##으	11591
##경	11592
##판	11593
##정	11594
##패	11595
##움	11596
##!	11597
##?	11598
##~	11599
##생	11600
##활	11601
##면	11602
##효	11603
##진	11604
##쿠	11605
##법	11606
##침	11607
##프	11608
##테	11609
##케	11610
##블	11611
##교	11612
##돔	11613
##코	11614
##네	11615
##궁	11616
##장	11617
##숙	11618
##을	11619
##심	11620
##벨	11621
##성	11622
##휘	11623
##란	11624
##농	11625
##래	11626
##그	11627
##서	11628
##퀸	11629
##임	11630
##ㅂ	11631
##ㅎ	11632
##ㅍ	11633
##ㅌ	11634
##ㄴ	11635
##밤	11636
##류	11637
##학	11638
##즈	11639
##투	11640
##알	11641
##트	11642
##살	11643
##징	11644
##력	11645
##림	11646
##페	11647
##특	11648
##망	11649
##적	11650
##압	11651
##앙	11652
##윈	11653
##좀	11654
##벌	11655
##개	11656
##외	11657
##Q	11658
##광	11659
##굿	11660
##즘	11661
##메	11662
##총	11663
##입	11664
##엉	11665
##너	11666
##삭	11667
##ㅛ	11668
##칼	11669
##데	11670
##빤	11671
##밥	11672
##백	11673
##씩	11674
##객	11675
##양	11676
##립	11677
##원	11678
##릉	11679
##역	11680
##청	11681
##윤	11682
##쉬	11683
##ᅦ	11684
##갈	11685
##혜	11686
##잉	11687
##펫	11688
##혐	11689
##료	11690
##온	11691
##늬	11692
##퉁	11693
##ᅢ	11694
##급	11695
##겔	11696
##두	11697
##근	11698
##유	11699
##떼	11700
##끼	11701
##설	11702
##셉	11703
##준	11704
##곡	11705
##퍼	11706
##허	11707
##엄	11708
##넷	11709
##뿓	11710
##따	11711
##^	11712
##황	11713
##바	11714
##론	11715
##산	11716
##춘	11717
##옥	11718
##처	11719
##럼	11720
##닭	11721
##웃	11722
##더	11723
##손	11724
##빛	11725
##올	11726
##강	11727
##홀	11728
##닉	11729
##극	11730
##/	11731
##+	11732
##터	11733
##습	11734
##작	11735
##뉴	11736
##월	11737
##ㅣ	11738
##ㅊ	11739
##@	11740
##'	11741
##용	11742
##항	11743
##했	11744
##저	11745
##웬	11746
##난	11747
##훈	11748
##ㄱ	11749
##ㅆ	11750
##롤	11751
##빈	11752
##군	11753
##켈	11754
##틱	11755
##규	11756
##밍	11757
##ㅙ	11758
##ㄾ	11759
##델	11760
##번	11761
##젠	11762
##댔	11763
##색	11764
##톈	11765
##민	11766
##욱	11767
##링	11768
##돋	11769
##커	11770
##먹	11771
##례	11772
##책	11773
##전	11774
##ㅈ	11775
##풍	11776
##층	11777
##뎀	11778
##샬	11779
##새	11780
##합	11781
##긴	11782
##젤	11783
##갑	11784
##려	11785
##요	11786
##밟	11787
##ㅏ	11788
##탠	11789
##잘	11790
##ᆯ	11791
##ᄁ	11792
##쭝	11793
##통	11794
##브	11795
##흐	11796
##퇴	11797
##렁	11798
##헐	11799
##점	11800
##권	11801
##짓	11802
##센	11803
##킬	11804
##튼	11805
##악	11806
##휴	11807
##익	11808
##찌	11809
##홍	11810
##풀	11811
##츤	11812
##플	11813
##축	11814
##증	11815
##중	11816
##튜	11817
##몽	11818
##절	11819
##건	11820
##랴	11821
##ㅕ	11822
##져	11823
##ㅑ	11824
##행	11825
##표	11826
##슬	11827
##택	11828
##쳐	11829
##팬	11830
##막	11831
##샨	11832
##찰	11833
##내	11834
##냐	11835
##삿	11836
##늘	11837
##틸	11838
##열	11839
##편	11840
##돈	11841
##탄	11842
##롱	11843
##분	11844
##멜	11845
##담	11846
##룻	11847
##맹	11848
##록	11849
##룡	11850
##든	11851
##ᅧ	11852
##ᄀ	11853
##ᅮ	11854
##업	11855
##띄	11856
##혁	11857
##칵	11858
##왈	11859
##얀	11860
##놈	11861
##룸	11862
##촌	11863
##틴	11864
##ㅓ	11865
##앞	11866
##딥	11867
##닝	11868
##컥	11869
##튀	11870
##출	11871
##꽃	11872
##협	11873
##글	11874
##득	11875
##셔	11876
##틀	11877
##ㄷ	11878
##ㅇ	11879
##ㅅ	11880
##김	11881
##탕	11882
##히	11883
##:	11884
##-	11885
###	11886
##른	11887
##반	11888
##곤	11889
##집	11890
##걀	11891
##헬	11892
##흥	11893
##랑	11894
##질	11895
##툴	11896
##목	11897
##봉	11898
##웨	11899
##말	11900
##몬	11901
##)	11902
##췩	11903
##콜	11904
##맛	11905
##독	11906
##큼	11907
##위	11908
##랏	11909
##채	11910
##넛	11911
##즹	11912
##겅	11913
##늑	11914
##슌	11915
##깃	11916
##십	11917
##ㅞ	11918
##렉	11919
##박	11920
##퀴	11921
##>	11922
##셒	11923
##슾	11924
##쟁	11925
##또	11926
##각	11927
##족	11928
##맥	11929
##ㅜ	11930
##걱	11931
##헌	11932
##후	11933
##률	11934
##험	11935
##궐	11936
##ㅖ	11937
##ㄲ	11938
##탈	11939
##ㄹ	11940
##엃	11941
##헣	11942
##ㅋ	11943
##헗	11944
##컼	11945
##간	11946
##릭	11947
##먐	11948
##팀	11949
##벤	11950
##훠	11951
##션	11952
##릴	11953
##검	11954
##멸	11955
##삥	11956
##폴	11957
##땃	11958
##뷸	11959
##탑	11960
##턴	11961
##걸	11962
##변	11963
##며	11964
##액	11965
##뾱	11966
##떙	11967
##훙	11968
##겸	11969
##납	11970
##년	11971
##팔	11972
##넬	11973
##량	11974
##참	11975
##밭	11976
##완	11977
##매	11978
##괴	11979
##회	11980
##였	11981
##춰	11982
##윅	11983
##쪼	11984
##뢰	11985
##널	11986
##값	11987
##샹	11988
##클	11989
##직	11990
##꼬	11991
##혀	11992
##결	11993
##,	11994
##<	11995
##ㅒ	11996
##ㄽ	11997
##답	11998
##딘	11999
##앵	12000
##ㅢ	12001
##ㄻ	12002
##렛	12003
##놀	12004
##읍	12005
##촬	12006
##낭	12007
##평	12008
##속	12009
##줄	12010
##렬	12011
##렴	12012
##곰	12013
##맞	12014
##캉	12015
##존	12016
##틈	12017
##섬	12018
##잭	12019
##접	12020
##싱	12021
##븐	12022
##빌	12023
##붙	12024
##육	12025
##엘	12026
##쌰	12027
##ᄆ	12028
##ᄉ	12029
##듀	12030
##품	12031
##램	12032
##빅	12033
##늠	12034
##춤	12035
##받	12036
##ᄌ	12037
##텔	12038
##던	12039
##쿤	12040
##느	12041
##릅	12042
##칙	12043
##헤	12044
##짤	12045
##묘	12046
##날	12047
##밀	12048
##덩	12049
##련	12050
##퀄	12051
##뜻	12052
##ㅗ	12053
##앗	12054
##럽	12055
##것	12056
##륭	12057
##덴	12058
##깥	12059
##닌	12060
##씨	12061
##ㄼ	12062
##쿨	12063
##므	12064
##샤	12065
##척	12066
##엑	12067
##ㅔ	12068
##ㄳ	12069
##멀	12070
##맨	12071
##쯔	12072
##낙	12073
##탬	12074
##견	12075
##없	12076
##푼	12077
##짜	12078
##깡	12079
##ㅠ	12080
##ㄿ	12081
##름	12082
##콩	12083
##샛	12084
##팡	12085
##빙	12086
##&	12087
##$	12088
##괘	12089
##;	12090
##"	12091
##칠	12092
##닿	12093
##뎋	12094
##끗	12095
##논	12096
##ㅐ	12097
##ᅬ	12098
##북	12099
##함	12100
##뿔	12101
##쇼	12102
##갤	12103
##%	12104
##겨	12105
##핵	12106
##머	12107
##앤	12108
##즐	12109
##털	12110
##콤	12111
##엇	12112
##할	12113
##폕	12114
##잣	12115
##약	12116
##음	12117
##착	12118
##캔	12119
##슴	12120
##잏	12121
##맷	12122
##잔	12123
##욕	12124
##]	12125
##엔	12126
##었	12127
##멍	12128
##뮨	12129
##팜	12130
##룹	12131
##룽	12132
##쨩	12133
##녕	12134
##볶	12135
##헨	12136
##ㅟ	12137
##곶	12138
##멧	12139
##돼	12140
##꿎	12141
##폭	12142
##딱	12143
##둑	12144
##쌈	12145
##밈	12146
##셜	12147
##팰	12148
##꾼	12149
##잎	12150
##꺐	12151
##멘	12152
##떡	12153
##딕	12154
##쁑	12155
##젓	12156
##숭	12157
##맣	12158
##붏	12159
##붇	12160
##윙	12161
##왁	12162
##꼴	12163
##샘	12164
##띰	12165
##죽	12166
##챌	12167
##턱	12168
##났	12169
##둠	12170
##닛	12171
##능	12172
##친	12173
##킹	12174
##잖	12175
##떠	12176
##넨	12177
##ᆻ	12178
##댕	12179
##ㄶ	12180
##ㅄ	12181
##봐	12182
##뺑	12183
##\	12184
##}	12185
##첼	12186
##힐	12187
##볼	12188
##킥	12189
##짐	12190
##렐	12191
##껄	12192
##빵	12193
##롯	12194
##랭	12195
##첸	12196
##럭	12197
##{	12198
##벙	12199
##ㅘ	12200
##ㄺ	12201
##뀩	12202
##묵	12203
##밋	12204
##쌀	12205
##꼇	12206
##잠	12207
##롄	12208
##릿	12209
##|	12210
##힘	12211
##짝	12212
##았	12213
##꾸	12214
##쥐	12215
##펨	12216
##탐	12217
##힌	12218
##_	12219
##쁘	12220
##흫	12221
##랙	12222
##뷰	12223
##ㄸ	12224
##팅	12225
##핥	12226
##슭	12227
##톱	12228
##핰	12229
##냥	12230
##혔	12231
##캐	12232
##흡	12233
##뿌	12234
##응	12235
##앰	12236
##녹	12237
##땐	12238
##앳	12239
##슷	12240
##때	12241
##믈	12242
##릇	12243
##뮤	12244
##컷	12245
##떨	12246
##볘	12247
##텍	12248
##흣	12249
##꺼	12250
##푝	12251
##큰	12252
##뜨	12253
##쟈	12254
##콘	12255
##썽	12256
##묭	12257
##좌	12258
##엠	12259
##셸	12260
##꼭	12261
##톰	12262
##휼	12263
##맵	12264
##궤	12265
##긱	12266
##놏	12267
##죠	12268
##뽁	12269
##긍	12270
##퍄	12271
##줘	12272
##획	12273
##윽	12274
##뿐	12275
##읏	12276
##님	12277
##귄	12278
##긑	12279
##찻	12280
##덮	12281
##꿈	12282
##뜰	12283
##잡	12284
##쏘	12285
##냠	12286
##롭	12287
##륨	12288
##뜯	12289
##홈	12290
##덱	12291
##붕	12292
##핸	12293
##뇨	12294
##(	12295
##넌	12296
##째	12297
##쿄	12298
##셍	12299
##펜	12300
##깔	12301
##삾	12302
##섯	12303
##ᅨ	12304
##뱀	12305
##붐	12306
##럴	12307
##쨌	12308
##썸	12309
##칭	12310
##뾰	12311
##뾲	12312
##뮌	12313
##덤	12314
##콕	12315
##믄	12316
##벗	12317
##웰	12318
##ᆷ	12319
##묻	12320
##딜	12321
##숨	12322
##ㅚ	12323
##뵈	12324
##켄	12325
##푀	12326
##셋	12327
##ㅁ	12328
##햐	12329
##뷔	12330
##뻔	12331
##콴	12332
##옹	12333
##별	12334
##벽	12335
##풋	12336
##솰	12337
##컴	12338
##념	12339
##ㅃ	12340
##꽁	12341
##엽	12342
##듈	12343
##햣	12344
##햄	12345
##컨	12346
##렘	12347
##긋	12348
##=	12349
##첩	12350
##ㅀ	12351
##둔	12352
##끓	12353
##콧	12354
##곳	12355
##벞	12356
##뙤	12357
##픠	12358
##뒈	12359
##듭	12360
##쉐	12361
##눙	12362
##흠	12363
##팩	12364
##듬	12365
##뭉	12366
##써	12367
##첨	12368
##룬	12369
##펀	12370
##뷴	12371
##쾨	12372
##뤼	12373
##뼈	12374
##앨	12375
##탱	12376
##츨	12377
##캘	12378
##졌	12379
##촉	12380
##떻	12381
##욤	12382
##뮈	12383
##댁	12384
##흘	12385
##덜	12386
##줆	12387
##측	12388
##닥	12389
##몹	12390
##뇌	12391
##슐	12392
##녀	12393
##흙	12394
##졸	12395
##괄	12396
##왔	12397
##킁	12398
##략	12399
##씬	12400
##벵	12401
##롸	12402
##뱃	12403
##닐	12404
##퓨	12405
##폰	12406
##융	12407
##젝	12408
##웠	12409
##셰	12410
##뻑	12411
##벳	12412
##헠	12413
##젼	12414
##꼽	12415
##켜	12416
##눈	12417
##곈	12418
##냄	12419
##롬	12420
##흑	12421
##혈	12422
##꼿	12423
##웡	12424
##윳	12425
##끄	12426
##놓	12427
##율	12428
##쭈	12429
##곽	12430
##듸	12431
##텐	12432
##짚	12433
##챈	12434
##뚤	12435
##빼	12436
##왐	12437
##짱	12438
##앜	12439
##뮴	12440
##팟	12441
##눌	12442
##쌔	12443
##굣	12444
##옷	12445
##웁	12446
##렝	12447
##촤	12448
##븀	12449
##밧	12450
##듯	12451
##젖	12452
##뛰	12453
##깨	12454
##둘	12455
##핡	12456
##삐	12457
##뽀	12458
##궈	12459
##룩	12460
##확	12461
##곱	12462
##끔	12463
##윌	12464
##팽	12465
##캇	12466
##굉	12467
##뮬	12468
##된	12469
##께	12470
##ᅤ	12471
##뜳	12472
##끈	12473
##큐	12474
##댄	12475
##콸	12476
##랍	12477
##쓴	12478
##퇼	12479
##텀	12480
##톡	12481
##겠	12482
##ㅉ	12483
##숟	12484
##쇄	12485
##끝	12486
##윗	12487
##옌	12488
##꽝	12489
##켓	12490
##밴	12491
##쳤	12492
##넽	12493
##솔	12494
##몸	12495
##셴	12496
##녜	12497
##솜	12498
##뤄	12499
##컹	12500
##쉘	12501
##괼	12502
##쭉	12503
##빨	12504
##흔	12505
##같	12506
##벰	12507
##싹	12508
##많	12509
##찮	12510
##쎄	12511
##껍	12512
##먀	12513
##쇠	12514
##촨	12515
##좆	12516
##높	12517
##맘	12518
##돗	12519
##펑	12520
##옵	12521
##갯	12522
##캠	12523
##핑	12524
##됬	12525
##쉰	12526
##깊	12527
##ᆸ	12528
##뚝	12529
##갓	12530
##핏	12531
##갖	12532
##뒷	12533
##샷	12534
##싸	12535
##붑	12536
##쁠	12537
##붉	12538
##뫼	12539
##첵	12540
##괭	12541
##힉	12542
##컬	12543
##궖	12544
##궫	12545
##궋	12546
##봇	12547
##봊	12548
##ᅪ	12549
##꾁	12550
##곗	12551
##딸	12552
##쀼	12553
##쮸	12554
##되	12555
##튬	12556
##쥬	12557
##벅	12558
##잆	12559
##좂	12560
##쵹	12561
##뚠	12562
##쥔	12563
##탸	12564
##쾡	12565
##띨	12566
##멕	12567
##뻬	12568
##쪽	12569
##밸	12570
##최	12571
##캄	12572
##쩍	12573
##궂	12574
##둣	12575
##킷	12576
##쩌	12577
##륵	12578
##쓱	12579
##셈	12580
##뚱	12581
##숍	12582
##됭	12583
##좁	12584
##쳇	12585
##쪘	12586
##갬	12587
##륀	12588
##핍	12589
##폐	12590
##랫	12591
##뷜	12592
##픽	12593
##뿅	12594
##깐	12595
##얏	12596
##쾰	12597
##씅	12598
##찧	12599
##탯	12600
##륄	12601
##홋	12602
##캡	12603
##얄	12604
##헴	12605
##엌	12606
##꺠	12607
##겼	12608
##덟	12609
##넴	12610
##뚜	12611
##좡	12612
##챠	12613
##랗	12614
##쵁	12615
##쥰	12616
##숱	12617
##꼳	12618
##앉	12619
##낫	12620
##쌤	12621
##빗	12622
##땅	12623
##겁	12624
##놋	12625
##훌	12626
##좇	12627
##픈	12628
##냅	12629
##띡	12630
##쏙	12631
##옙	12632
##뉘	12633
##젱	12634
##낸	12635
##있	12636
##춧	12637
##뽑	12638
##씌	12639
##쓔	12640
##쓩	12641
##씀	12642
##뭇	12643
##찐	12644
##깎	12645
##쿰	12646
##삽	12647
##뎃	12648
##툐	12649
##렵	12650
##샌	12651
##`	12652
##튱	12653
##줌	12654
##킴	12655
##ᆭ	12656
##텁	12657
##몰	12658
##퀼	12659
##및	12660
##둬	12661
##졍	12662
##믹	12663
##낚	12664
##횽	12665
##텡	12666
##핫	12667
##뀨	12668
##쉔	12669
##삘	12670
##곧	12671
##댬	12672
##숀	12673
##ᆼ	12674
##뙇	12675
##겟	12676
##넥	12677
##멩	12678
##멱	12679
##뭄	12680
##ᄏ	12681
##뷉	12682
##뀌	12683
##찍	12684
##츄	12685
##뿜	12686
##츺	12687
##팍	12688
##탓	12689
##굽	12690
##릎	12691
##웹	12692
##렙	12693
##낌	12694
##훼	12695
##컵	12696
##렸	12697
##뱅	12698
##ᆨ	12699
##껏	12700
##쳅	12701
##억	12702
##늄	12703
##꺄	12704
##ᆹ	12705
##썬	12706
##옻	12707
##뜸	12708
##럿	12709
##짢	12710
##젬	12711
##찡	12712
##뫙	12713
##칫	12714
##띤	12715
##쑹	12716
##갱	12717
##숲	12718
##훤	12719
##퓌	12720
##갔	12721
##찜	12722
##꾀	12723
##썩	12724
##앟	12725
##뎡	12726
##갛	12727
##깽	12728
##콥	12729
##셧	12730
##깅	12731
##믿	12732
##쯤	12733
##렇	12734
##겜	12735
##툠	12736
##츙	12737
##귁	12738
##썹	12739
##멈	12740
##썰	12741
##폄	12742
##힛	12743
##핳	12744
##헙	12745
##쩝	12746
##넘	12747
##쑥	12748
##팥	12749
##꿔	12750
##츼	12751
##솥	12752
##뒬	12753
##쩨	12754
##펭	12755
##츌	12756
##슝	12757
##훑	12758
##뎐	12759
##얌	12760
##뽕	12761
##읋	12762
##벡	12763
##꼰	12764
##믐	12765
##뚀	12766
##ᄈ	12767
##텃	12768
##엡	12769
##쵸	12770
##쨔	12771
##ᅲ	12772
##뚧	12773
##읭	12774
##딧	12775
##쯱	12776
##즙	12777
##굼	12778
##읔	12779
##않	12780
##췌	12781
##샐	12782
##봄	12783
##텟	12784
##뇽	12785
##꺾	12786
##튮	12787
##벖	12788
##긔	12789
##륙	12790
##덥	12791
##삣	12792
##쌕	12793
##꽂	12794
##핌	12795
##윾	12796
##옛	12797
##엥	12798
##끌	12799
##젹	12800
##촐	12801
##쯋	12802
##삔	12803
##ᄇ	12804
##숄	12805
##졔	12806
##됴	12807
##혹	12808
##짧	12809
##핧	12810
##쓸	12811
##쫙	12812
##뤠	12813
##템	12814
##횟	12815
##똥	12816
##옇	12817
##퍽	12818
##솨	12819
##줏	12820
##뤀	12821
##앆	12822
##풑	12823
##숩	12824
##왜	12825
##봅	12826
##랸	12827
##잼	12828
##쌥	12829
##캬	12830
##힝	12831
##욺	12832
##쁟	12833
##퐁	12834
##짖	12835
##앍	12836
##툼	12837
##꾹	12838
##낼	12839
##냉	12840
##쿡	12841
##딴	12842
##즌	12843
##댓	12844
##칩	12845
##폿	12846
##폼	12847
##벚	12848
##맏	12849
##쳑	12850
##큥	12851
##쌉	12852
##뽜	12853
##댐	12854
##갸	12855
##슛	12856
##낛	12857
##섣	12858
##틔	12859
##붓	12860
##눗	12861
##닷	12862
##큘	12863
##듐	12864
##펙	12865
##찔	12866
##곁	12867
##딤	12868
##츰	12869
##냘	12870
##땀	12871
##앓	12872
##못	12873
##퍝	12874
##욘	12875
##ᄎ	12876
##뎅	12877
##쩜	12878
##뺨	12879
##캣	12880
##얺	12881
##퍙	12882
##맬	12883
##뺭	12884
##쟝	12885
##얐	12886
##롮	12887
##팻	12888
##펄	12889
##낏	12890
##툵	12891
##캅	12892
##꼐	12893
##헝	12894
##옳	12895
##귓	12896
##릐	12897
##샅	12898
##쬬	12899
##옴	12900
##챙	12901
##빡	12902
##쫜	12903
##앱	12904
##쭤	12905
##팁	12906
##뻴	12907
##헉	12908
##엣	12909
##텅	12910
##껫	12911
##겿	12912
##텝	12913
##볕	12914
##뜩	12915
##덿	12916
##젧	12917
##녔	12918
##넹	12919
##콰	12920
##갷	12921
##툭	12922
##늙	12923
##싯	12924
##팝	12925
##햘	12926
##빔	12927
##뭅	12928
##쳄	12929
##훟	12930
##펴	12931
##짬	12932
##휭	12933
##펩	12934
##쯕	12935
##쬴	12936
##됼	12937
##굑	12938
##댠	12939
##릣	12940
##ᄍ	12941
##씰	12942
##젴	12943
##돠	12944
##쌩	12945
##믜	12946
##쫑	12947
##횡	12948
##볽	12949
##퀀	12950
##뺌	12951
##룀	12952
##끵	12953
##렀	12954
##캥	12955
##큿	12956
##녈	12957
##븨	12958
##귱	12959
##끕	12960
##얘	12961
##뻥	12962
##꺽	12963
##횻	12964
##쨘	12965
##뺴	12966
##곀	12967
##벧	12968
##숯	12969
##엏	12970
##퀘	12971
##윷	12972
##빰	12973
##밑	12974
##쿱	12975
##좋	12976
##랩	12977
##쑤	12978
##챞	12979
##똟	12980
##튠	12981
##쾅	12982
##렷	12983
##냈	12984
##괜	12985
##옿	12986
##꿍	12987
##삒	12988
##띵	12989
##싴	12990
##떵	12991
##낪	12992
##밊	12993
##섴	12994
##톼	12995
##낄	12996
##뇰	12997
##믕	12998
##꺆	12999
##ᄊ	13000
##섹	13001
##쌜	13002
##넣	13003
##솝	13004
##굛	13005
##댦	13006
##뷁	13007
##쌓	13008
##옐	13009
##엿	13010
##퇵	13011
##콬	13012
##꿩	13013
##뫄	13014
##뭭	13015
##뫟	13016
##껴	13017
##쿵	13018
##듕	13019
##녁	13020
##퉤	13021
##픅	13022
##셩	13023
##뜽	13024
##홓	13025
##챦	13026
##튤	13027
##땁	13028
##랠	13029
##뤽	13030
##촘	13031
##닫	13032
##퓍	13033
##ᄑ	13034
##댈	13035
##틉	13036
##뻐	13037
##ᄒ	13038
##퀵	13039
##펌	13040
##쎌	13041
##쭀	13042
##ᅰ	13043
##짞	13044
##넝	13045
##둡	13046
##ᄐ	13047
##뀽	13048
##꾜	13049
##뇬	13050
##쌘	13051
##빩	13052
##짹	13053
##잌	13054
##팈	13055
##빽	13056
##쾃	13057
##볜	13058
##홉	13059
##쎔	13060
##즉	13061
##힗	13062
##췍	13063
##쑈	13064
##멋	13065
##씹	13066
##헼	13067
##퓔	13068
##죡	13069
##뛟	13070
##씍	13071
##솹	13072
##끽	13073
##땜	13074
##뎁	13075
##쩡	13076
##딛	13077
##낮	13078
##훳	13079
##훗	13080
##긤	13081
##젔	13082
##낰	13083
##롣	13084
##혬	13085
##멤	13086
##룐	13087
##꽤	13088
##빎	13089
##궶	13090
##궻	13091
##랤	13092
##궢	13093
##딪	13094
##몐	13095
##켁	13096
##잿	13097
##왓	13098
##쪙	13099
##줍	13100
##ᅯ	13101
##뺵	13102
##곖	13103
##읳	13104
##쬐	13105
##셷	13106
##싀	13107
##튽	13108
##놉	13109
##삠	13110
##헷	13111
##엤	13112
##랆	13113
##틋	13114
##맴	13115
##쉽	13116
##쩧	13117
##됨	13118
##뽈	13119
##솟	13120
##탤	13121
##훨	13122
##탭	13123
##켸	13124
##굇	13125
##깍	13126
##몀	13127
##귈	13128
##찷	13129
##슘	13130
##밝	13131
##쇽	13132
##쁨	13133
##뉼	13134
##뿨	13135
##싣	13136
##핟	13137
##쫀	13138
##땡	13139
##묄	13140
##몇	13141
##몃	13142
##웝	13143
##놰	13144
##뮐	13145
##녠	13146
##쫄	13147
##씁	13148
##뽄	13149
##돤	13150
##횩	13151
##넓	13152
##훔	13153
##먄	13154
##삯	13155
##ᄄ	13156
##뀻	13157
##쪨	13158
##벜	13159
##잨	13160
##갚	13161
##쫓	13162
##꽦	13163
##죵	13164
##갠	13165
##챱	13166
##꺅	13167
##헹	13168
##퐄	13169
##벱	13170
##깁	13171
##겍	13172
##푠	13173
##흗	13174
##챔	13175
##낵	13176
##헛	13177
##뇩	13178
##ᆽ	13179
##챰	13180
##쥩	13181
##걲	13182
##뜜	13183
##웍	13184
##ᆮ	13185
##핤	13186
##눝	13187
##롹	13188
##훅	13189
##윘	13190
##눤	13191
##뭐	13192
##귤	13193
##롷	13194
##늦	13195
##팸	13196
##엨	13197
##챳	13198
##꿉	13199
##눅	13200
##뷘	13201
##끙	13202
##픨	13203
##늅	13204
##퓸	13205
##뵤	13206
##뵹	13207
##봡	13208
##낳	13209
##넡	13210
##뺅	13211
##둙	13212
##뇓	13213
##쨉	13214
##맺	13215
##껑	13216
##죨	13217
##륑	13218
##퐈	13219
##퐝	13220
##킵	13221
##떽	13222
##낀	13223
##늉	13224
##쟙	13225
##빚	13226
##혓	13227
##닙	13228
##깬	13229
##볏	13230
##쪄	13231
##쏜	13232
##켐	13233
##뺏	13234
##쎅	13235
##웻	13236
##쥽	13237
##췁	13238
##ᆩ	13239
##췻	13240
##슼	13241
##믓	13242
##멓	13243
##펔	13244
##귿	13245
##쨥	13246
##똑	13247
##냇	13248
##롫	13249
##쑨	13250
##뎬	13251
##빕	13252
##껌	13253
##떄	13254
##쉼	13255
##깜	13256
##쿳	13257
##힁	13258
##푹	13259
##댑	13260
##땍	13261
##핱	13262
##탉	13263
##늏	13264
##얅	13265
##훍	13266
##굵	13267
##퇀	13268
##뉵	13269
##첫	13270
##쫭	13271
##겋	13272
##넵	13273
##슽	13274
##캰	13275
##쵠	13276
##몌	13277
##퓰	13278
##뼛	13279
##뱐	13280
##둗	13281
##똘	13282
##쎃	13283
##튕	13284
##옾	13285
##눞	13286
##챃	13287
##췃	13288
##녤	13289
##욣	13290
##찾	13291
##듣	13292
##뿝	13293
##웸	13294
##겹	13295
##헿	13296
##꿱	13297
##숴	13298
##귐	13299
##폔	13300
##쳰	13301
##촵	13302
##늡	13303
##몯	13304
##휙	13305
##눕	13306
##욜	13307
##닮	13308
##촛	13309
##쫒	13310
##솽	13311
##걋	13312
##롼	13313
##삡	13314
##섶	13315
##꼼	13316
##읽	13317
##뜵	13318
##슆	13319
##쑝	13320
##섞	13321
##뚫	13322
##셨	13323
##쏴	13324
##빧	13325
##몔	13326
##튐	13327
##뉨	13328
##퀌	13329
##좍	13330
##먁	13331
##뾸	13332
##깝	13333
##낻	13334
##뎨	13335
##슶	13336
##짒	13337
##촙	13338
##쭐	13339
##띙	13340
##셭	13341
##놑	13342
##룍	13343
##튄	13344
##긧	13345
##섀	13346
##끠	13347
##낱	13348
##쉑	13349
##풔	13350
##풮	13351
##틍	13352
##깄	13353
##눔	13354
##뜬	13355
##킄	13356
##뜝	13357
##듥	13358
##쿼	13359
##뻘	13360
##냔	13361
##뭔	13362
##퍅	13363
##흰	13364
##늿	13365
##낟	13366
##읗	13367
##쩠	13368
##웳	13369
##윱	13370
##귯	13371
##잋	13372
##쒸	13373
##뇸	13374
##쩬	13375
##츈	13376
##쿙	13377
##킼	13378
##햇	13379
##쨕	13380
##퉷	13381
##뛣	13382
##홣	13383
##꾫	13384
##좐	13385
##씻	13386
##캌	13387
##빻	13388
##땽	13389
##맑	13390
##촹	13391
##숫	13392
##뷫	13393
##늪	13394
##뿛	13395
##휵	13396
##꾱	13397
##귖	13398
##궺	13399
##긲	13400
##깒	13401
##깛	13402
##긛	13403
##퉱	13404
##끍	13405
##휽	13406
##뎌	13407
##꺌	13408
##쩔	13409
##땨	13410
##읕	13411
##씽	13412
##풉	13413
##챵	13414
##햅	13415
##짠	13416
##깩	13417
##벓	13418
##쿸	13419
##븓	13420
##윰	13421
##듁	13422
##숌	13423
##쌱	13424
##윿	13425
##엓	13426
##뼉	13427
##숏	13428
##큄	13429
##뷇	13430
##넉	13431
##컄	13432
##챤	13433
##뿡	13434
##쀏	13435
##녯	13436
##쪠	13437
##쯉	13438
##샵	13439
##쏩	13440
##될	13441
##쏭	13442
##뺄	13443
##겉	13444
##밖	13445
##눼	13446
##틊	13447
##괂	13448
##탼	13449
##꾿	13450
##싼	13451
##홧	13452
##좹	13453
##맡	13454
##꿘	13455
##죳	13456
##즛	13457
##엫	13458
##뭏	13459
##끨	13460
##뿍	13461
##궭	13462
##쉴	13463
##왱	13464
##떰	13465
##벋	13466
##꽈	13467
##랔	13468
##칽	13469
##싟	13470
##몆	13471
##졧	13472
##쑴	13473
##젭	13474
##놔	13475
##쭘	13476
##뻡	13477
##깻	13478
##꺢	13479
##겻	13480
##톳	13481
##똔	13482
##곬	13483
##룟	13484
##컿	13485
##욧	13486
##쏫	13487
##쩐	13488
##헥	13489
##큠	13490
##녘	13491
##쨋	13492
##흓	13493
##툽	13494
##젊	13495
##펼	13496
##넠	13497
##퇸	13498
##읓	13499
##딨	13500
##뎍	13501
##쬲	13502
##샥	13503
##갹	13504
##녓	13505
##쎈	13506
##쥴	13507
##맠	13508
##쌋	13509
##윹	13510
##릘	13511
##뛃	13512
##괧	13513
##쭵	13514
##옆	13515
##쥿	13516
##얔	13517
##잽	13518
##랃	13519
##겡	13520
##좸	13521
##냑	13522
##욹	13523
##닢	13524
##묶	13525
##켤	13526
##랕	13527
##꿇	13528
##꼮	13529
##볈	13530
##잰	13531
##귶	13532
##뙓	13533
##봬	13534
##쭙	13535
##롈	13536
##퐐	13537
##윕	13538
##쏀	13539
##멬	13540
##셥	13541
##껀	13542
##ᅴ	13543
##됸	13544
##궬	13545
##뿗	13546
##쨍	13547
##묑	13548
##볓	13549
##륍	13550
##뒑	13551
##뒓	13552
##꽥	13553
##웩	13554
##빳	13555
##춉	13556
##셤	13557
##꺘	13558
##뺚	13559
##꿰	13560
##휏	13561
##쌐	13562
##떤	13563
##꽇	13564
##퉈	13565
##끊	13566
##웗	13567
##꽯	13568
##흄	13569
##쟘	13570
##봤	13571
##큽	13572
##덧	13573
##퓻	13574
##얶	13575
##왉	13576
##삑	13577
##냣	13578
##븞	13579
##릾	13580
##듮	13581
##엙	13582
##꺙	13583
##뗑	13584
##쐐	13585
##꺕	13586
##깟	13587
##딈	13588
##낯	13589
##톄	13590
##쯸	13591
##툥	13592
##겴	13593
##췄	13594
##뀫	13595
##썝	13596
##뿉	13597
##큮	13598
##읒	13599
##뙈	13600
##힠	13601
##뽝	13602
##밣	13603
##퇗	13604
##뼸	13605
##핲	13606
##뺙	13607
##봙	13608
##엮	13609
##듦	13610
##냌	13611
##풹	13612
##샴	13613
##켬	13614
##쁴	13615
##웜	13616
##뫀	13617
##왘	13618
##낑	13619
##뿎	13620
##뀜	13621
##섕	13622
##ᅱ	13623
##몫	13624
##푯	13625
##륶	13626
##읫	13627
##놘	13628
##굥	13629
##뼥	13630
##뒥	13631
##댜	13632
##챨	13633
##흇	13634
##벫	13635
##뱔	13636
##큭	13637
##쟌	13638
##붹	13639
##혠	13640
##뻉	13641
##엎	13642
##돕	13643
##닊	13644
##벲	13645
##캆	13646
##싈	13647
##뻗	13648
##싶	13649
##찓	13650
##걔	13651
##옺	13652
##돩	13653
##칯	13654
##텬	13655
##솅	13656
##웆	13657
##횅	13658
##햏	13659
##쭌	13660
##쒀	13661
##닦	13662
##얗	13663
##푈	13664
##뒫	13665
##곲	13666
##횞	13667
##똠	13668
##딍	13669
##쯧	13670
##뙳	13671
##홂	13672
##뱌	13673
##뱡	13674
##걷	13675
##뻣	13676
##돡	13677
##솬	13678
##흩	13679
##찟	13680
##듫	13681
##돛	13682
##뵷	13683
##삶	13684
##꽊	13685
##슥	13686
##쉭	13687
##퐳	13688
##켰	13689
##맇	13690
##뚸	13691
##쉥	13692
##볍	13693
##즑	13694
##툇	13695
##졉	13696
##뼜	13697
##긶	13698
##쟛	13699
##즤	13700
##휀	13701
##씸	13702
##뗏	13703
##뢴	13704
##틷	13705
##뽭	13706
##핼	13707
##쮜	13708
##쮝	13709
##뗘	13710
##덫	13711
##싕	13712
##웽	13713
##꿏	13714
##줓	13715
##븃	13716
##왼	13717
##꿨	13718
##쀳	13719
##먕	13720
##퀜	13721
##뗔	13722
##텨	13723
##칡	13724
##웈	13725
##릏	13726
##슢	13727
##싰	13728
##쳣	13729
##홝	13730
##븝	13731
##츹	13732
##큇	13733
##쏨	13734
##멦	13735
##둍	13736
##잫	13737
##톻	13738
##췬	13739
##캑	13740
##귬	13741
##챡	13742
##샻	13743
##뚯	13744
##뉜	13745
##텽	13746
##땝	13747
##픖	13748
##찢	13749
##괏	13750
##뵙	13751
##캎	13752
##홰	13753
##퓩	13754
##팃	13755
##뗀	13756
##쎠	13757
##빖	13758
##읪	13759
##얇	13760
##곻	13761
##껚	13762
##엊	13763
##듳	13764
##싮	13765
##픳	13766
##뎜	13767
##욷	13768
##줬	13769
##좔	13770
##뜀	13771
##뚞	13772
##갗	13773
##뀰	13774
##삵	13775
##죌	13776
##샠	13777
##랐	13778
##뤂	13779
##뮺	13780
##썼	13781
##얽	13782
##롁	13783
##뀪	13784
##팎	13785
##웟	13786
##갇	13787
##툉	13788
##딺	13789
##핚	13790
##쟉	13791
##끤	13792
##숎	13793
##댱	13794
##뒹	13795
##앝	13796
##쁐	13797
##팂	13798
##슁	13799
##썻	13800
##삧	13801
##룝	13802
##훕	13803
##죤	13804
##욋	13805
##썀	13806
##칞	13807
##졬	13808
##짇	13809
##젋	13810
##뎻	13811
##앚	13812
##뭘	13813
##돜	13814
##솁	13815
##똏	13816
##옠	13817
##뺀	13818
##숕	13819
##칰	13820
##촥	13821
##벐	13822
##핻	13823
##쵤	13824
##씃	13825
##콱	13826
##휫	13827
##쑁	13828
##샙	13829
##믌	13830
##횸	13831
##턻	13832
##쁜	13833
##찹	13834
##탵	13835
##켠	13836
##뮹	13837
##붸	13838
##졀	13839
##앸	13840
##뽱	13841
##춋	13842
##쭁	13843
##닜	13844
##뉸	13845
##곯	13846
##얭	13847
##컭	13848
##먏	13849
##닾	13850
##쉏	13851
##껒	13852
##읖	13853
##뿀	13854
##욀	13855
##픔	13856
##뫞	13857
##뿷	13858
##땞	13859
##밪	13860
##뒗	13861
##렜	13862
##됵	13863
##롊	13864
##쏠	13865
##챗	13866
##헵	13867
##읶	13868
##툿	13869
##냫	13870
##뀍	13871
##뒿	13872
##겆	13873
##	13874
##봫	13875
##렞	13876
##졷	13877
##긞	13878
##긏	13879
##귺	13880
##켕	13881
##얹	13882
##닯	13883
##쇅	13884
##뛩	13885
##뵥	13886
##샄	13887
##쳌	13888
##홑	13889
##싫	13890
##퉅	13891
##낲	13892
##뚮	13893
##쐙	13894
##뽟	13895
##뢱	13896
##캢	13897
##욦	13898
##뿟	13899
##넙	13900
##쑊	13901
##짘	13902
##떈	13903
##촷	13904
##껨	13905
##휗	13906
##뜫	13907
##꼍	13908
##츩	13909
##횔	13910
##풒	13911
##잍	13912
##큅	13913
##쒜	13914
##폘	13915
##긇	13916
##흨	13917
##홱	13918
##짼	13919
##쏚	13920
##띔	13921
##탹	13922
##푴	13923
##뷀	13924
##팉	13925
##헯	13926
##쁙	13927
##싄	13928
##뤵	13929
##굄	13930
##룅	13931
##헑	13932
##둇	13933
##뎊	13934
##볫	13935
##컫	13936
##돘	13937
##닑	13938
##줴	13939
##쥘	13940
##씉	13941
##픓	13942
##둩	13943
##씤	13944
##띱	13945
##룺	13946
##쏟	13947
##륷	13948
##밌	13949
##뤯	13950
##룱	13951
##뒨	13952
##엾	13953
##큾	13954
##텂	13955
##쳡	13956
##놨	13957
##둴	13958
##븟	13959
##폯	13960
##쭛	13961
##풱	13962
##뺩	13963
##옘	13964
##졈	13965
##쵼	13966
##냙	13967
##훜	13968
##츀	13969
##힙	13970
##쬭	13971
##쎼	13972
##랒	13973
##긕	13974
##촾	13975
##칟	13976
##먗	13977
##꿝	13978
##늰	13979
##뒁	13980
##썅	13981
##뼤	13982
##좊	13983
##샇	13984
##뷓	13985
##떳	13986
##쁌	13987
##튺	13988
##붝	13989
##꽉	13990
##꽐	13991
##큉	13992
##돖	13993
##왒	13994
##찝	13995
##찎	13996
##젮	13997
##걍	13998
##춈	13999
##껠	14000
##닼	14001
##릯	14002
##쯩	14003
##뵐	14004
##괸	14005
##죗	14006
##뢔	14007
##큪	14008
##핔	14009
##뒝	14010
##뭬	14011
##덯	14012
##믱	14013
##냟	14014
##뚥	14015
##듧	14016
##떅	14017
##뼝	14018
##튝	14019
##줵	14020
##쑜	14021
##롇	14022
##돚	14023
##봑	14024
##꿋	14025
##읷	14026
##덗	14027
##엗	14028
##깏	14029
##좨	14030
##헱	14031
##롻	14032
##뿮	14033
##뱦	14034
##밐	14035
##끅	14036
##킦	14037
##끾	14038
##띾	14039
##챘	14040
##퀠	14041
##얒	14042
##퀑	14043
##삗	14044
##셕	14045
##랋	14046
##꺵	14047
##쟤	14048
##쏼	14049
##뱁	14050
##됐	14051
##쉿	14052
##왇	14053
##캭	14054
##벍	14055
##걕	14056
##솀	14057
##꼈	14058
##쯰	14059
##랣	14060
##땗	14061
##솩	14062
##딫	14063
##킅	14064
##킳	14065
##켚	14066
##륽	14067
##갰	14068
##왠	14069
##꽌	14070
##쭊	14071
##붱	14072
##엷	14073
##듄	14074
##뢍	14075
##옮	14076
##돓	14077
##깤	14078
##돫	14079
##켑	14080
##튿	14081
##뼬	14082
##밉	14083
##쥠	14084
##힡	14085
##먳	14086
##맻	14087
##뮻	14088
##뭋	14089
##뉻	14090
##챸	14091
##탘	14092
##탇	14093
##껙	14094
##롑	14095
##귪	14096
##궸	14097
##궼	14098
##챝	14099
##쀠	14100
##큣	14101
##굳	14102
##쮹	14103
##뢸	14104
##뎂	14105
##닶	14106
##닻	14107
##홐	14108
##혻	14109
##뤨	14110
##뺘	14111
##혯	14112
##귝	14113
##꽹	14114
##껰	14115
##괆	14116
##랼	14117
##룳	14118
##얖	14119
##뀐	14120
##딯	14121
##흟	14122
##픋	14123
##쵮	14124
##겊	14125
##맙	14126
##뤙	14127
##랰	14128
##릊	14129
##썄	14130
##탒	14131
##쯪	14132
##둅	14133
##촡	14134
##멨	14135
##좟	14136
##왷	14137
##쉡	14138
##읅	14139
##콻	14140
##졋	14141
##슉	14142
##윔	14143
##맫	14144
##뜐	14145
##롓	14146
##냬	14147
##푱	14148
##쭓	14149
##쥉	14150
##흧	14151
##쉟	14152
##렣	14153
##렡	14154
##얍	14155
##쳉	14156
##팠	14157
##줛	14158
##놗	14159
##솫	14160
##뗛	14161
##몼	14162
##돇	14163
##돣	14164
##뢐	14165
##홳	14166
##잓	14167
##웫	14168
##룫	14169
##뺃	14170
##뗣	14171
##덦	14172
##븅	14173
##땩	14174
##괵	14175
##똬	14176
##휩	14177
##뚬	14178
##홥	14179
##땛	14180
##밻	14181
##샒	14182
##싐	14183
##댸	14184
##엒	14185
##엪	14186
##빋	14187
##쥭	14188
##뻤	14189
##픤	14190
##즁	14191
##짙	14192
##흿	14193
##괳	14194
##츳	14195
##긁	14196
##돿	14197
##뗶	14198
##뗵	14199
##췛	14200
##닏	14201
##쿜	14202
##얻	14203
##젏	14204
##폵	14205
##숧	14206
##쒕	14207
##췅	14208
##쿶	14209
##뇻	14210
##뇾	14211
##햑	14212
##맢	14213
##ᇀ	14214
##룔	14215
##뭍	14216
##웤	14217
##쬽	14218
##뺼	14219
##돨	14220
##옅	14221
##끜	14222
##췽	14223
##럐	14224
##쨰	14225
##싁	14226
##킈	14227
##횬	14228
##쥣	14229
##닳	14230
##쨈	14231
##듟	14232
##썷	14233
##쫣	14234
##똵	14235
##뽧	14236
##꽑	14237
##껸	14238
##늕	14239
##랖	14240
##쫩	14241
##쭨	14242
##벩	14243
##펡	14244
##픗	14245
##굘	14246
##칣	14247
##퇘	14248
##튭	14249
##왂	14250
##큔	14251
##뤕	14252
##읃	14253
##냏	14254
##묺	14255
##붛	14256
##얃	14257
##쇳	14258
##쁶	14259
##텤	14260
##횢	14261
##셱	14262
##땠	14263
##뫃	14264
##뚷	14265
##붖	14266
##뱉	14267
##탔	14268
##콫	14269
##굠	14270
##뗄	14271
##댧	14272
##댯	14273
##쑼	14274
##몄	14275
##뫅	14276
##뫌	14277
##눟	14278
##듶	14279
##쬰	14280
##럇	14281
##츔	14282
##쟣	14283
##맄	14284
##볐	14285
##곺	14286
##듹	14287
##섈	14288
##깈	14289
##묜	14290
##펐	14291
##줜	14292
##얫	14293
##붘	14294
##둈	14295
##뾘	14296
##섰	14297
##떱	14298
##뱨	14299
##콦	14300
##밦	14301
##윻	14302
##둉	14303
##끆	14304
##덞	14305
##훓	14306
##삜	14307
##퍗	14308
##쬷	14309
##홅	14310
##욿	14311
##쌻	14312
##풇	14313
##뿁	14314
##겧	14315
##긿	14316
##솎	14317
##밗	14318
##몊	14319
##챕	14320
##죔	14321
##죰	14322
##뗻	14323
##띧	14324
##귡	14325
##긮	14326
##깑	14327
##녑	14328
##ᇂ	14329
##웉	14330
##뛸	14331
##뜷	14332
##뙗	14333
##퀙	14334
##훁	14335
##릵	14336
##컁	14337
##툑	14338
##맓	14339
##싧	14340
##댋	14341
##삷	14342
##핿	14343
##줊	14344
##셟	14345
##섧	14346
##갊	14347
##핣	14348
##닚	14349
##닧	14350
##끎	14351
##홁	14352
##곂	14353
##붚	14354
##쒹	14355
##줭	14356
##쳔	14357
##춱	14358
##횦	14359
##햟	14360
##갉	14361
##뽓	14362
##펍	14363
##맆	14364
##샢	14365
##궃	14366
##톹	14367
##퐆	14368
##왧	14369
##뷃	14370
##삮	14371
##뤩	14372
##겕	14373
##탙	14374
##췰	14375
##뤌	14376
##춸	14377
##멉	14378
##갭	14379
##짭	14380
##돵	14381
##렫	14382
##헔	14383
##쩅	14384
##퉹	14385
##밬	14386
##푷	14387
##쳬	14388
##쉠	14389
##븍	14390
##쥥	14391
##쁅	14392
##뺡	14393
##뗡	14394
##콣	14395
##뗠	14396
##훽	14397
##믁	14398
##셣	14399
⫸ᄋ	14400
⭧ᄋ	14401
##ᅳᆫ	14402
##ᅳᆯ	14403
##다	14404
##는	14405
⭧ᆫ	14406
⫸에	14407
⭧다	14408
⫸ᄅ	14409
⭧ᄀ	14410
⫸의	14411
⫸을	14412
⭧어	14413
⭧아	14414
⫸이	14415
⫸ᄀ	14416
⭧는	14417
##서	14418
⫸를	14419
⫸는	14420
⫸가	14421
⭧고	14422
##며	14423
##로	14424
⭧었	14425
##지	14426
##도	14427
##ᅳ로	14428
⫸에서	14429
⫸은	14430
⫸로	14431
⫸으로	14432
⭧ᆫ다	14433
⭧았	14434
⫸도	14435
⭧ᆯ	14436
⭧며	14437
⭧지	14438
⭧ᄅ	14439
⭧기	14440
##마	14441
⭧라	14442
⭧게	14443
##만	14444
⫸과	14445
⭧면	14446
⭧은	14447
⫸와	14448
20	14449
##고	14450
⭧으	14451
##나	14452
⭧ᄃ	14453
⭧지만	14454
⭧더	14455
##게	14456
⫸에게	14457
##데	14458
⭧던	14459
⭧여	14460
201	14461
⫸ᆫ	14462
⭧을	14463
##까	14464
⭧으며	14465
⫸ᄇ	14466
⫸만	14467
⭧는데	14468
##니	14469
때문	14470
19	14471
⫸까	14472
⫸까지	14473
⭧아서	14474
##00	14475
아니	14476
##자	14477
⭧라는	14478
⭧자	14479
나오	14480
⭧다고	14481
⭧면서	14482
보이	14483
⭧라고	14484
경우	14485
10	14486
⭧어서	14487
사용	14488
⭧ᄆ	14489
##터	14490
##ᅮ터	14491
##가	14492
⭧다는	14493
공격	14494
이후	14495
자신	14496
그리	14497
##면	14498
⭧였	14499
##레이	14500
사람	14501
위하	14502
정도	14503
대하	14504
⫸부터	14505
##야	14506
##스트	14507
⫸나	14508
가능	14509
시키	14510
다른	14511
12	14512
⭧으나	14513
⫸이나	14514
가지	14515
⫸ᆯ	14516
200	14517
등장	14518
⭧는다	14519
아이	14520
⫸보	14521
11	14522
⫸보다	14523
그러	14524
그리고	14525
버리	14526
##어지	14527
게임	14528
하나	14529
경기	14530
..	14531
만들	14532
못하	14533
⭧ᄉ	14534
##er	14535
사실	14536
시간	14537
사이	14538
⭧거	14539
시작	14540
⭧니	14541
일본	14542
이상	14543
모습	14544
이름	14545
##라	14546
##니다	14547
함께	14548
따르	14549
⭧려	14550
상대	14551
⭧다가	14552
한국	14553
##어나	14554
##지만	14555
문제	14556
15	14557
##in	14558
⭧으면	14559
⭧거나	14560
하지만	14561
프로	14562
##스터	14563
생각	14564
다시	14565
⭧겠	14566
##러	14567
또한	14568
가장	14569
들어	14570
##ᅥ러	14571
캐릭	14572
당시	14573
##대로	14574
시즌	14575
⭧ᄂ	14576
⫸ᄎ	14577
⭧ᆫ데	14578
⭧아야	14579
##ᅥ럼	14580
⫸처럼	14581
캐릭터	14582
당하	14583
플레이	14584
18	14585
##on	14586
능력	14587
##이트	14588
⭧ᆫ지	14589
모두	14590
상황	14591
상태	14592
그렇	14593
⭧아도	14594
모든	14595
추가	14596
결국	14597
세계	14598
선수	14599
##an	14600
16	14601
##or	14602
스킬	14603
카드	14604
##미지	14605
현재	14606
많이	14607
⭧ᆫ다는	14608
통하	14609
전투	14610
효과	14611
다음	14612
30	14613
다만	14614
그러나	14615
⭧ᄇ	14616
존재	14617
지역	14618
13	14619
미국	14620
여기	14621
시리	14622
⫸라	14623
14	14624
⭧서	14625
199	14626
##라이	14627
매우	14628
##ar	14629
라이	14630
17	14631
달리	14632
대학	14633
⭧ㅓ	14634
그런	14635
상당	14636
⭧ᄇ니다	14637
레벨	14638
기록	14639
##he	14640
시리즈	14641
⭧야	14642
##at	14643
스타	14644
인하	14645
기술	14646
레이	14647
##요	14648
물론	14649
무기	14650
이용	14651
##리아	14652
의하	14653
처음	14654
⭧다면	14655
이유	14656
자체	14657
⭧시	14658
부르	14659
방송	14660
100	14661
이것	14662
이런	14663
필요	14664
영화	14665
실제	14666
여러	14667
해당	14668
25	14669
들어가	14670
마법	14671
모르	14672
주인	14673
일반	14674
⭧ᆫ다고	14675
⫸마	14676
⫸서	14677
돌아	14678
⭧어야	14679
거의	14680
역시	14681
##거리	14682
바로	14683
리그	14684
##리스	14685
학교	14686
나가	14687
사건	14688
##이스	14689
##en	14690
다르	14691
같이	14692
특히	14693
관련	14694
기본	14695
2017	14696
부분	14697
그래	14698
##이지	14699
위치	14700
피해	14701
⭧도	14702
##야기	14703
##록	14704
진행	14705
##ou	14706
아무	14707
방어	14708
2018	14709
이야기	14710
##부분	14711
대표	14712
국가	14713
⭧는지	14714
없이	14715
⭧냐	14716
##지막	14717
⭧음	14718
제작	14719
활동	14720
인간	14721
동안	14722
작품	14723
증가	14724
대부분	14725
알리	14726
##al	14727
마지막	14728
본인	14729
자기	14730
2019	14731
일부	14732
지나	14733
계속	14734
⭧ᆫ가	14735
##시아	14736
떨어지	14737
21	14738
서울	14739
내용	14740
##es	14741
우리	14742
올리	14743
주인공	14744
2016	14745
감독	14746
참고	14747
속도	14748
관계	14749
50	14750
##전히	14751
생기	14752
⭧스	14753
중국	14754
대신	14755
수준	14756
이전	14757
그냥	14758
⭧어도	14759
⭧습	14760
비슷	14761
어느	14762
⭧으니	14763
전쟁	14764
타이	14765
비하	14766
지금	14767
강하	14768
⭧라면	14769
만나	14770
성공	14771
22	14772
기준	14773
도시	14774
밝히	14775
인물	14776
⭧습니다	14777
이루	14778
⭧도록	14779
⫸라고	14780
198	14781
상당히	14782
공격력	14783
그녀	14784
대한	14785
24	14786
배우	14787
최대	14788
기사	14789
올라	14790
##민국	14791
결과	14792
지원	14793
그대로	14794
평가	14795
시절	14796
너무	14797
빠르	14798
자리	14799
보스	14800
제외	14801
##it	14802
⭧므로	14803
죽이	14804
##토리	14805
연구	14806
##버지	14807
의미	14808
##에	14809
나타	14810
⭧ㅏ	14811
실제로	14812
소속	14813
##라지	14814
이미	14815
⫸로서	14816
승리	14817
직접	14818
전체	14819
2015	14820
영상	14821
대한민국	14822
보내	14823
메이	14824
23	14825
어렵	14826
원래	14827
유닛	14828
체력	14829
여자	14830
⫸마다	14831
언급	14832
##부터	14833
그것	14834
⫸ᄃ	14835
개발	14836
데미지	14837
멤버	14838
##ing	14839
유저	14840
##st	14841
##le	14842
##학교	14843
##ic	14844
이동	14845
마음	14846
설정	14847
40	14848
싸우	14849
정보	14850
⭧ᆫ다면	14851
방법	14852
문서	14853
선택	14854
애니	14855
##가지	14856
##re	14857
과거	14858
차이	14859
⭧나	14860
⭧러	14861
##운드	14862
머리	14863
몬스터	14864
출연	14865
성우	14866
친구	14867
포함	14868
⭧란	14869
##랜드	14870
##dd	14871
##이션	14872
불리	14873
⫸다	14874
대상	14875
설명	14876
거리	14877
엄청	14878
사회	14879
소리	14880
바람	14881
플레이어	14882
장면	14883
힘들	14884
우승	14885
최고	14886
여성	14887
버전	14888
사랑	14889
이러	14890
바뀌	14891
아버지	14892
프리	14893
동시	14894
⭧드	14895
공식	14896
유명	14897
스럽	14898
시대	14899
2014	14900
발생	14901
영향	14902
사망	14903
이렇	14904
주로	14905
대회	14906
프랑	14907
##주의	14908
남자	14909
결정	14910
조금	14911
⭧려고	14912
파이	14913
발매	14914
26	14915
주장	14916
출신	14917
아이템	14918
##ff	14919
초반	14920
000	14921
인터	14922
일어나	14923
학생	14924
전부	14925
나라	14926
버스	14927
마이	14928
공개	14929
역사	14930
28	14931
운영	14932
오르	14933
서로	14934
유지	14935
빠지	14936
스토리	14937
걸리	14938
모드	14939
##el	14940
27	14941
구성	14942
대사	14943
파괴	14944
제대로	14945
##am	14946
정부	14947
방식	14948
만큼	14949
음악	14950
강화	14951
31	14952
자주	14953
중요	14954
아직	14955
후반	14956
이때	14957
나타나	14958
또는	14959
월드	14960
the	14961
과정	14962
##이드	14963
형태	14964
최종	14965
정치	14966
새롭	14967
독일	14968
시스	14969
역할	14970
나이	14971
최초	14972
노래	14973
##벤트	14974
다니	14975
대전	14976
쓰이	14977
이벤트	14978
누구	14979
##om	14980
##어	14981
강력	14982
마리	14983
스테	14984
정말	14985
변경	14986
회복	14987
##머니	14988
##이도	14989
기존	14990
##우스	14991
그런데	14992
영국	14993
보통	14994
비교	14995
드래	14996
소환	14997
느끼	14998
정신	14999
##아가	15000
##다가	15001
마찬	15002
마찬가지	15003
##la	15004
⭧든	15005
어떤	15006
이기	15007
조선	15008
당연	15009
##었	15010
특성	15011
인기	15012
##is	15013
엄청나	15014
성능	15015
##프트	15016
확률	15017
속성	15018
마을	15019
⭧듯	15020
행동	15021
바꾸	15022
⭧라도	15023
2013	15024
슈퍼	15025
오히	15026
노선	15027
⫸대	15028
⫸대로	15029
모양	15030
오히려	15031
##리어	15032
어떻	15033
드라	15034
아래	15035
##라도	15036
이제	15037
가깝	15038
자유	15039
아들	15040
교육	15041
197	15042
발견	15043
차량	15044
바이	15045
라인	15046
29	15047
사라지	15048
##너지	15049
##하	15050
게다가	15051
32	15052
⫸하	15053
부족	15054
특수	15055
프랑스	15056
##et	15057
이번	15058
00	15059
대학교	15060
확인	15061
성격	15062
끝나	15063
문화	15064
유일	15065
활약	15066
차지	15067
수록	15068
##ol	15069
2012	15070
관리	15071
장비	15072
##ion	15073
영웅	15074
모델	15075
일단	15076
입장	15077
아예	15078
구하	15079
내리	15080
생산	15081
맞추	15082
스트	15083
따라	15084
시스템	15085
이렇게	15086
제국	15087
고등	15088
심지	15089
다이	15090
어리	15091
돌아오	15092
심지어	15093
먼저	15094
경찰	15095
반대	15096
계획	15097
주변	15098
거기	15099
##레이드	15100
운동	15101
2010	15102
앨범	15103
##디오	15104
⭧어요	15105
자동	15106
완전히	15107
조건	15108
드러	15109
우주	15110
기간	15111
사진	15112
##레스	15113
난이도	15114
들어오	15115
부대	15116
적용	15117
발동	15118
개인	15119
기능	15120
##ow	15121
지구	15122
⭧구	15123
건물	15124
60	15125
감소	15126
위원	15127
##nd	15128
##써	15129
km	15130
##20	15131
축구	15132
##통령	15133
자세	15134
##il	15135
떠나	15136
##ig	15137
중심	15138
⫸으로서	15139
##인트	15140
##ed	15141
실패	15142
애니메	15143
그래서	15144
하이	15145
세트	15146
혹은	15147
중앙	15148
선거	15149
지키	15150
어디	15151
⭧라며	15152
현대	15153
35	15154
회사	15155
덕분	15156
돌아가	15157
초기	15158
전혀	15159
얼굴	15160
데이	15161
작가	15162
시기	15163
표현	15164
국내	15165
원작	15166
민주	15167
대통령	15168
패배	15169
물리	15170
처리	15171
오브	15172
순간	15173
TV	15174
동일	15175
##버스	15176
모으	15177
지속	15178
프로그	15179
드라마	15180
반응	15181
지방	15182
무엇	15183
얼마	15184
날리	15185
열리	15186
도움	15187
⭧더라도	15188
인정	15189
참여	15190
기관	15191
애니메이션	15192
출시	15193
##니아	15194
명칭	15195
##ac	15196
판매	15197
담당	15198
데뷔	15199
##as	15200
##없이	15201
##나마	15202
##BS	15203
정확	15204
요구	15205
획득	15206
196	15207
##리카	15208
굉장	15209
스페	15210
하루	15211
생활	15212
그렇게	15213
of	15214
⫸루	15215
시점	15216
2011	15217
##ᅡᆩ	15218
설치	15219
##ᅡᆩ에	15220
작중	15221
넘어	15222
다양	15223
⫸밖에	15224
발표	15225
후보	15226
그룹	15227
상승	15228
진출	15229
선발	15230
아군	15231
구조	15232
기억	15233
항목	15234
##아내	15235
Lv	15236
영어	15237
만화	15238
가격	15239
움직	15240
단계	15241
##소드	15242
그림	15243
##므로	15244
특별	15245
##들이	15246
올라가	15247
⫸이라	15248
마스터	15249
실력	15250
##ve	15251
그나마	15252
⭧으므로	15253
드래곤	15254
아마	15255
⭧다며	15256
에피	15257
세우	15258
이거	15259
01	15260
야구	15261
⭧았었	15262
시장	15263
The	15264
가족	15265
##이	15266
범위	15267
사고	15268
특징	15269
경제	15270
⭧려는	15271
##소리	15272
시청	15273
방향	15274
연기	15275
대체	15276
패치	15277
경험	15278
##뜨리	15279
계약	15280
미치	15281
##테	15282
⫸한	15283
수비	15284
고려	15285
##ot	15286
⫸한테	15287
##조	15288
⫸조	15289
##차	15290
⫸조차	15291
아르	15292
확실	15293
참가	15294
국제	15295
지니	15296
디자	15297
에피소드	15298
500	15299
세대	15300
발사	15301
폭발	15302
##로스	15303
브라	15304
남기	15305
묘사	15306
⫸로부터	15307
##스크	15308
밀리	15309
주의	15310
프로그램	15311
고등학교	15312
80	15313
##비스	15314
활용	15315
2000	15316
던지	15317
어떻게	15318
피하	15319
어머니	15320
상위	15321
결혼	15322
무시	15323
⭧라서	15324
⭧ㅕ	15325
##으키	15326
비판	15327
목적	15328
더욱	15329
준비	15330
중간	15331
심하	15332
각각	15333
##ad	15334
37	15335
보호	15336
러시아	15337
45	15338
아주	15339
버프	15340
챔피	15341
오리	15342
라운드	15343
굉장히	15344
이미지	15345
패턴	15346
국민	15347
히로	15348
이어지	15349
위험	15350
진짜	15351
참조	15352
세이	15353
내려	15354
대미지	15355
생명	15356
조직	15357
조사	15358
단순	15359
싸움	15360
과학	15361
여담	15362
크리스	15363
약하	15364
이루어지	15365
전하	15366
나쁘	15367
타입	15368
다루	15369
⭧ᆯ지	15370
세력	15371
현실	15372
파워	15373
St	15374
안타	15375
시도	15376
소모	15377
제공	15378
주요	15379
구간	15380
194	15381
유리	15382
불구	15383
전문	15384
가리	15385
지하	15386
유럽	15387
일으키	15388
연속	15389
부산	15390
세기	15391
##머지	15392
나머지	15393
혼자	15394
순위	15395
논란	15396
조합	15397
한정	15398
포인트	15399
사실상	15400
약간	15401
아프	15402
동료	15403
##아오	15404
노리	15405
##id	15406
70	15407
뛰어나	15408
나무	15409
분위	15410
성장	15411
##ᅳᆷ	15412
09	15413
##ay	15414
무장	15415
여전히	15416
바라	15417
디자인	15418
⫸랑	15419
분위기	15420
당연히	15421
취급	15422
항공	15423
출전	15424
90	15425
이해	15426
⭧으면서	15427
트리	15428
학년	15429
##스로	15430
일정	15431
규모	15432
등급	15433
훨씬	15434
FC	15435
##ER	15436
지도	15437
투수	15438
소설	15439
##나라	15440
한편	15441
예정	15442
##려	15443
운행	15444
블랙	15445
성적	15446
인구	15447
##러지	15448
부상	15449
자연	15450
엔딩	15451
기타	15452
그래도	15453
마치	15454
삼성	15455
기대	15456
계열	15457
mm	15458
02	15459
해결	15460
2009	15461
03	15462
사업	15463
가져	15464
##ch	15465
스테이지	15466
향하	15467
센터	15468
방면	15469
연결	15470
미션	15471
300	15472
##시	15473
##이크	15474
방영	15475
최근	15476
의견	15477
⭧기에	15478
연합	15479
수정	15480
##us	15481
48	15482
변화	15483
도망	15484
종류	15485
##ir	15486
⭧자면	15487
⭧ᆯ까	15488
그거	15489
이탈	15490
표기	15491
잘못	15492
⫸야	15493
전용	15494
이르	15495
태어나	15496
05	15497
퀘스트	15498
배치	15499
195	15500
추정	15501
33	15502
for	15503
2008	15504
⫸고	15505
발전	15506
터지	15507
##다리	15508
소녀	15509
36	15510
08	15511
대화	15512
⭧오	15513
변하	15514
거대	15515
정상	15516
직업	15517
안정	15518
07	15519
움직이	15520
##ur	15521
도중	15522
⭧네	15523
죽음	15524
엔진	15525
충분	15526
올라오	15527
스스로	15528
종료	15529
##스타	15530
##ᅮᆫ	15531
작전	15532
넘어가	15533
##티브	15534
수상	15535
챔피언	15536
펼치	15537
세상	15538
오래	15539
나중	15540
붙이	15541
독립	15542
일행	15543
비행	15544
요소	15545
##큼	15546
느낌	15547
속하	15548
거치	15549
당신	15550
나누	15551
HP	15552
벌어지	15553
벌이	15554
보상	15555
에너지	15556
지내	15557
방어력	15558
달성	15559
비롯	15560
전설	15561
수도	15562
##..	15563
공연	15564
##od	15565
무리	15566
미사	15567
06	15568
만드	15569
동물	15570
⫸만큼	15571
배틀	15572
##러스	15573
##BC	15574
부활	15575
특정	15576
관하	15577
장착	15578
훈련	15579
스피	15580
절대	15581
th	15582
스카	15583
졸업	15584
철도	15585
유니	15586
지지	15587
##저	15588
##im	15589
##자기	15590
기업	15591
전기	15592
포켓	15593
위기	15594
지휘	15595
행정	15596
싱글	15597
번역	15598
다리	15599
번호	15600
근접	15601
##란드	15602
더불	15603
아이돌	15604
제목	15605
점수	15606
건설	15607
04	15608
관심	15609
만약	15610
미래	15611
##어들	15612
황제	15613
내부	15614
남성	15615
반면	15616
따라서	15617
득점	15618
##un	15619
충격	15620
##ut	15621
신경	15622
SK	15623
시험	15624
전차	15625
요리	15626
군사	15627
가르	15628
목소리	15629
목표	15630
거두	15631
홈런	15632
소재	15633
이끌	15634
전사	15635
2007	15636
##데이트	15637
업데이트	15638
바르	15639
정체	15640
⭧ᄌ	15641
you	15642
공간	15643
##지션	15644
똑같	15645
가끔	15646
저지	15647
돌리	15648
무대	15649
스파	15650
어찌	15651
시설	15652
사이트	15653
올림	15654
타격	15655
로마	15656
오늘	15657
34	15658
##인물	15659
배경	15660
링크	15661
지정	15662
⫸다가	15663
장소	15664
각성	15665
전작	15666
##리오	15667
서비스	15668
공중	15669
마르	15670
항상	15671
##다니	15672
##ro	15673
⭧느	15674
최소	15675
교체	15676
그만	15677
전국	15678
파티	15679
⭧으려	15680
분노	15681
##너스	15682
##트리	15683
생존	15684
작곡	15685
북한	15686
넘기	15687
등장인물	15688
정식	15689
얘기	15690
예상	15691
⫸마저	15692
자랑	15693
의원	15694
부여	15695
⫸으로써	15696
클래	15697
작업	15698
높이	15699
도로	15700
포켓몬	15701
사냥	15702
##디어	15703
분류	15704
종족	15705
늘어나	15706
스포	15707
인사	15708
인도	15709
악마	15710
##ag	15711
##igh	15712
소개	15713
야마	15714
38	15715
스타일	15716
비밀	15717
##ver	15718
엘리	15719
단체	15720
애초	15721
제한	15722
인터뷰	15723
괜찮	15724
⫸ᆯ로	15725
가수	15726
필드	15727
##ec	15728
결승	15729
##동안	15730
cm	15731
판정	15732
크리	15733
⭧듯이	15734
기계	15735
⭧니까	15736
이어	15737
베이	15738
클리어	15739
75	15740
목록	15741
연출	15742
각종	15743
외국	15744
카이	15745
하늘	15746
이외	15747
타카	15748
명령	15749
정하	15750
##ent	15751
제일	15752
2006	15753
초등	15754
##운데	15755
기체	15756
병력	15757
지상	15758
카운	15759
로봇	15760
개념	15761
55	15762
##보이	15763
전반	15764
확정	15765
기동	15766
in	15767
교통	15768
정작	15769
193	15770
건담	15771
레어	15772
비용	15773
별로	15774
##드리	15775
파일	15776
##ak	15777
화력	15778
장갑	15779
올림픽	15780
케이	15781
수행	15782
##뿐	15783
⫸뿐	15784
군대	15785
드러나	15786
사항	15787
갖추	15788
표시	15789
크기	15790
가운데	15791
프레	15792
따로	15793
인식	15794
시티	15795
행위	15796
사격	15797
수치	15798
경쟁	15799
라이브	15800
##라인	15801
2020	15802
사거리	15803
to	15804
##um	15805
아카	15806
기반	15807
변신	15808
갑자기	15809
저항	15810
감정	15811
',	15812
나름	15813
포지션	15814
##젝트	15815
언제	15816
누르	15817
진화	15818
이탈리아	15819
완전	15820
평균	15821
왕국	15822
아키	15823
단점	15824
집중	15825
인천	15826
보유	15827
교수	15828
근처	15829
통합	15830
기회	15831
병원	15832
살리	15833
vs	15834
직전	15835
던전	15836
노력	15837
특이	15838
임무	15839
##아들이	15840
의식	15841
코스	15842
드리	15843
자원	15844
전자	15845
⭧냐고	15846
국회	15847
설립	15848
탈출	15849
레인	15850
##화국	15851
정의	15852
오버	15853
압도	15854
##ST	15855
오른	15856
이닝	15857
월드컵	15858
부모	15859
단어	15860
다크	15861
때리	15862
부정	15863
환경	15864
##em	15865
고양	15866
현상	15867
##ub	15868
정리	15869
마시	15870
사례	15871
잠시	15872
사정	15873
##비아	15874
판단	15875
효율	15876
시전	15877
제품	15878
이쪽	15879
어쩌	15880
##라스	15881
아파	15882
극장	15883
⭧더니	15884
치명	15885
본래	15886
##르트	15887
느리	15888
나서	15889
주제	15890
무슨	15891
촬영	15892
아스	15893
##000	15894
삭제	15895
상관	15896
의외	15897
주문	15898
위원회	15899
전력	15900
가문	15901
⭧ㅏㅆ	15902
동생	15903
고속	15904
원인	15905
주민	15906
대구	15907
여행	15908
물건	15909
옮기	15910
##ᅥᆫ	15911
제거	15912
지배	15913
강제	15914
발언	15915
키우	15916
소련	15917
연습	15918
치료	15919
병사	15920
##어로	15921
포기	15922
스코	15923
골드	15924
위력	15925
파트	15926
요시	15927
도전	15928
##무리	15929
전개	15930
2005	15931
기다리	15932
이하	15933
노트	15934
역대	15935
책임	15936
해군	15937
중학교	15938
기념	15939
##요일	15940
사무	15941
도입	15942
정책	15943
점프	15944
나이트	15945
완성	15946
복귀	15947
앞서	15948
실험	15949
##ight	15950
화면	15951
새로	15952
42	15953
##냐	15954
##야마	15955
루트	15956
⭧려면	15957
고정	15958
공주	15959
도쿄	15960
살인	15961
유사	15962
바다	15963
의사	15964
음식	15965
41	15966
##학생	15967
레드	15968
페이	15969
모이	15970
별명	15971
차원	15972
직후	15973
선생	15974
끝내	15975
이적	15976
히어로	15977
불가	15978
다수	15979
버티	15980
사기	15981
중반	15982
39	15983
받아들이	15984
잡히	15985
티어	15986
전략	15987
히트	15988
어둠	15989
밴드	15990
⫸에게서	15991
분명	15992
마나	15993
공동	15994
숨기	15995
도착	15996
2004	15997
무려	15998
미니	15999
##모토	16000
접근	16001
언어	16002
녀석	16003
가치	16004
제도	16005
일러	16006
EX	16007
LG	16008
⭧은데	16009
정당	16010
⫸으로부터	16011
오프	16012
회피	16013
추천	16014
타임	16015
조종	16016
⭧ㅓㅆ	16017
정규	16018
사상	16019
시민	16020
대기	16021
빌리	16022
로드	16023
예전	16024
##ce	16025
살아	16026
확장	16027
아파트	16028
신체	16029
빨리	16030
##루스	16031
##그레이드	16032
업그레이드	16033
마사	16034
구매	16035
##AR	16036
##드시	16037
줄이	16038
연장	16039
롯데	16040
리더	16041
자료	16042
랭크	16043
이곳	16044
반드시	16045
폭탄	16046
##os	16047
투표	16048
탈락	16049
타이틀	16050
인터넷	16051
부탁	16052
장치	16053
학원	16054
단지	16055
완벽	16056
크로	16057
라이트	16058
미사일	16059
종교	16060
44	16061
우선	16062
##ri	16063
일러스트	16064
소유	16065
형식	16066
해외	16067
고대	16068
##시마	16069
##AN	16070
구역	16071
장점	16072
사령	16073
최강	16074
데스	16075
심각	16076
산업	16077
아내	16078
##던	16079
##ula	16080
Ch	16081
금지	16082
하드	16083
⭧죠	16084
##ON	16085
##역시	16086
추측	16087
버그	16088
##이치	16089
실시	16090
No	16091
위키	16092
마무리	16093
##ap	16094
43	16095
⫸이라고	16096
99	16097
⭧곤	16098
대장	16099
클럽	16100
몇몇	16101
공포	16102
가사	16103
노동	16104
##and	16105
2002	16106
연재	16107
가드	16108
구분	16109
취하	16110
st	16111
검사	16112
범죄	16113
합류	16114
점점	16115
달러	16116
즐기	16117
서버	16118
로스	16119
조정	16120
##아하	16121
요청	16122
이사	16123
행사	16124
차례	16125
##ᅮ록	16126
##트라	16127
form	16128
옵션	16129
재료	16130
보병	16131
그야	16132
##러리	16133
##이어	16134
조작	16135
선정	16136
선언	16137
수많	16138
마법사	16139
다소	16140
전통	16141
교회	16142
타자	16143
걱정	16144
프로젝트	16145
kg	16146
그리스	16147
종종	16148
개그	16149
47	16150
스포츠	16151
⭧자마	16152
46	16153
데이터	16154
51	16155
191	16156
좋아하	16157
컴퓨	16158
개월	16159
암살	16160
부하	16161
광고	16162
입히	16163
형제	16164
열차	16165
##르크	16166
formula	16167
에이	16168
채우	16169
성향	16170
뉴스	16171
##말로	16172
대중	16173
개최	16174
평범	16175
⭧자마자	16176
##나이	16177
KBS	16178
포스	16179
아쉽	16180
##조건	16181
그야말로	16182
실점	16183
한계	16184
스페인	16185
구단	16186
고르	16187
재미	16188
채널	16189
대결	16190
설계	16191
코드	16192
##ter	16193
거부	16194
통신	16195
언론	16196
아무리	16197
워낙	16198
생물	16199
다행	16200
비중	16201
보조	16202
복수	16203
종합	16204
⭧고자	16205
전화	16206
행성	16207
기지	16208
컴퓨터	16209
민족	16210
디스	16211
and	16212
한글	16213
무한	16214
투입	16215
개봉	16216
해석	16217
알아	16218
무조건	16219
##아지	16220
본격	16221
영혼	16222
정확히	16223
연주	16224
⭧냐는	16225
모자	16226
운용	16227
굳이	16228
##ul	16229
MA	16230
평소	16231
실수	16232
회장	16233
원정	16234
광주	16235
##IN	16236
지적	16237
소년	16238
##타임	16239
지명	16240
와중	16241
##무라	16242
인상	16243
1000	16244
##수록	16245
위협	16246
미드	16247
박사	16248
##버리	16249
2003	16250
줄어들	16251
회의	16252
상징	16253
충분히	16254
##op	16255
등록	16256
⭧는가	16257
사태	16258
집단	16259
대형	16260
가정	16261
대응	16262
카메	16263
대비	16264
보너스	16265
터미	16266
아웃	16267
자동차	16268
소비	16269
##ck	16270
전원	16271
보컬	16272
대로	16273
체제	16274
공사	16275
페르	16276
시청자	16277
%,	16278
다운	16279
##로드	16280
태양	16281
특유	16282
희생	16283
150	16284
조각	16285
플래	16286
가면	16287
개조	16288
65	16289
##FA	16290
군단	16291
##자리	16292
##ation	16293
무사	16294
편성	16295
뿌리	16296
도망치	16297
봉인	16298
##리트	16299
여름	16300
MBC	16301
마력	16302
##니스	16303
SP	16304
일종	16305
기자	16306
##로그	16307
##ra	16308
##려가	16309
192	16310
육군	16311
발음	16312
장군	16313
공항	16314
네이	16315
스크	16316
생성	16317
통과	16318
벗어나	16319
얼마나	16320
##든	16321
##의원	16322
분리	16323
시나	16324
방문	16325
64	16326
오리지	16327
II	16328
가하	16329
⫸로써	16330
드러내	16331
장르	16332
보다	16333
동맹	16334
빼앗	16335
장기	16336
간단	16337
⭧을지	16338
함정	16339
고양이	16340
반복	16341
⭧ㅏ서	16342
서술	16343
##튜브	16344
오랜	16345
##일러	16346
소식	16347
의도	16348
##려오	16349
##오르	16350
사쿠	16351
분야	16352
디지	16353
전환	16354
근데	16355
52	16356
불과	16357
합치	16358
유튜브	16359
바닥	16360
영입	16361
먹이	16362
안전	16363
경기도	16364
그때	16365
치르	16366
브레이	16367
괴물	16368
저격	16369
마크	16370
##텐츠	16371
제안	16372
흡수	16373
점령	16374
You	16375
의지	16376
##시스	16377
⭧는다는	16378
예선	16379
초대	16380
필살	16381
미리	16382
최후	16383
##니티	16384
따지	16385
400	16386
개선	16387
공략	16388
유도	16389
##남도	16390
화염	16391
⭧ᄏ	16392
숫자	16393
놀라	16394
독자	16395
전술	16396
##art	16397
코치	16398
그저	16399
방해	16400
##나가	16401
주력	16402
원하	16403
액션	16404
확보	16405
외모	16406
인원	16407
가져오	16408
매일	16409
평화	16410
비트	16411
진입	16412
터미널	16413
이론	16414
##런스	16415
규정	16416
관통	16417
VS	16418
클래스	16419
라디오	16420
에스	16421
오토	16422
찾아오	16423
장난	16424
수사	16425
##오스	16426
49	16427
들리	16428
이치	16429
투자	16430
⭧느냐	16431
승부	16432
컨셉	16433
눈물	16434
체육	16435
목숨	16436
형성	16437
지나가	16438
적극	16439
방패	16440
AP	16441
56	16442
가스	16443
패러	16444
상자	16445
음반	16446
모험	16447
사과	16448
아름	16449
서브	16450
리어	16451
왼쪽	16452
적절	16453
부수	16454
흐르	16455
인류	16456
한국어	16457
계기	16458
보도	16459
2001	16460
##올리	16461
함대	16462
구축	16463
##동생	16464
거짓	16465
저지르	16466
살아남	16467
의심	16468
⭧ᆫ지라	16469
약점	16470
예술	16471
공화국	16472
들이	16473
역전	16474
##스케	16475
인형	16476
기원	16477
53	16478
오리지널	16479
54	16480
비디오	16481
##페이지	16482
작성	16483
완료	16484
더블	16485
##모리	16486
...	16487
자라	16488
공부	16489
은퇴	16490
수리	16491
코어	16492
솔로	16493
회전	16494
스위	16495
##라이더	16496
쓰러지	16497
풀리	16498
단순히	16499
대단	16500
질문	16501
In	16502
걸치	16503
PC	16504
편집	16505
황금	16506
끌어	16507
민주당	16508
마침	16509
뮤직	16510
##래프트	16511
알렉	16512
시내	16513
##로우	16514
안드	16515
##시브	16516
홈페이지	16517
착용	16518
필수	16519
트랙	16520
상대방	16521
꾸준	16522
85	16523
보수	16524
해제	16525
미스	16526
엄마	16527
⭧리	16528
카페	16529
아프리카	16530
드라이	16531
경상	16532
##ia	16533
사단	16534
습격	16535
장관	16536
편하	16537
1990	16538
현장	16539
날개	16540
사장	16541
코스트	16542
비난	16543
포르	16544
희망	16545
원거리	16546
##ill	16547
데리	16548
오스	16549
수원	16550
##ie	16551
재판	16552
선보이	16553
분석	16554
하위	16555
##레이션	16556
명중	16557
아시아	16558
진정	16559
무력	16560
코믹	16561
선물	16562
##RA	16563
##나다	16564
인지	16565
성인	16566
수호	16567
ST	16568
모티브	16569
##IA	16570
비고	16571
에이스	16572
청소	16573
확실히	16574
블루	16575
아름답	16576
행복	16577
경계	16578
부리	16579
저주	16580
감안	16581
카즈	16582
중단	16583
태도	16584
가슴	16585
190	16586
##ik	16587
임명	16588
남편	16589
공원	16590
기획	16591
지식	16592
관광	16593
표정	16594
허용	16595
승강	16596
스마	16597
쿨타임	16598
장애	16599
무섭	16600
수단	16601
지나치	16602
오른쪽	16603
탑재	16604
바탕	16605
본선	16606
멈추	16607
딱히	16608
인민	16609
제시	16610
친하	16611
소프트	16612
상처	16613
주도	16614
##무원	16615
당장	16616
59	16617
망하	16618
##연히	16619
가까	16620
##북도	16621
의문	16622
영역	16623
유래	16624
기점	16625
테마	16626
소울	16627
테크	16628
고통	16629
리스	16630
보급	16631
유우	16632
##ab	16633
직원	16634
불명	16635
날아가	16636
비싸	16637
돌파	16638
기어	16639
베이스	16640
위주	16641
멀티	16642
작용	16643
⭧아요	16644
주목	16645
제압	16646
대답	16647
챙기	16648
120	16649
58	16650
나카	16651
잠깐	16652
##마스	16653
##워드	16654
주연	16655
⭧을까	16656
카운터	16657
여부	16658
##울리	16659
고유	16660
순서	16661
제기	16662
측면	16663
꺼내	16664
베르	16665
체계	16666
도서	16667
##est	16668
게이	16669
57	16670
업무	16671
박스	16672
진영	16673
부인	16674
우수	16675
##th	16676
MP	16677
멀리	16678
문명	16679
이스	16680
카메라	16681
패스	16682
횟수	16683
드립	16684
후속	16685
멸망	16686
통일	16687
온라인	16688
##all	16689
⭧어라	16690
버튼	16691
공장	16692
##트롤	16693
텔레	16694
시나리오	16695
⫸아	16696
지점	16697
거주	16698
케이스	16699
귀족	16700
나뉘	16701
##ea	16702
66	16703
95	16704
코너	16705
문자	16706
당선	16707
내려가	16708
에어	16709
겨우	16710
협력	16711
차별	16712
특기	16713
계산	16714
소수	16715
지옥	16716
후지	16717
약속	16718
듀얼	16719
삼국	16720
최악	16721
눈치	16722
마츠	16723
크로스	16724
건너	16725
뉴욕	16726
달라지	16727
Sh	16728
연계	16729
⭧ᆯ수록	16730
딜러	16731
⫸에다	16732
시체	16733
은행	16734
##붙이	16735
다가	16736
⭧건	16737
##머리	16738
Lo	16739
##ct	16740
스펙	16741
늘리	16742
살해	16743
가볍	16744
ddd	16745
on	16746
나타내	16747
개편	16748
상하	16749
그라	16750
오후	16751
유키	16752
가져가	16753
1999	16754
퍼지	16755
##다르	16756
스케	16757
Re	16758
붕괴	16759
처치	16760
##라리	16761
배신	16762
대놓	16763
자격	16764
혁명	16765
게시	16766
매치	16767
군주	16768
부담	16769
110	16770
##ddd	16771
dddddd	16772
Sp	16773
컨트롤	16774
게이지	16775
1998	16776
##AL	16777
해금	16778
##스티	16779
그레이	16780
겨울	16781
국회의원	16782
어울리	16783
견제	16784
증거	16785
레이저	16786
스탠	16787
외부	16788
최대한	16789
군인	16790
장전	16791
⭧ㅓ서	16792
교사	16793
필살기	16794
##AT	16795
62	16796
출발	16797
진실	16798
자살	16799
제조	16800
핵심	16801
##바이	16802
##PS	16803
정권	16804
##워하	16805
어린	16806
##피아	16807
대원	16808
여왕	16809
전장	16810
드물	16811
궁극	16812
미군	16813
##OR	16814
중화	16815
연방	16816
용병	16817
마왕	16818
##니어	16819
스프	16820
로켓	16821
귀엽	16822
아침	16823
댄스	16824
##VE	16825
##레인	16826
거절	16827
제로	16828
충전	16829
##아리	16830
한화	16831
타이밍	16832
출생	16833
쓰러	16834
자이	16835
유용	16836
가르치	16837
공산	16838
체인	16839
SS	16840
일본어	16841
기분	16842
SBS	16843
##ᅥ나	16844
이성	16845
##터리	16846
커뮤	16847
조준	16848
만족	16849
충돌	16850
고급	16851
브랜드	16852
도구	16853
단위	16854
취소	16855
애매	16856
교환	16857
⭧는다고	16858
스피드	16859
부진	16860
⭧고서	16861
##달리	16862
거래	16863
##ate	16864
스킨	16865
⭧쿠	16866
##로이드	16867
미나	16868
##사카	16869
수학	16870
가로	16871
흔히	16872
##ess	16873
피해자	16874
극장판	16875
아라	16876
토스	16877
Th	16878
카르	16879
##ell	16880
61	16881
반란	16882
제주	16883
##광역시	16884
발휘	16885
세계관	16886
얼음	16887
##ard	16888
무게	16889
76	16890
오스트	16891
끼리	16892
장수	16893
파악	16894
후반부	16895
하트	16896
##ang	16897
단독	16898
##래도	16899
아무래도	16900
겹치	16901
인생	16902
모션	16903
레전	16904
홍콩	16905
패시브	16906
공통	16907
##IC	16908
갈리	16909
근무	16910
판타	16911
자르	16912
##ue	16913
신화	16914
비록	16915
격투	16916
아머	16917
막히	16918
한자	16919
헤드	16920
##ant	16921
##ack	16922
순수	16923
##ers	16924
따위	16925
피아	16926
몰리	16927
Al	16928
NP	16929
웨이	16930
77	16931
구입	16932
##두르	16933
정령	16934
파이터	16935
브리	16936
##ine	16937
88	16938
공군	16939
1997	16940
##다수	16941
운전	16942
72	16943
등등	16944
혼란	16945
계급	16946
자식	16947
가입	16948
수입	16949
##하라	16950
아메	16951
스코어	16952
닥터	16953
##심히	16954
내주	16955
트레이	16956
회수	16957
##아	16958
권력	16959
⭧자고	16960
경력	16961
##어내	16962
본부	16963
채용	16964
지시	16965
공작	16966
근거	16967
마이크	16968
커버	16969
##피스	16970
탄생	16971
생일	16972
밸런스	16973
해방	16974
조지	16975
비율	16976
누리	16977
외치	16978
기절	16979
우려	16980
남부	16981
건강	16982
지하철	16983
언니	16984
용도	16985
테러	16986
꾸준히	16987
##가락	16988
프라	16989
병기	16990
엑스	16991
표준	16992
갤러리	16993
BG	16994
⭧ㅕ서	16995
타워	16996
실질	16997
돌격	16998
지대	16999
##ok	17000
##OS	17001
납치	17002
증명	17003
협회	17004
반영	17005
홍보	17006
모리	17007
지급	17008
무너지	17009
대공	17010
강조	17011
아사	17012
입학	17013
be	17014
플라	17015
오오	17016
업체	17017
트위	17018
불안	17019
랜덤	17020
373	17021
FI	17022
유형	17023
외교	17024
요원	17025
##디션	17026
경영	17027
⭧아라	17028
왕자	17029
##아나	17030
or	17031
##유키	17032
감염	17033
대륙	17034
경향	17035
##세이	17036
98	17037
fff	17038
온갖	17039
훌륭	17040
광역	17041
감사	17042
CD	17043
gt	17044
연대	17045
마녀	17046
실행	17047
맡기	17048
장식	17049
문학	17050
##ive	17051
패러디	17052
##웨이	17053
기독	17054
트라	17055
페이스	17056
메탈	17057
찌르	17058
물질	17059
600	17060
주어지	17061
없애	17062
##오리	17063
내놓	17064
입단	17065
재생	17066
가까이	17067
##크래프트	17068
아나	17069
울트라	17070
스페셜	17071
화살	17072
추진	17073
주년	17074
어차	17075
찾아가	17076
집안	17077
고민	17078
내내	17079
설득	17080
대다수	17081
계승	17082
1996	17083
서포	17084
선배	17085
승강장	17086
살짝	17087
사카	17088
##트로	17089
어차피	17090
부문	17091
폐지	17092
##ast	17093
이슬	17094
캐나다	17095
##고기	17096
PS	17097
##AS	17098
영원	17099
미야	17100
정지	17101
대놓고	17102
##들리	17103
신문	17104
베트	17105
1995	17106
보물	17107
적당	17108
##메달	17109
신뢰	17110
사전	17111
##바로	17112
브라질	17113
##어리	17114
파라	17115
연예	17116
작사	17117
지우	17118
즉시	17119
아리	17120
⭧ㅓ야	17121
기기	17122
##uby	17123
",	17124
전선	17125
당황	17126
##ED	17127
미소	17128
내려오	17129
함선	17130
흘리	17131
괴롭	17132
##tt	17133
##즈키	17134
##이터	17135
68	17136
뒤집	17137
페이지	17138
##ee	17139
폭풍	17140
등판	17141
은근	17142
lt	17143
오픈	17144
800	17145
소문	17146
탑승	17147
명예	17148
열심히	17149
스파이	17150
상품	17151
화장	17152
입수	17153
레전드	17154
오프닝	17155
⭧군	17156
갑옷	17157
별도	17158
경유	17159
러브	17160
심리	17161
시행	17162
경기장	17163
단일	17164
파리	17165
63	17166
아야	17167
말리	17168
의회	17169
1980	17170
변호	17171
라스	17172
통제	17173
마련	17174
##카와	17175
댓글	17176
반격	17177
##ong	17178
##AM	17179
ruby	17180
스티	17181
운명	17182
가면라이더	17183
오류	17184
정류	17185
응원	17186
푸르	17187
트레	17188
##세우	17189
레오	17190
후쿠	17191
한때	17192
커뮤니티	17193
신청	17194
쓰레	17195
트위터	17196
격파	17197
라이벌	17198
사령관	17199
##ort	17200
김성	17201
주전	17202
고전	17203
기독교	17204
출판	17205
습득	17206
이승	17207
##웨어	17208
중계	17209
공기	17210
편의	17211
##ith	17212
수업	17213
하수	17214
심장	17215
처하	17216
##리티	17217
오해	17218
불만	17219
신고	17220
마인	17221
마주	17222
두산	17223
울산	17224
##아먹	17225
71	17226
##if	17227
74	17228
관객	17229
##다지	17230
전라	17231
외국인	17232
카나	17233
정말로	17234
랜드	17235
보정	17236
주위	17237
##ly	17238
크루	17239
##fff	17240
건축	17241
##아버지	17242
출장	17243
....	17244
스트라이	17245
##나무	17246
용어	17247
MV	17248
##ld	17249
고기	17250
공유	17251
그곳	17252
전달	17253
73	17254
여론	17255
67	17256
아트	17257
메이저	17258
ffffff	17259
민간	17260
사운드	17261
짜리	17262
절반	17263
가리키	17264
조치	17265
##티컬	17266
고치	17267
지형	17268
갈등	17269
여신	17270
##도우	17271
붙잡	17272
임시	17273
무적	17274
자치	17275
##학자	17276
재능	17277
가득	17278
전함	17279
아오	17280
전공	17281
요새	17282
압박	17283
NC	17284
##ain	17285
리버	17286
별개	17287
엔터	17288
초월	17289
##ist	17290
96	17291
카라	17292
##겨나	17293
쌓이	17294
종점	17295
연구소	17296
오로	17297
네이버	17298
스튜	17299
니시	17300
1994	17301
##ind	17302
북쪽	17303
전형	17304
추적	17305
메가	17306
TH	17307
그다지	17308
메타	17309
시각	17310
##타인	17311
180	17312
컨텐츠	17313
남쪽	17314
제하	17315
늑대	17316
보장	17317
발매되	17318
지켜	17319
테이	17320
AC	17321
돌진	17322
소멸	17323
##서트	17324
판타지	17325
시야	17326
81	17327
AT	17328
결승전	17329
전시	17330
널리	17331
클라	17332
타점	17333
다행히	17334
파이어	17335
일부러	17336
##per	17337
불꽃	17338
그만큼	17339
동네	17340
화이트	17341
환자	17342
##듀서	17343
프로듀서	17344
##ps	17345
강원	17346
동기	17347
##께	17348
가이	17349
##지컬	17350
##EN	17351
서부	17352
여동생	17353
문제점	17354
흔하	17355
적히	17356
화려	17357
##츠키	17358
쓰러뜨리	17359
그림자	17360
선호	17361
왕조	17362
동원	17363
폭력	17364
상향	17365
우스	17366
지켜보	17367
파이널	17368
회원	17369
대만	17370
뛰어	17371
본명	17372
치명타	17373
신라	17374
유로	17375
북부	17376
유비	17377
신세	17378
맞서	17379
물러	17380
##EC	17381
소드	17382
⭧자는	17383
따오	17384
78	17385
##가와	17386
##식간	17387
91	17388
##거나	17389
##OL	17390
##스탄	17391
수요	17392
순식간	17393
연상	17394
무난	17395
##ew	17396
도서관	17397
테스트	17398
향상	17399
아시	17400
메시	17401
전역	17402
매력	17403
클로	17404
학과	17405
##돌리	17406
차트	17407
전적	17408
##더스	17409
변형	17410
스토	17411
최상	17412
전방	17413
시드	17414
부품	17415
찾아	17416
지르	17417
84	17418
CP	17419
체포	17420
영토	17421
아일	17422
일상	17423
수집	17424
크리티컬	17425
암흑	17426
전투력	17427
게이트	17428
##사키	17429
코믹스	17430
아우	17431
키스	17432
영업	17433
##LC	17434
마술	17435
me	17436
인수	17437
토모	17438
##드라	17439
##ry	17440
수용	17441
이마	17442
저런	17443
조절	17444
파견	17445
드디어	17446
폭격	17447
복잡	17448
학살	17449
복장	17450
유전	17451
##려움	17452
오빠	17453
##어스	17454
82	17455
바라보	17456
대우	17457
떡밥	17458
##lo	17459
입력	17460
그래픽	17461
구현	17462
편지	17463
개통	17464
생명력	17465
호환	17466
현지	17467
97	17468
추락	17469
신인	17470
사자	17471
천사	17472
도달	17473
아무런	17474
고향	17475
동부	17476
닌자	17477
사토	17478
##덜란드	17479
네덜란드	17480
청년	17481
86	17482
창작	17483
아가	17484
디아	17485
경비	17486
점차	17487
반지	17488
작동	17489
맞이	17490
콜라	17491
콘서트	17492
연관	17493
프레임	17494
교황	17495
엘프	17496
종이	17497
한국인	17498
쓰레기	17499
수송	17500
출현	17501
노예	17502
스톤	17503
기초	17504
그치	17505
##레나	17506
제이	17507
모바	17508
추격	17509
⭧단	17510
해설	17511
it	17512
해체	17513
69	17514
##퍼스	17515
##피	17516
⭧다시	17517
⭧다시피	17518
몰래	17519
달하	17520
##어버리	17521
구도	17522
조용	17523
충청	17524
의상	17525
##노스	17526
심판	17527
##크스	17528
간격	17529
공급	17530
녹음	17531
아티	17532
##오카	17533
is	17534
주먹	17535
아무것	17536
##히로	17537
식물	17538
토리	17539
막장	17540
시위	17541
조성	17542
NPC	17543
프리미	17544
전투기	17545
사쿠라	17546
##오프	17547
##IT	17548
제자	17549
조조	17550
잉글	17551
연사	17552
둘러	17553
##둥이	17554
돌아다니	17555
수술	17556
무효	17557
스마트	17558
연애	17559
검색	17560
슬롯	17561
⭧잖	17562
실드	17563
만든	17564
##시코	17565
마스	17566
감시	17567
##타로	17568
레스	17569
스카이	17570
US	17571
일제	17572
블록	17573
꼬리	17574
헤이	17575
법원	17576
##스트라	17577
동쪽	17578
##특별	17579
마리오	17580
나루	17581
⫸께	17582
경험치	17583
구체	17584
MS	17585
고교	17586
옛날	17587
놓치	17588
##보내	17589
An	17590
##니까	17591
통상	17592
총기	17593
김정	17594
##티나	17595
범인	17596
탱크	17597
구속	17598
베트남	17599
라이더	17600
진지	17601
##모로	17602
##버트	17603
##ust	17604
신분	17605
대립	17606
신규	17607
장교	17608
성과	17609
은하	17610
연락	17611
국립	17612
예외	17613
쿠키	17614
250	17615
어깨	17616
##주시	17617
KT	17618
강의	17619
인근	17620
##어도	17621
입구	17622
지도자	17623
신성	17624
다섯	17625
차단	17626
규칙	17627
글자	17628
##50	17629
되찾	17630
불편	17631
대대	17632
메카	17633
마도	17634
평타	17635
프린	17636
요정	17637
언제나	17638
바보	17639
창조	17640
박살	17641
코인	17642
마리아	17643
안습	17644
총선	17645
유희	17646
모바일	17647
동작	17648
토론	17649
##도로	17650
후기	17651
##비전	17652
##일리	17653
여러모로	17654
환상	17655
아크	17656
에드	17657
189	17658
거짓말	17659
##디아	17660
노출	17661
기여	17662
의료	17663
##파이어	17664
##브리	17665
권총	17666
세월	17667
소총	17668
접하	17669
이래	17670
##자키	17671
이리	17672
이득	17673
농구	17674
어택	17675
일원	17676
자이언	17677
무료	17678
신호	17679
블레이드	17680
202	17681
서쪽	17682
가시	17683
##영상	17684
이날	17685
1992	17686
부위	17687
출처	17688
정복	17689
개혁	17690
음성	17691
미술	17692
폭주	17693
극단	17694
잠수	17695
##스턴	17696
고생	17697
띄우	17698
92	17699
헌터	17700
##BO	17701
##ore	17702
##저히	17703
간부	17704
##톨릭	17705
Ar	17706
참전	17707
반발	17708
전직	17709
교전	17710
고용	17711
투어	17712
대체로	17713
양산	17714
일자	17715
보석	17716
고문	17717
폴란드	17718
대량	17719
키리	17720
연도	17721
상점	17722
83	17723
글로	17724
라이프	17725
제법	17726
호평	17727
상상	17728
제어	17729
사마	17730
길이	17731
동영상	17732
수영	17733
정류장	17734
승격	17735
전대	17736
Te	17737
##보드	17738
출력	17739
⭧랄	17740
사양	17741
합격	17742
89	17743
기습	17744
⭧잖아	17745
휘두르	17746
터치	17747
##FF	17748
101	17749
93	17750
1993	17751
공학	17752
잉글랜드	17753
반하	17754
지휘관	17755
북미	17756
De	17757
MAX	17758
제작진	17759
태우	17760
기병	17761
득표	17762
⫸하고	17763
윌리	17764
중대	17765
94	17766
요괴	17767
마루	17768
합성	17769
미디어	17770
⫸이랑	17771
다이아	17772
머신	17773
환승	17774
##ᅵᆼ	17775
인증	17776
⫸링	17777
법률	17778
com	17779
79	17780
끼치	17781
메인	17782
적어도	17783
##일드	17784
탄약	17785
조심	17786
가량	17787
박근	17788
런던	17789
회차	17790
구출	17791
요즘	17792
탱커	17793
##FC	17794
파일럿	17795
의혹	17796
원소	17797
re	17798
매니	17799
리얼	17800
활성	17801
사이드	17802
동방	17803
유령	17804
포탑	17805
하수인	17806
알파	17807
노멀	17808
삼진	17809
히데	17810
침공	17811
⭧다면서	17812
87	17813
마이클	17814
디지털	17815
분기	17816
이재	17817
##란색	17818
개정	17819
서양	17820
멋지	17821
가톨릭	17822
묘지	17823
인공	17824
의무	17825
##우드	17826
볼넷	17827
훔치	17828
이슬람	17829
똑같이	17830
네임	17831
가속	17832
결성	17833
##one	17834
예비	17835
축제	17836
대략	17837
On	17838
가게	17839
블러	17840
학자	17841
패널	17842
경고	17843
레인저	17844
계정	17845
⫸란	17846
이시	17847
⭧으니까	17848
##se	17849
타케	17850
이자	17851
##ip	17852
헌법	17853
소화	17854
전면	17855
이내	17856
아일랜드	17857
##AC	17858
AI	17859
부부	17860
스키	17861
DJ	17862
특화	17863
##RE	17864
익숙	17865
용사	17866
상호	17867
##미야	17868
나아가	17869
##ᇀ이	17870
⫸같이	17871
미츠	17872
⭧었었	17873
갤럭	17874
##ere	17875
캐스	17876
##먼트	17877
스웨	17878
##임스	17879
문장	17880
바이러스	17881
메모리	17882
슈트	17883
도망가	17884
루시	17885
어지	17886
워치	17887
실리	17888
근육	17889
대항	17890
커맨	17891
불법	17892
넘치	17893
##PG	17894
리메	17895
BGM	17896
MC	17897
플레이오프	17898
핸드	17899
베스트	17900
어둡	17901
오가	17902
플로	17903
##오	17904
SN	17905
자매	17906
유행	17907
묻히	17908
한방	17909
개체	17910
##ity	17911
도발	17912
⭧냐며	17913
들어서	17914
##ath	17915
김영	17916
##창기	17917
보안	17918
쿠로	17919
육성	17920
##조리	17921
예측	17922
빛나	17923
어린이	17924
예고	17925
트로	17926
소닉	17927
이즈	17928
자금	17929
갤럭시	17930
##라이언	17931
신기	17932
총리	17933
노르	17934
검찰	17935
취임	17936
멕시코	17937
형사	17938
FIFA	17939
터키	17940
정면	17941
⭧려다	17942
결론	17943
사제	17944
길드	17945
##end	17946
국방	17947
웬만	17948
차리	17949
리스트	17950
스톰	17951
고백	17952
1991	17953
##끄럽	17954
루타	17955
파크	17956
구멍	17957
캐리	17958
식사	17959
움직임	17960
불러	17961
마구	17962
일시	17963
레이스	17964
리치	17965
세이브	17966
호텔	17967
곧바로	17968
상업	17969
앞두	17970
감옥	17971
이명	17972
!!	17973
##펙트	17974
저장	17975
여유	17976
절망	17977
제임스	17978
찾아보	17979
개방	17980
부서	17981
진심	17982
##워크	17983
투구	17984
사이즈	17985
구원	17986
틀리	17987
유대	17988
볼트	17989
초창기	17990
플랫	17991
##기	17992
세르	17993
THE	17994
700	17995
타마	17996
플레	17997
대가	17998
FA	17999
피부	18000
너무나	18001
와이	18002
배차	18003
##요시	18004
##고리	18005
박정	18006
듯이	18007
청소년	18008
오랫	18009
팀원	18010
흥행	18011
강철	18012
⭧ㅕㅆ	18013
번개	18014
바치	18015
카타	18016
착각	18017
좌우	18018
##특별시	18019
전철	18020
커플	18021
##릭스	18022
여지	18023
1988	18024
##구리	18025
바위	18026
파트너	18027
발달	18028
어떠	18029
##레이터	18030
세포	18031
리메이크	18032
MVP	18033
소형	18034
##로나	18035
아끼	18036
처벌	18037
그동안	18038
스미	18039
서울특별시	18040
떠오르	18041
현역	18042
다스	18043
레이드	18044
아기	18045
신설	18046
긍정	18047
아빠	18048
주식	18049
융합	18050
##데스	18051
##네스	18052
주간	18053
원자	18054
망치	18055
외계	18056
분량	18057
차라리	18058
프라이	18059
정착	18060
Ro	18061
위장	18062
물러나	18063
미카	18064
##OT	18065
인정받	18066
돼지	18067
반사	18068
챕터	18069
카스	18070
합의	18071
##디언	18072
식민	18073
랭킹	18074
내성	18075
##성기	18076
목격	18077
인연	18078
누적	18079
커지	18080
협박	18081
전문가	18082
내장	18083
장악	18084
단장	18085
게스트	18086
의뢰	18087
화학	18088
빌드	18089
보고	18090
CC	18091
방지	18092
⫸에서부터	18093
포스트	18094
클리	18095
야스	18096
브레이크	18097
잡지	18098
박근혜	18099
Wh	18100
해병	18101
영향력	18102
공지	18103
논리	18104
대리	18105
방출	18106
안드로이드	18107
동의	18108
태그	18109
국왕	18110
사우	18111
방사	18112
⭧는다면	18113
AK	18114
시즈	18115
깨지	18116
타이거	18117
먹히	18118
조약	18119
고지	18120
포트	18121
각자	18122
그대	18123
몰아	18124
떠올리	18125
요코	18126
배트	18127
한번	18128
괴롭히	18129
관할	18130
저녁	18131
지능	18132
##ect	18133
DLC	18134
골든	18135
국군	18136
하필	18137
칭하	18138
htt	18139
⭧라면서	18140
대폭	18141
Se	18142
1970	18143
의존	18144
##스키	18145
최소한	18146
양쪽	18147
⭧으려고	18148
손가락	18149
호주	18150
토르	18151
Le	18152
악역	18153
마침내	18154
루이	18155
스턴	18156
##지마	18157
동화	18158
홀로	18159
연맹	18160
과목	18161
변호사	18162
대지	18163
⭧어다	18164
실버	18165
공무원	18166
유치	18167
'.	18168
후속작	18169
막차	18170
기구	18171
수련	18172
본작	18173
그럼	18174
무역	18175
섞이	18176
수수	18177
He	18178
면역	18179
소지	18180
보관	18181
소원	18182
오랫동안	18183
무덤	18184
PD	18185
##age	18186
오사카	18187
웹툰	18188
주말	18189
역임	18190
##IS	18191
귀신	18192
오카	18193
육체	18194
연인	18195
##밀리	18196
크라	18197
기원전	18198
al	18199
혐의	18200
스튜디오	18201
해리	18202
내구	18203
명중률	18204
확대	18205
재산	18206
카오스	18207
접촉	18208
⫸레	18209
호감	18210
어쨌	18211
불교	18212
다가오	18213
적대	18214
##구치	18215
네트	18216
kt	18217
##잡이	18218
노부	18219
대처	18220
명성	18221
써먹	18222
강남	18223
스틸	18224
태평	18225
계단	18226
올해	18227
전후	18228
비행기	18229
Go	18230
연료	18231
예능	18232
정비	18233
Me	18234
출마	18235
통치	18236
테일	18237
⭧더라	18238
간혹	18239
슈팅	18240
##페인	18241
팔리	18242
오늘날	18243
합체	18244
트레이드	18245
피스	18246
로즈	18247
모모	18248
예쁘	18249
정치인	18250
부장	18251
컬러	18252
마키	18253
정원	18254
퀄리티	18255
흐름	18256
개성	18257
⭧ᆫ다며	18258
소장	18259
블리	18260
리드	18261
시마	18262
안내	18263
놀랍	18264
학부	18265
이지	18266
오전	18267
게시판	18268
소스	18269
GT	18270
놓이	18271
##다이	18272
준수	18273
휴대	18274
접속	18275
저그	18276
수익	18277
권리	18278
##베르	18279
1989	18280
떨어	18281
##라드	18282
KIA	18283
권한	18284
원수	18285
특집	18286
패하	18287
연극	18288
하우스	18289
⫸든	18290
##og	18291
외형	18292
금융	18293
##ake	18294
##ide	18295
필리	18296
##어나오	18297
박물	18298
코미	18299
선전	18300
화제	18301
김태	18302
새벽	18303
허리	18304
윌리엄	18305
상당수	18306
##OM	18307
Be	18308
피격	18309
이집	18310
##구	18311
My	18312
초간	18313
이집트	18314
주기	18315
WW	18316
무렵	18317
따라가	18318
공공	18319
담기	18320
환영	18321
편곡	18322
페이즈	18323
##바라	18324
일기	18325
130	18326
최다	18327
금속	18328
포르투	18329
갇히	18330
꼽히	18331
알아보	18332
##려주	18333
나치	18334
AR	18335
둘째	18336
메르	18337
고구	18338
원칙	18339
##ss	18340
카미	18341
결합	18342
SC	18343
##ark	18344
##티아	18345
누나	18346
##ime	18347
깨닫	18348
연타	18349
##ire	18350
알렉산	18351
할아버지	18352
치우	18353
SM	18354
편입	18355
식당	18356
시계	18357
굴리	18358
유물	18359
개입	18360
문재	18361
캠퍼스	18362
한동안	18363
기도	18364
인조	18365
매직	18366
어른	18367
##세스	18368
지진	18369
거인	18370
188	18371
전신	18372
⭧으러	18373
소중	18374
아니면	18375
극복	18376
wh	18377
116	18378
블로그	18379
전진	18380
시선	18381
까다	18382
성립	18383
영문	18384
주사	18385
my	18386
Su	18387
##ES	18388
정찰	18389
은근히	18390
정글	18391
헤비	18392
회상	18393
아바	18394
기사단	18395
##프레	18396
사도	18397
SD	18398
협상	18399
⭧ㅓ도	18400
캐스팅	18401
메뉴	18402
궤도	18403
스웨덴	18404
##ID	18405
그로	18406
시내버스	18407
팬덤	18408
Tr	18409
음원	18410
⭧는지라	18411
대개	18412
##닉스	18413
작곡가	18414
손해	18415
##ite	18416
익히	18417
대충	18418
튀어나오	18419
##던가	18420
독특	18421
재단	18422
수십	18423
동굴	18424
##다랗	18425
우위	18426
더더	18427
별다르	18428
##아시아	18429
복무	18430
무겁	18431
고수	18432
안티	18433
민주주의	18434
용기	18435
식량	18436
##부르크	18437
털리	18438
트럭	18439
160	18440
교차	18441
리아	18442
종목	18443
이익	18444
해안	18445
##회사	18446
처형	18447
##ound	18448
조언	18449
일찍	18450
멀쩡	18451
트랜	18452
SR	18453
아이스	18454
⭧우	18455
클래식	18456
과제	18457
리듬	18458
이끄	18459
세이버	18460
위상	18461
##iv	18462
원본	18463
더더욱	18464
##가시	18465
HD	18466
''	18467
펀치	18468
커맨드	18469
신비	18470
커스	18471
##리그	18472
김민	18473
빼앗기	18474
타인	18475
박물관	18476
까다롭	18477
트윈	18478
##가미	18479
⭧든지	18480
애플	18481
##iz	18482
##OP	18483
삼국지	18484
##쳐지	18485
훗날	18486
##ge	18487
증언	18488
해적	18489
멘탈	18490
천재	18491
날짜	18492
허나	18493
절대로	18494
적군	18495
IC	18496
자국	18497
갈수	18498
일격	18499
살아가	18500
마비	18501
신앙	18502
위원장	18503
구사	18504
##가리	18505
신부	18506
##큐어	18507
##OW	18508
갈수록	18509
⭧구나	18510
노인	18511
재미있	18512
각본	18513
무릎	18514
코우	18515
중독	18516
하얗	18517
⭧느라	18518
기적	18519
재정	18520
죄다	18521
바리	18522
세종	18523
주포	18524
집행	18525
양성	18526
##무르	18527
스승	18528
철학	18529
하락	18530
⫸요	18531
우라	18532
참석	18533
놀이	18534
지위	18535
##바르	18536
마이너	18537
캠페인	18538
과연	18539
비례	18540
데모	18541
유이	18542
정수	18543
개시	18544
예산	18545
결코	18546
모자라	18547
국적	18548
적응	18549
패션	18550
교류	18551
관중	18552
호위	18553
작화	18554
⭧으라	18555
크리스마스	18556
한참	18557
탄창	18558
매체	18559
이브	18560
이중	18561
##덩이	18562
##LL	18563
열쇠	18564
안경	18565
히메	18566
##ome	18567
하야	18568
활발	18569
시아	18570
경기력	18571
Gr	18572
내세우	18573
원주	18574
선출	18575
투명	18576
십자	18577
##테르	18578
해상	18579
with	18580
바퀴	18581
우연히	18582
김종	18583
루수	18584
체크	18585
##BA	18586
희귀	18587
명단	18588
비추	18589
녹색	18590
충성	18591
##UN	18592
화성	18593
클레	18594
##마디	18595
진보	18596
미안	18597
스타크래프트	18598
드레	18599
데려오	18600
이영	18601
칭찬	18602
개수	18603
사막	18604
개막	18605
첫차	18606
주일	18607
로그	18608
결말	18609
##아웃	18610
IS	18611
##미니	18612
위대	18613
행적	18614
##지로	18615
전성기	18616
##몬드	18617
제정	18618
당일	18619
의대	18620
모래	18621
기르	18622
인지도	18623
흔적	18624
칼리	18625
1987	18626
상급	18627
기종	18628
챌린	18629
흔들리	18630
후방	18631
업적	18632
오스트리아	18633
de	18634
미터	18635
강점	18636
BE	18637
px	18638
임대	18639
상성	18640
140	18641
농담	18642
어지간	18643
김동	18644
웃음	18645
포로	18646
호수	18647
계통	18648
⭧겟	18649
사유	18650
도우	18651
보라	18652
##MA	18653
Pr	18654
버스터	18655
재현	18656
대학원	18657
⭧요	18658
취미	18659
면적	18660
무작	18661
새기	18662
매년	18663
##ord	18664
스프링	18665
어쨌든	18666
Love	18667
비상	18668
오직	18669
토끼	18670
어려움	18671
체육관	18672
클릭	18673
심사	18674
##ud	18675
일반인	18676
포항	18677
고스트	18678
개량	18679
사후	18680
⭧에	18681
신장	18682
거점	18683
프리큐어	18684
생존자	18685
유적	18686
이정	18687
남북	18688
어마	18689
강도	18690
기아	18691
자책	18692
과장	18693
니코	18694
새끼	18695
ch	18696
본체	18697
⭧으시	18698
모조리	18699
##양함	18700
자본	18701
대수	18702
괴수	18703
자극	18704
##려나	18705
예수	18706
이주	18707
가을	18708
##mp	18709
부지	18710
파츠	18711
##사자	18712
화물	18713
##데미	18714
울리	18715
사라	18716
##10	18717
로우	18718
부작	18719
맥스	18720
저작	18721
전멸	18722
##ame	18723
기용	18724
소위	18725
UE	18726
선고	18727
##ance	18728
아메리카	18729
캡틴	18730
연금	18731
추구	18732
기울	18733
아티스트	18734
SKT	18735
##ax	18736
##카드	18737
미라	18738
구리	18739
인격	18740
자세히	18741
에리	18742
an	18743
##치기	18744
가짜	18745
출입	18746
행하	18747
판매량	18748
JR	18749
공세	18750
##ure	18751
아카데미	18752
유나이	18753
유니폼	18754
불타	18755
##ix	18756
흥미	18757
900	18758
일치	18759
차기	18760
GS	18761
승점	18762
채택	18763
어스	18764
시달리	18765
포격	18766
##코드	18767
공룡	18768
일방	18769
단편	18770
유나이티	18771
취향	18772
무지	18773
##ick	18774
소송	18775
##mer	18776
스마트폰	18777
도주	18778
덧붙이	18779
포드	18780
탈퇴	18781
메리	18782
카트	18783
##이즈	18784
코코	18785
일본인	18786
##ice	18787
막대	18788
사형	18789
연패	18790
기량	18791
색깔	18792
타율	18793
피아노	18794
스트리	18795
바깥	18796
몽골	18797
귀찮	18798
##our	18799
제작자	18800
잘리	18801
한마디	18802
Bo	18803
유통	18804
건조	18805
노벨	18806
코리아	18807
상실	18808
아즈	18809
타선	18810
화장실	18811
할머니	18812
드라이브	18813
⭧런	18814
구경	18815
후계	18816
생겨나	18817
영구	18818
치유	18819
집어	18820
마린	18821
라이온	18822
측정	18823
EP	18824
식민지	18825
비주	18826
내지	18827
미루	18828
요금	18829
##시로	18830
아미	18831
자전	18832
보존	18833
1986	18834
거듭	18835
로고	18836
날아오	18837
다름	18838
##공화국	18839
선택지	18840
쌍둥이	18841
어드	18842
무라	18843
잠재	18844
1960	18845
아이콘	18846
##이너	18847
OST	18848
상인	18849
무방	18850
커피	18851
##비드	18852
빨갛	18853
사신	18854
강요	18855
레이더	18856
##랭크	18857
메시지	18858
##코토	18859
인민공화국	18860
KO	18861
##{{	18862
Un	18863
간신	18864
언스	18865
이민	18866
##고속	18867
이슈	18868
통산	18869
가요	18870
동력	18871
가상	18872
박히	18873
##랑이	18874
Ex	18875
포수	18876
신사	18877
넥센	18878
도끼	18879
조연	18880
색상	18881
피터	18882
다치	18883
데드	18884
캐논	18885
##AD	18886
명확	18887
오타	18888
몰락	18889
연승	18890
##qu	18891
주택	18892
화재	18893
사원	18894
여객	18895
##멘트	18896
루카	18897
교장	18898
네트워크	18899
그러니	18900
⭧ᆫᄃ	18901
주소	18902
타락	18903
곡명	18904
귀환	18905
##oc	18906
가루	18907
냄새	18908
브루	18909
안타깝	18910
{{{	18911
외전	18912
즐겁	18913
초보	18914
콜라보	18915
##반도	18916
유희왕	18917
터뜨리	18918
제갈	18919
실망	18920
판결	18921
##80	18922
구르	18923
##시스트	18924
아서	18925
칭호	18926
모토	18927
등지	18928
GB	18929
##카리	18930
대선	18931
찾아내	18932
경로	18933
레알	18934
수장	18935
UEFA	18936
항공기	18937
이터	18938
스페이스	18939
광역시	18940
⭧슈	18941
남녀	18942
위반	18943
깔끔	18944
매니저	18945
거미	18946
비치	18947
포르투갈	18948
DS	18949
고구려	18950
타수	18951
연합군	18952
186	18953
##own	18954
sh	18955
##ys	18956
아케	18957
반동	18958
##나카	18959
아마도	18960
라인업	18961
순환	18962
CPU	18963
##노우	18964
혐오	18965
교실	18966
영주	18967
##럼프	18968
그만두	18969
베네	18970
소라	18971
법인	18972
항복	18973
⭧ᄇ시	18974
백성	18975
##라노	18976
##라이트	18977
너희	18978
관찰	18979
복지	18980
##든가	18981
타운	18982
잠수함	18983
미스터	18984
##ber	18985
단단	18986
비서	18987
주역	18988
주자	18989
적합	18990
캠프	18991
스터	18992
배터리	18993
매장	18994
수류	18995
We	18996
관람	18997
익스	18998
AM	18999
커다랗	19000
예시	19001
유효	19002
강원도	19003
커리어	19004
드래프트	19005
싱크	19006
흘러	19007
##저스	19008
히어로즈	19009
끊기	19010
105	19011
공성	19012
카츠	19013
공업	19014
##av	19015
아쿠	19016
둘러싸	19017
##OC	19018
흑인	19019
인치	19020
하단	19021
고도	19022
유학	19023
벌레	19024
트라이	19025
이스라	19026
승객	19027
##old	19028
예언	19029
용량	19030
김재	19031
##정부	19032
동성	19033
.."	19034
고작	19035
본사	19036
##로디	19037
##시타	19038
상단	19039
승률	19040
##일보	19041
국경	19042
추억	19043
소프트웨어	19044
CF	19045
면모	19046
천만	19047
마약	19048
⭧래	19049
포위	19050
휴식	19051
서구	19052
티켓	19053
관측	19054
LI	19055
철수	19056
수출	19057
일대	19058
그러니까	19059
##orld	19060
도적	19061
곤란	19062
중립	19063
자폭	19064
카운트	19065
생략	19066
스텔	19067
구글	19068
개국	19069
표지	19070
적당히	19071
수류탄	19072
터널	19073
상술	19074
변환	19075
음모	19076
조별	19077
클랜	19078
인디	19079
마드리	19080
기생	19081
좌석	19082
허가	19083
합병	19084
다름없	19085
추종	19086
형상	19087
##위대	19088
고맙	19089
소대	19090
대인	19091
시그	19092
사이버	19093
실전	19094
오크	19095
히나	19096
치루	19097
정기	19098
후술	19099
아랍	19100
##가스	19101
김대	19102
문구	19103
내전	19104
마드리드	19105
통계	19106
1984	19107
디스크	19108
더럽	19109
보험	19110
인종	19111
차이점	19112
메달	19113
마디	19114
##ont	19115
1985	19116
글로벌	19117
연예인	19118
최신	19119
근본	19120
복구	19121
##려들	19122
지경	19123
언더	19124
액티브	19125
입지	19126
사명	19127
187	19128
서포터	19129
증오	19130
SH	19131
지뢰	19132
후손	19133
이스라엘	19134
스트라이크	19135
후배	19136
아시안	19137
용서	19138
에르	19139
구석	19140
담배	19141
성남	19142
##데이	19143
3000	19144
사정거리	19145
위성	19146
일족	19147
시너지	19148
타로	19149
크리스탈	19150
떨어뜨리	19151
AD	19152
##ies	19153
허락	19154
LC	19155
기숙	19156
고위	19157
DF	19158
급격	19159
그랜드	19160
자막	19161
즉위	19162
리타	19163
숙련	19164
##머스	19165
함수	19166
논의	19167
부각	19168
전주	19169
하차	19170
고개	19171
텔레비전	19172
구슬	19173
공방	19174
lo	19175
꾸미	19176
KBO	19177
행보	19178
오라	19179
어뢰	19180
미묘	19181
경주	19182
##팩트	19183
토벌	19184
시노	19185
쓸모	19186
감각	19187
모니	19188
발행	19189
해피	19190
데려가	19191
아츠	19192
모노	19193
들키	19194
언덕	19195
서식	19196
It	19197
왕위	19198
마그	19199
##lay	19200
연령	19201
특전	19202
⭧네요	19203
튕기	19204
XX	19205
준우	19206
중첩	19207
태평양	19208
부딪	19209
취약	19210
가만	19211
뜬금	19212
후원	19213
오랜만	19214
제약	19215
쿼터	19216
블러드	19217
루나	19218
베리	19219
노동자	19220
무척	19221
침략	19222
저렴	19223
정화	19224
간신히	19225
##자드	19226
총알	19227
기관총	19228
##OD	19229
침입	19230
##하면	19231
눈치채	19232
세븐	19233
노스	19234
MF	19235
드롭	19236
간접	19237
일본군	19238
생년	19239
오마	19240
##US	19241
아르헨	19242
방어구	19243
##블린	19244
제트	19245
워커	19246
흡혈	19247
분쟁	19248
법정	19249
입대	19250
##어마	19251
알아내	19252
헬기	19253
파르	19254
학습	19255
혹시	19256
균형	19257
드럼	19258
맛있	19259
가동	19260
찍히	19261
아테	19262
전이	19263
CV	19264
사귀	19265
진압	19266
강자	19267
##프리	19268
카카	19269
산하	19270
WWE	19271
.....	19272
##PM	19273
아르헨티나	19274
##ann	19275
잡아먹	19276
곳곳	19277
레슬	19278
찬스	19279
공용	19280
텍스트	19281
소방	19282
평생	19283
머무르	19284
여우	19285
조이	19286
분열	19287
스리	19288
NE	19289
아이언	19290
SE	19291
어마어마	19292
주차	19293
모시	19294
비스	19295
자이언츠	19296
관점	19297
##40	19298
중세	19299
네오	19300
신전	19301
동인	19302
약화	19303
악당	19304
금방	19305
정차	19306
나리	19307
125	19308
##pe	19309
깨어나	19310
플라이	19311
이토	19312
잡아내	19313
거울	19314
##30	19315
우르	19316
트랜스	19317
애정	19318
부적	19319
페널	19320
결심	19321
지리	19322
이수	19323
경상북도	19324
딜링	19325
⭧라기	19326
반전	19327
##말리	19328
제작사	19329
나폴	19330
격추	19331
내보내	19332
제출	19333
상기	19334
##네임	19335
성당	19336
앨리스	19337
##sh	19338
연고	19339
보호막	19340
your	19341
니콜	19342
이혼	19343
되돌리	19344
통화	19345
양자	19346
크림	19347
스팀	19348
이란	19349
⭧던지	19350
토너	19351
표면	19352
호흡	19353
##NA	19354
폐쇄	19355
##배우	19356
사령부	19357
금액	19358
아저	19359
##마크	19360
결전	19361
큐브	19362
구축함	19363
엘리트	19364
미즈	19365
아저씨	19366
간주	19367
코르	19368
히토	19369
악화	19370
저택	19371
보완	19372
뮤지컬	19373
창원	19374
구름	19375
이식	19376
세인트	19377
얻어	19378
인권	19379
뽑히	19380
충실	19381
##VD	19382
채팅	19383
스크린	19384
헤어지	19385
CJ	19386
김현	19387
불사	19388
선거구	19389
착하	19390
AS	19391
용인	19392
상관없	19393
라면	19394
참모	19395
전파	19396
초록	19397
열매	19398
##나미	19399
부자	19400
주둔	19401
지불	19402
DE	19403
발리	19404
인용	19405
하루카	19406
유력	19407
##은행	19408
암시	19409
대왕	19410
천안	19411
##ng	19412
##키아	19413
##io	19414
낚시	19415
긴장	19416
정예	19417
교과	19418
분해	19419
물리치	19420
묘하	19421
##천시	19422
해치	19423
##베이	19424
빠져	19425
토니	19426
프란	19427
동양	19428
유발	19429
문재인	19430
서서	19431
보건	19432
존재감	19433
성별	19434
공정	19435
경남	19436
체결	19437
남아	19438
시인	19439
배포	19440
학력	19441
상세	19442
⭧소	19443
소유자	19444
낮추	19445
지라	19446
엮이	19447
수석	19448
##거지	19449
우에	19450
후계자	19451
;&	19452
악기	19453
언젠	19454
언젠가	19455
답변	19456
드라이버	19457
마주치	19458
걸어	19459
짜증	19460
##리나	19461
상영	19462
##oo	19463
토너먼트	19464
원리	19465
수호자	19466
재밌	19467
도둑	19468
전승	19469
엑스트라	19470
바이오	19471
악명	19472
안기	19473
행운	19474
로버트	19475
개설	19476
##라기	19477
호기	19478
170	19479
이듬	19480
도박	19481
Pro	19482
구미	19483
본관	19484
뜨겁	19485
천하	19486
업로드	19487
잔뜩	19488
미쿠	19489
도라	19490
기인	19491
선두	19492
은신	19493
견디	19494
기숙사	19495
##싱턴	19496
##월일	19497
##ave	19498
뱀파이어	19499
양식	19500
실종	19501
쏟아지	19502
교도	19503
중량	19504
⭧에요	19505
지팡	19506
루비	19507
##포트	19508
릴리	19509
요인	19510
백인	19511
##걸이	19512
로리	19513
탐험	19514
정황	19515
##LE	19516
부임	19517
임신	19518
⫸에다가	19519
난입	19520
중력	19521
아동	19522
처분	19523
대책	19524
임금	19525
동점	19526
비아	19527
LV	19528
관리자	19529
캐스터	19530
디지몬	19531
미키	19532
심심	19533
##번트	19534
건드리	19535
만남	19536
방송국	19537
that	19538
논문	19539
야생	19540
칼날	19541
UP	19542
항의	19543
테라	19544
관계자	19545
헨리	19546
미네	19547
생년월일	19548
해명	19549
백작	19550
시카	19551
유독	19552
탄환	19553
##센트	19554
분명히	19555
베타	19556
호칭	19557
##우마	19558
복합	19559
도루	19560
서번트	19561
카와	19562
##스럽	19563
금메달	19564
말투	19565
윈도우	19566
##ION	19567
동명	19568
생명체	19569
진주	19570
문단	19571
이라	19572
발렌	19573
##ream	19574
와일드	19575
할인	19576
법칙	19577
수백	19578
가방	19579
다이아몬드	19580
⭧려던	19581
콜로	19582
ED	19583
1500	19584
단축	19585
자녀	19586
절차	19587
정통	19588
루이스	19589
잃어버리	19590
EN	19591
해골	19592
분신	19593
외계인	19594
무관	19595
영광	19596
기상	19597
보드	19598
운동장	19599
하향	19600
이드	19601
온도	19602
지치	19603
시합	19604
조리	19605
라틴	19606
이듬해	19607
브레	19608
주술	19609
분대	19610
프로필	19611
인력	19612
리뷰	19613
##리스트	19614
##ond	19615
창고	19616
1982	19617
치즈	19618
->	19619
딜레이	19620
부스터	19621
##펴보	19622
살펴보	19623
이온	19624
니스	19625
그르	19626
끔찍	19627
광장	19628
##어하	19629
로얄	19630
기름	19631
플래시	19632
##게임	19633
##iss	19634
Com	19635
5000	19636
왠지	19637
사살	19638
의학	19639
기둥	19640
크레	19641
창설	19642
그린	19643
뛰어넘	19644
⭧다니	19645
전동	19646
건국	19647
성질	19648
울프	19649
전북	19650
마블	19651
한쪽	19652
유인	19653
막내	19654
공허	19655
엔젤	19656
체험	19657
레딧	19658
장인	19659
부드	19660
##에르	19661
퇴장	19662
그렇지만	19663
물고기	19664
부사	19665
유격	19666
존경	19667
민첩	19668
집착	19669
##태우	19670
우정	19671
##운서	19672
삽입	19673
디젤	19674
##군다	19675
아나운서	19676
⭧ᄐ	19677
걸맞	19678
웨스트	19679
상식	19680
##래	19681
참가자	19682
아키라	19683
승자	19684
1950	19685
##도르	19686
공산당	19687
##플레이	19688
##IP	19689
##11	19690
깔리	19691
창단	19692
요약	19693
블라	19694
휘말리	19695
시상	19696
감지	19697
시원	19698
작년	19699
진학	19700
모터	19701
시공	19702
그램	19703
가라	19704
증상	19705
전제	19706
독재	19707
##카이	19708
수면	19709
감추	19710
1983	19711
하츠	19712
의장	19713
불펜	19714
##60	19715
학기	19716
샌드	19717
출구	19718
복제	19719
##ian	19720
??	19721
by	19722
##비치	19723
##소녀	19724
아틀	19725
부드럽	19726
오디션	19727
he	19728
두르	19729
싫어하	19730
나츠	19731
유산	19732
##커스	19733
⫸께서	19734
비전	19735
철저	19736
선제	19737
덩치	19738
발굴	19739
가공	19740
시라	19741
BL	19742
하이퍼	19743
헤어	19744
단원	19745
스위스	19746
투스	19747
유전자	19748
스폰	19749
&#	19750
반박	19751
##유럽	19752
go	19753
##갈리	19754
그럭	19755
레지	19756
트럼프	19757
여주	19758
항구	19759
타석	19760
리스크	19761
코트	19762
미만	19763
##세대	19764
돌입	19765
##저럭	19766
웃기	19767
안녕	19768
갑작	19769
중형	19770
스쿨	19771
사인	19772
콘텐츠	19773
스위치	19774
펼쳐지	19775
##티스	19776
비주얼	19777
다카	19778
그럭저럭	19779
사법	19780
주니어	19781
##쟁이	19782
노바	19783
기운	19784
##Hz	19785
통로	19786
준우승	19787
배정	19788
##TV	19789
수명	19790
백제	19791
마스크	19792
사용자	19793
대거	19794
어필	19795
출격	19796
휘하	19797
기재	19798
상륙	19799
라이플	19800
논쟁	19801
웨이브	19802
정교	19803
이펙트	19804
본진	19805
단행	19806
자전거	19807
##투스	19808
가죽	19809
배트맨	19810
보충	19811
토마	19812
##베스	19813
##ory	19814
신도	19815
깨달	19816
트리플	19817
훈장	19818
##필드	19819
호소	19820
##TE	19821
시리아	19822
##우리	19823
식품	19824
회담	19825
스트레스	19826
격차	19827
국장	19828
축복	19829
속이	19830
인질	19831
##ace	19832
##rom	19833
코미디	19834
시트	19835
##크라	19836
Co	19837
##세서	19838
실책	19839
##틀러	19840
스펠	19841
근대	19842
완결	19843
위안	19844
Bl	19845
옹호	19846
학문	19847
파편	19848
##카이도	19849
태국	19850
케인	19851
평양	19852
##누스	19853
공화	19854
카를	19855
지사	19856
처지	19857
싸이	19858
유기	19859
마우스	19860
;&#	19861
경전	19862
공립	19863
갈아	19864
루스	19865
워싱턴	19866
팬텀	19867
이글	19868
부근	19869
마케	19870
적중	19871
DVD	19872
##필더	19873
승인	19874
미드필더	19875
Br	19876
원문	19877
오키	19878
토지	19879
침묵	19880
소음	19881
피우	19882
메이드	19883
디즈	19884
슬로	19885
##부로	19886
기갑	19887
기동성	19888
경직	19889
소요	19890
플래그	19891
와타	19892
Or	19893
##무시	19894
##게이	19895
중국어	19896
세부	19897
커녕	19898
빅토	19899
##oth	19900
두들	19901
근거리	19902
트롤	19903
조기	19904
축하	19905
치킨	19906
배출	19907
##ows	19908
내각	19909
막판	19910
결투	19911
경상남도	19912
신나	19913
##시오	19914
보이스	19915
복선	19916
##산시	19917
시신	19918
오염	19919
솔직	19920
파동	19921
방위	19922
##MP	19923
연습생	19924
마감	19925
부실	19926
남매	19927
동계	19928
리카	19929
수능	19930
내일	19931
삼각	19932
간단히	19933
그레	19934
차체	19935
과학자	19936
급하	19937
##아다니	19938
후퇴	19939
동급	19940
테츠	19941
##그리	19942
기후	19943
고객	19944
임기	19945
날카	19946
##TS	19947
고리	19948
밀어	19949
센스	19950
넘버	19951
슬라이	19952
우세	19953
##키지	19954
헝가리	19955
##먼스	19956
무작위	19957
수급	19958
망가지	19959
왜곡	19960
무인	19961
상담	19962
학위	19963
손상	19964
##화점	19965
##신교	19966
국정	19967
한반도	19968
괜히	19969
지향	19970
규격	19971
##IG	19972
영지	19973
장거리	19974
노조	19975
바쁘	19976
리오	19977
야수	19978
##셔널	19979
CG	19980
약탈	19981
마법소녀	19982
일당	19983
##다보	19984
중시	19985
기세	19986
철거	19987
하마	19988
##주교	19989
무사히	19990
##경기	19991
##aw	19992
끼우	19993
선행	19994
185	19995
##하마	19996
토크	19997
요한	19998
유성	19999
날카롭	20000
##텐도	20001
닌텐도	20002
패키지	20003
스즈	20004
##타이	20005
최상위	20006
장탄	20007
멜로디	20008
과도	20009
##포르	20010
미나미	20011
야구장	20012
간간	20013
신발	20014
엔드	20015
##군다나	20016
양상	20017
록맨	20018
대포	20019
성전	20020
##ale	20021
SNS	20022
출루	20023
즈음	20024
프리미엄	20025
지칭	20026
질리	20027
타쿠	20028
그날	20029
변수	20030
개발자	20031
PV	20032
킬러	20033
스트리트	20034
핑크	20035
주류	20036
##ike	20037
대치	20038
독일군	20039
개별	20040
페이스북	20041
후자	20042
에서	20043
안개	20044
무산	20045
##하시	20046
##틀랜드	20047
특별히	20048
더군다나	20049
여러분	20050
영원히	20051
뭉치	20052
임팩트	20053
전망	20054
사키	20055
초인	20056
1945	20057
입주	20058
물체	20059
Cl	20060
챌린지	20061
집권	20062
##에이	20063
업계	20064
바디	20065
농업	20066
For	20067
무시무시	20068
데이비드	20069
군수	20070
리프	20071
부착	20072
원조	20073
흰색	20074
브로	20075
동남	20076
##키퍼	20077
##야수	20078
암살자	20079
장사	20080
첼시	20081
매번	20082
RPG	20083
나미	20084
왜냐	20085
청주	20086
만주	20087
중복	20088
##OU	20089
브라운	20090
계시	20091
##자와	20092
Dr	20093
질병	20094
##지만	20095
손실	20096
야마토	20097
최적	20098
악몽	20099
##바닥	20100
서서히	20101
필리핀	20102
##ep	20103
선조	20104
피트	20105
취득	20106
##irl	20107
##man	20108
폭행	20109
##우치	20110
동아리	20111
##ach	20112
##ile	20113
175	20114
##든지	20115
동경	20116
수비력	20117
1981	20118
슬프	20119
Sc	20120
인방	20121
BB	20122
호랑이	20123
##여객	20124
골키퍼	20125
OP	20126
서클	20127
벨트	20128
부동	20129
올스타	20130
해양	20131
여인	20132
구별	20133
102	20134
##공항	20135
호시	20136
잠입	20137
117	20138
지팡이	20139
헤르	20140
놀리	20141
어이	20142
진격	20143
인피	20144
나르	20145
파생	20146
##12	20147
고장	20148
Team	20149
106	20150
며칠	20151
배역	20152
끌려가	20153
교토	20154
##VA	20155
LA	20156
물량	20157
해킹	20158
##철도	20159
##ink	20160
플러스	20161
Sk	20162
선임	20163
일람	20164
제독	20165
##아이	20166
상한	20167
퍼포	20168
의외로	20169
사회주의	20170
Mo	20171
체인지	20172
퍼포먼스	20173
감싸	20174
⭧ᆯ게	20175
페널티	20176
직장	20177
GP	20178
합계	20179
권위	20180
중장	20181
가만히	20182
국당	20183
기호	20184
레코드	20185
모로	20186
공수	20187
청와	20188
DD	20189
##데드	20190
마물	20191
무술	20192
115	20193
⭧ᄇ시오	20194
##아키	20195
응용	20196
시크	20197
메이커	20198
⭧로	20199
김경	20200
해내	20201
##어놓	20202
세팅	20203
사립	20204
오이	20205
데이트	20206
⭧여야	20207
코난	20208
원형	20209
이웃	20210
평점	20211
라그	20212
이종	20213
##플렉	20214
약물	20215
가디언	20216
기동전	20217
주행	20218
귀국	20219
언데드	20220
신입	20221
최우	20222
연산	20223
##ial	20224
FM	20225
##승부	20226
청와대	20227
건네	20228
밀도	20229
투쟁	20230
##토스	20231
##메이	20232
개장	20233
##런트	20234
##ish	20235
엘리자	20236
국어	20237
장로	20238
당대	20239
에릭	20240
SU	20241
파란색	20242
1979	20243
서기	20244
마다	20245
레일	20246
⭧냐면	20247
후임	20248
나비	20249
여전	20250
에디	20251
긴급	20252
집합	20253
UN	20254
만만	20255
배달	20256
##래시	20257
이와	20258
징역	20259
챔피언십	20260
억지로	20261
스파이더	20262
프로토	20263
비틀	20264
포즈	20265
오스만	20266
트릭	20267
선사	20268
합리	20269
⭧옵	20270
쇼핑	20271
개신교	20272
권장	20273
분포	20274
뽑아내	20275
히가시	20276
트루	20277
장신	20278
김상	20279
기장	20280
행방	20281
폴리	20282
추방	20283
택시	20284
##ower	20285
저하	20286
천연	20287
다가가	20288
공백	20289
감동	20290
회색	20291
##네시아	20292
안양	20293
전무	20294
프레이	20295
해산	20296
일화	20297
궁금	20298
프리미어	20299
연구원	20300
독점	20301
증폭	20302
신자	20303
수동	20304
즉사	20305
모스크	20306
확산	20307
명의	20308
##II	20309
관여	20310
야간	20311
주관	20312
⫸더러	20313
Bla	20314
면허	20315
교단	20316
여학생	20317
공인	20318
방치	20319
스캔	20320
재회	20321
임의	20322
모집	20323
폐기	20324
듀오	20325
##하르트	20326
빌딩	20327
유미	20328
##오루	20329
대단히	20330
조상	20331
잠들	20332
혼돈	20333
만일	20334
명백	20335
뱅크	20336
김진	20337
##GE	20338
전남	20339
썬더	20340
##숭이	20341
라이너	20342
##운동	20343
코멘트	20344
감상	20345
아레나	20346
⭧노	20347
캘리	20348
##버그	20349
바둑	20350
성경	20351
렌즈	20352
버섯	20353
사무소	20354
##크로	20355
택하	20356
CH	20357
매출	20358
분당	20359
we	20360
캐치	20361
고블린	20362
피닉스	20363
끊임	20364
발목	20365
돌연	20366
BS	20367
##IM	20368
출간	20369
조명	20370
타이거즈	20371
처참	20372
Ne	20373
추리	20374
##!!	20375
불량	20376
Star	20377
장미	20378
부서지	20379
광산	20380
깜짝	20381
오메	20382
광선	20383
박지	20384
로빈	20385
##프리카	20386
승무원	20387
사리	20388
김기	20389
자비	20390
##레일	20391
전라남도	20392
모듈	20393
구성원	20394
포켓몬스터	20395
비웃	20396
##벌레	20397
무스	20398
상관없이	20399
복원	20400
뚫리	20401
PR	20402
해머	20403
우월	20404
고소	20405
실장	20406
ID	20407
우주선	20408
고로	20409
질투	20410
목사	20411
뒤지	20412
되게	20413
스타디	20414
통틀	20415
평일	20416
하인	20417
계수	20418
만지	20419
간호	20420
기쁘	20421
지연	20422
와카	20423
##번에	20424
배급	20425
##히코	20426
##쿠라	20427
드루	20428
Wind	20429
미국인	20430
버드	20431
수색	20432
우드	20433
⭧ᆫ데다	20434
화산	20435
350	20436
라이온즈	20437
유출	20438
대조	20439
벌리	20440
난사	20441
협정	20442
##99	20443
유언	20444
파이트	20445
수립	20446
탐정	20447
엄격	20448
시외	20449
조롱	20450
up	20451
스탠드	20452
풍부	20453
##전자	20454
운수	20455
서포트	20456
##나오	20457
LP	20458
재학	20459
파멸	20460
심의	20461
DC	20462
히라	20463
골렘	20464
한두	20465
우익	20466
##카락	20467
국무	20468
메이플	20469
산맥	20470
War	20471
머리카락	20472
fe	20473
체감	20474
And	20475
정발	20476
스텝	20477
우유	20478
의자	20479
검술	20480
⫸이란	20481
온천	20482
##체스터	20483
도저히	20484
##ass	20485
바스	20486
쿠라	20487
당사자	20488
##가드	20489
청구	20490
치열	20491
나기	20492
모험가	20493
센트	20494
합동	20495
육상	20496
토미	20497
포장	20498
국제공항	20499
뒤늦	20500
사이코	20501
##ms	20502
반부	20503
키타	20504
##me	20505
루크	20506
젤리	20507
##타카	20508
360	20509
Man	20510
소용	20511
실내	20512
이라크	20513
오로지	20514
다운로드	20515
에픽	20516
본토	20517
112	20518
마코토	20519
축소	20520
토시	20521
기력	20522
권유	20523
제네	20524
특급	20525
조용히	20526
극도	20527
규제	20528
디즈니	20529
승진	20530
배수	20531
##gh	20532
##블로	20533
따뜻	20534
우치	20535
⭧티	20536
##CG	20537
낙하	20538
##렐라	20539
루머	20540
비명	20541
아쉬	20542
마냥	20543
108	20544
##도리	20545
##릴라	20546
All	20547
베를	20548
라라	20549
묶이	20550
거스	20551
자꾸	20552
러시	20553
AKB	20554
나노	20555
티아	20556
##tle	20557
하계	20558
##pp	20559
사이클	20560
##ble	20561
⫸두	20562
##amp	20563
충청남도	20564
반감	20565
범죄자	20566
지인	20567
바르셀	20568
루피	20569
오락	20570
파울	20571
출범	20572
바르셀로나	20573
디바	20574
비유	20575
우즈	20576
##ft	20577
여섯	20578
지목	20579
수직	20580
시바	20581
베이징	20582
시사	20583
알라	20584
안쪽	20585
토큰	20586
중지	20587
단종	20588
오우	20589
일요일	20590
프렌	20591
103	20592
수월	20593
경북	20594
세금	20595
탐지	20596
폭파	20597
스테이	20598
황후	20599
능력자	20600
전당	20601
붙잡히	20602
협의	20603
꼬이	20604
리즈	20605
어시스트	20606
##yle	20607
스타디움	20608
서머	20609
##70	20610
⫸니	20611
기리	20612
실은	20613
페리	20614
이글스	20615
여파	20616
##ous	20617
물품	20618
중순	20619
직선	20620
막아내	20621
##려받	20622
세리	20623
실현	20624
배제	20625
조우	20626
##슬라	20627
스태	20628
모임	20629
##now	20630
##atch	20631
베테	20632
신학	20633
##sp	20634
넘어지	20635
리버풀	20636
카구	20637
##페라	20638
불행	20639
분산	20640
세라	20641
부딪히	20642
당당	20643
조커	20644
One	20645
넘어서	20646
타르	20647
아가씨	20648
Mar	20649
##orm	20650
수염	20651
생전	20652
손자	20653
드림	20654
김해	20655
평론	20656
얻어맞	20657
캐시	20658
토키	20659
유의	20660
신용	20661
나스	20662
New	20663
To	20664
ON	20665
명문	20666
거북	20667
기묘	20668
드론	20669
추세	20670
바론	20671
여고	20672
무승부	20673
조르	20674
ex	20675
막상	20676
체중	20677
낙선	20678
##스티벌	20679
나루토	20680
진상	20681
페스티벌	20682
수비수	20683
IN	20684
경악	20685
##란히	20686
살아나	20687
토요일	20688
BR	20689
⭧던가	20690
로이	20691
##사이	20692
##민주	20693
천문	20694
까이	20695
Part	20696
맥주	20697
스미스	20698
수습	20699
태풍	20700
가난	20701
더빙	20702
채보	20703
KR	20704
기수	20705
두렵	20706
연봉	20707
함락	20708
마카	20709
김용	20710
Gam	20711
강등	20712
비극	20713
센서	20714
강사	20715
되살	20716
SF	20717
주최	20718
후회	20719
패전	20720
힙합	20721
이나	20722
##저리	20723
##ING	20724
대성	20725
극히	20726
집어넣	20727
잠실	20728
리온	20729
산탄	20730
고속도로	20731
CS	20732
좌절	20733
⭧ᆫ다거나	20734
엄밀	20735
국판	20736
듀스	20737
명목	20738
배려	20739
동반	20740
배드	20741
타일	20742
훼손	20743
스핀	20744
인접	20745
유망	20746
대시	20747
노가	20748
실시간	20749
개척	20750
힐러	20751
코마	20752
철권	20753
##ment	20754
리가	20755
기부	20756
PP	20757
##방송	20758
에반	20759
사무실	20760
##ae	20761
빨간	20762
반짝	20763
케이블	20764
⫸나마	20765
##64	20766
주체	20767
하여	20768
128	20769
원시	20770
스티븐	20771
압력	20772
모스	20773
상반	20774
고증	20775
장탄수	20776
쇼크	20777
스테이션	20778
##불명	20779
유재	20780
⭧나요	20781
혜택	20782
스와	20783
투척	20784
도장	20785
신속	20786
포탄	20787
닉네임	20788
꼬마	20789
도리	20790
인자	20791
바지	20792
##ase	20793
혈액	20794
쳐들	20795
호남	20796
중화민국	20797
##사기	20798
농장	20799
마땅	20800
아이러	20801
각지	20802
##ree	20803
장성	20804
이타	20805
샤이	20806
초콜	20807
되돌	20808
재개	20809
##사리	20810
조카	20811
역습	20812
다투	20813
주교	20814
걸즈	20815
고시	20816
음료	20817
##리	20818
휴가	20819
유니크	20820
벤치	20821
히틀러	20822
반도	20823
엑시	20824
암호	20825
구조물	20826
달려가	20827
⭧모	20828
구장	20829
날씨	20830
샷건	20831
##구장	20832
때려	20833
변동	20834
번지	20835
총장	20836
En	20837
캘리포	20838
시로	20839
네티	20840
확장팩	20841
퍼즐	20842
##노리	20843
제갈량	20844
그라운드	20845
에로	20846
시상식	20847
짐작	20848
하프	20849
1978	20850
질서	20851
1973	20852
⭧ᄇ니까	20853
근원	20854
레온	20855
믹스	20856
JT	20857
함부로	20858
트로피	20859
해병대	20860
동해	20861
기뻐	20862
기뻐하	20863
어쩌면	20864
야쿠	20865
184	20866
로맨	20867
사퇴	20868
거론	20869
오브젝트	20870
##az	20871
여의	20872
##bo	20873
대행	20874
캘리포니아	20875
보라색	20876
슬라	20877
제치	20878
시비	20879
소니	20880
찬성	20881
라즈	20882
##브라	20883
갈색	20884
첫째	20885
짐승	20886
AN	20887
상사	20888
가담	20889
깊이	20890
##블리	20891
##러그	20892
각오	20893
인재	20894
사로	20895
World	20896
##ason	20897
양손	20898
구동	20899
##AY	20900
111	20901
그랑	20902
##케이션	20903
쿠데	20904
220	20905
여럿	20906
안심	20907
호불	20908
##iki	20909
호불호	20910
퇴각	20911
##베리	20912
무용	20913
백화점	20914
최저	20915
혁신	20916
거칠	20917
공감	20918
183	20919
강림	20920
키보드	20921
정반	20922
##돌이	20923
##리온	20924
결제	20925
##키스탄	20926
알바	20927
베기	20928
감수	20929
지수	20930
JP	20931
##저기	20932
오더	20933
포스터	20934
##느리	20935
사야	20936
돌보	20937
동서	20938
프린세스	20939
말기	20940
⭧레	20941
트레이너	20942
진급	20943
마계	20944
전날	20945
계층	20946
베어스	20947
고무	20948
네티즌	20949
알렉스	20950
원더	20951
동아	20952
##ear	20953
So	20954
경호	20955
중동	20956
빨간색	20957
대령	20958
⭧거든	20959
특별시	20960
동행	20961
산타	20962
흡사	20963
##hen	20964
후반기	20965
라크	20966
빠져나가	20967
장례	20968
셔틀	20969
노란색	20970
여기저기	20971
갤러	20972
중부	20973
장난감	20974
마오	20975
240	20976
평하	20977
흔들	20978
사관	20979
막강	20980
타이탄	20981
리처	20982
##MS	20983
뜬금없이	20984
신선	20985
당기	20986
sp	20987
수지	20988
세뇌	20989
핀란드	20990
학생회	20991
가두	20992
피로	20993
##are	20994
포획	20995
드레스	20996
견해	20997
밀어내	20998
클린	20999
⭧려다가	21000
FW	21001
베를린	21002
탐색	21003
두들기	21004
차갑	21005
보좌	21006
인과	21007
유혹	21008
GO	21009
깎이	21010
매주	21011
선수단	21012
날뛰	21013
양반	21014
⭧ᆯ려	21015
교복	21016
패밀리	21017
유입	21018
봉쇄	21019
국도	21020
영감	21021
우호	21022
강렬	21023
원곡	21024
스코틀랜드	21025
연쇄	21026
뮌헨	21027
상주	21028
입자	21029
##직자	21030
페어	21031
케이드	21032
선진	21033
##우트	21034
1974	21035
##차기	21036
돋보이	21037
방송사	21038
무공	21039
##기에	21040
문화재	21041
마일	21042
프랑스어	21043
생체	21044
끌리	21045
재건	21046
tv	21047
클론	21048
우측	21049
박쥐	21050
소재지	21051
트라우마	21052
도어	21053
역명	21054
점유	21055
운송	21056
##냥	21057
토대	21058
⫸마냥	21059
콤비	21060
##스카	21061
##루미	21062
방탄	21063
요미	21064
경찰서	21065
아이러니	21066
드로우	21067
아베	21068
위로	21069
왕실	21070
결계	21071
김준	21072
서바이	21073
잭슨	21074
후미	21075
박살나	21076
약자	21077
와인	21078
신중	21079
공격수	21080
무실	21081
결혼식	21082
세로	21083
비스트	21084
http	21085
수여	21086
##하나	21087
침대	21088
지부	21089
1972	21090
연금술	21091
알레	21092
복사	21093
##90	21094
##ven	21095
래퍼	21096
트윈스	21097
##ife	21098
포터	21099
##아치	21100
관료	21101
제물	21102
화폐	21103
도덕	21104
전락	21105
집회	21106
통칭	21107
바나	21108
윈드	21109
https	21110
##싸움	21111
로이드	21112
완공	21113
튼튼	21114
트랩	21115
토하	21116
##ade	21117
⭧마	21118
허무	21119
장판	21120
순양함	21121
프라임	21122
엔지	21123
리안	21124
밀려나	21125
##AP	21126
Wi	21127
취업	21128
##베이터	21129
역량	21130
스즈키	21131
선장	21132
콘솔	21133
소금	21134
##박스	21135
폭스	21136
탐사	21137
덴마크	21138
세자	21139
영양	21140
출혈	21141
##렉션	21142
강경	21143
우회	21144
쓸데	21145
빈도	21146
나아지	21147
##act	21148
##데레	21149
도감	21150
MB	21151
하스	21152
글씨	21153
~!	21154
도트	21155
홀드	21156
##ai	21157
대타	21158
일곱	21159
##ank	21160
아바타	21161
##깨비	21162
##gin	21163
연설	21164
억제	21165
이순	21166
간섭	21167
여단	21168
%/	21169
관통력	21170
상무	21171
공대	21172
낭비	21173
do	21174
단행본	21175
##aby	21176
루프	21177
히든	21178
홀리	21179
부작용	21180
노무	21181
메이지	21182
모형	21183
신데	21184
창문	21185
104	21186
영화제	21187
오노	21188
청나라	21189
승차	21190
##out	21191
전동차	21192
인도네시아	21193
책임지	21194
소통	21195
법무	21196
Fate	21197
no	21198
트레일러	21199
전격	21200
침투	21201
성씨	21202
술사	21203
재직	21204
태클	21205
오지	21206
워크래프트	21207
페미니	21208
손꼽	21209
넘어오	21210
디시	21211
⭧이	21212
당초	21213
매니아	21214
한창	21215
블로	21216
다큐	21217
1975	21218
커스텀	21219
쿠데타	21220
##지르	21221
마트	21222
⭧되	21223
마피아	21224
##lect	21225
시카고	21226
신데렐라	21227
실상	21228
히로시	21229
LIVE	21230
간간히	21231
부재	21232
형편	21233
백업	21234
제재	21235
파밍	21236
123	21237
설령	21238
손오	21239
출산	21240
성실	21241
스탈	21242
##므로	21243
손쉽	21244
깃발	21245
끊임없이	21246
범용	21247
##ET	21248
##에른	21249
하하	21250
##토니	21251
공산주의	21252
장애물	21253
스나이	21254
⭧을수록	21255
경연	21256
마라	21257
강간	21258
김일	21259
스트라이커	21260
##oll	21261
NH	21262
벨기에	21263
우승자	21264
끌어들이	21265
전향	21266
⭧라니	21267
소득	21268
비비	21269
스타리그	21270
시호	21271
미미	21272
검증	21273
조종사	21274
##UM	21275
##모스	21276
##른바	21277
할리	21278
토요	21279
중점	21280
Up	21281
이른바	21282
품질	21283
왕비	21284
OS	21285
여타	21286
카자	21287
1976	21288
라스트	21289
⭧리라	21290
소나	21291
are	21292
근접전	21293
말레이	21294
변이	21295
항해	21296
외곽	21297
III	21298
##ork	21299
딸리	21300
워크	21301
##천군	21302
다스리	21303
스피릿	21304
파도	21305
강릉	21306
성분	21307
최선	21308
원주민	21309
이스트	21310
정석	21311
마산	21312
⫸우	21313
사악	21314
##더라	21315
대접	21316
사사	21317
혈통	21318
섀도우	21319
모니터	21320
##추어	21321
그러므로	21322
발명	21323
따라오	21324
판사	21325
유료	21326
##바야	21327
Do	21328
단기	21329
##ary	21330
이어받	21331
하급	21332
구상	21333
특공	21334
선박	21335
리코	21336
리모	21337
카더라	21338
Oh	21339
제왕	21340
공통점	21341
왜냐하면	21342
검열	21343
광물	21344
하반	21345
##way	21346
티스	21347
전생	21348
왼손	21349
끌어올리	21350
##루션	21351
동전	21352
입문	21353
119	21354
브라이언	21355
키라	21356
유연	21357
트리거	21358
천천	21359
포도	21360
##바지	21361
중상	21362
메일	21363
맞붙	21364
명분	21365
올드	21366
탄핵	21367
##ey	21368
마틴	21369
##ich	21370
명사	21371
공헌	21372
고종	21373
스플	21374
장남	21375
원장	21376
전송	21377
사로잡	21378
##께끼	21379
135	21380
수수께끼	21381
급행	21382
소모량	21383
중심지	21384
단검	21385
109	21386
##슈타인	21387
##모함	21388
초콜릿	21389
중고	21390
박정희	21391
바이에른	21392
초상	21393
우울	21394
코스튬	21395
미지	21396
지선	21397
##저우	21398
중기	21399
##타입	21400
ES	21401
중위	21402
확신	21403
대변	21404
김수	21405
##미터	21406
올바르	21407
Mk	21408
공단	21409
입증	21410
⭧으려는	21411
베테랑	21412
일체	21413
한나라	21414
모스크바	21415
잔인	21416
##으로	21417
##능력	21418
한나라당	21419
관우	21420
##키리	21421
엘리베이터	21422
검토	21423
오페라	21424
시모	21425
수인	21426
Ad	21427
잉여	21428
예약	21429
자네	21430
시온	21431
단발	21432
조국	21433
부패	21434
질주	21435
친절	21436
불태우	21437
손오공	21438
대법	21439
아이디어	21440
lv	21441
땅볼	21442
부유	21443
대동	21444
히스	21445
꿈꾸	21446
부시	21447
##벤처	21448
교리	21449
all	21450
##동자	21451
Day	21452
어드벤처	21453
씌우	21454
시게	21455
##니시	21456
존스	21457
강호	21458
발판	21459
보스턴	21460
비기	21461
성배	21462
아스카	21463
터스	21464
유망주	21465
천황	21466
케빈	21467
로보	21468
콘스탄	21469
AFC	21470
시외버스	21471
곡인	21472
스태프	21473
도쿠	21474
부속	21475
이병	21476
##다운	21477
천천히	21478
nd	21479
체코	21480
버스트	21481
다지	21482
압축	21483
충족	21484
학사	21485
##pt	21486
⭧고는	21487
182	21488
##orn	21489
과자	21490
카카오	21491
흩어지	21492
메리트	21493
이현	21494
니혼	21495
비리	21496
고스	21497
카시	21498
굴욕	21499
##페이	21500
구독	21501
무제	21502
도깨비	21503
##스레	21504
에이지	21505
앤드	21506
그릇	21507
갑작스럽	21508
쓰리	21509
##하루	21510
프로게이	21511
프로게이머	21512
##르타	21513
분할	21514
동정	21515
손님	21516
크레이	21517
오메가	21518
강전	21519
화상	21520
군부	21521
연수	21522
자제	21523
나폴레	21524
루마	21525
토마스	21526
##라미	21527
친분	21528
플랜	21529
어색	21530
후일	21531
대박	21532
라이언	21533
지붕	21534
민중	21535
위엄	21536
싱가	21537
싱가포르	21538
항공모함	21539
디자이너	21540
기하	21541
평등	21542
##가루	21543
121	21544
홋카이도	21545
치카	21546
미궁	21547
레이디	21548
나폴레옹	21549
마운	21550
지력	21551
##레일리아	21552
삼성전자	21553
라그나	21554
1971	21555
일관	21556
노르웨이	21557
머니	21558
Windows	21559
고고	21560
까지	21561
저자	21562
레이블	21563
##의자	21564
메트로	21565
##어드	21566
##네마	21567
왕복	21568
박살내	21569
와이번	21570
달아나	21571
FF	21572
테이블	21573
폭격기	21574
스택	21575
너머	21576
발레	21577
머물	21578
동구	21579
145	21580
사촌	21581
107	21582
렉스	21583
맹세	21584
디펜	21585
이모	21586
망명	21587
##테이션	21588
바이올	21589
극대	21590
="	21591
이경	21592
현금	21593
RA	21594
기울이	21595
열정	21596
찰스	21597
이틀	21598
엑시즈	21599
스케일	21600
광기	21601
합작	21602
1977	21603
점검	21604
강점기	21605
진에	21606
대전차	21607
##ah	21608
김포	21609
엔트리	21610
퍼스트	21611
##EM	21612
터트리	21613
그립	21614
하이라이트	21615
카리스	21616
여포	21617
질량	21618
유탄	21619
쫓겨나	21620
창립	21621
DP	21622
변태	21623
리틀	21624
종결	21625
할로	21626
원숭이	21627
##사스	21628
촉수	21629
후드	21630
⭧으라고	21631
##쿠스	21632
하사	21633
##군가	21634
작위	21635
마타	21636
에버	21637
ML	21638
고집	21639
사체	21640
AA	21641
##very	21642
신동	21643
자율	21644
리퍼	21645
블레이	21646
##uck	21647
화해	21648
마술사	21649
일가	21650
보고서	21651
저기	21652
재배	21653
존중	21654
누군가	21655
조화	21656
츠카	21657
본질	21658
그레이트	21659
독일어	21660
##리스타	21661
표절	21662
무지막	21663
사족	21664
무지막지	21665
##마치	21666
오렌	21667
챔프	21668
총합	21669
외우	21670
원전	21671
ne	21672
크라이	21673
⭧여서	21674
잊히	21675
천장	21676
선교	21677
이대로	21678
IT	21679
공신	21680
평행	21681
엔지니어	21682
보르	21683
기차	21684
br	21685
석유	21686
부스	21687
⭧쥬	21688
쳐들어	21689
중거리	21690
자존	21691
감탄	21692
브라더스	21693
임진	21694
전라북도	21695
##ph	21696
Sw	21697
DPS	21698
호크	21699
자책점	21700
면하	21701
피카	21702
##슬리	21703
BPM	21704
게이머	21705
JTBC	21706
소집	21707
정사	21708
지분	21709
농민	21710
진단	21711
##마르	21712
물자	21713
210	21714
지오	21715
스포일러	21716
메카닉	21717
봉사	21718
노무현	21719
연간	21720
해소	21721
178	21722
인칭	21723
꺼리	21724
##ero	21725
란스	21726
몸통	21727
스가	21728
1969	21729
우루	21730
다이스	21731
떨치	21732
과일	21733
113	21734
니아	21735
스티브	21736
유가	21737
관장	21738
리처드	21739
".	21740
대위	21741
유격수	21742
교과서	21743
파랗	21744
무실점	21745
쿠스	21746
교차로	21747
##ool	21748
로키	21749
사수	21750
타구	21751
서적	21752
동속	21753
검정	21754
노가다	21755
165	21756
##바나	21757
오스트레일리아	21758
광명	21759
파스	21760
브레이커	21761
마유	21762
시뮬	21763
##군	21764
김지	21765
##아들	21766
1968	21767
하치	21768
맨체스터	21769
동대	21770
러스	21771
냉정	21772
1963	21773
데빌	21774
주식회사	21775
임하	21776
철저히	21777
##ical	21778
저렇	21779
총독	21780
토트	21781
불쌍	21782
빙판	21783
명시	21784
출판사	21785
시골	21786
손꼽히	21787
NBA	21788
부원	21789
프랜	21790
힘입	21791
이오	21792
입사	21793
필름	21794
장타	21795
주축	21796
다니엘	21797
##urn	21798
부산광역시	21799
가구	21800
아깝	21801
착륙	21802
##퍼드	21803
백만	21804
##ype	21805
Ph	21806
병역	21807
블리자드	21808
오케	21809
탄압	21810
슬픔	21811
실체	21812
##ARD	21813
부천	21814
Con	21815
##리안	21816
말씀	21817
에드워드	21818
2021	21819
윤리	21820
모순	21821
##구미	21822
##anc	21823
주사위	21824
호의	21825
##센스	21826
스노우	21827
매각	21828
고아	21829
광경	21830
##우라	21831
제니	21832
지장	21833
깨끗	21834
유치원	21835
터보	21836
미오	21837
매드	21838
불능	21839
프론	21840
마인드	21841
카리	21842
스폰서	21843
목걸이	21844
{{{#	21845
⭧은지	21846
어벤	21847
부스트	21848
##은색	21849
김유	21850
155	21851
서열	21852
레이어	21853
완화	21854
겸하	21855
지혜	21856
용산	21857
Cr	21858
마당	21859
파운드	21860
변장	21861
##ung	21862
참사	21863
평론가	21864
엄연히	21865
줄기	21866
유니버스	21867
날아다니	21868
⫸이라도	21869
내버리	21870
물어	21871
멍청	21872
OVA	21873
사우스	21874
김승	21875
수천	21876
울트라맨	21877
답답	21878
아드	21879
명명	21880
나나	21881
문양	21882
하나하나	21883
보편	21884
개명	21885
122	21886
Qu	21887
우타	21888
서류	21889
트윗	21890
납득	21891
상금	21892
미러	21893
아아	21894
초청	21895
워프	21896
##항공	21897
배구	21898
모델링	21899
씨앗	21900
외국어	21901
평상	21902
##테일	21903
미르	21904
Station	21905
181	21906
까마	21907
레인지	21908
프로그래	21909
제리	21910
##업자	21911
압권	21912
TVA	21913
뚜렷	21914
이노	21915
감자	21916
치안	21917
열혈	21918
가설	21919
144	21920
정문	21921
중구	21922
난무	21923
친척	21924
어나	21925
진동	21926
취재	21927
닥치	21928
엘레	21929
집계	21930
중원	21931
엘리자베스	21932
에미	21933
박수	21934
##소년	21935
본능	21936
수위	21937
LO	21938
발키리	21939
향후	21940
도마	21941
##ww	21942
절친	21943
좌익	21944
이케	21945
KOF	21946
재앙	21947
철갑	21948
마케팅	21949
서명	21950
자산	21951
리나	21952
주석	21953
츠바	21954
헷갈리	21955
성명	21956
디오	21957
오죽	21958
녹화	21959
우연	21960
고등학생	21961
##끼리	21962
##시피	21963
도심	21964
##iver	21965
케이크	21966
애칭	21967
무늬	21968
초능력	21969
소생	21970
작정	21971
비우	21972
어나더	21973
at	21974
패자	21975
행진	21976
서방	21977
고사	21978
강민	21979
매트	21980
국토	21981
트래	21982
카지	21983
사연	21984
사직	21985
덤비	21986
시조	21987
페스	21988
##DD	21989
곤충	21990
신하	21991
테스	21992
어이없	21993
152	21994
서울대	21995
일렉	21996
⭧셔	21997
시어	21998
드래곤볼	21999
용암	22000
유아	22001
골프	22002
가이드	22003
love	22004
결의	22005
아리아	22006
로프	22007
타츠	22008
아마추어	22009
경부	22010
실용	22011
액체	22012
학대	22013
실사	22014
##폭탄	22015
##ens	22016
경사	22017
국방부	22018
정성	22019
산소	22020
발발	22021
멋대로	22022
자사	22023
쿠니	22024
표적	22025
##리칸	22026
전지	22027
as	22028
워터	22029
편리	22030
벙커	22031
라마	22032
트릴	22033
좌측	22034
유엔	22035
카레	22036
##ost	22037
스카우트	22038
아스트	22039
민간인	22040
도색	22041
##이동	22042
##어트	22043
TR	22044
자칭	22045
##드러지	22046
카네	22047
다케	22048
침몰	22049
114	22050
엄밀히	22051
워즈	22052
사투	22053
주머니	22054
마음대로	22055
##워즈	22056
##ence	22057
일컫	22058
1930	22059
라이즈	22060
wiki	22061
몰살	22062
거지	22063
마하	22064
박성	22065
만점	22066
인성	22067
미성	22068
롤러	22069
##려워하	22070
IM	22071
변명	22072
##nt	22073
의정부	22074
이대	22075
##이나	22076
직책	22077
때로	22078
##마루	22079
자아	22080
개교	22081
초록색	22082
망토	22083
알아채	22084
##변이	22085
돌연변이	22086
from	22087
초점	22088
항모	22089
##드로	22090
⭧샤	22091
##ise	22092
옥상	22093
⭧습니까	22094
이이	22095
각도	22096
신지	22097
코토	22098
각인	22099
법사	22100
##int	22101
리본	22102
##시스코	22103
이진	22104
기질	22105
포크	22106
모음	22107
텍사스	22108
플라스	22109
이누	22110
1920	22111
개구리	22112
원피스	22113
템플	22114
마모	22115
아자	22116
스컬	22117
루리	22118
아지	22119
179	22120
방학	22121
##이치로	22122
만능	22123
고의	22124
유스	22125
이념	22126
정밀	22127
달려들	22128
!"	22129
발급	22130
일리	22131
##AK	22132
##베트	22133
죄책	22134
통째	22135
등극	22136
학급	22137
풍기	22138
Super	22139
브래	22140
⭧션	22141
이원	22142
포탈	22143
매달리	22144
에디션	22145
적자	22146
MG	22147
Fr	22148
격려	22149
1940	22150
이명박	22151
BJ	22152
can	22153
이어서	22154
##자치	22155
##oy	22156
용자	22157
##지능	22158
인공지능	22159
##하여	22160
동성애	22161
조항	22162
방심	22163
아담	22164
생김	22165
포병	22166
슈퍼맨	22167
미인	22168
혼인	22169
정신력	22170
이빨	22171
www	22172
##ign	22173
발탁	22174
적절히	22175
CM	22176
##떨어지	22177
선동	22178
비키	22179
오렌지	22180
엉망	22181
관직	22182
종영	22183
인벤	22184
극한	22185
연전	22186
협동	22187
##ans	22188
스타트	22189
177	22190
북아	22191
휩쓸	22192
마찰	22193
안동	22194
대역	22195
어설	22196
##타운	22197
남동생	22198
들여	22199
기소	22200
죄책감	22201
소비자	22202
##과이	22203
튜버	22204
추후	22205
네이션	22206
리사	22207
호러	22208
##ug	22209
포착	22210
최순	22211
Dream	22212
헬멧	22213
펌프	22214
풍선	22215
정반대	22216
##끔	22217
부러지	22218
##바이트	22219
⭧다거나	22220
장벽	22221
##바야시	22222
이태	22223
쿠마	22224
아케이드	22225
공속	22226
감당	22227
덮치	22228
124	22229
은폐	22230
이윤	22231
##전차	22232
블럭	22233
억울	22234
1967	22235
금강	22236
##야스	22237
선로	22238
너스	22239
저서	22240
유진	22241
갱신	22242
고가	22243
원로	22244
반경	22245
127	22246
##말	22247
다시금	22248
USB	22249
흘러가	22250
마에	22251
그해	22252
아무튼	22253
오른손	22254
교역	22255
협조	22256
페어리	22257
뛰어들	22258
정점	22259
오다	22260
도약	22261
용이	22262
예의	22263
아사히	22264
부동산	22265
아쿠아	22266
신곡	22267
해운	22268
this	22269
##IR	22270
내기	22271
유카	22272
##나베	22273
페르시아	22274
스틱	22275
1200	22276
중국인	22277
##코트	22278
시오	22279
분홍	22280
지로	22281
##vel	22282
대차	22283
쉴드	22284
타치	22285
450	22286
잔혹	22287
시타	22288
고발	22289
맞히	22290
카운티	22291
아이디	22292
연동	22293
왕족	22294
기본기	22295
사나	22296
녹이	22297
욕설	22298
##철수	22299
독립운동	22300
##질랜드	22301
컴백	22302
ERA	22303
##지사	22304
##ode	22305
민감	22306
뉴질랜드	22307
출동	22308
교도소	22309
초과	22310
필립	22311
크래프트	22312
누스	22313
절벽	22314
선원	22315
바쿠	22316
##uk	22317
##VER	22318
##젤레스	22319
수신	22320
지역구	22321
카마	22322
비단	22323
호드	22324
부채	22325
시크릿	22326
제사	22327
수감	22328
무도	22329
후쿠오카	22330
사방	22331
프레스	22332
베스	22333
침착	22334
사무라이	22335
서리	22336
Fl	22337
발각	22338
방침	22339
스토어	22340
덩어리	22341
Pl	22342
후유	22343
회관	22344
청춘	22345
우마	22346
대세	22347
팔라	22348
뺏기	22349
##말로	22350
로렌	22351
물려받	22352
카테	22353
보강	22354
Ver	22355
스로	22356
대피	22357
##역사	22358
제의	22359
CE	22360
##나기	22361
##생활	22362
연이	22363
이소	22364
그러면	22365
피오	22366
구형	22367
급격히	22368
키미	22369
아랫	22370
⭧게끔	22371
EC	22372
종전	22373
철도역	22374
진에어	22375
디스플레이	22376
⫸게	22377
EXP	22378
연소	22379
카리스마	22380
재즈	22381
##공사	22382
style	22383
내외	22384
애완	22385
함장	22386
구로	22387
측근	22388
얽히	22389
##민주당	22390
발전소	22391
##ᆸ시	22392
방사능	22393
도르	22394
기스	22395
##헤이	22396
스쿼	22397
코스프레	22398
애인	22399
실존	22400
선포	22401
아울	22402
레나	22403
##다드	22404
유재석	22405
히카	22406
##ier	22407
게르	22408
신한	22409
궁합	22410
마야	22411
퇴치	22412
반성	22413
판도	22414
가마	22415
강대	22416
가위	22417
현자	22418
카쿠	22419
리바	22420
격렬	22421
하이드	22422
기법	22423
분자	22424
워리어	22425
가오	22426
Sch	22427
예방	22428
잔류	22429
나인	22430
##페이스	22431
김구	22432
Girl	22433
당국	22434
Season	22435
두드러지	22436
사물	22437
인문	22438
⭧군요	22439
미아	22440
1962	22441
##ash	22442
징계	22443
IP	22444
오퍼	22445
러쉬	22446
박자	22447
문신	22448
##속기	22449
왕가	22450
⭧드라	22451
ar	22452
자이언트	22453
근로	22454
La	22455
모빌	22456
이놈	22457
코노	22458
DM	22459
모욕	22460
전담	22461
약혼	22462
화기	22463
강타	22464
NO	22465
반역	22466
162	22467
이카	22468
흡혈귀	22469
유동	22470
이단	22471
정조	22472
흑마	22473
tr	22474
사치	22475
중견	22476
118	22477
종로	22478
흥분	22479
친애	22480
화석	22481
WC	22482
시종	22483
점심	22484
쿠바	22485
퀴즈	22486
불러오	22487
고립	22488
제주도	22489
벗기	22490
패트	22491
노아	22492
기동력	22493
##믹스	22494
그루	22495
분배	22496
##reat	22497
1966	22498
##IX	22499
아처	22500
유우키	22501
잠기	22502
브론	22503
돌려주	22504
이용자	22505
피자	22506
명나라	22507
위쪽	22508
부가	22509
헬리	22510
카피	22511
레이싱	22512
로스트	22513
단백	22514
오니	22515
황당	22516
##ib	22517
타이어	22518
박진	22519
경성	22520
계곡	22521
왕후	22522
벌써	22523
이행	22524
##마리	22525
314	22526
##돌프	22527
에도	22528
자존심	22529
학술	22530
생김새	22531
##치아	22532
제노	22533
스나이퍼	22534
한하	22535
탈환	22536
태생	22537
##usic	22538
월간	22539
저글	22540
Max	22541
##사랑	22542
##보기	22543
중소	22544
피지컬	22545
##크리	22546
##탐정	22547
관문	22548
우두	22549
실적	22550
망설	22551
모나	22552
한양	22553
750	22554
##방울	22555
1964	22556
##틀리	22557
⭧머	22558
건지	22559
금요일	22560
노랗	22561
대검	22562
고인	22563
입시	22564
그간	22565
##ᆸ시고	22566
안무	22567
적시타	22568
불길	22569
##리얼	22570
Vol	22571
TS	22572
뱅가드	22573
##수리	22574
숙소	22575
라미	22576
유고	22577
DNA	22578
그쪽	22579
여태	22580
정전	22581
토트넘	22582
내셔널	22583
얼티	22584
급속	22585
스파이더맨	22586
능가	22587
Ed	22588
아오이	22589
천상	22590
##}}	22591
--	22592
궁전	22593
시범	22594
중재	22595
요격	22596
호리	22597
##ose	22598
ld	22599
할로윈	22600
통솔	22601
레아	22602
남동	22603
모종	22604
성사	22605
코파	22606
스피어	22607
대학생	22608
##서스	22609
중도	22610
나이프	22611
사슬	22612
탈취	22613
진술	22614
갈라지	22615
스타즈	22616
⫸이야	22617
AV	22618
존슨	22619
부끄럽	22620
에메	22621
직위	22622
섬기	22623
한꺼	22624
한꺼번에	22625
까마귀	22626
소소	22627
입원	22628
두려워하	22629
##시대	22630
괴인	22631
과시	22632
치이	22633
나이츠	22634
황태	22635
amp	22636
욕망	22637
계절	22638
불참	22639
청하	22640
Col	22641
거세	22642
혼합	22643
##부키	22644
야당	22645
##te	22646
so	22647
생태	22648
기껏	22649
아비	22650
학년도	22651
항공사	22652
GM	22653
비자	22654
저글링	22655
점멸	22656
HE	22657
건너가	22658
질환	22659
##사르	22660
미정	22661
⫸든지	22662
극심	22663
다녀	22664
오만	22665
##ail	22666
##msys	22667
페르소	22668
##ition	22669
ldmsys	22670
원판	22671
간판	22672
머스	22673
그란	22674
스탈린	22675
천국	22676
충청북도	22677
스탭	22678
일지	22679
히드라	22680
이별	22681
우지	22682
도대	22683
테르	22684
필사	22685
얼리	22686
과금	22687
시시	22688
마기	22689
rd	22690
Night	22691
각국	22692
##닐라	22693
##티노	22694
욕심	22695
##구니	22696
BC	22697
차장	22698
마르코	22699
테리	22700
상냥	22701
토우	22702
강인	22703
나들	22704
not	22705
조립	22706
레버	22707
샘플	22708
시안	22709
회로	22710
##키스	22711
##당초	22712
앨런	22713
미녀	22714
헤라	22715
나들목	22716
리버스	22717
##워프	22718
달려오	22719
##IL	22720
이사장	22721
지루	22722
김주	22723
단자	22724
스매	22725
승패	22726
지지율	22727
요코하마	22728
암컷	22729
인텔	22730
공국	22731
##당기	22732
##히토	22733
##러브	22734
##ild	22735
##무지	22736
하여금	22737
168	22738
김치	22739
일일	22740
김광	22741
페르소나	22742
오토바이	22743
Let	22744
수소	22745
알렉산드	22746
지크	22747
물약	22748
도미	22749
스윙	22750
마쓰	22751
⭧ᆯ래	22752
병행	22753
희생자	22754
디아블로	22755
오사	22756
키요	22757
학회	22758
고이	22759
하지	22760
피난	22761
단백질	22762
상부	22763
난민	22764
스크롤	22765
##ody	22766
토라	22767
돌려	22768
바텀	22769
만렙	22770
테니스	22771
등재	22772
목욕	22773
사탕	22774
빙결	22775
Black	22776
들르	22777
어원	22778
펑크	22779
159	22780
##바리	22781
일환	22782
어서	22783
코끼리	22784
밀리언	22785
신작	22786
무녀	22787
이승만	22788
##세지	22789
##파이	22790
도배	22791
퍼펙트	22792
##와라	22793
BD	22794
칼라	22795
평택	22796
##클린	22797
무신	22798
춤추	22799
말레이시아	22800
라인하르트	22801
부처	22802
아마존	22803
미노	22804
일어	22805
⭧ㅔ	22806
내밀	22807
리자	22808
인쇄	22809
여주인	22810
보로	22811
해변	22812
##진호	22813
해역	22814
아리스	22815
오즈	22816
파고	22817
아인	22818
신생	22819
화신	22820
금발	22821
부친	22822
환생	22823
둥지	22824
마도카	22825
가해	22826
직행	22827
1948	22828
mar	22829
##ough	22830
응답	22831
해전	22832
발사기	22833
아메리칸	22834
국기	22835
아무렇	22836
진흥	22837
수라	22838
엉덩이	22839
AF	22840
MM	22841
챔스	22842
절단	22843
대니	22844
1944	22845
미소녀	22846
세례	22847
도대체	22848
모의	22849
무능	22850
1965	22851
성벽	22852
OG	22853
부제	22854
히사	22855
##33	22856
삼키	22857
##모습	22858
명장	22859
두껍	22860
맛보	22861
쿠르	22862
유머	22863
중공	22864
프롤	22865
일조	22866
##앤젤레스	22867
로스앤젤레스	22868
##레아	22869
퓨전	22870
스텔스	22871
섬멸	22872
노부나가	22873
석사	22874
충남	22875
방언	22876
프랑크	22877
간지	22878
회계	22879
불상	22880
스쿼드	22881
노릇	22882
##멘터리	22883
아카네	22884
아포	22885
주저	22886
RE	22887
섭취	22888
아슬	22889
울음	22890
와이번스	22891
수중	22892
식스	22893
수아	22894
약체	22895
필라	22896
4000	22897
눈앞	22898
Op	22899
##gr	22900
데몬	22901
일명	22902
대국	22903
안토니	22904
스네	22905
카일	22906
스케이	22907
좌파	22908
전임	22909
빅토리아	22910
사임	22911
동상	22912
집필	22913
고래	22914
객관	22915
출석	22916
##aster	22917
접수	22918
##스크림	22919
⭧ㅔ요	22920
빌보드	22921
공교	22922
외야수	22923
##app	22924
마을버스	22925
그리스도	22926
메디	22927
##orts	22928
##타리	22929
평상시	22930
⭧까	22931
목포	22932
확립	22933
벨라	22934
비평	22935
인피니티	22936
선회	22937
사이토	22938
대안	22939
##성군	22940
그리핀	22941
대승	22942
연세대	22943
두루	22944
유메	22945
##uc	22946
보살	22947
쿄코	22948
베이비	22949
사천	22950
교향	22951
드워프	22952
애용	22953
혼혈	22954
1946	22955
걸어가	22956
##고속도로	22957
십자군	22958
아수	22959
신관	22960
##은이	22961
워드	22962
아니하	22963
공동체	22964
성지	22965
이계	22966
##시티	22967
주공	22968
PK	22969
에코	22970
다큐멘터리	22971
주입	22972
##렉터	22973
루미	22974
장본	22975
해고	22976
꺼지	22977
알렉산더	22978
무자	22979
서울시	22980
최상급	22981
보우	22982
컨디션	22983
그랑프리	22984
동북	22985
위시	22986
휴게	22987
스카웃	22988
김대중	22989
이무	22990
##CE	22991
주파	22992
제발	22993
스기	22994
##ject	22995
en	22996
편의점	22997
껍질	22998
스타워즈	22999
평판	23000
교대	23001
##OO	23002
EXT	23003
⭧몬	23004
탄소	23005
##티니	23006
침해	23007
..?	23008
블라디	23009
득표율	23010
가령	23011
##ari	23012
단련	23013
폭로	23014
math	23015
믿음	23016
카게	23017
비로	23018
자력	23019
컴뱃	23020
전도	23021
방안	23022
아유	23023
면제	23024
수컷	23025
##그라	23026
사지	23027
퍼시	23028
##긋나	23029
민폐	23030
집사	23031
le	23032
휴대폰	23033
AL	23034
흑막	23035
테이프	23036
CR	23037
독백	23038
정답	23039
아쉬움	23040
크롬	23041
라우	23042
라비	23043
솔저	23044
히로시마	23045
정서	23046
숙청	23047
섬광	23048
아르바이트	23049
EZ	23050
두려움	23051
리프트	23052
대면	23053
막부	23054
소마	23055
스모	23056
뻔하	23057
성대	23058
##프란	23059
리부	23060
##각형	23061
와타나베	23062
구호	23063
달콤	23064
원한	23065
라가	23066
큐어	23067
경제학	23068
항성	23069
원자력	23070
감성	23071
##iel	23072
##트론	23073
떠돌	23074
우미	23075
둥글	23076
프랭크	23077
단서	23078
강동	23079
냉장	23080
지각	23081
남학생	23082
공명	23083
##퍼니	23084
관광객	23085
##디스	23086
홈경기	23087
151	23088
찬양	23089
보복	23090
유즈	23091
격퇴	23092
138	23093
타우	23094
Gu	23095
하와	23096
신념	23097
신조	23098
⭧으려면	23099
SA	23100
##미르	23101
⭧던지라	23102
가해자	23103
배리	23104
장본인	23105
티저	23106
광복	23107
남양	23108
개업	23109
사르	23110
케리	23111
320	23112
하도	23113
172	23114
⫸치	23115
GSL	23116
눈동자	23117
은메달	23118
로비	23119
적이	23120
##애나	23121
점하	23122
타카하시	23123
샤를	23124
권하	23125
정우	23126
휴먼	23127
벡터	23128
수성	23129
##오피스	23130
상시	23131
무지개	23132
남한	23133
가이아	23134
##TA	23135
조수	23136
김병	23137
천주교	23138
ATK	23139
살아오	23140
##ats	23141
순천	23142
##도전	23143
##ye	23144
지면	23145
의의	23146
강아지	23147
어벤져	23148
단역	23149
보직	23150
우기	23151
EU	23152
##eah	23153
##바람	23154
아폴	23155
불화	23156
동아시아	23157
개막전	23158
자루	23159
주한	23160
315	23161
시네마	23162
1961	23163
##총장	23164
사와	23165
컬렉션	23166
##부인	23167
풍경	23168
GD	23169
서바이벌	23170
일각	23171
천지	23172
걸음	23173
배후	23174
##은	23175
##중간	23176
얼티밋	23177
투고	23178
##운수	23179
고난	23180
트이	23181
TOP	23182
테레	23183
Mag	23184
오공	23185
158	23186
⭧케	23187
균열	23188
동사	23189
어기	23190
대교	23191
찔리	23192
⭧데	23193
바닷	23194
내정	23195
그리하여	23196
라이드	23197
CL	23198
표기법	23199
상원	23200
재질	23201
도스	23202
탁월	23203
다녀오	23204
깃털	23205
흑역사	23206
카사	23207
손잡이	23208
가왕	23209
악행	23210
캡슐	23211
무한도전	23212
통보	23213
스칼	23214
로크	23215
마미	23216
스톡	23217
##이센	23218
시련	23219
추모	23220
로맨스	23221
AB	23222
민병	23223
NT	23224
물리학	23225
ver	23226
리믹스	23227
수확	23228
흉내	23229
스파크	23230
동메달	23231
카이저	23232
내면	23233
숭배	23234
일산	23235
루마니아	23236
UC	23237
매그	23238
여수	23239
##oh	23240
⫸치고	23241
##eth	23242
이순신	23243
충고	23244
표식	23245
##ron	23246
박스오피스	23247
소꿉	23248
이세	23249
쿠사	23250
슬라이드	23251
동이	23252
제대	23253
독보	23254
##성이	23255
결과물	23256
병살	23257
금고	23258
##ings	23259
아이즈	23260
주차장	23261
마저	23262
이호	23263
김일성	23264
유마	23265
구제	23266
##내리	23267
청사	23268
##메리카	23269
사범	23270
신상	23271
제인	23272
어판	23273
쿠리	23274
⭧ᆯ라	23275
그레이드	23276
건립	23277
레이지	23278
176	23279
공로	23280
##ᅳᆺ	23281
컴퍼니	23282
도요	23283
방정	23284
크라운	23285
다저스	23286
##맥스	23287
삽질	23288
will	23289
간파	23290
운반	23291
지미	23292
Is	23293
ME	23294
재수	23295
예고편	23296
보가	23297
직무	23298
##느님	23299
병과	23300
계략	23301
저항력	23302
테란	23303
호응	23304
발톱	23305
타리	23306
##inal	23307
궁수	23308
군데	23309
심정	23310
##==	23311
126	23312
김윤	23313
마수	23314
차림	23315
신임	23316
1949	23317
오로치	23318
정의당	23319
주의자	23320
Am	23321
과격	23322
대명	23323
완벽히	23324
하느님	23325
자작	23326
기온	23327
폴아웃	23328
승려	23329
상어	23330
친일	23331
우두머리	23332
이점	23333
10000	23334
리볼	23335
어그	23336
보루	23337
몸매	23338
Don	23339
테오	23340
문법	23341
감금	23342
서원	23343
타스	23344
갈기	23345
##ult	23346
겨루	23347
인플	23348
크로우	23349
라이트닝	23350
무선	23351
바이킹	23352
응급	23353
코로나	23354
154	23355
사망자	23356
like	23357
레시피	23358
LE	23359
패왕	23360
세르비아	23361
총사	23362
쫓기	23363
흉악	23364
WH	23365
방울	23366
스치	23367
맷집	23368
{{{-	23369
KB	23370
뒤쪽	23371
풀려나	23372
Time	23373
132	23374
##총리	23375
##MAN	23376
주황	23377
전법	23378
총선거	23379
법안	23380
유해	23381
드루이드	23382
무비	23383
자카	23384
도사	23385
웨폰	23386
거꾸	23387
김성근	23388
표하	23389
습하	23390
##클리	23391
레슬링	23392
센트럴	23393
아테나	23394
new	23395
##덕션	23396
성폭	23397
강서	23398
성직자	23399
멸종	23400
##13	23401
응시	23402
##저래	23403
##빨리	23404
지배자	23405
빗나가	23406
이즈미	23407
강습	23408
천체	23409
니트	23410
저승	23411
이래저래	23412
반기	23413
218	23414
완성도	23415
코프	23416
이용객	23417
테크닉	23418
이리저리	23419
르노	23420
Mi	23421
피드	23422
##슬링	23423
장신구	23424
##GA	23425
떨구	23426
로열	23427
코디	23428
국민당	23429
난리	23430
##ov	23431
취지	23432
##oul	23433
스콜	23434
급식	23435
충격파	23436
트론	23437
##18	23438
상의	23439
라이징	23440
손목	23441
선봉	23442
리츠	23443
##조합	23444
엠블	23445
이영호	23446
안젤	23447
탐구	23448
유신	23449
쥬얼	23450
키노	23451
당나라	23452
노비	23453
짝사랑	23454
더미	23455
지터	23456
##ob	23457
제너	23458
##라이나	23459
핑계	23460
보트	23461
태조	23462
전염	23463
무슬	23464
리우스	23465
야망	23466
##나르	23467
미남	23468
과언	23469
블랙홀	23470
유능	23471
후반전	23472
어드밴	23473
고조	23474
##ould	23475
이쿠	23476
통틀어	23477
⭧으리	23478
156	23479
##보우	23480
마가	23481
..!	23482
iOS	23483
무궁	23484
Ser	23485
##친구	23486
one	23487
마마	23488
164	23489
##alk	23490
버거	23491
진하	23492
리리	23493
##처럼	23494
마지	23495
##tern	23496
재벌	23497
##레븐	23498
##yn	23499
카제	23500
숙련도	23501
139	23502
나란히	23503
배율	23504
필두	23505
##던지	23506
렀다	23507
##활약	23508
놔두	23509
⭧ᆫ가요	23510
유카리	23511
⫸이나마	23512
##15	23513
능하	23514
몰려오	23515
모에	23516
시간대	23517
미세	23518
이인	23519
##up	23520
구청	23521
153	23522
매기	23523
조던	23524
네크로	23525
하츠네	23526
하우	23527
교정	23528
저격수	23529
Gaming	23530
먼지	23531
플리	23532
하나님	23533
##레이크	23534
##reak	23535
반장	23536
콜롬	23537
감기	23538
공격기	23539
거꾸로	23540
커플링	23541
무슬림	23542
양심	23543
합법	23544
초등학생	23545
김두	23546
나열	23547
이광	23548
##고사	23549
##der	23550
##able	23551
GK	23552
오키나	23553
하드웨어	23554
접전	23555
##제스	23556
⭧ᆫ듯	23557
유라	23558
리터	23559
엉뚱	23560
전두	23561
청장	23562
성숙	23563
누이	23564
후면	23565
지성	23566
상공	23567
세미	23568
##라이언스	23569
##바스	23570
최하	23571
148	23572
어제	23573
디비전	23574
가히	23575
Car	23576
맞먹	23577
##ions	23578
비즈	23579
허브	23580
신주	23581
인천광역시	23582
연달	23583
##사고	23584
진도	23585
탄막	23586
범하	23587
실업	23588
##엘라	23589
스케줄	23590
표창	23591
동등	23592
얼라이언스	23593
Your	23594
타키	23595
셋째	23596
오바	23597
단의	23598
벌금	23599
주유	23600
##문화	23601
⫸롤	23602
167	23603
##널드	23604
볼드	23605
⭧ᆫ단	23606
고우	23607
김선	23608
장시	23609
냉장고	23610
스마일	23611
쟁이	23612
대등	23613
호스	23614
맞대	23615
203	23616
동지	23617
북서	23618
봉하	23619
달인	23620
배열	23621
지표	23622
몰아넣	23623
애드	23624
쫓아내	23625
로제	23626
황혼	23627
프로덕션	23628
어긋나	23629
애국	23630
데미	23631
SSR	23632
창작물	23633
##백과	23634
##주의자	23635
##PA	23636
무색	23637
사료	23638
1958	23639
브라우	23640
가나	23641
1941	23642
음향	23643
174	23644
오역	23645
주술사	23646
야마모토	23647
승급	23648
아수라	23649
영화배우	23650
##ull	23651
휴스턴	23652
도모	23653
공모	23654
무죄	23655
갈구	23656
꾸리	23657
사야카	23658
##프란시스코	23659
샌프란시스코	23660
전례	23661
라틴어	23662
종말	23663
여주인공	23664
se	23665
유타	23666
타당	23667
##재기	23668
노하	23669
동년	23670
시끄럽	23671
이니	23672
Min	23673
설탕	23674
법학	23675
##전사	23676
깨우	23677
버블	23678
번식	23679
앞세우	23680
무안	23681
RO	23682
##셉트	23683
시뮬레이션	23684
142	23685
자키	23686
##퀘어	23687
통행	23688
지지자	23689
바이크	23690
처녀	23691
##상가	23692
LTE	23693
광범	23694
레이븐	23695
##차리	23696
굳히	23697
영등	23698
문헌	23699
사내	23700
헤드샷	23701
빈약	23702
인명	23703
##니코	23704
염색	23705
스페인어	23706
쳐들어오	23707
##타르	23708
카인	23709
주가	23710
순간이동	23711
##무네	23712
163	23713
혼동	23714
런처	23715
원화	23716
과감	23717
박탈	23718
파이프	23719
가라앉	23720
한층	23721
##기업	23722
배상	23723
수령	23724
차일드	23725
맹활약	23726
토비	23727
[...]
