[PAD]
[UNK]
[BOS]
[EOS]
[CLS]
[SEP]
[MASK]
▁이
▁1
으로
에서
▁있
▁2
▁대
▁그
▁사
이다
▁지
었다
▁수
▁시
▁가
▁20
▁기
▁전
▁아
▁하
▁19
▁있다
▁다
▁제
했다
하였
▁일
▁한
▁정
▁중
▁주
▁자
하는
▁것
▁경
▁인
▁공
▁유
되었다
▁위
▁보
하고
▁부
▁등
하였다
▁조
▁3
▁미
하여
▁선
▁동
▁나
▁마
▁모
▁연
▁개
▁영
▁의
▁오
으며
▁소
▁발
▁구
▁201
▁고
에는
한다
▁스
▁세
▁국
▁비
▁도
▁상
▁서
▁후
▁여
▁관
▁200
▁성
▁때
▁해
▁프
▁신
▁대한
▁역
▁4
▁있는
부터
▁방
▁"
▁바
▁5
▁생
지만
▁만
▁또
▁않
되어
▁무
▁장
▁통
▁교
▁남
▁내
까지
▁현
▁문
에게
▁같
▁출
▁결
학교
▁포
▁우
▁거
적인
국의
▁진
적으로
▁원
▁최
▁불
된다
이라
▁어
▁작
▁노
▁알
▁강
▁당
▁반
▁파
▁6
▁분
▁계
▁리
▁10
▁따
▁배
들이
▁받
▁말
▁없
▁사용
면서
▁실
년에
▁두
되었
들은
▁에
▁단
▁명
▁예
▁이후
▁'
에서는
▁7
▁함
▁안
하기
▁재
▁8
▁차
▁로
▁특
▁설
▁일본
▁한다
하게
▁데
▁요
▁초
▁종
았다
▁다음
▁카
였다
▁군
▁라
▁독
▁대한민
00
▁활
으나
▁9
▁추
리아
▁199
▁감
▁그는
▁김
▁및
▁많
▁태
스트
▁타
▁더
▁되었다
▁음
▁입
▁건
▁행
▁운
▁매
▁참
▁형
는데
▁지역
▁다른
▁평
주의
▁과
▁같은
▁산
▁양
▁코
▁그리
▁18
▁올
▁미국
▁위해
이며
▁프로
▁크
레이
▁피
▁12
or
▁적
들의
▁열
▁베
▁왕
▁본
▁호
▁목
▁시작
▁승
▁북
들을
들어
▁번
▁때문
▁화
▁총
라는
▁회
기도
되는
▁외
▁임
▁따라
▁또한
▁변
▁그러
▁각
하며
▁함께
▁사람
▁S
()
▁표
▁속
▁처
▁11
▁물
▁달
시아
▁자신
la
라고
▁선수
▁민
▁약
▁경우
▁학
▁직
이나
▁게
▁새
▁드
▁영화
▁간
▁현재
▁집
▁세계
▁메
하지
▁한국
▁그의
▁이름
▁저
▁기록
▁A
기에
▁f
▁198
▁사이
▁위치
하다
▁가장
▁당시
▁국가
▁항
▁하나
▁존
기를
▁체
되고
▁레
▁점
에도
스의
▁때문에
▁확
▁박
▁그러나
▁것을
▁F
▁토
▁M
▁C
리는
스는
▁브
▁뒤
▁청
▁했다
▁것으로
▁축
▁조선
▁복
▁활동
mu
▁for
▁투
▁있으며
▁필
▁있었다
▁천
▁광
▁의해
mula
이라고
일에
▁것이
지는
▁formula
▁된다
▁야
▁디
▁삼
▁못
▁역사
▁그리고
▁법
▁합
▁또는
▁통해
▁증
▁철
졌다
▁프랑
▁T
▁판
▁치
▁창
▁금
▁근
▁대한민국
▁언
▁버
했고
▁15
▁편
▁살
등학교
▁첫
▁많은
리를
▁플
▁트
▁심
▁것이다
▁197
▁경기
랜드
▁돌
▁애
▁충
▁페
▁들어
▁16
▁아니
▁황
이라는
하면서
▁쓰
▁높
▁네
하였고
▁은
▁하는
▁다음과
▁할
▁가지
▁완
▁클
▁대해
는다
▁다시
▁서울
▁대한민국의
▁루
▁있었
이었다
▁백
▁뜻
▁포함
▁여러
▁사회
▁17
▁시즌
대로
▁병
▁196
이는
사를
▁연구
상을
▁용
er
▁순
로서
▁되
▁패
▁팀
▁독일
▁K
20
▁죽
개의
▁큰
이고
▁D
▁B
▁권
in
되었고
▁모두
▁히
라이
보다
장을
▁하였다
성을
▁I
위를
▁모든
▁채
▁중국
회의
▁규
지를
▁취
▁아이
▁194
▁친
▁배우
니아
▁전쟁
▁처음
▁알려
▁일부
▁정부
▁축구
▁감독
▁식
▁논
▁테
대의
▁제작
▁도시
자가
▁이루
이었
▁구성
▁정치
▁대표
▁위한
▁등이
▁뉴
▁-
▁이용
리에
▁14
년부터
도의
lt
▁허
▁손
▁등의
했으며
▁작품
▁존재
▁월
▁영국
▁끝
▁자신의
▁리그
도로
▁문제
▁있어
력을
년에는
gt
▁이상
▁이어
▁&
났다
부분
▁P
▁러
▁길
▁일반
▁환
▁프랑스
거나
이자
▁인구
▁캐
▁즉
▁것은
on
km
리스
▁동안
▁개발
▁13
나라
▁온
▁L
▁국제
시에
기의
▁나타
▁앞
▁195
▁가능
▁준
▁맡
▁이러
▁사건
▁게임
▁걸
년대
▁같다
▁이러한
▁미국의
▁중심
통령
▁새로
▁접
로는
▁맞
▁발견
▁협
▁주장
기는
▁농
▁밀
▁곳
▁향
군의
▁갖
▁이는
▁하지만
▁발표
▁검
들과
▁줄
▁방송
위원
▁별
도록
자의
▁태어
▁전투
▁영향
▁문화
▁등을
다는
리카
리가
▁볼
▁U
림픽
되었으며
▁대회
000
하면
▁G
▁음악
시키
서는
▁의미
▁사망
▁N
로부터
▁잘
▁2010
기가
▁키
an
▁폭
▁되어
▁대부분
▁귀
▁지방
이트
▁육
▁번째
리그
다고
월에
▁결과
▁대통령
스를
▁이를
▁섬
▁관계
▁담
▁밝
정을
에서도
▁홍
▁공격
▁대학
▁막
인의
▁관련
란드
▁하고
명의
-1
▁R
▁우승
년까지
자는
사가
▁효
▁참여
했던
▁극
▁193
▁진행
▁경제
하였으며
성이
▁발생
▁석
▁프로그
▁30
와의
세기
자를
▁H
들에게
▁얻
▁최초
어진
▁구조
도를
▁앨
▁곡
▁와
▁날
▁면
리의
디오
▁특히
▁E
▁블
▁선거
▁이에
▁유럽
이스
▁설립
▁헤
▁교육
▁발매
쪽으로
▁위치한
▁절
▁올림픽
▁갈
▁설치
▁책
▁암
▁다양
▁일어
▁봉
자로
▁[
르는
대를
▁글
스터
스가
▁독립
▁2008
▁이전
▁형태
▁된
▁러시아
드는
▁그녀
과의
▁새로운
▁폐
▁엔
렸다
▁시간
▁생각
▁참가
▁측
▁자유
▁만들어
▁사실
▁같이
요한
▁인해
▁질
▁커
▁기술
▁부분
▁좋
▁지원
▁소속
도는
▁등장
▁받았다
▁2011
▁범
가지
번째
▁니
▁이탈
▁이것
en
▁2012
사의
▁슈
▁중앙
▁로마
화국
▁받아
▁머
▁침
식을
▁프로그램
므로
▁W
▁행정
▁주로
▁2009
▁출신
▁누
▁2007
▁골
▁결정
▁탄
▁송
▁있고
▁수도
▁탈
▁음반
▁2014
▁계속
라마
리즈
▁잡
▁운영
인이
부의
프트
▁타이
▁성공
▁상태
▁지정
▁데뷔
▁벌
▁기준
전을
사는
▁,
▁난
르크
ar
▁.
이션
학자
대학교
비아
에서의
▁매우
▁혼
▁케
he
▁있던
▁주요
명을
▁생산
▁2013
다가
▁않았다
▁넘
▁악
기로
▁이탈리아
으로서
▁쿠
▁아버
▁터
▁급
▁운동
▁가지고
▁몇
▁고려
▁0
▁25
▁라이
대에
▁생애
▁일본의
▁아니라
이지
장이
▁돌아
▁찾
▁싱
도가
스타
▁윤
▁191
▁차지
▁2018
▁조직
▁만들
▁아들
▁2015
▁시절
▁들
하기도
▁여성
처럼
우스
,000
▁해당
▁2016
▁출연
▁업
왔다
군은
▁결국
▁최고
▁100
▁계획
했지만
해서
▁없는
es
▁없다
▁폴
▁내용
되지
FA
▁스타
▁한편
▁팔
▁데이
▁따르
▁방법
권을
대표
▁전체
명이
▁2006
하자
원을
화를
▁떨
수를
▁이유
원의
간의
수의
사로
운데
▁아래
▁않고
▁개요
장은
스템
인민
스크
냈다
▁192
▁앨범
▁국민
▁많이
▁2017
▁좌
▁21
▁가리
일부터
▁제공
▁콘
▁역할
▁월드
▁떠
▁둘
지의
▁유명
▁수상
나는
▁O
▁스페
at
스와
▁다양한
남도
▁후보
▁힘
▁대학교
▁빠
선의
▁평가
▁칼
▁남아
자인
▁마이
▁묘
▁엘
으로써
▁인터
초등학교
am
▁가운데
장으로
음을
▁몸
▁J
어로
부에
_1
▁헌
▁정의
▁출전
▁하여
▁정보
▁잠
대학
▁과정
지가
진다
▁거의
▁컴
▁빌
▁드라마
▁표현
민주
▁모습
시의
al
▁바이
▁이루어
스로
운동
▁생활
▁마지
지에
가는
였던
전에
성의
했으나
▁열린
▁않는다
▁특징
하던
수가
▁각각
▁연결
▁공식
▁얼
▁t
▁격
▁시리즈
점을
인다
됐다
원이
▁2019
위원회
원은
▁레이
▁24
하려
머니
▁능
▁졸
▁이미
▁진출
▁영향을
사에
▁따르면
▁필요
으로부터
리고
▁시스템
▁높은
▁기능
▁따라서
니다
제로
▁마지막
어를
▁이름을
▁몰
이가
▁2005
이드
ic
▁알려져
▁붙
▁공개
▁임명
▁녹
력이
텔레
어는
▁작은
▁23
▁직접
▁이야
21
▁보고
으로는
제를
▁인정
▁쇼
▁자연
▁인도
문화
▁대전
상의
▁센
▁민주
시켰
었고
▁지구
치는
▁인물
▁개최
▁시대
▁경상
▁2000
▁상황
BS
인은
▁항공
▁뛰
▁22
▁추가
▁풍
▁퍼
▁브라
대한
해야
▁프리
군이
▁대신
▁오스트
▁분류
▁2004
지고
▁울
▁먹
▁유지
▁그리스
▁눈
▁그룹
▁않은
▁밴
비전
▁활약
▁아르
▁보여
▁발전
르트
▁티
수는
▁응
▁핵
위에
▁제국
들에
▁FC
인을
▁홈
is
선을
▁그가
▁되는
▁기타
▁관한
it
갔다
▁초기
▁그것
▁목록
▁압
수로
트로
▁학교
▁노래
인민공
▁결혼
▁여자
▁모델
▁졸업
부를
▁있는데
▁후에
레스
▁건물
▁이론
▁사업
▁정도
▁변경
▁서로
부는
▁비롯
세의
▁크게
▁방식
▁기업
re
10
북도
▁중요한
전에서
▁않았
있다
▁말한다
▁철도
▁부산
대는
▁플레이
▁역시
지로
ou
▁희
▁기원
▁형성
▁28
▁건설
▁나라
▁V
▁워
계를
▁26
▁공동
▁비판
▁2020
▁190
▁낮
▁현대
프리카
▁관리
일까지
문을
치를
▁뿐
킨다
▁태어났다
리오
전히
대가
]]
원으로
▁군사
주는
▁요구
▁27
▁일으
▁중화
제가
운드
▁[[
▁거쳐
▁텔레
▁연합
▁지금
▁뜻은
장의
▁가진
▁하였
제의
▁색
광역
▁야구
▁노동
회를
▁시작했다
스탄
▁반대
임을
▁딸
군을
▁지도
▁콜
▁느
나다
▁기본
되면서
le
▁클럽
▁실시
▁놓
상이
▁싱글
성은
▁원래
▁개인
▁사이에
▁경기도
▁만든
▁않는
▁배우이다
▁전통
특별
▁동시에
▁푸
▁어떤
▁이르
▁혹
▁긴
키는
▁2002
▁웨
▁맥
과는
▁학생
▁계약
이의
▁잉
▁휴
▁사랑
▁국가대표
▁지하
트는
▁민족
른다
▁자동
▁운행
장에
▁~
▁상대
▁역할을
▁종교
▁판매
상으로
거리
이었던
▁빈
자와
▁아닌
▁벨
▁지역의
▁서비
▁망
▁샤
▁승강
하였으나
▁2003
▁인간
단의
▁기간
▁소련
▁겸
정한
▁싸
관은
▁있다고
▁기반
▁명칭
▁위하여
체의
드의
하는데
▁다이
."
▁이동
명은
학적
되며
▁전국
▁혁
▁정책
▁그래
▁최초의
▁견
드로
▁도쿄
서를
▁처음으로
이를
▁수행
군에
▁애니
소를
19
▁퇴
▁교황
▁도입
있는
명이다
▁여기
▁50
▁공간
▁특별
▁월드컵
▁의한
▁전문
이기도
▁엄
▁슬
구의
오는
피언
▁29
▁언어
장에서
▁보통
▁이때
독교
트의
린다
가와
트를
▁있을
▁궁
시마
호를
▁산업
물을
▁개의
▁이적
▁출시
▁지나
▁경력
▁기존
했는데
격을
▁훈
카이
▁전라
▁기준으로
역이다
호는
▁31
체를
▁가족
▁마을
▁달리
▁제외
50
▁이끌
▁넓
혔다
▁공연
▁텔레비전
▁비슷
스코
▁옮
▁주변
▁탑
회는
▁국내
▁과거
▁하며
고등학교
▁바로
연구
▁탐
도에
▁경찰
무를
중에
▁되고
▁영화이다
▁기관
▁뮤
세는
▁경기에서
▁연방
▁될
▁일반적으로
리와
▁소설
▁지배
스에
학과
▁어머니
적을
▁역임
드를
▁유일
BC
사와
호로
▁변화
▁비교
▁c
리로
▁FI
▁가수
▁컴퓨
의를
▁모양
▁설명
▁노선
▁윌
▁뉴욕
▁아버지
▁태양
▁옥
동안
▁증가
▁지휘
▁적용
▁피해
▁챔
광역시
마다
st
▁혹은
▁있다는
▁건축
위로
▁작업
시간
방송
▁이것은
▁환경
르게
▁받은
▁작곡
제는
년의
▁기독교
기관
시켰다
▁보내
▁너
▁중심으로
리지
하지만
▁선정
▁풀
▁흔
▁1990
상은
메이션
▁동일
▁그를
▁행동
▁:
▁캐나다
▁확인
▁추정
▁규모
▁먼
.5
▁사고
-2
▁받았
쪽에
▁착
▁지지
▁2001
당의
▁자기
▁통합
어가
▁는
▁분야
▁종류
적은
▁어린
▁숙
정에
▁염
▁곧
▁밖
▁낙
단을
▁챔피언
경기
쳤다
어의
▁차량
▁때문이다
▁없이
인으로
체가
크로
인민공화국
▁앤
▁개념
야마
조의
▁찾아
mm
▁가까
▁획
드리
▁우주
▁갑
▁받고
▁실패
▁떨어
▁득
기와
▁컴퓨터
▁오늘
▁담당
▁최대
부가
▁TV
▁기념
종의
▁40
하거나
▁멤
▁보호
▁189
▁방향
관을
단은
▁되었고
▁어느
▁자신이
▁부르
▁충청
원에
▁대부분의
▁이런
성과
▁이와
▁활동을
.1
▁몽
이로
▁스페인
▁윈
▁속하는
▁방영
▁FIFA
30
▁수록
▁올라
▁인구는
▁상당
▁열차
▁두고
▁국가대표팀
▁애니메이션
▁대체
▁이상의
스카
나무
▁늘
계의
et
메리카
▁베이
했다고
el
▁데이터
▁흑
▁반응
ion
트리
글랜드
교육
▁과학
▁있지만
▁지정되었다
▁1,
움을
자들은
▁/
▁넣
성에
▁기원전
▁그녀는
트남
치가
▁멤버
일에는
▁최종
일을
▁연주
포츠
▁교통
적이
세가
면에
▁선출
▁걸쳐
▁최근
렇게
▁나가
▁도로
▁조지
▁위원
시켜
▁런
▁부족
▁없었다
▁옛
▁대하여
▁솔
▁인천
▁선택
인이다
호선
가의
▁잔
심을
▁있어서
▁결승
ing
▁있었던
▁더욱
▁형식
동에
겼다
▁다음을
▁흐
▁등에
▁논란
▁관할
▁공산
▁땅
▁효과
▁마르
▁조사
중학교
세를
으면
▁예정
▁자료
▁수는
▁하나이다
▁뛰어
▁대구
했을
▁동물
학을
▁언급
▁사상
▁서울특별
시는
▁크리스
▁입단
역을
ol
▁1999
▁최초로
렀다
▁아시아
▁칸
▁이름은
화가
▁조건
널리
▁불가
▁하다
▁1998
▁시민
▁선언
▁잉글랜드
▁메이
▁등으로
om
구에
프로
▁국립
한다는
▁평균
▁을
▁획득
▁정당
▁내려
시키는
▁에너
▁칭
amp
▁시설
▁지역에
▁1980
▁물리
▁북한
▁가리킨다
스턴
▁맺
법을
▁우리
회에서
▁것이라고
이에
정은
▁보인다
▁구간
▁배경
소가
12
▁지속
▁유래
▁어려
이어
▁후반
▁명령
학의
▁흥
▁전기
구하고
스에서
▁연속
▁좋은
전은
▁그들의
▁고대
▁예술
▁선발
▁컨
▁유사
▁이해
▁예를
▁점령
명으로
구를
▁X
라의
▁국회의
자들이
▁출판
.0
하도록
▁표준
▁대중
난다
덜란드
▁소비
▁거주
상에
정부
▁정규
정이
▁목표
개월
▁이들은
함으로써
▁m
▁팬
▁익
▁전에
소는
▁자리
▁덴
▁개봉
▁징
진을
▁있게
일랜드
▁겨
체는
▁소유
라도
만이
▁은퇴
되었으나
모토
시대
▁잃
만을
▁움
▁왜
▁주민
레일
스티
▁구역
스키
▁정신
▁포르
내는
▁전자
▁작가
▁돈
비를
바이
▁세포
▁덕
▁명의
▁이유로
▁쌍
년간
▁실험
▁페르
▁베트남
▁영국의
▁네덜란드
▁이름으로
관이
▁밝혔다
▁분석
버스
▁모습을
지와
나이
▁웹
원에서
▁1997
▁알렉
선거
▁휘
과에
▁액
메달
▁구분
▁말했다
▁밤
소의
▁제품
전의
이란
▁사무
웠다
베르
▁o
지방
이지만
회가
▁제한
▁선수이다
▁성장
었으며
60
▁강화
▁남자
▁승리
▁조약
▁불구하고
라스
▁홀
단이
▁치료
.2
로의
▁씨
▁드러
▁Y
러스
정의
인데
랐다
지역
▁믿
▁설계
▁깊
▁서울특별시
▁맡았다
▁오늘날
골을
▁아프리카
단에
민주주의
▁소프트
▁하나의
▁사이의
▁거두
▁현재는
▁찬
▁1996
회에
스테
베이
금을
우는
▁사용하는
▁헌법
되기
▁헬
▁분리
▁서식
▁1995
▁육군
▁알려진
▁폴란드
드가
▁포함한
▁핀
ac
▁하계
당은
▁크로
▁끌
▁그런
▁정확
월에는
부르크
▁언론
▁마음
▁아직
▁공화국
직을
▁하지
cm
-0
들로
▁실제
▁이곳
▁경험
▁하이
▁프로젝
구는
▁의미한다
형을
▁가문
쪽으로는
▁아마
▁결합
▁그들은
▁방문
시코
▁제조
▁쓴
▁그림
부로
▁하나로
▁분포
아의
▁이듬
전이
자리
▁통과
월부터
으므로
지지
▁것에
산을
어서
▁런던
▁널리
치고
▁부여
계에
▁이사
▁비행
▁괴
11
▁단체
▁스포츠
_2
▁광주
▁주의
▁맨
▁제안
▁발달
▁비해
사카
40
▁지상
식은
▁세워
▁수준
▁기여
▁공립
▁완전히
▁이듬해
▁공항
▁중에
▁물질
▁복귀
장과
▁꽃
인과
▁요시
르의
트가
가를
▁여겨
▁중요
로를
▁슈퍼
▁UE
주를
▁인터넷
▁예선
▁the
▁불리
▁의하여
de
루스
▁1970
톨릭
▁차례
▁위에
▁우승을
▁못했다
배우
식이
하의
▁움직
▁프랑스의
▁펼
지에서
스토
▁독일의
▁요청
▁현재의
▁멀
▁고등학교
▁UEFA
관으로
▁회사
르고
▁멸
▁188
▁배치
TV
▁때까지
▁1994
들도
▁외국
사업
구가
감을
il
▁더불
▁자주
위가
▁제주
▁등과
▁사람이
▁확장
▁식민
▁통일
▁나온
15
▁전해
점이
▁정도로
신을
라인
▁연기
▁나머
▁이로
▁유전
웨어
국은
도와
▁바탕
▁접근
▁경쟁
▁브라질
▁더불어
위의
▁영토
위는
▁빛
▁파괴
▁비롯한
▁있도록
▁칠
▁몬
▁해석
▁마찬
▁개혁
▁갖고
▁오래
카와
▁마찬가지
▁사라
▁아시
▁깨
▁추진
ro
▁오스트리아
▁밴드
▁KBS
▁주연
조는
▁록
경을
▁삼성
문에
▁km
▁정식
▁쉽
▁불교
as
▁스스로
물의
▁사람들이
동을
▁나오
▁소재
▁선수로
▁혈
었던
▁않아
▁습
▁1992
▁감독의
아가
릭터
▁촉
▁품
디어
화국의
주에
▁패배
시를
▁이들
▁수용
규모
▁p
선이
▁주인
▁지난
▁프레
▁달러
▁오른
▁유명한
▁필리
▁디자인
▁강원
▁스웨
▁가르
▁과정에서
철도
▁자치
▁특정
▁스테
로나
시즌
▁앙
▁짧
▁법률
습니다
▁빅
▁만나
▁작용
▁그대로
▁밝혀
받았다
▁60
일의
소년
▁of
18
▁바뀌
▁존재한다
부에서
ig
크의
▁선수권
▁잇
▁기초
레일리아
▁스트
군과
▁폐지
▁술
센터
▁제국의
▁윌리
ve
▁스위
기술
멕시코
▁외교
▁강력
▁1960
되기도
사에서
▁b
지게
국이
▁경우가
▁초등학교
▁캐릭터
▁초대
▁알고
▁s
행을
▁십
선은
▁아카
없이
선에
▁되었
▁목적으로
형의
▁일어나
▁해결
▁자동차
▁많다
식의
▁가톨릭
▁가져
▁것이었다
▁1991
▁단순
▁이외
▁먼저
▁기록했다
▁관측
▁스웨덴
▁라디오
류의
많은
▁엔진
▁노르
력은
고를
디아
▁제시
▁삶
부와
▁유니
하라
웨이
▁부정
▁결성
▁그린
▁근처
16
▁상호
▁1993
속도로
이기
▁캠
크는
니는
▁거부
▁경영
▁이야기
▁그녀의
졌고
▁친구
종이다
▁일제
▁생성
▁들어가
프는
▁집합
인트
▁제작된
량이
▁미국에서
주로
▁여름
▁도착
자에
▁보다
▁조선민주주의
▁반란
▁불리는
하이
▁지진
자이다
▁가능하다
▁영어
▁에서
화의
한다고
▁다카
▁위험
▁상대로
아시아
▁있으나
13
▁놀
▁70
▁벤
▁아무
수한
하였는데
리에서
▁해안
▁구성되어
▁지역에서
지션
▁비슷한
▁성립
▁겪
▁교수
▁수많은
▁여기서
▁다만
▁임시
트워
▁오스트레일리아
▁디지
▁않다
▁투표
▁동맹
▁상징
▁한국의
▁통치
▁소개
▁이주
하다가
했다는
▁파견
간다
▁궤
▁엘리
▁주도
▁팀의
▁연극
▁살아
▁출생
왕의
하기로
▁때는
만의
▁윈도
▁조각
▁훈련
▁시도
▁의원
▁야마
량을
",
▁황제
▁아일랜드
성으로
▁다르
▁준비
▁교회
▁활용
▁의하면
▁재판
▁것과
▁시행
정보
▁캘
과학
▁중간
▁문학
▁만에
▁공작
▁뇌
▁에이
ed
평양
▁근거
대와
▁바꾸
▁사용한다
▁발행
▁오브
▁카를
▁스튜
▁곤
▁마찬가지로
▁나무
년을
▁지냈다
▁대응
나가
14
▁바르
함을
▁윌리엄
촬영
▁지하철
▁떨어진
80
▁흡
▁시기
▁승강장
▁기후
조를
▁방어
▁지역을
▁대표적인
▁붕
▁따른
▁1988
트에서
70
▁이렇게
▁보유
▁히로
화된
▁시험
▁르
관의
▁처리
▁번역
▁바다
교회
낸다
▁멕시코
▁형태로
업을
▁로스
시가
▁끝에
▁비디오
▁시작하였다
▁를
▁체포
▁대해서
▁등록
▁중단
▁미사
인들이
▁타이틀
NA
▁지리
▁벽
▁이루어진
▁숨
▁이스
▁서비스
았고
▁꾸
▁회의
▁1.
였고
버트
▁일을
어나
▁북쪽
▁사용된다
▁센터
▁가정
▁몇몇
▁규정
연합
▁남쪽
▁있었고
▁좋아
점으로
▁관련된
일은
▁유로
▁베르
▁안정
▁혁명
가이다
▁귀족
▁The
▁이집
▁젊
면을
▁중에서
▁사용할
▁위해서
▁여객
▁있기
▁직후
소에
us
티아
사회
▁파이
▁디지털
▁체결
크라
▁묘사
▁사진
▁지적
▁80
▁남부
▁알렉산
▁제기
▁1950
▁계열
로가
으면서
▁1989
▁다루
안을
▁해외
_3
작용
▁당선
가로
주시
▁중국의
치의
량은
▁2021
▁낳
▁종합
od
ch
오카
▁즉위
▁혐
임스
어졌다
▁정부는
워드
▁억
',
회사
▁보존
▁이슬
▁얼마
▁금지
▁나머지
▁대사
▁뮤직
▁유대
생활
▁내각
▁그렇
▁살해
▁관광
▁하루
▁이름이
▁포르투
▁개통
당이
▁둔
리포
▁부른다
▁적이
▁대륙
▁류
▁계승
▁동생
물이
▁홍콩
▁달성
▁가능한
▁촬영
권의
비는
▁값
▁지명
▁나타나
▁펜
▁떠나
니스
국을
라우
and
나라의
▁못한
▁완성
▁링
▁주인공
공항
▁있지
▁종료
산의
▁발사
단으로
미터
17
▁싶
였으며
▁간의
▁곳에
러운
▁스코
피아
▁표시
▁조성
자들의
▁취임
계가
치로
해졌다
수이다
▁정치적
소로
▁밑
▁폰
▁쌓
▁강한
ent
▁대해서는
▁사망하였다
학생
▁보수
▁유일한
▁사후
▁본래
와는
▁의견
-3
▁멜
주교
▁년
▁전환
론을
하에
▁안전
▁승격
인지
▁꼬
▁못하고
▁1945
관리
시킨
▁충돌
력의
▁완전
▁경기를
▁물론
▁일어난
시키고
서로
당을
되자
▁수비
▁전달
▁남북
조가
▁옮겨
두고
롭게
▁후쿠
▁낮은
▁인민
▁천황
▁벗
▁합류
▁안에
나의
▁주목
▁굴
세에
▁표기
ra
▁근무
▁32
▁것도
▁종목
▁죄
▁관계를
▁케이
▁미술
▁중의
시로
▁필요한
▁경상남도
▁인근
▁전략
계는
▁경상북도
려고
▁동쪽
▁평화
▁이래
내고
구역
▁아내
▁만들었다
▁미래
되었던
관에
력으로
▁해군
▁스토
▁영역
▁제거
▁인식
▁문제가
▁문제를
족의
▁사이에서
로로
▁반면
▁제도
승을
▁명예
▁186
미널
▁오후
먼트
문화재
▁델
상과
▁빨
▁중화인민공화국
요일
▁썼
▁각종
월까지
▁주는
.3
48
▁즐
▁네트워
▁비밀
ot
신의
▁d
▁생물
비가
▁베네
즈의
▁참여하였다
▁왼
량의
전쟁
▁녹음
▁보여주
▁헨
헝가
▁읽
종이
▁오사카
▁듣
▁나누
인들은
▁부모
분을
▁=
원과
▁상업
산으로
▁통하여
▁a
▁납
대회
▁이루어져
▁가까운
단체
석을
은행
▁MBC
▁말을
전으로
▁만화
준다
그룹
▁이슬람
▁집중
▁이용하여
▁셀
▁수가
▁친일
▁위치하고
▁경우에는
과를
▁성격
▁위치해
▁최고의
메달을
메이
▁오르
▁가입
프가
un
▁강조
▁공급
▁너무
파의
▁샌
분에
▁빼
▁포지션
▁위의
▁마이크로
▁주었다
적으로는
ow
▁아우
2,
25
▁전시
▁정착
▁카운
주가
만에
▁만들어진
▁뒤에
▁실제로
▁둘러
리어
▁기록을
로스
▁기획
▁아니다
▁187
▁전반
▁보이
▁북부
상에서
권이
지도
▁제목
기업
▁사실을
▁오스
▁내부
▁국회의원
▁전투에서
▁에드
▁맹
▁저항
해를
▁신문
동차
▁아키
가가
▁연장
▁만약
▁출신의
▁인한
▁사람은
년대에
▁바탕으로
▁기존의
▁마련
▁문서
▁정리
▁최소
▁던
화는
드와
▁부문
▁옆
▁건너
ct
▁되었으며
고로
▁사회적
▁인디
▁젊은
▁사회주의
▁정부의
▁레코
▁의사
▁여전히
▁허용
▁서쪽
슨은
▁계산
점에서
적이고
▁실행
▁가는
▁전개
▁끼
년과
▁감소
▁마리아
▁35
▁이번
▁구조를
▁프로듀
▁넘어
▁갖추
▁그해
▁왔다
라노
교의
▁에스
▁혜
산업
▁건강
▁작성
▁확대
▁블랙
▁윈도우
▁사용하여
▁일반적인
▁1987
▁몽골
▁교체
질을
▁게이
▁신라
사이
리스트
▁적극
▁이후에
▁포르투갈
▁재직
▁대회에서
▁시대의
▁바람
▁터키
▁객
▁올랐다
호가
▁입학
▁기능을
▁무렵
▁뿐만
▁자체
▁유엔
▁사람을
FC
했기
▁불린다
▁국방
세포
▁하기
▁사례
화에
문학
..
트라
▁영화배우
▁그려
▁무역
산은
▁유형
▁편집
▁사령
br
자에게
▁불러
▁받아들
▁위협
▁만드는
▁국왕
▁n
계에서
졌으며
▁뒷
▁아나
▁시기에
▁2,
보다는
▁피아
▁범죄
▁관찰
▁1986
리포니아
▁채널
▁찰
▁겨울
▁나중에
시오
▁보도
▁자본
▁1984
▁생활을
▁전라남도
기고
▁그래서
▁옹
▁노력
라운드
▁제임스
사건
장이다
▁붕괴
▁전차
▁구단
▁채택
▁유리
▁출발
개발
의로
실을
래프트
▁점차
트에
▁성우
▁제정
▁제외한
되었는데
▁이란
▁사용되는
물로
▁일이
ur
▁면적은
▁동료
▁충분
도시
im
▁울산
선에서
ad
이던
▁라이브
▁동계
▁춘
▁여행
▁항상
로운
.4
티브
오프
▁요리
▁컬
▁St
르타
▁집단
▁판단
해의
라엘
났으며
▁감염
데미
▁합병
▁해체
문이
사령
▁원자
▁확보
▁외에도
▁측정
케이
▁민간
▁냉
24
▁죽음
▁장기
로서의
▁루이
▁마쓰
군으로
▁사람들은
영화
▁데이비
▁흰
세이
일러
id
▁블루
▁스튜디오
선수
밖에
테인
▁신경
모리
세기에
▁장애
▁필리핀
▁계약을
▁보면
▁동부
라고도
▁고구
설을
았으며
▁척
일본
▁핀란드
▁매년
종은
▁구축
▁500
▁에피
▁남편
▁득점
▁봄
▁쉽게
면의
▁시작되었다
자치
당에
▁마사
▁다섯
▁끊
▁증거
▁책임
니어
ut
▁캘리포니아
▁세르
대에서
▁엑
끄는
시대의
90
계로
레이션
▁쇠
국에
▁1985
신이
▁종종
▁발표했다
▁덴마
▁부근
세대
▁간주
정으로
▁파리
▁모스크
▁전사
▁있었지만
경제
▁등은
▁이승
라비아
하다고
▁수학
▁태평양
이라고도
▁경향
▁뒤를
▁90
▁공공
리기
▁증명
▁초반
▁수립
23
하려는
▁in
▁침공
▁남성
▁해방
▁관심을
▁탑재
▁서부
즈는
▁자리를
▁꿈
▁강력한
▁주장했다
▁변호
▁잭
▁밖에
▁승리를
▁화학
▁그곳
▁이스라엘
▁인간의
력과
티는
um
▁균
▁공격을
▁농업
키아
까지의
▁정보를
▁태풍
▁강원도
다이
▁헝가
▁소프트웨어
ir
▁높이
▁수입
초등학교는
여자
▁인수
▁텍
▁하자
▁자신을
네시아
▁비용
▁등에서
▁아름
▁콩
▁방식으로
법에
▁얼굴
▁나폴
▁검은
▁역대
민족
항공
▁사용한
▁한다고
▁경우도
서에
▁어떻
.6
▁쪽
인에
틀랜드
셔널
당한
.7
개를
▁남동
로도
▁아랍
▁트리
▁회복
ver
▁메이저
법원
▁특수
약을
▁LG
▁떨어져
제에
▁정상
씨는
포르
▁왔
법은
▁연맹
▁없어
▁대규모
드에서
▁나카
류를
▁외부
▁회원
▁한다는
되었지만
▁털
▁시장
▁시청
자들을
▁가리키는
면에서
신은
시와
사키
▁알아
▁세운
티나
소에서
▁고전
▁평양
에게는
▁하게
▁좀
려는
▁불과
트와
▁아시안
▁잠시
▁흘
▁본선
▁당시의
▁중화민
▁마리
데스
다운
▁귀국
▁대형
▁주연으로
▁플로
▁족
식으로
▁하면서
▁선의
CA
▁삼국
력에
▁둥
싱턴
▁인하여
▁원칙
▁1982
▁파일
▁갖춘
후의
대전
법의
붉은
▁대상
었는데
수와
▁길이
서관
▁중학교
▁대립
▁수정
받아
▁이끄는
▁목적
▁일종이다
▁짓
▁45
▁받는
▁기계
▁내에서
까지는
▁힘을
▁만족
▁셰
▁임명되었다
▁폭발
▁어떻게
▁말이다
▁숲
형은
▁개편
라가
▁조선민주주의인민공화국
박쥐
바르
어와
▁의해서
▁사람의
▁기억
▁섭
▁본관은
▁쉬
명한
▁고양
▁라틴
▁복잡
타이
▁토론
점에
정책
구로
차를
년이
▁근대
▁인사
▁태어난
▁가격
하고자
▁네트워크
터테인
▁비교적
마스
▁시내
▁설립된
▁충청남도
▁카메
▁팀은
▁과정을
22
▁롤
▁글로
▁발매되었다
▁뛰어난
▁은행
동의
▁편성
▁나뉘
▁잎
무원
▁행사
유럽
ay
▁조정
면은
▁않을
▁통한
▁보이는
▁신설
▁이것이
▁인기를
▁전역
.8
▁죽은
▁편입
▁에너지
▁속에
권은
▁단백
었으나
▁식물
▁시대에
▁개선
▁쓰인다
▁저장
▁1983
▁버스
▁세이
드에
형이
인들의
▁도움을
보는
▁박물
▁본격
▁오리
▁홈런
▁포지션은
▁유도
경의
▁구체
공업
▁통신
▁마드리
▁문화재
▁대상으로
품을
▁암살
▁캄
이었고
▁재정
▁우선
▁이전에
브리
료를
▁구성된
▁띠
▁후손
프의
를린
▁탄생
종으로
경에
▁고구려
프리
▁창설
▁때에는
▁속에서
▁지역은
▁애플
▁참석
▁사실상
▁시의
도에서
em
▁스피
동은
▁불가능
▁카이
분의
도르
점은
▁아카데미
▁있었으며
▁듀
어도
하나
▁핵심
▁아르헨
▁나오는
라크
에르
▁클래
▁전혀
▁형태의
▁설치되어
▁사는
▁열대
▁스파
▁중반
▁앞두고
겠다고
▁했지만
▁브랜드
▁심리
▁짧은
▁사용되었다
kg
세계
▁잘못
료로
▁내용을
권에
수에
경찰
45
▁1972
▁외에
▁w
▁설정
서의
▁공유
▁고향
음악
▁업무
▁등장하는
▁펠
문의
▁발견된다
주에서
▁답
조선
지기
미디
▁300
▁현실
▁흔히
었지만
▁협력
▁조금
룬다
용으로
▁짐
학년
▁부인
축구
▁모스크바
▁아주
▁다음은
▁수출
▁II
같은
추어
▁1920
▁비난
▁위치한다
시킬
▁수여
▁확정
자이
스리그
▁역사상
예술
▁뉴스
▁묻
▁개봉한
차례
▁뿌
▁플랫
▁린
적이다
씨의
▁나서
받은
▁있었으나
함에
▁비율
▁보급
하려고
▁권한
▁1979
주와
협회
200
지면서
▁물러
서가
번의
체에
▁공부
▁베이징
유의
▁33
▁그것은
테르
▁추정된다
버그
▁갈등
▁워싱턴
▁숫
▁줄거리
▁시티
▁때에
▁요한
▁기사
▁다니
크라이나
▁유명하다
▁단일
▁문자
보를
▁하는데
▁장착
▁시각
▁버전
▁동일한
os
▁프란
▁옷
▁오히
▁전후
▁나이
▁노예
▁로버트
▁예상
▁에피소
호의
▁선고
▁했고
▁왕국
▁1930
지원
▁그에
▁고정
▁뜻이
▁태어나
▁맛
다른
리케
▁북서
▁붉은
BO
▁36
▁브리
▁항복
체로
▁자는
이었으나
미는
▁박사
▁경기에
▁심각
▁정도의
▁훨
▁초등학교이다
▁원작
▁조합
▁세계에서
▁나는
▁현재까지
▁되면서
문은
▁하였고
비의
.9
시설
▁개정
▁투자
▁180
▁되지
▁금융
▁신앙
로드
니의
▁광고
간에
▁오픈
가에
▁1981
▁출마
▁발생한
어져
의의
▁하늘
▁훨씬
▁가로
▁적은
▁1973
무라
▁오랜
았던
터는
▁튀
물은
보드
▁무장
▁투입
▁세웠다
▁있었는데
▁계급
▁북아
슈타
해진
▁함수
▁했으나
▁형제
▁기반으로
▁정복
▁머리
▁낭
기에는
하마
▁길이는
▁모리
▁정부가
스럽
▁수원
구와
소프트
▁율
▁타고
색을
체육
▁얻었다
교통
하다는
▁멸망
▁헤이
▁내에
35
▁국가의
▁보였다
▁추측
▁마이클
▁이중
▁교토
▁프로그램이다
▁한때
▁전설
▁판결
▁가능성이
▁이탈리아의
▁작전
▁차지했다
▁덮
▁솔로
어들
동이
▁논쟁
▁맡고
생의
▁제작에
▁무기
▁우크라이나
▁이끌고
중앙
▁창립
▁없고
27
▁반복
역으로
▁구별
조에
▁대항
▁욕
▁1940
26
▁넓은
▁첨
▁이다
▁롯
▁절대
▁원정
▁CD
▁세우
▁주교
▁오히려
▁철학
아버
▁저지
다면
▁관심
안에
일이
▁1974
op
▁러시아의
▁힐
▁아메리카
나이티
OS
▁그에게
령을
▁공포
▁시즌을
▁찍
▁천문
자기
▁도움
▁만큼
▁서양
▁듯
▁요새
경기에
▁의료
비치
▁뜻을
▁결과를
▁확실
▁마침
인민공화국의
▁오토
▁점에서
▁앞서
언을
▁인공
▁일본에서
▁방출
▁니콜
▁시간이
▁융
▁스코틀랜드
제국
타를
▁철도역이다
▁e
산이
나와
▁거절
▁제출
음에도
▁인터뷰
일로
▁청소년
▁킹
▁SBS
▁38
▁지닌
▁스크
만은
소와
_4
▁전쟁이
당했다
ce
리노
▁활발
국민
▁하드
▁세종
▁1948
▁청년
쿠라
▁베를린
역은
▁단백질
▁전용
일보
▁플랫폼
마이
▁나와
▁뽑
▁됐다
▁원주
▁계획을
▁시작한
▁1968
판을
받고
▁생겨
▁북동
▁1976
화로
▁식민지
28
시티
▁아침
▁산맥
석은
▁살고
▁이후에는
▁머물
차로
▁세인트
마의
화와
▁했으며
ag
▁유나이티
리우
키스탄
플레이
▁거대한
▁통제
▁숭
리게
▁어렵
면이
▁끝나
▁은하
▁주식
▁이민
▁오전
▁1975
▁185
저우
▁건립
▁투수
▁팀을
▁래
사인
▁발표한
으로도
국가
▁지원을
▁삭
▁보는
▁타이완
네스
[]
▁부활
ter
이었으며
▁차이가
우리
▁공산주의
▁팀이
리아의
년에서
▁점을
재를
더라도
▁고등
▁대표팀
프레
▁뜻한다
세와
▁장악
▁사용하고
▁강제
▁기자
▁에어
▁각본
▁온라인
▁전쟁을
진은
▁합의
▁삼각
당과
병을
앤젤
▁비록
▁미디어
▁1978
경은
▁성질
▁겐
▁1971
29
▁통해서
국에서
ST
▁대비
▁약간
▁음력
스러운
로그
▁육상
▁1963
술을
리트
▁이르는
▁붙여
▁양성
▁플라
익을
산에
▁이야기를
▁운용
▁트레이
안의
▁오래된
▁레드
▁아파
▁상당히
▁하나님
▁금속
만큼
치에
▁컵
▁이른
리즘
▁도달
nd
법이
시스
에트
▁그것을
의회
▁건국
▁취급
▁응용
▁포함되어
이와
노동
단과
▁없다고
▁반영
렸고
▁병사
▁자격
지며
▁신인
게임
▁Z
자들
▁이제
▁되면
▁남서
▁랭
야구
▁지낸
▁미나
▁로스앤젤
▁미드
▁청나라
▁지식
▁벨기에
▁취득
▁해당하는
▁이유는
류가
▁규칙
500
▁위해서는
형으로
지이다
▁약속
▁갤
▁출입
에게서
▁공화
▁1969
분이
▁통계
▁강의
▁건조
▁그런데
라를
증을
▁소수
▁의회
▁트랙
▁일으켰
▁처음에는
수록
▁주어
▁150
▁혼란
47
▁말레이
▁거래
▁체계
▁슬로
▁시간을
메리
▁속한다
연맹
지인
▁웨스트
세로
▁행성
▁아테
▁주고
▁생명
ri
▁무엇
개가
▁대공
▁보조
▁댄
▁플레이오프
국제
▁사망했다
히는
론의
▁높아
▁호텔
▁미니
교를
▁간단
▁1946
▁보냈다
▁한번
▁이용한
▁코미디
▁독자
였으나
▁그레
▁반발
▁해서
▁동남
▁경계
▁방법을
▁보아
드시
▁백작
▁올리
크를
지자
▁부임
▁400
▁역을
▁잇는
마르
전문
▁코로나
▁전라북도
▁스티
선으로
▁v
▁작품을
▁동의
▁트로
▁대성
▁프로젝트
러는
▁개시
누스
기에서
▁얻어
영은
왕이
음이
스케
▁거리
▁넘는
▁프리미
니아의
▁모여
▁포기
마트
생을
▁1964
석이
▁수사
▁하면
▁사건을
▁두었다
▁대략
▁관할한다
▁경주
▁빠른
▁벡
아이
▁노부
▁이용해
데이
▁상륙
▁영입
▁SK
▁경성
▁렌
조사
▁써
▁명이
▁부상
▁좁
고는
▁분쟁
▁번째로
_5
▁베이스
▁공식적으로
▁롯데
▁이것을
▁인도네시아
▁국도
▁장식
▁후지
▁대수
미가
▁자이
▁켄
▁받지
▁히데
▁엔터테인
조합
▁흡수
기압
▁고용
▁부터
▁때부터
리나
▁문헌
▁발표하였다
▁의존
분류
▁알게
▁만주
차원
▁후에는
머스
▁방향으로
▁포위
번째로
통신
타는
모를
▁한반
▁그러한
▁In
▁탈락
▁and
▁34
▁공통
시킨다
▁시작하여
▁고속
▁논의
▁준우
▁중세
ation
미의
▁활동하였다
▁도망
라와
▁도중
▁경기는
▁법칙
oc
▁사태
▁프로세
▁곳에서
▁쫓
▁김영
▁박정
시에서
▁챔피언스리그
▁종류의
th
▁기대
▁전주
▁이집트
▁명명
▁요소
▁불법
▁것처럼
▁하나는
▁유사한
▁수송
▁카르
전과
▁않았고
▁브루
36
▁국제공항
▁선보
▁수집
▁전공
igh
▁라인
베르크
▁이들의
▁수상했다
▁시작으로
국으로
▁자살
▁전철
▁에도
▁탈출
▁도시로
▁집행
37
▁1977
물이다
▁1949
▁참전
▁보컬
미를
▁콘서
▁자녀
▁하위
티노
박물
▁보장
▁빠져
마을
▁총독
▁진입
▁총리
▁그레이
▁이뤄
아는
바라
▁논란이
▁기록하였다
뿐만
▁생긴
율을
▁g
명에
▁기록한
▁데이비드
▁해에
페이
▁성적
▁학문
▁개최된
▁피아노
▁출연하였고
▁제이
▁역임했다
▁아들이
▁때의
▁특별한
▁라고
식에
▁검찰
고속도로
▁앞에
▁꼭
동으로
▁승인
▁요코
▁성인
▁각각의
종을
▁1962
▁벼
▁일정
▁채용
▁기술을
▁했던
학에서
▁받게
▁출신으로
▁공을
▁신성
▁헨리
행위
▁국무
▁이전의
▁강점
▁선수가
▁주둔
제와
차가
▁예측
▁보낸
▁지니
▁합격
▁피해를
▁FA
▁창조
▁탁
르가
파는
▁저작
아서
터를
▁37
▁등급
▁공개된
라이언
▁가을
▁킬
▁장관
▁사운드
진의
▁마케
▁1967
▁대학교에서
되면
▁진압
▁활동했다
ER
▁소녀
▁방사
미야
▁선교
▁진화
▁i
▁지키
▁어떠
▁다르다
▁중이다
▁셋
▁달라
▁후속
하였지만
경이
▁군대를
▁차트
▁말았다
▁운동을
▁아사
▁출간
▁임진
론은
▁구속
공화국
▁챔피언십
해도
▁발매된
▁빠르게
▁사용되고
▁상승
▁오페
▁쥐
▁태어났으며
▁생존
▁소비에트
▁동원
▁리더
▁소년
98
▁천연
▁시카
▁사건이
통을
▁관료
▁소장
들이다
없는
▁열렸다
▁까
▁대기
리히
▁것이며
▁갈라
▁변환
현의
▁연출
▁콘스탄
ON
▁서버
▁제대로
▁복합
▁왕국의
적의
▁저서
▁층
▁엠
▁지붕
▁나치
▁반드시
▁서비스를
▁깊은
▁돌아가
▁진보
▁합성
에만
▁연재
▁아미
▁장군
▁승진
▁불안
패를
▁능력을
▁목표로
▁US
▁지어
▁동작
▁가서
▁내의
▁운전
▁스미
▁전파
▁발견된
▁라는
▁여기에
▁선거에서
공사
▁공군
▁주관
구에서
-20
▁최다
드라
▁위반
기간
프를
▁다수의
▁톰
조판
▁좌우
▁해양
▁아들로
▁PC
▁둘째
▁창단
ap
▁지급
▁평가를
차전
실은
리우스
▁농민
명과
▁끝난
▁이성
▁늦
▁남은
38
▁맞이
▁배출
▁마지막으로
▁존재하는
바로
▁파라
퍼드
▁역사적
브라
▁꺾
▁왼쪽
기까지
%,
▁독특
곡을
▁성능
▁조별
학은
▁사법
▁포도
▁나타내는
▁틀
조로
▁차이
▁양자
▁정책을
▁알려졌다
▁이시
▁독립운동
▁세력
▁목소
안은
▁엄청
타르
터리
▁썼다
▁지방의
주의를
▁작품은
▁경우는
▁1966
▁특이
겠다는
▁변경되었다
▁쓰는
▁그와
▁지도자
▁차별
었다고
▁가졌다
▁음식
▁현역
질랜드
▁이후의
46
▁형태를
▁파악
▁이후로
▁치러
상태
▁맡아
95
면으로
방을
▁방영된
토리
▁군주
▁트랜
▁Q
▁우려
▁받았고
▁의혹
▁학습
부인
장인
레오
▁레오
평가
▁어떠한
▁1965
▁인기
▁지냈
▁미야
▁조작
▁체코
▁잡아
▁덧
관계
선과
▁국회
디션
▁국경
▁향상
▁일부는
계획
▁검사
▁베스트
기념
▁KBO
▁개신
▁반도
▁들어서
▁개발한
조직
▁신뢰
루는
리다
▁작품이다
▁되자
▁횡
▁흉
입니다
항을
▁시에
▁해산
▁않으며
요시
주의의
▁일찍
텐츠
▁교환
▁자신들의
▁스페인의
▁한국에서
▁미군
▁정확한
▁연구를
▁홋
▁풍부
▁켈
▁제외하고
▁빼앗
린은
세한
▁세르비아
▁계기로
▁노벨
▁시즌에
▁받을
▁제어
으니
▁전통적인
▁로스앤젤레스
▁연관
▁분열
▁보안
▁닥
▁택
▁상품
▁대부분은
▁그들이
▁민주당
크가
원이다
▁효율
지컬
섰다
▁헤르
▁없다는
들목
▁분할
으로서의
▁실질
▁오른쪽
사단
표를
▁생태
75
▁3,
▁코드
▁것이라
겠다
▁글을
▁학위를
▁팝
ice
▁조절
▁55
게는
▁리처
▁희망
▁1961
▁수영
▁하였으나
락을
토의
▁늘어
▁갖는
▁You
▁아버지는
투스
▁점점
▁1000
▁예비
▁하였으며
est
▁인접
▁삽
▁무덤
▁완공
AR
▁지금의
ia
▁김일
▁로켓
▁한정
▁급제
32
▁뉴질랜드
건을
▁테이
▁이룬다
▁니시
났고
▁오스만
되었을
▁이하
▁묶
복을
시험
일과
치아
▁사우
자료
▁페이
고의
▁마이크로소프트
▁회전
▁받는다
▁통산
▁대통령이
▁스탠
▁장치
▁학술
▁보관
스포
▁동성
마는
▁활성
▁되며
산화
민주당
▁연대
▁테러
▁마침내
▁페르시아
▁아라
▁릴
▁동아
▁명확
▁구현
신으로
▁둘러싸
류는
인도
해가
▁감독을
▁감독이
▁것이라는
사무
이므로
▁의미를
ak
개혁
▁프로그램을
▁바라
▁출범
진이
▁올려
▁예수
▁위성
▁스위스
▁포함하고
▁올랐
소송
재판
▁사립
▁주장하였다
▁신청
사관
▁기록이
책을
산시
▁샤를
온은
토니
▁역이다
▁성을
▁단독
-4
화되어
art
▁황금
▁이름의
▁2.
▁나뉜
▁훗
▁도쿠
▁터미널
뮤니
▁나이로
▁지내
▁스프
▁반대로
▁사단
▁처형
천시
▁메시
▁이루어졌다
▁부산광역시
▁의무
▁김정
▁1919
▁느끼
▁완료
▁재배
코는
▁교육을
ie
▁갔다
▁그렇게
▁새겨
▁경제적
▁마치
▁포함한다
92
사우
▁질병
▁영화는
▁빅토
▁하나인
▁문제로
그라
시리즈
▁간행
▁있음을
왕은
한국
연히
▁프로듀서
31
오스
▁말에
임이
▁시리아
▁쓸
▁함락
▁항성
▁모양의
▁1944
▁캔
▁형사
▁성향
방의
비스
▁스카
▁불렀다
▁지은
▁가스
▁일치
▁관계가
씨가
▁메인
하였던
레인
로마
▁개막
▁주전
▁대개
▁직업
▁조선의
니가
▁적절
▁취소
▁나왔다
현은
34
▁나타난다
▁아스
▁후기
▁프라
▁인지
▁인종
름을
보살
▁흘러
▁유행
▁작업을
부터는
행정
▁역은
판이
▁48
▁가나
들로부터
96
▁발굴
▁방법으로
등을
▁75
▁어린이
하였다고
▁충청북도
고기
▁연산
▁IS
▁크고
드레
차는
▁포함하여
▁꼽
▁제작한
▁향해
▁1941
령이
▁공업
▁시위
▁거두었다
▁퀸
▁오랫
og
▁영상
▁모아
▁덴마크
카이도
▁활동하고
▁마크
▁훌
이센
▁소송
▁알파
▁당시에는
개로
▁네이
▁안드로
▁등장인
▁그때
시키기
▁부르는
▁창원
올림픽
터의
에이
등의
사이트
▁샘
▁제공한다
공원
▁출장
▁극장
▁없으며
터가
▁훗날
천군
▁쳐
우주
▁근본
▁용어
▁중인
▁잉글랜드의
▁추천
들에서
▁부대
▁번의
▁쓰고
▁뜻으로
무부
▁후보로
각을
▁개입
했었다
▁음악을
▁주택
▁상당한
▁만들어졌다
▁누구
▁속한
▁분위
▁오랫동안
여서
메리칸
▁사람들의
▁뜻하는
▁고속도로
▁선정되었다
▁규모의
▁감독으로
▁목록이다
ly
▁k
▁순위
▁쓰이는
▁세계의
▁코파
색의
▁고문
▁역으로
▁합쳐
▁소속으로
▁지금까지
▁띄
▁DNA
▁플래
▁Ch
▁망명
▁당초
▁혐의로
▁텍사
▁편찬
체스터
▁예정이다
거운
교는
▁무너
▁사유
▁시작된
ne
▁골든
▁주지
BA
무늬
▁보병
▁지상역이다
▁저술
▁희생
▁1958
▁1947
-5
▁혼합
▁찰스
▁아르헨티나
▁아이돌
화되었다
주었다
▁빙
▁호는
▁해리
▁프로그래
64
▁출시되었다
▁행위
99
▁1956
▁프리미어
▁경우에
▁l
레옹
▁와이
▁실현
▁내용은
▁다다
▁프린
▁명을
▁유기
;/
▁기둥
네이
▁밀도는
▁입장을
▁발견되었다
▁발발
▁왕조
동맹
였지만
▁미사일
AT
쿠스
▁중화민국
▁언제
▁등장한다
▁픽
▁시작한다
화한
▁국민의
▁승객
▁접촉
▁침략
카는
▁처벌
ab
기록
양을
왜란
▁화재
우의
▁이르러
▁계통
▁무시
▁가지는
▁아티
▁안에서
르기
▁공헌
▁마르크
미니
리그의
고가
▁마무
론이
▁안동
▁펼쳐
자들에게
▁방정
비로
▁고유
▁높이는
▁죽었다
자로서
▁Re
▁화물
정과
▁자극
▁콤
▁확립
▁으로
성군
▁크로아
▁침입
우수
슨의
▁가치
IA
▁졸업하고
중의
▁바깥
▁신호
▁지켜
루가
▁임대
▁확률
동과
▁일부를
▁1939
▁지시
▁골을
▁뚜
▁사임
▁단편
인들을
▁대한민국에서는
▁사냥
▁일어났다
총독
▁변화를
▁상위
▁길을
▁제일
이었지만
▁|
ist
로와
▁철수
▁받아들여
치게
1,
▁섞
76
▁인권
▁논리
▁스마트
체와
내에
가타
▁AFC
▁도와
▁나폴레옹
IV
영의
식과
▁h
▁군의
▁올렸다
39
▁새롭게
▁도요
▁긍
▁주최
▁임진왜란
se
▁유일하게
▁정기
▁성적을
85
해져
▁독특한
라며
▁명칭은
▁뜨
▁일본에
▁이들을
▁촌
▁거듭
▁다운
트릭
▁곡을
▁조종
▁+
▁단위
▁앉
▁부분을
▁다스
되었다가
▁기울
▁변형
▁정지
▁심각한
▁특성
▁사용된
▁주어진
▁캐나다의
▁나들목
▁이기
▁작곡가
석의
▁뮤지컬
▁인구가
타운
▁가담
▁잡지
격한
▁진행되었다
▁단계
▁얻은
▁루이스
함과
▁기회를
▁묵
▁대리
ight
▁임금
목록
▁가치가
▁진주
고등
안이
시장
파를
▁상황에서
▁분명
▁않게
86
▁1954
▁갔
▁곡은
▁브라운
▁저녁
▁후원
▁공연을
▁제공하는
▁대표하는
▁해당한다
▁구글
▁닌
디는
▁많아
▁후계
▁멀리
▁어려운
실의
디움
▁부상을
▁닛
베르트
▁개설
▁체제
▁받았으며
스럽게
▁노래를
▁부하
▁로드
▁드라이
▁지역으로
▁코르
▁정치인이다
▁놓고
▁한국어
역의
에른
야의
▁광복
▁영웅
▁1952
▁인쇄
▁가문의
층의
▁지위를
▁상태로
스트로
▁타임
AS
▁전형
정치
▁총선
▁다케
▁상대적으로
▁매일
▁어디
학에
▁헝가리
▁소방
▁정비
...
보고
▁노출
티오
▁미드필
▁to
▁아테네
▁중에는
론에
▁유럽의
프랑
▁카드
양의
▁교향
▁등판
▁군이다
▁앞에서
▁이루고
▁금메달을
아르
▁어깨
▁포켓
연을
▁심지
자키
구이다
▁보았다
▁행동을
▁곽
구치
▁무한
관과
▁설립되었다
▁시나
▁인디언
▁사람들을
례를
카가
함이
▁재건
▁내셔널
▁따로
▁알바
▁다르게
▁선생
되는데
▁특정한
▁그래픽
▁도모
▁정차
생물
▁한글
▁나아가
▁시카고
-19
▁절반
▁폐쇄
▁자리잡
▁편이다
어야
강의
▁준다
▁장교
슬러
주의적
▁바뀌었다
▁공사
▁가와
▁내렸다
▁시상
▁나타내
▁활약을
▁녹색
▁연결하는
▁돕
▁앵
속에
▁시인
자유
▁학살
▁현상
▁상하이
▁리버
하지는
65
▁싱가
▁이혼
▁하에
▁유형문화재
베스
▁커뮤니
▁천주교
▁해야
▁일으키
▁만들고
VD
▁득표
▁미드필더
법으로
▁벌어
▁장남
▁노스
혁명
▁피터
▁들고
▁나뉜다
▁사업을
▁연구에
▁여객철도
츠는
▁원소
▁다수
타의
▁랜
▁법정
포를
▁보유하고
▁조선시대
▁평안
▁효과를
▁추구
▁크기
▁맡은
데르
▁개조
▁영업
▁서울대학교
족이
▁상을
▁포항
▁타이거
▁투쟁
▁유한
▁돼
▁탈퇴
루를
▁팽
;,
▁1959
▁한나라
미르
▁홍보
▁프로이센
▁다소
▁듣고
▁시리즈의
▁밝히
▁설치된
▁소련의
되었다고
▁단어
▁박정희
▁개신교
▁도시이다
▁라이트
▁관여
▁중부
▁아름다운
▁바이에른
파가
▁프랑크
▁원인
▁단지
▁동해
94
▁블라
▁김대
▁행렬
▁데뷔하였다
우가
▁설득
▁초기의
▁선전
▁일시
었기
▁64
▁더블
▁분노
▁통상
▁반란을
▁자이언
▁뮌
▁프로토
▁파트
▁대회에
▁다음의
키가
▁사망한
▁돈을
if
ove
▁관련이
▁발생하는
ess
▁두려
▁전직
▁필요가
▁나고
▁시드
▁작품으로
동생
▁전력
▁주장한다
한의
▁경남
▁해상
▁시스템을
▁도시의
▁선수단
▁그로
하므로
▁떠났다
▁엄청난
▁160
▁대부분이
페르
▁징역
련의
속의
▁군인
▁존재하지
▁테스트
▁말레이시아
▁참여했다
레나
별로
▁앤드
▁레알
▁가진다
▁세력을
▁소멸
▁연예
▁미국과
▁1942
키의
피스
33
▁겹
▁춤
주고
ub
▁의심
▁기다
▁주간
역이
▁에르
▁일컫
공의
카의
점의
▁자전
▁여겨진다
▁데에
▁공화국의
제도
▁나누어
▁부친
비에
▁궤도
▁사실이
강에
▁지금은
100
▁가이
에서만
▁적합
치지
▁투어
색으로
▁신학
▁오직
▁올림픽에
▁돌아와
▁운영하고
▁1943
▁도전
▁나타낸다
▁의도
▁벗어나
▁에드워드
가시
▁스케
▁김성
▁한일
▁역사를
▁참가했다
리며
▁수요
▁루마
루의
▁성공을
▁오프
▁120
리언
▁리처드
▁전까지
▁깃
▁해도
오의
▁곳으로
▁벌어진
▁NH
대장
ine
▁비상
시스코
타로
▁가게
물에
▁스키
▁내용이
▁루트
▁속의
▁프리드리
▁첼
▁몰아
마를
보호
▁파르
▁완전한
▁대통령의
코스
▁논문
▁세상을
자동차
▁대통령은
▁음반은
▁긍정
▁발언
▁파워
▁발탁
바일
▁집권
▁웅
족은
▁재개
▁1953
범위
▁살인
▁이로써
즈가
▁신체
▁나타나는
▁창작
▁필요하다
▁정권
▁밥
▁정교
▁화이트
▁비례
리안
▁전부
▁1955
▁프랭
문제
▁바닥
EC
▁힌
후에
▁기록은
▁못하는
부대
▁시사
▁않지만
▁굳
공산
▁1936
78
다의
▁부담
▁선박
▁화성
망을
▁메이지
▁메달
▁병합
격으로
▁출연하였다
▁인용
▁갖추고
▁나타났다
▁못하였다
▁승려
▁연고
▁자리에
▁잠수
▁특징이다
▁임무
▁액션
소설
▁이름이다
토는
▁있었기
▁있었다고
등이
▁일어나는
▁전면
▁외국인
▁석유
▁빌보드
듯이
▁높다
▁39
▁크리
▁쓰여
▁정체
▁1910
었을
ue
▁여섯
▁명단
라에
▁츠
▁패션
▁사마
▁대체로
▁천안
니스탄
▁포스트
pe
▁민법
▁이른다
▁음반이다
▁디스
▁남아프리카
▁주장을
▁대장
거래
판은
▁점이
▁무게
▁문을
▁텍사스
▁맞아
▁즈
직에
▁AT
▁쿠데
▁이끌었다
▁동안에
▁원주민
▁속해
틀러
▁SS
▁분해
과정
▁세부
▁일정한
ive
▁개칭
▁지지를
서와
▁동방
▁태국
▁보여준다
▁알고리즘
_6
왕을
▁구입
▁눈에
▁캠퍼
▁노르웨이
▁끌어
파로
▁왕이
▁큐
▁Th
▁종사
▁즉시
▁사용하였다
독립
▁구매
▁전쟁의
감독
▁본질
▁로마의
▁조지아
▁1957
▁남쪽으로
▁느낌
▁순간
▁환승
▁바르셀
▁참가한
▁스티븐
▁세계적으로
▁가슴
▁닫
▁65
▁연습
▁부분이
▁이후에도
▁다리
▁얻을
▁전쟁에
▁책임을
▁조선총독
위와
▁도덕
남도의
그램
▁사우스
코의
▁기소
▁1900
행성
▁카운티
▁임의의
관에서
▁멘
▁김종
되어야
종합
▁티베
가인
▁부진
▁사건은
▁사용했다
▁되는데
▁핑
▁가수이다
▁선임
▁남겼다
장애
▁초에
▁말하는
="
▁공중
▁보건
▁탐사
▁게다가
▁넓이는
산과
▁위로
▁능력
▁대의
▁기록하며
▁권력
▁개체
만으로
▁전쟁에서
학자이다
느냐
평균
▁무사
▁호소
▁이전에는
▁복원
▁작동
▁수상하였다
▁아들인
▁짜
인에게
▁명나라
▁동북
▁양의
▁1914
▁전동차
▁다음날
▁후쿠오카
▁표면
▁명령을
처를
▁상황을
전투
호에
역에서
▁에피소드
▁빚
▁글로벌
▁지속적으로
학자들은
▁그것이
▁터널
BM
년도
과대학
▁지니고
▁왕의
중학교는
▁영화배우이다
▁벡터
목을
▁일부가
사이다
▁이상이
백만
본부
▁바둑
영을
89
실이
▁이들이
▁만든다
▁방식을
▁비롯하여
레는
년부터는
▁동양
▁수의
IN
평을
▁밀려
▁똑
▁농구
여래
▁전남
▁미쓰
▁수리
하시
공을
받는
▁곳이다
▁어머니는
미술
▁드래프트
▁로봇
▁연간
▁유효
▁의식
▁측면
▁파크
린의
더스
▁롱
▁보스
▁섬의
▁불렸다
중을
▁달려
마가
▁WW
▁알레
▁완벽
▁만다
▁1938
▁IC
▁방해
▁운영하는
▁돌려
활동을
▁만한
▁전북
▁화려
▁나온다
너스
▁복무
▁브레
▁사항
▁토론토
▁기록되어
▁암컷
▁북쪽으로
▁분야에서
▁의학
▁유치
▁권력을
클리
▁선출되었다
▁강릉
▁유학
▁자금
▁장수
▁세웠
▁여러가지
▁방지
학교를
▁47
만한
질이
▁없을
▁포켓몬
청은
▁추기
▁갑자기
▁상속
▁추가로
▁성경
튜브
▁부분은
계약
▁전송
▁미국은
▁힙
▁문제에
▁않으면
동물
▁번호는
슬링
▁싸움
▁책을
▁강등
▁공주
▁사퇴
▁이르렀다
▁협회
▁남아있
44
▁수석
▁올스타
▁지구의
▁위치를
우를
▁밝혀졌다
감이
▁서구
▁상태에서
▁크다
▁재학
▁올림픽에서
질의
▁복잡한
▁AP
▁참고
환으로
호와
크래프트
▁46
▁초기에
▁1918
▁장비
사람
97
▁그리하여
니즘
중한
▁사용자
지마
▁맞서
all
▁싸우
▁여성의
▁드래
▁화합
즈를
타마
▁스트리
▁서술
▁출전하여
츠의
▁1951
결승
▁차지하고
▁44
▁화산
베리아
▁크레
▁개별
▁내세
▁디스크
▁마무리
▁들어갔다
이치
▁끝내
▁대한민국에서
▁물을
▁비트
▁검토
▁토지
▁게임을
▁이른바
▁폴리
▁해발
▁프리드리히
▁받아들이
▁히로시마
▁대량
▁선포
다란
장관
▁1937
ID
펙트
▁1932
▁청주
▁확산
했다가
▁란
▁뮌헨
▁포트
▁한자
달러
▁히트
되지만
중인
▁커버
▁아래와
ore
our
노스
▁이루는
▁발간
▁아이디
▁최우수
어버
▁내놓
▁말이
▁접한다
▁윗
모가
▁아오
▁후임
분으로
▁신화
▁이명
▁근처에
▁유나이티드
▁직원
사전
▁향토
▁되돌
▁HD
포로
▁따서
▁암호
▁유배
▁덧붙
▁주기
▁꾸준
▁장소
▁조카
▁아메리칸
에선
▁나왔
▁십자
3,
▁문제는
▁광범위
▁소식을
씨를
▁그곳에서
렸으며
▁1935
월의
▁없게
▁입장
▁재임
▁이웃
폴리스
▁당시에
▁오페라
▁이라크
▁보물
▁넷
양이
▁성남
▁직전
는지
주의자
▁입단하였다
▁고위
▁순환
▁연결되어
▁형식으로
강을
▁코치
▁핫
비시
열을
▁개방
발을
▁클레
▁엘리자
특별자치
▁자원
▁현지
▁경기장
▁달하는
기지
▁추방
렬한
▁일으켜
▁격파
▁배포
▁텐
▁스프링
▁왕조의
공간
▁일은
▁사전
집을
▁DVD
▁조건을
▁방법은
▁영국에서
▁상실
▁개념을
▁곱
너는
▁갖는다
▁언덕
▁전투를
천만
아나
파와
비히
조건
87
▁하기도
조차
ell
▁카라
▁필수
군에서
▁위에서
▁이온
▁항의
▁아버지의
스트라
▁무대
▁쌀
▁단순한
쥐는
▁기병
▁상관
▁폭탄
하여야
▁사랑을
형에
▁교류
▁내가
▁모바일
▁겉
▁대상이
▁유고
▁회장
법인
제르
율이
▁칼리
▁화장
가락
슬라
ul
관광
친다
▁탄핵
▁하여금
▁인도의
▁전문가
▁했는데
본을
▁입고
파이
▁양쪽
▁지향
▁역임하였다
▁참여한
됨에
▁개국
▁태양의
▁충분히
IC
▁탄압
보이
▁오키
▁사건으로
▁분기
▁수소
로에
목에
바는
▁체육
▁프라이
▁1933
▁사회의
▁계속해서
▁보편
▁미리
▁후인
비디오
▁개인의
름이
▁성직
▁오카
▁베어
았으나
▁최대의
하기를
▁갈색
▁서쪽으로
▁사람들에게
▁덜
▁거짓
이닝
▁골드
▁클라
▁쾌
▁독립을
되게
신문
▁흑인
▁바르셀로나
연대
▁업무를
▁고객
스팅
▁크루
▁신도
▁연료
▁가까이
▁특징을
야는
▁권리를
▁그들을
연의
▁동쪽으로
민의
▁수십
▁결의
▁분자
▁중학교이다
▁산화
▁나라의
▁명칭을
▁우리는
▁의미하는
나카
서양
▁가설
▁열차가
▁CP
▁위상
▁좋지
▁1928
▁웨일
▁반응을
▁포함하는
▁몸을
▁알리
▁본격적으로
▁42
▁가상
▁위키
▁대표로
역에
즈니
이상
테이
▁재능
▁오다
▁마틴
▁우수
▁인천광역시
▁조선민주주의인민공화국의
비트
▁북아메리카
코프
▁마음을
▁앞으로
령의
▁도서관
AM
베리
-10
ill
▁1924
▁부동
▁억제
▁작사
되거나
▁단순히
▁돌아온
▁사건의
▁걸친
▁4,
▁아래에
▁준우승
▁밝은
신인
ers
▁노선을
▁삶을
▁별도의
▁웃
▁영화의
목으로
▁개척
▁행복
▁교회의
가능
마에
ain
▁손을
▁영화제
▁제도를
▁상태를
▁넣어
▁스탈
▁스타디움
▁멈
▁기상
▁위원회
▁이어지는
투아
모는
▁발음
AN
▁낸
▁출신이다
방향
▁엑스
▁재생
▁로렌
▁예산
우스는
▁가깝
▁입력
계와
리브
기인
▁마드리드
키퍼
The
▁이재
▁멀티
▁비잔
▁차단
▁검색
▁고종
▁임무를
속은
클레
▁유통
43
차의
▁56
▁입법
였는데
▁보이지
▁포함된다
▁뻗
▁수컷
실로
▁영구
▁콘텐츠
▁상주
▁지불
▁집에
▁기본적으로
▁모토
미아
-6
▁출연했다
▁Al
▁한성
▁일으켰다
안전
▁중추
▁토착
▁보험
환경
93
▁이벤
로서는
▁상대식
프란
당으로
88
▁서서
▁원인이
▁하인
▁인기가
슬로
▁해설
와이
▁자라
재로
▁장르
주의는
▁강남
▁백제
▁수술
▁칠레
국과
시스템
▁프로그래밍
▁박물관
▁정부에
군에게
▁도서
▁함경
▁세계대전
▁있으므로
▁Be
▁아동
▁사람들
조참
해에
▁그렇다면
ard
▁가난
▁며
▁역에서
▁보스턴
▁맨체스터
▁일련의
하를
▁실천
▁링크
▁아틀
▁콜롬
▁경기가
▁풋
같이
▁구멍
환을
▁하나가
노는
▁경향이
▁드물
▁사찰
▁팔레
드리아
▁이상을
▁양산
▁이즈
41
▁되기
▁게임의
층에
▁지중
▁예방
▁보여주는
브로
▁노동자
▁짝
구조
▁성공했다
end
▁비판을
▁신의
▁상호작용
▁놓여
▁대부분을
▁식품
▁그녀가
▁파키스탄
프라
▁철거
▁메모리
▁1934
▁덩
▁이외에도
▁블록
▁일상
바의
▁용인
크스
▁꼬리
▁복음
▁결승전
▁거느
▁골키퍼
▁웹사이트
▁상하
▁자랑
▁아버지가
42
보험
▁원시
▁리그의
OR
로지
▁3.
▁크로아티아
미사
▁열매
▁모터
나르
▁초청
▁바이러스
▁고급
▁조선시대의
▁소프트웨
▁틈
▁공장
하기에
지면
▁뛰고
▁병원
석탑
▁이외의
▁주장하는
▁그라
▁남녀
▁대대
▁속도
▁안토니
▁최근에는
다시
침을
▁주력
▁현존
▁일종의
▁마주
▁공산당
▁편의
▁나뉘어
▁대다
▁사가
중이다
타카
▁청구
법과
용의
▁그러므로
▁인구의
▁카운티는
▁이익
▁전화
인가
▁호주
▁구성원
▁요코하마
▁개찰
▁말로
▁매장
▁주에
▁타격
리학
▁시작했고
용을
▁벼슬
크와
▁대법
우라
▁대동
▁사막
▁소득
▁홋카이도
유를
▁핸
▁개량
유가
힌다
▁위대한
프가니스탄
▁미국으로
▁배경으로
스피
치오
▁마감
▁오버
▁기도
공신
▁De
▁본다
▁구성된다
▁수호
▁북미
성에서
타가
▁안내
▁줄어들
▁주된
▁명으로
▁젠
▁죽음을
▁톱
▁펑
▁이적하였다
리티
▁싱어
하라는
▁가마
▁가속
▁입은
▁남극
▁질량
▁이어서
▁올해의
▁아티스트
▁신고
▁\
중이
▁우리가
름은
▁특별히
프와
▁비공
▁이념
▁이용할
▁교차
▁진격
▁도쿠가와
릭스
▁변호사
▁작품의
▁그리스의
▁탓
▁열리는
▁집필
님의
보로
▁자매
▁권리
▁아리
▁원래는
슨이
▁강요
▁혼자
▁대화
▁혈액
브레
대문
▁엔터테인먼트
▁오는
▁드라마이다
IS
▁MS
발전
▁정치인
무네
절을
체인
▁감시
문이다
판에
▁진학
▁매주
▁랑
년경
▁보냈
▁대학의
▁소속의
사지
▁영양
▁주제
전자
ang
지니아
▁적극적으로
▁대학교의
통합
▁Me
▁뚜렷
▁포함되었다
▁백성
▁수도권
▁WWE
▁준결승
왕후
▁수를
▁아마추어
49
니와
▁들면
55
▁x
▁닉
▁경북
▁선호
▁셔
▁사도
▁힙합
▁싱가포르
▁정식으로
▁게임이다
원숭
▁쓰러
▁영토를
▁알렉산더
치와
▁우에
▁화가
▁가치를
▁할아버
▁OS
▁부속
▁대원
▁소집
활동
▁일원
보다도
▁새끼
하에서
운동을
▁위치에
마뱀
▁담고
비와
▁까지
기이다
▁토너
_7
▁지칭
▁클리
▁홈런을
모의
▁행정구역
▁43
▁갖게
▁크라
령으로
▁공개되었다
심이
▁국정
▁1931
희는
천의
▁다큐
▁소리
드르
▁유력
드라마
▁구사
▁발레
▁초기에는
필드
▁소화
▁끝으로
플로
▁동서
에서부터
치기
▁일단
▁나고야
비행
▁필립
일리
현을
▁멸종
▁타워
▁후퇴
훈련
작으로
▁만들기
대신
▁콘스탄티노
등급
민은
▁번주
▁첫째
▁사건에
▁훌륭
식에서
▁자가
▁영화를
▁개명
▁관객
담을
카르
▁물려
▁감독은
보통
▁영향으로
▁군대
▁데이터를
▁정통
▁농촌
배를
사랑
▁부드
▁부르기도
▁인상
▁축소
향을
다이라
▁시가
▁집을
▁커다란
라면
의가
곡은
▁행정구
▁강하게
▁공원
결을
점과
▁목숨
▁재료
주의와
▁방송을
▁1929
로써
폴리
▁강을
▁근육
▁주재
▁의정부
▁이끌어
▁멜로
자이자
-7
란색
▁용어는
▁유전자
▁하느
▁1921
모델
체이다
▁기반을
▁발표된
▁보기
▁약탈
대부
▁연안
▁불가리아
ity
▁센트
▁루마니아
함은
▁필라
▁부르고
율은
▁정수
▁r
근혜
관계를
ew
▁발휘
▁딜
▁붙어
오로
행이
▁사다
고리
▁집안
▁메탈
▁중성
▁600
▁이론을
▁아프가니스탄
면과
▁폭력
▁또다른
▁방언
▁새벽
▁발매한
물과
편의
▁대변
▁유적
▁메트로
▁살아남
▁상황에
▁심지어
▁넥
▁르네
▁혼인
버드
▁보르
▁산하
▁1925
▁명시
▁웨이
▁코너
권과
▁시조
▁스웨덴의
토미
▁당나라
▁열었다
▁몬테
▁게르
▁김해
▁1923
▁수준의
▁남아메리카
▁문재
▁공기
▁오이
▁처음에
▁늑
한다면
te
▁쏘
▁대칭
▁막기
▁어두
▁연평균
▁정확히
▁구성하는
▁잠재
▁행위를
▁시모
▁나타난
▁가고
▁동반
베이스
살이
▁승부
▁실내
▁빅토리아
▁퀘
▁맺고
▁소스
▁곤충
▁카자
▁뮤직비디오
▁후에도
▁많았다
▁발전을
▁사이트
건의
▁세월
▁치렀다
청년
카드
▁레인
▁인터뷰에서
령은
▁상태가
문과
▁발표되었다
았는데
▁몸무
▁서명
대상
▁그럼
▁해협
▁미국인
▁반대하는
▁적도
호선의
졌던
▁성과
▁재산
▁종이
▁일본은
대사
▁영원
▁이은
▁파울
▁람
국인
▁호흡
라이터
그래
▁개장
▁그만
▁증언
▁트라
▁콘서트
▁가끔
▁오케
▁독재
▁마그
▁압도
▁허락
▁군사를
▁닮
주군
▁감정
▁판타
▁하던
▁170
▁옵
즈와
▁요금
▁미국에
▁전형적인
리코
포스
▁교사
▁스크린
임은
-8
트랙
▁민중
▁유발
▁제후
▁바이러
수도
▁트럼
▁유대인
경기에서
▁대선
▁섹
▁랩
▁관해
교도
년까지는
67
▁다이묘
▁본선에
▁세리에
up
▁플로리다
AC
▁)
▁말라
▁회사의
티스
▁이미지
▁리그에서
▁de
았지만
▁주변의
위원회는
▁관계에
▁보이고
▁도쿄도
밀한
청의
어에서
▁그려져
▁{
이면
합니다
▁800
▁사람이다
▁갤럭
▁비틀
▁소요
▁쇠퇴
▁서울시
▁마법
▁레지
▁발렌
▁올라가
▁뼈
▁않기
▁파생
▁1,000
▁동경
▁선조
▁착용
▁촉진
▁세계를
▁기여했다
자나
▁방송된
▁영향력을
▁전체를
▁동굴
▁철저
스트는
실에서
▁라이온
말로
odice
ip
각형
▁맺었다
▁안드로이드
▁구원
▁창당
적이며
▁참가하였다
층석탑
▁기하
▁특허
▁콜로
▁주목을
ED
머리
▁좁은
세기의
▁극복
▁몸길
▁의견을
▁되기도
대원
▁영혼
▁땅을
▁부탁
▁황제의
▁목포
▁북극
까지도
당에서
론과
보기
오고
▁음성
▁콜롬비아
올린
▁41
하면서도
나마
▁안양
▁클라우
주년
▁허가
부장
▁도메
▁말해
▁서방
단에서
케이팅
▁관계는
도니아
상이다
▁가시
▁토마스
기능
▁동성애
니에
▁EP
▁역사가
91
▁고안
소수
▁클로
아웃
▁감옥
졌으나
▁데뷔했다
▁않았지만
보의
해는
▁경유
▁지었다
류에
▁일곱
우스의
차에
토가
▁순서
▁운송
▁모습이
시대에
▁추산으로
▁체험
▁되었는데
▁법적
사이드
나를
▁명칭으로
토를
▁KT
▁적응
▁1922
.'
▁소형
▁건물은
▁나이에
▁소규모
▁후보가
티움
▁운항
▁삽입
▁영광
▁성과를
갔고
타와
▁시게
시스트
▁1912
이게
▁유용
ld
▁발생하였다
▁든
됐고
족을
▁받으며
▁AC
▁고고
▁무릎
▁입사
▁감사
▁단행
▁원하는
ong
문으로
▁일으킨
▁현상을
중국
▁꺼
▁론
▁성격을
▁스트라이
▁했
▁힘들
▁현대의
▁중에서도
▁차트에서
OM
▁잡고
68
▁남겨
▁스톤
▁와서
현이
▁에너지를
▁이어졌다
▁손에
▁수직
▁끈
석으로
신과
▁원년
되던
고에
▁뜻이다
▁지나지
본은
쳤고
총리
ss
▁기부
▁러브
▁무산
▁다루는
위원회가
꼬리
영이
▁운동에
도서
디스
턴은
▁규슈
▁상태에
▁설립한
▁담은
▁없지만
나게
▁매니
▁발명
▁불렀
▁압축
▁비롯해
래의
▁이날
받침
▁추락
오가
▁세력이
호쿠
▁접속
어에
훼손
▁교수로
▁한반도
▁넘겨
▁SM
▁노무
▁블라디
▁그들
▁포함된
▁거리에
▁과도
마저
▁전술
▁익스
▁1908
▁획득했다
▁죽자
▁야스
▁토벌
판의
▁Se
▁대회는
▁부상으로
보병
▁전한
북도의
였다고
▁자체가
▁히어로
칭은
▁MV
▁레이블
정도
▁모음
▁부유
▁그녀를
▁이었다
▁박근혜
계열
▁Sh
▁구로
광역시의
▁탑승
▁화폐
▁동일본
▁폐지되었다
▁밀라노
▁정도이다
DP
▁1906
내의
▁코믹
▁그랜드
▁공정
▁대해서도
러리
▁도움이
ction
ind
▁세워진
▁SC
▁5,
▁선형
당하고
▁망원
▁스토리
▁아르메
▁공무원
▁적어도
고자
률을
▁뱀
▁본명은
▁지원하는
▁모노
분은
▁반면에
▁동아시아
즈키
▁생기
av
▁전망
클린
페이지
카스
프스
▁먹는다
▁삼았다
게이
센트
▁모험
토벤
▁페이스
▁1917
▁이세
▁당사
▁심장
▁싫
률이
▁시절에
역과
▁수백
▁우라
▁유아
프란시스코
▁이행
▁기본적인
애나
▁없었고
▁1927
▁st
▁이정
▁codice
▁수반
럼비아
▁석방
▁거리를
바다
▁JR
니스트
▁의미가
터와
▁빌딩
▁심사
▁역의
▁예외
▁오리지
ES
건설
▁주니어
▁하우스
스컵
▁고리
▁곳은
란다
오리
▁석사
▁윤치
▁아무런
▁아이스
▁지대
▁포유
이라며
▁앨런
▁데려
▁코스
▁그리스도
우에
바키아
▁등장인물
▁플루
▁국가가
▁주요한
▁1907
▁결승전에서
투표
▁라운드
▁뷰
▁퓨
▁섬에
▁앨범을
▁경전
▁아울
▁빨간
▁차지하였다
▁패러
성도
▁전작
▁주거
▁57
▁독점
▁서기
▁이르기까지
기구
ame
▁맞춰
▁다큐멘
▁건담
▁중시
▁1926
령에
▁테마
▁수밖에
▁주변에
▁지역이
리케이션
▁툴
▁금강
▁상의
▁실업
▁토머스
널드
노의
▁사양
데스리가
인인
▁띤
▁히틀러
▁사로
▁장례
▁겨우
▁인물로
▁수감
▁유튜브
▁모양으로
▁유입
산에서
▁140
▁천체
▁휴대
이라면
▁이종
▁문화적
▁파트너
▁중국에서
▁재즈
건은
▁책은
▁있어야
▁자신은
▁꾸준히
치며
▁95
스티벌
되었다는
▁비정
▁테오
항은
스톤
재는
▁인증
자였던
▁그랑
▁무관
▁예로
▁연구는
▁남양
▁기능이
▁기동
AP
용은
조와
주의에
▁메리
▁이하의
류와
▁등도
▁리드
▁창간
나라는
▁마치고
▁수록되어
▁이글
년만에
▁일본인
지구
▁살았다
▁단선
▁맞추
레이드
페이스
▁파티
▁라이벌
▁공간을
▁보이며
▁배열
▁트윈
자들과
▁돌아왔다
▁밸
▁급격
▁이어져
▁가쓰
▁계층
-15
에게도
연구소
▁유니버
▁발생한다
ant
▁사촌
▁권한을
▁크로스
▁사람으로
83
마쓰
▁찬성
슬라비아
▁차지한다
ry
집합
▁들여
ith
▁실수
▁크기가
히로
▁오늘날의
ok
▁유키
류로
유산
탄을
▁라이프
▁베토벤
▁거대
▁차지하는
▁첩
▁소리를
파에
리시
▁고통
▁모듈
카미
▁감각
▁거둔
▁성의
▁도중에
돌프
▁상무
끼리
▁에스파
▁걷
▁사형
트롤
▁중동
▁곧바로
▁대구광역시
▁계곡
▁탐험
▁브레이
▁리눅
▁종로
▁종교적
ob
▁퀴
▁관하여
▁무리
이었는데
▁실제로는
▁1/
▁문신
▁평론
▁영국과
▁1905
ff
교가
우고
▁샌프란시스코
보에
▁셋째
▁BBC
▁명성을
▁가야
▁변화가
ik
보가
실에
▁메르
▁예전
▁상황이
▁아웃
생활을
▁없었던
▁조기
▁졸업했다
▁테크
▁SN
▁re
▁닌텐
▁마라
▁역사는
▁크기는
마리
오와
타나
▁남해
▁삭제
▁쿼
월드
졌는데
▁전해진다
환은
▁에릭
▁하사
▁리이다
▁있다가
▁놀라
▁플레
▁싱어송
▁갱
▁광역
위에서
식이다
하르트
▁옮겼다
학회
▁내는
▁대학에서
황후
▁황태
노미야
▁못하게
루살
메르
▁면역
▁전투는
ck
▁졸업한
▁납치
▁먹는
▁레코드
▁실시된
▁되찾
▁얻게
▁최상
▁트위
▁덕분에
▁들었다
▁음반을
▁아케
▁정부를
해지고
81
lu
든지
▁배급
▁지표
▁추대
PS
▁락
▁긴급
▁병력을
▁한국인
▁54
▁호남
▁불리며
지방법원
▁외계
▁별로
▁결과로
▁부처
▁매각
▁NHK
▁참가하여
▁박쥐
▁합리
▁사이를
▁카메라
▁크기의
▁An
▁무인
▁교향곡
▁브라질의
▁지역에서는
▁방위
▁이수
▁축제
병으로
르바
심의
▁합동
▁등장한
▁아래의
▁동영
▁서북
▁흰색
개국
one
졌지만
편을
▁두드
리크
▁사과
▁바람에
실한
온의
족과
▁돌파
▁오염
▁사용하지
▁비로
▁타입
▁학사
▁이용하는
▁결심
▁중립
▁드래곤
▁마카
▁모래
▁살펴
▁순수
▁중지
▁크림
루살렘
▁웰
클럽
앨범
▁()
▁레벨
▁갤럭시
▁오리지널
qu
피를
▁만난
▁초상
▁하다가
구리
▁대단
▁왕립
▁대한제국
▁섬식
▁제네
▁도시를
▁입단했다
▁브로
▁크리스토
▁그럼에도
▁빗
▁동시
▁초래
우옌
▁풍부한
병원
▁사제
▁뚫
청이
▁거친
▁직무
iv
▁고가
▁향년
▁베네치아
플러
▁빵
▁때마다
▁딱
복지
연은
▁곳을
▁펄
사상
▁걸려
▁붙잡
데이트
▁회색
화하는
루미
▁대만
▁110
▁적절한
▁효과가
▁역전
▁마스터
고등학교는
졌을
▁생각을
▁딴
▁시달
▁주말
률은
▁삼아
▁요미
▁대회이다
ate
▁대승
▁오디션
▁Love
▁칙
▁마시
▁브라이언
▁싱어송라이터
진흥
▁모로
▁유물
▁이지
▁되었다고
IT
▁카페
▁개발을
▁방법이
▁세계적인
▁유인
▁지바
▁의거
▁입증
▁캡
펙트럼
▁버지니아
장군
▁사이클
소리
▁리듬
▁뤼
▁색깔
▁시를
▁옛날
▁참모
▁간섭
학과를
마루
▁습격
▁죽고
▁추적
챌린
▁작전을
▁아들이다
▁레닌
▁정권을
▁나이트
▁않았던
▁약간의
하겠다고
슬림
▁필요로
기획
▁인류
▁참조
▁획득하였다
▁중화인민공화국의
목은
▁게시
우치
이즈
▁올린
▁1904
▁때문이었다
▁해병
▁마쓰다이라
▁나의
▁모임
전에서는
팀이
▁밴드의
▁전승
▁공룡
▁의미로
▁집에서
▁다음으로
▁강수
▁프랑스는
300
▁가사
▁법무
도서관
▁명단에
▁연락
▁문화를
나고
▁세계에
단계
▁유닛
긴다
▁지질
▁국경을
재의
▁자전거
▁일어난다
▁제공하고
클라
▁규모가
ET
▁흙
▁85
▁특성을
급의
▁수록곡
▁스페셜
▁클래식
자였다
▁것이고
▁밖으로
▁음악가
▁탄소
지기도
그로
들인
등에
▁유성
▁혁신
ord
▁벨라
▁세우고
습을
▁사진을
▁가미
▁두려워
▁진출에
▁봉해졌다
방에
보면
▁폭격
▁한화
▁49
▁분산
▁않았으며
▁시간에
66
테스
_10
▁스마트폰
▁크리스티
▁변신
▁모습으로
▁램
▁근로
▁대지
▁물이
▁자세
자이너
모니
▁미분
▁전의
▁방향을
▁Go
▁인텔
▁가능성을
▁운반
▁못한다
▁문화의
▁유럽에서
▁도시는
▁프랜
▁입었다
▁유고슬라비아
▁행정구역이다
▁관심이
바이러스
공학
사고
▁연설
▁외무
▁명칭이
▁공식적인
브를
음은
▁타원
▁입대
▁모델로
▁접하고
▁밀접
▁대회를
▁코리아
▁본토
▁일대
▁상영
▁스승
▁아나운
▁원자력
ast
▁홀로
▁아우구
▁엔진을
▁뒤로
▁레이다
▁굽
▁가득
하였을
▁계기가
▁압박
▁퍼져
▁과거에
파크
▁기용
▁예루살렘
▁부분에
연한
전한
▁진단
▁길이가
▁말하며
▁커뮤니티
▁읍
▁전체적으로
▁설치되었다
▁수익
▁130
▁활동에
스포츠
▁총선에서
82
▁극단
▁기구
▁미치는
▁아직도
▁눈을
▁모르
▁미국이
▁이루어진다
체에서
하라고
▁들어간
▁자료를
글로
작가
화학
면서도
▁과학적
▁냈다
형과
▁소위
▁친선
▁프리미어리그
닉스
론적
▁막을
▁공동으로
둥이
시절
▁지원한다
▁타이틀을
ort
▁신분
민이
회로
부사
▁산악
▁지정되어
더는
▁자유를
▁고립
▁청동
권으로
된다는
▁활동한
▁동기
▁장갑
속으로
고한
▁고교
▁구상
▁모순
▁옹호
▁전원
▁내용의
제품
▁우익
로미터
▁은퇴한
준은
초의
▁아베
년으로
84
▁범주
▁호르
▁다룬
▁비스
▁하노
▁서식지
▁이야기가
▁탱
▁뿐이다
▁작품이
▁다녔
▁지방에
런스
뱅크
▁선두
▁아비
▁우루
환의
▁못했고
등한
▁말은
▁현급
▁랭킹
▁앱
▁했다고
▁운동의
액을
▁계획은
▁흐르는
▁깊이
▁아니고
▁서식한다
바나
▁벗어
▁51
직에서
민족행위
▁가요
▁피렌
▁관련하여
▁날개
▁이명박
▁전염
▁동맹을
▁!
현에
▁가공
▁MVP
▁형성된
▁스펙트럼
▁센트럴
▁비잔티움
▁시대에는
▁돔
방이
▁간에
▁브라우
린이
의에
▁벌였다
▁고시
▁보인
▁두번째
▁보살
▁일환으로
간을
다니
▁개성
▁조약을
▁가라
▁존재를
▁업데이트
▁가해
경으로
▁경험을
▁영주
▁입문
나라를
▁부통령
▁지내고
▁지연
▁포맷
반의
▁찾는
미와
▁연계
▁점성
조판서
▁무슬림
아를
▁52
▁미네
▁분포한다
▁유지하고
77
▁애플리케이션
▁임신
▁전향
▁티베트
작을
아프리카
▁반사
▁퍼시
▁베이스볼
들과의
▁케이블
▁낱
▁성공적으로
▁역이
▁분야의
▁서일본
랑이
롤라
전기
▁이곳에
▁이적했다
▁메가
▁정류
▁챌린
▁기타리스트
▁가면
▁심한
▁쓴다
▁서쪽으로는
석에
▁사격
▁이라는
▁험
가루
음의
ure
▁미얀
판으로
▁인간이
하가
▁애국
▁패턴
▁시호는
작은
타임
▁스타일
▁엘리자베스
▁료
병이
▁책봉
▁아울러
본이
커스
▁동치
▁원로
▁대학원
▁튜
▁활동이
▁왕위
▁제도의
▁발생했다
▁이곳에서
▁점은
▁호환
계올림픽
조약
▁66
▁SF
▁HIV
▁당선되었다
토스
▁전두
▁첫번째
▁DJ
▁재발
▁남쪽으로는
▁네덜란드의
금은
중은
▁페이지
▁마르크스
▁당해
▁합계
▁빨리
▁자바
▁AS
▁측은
▁스타크래프트
되었기
▁1896
▁무선
▁양식
▁결과는
▁미시
▁이치
▁내지
▁기록하고
▁내륙
▁계획이
▁고등학교이다
히고
▁어드
▁목숨을
▁UN
▁아니었다
▁별도로
▁동쪽으로는
통일
▁발효
ock
▁올림
▁결과적으로
▁오스트레일리아의
▁문화재자료
현악
▁국토
의원
▁남한
▁댄스
▁좌익
▁우리의
글라
▁김동
▁175
▁구간은
▁되었으나
함으로
금융
▁설이
▁승차
▁항구
Pa
업이
으려
출을
미디어
▁결과가
▁시스템은
▁모양을
▁차이를
네는
마자
▁수천
▁간단한
▁관광객
▁스카이
▁짙
▁과학자
▁우수한
디의
칸센
▁성벽
▁없기
년은
말을
▁아트
재가
▁신장
▁옆에
▁루트비히
▁빌헬
▁야기
▁확인할
▁연애
▁일로
▁후기의
▁데뷔전을
▁하나님의
식물
▁거기
▁해제
유키
▁장편
▁당의
▁대조
▁선제
▁정벌
▁아들을
▁보좌
▁250
▁항공기
▁쏟
실록
▁배정
▁피난
▁시마
▁우승에
▁전체의
▁막대한
▁이외에
석과
수아
▁He
▁잃고
▁나선
▁예능
▁들어와
▁자이언츠
▁잊
▁이토
▁선거에
▁막아
▁바티
▁발족
▁진술
▁결정했다
▁스틸
박물관
▁이스트
▁일본이
션을
유로
▁전임
▁결정을
▁학교를
왔고
▁고성
▁사령관
음에
▁My
▁월간
▁폐기
백과
팩트
▁메디
산군
▁디젤
▁밀양
좌상
▁구마
▁경계를
▁낳았다
▁등이다
▁배제
소송법
▁그동안
ML
악의
▁어릴
▁준공
▁이승만
▁일본어
스테이션
변을
▁정원
▁현의
▁노선이
▁간다
▁재단
▁리그에
▁얼마나
▁지어진
▁추가되었다
▁고베
▁모집
▁협상
▁이익을
▁국가에서
▁로빈
▁마천
▁데리고
▁위기에
▁톨
곡이
▁재위
▁호수
▁활약하였다
부문
▁후의
▁당했다
피는
▁버리고
▁요구하는
리타
수산
▁아가
▁용산
▁디자이너
▁간접
▁이오
▁주파
▁리가
▁백인
▁성균
▁이자
▁나라를
토시
▁구간이
▁지역과
트르
▁가질
▁쿠바
▁경력을
▁된다는
▁무료
▁미하
▁최신
디에
발의
▁초창
반을
▁대우
▁필라델
지대
▁여왕
▁적색
니까
지사
▁출현
▁통화
▁쪽으로
▁북쪽으로는
편이
▁ST
▁브래
▁어항
▁아르메니아
용이
74
먼은
▁모니
▁사카
▁탕
▁빛을
▁훈련을
▁적을
▁현황
시켰고
▁독자적인
▁자손
▁담당하는
안군
터로
버스터
▁주장이
▁지방도
▁감독이다
▁찾을
▁힌두
▁천황의
▁싱글이다
▁북한의
▁열차는
▁떠난
▁최근에
▁미카
▁적대
▁힘이
그리
바야
▁스콧
▁휩
▁타운
▁히가시
▁기재
▁신사
▁황후
▁말하고
▁지역이다
▁쿨
▁콩고
▁돌아오
▁능력이
▁있으면
▁소속되어
과도
바시
▁서독
▁푸른
경기를
▁인물이다
▁많고
▁AM
▁열어
▁청와
▁몰락
인들에게
청을
▁조용
▁시드니
라미
저는
블로
▁타율
▁노르웨
▁앨범은
인조
▁초점을
장한
▁항해
▁이복
▁일렉
안으로
▁깔
림을
▁영감을
OC
▁수단
▁주제로
▁직접적인
▁출전했다
문관
오르
▁원래의
▁일원으로
▁순천
▁한양
▁아니며
편에
ime
▁두산
▁야생
▁언어로
▁응우옌
▁자리에서
▁꺾고
▁충격
아와
▁급진
▁인근에
▁개최되었다
io
▁흩
▁서브
됐으며
▁편지를
업에
▁끝났다
▁마리오
▁얇
우드
▁오렌
▁원형
▁개념은
▁테일러
하러
▁달아
▁마산
▁않도록
▁충분한
▁동남아시아
유는
코가
▁값을
▁발라
공이
연이
회와
▁여의
▁*
▁Un
세스
▁디즈니
▁이론은
▁믹
규칙
▁군대가
▁그룹의
목의
▁게임은
ib
금이
중심
ack
▁예언
▁주식회사
▁곁
▁대결
▁뒤인
▁전성
된다고
▁중심지
ge
▁폼
밀리
▁대외
▁우리나라
▁하천
▁최종적으로
대학원
진과
▁연루
▁네이션
▁사적
▁곰
투쟁
후보
성한
▁두드러
주인
▁대로
▁법학
▁비평가
▁정도가
범죄
▁메모
▁젤
▁곳곳
▁왕실
▁굉
▁군대는
▁발전에
▁모델이다
▁못해
▁없애
▁문재인
▁해적
▁근거로
▁마케팅
▁사용을
▁신칸센
▁여동생
▁플라스
MS
▁계열의
▁일본에서는
▁달의
▁비극
▁온도
▁적의
▁전투가
리자
▁나열
▁소나
▁페루
성이다
▁아파트
▁교과
해진다
▁어워드
▁중이던
군사
▁서남
▁700
▁자격을
▁있습니다
▁국가를
▁덴마크의
르와
▁말할
뉴스
다리
어스
▁불리기도
▁조선총독부
61
▁대답
▁보잉
▁비즈
▁목적은
▁1911
▁당한
▁사용해
▁슐
등록
란의
▁때도
▁여론
▁상태이다
커는
▁코치로
▁좋아하는
시타
▁제휴
▁보여주었다
▁현존하는
▁본격적인
▁겸임
▁쟁
공동
소한
▁이원
▁중력
▁착수
▁동지
▁주니
▁사로잡
▁잘못된
▁프로토콜
▁트레
▁않는다는
▁4.
▁와카
▁하나를
건이
나미
번호
즈카
▁복수
▁지배를
▁한국에서는
▁머무
스테르
▁있다면
경과
▁포인
▁전투에
▁화려한
▁활성화
산맥
▁53
▁군을
져서
▁삶의
▁인조
▁착륙
교회의
명인
조정
프에
▁종전
▁시기의
▁y
스틴
▁친척
▁후한
▁경고
▁주어졌다
▁결혼을
▁대신에
▁제국이
▁인생
▁연구가
▁젖
금의
분야
▁여덟
▁주립
▁해군의
▁사람에게
온다
▁임상
▁일본군
받지
▁구름
▁지목
▁머리를
▁불만을
▁지지하는
차별
▁취약
▁타카
디아라비아
도사
▁목격
▁하와이
▁후반에
적이었다
패로
▁사장
▁다이아
▁물리학
▁방식의
▁샬
역사
▁요소를
▁판타지
란을
증이
톤의
▁선진
▁이순
▁달러를
▁졸업하였다
ud
▁번뇌
▁오세
▁카자흐
▁특수한
▁맡았으며
렸던
▁한강
▁가지게
▁시스템의
행은
▁남긴
▁원산
▁기술이
▁공략
▁말한
▁다음이
▁생각했다
▁윙
▁내내
▁약한
▁충남
▁기업의
있고
▁박영
▁언어를
▁전통적으로
즈에
▁에우
교로
▁무늬
▁부흥
▁산타
색이
▁빌리
▁구조의
ph
고속
시피
▁엔터테인먼
▁북쪽에
▁시간은
▁역사적으로
▁아서
▁내부의
▁내장
▁한신
▁관점에서
▁남아있다
▁PS
서이다
선수권
▁지중해
▁구체적인
▁발견했다
▁시작했으며
▁다가
▁게재
▁귀환
▁애틀
년대부터
▁사용자가
iz
검찰
▁민주주의
수엘
▁실패했다
▁제약
▁충족
▁훌륭한
▁프로그램의
제이
팀인
▁미스
▁포크
▁이처럼
▁프레임
▁컸
▁로맨
▁때때
▁마친
▁주문
▁후보에
▁사이에는
▁조치
▁풋볼
위원회의
▁가능하게
▁항일
62
72
민당
쪽의
▁거슬러
▁포함해
▁맞는
▁술탄
▁커피
▁바꾸었다
▁다큐멘터리
▁서서히
▁응답
▁현상이
보통학교
▁말하였다
▁반환
▁맞게
▁비가
▁승리로
▁영화로
▁닐
관찰
이사
▁악화
▁평생
▁음반의
EN
켰다
▁제국은
▁바이올린
렀고
▁58
▁구미
▁바가
▁복구
▁태조
▁피에르
▁방면
▁실용
곡으로
동에서
중에서
▁의원이
▁가즈
▁막부
▁밖의
▁오디오
▁김태
서에서
▁전쟁은
▁굵
과로
온이
▁기생
▁시대를
▁옐
▁수록된
▁일찍이
▁페스티벌
▁규제
▁섭취
▁칩
▁IP
▁법원
▁주와
▁강점기
견을
병의
▁디아
▁손상
▁융합
▁88
▁무력
▁재무
시즌을
▁프로그램은
4,
니를
저스
터에
▁무려
▁측근
진에
▁해임
태평양
▁연고로
▁위치하며
▁사우디아라비아
▁굿
플라
▁리얼
▁165
▁무대에
물질
▁목조
▁목적을
▁시작해
였기
▁베타
▁일부로
▁조사를
티에
▁착공
사추
직한
포는
▁서경
▁뒤에는
▁르네상
겼고
자이며
▁형태가
63
테쓰
백을
하니
▁마찰
▁시집
▁퇴각
▁마케도니아
▁대서양
▁조치를
▁치료를
기관이다
71
우와
▁자식
▁꾀
씨와
▁햄
작품
▁토마
▁하버드
색은
▁어두운
▁어렵다
▁현장
리스토
▁다루고
▁일관
▁방식은
▁성공적인
▁이영
▁민속
▁중계
▁희극
▁디비전
▁1909
론에서
▁본선의
▁유년
▁중앙에
▁친일반
▁1500
레의
:00
▁무라
▁피부
▁최후
▁트럭
▁정의할
▁제조업
▁항공모
개는
네의
▁99
▁교섭
▁저택
▁합법
▁라틴어
▁스파이
포트
▁레전
▁늘어나
▁곳이
르를
▁또다시
▁체제를
▁끝이
▁마음작용
▁활약하고
슨과
원의원
▁따르는
▁때때로
▁명예의
소스
▁드림
▁박탈
▁떼
미에
▁사상을
▁연구하는
▁샹
버러
천을
age
▁이르고
▁가능하며
▁자유롭게
▁무신
라이트
▁대주교
분교
▁ISO
▁유소년
▁방영되었다
▁위기
▁피에
내에서
69
▁병력
▁성은
▁집계
▁피고
누리
▁개원
케이션
형태
▁단층
▁연혁
▁이슈
▁노선은
▁미스터
▁철학자
▁토대로
▁부정적인
▁공용
▁추모
▁비공식
▁유니폼
수사
제프
초에
▁김용
▁동화
▁정찰
▁채로
▁최저
▁펜실
▁MC
▁성질을
세츠
▁목록은
▁속도를
차전에서
▁규정하고
▁템
모로
브는
양군
▁세로
▁알라
렸을
측의
▁끊임
▁의장
▁쿠르
▁82
▁주한
▁프랑스에서
orld
▁도로이다
반응
팀은
▁반지
▁남쪽에
▁한동안
▁바그
▁부패
▁중구
가스
오를
있으며
▁진정한
열이
▁죽을
▁제목으로
79
▁펴
▁들은
AD
생산
▁기호
▁이마
▁각기
▁보상
라이더
▁약물
▁개발된
▁사용이
▁한국방송
▁회의에서
▁오가
▁캘리포니아주
▁얀
▁군사적
▁기록에
▁물리적
타케
▁전당
▁바위
▁털이
▁곡으로
▁관계로
▁면에서
▁선수이자
로동
▁세균
▁사육
▁안티
▁오고
사령부
▁운동이
▁조직의
▁근접
▁고조
▁이리
▁출력
▁발견되는
작전
▁아르헨티
두는
▁공무
▁차남
▁향한
▁과거의
▁무효
▁부품
▁리메이
철은
트리올
▁미나미
▁받기도
▁속도로
▁파리에서
II
▁고도
▁흐름
▁흥행
▁김영삼
▁카이사
카를
▁진도
▁구조는
▁없으나
▁스테이지
해방
▁선을
▁수치
▁윤리
▁CPU
▁버전은
▁빌헬름
▁포인트
여객
▁여수
▁주에서
▁보여주고
몬드
▁동메달을
츠와
츠키
▁갑작
▁무용
▁장면
▁흔들
▁득점을
▁신라의
▁구체적으로
▁동구
▁상임
▁포괄
▁학부
투아니아
인명
▁실험을
▁플레이어
▁필라델피아
공은
▁재편
▁훼손
▁연방의
코드
▁외의
▁사고로
▁오스트리아의
원군
▁도심
▁금메달
▁에스토
란이
▁MP
▁팩
▁내외
▁복사
▁얻는
▁역과
▁그림을
님이
▁부른
▁양도
▁특급
▁Pro
▁근처의
▁달러의
▁작품에
▁친일반민족행위
▁동독
▁보내는
년대에는
종과
▁세워졌다
▁롬
▁땅에
▁때로는
▁원리
▁사실은
아메리카
▁Ar
▁둘은
▁화면
-21
int
▁럭
홈런
▁사용하며
▁룩
금으로
상으로는
▁나가사키
▁대전광역시
과이
디가
았을
한을
▁점유
▁거기에
▁광범위한
▁몸무게는
아키
훈은
▁공학
▁반박
▁안타
▁거주하는
▁선언했다
▁얘
▁수신
▁스릴
▁우즈
▁찾아가
우며
▁길고
열의
▁꿈을
▁형식을
ov
▁껍
수수
▁대폭
▁살던
▁심판
▁카탈
oy
메라
▁오키나와
▁맡게
▁은메달을
▁건의
▁주축
▁학자
▁출시된
▁회사는
▁보충
▁부착
▁별의
▁보니
▁석조
▁사용하기
란트
해주
▁위안
▁의지
▁추증
▁왕으로
▁중심의
자원
주년을
▁소재로
▁한국에
▁황제가
▁공전
형이다
▁에스파냐
숙한
▁급속
▁사르
받는다
음으로
치면서
sp
네스코
심한
▁자발
세에게
▁둘러싼
▁후보를
▁강이
▁낮아
▁무죄
▁캠페
▁부르며
▁창업
브리지
▁후지와
▁1915
▁알려지지
▁제주특별자치
그는
연속
▁침해
▁원자로
▁임명되어
her
▁IT
▁군은
▁뿌리
▁안의
스트의
▁폴란드의
▁라트
▁법을
▁석탄
▁진영
▁캄보
▁기온은
▁발매했다
▁모시
▁얻기
▁팽창
내셔널
스에게
▁네이버
▁몬트리올
▁68
▁모드
▁시로
▁다니엘
▁트라이
누엘
바흐
▁빛의
▁DS
▁세대
▁의원은
▁특유의
간이
내기
▁공의
▁좋다
▁창시
▁아니면
▁일본으로
▁학생들이
▁왕위를
▁영국은
▁과학기술
▁곡의
▁기요
▁사직
▁신흥
강점
시민
▁급행
생으로
▁노래는
▁형식의
곡의
▁개업
▁싫어
▁침몰
▁케네
▁풀어
▁건너가
▁관통
▁시그
▁중순
자리에
▁특징은
▁도구
▁성공한
▁알바니아
▁베네수엘
▁이듬해인
OP
매치
사항
▁실종
▁펀
불교
▁이바
▁멤버로
▁돌아갔다
▁서울에서
란은
주일
▁사기
▁정부와
▁3000
GC
▁이인
예프
▁부천
▁전부터
▁그러자
▁원작으로
▁과정은
▁5000
▁따뜻
▁자율
▁전한다
▁민주화
▁1913
▁분광
▁이나
▁풀려
▁노력을
이었다고
스러
▁서머
▁수수
카라
▁감지
▁양키
리아는
어진다
▁안드레
▁소닉
▁끝나고
▁리버풀
▁발생할
▁아이를
런트
▁명문
▁지각
▁보스니아
▁토너먼트
▁시라
▁운행하는
터스
~19
▁유신
▁출토
▁전세계
▁진출하였다
미로
▁사료
▁시작하는
▁요르
▁클린
▁스리
▁셈
▁정확하게
▁장의
▁향을
▁스파르타
목이
위대
ian
▁""
▁삼고
▁신용
▁된다고
▁배틀
▁사천
▁성씨
▁작고
▁캐스팅
스파
▁이광
▁하야
▁의견이
▁잠수함
▁삿
격이
▁개관
▁짓고
거는
▁필름
▁1.5
▁특이한
▁유출
▁증권
▁언제나
▁비슷하다
▁하인리히
▁물에
▁평행
▁들어가는
설이
ome
▁링컨
▁배를
▁독일에서
▁번호
▁파운드
▁비즈니스
▁프랑스와
▁세미
▁줄어
▁하얀
중에는
능력
▁일조
▁차례로
경영
퍼스
-11
▁강경
▁김재
▁김진
▁쓰인
▁에디
▁경우를
▁인정받아
▁아폴
버는
▁하였는데
▁설립하였다
73
▁닿
▁발견한
▁일제강점
IM
▁톈
▁72
▁교외
▁안산
▁1895
자연
▁창건
▁생기는
▁재산을
처리
▁기체
▁섬을
학위를
▁아틀레
▁생각된다
▁분데스리가
▁닥터
사추세츠
400
▁관직
▁컨트롤
▁이미지를
어이다
▁집으로
▁연속으로
,8
박스
티의
▁아이슬
▁정교회
▁조직을
~3
▁등재
▁건물을
▁모델을
▁점이다
▁제외하고는
▁조반
량으로
▁밴드는
▁시작되어
▁잃은
▁리눅스
▁분리되어
너의
▁PD
▁고분
▁의병
▁일으키는
▁걱
▁도호쿠
▁전쟁으로
▁지속적인
▁홈페이지
▁디스플레이
▁달린
▁못할
pp
▁텔
희의
▁명백
진으로
▁라이선
▁소속이다
▁제작되었다
,0
▁헐
번을
풍을
▁에버
▁지냈으며
▁함유
▁레이저
▁영역을
▁판결을
▁죽이고
레를
▁왕족
▁남부의
▁지금도
ire
▁라스
▁호세
이라도
▁방송국
하였다는
스카야
번뇌
티모
▁스핀
ee
▁객관
▁다중
▁당대
▁부과
?"
▁페어
하우스
▁누르고
▁모두가
제국의
▁그렇지
▁운행을
▁일했다
▁정책에
▁어려움을
▁팔레스타
▁형법
▁이틀
▁중독
▁시기는
▁않았기
▁역임한
▁전에는
▁하거나
생이
인들
▁기록하여
적에
▁며칠
▁밝혔
▁서해
▁평등
-17
▁이화
OV
▁이반
▁트레이드
▁사용될
▁허리케
▁분류된다
:1
▁알코
▁바꿔
점이다
▁거리가
▁우연히
트니
▁낙선
▁중심이
스부르크
▁컬럼비아
르노
초를
▁다녀
▁싶어
▁시즌에는
▁꽤
있던
▁번식
리면서
법인이다
러가
소방
층은
-12
▁두루
▁식별
▁독일은
기준
▁형태는
실과
▁59
▁갓
속을
아리
치료
▁느낀
▁신비
▁죄를
▁평소
가에서
지붕
▁약화
▁동물의
▁선거를
▁분배
▁제갈
▁좌파
▁대처
▁알제
▁친정
지나
▁화살
▁스릴러
무기
학교에
▁진출했다
민을
▁날짜
▁관현악
▁유네스코
선언
▁액체
으로의
▁지방에서
▁리스
▁써서
▁아즈
▁용이
▁의사를
▁외곽
▁촉구
▁고무
▁몰려
▁건물이
▁멕시코의
▁총선거
▁교구
▁미토
▁백악
▁염색
정부의
▁Con
▁지명을
▁가벼
▁영남
▁아이템
▁설립했다
손은
▁추상
자본
▁관습
▁장난
▁체계를
▁뉴욕에서
책임
▁77
▁GT
▁수평
롤라이나
▁시나리오
▁언더
▁엉
주곡
타니
▁on
▁팀에
▁포로
▁할당
바이잔
▁식으로
기기
▁무소
▁안장
▁호칭
시까지
▁만화가
▁영향력
▁차지한
▁여기에는
▁이루었다
ace
▁스쿨
▁목표를
▁일어날
▁퍼시픽
▁성립한다
▁프로야구
▁잦
마사
마치
범한
왕에
ber
소이다
▁확인되었다
고도
▁고지
▁수렴
▁들어오
▁소수의
▁투르크
▁리메이크
수인
시노
▁해인
▁주제가
▁중기의
보도
▁지폐
▁차기
▁마이너
▁이력
▁나이지
▁트랜스
▁자신에게
▁원내
▁155
▁한계
▁분야에
양은
▁멈추
▁일에
▁후안
화하고
▁긍정적인
자도
▁있어서는
▁친일인명
마와
주식
▁불을
▁상원
▁145
▁검증
▁신하
▁회담
▁시작된다
▁광주광역시
▁아이슬란드
▁쫓겨
▁출전해
▁CE
▁김포
▁위협을
제르바이잔
▁미치
▁애덤
단이다
▁맡았고
▁에티오
▁비례대표
에너
▁바실
▁스티브
▁관람
▁마오
▁아벨
▁출연한
▁활동은
사우루스
러의
▁바닷
▁전세
▁모델은
▁대통령을
▁조건으로
▁닭
파일
환이
▁내고
▁치열
▁과정에
▁하드웨어
▁대니
▁상세
▁나갔다
▁라이언
OL
▁고발
▁고려의
▁맞추어
-16
ust
!"
▁전신
▁미국에서는
▁뜻의
▁외야
▁입체
▁전례
▁총괄
라리
전사
▁쉬운
▁영동
▁교도
▁내야
▁루스
슈타인
식품
투를
▁소총
▁향후
자리를
▁거주하고
도비
▁후일
분석
예를
▁요크
▁NC
▁듯한
▁비단
▁숙종
▁어울
▁기념물
▁일어났
올로
▁동래
▁되었을
▁사회에
행의
▁내보
▁했다는
▁수행하는
▁준우승을
결합
▁주를
화하여
▁부문에
▁속도가
▁밟
권도
▁복지
▁국가에
▁칼리지
▁후쿠시마
AL
고쿠
▁메타
▁종결
▁아래로
▁한국전쟁
▁것인
▁공직
▁건물의
▁스튜어
▁영화에
SS
▁제수
학자인
▁국가대표팀의
받을
실험
▁구리
▁봉사
▁부를
▁식량
년간의
▁속으로
▁키프로
비나
▁엔지
▁종의
▁스피드
▁붓
자스
ite
▁비서
▁수업
▁이노
▁공사가
pt
▁광산
▁신생
▁편리
▁다음에
▁진행된
▁상징하는
▁기갑
▁김상
▁되었지만
▁둥근
▁여행을
▁비슷하게
▁레전드
사태
▁엘리베이
▁자본주의
천은
▁공채
▁쇼핑
▁중도
▁대회의
일드
▁바뀐
▁아세
하였기
▁간부
야가
▁매출
▁리비아
▁이곳은
▁걸어
▁게오
▁나아
▁장로
▁가난한
▁개혁을
▁만났다
공립
돌이
▁선교사
IP
▁돌연
▁작센
▁조항
▁탓에
▁무거운
▁볼리
▁시는
▁마이크
▁움직이는
▁글리
▁열고
하겠다는
르지
해와
▁기지
▁끌려
▁범위
편으로
푸르트
▁작곡한
▁행성의
▁화제가
바닥
▁왕비
▁통근
▁기록된
시내
포의
타리오
호선은
▁실시간
▁오렌지
▁측면에서
▁전인
우주연
▁제품을
▁지어졌다
▁끓
▁훔
질은
▁쌓아
600
▁단종
▁로열
▁교수는
▁지점에
▁진나라
▁남아있는
▁강제로
산성
▁내린
▁누군
▁신속
▁급격히
▁지나치게
그레
▁FM
▁계절
▁들이
▁버튼
십자
유적
.25
▁격퇴
▁은퇴를
▁어려움
▁자신과
▁동년
▁찾기
▁NBA
▁개발에
▁공간의
▁애틀랜
▁63
철도의
▁도움으로
▁조상
▁시즌의
▁뿔
노프
▁소환
▁재활
▁소유하고
학이
▁군수
▁극히
▁숨겨
▁사랑의
▁1916
▁토니
▁결과에
▁라우
▁공동체
▁공화당
▁십자가
각이
석기
▁드럼
▁어휘
▁김대중
▁성모
▁통칭
▁해운
▁봐
▁김수
▁폐위
이었기
▁대학을
▁마음이
▁승강장은
▁손자
▁시칠
▁구조로
▁조문이다
▁거론
▁병행
로니
▁관중
▁군에
▁받기
베르토
▁받았으나
▁꼴
클랜드
▁코무네
결정
레아
질로
▁실린
▁미주
▁중소
▁보한다
▁있었다는
망이
크리
▁||
▁히데요
▁첨가
▁정이다
▁선수들이
▁지혜
▁전자기
▁설치류의
▁않았으나
▁이상으로
▁김기
▁채권
▁인물을
▁참여하여
▁전념
▁진동
▁참가하고
▁휠
▁의뢰
▁대법원
하였다가
▁앓
일간
▁선구
▁옷을
▁일도
▁증기
해왔다
▁노무현
▁HT
▁리치
▁매카
▁IBM
▁동명의
▁참가하는
▁강과
▁깨달
▁매개
▁전선
스트를
~20
▁시절부터
▁일시적으로
,5
▁막내
▁서사
▁신규
▁오하이
▁치러진
▁매사추세츠
빈은
음과
▁성당
원들이
하려면
▁기간에
▁나섰다
▁아버지와
소득
ies
▁남원
▁신념
▁것에서
▁할리우
고래
턴의
▁부장
▁좌절
▁선거구
▁Wh
▁전제
▁줄기
▁진짜
▁나타낼
▁활발한
▁왕자
▁니콜라
▁페르난
▁Te
▁정렬
래스카
일에서
▁곡이다
▁나이가
▁문법
▁전체가
포가
▁실려
▁인플
▁해밀
▁페르디
▁플레이스테이션
▁찌
미국
운트
톨레
ran
▁눈이
▁닛폰
▁로즈
▁오빠
▁장려
▁끝까지
HE
길을
전도
해군
▁권위
▁소설을
▁에이스
▁작위를
▁아니지만
▁날아
기관으로
▁군단
▁힘입
▁성공하였다
▁모방
▁직선
▁일컫는
류이다
▁교수가
,7
서울
야를
_8
산면
▁전진
▁주석
▁헤드
때문에
원들은
해지는
▁드러나
▁주장하고
하우
▁손해
▁평택
▁아마도
▁휴스턴
▁학교에서
▁활약했다
감에
ark
▁오오
▁치명
▁해주
▁생각하는
▁낼
▁노비
▁좌표
▁차가
▁시설이
문제연구
▁실질적인
▁아사히
▁나라에서
자책
▁개화
▁구조가
▁아제르바이잔
▁현저
▁새겨져
for
▁th
▁보전
▁쓰이고
▁중요하다
바스
▁왜냐
▁평창
▁라트비아
▁사헌
▁방법이다
대교
터미널
▁데이터베이스
▁임기
▁진정
▁영상을
란히
▁딸을
▁말기
인치
▁먹고
▁비오
시부터
_9
극장
쟁이
청에
▁소실
▁영의
▁조금씩
▁활약한
동시
▁소니
▁넣었다
셰비
▁아인
▁주소
▁피어
▁요소가
▁결혼했다
림이
서도
▁발원
▁이에야
▁스케이팅
목적
보안
주쿠
▁거행
▁계몽
▁곡이
▁굉장
▁CON
▁공사를
▁별다른
▁등장했다
▁우승하였다
▁매달
▁목사
▁잭슨
▁여성이
▁레논
▁맞지
▁한미
▁관리하고
▁우울
▁유격
과정을
▁본사는
▁충격을
▁계획에
▁생각하고
▁춘천
▁연구소
무스
▁SP
왔으며
▁각본을
▁그레고
▁대학에
▁참고로
▁관장
▁그중
▁놓은
▁주차
▁한쪽
▁부분적으로
풍의
회담
▁It
▁쇼와
학적으로
안타
▁존중
▁해를
▁다리를
▁만나게
▁성균관
헤이
▁Co
▁검은색
▁음악의
▁울산광역시
▁옌
채를
▁다항
▁부대를
▁담당하고
▁정부로부터
MA
▁문장
대한민
▁게이트
▁교차로
▁웨일스
▁경비
▁프랭크
▁인정하지
각은
약품
▁개그
▁안쪽
▁정면
▁의회는
▁별칭
▁회고
▁운동은
▁일요일
구성
inc
▁펜실베이
ft
정당
▁섬은
▁하락
▁협의
▁조선인
니시
회장
▁물고
▁총재
사리
일체
▁비평
▁시흥
▁부동산
강전
브의
▁나쁜
▁학자들은
봉을
▁국방부
버스터미널
FM
▁이진
▁평면
▁바꾸어
▁알렸다
▁중심기압
▁경기에서는
층이
▁LP
▁딘
작의
▁바른
▁유언
통이
▁98
▁나눌
▁사토
년동안
짜리
▁구릉
▁배구
▁연호
고등학교를
▁보완
▁충주
마르크
시에는
▁서쪽에
▁양식을
nt
카타
▁부적
▁육성
▁최후의
▁요미우리
려서
▁상상
렸으나
▁문서는
▁탈환
체제
▁코트
▁경험이
▁군대의
▁승인을
링은
▁만의
▁정리한
번에
▁불교의
▁영어로
포구
ile
▁사이가
당하였다
▁멋
▁2.0
▁새누리
리라
▁트루
▁환원
▁부대는
▁프랑스어
▁솟
방은
▁시켜
▁장학
▁쓰였다
▁햇
▁야간
▁경제학
▁단위로
▁선수를
▁탤
벤처
▁상반
▁덧붙여
▁세계대
▁진출을
▁둘러싸고
▁진행된다
▁mm
▁개발되었다
CD
쥐과에
프랑스
▁거리는
▁인물이
리그에서
▁앨범이다
만원
번은
▁공인
▁길게
▁명에
▁몸에
▁칭호를
▁경부
▁보지
▁역설
▁규모는
▁마쳤다
▁아미노
▁일어나자
▁움직임
▁회사를
▁않았다고
▁발매하였다
ide
▁출산
▁데뷔를
▁얻는다
▁여기에서
▁슬라
▁잃어버
▁준비를
▁이끈
화에서
▁부족한
▁사회를
▁정신적
▁지정된
말라
여성
전선
▁건물로
▁대상을
▁서식하는
▁성우이다
▁쥬
주기
차와
▁대웅
▁아예
▁코어
▁투구
▁고양이
▁물고기
▁요구했다
미쓰
▁관념
▁결정적인
▁이집트의
함의
▁시초
▁이라
▁우라늄
▁권고
▁라파
▁부부
▁초연
▁최근의
됨으로써
▁관할하는
▁모으
달라고
▁닌텐도
▁동쪽에
▁용어를
▁음식을
▁천문학
▁시점에서
▁그날
▁아부
▁억압
▁생겼다
xt
▁kg
▁두어
도마뱀
려면
년이다
ment
▁귀중한
▁카자흐스탄
놓은
▁만남
▁전압
되지는
나우
시안
▁민사
▁행적
권에서
증으로
▁비용을
▁지적했다
▁로스앤젤레스에서
▁색을
위안
츠가
커니즘
▁저명한
▁대관
▁섬유
▁연결된
▁시절에는
▁댐
냈고
▁기름
▁깨닫
▁추출
통의
▁미노
스와의
▁감정을
▁사건이다
▁존재하며
▁중에서는
▁AK
▁cm
▁제사
▁초등
▁하나이며
▁왓
▁일본을
감과
서야
▁왕은
▁국가로
다지
미노
▁펼쳤다
라트
제한
▁산소
▁연세
▁오라
▁주류
▁배웠다
▁2,000
척의
▁중간에
▁시내버스
보건
▁유죄
인들과
▁밑에서
▁활동하는
▁갇
▁이긴
▁국가는
아일랜드
▁있으면서
박한
▁가짜
▁거제
▁구동
▁느껴
▁굉장히
▁비판했다
▁셸
▁턱
▁62
▁리틀
▁마루
지역의
▁기술의
▁시스템이
▁조선인민
▁엽
▁//
▁담긴
▁송시
▁야당
게이머
▁생각해
▁생각한다
▁시작하였고
모와
작이
▁구는
▁낭만
▁최상위
▁추정되는
각의
놓고
가이자
공산당
▁초반에
▁기점으로
▁사라졌다
▁하더라도
녀를
▁기습
▁높고
▁시계
거리는
▁신호를
▁왜냐하면
나스
리야
▁해변
▁RNA
▁승리한
▁호평을
▁하나였다
▁난징
▁아는
▁앨범의
▁제외하면
▁얻고
▁펜실베이니아
▁충북
▁통행
즈에서
시즘
▁AR
▁부호
▁빠진
▁이산화
▁조명
▁카롤
▁사이드
▁선보였다
▁성별
▁총대
▁겪었다
▁시설을
▁대한민국에
이거나
▁기리기
멘트
찬을
이면서
▁자체는
▁갈아
▁김경
▁컬러
년대의
▁않는다고
구르
창을
▁상수
▁플랑
베트남
▁자금을
▁거느리고
▁변경하였다
▁디오
▁사원
▁쫓아
강에서
▁놓았다
▁마을의
▁인터페이스
가고
리조
▁고수
▁띠고
▁모형
▁학위
▁사무실은
▁아일랜드의
열대
▁이윤
채널
▁팀인
▁도착한
▁봤
루션
▁엔진은
▁지방을
▁인접한
대회에서
▁연령
▁블라디미르
강은
▁참여하는
릴라
▁도주
▁쇼군
▁찾아볼
▁프랑수아
▁옴
▁부수
▁초과
▁추격
▁협약
디나
▁종은
▁시즌이
▁오하이오
▁이야기는
네가
▁태종
▁더글
▁몰래
▁통틀
▁기반의
▁문화체육
현과
▁안보
▁지식을
▁테이블
▁이루어지고
▁단단
▁신이
▁신한
▁조달
▁채무
▁순수한
▁중국과
▁차원에서
▁월드컵에서
▁결론
▁순회
▁위임
▁125
▁기능은
르며
▁수동
ound
▁생산하는
디언
▁난이
▁이론의
구나
▁내전
▁담겨
▁사이버
▁고려대학교
▁업그
▁투옥
▁파스
▁생각할
▁태도를
▁특징이
▁온타리오
▁대한민국은
▁서정
▁힘입어
▁무승
시키며
iver
▁이벤트
▁철도의
▁돋
▁변수
▁설탕
▁림
연구원
▁KIA
열은
효소
▁밑에
▁분화
▁소셜
▁밀접한
▁이래로
▁종으로
▁선수이며
만명
층을
택을
어지는
위원장
▁와중에
▁파이어
▁Le
▁정사
▁토요
▁논문을
▁마을을
▁대신하여
갔으며
▁싱글로
▁장치를
국장
업은
외선
▁시장을
▁최적
▁105
▁전투기
▁평균자책
내어
ory
▁의미의
▁사망하고
철의
크에
▁뜨거운
법제
▁내리
▁아름다
▁업적을
프로그램
▁67
▁매입
▁봉쇄
▁입자
방에서
▁의식을
▁넬
▁뉘
다르
are
rom
▁최하
▁북부의
▁최대한
박사
▁구제
▁위탁
▁청원
▁것보다
▁나눠
▁조르
가들은
▁자세한
▁자리잡고
부르
▁붙은
거리를
▁수술을
▁여름에
위원으로
▁마약
▁마하
▁법조
▁테레
▁주장한
▁전도
▁이어진
▁경과
▁기아
▁베니
▁일컬
▁환경을
▁베트남의
▁쉐
루와
▁밤에
왕으로
~5
▁결코
▁경사
▁출처
▁취재
▁코스타
▁팜
벌레
▁사사
▁시점
▁패키
▁민족문제연구
버리
왕조
▁카스
▁사람과
▁조건이
림의
▁산다
▁아담
▁이의
▁국소
▁대피
▁띤다
▁탐지
▁위기를
▁횟
가족
터널
평화
▁두개
▁명성
▁올바
▁잎은
▁바이오
▁학교에
▁스톡
▁칼라
▁기록하는
▁경상남도의
▁앉아
▁정한
▁런던에서
▁사이타마
선이다
▁시장에
▁관리하는
라기
▁시뮬
▁후궁
▁공로로
▁도시가
▁프로레
지방선거
도어
▁대책
▁재현
▁먹이를
▁시호를
▁배치되어
▁대회에서는
참모
▁시골
▁진군
▁표명
▁하마
▁힘든
나갔다
방으로
▁카를로
님을
준의
▁넣고
▁레바
▁미즈
▁슬로베
국사
플렉
▁의회의
▁설명했다
▁개교
▁크리스토퍼
▁프랑크푸르트
급을
도리
▁네오
▁드문
▁유래한
▁자연스럽게
차량
▁갈릴
▁지점
▁폭스
▁왕위에
▁위험한
▁조선로동
▁프로게이머
TS
▁킨
증은
▁예배
▁지형
▁팔라
▁되돌아
▁회사가
▁직접적으로
▁문제의
▁편입되었다
▁로저
▁마츠
▁발을
▁순교
▁요약
면에는
▁그쳤다
▁일본과
▁자체를
▁것으로서
파르
▁성취
계승
▁한스
정에서
▁무기를
▁바티칸
▁$
로우
만여
▁신약
▁제트
▁화석
▁회계
▁도미니
▁캠퍼스
▁1894
▁대통령에
포드
▁모친
▁문명
▁이식
▁독립된
▁신설되었다
씨로
천이
해양
man
▁가축
▁복제
▁신임
▁카타
▁소관의
▁장관을
▁근처에서
▁떠올
▁부딪
▁지고
▁그랜
▁국내외
▁제주도
▁궁극
▁애비
▁엄격한
▁오프닝
▁체포되어
▁시키
▁통일신
▁문화방송
▁리투아니아
신에
▁Sp
▁시즈
본으로
▁부문에서
ng
▁엿
마일
병은
종인
omp
▁선사
▁이내
액은
▁숭배
▁제프
항으로
▁물질을
▁전통을
▁달성했다
▁불이
▁사자
▁가수로
▁외교관
▁잃었다
▁일컫는다
무역
▁비유
▁임용
원숭이
쳤으며
▁우주의
▁이후로는
▁존재했던
▁범유
▁영문
▁장성
▁허브
▁내부에
▁자신도
▁그리스어
▁도입되었다
▁실패하였다
▁말씀
▁지능
▁들어온
▁모르는
▁소속된
▁이름인
▁안성
▁희귀
▁줄여서
▁이후부터
▁지구에서
절한
칼라
▁구출
▁그냥
▁밀어
▁보일
▁인격
▁즉각
▁황해도
했습니다
▁포르투갈의
▁경로
▁이가
▁지휘관
▁자동으로
▁땄
누스는
▁감독과
▁경찰은
▁만나는
▁알코올
집이
▁성주
▁인문
▁진흥
자들에
▁실패로
족에
황을
▁앙리
▁측의
가지의
▁제국을
▁그룹이다
▁그리스도의
교에
사나
▁것인데
▁루이지
▁디자인을
▁상태였다
어요
연방
지휘
▁이케
▁통영
▁구간을
▁스미스
대책
방울
ert
▁에밀
▁개발이
▁제안을
TA
소녀
▁서재
▁야쿠
스트리
▁할머니
▁이어진다
글리
왕과
ial
▁78
▁캠프
작이다
▁그러던
▁섬으로
▁시즌은
▁가마쿠라
▁디비시
▁뻗어
▁업체
▁재혼
▁제압
▁가지며
▁분명히
캐롤라이나
▁세션
프라이
▁모델이
-18
▁수습
▁유산
▁응원
크에서
▁다양하다
▁오바
▁호위
▁방식이
▁1890
▁#
▁상용
▁짙은
▁부작용
▁함으로써
▁복귀하였다
▁출전하였다
기사
▁조리
▁초월
▁협박
▁북부에
▁참여하고
▁친일인명사전
▁톤
변이
열차
▁가죽
▁제사를
▁크리스마스
정원
ign
▁믿고
▁태평
야만
▁간호
풍으로
▁받침
▁빈곤
군이다
▁교황의
▁가나가와
로이
스런
함마
▁영조
▁랜드
▁맥스
적이지
▁다룬다
▁직전에
순위
희가
▁강도
▁이룬
▁제노
▁축하
▁스스로를
애를
액의
▁골프
▁리우
▁춘추
▁블로그
▁세상에
▁있었을
▁장군의
▁캄보디아
▁is
▁고쳐
주의가
▁설명한다
아파
총장
▁제독
▁요청을
▁질량은
▁시외
▁양주
▁연쇄
▁비로소
▁이유를
▁프레스
▁기록했고
훈장
▁고백
▁불어
▁어긋
등으로
사업을
▁환경에
위원회를
학교에서
▁기업이다
ich
▁CF
▁연기를
▁출전한
▁아시안컵
~4
레타
임에도
▁2.5
▁다음해
▁반해
▁일종으로
▁냉각
▁대거
▁발트
▁부의
▁구스타
욕을
▁수도인
결과
▁석가
▁적고
▁주가
▁언어의
▁선언하였다
TC
▁냄
▁전체에
▁토요일
반은
코쿠
ond
▁동명
▁마스
▁월드컵에
~2
▁스폰
▁증후
▁버전의
▁본인의
▁삼국지
▁주장은
▁아니라고
▁어머니의
▁프로그램이
▁뒤집
▁엄격
월과
act
▁가도
▁컨셉
▁북쪽의
▁여부를
▁낱말
▁선이
▁일러
▁일리노
▁프톨레
서원
▁사모
▁아홉
▁이경
루미늄
▁규모로
▁브라우저
코르
▁76
▁96
▁김일성
푸스
▁61
▁했을
▁사고가
▁승부차
▁불평
▁하우
▁속도는
▁특징으로
먼드
▁la
▁고체
▁누가
까지만
레스는
▁전속
▁진급
라에서
▁거기서
▁사회에서
법칙
선생
▁노리
▁로이
▁버려
▁쏟아
▁나오지
▁블랙홀
▁비난을
▁임시정부
신도
풍속
▁CR
▁마우
▁입원
▁변화에
▁일이다
▁성분
▁오노
▁불리게
▁장거리
▁중국에
▁1898
▁경우에도
▁지방자치
▁이남
▁베네딕
▁어머니가
더니
판과
퍼는
ass
▁부사
▁불편
▁불확
▁트래
▁요구를
▁황제로
운영
▁미루
▁역에
▁오를
▁합창
▁게르만
▁말기의
▁부유한
▁과거에는
▁에스토니아
▁악기
운동에
▁노란색
▁움직임을
정리
▁김현
▁롤링
▁상처
▁선물
일이다
▁배우로
▁등지에서
▁프로듀싱
덕션
▁공모
렸는데
▁차이는
▁표현을
▁프로리그
수용
악한
▁옥스
▁인근의
슬리
▁관련한
▁기록해
▁계속되었다
냐는
신경
▁난민
▁뉴저
▁도는
▁경신
▁넣은
▁바퀴
▁소매
▁지정하여
▁World
▁가톨릭교회
국어
예정
▁노트
라이어
▁남부에
▁소행성
널티
▁에미
▁헤라
▁적극적인
▁됐
행에
▁공민
▁규격
▁상트
▁우편
행으로
▁느낌을
▁추기경
▁콘스탄티노폴리스
강이
미스
▁증손
▁편곡
▁피츠
▁문화체육관광
께서
즈로
▁아랫
박쥐는
현으로
▁오리콘
과학기술
금지
폭력
▁나눈
▁시와
▁천도
▁카트
▁평일
▁가리키
▁뛰어나
▁원인은
▁되었다가
▁프로젝트를
고와
▁제곱
▁존속
테르부르크
함수
▁직면
▁역사와
▁중단되었다
▁봉건
▁덤
▁실전
나라에
▁기간을
▁적합한
▁피해가
▁향하는
회의에서
▁주민들이
▁깎
▁펌
]],
▁제도가
▁투표를
▁의미에서
보르
▁샘플
▁중기
lo
매매
재단
▁책의
▁101
▁우즈베
DS
강과
토르
▁be
▁물건
▁처녀
▁터뜨
▁합작
암으로
▁기술은
▁획득한
▁승격되었다
▁뭉
▁SE
▁미얀마
▁중의원
▁방식이다
▁테니스
▁밴드이다
▁카를로스
▁맏
방위
자르
지능
▁토르
▁폭넓
서비스
▁공격에
▁관리를
▁그래프
▁부분의
▁정도였다
루에
였을
집에
▁말의
▁보호를
▁속하며
▁시기를
▁어려워
▁유지하는
▁원수
▁제자
▁초록
▁결성된
▁정신을
▁대학교에
▁쇄
사기
팀의
▁거울
겼으며
▁10%
▁난다
▁창의
▁런던의
▁최악의
▁물러났다
▁더불어민주당
▁쓰기
▁아기
불교의
▁회의를
▁타이틀곡
링을
측에
하임
▁등극
▁자문
바이트
▁아버지를
▁이름에서
▁가량
있었다
▁2-1
▁섬에서
▁팀으로
측은
기독교
▁교육과
▁나가는
▁성격이
▁성장을
▁종류가
▁체코슬로
Hz
▁맑
감한
일으
▁데스
▁맥도
▁오쿠
▁인터내셔널
느러
평군
▁붙인
▁시트
▁총칭
▁민족의
▁기독교의
▁헌법재판
▁환경에서
림은
▁바꾼
▁문과에
▁카리브
▁크레이
▁광장
▁브뤼
▁숫자
▁신선
▁나폴리
▁본사를
▁중추원
▁시리즈를
가르
언어
▁라마
▁법인
▁빌려
▁관직을
국제공항
근은
발이
지리
키와
파인
▁구할
▁딸인
▁존경
▁터키의
aw
▁단기
▁정밀
▁플러
▁우승한
▁자유주의
▁노르웨이의
▁에티오피아
교수
블리
▁두는
▁약력
▁적혀
▁지휘하는
▁존재가
천여
▁방패
▁커널
▁얹
▁네팔
▁부가
▁부서
▁서초
▁옹립
▁선정한
▁수상한
▁용도로
▁해상에서
▁결정되었다
▁봉안
▁용의
사령관
▁독일어
▁아래는
▁감행
검찰청
▁독일이
▁왕국을
노가
▁교역
▁기자회
▁중국어
▁확실히
▁메시지를
두를
버린
ens
▁왕복
▁흥선
▁노동조합
LS
감은
▁일명
▁컴퍼
▁흔한
▁기사를
▁인정하고
▁공익
▁신탁
▁위장
이어서
화이다
▁이유가
▁아야
▁이차
▁협상을
▁방송되었다
군단
네시
lic
▁DC
▁채워
▁마천루
▁않으나
동시지방선거
▁고민
▁안에는
▁평범한
▁부분으로
▁프톨레마이
대륙
술의
▁신중
▁자회사
▁시베리아
수리
천사
▁밀집
▁비주
▁많으며
▁선거는
래스
▁그룹은
셈부르크
▁1899
▁형성한다
값을
▁박스
▁사범
▁상장
▁필사
▁동아일보
▁기록하면서
IG
거를
생명
▁고령
▁김규
▁디자
▁정무
▁지주
▁홈구
▁갈등을
반이
코와
표는
▁플랜
▁파이널
▁페널티
▁불러일으
OU
문에서
▁말기에
▁진행되고
상규
시나
태후
▁상류
▁소금
▁쇼트
▁자선
▁페리
▁남쪽의
▁미국을
▁줄무늬
▁크리스티안
▁옳
▁SU
▁만일
▁케냐
▁해소
▁몬스터
▁차량은
▁극동
▁펠리
▁항소
▁사생활
전문학교
▁중앙위원회
병에
타우
▁EC
▁We
▁날에
▁디렉
▁리뷰
▁유교
▁교육의
▁일하는
가요
대왕
협력
urn
▁암시
▁척추
지는데
▁패배를
▁급제하여
▁정치인으로
▁아크
▁조언
▁축적
로부터의
▁끊임없이
LE
라톱
▁래퍼
▁카디
파이어
▁벌어졌다
_11
▁김씨
▁여신
▁오타
▁축출
▁피신
▁뒷받침
▁전라도
▁학교의
▁설명하는
대학교에서
▁최연
▁차량을
량과
▁무상
▁시범
▁개념이
▁제목의
▁알루미늄
▁한국시리즈
나오
ype
▁비자
▁핀란드의
열에
▁자택
▁호의
▁성공회
▁시위를
▁이론에
줬다
▁3.1
▁물질의
▁스탈린
▁주식회
▁지구와
▁존재하고
도바
ary
▁당일
▁승계
감으로
▁민족주의
▁주민들은
▁미디
▁원더
▁자유로운
허가
▁견해
▁광둥
▁술을
▁레바논
▁올랐고
▁육군의
▁행사를
▁던져
▁양국
▁왕세
▁이준
▁다운로드
!!
▁낸다
▁싶은
▁가지가
▁보유한
▁수학자
▁완벽한
▁자격으로
▁한나라당
궁의
▁정서
▁케임
▁광저우
▁독립적인
위인
지아
▁강연
▁나주
스키는
▁구마모토
인한
▁연금
▁비판이
▁국제적인
▁느꼈
▁양호
버렸다
스카르
▁르네상스
▁따온
▁목을
▁유동
▁중산
▁시리즈는
달아
▁카나
-200
▁차량이
▁그들에게
▁닦
인간
▁딸로
▁심의
▁하트
▁클래스
레가
▁누르
▁세속
▁일방
▁자오
▁미시간
▁별명을
▁시장에서
▁결혼하였다
장치
▁산란
▁해수
하자는
▁국립공
▁오피스
▁시즌이다
운을
▁가까워
▁추측된다
풍이
▁베드로
▁서유럽
▁통틀어
▁나머지는
▁정부에서
다드
▁기각
▁민영
▁중공
▁카우
▁퀘벡
▁헤비
▁버전이
티코
▁그루
▁사면
▁삼각형
▁철도가
▁출시한
근의
▁제니
▁중대
▁독일과
▁바오로
▁중화민국의
기나
▁CJ
▁버렸다
▁이라고
▁1902
▁리오
▁어원
▁청춘
▁케빈
▁머물렀다
돌을
▁IM
▁꽃은
▁리만
▁성서
▁수면
▁아이치
연료
폭탄
푸아
▁00
▁GS
▁나올
▁동문
▁위치는
제작
ree
▁마에
어지고
▁가벼운
검사
투자
▁대교
▁웹툰
▁자를
▁정해
▁달한다
▁잡았다
▁들어간다
분해
잡이
▁교전
▁단어는
▁마음에
▁헝가리의
▁5,000
▁발현
▁압둘
▁직결
▁쓰시마
▁회장을
산물
▁침투
▁New
▁리그를
▁있기도
▁타격을
▁고구려의
▁형태이다
▁선거구이다
▁바빌
▁삼촌
▁스캔
▁종속
▁중일
▁그래미
▁목표는
▁일리노이
▁총대주교
▁얽
▁69
▁담배
▁연구의
▁장군이
▁니콜라이
▁별은
▁이천
▁주체
▁유로파
▁타이베이
ach
out
▁마인
▁물어
▁존스
▁니가타
▁아무도
▁역사에
갈색
피의
▁메소
▁어른
▁우호
▁것들이
▁브로드
▁설치한
▁장면을
무는
▁몸이
▁백색
▁양이
▁간단히
▁레슬링
▁역사의
▁이용한다
▁몫
▁소말
▁입성
▁3,000
위해
▁문예
▁분당
▁얻지
▁가족은
▁출신인
반도
학원
▁쓰지
▁나가노
▁지냈고
▁강수량은
▁떨어지는
▁아라비아
▁아리스토
▁처음부터
▁자치구
▁아래에서
영과
협의
▁벌인
▁문자를
대학교의
▁구분된다
무장
▁완화
동이다
▁아레나
▁일대를
▁아시카가
▁시리즈에서
▁틸
▁모나
▁수확
▁갈수록
▁역사적인
붙이
히메
▁만성
▁먹을
▁촉매
법이다
세기부터
▁엔지니어
▁페르디난
아들
net
▁마일
▁쓰촨
▁정조
으려고
▁드러머
▁선수들을
▁알려지게
▁중요성을
미트
▁부지
▁오비
,9
▁꼭짓
▁있는지
▁고등학교를
미즈
트륨
▁vs
▁교리
▁사슬
▁대표적
▁시칠리아
설은
루이스
▁뚜렷한
▁일으킬
▁종로구
OD
▁본부
▁빛이
교육을
▁가족의
▁스트리트
▁맵
두로
산리
▁루터
▁수련
▁따른다
▁팀에서
▁협주곡
대손
_15
▁주사
▁포획
▁용어로
:0
▁JT
▁마야
▁우르
▁워터
운동의
▁기초를
▁예술가
▁승강장이
▁추가적인
▁알려져있다
▁제주특별자치도
▁왈
▁캉
요의
웠고
칸의
hPa
▁놀이
▁둥글
▁시바
▁추산
하로
▁농림
▁동국
▁사절
▁것임을
▁캔자스
엔터테인
커의
▁연꽃
▁특집
▁135
▁얼굴을
▁역임하고
본의
한테
▁노태
▁바나
▁유저
▁태극
▁표방
▁플라스틱
▁데뷔하였고
키를
▁대치
▁손꼽
▁선수는
리얼
시게
전차
황제
▁360
▁그다지
▁남기고
▁없었기
▁일본국
▁주도로
▁잡은
▁정말
▁수도원
▁조약에
▁피하기
▁프랑스에
▁결정하였다
ey
문자
통제
품이
▁우드
▁존슨
▁안토니오
골로
▁Sc
▁구단의
▁정해진
불을
▁국군
▁러셀
▁브란
▁생략
▁견해를
▁차량의
▁사망하자
▁아르헨티나의
판매
▁Am
▁대합
▁중재
▁지위
해주는
▁경찰에
▁프로그램에
▁전국동시지방선거
기계
내며
▁비율은
▁음악에
▁즐겨
반에
사유
▁효소
▁더욱이
▁텍스트
▁발견하였다
이시
▁곳의
▁도미
▁여진
렸다고
▁게이지
▁정도를
▁나이지리아
홀름
▁달이
▁이관
영화제
▁1901
▁개발하고
길이
추는
▁때인
▁만세
▁변동
글라데
브리엘
주머니
▁한국은
▁메커니즘
우지
▁날카
▁발언을
▁비율이
▁시절의
▁프로레슬링
기니
종교
▁단축
▁재미
▁적지
▁피겨
▁호조
▁매니저
▁일대에
▁회사이다
▁룩셈부르크
공격
드릭
▁전역에
▁계획이다
단위
▁Su
나가는
들과는
▁발렌시아
클로
ase
▁사살
▁패한
▁협동
▁무대를
▁뮤지션
▁밖에도
▁언급한
▁전체적인
해온
▁Op
▁김지
▁모서
▁무료로
▁사고를
▁연결된다
대구
▁대명
▁병역
▁입각
▁초신
▁밝히고
▁언어는
▁수에
▁에콰
▁고통을
▁문화가
▁바이킹
▁손가락
▁정보가
무가
CAF
▁대안
▁북구
협의회
▁1-0
▁재능을
▁전력을
▁결정하는
▁솜
봉은
아스
▁국기
▁국영
▁내용으로
오나
▁균형
▁도카이
▁드물게
▁도시철도
▁자신들이
▁이스라엘의
쿠버
ost
▁맥락
하자면
▁삿포로
▁트리플
량에
▁비타
▁철회
▁50%
▁아열대
설에
위성
▁북방
▁각국의
▁개인이
▁공부를
▁가고시마
▁대통령으로
두에
마로
.5%
▁중복
▁예수의
▁아케이드
▁슬로바키아
인권
▁배신
▁Man
▁당연히
▁한성부
SP
세트
자라고
층으로
▁강점기의
▁조선일보
요는
주택
ath
▁담아
▁과정이
▁군대에
▁기존에
▁와이번
▁마블
▁맞은
▁밝힌
▁안나
시키지
▁1884
▁주장하며
▁할아버지
".
모에
ont
▁소지
▁포병
▁환상
정책을
▁대학생
▁병으로
▁살았던
▁손으로
▁올리고
▁가져왔다
▁사랑하는
년하
츠를
▁대가
▁죽이
▁캐서
▁총리가
▁취하고
팀을
한은
ect
▁김창
▁왕을
▁자의
▁주행
▁사례가
▁쿠데타
▁결혼하여
▁목소리를
▁진행하고
▁규범
▁선종
▁지녔
▁하남
▁정치가
준비
푸르
▁금성
▁무성
공무원
▁대회가
▁되지만
▁무함마
▁밴드를
▁에디션
▁즉위한
▁현재에
▁포켓몬스터
▁CC
▁성사
▁아나키
▁알렉산드로
것도
봉사
▁산출
▁콜린
▁핸드
리사
▁고래
▁발칸
▁이소
▁한인
▁사쿠라
▁안으로
▁전했다
▁프란츠
▁아버지인
▁벵
런은
정신
▁신축
▁분비
▁불상
▁수성
▁시종
도이다
▁태양을
▁중앙아시아
▁북위
▁일생
▁지키는
▁북아프리카
변에
사용
이야
▁군이
▁유학을
▁클라이
다를
▁고창
▁오지
▁하동
▁물러나
▁방문한
▁왕국은
▁유래된
▁위치하는
개와
▁세상
레이터
▁부근에
▁차이로
▁유사하다
sc
화물
▁On
▁다크
▁영등
▁점프
▁이란의
▁이루며
▁제국에
▁각자
▁김홍
▁보헤
▁부설
▁기회가
▁평가된다
루아
▁군산
▁기저
▁파나
▁함수의
▁방글라데
▁전역에서
▁알렉산드르
머는
보수
com
▁산림
▁블루스
▁1903
▁드라이버
▁렉
인구
작곡
품의
▁브랜
▁파리의
역학
▁괴롭
▁응시
양으로
▁산하에
▁야마토
▁어려서
▁파일을
▁이루어지는
연수
운의
▁높게
▁중종
▁하시
▁들어갈
▁상태의
▁서울의
▁차례의
▁운행한다
▁표현하는
▁조선로동당
cc
▁진공
만과
빌딩
▁까닭
▁슈팅
프레스
▁기초로
▁사람도
▁투어를
▁올림픽의
▁두께
▁미들
자라는
▁각본가
▁공간이
시청
집은
▁개종
▁극대
▁년에
▁세금
▁국제적
▁미시시피
▁글루
▁한층
▁저작권
▁스위스의
▁포스트시즌
▁콰
신학
▁소송을
▁조정에
MP
▁랴
것을
▁기숙
▁생식
▁자국
▁점에
▁폭로
▁때에도
▁존재할
▁후보는
디를
▁그후
▁맞붙
▁퇴임
▁시즌에서
▁클라이언
샤바
심은
▁가계
▁대전이
▁점령한
▁실질적으로
하키
▁권장
▁같은해
▁게임이
▁Pr
▁감안
▁다비
▁모은
▁무궁
▁실망
▁잡혀
▁동생인
▁불리고
기게
전시
증의
히토
▁86
▁선배
▁아소
▁의석
▁일체
▁경상도
▁뉴욕의
▁실시한
▁평가했다
▁붐
▁물의
▁발급
▁연상
▁문서를
▁승무원
▁몸길이는
더의
순환
온을
융합
▁불꽃
▁앞면
았다고
▁도요토미
▁연고지로
▁정의한다
OW
네마
▁원을
▁해남
법에서
▁차지하며
▁해결하기
▁눌
믹스
▁구의
▁싸워
▁쓰레
▁온천
▁하라
▁경기의
▁다이어
▁마르코
▁근무했다
무로
주지
▁쳐들어
▁가옥
▁생리
▁엔딩
루에서
트로이트
▁라오
▁알을
▁나타낸
▁소설가
▁음악적
▁작용을
▁프란체
페테르부르크
▁지정되었다가
친구
행동
▁그릇
▁무지
▁배상
▁리더십
▁전두환
▁그레이트
▁부분에서
으로부터의
-9
주간
▁거북
▁세례
▁넘어가
▁대가로
▁성능을
▁담당했다
RA
쪽은
▁소비자
▁음악은
▁제네바
▁제안했다
조한
▁꼭대
▁주오
▁체류
▁새겨진
▁진행되는
벽을
▁아타
▁지옥
스터는
▁기준을
▁압력을
▁스타리그
위기
▁인상을
▁조지프
들여
슬레
▁결선
▁더해
▁모용
▁무의
책으로
ream
▁실패한
▁그렇지만
▁신부
▁이병
▁피트
▁표면에
▁결정된다
▁보호하기
빈의
양함
▁걱정
▁서포
▁죽어
▁하원
심에서
▁중반에
▁프랑스가
대대
집의
▁GP
▁받았지만
▁지나면서
보와
서구
▁설도
▁해의
▁범위를
▁제도는
▁비밀리에
▁주어졌다고
▁횡단
나무는
사들이
▁이때부터
▁콜로라도
우기
▁가오
▁김제
▁증상
▁지장
▁해명
▁건축물
▁센다이
▁조선에
▁죽였다
▁청와대
▁드러났다
▁복귀했다
▁73
▁왜곡
▁이북
▁포장
▁효고
▁고유의
▁생산을
▁전하는
▁카스티
▁떨어졌다
▁볼리비아
바둑
브스
수소
▁AN
▁조승
▁극장판
▁변화는
▁온도가
▁초창기
▁주어진다
▁사단법인이다
항의
▁개가
▁노선의
▁의미는
▁킴
▁국장
▁기하여
▁없어서
하루
▁대두
▁칸의
테이션
▁무조건
▁아미타
▁코드를
,6
▁97
▁시노
▁벼슬을
▁디트로이트
▁스코틀랜드의
당해
▁건륭
▁동행
▁민병
▁이데
전이다
▁결론을
▁확실한
세르
억원
팀에
▁감리
▁걸린
▁서적
▁선과
▁품고
▁경기로
▁그려진
브르
산동
테면
▁로버
▁씨의
▁절차
▁도널드
▁세력의
적으로도
▁1897
▁시대부터
▁Ne
▁피로
▁수비수
;&
받게
발사
업의
탄의
테크
▁돌입
▁시공
▁제작을
US
▁뱅
▁고기
▁칼뱅
▁코코
▁편에
▁자료가
▁정권의
▁종교개혁
GA
황이
▁등용
▁스태
▁잔류
▁저렴
▁포드
▁게임에
▁공격수
▁단어를
▁영화가
▁주목할
▁1800
따라
▁산의
▁일화
레스의
행위를
들에게는
▁예선에서
ii
▁로그
그라드
는지는
▁미네소
▁산업의
▁학문을
▁1860
▁수준으로
▁형성하고
sh
올라
왔던
▁막시
▁안치
▁유연
협회는
▁도입된
▁위험을
나서
너가
에의
킨스
▁쌓은
▁키워
lude
▁다니는
▁원인을
▁설치하고
▁그레고리오
▁이루어지지
순은
여우
▁판례
▁호출
▁암호화
▁정치를
▁기어
▁루시
▁무슨
▁성숙
▁안테
▁기슭
▁탐색
회의원
▁새로이
▁크기를
co
▁ID
▁공손
▁퇴역
▁협정
▁생방송
▁전반에
▁필리프
▁혁명의
▁불가능한
타워
화점
▁74
▁오로
루스의
왕후의
▁영향이
▁입장에서
▁페이스북
쿠니
▁단절
▁포로로
▁대통령과
▁위원회의
▁설립되었으며
메드
해튼
▁사간
▁얼음
▁쪽은
▁운영을
▁이를테면
▁연세대학교
관련
돌은
운이
iss
▁강희
▁구약
▁기증
▁번에
▁슈트
▁지수
▁관련해
▁작가의
▁증거가
▁건설되었다
▁도입하였다
▁만족시키는
▁쿤
아야
▁거뒀
▁공과
▁영산
▁테르
▁환자
▁말하면
▁언급했다
▁석탑
레이크
월에서
▁이곳을
▁룰
▁수축
▁창녕
▁900
▁나란히
▁학생들의
▁건축물이다
ake
▁사정
▁간토
▁과일
▁깨끗
▁어둠
▁질환
▁크롬
루스는
▁본인이
old
▁동위
▁세라
▁주위
▁키스
선수단
▁규정에
▁미래의
▁효과적으로
주자
▁스노
▁헬리
▁호응
▁하에서
GB
OT
국립
▁견제
▁끝날
▁남구
▁법의
▁서민
▁신조
▁판정
▁패럴
▁알프레
▁대표적으로
▁때문이라고
▁이탈리아에서
▁킥
생은
타입
▁87
▁검출
호선과
▁동안의
▁개인적인
▁프로덕션
▁함부르크
이후
칼리
▁아닐
▁서울대
▁대한민국과
애틀
타스
하이드
▁비판하였다
▁상트페테르부르크
링턴
▁81
▁CS
▁급성
▁치른
▁데뷔한
▁미쳤다
▁유형의
▁조사에
▁최소한
▁문화체육관광부
교와
막을
체고
ick
▁온대
▁이장
▁필드
차이나
▁섬이다
▁작업에
▁하이드
계급
주어
▁있거나
▁해마다
▁기록으로
▁대학교는
▁흥선대원
직의
학부
▁강은
▁본거
▁영지
계약을
브리아
▁경제의
▁공격하여
단지
준이
▁리베
▁무실
▁임관
▁지름
▁스페이스
표가
▁조립
웨이트
▁낳은
▁보드
▁유라
▁이산
▁충실
기록을
▁백제의
▁쌍둥이
▁1880
가수
내지
한이
혹한
▁가환
▁환영
▁20%
▁뉴저지
▁더이상
RE
근이
브루
체계
▁달걀
위원을
▁문화와
▁아름답
시켰으며
메다
발로
▁보성
▁선도
▁자크
▁장비를
▁대학교를
노에
▁미친
▁전지
▁조화
▁현금
▁히타
▁NGC
▁되었던
▁의원을
▁제치고
랑을
▁강동
▁이태
▁기업인
▁이내에
▁접하며
독일
▁실력
▁유권
▁퍼포
품으로
▁도시에
▁송나라
▁요새를
▁이용객
▁예정이었으나
집단
▁김민
▁선생의
▁나중에는
▁드라이브
▁꿀
미한
통은
▁맺은
▁아바
▁리스트
▁모양이
▁연합군
▁정치에
▁주장에
발은
분과
▁가동
▁꽃이
▁말미
▁볼로
▁튀니
렸지만
▁설명할
▁아마존
▁주제를
▁중대한
▁겁
거진
컨대
ere
▁강에
▁고사
▁나섰
▁불명
▁알지
▁평정
▁함대
▁회수
게이트
▁사업에
▁수행할
▁태국의
▁고려시대
▁..
▁가볍
▁간신
▁내무
▁충성
▁칭찬
▁격렬한
▁경계로
▁보다는
암은
야에
전략
티시
▁각색
▁김병
▁창출
▁교회를
▁지나는
▁천연기념
▁해당된다
St
병과
인터
▁비치
▁수색
▁실버
▁사이토
▁낙동
▁니코
▁신정
▁위헌
▁건설을
▁지역구
▁삼층석탑
▁빔
티가
▁수료
▁카카
▁러시아는
MI
에미
▁종족
▁청소
지역에
▁그러다가
▁올라간다
▁점령하고
▁진행했다
▁포기하고
캐슬
own
▁권총
▁영국에
▁엮
변의
-14
끄러운
판에서
▁물건을
▁어드벤처
▁넓게
▁면적
▁위와
▁화강
되므로
▁뒤에도
▁수익을
▁커뮤니케이션
▁덮여
▁보게
천으로
터에서
▁산하의
▁스리랑
▁중점을
▁진출한
▁푸에르
▁통일신라
기자
락이
히데
▁진지
학교의
호선이
▁내려가
▁딸이다
▁볼셰비
▁출신이며
할때
▁부채
▁짐작
들보다
▁웨스턴
▁시작하면서
▁씌
났을
보니
▁들을
거리가
▁뒤이어
▁설치하여
▁취임하였다
린을
았기
▁가려
▁반공
▁정립
▁허위
▁경찰의
▁아스널
▁그로부터
▁대응하는
년하계올림픽
▁값이
▁공습
▁중장
▁탄도
▁방사성
▁BS
▁듀얼
▁배가
▁여운
▁패널
▁30%
▁위원장
▁투수가
되어있다
GM
ix
ork
▁남게
▁영유
▁CEO
▁마을에
▁목록에
▁비용이
▁스즈키
▁장군은
▁게임에서
▁단계에서
평론
▁성종
▁후임으로
공주
부상
▁Tr
▁빈번
▁없었
▁입을
▁편지
▁크라이
▁프레데
▁2022
▁감마
▁동참
▁워너
▁이고
▁추첨
명에서
테스트
▁국왕의
▁음반으로
운다
▁유가
기관의
직으로
▁III
▁동영상
▁친일파
▁시스템에
▁정치적인
나리
로프
살의
▁이닝
▁적다
▁헌정
사회의
▁열린다
▁재판을
▁휘하의
훈을
▁넘게
▁유벤
▁명이다
▁조직이
▁환자의
▁결정한다
▁도시에서
▁보도했다
직은
▁유러
▁탁월
사단은
▁경향을
▁고향인
▁행동에
▁받았다고
▁두꺼
▁병을
▁사관
▁온갖
▁투르
하기는
▁데스크
스페
유지
▁79
▁라그
▁벌금
▁열심
▁중서
업으로
CACAF
▁구성되었다
항에
▁고인
키아의
▁끌었다
▁붙여진
▁아키텍
▁지도를
대학교는
▁공개했다
공연
날레
테는
▁LA
▁치안
▁현악
되도록
▁지구를
▁부드러운
▁학생들은
초는
▁CN
▁갱신
▁여우
▁자아
▁잘라
▁장흥
마스터
우스가
ence
▁보여준
▁알리는
▁광양
▁구와
▁하차
▁GDP
▁승강장을
▁드래프트에서
국적
▁어뢰
▁프렌
▁하부
크리트
▁시대가
▁질량이
▁의미하며
▁플레이어는
하와
히트
▁7,
▁기회
▁기간은
▁똑같은
▁가브리엘
▁마을에서
▁위원회는
▁일렉트로
++
상업
플레
ear
▁6,
▁동점
▁땄다
▁발병
▁전격
안에서
클레오
▁평화를
▁시작하였으며
말에
편성
▁세네
▁아산
▁없던
▁집결
▁개념이다
▁되어있다
▁분위기를
▁독립운동가
코타
▁84
▁가네
▁메릴
▁조조
▁진을
▁판사
년대와
▁버전을
▁보내고
▁제기되었다
양성
철이
커가
▁수장
▁시립
▁이규
▁컴백
도르프
▁아돌프
MC
루냐
▁Is
▁길에
▁숙청
▁원의
▁가지의
▁파란색
▁No
▁문인
▁콜라
▁다케다
▁모티브
▁인간을
TP
카에
▁냄새
▁매매
학적인
▁다녔다
▁메달을
▁미술관
▁델라
▁성이
▁한해
▁센고쿠
▁인증을
▁개념으로
▁실시하고
간은
건축
니치
▁SD
▁마녀
▁비영
▁소모
러시아
▁부대가
▁비행기
▁스테이
▁자기의
▁회사인
▁둘러싸여
▁아니라는
▁팰
피가
▁조세
▁소리가
▁등장하였다
FF
▁마닐
받았고
▁사랑에
▁세워져
▁세이부
▁예이다
유도
호텔
▁예시
당하는
▁대표는
▁애비뉴
▁헌법에
▁나타내고
▁생물학적
벨라
이한
▁진실
▁화순
▁비하여
명이었다
▁미사일을
▁조별리그
광을
취를
▁유진
▁인명
▁대도시
▁불가능하다
나에
맥스
▁세비
▁이빨
▁제퍼
▁허가를
▁각지에서
▁허리케인
피에
▁71
▁발각
▁형상
현에서
▁것인지
▁공항은
▁가정에서
▁미네소타
복은
형사
▁경연
▁나를
▁다마
▁뽑아
▁오류
▁기여를
▁마다가
▁임명되었고
au
노르
집행
형제
.11
▁국어
▁다테
▁믿는
▁앞장
▁반도체
▁점수를
▁적용되었다
▁쾰
▁배후
▁생체
▁측에
▁태백
▁건축가
▁선출된
규는
림과
지오
▁암흑
▁카사
▁하비
여명의
▁마오쩌
▁상황은
▁위험이
▁작업이
▁정권이
▁트로이
▁작가이다
▁과의
▁자생
▁천재
수에서
▁마르틴
▁야마구치
▁스튜디오에서
벌을
진보
▁사바
했음을
▁사전에
▁마가
▁입헌
▁종착
▁계약이
▁궤도를
▁모습은
▁시애틀
▁지구에
▁토지를
▁우승했다
▁경기장이다
▁출판되었다
▁밭
▁앰
▁돌을
▁윤보
▁애리조
▁저기압
▁전투의
▁클레멘
▁되었다는
▁선수로서
▁최대풍속
망의
▁들려
▁워크
▁지미
바야시
▁350
▁기업이
▁여우주연
▁관악
▁유의
▁외에는
▁일제의
▁사용하면
▁향토문화
▁시뮬레이션
염을
운은
효과
▁용병
▁원조
▁기관총
▁맨해튼
▁자세히
▁1885
▁낫
▁섀
_12
▁김옥
▁이타
번으로
▁청주시
▁표현한
▁이적하여
▁팔레스타인
토와
▁내정
▁정유
▁차용
▁별개의
▁연구와
▁잡아먹
▁현재도
절이
▁가열
▁모인
▁장미
▁통용
▁활발히
업과
창의
irl
▁견인
▁키는
▁퇴적
▁동일하다
ox
러드
물리
▁이방
▁시험을
▁아폴로
▁흔적이
▁사용되며
CC
편은
형인
▁박지
▁세조
▁음료
▁국가와
▁꼽힌다
▁임명된
▁1870
▁합류했다
▁프로젝트의
마크
▁미셸
것으로
▁교수를
▁김정은
▁역까지
▁종교의
▁주머니
▁오클랜드
▁북아일랜드
▁89
▁가자
▁곡선
▁불태
▁성리
▁폭행
▁헬륨
▁황해
▁휴전
▁누구나
▁선수들
▁거부하고
▁연구에서
콜라
▁가문은
▁치열한
▁뷔
모스
있게
▁굵은
▁직장
▁표지
▁주위에
▁서식지는
▁때가
▁경찰이
▁어렸을
▁뾰
거의
부리
▁권유
▁나은
▁숨어
▁양반
▁태그
▁해고
▁회로
lass
▁실력을
▁엔진이
▁릭
▁으
당인
▁상인
▁연수
▁파동
▁나라는
▁투수로
▁다이아몬드
출판
▁동인
▁취항
▁학원
▁히라
▁절차를
현대
▁명사
▁미터
▁제의
▁체인
▁NAS
▁디비시온
▁딕
▁갑옷
▁개를
▁분출
▁앤더
▁전날
▁투명
사무소
▁이르렀
▁홍콩의
▁공격으로
▁케임브리지
▁난을
▁양을
▁줄여
▁지평
조에서
▁기반한
▁말까지
▁붙었다
▁시청률
▁것입니다
▁벨기에의
▁연합군의
▁인터페이
▁일어나고
▁클럽이다
▁샌드
▁시간의
▁이상한
▁콤팩트
▁연결되는
창은
▁별이
▁상해
▁회피
▁인류의
▁합스부르크
MB
▁연못
▁확신
위이다
▁도마뱀
▁무대로
▁사거리
▁게임으로
include
▁살려
▁상표
▁세기
▁오로지
덴부르크
▁방송되는
선수권대회
▁우즈베키스탄
복의
태를
트루
▁이룩
▁조광
루시아
석에서
▁형성되어
-13
▁가구
▁매체
▁몸의
▁빌라
▁피를
▁나오고
▁세력은
▁1871
▁오사카부
▁통합하여
▁김구
▁밀리
▁박람
▁차원
▁빨간색
▁주위를
▁진행하는
▁취임했다
롭고
중추
▁돌격
▁황족
▁가족과
▁가지로
▁길이의
▁요시노
▁컨트리
▁발생하여
능한
▁곤란
▁광명
▁둔다
▁상담
▁로마에
▁인디애나
▁CONCACAF
▁감싸
▁고소
▁맞고
▁들어올
▁비주얼
▁집안의
▁최고인민
니오
▁드레
▁오크
▁이건
팀으로
▁가격이
▁문제와
▁간주된다
▁올랐으며
▁프로젝트는
번이
▁수녀
▁스텔
▁체크
▁스카우
▁여성을
▁카르타
령과
▁돌출
▁봉기
▁서원
▁실존
▁패전
▁시장의
▁이해할
▁전략을
▁회원국
▁방송되었던
도스
러브
록을
요를
처는
▁즈음
▁80%
▁올바른
▁작성한
▁케네디
▁퍼포먼
▁기본으로
▁선수단은
▁GN
▁누적
▁직할
▁터치
관계가
해졌고
▁구단은
▁위주로
▁닫힌
▁가사를
▁기술적
▁본래의
▁일대의
▁창원시
▁시즌부터
▁교양
▁보라
▁부도
▁자칭
▁사카이
▁중국은
ivers
감의
군다
히코
col
▁미라
▁베른
▁상응
▁손실
▁양육
▁조병
▁치세
타이드
▁리그인
▁불규칙
▁인정하는
▁세종특별자치
▁j
▁썬
▁엇
랑은
비오
포와
▁박헌
▁부재
▁장을
▁공격해
▁기간이
▁반도의
▁스포르
▁카드를
▁정의된다
700
▁간선
▁기기
▁터보
▁USS
▁마스크
▁방법에
▁선발로
위원회에
▁사용되지
▁음원
▁바꾸는
▁소련은
▁열매는
▁주도는
▁학생들을
개에
그의
카리
▁늑대
▁인간은
▁평론가
▁경기도의
▁로마에서
▁해체되었다
▁아리스토텔레
어리
직할
케는
▁궁궐
▁목성
▁아날
▁총장
▁혐의
▁103
▁구단이
▁태권도
러를
lat
▁추종
▁태자
▁토끼
▁막부의
▁자란다
▁접근할
▁해군은
▁부근에서
▁IN
▁끌고
▁데모
▁초빙
공으로
들었다
주이다
▁물질이
박쥐과에
▁은퇴했다
LA
암의
토모
▁노인
▁데카
▁약혼
▁현행
▁혁명을
점인
▁삼척
▁스칸
▁건설된
▁관직에
▁부드럽
▁슬라브
▁안전한
▁올리는
▁제도에
▁중국인
▁노선이다
▁대대적인
▁유러피언
▁클라우드
메가
▁저널
케라톱
▁All
▁소문이
▁제시한
▁공격했다
▁킬로미터
▁대북
▁대행
▁사리
▁원격
속에서
▁CBS
▁묘사한
▁사건과
▁플래시
▁수단으로
az
▁낚
아래
야와
▁돌로
▁만료
▁처분
▁치고
▁수학적
▁제한된
▁흐름을
▁가을에
▁갈등이
▁장소로
▁받으면서
▁유래했다
▁평안남도
▁기록되었다
▁면허
▁발의
▁함양
▁호프
▁논란을
▁동유럽
▁약칭
▁가져온
▁극심한
▁높이가
▁신화의
▁플라이
▁델타
▁올드
▁타당
▁도왔다
▁안티오
▁자랐다
▁용어이다
▁일이었다
액이
▁가맹
▁가솔
▁당원
▁동조
▁연소
▁차를
▁Mus
▁따뜻한
▁뛰었다
▁모니터
▁붙였다
▁장애인
▁사람들과
▁노란
▁상경
▁주자
▁해저
개월간
이었을
학자이자
▁맘
어족
▁경에
▁불린
▁선비
티아의
▁균형을
▁그곳에
▁독일에
▁수도를
▁노래이다
▁필요성을
약한
▁전래
▁제너
▁펜싱
▁회화
론으로
제도를
▁with
▁병원에서
▁알래스카
▁슬로베니아
▁헥
▁구해
▁요인
만명의
블랜드
▁5.1
▁브리튼
▁스테파
▁심리학
▁통치를
▁한국과
▁옥스퍼드
▁더불어민주
▁뻔
요리
파리
▁강진
▁업적
▁평을
▁나타나고
▁역사에서
▁항공모함
▁형성하는
▁프로그램으로
▁년간
자리의
▁EBS
▁싸우는
▁정책은
▁코치를
들리
민과
안과
▁다를
▁않자
▁그룹이
▁바꾸고
▁완성된
네르
야스
티넘
▁공표
▁미션
▁One
▁마라톤
▁에서는
▁살아있는
▁얕
세다
ife
▁경작
▁고산
▁부시
▁나라가
▁대신해
▁자유형
▁종목은
▁책이다
주의적인
▁활동하다가
▁소통
아버지
▁동쪽의
EG
▁웬
▁은거
▁하치
누스의
회의를
▁의무를
▁인테르
▁죽음의
▁현상은
▁실패하고
▁복용
년에도
자에서
ical
▁그룹을
▁남북으로
▁사용하기도
▁팀과
▁철학적
난성
제학
▁공수
▁복소
▁작아
▁MTV
▁지난날
▁고려하여
▁동일하게
▁오케스트라
궁을
나로
채가
▁삼중
▁카시
▁풍자
▁생겨났다
▁연기했다
감염
법상
채는
ild
▁어쩔
밀하게
▁민간인
▁분리된
▁사라진
▁사태가
▁음반에
▁자체의
▁트럼프
▁하느님
▁방문하여
▁운영되고
▁이전까지
Co
▁%
화할
▁맞대
▁방침
▁앞의
▁종을
▁의혹이
람쥐
숙은
▁가늘
▁선로
▁예하
▁옵션
▁파산
▁디자인은
▁오늘날에는
▁샐
보리
전인
.2%
_13
▁공신
▁서산
▁진해
대통령
▁가족을
▁소나타
▁순위를
▁파이터
▁10,000
▁싣
▁Ex
▁맺어
▁배려
▁사서
▁성에
▁에게
▁지쿠
▁포착
▁THE
▁분석을
▁손해배
▁전쟁과
▁시기에는
▁단식
▁배속
▁순조
▁이븐
▁결정에
공무
난을
▁83
▁대마
▁레온
▁요하
▁읽고
▁조류
▁표본
경찰서
▁전통적
▁은퇴하였다
나시
상도
▁kt
▁반경
▁부각
▁충전
▁타협
스트가
킬로미터
▁애리조나
▁애틀랜타
FL
삼존
▁명목
▁무척
심으로
▁레스토
▁박쥐의
▁의혹을
▁평안북도
기갑
노를
▁al
▁뾰족
▁구간의
▁소련이
▁오르는
▁위에는
▁성적으로
▁요청했다
▁추구하는
는가
작인
청구
초로
▁감금
▁기단
▁아쿠
▁자산
▁성으로
▁에스페
▁연합의
▁관할했다
▁스트라이커
시한
▁불참
▁의결
▁최성
부에는
▁시리즈에
▁흠
사르
조각
트레
▁음향
▁키가
▁후세
▁긴테쓰
▁두개골
▁물체의
▁선택할
▁순으로
▁변경했다
루수
▁결별
▁오아
▁타케
▁생각이
▁쓰여진
▁와일드
▁도쿄에서
년동
렉션
업체
티드
▁''
▁되던
▁미만
▁청산
▁티켓
▁하반
연으로
▁가깝다
▁십자군
▁원나라
▁1600
▁도착했다
▁증가하고
▁김원
▁흥미
▁생산된
▁조성된
▁지원하고
린과
lay
▁Ad
▁협조
교에서
▁모두를
▁싸움을
▁않아서
▁이전부터
▁개봉되었다
oh
놀이
망에
승의
▁긴장
▁피의
▁말부터
▁법무부
질러
▁식당
▁우정
▁품질
▁내리는
▁아이디얼
여자고등학교
풀이
ish
▁93
▁내어
▁로얄
▁국민당
▁미주리
▁축구단
▁퐁
che
▁겪고
▁리보
▁바우
▁세자
▁연인
▁히사
▁115
▁미치지
▁서쪽의
▁제목은
▁하워드
▁필리핀의
▁EU
▁넷째
▁농장
▁전함
▁고대의
▁머리에
▁건물이다
▁기여하였다
~6
▁찐
리마
정상
▁공방
▁늦게
▁방화
▁전동
▁합친
▁무렵에
▁아이폰
▁중심에
계에서는
▁가르쳤다
▁유지하기
▁출연하여
▁클리블랜드
ll
창한
▁남미
▁압력
▁최진
▁트렌
▁전기의
▁아무것도
▁야마가타
▁서울특별시의
":
ah
사한
시킴
장로
츠크
▁번성
▁신형
▁코카
차례의
▁남쪽은
▁판매를
▁기념하여
종에
▁92
▁경질
▁날이
▁독창
▁비엔
▁갈리아
▁방향에
▁주연을
▁하도록
▁수행한다
▁체포되었다
쉽게
▁명은
▁시어
▁유타
▁차체
▁탐구
리스는
탈리아
▁2-0
▁개인적
▁공간은
▁서울에
▁유럽과
▁젊은이
▁내용이다
법률
태는
ica
▁공이
▁나루
▁동학
세기에는
리던
리온
▁대패
▁백두
▁전이
▁쾰른
정부는
▁못하여
▁성향의
▁열대폭
▁방면으로
▁체코슬로바키아
▁샀
▁5.
▁고든
각형의
▁밴쿠버
▁솔로몬
▁선수들은
7,
더를
~10
▁안도
▁서재필
▁코무네다
6,
더가
하늘
▁격투
▁살라
▁시몬
▁원숭
▁의문
▁인산
▁제인
▁증대
▁한중
고에서
지었다
▁상관없이
▁신동
▁안드
▁청룡
▁타구
▁해가
▁확진
▁세포의
▁총리는
리니
절의
▁데서
▁서쪽은
▁조정의
▁오케스트
▁수여받았다
▁Cl
▁방콕
▁중퇴
▁짧고
▁헬레
쪽에는
▁왔으며
▁저널리
▁클럽의
▁하루에
▁1200
▁부총
▁왼손
▁이현
▁즐길
▁취업
해야만
▁되도록
▁여파로
▁열차의
▁영국이
▁늘어났다
▁발견되지
묘한
▁고토
▁우회
▁쾌속
▁마누엘
▁앨범에
▁제국과
▁중국을
▁인공지능
독한
무의
▁리바
▁석회
▁우측
▁좌석
▁싸웠다
▁표현할
▁협력을
개국에서
▁위키백과
▁한편으로
▁효과적인
/0
EL
▁맷
추진
▁용암
▁이씨
▁선수들의
▁영화제에서
▁나비
▁다툼
▁몽고
▁예는
라디오
▁지진이
▁했었다
▁100%
▁압도적인
간지
▁요동
▁정선
▁죽인
▁춤을
▁동대문
▁지역인
박물관에
▁냈
전국
쿠르
연대는
▁일하고
▁바르샤바
▁연극배우
▁국가대표팀에
ax
▁국적
▁아유
▁영지를
▁증상이
▁않았다는
▁전국적으로
심과
▁궁전
▁파기
티미터
▁나라에
▁내용에
▁달러에
▁내부에서
시인
타고
하르
▁SL
▁계수
▁김유
▁노면
▁대각
▁유식
▁간신히
▁승리에
▁알파벳
▁앨범인
▁인접해
▁케이스
▁거부했다
▁관계없이
▁내에서는
▁판매하는
배가
▁글자
예정자
학교는
▁구하는
▁정도에
▁제출한
▁대한항공
▁수록되었다
-23
800
▁목판
▁바흐
▁주입
▁투항
▁파손
▁한명
▁권위를
▁도입한
▁토스카
▁아랍에미
▁명명되었다
▁모셔
▁일일
▁제임
▁치즈
▁혼성
비치는
▁원인으로
▁이용된다
농업
밀히
밴드
서스
일자
▁갤러
▁반격
▁시부
▁시정
▁이렇
▁입지
승으로
▁경쟁을
▁받아야
▁언론에
▁담당한다
▁과반
▁궁정
▁온건
▁조국
대회를
치에서
▁도덕적
▁바다에
▁제정된
▁발견하고
▁작품에서
▁주관하는
▁하였지만
pr
월호
제곱
상규명
▁가르침
▁단독으로
▁에너지가
▁업그레이드
▁떡
▁다름
▁입양
년도에
▁남성의
▁무리를
▁정의는
▁지리적
▁헬리콥
년대까지
▁설명하고
럴드
위한
해석
▁셀레
▁절단
▁소나무
▁표현이
▁강조했다
▁극장에서
라니
▁것일
▁기수
▁박종
▁산지
▁투여
능력을
▁시도를
▁혼란을
▁최고인민회의
평의
▁경희
▁나노
▁미륵
▁미키
▁이송
▁전복
당하여
세였다
스키의
▁Mar
▁1889
▁스톡홀름
ru
나기
디와
▁부에
▁유혹
▁...
▁그렸다
▁낳는다
▁심하게
▁죽음에
▁선수단이다
RT
셨다
원자
준을
틴은
▁겹쳐
▁얇은
▁염기
▁전국의
▁조약이
축을
▁고쿠
▁몰수
▁벌여
▁헌신
▁경제는
▁당대의
▁독일인
▁떨어뜨
▁하느님의
▁종료되었다
트넘
▁드라
▁사쿠
▁씨앗
▁휩쓸
▁대화를
▁열심히
▁후지와라노
▁Bl
▁개항
▁것의
▁바꿨
▁90%
▁당하고
▁동쪽은
▁보고서
▁정의를
▁주도한
▁지키고
▁지키기
▁홍문관
▁효과는
터키
황의
▁리옹
▁프롤
▁가상의
▁똑같이
▁레이싱
▁무궁화
▁상처를
▁수도로
▁역할은
▁형성되었다
IL
부아
졌기
.4%
▁마셜
▁조형
▁초고
▁프론
하기가
▁대기업
▁아키타
▁노선으로
▁네이션스컵
알라
인당
▁인원
▁칼럼
▁토크
▁펑크
▁행진
▁논쟁이
▁목성의
▁시에서
▁하나다
▁진행하였다
데라
하겐
ous
경기장
음보살
▁선수의
▁조반니
▁힘으로
▁임명하였다
▁축조
▁파인
▁힘썼
▁세금을
▁전당에
▁조직은
▁챌린지
증권
▁바에
▁정동
▁헬싱
▁화를
▁대대로
▁사상은
▁한계를
.6%
▁다투
▁렌즈
▁막는
▁메뉴
▁문경
▁이득
▁하르
청에서
▁열차를
▁참여할
스퍼
토로
▁Sy
▁그저
▁노조
▁대부
▁차출
▁몽골의
▁시간대
▁프레이
EM
미나
미타
조부
▁광학
▁첨단
▁항목
▁장면이
아트
▁국유
▁선원
당이다
▁겉보기
▁그래도
▁출판된
▁정기적으로
결혼
락은
미래
척을
카쓰
▁강풍
▁구형
▁대영
▁장제
되어서
▁구역은
▁미하일
▁의사소
▁체계는
▁토리노
▁함경남도
성인
토록
합을
▁봄에
▁뉴캐슬
▁리그로
▁이름과
▁혐의를
▁수록예정자
▁거창
▁내걸
▁어찌
▁윌슨
정부가
only
▁마이애
▁클레이
▁천문학자
▁사용되기도
지스
포에
▁김광
▁드는
▁점수
▁제대
로이드
▁대표가
▁발표하고
▁활동하며
여단
지지만
▁동등한
▁헌법을
▁활동하던
▁활발하게
술은
▁딸이
▁생일
▁다양체
▁반응이
▁패트릭
위원회에서
▁박사학위를
읍에
ern
▁ch
▁아빠
▁이겨
▁처럼
▁AKB
▁규정을
▁음악과
▁자유의
▁장르의
▁천황이
▁컴퓨팅
웠던
▁개헌
▁경의
▁돌고
▁보석
▁인과
에너지
▁난카이
▁드디어
▁아이가
▁우려가
▁협정을
▁댓
다와
어인
▁아데
▁가리지
▁사항을
▁시작할
▁유리한
▁화학적
▁그룹으로
▁전반적인
▁프리메라
스기
▁수령
▁슬픔
▁저하
났지만
우스와
▁OST
▁그보다
▁도로를
▁다양하게
▁선임되었다
버의
복음
▁소울
▁서울로
▁한국을
▁황제는
PC
미네
정권
▁고원
▁관점
▁아프
▁천거
▁테무
▁건조한
▁영역에
▁1848
▁헤르체고
▁공백
▁김명
▁발해
▁선은
하게도
ance
▁내각의
▁노래가
▁레드삭
▁자메이
▁만들었고
▁아날로그
조리
▁EX
▁선행
▁세븐
▁짓는
▁출가
▁검사를
▁게릴라
▁교통의
▁반응은
공화국의
▁국무총리
▁패럴림픽
사범
row
▁동네
▁카즈
▁호를
▁복소수
▁약속을
▁JTBC
방정
▁벽돌
▁부합
▁세트
▁수필
▁음모
▁일괄
▁입주
▁축구를
받았으며
▁에스페란
▁운행하고
런의
▁공천
▁이완
▁중형
▁타자
▁회상
▁ATP
▁불안정
▁서대문
▁영업을
▁호르몬
과정에서
▁그녀에게
▁스타일을
▁점령했다
▁베네수엘라
네티
세요
▁NT
▁이언
▁재일
▁과도한
▁명확한
▁소피아
▁앤드루
▁일반화
▁친구인
▁주민들의
거가
복합
_14
▁AV
▁복장
▁싸이
▁정작
▁추서
났는데
▁노르망
▁양식의
▁지휘를
▁페트로
▁스크린도
▁출발하여
-09
▁저격
▁비영리
▁식물의
▁왕실의
▁제품의
▁보존되어
경비
▁기고
▁랴오
▁방치
▁보증
▁각지의
▁마리의
▁모시고
▁목적이
▁전신인
▁총리를
▁플래티넘
수지
▁때려
▁페니
공사의
리그에
▁강남구
▁교회는
대한민국
스레
코딩
▁갖지
▁무작
가능한
▁함수를
▁간격으로
▁공격하는
▁정당이다
▁지도자로
비용
orn
▁노이
▁잠정
▁장사
▁침묵
제에서
▁빅토르
▁신학자
▁프로모
▁해병대
▁캐나다에서
현실
▁먹이
▁앙골
▁차로
▁키르
▁휴식
갔다가
해지자
▁것이나
▁모리스
▁생긴다
▁수용할
▁엘리트
▁함수는
▁앗
극을
후가
▁모호
▁연봉
▁정성
▁코시
디자인
틀러는
▁라파엘
▁바뀌어
▁프로세서
ows
▁SH
▁격추
▁브룩
▁우아
▁카테
개국이
운동장
olog
span
▁언론인
▁유지할
▁작성된
▁사운드트랙
락의
▁공존
▁산둥
▁찬양
▁희곡
▁독일군
▁생겨난
▁z
.1%
▁모색
▁모자
▁집회
▁파란
▁형인
▁노래로
▁달라고
▁북쪽은
▁북한이
▁설립하여
▁프란체스코
공파
철학
ann
oll
▁요충
▁이모
▁코소
▁부모의
▁상업적
▁요제프
▁전략적
▁관해서는
▁1,500
▁소프트웨어를
▁모의
▁집어
▁매카트
▁명확히
▁작전에
▁포스터
▁콘크리트
교사
벨트
재산
컴퓨
▁병원에
▁아나톨
▁강조하는
▁세인트루이스
라드
부지
호르
▁이양
▁혼다
그룹의
테리아
▁단체의
▁면이다
버른
천년
▁가산
▁다윈
▁돼지
▁섬과
▁승점
▁평평
▁핑크
▁무소속
▁주위의
▁개발했다
▁작용하는
▁고아
▁바꿀
▁산이
▁인재
▁칸은
▁포스
버스는
▁개통되었다
▁고려시대의
치히
▁발령
▁점과
▁찍은
▁경로를
▁놀라운
▁대사관
▁참가할
▁발견되어
▁늙
▁홉
그러
니코
물인
키타
▁김형
시간이
위까지
테이너
▁대단히
▁대전의
▁미야기
▁아리아
▁그랑프리
▁청나라의
▁시즌에서는
▁한편으로는
▁쿡
기둥
련된
바퀴
.3%
▁묶어
▁상급
▁스포
▁헤어
▁도로가
▁모로코
▁일본군의
노리
보장
ook
▁매력
▁배수
▁철폐
저기압
▁부대의
▁사망자가
▁에콰도르
니라
▁매킨
▁수양
▁호크
▁마르티
▁암컷은
▁마오쩌둥
▁프랜시스
비서
▁MB
▁강대
▁대왕
▁명인
▁상공
▁씨가
▁보낸다
▁여겼다
▁왕가의
▁청동기
▁기간동안
▁이용해서
▁받아들였다
▁아이스하키
onlyinclude
.7%
▁Ph
▁국한
▁듣지
▁줄리
▁미군의
▁방안을
▁유닉스
▁알렉산드리아
절에
▁WH
▁느린
▁적어
▁포터
▁현종
▁의지를
▁버전으로
▁붙여졌다
▁여겨졌다
▁한국철도
공작
아과
자고
▁루카
▁류큐
▁막스
▁따왔다
▁마을이
▁연이어
세기까지
▁입학하여
▁자료이다
▁데뷔하였으며
두의
▁성명
▁컴파
▁프란치
대학교를
▁대체되었다
▁실시되었다
/3
몽골
.8%
▁블레
▁비전
▁중엽
▁출석
▁220
▁정책의
▁서비스가
▁시작하고
▁쉴
금과
등과
에스
초가
케의
▁별세
▁질문
당한다
▁ABC
▁느끼고
▁단어가
▁전화를
▁처분을
▁후기에
▁출전하지
료는
복이
▁간략
▁값은
▁기해
▁입국
▁지출
▁기관차
▁분야를
▁원칙을
▁사용되어
▁이번에는
워서
▁감수
▁산성
▁상행
▁서임
▁전수
관계에
대학의
순위로
조참판
▁아이언
▁예컨대
▁무대에서
▁증가했다
▁캐릭터를
공화
▁가신
▁유목
▁도시인
▁서로의
▁부족으로
▁스튜어트
▁일어나지
디지
▁떠오
▁전전
▁클러
▁가로지
▁끼쳤다
▁의회에서
소비
▁극우
▁병이
▁선천
▁최강
가지가
만원을
▁가져다
▁금요일
▁득표율
▁사이로
▁의문을
▁전자의
▁흐르고
▁정치적으로
독을
▁un
▁면이
▁무안
▁좌측
우리는
▁생성된
▁시에는
▁앨리스
▁유학생
▁해안에
▁카탈루냐
되나
섬의
▁선동
▁입구
▁자란
▁전무
▁죽게
▁허드
▁API
▁마르세
▁부인은
▁에어로
▁장소에
▁영화에서
▁대한민국을
▁기인
▁베리
▁접한
▁카지
▁학과
▁항쟁
▁않아도
▁음반이
▁경상북도의
▁댈
균은
왕국
원인
유예
저의
충은
▁마애
▁전담
▁정읍
▁콘솔
각으로
▁손실을
▁않다고
▁어렵게
▁직위를
▁클럽인
▁NASA
▁투수이다
▁경기장으로
부산
▁서귀
▁체조
▁트란
▁넘어서
▁인간과
▁충청도
▁있어서의
사도
▁우의
▁천천
▁고양시
▁소유한
▁정하는
▁시즈오카
방법
속도
▁금호
▁도래
▁동정
▁면제
▁채취
▁신화에
▁정하고
▁1883
▁영향력이
EE
가게
바리
욱은
▁제천
화하기
▁대니얼
▁대표를
▁새끼를
▁피라미
▁협회의
▁공산당의
▁설치하였다
년제
_16
les
▁국외
▁성곽
▁규모를
▁시장이
▁부르고뉴
▁여겨지고
▁중심지로
▁Gr
▁김천
레이트
▁3.5
▁고문을
▁안정된
▁영국령
권에서는
▁국내에서
▁지원하기
▁습윤
▁이기고
▁코스타리카
▁토착종이다
▁(
▁깜
격은
배의
불이
지정
▁PR
▁간이
▁관동
▁살게
▁악의
▁주조
▁직통
▁포수
▁논쟁을
▁도메인
▁모른다
▁오카야마
▁만들어진다
8,
노와
됐던
▁동력
▁원통
▁유해
▁쪽에
▁타지
▁하키
오스트
▁1.0
▁비롯된
▁수행했다
▁정상적인
나비
색과
월을
전달
▁AD
▁경복
▁낙하
▁대역
▁맞춘
▁번영
▁사쓰
▁실재
정이다
▁노래의
▁방정식
▁자원을
▁전까지는
▁창설되었다
▁죠
것이
끄러
▁강간
▁백신
▁스와
▁접수
▁거두며
▁기법을
▁내리고
9,
▁딥
▁숀
손의
키스
▁은혜
▁의령
▁장이
▁쿠빌
▁타르
▁70%
▁가솔린
▁믿었다
▁소재의
▁오일러
▁표현은
좌를
▁공감
▁반전
▁시이다
▁유력한
▁증거를
▁카메룬
▁동치이다
▁안정적인
▁프랑스령
망은
ink
▁보리
▁분지
제이다
▁곳곳에
▁되어야
▁시코쿠
▁튼
견이
공단
록은
▁군부
▁비늘
▁솟아
▁유료
▁혼동
퍼런스
▁파일럿
▁성장하였다
▁여객철도의
내가
전대
크레
▁반포
▁일기
슬레틱
▁구하기
▁목소리
▁의석을
▁행하는
▁사용자의
▁아프리카의
OK
▁니혼
▁당주
▁야외
▁옮긴
▁일차
▁조인
부분에
▁공로를
▁남자가
▁헤이안
적이라고
▁선수였다
대성
▁농어
그리스
▁방사능
▁별자리
▁생명을
▁만들어져
▁형사소송법
▁구이
▁다듬
▁미소
▁사의
▁세레
▁견해가
▁규칙을
▁퍼스트
▁가나가와현
▁독립적으로
▁독자적으로
티를
▁노바
▁옥타
▁종군
헝가리
▁바다의
▁케이프
▁새누리당
▁쑤
바오
테의
▁김윤
▁김인
▁하프
는다는
▁친구가
▁활동의
▁1882
▁미래통합
▁스트라이크
EX
배에
창이
▁간첩
▁냉전
▁로페
▁열을
▁대중의
▁양자로
▁원리를
▁프로그램인
방과
▁많지
▁언니
▁폭파
▁1-2
▁뉴욕주
▁대륙의
▁보내어
▁여지가
▁해밀턴
▁보호하는
▁프로듀서이다
부작
암아
▁BM
▁CM
▁극락
▁유비
운동이
▁공으로
▁글로브
▁남동생
▁따라서는
▁해당되는
조치
탄은
품은
ref
▁경인
▁자서
▁죽기
▁첼시
▁페레
▁그것의
▁멜버른
▁영역에서
▁싼
▁느낄
▁자결
▁칼로
▁문화에
▁정상에
광이
메트
문서
출력
▁누이
▁폭풍
민스터
들이었다
설의
세손
순의
▁수락
▁오락
▁중합
▁경제를
▁너무나
▁미토콘
▁월요일
▁피해자
▁지배하는
말의
통상
▁글꼴
▁우파
▁차관
▁컸다
▁받았던
▁북유럽
▁수업을
▁왕국이
▁음악이
▁조직에
님은
여행
▁사탕
▁켈트
년경에
층에서
▁못했지만
▁룸
▁드리
▁모범
▁생겼
▁우치
▁조로
▁커리
▁구조와
▁배터리
▁샌디에
▁이론이
▁단체이다
▁올림피아
▁주인공으로
▁괄
궁에
▁고딕
▁예고
▁지류
익스피
▁치렀고
▁밝혀지지
▁키프로스
세키
▁고다
▁영장
사들은
집으로
▁구축함
▁마음의
▁질문에
스테르담
여자중학교
▁전반적으로
안보
지던
▁고흥
▁기와
▁매수
▁보강
▁에레
▁허리
르트의
▁달리는
▁정보는
▁최연소
▁패배한
ec
▁찔
기며
마귀
바가
시다
파울
히지
▁OB
▁모른
▁부평
▁소극
▁실무
▁우한
▁해부
▁여배우
▁물리치고
oo
등은
랑의
▁강철
▁군정
▁아메
▁역도
▁장안
▁성향을
▁지닌다
▁컴퓨터를
▁개발하였다
▁발전하였다
▁므
먼의
시카
예가
▁En
▁가타
▁더비
▁승무
▁와인
▁집정
나에서
내었다
▁발전소
▁산업은
▁수준을
▁용인시
▁종류는
▁미야자키
▁유지했다
▁통과하는
▁불분
▁해왕
▁히메
단했다
▁기록과
▁남았다
▁메시지
▁목록을
▁못했던
▁스트레
▁이사회
▁의미이다
▁하나로서
남부
승지
▁도네
▁수로
▁앞선
족으로
펜하겐
▁40%
▁단계를
▁루돌프
▁방식에
▁체제로
▁행성이
▁전해지는
▁차지했고
스콘
▁연동
▁잃게
▁재외
▁쓰기도
▁일으킨다
▁탈락했다
수단
▁고이
▁보은
▁성전
▁스퀘
▁생전에
▁예전에
▁지구가
▁카이로
▁벨라루스
▁미드필더로
▁피아니스트
▁쟈
포시
▁가의
▁조슈
▁지극
▁파병
▁SNS
▁수사를
▁어느날
▁실시하는
▁국회의원을
▁플레이어가
당할
.9%
▁러일
▁서스
▁송신
▁잠깐
▁정전
▁평의
▁Sou
▁int
▁가족이
▁지상파
▁Your
▁들어가게
세력
▁꿈꾸
▁장인
▁추억
▁피핀
일체유
▁단계에
▁은메달
▁자유당
▁결승전에
극의
불의
청과
▁GO
▁김준
▁놓인
▁로비
▁감옥에
▁급속히
▁레오폴
▁이스탄
▁체제의
브가
타도
▁검거
▁겪은
▁그외
▁오해
▁공군의
▁비타민
▁후계자로
AI
모어
▁공고
▁연립
클리드
▁기준이
▁선언을
▁아라곤
▁위치가
▁그레고리
와도
▁가중
▁관세
▁금산
▁루키
▁마린
▁새긴
▁정인
▁정자
▁초콜
▁포럼
▁문학의
▁활동과
▁옮겨졌다
▁진출한다
공과
름의
매김
옆면
▁교정
▁픽처
드리게
▁몬테네
▁자기가
▁진행을
▁클럽은
▁Wind
고속도로의
▁겔
박이
비언
아마
우로
후는
▁91
▁소외
▁포토
역까지
▁1868
▁여겨지는
▁예전에는
▁담당하였다
TE
▁첸
길에
길은
▁이누
▁작다
▁원정을
▁대항하여
▁설립되어
▁적용된다
▁효율적으로
경쟁
죄로
테른
▁공성
▁10,
▁밖에서
▁본부를
▁사상의
▁산티아
▁활동했으며
정지
프턴
▁단원
▁악마
▁장덕
▁키보
선거구
▁가공의
▁단계로
▁도야마
▁측에서
▁역임했으며
료가
자금
훈이
▁송도
▁에른
▁파는
명이며
번이나
지거나
페스트
▁가이드
▁명령에
▁설일체유
▁확정되었다
▁FK
▁미세
▁보복
▁적분
▁호쿠
▁교회가
▁빠졌다
▁용어가
▁학생이
퍼레이션
▁대항하는
지않
통치
표의
데이터
▁For
▁신앙을
했음에도
그마
근을
디로
통과
▁신입
좌상은
▁영원히
▁전하고
▁증상을
▁결합하여
▁비판하는
▁쿠데타를
▁아프리카계
선형
▁돕는
▁블로
▁산호
▁조셉
▁기타를
▁외국어
▁카타르
▁판정을
▁학교는
▁Live
▁기념하기
▁말미암아
▁인도네시아의
BL
변호
▁8,
▁이이
▁탄자
▁화엄
들처럼
하겠다
▁느끼는
▁동메달
▁본질적
▁차례에
▁것이므로
양과
처의
히게
ung
▁나갈
▁오기
▁LED
▁구성은
▁생활에
▁세우는
▁흐른다
도서관은
디나비아
▁프랑스를
▁홍콩에서
▁1:
▁자작
▁가격은
▁근거가
▁다목적
▁볼티모
▁작업은
▁흥미를
강전에서
▁관련되어
▁불과하다
▁서울중앙
▁일제강점기
▁챙
막이
▁과테
▁럭비
▁사인
직하고
▁예선에
▁자료는
▁저항을
▁프랜차
▁나타나지
▁앨범으로
▁괌
▁닷
▁문하
▁바오
▁안토
▁조이
▁풍속
▁피오
슬라프
웨스트
▁대학은
▁메릴랜드
▁요구하였다
달의
유와
절로
▁서열
▁위촉
▁피할
▁연맹이
▁자라는
▁프리스
진상규명
▁프랑스로
▁공휴
▁넥센
▁닮은
▁좀더
궐선거
월드컵
▁세르게
▁주민의
노부
저를
줄기
▁지자
▁각자의
▁현장에서
▁찢
곡리
동성
미치
증에
▁비대
르트는
▁강화를
▁요시다
▁이론과
▁황제를
▁흩어져
지역에서
도상
루로
승은
▁산을
▁표를
▁3.0
▁그만큼
▁등에게
▁발달한
▁은하의
▁제이슨
▁아직까지
▁할리우드
누마
분열
용과
▁치는
▁통보
▁거리의
▁계획의
▁당국은
▁박사는
▁작품인
▁지시를
▁참석한
▁더글러스
▁컴퓨터의
~8
코를
lan
▁불행
▁아와
▁카프
▁캐시
▁포식
색이다
▁뿌리를
▁유럽에
▁실시했다
▁유니버설
▁후반부터
산초등학교
▁광범위하게
▁헛
▁게리
▁공약
▁누나
▁모차
▁준수
▁해태
바이러
▁pro
▁게이오
▁교회에
▁다나카
▁모르고
▁의원의
▁이바지
▁정당이
▁나카무라
▁시작되었고
▁랄
이론
▁계단
▁낮다
▁문과
▁염려
▁전미
▁징병
▁현직
▁곡들은
▁나이는
▁부근의
▁서양의
▁유니언
▁종래의
▁크리에
▁혁명이
▁Part
▁공개적으로
례로
_21
칸옆면
▁국적을
▁동로마
▁법칙을
▁장소를
▁가르침을
▁프랭클린
양에
▁아다
▁휘말
▁사랑과
▁오리온
▁이론적
▁적었다
▁책에서
▁아이들을
▁영국으로
증과
▁연한
▁회귀
센터는
▁교육에
▁투자를
▁아오모리
▁어머니와
▁코펜하겐
나파
▁04
▁Br
▁엄마
조사를
▁등판해
▁보이게
▁속이다
▁영어를
▁온도는
▁철저히
▁철학을
▁발표하여
딘은
라나
박을
티넨
▁은신
▁차츰
▁타는
▁하코
▁비중이
▁우루과이
▁패하였다
▁시리즈이다
▁아틀레티코
▁스크린도어가
CS
군인
마케
있어
▁백과
▁법에
▁불변
▁이코
▁바탕에
▁찬사를
▁설립하고
_17
▁박성
▁상연
▁세바
▁실리
▁중수
▁보이스
▁어머니를
개미
광은
▁맛을
▁상법
▁송출
▁자회
▁잦은
▁털은
번호는
학과에
▁걸쳐서
▁공격은
▁사형을
▁시간과
▁주었고
▁비교하여
▁애슬레틱
▁이동하는
▁슛
고지
시브
심에
▁지오
▁토미
가지로
▁맡기도
▁문화는
▁의약품
▁자녀를
▁테네시
고등법원
▁브루클린
▁경기장에서
▁국가대표로
▁언급하였다
▁우크라이나의
AE
~1
▁맬
군주
레니
▁말리
▁연희
▁전락
시켜야
▁불확실
▁사실에
▁오세아
▁배우이자
▁없었으며
리쿠
송의
-08
_20
gin
ood
▁무술
▁외래
▁폭이
▁공간에
▁주지사
▁직책을
▁파푸아
▁항복을
▁형식은
▁스타일의
▁완벽하게
▁콕
바위
천면
커를
▁정이
▁택시
▁공장을
▁나타날
▁다리가
▁서바이
▁안타를
▁자료에
▁주파수
▁러시아와
▁쿠웨이트
▁히어로즈
▁분리되었다
▁멍
사자
순이
▁본관
▁송파
▁신기
가들이
였다는
타나베
▁라오스
▁언어가
▁예로는
▁한다면
음으로써
러와
▁넣는
▁달고
▁부다
▁씨는
▁원활
▁재상
▁적게
▁총을
▁칭송
청소년
▁강의를
▁맡았던
▁중요하게
DA
맨의
코로
토크
토프
▁커플
▁하니
▁급격한
▁언론의
▁사회민주
▁더빙
▁위그
▁후배
▁IOC
▁다카라
▁연주를
하더라도
we
보스
쉬는
주아
▁다발
▁안녕
▁인자
▁했기
겠지만
이트는
화되고
▁비교해
▁서로를
▁이르게
▁프란시스코
ai
회원
▁고추
▁동등
▁하행
▁해역
▁가라앉
▁교사로
▁공장에서
▁국립공원
PG
재와
ool
▁맡는
분부터
▁단체인
▁무역을
▁선거인
▁행동이
▁라이선스
▁의과대학
▁인기있는
▁촛
샤오
▁김승
▁압록
▁한큐
▁홍수
미사일
▁나트륨
▁병력이
▁브뤼셀
▁일반적
▁제한을
▁피렌체
▁회사에
▁훈장을
▁현대자동차
녀의
상황
▁보령
▁여인
▁합천
▁작사가
▁줄리아
▁근본적인
▁기관이다
▁치명적인
번지
▁높여
▁세습
▁잡는
▁심리적
▁않다는
▁의회에
▁장점이
▁코드는
IR
▁널
수입
▁군용
▁나미
▁온다
▁이메
▁상에서
▁알제리
▁전역을
▁1893
▁일본군은
▁유래하였다
니티
어사
▁경호
▁기법
▁말과
▁무언
▁경력이
▁계통의
▁로스쿨
▁몇몇의
▁모았다
▁시신은
▁존재로
▁지위에
이었다는
▁파견하여
▁이탈리아는
캠퍼
▁답변
▁정몽
▁클루
▁파고
▁상원의
▁요구에
▁천천히
▁스페인어
▁가면라이더
▁암스테르담
니언
심리
회관
▁격려
▁과장
▁요격
▁재팬
▁조롱
▁페로
▁해독
▁해피
▁느끼게
▁달했다
▁체제가
▁현대에
▁인도차이나
개씩
내려
다오
성장
▁도둑
▁월터
▁전구
▁지침
▁혐오
▁감염된
▁결혼한
▁사이먼
▁시절을
▁알렉스
▁왕조가
▁푸에르토리
▁스칸디나비아
살에
천과
▁설문
▁점거
▁중심을
▁들어왔다
▁갚
당시
링겐
하되
▁기뻐
▁김선
▁대출
▁반감
▁워드
▁자책
▁제로
▁Sch
▁그리는
▁밝혀진
▁성명을
▁지방은
▁게오르크
▁방지하기
▁지역에는
▁코로나바이러스
▁퉁
마니
▁무서
▁봉화
▁상록
▁포털
으려는
▁그밖에
▁사망자
대리
컵을
▁읽는
▁집착
갔으나
미술관
▁준우승에
축제
▁에반
▁입수
로스의
▁450
▁작가가
▁책으로
▁학문적
시키는데
▁대중교통
▁들어오는
▁투표에서
▁효율적인
▁설계되었다
▁노스캐롤라이나
것은
바브
분한
▁면을
▁부당
▁싶다
▁파우
▁공격이
▁구성을
▁시신을
▁함대를
▁받았는데
▁전적으로
▁지칭하는
검은
▁규탄
▁나일
▁몸은
▁엔터
▁자카
▁재선
▁장기간
▁독일군의
▁스테이션
▁승리했다
선택
피오
▁그릴
▁농경
▁알폰
▁우세
▁함흥
문화의
▁요청에
▁귀국하여
▁문서이다
▁미쓰비시
▁공개하였다
51
티즌
피크
_18
▁관제
▁리에
▁산요
▁가문이
▁따르고
▁활용하여
▁팡
감사
르다
청장
▁사영
▁것과는
▁무엇이
▁안되는
▁침공을
▁클라크
▁포함되지
로워
승이
질에
훈의
▁양측
▁여부
▁1-1
▁가리는
▁강하다
▁계속된
▁산스크
▁질량을
▁전달하는
▁플랫폼을
▁히틀러는
강한
화문
▁at
▁거인
▁났다
▁노후
▁수목
▁숨을
▁오산
▁인력
▁증폭
▁헌액
전에는
▁맞았다
▁중성자
▁거리에서
▁공화국이
▁살아남은
가며
비노
서비
▁94
▁도출
▁리조
▁것들을
▁미래에
공장
루엔
사적
아라
▁대포
▁불완
▁신원
▁육체
▁청계
▁퍼즐
▁광고를
▁비중을
▁캐서린
▁공간으로
모르
변속
아카
언론
▁암석
▁영천
▁축성
이트를
▁기관의
▁기관이
▁도르트
▁반란이
▁세네갈
▁운행이
▁증거는
▁패했다
▁핵융합
ublic
▁계속되는
▁둘러싸인
▁분포하고
▁유아기를
▁진행한다
▁현대적인
▁제정되었다
나드
플래
▁산시
▁일리
놓았다
▁조선후
▁지내는
▁평가가
시키면서
▁문신이다
▁성씨이다
▁스페인은
▁콘서트를
▁선고받았다
▁향토문화유산
모노
서인
합성
활성
▁글렌
▁설비
▁직책
▁찾고
▁고유한
▁끌어들
▁당선된
▁매끄러운
인칭
▁도피
▁메카
▁별을
▁스킴
▁재난
나라가
▁Day
▁경주시
▁과정의
▁먹이는
▁멤버가
▁사무를
▁위구르
▁대규모의
▁목소리가
▁사용하게
▁수행하고
▁아시아의
▁활동으로
▁채택되었다
득점
율과
임의
▁상기
▁지는
전까지
▁로마로
▁미루어
그라운드
▁것이지만
▁주인공이
▁프로세스
/4
EP
NG
▁뢰
타인
▁나우
▁모빌
▁목회
▁수복
▁얘기
▁원천
▁찰리
전부터
▁만난다
▁미래를
▁병사를
▁셰익스피
▁요하네스
▁미토콘드리아
남자
쾌한
패의
▁사슴
▁스텝
▁오디
▁재차
개이다
되다가
억원을
한국당
▁모델의
▁공항으로
▁입단하여
▁국제적으로
▁기성
▁보낼
▁오대
▁천왕
협회의
▁과학의
▁소식이
▁키예프
▁펠리페
▁발견되며
년동계올림픽
두가
사다
▁공적
▁기니
▁기쁨
▁위를
▁폐렴
국이다
달라는
▁원소의
▁케플러
▁데스크톱
▁잃어버린
옥은
워즈
짐에
-50
▁레일
▁맛이
▁모하
▁승용
▁황도
▁검찰은
▁대사헌
▁부르게
▁세상의
▁아브라
▁전원이
▁Girl
▁시설관리
▁어항이다
▁움직임이
▁쪼
만년
손이
▁달에
▁맞춤
▁매직
▁볼프
▁어업
▁팔아
▁신주쿠
▁연설을
▁지붕은
▁철저한
▁총리로
▁6.25
▁동안에는
▁명확하게
▁야마모토
네를
녀가
동원
비안
사라
ade
ave
▁결핵
▁앤서
▁이회
▁저자
▁현을
대학을
▁내무부
▁생각한
▁전투로
▁접근을
▁항성의
▁성장했다
▁이해하는
▁측정하는
움이
질환
▁관상
▁밀란
▁전산
▁집단의
사회주의
▁1888
▁보이지만
▁일대에서
가미
공개
워크
하신
per
▁SA
▁각국
▁굴절
▁너머
▁돕기
▁성악
▁평민
▁그림은
▁반정부
▁별명이
▁비율을
▁인정을
▁효고현
방향으로
▁명령했다
▁소말리아
▁소설이다
▁심지어는
▁이론에서
▁추정하고
디드
몬트
함대
▁에마
▁영암
▁유희
▁이범
▁코호
기관이
프로세
▁순서로
▁여성은
▁장관이
▁거점으로
▁제작했다
"&
개인
약이
요가
▁버마
▁탈취
투스는
▁자세를
▁팬들의
▁장소에서
▁증가하는
▁유래되었다
맥을
봉의
키에
해로
▁바와
▁복권
▁산에
▁접해
▁쳤다
분까지
▁성격의
▁성적이
사관학교
▁1892
든다
▁DF
▁자제
▁재래
▁GNU
▁없으므로
▁추정되며
ational
▁Univers
▁핼
네오
섬은
표로
호대
▁구한
▁아치
▁용서
강으로
연합회
▁3-1
▁브루스
▁수요가
▁행위는
▁도입했다
▁없었지만
▁이용되고
▁자리하고
▁프린스턴
▁동사
▁본인
land
▁북서부
▁사업이
▁오이타
▁파나마
▁뿐이었다
▁클럽에서
▁필수적인
"()
▁당진
▁신민
▁용도
▁원반
방송을
▁USB
▁간사이
▁사회가
▁예선을
▁작전은
▁토너먼
▁미나모토
▁회장으로
▁산스크리트
뮤얼
바람
▁공명
▁바울
▁변광
▁인가
리스가
세포의
▁머리가
▁아들의
▁회장이
▁연합군은
▁승강장으로
다양
소시
원수
해질
현재
▁BC
▁일요
▁주권
▁치환
당했고
자리는
▁2~3
▁기술과
▁중앙의
▁from
▁벌어지는
자문
하길
▁때를
시켜서
▁기원은
▁북동부
▁자연의
▁콘테스트
▁네트워크를
5,
▁CH
▁배달
▁어우
▁충렬
▁하급
▁구조에
▁쌓았다
▁정보의
▁체결했다
▁필요하다고
오브
통에
ble
▁도스
▁진한
▁청송
지라도
▁높았다
▁상태는
▁음반인
▁체결된
▁토트넘
▁국가보안
▁대한민국민
▁아카데미상
▁굶
달라
머가
위치
정류
▁간혹
▁길다
▁섭정
▁왕과
르타뉴
▁관료로
▁극도로
▁대사를
▁밀도가
▁부정적
▁역할로
▁참여를
▁패밀리
▁가와사키
▁지나가는
행과
▁고장
▁과연
▁남하
▁배운
▁음운
▁취한
▁후예
▁1,0
▁대전차
▁상소를
▁숫자는
▁진출할
▁하늘을
▁1876
▁에른스트
그가
기일
대군
호마
▁넓고
▁능동
▁디에
▁쏘아
▁임원
▁정제
▁측이
▁후진
로스는
▁두개의
▁의회가
▁활약으로
문트
비르
심사
▁급증
▁당황
▁미성
▁병자
▁자진
▁방송이
▁생산이
▁이해를
▁장치가
▁튀르크
▁장남으로
▁대한민국에는
▁So
▁테라
▁홍성
두었다
▁240
▁나무를
▁아카이
▁주계열
▁초콜릿
▁지점에서
시경
▁국보
▁딸과
▁만드
▁화랑
▁가깝게
▁전기를
▁정의에
▁추가된
▁줄어들었다
문인
절은
제일
▁농부
▁늦은
▁리차
▁뱅크
▁생생
▁증진
▁카바
▁커서
▁그룹에
▁마카오
▁차세대
▁국가들은
▁프랑스군은
▁친일반민족행위진상규명
▁틴
방식
▁강행
▁당내
▁배에
▁바다를
▁서부의
▁시대는
▁시위가
▁연주자
▁종이다
▁측면을
▁반대하였다
▁예정이었다
▁마다가스카르
달마
료의
택은
▁모금
▁미에
▁번갈
▁색이
▁인형
▁타락
쳤으나
▁데이빗
▁브래드
ition
▁1886
▁기록이다
구스
땃쥐
신앙
폐합
표준
▁물과
▁온라
▁정려
▁정적
▁도로는
▁가르치는
▁모습이다
▁분류한다
▁지나간다
▁제작하였다
▁`
예수
직이
층과
히드
EST
▁거점
▁법은
▁불필
▁사신
▁0.0
▁동부에
▁이름에
▁제안한
거리에서
▁익스플로
립트
좌의
처가
▁나간
▁노보
▁머신
▁소행
▁시직
▁양평
▁온난
▁청색
▁캄파
▁TBS
▁행동은
▁1866
▁생각하자
▁경제적으로
▁프란치스코
▁다저
▁손잡
▁수교
라에몽
차전은
▁성남시
▁안전을
▁라이브러
▁아나운서
▁에너지의
오자
ons
▁나뭇
▁신종
▁조현
▁나누는
▁아이콘
▁일주일
▁종교는
▁1861
▁가능성도
▁국가대표팀에서
슨을
제인
코토
▁공예
▁중등
▁천사
▁카툰
▁콜레
▁되므로
▁손상을
▁앵글로
▁채널을
▁무시하고
▁브르타뉴
▁씻
마라
▁리튬
▁보며
▁성폭
▁신진
▁피치
▁것이기
▁번째는
▁Tour
▁니콜라스
▁율리우스
▁이용하고
▁포유류의
렌은
▁위생
▁이별
▁익산
▁길이를
▁머리카
▁성매매
▁우간다
▁줄이기
▁책임이
▁취임한
▁포유류
잉글랜드
▁대비하여
▁적용되는
▁중소기업
▁Inter
▁싱어송라이터이다
.,
분간
일인
▁결핍
▁몰두
▁비어
▁중위
로니아
▁결합을
▁타인의
▁국회에서
▁도카이도
루이
정사
▁화해
라이드
▁Col
▁같다고
▁기억을
▁예정인
▁원소는
▁자격이
대학으로
▁전해지고
▁애니메이션이다
리드
투르
항이
▁갈래
▁뉴턴
▁서인
▁순차
▁예멘
테스는
▁떠난다
▁뛰어넘
▁시기가
▁외부의
▁향상을
▁함경북도
▁개편되었다
ps
대수
매를
제철
헤드
▁급히
▁대접
▁말고
▁우두
났으나
학으로
▁0.5
▁가지지
▁걸리는
▁두각을
▁리베르
▁밴드가
▁주제에
▁사용하던
▁아이치현
▁전라남도의
데자
▁고마
▁구호
▁수중
▁시속
▁조영
▁쪽이
▁청도
▁호랑
stem
▁기여한
▁이같은
▁제한이
▁서비스는
▁존재했다
▁지명되었다
▁판매되었다
목과
▁갖춰
▁아흐
▁양대
▁여주
▁옥천
▁인적
▁작가로
▁탁월한
▁하겠다
▁분류하고
▁콘스탄티
▁룬
궤도
▁대덕
▁쉽다
▁자코
▁조에
▁소유의
▁소재한
▁조약으로
▁충청남도의
▁늪
▁룽
확인
▁감자
▁절벽
▁주세
▁한가
세이다
lack
▁거쳤다
▁것인가
▁공세를
▁수원시
▁이사를
하리
▁ML
▁번도
▁입는
▁퇴장
▁파벌
대회에
▁1.2
▁사후에
▁예술의
▁인물은
스케이팅
▁민족문제연구소의
약의
▁상소
▁신을
▁조회
▁즐거
베스트
▁교류를
▁남동쪽
▁방사선
▁연맹의
▁하노버
▁죽음으로
▁표기한다
맨스
탄이
▁단말
▁발동
▁선봉
▁아쉬
▁연안에
▁원칙에
▁있듯이
▁종류로
▁가르시아
▁덧붙였다
▁인도에서
▁아이디어를
질과
▁이항
▁하와
▁형용
기면서
세에서
▁가문을
▁단체는
▁새뮤얼
▁점성술
▁지원이
▁태생의
▁1850
▁국가대표팀은
수염
▁극한
▁다쓰
▁보자
▁부등
▁상이
▁샤이
▁셰이
▁단체가
▁비정상
▁출전을
▁학명은
▁구성하고
▁받아들이지
거스
포타
▁나지
▁날은
▁남인
▁마키
▁에두
▁정주
나가의
코리아
▁거뒀다
▁아들은
▁에이전
▁요르단
▁위치로
▁자료로
▁집합을
▁살펴보면
BI
월이
▁정경
시간은
▁노선에
▁등지에
▁사람에
▁올리브
▁천황은
▁하이퍼
▁엑스박스
▁올스타전
▁파괴되었다
▁거칠
▁캐논
▁헌병
웠으며
▁108
▁엔진의
▁적외선
▁행복한
▁공화국은
▁브리티시
▁한국독립
께끼
늦게
▁개미
▁거룩
▁도사
▁부러
▁섞여
▁수산
▁읽을
▁청량
마리의
지역을
▁상파울
▁오스틴
▁지분을
민주연합
▁취득하였다
gr
▁몹
라르
시기
▁군벌
▁다우
▁독서
▁동전
▁사와
▁세분
▁자민
▁칭기
▁한겨
살이풀
▁믿는다
▁성에서
▁운동과
법원에서
▁이베리아
▁이산화탄
▁하이브리
마켓
면적
칭을
▁띄는
▁민감
▁시오
▁팔작
▁포격
▁한달
▁허블
▁남편이
▁레인저
▁본인은
▁1887
▁거치면서
▁도미니카
gh
아에
음반
지어
카쿠
ION
▁Ro
▁고트
▁남산
▁도리
▁미식
▁종신
▁방어를
▁버스를
▁성적은
▁오클라
▁위스콘
▁투쟁을
▁항공사
▁핵무기
▁1864
▁운행되고
▁윌리엄스
▁타이거즈
▁DD
▁Ge
▁pr
▁불균
▁빅뱅
▁시크
▁쌍대
▁후작
미트리
▁신학적
▁적당한
▁조화를
▁초부터
지역으로
▁보호하고
여자대학교
▁취소되었다
RI
▁꽂
기동
발생
살을
움의
전용
주사
▁귀속
▁남작
▁민정
▁성운
▁좌의
▁캐리
ject
▁1,2
▁교황은
▁로베르
되었음을
▁주변에서
▁감상
▁예일
자리가
▁로맨틱
▁부모는
▁세월호
▁아내가
▁않았을
▁이동할
▁이제는
뮬러
배로
있지
처분
태가
학술
▁객체
▁당뇨
▁도이
▁물체
▁박상
▁지부
▁가능성
▁마스코
▁부부는
▁저지대
▁스트리밍
▁정보통신
▁증권거래
기하
백의
인산
척이
플리
_19
▁내며
▁복선
▁부파
▁이며
▁조계
디아의
시간에
▁남자의
▁노동당
▁미카엘
▁설계를
▁포로가
▁확인된
▁국민들의
▁기념하는
▁종목이다
아노
지부
▁공자
▁뚫고
▁알맞
▁애완
▁열려
▁이창
▁사업은
▁솔루션
▁자유와
▁정도는
▁제공할
▁대다수의
▁임명했다
▁한국프로
움과
▁시우
▁주먹
▁발전과
▁볼로냐
▁여자가
▁인해서
▁조약은
▁제시하였다
▁후쿠오카현
ike
▁대도
▁만날
▁말도
▁식사
▁이봉
스터의
▁60%
▁버린다
▁산맥의
▁수페르
▁이뤄진
▁이주한
▁직후에
▁보고서를
▁중앙정보
▁크리에이
▁현재까지도
2.
바와
언스
오던
탑을
택이
▁분수
▁신천
▁채굴
▁코리
단에는
지느러
▁"20
▁건강한
▁동서로
▁마운트
▁없으면
▁전자는
▁카카오
▁Rock
▁남베트남
▁스트레스
▁인정받았다
▁쿄
명도
서기
유전
▁끼고
▁명종
▁우월
▁자립
▁참수
▁네티즌
▁배치된
▁빠져나
▁설계된
▁아무리
데자네이
▁증가하였다
▁끄
▁마요
▁최장
▁3-0
▁공헌을
▁비스타
▁인물의
▁교회에서
▁컨테이너
▁시작되었으며
||
▁Do
▁거세
▁우지
▁톈진
데스는
제도의
카에서
▁128
▁페미니
체육대회
▁1881
▁레스토랑
▁못하도록
▁없었다고
▁진출하여
▁쿠빌라이
▁테스트를
▁인플레이션
▁일반적이다
광의
조작
ics
▁감찰
▁울릉
▁유역
▁임의
▁파주
레스트
▁Wii
▁기대를
▁기초한
▁기호는
▁다시금
▁자국의
▁조사한
▁이어지고
기통
▁가토
▁날로
▁도루
▁마술
▁어리
▁위함
▁글자를
▁법원은
▁영원한
▁중요시
▁1872
▁연루되어
▁무산되었다
FI
QL
공관
장사
헌법
▁성도
▁월트
▁제재
▁풍경
▁그러다
▁왕조를
▁1830
▁달라진다
▁피츠버그
▁공헌하였다
남은
노미
외교
▁광물
▁네모
▁막대
▁신상
▁이브
▁일간
▁하타
▁공격할
▁서부에
▁연맹은
▁이사벨
▁존재는
▁지나면
▁국민투표
▁유명하며
▁주변에는
▁주전으로
▁립
년엔
륜구
합의
▁긴키
▁발기
▁번창
▁성북
▁자와
▁중원
▁편안
▁혼혈
▁대체할
▁데이브
▁아이의
▁정의된
▁화제를
▁고향으로
▁러시아에서
▁사이에서는
▁완성되었다
남에
초와
티와
▁과잉
▁예가
▁정재
▁주주
▁추존
▁카네
▁틈을
▁차트에
▁클린턴
▁팀이다
▁Comp
▁이야기의
개소
배치
▁맥아
▁목재
▁무솔
▁베풀
▁습득
▁요절
년마다
정부를
▁군대와
▁유클리드
▁합류하여
▁거절하였다
▁영국에서는
▁쾨
▁미칠
▁산청
▁살짝
▁앞세
▁절망
▁직사
▁칼슘
▁무엇을
▁정당의
고등보통학교
바를
원칙
ier
▁SV
▁내포
단체의
▁끝나는
▁대의원
▁범유행
▁본부는
녀로
아지
▁아레
▁평탄
▁한림
왔으나
▁iOS
▁경전철
▁떠나는
▁우루과
▁인터뷰를
데일
▁고생
▁상점
▁석불
▁신은
▁일식
▁친족
상태가
▁내린다
▁논의가
~7
선인
언은
▁묻혀
▁삼림
▁실각
프에서
▁각지에
▁게스트
▁마르셀
▁스칼라
▁시민의
▁영토로
▁날카로운
▁컴파일러
례가
빌리
후이
▁he
▁문무
▁쉽지
▁안고
민들이
사에게
형문화재
▁시설관리자는
▁웨스트민스터
군도
▁단장
▁뒤의
▁모스
▁비는
▁상고
▁코린
▁포츠
바라키
보이는
부리그
▁기사가
▁즐기는
▁탤런트
▁혜택을
▁홈경기
여래좌상
▁자신만의
▁배치되었다
▁초등학교다
▁프톨레마이오스
아로
조지
투로
▁tv
▁불화
▁참의
▁카피
로마치
▁경계에
▁문자로
▁벗어난
▁참가해
▁HTML
▁공부했다
▁이들에게
▁프리미엄
▁향토유적
강도
▁띠는
▁열릴
▁우체
▁체스
▁치렀
▁한창
대서양
산이다
▁그러고
▁북서쪽
▁지바현
▁휴대전
▁언어이다
▁조지아의
제비
협정
▁by
▁마땅
▁우유
▁휩싸
캠퍼스
▁기반이
▁남편의
▁라이너
▁바람이
▁사명을
▁소설의
▁시트콤
▁일러스트
▁종목에서
▁트레이닝
엔터테인먼트
기상
블릿
암이
▁죽여
▁호족
▁이겼다
▁해석을
▁데뷔골을
▁연주하는
▁자리매김
▁캐릭터가
▁메트로폴리
ae
▁국악
▁반죽
▁운수
▁이례
▁임계
▁직행
▁출동
▁칼을
▁퇴직
▁능력은
▁롬바르
▁벌이는
▁장관은
▁결승골을
▁미스터리
▁수수께끼
지방검찰청
▁유지하였다
SA
로폰
팀과
▁곱셈
▁둘이
▁매리
결과를
하지도
▁없음을
▁조사에서
결한
아비
▁가드
▁전위
▁그나마
▁레이더
▁1863
▁살아가는
▁이슬람교
▁컷
르스
베트
보존
증후
치면
ise
▁CG
▁격리
▁군중
▁저해
▁정계
▁조수
▁조심
▁진사
▁쿠퍼
사단의
▁클리어
▁혼자서
▁Time
▁중앙은행
▁유로파리그
공립보통학교
브나
-35
▁RT
▁백만
▁상부
▁장쑤
야말로
▁보였고
▁상품을
▁취리히
▁행위에
▁헤르만
슈타인은
▁사용자는
▁덴쇼
▁신해
▁총회
▁레이크
▁요소로
▁주장도
▁장악하고
▁제공했다
UC
링의
설과
▁원고
▁눈물을
▁안된다
▁오른손
▁중이며
▁코호몰
▁과학자들은
▁도서관이다
▁안장되었다
▁리우데자네이
PD
▁거꾸
▁과시
▁구독
▁배터
▁법이
▁필터
▁1/3
▁교황이
▁대성당
▁사태를
▁설립을
▁하늘의
▁선출했다
▁스스로의
▁출연한다
▁대체적으로
▁쩐
쓰고
학습
▁니켈
▁데미
▁도청
▁말린
▁붕어
▁섬이
▁성행
▁필연
기관인
▁국왕이
▁기지를
▁등급을
▁여학생
▁차이나
▁합의를
▁1865
▁발매됐다
▁자택에서
▁전성기를
▁폐지하고
AF
가쿠
▁막고
▁삶에
▁파면
▁가리켜
▁만주국
▁법률에
▁싱글은
▁회장은
▁심사위원
▁제시했다
▁지속되었다
▁학생들에게
▁Ed
▁미합
▁세가
▁유스
▁일각
▁조니
▁구멍을
▁국내에
▁스트라
▁여기는
▁현실을
만으로는
▁근거하여
▁이어주는
▁합격하여
▁뭐
▁공안
▁마니
▁맹세
▁바스
▁비토
▁의성
▁진료
▁겨울에
▁분쟁을
▁강력하게
▁물리학자
▁진행되어
▁개칭되었다
▁다카라즈카
광년
기병
막의
뮤직
시외
월은
▁구니
▁내재
▁대청
▁장벽
▁핵무
해서는
▁시장은
▁주이다
▁파시즘
▁1891
▁마이애미
▁루이지애나
▁뱃
큐슈
하곤
▁or
▁논산
▁도키
▁비싼
▁아브
▁울프
바브웨
▁기준에
▁법률을
▁세계로
▁올리버
▁도라에몽
▁출간되었다
수송
인사
▁리포
▁반역
▁어촌
▁요괴
▁징수
▁결성한
▁산으로
▁집합의
화하였다
▁대량으로
▁설치했다
▁중국에서는
언이
▁관절
▁군복
▁금동
▁수염
▁연말
▁제명
▁종영
▁총무
집에서
~200
▁교회와
▁사업의
▁성능이
▁숫자를
▁연호를
▁통일을
▁표현의
▁1873
▁Open
▁지진으로
ky
▁돗
괘불
리면
오게
▁서진
▁신봉
▁지분
▁그러면
▁끝난다
▁데니스
▁철도는
▁4000
▁Life
▁가운데에
▁돌아가는
▁기록했으며
▁익스프레스
약은
▁보로
▁천수
▁코뮌
▁북동쪽
▁일부의
▁시도했다
ma
라로
레드
만인
▁Or
▁승하
▁아델
ower
▁end
▁리믹스
▁세군다
▁신청을
▁여론이
▁정권은
▁말하자면
▁원칙적으로
▁이전하였다
기만
차트
헌은
▁계엄
▁두지
▁모신
▁배드
▁유수
▁전적
메이트
선수로
역이며
포인트
▁신체적
▁제의를
▁내놓았다
▁무함마드
▁이데올로
▁집안에서
▁정치가이다
▁임명되었으며
uc
▁쑨
예선
▁깃털
▁보행
▁영월
렸다는
르면서
▁Car
▁넘치는
▁이름도
▁처벌을
▁총애를
▁행사가
조판서를
▁설명하기
▁아드리아
▁크로아티아의
골이
저가
▁앞둔
▁의류
▁종업
reat
▁교황청
▁규정이
▁말에서
▁보이기
▁얻었고
▁희망을
아메리칸
▁무로마치
▁우에스기
▁위원으로
▁출시했다
▁중앙아메리카
▁깁
르카
번대
빈이
연화
지하
진구
▁가쿠
▁스윙
▁요정
▁제리
▁코난
▁극작가
▁되어서
▁두꺼운
▁삼성전
▁일원이
▁정리에
▁줄이고
▁패하여
▁등에서는
▁손해배상
▁이승만은
54
공에
▁불신
▁소의
▁진흙
▁촉발
▁한족
▁햇빛
시이다
▁Sup
▁구성요
▁적용된
▁접어들
▁형제는
유산으로
▁조선왕조
급은
덕은
사법
▁모욕
▁무어
▁바리
▁산은
번지에
▁방대한
▁보기도
▁특성상
▁마르쿠스
▁협력하여
▁공격하였다
▁오세아니아
▁추가적으로
버섯
입상
좌에
▁ex
▁if
▁객원
▁급여
▁끝을
▁분홍
▁여단
▁잔존
간으로
지에는
▁논란의
▁후보의
▁삼국시대
▁소재지는
▁연관되어
▁뉴질랜드의
렌스
범은
은하
지진
충이
▁공리
▁궁중
▁농축
▁버펄
▁을사
▁문자는
▁범위는
▁베르나
▁보통의
▁선택한
▁제너럴
▁철학의
월부터는
▁정차한다
▁클럽으로
ys
모양
소재
▁댓글
▁때와
▁찍어
버스가
▁수시로
▁이보다
▁대중적인
▁이주하여
▁친일반민족행위진상규명위원회가
ha
▁검열
▁맥주
▁부회
▁이단
▁갈라져
▁거쳐서
▁목요일
▁빛나는
▁연락을
▁발행하는
▁역임했고
▁유라시아
▁일부이다
▁측에서는
▁4,000
lar
▁길러
▁리히
▁브렌
▁심야
▁영덕
▁완결
▁정형
▁훈장
▁IMF
▁개봉된
▁선거가
▁옥수수
▁재료로
▁키르기
▁학교가
▁형제가
▁거두었고
▁교수이다
▁베네딕토
▁베스트셀
▁생성되는
▁순서대로
시킴으로써
개정
부도
비크
자비
찬은
톤은
트맨
▁만인
▁불에
▁서지
▁성동
▁신안
▁전멸
▁계승한
▁다이빙
▁법안을
▁사진이
▁유래는
▁종류에
▁발탁되어
▁꿰
다카
▁소문
▁징계
▁튼튼
프스키
▁귀국한
▁기원을
▁슈퍼컵
▁연대는
년까지의
▁버라이어
▁않았는데
▁프로그램에서
참여
촌은
향의
▁박해
▁심포
운동가
▁다국적
▁받아서
▁설명을
▁신시내
▁왕조는
▁이와테
▁조건에
▁하나씩
과와
구멍
담당
와서
▁5%
▁XP
▁구경
▁듀오
▁상에
▁시선
▁인위
▁직교
▁초당
스라는
▁높이기
▁헌법의
▁대중에게
▁대표팀의
▁활동하면서
설계
▁교원
▁서태
▁스몰
▁최영
시험에
▁동부의
▁장치는
▁조약의
▁중국이
노동조합
적이라는
▁구스타프
▁시민들이
▁아들이자
▁여름에는
▁유사하게
▁통합되었다
ep
기본
보지
삼진
샤의
▁굴복
▁부추
▁세리
▁타인
▁거꾸로
▁대나무
▁세번째
▁왕에게
▁입자의
▁정교한
▁철학과
▁패러디
▁해에는
▁경기장은
▁거부하였다
▁혀
교구
업무
▁나빠
▁누리
▁다행
▁동요
▁유포
▁일산
시설을
rist
▁ret
▁가격을
▁시행된
▁영토가
▁의회를
▁재정적
▁크기와
▁포도주
▁베르나르
▁타이완의
▁피아노를
▁엥
바인
소인
▁심해
▁열두
▁온두
▁음이
▁중생
▁한의
▁힘의
▁사쓰마
▁선수다
▁선으로
▁수상자
▁수차례
▁여성과
▁영국군
▁독일군은
▁위스콘신
▁짐바브웨
타라
▁종식
▁차르
▁패해
▁피카
▁가르쳐
▁건립된
▁경우와
▁구조적
▁당하는
▁박영효
▁연대를
▁주의를
▁평안도
▁포르노
일부터는
주식회사
▁1862
▁선언하고
▁에너지는
▁팔작지붕
▁활동했던
▁수행하였다
군수
▁기장
▁맹활
▁책이
노스케
▁경찰관
▁독일을
▁로렌스
▁미군정
▁바닥에
▁사단은
▁엑스포
▁주제는
▁취하는
▁컨텐츠
▁아들이며
▁양식으로
▁펩
방지
부원
타에
투어
티야
▁각성
▁구금
▁로런
▁인테
▁탈레
분교는
체제를
ings
▁권한이
▁맡는다
▁연관이
▁옆으로
▁장악한
▁전국에
▁직업을
▁탄핵을
▁사라지고
▁정체성을
주의자들은
▁뮐
로라
보국
▁마테
▁손님
▁컨설
▁필하
다니며
▁뒤에서
▁뜻에서
▁정신과
▁축구인
대학에서
▁삼성전자
▁집행유예
▁오클라호마
,3
그림
들고
운수
전력
전적
코어
행렬
▁김희
▁동형
▁사각
▁엇갈
▁조의
▁지탱
▁추론
▁캄페
▁면적의
▁선정된
▁유용한
▁입장에
▁관장하는
▁단백질의
▁당선되어
▁라틴어로
▁참여하지
▁북서쪽으로
56
백은
흐트
▁밀도
▁순항
▁염소
▁완도
▁초중
▁황폐
공사가
▁뒤늦게
▁비해서
▁생명의
▁저지른
▁행위가
▁요청하였다
포도
▁경건
▁바비
▁상정
▁직을
▁혜성
로맨스
회의에
▁무너뜨
▁바로크
▁신약성
▁전차를
부에서는
▁아우구스
남의
천문
▁주저
▁찾지
▁통과한
▁한사람
▁히브리
른베르크
▁계속하여
▁공간이다
▁메소포타
▁인테르나
▁출마하여
▁라이브러리
▁싹
먼이
태수
▁섹스
▁실증
▁에페
▁일진
▁자위
▁진수
▁움직일
▁의사가
▁제품은
▁폭넓은
▁대학으로
▁시리즈로
▁이동하여
▁이시카와
▁들어서면서
▁샌디에이고
금속
백이
▁나르
▁버린
▁슈투
▁안창
▁가정용
▁내용과
▁몸무게
▁세례를
▁구조이다
▁센터에서
▁신한은행
▁Night
ug
움에
채의
▁경선
▁고르
▁만장
▁복역
▁지린
▁총기
보았다
주식회
▁102
▁구간에
▁머리는
▁수준이
▁쓰레기
▁치료에
▁해준다
▁구역으로
▁국가정보
▁이주했다
▁주장으로
냐고
든가
레와
무관
브란
▁격렬
▁공로
▁실은
▁자켓
▁재앙
문제를
▁무사히
▁지하에
▁충돌이
▁파견된
▁화재가
▁개발하는
▁생산하고
▁세력으로
▁시작되는
▁의원으로
네트
버가
브러
충의
틀리
▁모모
▁스기
▁양보
▁연도
▁입상
▁지사
▁파직
▁피처
대표팀
리오는
피아의
화했다
▁가졌고
▁기술로
▁대표작
▁앤서니
▁1867
▁사용했던
▁세르게이
▁콘텐츠를
▁괜
기아
모든
임새
▁기차
▁배척
▁시합
▁일족
▁적발
▁카니
▁피셔
급으로
▁대수적
▁산이다
▁여부에
▁연달아
▁처리하는
▁Music
가장
타수
let
▁구획
▁꾸며
▁문정
▁배향
▁저는
▁출구
▁판의
시키려
▁남자는
▁따르지
▁앨범이
▁영역은
▁있다며
▁활용한
▁위치하여
▁인상적인
▁프로젝트에
농민
▁베오
▁켈리
▁토모
층에는
▁MSL
▁가사는
▁구분할
▁전제로
▁제주시
▁인정했다
▁후손들이
년째
벤션
부스
후로
▁대에
▁드루
▁전하
▁Rec
▁소속사
▁역할이
▁출연해
▁거절했다
▁도입하여
▁드라마로
OH
그와
탑은
파괴
ron
▁Up
▁대위
▁완비
▁철강
▁키릴
텔레콤
▁인식을
▁정책이
워스
책이
-07
▁걸프
▁나바
▁이홍
▁잠실
▁출품
▁호기
운동은
▁106
▁로맨스
▁배우고
▁북한은
▁개최되는
▁뉴클레오
▁보수적인
▁시민들의
▁일치한다
균의
뉴얼
도라
▁단국
▁떠날
▁매슈
▁불구
▁얼룩
▁장원
▁집적
교회는
▁시티즌
▁조조는
▁참의원
▁화재로
▁환자가
▁종교적인
▁캐릭터의
▁삼국지연의
▁천연기념물
영상
▁가우
▁깊게
▁자행
▁점검
▁조부
▁종묘
▁평야
장에게
▁거두어
▁아이즈
▁오스카
▁요인이
▁이루지
▁내려졌다
▁법적으로
▁지방선거
니즈
대중
직원
▁너비
▁색의
▁웨인
▁남성이
▁리프트
▁부모가
▁생물학
▁하려고
▁확률이
▁회원이
▁관계자는
▁나타냈다
▁남아시아
▁방송에서
▁선출하는
▁집중되어
▁증명하였다
궁은
보라
주도
희를
▁광해
▁구례
▁의상
▁충무
▁헤겔
시간을
▁강으로
▁담당한
▁불가피
▁연구로
▁위험에
▁자리는
▁활주로
▁평가받고
▁롭
모음
스텐
임에
코치
토쿠
▁남방
▁비준
▁생길
▁신전
▁유태
만명이
▁구멍이
▁단체를
▁명예를
▁시네마
▁태양과
▁학생을
▁어시스트
▁시스템에서
변수
▁거시
▁박진
▁숙부
▁아디
▁의용
▁줄일
▁직계
리오스
▁가설을
▁국내의
▁나무로
▁등번호
▁보냈고
▁분쟁이
▁선거로
▁숨겨진
▁아내와
▁아이젠
▁이승만의
▁있었기에
닌은
단백
브와
지상
▁LC
▁취할
네티컷
코치로
▁개최한
▁그것에
▁면적이
▁수단을
▁국가들의
▁로드리게
▁이바라키
▁Dream
▁만들었으며
비츠
▁계의
▁기적
▁섞어
▁였다
▁칠곡
기술을
▁강렬한
▁대승을
▁성우는
▁이곳의
▁펠릭스
슈타인의
▁1878
▁아이들이
▁유니폼을
▁이노우에
▁이상적인
▁캐릭터로
▁개최하였다
배는
▁동탁
▁라디
▁헌납
부사로
▁감독에
▁여러번
▁영향은
▁의식이
▁인사를
▁있으니
▁차원의
▁행성은
▁협회는
▁생각하여
▁안전하게
▁취득했다
애니
▁부풀
▁북부와
▁사신을
▁인코딩
▁주니치
▁하므로
▁회사로
▁공유하는
▁극단적인
▁대학교와
▁동원하여
▁방정식을
▁후지와라
▁교체되었다
▁미드필더이다
교류
부시
텐셜
▁근래
▁루비
▁조소
▁후유
▁독립한
▁범위가
▁한국이
필레이션
▁제작하는
▁대한제국의
▁낡
록의
토에
_22
ose
▁가던
▁겪게
▁요즘
▁도시와
▁방향의
▁소련군
▁수준에
▁쓰이지
▁분포하는
▁시스템으로
고시
라서
례에
▁To
▁마운
▁자처
▁테리
▁펼친
연패를
▁HMS
▁삼국유
▁외야수
▁우위를
▁출연을
▁개발하여
▁겨울에는
▁이스탄불
▁체결하였다
],
메니
메스
회전
itt
▁경매
▁낮고
▁정진
▁품은
계획을
됩니다
부분이
▁교수의
▁버스가
▁수컷은
▁언급이
▁주변을
▁힘썼다
▁디자인이
▁라이온즈
▁완공되었다
쿠로
900
ium
▁군청
▁물결
▁반입
▁안경
▁절친
▁표출
▁한마
▁확고
▁교향악
▁기초가
▁나오게
▁단거리
▁생각은
▁여러해
▁처리를
▁회원으로
고스
다스
림에
▁AI
▁모닝
▁앤디
▁자릿
▁재보
▁점진
▁조차
었다는
▁1.1
▁페드로
▁편찬한
▁대전에서
▁반대하여
▁중국으로
,4
53
품에
해줄
▁그란
투스의
▁0.3
▁111
▁국가들
▁기관을
▁기원후
▁여부는
▁집단이
▁회의에
하기까지
▁드러냈다
▁안드레아
▁합류하였다
▁갯
율의
희와
▁Ab
▁도박
▁뛰는
▁열쇠
▁의의
▁강력히
▁공적을
▁국가인
▁단어의
▁성경의
▁세포가
▁지정한
▁프로테
▁해군이
▁계속했다
▁발전했다
▁유래한다
▁개인적으로
52
▁엡
천리
ale
▁AG
▁wh
▁그럴
▁날을
▁매립
▁오자
▁최남
▁카와
▁해트
▁아이티
▁확장을
▁1869
▁미니시리즈
▁조선인민군
section
록에
루트
-30
▁길로
▁대담
▁이륙
▁저질
▁종말
▁토목
ount
▁것들은
▁다마스
▁숫자가
▁이적한
▁크기로
▁향했다
▁국가들이
▁마지막에
▁비틀즈의
▁역사학자
▁제공하기
▁비스마르크
▁컴필레이션
▁프리미어리그의
농구
할린
▁겪는
▁발리
▁번은
▁초회
▁추축
▁팔꿈
▁패킷
▁포천
는지에
▁다리는
▁상대를
▁조직된
▁질문을
▁패하고
▁연호이다
▁기록하였고
▁미나모토노
▁승리하였다
▁님
참찬
큰롤
황은
▁나인
▁대제
▁데드
▁응급
▁처한
▁편을
▁편이
▁1~2
▁바이어
▁밝혀져
▁분기점
▁블레이
▁사상이
▁작곡을
▁제목을
▁상원의원
▁일찍부터
▁나폴레옹은
▁자발적으로
제어
혔고
▁TC
▁그랬
▁김연
▁유망
▁죽는
부분은
▁드레스
▁발라드
▁병력은
▁비율로
▁외국의
▁지켰다
▁회사에서
▁썩
너와
번과
▁AB
▁가든
▁납작
▁마다
▁매진
▁암모
▁자음
▁팔린
▁해킹
▁형을
▁210
▁베네치
▁죽이는
▁초까지
▁키보드
▁통하는
▁1840
▁페르난도
▁설명하였다
▁시상식에서
ME
돈의
악장
절도
▁끼친
▁수퍼
▁학력
▁결합한
▁돌연변
▁릴레이
▁새정치
▁세계적
▁시작을
▁야구를
▁언어와
▁원자핵
▁철도를
▁명령으로
▁괴물
▁날려
▁주창
부대를
▁고종의
▁머물러
▁정당은
▁크기에
▁하기로
▁공직선거
▁올림픽을
두리
수상
윤은
▁건널
▁근사
▁북경
▁상서
▁양조
팀이다
▁근거를
▁사라져
▁서초구
▁인원은
▁자체에
▁전설의
▁정해져
▁진행한
▁포뮬러
▁폼페이
▁민주당의
▁줌
란과
학사
▁갈리
▁거머
▁고치
▁분파
▁성산
▁에바
▁간행된
▁남서쪽
▁삼국사
▁영국인
▁정리는
▁쿠르드
▁파리로
하자마자
▁나뉘었다
▁멤버이다
▁않으므로
▁중심지는
내각
집권
최고
타리
▁박원
▁형의
온에서
▁방영한
▁성립된
▁팬들이
▁데이비스
▁제거하고
▁모스크바에서
▁부산광역시의
또는
봉이
오에
▁Pe
▁고찰
▁구에
▁꽃잎
▁레즈
▁요원
▁캐롤
▁규정한
▁생활의
▁숲에서
▁신설된
▁향하여
▁후자의
▁지방으로
▁텍사스주
무덤
▁관구
▁레버
▁박재
▁심화
▁콜럼
다니는
▁내세워
▁노태우
▁복수를
▁살아가
▁신앙의
▁아닌가
▁앤드류
▁장면은
▁켄터키
▁코트디
▁함대는
▁국가이다
▁드라마는
▁시외버스
▁와타나베
▁조직하여
▁프로축구
.)
났던
▁릴리
▁소생
▁오시
▁이길
▁갔다가
▁경찰서
▁실수로
▁와세다
▁유지를
▁조건은
▁평했다
▁공간에서
▁와카야마
57
▁it
▁골짜
▁매디
▁서거
▁시원
▁후방
기적인
대회는
▁공개한
▁데에는
▁동인도
▁성소수
▁발생하고
관인
시드
인물
혁은
▁곡물
▁복종
▁왕정
▁초음
▁휴게
▁119
▁국정원
▁신학교
▁우승과
▁이것에
▁재료를
▁종목에
▁행정부
들에게도
▁군인이다
▁돌아오는
▁유럽연합
▁사회적으로
▁캅
보우
토바
ata
▁남매
▁마나
▁묘지
▁제왕
▁칸이
노동당
비우스
▁근거한
▁끝내기
▁배우는
▁버클리
▁사망할
▁이랜드
▁노르망디
▁분위기가
▁코네티컷
▁프로모션
▁베를린에서
▁실시하였다
▁확대되었다
▁대한민국민법제
두더
르에
일일
▁깨고
▁유머
▁유영
리아스
▁노벨상
▁이용이
▁탄생한
▁호랑이
▁고등교육
▁부에노스
▁설정되어
▁시민권을
▁이야기이다
너드
들만
▁01
▁외환
▁체르
너스컵
레타리아
▁공화국을
▁우승으로
▁입학했다
▁페널티킥
링이
센은
.10
way
▁가기
▁도봉
▁사나
▁전방
▁정글
▁해전
동물의
▁KTX
▁다수를
▁빠르고
▁세웠고
▁아랍어
▁지나친
▁창설된
▁가수이자
▁산티아고
▁발달하였다
▁어려서부터
▁탬
다발
▁가군
▁공국
▁기를
▁대진
▁림프
▁비아
▁흑백
노동자
당하자
▁공장이
▁달러로
▁양상을
▁요소는
▁정당한
▁죽임을
▁하노이
▁행사에
▁레코드를
▁베토벤의
▁비교하면
▁확실하지
▁자체적으로
▁;
▁셜
노선
본과
쿠치
▁떼어
▁미츠
▁변모
▁시국
▁쓰게
▁저주
▁채소
구조를
버린다
베이성
활동에
▁노르드
▁살해한
▁아내인
▁결승에서
▁결정하고
▁만들어낸
▁생성된다
▁이끌었고
▁파견되었다
광고
적한
튼은
▁배의
▁사물
했기에
▁같았다
▁대량의
▁반대를
▁스테판
▁여기고
▁충성을
▁달성하였다
누아
술이
▁사귀
▁원동
▁질서
▁타오
▁건물에
▁시체를
▁재개발
▁한계가
▁라이프치히
▁작곡가이다
달은
토끼
IVE
▁배양
▁변증
▁불려
▁재벌
▁투신
소리를
▁개선을
▁바다로
▁소설은
▁이상은
▁러시아가
▁만들기도
▁성공한다
▁아이디어
▁참석하였다
▁사용되었으며
Ch
송이
▁단정
▁버진
▁보류
▁색상
집이다
▁거두고
▁동물을
▁빠지게
▁선생님
▁속하게
▁원소를
▁통합을
▁헬싱키
▁거주한다
▁대표이사
만화
스프
조연
▁늘려
▁라쿠
▁마비
▁변질
▁엘레
▁추리
▁효자
물리학
여명이
예비치
▁식민지를
▁항공사로
▁해트트릭
▁베이시스트
▁이탈리아를
골의
기반
보자
익은
ody
▁군과
▁마켓
▁반성
▁발자
▁색은
▁악성
▁평형
다람쥐
▁듯하다
▁살면서
▁영역의
▁장애를
▁전설에
▁전주시
▁파리에
▁후원을
▁표현한다
▁부임하였다
곡과
발트
아우
▁광무
▁유령
▁입어
▁편향
로에서
스터를
▁그녀와
▁로마를
▁병자호
▁아이오
▁명칭이다
▁인도유럽
▁키르기스
▁생산되었다
▁즉위하였다
:2
도우
란에
창조
필을
▁노드
▁모던
▁묘소
▁예약
▁이문
▁잠입
▁패스
▁황실
교육청
▁글래스
▁바꿨다
▁성질이
▁실행할
▁오리건
▁플랑크
▁플루토
▁1875
▁부진으로
▁지원했다
▁중국공산당
▁하이브리드
▁낯
▁벅
구미
닌다
와라
▁AL
▁납부
▁병에
▁송진
▁양은
▁있은
▁친한
▁태안
▁한데
port
▁말에는
▁문명의
▁사고의
▁못하였고
하였으므로
SC
▁]
룡은
작업
집과
.12
▁공영
▁발착
▁성문
▁Ser
▁권력의
▁낙동강
▁다니며
▁라치오
▁신뢰를
▁안정을
▁유니콘
▁화합물
▁기술이다
▁버라이어티
펭귄
son
▁감동
▁내력
▁설교
▁수은
▁이니
▁정화
조사에
▁대웅전
▁제도와
▁줄이는
다테
더와
데의
▁디나
▁삼은
▁제헌
▁조나
▁홀리
시키면
정보를
▁많지만
▁그것이다
▁운동으로
DC
VA
▁턴
섬유
장성
적일
쿠마
▁KN
▁an
▁공대
▁단양
▁연중
▁주역
▁직속
▁파충
파운드
▁4.0
▁결합된
▁광해군
▁높이의
▁벌이고
▁시점에
▁여자의
▁인생을
▁해결할
▁형이상
▁결혼식을
▁사람들에
▁승진했다
▁채택하고
▁히틀러의
라운드에서
▁뉘른베르크
▁이주하였다
▁프랜차이즈
▁Windows
립의
▁기가
▁다룰
▁벤처
▁변이
▁복직
▁휘발
기관을
상태에
▁280
▁기술에
▁사헌부
▁스위치
▁신석기
▁오바마
▁온도를
▁인구를
▁전자가
▁지방과
▁하나에
▁해안을
▁곳이기도
▁기관으로
▁보헤미아
▁신분으로
▁어디까지
▁이듬해에
▁return
po
중주
진한
채와
_24
~18
▁강성
▁무네
▁발산
▁번씩
▁앨리
▁전장
▁평원
▁풍습
▁해시
▁뜻하며
▁마을로
▁메르세
▁무게는
▁사무총
▁고등학생
▁말하기를
▁북동쪽으로
▁인터페이스를
▁2011-12
구간
살인
오버
즈마
타노
▁낮추
▁오만
▁절감
▁타우
▁녹음을
▁연관된
▁이성질
▁촬영을
▁형태와
▁후대에
▁생산되는
▁마드리드의
▁발탁되었다
▁전라북도의
▁가톨릭교회의
각에
게르
노래
드래
움은
▁능가
▁담양
▁물은
▁방탄
▁사위
▁여타
▁오미
▁오일
▁주며
▁청취
사로서
▁망원경
▁불분명
▁오늘에
▁유전적
▁지적이
▁떨어진다
▁소수민족
▁참가한다
피탈
▁배반
▁애착
▁개인용
▁경우의
▁능력과
▁박사가
▁언급된
▁영상이
▁추진하고
▁국가에서는
▁방글라데시
▁프로그래머
노트
반대
스틱
▁/&
▁가가
▁소용
▁지을
▁키를
▁혈관
▁광대한
▁교리를
▁권유로
▁넘어갔다
▁보여주며
▁제거하는
▁토스카나
▁유러피언컵
120
▁위조
▁익숙
▁피살
에게만
▁결승에
▁버스는
▁사회는
▁조조가
▁차가운
▁총사령
▁그린란드
▁강조하였다
▁발표하면서
▁쥘
왕복
쿠는
eth
▁괜찮
▁다닐
▁몹시
▁발로
▁신자
▁안젤
▁여럿
▁윤휴
▁임정
▁자궁
▁지그
▁청자
림으로
▁결정할
▁부임한
▁분노를
▁일부러
▁정리를
▁효력을
▁후계자
▁논문에서
▁올라가는
▁정책으로
▁통합되어
딘의
우회
윽고
페라
화도
ala
▁개수
▁놓아
▁뉴올
▁불량
▁식을
▁아종
▁역학
네트워
바도르
▁AMD
▁사무소
▁알프스
▁몸길이가
▁일본군이
▁탄자니아
▁핵심적인
예의
유니
ohn
▁만을
▁받던
▁페라
교수로
단체인
▁개그맨
▁달아나
▁미만의
▁성장한
▁시험에
▁힌두교
▁노력했다
▁도착하여
▁등장하며
▁승리하여
▁시인이다
▁연구소의
▁총회에서
▁알고리즘은
데는
민속
온과
▁공양
▁교장
▁개발은
▁교통국
▁남서부
▁레이스
▁블루윙
▁인민군
▁제후로
▁체계가
▁탑재한
▁편으로
자로부터
▁전문적인
▁하였다고
격의
▁원전
▁의정
▁이호
▁질소
▁캐치
▁피드
▁향신
워드는
▁감리교
▁권리가
▁나리타
▁단점이
▁방송은
▁복무를
▁영화와
▁이후인
▁저렴한
▁개시했다
▁생산한다
▁스리랑카
▁자이언츠의
▁플레이오프에
TR
레네
품과
풍은
▁데는
▁로키
▁마티
▁믿을
▁바트
▁사하
▁일주
▁잡을
아미타
지로서
하려던
▁Boy
▁땅에서
▁명의로
▁분위기
▁사회학
▁후자는
▁부르주아
도마뱀붙이
▁노력하였다
공정
연금
일스
oon
▁Sm
▁곡인
▁묘는
▁본사
▁순식
▁전교
▁직렬
▁짧게
▁히노
외국어
▁떠나게
▁비단털
▁생명체
▁싱글을
▁이윽고
▁주기로
▁타일러
▁현장에
▁발발하자
▁있어서도
▁총칭이다
▁사이타마현
UN
섭은
▁감추
▁배워
▁앨라
▁용해
▁전대
네스는
▁705
▁And
▁관계의
▁끝냈다
▁돌아갈
▁설계한
▁스케줄
▁정권에
▁질량의
▁해주는
위원장을
▁국토교통
▁필요성이
노조
~15
▁도도
▁사비
▁순례
▁준동
▁침체
중으로
하자고
▁경제가
▁고고학
▁방송사
▁칭기즈
▁트라야
세기에서
▁국회의원이다
In
때는
일기
▁GM
▁me
▁경시
▁대령
▁무명
▁은폐
▁점도
▁징집
▁휴양
캐스트
able
▁보통은
▁항공의
▁1592
▁데이터가
▁반대했다
▁어려움이
▁일어나기
▁제공된다
▁보고되었다
너를
신정
연과
▁날인
▁보름
▁삶과
▁오우
▁절도
▁조경
▁충칭
▁푸아
▁Can
▁끌어올
▁번호를
▁위상을
▁정치의
▁튀어나
▁문제점을
▁연구하고
▁매장되었다
▁스타디움에서
분할
슈퍼
파라
▁걸고
▁둘레
▁묶여
▁성화
▁오와
▁이상인
▁총독부
해졌으며
▁제작하고
▁힐베르트
▁조선민주주의인민공화국은
▁촐
▁노원
▁둘의
▁볼록
▁사설
▁소작
▁줄을
일부로
▁변하지
▁스탠리
▁스트로
▁조정은
▁펼쳐져
▁명나라의
▁확인했다
나지
후를
▁규명
▁돈이
▁며느
▁스쿠
▁아끼
▁일삼
관이다
▁기업은
▁대학이
▁미군이
▁사고는
▁카디널
▁타타르
▁자연수이다
▁고의
▁김두
▁송환
▁쪽의
▁하의
▁호모
리기도
▁고성능
▁두가지
▁비용은
▁자극을
▁통제를
▁통폐합
▁경우이다
▁운영한다
▁이해하고
▁클레멘스
▁마르크스주의
▁2010-11
건에
련을
▁계룡
▁무단
▁수다
▁하쿠
▁항만
산드로
중이던
very
▁고전적
▁불교를
▁앨버트
▁제공한
▁체코의
▁패스트
▁형제의
▁드미트리
▁문화예술
▁결성되었다
▁중심지이다
▁쯔
록시
▁라자
▁살며
▁속편
▁정예
누스가
라이브
타에서
▁더블린
▁사상에
▁생계를
▁서울을
▁졸업생
▁집단을
▁컬렉션
▁편이며
▁감독직을
▁여성들이
▁주인공인
▁코퍼레이션
▁2009-10
베는
제조
▁구슬
▁날씨
▁살기
▁삼는
▁왕래
▁외할
▁이룰
▁주성
▁경제에
▁도로의
▁돌려보
▁부인이
▁아이들
▁얼굴에
▁조언을
▁패키지
▁고전적인
▁부분이다
▁의도적으로
길의
app
▁로고
▁멋진
▁분별
▁비지
▁아뢰
사라는
쳤지만
▁강하고
▁관리가
▁동의를
▁분류는
▁특성이
▁명목으로
▁일으키고
▁카스티야
▁제안하였다
게도
친왕
팅을
110
▁사커
▁생선
▁안겨
▁안중
▁엔트
▁남동부
▁따랐다
▁사보이
▁사상과
▁썼으며
▁염두에
▁임시로
▁장로교
▁전해져
스코리아
▁당나라의
▁보편적인
▁활동했고
▁오늘날까지
▁브란덴부르크
TF
▁팻
받기
후쿠
▁TR
▁경량
▁교부
▁먼지
▁월남
▁읽어
▁투하
▁공연이
▁바뀌는
▁브리지
▁손해를
▁유대교
▁못했으며
▁어워드에서
▁University
▁훙
링크
오세
▁IV
▁가다
▁결제
▁과다
▁동적
▁맑은
▁장병
▁줄곧
▁책록
▁통역
▁항등
데스의
▁개념의
▁묻혔다
▁복수의
▁수도는
▁재편성
▁팬들은
▁한번도
리우스는
으로서는
▁서비스의
▁보컬리스트
▁충청북도의
GO
엘은
▁노랑
▁맡겨
▁병기
▁애드
▁월화
▁장래
▁픽셀
▁황색
리라는
이드의
일자로
▁가량의
▁드러내
▁메디치
▁세포는
▁센터는
▁시도는
▁일기로
▁전력이
▁주식을
▁가졌으며
▁개발도상
▁곳이었다
▁스카우트
▁일하였다
▁차지하게
▁상황이었다
가라
기원
동지
▁주일
▁주임
▁초의
▁클릭
사이클
시설이
▁NBC
▁반발을
▁혼란에
▁급격하게
▁뉴올리언
▁시스템이다
값은
걸이
상공
▁동향
▁연화
▁잔여
▁현무
▁경성부
▁극적인
▁기능에
▁기후는
▁마그네
▁명령어
▁물질은
▁물체가
▁반격을
▁베어스
▁부부의
▁스테인
▁장착한
▁재계약
▁재구성
▁적용할
▁케이트
▁태양계
▁과정이다
▁이외에는
▁출생하였다
곡동
곡면
망원
▁강변
▁개로
▁나나
▁다나
▁로트
▁엘런
▁유체
▁후루
▁단계의
▁부담을
▁아들과
▁왕국과
▁기자회견
▁사업으로
▁유로비전
▁판매량을
거와
분기
생성
유대
츠카
테러
▁Ag
▁고을
▁구장
▁띠며
▁방공
▁비리
▁슈타
▁신당
▁왕가
▁원심
▁정칙
▁함은
작전을
▁고시엔
▁기관은
▁남성과
▁노력이
▁명백한
▁오르게
▁정계에
기보다는
▁본관으로
▁야쿠르트
▁치러졌다
formula
성공
송을
숙이
ATO
_23
_25
▁MA
▁도산
▁되살
▁랭크
▁아칸
됐지만
스키가
슬라브
▁3-2
▁드레이
▁스퀘어
▁화요일
▁결성하여
▁러시아에
▁시간대에
▁요구한다
▁가입하였다
▁유명해졌다
"|
격투
양구
que
▁AA
▁공시
▁비옥
▁씨를
▁안팎
▁연행
가락을
갔지만
세기경
▁230
▁끝나면
▁라이센
▁물러난
▁알리고
▁야마다
▁저술한
▁기사이다
▁당하였다
▁전시되어
▁제기했다
▁주어지는
▁소설가이다
▁아테네에서
▁지역에서만
▁궐
▁슌
골은
렐라
산염
▁군함
▁대를
▁대여
▁동창
▁라울
▁싸울
▁지석
▁치유
▁콜드
▁파열
▁허정
▁형이
보에서
중공업
▁tvN
▁내전이
▁번역한
▁별개로
▁서스펜
▁서포터
▁시도가
▁싱글인
▁잭슨의
조사에서
▁국왕으로
▁사무라이
▁순식간에
▁시리즈가
달이
락에
빌은
질량
att
▁Fe
▁경은
▁나쁘
▁되게
▁사내
▁야전
▁에볼
▁평상
플라이
▁되풀이
▁무솔리
▁부문을
▁실권을
▁열리고
▁지구로
▁지나가
▁트윈스
▁방문했다
가이
니카
보며
킨은
통계
화재
▁금정
▁봉수
▁아쓰
▁완수
▁유우
▁자랐
▁촛불
▁가지를
▁거래를
▁건설이
▁관점을
▁대회로
▁레이디
▁번이나
▁산업이
▁수요일
▁없다며
▁에스컬
▁예산을
▁운명을
▁제프리
▁조선을
▁가로질러
▁인식하고
▁서아프리카
▁발매되었으며
▁김우
▁도르
▁복싱
▁애기
▁요양
▁절충
▁치르
▁할인
냈으며
리라고
츠에서
▁다이노
▁보고를
▁사람인
▁어디서
▁없어진
▁영국을
▁총학생
▁파스칼
▁합니다
▁경제적인
▁마음으로
▁보고했다
▁신성로마
▁파라과이
▁만들어지는
58
룡의
먹는
ict
iel
▁검정
▁고난
▁고집
▁덕에
▁손녀
▁스킬
▁위법
▁이도
▁이심
▁출혈
▁결정이
▁꼬리는
▁진실을
▁친환경
▁행동의
▁홋카이
▁가능성은
▁신기록을
값이
립을
맨은
클래
▁NE
▁공세
▁독도
▁들지
▁병렬
▁이그
▁차오
산업의
회사인
▁개발자
▁단단한
▁무리가
▁사례는
▁셈이다
▁여의도
▁필요할
▁하원의
판에서는
▁슈퍼스타
드루
ult
▁9,
▁구부
▁금환
▁꽃을
▁넷플
▁아놀
▁일가
▁게임과
▁단체로
▁문헌에
▁미군은
▁세계는
▁전자를
▁상징으로
▁의거하여
▁전사했다
▁절대적인
▁루마니아의
니크
덕을
수영
수정
중대
탄에
▁구두
▁눈은
▁문의
▁믿음
▁왕인
▁크며
력발전
사회적
학교로
▁걸린다
▁구체적
▁런던에
▁무기로
▁새마을
▁선수인
▁수입을
▁신임을
▁남부에서
▁신화에서
▁여성주의
▁지내다가
개념
둘러
천에
▁UC
▁격자
▁렌더
▁모라
▁사수
▁앞뒤
▁음주
▁정종
▁집은
▁차고
▁헤센
▁계산할
▁기능과
▁맥스웰
▁얼굴은
▁위주의
▁의장을
▁자연과
▁초신성
▁병사들이
▁보수주의
▁조직으로
▁띈
루크
▁각료
▁관목
▁국의
▁미첼
▁민요
▁배로
▁불타
▁색소
▁셀주
▁식의
▁개발과
▁로큰롤
▁리그는
▁물체를
▁속했다
▁야구장
▁참가를
▁Good
▁그만두고
59
방어
유물
raw
▁듣는
▁목에
▁무르
▁베테
▁쓰일
▁알기
▁조연
▁태도
▁260
▁바라는
▁쓰러뜨
▁초에는
▁충돌을
▁해결을
▁구역이다
▁내려오는
▁명성황후
▁변화하는
▁선고했다
▁연합군이
▁인종차별
▁있음에도
▁추정되고
▁제공하였다
규의
그를
▁교단
▁김은
▁단속
▁사림
부사를
트레이
▁그랑프
▁그렇기
▁무늬가
▁문제점
▁아스카
▁임기를
▁전면에
▁제작자
▁촬영한
▁호스트
▁Song
▁노부나가
▁복귀하여
▁파견되어
▁한반도의
▁끔
▁근위
▁버드
▁비둘
▁셔틀
▁오사
▁정거
▁집의
▁104
▁그림이
▁나간다
▁마닐라
▁문자의
▁시대로
▁일본식
▁저스틴
▁체포된
▁뉴멕시코
▁달아났다
▁요청으로
▁장관으로
▁정의하고
▁트랜스포
본에
악을
▁가뭄
▁거처
▁소가
▁안톤
▁영사
▁진상
체계를
▁범죄를
▁직원이
▁등장하여
▁애니메이션의
담은
ual
▁백운
▁법령
▁패망
문학상
▁근대적
▁꼬리를
▁발행한
▁사용은
▁선언한
▁아침에
▁연구한
▁이사장
▁점으로
▁간단하게
▁지배하에
▁집합이다
▁항공기를
다에
소총
투수
-06
-22
▁기밀
▁깨어
▁비를
▁세키
▁소를
▁실효
▁제창
궁에서
캐나다
▁기도를
▁기준은
▁리차드
▁사랑은
▁여자를
▁원소가
▁휴대폰
▁부산에서
▁컴퓨터에
▁비슷하지만
▁생각하였다
▁맴
주며
▁군마
▁기압
▁변속
▁부조
▁올레
▁우물
▁유틸
▁직경
▁카슈
▁통솔
▁프루
▁하후
거리에
왕에게
유가행
자마자
▁CIA
▁Don
▁결정은
▁높였다
▁달린다
▁베이비
▁비교할
▁신분을
▁요시아
▁정체를
▁주최한
▁프레드
▁환경이
▁자신들을
▁초반에는
▁대표적이다
▁일반적으로는
구니
기시
순을
윤리
임금
쳐서
▁슬램
▁쓰나
▁자비
▁전단
▁추계
▁폴라
이트의
▁대회인
▁복귀를
▁세력에
▁참여해
▁필두로
▁허드슨
▁1874
▁1877
▁패배했다
▁현역에서
▁2007-08
암을
패스
효율
~12
▁뒤덮
▁땅이
▁열정
▁자명
▁조봉
▁기슭에
▁다비드
▁변경을
▁악기를
▁업로드
▁재발매
▁종교를
▁출입구
▁개정으로
▁어머니인
▁위치에서
▁좋아한다
▁세르비아의
송은
투는
홍은
▁YG
▁글이
▁끊어
▁내릴
▁맞물
▁매표
▁목욕
▁아킬
▁정박
▁태생
버스를
▁2-3
▁고쳤다
▁바탕을
▁소련과
▁없도록
▁역할에
▁예수가
▁자민당
▁기업으로
▁이뤄졌다
▁인정받고
▁파푸아뉴
▁득점하였다
법적
으러
행사
히라
oid
▁매도
▁싸운
▁이형
▁고정된
▁기온이
▁미카와
▁비잔틴
▁야구단
▁아이들은
▁연구소에서
▁유식유가행
▁존재한다는
(,
HD
PM
광장
노이
새를
▁08
▁같아
▁것만
▁곤살
▁러닝
▁스이
▁표창
뿐이다
▁대학과
▁방송에
▁포도당
▁관리한다
▁기준이다
▁러시아어
▁반대하고
▁참가하지
▁남동쪽으로
▁상업적으로
▁선거구에서
포럼
혁신
▁멘델
▁미겔
▁석권
▁에인
▁털어
▁ATC
▁강에서
▁교육은
▁국가적
▁내려와
▁만화를
▁미친다
▁발전한
▁세대의
▁이글스
▁캠페인
대학교에
▁그레이엄
▁금지하는
▁만드는데
▁이해하기
▁플루토늄
▁2008-09
▁엣
녀는
년생
말은
암사
열과
츠에
향교
▁고층
▁남을
▁대서
▁도읍
▁바젤
▁승낙
▁아지
▁아편
▁저수
어머니
▁깨닫고
▁동작을
▁마우스
▁마을은
▁발행된
▁연예인
▁임무는
▁파생된
▁사람들도
▁아이들의
▁기자회견을
▁리베르타도
▁입학하였다
변화
섬에
▁BL
▁벽에
▁우상
▁파업
대군의
이스케
▁다수가
▁다이쇼
▁대다수
▁둥지를
▁미생물
▁요리토
▁대표되는
▁들어서는
▁참석했다
HL
ke
곤은
좌파
지검
▁경무
▁나름
▁불릴
▁제동
▁첩보
▁타마
▁핵탄
것이다
연승을
▁만장일
▁변하는
▁증후군
▁구성한다
▁설치하는
▁아래에는
▁아이오와
▁재판에서
▁주최하는
▁곶
▁캐나
▁탱크
▁사하라
▁약칭은
▁운동가
▁판매가
▁슈투트가
▁작용한다
▁초기부터
▁최소한의
▁부다페스트
▁불가리아의
▁플레이오프에서
me
미카
범이
숙의
파티
호인
aby
▁본존
▁분사
▁원효
▁유정
▁음의
▁정관
▁주부
▁천장
▁추운
▁0.1
▁국무총
▁머물렀
▁선조의
▁직후인
▁컴퍼니
▁파블로
받았으나
▁무렵부터
▁연합하여
▁활약하며
▁유니버시아
▁소속기관이다
▁한국방송공사
▁탔
국도
어류
엔진
진군
태의
▁결여
▁닛산
▁달콤
▁법안
청으로
▁you
▁네바다
▁비정규
▁임기는
▁잭슨은
▁준비가
시키려는
▁발견되고
▁없었으나
▁주둔하고
▁착공하여
▁대한민국이
▁맞이하였다
결의
근과
란한
로쿠
부전
영국
임과
찰을
EEE
▁당신
▁미르
▁박용
▁비싸
▁스쿼
▁테헤
디스크
리스와
▁거두지
▁불리한
▁앞에는
▁오리엔
▁올렸고
▁전설이
▁조각을
▁조정을
▁질서를
▁학자들이
▁출시되었으며
명령
짐을
▁KO
▁강서
▁드로
▁불사
▁영미
▁외손
▁중견
우스를
▁곧이어
▁도쿄의
▁돌아왔
▁등급은
▁등록된
▁변한다
▁세력과
▁아내를
▁아키텐
▁임금이
▁제니퍼
▁지진의
▁타임스
▁탄압을
▁홈런과
▁단백질을
▁명나라에
▁별명으로
▁주어졌을
▁호소카와
닷컴
분경
탈을
▁Bo
▁기종
▁남겼
▁라벨
▁소식
▁아드
▁얕은
▁억울
▁접합
▁정월
▁집이
▁토리
협회가
▁공연은
▁노르만
▁데일리
▁발견할
▁설명한
▁얼굴이
▁이때의
▁인구밀
▁죽었고
▁1859
▁등록되어
▁인플루엔
▁중반부터
▁남서쪽으로
▁메트로폴리탄
보전
전화
카테
▁1%
▁글래
▁대인
▁앨버
▁장자
▁조석
▁타밀
호에서
reak
▁270
▁날개를
▁목적에
▁배경을
▁백악기
▁아이누
▁않거나
▁이동을
▁지구는
▁측정할
▁표기는
해지면서
▁신시내티
▁위원장을
▁체계적인
▁표현하였다
▁땀
레앙
▁6.
▁광년
▁두뇌
▁명륜
▁선양
▁성실
▁적법
▁전리
트라는
호이다
▁가늘고
▁나무의
▁다항식
▁많은데
▁성인이
▁장르를
▁정착한
▁총리의
▁등장하고
▁요리이다
▁적용하여
▁종목으로
▁승진하였다
▁안드로메다
▁만들어졌으며
FS
▁푼
건과
배마
선사
▁NP
▁독살
▁장점
▁조문
▁캠벨
쳤다고
팀에서
훈련을
▁개기일
▁누구도
▁먹기도
▁지대에
▁진단을
▁프린스
▁계속되고
▁대학이다
▁두드러진
▁사건에서
▁시민들은
▁재직했다
▁제작되어
▁현상이다
▁헤르체고비나
IX
▁싣고
▁야코
명에게
웨이는
▁감독인
▁경기인
▁구약성
▁대상에
▁대표이
▁대항해
▁미성년
▁생물의
▁입자가
▁비판하고
▁이용하면
▁인수하여
▁조성되어
▁캄파니아
▁CO
▁미켈
▁분단
▁애칭
▁염화
▁테베
▁홍익
네이션
▁단어로
▁중거리
▁침략을
▁부여하는
▁제국주의
▁본질적으로
▁일렉트로닉
규가
콜로
▁개개
▁관성
▁떠돌
▁로우
▁마차
▁박찬
▁산과
▁생도
▁에는
▁유선
▁이석
▁접두
▁풀이
대학은
스트림
▁고도의
▁구원을
▁사바나
▁시마즈
▁오가는
▁이민을
▁천체의
▁퍼텐셜
▁바다에서
▁세웠으며
▁승강장의
▁팬들에게
▁활동하였으며
관측
순에
:30
▁AE
▁발포
▁비야
▁양극
▁오게
▁인체
▁토양
까지를
▁516
▁달성한
▁바뀌게
▁불리던
▁사례를
▁신세계
▁지위가
▁불안정한
▁않는다면
▁알프레드
▁자동차의
▁즉위하자
▁엔터프라이
보상
출장
피트
ash
▁교량
▁기마
▁미수
▁수만
▁책에
▁112
▁매거진
▁면모를
▁어도비
▁역할도
▁인식이
▁일식은
▁자살을
▁직무를
축구연맹
했으므로
▁교황으로
▁구별된다
▁되어서야
▁모티브로
▁서식하고
▁헤라클레
▁대조적으로
▁데뷔했으며
수이
티어
▁디비
▁블룸
▁순창
▁식용
▁유생
▁장대
▁흥덕
문화를
방식을
세포는
스럽고
종공신
▁당하여
▁배경이
▁알베르
▁우주선
▁중부에
▁표현하고
더릭
▁당연
▁심어
▁육식
▁전과
▁채색
▁코로
▁형벌
▁후추
쇼에서
▁비행을
▁어우러
▁전공을
▁전설적인
▁함수이다
▁아나키스트
▁챈
건강
년여
ank
▁le
▁구내
▁근원
▁금액
▁넘버
▁신시
▁주동
는지를
리스를
▁반도에
▁브레멘
▁유능한
▁일행은
▁6000
▁사회과학
▁소아시아
▁시스템과
▁클라이언트
▁말레이시아의
보컬
블라
인승
젝트
▁땅의
▁여는
▁이희
▁잉여
▁푸젠
▁퓨처
지방의
▁내에는
▁상세한
▁여자는
▁연합국
▁출마를
▁크메르
▁공격적인
▁데이터의
▁모양이다
▁스미스는
▁아시리아
▁지하철의
yn
▁멱
반과
벌리
수학
테가
▁09
▁둘을
▁리브
▁맞배
▁매치
▁반항
▁속초
▁에노
▁티에
궁으로
▁능력에
▁수비를
▁대학교로
▁추증되었다
▁콧
겁게
리한
주민
▁La
▁매스
▁버밍
▁사치
▁신지
▁아그
▁안철
▁이선
▁제가
▁중개
▁중용
서에는
스러워
회의는
▁급제자
▁영예를
▁후쿠이
▁가능하고
▁로베르토
▁인터넷을
▁포함되는
▁대통령에게
▁출시하였다
▁볶
장비
체험
▁AU
▁넓혀
▁눈치
▁배리
▁쌍의
▁부분일
▁조직과
▁체제는
▁갑작스럽게
▁올림픽에서는
강화
전설
준과
지배
uck
▁과목
▁기금
▁배분
▁북중
▁완봉
▁정정
▁쿠로
버그는
▁Let
▁시미즈
▁죽는다
▁패러다
▁지배하고
▁근무하였다
▁자연스러운
Re
네프
왕릉
청사
▁눈의
▁다윗
▁모란
▁몰고
▁사교
▁좋고
▁흔적
▁교육이
▁대립이
▁방법과
▁예술적
▁위원을
▁재판에
▁것이라며
▁노동자의
▁쇼트트랙
▁식민지의
▁일렉트릭
▁작품들은
▁표현했다
▁보도되었다
▁랠
대도
머의
RNA
▁다치
▁둘다
▁샤오
▁쉽고
▁양양
▁육지
▁이만
▁입당
▁카리
▁호리
브리어
여개의
으로만
▁공항이
▁브라더
▁앙드레
▁장치의
▁힘들다
▁드라마의
▁선제골을
▁증가한다
▁위치해있다
▁지원하였다
▁뜬
거북
김씨
무르
입을
ute
▁누에
▁눈물
▁대문
▁등산
▁복속
▁외삼
▁판명
로그램
사우스
▁고기를
▁김정일
▁다르며
▁밑으로
▁복귀한
▁셀레우
▁수행한
▁어웨이
▁이들과
▁입지를
▁포항시
▁학술적
▁희귀한
▁서바이벌
▁시설이다
▁주도권을
▁표현된다
▁확실하게
▁집중적으로
렌의
북면
상인
커우
콘서
ars
▁게일
▁길은
▁무찌
▁문맥
▁봉황
▁실사
▁역명
▁지우
▁진전
회의의
▁건강이
▁나왔고
▁대군을
▁세계가
▁연기한
▁이적을
▁컴파일
▁묘사하고
▁청나라에
▁판매하고
▁인테르나치오
사장
▁갇혀
▁대하
▁두터
▁배는
▁부주
▁불의
▁상가
▁쓰던
▁Gen
▁Out
▁뇌물을
▁영토는
▁있기에
▁존슨은
▁찍었다
▁격파하고
▁브레이크
▁아키텍처
▁포인트를
▁헬레니즘
▁체계적으로
각과
오지
ray
▁민물
▁서면
▁제르
▁지날
▁편견
▁만들게
▁모자이
▁붙이는
▁사간원
▁사무실
▁쇼핑몰
▁영어의
▁와이드
▁IEEE
▁구분한다
▁등장하지
▁방정식은
▁아이스크
▁비롯되었다
▁평균자책점
범의
블릭
연극
타점
enc
▁국수
▁버터
▁보정
▁부교
▁수증
▁식이
▁실어
▁약사
▁중랑
남으로
스와프
▁건설에
▁기리는
▁당사자
▁만나고
▁부인의
▁슬하에
▁아이다
▁작가는
▁지점을
▁나타나며
▁주민등록
▁Heart
▁대대적으로
▁소개되었다
▁알렉산데르
▁세종특별자치시
실업
여개
▁RS
▁벵골
▁증발
▁항생
▁330
▁기상청
▁농어촌
▁묘소는
▁분야는
▁선수와
▁알폰소
▁왔으나
▁인프라
▁파악할
▁프리큐
▁해운대
▁다르지만
▁묘사했다
▁자카르타
▁출생하여
▁게임플레이
▁유럽에서는
""
NT
모닉
빈을
▁PL
▁담보
▁로컬
▁리프
▁성지
▁수인
▁안방
▁폐교
▁휘는
▁휘하
때까지
스트롱
▁다시는
▁문자가
▁바람을
▁연결을
▁예수회
▁이루게
▁질병을
▁수비수로
▁전해졌다
분데스리가
▁작품으로는
▁설일체유부의
▁멧
소나
실장
충을
▁0.
▁도약
▁멀어
▁불복
▁용맹
▁재해
▁흡사
▁개념에
▁공군기
▁모양은
▁무죄를
▁바스크
▁불만이
▁실수를
▁체제에
국회의원
▁공동체의
▁이론이다
▁작품들을
▁종류이다
▁중심지가
▁추천으로
▁메르세데스
▁자리잡았다
▁추진하였다
귀족
달을
빨리
수스
역인
플릿
▁농산
▁센서
▁오트
▁의논
▁잎이
▁적당
▁증조
▁호가
변으로
▁가볍게
▁궤도에
▁대상의
▁보리스
▁북조선
▁서구의
▁영토의
▁바이마르
▁언급하고
▁정도이며
▁캄페오나
▁플레이를
▁사망하면서
▁일방적으로
▁투입되었다
▁썰
마타
막에
면체
처벌
틱스
alt
▁거미
▁베드
▁싸웠
▁왔던
▁탄수
랜드는
하느냐
▁2/3
▁글리코
▁금환일
▁대단한
▁붉은색
▁실패를
▁작위는
▁치르게
▁ICBM
▁내부에는
▁모두에게
▁자랑하는
▁뉴잉글랜드
▁유지되었다
▁쯤
등기
소유
향이
혈압
지였다
▁높이고
▁느낌이
▁생각에
▁신성한
▁신학을
▁출범한
▁트위터
▁폭탄을
▁대표팀에
▁북극점에서
그린
월말
▁리어
▁물류
▁양서
▁재회
▁처칠
▁현은
▁여왕의
▁테크놀
▁브레이브
▁이후로도
▁해결하는
▁공부하였다
▁알렉산드로스
복과
육군
자동
탐정
▁그대
▁비하
▁사당
▁선별
▁수식
▁죽일
▁착취
▁쳐서
▁탈당
▁177
▁공국의
▁교육부
▁내각이
▁바쳤다
▁부친은
▁비하면
▁승부를
▁쓰이며
▁주한미
▁표면의
▁표트르
▁해협을
▁1812
▁사람이었다
▁오늘날에도
담의
커와
크루
▁꼬마
▁내적
▁블랑
▁자사
▁지킬
반으로
분이다
제도가
▁가스가
▁국제선
▁부족을
▁선생이
▁왕국에
▁외무부
▁이순신
▁펼쳐진
▁형상을
▁휴대용
센터에서
▁과테말라
▁구성되며
▁메모리얼
▁분포하며
▁사망한다
▁실시한다
▁예정되어
▁친구들과
▁석방되었다
▁진행되었고
▁사회민주주의
죄를
DOS
▁05
▁As
▁김시
▁대좌
▁머큐
▁백업
▁제철
▁탁구
건으로
▁708
▁가정을
▁군으로
▁문장을
▁양자역
▁중공업
▁클레오
▁데뷔하여
▁무승부를
차전에서는
▁그러고나서
▁크리스티나
중계
▁데르
▁돌이
▁바쳐
▁사생
▁쌓고
▁유방
▁밀가루
▁바뀐다
▁반기를
▁방송의
▁스타트
▁승정원
▁원로원
▁플러그
▁환경의
하기에는
▁1700
▁베이징에서
DI
레르
레븐
▁Mi
▁내림
▁면직
▁복식
▁설리
▁세토
▁종파
▁행해
▁호스
노카미
됐으나
미아의
▁107
▁감정이
▁부장판
▁양쪽에
▁증가한
▁마리아의
▁소장되어
▁영역으로
▁오디션을
▁정의하는
▁페르시아의
급이
연패
자형
▁격하
▁김치
▁실체
▁이강
▁전봉
▁족의
▁치우
▁퇴위
나라와
▁구분이
▁방송인
▁신문에
▁지식의
▁프리킥
▁보이기도
▁소장하고
▁확인하고
▁쏜
바드
▁됐고
▁박경
▁부양
▁샤프
▁일과
▁읽기
▁조장
▁조제
▁혈통
▁감소로
▁김옥균
▁인생의
▁전선을
▁집합은
▁대중음악
▁불상이다
▁예로부터
▁주인공은
묘는
질서
키로
▁눌러
▁바늘
▁신발
▁올릴
▁유카
▁청일
▁취해
부대가
인지는
▁4.5
▁법원의
▁싱가포
▁영역이
▁이조참
▁태양이
▁특허를
▁1879
▁보내졌다
▁사실상의
▁소유권을
▁언급된다
▁전선에서
▁집단으로
▁컴퓨터가
Wh
▁짚
사대
▁가모
▁뚜껑
▁레몬
▁속을
▁쌍성
▁온실
▁전학
▁조던
▁클랜
▁타쿠
▁생산한
▁육군은
▁칠레의
▁팔렸다
▁쓰이기도
▁전국에서
▁지배권을
▁고등학교에
탄과
평이
▁꾸몄
▁버섯
▁봉인
▁숙박
▁알로
▁한산
오면서
▁도입을
▁무게를
▁수있는
▁잠비아
▁출생한
▁전투이다
▁차량으로
고교
보조
에어
카로
▁부엌
▁불로
▁옮겼
▁황소
▁히스
들에는
▁공작의
▁도구를
▁원자가
▁일부에
▁입구에
▁코끼리
▁생성한다
▁스탈린은
▁심각하게
▁요구하고
▁월드컵의
▁인민해방
▁1,200
▁받아들이는
▁있었으므로
▁지구로부터
덩이
렉스
새는
책은
▁At
▁가극
▁따돌
▁묘역
▁수와
▁한민
▁할양
경이다
▁게이밍
▁방향이
▁부분과
▁붙잡혀
▁사례로
▁신체의
▁연료를
▁입후보
▁제품이
▁찾아서
▁학생의
▁비난했다
▁선출되어
네와
레알
aff
▁몰랐
▁밝고
▁삼위
▁서위
▁어지
▁왔고
▁운임
▁하류
갔는데
기관에
밖에도
법원은
▁걸렸다
▁돌아간
▁들어선
▁리모델
▁엔진과
▁요리는
▁인정한
▁전역의
▁진주시
▁천안시
▁편성이
▁히트를
▁보이는데
동초등학교
▁상하이에서
▁참여했으며
됨을
려야
사실
상대
식민
전철
쿠의
▁가온
▁벽을
▁생김
▁스펜
▁재구
▁하리
▁회유
올해의
▁녹음한
▁누렸다
▁단계는
▁언어에
▁영토에
▁필요에
▁결성했다
▁다스리는
▁6,000
--
런던
림사
매의
비어
소닉
▁Qu
▁경순
▁김도
▁김주
▁반달
▁벨리
▁빨라
▁열거
▁팔을
▁학파
에게로
▁성직자
▁싶다는
▁장소가
▁제도로
▁지역별
▁콘크리
▁후보자
▁개최하고
▁거부하는
▁명확하지
▁진나라의
▁패배하여
▁표시한다
▁대승불교의
▁여우주연상
▁연구자들은
암에
히며
▁김덕
▁남지
▁동백
▁동상
▁마늘
▁묻는
▁북벌
▁삶은
▁양념
▁양천
▁저그
▁정세
▁조준
▁플리
그래피
화된다
▁데포르
▁머리와
▁사령부
▁한민족
▁대법원은
▁무엇보다
▁혁명으로
be
so
▁툰
담이
▁낮게
▁딱딱
▁리즈
▁불만
▁지팡
▁학창
▁고려에
▁공민왕
▁도구로
▁디스코
▁랴오닝
▁별명은
▁선택을
▁행성을
▁레오나르
▁수여하는
▁지역구의
▁간접적으로
▁등록되었다
▁점령하였다
▁평가하였다
답게
속이
암동
재해
ail
▁리사
▁버클
▁신곡
▁앵커
▁양궁
▁퇴출
▁학대
세포를
일일식
토에서
플렉스
▁650
▁가면서
▁뉴욕에
▁루도비
▁백화점
▁출간된
▁환자는
▁히트곡
▁높아졌다
▁비판적인
▁상황이다
▁아니냐는
▁앨라배마
▁이것들은
▁이루어질
▁크리스틴
▁후손으로
가슴
레닌
바타
보트
테일
ull
▁가닥
▁강우
▁균등
▁리는
▁무도
▁세컨
▁왕당
▁최우
나무를
ions
▁남부와
▁단위의
▁대상은
▁몰도바
▁발전이
▁보너스
▁용산구
▁있는가
▁태어날
▁화장품
바키아의
▁8000
▁여기서는
▁허용하는
▁활동한다
교인
분리
여지
정비
채로
MBC
_26
▁발톱
▁범람
▁인하
▁저우
▁호찌
이어야
▁320
▁3~4
▁모임을
▁바깥쪽
▁사할린
▁어깨를
▁에이즈
▁전통에
▁지식인
▁태블릿
▁기동전사
▁유전자를
▁이미지가
광주
기소
돈은
위도
_27
▁국공
▁그도
▁내구
▁적힌
▁조시
▁표절
▁Vol
▁과거를
▁국민이
▁모양인
▁시가지
▁인류가
▁재결합
▁찾아와
▁영국군은
▁카메라를
▁지지하였다
▁닝
▁텅
영웅
잡지
탄올
티엔
▁LS
▁명제
▁믿지
▁백혈
▁오웬
▁정명
전쟁이
▁따위의
▁분류할
▁설치할
▁음모를
▁전통의
▁치른다
▁호흡을
▁개발되어
▁생각하지
▁생성하는
▁스파이더
▁없어졌다
▁아프리카에서
댄스
사진
쓰는
▁거란
▁동진
▁로타
▁비에
▁산남
▁소피
▁힘은
질적인
▁교통사
▁선보인
▁시켰다
▁영혼을
▁장점을
▁정체성
▁체계의
▁행사할
▁멤버들이
▁브랜드를
▁실시하여
▁연구에서는
colspan
▁등장인물이다
.15
▁단군
▁머릿
▁버티
▁세울
▁최용
▁횡령
▁휴가
륜구동
버스의
습니까
▁0.2
▁공사는
▁동물로
▁빼앗아
▁사랑이
▁사무엘
▁소크라
▁영광을
▁태어났고
IF
노마
로트
바우
시미
올리
인수
▁NX
▁구가
▁군데
▁기권
▁자갈
▁케르
▁투니
▁현미
▁호른
▁혼잡
▁후이
조차도
타니아
▁고인돌
▁공기를
▁관해서
▁마포구
▁믿음을
▁부르봉
▁식물을
▁황태자
▁맥락에서
▁병원으로
▁브랜드로
▁정규리그
▁파시스트
EA
YP
▁럼
년차
부족
▁거문
▁르완
▁변혁
▁워낙
▁캐슬
주의로
▁건전한
▁곡들을
▁날이다
▁문학을
▁생기게
▁성우로
▁파괴된
▁폭력을
▁현대적
▁독일군이
▁스페인과
▁조정에서
▁근본적으로
▁마련하였다
▁멀티미디어
▁소프트웨어는
사토
und
▁3-
▁SR
▁바디
▁생을
▁서자
▁선우
▁시할
▁침례
▁힘에
▁리그가
▁명단의
▁사가미
▁사냥을
▁사실과
▁성경을
▁성분이
▁주민이
▁처리할
▁확장된
▁사회적인
▁영화감독
by
날을
ret
▁각주
▁국사
▁균일
▁만이
▁부안
▁산책
▁양수
▁자존
▁절약
도움을
▁계약에
▁권력이
▁높으며
▁문서에
▁올라와
▁페르미
▁다음날인
▁인터넷에
▁일치하는
▁제작하여
▁출전하는
플레이오프
,000,000
▁뜯
내면
민정
바에
박람
새가
소장
흐는
▁고로
▁서예
▁시성
▁아말
▁지브
▁진천
▁출국
▁침범
▁방법의
▁보상을
▁분자의
▁브라이
▁트레일
▁프리츠
▁핸드볼
▁관할하고
▁위반으로
▁인사들이
▁지지했다
▁포틀랜드
▁처형되었다
외의
▁끔찍
▁내게
▁당수
▁러시
▁스베
▁원에
▁중후
능력이
리아노
아시안
▁강이다
▁남편과
▁방식과
▁시대와
▁이하로
▁지휘자
▁플러스
▁오사카시
▁기업인이다
▁파키스탄의
쳤던
현동
▁별도
▁상설
▁유길
▁인계
▁잃어
▁절제
▁중건
▁포화
장치를
▁109
▁802
▁거짓말
▁공주시
▁느꼈다
▁보컬을
▁부진한
▁프랑코
▁경제학자
▁내에서의
▁바라보는
▁이야기에
▁지시했다
오스트레일리아
af
상어
색슨
▁서류
▁시중
▁영락
▁포에
들로는
억원의
우리가
쳤는데
▁메시에
▁바치는
▁시니어
▁지극히
▁진행할
▁행해진
▁헌법은
적이지만
▁그때까지
▁운영되는
▁배출하였다
▁차지했으며
▁벚
무대
여년
측이
▁as
▁가루
▁대입
▁물가
▁브릿
▁안기
▁카미
▁학회
실점을
토스는
form
▁부대로
▁부모님
▁산업을
▁세련된
▁식사를
▁앤더슨
▁인도양
▁찾았다
▁출판사
▁클로드
▁통합된
▁흔하게
▁Soul
▁상대방의
가정
라시
레로
례는
별한
샤는
이니
▁계량
▁구강
▁낡은
▁넬슨
▁도부
▁래리
▁염증
▁조동
카드를
lect
▁글리제
▁나뉘며
▁단행본
▁수도가
▁수백만
▁아내의
▁업무는
▁엔리케
▁있어도
▁지위는
▁취했다
▁타원형
▁기록한다
▁볼셰비키
▁볼티모어
▁시작했는데
▁놈
계사
마력
메랄
직과
▁IR
▁레스
▁백지
▁상자
▁새우
▁아츠
▁에일
▁장단
▁지선
▁판본
차례에
▁조용히
▁지명은
▁피해는
▁경기장을
▁다카하시
▁마감했다
▁민주당은
▁병사들은
▁보루시아
▁이마가와
▁캄페오나투
고트
카시
~30
▁규합
▁김보
▁물자
▁배타
▁봉헌
▁사민
▁오피
▁이한
▁일종
리아와
림에서
방송의
ames
▁라이더
▁판단을
▁미야기현
▁순위에서
▁올라갔다
▁음악으로
▁작곡했다
▁지칭한다
▁행동으로
▁히브리어
▁시카고에서
▁확장되었다
북부
▁Gl
▁글씨
▁넘지
▁변해
▁엿볼
▁인제
▁정문
▁차종
▁테살
마저도
백으로
ward
▁기관지
▁로널드
▁부친의
▁성향이
▁원년에
▁의심을
▁전사한
▁수행하기
▁public
▁둠
뛰기
협동
▁궁내
▁급수
▁목이
▁뷰티
▁애프
▁출자
▁펌프
약으로
컴퓨터
▁걸었다
▁디렉터
▁모형을
▁변화의
▁쇠고기
▁않기로
▁지식과
▁형식이
▁도쿠시마
▁선정했다
▁위원회가
▁폐지되고
▁아시아에서
▁타지키스탄
▁플로리다주
▁Christ
▁구역상으로는
05
거릿
국수
틀을
ors
▁루크
▁미미
▁부리
▁부실
▁시발
▁토로
ogle
▁결정된
▁외부에
▁동물이다
▁음식이다
▁자동차를
▁합병하여
BN
레트
_31
▁금천
▁볼드
▁이덕
정부에
플러스
▁북한에
▁분명한
▁분야로
▁선제후
▁위키백
▁증거로
▁침입을
▁화면에
선거관리
▁1789
▁살인사건
▁유틸리티
▁표현으로
▁Black
▁가로지르는
▁완료되었다
▁탭
펠트
▁et
▁경보
▁놓는
▁뜻에
▁알마
▁영적
▁주름
▁할로
도르의
베를린
▁경고를
▁논의를
▁마에다
▁정점을
▁초전도
▁남아있지
▁녹음했다
▁성격으로
▁평가하는
닌의
상속
암과
일반
호프
▁MM
▁가변
▁경원
▁명왕
▁미완
▁사에
▁예편
▁착각
▁황산
▁113
▁Not
▁광둥성
▁성당의
▁세포를
▁영등포구
▁유일하다
▁지도자가
▁철저하게
윤이
헤르
▁TS
▁국철
▁느슨
▁드나
▁바쿠
▁백화
▁샀다
▁수심
▁아람
▁외관
▁외척
▁이조
▁재가
▁진원
▁폭은
기구의
니우스
로서도
▁나무가
▁니카라
▁다행히
▁대전에
▁레코딩
▁로타르
▁메이커
▁차별을
▁폐지된
▁현이다
▁개최했다
▁규정되어
▁디자인의
▁레코드에
▁참가하게
▁표시하는
▁네트워크의
▁받아들이고
08
▁삐
립은
명씩
운송
질라
착륙
키지
타바
▁대방
▁오마
나이다
조선의
프레이
▁가했다
▁모습과
▁소련에
▁열렬한
▁운영에
▁일체의
▁작전이
▁패턴을
시장에서
▁관여하는
▁보관되어
▁사실이다
▁현재에도
▁개명하였다
▁Record
▁열대폭풍으로
mp
~9
겐의
대비
무지
▁겨냥
▁권의
▁귀가
▁방호
▁베티
▁부전
▁북반
▁신익
▁유족
▁태화
▁피니
구역은
나무가
지이며
▁결정한
▁단위는
▁돼지고
▁등에도
▁열렸고
▁영의정
▁위패를
▁함대의
적이었던
▁오른쪽에
▁이야기로
▁무엇보다도
▁인정하였다
07
연장
우체
져야
찬성
▁갑오
▁갔고
▁단면
▁사대
▁서클
▁우스
▁전범
▁즉흥
▁화염
세기와
평의회
해져서
▁되돌려
▁없는데
▁임금을
▁히타치
법에서는
자에게는
▁나미비아
▁악화되어
▁이리하여
▁합리적인
▁저널리스트
▁메소포타미아
막은
불가
상블
없다
익의
▁노골
▁원본
▁의인
▁재검
▁조너
▁주화
▁창덕
▁파문
구역에
▁2.4
▁고성군
▁과학과
▁사업가
▁신들의
▁여주인
▁자사의
▁황제에
▁1801
▁몰아내고
▁브라더스
▁이것으로
▁국내에서는
▁사임하였다
▁프로이센의
▁푸에르토리코
▁프롤레타리아
▁2012-13
▁덱
불상
상가
있을
토지
▁김학
▁남반
▁세무
▁앓고
▁초식
리아를
편성이
해준다
▁계급은
▁보면서
▁시상식
▁정류장
▁파이프
보병사단
아카데미
▁공급하는
▁기독교를
▁다루었다
▁받아들인
▁예상된다
▁합의했다
한지
헌의
▁뇌의
▁린다
▁어미
▁에리
▁이철
▁장녀
▁커넥
▁통킹
▁튜브
대대는
프랑크
▁공의회
▁끝내고
▁남편을
▁뉴기니
▁산업에
▁알아차
▁어둠의
▁엘리엇
▁원조를
▁위안부
▁이케다
▁정당인
▁노력으로
▁2,500
▁발매되었고
▁방문하였다
▁2018-19
BT
관념
뤘다
불은
스탕
▁군림
▁기온
▁단결
▁선대
▁성체
▁쥐고
▁틀어
▁홍천
공격을
임으로
트릭스
inal
▁강서구
▁멜로디
▁문학적
▁변형된
▁부족의
▁차량에
▁제도이다
▁주축으로
▁지명으로
▁레코드에서
,"
세인
완은
-29
▁박은
▁스펙
▁운명
▁윤곽
▁총영
있는데
프리드
▁기구를
▁소재를
▁아이작
▁하려는
교회에서
텔레비전
▁계획하고
▁그러면서
▁박물관에
▁이동했다
▁일으켰고
▁조선후기
▁판단하여
공무원으로
▁어디까지나
▁전문가들은
▁쐐
수호
▁가역
▁공상
▁슈고
▁위축
레이스
번호를
브고로
타점을
▁Com
▁브리스
▁아파치
▁요시쓰
▁카스트
▁특성에
▁드러난다
▁물론이고
▁아미노산
▁언어에서
▁주도이다
▁궁극적으로
▁소프트웨어의
▁2019-20
▁뭔
부정
애는
임시
정동
▁게놈
▁남기
▁뇌물
▁베를
▁적재
▁파파
▁협업
차대전
▁col
▁건강을
▁국회에
▁사정을
▁성격은
▁오류를
▁정책과
▁지대한
▁급속도로
▁나타내기
▁복음주의
▁한국어로
▁사용자들이
▁선거에서는
▁알고리즘을
TN
랭크
무에
보레
식스
운전
▁DR
▁El
▁변성
▁빈민
▁상금
▁완주
▁중상
왔다고
▁가정의
▁나누고
▁남북조
▁사실로
▁수행을
▁스폰서
▁역에는
▁판소리
▁평평한
▁구장으로
▁기타큐슈
▁분야이다
▁상업적인
▁우리에게
▁제공되는
▁확보하기
▁발족하였으며
/2
▁퀄
소니
천동
패드
aut
▁가창
▁골로
▁구루
▁레퍼
▁리비
▁문이
▁방을
▁부왕
▁성수
▁속성
▁심상
▁추이
▁친히
크로스
티스트
▁개최국
▁순서를
▁조르주
▁주소를
▁행위로
▁화면을
▁결승전은
▁않으면서
▁오스트로
▁저서로는
▁풀려났다
▁지적하였다
▁페르디난트
▁부에노스아이
상수
▁HP
▁격침
▁빚을
▁수지
세계의
운드는
▁같지만
▁독일계
▁동위원
▁앞바다
▁유럽을
▁촌이다
▁타자로
▁판매량
▁폭넓게
▁NATO
▁구간에서
▁부정하는
▁정치경제
▁태풍으로
소련
짓는
▁경산
▁나탈
▁내기
▁내성
▁노론
▁엠블
▁장신
▁중남
▁콘셉
▁App
▁가담한
▁느리게
▁대립을
▁방문객
▁부처의
▁유적이
▁장소는
▁홈페이
▁강조하고
▁그라운드
▁박테리아
▁발생하지
▁북대서양
▁참여한다
▁감독이었던
▁개시하였다
▁사망하였고
▁필요하다는
NE
▁밧
남을
분투
▁고온
▁반동
▁배기
▁소라
▁운하
▁파랑
센터를
지역은
ello
▁123
▁518
▁갖가지
▁그들과
▁긍정적
▁드러난
▁문학과
▁발전의
▁전조선
▁개최하는
▁의존하는
▁브로드웨이
▁조선시대에
▁탈락하였다
▁헝
용에
▁비의
▁천명
▁카터
▁칼륨
▁해지
야에서
▁Par
▁공군은
▁공항을
▁과정과
▁남자와
▁대결을
▁대우를
▁명성이
▁목사가
▁발전된
▁의병을
▁일정을
▁일종인
츠부르크
▁강원도의
▁대체하기
▁시작하게
▁박물관이다
▁출판하였다
▁2006-07
대행
술에
약에
쿠사
필의
▁가니
▁무쓰
▁부제
▁섞인
▁시제
▁천마
▁테일
곡이다
▁구역을
▁동물이
▁실리콘
▁아리스
▁안동시
▁역사학
▁위협이
▁자라고
▁팀들은
▁하드웨
▁확대를
었습니다
▁John
▁This
▁개찰구는
▁내에서도
▁발표한다
▁스타일로
▁귀국하였다
▁문서에서는
▁지도자이다
▁히데요시의
▁벙
선도
new
▁굳이
▁맞닿
▁멜라
▁반납
▁어둡
▁주둥
▁춘계
▁트러
▁표는
작업을
▁550
▁Spe
▁가혹한
▁도치기
▁부진을
▁선전포
▁시그마
▁시도한
▁아내는
▁올라갈
▁유효한
▁개편으로
▁고속버스
▁암스트롱
▁정규시즌
▁지휘했다
▁하원의원
▁뫼
귀를
치카
▁결렬
▁구비
▁니케
▁던진
▁라미
▁로리
▁아루
▁약을
▁유이
▁장은
▁진리
▁처방
▁처해
▁후로
나이트
든버러
순으로
일간의
▁1.6
▁625
▁디에고
▁마거릿
▁막시밀
▁부천시
▁비밀을
▁속하지
▁일제히
▁전선에
▁정했다
▁주세페
▁트럼펫
▁행하여
▁시즌으로
▁중시하는
▁가장자리에
▁사령관으로
▁인물이었다
za
쓰카
표에
_30
ero
▁도끼
▁도자
▁독성
▁명중
▁몰타
▁벗겨
▁스톰
▁케인
▁한꺼
기구는
버리고
사단이
▁750
▁로마는
▁록히드
▁물질로
▁민족이
▁지식이
▁가입했다
▁노력하고
▁동점골을
▁중단하고
▁취급하는
▁네덜란드는
▁받아들여지지
나치
심판
일라
자산
CoA
▁기이
▁낙엽
▁늙은
▁매듭
▁순종
▁에픽
▁진언
▁초원
▁헌터
국가의
부대는
▁25%
▁교수와
▁글씨를
▁긴밀한
▁발가락
▁비틀즈
▁생산에
▁세계관
▁셀주크
▁양국의
▁잡지에
▁조선이
▁취득한
▁토요타
▁편의를
▁공화국에
▁구분하는
▁주민들을
▁혁신적인
▁출생하였으며
ex
▁샴
능을
덕이
랄라
▁Gu
▁빌드
▁있음
▁죄로
▁창을
▁총통
모토는
제에게
화되는
▁막강한
▁방침을
▁부문의
▁신도비
▁유치원
▁일었다
ology
▁거주하던
▁그대로의
▁상징적인
▁싸움에서
▁일어났고
▁평가되고
▁한꺼번에
▁항공우주
▁쑹
혼의
환과
eng
enn
vel
▁동두
▁듣게
▁벨트
▁원료
▁행한
퍼센트
회사의
▁당시는
▁법칙은
▁보도가
▁안데스
▁안쪽에
▁연구원
▁왕자의
▁우에노
ature
▁Best
▁골키퍼로
▁관료이다
▁내각에서
▁추가하여
▁Super
엔젤
▁골라
▁도우
▁등단
▁상한
▁셀틱
▁숙주
▁질투
▁총애
코스는
ange
▁거치며
▁계급의
▁내몽골
▁설정을
▁장착된
▁제작이
▁과정으로
▁들어가서
▁발달하여
▁주도하는
▁중심부에
▁퍼포먼스
▁개봉하였다
▁이탈리아에
▁켜
끄럽
돼지
모습
아사
조류
히사
▁7.
▁모잠
▁성추
▁절을
▁티저
▁2.2
▁개념과
▁고개를
▁고려할
▁나라로
▁눈으로
▁대회와
▁동원해
▁문서의
▁철수를
▁회의가
▁건국훈장
▁국립중앙
▁멤버들은
▁민주공화
▁움직이지
▁종사하는
공업고등학교
03
공로
데냐
호흡
ina
▁그늘
▁대주
▁선에
▁추후
▁통로
교육의
노비치
▁개찰구
▁라그랑
▁연대기
▁의도를
▁입장이
▁지포스
▁처음엔
▁하얀색
▁함부로
▁합하여
▁불리었다
▁소개하는
▁원내대표
▁지원하지
▁전사하였다
▁뿜
한정
▁겐지
▁끼워
▁나스
▁단점
▁방한
▁법제
▁신구
▁애버
▁창고
▁티모
▁펜타
▁포를
▁하버
▁함자
열차가
학교가
▁나눈다
▁더하여
▁돌아올
▁코스트
▁1815
▁리하르트
▁만족하는
▁묘사된다
▁수준이다
▁아테네의
▁일부로서
▁임명되고
▁엘리베이터
▁량
곡에
궁이
방면
버려
엄을
ode
▁VS
▁동거
▁매튜
▁미적
▁박태
▁베컴
▁사산
▁아자
▁차차
▁클럭
▁타도
부아르
졌다고
조약을
코스트
▁갈색을
▁기본적
▁던지는
▁드물다
▁마시는
▁바이트
▁배경은
▁에치고
▁측면에
▁화장실
개월만에
▁구성하여
▁기다리고
▁내각총리
▁제한하는
▁지방에서는
▁랍
▁뤄
▁핏
망과
슐리
캥거
현상
_28
▁밀러
▁우니
▁첫날
▁호화
아파트
▁가끔씩
▁대륙에
▁시각을
▁우려를
▁의무가
▁인정할
▁흔적을
▁곳곳에서
▁귀족들은
▁득표율을
▁베르사유
▁강등되었다
▁나폴레옹의
▁시행되었다
라다
반트
설로
시도
참한
ART
ley
▁단발
▁당은
▁빅터
▁요셉
▁윤원
▁임실
▁카오
▁커져
히어로
▁MIT
▁동일시
▁변화와
▁분노한
▁오른다
▁오우치
▁이즈미
▁적절히
적이거나
▁강조한다
▁북쪽에서
▁상징한다
▁자메이카
▁해전에서
▁각본가이다
▁주장하면서
▁활동하기도
UI
▁ar
▁가평
▁겸직
▁뒤따
▁생포
▁연천
▁오인
▁총격
▁코이
▁함을
리어스
▁des
▁거리로
▁닛폰햄
▁미트라
▁인스타
시키거나
▁경쟁에서
▁들어갔고
▁무렵에는
▁생활하는
▁얻었으며
▁엘리자베
▁전국적인
▁제공하며
▁민사소송법
▁아르바이트
견은
례의
볼을
진화
창원
-05
▁my
▁김장
▁위태
득점을
▁Per
▁그룹인
▁민영화
▁반감을
▁베이커
▁본래는
▁절반을
▁출판한
▁펠로폰
시키기도
▁게오르기
▁나왔으며
▁마을버스
▁부임했다
▁안드레이
▁준결승전
▁확보하고
▁자연적으로
날드
서리
오기
▁DB
▁EA
▁가락
▁같고
▁바를
▁올랭
▁줄이
▁피쳐
▁헤더
부대의
사회에
세포가
▁COV
▁Win
▁기체의
▁내지는
▁멤버는
▁무게가
▁베테랑
▁부대에
▁비추어
▁야행성
▁양자가
▁연안의
▁오토모
▁울트라
▁지명이
▁헌법이
▁화성시
▁활용할
▁가족들은
▁병사들을
▁사정으로
▁수준에서
▁지장보살
▁참여하게
▁몬테네그로
▁콜롬비아의
▁이루어졌으며
),
무용
옥의
즐리
킨슨
▁국산
▁넘은
▁동산
▁비긴
▁비석
▁장경
▁지에
▁최전
▁치아
개에서
왔는데
플레잉
▁객관적
▁구조물
▁독일로
▁로이드
▁원숭이
▁클라리
▁합병해
▁로베르트
▁보건복지
▁선호하는
▁승강장에
▁신속하게
▁외부에서
▁해석하는
▁가능하도록
▁결성하였다
▁참여하였고
▁프톨레마이오
▁}
장교
_29
▁NL
▁국문
▁서신
▁슬퍼
▁위배
▁탄약
루수로
▁개구리
▁까닭에
▁대책을
▁설치류
▁쌍방울
▁안티고
▁용기를
▁원했다
▁윤리적
▁의견도
▁주기도
▁출구는
▁크라우
더레이션
시내버스
시키려고
▁관계에서
▁북서부에
▁살해하고
▁성공하여
▁지원하며
1.
NS
가나
그란
이동
절과
지다
테로
필은
한데
▁김석
▁마디
▁마흐
▁아약
▁에뮬
▁유독
▁참된
▁통찰
▁학업
끼리의
▁내각은
▁모조리
▁발발한
▁법원에
▁사회와
▁섬세한
▁유격수
▁중심핵
▁호모토
▁리얼리티
▁미사일은
▁속에서도
▁않겠다고
▁없습니다
▁국제공항이
▁가결
▁격상
▁과제
▁구도
▁때로
▁벨로
▁키에
▁테니
고양이
그룹은
사업에
시아의
ring
▁0-1
▁같으며
▁공작이
▁나오며
▁도망쳐
▁미요시
▁밝히는
▁세키가
▁연기자
▁예비역
▁요리를
▁작가인
▁징계를
▁패배로
▁학업을
▁혁명에
▁기하학적
▁들어섰다
▁세바스티
▁알베르트
▁인간에게
되었습니다
▁동아프리카
▁익스플로러
사슴
여름
첩을
▁니키
▁도나
▁루프
▁방울
▁양심
▁인질
관계의
챔피언
▁고립된
▁깨끗한
▁나오기
▁당신의
▁매니지
▁반대의
▁사용에
▁시설은
▁인스턴
▁중세의
▁트랜싯
▁1820
▁감옥에서
▁갑작스런
▁공격수로
▁대응하기
▁출전했고
▁단종되었다
▁베스트셀러
▁온타리오주
▁언더그라운드
가리
곳의
들러
레에
터너
평면
▁국세
▁데다
▁명과
▁목동
▁섬세
▁손수
▁원유
▁전류
▁출사
▁트램
▁휘두
과에서
ater
▁hPa
▁꼭짓점
▁나열한
▁내각을
▁라쿠텐
▁아이는
▁있지는
▁조카인
▁토마토
▁트란스
▁합쳐져
▁형태에
들에서는
▁1858
▁결국에는
▁나가시마
▁데이터는
▁선택하는
▁참여했고
대항
만장
손을
시고
악기
지법
▁가령
▁경마
▁듀엣
▁부피
▁일한
▁체력
▁친화
평론가
▁공작은
▁입단한
▁중에도
▁한때는
▁효력이
시킨다는
▁방문하는
▁제시하고
▁출생으로
▁한가운데
▁형성하였다
▁팟
무와
지명
총을
필로
OVE
▁단조
▁매복
▁사미
▁알비
▁유미
▁좋게
▁증오
▁철원
▁추밀
▁효종
▁흉내
단체가
되기에
버리는
본부는
빌에서
제도는
▁멸망한
▁번호가
▁법칙에
▁볼프강
▁손자인
▁실험은
▁앙상블
▁어려울
▁영등포
▁정신의
▁조조의
▁튀니지
▁파라과
▁경기이다
▁묘사되어
▁엄청나게
▁에든버러
▁출전하였고
▁인천국제공항
기스
신저
자격
장도
책의
쿠젠
▁OK
▁로만
▁시찰
▁옵티
▁유다
▁잇따
▁자부
▁정령
▁청각
▁투병
▁페인
민들은
▁911
▁Way
▁공격형
▁대비해
▁상품의
▁승객이
▁원자의
▁전차는
▁하늘에
▁나들목은
▁사이트를
▁임명하여
▁있었음을
▁통과한다
DD
레미
렸기
학위
rop
▁Kn
▁PA
▁곳도
▁기욤
▁면에
▁발췌
▁소사
▁수군
▁유재
▁주선
나라로
홈런을
화한다
▁MLB
▁개막전
▁군주의
▁도나우
▁도자기
▁오르고
▁올라온
▁좌우에
▁확인한
▁회담을
▁방송하는
▁사운드를
▁주장하여
▁준비하고
▁중반까지
▁진출하게
▁마이크로프로세
공군
동부
사당
창작
ING
alk
▁낳고
▁시아
▁오호
▁증축
▁크지
이즈미
▁건설한
▁글씨는
▁기자로
▁민중의
▁바실리
▁어드밴
▁지시에
▁함경도
▁항공은
위너스컵
▁도시이며
▁레코드와
▁브라운은
▁소속사는
▁인정된다
▁만들어내는
▁보고하였다
▁열대저기압
▁쏠
폭격
▁PH
▁공은
▁대정
▁무비
▁버그
▁보트
▁복위
▁상층
▁쌍용
▁외면
▁장시
▁직관
▁초계
▁패퇴
▁폭포
교회를
자료를
▁갤러리
▁못하며
▁보았을
▁장난감
▁제기한
▁테마로
▁트로트
▁갈릴레오
▁맞배지붕
▁받아들일
▁북동부에
▁가운데에는
▁성립되었다
▁한양대학교
바꿈
빛을
쓰기
즘의
총은
하트
ins
▁건네
▁견훤
▁불쾌
▁접목
▁좌천
▁창씨
▁틈타
▁퍼플
▁확충
스타운
행위에
▁GPS
▁고종은
▁내야수
▁되었기
▁받았을
▁수비형
▁초자연
▁함대가
▁귀족들의
▁근무하는
▁방정식의
▁보고서에
▁에두아르
▁월드컵을
▁일조했다
▁제도에서
▁표시된다
▁형성된다
09
견의
데오
독재
생생
엘리
외로
웰은
ery
▁문양
▁생모
▁소원
▁용기
▁이안
▁표적
▁하강
예수교
재판소
▁가문과
▁기계를
▁노트북
▁논리적
▁답했다
▁모델에
▁박람회
▁부모를
▁서명을
▁신선한
▁인도와
센티미터
▁형성되는
▁금지되었다
▁세계대전이
▁정부에서는
▁여러해살이풀
▁사우스캐롤라이나
▁엎
근대
수면
애의
탑이
테아
yle
▁과실
▁귀순
▁귀여
▁다짐
▁대적
▁더한
▁도화
▁메일
▁서천
▁특혜
▁환산
들이나
란으로
만명을
시스의
킨스는
▁Tra
▁con
▁발달해
▁사소한
▁위치와
▁은행의
▁작전의
▁카스텔
▁표준을
▁2500
▁금지하고
▁연구개발
▁요구되는
▁종합격투
▁진출하는
▁피라미드
▁스페인에서
▁해트트릭을
LC
골에
매는
염은
예는
전지
테라
프셔
▁기분
▁마구
▁병마
▁소중
▁스완
▁에그
▁잡기
▁포섭
감염증
들였다
문과에
불좌상
일보는
▁[20
▁기업을
▁내려온
▁떠났고
▁무너져
▁박사의
▁봉기를
▁성폭행
▁재빨리
▁전투와
▁증명할
▁참가국
▁함수가
▁향상된
▁마음대로
▁해외에서
▁노부나가의
▁연기되었다
▁활동하였고
▁진행되었으며
▁녀
가치
남북
도구
버를
왕전
쥐속
키오
혼을
▁sh
▁감축
▁견고
▁곡에
▁농작
▁도라
▁밤의
▁출격
▁캔터
▁코나
▁코넬
연대를
▁나가지
▁내었다
▁많아서
▁맡겼다
▁아세틸
▁앙골라
▁열차로
▁자원이
▁정치와
▁중상을
▁표준화
▁프로방
▁공유하고
▁나타나기
▁만화이다
▁사용해서
▁삼각형의
▁슈퍼리그
▁바이러스의
▁수학하였다
▁예정이었지만
06
극은
노라
든은
봉과
윤을
컴퍼
▁딸은
▁마틸
▁많기
▁모세
▁믹스
▁장차
▁카세
▁함안
▁형편
▁후견
레스테
부원군
토스의
here
▁2-2
▁LCK
▁가디언
▁다이라
▁불상의
▁적용한
▁전한의
▁조종사
▁치르고
교육지원
▁1814
▁7000
▁롤플레잉
▁바뀌었고
▁승부차기
▁승진하여
▁출연하며
▁내셔널리그
▁발행되었다
▁홈구장으로
멸의
병마
지라
호아
▁Of
▁밀고
▁발광
▁블러
▁소프
▁탐정
받기도
였기에
효과를
▁개혁의
▁국왕은
▁논쟁의
▁부름을
▁사각형
▁생제르
▁시멘트
▁신부는
▁질병의
▁결과이다
▁열린우리
▁요소이다
▁이전했다
▁중앙집권
▁이탈리아어
▁캔자스시티
▁슈투트가르트
녀와
리터
▁도하
▁딸의
▁아핀
▁유계
▁증강
▁흡입
▁히토
스타인
ough
▁127
▁과이다
▁기념비
▁성우극
▁순양함
▁원작의
▁전년도
▁통신을
▁대체하는
▁크리스탈
▁헬리콥터
계통
눈에
링거
무트
섬과
절제
펠러
훈과
ans
▁Vf
▁네브
▁서리
▁이효
▁재조
공사를
분에서
스타는
▁2.3
▁걸그룹
▁결정적
▁그림의
▁무차별
▁수상을
▁장애가
▁종들은
▁출발한
▁행정동
▁Cent
▁공연에서
▁매킨토시
▁접근하는
▁지지하고
▁판매되고
▁평양에서
▁하늘에서
애니메이션
▁만들어냈다
고르
글루
중량
춘추
()"
▁광시
▁금은
▁몸통
▁비핵
▁소시
▁애매
▁역동
▁오차
▁육박
▁타라
▁하단
기에도
위원에
▁공기가
▁기구의
▁남양주
▁송파구
▁에이지
▁옮기는
▁지나고
▁친위대
▁학교로
▁1795
▁원칙으로
강원
관한
대기
사노
술과
여야
처에
▁강타
▁고갈
▁소탕
▁슈테
▁어쨌
▁으뜸
▁인노
▁천태
▁후미
영에서
판에는
▁747
▁TBC
▁가슴에
▁나와서
▁레스터
▁만들며
▁바로잡
▁스텔스
▁에히메
▁일대는
▁자리가
▁주변은
▁초고층
▁파트리
▁대학교가
▁사용되기
▁유벤투스
▁일어나게
▁자동변속
▁적용되어
▁고가역이다
▁미스코리아
▁살해당했다
▁이탈리아로
▁주기적으로
검을
극이
바트
살라
화해
▁WC
▁모건
▁무주
▁발상
▁임베
▁적자
▁조우
▁중고
▁피가
▁WHO
▁개혁에
▁기네스
▁모형은
▁애플의
▁유일의
▁잘못을
▁참전한
▁데포르티
▁동성결혼
▁세계보건
▁세상에서
▁연결하여
▁유전자의
▁자유민주
▁장착되어
▁체제에서
▁총사령관
▁잼
동기
바니
이은
중간
▁간을
▁관음
▁다채
▁안다
▁안심
▁워커
▁이등
▁퍼스
▁흥분
차에서
▁가치는
▁고종이
▁모델과
▁모델인
▁부회장
▁아종이
▁제품에
▁합쳐서
▁현상에
▁기술적인
▁보였으나
▁아틀레틱
▁이글스의
▁일자리를
▁조선에서
▁통과시켰다
가서
년인
빈과
예산
지향
포칼
▁개축
▁김세
▁런칭
▁레나
▁몬태
▁산마
▁수마
▁씨족
▁아픔
▁참사
▁찾은
▁화북
▁환관
스타의
인들에
▁두었고
▁알리기
▁액세스
▁양국은
▁없다면
▁찾는다
▁협상이
▁명예훼손
▁탑재하고
▁프레더릭
▁항공기의
▁도착하였다
▁아우구스트
04
고문
화산
▁SG
▁관내
▁묘비
▁섹션
▁어쩌
▁은평
▁해는
기간이
▁나카노
▁대사가
▁선에서
▁자식을
▁제안된
▁지진은
▁채택한
▁코소보
▁혁명적
▁당시부터
▁마쓰모토
▁파악하고
▁라이베리아
▁이탈리아와
▁조선왕조실록
▁킵
두스
업자
원장
즈미
틴의
회말
▁KD
▁괴뢰
▁깃발
▁남궁
▁월북
▁잠을
▁청사
▁하세
▁하층
▁현이
효소는
▁건물과
▁군주가
▁달리고
▁당한다
▁떠나고
▁부지에
▁사냥꾼
▁승객을
▁의사의
▁증상은
▁지상에
▁카드의
▁학문에
▁휴식을
▁히말라
▁구분하여
▁문제들을
▁물리적인
▁시작하며
▁발표하였고
▁상호작용을
▁오래전부터
▁프로젝트가
출산
▁CA
▁경합
▁국화
▁루즈
▁백자
▁상동
▁진안
▁차장
▁큐브
▁크래
시험을
판이다
▁귀족의
▁배우가
▁손쉽게
▁페이퍼
▁포격을
▁대륙에서
▁동생이다
▁사망하여
▁뺏
엽은
▁걸맞
▁내면
▁취직
▁하산
▁그랜트
▁동티모
▁반영한
▁서해안
▁수명이
▁오류가
▁전술을
▁제정한
▁출력을
▁타율을
▁해군에
▁대항하기
▁발원하여
▁스케이트
▁여성들은
▁편입되어
▁베트남에서
▁살해되었다
▁소멸하였다
공공
교환
org
vis
▁se
▁동급
▁버크
▁법과
▁변한
▁선명
▁열람
▁우디
▁잔인
요시의
쿠스틱
▁121
▁가사가
▁강사로
▁건축의
▁군사정
▁사도세
▁시대적
▁어디에
▁이브라
▁저조한
▁학문의
▁현실에
경찰서는
방송에서
▁남양주시
▁상응하는
▁임명하고
▁정상회담
▁주인공의
▁차지하여
▁COVID
유기
지수
췄다
▁교대
▁부자
▁어딘
▁업계
▁컨페
▁탈북
▁후백
대학에
절도사
▁Mon
▁갑신정
▁갖추어
▁것에는
▁결국은
▁넘는다
▁단체에
▁로마자
▁유스티
▁정치학
▁테이프
▁필요는
학자들이
▁1793
▁갈릴레이
▁동영상을
▁사임했다
▁줄무늬가
▁즉위했다
▁형사소송
고등학교와
▁실시간으로
▁이용되었다
남면
사냥
산읍
101
▁RA
▁굶주
▁배재
▁벤피
▁브롱
▁산체
▁스커
▁죄수
▁캡틴
니아는
법연화
삼거리
투쟁을
▁144
▁거부한
▁교과서
▁기업에
▁목적의
▁못하자
▁뽑혔다
▁암컷이
▁외교적
▁회의는
▁Kore
▁완전하게
▁만장일치로
▁사이트에서
▁System
▁렘
제나
포인
▁국부
▁기독
▁니콘
▁리본
▁용문
▁조엘
▁카보
▁키우
▁킹스
년형을
▁불상은
▁순위는
▁플라톤
▁name
▁문하에서
▁알렉세이
▁이동한다
▁쿠데타로
▁판매고를
▁공통적으로
▁선발되었다
▁플레이오프를
HT
메틸
언의
찬의
퍼런
▁극중
▁동호
▁발터
▁안재
▁지뢰
▁하얼
▁함정
경찰청
기부터
생물학
플라스
▁TOP
▁무정부
▁시키는
▁아르테
▁연합을
▁지난다
▁파주시
▁것으로도
▁공헌했다
▁나가노현
▁대다수가
▁변경되어
▁오르기도
▁유럽으로
▁호텔에서
▁자유민주당
▁할아버지는
▁Google
▁중앙아프리카
근무
금에
버터
보유
신당
양식
평등
하드
anc
▁고노
▁광대
▁귀를
▁대뇌
▁등기
▁보어
▁송광
▁에코
필드는
회의가
▁APG
▁견해도
▁경계가
▁대수의
▁무지개
▁배우기
▁번갈아
▁살다가
▁트로피
▁패트리
▁확정된
▁거절하고
▁비디오를
▁자리잡은
종합운동장
▁공화국에서
▁세키가하라
▁이르러서는
▁프랑스군의
▁키르기스스탄
룡이
유리
칙을
ott
▁주상
▁푸스
▁하려
사항을
atch
▁1.8
▁마련한
▁무엇인
▁사항은
▁압력이
▁압박을
▁자신에
▁제시카
▁집안은
▁체결한
▁클럽이
▁돌아간다
▁변호사로
▁석가모니
▁에어버스
▁이어갔다
▁통합진보
간과
블린
시트
야르
자다
호크
▁끓는
▁딜런
▁유화
▁일당
▁있겠
▁장택
▁짧아
▁천하
▁추력
러스는
백화점
설에는
하마드
▁발전해
▁양식이
▁이유에
▁장교로
▁조직한
▁중학생
▁출토된
▁히로부
자이기도
▁그리스와
▁남서부에
▁영국군의
▁일상생활
▁에스페란토
▁후쿠시마현
돈을
레프
좋은
▁DM
▁괴멸
▁몰리
▁알프
▁엔젤
▁출항
▁탤런
손으로
시스는
티스는
▁까마귀
▁디나모
▁모서리
▁산에서
▁수학과
▁한국계
스트리트
▁가나자와
▁사회복지
▁이로부터
▁조선중앙
▁채택했다
▁필요했다
▁한국으로
▁시상식이다
▁이전까지는
루브
보게
블랙
세나
For
▁규장
▁극작
▁근교
▁끝은
▁사피
▁스즈
▁유서
▁취미
▁측량
▁퀘이
▁푸에
기간을
정책에
하고도
▁Res
▁달랐다
▁당했고
▁돗토리
▁발표를
▁알칼리
▁자본의
▁정보에
▁지형을
▁포스코
▁후대의
리우스의
▁1846
▁끌어들이
▁조직하고
▁피해자의
▁형식이다
▁노동자들의
▁부여받았다
▁이듬해에는
▁출전하면서
▁시리즈에서는
▁2013-14
▁콥
각류
높은
생태
성면
킨의
히기
▁감성
▁고승
▁덮개
▁디바
▁띄게
▁세그
▁승을
▁여긴
▁호지
루스가
운동과
티넨털
티우스
▁공작을
▁꾸준한
▁상대성
▁설치해
▁수록한
▁이주해
▁자연을
▁자체로
▁천도교
▁1839
▁다스렸다
▁소련군의
▁와이번스
▁파견했다
▁사회민주당
'.
서면
시온
쓰키
으론
▁불문
▁비키
▁스맥
▁지체
▁짧다
▁총살
▁파피
▁호평
▁흡연
해에서
2000
▁5.5
▁개편에
▁고려해
▁국적의
▁그림자
▁남편인
▁늘어난
▁동료인
▁방면의
▁부진에
▁액티브
▁언덕에
▁총선을
▁한하여
▁힘들어
▁1300
▁개인정보
▁월드컵과
▁일시적인
▁지원으로
▁참전했다
▁패배하였다
▁임명되었으나
시니
중독
chn
▁KS
▁NA
▁강호
▁극소
▁메틸
▁사흘
▁유상
▁자르
▁탈피
▁퍼센
▁형은
보스토
정주어
▁기능의
▁막았다
▁분석한
▁시조로
▁예문관
▁접근이
▁정유재
▁주권을
▁1854
▁유지되고
▁인근에서
▁출연하는
▁프랑스군
▁한국영화
▁애니메이션을
▁코트디부아르
메오
목사
퍼가
▁간파
▁담임
▁무색
▁민선
▁우문
▁인피
▁초점
▁퀴즈
계이다
기간은
됐다고
카드의
했는지
▁기후를
▁동명이
▁동시대
▁사장을
▁에스타
▁오늘의
▁컨벤션
▁상파울루
▁적용하는
▁진행되며
▁초반부터
▁표현되어
▁어촌정주어
▁매사추세츠주
tr
▁켐
유공
자라
_32
oup
▁골은
▁로코
▁벤치
▁제지
▁증원
▁짝짓
▁콜론
▁한복
▁후회
받으며
rans
▁FBI
▁Mag
▁규정은
▁끝에서
▁로마가
▁모두의
▁못하면
▁보도를
▁손바닥
▁오슬로
▁조너선
▁태양광
▁평가는
메니스탄
▁1400
▁국민의당
▁시즌까지
▁이어받아
▁특징적인
▁필하모닉
▁현상으로
급에
말이
철을
▁가파
▁기공
▁깜짝
▁독주
▁마른
▁만년
▁매춘
▁바덴
▁부는
▁소아
▁수렵
▁스턴
▁오도
▁의자
▁정여
▁툴루
▁현에
부분을
절에서
▁기리고
▁땅으로
▁모시는
▁상으로
▁순위가
▁스나이
▁시위에
▁싸움이
▁아니기
▁태평천
▁퍼졌다
▁기초하여
▁불과했다
▁불렸으며
▁서아시아
▁재직하던
▁정당으로
▁그리스어로
WS
▁윔
래는
빛이
▁것들
▁댄서
▁든다
▁미생
▁열도
▁정은
코프는
▁USA
▁거머쥐
▁기관에
▁법으로
▁본사가
▁부당한
▁삼는다
▁안산시
▁어깨에
▁옮기고
▁전에서
▁Back
▁알렉산드
▁정해졌다
▁총선부터
▁임진왜란이
답을
빌의
암리
징어
편과
협상
▁강사
▁권투
▁글은
▁날의
▁매번
▁영위
▁예속
▁의왕
▁천주
▁칸타
▁태워
▁하스
단계로
마리아
이였다
▁부지를
▁성분을
▁위협에
▁전차의
▁절대로
▁지니는
▁클럽을
▁표면을
▁혼란이
인으로서
▁곳에서는
▁공화국과
▁버전이다
▁보통이다
▁시작해서
▁유지한다
▁이론으로
▁캐릭터는
▁등재되었다
▁앳
볼트
찬이
▁거병
▁남용
▁노던
▁박준
▁비욘
▁양정
▁오코
▁옷주
▁채플
▁친위
▁카잔
씨이다
편에서
▁대륙간
▁범위의
▁상대방
▁생애와
▁통과할
▁트랜지
▁프로에
▁해안의
▁두번째로
▁맞이했다
▁불필요한
▁수학에서
▁확인하는
▁히틀러가
▁발전시켰다
해결
▁두껍
▁로라
▁스칼
▁시체
▁썼고
▁예의
▁최북
▁팔로
▁한참
들랜드
철도가
▁상대의
▁색으로
▁예선은
▁유엔의
▁인재를
▁잇따라
▁통일된
소송법제
▁극적으로
▁김일성의
▁변경하여
▁시리아의
▁여론조사
▁다이묘이다
HS
곳에
루프
오염
표현
ude
▁가선
▁개표
▁구세
▁박승
▁숭실
▁스터
▁신군
▁좁아
▁캐럴
▁피스
▁규칙에
▁내부는
▁누군가
▁사과를
▁설명이
▁수명은
▁없거나
▁외교부
▁정신이
▁집어넣
▁표현된
▁나타나게
▁남우주연
▁라스베이
▁리바운드
▁펠로폰네
▁법조인이다
▁타이거즈의
▁파견하였다
▁네이션스리그
▁아랍에미리트
▁조선시대에는
공포
안정
▁광서
▁궁수
▁물품
▁설화
▁스택
▁옹정
▁정일
당하게
센터가
훈장을
▁고려사
▁무작위
▁밤에는
▁불과한
▁수치를
▁식물이
▁일하던
▁재활용
▁코드의
▁하나도
▁협정에
▁MPEG
▁가능했다
▁모니터링
▁배치하고
▁패배하고
▁개칭하였다
▁브랜드이다
▁인스타그램
ux
▁짠
년작
덕왕
영양
퍼의
혈을
III
▁고모
▁기질
▁단호
▁무겁
▁섰다
▁순찰
▁에로
▁예천
▁오즈
▁이우
▁잡힌
▁합산
메네스
있다는
▁게이초
▁공통된
▁기록도
▁모나코
▁무장한
▁보나파
▁실험실
▁여긴다
▁유산을
▁자릿수
▁찾아온
▁특성은
▁프레슬
▁형성에
▁흐름에
▁1851
▁나타내며
▁대응하여
▁들어가지
▁떨어지고
▁말하기도
▁판단된다
▁학문이다
▁프로그램과
▁펜실베이니아주
▁훅
리츠
본다
줄을
파트
편집
iet
▁Tw
▁까다
▁단사
▁방안
▁와해
▁자수
지대에
▁동맹의
▁마련해
▁부인과
▁선조는
▁쓰여져
▁압하지
▁예부터
▁우리를
▁원리는
▁장군을
▁프로페
▁해석할
▁환경과
▁활동할
▁1849
▁다이아몬
▁보고서는
▁생제르맹
▁승강장과
드라마이다
엔터테인먼
▁제기하였다
▁촘
됨과
두와
멜로
상품
예방
잠수
▁금요
▁금전
▁다쿠
▁랜덤
▁망가
▁모션
▁바투
▁브람
▁술에
▁싶지
▁잉카
▁하구
식품부
이닝을
▁가환환
▁기지로
▁남조선
▁무릎을
▁부인인
▁신경을
▁영화상
▁이들에
▁주기를
▁환자를
▁1857
▁것으로는
▁발생하자
▁북부에서
▁사라진다
▁아우르는
▁요코스카
▁사용되었고
▁엔터테인먼트의
열로
위권
율에
퍼를
▁Fr
▁결탁
▁내로
▁따랐
▁삭감
▁샤르
▁외과
▁외형
▁중점
▁파출
▁팔려
부대로
첸시오
▁교토부
▁남자를
▁범위에
▁오르지
▁이므로
▁인질로
▁진지를
▁콘라트
▁쿠바의
▁프라임
▁만들어서
▁생산된다
▁선거이다
▁열렸으며
▁지향하는
▁추가되어
▁바이러스가
▁사용자에게
▁참여하였으며
계수
밖의
불로
상담
악산
저널
▁ES
▁경위
▁급기
▁방에
▁쓰쿠
▁요아
▁우쓰
▁착안
▁책정
▁코덱
▁헬로
나가와
방송은
시오날
▁논문은
▁모여서
▁모으고
▁밴드에
▁보니파
▁불렀고
▁비판적
▁상세히
▁인연을
▁조치가
▁하카타
▁대선에서
▁들어있는
▁발표했고
▁아비달마
▁운행된다
▁지배적인
▁트리니다
3.
▁벳
넷은
리치
웍스
의료
향에
형식
▁DA
▁거스
▁도난
▁박수
▁베일
▁오면
▁윤석
▁작게
▁캐피
▁탑의
▁폐차
▁힘과
-100
▁Hot
▁묘지에
▁물었다
▁발사할
▁분포를
▁사이는
▁알았다
▁임의로
▁제퍼슨
▁즐거운
▁펼치고
▁한자를
▁활동도
▁효과에
국민학교
▁늘어나고
▁모두에서
▁미국과의
▁사르데냐
▁스맥다운
▁시민단체
▁아이템을
▁어쿠스틱
▁트로피를
▁일리노이주
▁투르크메니스탄
교섭
시계
지점
▁IA
▁고해
▁꺼내
▁녹아
▁대종
▁상사
▁숙명
▁야권
▁언젠
▁유폐
▁카다
▁함평
가지를
된다면
시키게
▁결혼식
▁공연에
▁교사가
▁노르트
▁라스트
▁말라고
▁면적을
▁사진은
▁서신을
▁어원은
▁페르세
▁협약을
▁알베르토
▁유니버스
국가대표팀
▁계승하였다
▁서비스이다
▁악화되었다
▁입단하면서
▁지금까지의
공예
던트
-60
▁쇼팽
▁신촌
▁이대
▁작중
라스노
사업의
왔지만
icro
▁Dis
▁Mac
▁가입한
▁구단을
▁규정된
▁명단을
▁반응에
▁변경된
▁상태다
▁센터의
▁오메가
▁임금의
▁조각이
▁좌우로
▁컨디션
▁판결이
▁Type
▁공격하고
▁나누었다
▁불렀으며
▁실전배치
▁제기되고
▁부파불교의
▁이론적으로
▁재직하였다
▁사용하였으며
교향
토키
▁매월
▁반려
▁백조
▁범용
▁불충
▁산술
▁소음
▁압수
▁접어
▁한문
▁현수
▁호전
▁황보
장로회
컨트리
▁라리가
▁방문해
▁수용체
▁시나노
▁아쉽게
▁약물을
▁텔레노
▁고문으로
▁이용되는
▁직전까지
곡초등학교
▁시도하였다
▁아나톨리아
▁캐릭터이다
▁발견되었으며
▁어촌정주어항으로
▁씬
덕의
변경
보아
코파
팔로
_35
▁넣을
▁대흥
▁덮고
▁르노
▁본초
▁서문
▁종친
▁쪼개
▁할리
때부터
레에서
투표를
▁맡으며
▁비판도
▁신뢰할
▁오타와
▁작품과
▁정신병
▁총선에
▁축구의
▁강화하고
▁공과대학
▁마그네슘
▁스테파노
▁독립운동을
▁편성되었다
▁붉
기타
데를
도도
메의
장수
칸은
하워
▁결장
▁경멸
▁덧셈
▁빛깔
▁소홀
▁시영
▁억류
▁주황
▁참패
▁히가
기능을
정책의
▁그만두
▁녹음된
▁복음서
▁선생은
▁아칸소
▁원주시
▁이렇다
▁존재에
▁집회를
▁가까스로
▁가르치고
▁강점기에
▁나오기도
▁없어지고
▁원나라의
▁인물들이
▁일본과의
▁장편소설
▁아우구스티
▁이루어지며
▁최종전에서
▁뛴
날개
렉트
율로
적과
▁관문
▁귀는
▁나면
▁농성
▁달마
▁대본
▁도가
▁도발
▁바하
▁밤을
▁쓰네
▁왕릉
▁첨부
▁흐루
달러를
성이나
▁1,3
▁20,
▁갖추게
▁광복군
▁몇가지
▁반하여
▁신분이
▁싶다고
▁이념을
▁존경을
▁지내며
▁프라하
▁학교와
▁핵실험
▁비행기를
▁아이디는
▁웨일스의
▁위원회에
▁출전하며
▁공격수이다
▁자동적으로
"-
-.
가야
개선
치부
▁계기
▁도의
▁루손
▁분쇄
▁수잔
▁쌓여
▁안락
▁오닐
▁은둔
▁중신
▁켄트
▁플뢰
▁헤지
▁현생
다코타
▁가르치
▁가시마
▁교통이
▁민감한
▁밝혔고
▁불구속
▁잠재적
▁1856
▁광장에서
▁등에서도
▁모차르트
▁반발하여
▁우승하는
▁운영된다
▁중앙일보
▁초등학생
▁프랑스인
▁프로그레
▁가능하다는
▁사용되었던
-&
[[
▁썸
발라
이끼
익이
카게
-80
▁고취
▁막지
▁무수
▁반군
▁보그
▁압송
▁하수
▁헤로
리거나
▁Cor
▁개인전
▁구성이
▁낮에는
▁라인을
▁마찰을
▁버리는
▁번영을
▁양성자
▁크루즈
▁허버트
▁화살을
▁1855
▁사라지게
▁오프라인
▁올랐으나
▁후반에는
▁유일종이다
▁일각에서는
▁존재한다고
▁뵈
교양
세라
턴이
톤을
투안
▁2:
▁Mr
▁내주
▁문종
▁박중
▁총알
▁치루
중이며
크리스
▁Art
▁거치지
▁건강에
▁그곳의
▁대표의
▁리그컵
▁불완전
▁세운다
▁소중한
▁야구의
▁예수를
▁이상에
▁자유가
▁저서로
▁전후에
▁태풍의
▁패하며
▁향한다
▁1776
▁급진적인
▁마르세유
▁사범대학
▁조조에게
▁한반도에
▁아랍에미리
▁프로듀서로
▁준플레이오프
PA
Th
격인
팔렌
할을
oss
▁Fl
▁Ma
▁qu
▁나도
▁때만
▁말소
▁묻자
▁숲과
▁어류
▁에다
▁위쪽
▁진의
▁트롤
드래곤
루스와
연대가
▁15%
▁4-1
▁미우라
▁밴드로
▁시에라
▁아테나
▁전환을
▁접촉을
▁죽이려
▁집단은
▁하이델
월까지는
전문대학
▁발표하며
▁코로나바이러스감염증
▁째
남동
레노
여대
▁NS
▁기묘
▁데쓰
▁비슈
▁숨은
▁쓰루
▁파드
대에는
호선을
▁가격에
▁그림과
▁노선과
▁다이나
▁사우디
▁생산과
▁쓰촨성
▁전후로
▁향하고
▁현장을
▁근본번뇌
▁달성하기
▁받았다는
▁부분에는
▁센티미터
▁유니코드
▁잠재적인
▁건립되었다
▁프로토타입
경사
르나
발표
차이
출신
튼의
페리
▁마코
▁시퀀
▁와중
▁잊지
▁주앙
▁지카
▁최단
▁커먼
▁특산
▁해치
모양의
스턴은
연하게
▁나서는
▁내려다
▁도달한
▁문장이
▁북한군
▁사나이
▁올리며
▁정치국
▁청교도
▁금지되어
▁밀접하게
▁스탈린의
▁알려주는
▁이슬람의
▁자연과학
▁정규앨범
▁탄생했다
천초등학교
4.
곡선
인해
▁KB
▁공병
▁껍질
▁라흐
▁마포
▁사명
▁상은
▁소켓
▁장준
▁청문
▁특전
▁현립
▁휘트
더니즘
은행의
▁XML
▁바람직
▁받으면
▁상륙한
▁양산시
▁엔트로
▁연대가
▁오르며
▁이어질
▁적에게
▁피닉스
▁해석이
▁협회가
▁귀국했다
▁베이징에
▁서식하며
▁소장으로
▁시리즈와
▁제출했다
▁국제공항은
▁비단털쥐과에
곡사
구락
너지
분쟁
슬론
IDS
▁당을
▁세탁
▁수분
▁윈터
▁유승
▁임종
▁코민
▁화상
개월이
기관은
▁도달할
▁두바이
▁비트코
▁사격을
▁쓰러져
▁알브레
▁없이는
▁역량을
▁열악한
▁영향에
▁인가를
▁전기에
사업으로
▁High
▁러시아를
▁성우극회
▁자랑한다
▁정교회의
▁class
▁대학원에서
▁총선에서는
▁신설되었으며
__
메탈
삼성
톨로
패가
화나
▁mu
▁공소
▁도장
▁완산
▁짐승
▁폭주
▁휠체
을수록
차원의
파에서
▁곳에는
▁도리어
▁문하시
▁버려진
▁성적인
▁센타우
▁왕이다
▁일부인
▁종교와
▁주교가
▁천체가
▁콜라보
▁With
▁남아있던
▁니가타현
▁명이었다
▁남아있었다
▁평가받는다
▁준결승전에서
맨이
속과
수원
티카
its
▁관을
▁로제
▁막판
▁메콩
▁불거
▁산인
▁소르
▁신에
▁용접
▁행선
민들의
아에서
irst
▁1:1
▁가졌던
▁간행한
▁거룩한
▁농도가
▁반응의
▁발생해
▁사장이
▁줄기는
▁커리어
▁해리스
▁관측된다
▁드라마에
▁분류되는
▁분석하는
▁스포르팅
▁폭발적인
▁한국에는
▁화이트삭
▁공직선거법
▁대중들에게
▁데이터베이
기성
설립
포항
red
▁im
▁과선
▁미러
▁수뇌
▁쓰며
▁아누
▁에나
▁페터
▁폭동
▁계급을
▁뉴스를
▁대사로
▁무과에
▁바나나
▁서둘러
▁소비에
▁카리스
▁학문과
이었기에
학과에서
▁구별되는
▁뉴사우스
▁올랭피크
▁의존하고
▁인정되는
▁활약했던
든의
사촌
소서
수준
탑의
품질
_33
▁구운
▁내쫓
▁대소
▁덕수
▁딸린
▁리키
▁봤다
▁산정
▁샬럿
▁수훈
▁승선
▁인삼
▁일행
▁점의
▁탑은
▁형광
들까지
마니아
▁Med
▁기호를
▁도쿄에
▁발전은
▁부품을
▁산맥을
▁생산의
▁수컷이
▁왼쪽에
▁투표에
▁피스톤
▁약속했다
▁활용하는
▁히데요시
▁유지하면서
▁꽝
갔을
내로
노헤
메인
소프
슈는
입자
파니
▁김한
▁내란
▁모티
▁몸돌
▁박인
▁빠뜨
▁성형
▁알론
▁여고
▁일환
▁종양
▁중첩
▁증류
▁체첸
▁품종
관계는
대부로
사단과
오피스
▁Int
▁Sun
▁개정된
▁금강산
▁끝나자
▁리조트
▁무서운
▁북쪽과
▁세컨드
▁신호가
▁양호한
▁제목이
▁친분이
▁토지의
터너티브
▁대한축구
▁마련되어
▁문제이다
▁분리하여
▁비디오는
▁우주왕복
▁자치권을
▁지대에서
▁싱가포르의
▁앵글로색슨
▁출생하였고
▁크리에이티브
리버
분자
시프
저로
칼레
(),
_36
▁IF
▁고압
▁기민
▁만수
▁성간
▁여겼
▁용량
▁정변
연대의
은행은
▁다카우
▁부부가
▁빈센트
▁성폭력
▁소련을
▁스피어
▁원정에
▁일생을
▁전국을
▁조사가
▁크라운
실점으로
▁계약으로
▁공격하기
▁멸종위기
▁반응하여
▁선거구로
▁올림픽과
▁리베르타도레스
fr
더블
오린
파스
▁GR
▁가에
▁개구
▁낚시
▁뇌졸
▁덩어
▁미인
▁바바
▁볼넷
▁북상
▁사본
▁서주
▁잊혀
▁철로
▁케리
▁키타
▁토기
▁훔쳐
부분의
일만에
▁계열사
▁관리의
▁구실을
▁리카르
▁마리가
▁상황과
▁생산할
▁성격에
▁연습을
▁예카테
▁장례식
▁프리랜
이었다가
▁가장자리
▁농림수산
▁어렵다는
▁이전에도
▁있는지를
▁전문적으로
▁지리적으로
▁헌액되었다
▁블라디보스토
▁컨페더레이션
KA
대조
동면
메는
미분
부키
쇼핑
책에
퍼트
▁Ac
▁관개
▁군자
▁볼륨
▁세일
▁수구
▁신재
▁의례
▁최치
▁파격
▁편제
씨에게
즐랜드
ital
▁구역에
▁목사의
▁반대한
▁사단의
▁시부야
▁전후의
▁태조의
▁펼치는
▁후보와
▁문제점이
▁선수들과
▁주장이다
▁현실적인
▁이화여자대학교
uk
나며
도호
상선
투명
해수
▁구룡
▁노사
▁사파
▁수족
▁이매
▁참배
▁천지
나무의
우리의
콘텐츠
mmer
▁DFB
▁경험한
▁공기업
▁공사에
▁기간의
▁넘겼다
▁노래와
▁마법사
▁압록강
▁주연의
▁죽음과
▁타이탄
▁한정된
▁후반의
▁분명하게
▁제시하는
▁호모토피
▁서울고등법원
▁홈경기장으로
과장
높이
능이
던스
디안
린트
먼과
방사
오밍
화합
▁강북
▁괴팅
▁벤저
▁인신
▁집전
▁최경
교이다
명이고
사회를
증후군
학교육
▁관리에
▁기사단
▁김해시
▁민족적
▁순위에
▁시종착
▁이익이
▁자리로
▁주인이
▁출생과
▁한겨레
▁가입하여
▁군인으로
▁단백질은
▁반대되는
▁발각되어
▁사상자가
▁임베디드
▁행해졌다
▁만화가이다
▁브라질에서
▁꼼
▁싯
min
▁고후
▁관용
▁남의
▁낯선
▁녹화
▁닌자
▁본문
▁산탄
▁손오
▁스콜
▁알자
▁액세
▁여당
▁창안
▁쿠페
공간을
인터넷
쿠스는
▁가능할
▁공항의
▁급속한
▁남해군
▁매디슨
▁분석에
▁상대적
▁안데르
▁열매를
▁유해는
▁입장은
▁조직인
▁차이에
▁하플로
▁Beat
▁레지스터
▁발달되어
▁사이트에
▁성장하는
▁이용했다
▁노동자들이
▁예외적으로
▁카이사르는
렬히
름한
▁감히
▁구문
▁길어
▁디펜
▁미추
▁스캐
▁안식
▁영은
▁저가
▁적시
▁퍼뜨
던지기
학교와
▁1,5
▁개최를
▁경찰과
▁군단은
▁군단의
▁에트루
▁오가며
▁이동이
▁최하위
조판서에
해야한다
▁동성애자
▁요소들을
▁우승컵을
▁장식되어
▁재계약을
▁통과하여
▁확산되었다
▁애니메이션으로
▁뮈
▁믈
로만
베쓰
수석
옥을
▁분개
▁사주
▁속씨
▁수년
▁유익
▁접착
▁주시
▁출정
▁치킨
▁칠성
▁튜링
▁피사
망으로
장애인
▁공간과
▁기사에
▁먹으며
▁성공은
▁성장과
▁절대적
▁존재한
▁충실한
▁커졌다
▁평화의
▁프로필
▁한자로
지에서는
▁LIVE
▁가운데서
▁마리아는
▁소규모의
▁인정되지
▁막시밀리안
▁바빌로니아
▁제외되었다
▁프로그레시브
객이
맥이
외과
▁남는
▁당장
▁미워
▁밸리
▁서던
▁소양
▁아일
▁요네
▁잠복
▁적에
▁화력
경제의
두더지
호선에
회사가
▁BMW
▁겨울철
▁글러브
▁넣으며
▁당국에
▁등록을
▁루카스
▁바람의
▁색상은
▁생활이
▁설치를
▁시내의
▁자라며
▁좀처럼
▁측면이
▁해왔다
ement
▁두었으며
▁못했다고
▁왕국으로
▁필요하지
▁설치되었고
▁입장에서는
▁홈페이지를
▁전세계적으로
=2
CO
GP
가량
생과
▁구스
▁대광
▁덩굴
▁몸과
▁무거
▁병과
▁슬럼
▁않던
▁엘살
▁올해
▁우랄
▁침수
▁판이
가면서
스크는
▁가수가
▁독실한
▁많았던
▁명백히
▁무덤을
▁버밍엄
▁심장마
▁유전체
▁이후는
▁제노바
▁크리켓
▁핵분열
▁흐름이
▁1792
▁Amer
▁업체이다
▁전체에서
▁줄어들고
▁합류한다
▁항복했다
▁획기적인
자들로부터
▁8,000
▁바이러스는
▁발견되었고
▁텔레노벨라
▁힉
누이
돈이
레슈
리도
예보
쥐의
페어
▁감탄
▁귀납
▁바야
▁수아
▁코모
▁회부
사상을
업무를
이라서
장관을
직할시
향으로
▁관찰할
▁넘었다
▁비판의
▁습격을
▁이득을
▁개최된다
▁미식축구
▁부드럽고
▁스타일은
▁이조판서
▁장학금을
▁포함하지
▁대부분이다
▁지금까지도
곡인
벽에
장조
크트
▁귀신
▁기는
▁내비
▁면담
▁바보
▁보카
▁심근
▁이아
▁헬렌
시즌에
피안타
▁경찰청
▁교체로
▁대왕의
▁예정된
▁원리에
▁정조의
정보통신
▁1853
▁고속철도
▁공부하고
▁마을이다
▁사단법인
▁사람이나
▁선정됐다
▁휴대전화
▁begin
▁지역에서도
▁참가했으며
▁돛
장기
텍스
파워
key
ven
▁HK
▁사드
▁상계
▁우마
▁이서
▁일람
▁중량
▁허물
노세키
메이커
▁10.
▁명명된
▁선물로
▁실험에
▁에인절
▁우주를
▁입각한
▁필립스
▁계열에서
▁공산당에
▁과학적인
▁델라웨어
▁돌아온다
▁뛰어났다
▁분류했다
▁야구선수
▁일어났을
작곡하였다
▁네브래스카
▁아이젠하워
▁알렉산드라
▁프랑스어로
▁공개되었으며
▁캣
승에
투라
▁BB
▁도마
▁도핑
▁땅은
▁모피
▁문교
▁밀워
▁앞을
▁이삭
▁질의
▁토성
이다가
▁166
▁다리의
▁당국의
▁동안은
▁버스터
▁벌였고
▁베이컨
▁순천시
▁승격을
▁신민당
▁에세이
▁유물이
▁인도에
▁전통이
▁종류를
▁지름은
▁진화의
▁추가한
▁테헤란
▁갖추었다
▁거느렸다
▁기다리는
▁드라마를
▁러시아인
▁말하면서
▁설명이다
▁실험에서
▁여성들의
▁원정에서
▁재판부는
▁처음이다
▁추진하는
등록문화재
대강
리처
릭은
버거
자카
▁SI
▁구타
▁대면
▁신영
▁인슐
▁조개
▁차에
▁한상
담으로
도서로
스케는
ouse
▁거처를
▁공급을
▁구별할
▁맞추고
▁멤버인
▁법률이
▁부여군
▁비옥한
▁산소를
▁생활과
▁슬라이
▁연산자
▁요시히
▁태종의
▁후반기
년경부터
▁1852
▁Mnet
▁김일성은
▁지정한다
▁캠페인을
▁파르티아
▁민주주의를
▁연구하였다
▁인플루엔자
▁탄생하였다
yc
경험
매가
삼아
센의
소형
신호
위키
점대
제주
타야
_39
▁과천
▁괴산
▁김문
▁랭커
▁미망
▁수류
▁수하
▁스모
▁아랑
▁외로
▁최재
▁카마
▁팔자
▁한라
버스와
▁가가와
▁감싸고
▁더구나
▁모습에
▁모험을
▁분열을
▁사자를
▁연장은
▁
이
다
.
에
의
는
로
하
,
을
1
가
지
고
서
한
은
기
0
사
리
대
으
시
스
2
를
도
인
년
아
자
어
라
수
일
있
나
부
전
그
정
국
되
9
과
해
주
제
었
들
성
구
장
여
상
적
동
했
와
위
3
원
선
공
게
트
마
였
보
드
만
조
5
경
중
며
화
4
8
우
미
월
학
소
유
교
비
세
오
신
르
6
개
역
문
치
7
계
명
연
회
후
관
면
진
터
등
것
모
된
영
용
프
발
군
산
러
타
무
니
작
"
당
민
방
레
단
데
거
재
음
생
카
e
통
바
분
간
반
크
안
포
a
행
차
체
내
운
호
식
요
노
o
본
파
현
물
남
할
t
출
'
종
양
r
m
속
때
임
야
실
토
두
결
루
형
l
함
설
던
강
코
표
키
려
i
-
히
각
법
초
배
태
디
승
업
n
독
건
력
직
버
록
래
입
불
까
합
S
피
A
점
예
매
최
번
C
또
티
않
받
았
천
같
베
권
른
약
메
브
말
더
왕
알
목
판
격
심
립
감
u
투
s
청
금
활
란
추
항
처
평
네
북
달
없
린
외
특
저
언
열
따
집
즈
테
석
편
복
향
T
류
병
변
F
광
질
준
족
령
M
B
페
근
I
난
올
름
랑
황
급
람
축
존
총
송
능
애
론
김
c
많
술
참
박
철
별
울
쪽
g
살
f
D
환
및
절
악
증
품
온
창
P
E
육
쿠
곡
료
;
플
백
d
)
h
망
새
쓰
필
순
림
케
돌
졌
&
클
께
량
머
글
확
져
든
팀
규
워
패
(
N
쟁
극
탈
색
범
련
견
너
삼
O
k
탄
날
L
랜
친
R
째
충
K
막
책
손
봉
접
p
퍼
G
완
츠
션
_
협
못
런
뒤
담
V
밀
블
채
습
/
골
길
럽
엔
녀
측
혼
험
취
즌
누
귀
커
슬
슈
암
H
벌
곳
찰
갈
겨
났
웨
앙
[
U
씨
y
]
뉴
첫
칭
허
침
효
높
획
징
널
:
쳐
볼
응
죽
센
논
뜻
락
착
례
큰
폭
검
헌
~
움
잡
렸
득
캐
희
엘
b
농
픽
줄
섬
틀
걸
럼
홍
풍
퇴
W
택
느
폴
헤
%
좌
먼
폐
싱
왔
층
될
압
끝
념
혁
턴
덕
앞
맞
즉
링
킨
슨
찬
윤
율
긴
릭
맡
익
델
늘
텔
빈
갖
써
염
v
램
빌
얼
벨
잘
묘
컵
콘
엄
궁
냈
맹
렌
앨
칸
닌
훈
균
팔
흥
억
밝
몇
객
휘
옥
칼
콜
얻
쇼
푸
맥
갔
J
됐
숙
괴
넘
샤
뷔
므
좋
흐
몰
핵
w
덴
템
찾
붙
떠
릴
빠
X
둘
낸
켰
률
몬
컴
액
혀
욕
혹
룹
탑
뿐
굴
십
쥐
놓
끌
칙
잠
롯
힘
죄
핀
갑
떨
싸
촌
척
벽
벤
먹
략
졸
맨
몸
잉
풀
렉
끼
춘
눈
잔
휴
틴
몽
켜
녹
컬
!
뮤
앤
쳤
홈
칠
곤
밴
폰
밖
털
렇
뛰
륙
탁
셀
멸
혜
탕
솔
꾸
둥
톤
겼
렀
윈
팅
Y
돈
홀
웠
혈
x
컨
넷
혔
님
텐
롤
냐
딸
겸
쿄
낮
둔
탐
퓨
톨
랐
욱
헨
촉
겠
셔
낙
떤
콩
킬
꽃
펜
넓
랙
왜
뇌
=
렬
킹
옹
붕
읍
멘
튜
덜
융
섭
젤
놀
흔
닝
슷
윌
헬
옮
빛
챔
듬
흑
겐
넣
깨
쉬
땅
딩
쌍
힌
곧
팬
답
켓
즘
롭
룬
큐
멤
쇄
튼
룡
짓
듀
젠
닉
뢰
값
밤
웅
릉
렵
랭
옛
흡
납
롱
씩
멜
랫
짜
젝
맺
닥
쉽
웃
궤
z
숭
펠
캠
꼬
빙
섯
듯
숨
멀
+
웹
핑
깊
잃
셰
잇
즐
틱
밍
|
믿
빅
쓴
뷰
텍
끄
뜨
큼
찍
덤
짐
틸
잎
돼
펼
멕
럭
쇠
롬
힐
엽
빨
폼
짧
럴
삭
뀌
딘
곱
릿
켈
삶
랍
첨
혐
Z
캘
?
켄
랄
촬
낭
닐
겪
썼
Q
얀
컷
콤
젊
벗
옆
꿈
밑
싶
셜
첩
곽
흘
뉘
쌓
낳
헝
냥
룩
옷
냉
빼
믹
닛
샌
듣
톱
엑
맛
븐
읽
퀴
왼
봄
벡
픈
엇
띠
잭
숲
뱅
튀
쿨
셋
묵
넬
낼
흰
뒷
섰
캄
됨
괄
벼
댄
앗
엠
좀
붉
슴
뿌
끊
둑
첼
웰
씬
뤄
밥
떻
늄
앵
덮
녕
톰
팩
륜
팽
찌
탱
뤼
숫
뱀
묻
짝
캔
늬
춤
j
렐
셈
렴
샘
쾌
팝
쓸
옌
훨
꼽
갤
륨
겔
깔
쫓
닫
횡
뽑
꺼
늦
룸
렘
뼈
끈
덩
앉
딜
흉
꼭
봇
좁
햄
펙
룰
멍
끔
뚜
깃
딕
꾼
탠
랩
퀸
윗
춰
륭
퀘
빗
궐
킴
덧
쿼
삽
첸
뮌
듭
긍
싼
윙
슐
펴
홋
q
꺾
셉
펄
렛
쌀
펑
묶
넌
툰
꼴
겹
눌
훌
넥
훗
섞
*
녁
뉜
넨
펀
돔
녔
띄
곰
섹
밭
낌
깥
\
툴
셸
돕
빵
랴
닷
엉
핸
콧
똑
톡
훼
뿔
갱
딱
팡
깝
늑
킷
닭
맷
틈
풋
콰
컫
콕
굳
힙
콥
흙
룽
뇨
뮬
밸
핫
굽
겁
빚
옵
킥
쏘
껍
{
벳
굿
멈
겉
턱
럿
봐
푼
떼
캡
샹
왈
죠
딴
퉁
뻗
홉
탓
꿀
렷
샬
닮
눅
쑤
쯤
쉐
엣
붓
툼
굉
쁜
듈
띤
줬
릇
셨
뚫
쥬
릎
칩
댐
싫
웬
놈
앱
헐
퐁
걷
챌
닿
쩌
갓
낀
낱
옴
젖
슘
흠
얄
삿
쿤
펌
톈
#
둠
쯔
걱
팜
봤
솟
잊
옐
렁
솜
캉
륵
냄
덟
멋
짙
곁
쏟
돋
탤
떡
휩
껴
흩
얇
$
긋
핍
밟
얘
굵
덱
텀
뭉
뚝
컸
맵
왓
꾀
훔
꿔
쁘
끓
휠
댓
햇
맘
썬
밋
빔
펫
픔
촨
괘
꽤
뀐
씀
잦
횟
벅
앓
줌
붐
엿
싯
샨
벵
슭
멧
짱
팟
}
뒀
헥
갇
츄
눠
딪
꼈
줘
튬
랏
`
몫
땄
곶
맑
얹
깎
땃
뭇
낫
텝
찐
윅
팰
닦
팍
걀
찔
맏
옳
쟈
얽
슛
깐
앰
캅
씌
끗
엥
뻔
쭉
귄
핏
궈
뱃
욘
캣
뚱
낚
듐
탬
챙
믈
볍
섀
찮
촐
뻐
넛
귤
헛
훙
쾰
엮
뭄
쩔
숀
샐
뫼
쉴
쿡
렝
꿨
뜬
@
싹
갯
푹
녜
뾰
셴
뮈
딧
돗
챈
삐
댈
딥
싣
얕
뤘
낄
웍
깜
랬
샀
렙
눔
펩
늙
탭
샵
꽂
슌
쾨
볶
냅
겟
맬
뇽
껏
췄
갚
촛
펭
꽝
쩐
큘
퀼
쁨
몹
췌
짚
뜸
깁
늪
썩
쪼
릅
숍
츰
괌
즙
짖
퓌
찢
쿰
훤
엡
넉
뜰
룻
롄
핼
뮐
빽
뿜
씻
젯
잼
샷
굶
퀄
뭐
쵸
뵈
쥘
샴
똥
잣
벚
쑨
벙
촘
욤
슝
탔
퓰
뜯
젓
썰
멩
팻
밧
엎
윽
땀
껑
켐
댕
괜
밈
꿰
둡
킵
튠
둬
쥔
텅
낡
뽀
츨
됩
낯
멱
꼼
깅
랠
쉰
뇰
뎀
퀀
놉
캇
맴
^
딤
좡
챠
쑹
썸
뮴
웜
팎
헴
쿵
뱌
팥
엌
띈
칫
캥
왁
꽁
쏜
쏠
솥
댁
훅
몄
앳
ㅣ
갸
짠
먀
뭔
쐐
윔
욜
쉘
옙
뎅
퍽
얌
젬
깡
덥
칵
넴
폈
잖
돛
쑥
쨌
뽕
툭
콴
뺏
쩍
눕
핌
뛴
찻
웁
힉
찜
캬
팁
늠
룀
닙
옅
갠
읊
ㄱ
볕
꼰
뺨
땐
쭈
퀵
봅
샛
딛
넵
뛸
썹
팸
뺀
뀔
숄
텡
뎌
횃
븀
쉼
젼
쌈
엷
꿇
냇
웡
웸
텃
펨
땡
줍
쎄
힝
깬
짤
씹
춧
텟
튿
깼
켤
씽
휼
눗
뻘
댑
긁
꽉
깍
솝
ㅇ
뱉
폄
솅
귈
쇤
찼
뢴
떴
랗
홑
윳
꺽
얏
쏴
뎃
뎬
뤽
ㅅ
ㅡ
ㄷ
젱
됭
뜩
숯
쭤
ㄹ
잰
ㅁ
륀
찹
꿩
쩡
맙
숏
ㄴ
텁
춥
륄
빴
탸
잿
헵
꿉
놔
푀
놨
뽐
굼
숱
컹
옻
볜
땜
헹
빡
셍
튕
묀
갬
볏
쌌
댜
챕
묄
넋
흄
랸
좇
낵
녘
뵤
뷸
햐
꿋
첵
놋
껌
냑
댔
밌
짬
몯
얗
챗
헷
탯
줏
핥
쌔
뻣
썽
셤
쥰
쳇
쨩
뎠
짊
툇
쁠
쟝
똘
덫
갭
탉
휜
겜
넝
눙
욧
듦
넙
쿱
괭
젭
췬
쭝
훠
껀
뷜
앴
ㅂ
눴
뵐
뺄
귓
앎
뉠
콸
튤
솽
숴
폿
긱
닳
꾹
넜
텨
궂
쏙
윕
헉
벰
섣
햅
뚤
몐
깟
셧
팹
늉
돤
셩
펍
ㅈ
뭘
ㅋ
뷴
쳅
톳
씰
ㅎ
숟
괵
뗀
긔
껄
빤
왑
쫄
떳
믐
숑
냔
뗏
팠
챤
푈
겅
냘
끽
솁
쥴
쬐
켠
꿍
닻
욥
듄
왐
챘
쳄
텼
힛
꼿
맣
샥
톄
왠
갉
쪄
묽
쉔
뺑
뻑
샅
칡
쩨
넹
쳉
믄
웩
죤
퉈
휨
켁
퓸
뭍
쭐
횔
ㅏ
땔
윰
꽈
뒬
뎁
륌
껫
튈
갛
됴
짰
섐
넸
뻬
탰
팃
뀜
뜀
뢸
빳
윷
씁
틋
츤
휫
ㅗ
퍄
빻
쾅
쾡
녓
뗄
튄
섕
잽
좨
홰
ㅊ
솀
잴
찧
켕
틔
뵙
웻
멎
ㅍ
냠
밉
쫑
퓔
퀜
짼
웽
훑
녠
띵
깻
쐈
꽌
뵘
찡
둣
뺐
쎈
깰
셌
깽
쟌
햘
ㅌ
뼛
뷧
쉥
빕
쏭
쫒
졍
짭
쯩
뻤
욀
쿈
홧
뎐
얍
ㅜ
겊
뎨
쇳
땋
쿳
읜
먄
뱁
졔
틍
맸
볐
잤
젋
혓
꽹
롼
섶
멥
옘
켑
궬
삯
줴
ㅓ
듸
똔
헙
뻥
쌩
쌘
쭌
뒹
ㅐ
낟
룔
삵
붑
뿍
읏
묠
닢
찟
푄
엾
쳔
낏
룅
큅
뷘
씸
큔
텄
ㅔ
묜
굄
녤
떫
츈
뚬
띌
헀
쑈
컥
폽
ㅆ
뇬
숩
쏨
껐
뽁
읫
갗
겡
띨
섄
젹
큄
툠
툽
ㅕ
뉼
쇽
툐
벋
쉿
ㄲ
똠
뿡
괸
쮸
얉
ㅠ
뗐
룝
귐
땠
졈
뱐
퇘
퇼
귬
쌤
쐬
믜
빰
죌
푯
퓐
ㅑ
쯕
툉
띔
밂
쇨
졀
좆
짢
촙
펏
괼
낑
뽈
솎
옝
뒨
벱
슥
큉
틂
ㅃ
륑
뮨
셱
싀
ㅛ
갹
궉
숌
쾃
ㅉ
죈
짇
캑
삔
짦
ㄸ
넒
죵
쌉
쓱
쨍
츳
갰
궜
돠
뺌
큇
덞
떵
쉈
퉜
녯
옇
캴
훵
꾐
뱡
옭
쩜
ㅢ
뼉
뿅
삥
얭
쨋
쫀
햏
휙
ㅒ
뵬
붇
쌕
ㅖ
덛
딨
묑
샾
썻
쎌
뵌
퀠
틉
ㅟ
껩
끙
븡
쟀
퇀
푁
푤
뚠
몌
횬
곗
꿎
뎡
땝
맟
잌
쿌
흭
ㅚ
걔
곪
귿
꿴
됸
묏
벧
볘
븓
웟
젔
쳥
캰
큥
겋
븨
샙
쒀
랖
랼
뼘
솃
쉑
펐
앏
윾
굠
떰
똣
솨
쏸
왬
챵
팼
ㅘ
긷
꺅
놘
돝
롸
싁
졉
킁
텬
걍
뤠
슙
읒
쳬
쳰
퇸
겍
굣
꾜
끎
륍
밞
슉
짹
쪘
큭
퍌
ㅄ
궃
꽥
멓
쉭
좐
죗
킈
탼
튐
곬
덖
릐
뭡
뱟
쁩
섈
쌋
쟤
춉
췐
귁
녈
뉸
닑
닯
댠
뜷
롹
몆
뭣
얜
엳
읗
쟉
쫌
챨
췰
쿽
풰
ㅙ
ㅝ
갼
겯
뀨
낍
냣
뉵
됙
밎
뽄
삑
슯
옯
읻
츌
햔
똬
믯
붸
쀼
쌰
읕
읖
찿
쵤
켸
큽
햑
흗
ㅞ
궨
긑
녬
늡
돐
듕
샜
솬
왱
죡
쫙
쬘
춍
핬
혠
훕
휀
뇩
늴
댱
먁
셕
셥
쑬
얠
왝
윁
읔
쥣
즁
쬔
찝
틑
퍈
>
겝
굘
뉨
됀
뒴
떱
룟
엊
졘
좃
즛
쨈
쨔
캤
쾍
튱
햣
ㄺ
ㄼ
껭
꿘
뀍
녑
륩
묫
믕
읓
쥠
쳡
겻
곯
낢
뚧
밪
볓
붜
삘
슾
옉
죔
짯
쩬
쮠
챡
캪
퀑
텽
풂
ㄳ
ㄻ
ㅀ
걲
깸
꺄
뙈
륏
맻
벛
섥
썅
앝
엹
읃
잍
잛
쭘
쯧
촤
큠
튁
푠
횐

ㄿ
꼍
뇸
뉙
딫
뙤
뜽
렜
뢱
밷
봬
뻰
솓
슁
쎅
쏱
쒸
왹
욺
윱
첬
촹
츔
퀌
턔
햠
헸
ㄽ
겇
꼳
꽛
꾄
눞
늣
맽
멨
묭
묾
뱔
섁
섦
씐
엤
옜
욍
읠
읺
짫
츼
픙
ㄵ
ㄾ
겄
귑
껸
눼
닏
뎜
듧
뵨
븜
빋
빱
뺘
삳
얆
얐
얶
왯
욷
웤
졋
쨘
쭙
쮜
켯
콀
쾬
쿙
푕
픕
휭
ㄶ
갣
겿
꿕
낻
뉻
닸
덪
돟
둗
듁
땟
뚯
띡
렫
롐
룐
멉
벴
쏫
씃
얾
욋
잏
잗
쟛
쫏
챰
쳑
쵼
컁
켬
콱
탘
퍙
픠
햤
횻
훽
흴
걺
곂
곈
곷
괏
깯
꽅
꾿
넗
뉩
늗
닜
닺
땁
땨
땸
떄
뙡
랟
럄
럇
룁
몃
뭏
볻
봔
뷁
뷕
븍
뺴
뻴
섿
슽
쌴
씼
엶
옫
옸
쟐
좔
짔
쩝
쬼
쯘
챱
촥
쵹
춋
쾀
퀍
톺
톼
폘
퐝
핮
혤
홤
휑
걈
겆
곙
굥
깆
깩
꽆
꾕
끕
넀
넖
넢
넫
녇
닽
댛
덨
뎰
됫
뒸
뗑
띰
띱
뢨
뤗
먈
멂
몔
뫃
뮹
믓
믾
뱄
빝
샇
쇵
숳
싻
쎙
쐰
쑜
앧
욈
읆
쟂
쟙
젇
쩽
쬠
찓
쳘
쳣
춈
츅
츙
콛
콬
탙
텦
툿
튽
햗
헿
홥
홱
횩
횰
횽
흝
흫
힁
갂
갘
걑
걘
곌
괂
깉
깠
깹
꺠
껜
껶
꽦
꿏
꿸
뀀
뀝
냬
녣
놰
뇻
늇
덝
뎍
뎦
돴
됄
됏
됮
둄
뒈
듫
떽
뗬
뗴
럅
렢
롈
뤀
륻
맄
맆
뫄
밣
붘
븥
빎
뽓
뿟
삠
삡
삮
샏
섓
셖
솦
솻
쇘
숰
쉉
쉡
쎔
쓔
앟
얖
얺
엜
엵
욌
욯
윶
읭
읳
읹
잋
쟘
졜
졷
좽
줫
쩄
쩰
쫜
쬬
찣
챦
쵝
츕
츩
칲
콮
퀭
텉
툥
튝
팯
푱
풉
퓬
핟
핶
핻
홛
횄
훍
훓
훝
흿
갃
걋
겂
겣
곅
곘
굑
굔
궅
귝
깂
깢
껙
껼
꼇
꼐
꽐
뀠
냡
넎
넚
넡
넶
녝
뇐
뇔
뉫
늚
늰
댤
덣
돎
돚
돵
돽
둰
둴
둿
뒁
뒥
뒫
듥
딷
뗌
뗘
똫
뙨
뛔
뜁
뜌
띳
랒
럐
럔
렡
롑
롓
뤌
맜
먕
먗
먿
몀
몴
뫙
뭅
뭰
뮝
믏
믠
밒
밨
밫
밯
뱆
뱜
벉
봍
봘
뵉
뵷
붏
붖
붛
붴
뷋
뺩
뺵
뼁
뼤
삣
삻
샂
샊
섡
셑
쇗
숖
숡
숸
슼
싈
싰
싲
싾
쎕
쎴
쏩
쏳
쐇
쑴
쒜
쓿
씉
앃
앋
얅
얬
엩
옄
옰
옲
옺
왰
웝
윘
윟
읅
읶
읿
잩
쟨
젣
젿
죕
죰
줃
줓
쥭
즤
짗
쨉
쩸
쩻
쫃
쫍
쫗
춴
췅
칳
캌
캭
컈
켙
콙
퀏
킼
턀
텥
톹
퇌
퇻
퉤
튭
틧
팈
팉
퍅
퍠
폅
폔
폳
퐈
푣
풜
핔
핳
햊
햋
햬
헜
혿
홅
홯
횓
횢
훋
휄
휏
힜
갅
갆
갊
갋
갌
갍
갎
갏
갞
갟
갡
갢
갥
갦
갧
갨
갩
갪
갫
갮
갲
갳
갴
갵
갶
갷
갺
갻
갽
갾
갿
걁
걂
걃
걄
걅
걆
걇
걉
걊
걌
걎
걏
걐
걒
걓
걕
걖
걗
걙
걚
걛
걜
걝
걞
걟
걠
걡
걢
걣
걤
걥
걦
걧
걨
걩
걪
걫
걬
걭
걮
걯
걳
걵
걶
걹
걻
걼
걽
걾
걿
겈
겎
겏
겑
겒
겓
겕
겖
겘
겙
겚
겛
겞
겢
겤
겥
겦
겧
겫
겭
겮
겱
겲
겳
겴
겵
겶
겷
겺
겾
곀
곃
곆
곇
곉
곊
곋
곍
곎
곏
곐
곑
곒
곓
곔
곕
곖
곚
곛
곜
곝
곲
곹
곺
괁
괍
괕
괗
괠
굇
굦
굻
궇
궎
궘
궝
궡
궷
귯
긆
긜
긧
긪
긾
깄
깋
깓
깖
꺌
껠
껬
꼮
꾈
꿧
끟
낛
낣
낲
냤
넁
넏
넑
넞
녋
녙
놃
놧
놩
뇍
뇓
뇜
눋
눝
늅
늏
늒
늕
늩
늿
닁
닞
닟
닠
댇
댚
댝
댸
덙
덭
덯
뎗
뎝
돇
돍
돓
돰
됍
됢
됬
됰
됼
둉
둏
둙
둚
둟
둧
뒵
듲
듳
듹
듼
딀
딈
딭
딯
딲
땍
땽
떘
떙
떢
떥
떦
떪
떯
뗼
뚷
뚸
뚼
뜹
띁
띅
랃
랓
랕
랛
랢
랰
랲
럈
럘
럲
럻
렃
렆
렗
렠
렣
롣
롲
뢀
뢉
룍
룧
룯
뤈
뤨
뤰
뤳
뤵
륐
륫
륱
륽
릌
릍
릏
릘
릫
릳
맀
맃
맊
맍
맔
맕
맗
맠
맢
먓
먘
먾
멏
멪
멵
몊
몪
뫂
뫈
뫔
묺
뭌
뭬
뭴
뮺
믁
밚
밠
밬
뱍
뱓
벏
벐
벓
벹
볃
볈
볿
봋
봌
봣
봥
뵛
뵝
붊
붔
붠
붵
뷀
뷃
뷤
븃
븕
븝
븟
빍
빧
빩
뺙
뺬
뺸
뺼
뻇
뻠
뻡
뻩
뻼
뽝
뿗
뿝
쀍
쁭
삜
샆
샞
섊
섧
섨
섵
섷
셒
솏
솑
쇡
쇰
숔
숮
쉅
쉠
쉣
슢
슦
슳
싄
싡
싦
싪
싵
싿
쌁
썊
썪
쎗
쎘
쎼
쎾
쐉
쐑
쐼
쑷
쒼
쓘
씜
앀
앆
앖
앚
앛
앹
앾
얂
얃
얊
얨
얫
엗
엪
옂
옏
옽
옾
왇
왘
왙
왤
왿
욨
욽
욿
웆
웇
웑
윋
윛
윥
읂
읇
읋
읐
읙
읟
읷
잂
잆
잙
잚
잧
잨
쟃
쟇
쟎
쟬
젃
젆
젏
젗
젙
젲
젵
졩
졶
좍
좧
죳
줜
줼
쥉
쥤
쥥
쥼
쥿
즑
즞
짎
짛
짥
쨀
쨜
쨤
쩃
쩟
쩩
쩹
쪗
쪤
쫘
쭁
찯
챂
첟
첮
첯
첲
쳠
촏
촣
쵀
쵣
춛
춝
춟
춭
췍
췡
췩
췽
츹
칯
칱
캎
캿
컀
컅
컺
켭
켱
켼
콭
쾁
쾩
쾭
쾻
쾽
쿸
쿹
퀩
퀫
큎
큣
큹
킄
킌
킽
탇
탣
탶
턚
텛
텤
텰
텸
텻
툅
툘
툱
튻
틜
틩
팑
팤
팦
퍁
펲
폏
폶
퐃
퐅
퐌
퐷
푓
푝
픅
픝
픞
핃
핒
핓
핝
핞
핢
핦
핧
핱
핲
햝
햡
햿
헏
헰
혅
혬
