▁ᄋ -0
▁ᄀ -1
▁ᄃ -2
▁ᄒ -3
▁이 -4
▁ᄌ -5
▁ᄉ -6
▁ᄂ -7
▁으 -8
▁하 -9
▁다 -10
▁ᄇ -11
▁. -12
▁ᄆ -13
▁에 -14
ᅳᆫ -15
▁ᄅ -16
▁의 -17
▁는 -18
▁ᆫ -19
▁아 -20
ᅧᆫ -21
ᅳᆯ -22
ᅥᆫ -23
ᅡᆫ -24
ᅡᆼ -25
▁어 -26
▁, -27
▁을 -28
ᅩᆼ -29
서 -30
이 -31
▁ᄎ -32
▁가 -33
ᅧᆼ -34
로 -35
리 -36
▁은 -37
ᅮᆫ -38
▁지 -39
▁고 -40
하 -41
▁ᄑ -42
▁1 -43
지 -44
ᅥᆼ -45
▁되 -46
시 -47
▁를 -48
▁시 -49
ᅮᆨ -50
▁여 -51
▁었 -52
스 -53
▁ᄐ -54
▁로 -55
▁년 -56
ᅩᆨ -57
▁기 -58
▁으로 -59
다 -60
▁과 -61
▁에서 -62
▁2 -63
▁있 -64
▁대 -65
ᅮᆯ -66
▁사 -67
▁았 -68
▁그 -69
ᅡᆯ -70
▁주 -71
▁ᄏ -72
ᅡᆨ -73
▁도 -74
ᅥᆨ -75
나 -76
ᅳᆼ -77
기 -78
ᅯᆫ -79
▁일 -80
ᅢᆼ -81
르 -82
ᅩᆫ -83
어 -84
▁와 -85
▁ᄄ -86
▁ᆫ다 -87
▁거 -88
라 -89
사 -90
국 -91
▁들 -92
ᅧᆨ -93
▁수 -94
▁나 -95
▁자 -96
가 -97
도 -98
자 -99
▁전 -100
▁미 -101
치 -102
▁적 -103
고 -104
▁20 -105
▁부 -106
ᅥᆯ -107
ᅯᆯ -108
드 -109
화 -110
아 -111
트 -112
부 -113
▁월 -114
▁마 -115
미 -116
장 -117
주 -118
▁제 -119
▁19 -120
요 -121
▁오 -122
ᅥᆷ -123
▁라 -124
▁보 -125
ᅣᆼ -126
정 -127
대 -128
▁위 -129
▁ᆯ -130
▁정 -131
▁중 -132
수 -133
▁화 -134
▁유 -135
구 -136
▁세 -137
ᅧᆯ -138
우 -139
▁바 -140
원 -141
▁인 -142
인 -143
ᅢᆨ -144
▁였 -145
▁공 -146
▁조 -147
▁게 -148
ᅥᆸ -149
성 -150
▁모 -151
전 -152
▁경 -153
상 -154
제 -155
▁개 -156
▁것 -157
과 -158
터 -159
니 -160
동 -161
▁3 -162
그 -163
▁비 -164
ᆯ리 -165
▁" -166
학 -167
▁스 -168
회 -169
용 -170
▁등 -171
▁선 -172
▁ᄁ -173
▁성 -174
▁만 -175
▁구 -176
▁차 -177
러 -178
교 -179
▁소 -180
▁동 -181
▁연 -182
ᅦ이 -183
▁서 -184
는 -185
▁상 -186
▁으ᄆ -187
래 -188
▁한 -189
▁며 -190
▁영 -191
▁국 -192
마 -193
비 -194
키 -195
▁발 -196
▁면 -197
▁으며 -198
문 -199
오 -200
계 -201
▁노 -202
의 -203
선 -204
산 -205
▁201 -206
ᅳᆷ -207
유 -208
▁' -209
야 -210
신 -211
민 -212
▁4 -213
역 -214
한 -215
ᅳᆨ -216
▁후 -217
타 -218
데 -219
만 -220
▁관 -221
▁리 -222
▁명 -223
일 -224
▁신 -225
소 -226
▁프 -227
▁5 -228
레 -229
▁때 -230
식 -231
▁200 -232
체 -233
▁장 -234
▁- -235
음 -236
히 -237
재 -238
▁포 -239
▁우 -240
▁던 -241
명 -242
▁방 -243
게 -244
루 -245
크 -246
▁해 -247
위 -248
▁요 -249
▁무 -250
▁교 -251
조 -252
군 -253
작 -254
카 -255
▁문 -256
▁내 -257
단 -258
▁역 -259
후 -260
간 -261
▁ᄊ -262
관 -263
▁피 -264
행 -265
▁당 -266
티 -267
▁호 -268
공 -269
▁원 -270
▁통 -271
프 -272
ᅡ지 -273
보 -274
무 -275
▁계 -276
▁현 -277
▁남 -278
거 -279
▁군 -280
물 -281
▁치 -282
력 -283
록 -284
▁분 -285
본 -286
▁6 -287
▁또 -288
당 -289
토 -290
▁야 -291
▁않 -292
▁학 -293
▁생 -294
▁파 -295
업 -296
▁추 -297
▁배 -298
▁까지 -299
안 -300
▁같 -301
▁작 -302
▁타 -303
▁강 -304
▁결 -305
▁출 -306
▁회 -307
▁에게 -308
피 -309
▁처 -310
▁대하 -311
▁진 -312
▁크 -313
▁받 -314
내 -315
반 -316
디 -317
▁단 -318
속 -319
▁7 -320
양 -321
▁번 -322
▁두 -323
▁최 -324
류 -325
▁예 -326
▁10 -327
▁8 -328
▁반 -329
ᅦᆫ -330
▁불 -331
들 -332
▁위하 -333
ᅦᆯ -334
▁카 -335
립 -336
호 -337
방 -338
포 -339
▁초 -340
▁안 -341
면 -342
▁지만 -343
임 -344
▁코 -345
모 -346
표 -347
▁형 -348
▁따 -349
▁말 -350
생 -351
경 -352
▁재 -353
▁부터 -354
진 -355
통 -356
▁실 -357
▁없 -358
분 -359
▁매 -360
코 -361
▁사용 -362
격 -363
바 -364
영 -365
▁9 -366
종 -367
▁티 -368
▁미국 -369
▁음 -370
▁종 -371
▁데 -372
연 -373
▁라고 -374
각 -375
▁이후 -376
해 -377
두 -378
▁라는 -379
▁함 -380
▁설 -381
법 -382
즈 -383
세 -384
적 -385
▁특 -386
▁더 -387
버 -388
합 -389
▁그리 -390
차 -391
른 -392
▁면서 -393
▁ᄍ -394
▁일본 -395
와 -396
발 -397
려 -398
▁산 -399
노 -400
▁드 -401
▁운 -402
파 -403
▁는데 -404
름 -405
푸 -406
▁권 -407
령 -408
▁감 -409
여 -410
▁독 -411
란 -412
람 -413
▁활 -414
직 -415
랑 -416
▁애 -417
▁행 -418
▁왕 -419
▁태 -420
민국 -421
▁김 -422
승 -423
▁대한 -424
▁지역 -425
▁199 -426
▁다음 -427
설 -428
▁양 -429
태 -430
▁민 -431
▁으나 -432
▁평 -433
료 -434
▁건 -435
실 -436
▁많 -437
▁12 -438
점 -439
▁입 -440
▁따르 -441
▁대한민국 -442
▁알 -443
▁18 -444
▁참 -445
▁간 -446
족 -447
▁및 -448
▁경기 -449
중 -450
▁승 -451
▁베 -452
▁프로 -453
▁가지 -454
녀 -455
▁목 -456
▁그러 -457
▁대학 -458
▁다른 -459
▁다고 -460
술 -461
▁토 -462
00 -463
▁; -464
▁의하 -465
▁속 -466
▁총 -467
▁외 -468
출 -469
스트 -470
쪽 -471
형 -472
심 -473
▁저 -474
▁레 -475
▁북 -476
or -477
약 -478
▁ᄈ -479
▁S -480
독 -481
운 -482
현 -483
건 -484
론 -485
▁히 -486
석 -487
▁메 -488
▁집 -489
브 -490
남 -491
▁11 -492
▁법 -493
향 -494
▁때문 -495
▁트 -496
▁새 -497
▁시작 -498
▁각 -499
네 -500
등 -501
테 -502
▁체 -503
▁천 -504
▁물 -505
▁변 -506
▁표 -507
▁임 -508
입 -509
금 -510
▁시키 -511
능 -512
▁직 -513
매 -514
▁디 -515
천 -516
▁버 -517
품 -518
▁니 -519
께 -520
▁본 -521
▁쓰 -522
▁& -523
▁사람 -524
▁점 -525
▁A -526
▁함께 -527
ᆫ드 -528
▁투 -529
울 -530
▁또한 -531
송 -532
▁팀 -533
판 -534
어지 -535
▁박 -536
어나 -537
▁아서 -538
리아 -539
▁선수 -540
▁청 -541
▁) -542
▁한국 -543
▁항 -544
▁루 -545
▁브 -546
▁영화 -547
▁사이 -548
▁세계 -549
량 -550
쟁 -551
투 -552
la -553
▁광 -554
련 -555
▁약 -556
▁시ᄌ -557
급 -558
▁C -559
▁자신 -560
개 -561
▁M -562
▁네 -563
청 -564
▁f -565
질 -566
▁경우 -567
레이 -568
언 -569
▁용 -570
추 -571
ᅧᆸ -572
▁통하 -573
▁판 -574
▁뒤 -575
▁T -576
▁축 -577
▁현재 -578
▁F -579
에 -580
함 -581
▁복 -582
▁기록 -583
▁하나 -584
망 -585
▁국가 -586
시아 -587
준 -588
▁이름 -589
▁198 -590
▁존 -591
▁아니 -592
럽 -593
초 -594
▁편 -595
▁위치 -596
▁가장 -597
▁삼 -598
악 -599
▁_ -600
▁당시 -601
▁확 -602
▁다는 -603
▁키 -604
▁보이 -605
▁패 -606
▁캐 -607
▁채 -608
항 -609
▁학교 -610
▁조선 -611
▁활동 -612
결 -613
▁( -614
▁철 -615
▁리그 -616
▁이나 -617
▁만들 -618
▁규 -619
▁15 -620
년 -621
▁테 -622
병 -623
주의 -624
▁for -625
메 -626
▁그러나 -627
▁달 -628
배 -629
강 -630
너 -631
mu -632
▁금 -633
▁열 -634
▁증 -635
▁째 -636
▁합 -637
▁플 -638
션 -639
▁백 -640
mula -641
▁formula -642
편 -643
▁창 -644
견 -645
▁언 -646
▁심 -647
저 -648
▁식 -649
목 -650
▁16 -651
▁살 -652
▁푸 -653
▁대표 -654
복 -655
▁연구 -656
▁또는 -657
색 -658
▁병 -659
▁근 -660
별 -661
▁못 -662
든 -663
▁페 -664
▁프랑 -665
부터 -666
▁/ -667
▁그리고 -668
쿠 -669
▁황 -670
츠 -671
▁m -672
환 -673
▁러 -674
베 -675
▁사회 -676
황 -677
▁0 -678
육 -679
근 -680
▁D -681
▁올리 -682
▁뜨 -683
험 -684
▁17 -685
▁충 -686
▁시즌 -687
권 -688
ᅳᆯ리 -689
머 -690
▁순 -691
▁첫 -692
▁197 -693
북 -694
▁어서 -695
▁씨 -696
▁B -697
달 -698
▁] -699
▁[ -700
▁보다 -701
외 -702
▁이루 -703
▁알리 -704
ᆯ라 -705
▁완 -706
▁돌 -707
▁높 -708
▁다시 -709
▁중국 -710
규 -711
▁협 -712
▁못하 -713
왕 -714
페 -715
▁서울 -716
▁길 -717
▁I -718
▁K -719
▁프랑스 -720
학교 -721
▁정부 -722
▁: -723
ᆷ피 -724
▁영국 -725
▁시대 -726
탈 -727
▁필 -728
글 -729
▁끄 -730
▁는다 -731
더 -732
런 -733
곡 -734
▁도시 -735
▁k -736
▁여러 -737
케 -738
▁뜻 -739
▁포함 -740
랜드 -741
찰 -742
범 -743
▁196 -744
▁14 -745
집 -746
▁너 -747
▁전쟁 -748
▁아이 -749
것 -750
▁다가 -751
▁독일 -752
광 -753
례 -754
er -755
▁로서 -756
▁~ -757
▁대회 -758
▁죽 -759
▁배우 -760
▁문화 -761
퍼 -762
▁허 -763
▁축구 -764
▁13 -765
▁g -766
▁취 -767
▁이러 -768
▁P -769
▁뉴 -770
▁별 -771
▁위원 -772
in -773
▁가능 -774
탄 -775
락 -776
▁모두 -777
▁동안 -778
▁클 -779
▁모든 -780
▁정치 -781
▁친 -782
▁이상 -783
앙 -784
▁손 -785
▁감독 -786
▁곡 -787
▁194 -788
극 -789
▁일부 -790
▁환 -791
▁방송 -792
열 -793
▁l -794
▁석 -795
존 -796
▁대학교 -797
▁개발 -798
습 -799
▁문제 -800
▁처음 -801
▁L -802
▁지방 -803
축 -804
▁제작 -805
예 -806
▁구성 -807
▁국제 -808
▁검 -809
▁% -810
▁인하 -811
▁터 -812
▁농 -813
평 -814
▁사건 -815
은 -816
널 -817
칭 -818
할 -819
▁세기 -820
▁쿠 -821
▁시간 -822
감 -823
▁이용 -824
▁일반 -825
▁끝 -826
▁논 -827
럼 -828
으 -829
▁골 -830
▁새로 -831
철 -832
▁부르 -833
▁G -834
▁존재 -835
▁게임 -836
▁슈 -837
념 -838
절 -839
▁향 -840
▁작품 -841
처 -842
▁날 -843
웨 -844
▁운동 -845
▁역사 -846
▁정도 -847
▁급 -848
▁폭 -849
▁N -850
▁gt -851
▁인구 -852
살 -853
▁섬 -854
▁나오 -855
▁주장 -856
▁곳 -857
▁겨 -858
니아 -859
on -860
▁즉 -861
▁195 -862
▁앞 -863
▁km -864
애 -865
▁려 -866
▁관계 -867
▁효 -868
▁교육 -869
획 -870
▁접 -871
▁음악 -872
택 -873
▁거나 -874
▁귀 -875
▁육 -876
▁나타 -877
▁맡 -878
라이 -879
▁중심 -880
▁lt -881
슨 -882
▁U -883
▁누 -884
▁웨 -885
막 -886
▁R -887
▁30 -888
▁극 -889
봉 -890
▁절 -891
책 -892
변 -893
▁맞 -894
창 -895
▁선거 -896
부분 -897
▁발견 -898
▁H -899
▁경제 -900
▁전투 -901
▁담 -902
턴 -903
통령 -904
화국 -905
▁봉 -906
▁E -907
증 -908
▁발표 -909
틀 -910
▁홍 -911
▁갖 -912
▁도록 -913
▁기술 -914
▁민주 -915
착 -916
▁측 -917
▁아들 -918
▁암 -919
▁막 -920
ᆷ픽 -921
린 -922
그래 -923
▁블 -924
▁우승 -925
▁책 -926
징 -927
활 -928
커 -929
▁2010 -930
▁로부터 -931
▁라이 -932
워 -933
▁대부분 -934
▁올림픽 -935
▁ㄴ -936
▁대통령 -937
an -938
▁들어 -939
▁사망 -940
▁공격 -941
▁잘 -942
▁머 -943
ᆨ스 -944
▁열리 -945
▁영향 -946
접 -947
▁불리 -948
000 -949
▁엔 -950
▁여기 -951
ᆯ로 -952
▁송 -953
▁글 -954
▁결과 -955
▁밝 -956
▁새롭 -957
▁지원 -958
▁자유 -959
▁193 -960
ᆼ글 -961
▁질 -962
순 -963
▁프로그래 -964
▁잡 -965
▁의미 -966
▁과정 -967
리카 -968
▁발생 -969
▁참여 -970
▁관련 -971
혼 -972
▁중앙 -973
▁유럽 -974
▁c -975
쓰 -976
▁류 -977
▁업 -978
▁진행 -979
▁최초 -980
란드 -981
20 -982
▁25 -983
▁밀 -984
▁범 -985
▁얻 -986
써 -987
▁준 -988
득 -989
▁부분 -990
▁태어나 -991
▁고등 -992
패 -993
▁독립 -994
▁특히 -995
▁흐 -996
▁설립 -997
▁다양 -998
▁세우 -999
▁구조 -1000
백 -1001
▁초등 -1002
움 -1003
▁제국 -1004
▁속하 -1005
▁설치 -1006
▁결정 -1007
지만 -1008
▁팔 -1009
온 -1010
버지 -1011
난 -1012
▁레이 -1013
▁커 -1014
▁발매 -1015
날 -1016
▁형태 -1017
▁좌 -1018
▁폐 -1019
불 -1020
나라 -1021
ᆯ레 -1022
담 -1023
▁소속 -1024
▁당하 -1025
▁W -1026
▁상태 -1027
▁온 -1028
응 -1029
▁2008 -1030
▁탄 -1031
누 -1032
▁악 -1033
▁헤 -1034
▁앨 -1035
▁벌 -1036
▁러시아 -1037
▁탈 -1038
▁ᆫ다는 -1039
림 -1040
▁같이 -1041
▁21 -1042
▁이전 -1043
▁아야 -1044
▁센 -1045
슬 -1046
▁스타 -1047
월 -1048
벌 -1049
▁르 -1050
우스 -1051
▁좋 -1052
▁일어나 -1053
▁침 -1054
▁그녀 -1055
디오 -1056
▁줄 -1057
▁하지만 -1058
▁사실 -1059
▁프로그램 -1060
▁로마 -1061
▁주로 -1062
▁여성 -1063
▁나라 -1064
▁으로서 -1065
▁데이 -1066
▁인민 -1067
▁꼬 -1068
▁타이 -1069
▁이것 -1070
박 -1071
▁2012 -1072
▁2011 -1073
리스 -1074
▁출신 -1075
▁참가 -1076
▁혼 -1077
▁필요 -1078
▁기준 -1079
▁이탈 -1080
▁관리 -1081
▁생각 -1082
en -1083
▁바ᄁ -1084
돌 -1085
▁운영 -1086
▁100 -1087
스테 -1088
손 -1089
▁위원회 -1090
▁여자 -1091
▁2009 -1092
▁조직 -1093
▁2007 -1094
▁윤 -1095
▁t -1096
▁2014 -1097
▁보내 -1098
▁오르 -1099
ᅳ로 -1100
▁란 -1101
▁기관 -1102
▁중요 -1103
▁행정 -1104
▁생산 -1105
▁계획 -1106
뷔 -1107
▁바이 -1108
▁등장 -1109
▁느 -1110
▁음반 -1111
▁정보 -1112
▁지정 -1113
덕 -1114
퇴 -1115
▁쇼 -1116
희 -1117
▁이르 -1118
▁a -1119
▁상대 -1120
을 -1121
슈 -1122
▁어ᄄ -1123
▁계속 -1124
▁성공 -1125
▁콘 -1126
▁희 -1127
▁매우 -1128
▁O -1129
▁데뷔 -1130
▁2013 -1131
▁지나 -1132
he -1133
▁해당 -1134
▁자리 -1135
맹 -1136
▁그루 -1137
▁국민 -1138
▁철도 -1139
스터 -1140
▁넘 -1141
때 -1142
찬 -1143
▁고려 -1144
▁밝히 -1145
▁아버지 -1146
▁시리 -1147
▁대전 -1148
▁칼 -1149
▁과학 -1150
프트 -1151
▁주요 -1152
▁이탈리아 -1153
객 -1154
▁걸 -1155
▁뿐 -1156
균 -1157
▁묘 -1158
▁191 -1159
▁아래 -1160
▁몇 -1161
▁발전 -1162
ᅦᆯ레 -1163
▁사업 -1164
▁샤 -1165
▁24 -1166
▁23 -1167
측 -1168
남도 -1169
ar -1170
▁찾 -1171
▁2015 -1172
▁싸 -1173
▁지내 -1174
▁000 -1175
▁2018 -1176
라마 -1177
▁거치 -1178
▁억 -1179
▁이유 -1180
▁차지 -1181
▁마이 -1182
▁방법 -1183
▁2016 -1184
▁헌 -1185
▁처럼 -1186
델 -1187
▁월드 -1188
▁앨범 -1189
▁그룹 -1190
▁능 -1191
▁인도 -1192
▁최고 -1193
늘 -1194
랴 -1195
▁워 -1196
▁돌아 -1197
▁스페 -1198
▁출연 -1199
▁케 -1200
▁시리즈 -1201
▁J -1202
ᅦ이션 -1203
es -1204
▁22 -1205
르크 -1206
▁전체 -1207
▁관하 -1208
▁생활 -1209
▁떨 -1210
▁2006 -1211
익 -1212
▁이루어지 -1213
▁고등학교 -1214
침 -1215
▁결국 -1216
▁회사 -1217
▁192 -1218
FA -1219
▁얼 -1220
▁그리스 -1221
블 -1222
비아 -1223
▁층 -1224
▁내용 -1225
▁후보 -1226
▁한편 -1227
▁제공 -1228
▁격 -1229
까 -1230
▁우리 -1231
▁ᆫ다고 -1232
▁2017 -1233
▁나가 -1234
암 -1235
▁연합 -1236
▁방식 -1237
율 -1238
최 -1239
▁래 -1240
▁풍 -1241
▁인터 -1242
▁공식 -1243
▁항공 -1244
▁많이 -1245
▁가운 -1246
략 -1247
느 -1248
말 -1249
▁의원 -1250
▁컴 -1251
플 -1252
▁힘 -1253
▁드라마 -1254
▁시스테 -1255
▁인간 -1256
▁시기 -1257
끼 -1258
▁가운데 -1259
▁몸 -1260
▁시스템 -1261
▁잠 -1262
▁역할 -1263
▁휴 -1264
▁출전 -1265
▁초기 -1266
▁군사 -1267
▁유명 -1268
▁조사 -1269
귀 -1270
▁스ᄐ -1271
▁s -1272
▁기업 -1273
▁거의 -1274
▁제도 -1275
▁쓰이 -1276
▁민족 -1277
▁반대 -1278
▁가리 -1279
▁지구 -1280
▁놓 -1281
▁퍼 -1282
▁프리 -1283
▁나타나 -1284
▁달리 -1285
▁둘 -1286
▁색 -1287
▁메이 -1288
▁울 -1289
비스 -1290
렌 -1291
▁교회 -1292
▁수상 -1293
▁으로써 -1294
▁이ᄁ -1295
헌 -1296
▁떠 -1297
▁분류 -1298
클 -1299
▁대신 -1300
▁나이 -1301
▁유지 -1302
▁! -1303
▁표현 -1304
압 -1305
▁평가 -1306
▁26 -1307
칙 -1308
▁언어 -1309
at -1310
▁으로부터 -1311
▁특별 -1312
▁녹 -1313
▁대상 -1314
▁기능 -1315
염 -1316
▁규모 -1317
▁현대 -1318
▁동시 -1319
▁베이 -1320
▁홈 -1321
▁응 -1322
▁28 -1323
밀 -1324
▁공개 -1325
며 -1326
▁연결 -1327
휘 -1328
▁마지 -1329
▁자연 -1330
▁2019 -1331
▁모습 -1332
야기 -1333
▁각각 -1334
▁27 -1335
씨 -1336
▁쉬 -1337
▁노동 -1338
▁이미 -1339
엘 -1340
▁뛰 -1341
▁들어가 -1342
▁전하 -1343
▁이론 -1344
▁개인 -1345
▁붙 -1346
필 -1347
북도 -1348
▁어야 -1349
▁단체 -1350
▁지도 -1351
풍 -1352
▁승리 -1353
▁브라 -1354
▁인정 -1355
골 -1356
▁2005 -1357
▁밖 -1358
▁진출 -1359
▁V -1360
▁임명 -1361
번 -1362
▁핵 -1363
▁2000 -1364
먼 -1365
▁졸 -1366
▁떨어지 -1367
▁목록 -1368
▁수도 -1369
머니 -1370
▁경상 -1371
렵 -1372
▁마지막 -1373
총 -1374
랜 -1375
▁시절 -1376
스크 -1377
▁아르 -1378
▁정의 -1379
▁비로 -1380
ic -1381
▁전문 -1382
▁목적 -1383
▁시장 -1384
▁멀 -1385
▁족 -1386
▁난 -1387
al -1388
▁기간 -1389
▁눈 -1390
▁폴 -1391
틴 -1392
▁정책 -1393
▁산업 -1394
▁이야기 -1395
욕 -1396
▁먹 -1397
▁야구 -1398
▁직접 -1399
▁서로 -1400
▁갈 -1401
컵 -1402
괴 -1403
▁상황 -1404
흥 -1405
▁오스트 -1406
센 -1407
▁습 -1408
▁기원 -1409
▁플레이 -1410
▁혁 -1411
▁압 -1412
▁계약 -1413
BS -1414
▁2004 -1415
▁추가 -1416
▁개최 -1417
▁건설 -1418
▁공동 -1419
니다 -1420
▁건물 -1421
혁 -1422
▁공간 -1423
▁FC -1424
▁으면 -1425
륙 -1426
▁50 -1427
▁망 -1428
ᆨ터 -1429
충 -1430
▁활약 -1431
곳 -1432
▁경찰 -1433
▁형성 -1434
▁거리 -1435
층 -1436
▁스페인 -1437
▁31 -1438
률 -1439
▁부산 -1440
▁결혼 -1441
▁비스 -1442
▁노래 -1443
▁모델 -1444
▁29 -1445
▁b -1446
▁졸업 -1447
▁훈 -1448
학자 -1449
▁칸 -1450
▁자동 -1451
▁TV -1452
던 -1453
▁텔레 -1454
▁변경 -1455
is -1456
엄 -1457
▁교수 -1458
▁국회 -1459
re -1460
it -1461
▁올 -1462
▁사상 -1463
▁변화 -1464
▁그것 -1465
으키 -1466
▁인물 -1467
▁공화국 -1468
▁마을 -1469
▁다르 -1470
▁슬 -1471
▁궁 -1472
▁완전 -1473
▁190 -1474
▁노선 -1475
비전 -1476
▁비롯 -1477
▁사랑 -1478
▁인민공 -1479
▁2020 -1480
▁인민공화국 -1481
▁낮 -1482
▁중학교 -1483
갈 -1484
ou -1485
▁보통 -1486
▁다이 -1487
▁맥 -1488
▁역시 -1489
▁학생 -1490
▁몰 -1491
▁ㅏ -1492
▁최대 -1493
▁서비스 -1494
▁실제 -1495
흐 -1496
▁탑 -1497
▁보호 -1498
▁지지 -1499
▁지금 -1500
프리카 -1501
▁만나 -1502
▁견 -1503
▁따라 -1504
쿄 -1505
▁전국 -1506
▁요구 -1507
굴 -1508
▁의회 -1509
ᆯ러 -1510
▁소설 -1511
▁그래 -1512
▁딸 -1513
ᆨ트 -1514
▁중화 -1515
▁일으키 -1516
▁우주 -1517
대로 -1518
▁지하 -1519
▁겸 -1520
역시 -1521
▁실시 -1522
▁기본 -1523
▁혹 -1524
빈 -1525
팅 -1526
▁가수 -1527
▁황제 -1528
탕 -1529
▁옥 -1530
▁밴드 -1531
확 -1532
운드 -1533
▁없이 -1534
▁퇴 -1535
▁싱글 -1536
▁판매 -1537
▁원래 -1538
르트 -1539
▁높이 -1540
▁전통 -1541
▁차이 -1542
▁겠 -1543
▁자기 -1544
▁기반 -1545
레스 -1546
▁경기도 -1547
▁2002 -1548
▁떠나 -1549
▁비판 -1550
너지 -1551
▁엄 -1552
▁빌 -1553
▁론 -1554
궁 -1555
▁종교 -1556
▁탐 -1557
ᇂ게 -1558
욱 -1559
▁40 -1560
▁어떤 -1561
▁내리 -1562
▁자료 -1563
▁가리키 -1564
▁세력 -1565
스탄 -1566
죄 -1567
▁버리 -1568
▁2003 -1569
▁기타 -1570
▁수행 -1571
벨 -1572
▁소련 -1573
▁모양 -1574
▁환경 -1575
▁센터 -1576
▁운행 -1577
▁뮤 -1578
▁가까 -1579
▁전기 -1580
▁휘 -1581
ᆯ리아 -1582
▁회의 -1583
▁도쿄 -1584
▁시설 -1585
옥 -1586
▁승강 -1587
▁풀 -1588
촌 -1589
▁꾸 -1590
▁전자 -1591
▁벨 -1592
▁특징 -1593
▁나타내 -1594
▁명칭 -1595
▁컵 -1596
나다 -1597
▁월드컵 -1598
▁부대 -1599
▁기념 -1600
트리 -1601
▁걸치 -1602
le -1603
▁텔레비전 -1604
▁공연 -1605
새 -1606
▁이끌 -1607
▁분야 -1608
▁교황 -1609
mp -1610
▁예술 -1611
▁이동 -1612
▁구역 -1613
퓨 -1614
▁남자 -1615
▁기독 -1616
▁설명 -1617
▁염 -1618
▁동물 -1619
▁연방 -1620
▁도입 -1621
ᆫ스 -1622
특 -1623
▁작업 -1624
로스 -1625
랙 -1626
▁전라 -1627
▁통합 -1628
▁애니 -1629
▁짜 -1630
완 -1631
숙 -1632
렬 -1633
▁선정 -1634
▁따라서 -1635
▁소프트 -1636
▁숙 -1637
잡 -1638
▁행동 -1639
이드 -1640
▁남쪽 -1641
▁넓 -1642
▁북쪽 -1643
엔 -1644
▁= -1645
▁작용 -1646
▁득 -1647
▁출시 -1648
탁 -1649
▁가족 -1650
ᅥᆯ리 -1651
▁방향 -1652
▁군대 -1653
들이 -1654
▁능력 -1655
▁바로 -1656
▁확인 -1657
▁증가 -1658
▁차량 -1659
뉴 -1660
▁교통 -1661
▁기존 -1662
효 -1663
의원 -1664
▁문학 -1665
▁지휘 -1666
▁제외 -1667
쥐 -1668
▁착 -1669
협 -1670
▁작가 -1671
▁클럽 -1672
▁옮 -1673
▁사고 -1674
▁비슷 -1675
▁행위 -1676
▁기독교 -1677
▁이때 -1678
▁도로 -1679
▁어머니 -1680
▁승강장 -1681
▁형식 -1682
▁므로 -1683
▁십 -1684
▁역임 -1685
▁마르 -1686
▁국내 -1687
훈 -1688
▁태양 -1689
▁작곡 -1690
▁혁명 -1691
▁런 -1692
▁캐나다 -1693
▁컴퓨 -1694
▁열차 -1695
▁사무 -1696
▁마다 -1697
▁효과 -1698
▁낙 -1699
▁몽 -1700
▁강하 -1701
▁유일 -1702
▁왕국 -1703
▁지배 -1704
듬 -1705
▁FI -1706
드리 -1707
벽 -1708
▁과거 -1709
ᆷ버 -1710
▁옮기 -1711
▁이적 -1712
덴 -1713
스타 -1714
▁생기 -1715
▁바다 -1716
넷 -1717
BC -1718
▁빠 -1719
▁거두 -1720
▁즈 -1721
▁협회 -1722
몬 -1723
▁남부 -1724
▁혹은 -1725
▁빈 -1726
▁추정 -1727
▁알레 -1728
▁갑 -1729
자리 -1730
▁흥 -1731
▁뉴욕 -1732
러스 -1733
▁흔 -1734
▁아라 -1735
▁비교 -1736
▁스포 -1737
▁갖추 -1738
▁담당 -1739
▁육군 -1740
▁이사 -1741
▁동일 -1742
▁주변 -1743
▁공산 -1744
▁2001 -1745
▁마리 -1746
▁이어지 -1747
▁동쪽 -1748
▁1990 -1749
▁케이 -1750
▁획 -1751
싱 -1752
▁조지 -1753
▁시민 -1754
▁X -1755
▁정당 -1756
▁장관 -1757
▁p -1758
▁물리 -1759
▁인기 -1760
▁구간 -1761
▁데이터 -1762
채 -1763
켓 -1764
▁건축 -1765
▁예정 -1766
▁챔피 -1767
▁넣 -1768
▁공사 -1769
▁대사 -1770
▁세포 -1771
▁컴퓨터 -1772
받 -1773
털 -1774
▁쪽 -1775
▁적용 -1776
▁사단 -1777
▁서쪽 -1778
맥 -1779
▁스ᄏ -1780
▁개념 -1781
▁189 -1782
▁버스 -1783
▁크기 -1784
▁성장 -1785
▁충청 -1786
▁에너지 -1787
▁품 -1788
▁괴 -1789
▁오늘 -1790
▁징 -1791
▁차례 -1792
▁마음 -1793
▁ᆫ데 -1794
▁상당 -1795
▁곧 -1796
▁볼 -1797
▁쥐 -1798
▁오래 -1799
▁어리 -1800
둥 -1801
▁움 -1802
거리 -1803
▁액 -1804
▁치르 -1805
▁비하 -1806
▁돈 -1807
▁흑 -1808
▁바르 -1809
▁바꾸 -1810
▁맨 -1811
▁칭 -1812
좌 -1813
▁잔 -1814
▁땅 -1815
액 -1816
▁조건 -1817
▁애니ᄆ -1818
▁작전 -1819
▁민주주의 -1820
▁디자 -1821
▁d -1822
▁연기 -1823
▁자체 -1824
취 -1825
이트 -1826
닝 -1827
▁실패 -1828
▁어느 -1829
▁덕 -1830
컬 -1831
▁반응 -1832
▁버전 -1833
가지 -1834
냐 -1835
▁방영 -1836
▁FIFA -1837
▁록 -1838
▁종류 -1839
카이 -1840
▁국립 -1841
▁페르 -1842
▁이라 -1843
▁돌아오 -1844
▁수록 -1845
▁이어 -1846
▁이런 -1847
▁특정 -1848
▁선언 -1849
▁컨 -1850
▁쌍 -1851
▁연주 -1852
el -1853
▁공항 -1854
ᅳᆯ린 -1855
▁필리 -1856
▁부족 -1857
▁쉽 -1858
et -1859
▁연속 -1860
▁대구 -1861
▁루이 -1862
▁선택 -1863
▁대체 -1864
▁해군 -1865
▁고대 -1866
▁다루 -1867
▁피해 -1868
▁규정 -1869
▁윈 -1870
즘 -1871
▁북부 -1872
▁멤버 -1873
▁조약 -1874
▁체제 -1875
▁애니메이션 -1876
텐 -1877
▁속도 -1878
▁내부 -1879
▁기원전 -1880
루스 -1881
▁선출 -1882
▁자치 -1883
▁아시아 -1884
▁연대 -1885
▁헌법 -1886
ᆼ글랜드 -1887
▁크리스 -1888
▁결승 -1889
▁왜 -1890
ion -1891
▁명령 -1892
▁나누 -1893
웨어 -1894
칸 -1895
▁포르 -1896
▁옛 -1897
버스 -1898
딩 -1899
▁인천 -1900
▁영어 -1901
▁정신 -1902
▁가치 -1903
▁링 -1904
ing -1905
▁머리 -1906
▁유니 -1907
▁는지 -1908
▁단계 -1909
▁설계 -1910
▁ㅓ -1911
▁최종 -1912
▁물질 -1913
▁달러 -1914
▁친구 -1915
▁나무 -1916
▁개혁 -1917
디어 -1918
▁최근 -1919
▁비행 -1920
트남 -1921
▁먼 -1922
▁척 -1923
▁출판 -1924
▁밤 -1925
를 -1926
시마 -1927
핀 -1928
▁가깝 -1929
▁1999 -1930
▁평균 -1931
▁지명 -1932
▁분석 -1933
스코 -1934
▁에이 -1935
ol -1936
▁느끼 -1937
▁ᆫ지 -1938
▁표준 -1939
▁의사 -1940
▁파이 -1941
링 -1942
▁로스 -1943
▁강화 -1944
덜 -1945
▁체계 -1946
텔 -1947
메리카 -1948
길 -1949
▁cm -1950
▁1998 -1951
21 -1952
아가 -1953
뢰 -1954
▁술 -1955
▁잉글랜드 -1956
▁Y -1957
▁배치 -1958
▁하이 -1959
▁함수 -1960
▁o -1961
▁롭 -1962
▁치료 -1963
룡 -1964
▁남기 -1965
▁더욱 -1966
▁소비 -1967
▁하계 -1968
폐 -1969
▁부문 -1970
▁획득 -1971
답 -1972
▁씩 -1973
척 -1974
▁개월 -1975
▁법원 -1976
▁공원 -1977
릉 -1978
▁집단 -1979
▁언급 -1980
▁팬 -1981
▁분리 -1982
▁트리 -1983
▁북한 -1984
▁1980 -1985
▁유사 -1986
▁관심 -1987
▁관할 -1988
▁곤 -1989
▁공립 -1990
▁60 -1991
▁입단 -1992
▁스코 -1993
셔 -1994
▁스포츠 -1995
튼 -1996
째 -1997
▁파리 -1998
▁현상 -1999
▁소유 -2000
▁베르 -2001
▁확장 -2002
▁벤 -2003
▁제품 -2004
▁35 -2005
▁부상 -2006
▁지속 -2007
▁맺 -2008
▁지니 -2009
쇄 -2010
▁처리 -2011
▁싱 -2012
▁조정 -2013
▁실험 -2014
▁선발 -2015
▁문자 -2016
▁챔피언 -2017
▁고자 -2018
▁마치 -2019
▁mm -2020
▁꽃 -2021
▁대중 -2022
베이 -2023
▁엔진 -2024
폰 -2025
▁장군 -2026
▁목표 -2027
▁빠르 -2028
▁거주 -2029
▁요소 -2030
▁요시 -2031
▁주도 -2032
▁원자 -2033
▁통일 -2034
▁정규 -2035
▁도움 -2036
싸 -2037
▁어렵 -2038
섯 -2039
▁구단 -2040
▁재판 -2041
▁자동차 -2042
▁시도 -2043
▁외국 -2044
▁n -2045
샤 -2046
▁점령 -2047
광역시 -2048
▁편성 -2049
혜 -2050
▁향하 -2051
▁이해 -2052
▁주인 -2053
ᆯ린 -2054
스티 -2055
▁시험 -2056
▁앙 -2057
▁바뀌 -2058
▁기사 -2059
벤 -2060
▁네덜 -2061
▁일종 -2062
▁네덜란드 -2063
▁후반 -2064
▁주민 -2065
▁미치 -2066
▁웹 -2067
▁학자 -2068
▁고속 -2069
▁스티 -2070
트로 -2071
▁가르 -2072
▁통신 -2073
▁결합 -2074
▁잃 -2075
om -2076
▁다니 -2077
▁예선 -2078
나무 -2079
▁개봉 -2080
▁사령 -2081
▁길이 -2082
▁행사 -2083
▁투표 -2084
▁할 -2085
▁혈 -2086
갑 -2087
얼 -2088
▁불교 -2089
야마 -2090
▁려고 -2091
▁다면 -2092
▁그렇 -2093
▁동맹 -2094
▁찌 -2095
▁잇 -2096
ᅧᆷ -2097
▁안정 -2098
▁장치 -2099
▁페이 -2100
▁아프리카 -2101
읍 -2102
▁1997 -2103
되 -2104
▁스럽 -2105
▁본선 -2106
▁덴 -2107
젝트 -2108
▁수준 -2109
▁책임 -2110
▁문서 -2111
셀 -2112
▁깊 -2113
▁디자인 -2114
묘 -2115
▁광주 -2116
▁끝나 -2117
▁율 -2118
▁언론 -2119
일랜드 -2120
ᆨ시 -2121
▁베트남 -2122
▁엘 -2123
▁모르 -2124
▁셰 -2125
▁정하 -2126
▁촉 -2127
▁사진 -2128
st -2129
꼬 -2130
▁가문 -2131
▁방문 -2132
▁요리 -2133
▁신문 -2134
▁준비 -2135
▁몬 -2136
▁듯 -2137
▁아우 -2138
▁빛 -2139
▁불구 -2140
▁The -2141
▁1996 -2142
▁1995 -2143
▁구분 -2144
▁유전 -2145
라지 -2146
▁캠 -2147
▁늘 -2148
▁제조 -2149
▁가정 -2150
▁정확 -2151
▁용어 -2152
▁부여 -2153
▁통과 -2154
▁그림 -2155
▁정권 -2156
▁폴란드 -2157
▁에스 -2158
▁amp -2159
▁비디오 -2160
▁정리 -2161
▁값 -2162
허 -2163
▁32 -2164
특별 -2165
▁성적 -2166
▁경험 -2167
▁70 -2168
ᆯ릭 -2169
▁대로 -2170
▁부인 -2171
▁핀 -2172
▁오늘날 -2173
▁끼 -2174
▁일제 -2175
▁드러 -2176
▁스위 -2177
▁평화 -2178
리지 -2179
▁어떠 -2180
▁아마 -2181
▁프로젝트 -2182
▁왕조 -2183
▁원인 -2184
▁믿 -2185
▁은퇴 -2186
▁런던 -2187
메달 -2188
▁가토 -2189
▁널리 -2190
▁깨 -2191
▁ㄹ -2192
▁찬 -2193
멘 -2194
▁추진 -2195
▁이곳 -2196
▁병원 -2197
▁멸 -2198
▁아직 -2199
▁종합 -2200
스로 -2201
었 -2202
▁올라 -2203
▁끌 -2204
▁슈퍼 -2205
▁폐지 -2206
▁500 -2207
▁인터넷 -2208
▁신라 -2209
웨이 -2210
▁이듬 -2211
▁방어 -2212
▁the -2213
▁미사 -2214
▁려는 -2215
▁면적 -2216
인트 -2217
▁가스 -2218
▁으므로 -2219
▁통치 -2220
십 -2221
▁해석 -2222
▁영역 -2223
▁주연 -2224
am -2225
▁캐리 -2226
▁경쟁 -2227
▁제주 -2228
뉘 -2229
친 -2230
▁츠 -2231
▁훈련 -2232
▁총리 -2233
▁접하 -2234
▁유래 -2235
▁만화 -2236
▁스키 -2237
▁번호 -2238
▁보도 -2239
▁80 -2240
▁도서 -2241
▁경영 -2242
▁서부 -2243
▁자주 -2244
▁야마 -2245
▁기여 -2246
▁경기장 -2247
▁188 -2248
▁노르 -2249
▁파괴 -2250
▁익 -2251
▁스토 -2252
큐 -2253
▁궤 -2254
아들이 -2255
▁미술 -2256
▁주제 -2257
▁이듬해 -2258
▁제안 -2259
▁회장 -2260
▁발달 -2261
▁노력 -2262
▁모으 -2263
▁입장 -2264
▁국회의원 -2265
▁지키 -2266
▁죽이 -2267
▁연맹 -2268
▁UE -2269
▁부정 -2270
▁생물 -2271
il -2272
▁+ -2273
▁홀 -2274
▁동부 -2275
▁경계 -2276
▁1994 -2277
▁식민 -2278
▁남성 -2279
▁행성 -2280
▁완전히 -2281
▁폰 -2282
▁투수 -2283
찌 -2284
▁UEFA -2285
▁나뉘 -2286
▁법률 -2287
▁소재 -2288
▁1970 -2289
스턴 -2290
▁플래 -2291
▁요청 -2292
▁정상 -2293
▁등록 -2294
콩 -2295
ac -2296
큼 -2297
▁무기 -2298
▁민주당 -2299
▁연구소 -2300
▁삼성 -2301
▁아시 -2302
헨 -2303
▁금지 -2304
▁다리 -2305
▁벌이 -2306
▁엘리 -2307
▁수용 -2308
▁돕 -2309
▁발사 -2310
▁라디오 -2311
님 -2312
▁박물 -2313
▁그런 -2314
▁강원 -2315
뜨 -2316
▁지진 -2317
▁제한 -2318
▁움직 -2319
▁표기 -2320
▁KBS -2321
▁바탕 -2322
▁빠지 -2323
▁무대 -2324
▁조각 -2325
▁펼 -2326
▁지대 -2327
▁크로 -2328
▁인식 -2329
머지 -2330
▁뇌 -2331
▁영토 -2332
윤 -2333
▁나머지 -2334
▁뉴스 -2335
▁서식 -2336
▁접근 -2337
밍 -2338
리오 -2339
▁정식 -2340
▁아일랜드 -2341
▁반면 -2342
멸 -2343
▁윌리 -2344
▁외교 -2345
▁철학 -2346
▁업무 -2347
▁1992 -2348
▁인사 -2349
라인 -2350
▁스스로 -2351
▁결성 -2352
▁벽 -2353
▁마찬 -2354
▁마찬가지 -2355
▁붙이 -2356
▁펜 -2357
▁ᄇ니다 -2358
요일 -2359
▁아카 -2360
섭 -2361
ro -2362
▁거부 -2363
▁돌아가 -2364
▁45 -2365
▁은행 -2366
▁굴 -2367
▁짧 -2368
▁스웨 -2369
▁박사 -2370
▁상호 -2371
▁공작 -2372
▁받아들이 -2373
▁다수 -2374
▁알렉 -2375
▁가톨릭 -2376
▁기초 -2377
▁소리 -2378
ed -2379
▁수학 -2380
▁오스 -2381
▁of -2382
▁복귀 -2383
▁36 -2384
▁임시 -2385
▁마이크 -2386
▁박물관 -2387
▁장애 -2388
▁ㅕ -2389
모토 -2390
▁성격 -2391
▁주의 -2392
▁논란 -2393
▁의식 -2394
페이 -2395
▁더불 -2396
▁이스 -2397
▁수마 -2398
▁유로 -2399
▁이기 -2400
▁집합 -2401
▁지도자 -2402
▁카드 -2403
▁초대 -2404
▁로써 -2405
▁보수 -2406
▁득점 -2407
임스 -2408
▁장소 -2409
▁실제로 -2410
톤 -2411
볼 -2412
▁아도 -2413
▁여행 -2414
▁검사 -2415
▁해결 -2416
듀 -2417
워드 -2418
▁여름 -2419
▁그대로 -2420
▁긴 -2421
▁오브 -2422
▁표시 -2423
▁화학 -2424
ig -2425
▁기구 -2426
킹 -2427
▁차원 -2428
융 -2429
혹 -2430
▁식물 -2431
라스 -2432
▁1960 -2433
▁관측 -2434
▁묘사 -2435
나이 -2436
▁1991 -2437
▁브라질 -2438
▁계열 -2439
▁들어오 -2440
탑 -2441
▁연극 -2442
▁파일 -2443
▁이외 -2444
▁총선 -2445
뮤 -2446
▁린 -2447
▁히로 -2448
▁스웨덴 -2449
폭 -2450
▁강력 -2451
잔 -2452
▁하루 -2453
▁개국 -2454
▁단순 -2455
▁안전 -2456
▁빅 -2457
▁제시 -2458
▁패배 -2459
▁차트 -2460
▁디지 -2461
▁습니다 -2462
▁뛰어나 -2463
▁1993 -2464
▁무역 -2465
▁소프트웨어 -2466
▁회원 -2467
▁활용 -2468
레일리아 -2469
ᆨ시코 -2470
▁자라 -2471
▁근처 -2472
▁기계 -2473
배우 -2474
▁오스트리아 -2475
부르크 -2476
▁33 -2477
▁권력 -2478
▁형제 -2479
▁분포 -2480
▁조성 -2481
▁싸우 -2482
▁붕 -2483
▁띠 -2484
▁중간 -2485
▁여객 -2486
특별시 -2487
홍 -2488
▁반란 -2489
▁중단 -2490
▁발행 -2491
od -2492
▁스튜 -2493
▁서울특별시 -2494
▁흡 -2495
▁취하 -2496
▁윈도 -2497
▁세대 -2498
▁먼저 -2499
▁위험 -2500
없 -2501
▁시행 -2502
▁지하철 -2503
▁량 -2504
웅 -2505
▁일정 -2506
삼 -2507
사카 -2508
▁지적 -2509
▁사이트 -2510
▁아무 -2511
▁단어 -2512
▁도착 -2513
▁카이 -2514
ᅱᆫ -2515
▁186 -2516
겨 -2517
▁만큼 -2518
워크 -2519
주시 -2520
▁캐릭터 -2521
▁협력 -2522
▁기자 -2523
ve -2524
▁다만 -2525
as -2526
▁해안 -2527
▁렌 -2528
▁코드 -2529
▁경상남도 -2530
▁", -2531
니스 -2532
▁혜 -2533
지션 -2534
▁순위 -2535
버트 -2536
▁오스트레일리아 -2537
로나 -2538
▁맞추 -2539
▁파견 -2540
덤 -2541
▁수많 -2542
▁전시 -2543
▁스트 -2544
▁생성 -2545
▁연장 -2546
▁죽음 -2547
▁태평 -2548
▁내각 -2549
▁후기 -2550
소년 -2551
▁다카 -2552
콘 -2553
▁번역 -2554
▁경상북도 -2555
▁죄 -2556
▁내려 -2557
억 -2558
▁공장 -2559
▁세상 -2560
▁본부 -2561
▁투자 -2562
▁네트 -2563
▁윌리엄 -2564
ᅪᆯ -2565
▁ᆫ가 -2566
▁지상 -2567
▁유형 -2568
곤 -2569
▁감소 -2570
▁삶 -2571
▁근거 -2572
▁관광 -2573
▁옹 -2574
▁겪 -2575
▁뮤직 -2576
알 -2577
▁보유 -2578
▁아키 -2579
▁1988 -2580
▁보존 -2581
▁양식 -2582
▁프레 -2583
▁귀족 -2584
▁혐 -2585
▁동생 -2586
▁확대 -2587
▁테이 -2588
▁균 -2589
무원 -2590
▁제기 -2591
▁이라고 -2592
▁187 -2593
▁원소 -2594
▁상징 -2595
▁촌 -2596
▁극장 -2597
▁듣 -2598
▁헬 -2599
▁위기 -2600
▁촬 -2601
▁지식 -2602
▁? -2603
▁멕시코 -2604
▁구하 -2605
▁달성 -2606
▁숨 -2607
▁유대 -2608
▁상업 -2609
▁근무 -2610
▁디지털 -2611
▁학위 -2612
▁영상 -2613
▁유리 -2614
▁듀 -2615
져 -2616
▁성립 -2617
▁걸리 -2618
▁전략 -2619
▁완성 -2620
▁단위 -2621
▁대응 -2622
▁34 -2623
혈 -2624
젠 -2625
▁발매되 -2626
▁옆 -2627
▁h -2628
▁까 -2629
▁수사 -2630
▁당선 -2631
id -2632
▁빼 -2633
▁흐르 -2634
▁촬영 -2635
▁계승 -2636
몽 -2637
▁짓 -2638
▁스리 -2639
▁38 -2640
▁종목 -2641
▁특수 -2642
회사 -2643
▁체포 -2644
▁님 -2645
▁이집 -2646
▁이슬 -2647
▁코치 -2648
▁이집트 -2649
가와 -2650
▁식민지 -2651
▁체결 -2652
몇 -2653
▁몇몇 -2654
▁수비 -2655
▁마사 -2656
▁알렉산 -2657
▁나중 -2658
▁전달 -2659
▁국왕 -2660
가리 -2661
모리 -2662
아시아 -2663
▁헤이 -2664
▁90 -2665
▁승격 -2666
▁2021 -2667
▁브리 -2668
아내 -2669
▁개통 -2670
▁톤 -2671
▁권리 -2672
▁1989 -2673
▁이렇게 -2674
ec -2675
▁생명 -2676
▁이란 -2677
▁시티 -2678
▁도서관 -2679
▁동계 -2680
▁아내 -2681
▁헨 -2682
▁낳 -2683
▁시내 -2684
▁시청 -2685
▁벌어지 -2686
▁이주 -2687
▁주식 -2688
▁문화재 -2689
▁대륙 -2690
▁직후 -2691
▁맹 -2692
us -2693
▁48 -2694
▁홍콩 -2695
▁률 -2696
▁채널 -2697
▁싶 -2698
▁측정 -2699
▁타이틀 -2700
▁게이 -2701
▁정치인 -2702
▁소수 -2703
풀 -2704
and -2705
▁관찰 -2706
▁미군 -2707
▁밑 -2708
▁젊 -2709
▁판단 -2710
ᅢᆼ크 -2711
▁펼치 -2712
▁설정 -2713
▁미사일 -2714
▁즐 -2715
▁세르 -2716
▁포르투 -2717
NA -2718
▁라인 -2719
▁전환 -2720
코드 -2721
▁코미 -2722
▁쌓 -2723
▁본관 -2724
▁특성 -2725
ᆯ리스 -2726
▁후쿠 -2727
티아 -2728
▁주어지 -2729
▁종료 -2730
▁1950 -2731
▁', -2732
▁| -2733
▁신경 -2734
▁상하 -2735
▁납 -2736
▁제정 -2737
▁취임 -2738
▁개정 -2739
▁기획 -2740
▁콜 -2741
뷰 -2742
▁얼마 -2743
▁e -2744
▁달하 -2745
▁은하 -2746
▁300 -2747
롱 -2748
▁미래 -2749
▁전라남도 -2750
▁지위 -2751
▁MBC -2752
▁시위 -2753
▁자본 -2754
▁칠 -2755
▁출생 -2756
▁결승전 -2757
ad -2758
▁전차 -2759
ᆸ히 -2760
▁주인공 -2761
디아 -2762
▁의견 -2763
▁청년 -2764
▁사회주의 -2765
핵 -2766
▁제임스 -2767
▁계산 -2768
▁춘 -2769
▁범죄 -2770
▁녹음 -2771
▁교체 -2772
▁천황 -2773
▁음식 -2774
▁헝 -2775
▁충돌 -2776
▁답 -2777
교회 -2778
▁수정 -2779
▁소개 -2780
▁바이러스 -2781
▁플로 -2782
▁으면서 -2783
▁카운 -2784
▁주목 -2785
▁1945 -2786
▁해외 -2787
ent -2788
▁모이 -2789
슬리 -2790
▁장기 -2791
▁았었 -2792
▁즉위 -2793
엽 -2794
춘 -2795
▁예수 -2796
▁비용 -2797
▁네트워크 -2798
▁멜 -2799
▁소장 -2800
▁본래 -2801
▁건강 -2802
▁궤도 -2803
▁자격 -2804
▁남북 -2805
리학 -2806
▁체육 -2807
▁합류 -2808
참 -2809
▁공부 -2810
▁벗 -2811
▁개선 -2812
▁세이 -2813
▁공급 -2814
▁배경 -2815
맨 -2816
▁인근 -2817
▁이래 -2818
▁부모 -2819
전히 -2820
50 -2821
▁만드 -2822
▁건너 -2823
▁제거 -2824
옹 -2825
▁에드 -2826
▁베네 -2827
▁성우 -2828
▁계기 -2829
▁작성 -2830
▁공군 -2831
▁명예 -2832
스카 -2833
▁감염 -2834
▁각종 -2835
▁가입 -2836
▁포지션 -2837
▁원정 -2838
보이 -2839
▁왼 -2840
▁명단 -2841
▁누구 -2842
▁국경 -2843
닌 -2844
▁읽 -2845
▁거대 -2846
▁전사 -2847
▁앤 -2848
븐 -2849
▁군인 -2850
▁천문 -2851
▁입학 -2852
▁ㅏㅆ -2853
▁자원 -2854
베르 -2855
▁털 -2856
▁쇠 -2857
▁신학 -2858
▁오후 -2859
▁피아 -2860
▁가격 -2861
▁신호 -2862
▁집중 -2863
▁홈런 -2864
럭 -2865
▁울산 -2866
▁기후 -2867
▁물론 -2868
▁질량 -2869
▁랑 -2870
▁줄이 -2871
▁찰 -2872
▁터미 -2873
▁St -2874
▁최소 -2875
▁객 -2876
▁이슬람 -2877
▁농업 -2878
도로 -2879
▁소송 -2880
▁저항 -2881
▁인수 -2882
▁병력 -2883
▁x -2884
ot -2885
▁실행 -2886
▁만약 -2887
펜 -2888
▁통제 -2889
▁측면 -2890
▁블랙 -2891
▁지부 -2892
▁강원도 -2893
니어 -2894
▁콩 -2895
▁비트 -2896
▁강조 -2897
▁터키 -2898
▁잎 -2899
▁학문 -2900
▁겨울 -2901
▁오른 -2902
▁태평양 -2903
티나 -2904
▁오리 -2905
▁마리아 -2906
▁정착 -2907
un -2908
▁약간 -2909
라도 -2910
드로 -2911
▁미디어 -2912
▁병사 -2913
▁in -2914
▁증명 -2915
철도 -2916
▁피하 -2917
ow -2918
▁터미널 -2919
▁변호 -2920
붙 -2921
▁마쓰 -2922
▁37 -2923
▁외부 -2924
▁무장 -2925
▁나서 -2926
▁캘리 -2927
▁편집 -2928
▁국방 -2929
▁기회 -2930
▁텍 -2931
▁제목 -2932
▁밀도 -2933
▁광고 -2934
동안 -2935
▁무어 -2936
쉬 -2937
▁너무 -2938
▁몽골 -2939
쇼 -2940
못 -2941
▁환자 -2942
▁지점 -2943
▁해방 -2944
▁노동자 -2945
▁니코 -2946
▁표면 -2947
▁윈도우 -2948
오카 -2949
컷 -2950
▁유도 -2951
▁냉 -2952
▁1987 -2953
▁사라지 -2954
▁라운드 -2955
▁무렵 -2956
▁바라 -2957
▁충청남도 -2958
겐 -2959
메이 -2960
▁그해 -2961
▁이번 -2962
▁영화배우 -2963
▁도중 -2964
▁꼬리 -2965
▁성과 -2966
▁금융 -2967
▁합병 -2968
▁바람 -2969
▁학년 -2970
▁인디 -2971
럴 -2972
▁마련 -2973
바이 -2974
▁w -2975
▁카르 -2976
▁허용 -2977
소리 -2978
▁재직 -2979
▁오사카 -2980
▁빨 -2981
스키 -2982
▁숲 -2983
▁선수단 -2984
▁혐의 -2985
▁ᆫ다면 -2986
마크 -2987
▁충분 -2988
▁전반 -2989
▁전력 -2990
냥 -2991
▁등급 -2992
▁포르투갈 -2993
▁킹 -2994
▁라이브 -2995
▁령 -2996
▁대수 -2997
▁양성 -2998
▁ㅕ서 -2999
▁민간 -3000
▁양자 -3001
▁여전히 -3002
▁41 -3003
▁보고 -3004
▁붕괴 -3005
ur -3006
▁1986 -3007
빌 -3008
▁1984 -3009
▁솔 -3010
▁뒷 -3011
▁고전 -3012
▁공주 -3013
▁전역 -3014
혀 -3015
▁후지 -3016
▁재산 -3017
▁스파 -3018
▁스튜디오 -3019
▁에피 -3020
촉 -3021
▁51 -3022
▁이하 -3023
▁캘리포 -3024
▁튀 -3025
▁엔터 -3026
오스 -3027
▁헝가리 -3028
▁공공 -3029
셜 -3030
▁행하 -3031
▁가져 -3032
▁뚜 -3033
▁계급 -3034
▁재정 -3035
▁군주 -3036
▁위원장 -3037
▁승인 -3038
닉 -3039
▁현실 -3040
▁동료 -3041
▁전선 -3042
▁온도 -3043
▁캘리포니아 -3044
▁봄 -3045
▁경력 -3046
▁적극 -3047
▁유엔 -3048
▁업체 -3049
▁강제 -3050
▁구축 -3051
▁고구 -3052
▁위성 -3053
▁핀란드 -3054
▁클래 -3055
▁위협 -3056
▁클라 -3057
▁대대 -3058
▁임무 -3059
▁대학원 -3060
▁조치 -3061
▁수입 -3062
▁다섯 -3063
▁범위 -3064
▁근대 -3065
▁성인 -3066
▁출발 -3067
짜 -3068
▁이제 -3069
▁필리핀 -3070
▁항상 -3071
▁이미지 -3072
▁드래 -3073
ᆮ히 -3074
▁토론 -3075
▁아시안 -3076
▁꿈 -3077
▁논문 -3078
ch -3079
▁교사 -3080
▁잡지 -3081
▁거래 -3082
▁공산당 -3083
▁남아 -3084
▁채택 -3085
헤 -3086
마스 -3087
▁올라가 -3088
▁강의 -3089
▁원칙 -3090
뇌 -3091
▁수단 -3092
▁전개 -3093
▁39 -3094
▁점차 -3095
▁섭 -3096
▁컬 -3097
▁첨 -3098
주교 -3099
고리 -3100
▁남편 -3101
▁확보 -3102
▁잭 -3103
▁스피 -3104
▁개편 -3105
▁수립 -3106
▁400 -3107
▁회복 -3108
▁아주 -3109
▁매년 -3110
▁기지 -3111
▁증거 -3112
▁공업 -3113
▁꺼 -3114
▁선생 -3115
▁든 -3116
▁일원 -3117
▁장비 -3118
▁이스라 -3119
▁얼굴 -3120
러지 -3121
▁만족 -3122
▁나카 -3123
▁64 -3124
▁앞서 -3125
▁스위스 -3126
▁1985 -3127
▁붉 -3128
▁사례 -3129
▁시인 -3130
▁앞두 -3131
▁스테 -3132
▁간주 -3133
▁폭발 -3134
▁의료 -3135
▁경주 -3136
데미 -3137
▁모스크 -3138
ay -3139
섬 -3140
▁틀 -3141
▁기대 -3142
▁종종 -3143
다이 -3144
ir -3145
▁대기 -3146
▁종이 -3147
▁이스라엘 -3148
▁항성 -3149
▁이승 -3150
▁합의 -3151
▁II -3152
ut -3153
▁대형 -3154
▁플라 -3155
▁규칙 -3156
▁욕 -3157
▁그래서 -3158
릭 -3159
짓 -3160
▁아름 -3161
▁둘러 -3162
▁분자 -3163
▁어린 -3164
▁군단 -3165
▁비밀 -3166
겁 -3167
▁끊 -3168
▁장면 -3169
▁수원 -3170
▁부근 -3171
▁토지 -3172
▁뿌 -3173
백질 -3174
um -3175
다리 -3176
▁맛 -3177
▁새기 -3178
▁탑재 -3179
▁쏘 -3180
▁ㅏ서 -3181
▁레코드 -3182
▁br -3183
▁해체 -3184
▁불가 -3185
▁나포 -3186
▁강점 -3187
논 -3188
우드 -3189
▁아랍 -3190
키아 -3191
고기 -3192
▁아카데미 -3193
▁움직이 -3194
▁낭 -3195
▁귀국 -3196
▁43 -3197
▁진화 -3198
▁조합 -3199
로드 -3200
데이 -3201
▁박쥐 -3202
▁라면 -3203
im -3204
▁스카 -3205
레이드 -3206
피아 -3207
▁그곳 -3208
▁대장 -3209
▁라며 -3210
▁심하 -3211
▁평양 -3212
▁경향 -3213
▁아메리카 -3214
▁고양 -3215
▁에게서 -3216
▁서양 -3217
▁저지 -3218
▁청소년 -3219
▁짐 -3220
▁신화 -3221
▁카운티 -3222
▁기억 -3223
▁장식 -3224
핑 -3225
▁확실 -3226
빙 -3227
▁아나 -3228
▁42 -3229
▁투어 -3230
▁남동 -3231
▁향상 -3232
▁의학 -3233
▁가로 -3234
▁고구려 -3235
어들 -3236
▁청나라 -3237
▁변하 -3238
▁융 -3239
▁캄 -3240
▁메이저 -3241
▁냐 -3242
▁아름답 -3243
▁사후 -3244
▁침공 -3245
▁보장 -3246
스토 -3247
▁좀 -3248
▁켄 -3249
ver -3250
▁카메 -3251
요시 -3252
▁스태 -3253
▁폼 -3254
▁가사 -3255
픽 -3256
▁1982 -3257
보드 -3258
▁철도역 -3259
▁신설 -3260
▁단백질 -3261
▁뽀 -3262
▁55 -3263
타인 -3264
▁보병 -3265
▁소년 -3266
에르 -3267
▁나치 -3268
검 -3269
▁라틴 -3270
▁편입 -3271
▁중화민국 -3272
▁잠시 -3273
픈 -3274
네시아 -3275
▁이끄 -3276
▁선고 -3277
▁만주 -3278
▁독자 -3279
▁숭 -3280
▁합치 -3281
▁고문 -3282
▁자금 -3283
▁광역시 -3284
무르 -3285
늄 -3286
▁단지 -3287
틀랜드 -3288
▁불과 -3289
▁우선 -3290
▁우수 -3291
▁i -3292
▁살해 -3293
네스 -3294
▁덴마크 -3295
▁1983 -3296
컨 -3297
▁세종 -3298
둑 -3299
ᆯ링 -3300
▁재단 -3301
▁확정 -3302
▁의장 -3303
▁온라인 -3304
▁44 -3305
▁창설 -3306
▁함대 -3307
▁데이비 -3308
▁미야 -3309
▁신앙 -3310
FC -3311
▁복잡 -3312
▁비율 -3313
▁왕위 -3314
▁감정 -3315
▁차별 -3316
▁마크 -3317
▁법인 -3318
▁LG -3319
▁공유 -3320
셔널 -3321
▁고향 -3322
▁전설 -3323
▁지시 -3324
▁둘러싸 -3325
▁선거구 -3326
▁성당 -3327
▁전화 -3328
▁육상 -3329
▁47 -3330
▁스타일 -3331
▁반도 -3332
▁삼국 -3333
하라 -3334
▁구체 -3335
▁예상 -3336
▁브랜드 -3337
▁솔로 -3338
숭 -3339
리트 -3340
▁동의 -3341
▁콜로 -3342
▁역대 -3343
누스 -3344
▁태풍 -3345
ᆯ레스 -3346
▁저장 -3347
셰 -3348
킨 -3349
둔 -3350
▁힐 -3351
뜨리 -3352
운동 -3353
▁고정 -3354
▁보급 -3355
싱턴 -3356
▁노예 -3357
▁하늘 -3358
▁블루 -3359
▁후손 -3360
▁오픈 -3361
▁참석 -3362
의회 -3363
▁75 -3364
▁놀 -3365
▁아미 -3366
▁강점기 -3367
▁유학 -3368
늬 -3369
▁판결 -3370
▁카를 -3371
▁Z -3372
▁어도 -3373
휴 -3374
▁검찰 -3375
▁184 -3376
▁산맥 -3377
▁핵심 -3378
문화 -3379
▁대립 -3380
▁보안 -3381
▁수출 -3382
▁어린이 -3383
▁180 -3384
▁파라 -3385
▁연고 -3386
원군 -3387
▁마드리 -3388
▁1972 -3389
▁베이스 -3390
각형 -3391
▁숫 -3392
▁로버트 -3393
▁협상 -3394
▁본격 -3395
오프 -3396
▁자세 -3397
▁옷 -3398
▁집행 -3399
▁회전 -3400
▁암살 -3401
▁대비 -3402
▁초반 -3403
▁가하 -3404
▁중반 -3405
▁마드리드 -3406
▁사전 -3407
▁탄생 -3408
▁플랫 -3409
곱 -3410
▁법칙 -3411
▁순서 -3412
▁대항 -3413
▁이성 -3414
▁잉 -3415
소드 -3416
▁주교 -3417
▁공학 -3418
▁아르헨 -3419
▁전용 -3420
▁쪼 -3421
▁밀리 -3422
▁말기 -3423
▁46 -3424
▁유적 -3425
없이 -3426
반도 -3427
▁사우 -3428
▁무엇 -3429
바르 -3430
▁권한 -3431
▁공기 -3432
트라 -3433
CA -3434
▁네이 -3435
앤 -3436
▁1920 -3437
▁단일 -3438
레이션 -3439
▁중심지 -3440
를린 -3441
▁모리 -3442
▁수여 -3443
씬 -3444
▁요한 -3445
▁1979 -3446
▁전라북도 -3447
▁아르헨티나 -3448
돈 -3449
▁트로 -3450
젤 -3451
▁별도 -3452
▁슬로 -3453
▁흔히 -3454
▁의무 -3455
▁효소 -3456
▁빌리 -3457
▁프란 -3458
▁시각 -3459
▁조금 -3460
▁공포 -3461
▁스크 -3462
▁직원 -3463
룩 -3464
▁보조 -3465
▁가르치 -3466
▁덮 -3467
▁운전 -3468
▁파크 -3469
▁원주 -3470
▁CD -3471
▁글로 -3472
▁인상 -3473
▁이익 -3474
▁kg -3475
▁워싱턴 -3476
ra -3477
▁전혀 -3478
▁롯 -3479
▁아파 -3480
▁샌 -3481
▁사항 -3482
▁통계 -3483
▁관료 -3484
▁협정 -3485
▁상품 -3486
▁우크 -3487
▁브레 -3488
▁방면 -3489
▁비난 -3490
▁In -3491
▁전후 -3492
퍼드 -3493
▁잘못 -3494
▁레드 -3495
쁘 -3496
▁변호사 -3497
▁1981 -3498
정부 -3499
▁1930 -3500
▁1973 -3501
▁마시 -3502
무라 -3503
꾸 -3504
▁하드 -3505
괄 -3506
▁기하 -3507
사키 -3508
▁인권 -3509
▁작곡가 -3510
퍼스 -3511
10 -3512
꽃 -3513
▁창조 -3514
▁아침 -3515
▁저서 -3516
딘 -3517
▁150 -3518
▁셋 -3519
▁현장 -3520
▁호텔 -3521
▁오토 -3522
▁v -3523
몰 -3524
▁놓이 -3525
▁장착 -3526
▁소식 -3527
os -3528
▁메리 -3529
찍 -3530
▁헨리 -3531
▁항복 -3532
▁인류 -3533
▁투입 -3534
▁정복 -3535
▁절대 -3536
칼 -3537
▁산하 -3538
홀 -3539
▁중부 -3540
▁넘어 -3541
▁중세 -3542
▁오른쪽 -3543
▁공무원 -3544
▁건국 -3545
▁교토 -3546
▁훨 -3547
▁요새 -3548
▁노스 -3549
▁마이클 -3550
▁서기 -3551
▁심각 -3552
▁건조 -3553
▁김정 -3554
캐 -3555
▁플레이어 -3556
앗 -3557
겨나 -3558
▁공화 -3559
▁교류 -3560
▁유전자 -3561
▁왼쪽 -3562
륨 -3563
▁택 -3564
렴 -3565
▁오랜 -3566
▁한때 -3567
▁형사 -3568
▁원작 -3569
▁물러 -3570
▁창립 -3571
▁뿌리 -3572
BO -3573
어스 -3574
▁금속 -3575
▁훨씬 -3576
▁1974 -3577
30 -3578
▁태국 -3579
em -3580
▁무리 -3581
▁로드 -3582
▁제이 -3583
▁성경 -3584
▁본인 -3585
▁베이징 -3586
▁인정받 -3587
▁공산주의 -3588
▁1940 -3589
▁아프 -3590
▁주위 -3591
ᆷ프 -3592
▁추측 -3593
▁갈등 -3594
▁패하 -3595
▁방출 -3596
▁185 -3597
ter -3598
▁빙 -3599
▁성질 -3600
▁복합 -3601
녕 -3602
▁제자 -3603
▁노르웨이 -3604
▁논의 -3605
▁ㄴ다 -3606
▁에피소드 -3607
▁북서 -3608
▁고유 -3609
▁군수 -3610
▁읍 -3611
▁랭 -3612
▁세인트 -3613
▁라도 -3614
▁전철 -3615
▁연합군 -3616
▁탁 -3617
▁운용 -3618
▁어떻게 -3619
▁클리 -3620
▁예산 -3621
▁모스크바 -3622
▁엠 -3623
▁노부 -3624
▁미니 -3625
▁출마 -3626
▁찍 -3627
▁멸망 -3628
카와 -3629
▁해양 -3630
▁플레이오프 -3631
깨 -3632
▁SBS -3633
일보 -3634
▁폴리 -3635
▁던지 -3636
▁오히 -3637
▁합성 -3638
▁각본 -3639
▁연산 -3640
▁퀴 -3641
▁주기 -3642
▁스코틀랜드 -3643
▁효율 -3644
▁아스 -3645
▁드러나 -3646
▁사령관 -3647
▁숫자 -3648
▁입자 -3649
▁정비 -3650
▁1948 -3651
▁구별 -3652
▁실리 -3653
▁사태 -3654
▁투쟁 -3655
▁반복 -3656
▁집안 -3657
튜 -3658
듀서 -3659
▁프로듀서 -3660
테르 -3661
머스 -3662
▁에어 -3663
▁삭 -3664
▁1968 -3665
▁논쟁 -3666
▁벗어나 -3667
롭 -3668
▁메시 -3669
▁인조 -3670
▁1976 -3671
세이 -3672
팔 -3673
▁퍼지 -3674
▁인종 -3675
▁54 -3676
플리 -3677
▁자이 -3678
▁사법 -3679
▁제출 -3680
▁인공 -3681
▁웨스트 -3682
▁코스 -3683
▁출장 -3684
▁흡수 -3685
▁베를린 -3686
랄 -3687
아오 -3688
▁오전 -3689
▁가져오 -3690
▁거절 -3691
▁출입 -3692
붙이 -3693
▁경성 -3694
▁연관 -3695
놓 -3696
▁원리 -3697
▁금메달 -3698
▁목사 -3699
▁북동 -3700
▁1975 -3701
▁수송 -3702
▁건립 -3703
터리 -3704
▁국도 -3705
▁중대 -3706
▁음력 -3707
▁신체 -3708
▁소녀 -3709
▁시점 -3710
▁전공 -3711
▁주전 -3712
▁포위 -3713
▁활발 -3714
op -3715
▁우스 -3716
▁이민 -3717
▁고리 -3718
도르 -3719
▁취급 -3720
▁개시 -3721
▁사령부 -3722
▁봉하 -3723
▁트랙 -3724
▁즐기 -3725
▁영화제 -3726
▁명성 -3727
첩 -3728
나이티 -3729
웃 -3730
ag -3731
▁마침 -3732
데스 -3733
▁1978 -3734
▁유나이티 -3735
▁축제 -3736
▁1971 -3737
▁56 -3738
▁윌 -3739
▁포기 -3740
▁인터뷰 -3741
▁프라 -3742
▁소스 -3743
▁취득 -3744
▁텐 -3745
▁활성 -3746
▁넘기 -3747
▁국장 -3748
끄 -3749
▁고용 -3750
▁분쟁 -3751
▁주택 -3752
▁총독 -3753
▁그레 -3754
▁신성 -3755
▁해상 -3756
▁오히려 -3757
▁미드 -3758
▁1963 -3759
▁한자 -3760
산시 -3761
▁아메 -3762
▁여객철도 -3763
▁52 -3764
▁포도 -3765
▁일치 -3766
▁장악 -3767
▁코미디 -3768
▁농민 -3769
▁동원 -3770
▁교차 -3771
▁스미 -3772
▁안타 -3773
▁북아 -3774
▁하위 -3775
▁유물 -3776
▁진보 -3777
▁견해 -3778
서트 -3779
▁히데 -3780
▁65 -3781
▁49 -3782
▁학습 -3783
▁비록 -3784
▁료 -3785
▁전부 -3786
키스탄 -3787
▁미나 -3788
▁닌 -3789
▁밖에 -3790
▁후원 -3791
비치 -3792
▁타이완 -3793
▁직전 -3794
▁한국어 -3795
▁벼 -3796
▁구속 -3797
▁주관 -3798
ce -3799
▁연료 -3800
노스 -3801
▁정체 -3802
▁관직 -3803
▁디스 -3804
▁부활 -3805
▁아테 -3806
▁불법 -3807
▁179 -3808
▁늘어나 -3809
▁대리 -3810
에트 -3811
▁천체 -3812
▁본사 -3813
▁Q -3814
▁00 -3815
▁끝내 -3816
젤레스 -3817
▁1969 -3818
▁폭력 -3819
쿠라 -3820
▁시리아 -3821
프리 -3822
▁항공기 -3823
▁수술 -3824
기에 -3825
▁모시 -3826
▁아사 -3827
▁고종 -3828
▁명명 -3829
▁드리 -3830
▁관점 -3831
▁도달 -3832
▁혼란 -3833
▁보스 -3834
▁편지 -3835
▁제어 -3836
▁직업 -3837
▁더라도 -3838
▁데이비드 -3839
다가 -3840
▁수집 -3841
▁철수 -3842
▁넷 -3843
▁약속 -3844
공항 -3845
▁장교 -3846
▁테러 -3847
▁임금 -3848
▁상당히 -3849
OS -3850
▁물러나 -3851
▁불상 -3852
▁보험 -3853
▁논리 -3854
▁프로세 -3855
▁1946 -3856
▁성능 -3857
▁백제 -3858
▁영업 -3859
▁선교 -3860
▁연재 -3861
▁주간 -3862
▁반영 -3863
▁소방 -3864
올 -3865
▁주식회사 -3866
자기 -3867
▁여부 -3868
▁학술 -3869
▁보관 -3870
▁팝 -3871
▁도구 -3872
▁53 -3873
▁백작 -3874
▁먹이 -3875
▁일대 -3876
▁프리미 -3877
▁니시 -3878
농 -3879
▁부임 -3880
▁하우스 -3881
▁해산 -3882
걸 -3883
▁의존 -3884
▁코로나 -3885
라비아 -3886
미터 -3887
▁화물 -3888
▁충청북도 -3889
▁브루 -3890
▁그리스도 -3891
oc -3892
▁큐 -3893
▁정지 -3894
▁방사 -3895
▁1964 -3896
▁허가 -3897
▁스마 -3898
▁헤르 -3899
▁전파 -3900
▁콘서트 -3901
▁하나님 -3902
▁교환 -3903
▁정원 -3904
▁개체 -3905
▁심리 -3906
▁누리 -3907
▁제일 -3908
▁대화 -3909
▁대략 -3910
브리 -3911
▁화성 -3912
▁박정 -3913
▁재료 -3914
▁상륙 -3915
이어 -3916
▁핑 -3917
▁간단 -3918
▁서버 -3919
▁십자 -3920
▁미터 -3921
▁US -3922
▁포트 -3923
▁학부 -3924
▁자살 -3925
▁and -3926
▁보건 -3927
▁베스트 -3928
▁지붕 -3929
ri -3930
▁국제공항 -3931
▁다며 -3932
▁전문가 -3933
▁시호 -3934
▁살인 -3935
▁벨기에 -3936
줄 -3937
▁공통 -3938
▁진입 -3939
▁항구 -3940
▁에도 -3941
▁영향력 -3942
▁58 -3943
륜 -3944
▁인도네시아 -3945
▁나아가 -3946
▁반발 -3947
▁학원 -3948
병대 -3949
시스 -3950
▁신분 -3951
▁승진 -3952
하마 -3953
▁꼭 -3954
▁가을 -3955
▁엑스 -3956
▁겐 -3957
▁락 -3958
▁학회 -3959
▁김영 -3960
▁식품 -3961
▁고도 -3962
▁원하 -3963
토리 -3964
▁웨이 -3965
▁피아노 -3966
▁크리 -3967
▁PC -3968
▁외국인 -3969
▁변환 -3970
▁부장 -3971
▁1000 -3972
▁계통 -3973
▁상승 -3974
▁거기 -3975
▁응용 -3976
▁요코 -3977
▁1977 -3978
납 -3979
▁질병 -3980
▁누르 -3981
▁사운드 -3982
▁99 -3983
▁채용 -3984
▁민법 -3985
▁창단 -3986
▁약하 -3987
▁트랜 -3988
▁소비에트 -3989
저우 -3990
▁사장 -3991
▁진압 -3992
▁횡 -3993
▁루이스 -3994
▁임의 -3995
▁주년 -3996
▁메모리 -3997
▁구성원 -3998
▁스프 -3999
▁작사 -4000
천군 -4001
▁참전 -4002
▁영입 -4003
▁장수 -4004
아버지 -4005
오르 -4006
▁임대 -4007
▁공동체 -4008
문화재 -4009
▁셀 -4010
▁호수 -4011
▁복무 -4012
▁모드 -4013
▁다스 -4014
페이스 -4015
▁합격 -4016
▁해리 -4017
▁로스앤 -4018
▁로스앤젤레스 -4019
▁망명 -4020
▁머무르 -4021
▁통상 -4022
▁화면 -4023
▁기도 -4024
성군 -4025
▁도망 -4026
포르 -4027
igh -4028
▁문헌 -4029
▁파트 -4030
▁그런데 -4031
▁트라 -4032
▁친일 -4033
▁말레이 -4034
▁현역 -4035
▁리더 -4036
▁방송국 -4037
▁문장 -4038
▁1949 -4039
▁라이트 -4040
▁롯데 -4041
▁수영 -4042
정식 -4043
▁탄소 -4044
▁캠퍼스 -4045
▁쫓 -4046
▁동남 -4047
게이 -4048
▁선조 -4049
▁학과 -4050
▁SK -4051
▁포로 -4052
▁판서 -4053
▁88 -4054
▁부부 -4055
▁마케 -4056
▁이치 -4057
ation -4058
▁수소 -4059
ᆩ이 -4060
▁조작 -4061
▁탈출 -4062
▁의도 -4063
▁감사 -4064
▁변형 -4065
▁전동 -4066
▁한반도 -4067
▁1962 -4068
▁저작 -4069
▁FA -4070
▁띄 -4071
▁시카 -4072
▁코파 -4073
죽 -4074
▁탈락 -4075
▁레오 -4076
▁신청 -4077
▁그치 -4078
▁칭하 -4079
▁랜 -4080
▁배출 -4081
▁상원 -4082
▁r -4083
▁62 -4084
▁기호 -4085
▁톰 -4086
카이도 -4087
▁연출 -4088
▁1967 -4089
▁돌리 -4090
▁자녀 -4091
▁발언 -4092
▁이중 -4093
▁로켓 -4094
▁서원 -4095
▁위반 -4096
▁리스 -4097
타르 -4098
▁반드 -4099
천시 -4100
▁화재 -4101
▁정기 -4102
▁.. -4103
▁절차 -4104
▁증상 -4105
▁오페 -4106
▁주둔 -4107
▁57 -4108
▁남서 -4109
▁출간 -4110
▁흉 -4111
▁조절 -4112
려움 -4113
▁예측 -4114
▁광장 -4115
▁신인 -4116
▁막부 -4117
▁처형 -4118
▁동작 -4119
▁이시 -4120
▁수리 -4121
▁분열 -4122
▁실수 -4123
▁국무 -4124
▁청구 -4125
▁어두 -4126
▁등지 -4127
▁루트 -4128
에이 -4129
▁You -4130
▁황금 -4131
▁이승만 -4132
▁연안 -4133
▁위상 -4134
▁Ch -4135
▁요인 -4136
▁왕자 -4137
▁카메라 -4138
▁롱 -4139
▁앵 -4140
▁농구 -4141
▁장르 -4142
▁개조 -4143
▁선전 -4144
▁동성 -4145
▁취소 -4146
▁방지 -4147
▁기법 -4148
▁전주 -4149
▁기체 -4150
▁생존 -4151
▁서구 -4152
▁천연 -4153
▁콘스탄 -4154
▁오스만 -4155
▁그라 -4156
▁현지 -4157
▁임진 -4158
▁히트 -4159
▁터널 -4160
▁흑인 -4161
▁트위 -4162
▁고치 -4163
▁무덤 -4164
▁여단 -4165
▁진주 -4166
수록 -4167
▁예비 -4168
▁좌우 -4169
▁181 -4170
바라 -4171
▁힘들 -4172
▁특이 -4173
이치 -4174
아나 -4175
▁보컬 -4176
▁좁 -4177
▁콤 -4178
▁바둑 -4179
▁고지 -4180
방송 -4181
콜 -4182
▁늦 -4183
▁일본군 -4184
▁지급 -4185
▁그레이 -4186
▁반드시 -4187
▁노리 -4188
▁희망 -4189
▁코르 -4190
▁글자 -4191
▁톱 -4192
▁아리 -4193
nd -4194
롤 -4195
ᆯ라이 -4196
▁동아 -4197
▁66 -4198
▁선보이 -4199
▁공정 -4200
▁방정식 -4201
▁미국인 -4202
▁둘째 -4203
▁KBO -4204
▁튜 -4205
▁1966 -4206
▁도전 -4207
리스트 -4208
▁전면 -4209
▁노벨 -4210
▁맞서 -4211
퀴 -4212
▁는가 -4213
▁일식 -4214
▁이온 -4215
▁독특 -4216
▁압력 -4217
▁경로 -4218
▁리처 -4219
▁전형 -4220
▁1965 -4221
▁드물 -4222
▁매일 -4223
▁녹색 -4224
▁독립운동 -4225
더스 -4226
▁68 -4227
▁물체 -4228
▁픽 -4229
▁묵 -4230
티브 -4231
듭 -4232
▁에르 -4233
▁부사 -4234
▁법정 -4235
랗 -4236
▁%, -4237
▁맞이 -4238
▁183 -4239
ST -4240
▁싸움 -4241
▁분명 -4242
▁스케이 -4243
▁파악 -4244
사스 -4245
▁유기 -4246
▁체코 -4247
▁가시 -4248
▁제대로 -4249
▁어디 -4250
▁지리 -4251
▁분해 -4252
▁클레 -4253
▁화산 -4254
▁61 -4255
▁간행 -4256
▁람 -4257
▁밥 -4258
▁나들 -4259
▁홋 -4260
▁신뢰 -4261
▁개신 -4262
▁타임 -4263
▁나들목 -4264
▁덧 -4265
▁으려 -4266
▁목소리 -4267
▁롤 -4268
▁찰스 -4269
▁바이오 -4270
▁알렉산드 -4271
▁펠 -4272
▁손자 -4273
▁범주 -4274
▁멘 -4275
▁인지 -4276
▁사립 -4277
질랜드 -4278
▁일찍 -4279
▁델 -4280
▁로보 -4281
▁갈색 -4282
랭 -4283
르타 -4284
▁완료 -4285
▁우려 -4286
▁분할 -4287
▁내전 -4288
▁삽 -4289
▁엄청 -4290
▁뉴질랜드 -4291
륭 -4292
치아 -4293
▁동기 -4294
▁유행 -4295
ice -4296
▁곱 -4297
▁김일 -4298
ER -4299
▁별명 -4300
▁1961 -4301
쳐 -4302
art -4303
▁처벌 -4304
▁타격 -4305
▁대개 -4306
▁실질 -4307
▁뤼 -4308
베스 -4309
▁풍부 -4310
▁웅 -4311
▁순환 -4312
▁성향 -4313
먼트 -4314
▁800 -4315
▁아동 -4316
▁IS -4317
▁흰 -4318
▁벡터 -4319
▁복지 -4320
▁리가 -4321
▁스테이 -4322
▁아파트 -4323
▁방해 -4324
▁분기 -4325
▁시드 -4326
▁시조 -4327
▁600 -4328
▁가상 -4329
ON -4330
▁추구 -4331
▁평등 -4332
▁스트리 -4333
▁완공 -4334
▁86 -4335
▁비평 -4336
▁오프 -4337
▁모형 -4338
밀리 -4339
▁창원 -4340
▁무르 -4341
▁기둥 -4342
▁파르 -4343
▁구현 -4344
▁중기 -4345
▁아티 -4346
▁최다 -4347
▁집권 -4348
▁날개 -4349
▁빼앗 -4350
▁사냥 -4351
▁프린 -4352
est -4353
ia -4354
▁희생 -4355
▁re -4356
텐츠 -4357
▁120 -4358
▁전원 -4359
▁사마 -4360
끔 -4361
▁스토리 -4362
▁무게 -4363
▁카라 -4364
▁물리학 -4365
빛 -4366
칠 -4367
▁부진 -4368
▁사임 -4369
▁알파 -4370
▁닛 -4371
▁이자 -4372
▁한정 -4373
▁확산 -4374
▁판사 -4375
▁호주 -4376
▁레인 -4377
▁넓이 -4378
▁마르크 -4379
▁명확 -4380
▁션 -4381
▁훗 -4382
ap -4383
▁출범 -4384
달리 -4385
▁가나 -4386
은행 -4387
▁마침내 -4388
▁캔 -4389
▁우라 -4390
▁대공 -4391
▁오페라 -4392
▁일본인 -4393
유럽 -4394
▁마법 -4395
▁살리 -4396
▁점점 -4397
▁상위 -4398
▁부하 -4399
틀러 -4400
▁모토 -4401
▁앤드 -4402
TV -4403
▁들어서 -4404
▁편찬 -4405
다르 -4406
▁98 -4407
▁켈 -4408
▁명나라 -4409
ak -4410
▁대법 -4411
투스 -4412
▁근본 -4413
▁엄청나 -4414
▁사형 -4415
▁인접 -4416
▁바치 -4417
▁1944 -4418
▁1919 -4419
▁단독 -4420
▁통산 -4421
▁사원 -4422
▁인증 -4423
▁조종 -4424
▁충격 -4425
▁의지 -4426
▁한계 -4427
▁고속도로 -4428
케이션 -4429
▁발굴 -4430
▁도쿠 -4431
▁교향 -4432
▁당초 -4433
시오 -4434
디션 -4435
▁연구원 -4436
▁기리 -4437
▁악화 -4438
▁포인트 -4439
녁 -4440
▁추천 -4441
▁영웅 -4442
▁연간 -4443
▁63 -4444
▁으니 -4445
▁서명 -4446
▁동서 -4447
▁적절 -4448
▁곽 -4449
▁문명 -4450
▁드라이 -4451
▁렀 -4452
▁저술 -4453
▁유치 -4454
▁모임 -4455
▁키우 -4456
AR -4457
아보 -4458
▁의심 -4459
▁생겨나 -4460
▁분위 -4461
▁의혹 -4462
▁프리미어 -4463
▁광복 -4464
▁드러내 -4465
▁포항 -4466
▁95 -4467
▁각지 -4468
▁1941 -4469
▁훌 -4470
▁기기 -4471
▁기온 -4472
ᆸ스 -4473
넘 -4474
솔 -4475
▁경전 -4476
▁변수 -4477
▁함락 -4478
▁탐사 -4479
▁행렬 -4480
숭이 -4481
▁자극 -4482
▁성분 -4483
▁홍보 -4484
▁골든 -4485
▁사실상 -4486
ct -4487
▁무시 -4488
우리 -4489
▁추산 -4490
▁뮤지 -4491
세우 -4492
▁공로 -4493
사자 -4494
▁바위 -4495
▁59 -4496
크스 -4497
▁학살 -4498
▁시카고 -4499
대부 -4500
▁샘 -4501
▁개막 -4502
▁세르비아 -4503
▁DNA -4504
나가 -4505
▁178 -4506
▁순수 -4507
▁개입 -4508
▁회담 -4509
▁자전 -4510
▁접촉 -4511
▁74 -4512
▁확률 -4513
학생 -4514
▁Lo -4515
리칸 -4516
▁오랫 -4517
▁올해 -4518
▁사정 -4519
▁IC -4520
▁팔리 -4521
▁징역 -4522
▁악기 -4523
라이언 -4524
컴 -4525
▁그때 -4526
▁임기 -4527
▁순간 -4528
▁등판 -4529
▁예전 -4530
▁공헌 -4531
▁특별시 -4532
왜 -4533
▁구원 -4534
민주 -4535
▁매장 -4536
▁진정 -4537
▁루스 -4538
▁팽 -4539
클리 -4540
▁1958 -4541
▁미쓰 -4542
▁스마트 -4543
무부 -4544
▁혼합 -4545
▁;/ -4546
▁to -4547
▁방위 -4548
▁보고서 -4549
연히 -4550
▁언제 -4551
▁수석 -4552
▁입법 -4553
▁실현 -4554
▁한국인 -4555
▁페르시아 -4556
▁놀라 -4557
▁82 -4558
▁양쪽 -4559
타이 -4560
▁1947 -4561
▁피터 -4562
▁훗날 -4563
▁내셔널 -4564
ul -4565
▁감시 -4566
▁독일군 -4567
▁오랫동안 -4568
▁시사 -4569
▁출력 -4570
▁백성 -4571
▁여야 -4572
▁줄기 -4573
▁제사 -4574
▁심사 -4575
▁여론 -4576
뇨 -4577
▁1956 -4578
셉 -4579
▁커뮤 -4580
▁원형 -4581
▁76 -4582
▁줄어들 -4583
▁리처드 -4584
▁꺾 -4585
▁160 -4586
▁텍사스 -4587
▁SS -4588
▁단편 -4589
▁개신교 -4590
▁승객 -4591
▁왕실 -4592
▁다케 -4593
▁랜드 -4594
▁경남 -4595
▁72 -4596
▁대량 -4597
네이 -4598
▁춤 -4599
▁블라 -4600
먹 -4601
▁태도 -4602
▁균형 -4603
▁프라이 -4604
▁저녁 -4605
▁영지 -4606
▁신부 -4607
▁안동 -4608
▁동명 -4609
▁이닝 -4610
리히 -4611
▁에드워드 -4612
▁조별 -4613
ie -4614
▁작위 -4615
▁멀리 -4616
▁여왕 -4617
▁입력 -4618
▁가와 -4619
▁교구 -4620
▁침략 -4621
▁이라크 -4622
▁안토 -4623
▁커뮤니 -4624
▁고르 -4625
▁에서부터 -4626
흡 -4627
▁무사 -4628
▁발발 -4629
▁축구단 -4630
▁77 -4631
▁재건 -4632
▁아이돌 -4633
▁잠수 -4634
닥 -4635
▁흐름 -4636
▁점수 -4637
ᅡᇀ -4638
▁득표 -4639
▁바깥 -4640
▁타자 -4641
▁테스트 -4642
▁복원 -4643
▁참고 -4644
▁프랑크 -4645
▁67 -4646
▁도요 -4647
▁비치 -4648
▁대선 -4649
▁1939 -4650
▁포켓 -4651
▁뷰 -4652
▁권위 -4653
▁Th -4654
▁분위기 -4655
ud -4656
▁승부 -4657
▁리버 -4658
▁폭탄 -4659
▁과학자 -4660
▁고기 -4661
▁타워 -4662
▁원수 -4663
▁앉 -4664
▁시상 -4665
▁트레 -4666
▁어깨 -4667
▁석유 -4668
ly -4669
▁와이 -4670
▁기울 -4671
콤 -4672
▁녀 -4673
▁사자 -4674
▁한글 -4675
▁셔 -4676
▁AFC -4677
og -4678
▁둥 -4679
▁하야 -4680
놀 -4681
▁정수 -4682
▁병합 -4683
▁확립 -4684
▁마무 -4685
▁일상 -4686
th -4687
▁주최 -4688
틱 -4689
▁겹 -4690
ᆯ런 -4691
버그 -4692
▁다운 -4693
일러 -4694
▁보물 -4695
▁복수 -4696
▁침입 -4697
멍 -4698
▁빅토 -4699
▁부지 -4700
▁대왕 -4701
▁신자 -4702
▁자식 -4703
▁시마 -4704
▁비상 -4705
▁가공 -4706
▁갈라 -4707
ist -4708
▁복음 -4709
▁가이 -4710
▁긍 -4711
▁재배 -4712
▁암호 -4713
셈 -4714
▁85 -4715
▁대성 -4716
마르 -4717
▁국기 -4718
▁일시 -4719
▁동양 -4720
▁민중 -4721
▁1954 -4722
▁프레이 -4723
▁애플 -4724
▁인쇄 -4725
▁브라운 -4726
▁덜 -4727
궐 -4728
▁깃 -4729
마니아 -4730
▁구글 -4731
▁당국 -4732
▁수익 -4733
▁나폴레 -4734
▁쌀 -4735
▁도모 -4736
▁가량 -4737
ight -4738
▁지형 -4739
▁연예 -4740
빠 -4741
▁평안 -4742
라드 -4743
▁훈장 -4744
▁나폴레옹 -4745
왜란 -4746
▁공중 -4747
▁임진왜란 -4748
AS -4749
▁파워 -4750
▁세리 -4751
▁기소 -4752
▁창작 -4753
▁사제 -4754
▁1952 -4755
▁산화 -4756
▁신고 -4757
▁후계 -4758
▁혁신 -4759
▁계층 -4760
▁가담 -4761
▁거듭 -4762
▁조조 -4763
▁폐쇄 -4764
▁참모 -4765
▁빌보드 -4766
에른 -4767
▁다소 -4768
▁급제 -4769
▁끼치 -4770
▁발음 -4771
▁본질 -4772
이센 -4773
▁스타디 -4774
▁73 -4775
▁데스 -4776
▁아테네 -4777
▁오카 -4778
▁심지 -4779
▁* -4780
▁노출 -4781
▁가설 -4782
▁전신 -4783
▁라스 -4784
▁들이 -4785
▁타운 -4786
펠 -4787
일스 -4788
▁력 -4789
▁힌 -4790
▁도마 -4791
▁96 -4792
세포 -4793
▁대지 -4794
▁비서 -4795
▁동방 -4796
AT -4797
아지 -4798
▁박정희 -4799
▁퀸 -4800
▁바닥 -4801
느리 -4802
▁오가 -4803
▁청주 -4804
▁Al -4805
▁평론 -4806
▁보살 -4807
▁후속 -4808
▁움직임 -4809
▁81 -4810
▁무한 -4811
▁탈퇴 -4812
넬 -4813
▁78 -4814
아하 -4815
▁따로 -4816
자치 -4817
조합 -4818
▁뮤지컬 -4819
필더 -4820
▁실력 -4821
아티아 -4822
▁미드필더 -4823
▁고통 -4824
▁로봇 -4825
▁수도원 -4826
▁크로아티아 -4827
▁채우 -4828
▁화이트 -4829
▁전투기 -4830
▁굽 -4831
▁알바 -4832
▁듯이 -4833
▁장남 -4834
▁센트 -4835
▁행복 -4836
▁202 -4837
▁총회 -4838
▁절반 -4839
▁재학 -4840
▁상관 -4841
▁중력 -4842
▁안드로 -4843
▁상역 -4844
▁보르 -4845
▁개설 -4846
▁좋아하 -4847
▁문신 -4848
▁젠 -4849
▁NH -4850
ess -4851
▁이혼 -4852
▁빌딩 -4853
▁전남 -4854
너스 -4855
▁화장 -4856
피스 -4857
▁그렇게 -4858
▁아트 -4859
▁천안 -4860
▁177 -4861
▁1959 -4862
▁Li -4863
▁가까이 -4864
▁인용 -4865
체스터 -4866
▁여섯 -4867
▁손상 -4868
▁크루 -4869
▁산소 -4870
▁보상 -4871
▁전직 -4872
▁생물학 -4873
▁DV -4874
▁붓 -4875
▁AT -4876
▁사무소 -4877
▁71 -4878
▁그만 -4879
▁사우스 -4880
▁일커 -4881
▁질환 -4882
BA -4883
▁지사 -4884
▁일컫 -4885
▁백만 -4886
▁심장 -4887
의정 -4888
▁91 -4889
인물 -4890
▁윗 -4891
▁비례 -4892
▁하인 -4893
▁레알 -4894
▁화합 -4895
▁당나라 -4896
▁뮌 -4897
▁황후 -4898
▁김성 -4899
▁묻 -4900
▁작동 -4901
▁도덕 -4902
▁포스트 -4903
▁피부 -4904
▁지향 -4905
▁액션 -4906
▁주력 -4907
▁인생 -4908
▁위키 -4909
▁ᆯ지 -4910
▁승려 -4911
▁패션 -4912
▁약물 -4913
▁김대 -4914
▁국군 -4915
▁바이에른 -4916
▁처하 -4917
▁국정 -4918
▁관여 -4919
▁교리 -4920
▁하원 -4921
▁신사 -4922
▁좌상 -4923
▁디스크 -4924
▁콘스탄티 -4925
▁의대 -4926
▁메시지 -4927
▁가마 -4928
▁불만 -4929
미야 -4930
▁1942 -4931
▁피해자 -4932
▁모바 -4933
삭 -4934
▁골드 -4935
▁동해 -4936
▁는다는 -4937
ub -4938
▁사유 -4939
▁st -4940
▁가슴 -4941
▁혼인 -4942
따 -4943
▁유통 -4944
▁기상 -4945
리노 -4946
ᅨᆫ -4947
▁글로벌 -4948
▁조카 -4949
▁텔 -4950
▁호소 -4951
▁포스 -4952
▁선박 -4953
▁\ -4954
가락 -4955
▁티베 -4956
직자 -4957
▁검토 -4958
▁상실 -4959
▁페이지 -4960
▁께 -4961
스트라 -4962
▁역학 -4963
▁구매 -4964
▁오이 -4965
▁이마 -4966
코스 -4967
▁부산광역시 -4968
▁홋카이도 -4969
▁서식지 -4970
▁적합 -4971
버리 -4972
▁총장 -4973
▁159 -4974
▁87 -4975
하여 -4976
▁1943 -4977
▁진단 -4978
▁결론 -4979
▁1955 -4980
▁부담 -4981
▁원년 -4982
▁규제 -4983
▁연습 -4984
가니 -4985
▁개방 -4986
▁왕비 -4987
▁아웃 -4988
▁스타디움 -4989
▁매체 -4990
▁왕후 -4991
▁내려오 -4992
▁가요 -4993
▁그린 -4994
렉 -4995
▁드래프트 -4996
▁첼 -4997
▁1953 -4998
▁싱가 -4999
▁통화 -5000
▁AP -5001
▁오직 -5002
▁싱가포르 -5003
▁유형문화재 -5004
▁프로이센 -5005
▁김일성 -5006
▁말레이시아 -5007
▁테크 -5008
▁지나가 -5009
IA -5010
IV -5011
▁소득 -5012
▁무료 -5013
▁모터 -5014
렘 -5015
▁스탠 -5016
▁설득 -5017
▁퓨 -5018
▁넘어가 -5019
ab -5020
▁선임 -5021
▁마무리 -5022
▁일본어 -5023
▁결의 -5024
▁일기 -5025
▁심판 -5026
히로 -5027
▁1936 -5028
▁발탁 -5029
로그 -5030
미니 -5031
▁예방 -5032
▁84 -5033
▁정차 -5034
▁주석 -5035
▁쿠데 -5036
▁태조 -5037
▁심지어 -5038
▁레스 -5039
▁처분 -5040
▁수요 -5041
▁위대 -5042
▁이와 -5043
▁개성 -5044
▁사무실 -5045
▁필드 -5046
▁분노 -5047
▁700 -5048
▁일체 -5049
미르 -5050
▁이명 -5051
▁모바일 -5052
유산 -5053
▁루마니아 -5054
▁사도 -5055
▁억제 -5056
▁힙 -5057
▁자이언 -5058
▁세자 -5059
▁음악가 -5060
▁소멸 -5061
▁전동차 -5062
▁잭슨 -5063
▁후쿠오카 -5064
▁여우 -5065
▁뽑 -5066
▁사격 -5067
▁;, -5068
▁인원 -5069
ine -5070
▁Re -5071
▁베리 -5072
주군 -5073
▁사라 -5074
▁폭격 -5075
윈 -5076
▁리드 -5077
▁1910 -5078
▁개칭 -5079
▁궁전 -5080
▁쾌 -5081
▁기동 -5082
▁천주교 -5083
▁전북 -5084
드리히 -5085
▁어려움 -5086
▁쿠데타 -5087
▁스티븐 -5088
▁긍정 -5089
▁나쁘 -5090
▁전당 -5091
▁허리 -5092
▁알고리 -5093
▁창당 -5094
구리 -5095
▁크로스 -5096
란색 -5097
▁강릉 -5098
▁요금 -5099
▁남아프리카 -5100
▁김종 -5101
▁시나 -5102
▁학사 -5103
▁1957 -5104
독부 -5105
▁본명 -5106
▁몰리 -5107
구치 -5108
▁즉시 -5109
▁아메리칸 -5110
ew -5111
▁프리드리히 -5112
머리 -5113
▁챔피언십 -5114
우치 -5115
▁진영 -5116
옌 -5117
▁구입 -5118
▁조지아 -5119
▁97 -5120
▁유고 -5121
▁디아 -5122
▁히틀러 -5123
▁딘 -5124
▁막대 -5125
▁대체로 -5126
▁깊이 -5127
▁모자 -5128
▁타인 -5129
▁조상 -5130
▁메이지 -5131
▁음성 -5132
▁흔하 -5133
▁전송 -5134
▁1914 -5135
▁원주민 -5136
▁알고리즘 -5137
룬 -5138
▁휴대 -5139
베르트 -5140
▁자는 -5141
▁대책 -5142
▁=" -5143
▁이즈 -5144
▁야스 -5145
▁발명 -5146
▁스미스 -5147
▁69 -5148
▁수호 -5149
▁생태 -5150
▁테마 -5151
▁불안 -5152
▁콘텐츠 -5153
▁토론토 -5154
▁필수 -5155
▁검색 -5156
ue -5157
▁포켓몬 -5158
▁추방 -5159
▁연설 -5160
바로 -5161
▁주소 -5162
▁상속 -5163
▁동북 -5164
▁트레이 -5165
시스코 -5166
▁초점 -5167
▁광범 -5168
▁타이거 -5169
웰 -5170
▁담기 -5171
▁자국 -5172
▁뻐 -5173
▁1900 -5174
원경 -5175
▁92 -5176
▁인디언 -5177
▁덩 -5178
▁독재 -5179
▁대우 -5180
▁신도 -5181
▁진격 -5182
▁천만 -5183
▁미술관 -5184
▁사기 -5185
EC -5186
▁1938 -5187
▁세트 -5188
▁신장 -5189
▁펑 -5190
▁늘리 -5191
▁랄 -5192
▁코리아 -5193
▁세부 -5194
▁주니어 -5195
▁해발 -5196
폼 -5197
▁느낌 -5198
▁게르 -5199
ᅧ보 -5200
▁수업 -5201
▁배포 -5202
▁업적 -5203
▁핫 -5204
▁그래픽 -5205
▁사과 -5206
▁석사 -5207
▁불가리아 -5208
▁부위 -5209
▁재즈 -5210
▁이내 -5211
깔 -5212
▁렀다 -5213
래프트 -5214
▁클로 -5215
▁HD -5216
▁후임 -5217
▁01 -5218
▁급격 -5219
▁기다리 -5220
▁연락 -5221
폴 -5222
▁빚 -5223
▁서술 -5224
▁101 -5225
▁조차 -5226
▁최우 -5227
뱀 -5228
자키 -5229
▁부동 -5230
▁노트 -5231
▁잡히 -5232
▁라이프 -5233
▁선형 -5234
지사 -5235
▁유효 -5236
▁DVD -5237
▁데리 -5238
비히 -5239
▁연평 -5240
총리 -5241
▁오키 -5242
▁영양 -5243
▁스프링 -5244
총독부 -5245
▁조선총독부 -5246
▁닉 -5247
다랗 -5248
▁라틴어 -5249
▁브로 -5250
▁언덕 -5251
곽 -5252
리어 -5253
▁윙 -5254
▁풋 -5255
BM -5256
▁저자 -5257
▁상인 -5258
▁바르셀 -5259
▁마스터 -5260
▁시내버스 -5261
▁바르셀로나 -5262
▁똑 -5263
▁1918 -5264
▁려면 -5265
다니 -5266
▁{ -5267
▁끌어 -5268
산화 -5269
▁다스리 -5270
▁숨기 -5271
▁등장인물 -5272
▁퀘 -5273
케이 -5274
▁화려 -5275
▁암컷 -5276
▁안드 -5277
▁고시 -5278
▁1951 -5279
▁상주 -5280
▁라우 -5281
▁완벽 -5282
▁on -5283
토스 -5284
▁1932 -5285
▁각국 -5286
▁전술 -5287
▁소형 -5288
▁개량 -5289
▁설치류 -5290
▁유산 -5291
▁운항 -5292
▁고급 -5293
팩 -5294
▁미리 -5295
▁소비자 -5296
▁화석 -5297
제국 -5298
▁계곡 -5299
▁반사 -5300
▁게다가 -5301
▁정교회 -5302
무늬 -5303
▁국적 -5304
▁상수 -5305
▁물건 -5306
가시 -5307
▁일련 -5308
▁백인 -5309
▁미시 -5310
▁블록 -5311
▁짝 -5312
▁1937 -5313
▁방언 -5314
쩌 -5315
▁분교 -5316
▁실천 -5317
ect -5318
숨 -5319
▁늑 -5320
▁환승 -5321
▁갈리 -5322
▁대만 -5323
▁번지 -5324
▁내놓 -5325
▁언스 -5326
▁킬로 -5327
▁고위 -5328
▁추기 -5329
▁마틴 -5330
▁집회 -5331
▁사퇴 -5332
블리 -5333
▁영주 -5334
▁용인 -5335
켈 -5336
▁89 -5337
▁스탈 -5338
▁고양이 -5339
▁첩 -5340
▁만든 -5341
▁질문 -5342
▁손실 -5343
라노 -5344
▁흰색 -5345
사전 -5346
▁우크라 -5347
▁경비 -5348
▁타율 -5349
▁둥글 -5350
▁올스타 -5351
리그 -5352
▁파티 -5353
▁선포 -5354
▁182 -5355
▁고객 -5356
▁말리 -5357
▁1935 -5358
▁칭호 -5359
▁부친 -5360
▁싱어 -5361
▁진학 -5362
여금 -5363
▁중추 -5364
▁광범위 -5365
▁개별 -5366
▁엘리자 -5367
▁Be -5368
▁카리 -5369
▁마루 -5370
▁주체 -5371
▁로렌 -5372
▁차단 -5373
▁마르크스 -5374
▁사찰 -5375
▁이스트 -5376
▁화제 -5377
▁실업 -5378
민주당 -5379
▁비행기 -5380
▁후계자 -5381
▁경제학 -5382
▁이웃 -5383
▁커버 -5384
▁크레 -5385
▁재개 -5386
▁93 -5387
▁감각 -5388
▁격파 -5389
▁의문 -5390
▁프랑스군 -5391
▁갑자기 -5392
동생 -5393
▁느냐 -5394
▁남녀 -5395
바키아 -5396
스케 -5397
▁트레이드 -5398
▁수치 -5399
▁발간 -5400
▁항공사 -5401
▁푸르 -5402
▁뮌헨 -5403
▁구상 -5404
▁OS -5405
▁겉 -5406
▁회로 -5407
▁곡선 -5408
▁체험 -5409
▁쿼 -5410
▁찬성 -5411
▁면역 -5412
▁추기경 -5413
▁거짓 -5414
▁목성 -5415
▁잠수함 -5416
ore -5417
▁닥터 -5418
ᅫ지 -5419
▁기부 -5420
사이 -5421
▁당원 -5422
▁반지 -5423
▁수백 -5424
▁공신 -5425
▁양산 -5426
▁탄압 -5427
▁시모 -5428
▁분화 -5429
센트 -5430
▁FM -5431
▁성남 -5432
IN -5433
▁쿨 -5434
▁자산 -5435
▁항의 -5436
▁클래식 -5437
▁조기 -5438
▁촉진 -5439
▁아오 -5440
▁탕 -5441
▁최후 -5442
▁웃 -5443
▁따오 -5444
▁법학 -5445
▁허락 -5446
▁94 -5447
▁마주 -5448
슈타인 -5449
▁1933 -5450
▁구멍 -5451
▁티베트 -5452
▁립 -5453
▁지수 -5454
▁꾸준 -5455
▁크라 -5456
▁증언 -5457
▁랩 -5458
▁소화 -5459
▁물고기 -5460
▁이념 -5461
▁CP -5462
▁질서 -5463
▁시트 -5464
▁영원 -5465
▁상대식 -5466
▁개척 -5467
our -5468
▁뼈 -5469
▁유배 -5470
▁가속 -5471
▁1928 -5472
▁아티스트 -5473
겔 -5474
▁툴 -5475
▁태종 -5476
필드 -5477
▁자본주의 -5478
▁묶 -5479
▁보편 -5480
▁고조 -5481
▁동경 -5482
▁소문 -5483
▁습격 -5484
도사 -5485
▁팩 -5486
▁수십 -5487
▁덧붙이 -5488
ell -5489
▁1924 -5490
▁동화 -5491
▁영구 -5492
공사 -5493
▁화폐 -5494
▁극단 -5495
▁강남 -5496
▁대법원 -5497
▁개명 -5498
▁경사 -5499
▁사양 -5500
▁79 -5501
다수 -5502
▁메트로 -5503
▁소위 -5504
▁익스 -5505
▁칠레 -5506
▁펴 -5507
▁발레 -5508
▁축소 -5509
▁프랑스어 -5510
▁시신 -5511
▁원시 -5512
▁선호 -5513
▁운송 -5514
▁프로그래밍 -5515
▁소집 -5516
▁조항 -5517
▁탄핵 -5518
▁군부 -5519
▁혼자 -5520
▁용도 -5521
▁어둡 -5522
▁어요 -5523
end -5524
▁개장 -5525
벤트 -5526
슬링 -5527
▁전적 -5528
▁내세우 -5529
▁떼 -5530
▁기에 -5531
▁누스 -5532
▁회색 -5533
저스 -5534
▁지불 -5535
▁주일 -5536
▁정면 -5537
▁110 -5538
▁대칭 -5539
▁사막 -5540
▁콜롬 -5541
▁국토 -5542
▁09 -5543
▁멀티 -5544
▁간부 -5545
▁열매 -5546
▁동굴 -5547
▁아이디어 -5548
▁펀 -5549
▁러브 -5550
▁댄스 -5551
▁입대 -5552
▁04 -5553
스틱 -5554
▁충분히 -5555
▁전망 -5556
▁정류 -5557
▁토착 -5558
▁이행 -5559
ain -5560
▁무너지 -5561
▁멈 -5562
▁하여금 -5563
플레이 -5564
▁재능 -5565
▁의정부 -5566
▁김해 -5567
▁존스 -5568
▁종사 -5569
▁플로리 -5570
▁오버 -5571
ill -5572
▁안티 -5573
▁개찰 -5574
▁실내 -5575
▁세월 -5576
▁원자력 -5577
쿠스 -5578
▁가ᄇ -5579
코프 -5580
▁파키스탄 -5581
▁옵 -5582
▁스카이 -5583
▁프로토 -5584
들리 -5585
▁08 -5586
▁지나치 -5587
▁틈 -5588
▁하와 -5589
베리아 -5590
ers -5591
▁직무 -5592
▁170 -5593
▁틴 -5594
▁구름 -5595
▁토마스 -5596
▁고교 -5597
▁액체 -5598
▁형상 -5599
ID -5600
▁Co -5601
브라 -5602
▁레지 -5603
▁토대 -5604
▁페리 -5605
▁총재 -5606
▁합동 -5607
▁매치 -5608
▁대승 -5609
▁당신 -5610
▁정통 -5611
툰 -5612
▁초상 -5613
어도 -5614
▁세로 -5615
▁수컷 -5616
▁지중 -5617
▁83 -5618
▁메탈 -5619
▁재생 -5620
▁뻗 -5621
▁우에 -5622
▁쟁 -5623
▁다큐 -5624
려가 -5625
▁카스 -5626
티스 -5627
▁스톤 -5628
▁법안 -5629
▁가난 -5630
▁흔적 -5631
▁벼슬 -5632
ard -5633
넌 -5634
잎 -5635
이스 -5636
▁해제 -5637
▁장로 -5638
▁밀라 -5639
▁힙합 -5640
▁지표 -5641
▁반하 -5642
▁평면 -5643
▁베네치아 -5644
▁부리 -5645
▁이재 -5646
▁단순히 -5647
고속 -5648
▁부속 -5649
▁안쪽 -5650
데르 -5651
▁약화 -5652
▁아비 -5653
▁오류 -5654
▁주문 -5655
▁경북 -5656
과이 -5657
▁유아 -5658
▁사이드 -5659
▁그리하여 -5660
▁놀이 -5661
▁무용 -5662
른바 -5663
▁당대 -5664
▁진실 -5665
▁판정 -5666
▁자르 -5667
▁선로 -5668
▁스크린 -5669
▁안토니 -5670
▁아프가니 -5671
▁할아버지 -5672
값 -5673
▁자랑 -5674
▁함경 -5675
▁이른바 -5676
▁국방부 -5677
▁미르 -5678
▁배열 -5679
▁경찰서 -5680
▁호흡 -5681
▁이벤트 -5682
▁빵 -5683
▁요코하마 -5684
헬 -5685
AN -5686
같 -5687
▁부서 -5688
▁중동 -5689
▁ㅓㅆ -5690
▁갤 -5691
▁1934 -5692
▁엄격 -5693
▁느리 -5694
▁MS -5695
▁룸 -5696
즈니 -5697
▁엉 -5698
▁De -5699
▁포드 -5700
▁쌓이 -5701
▁성서 -5702
▁편의 -5703
▁글리 -5704
▁판타 -5705
▁혈액 -5706
▁넥 -5707
▁강도 -5708
▁서방 -5709
▁걷 -5710
▁주재 -5711
▁거스 -5712
뱅 -5713
유키 -5714
▁농장 -5715
아르 -5716
▁자매 -5717
▁동구 -5718
▁무력 -5719
▁불러 -5720
▁철거 -5721
▁메르 -5722
▁동메달 -5723
▁장례 -5724
▁유키 -5725
▁입구 -5726
▁남극 -5727
▁은메달 -5728
▁구로 -5729
▁구사 -5730
▁코어 -5731
▁추적 -5732
▁한성 -5733
묵 -5734
▁전제 -5735
어로 -5736
▁대사관 -5737
▁130 -5738
▁마감 -5739
▁경고 -5740
▁Me -5741
하이 -5742
▁보스턴 -5743
제르 -5744
▁대가 -5745
▁대동 -5746
▁대원 -5747
ᅮᆨ스 -5748
▁중지 -5749
▁토머스 -5750
▁접속 -5751
▁골키 -5752
▁광산 -5753
▁사카 -5754
▁맡기 -5755
▁손해 -5756
▁현존 -5757
▁늑대 -5758
▁인민군 -5759
▁주자 -5760
▁사망자 -5761
▁노동당 -5762
▁일단 -5763
▁아프가니스탄 -5764
▁도쿠가와 -5765
ne -5766
야스 -5767
▁구리 -5768
▁양국 -5769
▁찾아가 -5770
▁정확히 -5771
세대 -5772
▁정조 -5773
▁140 -5774
▁히어로 -5775
▁뱀 -5776
▁북미 -5777
▁근육 -5778
▁플레 -5779
▁본토 -5780
▁메달 -5781
▁분산 -5782
▁강요 -5783
▁알렉산더 -5784
▁Sh -5785
▁시계 -5786
▁밴 -5787
▁탓 -5788
▁비잔 -5789
▁매주 -5790
▁테르 -5791
▁동지 -5792
▁거점 -5793
▁거느리 -5794
▁가볍 -5795
▁봉기 -5796
▁멈추 -5797
▁칼리지 -5798
▁골키퍼 -5799
▁복사 -5800
▁중계 -5801
▁선물 -5802
▁레닌 -5803
▁th -5804
안군 -5805
OR -5806
▁새끼 -5807
렷 -5808
▁아기 -5809
▁내려가 -5810
짝 -5811
▁부처 -5812
워하 -5813
▁모노 -5814
공업 -5815
▁카페 -5816
▁쿠바 -5817
▁돔 -5818
▁곤충 -5819
▁중성 -5820
▁발전소 -5821
위대 -5822
▁항해 -5823
▁김구 -5824
▁철학자 -5825
▁재판소 -5826
돌프 -5827
▁화합물 -5828
베르크 -5829
▁부호 -5830
므로 -5831
▁투스 -5832
▁초청 -5833
▁안내 -5834
▁마저 -5835
▁cod -5836
▁1931 -5837
마이 -5838
▁맨체스터 -5839
▁타카 -5840
▁식량 -5841
▁체육관 -5842
사르 -5843
▁강등 -5844
▁멸종 -5845
▁쥬 -5846
▁랴 -5847
베리 -5848
▁특별히 -5849
▁계수 -5850
딕 -5851
▁토너 -5852
▁닐 -5853
테이 -5854
▁금강 -5855
▁훼 -5856
보내 -5857
▁간격 -5858
▁그리스어 -5859
all -5860
▁ST -5861
▁새벽 -5862
▁존슨 -5863
▁재임 -5864
▁일곱 -5865
크래프트 -5866
▁클래스 -5867
켄 -5868
▁햄 -5869
▁위안 -5870
ᅪᆫ -5871
▁대다수 -5872
▁버지 -5873
▁미스 -5874
▁건너가 -5875
▁로즈 -5876
▁더블 -5877
▁오염 -5878
▁생애 -5879
▁야당 -5880
▁페이스 -5881
AM -5882
▁그래프 -5883
▁스탈린 -5884
▁히로시마 -5885
▁목포 -5886
▁독점 -5887
▁세금 -5888
▁종전 -5889
▁증권 -5890
테스 -5891
▁리아 -5892
▁부드 -5893
▁농촌 -5894
트니 -5895
▁르네 -5896
▁타원 -5897
▁An -5898
▁연호 -5899
▁파울 -5900
뤼 -5901
▁해협 -5902
▁명시 -5903
나르 -5904
▁휘하 -5905
▁유력 -5906
▁관계자 -5907
▁하사 -5908
키스 -5909
▁미카 -5910
▁석방 -5911
▁달라지 -5912
▁지칭 -5913
▁176 -5914
▁기르 -5915
▁기병 -5916
▁조문 -5917
▁숙종 -5918
▁진동 -5919
▁얀 -5920
▁무늬 -5921
▁이정 -5922
▁꾼 -5923
▁하버 -5924
▁알프 -5925
ang -5926
▁톨 -5927
▁뚜렷 -5928
▁부품 -5929
▁코너 -5930
▁펄 -5931
▁물리치 -5932
▁교향곡 -5933
쇠 -5934
▁특허 -5935
▁1921 -5936
▁기생 -5937
성기 -5938
▁캠프 -5939
▁필라 -5940
▁홀로 -5941
▁커다랗 -5942
수량 -5943
▁공룡 -5944
▁y -5945
▁원조 -5946
▁닮 -5947
▁소요 -5948
▁250 -5949
▁1929 -5950
▁가구 -5951
▁05 -5952
널드 -5953
▁운동가 -5954
▁도메 -5955
▁타점 -5956
▁갤럭 -5957
▁유발 -5958
▁감옥 -5959
▁장점 -5960
▁겸하 -5961
▁좌파 -5962
▁비중 -5963
둥이 -5964
▁스테이션 -5965
▁교도 -5966
▁토너먼트 -5967
▁그러므로 -5968
▁라트 -5969
▁집필 -5970
레나 -5971
▁릴 -5972
▁관객 -5973
▁연평균 -5974
▁찾아오 -5975
▁트랜스 -5976
▁부드럽 -5977
ᆺ지 -5978
▁착용 -5979
▁자유주의 -5980
▁역전 -5981
▁마그 -5982
팀 -5983
▁트래 -5984
▁니콜라 -5985
ss -5986
▁오케 -5987
▁대변 -5988
▁일레 -5989
▁갤럭시 -5990
투아 -5991
▁고고 -5992
▁도망치 -5993
라이나 -5994
▁인터페이스 -5995
▁수비수 -5996
느님 -5997
▁일환 -5998
▁훌륭 -5999
▁지휘관 -6000
▁부작 -6001
▁입사 -6002
▁동성애 -6003
▁심리학 -6004
▁무겁 -6005
▁과일 -6006
▁비즈 -6007
▁하느님 -6008
▁1923 -6009
▁1925 -6010
▁수반 -6011
▁도호 -6012
▁삼각 -6013
무게 -6014
▁몸무게 -6015
▁빗 -6016
▁윤리 -6017
▁유대인 -6018
▁단장 -6019
▁자이언츠 -6020
멜 -6021
▁펠리 -6022
▁스트라이 -6023
▁합리 -6024
▁강전 -6025
▁공국 -6026
▁아이스 -6027
▁다다 -6028
레이크 -6029
▁플로리다 -6030
틸 -6031
▁모로 -6032
▁칼리 -6033
▁사관 -6034
▁곰 -6035
ity -6036
미아 -6037
타카 -6038
▁단선 -6039
▁목숨 -6040
베이스 -6041
산물 -6042
▁올라오 -6043
▁추대 -6044
▁디오 -6045
▁관리자 -6046
가스 -6047
▁롬 -6048
▁리ᄂ -6049
▁후퇴 -6050
▁칙 -6051
▁할리 -6052
▁압축 -6053
▁07 -6054
시스트 -6055
▁발렌 -6056
▁매니 -6057
▁성명 -6058
▁북아메리카 -6059
▁유비 -6060
▁북서쪽 -6061
▁기갑 -6062
▁미분 -6063
▁남아메리카 -6064
▁첫째 -6065
▁동반 -6066
ᆺ수 -6067
▁사당 -6068
▁대결 -6069
▁웨일스 -6070
▁키스 -6071
▁캘리포니아주 -6072
▁장갑 -6073
▁첸 -6074
▁조화 -6075
▁연상 -6076
▁리어 -6077
▁AC -6078
▁협약 -6079
▁SC -6080
▁불화 -6081
▁쯤 -6082
▁대한제국 -6083
▁살아 -6084
▁가끔 -6085
▁나이트 -6086
▁북극 -6087
▁약탈 -6088
▁딱 -6089
▁잠재 -6090
▁연계 -6091
▁유성 -6092
▁박근 -6093
▁건담 -6094
붕 -6095
▁틱 -6096
대문 -6097
▁폭풍 -6098
▁주사 -6099
▁페루 -6100
▁섬유 -6101
▁codice -6102
▁임신 -6103
▁벨라 -6104
추어 -6105
▁흘 -6106
▁사거리 -6107
▁덕분 -6108
▁공세 -6109
클린 -6110
▁고분 -6111
▁추락 -6112
▁풍속 -6113
▁프로세서 -6114
▁우드 -6115
▁모험 -6116
▁요원 -6117
▁향토 -6118
▁기관차 -6119
▁박스 -6120
▁성직자 -6121
낙 -6122
▁진흥 -6123
▁필름 -6124
▁평론가 -6125
템 -6126
▁시게 -6127
▁다이묘 -6128
▁민속 -6129
▁는다고 -6130
▁극복 -6131
▁161 -6132
▁갱 -6133
▁하와이 -6134
행성 -6135
스팅 -6136
▁수직 -6137
▁영감 -6138
▁삼각형 -6139
▁이수 -6140
즈키 -6141
▁종로 -6142
▁의석 -6143
▁중립 -6144
ff -6145
▁도마뱀 -6146
▁명사 -6147
▁동인 -6148
▁원장 -6149
카스 -6150
▁게리 -6151
▁고서 -6152
▁서인 -6153
▁김대중 -6154
▁모음 -6155
▁망원경 -6156
▁빅토리아 -6157
▁타입 -6158
▁EP -6159
맞 -6160
▁윤치 -6161
▁청동 -6162
▁둔 -6163
▁de -6164
▁이조 -6165
▁삭제 -6166
일본 -6167
▁꼽히 -6168
▁문재 -6169
▁저널 -6170
▁리스트 -6171
▁살아남 -6172
▁레벨 -6173
▁그랜드 -6174
▁준우 -6175
▁문인 -6176
▁영광 -6177
▁스와 -6178
▁성씨 -6179
▁복구 -6180
▁175 -6181
런스 -6182
애나 -6183
▁선교사 -6184
▁근로 -6185
▁카자 -6186
▁일자 -6187
▁엽 -6188
▁중구 -6189
▁레이블 -6190
▁버지니아 -6191
▁인천광역시 -6192
▁파운드 -6193
▁1922 -6194
▁규슈 -6195
▁화가 -6196
▁쉐 -6197
킷 -6198
▁교차로 -6199
▁발휘 -6200
▁똑같 -6201
▁1912 -6202
타운 -6203
▁아과 -6204
▁제약 -6205
▁My -6206
▁죠 -6207
▁유가 -6208
▁변신 -6209
▁자치구 -6210
▁모래 -6211
▁표지 -6212
▁바오 -6213
▁영혼 -6214
▁진술 -6215
▁루트비히 -6216
▁수장 -6217
▁가톨릭교회 -6218
▁서적 -6219
▁문법 -6220
▁교과 -6221
▁청하 -6222
▁동일본 -6223
돌리 -6224
▁직선 -6225
▁프레임 -6226
오리 -6227
프란 -6228
▁글씨 -6229
▁164 -6230
▁부유 -6231
▁코트 -6232
양군 -6233
▁황태 -6234
▁네이션 -6235
▁평생 -6236
▁유역 -6237
▁포유 -6238
▁중시 -6239
▁결심 -6240
▁리눅스 -6241
▁여인 -6242
▁사토 -6243
▁투구 -6244
▁최상 -6245
▁목조 -6246
▁캡 -6247
▁무릎 -6248
▁수상자 -6249
▁노비 -6250
▁돌파 -6251
▁엘리자베스 -6252
▁Go -6253
▁때로 -6254
▁피트 -6255
▁웰 -6256
▁다투 -6257
▁트럼 -6258
ong -6259
▁라마 -6260
라이터 -6261
▁"" -6262
멘트 -6263
▁주류 -6264
▁고안 -6265
up -6266
▁토벌 -6267
▁Love -6268
▁꾸미 -6269
▁리치 -6270
▁유용 -6271
▁압도 -6272
▁소설가 -6273
▁공격수 -6274
야수 -6275
▁우루 -6276
메니아 -6277
▁지연 -6278
▁구미 -6279
▁샤를 -6280
▁설비 -6281
▁없애 -6282
▁파트너 -6283
▁06 -6284
▁무인 -6285
▁블라디 -6286
▁시에 -6287
▁1908 -6288
▁KT -6289
▁다양체 -6290
▁마카 -6291
▁토르 -6292
▁각자 -6293
▁왕가 -6294
▁건축물 -6295
▁장사 -6296
▁경유 -6297
▁1906 -6298
▁모니 -6299
▁부수 -6300
▁봉사 -6301
보살 -6302
▁부탁 -6303
▁영조 -6304
▁보통학교 -6305
▁음모 -6306
▁퍼시 -6307
▁직위 -6308
▁랭킹 -6309
슬로 -6310
▁베타 -6311
▁히가시 -6312
▁아마추어 -6313
▁남동쪽 -6314
▁스케이팅 -6315
▁사촌 -6316
첨 -6317
멘터리 -6318
▁연령 -6319
▁아르메니아 -6320
ip -6321
▁돼지 -6322
▁뱅크 -6323
▁지역구 -6324
▁패턴 -6325
▁모듀 -6326
▁무산 -6327
▁박근혜 -6328
▁JR -6329
▁국민당 -6330
올리 -6331
▁연소 -6332
▁지중해 -6333
IS -6334
이너 -6335
▁크림 -6336
▁아틀 -6337
▁어워드 -6338
▁납치 -6339
▁이날 -6340
▁태자 -6341
▁SM -6342
ld -6343
둘 -6344
니즘 -6345
▁03 -6346
도니아 -6347
▁도어 -6348
▁앨런 -6349
▁철저 -6350
▁1927 -6351
▁커피 -6352
▁1917 -6353
▁석조 -6354
▁자책 -6355
▁정자 -6356
▁MV -6357
▁인력 -6358
▁북동쪽 -6359
▁삽입 -6360
OM -6361
▁통로 -6362
▁굿 -6363
▁이리 -6364
▁채권 -6365
▁안양 -6366
▁준우승 -6367
▁우르 -6368
▁간섭 -6369
ant -6370
▁이토 -6371
▁호르 -6372
레드 -6373
마치 -6374
▁대조 -6375
아리 -6376
▁럭 -6377
▁아가 -6378
▁침해 -6379
▁전향 -6380
▁BBC -6381
사관 -6382
▁이종 -6383
▁인자 -6384
▁시아 -6385
▁엑 -6386
▁1907 -6387
▁산악 -6388
▁창간 -6389
톱 -6390
▁상처 -6391
▁에스파 -6392
▁다큐멘터리 -6393
▁탐험 -6394
▁교역 -6395
▁배급 -6396
▁우크라이나 -6397
영상 -6398
▁대행 -6399
▁명문 -6400
▁굳 -6401
▁조명 -6402
▁적어도 -6403
▁외계 -6404
▁시상식 -6405
▁송라이터 -6406
슬라 -6407
▁적응 -6408
랭크 -6409
▁전작 -6410
▁제주도 -6411
▁1926 -6412
태우 -6413
▁과도 -6414
▁문하 -6415
▁밀라노 -6416
av -6417
▁매각 -6418
▁자전거 -6419
부사 -6420
▁흙 -6421
▁육성 -6422
▁대교 -6423
▁유인 -6424
▁의병 -6425
드라 -6426
▁과장 -6427
▁노무 -6428
다이라 -6429
▁노인 -6430
▁항목 -6431
▁지름 -6432
▁전승 -6433
▁보좌 -6434
▁비틀 -6435
▁산타 -6436
▁세조 -6437
▁패러 -6438
▁포크 -6439
▁He -6440
생물 -6441
▁무선 -6442
▁묘지 -6443
▁시집 -6444
▁|| -6445
▁싫 -6446
꺼 -6447
▁우익 -6448
▁연고지 -6449
ED -6450
▁수지 -6451
▁디즈니 -6452
▁출현 -6453
▁산지 -6454
▁해설 -6455
▁NHK -6456
▁표본 -6457
▁왕립 -6458
▁동아시아 -6459
▁동사 -6460
se -6461
▁SN -6462
몬드 -6463
▁체인 -6464
ind -6465
▁호조 -6466
▁자문 -6467
▁정서 -6468
▁상하이 -6469
찾 -6470
나카 -6471
▁협의회 -6472
▁168 -6473
▁쇠퇴 -6474
텐도 -6475
▁별로 -6476
▁닌텐도 -6477
▁기종 -6478
▁색상 -6479
▁비전 -6480
▁문화유산 -6481
ame -6482
▁단행 -6483
▁상영 -6484
▁종족 -6485
페이지 -6486
▁내장 -6487
▁하천 -6488
▁합계 -6489
▁몬테 -6490
▁레이다 -6491
▁플루 -6492
▁PD -6493
▁베토 -6494
▁오리지 -6495
▁탑승 -6496
AC -6497
▁166 -6498
텍 -6499
▁폐기 -6500
▁옹호 -6501
▁독일어 -6502
▁데이터베이스 -6503
▁마니 -6504
▁커지 -6505
▁시외 -6506
▁수감 -6507
▁배상 -6508
▁역과 -6509
▁버그 -6510
▁콩고 -6511
튜브 -6512
▁사신 -6513
▁유입 -6514
▁1905 -6515
세스 -6516
▁사료 -6517
▁정사 -6518
▁정류장 -6519
▁제후 -6520
렛 -6521
▁Sp -6522
▁151 -6523
▁162 -6524
▁험 -6525
▁기름 -6526
무네 -6527
▁부시 -6528
▁에릭 -6529
▁참조 -6530
ry -6531
▁유튜브 -6532
▁머물 -6533
▁진도 -6534
▁기하학 -6535
낭 -6536
▁오로 -6537
▁비단 -6538
▁유신 -6539
▁소니 -6540
▁크리스토 -6541
브스 -6542
▁묻히 -6543
▁가쓰 -6544
▁지바 -6545
▁158 -6546
▁관중 -6547
▁홈페이지 -6548
▁주말 -6549
▁수명 -6550
▁엄마 -6551
▁도리 -6552
▁자바 -6553
▁물려 -6554
ith -6555
▁사리 -6556
▁노조 -6557
ES -6558
▁드래곤 -6559
▁비평가 -6560
ᆼ장 -6561
엘라 -6562
▁증기 -6563
▁뷔 -6564
어트 -6565
▁트럭 -6566
▁스파이 -6567
ort -6568
총장 -6569
▁아베 -6570
▁주파 -6571
▁원산 -6572
▁진지 -6573
▁호남 -6574
▁남서쪽 -6575
▁02 -6576
▁최우수 -6577
▁예외 -6578
▁품질 -6579
▁상소 -6580
클레 -6581
페인 -6582
▁커뮤니티 -6583
▁아크 -6584
ok -6585
▁베이스볼 -6586
▁특급 -6587
▁꾸준히 -6588
▁부동산 -6589
티움 -6590
▁가미 -6591
▁동치 -6592
▁좌익 -6593
▁광역 -6594
▁색깔 -6595
▁스승 -6596
▁민족주의 -6597
▁주거 -6598
려나 -6599
▁향년 -6600
▁구마 -6601
▁스페셜 -6602
▁기념물 -6603
▁릭 -6604
▁림 -6605
▁야생 -6606
▁수천 -6607
▁원로 -6608
▁헤드 -6609
▁라이온 -6610
스티벌 -6611
▁문과 -6612
▁급속 -6613
▁반환 -6614
▁조선인 -6615
▁모집 -6616
▁안보 -6617
▁유고슬 -6618
▁유고슬라비아 -6619
▁목격 -6620
▁입문 -6621
▁페스티벌 -6622
▁요미 -6623
▁셋째 -6624
▁나폴리 -6625
프란시스코 -6626
벳 -6627
▁괘 -6628
▁앱 -6629
▁묘소 -6630
▁수수 -6631
▁리듬 -6632
▁스피드 -6633
▁아무런 -6634
▁베토벤 -6635
▁샌프란시스코 -6636
▁기점 -6637
▁디자이너 -6638
▁조르 -6639
▁석탑 -6640
해군 -6641
▁도심 -6642
▁토니 -6643
▁레이스 -6644
지마 -6645
▁마스 -6646
▁바라보 -6647
▁옛날 -6648
▁라이벌 -6649
▁흥미 -6650
▁선진 -6651
▁유닛 -6652
▁이오 -6653
▁점성 -6654
▁콜롬비아 -6655
▁겨우 -6656
▁재무 -6657
▁렌즈 -6658
▁선제 -6659
▁안드로이드 -6660
▁마라 -6661
▁와카 -6662
▁신비 -6663
▁악장 -6664
▁오리지널 -6665
▁대안 -6666
▁단층 -6667
▁동영상 -6668
▁주의자 -6669
▁마쓰다이라 -6670
▁사직 -6671
▁운반 -6672
▁케이블 -6673
▁부자 -6674
▁무관 -6675
▁쿠르 -6676
조선 -6677
▁뚫 -6678
▁아울 -6679
▁ㄴ다고 -6680
▁프랜 -6681
▁기요 -6682
▁곧바로 -6683
▁출판사 -6684
▁Un -6685
플리케이션 -6686
▁1904 -6687
▁알라 -6688
▁마케도니아 -6689
▁연금 -6690
▁개수 -6691
▁주한 -6692
▁급행 -6693
▁브라이언 -6694
▁관장 -6695
▁연주자 -6696
▁적색 -6697
맷 -6698
▁미만 -6699
▁서경 -6700
▁동전 -6701
▁운명 -6702
▁칩 -6703
▁빨리 -6704
▁계단 -6705
ord -6706
▁기용 -6707
▁상무 -6708
▁출산 -6709
▁받침 -6710
잡히 -6711
▁왕족 -6712
▁서북 -6713
▁판타지 -6714
이즈 -6715
▁165 -6716
▁복제 -6717
▁154 -6718
▁에티 -6719
▁협의 -6720
▁내륙 -6721
▁일행 -6722
ob -6723
▁의거 -6724
qu -6725
▁되찾 -6726
▁센트럴 -6727
프라 -6728
▁인치 -6729
▁Se -6730
언스 -6731
▁자사 -6732
▁평소 -6733
▁도메인 -6734
▁부패 -6735
▁정교 -6736
▁파생 -6737
▁직장 -6738
▁지휘자 -6739
▁방안 -6740
▁무신 -6741
▁스펙트 -6742
모니 -6743
회의 -6744
▁분배 -6745
▁오디션 -6746
▁Wh -6747
▁사르 -6748
루살 -6749
▁파나 -6750
레아 -6751
우옌 -6752
▁수면 -6753
ate -6754
▁사로 -6755
▁폭스 -6756
▁십자군 -6757
루살렘 -6758
쾌 -6759
▁뢰 -6760
▁룩 -6761
▁긴급 -6762
▁오타 -6763
▁저지르 -6764
▁163 -6765
▁실점 -6766
라미 -6767
▁156 -6768
▁SF -6769
▁타마 -6770
▁예언 -6771
▁호환 -6772
▁입증 -6773
▁링크 -6774
▁신하 -6775
▁비즈니스 -6776
▁연애 -6777
▁용산 -6778
▁여동생 -6779
▁리투아 -6780
▁예술가 -6781
▁리투아니아 -6782
▁스펙트럼 -6783
▁용기 -6784
▁그랑 -6785
▁신임 -6786
터스 -6787
▁가게 -6788
▁배제 -6789
▁스쿨 -6790
PS -6791
카르 -6792
▁교전 -6793
▁권고 -6794
▁한나라 -6795
▁스테이지 -6796
▁아호 -6797
문학 -6798
콥 -6799
▁기재 -6800
▁사면 -6801
▁합작 -6802
▁167 -6803
▁날리 -6804
▁어항 -6805
▁좌석 -6806
▁한나라당 -6807
쳐지 -6808
▁댄 -6809
▁사범 -6810
디스 -6811
▁초래 -6812
▁콘스탄티노 -6813
▁겹치 -6814
▁입히 -6815
▁항일 -6816
▁단종 -6817
▁스마트폰 -6818
길이 -6819
▁크리스티 -6820
ᆯ렌 -6821
▁900 -6822
탱 -6823
▁자회사 -6824
▁회원국 -6825
▁예루살렘 -6826
IC -6827
▁DJ -6828
▁조류 -6829
▁한양 -6830
▁혜성 -6831
▁상임 -6832
ᆷ치 -6833
▁무라 -6834
▁신용 -6835
ᅥᆸ질 -6836
▁분지 -6837
▁진상 -6838
▁무슬리 -6839
▁시달리 -6840
▁주립 -6841
▁당사자 -6842
▁선사 -6843
▁장편 -6844
▁여신 -6845
▁충남 -6846
▁정계 -6847
▁포맷 -6848
즐 -6849
▁무슬림 -6850
▁착륙 -6851
▁피렌 -6852
▁AM -6853
▁끼리 -6854
▁템 -6855
경기 -6856
▁모순 -6857
▁아인 -6858
▁챌린 -6859
▁번식 -6860
▁서브 -6861
▁일요일 -6862
▁AS -6863
▁샹 -6864
▁가득 -6865
▁지장 -6866
교육 -6867
▁139 -6868
랑이 -6869
▁오다 -6870
▁유하 -6871
▁브라우 -6872
▁낱 -6873
▁게시 -6874
커스 -6875
럼비아 -6876
▁니스 -6877
▁미네 -6878
▁농도 -6879
▁전염 -6880
잡이 -6881
▁애국 -6882
뜻 -6883
식물 -6884
▁이지 -6885
▁지주 -6886
▁팅 -6887
▁하트 -6888
▁발효 -6889
▁번주 -6890
▁최신 -6891
▁킬로미터 -6892
▁WW -6893
려오 -6894
▁시스 -6895
▁바이올린 -6896
▁성종 -6897
▁하드웨어 -6898
▁미얀 -6899
▁용량 -6900
지르 -6901
ET -6902
ast -6903
▁련 -6904
킨스 -6905
▁몸길이 -6906
▁145 -6907
▁개발자 -6908
▁요크 -6909
▁깔 -6910
▁미나미 -6911
헤이 -6912
부인 -6913
▁밀접 -6914
▁친정 -6915
예프 -6916
팽 -6917
▁고립 -6918
▁얼음 -6919
▁주머니 -6920
▁UN -6921
▁바그 -6922
▁지질 -6923
▁사이클 -6924
▁미하 -6925
▁구장 -6926
▁서울시 -6927
▁ᆯ수록 -6928
▁스트리트 -6929
▁응우옌 -6930
뼈 -6931
▁식사 -6932
▁예능 -6933
▁조국 -6934
▁차관 -6935
▁임상 -6936
▁기타리스트 -6937
▁중국어 -6938
▁었었 -6939
DP -6940
▁우지 -6941
▁대령 -6942
▁마일 -6943
토미 -6944
▁쇼군 -6945
▁훼손 -6946
▁융합 -6947
▁진나라 -6948
▁브래 -6949
▁부통령 -6950
▁관광객 -6951
▁피렌체 -6952
▁시체 -6953
▁교섭 -6954
▁전이 -6955
▁압박 -6956
슘 -6957
▁알바니아 -6958
▁뜨겁 -6959
▁디비전 -6960
▁여더 -6961
▁바티 -6962
▁공과 -6963
▁발족 -6964
▁씌 -6965
▁월간 -6966
if -6967
▁고개 -6968
데이트 -6969
수아 -6970
▁마리오 -6971
▁DS -6972
어리 -6973
▁쿠스 -6974
▁기압 -6975
▁바시 -6976
▁대단 -6977
▁성공회 -6978
▁업데이트 -6979
레이터 -6980
▁오케스트라 -6981
ack -6982
▁전지 -6983
▁해인 -6984
▁사사 -6985
▁행정부 -6986
▁소나 -6987
▁강연 -6988
▁투명 -6989
▁1896 -6990
▁스콧 -6991
▁전류 -6992
▁학파 -6993
▁사바 -6994
▁아세 -6995
ure -6996
▁정벌 -6997
▁배정 -6998
▁애플리케이션 -6999
닐 -7000
▁기아 -7001
▁부도 -7002
▁노무현 -7003
▁과제 -7004
▁부흥 -7005
▁공용 -7006
▁전임 -7007
▁쾨 -7008
랑크 -7009
▁이명박 -7010
▁거스르 -7011
▁자마 -7012
▁선두 -7013
▁IP -7014
▁보전 -7015
▁피에르 -7016
▁제네 -7017
▁하노 -7018
▁테일러 -7019
▁비잔티움 -7020
ive -7021
▁수학자 -7022
즌 -7023
▁야기 -7024
▁파동 -7025
▁친선 -7026
▁마케팅 -7027
▁귀환 -7028
▁여덟 -7029
▁공전 -7030
IT -7031
▁보드 -7032
▁서일본 -7033
▁MVP -7034
▁잊 -7035
▁측근 -7036
▁둘러싸이 -7037
▁마운 -7038
▁중독 -7039
iv -7040
▁착수 -7041
▁소송법 -7042
로디 -7043
▁위주 -7044
▁이에 -7045
▁HIV -7046
▁규명 -7047
▁와중 -7048
▁간접 -7049
▁중도 -7050
▁시드니 -7051
▁오렌 -7052
▁스타크래프트 -7053
ock -7054
▁쑤 -7055
▁연수 -7056
▁김동 -7057
▁메디 -7058
란트 -7059
▁로빈 -7060
▁게이트 -7061
▁충성 -7062
▁형법 -7063
▁마산 -7064
옷 -7065
▁짙 -7066
▁턴 -7067
악기 -7068
운서 -7069
케인 -7070
▁규격 -7071
ᅥᆼ이 -7072
▁쇼핑 -7073
▁152 -7074
▁우즈 -7075
▁참판 -7076
▁관찰사 -7077
▁아나운서 -7078
▁수산 -7079
▁성벽 -7080
▁5000 -7081
▁밀양 -7082
▁경선 -7083
▁정찰 -7084
▁157 -7085
▁174 -7086
균관 -7087
▁젖 -7088
▁맥스 -7089
▁관습 -7090
▁시라 -7091
▁차체 -7092
ck -7093
▁서열 -7094
▁출구 -7095
어내 -7096
▁두르 -7097
▁금성 -7098
▁Ar -7099
▁복소 -7100
▁수신 -7101
▁완화 -7102
▁신칸 -7103
▁프로세스 -7104
▁번뇌 -7105
▁백신 -7106
▁장성 -7107
▁권유 -7108
▁좌표 -7109
▁점유 -7110
▁요미우리 -7111
가루 -7112
▁준공 -7113
▁살아가 -7114
▁한강 -7115
원숭이 -7116
루미 -7117
▁사명 -7118
주곡 -7119
▁사인 -7120
▁전문학교 -7121
▁루수 -7122
▁지각 -7123
▁하버드 -7124
▁카나 -7125
▁j -7126
▁곁 -7127
▁메가 -7128
▁노동조합 -7129
▁꼴 -7130
▁이이 -7131
▁제의 -7132
▁거인 -7133
▁피난 -7134
▁이노 -7135
▁석탄 -7136
▁고사 -7137
▁테오 -7138
▁책봉 -7139
▁조용 -7140
▁구동 -7141
밥 -7142
▁세례 -7143
꼴 -7144
전자 -7145
산군 -7146
노리 -7147
▁실용 -7148
▁한화 -7149
자와 -7150
외선 -7151
▁다이아 -7152
▁염색 -7153
▁할당 -7154
▁여의 -7155
▁미스터 -7156
▁존경 -7157
▁가즈 -7158
▁장인 -7159
▁카시 -7160
결승 -7161
▁행진 -7162
카드 -7163
▁전장 -7164
▁리오 -7165
▁자손 -7166
▁검증 -7167
콕 -7168
▁146 -7169
▁이슈 -7170
▁담배 -7171
▁니아 -7172
12 -7173
▁국어 -7174
▁제휴 -7175
▁취약 -7176
▁MP -7177
▁힘쓰 -7178
▁신칸센 -7179
▁관현 -7180
타리 -7181
▁105 -7182
▁뿔 -7183
끄럽 -7184
▁성균관 -7185
▁125 -7186
트랙 -7187
츠키 -7188
▁구제 -7189
▁자면 -7190
▁신전 -7191
▁히라 -7192
하르트 -7193
▁해전 -7194
▁통행 -7195
▁플라이 -7196
▁여수 -7197
▁소총 -7198
▁승차 -7199
▁인과 -7200
▁이순 -7201
▁착공 -7202
▁1911 -7203
ime -7204
▁재미 -7205
▁남인 -7206
▁박영 -7207
▁변동 -7208
▁빌헬 -7209
▁식당 -7210
수수 -7211
▁여래 -7212
▁프로토콜 -7213
▁쳐 -7214
▁소관 -7215
▁소금 -7216
고속도로 -7217
▁나열 -7218
▁강사 -7219
로프 -7220
▁저기 -7221
▁전진 -7222
▁급진 -7223
▁따위 -7224
▁디젤 -7225
▁소닉 -7226
▁남양 -7227
악단 -7228
▁얼마나 -7229
▁디비 -7230
▁연루 -7231
니스트 -7232
혁명 -7233
▁윌슨 -7234
▁1500 -7235
▁로프 -7236
▁회수 -7237
▁이복 -7238
▁동남아시아 -7239
▁소재지 -7240
▁시외버스 -7241
▁호평 -7242
▁적히 -7243
▁청와 -7244
▁상상 -7245
▁인텔 -7246
▁노드 -7247
▁창업 -7248
▁루터 -7249
▁기울이 -7250
▁청사 -7251
▁해임 -7252
▁원나라 -7253
▁상류 -7254
▁패전 -7255
▁몰락 -7256
포스 -7257
팩트 -7258
▁3000 -7259
▁하마 -7260
▁서독 -7261
▁사지 -7262
▁외무 -7263
▁ISO -7264
▁김용 -7265
▁Le -7266
▁판매량 -7267
one -7268
▁마천 -7269
▁자율 -7270
▁증후 -7271
▁청와대 -7272
▁천문학 -7273
▁153 -7274
ᆯ로지 -7275
▁전두 -7276
▁PS -7277
▁우정 -7278
▁유출 -7279
▁민국 -7280
▁로고 -7281
▁흩 -7282
대군 -7283
▁연구자 -7284
서양 -7285
▁순천 -7286
▁항공모 -7287
▁끈 -7288
▁동위 -7289
▁퇴각 -7290
▁강수량 -7291
▁얇 -7292
▁석가 -7293
▁성전 -7294
▁술탄 -7295
▁배구 -7296
▁무효 -7297
▁저택 -7298
▁흥행 -7299
▁들리 -7300
▁응답 -7301
▁Pro -7302
▁마찰 -7303
▁아울러 -7304
▁쇄 -7305
▁토리 -7306
▁비극 -7307
▁희극 -7308
▁자책점 -7309
ML -7310
▁킨 -7311
▁충족 -7312
▁악마 -7313
▁과목 -7314
▁매출 -7315
▁달아나 -7316
릇 -7317
제프 -7318
▁고원 -7319
▁적대 -7320
라트 -7321
▁고베 -7322
▁두드 -7323
▁옌 -7324
▁갈라지 -7325
기니 -7326
▁마오 -7327
▁지분 -7328
▁믿음 -7329
▁각본가 -7330
▁쏟 -7331
▁매사 -7332
▁개업 -7333
▁관념 -7334
▁단원 -7335
▁유언 -7336
▁기장 -7337
▁출입구 -7338
일드 -7339
▁나미 -7340
▁매개 -7341
▁소지 -7342
문관 -7343
▁공자 -7344
▁조언 -7345
AP -7346
델피아 -7347
▁문제점 -7348
▁필라델피아 -7349
▁카자흐 -7350
▁일렉트 -7351
▁중점 -7352
▁파스 -7353
▁곳곳 -7354
▁찾아보 -7355
▁편곡 -7356
▁103 -7357
▁시립 -7358
▁환원 -7359
▁예배 -7360
▁우주선 -7361
▁아즈 -7362
▁지목 -7363
▁천사 -7364
▁연인 -7365
▁비아 -7366
즈카 -7367
▁매기 -7368
▁휩 -7369
▁성모 -7370
▁보잉 -7371
▁겸임 -7372
▁나고 -7373
▁155 -7374
▁굵 -7375
▁피스 -7376
▁선원 -7377
▁포장 -7378
▁앞면 -7379
▁주파수 -7380
▁나리 -7381
▁자고 -7382
▁중장 -7383
▁미얀마 -7384
▁정치가 -7385
▁내내 -7386
▁사가 -7387
▁취재 -7388
▁오렌지 -7389
▁가라 -7390
▁이글 -7391
▁아니하 -7392
▁환상 -7393
▁닭 -7394
▁해역 -7395
▁증후군 -7396
te -7397
토시 -7398
▁허브 -7399
▁힌두 -7400
OC -7401
▁삿 -7402
▁시치 -7403
▁유해 -7404
▁제트 -7405
동물 -7406
▁빌헬름 -7407
▁최적 -7408
▁특유 -7409
▁지지자 -7410
▁독립운동가 -7411
▁떠오르 -7412
▁비틀즈 -7413
노프 -7414
▁공인 -7415
▁친척 -7416
▁서서 -7417
▁MC -7418
▁진리 -7419
▁폴리스 -7420
▁북동부 -7421
마사 -7422
▁회계 -7423
▁별자리 -7424
▁주권 -7425
▁근접 -7426
산면 -7427
▁우편 -7428
▁협동 -7429
▁오클 -7430
▁점프 -7431
▁법령 -7432
▁인형 -7433
▁밭 -7434
▁토크 -7435
▁이원 -7436
▁중종 -7437
나와 -7438
▁108 -7439
▁포수 -7440
▁하우 -7441
펴보 -7442
▁살펴보 -7443
▁참가자 -7444
닫 -7445
▁얘 -7446
▁버튼 -7447
▁Bo -7448
메르 -7449
시온 -7450
▁후자 -7451
▁보충 -7452
▁고무 -7453
▁에미 -7454
▁성주 -7455
▁법무 -7456
▁눈물 -7457
▁개찰구 -7458
▁항공모함 -7459
▁Con -7460
▁와인 -7461
받침 -7462
▁페어 -7463
▁회견 -7464
▁트라이 -7465
▁오디오 -7466
▁터지 -7467
▁생일 -7468
▁평행 -7469
산리 -7470
▁별개 -7471
▁공략 -7472
▁지우 -7473
▁토요일 -7474
뮬 -7475
▁영동 -7476
▁위장 -7477
▁나고야 -7478
▁각기 -7479
▁민영 -7480
▁입상 -7481
렐 -7482
ᆯ러리 -7483
▁태우 -7484
▁일관 -7485
▁게재 -7486
▁짜리 -7487
▁콜라 -7488
▁사스 -7489
▁상자 -7490
▁추모 -7491
▁회화 -7492
▁헬레 -7493
io -7494
ber -7495
소스 -7496
▁드라이브 -7497
▁베르크 -7498
▁동등 -7499
러리 -7500
▁이인 -7501
팬 -7502
▁서해 -7503
크로 -7504
▁유격 -7505
▁해운 -7506
▁승무원 -7507
▁IT -7508
▁셈 -7509
▁문재인 -7510
팡 -7511
▁레전 -7512
▁상부 -7513
▁세균 -7514
때로 -7515
퍼니 -7516
▁유교 -7517
▁감지 -7518
▁반격 -7519
▁저기압 -7520
▁컨트로 -7521
베이터 -7522
▁사우디아 -7523
▁일찍이 -7524
▁고체 -7525
▁앙리 -7526
▁빼앗기 -7527
▁교장 -7528
▁민사 -7529
▁퍼시픽 -7530
▁두드러지 -7531
▁탱 -7532
▁외곽 -7533
▁콰 -7534
▁향교 -7535
그마 -7536
▁사물 -7537
가타 -7538
▁1909 -7539
▁기스 -7540
▁야간 -7541
▁합법 -7542
▁크리스마스 -7543
▁128 -7544
▁호세 -7545
▁매력 -7546
▁아군 -7547
▁전례 -7548
▁화살 -7549
▁상장 -7550
▁미루 -7551
▁두산 -7552
▁에디 -7553
폴리스 -7554
▁아리스 -7555
▁룰 -7556
레인 -7557
▁박탈 -7558
▁실종 -7559
▁보스니아 -7560
▁이영 -7561
다드 -7562
▁맵 -7563
▁교단 -7564
▁격렬 -7565
▁이어서 -7566
▁자발 -7567
▁때때로 -7568
▁트루 -7569
▁꾀 -7570
모어 -7571
▁149 -7572
▁아바 -7573
▁건의 -7574
▁인격 -7575
▁이사장 -7576
▁에우 -7577
김 -7578
▁모듈 -7579
▁# -7580
▁안장 -7581
▁시청자 -7582
▁톈 -7583
플러 -7584
▁외국어 -7585
▁상대방 -7586
▁준결승 -7587
▁미소 -7588
▁사다 -7589
▁스터 -7590
age -7591
러미 -7592
▁102 -7593
백과 -7594
집합 -7595
▁이슬람교 -7596
▁갓 -7597
▁트럼프 -7598
상스 -7599
▁금액 -7600
▁일족 -7601
▁조리 -7602
▁적자 -7603
▁복장 -7604
▁생명체 -7605
▁하인리히 -7606
람회 -7607
▁싸이 -7608
▁대답 -7609
▁발원 -7610
▁사용자 -7611
▁건축가 -7612
▁연도 -7613
▁대주교 -7614
▁고가 -7615
▁바리 -7616
▁기금 -7617
▁후안 -7618
▁섞이 -7619
▁호칭 -7620
▁에이스 -7621
▁히데요시 -7622
화점 -7623
ᆫ들 -7624
▁아미타 -7625
▁패스 -7626
▁원자로 -7627
iz -7628
▁$ -7629
항공 -7630
▁계절 -7631
▁홍수 -7632
▁양상 -7633
▁포도주 -7634
구장 -7635
▁키프 -7636
먼드 -7637
▁내지 -7638
▁수성 -7639
▁차남 -7640
▁텍스트 -7641
▁어드 -7642
▁여주 -7643
▁궁정 -7644
▁Bl -7645
▁다지 -7646
▁다중 -7647
▁명의 -7648
▁콜레 -7649
ge -7650
▁부착 -7651
▁전대 -7652
▁제작자 -7653
▁배틀 -7654
▁주지사 -7655
▁그만두 -7656
▁시오 -7657
▁대군 -7658
▁집계 -7659
▁치세 -7660
▁자유당 -7661
▁레이저 -7662
▁발현 -7663
▁사우디아라비아 -7664
▁캠페인 -7665
▁운동장 -7666
▁펼쳐지 -7667
잉 -7668
▁서서히 -7669
▁정밀 -7670
▁CPU -7671
▁충주 -7672
▁네이버 -7673
▁에스파냐 -7674
틀리 -7675
▁중국인 -7676
▁프랭크 -7677
넨 -7678
▁슬라 -7679
▁고래 -7680
▁가르침 -7681
▁대외 -7682
▁아포 -7683
▁왜성 -7684
▁태생 -7685
▁팔레스 -7686
▁메타 -7687
▁조반 -7688
ᅥᆨ정 -7689
▁탐지 -7690
▁블루스 -7691
▁채무 -7692
▁전도 -7693
▁포괄 -7694
sp -7695
창기 -7696
▁대니 -7697
▁그랑프리 -7698
AD -7699
▁127 -7700
▁보리 -7701
▁직책 -7702
▁노란색 -7703
▁물자 -7704
▁중재 -7705
수엘라 -7706
사기 -7707
▁토마 -7708
▁추격 -7709
▁147 -7710
▁여진 -7711
▁역명 -7712
▁르네상스 -7713
▁룽 -7714
맨스 -7715
▁경부 -7716
▁골프 -7717
▁섭취 -7718
▁제곱 -7719
▁아우구 -7720
▁하이드 -7721
▁세미 -7722
▁최저 -7723
▁수평 -7724
▁기수 -7725
▁볼리 -7726
▁긴장 -7727
▁레전드 -7728
ᆷ새 -7729
차례 -7730
▁1915 -7731
▁엘리베이터 -7732
노부 -7733
▁향후 -7734
▁문양 -7735
▁위키백과 -7736
▁메인 -7737
▁흘러 -7738
▁유소년 -7739
▁고발 -7740
▁로맨스 -7741
▁송나라 -7742
서리 -7743
▁상세 -7744
▁울리 -7745
▁추증 -7746
▁팽창 -7747
▁수군 -7748
▁단기 -7749
▁뽑히 -7750
▁분광 -7751
쿨 -7752
orld -7753
▁사이버 -7754
▁남한 -7755
▁동당 -7756
▁손가락 -7757
▁마하 -7758
▁캄보 -7759
▁황해 -7760
▁아미노 -7761
▁부천 -7762
▁청장 -7763
▁베네수엘라 -7764
▁섞 -7765
▁1913 -7766
▁단점 -7767
▁속성 -7768
▁존중 -7769
우라 -7770
포트 -7771
▁171 -7772
▁무려 -7773
▁알코 -7774
▁광년 -7775
▁테니스 -7776
▁필립 -7777
창군 -7778
▁넓히 -7779
▁난민 -7780
▁최소한 -7781
ik -7782
▁케네 -7783
▁둘레 -7784
울리 -7785
ᆯ러스 -7786
자치도 -7787
▁강과 -7788
▁초연 -7789
▁김영삼 -7790
▁제주특별 -7791
기지 -7792
▁며칠 -7793
명사전 -7794
▁라파 -7795
▁후일 -7796
▁문학상 -7797
▁턱 -7798
▁북구 -7799
▁강경 -7800
▁창건 -7801
▁태수 -7802
▁ᆯ까 -7803
▁사절 -7804
▁입체 -7805
▁자마자 -7806
밭 -7807
빨 -7808
▁토스 -7809
▁대역 -7810
▁센서 -7811
▁윌리엄스 -7812
▁천문학자 -7813
▁스케 -7814
▁갑작 -7815
릴 -7816
▁마비 -7817
생활 -7818
▁댐 -7819
▁명목 -7820
▁al -7821
시티 -7822
▁장미 -7823
▁출토 -7824
▁신흥 -7825
▁전두환 -7826
▁개미 -7827
▁타르 -7828
▁오키나와 -7829
행위 -7830
▁동독 -7831
▁딩 -7832
포구 -7833
▁1895 -7834
▁심의 -7835
▁창시 -7836
▁남원 -7837
▁북방 -7838
평군 -7839
▁동래 -7840
▁리메이 -7841
▁옥스 -7842
▁원반 -7843
▁투르크 -7844
두르 -7845
박쥐 -7846
▁낮추 -7847
▁굉장 -7848
▁디스플레이 -7849
▁통칭 -7850
▁초창기 -7851
▁GT -7852
▁부과 -7853
크리트 -7854
▁수렴 -7855
▁동년 -7856
첸 -7857
▁SP -7858
▁대포 -7859
▁캐스팅 -7860
▁스캐 -7861
▁코프 -7862
▁광부 -7863
▁따뜻 -7864
▁팔레스타인 -7865
EN -7866
▁서사 -7867
▁피고 -7868
▁숭배 -7869
▁아사히 -7870
여지 -7871
▁만세 -7872
▁추상 -7873
▁나가사키 -7874
▁컬러 -7875
▁꽤 -7876
▁취지 -7877
▁전함 -7878
▁김재 -7879
▁머신 -7880
▁온천 -7881
▁다운로드 -7882
▁141 -7883
▁169 -7884
▁김수 -7885
▁병조 -7886
▁방침 -7887
▁리메이크 -7888
▁상당수 -7889
나리 -7890
네스코 -7891
▁법제 -7892
▁주축 -7893
▁Tr -7894
▁팜 -7895
▁테스 -7896
▁되돌 -7897
▁닿 -7898
▁딴 -7899
▁유수 -7900
▁카탈 -7901
ᆯ리우스 -7902
▁침몰 -7903
▁총선거 -7904
MS -7905
▁무제 -7906
▁풋볼 -7907
셸 -7908
▁이어받 -7909
▁스파르타 -7910
무기 -7911
▁그로 -7912
▁비문 -7913
▁수령 -7914
▁협조 -7915
▁병역 -7916
▁음원 -7917
자스 -7918
▁135 -7919
▁이민자 -7920
▁언론인 -7921
▁무죄 -7922
▁북서부 -7923
벌레 -7924
▁클린 -7925
▁문화방송 -7926
▁나주 -7927
▁개관 -7928
▁양주 -7929
▁촉구 -7930
▁도호쿠 -7931
▁프레스 -7932
보기 -7933
▁조이 -7934
ep -7935
▁히스 -7936
▁언제나 -7937
ust -7938
▁주차 -7939
▁이틀 -7940
▁144 -7941
공신 -7942
▁바흐 -7943
▁국사 -7944
▁귀중 -7945
▁소실 -7946
▁인재 -7947
▁진군 -7948
▁총괄 -7949
▁111 -7950
▁계몽 -7951
▁더글 -7952
int -7953
석기 -7954
▁낙선 -7955
▁동력 -7956
▁흩어지 -7957
▁이진 -7958
▁섭정 -7959
그레 -7960
▁하부 -7961
▁유연 -7962
▁원고 -7963
▁자기장 -7964
앵 -7965
그로 -7966
▁시공 -7967
▁후세 -7968
▁어업 -7969
▁김진 -7970
▁어스 -7971
▁스핀 -7972
▁초상화 -7973
▁영리 -7974
▁수용소 -7975
▁수동 -7976
▁객관 -7977
▁한동안 -7978
▁엔지 -7979
▁탈환 -7980
▁컴퍼니 -7981
ᆷ브 -7982
그라드 -7983
▁평야 -7984
▁식별 -7985
▁종결 -7986
▁스릴러 -7987
▁김포 -7988
▁아레나 -7989
▁넬 -7990
▁대처 -7991
▁때리 -7992
▁후대 -7993
▁신중 -7994
▁청원 -7995
▁나르 -7996
▁공채 -7997
▁해병대 -7998
▁서머 -7999
▁아종 -8000
▁정전 -8001
▁찾아내 -8002
와라 -8003
▁폐위 -8004
▁첨가 -8005
▁모스 -8006
▁기습 -8007
▁컬럼비아 -8008
GC -8009
▁CO -8010
▁차기 -8011
▁천도 -8012
▁119 -8013
▁스티브 -8014
▁쓰러지 -8015
▁도스 -8016
▁저명 -8017
▁서울대 -8018
▁친일인 -8019
선거 -8020
▁TH -8021
▁요르 -8022
▁링컨 -8023
▁큰 -8024
▁신세 -8025
▁별칭 -8026
▁평일 -8027
▁오빠 -8028
트리올 -8029
▁캄보디아 -8030
▁몬트리올 -8031
키지 -8032
▁언더 -8033
▁함유 -8034
▁It -8035
▁십자가 -8036
▁캉 -8037
▁고백 -8038
▁묘역 -8039
▁유네스코 -8040
▁유니버 -8041
Pa -8042
잠 -8043
▁106 -8044
▁172 -8045
▁조달 -8046
▁몰아내 -8047
▁매카 -8048
▁제수 -8049
▁풍경 -8050
▁든지 -8051
▁신학교 -8052
ib -8053
ᆼ이 -8054
▁날짜 -8055
▁이광 -8056
▁편리 -8057
ome -8058
ude -8059
▁룡 -8060
▁중순 -8061
푸스 -8062
▁테레 -8063
▁북위 -8064
▁휴식 -8065
시로 -8066
▁대위 -8067
▁연세대 -8068
▁왈 -8069
▁두루 -8070
▁껍질 -8071
▁페르난 -8072
릿 -8073
▁내외 -8074
▁내주 -8075
▁면하 -8076
▁인산 -8077
▁리버풀 -8078
▁신기 -8079
▁효력 -8080
▁미주 -8081
▁애덤 -8082
▁카리브 -8083
▁간호 -8084
▁선구 -8085
▁장안 -8086
▁닫히 -8087
▁제갈 -8088
▁중소 -8089
▁번영 -8090
▁공모 -8091
▁낱말 -8092
▁케네디 -8093
▁덤 -8094
▁미즈 -8095
▁드럼 -8096
▁관람 -8097
▁바퀴 -8098
▁에다 -8099
▁불편 -8100
▁스페이스 -8101
▁프랑수아 -8102
▁등재 -8103
▁정무 -8104
▁이글스 -8105
▁대제 -8106
▁지폐 -8107
▁해수 -8108
▁에스토 -8109
▁아이슬 -8110
ian -8111
▁전성기 -8112
▁교양 -8113
▁관통 -8114
▁삼진 -8115
▁선종 -8116
▁중량 -8117
▁총사 -8118
▁콘크리트 -8119
▁드라 -8120
▁마츠 -8121
▁대웅 -8122
▁소환 -8123
▁정렬 -8124
선스 -8125
▁총대 -8126
▁유니폼 -8127
치오 -8128
▁김태 -8129
▁전압 -8130
▁충실 -8131
▁루시 -8132
▁셰이 -8133
▁호모 -8134
▁We -8135
세츠 -8136
▁베드 -8137
▁정말 -8138
▁아틀레 -8139
▁우라늄 -8140
말라 -8141
▁파업 -8142
▁충북 -8143
▁아이템 -8144
▁중추원 -8145
▁WWE -8146
▁쇼트 -8147
▁마인 -8148
ere -8149
▁호프 -8150
내셔널 -8151
▁인터내셔널 -8152
▁CE -8153
▁매사추 -8154
▁지혜 -8155
▁헬리 -8156
▁아이슬란드 -8157
▁까다 -8158
▁교원 -8159
▁방패 -8160
▁신학자 -8161
▁매사추세츠 -8162
리크 -8163
▁초과 -8164
▁무상 -8165
▁휴전 -8166
▁우연히 -8167
▁엔지니어 -8168
ire -8169
▁해변 -8170
유행 -8171
▁끊임 -8172
▁반박 -8173
▁부채 -8174
▁원내 -8175
▁증진 -8176
▁발트 -8177
▁걱정 -8178
▁승점 -8179
ment -8180
루션 -8181
▁소통 -8182
라리 -8183
바지 -8184
▁상서 -8185
▁의상 -8186
따르 -8187
글리 -8188
▁생전 -8189
▁에스토니아 -8190
pe -8191
ace -8192
긋 -8193
▁구이 -8194
▁슈트 -8195
▁오비 -8196
▁표명 -8197
라이더 -8198
▁김상 -8199
▁라이선스 -8200
▁우울 -8201
▁공단 -8202
▁단식 -8203
▁돌연 -8204
▁스페인어 -8205
▁미토 -8206
실록 -8207
▁보완 -8208
▁서남 -8209
▁당일 -8210
▁외교관 -8211
▁투르 -8212
▁평하 -8213
▁위임 -8214
▁통근 -8215
▁평범 -8216
▁평택 -8217
▁황태자 -8218
궤 -8219
석탑 -8220
▁공의회 -8221
주의자 -8222
▁암석 -8223
ide -8224
▁교외 -8225
▁실전 -8226
▁세계관 -8227
층석탑 -8228
▁다치 -8229
▁도루 -8230
콰 -8231
▁로열 -8232
▁일화 -8233
▁명백 -8234
▁잦 -8235
▁열대 -8236
▁책임자 -8237
뚜 -8238
▁오사 -8239
▁모방 -8240
▁불명 -8241
▁한성부 -8242
▁대전광역시 -8243
마드 -8244
▁장려 -8245
▁공직 -8246
▁HT -8247
▁레바 -8248
▁요하 -8249
▁연패 -8250
▁께서 -8251
▁도라 -8252
▁블리 -8253
▁시흥 -8254
▁탱크 -8255
페르 -8256
▁고수 -8257
▁호위 -8258
▁치즈 -8259
▁알아 -8260
▁퍼센트 -8261
▁역설 -8262
블로 -8263
폴리 -8264
▁고령 -8265
▁네이션스 -8266
▁고민 -8267
▁입지 -8268
▁좌절 -8269
▁마이너 -8270
▁젤 -8271
▁도주 -8272
▁오노 -8273
▁혀 -8274
▁업계 -8275
▁진짜 -8276
▁물리학자 -8277
▁IBM -8278
▁푼 -8279
▁일조 -8280
▁닛폰 -8281
▁사회학 -8282
▁148 -8283
바이잔 -8284
▁장난 -8285
포드 -8286
▁나스 -8287
▁다항 -8288
▁양도 -8289
제리 -8290
▁닝 -8291
▁기어 -8292
▁마약 -8293
라이트 -8294
▁배신 -8295
니치 -8296
오피아 -8297
▁치열 -8298
▁에티오피아 -8299
▁할리우드 -8300
▁허리케인 -8301
바다 -8302
▁136 -8303
▁끓 -8304
▁친왕 -8305
▁도르 -8306
▁서재 -8307
▁내려지 -8308
▁중심부 -8309
▁TO -8310
람쥐 -8311
지리아 -8312
▁덮이 -8313
▁동이 -8314
▁사슬 -8315
▁파장 -8316
▁소유자 -8317
▁전라도 -8318
▁나이지리아 -8319
IM -8320
▁아제르 -8321
바야 -8322
아이 -8323
▁어라 -8324
▁줄리 -8325
▁흘리 -8326
▁명제 -8327
▁육지 -8328
▁신속 -8329
▁영남 -8330
▁인연 -8331
▁파이어 -8332
▁현금 -8333
▁시나리오 -8334
▁아제르바이잔 -8335
▁쿤 -8336
닉스 -8337
▁카트 -8338
▁성운 -8339
시피 -8340
▁1916 -8341
▁격투 -8342
▁브라우저 -8343
▁실시간 -8344
▁슬로바키아 -8345
픔 -8346
▁리비아 -8347
▁산림 -8348
▁영장 -8349
▁가로지르 -8350
위원 -8351
▁견디 -8352
▁친하 -8353
▁신생 -8354
스럽 -8355
▁순회 -8356
▁배터리 -8357
▁합창 -8358
▁아드 -8359
▁오세 -8360
▁추출 -8361
스부르크 -8362
cl -8363
▁기단 -8364
▁DC -8365
▁시선 -8366
▁포격 -8367
▁조연 -8368
▁약칭 -8369
▁협주곡 -8370
▁피에 -8371
▁특집 -8372
▁나비 -8373
▁기인 -8374
▁원숭이 -8375
▁밟 -8376
▁서정 -8377
▁NBA -8378
중국 -8379
▁막내 -8380
▁동상 -8381
▁노부나가 -8382
▁안성 -8383
▁작센 -8384
▁부재 -8385
▁패키지 -8386
아키 -8387
▁시초 -8388
▁구릉 -8389
▁김기 -8390
▁스튜어트 -8391
▁바닷 -8392
▁극동 -8393
▁상담 -8394
▁지류 -8395
▁쌍둥이 -8396
▁즈음 -8397
▁여지 -8398
▁의뢰 -8399
▁위탁 -8400
▁한스 -8401
▁해밀 -8402
겸 -8403
▁시즈 -8404
▁호기 -8405
▁봉쇄 -8406
▁이사회 -8407
▁평원 -8408
타로 -8409
▁지능 -8410
▁입당 -8411
▁페르디 -8412
▁la -8413
그리 -8414
기스 -8415
▁애틀 -8416
▁병행 -8417
▁138 -8418
▁어쩌 -8419
▁의약 -8420
▁탈당 -8421
▁구조물 -8422
▁라이언 -8423
▁국무총리 -8424
▁라이브러리 -8425
눈 -8426
여래 -8427
▁객체 -8428
▁리틀 -8429
▁데이비스 -8430
▁추세 -8431
▁후쿠시마 -8432
▁결혼식 -8433
▁솟 -8434
▁어다 -8435
▁가동 -8436
▁분당 -8437
▁라트비아 -8438
▁앓 -8439
▁결선 -8440
▁워드 -8441
▁해소 -8442
▁지선 -8443
▁경연 -8444
▁복선 -8445
▁고성 -8446
▁중위 -8447
▁거제 -8448
▁부적 -8449
의자 -8450
▁360 -8451
곡리 -8452
▁을지 -8453
▁반감 -8454
▁전념 -8455
▁리우스 -8456
▁창고 -8457
▁토성 -8458
▁알아내 -8459
▁중성자 -8460
▁얘기 -8461
▁면허 -8462
▁첼시 -8463
▁현종 -8464
▁격퇴 -8465
▁최상위 -8466
타나 -8467
▁릉 -8468
▁개그 -8469
▁구호 -8470
▁아부 -8471
래스카 -8472
▁레논 -8473
▁하락 -8474
▁아마도 -8475
▁영의정 -8476
▁세션 -8477
껍 -8478
▁포터 -8479
▁항소 -8480
▁급격히 -8481
▁에버 -8482
▁En -8483
파르 -8484
▁어휘 -8485
▁낭만 -8486
▁구도 -8487
▁사헌 -8488
▁섬기 -8489
▁익히 -8490
▁백화점 -8491
▁104 -8492
▁다비 -8493
▁되게 -8494
▁저하 -8495
촨 -8496
마쓰 -8497
▁데모 -8498
▁가면 -8499
▁춘천 -8500
▁박해 -8501
▁오피스 -8502
ark -8503
▁뭉 -8504
▁재위 -8505
▁실장 -8506
▁애틀랜 -8507
▁코무네 -8508
▁테이블 -8509
하시 -8510
▁그램 -8511
▁수습 -8512
▁유동 -8513
▁춘추 -8514
▁냉각 -8515
▁우루과이 -8516
▁개원 -8517
▁엘레 -8518
▁반도체 -8519
▁송시 -8520
▁상공 -8521
▁거행 -8522
▁안기 -8523
▁백색 -8524
▁다니엘 -8525
▁시칠리아 -8526
▁도미 -8527
▁모니터 -8528
▁이세 -8529
▁감리 -8530
▁거론 -8531
▁도장 -8532
▁카이사르 -8533
데시 -8534
▁틸 -8535
▁회고 -8536
대신 -8537
하면 -8538
▁스톡 -8539
▁한쪽 -8540
▁비시 -8541
▁주행 -8542
▁택시 -8543
▁목판 -8544
▁109 -8545
▁hPa -8546
▁주가 -8547
▁깨달 -8548
▁치명 -8549
▁펌 -8550
▁주름 -8551
▁어울리 -8552
▁혈통 -8553
▁명령어 -8554
거지 -8555
은색 -8556
▁행적 -8557
승지 -8558
▁돌려 -8559
▁임용 -8560
▁Pr -8561
▁123 -8562
▁사헌부 -8563
▁고소 -8564
양함 -8565
▁민회 -8566
▁생식 -8567
회장 -8568
▁괴로 -8569
▁고인 -8570
▁차장 -8571
고쿠 -8572
▁바나 -8573
▁장학 -8574
더슨 -8575
▁신규 -8576
▁차종 -8577
▁드로 -8578
▁돌보 -8579
▁탐구 -8580
▁대표작 -8581
도바 -8582
▁제로 -8583
▁극히 -8584
▁성체 -8585
실베이 -8586
실베이니아 -8587
▁펜실베이니아 -8588
▁리라 -8589
▁패트리 -8590
▁솜 -8591
▁이케 -8592
▁해적 -8593
베르토 -8594
▁잔류 -8595
▁종로구 -8596
▁분기점 -8597
▁우세 -8598
▁교황청 -8599
▁방송사 -8600
▁너비 -8601
바시 -8602
▁연하 -8603
▁횟수 -8604
▁AK -8605
▁부디 -8606
▁칼라 -8607
▁AR -8608
▁공수 -8609
▁143 -8610
▁아홉 -8611
▁신한 -8612
▁하워드 -8613
▁바비 -8614
▁카미 -8615
▁LP -8616
타고 -8617
푸르트 -8618
▁성숙 -8619
▁게르만 -8620
▁옴 -8621
▁제독 -8622
얀 -8623
▁비리 -8624
▁아벨 -8625
▁대학생 -8626
▁CS -8627
▁다발 -8628
▁매입 -8629
▁신탁 -8630
▁정점 -8631
넓 -8632
▁col -8633
▁루프 -8634
어버리 -8635
▁그날 -8636
▁컴파 -8637
▁통증 -8638
▁리우 -8639
▁광물 -8640
▁타이거즈 -8641
AL -8642
▁순교 -8643
▁경관 -8644
▁NC -8645
스틴 -8646
▁오바 -8647
▁수련 -8648
▁올바르 -8649
졸 -8650
▁소매 -8651
▁산란 -8652
▁상점 -8653
▁신조 -8654
▁신주 -8655
▁재현 -8656
▁축하 -8657
▁청춘 -8658
▁휴스턴 -8659
▁히메 -8660
▁출처 -8661
▁환영 -8662
▁호랑이 -8663
▁연합회 -8664
▁사모 -8665
산동 -8666
▁카자흐스탄 -8667
토모 -8668
▁말ᄊ -8669
▁분비 -8670
▁적당 -8671
나스 -8672
▁팡 -8673
랜트 -8674
▁고장 -8675
▁아담 -8676
▁별다르 -8677
▁CC -8678
시타 -8679
▁외치 -8680
▁터치 -8681
법인 -8682
▁성취 -8683
▁주역 -8684
ile -8685
▁펑크 -8686
▁브리지 -8687
▁피츠 -8688
▁상단 -8689
▁폭동 -8690
셋 -8691
▁이화 -8692
▁유한 -8693
▁후방 -8694
▁부르크 -8695
▁염기 -8696
▁적분 -8697
▁남동부 -8698
은이 -8699
▁시바 -8700
▁박람회 -8701
란히 -8702
▁스트레스 -8703
▁롤링 -8704
▁토모 -8705
▁팔라 -8706
▁억압 -8707
▁인플 -8708
▁닫 -8709
▁근교 -8710
▁최악 -8711
▁제프 -8712
▁유로파 -8713
▁통영 -8714
차기 -8715
▁룬 -8716
▁목재 -8717
▁축적 -8718
▁이소 -8719
▁태양계 -8720
▁블라디미르 -8721
▁래퍼 -8722
▁비자 -8723
▁우위 -8724
▁관구 -8725
▁벌금 -8726
▁설탕 -8727
▁동아일보 -8728
▁Op -8729
▁제하 -8730
▁처녀 -8731
▁이식 -8732
▁CON -8733
▁가짜 -8734
xt -8735
▁견제 -8736
▁부설 -8737
살이 -8738
▁카타 -8739
▁성사 -8740
▁존속 -8741
▁릴리 -8742
▁음료 -8743
▁차이점 -8744
ies -8745
▁상용 -8746
▁한인 -8747
▁누이 -8748
▁부당 -8749
▁라오스 -8750
▁열정 -8751
▁경상도 -8752
▁공산주의자 -8753
ᅣᆯ -8754
▁닷 -8755
▁국소 -8756
▁기ᄈ -8757
▁돋 -8758
▁베스 -8759
▁힘입 -8760
핍 -8761
▁햇 -8762
▁조세 -8763
▁말라 -8764
▁사육 -8765
▁김경 -8766
▁충전 -8767
▁야구장 -8768
▁알코올 -8769
▁RNA -8770
▁육체 -8771
▁삼층석탑 -8772
▁is -8773
도리 -8774
▁마야 -8775
▁가군 -8776
▁보석 -8777
▁다이아몬드 -8778
고래 -8779
▁나트 -8780
▁비싸 -8781
▁법조 -8782
▁어원 -8783
▁현저 -8784
▁친일파 -8785
▁키프로스 -8786
비나 -8787
▁운하 -8788
▁옆면 -8789
엣 -8790
▁왜냐 -8791
▁암시 -8792
▁여당 -8793
▁오해 -8794
▁카로 -8795
▁상반 -8796
▁성단 -8797
▁아랍어 -8798
▁루이지 -8799
▁블로그 -8800
▁107 -8801
▁우유 -8802
▁이타 -8803
러스트 -8804
▁빌라 -8805
▁소나타 -8806
▁브라더스 -8807
▁경찰청 -8808
▁자민 -8809
▁합하 -8810
▁응원 -8811
나오 -8812
▁누나 -8813
▁타지 -8814
▁대웅전 -8815
▁이에야스 -8816
▁히사 -8817
▁왓 -8818
▁로이 -8819
▁공관 -8820
▁동점 -8821
ft -8822
ite -8823
쉽 -8824
▁시골 -8825
▁빨간 -8826
▁중의원 -8827
▁생산량 -8828
▁112 -8829
랑카 -8830
▁공익 -8831
▁광학 -8832
▁황실 -8833
▁우승자 -8834
▁후사 -8835
▁다녀 -8836
▁미라 -8837
▁아데 -8838
▁야쿠 -8839
▁언니 -8840
▁시베리아 -8841
▁사업자 -8842
▁이산화 -8843
▁탐사선 -8844
▁계시 -8845
기업 -8846
▁반경 -8847
▁기적 -8848
▁당주 -8849
▁Te -8850
▁흠 -8851
▁맥주 -8852
첼 -8853
▁126 -8854
▁킥 -8855
갈색 -8856
▁가죽 -8857
▁단단 -8858
▁장거리 -8859
▁그동안 -8860
그루 -8861
다지 -8862
▁헤라 -8863
▁거북 -8864
▁수법 -8865
▁이순신 -8866
▁지르 -8867
▁거칠 -8868
▁케이스 -8869
▁폭행 -8870
▁송시열 -8871
▁발해 -8872
▁라이너 -8873
▁베어스 -8874
▁조선일보 -8875
▁헤비 -8876
▁연쇄 -8877
▁동문 -8878
▁뫼 -8879
▁신민 -8880
▁조종사 -8881
▁구축함 -8882
쑤 -8883
레기 -8884
▁공습 -8885
▁내보내 -8886
▁신념 -8887
▁줄무늬 -8888
지붕 -8889
▁도마뱀붙이 -8890
▁무지 -8891
▁티스 -8892
▁놀랍 -8893
▁동국 -8894
▁창원시 -8895
▁SE -8896
수리 -8897
▁해명 -8898
▁바스 -8899
▁규범 -8900
▁만남 -8901
▁트위터 -8902
▁플러스 -8903
▁117 -8904
▁퐁 -8905
▁마누 -8906
▁노바 -8907
▁유죄 -8908
▁고속도 -8909
▁부제 -8910
▁교정 -8911
▁상사 -8912
▁범인 -8913
▁com -8914
▁비유 -8915
ᅦᆯ레스 -8916
▁소셜 -8917
▁엿 -8918
▁피오 -8919
▁핸드 -8920
▁트윈스 -8921
▁평의회 -8922
▁사하 -8923
▁신선 -8924
▁할머니 -8925
▁천장 -8926
▁품종 -8927
▁양키스 -8928
▁사우루스 -8929
▁카를로스 -8930
▁삼성전자 -8931
벡 -8932
▁비르 -8933
▁틀리 -8934
ath -8935
▁주주 -8936
▁시어 -8937
▁이경 -8938
ᆸ실 -8939
▁증대 -8940
▁아카데미상 -8941
▁뉘 -8942
▁137 -8943
의장 -8944
▁아예 -8945
▁121 -8946
▁킴 -8947
권자 -8948
▁입원 -8949
조부 -8950
▁이윤 -8951
▁주이 -8952
▁구출 -8953
텀 -8954
게이머 -8955
▁교과서 -8956
▁화장실 -8957
▁빨간색 -8958
▁프로게이머 -8959
OL -8960
▁제니 -8961
▁인체 -8962
▁포럼 -8963
ond -8964
▁맥락 -8965
마루 -8966
▁350 -8967
▁요동 -8968
▁후궁 -8969
▁왕복 -8970
▁땃 -8971
▁이브 -8972
무스 -8973
▁113 -8974
▁여파 -8975
▁믹스 -8976
▁173 -8977
▁태권 -8978
▁필터 -8979
▁곡인 -8980
▁신약 -8981
▁탐색 -8982
▁실체 -8983
▁전자기 -8984
ory -8985
펄 -8986
나미 -8987
▁1894 -8988
▁날씨 -8989
▁왜곡 -8990
▁대의원 -8991
▁클라우드 -8992
▁크리스토퍼 -8993
▁워터 -8994
▁임하 -8995
▁근원 -8996
▁인문 -8997
▁확신 -8998
ound -8999
▁겔 -9000
▁피우 -9001
▁희생자 -9002
▁일반인 -9003
ov -9004
▁깨닫 -9005
▁방화 -9006
▁필리프 -9007
▁가마쿠라 -9008
▁CF -9009
▁지미 -9010
베니아 -9011
▁프랭 -9012
▁진급 -9013
▁개교 -9014
▁가축 -9015
▁소원 -9016
▁테이프 -9017
▁제재 -9018
▁경보 -9019
▁빈곤 -9020
▁둥지 -9021
▁바오로 -9022
▁가장자리 -9023
대기 -9024
수소 -9025
▁마디 -9026
▁통틀 -9027
▁굉장히 -9028
ᆷ비 -9029
▁대폭 -9030
▁법무부 -9031
▁물려받 -9032
▁슬로베니아 -9033
▁제대 -9034
▁풀리 -9035
▁핵무기 -9036
연합 -9037
▁미션 -9038
▁뒷면 -9039
▁성별 -9040
▁허위 -9041
▁거울 -9042
▁레온 -9043
▁적도 -9044
그레이드 -9045
▁리얼 -9046
▁지평 -9047
▁콜리 -9048
▁협박 -9049
▁왜냐하면 -9050
끼리 -9051
▁캐시 -9052
▁알제리 -9053
▁z -9054
man -9055
▁문예 -9056
▁몬스터 -9057
▁총독부 -9058
▁ㅁ -9059
▁문구 -9060
▁스틸 -9061
▁공민 -9062
▁코스타 -9063
▁업그레이드 -9064
▁be -9065
iver -9066
▁맘 -9067
▁진하 -9068
▁하동 -9069
▁브로드 -9070
▁진공 -9071
▁자연수 -9072
▁연합국 -9073
▁다크 -9074
▁몰래 -9075
아프리카 -9076
▁불타 -9077
▁". -9078
▁제인 -9079
퍼런스 -9080
▁탤런 -9081
▁일가 -9082
▁일방 -9083
ᆺ불 -9084
단체 -9085
▁투옥 -9086
▁농림 -9087
▁게스트 -9088
▁관음 -9089
▁가루 -9090
▁꾀하 -9091
뚝 -9092
니시 -9093
박스 -9094
▁우호 -9095
▁용병 -9096
▁횡단 -9097
▁탤런트 -9098
▁갇히 -9099
▁포병 -9100
▁게이지 -9101
▁바티칸 -9102
▁On -9103
▁뮈 -9104
▁결함 -9105
번스 -9106
▁성도 -9107
▁승계 -9108
대원군 -9109
▁자오 -9110
▁계정 -9111
▁상표 -9112
▁신시 -9113
▁근로자 -9114
▁딕 -9115
▁124 -9116
▁바우 -9117
▁카카 -9118
규모 -9119
▁낫 -9120
▁대피 -9121
▁궁극 -9122
▁혈관 -9123
▁윤치호 -9124
▁치안 -9125
▁남서부 -9126
▁World -9127
▁양측 -9128
▁륙 -9129
▁비기 -9130
▁먼지 -9131
▁벨리 -9132
▁수색 -9133
▁땃쥐 -9134
▁초록 -9135
▁극심 -9136
▁판본 -9137
MA -9138
줄기 -9139
▁유년 -9140
▁철회 -9141
▁야마토 -9142
▁영산 -9143
▁고고학 -9144
▁서민 -9145
▁최강 -9146
▁군정 -9147
▁독일인 -9148
ich -9149
놈 -9150
▁멜로디 -9151
mer -9152
셰비 -9153
▁성문 -9154
튬 -9155
▁CR -9156
▁SU -9157
▁1890 -9158
▁양호 -9159
▁수용체 -9160
▁New -9161
▁해고 -9162
▁김정일 -9163
▁강서 -9164
▁발리 -9165
킥 -9166
▁비추 -9167
▁택하 -9168
▁기업인 -9169
승부 -9170
축구 -9171
▁러시 -9172
▁세속 -9173
▁만일 -9174
▁쟈 -9175
▁114 -9176
▁로우 -9177
▁두껍 -9178
▁명하 -9179
▁가져가 -9180
드르 -9181
▁미노 -9182
▁커뮤니케이션 -9183
▁프랑크푸르트 -9184
뿔 -9185
▁내정 -9186
▁구절 -9187
▁레일 -9188
▁보증 -9189
▁풍자 -9190
▁공백 -9191
▁서초 -9192
프레스 -9193
▁도미니 -9194
▁국내외 -9195
▁체크 -9196
▁뒤집 -9197
▁학계 -9198
▁증손 -9199
▁자비 -9200
▁대명 -9201
▁므 -9202
▁데르 -9203
▁공방 -9204
▁구스타 -9205
타리오 -9206
▁모친 -9207
▁아랫 -9208
▁자음 -9209
▁칭찬 -9210
▁더니 -9211
▁일생 -9212
▁오라 -9213
▁조부 -9214
▁선비 -9215
▁항쟁 -9216
▁오리콘 -9217
▁화해 -9218
럿 -9219
▁ㅓ서 -9220
▁그대 -9221
▁정주 -9222
쌍 -9223
▁섀 -9224
▁베니 -9225
▁김규 -9226
▁욕구 -9227
▁일리노 -9228
▁유저 -9229
▁김현 -9230
▁드라이버 -9231
ial -9232
리나 -9233
▁램 -9234
▁이드 -9235
▁개종 -9236
▁놓치 -9237
▁학명 -9238
▁Sc -9239
▁어미 -9240
▁우파 -9241
▁넘치 -9242
▁자선 -9243
▁일리노이 -9244
있 -9245
▁EC -9246
▁LC -9247
▁118 -9248
▁이거 -9249
▁라이온즈 -9250
▁곤란 -9251
▁악단 -9252
▁디비시온 -9253
ign -9254
▁원전 -9255
▁종착 -9256
▁셸 -9257
▁체스 -9258
▁평정 -9259
▁오프닝 -9260
▁최대한 -9261
▁프로덕 -9262
▁극장판 -9263
▁안토니오 -9264
IP -9265
▁서자 -9266
▁제치 -9267
▁스칼 -9268
▁플래시 -9269
▁기질 -9270
▁맑 -9271
▁체조 -9272
▁히어로즈 -9273
▁구와 -9274
▁그냥 -9275
▁즉각 -9276
▁초월 -9277
▁파란색 -9278
▁도청 -9279
▁소규모 -9280
hn -9281
크라 -9282
▁과반 -9283
▁검찰청 -9284
▁부딪 -9285
▁어긋 -9286
▁시위대 -9287
톨레 -9288
황후 -9289
▁배후 -9290
▁자택 -9291
▁다녀오 -9292
▁방사선 -9293
▁옵션 -9294
▁반지름 -9295
▁예시 -9296
▁타당 -9297
▁돌격 -9298
히코 -9299
▁1898 -9300
▁하프 -9301
▁미세 -9302
▁관세 -9303
브레 -9304
저지 -9305
하루 -9306
▁은데 -9307
▁로그 -9308
▁만료 -9309
▁시정 -9310
▁봉안 -9311
▁미하일 -9312
▁파이널 -9313
▁떨치 -9314
▁우즈베 -9315
▁쿄 -9316
▁주부 -9317
▁커널 -9318
▁냉전 -9319
▁가드 -9320
▁진사 -9321
기념 -9322
▁알아보 -9323
▁대부 -9324
▁감자 -9325
▁남구 -9326
▁이준 -9327
▁재상 -9328
▁경신 -9329
▁모로코 -9330
▁트로이 -9331
▁블랙홀 -9332
스테르 -9333
▁결코 -9334
▁빛나 -9335
▁SD -9336
▁미키 -9337
▁지침 -9338
▁웨스턴 -9339
▁115 -9340
▁이남 -9341
▁범유행 -9342
▁서진 -9343
▁요정 -9344
▁용이 -9345
▁제압 -9346
▁태극 -9347
▁인명 -9348
▁알루미 -9349
▁챌린지 -9350
▁크리스티안 -9351
▁벵 -9352
▁자아 -9353
▁외야수 -9354
▁GP -9355
▁센티 -9356
▁레바논 -9357
보르 -9358
▁카우 -9359
▁희귀 -9360
▁괴물 -9361
▁사위 -9362
▁케냐 -9363
▁헬기 -9364
▁풀려나 -9365
▁하르 -9366
▁뉴저지 -9367
▁다가오 -9368
▁정세 -9369
▁침투 -9370
▁극작 -9371
▁성리학 -9372
▁계열사 -9373
▁볼프 -9374
▁징계 -9375
▁경찰관 -9376
rom -9377
▁GS -9378
▁129 -9379
▁맏 -9380
▁순조 -9381
▁광해군 -9382
▁지인 -9383
▁통치자 -9384
ᆯ리티 -9385
▁무성 -9386
▁축출 -9387
▁캔자스 -9388
▁JT -9389
부리 -9390
▁사쿠라 -9391
▁시가지 -9392
▁선도 -9393
▁아이디 -9394
▁카스티 -9395
▁사상자 -9396
탐 -9397
▁코카 -9398
▁필사 -9399
▁핑크 -9400
▁매니저 -9401
▁마운트 -9402
▁릿 -9403
▁갑작스럽 -9404
미사 -9405
▁남미 -9406
▁변이 -9407
▁스크립 -9408
아먹 -9409
▁비주 -9410
▁소모 -9411
▁승부차기 -9412
▁왕세 -9413
▁우측 -9414
▁말씀 -9415
▁쯔 -9416
▁쾌속 -9417
▁본국 -9418
▁분명히 -9419
방송공사 -9420
▁가옥 -9421
▁앵글 -9422
▁유라 -9423
▁재혼 -9424
렁 -9425
▁III -9426
▁브뤼 -9427
▁취업 -9428
▁대거 -9429
블린 -9430
지아 -9431
▁컷 -9432
▁외모 -9433
▁호출 -9434
▁봉건 -9435
▁뭐 -9436
▁두려 -9437
▁천하 -9438
▁황족 -9439
▁의약품 -9440
교도 -9441
▁카디 -9442
▁키르 -9443
▁정변 -9444
▁첨단 -9445
조건 -9446
▁기증 -9447
▁러셀 -9448
▁승자 -9449
▁세이브 -9450
ph -9451
▁예하 -9452
▁글루 -9453
▁뉴턴 -9454
▁밝기 -9455
▁조지프 -9456
▁쫓겨나 -9457
▁젊은이 -9458
벨트 -9459
▁켈리 -9460
천리 -9461
▁부피 -9462
TS -9463
▁기차 -9464
▁벨라루스 -9465
▁` -9466
사리 -9467
▁럼 -9468
▁오오 -9469
▁척추 -9470
▁숙청 -9471
▁학업 -9472
▁원로원 -9473
urn -9474
▁Ne -9475
▁연승 -9476
▁중산 -9477
▁천문대 -9478
얄 -9479
개미 -9480
▁맥도 -9481
▁통보 -9482
▁폭포 -9483
▁폭넓 -9484
마이오스 -9485
▁월요일 -9486
▁퉁 -9487
▁혜택 -9488
▁벽돌 -9489
▁웹툰 -9490
▁레슬링 -9491
▁1899 -9492
▁로비 -9493
▁연이 -9494
롤라이 -9495
▁발급 -9496
▁전년 -9497
데오 -9498
▁142 -9499
▁퇴임 -9500
▁아폴로 -9501
▁개막전 -9502
우트 -9503
▁정려 -9504
▁동정 -9505
▁밀집 -9506
ction -9507
▁회관 -9508
바닥 -9509
함수 -9510
▁매매 -9511
▁공감 -9512
▁총사령 -9513
▁빔 -9514
쟁이 -9515
▁비로소 -9516
▁장례식 -9517
▁프로덕션 -9518
▁렉 -9519
▁총칭 -9520
▁청주시 -9521
▁체코슬로 -9522
▁체코슬로바키아 -9523
▁무명 -9524
롤라이나 -9525
▁더글러스 -9526
▁온타리오 -9527
▁엇 -9528
코딩 -9529
▁리뷰 -9530
▁토끼 -9531
▁각도 -9532
▁감싸 -9533
▁생체 -9534
▁컨셉 -9535
▁CJ -9536
▁부스 -9537
▁이태 -9538
▁무함 -9539
▁세이부 -9540
▁옹립 -9541
▁축물 -9542
테르부르크 -9543
▁배수 -9544
▁예조 -9545
▁워너 -9546
▁소생 -9547
▁한족 -9548
타니 -9549
▁오크 -9550
▁관제 -9551
▁토양 -9552
▁임원 -9553
▁종속 -9554
▁브리튼 -9555
▁광주광역시 -9556
▁ch -9557
브르 -9558
문트 -9559
화물 -9560
▁무소 -9561
▁일컬 -9562
▁중형 -9563
▁연예인 -9564
▁말미 -9565
▁스즈키 -9566
▁대서양 -9567
▁닥 -9568
▁우체 -9569
진군 -9570
▁어른 -9571
▁공조 -9572
▁학기 -9573
▁그레고 -9574
▁가야 -9575
▁발병 -9576
▁무승부 -9577
▁부여받 -9578
포로 -9579
▁뇌물 -9580
▁케빈 -9581
▁어긋나 -9582
▁알루미늄 -9583
▁믹 -9584
▁콕 -9585
▁설화 -9586
▁시뮬 -9587
▁부의장 -9588
▁금요일 -9589
ens -9590
슬러 -9591
▁자크 -9592
▁도카이 -9593
▁마르티 -9594
▁양반 -9595
pp -9596
▁뱅 -9597
▁리프 -9598
▁예고 -9599
▁토미 -9600
▁기각 -9601
▁아이오 -9602
▁혼동 -9603
▁플라스틱 -9604
▁Man -9605
▁시코 -9606
▁응시 -9607
먼스 -9608
▁구경 -9609
▁화력 -9610
▁광둥 -9611
▁워크 -9612
▁미들 -9613
▁하얗 -9614
▁모나 -9615
▁사본 -9616
▁답변 -9617
▁연산자 -9618
▁끌어들이 -9619
▁옳 -9620
▁1902 -9621
▁요건 -9622
▁지옥 -9623
lan -9624
▁ID -9625
ᆺ값 -9626
▁얹 -9627
▁피겨 -9628
▁만성 -9629
▁직면 -9630
▁창출 -9631
▁키보드 -9632
▁대변인 -9633
▁ㅕㅆ -9634
▁재선 -9635
▁파산 -9636
▁명종 -9637
▁타임스 -9638
▁헥 -9639
느러미 -9640
▁대손 -9641
▁화상 -9642
▁전속 -9643
▁터뜨리 -9644
▁프란츠 -9645
룰 -9646
럴드 -9647
셰비키 -9648
▁유방 -9649
▁플랫폼 -9650
▁발기 -9651
▁룩셈 -9652
▁꼽 -9653
▁하차 -9654
▁천재 -9655
▁거래소 -9656
▁공천 -9657
▁스타리그 -9658
▁룩셈부르크 -9659
타주 -9660
▁독서 -9661
▁드림 -9662
▁시범 -9663
▁왼손 -9664
▁채소 -9665
▁남작 -9666
▁연꽃 -9667
▁세비 -9668
▁대성당 -9669
▁로라 -9670
▁저주 -9671
▁병기 -9672
▁난징 -9673
▁교통국 -9674
lic -9675
▁코시 -9676
파이어 -9677
▁비석 -9678
▁기사단 -9679
▁두려워하 -9680
▁아리아 -9681
▁IM -9682
▁공적 -9683
▁대치 -9684
▁동네 -9685
▁수분 -9686
▁스턴 -9687
▁원종 -9688
▁중복 -9689
▁넘어서 -9690
넣 -9691
▁탄도 -9692
▁신원 -9693
▁중공 -9694
▁힌두교 -9695
덩이 -9696
▁체이 -9697
▁습지 -9698
▁체류 -9699
▁바깥쪽 -9700
▁토착종 -9701
▁뒷받침 -9702
▁'' -9703
시즘 -9704
▁개소 -9705
▁의자 -9706
▁서신 -9707
▁기술자 -9708
▁BS -9709
글라 -9710
▁화자 -9711
▁가환 -9712
▁그래미 -9713
▁기니 -9714
▁국영 -9715
두리 -9716
치기 -9717
국사 -9718
▁종래 -9719
▁소나무 -9720
▁잃어버리 -9721
샤바 -9722
TC -9723
▁닦 -9724
▁감마 -9725
▁비행장 -9726
포터 -9727
▁그릇 -9728
▁위쪽 -9729
▁유진 -9730
▁촉매 -9731
▁포획 -9732
TA -9733
ary -9734
▁운수 -9735
▁강변 -9736
▁확실히 -9737
▁익스프레스 -9738
▁시가 -9739
▁동학 -9740
▁영등 -9741
딸 -9742
▁거세 -9743
▁보위 -9744
▁마스크 -9745
▁해밀턴 -9746
▁피신 -9747
▁군중 -9748
▁깃발 -9749
▁성폭 -9750
▁아돌프 -9751
▁간선 -9752
▁생생 -9753
▁영문 -9754
▁밍 -9755
▁나루 -9756
▁실망 -9757
▁페르디난 -9758
▁나노 -9759
▁사슴 -9760
▁표적 -9761
▁하단 -9762
▁정성 -9763
▁버드 -9764
▁소시 -9765
▁지치 -9766
▁원천 -9767
▁포켓몬스터 -9768
▁대패 -9769
▁유체 -9770
▁주조 -9771
▁김지 -9772
▁화강 -9773
▁강동 -9774
▁사이토 -9775
▁프톨레 -9776
▁프톨레마이오스 -9777
▁마녀 -9778
▁찌르 -9779
▁테크노 -9780
▁호르몬 -9781
▁다항식 -9782
ach -9783
흘 -9784
▁사간 -9785
▁단축 -9786
▁코믹스 -9787
큰 -9788
▁휠 -9789
▁아산 -9790
▁생략 -9791
▁고양시 -9792
▁춥 -9793
▁하비 -9794
▁지출 -9795
▁복용 -9796
▁스위치 -9797
▁1901 -9798
▁서리 -9799
▁파지 -9800
▁설교 -9801
▁매카트니 -9802
▁몫 -9803
▁희곡 -9804
▁광명 -9805
▁함정 -9806
▁붙잡히 -9807
▁물품 -9808
▁압둘 -9809
▁정적 -9810
▁러시아어 -9811
▁No -9812
ert -9813
out -9814
니까 -9815
▁외관 -9816
짓점 -9817
▁열도 -9818
▁단절 -9819
▁경성부 -9820
▁지식인 -9821
▁네스 -9822
▁약자 -9823
▁드러머 -9824
▁보이스 -9825
▁본문 -9826
▁현은 -9827
▁꼭짓점 -9828
구르 -9829
▁하치 -9830
▁광대 -9831
▁울프 -9832
▁참의 -9833
▁축조 -9834
▁코끼리 -9835
▁이용자 -9836
▁울산광역시 -9837
▁웬 -9838
▁공리 -9839
▁안테 -9840
▁직결 -9841
▁부회장 -9842
▁얽 -9843
▁어류 -9844
▁스폰 -9845
LE -9846
▁례 -9847
▁고아 -9848
▁초신 -9849
▁동행 -9850
▁실버 -9851
▁쓰촨 -9852
ᆷ브리지 -9853
▁알렉산드르 -9854
▁앗 -9855
▁감행 -9856
▁폭격기 -9857
모스 -9858
▁선행 -9859
▁염증 -9860
▁제네바 -9861
▁MB -9862
▁지ᄏ -9863
▁보트 -9864
▁코코 -9865
▁단의 -9866
▁부작용 -9867
▁퀘벡 -9868
▁흔들리 -9869
▁대구광역시 -9870
디나 -9871
▁체르 -9872
▁고산 -9873
▁벨트 -9874
▁수확 -9875
IG -9876
루아 -9877
자르 -9878
히토 -9879
그룹 -9880
▁선배 -9881
▁슬리 -9882
▁이현 -9883
LS -9884
ys -9885
카가 -9886
▁딜 -9887
▁다마 -9888
▁가역 -9889
▁정문 -9890
▁컴백 -9891
▁주되 -9892
▁섹스 -9893
▁} -9894
▁간토 -9895
ug -9896
▁서류 -9897
▁카프 -9898
▁자작 -9899
▁권총 -9900
▁입성 -9901
▁푸에르 -9902
▁삿포로 -9903
마리 -9904
▁치아 -9905
▁체중 -9906
▁으려고 -9907
▁광저우 -9908
▁렐 -9909
▁의의 -9910
▁샌드 -9911
▁서문 -9912
▁임관 -9913
▁뛰어 -9914
▁오쿠 -9915
▁요르단 -9916
▁마력 -9917
▁제국주의 -9918
걀 -9919
▁토기 -9920
▁미륵 -9921
▁갱신 -9922
▁134 -9923
▁두께 -9924
▁등기 -9925
▁조립 -9926
▁갈수록 -9927
그램 -9928
정리 -9929
▁고추 -9930
▁수축 -9931
▁스님 -9932
▁응하 -9933
▁독성 -9934
▁역량 -9935
▁트로피 -9936
ase -9937
▁커스 -9938
▁분수 -9939
▁블러 -9940
▁성지 -9941
베트남 -9942
▁모서리 -9943
▁간단히 -9944
▁무함마드 -9945
▁기숙 -9946
▁파이터 -9947
▁사회당 -9948
흑 -9949
▁THE -9950
▁쥐과 -9951
▁손꼬 -9952
▁레즈 -9953
▁김제 -9954
▁무궁 -9955
▁상금 -9956
▁엔딩 -9957
▁바이킹 -9958
▁아라비아 -9959
▁1903 -9960
▁연기자 -9961
카타 -9962
▁썰 -9963
▁차르 -9964
노미야 -9965
▁면제 -9966
▁이단 -9967
▁일산 -9968
▁신도비 -9969
▁부가 -9970
▁점성술 -9971
▁혐오 -9972
▁직경 -9973
▁염색체 -9974
ᅰ어 -9975
▁라그 -9976
▁형조 -9977
▁김창 -9978
▁크레이 -9979
▁서유럽 -9980
▁옥스퍼드 -9981
내리 -9982
타임 -9983
레슬링 -9984
▁끊임없이 -9985
▁여운 -9986
▁공명 -9987
▁불꽃 -9988
▁헌신 -9989
▁언어학 -9990
▁영국인 -9991
▁케임브리지 -9992
▁AN -9993
▁One -9994
▁1884 -9995
▁노보 -9996
▁조수 -9997
▁남매 -9998
▁누적 -9999
ke -10000
▁KIA -10001
▁보헤 -10002
▁블로 -10003
▁민감 -10004
▁이성계 -10005
▁표기법 -10006
▁아시카가 -10007
▁장기간 -10008
▁All -10009
텍처 -10010
▁캐서 -10011
▁원료 -10012
▁정동 -10013
▁아키텍처 -10014
처스 -10015
▁입국 -10016
▁EX -10017
대장 -10018
▁토시 -10019
▁공예 -10020
▁Gr -10021
▁매수 -10022
▁경과 -10023
▁홈구장 -10024
끗 -10025
앉 -10026
▁극대 -10027
▁원본 -10028
▁청산 -10029
▁사업가 -10030
▁미시시피 -10031
파이 -10032
▁표방 -10033
▁개화 -10034
▁토요 -10035
▁검열 -10036
▁그다지 -10037
▁관광지 -10038
맛 -10039
▁퇴역 -10040
▁쓰레기 -10041
▁쓰시마 -10042
▁연봉 -10043
▁프로레슬링 -10044
나우 -10045
▁보복 -10046
▁정립 -10047
▁특권 -10048
▁복합체 -10049
▁콤팩트 -10050
▁발렌시아 -10051
▁마키 -10052
▁비뉴 -10053
▁비타 -10054
▁날카 -10055
▁논하 -10056
▁이관 -10057
▁이병 -10058
▁한테 -10059
▁입각 -10060
▁정선 -10061
▁만주국 -10062
▁히타 -10063
▁동조 -10064
▁소말 -10065
▁중령 -10066
▁에콰 -10067
▁제리 -10068
▁태그 -10069
▁하리 -10070
▁색채 -10071
▁삼촌 -10072
▁트리플 -10073
라이언트 -10074
▁도요토미 -10075
▁야마구치 -10076
▁에콰도르 -10077
▁마우 -10078
▁해남 -10079
▁꼭대기 -10080
▁삼국지 -10081
그라 -10082
▁지로 -10083
▁대문 -10084
▁좌측 -10085
▁강간 -10086
▁전방 -10087
▁클라이언트 -10088
피어 -10089
▁교대 -10090
▁구형 -10091
▁도널드 -10092
▁조반니 -10093
▁니콜라이 -10094
▁로저 -10095
▁유부 -10096
일으키 -10097
클레스 -10098
글라데시 -10099
▁소행성 -10100
▁방글라데시 -10101
▁불러일으키 -10102
▁아인슈타인 -10103
카미 -10104
펜하 -10105
▁패널 -10106
▁검출 -10107
▁소방서 -10108
ree -10109
▁버티 -10110
▁프란체 -10111
▁1800 -10112
▁공고 -10113
▁질소 -10114
▁개인전 -10115
▁전염병 -10116
▁글래 -10117
▁박지 -10118
▁플리 -10119
▁흥선 -10120
▁패밀리 -10121
▁구스 -10122
▁어둠 -10123
▁페널 -10124
▁달걀 -10125
▁복소수 -10126
▁Cl -10127
▁대두 -10128
▁이렇 -10129
가와현 -10130
▁아브 -10131
▁어뢰 -10132
▁히로시 -10133
▁아리스토 -10134
▁군함 -10135
▁정유 -10136
▁선동 -10137
로이 -10138
▁갈리아 -10139
▁마르틴 -10140
불교 -10141
▁훔치 -10142
▁경인 -10143
힘 -10144
▁IN -10145
▁가오 -10146
▁셀레 -10147
▁실무 -10148
▁염소 -10149
▁방사성 -10150
푸르 -10151
▁자형 -10152
▁코믹 -10153
▁단면 -10154
▁뮤지션 -10155
▁기념관 -10156
▁우치 -10157
▁뒤쪽 -10158
▁학대 -10159
▁분출 -10160
▁스토어 -10161
닿 -10162
고스 -10163
▁팟 -10164
번뇌 -10165
▁깨지 -10166
▁선우 -10167
▁슈팅 -10168
▁철폐 -10169
▁불신 -10170
▁산출 -10171
▁LA -10172
▁실재 -10173
▁함선 -10174
아웃 -10175
▁with -10176
▁기슭 -10177
▁장벽 -10178
▁지켜보 -10179
▁클라이 -10180
네마 -10181
▁권장 -10182
▁스트로 -10183
▁오사카부 -10184
11 -10185
간지 -10186
▁도선 -10187
▁회상 -10188
▁충청도 -10189
▁알렉산드리아 -10190
▁리조 -10191
방울 -10192
▁곡물 -10193
▁헌정 -10194
▁기념비 -10195
act -10196
▁메커 -10197
▁농부 -10198
▁당수 -10199
▁퇴적 -10200
▁발칸 -10201
▁창녕 -10202
▁현감 -10203
ass -10204
가르 -10205
하키 -10206
▁교량 -10207
▁군산 -10208
▁김홍 -10209
▁뉴욕주 -10210
산맥 -10211
▁리만 -10212
▁비밀리 -10213
▁슬라브 -10214
▁그레이트 -10215
▁루타 -10216
▁준주 -10217
테이션 -10218
▁드레스 -10219
▁Ad -10220
▁우물 -10221
▁팔레 -10222
▁관절 -10223
▁궁중 -10224
▁남동생 -10225
곡동 -10226
▁활주 -10227
▁북아프리카 -10228
pt -10229
▁소자 -10230
▁상트 -10231
▁소수자 -10232
▁모모 -10233
▁세키 -10234
▁호리 -10235
▁전구 -10236
▁상경 -10237
▁날카롭 -10238
▁수목 -10239
▁상응 -10240
▁전시회 -10241
▁일렉트로 -10242
구역 -10243
▁세바 -10244
▁경작 -10245
▁마르코 -10246
▁반공 -10247
▁기관총 -10248
▁우회 -10249
▁지도부 -10250
▁카사 -10251
▁효고 -10252
▁묶이 -10253
▁발령 -10254
▁카를로 -10255
▁총대주교 -10256
렉터 -10257
▁보성 -10258
▁상가 -10259
▁취항 -10260
▁데스크 -10261
▁전복 -10262
▁116 -10263
▁델라 -10264
▁가브리 -10265
▁모리스 -10266
▁인질 -10267
▁중앙아시아 -10268
▁추첨 -10269
▁다케다 -10270
▁분량 -10271
▁볼리비아 -10272
▁GO -10273
▁강대 -10274
▁크롬 -10275
▁신축 -10276
기념물 -10277
▁리더십 -10278
▁CN -10279
ream -10280
미트 -10281
▁냄새 -10282
▁델타 -10283
▁거주지 -10284
▁와일드 -10285
▁캐서린 -10286
▁꿀 -10287
아들 -10288
▁가산 -10289
▁기분 -10290
▁전위 -10291
▁후작 -10292
쿠버 -10293
▁킬 -10294
▁브란 -10295
▁원더 -10296
▁견인 -10297
▁에디션 -10298
개골 -10299
역학 -10300
▁막스 -10301
▁이북 -10302
▁교육청 -10303
▁Br -10304
▁220 -10305
▁교도소 -10306
▁등용 -10307
▁1897 -10308
▁파병 -10309
▁안경 -10310
▁버클리 -10311
▁스크립트 -10312
▁1860 -10313
▁노이 -10314
▁타케 -10315
▁회피 -10316
▁각색 -10317
▁반군 -10318
▁평창 -10319
▁기저 -10320
▁터보 -10321
▁돌기 -10322
땅 -10323
▁비오 -10324
▁까닭 -10325
▁조형 -10326
▁마카오 -10327
▁절단 -10328
▁아미노산 -10329
▁요약 -10330
▁태백 -10331
▁석불 -10332
▁더욱이 -10333
▁어찌 -10334
▁일부분 -10335
▁방송인 -10336
▁르노 -10337
▁자카 -10338
▁카즈 -10339
▁장자 -10340
▁쥐속 -10341
▁취미 -10342
▁휴가 -10343
▁밀란 -10344
▁상법 -10345
▁포스터 -10346
▁Ex -10347
벤처 -10348
사업 -10349
▁고이 -10350
▁하키 -10351
▁깨끗 -10352
▁용서 -10353
▁어드벤처 -10354
▁메라 -10355
▁샌디 -10356
▁당연히 -10357
▁뇨 -10358
▁감안 -10359
▁사카이 -10360
▁카타르 -10361
▁메커니즘 -10362
▁민간인 -10363
▁Is -10364
▁마가 -10365
▁마애 -10366
▁가열 -10367
▁정화 -10368
▁배우자 -10369
▁페이스북 -10370
듐 -10371
도스 -10372
사우 -10373
파리 -10374
▁가의 -10375
▁공황 -10376
▁유닉스 -10377
▁피고인 -10378
캐롤라이나 -10379
지스 -10380
▁타우 -10381
▁랍 -10382
▁리히 -10383
사이드 -10384
▁일파 -10385
▁이주하 -10386
▁스트라이크 -10387
츠크 -10388
▁루비 -10389
▁수료 -10390
스카르 -10391
▁물가 -10392
▁올드 -10393
▁의결 -10394
▁맞붙 -10395
▁연대기 -10396
▁122 -10397
▁2022 -10398
▁가계 -10399
▁시야 -10400
▁강희 -10401
▁마당 -10402
▁낙동 -10403
▁음향 -10404
▁진전 -10405
니오 -10406
속기 -10407
▁갈래 -10408
▁대출 -10409
▁확진 -10410
반구 -10411
▁라오 -10412
▁콘테 -10413
▁화순 -10414
▁동형 -10415
▁안산 -10416
▁전산 -10417
▁강남구 -10418
▁중공업 -10419
▁사살 -10420
▁침체 -10421
▁모티브 -10422
▁되돌리 -10423
▁컨트리 -10424
케이드 -10425
▁안치 -10426
▁경제학자 -10427
▁NGC -10428
▁윤보 -10429
▁바르샤바 -10430
▁con -10431
▁ㄴ지 -10432
▁처지 -10433
▁농사 -10434
▁소행 -10435
▁입주 -10436
▁미네소 -10437
▁스퀘어 -10438
푸아 -10439
▁네오 -10440
▁을까 -10441
▁이반 -10442
▁종파 -10443
▁공손 -10444
▁북경 -10445
▁떡 -10446
▁티코 -10447
▁급수 -10448
▁저렴 -10449
▁효종 -10450
토르 -10451
콥터 -10452
▁막시 -10453
▁모용 -10454
▁상고 -10455
▁마라톤 -10456
▁종점 -10457
▁클라크 -10458
▁솔루션 -10459
▁흥선대원군 -10460
갛 -10461
로니 -10462
▁호쿠 -10463
라이어 -10464
▁가신 -10465
▁민정 -10466
▁일자리 -10467
▁;& -10468
▁고토 -10469
▁데카 -10470
▁노태우 -10471
▁천연기념물 -10472
나드 -10473
▁구약 -10474
▁대관 -10475
▁접수 -10476
▁폭로 -10477
▁군청 -10478
▁반전 -10479
▁아마존 -10480
▁마블 -10481
▁장제 -10482
▁옥수수 -10483
▁사적 -10484
▁석회 -10485
▁상트페 -10486
▁거짓말 -10487
램 -10488
▁브룩 -10489
▁청색 -10490
▁설립자 -10491
▁BM -10492
▁예명 -10493
▁체력 -10494
▁용암 -10495
▁세네 -10496
▁야시 -10497
▁건륭 -10498
▁공용어 -10499
닛 -10500
▁루크 -10501
▁빈도 -10502
▁추론 -10503
기구 -10504
산성 -10505
▁앨리 -10506
▁짐작 -10507
▁한층 -10508
▁애리 -10509
ii -10510
▁깎 -10511
▁벽화 -10512
▁수중 -10513
▁중원 -10514
▁진행자 -10515
▁법정동 -10516
▁안드레아 -10517
네시 -10518
▁1880 -10519
▁가가 -10520
▁스노 -10521
▁아소 -10522
▁함양 -10523
▁그리스인 -10524
ake -10525
거진 -10526
▁무슨 -10527
▁이언 -10528
▁일괄 -10529
▁갤러리 -10530
▁붙여지 -10531
▁극작가 -10532
iss -10533
▁133 -10534
▁셜 -10535
럴리 -10536
▁창의 -10537
▁갑옷 -10538
▁아나키 -10539
own -10540
▁유정 -10541
▁이빨 -10542
▁강철 -10543
▁장원 -10544
▁제작사 -10545
▁일러스트 -10546
▁집결 -10547
▁후반기 -10548
니지 -10549
▁CBS -10550
▁몽고 -10551
▁밀러 -10552
▁타협 -10553
▁장흥 -10554
▁펜싱 -10555
▁페널티 -10556
퍼슨 -10557
▁니카 -10558
▁버마 -10559
▁소령 -10560
▁심화 -10561
▁전격 -10562
▁정경 -10563
▁패럴리 -10564
clude -10565
자치시 -10566
▁살피 -10567
▁번성 -10568
▁신동 -10569
▁왕정 -10570
▁입양 -10571
▁특별자치시 -10572
▁렘 -10573
▁세라 -10574
▁선대 -10575
▁헬륨 -10576
▁파라과이 -10577
▁무술 -10578
▁이장 -10579
▁어로 -10580
▁치우 -10581
▁자생 -10582
▁간신 -10583
▁디트로 -10584
▁게릴라 -10585
▁두개골 -10586
▁손꼽히 -10587
▁디트로이트 -10588
▁붐 -10589
바야시 -10590
▁쳐들 -10591
▁키예프 -10592
▁Mus -10593
▁무로 -10594
▁카레 -10595
▁기성 -10596
▁심야 -10597
▁연못 -10598
▁시비 -10599
▁초코 -10600
▁올림피 -10601
▁함부르크 -10602
▁수녀 -10603
▁농어 -10604
▁실적 -10605
▁스리랑카 -10606
▁추리 -10607
▁자결 -10608
▁나란히 -10609
▁가네 -10610
▁도사 -10611
▁보강 -10612
▁연동 -10613
▁이동하 -10614
타마 -10615
▁이규 -10616
▁청소 -10617
▁호응 -10618
▁새로이 -10619
▁겉보기 -10620
▁인테르 -10621
▁유령 -10622
곰 -10623
▁++ -10624
▁무스 -10625
▁오지 -10626
▁신정 -10627
▁미생물 -10628
▁아치 -10629
▁그레고리 -10630
▁돌아다니 -10631
▁애틀랜타 -10632
룸 -10633
▁감추 -10634
▁유대교 -10635
▁그림자 -10636
▁아래쪽 -10637
사관학교 -10638
HO -10639
ᅪᆼ -10640
▁위나라 -10641
▁평민 -10642
▁대성전 -10643
old -10644
▁수심 -10645
▁공약 -10646
위성 -10647
▁이모 -10648
▁니콜 -10649
▁오락 -10650
▁합당 -10651
UR -10652
▁GDP -10653
어뜨리 -10654
▁진료 -10655
▁광양 -10656
▁문경 -10657
에미 -10658
▁파우 -10659
▁복권 -10660
▁적군 -10661
▁종말 -10662
▁괴롭히 -10663
▁무궁화 -10664
타케 -10665
▁제왕 -10666
▁지청 -10667
▁찰리 -10668
▁그렇지만 -10669
미즈 -10670
▁더비 -10671
▁유스 -10672
▁애칭 -10673
▁포도당 -10674
▁인디애나 -10675
▁뻔 -10676
▁드레 -10677
▁과실 -10678
▁극락 -10679
갖 -10680
▁듀오 -10681
▁숙주 -10682
▁진수 -10683
▁마다가 -10684
▁특색 -10685
▁재해 -10686
▁조계 -10687
▁돌입 -10688
▁탁월 -10689
▁사무총장 -10690
Hz -10691
▁132 -10692
▁카지 -10693
▁개항 -10694
▁격자 -10695
▁내걸 -10696
▁추종 -10697
▁미주리 -10698
▁베네딕 -10699
▁시뮬레이션 -10700
흔 -10701
▁바디 -10702
▁등극 -10703
▁지방산 -10704
ork -10705
▁뾰 -10706
라기 -10707
스트리 -10708
▁정인 -10709
벨라 -10710
▁교육부 -10711
▁패럴림픽 -10712
▁or -10713
▁pro -10714
▁스로 -10715
▁위생 -10716
▁결핍 -10717
▁즐겁 -10718
▁출석 -10719
▁경쟁력 -10720
▁준결승전 -10721
버러 -10722
▁리모 -10723
▁재난 -10724
GA -10725
▁NE -10726
미스 -10727
▁툰 -10728
▁브랜 -10729
▁수년 -10730
▁조병 -10731
▁파이프 -10732
▁엘리트 -10733
▁그레고리오 -10734
ix -10735
lo -10736
▁주화 -10737
▁ᆫ다며 -10738
▁국수 -10739
▁확고 -10740
▁마우스 -10741
▁반역 -10742
▁원격 -10743
() -10744
뛰 -10745
▁ES -10746
거래 -10747
파크 -10748
▁극도 -10749
▁우상 -10750
▁선장 -10751
▁글로브 -10752
▁홍문관 -10753
해튼 -10754
▁국유 -10755
▁열심 -10756
세기 -10757
▁싣 -10758
▁인프라 -10759
CAF -10760
▁결제 -10761
▁마린 -10762
▁김옥 -10763
▁속편 -10764
▁대지진 -10765
▁프랭클린 -10766
▁삼국사기 -10767
플로 -10768
▁사쿠 -10769
▁동요 -10770
▁총무 -10771
▁요제프 -10772
ick -10773
▁피로 -10774
▁초원 -10775
▁감동 -10776
▁김민 -10777
▁빈번 -10778
▁우체국 -10779
루냐 -10780
원장 -10781
▁요법 -10782
▁명분 -10783
▁후속작 -10784
▁Ro -10785
ence -10786
멘스 -10787
▁격차 -10788
▁타석 -10789
▁크라이 -10790
▁클레이 -10791
러피 -10792
메다 -10793
▁청자 -10794
▁황도 -10795
▁상연 -10796
▁현직 -10797
▁현황 -10798
▁농산물 -10799
▁고스 -10800
▁워치 -10801
▁호족 -10802
위원회 -10803
▁kt -10804
해지 -10805
▁낚 -10806
▁벡 -10807
천사 -10808
▁페로 -10809
▁대국 -10810
▁미셸 -10811
▁단행본 -10812
▁스트라이커 -10813
▁La -10814
할시 -10815
▁시종 -10816
▁어떻 -10817
▁바실리 -10818
▁동성애자 -10819
▁시노 -10820
▁대각 -10821
▁세손 -10822
▁보헤미아 -10823
▁복음서 -10824
변이 -10825
홀름 -10826
▁공파 -10827
▁베른 -10828
▁총기 -10829
▁앞장 -10830
▁돌연변이 -10831
▁DM -10832
를테 -10833
를테면 -10834
▁창시자 -10835
▁이를테면 -10836
▁평안북도 -10837
▁초고 -10838
▁속주 -10839
▁매끄럽 -10840
▁PR -10841
▁To -10842
▁의과 -10843
▁카바 -10844
▁하고 -10845
▁현행 -10846
▁다람쥐 -10847
▁신상 -10848
▁앨리스 -10849
▁USS -10850
▁숀 -10851
▁주지 -10852
▁상기 -10853
▁숨지 -10854
▁발각 -10855
▁온갖 -10856
▁활주로 -10857
▁CEO -10858
▁짱 -10859
▁왜구 -10860
ection -10861
▁단과 -10862
▁듀얼 -10863
▁만년 -10864
▁해부 -10865
▁자세히 -10866
▁타이베이 -10867
▁볼셰비키 -10868
헌영 -10869
▁공표 -10870
▁속이 -10871
▁이득 -10872
▁재질 -10873
▁비주얼 -10874
▁중앙부 -10875
▁꿈꾸 -10876
▁앙고 -10877
▁말년 -10878
▁칼뱅 -10879
▁무조건 -10880
▁Ph -10881
▁1885 -10882
▁두렵 -10883
▁테일 -10884
▁매거진 -10885
▁청동기 -10886
▁쓸 -10887
▁only -10888
▁로리 -10889
▁제너 -10890
▁이븐 -10891
▁장대 -10892
▁표창 -10893
▁450 -10894
▁NAS -10895
▁저격 -10896
▁모터스 -10897
▁통틀어 -10898
▁합스부르크 -10899
▁우즈베키스탄 -10900
▁un -10901
제이 -10902
▁리미 -10903
▁빠져 -10904
▁아쿠 -10905
▁우아 -10906
▁소울 -10907
▁관동 -10908
▁앞쪽 -10909
▁Mar -10910
▁1870 -10911
▁애리조 -10912
▁프랜시스 -10913
EM -10914
삭스 -10915
십자 -10916
▁보라 -10917
▁휴게 -10918
▁메릴 -10919
▁서장 -10920
▁수염 -10921
▁국악 -10922
▁평안남도 -10923
ear -10924
지기 -10925
▁로페 -10926
▁아끼 -10927
▁낙하 -10928
▁세븐 -10929
▁신종 -10930
▁암흑 -10931
▁지지율 -10932
▁아이스하키 -10933
쓸 -10934
lass -10935
▁1871 -10936
▁배속 -10937
▁돌출 -10938
▁복식 -10939
▁정관 -10940
▁로렌스 -10941
ild -10942
▁카터 -10943
▁오클랜드 -10944
▁소피아 -10945
▁빅토르 -10946
▁양성자 -10947
ance -10948
티시 -10949
프로 -10950
▁맹세 -10951
▁봉수 -10952
▁동참 -10953
▁수원시 -10954
▁알래스카 -10955
▁샬 -10956
▁아빠 -10957
▁생계 -10958
▁입수 -10959
▁앤더슨 -10960
▁1600 -10961
▁중생 -10962
▁파나마 -10963
▁댓 -10964
▁요지 -10965
러피언 -10966
힐 -10967
▁른 -10968
▁맷 -10969
▁호의 -10970
▁시국 -10971
▁투항 -10972
▁파문 -10973
▁감금 -10974
▁불행 -10975
▁예정자 -10976
▁스텔 -10977
▁정국 -10978
▁기병대 -10979
▁아스널 -10980
테쓰 -10981
▁내성 -10982
▁막히 -10983
▁따라가 -10984
▁케이프 -10985
▁센고쿠 -10986
▁윤보선 -10987
▁유러피언 -10988
▁해치 -10989
▁역도 -10990
▁디렉터 -10991
▁1200 -10992
공산 -10993
▁중서 -10994
▁마다가스카르 -10995
체고 -10996
리즘 -10997
체고비나 -10998
ᆨ션 -10999
▁매직 -11000
▁성령 -11001
▁양육 -11002
▁SL -11003
타이드 -11004
▁GN -11005
코토 -11006
▁장단 -11007
▁청룡 -11008
▁대장군 -11009
▁리비 -11010
▁수다 -11011
▁위스 -11012
▁유료 -11013
▁흉노 -11014
▁김병 -11015
▁탑신 -11016
▁vs -11017
▁해저 -11018
▁맞대 -11019
▁참사 -11020
▁홀리 -11021
▁내무부 -11022
▁마닐라 -11023
▁240 -11024
▁아요 -11025
▁포고 -11026
▁생선 -11027
▁편집자 -11028
▁루카 -11029
▁화랑 -11030
스기 -11031
▁재외 -11032
▁서산 -11033
▁출가 -11034
▁중상 -11035
▁구마모토 -11036
▁김규식 -11037
▁맨해튼 -11038
▁부원군 -11039
▁알렉스 -11040
▁AD -11041
▁오미 -11042
천면 -11043
▁내면 -11044
▁함자 -11045
▁마르크스주의 -11046
▁지오 -11047
▁전날 -11048
▁해리슨 -11049
▁잡아먹 -11050
▁헛 -11051
▁시애 -11052
▁케라 -11053
▁교실 -11054
▁앤드루 -11055
ans -11056
irl -11057
▁지쿠 -11058
▁조광 -11059
▁김정은 -11060
어오 -11061
ivers -11062
▁난이 -11063
▁빨갛 -11064
▁제조업 -11065
▁EBS -11066
▁즘 -11067
▁이완 -11068
OV -11069
관리 -11070
▁리터 -11071
▁비늘 -11072
▁자칭 -11073
▁지성 -11074
include -11075
▁능선 -11076
▁국보 -11077
▁벤치 -11078
▁송도 -11079
▁다나카 -11080
▁플랜 -11081
▁동물원 -11082
▁헬리콥터 -11083
ype -11084
틱스 -11085
▁부조 -11086
▁경희 -11087
▁오로지 -11088
▁활발히 -11089
▁쿡 -11090
▁초빙 -11091
▁친분 -11092
▁기상청 -11093
▁오른손 -11094
▁Sy -11095
ᅥᆯ링 -11096
▁경질 -11097
▁반란군 -11098
러브 -11099
▁남산 -11100
▁리조트 -11101
▁공민왕 -11102
▁고마 -11103
▁일리 -11104
▁궁궐 -11105
▁차리 -11106
▁뾰족 -11107
▁대대로 -11108
▁시애틀 -11109
▁역사가 -11110
▁": -11111
▁구청 -11112
▁이방 -11113
▁파인 -11114
▁레이크 -11115
▁성남시 -11116
ish -11117
▁멍 -11118
▁슛 -11119
▁리바 -11120
▁리보 -11121
▁이양 -11122
▁관행 -11123
▁서재필 -11124
▁보로 -11125
▁경시 -11126
▁관문 -11127
▁대사헌 -11128
▁왕세자 -11129
▁허드 -11130
▁증인 -11131
▁실험실 -11132
▁CM -11133
라고 -11134
▁고쿠 -11135
▁스모 -11136
▁조례 -11137
▁남해 -11138
▁제동 -11139
▁자치체 -11140
▁대합실 -11141
▁모데 -11142
테리아 -11143
▁화엄 -11144
▁창문 -11145
▁루돌프 -11146
▁박헌영 -11147
▁NT -11148
프레 -11149
▁호크 -11150
▁효자 -11151
▁시중 -11152
▁재활 -11153
▁정제 -11154
▁프라하 -11155
▁하노이 -11156
▁사각형 -11157
▁프로리그 -11158
턱 -11159
바나 -11160
▁수인 -11161
▁몸통 -11162
▁상급 -11163
쩌둥 -11164
▁테리 -11165
▁광도 -11166
▁무척 -11167
▁반성 -11168
▁징병 -11169
▁마오쩌둥 -11170
▁려던 -11171
▁위너스 -11172
▁동대문 -11173
▁미군정 -11174
▁@ -11175
▁ex -11176
▁카테 -11177
▁감수 -11178
▁불태우 -11179
▁줄거리 -11180
▁러시아인 -11181
GM -11182
무소 -11183
▁분과 -11184
▁차용 -11185
▁티켓 -11186
▁원심 -11187
▁신문사 -11188
▁얕 -11189
맥스 -11190
▁드미 -11191
▁모호 -11192
▁화기 -11193
▁허정 -11194
텔레스 -11195
▁성실 -11196
▁통용 -11197
잘 -11198
▁나우 -11199
oun -11200
▁괄 -11201
▁개헌 -11202
▁섬세 -11203
▁시합 -11204
▁해리스 -11205
어사 -11206
▁바트 -11207
▁시그 -11208
▁퍼스 -11209
▁가늘 -11210
▁수양 -11211
▁안녕 -11212
▁테라 -11213
▁민요 -11214
▁산호 -11215
▁총통 -11216
AF -11217
▁sc -11218
▁쾰 -11219
원수 -11220
▁강풍 -11221
▁네이션스컵 -11222
▁에프 -11223
▁코리 -11224
▁각성 -11225
▁끌려가 -11226
OD -11227
돔 -11228
▁시부 -11229
▁카피 -11230
▁주임 -11231
▁브루스 -11232
▁약혼 -11233
▁퍼스트 -11234
▁부각 -11235
▁어군 -11236
▁한하 -11237
▁아키라 -11238
▁메카 -11239
등식 -11240
▁나선 -11241
▁문고 -11242
▁씨앗 -11243
▁남용 -11244
▁내야수 -11245
▁아키타 -11246
▁칼럼 -11247
▁통역 -11248
▁분류군 -11249
are -11250
▁메뉴 -11251
▁이룩 -11252
▁퇴장 -11253
▁로드리 -11254
▁긴테쓰 -11255
▁클린턴 -11256
▁함경남도 -11257
▁아리스토텔레스 -11258
▁극한 -11259
▁요시다 -11260
▁수교 -11261
▁파도 -11262
▁총애 -11263
▁하반 -11264
▁김원 -11265
▁농경 -11266
▁제퍼슨 -11267
▁올림피아 -11268
fe -11269
사상 -11270
정원 -11271
▁당내 -11272
▁스톡홀름 -11273
▁차갑 -11274
ical -11275
▁로버 -11276
▁카니 -11277
▁볼로 -11278
▁관청 -11279
▁평형 -11280
▁솔로몬 -11281
▁배려 -11282
▁독도 -11283
▁독창 -11284
▁비타민 -11285
▁예선전 -11286
▁총사령관 -11287
TP -11288
▁가소 -11289
▁페니 -11290
▁포착 -11291
▁검정 -11292
▁서대문 -11293
EG -11294
lat -11295
▁러스 -11296
▁경호 -11297
▁보행 -11298
▁Jo -11299
창호 -11300
▁진해 -11301
▁자치주 -11302
▁칙령 -11303
▁뉴클레 -11304
▁동유럽 -11305
▁스가 -11306
▁냐는 -11307
▁아무것 -11308
▁친위대 -11309
▁전래 -11310
스토랑 -11311
▁천왕 -11312
▁알프스 -11313
▁레스토랑 -11314
▁모의 -11315
▁학설 -11316
▁득표율 -11317
▁묘비 -11318
▁타스 -11319
▁하류 -11320
▁수필 -11321
▁마천루 -11322
▁선거법 -11323
▁드루 -11324
▁마차 -11325
암동 -11326
통일 -11327
▁들여 -11328
▁반기 -11329
▁색소 -11330
▁CH -11331
▁개개 -11332
▁럭비 -11333
▁주입 -11334
▁메이커 -11335
▁신발 -11336
▁일당 -11337
▁구내 -11338
▁도교 -11339
▁자제 -11340
▁MTV -11341
컨대 -11342
▁마셜 -11343
▁바이트 -11344
▁뛰어들 -11345
메스 -11346
▁겁 -11347
▁원통 -11348
▁컴퓨팅 -11349
▁뵈 -11350
▁모어 -11351
▁유혹 -11352
▁황소 -11353
▁ABC -11354
▁전무 -11355
▁개구리 -11356
IR -11357
▁AV -11358
▁마켓 -11359
▁연극배우 -11360
▁벅 -11361
▁추이 -11362
▁퍼포 -11363
▁근사 -11364
▁수복 -11365
▁천거 -11366
▁데려오 -11367
▁욕망 -11368
▁대원군 -11369
▁콘테스트 -11370
▁DD -11371
▁라서 -11372
▁포토 -11373
▁웨인 -11374
▁케인 -11375
▁프론 -11376
▁삼존 -11377
▁는다면 -11378
▁브레이크 -11379
▁화강암 -11380
▁헤르체고비나 -11381
▁북아일랜드 -11382
▁야드 -11383
▁분파 -11384
▁장시 -11385
▁제물 -11386
▁만장 -11387
▁상행 -11388
▁퍼포먼스 -11389
▁pr -11390
대교 -11391
바흐 -11392
▁210 -11393
▁라자 -11394
▁리사 -11395
▁치과 -11396
신문 -11397
▁시몬 -11398
▁찬사 -11399
▁다저스 -11400
▁페트로 -11401
▁헬싱 -11402
▁케플러 -11403
▁알파벳 -11404
▁ATP -11405
▁멧 -11406
▁성화 -11407
▁박종 -11408
▁방콕 -11409
▁불변 -11410
▁용인시 -11411
놀이 -11412
▁매리 -11413
환경 -11414
▁소음 -11415
▁포식 -11416
▁엄밀 -11417
▁천국 -11418
▁프레데 -11419
▁프린스 -11420
톡 -11421
▁투자자 -11422
▁피라미 -11423
▁스폰서 -11424
▁경전철 -11425
▁뉴클레오 -11426
▁Ma -11427
▁마술 -11428
▁정거 -11429
▁유아기 -11430
▁유치원 -11431
▁주차장 -11432
깐 -11433
▁비토 -11434
▁넷째 -11435
▁백두 -11436
▁강령 -11437
▁톈진 -11438
▁튀르크 -11439
▁엥 -11440
▁호스 -11441
▁고든 -11442
▁벤처 -11443
▁파손 -11444
▁스테파 -11445
▁실존 -11446
▁목요일 -11447
히트 -11448
▁특전 -11449
▁he -11450
매매 -11451
▁폭파 -11452
FL -11453
▁Fr -11454
▁약사 -11455
▁정부군 -11456
ey -11457
▁위그 -11458
▁리본 -11459
▁유권자 -11460
60 -11461
ica -11462
티넘 -11463
▁마에 -11464
▁스칸 -11465
▁영유 -11466
▁토스카 -11467
덴부르크 -11468
▁와이번스 -11469
▁플래티넘 -11470
EL -11471
▁대본 -11472
▁봉화 -11473
▁이점 -11474
▁프렌 -11475
▁실권 -11476
▁아나토 -11477
▁나트륨 -11478
▁보수당 -11479
▁오리온 -11480
▁도둑 -11481
▁뭉치 -11482
▁슬하 -11483
▁야전 -11484
▁차출 -11485
▁쾰른 -11486
▁선구자 -11487
▁적외선 -11488
▁플라톤 -11489
수스 -11490
카리 -11491
▁다테 -11492
난성 -11493
▁중퇴 -11494
▁실정 -11495
▁피아니스트 -11496
부르 -11497
▁1889 -11498
▁구니 -11499
▁채취 -11500
천동 -11501
▁밸리 -11502
ᆸ시 -11503
브리아 -11504
▁김유 -11505
▁노론 -11506
▁전담 -11507
▁연산군 -11508
▁츄 -11509
군다 -11510
면체 -11511
▁하구 -11512
▁구실 -11513
▁사방 -11514
▁마누엘 -11515
▁주계 -11516
▁가락 -11517
▁가맹 -11518
▁별세 -11519
▁가이드 -11520
▁선천 -11521
▁예수회 -11522
▁책임지 -11523
▁눕 -11524
렉스 -11525
▁구두 -11526
▁아날 -11527
▁국공 -11528
▁영정 -11529
▁경영자 -11530
▁이의 -11531
▁하시 -11532
▁퇴직 -11533
▁송신 -11534
▁절망 -11535
사고 -11536
▁호대 -11537
▁CONCA -11538
▁본작 -11539
▁칸국 -11540
▁패트릭 -11541
▁부치 -11542
▁방치 -11543
▁결별 -11544
충류 -11545
▁베트 -11546
▁찬양 -11547
▁갈아 -11548
▁중수 -11549
▁아이폰 -11550
▁CONCACAF -11551
▁스카우트 -11552
▁Live -11553
▁오디 -11554
▁의류 -11555
테이너 -11556
▁유선 -11557
▁실록 -11558
▁왕권 -11559
▁밴쿠버 -11560
▁투여 -11561
▁니혼 -11562
▁소중 -11563
▁준수 -11564
▁무실 -11565
▁블레 -11566
▁요충 -11567
▁동시대 -11568
▁초신성 -11569
▁로크 -11570
▁제노 -11571
▁이송 -11572
▁펌프 -11573
▁화약 -11574
▁국당 -11575
▁산성 -11576
▁삼림 -11577
▁침묵 -11578
▁기관지 -11579
▁안테나 -11580
▁센티미터 -11581
위안 -11582
▁새우 -11583
▁메디치 -11584
▁본성 -11585
▁정읍 -11586
▁정형 -11587
공산당 -11588
▁앞장서 -11589
▁반포 -11590
▁여권 -11591
▁중합 -11592
▁For -11593
▁시크 -11594
▁능하 -11595
▁스텝 -11596
▁어는 -11597
▁딥 -11598
▁ㅓ야 -11599
▁JTBC -11600
렉션 -11601
▁소극 -11602
▁영예 -11603
▁종자 -11604
▁직통 -11605
▁미야자키 -11606
bo -11607
▁So -11608
▁라리 -11609
▁쿠니 -11610
▁의령 -11611
▁엔트리 -11612
란토 -11613
▁감찰 -11614
sh -11615
▁종식 -11616
▁방어선 -11617
▁따지 -11618
▁미수 -11619
▁여유 -11620
▁코네 -11621
▁오바마 -11622
▁정종 -11623
▁고속버스 -11624
▁가나가와현 -11625
소통 -11626
▁가도 -11627
▁사서 -11628
▁무형 -11629
▁슬픔 -11630
▁사로잡 -11631
▁비야 -11632
▁서스 -11633
▁우림 -11634
말리 -11635
▁동로 -11636
▁모금 -11637
▁은거 -11638
▁켈트 -11639
▁공존 -11640
▁김형 -11641
블랜드 -11642
EE -11643
휴일 -11644
▁치루 -11645
▁대영 -11646
▁유목 -11647
▁습윤 -11648
▁카탈루냐 -11649
▁메소 -11650
하이오 -11651
▁인가 -11652
▁오하이오 -11653
IL -11654
찮 -11655
tern -11656
▁리베 -11657
▁피지 -11658
▁다윈 -11659
▁백과 -11660
▁비엔 -11661
▁치환 -11662
▁트릭 -11663
▁마르세 -11664
▁불량 -11665
▁시네마 -11666
▁형질 -11667
▁유격수 -11668
▁나카무라 -11669
▁의사소통 -11670
▁Sou -11671
칼리 -11672
바이트 -11673
▁받치 -11674
▁연말 -11675
▁전전 -11676
ᇁ이 -11677
▁int -11678
▁밸 -11679
▁기와 -11680
도르프 -11681
▁요격 -11682
▁도망가 -11683
▁소말리아 -11684
▁클리블랜드 -11685
▁GB -11686
▁지자 -11687
▁격리 -11688
▁리옹 -11689
▁튼 -11690
▁구르 -11691
▁에리 -11692
▁권하 -11693
▁자유민주당 -11694
대표 -11695
와라노 -11696
▁판례 -11697
▁플러 -11698
▁김준 -11699
▁당연 -11700
▁원군 -11701
▁떨어뜨리 -11702
▁후지와라노 -11703
▁기이 -11704
▁바지 -11705
▁미야기 -11706
▁작물 -11707
ost -11708
밤 -11709
▁모하 -11710
▁송출 -11711
▁임정 -11712
▁평평 -11713
▁레이싱 -11714
▁유니버설 -11715
▁프란체스코 -11716
가미 -11717
부로 -11718
캐슬 -11719
▁Time -11720
▁대북 -11721
▁강렬 -11722
▁불참 -11723
▁AKB -11724
▁Com -11725
▁쿠퍼 -11726
▁추력 -11727
▁말미암 -11728
▁피라미드 -11729
ood -11730
span -11731
▁Col -11732
▁사설 -11733
▁한미 -11734
▁건전 -11735
▁연정 -11736
▁카카오 -11737
▁로마인 -11738
▁접어들 -11739
펑 -11740
▁여고 -11741
▁후배 -11742
▁고딕 -11743
▁사탕 -11744
▁열강 -11745
▁두려움 -11746
▁잇따르 -11747
대사 -11748
▁늙 -11749
▁거미 -11750
▁금산 -11751
▁절정 -11752
▁생존자 -11753
▁타이거스 -11754
▁onlyinclude -11755
▁징수 -11756
▁감성 -11757
▁왕건 -11758
▁타이어 -11759
에미리트 -11760
▁아랍에미리트 -11761
간다 -11762
▁Part -11763
▁수락 -11764
▁펠로 -11765
▁여배우 -11766
▁TR -11767
에몽 -11768
▁뉴캐슬 -11769
자루 -11770
▁자서 -11771
▁샘플 -11772
▁발라드 -11773
현동 -11774
▁격추 -11775
▁비준 -11776
▁레이트 -11777
▁성곽 -11778
▁집정 -11779
▁토리노 -11780
▁검은색 -11781
row -11782
거스 -11783
▁라르 -11784
▁무네 -11785
▁댄서 -11786
▁감상 -11787
▁항만 -11788
▁교통부 -11789
▁공휴일 -11790
▁낙동강 -11791
▁워커 -11792
▁볼트 -11793
▁라이더 -11794
▁한림 -11795
▁똑같이 -11796
망디 -11797
▁사쓰 -11798
▁서임 -11799
▁애정 -11800
▁하행 -11801
▁리프트 -11802
▁삼중 -11803
▁잠정 -11804
▁튀니지 -11805
▁부총리 -11806
▁카스티야 -11807
▁대승불교 -11808
▁프랑스인 -11809
▁EU -11810
▁엮 -11811
▁수로 -11812
▁매킨 -11813
▁유식 -11814
▁간첩 -11815
▁장학금 -11816
지로 -11817
▁해태 -11818
▁해피 -11819
▁올레 -11820
▁우한 -11821
▁재팬 -11822
▁레이더 -11823
▁열심히 -11824
▁"& -11825
▁극우 -11826
lay -11827
ᆯ리니 -11828
▁여서 -11829
정동 -11830
▁로얄 -11831
애미 -11832
▁1848 -11833
▁아케 -11834
▁김명 -11835
▁문집 -11836
▁음절 -11837
▁마이애미 -11838
uc -11839
olog -11840
▁카토 -11841
마르크 -11842
▁마이어 -11843
▁컨트롤 -11844
▁일본국 -11845
ous -11846
ows -11847
지능 -11848
▁랴오 -11849
▁당기 -11850
▁무안 -11851
▁브레이 -11852
▁인공지능 -11853
의사 -11854
지부 -11855
▁무과 -11856
▁예약 -11857
▁오만 -11858
프랑크 -11859
▁다이어 -11860
▁여의도 -11861
▁모색 -11862
▁순종 -11863
파니아 -11864
▁공대 -11865
▁사역 -11866
▁해독 -11867
해살이 -11868
▁광복군 -11869
▁병자 -11870
▁기숙사 -11871
▁정거장 -11872
▁EM -11873
▁API -11874
▁도피 -11875
▁치카 -11876
▁토트 -11877
▁보령 -11878
▁비정 -11879
▁추억 -11880
▁시코쿠 -11881
▁시멘트 -11882
▁클라우 -11883
메니 -11884
▁유의 -11885
▁유희 -11886
▁공소 -11887
▁김광 -11888
▁절벽 -11889
▁종군 -11890
뒤 -11891
화문 -11892
▁가두 -11893
▁서태 -11894
▁사민 -11895
▁남군 -11896
▁에이즈 -11897
▁국제법 -11898
찌르 -11899
▁도래 -11900
▁로키 -11901
▁류큐 -11902
▁베어 -11903
▁목회 -11904
▁제명 -11905
▁포털 -11906
▁프랑스령 -11907
▁쿠비 -11908
▁티아 -11909
스트로 -11910
▁부평 -11911
▁악보 -11912
▁천주 -11913
▁굴절 -11914
▁우루스 -11915
▁한중 -11916
OP -11917
▁깜 -11918
▁나인 -11919
▁마땅 -11920
▁재일 -11921
▁그랜트 -11922
▁at -11923
풀이 -11924
▁그저 -11925
▁까마 -11926
▁여사 -11927
▁거란 -11928
▁전보 -11929
▁인칭 -11930
▁지상파 -11931
▁카메룬 -11932
▁정치학 -11933
▁아이즈 -11934
▁정의당 -11935
az -11936
클리드 -11937
▁경복 -11938
▁글꼴 -11939
▁고인돌 -11940
▁법원장 -11941
▁관현악단 -11942
▁Bla -11943
▁챙 -11944
▁제위 -11945
▁명소 -11946
▁조인 -11947
▁산둥 -11948
▁저지대 -11949
▁정작 -11950
▁황색 -11951
깝 -11952
말로 -11953
▁가쿠 -11954
▁모건 -11955
▁평지 -11956
▁스타트 -11957
▁하노버 -11958
▁마법사 -11959
▁부딪히 -11960
띠 -11961
▁131 -11962
▁교의 -11963
트르 -11964
▁리카 -11965
▁항체 -11966
▁대나무 -11967
▁선명 -11968
▁종양 -11969
▁u -11970
웬 -11971
▁녕 -11972
▁홉 -11973
▁비대 -11974
페스트 -11975
▁공성 -11976
▁문단 -11977
▁탄약 -11978
히사 -11979
젤로 -11980
메이카 -11981
▁급여 -11982
▁특화 -11983
▁무찌르 -11984
▁익숙 -11985
▁총격 -11986
▁대니얼 -11987
▁자메이카 -11988
orn -11989
▁Your -11990
▁케르 -11991
▁안개 -11992
▁엔드 -11993
▁국한 -11994
▁지배자 -11995
서스 -11996
▁고로 -11997
▁하코 -11998
▁귀신 -11999
▁업자 -12000
▁김인 -12001
▁드디어 -12002
▁제이슨 -12003
▁줄기세포 -12004
ann -12005
▁캅 -12006
▁대마 -12007
▁모욕 -12008
▁숙부 -12009
▁안나 -12010
▁전한 -12011
▁BC -12012
▁곶 -12013
▁NASA -12014
▁워즈 -12015
▁명확히 -12016
펀 -12017
▁OST -12018
▁SNS -12019
▁지석 -12020
▁안방 -12021
▁용액 -12022
▁제우스 -12023
▁욱 -12024
▁금호 -12025
▁쌍대 -12026
▁클러 -12027
른스트 -12028
▁줄리아 -12029
▁텍사스주 -12030
▁헐 -12031
▁계주 -12032
▁유우 -12033
네그로 -12034
▁방대 -12035
▁양심 -12036
시노 -12037
▁ref -12038
▁1883 -12039
▁연희 -12040
▁탄자 -12041
▁공영 -12042
뿌 -12043
ᅢᆼ이 -12044
▁가혹 -12045
▁적료 -12046
▁남방 -12047
▁동산 -12048
▁고분군 -12049
▁보수주의 -12050
80 -12051
추부사 -12052
▁사림 -12053
▁에스페 -12054
▁판소리 -12055
▁슐 -12056
▁가우 -12057
▁사수 -12058
▁혼다 -12059
▁헤어지 -12060
▁레드삭스 -12061
▁서귀 -12062
▁유공 -12063
▁하남 -12064
▁바그너 -12065
▁설문 -12066
▁간신히 -12067
▁훙 -12068
▁노면 -12069
▁삽화 -12070
▁수식 -12071
▁프로그래머 -12072
▁니키 -12073
▁부다 -12074
▁코소 -12075
▁연립 -12076
▁응급 -12077
ern -12078
▁메스 -12079
▁피리 -12080
▁재편 -12081
▁간략 -12082
▁관상 -12083
▁단결 -12084
▁속력 -12085
▁형벌 -12086
▁대리인 -12087
▁야마가타 -12088
▁대좌 -12089
▁라바 -12090
▁야외 -12091
▁병마 -12092
▁진로 -12093
▁선봉 -12094
▁온난 -12095
▁패러디 -12096
▁해상도 -12097
▁Wind -12098
▁본뜨 -12099
▁산요 -12100
▁우산 -12101
▁한신 -12102
▁에이전 -12103
▁방사능 -12104
▁쿠빌라이 -12105
▁다툼 -12106
▁신곡 -12107
▁토마토 -12108
▁영화상 -12109
▁검거 -12110
▁점포 -12111
▁동진 -12112
▁중엽 -12113
▁날아가 -12114
▁만화가 -12115
햄 -12116
▁tv -12117
▁큐브 -12118
▁기전 -12119
▁무작 -12120
▁지법 -12121
▁스루 -12122
드리아 -12123
▁모범 -12124
▁자명 -12125
▁골격 -12126
▁열전 -12127
▁함량 -12128
▁정보원 -12129
유예 -12130
▁요절 -12131
▁부상자 -12132
▁녹화 -12133
▁몰아 -12134
▁파일럿 -12135
▁해안선 -12136
▁RP -12137
▁이바 -12138
▁파비 -12139
▁거성 -12140
▁고흥 -12141
▁다듬 -12142
▁스칼라 -12143
스테르담 -12144
▁Day -12145
▁몰타 -12146
▁봉인 -12147
▁원산지 -12148
▁이용객 -12149
ink -12150
▁FK -12151
▁라디 -12152
맨틱 -12153
▁간사 -12154
▁어시스트 -12155
40 -12156
CC -12157
버른 -12158
센스 -12159
제품 -12160
▁1882 -12161
▁가타 -12162
▁기세 -12163
▁덮개 -12164
▁도박 -12165
▁성동 -12166
▁슈퍼컵 -12167
▁교향악단 -12168
▁Ge -12169
▁RS -12170
▁도키 -12171
합성 -12172
▁단군 -12173
▁올리브 -12174
엠 -12175
▁이터 -12176
▁사영 -12177
▁아목 -12178
▁월터 -12179
▁평판 -12180
▁대단히 -12181
관계 -12182
▁우시 -12183
▁유서 -12184
▁공무 -12185
▁부합 -12186
▁그라운드 -12187
▁노르망디 -12188
포시 -12189
교통 -12190
▁가고 -12191
▁리마 -12192
▁카마 -12193
▁위구르 -12194
▁단체전 -12195
▁고노 -12196
▁다우 -12197
▁담보 -12198
▁관악 -12199
▁데니스 -12200
▁받들 -12201
▁연구회 -12202
▁체인지 -12203
라니 -12204
▁조교 -12205
▁유생 -12206
▁최진 -12207
▁시즈오카 -12208
▁GM -12209
▁리즈 -12210
▁세습 -12211
▁식스 -12212
▁제천 -12213
▁항우 -12214
▁Sch -12215
▁은혜 -12216
▁딜런 -12217
▁상록 -12218
▁편견 -12219
▁아이언 -12220
▁해운대 -12221
▁통신사 -12222
▁브루클린 -12223
II -12224
▁헤로 -12225
▁내일 -12226
▁관목 -12227
▁지붕돌 -12228
서니 -12229
▁부왕 -12230
▁절감 -12231
▁파푸아 -12232
▁항원 -12233
▁미스터리 -12234
▁아날로그 -12235
▁중소기업 -12236
워스 -12237
즐리 -12238
▁모세 -12239
▁관례 -12240
▁정월 -12241
▁직속 -12242
▁친족 -12243
에고 -12244
▁봇 -12245
여객 -12246
▁루키 -12247
▁가중 -12248
▁경위 -12249
▁제갈량 -12250
ᆯ릿 -12251
▁new -12252
▁산시 -12253
▁최선 -12254
▁최영 -12255
▁강당 -12256
▁북군 -12257
▁휴게소 -12258
▁노벨상 -12259
▁상어 -12260
▁정은 -12261
▁콘솔 -12262
▁공화정 -12263
으로 -12264
▁기량 -12265
▁송파 -12266
▁수열 -12267
▁호스트 -12268
▁사업소 -12269
나마 -12270
▁뒤이 -12271
▁수위 -12272
오르크 -12273
▁씨족 -12274
▁타락 -12275
▁후진 -12276
▁비서관 -12277
▁필립스 -12278
돌이 -12279
▁비지 -12280
▁낚시 -12281
▁단속 -12282
▁테네시 -12283
▁SA -12284
드릭 -12285
▁도네 -12286
▁사비 -12287
▁자수 -12288
▁330 -12289
▁라기 -12290
▁재래 -12291
▁국외 -12292
▁조셉 -12293
▁지극 -12294
▁발상 -12295
▁왕궁 -12296
▁레오폴 -12297
▁라미 -12298
▁고생 -12299
▁빙하 -12300
▁대표자 -12301
▁정정 -12302
▁학력 -12303
▁대법관 -12304
치히 -12305
본부 -12306
▁과테 -12307
융합 -12308
▁파벌 -12309
▁권역 -12310
▁번창 -12311
▁협업 -12312
▁ㄴ다면 -12313
▁경주시 -12314
▁과테말라 -12315
▁유클리드 -12316
▁컨테이너 -12317
▁아유 -12318
▁어파 -12319
▁외래 -12320
▁후예 -12321
▁요양 -12322
▁주선 -12323
▁주창 -12324
▁베이커 -12325
▁안티오 -12326
OT -12327
▁꺼내 -12328
▁샤프 -12329
▁위로 -12330
네이루 -12331
▁배달 -12332
▁넬슨 -12333
▁멜버른 -12334
▁사이타마 -12335
빗 -12336
▁머스 -12337
▁시안 -12338
▁실증 -12339
▁앙골라 -12340
▁소외 -12341
▁카세 -12342
▁타수 -12343
▁급증 -12344
▁단말 -12345
▁주계열 -12346
▁핵융합 -12347
▁태후 -12348
▁무섭 -12349
▁제단 -12350
▁산티아 -12351
US -12352
딱 -12353
▁동적 -12354
▁메릴랜드 -12355
▁Or -12356
▁1868 -12357
▁위조 -12358
티모어 -12359
▁단정 -12360
▁예컨대 -12361
▁북유럽 -12362
▁관계없이 -12363
▁4000 -12364
▁겨루 -12365
▁고의 -12366
▁멋지 -12367
▁서면 -12368
▁영덕 -12369
▁colspan -12370
▁미토콘 -12371
▁가브리엘 -12372
▁컨트롤러 -12373
▁몬테네그로 -12374
▁미토콘드리아 -12375
▁샨 -12376
용차 -12377
▁Girl -12378
▁종영 -12379
▁선진국 -12380
▁연장전 -12381
엇 -12382
▁버터 -12383
▁보루 -12384
▁부파 -12385
▁조슈 -12386
▁회귀 -12387
▁성원 -12388
▁할인 -12389
▁영원히 -12390
도라 -12391
마디 -12392
갈리 -12393
런트 -12394
팡이 -12395
▁배분 -12396
▁기념일 -12397
▁전반기 -12398
▁비비 -12399
▁결사 -12400
▁국교 -12401
▁베풀 -12402
▁영암 -12403
▁충렬 -12404
▁신주쿠 -12405
▁스캔들 -12406
▁OB -12407
▁어기 -12408
▁으리 -12409
▁청도 -12410
▁독수리 -12411
oll -12412
▁대도 -12413
▁바니 -12414
▁노사 -12415
▁랭크 -12416
▁신입 -12417
스탄불 -12418
▁요충지 -12419
▁사로잡히 -12420
▁이스탄불 -12421
에스 -12422
▁end -12423
▁오아 -12424
▁추서 -12425
▁남하 -12426
▁피핀 -12427
▁항로 -12428
▁발동 -12429
▁부르주 -12430
▁식용 -12431
▁잠깐 -12432
펜하겐 -12433
▁효고현 -12434
▁김옥균 -12435
▁코펜하겐 -12436
멀 -12437
▁부교 -12438
레스트 -12439
▁얽히 -12440
▁영월 -12441
쭉 -12442
히드 -12443
▁냥 -12444
▁배기 -12445
▁배리 -12446
▁세련 -12447
▁붙잡 -12448
▁일각 -12449
▁수요일 -12450
▁오일러 -12451
▁320 -12452
▁사치 -12453
▁트이 -12454
▁농지 -12455
▁대청 -12456
▁범하 -12457
▁염려 -12458
▁우왕 -12459
▁이바지 -12460
▁정령 -12461
▁프랜차 -12462
▁프란시스코 -12463
토프 -12464
▁규탄 -12465
▁커리어 -12466
▁오스틴 -12467
gin -12468
바리 -12469
우에 -12470
▁가무 -12471
웨이트 -12472
▁보름 -12473
▁족보 -12474
▁표정 -12475
▁로마자 -12476
▁성산 -12477
▁콜럼 -12478
▁by -12479
▁괌 -12480
협회 -12481
▁소아 -12482
▁소프 -12483
▁타로 -12484
▁양수 -12485
▁초안 -12486
껏 -12487
호란 -12488
▁고트 -12489
▁하의 -12490
▁동포 -12491
▁사학 -12492
▁위촉 -12493
▁카툰 -12494
▁종신 -12495
▁베르나르 -12496
토리코 -12497
▁밀레 -12498
▁사천 -12499
▁양보 -12500
▁법관 -12501
▁장덕 -12502
▁아케이드 -12503
▁야마모토 -12504
눌 -12505
니파 -12506
▁이트 -12507
플링 -12508
▁대상자 -12509
▁파시즘 -12510
▁폐기물 -12511
해자 -12512
계승 -12513
▁외과 -12514
▁자재 -12515
▁대덕 -12516
▁이항 -12517
▁전수 -12518
▁차선 -12519
▁축산 -12520
▁중공군 -12521
amp -12522
바오 -12523
▁타리 -12524
▁피치 -12525
▁밝혀 -12526
▁외형 -12527
▁천수 -12528
▁타일 -12529
▁상국 -12530
▁은신 -12531
▁히브리 -12532
▁사이먼 -12533
▁프랜차이즈 -12534
공주 -12535
▁군벌 -12536
▁문종 -12537
▁헤이안 -12538
▁군사력 -12539
▁요하네스 -12540
꼬리 -12541
▁치하 -12542
▁어웨이 -12543
▁급속히 -12544
▁사운드트랙 -12545
RT -12546
▁저조 -12547
▁교직 -12548
▁러일 -12549
디나비아 -12550
▁시트콤 -12551
▁자서전 -12552
▁니콜라스 -12553
▁코스타리카 -12554
▁암스테르담 -12555
▁스칸디나비아 -12556
▁너머 -12557
▁사안 -12558
▁우월 -12559
▁데이브 -12560
▁준장 -12561
▁증폭 -12562
▁형편 -12563
▁라인업 -12564
▁마이크로 -12565
▁산티아고 -12566
▁에른스트 -12567
▁사회민주당 -12568
▁푸에르토리코 -12569
흙 -12570
▁DF -12571
드레 -12572
▁아흐 -12573
▁대인 -12574
▁발하 -12575
▁청계 -12576
▁범행 -12577
▁컨설 -12578
걸이 -12579
북구 -12580
▁노아 -12581
▁노후 -12582
▁헌장 -12583
▁게오르크 -12584
▁천안시 -12585
다운 -12586
아다니 -12587
▁도상 -12588
▁장병 -12589
▁서해안 -12590
단지 -12591
▁거처 -12592
▁배드 -12593
▁조영 -12594
▁영천 -12595
▁밝혀내 -12596
▁브뤼셀 -12597
▁우의정 -12598
▁쿠웨이트 -12599
▁이우 -12600
▁고온 -12601
▁성악 -12602
▁유학자 -12603
▁법조인 -12604
OW -12605
당기 -12606
셀러 -12607
▁끊기 -12608
▁리튬 -12609
▁엔리 -12610
▁텔레콤 -12611
▁루이지애나 -12612
gr -12613
▁Fe -12614
▁le -12615
▁203 -12616
▁핸 -12617
게임 -12618
▁리코 -12619
▁퍼즐 -12620
▁너무나 -12621
▁정몽 -12622
▁직행 -12623
▁축전 -12624
▁포르노 -12625
▁좌의정 -12626
▁발전기 -12627
▁찢 -12628
▁1893 -12629
▁내무 -12630
▁아디 -12631
▁램프 -12632
▁전세 -12633
▁주성 -12634
▁결핵 -12635
▁압록 -12636
▁정반 -12637
▁출동 -12638
▁복음주의 -12639
게스 -12640
▁네티 -12641
▁조제 -12642
▁피드 -12643
▁관우 -12644
▁내분 -12645
▁천마 -12646
LA -12647
▁김치 -12648
▁이황 -12649
▁폐렴 -12650
▁해왕 -12651
▁복종 -12652
▁장로교 -12653
ung -12654
데라 -12655
▁하타 -12656
▁게끔 -12657
▁순차 -12658
▁위력 -12659
▁서사시 -12660
▁측량 -12661
▁교육자 -12662
▁프란치 -12663
▁가고시마 -12664
▁펠릭스 -12665
▁함경북도 -12666
룽 -12667
몬트 -12668
▁거지 -12669
▁슈테 -12670
▁아다 -12671
▁금동 -12672
▁능동 -12673
▁탄자니아 -12674
지리 -12675
▁서주 -12676
▁절제 -12677
▁출자 -12678
▁공안 -12679
▁비스타 -12680
▁함흥 -12681
▁Mo -12682
▁LED -12683
▁레프 -12684
▁스투 -12685
▁심포 -12686
▁양대 -12687
▁척도 -12688
▁도자기 -12689
▁접종 -12690
▁칭송 -12691
▁학장 -12692
▁유적지 -12693
▁해안가 -12694
▁이탈리아어 -12695
▁NP -12696
▁놈 -12697
▁렛 -12698
▁치유 -12699
▁호아 -12700
▁증오 -12701
▁한큐 -12702
▁김윤 -12703
▁데려가 -12704
▁무실점 -12705
▁톡 -12706
▁후유 -12707
▁메일 -12708
▁충무 -12709
▁헌터 -12710
▁국철 -12711
▁도야마 -12712
▁부르고 -12713
▁아라곤 -12714
▁IOC -12715
▁늪 -12716
▁에마 -12717
▁조니 -12718
▁온화 -12719
▁김선 -12720
▁동향 -12721
▁선인 -12722
▁칼슘 -12723
▁불계승 -12724
깃 -12725
메드 -12726
▁옐 -12727
스톤 -12728
화학 -12729
▁Comp -12730
▁생리 -12731
퍼레이션 -12732
▁화장품 -12733
▁여성주의 -12734
▁후쿠오카현 -12735
les -12736
이크 -12737
상시 -12738
▁Rock -12739
▁끓이 -12740
▁노랑 -12741
▁분사 -12742
▁전미 -12743
▁금전 -12744
▁Univers -12745
▁가솔린 -12746
츰 -12747
▁아츠 -12748
▁각료 -12749
▁문무 -12750
▁버섯 -12751
▁안무 -12752
▁김천 -12753
▁로베르 -12754
▁박성 -12755
▁분단 -12756
▁리믹스 -12757
▁도우 -12758
▁키리 -12759
루이스 -12760
▁객차 -12761
▁노미야 -12762
▁백악 -12763
▁불경 -12764
▁습관 -12765
▁전학 -12766
▁결과물 -12767
▁TBS -12768
▁마타 -12769
▁마테 -12770
▁우두 -12771
▁망치 -12772
▁위안부 -12773
▁플랑크 -12774
▁카네 -12775
▁우연 -12776
▁흡사 -12777
▁천천 -12778
▁발사체 -12779
▁윗부분 -12780
▁국정원 -12781
▁컬렉션 -12782
eth -12783
▁이회 -12784
▁장녀 -12785
▁켄트 -12786
▁에스페란토 -12787
▁교부 -12788
▁첼로 -12789
▁휴양 -12790
▁김승 -12791
▁서초구 -12792
▁스포르 -12793
▁짐승 -12794
▁현판 -12795
▁초콜릿 -12796
▁덥 -12797
▁오하 -12798
▁주세 -12799
▁림프 -12800
▁미성 -12801
▁잔인 -12802
▁한문 -12803
▁가라앉 -12804
▁픽처스 -12805
▁인공위성 -12806
▁Am -12807
나기 -12808
▁Rec -12809
▁Sup -12810
ublic -12811
▁from -12812
▁데드 -12813
▁버러 -12814
▁강행 -12815
▁베르타 -12816
▁민병대 -12817
▁280 -12818
▁세레 -12819
폭탄 -12820
▁월트 -12821
▁유족 -12822
▁탈취 -12823
▁한번 -12824
▁우울증 -12825
▁천천히 -12826
어넣 -12827
▁에로 -12828
▁페더 -12829
▁후하 -12830
▁배양 -12831
▁심부 -12832
▁바이어 -12833
▁박상 -12834
▁전락 -12835
▁집착 -12836
▁톰슨 -12837
oth -12838
▁모차 -12839
▁수량 -12840
▁시속 -12841
▁공양 -12842
▁긴밀 -12843
▁도카이도 -12844
▁레인저스 -12845
▁피크 -12846
▁스킴 -12847
ᆨ스피어 -12848
▁간직 -12849
▁명인 -12850
▁편향 -12851
▁동맹국 -12852
티에 -12853
▁소사 -12854
▁당뇨 -12855
▁대종 -12856
▁점거 -12857
▁강진 -12858
▁아우르 -12859
▁원활 -12860
▁라파엘 -12861
▁가와사키 -12862
aw -12863
▁IV -12864
▁230 -12865
▁GNU -12866
▁바울 -12867
▁파편 -12868
민스터 -12869
▁지바현 -12870
▁셰익스피어 -12871
▁플로리다주 -12872
▁구독 -12873
▁앤디 -12874
▁점검 -12875
▁데일리 -12876
▁부르고뉴 -12877
▁AB -12878
▁게오르 -12879
▁관성 -12880
▁케이크 -12881
브로 -12882
▁시우 -12883
▁유영 -12884
▁강화도 -12885
▁스탠리 -12886
려들 -12887
▁라카 -12888
▁사귀 -12889
▁이아 -12890
▁대진 -12891
▁사상가 -12892
▁1888 -12893
▁라즈 -12894
▁페오 -12895
▁톱니 -12896
▁청량 -12897
▁철저히 -12898
▁Do -12899
▁네모 -12900
▁대차 -12901
▁소대 -12902
국적 -12903
▁연회 -12904
▁프리스 -12905
▁하이퍼 -12906
▁참모총장 -12907
빵 -12908
▁ar -12909
▁노프 -12910
▁마트 -12911
▁피사 -12912
▁격려 -12913
▁격하 -12914
▁운임 -12915
▁이바라 -12916
▁마르세유 -12917
▁중앙은행 -12918
메일 -12919
태평 -12920
▁명부 -12921
▁산수 -12922
▁고려대 -12923
▁수나라 -12924
▁Su -12925
▁갚 -12926
▁라흐 -12927
▁고집 -12928
▁백자 -12929
▁차츰 -12930
▁향기 -12931
▁기업가 -12932
▁그만큼 -12933
▁녹색당 -12934
▁Sw -12935
▁라가 -12936
▁사키 -12937
▁귀속 -12938
▁기쁨 -12939
▁애인 -12940
▁순양함 -12941
쉐 -12942
뇽 -12943
▁1892 -12944
▁미츠 -12945
▁배역 -12946
▁하급 -12947
▁그래피 -12948
▁로이드 -12949
▁용품 -12950
▁청송 -12951
▁글래스 -12952
▁다이빙 -12953
▁문자열 -12954
AI -12955
헤드 -12956
▁구치 -12957
▁사커 -12958
▁닉슨 -12959
▁울릉 -12960
▁황산 -12961
▁율리우스 -12962
▁노스캐롤라이나 -12963
▁미아 -12964
▁아와 -12965
▁자코 -12966
독립 -12967
▁도출 -12968
▁이범 -12969
▁폴라 -12970
▁세비야 -12971
▁가르시아 -12972
▁가부 -12973
▁끼우 -12974
▁에바 -12975
▁매달 -12976
▁자진 -12977
▁정재 -12978
▁쇠고기 -12979
▁상관없이 -12980
▁과시 -12981
▁여도 -12982
▁무단 -12983
▁반동 -12984
▁입헌 -12985
▁대명사 -12986
▁데스크톱 -12987
▁Car -12988
▁계량 -12989
▁동종 -12990
▁산청 -12991
▁스테판 -12992
업자 -12993
▁조개 -12994
▁대접 -12995
▁시문 -12996
▁낙양 -12997
▁서바이 -12998
▁심문 -12999
▁소학교 -13000
▁프레임워크 -13001
▁레디 -13002
▁리차 -13003
▁코사 -13004
▁율리 -13005
▁공법 -13006
▁경계선 -13007
▁대공국 -13008
▁미나모토 -13009
▁IR -13010
유사 -13011
▁라드 -13012
미디어 -13013
홍색 -13014
▁특사 -13015
스크리트 -13016
▁산스크리트 -13017
▁wh -13018
보리 -13019
▁니켈 -13020
▁미식 -13021
▁완도 -13022
▁펠트 -13023
▁심상 -13024
▁물려주 -13025
▁밀려나 -13026
▁펠리페 -13027
▁동맹군 -13028
▁가면라이더 -13029
암리 -13030
▁카야 -13031
▁굳히 -13032
▁성기 -13033
▁절도사 -13034
▁허드슨 -13035
▁조선왕 -13036
▁갯 -13037
▁데미 -13038
▁새뮤 -13039
광성 -13040
▁제철 -13041
▁주심 -13042
▁막판 -13043
▁발목 -13044
▁상정 -13045
▁흥분 -13046
▁CG -13047
자동 -13048
▁마요 -13049
▁유포 -13050
▁견고 -13051
▁불사 -13052
▁제창 -13053
▁선양 -13054
▁케이트 -13055
▁프로모 -13056
▁로스쿨 -13057
▁로빈슨 -13058
▁박테리아 -13059
클라 -13060
▁대주 -13061
▁해병 -13062
▁애덤스 -13063
▁앤서니 -13064
▁평안도 -13065
다오 -13066
둘기 -13067
연수 -13068
▁1866 -13069
▁1876 -13070
▁이봉 -13071
▁농축 -13072
▁아브라 -13073
▁자라나 -13074
▁더블린 -13075
▁북조선 -13076
AE -13077
네트 -13078
메리 -13079
▁어의 -13080
▁군데 -13081
▁손녀 -13082
▁직계 -13083
▁수차례 -13084
▁국제선 -13085
▁꾸리 -13086
▁유무 -13087
▁노랗 -13088
▁사변 -13089
▁중고 -13090
▁다카라 -13091
▁전주시 -13092
▁페르난도 -13093
▁토이 -13094
▁하임 -13095
▁축성 -13096
▁서기관 -13097
▁지리학 -13098
▁공방전 -13099
ah -13100
▁co -13101
▁Gre -13102
네임 -13103
▁구금 -13104
▁쫓아내 -13105
▁웨스트민스터 -13106
▁USB -13107
▁1886 -13108
▁공시 -13109
▁모던 -13110
▁원유 -13111
▁임계 -13112
▁자립 -13113
▁초전 -13114
▁웃음 -13115
▁대전차 -13116
▁세네갈 -13117
▁구스타프 -13118
▁베이시스트 -13119
EST -13120
너드 -13121
▁미미 -13122
▁위계 -13123
▁프루 -13124
직경 -13125
▁긴키 -13126
▁나뭇 -13127
▁붕어 -13128
▁생모 -13129
▁이산 -13130
▁주먹 -13131
▁간혹 -13132
▁물결 -13133
▁복싱 -13134
▁브래드 -13135
▁합천 -13136
▁성매매 -13137
▁올리버 -13138
▁논리학 -13139
▁시직경 -13140
▁260 -13141
▁강성 -13142
▁도르트 -13143
▁이즈미 -13144
▁전권 -13145
▁차세대 -13146
▁풍습 -13147
▁교구장 -13148
▁후원자 -13149
▁알렉산드로스 -13150
큐어 -13151
티노 -13152
▁씻 -13153
▁펫 -13154
▁서예 -13155
▁재차 -13156
▁파커 -13157
▁고려사 -13158
▁얼룩 -13159
▁볼로냐 -13160
▁드미트리 -13161
▁활동가 -13162
로쿠 -13163
▁핏 -13164
▁아지 -13165
▁순례 -13166
▁조롱 -13167
▁채색 -13168
▁통폐 -13169
▁군관 -13170
▁음운 -13171
▁휘말리 -13172
▁관현악 -13173
넛 -13174
퐁 -13175
▁270 -13176
▁로브 -13177
▁프린스턴 -13178
ron -13179
▁모라 -13180
▁장래 -13181
▁재발 -13182
▁스테인 -13183
▁펭 -13184
▁파파 -13185
르타뉴 -13186
▁두각 -13187
▁인제 -13188
▁지난 -13189
▁침례 -13190
▁레이디 -13191
▁금나라 -13192
▁스탠드 -13193
▁브르타뉴 -13194
▁생리학 -13195
▁베네딕토 -13196
왕후 -13197
▁위패 -13198
▁납부 -13199
▁살라 -13200
▁소동 -13201
▁펀드 -13202
▁현과 -13203
▁알폰 -13204
▁정진 -13205
▁삼각주 -13206
▁유다 -13207
▁조소 -13208
▁코호 -13209
분열 -13210
▁온대 -13211
▁잘리 -13212
▁번갈 -13213
▁코소보 -13214
▁보살상 -13215
▁경영학 -13216
몸 -13217
사태 -13218
▁굶 -13219
펙트 -13220
▁펴내 -13221
▁재앙 -13222
▁필하 -13223
▁깃털 -13224
▁이어주 -13225
▁보좌관 -13226
▁화요일 -13227
▁부분군 -13228
▁사단장 -13229
▁축구팀 -13230
▁러시아군 -13231
▁거룩 -13232
▁포탄 -13233
▁다면서 -13234
크리 -13235
▁겟 -13236
▁마나 -13237
▁자궁 -13238
리카락 -13239
▁새뮤얼 -13240
▁사간원 -13241
▁머리카락 -13242
▁it -13243
land -13244
우회 -13245
▁1887 -13246
▁부어 -13247
▁아자 -13248
▁저우 -13249
▁발의 -13250
▁수력 -13251
▁일진 -13252
▁조나라 -13253
▁간사이 -13254
▁브리티시 -13255
▁우에스기 -13256
▁맥아 -13257
▁엘라 -13258
▁사쓰마 -13259
▁원상 -13260
▁게시판 -13261
▁단거리 -13262
▁통폐합 -13263
ble -13264
▁ML -13265
▁으시 -13266
ave -13267
▁KB -13268
▁Up -13269
어드 -13270
지오 -13271
▁돗 -13272
▁너스 -13273
▁도제 -13274
▁비우 -13275
▁퇴위 -13276
▁Dream -13277
▁고창 -13278
▁도약 -13279
▁본체 -13280
▁덩어리 -13281
코타 -13282
▁도하 -13283
▁애초 -13284
▁동창 -13285
▁신진 -13286
다보 -13287
쓰기 -13288
▁부류 -13289
▁직사 -13290
▁송환 -13291
▁출혈 -13292
▁으려는 -13293
▁마르쿠스 -13294
밋 -13295
▁SV -13296
▁Tour -13297
▁레트 -13298
▁제르 -13299
▁포츠 -13300
▁부양 -13301
▁댓글 -13302
제비 -13303
▁꽂 -13304
▁이니 -13305
▁경무 -13306
▁악곡 -13307
▁장제스 -13308
▁독립군 -13309
▁인플레이션 -13310
늦 -13311
▁쵸 -13312
라호 -13313
코르 -13314
▁도성 -13315
▁모닝 -13316
▁반주 -13317
▁승단 -13318
▁유전학 -13319
19 -13320
▁Life -13321
▁유타 -13322
▁면모 -13323
▁주니치 -13324
▁형용 -13325
▁강서구 -13326
▁근거지 -13327
▁도미니카 -13328
▁백악기 -13329
▁라니 -13330
▁수하 -13331
▁오대 -13332
▁세분 -13333
▁소용 -13334
▁행방 -13335
▁민영화 -13336
▁볼티모어 -13337
▁재단법인 -13338
▁1861 -13339
▁1864 -13340
▁용의자 -13341
▁황해도 -13342
▁버크 -13343
▁불분 -13344
ᆯ레타 -13345
▁벌레 -13346
▁조현 -13347
▁산물 -13348
▁좌표계 -13349
▁SH -13350
▁Wii -13351
꿈치 -13352
▁망하 -13353
▁서포터 -13354
▁홀딩 -13355
▁데이빗 -13356
▁사절단 -13357
▁마을버스 -13358
DA -13359
ition -13360
▁교지 -13361
▁수이 -13362
플린 -13363
▁박자 -13364
▁오산 -13365
▁당황 -13366
▁편안 -13367
ult -13368
라토 -13369
짜기 -13370
하임 -13371
▁지아 -13372
▁가닥 -13373
▁구문 -13374
▁약점 -13375
▁스트리밍 -13376
톨 -13377
▁이호 -13378
▁대금 -13379
▁암모 -13380
▁추존 -13381
▁광선 -13382
▁모나코 -13383
▁베이비 -13384
▁홍성 -13385
▁카운트 -13386
▁컨텐츠 -13387
▁해결책 -13388
▁행정동 -13389
▁TC -13390
▁캘 -13391
▁박수 -13392
ational -13393
▁발톱 -13394
▁평탄 -13395
▁환관 -13396
▁RT -13397
▁무수 -13398
▁쿼크 -13399
러뜨리 -13400
▁잔디 -13401
▁요금소 -13402
▁프랑코 -13403
▁불러들이 -13404
orm -13405
▁if -13406
▁구례 -13407
▁단조 -13408
▁배척 -13409
▁지면 -13410
▁하얀 -13411
▁장애물 -13412
▁참의원 -13413
▁생성물 -13414
▁남베트남 -13415
▁삐 -13416
열차 -13417
▁에두 -13418
▁포화 -13419
바도르 -13420
콘신 -13421
▁오일 -13422
▁워킹 -13423
▁유능 -13424
▁짐바 -13425
▁특기 -13426
▁완결 -13427
▁후세인 -13428
▁석가모니 -13429
▁위스콘신 -13430
▁1881 -13431
▁고모 -13432
▁라시 -13433
▁리트 -13434
▁여타 -13435
▁차수 -13436
▁모국 -13437
▁렙 -13438
▁시시 -13439
▁표하 -13440
▁물류 -13441
▁승하 -13442
▁중개 -13443
▁장전 -13444
▁신세계 -13445
▁홈경기 -13446
▁공연장 -13447
▁en -13448
▁유머 -13449
▁페트 -13450
▁푸아 -13451
ᆷ프턴 -13452
▁증세 -13453
▁허블 -13454
▁크리에이 -13455
▁컴파일러 -13456
EP -13457
디슨 -13458
▁사나이 -13459
▁슬램 -13460
▁습득 -13461
▁실각 -13462
▁왕관 -13463
▁익명 -13464
뛰기 -13465
브웨 -13466
▁내포 -13467
▁마구 -13468
▁오메 -13469
▁카와 -13470
▁바로크 -13471
쿼 -13472
슈타 -13473
▁타구 -13474
▁슬프 -13475
▁자판 -13476
▁대교구 -13477
▁삼척 -13478
▁도라에몽 -13479
▁다카라즈카 -13480
쯔 -13481
▁꺼리 -13482
▁세무 -13483
▁죄수 -13484
▁Music -13485
▁복위 -13486
▁옐로 -13487
▁착하 -13488
▁천지 -13489
▁파직 -13490
▁백업 -13491
▁XP -13492
예술 -13493
화경 -13494
▁1850 -13495
▁무자 -13496
로이드 -13497
▁관내 -13498
▁기밀 -13499
▁동차 -13500
▁재결 -13501
▁정예 -13502
▁당선자 -13503
▁모차르트 -13504
춤 -13505
▁라라 -13506
▁아타 -13507
▁어우 -13508
▁요괴 -13509
▁위시 -13510
▁괘불 -13511
▁방공 -13512
▁토트넘 -13513
▁역사학 -13514
▁유니버스 -13515
▁iOS -13516
동자 -13517
▁계보 -13518
▁리노 -13519
▁리에 -13520
▁오우 -13521
▁티모 -13522
▁과잉 -13523
▁코난 -13524
▁토목 -13525
▁객원 -13526
▁카이로 -13527
▁판관 -13528
▁페미니 -13529
▁쏟아지 -13530
▁집정관 -13531
쪼 -13532
▁AG -13533
▁소라 -13534
▁솔라 -13535
▁양조 -13536
▁에반 -13537
▁세르게이 -13538
▁카르타고 -13539
▁음악원 -13540
▁프리미엄 -13541
리쿠 -13542
▁1830 -13543
▁레버 -13544
▁뷰티 -13545
▁히토 -13546
▁홈즈 -13547
▁양현 -13548
▁팔작 -13549
아메리카 -13550
▁클레멘스 -13551
윅 -13552
ject -13553
▁아토 -13554
▁쿠로 -13555
▁미상 -13556
▁보너스 -13557
▁야구단 -13558
▁화성시 -13559
▁헤라클레스 -13560
▁구획 -13561
▁급히 -13562
▁도산 -13563
▁이력 -13564
▁민물 -13565
▁촛불 -13566
▁무작위 -13567
▁사들이 -13568
▁미네소타 -13569
▁ㄹ라 -13570
달마 -13571
평리 -13572
▁스기 -13573
라호마 -13574
▁과연 -13575
▁근래 -13576
▁나름 -13577
▁몸돌 -13578
▁아카이 -13579
▁외무부 -13580
▁루스벨트 -13581
▁오클라호마 -13582
▁Open -13583
▁사내 -13584
▁쓰루 -13585
▁전리 -13586
▁Ed -13587
▁an -13588
▁마티 -13589
▁페스 -13590
▁네티즌 -13591
▁재판관 -13592
▁장난감 -13593
▁te -13594
▁루나 -13595
▁경도 -13596
▁애슬 -13597
▁켄터 -13598
▁현미 -13599
▁가해자 -13600
▁경건 -13601
▁남송 -13602
▁익산 -13603
라이어티 -13604
▁버라이어티 -13605
▁BL -13606
▁DR -13607
림사 -13608
▁1872 -13609
▁딸리 -13610
▁러닝 -13611
▁잠실 -13612
▁휘두르 -13613
▁로맨틱 -13614
▁여학생 -13615
▁이시카와 -13616
▁불분명 -13617
▁압록강 -13618
ION -13619
▁파주 -13620
▁강세 -13621
▁당진 -13622
▁철강 -13623
▁모멘트 -13624
ton -13625
께끼 -13626
타입 -13627
▁더하 -13628
▁이누 -13629
▁교동 -13630
▁다행 -13631
▁몰두 -13632
▁공판 -13633
▁아무리 -13634
▁프레드 -13635
▁혼혈 -13636
▁반대파 -13637
▁관련자 -13638
▁수수께끼 -13639
▁매진 -13640
▁메틸 -13641
▁파열 -13642
▁닛산 -13643
▁라치오 -13644
▁목욕 -13645
▁농어촌 -13646
더지 -13647
▁750 -13648
▁군세 -13649
▁김희 -13650
▁모란 -13651
▁부전 -13652
▁세간 -13653
▁아편 -13654
▁용사 -13655
▁패권 -13656
▁대중교통 -13657
ics -13658
▁싹 -13659
▁ㄴ데 -13660
▁레비 -13661
▁편하 -13662
▁황자 -13663
▁말단 -13664
▁감리교 -13665
▁피닉스 -13666
▁개정안 -13667
▁하얀색 -13668
바인 -13669
▁고하 -13670
▁예의 -13671
▁부풀 -13672
▁대표단 -13673
▁돋보이 -13674
▁이메일 -13675
철수 -13676
덕왕 -13677
▁가든 -13678
▁외환 -13679
▁침대 -13680
▁순항 -13681
▁햇빛 -13682
▁뛰어넘 -13683
▁세군다 -13684
▁노동력 -13685
▁유라시아 -13686
ru -13687
▁Don -13688
▁꼬마 -13689
▁발자 -13690
▁스윙 -13691
▁허목 -13692
▁반죽 -13693
▁왕성 -13694
▁호크스 -13695
▁집행유예 -13696
ier -13697
뮌 -13698
데자 -13699
▁HTML -13700
▁체하 -13701
▁남조 -13702
▁여건 -13703
▁찍히 -13704
▁경량 -13705
▁까마귀 -13706
▁라이스 -13707
▁승상 -13708
▁흑백 -13709
▁롬바르 -13710
▁"- -13711
▁Ab -13712
▁푹 -13713
▁레아 -13714
▁그란 -13715
▁눈치 -13716
▁시원 -13717
▁종묘 -13718
▁트란 -13719
▁신봉 -13720
▁탄산 -13721
▁밀가루 -13722
▁초록색 -13723
▁트레이닝 -13724
쿠니 -13725
▁도봉 -13726
▁옥타 -13727
▁옹주 -13728
▁조경 -13729
▁발산 -13730
▁중랑 -13731
▁청년회 -13732
워즈 -13733
▁1865 -13734
▁샤이 -13735
▁삭스 -13736
▁다비드 -13737
▁알맞 -13738
▁양면 -13739
▁엘런 -13740
▁슬라이 -13741
▁화학자 -13742
▁꿰 -13743
단위 -13744
▁오트 -13745
▁치소 -13746
▁덴쇼 -13747
▁배향 -13748
▁엿보 -13749
▁이별 -13750
▁곱셈 -13751
▁정황 -13752
▁도르트문트 -13753
ode -13754
루크 -13755
▁교제 -13756
▁캐피 -13757
▁페라 -13758
▁재벌 -13759
▁콘티 -13760
슬라프 -13761
▁변종 -13762
▁코스트 -13763
▁센다이 -13764
▁시간대 -13765
▁유니언 -13766
나파 -13767
▁1863 -13768
▁과다 -13769
클럽 -13770
▁Night -13771
▁경매 -13772
▁뒤늦 -13773
▁브렌 -13774
▁어촌 -13775
▁음주 -13776
▁관용 -13777
▁별장 -13778
▁복역 -13779
▁파충류 -13780
▁바람직 -13781
▁박영효 -13782
▁아이디얼 -13783
▁대한항공 -13784
▁ret -13785
▁가독 -13786
▁금고 -13787
▁이은 -13788
▁단국 -13789
태평양 -13790
▁격투기 -13791
▁오스트리 -13792
▁오카야마 -13793
▁탐험가 -13794
▁무솔리니 -13795
스레 -13796
▁나마 -13797
▁피셔 -13798
▁닌자 -13799
▁아쉽 -13800
▁장쑤 -13801
▁전교 -13802
▁탐정 -13803
▁헌납 -13804
▁우간다 -13805
▁공군기지 -13806
▁부다페스트 -13807
TE -13808
▁보정 -13809
▁완비 -13810
▁복직 -13811
▁봉황 -13812
▁주나라 -13813
▁클릭 -13814
▁리우데자 -13815
▁리우데자네이루 -13816
▁배트 -13817
▁야망 -13818
▁켄터키 -13819
QL -13820
▁Sm -13821
▁슌 -13822
▁태아 -13823
▁건네 -13824
▁경마 -13825
▁인테 -13826
▁접합 -13827
▁종업 -13828
▁철종 -13829
▁받침돌 -13830
▁세계유산 -13831
▁승정원 -13832
▁작품상 -13833
ool -13834
▁곡면 -13835
▁만점 -13836
▁유전체 -13837
▁조선소 -13838
▁고성군 -13839
▁짐바브웨 -13840
▁도이 -13841
▁비키 -13842
▁의례 -13843
▁조시 -13844
▁주고 -13845
▁발포 -13846
▁납작 -13847
▁개체군 -13848
▁앤드류 -13849
▁자유형 -13850
▁발기인 -13851
▁경복궁 -13852
▁합창단 -13853
텁 -13854
▁AL -13855
번에 -13856
▁1891 -13857
▁두어 -13858
▁부에 -13859
▁생도 -13860
▁애완 -13861
▁원동 -13862
▁진흙 -13863
▁픽셀 -13864
▁여진족 -13865
UC -13866
타스 -13867
▁디디 -13868
▁배아 -13869
▁투하 -13870
훈장 -13871
▁처방 -13872
ai -13873
▁거꾸 -13874
▁기고 -13875
▁매립 -13876
▁승지 -13877
▁입시 -13878
▁몰도바 -13879
▁범죄자 -13880
▁재판부 -13881
▁온타리오주 -13882
ise -13883
▁쩔 -13884
브리드 -13885
▁조심 -13886
▁계승자 -13887
▁아이콘 -13888
▁부르주아 -13889
stem -13890
를레 -13891
▁코마 -13892
▁피카 -13893
친왕 -13894
▁커플 -13895
▁반점 -13896
▁제프리 -13897
▁테무르 -13898
▁휩쓸 -13899
▁교통사고 -13900
▁베스트셀러 -13901
▁-- -13902
를리 -13903
▁이례 -13904
▁카슈 -13905
▁파기 -13906
▁포대 -13907
부아르 -13908
▁편제 -13909
▁등등 -13910
▁선율 -13911
▁혈압 -13912
▁다시금 -13913
▁팔작지붕 -13914
▁MA -13915
미쓰 -13916
▁로니 -13917
▁리브 -13918
▁모빌 -13919
▁미인 -13920
▁노르드 -13921
▁타임즈 -13922
▁쇼크 -13923
▁슈고 -13924
▁경지 -13925
▁단자 -13926
▁현무 -13927
▁빅뱅 -13928
▁친밀 -13929
▁다국적 -13930
▁Can -13931
롤라 -13932
▁도도 -13933
▁마모 -13934
▁법전 -13935
▁수시로 -13936
▁항아리 -13937
▁안산시 -13938
▁낭만주의 -13939
hem -13940
▁여대 -13941
▁여호 -13942
▁란스 -13943
▁자켓 -13944
▁조공 -13945
▁해킹 -13946
▁등단 -13947
▁포항시 -13948
▁해석학 -13949
▁하이브리드 -13950
ower -13951
▁콥 -13952
▁1873 -13953
▁후미 -13954
▁챙기 -13955
▁와이드 -13956
▁작년 -13957
▁section -13958
▁릴레이 -13959
훼 -13960
쫓 -13961
세다 -13962
▁믈 -13963
▁메우 -13964
▁메츠 -13965
▁토유 -13966
▁해시 -13967
▁시진 -13968
▁요즘 -13969
▁잠기 -13970
▁넥센 -13971
▁필연 -13972
플렉스 -13973
▁기획사 -13974
▁챌린저 -13975
겹 -13976
▁NS -13977
▁고난 -13978
▁의용 -13979
▁직관 -13980
▁프로테 -13981
른베르크 -13982
합중국 -13983
▁아비달마 -13984
70 -13985
NG -13986
▁리키 -13987
▁헤어 -13988
▁Black -13989
▁구강 -13990
▁두텁 -13991
▁버펄 -13992
▁코린 -13993
▁살짝 -13994
▁합금 -13995
▁시티즌 -13996
▁계좌 -13997
▁교서 -13998
▁리자 -13999
▁서위 -14000
▁키즈 -14001
▁대목 -14002
▁상파 -14003
▁양궁 -14004
▁제너럴 -14005
▁qu -14006
▁체내 -14007
▁광배 -14008
▁양양 -14009
스코트 -14010
▁외상 -14011
▁텍스 -14012
▁페인 -14013
▁이바라키 -14014
▁q -14015
무제 -14016
▁Let -14017
매김 -14018
▁구슬 -14019
▁기통 -14020
▁모함 -14021
몰로지 -14022
▁산책 -14023
▁보안법 -14024
▁코호몰로지 -14025
▁Good -14026
▁수주 -14027
▁에치 -14028
▁오즈 -14029
▁피어 -14030
드라마 -14031
▁파랑 -14032
데올로 -14033
선거구 -14034
▁청문 -14035
▁난이도 -14036
▁스테이트 -14037
▁이데올로 -14038
▁켜 -14039
▁대의 -14040
▁아뢰 -14041
▁조어 -14042
▁벌리 -14043
▁신대 -14044
▁캐논 -14045
▁현도 -14046
▁AI -14047
▁MM -14048
싸이 -14049
뮬러 -14050
▁구시 -14051
▁라크 -14052
▁광자 -14053
▁공통점 -14054
▁PM -14055
ings -14056
▁705 -14057
▁머니 -14058
타나베 -14059
▁당과 -14060
▁이강 -14061
▁코뮌 -14062
▁충당 -14063
▁한창 -14064
▁앞세우 -14065
▁아오모리 -14066
ank -14067
랍 -14068
▁El -14069
▁샴 -14070
진우 -14071
킨슨 -14072
▁네임 -14073
▁조준 -14074
▁최장 -14075
▁산신 -14076
▁피츠버그 -14077
해살이풀 -14078
▁백악관 -14079
▁페르디난트 -14080
렌스 -14081
▁국호 -14082
▁병과 -14083
▁연화 -14084
▁다마스 -14085
▁문정 -14086
▁촉발 -14087
▁매달리 -14088
▁슬로건 -14089
▁이노우에 -14090
▁자리매김 -14091
흠 -14092
레반 -14093
▁유태 -14094
▁재고 -14095
동맹 -14096
ᆯ린더 -14097
▁과격 -14098
▁인위 -14099
▁필두 -14100
▁거꾸로 -14101
▁열렬 -14102
▁적발 -14103
▁용산구 -14104
▁변광성 -14105
샘 -14106
▁650 -14107
펠러 -14108
▁쿠라 -14109
▁착취 -14110
▁튼튼 -14111
▁김성수 -14112
▁미합중국 -14113
▁550 -14114
▁샵 -14115
정사 -14116
▁1867 -14117
▁수퍼 -14118
▁지경 -14119
▁간판 -14120
▁흡연 -14121
▁앨버트 -14122
떡 -14123
▁AU -14124
▁괜 -14125
▁매스 -14126
▁부추 -14127
▁하스 -14128
▁계엄 -14129
▁부실 -14130
▁을사 -14131
▁취향 -14132
▁활자 -14133
▁굴복 -14134
▁당당 -14135
▁볼넷 -14136
▁왓슨 -14137
▁용감 -14138
▁발가락 -14139
▁야쿠르트 -14140
▁삼국유사 -14141
끈 -14142
쿠르 -14143
티야 -14144
진구 -14145
▁베라 -14146
▁우마 -14147
▁급하 -14148
▁신의 -14149
▁걸작 -14150
▁맞춤 -14151
▁진원 -14152
▁경희대 -14153
▁증조부 -14154
▁하반기 -14155
▁이데올로기 -14156
DS -14157
▁1862 -14158
▁소작 -14159
▁정명 -14160
▁자외선 -14161
▁무로마치 -14162
▁사이타마현 -14163
녹 -14164
▁경은 -14165
▁사보이 -14166
▁엑스포 -14167
▁반정부 -14168
▁손잡이 -14169
북면 -14170
▁앵커 -14171
▁옥시 -14172
▁터빈 -14173
▁투신 -14174
▁광업 -14175
▁분경 -14176
▁증강 -14177
▁진언 -14178
티지 -14179
테인 -14180
▁토로 -14181
▁불로 -14182
▁야심 -14183
▁입술 -14184
▁지자체 -14185
▁트로트 -14186
포타 -14187
▁기쁘 -14188
▁조서 -14189
성경 -14190
▁모반 -14191
▁북대 -14192
▁위법 -14193
▁조장 -14194
▁참수 -14195
▁채굴 -14196
lar -14197
▁-& -14198
거나 -14199
상어 -14200
▁내재 -14201
▁루즈 -14202
▁지그 -14203
▁푸드 -14204
두라스 -14205
▁성수 -14206
▁예종 -14207
▁꽃잎 -14208
▁반항 -14209
▁북벌 -14210
▁레인저 -14211
▁온두라스 -14212
▁종업원 -14213
▁조선왕조 -14214
▁Ac -14215
▁멋 -14216
센터 -14217
▁국부 -14218
▁버진 -14219
절도사 -14220
▁알폰소 -14221
인구 -14222
▁코모 -14223
곡면 -14224
방군 -14225
▁시역 -14226
▁농성 -14227
▁헌병 -14228
포타미아 -14229
▁승용차 -14230
▁컴파일 -14231
▁일본식 -14232
▁메소포타미아 -14233
▁캣 -14234
▁6000 -14235
▁무도 -14236
▁증발 -14237
▁치료제 -14238
▁곁들이 -14239
▁국민회 -14240
▁연출가 -14241
▁협동조합 -14242
ky -14243
▁LS -14244
▁부두 -14245
▁캐스트 -14246
▁갈아타 -14247
▁감염증 -14248
▁공식전 -14249
튀 -14250
▁유구 -14251
▁번개 -14252
▁조석 -14253
▁전멸 -14254
▁페드로 -14255
▁출입문 -14256
ta -14257
위치 -14258
▁노브 -14259
▁이끼 -14260
▁타이탄 -14261
▁프란치스코 -14262
tr -14263
▁무고 -14264
▁치이 -14265
▁동자 -14266
▁직교 -14267
▁흔들 -14268
▁부여군 -14269
▁편집장 -14270
▁국민학교 -14271
▁UC -14272
▁802 -14273
퉁이 -14274
▁처치 -14275
▁캐치 -14276
세우스 -14277
플로러 -14278
▁동탁 -14279
▁양군 -14280
▁웨이브 -14281
▁장신 -14282
▁이성질 -14283
▁익스플로러 -14284
▁Qu -14285
▁개기 -14286
▁황폐 -14287
▁극찬 -14288
▁온건 -14289
▁기원후 -14290
달리스트 -14291
▁다이노스 -14292
▁홀딩스 -14293
투르 -14294
▁Ser -14295
▁뱃 -14296
▁1878 -14297
▁기묘 -14298
▁주저 -14299
▁히노 -14300
뉴기니 -14301
▁괄호 -14302
▁나탈 -14303
▁제조사 -14304
▁충신 -14305
▁타타르 -14306
▁신한은행 -14307
ee -14308
rist -14309
▁바쿠 -14310
▁세토 -14311
▁열쇠 -14312
▁완수 -14313
▁사무국 -14314
▁백과사전 -14315
▁일리노이주 -14316
떨 -14317
▁MSL -14318
▁나사 -14319
▁매슈 -14320
▁애기 -14321
▁대강 -14322
▁독주 -14323
▁하중 -14324
▁사대부 -14325
▁연행 -14326
▁널 -14327
디언 -14328
컬리 -14329
▁대담 -14330
▁유림 -14331
▁뉴기니 -14332
▁서두르 -14333
▁스코어 -14334
▁일설 -14335
▁대리석 -14336
▁미카엘 -14337
▁플러그 -14338
▁스케이트 -14339
▁ㅣ -14340
▁tr -14341
▁사교 -14342
▁베일 -14343
▁차림 -14344
▁통지 -14345
▁간결 -14346
▁옥천 -14347
▁증식 -14348
▁필명 -14349
▁노르만 -14350
▁포뮬러 -14351
che -14352
▁And -14353
▁과자 -14354
▁라다 -14355
▁서한 -14356
▁세단 -14357
▁박진 -14358
▁크루즈 -14359
▁플루토 -14360
▁프로모션 -14361
고르 -14362
▁HMS -14363
▁이야 -14364
▁타도 -14365
▁지탱 -14366
▁그나마 -14367
▁잔존 -14368
▁절약 -14369
▁페르미 -14370
▁업로드 -14371
▁빠져나가 -14372
▁신기록 -14373
▁언론사 -14374
▁라이프치히 -14375
▁팍 -14376
▁팻 -14377
▁해지 -14378
▁후드 -14379
벤션 -14380
▁카롤 -14381
▁와세다 -14382
▁작중 -14383
▁프라이즈 -14384
니티 -14385
셔주 -14386
조리 -14387
▁썩 -14388
▁조비 -14389
▁가물 -14390
▁렉스 -14391
▁급성 -14392
▁취리히 -14393
▁입법부 -14394
▁스에 -14395
▁시르 -14396
▁군자 -14397
▁당파 -14398
▁스톰 -14399
▁충칭 -14400
▁액세스 -14401
귄 -14402
퉁 -14403
▁Ag -14404
▁킷 -14405
다발 -14406
▁1869 -14407
▁다목 -14408
▁위헌 -14409
▁포천 -14410
▁플라스 -14411
껑 -14412
산부 -14413
활약 -14414
▁가극 -14415
▁다량 -14416
▁영사 -14417
▁국인 -14418
▁완만 -14419
▁중용 -14420
▁봉우리 -14421
▁연주회 -14422
▁와타나베 -14423
▁핵분열 -14424
▁글로브상 -14425
내티 -14426
▁서지 -14427
▁고찰 -14428
▁부군 -14429
▁용해 -14430
▁지린 -14431
▁형주 -14432
▁상선 -14433
▁심정 -14434
▁이브스 -14435
▁신시내티 -14436
사화 -14437
▁낡 -14438
▁마레 -14439
시아드 -14440
▁유망 -14441
▁패킷 -14442
▁마포구 -14443
▁청각 -14444
▁안동시 -14445
▁맹활약 -14446
ae -14447
시게 -14448
▁IMF -14449
▁걸프 -14450
▁보직 -14451
▁포탑 -14452
▁연달 -14453
▁육식 -14454
▁정박 -14455
▁행군 -14456
▁인코딩 -14457
▁유니버시아드 -14458
▁1592 -14459
▁자부 -14460
▁하라 -14461
▁몸체 -14462
▁잉크 -14463
▁폼페이 -14464
▁부등식 -14465
▁AA -14466
▁궐 -14467
▁추후 -14468
▁병단 -14469
▁지하역 -14470
▁되돌아가 -14471
▁친선경기 -14472
누마 -14473
▁깁 -14474
▁소피 -14475
▁오보 -14476
▁신해 -14477
▁적정 -14478
▁직물 -14479
▁항생 -14480
▁해부학 -14481
▁경쟁자 -14482
▁기동전 -14483
▁썬 -14484
암사 -14485
▁씌우 -14486
▁저축 -14487
▁프리츠 -14488
▁주고받 -14489
▁방위군 -14490
▁고등학생 -14491
▁명성황후 -14492
루엔 -14493
▁사부 -14494
▁수레 -14495
▁강호 -14496
▁변모 -14497
▁서점 -14498
▁무사히 -14499
▁자릿수 -14500
▁크리스티나 -14501
OU -14502
▁부관 -14503
▁수당 -14504
▁처장 -14505
▁글렌 -14506
▁면직 -14507
▁수비대 -14508
▁장로회 -14509
ᆯ레타리아 -14510
▁마스코트 -14511
▁코퍼레이션 -14512
▁프롤레타리아 -14513
툼 -14514
노르 -14515
▁맬 -14516
정보 -14517
▁로시 -14518
▁고을 -14519
▁무색 -14520
▁표출 -14521
▁국력 -14522
▁축일 -14523
▁컴필 -14524
▁프라임 -14525
▁생화학 -14526
▁운동량 -14527
▁특별법 -14528
▁컴필레이션 -14529
ata -14530
ount -14531
▁서거 -14532
▁아어 -14533
▁회유 -14534
▁자행 -14535
▁잔해 -14536
▁표절 -14537
▁객실 -14538
▁근방 -14539
▁횡령 -14540
▁레지스터 -14541
▁미나모토노 -14542
▁여우원숭이 -14543
▁RC -14544
▁me -14545
시브 -14546
▁Mon -14547
일치 -14548
▁페레 -14549
▁콜드 -14550
▁베르나 -14551
▁벵골 -14552
▁영유권 -14553
▁원자핵 -14554
▁키르기스 -14555
▁힐베르트 -14556
▁비스마르크 -14557
pr -14558
구스 -14559
▁무너 -14560
▁오자 -14561
▁린다 -14562
▁return -14563
▁성품 -14564
▁외교부 -14565
▁점진 -14566
▁쿠르드 -14567
▁무너뜨리 -14568
네르 -14569
▁모티 -14570
▁사드 -14571
▁으러 -14572
블릿 -14573
ᆷ없이 -14574
▁심소 -14575
▁용수 -14576
▁단역 -14577
▁목동 -14578
▁여객기 -14579
▁스파이더 -14580
대전 -14581
티컷 -14582
▁다쓰 -14583
▁위즈 -14584
▁그물 -14585
▁킹스 -14586
▁논산 -14587
▁빈민 -14588
▁후지와라 -14589
▁코네티컷 -14590
▁KN -14591
▁Song -14592
▁디나 -14593
▁매도 -14594
▁보류 -14595
▁지문 -14596
▁며느리 -14597
▁박원 -14598
▁일선 -14599
▁접전 -14600
▁골짜기 -14601
▁아이젠 -14602
▁선제골 -14603
per -14604
곧 -14605
효소 -14606
▁위도 -14607
▁자처 -14608
▁토라 -14609
가르트 -14610
▁강우 -14611
▁맛보 -14612
▁병풍 -14613
▁연예계 -14614
▁퍼블리 -14615
▁매킨토시 -14616
▁종착역 -14617
▁로드리게스 -14618
▁Pe -14619
▁ab -14620
히메 -14621
▁밋 -14622
▁볶 -14623
▁1840 -14624
▁치사 -14625
▁국화 -14626
▁빅터 -14627
▁이목 -14628
▁오스카 -14629
▁입출 -14630
▁Windows -14631
▁에이전트 -14632
큐리 -14633
▁대타 -14634
▁무비 -14635
▁오시 -14636
▁토키 -14637
▁길드 -14638
▁닉스 -14639
▁참패 -14640
▁탁구 -14641
▁마그네 -14642
▁패스트 -14643
▁에밀리 -14644
▁인지도 -14645
▁와카야마 -14646
▁파시스트 -14647
▁필사본 -14648
▁사이언스 -14649
90 -14650
ade -14651
▁랙 -14652
▁슈투 -14653
▁여포 -14654
▁귀인 -14655
▁유골 -14656
▁쫓기 -14657
▁금색 -14658
▁네이트 -14659
▁손님 -14660
세르 -14661
▁루도 -14662
▁유자 -14663
▁Heart -14664
▁리차드 -14665
▁어도비 -14666
▁현악 -14667
▁스트림 -14668
▁목적지 -14669
▁루피 -14670
▁저해 -14671
▁튜브 -14672
▁고국 -14673
▁영수 -14674
▁반입 -14675
▁수도회 -14676
▁시니어 -14677
▁절친 -14678
중추부사 -14679
▁창립자 -14680
▁어사 -14681
▁하수 -14682
▁내란 -14683
▁발착 -14684
▁보유자 -14685
▁글러브 -14686
▁제작진 -14687
▁금강산 -14688
BI -14689
IX -14690
▁516 -14691
▁고제 -14692
▁로지 -14693
▁비요 -14694
▁유이 -14695
▁이카 -14696
▁쿼터 -14697
▁계룡 -14698
▁바인 -14699
▁영미 -14700
▁분별 -14701
ium -14702
▁자루 -14703
▁자취 -14704
▁퀴즈 -14705
▁성가 -14706
▁풍기 -14707
▁공상 -14708
▁쌍성 -14709
▁남아시아 -14710
IF -14711
딜 -14712
▁피처 -14713
▁도발 -14714
▁윤휴 -14715
▁출세 -14716
▁로타르 -14717
▁전단 -14718
▁히타치 -14719
▁예언자 -14720
▁팔꿈치 -14721
▁지장보살 -14722
▁아나톨리아 -14723
▁세인트루이스 -14724
샹 -14725
구나 -14726
▁기조 -14727
▁지체 -14728
이치로 -14729
▁가방 -14730
▁상과 -14731
▁암수 -14732
▁심리학자 -14733
계사 -14734
▁라프 -14735
▁워스 -14736
▁유화 -14737
▁거창 -14738
▁소박 -14739
▁겸직 -14740
▁시미즈 -14741
▁준동 -14742
▁출국 -14743
▁바닷물 -14744
▁지질학 -14745
짖 -14746
▁Aw -14747
▁래리 -14748
▁사소 -14749
작전 -14750
▁성대 -14751
▁스택 -14752
▁염화 -14753
▁바빌로 -14754
▁적십자 -14755
▁프랑스와 -14756
▁근본번뇌 -14757
▁거사 -14758
▁의주 -14759
▁노현 -14760
▁농가 -14761
▁행보 -14762
▁문중 -14763
▁민심 -14764
▁연중 -14765
▁과반수 -14766
▁그린란드 -14767
▁영등포구 -14768
싯 -14769
어하 -14770
▁Out -14771
넌트 -14772
▁헤더 -14773
전선 -14774
▁넘버 -14775
▁자정 -14776
▁초음 -14777
▁패망 -14778
▁돌고래 -14779
▁유엔군 -14780
▁As -14781
▁Gl -14782
▁낯 -14783
탄두 -14784
▁8000 -14785
▁수급 -14786
▁숙소 -14787
▁헤르만 -14788
▁사주 -14789
▁유카 -14790
▁기행 -14791
▁백조 -14792
▁에밀 -14793
▁자질 -14794
▁청취 -14795
▁추축 -14796
▁온실 -14797
▁흥원 -14798
▁안창호 -14799
▁요리토모 -14800
샨 -14801
윗 -14802
수단 -14803
자원 -14804
테랑 -14805
▁1875 -14806
▁최하 -14807
▁스킬 -14808
▁강인 -14809
▁천상 -14810
▁파주시 -14811
▁구단주 -14812
▁사생활 -14813
▁AMD -14814
던트 -14815
▁베오 -14816
▁에레 -14817
욕장 -14818
▁기린 -14819
▁단서 -14820
▁텐서 -14821
▁피살 -14822
▁괜찮 -14823
▁댈러스 -14824
▁유년기 -14825
▁알프레드 -14826
itt -14827
▁sh -14828
날드 -14829
▁야코 -14830
▁에트 -14831
▁란트 -14832
▁왜군 -14833
▁외척 -14834
▁웍스 -14835
▁휘발 -14836
▁나치오 -14837
▁상동 -14838
부시 -14839
▁바보 -14840
▁지요 -14841
▁동호 -14842
▁설리 -14843
▁수증 -14844
▁월화 -14845
▁그래도 -14846
▁변증 -14847
▁콜린 -14848
▁고문서 -14849
▁가비 -14850
▁사와 -14851
▁오도 -14852
▁권익 -14853
▁무지개 -14854
▁조그마 -14855
▁침식 -14856
▁비둘기 -14857
▁예비역 -14858
▁진주시 -14859
▁강력히 -14860
히데 -14861
▁다자 -14862
▁수만 -14863
▁어선 -14864
▁철자 -14865
▁보리스 -14866
▁삭감 -14867
▁숙련 -14868
▁악명 -14869
▁북극점 -14870
▁벳 -14871
▁더러 -14872
▁벤츠 -14873
▁의복 -14874
▁파랗 -14875
스타인 -14876
▁볼록 -14877
▁이와테 -14878
▁불가피 -14879
▁컨벤션 -14880
기즈 -14881
세서 -14882
어류 -14883
▁바쁘 -14884
▁이심 -14885
▁최남 -14886
▁떠올리 -14887
▁치료법 -14888
▁DB -14889
기아 -14890
▁교파 -14891
에이고 -14892
▁상의 -14893
▁컵스 -14894
▁태안 -14895
▁나리타 -14896
▁독살 -14897
▁사이즈 -14898
▁중견 -14899
▁맥아더 -14900
▁회고록 -14901
▁가환환 -14902
▁샌디에이고 -14903
▁포르투갈어 -14904
▁VS -14905
▁예프 -14906
▁가곡 -14907
▁용지 -14908
▁단양 -14909
▁상식 -14910
▁생원 -14911
▁혼잡 -14912
▁라면서 -14913
펫 -14914
▁PL -14915
▁KTX -14916
▁미지 -14917
▁키드 -14918
▁표제 -14919
▁호그 -14920
▁노원 -14921
▁강습 -14922
▁다이쇼 -14923
▁실상 -14924
▁임종 -14925
▁게임기 -14926
▁꽃차례 -14927
▁리스본 -14928
▁되돌아오 -14929
구니 -14930
사유 -14931
▁Gen -14932
▁구루 -14933
▁냐고 -14934
▁뒤지 -14935
▁위크 -14936
▁타쿠 -14937
프레이 -14938
▁귀엽 -14939
▁김두 -14940
▁생쥐 -14941
▁셔틀 -14942
▁여럿 -14943
▁이선 -14944
▁포인 -14945
▁세미나 -14946
▁집전 -14947
▁파라오 -14948
▁통도사 -14949
▁모자이크 -14950
▁연속극 -14951
▁병자호란 -14952
son -14953
able -14954
▁니케 -14955
▁오마 -14956
참찬 -14957
▁뉴런 -14958
▁금정 -14959
▁레스터 -14960
▁선상 -14961
▁코트디 -14962
▁휩싸이 -14963
▁코트디부아르 -14964
어가 -14965
ᆼ겐 -14966
▁국세 -14967
▁끌리 -14968
▁다름 -14969
▁도적 -14970
▁신지 -14971
▁원효 -14972
▁의성 -14973
▁반론 -14974
사우루스 -14975
▁관심사 -14976
▁비단털 -14977
▁함경도 -14978
윽 -14979
▁TS -14980
▁교훈 -14981
▁능가 -14982
▁뒤따르 -14983
▁은밀 -14984
▁매디슨 -14985
▁데카르트 -14986
▁광둥성 -14987
▁고등교육 -14988
▁비단털쥐 -14989
▁"() -14990
▁그거 -14991
▁리크 -14992
▁카보 -14993
▁바늘 -14994
록대부 -14995
▁목장 -14996
▁올림 -14997
▁칭기즈 -14998
▁클레어 -14999
▁담당자 -15000
▁항공대 -15001
▁몽고메리 -15002
ng -15003
▁챠 -15004
▁로바 -15005
▁애슈 -15006
찬성 -15007
▁규율 -15008
▁들르 -15009
▁의정 -15010
▁징집 -15011
▁출품 -15012
▁테오도 -15013
▁토요타 -15014
▁표트르 -15015
▁엇갈리 -15016
▁운전자 -15017
▁집단군 -15018
▁밧 -15019
보당 -15020
▁저그 -15021
방향 -15022
▁극소 -15023
▁기공 -15024
▁박히 -15025
▁서당 -15026
▁선체 -15027
▁솔리 -15028
▁걸음 -15029
▁방울 -15030
▁실명 -15031
▁야마다 -15032
▁파스칼 -15033
▁학술지 -15034
▁친환경 -15035
ale -15036
▁708 -15037
엽수 -15038
레이트 -15039
▁방호 -15040
▁양파 -15041
▁첩보 -15042
▁취직 -15043
▁금환 -15044
▁인승 -15045
▁일명 -15046
▁건륭제 -15047
▁반감기 -15048
▁선거인 -15049
▁남양주시 -15050
더링 -15051
촌리 -15052
행파 -15053
▁유티 -15054
▁타나 -15055
▁터너 -15056
▁토피 -15057
▁해트 -15058
▁델리 -15059
▁스펜 -15060
▁시찰 -15061
▁정에 -15062
▁친화 -15063
▁할로 -15064
▁로버츠 -15065
▁아리랑 -15066
▁쇼핑몰 -15067
▁신석기 -15068
▁장갑차 -15069
▁380 -15070
▁이희 -15071
▁체로 -15072
▁교관 -15073
▁모질 -15074
▁잉카 -15075
▁바나나 -15076
▁영락 -15077
▁이사벨 -15078
비언 -15079
▁슈타 -15080
세데스 -15081
▁문체 -15082
▁서클 -15083
▁술라 -15084
▁호른 -15085
▁김연 -15086
▁달콤 -15087
▁정칙 -15088
▁성폭행 -15089
▁쳐들어오 -15090
▁안드로메다 -15091
▁Vol -15092
▁아노 -15093
▁에코 -15094
▁로큰 -15095
▁종가 -15096
▁질투 -15097
▁헤겔 -15098
▁스피커 -15099
▁원단 -15100
▁싫어하 -15101
▁아우구스 -15102
▁중앙선 -15103
▁University -15104
▁메르세데스 -15105
▁저널리스트 -15106
▁At -15107
부대 -15108
▁교화 -15109
▁보그 -15110
▁보우 -15111
▁후루 -15112
▁세일 -15113
▁수은 -15114
▁양지 -15115
▁데이트 -15116
▁잠입 -15117
▁직렬 -15118
▁안타깝 -15119
▁브란덴부르크 -15120
▁ATC -15121
▁눌 -15122
렐라 -15123
▁가모 -15124
▁구아 -15125
▁뉴이 -15126
▁로트 -15127
▁미학 -15128
▁자장 -15129
▁헤센 -15130
▁변질 -15131
▁안중 -15132
▁향신 -15133
해방군 -15134
▁정치국 -15135
▁관음보살 -15136
▁인민해방군 -15137
은사 -15138
▁버트 -15139
▁에노 -15140
▁기운 -15141
▁스케치 -15142
▁안식 -15143
▁절충 -15144
▁크메르 -15145
▁쇼트트랙 -15146
▁JC -15147
르카 -15148
▁로사 -15149
▁감기 -15150
▁질리 -15151
크라테스 -15152
▁보호법 -15153
▁콘라트 -15154
▁로큰롤 -15155
▁합성어 -15156
▁오프라인 -15157
▁엑스박스 -15158
PA -15159
▁205 -15160
▁야수 -15161
▁타시 -15162
▁예식 -15163
▁왕래 -15164
▁문관 -15165
▁착각 -15166
▁일부러 -15167
▁형용사 -15168
▁라이베리아 -15169
▁KO -15170
▁WC -15171
우주 -15172
쿠사 -15173
▁DOS -15174
▁탭 -15175
리올 -15176
모음 -15177
몽골 -15178
▁규약 -15179
▁닥치 -15180
▁이홍 -15181
▁명상 -15182
▁종사자 -15183
▁크라운 -15184
▁프론트 -15185
▁강대국 -15186
very -15187
▁수라 -15188
선언 -15189
▁가명 -15190
▁데일 -15191
▁라울 -15192
▁서약 -15193
▁외손 -15194
▁베르트 -15195
▁인먼 -15196
▁환율 -15197
▁행해지 -15198
▁호흡기 -15199
▁통계청 -15200
▁바빌로니아 -15201
세키 -15202
▁Par -15203
▁모체 -15204
▁모피 -15205
▁치마 -15206
▁폐허 -15207
▁후이 -15208
▁레몬 -15209
▁사각 -15210
▁즐거 -15211
▁등산 -15212
▁막강 -15213
▁한민 -15214
▁상반기 -15215
▁뉘른베르크 -15216
날레 -15217
박사 -15218
▁외할 -15219
▁후한 -15220
▁성행 -15221
▁엔젤 -15222
스코리아 -15223
▁보컬리 -15224
▁보컬리스트 -15225
▁GR -15226
사와 -15227
▁235 -15228
▁name -15229
▁베티 -15230
▁자키 -15231
▁티저 -15232
▁동거 -15233
▁조봉 -15234
▁천리 -15235
▁슈미트 -15236
▁캐스터 -15237
▁피의자 -15238
▁데뷔작 -15239
▁송파구 -15240
▁남극점 -15241
▁아나키스트 -15242
▁거머 -15243
▁구세 -15244
▁호로 -15245
▁기판 -15246
▁문수 -15247
▁상계 -15248
▁일차 -15249
루엔자 -15250
▁장정 -15251
▁부적절 -15252
▁NBC -15253
▁텅 -15254
연구 -15255
▁경의 -15256
▁몹시 -15257
▁배반 -15258
▁안파 -15259
▁경순 -15260
▁순식 -15261
▁슈타인 -15262
▁대항전 -15263
▁사할린 -15264
▁지하철역 -15265
ᅥ하 -15266
티보 -15267
▁샤르 -15268
▁우기 -15269
▁서안 -15270
▁석기 -15271
▁정오 -15272
▁기뻐하 -15273
▁실은 -15274
▁월남 -15275
폴리탄 -15276
▁통신망 -15277
▁메트로폴리탄 -15278
▁버니 -15279
▁하산 -15280
▁면담 -15281
▁미스코리아 -15282
에쓰 -15283
▁벙 -15284
▁초계 -15285
▁남단 -15286
▁변혁 -15287
▁시그마 -15288
▁시마즈 -15289
▁사무관 -15290
so -15291
두사 -15292
시대 -15293
알라 -15294
양이 -15295
▁기마 -15296
▁시의 -15297
▁자위 -15298
▁미첼 -15299
▁외면 -15300
▁칸트 -15301
▁화승 -15302
▁병렬 -15303
▁특공 -15304
▁이랜드 -15305
▁당뇨병 -15306
▁맥스웰 -15307
▁열역학 -15308
▁파푸아뉴기니 -15309
co -15310
투리 -15311
▁노카 -15312
▁마흐 -15313
▁활기 -15314
▁군복 -15315
[...]
