[PAD]
[UNK]
[BOS]
[EOS]
[CLS]
[SEP]
[MASK]
▁▃
▁ㅇ
▁ㅇㅡ
▁하
ㄷㅏ
▁.
▁ㅇㅔ
▁ㄱ
▁이
ㅡㄴ
ㄴㅡㄴ
▁ㄷㅏ
▁ㅇㅢ
▁ㄴㅡㄴ
▁ᆫ
▁ㄹ
▁,
▁ㅇㅡㄹ
▁ㅇㅓ
▁ㅇㅏ
▁ㅇㅡㄴ
▁1
ㅅㅓ
▁되
▁ㅇㅣ
ㅡㄹ
▁ㄹㅡㄹ
▁ㅇㅓㅆ
▁ㄱㅗ
▁년
ㄹㅗ
▁2
▁있
▁ㅇㅏㅆ
▁대
▁ㄹㅗ
▁ㄱㅏ
▁사
▁지
▁그
ㅁㅕ
▁일
▁시
▁ㄷ
▁ㅇㅕ
▁ᆫㄷㅏ
▁들
▁ㄱㅘ
▁수
▁가
▁기
▁전
ㅈㅣ
▁적
▁아
▁20
▁ㅇㅘ
▁ㄷㅗ
▁월
▁주
▁제
▁ㅁㅕ
▁19
▁다
▁ᆯ
▁정
▁자
▁중
▁위
▁인
▁ㅇㅕㅆ
▁공
▁보
▁세
▁경
▁것
▁ㅈㅣ
▁개
▁부
▁ㄹㅏ
▁ㄱㅣ
▁오
▁유
▁3
▁"
▁조
▁나
▁등
▁스
▁ㄱㅔ
▁선
▁성
▁미
▁동
▁연
▁마
▁상
▁소
▁모
▁한
▁고
▁비
▁영
▁의
▁구
ㄴㅏ
▁국
▁도
▁발
ㄱㅗ
▁여
▁201
▁서
▁'
ㅁㅏ
▁4
▁후
▁관
▁명
ㅁㅏㄴ
▁신
▁만
▁프
▁5
▁때
▁ㅁㅕㄴ
▁200
▁장
▁-
▁ㄷㅓ
▁방
▁ㄷㅓㄴ
▁바
▁교
▁리
▁해
▁문
▁역
▁내
▁차
ㅌㅓ
ㅂㅜ
▁당
▁무
▁우
▁원
▁통
▁계
▁현
▁남
▁군
▁노
▁포
▁분
▁어
▁6
▁화
▁또
▁않
ㄲㅏ
▁거
▁학
▁생
▁ㄲㅏ
▁작
▁같
▁강
▁결
▁출
▁파
ㄱㅔ
▁받
▁진
▁대하
▁크
▁단
▁7
▁번
▁최
▁10
▁반
▁불
▁8
▁알
▁데
▁위하
▁호
▁두
▁회
▁배
▁안
▁카
▁실
▁형
▁초
▁말
▁따
▁예
▁에
▁재
▁ㅂㅜ
▁없
▁로
▁타
▁사용
ㄷㅔ
▁9
▁미국
▁종
▁라
▁이후
▁요
▁함
▁설
▁과
ㅈㅏ
▁특
▁ㅁㅕㄴㅅㅓ
▁일본
▁코
▁ㄴㅡㄴㄷㅔ
▁산
▁운
▁권
▁감
▁독
▁레
▁활
▁추
▁베
▁행
▁ㅈㅏ
▁왕
민국
▁피
▁김
▁그리
▁지역
▁음
▁대한
▁양
▁더
▁199
▁다음
▁매
▁민
▁평
▁태
▁많
▁12
▁입
▁따르
▁건
▁대한민국
▁참
▁18
▁간
▁및
▁경기
▁승
▁가지
▁열
▁목
▁대학
▁다른
▁;
리아
▁프로
00
▁의하
▁드
▁총
▁속
스트
▁ㅁㅏㄴ
▁북
or
▁S
▁집
▁11
▁법
▁때문
▁트
▁시작
▁체
▁각
▁외
▁물
▁달
▁천
▁변
▁메
▁시키
▁임
▁표
▁직
▁올
▁처
▁ᄆ
▁토
▁그러
▁⊸
▁본
▁사람
▁&
▁쓰
▁점
▁저
▁함께
▁A
▁또한
▁팀
어지
▁박
어나
▁치
▁투
▁선수
▁청
▁한국
▁항
▁브
▁)
▁영화
▁세계
▁사이
▁버
▁광
▁새
▁약
la
▁자신
▁C
▁게
▁M
▁경우
▁용
▁통하
▁f
▁판
▁ㄴㅏ
▁디
▁축
▁T
▁현재
▁F
▁기록
▁복
▁야
▁하나
▁국가
시아
▁아니
▁존
▁네
▁이름
▁198
▁편
▁당시
▁가장
▁확
▁삼
▁위치
▁_
▁조선
▁학교
▁활동
▁보이
▁뒤
▁철
▁만들
▁리그
주의
▁(
▁필
▁그러나
▁15
▁살
▁for
▁금
▁페
▁증
▁합
mu
▁째
▁루
▁플
▁백
▁테
▁창
▁심
mula
▁formula
▁애
▁언
ㄱㅏ
▁식
▁16
▁대표
레이
▁연구
▁병
▁근
▁못
▁또는
▁프랑
▁/
▁그리고
▁황
▁사회
▁m
▁돌
▁규
▁0
▁D
▁충
▁17
▁시즌
▁순
▁첫
▁패
▁]
▁197
▁[
ㅇㅑ
▁B
▁완
▁히
랜드
▁이루
▁높
▁못하
▁중국
▁알리
▁협
▁다시
▁길
▁클
▁서울
▁정부
▁프랑스
학교
▁K
▁영국
▁I
▁ㅂ
▁채
▁:
▁시대
▁ㄴㅡㄴㄷㅏ
▁키
▁도시
▁k
▁포함
▁뜻
▁여러
ㅁㅕㄴ
▁196
▁은
▁14
▁전쟁
▁아이
▁독일
▁면
▁죽
er
▁대회
▁~
▁문화
▁g
▁배우
▁13
▁축구
▁취
▁위원
▁별
▁허
▁P
▁가능
▁모두
▁ㅅㅓ
▁뉴
▁동안
in
ㄴㅣ
▁ㅂㅗ
▁모든
▁⊸⊸
▁이상
▁친
▁손
▁감독
▁곡
▁194
▁정치
▁환
▁일부
▁방송
▁l
▁석
▁문제
▁대학교
▁처음
▁개발
▁L
▁지방
▁제작
▁구성
▁%
▁캐
▁검
▁인하
▁국제
▁러
▁농
▁터
라이
▁사건
▁니
▁골
▁세기
▁끝
▁시간
▁ㄱㅓ
▁이용
▁논
▁일반
▁씨
▁부르
▁존재
▁G
▁작품
▁향
▁게임
▁밀
▁날
▁정도
▁운동
▁폭
▁급
▁역사
▁주장
▁gt
▁나오
▁N
▁곳
ㄹㅗㄱ
▁관계
▁섬
▁즉
▁인구
▁앞
니아
▁ㅅ
▁티
on
▁195
▁효
▁km
▁교육
▁음악
▁접
▁나타
▁중심
▁lt
▁육
▁ㄹㅕ
▁맡
리스
▁이러
▁U
▁귀
▁극
▁30
▁쿠
▁R
▁절
▁맞
▁선거
▁블
▁경제
부분
▁발견
통령
▁전투
▁H
▁담
▁민주
화국
▁봉
▁발표
▁글
▁E
▁갖
▁홍
▁기술
▁측
▁올림
▁누
▁막
▁암
▁아들
이스
▁책
▁우승
▁2010
▁공격
▁엔
▁대부분
▁대통령
▁들어
▁잘
▁올림픽
▁사망
an
▁영향
▁걸
▁케
▁질
▁헤
000
▁결과
▁불리
▁여기
▁슈
▁열리
▁송
▁밝
▁새롭
▁라이
▁지원
▁프로그
▁앨
리카
▁193
▁과정
▁잡
▁의미
▁발생
▁관련
▁참여
▁중앙
▁유럽
▁업
▁진행
▁c
▁최초
란드
▁머
20
▁얻
▁범
▁준
▁25
▁고등
▁부분
▁독립
ㅆㅓ
▁특히
▁자유
▁태어나
▁결정
▁제국
▁세우
지만
▁다양
▁구조
▁설립
▁팔
▁설치
▁속하
버지
▁초등
▁당하
▁발매
▁폐
▁형태
나라
▁상태
▁탄
▁소속
▁악
▁탈
▁W
▁온
▁벌
▁좌
▁2008
▁러시아
▁이전
▁21
▁침
▁좋
▁사실
▁하지만
▁센
우스
▁일어나
▁그녀
▁줄
▁스타
▁르
디오
▁커
ㄹㅏ
▁같이
▁폴
▁로마
▁여성
▁이것
▁인민
▁주로
▁프로그램
▁나라
▁타이
▁생각
▁2012
▁2011
▁갈
▁필요
▁출신
▁참가
▁싱
▁혼
▁이탈
▁관리
▁조직
▁기준
▁100
▁운영
en
▁위원회
▁보내
▁2009
▁여자
▁오르
▁2007
▁윤
▁중요
▁생산
▁계획
▁2014
▁기관
▁t
▁행정
▁등장
▁정보
▁상대
▁음반
▁이르
▁계속
▁지정
▁성공
▁바이
▁데이
▁a
▁매우
▁콘
▁지나
▁국민
▁데뷔
▁2013
▁해당
▁O
▁넘
he
▁밝히
▁레이
ㄹㅓ
▁철도
▁과학
▁아버지
▁대전
스터
▁칼
▁고려
ㄷㅗ
리즈
▁이탈리아
▁주요
▁몇
▁발전
프트
▁자리
▁191
▁사업
▁묘
▁시스
▁와
▁ㅊ
▁23
▁찾
▁24
▁지내
▁000
▁2015
ar
남도
▁억
▁차지
▁방법
ㅁㅡ
▁ㅊㅓ
ㄹㅓㅁ
▁2018
라마
▁헌
▁월드
▁2016
▁앨범
▁얼
레스
▁능
▁그룹
▁최고
▁인도
▁쇼
▁돌아
▁빌
▁마이
▁출연
▁아래
▁결국
이션
르크
▁시리즈
▁관하
▁엘
▁J
▁후보
es
▁전체
▁고등학교
▁생활
▁떨
▁22
▁이루어지
▁빠
▁2006
▁회사
이트
▁그리스
▁이유
▁한편
FA
▁내용
▁192
▁우리
▁ㅇㅡㅁ
▁거치
비아
▁격
▁층
▁나가
▁제공
▁스페
▁연합
▁풍
▁방식
▁2017
▁의원
▁힘
▁공식
운데
▁인터
▁항공
▁인간
▁많이
▁시기
▁컴
▁역할
▁잠
▁희
▁드라마
▁몸
▁가운데
▁군사
▁시스템
▁초기
▁조사
▁출전
▁워
▁유명
▁거의
▁민족
▁기업
▁제도
▁반대
▁류
▁놓
▁s
▁나타나
▁쓰이
▁퍼
▁지구
▁푸
▁둘
▁가리
▁교회
▁텔
▁색
▁수상
▁대신
▁떠
비스
▁달리
▁유지
▁평가
▁울
▁표현
▁분류
▁ㄹㅏㄴ
▁26
▁!
▁몰
▁올리
▁특별
▁홈
▁언어
▁대상
▁녹
▁동시
▁기능
▁현대
at
▁규모
▁응
▁공개
▁프리
▁28
▁모습
▁마지
▁졸
▁자연
▁노동
▁ㅇㅑ
▁이미
▁연결
▁각각
야기
▁웨
▁개인
▁27
▁들어가
▁이론
▁2019
▁승리
▁전하
▁뛰
▁붙
▁인정
▁단체
▁진출
▁지도
▁브라
▁ㅅㅣ
북도
▁임명
▁2005
▁핵
▁V
▁마지막
▁떨어지
▁2000
▁시장
머니
▁목적
▁시절
▁아르
▁수도
▁메이
▁전문
▁경상
▁정의
▁목록
▁정책
▁멀
▁난
▁기간
▁너
▁상황
▁족
▁눈
ic
▁산업
▁직접
▁이야기
al
▁먹
▁서로
▁야구
스크
▁혁
▁오스트
▁압
▁계약
▁밴
▁기원
▁슬
▁추가
BS
▁건설
▁공동
▁2004
▁모델
▁개최
▁콜
▁샤
▁FC
▁건물
▁공간
▁플레이
▁경찰
▁망
▁50
▁형성
▁활약
▁결혼
▁거리
▁스페인
▁부산
▁31
▁자동
▁훈
▁29
학자
▁졸업
▁그것
▁칸
▁변화
▁b
▁노래
▁교수
▁사상
▁변경
으키
▁TV
▁ㄴㅣ
▁국회
▁인물
is
▁뿐
▁나이
▁마을
re
it
▁공화국
▁텔레
▁완전
▁다르
▁벨
▁궁
▁190
▁비롯
▁노선
▁사랑
▁흐
▁인민공
▁낮
▁인민공화국
▁휴
비전
▁역시
▁2020
▁학생
▁중학교
▁느
ou
▁맥
▁보통
▁실제
▁지지
▁최대
▁서비스
이드
▁만나
▁볼
▁요구
▁잉
▁지금
▁탑
▁따라
▁견
▁보호
▁전국
프리카
대로
▁일으키
▁소설
▁의회
▁싸
▁중화
▁우주
▁딸
▁겸
▁ㄱㅔㅆ
▁실시
▁지하
▁없이
▁기본
▁혹
역시
▁황제
▁가수
▁다이
운드
▁자기
▁판매
▁싱글
▁전통
르트
▁밴드
▁높이
▁원래
▁비판
▁ㅁㅏ
▁차이
▁옥
▁기반
▁엄
▁떠나
▁퇴
▁론
너지
▁2002
▁종교
▁경기도
▁세력
▁어떤
▁탐
▁내리
로스
▁40
▁버리
▁자료
스탄
▁소련
▁수행
▁이끌
▁가리키
▁2003
▁환경
▁기타
▁ㄴ
▁회의
▁센터
▁모양
▁전기
▁운행
▁풀
▁시설
▁도쿄
▁월드컵
▁전자
▁부대
▁특징
▁나타내
▁밖
나다
러스
▁공연
▁승강
▁컵
▁걸치
▁기념
▁그래
▁교황
▁명칭
▁분야
▁뮤
▁예술
le
▁설명
▁이동
▁기독
▁통합
▁텔레비전
mp
▁작업
▁연방
▁남자
▁도입
▁염
▁구역
▁동물
▁득
▁행동
▁따라서
▁선정
▁전라
▁애니
▁숙
스타
▁군대
▁바로
▁소프트
▁남쪽
▁넓
▁작용
▁가족
들이
▁능력
▁할
▁출시
▁북쪽
▁방향
▁확인
▁증가
▁기존
▁지휘
▁=
▁행위
▁제외
▁차량
▁문학
▁교통
의원
▁기독교
▁작가
▁이때
▁옮
▁착
▁비슷
▁사고
▁클럽
▁국내
▁형식
▁윌
▁ㅁㅡ
▁어머니
▁도로
▁십
▁혁명
▁작곡
▁강하
▁마르
▁역임
▁빈
▁효과
▁승강장
▁태양
▁지배
▁낙
▁그렇
▁캐나다
▁몽
▁컴퓨
▁왕국
▁열차
▁유일
▁FI
▁과거
▁거두
▁사무
▁옮기
▁이적
▁챔
BC
▁협회
▁혹은
▁남부
▁갑
▁추정
리오
▁흥
▁뉴욕
▁베이
▁비교
▁솔
▁흔
▁생기
▁공산
자리
▁갖추
▁담당
▁육군
▁정당
▁이어지
▁동일
▁이사
▁시민
▁주변
▁획
▁2001
▁1990
▁런
▁홀
▁늘
▁동쪽
▁즈
▁장관
▁인기
▁물리
▁대사
▁스포
▁적용
▁스트
▁넣
▁X
▁챔피
▁윈
▁세포
▁건축
▁예정
▁공사
▁p
▁데이터
▁쪽
▁구간
▁사단
▁개념
▁컴퓨터
▁성장
▁상당
▁곧
▁ᆫㄷㅔ
▁조지
▁마음
▁크기
드리
▁오늘
▁차례
▁징
▁품
▁서쪽
▁189
▁에너지
▁버스
▁멤
▁돈
▁충청
▁맨
▁흑
▁바르
▁비하
▁록
이지
▁바꾸
▁치르
▁어리
▁액
▁칭
▁작전
▁땅
▁조건
▁민주주의
▁자체
▁실패
▁디자
▁연기
▁잔
▁어느
▁반응
▁율
▁덕
▁이런
▁FIFA
▁d
▁선언
▁돌아오
▁이어
▁연주
▁애니메
▁특정
▁버전
▁종류
▁부족
▁컨
▁움
▁페르
▁국립
▁쉽
▁방영
▁연속
카이
가지
▁익
▁쌍
▁피해
▁선택
el
▁대체
▁공항
▁대구
▁해군
▁다루
▁ㄹㅓ
▁규정
▁고대
et
거리
버스
라지
▁멤버
▁체제
▁조약
▁내부
▁북부
루스
▁속도
▁수록
▁결승
▁기원전
▁아시아
▁선출
▁연대
▁애니메이션
▁명령
▁정신
▁헌법
글랜드
▁쥐
▁크리스
▁인천
▁포르
▁ㄴㅡㄴㅈㅣ
▁왜
▁옛
▁휘
ion
▁가치
웨어
▁단계
▁영어
▁개혁
▁최종
▁물질
▁자치
ing
▁친구
▁달러
▁설계
▁나누
▁최근
▁분석
▁밤
▁비행
▁척
트남
▁가깝
▁출판
▁평균
▁의사
▁강화
시마
▁ᆫㅈㅣ
▁1999
▁지명
▁로스
▁체계
아가
▁더욱
널리
ol
▁롭
▁표준
라스
▁소비
▁술
▁배치
▁잉글랜드
메리카
▁법원
▁1998
▁머리
▁집단
▁cm
▁Y
▁치료
21
▁북한
▁획득
▁개월
▁씩
▁남기
▁부문
▁파이
▁관심
▁팬
▁언급
▁o
▁하이
▁헬
▁함수
▁겨
▁하계
▁분리
▁공원
▁유사
▁현상
▁1980
▁지속
▁부상
▁먼
▁파리
▁60
▁맺
▁벤
▁스테
▁실험
▁스포츠
▁조정
▁처리
▁확장
스코
▁선발
▁엔진
▁베르
리지
▁관할
▁입단
▁지니
▁제품
▁35
▁공립
▁마치
▁대중
▁챔피언
▁마리
▁소유
▁문자
▁빠르
▁목표
▁통일
▁장군
▁도움
▁어렵
▁꽃
▁요소
▁시도
▁mm
▁주도
▁재판
디어
▁정규
▁자동차
▁에스
⊸⊸
⊸⊸⊸
▁나무
▁이해
▁요시
▁외국
▁거주
▁향하
▁점령
▁구단
▁후반
▁원자
▁시험
▁주인
▁편성
▁기사
▁네덜
▁네덜란드
▁바뀌
▁미치
▁n
▁괴
광역시
▁주민
▁학자
▁앤
▁행사
▁가르
▁잃
▁통신
▁일종
▁결합
▁사령
▁웹
▁혈
▁안정
▁투표
▁동맹
▁고속
▁스럽
▁끌
▁책임
▁알렉
▁예선
▁불교
▁잇
▁수준
▁길이
om
▁앙
▁개봉
나무
▁장치
▁아프리카
▁깊
야마
▁끝나
▁언론
젝트
▁1997
▁모르
▁디자인
▁본선
▁문서
▁불구
▁광주
▁정하
▁준비
▁베트남
일랜드
▁촉
▁사진
▁캠
▁칠
▁방문
▁신문
▁ᄇ
▁가문
▁빛
메달
▁유전
▁ㄱㅜ
st
▁다니
▁구분
▁정권
▁폴란드
▁가정
▁1996
▁정확
▁The
▁1995
▁제조
▁경험
▁그림
▁성적
▁드러
▁요리
▁핀
▁비디오
▁용어
▁믿
▁평화
▁amp
▁부인
▁정리
▁32
▁오늘날
▁통과
▁70
▁값
▁부여
▁일제
▁원인
특별
▁왕조
▁찬
ㅇㅓ
▁아마
▁프로젝트
▁런던
▁추진
▁아직
▁덴
▁병원
▁은퇴
▁이곳
스로
▁널리
▁방어
ㅇㅓㅆ
▁깨
▁올라
▁종합
▁프레
▁멸
스턴
▁신라
인트
▁슈퍼
▁500
▁폐지
▁인터넷
▁영역
▁이듬
▁해석
▁몬
▁끼
▁습
▁통치
▁경쟁
웨이
▁입장
▁미사
▁훈련
▁경영
▁제주
▁the
▁민주당
▁면적
▁노력
▁발달
▁총리
▁보도
▁츠
▁주연
▁파괴
아들이
레일
am
▁제안
▁기여
▁80
▁주제
▁죽이
▁ᄇㄴㅣ
▁만화
▁회장
▁접하
▁유래
▁미술
▁번호
▁서부
▁부정
▁모으
▁이듬해
▁188
▁경기장
▁야마
▁도서
▁놀
▁국회의원
리트
▁완전히
▁UE
▁생물
▁지키
▁남성
▁연맹
▁식민
▁빅
▁자주
라인
▁동부
▁궤
▁투수
▁경계
▁요청
▁그런
▁+
ㅂㄴㅣ
il
▁정상
▁ㄹㅜ
▁1994
▁폰
▁법률
▁행성
▁UEFA
▁1970
▁나뉘
▁벌이
▁무기
▁소재
▁수용
▁등록
▁금지
▁돕
▁ㅅㅡ
▁움직
▁삼성
▁연구소
톨릭
ac
▁인식
▁제한
▁지진
▁펼
▁바탕
▁라디오
▁링
▁꼬
▁무대
▁박물
▁강원
▁영토
▁노르
▁아시
머지
▁발사
▁나머지
▁지대
▁외교
▁철학
▁KBS
▁접근
▁조각
▁표기
▁반면
▁린
▁ㅅㅡㅂㄴㅣ
▁빠지
▁스스로
▁오래
▁뉴스
▁업무
▁정식
▁뇌
▁거부
▁다리
▁더불
▁아일랜드
▁결성
▁마찬
▁마찬가지
▁서식
▁오스
▁벽
▁필리
▁붙이
▁받아들이
▁1992
▁돌아가
▁상호
▁펜
▁은행
▁굴
요일
▁짧
▁45
▁다수
▁공작
▁아카
▁기초
▁가톨릭
ro
ㅁㅕㄴㅅㅓ
▁소리
▁박사
▁복귀
▁보수
임스
▁논란
▁임시
▁스웨
▁바다
▁의식
▁주의
▁이기
▁수학
▁트리
▁득점
▁성격
시코
▁이렇
▁장애
▁36
ed
▁of
▁윌리
모토
▁실제로
▁지도자
▁박물관
▁해결
▁초대
▁그대로
▁마이크
▁이스
▁장소
▁유로
▁브라질
▁검사
▁스위
▁에이
워드
▁총선
▁긴
▁여행
트리
▁카드
▁집합
▁여름
▁화학
▁표시
▁느끼
▁차원
▁강력
▁묘사
▁기구
▁패배
▁식물
▁오브
▁1960
▁제시
▁계열
▁관측
ig
▁이외
▁연극
▁1991
▁단순
▁인사
▁안전
▁유니
토리
▁스웨덴
▁차트
로나
▁뛰어나
▁활용
▁파일
▁무역
▁멕
▁디지
▁권력
▁곤
▁개국
▁회원
▁히로
▁오스트리아
▁꾸
▁자라
부르크
▁근처
▁1993
레일리아
▁싸우
▁기계
▁33
▁형제
▁캐릭
▁보다
▁조성
▁소프트웨어
▁반란
▁취하
▁붕
▁먼저
▁지적
배우
▁분포
▁중간
베이
▁중단
▁아무
▁흡
▁위험
▁발행
▁일정
▁세대
▁시행
트로
▁도착
▁스튜
▁스코
▁여객
특별시
▁량
od
▁띠
▁기자
▁협력
버트
▁서울특별시
▁사이트
사카
▁윈도
▁지하철
주시
▁단어
▁186
▁해안
▁캐릭터
▁하루
니스
▁다만
▁",
ve
▁렌
워크
▁죽음
▁코드
▁파견
▁혜
as
▁수많
▁연장
▁들어오
▁세상
▁내각
▁ᆫㄱㅏ
▁순위
▁태평
▁경상남도
▁전시
▁오스트레일리아
▁내려
▁죄
▁다카
지션
▁공장
▁본부
▁생성
▁투자
나이
▁후기
▁삶
▁번역
▁카이
▁겪
▁케이
소년
▁윌리엄
▁감소
▁근거
▁혐
▁경상북도
▁옹
▁지상
▁뮤직
▁네트
▁제기
▁보유
▁귀족
▁확대
▁보존
▁유형
▁관광
▁양식
▁지식
▁1988
▁듣
무원
▁?
▁균
▁동생
▁위기
▁멜
▁상징
▁달성
▁구하
▁유대
▁187
▁숨
▁촬
▁캘
▁촌
▁극장
▁원소
▁멕시코
▁전략
▁상업
▁h
▁당선
▁디지털
▁근무
▁유리
▁영상
▁학위
▁수사
▁성립
▁완성
▁대응
ㅜㄴ
▁단위
▁34
▁특수
▁짓
▁계승
▁촬영
▁옆
▁발매되
▁체포
▁이슬
▁흐르
▁님
▁코치
▁수비
티아
▁나중
▁몇몇
▁식민지
▁38
▁이렇게
▁체결
id
▁전달
▁ㅇㅗ
아내
▁마사
회사
▁권리
▁이집
▁이집트
▁알렉산
▁종목
▁생명
▁국왕
가리
▁90
가와
▁싶
▁듀
아시아
▁벌어지
▁낳
▁아내
▁걸리
▁승격
▁시티
▁맹
▁ㄷㅐ
▁직후
▁톤
▁헨
▁판단
▁1989
▁이주
▁타이틀
▁시청
▁2021
▁관찰
▁개통
▁률
모리
▁주식
▁도서관
▁미래
▁크로
▁48
▁대륙
▁측정
ec
▁틀
▁펼치
▁동계
▁소수
▁젊
▁맞추
▁미군
▁즐
▁채널
▁밑
▁엘리
▁홍콩
us
▁문화재
▁정치인
▁스키
▁전환
▁설정
▁자본
▁포르투
▁라인
and
▁세르
▁특성
▁',
▁쌓
▁텍
NA
▁새로
▁개정
▁얼마
▁미사일
▁납
▁신경
▁시위
▁상하
▁종료
▁취임
▁의견
▁1950
▁제정
▁기획
▁지위
▁|
▁달하
▁주어지
ㅇㅔ
▁후쿠
▁본관
▁은하
▁300
▁결승전
▁전차
▁청년
스티
디아
▁MBC
▁사회주의
▁천황
코드
▁출생
▁e
▁아키
▁헝
▁주인공
▁교체
ad
▁범죄
▁답
▁제임스
▁전라남도
▁셀
▁주목
▁충돌
▁예수
▁ㅃ
▁계산
▁소개
▁수정
▁해외
▁춘
▁녹음
▁ㅇㅏㅆㅇㅓㅆ
교회
▁빼
▁장기
▁ㅃㅜㄴ
▁음식
▁1945
▁바이러스
▁벗
▁즉위
▁스티
▁비용
▁모이
▁남북
▁본래
▁개선
▁카운
▁소장
▁합류
리학
ent
▁건강
▁자격
▁비밀
전히
▁공부
▁건너
▁펠
▁네트워크
▁계기
▁공급
▁궤도
▁부모
▁이래
▁배경
▁체육
스카
▁ㄷㅡ
▁만드
▁시내
▁에드
50
▁제거
▁털
▁인근
▁원정
▁셰
▁컬
▁누구
▁각종
▁작성
▁오후
▁공군
▁명예
▁거대
▁감염
▁자원
▁물론
▁홈런
▁입학
▁왼
▁신학
▁읽
▁가입
▁성우
▁국경
▁베네
▁집중
▁군인
▁피아
▁전사
▁가격
▁천문
▁객
보이
베르
▁명단
▁포지션
▁병력
▁울산
▁저항
▁줄이
▁신호
티나
▁이슬람
▁통제
▁아우
▁찰
▁농업
▁강조
▁기후
리포
▁질량
피아
▁측면
▁소송
▁인수
▁만약
▁St
▁터미
▁학문
▁블랙
▁실행
▁플로
▁세이
▁병사
▁던
▁콩
▁터키
ot
도로
▁오른
▁강원도
니어
▁겨울
▁피하
▁태평양
▁나서
▁x
▁정착
▁최소
▁증명
▁약간
▁변호
▁비트
▁엑
▁기회
▁잎
▁너무
▁미디어
▁무장
un
▁외부
▁이번
▁노동자
▁광고
▁마리아
▁쉬
▁37
▁해방
▁환자
ow
▁몽골
동안
▁in
▁편집
▁국방
▁터미널
철도
▁쇠
▁마쓰
▁제목
스키
▁사라지
▁지점
▁밀도
▁냉
▁표면
▁무렵
▁바라
▁라운드
▁금융
▁ㄹㅣ
▁도중
▁전반
▁바람
▁마련
▁유도
▁혐의
▁가스
▁1987
오카
▁허용
▁카르
▁그해
▁충분
▁힐
소리
▁학년
▁윈도우
▁빨
▁합병
▁인디
▁충청남도
▁루이
▁래
▁꼬리
▁재산
▁여전히
▁민간
▁재직
▁영화배우
▁전력
▁오사카
▁포르투갈
▁숲
▁고전
▁w
▁양성
마크
▁등급
▁선수단
▁전역
▁41
▁뒷
▁령
▁가져
▁붕괴
▁킹
▁현실
▁헝가리
▁오리
▁후지
▁라이브
▁1986
▁재정
▁공주
드로
▁51
▁1984
ur
▁행하
▁공공
▁동료
▁엔터
▁이하
▁캘리포
▁보고
▁스튜디오
▁계급
▁봄
▁대수
▁위원장
▁승인
▁강제
▁전선
▁적극
▁군주
▁온도
▁대대
▁조치
▁위협
▁샌
▁근대
▁구축
▁롤
▁유엔
▁수입
▁범위
▁업체
▁둥
▁클라
▁캘리포니아
▁이미지
▁임무
▁경력
▁논문
▁양자
▁대학원
▁위성
▁출발
▁꿈
▁핀란드
▁이제
▁고구
▁다섯
▁교사
▁점차
▁항상
▁거래
▁성인
▁토론
▁공산당
▁채택
▁전개
▁필리핀
▁수단
▁회복
▁원칙
▁잭
마스
러지
▁확보
▁올라가
▁섭
▁아시안
▁강의
▁잡지
▁수립
테르
▁드래
▁증거
▁남아
▁공업
ch
▁앞서
주교
▁첨
▁39
▁남편
ㅇㅛ
▁400
▁개편
▁매년
▁스파
▁기지
▁얼굴
▁일원
고리
▁선생
▁의료
▁합의
▁사례
▁만족
바이
▁시인
▁앞두
▁스위스
▁나카
▁이스라
▁폭발
▁1985
▁부근
▁그래서
▁간주
▁장비
▁64
▁붉
▁모스크
▁이승
로드
▁어떻
▁욕
▁종종
▁튀
▁대형
데미
▁경주
▁대기
▁군단
▁끊
▁스리
ay
▁이스라엘
▁분자
▁둘러
▁아름
▁규칙
▁뜨
ir
▁장면
▁토지
▁아주
▁항성
▁종이
▁불가
다리
▁II
▁게이
ut
▁수원
▁어린
▁움직이
▁경향
▁까
▁캄
백질
▁조합
▁낭
▁맛
▁ㄷㅡㄴ
키아
▁진화
▁해체
▁기대
um
▁아랍
▁탑재
▁귀국
우드
▁레코드
고기
▁강점
▁심하
▁아카데미
▁43
▁그곳
레이드
▁대장
▁저지
▁확실
▁br
▁기억
▁서양
▁짐
▁신화
▁평양
▁향상
▁장식
▁클래
▁고양
▁투어
im
▁스피
▁아나
어들
▁아메리카
▁박쥐
▁청소년
▁좀
▁란
▁침공
▁변하
▁42
▁의학
▁보장
▁융
▁아름답
▁청나라
▁카운티
▁폼
오스
▁남동
▁새기
▁랭
▁고구려
▁사후
▁메이저
▁만큼
▁켄
요시
▁카메
▁가로
▁가사
▁에피
▁자금
ver
보드
▁보병
▁불과
네스
▁선고
▁잠시
▁신설
▁1982
▁성과
▁소년
▁나치
▁단백질
라비아
▁스타일
▁독자
▁55
▁고문
타인
▁이끄
▁중화민국
에르
▁만주
▁숭
▁감정
▁라틴
▁살해
▁편입
▁우선
▁우수
▁철도역
▁단지
▁스카
무르
▁확정
라노
▁합치
네시아
틀랜드
▁광역시
▁스케
▁ㅂㅏ
▁함대
▁복잡
▁비율
▁덴마크
▁신앙
▁차별
▁1983
▁의장
▁지시
▁i
▁세종
▁삭
▁나폴
다이
▁44
▁왕위
▁재단
▁예상
▁창설
▁온라인
누스
▁LG
▁태풍
일러
▁마크
▁공유
▁고향
FC
▁구체
▁법인
▁전설
▁성당
▁전화
▁선거구
▁검찰
▁동의
▁역대
▁브리
▁짜
뜨리
▁47
▁킬
▁육상
▁참석
▁반도
▁솔로
▁판결
▁삼국
▁보급
▁브랜드
운동
트라
▁묻
하라
▁둘러싸
▁대립
뿌리
싱턴
▁하늘
의회
▁유학
▁노예
▁저장
▁고정
▁수출
▁후손
비드
이크
▁애플
▁카를
▁핵심
▁듯
▁집행
▁75
▁헤이
▁오픈
▁협상
▁강점기
▁ㄴㅑ
▁본격
▁보안
▁184
▁가하
▁산맥
▁180
▁Z
없이
▁마드리
▁초반
▁회전
오프
셔널
원군
▁탄생
▁자세
▁대비
▁암살
▁중반
각형
▁사전
▁무엇
문화
▁연고
▁대항
▁숫
▁로버트
▁ㅈ
▁마드리드
▁옷
▁1972
▁이성
▁베이스
반도
▁법칙
▁주교
▁아르헨
▁플랫
▁켈
리스트
▁어린이
▁권한
▁공학
▁사우
▁전용
▁순서
▁46
소드
▁단일
▁말기
▁공기
▁1920
▁프란
▁이란
바르
▁전혀
▁의무
▁베를
레이션
▁유적
▁직원
▁아르헨티나
▁조금
▁수여
▁요한
▁이익
CA
▁인상
▁시각
▁중심지
터리
▁1979
▁운전
▁공포
▁별도
▁아미
▁가르치
▁사항
▁아스
▁전라북도
▁스크
▁흔히
▁효소
▁보조
▁모리
▁덮
▁비난
▁원주
▁글로
▁잘못
▁롯
▁워싱턴
▁협정
▁상품
▁CD
▁밀리
▁변호사
▁전후
▁kg
▁아파
▁기하
▁파크
▁관료
▁방면
▁통계
▁우크
ㄴㄷㅏ
▁을
정부
ra
▁창조
▁인권
▁1930
퍼드
▁작곡가
▁레드
▁금메달
▁In
▁1981
▁마시
▁저서
▁투입
▁현장
▁1973
▁장착
무라
▁항복
▁아침
▁정복
▁하드
▁소식
▁셋
▁놓이
▁150
▁벡
▁넘어
▁호텔
퍼스
10
사키
▁심각
▁훨
▁공무원
▁엠
▁중세
▁니콜
▁헨리
▁노스
▁건국
▁오른쪽
▁공화
os
▁교류
▁교토
▁중부
▁본인
▁갈등
▁공산주의
▁v
▁물러
▁마이클
▁훨씬
▁산하
▁코미
▁ㄷㅡㅅ
▁빙
겨나
▁요새
▁김정
▁오랜
▁세인트
리어
▁유전자
▁택
▁출마
▁건조
▁무리
▁논의
▁오히
▁한때
▁플레이어
▁뿌리
▁인류
▁왼쪽
▁플라
▁인정받
▁성경
▁어떻게
▁서기
▁오토
▁창립
▁패하
▁형사
▁방출
▁추측
▁로드
▁연합군
▁금속
▁1940
▁베이징
▁원작
30
▁태국
▁아프
▁주위
▁1974
BO
▁성질
▁185
▁예산
▁노르웨이
▁찍
em
▁릴
▁드러나
▁북서
▁투쟁
▁제자
▁복합
일보
▁군수
▁에피소드
▁탁
▁코스
ter
▁에어
▁사령관
▁벗어나
▁운용
▁사태
▁모스크바
▁플레이오프
▁효율
▁논쟁
▁전철
▁반복
▁오전
▁SBS
▁멸망
▁입자
▁합성
▁절대
▁해양
카와
▁뽑
▁스코틀랜드
▁정비
▁구별
▁집안
▁1948
▁제출
▁메시
▁주기
▁노부
▁인종
▁숫자
▁가져오
▁블루
▁연산
듀서
▁사법
▁프로듀서
▁각본
▁미니
▁54
머스
▁포위
▁흡수
▁퍼지
▁거절
▁인조
▁1968
▁출장
▁인공
붙이
▁댄
▁델
▁중대
▁1976
▁원리
아오
▁연관
▁웨스트
▁빌리
▁슬로
▁마침
▁목사
▁베를린
도르
▁활발
▁경성
▁시점
▁수송
▁오히려
▁북동
▁신체
▁출입
▁포기
▁소녀
▁해상
▁전공
▁개시
▁건립
▁이민
▁주전
▁인터뷰
▁취급
ㅇㅣ
▁1975
▁보스
▁읍
▁우스
▁음력
▁프라
▁사령부
▁즐기
▁넘기
▁국도
▁명성
▁실리
op
▁디스
데스
▁던지
▁ㅂㅏㄲ
▁트랙
▁ㅂㅏㄲㅇㅔ
▁축제
▁고용
▁활성
▁영화제
▁봉하
▁파라
▁히데
▁취득
나이티
▁동원
▁분쟁
시스
▁농민
▁유나이티
▁1978
▁신성
▁국장
▁주택
▁장악
▁1971
▁갤
▁56
ag
▁미드
▁비록
▁소스
▁텐
▁보컬
▁총독
▁구속
▁안타
▁고유
▁1963
▁진보
▁일치
▁견해
산시
▁전부
서트
▁52
▁유물
▁북아
▁불법
▁49
▁한자
라크
▁직전
▁부활
▁자이
▁후원
▁하위
▁코미디
에트
키스탄
▁늘어나
▁65
▁포도
▁교차
▁끝내
▁관점
▁보험
▁학습
▁여객철도
▁폭력
▁대리
▁정체
비치
▁연료
▁닌
▁주관
▁타이완
▁도달
▁수술
▁스미
메리
세이
ce
▁편지
▁1969
▁혼란
▁약속
▁천체
▁아테
▁179
▁시리아
▁항공기
기에
▁관직
▁한국어
▁철수
▁Q
젤레스
▁상당히
▁고종
▁직업
▁여부
▁본사
▁누리
릭스
쿠라
▁미나
▁00
▁선교
▁명명
▁물러나
▁수집
리케
▁반영
▁모시
▁장교
▁임금
▁그리스도
자기
▁데이비드
▁백제
▁넷
▁제어
▁팝
▁논리
▁테러
▁의존
▁브레
▁성능
▁1946
▁아사
▁하나님
▁주간
▁화물
▁상륙
▁부임
▁보관
공항
▁영업
▁일대
어스
▁백작
▁폴리
▁학술
▁프리미
▁대화
▁소방
▁톰
▁도구
▁불상
▁심리
▁해산
▁주식회사
OS
▁53
▁연재
▁프로세
▁좁
▁정지
▁콘서트
▁교환
▁스마
▁허가
▁개체
▁전파
▁하우스
▁코로나
▁십자
▁박정
미터
▁전문가
▁제일
▁1964
oc
▁정원
▁방사
▁대략
▁자살
▁충청북도
▁니시
▁핑
▁헤르
▁나아가
▁간단
▁반발
▁고리
▁화성
▁진입
▁살인
▁판서
▁영향력
▁보건
▁재료
▁베스트
병대
▁학부
▁미터
▁벨기에
▁김영
▁공통
▁리스
▁거기
▁드리
▁상승
▁겐
▁US
▁포트
▁먹이
▁원하
ㄹㅕ
▁서버
▁그런데
▁신분
▁항구
▁스프
▁국제공항
이어
ri
▁영입
▁지붕
▁학원
▁and
▁인도네시아
▁피아노
▁승진
▁소비에트
▁꼭
▁58
▁사장
▁가을
▁파트
▁학회
▁시호
▁약하
▁1000
노스
▁부장
▁그레
▁99
▁ㄹㅔ
▁진압
▁루이스
▁외국인
▁랜
▁스토
하마
▁구성원
▁사운드
▁횡
▁아라
▁브루
▁식품
▁창단
▁질병
▁채용
▁콤
▁도망
▁변환
▁참전
▁주년
▁현역
▁기도
▁누르
▁복무
▁임대
▁계통
▁픽
▁응용
오르
▁PC
▁통상
▁머무르
▁다스
▁공동체
▁1977
저우
▁리더
▁요코
▁감사
▁탈출
▁임의
▁합격
천군
▁작사
▁장수
▁트랜
▁그치
▁민법
아버지
▁벼
▁쫓
▁망명
▁의도
▁탈락
▁말레이
▁모드
▁SK
▁한반도
▁롯데
▁문헌
▁고도
▁조작
▁화면
다가
▁위반
▁친일
▁페이
▁포로
▁로스앤
▁로스앤젤레스
▁1949
▁에도
▁발언
▁신청
▁문장
▁탄소
▁라이트
▁부부
문화재
▁띄
성군
▁트라
▁마케
▁학과
▁방송국
프리
▁닥
igh
▁이치
▁FA
▁동남
▁변형
▁선조
▁88
▁캠퍼스
▁ㅋ
▁배출
▁수영
▁저작
정식
▁수소
▁트로
▁1962
▁메모리
▁연출
▁엑스
▁상원
▁예측
▁절차
▁칭하
ation
▁청구
▁시카
▁레오
▁코파
▁62
▁자녀
▁1967
▁주둔
려움
▁분열
▁조절
▁전동
▁..
▁이중
▁기호
▁요인
카이도
타르
▁신인
▁레스
드시
▁큐
▁국무
▁서원
▁정기
▁화재
▁처형
▁흉
▁출간
▁r
▁선전
▁로켓
▁막부
크스
▁호수
로그
▁57
▁광장
▁실수
▁이승만
천시
▁등지
▁수리
▁황금
▁방지
▁남서
▁카메라
▁증상
페라
▁동작
▁루트
▁이시
▁기법
▁동성
▁연안
▁장르
▁취소
▁힘들
▁왕자
브리
▁어떠
▁흑인
▁개조
▁오스만
▁You
▁콘스탄
▁생존
▁앵
라드
▁지급
▁Ch
▁롱
▁서구
포르
▁위상
▁예비
▁기체
▁현지
▁선보이
▁농구
▁히트
▁고지
▁ㄴㅡㄴㄱㅏ
▁전주
▁여단
▁좌우
▁늦
▁반드시
▁천연
▁임진
▁고치
▁진주
아나
▁일본군
▁희망
▁무덤
▁공정
▁181
▁톱
▁터널
▁크리
▁맞서
▁노리
▁동아
▁제대로
▁코르
▁도전
▁전면
방송
▁맞이
▁스탠
▁분명
nd
▁압력
▁이온
▁1966
▁글자
▁특이
▁둘째
▁미국인
▁녹색
▁바둑
▁66
▁전형
▁싸움
▁파악
▁독립운동
▁%,
▁그레이
▁묵
▁경로
▁흘
▁노벨
▁독특
이치
▁방정식
▁드물
라이언
▁1965
▁리처
▁KBO
▁법정
▁매일
▁68
▁해리
▁꺾
티브
▁에르
▁물체
▁아리
▁엄청
▁183
▁목소리
▁부사
▁유기
▁타임
더스
▁ㄹㅏㅇ
▁돌리
▁체코
▁지리
▁가시
▁신뢰
▁인지
▁일식
▁성향
▁개신
▁61
▁덧
▁분해
▁클레
ST
▁알렉산드
▁간행
▁어디
▁밥
▁묶
베스
에이
▁동기
▁우려
▁퀸
치아
▁홋
▁처벌
▁찰스
▁일찍
르타
▁타격
▁유행
▁화산
▁완료
▁분할
▁사립
▁나들
▁웅
▁김일
▁내전
▁손자
▁나들목
▁실질
질랜드
바라
▁방해
▁범주
▁찌
▁풍부
▁뉴질랜드
▁삽
▁순환
▁평등
▁추구
▁아동
▁갈색
▁1961
▁대개
▁별명
ER
▁복지
먼트
▁플래
▁아파트
▁800
art
▁마르크
▁곱
▁흰
▁희생
ice
▁비평
▁리가
▁빼앗
▁가상
▁오프
▁최다
▁창원
▁파르
▁가까
▁부진
▁시조
▁분기
▁600
▁마침내
▁86
▁시드
▁전원
▁집권
▁모형
▁사냥
▁점점
ON
▁구현
▁기둥
▁IS
▁완공
▁판사
▁벡터
▁엄청나
▁한정
▁120
▁첼
▁메리
텐츠
▁중기
▁프린
다르
▁명확
유럽
▁대법
▁테이
▁훗
▁근본
▁웨이
est
▁사임
▁한계
▁스토리
피스
은행
틀러
▁무게
▁확산
▁부하
▁바치
▁물리학
▁일본인
▁들어서
▁사마
▁호주
▁날개
▁re
▁대공
▁출범
▁충격
ia
▁캔
투스
▁교향
▁레인
▁단독
▁오페라
▁닛
▁사형
▁의지
▁1919
▁명나라
▁알파
▁뚜
▁상위
▁분위
▁마법
▁가나
ap
▁98
디션
▁통산
▁제이
▁연구원
▁사원
TV
▁편찬
▁넓이
사스
▁악화
▁이자
▁적절
▁1944
▁드러내
▁의혹
▁서명
▁굽
▁렀
▁모토
▁조종
▁영웅
▁유치
▁인접
▁의심
나가
라이나
ak
▁당초
▁발굴
▁문명
▁인증
▁훌
세우
▁추천
▁도쿠
▁연간
▁모임
▁저술
▁키우
▁샘
▁무시
▁포인트
▁회담
▁함락
▁곽
▁각지
▁카라
▁고속도로
▁광복
▁동서
▁생겨나
▁포항
▁자극
▁기리
▁사실상
사자
▁63
▁1941
▁프리미어
▁접촉
▁쏘
▁홍보
▁기온
▁개입
▁드라이
AR
▁골든
▁징역
▁독일군
아보
우리
▁순수
▁기기
▁멘
▁95
▁탐사
▁올해
▁사정
▁뮤지
▁개막
▁득표
▁순간
연히
▁그때
▁공로
숭이
▁루스
▁세르비아
▁74
▁학살
▁경전
▁등판
▁진정
▁성분
▁행렬
▁바위
▁악기
▁구원
▁임기
▁59
▁변수
▁시카고
민주
▁오랫
▁DNA
▁꼽
▁178
▁추산
버그
믹스
▁그라
▁앤드
▁락
▁Lo
▁언제
ct
학생
▁수석
▁여론
▁한국인
▁팽
▁실현
대부
일리
▁닉
▁예전
▁자전
▁ㄴㅡ
▁네이
▁공헌
▁확률
▁보고서
무부
▁백성
▁스마트
▁입법
▁태도
▁프로그래
▁혼합
▁아티
▁훗날
▁1958
▁튜
▁매장
▁방위
▁감시
▁IC
▁페르시아
▁양쪽
▁오랫동안
▁심사
▁미쓰
▁특별시
▁이닝
▁줄어들
러리
▁피터
ul
▁1947
▁왕실
코스
▁to
▁춤
▁82
▁160
▁;/
▁영지
▁출력
▁침략
▁에드워드
리히
▁균형
▁줄기
▁리처드
▁커뮤
▁원형
▁뱅
▁개신교
▁1956
▁경남
▁단편
▁조별
▁텍사스
▁다케
▁대량
▁저녁
▁72
▁76
▁랜드
▁안토
▁승객
▁그래픽
이너
▁SS
▁시사
▁멀리
▁신부
▁팔리
▁여왕
▁프라이
▁승부
▁제사
▁아이돌
▁발발
▁분위기
▁무사
▁고르
ㅡㅁ
▁가와
▁미야
▁권위
ie
▁대선
▁안동
▁흐름
▁커뮤니
▁동명
▁이라크
▁작위
▁타자
▁재건
▁기울
▁교구
▁점수
▁프랑크
▁입력
▁데스
▁마무
▁77
▁ㄲ
▁바깥
▁참고
▁비치
리노
▁복원
▁앉
▁과학자
▁테스트
▁1939
▁잠수
▁일상
▁확립
▁축구단
▁섞
▁67
▁석유
메리칸
레나
▁폭탄
▁원수
▁Th
▁시상
▁침입
▁리버
▁도요
▁타워
▁포켓
▁비상
▁어깨
▁긍
▁AFC
▁겹
ud
▁병합
▁사자
▁복음
▁신자
▁민중
▁수익
▁한글
▁복수
ly
▁일시
▁주최
▁기소
▁자식
▁부지
일스
▁시마
og
▁대왕
▁재배
▁정수
▁다운
▁더블
▁브라운
▁당국
마르
▁대성
▁빅토
레옹
▁혁신
메이
▁내셔널
th
▁보물
▁도모
▁85
▁가공
▁신고
▁가량
▁덜
에른
▁암호
▁지형
▁평안
ist
▁동양
▁본질
▁창작
▁1954
▁나폴레옹
▁계층
▁공중
▁연예
▁끼치
▁사제
마니아
▁ㄴㅔ
▁우라
▁인쇄
▁심지
▁가담
▁국기
▁훈장
▁깃
이센
▁쌀
▁산화
▁폐쇄
▁빌보드
레인
▁힌
▁파워
▁구글
▁후계
▁거듭
▁고기
▁1952
왜란
AS
▁임진왜란
▁ㅁ
ight
▁급제
▁노출
▁참모
▁가설
▁들이
▁움직임
▁비서
▁평론
▁보살
▁력
▁탱
▁세리
아티아
▁크로아티아
▁73
▁가이
▁다소
아지
▁아테네
▁발음
▁조조
▁그렇게
▁총회
▁스타디
▁전신
조합
▁박정희
▁대지
▁바닥
▁고통
▁라스
▁오가
▁타운
▁동방
▁96
▁채우
▁후속
▁*
▁람
▁뷰
느리
▁ㅇㅜ
▁탈퇴
▁오카
아하
▁실력
▁81
▁뮤지컬
▁따로
필더
▁무한
▁상관
▁미드필더
▁절반
AT
▁셔
▁청주
▁수도원
▁장남
▁Al
▁78
▁행복
바로
▁뤼
▁개설
▁재학
▁인용
▁화이트
▁국정
▁그만
▁비례
▁전투기
시오
▁로봇
▁좋아하
▁보상
▁센트
▁중력
▁가까이
▁전남
▁젠
▁심장
▁아트
▁도덕
▁이혼
너스
▁천안
▁뮌
▁화장
▁산소
▁여섯
▁손상
▁김성
▁보르
▁하인
▁202
▁김대
▁ᆯㅈㅣ
▁안드로
▁바이에른
의정
▁NH
체스터
▁생물학
▁1959
▁피해자
▁빌딩
▁지향
타이
▁전직
▁177
▁레알
ess
▁살리
▁지사
▁포스트
자치
▁국군
▁불만
▁붓
▁블라
▁상역
▁Li
▁문신
▁백만
▁주력
▁사무소
▁윗
▁처하
▁교리
인물
▁71
▁AT
▁와이
▁녀
BA
토스
▁화합
▁사우스
하여
▁질환
▁황후
▁당나라
▁포스
▁콘스탄티
▁91
▁DV
▁인생
▁작동
▁관여
▁피부
▁소득
▁일컫
▁패션
▁기상
세포
▁검토
▁부담
클리
▁총장
▁액션
▁마무리
▁메시지
▁승려
▁가마
▁선박
▁하원
▁호소
▁결론
직자
▁신사
▁유통
▁1942
▁사유
▁상실
가락
▁의대
▁가슴
▁약물
▁;,
▁역학
스트라
▁골드
▁개방
▁혼인
▁설득
▁글로벌
▁동해
쿠스
▁아웃
▁좌상
▁오직
▁디스크
▁모바
▁위키
▁조카
▁햄
▁페이지
▁프로이센
▁내려오
▁87
▁심지어
▁그린
▁적합
▁규제
터스
미야
ub
▁매체
▁수요
▁연습
▁결의
▁st
▁넘어가
▁159
▁1943
▁가요
▁분노
▁진단
▁부산광역시
▁처분
▁통화
▁홋카이도
▁구매
▁김일성
▁말레이시아
▁선임
▁1955
▁원년
▁서식지
가니
IV
▁이명
▁야스
▁왕비
▁위대
▁잭슨
▁심판
▁\
▁억제
▁개성
▁스타디움
▁발탁
▁지나가
IA
▁쿠데
▁드래프트
▁1953
▁ㅎ
▁테크
▁퀴
▁소멸
▁일기
▁주석
드리히
▁1936
▁무료
▁싱가
▁크루
▁싱가포르
▁예방
히로
ab
▁왕후
▁AP
▁필드
▁84
▁톨
미르
▁700
▁유형문화재
▁프랭
▁일본어
▁사격
▁사무실
▁자이언
▁티베
▁어려움
▁음악가
▁힙
▁일체
▁태조
▁긍정
▁여우
▁진영
▁프리드리히
▁이와
▁정차
▁루마니아
▁나쁘
▁모바일
▁카스
▁폭격
▁궁전
▁사도
▁인원
▁천주교
▁쿠데타
▁1910
▁타인
▁리드
데이
▁즉시
▁굳
유산
▁세자
주군
▁창당
▁대책
▁후쿠오카
▁기동
▁전북
ine
▁불안
▁전동차
▁시나
▁김종
▁크로스
▁Re
▁쾌
▁사라
▁디아
▁히틀러
▁조지아
▁유고
▁스티븐
버리
▁깊이
▁학사
▁개칭
▁닫
▁막대
▁에서
▁상속
▁대체로
▁딜
▁전당
▁몰리
란색
▁오이
▁강릉
▁남아프리카
구리
▁1957
▁연설
▁아메리칸
▁알고리
▁구입
▁97
▁딘
우치
▁진격
▁챔피언십
구치
올리
▁요금
▁원주민
▁본명
ew
달리
독부
베르트
▁조상
▁발명
▁검색
▁휴대
▁콘텐츠
머리
▁스미스
▁타이거
▁독재
▁생태
▁1914
▁필수
▁메이지
▁흔하
▁광범
▁전송
ㄴㅑ
▁늘리
▁자국
▁추방
▁수호
▁음성
▁초점
▁부동
▁69
▁동북
▁테마
▁알고리즘
▁이즈
▁세트
▁대우
미니
▁사과
▁주소
ue
▁포켓몬
▁="
▁덩
시스코
▁담기
▁도마
▁토론토
▁사기
▁인디언
▁이마
▁천만
▁느낌
▁92
▁렀다
▁신장
원경
▁1900
▁급격
▁수업
▁기다리
▁알바
▁신도
▁최우
▁미리
▁코리아
▁1938
▁불가리아
▁세부
▁후임
▁업적
▁랑
▁림
▁빚
▁섹
▁핫
▁이내
▁클로
래프트
▁미술관
▁연락
다랗
▁펑
▁부위
▁석사
▁잡히
▁서술
▁완벽
▁끌어
▁똑
▁주니어
EC
▁배포
지사
비히
▁101
▁상인
▁스프링
▁유효
▁해발
▁바르셀
▁바르셀로나
자키
총리
▁전술
▁언덕
▁라이프
▁화려
▁노트
▁재즈
▁HD
▁고시
▁게다가
▁다스리
▁고급
▁연평
다니
▁오키
▁01
▁영양
▁립
▁선형
▁안드
▁스탈
▁라틴어
로지
▁1918
▁윙
리그
산화
▁암컷
▁DVD
▁숨기
▁ㄲㅔ
▁마스터
총독부
▁조선총독부
▁늑
▁소비자
▁등장인물
▁랩
▁소형
▁션
▁웰
▁각국
▁풋
▁개량
▁물건
▁1951
▁시내버스
▁마르크스
▁백인
▁상주
▁유산
▁1932
▁실천
▁일련
BM
▁손실
제국
▁운항
▁화석
▁{
▁on
▁저자
▁ㄷㅡㅅㅇㅣ
▁고위
▁언스
▁계곡
▁내놓
▁질문
▁국적
▁메달
▁1937
▁추기
▁게르
▁사퇴
▁반사
▁블록
무늬
▁알레
▁집회
▁미시
여금
▁설치류
▁정교회
▁짝
▁미스
▁경비
가시
▁번지
▁영주
▁상수
▁주체
▁개별
▁만든
▁방언
▁선포
▁진학
▁대만
▁마틴
▁흰색
▁말리
▁용인
▁엘리자
민주당
▁감각
▁차단
▁갑자기
▁첩
▁89
▁의문
ect
▁고객
▁부친
▁환승
▁광범위
▁올스타
▁우크라
▁1935
▁격파
펙트
▁분교
필드
▁둥글
▁실업
▁이웃
▁182
▁넥
▁타율
▁닥터
▁칭호
▁후계자
▁프랑스군
▁이스트
▁비행기
사전
▁재개
▁트레이드
▁크라
▁ㄱㅗㄴ
▁경제학
▁사찰
▁자본주의
▁화제
바키아
▁93
▁로렌
▁찬성
▁거짓
▁뮌헨
▁중추
▁고양이
▁싱어
▁비스
▁항공사
ㅅㅜ
▁Be
▁베리
▁커버
▁추기경
▁면역
▁퀘
동생
▁구상
▁수치
▁당원
▁탄압
▁발간
브라
▁되돌
▁항의
▁체험
▁기부
▁겉
▁수백
▁질서
▁데리
▁파티
▁꾸준
▁클리
▁회로
▁자산
▁촉진
▁허락
▁사양
▁남녀
▁최후
▁분화
▁곡선
▁푸르
▁OS
▁반지
▁성남
▁쿨
▁양산
센트
런스
▁공신
▁마루
▁이념
▁증언
▁법학
▁클래식
▁마주
▁시트
▁웃
▁FM
저스
ore
▁1933
▁목성
▁화폐
▁잠수함
▁소화
▁아티스트
▁94
▁시모
슈타인
▁구멍
▁영원
▁가속
▁티베트
▁개척
▁대법원
▁물고기
▁탕
▁덧붙이
▁극단
▁소위
▁습격
▁소문
IN
▁보편
리우스
▁지수
다수
▁아오
▁툴
▁수십
our
▁축소
▁내세우
▁1928
▁쿼
▁강남
도사
▁군부
▁소집
리나
돼지
▁CP
▁펴
▁동경
▁유배
▁탄핵
▁동화
▁선호
▁원시
▁경사
▁운송
▁태종
▁팩
▁영구
▁프랑스어
ell
▁1924
▁상대식
▁조항
▁콜로
▁핸
▁전적
공사
▁료
프레
▁칠레
▁누스
▁어둡
▁용도
▁시신
▁개명
▁79
▁충분히
▁대로
▁하여금
▁간부
▁약화
▁익스
▁국토
▁주일
▁지불
▁혼자
▁메트로
▁세월
▁틈
닉스
▁ㅈㅗ
▁무너지
▁따오
▁정면
▁사막
▁전망
▁09
▁김해
▁이행
▁프로그래밍
▁댄스
▁걷
▁재능
▁조기
▁회색
▁그리하여
▁뼈
▁콜롬
▁멈
ㅊㅏ
벤트
▁펀
른바
▁개장
▁발레
end
▁110
▁대칭
들리
사이
▁입대
▁정통
▁직무
▁토대
▁의정부
▁열매
려가
▁실내
▁토마스
슬링
▁지나치
▁종사
▁존스
▁형상
▁이른바
▁토착
▁러브
▁파키스탄
티스
▁04
▁동굴
▁당신
▁액체
▁브로
▁합동
▁구름
▁쟁
ill
▁오버
▁원자력
코프
▁법안
▁지중
ain
▁가난
▁반하
▁ㅎㅏ
▁총재
▁하와
어도
▁08
▁이재
▁플로리
▁170
▁개찰
▁진실
▁매치
베리아
▁정류
▁퓨
▁Co
▁해제
▁안토니
▁수컷
▁단순히
▁세로
▁뻗
▁틴
▁고교
▁대승
▁초상
▁손해
▁재생
▁흔적
▁베네치아
▁무용
▁스카이
▁자랑
▁유아
▁판정
ㅋㅡㅁ
▁우에
▁자르
▁프로토
ID
▁당대
과이
ers
▁룸
▁경북
▁멀티
▁부리
▁부속
▁83
테스
▁안티
▁스톤
▁다큐
▁안쪽
▁오케
▁힙합
▁장로
▁주문
▁엄격
페이스
▁오류
▁지표
▁서방
▁경고
▁전제
▁사이드
▁무력
▁벼슬
▁부서
데르
▁메탈
▁강도
ard
▁경찰서
▁함경
▁페리
▁비잔
▁국방부
고속
▁평면
▁스크린
▁늑대
▁할아버지
▁주재
▁아프가니
▁배열
▁분산
▁불러
어로
▁혈액
▁호흡
▁레닌
▁선로
▁쌓이
▁한성
조선
▁인민군
▁1934
▁맡기
▁중동
▁MS
▁성서
▁편의
▁닐
▁대가
▁마감
▁일단
▁요코하마
즈니
▁메르
▁이벤트
▁동지
▁포드
▁대사관
▁거스
▁ㅁㅏㄴㅋㅡㅁ
▁빵
▁농장
▁대원
▁양국
▁ㄹㅣㅇ
AN
▁철거
▁De
▁판타
▁히어로
▁중지
▁구사
▁보스턴
▁입구
▁자매
▁추적
▁놀이
▁탓
▁근육
▁스케이
유키
키퍼
▁강요
▁찾아가
▁골키퍼
▁장례
▁주자
▁광산
세대
아르
야스
▁북미
▁동구
▁느리
▁노동당
▁유키
▁Me
▁거느리
사르
▁대동
▁130
▁동메달
▁토머스
▁본토
▁뱀
▁현존
▁떼
▁봉기
▁쿠바
▁은메달
제르
▁투스
▁카리
▁거점
▁글리
▁가볍
레오
▁코어
▁정확히
▁밸
▁남극
▁멈추
▁아프가니스탄
▁젤
베르크
▁140
▁사카
공업
▁로즈
▁접속
▁나이트
▁정조
▁항해
워하
▁사망자
▁도쿠가와
ne
드라
하이
▁레지
▁복사
▁부처
▁테르
▁스탈린
▁선물
▁새끼
▁중계
▁알렉산더
▁철학자
▁필립
▁Sh
▁김구
▁내려가
▁시계
▁식량
▁돔
▁칼리지
레아
▁발전소
▁매주
▁초청
▁야당
▁재판소
▁페이스
돌프
위대
안군
▁중성
보내
▁농촌
▁안내
▁화합물
▁맨체스터
OR
성기
▁곤충
▁th
▁건너가
▁대다수
▁로맨
▁특별히
▁구로
▁1931
크래프트
▁관계자
▁훼
▁모자
▁새벽
▁구리
▁위안
▁독점
▁부호
▁아비
▁토너
▁체육관
▁강등
▁재임
므로
▁간격
▁세금
▁펄
▁존슨
▁교향곡
▁겸하
▁생애
▁유력
▁타카
▁증권
▁금강
▁오염
▁멸종
▁그리스어
▁휘하
베리
▁역전
▁파울
▁르네
▁일곱
▁이정
▁cod
▁부드
▁클래스
▁히로시마
▁목포
▁계수
▁풍속
▁모노
▁진동
▁ㄷㅜ
▁커다랗
게이
all
▁기병
▁명시
▁달라지
▁종전
▁코너
▁타원
▁물리치
▁그러므로
▁뚜렷
▁버지
▁ST
▁기르
▁부품
▁미카
▁An
▁비중
▁석방
▁자유주의
▁킬로
▁해협
AM
ㄹㅏㄴ
▁꾼
▁하사
▁아이스
▁좌파
▁그래프
나르
▁무늬
레이크
▁감옥
▁훌륭
▁관객
밀리
▁하버
▁원조
▁타점
▁공룡
▁기생
▁장점
▁1921
▁250
▁교도
▁지칭
▁숙종
▁코트
▁176
▁찾아오
▁대변
▁연호
▁심리학
▁1929
▁수비수
널드
느님
▁캠프
▁마그
ang
▁가구
▁유발
▁특허
▁도망치
▁하느님
▁필라
수량
▁조문
▁합리
▁지휘관
▁닮
▁동성애
둥이
▁비즈
▁부드럽
▁박근
▁스트라이
▁유대인
▁토너먼트
▁아틀
▁운동가
▁윤리
▁강전
▁소요
▁도메
▁사관
▁후퇴
▁y
▁스테이션
▁빗
▁단장
▁성명
▁집필
▁05
▁폭풍
▁칙
▁일환
▁착용
▁키스
▁무겁
▁트랜스
▁갤럭
▁수반
▁올라오
▁캡
▁라트
▁기갑
▁목숨
▁비틀
▁대결
▁자이언츠
▁부작
▁1925
투아
▁덕분
▁문재
▁연평균
시스트
▁1923
▁인터페이스
▁다다
▁공세
ss
▁동반
▁연상
▁첫째
▁쯤
▁극복
▁입사
슬리
▁건담
▁갤럭시
미아
▁공국
▁도호
▁마라
▁지부
▁고고
▁과일
▁살아
산물
▁삼각
▁플로리다
▁첸
▁추대
▁평론가
▁잠재
▁조화
▁약탈
▁롬
▁북아메리카
무게
▁몸무게
▁압축
▁협약
▁AC
▁틱
▁ㅋㅜ
▁가끔
▁07
▁매니
마이
타카
▁샤를
▁김대중
▁연계
▁요원
▁장갑
▁발렌
▁북서쪽
ity
▁섬유
베이스
▁관리자
▁단선
▁유비
▁대한제국
▁불화
▁원장
▁추락
▁시게
▁남아메리카
▁딱
▁얀
▁성직자
▁캘리포니아주
▁의석
▁이수
클린
▁램
▁사당
▁미분
▁웨일스
▁며
카스
▁우드
대문
▁유성
▁임신
▁영감
▁ㅇㅛ
▁트레이
추어
▁중립
▁페루
▁하와이
▁ㅅㅠ
키스
▁선교사
▁북극
▁SC
▁갱
페인
▁진흥
▁리스트
▁박스
▁살아남
▁발휘
▁필름
▁161
▁모로
▁종로
▁근로
▁향토
▁다이묘
▁모험
▁주사
▁고분
▁서인
▁사거리
▁민속
▁수직
▁타입
▁기관차
▁동인
▁삭제
▁꼽히
▁똑같
▁영광
▁도마뱀
▁영혼
▁codice
▁일자
▁준우
▁진술
▁그랜드
▁망원경
▁카자
▁빅토리아
ff
▁프로세서
▁레벨
▁모음
▁삼각형
행성
▁복구
▁EP
즈키
▁청동
▁1922
▁문인
▁성씨
▁유가
▁파운드
▁엽
ㅅㅣ
▁곰
▁명사
▁칼리
▁175
▁홀로
▁화가
▁윤치
▁결심
▁수장
▁압도
▁청하
▁de
▁제약
▁돌파
▁변신
▁채권
▁버지니아
일본
▁레이블
▁박근혜
▁지역구
▁루트비히
▁주류
▁틸
▁중구
▁무릎
▁중시
▁평생
애나
오리
▁바오
▁서적
▁규슈
▁인천광역시
▁교과
▁이조
▁투구
▁프레임
▁엘리자베스
▁피트
▁My
▁모래
▁공격수
▁1912
▁가톨릭교회
▁유역
▁교차로
▁고안
▁부유
▁아과
▁표지
▁때로
▁부탁
▁여인
▁직선
▁황태
▁자치구
▁둔
프란
▁리치
▁최상
▁설비
▁없애
▁트럼
▁부수
▁지연
▁각자
▁유용
▁글씨
▁왕가
▁수상자
▁철저
▁토벌
▁이날
▁164
양군
눅스
▁문법
▁음모
▁직위
메니아
▁KT
▁구미
▁동일본
▁포유
▁사토
▁파트너
▁네이션
▁아기
▁왈
▁벨라
▁국민당
▁Go
▁리눅스
▁Love
니즘
▁무산
▁블라디
멘트
▁소설가
ong
▁""
▁1908
부사
▁봉사
▁크레
▁목조
라이터
타운
▁모니
▁퍼시
야수
▁아르메니아
▁무인
▁영조
▁보통학교
up
▁1906
▁랭킹
보살
▁06
▁경유
▁납치
▁돼지
▁건축물
ㅈㅓ
▁인력
▁베타
▁도어
▁자책
▁장사
▁토르
▁간섭
▁아마추어
▁지중해
▁마카
▁사촌
▁어워드
▁노비
▁남동쪽
▁릭
▁노무
멘터리
▁패턴
▁히가시
▁MV
▁스케이팅
▁연령
▁침해
▁태자
▁다양체
▁연소
▁1917
ip
▁플레
사관
▁크림
슬로
아리
▁JR
▁상처
▁준우승
▁전향
▁이종
▁정자
▁1927
도니아
▁SM
▁모듈
IS
ld
▁삽입
▁교역
▁제주도
▁통로
▁호조
▁이토
▁적응
▁과도
▁앨런
▁커피
▁03
태우
▁안양
▁북동쪽
마치
▁매각
▁명문
▁배상
▁적어도
▁탐험
▁배급
▁우익
다드
▁베토
▁호르
▁굿
ant
▁조명
▁창간
▁럭
▁1907
▁우크라이나
▁대행
▁BBC
▁전승
▁보좌
▁석조
▁시상식
영상
▁라우
▁시아
OM
▁수지
▁스와
▁인자
▁에스파
▁과장
▁육성
▁1926
▁외계
▁다큐멘터리
▁산악
▁전작
▁흙
▁항목
스팅
▁몬테
▁옵
▁산타
▁밀라노
▁싫
▁앱
▁리아
▁유인
▁정서
ED
▁옹호
▁대교
▁협의회
▁노인
▁쇠퇴
▁시집
▁폐기
▁상하이
▁SN
▁문하
▁의병
▁표본
▁송라이터
▁출현
▁체인
av
생물
▁슐
▁왕립
▁별로
▁자문
스토
▁색상
▁부동산
▁자전거
몬드
이즈
▁단행
▁168
▁탑승
▁포크
▁He
▁세조
▁지름
페이지
▁동아시아
▁종족
▁해설
▁묘지
▁디즈니
▁험
▁비전
▁사신
▁무선
▁커지
▁호남
다이라
▁연고지
ind
런트
▁수감
슬라
▁PD
▁패러
▁NHK
▁머물
▁스틸
로프
▁관중
▁상영
▁유입
▁렉
티움
▁1905
se
▁내장
▁동사
텐도
▁닌텐도
▁꺼
▁||
▁기종
▁시에
▁아가
▁콩고
▁오리지
▁노조
▁하천
▁166
▁레이다
▁꾸미
▁산지
▁사료
▁합계
튜브
ame
▁162
▁제후
▁최우수
▁문화유산
▁홈페이지
AC
세스
▁정사
▁독일어
▁룩
▁기름
▁기하학
▁민족주의
▁버그
▁151
총장
▁좌익
▁엄마
▁베토벤
▁물려
▁시외
▁놀라
▁진지
▁유튜브
▁다가
▁묻히
▁에릭
▁Sp
▁선제
▁유신
▁데이터베이스
▁비평가
▁아무런
▁역과
▁헤드
브스
▁꾸준히
▁참조
▁가쓰
▁예외
ry
▁아울
무네
▁연금
▁원로
▁카페
▁급속
▁조선인
나카
▁사이클
▁정류장
▁158
▁비단
▁주말
ES
▁수명
▁스승
▁겨우
▁드래곤
▁지바
려나
▁트럭
▁엉
▁대조
▁증기
▁품질
▁크리스토
▁색깔
플레이
ith
어트
▁모집
▁우르
지마
▁아크
▁목격
▁안보
▁칩
▁광역
▁상소
▁스페셜
▁커뮤니티
▁원산
스케
▁수천
▁요미
▁자바
▁02
▁도리
ort
▁문과
▁주거
엘라
▁리얼
▁주파
▁선진
▁남서쪽
▁마일
▁리듬
▁곧바로
▁셋째
▁바이올
▁야생
▁할리
스티벌
▁바라보
▁플루
▁라이온
▁주의자
▁향년
▁유고슬
▁유고슬라비아
▁뚫
▁반환
▁수수
▁옛날
▁나폴리
▁라이벌
ok
▁흥미
▁레이스
▁라마
▁특급
▁페스티벌
▁가미
▁대안
▁점성
▁실점
▁입문
▁조르
▁사리
▁베이스볼
▁동치
▁인텔
▁유닛
프란시스코
▁신비
▁기점
▁구마
▁무관
▁악장
▁샌프란시스코
▁도심
▁기념물
▁단층
▁재무
▁토니
▁소니
▁협의
잡히
▁스피드
▁방안
▁쿠르
▁빨리
▁운명
▁운반
▁디자이너
▁와카
▁주한
▁콜롬비아
▁서북
▁동영상
해군
▁기압
▁사직
▁오리지널
프스
▁마스
▁묘소
▁미네
▁부시
▁브라이언
▁렌즈
▁이리
▁적색
▁1904
▁안드로이드
▁석탑
▁되찾
▁이오
▁오디션
▁기용
▁입증
▁모터
▁미만
▁프랜
▁출판사
▁일행
▁마케도니아
▁십자군
▁케이블
ㅓㄴ
▁연주자
▁알라
▁출산
▁진도
▁지휘자
▁직장
▁복제
▁인치
▁Un
▁한나라
▁서경
▁마쓰다이라
▁개수
▁관장
▁저지르
▁한나라당
쳐지
▁왕족
회의
▁교전
▁급행
▁평소
▁정교
▁챌
▁배제
▁분배
▁상무
▁신임
▁템
▁날리
▁파생
리케이션
▁의거
▁예술가
▁판타지
▁165
▁초래
▁부패
▁154
루살
▁동전
▁자사
▁센트럴
▁비즈니스
프라
ord
▁계단
▁내륙
▁무신
▁아서
▁용기
▁긴급
▁예언
루살렘
▁기재
▁파나
ob
▁받침
▁오타
▁스테이지
▁사로
▁수면
▁폭스
▁Se
▁합작
▁Wh
qu
▁좌석
▁콘스탄티노
▁도메인
▁163
▁트레
▁당사자
▁가게
▁사르
▁권고
▁모순
▁여동생
문학
▁156
▁단종
▁신하
모니
▁스펙트
▁입히
우옌
▁SF
▁사범
▁신용
디스
▁용산
▁링크
가스
▁항일
▁167
▁리투아
▁리투아니아
ate
▁연애
▁겹치
▁무슬
▁사면
▁스쿨
▁그랑
▁호환
▁스펙트럼
▁타마
▁DJ
▁크리스티
▁진상
▁예루살렘
PS
▁상임
▁900
▁여신
▁무슬림
교육
▁충남
▁스마트폰
▁회원국
▁어항
카르
▁아인
▁끼리
▁압박
▁정계
경기
▁챌린
▁혜성
▁분지
▁조류
▁한양
▁자회사
껍질
▁가득
페이
▁AM
▁니스
려오
▁선사
▁장편
▁착륙
▁미얀
▁발효
▁샹
▁밀접
▁바이올린
▁번식
▁무라
IC
길이
▁이지
▁지주
지르
▁WW
▁주립
▁게시
▁비로
▁훼손
▁시달리
▁바그
▁일요일
▁오다
▁전염
▁조국
▁피렌
▁지장
▁교섭
▁깔
▁애국
식물
커스
▁고립
▁우지
▁친정
▁서울시
▁씌
▁서브
▁얼음
▁팅
▁포맷
킨스
▁UN
▁농도
▁비잔티움
▁대단
▁피스
럼비아
▁139
▁진나라
▁식사
▁예능
▁요크
▁오케스트라
▁옌
랑이
잡이
▁AS
▁낱
▁우루
▁대령
▁유하
▁최신
▁하트
▁노무현
예프
▁ᆯㅅㅜ
▁쇼군
▁ㅇㅓㅆㅇㅓㅆ
▁끄
▁아베
▁행정부
▁브라우
▁하드웨어
▁구장
▁성종
ET
▁개발자
▁아이디
부인
▁차관
▁145
▁킬로미터
▁용량
ast
▁융합
▁과제
▁기아
▁시체
▁월간
▁지질
▁알바니아
▁번주
▁주머니
▁기타리스트
▁뜨겁
▁바티
▁발족
▁쿠스
▁마리오
▁강연
▁참판
▁이명박
DP
▁전이
▁미나미
▁스트리트
▁와중
▁학파
▁몸길이
▁파동
▁부통령
▁선두
▁디비전
▁임상
▁응우옌
▁공과
▁부자
▁소나
▁페어
▁관광객
▁피렌체
▁투명
▁중국어
로디
수아
▁부흥
▁해인
▁아세
데이트
▁위주
▁성공회
▁사사
▁야기
▁보전
▁관찰사
▁1896
▁업데이트
레이터
if
▁규명
랑크
▁부도
▁전임
▁전지
▁MVP
▁잊
▁DS
▁사바
▁정벌
▁김동
▁배정
▁피에르
▁아이디어
▁충성
ack
▁착수
▁거스르
▁넬
ive
▁공용
▁저기
▁전류
▁마케팅
▁마산
▁스콧
▁하노
▁간접
ure
트니
▁고조
▁공전
▁디오
▁측근
▁IP
▁HIV
▁귀환
▁권유
▁굉
▁여덟
▁제네
▁보드
▁이에
▁중독
▁완화
▁중도
IT
▁로빈
▁맥스
▁친선
▁수학자
▁스타크래프트
▁애플리케이션
▁거인
▁짙
▁게이트
란트
▁점유
▁젖
▁둘러싸이
▁출구
▁히라
균관
▁샬
▁성벽
▁연수
▁차체
▁턴
어내
▁옐
트롤
▁경선
▁마운
▁152
▁우즈
▁174
iv
▁형법
리티
악기
운서
ock
▁관습
▁수산
▁오렌
▁제의
▁서일본
▁소송법
▁시드니
▁테일러
▁미하
▁5000
▁메디
▁트윈
▁노동조합
▁요미우리
▁서열
▁지각
▁아나운서
▁쇼핑
주곡
토미
▁세례
루미
▁플라스
▁피난
▁살아가
▁정찰
▁조용
▁157
▁밀양
▁련
▁규격
▁금성
▁존경
ck
▁으
결승
▁구동
▁사인
▁석탄
▁사명
▁꼴
▁변동
▁장성
▁번뇌
▁전장
▁Ar
▁행진
▁검증
▁실용
▁좌표
▁전문학교
▁하버드
▁프로세스
▁루수
▁수신
▁한강
▁한화
▁준공
▁곁
▁뱅크
▁뷔
▁신칸
▁백신
▁복소
▁전진
▁빌헬
▁청와
▁카나
▁테오
▁책봉
원숭이
▁킨
가루
▁염색
문관
츠키
▁고개
▁관현
▁미스터
사기
▁장인
폴리스
▁이슈
외선
▁가즈
▁급진
▁인과
▁취약
▁다이아
▁얼마나
▁청와대
▁신전
▁기울이
▁여의
▁j
▁국어
▁디젤
▁호평
▁힘쓰
포스
▁구제
▁메가
▁자율
▁성균관
전자
▁자손
니스트
산군
카드
▁퇴각
▁할당
▁카시
끄럽
▁MP
자와
▁상상
▁연구자
▁소총
악단
하르트
▁뿔
▁식당
▁연루
▁회수
▁제휴
▁통행
▁105
▁이순
▁적대
▁판매량
▁박영
▁파스
▁해전
▁146
▁소금
▁쥬
트랙
▁무효
▁승차
▁해임
▁아울러
▁몰락
수수
▁남양
▁1911
▁관념
▁남인
▁상류
▁히스
▁125
12
▁따위
▁여수
▁1500
혁명
▁흥행
▁전두
▁착공
▁강사
▁김용
▁이노
▁루터
▁쏟
ime
▁서독
▁창업
▁신칸센
▁비극
▁적히
▁천문학
▁외무
▁윌슨
▁응답
▁패전
▁이복
▁자책점
▁지분
고속도로
▁쳐
▁마찰
▁달아나
▁두르
▁3000
▁나열
▁여래
▁유출
▁프로토콜
▁민국
▁소관
▁술탄
▁에티
▁동남아시아
▁흩
▁153
▁두드
▁휩
▁노드
▁소닉
메르
▁나미
▁석가
▁쇄
▁들리
▁원나라
▁하마
▁저기압
▁매출
▁문제점
▁끈
▁PS
▁디비
▁순천
▁항공모
▁얇
▁고원
▁마오
▁사지
▁청사
▁갈라지
▁소재지
▁시외버스
일드
one
▁악마
▁카트
▁우정
▁저택
▁충족
라트
▁과목
제프
▁곳곳
▁믿음
▁강수량
▁Le
▁로고
▁단원
▁마천
▁이이
▁일렉
서양
▁성전
▁증후
팩트
▁동위
▁매개
▁조언
▁희극
▁서서
▁배구
▁ISO
▁아니하
▁예배
대군
▁유언
네이
▁아즈
▁지목
▁폴리스
▁빌헬름
▁중점
▁환원
▁Pro
▁고베
▁내내
▁보잉
▁이글
▁미얀마
▁카자흐
▁소지
▁문재인
▁고무
▁매사
▁103
▁찾아보
▁비아
▁떠오르
▁공자
▁연인
▁환상
토시
▁우주선
▁오클
델피아
▁필라델피아
▁시립
ML
▁개업
▁클린
▁회계
▁지지자
펴보
▁중장
▁취재
▁편곡
▁살펴보
▁MC
▁주권
기니
▁선원
▁회견
▁성모
▁포장
AP
▁기장
▁힌두
▁출입구
노프
▁제트
노리
즈카
▁겸임
▁특유
▁해역
▁매기
▁법령
▁각본가
▁참가자
▁천사
▁굵
▁눈물
▁나리
▁155
▁비틀즈
▁삿
▁셈
▁독립운동가
▁근접
▁최적
어리
▁후자
OC
시온
▁공인
▁친척
▁버튼
▁별개
▁주파수
▁오렌지
▁각기
▁카타
▁협동
▁정치가
마사
▁사가
▁중종
▁앞면
▁유해
▁일관
▁추모
▁터지
▁보충
te
받침
▁점프
▁진리
▁허브
▁반격
▁토리
▁닭
▁공략
▁증후군
▁밭
▁토크
▁포수
▁별자리
동물
▁이원
리크
▁회화
▁북동부
▁항공모함
▁와인
▁법무
▁게재
▁Bo
▁유격
▁리메
▁위장
▁우편
▁108
▁인형
▁오키나
▁개찰구
▁두드러지
▁상자
▁동등
▁미소
▁성주
▁이바
▁생일
▁태우
▁평행
▁빼앗기
▁격렬
▁나고
▁Con
산면
소스
▁실종
▁이어서
▁토요일
▁트라이
▁민영
▁오디오
▁아바
▁컨트롤
▁가라
▁담배
▁두산
▁사물
▁베르크
▁민사
▁사우디아
플러
▁매력
▁영동
▁합법
▁지우
▁테스
▁하우
▁레전
▁이인
▁패스
▁룰
▁서해
▁감지
산리
io
▁고체
▁나고야
▁일찍이
때로
ber
▁유교
▁인격
▁입상
▁승무원
▁대답
▁상부
▁외곽
▁준결승
▁스파이
▁아리스
▁금액
▁미루
▁아군
▁IT
▁야간
▁퍼시픽
▁교장
▁박탈
▁아케
▁이영
▁자발
▁드라이브
▁건의
▁에우
베이터
▁브래
▁세균
▁화살
▁이사장
▁하인리히
▁상장
▁해운
▁앙리
▁생명체
▁스터
▁양상
▁1909
▁크리스마스
▁갓
퍼니
▁전례
▁채무
▁외국어
가타
▁호세
▁일족
▁때때로
▁상대방
▁에이스
러미
상스
항공
▁에디
▁교단
▁내지
▁서서히
▁시청자
▁트럼프
▁섞이
▁128
▁대주교
▁사다
▁싸이
▁꾀
화점
▁향교
▁149
▁이슬람교
▁톈
▁히데요시
▁보스니아
▁맵
▁캠페인
람회
모어
▁기금
▁부착
▁102
▁얘
▁시라
▁연도
▁명의
▁복장
▁콜라
▁홍수
▁궁정
▁메타
▁사용자
▁아우구
▁추격
▁수성
▁전도
칠리아
▁제작자
▁#
라이트
▁건축가
▁고가
▁안장
▁트루
age
▁그만두
▁발원
▁호칭
▁후안
구장
▁트위
▁텍스트
ge
▁배틀
▁어드
▁사우디아라비아
▁펼쳐지
트릭
▁무려
▁발현
▁치세
먼드
▁차남
▁주지사
집합
▁짜리
▁최저
▁가르침
백과
▁고발
▁긴장
▁대군
▁대외
▁물자
▁남한
▁집계
▁계절
▁ㄱㅓㄴ
Pa
▁셸
▁아미타
▁여주
▁정밀
▁운동장
iz
라미
▁직책
▁자유당
▁슬라
▁키프
▁중국인
▁전대
▁$
▁Bl
▁골프
▁섭취
▁네이버
▁대니
▁원자로
▁쉐
▁시오
▁포도주
▁에스파냐
▁사이버
▁세미
▁흘러
▁포괄
▁르네상스
▁다중
▁만세
창기
나리
▁중재
▁레이저
AD
▁룽
▁고래
▁충주
언스
▁조리
▁청장
▁향후
▁태생
▁김영삼
▁팔레스
▁레전드
▁강경
▁문양
▁존중
▁CPU
▁송나라
▁노란색
▁리오
▁여진
▁127
▁ᆯㄲㅏ
▁로프
▁보리
▁왜성
▁조반
▁탐지
차례
▁넓히
▁단기
▁뽑히
▁블루스
▁피고
▁아미노
▁경부
▁147
▁최소한
▁댐
생활
▁수평
▁토마
▁토스
▁스릴
▁손가락
▁상세
▁팽창
▁프랭크
▁그랑프리
▁며칠
▁엘리베이터
▁턱
▁수군
▁1915
sp
▁기수
▁하이드
수엘라
▁고사
▁단점
▁메인
▁볼리
▁알코
▁케네
▁사절
▁로맨스
노부
서리
울리
▁역명
▁난민
▁제곱
▁초연
▁황해
▁1913
▁추증
orld
▁갑작
▁캄보
행위
▁마비
▁명목
▁속성
▁유소년
▁겔
▁무죄
▁부천
▁딩
▁굉장
▁동독
▁방침
▁북구
▁라파
▁분광
▁동당
▁숭배
▁테니스
▁위키백과
▁윌리엄스
라리
▁171
▁전함
▁전두환
ik
▁주축
▁후일
▁오키나와
▁북방
▁입체
창군
▁캐스팅
▁베네수엘라
▁낙선
우라
▁동래
▁광년
▁심의
▁문학상
기지
▁김수
▁둘레
▁창건
▁추상
▁협조
▁유니폼
▁침몰
▁천문학자
시티
▁객관
▁태수
▁마하
▁타르
▁강과
▁출토
▁동년
▁부과
▁취지
▁개미
▁따뜻
▁시그
▁센서
▁신흥
자치도
▁투르크
▁제주특별
▁제주특별자치도
▁촉구
명사전
▁상당수
▁초창기
▁진군
▁팜
포구
▁창시
▁이어받
두르
▁낮추
▁서사
▁김재
▁음원
▁대역
▁컬러
▁언제나
▁옥스
▁원고
▁CE
▁대포
▁스파르타
▁닿
▁GT
▁수렴
▁원반
▁수령
▁카탈
▁이민자
▁1895
▁al
▁코프
평군
▁디스플레이
▁SP
▁남원
▁병역
▁탈환
▁통칭
크리트
▁169
▁팔레스타인
▁재미
▁무제
▁총선거
▁리메이크
여지
▁141
▁프레스
▁광부
▁모스
박쥐
▁어업
▁이틀
▁딴
▁바흐
▁울리
▁나가사키
▁머신
▁아폴
네스코
▁법제
▁수동
▁총괄
MS
▁아사히
▁Tr
▁나주
▁내주
▁링컨
▁인재
▁135
▁다운로드
공신
▁비문
▁주차
▁ㄹㅐ
▁언론인
▁온천
▁유수
포트
▁국사
▁동력
▁하부
▁북서부
▁기습
▁적자
▁자기장
▁탤
무기
보기
▁유연
그라드
▁김진
▁양주
▁풋볼
▁쓰러지
▁흩어지
자스
ust
▁대처
▁엔지
▁종결
▁도호쿠
▁문화방송
석기
▁수용소
벌레
▁계몽
▁찾아내
▁때리
▁소실
▁이진
▁서머
▁섭정
▁개관
▁어스
▁후세
▁144
▁한동안
▁해병대
▁귀중
ep
▁시공
▁초상화
와라
▁더글
▁신세
▁111
▁청원
▁효력
▁나르
▁스핀
▁영리
▁걱
▁차기
▁김포
▁신중
▁대제
▁바실
▁저명
▁후대
▁식별
▁ㄷㅡㄴㅈㅣ
▁폐위
▁풍경
선거
int
▁고백
▁함유
▁서울대
▁번영
▁첨가
▁아레나
▁장미
▁평야
▁컴퍼니
▁정말
▁중순
▁몰아내
▁스티브
▁컬럼비아
▁끊임
▁오빠
▁정전
▁공채
▁면하
▁조달
▁119
▁TH
▁휴식
▁스릴러
▁십자가
▁연세대
▁반박
▁천도
▁다니엘
▁내외
▁이광
▁인산
▁캄보디아
▁큰
누엘
▁기요
▁제수
▁김태
▁날짜
▁언더
▁신학교
▁대위
▁정무
▁파업
▁리버풀
▁CO
▁It
▁두루
▁요르
GC
▁도스
▁별칭
트리올
▁몬트리올
▁아종
▁케네디
키지
▁매카
▁불편
▁총사
▁편리
▁172
▁룡
시로
▁친일인
▁유네스코
▁친일인명사전
EN
▁hPa
▁유니버
ib
푸스
▁드럼
▁평일
▁껍질
▁병조
▁삼진
▁선구
▁중소
▁사회학
▁간호
▁묘역
▁충실
▁애덤
▁106
▁전성기
▁우연히
▁이글스
▁무상
▁원내
▁테레
릴라
▁관통
▁교양
▁신기
▁니콜라
▁WWE
따르
ome
▁루시
▁바퀴
▁소환
▁카리브
▁페르난
▁미주
▁선종
▁아벨
▁신학자
▁아틀레
▁교원
▁북위
ude
▁관람
▁명백
▁장안
▁꽤
▁해수
그로
▁위임
▁휴전
▁스페이스
▁덤
스럽
▁공모
▁제갈
▁중량
▁엔지니어
▁걱정
▁평하
▁프랑수아
▁당일
니치
▁미즈
▁슈트
▁의상
▁에스토
▁콰
▁등재
▁베드
▁총대
ian
케이션
▁아이슬
▁낱말
▁리어
▁승점
▁정렬
▁증진
▁지폐
▁초과
▁서남
▁콘크리트
세츠
▁We
▁마츠
▁김상
▁표명
내셔널
▁한성부
▁인터내셔널
▁충북
▁마인
▁지혜
ere
▁공직
▁연패
▁매사추
▁쇼트
▁평범
▁아이템
말라
▁생전
▁소통
▁전압
▁매사추세츠
▁대웅
▁방패
▁보완
▁케이스
블로
선스
페르
▁미토
▁우라늄
▁해변
▁고민
▁외교관
▁중추원
▁돌연
▁모방
▁장려
▁좌절
▁아이슬란드
▁고수
▁세계관
▁책임자
▁발트
▁상서
▁열대
▁멋
▁잦
ire
▁도주
▁공단
▁단식
▁알아
▁우울
▁암석
▁투르
▁그루
주의자
▁황태자
유행
치오
▁나스
▁도라
▁훔
▁영남
루션
실록
▁일화
▁입지
라이더
▁공의회
▁퍼센트
▁일조
▁탱크
▁레바
▁치열
▁배신
▁불명
▁역설
ment
▁스페인어
pe
▁요하
▁진짜
▁에스토니아
▁다치
▁바리
▁부채
▁시흥
▁양도
▁영장
ace
▁호프
▁구이
▁포격
▁호위
▁도루
▁교외
▁신속
▁실전
▁합창
▁라이선스
▁통근
▁평택
▁기어
ide
▁로열
▁소유자
▁시나리오
야시
▁오사
▁친왕
▁닝
▁김기
▁물리학자
▁쿤
▁업계
▁조이
마드
▁괴롭
▁내려지
▁중심부
▁대전광역시
▁푼
석탑
▁고령
▁오비
▁에버
▁장난
층석탑
▁횟
리케인
▁리비아
▁서정
바이잔
▁도르
▁창고
▁148
▁카이사르
▁치즈
▁사슬
▁마약
▁애틀
▁오노
▁허리케인
▁HT
▁봉쇄
▁상담
▁인연
▁친하
▁밟
▁육지
▁할리우드
▁부재
▁지능
▁탈당
▁현금
▁136
▁견디
▁덮이
오피아
▁에티오피아
▁끓
제리
▁기인
▁닛폰
▁시선
▁아제르
▁전라도
▁1916
▁슬로바키아
▁신생
▁오세
▁협주곡
▁마이너
지리아
▁네이션스
▁나이지리아
▁그로
▁여지
▁파장
▁가로지르
▁아제르바이잔
위원
▁서재
▁성운
▁스튜어트
▁즈음
▁파이어
▁격투
▁IBM
▁실시간
IM
중국
▁TO
▁항소
▁순회
▁극동
▁다항
▁의뢰
▁동이
▁명제
▁어쩌
▁갈리
▁조연
▁NBA
▁이사회
▁병행
▁산림
▁아드
▁입당
▁추출
▁위탁
▁작센
아이
▁동상
▁원숭이
▁바닷
▁바스
▁해소
▁배터리
의자
▁낭만
▁막내
▁워드
람쥐
▁추세
▁특집
▁흘리
▁솜
바다
▁노부나가
▁구릉
▁호기
▁라이언
▁국무총리
시피
▁기단
▁앓
▁안성
▁의약
▁차종
▁하락
▁DC
▁부적
▁시초
▁약칭
▁쌍둥이
▁브라우저
▁한스
▁138
▁결혼식
▁알아내
▁패키지
▁구도
▁니아
▁얘기
▁지류
▁허리
cl
▁급격히
▁데이비스
▁닷
하면
▁중위
▁ㄷㅚ
▁리틀
▁면허
▁실장
▁전념
▁평원
▁반감
▁구호
▁되게
▁유동
▁아마도
▁페르디
▁해밀
타로
▁격퇴
▁사헌
▁가동
▁리우스
▁솟
▁la
▁백색
▁분당
▁딕
▁거제
▁시즈
▁후쿠시마
▁경연
▁주행
▁우루과이
▁객체
▁거론
▁지선
▁이세
▁백화점
▁섬기
▁저하
나오
파르
▁개그
▁포터
▁현종
승지
▁고성
▁레논
▁토성
▁구조물
▁시칠리아
▁상공
▁첼시
여래
▁박해
▁안기
▁회고
▁360
▁바이오
▁라이브러리
▁결선
▁수습
▁뭉
타나
▁세션
▁재위
▁최상위
▁라트비아
▁복선
▁신규
래스카
▁영의정
▁중성자
▁익히
▁치명
곡리
▁돌려
▁탐구
▁104
▁냉각
▁도미
마쓰
▁아부
▁오바
▁어울리
대신
▁우세
거지
▁En
▁가면
▁거행
▁고소
▁극히
▁릉
▁깨달
▁춘천
▁사헌부
▁그램
▁피에
▁오피스
▁신탁
토모
▁감리
▁임용
▁택시
▁트래
▁한쪽
▁혈통
▁랄
ark
▁어휘
▁모니터
▁LP
양함
▁비시
▁성숙
▁애틀랜
브레
▁도장
▁춘추
리에
▁송시
▁장학
하시
▁목판
▁주가
▁109
▁혀
▁반도체
▁테이블
▁돌보
▁생식
▁성체
▁신한
▁제독
▁차장
▁횟수
ㅇㅗ
회장
▁개원
▁게르만
은색
▁Pr
▁나비
▁펌
▁고인
▁스톡
▁재현
▁코무네
데시
▁주름
리니
▁잔류
▁행적
▁123
▁해적
베르토
▁ㄹㅏㄹ
▁스트레스
▁이케
▁후방
▁ㅅㅗ
▁외치
▁최악
▁환영
어버리
▁대학생
▁그날
▁칼라
고쿠
▁공수
▁데모
▁민회
▁정점
▁비리
▁별다르
▁가짜
▁소매
▁교황청
▁방송사
▁뢰
▁옴
▁바나
▁명령어
▁반경
▁대표작
▁햇
타고
▁아홉
▁축하
▁펜실
▁올바르
▁휴스턴
베이니아
▁펜실베이니아
더슨
헤이
▁하워드
▁종로구
▁AK
▁루프
▁통증
푸르트
▁연하
▁폭동
포드
▁매입
▁우위
▁인플
▁부당
▁143
▁공산주의자
▁너비
▁분기점
▁타이거즈
▁적당
▁연합회
▁광물
▁카자흐스탄
▁견제
▁성취
▁억압
▁터치
▁헐
▁AR
란히
랜트
▁시바
▁NC
▁수련
▁순교
▁아담
법인
▁경관
▁노바
▁다발
▁상점
▁신조
▁왜냐
바시
▁동점
▁분비
▁사모
▁청춘
은이
▁고장
▁힘입
▁베스
▁산란
▁주역
▁리우
▁이화
AL
글리
차기
▁CS
▁열정
▁히메
▁부르크
▁이식
▁축적
ㄷㅓㄴ
▁마야
▁상단
▁호랑이
▁신주
▁여당
▁출처
▁피츠
▁한인
▁col
▁컴파
산동
▁육체
▁박람회
▁동아일보
▁팡
▁벌금
▁염기
▁팔라
▁야구장
▁비자
▁성사
ile
▁롤링
▁유한
▁현저
▁돋
▁남동부
▁자민
▁제하
▁토모
▁통영
▁CC
▁관구
▁블라디미르
▁존속
▁처녀
▁누이
▁펑크
▁플라이
▁래퍼
▁목재
▁에미
러스트
▁알코올
▁근교
▁응원
▁유로파
▁음료
브리지
스틴
▁암시
▁태양계
▁룬
▁상반
▁차이점
▁부설
▁설탕
▁블로그
▁소나타
▁친일파
ies
▁적분
▁제프
▁경상도
▁Op
▁광학
▁기적
▁상용
▁운하
▁왓
▁김경
▁오해
▁이에야스
▁갈라
▁시골
▁티스
▁법조
▁충전
▁다이아몬드
▁휠
▁보석
▁비싸
면체
▁주주
▁조선일보
비나
살이
▁나트
▁CON
▁생산량
▁가죽
xt
라클
▁사육
▁이윤
▁다녀
▁아예
▁폭행
▁해명
▁라오스
▁킥
▁유죄
▁이타
▁말라
▁황실
▁국소
▁신념
▁경찰청
▁그동안
▁중의원
기업
▁카롤
▁계시
▁놀랍
▁히사
▁RNA
▁단단
▁만남
▁지르
▁112
▁베어스
도리
▁어원
▁합하
▁107
▁브라더스
▁키프로스
ite
▁규범
▁빨간
▁내보내
▁흠
▁공익
▁거칠
▁공관
▁가군
▁누나
▁다투
▁미르
▁구축함
▁사업자
▁아랍어
▁삼층석탑
▁is
▁우유
▁루이지
▁장거리
▁동국
▁후사
▁공습
▁부제
▁옆면
▁우승자
▁창원시
▁시베리아
▁레일
▁성단
▁Te
▁신민
▁이산화
▁비유
▁상사
▁시어
▁언니
▁126
▁트윈스
도바
▁당주
▁증대
▁이순신
▁사우루스
랑카
▁거북
▁무지
▁탐사선
▁트위터
▁117
▁대웅전
▁줄무늬
ft
▁수법
▁조종사
▁맥락
▁맥주
▁소셜
▁갇
고래
권자
지붕
▁플러스
▁품종
▁카를로스
▁도마뱀붙이
나스
▁신선
수리
▁연쇄
▁송시열
▁동문
스부르크
▁조세
▁헤비
갈색
레기
▁드로
▁포럼
▁확신
▁범인
▁핸드
▁평의회
▁교정
▁여파
▁천장
▁왜냐하면
▁SE
▁깨닫
▁할머니
▁퐁
▁네스
▁발해
▁지평
▁구출
▁이경
▁제재
▁교과서
▁풀리
▁왜곡
▁허위
▁대폭
▁인문
▁입원
▁아카데미상
▁협박
▁굉장히
▁희생자
▁빈곤
▁실체
▁인체
▁고속도
▁경보
▁근원
▁피우
▁진급
▁빨간색
▁화장실
조부
▁com
▁양키스
▁뉘
▁갇히
▁곡인
▁날씨
▁121
▁법무부
▁전자기
▁가마쿠라
ath
▁마디
▁137
▁350
▁삼성전자
의장
▁몰래
▁펠리
▁꾀하
▁다지
▁세라
▁신약
▁진하
▁통틀
ound
▁킴
▁이브
▁제니
▁173
▁필리프
OL
▁비르
▁소원
▁임하
▁탐색
다지
▁제대
▁수용체
▁CF
▁요동
▁필터
▁일반인
▁후궁
ond
▁주이
▁바오로
무스
▁샘플
게이머
▁프로게이머
▁가축
▁왕복
▁줄리
▁연합국
시타
▁1894
▁ㄴㅗ
▁라이너
▁클라우드
끼리
마루
연합
ory
▁방화
▁우호
▁워터
베니아
▁문예
▁일방
▁헥
▁113
▁개교
▁포병
▁해고
▁물려받
▁테이프
▁믹스
▁가장자리
수소
승부
▁지미
▁태권
▁크리스토퍼
▁땃
▁엿
대기
▁레온
▁불타
▁진공
▁대의원
▁슬로베니아
▁냄
▁거울
▁승계
ov
▁맘
▁다크
▁아야
▁핵무기
▁자아
▁투옥
▁근로자
▁드레
▁성별
▁미션
▁수색
▁브로드
▁총독부
▁궁극
▁둥지
▁문구
▁택하
▁양측
man
▁결함
▁보증
단체
번스
▁계정
▁뒷면
▁알제리
▁코스타
그레이드
▁낫
▁공민
▁공천
▁바우
▁철회
▁도미니
▁농림
▁일가
▁업그레이드
▁붐
그리
로이
▁대피
▁만일
▁무어
▁유년
▁적도
▁캐시
규모
아키
ㄷㅡㄴ
▁극심
▁로이
▁서민
▁용병
iver
▁바티칸
▁z
톨레
▁뒤집
▁하동
▁124
▁게스트
▁LC
▁강서
▁".
▁On
▁시뮬
▁제인
▁치안
▁화해
▁몬스터
▁놓치
▁칭찬
아프리카
▁비추
▁최강
퍼런스
▁게이지
▁자연수
▁관음
▁군정
셰비
▁be
▁판본
▁가져가
▁독일인
▁탤런트
▁세속
▁신시
▁즉각
▁로우
▁횡단
▁IM
▁명하
▁국내외
▁공백
▁먼지
▁상표
▁서진
박스
▁공방
▁성도
▁야마토
▁개종
대원군
▁멜로디
▁륙
로니
▁김현
▁World
블리
▁가루
▁모친
▁서초
▁체크
▁초록
▁카카
▁남서부
mer
▁최대한
▁쑤
린스
▁혈관
▁고고학
▁성문
▁피오
▁김정일
▁베네딕
▁구절
▁스캔
크라
▁CR
▁SU
▁그냥
▁내정
▁디렉
▁타당
▁학계
▁커뮤니케이션
▁닫히
▁두껍
▁양호
▁영산
▁감자
▁풍자
ich
▁곤란
▁넘치
▁욕구
▁일생
▁그대
▁야쿠
▁New
▁브리지
▁윤치호
▁1890
▁프랑크푸르트
드르
줄기
축구
▁러시
▁우파
▁항쟁
▁결코
▁데르
▁오리콘
▁땃쥐
▁아랫
▁제치
▁유저
▁자선
▁조부
▁초월
프레스
▁114
▁기업인
▁시위대
▁김규
▁원전
▁이거
▁검찰청
▁맑
▁선비
▁자오
▁라이온즈
▁대명
▁돌격
▁미노
▁베니
▁평정
▁ㄷㅣ
▁어미
▁이소
▁발리
▁배후
▁정주
▁증손
▁구스타
▁므
▁소규모
▁부딪
▁자비
▁다녀오
▁EC
▁이준
타리오
▁안토니오
▁기질
▁미키
▁자음
▁침투
▁오프닝
▁일리노
▁드라이버
렉스
IP
ial
▁과반
▁제압
▁118
▁블랙홀
▁냉전
▁악단
▁옵션
▁정세
▁학명
▁히어로즈
러드
▁어긋
▁이드
▁자택
▁일리노이
▁파이널
▁떨치
▁다가오
▁깎
▁구와
▁알아보
▁Sc
▁도청
▁서자
▁지침
▁크리스티안
ign
▁관세
▁만료
▁스칼
▁종착
▁알루미
▁파란색
▁프로덕
▁플래시
▁디비시온
▁이남
hn
▁시정
▁체스
▁하르
▁사상자
▁가드
▁주부
▁체조
▁1898
▁예조
▁요정
▁극장판
▁미하일
황후
▁예시
▁115
▁진사
▁괴물
▁대부
▁경신
▁대거
▁용이
▁태극
▁분명히
▁ㅇㅡㄹㅈㅣ
▁빛나
▁경찰관
▁풀려나
닐라
▁저널
▁헬리
▁반지름
▁벵
저지
▁연이
▁지인
▁방사선
▁우즈베
▁말씀
▁인명
▁모로코
▁원로원
▁봉안
▁순조
▁재상
▁커널
▁빔
히코
▁봉건
▁계열사
▁컷
벨트
▁연승
▁갑작스럽
고스
▁남구
▁로그
▁매니저
▁징계
▁레바논
▁트로이
▁헬기
▁챌린지
▁통치자
교도
지스
▁SD
▁키르
▁희귀
▁승부차기
▁ㅋㅔ
▁우측
▁축출
▁외야수
▁웨스턴
ㄹㅣ
기념
아먹
조건
하루
▁매매
▁카우
▁패럴
▁세이브
▁시가지
▁중형
▁GS
▁범유행
▁성리학
▁두려
▁변이
▁센티
▁뉴저지
▁비로소
보르
▁JT
▁웹툰
▁케냐
▁남미
▁동정
▁GP
▁가옥
▁극작
▁필사
▁무성
▁본국
▁선도
부리
타니
▁공조
▁모나
▁켈리
▁129
▁군중
▁정변
▁취업
▁혜택
▁무승부
마이오스
▁렐
▁비기
▁소모
▁핑크
▁뉴턴
▁앵글
▁왕세
▁외모
▁전년
▁쫓겨나
▁뭐
▁기증
▁사위
▁통보
▁맏
개미
▁광해군
타리
rom
▁글루
▁컨셉
▁코카
▁하프
▁`
▁ㅌ
▁캔자스
▁믹
▁답변
▁천하
▁의약품
▁부스
▁비주
▁직면
▁젊은이
▁캉
▁러셀
▁공감
▁숙청
▁재혼
▁벨라루스
▁체코슬로
▁체코슬로바키아
▁쯔
▁미세
▁쾌속
▁폭넓
▁개막전
미사
▁밀집
▁마운트
▁기각
▁맥도
▁중산
▁그레고
바닥
▁예하
▁학업
▁괘
▁닦
▁퉁
문트
▁말미
▁승자
▁첨단
▁한족
▁호출
▁스타리그
▁Ne
▁바빌
▁밝기
▁황족
▁스크립
방송공사
▁럼
레타
▁발급
▁퇴임
▁회관
▁총사령
▁종속
▁III
▁스트리
쟁이
▁리뷰
▁빌라
▁벽돌
▁천문대
▁로비
▁조지프
ph
▁부피
▁뇌물
▁척추
▁카디
▁알루미늄
우트
▁연예인
▁월요일
▁1899
천리
▁142
▁ㅇㅡㄴㄷㅔ
TS
▁무명
▁오오
▁장례식
▁옳
▁남작
▁유라
▁케빈
▁생체
▁어른
▁대변인
▁터뜨리
urn
▁난징
▁응시
▁토끼
▁폭포
▁레슬링
▁청주시
▁양반
▁일컬
▁케임
▁화력
▁끌어들이
먼스
화물
▁요건
▁임원
느러미
▁부여받
▁웬
▁기차
▁재선
테르부르크
진군
▁감싸
▁옹립
▁창출
▁천재
▁사쿠라
롤라이나
슬러
▁각도
▁설화
▁중공
▁총칭
▁토미
▁어긋나
포로
▁관제
▁워너
▁토양
▁브리튼
▁세이부
▁룩셈
▁소생
▁예고
▁축물
▁더글러스
▁프로덕션
수록
▁마르티
▁룩셈부르크
▁콕
코딩
함수
▁무함
▁사본
▁타임스
ction
▁배수
▁워크
▁정려
▁두려워하
로우
▁자크
▁하얗
▁학기
셰비키
▁스즈키
시즘
▁유방
▁전속
▁종래
▁파산
▁대서양
▁온타리오
▁플라스틱
▁구경
▁발병
▁사간
▁오크
▁넘어서
틱스
▁실망
▁기술자
럴드
▁CJ
▁프란츠
▁광주광역시
▁얹
브르
▁리프
▁저주
▁부의장
▁1902
도스
▁미들
▁거래소
▁뒷받침
토르
▁ch
▁대치
▁금요일
▁혼동
▁연산자
ens
▁시범
▁화상
MA
▁ID
▁광둥
▁안테
▁유진
▁지옥
pp
타주
▁대패
▁명종
▁성폭
▁신원
▁Man
덩이
▁거세
▁독서
▁만성
▁서신
▁왼손
▁확실히
▁감행
▁대성당
▁도카이
▁공적
▁중복
▁키보드
▁힌두교
파이어
▁플랫폼
lan
▁가야
▁니코
▁발기
▁보위
▁연꽃
▁동네
▁피겨
▁화자
▁기사단
▁잃어버리
두리
▁병기
▁의자
▁지치
▁코시
▁그래미
▁지출
▁프톨레
▁프톨레마이오스
▁''
▁대손
▁우체
▁찌르
▁채소
▁컴백
▁수분
▁시코
▁아리아
치기
▁드림
▁스턴
▁위쪽
▁체류
▁촉매
▁감마
▁운수
▁원종
▁탄도
▁바깥쪽
▁마력
▁비석
▁원천
샤바
▁그릇
▁설교
▁시가
▁피신
▁게리
▁형조
lic
▁교통국
▁붙잡히
▁마녀
▁아돌프
▁개소
▁국영
▁희곡
▁비행장
▁지식인
▁강변
▁지켜
▁고양시
폴리
▁BS
▁간선
▁대합
▁영등
▁포획
글라
▁버드
▁사슴
▁하단
▁소나무
▁밍
크로
▁물품
▁외관
▁표적
국사
▁기니
▁깃발
▁생생
TC
▁춥
▁강동
▁벨트
▁선배
▁유체
▁토착종
▁익스프레스
TA
▁정성
▁참의
▁가환
▁단축
▁습지
▁페널
▁페르디난
▁김지
▁동학
▁스폰
▁주조
▁마스크
▁단절
▁뛰어
▁영문
▁코끼리
▁해밀턴
▁정적
ary
▁서류
▁압둘
▁코믹스
▁흔들리
▁포켓몬스터
▁아산
▁경성부
▁스위치
▁이용자
▁얽
▁세비
▁갈수록
▁부회장
▁끊임없이
▁몫
▁등기
▁서리
▁울프
▁사이토
▁호르몬
▁러시아어
▁브뤼
▁직결
▁매카트니
▁제국주의
ach
▁나노
▁화강
▁드러머
구르
히토
▁광명
▁단의
▁동행
▁의의
▁아이오
▁선행
▁복용
▁함정
▁1901
테인
▁응하
▁축조
▁헌신
out
▁생략
▁소시
▁어류
▁열도
▁입성
▁광대
▁초신
▁보이스
▁수확
▁청산
그룹
짓점
▁고아
▁약자
▁혐오
▁다항식
▁No
▁공리
▁꼭짓점
▁제네바
▁폭격기
▁울산광역시
미트
▁본문
▁색채
▁쓰촨
▁염증
▁입국
ert
▁간토
▁임관
▁코코
▁부작용
카가
▁보트
▁부가
▁체르
▁알렉산드르
▁일산
▁현은
디나
▁권총
▁하치
▁연기자
피어
▁무궁
▁바이킹
▁삿포로
▁렘
▁논하
▁수축
▁여운
▁정문
▁이단
▁자작
▁퀘벡
루아
▁기숙
▁매수
▁손꼽
▁치아
▁영국인
모스
자르
▁카미
링턴
▁갱신
▁보복
▁성지
▁역량
▁조립
▁서유럽
LE
▁MB
▁김창
▁서문
▁실버
▁체중
▁사회당
ys
타임
▁주되
LS
▁ㅈㅛ
▁민감
▁커스
IG
▁경과
▁고산
▁드라
▁이현
▁정동
▁표방
▁간단히
나우
▁례
▁광저우
▁점성술
▁대구광역시
▁케임브리지
▁쿄
ㅌㅔ
▁검열
▁염색체
▁요르단
ug
▁면제
노미야
▁134
▁ㅎㅏㄴ
▁푸에르
▁}
▁갈릴
▁크롬
▁페니
▁호모
베트남
▁썰
그라
▁가역
▁날카
▁두께
▁스님
▁토기
▁상금
▁입각
▁정립
▁조수
▁김제
▁분수
▁차르
▁캐서
▁특권
▁누적
▁동조
▁버티
내리
속기
▁미륵
일으키
▁그다지
▁무함마드
▁아라비아
▁불러일으키
▁독성
▁보헤
▁엔딩
▁원료
▁장기간
▁파이터
▁아시카가
ase
▁시리
▁오쿠
▁KIA
▁THE
▁남매
▁공명
▁전방
▁갈리아
▁모서리
▁사업가
▁1903
정리
▁레즈
레슬링
▁옥스퍼드
▁ㅎㅏㄴㅌㅔ
▁마우
▁삼촌
▁직경
▁카프
▁크레이
▁다마
▁섹스
▁아브
▁개인전
▁1884
기스
대장
펜하
▁불꽃
▁신도비
▁언어학
▁트리플
▁홈구장
사리
퀘어
▁Gr
▁노보
▁원본
▁학대
▁All
▁One
▁불신
▁연봉
▁이병
▁쥐과
▁미시시피
▁아인슈타인
▁쟈
처스
▁박지
▁관광지
▁만주국
▁이성계
▁표기법
테르담
ke
▁공예
▁라그
▁중령
▁태그
▁퇴역
▁하리
▁지켜보
카미
▁강간
▁개화
▁공고
▁극대
▁대두
▁EX
▁에콰
▁트로피
▁아리스토
▁에콰도르
▁토요
▁쓰레기
▁프로레슬링
카타
▁AN
▁산출
▁질소
텍처
▁교대
▁좌측
▁아키텍처
▁야마구치
▁릿
▁구형
▁루타
▁어둠
▁이관
▁하비
▁도널드
▁로저
▁알렉산드리아
▁ㅅㅑ
▁비타
▁선동
▁퇴적
▁히타
▁쓰시마
▁전염병
아웃
▁소말
▁슈팅
▁스텔
▁도요토미
▁군산
▁정선
▁꼭대기
▁클라이
▁니콜라이
▁발렌시아
▁메커
▁훔치
▁검출
▁어뢰
▁제로
▁패널
▁복합체
▁아폴로
▁패밀리
푸르
▁Cl
▁헌정
▁구스
▁조반니
▁프란체
▁1800
▁대문
▁비뉴
▁날카롭
▁충청도
▁콤팩트
▁깨지
▁마키
▁드레스
그레
방울
▁달걀
▁마르틴
▁삼국지
라이언트
▁LA
▁타케
▁해남
▁뮤지션
▁소방서
리코
▁군함
▁우치
▁방글라
▁히로시
▁방글라데시
▁클라이언트
ree
▁공황
▁흥선
▁지도부
▁프레드
▁피고인
▁뒤쪽
▁실재
▁장벽
▁철폐
▁마르코
올로
▁선우
▁실무
▁정유
▁함선
테이션
▁유부
▁회상
▁소행성
▁반공
▁전위
▁당연히
▁조형
나미
가와현
▁기념관
▁슬라브
▁당수
▁원더
▁인질
▁토시
라이어
사이드
▁방사성
▁페널티
▁일렉트로
▁가오
▁김홍
▁농부
▁이태
간지
▁경작
▁내걸
▁단면
▁염소
▁코믹
▁기념비
▁복소수
▁팟
가르
불교
▁경인
▁곡물
▁도선
▁에밀
▁자형
니시
▁로라
▁묶이
▁어찌
▁우회
▁활주
▁북아프리카
▁팰
네마
▁IN
▁건륭
▁분량
▁분출
▁카사
▁기분
▁기슭
▁발칸
▁전구
▁전복
▁남동생
아들
▁우물
▁하차
▁뉴욕주
▁소수자
▁스토어
▁카를로
▁with
산맥
▁상가
▁터보
▁강대
▁권장
▁기관총
▁오사카부
하키
act
▁궁중
▁물가
▁발령
▁상경
▁세바
▁리더십
▁현감
▁아미노산
개골
번뇌
ass
▁러스
▁모모
▁가브리
▁더욱이
▁견인
▁밀란
▁상트
▁창녕
▁파병
▁그레이트
구역
▁가산
▁막스
▁상응
▁수목
11
▁준주
▁후작
▁116
▁중앙아시아
▁교량
▁까닭
▁브란
▁세키
▁취항
▁메커니즘
▁Ad
▁교도소
▁모리스
▁전시회
▁강희
▁관절
▁소자
▁용서
▁의결
▁거주지
곡동
사우
▁Br
▁신축
▁안경
▁220
▁민간인
▁한국방송공사
▁냄새
▁등용
▁추첨
▁회피
▁포스터
▁이북
▁와일드
▁캐서린
pt
▁감안
▁돌기
▁보성
ㄴㅈㅣ
▁다케다
▁총대주교
▁가계
▁각색
▁효고
▁에디션
▁1897
▁볼리비아
▁미라
▁정화
역학
▁진전
▁마카오
▁카스티
▁샌드
▁평창
▁1860
▁홉
사업
쿠버
▁가열
▁델타
▁맞붙
▁시야
▁절단
▁되돌리
▁스트라이크
▁기저
▁농사
▁반군
▁티코
ream
▁거짓말
▁데스크
▁방송인
▁일부분
▁컨트리
▁CN
▁낙동
▁요약
▁태백
▁꿀
▁갈래
▁대출
▁델라
▁취미
▁페이스북
▁르노
▁마블
▁사살
▁교육청
벤처
▁깨끗
▁리조
▁상법
▁오로
▁올드
▁폭로
▁어드벤처
▁GO
▁일파
▁장자
▁침체
▁휴가
기념물
▁아나키
▁일자리
파리
▁확진
▁배우자
▁알프레
▁ㅇㅡㄹㄲㅏ
▁상고
▁수료
▁강남구
▁버클리
▁데카
▁음향
▁이주하
▁반전
▁가의
▁고이
▁마니
▁안산
▁타우
▁한층
▁네오
▁접수
▁노태우
▁스크립트
▁Is
▁공손
▁마가
▁전산
▁카타르
▁무슨
▁청색
▁연대기
캐롤라이나
▁나루
▁리히
▁민정
▁석불
▁장제
▁쿠니
▁효종
스카르
▁경제학자
▁Ex
▁샌디
▁아소
▁카즈
▁;&
▁대관
▁122
▁사카이
▁쓸
▁간신
▁구약
▁북경
▁심화
▁쥐속
▁중공업
▁바르샤바
▁앰
▁안치
▁타지
▁엇
▁저렴
▁체력
▁모티브
나드
▁유닉스
▁떡
도비
퍼슨
▁2022
산성
▁마애
▁이반
츠크
▁가신
▁소행
▁추론
▁스퀘어
반구
▁막시
▁미네소
▁입주
▁클라크
▁홍문관
▁버마
▁안드레아
포터
▁고토
▁동형
▁이빨
▁종파
▁화순
▁게릴라
▁후반기
▁석회
▁전격
▁중원
▁아마존
▁모용
▁윤보
▁인테르
▁죠
콥터
푸아
▁글래
▁브룩
▁살피
▁짐작
▁치우
▁흥선대원군
ii
▁군청
▁수중
▁적군
▁집결
▁1880
▁합당
▁NGC
▁con
▁상트페
▁설립자
▁상트페테르부르크
▁애리
▁솔루션
▁급수
▁리만
▁사적
▁종점
▁공용어
▁BM
▁갑옷
▁강철
▁메라
▁호쿠
▁마라톤
거진
▁타협
▁갤러리
▁그리스인
▁마당
▁신동
▁예명
▁용암
▁두개골
▁득표율
▁유대교
▁보강
▁세네
▁콘테
▁옥수수
▁제작사
▁셜
▁엮
▁메릴
▁빈도
▁어로
▁손꼽히
▁과실
▁벽화
▁장원
▁제리
▁찰리
▁함양
▁133
▁지지율
▁진행자
▁천연기념물
▁노이
▁루크
▁유정
▁정경
▁창의
네시
▁돌입
▁무술
▁실적
▁쳐들
▁돌아다니
▁눕
iss
▁무로
▁이장
▁나란히
▁새로이
▁함부르크
리즘
▁감추
▁입양
▁프렌
▁키예프
니지
▁가네
▁기성
▁번성
▁신정
▁청소
몰로지
▁붙여지
▁파라과이
ake
▁일괄
자치시
▁특별자치시
▁블리
▁소령
▁이언
ㄹㄹㅗ
▁극작가
타케
▁디트로
사관학교
▁디트로이트
▁ㄷㅔ
▁격차
▁스노
▁왕정
own
▁수녀
▁연못
▁처지
▁특색
▁호응
▁괴롭히
▁법정동
▁뻔
기구
케이
▁추리
▁이동하
▁무궁화
▁일러스트
▁랍
리안
▁심야
▁연동
▁이규
▁종말
▁팔레
▁확고
▁CBS
▁준결승전
▁그레고리오
▁자결
▁진료
▁랴
ㄱㅣ
▁가가
▁농어
▁장흥
▁제왕
▁조계
▁펜싱
▁헬륨
▁Mus
▁극도
▁등극
▁몽고
▁출석
▁교육부
▁그림자
▁고추
▁복권
▁오지
▁유령
▁위나라
▁포도당
▁그렇지만
▁그레고리
▁오락
▁자생
어뜨리
▁CEO
▁미생물
▁사무총장
▁경쟁력
clude
▁사쿠
▁파우
▁평민
▁GDP
▁겉보기
▁낚
▁개항
▁공약
▁앨리스
▁지방산
▁도사
▁무스
▁선장
▁자카
타마
▁국유
▁미셸
▁열심
▁탁월
▁아래쪽
그래
미스
▁ES
▁아치
▁추종
▁스리랑카
▁애틀랜타
▁니카
▁문경
▁스로
▁위생
림픽
▁숙주
HO
▁지청
Hz
원장
old
▁유스
▁132
▁대성전
▁엘리트
UR
▁더비
▁수심
▁아데
▁우상
▁재해
▁주지
▁싣
▁수년
▁즐겁
▁시뮬레이션
▁++
▁광양
▁스트라이커
▁툰
멘스
▁재난
▁정인
▁진수
▁섀
위성
▁결핍
▁까지
▁명분
▁애칭
▁프롤
▁글로브
▁동성애자
▁인디애나
▁듀오
▁칼뱅
▁반역
▁이득
▁마다가
미즈
스기
▁결제
▁이데
▁주화
▁초원
▁대지진
버러
ork
▁NE
▁격자
▁리모
▁조병
바야시
헌영
▁극락
▁김민
▁온갖
▁인프라
ix
▁듀얼
▁앞장
▁삼국사기
세기
▁ㄹㅑ
▁감동
▁동요
▁속편
▁미주리
▁프랭클린
거래
에미
GA
벨라
▁꿈꾸
▁빈번
파크
▁베른
▁브랜
▁원격
▁정관
▁요제프
▁파이프
▁국수
▁총무
▁or
▁상연
▁시종
▁pro
▁마우스
▁패럴림픽
해지
해튼
▁타석
▁무조건
▁복음서
렉션
▁김옥
▁동참
▁현직
()
lo
메다
위원회
▁쾰
▁대각
▁속이
▁속주
▁청자
▁호족
▁평안남도
천사
▁발각
▁상기
▁농산물
▁보헤미아
ick
▁암흑
▁요법
▁현황
러피
루냐
▁대국
▁호리
▁저널리
▁강풍
▁숨지
▁신상
▁통틀어
CAF
▁La
▁Ro
▁현행
ence
▁기상청
▁우체국
▁PR
▁무르
▁해치
▁자세히
▁활주로
를테
마리
변이
▁가타
▁단과
▁두렵
▁피로
를테면
▁대사헌
▁돌연변이
▁볼셰비키
▁이를테면
▁빠져
▁총기
▁후속작
▁kt
▁막히
▁세손
▁워치
▁페로
▁밀러
▁파문
▁뾰
▁공파
▁황도
▁단행본
▁1870
▁공표
▁라오
▁의과
▁투항
브리아
▁모터스
▁트리니
▁합스부르크
라기
홀름
▁관동
▁불행
▁초고
▁해부
▁매거진
▁창시자
▁평안북도
▁숀
▁To
▁낙하
▁만년
▁소울
▁제너
▁호의
▁DM
▁장대
▁표창
▁매끄럽
▁중앙부
▁헛
삭스
할시
▁맹세
▁왜구
▁재질
▁저격
▁말년
▁생계
▁아쿠
▁정국
▁타이베이
공산
▁댓
플로
▁감금
▁머스
▁서장
▁우아
▁이븐
▁애리조
▁청동기
▁우즈베키스탄
▁배속
ance
▁450
▁NAS
▁른
▁입수
▁USS
▁따라가
▁아스널
▁1885
▁짱
▁로페
▁복식
▁Mar
▁프랜시스
ection
▁슛
▁Ph
▁국악
▁세븐
▁시국
▁포고
▁기병대
▁소피아
EM
▁카바
▁다람쥐
▁엥
▁김병
▁맞대
▁로렌스
▁비주얼
▁아이스하키
십자
▁un
▁돌출
▁앞쪽
▁1871
▁알래스카
ear
▁수염
▁아빠
▁양육
▁양성자
▁맷
▁쿡
▁비늘
▁신종
티시
▁성령
▁중생
▁틀리
▁휴게
타이드
테리아
▁대장군
▁only
▁오클랜드
▁오로지
▁프레이
제이
▁이모
lass
▁빅토르
▁1600
▁내성
▁카터
러피언
▁수원시
ild
▁로리
▁루비
▁요지
▁위스
▁참사
▁센고쿠
▁마르크스주의
▁전날
▁테일
▁휩쓸
▁활발히
▁1200
▁내면
▁리터
▁앤더슨
▁파나마
▁유러피언
▁유료
▁청룡
▁케이프
▁경질
▁매직
▁봉수
▁시애
▁오라
▁중상
▁마닐라
테쓰
▁GN
▁릴리
▁벤치
▁역도
▁장단
▁차리
▁루카
▁부조
▁중서
▁화랑
▁흉노
▁박헌영
▁예정자
▁편집자
돌리
▁볼프
▁탑신
▁윤보선
▁마다가스카르
틀리
▁자칭
▁케라
▁해저
▁내무부
파이
▁지성
▁난이
▁원심
▁이양
▁재외
쩌둥
체고
▁감수
▁관행
▁민요
▁수인
▁카니
▁240
▁김규식
▁부원군
▁잡아먹
체고비나
▁마오쩌둥
▁SL
▁능선
▁퇴장
▁끌려가
▁반란군
어오
irl
▁구니
▁출가
▁친분
▁구마모토
▁김정은
▁맨해튼
▁시애틀
▁알렉스
▁프로리그
관리
▁vs
▁리바
▁반성
▁콜레
▁플랜
▁다나카
▁앤드루
▁해리슨
맥스
▁교실
▁생선
▁조광
▁즘
▁빨갛
▁AD
▁바디
▁서산
▁스태
▁오른손
▁제동
▁지쿠
▁파인
▁제조업
OV
▁수교
▁초빙
텔레스
▁프라하
메스
올라
▁이완
▁티켓
▁동물원
천면
▁궁궐
▁송도
▁역사가
ans
▁리비
▁상급
▁이방
▁함자
ivers
▁콘스탄티노폴리스
코토
▁경희
▁시중
▁루돌프
▁실험실
▁헬리콥터
▁개헌
▁관문
▁무척
▁성실
▁통역
▁괄
▁국보
▁몸통
▁오미
▁재활
▁불태우
▁성남시
▁왕세자
▁부각
▁정제
▁조례
▁증인
▁징병
▁호크
▁대대로
▁제퍼슨
▁하노이
지로
ype
▁Sy
▁고쿠
▁남산
▁뾰족
▁EBS
▁미군정
▁허드
▁공민왕
▁신문사
▁경시
▁구청
▁분과
▁창문
▁동대문
include
▁아리스토텔레스
▁줄거리
▁남용
▁당내
▁커플
▁리조트
▁위너스
▁클레이
▁러시아인
▁CM
▁드미
▁바트
▁섬세
무소
어사
ish
▁ㅌㅣ
▁레이크
▁남해
▁뉴클
▁차용
▁총통
▁서재필
▁얕
▁이룩
▁사각형
▁크라이
▁클린턴
▁겁
▁카지
▁칼럼
▁한하
▁":
▁배려
▁총애
▁가늘
▁각성
▁시노
▁퍼스
▁하키
▁화기
▁동유럽
라니
▁통용
▁자치체
▁퍼스트
▁김원
▁지오
▁화엄
▁대합실
▁해리스
GM
▁NT
▁개개
▁나우
▁주임
▁MTV
▁아무것
▁광도
▁씨앗
▁안녕
▁약혼
▁에프
▁하반
▁효자
▁케플러
oun
▁농경
▁천왕
▁올림피아
▁학설
▁스가
▁허정
▁선거법
▁솔로몬
▁@
에스
▁독도
▁모의
▁산호
▁시합
▁ex
▁수양
▁시부
▁진해
사상
원수
▁나선
▁독창
▁모호
▁보라
▁차갑
▁칙령
▁분류군
▁요시다
▁유치원
OD
▁테라
▁포착
▁브루스
AF
컨대
▁메뉴
▁예선전
▁총사령관
ey
▁관청
▁주입
▁하류
▁내야수
▁스테파
▁아키라
▁함경남도
▁국당
▁들여
▁로버
▁메카
▁실존
▁지로
▁카테
▁파도
▁브레이크
fe
토랑
▁sc
▁경호
▁극한
▁반기
▁보로
▁자제
▁긴테쓰
▁레스토랑
▁네이션스컵
정원
통일
▁문고
▁성화
▁일당
▁평형
▁경영자
▁멍
▁Jo
▁검정
▁다테
▁마차
▁전래
▁호스
▁아키타
▁보행
▁분파
▁트릭
▁퍼포
창호
▁만장
▁블로
▁신발
▁어군
▁유혹
▁찬사
▁스톡홀름
등식
▁수필
▁케인
▁데려오
▁비타민
▁컴퓨팅
▁퍼포먼스
▁욕망
ical
▁비밀리
▁서대문
▁뉴클레오
바흐
▁제물
▁캐롤
lat
▁카피
▁타스
신문
▁전무
▁테리
▁포식
▁뛰어들
▁알프스
▁유권자
▁자치주
▁원통
▁메이커
EG
TP
히트
▁드루
▁마셜
▁마술
▁유아기
▁친위대
▁벅
러브
환경
▁도교
▁보수당
▁스폰서
▁프린스
▁박종
▁방콕
▁ABC
▁마천루
▁와이번스
암동
▁리보
▁색소
▁수복
▁엄밀
▁프론
▁김유
▁매리
▁소음
▁실정
▁ATP
▁바이트
▁예수회
IR
▁CH
▁럭비
▁다저스
▁로드리
▁고든
▁모어
▁묘비
▁헬싱
▁황소
메드
▁AV
▁강령
▁리베
▁본성
▁불변
▁블레
▁천국
▁대원군
▁구내
▁치과
▁플라톤
▁북아일랜드
▁멧
▁DD
▁넷째
▁상행
▁야드
▁웨인
▁개구리
▁방어선
▁피아니스트
▁마켓
▁시몬
▁일리
▁장시
▁전담
▁천거
▁톈진
▁파손
▁마누엘
▁투자자
▁피라미
▁연극배우
▁나인
▁도둑
▁이점
▁추이
▁포토
매매
▁영유
▁폭파
▁정부군
▁콘테스트
▁삼존
▁절망
▁210
▁나트륨
▁용인시
▁샐
are
▁대본
▁리사
▁실권
▁오리온
▁화강암
덴부르크
▁헤르체고비나
▁구실
▁벤처
▁약사
▁특전
▁튀르크
▁프레데
군다
놀이
대교
▁Fr
▁선천
▁스칸
▁슬하
▁퇴직
▁주차장
▁pr
▁왕권
▁선구자
▁알파벳
▁동로
▁야전
▁침묵
▁아나톨
티넘
▁Ma
▁무실
▁정거
▁찬양
▁홀리
▁적외선
▁토스카
▁플래티넘
부르
ica
▁마에
▁스텝
▁쾰른
▁목요일
▁가브리엘
EL
FL
▁노론
▁백두
▁소극
▁경전철
▁결별
▁국공
▁위그
▁중퇴
▁채취
▁별세
▁책임지
▁1889
▁he
▁가락
▁밸리
▁유선
▁따지
▁뭉치
▁봉화
▁준수
▁차출
▁화약
공산당
▁유격수
사고
▁리본
▁사방
▁앞장서
수스
▁대북
▁부치
▁소중
▁아날
▁영정
▁이의
▁동시대
▁가맹
▁감찰
▁본작
▁송신
▁슬픔
▁제노
▁가이드
60
▁방치
▁아이폰
▁스카우트
▁로크
▁실록
▁켈트
▁호대
▁연산군
난성
대표
천동
▁요충
▁오바마
▁정의당
▁패트릭
충류
▁베트
▁딥
▁반포
▁직통
▁초신성
말리
▁갈아
▁강렬
▁여유
▁정형
테이너
소통
클레
▁공존
▁대영
▁종식
▁주계
▁투여
▁하시
▁기관지
▁밴쿠버
▁사로잡
▁안테나
카리
▁So
▁여권
▁임정
▁중합
▁엔트리
▁간첩
▁니혼
▁다윈
▁당연
▁비엔
▁산성
▁삼림
▁전전
▁모금
▁새우
▁야시
▁의류
▁칸국
▁CONCA
▁늙
위안
▁이송
▁한미
▁미수
▁불량
▁비야
▁메디치
▁의사소통
▁타이거스
▁불참
▁연말
▁영예
▁중수
▁형질
▁For
▁리프트
▁잇따르
▁CONCACAF
▁구르
▁김형
▁플리
▁고속버스
드레
▁능하
▁도망가
▁접어들
▁Live
부로
▁로트
▁우림
▁유목
▁정읍
▁말미암
▁센티미터
▁건전
▁구두
▁김준
▁라리
▁사서
▁시크
와라노
▁타이어
▁후지와라노
▁감성
▁라자
▁모하
▁받치
▁사설
▁집정
▁치루
▁감상
▁격리
▁금호
▁무형
▁아끼
▁의령
▁인가
▁지자
▁피지
▁JTBC
▁떨어뜨리
▁미야자키
▁예약
▁정종
▁종자
▁판례
▁프란체스코
sh
▁권하
▁앙골
▁절정
휴일
▁매트
▁수락
▁왕건
bo
란토
▁원군
▁은거
▁캐리
▁쿠퍼
▁하야
▁똑같이
▁스트로
▁시네마
▁가나가와현
바나
▁사탕
▁애정
▁작물
▁후배
▁낙동강
▁로마인
▁백과
블랜드
▁두려움
▁카탈루냐
프로
▁메소
▁열강
▁훙
▁습윤
▁요격
▁치환
▁Sou
▁열심히
▁나카무라
▁가도
▁송출
▁잠정
▁자유민주당
EE
▁그저
▁금산
▁기이
▁펌프
바이트
▁레이싱
▁생존자
가미
망디
캐슬
▁고딕
▁극우
▁바지
하이오
tern
▁미야기
▁발라드
▁오하이오
▁피라미드
▁클리블랜드
▁도피
▁리옹
▁서임
▁프랑스인
IL
▁가솔
▁마땅
▁연정
▁징수
지기
▁GB
▁비준
도르프
마르크
▁AKB
▁소말리아
▁캅
▁공소
▁담보
▁트렌
▁int
▁광복군
지능
▁김명
▁모색
▁평평
▁여배우
▁장학금
▁인공지능
ood
▁거미
▁사역
▁삼중
대사
자루
▁격추
▁유희
▁제명
▁Col
▁Time
▁유니버설
▁챙
ost
▁"&
▁여고
▁정작
▁항만
▁Com
▁드디어
▁레이트
에미리트
▁아랍에미리트
간다
유예
▁무네
▁벨리
▁성곽
▁순종
▁워커
▁자서
▁카카오
▁Part
▁EU
▁목회
▁암스
▁유의
▁추력
▁페트
▁검은색
▁토리노
추부사
에몽
풀이
현동
▁가두
▁당기
▁한림
span
▁교통부
▁기숙사
▁1848
▁츄
거스
row
▁볼트
▁수로
▁뉴캐슬
ㄱㅜ
▁모욕
▁무과
▁서태
▁탄약
▁부총리
▁onlyinclude
찌르
▁TR
▁문집
▁하행
▁마이어
▁댄서
▁티아
▁포털
▁공휴일
▁깜
지부
화문
▁로얄
▁해태
▁해피
▁악보
▁재팬
프랑크
▁간신히
▁여의도
▁라르
▁매킨
▁사쓰
▁오만
▁우한
▁익숙
▁추억
▁튀니지
▁카스티야
uc
애미
정동
▁급여
▁김광
▁절벽
▁토트
▁해독
▁대니얼
▁라이더
▁브레이
▁마이애미
▁프랑스령
나마
의사
lay
▁보령
▁셀레
▁재일
▁대승불교
▁볼로
▁음절
▁레이더
▁우루스
▁일본국
▁지상파
ous
▁남군
▁비토
▁여사
▁유식
▁천주
▁페트로
▁고인돌
▁도래
▁무안
▁병자
▁양심
▁종군
페스트
▁국제법
▁법원장
▁정치학
▁치카
▁특화
파니아
▁무찌르
▁바그너
▁부딪히
▁스타트
ows
▁사민
▁인칭
▁코리
▁한중
olog
▁국한
▁랴오
▁조인
▁클라우
▁관현악단
메니
▁공대
▁교의
▁굴절
▁산둥
▁클러
▁SNS
▁명확히
▁시멘트
▁EM
▁가혹
▁비정
▁업자
▁워즈
▁Bla
▁시코쿠
▁정거장
▁제위
해살이
▁그랜트
▁지배자
▁경복
▁공성
▁로키
▁리카
▁부평
▁보수주의
▁모건
▁안개
▁API
▁카메룬
▁어시스트
▁줄기세포
히사
▁김인
▁비대
▁황색
▁에이즈
OP
브로
▁단결
▁류큐
▁방대
▁선명
▁항체
클리드
▁마법사
▁저지대
도라
▁가쿠
▁평지
▁대리인
▁제우스
orn
▁명소
▁부다
▁연립
▁아이즈
▁at
▁거란
▁문단
▁숙부
▁총격
▁케르
▁131
az
ann
▁사수
▁안방
▁용액
▁적료
▁하노버
▁쾨
▁글꼴
▁마테
빌라이
▁대나무
▁고로
▁귀신
▁종양
▁NASA
▁Your
▁욱
▁쪼
서스
칼리
▁메일
▁모빌
▁서귀
▁전한
▁점포
▁지법
▁레드삭스
시노
▁검거
▁베어
▁하코
메이카
▁헤어지
▁자메이카
▁녕
▁BC
▁동산
▁선봉
▁신곡
▁지석
▁곶
▁공영
▁기와
▁남방
▁재편
▁영화상
▁제이슨
▁1883
▁대마
▁설문
▁항우
드리아
▁OST
▁ref
▁정보원
▁u
른스트
▁몰아
▁사림
▁수식
▁오디
▁초콜
▁탄자
▁한신
▁라파엘
▁계주
▁도키
▁부합
▁방사능
▁줄리아
▁텍사스주
지아
▁골격
▁모범
▁연희
▁응급
네그로
레스트
▁날아가
▁부상자
▁교향악단
으로
▁다툼
▁쌍대
▁중엽
▁관상
▁동진
▁식스
▁혼다
▁그라운드
80
관계
▁근사
▁기세
▁다듬
▁무작
▁속력
▁진로
▁대단히
▁패러디
▁간략
▁대좌
▁삽화
▁코소
▁피리
▁대법관
▁비서관
▁연구회
▁가우
▁유공
▁형벌
▁에스페
▁판소리
▁노르망디
▁프로그래머
▁메스
▁병마
▁본뜨
▁전보
▁편견
▁하남
▁프란치
▁tv
▁가토
▁산요
▁온난
▁유우
▁자명
▁고분군
▁뫼
▁도박
▁야외
▁우산
▁절감
▁최진
▁카네
▁경위
▁녹화
▁니키
▁실증
▁쿠빌라이
▁Ge
▁노면
▁단군
▁이터
▁만화가
▁라바
▁리마
▁콘솔
▁큐브
▁에이전
▁이용객
▁파일럿
▁해상도
센스
합성
ern
▁공무
▁리즈
▁봉인
▁소외
▁열전
▁월터
▁위구르
▁토마토
▁GM
▁RP
▁유생
▁해안선
▁야마가타
▁콥
▁안나
▁평판
▁함량
▁성동
▁요절
▁은혜
▁카마
▁1882
▁Wind
▁촛
버른
▁가중
▁고흥
▁북군
▁타락
▁체인지
40
▁고노
▁기전
▁꺼내
▁부왕
▁스루
▁조교
▁슈퍼컵
▁봇
워스
제품
프턴
▁거성
▁기량
▁덮개
▁받들
▁세습
▁송파
▁최선
스트리
▁Day
▁다이어
▁스칼라
ink
▁간사
▁권역
▁모세
용차
포시
▁가고
▁관례
▁친족
▁후진
▁올리브
▁원산지
CC
토프
▁고생
▁몰타
▁발상
▁엔드
▁데니스
▁유서
▁학력
▁가솔린
▁아이언
▁중소기업
II
▁FK
▁SA
▁국외
▁라디
▁수위
▁우시
▁정월
에고
▁RS
▁ㅅㅕ
▁내일
▁루키
▁배분
▁범하
▁상어
▁아날로그
교통
돌이
▁수다
▁왕궁
▁항원
▁단체전
▁통신사
▁단정
▁조셉
▁대표자
치히
▁무섭
▁사영
▁아목
▁주선
▁앗
▁관악
오르크
▁Sch
▁연장전
▁관목
▁국교
▁제천
▁플러
▁헬레
▁330
▁공화정
▁미스터리
▁단속
▁요양
▁재래
▁직속
▁해운대
▁시즈오카
서니
▁강당
▁급증
▁딜런
▁상록
▁최영
▁경주시
▁노벨상
▁선진국
▁예컨대
▁전반기
▁카스트
▁관계없이
▁브루클린
데라
▁결사
▁멋지
▁시안
▁정정
▁지극
▁미토콘
▁미토콘드리아
▁고의
▁배달
▁씨족
▁위로
▁사로잡히
게스
여객
▁부교
▁위조
▁파벌
▁협업
▁후예
▁지붕돌
▁파푸아
▁필립스
▁호스트
▁도네
▁산시
▁성원
▁자수
▁장덕
▁주창
▁북유럽
▁휴게소
갈리
본부
▁사학
▁외래
▁레오폴
▁사업소
▁제갈량
▁테네시
▁세련
▁정은
▁new
▁단말
▁붙잡
▁빙하
▁소프
▁어기
▁콜럼
▁영원히
▁4000
▁수열
▁멜버른
▁부르주
▁유클리드
융합
▁동포
▁라미
▁램프
▁영덕
▁타수
▁대상자
▁컨테이너
OT
▁규탄
▁번창
▁보름
▁염려
▁베이커
▁안티오
팡이
▁OB
▁넬슨
▁베풀
▁사치
▁어파
▁회귀
▁산티아
▁괌
▁몹
ㅇㅏ
▁과테
▁제단
▁피핀
▁할인
스탄불
▁1868
▁과테말라
▁사이타마
▁이스탄불
▁Or
▁남하
▁랭크
▁일각
▁조슈
▁중공군
▁핵융합
▁Girl
▁동적
▁국정원
▁앙골라
US
▁밝혀
▁보루
▁선대
▁얽히
티모어
▁군사력
▁스캔들
▁메릴랜드
▁컨트롤러
▁서면
▁잠깐
▁요충지
▁냥
▁신입
▁종영
▁태후
oll
▁겨루
▁발동
▁파시즘
▁몬테네그로
ㄷㅐ
협회
▁객차
▁노사
▁범행
▁표정
▁주계열
▁군벌
▁충렬
▁형편
▁우의정
▁폐기물
▁사회민주당
▁버터
▁기념일
히드
▁대인
▁사안
▁청도
▁이바지
▁고트
▁농지
▁부파
▁사천
▁양보
▁트이
▁하의
▁항로
펜하겐
▁밝혀내
▁프랜차
▁코펜하겐
▁colspan
▁배리
▁전수
▁천수
▁독수리
▁너머
▁노후
▁영암
▁영월
▁오아
▁저조
▁ㅅㅕㄴ
▁급속히
▁신주쿠
▁히브리
지리
▁다우
▁우왕
▁우월
▁320
▁김옥균
▁너무나
▁오스틴
▁커리어
▁프란시스코
▁위촉
▁차선
▁카세
▁요하네스
▁강행
▁교직
▁뒤이
▁법관
▁성산
▁식용
▁장병
▁초안
▁추서
▁라인업
▁베르나르
▁아케이드
해자
▁대청
▁러일
▁사비
▁아유
▁족보
▁카툰
▁end
우에
▁준장
▁헌장
▁수요일
▁효고현
다운
당기
호란
▁대덕
▁밀레
▁양수
▁이메
웨이트
디나비아
▁야마모토
▁사운드트랙
▁암스테르담
▁프랜차이즈
▁스칸디나비아
바오
▁소아
▁외과
▁외형
▁청계
▁타리
▁사이먼
▁오일러
▁상국
▁은신
▁정령
▁치하
ㄲㅡㅁ
▁슌
▁끊기
▁이항
▁종신
▁증폭
▁컨설
▁좌의정
gin
▁DF
▁거처
▁대도
▁복종
▁샤프
▁절제
▁축산
토리코
▁LED
▁무실점
▁자서전
▁게오르크
꼬리
▁by
▁도상
▁우연
▁출동
▁피치
▁로마자
▁니콜라스
공주
▁자재
▁직행
▁타일
▁피드
▁산티아고
▁코스타리카
▁찢
▁고온
▁교부
▁네티
▁문종
▁전세
▁타로
아다니
▁브뤼셀
걸이
▁시비
▁위력
▁치유
▁서해안
▁어웨이
▁천안시
▁헤이안
▁에른스트
▁렛
니파
단지
셀러
amp
▁내분
▁동향
▁조영
▁데이브
▁리믹스
▁시트콤
▁육군사관학교
LA
계승
웍스
▁양대
▁법조인
▁함경북도
▁놈
▁각료
▁금전
▁김선
▁노아
▁능동
▁성악
▁순차
▁습관
▁증오
▁호아
▁발전기
▁텔레콤
▁푸에르토리코
어넣
익스
▁거지
▁망치
▁서주
▁슈테
▁스콜
▁정몽
▁주성
▁데려가
▁유학자
RT
▁갯
▁결핵
▁공안
▁모차
▁브릿
▁아흐
▁정반
▁복음주의
▁내무
▁칭송
▁포르노
▁쿠웨이트
▁맬
▁김윤
▁박성
▁분사
▁압록
▁이우
▁잔인
▁폐렴
▁피크
▁펠릭스
▁1893
▁늪
북구
▁리튬
▁안무
▁측량
▁켄트
▁서사시
▁위안부
▁윗부분
▁여성주의
▁김승
▁문무
▁이회
▁정재
▁출자
▁코네
▁203
▁280
▁IOC
▁결과물
▁장로교
▁가고시마
▁루이지애나
gr
나기
▁백악
▁영천
▁천마
▁편향
▁학장
▁해왕
▁후유
퍼레이션
▁이탈리아어
게임
세유
▁le
▁배드
▁수량
▁유족
▁이황
▁점거
▁축전
▁함흥
▁탄자니아
▁Fe
▁리코
▁척도
▁첼로
▁퍼즐
▁화장품
OW
려들
▁생리
▁심포
▁온화
▁전학
▁접종
▁조제
▁하타
▁한번
▁흡사
로이드
▁교육자
▁도자기
▁국철
▁배양
▁원활
▁차츰
▁천천
▁충무
▁민병대
▁트리오
▁해안가
▁마이크로
상시
ung
▁관우
▁긴밀
▁선인
▁소대
▁전락
▁주심
▁짐승
▁집착
▁톰슨
▁로베르
▁부르고
몬트
화학
▁Mo
▁금동
▁레프
▁이아
▁톱니
ㄹㄹㅏ
▁그만큼
▁서초구
▁유적지
les
▁김치
▁헤로
▁톡
▁고집
▁라카
▁박상
▁우두
▁한큐
▁노미야
▁Comp
▁NP
▁관성
▁대종
▁도우
▁분단
▁조니
▁한문
라이드
▁가라앉
▁데일리
▁비스타
▁아라곤
▁천천히
▁후쿠오카현
독립
▁불경
▁칼슘
▁헌터
▁동맹국
▁아우르
▁김천
▁데드
▁Univers
레드
티에
▁마타
▁미성
▁버섯
▁아츠
▁앤디
▁플랑크
▁Rock
▁바울
▁하급
▁도야마
▁스포르
▁컬렉션
aw
▁끓이
▁주세
▁탈취
▁강화도
▁녹색당
▁불계승
▁철저히
▁픽처스
▁레인저스
▁덥
▁핏
eth
▁간직
▁노랑
▁에마
▁전미
루이스
▁Car
▁TBS
▁동맹군
▁격려
▁과시
▁도이
▁도출
▁림프
▁버러
▁아메
▁장녀
▁촐
▁Am
▁공양
▁심부
▁휴양
▁발사체
▁초콜릿
▁도카이도
▁라흐
▁우울증
▁미나모토
▁참모총장
oth
▁격하
▁애인
▁오하
▁월트
▁페더
익스피어
들러
업자
▁라즈
▁비지
▁시속
▁자진
▁점검
▁황산
▁Rec
▁셰익스피어
▁갚
▁AB
▁사귀
▁소사
▁심상
▁현판
▁후하
▁GNU
▁베르타
▁순양함
▁에스페란토
▁대차
▁명인
▁에로
▁Sup
▁고려대
▁인공위성
▁플로리다주
폭탄
▁강진
▁까마
▁낚시
▁노프
▁당뇨
▁미츠
▁230
▁로스쿨
▁스탠리
▁from
▁부르고뉴
▁핼
▁막판
▁무단
▁사상가
▁케이크
ublic
▁유영
민스터
▁게오르
▁마르세유
▁상관없이
▁중앙은행
국적
▁구독
▁서스
▁이범
▁지바현
▁가와사키
▁귀속
▁기쁨
▁마트
▁바비
▁스킴
▁카레
▁파편
▁서바이
▁프리스
▁가르시아
▁IV
▁굳히
▁반동
▁상정
▁심문
▁피사
▁향기
▁Do
▁대진
▁스투
▁기업가
▁물려주
태평
트르
헤드
▁가부
▁구치
▁네모
▁미아
▁배역
▁울릉
▁밀려나
▁1888
▁율리우스
유사
▁견고
▁구금
▁발목
▁청량
▁청송
▁특사
▁페오
▁로빈슨
▁쇠고기
▁시우
▁운임
▁경계선
▁노스캐롤라이나
그마
바리
▁Su
▁닉슨
▁백자
▁슈타
▁용품
▁유포
▁흥분
▁로이드
▁세비야
▁이바라
▁하이퍼
AI
▁끼우
▁대접
▁배기
▁아와
▁수나라
▁펠리페
▁꾸리
▁명부
▁산수
▁조롱
▁국제선
▁평안도
▁휘말리
▁Sw
▁대주
▁메틸
▁사키
▁성기
▁글래스
▁애덤스
▁ar
▁붕어
▁사커
▁입헌
▁재차
▁1892
▁공법
▁시문
▁에바
▁다이빙
▁산스크
▁박테리아
▁산스크리트
▁푹
▁동종
▁리차
▁매달
▁코사
▁수차례
▁프로모
▁허드슨
▁우에스기
▁깁
홍색
▁유무
▁제창
▁제철
▁펠트
▁다카라
▁대전차
▁소학교
▁절도사
▁케이트
▁러시아군
둘기
자동
▁낙양
▁농축
▁새뮤
▁연회
▁대명사
▁문자열
▁자라나
▁쫓아내
비크
▁모던
▁물결
▁미식
▁사변
미디어
▁대공국
암리
연수
티노
▁계량
▁니켈
▁산청
▁어의
▁온대
▁재발
▁스테판
▁데스크톱
▁펩
▁고스
▁데미
▁웃음
▁자립
▁공방전
AE
보리
▁wh
▁군데
▁납부
▁라드
▁옥타
▁재앙
▁주먹
▁해병
▁레이디
다오
▁공시
▁나뭇
▁자코
▁직계
▁하임
▁볼로냐
▁앤서니
▁CG
▁IR
▁선양
▁완도
▁위계
▁조개
▁카야
▁더블린
▁북조선
▁차세대
▁활동가
▁프레임워크
▁강성
▁불사
▁생모
▁중고
▁관현악
▁사간원
▁스탠드
▁조선왕
ah
▁복싱
▁소동
▁순례
▁지난
▁침례
▁토이
▁필하
▁논리학
▁성매매
▁아브라
▁1866
▁1876
광성
▁간혹
▁손녀
로니아
▁지리학
▁페르난도
▁가면라이더
▁알폰
▁이나
▁이산
▁축성
▁올리버
▁후원자
▁베네딕토
▁프린스턴
▁펫
너드
▁노랗
▁로브
▁세레
▁이봉
▁장래
▁전권
▁고려사
▁보좌관
▁서기관
▁세네갈
▁1886
▁굶
▁뱃
▁씻
네트
뮬러
사태
▁군관
▁원유
▁파파
▁Gre
▁USB
▁전주시
▁알렉산드로스
네임
로쿠
▁도르트
▁헤라클
▁웨스트민스터
EST
▁대금
▁두각
▁미미
▁애초
▁저우
▁채색
▁통폐
▁펴내
르타뉴
▁구스타프
▁브르타뉴
▁베이시스트
분열
▁co
▁바시
▁반주
▁포탄
▁풍습
▁교구장
▁브래드
▁생리학
▁이즈미
철수
▁소용
▁송환
▁아디
▁정진
▁죄수
큐어
▁거룩
▁번갈
▁부양
▁수력
▁앨리
▁임계
▁초전
▁파커
▁펀드
▁합천
▁드미트리
▁덱
▁댓글
▁발의
▁서예
▁조소
▁260
▁바이어
▁사단장
▁조나라
▁인플레이션
직경
코르
▁긴키
▁마나
▁신진
▁얼룩
▁Tour
▁뮐
다보
라르
레시
▁깃털
▁마린
▁면모
▁270
▁게시판
▁덩어리
▁새뮤얼
▁시직경
▁장제스
▁코소보
▁펭
▁너스
▁맥아
▁간사이
▁경영학
▁보살상
▁스테인
우회
ron
▁음운
▁일진
▁퇴위
▁현과
▁독립군
▁사절단
▁당황
▁도하
▁아자
▁유다
▁잘리
▁제르
▁금나라
▁삼각주
▁1887
▁꽂
▁부류
▁비우
▁약점
▁유능
리카락
▁축구팀
▁통폐합
▁머리카락
▁집행유예
꿈치
▁도약
▁위패
▁포츠
▁강서구
▁이어주
▁카운트
▁페미니
라호
▁수하
▁출혈
▁프루
▁Wii
▁화요일
▁브리티시
슈타
왕후
ave
▁ML
▁경무
▁도제
▁박수
▁산물
▁원상
▁코호
▁펠로
▁서포터
▁용의자
▁유전학
▁도미니카
쓰기
지오
클라
ble
▁본체
▁엘런
▁오산
▁조현
land
▁근거지
▁역사학
▁마르쿠스
19
▁단조
▁동창
▁레트
▁자궁
▁표하
▁부분군
▁1861
▁모차르트
제비
코타
▁고창
▁배척
▁살라
▁재단법인
▁Dream
비안
▁Up
▁it
▁도성
▁망하
▁버크
▁중개
▁직사
▁행방
▁단거리
▁KB
▁무수
▁여타
▁베이비
▁사쓰마
▁주니치
▁프리미엄
하임
▁모라
▁편안
▁Life
짜기
▁SV
▁악곡
▁유머
▁유타
▁타구
▁물류
▁완결
▁형용
▁해결책
▁황해도
▁볼티모어
▁석가모니
▁클레멘스
▁가닥
▁모닝
▁세분
▁에리
러뜨리
▁민영화
▁1864
▁기밀
▁불분
▁수이
▁왕관
▁이호
▁지아
▁나름
▁박자
▁오대
▁데이빗
▁쏟아지
▁장애물
▁좌표계
콘신
ult
▁구문
▁급히
▁세무
▁슬램
▁승단
▁오메
▁장전
▁백악기
▁신세계
▁음악원
▁불러들이
▁스트리밍
▁위스콘신
DA
즐리
▁교지
▁라시
▁익명
▁공연장
▁후세인
▁SH
▁과연
▁내포
▁사하
▁에두
▁올레
▁포화
▁환관
▁당선자
플린
▁광선
▁꺼리
▁모국
▁홀딩
▁집정관
▁프랑코
▁홈경기
▁다카라즈카
열차
▁RT
▁발톱
▁습득
▁지면
솔리니
▁ㄹㅓㄴ
▁아무리
▁코스트
▁남베트남
▁ㄴㅛ
▁마구
▁양현
▁페스
▁평탄
▁홍성
▁바로크
▁1850
▁TC
▁과잉
▁사내
▁슬프
▁위시
▁천지
▁특기
▁모나코
▁마을버스
▁카르타고
ational
▁실각
▁암모
▁오일
▁잔디
▁정예
EP
▁렙
▁철강
▁추존
▁허블
ition
▁1881
디슨
orm
▁고모
▁레버
▁무자
▁승하
▁어우
▁촛불
▁쿼크
▁뛰어넘
▁생성물
▁컨텐츠
▁행정동
브웨
▁경건
▁리트
▁만점
▁자릿
▁증세
▁착하
▁파직
▁하얀
▁홈즈
바도르
▁네티즌
▁보너스
▁참의원
▁토트넘
▁구례
▁몰두
▁복위
▁워킹
▁짐바
▁개정안
▁사나이
▁싹
동자
▁건네
▁마요
▁백업
▁스모
▁토목
▁혼혈
▁히토
▁요금소
▁카이로
▁if
▁관내
▁노동력
▁사들이
▁객원
▁다행
▁리에
▁삼척
▁푸아
▁대교구
▁휘두르
▁크리에이
ton
▁괘불
▁근래
▁여건
▁차수
▁카와
▁유니버스
▁Music
▁프란치스코
▁돗
린트
예술
▁en
▁군세
▁도산
▁외환
▁잠실
▁1830
▁루스벨트
▁방공
▁산기
▁아타
▁에반
▁이력
▁재결
라호마
▁도라에몽
▁컴파일러
▁오클라호마
니오
뛰기
▁공판
▁구획
▁뷰티
▁자판
▁무작위
▁외무부
렌스
▁동차
▁쓰루
▁예의
▁요괴
▁재판관
아메리카
▁AG
▁계보
▁남조
▁더하
▁말단
▁부풀
▁소라
▁아쉽
▁코난
▁가해자
▁대표단
▁로맨틱
▁아카이
▁XP
▁매진
▁민물
▁스몰
▁오우
▁왕성
▁판관
▁관련자
▁재판부
▁화성시
▁미네소타
화경
▁눈치
▁뒤늦
▁러닝
▁전리
▁침대
▁패권
▁헌납
ㄴㄷㅔ
▁iOS
른베르크
▁강세
▁승지
▁아편
▁이별
▁황자
ject
▁보안법
▁장난감
▁경도
▁목욕
▁미상
▁벌레
▁스윙
▁재벌
▁파주
▁현미
▁마르셀
▁야구단
▁헤라클레스
▁고하
▁남송
▁다비
▁편하
▁반대파
▁압록강
▁여학생
▁세르게이
평리
▁익산
▁팔작
▁까마귀
▁불분명
라이어티
▁버라이어티
림사
ION
▁Ed
▁김희
▁당진
▁딸리
▁세간
▁스기
▁엿보
▁파열
▁돋보이
▁1872
▁Open
타입
▁경매
▁마티
▁발포
▁별장
▁애슬
▁정황
▁찍히
슬라프
▁농어촌
▁바람직
▁이메일
달마
비오
▁DR
▁관용
▁금고
▁루나
▁몸돌
▁빅뱅
▁알맞
▁양조
▁이누
▁켄터
▁쿠로
▁감리교
▁모멘트
▁이시카와
▁an
▁체하
▁주나라
께끼
▁닛산
▁발자
▁시원
▁신봉
▁용사
▁이은
▁조경
▁흑백
▁750
▁합창단
▁수수께끼
▁트레이닝
덕왕
▁te
▁승상
▁조심
▁종묘
▁종업
▁트란
▁라치오
▁무솔리니
▁유라시아
어드
▁BL
▁교동
▁베일
▁음주
▁인제
브리드
▁다비드
▁라이스
▁롬바르
▁피닉스
▁대중교통
▁부다페스트
▁등등
▁배트
▁부전
▁여호
▁원동
▁콘티
▁햇빛
▁허목
▁센다이
▁초록색
▁낭만주의
▁기고
▁양면
▁전교
▁접합
▁주고
▁하얀색
▁화학자
▁대한항공
▁꿰
나파
더지
데자
ics
▁경량
▁꼬마
▁레비
▁레아
▁모란
▁브렌
▁샤이
▁중랑
▁Don
▁세군다
▁아이콘
데자네이
ru
쿠니
▁가든
▁교제
▁삭스
▁생도
▁탄산
▁범죄자
▁호크스
▁부르주아
▁도봉
▁두어
▁반죽
▁발산
▁복역
▁야망
▁티모
ㅌㅇㅣ
▁청년회
▁파충류
▁ㄱㅏㅌㅇㅣ
▁도르트문트
▁엡
바인
ier
▁대강
▁배향
▁순항
▁옹주
▁의용
▁탐험가
▁하이브리드
▁튼
번에
▁"-
▁Ab
▁Sm
▁가독
▁그란
▁보정
▁복직
▁오트
▁장쑤
▁지경
▁챙기
▁개체군
▁1863
▁납작
▁넥센
▁이례
▁친밀
▁필연
태평양
▁계승자
▁박영효
▁작품상
▁1865
▁쵸
워즈
클럽
▁변종
▁의례
▁캐피
▁투하
▁밀가루
▁항아리
▁HTML
단위
루크
▁과다
▁닌자
▁단국
▁덴쇼
▁슈고
▁격투기
▁다시금
▁챌린저
리쿠
매김
▁발하
▁탐정
▁페라
▁편제
▁피카
▁유전체
▁공군기지
▁기통
▁당과
▁피셔
데자네이루
▁Night
▁리우데자네이루
리야
ode
▁곱셈
▁선율
▁조시
▁경복궁
▁시간대
▁유니언
▁메우
▁봉황
▁어촌
▁작년
▁처방
▁코마
▁승정원
▁1891
▁교통사고
▁아이디얼
▁거꾸
▁경마
▁이니
▁진흙
▁클릭
▁태아
▁우간다
▁타임즈
▁오카야마
훈장
ool
▁매스
▁메츠
▁조공
▁철종
▁ret
▁고성군
▁기획사
▁발기인
▁조선소
▁켄터키
▁곡면
▁살짝
▁애완
▁완비
▁취향
리아스
▁앞세우
▁앤드류
▁여진족
▁자리매김
▁베스트셀러
TE
▁AL
▁대목
▁잠기
▁카슈
▁포대
▁세계유산
▁짐바브웨
타스
▁경지
▁구슬
▁란스
▁배아
▁법전
▁청문
▁픽셀
▁휩싸
▁안산시
▁해석학
▁1873
QL
UC
친왕
▁--
▁대의
▁미인
▁요즘
▁받침돌
▁자유형
▁오스트리
▁려
ise
▁두텁
▁루즈
▁벌리
▁시진
▁직관
▁해킹
▁후미
올로기
▁수시로
▁이데올로기
▁쩔
▁반점
▁여대
▁코뮌
▁혈압
이스케
▁몰도바
▁구강
▁리브
▁매립
▁박진
▁상파
▁쇼크
▁파기
▁노르드
▁다국적
▁릴레이
▁온타리오주
ai
▁샨
ㅇㅜ
쿠르
▁NS
▁도도
▁마모
▁조장
▁와이드
▁제너럴
▁테무르
▁포항시
미쓰
스레
▁고난
▁단자
▁왓슨
▁입시
동맹
che
▁계좌
▁굴복
▁등단
▁부실
▁비키
▁재고
▁충당
▁킹스
▁승용차
레반
▁고마
▁내재
▁신대
▁열렬
▁정명
▁필두
stem
▁Black
▁MA
▁어는
▁자켓
▁착취
▁한창
▁현무
부아르
▁난이도
▁발가락
▁시티즌
▁팔작지붕
ㄱㅓ
린더
▁리키
▁촉발
▁합금
플렉스
합중국
▁제프리
무제
▁걸작
▁급하
▁반항
▁부추
▁인위
▁입술
▁튼튼
▁Can
▁공통점
▁백악관
▁선제골
세다
▁과격
▁교서
▁국호
▁라크
▁리자
▁적발
▁해시
ower
▁슬로건
▁믈
▁분경
▁외상
▁페인
70
성경
킨슨
▁PM
▁계엄
▁라면
▁모함
▁버펄
▁볼넷
▁불로
▁체내
▁키즈
▁헤어
▁공식전
▁매달리
▁Good
▁스테이트
▁야쿠르트
▁section
NG
▁괜
▁샵
▁켜
바지
▁광배
▁서위
▁아뢰
▁양양
▁조준
▁최장
▁토유
▁하스
▁헌병
▁그나마
▁삼국유사
▁네임
▁문정
▁신의
▁유태
▁토로
▁다마스
▁트로트
▁아비달마
▁이바라키
▁구시
▁기쁘
▁당당
▁병과
▁산책
▁양궁
▁위법
▁증강
▁터빈
▁파랑
선거구
▁550
▁종업원
▁qu
▁부에
▁야심
▁에치
▁용감
▁을사
▁이강
▁Let
▁거꾸로
▁간판
▁머니
▁오즈
▁캐논
▁캐스트
▁1862
▁q
펠러
▁El
▁현도
스코트
타나베
▁650
▁국민회
▁하반기
▁MM
▁국부
▁산신
▁소작
▁연화
▁우마
▁채굴
▁피어
드라마
▁아오모리
▁이노우에
▁피츠버그
▁코호몰로지
ank
▁광자
▁극찬
▁아델
▁진원
▁반정부
▁앨버트
▁지자체
▁1867
▁페르디난트
▁삐
▁콧
▁AI
▁조어
▁진언
▁705
▁용산구
▁무로마치
▁미합중국
방군
▁경은
▁모반
▁주저
ings
▁김성수
▁알폰소
▁자외선
▁댈
티야
▁농성
▁맞춤
▁무도
▁앵커
▁온건
▁투신
▁활자
해살이풀
ㄹㅜ
▁수퍼
▁해지
▁황폐
▁흔들
▁경희대
▁미카엘
▁변광성
▁증조부
▁폼페이
상어
정사
진구
▁송진
▁증발
▁흡연
리언
▁무고
▁연행
▁스테이
▁엑스포
레타리아
▁국민학교
▁프롤레타리아
▁AU
▁통지
▁손잡이
▁스코어
▁사이타마현
DS
▁사교
▁세단
▁스킬
▁열쇠
▁조서
절도사
고르
대전
렐라
▁Ac
▁병단
▁엘라
▁증식
▁타도
▁서두르
포타
▁옥시
▁전멸
▁IMF
▁레인저
▁사보이
▁취리히
▁크루즈
▁타이탄
▁신한은행
투르
활약
▁광업
▁대담
▁독주
▁온두
▁코모
세우스
▁MSL
▁노르만
▁언론사
▁온두라스
북면
센터
▁노브
▁성수
▁심정
▁양군
▁예종
▁완수
▁쿠라
▁페드로
▁캣
비언
인구
▁걸프
▁꽃잎
▁나사
▁보직
▁위헌
▁장신
▁푸드
▁맹활약
▁연출가
포타미아
▁조선왕조
▁메소포타미아
▁LS
▁군자
▁나탈
▁북벌
▁연달
▁캐치
▁키릴
▁감염증
▁출입문
▁6000
▁빠져나가
▁썩
조리
lar
▁UC
▁서한
▁잔존
▁처치
▁충칭
▁곁들이
▁사무국
▁일본식
▁편집장
▁라이프치히
tr
곡면
▁-&
▁간결
▁엘레
▁기원후
▁궐
할린
▁기묘
▁동탁
▁버진
▁세토
▁신해
▁유구
▁조석
▁연주회
▁컴파일
▁타타르
▁1878
▁다이노스
▁협동조합
ky
▁시역
▁유망
▁치이
▁갈아타
▁치료제
참찬
▁서지
▁씌우
▁대리석
▁웨이브
▁제조사
▁프로모션
▁낡
사화
위치
퉁이
▁Qu
▁국력
▁동자
▁번개
▁유림
▁저축
▁차림
▁필명
rist
▁부여군
▁사대부
▁백과사전
▁미나모토노
ta
▁밋
디언
젤로
▁가극
▁강호
▁상선
▁이끼
▁마그네
▁신기록
▁홀딩스
hem
▁ㅁㅗ
▁괄호
▁작중
▁절약
▁접전
▁지그
▁처장
▁충신
▁HMS
▁Ser
▁이성질
▁개기
▁당파
▁스톰
▁자행
▁직교
▁하중
▁비스마르크
▁뵈
▁샴
▁팍
빌리
▁바쿠
▁사드
▁히노
플로러
▁802
▁건륭제
▁뉴기니
▁주고받
▁익스플로러
ee
산부
▁변모
▁옥천
▁완만
▁자부
▁중용
▁횡령
▁글로브상
▁일리노이주
▁킷
루엔
▁무너
▁부군
▁일설
▁지린
▁지탱
▁참패
뉴기니
▁입법부
▁플루토
▁핵분열
▁무너뜨리
▁팻
▁가물
▁국인
▁시르
▁후드
▁And
중추부사
▁스케이트
▁널
벤션
▁급성
▁다량
▁라다
▁매도
▁매슈
▁스에
▁애기
▁영사
▁용해
▁행군
▁액세스
▁플러그
▁되돌아가
일치
▁tr
▁과자
▁도발
▁변증
▁적정
▁정박
시아드
▁와세다
▁1869
▁고등학생
다스
시게
▁고찰
▁길드
▁보류
▁서점
▁잉크
▁참수
▁표출
▁무사히
▁자릿수
▁포뮬러
▁프로테
▁프라이즈
▁유니버시아드
누마
다발
▁Ag
▁오보
▁회유
▁마포구
▁업로드
▁페르미
셔주
▁가비
▁육식
▁점진
▁특별법
▁해부학
▁와타나베
▁코퍼레이션
▁솔라
▁청각
▁현악
▁봉우리
▁아이젠
▁쿠르드
▁프리츠
내티
▁객실
▁다목
▁소피
▁저해
▁형주
▁ㄹㅏㄱ
▁수비대
▁원자핵
▁이브스
▁신시내티
▁키르기스
▁면직
▁벵골
▁잔해
▁방위군
▁베르나
▁밧
▁로시
▁몸체
▁북대
▁직물
▁추후
▁포천
▁경쟁자
▁1592
▁명성황후
▁요리토모
정보
▁맛보
▁부두
▁서거
▁텍스
▁패킷
▁포탑
▁표절
▁안동시
▁외교부
ae
▁썬
▁강우
▁고국
▁고을
▁근방
▁영유권
▁인지도
▁친선경기
▁AA
▁기조
▁목동
▁부관
▁성품
▁일선
▁항생
▁기동전
▁운동량
▁인코딩
▁장로회
수염
▁SO
▁무색
▁골짜기
▁생화학
▁프라임
▁탬
암사
▁글렌
▁논산
▁무비
▁손님
▁수당
▁시시
▁오자
▁위도
▁이목
▁치사
▁피처
ount
▁부등식
▁사생활
▁수도회
▁제작진
세르
▁대타
▁루피
▁사부
▁축일
▁콜드
▁행보
▁오스카
▁지하역
▁크리스티나
▁금색
▁빈민
▁수레
▁자처
▁지체
▁컴필
▁스파이더
▁후지와라
▁컴필레이션
▁그거
▁모티
▁박원
▁반입
▁쫓기
▁토라
▁헤더
▁로타르
▁며느리
▁팔꿈치
네르
티컷
▁그물
▁토키
▁폴라
▁금강산
▁여객기
▁코네티컷
노르
ata
▁RC
▁용수
▁자정
▁목적지
▁불가피
▁Song
▁마스코트
▁힐베르트
▁로드리게스
구스
▁단역
▁린다
▁민심
▁사소
▁아어
▁유화
▁지문
가르트
▁Mon
▁1840
▁파시스트
▁여우원숭이
pr
▁귀인
▁내란
▁상의
▁위즈
▁캐슬
▁516
▁레지스터
마디
자원
▁me
▁고제
▁병풍
▁분별
▁빅터
▁수급
▁하라
▁헤겔
▁헤일
스타인
▁리차드
▁연예계
▁유년기
▁랙
ade
per
▁닉스
▁디나
▁추축
▁네이트
▁창립자
▁프랑스와
▁아나톨리아
▁return
▁볶
블릿
▁KN
▁가방
▁다쓰
▁블러
▁소박
▁심소
▁자취
▁출국
▁하수
▁사이언스
▁에이전트
▁Heart
효소
▁공상
▁국화
▁입출
▁절친
▁풍기
▁유엔군
▁종착역
▁매킨토시
▁심리학자
▁지장보살
작전
히메
▁ab
▁벤츠
▁유이
▁쿼터
▁글러브
▁히타치
▁Pe
▁발착
▁숙소
▁유골
▁유자
▁탁구
▁튜브
▁티저
변속기
▁바닷물
▁테크놀
▁파주시
▁필사본
사우루스
90
BI
찬성
▁거창
▁국세
▁바쁘
▁변질
▁상식
▁성가
▁영미
▁자질
▁전단
▁출세
▁시니어
▁예언자
▁패스트
▁와카야마
▁Windows
▁펜실베이니아주
▁낯
▁계룡
▁농가
▁란트
▁영수
▁천상
ㅇㅡㄴ
이치로
▁과반수
▁스트림
테랑
▁겸직
▁넘버
▁라라
▁암수
▁여포
▁이카
▁강력히
▁나치오
▁보유자
▁어도비
▁벳
날드
ium
▁거사
▁상과
▁수만
▁쌍성
▁염화
▁자루
▁패망
▁구단주
▁지질학
▁영등포구
▁강인
▁단서
▁백조
▁성대
▁청취
▁최하
▁퀴즈
▁그래도
▁8000
▁그린란드
▁남아시아
IX
부시
▁PL
▁괜찮
▁라프
▁바인
▁스택
▁온실
▁적십자
▁알프레드
▁세인트루이스
IF
▁Gl
▁기행
▁악명
▁오시
▁워스
▁조비
▁초음
▁휘발
▁흥원
▁아우구스
던트
선언
어하
▁권익
▁렉스
▁미학
▁연중
▁윤휴
▁의주
▁세미나
▁휩싸이
계사
넌트
▁베오
▁실상
▁페레
▁떠올리
욕장
전선
히데
▁As
▁동호
▁문중
▁상동
▁중견
▁피살
▁Out
▁뒤따르
▁시미즈
▁안창호
▁헤르만
▁1875
링겐
▁노현
▁능가
▁삭감
▁의복
▁저그
▁준동
▁하구
▁고문서
▁비둘기
▁집단군
▁데카르트
▁Aw
▁끌리
▁바보
▁외척
▁이심
▁엇갈리
▁이와테
▁진주시
▁근본번뇌
수단
탄두
테이
▁가곡
▁반론
▁에트
▁유카
▁맥아더
▁보리스
▁되돌아오
기아
기즈
▁독살
▁볼록
▁숙련
▁왜군
▁웍스
▁임종
▁댈러스
▁운전자
▁기린
▁박히
▁콜린
▁키리
▁관심사
▁나리타
▁예비역
구니
어가
▁VS
▁강습
▁니케
▁수증
▁최남
▁친화
▁침식
▁담당자
▁사이즈
▁회고록
itt
▁들르
▁디바
▁미지
▁설리
▁아다
▁철자
▁파랗
▁혼잡
▁Gen
▁KTX
▁고등교육
이에
▁다름
▁사각
▁선상
▁신지
▁용지
▁월화
▁은밀
▁텐서
▁표제
▁호그
레이트
▁AMD
▁안타깝
▁컨벤션
son
▁sh
▁귀엽
▁규율
▁노원
▁뉴런
▁도적
▁원단
▁이선
▁게임기
▁리스본
▁치료법
▁남양주시
사유
▁걸음
▁김두
▁다자
▁예프
▁위크
▁이희
▁일명
▁징집
▁컵스
▁키드
▁한민
▁아나키스트
▁DB
▁생원
▁어사
▁인승
▁질투
▁타나
▁아세틸
▁통도사
▁파라오
보당
▁교파
▁교훈
▁뒤지
▁로사
▁출품
▁터너
▁해트
▁돌고래
▁북극점
▁친환경
▁칭기즈
▁함경도
세서
▁단양
▁방울
▁시찰
▁여럿
▁잠입
▁표트르
▁모자이크
▁포르투갈어
PA
날레
방향
어류
▁금정
▁셔틀
▁정오
▁직렬
에이고
▁매디슨
▁일부러
▁테오도
크라테스
▁병자호란
▁샌디에이고
▁TS
▁닥치
▁리크
▁목장
▁몹시
▁아노
▁에레
▁의정
▁절충
▁집전
▁취직
▁태안
세데스
▁가환환
▁광둥성
▁다이쇼
▁레스터
▁크메르
▁피의자
▁학술지
▁항공대
▁쳐들어오
▁브란덴부르크
▁땀
알라
▁구루
▁기운
▁로큰
▁문체
▁변혁
▁생쥐
▁서약
▁아지
▁야수
▁어부
able
▁꽃차례
▁스케치
▁뉘른베르크
▁메르세데스
▁눌
▁김연
▁문관
▁실명
▁안중
▁양파
▁원효
▁의성
▁첩보
▁타쿠
▁호른
해방군
▁이사벨
▁장갑차
▁중앙선
▁토요타
▁통신망
▁몽고메리
▁인민해방군
▁달콤
▁바늘
▁서당
▁슈투
▁포인
록대부
▁성폭행
▁신석기
▁연속극
▁채권자
▁클리어
▁디디
▁막강
▁면담
▁버트
▁선체
▁착각
▁체로
▁"()
▁코트디
▁코트디부아르
은사
ale
▁교관
▁양지
▁열세
▁로큰롤
▁바나나
▁비단털
▁쇼핑몰
▁야마다
▁크라운
▁클레어
ng
더링
몽골
▁로바
▁방호
▁배반
▁비료
▁영락
▁외면
▁인먼
▁폐허
루엔자
▁380
▁로버츠
▁슈타인
▁아리랑
스코리아
▁비단털쥐
▁안드로메다
▁저널리스트
촌리
▁기공
▁모질
▁데이트
▁반감기
▁베르트
▁부적절
▁스피커
▁파스칼
놀드
부대
뻐하
▁교화
▁레몬
▁스펜
▁자장
▁특공
▁기뻐하
▁싫어하
엽수
우주
조사
▁기판
▁동거
▁래리
▁일차
▁Par
▁강대국
▁행해지
▁페널티킥
▁KO
▁감기
▁금환
▁라울
▁명상
▁세일
▁수마
▁수은
▁순식
▁708
▁상반기
▁선거인
▁송파구
▁정치국
▁바빌로니아
▁University
박사
크리
행파
▁구아
▁마레
▁서클
▁성행
▁왕래
▁잉카
▁정에
▁향신
▁맥스웰
▁이랜드
▁종사자
▁프론트
▁오프라인
UN
두사
르카
▁가모
▁기마
▁모피
▁보그
▁술라
▁안식
▁야권
▁엔젤
▁예식
▁장정
▁환율
▁ㄹㅗㄹ
▁대항전
▁라이베리아
▁탭
니에
▁모사
▁보우
▁슬리
▁이홍
▁정칙
▁즐거
▁헤센
▁후루
▁ATC
▁Vol
▁합성어
▁관음보살
▁끌어올리
▁보컬리스트
세키
▁At
▁문수
▁사주
▁칸트
▁강희제
▁데뷔작
▁보호법
▁형용사
시대
▁WC
▁경순
▁구세
▁규약
▁모체
▁샤르
▁위트
▁율법
▁중일
▁205
▁사할린
▁콘라트
건설
▁거머
▁데일
▁야코
▁정언
▁조봉
▁활기
very
▁건너오
▁마주치
▁쇼트트랙
▁인플루엔자
쿠사
▁결전
▁경의
▁극소
▁로니
▁미첼
▁보조금
▁슈미트
▁엑스박스
▁조선공산당
▁벙
▁GR
▁JC
▁가명
▁실은
▁획기
▁되풀이
▁캐스터
▁통계청
▁싯
▁텅
연구
▁라벨
▁베티
▁실사
▁외손
▁외할
▁출격
▁치마
▁ᄇㅅㅣ
모음
▁가세
▁등산
▁박용
▁상계
▁시의
▁월남
▁이질
▁토피
▁후한
▁235
▁DOS
▁NBC
▁개그맨
▁사학자
▁호흡기
▁기미
▁동군
▁수역
▁에노
▁에코
▁집사
▁호로
▁가이아
▁시마즈
▁name
벌리
사와
▁군복
▁남단
▁양서
▁염두
▁자키
▁정글
▁스케줄
▁로베르토
▁구타
▁사미
▁서안
▁안톤
▁우기
▁자위
폴리탄
▁메트로폴리탄
▁엣
▁내림
▁불쾌
▁석기
▁아연
▁유충
▁후이
▁남극점
▁스케일
▁셴
화당
▁경종
▁금하
▁마흐
▁병렬
▁비옥
▁애착
▁양극
▁외삼
▁웨어
▁초계
▁칼륨
▁케리
▁코바
▁화승
▁지하철역
데기
황색
▁cc
▁경화
▁나기
▁노카
▁라가
▁리나
▁열악
▁재화
▁타시
▁풀백
▁사무관
▁순식간
▁열역학
▁자격증
▁조각상
▁버니
▁종가
▁카로
▁포니
▁tvN
▁당뇨병
▁브로드웨이
18
co
so
▁랠
루즈
르산
양이
▁골절
▁나한
▁복부
▁불복
▁실효
▁안팎
▁하산
▁로페스
▁테두리
▁미스코리아
그램
보라
에쓰
윽고
▁띄우
▁배당
▁신병
▁족장
▁창구
▁화원
▁시그마
▁신호장
▁이윽고
▁천도교
▁그레이엄
▁중앙아메리카
yn
큐슈
▁균일
▁무능
▁세스
▁솜씨
▁시제
▁키트
▁패치
▁김해시
▁안드레
▁우두머리
▁파푸아뉴기니
텐셜
ATO
▁고층
▁리시
▁무예
▁부엌
▁안심
▁양평
▁요직
▁칠성
▁키타
▁협곡
▁공주시
▁동아리
▁카디널
▁유가행파
열대
▁가뭄
▁뉴멕
▁마늘
▁박재
▁산조
▁이달
▁침범
▁거주자
▁라스트
▁안양시
▁최성기
▁뉴멕시코
IVE
ala
▁결말
▁동백
▁오마
▁은폐
▁일간
▁일주
▁정승
▁줄곧
▁축복
▁홍익
스크림
▁간호사
▁스틸러스
▁일렉트릭
신저
▁중남
▁무지개
▁반대편
▁퍼텐셜
▁1874
▁This
▁잼
시험
악산
주크
▁ㅅㅏ
▁넷플
▁레나
▁이색
▁통솔
▁포자
▁넷플릭스
▁맴
나들
▁sp
▁기닿
▁기스
▁묘호
▁악당
▁일삼
▁재보
▁동남쪽
▁콘퍼런스
징어
▁대류
▁읍성
▁잔혹
▁204
▁대수학
▁앞바다
▁에스컬
▁조각가
▁항공편
▁후쿠이
▁바그다드
▁에스컬레이터
▁벚
▁다쿠
▁무가
▁베크
▁숙박
▁젠더
▁조동
▁학당
▁저스틴
▁컨퍼런스
▁퀄
운수
▁라플
▁소론
▁이문
▁잔여
▁쿠마
▁판명
▁향수
진보당
▁가요제
▁게임즈
▁다가가
▁지리산
▁휴대폰
▁프레슬리
ax
me
▁뤄
▁낭비
▁리타
▁송이
▁싱크
▁인스
▁캠벨
▁한복
▁클로드
▁콜럼버스
소문
ody
▁몰수
▁발작
▁잉여
▁품목
▁한겨
야누스
▁뉴올리
▁재미있
▁트레일
▁1877
net
▁SR
▁단발
▁메모
▁사중
▁옥사
▁확충
▁루이즈
▁호소카와
▁서아프리카
▁알렉산데르
▁아우구스투스
더릭
프랑
▁상한
▁소양
▁애드
▁차오
▁클랜
▁원주시
▁바이마르
▁멀티미디어
▁트라야누스
민당
oid
▁도형
▁손목
▁에페
▁코로
▁탄수
▁공학자
▁허베이
▁슈퍼스타
▁강좌
▁예멘
▁코크
▁하지
▁APG
▁Bab
▁교육감
▁참전하
▁채무자
▁오아시스
GB
▁쿰
혈구
anc
▁격전
▁그르
▁델리
▁맞물
▁민원
▁본존
▁순찰
▁토바
▁흐리
▁사하라
▁7000
양구
ash
ose
▁곤살
▁그립
▁바니
▁복속
▁빌드
▁산문
▁주군
▁행선
▁브리스
▁중거리
▁핸드볼
▁Best
▁가온
▁경내
▁아킬
▁양천
▁엄지
▁처마
▁총영
▁컨설팅
▁콜린스
au
바드
변수
▁고승
▁모치
▁무주
▁출사
어나오
▁성폭력
▁스타드
▁여운형
▁클러스터
▁플루토늄
22
를레
비에
일기
▁AF
▁강국
▁로망
▁오구
▁인성
▁재회
▁전조
▁카일
▁비잔틴
▁셀주크
▁기울어지
14
ps
높이
ict
▁et
▁너희
▁미겔
▁바야
▁산체
▁석권
▁선단
▁시발
▁앞뒤
▁에볼
▁요가
▁점하
▁Her
▁수백만
▁한겨레
▁다카하시
▁돌려보내
▁캄파니아
▁깔리
▁블랑
▁추계
▁코린
▁강화군
▁부르봉
▁서스펜
▁엘비스
피크
▁AE
▁공문
▁라임
▁상감
▁소인
▁인계
▁자성
▁경부선
▁오릭스
▁1859
▁Hell
▁메모리얼
남면
▁ㅁㅓ
▁가선
▁감축
▁거시
▁관아
▁나투
▁노하
▁뮐러
▁방학
▁사연
▁소르
▁유창
▁앙드레
▁오르간
▁포식자
▁한국군
▁만장일치
▁KS
▁도안
▁문맥
▁숙명
▁승률
▁원사
▁제지
▁화염
▁ㄹㅏㅁ
▁전시관
▁콘티넨
▁1700
▁툼
▁us
▁건지
▁결장
▁도읍
▁두뇌
▁레크
▁밸브
▁벗기
▁선과
▁지령
▁CIA
▁프리큐어
범죄
장사
제철
토크
▁북측
▁서체
▁소주
▁완장
▁원문
▁중건
▁퇴진
▁펭귄
▁교육학
▁아파치
▁연방군
▁청문회
▁클레오
▁혼합물
▁스테파노
형제
▁곡식
▁니즈
▁도부
▁명왕
▁미켈
▁미트
▁발판
▁스펙
▁우표
▁율리
▁이씨
▁태화
▁거머쥐
▁게이밍
▁루카스
▁현미경
13
15
EEE
▁YG
▁네브
▁뚜껑
▁문물
▁볼드
▁산재
▁스플
▁요도
▁개화파
▁아놀드
▁오리엔
▁외계인
▁갈릴레오
▁사병
▁제비
▁퇴치
▁플랑
▁허물
▁518
▁사다리
▁우에노
▁울트라
계약
나시
데일
란다
로트
▁공병
▁나일
▁대입
▁리안
▁서품
▁의제
▁지크
▁통찰
▁화음
▁곧이어
▁순천시
▁인류학
▁미야기현
▁사무라이
▁자이언트
▁자카르타
▁뒤덮
▁모교
▁예금
▁푸젠
▁함장
▁억제제
▁이론가
▁핵탄두
▁테크놀로지
VA
▁멱
마을
완다
▁se
▁구가
▁되살
▁롤러
▁바투
▁블룸
▁앨라
▁재물
▁전범
▁투사
▁화소
▁625
▁아키텐
▁라이센스
매기
무장
▁부식
▁쓰리
▁왕당
▁차명
▁이케다
▁제니퍼
▁레닌주의
주석
uck
▁구전
▁백운
▁츠카
▁빌바오
▁뉴클레오타이드
▁^
▁뮈
▁챠
▁켐
투리
▁과세
▁만지
▁직사각
de
▁레티
▁바젤
▁아누
▁억울
▁일어
▁웜
고사
동원
버터
▁경합
▁박찬
▁발터
▁산남
▁후견
▁바스크
▁환승역
▁IEEE
▁아드리아
▁크리스틴
▁아이스크림
HL
▁거병
▁원점
▁자갈
▁피자
▁후회
▁기념장
▁돌려주
▁목표물
▁서태지
▁탈레반
▁샷
과학
나주
재판
▁무공
▁상환
▁속국
▁총감
▁테헤
reak
▁가치관
▁난쟁이
▁미성년
▁선제후
▁아이치
▁이치현
▁출장소
▁카리스
▁트레인
▁쓰러뜨리
▁베다
▁변론
▁사와
▁왕명
▁정청
▁하후
▁회차
▁340
▁결의안
▁고바야시
스톤
주사
▁ㄱㅡ
▁경원
▁덮치
▁리언
▁만류
▁북인
▁산술
▁오와
▁이창
▁전서
▁코이
▁튜링
▁하층
▁케이드
▁서바이벌
▁아미타불
패드
ail
▁FF
▁김학
▁알로
▁적법
▁특명
▁로저스
▁마코토
▁빈센트
▁셰퍼드
▁순교자
▁쓰촨성
▁이주민
▁출판물
▁향신료
▁소아시아
▁튀어나오
HC
oo
▁군기
▁김우
▁논증
▁뉴잉
▁담양
▁로디
▁사산
▁여정
▁원만
▁자네
▁장경
▁후면
▁희미
▁길거리
▁달려가
▁카디널스
티지
▁as
▁로보
▁로코
▁백지
▁법규
▁진천
▁청정
▁화풍
게이트
▁미트라
▁지석묘
▁통계학
▁긋
스퍼
장조
▁관군
▁관위
▁근간
▁도끼
▁보어
▁전봉
▁조회
▁로스트
▁볼프강
▁이광수
▁해인사
▁Star
▁ᆫㄷㅏㄴ
▁매사추세츠주
▁펙
▁결여
▁맹렬
▁섹션
▁용맹
▁유틸
▁이만
▁정역
▁주포
▁헬스
▁홀수
하마드
▁대혁명
▁레이건
▁안철수
▁오슬로
▁정착지
▁유틸리티
▁짚
르바
조류
▁어선
▁우니
▁자백
▁헤라
▁가우스
▁개척자
▁실린더
▁Super
▁구라
▁발광
▁베가
▁양동
▁오인
▁일면
▁입찰
▁젤리
▁타파
▁310
▁Sun
▁대사간
▁국가원수
플레
▁my
▁개경
▁나바
▁보국
▁사생
▁수주
▁아칸
▁퇴출
▁개막식
▁불러오
▁오토바이
▁얄
댓값
배마
▁거문
▁달력
▁발진
▁손수
▁수프
▁짝수
▁커브
▁평방
▁국내선
▁예문관
▁울주군
▁원정대
▁앨라배마
▁어우러지
▁공석
▁도매
▁멜라
▁상설
▁안주
▁연해
▁추장
▁호화
떨어지
▁209
▁바빌론
▁끔
소니
▁교감
▁사탄
▁승낙
▁폐차
▁폐하
▁you
▁윤치영
▁그래픽스
▁유니코드
▁후쿠시마현
구미
어놓
의식
▁교인
▁김도
▁미러
▁시력
▁추밀
▁타밀
▁템플
▁토프
▁통감
▁브레멘
▁자치현
▁뉴잉글랜드
▁콘스탄티누스
TF
▁뽀
학파
iel
▁ad
▁근세
▁금관
▁김주
▁명륜
▁부락
▁산정
▁수문
▁디에고
▁무신론
▁셀레우
▁아니면
▁자오선
바퀴
▁DO
▁과달
▁맞배
▁박경
▁상층
▁성조
▁의인
▁탄두
▁피그
▁교황령
▁르완다
▁삼거리
▁1812
▁Soul
초프
티어
▁강유
▁김덕
▁로컬
▁속초
▁정실
▁충동
▁터스
▁대관식
▁송진우
▁에이브
▁모니터링
▁무형문화재
vel
▁Kn
▁나시
▁뚫리
▁로런
▁보디
▁산인
▁선별
▁장강
▁지카
▁206
▁단말기
▁대제학
▁아스카
▁에이지
▁페스트
▁한자어
▁ICBM
▁선거관리
▁알렉세이
▁선거관리위원회
59
▁닷컴
▁떠돌
▁루손
▁모션
▁문건
▁아호
▁어학
▁장지
▁지검
▁항문
▁호국
▁호이
▁에세이
▁자본가
▁근위
▁다윗
▁무위
▁무진
▁센타
▁수구
▁안면
▁어지
▁주유
▁투니
하우스
▁대대장
▁음식점
▁John
▁아이파크
▁중앙일보
▁Christ
▁쑹
디드
▁늦추
▁루드
▁세제
▁코우
▁여수시
▁주거지
▁서비스업
도감
샤오
ute
▁걸스
▁금천
▁동급
▁메드
▁법상
▁빨강
▁산동
▁샤오
▁스쿼
▁풀이
▁조르주
▁안토니우스
면적
▁배타
▁장이
▁쪼개
시아키
▁기생충
▁록히드
▁슈투트
▁조광조
▁주제가
▁1879
▁건국훈장
▁막시밀리
▁슈투트가르트
EA
TR
네오
탄올
▁ON
▁Tw
▁그늘
▁마다
▁매듭
▁변성
▁수라
▁수질
▁점토
▁차역
▁철기
▁콜론
▁해주
공화당
▁민주공화당
구나
▁Mi
▁교재
▁도자
▁범람
▁솔리
▁양원
▁조던
▁진심
▁초식
▁로널드
▁안데스
▁접미사
▁조봉암
버라
팩스
▁로지
▁버밍
▁세밀
▁의논
▁집적
▁천자
▁춘계
▁카보
▁747
▁고지대
▁보이즈
▁의병장
▁테헤란
▁베르사유
▁북대서양
방스
▁HP
▁당상
▁슬러
▁이건
▁하강
▁카지노
▁파르마
▁일렉트로닉
gh
무지
▁규합
▁대방
▁손쉽
▁백두산
▁연대장
▁제이크
▁피어스
▁Mr
▁도파
▁울루
▁유계
▁초회
▁카토
▁게이오
▁바닷가
▁석회암
OK
▁IF
▁양념
▁위축
▁콘스
▁휴일
▁CoA
▁des
▁독재자
▁사우디
▁름
화산
▁관개
▁귀순
▁대여
▁동맥
▁부기
▁스완
▁영도
▁유세
▁이코
▁자석
▁포상
라이스
▁App
▁여러분
▁태블릿
▁아브라함
네프
분투
▁공경
▁아람
▁임실
▁청일
▁카펠
▁420
▁라그랑
▁여행자
▁뉴올리언스
슐리
▁고후
▁구비
▁농담
▁딱딱
▁사파
▁소량
▁유보
▁카파
▁쿠시
▁클럭
▁황위
로세서
▁개개인
▁레코딩
정변
▁노역
▁두부
▁듀스
▁방탄
▁스텐
▁영종
▁컬링
레틱스
▁리그컵
▁사가미
▁아이작
▁암스트
리아누스
▁애슬레틱스
▁과감
▁국문
▁군마
▁노마
▁단수
▁모태
▁수족
▁일보
▁카다
▁호시
▁글리제
▁무사시
▁썸
연맹
▁가창
▁권투
▁기권
▁동대
▁두스
▁머큐
▁반달
▁불문
▁스킨
를레앙
▁니가타
▁인산화
신보
▁보아
▁비오
▁상이
▁소포
▁양정
▁원한
▁전열
▁정맥
▁최용
▁오메가
▁트리스
▁원종공신
▁주머니쥐
▁꽝
블릭
▁강가
▁능숙
▁니치
▁열람
▁인삼
▁처칠
▁체리
▁현수
▁국방군
▁알칼리
▁Record
VID
ull
▁Gu
▁김시
▁반납
▁인척
▁풍요
▁호적
▁440
▁영사관
▁쿵
자드
▁"|
▁PA
▁광시
▁끊이
▁불능
▁시타
▁조우
▁할구
▁잠비아
▁테크노
▁들어올리
▁print
▁아우구스트
▁부화
▁빛깔
▁애호
▁예보
▁용역
▁유상
▁변호인
▁타지키스탄
▁public
링크
박이
산업
선교
장군
티보
▁끔찍
▁대등
▁리퍼
▁차차
▁폴로
▁항전
▁후추
▁Str
▁바실리
▁수영장
▁항생제
▁퀼
길준
▁po
▁궁주
▁도나
▁부트
▁수아
▁신익
▁왕녀
▁중등
▁커리
▁타라
▁그러면
▁스위트
▁엘리스
▁오토모
▁클라리
▁합병증
반정
태자
▁금기
▁낯설
▁동하
▁미타
▁아로
▁용문
▁잇달
▁해커
▁Per
▁본거지
▁유기체
▁허버트
▁쑨
대비
수지
▁nm
▁나토
▁남경
▁노엘
▁성자
▁성현
▁유민
▁은평
▁자각
▁제방
▁종실
▁타선
▁환산
▁산투스
▁실리콘
▁엘리엇
▁여주인
▁페이퍼
바이러스
▁불법행위
▁파르티아
덕궁
레미
자나
▁감당
▁리노
▁소진
▁아루
▁이한
▁전곡
▁접목
▁제고
▁투병
▁화이
▁공성전
▁군주제
▁바레인
▁야구부
▁양산시
▁엔리케
▁영화관
▁조용히
▁ㅇㅡㄹㅅㅜ
▁엔지니어링
▁교학
▁기시
▁사나
▁압수
▁유관
▁증축
▁퀸스
▁환초
▁흐트
▁256
▁오우치
▁CA
▁동두
▁라쿠
▁문어
▁북마
▁앙상
▁온전
▁요셉
▁콜리
▁기본법
▁시에라
▁제시카
▁카스텔
▁2500
▁천문단위
▁다마스쿠스
황제
▁당장
▁리지
▁명동
▁무패
▁식이
▁역동
▁열거
▁왕좌
▁이석
▁이설
▁코인
로그램
▁비행사
▁살아오
▁초고층
▁플래닛
16
발트
쿠치
▁게놈
▁군도
▁담수
▁마거
▁사스
▁자존
▁코니
▁투기
▁파고
▁Win
▁왕당파
▁캅카스
▁리바운드
25
포리
ual
▁논평
▁바바
▁성형
▁앉히
▁우타
▁쿠루
▁ㅁㅓㄴ
▁랴오닝
▁접근성
▁즐거움
▁뜯
일체
▁매복
▁사목
▁사체
▁아역
▁유미
▁피질
▁헐리
ogle
▁Hot
▁광합성
▁부추기
▁크리스탈
▁헬레니즘
데오
스틱
▁균등
▁성교
▁시영
▁실베
▁오차
▁카츠
▁패자
▁향로
고로드
▁고다이
▁리바이
▁부서지
▁이세이
자락
▁ER
▁교명
▁내시
▁농협
▁상회
▁석재
▁접시
▁중신
▁호찌
▁호투
▁남북조
▁브루노
▁예수교
▁리치먼드
ty
커우
▁라사
▁셔츠
▁응력
그래피
▁맞물리
▁버스터
▁페르시
▁대법원장
▁사이클론
▁캥
다임
▁Ke
▁담임
▁동체
▁아구
▁왕릉
▁코일
▁힐스
▁208
▁예비군
▁제주시
▁조연상
▁주둔지
▁춘천시
▁프리드
ㅁㅏㄹㄹㅗ
▁아미타여래
무트
울루
▁가결
▁광동
▁이보
▁정직
▁킬러
▁탈피
▁베이직
▁오이타
▁유도탄
▁1789
▁ㅣ
▁미녀
▁반정
▁부안
▁시온
▁할로
▁행운
던지기
▁스텔스
▁지극히
▁Back
▁플랑드르
는점
RNA
▁HS
▁mu
▁고독
▁스팀
▁촐라
▁칠곡
▁히코
프리드
▁911
▁머큐리
▁부러지
▁사무엘
▁유길준
▁잠재력
▁조제프
▁후유증
▁1801
▁기타큐슈
▁패러다임
평면
▁곱하
▁금리
▁바타
▁반향
▁소노
▁양구
▁예쁘
▁트램
▁렌더링
▁1400
▁깊숙
▁녹이
▁느슨
▁득실
▁실책
▁악어
▁지브
▁진성
▁초석
리오스
▁네바다
▁아르테
▁호기심
▁암스트롱
▁포틀랜드
ll
인산
▁Fl
▁강자
▁개표
▁그릴
▁누마
▁봉분
▁안시
▁원곡
▁MIT
▁깨어나
▁들여오
▁영문학
▁Kore
▁KD
▁NM
▁기피
▁여관
▁유독
▁이크
▁침수
▁파피
▁Get
▁재결합
▁남한산성
▁비로자나
▁MD
▁강타
▁기한
▁신천
▁영성
▁윤곽
▁작자
▁총생
▁치킨
▁로런스
▁생산자
▁NATO
ox
불명
스텐
▁멘델
▁애프
▁오웬
▁중학
▁폐교
▁370
▁길버트
▁내몽골
▁사망률
▁사천왕
▁슈트라
▁양평군
▁영장류
▁판매고
▁킵
제사
▁NA
▁갑신
▁군량
▁대용
▁동률
▁워낙
▁전과
▁정중
▁즉흥
▁치밀
▁방법론
▁브릿지
▁웨슬리
▁프린세스
▁쐐
라과
▁NL
▁가전
▁거품
▁교란
▁구부
▁구애
▁조율
▁채집
ames
▁다행히
▁슈트라우스
빨리
▁겨냥
▁약품
▁준하
▁탄력
lect
▁마거릿
▁마운틴
▁매니아
▁불거지
▁선수상
▁앙상블
▁요나라
▁지배하
▁토론회
▁미식축구
▁항공우주
▁Intern
로움
▁균열
▁극회
▁노골
▁도화
▁승선
▁쐐기
▁총국
▁붉은색
▁드래곤즈
▁탄수화물
▁렬
▁국산
▁군림
▁기일
▁내기
▁레저
▁미로
▁발열
▁사조
▁세타
▁승마
▁에픽
▁우디
▁커넥
▁코딩
▁타키
▁트론
▁알베르
ology
▁독립선언
▁가변
▁관원
▁관저
▁궁수
▁노름
▁민선
▁쌍용
▁얼리
▁예편
▁첫날
▁청중
▁출정
▁코디
▁현관
▁호지
▁후난
▁메신저
▁오리건
▁리하르트
▁이마가와
▁해수욕장
YP
이상
피카
let
▁먼로
▁미디
▁성부
▁신궁
▁악의
▁제헌
▁탄성
▁Mag
▁남아공
▁동일시
▁디렉터
▁부천시
▁추축국
▁흘러가
ature
▁생물학자
▁셀레우코스
모닉
▁변천
▁안건
▁열기
▁제타
▁체질
▁카인
▁케로
▁디아스
▁클라인
그라운드
▁Baby
▁니카라과
레븐
백색
▁군위
▁니트
▁무루
▁유재
▁장승
▁지회
▁책정
▁캔터
▁하세
▁급속도
▁미요시
▁방문객
▁돼지고기
▁레오나르
의금
ove
▁구명
▁생포
▁광주시
▁베테랑
▁와이어
▁유물론
▁작아지
▁콜라보
▁서귀포시
▁에두아르
17
GO
경찰
득점
락부
▁공훈
▁나날
▁누에
▁다채
▁안락
▁주스
▁진위
▁초판
▁최순
▁효성
▁흉내
▁225
▁기네스
▁범어사
▁부사장
▁브루크
▁블러드
▁신안군
▁주세페
▁태양광
▁둠
남동
enn
▁Cr
▁고관
▁로만
▁무소
▁베아
▁오랑
▁카불
▁캡틴
▁탄광
▁호전
▁황하
코비치
피에르
▁고스트
▁시나노
▁요시카
▁최진실
▁페라리
UM
ors
▁BB
▁BO
▁레반
▁리라
▁만물
▁생장
▁출항
▁카노
▁파출
▁피시
▁합장
스트림
inal
▁GPS
▁나카노
▁다카시
▁리카르
▁프레더릭
▁베오그라드
▁안티오키아
▁씬
심원
▁강구
▁경산
▁김장
▁도보
▁사옥
▁사일
▁수화
▁외가
▁천태
▁김종직
▁두더지
▁압둘라
▁이치로
▁혈액형
▁게오르기
▁트로츠키
▁갸
▁뿜
능력
무실
파니
▁가령
▁매튜
▁박태
▁비방
▁연어
▁철근
▁하츠
말라야
▁Res
▁강릉시
▁만주족
▁이유로
훈련
▁DA
▁공지
▁대소
▁무쓰
▁잔치
▁출병
▁틈타
▁365
▁거듭나
▁체육회
▁후반전
▁서대문구
▁선거인단
TN
덱스
▁고취
▁불길
▁솔직
▁운석
▁유감
▁장차
▁키치
▁포메
▁207
▁스펜서
▁이지스
▁인문학
▁타일러
▁Amer
▁로베르트
광사
금속
메랄
▁MR
▁개리
▁교내
▁깁슨
▁도식
▁라테
▁명장
▁살레
▁알마
▁유익
▁조너
▁효모
▁흡입
▁동북부
▁스트라
▁아열대
▁해수면
즈미
▁OK
▁개축
▁결투
▁공평
▁도량
▁레르
▁맞닿
▁명중
▁베라
▁봉헌
▁브이
▁야만
▁조엘
▁천적
▁통킹
▁풋살
▁스태프
▁지방도
▁프린터
노스아이
▁1815
노스아이레스
▁부에노스아이레스
24
마니
app
▁듀엣
▁미끄
▁사계
▁세도
▁에든
▁직각
▁청군
▁한꺼
▁핼리
▁흑색
스티안
▁감마선
▁무정부
▁알레산
▁에든버러
▁한꺼번에
▁히말라야
▁아르바이트
FS
▁격화
▁습도
▁신안
▁친히
▁퇴계
▁폭주
이즈미
▁Way
▁야행성
▁일제히
▁페레스
▁레닌그라드
시카
차리
ina
▁내역
▁모잠
▁미추
▁박동
▁변조
▁북송
▁비이
▁시성
▁양위
▁전극
▁한라
▁농민군
▁어드밴
▁조합원
▁태극기
▁1820
▁리얼리티
▁모잠비크
갱이
나비
월드
현실
▁격침
▁공보
▁기형
▁담장
▁증류
▁표어
▁오징어
▁라이온스
▁낸
▁Dr
▁굳이
▁베컴
▁소마
▁약수
▁월경
▁춘향
▁해머
▁호박
ater
▁국무부
▁리그전
▁시아파
▁지포스
▁후베이
▁Cent
▁마쓰모토
▁이리하여
로프로세서
▁System
▁마이크로프로세서
▁결렬
▁그간
▁김석
▁데니
▁로제
▁부이
▁에다
▁인노
▁천리
▁트롤
▁ㅇㅗㅂ
▁디나모
▁유명세
▁제품군
▁조병옥
▁막시밀리안
▁결단
▁김은
▁마취
▁서곡
▁설과
▁에인
▁지반
▁총수
▁필로
▁허들
▁ㄱㅜㄴ
▁트럼펫
▁모노이드
▁알베르트
▁둑
거루
▁노총
▁담그
▁던전
▁세실
▁소켓
▁술집
▁시편
▁어인
▁피쳐
어들이
▁넘어지
▁도나우
▁사법부
▁전망대
▁함부로
▁1858
▁오스트로
▁유럽연합
▁카롤루스
▁알렉산드라
za
▁앳
가요
▁리서
▁미완
▁산마
▁성내
▁스틱
▁양분
▁장론
▁장서
▁조나
▁죄인
▁쿠사
레이즈
▁아드리
▁혁명가
▁이오니아
▁프로방스
쓰네
▁SW
▁격상
▁당사
▁마초
▁아토
▁옵티
▁윈드
▁학도
▁Mac
▁연습생
▁유공자
▁일진회
▁전동기
▁정몽주
▁파블로
▁고고학자
▁이성질체
입자
처럼
▁'-
▁서역
▁으뜸
▁이구
▁재심
▁코넬
▁하카
▁민의원
▁신익희
▁총생산
▁마그네슘
▁class
▁폴리네시아
▁폼페이우스
동리
비츠
ons
▁"'
▁갈비
▁갑오
▁녹말
▁만수
▁성찬
▁에뮬
▁융기
▁좌랑
▁탈리
▁테살
ange
▁모델링
▁제노바
▁맞배지붕
▁챈
오드
토바
▁결실
▁기주
▁배지
▁슐레
▁장택
▁창씨
ions
▁도치기
▁봉수대
▁조너선
▁필리스
가라
니츠
▁결집
▁더빙
▁벅스
▁본진
▁직류
▁특위
▁펜스
▁형광
▁화교
▁마에다
▁중심핵
▁크레타
▁포인터
▁무궁화호
코인
▁굴욕
▁달마
▁본능
▁상해
▁소정
▁엠마
▁출루
▁태상
▁합산
▁Tra
▁군산시
▁날아오
▁노트북
▁목포시
▁스와프
▁유성구
▁필하모닉
▁써
러기
▁고택
▁동티
▁만연
▁수강
▁완산
▁이철
▁자막
▁좌천
▁특혜
▁그리드
▁노무라
▁선데이
▁시게루
▁서프랑크
▁천연가스
att
▁SG
▁기민
▁기욤
▁낙태
▁농작
▁도난
▁매질
▁분담
▁새해
▁소탕
▁의왕
▁정공
▁지뢰
▁진구
▁충고
▁해내
▁가디언
▁분홍색
▁안티고
▁트랜싯
사랑
ret
▁광서
▁남궁
▁디펜
▁로타
▁성제
▁아말
▁안재
▁포섭
▁푸틴
▁헬렌
지먼트
▁USA
▁대학살
▁지팡이
▁type
▁알아차리
▁동아프리카
▁매니지먼트
▁소크라테스
ux
▁귤
당류
라나
▁달래
▁대정
▁영위
▁육박
▁이삭
▁정과
▁정현
▁종단
▁총살
▁토드
▁토의
▁Int
▁쌍방울
▁직할시
▁평상시
널목
▁급사
▁기교
▁미자
▁사보
▁수선
▁위태
▁재주
▁콘셉
▁펠레
▁헤지
▁IEC
▁MHz
▁Not
▁ㄱㅔㅅ
▁건널목
▁넘어오
▁라이드
▁적절히
▁전철역
▁평의원
▁1300
▁1814
▁High
거성
실험
자유
재단
촌동
ART
▁궁내
▁납품
▁덕수
▁문성
▁벨벳
▁아약
▁건너편
▁겨울철
▁충주시
▁보호구역
▁알베르토
정제
컨드
테일
ley
▁Of
▁마틸
▁소치
▁위배
▁음역
▁이덕
▁전집
▁테드
▁토하
▁튀기
▁휴먼
▁흥덕
▁War
▁깨달음
▁티무르
▁평택시
▁항소심
▁산업단지
▁Google
기둥
▁견지
▁경구
▁귀하
▁독실
▁바사
▁부탄
▁석등
▁선서
▁음양
▁퍼플
▁핑계
▁마피아
▁성북구
▁연구실
▁오나라
마일
민정
▁기근
▁모여
▁증직
씨식물
▁미우라
▁비올라
▁플래그
▁석가여래
▁암모니아
▁클라이맥스
BN
니코
랭크
림동
▁고요
▁레미
▁마도
▁미에
▁사악
▁윗면
▁주상
▁헤임
▁홍천
▁밀어내
▁패트리
▁프렌즈
▁What
▁군집
▁목화
▁민가
▁버거
▁스팅
▁유승
▁캐럴
▁퀘이
ㄴㄱㅏ
▁WHO
▁광화문
▁세컨드
▁수도사
▁아약스
▁액티브
▁혁명군
살바도르
▁1795
▁그래미상
▁플레이스
▁엎
싸움
토쿠
▁FS
▁군락
▁규장
▁도표
▁시차
▁신관
▁실태
▁전란
▁콤비
▁헨드
▁LCK
▁니스트
▁막아내
▁미시간
▁연금술
▁우승컵
▁통신부
▁플라자
▁다리우스
▁부위원장
▁토스카나
▁윔
데냐
식스
전차
▁간지
▁고갈
▁군비
▁니체
▁라지
▁리츠
▁바하
▁보카
▁수의
▁완주
▁지층
▁페데
정보부
▁국문학
▁맞대결
▁모터쇼
▁피드백
▁사르데냐
▁조선왕조실록
회원
ger
▁PH
▁루지
▁말소
▁멘토
▁발췌
▁본초
▁스쿠
▁예일
▁우도
▁초당
▁패드
▁TBC
▁블루어
▁익산시
▁진정하
▁디렉터리
퍼트
▁아난
▁암초
▁애매
▁앨버
▁약학
▁열망
▁우대
▁원생
▁잊히
▁전액
▁켈빈
▁키아
▁프록
▁290
▁관찰자
▁라쿠텐
▁모조리
▁성명서
▁주교좌
▁홉킨스
▁With
▁샌드위치
▁공해
▁도정
▁로어
▁스톨
▁얼터
▁에런
▁우사
▁제보
▁증원
▁코지
▁패퇴
▁포진
▁Dis
▁MLB
▁로렌초
▁스레드
▁원정군
▁이회창
▁하모니
ye
▁켓
고나
구멍
alk
yle
▁구석
▁모식
▁몬태
▁보육
▁보훈
▁아핀
▁애쓰
▁열풍
▁인대
▁트림
▁허구
▁480
▁남조선
▁한정판
NT
▁쥘
부미
카라
▁로동
▁비욘
▁춤추
▁쿠리
▁포교
▁할양
▁혼돈
▁남해군
▁리포트
▁에히메
▁커티스
▁트루먼
▁헬싱키
▁ㅁㅕㄴㅇㅡㄴ
▁렝
라도
▁kW
▁비호
▁세베
▁아랑
▁우이
▁장준
▁헬로
▁238
▁850
▁선언문
▁스타즈
▁창덕궁
▁창업자
▁수마트라
▁아틀레틱
▁안드레이
enc
▁견훤
▁괴뢰
▁김세
▁당명
▁부녀
▁실크
▁아픔
▁정일
▁종친
▁함의
디우스
▁고조선
▁대항해
▁드레이크
IO
스테
팽이
▁니나
▁반야
▁영재
▁웰스
▁유원
▁천정
▁총액
▁토비
▁풍수
▁훈족
지스터
▁정확도
▁합천군
의금부사
▁가나자와
▁그리스도인
베인
▁광택
▁덩굴
▁버시
▁보궐
▁숭실
▁알렌
▁장조
주니어
플레잉
▁개최지
▁보행자
▁북반구
▁빅토리
▁페테르
▁롤플레잉
▁크리스천
▁COVID
▁매춘
▁머피
▁미숙
▁비어
▁승전
▁Art
▁안데르
▁요시아키
UI
레프
▁Di
▁관대
▁노화
▁랜덤
▁브람
▁연유
▁정여
▁ㄷㅔㄴ
▁남반구
▁보호관
▁수번뇌
▁지방관
▁충렬왕
▁타블로
▁카테고리
▁트랜지스터
▁키르기스스탄
렁이
천국
▁박승
▁보츠
▁북상
▁에린
▁웅진
▁장항
▁평신
가하라
네소스
다람쥐
▁사이공
▁취약점
▁Blue
▁MPEG
▁프로이트
블린
▁RA
▁구룡
▁구토
▁급기
▁더럽
▁묘법
▁민권
▁서강
▁선회
▁정병
▁천구
▁첨부
▁팀장
ough
▁Rev
▁공기업
▁노르트
▁문하시
▁보라색
▁스타인
▁아산시
▁아칸소
▁1846
▁사탕수수
적분
OVE
que
▁ㄲㅗ
▁각광
▁골수
▁국지
▁논설
▁대뇌
▁데메
▁데쓰
▁리저
▁미코
▁옥상
▁용접
▁윈터
▁이트
▁효용
연화경
▁산체스
▁이완용
▁크라스
▁학생회
▁1793
▁물리학상
▁브루나이
▁에드먼드
ㄷㅡㄴㄱㅏ
▁그리스도교
26
▁경이
▁기악
▁수렵
▁신구
▁올랭
▁율령
▁페터
웨스트
▁유격대
▁재빨리
▁페인트
▁time
▁하시모토
▁중앙정보부
ING
▁'.
▁갤러
▁과부
▁니콘
▁당분
▁오호
▁월북
▁직함
▁차분
▁1839
▁시즈오카현
▁아오모리현
▁뱌
나물
던스
르모
파스
▁ED
▁교주
▁구자
▁국과
▁소도
▁역모
▁와해
▁쿠릴
▁공직자
▁농작물
▁등록금
▁배수량
▁추밀원
▁이베리아
▁자유민주
▁밈
건적
운전
전쟁
질량
ump
▁공덕
▁굶주
▁독소
▁무당
▁존상
▁퇴단
▁하순
▁휘트
▁시어터
▁아쿠아
▁엉덩이
▁에밀리
▁여객선
▁전기장
▁중서부
▁프리킥
▁히로부미
▁촘
▁훅
바람
▁간디
▁괴멸
▁군국
▁남포
▁도색
▁맛있
▁멜론
▁이국
▁펀치
비우스
시우스
▁737
▁대머리
▁돌아서
▁바로잡
▁외무성
▁체스터
▁테트라
▁트리니다드
▁중앙아프리카
▁꼼
래시
메트
der
▁Vf
▁게일
▁경멸
▁몸집
▁부윤
▁설사
▁쇠약
▁순정
▁심플
▁엄정
▁유시
▁추위
▁해자
▁가시마
▁상대론
▁아테나
▁알레르
▁포스코
▁1854
▁기념사업
▁언어학자
▁걸맞
▁범용
▁본당
▁삼키
▁심근
▁아민
▁정강
▁직권
▁현충
슬라브
▁214
▁손바닥
▁수증기
▁팩토리
총리대신
▁내각총리대신
고트
뉴스
재란
후이
▁교묘
▁낙타
▁불평
▁세탁
▁손책
▁윤원
▁인신
▁표결
▁필기
▁학창
티우스
▁COM
▁국무원
▁분류학
▁조계종
▁하카타
▁비지니스
▁아나키즘
▁정유재란
패스
▁등대
▁망루
▁미묘
▁방조
▁서보
▁야로
▁총체
▁메이트
▁버나드
▁윤리학
▁자연주의
대성
▁감탄
▁마한
▁브론
▁상작
▁솔트
▁이형
▁이효
▁인출
▁제식
▁코레
▁클루
▁페드
▁학급
▁교토부
▁비행대
▁산둥성
▁이브라
▁키워드
▁평화상
스트리트
▁갈릴레이
▁비트코인
▁어드밴스
▁초등학생
▁세키가하라
▁구인
▁만기
▁바일
▁억류
▁칼레
▁특례
▁환기
▁Min
▁돗토리
▁안중근
▁초대칭
▁기독교인
▁미성년자
▁여주인공
28
▁돛
▁퓌
탐정
▁BR
▁ME
▁ㅇㅠ
▁박기
▁북해
▁상투
▁새턴
▁석상
▁이부
▁종주
▁참배
▁페가
▁후시
▁가입자
▁경비대
▁데포르
▁베일리
▁파출소
▁후임자
▁델라웨어
▁오브젝트
▁플로이드
▁간염
▁갑각
▁개전
▁매월
▁바덴
▁박준
▁베버
▁시주
▁오딘
▁유폐
▁잠들
▁파드
▁팬아
▁하디
독립당
캐스트
학생회
▁LCD
▁구청장
▁북극해
▁최하위
▁황태후
▁1849
▁네덜란드어
▁한국독립당
HD
모자
사회
호프
▁매번
▁분양
▁분장
▁산불
▁찬탈
직할시
▁기부금
▁나가노
▁에리크
베이거스
▁1856
▁공화주의
▁총학생회
정권
▁견습
▁계투
▁고압
▁교포
▁남로
▁디온
▁라몬
▁신작
▁오기
▁우동
▁존엄
▁치중
▁가파르
▁장택상
▁크레이그
▁라스베이거스
23
▁뚱
누아
호르
▁NX
▁귀양
▁루머
▁수표
▁시경
▁씨름
▁어이
▁요아
▁웅장
▁웨일
▁육아
▁이안
▁장령
▁철원
▁화북
▁낙하산
▁넥스트
▁보나파
▁증명서
▁1851
▁하이웨이
▁보나파르트
▁페더레이션
▁넉
▁줌
오린
우어
▁만국
▁미모
▁밀스
▁본디
▁분쇄
▁윤영
▁촌은
코스트
쿠스틱
타니아
atch
▁입출력
▁절대로
▁포위전
▁사보이아
▁스탠퍼드
▁어쿠스틱
▁차량기지
▁깡
체어
▁내수
▁비크
▁셔먼
▁수류
▁유장
▁이견
▁인피
▁적재
▁해일
▁효능
프랑스
▁419
▁건국대
▁벤피카
▁해럴드
▁Beat
▁캔자스시티
86
▁럴
▁도독
▁상체
▁수서
▁예속
▁주경
▁헤엄
▁430
▁FBI
▁레인보
▁진보당
▁참모장
▁캥거루
▁파트리
▁하동군
▁1855
▁블레이드
▁상파울루
▁오하이오주
처리
▁낙엽
▁라티
▁메사
▁배설
▁변방
▁볼륨
▁사흘
▁생가
▁서천
▁쇼팽
▁오닐
▁현령
▁교직원
▁베드로
▁변속기
▁상속인
▁시공간
▁핵폭탄
▁1857
▁캐나다인
▁크리에이티브
OU
산읍
섬유
케스
하늘
▁광경
▁깜짝
▁소란
▁알비
▁원성
▁적성
▁한서
▁ㄷㅏㄴ
▁서북쪽
개혁
담회
봉사
하르
▁PP
▁간장
▁경색
▁계란
▁김문
▁단사
▁반려
▁소홀
▁여과
▁연임
▁추궁
▁카잔
▁후백
트로피
icro
▁Top
▁공사관
▁글리코
▁디스코
▁수산물
▁시부야
▁애벌레
▁오비탈
▁지난해
▁하이든
▁휠체어
▁노동자당
▁스티븐스
▁폴란드인
▁좡
ery
▁결탁
▁봉작
▁외동
▁정시
▁착안
콥스키
cess
▁Med
▁작사가
▁테이크
▁포천시
▁갑신정변
▁다이스케
▁소용돌이
▁내구
▁단성
▁민생
▁비참
▁수훈
▁실로
▁체첸
▁캔디
▁톨킨
고양이
▁갖가지
▁기념식
▁보르도
▁시흥시
▁식물원
▁지평선
▁이와테현
▁정사각형
▁프란시스
▁데포르티보
▁여러해살이풀
댄스
버거
일라
▁모기
▁벽면
▁보문
▁서상
▁여생
▁치수
ㄴㄷㅐ
▁시우바
▁찬드라
▁펠로폰
▁포브스
메니스탄
▁반공주의
▁병마절도사
▁펠로폰네소스
▁투르크메니스탄
BT
카테
▁TG
▁대광
▁대세
▁버퍼
▁수배
▁유품
▁임베
▁주치
▁해금
▁301
▁구미시
▁베르디
▁봉사자
▁수수료
▁은하단
츠부르크
▁마음대로
▁이해관계
▁임베디드
▁민족주의자
▁힉
레토
서구
전기
▁CL
▁셀룰
▁아모
▁택지
▁팔자
▁핵산
▁211
▁223
▁일간지
▁저작물
▁헤이스
깨비
니엄
천년
▁YM
▁단호
▁담론
▁분개
▁사죄
▁수스
▁압송
▁외벽
▁정년
▁지소
▁크세
▁태세
▁폰트
▁히나
▁감염자
▁노스케
▁동의어
▁아가씨
▁어리석
쇼프
ont
▁롤리
▁박격
▁벚꽃
▁성간
▁원제
▁음경
▁이학
▁NAD
▁상세히
▁올라서
▁집어넣
▁1776
▁Free
재기
흐트
▁권세
▁변장
▁성채
▁신영
▁엠블
▁열반
▁쟁점
▁카렐
▁페티
▁포구
▁Pop
▁대각선
▁보니파
▁투데이
▁행정관
테른
day
▁IA
▁고증
▁낙랑
▁랜디
▁명주
▁실습
▁욕설
▁율곡
▁제학
▁조식
▁친목
▁현청
▁그로스
▁나주시
▁대주주
▁수송기
▁카운터
▁컨디션
▁Will
▁사카모토
▁서아시아
니크
로아
▁FR
▁국면
▁노회
▁대흥
▁돌핀
▁슈바
▁심슨
▁조력
▁지병
노벨라
시오날
▁루터교
▁바이스
▁비엔나
▁제이스
▁나시오날
▁무라카미
▁미주리주
▁엔트로피
▁플루오린
▁그레고리력
▁텔레노벨라
▁뺏
광선
왕국
지대
▁거액
▁만리
▁빌미
▁소망
▁윤선
▁읽히
▁퇴사
▁늘어지
▁다면체
▁다이나
▁레너드
▁오카다
▁이범석
▁형무소
▁태평천국
▁금광
▁급습
▁뇌졸
▁반열
▁악역
▁알론
▁중첩
▁현명
▁XML
▁달라이
▁핵실험
타고라스
▁캄파니아주
볼트
스탕
하스
▁UR
▁간파
▁무왕
▁부총
▁서던
▁언약
▁인테
▁장구
▁타오
▁탄원
▁한참
리어스
▁하이델
▁올랭피크
27
ma
가야
▁MW
▁골목
▁누각
▁대적
▁땅콩
▁살림
▁요네
▁코민
▁파격
▁현생
레시브
▁가속기
▁병원체
▁영산회
▁청구인
▁출생지
▁프로그레시브
29
마타
연대
▁Po
▁ne
▁개요
▁괴팅
▁까다
▁방한
▁상시
▁센스
▁역습
▁오도
▁진안
▁친절
▁타현
▁항모
▁회부
▁동북쪽
▁타고나
고도
소득
▁김한
▁로젠
▁버즈
▁시왕
▁양손
▁이로
▁잠복
▁템포
루리아
▁del
▁김종필
▁독립국
▁마그마
▁배트맨
▁심포니
▁청교도
▁클라라
▁조기어류
▁10000
를린
버드
연료
▁가메
▁국채
▁누락
▁로로
▁마고
▁명지
▁미안
▁발송
▁장타
▁Bro
▁거제시
▁마인드
▁모여들
▁사모아
▁가까스로
▁레오나르도
▁묘법연화경
모습
바꿈
투안
▁대열
▁몬트
▁미움
▁사성
▁산탄
▁셰이
▁역행
▁연좌
▁와트
▁입안
▁호가
▁메이플
▁서기장
▁어지럽
▁네브래스카
▁통합진보당
슐린
저민
쿠젠
페리
its
▁간소
▁교복
▁미망
▁사극
▁수잔
▁윤석
▁케니
▁화신
들랜드
irst
▁굳어지
▁모티프
▁벤저민
▁변증법
▁뽑아내
▁새천년
▁피에트로
급시
평가
▁각별
▁공녀
▁로미
▁본기
▁음란
▁찬스
▁청화
▁최경
▁홀드
▁모자라
▁베르그
▁샘플링
▁스나이
▁아세트
▁팰리스
▁황도대
aut
▁CV
▁나나
▁노미
▁마마
▁밑면
▁발주
▁비비
▁습성
▁신명
▁심신
▁이연
▁정철
▁직제
▁콘월
▁퇴화
▁파사
▁하쿠
중국해
▁Big
▁논산시
▁단기간
▁서남쪽
▁크리켓
▁서스펜션
▁스포르팅
▁캔터베리
▁begin
미치
증권
▁DL
▁독감
▁액수
▁장보
▁지단
▁퓨전
▁End
▁웨이트
▁미시간주
▁코미디언
연의
활성
▁듯이
▁문교
▁반일
▁브롱
▁시로
▁위드
▁유즈
▁이공
▁준위
▁질리
메데스
▁리서치
▁엑스선
ㅔㄴ
빼미
▁경치
▁노먼
▁다의
▁배영
▁에나
▁우메
▁천명
▁총알
▁화전
더니즘
메네스
▁ㅇㅓㅇ
▁레이어
▁문화사
▁해설자
▁원내대표
▁포레스트
▁언더그라운드
▁감명
▁과업
▁라비
▁레베
▁로자
▁성추
▁세브
▁연천
▁주둥
▁틈새
▁포에
▁픽업
▁합체
▁혹독
▁히다
▁215
▁239
▁510
▁DFB
▁가로막
▁비정규
▁유니온
▁치우치
▁포위망
BL
개발
코바
aff
▁HK
▁WH
▁개간
▁기물
▁생사
▁서킷
▁언젠
▁전갈
▁종택
▁질레
▁쿠키
▁평년
▁한도
▁구석기
▁기장군
▁베리아
▁에인절
▁특이점
계리
▁KC
▁대양
▁듀크
▁린드
▁서드
▁원가
▁위니
▁징후
▁코다
파트라
▁BMW
▁언젠가
▁특공대
▁1792
▁아틀라스
▁클레오파트라
보스
▁까치
▁니즘
▁루아
▁선하
▁재원
▁촌락
▁칸타
▁황보
▁set
▁빠뜨리
▁전년도
▁프리랜
▁void
HS
br
▁젬
가키
▁가인
▁낭독
▁메콩
▁방수
▁시료
▁시암
▁열광
▁우랄
▁우문
▁위아
▁정약
▁창안
▁체임
▁패주
▁픽션
▁한방
▁함안
궐선거
▁Des
▁계약서
▁과선교
▁목걸이
▁서로마
▁영등포
▁월리스
▁소선거구
▁재보궐선거
▁랏
▁덧셈
▁바크
▁부원
▁살상
▁예천
▁원화
▁표상
▁호엔
▁권력자
▁목격자
▁사생아
▁사중주
▁수메르
▁Rain
▁알레르기
▁프로토타입
루이
버섯
삼문
oss
▁난간
▁내쫓
▁덤불
▁도기
▁매드
▁명절
▁상피
▁세관
▁아그
▁양력
▁오쓰
▁요세
▁유실
▁접착
▁최북
▁포탈
너티브
▁까다롭
▁다다르
▁미술가
▁얼터너티브
▁엘살바도르
▁SI
▁ㄴㅜ
▁경수
▁국고
▁도고
▁동복
▁루소
▁박중
▁비슈
▁산토
▁실드
▁어필
▁조참
▁포즈
▁ㅇㅜㅁ
▁레일리
▁부활절
▁브레인
▁살아나
▁외삼촌
▁표준어
▁1853
▁동대문구
이인
▁JP
▁RE
▁do
▁가평
▁금화
▁마자
▁모후
▁성년
▁아속
▁영연
▁입적
▁정파
▁제향
▁홍백
덜랜드
▁게이머
▁계약금
▁급기야
▁꽃받침
▁무인역
▁시설물
▁프로파
▁1791
▁1852
▁속씨식물
▁크래프트
니발
막염
서면
지않
행사
▁구급
▁몰입
▁시구
▁실화
▁아쓰
▁청탁
▁탄환
▁티르
▁향리
▁무안군
▁보호자
▁중생대
▁프레디
ㄷㅡㄴㅈㅣ
▁슈퍼주니어
▁퓰
그림
vis
▁감히
▁녀석
▁다라
▁밥상
▁방과
▁버락
▁시동
▁으로
▁절멸
▁캄포
▁TOP
▁따돌리
▁버밍엄
▁성동구
▁호위함
▁LIVE
▁Show
▁도네츠크
▁클라리넷
경궁
바타
얼빈
▁그려
▁노던
▁메트
▁비츠
▁상권
▁셰프
▁숙성
▁스커
▁튀르
핵생물
▁게이츠
▁경기력
▁레프트
▁부제학
▁아르카
▁파이브
ement
▁모하메드
▁프라이스
▁플레이트
be
ㅍㅣ
노동
하워
oup
▁CT
▁FN
▁교우
▁귀납
▁독신
▁비고
▁사구
▁수전
▁시판
▁실황
▁안상
▁영아
▁자락
▁장영
▁플뢰
제르맹
▁233
▁브람스
▁후반부
▁권위주의
▁아이젠하워
▁옅
팔렌
▁EN
▁관서
▁근연
▁미팅
▁박인
▁부름
▁수첩
▁식료
▁욕심
▁잠그
▁제반
▁제법
▁최치
▁케스
▁후신
즐랜드
▁분화구
▁양서류
▁요리사
▁잎자루
▁퍼뜨리
▁벌어들이
▁잣
노헤
▁FX
▁국물
▁색인
▁신재
▁에타
▁연작
▁우쓰
▁장터
▁해동
▁회중
▁동인도
▁미카사
▁음악회
▁퍼펙트
▁황갈색
▁Like
▁도쿠시마
▁퀸즐랜드
▁히로시마현
타라
티드
▁능통
▁도금
▁일람
▁차가
▁카쿠
▁호치
▁희박
▁히브
▁212
▁개찰기
▁게이초
▁LOVE
▁다운타운
▁루키우스
▁생제르맹
▁빽
▁구보
▁벨레
▁불황
▁서하
▁여태
▁요트
▁이족
▁그려지
▁끊어지
▁상류층
▁성추행
▁세례명
▁앵글로
▁에르난
▁이스턴
▁재정난
▁조나단
▁1847
▁뱀파이어
▁사다하루
▁인테리어
▁천주교회
▁필리포스
▁테러리스트
개명
에어
하트
▁갑판
▁고타
▁대검
▁래스
▁만다
▁매너
▁보두
▁약정
▁영세
▁월급
▁친숙
▁김포시
▁옹진군
▁이베이
▁중학생
▁최적화
▁Mnet
▁시트르산
▁퍼레이드
▁콘스탄티노플
▁EF
▁OC
▁mg
▁가봉
▁강물
▁기노
▁북제
▁성하
▁세가
▁신숙
▁쑨원
▁영해
▁오에
▁윤상
▁은둔
▁이계
▁정량
▁포리
▁관악구
▁다각형
▁인슐린
▁재판장
▁퀘스트
▁핵연료
▁옥타비아
▁옵티머스
▁은행나무
▁롬바르디아
▁뚝
▁ㅅㅜ
▁과천
▁라벤
▁마누
▁마로
▁수온
▁슬럼
▁안젤
▁야채
▁유위
▁음색
▁음소
▁제각
리오카
하이머
▁생태학
▁올빼미
▁점성가
▁지원자
▁국민회의
▁레인보우
▁NK
▁경감
▁귀향
▁기치
▁김호
▁망상
▁버블
▁수뇌
▁약국
▁연사
▁완투
▁착오
▁청진
자위대
▁Red
▁검사장
▁레슬리
▁레오니
▁브룩스
▁세일러
▁저술가
▁중대장
▁지도력
▁편의점
▁현악기
▁버지니아주
▁안티고노스
▁자동변속기
▁뿌
▁젓
▁찻
랄라
야구
way
▁UK
▁es
▁계파
▁고질
▁관사
▁구면
▁독려
▁밀턴
▁수찬
▁원망
▁초중
▁쿠페
▁회군
ouse
▁221
▁강아지
▁뇌졸중
▁정말로
▁하얼빈
▁Sound
WS
▁똥
▁나팔
▁냉동
▁마조
▁미일
▁보현
▁스벤
▁쓰가
▁연일
▁예견
▁왈라
▁조만
▁주어
▁차드
▁최재
▁팔각
▁푸시
▁품계
▁황성
▁Sec
▁릴리스
▁탈수소
브레히트
▁Over
▁Sing
▁경향신문
▁콘티넨털
▁프리랜서
▁즌
귀비
▁계명
▁고작
▁나츠
▁남짓
▁라피
▁명품
▁발라
▁송금
▁슬롯
▁여야
▁우성
▁진과
▁출소
▁클론
▁231
▁리히텐
▁미망인
▁부끄럽
▁세포막
▁정보국
▁1100
▁1844
▁동명이인
▁창씨개명
▁카리브해
▁Light
비어
▁ac
▁낙인
▁따내
▁미신
▁발화
▁불펜
▁서간
▁오목
▁조승
▁커크
▁혈청
하이드
▁가오슝
▁여름철
▁가이우스
▁즙
방식
색슨
오세
IDS
▁갑상
▁동족
▁삼가
▁섬멸
▁수난
▁수작
▁식년
▁안구
▁외화
▁이등
▁정구
▁주술
▁크릭
▁파니
▁호감
▁회기
ason
▁배상금
▁산화물
▁유목민
▁피스톤
▁곤살레스
▁랜드마크
▁브래들리
▁앵글로색슨
aj
▁읊
거슨
옹주
▁고부
▁골자
▁공물
▁굴리
▁만찬
▁베레
▁유주
▁하체
▁Bar
▁Eng
▁명백히
▁사이다
▁유학생
▁참가국
▁카이저
▁하루카
▁계몽주의
▁민속문화재
타바
프슨
▁TA
▁궁금
▁다키
▁대파
▁마왕
▁색조
▁신빙
▁아워
▁요안
▁유루
▁자력
▁점심
▁학점
▁Net
▁ㅇㅏㄴ
▁박격포
▁수류탄
▁플랜트
▁한마디
▁현급시
▁요코스카
▁포리스트
▁삼국지연의
루트
시간
▁JS
▁박주
▁삼부
▁슬퍼
▁신예
▁오경
▁재야
▁커트
▁토토
대주의
▁정착민
▁좀처럼
▁사회단체
▁오를레앙
▁RO
▁간편
▁강압
▁동천
▁미오
▁북단
▁운문
▁이도
▁정연
▁체온
▁추석
▁취락
▁호러
▁갑각류
▁에버턴
▁시라카와
니언
오밍
▁과수
▁균류
▁디어
▁부응
▁선방
▁테츠
▁390
▁정찰기
▁조교수
▁프로필
▁현저히
▁1837
▁아시리아
승람
쿠로
red
▁RD
▁그람
▁레딧
▁만경
▁봉산
▁숙고
▁콕스
▁한류
▁후각
▁흡혈
▁목판본
▁서산시
▁예배당
▁네덜란드인
워키
ana
iet
▁Pa
▁걸즈
▁계략
▁맨틀
▁미약
▁부결
▁실바
▁아론
▁업소
▁오니
▁우미
▁원판
베를린
슈타트
클레스
▁228
▁Har
▁미스트
▁비스트
▁유가족
▁화순군
▁후견인
▁북베트남
▁오렌지색
▁알레산드로
실론
코로
▁교착
▁김응
▁노시
▁도핑
▁면접
▁선승
▁수유
▁앙주
▁여순
▁청렴
▁치타
▁코노
▁패미
자동차
▁도지사
▁반대쪽
▁제작소
▁프런트
▁꽁
▁뜰
▁ro
▁고해
▁바예
▁아저
▁오데
▁울음
▁유흥
▁주앙
▁폐간
▁필살
▁히치
정대부
▁가야금
▁군단장
▁발자국
▁이준용
▁콘셉트
▁평창군
▁개인주의
호크
▁담화
▁벙커
▁비명
▁비약
▁송병
▁영흥
▁익주
▁쟁취
▁혹평
echn
▁fun
▁경영진
▁명륜당
▁발명가
▁아저씨
▁최남단
소시
ech
ric
▁MX
▁강수
▁나방
▁노년
▁로랑
▁상석
▁성녀
▁일직
▁토사
▁티에
▁판별
▁한옥
▁노원구
▁멤피스
▁모국어
▁슬퍼하
▁연장선
▁자신감
▁케네스
▁테레사
▁항저우
▁스테레오
▁트레이너
99
부스
▁ㅅㅔ
▁경학
▁광종
▁반민
▁생김
▁아레
▁아만
▁알현
▁약제
▁연마
▁열등
▁영하
▁외젠
▁정태
▁주청
▁칼초
▁타코
▁트랩
▁호라
▁홍대
▁226
▁독립성
▁브리즈
▁유리수
▁환경부
▁고속철도
IE
슈티
헤치
▁건안
▁고군
▁궤멸
▁마태
▁방전
▁본적
▁북면
▁성왕
▁예우
▁유예
▁적시
▁총지
▁친형
▁합방
▁혼용
▁나뭇잎
▁버틀러
▁부사관
▁브리트
▁에리트
데하이드
▁저널리즘
개석
보레
상도
ven
▁거장
▁군현
▁길목
▁노숙
▁다방
▁문부
▁반증
▁슈가
▁윤회
▁이면
▁제례
▁증서
▁지터
▁초보
▁티나
▁판도
▁프롬
▁마리나
▁비대칭
▁스타스
▁요시노
▁울릉도
▁녜
치카
▁HE
▁난사
▁말러
▁서동
▁소토
▁스털
▁악하
▁엘프
▁이천
▁이프
▁정순
▁주살
▁007
▁LTE
▁경작지
▁비디아
▁알론소
▁연천군
▁예카테
▁자연사
▁최치원
▁헤이룽
▁1794
▁1836
▁Road
▁구스타브
▁모모야마
▁Hello
▁마르티네스
▁알브레히트
▁ㅁㅑ
▁만능
▁북진
▁소단
▁습하
▁아명
▁일신
▁전광
▁카오
▁키노
노세키
니우스
▁950
▁Sum
▁간행물
▁공로자
▁로스터
▁무척추
▁밀워키
▁스턴트
▁증손자
▁처해지
▁취임식
▁헤아리
코프스키
▁글래스고
▁요시노부
▁코르테스
▁비로자나불
회로
▁Af
▁OF
▁개년
▁망막
▁섭씨
▁야르
▁용매
▁이매
▁장엄
▁졸리
▁척탄
▁추월
▁폭우
▁헌제
vent
▁관동군
▁도깨비
▁베이컨
▁비서실
▁아타리
▁알렉시
▁앞당기
▁윈스턴
▁정규군
▁피타고라스
▁욘
▁팁
시설
젤란
ner
▁el
▁가자
▁고드
▁매표
▁메로
▁무방
▁선더
▁성직
▁성충
▁셀러
▁셀프
▁여가
▁워런
▁익사
▁재귀
▁조위
▁중흥
▁증산
▁짝짓
▁척수
▁출근
▁출진
▁카멜
▁코라
▁탄화
▁해류
▁757
▁관리국
▁동식물
▁밀양시
07
임수
전력
제곱
ism
▁그랜
▁냉정
▁녹스
▁빈약
▁설법
▁소변
▁쇼니
▁썬더
▁포사
▁217
▁315
▁Sci
▁게임스
▁농경지
▁더구나
▁에스테
▁오미야
▁콩쿠르
▁CCTV
▁블리자드
▁프라이드
▁쉘
기술
bum
▁고어
▁관공
▁난자
▁낸시
▁도노
▁랭커
▁러더
▁물의
▁반구
▁병영
▁오거
▁우화
▁이각
▁청풍
▁함평
▁화사
바이크
▁640
▁군사령
▁원통형
▁해적단
▁밀리미터
▁콘스탄틴
yl
성이
조작
▁고즈
▁낙농
▁레고
▁보사
▁슈뢰
▁예리
▁일류
▁전폭
▁전황
▁접경
▁투영
미사일
소시엄
ator
▁SQL
▁고창군
▁베르너
▁슐레스
ution
▁컨소시엄
테롤
▁GL
▁XX
▁굽히
▁기만
▁내사
▁독단
▁라운
▁상도
▁숙의
▁욕계
▁우트
▁조모
▁타국
▁편모
국민당
컨트리
▁720
▁거문고
▁드래건
▁문화원
▁배포판
▁성범죄
▁시크릿
▁야구팀
▁호찌민
▁페미니즘
▁리히텐슈타인
셔스
피오
▁IB
▁거물
▁냉방
▁단판
▁덴버
▁리턴
▁린치
▁박제
▁반원
▁벨로
▁선덕
▁우부
▁의금
▁임업
▁쾌락
▁풍토
▁홍명
사이클
ital
▁RPG
▁허난성
▁Stud
▁콘스탄티노스
▁크로스컨트리
도체
루프
▁EV
▁OP
▁PK
▁가니
▁마포
▁박세
▁빼내
▁살롱
▁속죄
▁스즈
▁자급
▁장현
▁좁히
▁주시
▁지드
▁지에
▁타계
민정음
▁규장각
▁본회의
▁스코트
▁지린성
▁집합론
▁우리나라
▁카리스마
▁팬아메리칸
교동
생명
▁낙향
▁돈녕
▁라코
▁방랑
▁산간
▁선무
▁승천
▁암벽
▁액정
▁오정
▁잔당
▁집약
▁치역
▁테베
▁토우
▁Boy
▁기후현
▁불명예
▁신인왕
▁인피니
▁퍼블릭
▁1806
▁애기박쥐
▁프레데리크
▁딤
▁쁘
▁웁
곡선
서기
여왕
▁공회
▁노다
▁도큐
▁만두
▁부마
▁선지
▁심층
▁아의
▁칼빈
▁케어
▁키시
▁티노
▁합전
▁520
▁610
▁예산군
▁조선조
▁근본주의
▁승부조작
08
바스
자재
장자
▁군용
▁니컬
▁단련
▁만석
▁불순
▁서광
▁스퍼
▁시술
▁여전
▁외전
▁이교
▁이발
▁주방
▁추봉
▁토고
▁후학
클랜드
▁에볼라
▁연주가
▁옆구리
▁제작비
▁징병제
▁코코넛
▁1842
▁Play
▁교섭단체
▁산마리노
시계
젠더
ony
▁GD
▁김나
▁김만
▁낙원
▁노량
▁모레
▁보비
▁비니
▁송정
▁순창
▁어음
▁이륙
▁인회
▁주니
▁집현
▁파벨
▁회랑
스타파
▁ㅁㅗㄴ
▁니케아
▁다이너
▁수호자
▁족제비
▁헤이그
▁후쿠다
▁1796
▁레오폴트
▁훈민정음
▁세르비아인
MP
uk
링거
외과
▁각인
▁관방
▁대축
▁명맥
▁사세
▁위선
▁은사
▁절터
▁책판
▁탈선
▁편수
▁해구
▁wid
▁드나들
▁부딪치
▁완주군
▁테슬라
▁흰개미
▁이스마일
이나
IST
▁마현
▁성희
▁쇼난
▁수생
▁숙이
▁양부
▁오성
▁옴니
▁자의
▁자폐
▁중사
▁채팅
▁철제
▁체격
▁폐단
▁허영
▁끊임없
▁에탄올
▁연구관
▁위클리
▁라플라스
▁에드워즈
▁플라스마
HT
를로
사병
▁개회
▁결속
▁김혜
▁동결
▁리부
▁사시
▁이대
▁인솔
▁절연
▁정설
▁제스
▁종과
▁카밀
▁캡슐
▁켈러
▁표범
▁마티아
▁아즈치
▁웰링턴
▁윈난성
▁임팩트
▁파헤치
▁1832
▁매일신보
▁ㅇㅡㄴㅈㅣ
영향
요리
전리
▁궁지
▁노획
▁문묘
▁민자
▁밀교
▁백국
▁비닐
▁사표
▁서라
▁이근
▁전륜
▁차후
▁치소
▁헌종
▁후생
▁라이터
▁스털링
▁최북단
▁1798
▁매트릭스
▁블레이크
동면
시프
타야
화가
▁각오
▁구식
▁금상
▁김부
▁네프
▁동태
▁릭스
▁샬럿
▁소각
▁신간
▁쓸모
▁에게
▁윤봉
▁주안
▁주필
▁진양
▁투고
▁후왕
사와라
oney
▁ROM
▁끌어내
▁사사키
▁쿠르트
▁2030
▁에트루리아
▁페르난데스
▁옙
ush
▁데시
▁동과
▁미용
▁밀착
▁알토
▁위문
▁의화
▁저압
▁증여
▁최충
port
▁술탄국
▁스톤스
▁영화사
▁이교도
▁자치령
▁충실히
▁애틀랜틱
▁코민테른
▁슐레스비히
▁얌
▁칵
공원
눌프
▁KR
▁동면
▁번번
▁병인
▁염료
▁조미
▁치앙
▁푸른
▁한산
▁희소
▁나가토
▁발행인
▁오와리
▁이주한
여지승람
▁그레이스
▁아르눌프
▁젯
야르
우병
하나
▁국명
▁누설
▁부록
▁상향
▁성급
▁소경
▁여장
▁인장
▁일구
▁전경
▁하향
▁한진
▁히바
▁815
▁Rem
▁공모전
▁단체장
▁문학사
▁보두앵
▁설리번
▁연해주
▁온전히
▁인터랙
▁후백제
▁오가사와라
04
▁뺨
들레
처분
ady
▁급부
▁내밀
▁대일
▁도감
▁돌풍
▁딸기
▁래드
▁밤중
▁방계
▁복고
▁선풍
▁수능
▁습기
▁애너
▁애도
▁양재
▁전해
▁정토
▁정희
▁편차
▁학제
▁222
▁감독상
▁남양주
▁안성시
▁엄격히
▁엄밀히
▁주간지
▁주황색
▁레즈비언
▁맥도널드
▁스위프트
▁헤이룽장
고시
더기
플리
▁MT
▁구국
▁럭키
▁로메
▁신현
▁암술
▁의종
▁조그
▁철교
▁토레
▁표류
form
orce
▁NHL
▁경제력
▁대문자
▁미즈노
▁생산력
▁좌찬성
▁하코다
▁해산물
▁King
▁That
▁Colle
▁소선거구제
▁외할아버지
▁ᆫㄷ
▁간청
▁기흥
▁반유
▁번복
▁열중
▁유혈
▁장부
▁탐욕
▁피노
▁학비
▁각운동
▁귀족원
▁문학가
▁미완성
▁아랍인
▁아이유
▁앞부분
▁오보에
▁인구수
▁재정부
▁헥타르
▁아이패드
▁지느러미
공간
급수
lex
▁방황
▁벤자
▁수륙
▁질산
▁찬가
▁참봉
▁호송
이스터
▁메이어
▁명탐정
▁완도군
▁트래픽
▁마우리아
▁마이니치
▁모노레일
▁이오시프
▁프레드릭
군가
무덤
테아
▁간간
▁기함
▁두만
▁명은
▁불멸
▁사향
▁유유
▁침전
▁펄스
스토크
▁232
▁EMI
▁min
▁글리세
▁닭고기
▁되살리
▁오시마
▁전사자
▁코러스
밍고
체인
iew
▁깔끔
▁마저
▁반장
▁상온
▁왜적
▁유추
▁인현
▁철로
▁페퍼
유철도
▁...
▁Met
▁고분자
▁비행단
▁생김새
▁소시지
▁에르빈
▁의성군
▁전투력
▁참정권
▁카네기
▁포워드
▁1790
▁경부고속도로
▁일본국유철도
국수
병원
▁구어
▁누벨
▁누비
▁대면
▁도립
▁도합
▁박현
▁어판
▁연성
▁외출
▁전소
▁종일
▁출제
▁폐막
▁660
▁not
▁글라스
▁도승지
▁앙코르
▁원동력
▁철원군
▁해남군
▁시스템즈
▁트랜스젠더
UT
YS
▁멩
농사
차크
케인
▁no
▁공생
▁괴산
▁묵시
▁실물
▁아쉬
▁아코
▁알카
▁의외
▁지토
▁264
▁누군가
▁사림파
▁이시다
▁콜레스
▁플루트
▁1810
sc
뿔소
▁강판
▁노포
▁보손
▁빌레
▁승탑
▁야후
▁정산
▁존호
▁파샤
수산부
raph
▁가부장
▁괴팅겐
▁상나라
▁잉글리
▁조직원
▁테크니
▁포터블
▁라그랑주
af
영화
평동
▁고금
▁다롄
▁방비
▁소드
▁시메
▁유약
▁임사
▁참호
▁티오
▁평사
▁필적
▁현내
▁후버
▁흐루
연수원
▁216
▁구독자
▁실종자
▁창세기
ㅆㅇㅓㅆ
▁1831
▁각운동량
▁상륙작전
▁어니스트
▁사법연수원
대왕
레도
루브
연장
▁pH
▁극좌
▁노토
▁루브
▁마수
▁물병
▁삼남
▁속현
▁수계
▁아강
▁절도
▁처단
▁태사
▁황궁
레이스
사우스
▁다섯째
▁도요타
▁돌아보
▁아즈마
▁정나라
▁휴양지
컬럼비아
▁총영사관
▁알렉산드로
▁우쓰노미야
▁노스캐롤라이나주
▁브리티시컬럼비아
누르
치니
트론
elf
▁레흐
▁불도
▁수개
▁잡음
▁조산
▁촉한
▁현안
▁화친
메이트
▁Bad
▁Run
▁독립당
▁박지원
▁선발전
▁수감자
▁유망주
▁자위대
▁제이미
▁척탄병
▁퍼거슨
▁학부모
▁that
▁밀레니엄
▁스트라스
▁width
▁엷
날두
라프
마켓
▁간통
▁국자
▁기틀
▁살균
▁윤지
▁일례
▁전량
▁지루
▁짜이
▁철권
▁초본
▁최규
그래프
▁460
▁김유신
▁달팽이
▁생산지
▁은평구
▁이와키
▁타이밍
▁피난민
▁호프만
▁다카마쓰
▁Great
▁align
▁콜레스테롤
돈나
상가
오버
추리
키타
ane
▁관철
▁명회
▁비핵
▁선왕
▁성호
▁오두
▁자객
▁청두
▁코흐
▁파가
▁RCA
▁달성군
▁도리어
▁레인지
▁미시마
▁예비치
▁오로라
▁울타리
▁주둥이
▁한니발
▁호날두
▁워싱턴주
▁사회주의자
WA
▁깅
가슴
폭스
▁we
▁군무
▁김소
▁남문
▁레퍼
▁명창
▁승소
▁신변
▁양시
▁어셈
▁지파
▁초조
▁총합
▁키요
▁한지
스트로
▁Are
▁다름없
▁다케시
▁로런츠
▁클리프
▁호몰로지
▁횃
묘지
장어
▁디시
▁로펌
▁루르
▁빽빽
▁수제
▁신년
▁주공
▁쿼드
▁투과
▁하일
▁가극단
▁노동부
▁부스터
▁비핵화
▁오리올
▁정반대
▁진동수
▁합법화
▁이끌어내
▁프로테스탄
09
누이
리가
▁광석
▁교두
▁근해
▁김봉
▁린네
▁북로
▁서훈
▁설가
▁승패
▁어쨌
▁엣지
▁여류
▁영일
▁옐친
▁장진
▁피르
▁피플
▁Cor
▁복잡도
▁슈바르
▁애슐리
▁요시히로
▁Every
▁나가사키현
▁무척추동물
▁쉼
넬리
도나
슬란
▁EL
▁나자
▁덕흥
▁방형
▁배럴
▁분실
▁비사
▁성층
▁소감
▁아도
▁양당
▁윈저
▁인턴
▁클락
▁틀림
▁티니
▁파노
▁판권
▁410
▁군주국
▁귀퉁이
▁눈부시
▁지원금
▁지휘봉
▁코페르
▁1841
▁요시타카
▁노브고로드
▁숄
▁극성
▁꾸짖
▁당도
▁몰살
▁석호
▁신디
▁오수
▁의리
▁임차
▁중주
▁차질
▁파월
▁고르바
▁애프터
▁야나기
▁엡실론
▁일레븐
▁this
▁브루크너
▁인사이드
pm
렉트
살라
상부
에즈
우마
▁고비
▁린턴
▁마더
▁열린
▁유색
▁커비
▁항거
▁호골
▁가속도
▁버펄로
▁안후이
▁터키어
▁Inst
▁스토리지
▁모터사이클
▁캇
물질
카레
틸렌
ene
▁난방
▁노릇
▁머무
▁멜리
▁봉승
▁분대
▁색계
▁선법
▁실격
▁심볼
▁안달
▁정대
▁정장
▁청조
▁친필
▁타사
▁회합
거래소
tain
▁법학자
▁인더스
▁제사장
▁토착민
▁통영시
▁레퍼토리
▁베른하르트
▁Project
KA
▁꿇
▁핍
권력
넬라
복음
테리
▁FL
▁UI
▁견주
▁교위
▁군왕
▁남측
▁당부
▁라부
▁맬컴
▁색슨
▁생후
▁쌍방
▁안트
▁애버
▁엥겔
▁일지
▁조예
▁휘그
▁리오스
▁보성군
▁음식물
▁칭다오
▁테크닉
▁다다요시
▁스파이크
▁호쿠리쿠
lement
▁멕시코시티
▁School
숭아
퓨터
▁Je
▁갈레
▁만과
▁몽케
▁박차
▁본드
▁북조
▁야인
▁양전
▁연골
▁중문
▁체이
▁판각
▁핸들
▁후스
웨일스
▁YTN
▁보이저
▁서양식
▁아소카
▁인도인
▁집현전
▁프로페
스티누스
▁가선대부
▁고이즈미
▁아나스타
▁고르바초프
려주
ize
ney
ott
uth
▁궤간
▁다원
▁사멸
▁신창
▁엘튼
▁울림
▁위엄
▁입교
▁전처
▁제군
▁침착
▁키미
껍데기
ript
▁반다이
▁1843
▁뉴사우스
▁뉴사우스웨일스
미드
▁가위
▁감로
▁김효
▁도지
▁시퀀
▁신촌
▁어간
▁윤종
▁자상
▁진관
▁코팅
▁타다
▁234
▁구로다
▁벤자민
▁소방관
▁양주군
▁총동원
▁케로로
단조
테크
티엄
▁계책
▁노블
▁누명
▁매핑
▁셰리
▁연선
▁연체
▁이따
▁장력
▁전군
▁전횡
▁정랑
▁통사
▁튜버
▁프시
▁강진군
▁로망스
▁밤하늘
▁앙투안
▁에이미
▁위아래
▁진흥왕
▁차이나
▁케이지
▁펜티엄
▁귄
▁웸
퇴근
▁니르
▁사네
▁신데
▁아일
▁원예
▁은상
▁주오
▁찬반
▁처남
▁페론
라이즈
▁Rad
▁key
▁구로구
▁남원시
▁몰아넣
▁미야코
▁의금부
▁미끄러지
뉴얼
로리
웨시
▁꼭두
▁넥슨
▁데인
▁동음
▁레게
▁리빙
▁마의
▁미혼
▁보은
▁성찰
▁신파
▁업종
▁울진
▁임지
▁체의
▁파탄
▁험하
라리온
▁213
▁GPU
▁거주민
▁마애불
▁명명법
▁미나토
▁서보장
▁설계자
▁송광사
▁호르헤
▁브리트니
▁비정규직
▁술라웨시
▁score
▁안드레아스
▁옥타비아누스
장식
키르
ama
rag
▁Im
▁구파
▁도조
▁뒤편
▁사족
▁어가
▁재량
▁차우
▁처우
▁텐트
▁퍼드
▁허무
르트르
▁UAE
▁강동구
▁김천시
▁만화책
▁버몬트
▁탈바꿈
▁1809
▁더글라스
▁맥도날드
▁20120
▁농어촌버스
▁시에라리온
▁샛
경제
노신
암면
조치
푸라
ins
▁up
▁개폐
▁고우
▁곤도
▁권영
▁레니
▁만력
▁반가
▁발단
▁배송
▁법당
▁불허
▁수완
▁에니
▁온양
▁유모
▁장직
▁판문
▁허니
▁219
▁공예품
▁리스크
▁보이콧
▁생물체
▁애스턴
▁양주시
▁프렌치
▁고다이고
▁신데렐라
▁카슈미르
SI
▁찔
eng
▁국판
▁권선
▁남명
▁드롭
▁석학
▁수월
▁스메
▁야자
▁양제
▁연필
▁예제
▁총상
▁파멸
▁255
▁EOS
▁Mod
▁Web
▁val
▁기술력
▁김제시
▁편집기
▁1623
▁가시광선
▁원더러스
▁브라이언트
말로
민턴
북동
사촌
중미
▁DP
▁ha
▁각계
▁간헐
▁발데
▁수기
▁옐로
▁우의
▁총관
▁총력
▁탈옥
▁특파
▁북중미
▁제이콥
▁진도군
▁1783
▁1804
▁궁수자리
▁남태평양
▁와이파이
EX
가쿠
더드
마뉴
티니
▁nt
▁겸손
▁매료
▁메기
▁산군
▁석물
▁유람
▁취역
▁홍준
atic
▁감염병
▁광명시
▁그리핀
▁담양군
▁라이히
▁뱅크스
▁샐러드
▁초능력
▁출퇴근
▁홋스퍼
라이언스
▁1819
▁1835
▁샤를마뉴
▁헤르베르트
05
사지
rop
▁ㅅㅛ
▁근심
▁금품
▁급유
▁꺾이
▁보답
▁산학
▁아포
▁야노
▁유복
▁전법
▁조희
▁Rob
▁Sub
▁바이든
▁부대원
▁설득력
▁시어도
▁신숙주
▁1821
▁클라우스
▁허베이성
▁오키나와현
바노
▁고주
▁궁예
▁금주
▁김보
▁농악
▁도민
▁마역
▁머릿
▁밀어
▁변제
▁비탈
▁생부
▁스무
▁하룻
▁홍주
▁회생
▁공포증
▁사토시
▁유태인
▁1799
▁1813
▁매개변수
▁배드민턴
▁시어도어
▁큼
에타
청정
▁가노
▁길쭉
▁도당
▁무적
▁박철
▁보주
▁부역
▁셀라
▁암반
▁유랑
▁정운
▁최승
▁탁발
▁함포
▁환생
▁관광업
▁구조대
▁미소녀
▁줄리엣
▁지구대
▁1805
▁프로펠러
▁애리조나주
▁ㅆ
▁퀵
네세
룩스
룬궁
엄경
▁UF
▁네온
▁레노
▁루빈
▁박희
▁배재
▁보태
▁분립
▁수미
▁와시
▁외세
▁쟁탈
▁조안
▁주루
▁지국
▁캐스
▁티미
▁하랄
그레브
▁막바지
▁메이크
▁방문자
▁스포트
▁안기부
▁파룬궁
▁파스타
▁플뢰레
▁하룻밤
▁1803
▁슈바르츠
▁자그레브
▁코페르니
블러
생기
입상
코어
▁am
▁계면
▁난입
▁리포
▁무학
▁보천
▁성시
▁신드
▁오존
▁원균
▁지망
▁지요
▁축약
▁카도
▁탄탄
▁포지
▁혼슈
▁275
▁비무장
▁상주시
▁시스터
▁영동군
▁장시간
▁카세트
▁키루스
▁파올로
▁하야시
▁디바이스
▁소프라노
▁아사쿠라
▁인터랙티브
na
춘기
ams
▁광원
▁대간
▁돌방
▁명기
▁민병
▁사노
▁선산
▁선주
▁외롭
▁원대
▁지세
▁진봉
▁창사
▁혈연
레우스
즈버그
▁밑부분
▁아이비
▁알아채
▁전쟁터
▁와이오밍
▁트랜스포
▁하비에르
ations
▁크리스토프
▁쉴
▁쎄
길동
난히
조약
▁Mc
▁교신
▁단념
▁리호
▁문답
▁서영
▁소부
▁수혈
▁여흥
▁장본
▁저마
▁증설
▁타니
드랑이
▁ARM
▁Ind
▁구락부
▁번역본
▁브란트
▁소시에
▁형이상
▁다이렉트
▁법무법인
▁신약성경
▁구마모토현
롤터
erm
▁UP
▁간척
▁결부
▁기류
▁다승
▁돌진
▁매화
▁본점
▁송영
▁순국
▁순사
▁심혈
▁애비
▁엘렌
▁연례
▁재기
▁조밀
▁조운
▁참새
▁충절
▁친교
▁파머
▁히포
▁Off
▁번역가
▁아프간
▁주사위
▁주택지
▁훈련소
▁마스터스
▁오카자키
▁지브롤터
▁스파이더맨
UL
▁넵
광석
봉산
oph
▁RF
▁VR
▁고서
▁레디
▁부계
▁순치
▁실라
▁인맥
▁정열
▁조차
▁총신
▁저수지
▁함양군
▁슬라이드
▁영지주의
▁전자기파
▁20100
AX
▁뎀
노지
럭스
야카
▁MY
▁VV
▁격돌
▁결점
▁나크
▁농노
▁다호
▁데릭
▁레터
▁바드
▁버디
▁불의
▁성상
▁수험
▁양공
▁유쾌
▁임성
▁주정
▁클립
▁호우
▁Bel
▁She
▁근거리
▁기울기
▁로열스
▁비트겐
▁양방향
▁에드윈
▁이끌리
▁칼리파
▁호스팅
▁1845
▁YMCA
▁나카지마
▁코르도바
▁킬로그램
▁해양수산부
▁비트겐슈타인
런드
함대
▁겸비
▁근친
▁김익
▁나포
▁섹시
▁속박
▁쓰키
▁지산
▁청천
복지부
▁과도기
▁두드리
▁멧돼지
▁오마르
▁제후국
▁지원군
▁창녕군
▁파르티
▁피루브
▁혁명당
▁HTTP
▁플러그인
▁증권거래소
NS
로메
바야
시효
▁WK
▁각서
▁다나
▁망가
▁무마
▁민진
▁배합
▁비법
▁송강
▁시군
▁아령
▁원뿔
▁응고
▁중류
▁체사
▁탱화
▁기쿠치
▁디지몬
▁레이드
▁레이터
▁발레리
▁사회부
▁얼스터
▁웸블리
▁출연진
▁퇴적물
▁루즈벨트
▁에인절스
▁핵미사일
▁평양직할시
▁댁
▁펨
가이
두스
레알
미츠
비노
칼라
콘티
▁로잔
▁리티
▁마유
▁만네
▁만호
▁밀정
▁밀크
▁반탁
▁산도
▁산양
▁성유
▁세세
▁완충
▁왕망
▁유린
▁유병
▁음극
▁일광
▁재가
▁종용
▁중창
▁질의
▁탈라
▁파면
▁혼재
티나무
프리트
▁OEC
▁베니스
▁오쿠보
▁현무암
▁Down
▁에마누엘
▁전체주의
▁트리니티
▁미네소타주
▁에리트레아
▁페미니스트
we
xy
무드
별초
보전
▁Em
▁광무
▁구지
▁금오
▁무오
▁미쿠
▁병리
▁비안
▁상보
▁임박
▁저당
▁청양
▁크래
▁금산군
▁마우리
▁음성군
▁파이낸
▁주계열성
▁헴
렌츠
▁가꾸
▁괴테
▁랄프
▁밀로
▁분투
▁세그
▁오코
▁왕전
▁육류
▁전령
▁중년
▁진남
▁커맨
▁포프
▁헌트
▁활력
▁횃불
적으로
atur
▁OVA
▁교회법
▁바울로
▁불안감
▁사마의
▁사바나
▁영암군
▁이즈모
▁작용소
▁정읍시
▁칼데라
▁파이썬
▁화물선
▁휘트니
▁흑사병
▁스트로스
▁엠파이어
▁가고시마현
▁금메달리스트
03
곡사
▁견과
▁결번
▁경직
▁공제
▁마네
▁목도
▁순절
▁스물
▁아문
▁요나
▁원지
▁윙스
▁유례
▁이변
▁진폭
▁타트
▁행법
▁노나라
▁사춘기
▁연나라
▁요시오
보스토크
▁Just
▁마츠모토
▁비스콘티
▁인기가요
▁카스트로
▁야마구치현
▁블라디보스토크
마트
혈병
▁강탈
▁격분
▁군소
▁데루
▁도체
▁동관
▁모계
▁무녀
▁변의
▁섹터
▁신겐
▁앤젤
▁오드
▁원추
▁회가
가르드
▁are
▁경순왕
▁도에이
▁동반자
▁라이즈
▁모기업
▁오사무
▁얼라이언스
▁International
▁팥
러니
▁거르
▁계림
▁눈앞
▁바레
▁비장
▁서군
▁야오
▁양사
▁역법
▁우등
▁은색
▁인방
▁전각
▁절개
▁한수
▁Act
▁Ste
▁끝마치
▁다이라
▁로도스
▁마돈나
▁색소폰
▁우참찬
▁1775
▁1802
▁스포르차
▁아케메네스
▁이탈리아인
▁윅
아노
예보
ues
▁Sk
▁ㅇㅞ
▁게코
▁마두
▁미화
▁본가
▁분청
▁수차
▁앵무
▁유현
▁퍼부
▁푸트
▁POS
▁고구마
▁고생물
▁메이드
▁모리슨
▁빌리지
▁사이키
▁산사태
▁수행원
▁아르마
▁완성도
▁출발점
▁친동생
▁크롬웰
▁아랫부분
▁피루브산
▁소시에다드
06
만금
타기
▁GE
▁구레
▁궁녀
▁김순
▁단테
▁메노
▁미케
▁백금
▁산현
▁시보
▁에렌
▁오귀
▁전태
▁정미
▁주법
▁추도
▁친근
▁투라
▁227
▁BSD
▁FTA
▁ver
▁거창군
▁블레어
▁새만금
▁식료품
▁자존심
▁전임자
▁홍준표
▁Korea
▁Micro
▁쏠
벌린
쿼이
▁남진
▁랭스
▁밀수
▁시랑
▁아방
▁오피
▁옥중
▁입선
▁자모
▁지와
▁직구
▁집시
▁크누
▁팔로
▁프티
▁몰려들
▁수공업
▁수니파
▁아르타
▁점령지
▁토레스
▁트렌드
▁학년도
▁1824
▁느티나무
▁마사히로
▁중합효소
▁페가수스
▁Power
게니
닥치
레마
에다
▁라빈
▁마드
▁문공
▁미역
▁에그
▁은총
▁이쿠
▁중군
▁측도
어머니
▁Ang
▁Inc
▁노키아
▁담아내
▁메이슨
▁브리핑
▁서커스
▁아무르
▁중국식
▁크레인
▁푸른색
▁OECD
▁세그먼트
▁켄터키주
▁Award
궤도
슈빌
요크
클로
air
▁DE
▁기로
▁기즈
▁넓적
▁드론
▁선분
▁오언
▁장충
▁차내
▁투아
▁한일
▁황조
▁흑자
▁218
▁Che
▁결론지
▁득점자
▁마사카
▁몽골족
▁에이커
▁영연방
▁올라프
▁전환점
▁태권도
aster
ittle
▁comp
▁수양대군
▁야마시타
▁어린아이
▁흘러내리
▁오스트로네시아
▁콴
신기
튠즈
파업
riv
▁OR
▁굴곡
▁금당
▁나베
▁노팅
▁루가
▁목축
▁민첩
▁병장
▁상아
▁에베
▁완행
▁원순
▁자가
▁정육
▁카렌
▁특진
▁한눈
세이돈
▁How
▁매크로
▁보령시
▁비욘세
▁스텔라
▁쌍계사
▁애호가
▁에스터
▁음악상
▁전산망
▁중견수
▁차일드
▁청년단
▁1808
▁아이튠즈
▁야마자키
▁포세이돈
▁코페르니쿠스
▁웡
놀룰
아비
튿날
▁감속
▁강민
▁데어
▁라브
▁어종
▁어퍼
▁우먼
▁원당
▁이륜
▁주동
▁주박
▁취입
▁햇볕
▁화의
놀룰루
ates
▁224
▁316
▁간담회
▁동작구
▁바르트
▁어쨌든
▁에이드
▁징역형
▁총파업
▁1834
▁개혁주의
▁에스파뇰
▁이사벨라
▁호놀룰루
MC
ㅇㅘ
▁Bu
▁누드
▁러너
▁스이
▁여종
▁이분
▁장방
▁타치
▁판독
▁해법
샤오핑
▁305
▁512
▁Who
▁문인석
▁박원순
▁불어넣
▁세이버
▁의석수
▁중앙당
▁지원병
▁피어슨
▁헤비급
irect
▁1807
▁덩샤오핑
▁동프랑크
▁요시쓰네
▁아르메니아인
▁뭄
▁줍
러햄
▁기예
▁들판
▁미처
▁복건
▁빗대
▁상학
▁시연
▁엄호
▁유파
▁자일
▁제원
▁추앙
리스토
▁325
▁공격력
▁밀리언
▁피에로
▁2023
▁9000
▁엑스트라
란도
리시
인자
▁고보
▁기약
▁나혜
▁라데
▁문항
▁발부
▁석축
▁쉬르
▁신당
▁예거
▁용자
▁정석
▁찬송
▁티어
▁하녀
▁해면
▁501
▁노선도
▁노이즈
▁마쓰이
▁발사대
▁생산물
▁안보리
▁이영호
▁이튿날
▁체이스
▁함안군
▁호나우
▁췌
기름
릅쓰
촌면
ava
▁DX
▁TF
▁김택
▁명곡
▁성결
▁소하
▁야산
▁입회
▁접대
▁키라
▁행태
오피스
▁253
▁고흥군
▁남대문
▁니제르
▁덕양구
▁마산시
▁무용가
▁스피릿
▁아오이
▁유타카
▁짝사랑
▁평양성
기군
마당
사쿠
▁간쑤
▁귀박
▁노우
▁대보
▁돌궐
▁랜스
▁문란
▁보가
▁수려
▁이비
▁작화
▁파란
▁포체
▁피력
▁호에
▁후천
샘프턴
▁303
▁940
▁CNN
▁관람객
▁괴산군
▁무릅쓰
▁문교부
▁여호와
▁전반전
▁Fire
▁아오야마
▁에이브러햄
MI
와르
▁남만
▁다각
▁덩치
▁뒷날
▁미티
▁반월
▁신보
▁쓰쿠
▁압승
▁오위
▁장유
▁주미
▁책상
▁특산
▁행주
▁행차
트리스
▁경사면
▁매출액
▁무제한
▁미코토
▁스피어
▁에리히
▁외래어
▁홍성군
▁Game
▁말레이어
du
랜도
바사
분별
ape
oud
▁구기
▁섀도
▁세드
▁옥고
▁의향
▁이과
▁지온
간지주
다나오
▁Tim
▁all
▁미하엘
▁보내오
▁빼어나
▁하르트
▁합중국
▁확고히
티아누스
▁당간지주
▁콤플렉스
▁행방불명
TO
▁씹
▁힝
도어
문왕
▁가압
▁구드
▁김좌
▁눈길
▁백석
▁카고
▁투척
▁폐암
▁환호
▁황룡
▁후두
룸푸르
▁ㄴㅏㅁ
▁눈치채
▁웨이크
▁유키오
▁휘발유
▁비상사태
▁페니키아
시장
정책
진법
▁냉장
▁도저
▁말갈
▁봉선
▁산세
▁삼위
▁생년
▁소조
▁송준
▁알프
▁영창
▁우여
▁윔블
▁제석
▁탑비
▁해롭
▁par
▁감사원
▁교통량
▁대장경
▁바나흐
▁위안스
▁테레비
▁힐러리
▁반유대주의
▁스트라스부르
▁텃
룬디
햄프
▁강박
▁고단
▁로카
▁민방
▁부령
▁상쇄
▁세차
▁속기
▁시련
▁쓰시
▁아수
▁양치
▁웨딩
▁음각
▁진왕
▁커밍
▁코토
▁키보
▁터리
▁토구
▁판교
리스타
ster
▁777
▁Ass
▁Hol
▁미카와
▁부산물
▁수녀원
▁케이시
▁폭발물
▁삼위일체
▁스테로이드
▁항공우주국
▁홀로코스트
지우
▁TP
▁가내
▁감영
▁고레
▁공위
▁남코
▁다짐
▁단락
▁뒤셀
▁빌럼
▁소현
▁손오
▁시급
▁응축
▁인어
▁장화
▁전치
▁조망
▁충정
오스트
헌대부
▁강우량
▁경사지
▁국경선
▁기업체
▁뉴햄프
▁당분간
▁루도비
▁모니카
▁발상지
▁비키니
▁수족관
▁윔블던
▁회의소
▁뒤셀도르프
▁잘츠부르크
45
DR
베그
비시
정지
▁가석
▁내통
▁박명
▁백마
▁백범
▁소공
▁원호
▁체구
▁컴포
▁티그
▁패소
▁합세
▁헤딩
ield
▁Pre
▁교차점
▁보수파
▁세포질
▁철도선
▁팬클럽
▁하남시
▁Mark
▁러더퍼드
▁레버쿠젠
▁리카르도
▁아라카와
▁카롤링거
CO
미분
정기
▁다로
▁동주
▁리온
▁명실
▁미구
▁볼가
▁불발
▁석굴
▁약체
▁예장
▁음수
▁처참
▁칸토
▁코덱
▁평온
▁Dav
▁KAI
▁껍데기
▁상거래
▁쉐보레
▁신생아
▁아비뇽
▁안재홍
▁이동식
▁조사단
▁케이티
▁1392
▁하코다테
▁Dance
오스트레일리아
zy
멘토
하리
학사
▁드와
▁반칙
▁역간
▁영제
▁오페
▁완패
▁유황
▁자니
▁전영
▁카누
▁편평
▁하토
게임넷
▁그레그
▁나바라
▁밸런스
▁사브르
▁상상력
▁앨리슨
▁올랜도
▁완벽히
▁플레어
▁허정숙
▁AIDS
▁마리우스
▁신비주의
▁온게임넷
▁보니파시오
▁위안스카이
▁Records
고백
냅스
바트
터우
ARD
▁감형
▁공구
▁납북
▁노섬
▁대연
▁막말
▁위세
▁책자
▁티비
▁피파
▁헬멧
▁999
▁Air
▁긴꼬리
▁마인츠
▁보상금
▁스턴스
▁시냅스
▁에테르
▁행진곡
▁1597
▁신앙고백
▁포츠머스
▁라이프니츠
▁IL
▁관부
▁나침
▁다트
▁단풍
▁달인
▁당산
▁데크
▁두아
▁마정
▁명망
▁무아
▁반투
▁승화
▁정다
▁카베
▁퀴어
▁퇴학
▁포티
▁해탈
노스케
ited
▁401
▁나혜석
▁눈동자
▁동구권
▁두만강
▁마사키
▁복숭아
▁아폴론
▁에드거
▁원거리
▁윤선도
▁인조반정
▁보건복지부
▁시모노세키
타일
호텔
▁di
▁굴뚝
▁문리
▁방목
▁소이
▁와다
▁지프
▁최국
▁특보
▁홍진
그러지
로니카
아가라
▁Now
▁Und
▁net
▁리소스
▁모음곡
▁옥타브
▁추진력
▁카오스
▁코나미
▁표준시
▁그리피스
▁나이아가라
너리
니히
비르
코더
ari
▁더그
▁록맨
▁성역
▁세아
▁심취
▁완강
▁육조
▁응집
▁잡종
▁집게
▁치부
▁태클
▁판무
▁Tri
▁계획안
▁바바라
▁보병대
▁의용군
▁집대성
▁타악기
▁홍천군
▁1833
▁구약성경
▁바티스타
▁시리우스
▁아이오딘
▁차이콥스키
▁트랜스포머
바겐
발라
원사
▁꾸란
▁나니
▁내과
▁대시
▁도맡
▁레우
▁병들
▁식읍
▁원초
▁진법
▁천성
▁최성
▁코비
▁테너
▁토후
▁해충
ning
ring
ther
▁530
▁공양왕
▁리저브
▁마틸다
▁조그맣
▁청계천
▁초음파
▁파이트
▁사고방식
▁크리스털
▁프로테스탄트
bs
곡절
관총
마침
자브
저기
준호
▁경쾌
▁군역
▁만인
▁면화
▁묶음
▁봉천
▁수모
▁우가
▁육사
▁입석
▁제논
▁지기
▁진평
▁트립
▁평단
▁AEK
▁가평군
▁니코스
▁데이먼
▁산기슭
▁아라키
▁일어서
▁접두사
▁중랑장
▁찢어지
▁청도군
▁1816
▁Real
▁파이어폭스
등기
토끼
▁각하
▁근현
▁베넷
▁병참
▁삼매
▁이숙
▁재실
▁좌완
▁중경
▁초인
▁쿠프
▁학식
▁항법
▁호분
▁힉스
▁237
▁244
▁540
▁Cal
▁RFC
▁때마침
▁말라위
▁아라이
▁아우디
▁자부심
▁등지느러미
▁욜
▁쭉
네일
이츠
정신
카시
통감
▁계모
▁고귀
▁급식
▁기라
▁도총
▁미그
▁소급
▁우암
▁전업
▁헬라
▁횡포
▁마쓰다
▁소유주
▁인디아
▁지배층
other
▁1818
▁거듭제곱
▁블루투스
▁우여곡절
▁파이터스
▁젝
▁텀
무로
카쓰
▁LD
▁MK
▁gr
▁말엽
▁방직
▁브렛
▁앤트
▁용법
▁총명
▁최윤
▁캐머
▁풀럼
▁회동
▁Mer
▁Pol
▁Ver
▁공학부
▁깨뜨리
▁로미오
▁미에현
▁박중양
▁부산시
▁카톨릭
▁캐롤라
▁킵차크
▁프레시
▁프로스
▁1787
▁Again
ㅏㅇ
공격
권법
케라
포도
mas
▁가만
▁고차
▁고환
▁길가
▁김남
▁난부
▁리허
▁마름
▁벌써
▁법대
▁벤투
▁사선
▁산후
▁순응
▁정우
▁정혜
▁포이
▁환각
ated
▁265
▁가와치
▁성행위
▁세바스
▁악영향
▁알파인
▁에릭슨
▁에이트
▁지하수
▁펀자브
▁프리덤
보르기니
▁트라우마
GE
▁긁
플라
▁ㅅㅖ
▁루벤
▁반시
▁볼링
▁생육
▁선화
▁성안
▁소국
▁시세
▁외피
▁칸나
▁풍산
▁한상
▁321
▁560
▁ㅋㅏㅇ
▁가나안
▁개정판
▁계엄령
▁대동강
▁명목상
▁미워하
▁의사당
▁툴루즈
▁다이라노
▁대통령령
▁스피어스
▁람보르기니
▁하이델베르크
▁봅
▁셉
▁툭
계선
구동
수사
와트
▁;"
▁OG
▁난해
▁대례
▁레브
▁명작
▁반년
▁발문
▁봉토
▁성심
▁스탬
▁양털
▁잡스
▁재림
▁저온
▁전초
▁접견
▁초급
▁킬리
▁팬텀
▁포경
▁풍미
▁풍선
▁헌팅
루시아
소년단
▁680
▁Fre
▁가석방
▁강경파
▁교두보
▁글쓰기
▁기록물
▁뒤덮이
▁레이테
▁리처즈
▁속임수
▁후시미
▁히데키
▁여기저기
▁오스카르
▁파트너십
양동
춘추
▁간극
▁게양
▁고명
▁고야
▁고영
▁교배
▁달라
▁망설
▁명승
▁변태
▁소제
▁수박
▁순화
▁시한
▁실링
▁아머
▁유토
▁이서
▁코메
▁호두
▁효행
▁후량
레슈티
▁걸어가
▁나침반
▁방어력
▁베로나
▁부안군
▁에치젠
▁체로키
▁Home
▁카를로만
▁Never
미나
주제
ATA
vil
▁OH
▁Si
▁개천
▁객사
▁겐지
▁맞먹
▁묵살
▁백련
▁수세
▁스탄
▁시녀
▁양명
▁칼날
▁풀밭
▁극소수
▁김원봉
▁달서구
▁수산화
▁엘리사
▁유미르
▁유배지
▁정약용
▁홍백가
▁화학식
▁히타이트
▁20200
▁프로페셔널
ME
▁뻘
부패
저리
▁고상
▁농심
▁데라
▁마샬
▁만행
▁박은
▁샤먼
▁선적
▁속곡
▁수탈
▁심복
▁양각
▁저상
▁태위
▁팀원
▁풍력
▁필즈
▁회남
평대군
▁245
▁262
▁263
▁DMB
▁ㅇㅏㅅ
▁남해안
▁단양군
▁대국민
▁모닝구
▁상록수
▁안도라
▁줄어드
▁직선제
▁차라리
▁칠곡군
▁브롱크스
▁아세트산
▁중앙유럽
▁파르티잔
▁프레이저
▁형이상학
보쿠
샤르
쓰키
카즈
any
ook
▁Mk
▁RX
▁눈금
▁더미
▁데프
▁모면
▁문의
▁문호
▁뮤즈
▁병부
▁사철
▁외양
▁원류
▁이충
▁조중
▁조짐
▁천억
▁코칭
▁판화
▁포용
▁풍화
컴퓨터
▁SUV
▁imp
▁ㅇㅜㄹ
▁건드리
▁관공서
▁바르톨
▁수신기
▁의령군
▁이따금
▁존스턴
▁카다피
▁학술원
▁Jour
▁부정부패
▁우르바노
▁인도주의
▁꽉
▁눔
▁찜
전동
질기
징금
▁Ig
▁가출
▁대홍
▁도트
▁독학
▁돌이
▁동리
▁메탄
▁박문
▁속명
▁식단
▁신수
▁아보
▁요사
▁유표
▁인왕
▁장도
▁진무
▁치솟
▁파급
▁학관
티스트
ling
▁311
▁성장률
▁아브루
▁우메다
▁원작자
▁이주해
▁조선족
▁청량리
▁휘어지
▁레이아웃
▁마르코스
▁스탠다드
다우
레네
톱스
OCA
▁KF
▁간택
▁고루
▁기뢰
▁낙관
▁다인
▁레위
▁번가
▁사돈
▁산초
▁악용
▁엄중
▁우레
▁정광
▁채식
▁철새
노비치
▁UTC
▁org
▁골프장
▁빚어지
▁스노우
▁신뢰도
▁적혈구
▁정선군
▁항구역
케라톱스
Force
▁2600
▁그라나다
▁다이오드
▁라치오주
▁메달리스트
gy
▁솅
콜라
inc
▁군내
▁기복
▁눈썹
▁비각
▁양태
▁인내
▁크론
▁토막
▁혼수
▁out
▁불명확
▁시행령
▁유기물
▁자주포
▁초나라
▁국민정부
▁시라쿠사
ek
▁뽕
변사
저트
히라
▁PV
▁Wr
▁강기
▁군의
▁매시
▁바루
▁버금
▁악몽
▁어제
▁이두
▁임영
▁진중
▁폐업
▁포커
▁피코
ival
▁386
▁대륙군
▁마운드
▁마일스
▁수성구
▁스파크
▁야마노
▁여고생
▁여학교
▁역무원
▁옹정제
▁재방송
▁정신병
▁태그팀
▁페라라
▁1778
▁마사유키
▁버펄로스
▁아카이브
▁플리머스
네즈
셀라
추얼
터슨
▁공론
▁근소
▁금발
▁기제
▁딱정
▁방파
▁변명
▁소가
▁스매
▁식생
▁신춘
▁양왕
▁영공
▁캡콤
▁통학
▁팬덤
▁행각
▁Ber
▁끈질기
▁드레이
▁로이스
▁머레이
▁시바타
▁콜레라
▁후지타
▁레이더스
▁스키타이
▁스탠더드
▁연꽃무늬
▁해발고도
도전
디트
리처
전설
ely
▁경국
▁궁핍
▁닛코
▁대첩
▁모씨
▁분신
▁비버
▁습작
▁신격
▁연혁
▁일요
▁입방
▁자파
▁제복
▁진자
▁최단
▁티탄
▁편대
▁폴드
▁퓨처
▁헤스
▁휴고
▁Fri
▁구례군
▁비행선
▁산청군
▁수페르
▁아르키
▁야전군
▁조소앙
▁left
▁사쿠라이
▁앨프리드
▁제네시스
▁파피루스
▁평화통일
lt
발디
이시
츠만
raw
▁고라
▁교각
▁김화
▁달빛
▁리쿠
▁박병
▁배차
▁볼레
▁비에
▁사담
▁심도
▁에토
▁원광
▁월계
▁장주
▁징발
▁기관사
▁내슈빌
▁대마도
▁문무왕
▁미란다
▁슬럼프
▁시간표
▁조슈아
▁진보신
▁플레밍
▁Moon
▁교통수단
▁머리장식
▁트라키아
▁Summer
▁아르키메데스
전서
▁김미
▁도원
▁랜더
▁본대
▁성혼
▁셜록
▁수조
▁역적
▁온몸
▁위급
▁제청
▁진통
▁찔리
▁코요
▁푸앵
플러스
▁Die
▁경덕왕
▁레슬러
▁문학부
▁이자겸
▁적갈색
▁1763
▁1780
▁Type
▁스포츠카
▁한국전력
래곤
르템
애자
이동
카쿠
▁BJ
▁HR
▁Hz
▁UD
▁갈대
▁관립
▁노자
▁맹자
▁분구
▁수체
▁아퀴
▁역인
▁엽록
▁오퍼
▁유괴
▁잉어
▁저희
▁진산
▁티타
▁한학
▁현자
▁휴지
트리아
▁Pet
▁Soc
▁mod
▁고메스
▁동역학
▁부룬디
▁수뇌부
▁시작점
▁이제동
▁잠자리
▁좌참찬
▁진안군
▁진행하
▁카트린
ouble
▁City
▁모리오카
▁사라예보
르템베르크
슬론
지드
케로
하타
▁동선
▁레자
▁물량
▁범종
▁빙판
▁사누
▁사피
▁속출
▁시디
▁신식
▁약어
▁오행
▁옮겨
▁외야
▁월등
▁유량
▁일축
▁전근
▁조아
▁즉석
▁참관
▁호부
▁흥국
애슬론
커버리
클라베
▁Sil
▁Swe
▁def
▁남북한
▁대사성
▁반혁명
▁보살피
▁사이고
▁억지로
▁이동한
▁퓨처스
▁1817
▁딱정벌레
▁카를루스
▁콘클라베
시니
▁-.
▁국권
▁김철
▁누아
▁다정
▁반짝
▁소신
▁양질
▁엘람
▁유르
▁육안
▁총탄
▁타개
▁학무
▁313
▁Fun
▁겉모습
▁노이만
▁레이철
▁보일러
▁사라이
▁손오공
▁아바스
▁아우렐
▁애니콜
▁영천시
▁코르넬
▁헤엄치
▁헬레나
▁훈련장
▁랭커스터
▁말라리아
▁카트리지
▁폭스바겐
베쓰
신론
중앙
포화
lin
▁관입
▁그분
▁빙상
▁소명
▁식수
▁열혈
▁장공
▁장막
차일드
▁광산구
▁동인지
▁마땅히
▁최우선
▁특산물
▁1453
▁1825
▁사실주의
▁스웨덴어
▁한국은행
▁헤르메스
yr
간드
강도
극장
뚜기
찰사
코이
▁NO
▁남도
▁닐스
▁다산
▁대월
▁던스
▁드니
▁병세
▁비구
▁빈혈
▁수재
▁시치
▁오고
▁장동
▁재킷
▁지네
▁호종
▁훈구
곰자리
apan
▁MLS
▁Vis
▁구사론
▁더욱더
▁리버스
▁무안타
▁에반스
▁웨일즈
▁플레인
▁나카가와
▁무라야마
▁우크라이나인
델라
레즈
ino
▁Sn
▁관인
▁기오
▁대림
▁동그
▁미호
▁부쿠
▁사문
▁스냅
▁승무
▁신토
▁우뚝
▁음계
▁이극
▁캐넌
▁클랩
▁통수
▁팰컨
ican
▁강연회
▁광양시
▁금정구
▁매장량
▁사진가
▁수집가
▁아스타
▁재계약
▁채플린
▁쿠알라
▁열린집합
▁Album
▁Enter
▁방탄소년단
▁부쿠레슈티
▁쿠알라룸푸르
각시
빠르
스프
충사
페어
err
▁곡사
▁과대
▁광릉
▁노령
▁도내
▁람다
▁백합
▁산개
▁서유
▁셰르
▁수혜
▁승문
▁야나
▁에지
▁영가
▁우방
▁응모
▁이권
▁철갑
▁코즈
▁호메
work
▁고려인
▁노르딕
▁도봉구
▁도저히
▁모듈러
▁바하마
▁비활성
▁세르비
▁외조부
▁하드코어
▁Techn
yp
▁뮬
나잇
덕리
자카
치산
티콘
펠트
포동
▁납세
▁니더
▁단추
▁루도
▁마장
▁망토
▁비바
▁사샤
▁성군
▁셔터
▁양광
▁외우
▁외직
▁워프
▁잔재
▁제패
▁출몰
▁폐비
▁핀치
itch
▁980
▁고쿠라
▁금지법
▁김홍집
▁동남아
▁레지옹
▁마사코
▁무자비
▁미술사
▁소장품
▁순환선
▁아이누
▁엠블럼
▁연기력
▁연수구
▁영광군
▁옥개석
▁원피스
▁장덕수
▁조그마
▁클레르
▁Team
▁문하시중
▁분리주의
▁비토리오
▁코린토스
▁테네시주
▁흐루쇼프
▁크로스오버
▁사우스캐롤라이나
▁홑
그너
슈트
▁KM
▁동궁
▁망라
▁명료
▁미달
▁아밀
▁염전
▁우로
▁원구
▁전등
▁충선
▁콥트
▁푸코
본주의
연구소
reet
▁관측자
▁광무제
▁백혈병
▁브라만
▁셰필드
▁신조어
▁집합체
▁참으로
▁1788
▁마사무네
▁초전도체
▁판타스틱
▁호메로스
▁페널티킥을
일점
팔로
ope
▁fe
▁검역
▁근절
▁남강
▁디랙
▁무굴
▁상전
▁소우
▁심경
▁워렌
▁정액
▁편도
▁황기
▁네모나
▁도로시
▁리누스
▁부총재
▁사업비
▁스티커
▁아리마
▁전봉준
▁카이두
축구협회
▁포항제철
▁앨라배마주
▁Little
▁대한축구협회
록색
무진
화사
ves
▁가용
▁강정
▁개역
▁경왕
▁김신
▁꺼지
▁네버
▁반송
▁손잡
▁약초
▁오현
▁의전
▁이요
▁조원
▁질주
▁칩셋
▁케토
▁태정
▁품류
▁허나
메이슨
▁.."
▁Cre
▁ㅇㅔㅅ
▁레트로
▁쇼펜하
▁시나이
▁시마네
▁실비아
▁에디터
▁요크셔
▁의화단
▁조선어
▁코발트
▁퍼킨스
▁해왕성
▁1593
▁1828
▁무스타파
▁민다나오
▁First
▁쇼펜하우어
럽트
바위
슈나
스름
ird
ler
▁VL
▁갯벌
▁고품
▁기득
▁난폭
▁녹훈
▁무정
▁성신
▁쇄신
▁용담
▁용모
▁원어
▁초구
▁한영
▁흑연
도토스
무스메
▁관측소
▁기동성
▁나이토
▁뒷부분
▁런타임
▁매표소
▁사냥개
▁서천군
▁신해철
▁에디슨
▁워터스
▁충성심
▁합격자
▁황금기
▁브리즈번
▁세종실록
▁히로유키
▁자유주의자
▁모닝구무스메
▁아우구스티누스
메인
ars
▁AW
▁격노
▁누출
▁도일
▁역관
▁이그
▁임재
▁주현
▁지안
▁테루
▁표고
▁한탄
▁후주
▁극락전
▁록펠러
▁마젤란
▁빙그레
▁삼별초
▁아리안
▁안세이
▁이방인
▁진사시
▁탈리아
▁모더니즘
▁무한도전
▁이브라힘
다라
ike
▁Nt
▁경당
▁교상
▁먹히
▁방진
▁보크
▁비신
▁석실
▁아달
▁예민
▁오동
▁원경
▁인목
▁준용
▁타바
바니아
▁860
▁나오키
▁로버스
▁미도리
▁법상종
▁보호령
▁신경망
▁이규완
▁이스터
▁장본인
▁제미니
▁퓰리처
▁휘그당
▁SEED
▁구부러지
▁모하마드
▁펩타이드
▁한국일보
▁주간고속도로
게르
첼로
패닉
▁노기
▁도프
▁리뉴
▁리디
▁미우
▁불연
▁속옷
▁안도
▁알콜
▁앙헬
▁어귀
▁엄하
▁에비
▁열녀
▁저승
▁전편
▁종반
▁주걱
▁통가
▁티티
▁하목
▁항변
▁회자
ress
▁333
▁몽골어
▁미켈란
▁베이시
▁사이코
▁수사관
▁에미상
▁자연히
▁장신구
▁초이스
▁Happ
▁모리셔스
▁인터럽트
▁헐리우드
▁히스패닉
▁Stage
▁수페르리가
ha
▁쉰
개토
임새
장성
▁MI
▁계비
▁고착
▁굴드
▁낙점
▁동강
▁로슈
▁마제
▁민스
▁바카
▁시럽
▁역병
▁울창
▁원각
▁인트
▁장마
▁진달
리아노
▁960
▁산리쿠
▁수호신
▁수호이
▁시퀀스
▁일라이
▁정상부
▁탐험대
▁패미컴
▁프랑켄
▁스타트업
▁안드로메다자리
베다
코니
▁간절
▁굳건
▁다뉴
▁더듬
▁미흡
▁뼈대
▁살포
▁송수
▁알란
▁연경
▁연접
▁우와
▁울라
▁재키
▁좡족
▁침실
▁카가
▁코먼
▁혜왕
▁황주
▁힐튼
▁힘차
카이치
▁내려놓
▁따라오
▁레이첼
▁메소드
▁선인장
▁섬네일
▁잡아내
▁주제곡
▁지표면
▁컨셉트
▁클로즈
▁포르쉐
▁피오나
▁필살기
▁1838
▁다이애나
▁로트링겐
▁집적회로
▁인디애나주
ts
지상
출마
켄지
키리
털루
하치
▁공범
▁교민
▁대박
▁소학
▁신나
▁악행
▁안국
▁양기
▁제회
▁종위
▁큼직
▁탐라
▁하대
머니즘
스티스
파고스
▁Dig
▁광개토
▁꽃가루
▁남동구
▁수십만
▁양성소
▁차베스
▁크랭크
▁피그미
▁항등식
▁황무지
▁1636
▁1797
▁에너지원
▁이로쿼이
ze
관광
리프
소프
자료
oom
▁EA
▁If
▁OL
▁ㅈㅜ
▁구주
▁규소
▁기침
▁다드
▁단부
▁단언
▁당면
▁불운
▁산발
▁신광
▁예기
▁왕상
▁의열
▁퇴거
▁파시
▁편광
자유당
▁229
▁POP
▁갑상선
▁도파민
▁무분별
▁스크롤
▁초거성
▁캐머런
▁특파원
▁페드루
▁포병대
▁헤이케
▁Hist
▁poem
▁국제기구
▁보호관찰
▁이집트인
▁차가타이
▁크로노스
▁민주자유당
▁히스파니아
▁새천년민주당
▁된
시드
umb
▁검교
▁경리
▁굴착
▁기내
▁남대
▁도면
▁뒤섞
▁루앙
▁말뚝
▁명랑
▁법치
▁사별
▁역경
▁오레
▁올가
▁이라
▁잉태
▁정준
▁중진
▁질타
▁천진
▁초각
▁콜트
▁혈전
▁고용주
▁관박쥐
▁마사토
▁베니토
▁청취자
▁표지판
▁물병자리
▁트레이시
▁예카테리나
PG
▁ed
▁강태
▁금방
▁로더
▁보소
▁비웃
▁빈스
▁시일
▁아슈
▁용두
▁용호
▁자영
▁최동
▁편년
▁한우
군주제
▁Pla
▁가쓰라
▁가처분
▁경산시
▁공문서
▁공작원
▁노비타
▁동두천
▁브라이
▁사투리
▁송준길
수염박쥐
▁2024
▁야마나시
▁프리스타일
환국
▁MO
▁Sa
▁곡성
▁락스
▁무령
▁물들
▁볼라
▁신승
▁신증
▁압류
▁연제
▁영내
▁유임
▁직역
▁찬미
▁초명
▁호구
▁화단
▁황화
스탕스
▁Tom
▁남수단
▁리허설
▁바이런
▁성희롱
▁슬라이
▁헝가리인
▁레지스탕스
yc
덕사
지움
현리
▁MG
▁ㅎㅣ
▁구소
▁듀이
▁바벨
▁박순
▁반미
▁베인
▁부츠
▁수고
▁순열
▁약재
▁어진
▁찰나
▁참되
▁평시
▁허적
▁AES
▁MBN
▁SAR
▁경사각
▁경호원
▁대표부
▁리베라
▁민스크
▁사육신
▁저소득
▁진천군
▁파티마
슈바이크
▁1777
▁Plan
▁다치바나
▁로테이션
▁스케이프
▁노스웨스트
▁페르세우스
가치
워싸
의어
텍스
▁광교
▁구균
▁남면
▁니노
▁만루
▁무량
▁석장
▁신랑
▁원세
▁은닉
▁증보
▁지라
▁처자
▁태실
▁학상
▁황토
삼각형
▁249
▁323
▁김정희
▁나루토
▁서귀포
▁스코프
▁에워싸
▁영양분
▁영주시
▁웹스터
▁적시타
▁회색빛
▁나카모리
▁레이먼드
▁마티아스
▁미켈란젤로
▁브라운슈바이크
PN
림리
마에
착륙
get
ris
▁ph
▁갈망
▁금과
▁방역
▁소품
▁열병
▁일약
▁잔기
▁종별
▁캘빈
uman
▁PSP
▁마술사
▁말버러
▁발트해
▁예천군
▁정여립
▁총감독
▁카르타
▁편집국
▁호남선
▁화엄경
▁히메지
▁네이티브
▁드레스덴
▁테마파크
▁플랑크톤
▁솔트레이크
▁아일랜드어
빌라
천후
uro
▁공비
▁구한
▁난바
▁내연
▁니어
▁도킹
▁멀린
▁볼턴
▁붓다
▁브록
▁비누
▁성나
▁유종
▁인두
▁주종
▁질감
▁항등
ross
▁266
▁810
▁갈라타
▁관리법
▁기무라
▁도플러
▁서울역
▁신간회
▁온건파
▁코스닥
▁크루스
▁나가오카
▁트레일러
▁right
▁콜라보레이션
RA
▁쑥
▁씽
덕면
롤라
무사
포츠
폭력
ECT
▁Ap
▁DT
▁검단
▁고졸
▁난소
▁동질
▁만슈
▁법사
▁북주
▁사공
▁슈만
▁애쉬
▁애용
▁카구
▁쾌적
▁파로
▁피델
▁der
▁근연종
▁너구리
▁미노루
▁미추홀
▁법무관
▁역전승
▁오베르
▁워털루
▁은하수
▁텅스텐
▁토후국
▁하인츠
▁Conc
▁김나지움
▁나뭇가지
▁문화재청
▁브라이트
▁디스커버리
▁미시시피주
▁브리타니아
르담
켤레
키치
▁Km
▁능률
▁로직
▁루미
▁메토
▁모유
▁선군
▁세터
▁용납
▁원안
▁유두
▁인동
▁쟁이
▁죄목
▁페달
▁하한
ㄱㅜㄴ
야말로
▁353
▁May
▁공격자
▁구매자
▁다뉴브
▁레반트
▁미술품
▁불어나
▁셰이크
▁외손자
▁우분투
▁재통일
▁전람회
▁지멘스
▁털어놓
▁허스트
ative
▁Gold
▁노트르담
▁모리타니
▁아브루초
▁윗수염박쥐
▁function
▁쩌
랜즈
els
▁TE
▁Vo
▁ㅆㅣ
▁급감
▁니우
▁대불
▁도인
▁레몽
▁루니
▁류성
▁마미
▁면도
▁모성
▁법의
▁본받
▁분분
▁비앙
▁서화
▁암사
▁양해
▁의탁
▁창법
바라기
ific
▁570
▁var
▁관중석
▁나아지
▁보급품
▁부평구
▁수에즈
▁의정서
▁조건부
▁진주성
▁펌웨어
▁main
▁대학원생
▁선덜랜드
▁카나리아
▁판의금부사
▁왁
케르
티르
▁Pi
▁고봉
▁기꺼
▁내해
▁도가
▁마노
▁복도
▁분가
▁비소
▁빗물
▁섭동
▁순방
▁위화
▁읍내
▁장명
▁조강
▁천인
▁추수
▁태즈
▁파치
▁파타
▁하네
▁회령
▁회송
▁효시
스카야
line
▁257
▁306
▁Sky
▁광주군
▁대역폭
▁들려주
▁로베스
▁메디아
▁유력자
▁일대기
▁주원장
▁춘추관
▁캐피탈
▁테이트
▁팔레르모
▁Gener
▁로베스피에르
▁럽
소녀
언군
태영
ACK
▁so
▁과소
▁국학
▁극하
▁뉴펀
▁리야
▁말레
▁물음
▁북문
▁서른
▁안수
▁어근
▁에덴
▁에센
▁월성
▁일일
▁임오
▁콘도
▁페소
▁평영
▁풍성
디비시
베르데
혁명당
orth
▁갈매기
▁라벤나
▁라이징
▁미크로
▁발원문
▁소작농
▁이니셜
▁이승훈
▁자본금
▁조언자
▁페르마
▁1784
▁1826
▁니가타현
▁블록체인
▁패러데이
▁하나하나
▁뉴펀들랜드
▁에레디비시
▁위스콘신주
WC
렁크
사장
에나
후미
ero
▁고맙
▁군공
▁드가
▁등식
▁랄리
▁삼도
▁은화
▁진시
▁칙서
▁한기
▁협연
▁화구
▁화나
▁GHz
▁RAM
▁TCP
▁군포시
▁긴장감
▁세기말
▁신대륙
▁연합체
▁운전사
▁위스키
▁윤원형
▁이시이
▁인도양
▁재조합
▁평신도
▁Char
▁ISIL
▁매리너스
▁카탈로그
▁콜로라도
▁하이라이트
링스
야식
AND
▁간언
▁당구
▁사복
▁선량
▁신령
▁외장
▁원외
▁이다
▁장석
▁최정
▁치매
▁620
▁Vir
▁app
▁과학부
▁관습법
▁미적분
▁슈바벤
▁에일리
▁워크스
▁조이스
▁충선왕
▁하이데
▁에노모토
▁영산회상
▁Class
디크
엔드
왕도
첼리
▁경공
▁다부
▁대산
▁더더
▁링고
▁막론
▁백남
▁범퍼
▁삼보
▁상비
▁성토
▁슈마
▁액자
▁야역
▁어마
▁어벤
▁오족
▁이혜
▁지간
▁측실
▁토종
▁파비
▁함축
▁환공
엽수림
▁273
▁404
▁STX
▁군자금
▁금지령
▁기꺼이
▁드레드
▁맘루크
▁부지사
▁수출입
▁양양군
▁유스티
▁은밀히
▁장흥군
▁저압부
▁part
▁드래건스
▁삼성그룹
▁옥스포드
▁이복동생
▁찾아다니
▁하마마쓰
▁갈라파고스
라티
밍턴
쿠마
▁Da
▁Rh
▁군악
▁라키
▁레그
▁룬드
▁방아
▁변위
▁석좌
▁수납
▁엉뚱
▁이춘
▁천공
▁코아
▁파블
▁헥사
▁힘러
▁630
▁But
▁겨울잠
▁구릉지
▁노후화
▁대구경
▁마오리
▁마커스
▁문하생
▁배심원
▁부조리
▁불신임
▁스토크
▁스피너
▁시집가
▁애국심
▁야코프
▁은언군
▁하리마
▁TOUR
▁전용도로
▁아일랜드인
놀즈
티늄
ren
▁건기
▁곡률
▁교목
▁두목
▁보타
▁상산
▁성탄
▁수르
▁수안
▁스탭
▁여리
▁옥산
▁인화
▁절실
▁좌초
▁징용
▁최인
▁토치
▁튀김
▁퍼트
▁향유
▁호드
▁화평
세서리
▁군부인
▁그로브
▁리디아
▁벨리즈
▁세르히
▁수자원
▁아메리
▁연면적
▁저항성
▁정치범
▁포츠담
▁Dark
▁More
▁에히메현
olution
▁미크로네시아
ful
▁가람
▁경장
▁광천
▁날로
▁데비
▁말투
▁세인
▁야유
▁이찬
▁장연
▁재조
▁저빌
▁절이
▁접히
▁코보
▁880
▁God
▁국세청
▁릴리즈
▁생방송
▁아가미
▁요아힘
▁제럴드
▁중남부
▁중앙동
▁참석자
▁통일부
▁희극인
umber
▁1680
▁Long
▁다카사키
▁언더우드
▁페데리코
▁해바라기
▁민코프스키
걸스
녜스
장이
포항
ius
▁교점
▁구심
▁궁도
▁날조
▁대권
▁로쿠
▁봉신
▁비관
▁상군
▁세나
▁스틴
▁양모
▁연명
▁저런
▁정릉
▁커튼
▁판다
▁화정
▁회선
메이커
▁bes
▁감독관
▁남학생
▁닉네임
▁몰려오
▁몽구스
▁시프트
▁양천구
▁음악인
▁재래식
▁제트기
▁지치부
▁천태종
▁카이퍼
▁코베인
▁키케로
▁현대식
▁혼마루
▁활화산
itude
▁소방본부
▁아키타현
▁흘러나오
▁Japan
▁찹
데나
▁px
▁경서
▁고뇌
▁늘이
▁불우
▁사색
▁설날
▁아계
▁여중
▁염원
▁이음
▁인포
▁재거
▁정평
▁정호
▁천호
▁초순
▁췌장
▁Fla
▁ㅁㅔㄴ
▁고속철
▁곰팡이
▁구덩이
▁대마초
▁대방광
▁메네스
▁벨라스
▁선교회
▁수필가
▁아루바
▁영남대
▁인덱스
▁정복자
▁토바고
▁트렁크
▁파울리
▁헨리크
▁8859
▁국민은행
▁잉글리시
▁다이어그램
▁메릴랜드주
GS
▁밉
▁솥
타자
▁KP
▁Sl
▁__
▁nd
▁귀부
▁대식
▁랠리
▁레코
▁방산
▁번사
▁변주
▁시무
▁야고
▁언양
▁얽매
▁오치
▁왼발
▁요요
▁우현
▁이가
▁인부
▁입궁
▁패닉
▁팩터
▁풍조
▁하퍼
less
▁236
▁기차역
▁마니아
▁미국식
▁볼거리
▁봉화군
▁아메바
▁의왕시
▁이와타
▁이코마
▁자아내
▁휩쓸리
▁나미비아
▁적십자사
▁진핵생물
▁테크니컬
▁페르미온
to
▁갠
▁댕
무역
산역
쓰카
연사
즈다
테로
era
led
▁BP
▁갑과
▁리토
▁미제
▁봉투
▁수론
▁안료
▁오펜
▁완봉
▁정창
▁진부
▁질책
▁최창
▁켤레
▁퀴리
▁페놀
▁폴더
▁헬름
▁후크
프레임
▁TNA
▁경영난
▁마가렛
▁마테오
▁사령탑
▁상징물
▁아르민
▁앙카라
▁제레미
▁Fall
▁가와카미
▁고전주의
▁로테르담
▁석불입상
▁Group
▁Stand
ㄹㅐ
발리
새우
임자
찰청
▁건반
▁광기
▁구정
▁기절
▁노고
▁도니
▁로건
▁병설
▁성황
▁심해
▁연변
▁재적
▁접영
▁정촌
▁폰티
▁피보
▁한결
▁호도
네이터
ople
▁Aut
▁NGO
▁SNK
▁공손찬
▁리포터
▁명부전
▁문화상
▁셀틱스
▁정류소
▁제천시
▁충무공
▁카니발
▁페트라
▁현충원
프레이즈
▁Year
▁남중국해
▁대검찰청
▁시마네현
▁체임벌린
▁Girls
모트
사항
성장
지방
▁OM
▁가례
▁금석
▁기년
▁내년
▁대작
▁똑똑
▁부아
▁북청
▁비티
▁사타
▁샤크
▁시복
▁안현
▁용골
▁우고
▁이응
▁주례
▁청백
▁타슈
▁파평
▁폭설
▁항암
▁304
▁OFC
▁계산기
▁공로상
▁도전자
▁루시아
▁리아스
▁스트링
▁실력자
▁주자학
▁중심가
▁튀링겐
▁파열음
▁홍건적
투아네트
▁1620
▁1822
▁레이놀즈
▁스티븐슨
▁아킬레스
▁전통문화
▁Beaut
나크
소수
와프
운사
▁LL
▁게스
▁고함
▁남이
▁네빌
▁노정
▁농수
▁뇌터
▁뒤쫓
▁멸치
▁배서
▁사경
▁아센
▁에머
▁융성
▁제과
▁체급
▁하청
▁한두
▁화천
▁415
▁470
▁GUI
▁res
▁고릴라
▁관리인
▁기동대
▁내버리
▁데미지
▁뒷다리
▁로리타
▁르베그
▁무한히
▁반대자
▁버금가
▁부풀리
▁삼척시
▁신중도
▁의료진
▁지리지
▁콜로니
iness
▁날아다니
▁비엔날레
▁아유타야
▁표현주의
▁푸앵카레
▁Sweet
가드
댑터
득이
메데
키오
▁감귤
▁남초
▁납득
▁도의
▁독보
▁들뜨
▁레토
▁마담
▁법체
▁병약
▁분묘
▁산국
▁아탈
▁악사
▁알자
▁약관
▁연개
▁위인
▁잡이
▁절기
▁직할
▁청대
▁최익
▁태고
▁터전
▁한시
▁확증
달레나
슬레이
▁247
▁Bra
▁MGM
▁UFC
▁마이트
▁불포화
▁아카시
▁어댑터
▁일반직
▁재빠르
▁주동자
▁주성분
▁태안군
▁하루히
▁하행선
▁후원회
▁포클랜드
AV
ㄴㅔ
강원
▁곧장
▁본과
▁본위
▁북키
▁산대
▁소다
▁스스
▁양안
▁이괄
▁작별
▁적국
▁출하
▁치바
▁쿼리
▁토큰
▁프릴
▁허벅
▁환수
텐디크
▁Ret
▁ㅇㅓㄴ
▁광진구
▁세미놀
▁신의주
▁안무가
▁캐리어
▁파이퍼
▁프리즘
▁1660
▁1811
▁LGBT
▁그야말로
▁보르네오
▁크리스트
▁헨드릭스
▁White
▁그로텐디크
▁Direct
르겐
사토
소네
토닌
▁검진
▁고자
▁기모
▁내력
▁노크
▁백양
▁번안
▁봉급
▁부석
▁순진
▁심재
▁아톰
▁자드
▁탈영
▁티토
▁폭락
▁플롯
▁후송
디스트
▁Bus
▁군부대
▁데이비
▁로고스
▁메디컬
▁방어전
▁변경백
▁비슈누
▁사나다
▁소득세
▁승문원
▁우주국
▁출입국
▁풀타임
▁헬무트
▁캔자스주
▁앙투아네트
▁프리메이슨
깨우
디니
배상
시안
음악
이라
차오
▁강론
▁노라
▁면세
▁몬티
▁묵인
▁배교
▁백상
▁비드
▁선착
▁양준
▁우당
▁의기
▁적립
▁전가
▁전생
▁조프
▁체액
▁초간
▁태원
▁파수
▁피임
▁후카
예비치
▁SHO
▁매개체
▁부코바
▁성주군
▁수세기
▁수행자
▁신고식
▁오세아
▁외로움
▁우거지
▁은신처
▁이사금
▁자작곡
▁정무직
▁조로아
▁파이리
▁플라잉
▁플렉스
lease
▁Miss
▁로버트슨
▁마라도나
▁마요르카
▁볼리바르
▁카운트다운
▁크리스티아
▁헤로도토스
fr
▁KL
▁공진
▁김안
▁내선
▁단총
▁루주
▁미마
▁벌목
▁불선
▁소독
▁소성
▁스톱
▁시들
▁아롱
▁용융
▁음파
▁특검
▁행상
▁화분
▁히우
▁345
▁710
▁Cry
▁갈루아
▁능력자
▁다득점
▁법주사
▁비변사
▁서라벌
▁스트롱
▁스트립
▁시발점
▁알레포
▁유스케
▁일일이
▁패터슨
▁가니메데
▁꼭두각시
▁스탠포드
▁스프린트
▁오카모토
▁하드리아누스
▁Christmas
gg
▁놉
▁렴
거북
렌트
무이
산염
좌상
asy
erv
▁Fi
▁각막
▁교조
▁다임
▁무반
▁민트
▁상술
▁씨방
▁육영
▁은유
▁일절
▁자퇴
▁초승
▁허셜
ㄹㅏㅇ
▁거북이
▁괘불탱
▁나이츠
▁넥서스
▁다비트
▁달려오
▁실업자
▁암살자
▁저마다
▁체세포
▁1610
▁루도비코
▁사다리꼴
▁슬라이더
▁해운대구
종합
타다
▁가트
▁검소
▁라타
▁룰라
▁박창
▁방광
▁배추
▁비파
▁사재
▁스치
▁언행
▁엑소
▁절지
▁첨탑
▁페미
▁한나
▁해마
▁효령
▁훌린
순양함
테우스
▁나이키
▁발표회
▁산호초
▁식물학
▁쑤저우
▁영월군
▁오다큐
▁임진강
▁청송군
▁칼리프
▁1770
▁Roll
▁아뢰야식
▁오리건주
▁지주회사
▁컴포넌트
예트
ald
▁강선
▁공역
▁난시
▁능히
▁라싱
▁링스
▁문맹
▁물산
▁밧줄
▁부로
▁비노
▁스필
▁에콜
▁오션
▁와우
▁완승
▁유향
▁일인
▁입건
▁조업
▁진종
▁채드
▁판시
▁흥업
▁개혁가
▁누리꾼
▁마린스
▁망설이
▁바우어
▁수송선
▁시흥군
▁울진군
▁이데아
▁이스타
▁인천시
▁클랜시
▁포커스
▁프로메
▁피아트
▁히라이
니아누스
▁소행성대
▁요시미쓰
▁해군기지
▁Elect
▁크리에이터
▁ㅇㅕㅆㅇㅓㅆ
sy
대상
디브
떡잎
nal
▁AH
▁공교
▁기력
▁기입
▁덴분
▁말살
▁맥라
▁무모
▁배스
▁백스
▁별시
▁봄바
▁쇄도
▁수보
▁액면
▁약소
▁어순
▁웅변
▁웨버
▁의관
▁자화
▁작은
▁조진
▁죄책
▁토가
▁토번
▁피레
▁243
▁pop
▁끓는점
▁대구시
▁물방울
▁분석가
▁불가침
▁자연법
▁주둔군
▁최고봉
▁카시오
▁크로마
▁클랩튼
▁1604
▁마쓰야마
▁이바라키현
▁GeForce
CE
가나
노미
뎅이
랴쿠
문제
잭션
청사
fin
▁Ca
▁근신
▁매혹
▁메티
▁북두
▁분말
▁순무
▁스컬
▁어택
▁엘베
▁이징
▁조간
▁중임
▁차인
▁통째
▁팬터
▁후륜
레인지
메랄드
oman
▁김종서
▁동음이
▁모회사
▁위그노
▁유의미
▁일깨우
▁임실군
▁전시실
▁제이컵
▁졸업식
▁최신형
▁카디프
▁코카인
▁특별상
▁험프리
▁홀랜드
▁확장팩
▁에메랄드
▁트랜잭션
▁포메이션
88
뮤다
워프
▁Tu
▁고신
▁귀도
▁나그
▁등각
▁로아
▁목초
▁사포
▁상봉
▁선국
▁신채
▁오모
▁카포
▁키츠
▁페름
▁하양
▁형평
레흐트
에이터
토니오
▁Mat
▁NCA
▁간사장
▁동호회
▁로비치
▁버뮤다
▁영양소
▁유원지
▁이동해
▁인스트
▁재건축
▁중남미
▁참나무
▁초음속
▁출루율
▁하우젠
▁헤럴드
▁Comm
▁드래곤볼
▁봅슬레이
▁석불좌상
▁오피스텔
▁타카하시
▁에르난데스
bc
ka
닝스
판윤
▁HM
▁Na
▁Us
▁거동
▁계양
▁교세
▁그렉
▁다도
▁무디
▁양화
▁장호
▁표수
▁혈당
▁호성
▁Mem
▁mac
▁경시청
▁광우병
▁더더욱
▁데이지
▁동해안
▁드래그
▁수사학
▁시리얼
▁얽매이
▁우익수
▁중시조
▁쥐라기
▁침례교
▁카펠라
▁한림원
▁3500
▁IDOL
▁맞아들이
▁미쓰나리
▁스테파니
▁아흐마드
▁요시노리
▁한성부판윤
ml
군트
렐리
록스
소송
진흥
태후
트만
험자
BSD
▁QS
▁답습
▁서얼
▁성금
▁양복
▁요일
▁우량
▁주당
▁충만
▁카제
▁탄창
▁테디
▁팔달
▁푸이
▁플린
▁피격
▁허준
▁화법
▁930
▁로지스
▁마르텔
▁배급사
▁부적합
▁블랙번
▁오랜만
▁호시노
▁홍길동
▁부르군트
▁지그문트
▁핀란드어
▁캐치프레이즈
mb
▁겟
▁깍
아과
아스
조프
▁괴담
▁네리
▁대함
▁램지
▁명신
▁방망
▁봉행
▁스펠
▁웨스
▁육신
▁점막
▁정각
▁종성
▁증조
▁질식
▁크롤
▁통설
▁협찬
롭스크
부쿠로
즈베리
aven
ible
▁공급원
▁달리기
▁랜더스
▁마르키
▁마자르
▁몰디브
▁브라흐
▁시그널
▁이홍장
▁인디펜
▁중합체
▁지하실
▁카메오
▁타이타
▁페루자
▁1519
▁고생물학
▁아드리안
▁약사여래
▁에이로쿠
▁중심주의
▁탄화수소
▁통정대부
▁파우스트
▁파이프라인
▁플루오린화
▁ㄸ
다주
밴드
팬지
▁CI
▁군장
▁귀의
▁기선
▁낙후
▁두건
▁뜻밖
▁만회
▁머드
▁목련
▁문선
▁방재
▁사저
▁성비
▁손견
▁에라
▁역수
▁옷감
▁왕사
▁외지
▁유코
▁징시
▁초의
▁초토
▁카게
▁탱고
▁특무
▁파베
▁회개
ents
▁286
▁307
▁런던탑
▁맥라렌
▁메콩강
▁미즈키
▁백혈구
▁법률가
▁아그리
▁아스트
▁에어컨
▁유난히
▁이방원
▁장성군
▁전리품
▁통감부
▁통행료
▁플리트
▁히카리
▁1827
▁1829
▁네바다주
▁니코니코
▁롯데월드
▁Staff
▁Story
▁Under
▁세바스티안
▁일러스트레이터
▁폄
고원
민관
사의
스컵
und
▁UH
▁ㅊㅣ
▁가늠
▁검문
▁고다
▁공허
▁데바
▁디리
▁바브
▁방벽
▁샤론
▁소추
▁완구
▁저속
▁정민
▁코피
▁태인
▁티크
▁하숙
▁홍영
마리아
illa
▁DDR
▁김성근
▁도호부
▁레이지
▁마르타
▁빈번히
▁설계도
▁수리남
▁에리카
▁엘레나
▁재경기
▁침팬지
▁통찰력
▁파비아
▁판문점
▁STER
▁chem
▁고스란히
▁나카소네
▁Young
▁안티오코스
▁위트레흐트
▁챔피언스컵
▁Season
▁프라이부르크
규어
디시
콜리
텔라
▁Er
▁검술
▁대잠
▁도드
▁벌집
▁베츠
▁불기
▁상량
▁신심
▁신혼
▁아헨
▁역원
▁원담
▁자회
▁저리
▁충적
▁후아
▁246
▁UFO
▁공백기
▁굶주리
▁노히트
▁레시피
▁링네임
▁반역자
▁부주석
▁분당선
▁세이프
▁영락제
▁초승달
▁콜롬비
▁클로버
▁BEST
▁char
▁리처드슨
▁상무위원
▁알카에다
▁어셈블리
▁올림푸스
▁조지아주
▁유스티니아누스
▁American
KO
li
▁숯
▁싼
▁젼
더미
세나
엑스
▁거류
▁고케
▁교로
▁낭트
▁녹지
▁도살
▁라나
▁백군
▁스팟
▁실외
▁양봉
▁영안
▁원회
▁음표
▁잡식
▁정묘
▁제강
▁중정
▁청담
▁체신
▁파지
▁표식
▁핑거
▁후국
▁휴스
▁TTC
▁공격기
▁권위자
▁길들이
▁발루아
▁비스듬
▁사마르
▁연수원
▁인텔리
▁전도사
▁커플링
▁흘러드
▁Kiss
▁갑오개혁
▁디아블로
▁아데노신
▁익스트림
▁카트라이더
▁캬
쓰구
이행
통신
하드
▁군체
▁내뿜
▁목과
▁몸소
▁석주
▁알랭
▁완치
▁유허
▁제호
▁천둥
▁청혼
▁흑해
프로스
▁288
▁302
▁다이요
▁드리블
▁레드불
▁목적물
▁세라믹
▁스쿼드
▁아미르
▁옥천군
▁우에다
▁헤이시
▁후보자
▁흥덕구
떡잎식물
르크세스
▁1598
▁1823
▁실증주의
▁자연환경
▁칼뱅주의
▁황소자리
▁Child
▁크세르크세스
▁럿
사위
처치
▁LM
▁낙성
▁뉴딜
▁레빈
▁매점
▁배격
▁아덴
▁왜관
▁친위
▁킹덤
▁폐포
▁피쉬
바르드
▁EXO
▁Lee
▁PCI
▁Sur
▁뉴타운
▁당진시
▁문화부
▁버팔로
▁베르토
▁사타케
▁생활비
▁횡성군
축구연맹
▁1018
▁달마티아
▁자동차도
▁대하드라마
▁숍
▁젱
더넷
도치
드기
롭스
헤르
▁JO
▁ㅈㅠ
▁난류
▁레진
▁매클
▁반승
▁서무
▁서프
▁석성
▁영인
▁출원
▁피폐
▁251
▁285
▁map
▁고케닌
▁메이든
▁무용수
▁반자동
▁소유스
▁수개월
▁시끄럽
▁아르투
▁아세안
▁이더넷
▁자연석
▁지상군
▁진달래
▁청양군
▁동부승지
▁안드레스
▁크리슈나
▁Inter
▁이슬람교도
▁츨
글러
딩턴
코지
bit
▁jp
▁개점
▁갤리
▁고배
▁나눗
▁단형
▁동중
▁록과
▁목공
▁백기
▁병상
▁불어
▁소호
▁오군
▁와의
▁위서
▁전우
▁전패
▁최현
▁홍가
스턴트
▁242
▁GSL
▁LNG
▁Val
▁겐로쿠
▁동래구
▁목욕탕
▁색다르
▁아쉬움
▁여행기
▁이고르
▁이나바
▁장수군
▁장애인
▁제곱근
▁판무관
▁확장자
▁1750
▁mark
▁분청사기
▁요시모토
▁스테인리스
▁에뮬레이터
31
VF
▁궈
▁격납
▁기거
▁론도
▁반디
▁삼색
▁쇼어
▁수크
▁스캐
▁신월
▁실기
▁쌍극
▁일찌
▁잎겨
▁적위
▁쾌거
▁태초
▁피복
▁580
▁615
▁나눗셈
▁복사본
▁불국사
▁성악가
▁유사시
▁처인구
▁총인구
▁후이족
▁1689
▁Last
▁Spec
▁뉴저지주
▁주니어스
▁핼리팩스
▁헤이세이
▁호나우두
▁Party
▁잎겨드랑이
by
▁넛
나디
mun
▁NR
▁고흐
▁공언
▁광의
▁국조
▁금수
▁농상
▁로토
▁리전
▁말초
▁반부
▁반출
▁베텔
▁생강
▁식욕
▁양키
▁요로
▁우발
▁원죄
▁의창
▁접점
▁차고
▁참지
▁충효
▁크렘
▁통달
▁희종
▁히든
▁히젠
다이스
사무소
절제사
soft
▁dis
▁니시노
▁디오니
▁디제이
▁메이스
▁베르겐
▁분당구
▁분류법
▁신천지
▁알렉상
▁유리창
▁장방형
▁전교조
▁존재감
▁쥐아과
▁협력자
▁구이저우
▁아칸소주
▁하세가와
▁style
▁National
십리
자매
▁CW
▁GA
▁당근
▁대운
▁도바
▁배위
▁샤토
▁손톱
▁수운
▁시추
▁식초
▁아깝
▁암행
▁앙겔
▁연의
▁예니
▁예지
▁용강
▁조양
▁주영
▁집요
▁촘촘
▁카산
▁컬럼
▁특질
▁해미
▁화형
▁후금
나이더
베스트
ends
▁Cap
▁URL
▁곡성군
▁근위대
▁대축일
▁로이터
▁전화기
▁정의역
▁주택가
▁중립국
▁최고점
▁틀림없
▁한국사
▁1774
▁도치기현
▁바르바로
▁스타워즈
▁하토야마
▁해방전선
▁테오도시우스
96
UB
▁뤽
겨지
구로
▁-"
▁더러
▁데빌
▁레테
▁막심
▁면책
▁부팅
▁빅스
▁사루
▁상형
▁슬립
▁시화
▁악성
▁암묵
▁염분
▁작풍
▁조도
▁주리
▁지롱
▁채찍
▁택배
▁해답
▁고기압
▁고이치
▁미라이
▁버추얼
▁법체계
▁상당구
▁상층부
▁신정부
▁엄정화
▁역사관
▁오스본
▁퀘벡주
▁테일즈
▁투성이
▁피터슨
▁마르코프
▁조로아스터
ms
분리
장치
▁값싸
▁골대
▁나돌
▁닫힌
▁리의
▁막사
▁비축
▁빈부
▁샤흐
▁세심
▁수각
▁시프
▁아커
▁암각
▁이왕
▁이티
▁임직
▁차녀
▁창극
▁치프
▁캘러
▁캘리
▁평점
▁후불
▁휴즈
빌리시
gram
▁403
▁JYP
▁Son
▁per
▁그라드
▁따라잡
▁로그인
▁볼프스
▁성전환
▁세자빈
▁아사노
▁알자스
▁윌리암
▁윤봉길
▁이기붕
▁지급시
▁카시니
▁커스텀
▁플라워
▁1603
▁간선도로
▁마르티노
▁바이너리
▁이와쿠라
▁인스턴트
▁트빌리시
▁남해고속도로
▁륭
쿠프
틸라
lus
oon
▁CB
▁강주
▁강직
▁고슴
▁기우
▁남사
▁단가
▁메흐
▁물망
▁박노
▁벤조
▁부차
▁부토
▁산골
▁삼지
▁숙적
▁아웅
▁오무
▁우바
▁원환
▁이쪽
▁재촉
▁정안
▁정윤
▁조스
▁주범
▁천동
▁한가
▁혜종
의사당
arth
ould
▁고조부
▁도함수
▁미라클
▁빨치산
▁종교인
▁집행부
예술종합
▁1617
▁Take
▁무하마드
▁베트남어
▁스테이크
▁올리비아
▁큰곰자리
▁color
▁북키프로스
예술종합학교
▁한국예술종합학교
델리
루치
몬테
▁각류
▁남우
▁보닌
▁생동
▁소의
▁연전
▁자강
▁장판
▁칭화
▁펜타
▁행의
▁호퍼
▁후부
▁252
▁295
▁add
▁교육법
▁대유행
▁라이플
▁세이지
▁소비량
▁신이치
▁알타이
▁적당히
▁트러스
▁평가전
▁헤르츠
ATION
▁1624
▁Come
▁고슴도치
▁기요모리
▁아이러니
▁아이치현
▁외무대신
▁케이블카
▁크라쿠프
▁이케부쿠로
48
ki
로빈
막이
신경
츠카
펄스
▁HC
▁건재
▁고심
▁과당
▁교습
▁군축
▁꿀벌
▁넬리
▁노장
▁대미
▁도굴
▁두들
▁루블
▁루체
▁어획
▁연원
▁윤정
▁중턱
▁진척
▁참회
▁츠나
▁트렉
▁할레
▁협공
▁호군
벌랜드
▁670
▁910
▁PHP
▁강북구
▁관리원
▁리에주
▁베르가
▁보험료
▁사업장
▁야마나
▁에가와
▁응원가
▁최강전
▁커맨드
▁키르케
▁Core
▁뒤떨어지
▁바이올리
▁요한네스
▁There
▁페르디난도
▁바이올리니스트
UE
yo
▁헵
바니
박해
사람
소나
임관
ISC
▁Oh
▁가운
▁경련
▁경미
▁남연
▁뇌전
▁대모
▁도수
▁벤트
▁보부
▁상좌
▁솅겐
▁수달
▁스베
▁실학
▁양립
▁여산
▁예스
▁오송
▁유마
▁종인
▁천일
▁통풍
▁풍년
▁하도
▁하진
▁행장
rown
▁274
▁ITV
▁Que
▁갤러거
▁고품질
▁기술원
▁루치아
▁리간드
▁물러가
▁발원지
▁서태후
▁소대장
▁솔리드
▁유위법
▁제자리
▁Want
▁스나이퍼
▁액세서리
▁코네티컷주
DC
▁잿
노바
멜로
셔츠
흥사
▁결산
▁권상
▁김책
▁남정
▁네발
▁놀리
▁석관
▁소백
▁슈리
▁시해
▁악수
▁영변
▁예부
▁외측
▁육로
▁전립
▁차륜
▁청서
▁케미
▁펀딩
▁편이
레이저
▁경전선
▁공고히
▁맞춤법
▁매카시
▁문경시
▁새마을
▁소문자
▁수용액
▁지대공
▁지부장
▁축구장
▁티라노
▁프리마
▁나카야마
▁베네딕트
▁주체사상
▁중선거구
▁와카야마현
경사
삼국
아치
ada
▁IG
▁결절
▁광구
▁교행
▁대추
▁도농
▁들키
▁멸하
▁바움
▁비가
▁스팸
▁실형
▁완고
▁유경
▁자마
▁진경
▁철조
▁코브
▁품위
▁풍물
▁화차
사회당
▁248
▁Som
▁구부리
▁기흥구
▁남다르
▁무색계
▁문학관
▁발사기
▁살인범
▁신속히
▁에나쓰
▁에미넴
▁에번스
▁이름나
▁클레멘
▁킹스턴
▁트란실
▁후쿠치
▁Boys
▁Club
▁Park
▁오리엔트
▁전기철도
▁팟캐스트
▁국회의사당
▁볼프스부르크
▁트란실바니아
▁뽐
▁퀀
미도
▁*/
▁게티
▁금연
▁남중
▁내심
▁대격
▁대호
▁디미
▁라싸
▁리세
▁린스
▁멸시
▁밀폐
▁샬롯
▁이피
▁청해
▁최명
▁쿠즈
▁팽팽
▁현세
▁황진
망원경
▁USD
▁무한대
▁슈테판
▁에라스
▁오른팔
▁완전열
▁이용해
▁재규어
erson
▁스페인인
▁코스모스
▁독립선언서
▁룹
대리
덕동
문예
웰스
▁각칙
▁감바
▁관보
▁글라
▁김무
▁답사
▁대당
▁러쉬
▁레시
▁롬멜
▁밤낮
▁변절
▁분동
▁사행
▁샐리
▁성무
▁수형
▁스나
▁실러
▁자임
▁장손
▁증득
▁체전
▁치키
▁탐진
▁폐선
iano
▁308
▁346
▁ㅇㅏㅇ
▁가만히
▁경전차
▁고아원
▁그라스
▁로터리
▁매뉴얼
▁목적어
▁받침대
▁보건부
▁부유층
▁비너스
▁스테드
▁알버트
▁앞다리
▁오라클
▁월간지
▁전용선
▁한양대
안토니오
▁1758
▁long
▁중성자별
▁Radio
ex
레트
요스
총사
lad
▁건원
▁권속
▁꼬이
▁도브
▁또래
▁랠프
▁리암
▁민수
▁바주
▁박규
▁변함
▁사암
▁산전
▁석고
▁설파
▁신야
▁예브
▁예테
▁옹기
▁요는
▁익룡
▁장문
▁파마
▁포물
▁혈장
클레어
iter
obal
ters
▁312
▁PSV
▁구치소
▁남북국
▁다방면
▁동급생
▁몬태나
▁미네랄
▁산토스
▁상행선
▁수없이
▁순서수
▁이세민
▁장보고
▁축전기
▁컨버터
▁허벅지
▁1650
▁2025
▁브레스트
▁슈퍼마켓
▁신춘문예
▁예테보리
▁처녀자리
▁호그와트
긴스
반응
슨스
시기
SQL
oul
▁국을
▁나로
▁남침
▁비결
▁산로
▁산모
▁신오
▁심청
▁안지
▁정위
▁제제
▁최연
▁컬트
▁탈북
▁토와
드리치
리스크
스코샤
▁MiG
▁고령군
▁달라붙
▁대공포
▁도시락
▁망가지
▁소화기
▁스플릿
▁아와지
▁오야마
▁인버터
▁채권법
▁최충헌
▁훈련기
▁1080
▁1786
▁절지동물
▁알렉상드르
46
물관
아라
의지
토키
혀가
con
▁gl
▁기화
▁당인
▁동고
▁레슨
▁사대
▁속속
▁시파
▁자포
▁잠자
▁조군
▁조음
▁청어
▁체형
▁318
▁und
▁구리시
▁돌핀스
▁리버티
▁리어스
▁부총장
▁승강기
▁신고전
▁아래층
▁아바타
▁알바로
▁와이즈
▁요시마
▁이치카
▁제러미
▁톰프슨
▁화산재
▁회사법
▁1781
▁NCAA
▁PROD
▁오리온스
▁우즈베크
▁전륜구동
▁노바스코샤
▁박스오피스
▁오카야마현
LD
▁뜸
교구
대륙
돋움
라다
비지
예스
울림
참모
rib
▁RB
▁UM
▁가재
▁경동
▁고경
▁괴인
▁김이
▁듀란
▁딱히
▁라만
▁미남
▁봉지
▁비나
▁비엘
▁사납
▁성관
▁성터
▁아길
▁야훼
▁역내
▁왜소
▁외성
▁유탄
▁정영
▁청국
▁캄차
▁토속
▁협소
▁훌라
▁휘장
▁가드너
▁과천시
▁구속력
▁나무과
▁녹는점
▁라이어
▁상대편
▁서강대
▁스키장
▁시에나
▁아오키
▁직제학
▁코뿔소
▁헌병대
▁temp
▁will
▁마이너스
▁아시아나
▁청소년기
▁David
▁보수주의자
▁레트로바이러스
던지
fer
▁개구
▁결방
▁관등
▁군포
▁권신
▁불공
▁순결
▁스도
▁십육
▁알선
▁애들
▁에브
▁예절
▁임씨
▁종시
▁킬링
▁팬더
▁회도
iful
▁241
▁269
▁276
▁299
▁490
▁OBS
▁TNT
▁감비아
▁구한말
▁도로망
▁드리스
▁로페즈
▁법화경
▁부산항
▁수영복
▁엿보이
▁오두막
▁잡혀가
▁조에쓰
▁죄책감
▁체르노
▁함평군
▁헨더슨
▁형태학
▁회의실
▁휴식기
ember
▁1413
▁1506
▁Band
▁니시무라
▁드와이트
▁안달루시아
▁입헌군주제
▁아시아나항공
▁하우스도르프
▁께
다코
100
ube
▁기강
▁대남
▁동단
▁망고
▁문익
▁물색
▁미정
▁배선
▁상냥
▁서도
▁선망
▁순경
▁아고
▁자구
▁재치
▁초라
▁치욕
▁토륨
▁트릴
▁팔츠
▁하바
▁해달
▁헤밍
▁호앙
ㄹㅅㅜ
로니키
평장사
▁581
▁건축학
▁고려조
▁모퉁이
▁바이크
▁볼츠만
▁사용법
▁사유지
▁샌더스
▁어쩌면
▁오타쿠
▁옮겨가
▁제니스
▁지휘부
▁총면적
▁치타스
▁코브라
▁클로스
오세티야
▁1785
▁차례차례
▁가이드라인
▁스프링필드
▁우주망원경
▁카보베르데
▁테살로니키
35
▁숱
렉틱
성사
숨에
윳값
킹엄
▁==
▁강산
▁금은
▁김중
▁넉넉
▁노모
▁다빈
▁단맛
▁류지
▁맞은
▁백선
▁병용
▁붐비
▁서수
▁선례
▁슐츠
▁스푸
▁시지
▁왜건
▁친부
▁타츠
▁태산
▁파테
▁포카
▁혈중
▁홀트
▁히가
▁Sal
▁고윳값
▁단숨에
▁당상관
▁득표자
▁문제삼
▁발돋움
▁보은군
▁사라왁
▁알레한
▁이상재
▁지요다
▁총연장
▁타오르
▁탈북자
▁표시기
▁하지메
▁흥천사
earch
▁1618
▁Mach
▁리얼리즘
▁마쓰마에
▁미네르바
▁심플렉틱
▁오디세이
▁트리오스
▁에마누엘레
▁루이지애나주
게티
이익
▁BA
▁Hy
▁JK
▁Kh
▁감도
▁강신
▁강착
▁공납
▁관작
▁교유
▁귀결
▁매키
▁법명
▁베시
▁분전
▁석영
▁성소
▁셜리
▁신태
▁예르
▁위정
▁일소
▁임수
▁입소
▁작정
▁접두
▁첨사
▁퇴원
▁호자
▁회이
▁희석
리아나
▁258
▁970
▁GTX
▁고위직
▁둘러보
▁바스티
▁사부로
▁서고트
▁스쿼시
▁신청서
▁아토스
▁지배력
▁철광석
▁파슨스
▁피난처
▁한라산
▁한자음
▁1590
▁독립신문
▁남오세티야
▁오세아니아
벨리
열왕
▁구진
▁군신
▁나경
▁뒷산
▁맞히
▁방편
▁백호
▁번트
▁서성
▁신일
▁양곤
▁얼티
▁여제
▁요란
▁용성
▁위례
▁위층
▁유조
▁전상
▁전연
▁초속
▁퐁텐
▁학산
▁허수
▁홀름
▁화질
가사키
izza
▁254
▁279
▁525
▁730
▁가창력
▁고위급
▁불출마
▁선전관
▁수출품
▁시구르
▁여행객
▁요시키
▁자유시
▁주고쿠
▁파도바
▁퍼블리
▁편집인
▁필리포
▁News
▁슈베르트
▁요구사항
▁파이낸셜
▁프레스코
▁플로렌스
▁필라멘트
▁히로히토
▁자유민주연합
공연
호쿠
ift
▁GC
▁간과
▁군법
▁노런
▁대야
▁레기
▁무치
▁변칙
▁비견
▁셰어
▁양말
▁어법
▁이롭
▁일전
▁탁자
▁폭정
▁행실
▁혈증
▁협시
▁후나
▁324
▁Ext
▁KNN
▁나세르
▁누에바
▁다무라
▁뒤섞이
▁메구미
▁사누키
▁삽입곡
▁생명력
▁오로치
▁체사레
▁1614
▁라인란트
▁새마을호
▁서베를린
▁순회공연
▁시구르드
▁인류학자
▁폴란드어
▁형제자매
▁동음이의어
▁와일드카드
▁동지중추부사
LO
체육
▁FP
▁TW
▁가칭
▁관복
▁국책
▁금욕
▁내막
▁단바
▁동초
▁목수
▁몸값
▁무연
▁미개
▁사에
▁선의
▁소질
▁송사
▁실세
▁예매
▁오소
▁외주
▁유후
▁정법
▁정씨
▁조피
▁좌안
▁지마
▁촉탁
▁형량
폴리오
ache
▁cle
▁김장생
▁동화사
▁마그나
▁막대기
▁부득이
▁사야카
▁승하차
▁오세훈
▁코시모
▁크누트
▁cent
▁text
▁도미니크
▁야마우치
▁Trans
▁PRODUC
VB
레르
시리
irc
▁강병
▁개창
▁경조
▁랍비
▁로베
▁망각
▁몸담
▁무례
▁본연
▁시이
▁아귀
▁아전
▁연남
▁오븐
▁와타
▁정방
▁조속
▁행세
▁화족
레이라
베르투
수수색
안데르
프스키
▁293
▁870
▁갈고리
▁경유지
▁물리량
▁스콜라
▁신채호
▁영상물
▁장학생
▁칭하이
▁컴팩트
▁파이팅
▁행렬식
▁0000
▁1609
▁NADP
▁압수수색
▁크레이지
▁트러스트
▁셍
딩거
버시
벡스
소닉
소총
양성
ERT
INE
ets
uss
▁LE
▁굽타
▁만민
▁면밀
▁반스
▁병무
▁비숍
▁상왕
▁섭외
▁소상
▁썸머
▁어려
▁엑셀
▁영묘
▁올슨
▁정가
▁징조
▁출옥
▁코만
▁코언
▁폴스
▁피침
▁피폭
▁호안
▁황국
▁히에
ious
▁272
▁351
▁CSS
▁Del
▁JAP
▁Kid
▁maj
▁가로채
▁경비원
▁경의선
▁경찰대
▁네우스
▁맞은편
▁방화벽
▁병리학
▁사마소
▁성삼문
▁아카드
▁유프라
▁일개미
▁저고리
▁테라스
press
▁Mind
▁over
▁다이어트
▁로체스터
▁스키피오
▁왼손잡이
▁하치노헤
▁유프라테스
▁포트폴리오
pl
감치
서관
을리
조각
▁;-
▁OO
▁가다
▁각급
▁구포
▁난항
▁다낭
▁대내
▁대천
▁라모
▁마호
▁무속
▁믈라
▁베릴
▁섬진
▁소래
▁수피
▁앰프
▁오너
▁유어
▁제소
▁조재
▁참파
▁회절
▁히키
ruct
ving
▁335
▁GPL
▁HBO
▁VfL
▁ㄹㅣㄴ
▁가마터
▁간쑤성
▁게시물
▁노이드
▁다라니
▁동북아
▁밑바닥
▁아담스
▁저격수
▁조리법
▁추징금
▁출신자
▁충실하
▁햄버거
▁흡혈귀
▁히로키
▁소프트볼
▁슈나이더
▁코카서스
▁Songs
▁페르디난드
SS
▁푀
네사
숙왕
실린
에프
청년
프먼
▁강계
▁당해
▁봉양
▁비보
▁비화
▁셀틱
▁소바
▁신교
▁알류
▁알스
▁에딘
▁위수
▁장계
▁장형
▁주보
▁중증
▁천민
▁최병
▁한식
▁혹시
▁혼례
스토이
야구장
▁421
▁Mad
▁TBN
▁대륙성
▁돌출부
▁살라딘
▁생산품
▁아즈텍
▁엥겔스
▁위르겐
▁이그나
▁지배인
▁충숙왕
▁탐지기
▁투수진
다코타주
▁1718
▁공동묘지
▁미야모토
▁부분집합
▁IDOLM
보트
sch
▁개울
▁격변
▁경정
▁계측
▁극진
▁녹차
▁드골
▁몽테
▁문왕
▁문희
▁미비
▁보필
▁산산
▁석패
▁신랄
▁아체
▁외르
▁유속
▁이야
▁장어
▁장재
▁전능
▁젊음
▁체가
▁탈린
▁통곡
ider
▁405
▁990
▁Fly
▁Say
▁내용물
▁디나르
▁미유키
▁변주곡
▁부녀자
▁실내악
▁아이다
▁오마이
▁유제품
▁재처리
▁조만식
▁주모자
▁주유소
▁최익현
▁크리크
▁태양풍
▁허가서
▁헤일리
▁Hard
▁Work
▁막내아들
▁요시마사
▁인문주의
▁통근열차
▁티베트족
▁프레데릭
▁Count
78
HA
▁묀
사슬
센테
110
▁골반
▁국원
▁굴지
▁기염
▁남안
▁데브
▁명과
▁무종
▁미연
▁바가
▁박선
▁방주
▁부곡
▁불쌍
▁브룬
▁삭과
▁샌타
▁쇠락
▁수일
▁외인
▁유류
▁유순
▁음대
▁인덕
▁일회
▁임천
▁쟁의
▁정간
▁제전
▁크립
▁타히
▁펄프
▁해골
▁히카
▁BGM
▁Dec
▁Lin
▁고유종
▁나오미
▁데이즈
▁상공업
▁실학자
▁옹호자
▁작업장
▁작용기
▁제닝스
▁폭발력
▁경국대전
▁군사령관
▁마사요시
▁시나가와
▁암행어사
▁애너하임
ga
ti
▁헹
그란
동국
여름
팔트
호테
▁HN
▁남평
▁노퍽
▁논어
▁두근
▁루디
▁볶음
▁부검
▁석비
▁성진
▁소꿉
▁수해
▁아네
▁영릉
▁오더
▁오야
▁일문
▁장내
▁정이
▁채광
▁측선
▁코타
▁항속
▁행크
▁황우
드로스
소수점
아비브
▁Mot
▁공대공
▁김좌진
▁딜레마
▁레베카
▁부교수
▁사리탑
▁세계사
▁수출국
▁순례자
▁순창군
▁이산해
▁제라드
▁제철소
▁캔버라
▁콘트라
▁크로우
▁포유류
▁화천군
▁히다카
cript
▁1050
▁백조자리
▁베이루트
▁지명타자
▁티베리우스
▁프라이버시
▁튕
뭉치
▁TT
▁XL
▁군영
▁기문
▁김근
▁닐슨
▁단파
▁된장
▁랩퍼
▁런닝
▁린지
▁마코
▁매상
▁문동
▁변인
▁산천
▁상복
▁스맥
▁어구
▁어서
▁운트
▁이여
▁임자
▁죄악
▁지의
▁징벌
▁찬란
▁창가
▁카푸
▁타령
▁팍스
▁혈류
▁홍조
다코타
▁괴로움
▁다카오
▁사계절
▁삼총사
▁성장기
▁세자르
▁식별자
▁신분증
▁아스투
▁애국자
▁운전석
▁유방암
▁자가용
▁챈들러
▁풀어내
▁피오르
▁히데오
지느러미
▁두루마리
▁쳐들어가
▁코먼웰스
▁텔아비브
▁하이패스
▁아스투리아스
▁클라우디우스
▁넋
▁롄
를리
뱅이
제도
충제
121
mus
▁건수
▁고니
▁공증
▁권제
▁극본
▁니티
▁로터
▁부성
▁사외
▁시전
▁심성
▁안영
▁야영
▁양민
▁영당
▁위너
▁잠식
▁적설
▁중핵
▁직간
▁쿠엔
▁쿠타
▁키티
▁터프
▁푸리
▁필러
▁험준
▁후렴
▁힐데
박물관
베이라
사이저
쿠츠크
▁도이치
▁마르스
▁봉은사
▁좌익수
▁진출권
▁회의장
안데르탈
▁Feel
▁따라다니
▁비행대대
▁사르트르
▁오이라트
▁유한회사
▁저스티스
▁중등학교
▁코르시카
▁네안데르탈
▁올림피아드
▁이르쿠츠크
▁딛
▁슝
▁챕
미안
애플
▁강림
▁구개
▁김관
▁노로
▁라세
▁루마
▁백서
▁버들
▁사동
▁삼청
▁서포
▁손발
▁아악
▁연약
▁우계
▁존자
▁진저
▁타가
▁판과
▁플립
▁항고
▁형세
▁혜공
▁홍종
▁환멸
▁황인
▁Max
▁금천구
▁급성장
▁노래방
▁노하우
▁대장균
▁만토바
▁북극성
▁브렌트
▁산화제
▁아라시
▁지방선
▁파이크
▁수아레스
▁슬라브족
ㄴㅕ
용수
카인
ola
▁감격
▁깃들
▁낙마
▁남위
▁딜러
▁료마
▁명정
▁미공
▁발성
▁뽐내
▁서핑
▁소연
▁야즈
▁양승
▁영생
▁오파
▁운남
▁원부
▁위암
▁응징
▁이본
▁장가
▁조커
▁종중
▁주서
▁집산
▁처소
▁천궁
▁투리
▁판자
▁풀러
▁필치
▁해식
▁허균
▁헤매
▁환대
대표제
르트헤
시아스
지원군
▁Cat
▁rem
▁공화제
▁드웨이
▁로스엔
▁말린스
▁신호기
▁아람어
▁에비스
▁엔리코
▁오랑캐
▁음모론
▁임산부
▁쟁탈전
▁조직법
▁캄차카
▁페넌트
bject
▁cont
▁글리세롤
▁선덕여왕
▁제곱미터
▁신시사이저
▁아방가르드
▁인민지원군
▁크라이슬러
▁팬터그래프
▁로스엔젤레스
▁듬
▁솝
내면
르노
III
▁갑사
▁공청
▁돌림
▁르비
▁모지
▁베링
▁숭상
▁어색
▁엔도
▁자경
▁장량
▁천보
▁철인
▁최유
▁출고
▁칠리
▁핍박
▁하로
▁흉년
프레드
ense
▁MBA
▁Mil
▁경마장
▁고니시
▁기계식
▁기계어
▁깊숙이
▁다빈치
▁다이시
▁다카다
▁덮개돌
▁뒤집히
▁무령왕
▁번식기
▁스크리
▁애국가
▁영덕군
▁오모리
▁오티스
▁유행어
▁이바르
▁이시영
▁형태소
젠테이션
▁1644
▁Only
▁퓰리처상
▁JAPAN
▁쌈
어마
조림
포이
ray
▁BE
▁ㄸㅏ
▁거버
▁공여
▁군제
▁디모
▁래피
▁맹주
▁분홍
▁뻗치
▁섬인
▁성좌
▁송곳
▁음정
▁의안
▁쥬얼
▁직급
▁초유
▁초프
▁촌의
▁최루
▁타결
▁팬택
▁프랫
ular
▁WOR
▁김연아
▁노량진
▁디저트
▁사업단
▁앨릭스
▁영업소
▁왈라비
▁이사국
▁지휘권
▁창업주
▁퀘이사
▁타카시
▁태양신
▁훈련원
렌부르크
▁끌어당기
▁메인보드
▁손해배상
▁안토니우
▁일찌감치
▁테오도르
▁페르소나
▁베스트팔렌
▁Microsoft
은하
ury
▁나물
▁뉴먼
▁마쿠
▁스지
▁시책
▁안사
▁앤티
▁어거
▁어차
▁에러
▁여느
▁염오
▁자자
▁천식
▁포그
▁향사
플라이
▁jpg
▁나탈리
▁다이스
▁동해선
▁루브르
▁미니애
▁베릴륨
▁부수찬
▁사무처
▁수산업
▁윌리스
▁작곡자
▁프로비
▁해파리
▁1637
▁1648
▁봄바디어
▁스맥다운
▁아스팔트
▁자유로이
▁후쿠야마
▁바르바로사
▁부동소수점
▁미니애폴리스
내기
사드
ENT
▁ll
▁가택
▁곤잘
▁공저
▁낭인
▁너클
▁다그
▁랑고
▁무임
▁문전
▁반다
▁반찬
▁백수
▁번진
▁변국
▁본원
▁비음
▁서호
▁성리
▁셋쓰
▁에크
▁영접
▁영통
▁우구
▁우생
▁울버
▁웬디
▁인양
▁일로
▁자우
▁전야
▁초소
▁추돌
▁카슨
▁타타
▁탈주
▁Reg
▁Two
▁log
▁대성공
▁묘지명
▁미쓰이
▁부시장
▁사우드
▁세계인
▁전문점
▁피카르
▁햄스터
타르코스
▁글로리아
▁기독교도
▁윈체스터
▁체르노빌
▁Break
▁major
▁랑고바르드
▁바르톨로메
▁월스트리트
▁파라다이스
GL
▁숏
▁탠
교사
귀족
러시
불화
ily
put
▁go
▁가경
▁만만
▁모독
▁무이
▁미도
▁밴더
▁불그
▁사량
▁사만
▁송치
▁신통
▁심벌
▁악셀
▁예문
▁을과
▁적개
▁조디
▁직영
▁참혹
▁타역
▁플란
▁학예
▁혜화
▁호저
▁호황
▁268
▁780
▁NFL
▁각본상
▁다카기
▁덕수궁
▁리아노
▁만하임
▁보르자
▁선댄스
▁쇼헤이
▁스토아
▁우편물
▁이마트
▁제물포
▁중원소
▁카라스
▁파킨슨
지상주의
▁When
▁밀어붙이
▁불가사의
▁에스메랄
▁에픽하이
▁초등학교
알데하이드
▁뉴멕시코주
▁덕흥대원군
▁클라우디오
▁패트리어트
▁Instit
▁Street
▁오클라호마주
▁늄
비트
IME
▁검지
▁광운
▁리도
▁문산
▁반목
▁불빛
▁소천
▁시현
▁심양
▁아멘
▁원론
▁전분
▁조난
▁조쉬
▁종손
▁첨지
▁초성
▁최태
▁쿨라
▁퇴폐
▁Key
▁one
▁경쟁사
▁노팅엄
▁대용량
▁보관소
▁사마시
▁사용량
▁샤프트
▁줄리안
▁창경궁
▁판매자
▁1605
▁Perf
▁셀룰로스
▁에밀리아
▁예브게니
▁인피니티
▁자유자재
▁카타리나
▁톱니바퀴
▁애들레이드
▁지중추부사
▁트리케라톱스
가족
공단
달라
uch
▁Cy
▁Hi
▁거침
▁권기
▁딕슨
▁매국
▁밀직
▁사투
▁생합
▁실례
▁야곱
▁어와
▁여분
▁육수
▁장윤
▁전계
▁정답
▁지스
▁창호
▁쿠도
▁틸라
▁포시
▁합주
▁홈스
아지에
edia
▁EFL
▁Hel
▁TOK
▁간간히
▁경공업
▁나치스
▁노리오
▁메시아
▁못지않
▁서정시
▁스폰지
▁여단장
▁웨이드
▁집무실
▁칵테일
▁틀어지
▁폭풍우
▁피터스
▁행선지
숭록대부
▁FIBA
▁Here
▁가져다주
▁동물학자
▁브레이커
▁신증동국
▁신해혁명
▁샌안토니오
▁워크래프트
▁신증동국여지승람
▁옻
나귀
무리
벤토
웨인
참배
턴트
ula
▁KA
▁MF
▁감실
▁고법
▁디노
▁매그
▁배쪽
▁여공
▁오웰
▁재검
▁점근
▁추크
▁친자
▁켄지
▁트롬
▁한발
▁협성
▁화포
▁황혼
▁회심
글로빈
네이도
스티니
▁284
▁구세주
▁단단히
▁도리아
▁돌이키
▁마키노
▁살인죄
▁시황제
▁응답자
▁의열단
▁인제군
▁카르텔
▁카자크
▁하시바
▁하이트
▁호치민
▁후원금
▁히카루
▁베네벤토
▁슈뢰딩거
▁신사참배
▁연합뉴스
▁토네이도
▁현대그룹
▁라부아지에
▁넌
궐기
배기
순환
잔디
전지
oot
une
▁각주
▁계위
▁꼭지
▁난동
▁네로
▁니조
▁동광
▁라멘
▁랑선
▁분고
▁산역
▁스오
▁알트
▁어질
▁열흘
▁윤기
▁장산
▁지노
▁치치
▁칼데
▁템스
▁토호
▁하북
▁휴학
▁흑점
▁힐드
ㄴㅕㅇ
부인과
▁259
▁261
▁475
▁AAA
▁공급자
▁과수원
▁김덕령
▁니시오
▁마찰음
▁뭄바이
▁쌍극자
▁이심률
▁총궐기
▁키치너
▁표준궤
▁활기차
▁고해상도
▁메가데스
▁베르베르
▁사라고사
▁세르히오
▁조선귀족
르트헤이트
▁라디오헤드
▁아파르트헤이트
OX
SA
go
같이
바루
사건
지도
치현
하탄
후보
ICA
PER
▁걸림
▁고음
▁덩이
▁마부
▁메클
▁버릇
▁보른
▁사오
▁샤워
▁소거
▁속리
▁심기
▁위관
▁이신
▁재계
▁재연
▁처사
▁초저
▁총열
▁카티
▁튕기
▁튜더
▁호노
▁흑룡
▁707
▁Bet
▁Thr
▁그림책
▁나카쓰
▁네이선
▁다코타
▁바누아
▁사이비
▁상속자
▁심상정
▁울리히
▁적어지
▁증기선
▁함재기
▁현대인
자치단체
▁Some
▁수소폭탄
▁오르내리
▁컨설턴트
▁라디에이터
▁메클렌부르크
▁PRODUCE
oy
▁꼰
▁꿩
기성
날리
러우
뮤직
▁게으
▁계유
▁나흘
▁농약
▁다당
▁단막
▁동역
▁리엄
▁물어
▁반자
▁번스
▁분견
▁붕당
▁상중
▁선녀
▁스켈
▁야크
▁외딴
▁원폭
▁위저
▁윤두
▁입점
▁전의
▁정한
▁종수
▁청학
▁충원
▁파조
▁헤즈
▁현손
모비치
상가상
주머니
▁840
▁CGV
▁was
▁ᆯㄹㅏ
▁건축사
▁궁내부
▁나한상
▁돌려받
▁모리타
▁사파리
▁아키코
▁에드먼
▁원자재
▁인증서
▁중력장
▁철자법
onder
▁마법소녀
▁사단법인
▁설상가상
▁아시아인
▁테레지아
▁while
my
남북
의동
테론
▁Bi
▁고액
▁그제
▁노반
▁단신
▁디프
▁르망
▁면회
▁무심
▁복리
▁상궁
▁석판
▁연비
▁외조
▁임피
▁자꾸
▁장한
▁적기
▁적진
▁콜먼
▁패튼
▁포춘
▁행랑
▁혼성
▁황새
alth
▁317
▁326
▁331
▁OEM
▁군위군
▁다케오
▁라운지
▁마도카
▁면역계
▁무인기
▁바운드
▁불기소
▁사라센
▁사자상
▁슈퍼맨
▁역전사
▁최고령
▁카르멘
▁컬리지
▁프리즈
▁1492
▁1760
▁Face
▁군국주의
▁돗토리현
▁자격정지
▁프로스트
▁하타모토
43
▁땡
방위
어붙
이터
크롬
▁FE
▁귀비
▁노련
▁다기
▁덕성
▁디언
▁명군
▁부강
▁서현
▁시몽
▁신평
▁쏠리
▁악취
▁압구
▁연두
▁우키
▁윤동
▁윤성
▁점액
▁중편
▁평강
▁폐번
▁향약
▁현주
▁화보
코스터
▁277
▁SSG
▁fis
▁교수진
▁더블유
▁라일리
▁맡아보
▁부교리
▁불순물
▁사과문
▁십진법
▁양산박
▁엘레오
▁연구가
▁이창호
▁장준하
▁편미분
▁행정학
▁현대사
비르스크
▁대프랑스
▁만리장성
▁폐번치현
▁푸에르토
▁롤러코스터
▁서울특별시장
▁Beautiful
▁볏
▁좇
▁햐
메탈
배추
양요
여대
▁Ju
▁거위
▁고미
▁고현
▁김사
▁뒤바
▁뒷발
▁바츠
▁벌거
▁별거
▁비올
▁산면
▁산부
▁수꽃
▁실과
▁양인
▁역부
▁왕도
▁재지
▁전출
▁점자
▁정력
▁천시
▁첨정
▁초지
▁침탈
▁쿠파
▁태반
▁트윗
▁핸콕
아오르
▁830
▁걸림돌
▁기관포
▁기념탑
▁냉장고
▁니코틴
▁명문가
▁묵시록
▁빙하기
▁생식기
▁수목원
▁순전히
▁엎드리
▁태백시
프라데시
anger
ather
▁1759
▁1779
▁다카히로
▁임상시험
▁콜론타이
▁수군절도사
▁애니메이터
▁키르케고르
▁념
▁랫
▁몯
▁쭈
국영
다비
레로
웅렬
표범
als
▁BN
▁cl
▁감면
▁곤경
▁골문
▁구술
▁권능
▁나하
▁로커
▁리놀
▁몽키
▁미끼
▁밋밋
▁불륜
▁서운
▁선문
▁소보
▁시효
▁어빙
▁오테
▁유호
▁일격
▁제롬
▁조윤
▁종회
▁집터
▁창제
▁챔프
▁최면
▁치경
▁페닐
▁폐색
▁홉스
▁홍차
▁히고
▁485
▁Got
▁개혁파
▁계양구
▁관절염
▁다르마
▁대화재
▁번호판
▁산책로
▁상장군
▁스카웃
▁스타니
▁스티스
▁암트랙
▁연방제
▁유인원
▁전보국
▁충격파
▁페메니
▁나무껍질
▁라파예트
▁마흐무드
▁비야레알
▁올림포스
▁통일민주당
▁브리티시컬럼비아주
▁사우스캐롤라이나주
바바
밸리
헨글
ita
ume
▁KV
▁격식
▁교편
▁귀가
▁떠들
▁라베
▁매지
▁민란
▁발차
▁보시
▁본교
▁불시
▁선악
▁스핑
▁신서
▁양감
▁여명
▁오줌
▁온돌
▁위독
▁육계
▁일용
▁재수
▁콩트
▁펠라
▁폐사
▁홍경
▁환도
▁황희
▁휴직
나파소
▁328
▁375
▁NET
▁SIG
▁WWF
▁기억력
▁라우터
▁리버럴
▁망주석
▁매도인
▁매립지
▁묀헨글
▁무수히
▁베티스
▁부르키
▁새크라
▁생원시
▁소리치
▁쇼토쿠
▁이코스
▁재무부
▁치료사
▁페렌츠
라트바흐
▁1782
▁들이닥치
▁머라이어
▁시어머니
▁아우크스
▁아흐메드
▁양아버지
▁장로교회
▁House
▁새크라멘토
▁올리베이라
▁부르키나파소
▁Concert
▁묀헨글라트바흐
▁아우크스부르크
▁흄
런즈
중심
집행
치슨
120
ERS
▁견도
▁경운
▁괴한
▁눈여
▁달구
▁도처
▁로웰
▁미덕
▁밍크
▁박형
▁선관
▁송가
▁술어
▁식도
▁식인
▁앗딘
▁용군
▁장생
▁좌도
▁주희
▁친서
▁칠드
▁황동
군다나
▁740
▁건조물
▁김택용
▁브레스
▁서포트
▁소인수
▁애버딘
▁얼어붙
▁외동딸
▁우스터
▁장타율
▁킴벌리
▁티투스
▁하늘색
▁흥국사
▁Fore
▁From
▁동두천시
▁마리아나
▁비토리아
▁캐롤라인
▁힌덴부르크
▁자유민주주의
▁든
사다
음계
amb
box
ste
▁IQ
▁bl
▁mi
▁나체
▁낙서
▁눌리
▁더디
▁도너
▁딜리
▁레츠
▁무니
▁바부
▁수포
▁술부
▁숱하
▁예과
▁요람
▁우장
▁입항
▁호서
▁흥사
대장경
디푸스
▁760
▁KOF
▁고양군
▁고장나
▁나오토
▁루아르
▁리오넬
▁마리안
▁바버라
▁스마일
▁스타킹
▁안식일
▁얼티밋
▁외아들
▁운전대
▁지부티
▁쫓아가
▁청원군
▁출산율
▁훈구파
▁1772
▁Mart
▁SLBM
▁더군다나
▁요르요스
▁수동변속기
▁오이디푸스
85
FF
dy
▁룻
▁큘
결핵
제트
토무
ICE
ael
uff
▁BD
▁BY
▁가급
▁가덕
▁계율
▁근년
▁내국
▁내비
▁대곡
▁도회
▁동제
▁목관
▁무언
▁봉래
▁성욕
▁수병
▁쑤이
▁어용
▁연군
▁우금
▁우노
▁우다
▁우베
▁우어
▁원역
▁일국
▁일월
▁자칫
▁잡아
▁재사
▁파키
▁폐역
데우스
▁경수로
▁그라프
▁뉴포트
▁대덕구
▁라우팅
▁류성룡
▁빼돌리
▁생활상
▁예술인
▁이동성
▁전국구
▁접두어
▁찬송가
▁트레블
▁폐막식
▁플로우
브리아기
▁1526
▁1580
▁Mich
▁발렌타인
▁에일리언
▁프레스턴
▁피에몬테
▁Happy
▁브래드퍼드
▁오브라이언
St
모프
칠성
켄트
콜로
혜진
ASS
ini
ule
▁-,
▁간경
▁감무
▁강지
▁국령
▁국전
▁다층
▁동탄
▁럭스
▁목종
▁백설
▁북스
▁분관
▁사발
▁사액
▁샤우
▁신제
▁알츠
▁오역
▁울주
▁정략
▁주형
▁퀄컴
▁토포
▁튀코
▁피조
▁학내
▁한명
▁항이
▁힘겹
노이드
돌리드
재판소
lish
▁267
▁게리온
▁고속화
▁당나귀
▁마이티
▁불변량
▁블라인
▁사형수
▁수문장
▁아다치
▁원자량
▁이착륙
▁인형극
▁전문지
▁천연두
▁코스모
▁크리티
▁티셔츠
▁1627
▁Java
▁니컬러스
▁도야마현
▁마이스터
▁어마어마
▁하이드로
▁Apple
▁바야돌리드
▁알츠하이머
▁키보디스트
▁져
소자
음기
재지
▁건주
▁금세
▁김완
▁노랫
▁노상
▁닛타
▁다와
▁단죄
▁단청
▁당쟁
▁동갑
▁등반
▁라보
▁마기
▁문민
▁베나
▁별동
▁보례
▁분하
▁블럭
▁상리
▁송대
▁수림
▁연단
▁오순
▁이무
▁인준
▁재밌
▁증시
▁청라
▁첼리
▁쿠미
▁한랭
▁후설
라노스
ware
▁395
▁ICT
▁계절풍
▁동해시
▁드레퓌
▁들어맞
▁마수드
▁메르켈
▁보안관
▁애플렉
▁옷자락
▁음악제
▁음운론
▁인쇄물
▁진공관
▁플레잉
▁플로피
▁하타케
▁히파르
불화엄경
▁1649
▁스미토모
▁오리엔탈
▁Human
▁미야자키현
▁히파르코스
▁네브래스카주
▁Entertain
디치
제동
혈증
▁Wi
▁강현
▁결석
▁경악
▁꽃피
▁니이
▁도롱
▁등분
▁디즈
▁로케
▁명복
▁부국
▁상생
▁소파
▁시학
▁어두
▁연가
▁유노
▁육단
▁육전
▁윤증
▁음서
▁죽산
▁지모
▁짱구
▁카펜
비사우
손가락
cept
▁338
▁357
▁767
▁Div
▁관념론
▁도코로
▁렉싱턴
▁뮌스터
▁박물학
▁발명품
▁베르니
▁브로스
▁상승세
▁시모쓰
▁이사야
▁정규직
▁청백리
▁칼로리
▁크리올
▁베르누이
▁자치통감
▁macOS
▁기니비사우
결사
모델
무시
심판
전위
틀린
화기
▁"/
▁ve
▁군가
▁금곡
▁넥스
▁노심
▁노즐
▁당직
▁대계
▁두문
▁디우
▁명산
▁미량
▁법리
▁벤더
▁보나
▁분모
▁삼계
▁소종
▁속어
▁쇄국
▁식구
▁아멜
▁연표
▁윤년
▁은진
▁응오
▁접선
▁제련
▁조폐
▁치리
▁치요
▁티치
▁편마
▁폐수
▁해학
▁환국
트리히
ines
ones
▁319
▁820
▁Set
▁Spe
▁man
▁std
▁대동맥
▁도리스
▁레이프
▁리보솜
▁마음먹
▁모란봉
▁방면군
▁본존불
▁예산안
▁우선시
▁윤웅렬
▁전문의
▁지렁이
▁1762
▁2100
▁Fest
▁Head
▁VVVF
▁love
▁글리코젠
▁발칸반도
▁비밀결사
▁세로토닌
▁스미요시
▁외할머니
▁을사조약
▁타타르족
▁바이애슬론
▁텡
장구
해협
허가
▁가래
▁감미
▁격문
▁광안
▁괴링
▁난형
▁내동
▁네츠
▁동편
▁두꺼
▁롤프
▁리피
▁마군
▁맥길
▁문도
▁밀약
▁배관
▁보임
▁서녀
▁소고
▁쇼나
▁수액
▁순행
▁안병
▁연역
▁염불
▁윤용
▁장고
▁장창
▁정남
▁조훈
▁직종
▁테무
▁포피
▁학적
▁한센
▁황사
데이터
이어티
인트호
▁309
▁get
▁kHz
▁버킹엄
▁벼농사
▁비센테
▁스트룀
▁아레스
▁연구생
▁연장자
▁전광판
▁절댓값
▁접착제
▁
▃
⊸
ㅇ
ㅡ
ㄴ
ㅏ
ㄹ
하
ㄷ
이
ㅔ
ㅓ
ㅗ
ㄱ
.
ㅢ
ᆫ
ㅆ
,
ㅣ
1
리
지
0
ㅕ
사
ㅅ
대
시
스
되
2
기
년
ㅘ
ㅁ
가
있
수
아
일
자
그
전
국
정
9
주
나
인
제
도
부
들
성
장
ㅈ
구
상
적
어
동
로
르
라
3
위
다
오
원
공
선
트
보
우
드
마
5
치
조
중
의
4
한
8
화
월
미
고
경
학
비
소
유
교
세
6
신
ᆯ
문
7
서
개
계
명
역
회
연
것
후
관
등
모
영
프
용
발
군
무
산
타
크
당
작
"
민
방
내
니
단
레
재
여
카
e
러
만
해
통
음
바
반
분
안
생
a
포
거
차
체
행
키
진
간
호
식
o
노
파
현
남
t
물
히
과
양
본
'
r
출
종
ㅂ
요
m
두
때
속
실
루
토
ㅜ
임
l
데
터
결
형
강
설
코
표
i
-
각
법
초
디
운
승
n
배
태
업
독
에
ㅌ
직
버
함
건
래
입
피
S
력
합
점
불
ㄲ
A
매
최
예
번
또
받
않
C
야
티
베
천
같
권
메
약
브
추
말
알
면
왕
목
격
u
립
심
감
록
s
판
청
투
더
금
북
항
활
네
달
없
평
따
열
저
외
집
특
언
즈
석
편
복
테
향
T
류
병
F
광
처
변
른
령
B
M
족
페
게
I
근
름
황
란
축
급
람
총
쓰
존
송
랑
많
c
능
김
박
술
질
론
참
철
쪽
f
별
g
살
D
울
준
환
증
및
악
올
창
P
품
E
절
;
애
육
곡
료
쿠
백
d
h
플
새
망
은
돌
글
순
&
필
ㅑ
량
머
확
려
림
ᄆ
께
팀
규
패
색
N
극
너
탈
범
쟁
케
견
)
클
련
삼
k
O
L
랜
탄
와
R
째
충
K
린
막
봉
손
책
접
p
럽
날
_
퍼
완
G
츠
뒤
(
못
협
담
션
밀
V
길
누
채
런
블
는
/
골
녀
측
혼
온
취
벌
든
험
즌
귀
암
곳
H
할
찰
허
슬
워
U
웨
앙
씨
[
]
y
친
첫
슈
뉴
칭
습
높
침
효
커
:
널
획
죽
뜻
롭
응
착
난
락
희
엔
센
례
폭
검
징
~
잡
b
논
캐
득
픽
농
헌
갈
틀
엘
섬
홍
풍
움
퇴
폴
택
%
좌
층
W
폐
싱
헤
끝
압
념
덕
느
앞
맞
즉
혁
윤
걸
맡
턴
율
슨
늘
릭
익
얼
갖
텔
염
찬
v
램
묘
팔
컵
벨
콘
엄
잘
링
궁
빌
맹
렌
줄
균
몇
흥
훈
밝
억
휘
앨
객
푸
옥
을
칼
으
칸
먼
델
콜
얻
빈
맥
흐
J
숙
쇼
괴
넘
좋
끼
뷔
샤
몰
싸
ㅊ
핵
붙
찾
w
볼
끌
템
빠
놓
쥐
X
률
굴
컴
탑
액
룹
떠
욕
혹
꾸
잠
갑
롯
십
죄
덴
칙
떨
둘
몬
힘
렇
던
촌
벽
척
풀
먹
몸
졸
략
잉
렉
핀
벤
맨
휴
틴
몽
녹
!
잔
뛰
눈
홈
털
멀
컬
뮤
폰
륙
밴
렵
탁
겨
탕
둥
혜
멸
답
솔
톤
Y
홀
x
혈
윈
팅
넷
셀
겸
돈
컨
낮
쿄
뿐
딸
칠
를
탐
롤
텐
톨
님
퓨
헨
럼
욱
촉
곤
낙
콩
꽃
넓
떤
앤
릴
펜
밖
왜
랙
섭
뇌
렬
붕
읍
=
킹
옹
덜
튜
깨
흔
융
윌
춘
넣
놀
셔
슷
옮
젤
듬
헬
닝
빛
흑
짓
챔
땅
쉽
쌍
딩
곧
멘
켓
즘
팬
큐
뜨
멤
쇄
룡
듀
릉
밤
값
닉
깝
웅
뢰
옛
튼
랭
흡
쉬
납
잇
짜
닌
씩
롱
ㅛ
젠
맺
랫
젝
숭
닥
뉘
겐
궤
z
ㅐ
뀌
펠
멜
빙
섯
숨
+
깊
까
웹
웃
잃
꼬
끄
핑
캠
|
즐
킨
밍
틱
셰
ᄇ
빅
텍
믿
뷰
찍
긴
덤
엽
잎
냐
돕
랍
펼
틸
멕
띠
럭
쇠
곱
롬
짧
폼
삭
켈
릿
첨
혐
Z
켄
빨
?
딘
듣
낭
삶
져
겪
촬
럴
혀
찌
캘
힐
컷
Q
둔
콤
옆
빼
밑
벗
싶
낳
첩
곽
엇
쌓
젊
꿈
셜
짐
킬
룩
옷
냥
헝
ㅃ
큼
냉
닛
ㅋ
톱
맛
읽
엑
믹
왼
겁
퀴
븐
벡
숲
튀
얀
잭
봄
묵
쿨
셋
샌
뱅
뒷
닐
캄
랄
괄
넬
붉
엠
둑
떻
뿌
끊
웰
좀
앗
첼
슴
덮
늄
밥
씬
쳐
톰
묻
앵
듯
탱
팽
팩
픈
뤼
쁘
녕
숫
뱀
늬
짝
흘
j
렐
댄
캔
셈
렴
쾌
꼽
훨
옌
춤
륨
팝
깔
쫓
겔
횡
닫
뽑
늦
샘
갤
렘
뼈
룸
덩
앉
랗
꼭
흉
펴
벼
좁
륜
룬
햄
봇
펙
멍
뚜
깃
굽
딕
윗
탠
퀸
랩
띄
륭
므
딜
빗
퀘
힌
겹
궐
첸
덧
쿼
윙
슐
뮌
듭
삽
꺾
q
홋
셉
쏘
묶
껍
긍
펄
렛
펑
흰
꼴
쌀
훗
훌
섞
툰
붓
*
녁
렀
넥
돔
펀
꺼
끔
\
밭
ㅠ
깥
섹
곰
셸
빵
낌
툴
닷
콧
똑
톡
ㅎ
갱
딱
뿔
훼
팡
컫
쩌
{
늑
닭
풋
킷
콰
콕
틈
맷
핸
콥
힙
굳
흙
룽
룰
뮬
떼
핫
빚
킴
둡
엉
꾼
넌
며
킥
벳
밸
큰
멈
돼
닿
굿
겉
턱
걷
럿
샹
퉁
왈
쑤
뻗
홉
캡
탓
볍
끈
렷
눅
닮
쓸
쯤
샬
쉐
릇
릎
굉
뚫
듈
옵
랴
칩
켜
뇨
앱
싫
웬
놈
툼
긋
퐁
갓
낱
슘
젖
푼
챌
흠
씌
삿
톈
쥬
딴
엣
맵
쿤
펌
쯔
넨
#
솟
걱
옐
팜
륵
ㅚ
솜
댐
얄
렁
잊
덟
짙
곁
멋
돋
헐
탤
$
떡
쏟
흩
휩
얇
굵
밟
핍
덱
뚝
뭉
텀
꾀
둠
훔
얘
끓
댓
맘
캉
옴
밋
괘
햇
빔
촨
꽤
왓
픔
펫
잦
앓
횟
붐
벅
슭
싯
벵
낫
멧
}
눌
휠
꿀
엿
짱
팟
헥
냄
갇
샨
츄
씀
땃
튬
죠
딪
깎
곶
맑
얹
몫
얗
`
닦
텝
눕
걀
썰
뭇
뭐
팍
맏
얽
옳
캅
윅
끗
춥
엥
쟈
랏
슛
쭉
뻔
앰
뱃
팰
핏
듐
낚
뚱
믈
깐
갛
캣
촐
엮
귤
훙
넛
챙
헛
쾰
숀
뫼
귄
섀
쿡
썬
싣
렝
@
뭄
욘
찮
뾰
탬
갯
푹
셴
싹
뮈
삐
얕
녜
딥
덥
샐
돗
웍
줌
렙
깜
펩
낸
늙
딧
탭
슌
써
쾨
샵
꽂
볶
뇽
쪼
깁
펭
꽝
갚
촛
껏
몹
퀼
썩
췌
냅
뻐
늪
큘
괌
즙
짖
짚
츰
숍
쿰
찢
엡
맬
롄
훤
룻
퓌
텁
뵈
빽
뜸
넉
핼
쁨
씻
뮐
뿜
잼
젯
굶
젓
쵸
릅
잣
퀄
똥
촘
벚
슝
쩔
팻
샴
샷
뤄
꿰
퓰
벙
껑
밧
멩
엎
뜯
땀
궈
댕
켐
괜
윽
욤
댈
튠
텅
츨
뽀
낡
킵
낯
꼼
깅
뇰
캇
멱
뎀
퀀
좡
밈
^
쑹
랠
맴
뜰
챠
팎
뮴
헴
엌
웜
딤
쿵
썸
팥
뱌
캥
칫
왁
꽁
솥
갸
댁
쑨
윔
ㅍ
옙
챈
쉘
뎅
훅
쐐
앳
젬
퍽
얌
넴
쉰
욜
깡
칵
맣
뽕
돛
콴
쥘
ㅖ
쑥
툭
줍
쩍
눔
놉
힉
쎄
찻
찜
룀
뺏
ㅞ
웁
팁
캬
옅
늠
찔
읊
쭈
볕
뺨
맙
겟
샛
딛
썹
넵
팸
쉴
븀
퀵
숄
엷
쉼
쏠
텡
핌
횃
쨌
꿇
젼
쌈
웸
펨
웡
힝
텃
씹
춧
튿
텟
싼
된
땡
씽
뻘
댑
봅
깍
휼
긁
눗
꽉
솅
꺽
뱉
냇
홑
솝
폄
갠
뎃
뎬
뤽
밉
윳
쥔
귈
켤
꼰
젱
됭
뢴
찹
숯
쭤
ㄸ
륀
뜩
꿩
쩡
숏
탸
짤
륄
잿
푀
헵
쌔
컹
뽐
숱
꿉
셍
볜
헹
잖
굼
볏
묄
튕
빡
묀
랸
넋
얏
챕
땜
낵
흄
옻
녘
첵
좇
햐
껌
몯
뷸
꿋
냑
놋
밌
핥
줏
짠
쩐
챗
헷
갬
뻣
짬
셤
탯
썽
쥰
쳇
툇
됨
짊
탉
똘
쟝
넝
눙
덫
갭
겜
닙
넙
쿱
췬
괭
젭
쭝
훠
쇤
쨩
쓴
뷜
귓
솽
콸
튤
껴
닳
꾹
긱
앎
윕
폿
헉
둬
벰
뜬
쏙
섣
몐
궂
팹
뚤
셩
욧
깟
햅
ㄶ
놔
늉
돤
쬐
찐
펍
쳅
톳
괵
뷴
숟
뗏
숑
왑
믐
껄
잰
끽
냘
푈
뵐
솁
쳄
겅
닻
듄
쁠
쥴
왐
긔
톄
힛
꿍
먀
갉
꼿
샥
욥
묽
넹
옇
챤
뻑
칡
샅
쩨
쳉
뺄
뺑
웩
껀
셧
뵤
켁
퓸
죤
휨
뭍
륌
꽈
왠
껫
쭐
뎁
떳
섐
쫄
댜
됴
팃
낼
줘
빳
뻬
휫
뜀
쾡
빻
윰
윷
쾅
퍄
땔
틋
뵙
츤
녓
잽
뢸
솀
씁
켕
섕
찧
틔
홰
믄
웻
퉈
쫑
냠
멎
좨
퀜
쉔
퓔
녠
웽
훑
꽌
켠
깻
띵
빤
갔
둣
뵘
햘
쟌
튈
뼛
졍
쯩
꿔
뷧
빕
쉥
쿈
깽
쏭
쇳
얍
ㅒ
겊
뎨
땋
홧
졔
짭
뱁
찡
꽹
먄
롼
섶
쿳
봐
멥
옘
젋
줴
틍
혓
삯
헙
겼
듸
뻥
궬
똔
쭌
켑
뒬
쌩
뒹
삵
쫒
묠
읏
붑
찟
푄
낟
룅
룔
씰
낏
뷘
뿍
쳔
큅
큔
뎐
씸
깬
띤
묜
쏴
녤
떫
뚬
었
ㅉ
쑈
엾
굄
뇬
뽁
숩
읫
폽
쏨
젹
쇽
큄
툐
툠
갗
겡
벋
쉿
뉼
닢
숴
츈
컥
쮸
툽
듦
똠
횔
ㅝ
얉
붇
뿡
낄
쐬
졈
귬
룝
퇘
퇼
믜
뱐
퓐
빰
쌤
툉
푯
섄
쏜
졀
짢
펏
뒨
띔
뽈
솎
옝
쯕
촙
밂
쇨
좆
륑
벱
큉
겋
뮨
싀
쾃
틂
궉
셱
숌
슥
갹
낑
멓
웠
튄
낀
넒
릏
캑
짇
덞
떵
짦
큇
ㅟ
녯
욀
츳
캴
텨
뭔
뱡
였
훵
뗀
삥
얭
뵬
뼉
쌕
옭
쨍
ᆼ
덛
뿅
춰
긷
샾
쓱
쨋
쩜
쫀
퀠
틉
꾐
묑
뺌
쌉
썻
왔
죈
죌
퇀
푁
햏
걔
끙
뚠
횬
휙
껩
뎡
몌
귿
됸
딨
땝
맟
묏
벧
볘
븓
븡
잌
젔
쳥
캰
쿌
큥
꿎
냔
븨
샙
웟
푤
흭
곪
랖
솃
쉑
쪄
곗
랼
뼘
솨
앏
았
윾
ㅄ
굠
땁
떰
쏸
왬
챵
놘
돝
똣
랐
싁
졉
텬
꺅
뤠
슙
읒
잴
쳬
쳰
걍
겍
꾜
륍
슉
큭
킁
퇸
퍌
꽥
뭣
킈
궃
귐
덖
릐
밞
섈
쉭
쌋
짹
춉
췐
곬
굣
귁
끎
녈
닑
닯
엳
읗
쟉
좐
죗
쩧
챨
쿽
탼
풰
ㅙ
겯
냣
됙
뜷
롹
몆
밎
뱟
뽄
삑
췰
츌
했
햔
뀨
뉵
뉸
댠
믯
붸
쀼
쌰
옯
읕
읖
졌
찿
켸
햑
흗
괸
궨
녬
늡
뎌
듕
똬
솬
슯
읻
쟤
죡
쵤
춍
튐
핬
혠
훕
긑
늴
댱
돐
먁
셕
셥
왝
윁
읔
쥣
즁
쫌
퍈
휀
괼
뇩
뒴
떱
룟
왱
좃
즛
쨈
쨔
쫙
찝
쾍
튱
틑
ㄺ
ㄼ
굘
꿘
뀍
녑
됀
묫
믕
섧
섰
쎌
읓
졘
쳡
햣
겻
궜
낢
밪
볓
뺀
뺐
삘
슾
옉
짯
쩬
쮠
챡
캪
텽
ㄳ
ㄻ
ㅀ
걲
곯
뙈
뚧
륏
륩
벛
섥
앝
엹
읃
잍
잛
쭘
쯧
촤
퀑
큠
튁
푠
횐

ㄿ
꺄
꼍
녔
뇸
뉙
뙤
뜽
뢱
밷
뻰
삔
솓
썅
쎅
쒸
욺
윱
짼
촹
츔
퀌
턔
풂
햠
휜
ㄽ
겇
꼳
눞
늣
딫
땐
맻
맽
뱔
섁
슁
엤
왹
욍
읜
읺
짫
첬
츼
픙
ㄵ
ㄾ
귑
껸
꽛
눼
닏
뎜
될
듧
묭
묾
뵨
븜
빋
빱
뺘
쁜
삳
얶
엊
옜
왯
욷
읠
졋
죔
쨘
쭙
쮜
켯
콀
쾬
쿙
푕
휭
갣
겿
꿕
낻
뉻
닸
덪
돟
둗
듁
땟
띡
띨
랬
렫
렸
롐
룐
멉
벴
쌘
쏫
얆
얾
욋
웤
잏
잗
쫏
챰
쳑
컁
켬
콱
큽
탘
퍙
픠
햤
횻
곂
곈
곷
괏
깯
깸
꾿
넗
뉨
늗
닜
닺
됩
땨
땸
떄
뙡
뚯
랟
럇
룁
몃
뭏
볻
봔
븍
뺴
뻴
섿
슽
쌴
씼
엶
옫
옸
쟐
좔
짔
쩝
쬼
쯘
챱
촥
쵹
쵼
춋
쾀
톺
톼
퐝
혤
훽
걈
겆
곙
굥
깆
깩
꽅
꽆
꾕
넀
넢
넫
녇
닽
댛
덨
뎰
됫
둏
뗑
럄
롸
뢨
먈
멂
몔
뫃
뮹
믓
믾
뷁
빝
샇
쇵
싻
쎙
쑜
욈
읆
쟂
쟙
젇
쩽
찓
쳘
쳣
춈
츅
츙
콛
콬
퀍
탙
텦
툿
튽
폘
햗
헿
홥
횰
횽
휑
흝
흫
힁
ᄀ
갂
갘
걑
걺
곌
괂
깉
꺠
껭
껶
꽦
꾄
뀀
났
넖
녣
놰
뇻
늇
덝
뎍
뎦
돴
됄
됮
둄
뒸
듫
떽
뗴
띱
럅
렢
롈
뤀
뤗
륻
몄
뫄
밣
붘
뷕
븥
빎
뽓
뿟
삠
삡
삮
샏
섓
셖
솦
솻
쇘
숰
숳
쉉
쉡
쎔
쓔
앟
앧
얖
얺
엜
엵
욌
욯
윶
읭
읳
읹
쟘
졜
졷
좽
쥠
쩄
쩰
쫜
쬔
쬬
찣
챦
쵝
츕
츩
콮
퀭
툥
튝
푱
풉
퓬
핟
핮
핶
핻
홛
홤
홱
횄
횩
훍
훓
훝
흿
갃
걋
겂
겣
곅
곘
굑
굔
궅
귝
깂
깢
깹
껙
껼
꼇
꼐
꽐
꿏
끕
냡
넎
넡
넶
녝
뇔
뉫
늚
댤
덣
뎠
돎
돚
돵
돽
됏
둰
둴
둿
뒁
뒥
뒫
듥
딷
뗌
뗘
똫
뙨
뛔
뜌
띳
랒
럐
럔
렜
렡
롑
롓
뤌
맄
맆
맜
먗
먿
몀
몴
뫙
뭅
뭘
뭰
뮝
믏
믠
밒
밨
밫
밯
뱆
뱜
벉
봍
봘
뵉
뵷
붏
붖
붛
붜
붴
뷋
뺩
뺵
뼁
뼤
삣
삻
샂
샊
섦
셑
쇗
숡
숸
슼
싈
싰
싲
싾
쎕
쎴
쏩
쏱
쏳
쐇
쑴
쒜
쓿
씃
씉
앃
앋
얅
엩
옄
옰
옲
옺
왰
윘
윟
읅
읶
읿
잋
잩
젣
젿
죰
죵
줓
줫
쥭
즤
짗
쨉
쩸
쫃
쫍
춴
췅
칲
칳
캌
캭
컈
켙
콙
퀏
킼
턀
텉
텥
톹
퇌
퇻
퉤
틧
팈
팯
퍅
퍠
폅
폔
폳
퐈
푣
풜
핔
핳
햊
햋
혔
혿
홅
홯
횓
횢
휄
휏
힜
갅
갆
갊
갋
갌
갍
갎
갏
갞
갟
갡
갢
갥
갦
갧
갨
갩
갪
갫
갮
갰
갲
갳
갴
갵
갶
갷
갺
갻
갽
갾
갿
걁
걂
걃
걄
걅
걆
걇
걉
걊
걌
걎
걏
걐
걒
걓
걕
걖
걗
걙
걚
걛
걝
걞
걟
걠
걡
걢
걣
걤
걥
걦
걧
걨
걩
걪
걫
걬
걭
걮
걯
걳
걵
걶
걹
걻
걼
걽
걾
걿
겈
겎
겏
겑
겒
겓
겕
겖
겘
겙
겚
겛
겞
겢
겤
겥
겦
겧
겫
겭
겮
겱
겲
겳
겴
겵
겶
겷
겺
겾
곀
곃
곆
곇
곉
곊
곋
곍
곎
곏
곐
곑
곒
곓
곔
곕
곖
곚
곛
곜
곝
곲
곹
곺
괁
괍
괕
괗
괠
굇
굦
굻
궇
궎
궘
궝
궡
궷
귯
긆
긜
긧
긪
긾
깄
깋
깓
깖
꺌
껠
껬
꼈
꼮
꾈
꿧
뀜
끟
낛
낣
낲
냤
넁
넏
넑
넚
넞
녋
녙
놃
놧
놩
뇍
뇓
뇜
눋
눝
뉩
늅
늏
늕
늩
늰
늿
닁
닞
닟
닠
댇
댔
댚
댝
댸
덙
덯
뎗
뎝
돇
돍
돓
돰
됍
됢
됰
됼
둉
둙
둚
둟
둧
뒈
뒵
듲
듳
듹
듼
딀
딈
딭
딯
딲
땍
땽
떘
떙
떢
떥
떦
떪
떯
뗄
뗼
뚷
뚸
뚼
뜁
띁
띅
랃
랓
랕
랛
랢
랰
랲
럈
럘
럻
렃
렆
렗
렠
렣
롣
롲
뢀
뢉
룍
룧
룯
뤈
뤘
뤨
뤰
뤳
뤵
륐
륫
륱
륽
릌
릍
릘
릫
릳
맀
맃
맊
맍
맔
맕
맗
맠
맢
먓
먕
먘
먾
멏
멪
멵
몊
몪
뫂
뫈
뫔
묺
뭌
뭴
믁
밚
밠
밬
뱍
뱓
벏
벐
벓
벹
볃
볈
볿
봋
봌
봣
봥
뵛
뵝
붊
붔
붠
붵
뷀
뷃
뷤
븃
븕
븝
븟
빍
빧
빩
뺙
뺬
뺸
뺼
뻠
뻡
뻤
뻩
뻼
뽝
뿗
뿝
쀍
쁭
삜
샆
샞
섊
섡
섨
섵
섷
셒
솏
솑
쇡
쇰
숔
숖
숮
쉅
쉠
슢
슦
슳
싄
싡
싦
싪
싵
싿
쌁
썊
썪
쎗
쎼
쎾
쐉
쐑
쐼
쑷
쓘
씜
앀
앆
앖
앚
앛
앹
앾
얂
얃
얊
얜
얨
엗
엪
옂
옏
옽
옾
왘
왙
왤
왿
욨
욽
욿
웆
웇
웑
웝
윋
윥
읂
읇
읋
읐
읙
읟
읷
잂
잆
잙
잚
잧
잨
쟃
쟇
쟬
젃
젆
젏
젗
젲
젵
졩
졶
좧
죕
죳
줃
줜
줼
쥉
쥤
쥥
쥼
쥿
즑
즞
짎
짛
짥
쨜
쨤
쩟
쩩
쩹
쩻
쪗
쪤
쫗
쫘
쭁
찯
챂
첟
첯
첲
쳠
쳤
촏
촣
쵀
쵣
춛
춝
춟
춭
췍
췡
췩
췽
츹
칯
칱
캎
캿
컅
컺
켰
켱
켼
콭
쾁
쾩
쾻
쾽
쿸
쿹
퀩
퀫
큎
큣
큹
킄
킌
킽
탇
탣
탶
턚
텛
텤
텰
텸
텻
텼
툅
툘
툱
퉜
튭
튻
틜
틩
팉
팑
팠
팤
팦
퍁
펲
폏
폶
퐃
퐅
퐌
퐷
푓
푝
픅
픝
픞
핃
핓
핝
핞
핢
핦
핧
