[UNK]
[CLS]
[SEP]
[PAD]
[MASK]
!
"
#
$
%
&
'
(
)
*
+
,
-
.
/
0
1
2
3
4
5
6
7
8
9
:
;
<
=
>
?
@
A
B
C
D
E
F
G
H
I
J
K
L
M
N
O
P
Q
R
S
T
U
V
W
X
Y
Z
[
\
]
^
_
`
a
b
c
d
e
f
g
h
i
j
k
l
m
n
o
p
q
r
s
t
u
v
w
x
y
z
{
|
}
~

ᄀ
ᄁ
ᄂ
ᄃ
ᄄ
ᄅ
ᄆ
ᄇ
ᄈ
ᄉ
ᄊ
ᄋ
ᄌ
ᄍ
ᄎ
ᄏ
ᄐ
ᄑ
ᄒ
ᅡ
ᅢ
ᅣ
ᅤ
ᅥ
ᅦ
ᅧ
ᅨ
ᅩ
ᅪ
ᅫ
ᅬ
ᅭ
ᅮ
ᅯ
ᅰ
ᅱ
ᅲ
ᅳ
ᅴ
ᅵ
ᆨ
ᆩ
ᆪ
ᆫ
ᆬ
ᆭ
ᆮ
ᆯ
ᆰ
ᆱ
ᆲ
ᆳ
ᆴ
ᆵ
ᆶ
ᆷ
ᆸ
ᆹ
ᆺ
ᆻ
ᆼ
ᆽ
ᆾ
ᆿ
ᇀ
ᇁ
ᇂ
ㄱ
ㄲ
ㄳ
ㄴ
ㄵ
ㄶ
ㄷ
ㄸ
ㄹ
ㄺ
ㄻ
ㄼ
ㄽ
ㄾ
ㄿ
ㅀ
ㅁ
ㅂ
ㅃ
ㅄ
ㅅ
ㅆ
ㅇ
ㅈ
ㅉ
ㅊ
ㅋ
ㅌ
ㅍ
ㅎ
ㅏ
ㅐ
ㅑ
ㅒ
ㅓ
ㅔ
ㅕ
ㅖ
ㅗ
ㅘ
ㅙ
ㅚ
ㅛ
ㅜ
ㅝ
ㅞ
ㅟ
ㅠ
ㅡ
ㅢ
ㅣ
##ᅥ
##ᆼ
##ᄎ
##ᅵ
##ᄇ
##ᅧ
##ᆫ
##ᄒ
##ᆨ
##ᄋ
##ᅮ
##ᄃ
##ᅩ
##ᄀ
##ᄆ
##ᄏ
##ᅳ
##ᄅ
##ᄉ
##ᅡ
##ᆯ
##ᅦ
##ᄑ
##ᆷ
##ᅢ
##ᄌ
##ᅱ
##ᄐ
##c
##r
##a
##m
##b
##l
##e
##s
##ᆸ
##ᄄ
##ᄍ
##ᅭ
##ᄂ
##i
##k
##g
##u
##d
##j
##ᆺ
##v
##t
##ᅯ
##ᅪ
##ᅣ
##ᅬ
##ᅴ
##o
##ᅨ
##x
##p
##w
##ᅲ
##R
##I
##T
##ᇀ
##ᆹ
##B
##M
##A
##h
##.
##?
##ㅅ
##ㅣ
##G
##L
##E
##H
##y
##n
##O
##W
##Y
##z
##2
##1
##ᄊ
##ᄈ
##S
##K
##F
##8
##3
##0
##9
##5
##6
##7
##ㅂ
##N
##ᆻ
##P
##f
##D
##U
##C
##ᇁ
##X
##ㄺ
##ᅰ
##q
##4
##V
##ᄁ
##ᆾ
##ᆴ
##ᆽ
##Z
##ᅫ
##Q
##ᆮ
##-
##ᇂ
##ᆶ
##ㄷ
##ᆰ
##!
##ᆪ
##J
##ᆲ
##ᆩ
##ᆭ
##'
##ㅈ
##ㄱ
##ᆱ
##ᆳ
##ᆿ
##)
##ᅤ
##ㅋ
##ㅏ
##+
##ㅝ
##ㄴ
##*
##_
##/
##"
##&
##^
##ㅟ
##ㅁ
##ㅙ
##ㅀ
##ㅇ
##`
##~
##;
##ㅔ
##ㅑ
##ㅡ
##ㄲ
##ㄵ
##ᆵ
##ᆬ
##{
##\
##[
##ㅗ
##=
##ㅄ
##:
##,
##ㅓ
##ㅌ
##ㅛ
##ㄳ
##ㄻ
##]
##}
##ㅒ
##ㅎ
##ㅚ
##ㄼ
##ㄹ
##ㅜ
##ㄿ
##ㅊ
##@
###
##ㅕ
##ㅉ
##ㄸ
##ㅠ
##%
##ㅆ
##ㅍ
##ㅐ
##>
##$
##ㅢ
##ㅖ
##ㅞ
##|
##ㄾ
##ㄶ
##(
##ㅘ
##ㄽ
##ㅃ
##<
##
이
##ᅳᆫ
##ᅳᆯ
하
다
에
아
는
어
##ᅡᆫ
##이
##ᅡᆼ
의
##ᅥᆫ
을
가
##ᅧᆫ
##서
##ᅳᄅ
고
지
##지
##리
##ᅧᆼ
##다
##ᅮᆫ
##시
도
를
은
##하
##ᅥᆼ
시
##스
기
##ᅩᆼ
##ᅡᆯ
##ᅩᆨ
##ᅳ로
되
로
있
##ᅮᆯ
거
었
##ᅧᆨ
##가
에서
##기
주
##나
으로
ᆫ다
사
자
##어
았
##ᅳᆼ
보
##ᅥᆨ
나
들
##고
마
과
##자
##ᅢᆼ
수
대
##구
##ᅩᆫ
##라
라
게
##도
것
##사
##ᅥᆷ
##ᅳᆷ
##니
여
##우
##ᅯᆫ
일
와
모
그
##대
##드
##로
##ᅥᆯ
##장
##치
##요
적
바
##르
부
전
면
##아
##ᅦ이
##만
##트
오
년
##미
##수
##주
만
##전
##화
##정
##오
##ᅧᆯ
##인
화
스
##야
20
미
조
##터
정
##상
상
유
##부
##는
##히
그ᄅ
##마
##데
##ᅢᆨ
때
##국
구
##키
##게
공
##제
비
으
경
##용
위
인
제
##력
##과
한
##ᅥᆸ
##ᅯᆯ
##신
차
##성
중
##문
##ᆯ리
##타
##면
무
##동
##원
##ᅳᆨ
##ᅣᆼ
지만
소
없
며
성
등
않
노
##격
에게
월
던
세
##비
서
##간
개
##거
201
##유
내
##그
##ᅵᆷ
##소
##보
##체
타
##ᅡ지
피
##무
##명
##러
##차
동
##작
추
방
연
##일
##위
##바
장
말
후
영
선
##카
발
당
##계
##티
##래
우
##ᅳ리
생
신
요
##선
##공
는데
안
##재
##며
리
##식
더
##후
야
##학
##의
##교
버
##들
19
까지
아서
카
처
##당
때문
##크
##모
##회
최
##00
##단
강
##디
##실
##물
##피
##음
##ᅦᆫ
##역
치
##행
##내
해
아니
##중
##즈
##능
##속
##토
##조
회
##버
##한
라고
포
파
원
라는
명
문
불
배
실
데
##반
같
이ᄅ
많
결
매
진
다고
##점
##ᅦᆯ
##람
나오
##분
##산
으며
단
관
특
##군
호
면서
##생
##려
##연
반
패
##임
##관
##노
초
보이
##호
##두
##프
##세
코
##진
##코
##각
계
작
그러
10
경우
역
##본
##안
##록
남
어서
두
분
##방
받
번
사용
##저
##영
##태
다는
따
##급
##ᅳᆯᄅ
출
##민
##경
현
##류
그리
레
드
이후
##포
자신
국
##해
못
쓰
##법
##파
였
알
물
공격
또
##발
##매
저
##종
예
##테
##른
니
##루
감
크
##금
##업
##ᅳ라
애
좋
##통
점
통
사람
재
위하
편
##추
##와
##적
캐
대하
##판
##ᅮᆷ
부터
입
##레
##양
##습
##승
##술
함
##투
교
김
##개
##직
정도
설
형
##건
너
##료
참
시키
##준
가능
##브
##션
##여
다른
메
보다
평
##녀
외
본
이나
##입
##심
##운
12
권
못하
음
으나
##표
학
디
##스트
죽
200
등장
##족
승
는다
뒤
11
속
##량
종
그리고
##어지
버리
키
아이
##너
살
..
확
##석
다가
직
##론
가지
##형
##약
용
잘
만들
##츠
##설
맞
심
##령
변
경기
##출
##청
하나
##황
##er
토
##에
루
##복
##현
##더
끄
사실
돌
##병
시ᄌ
게임
군
네
##합
히
행
##것
##든
##련
##ᆯ라
듯
채
##향
박
운
##외
##망
##ᅳᆯ리
##언
건
##품
활
##번
##배
##께
약
높
시작
목
일본
##머
##네
##니다
모습
필
체
각
##까
이름
함께
양
##ᅳᆯ레이
##환
집
한국
새
##지만
##천
따르
##스터
려
##등
달
##ᆨ터
표
사이
##울
상대
##어나
존
언
15
투
##독
태
거나
이상
팀
##초
##ᅳ래
##송
##in
으면
##목
독
날
하지만
문제
순
생각
프로
증
##럼
다시
힘
##쿠
##란
별
##말
또한
시간
겠
아야
손
##메
완
총
##년
캐리
끝
##쪽
판
가장
##막
##학교
##험
##감
들어
##결
효
잡
##대로
막
왕
근
##색
ᆫ데
당시
천
간
##편
##살
처럼
싸
항
18
당하
및
##on
##탄
캐릭터
스키
##퍼
##ᅵᆨ
ᆫ지
베
플레이
폭
모두
##근
아도
##왕
##남
능
먹
##락
##악
##벨
##케
그렇
시즌
##예
##담
##립
##곡
삼
##ᅧᆸ
상황
복
모든
##패
광
##랑
결국
추가
누
##an
##미지
16
##or
##강
충
##ᆫ드
임
##항
앞
현재
테
##함
스ᄐ
길
상태
느
터
열
##처
##쟁
##집
##글
다만
많이
##절
##질
병
ᆫ다는
러
통하
넘
##때
30
그러나
금
##워
다음
스킬
존재
얼
전투
##ᆨ스
친
검
눈
##커
##냥
13
악
미국
머
능력
##범
합
##접
여기
첫
##존
##택
산
카드
##받
14
민
슈
백
식
##ᅦ인
199
##규
세계
매우
선수
허
##없
##견
커
효과
##ar
라이
취
##ᅱᆸ
##움
이러
##ᅥᆯ어지
17
##베
얻
##열
시리
그런
달리
상당
##ᅮᆼ
ᄇ니다
##ᅳ레
##거리
습
##he
황
##득
째
##at
찾
##템
##별
인하
지역
##은
이유
뜨
다면
물론
##씨
바ᄁ
##름
##탈
뿐
어ᄄ
이용
쿠
북
절
##ᅳ레이
의하
##ᅳ러
여러
처음
기록
엄
괴
##달
극
놓
100
##페
레벨
업
이것
이런
##날
필요
##널
##창
창
실제
자체
시리즈
곳
##박
부르
청
25
올리
해당
일반
그래
##끼
##광
들어가
레이
페
줄
ᆫ다고
엔
같이
어야
##틀
돌아
모르
난
##부분
##변
##애
역시
골
주인
거의
##느
탈
기술
바로
꼬
##착
##순
팬
##큼
##en
곡
마법
##철
티
특히
영화
##활
##난
잠
##칭
빠
##짜
##으
##권
2017
무기
기본
이야
철
혼
##육
즉
##스ᄐ
다르
관련
붙
##백
##ou
아무
환
귀
2018
##불
진행
##괴
냐
##시아
방송
유니
##극
마지
이야기
스타
는지
##월
##되
##찰
나가
##런
겨
피해
##혼
##례
밖
규
좀
류
범
위치
##찬
밝
##돌
란
##가지
방어
싶
알리
제작
##롭
##리아
##희
부분
사건
대부분
담
##al
작품
마지막
증가
##ᆯ러
본인
2019
##ᅳᆯ래
법
일부
계속
인간
ᆫ가
자기
비스
##징
지나
##렵
21
##ᇂ게
떨어지
접
걸
둘
##이트
축
##증
몇
##es
몸
짜
라면
서울
만큼
워
생기
##온
##률
2016
쉽
##ᅳ럽
국가
50
참고
주인공
준
급
맡
우리
##ᅳᆯ로
풀
내용
활동
##벤
##전히
##응
넣
어도
##슨
그냥
##누
중국
##벌
탄
헤
이전
비슷
프ᄅ
어느
팔
으니
암
##귀
##축
##맨
지금
##토리
비하
격
강하
##ᅦ이션
##북
##평
대신
22
벌
성공
만나
수준
이루
타이
낮
##ᅳᆯ라
밝히
##ᆯ로
습니다
까
뛰
몬
감독
##ᆷ버
떠
도록
웨
그녀
##율
198
상당히
드라
##팀
##몬
24
##책
대한
올라
##민국
덕
최대
마다
##랴
대표
이동
없이
기준
홍
래
##ᅦ이지
##굴
배우
논
##할
공격력
울
질
너무
##블
##략
므로
##it
희
제외
##같
##봉
멀
##버지
빠르
인물
죽이
##총
의미
그대로
나타
트
결과
실제로
리그
로서
프리
직접
2015
23
대한민국
어렵
소속
원래
##부터
##획
##앙
전체
홈
이미
##을
평가
밀
승리
보내
그것
메이
##잡
언급
##념
##ᆷ피
자리
체력
동안
대로
##린
샤
##ing
애니
##팅
##턴
##딩
##st
육
전쟁
갖
##le
시절
##닝
##ic
관계
40
싸우
##다가
마음
뉴
설정
ᆫ다면
씩
도시
##ᅳ루
##측
##늘
향
##re
님
멤버
과거
영상
##주의
유저
망
지원
가까
데미지
##운드
##욱
선택
묘
문서
##침
유닛
깨
머리
온
불리
발매
듣
포함
몬스터
끝나
##dd
크리
휴
성우
여자
왜
뜻
스ᄑ
뭐
개발
##웅
##폭
든
빼
##ᅦ이스
어ᄍ
엄청
퍼
힘들
컨
칼
설명
##등학교
##갑
##먹
방법
출연
##필
##스타
##ᅦ일
쪽
바뀌
##켓
플레이어
책
아버지
최고
차이
연구
우승
##컬
기사
혹
##웨
##밀
유명
##염
여성
스럽
##캐
다니
공식
2014
압
##골
##확
답
장면
협
침
몰
봉
블ᄅ
##우스
##없이
##슬
속도
##검
사망
영향
어떠
꽤
려고
##덕
##얼
##슈
발생
이때
##훈
조금
사랑
##ᅦ이트
프랑
26
##손
돈
##플
##ff
갑
000
주장
일어나
주로
##벽
남자
28
##센
측
갈
오래
빠지
사라
인터
전부
층
##el
##머니
아이템
27
초반
걸리
출신
##곤
##am
제대로
##ᅦ임
농
운영
보스
동시
31
자주
결정
아직
중요
##델
##쁘
##림
나타나
the
정보
공개
오르
서로
##벤트
또는
버전
최종
##풍
새롭
강화
친구
대상
마이
독일
##라도
학교
##아가
탑
구성
학생
궁
유지
최초
쇼
노래
쏘
송
##om
##객
역사
소리
##ᅳ라이
강력
나이
역할
파괴
억
사회
이벤트
##럽
정말
누구
##프트
그런데
기존
##새
##버스
##이도
##채
쓰이
찍
스토리
아래
영국
다이
##ᅩᆸ
글
비교
##ᆫ스
마찬
라도
마찬가지
느끼
##휘
##la
형태
어떤
##었
석
##ᅡᆯ리
바람
당연
끼
소환
엄청나
##퇴
##is
후반
인기
보통
회복
이기
변경
##충
##그래
기어
##효
대사
늘
착
##트리
먼
2013
오히
바꾸
##샤
조선
특성
정신
슈퍼
오히려
##시간
거리
파이
폐
정치
섬
##혀
방식
가깝
흐
푸
드래
197
##룡
##라이
음악
이번
발견
29
##너지
월드
이제
사라지
##옥
##협
##나라
##ᆼ크
게다가
32
아들
엘
##동안
잔
##숙
마리
자유
##et
좌
00
##스티
색
끌
성능
##드리
행동
##킹
##던
특수
확률
성격
유일
활약
##지어
맞추
##써
##ol
씨
2012
프랑스
일단
모양
##있
##ion
하이
확인
아예
##싸
구하
##스템
##디오
올
움
따라
앨
윤
이렇게
수록
부족
차지
정부
##답
입장
노선
##ᅢᆼ크
에피
내리
흔
##소리
숨
##멸
흑
돌아오
##ᆼ글
심지어
주변
##이드
먼저
들어오
콘
##곳
영웅
바이
##니아
풍
발동
##엘
어리
휘
2010
거기
##져
뽑
볼
##엇
과정
클리
어요
반대
녹
완전히
드러
##쉬
생산
모드
##ᅩᆾ
##ow
애니ᄆ
##쓰
##그램
개인
응
60
##통령
대회
빛
##렌
##nd
적용
km
##익
잃
##20
획
##il
스ᄏ
제국
##ig
##므로
떠나
으로서
##압
속성
어디
##ed
##먼
시스템
##튼
##균
대학
##랜드
그래서
##탁
에이
##ᆼ장
난이도
득
한번
라며
혹은
35
지키
자세
##뷔
##넷
실패
전혀
돌아가
던지
차량
장비
데이
##뢰
##웃
감소
원작
패배
덕분
현대
국내
사진
얼굴
##욕
TV
건물
열리
동일
대통령
짓
##ᆨ트
얼마
##소드
##나마
초기
더라도
도움
무엇
마을
중심
앨범
우주
맵
지속
날리
##ac
데뷔
##as
##죄
조차
##클
바다
인정
나라
표현
모으
애니메이션
##BS
케
출시
참여
##어가
##참
하루
196
액
물리
굉장
획득
버스
그렇게
of
2011
밖에
작중
시대
계획
꾸
모델
##아내
설치
다양
요구
순간
##끔
반응
세트
견
오브
안되
##놓
##비스
맨
Lv
정확
기능
곤
##못
자동
##궁
##들이
움직
기억
발표
축구
##파이
##갈
드라마
선발
훈
올라가
시점
##ve
그나마
##밍
영어
##길
라인
아마
아군
##혁
담당
명칭
##대학교
##뷰
롭
상승
으므로
판매
##컵
다며
작가
센
시기
중앙
퇴
진출
01
##텐
그림
경찰
세우
았었
##속도
The
조건
가격
맥
뮤
##찮
컴
특징
##뜨리
려는
##ᅳ르
##탕
땅
##덤
##씬
랑
트리
##맹
상위
수비
대체
##특
대전
한테
##ot
고려
지구
관리
남기
확실
드래곤
아주
##위기
참가
500
에피소드
로부터
##혹
졸
##볼
지니
이거
어머니
세이
##트로
크로
80
밀리
##프리
##폰
단계
2000
트ᄅ
어떻게
딸
항목
##취
라서
헌
핵
실력
##ᅳᆯ레
미치
##빈
믿
##으키
##스크
딱
##스로
더욱
묘사
피하
그루
이ᄁ
활용
##섭
##콘
연기
오리
경험
각각
##ad
아르
37
처리
밤
러시아
##액
패치
비판
심하
##인트
45
낙
후보
가족
회사
만화
폭발
펼
##ᆷ피언
문화
##리그
굉장히
세대
죠
##완
묻
디자
이미지
결혼
츠
교육
이어지
구조
##레이
진짜
##뉴
찌
프로그램
내려
##혜
##위원
라운드
위험
챔피언
탐
단순
선거
##큐
턴
듯이
약하
여담
숙
이루어지
발사
혼자
참조
무시
다루
##친
꿈
St
##칙
히로
ᆯ지
목적
술
현실
##아오
준비
주요
194
꺼
민주
기간
불구
거치
스피
##암
##머지
사실상
나쁘
나머지
일으키
마스터
대미지
방영
옆
제공
삼성
계약
약간
쿨
율
유리
##혈
나무
웃
시청
##id
부산
70
중간
##다리
괘
##알
뛰어나
##보이
노리
##척
시도
퀘
패턴
훨
09
방향
논란
##ᆯ레
일정
##엄
##ay
지하
아라
범위
##냐
##닉
동료
유럽
듀
여전히
연속
당연히
돕
한정
90
으면서
흡
소모
칸
한편
이해
분위기
성장
훨씬
FC
##ER
죄
##짝
그룹
국민
세기
싫
얘
보호
드리
특별
##롯
파워
학년
흥
##빠
바라
그래도
론
##리스
##인물
블랙
mm
기대
빌
클래
읽
02
2009
괜
03
똑
##ch
어두
할
가져
조합
향하
잘못
운동
굴
자연
가리
300
맛
기에
즐
출전
##트라
##낌
경제
기타
생명
디자인
최근
엘리
##엔
싸움
해결
취급
##us
48
도망
##ir
자면
짧
ᆯ까
스테이지
##짓
국제
부상
쉬
그거
성적
사고
##티브
태어나
부대
률
05
곧
딜
##ᅳ레이드
##봇
195
33
이라
연결
for
지방
##뮤
2008
##자기
생활
의견
예정
이르
욕
규모
##삼
36
추정
운행
주의
덱
이탈
08
순위
빈
변하
##둥
수정
벗
타입
런
종류
##틴
헬
마치
플래
07
##ur
끊
인구
충분
거대
언제
움직이
트위
방면
스스로
구간
올라오
죽음
염
##륙
익
대화
아이돌
수상
펼치
넘어가
즈
나중
야구
쓰러
조직
안정
속하
전용
##듀
세력
마저
표기
터지
변화
나누
느낌
쌍
지도
벽
블
HP
당신
##쉽
벌어지
장착
미션
##ᆩ이
도중
절대
전문
비롯
등급
##..
##od
케이
탓
세상
##지션
##튜
퀘스트
06
항공
붙이
달성
##BC
직업
벌이
뚜
안타
##흥
특정
만드
폴
지내
일행
관하
엔딩
th
##너스
부활
##수록
털
##능력
굳
##겨
##im
##비아
독립
포인트
튀
##촌
무장
프
##십
발전
종료
지지
##폐
수도
근접
전하
더불
옵
졸업
##허
넓
관심
##층
방어력
04
만약
##붙
으ᄅ
포켓
##최
##렬
##겁
##나이
##ᆨ시
##링
##다니
##흐
반면
미사
벨
따라서
##un
##어들
##좌
##ut
SK
번역
제목
##꾸
보상
엔진
##데이트
소설
싱글
척
거두
내부
칭
에너지
목소리
투수
옥
남성
2007
##즘
력
##탑
you
업데이트
##리오
##쇄
배경
똑같
무리
##윤
가끔
##카이
배틀
정상
저지
##디어
미래
어찌
충격
34
##정도
돌리
##엽
타격
계열
득점
전설
정체
오늘
스페
뒷
비행
지휘
크리스
목표
황제
##게임
덤
공중
최소
그만
항상
분노
##ro
가스
배치
각성
셈
공연
아키
콤
예상
조사
이어
##팔
##걸
으려
등장인물
소재
##묘
북한
##공격
위기
으로써
전국
##헌
정식
얘기
넘기
##란드
생존
##대학
게이
##조건
로마
이끌
늘어나
전작
포켓몬
군사
스포
신경
냉
##ag
##싱
##igh
38
##빙
높이
##ver
##러스
##칸
작곡
애초
다리
##ᆷ픽
요리
ᆯ로
지정
괜찮
##ec
인터뷰
cm
가르
##나가
버프
시전
자랑
쌓
지상
기관
75
스태
##쿄
결승
점수
각종
악마
품
요소
전사
건설
카이
분류
빅
##ent
2006
부여
##르크
슬
인도
##시마
과학
소녀
##멘
꽃
스코
멸
##ᅪᆯ
##스키
교체
55
재미
전기
연출
##운데
정하
이외
in
##야마
삭
무대
전차
놀라
랜
전반
##자리
##학생
193
하늘
레어
정작
옛
##셉
수치
##ak
클리어
확정
##쇼
별로
니까
왼
맹
작전
드러나
##밥
홈런
갖추
개념
##푸
행정
##회의
아카
훈련
소개
건담
야마
##라인
베이
따로
2020
링크
제일
##낙
to
##um
타카
종족
##르트
외국
이적
##무리
군대
갑자기
찬
변신
',
##젝트
린
##ᆯ링
깊
링
나름
이탈리아
제한
단점
바르
기업
##화국
완전
누르
##어로
##븐
장소
vs
혀
녀
크기
인천
기계
##맞
명령
냐고
비밀
##타임
##앗
##아들이
서비스
징
##시대
노력
어쩌
근처
기체
놀
평균
동물
가수
##즌
납
클ᄅ
##홍
파티
수행
포지션
사냥
띄
##ᅳ림
느리
작업
보유
압도
페이
표시
##ST
##모토
옷
기동
##렉
살리
집중
특이
옮
연합
오른
화력
##em
##ub
겸
솔
##돈
시장
쥬
끝내
병력
이하
롯
사업
설립
이쪽
##리어
잠시
기회
##셀
##풀
더니
부모
##니스
부정
브ᄅ
기반
공간
본래
##파트
혈
필드
경쟁
##쳐
치명
파일
##올리
빨
##말로
판단
가운데
##카드
카운
##ᅪᆯ영
무슨
감정
직전
##000
##퓨
목록
이닝
나서
물건
##바이
의외
떨
ㅏㅆ
인식
고양
단어
스위
겪
코미
##따
켄
다크
상관
탈출
월드컵
판정
사례
##텔
옮기
큐
쯤
기다리
소련
주문
밑
##메이
##요일
##이치
던전
##째
##맥
2005
주제
효율
차원
##펜
포기
잇
새로
제거
정리
##찍
가문
앞서
키우
##역시
마르
임무
##ight
진화
42
퀴
려면
다수
대구
뇌
##드로
위력
도전
41
##고등학교
##ᆺ수
도입
때리
##세계
도쿄
##스코
##팩
강제
##몽
별명
##죽
원인
중반
호선
정의
##빌
완성
제품
##그레이드
##셜
킹
발언
고정
##드시
39
##기사
지배
##섯
받아들이
##딜
숨기
유사
촬영
에게서
2004
무려
복귀
##숨
동생
시험
##스ᄏ
어둠
##대표
연습
사이트
직후
분명
붉
인사
일러
도착
EX
버티
모이
LG
역대
은데
전개
쫓
삭제
으로부터
접근
레드
ㅓㅆ
입히
요시
몽
마시
르
고자
꼭
사정
해군
랭크
현상
추천
##ce
예전
왕국
정규
살아
음식
확장
##털
교수
회피
빨리
마나
해외
골드
##몰
##AR
##프리카
안전
브라
오버
##많
업그레이드
홀
책임
병사
이곳
반드시
스타일
##os
줄이
꾼
##덴
##ᅳᆯ린
웹
##줄
조종
유튜
록
완벽
십
자원
부탁
저항
44
타이틀
##방송
##ri
올림픽
롯데
뿌
##스케
도로
극장
고대
##AN
장점
##스토
심각
##버리
##첩
잡히
비용
캠
플라
탈락
차전
##무라
##찌
우선
##ula
Ch
인터넷
자마
아내
의사
##ON
신체
롤
##몇
##하나
##셔
통합
언어
라이브
리더
추측
공동
##대전
##ᆯ린
##리카
##ᅦᆯ레
전력
의원
##아하
No
전략
늦
##ap
##꽃
43
미니
주민
치료
99
이라고
실험
환경
##넘
놈
몇몇
의식
히어로
연장
마무리
##드라
##ᆨ정
벤
연재
합류
##and
구매
2002
파트
소유
##ᆯ리스
짐
st
복수
점점
즐기
다소
##듬
##럭
##픽
살인
장갑
사격
최강
낫
form
철도
대기
종교
사기
##빛
##광역시
전자
##ᅮᆨ
그야
화면
취하
수많
마법사
기념
##아이
구분
브래
좋아하
공포
티어
kg
##논
종종
47
점프
46
##ᅳᆯ링
개최
51
191
사거리
##ᆯ리아
마사
##아보
암살
걱정
가치
formula
평범
##퓨터
##콩
전통
가사
사무
붕
자마자
형식
KBS
##무기
개봉
아쉽
부하
그야말로
##오스
##아지
스티
개월
그리스
채우
선정
녀석
사상
스페인
여행
##모리
##ter
떡
##위원회
팩
아무리
워낙
뻔
##선수
다행
##스카
##오르
##메라
루트
and
요청
펜
미사일
한계
##깨
프로젝트
무조건
본격
정당
정확히
대중
냐는
한글
픽
##젤
##ul
MA
맺
평소
영혼
개그
실점
시청자
거부
비중
밴드
굳이
덜
##IN
##운동
지적
무한
##쿠라
##ᅳ레스
##퀴
틀
공주
옵션
1000
##로드
로봇
네이
2003
데이터
모자
##시장
줄어들
엑스
##ᆺ자
컴퓨터
젊
##브리
##톤
충분히
##녕
고르
##op
위협
투입
상징
는가
멋
##니티
##관계
시설
이사
버그
스토
##사이
달러
도망치
연주
행위
##잔
히트
범죄
##ck
선언
대형
##핑
불가
%,
명중
##폼
실수
브리
쓸
설계
폭탄
콤보
150
##롱
형제
을지
65
특유
##FA
대결
언론
##ation
원정
##꺼
해석
선생
성향
조작
운용
희생
시민
빙
MBC
##정부
광주
##ᆫ만
SP
행사
##려가
전원
일종
인상
대응
보조
##ra
스포츠
192
보병
태양
##ᆯ라지
봉인
일러스트
##남도
하드
광고
행성
잊
##다르
잭
뚫
##페이지
##이상
얼마나
개조
가면
벗어나
오리지
단지
깔
로써
##세이
##플레이
64
II
통과
그때
마력
##머리
##경기
드러내
차례
##기관
##동생
##미널
##트ᄅ
와중
콜
구단
##특별
빼앗
보너스
앙
단체
간단
점령
시나
미드
프로듀
소비
경기도
치르
##려오
ㅏ서
육군
##웨이
화염
흉
발음
생성
숲
서술
뿌리
블루
##옷
가하
##컨
하야
근데
52
방문
혁
셋
클럽
앉
합치
컬
쥐
닌
서버
긴
유튜브
드로
조정
렌
장르
불과
##텐츠
의도
재료
##깐
투표
##ᅧ보
소년
금지
앤
반복
You
가정
의지
정책
함정
지명
한국어
트레이
는다는
년대
저격
노트
영입
디지
400
최후
캡
윈
보컬
분리
초대
##스턴
제안
따지
셰
채널
##art
##멀
원하
##ᅳ래프트
##님
박사
##교육
무사
그저
대비
##춘
사태
##지역
에어
편성
여름
외모
##덜
##ᆯ런
##크로
가져오
고양이
VS
장기
멘
음반
탱
일차
후속
센터
찾아오
##부대
##학자
소식
##솔
49
두번
##도우
숫자
흡수
느냐
##뇌
##니까
적극
먹이
##닥
##마스
목숨
엠
스카
지나가
독자
AP
56
데리
눈물
공략
진입
##루스
장난
패러
모험
나이트
바닥
##센터
은퇴
적절
생물
왼쪽
오토
##사카
괴물
군단
클라
주력
2001
혐
오오
##헤
스테
고등학교
대학교
컨셉
거짓
아름
택
저지르
살아남
기자
ᆫ지라
흐르
의심
확보
##ᅳᆺ
자료
전화
53
약점
노동
원거리
54
개선
##달리
필살
##스리
제도
오리지널
...
사과
형성
##휴
슬로
##ᅢᆼ기
대단
쓰러지
관통
단순히
코드
In
오ᄑ
PC
겹
걸치
교통
대장
##어내
다운
##읍
수호
저주
전술
##핀
##즈키
황금
미리
계기
##마트
##시브
페르
만원
마침
촉
들이
잘하
##시스
##콤
밥
부수
브레이
질문
조각
칠
닮
구축
착용
오프
꾸준
85
상대방
시티
작성
인류
솔로
유도
풀리
##로스
훌
##ia
타임
루이
멈
1990
트로
방해
기원
집단
##나미
##문화
##랗
비난
멜
삼국
역전
##ᆸ터
##다이
##ill
코스
서브
##무원
전환
편하
##워드
습격
필수
아프리카
경상
##팬
열차
##ie
##전자
선보이
승부
족
어라
라디오
트래
##소년
걷
규정
##북도
##나다
홈페이지
##RA
##젠
진정
ST
실시
유우
뉴스
##ᅦ이터
##회사
아나
##딘
##IA
삶
공부
확실히
회전
아프
클래스
모티브
아름답
무력
감안
들리
190
##ik
##전사
엄마
번호
경계
수원
등록
병원
##쥐
##울리
완료
##쇠
편집
어느정도
남편
비고
승강
테이
힐
##영상
표정
무섭
쿨타임
임명
멈추
지나치
기지
오른쪽
딱히
행복
##술사
허용
본선
친하
희망
##이언
사장
##붙이
59
##연히
방패
상처
바탕
좁
당장
의문
라이트
태도
유키
고통
탑재
유래
장군
코스트
##뉘
##ab
아시아
아요
고유
인지
날아가
기점
##ᅦ이드
평화
국회의
##아리
비싸
넥
##ᆯ러리
스파이
##어스
##랄
더블
처치
날개
분야
120
선물
제압
빌리
58
민주당
##시오
트랙
대답
##피아
성인
을까
비트
제시
멸망
하위
챙기
꼽
레인
에이스
##레이션
##흑
##est
가슴
##크래프트
##대회
주목
수리
57
꺼내
잠깐
자라
##꼬
후지
아웃
##th
MP
중단
갈리
가ᄇ
##홀
##all
이론
탯
##레스
멀티
##프로
##놈
나뉘
퍼지
##ea
거주
사령
66
##라스
한화
95
궤
측면
사항
회장
당선
혜
꼴
검사
시나리오
주도
멀리
겨우
##디아
뮤직
포르
내려가
##킨
##릉
액션
##소녀
##전쟁
프레이
눈치
투자
고서
년간
주연
공화국
##스트리
텔레
뉴욕
##헨
동맹
스트리
보급
일본어
##철도
##터리
달라지
약속
Sh
학원
ᆯ수록
##촉
우수
교회
테러
##크리
보수
프레
테마
로드
드라이
##나무
##오리
궁극
낳
Lo
온라인
엉
늘리
##ct
시체
가볍
최악
ddd
on
나타내
##어리
조지
카운터
##하라
1999
망하
Re
료
순서
가져가
떼
위주
배신
좀비
종합
대놓
##초등학교
##륭
##ᆷ프
아스
해제
견제
컵
소울
##바로
110
함대
##ddd
dddddd
그라
보도
Sp
리어
데스
##타로
1998
##두르
현장
오후
##섬
코너
카메라
##AL
산업
지식
계산
연계
핵심
최대한
##니어
##지원
쿄
살해
ㅓ서
##ᅥᆯ리
##값
##AT
62
제로
##PS
예선
포스
귀족
##워하
해금
국회의원
가드
폰
직원
인원
필살기
브로
중화
덩
틈
##OR
전장
베이스
진실
##VE
콩
귀엽
외부
분석
거절
퓨
컨트로
국가대표
드물
건너
##유키
이치
디스
특기
이성
##고기
##주시
##토스
유용
출생
SS
용병
제조
가르치
SBS
어울리
출발
통일
부리
시내
니코
상하
수사
##칼
증거
개편
춤
인형
##맛
소프트
##들리
애매
는다고
기분
##스탄
부담
##시즌
##보스
##ate
지옥
광역
##선거
뱀
레이저
##래도
극장판
흔히
##ess
##사키
커뮤
겨울
안하
Th
##ell
##번호
61
세계관
갱
불명
##피스
어린
민족
##ard
76
##ᆯ런스
한자
##컷
끼리
진영
타자
어떻
싱
단독
##아나
버튼
자살
영역
타이밍
##ang
얼음
피해자
아메
발휘
아무래도
서울특별
겹치
##IC
##민주
자동차
##다수
레전
##바람
##연구
아침
홍콩
##ue
무게
조준
랄
자고
고급
순수
##기술
##렴
##ant
##ack
비록
##대장
##츠키
공통
##칠
##ers
부진
Al
패시브
NP
코치
##라리
77
댓
우려
장전
미야
소수
##ine
로켓
88
두산
1997
케이스
구입
72
반란
##서관
##생활
##심히
카즈
여왕
플
에리
브랜드
##가락
템
탑승
충돌
가로
한명
혼란
몰리
텐
##나오
상자
후반부
막히
통신
장치
기획
기절
만족
서울특별시
문자
내주
협력
외치
인생
삽
파악
군인
탄생
아오
끌어
롱
마크
꾸준히
왕자
게이지
생일
판타
BG
ㅕ서
##디션
##라이더
근거
##툰
##ᆯ릭
##웨어
##둑
##ok
블로
##샷
##OS
카페
코어
부인
테크
안습
##갖
닥터
##납
업무
무너지
실질
##멍
##시티
##붕
##팡
잖
관광
be
제이
스피드
납치
강조
등등
게시
##그리
나카
373
FI
채용
반영
붕괴
블레이
융
공산
크로스
더하
톤
##자키
or
브라지
##카와
위키
자르
돌격
미군
98
fff
훌륭
온갖
쳐
쏟
##융
듀얼
CD
장수
gt
대공
점차
##오프
마왕
##포트
맡기
##ive
##돌리
수단
랜덤
##노스
스킨
울트라
밸런스
없애
600
덴
반격
자격
패러디
##상태
주어지
##메달
##파이어
##사건
용도
경향
값
홍보
아리
쪼
구역
지하철
베르
공군
##도시
대다수
아사
찾아가
내놓
공항
1996
##정보
설득
위원
권력
어차
살짝
제주
입학
고민
어차피
##셰
주년
##ast
승강장
언니
지시
PS
돌파
##옹
표준
##세우
##AS
가까이
체제
##다지
대놓고
1995
지급
화살
커버
영원
실행
감염
가입
또다
짜리
적당
대륙
입수
충전
##중학교
응원
작사
ㅓ야
제기
##uby
",
집안
캐나다
##ED
##은행
댄스
##가능
##켄
##tt
봄
당황
갤러리
68
즉시
##ee
내려오
이렇
자식
은근
lt
800
불안
신화
열심히
연방
##교통
스페셜
뒤집
프라
체인
별도
##거나
브라질
여러가지
여부
오프닝
신뢰
##농
폐지
##시지
북미
매치
63
증명
밟
와이
1980
명예
유형
경력
##아먹
##묵
돌진
정령
##친구
한때
##찾
##ong
보물
##호사
##AM
ruby
빵
괴롭
##독교
도구
운명
이승
가면라이더
후쿠
##오카
모션
마련
균
필리
##ort
김성
선배
흘리
찌르
군주
라이벌
단일
교환
##ᆮ히
비율
덮
계승
##덩
마녀
##관리
룰
##트남
랭
##효과
##ith
근무
##밀리
횟수
재생
오해
카르
경유
중계
71
##if
##아버지
74
드랍
수입
주전
습득
함선
##우드
쿼
셔
불만
정말로
##미야
내내
##ly
##그라
트위터
커뮤니티
##비전
조조
크루
시행
##fff
오픈
##컴
....
MV
##ld
하수
갓
원수
스트라이
재판
장식
##텀
##히로
그곳
락
몹
##티컬
73
67
고속
댓글
지우
ffffff
혁명
고전
##타이
노르
스파
박살
주위
절반
가리키
레전드
추진
격투
딜러
메이저
붙잡
닿
아우
울산
##빵
##보내
컨트롤
아시
외국인
심장
단위
별개
지ᄏ
클로
##겨나
취소
계급
NC
처하
##ain
메탈
일대
##리티
잉
##ist
##가스
96
##공사
민간
스펙
##ᅦᆯ라
파이터
회의
등판
남부
안드로
암흑
1994
##ind
소문
이란
옹
쓰레
늑
가득
재능
마이크
브루
TH
정권
북쪽
그다지
##보드
연예
쌓이
##ᆫ트
예술
감사
마주
180
고치
공유
##서트
해방
쇠
아티
피해량
퀄
격파
##기간
지점
남쪽
AC
이슬
건강
##퍼스
파리
##지컬
문명
그동안
##ᆷ치
외교
스코어
##럿
81
AT
##가리
네이버
장애
초월
##브라
강원
##가와
든지
##베르
튜
##레인
발매되
공작
일부러
사운드
그만큼
결승전
다행히
차별
전방
##per
헤이
널리
말리
임시
##바르
압박
소멸
전달
##아웃
##ps
##구역
기독교
화장
공장
##EN
##톱
입단
문제점
흔하
핀
쓰러뜨리
따오
그림자
적히
깃
##깝
카나
고기
텍
지켜보
피아
께
물러
판타지
타점
##식간
공사
무적
따위
맞서
화려
##EC
##워크
자는
치명타
갑옷
78
91
스튜
오로
##마을
프로듀서
##OL
거래
유비
갈등
순식간
본명
지형
여동생
무난
공기
##ew
여론
##ᆫ지
건축
선호
연사
##때문
일상
##ᅫ지
##ᆼ이
시야
폭풍
컨텐츠
메리
짝
여신
드립
써
84
CP
체육
##탐
##투스
컷
최상
체포
사단
##모로
##데스
##모드
##넣
레오
##LC
무르
관객
me
##ᅥᆷ프
##ry
크리티컬
사쿠라
##일랜드
패스
유로
슬라
첫번
드디어
전투력
##려움
수있
가이
체계
가토
82
불꽃
바라보
자치
삼진
하트
용어
##lo
##타인
전역
추적
##껏
복잡
##둔
오랜
무지
섭
매력
늑대
##영화
97
파이널
대만
한국인
아무런
크레
##ᅢᆼ이
##사항
경영
전함
낭
86
도달
빔
마츠
고향
쿠로
영토
맞이
상향
대원
파견
##공항
에스
폭주
폼
네덜
해설
##병대
떡밥
작동
##억
##둥이
##셋
사전
동원
it
변형
현지
69
다시피
##어버리
한방
몰래
##ᆷ새
추락
인수
덧
요새
##마이
수용
그치
조용
연관
페이지
아무것
수학
##ᅳ름
참전
개통
is
오류
추격
NPC
출판
막장
달하
생명력
메가
출현
##IT
상품
충청
둘러
교황
파라
일제
##믹
작용
##바일
##동차
##렛
돌아다니
틀리
##그루
##고리
매일
만든
프리미
##아파트
US
##과학
푸르
##디언
해체
향상
경험치
박스
리버
MS
통제
중학교
복장
신인
까다
놓치
나루
##렘
낚
An
옛날
구현
왕조
네덜란드
녹음
동쪽
아파트
입력
##레나
이시
##어도
##더스
김정
##윈
##버트
알아
스카이
북부
##깔
굽
##먼트
##어오
조성
##ust
##ᆼ글랜드
오빠
환상
교사
##교회
베트남
알렉
신규
겟
스마트
수업
예외
언제나
보정
화이트
환자
긍
노출
##국가
범인
기초
250
종점
총기
KT
출장
연애
##데이
구체
##연합
##50
되찾
##뜩
메타
타워
##단체
##티드
일원
회원
서부
##구리
심리
##베이
토모
인근
묶
이랑
시각
편지
##병원
영문
##츄
여러모로
신고
플로
##류장
189
대립
쓰레기
거짓말
수요
브
한마
전라
제자
쿠키
##과정
##요시
보장
마인
##킥
사토
의상
신라
불편
불과하
신청
전형
연락
어깨
수집
202
접하
편의
신분
1992
팝
##전차
##야구
##사기
평타
##조리
키리
전면
유희
양산
무료
##블리
창작
천사
에드
차단
서쪽
마리아
신성
기여
92
##흡
##BO
검색
##ore
##저히
부품
모바일
영업
이중
Ar
반지
띄우
노예
겉
대체로
세월
전직
갤
진지
반발
동부
감시
학살
묵
자이언
하고
83
##핵
고생
이날
모리
마리오
주먹
쉐
성과
심판
##펙트
대량
Te
##조사
구속
호평
상상
대우
제하
89
폴란드
##버프
##좋
제작진
잖아
블록
내구
##FF
101
휘두르
기기
93
##바라
반하
정지
1993
다섯
##리스트
##사고
제법
출처
무효
승격
De
알레
MAX
침공
식물
콘서트
기습
뼈
##성기
탁
윌리
닌자
동영상
##그룹
이득
이래
한타
94
스폰
##스팅
랩
그래픽
##스톤
더빙
##시설
창조
잉글랜드
글로
코믹스
보석
이리
잠수
맘
경기장
페이스
com
79
웨이
적어도
알파
##빨
마도
멋지
연상
지도자
은하
##ᆨ시코
요즘
폭력
테스트
##일드
조심
##FC
저장
꼬리
re
동방
##땅
합격
##구치
##스테
##ᆫ디
메카
다이아
찰
##쩡
비디오
다면서
87
엔터
##란색
##가미
##쌍
극단
##사업
볼넷
헌터
하수인
공급
통상
곰
##시리
실드
노멀
박근
뛰어
음성
길이
헤드
##사자
똑같이
##페인
구출
##one
어지
마이클
대략
훔치
On
시위
##닫
파일럿
이재
교전
##김
##클리
##시타
##닛
종이
##공원
전투기
동작
##se
후기
런던
##ip
경비
결성
##활동
합성
토론
상점
지휘관
사령관
##AC
유령
국립
어째
도망가
AI
DJ
물질
고용
##RE
익숙
운전
아머
바보
이슬람
었었
헨
서양
수영
##ere
##플리
##티나
스웨
##창기
##로나
나아가
##코드
탄약
##륜
닉
득표
킬
동네
##PG
폭격
##널티
갤럭
소화
BGM
프레임
MC
회수
인공
장관
사마
어드
신경쓰
##럴
어둡
##라이트
SN
경고
이내
활성
##ᅳᆯ러
퀸
콜라
##의원
의혹
아ᄏ
묻히
법률
샷
##쾌
##ity
불법
권총
냐며
##ath
태우
조절
##녁
##프레
규칙
회차
조치
플레이오프
디지털
전적
홀로
겁
##스킬
##삭
라이더
동기
유행
수송
김영
들어서
으니까
호감
##마루
부문
간부
투구
##공화국
문장
FIFA
요괴
##사회
지르
##인민
##마법
웬만
##부장
##end
제임
##플레
결론
##끄럽
1991
이명
마냥
터키
취임
불러
빛나
움직임
로스
원소
자매
##슬리
다하
매니
앞두
글자
멕시코
##미스
셀
곧바로
제어
##그마
!!
가톨릭
펀
탱커
##메이크
정면
아기
실리
쾌
틱
트라
##부르크
찾아보
일시
##스라
에다
포탑
여유
특화
진심
너무나
##대사
THE
700
FA
메인
예측
문학
##장치
##죠
카라
##배우
오랫
소닉
박정
엘프
절망
타케
신문
메모리
흥행
수술
##놀
ㅕㅆ
도발
전공
구원
가시
의무
##티아
신호
착각
근육
정복
사자
총리
끼치
1988
유대
##ᅳᆯ루
소드
개정
MVP
##지방
외계
리메이크
##둘
제임스
국방
아끼
요정
파이어
연대
개체
##ᅳ란
밴
##ᅳ러지
떠오르
육성
넘치
##타자
저그
시드
그대
초창기
객
니시
좌우
고백
출력
소형
루시
깎
##가드
강철
여지
팀원
차라리
번개
##멜
엑
Ro
샘
물러나
긍정
##OT
인정받
##네스
잦
피부
초등학교
인연
목격
파트너
예비
스크리
베스트
블러
정착
##행위
##아시아
챕터
##스트리아
연도
요코
CC
썰
아일랜드
어린이
에서부터
계정
앵
상호
##팩트
바치
##커스
플랫
##속도로
Wh
카미
타이거
##닌
핫
발달
키스
갤럭시
전시
위장
안드로이드
##작용
영향력
켜
섞
이주
는다면
빗
예고
AK
묘지
식민
신설
블리
히데
내장
대항
헌법
떠올리
몰아
곁
박근혜
##끄
##ect
탱크
각자
DLC
차트
##렁
하필
깨지
대폭
라면서
명중률
htt
##세스
고문
Se
##포터
길드
오사카
1970
코인
세이브
슬롯
##평가
청년
사양
예능
농구
##카리
##잡이
양쪽
후속작
으려고
최소한
Le
마침내
호주
수록곡
분기
##마크
의뢰
훗
앱
##자드
챠
꺾
'.
##시리즈
본작
강의
악역
관할
##위키
##대상
주간
전후
아바
##틱
협박
콜로
현역
누적
국왕
게스트
##저스
공지
저녁
He
용사
인증
스프리
##무장
오랫동안
PD
막차
골든
루타
안내
세르
##미니
##age
그럼
##이즈
신기
##IS
##의회
크라
아빠
우리나라
기원전
부서
주말
일자
미카
al
첨
##티스
역임
넷
방출
의존
구멍
육체
가속
괴롭히
이지
##도르
전선
##필드
적대
분량
어쨌
세종
##무르
kt
감옥
실버
##박스
부부
망치
##지대
##어나오
올해
마구
연인
카오스
장교
Go
다가오
해리
아가
터치
Me
##드레
원자
##앞
##나카
##뜨
간혹
그레이
비행기
장악
이끄
오늘날
##ᆺ지
요원
명성
년만
강남
노부
개방
##몸
일본군
융합
빌드
대지
##물관
ᆫ다며
썩
예쁘
깜
정치인
놀랍
더라
보고
##워치
GT
처벌
가량
대처
오가
출마
안티
김태
1989
형사
KIA
투어
멍
떨어
써먹
놓이
은행
지능
##og
바위
##ake
##ide
상당수
한동안
##몬드
개성
이집
스튜디오
희귀
오스
외형
재미있
춘
오전
전문가
포스트
먹히
십자
##OM
Be
트레이드
My
무덤
화제
피격
##경찰
WW
패하
커지
배트
빡
사제
준수
소지
접촉
환승
섞이
부위
##타입
의료
130
##제국
꼽히
갇히
환영
고교
둘째
윌리엄
##려주
고마
소원
뺏
흠
담기
포르투
대표팀
횡
가게
씌
AR
허리
##펠
빚
##ss
##덱
룬
SC
호텔
##ark
최다
합의
##가시
소총
이집트
초간
섀
인조
##ime
깨닫
오스트리아
##ire
따라가
SM
##천시
편곡
##마리
선전
##치기
젠
##문제
##ᅳ럼
정류장
국회
수련
188
논리
웹툰
으러
wh
아니면
116
확대
손가락
알렉산
뜬
구도
##노우
전진
my
Su
문재
##네임
##그로
##ES
##듭
은근히
전신
삼국지
넉
SD
어른
귀신
ㅓ도
알아보
상업
##스틱
굴리
흐름
##산업
##누스
##ID
입구
극복
##안타
고등
성립
소중
치우
권리
대개
더더
연타
Tr
##스트레이
뭉
미디어
는지라
국가대표팀
스웨덴
청소년
##ite
##던가
태그
새벽
접속
수수
독특
##닉스
별다르
정글
고구
익히
튀어나오
##다랗
변호사
무렵
할아버지
구나
부디
##덩이
유이
무겁
모모
일격
뻐
축제
태평
##일러
##겐
조언
수십
160
##맨드
##ᆯ락
##ound
리치
작곡가
편입
연극
멀쩡
SR
블레이드
칭하
##iv
동의
일찍
페이즈
바이러스
더더욱
바이오
HD
라이프
일일
''
팬덤
팔리
퀄리티
차리
평가받
브레이크
##쳐지
빼앗기
병기
까다롭
음원
보안
##눈
혐의
원본
##협회
카타
블로그
##iz
##OP
핸드
##ge
한마디
##클ᄅ
훗날
권한
위상
기사단
##쩍
허나
랭킹
검찰
첫차
돼지
적군
절대로
IC
##큐어
##우리
대가
##항공
##속성
윌
클래식
##시로
손해
##지구
블라
살아가
칼리
주식
사카
식사
겐
##OW
대충
보관
느라
##주인
대리
합체
증언
면역
##ᆼ기
##사관
주포
뜯
##잠
처형
갈수록
둔
죄다
##감독
각본
시선
적응
하얗
누나
계단
핑
한쪽
무릎
미술
네임
참석
금속
리듬
꽂
공공
매직
과연
결코
모자라
개시
##말리
마이너
우위
##무시
스톰
##사령
한참
내성
개입
결합
##지로
##코토
전철
스승
후방
미소
기적
##법원
량
##LL
시계
헤비
해안
##ome
사도
##머스
활발
동화
지진
정수
토르
천재
수익
슈팅
다음날
으라
러브
Gr
##공학
불교
##갛
어다
연구소
데이비
해상
##고속
경기력
신세
내세우
익스
##테르
##전대
크리스마스
치유
with
##지마
우연히
김민
사이즈
원칙
##BA
유물
##튀
컬러
털리
##지사
이영
##UN
루수
캐스팅
자금
유치
최종보스
##리안
캠페인
개막
##타카
통치
연료
디버프
험
##테이
김종
오래되
커맨드
시즈
사막
스타크래프트
##키아
세포
데려오
이민
비추
보라
##범위
위대
##싸움
선출
IS
지위
투명
칭찬
의회
아크
인지도
게이트
결말
회상
메뉴
충성
이자
##비치
전성기
##일보
해적
##양함
1987
플랫폼
##데미
추가바람
de
업체
녹색
전멸
BE
흔들리
##방식
px
정찰
네오
열쇠
어지간
140
김동
나치
정비
이정
눈치채
##MA
미나
구사
미스
Pr
도서관
흔적
삐
거인
데모
이식
상태이상
신비
##ord
무작
Love
방사
##어서
상급
어쨌든
자국
오직
띠
새기
아미
일반인
호위
웃음
주기
##ud
어마
취미
작화
##주의자
구경
고수
펴
##쥬
지속시간
##짱
제정
##잉
대대
농담
후계
프리큐어
션
##뒤
오카
안경
어려움
ch
화성
날짜
도주
람
으시
헛
챌린
행적
모래
패션
본체
회말
개량
##멘트
불타
##mp
##주민
레이드
매년
##사람
모조리
##려나
##첨
거점
##블린
하락
##10
사후
당일
##뜻
윙
생존자
##ame
##트워크
UE
##반도
##ance
시달리
톰
개수
헝
사이드
의대
SKT
##ax
남북
메르
코코
흥미
둥
##밤
상성
##빌리
진보
코우
자세히
동굴
an
미라
스마트폰
JR
##ure
기울
##크라
일본인
가짜
##게이
##ix
900
기ᄈ
울리
##회장
GS
관중
기르
누리
##문학
##기업
##올
##ick
##mer
비례
##시스트
채택
일방
덧붙이
쟈
국적
캡틴
개혁
식량
##ice
포격
예시
임대
아티스트
##콜
뮈
세인
가을
스프링
##깥
업적
재현
##our
##힐
화학
##자치
##음악
Bo
행하
유나이
유니폼
귀찮
궤도
##월드
방지
리미
기용
바깥
잘못되
영구
집어
피아노
생겨나
고스트
승점
##아다니
연패
스톤
첼
신부
EP
##레이터
노인
식민지
##버스터
소속사
추구
곽
1986
협상
##위대
그레
거듭
몽골
##곱
날아오
미안
자리잡
##인민공화국
잠재
자극
할머니
##투수
사형
선택지
1960
다름
단편
특집
##역사
OST
양성
디아
무방
신앙
##즈마
##류탄
저작
잡지
사우
스탠
이익
빨갛
KO
##{{
Un
제갈
예수
취향
공원
종목
##차량
쌍둥이
중장
간신
숭
스턴
##큰
프라이
아이스
라이온
Ex
##시험
비주
출입
제작자
일치
기병
소장
##얄
넥센
소위
##개발
##긋
명확
##AD
정원
##네이
##qu
타인
전주
##넬
무역
강요
##러지
볼트
어택
포항
나포
몰락
##캠
예산
포로
호수
##듈
잘리
초보
##oc
다치
총선
씹
##릿
사신
부자
이글
콜라보
{{{
안타깝
판매량
##처리
유희왕
즐겁
그만두
막대
##80
타락
조약
##우승
킥
가상
실망
터뜨리
다지
GB
##학원
재산
베네
색깔
곡명
##ᆫ색
찾아내
레이스
##폴
리드
둘러싸
UEFA
세이버
연승
단단
화물
깔끔
기도
즉위
##병기
등지
휴대
DS
##도로
유나이티드
귀환
비상
##드ᄅ
186
##거지
##own
내지
sh
미루
##ys
##딧
##작전
##테일
백성
포르투갈
##맵
너희
신장
프린
챔피언십
아마도
CPU
중독
색상
로고
##버전
게시판
##우마
##든가
명단
찢
아카데미
##페이
항복
##괄
##수사
공성
##ber
식당
고구려
외전
야스
미스터
김재
강원도
통산
인격
유적
칭호
항공기
돋
조별
로그
적합
We
AM
구석
##늬
##슬러
커다랗
##교사
아쿠
교장
중대
타율
##ᆸ스
대선
김대
105
흘러
하단
새끼
건조
##av
##OC
일명
수장
오타
피터
유효
탈퇴
교류
트라이
##랑이
끊기
##old
##뛰
포위
커피
탄창
미츠
시내버스
.."
레알
타수
인치
고작
개국
커리어
짱
CF
흑인
마키
면모
눕
주사
공무원
반사
박히
LI
측정
추억
뽀
그러니까
##orld
예언
나무위키
이수
체크
포수
라인업
기종
후술
##레벨
자폭
기생
히어로즈
휴식
지대
상술
적당히
아저
##드리드
우라
다름없
렙
용기
꾸미
##학과
배터리
저런
##시절
화장실
사유
마약
일기
##니시
##버그
고맙
메시지
##쓸
마비
과목
실전
##여자
##캔
면적
승객
클레
남녀
성남
##고지
1984
소라
깡
형상
차이점
어이
이스라
아메리카
선고
주소
##ont
1985
더럽
반동
최신
##헬
국경
철수
닭
##려들
시노
아랍
매니저
근본
187
##포르
도적
보존
SH
샌
##어마
##번트
추종
##유럽
트레
증오
3000
##졸
승률
로즈
용서
럭
##로봇
강도
매장
한글판
소프트웨어
##축구
##폭탄
AD
##ies
떨어뜨리
LC
사정거리
DF
급격
입지
서포터
유통
크리스탈
만명
후원
하차
또다시
이슈
초코
치루
마드리드
##스틴
lo
서구
KBO
본사
##랜
관람
도끼
부각
더러
미묘
톱
영주
##카오
연예인
시너지
##동물
담배
후배
아르헨
토끼
생략
쓸모
##에르
아이콘
이즈
##통신
집행
휩
잠수함
##랭
루카
네요
후손
데려가
부지
It
액티브
캔
바리
##lay
##잘
주역
##베스
자전
XX
중첩
##센트
아테
왕위
허락
이스라엘
이마
언더
##여객
들키
천만
저렴
##비디오
##기지
마린
중립
##본부
##사무
기아
동성
오랜만
뜬금
##경제
네트워크
상단
구글
기량
튕기
낚시
##산시
##하면
총알
클랜
펑
간신히
꽈
아케이드
음모
공세
##OD
신사
##킷
무척
MF
##걸이
브레
숙련
수류탄
방어구
##슬링
닥
발행
마술
##US
서식
글로벌
부딪
생년
취약
배차
##뚱
구르
관측
고리
엔터테
상인
터미널
벼
뻗
해피
텔레비전
알아내
물리치
혹시
마주치
흡혈
CV
가만
##렙
회초
##다운
자막
상실
맛있
아이언
WWE
파크
창원
행보
대수
곤란
일족
##인간
##캐리
.....
학자
윗
##PM
법정
그랜드
놀이
##모스
##늄
##ann
조이
관찰
공룡
논의
지경
라기
바퀴
사이버
금융
머무르
사귀
##키스
NE
수출
##플라
아르헨티나
애정
어마어마
재정
SE
자본
강등
아시안
고위
##40
곳곳
##에이
거미
오버워치
##사랑
잡아먹
##프라
엿
스페이스
##사이드
##블로
125
시라
##pe
뿔
##ᅳᆯ란
##베리
멘탈
타마
##30
##태우
깨어나
데드
구리
인종
잡아내
간접
공방
발리
텍스트
라스
내보내
관점
자이언츠
침략
경상북도
##체육
웅
##아키
결심
##타운
스트라이크
철학
촌
똥
##도리
오라
문구
차기
##ᆫ가
드레
격추
단장
토벌
##그나
##블ᄅ
##룩
##sh
시마
유학
표지
your
##포스
##하마
되돌리
트랜스
산하
##전기
더군
##불명
악당
놀리
기숙
헤어지
하루카
저러
##NA
##딱
위반
중세
##벅
##기구
##신교
낮추
오크
가동
상관없
쿼터
##픔
##탱
김현
찍히
정화
평생
슛
상영
얻어
앨리스
##노트
##던지
곱
##마스터
약화
##VD
냄새
연합군
CJ
연금
미터
AS
정차
안기
메달
충실
타선
이혼
##를
언덕
금방
드라이브
##어하
거울
##벌레
드래프트
파츠
##슬라
DE
##월일
##승부
동인
남아
와타
간주
서서
엘리트
##ng
보호막
강자
##io
붓
블러드
성별
초록
문재인
배포
##사이트
침입
백제
뽑히
흩
빠져
상기
뱅
긴장
묘하
스팀
헨리
제작사
반전
존재감
인민
호기
루나
다카
주둔
본부
내전
##검사
상세
야생
기관총
마법소녀
복구
스케
##너먼트
;&
엮이
백작
킨
끔
정기
소스
##바닥
해치
##공간
언젠가
제출
티켓
판결
폐쇄
에요
##oo
양자
##누리
제약
화재
로우
모시
##팡이
동양
천안
레이더
균형
지불
후계자
재밌
악명
짜증
##로디
옳
170
엑스트라
뮤직비디오
Pro
이듬
##끈
조연
끈
부적
은신
##히코
잔뜩
##사리
심사
표면
두개
로버트
전세계
펀치
##바나
유력
지뢰
##열차
저택
##ave
##전선
에르
##하르트
뮤지컬
리스
훼
백인
##텍
변환
불사
에다가
답변
##포인트
프로필
쏟아지
경주
##드립
행운
업로드
매체
##LE
##스럽
##구장
프란
##스트로
소유자
휘말리
인용
LV
계통
합병
윈도우
##훈련
위성
심심
딴
that
##펀
##운서
뜨겁
본관
천하
##즐
체결
UP
해명
##방향
태평양
##갈리
정황
난입
생년월일
##엣
프로토스
부임
##방어
뱀파이어
분명히
플레
뷰
코리아
창단
유독
왈
##ION
임신
히나
##디스
라인전
동점
##주교
건드리
노동자
무라
금메달
상관없이
캐논
##ream
선두
마루
보완
려던
ED
##우치
1500
구축함
호칭
괴수
견디
EN
정예
잃어버리
용인
디지몬
맥스
여야
아지
수백
한나라
공허
대인
펫
말투
악화
브라이
서번트
쭉
이듬해
항의
##부로
해골
외계인
하향
전승
파르
준우승
개설
다이아몬드
미쿠
##ond
##다나
1982
영광
호흡
어뢰
->
살ᄑ
팽
경로
굿
선거구
전파
살펴보
##가루
찬스
여우
발렌
유발
끔찍
##윙
통계
##브로
착하
아트
##뚜
##iss
Com
머신
5000
딜링
##마르
도루
펄
사쿠
칼날
왠지
##곽
삽입
##국제
턱
##체제
뛰어넘
##띠
기믹
부ᄃ
실종
##터스
루비
창설
막내
##하시
지치
고도
민첩
돌입
##재판
##슈타인
인디
##웰
참가자
스크린
유인
혐오
아저씨
호환
간격
커녕
존경
그렇지만
와일드
수호자
##밭
##대원
##중간
집착
걸맞
여객
사살
성질
1950
법원
도박
슈트
시상
##IP
##11
##나리
청소
정통
##또
##마치
채팅
기숙사
단축
토너먼트
허가
트럭
사원
반박
경남
##전투
수면
배트맨
드럼
##중앙
주차
##노리
미키
##니카
닫
1983
깔리
감추
우정
전북
##60
이종
##ian
##뚝
??
by
동명
시원
아나운서
##다보
he
디젤
##쟁이
싫어하
드라이버
사용자
세븐
모노
께서
부드럽
기상
분쟁
##이스
##디움
문단
요약
아츠
버스터
첩
기름
##싱턴
칩
퇴장
철저
진압
라틴
용량
BL
자녀
##장비
물고기
릴리
건국
탄환
##틀리
덩치
분신
&#
완결
##고속도로
작년
##카이도
입대
go
##앤
플래시
전제
##토미
불펜
그럭
중력
탐험
##파크
관계자
##페이스
##스트라
아포
##저럭
##홈
경상남도
공정
카와
만남
##겹
##밋
트럼프
##이어
리뷰
갑작
선제
분열
펼쳐지
##세서
##ᆺ집
그럭저럭
오디션
배정
중형
웃기
##Hz
빅토
안녕
##TV
이스
이토
스위스
헝가리
미만
아키라
국군
적중
벌레
##후반
닛
##틀러
아동
노벨
학과
평양
유격
호소
애플
##꼽
##세대
이와
더이상
##유닛
코르
##ory
소속팀
깨달
축복
로얄
##TE
고지
지라
피안타
구름
태국
##ace
단행
손상
##rom
또다른
나츠
##키지
##밖
신전
Co
유전자
리타
무관
인질
두르
Bl
##동자
배역
스트레스
##텐도
도둑
제트
;&#
뿜
나마
휘하
기운
##터미널
##스타일
아즈
비주얼
어필
##필더
야수
대거
하이퍼
가라
마디
##트론
DVD
봇
##정책
침묵
어그로
Br
감각
##ᆯ레스
안전하
토니
워싱턴
급하
미네
##리온
##ᆺ갈리
발굴
학력
##코어
##키퍼
스위치
##끝
기동성
##야수
승자
##계열
옹호
꼼
진학
속이
위안
상식
근거리
Or
##화점
주자
본진
암시
##패스
갈아
##겸
영어판
##oth
공격속도
부스터
안나
라니
##ows
두들
결투
무시무시
크림
장거리
솔직
교차
##데드
레지
##셔널
##MP
동남
재단
처지
요인
##미르
날카
세부
##사거리
삼각
미드필더
신나
이펙트
간단히
비치
팬텀
##돌이
##투표
##차기
우에
커플
후퇴
##벳
##먼스
파동
철거
튼
협회
감지
시신
##TS
보스전
밀어
망가지
시카
함수
할인
관리자
무작위
웨스트
트리플
드롭
공산당
요금
차체
동급
기둥
출격
그린
##제도
##워즈
##예술
괜히
한반도
열매
##IG
스틸
논문
##기어
##든지
개발자
##단지
샌드
그로
##틀랜드
항구
CG
바쁘
무사히
##aw
##이동
모데
185
##틸
날카롭
발매일
올스타
##듯
고개
##조직
기재
파편
##공업
최상위
독일군
마감
##코스
수능
실책
간간
리오
야마토
끼우
연습생
##ᆻ다
즉사
과도
국정
##ale
SNS
보충
##렐
##하이
꿀
아쉬
지칭
##뱅
##이나
힙
부근
원리
PV
마케
파생
##즈니
타쿠
장탄
##지수
록맨
논쟁
##ike
##자동차
온도
특별히
마블
더군다나
기세
약탈
엑시
상륙
영원히
##같이
개별
1945
후자
소요
증상
유성
Cl
성당
인피
임기
선행
페이스북
구미
For
무인
##자와
진주
대치
자전거
##하루
막판
무산
내일
퍼포
축하
피우
젤
RPG
##우트
오키
부장
학문
왜냐
매번
루이스
테일
안양
세계대전
흰색
하우스
##사우
##OU
모토
여러분
방송국
Dr
만주
##르타
유산
툴
요한
첼시
암살자
서서히
데이비드
배출
조리
##ep
##종합
어빌리
중복
출루
소음
##기록
중시
선조
##irl
동경
악몽
##man
임팩트
근대
주류
최적
중국어
신도
##메가
##ach
영지
##ile
175
썬
에반
1981
Sc
##뮬
BB
우세
##부인
수비력
OP
슬프
줍
승인
과장
102
그날
교과
교실
117
필리핀
신발
부착
골키퍼
세번
##타마
베이징
코미디
##히트
##룸
##라기
오마
##12
Team
106
만일
끌려가
멜로디
프리미엄
과학자
##VA
수명
##네시아
지리
LA
사사
일당
##ink
플래그
##잎
Sk
잠입
며칠
에그
고객
##늦
브라운
##치아
의외로
##앉
페널티
Mo
금액
주니어
ᆯ게
꿰
복무
GP
토리
악기
감싸
프로토
권위
큐브
가만히
교토
헬기
챌린지
라이플
##어놓
코난
안개
천연
미즈
DD
복제
위원회
ᄇ시오
115
권장
앗
김경
연맹
베타
물량
미나미
##ᆯ로그
##법인
구별
청와
닌텐도
싱크
##우라
##드래
##슴
원형
스트리트
싸이
질병
굵
공용
소방
모로
##ᅲᆷ
조기
##지아
진격
잠들
장인
##모함
##페라
##ial
해킹
전망
FM
##피해
건네
##ish
가방
##오루
귀국
몫
대조
SU
여인
1979
부실
언데드
엘리자
냐면
가공
규격
청와대
개신교
좌석
UN
##의식
파란색
직장
##키리
타석
만만
최우
응용
선임
오스만
##ᆯ드
##뇨
당대
##ᆯ러스
한두
쟁
퍼포먼스
억지로
김진
에릭
법칙
육상
한일
억제
테라
디스크
새누리
합계
프렌
뽑아내
인권
##ower
취득
신입
학부
가루
다가가
치킨
통화
왜곡
양상
행방
지팡이
궁금
여자친구
입주
##하하
이웃
##톡
가디언
##II
아이러
##바야
Bla
사립
패널
독재
긴급
명백
일화
카스
방치
제독
회색
시비
김상
체험
연령
계시
콘텐츠
이터
후임
야간
대단히
혼돈
마물
기갑
프리미어
가죽
##레인저
공백
즈음
##GE
캐스터
동계
##여행
벙
양식
싹
##케이
야구장
##핏
출구
##느리
##계획
해내
고장
강점
원조
##마츠
##공주
##스레
##호환
수동
부동
변수
주관
수급
김기
##계약
CH
일람
전무
##조합
하츠
경직
we
임금
재회
확산
이브
헤어
부서지
모스크
끊임
구슬
##크스
시리아
공수
BS
##IM
##트리스
Ne
처참
##!!
감동
Star
뒤지
관여
여학생
##체스터
가요
나나
리라
평점
마우스
발목
##업체
시합
부산광역시
오염
##딕
기후
질리
조상
독점
비웃
##저기
코멘트
돌연
##천군
전라남도
포켓몬스터
PR
기동전사
비비
미국인
##차례
장신
ID
##저리
##포드
##노선
##베이터
사법
사이코
호랑이
질투
조롱
타이거즈
나비
##그르
스파이더
화산
포트
##를로
##인드
통틀
##만화
대포
##번에
시그
Wind
공화
기쁘
스와
##전설
에디
안좋
감상
350
세라
##카락
생명체
켈
##99
깜짝
일본판
##소설
임의
내각
공립
교도
손오
엄격
택하
과제
up
##민족
평일
우주선
풍부
분당
소송
카운트
유언
폭행
출간
청주
개장
LP
등번호
##라드
함께하
##자료
피닉스
제네
솜
DC
승무원
파멸
##리얼
클릭
노바
War
캘리
##야스
##어드
격차
##배치
마스크
분해
데이트
fe
And
약물
전남
복원
##궐
##사단
체감
고소
신자
어떻게들
남매
##구미
배달
상한
서포트
##세력
카구
머리카락
##바지
도저히
정발
##ass
##툴
##껍
어드벤
블래
##ᆷ스
##멧
뚫리
만지
추방
##구조
토지
손실
##티어
라이온즈
뒤늦
##쿠스
##ms
원더
##me
모험가
자꾸
성경
##렐라
스즈
360
얀
Man
치열
오로지
나노
아레나
장미
재학
112
##지르
투사
바르셀
트루
##라노
조용히
배급
특전
극도
##전문
마코토
##gh
구성원
중량
따뜻
##정치
사용시
에픽
리버풀
뭉치
조명
##CG
천년
로빈
##기능
베ᄅ
시인
이라크
##나이트
108
All
##켈
박물관
유기
폴리
말ᄊ
다운로드
인력
집합
그중
권유
AKB
##ᆫ헨
소용
##tle
##pp
디즈니
##ble
분포
##amp
##업자
묶이
일요일
경북
스탠드
캠프
중순
넘버
반감
##진영
바르셀로나
##려받
##ft
충청남도
##좀
하마
추리
패전
메이플
고블린
##천사
창고
안쪽
야쿠
상하이
해산
증폭
자비
딜레이
지목
##소총
단종
려다
합리
103
극중
베리
루머
수월
붙잡히
##데타
비유
출범
트위치
축소
##yle
루피
##70
인방
##ous
폐기
##몹
학기
당사자
크리스티
##ᅳ롤
##코치
##포니아
기력
막아내
어시스트
##센스
##상황
##스리그
세금
수직
서머
##프ᄅ
##now
##제한
##atch
조우
릭
##후보
##sp
전대
오이
##클럽
##혁명
##케이션
넘어지
킬러
##구나
One
넘어서
##리나
투척
Mar
본토
집권
카지
불행
##orm
기묘
벌리
##트릭
##스티벌
전당
장사
얻어맞
##수리
수색
New
To
학습
ON
##민주당
여파
##히토
직선
승진
서클
보이스
퍼부
세팅
##방법
##ᆯ릿
주최
원딜
김용
ex
무승부
##사격
세뇌
패키지
꼬이
낙선
대기시간
나루토
짤
나요
IN
순환
범죄자
##모델
막상
##간격
던가
BR
폭파
모집
농업
경악
Part
물체
##미터
후회
되살
로이
유의
KR
키타
부딪히
절차
수석
리얼
가난
두렵
##ᅳ랜
##어트
배제
Gam
채보
헐
살아나
##닐
##흔
##모어
반짝
SF
실현
토요일
비명
국당
유출
까이
하나하나
##킬
복선
##ING
당당
##팽
광산
함락
##겔
수립
극히
에미
랜드
집어넣
헤르
CS
##반기
우호
ᆫ다거나
##비용
엄밀
워커
좌절
##부지
손자
홋
##위원장
토큰
우월
잠실
비극
델
결전
우익
산탄
선사
풋
##더라
복합
##장갑
##생기
##ment
PP
하여
쵸
유재
해병대
명목
엎
실시간
##ae
이동속도
중동
##관광
무술
수비수
인접
##64
##롤
자책
128
지향
세인트
빨간
##끗
포드
장탄수
배려
늙
나르
한국판
##테스
동아리
##자체
##ase
기호
와카
지연
크ᄅ
리스트
스티븐
마땅
레코드
타츠
##카미
핑크
##슬로
##ree
아베
조커
쌀
중화민국
택시
쳐들
유망
생전
드루
되돌
##아들
안심
닉네임
분산
##릇
할로
수염
달려가
김해
신속
동반
짐작
히틀러
철권
불량
짙
##코프
의자
En
##놀이
##토니
태풍
서울시
제갈량
##장면
크레딧
끓
때려
슈퍼로봇
##게이트
사회주의
양손
연산
확장팩
1978
네티
알바
기부
1973
ᄇ니까
각오
상담
세리
주택
비틀
JT
함부로
각지
날씨
여섯
캠퍼스
##이너
암호
기뻐
히메
역습
헬리
##헤이
바론
기뻐하
알라
합동
어쩌면
184
근원
##az
돌보
피트
케인
조카
딘
유니크
##bo
거론
처분
파울
제치
벤치
동해
##키스탄
그외
##왜
##그러
센스
첫째
##깨비
공격수
아가씨
##루미
스타디움
저하
보라색
뜬금없이
AN
오락
유전
얽
웨이브
##버드
메이드
##데레
호남
World
##ason
구장
호불
중후반
##AY
111
매출
방탄
박살내
수습
체중
콰
220
도시철도
힙합
이글스
##iki
고증
오브젝트
호불호
여럿
명의
캐시
##딸
##사스
교단
##아아
183
##저우
대성
공업
샷건
젖
레스
사인
썬더
퇴각
램
거칠
##타리
짐승
여전
말레이
난사
JP
시상식
혈액
사무실
엔젤
낙하
번지
##낭
유미
스캔
거든
장로
깊이
여의
사야
온천
원시
하인
일렉
카자
사키
중상
우르
여기저기
##ear
So
##기에
##실점
##성군
추세
검술
조회
네티즌
마계
##규모
꼬마
공인
##hen
흡사
갈색
캘리포니아
빨간색
스나이
이모
240
크레이
##장군
빠져나가
##나기
노란색
하계
동서
##아치
찬성
막강
탐사
##MS
##생명
명문
날뛰
sp
평하
조르
장난감
심의
##사르
##운트
##곰
모니
전날
할리
##are
시공
네임드
맥주
##차이
배드
노조
려다가
FW
장례
공감
루크
우유
포장
밀어내
두들기
알렉스
차갑
토미
##ᆯ프
##추어
케이블
프린세스
GO
체인지
츄
##퀘
골렘
##스토리
퍼즐
포획
스펠
##직자
견해
유혹
ᆯ려
소니
터널
매주
인자
원문
치즈
##신문
베를린
강렬
경호
키보드
연봉
##가다
타이탄
훈장
이세
개척
##ᆨ션
보드
스미스
1974
구조물
가두
모듈
돋보이
스쿨
##륨
노스
감수
드론
호시
인재
게리
뮌헨
핀란드
##쏘
스코틀랜드
tv
##르드
프랑스어
사로
통로
샤이
포스터
당기
도라
고로
물품
일가
베테
그랑
아이러니
마오
리아
트라우마
스리
베어스
##환경
##반대
오메가
후반기
시로
##플링
http
히가시
우측
트레이너
##범죄
##주인공
진상
주행
김준
1972
책임지
다투
키미
신용
조선시대
끌리
보건
힐러
##90
트로피
##ven
토마
성씨
##츠카
##ife
시종
완공
흔들
슬래
전락
통칭
말기
https
##의자
사퇴
위로
결혼식
토대
##건설
서바이
튼튼
진급
배수
원곡
허무
##ade
가담
혜택
신데
왕실
왕복
##룬
학생회
##AP
##상자
Wi
강경
##연구소
체육관
밀려나
이순
트리거
트윈스
##차리
홀리
콘솔
로맨
중지
토크
##머신
시카고
이경
##구간
스즈키
##요소
##무부
##뱃
행정구역
##미사
대령
잭슨
나아지
연쇄
##요원
동행
쓸데
##아트
##act
MB
##버스터미널
~!
##ai
##게이머
반도
##ank
##gin
중부
도마
##ᅳᆯ랜드
댄
적자
%/
드로우
스텝
유입
##소수
박살나
포스트시즌
do
산타
압력
바둑
센서
##aby
흙
시바
최저
버섯
코트
목사
천천
아바타
부작용
국도
재개
인도네시아
104
엔드
캄
올드
한창
코스ᄐ
##out
수여
단행본
크라이
탐정
사악
청나라
상주
Fate
##도사
no
이점
##ᆫ즈
영감
덴마크
대시
교복
소재지
손꼽
코믹
##선생
히든
백업
##산역
##스텀
이누
##에른
실내
갚
손쉽
넘어오
깎이
아ᄐ
제물
김일
렌즈
##보호
워크래프트
##쿨
1975
배차간격
민주주의
##퍼드
##명사
프로듀스
비기
대책
##lect
어벤
트레일러
##저런
LIVE
간간히
도덕
기수
넉백
123
##보우
징역
설령
리처
년도
신데렐라
##미아
세월호
동아
##높
쿠데타
탐색
##총장
카트
끊임없이
##ET
포탄
일주
타일
등극
을수록
범용
입자
침대
패밀리
해양
##oll
전동차
약자
실상
NH
페스티벌
저자
디시
끌어들이
##바야시
입문
관통력
아비
##ᅳᆫ바
캐릭
##UM
리즈
마스
대타
Up
노무
OS
이른바
업계
장애물
울프
1976
##액션
##탐정
필요없
여타
are
마피아
재직
레온
아스카
전향
다스리
신중
##루션
스타리그
##무스
III
##ork
그레이트
성실
이런저런
##사우루스
우승자
토키
##ᆸ시
네크로
원주민
여서
노르웨이
##지기
소금
섀도우
우치
이어받
최선
창문
##아라
그러므로
듀오
깃발
룸
Do
##ary
##에어
콤비
잊히
왼손
키라
벨기에
커스텀
장성
Oh
##넌
거북
공통점
왜냐하면
부재
니콜라
##way
침투
카더라
##타르
신선
##시기
##렷
이병
일간
캐치
119
츠바
끌어올리
##릭
따라오
전격
초등
마일
후일
참모
브라이언
맞붙
해머
##조선
불태우
특급
##소스
##ey
관우
##ich
모스크바
이현
동력
사로잡
##께끼
135
스트라이커
딸리
109
밀도
##클레
은지
베테랑
김수
시호
엔지
##뎀
올바르
수수께끼
##으로
장남
ES
발명
##조각
박정희
주교
강릉
Mk
##대교
아이디어
으려는
비전
##장애
##상시
##생물
##대기
##세기
왕비
꽉
탄핵
중화인민공화국
초인
승차
중고
변동
이대
확신
잔인
보험
콘스탄
탕
##요리
복사
##툼
바이에른
소통
라라
##뱀
꿈꾸
입증
Ad
계수
사천
어나
능력자
당초
다큐
세로
페미니
챔피언스
기구
단발
손오공
lv
형편
피로
한나라당
대학원
프라임
우스
##햄
재건
땅볼
유연
스핀
코스튬
all
Day
##체계
드림
패널티
규제
##ᅳ레이크
##물리
포즈
토시
잎
명분
##스트레일리아
친절
##이치로
AFC
와이번
유망주
구동
##흉
##메리카
보스턴
전송
광선
고종
##무지
점유
벨트
중위
##군가
후미
위엄
부유
nd
천천히
우루
우울
##변이
실은
굴욕
##pt
고는
182
##대문
어드벤처
##orn
##이크
흩어지
오더
초상
바니
고무
##셈
##시피
선수단
슈퍼로봇대전
대접
소대
갑작스럽
##네마
모니터
##통합
쇼핑
중거리
선장
스피릿
##렇
레인저
상무
억원
나폴레
강간
조종사
##로우
##가포르
글씨
근접전
##이사
읍
양반
##춤
토요
주일
프로게이머
어색
리카
친분
구상
##운수
클론
중심지
충족
##도라
수하
휴가
##토시
케빈
121
삼성전자
취업
발레
오페라
초콜릿
카메
영양
일곱
1971
싱가포르
Windows
##지능
나폴레옹
스테이
##스트ᄅ
홋카이도
##사령관
항해
광물
##올림픽
##나베
FF
라그나
뉘
달아나
방송사
대동
얇
오우
광장
검토
소련군
##ᆺ불
머물
##트랙
햄
토마스
##첼
긁
145
열정
개교
우회
##세포
107
폭스
##모노
##부키
##ᆺ빛
카카오
일관
바지
무공
레벨업
유료
하급
##마사
검열
마틴
="
릴
RA
에버
붐
광기
독일어
강전
도쿠
비서
까마
구독
무지막
강림
1977
파밍
엑시즈
##ah
대전차
##EM
##민주주의
단검
기울이
동전
##연맹
이소
##구청
맹세
DP
천황
##바이트
쇼크
으라고
쫓겨나
도트
산맥
공헌
##사장
잉여
ML
##노동
씌우
하이라이트
터트리
사촌
출산
AA
망명
연설
엘리베이터
선박
의학
손님
##페르
##very
##론가
무지막지
##브레
히라
모임
표절
부패
##uck
결제
엔트리
게이머
총합
그후
발판
봉쇄
임진
보좌
타이틀곡
##첸
##불가
극대
탭
누군가
##떨어지
흑역사
현금
##드라이
관료
##복지
##뉴스
자제
##꿈
황후
고집
해병
대왕
여포
겸하
ne
##사용
레일
국제공항
IT
##글링
성배
이대로
본질
##뉴얼
찰스
포도
경연
지역구
소모량
김포
로리
br
감탄
##ph
##모습
Sw
DPS
지붕
BPM
도깨비
농장
디펜
JTBC
##정지
창립
자존
제왕
클
대변
210
토하
##궤
##그레
평행
휠
조국
간섭
전라북도
178
멍청
인게임
떨치
질서
##ero
화해
지인
##성능
몸통
##바시
프로리그
1969
오렌
큰
면하
113
##즈카
인칭
그릇
".
안동
일리
오스트레일리아
노무현
무실점
##플러스
##ool
리틀
카리스
껍
외우
압축
대박
천장
음료
165
스포일러
##오버
리처드
러시
##왕국
1968
##ᆺ속
##서스
품질
##스쿨
유격수
레이블
1963
플라이
바나
손꼽히
철저히
##ical
맨체스터
라이언
쨩
메카닉
스티브
분대
북아
여러번
힘입
불쌍
##스텔
중점
민중
주축
역량
김유
NBA
체코
냉정
시골
혈통
##urn
꺼리
##테이션
디자이너
##ype
Ph
##지오
자이
##ARD
나리
안나오
인천광역시
##방울
고고
Con
태클
2021
정석
파랗
##깃
##거래
페르시아
어ᄊ
슬픔
홀드
페어
##anc
에이지
아깝
블리자드
변태
##슛
군수
얼라
춥
임하
##넛
깨끗
에드워드
이오
##대왕
##ᆺ말
수인
디바
매니아
코토
병역
조화
걸즈
정사
##앨
{{{#
스마
##작가
##프라이
시사
웬
트롤
히로시
광경
변이
스미
동정
##은색
155
박지
도장
신동
파티원
타운
실체
입사
와인
존중
운송
제재
##빡
Cr
##ung
출혈
닥치
엄연히
위원장
열혈
날아다니
이라도
명시
호의
의장
김승
물어
OVA
##조작
답답
울트라맨
변장
##태자
사리
예약
시뮬
카츠
방위
스노우
국어
종결
마유
122
Qu
납득
연간
초능력
쓰리
모순
애쉬
##세트
서울대학교
조별리그
말씀
Station
##소나
단원
181
주체
개명
한가
##행정
##드컵
##끼리
TVA
뚜렷
압권
미미
훼손
##저항
너머
##히메
스택
모형
시게
광명
##속기
144
결계
마산
프로레
아인
##빗
주사위
초청
플리
파도
스탈
얼티
명명
뻥
이단
##위치
미궁
수천
스폰서
보편
LO
오지
애니판
엔지니어
##ww
질량
##떼
##미나
엘리자베스
KOF
기차
주목받
소집
강민
토트
절친
촉수
해소
헷갈리
강호
존스
금강
##앨범
제노
##지점
청구
아오이
##iver
데빌
오죽
##틈
솟
치안
##판정
친척
챔피언스리그
장타
에로
at
메이지
프로그래
애칭
##떡
이원
마에
지분
방심
작정
##텍스
사투
##철수
플러스
##사무소
에도
투쟁
##DD
##노스케
그립
152
덤비
가설
타구
##로마
화상
박성
어이없
패자
드래곤볼
love
스태프
지력
셔틀
##주자
##멘터리
##모션
테이블
이틀
##ens
과자
핸
디오
##젤레스
좌측
##뿌
강사
이명박
좌익
일주일
##로이드
as
이동속
민간인
쫒
신학
롤드컵
교리
편리
##시스코
프랜
##ost
##티노
##중심
사연
페인
신하
기하
재앙
##ᆼ크스
향후
##드러지
생체
TR
자칭
##네이션
##샵
인스타
어나더
라우
항공모함
직책
액체
턴간
도색
부속
포터
빌딩
마술사
매각
114
미성
##아스
멋대로
엄밀히
낭비
슬리
일커
검증
##마니아
##ence
앓
용암
스쿼
1930
유니버스
일컫
wiki
토스
아마추어
학위
엘레
지혜
과일
##운동장
##려워하
IM
##nt
시간대
##산동
마음대로
사명
##극장
녹화
변명
오니
발발
나미
이태
백만
어그
엽
선진
초록색
##과이
##비행
from
로보
##ise
외곽
노가다
습니까
사무라이
##int
닦
퍼스트
모델링
##쉐
우연
돌연변이
옥상
이케
완화
몰살
하스
돔
##얀
알아채
1920
작위
신지
정성
히카
##상가
젤리
둘다
##동맹
179
하프
시조
사우스
##하여
선회
!"
실사
성분
분할
달려들
##AK
펠
석유
죄책
잘못하
매달리
##가요
텍사스
씨앗
의정부
통째
##스크림
##국민
인공지능
Super
아쿠아
원피스
##의사
총독
MG
국토
Fr
자아
1940
BJ
can
##시민
##oy
엉망
코노
##바다
아자
고등학생
##엔딩
불참
집계
##진호
유엔
##기스
라스트
슈퍼맨
제주도
www
##ign
정반대
CM
미오
발키리
몇번
침몰
적절히
한국시리즈
기본기
##렉션
##르도
정신력
리스크
##ans
아담
계층
이어서
유튜버
177
이이
은폐
발탁
##뱅크
아처
피카
중구
##도전
##아머
##벼
중원
죄책감
목걸이
##수단
리모
저기
##부르
최종전
##ug
##가수
전생
Dream
들여
제리
##쭉
탄압
덮치
다거나
식품
실용
남동생
혼인
스카우트
124
##크릿
지오
추후
1967
상사
때로
다시금
총장
참사
착륙
마그
억울
이타
좀더
그해
오른손
퀵
##물질
127
원숭이
아리아
USB
오노
##부리
버스트
감당
흘러가
인벤
아무튼
##직원
격려
극한
챔프
대구광역시
뛰어들
지장
##ᆸ트
##인사
안무
##리칸
트릭
갱신
수위
##엘라
인성
##보병
this
##IR
##대신
비스트
##캠퍼스
오렌지
렉
##등급
1200
최순
##공장
아스날
##vel
수감
워프
스크래
##질랜드
450
만능
무용
투기
연전
리퍼
고아
도심
저서
용이
##차별
원전
동성애
빈도
중국인
대위
구형
더빙판
드레스
민감
ᆫ데다
문양
마케팅
내버리
히로시마
욕설
##러브
각인
ERA
##이후
##ode
비우
##슐
폭격기
곤충
신곡
##결과
##고사
##uk
이노
##대학원
##VER
바디
컴백
분홍
##바스
이세계
셀레
##매치
##시청
##고생
유탄
메시
발각
##워프
이별
Fl
사직
산소
Pl
망토
풍기
천명
냥
표적
마하
군요
매드
잔혹
스트ᄅ
##치오
무지개
물려받
Ver
제니
상금
소비자
박수
성전
공속
시크릿
녹이
##젼
페어리
내외
CE
진에어
##엠
전이
오다
관장
왕족
터보
합작
그러면
스컬
정밀
이온
급격히
애완
궁극기
뉴질랜드
가구
시외
뺏기
얹
진동
게끔
EC
특공
##베르크
마찰
##모르
취재
다비
발급
EXP
카리스마
아사히
결의
용자
style
믹스
에디션
카테
자네
##사진
##시스템
##하우스
##베트
펠리
개구리
이윤
##파티
##쿤
클린
서방
##클린
유재석
씻
초점
정점
실존
##당초
일체
리나
맞히
대세
##ier
얽히
경사
도약
호러
꾀
면허
측근
트윈
코스프레
##와라
스케일
방사능
독립운동
김구
##보기
신한
경부
Sch
##플로
격렬
선포
Girl
부스트
Season
두드러지
오죽하
##우주
대차
포탈
명나라
##먹이
1962
##앵
##도서관
##ash
##드라마
IP
만점
골프
협조
##노미야
지루
스텔
##도어
아이디
유우키
미르
팔라
ar
맨유
메이저리그
잔류
La
요미
농민
DM
##스ᄅ
##일본
##쑤
##학부
청춘
헬멧
##기준
미러
연소
NO
후쿠오카
162
##빼
약혼
피지컬
선동
팔레
이빨
롬
황당
절벽
tr
서명
118
##폭력
##박물관
팡
연동
궁합
반성
WC
##우지
##군주
수신
기리
이놈
이사장
한양
불러오
##reat
1966
##IX
##순위
아유
정규시즌
종전
친애
흡혈귀
메일
##뼈
선로
기질
벙커
고립
##자원
기동력
잠기
##ib
복지
혁신
벗기
리온
미정
##왕후
자존심
점심
##장소
중견
철도역
한하
##카타
314
돌려주
벌써
오퍼
부작
지선
생김새
유진
##usic
##훼
모욕
에메
Max
위쪽
질주
흥분
일조
레이디
##바리
정조
반역
거세
로렌
사수
카네
사방
대피
춤추
스매
##베리아
크래
##밴드
고난
##구니
##무늬
750
모종
하사
할로윈
미노
징계
##백질
##당기
마야
유아
예의
1964
##백과
디스플레이
미인
부시
##듣
국방부
부천
##제품
래퍼
주석
플ᄅ
리본
둠
그간
한강
정문
부러지
한꺼
##맥스
월간
##금지
##딴
Vol
TS
금요일
가위
리코
수중
이용자
DNA
##국어
문신
망설
침착
스파이더맨
##세지
기소
토트넘
능가
집회
사치
교과서
스나이퍼
필름
##캐릭터
Ed
##전력
화폐
각도
##}}
리사
--
##아니
남동
빙결
강대
##ose
ld
그쪽
서류
##넨
##대체
케이크
천상
서열
다니엘
모터
##파리
교역
우두
카운티
##바퀴
탱킹
건지
##니즘
적시타
AV
호드
갈라지
##헤드
##플러
##트럴
아케
자이언트
한꺼번에
두려워하
##데미지
부동산
노랗
원로
김주
방안
amp
김지
소생
옴
Col
자율
종로
웰
오만
서적
쉴드
여자아이
블럭
##te
트윗
so
##다드
기껏
통솔
현자
GM
룩
경성
메트로
중소
서기
아랫
HE
홈경기
도감
##해자
진단
여태
선원
테츠
극심
##ail
욕망
##msys
츠키
부끄럽
영국군
유고
##ition
ldmsys
##프란
불길
내셔널
섬기
사물
구로
모음
##발전
테마곡
함장
애인
샤오
##녹
출판사
학급
서울대
평등
환생
다녀
rd
##시내
케리
왕가
탈환
##안전
숙소
감자
Night
##현상
태생
충청북도
카를로
바텀
##공개
판사
BC
혼합
썸
##들목
초과
워리어
상냥
루프
스탈린
학년도
키요
직위
not
특수능력
##자카
##오피스
##챠
필사
##기념
계절
슬라이
고인
줄기
말레이시아
제의
##IL
달려오
협동
김광
학대
발하
##스르
소나
앨런
공대
이니
젬
아마존
퍽
중간중간
항공사
##ild
유니콘
##타니
암컷
뻔하
168
하여금
##라미
정그르
한정판
리프
림
강인
Let
탈취
유메
청하
##정당
살인사건
저글링
등재
과시
소소
페르소나
##사령부
디아블로
뤼
월호
##바루
##제이
보강
급행
ᆯ래
그란
병행
시범
##ody
스텟
프로야구
탐지
유동
돌려
남양
관직
Black
간판
법인
159
라마
##베르트
##프레이
오토바이
각국
뚱
요격
입원
시온
일환
##수준
##스티스
존슨
희생자
##가족
퇴치
지지율
이행
도서
박쥐
BD
##해군
페리
요코하마
재즈
대검
굶
카피
전지
##본인
보고서
재배
##항목
게르
뻘
라인하르트
##짤
##카라
문화재
소서
도배
만렙
##레인지
##팍
##등록
윤리
이념
##수라
리버스
연고
맛보
##총리
이승만
##베이스
##ᆼ가
로키
##블레
라틴어
##보라
오케
출동
어원
동구
노부나가
빅토리아
승패
1948
mar
##ough
부친
마도카
##수수
삼키
##각형
종영
야당
원판
중재
집필
##토르
이천
AF
욕심
MM
##볼트
포션
1944
필라
신작
##런스
아무렇
##기병
1965
부채
파운드
OG
열대
##33
두껍
교도소
로스앤
릿
##폴리스
인쇄
##통수
##지도
검정
히드라
전담
포착
엉덩이
##재료
연이
##ㅋㅋ
팁
RE
대니
배구
협정
##뿔
무능
와이번스
##플렉스
피자
눈앞
밀리언
4000
도대체
어제
아메리칸
섭취
로스앤젤레스
미소녀
애용
쇄
##니스트
Op
##실장
##이센
퍼펙트
프랑크
신생
##gr
##테크
##결정
##클라
성사
김치
피난
진술
본능
##와이
성벽
멸종
##스코트
객관
##aster
ㅔ요
레이싱
외야수
아니하
아카네
내밀
점검
##삐
##app
매그
사이토
평상시
##orts
이계
목포
##퍼니
카레
호리
펭
레나
쿄코
카일
해운
헤라
주저
카시
해전
목욕
팅
다케
괴인
그리핀
##uc
##은이
빌보드
##데르
인피니티
소득
사용가능
##제스
국무
조립
1946
##연대
##회담
계곡
물자
화석
동북
걸어가
테니스
레버
세르비아
##브러
로비
화신
PK
##작업
학사
성명
얄
맑
##예선
시트
타로
흑막
##서비스
대학생
난민
성지
##삼거리
##어택
원한
수성
##CE
##메스
박자
##트루
##소문
챔스
울음
대승
최상급
독백
##ject
달콤
테란
en
그리스도
##펑
##OO
강동
역명
드워프
EXT
##펄
부제
제발
##애나
폭로
##개혁
..?
츤
스타워즈
##확률
김대중
##ari
math
##팟
##긋나
컨디션
나이프
놔
에코
블라디
평택
믿음
무신
민폐
##행성
단백질
le
테오
AL
약체
##숲
장판
CR
과금
금발
순간이동
##뮤직
세자
덥
아쉬움
벨라
아울
다큐멘터리
편의점
엇
그림체
어드배
##마당
##형제
휴대폰
EZ
낯
확립
두려움
바쿠
아르바이트
꺼지
알렉산더
점멸
수컷
와타나베
전임
##iel
도미
떠돌
메디
라이너
궁전
지크
사임
유머
##공단
적이
가오
한신
프랭크
두루
151
마라
##국장
분배
##장고
달라
리바
남학생
뺘
옐로
개막전
##형태
138
##어인
##파일
마인드
가마
권하
뭐하
Gu
출석
장본인
으려면
평판
펌프
한대
SA
던지라
스카웃
숙청
타치
##부족
격퇴
조회수
##주군
남한
320
##무네
172
회복량
유카
직행
모나
##교수
동아시아
GSL
이쿠
가해자
조수
##젤리
고사
##로그
코끼리
신념
##차지
득표율
눈동자
년전
막부
무도
루리
철갑
##드래곤
##TA
##성이
순천
으리
##스테이션
배후
얼리
주입
자사
개업
퀴즈
ATK
가령
##ats
단자
##렉터
##ye
해변
##테스트
툭
살아오
메이커
고의
단서
무한도전
축구선수
점하
타카하시
EU
안토니
##eah
고가
##회관
천국
##인원
315
시련
혼혈
##그라운드
##카페
1961
빡치
오비
늪
하지
대면
평론가
GD
##따르
티저
최순실
얌
대안
어벤져
캣
로스트
##문서
TOP
Mag
158
동상
둥글
기인
##순환
내정
주머니
강서
추모
우즈
얼티밋
##무대
그리하여
CL
배리
도리
##모니
탁월
정답
큐어
찔리
항성
마타
스텔스
뾰
##꿉
강아지
##쿠리
변호
란스
방언
AB
영화제
NT
치고
딕
섬멸
##캣
##박사
경찰서
사나
관광객
ver
글라
건너가
오공
##재단
응답
##모양
데미
여수
UC
##oh
##ᆯ리언
##eth
악행
투고
어기
##재기
다녀오
비단
셜
##ron
사가
나란
둥지
##상승
##회복
박스오피스
관계없이
퓨전
찬양
충고
베이비
소꿉
중도
짜증나
##ings
##고래
파고
마쓰
공명
카리
포크
이순신
우승팀
리믹스
경전
##홈런
노릇
시아
조항
공학
독보
##미즈
쿠바
뒤쪽
공산주의
스쿼드
##콕
루마니아
광복
##빨리
##강화
자작
##카스
##시키
스터
176
총선거
마을버스
지로
그랑프리
킷
결과물
천지
##시다
##풀이
데몬
단역
##정식
병살
카사
will
##무이
섬광
다저스
저승
Is
ME
텔
갸
감성
성대
바이킹
##느님
흉내
솔저
고이
김병
##inal
유치원
##주로
##==
126
용산
상대팀
폴아웃
1949
지면
유마
테리
십자군
예고편
김일성
완벽히
Am
반경
사관
##돔
모빌
##과대학
##내리
##활약
김윤
과격
##로소
후면
10000
응급
하느님
김씨
랴
Don
우두머리
도요
균열
##ᆯ렛
학술
전두
비리
##순양함
##ult
국장
미녀
계략
쿠라
소마
친일
김성근
고속도로
무녀
일각
##숭
가이드
154
봉사
like
상시
렉스
LE
##부문
보루
수확
거꾸
##스타인
이광
후유
접수
공국
WH
흉악
몸매
{{{-
KB
간파
연수
깃털
Time
생태
무늬
132
##박이
##MAN
건립
끌어내
충남
물약
이나마
##덕션
트랩
##자책
주황
이래저
사망자
##퉁
삽질
##행동
관문
표하
고발
사슬
빗나가
신조
반기
타키
new
절단
닐
브레이커
세컨
강타
군부
##포머
##서쪽
표기법
응시
아테나
##13
컬렉션
서바이벌
##슈트
쫓기
크로아
이용객
##과제
지수
은메달
##이언스
이리저리
이래저래
오세
##일기
##우저
218
라이트닝
손목
역시나
피오
Mi
주식회사
감금
완성도
##GA
##교차
풀려나
지상역
##턱
##ov
##니코
피스
##레븐
##oul
급식
일러스트레이
로열
어찌되
##코미
##하임
안보
##18
호응
##꼴
인채
##니버스
사와
##시안
보복
두뇌
서리
##슬림
이영호
거듭하
브레이브
어느새
짝사랑
양심
##ob
당나라
##처럼
코로나
거지
야망
안드레
성직자
신임
##타스
과언
##ould
후쿠시마
동메달
##맷
스윙
##방지
##혐
156
드루이드
유능
..!
벡터
좌파
iOS
승려
##조정
통행
마족
순양함
유카리
통틀어
##아르
Ser
##셉트
불상
one
마르크
164
##alk
예방
나들목
정우
##결승
핑계
천문
##교도
슬라이드
##tern
레시피
승급
장신구
##yn
139
아리스
나란히
렀다
분자
트러
##돼지
ᆫ가요
##15
##귄
블랙홀
후반전
원주
몰려오
##미사일
##up
선봉
153
주술
Gaming
자력
##뚫
성숙
##reak
충격파
인체
맷집
실적
##엔진
오키나
김두
##티넘
거꾸로
놔두
엮
##der
하츠네
##마드
불화
##웬
##able
GK
나열
##영웅
교향
고시
삿
근로
고통받
하나님
사이타마
엉뚱
ᆫ듯
밈
능하
열세
마당
카토
프로이센
콜레
신상
시네마
전염
무슬림
초등학생
합법
쯔
토우
지각
크롬
##동기
우미
컴뱃
로제
미세
최하
148
쑤
클레이
##곧
필두
사일
##무게
유해
김선
면제
Car
##ions
맞먹
리볼
##뿜
##쵸
##민주주의인민공화국
가히
##자재
커플링
차분
저격수
제조사
상의
##널드
땡
리플레
연달
##공연
석사
하드웨어
창당
##테오
Your
초반부
##브ᄅ
호크
스톡
재질
167
##뱉
코디
ᆫ단
셋째
203
##출연
하비
스네이
맞대
몰아넣
##도스
풍경
##크로스
어긋나
##멤버
칼라
천체
쫓아내
##프란시스코
시어
취지
조선민주주의인민공화국
년동안
##생산
##사상
츠쿠
SSR
##글리
통보
크로아티아
플루
벌금
##PA
공격시
##요미
메리트
1958
난리
여주인공
조던
상원
데뷔전
제너
1941
대등
지배자
한층
##운전
운반
174
동등
포텐
자산
##웹
섹시
##ull
숙련도
레슬링
황혼
가브리
오피
생각나
##리트
영화배우
주파
##덮
글리
평창
세키
주유
##비시
se
시간동안
천주교
전학
##단계
##쟈
##ᅳᆯ래스
##껑
Min
동년
테크닉
최우수
##니혼
시모
##날두
코파
심정
##랄드
샌프란시스코
앞세우
##횟수
##레이드
시끄럽
이진
RO
142
##목록
사령부
태조
병과
세례
휴스턴
뱅가드
기법
LTE
##보험
극초
##시드
행진
냉장고
토론토
문법
도모
아수라
헤드샷
##다스
어스
딜량
떨구
달인
스케줄
키르
163
빈약
과감
쳐들어오
##닷
사야카
##차원
노비
##옌
깨우
스페인어
창작물
타당
타이어
맹활약
모의
내면
가라앉
집사
절정
리부
##ube
봉하
##ECT
야마모토
혼동
##서버
제자리
1954
무선
BGA
염두
상속
연고지
일련
마미
간지
##노프
디비전
콜롬
##ll
have
마스코트
월요일
pr
벅
능숙
무색
플러
슬레이
연구원
out
##유리
이만
상부
만년
짬
벚
굳히
졸업식
어빌리티
지지자
부가
들르
##미츠
로맨스
라비
고우
아아
##ICE
##ᆸ시고
이오리
마수
레인보우
전례
른
국기
##전트
범하
패왕
NM
지성
밀어붙이
공로
투사체
정서
유신
##ᅰ어
앞면
비오
스타트
비자
143
137
##투아
##득점
혼다
공교
해고
방침
망설이
쟁이
##문자
찰나
노골
초상화
포병
##너뜨리
이인
겨루
##파워
고추
스탭
##정권
무너뜨리
워터
만장
약칭
하나같이
##크루
사탕
꼴찌
구제
영등
쿤
매기
313
영문명
대역
고래
일베
사소
부처
##배차
환호
대외
##로프
공짜
따내
한달
Sum
쳐다보
솔직히
무죄
혹평
다지만
단련
배율
노라
능력치
##메이커
장례식
##갱
스피어
오로치
득표수
접전
소꿉친구
톡
##유저
국민당
풍선
스모
##보그
년식
강수
카렌
HS
운동장
박종
ALL
##더슨
##엉
스플래
##홉
내뱉
캡슐
하도
무궁
CN
IV
운수사
##악기
음향
##부시
주술사
1943
##콥터
230
본편
카오루
재수
전반기
##ᆷ마
##드리아
박탈
아테네
리볼버
북동
평균자책
설마
외국어
알아차리
##플라이
버드
##에트
광주광역시
스칼
바비
맥락
진로
인과
크라운
이션
반란군
##미디어
157
제사
침해
몰아내
잘생기
모에
확고
칠레
딥
133
ᆯ까요
펌
##FL
##원수
궁수
##넉
인스타그램
##여부
##관련
빙의
오리온
황실
갈구
연막
설탕
플레이버
##ᅨᆫ
슬슬
외관
un
##드리히
재벌
146
수아
129
##수아
상어
해역
갤러
극악
##제르
갈기
##단총
수라
000000
1942
테레
맹독
진하
지요
센트럴
##반신
##STER
##문화재
종말
173
거스르
광범위
##돌파
BO
의의
별칭
##타우
전법
##세자
##거스
##통일
얼라이언스
음력
스트리머
시뮬레이션
##더링
죄수
염색
오즈
레이븐
후대
제인
격하
대목
사무소
미남
스타즈
오딘
흐리
아슬
##제작
히사
극우
제대
기관포
가나
##트릭스
클리셰
번식
가로막
margin
스케이
know
발현
오프라
##칼리
##왜란
나카무라
보직
플라스틱
제지
##블레이
원화
앞뒤
운수사명
##MAX
유타
공손
set
지극
##동원
##DX
톨
줄리
공동체
구독자
개판
프로덕션
명사
##갸
##티콘
몸무게
미호
##워커
사내
이준
해태
OF
원자력
시초
화기
##에몽
박명
##셸
기쁨
136
Play
힌트
호날두
##잭
##고스
##쫓
야만
레이지
##하트
구호
폐허
BT
기관단총
숭배
끝장
볼드
##무실
양국
##ica
멘붕
CB
힌
##che
태권
비참
번갈
##그ᄅ
Of
끓이
##ock
##카즈
출제
난투
##권자
##로로
타르
As
la
잔해
##사태
오바
##YP
지사
빈번
중반부
Red
Type
인명
BM
남미
오른팔
립
히카루
강탈
년차
일러스트레이터
##14
이방
##점수
중급
생애
키노
##쿠로
애쓰
##벨트
라구
강습
##호쿠
##개인
공모
정전
루스
미도리
149
##케인
원년
달래
레스토
루터
무단
전속
탄막
페미니즘
박해
시오
청룡
저조
꾸리
##집단
스파크
표창
대법원
정준
텔레포트
랜서
대패
한손
델타
리뉴얼
운영체제
넓히
BA
공습
##ict
시흥
##17
기술력
134
카테고리
하후
연안
군복
신관
손잡이
1900
##받침
마카
차대전
##이름
1956
금고
오케스트라
##리학
바티
##중국
오키나와
발톱
##지않
맞물리
##ᆺ대
##파괴
쿵
모든것
TP
처녀
럭키
때려잡
수영복
껍질
노말
얼터
##벨리
식스
##피어
DI
##ster
거느리
라이센스
노아
마모
바이올리
##ange
##ater
EV
우크라
먼지
십자가
산탄총
##테츠
취급받
타고
##차이즈
한발
비꼬
상위호환
##메이트
진짜로
##박히
##빌딩
루키
앵커
방화
해상도
High
##운영
##글라스
호출
##세서리
##ons
잠그
프레데
리셋
제프
펑크
##프터
가혹
##두리
까마귀
프로레슬링
##함대
전수
##입구
##펫
pro
긋
레오나
##프레스
##사와
조력
역대급
스기
##정리
##소송
##슬란
공격기
제이슨
친정
서치
플레임
##연구원
미끼
장벽
밀라
##참모
러쉬
직무
feat
하치
여장
TE
이호
불쾌
아이폰
트렌
닫히
갈라
삼촌
플래티넘
이때문
인터페이스
성기사
NEW
심히
위시
한가지
추출
태종
수시로
김천
원망
일삼
##서부
##긴
##딜러
이그
##ple
##메인
스마일
망상
전두환
나락
오디오
저항력
아래쪽
어찌보
수령
##크라이
임진왜란
%.
영등포
박영
미식
로그인
어느날
파괴력
##싸이
147
##더기
책상
이즈미
안철수
천공
럼
우기
지난
보르
비로소
율리
Light
김도
스바루
오역
자부
핏
감기
너클
트레이닝
포맷
퍼시
테이프
경질
##메르
크로우
이력
##빔
채찍
AE
브루스
##브리드
##화학
문헌
외면
280
길가
싣
수소
##인형
원내
당국
##국제공항
##ᆯ리티
퇴역
세일러
덩어리
2500
ᆯ라
파랑
##경기장
팬티
##숍
##타워
킴
MO
찰리
GHz
##에로
##실험
##곡동
Gen
복도
상대식
222
뮤지션
##to
인텔
CO
무수
의아
폐선
배우자
증기
배신자
##넘기
다짐
슌
##톨
사당
입국
~"
나뭇
더구나
프로스트
연말
초래
워너
바나나
1939
순정
범주
편견
불리우
메구미
최정
해독
발전소
증인
##CC
심야
was
What
하지메
사이클
##ᅳᆯ렌
굴러
사료
김연
유선
사천왕
요미우리
법안
씬
##티지
따라잡
자회사
보잉
제우스
감행
양대
##주택
바닷
##ᅡᆼ스
##니스탄
주고
신세계
Kor
샹
166
라든가
치카
음색
두명
##안군
데스티
목재
츠루
##유지
1959
수상자
##ics
1936
불가리아
순찰
오프라인
##콰
특수부대
연기력
차림
입시
개그맨
##특별자치
멀리서
##프라이즈
물어보
깃들
페이크
##ACK
Heart
지미
퓨처
##용차
청원
만루
크리스토
로라
흑마법
Tw
##대부
단기
스매시
##les
심화
프로그래밍
무자
도쿠가와
LOVE
경지
반론
저스티스
북구
정교회
oh
수지
공자
1955
GPU
일산
렛
영남
##ex
##루트
용의자
거르
드리블
##체인
##BM
한성
##파이트
##어붙
##노카
##드릭
전광
케리건
직통
트랜스포머
퍼붓
##바위
진도
NHK
테일러
AG
##칸센
레스토랑
어레인지
##사전
배속
재임
낡
##조치
냉기
팩션
##힘
투성이
우드
명탐정
퍼센트
##빠르
Mr
##누르
어벤져스
마르코
##윽
사육
롤링
숙주
착지
슬라임
격리
치바
어린아이
Blo
페르난
미숙
종사
둘러싸이
메세지
PL
미스터리
준공
##당시
체격
##기획
타이완
여단
탈당
##lass
프랜차이즈
한복
바이크
이데
주되
##행사
##메다
고음
일어
무명
아다
뒷면
##16
무식
강세
##라가
##아슬
틀어
FPS
협의
보살
아이스크림
MK
그리드
##연방
방벽
진리
##해방
##자동
##AND
팟
##귤러
TO
번타자
콘셉트
밸
정신나가
교대
유대인
아랑
회담
아슬아슬
이과
전열
미아
Par
소령
남자친구
쫓아가
현직
##nder
땀
하이브리드
생선
미모
교통사고
##볼루션
1952
아그
##실력
세컨드
time
운항
직격
엘더
항모
이동력
인구수
주차장
쇼트
##터널
마기
전반전
##사냥
##인구
정교
뇌물
하하
되살리
준결승
술집
ll
330
스콧
##고시
브레스
최대치
##문트
내뿜
반군
하반기
##에스
지표
쿠니
270
##성장
신칸센
찌질
동사
한해
##ors
Fe
스트리밍
카즈야
얼어붙
표식
##메일
통증
모양새
##ME
가르침
접어들
애국
야마다
파손
##건물
안습하
##드르
LED
##기인
자질
##패드
##규어
사나이
회계
##티오
시집
몹시
광대
경선
##무진
입양
둘이
쿠마
휴게
진형
##청장
심상
뚝
##포츠
##브라이
##미션
더욱이
서민
허브
교정
1947
GTA
멋있
파격
미들
윈터
아카이
두근
##포로
#!
리자
##모자
죠죠
##체육관
테일즈
리가
방공
후루
파문
225
덕후
비키
##노이
도우
현존
Good
응하
##무사
오타쿠
적재
특훈
신주
소리치
웜
##캐스트
##펀치
갯수
웨일
##팝
함성
넉넉
말년
##폴리
부당
##코인
골목
마마
비아
테러리스트
##대륙
양측
파키스탄
재빨리
##퍼트
디렉터
우산
##두사
##산물
Per
백화점
제단
##카제
평안
위키백과
자각
공존
패스트
##황후
헐크
쐐
서두르
스내
공격받
저희
##려보
##개조
쓰러트리
다중
우물
##툭
테크노
##이자
미하
뱉
에메랄드
박상
기행
##투르
얕
다이노스
카이저
사랑받
핸드폰
냉동
자칫
볶
안쓰
무비
프리드리히
카를로스
서해
##카시
##메어
책략
##니치
월등
야전
맷
하행
발간
카탈
여배우
SL
프랑스군
짤리
am
##HT
사지
##주리
스치
나인
담임
정형
소설가
로테이션
털어놓
##장관
상쇄
##파라
소규모
##통제
에레
적색
260
넬
장원
수도원
##eep
개미
급히
발렌타인
1800
악곡
##강점
라파
##리다
MSL
메우
차이나
섹스
이스트
레이어
##캠프
웨인
히나타
##군단
##백화점
하와이
꿇
꼼수
캔디
군림
라이즈
츠카
1919
저거
##충전
복용
호투
엄폐
단식
##얼리
아타
분쇄
장편
IIDX
몰아붙이
##바키아
잡몹
서태
애틀
중학생
솔라
자켓
후드
##ott
여캐
##현우
##나스
##캐슬
Kn
ab
차용
두목
몇년
필립
실력자
##진화
0900
##아주
Li
일례
치마
바그
ㅓㅆ었
##똑
미유키
도어
지부
##니발
버블
동조
##사정
배리어
쳐내
양보
EBS
군데
눈빛
초중
꿰뚫
카이사르
벚꽃
wid
##저드
채취
되게
직속
대행
미쓰
Wii
유지비
휴먼
##장난
두가지
심연
이례
레슨
ᆯ려고
프로토타입
전국동
원장
보디
##앙스
앤디
추궁
간호사
화약
시가지
로저
인문
This
셰이
ㅏ야
훈훈
모던
##일으키
ᆯ지라도
프롤로그
##클릭
길거리
징크스
즉각
시시
본가
더라면
##IV
##스톨
앰
유방
컴퍼니
산악
Baby
##25
라던가
미ᄁ
안성
##IK
중성
타고나
화소
##단위
공천
재활
유니온
츤데레
##anna
출고
쐐기
왓
밀레
단선
냉각
유벤
스크롤
##찌르
김원
병종
기함
HARD
Sm
소매
실정
트릴
그라운드
사투리
요르
멧
증발
##부사
소노
ONE
##이야
더미
불평
유코
##푸르
히데요시
떄
결정전
바닐라
부류
방울
산화
1953
리터
##폭풍
##등장
##화면
무고
웨폰
지문
##용사
윈드
##델피아
교훈
에필로그
##프스
근력
베기
상행
적립
탄탄
빈틈
무사시
GN
유승
1938
##사실
따돌리
##other
##웨이트
필라델피아
클러
유라
템포
##강점기
복음
리부트
Rock
##트레
워크
이화
원작자
단말
169
us
##채널
##19
##겜
운석
아르메
구절
랜스
프로세서
##플리케이션
선형
관절
격침
다이스케
발라드
줄어드
그런것
차일드
거품
배열
교내
##미ᄂ
세레
동이
방어막
말소
550
부흥
야외
범행
고산
홈즈
인디언
뫼
미라이
허위
면접
스파이크
정계
리바운드
##토리얼
첫날
##룰
릴리스
프랭
럴
가이아
width
다스
##쿠니
롤러
일품
신흥
참으로
##살인
##icro
Live
박용
에바
양호
##네트
##방위
상호작용
밍
태극
헬리콥터
멜론
받치
밀어주
##시계
니아
악령
피드
러닝
##전공
##정신
Ac
파이트
축적
왕관
퉁
나고
런처
노트북
죄송
##따위
온몸
##ins
뉘앙스
후안
##심장
##츠루
##그대로
육지
실천
꽁
##언스
##oss
이카
성균
오락실
유배
##ru
DB
패닉
##레오
본의
물리학
대중교통
영동
토비
타우
호세
##서기
고든
물가
희대
##자유
말미
##던트
구마
실로
책정
##니트
시가
멀티플레이
뎀
좁히
화내
리리
##ᆯ로지
수평
불문
자루
##회견
술탄
일일이
연금술사
요우
존대
cc
에밀리
##피드
황태자
장안
카게
##멋
수용소
##부상
발칸
연세
빠뜨리
주거
##시지방
밀치
트러블
OK
필터
##gain
##ction
Blue
쏠
쇠퇴
뽐
Dark
##트라이
##EL
우파
1957
잊어버리
##시지방선거
호구
정체불명
가창
##정원
일제강점기
브라더스
KTX
제보
##현진
펭귄
##하드
페이커
경쟁자
시스
갈아타
영화관
윌슨
살피
난무
부여받
##0000
은혜
냅
원활
""
##분야
직결
##걀
그레이드
팜
남작
다기
방호
비즈
##퀄
의석
##가치
우루과이
뚜껑
속박
장풍
사탄
Champ
방송인
로컬
석방
##지리
도라에몽
키드
할리우드
유니버
으리라
##na
진정하
RC
중기
상공
박재
Im
동호
Sun
##ood
탄소
도시락
##agon
##크리트
원흉
##어쓰
##UT
르네
전국동시지방선거
성수
##킨스
요하
회로
포니
북극
++
장제스
저술
OCG
우천
음주
진수
Can
주무기
##쩌
안그러
켄지
가축
시부
쫓아오
Bat
##미치
깨알
MHz
back
부스
모친
열악
탯이
유비트
스트로
##테이너
##ᅳ레이트
호박
슬퍼
##ky
동지
누명
화염방
DR
자발
공신
실루
##가이
수다
옥타
용감
205
플레이스테이션
질풍
신병
푹
넘사
쓸데없이
버릇
기술자
좌표
팀명
인테
파벌
특이사항
김명
이창
농사
##판매
권능
요시다
어워드
채집
바이올린
강팀
독서
멘트
쥰
na
아까
미니언
주고받
미성년
연루
깽
##휴일
Summer
달라붙
플랜
##자치단체
RP
반장
이질
본성
흠좀
우편
브론즈
구타
튜토리얼
##ty
불러일으키
교육과정
찢어지
하부
한국군
##irst
분홍색
게시물
이속
한미
무제한
성비
제작비
##아래
정재
장동
편안
반짝이
##DS
##르기
포식
클라이
야심
첩보
넘사벽
발차기
한탄
##내용
##자이
게릴라
##란트
슈가
니코니코
거니
##연기
##ady
타카시
텅
진행자
##구단
##그라드
##베르토
##land
Korea
천마
##때로
헌신
##즈리
카우
짚
공약
흠좀무
솔리
시구
쥬얼
Music
사족
##석민
기괴
소실
엿보
말아먹
양키스
히카리
돌아보
밀집
모범
바바
요리사
유로파
충북
사안
빅토르
유유
아루
##공신
아울러
라나
자처
아르카
프린스
자손
부관
왕좌
##부장관
리키
BEMAN
어미
레이첼
매달
저것
바오
1914
유나
선우
줄줄
반환
유즈
##블릿
##테라
대전광역시
골치
개칭
동족
기자회견
결함
##징어
하워드
클라우드
유스
BEMANI
호르
금색
스트라
유정
##빠지
제구
빼내
요시노
웹사이트
##OID
##동네
늦추
평균자책점
Fire
##캡
넥서스
하리
##밑
반대편
파워업
시외버스
##예프
나레이션
설상가
해운대
악의
카마
설상가상
널
레바
소비에트
##뿌리
후예
블래스터
덜하
OB
유벤투스
홀딩
now
스파르타
##기리
남발
가의
카타르
타나카
신수
##테나
일레븐
안산
필연
표본
유난
##커녕
민정
650
카디
##흘
반항
에스파
대군
동래
합하
이복
지름
나폴리
##다카
대진
말그대로
##듈럼
##츠나
데스티니
교양
전전
함재기
친목
킹덤
211
사르
나사
연하
##주공
만회
총격
밭
환수
##트니
##히사
일렉트로
##블레이드
##저것
아이리스
펜듈럼
슬퍼하
간호
호기심
##ium
유영
프로모션
##싹
법학
휩싸이
오시
버터
로스터
##뿐
여권
##나드
##비어
잠재력
목동
##폭행
윌리엄스
사모
##돌프
센티
엘리스
미로
##푼
##ᅥᆫ지
회귀
싱어
GG
##차트
아이유
야마구치
Life
CA
이도
걸음
##데시
후타
불신
힘쓰
##준표
스토커
기피
회고
3164
##ush
대마
경제학
첨단
특이점
진나라
드ᄅ
대국
뒤통수
농락
##기야
서독
원천
##갤
STR
베지
저주받
루이지
뷔
입법
주파수
춘천
장갑차
부원
여관
봉기
조준경
대표작
주심
##자르
Ma
##순간
##ount
콜롬비아
후궁
만행
중년
어설프
파산
##파르
형편없
플로리다
창시
가성
But
리우
박찬
1951
디스하
생산량
목적지
까닭
베네치아
강행
쪼개
Just
동요
별점
##즈루
204
조직원
여정
##수정
당주
아이작
선곡
##산화
##못하
서초
동로마
백신
뭔
수식
##콤보
스크립트
##불능
똑똑
메모
태자
성균관
진행중
농촌
베일
체형
귀하
##뽕
진구
칙
깡패
개개인
일본식
염려
선제골
적성
등교
DX
##CH
##진흥
하시
오마주
혜성
지극히
사로잡히
발광
북방
박명수
마초
##의학
특허
Ste
자니
복면
스콜
장학
자본주의
올스타전
day
박경
##빅
Sy
##ger
레이너
귀중
해적단
독수리
냉전
감전
##청년
##횡
이것저것
##흙
로저스
총괄
생물학
FFF
인어
##ᅳ랜드
대대로
정립
베이스볼
하스스톤
pt
지그
파우
열등
한숨
대각
지상파
진군
Dance
피에르
쓸어버리
감히
나이트메어
선방
첸
이반
피카츄
FB
보트
험하
준하
Gold
루미
끼어들
전자기
수수료
산책
밧
현상금
개연
CON
마요
중추
##초교
##니르
아토
##수원
송출
행방불명
##마침
이류
분장
가급
기온
네놈
##베기
Grand
마운드
청산
츠바사
선대
남극
주황색
이드
##ᆯ럿
이은
실루엣
Pre
콕
암울
Ev
젤다
사슴
1600
구단주
##ᅧ지
미즈키
명곡
VOC
설화
달걀
##ne
##ally
HK
##ution
가미
증가량
계란
계열사
핸들
전세
힐링
LCK
차후
마신
대쉬
입체
경감
따라다니
##퍼런스
난감
##양군
##지휘
경과
##pr
망원
일진
홍성
##발리
괴상
괴력
고조
밀란
##경찰서
스이
심사위원
메이플스토리
광전사
이적료
도전과제
이용해
세세
##스크롤
천원
에우
get
##가타
사범
내걸
렘
심문
주가
우타
박진
스킵
##스퍼
##후군
##켜
구두
##얼거리
##픈
##제일
라임
고분
월급
자격증
TW
Over
논하
선고받
시타
##천동
##체국
도검
석상
대사관
스윕
신정
헥
이노우
##패턴
기타리스트
1937
습관
교시
마주하
##ator
아프가
ARM
라크
##치료
오쿠
고질
때마침
더비
플레어
##식품
사역
꽂히
목요일
카이토
일어서
로이드
beat
외롭
홍진호
##스란
오리진
부호
수녀
정의당
해치우
광속
편찬
체스
아틀레
내수
동탁
폭동
고요
##신기
UF
ᆫ들
##ᆺ테
##조약
출근
손톱
페루
가브리엘
고토
##엎
##우먼
진성
##취소
DJMAX
카르마
##air
수강
Sec
예지
##클로
선구
총재
음악가
접점
개인전
우마
총열
석탄
##걸음
화나
공익
다이너
tvN
시중
어리석
은밀
차선
##트르
일절
북한군
리쿠
속력
완구
처절
##십자
코마
출연진
기성
유무
프리미어리그
차관
우지
##ᅥᆫ트
출중
슬로우
남아프리카
열기
열람
교섭
피고
그런거
러셀
예언자
추기
애드
뽐내
주한
BBC
##젯
임원
뒤덮
출루율
Out
##유산
지중
조원
##공격력
부사관
김형
##니클
느니
입힙
코바야시
최영
##레스트
##서린
헤매
##페어
비타
실업
베스
맨손
포효
##inc
금호
괄
소피아
이에
아홉
우습
##매매
간략
##대군
이변
##튠
##라비아
투하
딱딱
수락
##꿈치
##리히
수복
금화
##작품
안면
켈리
고령
##함수
##헬름
##재판소
##격포
단속
수량
신축
커비
하우
모닝
검은색
아프가니스탄
El
##레일
Dis
but
##아서
치트
Win
파장
프리즘
기복
유틸
유난히
##콜라
##거장
안가
VOCAL
리츠
수요일
마차
아줌마
##...
군함
창업
##마시
야기
점거
천계
ᆫ다던가
저렇게
새누리당
스냅
사이보그
스텔라
쫄
##ART
##실리
항아리
시몬
제다이
UI
##하우
백색
##셔츠
하원
용맹
##전함
자신감
##use
사스케
세션
외래
라이드
스틱
이정도
sc
##장이
6000
향기
##벡
성도
Mon
김두한
보구
제휴
끝날
##나가와
이형
##서리
아부
호전
##브레이
수험
##담당
퇴출
HG
워낙에
노려보
킬로
자진
오래전
##ring
미지
##파니
##여지
##병력
조영
배송
픽업
##XT
카인
man
~~
##LS
##덟
천둥
전년
한스
이야말로
Af
딸기
마트
접근성
실명
평원
평민
하의
전도
새우
곡선
예명
완수
정동
컨트롤러
Power
##매니아
차남
후딜
##터지
슈퍼아머
루팡
##경영
변질
뺨
탐구
만료
##ina
몇개
리바이
Res
치이
때때로
마니
키즈
부과
동문
##역학
해임
매수
스토어
##블럼
##하늘
딩
아이오
장기간
중견수
##소프트
호프
극초반
경희
##설정
380
위나라
내야수
달빛
퀄컴
At
판권
영리
토오
어쌔
##르르
정벌
못지않
##내기
질환
경매
히토
##금융
OPS
아틀
연회
푼
}}}
전리
이레
단정
헤어스타일
허공
무상
학점
256
속공
##나르
태블릿
사출
혈액형
대인배
##삭스
SCP
NG
소우
분화
런닝
성형
연발
러너
북미판
가소
##타케
방과
안치
##모사
신원
노래방
대공포
##상대
회오리
명대사
아카리
Fem
쩔
여당
##봄
스캔들
물들
노엘
이성계
스피커
듀크
마누
##르바
##식물
이동하
적발
##퇴근
섬세
토마토
부평
##광장
파이프
캐서린
##기시
혹사
일보
세조
동참
##블루
맏
##ittle
콘크리트
조제
##신경
##스칼
기합
회심
원고
sm
인종차별
가와
직역
##변경
단숨
스커
입성
김영삼
앙리
Fi
MR
파수
투기장
매진
김택
##데기
MX
베니
시치
##보도
동갑
하드코어
어쌔신
각기
영조
자취
플레이어블
고베
##회전
옵티
허구
교향곡
가급적
##수치
한도
Sing
##좌석
##셀러
##ᆺ이
줌
1910
FL
행정부
##쏠
존속
고안
단숨에
아이언맨
##ERO
설계도
SG
케이지
조그마
문어
##de
카지노
스팅
망령
경찰관
##be
세미
##출력
gr
##롤라
##교자
통용
지주
쎄
빅뱅
넥슨
##ello
건재
젊은이
애교
스네이크
타치바나
근성
러시아어
매너
##퀘스트
대본
할당
어우
MT
부추
미수
포토
아르메니아
배기
승천
##reen
SV
부리그
악하
##ual
타국
집중력
##고쿠
조력자
상류
악용
미사키
궁지
IG
괴리
볼륨
파업
호무
##슬롯
강연
뒤이
적진
##선언
김정은
절규
부도
상표
입술
##날드
마에다
##비우스
반부
##짐
오아
나고야
오인
내구력
학계
강성
병합
피치
매개
분만
사찰
색채
궤적
##산군
막바지
낙인
MLB
그닥
##노르
##황제
Pv
슬ᄅ
##기동
소동
건전
라지만
스완
소환수
Rem
저상
슬러
노조미
이안
성서
우상
줄거리
퇴사
##제리
광탈
군사력
돌격소총
##에이터
##방면
중전차
영미
##공무원
표방
슈퍼스타
고장나
##단장
Ep
가뜩
당첨
코스타
선인
##ational
##교차로
네타
유포
999
현황
피드백
##괘
##기계
캉
투신
##긍
스태미
##나시
돌려보내
원격
##riend
경기수
##af
##의장
##ars
꺾이
사사키
##bs
##체스
어퍼
욱
하위호환
팀장
##질기
##이야기
Vo
무궁화
##클레스
브랜
##퀸
클립
##IE
정렬
연예계
둘러보
깊숙
##드루
한모
가뜩이나
채소
돌아서
##보살
##패치
정확도
##어먹
인트
##파치
고릴라
실장
초당
급기야
미시
억지
고려대학교
가명
브란
프렌즈
쾨
##탱크
##ivers
베토
주방
자유자재
소용돌이
임관
##인식
드라큐
예리
히토미
악어
홍준표
루카스
##외선
##목적
##한정
##교환
투니버스
##되게
몬테
태그팀
아폴로
쑥
VOCALOID
인벤토리
동체
제후
서울역
IDOL
코이
고양시
그려지
악랄
풍자
##녀석
제라
다나
발악
##노기
Leg
King
카오리
맥도
##가르드
추기경
##평군
소절
##분석
폭딜
관동
동인지
HT
YOU
김희
격전
BF
세탁
피처
##산리
분경
튜닝
just
출몰
선발투수
##맨더
##산면
깽판
샤워
초선
거제
상용
##준비
평정
쏠쏠
버젼
에이전트
집결
샘플
카트리
극소수
거주지
되살아나
##송이
##SS
모호
피라미
왠만
크루즈
므
School
##MC
##계승
모방
콤보가
Miss
속편
CEO
1935
끈질기
##장교
수비진
네코
##atic
경량
무스
UFC
광신
Rec
GR
정자
스플리
비장
합창
방어선
카에
허리케인
서정
what
극딜
오로라
???
전과
기이
스타팅
뒷받침
1918
##미술
##ern
새로이
참패
나이츠
##넥
밀접
코타로
##itch
치명상
뷰티
이치고
결장
최초수록
##ts
##무트
쿠파
네모
철회
STER
무빙
1934
기스
사위
차종
Che
##전일
서킷
김창
도도
히스
131
뱅크
철갑탄
부럽
반갑
ADV
'''
동계올림픽
인맥
재난
수원시
레닌
방금
우아
##부수
연호
이누야
공방전
발상
당분
광저우
한심
무효화
라미
인내
##후미
##페스트
핵무기
차장
운운
##ᆯ트
천적
##살렘
창의
End
운영진
##대비
조폭
##카쿠
예배
퓨어
반다이
클레어
이가
VR
다다르
역병
##rain
응원가
조교
Ge
##도구
쓸모없
Di
개발사
한가운데
아몬
생산력
##칼립
미야자키
##정관
득실
제시카
가호
탄도
##크라이나
도리어
화자
##에너지
캐리어
표출
샴
Air
밉
##비언
행렬
자주포
##tr
##서야
니나
살상
##주카
##루살렘
함경
눈ᄊ
굴복
솜씨
##어티
여고생
마가
소피
별자리
기획사
불러들이
##무니
##고등
알고리
조류
경유지
단골
경신
맨시티
전교
일자리
매칭
##oot
Mod
세나
방황
줄곧
##니지
일개
뒤틀리
올라서
##류소
로만
추대
토로
if
유토
##파이터
레이나
발사기
빨강
요동
마르크스
트로이
키사
양파
기미
에일리언
무성
리턴
추첨
멀쩡히
소극
타다
뒤집히
##전이
세간
게임기
양주
청색
국정원
보우
숀
키워드
챌린저
보증
##구멍
여진
정명
그리스어
카가미
마이너스
야쿠자
실무
친선
이노우에
가득하
못쓰
화합
##ren
모스
발전기
메르세
##변속기
무언
서장
드라큘라
한중
레아
억압
##처분
##방패
타케시
col
##학회
상임
##비안
##고르
작별
##블랜드
흑백
자판
엄지
공고
불로
##UE
위탁
EMP
##려드
욕하
상반기
권고
우크라이나
소진
취직
카즈마
빌라
##55
##보정
쇼군
알고리즘
장타율
부풀
##로이
PVP
부식
명령어
교관
솔로몬
##UR
임상
레몬
카스미
독성
벽돌
도피
한몫
사쿠라이
##걸리
옵티머스
방정식
넓이
체리
##rist
night
스티커
동창
민원
이문
미성년자
노이즈
페이트
##ony
강유
여론조사
##ma
점사
Sound
##수엘라
서사
##변화
국산
POP
##리조
느냐는
퓨리
도미니
레베
Hy
예루살렘
##쿠마
##영역
청주시
하세
토오루
강판
##정동
##필살
카부
배상
무작정
##스크리
시드니
수고
만류
피겨
##의정
##구스
##반응
수준급
뛰쳐
왕궁
직관
착수
어드밴스
홈구장
각색
비즈니스
##요금
성문
진가
서원
샤프
랜턴
##폭격
성채
불멸
##ᆯ로스
##어찌
##iew
##수입
지휘자
블래스트
블라디미르
주범
그놈
토착
DO
안도
메꾸
송도
##눕
신체능력
볼리
##샘
don
##ope
##준혁
사사구
##축제
좌익수
MASTER
작아지
공휴일
메르세데스
빼돌리
##호도
분전
출퇴근
한국전쟁
소녀시대
상장
간선
뇨
치사
글렌
견인
##밟
##디스크
포트리스
##암동
MD
포워드
EM
##바인
##투자
프로듀싱
정세
##ana
직업군
나날
여러개
##장판
징징
코지
령
##정역
훅
소설판
골리
브레인
콜드
나기사
과부
##atale
건축물
민법
라오
에이미
법무
연금술
##낮
티베트
##화기
개관
리모데
하야토
미코토
##해머
설비
사극
일쑤
유소년
미끄러지
##진행
티아
굳어지
화요일
애틀랜
##고교
일부분
스타크
Femme
현명
##oon
제멋
기관차
조지아
##케이드
단조
합당
빈사
조운
인테르
##라트
##도니아
베토벤
이씨
의거
##비키
손아
똘
섭외
자민
SO
안토니오
중앙선
Cat
드릴
way
##여자고등학교
##클랜드
정유
레즈
노숙
총애
길들이
과학기술
정인
공지사항
고독
##ox
신디
BAS
##핸드
살인마
##유기
토라
##실록
어찌어찌
대출
##ield
반말
사이좋
천도
기술배치
여의도
##메이션
유목
선공
손바닥
##덩어리
사다
##명령
금전
마사키
들려오
실황
bl
흡연
픽시
진흙
얼핏
디펜스
자크
오일
단절
##갤러
##22
숙이
연구실
호로
애당초
워드
파고들
사우디아
학번
EA
1100
레스터
국력
궁병
이윽
미지수
##뽀
코카
채굴
회복력
스퀘어
극찬
1932
쿠르
창원시
겨누
이누야샤
WE
자잘
함포
##에고
언행
##뭉
친밀
엣지
타협
알프레
##언정
도사
서인
##각시
##olog
군산
즐거
1931
비례대표
1933
베네수엘라
XP
##거진
역설
##투어
데이비스
해커
사에
보답
팔라딘
복종
겉보기
##연상
양팀
이윽고
성추
병장
내려지
카린
댐
확연히
되돌아가
##화문
걸작
##사의
연구자
가치관
누이
재혼
학업
효력
화가
##흥민
셰프
후일담
등산
##Fatale
FemmeFatale
자바
복싱
방학
With
그래프
Hard
콜로니
Run
다던가
자연스레
서북
황족
##시카
전리품
교란
##격투
육식
잔디
대파
빅터
금성
##ᅦ이터스
후후
테르
컨테이너
XXX
지중해
병살타
다나카
##수지
##화력
프랑켄
그제
초토
링컨
##쿠버
든가
##리스크
회화
오너
카구라
CT
앨리
비판받
##코르
김전일
성폭행
##분해
악장
대두
마모루
##AA
마티
피곤
직감
말장난
연의
양도
콘티
##튀기
아포칼립
##꿀
보태
위화
##라이터
소심
후유증
##소개
낯설
##ᆺ거리
백미
매복
340
도전자
실험실
고폭탄
허세
리안
욕구
Not
##블러
흑화
오재
급속
##트럼
미셸
술법
쾌속
벼슬
##업무
튀기
탈옥
클리블랜드
차세대
효과음
##자스
App
여도
##elf
경쟁력
Rev
##똥
##먼드
애프터
성기
커리
##ouse
칭송
제정신
진료
RS
##평균
무찌르
아즈사
오징어
##카운트
행태
1928
설득력
사우디아라비아
조형
신이치
자문
폭발물
##게리온
214
아치
손녀
가솔린
##즈미
본디
총탄
CCTV
기간동안
##퐁
##로리
기마
배분
RG
자유주의
셜록
전념
서드
체이
고원
키리토
재사용
##이언트
전태
본국
환각
조선일보
dis
경인
씁
숏
다단
##텁
장병
히노
사면
갈리아
로프
진작
중심부
도널드
다정
유교
##비오
육박
##ᆷ없이
Da
##투사
브라더
자가
##박쥐
동봉
##디자
##광고
마징가
든든
압살
유한
##티코
손흥민
들이대
카노
아이즈
하쿠
디디
징병
첨가
##75
VIP
##ᅳ랩
##넓
피라미드
##바ᄁ
패미
첫사랑
청량
치중
캡콤
뾰족
설레
추적자
##훈장
쓸데없
##그러지
연세대학교
양현
아티팩트
게재
평면
장래
##종합운동장
뢰
충성심
SHOW
세일
피신
입맛
자카
스케이팅
바주카
좀처럼
추석
애완동물
북유럽
강적
횡단
토이
샤를
##스페
듀엣
##전환
##완성
잠복
가출
시에
두부
토탈
조달
민족주의
아역
한조
결별
네메
UM
원호
의욕
##보건
증원
반칙
앞마당
##둘기
예술가
Elect
##크ᄅ
토머스
악수
두께
성공회
폴더
살라
꾀하
마음껏
꼭두
순진
성모
임창
RAW
걸어오
사마의
물려주
재고
스테이터스
사용법
순조
교차로
리베
시궁
번영
공성전
어처
선체
믹
윈스턴
햇
크로니클
##보리
호노카
난전
##르노
광양
기장
패기
허영
아지트
co
##ORE
흑마법사
빌미
##컨대
Ke
서부터
141
실험체
She
310
##공작
병영
에반게리온
대용
##쯔
학창
온화
족장
생사
김혜
##여고
8000
하코
##배틀
텀
여사
##미코
##당하
라가
미츠루
안보이
오스카
현행
농어
##we
오의
리마스터
##메탈
##ecial
아이카
간행
시그마
프론
울산광역시
무소
팔찌
리에
임요
망가
건의
혼종
구급
불가사의
Get
연희
도르트
아종
정은
##마니
도호쿠
저번
변종
초식
스플래시
존댓말
리플렉
워즈
이선
김세
##슘
오디
저격총
입학식
라이징
유하
입당
액세서리
버거
양념
늘어지
덫
남구
송구
브뤼
##asy
전편
##지부
미라클
대부
섹
점포
승계
##ane
동대문
아포칼립스
로딩
라거나
노이
##코올
랩터
부화
##66
승부차기
새해
박격포
미니게임
틀어지
서식지
사과문
##트림
폭사
앞쪽
넘쳐
##its
DT
##대대
패트릭
표명
Ang
여덟
유감
넵
칼럼
콜라보레이션
무자비
world
코토리
퍼뜨리
##엔터
플래닛
엑소
포털
완전체
##28
##병호
제이크
##명칭
어처구니
에리카
샌디
틴
##꼬리
임요환
대잠
껄
##틀링
이동기
타노스
왼팔
그르
##과목
외출
그밖
##레미
커먼
안장
시위대
##현장
##짜기
1924
불사조
채팅창
식신
악세
작살
애플리케이션
뵈
울음소리
대상자
조율
선진국
불어
white
카무이
##증가
이신
민병대
480
##학위
임페
파인
##링크
재위
공중전
##멘탈
##쌀
##해제
봉황
열받
탐욕
보리
##제트
득점자
당당히
계보
##스태
##감소
인프라
속삭
사이퍼
시애
잼
##EX
##무역
느냐고
임시정부
##수도
이우
##깊
염소
##ze
해수
부합
빡세
SW
예비군
메테오
전류
앞장
풀백
007
휴일
진공
부추기
가까스로
스위트
까먹
책임자
마커
##토모
0000
Cy
##신청
##윗
##윈드
##태수
향수
피츠
본문
##플래
자위대
그전
프레디
내륙
황무지
오리콘
콘스탄티노
주작
정적
레귤러
베어
##날리
상정
댄서
기밀
되돌아오
거물
##굽
서남
로드리
ᆫ다면서
정장
##양이
백호
##틱스
비정
버닝
드라군
서진
성역
##저트
su
야하
손수
##ness
볼텍스
##마켓
쿠루
##어가드
지망
중령
720
만세
제멋대로
폭포
기타사항
촉진
아픔
의병
밀라노
스튜어트
처단
모터스
Song
Big
흘러나오
아론
Comm
대강
##쿵
섬유
##바디
프런트
격돌
센터백
이분
공채
유년
##키타
삿포로
##24
##장구
##제어
섬식
Back
##푸스
라자
쉐도우
풋볼
##인사이드
담당자
##표기
게ᄋ
##appy
420
##루미늄
##츠라
부회장
##버섯
##브스
데이빗
의미심장
디트로
협약
Arm
##트레이
코이치
휩쓸
스칼렛
##리츠
추산
탄종
류현진
도르트문트
시애틀
##더미
발렌시아
소감
우익수
재선
낙원
##병사
스테이션
상위항목
마포
설사
닉스
송병
신주쿠
디트로이트
셀프
이장
삼각형
빌헬름
팔꿈치
##치카
안중
##ny
촉구
##의료
##운행
국무총리
사이오
초고
##판사
대한항공
다이어트
##클론
연주자
박주
유명세
유쾌
관습
송파
##잼
##ke
##평화
##쓸리
민국
여주
스크래치
플라즈마
사다리
코레
토막
##ᆷ돌
Order
성주
오버로드
##노코
황자
늘어놓
유고슬라
##마키
##RAM
##sc
##협정
수군
그레이스
두텁
제식
##디우스
##보상
괴로
펜타
1929
박준
으라는
##릴
떠들
1911
시저
미스테
목성
방영일
방대
호스트
선비
##ᆯ라이
헤딩
##고개
서재
착공
이제동
로마자
자라나
클로즈
사각
##라면
Skill
대담
히로유키
겸임
비약
무림
휴게소
다다
총통
##고로
광석
빡빡
유죄
포르노
시전자
##서울
##피탈
##소모
망자
휩쓸리
협곡
삽화
법정동
한개
위도우
암석
베지터
초사이
con
미련
폿
>,
##35
명작
##곡리
KS
유고슬라비아
경위
##누이
##콥
환사
##자금
##정류장
증세
목표물
크립
##chor
##소통
씁쓸
TB
군중
조세
포커
김제
제국군
지온
##네이도
기요
레기
케네
거듭나
##카지
조장
##실히
##블랑
유추
정규군
디테일
UR
애시
마그마
##애미
상권
##보수
석궁
1925
안드로메다
##레타
Every
차출
백합
김준호
##위성
리조
사토시
##학습
##느니
##키치
##소재
##무로
커브
##let
사상자
임용
태연
격노
듀티
출입구
##울프
대각선
대머리
가왕
버금
배지
쿠사
에덴
PSP
평행세계
cl
당분간
동점골
사설
저널
##종료
아이리
베이더
선천
추이
##UC
##힌
홍대
##뜯
##AG
마더
큐베
꼭대기
상회
윤종
이관
나나미
상대편
##쿠사
난폭
That
##가르
##눅스
##겨지
자택
시노부
로망
김정일
##비히
박세
양아치
알루미늄
1917
아스트
내년
##코딩
느긋
파이터즈
기병대
사교
니트
난해
샵
qu
208
충주
단테
시안
콧
##레즈
대관
##티티
판도라
독재자
헌데
석화
클라우
이에야스
바하
##주곡
##프리트
당원
##킴
내려놓
스패
한인
패드
졸개
르노
가차
연비
쇼핑몰
안제
프랭클린
선도
난동
te
키트
스폰지
온전히
기각
노기
비석
TCG
서커스
##기기
벌칙
크루세이
##비지
두드리
자부심
212
스탠다드
음양
시스터
거슬리
마는
적정
블레
##소환
##줄기
텔레콤
과실
##출신
서면
선교사
이의
구자
환원
마이애미
##바흐
##ᆷ비
##융합
성체
농부
괴도
동물원
성추행
마운트
세이부
포대
시즈카
가가
##bps
듀얼리
갱킹
Des
총사령관
##콜로
##렉트
램프
리액션
Har
##시온
중간보스
##ert
비밀리
갈고리
주성
대명사
위즈
##천역
동거
인기있
동남아시아
정현
단거리
교감
나츠미
##버릇
단신
매출액
##독립
##ious
뱃
강당
토네이도
##비트
숙종
해설위원
자아내
우츠
콩고
FX
크로노
보행
상경
열풍
171
##츠리
##ient
아스타
대여
올라타
NL
Top
동국
##폭발
끊이
가물
로브
235
##노키
간식
##net
다툼
서경
##점프
불운
벵
##런트
방영분
셸
캐슬
흑마
수렴
샤아
아야카
공영
문과
식별
토요타
GL
일직
강남구
##아프
분수
##프로그램
유행어
웨일스
초사이어인
지독
이마트
엇갈리
정제
양동
쿠노
침식
850
타쿠미
영락
최면
펄스
Tri
##카이저
역전승
저리
##기둥
왕따
하라
EXH
나기
##장수
##ret
##누마
행정동
크리스토퍼
255
올리버
내기
조선인
1927
어중간
중얼거리
##방학
키메라
##약품
FR
##복무
##탈출
관대
##ideo
개종
내역
배틀그라운드
##드라인
스케치
NS
년작
조슈
##공영
속옷
..'
##이론
배척
##토록
합산
야구선수
후렴
##진구
일찍이
태고
영화판
능동
발산
블레이즈
##끌
##줌
집정관
짤방
##테인
포화
##ᆯ런트
비행선
신한은행
가산
들려주
어휘
##더리
서문
##석기
샬
##pl
대칭
모건
알코올
교주
RF
퇴근
아델
제스
왕건
츠카사
##olution
튜너
Amer
수주
도마뱀
는군
##성향
리눅스
##스코어
경이
##현동
##나단
##투아니아
##동강
와일드카드
수레
현대자동차
디스코
떨어트리
어지간히
##브르
나지
오나라
결승골
##경비
교육부
Em
내심
줄리아
206
원산
##바이러스
늑대인간
##로크
포럼
특출
남원
러브라이
대표이사
아데
조인
마츠모토
하타
도청
해밀
발매국가
쏠리
잔당
자며
리포트
애틀랜타
활주로
클라이언트
PO
##즐리
DEF
##IST
##ᅮᆯ리
##나들
##정의
세균
직계
LCD
툰
이승엽
off
구애
##왕조
##악단
뻥튀기
##co
##천지
##협력
낭만
작화감독
무협
사구
##ERS
화수
게임즈
##비나
한지
글러브
##공군
해저
축구단
소인
##지방법원
리투아니아
시한
면은
모빌슈트
햇빛
##상스
소량
야구부
자연수
퍼시픽
스님
신민
신종
에보
333
엑셀
각본가
전염병
##엔드
용인시
나이지
Act
투구수
##메랑
##준호
UFO
이목
성남시
오바마
##ᅪᆨ
공직
켄이치
##갓
해협
##특기
209
벨리
일지
##고도
잘되
길가메
과다
프리스트
알파벳
비늘
장녀
방랑
##예정
##ful
##기체
히브리
노후
##mania
ve
절묘
플러그
항우
##사라
전복
품종
블루스
새정치
러블리
심리학
##바오
후려
##근무
여자애
290
아슬아슬하
발도
부딪치
Pe
나탈
기겁
안주
팍
커네
나이지리아
kn
LS
카쿠
북두
줄줄이
에인
마늘
버지
사주
니콜
무난히
KG
노랑
데뷔작
가로지르
말라
갱단
야채
##토키
경호원
##ner
장단
엘런
##ham
사하
##매체
TD
문의
##비야
스로
버금가
카터
과반
##미오
광학
##달러
Bar
Fre
##회원
출세
215
##어들이
창병
꼭두각시
어비스
##수술
##감치
기통
##살이
친근
유우야
운전자
합방
휘둘
푸른
가창력
아벨
결사
저렇
런닝맨
소음기
가변
단단히
샤크
정직
기만
##영수
천만원
패거리
Ext
햄버
##삭제
시궁창
##사포
꽝
주재
##문회
후작
##룽
첫등장
소중히
AMD
비틀즈
후문
치밀
인기투표
의리
##웨이브
종착
God
##나우
##타기
동독
##노벨
##고문
라쿠
##일지
Str
1926
희미
일선
##총독
잉크
##산맥
나루호도
수분
##영향
트레이서
되려
리노
호조
##ning
재팬
철학자
GDP
먹튀
친위대
특권
##코트
Hot
편제
근래
##집행
Bea
##큐리
뇌격
와우
뉴캐슬
연기자
스캐
못되
Ab
발효
##덕후
##보컬
카바
##프스키
##판서
홍수
##ERT
STAR
잔여
RAM
하남
끝내기
위화감
체질
anchor
유가
택배
서스
##ᇀ이
##책임
푸쉬
##ump
대적
급제
어린애
화랑
때우
관제
초원
Char
분기점
고스란
다이묘
고스란히
법조
'-
일찌
덴노
##단의
ᆯ지도
##모으
##ward
힘내
괴멸
심심찮
##보고
우와
비아냥
Met
Rain
번길
##day
##히어로
판본
독립운동가
Sil
##이용
##트라이더
every
샤이닝
비숍
먹방
학생회장
마비노기
원제
##발사
ᆯ게요
위생
메아리
##ATION
어시
알맞
##떨
헛소리
FN
악보
인신
제르
명장
반자동
랄까
머니
페인트
매입
케네디
최성
##동력
베라
휴전
위임
**
라바
동유럽
알아듣
클락
##대책
부메랑
최우선
want
드레드
세계선수
##바이스
FE
##결전
White
##88
요일
단말기
쭈
침체
Inf
지자체
마이트
매지션
초급
##샤인
이녀석
세단
영기
심슨
1400
인피니트
정종
형법
yout
정경
디시인사이드
다구
##오오
해결책
찬사
##식사
여건
ᄇ시다
외야
킹스
조승
코다
골대
최적화
##지물
데카
##사관학교
이민자
코나미
계좌
프리저
대한제국
참수
뮤직뱅크
KD
##수학
나주
##보트
바람직
비하인드
바늘
채무
리비아
##전생
타나
##전용
##자국
트린
##기수
제각
##면허
만화책
##길이
##민주연합
히가시니혼
down
##만큼
##및
more
##반사
긴장감
행선
사오
팔레스타인
May
자정
게르만
##차장
영국인
김태균
불분
경상도
사생활
경의
최재
시력
207
##가격
정정
성녀
추월
간편
Pop
병맛
상체
삼지
IDOLM
##임무
찾아다니
##부모
애리조
왕녀
증후군
한계돌파
악명높
퐁
##군사
번트
Master
중산
항로
전폭
터무니
오퍼레이터
고어
저스틴
재해
브로드
##son
부치
몸빵
이블
포지
단다
##성적
무진
베가
파열
##노부
멜리
트림
우천취소
유수
명품
데이브
##au
관광지
단연
마카오
##게스
##ANC
카자흐
PA
무심
더스트
이시다
##oud
불분명
제비
감속
길목
냐면서
앞장서
소셜
##확인
과하
##ves
성종
##페스
미하일
앤더슨
항소
생계
투여
##프레임
미얀
Game
아세
정거장
끝없
마인크래프트
치세
터렛
##프닝
이라든가
개봉일
선하
진해
외교관
이스터
전산
##발매
무언가
헌납
마스터리
부두
코즈
풍속
만화가
OR
##미네이터
심플
##뚤
##보안
##천리
메소
는데도
즉석
몸체
보유자
건너편
충실히
161
이강
금하
they
##드라이브
상가
1922
밀러
후하
##ift
드레이크
하렘
텍스
박민
일갈
칸나
사부
칼데
##스턴트
몰아치
##고루
의사소통
재빠르
뛰어다니
시동
##소니
##기아
쿠스
진전
##ship
무법
주군
##재산
경찰청
명확히
서유럽
세토
선택받
그토록
##ape
스코프
COM
창세기
##부짖
헤라클레스
행동력
마케도니아
카를
Are
##무쌍
사건사고
울부짖
가중
위조
##전투기
여명
통신사
마오쩌
GAM
코시
작렬
##대행
인분
하데스
##과장
스폰지밥
수뇌
아시안컵
차마
숙명
1923
마테
애덤
열렬
광역기
대변인
아이치
들통
끝판
카에데
##구성
갭
팀내
일정시간
나가사키
##옆
TN
불능
중소기업
WAR
로사
공적
야드
스트레이트
##지에
스베
재화
1921
이치카
오우거
##장전
위인
김택용
TG
백수
불가피
순순
랜디
체내
비밀번호
##lock
한결
##럭스
모라
##디자인
나츠키
시발
인장
리젠
화장품
중의원
##소타
완패
##ᅪᆫ
마작
Bu
##노미
촛불
알비
사바
창간
망원경
Bra
아르테
수송선
몸집
ᆫ대
개틀링
520
코리
역관광
평지
드리프트
외래어
only
사이오닉
이코
미분
제품군
##ien
베드
##슬래
명하
도스
##문고
코지마
척하
뿜어내
Yeah
마오쩌둥
성령
휘둘리
산산
한나
픽셀
##국적
배고
한국사
심리전
##경험
DA
비대
선풍
출시일
ㅏ요
##less
한겨
단번에
티탄
키쿠
복권
##찰청
##스티아
동선
선교
조비
밋
랄프
##ize
##일관
news
카트라이더
방어전
멀린
##라이즈
짓밟
##니케이션
도보
안테나
##람쥐
역전패
구스타
콤보로
스플릿
부대원
##zy
고모
##교체
징집
##오류
헬게이트
Cont
##LD
##터치
위태
##고양이
##미트
요크
익스트림
##선스
강변
며느리
편집자
pl
신촌
##진출
엠파이어
##타고
여친
이지스
타이베이
전용기
##렁이
베인
##EE
지령
재상
이송
수법
##경쟁
감시자
관악
##리아스
Hea
부녀
랍
부츠
편대
##여름
근접공격
괴담
아틀레티코
캠피
##45
호타
크러
##구르
남아공
##여단
오스틴
하얀색
##led
온게임
지방선거
유민
한승
##omb
성취
##세키
이상민
보병사단
프란츠
##강의
뉴비
스펙터
##전적
익스프레스
비범
##일체
수영장
승부조작
##종이
자책점
경합
트레버
##조절
설정상
등용
팩트
리스폰
피고인
아날
##워스
초연
##호텔
체하
##헌터
스펙트럼
수년
##큐버스
##ited
Project
##HD
락스
메커
세련
##여우
투항
출생지
활기
온게임넷
7000
##뜸
도타
주주
실습
붉은색
학부모
피니시
##슬러그
크림슨
Joh
온전
##지선
페니
인기가요
힘겹
눈부시
지못
##ALL
##드류
Off
Battle
솔리드
아산
댈러스
안들
이따
와타루
TEC
##코쿠
궁정
1912
한마리
TF
예하
독설
##시점
법무부
불안감
순순히
##ita
팀킬
프리즈
##솟
##입장
##수송
##형식
선명
터미네이터
유스케
JC
에임
헤더
테이크
Open
이범
자음
샌드박스
일생
특색
선발전
##ORM
##ton
어새
재차
DDR
~'
모기
월터
이유로
다이브
##텐더
연장전
리프트
##29
##남자
커트
##맹이
생포
##개그
wiz
##카르
회유
##엑스
협공
소이
Sky
빼놓
지못미
독도
언론사
천연가스
사카모토
Moon
##뽑
##의지
크레이지
번거
끝부분
##촬
소망
##지옥
트이
##플릿
미네소타
설문
산출
##스토어
리벤
##태후
......
##세우스
백두
정연
번하
##또한
##식당
221
##ENT
BASIC
다인
##원지
##두근
응징
그지
단간
날아오르
##꼼
멧돼지
멱
우투
여객철도
일직선
##스톰
##닥치
777
##구슬
##로즈
히트곡
섀도
##피오
양면
기생충
제네시스
##짖
증권
매거진
good
##23
성품
초회
법령
칠흑
리듬게임
바우
화속
송곳
관련기사
맞대결
통역
순차
기염
게임판
##row
##27
관건
1300
미얀마
성가시
##호크
꼼짝
윤성
아쉬워하
하늘색
##슬란드
짤막
이북
외침
지갑
비둘기
종로구
Like
힌두
##com
저력
##브라더스
타츠야
##공산
##토끼
브라우저
퀑
개인기
##랍
오보
포괄
분가
WCS
영창
선별
천문학
웬디
밴시
##툭튀
##ling
전라도
벌어들이
희박
마켓
우메
스크ᄅ
스카이림
##그림
수료
읊
안식
라지
라든지
##주행
정선
##신고
성급
익명
Special
정도전
김현수
얀데레
내려찍
농어촌
버디
체류
##에리
향토
이어폰
2022
창출
갈래
강호동
과잉
수없
##처스
급진
##상품
샨
갑판
토템
##메이드
여느
개드립
매트릭스
##멈
##증권
두개골
강점기
beatmania
수작
톡톡
다듬
원로원
본거지
헤지
Bad
젠지
스릴러
가야
이륙
일정량
아이슬란드
직구
청동
소사
가세
여행자
헤일
시세
나선
구세
노원
막말
##혐오
붙여지
TT
의류
피어
랏
탈탈
르네상스
이나즈마
디에고
전투원
Soul
원어
##나타
조니
##풍선
##협의회
아틀라스
수반
##우가
백지
데이즈
승강전
초동
루리웹
나뭇잎
밝혀
가즈
조현
붕대
Med
차크라
는구나
##rop
싱어송
##ᆺ소리
사병
오드
당근
군단장
스핀오프
카즈키
디메
광동
전투복
섭정
가주
서지
순항
병신
감염자
마도사
ᆫ다든가
슈터
##취급
##어내리
서브컬
##코스트
라이선스
이조
문호
##연장
진행하
버지니아
무패
손책
213
에로게
남캐
네메시스
##카게
##망이
비요
이다
뭣
반대쪽
캇
##UB
재주
무모
막아서
##벅지
##수업
바이올렛
##브루
다그
생방송
치키
루시퍼
거창
##우타
포이
부상자
end
모함
##파츠
간장
##풋
Po
##vent
남짓
고성
체구
##쿠르
Hey
낙하산
over
일만
와이어
분사
심포
접시
FBI
##이인
##수산
##럼비아
##line
검거
산체스
##ute
음모론
Now
WOR
알제리
복부
##ᆯ롯
이로
##부원
세스
항속
Dragon
##대리
마사무네
##케이스
만두
러브라이브
Bur
사죄
##진우
223
눕히
발령
##노래
##play
빵빵
세이지
닷
오덕
티나
##기사단
our
짊
명장면
명백히
##xt
삼국시대
275
시라이
모티
전우
##ᅢᆨ스
승하
티타
세속
형벌
##프로야구
노드
계승자
이메일
멸자
여하
장동민
##연령
번번
통학
baby
배경음악
##게시
반달
자기장
어우러지
현무
체급
##감정
스왑
특촬
네팔
##stem
001
원나라
팬클럽
프리킥
밝혀내
서점
#,
수없이
카도
탈것
중장갑
##발표
##oney
이끌리
벤츠
Eng
보단
서약
넘쳐나
##닭
부통령
유서
세츠나
##벌이
아만
밀양
차차
에테르
도르
은가
fl
거머
호라이
내구도
마천
##노오
베풀
##내셔널
흉터
지체
1907
셔츠
에티오
##96
고속도
##결합
계약자
작물
둔화
##계통
바실리
햄버거
일찌감치
치히로
ac
구비
볼프
케이트
드래곤즈
가네
##나크
##네즈
철벽
눈썹
수차례
Way
화염방사기
비평
정윤
##아내리
데스리
티셔츠
현수
아카기
이시카와
넵튠
메커니즘
부적절
현질
콘테스트
그분
악인
타니
##핑크
가장자리
Alb
##FFF
##환승
##ᆯ린더
##IGHT
일컬
##소연
춘추
어새신
##때리
##홍철
매도
매사
돌풍
성희
##알라
탤런트
뜬금없
예장
모로코
다테
##데우스
##eng
커터
##스탕스
소탕
울버
##붕괴
바깥쪽
유다
##포고
급습
see
##깽
피쳐
1905
에너
##시에
사절
무제
히이
농도
싱어송라이터
##탈전
대구경
해프닝
교직원
##윅
환불
쪽지
엠마
##클래스
폐위
도메인
##전철
교재
재미없
##궤도
##lt
##스테르
플라잉
DAY
##폴트
주권
야자
몇가지
아득
레슬러
소아
동대
이터널
껴
준장
Int
에티오피아
365
타오르
반납
군벌
테슬라
이사회
Cent
뒤쳐지
런칭
옥수수
아츠시
max
관용
고려대
Comp
희생양
대장장이
선두타자
향년
맞춤
##떠
유세
태백
포진
슬쩍
바래
문성
##파스
너구리
Match
쓸쓸
서스펜
레고
우로
시베리아
공안
데스크
골고루
마리사
종속
자자
미처
성원
선지
불거지
남용
청취
내리치
Ass
캐스트
갑툭튀
##인더
216
급증
최하위
사카이
고갈
##26
머무
지탱
인승
성범죄
선글라스
거행
사생
장막
극동
"'
러시아군
거니와
블루투스
Yes
##크레
방관
배반
결단
변모
다이빙
슬레이어
##제프
##아이템
370
골리앗
##권력
톱니
##흠
치부
##닌자
민심
앤드류
슬라이딩
##건강
막론
욕먹
정무
페더
케미
미카엘
say
어태
전령
NAS
수퍼
명실
스노
지폐
최형
##루이
레지스탕스
Fla
리제
아날로그
right
미유
하시모토
##후드
##코스터
그랜
빈센트
한국어판
다량
회자
우즈베
##덱스
물음
변함
##유물
시오리
그렌
스켈레
kr
혼나
##심사
효소
##혀가
트리오
ᆫ다든지
##소득
간첩
팽창
끝판왕
캬
악질
다이크
##ude
경전차
소행
절약
구만
라이브러
CIA
##츠구
치아
##드레드
푸른색
Ook
언락
밴쿠버
거머쥐
전패
국물
팬아트
흥하
음식점
##여왕
보급품
스맥
PvP
##ata
##ᆺ밤
신봉
스탠스
SUP
##콘서트
##피온
코브라
헬로
하천
왕립
겸비
네로
##바드
##운틴
급상승
Last
가든
메두사
박태
총구
잡혀가
좌완
세레나
XY
하버드
자수
##광선
시종일관
덤벼
스탠딩
동아일보
빽
오모
##주니어
포유
초동안
##철학
짊어지
##투쟁
##청사
제너럴
IF
극성
마취
##요정
상승세
마장
티라노
연대기
TWICE
옥스
자멸
##차고지
이탈리아어
데니스
태세
##히데
무안타
##모트
케니
##ius
북서쪽
오카다
##날개
팰
##결혼
##토가
실바
##독스
프라이드
권역
바스
매점
이남
마코
어지럽
홰
매지컬
옌
몽땅
440
상반
조선총독
동성애자
도입부
못생기
막시
수납
밀가루
보호자
##III
##red
거미줄
하반신
패권
올리브
아랍어
정관
무당
누락
격납
##소년단
배급사
오차
폴라
소름
근로자
라파엘
기린
발트
흉내내
##감사
수속
두각
기어이
파기
##샹
졸리
카논
##던전
##드런
Core
스루
박치기
골짜기
##맞추
BRV
요지
간직
##ets
올인
후진
페로
장대
덕택
왕성
산호
##늠
##주민센터
슬램
곡인
앵글
Mir
음역
Show
##76
##ated
쿠퍼
법사
자석
##몬스터
there
##가게
미완성
##트럭
이치로
##ara
##스텐
자치령
수혜
메이크
장담
엎드리
오도
##노바
국내외
추위
사관학교
스맥다운
##엘프
##즉
타리
본뜨
양육
Nor
##인터
1908
오산
##미팅
리더십
크루세이더
##기도
콜업
고려시대
타케루
##cl
경보
발병
케르
##푸르트
갈아입
##시현
##레프
##코로
his
김호
케로로
검출
HOT
불발
광자
압둘
가신
모리스
포상
반죽
##배기
수뇌부
암기
##불교
MI
##선택
해발
원상
##짚
안톤
##토라
센트리
에어컨
아리사
##올로
결투장
수배
##전시
원종
##드로스
##구름
인제
흰
##44
전주시
시간표
묵직
일괄
가득차
폐하
장기전
사서
오사
비잔
척추
특출나
pe
조공
교구
경비원
일등
얌전
순삭
수리검
영령
사이먼
micro
기판
아소
##타치
지명타자
스레
카메오
무서
##교실
레프트
##ely
대북
데일리
영문판
국수
tw
##공동
엘소드
산지
소란
Mark
##원장
반려
루즈
정몽
학파
시제
대입
이를
이츠
마토
##테면
슬로건
신빙
파병
소모품
무방비
십이
자치구
후카
불허
합금
##라크
발해
##진군
If
비운
코칭
##UST
또래
일기토
이를테면
리어가드
듬
필적
백마
시부야
##화물
마르티
##괴수
일파
견고
후지와라
Art
장학금
##와르
깜빡
이대호
Best
##디난
First
##사인
알바니아
##제비
성동
섹터
##픈뮤직
##사유
티거
다크니스
팝픈뮤직
RPM
공민
크리스티안
##게시판
피크
매스
허술
고하
요건
##현대
열화
Sur
노획
충공
got
피버
료마
##KO
호화
이서
일회
정중
소주
##티시
단타
하르
##칩
서태지
악영향
How
한족
##밴
굉
자백
뛰어내리
크리에이터
바이퍼
무리수
원성
스킬명
허벅지
이니셜
박기
삼국사기
그제서야
적기
비열
##타나
탬
##가로
우클릭
메탈슬러그
스몰
폭군
납품
##무장관
테츠야
로코
오클랜드
대장군
시녀
에어리어
바스티
승낙
who
재발
저항군
제국주의
전갈
##OCK
##테루
음란
##샨
팩토리
id
##궐선거
오레
잘나
고속버스
직면
간절
쇼코
아란
##라라
유족
##여래
승기
잠자
송병구
톈
한장
관전
-.
뜬공
북아메리카
나리타
재규어
김하
김인
맨날
포텐셜
Sl
지출
주름
##ᅦ인지
파이브
Christ
##85
기총
##도르프
Ap
##경민
큰일
장민
요양
내쫓
레미
베끼
아유미
##기자
예거
219
죄인
##INE
선역
가늠
결선
고뇌
김신
##저지
들여오
중사
인페르
프론트
퍼블리
##권총
##ga
메르시
지바
마호
제드
##모프
##라시
노태우
##udio
##붐
강령
잔재
중론
##ERF
주시
바이스
##사이즈
플랑
알몸
틀어막
선후
덩달
##스기
라이터
머릿속
데이터베이스
##상부
안맞
분하
Down
오피스
##직업
잠식
##골드
RED
이규
시작시
크로노스
FFFFFF
신약
##럴드
##임수
급속도
퍼스
Never
NA
##핍
곧장
프론티어
에러
호스
##ric
##스포츠
소폭
시리우스
류지
Sam
950
일어판
##드리스
누님
레이무
통근
탈주
##불리
Tour
겉모습
##다듬
자위
착취
feel
섣
##인과
##마이트
패트리
##강도
##펠러
##팁
##디나
##work
명왕
뛰어오르
해밀턴
Free
NAT
카스티
십상
브리핑
끊어지
지침
한동
경전철
사비
망각
540
궤멸
밸브
##ther
조문
열광
활약상
##엔터테
수족
대제
통찰
##ley
후려치
##분투
##ᆷ없
한눈
전위
##스부르크
##시노
진흥
ᆫ데다가
활발히
Na
전황
란다
외환
황소
동남아
Side
##구동
미워하
개찰
박차
원자로
##ux
근방
채권
GX
직진
독단
416
GPS
##사병
디스트로
Magic
난징
질질
정부군
칠곡
보름
##라이징
##보장
베놈
마고
여리
키바
##HC
##NG
충동
관객수
깁
군세
##표현
뚱뚱
주립
여운
나오키
청사
연합국
##뻔
##드레이
롤리
##erm
커뮤니케이션
yeah
##hy
##다라
스쿠
글ᄊ
의존도
동급생
감독직
배틀필드
유창
복각
Track
피칭
운임
공전
끝없이
즘
임페리얼
브래드
김한
철퇴
설립자
개월간
##시위
##니컬
유체
남산
두어
전쟁터
이롭
금서
행세
책봉
국내판
레비
##이즈미
Sim
##잡지
그러다가
트라웃
몸싸움
상수
특별출연
빈곤
가르시아
##너드
엑스맨
페드로
유노
바그너
부피
두근두근
9000
##블렘
##하니
화끈
개화
장려
##산드라
지하실
개더링
얼룩
닛산
데스매치
KN
블리츠
창시자
##슬쩍
라그나로크
모용
최고속도
KCC
통수
##교육청
투표율
##쑥
분간
틈새
##산성
루루
##난무
시연
##니엄
##용품
데미안
수박
정류소
##ird
KA
거액
랍시고
부러
##추가
엑스박스
##계급
목조
콩두
첨부
알프레드
Pol
##하치
주조
족보
야말로
조선총독부
반주
게임내
girl
적어지
해지
니키
마크로스
##마르크
City
적도
##간지
행군
민사
맥시
엄폐물
PM
거유
활동중
듀얼리스트
다채
연세대
돗
##비서
골수
245
문경
Happy
신격
다이어
아르타
젓
싱크로
포레스트
자선
##위안
##카지마
Party
##BOX
신령
##복합
예매
이어주
아레스
정치가
##리오스
Edition
##UL
미토
##재림
콜리
변속기
빅토리
인테리어
기공
페스
충공깽
##가키
라트
심부
##rew
사업가
일전
리빌딩
Perf
나우
한판
끌어오
메탈기어
험악
AW
##펴
##21
##승리
제주특별자치
곁들이
어려
식인
스케이트
온건
야시
잔존
##ᅳᆯ렛
090
쌩
##UK
축출
##중독
이보
##국수
탐험가
고아원
시미즈
##헤치
Cap
오자
태양계
BP
YG
버겁
총회
세계수
경비병
야스오
관념
투르크
##슐리
드래그
앉히
밧줄
Fall
##재욱
치하
234
정착지
성희롱
di
추상
포섭
짱구
##창고
방탄소년단
Final
헌법재판소
버니
드러머
소홀
지상군
##aka
차오르
실감
키퍼
야마자키
쥬라기
##세츠
RT
##yes
거라
라리
판명
오아시스
감마
편도
제주특별자치도
life
##수호
끌어당기
엔터프라이즈
제복
##카운
박병호
EB
낱
베아
설교
토우마
허다
##시도
메딕
226
##걸스
롤러코스터
Will
##지스
적시
넷째
비타민
##ris
##댐
조선소
##수스
249
고성능
동명이인
의뢰인
삽입곡
진범
전곡
톰슨
페미니스트
각별
잠정
##코리아
김은
대나무
성검
광화문
컨퍼런스
##묻
굴러가
자결
코팅
##묘지
PT
내공
우선시
즐거움
츠바키
송나라
우여
위안부
그리폰
로스쿨
##훼손
인터내셔널
받침
연못
예민
##포시
근접무기
북동쪽
본드
Angel
저명
##종교
##날레
RX
이룩
메가트론
##세인
##ᅪᆼ
##프로스
화이
조짐
챔
난장판
탄두
대지진
샐러
자유당
개리
카드군
Stage
Net
소나무
Spring
롱주
make
캄보
차우
서동
##곡절
이쁘
쇼타
걷어
##스텝
베로
물러서
미식축구
##que
네번
##arius
##법사
SEED
매그넘
동하
##조림
해설자
217
##영화제
영수
막타
민영
곧이어
##쿼
##시즈
점치
블랑
클로버
적과
바알
##포동
WHIP
조로
410
미술관
##루오
유승민
다비드
프레스
우이
신태
사쿠야
보이드
정승
유상
영장
BMW
호각
리조트
내한
말살
투수진
##ONE
카르텔
난쟁이
샬롯
##애니
##tain
아노
##요코
Boy
##잇
엠블럼
Club
네이션
공석
교황청
일식
생몰
파파
##ision
우여곡절
인간관계
다단히트
정대
승리투수
엠블렘
화성시
사납
위닝
오리지날
홀로그램
##사살
처방
##티움
시어터
만엔
선전포고
최원
벼락
만성
##정복
겁쟁이
애시당초
통영
플레이트
박하
##쯤
ff
넬슨
##팽이
무어
타도
블로킹
##게이지
##무관
픽처스
##농구
분비
검열삭제
호라이즌
경순양함
##마왕
1906
로렌스
엘더스크롤
월등히
커맨더
228
ABC
BW
화질
##마타
표준어
경부선
Come
Great
##str
##칼리버
RR
겔
233
빨아들이
카자마
##젓
선발출
브이
코믹스판
##말라
압승
퍼니
뮤즈
자행
허니
애니플러스
숙지
보전
##자격
##베트남
##95
초라
몬트리
Cor
경멸
선율
##종족
##예산
동률
##봉사
맨몸
옅
이즈리
##스파
##데라
분출
##ASS
##깡
호그
클라크
##ader
파라오
##에타
중순양함
재래
##ama
##노이드
##OWN
구미호
내용물
액수
야구단
##부여
페라리
규율
이아
개헌
루드
티모
펜스
미약
참격
크리드
##ague
아돌프
사고방식
레바논
공시
위아래
##비리
형주
루돌프
사이비
괴이
둘째치
괄호
이츠키
오컬
##보르
받아치
퇴임
part
보리스
##정상
미달
##연의
삼척
추론
종자
잡아
츠나
동그라
##팜
웨딩
크로스오버
겜
물결
##춘기
Class
##섞이
카츠라
##ause
휴대전
가넷
켈트
관세
##질환
칼리지
##IME
##췌
##걱
##버터
황색
224
체크카드
##전략
##탓
##일전쟁
예컨대
새마을
판다
효용
어썰
IMF
조개
원반
별거
##수석
공단
실바나
함유
룡
Break
MY
Fly
##어뜨리
역전재판
##브레이크
375
##ross
##제인
이면
주공
##임금
잔소리
사시
항쟁
사업자
##ival
has
SKE
장문
애비
애니메이터
베이커
im
##옵
노트수
나카노
Legend
캄보디아
우디
##내역
흑룡
밑바닥
바트
오사무
편애
팬미팅
도봉
##노어
##해야
아이젠
cont
속임수
Little
쿼드
써니
PH
##츰
##러기
메츠
선더
매료
억양
만악
독살
인천국제공항
##플레이션
라운
##사슬
피리
짜이
##ism
라이토
미네랄
이매
##미트리
발포
황폐
##83
##거미
고철
충원
아멜
최형우
##충류
라일
영재
aqu
이여
복수심
우스개
천진
광폭
만우
##유예
약수
탄수
칼질
가무
모금
##성우
들어올리
사복
한수
언론인
##브론
코러스
속주
헤이세이
허약
샌드위치
실탄
디럭스
궁궐
##아오르
우려먹
발동시
사우디
리히
##루가
개인정보
부천시
취항
환산
겐지
사냥터
##기관총
이즈리얼
포세이
센고쿠
원정경기
남아메리카
이달
Girls
슬라이더
스켈레톤
무로
그물
##부진
양방향
##att
틀림없
Univers
내비치
키사라기
초구
시종착
햐
군기
리미티드
음료수
과열
용납
철자
##다발
파커
낙양
파워레인저
하인리히
휴대전화
##IVE
유역
오승
발열
강서구
##벙
아디
외장
증강
은색
대교
덮이
바티칸
옥타브
##바뀌
##썰
임프
횡령
거든요
고고학
티격
공황
능욕
노동당
RB
정주
임재
는커녕
발족
필승
Swe
##erry
'~
ER
NFL
##요이
담원
미움
동결
오데
몬트리올
##서니
로버
##제하
악평
급여
염동
##댄스
공연장
김규
fr
김구라
##지배
자리매
세인트루
##서양
사드
는다며
모차
펠레
반공
코요미
집요
John
##리즘
무네
백룡
정신병
EXO
##번역
쌈
APC
폰트
가맹
북벌
소요시간
윤종신
##뻥
연성
광해군
사단장
##ᆯ림
개월만
프랑크푸르트
도래
관현
공공기관
욘
##랜서
##민수
코미디언
출연자
never
전동
투영
301
쾌락
##냉
에버튼
재림
폭언
전투시
##플ᄅ
시엘
##나이츠
##티스트
절제
미스트
겨냥
빙글
##영업
슴
확인사살
##리역
정진
초심
팔콘
##람회
암흑기
만우절
글래스
##uch
보스니아
소품
패미컴
잽
냉혹
again
주부
심복
쌍용
점성
##구이
경관
총학생
지도부
라데
신승
##장식
선딜
우왕
##썬
저속
삼장
흑색
미공개
##현수
##폐합
해피엔딩
성우진
방사선
heart
어플
공평
착안
Gl
신년
폭넓
몰두
포식자
치솟
승승
총대
퇴직
판단력
강대국
정국
석가
CGV
자리매김
##부위
십중
지석
에마
##정호
복식
비행장
##다이스
중하
227
대주교
##랩
직캠
##밀도
낙서
교통카드
##ords
PRO
조그맣
하강
박원
푸드
Mem
Take
##한번
##조노
쿠리
램지
마우
##소방
매끄럽
마라톤
시크
타라
추축
캠핑
##꽁
구실
노선도
츳
##ᅥᆼ크
자서
##중대
##세움
##암리
아틀란
쿠도
##아드
파주
황해
익스플로
도요토미
컵스
TBS
##일치
구식
초음
390
1913
용호
카자흐스탄
로젠
##바탕
주제가
조슈아
홍익
획득량
미나토
em
북위
송신
마사히로
화보
고참
유부
남인
기울어지
교묘
512
게이밍
소나타
노홍철
헤엄
연사속도
##가왕
##ubl
연화
##슬램
매튜
숨지
야인
승용차
##이키
1909
격투기
캔자스
##지인
마이티
제곱
##버거
스타라이트
##게일
##초인
라이엇
어쩌다
조각상
상소
증표
##차림
기권
악세사리
##비티
애착
길래
퍼플
마키나
인삼
##보레
타원
##히라
##곡인
솔루션
ㅕ야
투르
허물
은신처
중종
잘나가
사적
뼈아프
사츠키
##소울
##종일
눈보라
sk
갑주
서주
교무실
레이카
눈길
혼잡
##도감
아이코
스틸러스
재보
##뮬러
1915
인가
성소
강캐
라이브러리
소양
##보조
##공화
절감
자의
소대장
재일
은빛
미코
브록
남동쪽
다이스
정치력
011
##남부
태수
폄
xx
출국
우울증
생생
##body
##절차
수만
##입단
지원군
인원수
게시글
Cry
mA
양말
브릿지
회원국
알라딘
스미레
##발트
평이
악연
Hol
크래프트
##더스트
순발
1700
뻔뻔
##호그
투덜
교육청
레인저스
시칠리아
##레이스
이완
각광
천수
코스모
타쿠야
리전
맹렬
루시안
경주시
한기
키시
한국식
##편집
엘릭
##다주
##마비
교제
##ital
뮐러
멩
파나
정명훈
면도
##주머니
김소
##apan
트렌드
스냅드래곤
토드
뜻밖
##입구역
십중팔
한밤
ㅏ라
##ᆺ값
##지하
셔먼
김종국
ISO
##ᅳ러미
튀김
뜯어
##iny
스테판
크리스티나
개표
교명
##집합
우등
EPL
안젤리
호문
검도
액셀
##가수스
오현
손발
##슈타
마석
##동화
대성공
껄끄럽
근황
민트
지식인
ad
공병
우대
##자식
##디안
철혈
쿄스케
페달
##ura
오두
호우
OO
아에
##다툼
식용
그만하
대문
##통로
돌변
건축가
시프트
세명
##벗
빈민
##ople
최연
카툰
##금속
점수차
브라우
건너오
##ler
어설트
연방군
전면전
##cy
##문관
역과
호쿠
대니얼
더듬
엄연
억누르
here
비견
국보
##REME
럼블
Ho
##즈라
정근
##여자대학교
Gal
카야
활력
몰입
##스틸
지방자치단체
신진
백종
DSP
프로토콜
도맡
꾹
김종민
제이스
점슛
틈타
클레멘
Sn
킹존
1904
카즈미
##DDR
사칭
화룡
무함
반쪽
올려
오미
터너
아누
기라
##진보
##높이
동탄
수제
747
육신
카프
실바나스
Ind
OM
Mbps
ᆫ답시고
HR
피파
~?
##태인
꼬박
##oun
하동
다같이
페가수스
bb
우동
남서쪽
리미트
##ino
동맹군
우즈베키스탄
오컬트
##내성
엠넷
제명
내분
양민
모자이크
오거
파괴자
##irect
미시마
눈여
쩌
정설
정박
한상
naver
대주
어려우
계엄
MUS
중대장
현종
대기실
니콜라스
\]
시술
##체력
##무소
##라이어티
##78
세가
아나키
쉘
##시즘
거침
주화
근육맨
##IO
##TH
주임
서대문
분파
기교
반입
코퍼
##베니아
##새끼
에스토
천왕
GTX
찜
내레이션
뉴타입
사용중
식재료
##큐브
231
바닷가
주루
증대
##감각
휴지
익산
강희
부탁드리
##중량
양지
농협
다트
주지사
성시
##물쇠
토쿠
##버튼
풀타임
폐업
##르슈
초딩
시정
주지
##면적
폭투
##케이크
FO
뺑
신용카드
레볼루션
떠나가
|[
건대
푸시
Real
aquarius
1916
남친
액트
조경
꼬시
니코동
Rad
##자락
##aker
bo
매크로
당부
입점
팔다리
떨리
수송기
NORM
252
SMG
when
비방
인계
머독
##총사
견습
간과
오라클
무마
관람객
상대전적
우리말
윤영
프레데터
뒤바뀌
뱌
호족
업종
북아프리카
케어
공중파
맹수
이따금
##서로
버퍼
##파드
Sou
##by
##AE
타카히로
골절
니혼
섬뜩
쌍검
그딴
경복
급감
세이야
##즙
238
상층
유권자
##난이도
하이브
저평가
##통치
머리색
부설
##편성
벗겨지
##파르트
혈관
저질
암묵
##스테이트
##옵션
gu
부ᄁ
##오미
리시
사이클론
let
##욕장
생리
문고
툭하면
Aut
##설수
근위
##lex
슬로바키아
##크래
사이킥
순전히
줄무늬
##인권
우체국
포메이션
##UD
광부
라이덴
숙박
튀르크
대리인
NORMAL
빈스
단호
슬래시
##고속도
장자
선샤인
요르단
자물쇠
중화기
전광판
When
스가
연마
세인트루이스
##캐논
조만
챔피언쉽
실물
질책
430
마공
성북
any
기대감
좆
한큐
역적
출진
프로페
트롤링
보류
숫
짝퉁
스나
노블
고온
인턴
치타
Park
##연습
##발사기
수사관
강화판
Single
들통나
##촬영
##BY
돌려받
귀속
##ᅴ우
손길
주변인
##드러
여차
##티뉴
애꾸
사각형
##란다
검기
친일파
장시간
##36
에라
부록
팻
##다이라
나츠메
주선
숨결
똑바로
##닿
성물
고야
Who
Esp
한순간
추격전
EXTREME
play
##lection
가쿠
일면
바루
신해
완승
터프
##onder
중수
쿠폰
불러내
반도체
PG
서바이버
Hi
보성
##세요
##anger
가온
슈리
##gy
스투
버팔
용왕
별장
정발판
정상회담
##대미지
배너
##48
대영
미우
카니발
데우스
멱살
데이지
##여성
필기
##스케이
무함마드
대련
신노스케
##샤오
홀수
실컷
##안보
##어어
순회
민속
동시대
치과
헌병
어썰트
신탁
냅다
골격
동일인물
Feel
을시
방아
야요이
치프
새턴
달려드
트리니티
##껍질
min
신뢰도
거처
중용
샤이니
##상인
하야테
Du
##raft
성배전쟁
Album
Je
숙적
수식어
타지
##스킨
mAh
만개
백웅
튜브
년형
##토크
JYP
서산
명심
이견
서강
파헤치
##건우
뒤떨어지
샤르
프렌드
서신
##테러
카디널
조건부
전국시대
##RO
##ONG
무례
서슴
프리퀄
워치
다리우스
Cal
Mix
체이스
거하
카루
ap
어웨이
##사원
##대역
경원
어쩐지
구마모토
이효
성매매
##태격
금단
hp
환장
무서워하
des
차츰
개중
생식
Inv
뜯어내
##이익
의결
나돌
전조
닳
매춘
양분
격분
##트레인
우사
기증
개머리
입상
천자
메이킹
팽팽
수양
유괴
향신
담그
노보
##의미
이상일
헬스
시속
##소수자
수학자
SNK
아코
##98
소외
##ya
쿠레
보살피
레베카
특혜
다이노
red
손대
WWF
즌
조반
양재
표류
Ret
피렌
##연료
로크
##미군
우치하
Hero
##와일
Kim
##주석
확진
비룡
##천년
카로
백병
##비슷
린치
##카가
헌정
헤븐
펠릭스
티격태격
##랭크
어정
낙사
아틀란티스
지저
##좌상
##ations
조성주
야유
Ult
마커스
QP
##부치
236
##스루
은혼
코만
레프
독소
코스모스
근육질
도네
전소
출토
수전
##ouble
고영
자객
학창시절
방콕
굳건
도넛
감찰
유키노
해안가
뜸
열전
닛폰
놀러
##뚜기
껴안
##ball
번성
금기
몇십
버라이어티
실권
진중
Blood
한복판
글래
지효
##글러브
자판기
##뇽
Fun
some
##공포
은근슬쩍
##유도
뒤집어쓰
##플릭스
특공대
감격
어떡
대장간
##공자
윤석민
STA
독일인
이광수
KE
걔
고체
속출
##백호
치토
##그린
부전
공소
광란
##uture
스테이크
주스
마운틴
##관총
Sol
하로
하드캐리
##틀린
개요
훈련소
이연
이바라
요절
계책
저상버스
##어머니
무전
치어리
##반지
프로입단
백설
에노
금세
##eck
캔슬
봄버
복면가왕
를르슈
장화
설리
##vil
##수비
평온
꽃잎
베른
##웍스
주민등록
need
어선
와이드
완주
이라든지
Sweet
##미안
##티카
클러치
어르
세피
##바꾸
##회로
##외버스터미널
래스
010
경제력
동맹국
동산
폴리스
##연금
##eek
승승장구
모차르트
##신호
엄하
##ocal
주둔지
KBL
Ag
아라비아
한문
매혹
재무
종파
발사체
로켓단
##ather
콴
자서전
##질서
Val
공표
서큐버스
명계
##섬유
Tech
##지상
##TC
나오미
한국철도
##메트
##메테
혹독
몽환
천안시
완봉
깍
##풍경
엘라
요령
순종
265
##허가
컬트
이윤열
##명은
##포즈
앙쥬
들이닥치
##사쿠
마일리
CBS
테두리
넷플릭스
꼼꼼
앞부분
뭉개
전범
##렉스
시티즌
아오바
시게루
미쓰비시
걷어차
모치
큐트
아이덴
빙하
가성비
창세기전
Say
##HN
##라오
야가미
마음먹
왼발
야권
운하
USS
횃불
나성
물리공격
흉기
스태미너
돌이키
##ANCED
개머리판
##간다
##arth
가늘
##태현
3500
끌어안
##구라
##천왕
악재
옐로우
올림
##하르
강급
##검찰청
저격소총
거너
구위
한없이
성운
데비
##타라
원안
그랜트
제이미
셧
Def
최준
원내대표
안영
##onna
난데
510
앙상
Space
땅굴
비평가
언뜻
왕권
동시치
802
탁구
##펠트
모하
저축
232
루트비히
릴레이
##닷컴
##키드
##오우
##붓
개전
설날
여제
노련
##팔이
료코
템플
피통
극하
희소
격납고
기색
선량
##34
반년
them
불륜
작센
Beat
엣
초만
재탕
##ours
##우옌
속죄
포구
세네
살육
플라워
자그마
후추
##호가
최승
체조
규슈
아제르
미적
올레
##서원
장이
하룻밤
##ᆨ싱
상디
무예
문인
일제히
흑발
카부토
her
##땡
위저드
이석
만연
타깃
브렌
산산조각
##구석
풀어내
마음속
전화번호
빗대
기껏해야
시트콤
그늘
대항해
성소수자
내던지
편향
르블랑
페르디난
이니시
##기반
통통
##ena
나카지마
피에
##ᅳ라이트
모탈
해부
아오키
##hammer
##보통
##형사
백경
종료시
최장
진명
뉴이
츠치
WORLD
규어
위그
클라라
덴마
국한
들이받
##원숭이
이비
##환자
640
훌쩍
알렌
사춘기
토사
밀리터리
공과
분양
공식전
아키텍
세이프
Orig
##ames
노리코
제각각
이클리
봉건
얄짜
ADVANCED
파탄
음절
희한
검색어
프랑켄슈타인
롱노트
제네레이션
초필살
근교
중형전차
GC
것같
변칙
몰아가
시범경기
체이서
하루히
연쇄살인
스트롱
루팅
로드리게스
##크림
합숙
내려치
포도주
##랙
##솥
염증
로빈슨
##가량
포박
백년
풍습
족족
인위
Dest
태반
누비
폐인
미우라
동떨어지
지원자
득점왕
명예훼손
##헬기
Mac
##지식
불명예
사파이어
플롯
파운
얼른
미니어
LCS
깐
다던
##베어
##ement
##thing
통솔력
부우
오소
팔아먹
관내
앞머리
레드삭스
맥도날드
배럴
협주곡
숙제
향신료
스캇
##광주
과거사
주저앉
Zero
쓸리
중등
외동
##죽이
!!!
일렉트릭
LOL
사들이
차오
##티모어
사무총장
스콜피온
##rough
대의
안착
##글라
하드모드
##aid
반열
외할
화순
##공인
쿡
동일본
후사
총체
##렌스
이적시장
파라과이
에디터
##ways
엽기
서스펜션
쿠루미
히데키
칼데아
민병
니콜라이
공모전
##카운터
GOT
강북
##해양
샛
유티
뒤따르
한테서
마자
##수행
##그레이
나스
성화
다케다
한시
한류
##무성
##츈
월말
홍차
밀짚
길가메쉬
산림
Story
은둔
##태평
못보
친왕
플랜트
카나코
멕
루디
305
팰리스
항일
금정
##활성
계약서
바르샤
열강
홍련
스핏
태권도
혼내
325
she
쟤
자일
코일
못가
심해
##세이버
교원
담보
PERF
##마귀
코네
##워지
메모리얼
격변
짝수
Home
##DER
에비
로지
파충류
##청구
##특집
독창
린다
##UG
##카메라
문예
사일런트
##ta
유품
달랑
가우스
관왕
충당
시급
테드
와해
##ano
이부키
##구루
노브
프리랜서
정근우
프리티
##반부
밝기
시우
마방
이용한
일상생활
안대
다는데
목장
##특성
-!
##주식
파미
##분열
번쩍
##악관
하이드
##화가
##피카
깨뜨리
##une
타사
투지
##시내버스
##so
불어넣
KC
가열
##동사
명제
이슬람교
##계수
명절
견주
클럭
미스테리
면담
더욱더
사보
##상어
프되
Ry
##믹스
스프레이
##ait
찬란
##ANG
연장선
정형돈
마레
스크류
NASA
웅장
후리
수호신
쾌적
양천
왕정
꼬맹이
##케이트
아라시
이모티콘
뒤엎
##배상
자초
번외
IBM
몰려들
엘사
치우치
자오
##도현
조나단
떠넘기
제라툴
마검
등장시
텐션
금천
Japan
뫼비우스
클라이맥스
미상
Stri
##코믹스
혈압
걸스
##덕이
##느러미
스타킹
##그럽
미타
치환
공격진
##라지
##라마
혹시나
##하키
된
물어뜯
듣보
읽히
클로이
묵묵
교외
##리어스
##시인
단국
사이키
머큐리
아카이브
##self
##썩
친숙
##타니아
장영
프로테
개인차
브로리
둔기
굴절
발랄
##err
티르
마이어
이경우
미야코
로밍
오정
단의
아스가르드
제련
##매기
넥스트
포뮬러
MAD
##플린
종업
연막탄
##회피
치아키
레니
굶주리
참호
괴로워하
고비
파피
증진
기념비
포세이돈
##bal
사이코패스
갉
해인
다이애나
강민호
Hel
웨어
기념일
마구잡이
인디애나
크레인
렬
신재
엔딩곡
##ᆷ블
코피
레비아
미니건
Lee
년제
##ASY
Fight
##상담
##바이잔
이사벨
리얼리티
유가족
부대장
##시각
셰퍼드
코앞
학회
돌발
##ML
고척
집게
간수
금수
왓슨
우한
관례
에그맨
피렌체
Bro
Gun
bit
현저히
##규정
피의자
임정
피아니스트
##자루
호루스
##양식
함부르크
사이렌
절실
##ands
고군
분광
앞당기
국립공원
기형
##신저
신야
근친
래디
유니버설
두배
줄리엣
아이덴티티
짭
마르셀
Young
BLACK
##jo
수모
섬머
생소
##arm
탄산
##브리지
토모코
오성
이하일
엑스칼리버
아키타
경계선
AAA
ph
##TER
##치원
##종점
양평
자기소개
##린스
이번작
##대성
허정
Wanna
린드
Champion
실린더
운수
수학여행
판례
철구
##트롤
##65
SUV
뒤쫓
정보통신
##iful
프로세스
암속성
프리시즌
기와
폭망
아키코
예선전
Pla
시커
조예
선호도
호위함
로미오
##light
수렵
장발
알려주
##바라기
유흥
229
243
##osh
사나다
개최국
군마
아브라
전압
환율
남해
잭스
##elie
##놀드
돼지고기
세습
선상
김보
디셉
금빛
잠자리
조선왕조
양양
페널티가
김우
총점
딜런
사체
랠리
의미없
마사토
컬럼비아
DL
무리뉴
##다테
페이퍼
갈망
폐교
660
이클립스
##데이터
방수
안즈
속초
박진영
하야시
737
칩셋
순례
중국군
Storm
블러디
about
감명
부사
오줌
오르카
##맘
잔잔
##소송법
상반신
평야
##윤수
아사쿠라
##ortex
NXT
모태
경기관총
##슬로바키아
다분
DIO
시공간
특수효과
중앙일보
클레오
서초구
이홍
##댓
노노
625
정준하
물류
유희열
얌전히
MIX
기폭
Pa
Kill
##특급
약혼자
EL
IEM
제때
뒤돌
##공산당
원료
단결
왕세자
장난치
연정
##여대
테루
이산
매매
##eter
양현종
인플레이션
과부하
##경찰청
이무
카밀
##절로
갖가지
맥크리
560
미트
##세르
양조
황천
송곳니
##마의
볼티모어
슬하
피츠버그
Jo
TC
위축
재기
##메트로
짓거리
아제
##하자드
##베다
부포
선취
주무장
신예
실비아
급소
블루윙
##여자중학교
sec
SUPER
무토
직사
##lease
;/
##인력
마츠다
류우
##바꿈
##군데
세가지
카라스
2400
자연히
Friend
김홍
트란
우선순위
다굴
리트
월트
역학
##업계
식구
붕어
##쿨루스
##햄튼
XBOX
##얹
콜린
궁예
지적받
유형문화재
타케우치
##호르
##루루
불량배
거란
호평받
포터블
펌웨어
아제르바이잔
Line
쏙
공구
괴짜
크리쳐
##ume
Warhammer
도하
##어족
비야
클로드
옹립
##스룸
가희
##라잇
##카도
저음
##ines
임종
264
##77
도키
There
구기
아르타니스
존기
##창민
##쇼핑
용족
퍼레이드
##임새
부어
전경
안파
남궁
마리나
##ATE
프라모델
바퀴벌레
다르크
FS
불굴
약초
come
에볼루션
라울
게임오버
their
##나비
돌출
정상급
목격자
##OK
내치
나오토
익사
##전문학교
고압
모색
구이
동백
자동변속기
##바타
##통화
##ene
##스트림
제니퍼
실격
슈퍼전대
이재명
통치자
클린턴
##ᆫ스키
스피리츠
페르난도
조종당
상병
##바이크
##리카와
여객기
##ral
##한국
권혁
흡입
League
태극기
백종원
의인
가격대
합격자
##장미
그리워하
이븐
질럿
##연주
ATM
이덕
아라이
지겹
끼얹
가차없이
##세라
힌두교
res
##부스
위스
파나마
승선
콜로세움
##슬ᄅ
##자위대
아카츠키
에스토니아
밀짚모자
사오리
방탄복
EXTRA
월광
맴버
입각
속아
파지
카나데
Road
##ᆸ실
대덕
월화
심영
Apple
디메리트
ma
바로잡
Green
##ᆺ감
공격대
병풍
##스팀
체코슬로바키아
심부름
레플리
키무라
끝마치
##토쿠
반신
팬카페
765
지평
조병
증식
국외
봉화
국사
변속
포자
손잡
이런식
##교통공사
##인증
카모
##스와
##로트
땜
##ᆯ리온
들어맞
래리
김학
출연작
미용
피콜로
카푸
사단법인
##격투기
##유진
올라프
육아
##훤
##지간
도살
배당
남주
교량
묘소
집어던지
양의지
증차
윤지
도가
앤드
돌고래
정시
##레아
##zz
명동
원정대
템플러
##ODE
브라더후드
호모
본대
코우지
아칸
명실상부
##차드
##현실
총수
볼프강
##und
음파
##이라
세바스
Intern
이케다
카카
##수아비
각주
토토
##항모
메릴
세종특별자치
##ORA
다오
없음
##체어
남자아이
네이트
세리카
앳
##앱
GE
호적
303
이방원
은인
오블리
러시아인
국토교통
금곡
251
수치이
쟈니
슈퍼주니어
컷신
하피
김남
멘토
다네
바흐
살벌
몸값
중앙아시아
Death
##와일라잇
##공용
##분교
청혼
가관
##utiful
Tom
도카이
도로시
트와일라잇
##캐피탈
공용어
볼리비아
net
뮤비
케이스케
데스노트
노하우
최전
슬럼프
##ha
학명
Dead
##가방
##마음
우소
##정령
아발
지질
##신성
계몽
어야지
##VEL
얼터너
NATO
순발력
AO
SB
아드리
차고지
253
이한
교활
##베로스
##대결
편차
옵스
황녀
아프로
행각
베가스
허수아비
올림피
헤카
##드라이너
로어
들러
유네
르브론
툼
##ible
폭죽
##PN
이불
위드
김응
316
끝장내
건만
침범
서자
##던스
##INAL
##로라
버서
우라늄
펑펑
등록금
정민
237
수여받
Champions
노기자카
받들
헌트
람보
NV
보헤
실례
디멘
약품
##석탑
죠셉
일대일
비닐
보물상자
Del
피어스
버즈
김사
이런것
1896
-,
지네
수두
거주민
뜯기
."
야오
체면
239
낙태
염기
벨라루스
##헐
하구
바운
##학사
도시국가
##림동
##시어
부기
내신
윤회
숲속
##rol
고딕
##자본
##빙글
원동력
통폐합
타카오
알렉산드르
연산군
TEAM
완력
아우구
동두
긍지
스탠리
##가면
꽃피
부착물
화합물
##루냐
완투
탈락자
##AF
##뻑
##청소년
쇼케이스
지방도
평일배차
##마차
말뚝
래더
카제
명지
##추진
냉철
##양구
여름방학
지난해
더한
건달
##강하
제천
황재
업글
지니어스
페널티킥
##할시
스코어링
가위바위
Mal
Que
##담회
##END
미나모토
억제기
하네
결속
가락
중퇴
성악
##피디아
##법관
##외교
프로그래머
총학생회
로자
자습
##치우
바가지
##수용
애원
##언어
니까요
460
가뭄
마성
피스톨
분실
##스트럭
##해지
옆동네
유이치
##바바
충신
낙동강
어정쩡
제동
한니발
##트리아
목욕탕
구루
내포
##편의
테디
쿠보
##랜더
안팎
곡물
아마노
평시
틸
사토루
쟁탈전
후타바
로건
게일
##가짐
##리우스
모성
알렉시
hats
스타더스트
##리아나
뛰쳐나가
<<
허접
하세가와
##관념
궁중
아카시
로니
월드시리즈
##참사
예비역
##볶이
반반
##경로
투혼
프리덤
노장
도핑
엔도
##갈색
호시노
##꽝
보조무기
아사미
##스마
정오
소고
명인
남방
##설계
##메타
황산
##uss
##OUR
최진
루시우
경영학
사념
명치
타이가
김상수
포츈
인플레
성단
##사토
##상하
메갈
청각
품목
그레이브
EXPERT
##84
가계
구룡
##협상
##ᅳᆯ루스
홉
패전투수
##메이지
##이기
도자기
모조
##네시
게이츠
코코로
껍데기
만신
##oup
DH
매뉴얼
##혁신
주말배차
우투우타
##vy
마이크로
앤서니
베로니카
안산시
흑기사
초계
분대장
##광이
OC
김문
워마드
성계
##식스
##회계
북경
탄력
투자자
바사라
한겨레
Full
정훈
힐러리
포커스
##ental
룰렛
유투
Pass
효고
레트
헌액
##장사
미겔
끝나기
응우옌
아우르
름
##노조
아샤
##구려
급수
다이나미
사카키
빙글빙글
대함
광년
hatsan
XC
백악관
축구부
깨달음
덤벼들
1895
##??
이리스
다라
노화
프레드
영정
요츠
플레인
골문
해트
종식
차원문
탈리
##사이저
유대교
로맨틱
##국사
메이트
푸딩
곧잘
니시니혼
의기
##잖
타츠미
TSM
호크스
##메드
문화체육
권력자
##괭이
개찰구
소굴
시그널
역도
김시
다이너마이트
교화
##ily
보좌관
의구
위계
황인
쌍방울
##니언
구덩이
아키야마
마네
노다
콘스탄티
무법자
디스트로이어
신스
합스부르크
아르테미스
피셔
##귀신
무궁화호
##껄
내비
##바니
##ᆺ자루
닥터후
가위바위보
필리프
Tra
##aser
혈연
WCW
농어촌버스
큼
잠재우
Games
영유
징벌
솔랭
오열
골치아
##ground
##륵
계룡
프랑스인
히로미
다우
컨트리
##모음
##심판
##에미
아재
원만
##밍고
인천공항
첩자
사루
코로
떠다니
웨스턴
242
##에이고
##문명
아서스
전구
##토의
손견
##낌없이
##푸드
##OSS
클러스터
501
세분
새천년
##트라인
뿌리치
헤드폰
대격
듣보잡
Set
불어나
키프로스
244
레전더리
레일건
##브레이커
고층
나약
상고
##파시
두루마리
호타루
고창
나니
느슨
구매자
충청도
오명
직렬
##언론
##사양
당내
떄문
샌디에이고
신영
명맥
탈바꿈
##툴루
앙상블
어찌하
자재
번주
##UND
left
모사
##남동
환관
천연가스버스
고귀
만화판
헬싱
신대
##포역
육사
정규리그
벅스
레이브
풀이
##스톱
##awn
고프
구내
웬리
FT
분투
블룸
헤지혹
##메오
MAN
설치류
펜실
포이즌
방아쇠
##콧
뽕
조셉
들어주
친족
하즈
미스리
조부
##ormal
변호인
세종특별자치시
OT
위자드
##연수
의구심
Pack
가발
포옹
연기대상
GAME
오두막
per
##에나
사토미
난데없이
IR
독주
샬럿
SKY
MUSIC
##86
안건
디케이드
로마군
##ttack
잇따르
##영장
양팔
협업
수십년
##웜
알렉산드리아
##74
비토
세비야
박동
투창
청문회
##벌리
왜구
Mad
부조리
루니
대통령령
놀림
파란
다이렉트
##길동
##IDE
##테라스
정신기
사냥감
sw
황룡
카이바
취소선
연행
명상
심볼
둘리
아우라
##ISS
원통
패러독스
한여름
개원
왕창
볼일
모나코
##오거리
밸리
납부
모모코
쾰
##gg
기약
정크
유파
##조부
공산주의자
공의회
##ider
클래시
피홈런
프로레슬러
김봉
바닥나
아드
##전개
##파일러
순화
뿌요
사샤
예견
황교
##몬트
대도
##버러
벽화
아키텍처
바이오닉
호르몬
콘스탄티노폴리스
행크
프록
히로키
수목
옆집
연장자
##댄
##갑옷
브리튼
눌리
오코
강공격
저편
삼가
##맨서
헬레
캡쳐
무의미
풀네임
530
후원자
모기업
##테리아
밀수
숙부
모란
켄타
유주
분단
갈비
카우보이
티아라
판도
페널
풍미
탑승자
세르게이
방과후
pop
도화
안락
데프
##표시
백병전
Ah
방한
샤먼
하산
두사람
우에노
랜드마크
long
위용
초메
김장
##충이
적외선
난도
##연도
프토
덤블
위급
관행
니지
신경전
##상업
불곰
천대
##leep
관계없
트럼
와이파이
##OWER
표지판
##헤임
짠
년판
미행
##종목
허드
태아
쉐보레
노무라
246
프랑코
wanna
쁘
모선
비겁
아시안게임
##뱅이
##천면
선구자
퀀
이국
기정
##워키
##ouch
흐지
풍요
SDRAM
활용도
주춤
##대우
##피언
into
슬러그
모서리
실기
##락스
##효율
##ESS
이회
이마이
선점
크리스틴
배고프
바르샤바
Bet
Long
경산
호대
양각
타오
##직전
구세주
하체
위법
무기고
혐한
농성
주희
승자전
op
바드
단수
러프
시즈쿠
왜냐면
저절로
권속
토크쇼
주점
##onic
쳐들어가
자이로
김광현
부팅
##노동당
254
##민정
낙타
솜브라
스트레인지
하가
오토봇
동방신기
정찰기
유구
칠성
춘천시
##ience
아구
촉매
플루토
은평
##미래
##디온
달리하
이동한
불상사
##들러
카오
입석
갑작스레
치어리더
Tem
번들
##매장
##글자
전투능력
빠져나오
우에다
유린
##퉁이
##말리아
학교법인
아즈텍
##로얄
조련
백석
미츠키
세터
강압
재생성
##ology
네스
##기일
압수
미도
격발
코드네임
##yo
어머
알래
천차
럿
워해머
텐트
카르타고
GU
머나
운행중
##프레소
전근
차고
##섹
열도
시립
껌
동진
원군
어르신
성불
남다르
마스터즈
겁먹
배정받
백두산
에콰
##reet
Step
Glo
시즈오카
랙
은총
성폭력
##찔
##빼미
번안
MTV
##정비
##동산
##스카르
크라이시스
코퍼레이션
안달
##저곳
##와트
휘발
NR
스사
두세
##네시스
발자국
요제프
도산
상트
담장
조준기
사운드트랙
##합중국
파워풀
흐지부지
##하타
연꽃
장작
알버트
##외과
been
NMB
;,
Dem
단기간
재킷
##달리스트
##코타
활동량
##리언
크툴루
려나
아키하
다람쥐
##비츠
서투르
윤상
보안관
##ᆯ리우스
뒷담
NCT
유토피아
1080
##화재
초조
고군분투
##이전
나진
전륜
후세
물방울
핵폭탄
watch
어감
##ting
이곳저곳
##box
직종
변기
##규칙
결정력
바이오하자드
훤
##iet
민망
허준
노동조합
##꼬박
사옥
만담
미흡
토카
산란
한글명
구축전차
샘플링
아그니
수교
북아일랜드
십중팔구
Ele
원가
초빙
울릉
##꺼이
USA
개소
창법
맵병기
비주류
오피셜
AH
##ᆺ사
폭락
대표곡
꼬박꼬박
248
##ots
상록
개사
묘비
엑스포
그지없
##get
청계
##illa
치료제
후렴구
스무
취역
이스탄
판교
프리메라
Brave
모니카
##각성
금물
폄하
오펜
서귀
말버릇
분식
비스마르크
까칠
이동통신
공생
##테온
nm
##연재
##과학기술
헤엄치
##br
##데모
지금껏
여대
안방
뛰어가
스프라이트
주유소
쿠사나기
에콰도르
##마인
세밀
TRA
노년
규탄
사회과학
슬라브
VI
bla
길티
크레용
Level
쾰른
계주
안티오
##za
다짜
싸그리
미니앨범
마주보
등대
##비율
Chap
666
거북이
Her
##마기
버크
##토메
남색
306
요코야마
배수량
대대장
적의
구토
제위
시영
박승
반대파
아나토
##32
##전화
##키즈
토도
래빗
브렛
맹독충
유네스코
##목표
쿠웨이트
송이
가져다주
##ander
메이크업
nb
다승
신변
근소
괴뢰
쿼터백
알래스카
ATP
싹쓸
보이즈
##에프
시발점
톡톡히
ㅓ요
성관계
속칭
쿠페
핵융합
박지성
##GP
##제철
질타
파이팅
메사
##잡히
바오로
System
핍
토가
브루노
Cortex
##성당
개발진
킬로미터
고졸
Call
총칭
##ᆨ스피어
285
##쇼크
박찬호
##궂
마르세
툴팁
Key
##대포
비누
유키코
반찬
센트
아귀
##정기
위선
남코
넋
사카가미
##mas
##상사
졸지에
포르쉐
거듭되
동향
##막히
효자
커널
Spe
MOV
빗자루
야사
박씨
공손찬
김강
김재환
##드기
##미더
연어
잠적
인도하
이신형
소각
##솔러
워페어
블리치
충실하
피스트
##바둑
통조림
막스
Ant
유목민
디멘션
제이드
##IAL
시라이시
미연
##조판서
망신
스크린샷
Direct
김건
촌장
천리
카가
호버
애벌레
뉴저지
20000
##방어력
다키
바인
Stand
부잣집
적잖
차질
알마
코만도
##ᆼ아
조광
우후
##노지
외화
생각없이
눈알
황도
##댕
매트
##노버
레퀴
천성
소행성
외로
디바이스
순천시
나가토
ah
모어
재물
빨래
LPDDR
부끄러
얼터너티브
Mil
##시르
##전도
탈영
울타리
푸치
##파이브
트루퍼
##쪼
##자매
##화폐
역부족
카나타
##방해
##쿠보
간사이
##enn
송파구
GA
##시트
로데
증축
##평동
해리슨
군용
신인왕
지만은
소림
촉한
스크랩
에뮬
##서구
충무
고트
외주
Cha
인조인간
po
신천지
크나크
넘어뜨리
##ense
몽고
안내방송
오지환
이스탄불
Mer
게오르
##공세
투옥
총검
##촌동
전기톱
##운동가
##아프리카
##94
도난
##도끼
##씌우
##미네
잠잠
팍팍
과묵
말단
요가
양정
민주공화
성대모사
##WAR
오반
재량
태초
엔비
쏴
##마디
연구생
솔로곡
##OTH
North
##ied
차징
발당
불시
작자
공격범위
247
이리야
재수없
Eur
##설명
##현준
##ka
기꺼이
연두
애슐리
누스
극명
철원
##젠더
종업원
모여
카디널스
et
신혼
투수코치
미야모토
Gener
현세
한국방송
헤치
굽히
주특기
잔치
트로트
LB
탄자
리더스킬
980
머나멀
라오스
세주
김미
아이파크
기업인
Die
LM
이산화
광역시
take
쫒아
의복
위스키
승마
##출소
팟캐스트
##고짜
성의
##연합회
BMS
##꼭
양복
점심시간
거들
##언니
##뚤어지
다짜고짜
##합격
타이머
EASY
##베인
재결합
프리드
##스트랄
키쿠치
드레이
262
color
성산
유년기
밀워키
##손자
콜트
김연아
말려들
텃
##ILL
다물
구작
재편
##ki
포톤
실재
전자랜드
토리노
##어다니
소니아
리마
칸자키
HKT
에니
고글
광교
뉴턴
에인절
##나인
가로채
레이트
어쿠
번복
덩크
소프트뱅크
정액
재우
TECHN
나연
##자라
패망
프랑수아
결정타
박석민
리그베다
하루종일
음주운전
Mel
Mnet
##기니
보컬로이드
화살표
프란체
이양
주니치
카나메
키타로
##펙터
골치아프
도안
호밍
코타
걸어다니
던데
리로드
레진
##외국어
피쳐링
기나
명언
난간
열등감
가샤
##키오
편파
황궁
마일리지
요네
##금액
백발
마법진
정신줄
브금
무라카미
##ove
세손
아지르
Hell
초밥
유틸리티
##르스
유세이
왕도
직설
블랭크
에스퍼
Heaven
##my
기조
요요
##페리온
##트랩
데바
##시원
자하드
실록
방향키
##가슴
비잔티움
##드레스
##치히
한자어
전고
레논
몰아주
로베르토
유유히
회관
##세어
설원
레이코
다급
특수기
맥아
카리브
##정상회담
외로움
##더지
판독
##ents
징표
분당선
Port
UK
미소년
##개미
토성
망언
을까요
전시회
헤르메스
##구로
짧아지
470
바운드
제퍼
##거부
##생명체
##연산
무기력
뮤탈
흉노
##거시
한라
발진
분지
사이온
##베라
cr
요도
문하
외견
페이스리
아나스타
##태평양
##St
아놀드
일루
출소
뒤섞이
번역본
마땅히
##go
308
무용지물
레오나르도
노을
패티
일단락
케이티
징수
자궁
일병
바벨
장창
알폰
홈팀
##디드
정신병원
옆구리
색소
680
시진
나일
조계
##면체
칵
판넬
무적시간
체육대회
##토막
##군수
운동가
야마시타
금상
##흔들
하키
라즈
동면
##남미
유탄발사기
미주
진위
##ember
슬로베니아
알아주
럭비
##구도
미디
구라
항만
수트
철제
크래시
jp
팀전
가족관계
에미야
##전형
간결
쓰레기통
놀이기구
지단
수첩
제라드
아이린
필수요소
##무도
승조
Shad
카미조
공범
##버너
그릴
부담감
디바인
일침
##다인
케이틀린
브라이트
사채
김유진
어류
은어
##구매
적나라
##분기
프로펠러
곡괭이
제조업
유의미
쌔
주중
성행
##체크
##umb
토모야
##바겐
발성
아이패드
호라
마츠이
어윤수
팥
컷인
그렉
ROX
카미야
최용
##혜진
차례차례
##심리
##ince
변경점
밤새
Hello
##트륨
##IF
이희
경쾌
특검
##스테이지
엘리멘
말썽
어쿠스틱
dr
##미온
케이타
다레
선술
린네
재판부
QS
의왕
미화
##단어
약사
!!"
구원자
선동열
메피
그라가스
서해안
KGC
##ᅩᆨ스
추앙
Rep
객실
##yr
##사탕
소관
손색
타임머신
911
##하하하하
볼드모트
라트비아
자상
마담
파스타
레그
본업
키예프
순하
Lun
방주
마누엘
##add
위팀
서든
포스코
평의회
숨통
위압
탈피
##uth
셋쇼
오기
##오가
공판
방청
메이스
제이콥
해남
도굴
오마이
야루오
문체
단군
채색
왕후
절판
켄시로
포항시
##va
##대수
##바토
장지
장진
교육감
동호회
##일비
레딧
다시한번
직급
군량
양날
레퀴엠
##어진
미합중국
전투중
하층
304
개체수
##ection
미네르바
캘리포니아주
비문
강국
치즈루
##연속
아이샤
241
인민군
스노우볼
카트리지
사이퍼즈
헐리
피사
잠재능력
시빌
노티
명랑
하락세
카빈
활로
페퍼
##친왕
##카노
강과
이용규
단축키
침수
오사카부
휠체어
##39
다반사
##진창
##망디
##ures
의약품
모면
필명
##커버리
카카오톡
로컬라이징
이바
동복
##iri
황금기
디셉티콘
녹스
사무엘
만물
상류층
##ᆩ음
보람
청자
##불사
송지
RGB
적국
건방지
판자
사학
파주시
##ility
Fil
##고시마
한술
서일본
##본부장
##ates
맛집
척도
김기태
Network
아와
##중공업
중증
발단
레이서
Inc
1899
아인즈
Cup
##ᆺ가루
##ELL
##irc
김성현
에스프레소
망가뜨리
내림
파라다이스
네버
##꿍
##아메리카
국공
Mach
ser
종용
색적
풍성
에밀리아
Esports
##요청
호송
디폴트
컬링
템페스트
은화
##총회
드로이드
##테르부르크
필립스
ZZ
##이시
##불복
##진보당
손질
##aph
프라이스
##아아아아
University
##WA
스팟
아큐
##급수
311
##ometh
가톨릭교회
속국
앤드루
릴리즈
섹드립
구스타프
Again
프롬
비키니
연평균
문건
분담
딱지
베르나
##대고
냄비
밤하늘
기간한정
##자마
귤
ᆯ지언정
##역할
날라가
백야
백상
코스타리카
총대주교
##조명
삼총사
음악중심
##razy
##마이어
look
밀레니엄
깨알같
##텅
독고
##튬
새정치민주연합
rem
##능력자
##빌론
미츠루기
##거슨
조종석
##ORPG
사파
브랜든
젠더
소용없
공물
##강호
엿먹이
##공룡
참신
메이슨
리벤지
EE
참치
살림
스트림
팬픽
##귀족
자르반
##민족행위
울버린
모교
본심
##타우로스
##무용
역순
훈련병
아약
노쇠
레반
혼수
##타이어
인공위성
반역자
##갱이
신의
버저
결집
레너드
유럽연합
변방
박인
엘렌
타카기
빙그레
마동
일장
관련자
미니맵
웅진
##비서관
##atter
불릿
꿈속
남양주시
대법관
##공고
골머리
Only
그레고리
다마
외과
부사장
Burst
bet
##이벤트
##도장
##화장
최단
##경력
몸길이
후지타
##도중
mg
와드
해롭
##bit
##코비치
##합성
##hem
LPL
Dig
뱃지
육탄
오드아이
시식
수병
우스갯소리
원점
총신
운행시간
자명
오와
세바
외상
귀걸이
알리스타
여신전생
싹쓸이
기니
##자랑
겸손
시프
자경
##돋
##사제
인더
##신화
포신
벌집
농경
미노루
황건
##AKA
에지
장윤
짜내
내지르
Days
요충
##조라
점프ᄅ
심경
뒷부분
패자전
##세상
##가르트
##고치
차명
겨자
좌천
후쿠다
##pm
소고기
신명
히키
탄피
##레이트
오심
플린
##정석
담담
돌격병
럽
코그
입찰
##집권
토리코
##ether
##미드
소켓
저버리
##운용
토와
최종결전
##효소
무수히
MiG
##TN
돌기
별반
씨름
Winter
##ips
패퇴
부적합
##미남
힘드
싸구려
재보궐선거
제타
##호마
##츠미
달력
##ᆯ리니
셰익스피어
기나길
구판
단도
##두스
##사이더
고구마
##반장
##레로
출신지
사회학
##자전
##가나
비관
내란
##카나
해바라기
디나
난관
섣불리
##츠로
은지원
필멸
think
점프력
기승
진홍
302
##나잇
LF
##피터
nbsp
동치
클리어시
stay
##LA
##사지
타마키
안양시
야쿠르트
리옹
센다이
Gh
대천사
불빛
루시아
항마
브루클린
쿠로코
그리스인
"...
현혹
마음가짐
엘다
유리창
부양
구명
교배
천호
한화생명
헤비웨이트
검정색
Jack
##uj
##일때
총살
##ids
김해시
IB
와다
제주시
봉신
앤트
##관광부
광명시
어김
수잔
선종
##분별
히비키
능통
로군
구설수
##신라
산물
걸림돌
박용택
##cess
기한
##음식
복숭아
종사자
공략법
우니
살포
##imes
##unk
INT
어부
로아
전초
점장
이름값
튀니지
##롤라이나
손아섭
아약스
##하고
노르망디
##교류
사이다
범퇴
##드롭
묵인
잡아먹히
쇄도
Va
권투
운빨
바이트
문관
국교
커튼
푸에르
죄악
Sports
name
차근
단추
##als
##스코리아
경희대학교
##보통학교
##급행
혼용
##주기
잠시동안
좌석버스
틀어박히
대명
##소비
지역예선
뒷모습
꾸짖
켄트
대방
서고
문무
##스탱
1903
수완
속속
삼성전
##마이징
굵직
공민왕
인페르노
외양
느와르
번역가
집행유예
##셈부르크
에스파냐
들뜨
선착
보스방
가비
##아부
엘레나
Inter
유적지
율리우스
WA
대망
##밸리
주리
##주연
장흥
아이비
머피
##먼지
DEX
워킹
따라붙
제리코
행선지
파밀리아
엘리멘틀
Kar
강승
송광
피그
엄호
##uman
630
프리파라
농림
빙빙
천문학자
조미
최태
외교부
쾌감
해트트릭
너비
##펙
Knight
조만간
House
사벨
저스트
바꿔
천년기
보더
송창
두들겨
##하스
당뇨
강좌
핸디
베티
2100
사생아
이간
호신
굼
퇴화
music
##수무
로페
##해하
쿠미코
##ald
##전술
##랑카
픽션
##XX
악단
Wr
##전드
##베타
가로쉬
시그너스
##주사
##orce
깨물
##층석탑
연장포
보건복지
에델
자신있
근위대
창건
믿기
아이스하키
오재원
민주공화당
##ved
##시게
##면사무소
노량
주세
##신공
##성어
따름
탑솔러
한진
비호
테스
##애자
헬레나
##부품
서프라이즈
멸시
전방위
일구
후우
##캐치
코너킥
경도
원딜러
매화
관성
오른발
샌드백
GF
##동역
관중석
아즈마
전액
##타선
불씨
오해받
브룩
바하무트
자속
불의
##ico
영등포구
순양
올빼미
출입문
컴플렉스
룩셈부르크
iP
##37
리츠카
##식식
파프
드미트리
기아스
발췌
디저트
샌즈
##오빠
성조
피스톤
##단원
##갈이
주박
인술
박한
둘러대
일그러지
##마나
표범
##isode
##헌법
환상향
데드풀
물속
스타그램
어느쪽
##겨우
어다가
대열
설진
음질
밀크
플러그인
스레드
Snow
니깐
순번
올가
윤보
##스킷
비정규
##체험
##추세츠
렀
슈퍼볼
##완료
##emy
객차
카가미네
##솜
종군
눈매
##시아키
무한히
##REAM
##벅스
CLG
쇠사슬
사유리
엉망진창
에인절스
자포
일류
단층
북동부
신차
분과
종래
붉히
More
##행진
메신저
오리엔
##덥
수로
##해석
포제
속마음
커크
거주자
##VEN
비등
##IKA
에루
##사메
##랭킹
아인슈타인
모의고사
##참모총장
초토화
주상
타일러
역동
분개
획기
저승사자
신음
NCR
번번히
피규어
##적으로
콤플렉스
##기름
애기
벡
미국식식
##테이커
##lin
##게더
타무라
증정
After
쑨
대첩
##마블
구가
노동력
##축구단
카탈루냐
##31
다발
미개
배달부
친정팀
제레미
##버둥
초안
몇명
네크로맨서
##프레이즈
유폐
광주시
손아귀
##롭스
짬뽕
어김없이
were
문항
아리마
미스틱
회식
##분리
작명
판박이
빼먹
포르투갈어
은지라
##찜
##기한
##막이
##캐스터
둔갑
##컥
위구르
원투
##골목
근거지
웃음소리
바바리안
신시내
용접
달구
계약금
SSD
버서커
##리엘
조동
노사
번뇌
관리인
블로우
mod
보옥
포킹
이나바
근간
수도사
약탈자
상원의원
티타늄
Ice
양수
##BE
##파노
스카이워커
조승우
##데일
##인상
초판
니케
울림
##ella
처칠
사나에
##공영차고지
신시내티
한바탕
##츠크
##배구
흥선
쯔위
잔상
중성자
Year
조시
##무가
760
복음서
##일행
장료
리플
%]
##관리위원회
구약
안구
##표정
뜻대로
안드레아스
김동현
종일
타이거스
##반짝
남하
국영
오릭스
가나가와
##아크
990
기하학
##실드
산요
카드팩
##플레이어
환승역
xC
##왈
개업일
렐
##꾼
##시테
적장
555
##ori
이공
##다음
카ᄆ
쿠르드
희극
나뭇가지
에토
숟
유골
발버둥
##블레스
##fl
나코
배틀로얄
모세
##분자
손승
##듀오
카이지
##건창
빈자리
책임감
장만
알트
상당부분
골든글러브
경장갑
그래미
보드게임
경부고속도로
진구지
스트레
##oph
윈도
him
마개조
중남미
푸틴
They
Lost
고찰
비료
960
도합
신형
핸들링
##지정
도태
##게티
선승
객원
물몸
##예스
하루나
PPV
미팅
이해관계
점령지
##72
흉부
차르
코레일
여러차례
##마이오스
어드밴
병자
크리처
오키타
##글라데시
~.
제아
2200
편집장
핫토리
리브
원체
쇼우
하야미
피격시
##전산
내쉬
비웃음
game
접착
아톰
##덕지
우주인
마사유키
야만인
보그
##군인
날렵
Arc
감축
네온
펜싱
맥스웰
이바라키
최민
막사
미니어처
TA
하청
역사학자
유화
원주시
불경
##재현
재방송
악녀
운영중
염원
험난
반포
##발동
##네코
케냐
Under
필리스
잡담
텟
트랭크
의과대학
##기원
수프
영월
신통
실화
침략자
##방영
##로니
위니
착탄
##othing
마샤
불계승
문제없이
295
부지기수
로엔
상아
봉지
찝
##잔치
수은
##피리
승산
Rob
##토마
##저버
확충
404
##맞춤
유키오
610
다이나믹
가독
리차드
귀가
덩굴
Cur
##요새
바로크
칠드런
##zer
하복
##ᆯ립
알론
차기작
내셔널리그
Mc
태후
기저
##부림
정규앨범
공백기
dream
윤치
공주영
Imp
##촨
캐쉬
##....
소수자
비축
경순
손해배상
부자연
라멘
방글라데시
열폭
제이나
갈아엎
Gra
이시스
##지명
##법칙
헤일로
동포
매월
채광
항전
합세
580
##ving
바빌론
못받
Anim
동양인
펠리페
png
미켈
##선교
역이용
병크
아머드
바닷물
VC
##ITE
흩뿌리
로시
샤를로
유키무라
미야기
객체
시들
철판
알카
통곡
MMORPG
글루
떠도
굴곡
아캄
##YS
도무지
박제
Why
질투심
수석코치
세바스찬
##ᆫ시
고쿠
공언
퍼거슨
종합격투기
간간이
수두룩
##ᆸ쓰
##자살
네르
백조
stop
위키피디아
##게인
##롬
타란
민수
둘레
우에스기
##기즈
전의
조례
무구
출항
북서부
축물
스크림
##ARK
수갑
와라
요시코
##정보원
에르난
마유미
보령
구금
캔스
다시보
연합뉴스
대전차포
##배경
콩라인
##카츠
##현역
쿨다운
top
880
##order
Kiss
걍
로이스
발작
잡음
에반스
마그네
##성사
405
##폭스
탯은
##omething
해답
##메리
백과
이라던가
캐치프레이즈
도면
성욕
추력
요스케
반월
서울중앙
색다르
아마테라스
Spir
단과
김범
프리츠
마이너리그
아일
아슈
##조이
찢기
사역마
자가용
중기관총
진주시
##엿
##더블
열중
##집회
술자리
##그라들
Enter
시니어
일신
명색
순교자
응모
##92
보스급
002
살라딘
##fore
도출
사울
윙어
Secret
총무
vol
파시즘
코마츠
홈플러스
겨울왕국
금서목록
##ㅋㅋㅋㅋ
##신수
뱃속
##손가락
국제대회
크랙
이베리아
고동
실각
##네사
유틸성
여하튼
##WS
##선진
길쭉
266
쭉쭉
##뭉치
##요한
삼중
##82
##이거
도부
추가시간
데릭
영천
코린
##INK
쓰레쉬
소질
개당
킬링
엔리
마의
소말리아
현대캐피탈
미래통합
490
HL
##스윙
피날레
신창
언리얼
절도
##묘사
Ann
헤비급
폐기물
war
보육
##장벽
박소
##ANCE
ACT
하진
가도
오르페
##ᆨ시록
마르틴
블라인드
TL
##히드
초장
두바이
##ury
소녀전선
침입자
갉아먹
즉흥
권수
away
수축
전업
오영
애니맥스
마두
수난
보수당
FINAL
blo
##어사
역장
카메룬
각광받
Pan
도카이도
면회
배회
피부색
영통
테레사
##블라
##마다
중무장
##유희
기념물
쟁쟁
뻘짓
급식실
자립
##반구
##규제
반짝반짝
권법
온통
샐러드
유예
영력
흐ᄐ
김대엽
의논
변덕
셔플
빅스
강구
자릿수
이해도
겨우겨우
##위반
##톰
원탑
##티넨
렌더링
박성준
##자유당
##소이
방전
카키
##갈기
죠타
이리나
##mon
Roy
일일히
뺨치
강수량
공무
공격자
##순교자
온리
##꺼비
##URE
내력
디씨
##징역
SNH
신문사
Dan
##본기
425
Reg
하퍼
위세
중파
얼떨
놀래
1890
김주찬
결여
딜탱
합성어
알렉산드로스
저쪽
##현희
논산
##라이저
떡볶이
카밀라
##뚝뚝
IZ
##Pa
스니
반증
좀비들
포스팅
Hun
Sal
정가
피에로
더글라스
카시오
현관
블레이크
blue
속삭임
JB
청순
올리비아
개인방송
Remix
재야
ed
기민
##부호
서건창
드나들
##월드컵
Normal
light
대소
##수요
##일자
문선
현저
함량
종신
스베누
버팔로
치요
광신도
Vir
무참
항문
##규명
강력히
##aking
콕핏
##일비재
비일비재
세이렌
##혜원
히데오
초심자
보로
코니
##입자
권영
손패
슈테
From
의역
마츠리
라모스
오대
##비례
영예
##워터
Plus
도미니카
속삭이
대의원
본연
보루시아
한국철도공사
Micro
하교
되풀이
##부활
발터
토목
일본국
유리카
더럽히
주한미군
에리스
리허
베이시스트
쿠로사키
공화정
##처치
현대건설
견훤
개항
##단과
##실패
토양
매그너스
BEST
쑤시
##강사
부트
니스
##레드
휘감
기대치
API
교통국
엎치
이건
정품
상서
str
무효표
창조주
display
Nat
전래
##미노
종양
체온
변함없
데인
보위
점원
단체전
##수소
080
GRE
반등
남주인공
엎어지
요충지
프래
은거
물리학자
정복자
크라켄
America
had
승수
독신
지름길
##부러지
제끼
통나무
##esh
옥토
세븐나이츠
##체인지
유타카
증설
쟁취
공수부대
##짤이
HA
낌
한림
백승
Easy
병실
서울종합운동장
맘대로
PERFECT
add
화교
##캅
레이다
악취
##라이브
345
시계탑
노틸러스
보틀
신타로
넥타이
거장
입김
석판
아키토
By
LR
##ney
미노리
무뚝뚝
뚜벅
조쉬
005
윤정
무릅쓰
JAP
고심
안살
초유
박희
##쩔
에네
당진
스펜
혼잣말
깡통
활기차
##쿰
참혹
로마인
사치코
Dri
을래
매카
진풍경
달리기
환술
송은
##듐
아오야마
대성당
Band
##가죽
댁
양세
##곡역
프린터
연령대
인스턴트
감리
오닐
마사루
##GO
우시
##학살
##케라
이민족
시뮬레이터
일판
강가
사법시험
부풀리
챙
하디
마니아
영산
퍼스널
XI
##38
하오
수시
옵저버
최경
습성
해결사
체육복
마포구
Ob
대모
탄식
##견인
Ha
라벨
해리스
전투순양함
810
##미어
영종
불타오르
바스티온
##차근
결탁
배신감
##erson
브레멘
공상
메스
288
##흐트
전태양
프톨레
변조
힛
쿠우
아르고
##리가
후한
엘리엇
관심사
자작곡
번화가
의심받
##OLD
동그랗
라드
여력
##우체국
뒤편
퇴학
강남역
오카야마
코로나바이러스
차근차근
Wol
##con
무안
최지
차원종
518
설문조사
전권
##깍
긴밀
비너스
##감염
구미시
##치킨
재촉
참배
속사
나이스
슬기
글로브
하류
메기
##벨벳
휴양
팝콘
##멜로
주택가
da
매리
유니코드
고해
자만
수긍
스테레오
정읍
##데스리
중갑
##동작
연옥
질색
깔보
##대원군
들여다보
##수집
##음료
##노아
토에이
양궁
드럼매니아
톱니바퀴
##시작
만하
또봇
##매이
##판결
PTS
##뜰
##녜
도시전설
272
Fant
승전
검투사
업소
서로간
MSI
GIR
타개
15000
Series
임창용
정산
산재
시코쿠
모녀
별세
원더우먼
허드슨
무턱
네이밍
준결승전
이등
개소리
학설
볼거리
셔터
조조군
780
would
##학년
억엔
경복궁
사회복무
트렁크
AJ
성자
백금
담아내
봉투
색기
색감
흥국
염라
bu
하긴
##orry
야인시대
부엌
##ᆺ가
제츠
산성
스러
가젯
##겟
##스트롱
기물
##탄두
사요
사흘
섹션
평평
탈모
송시
베이컨
Video
케일
조씨
570
신분증
어드밴티지
숱
##천하
언더테이커
다재
소시지
원심
밀착
헌팅
왕자림
러블리즈
고려사
GEN
지터
부조
쇼트트랙
##데시코
단언
##ublic
메피스토
도플
##득이
녹아내리
소인수
중공군
탐탁
840
세네갈
만찬
강진
역관
네이비
##폭격기
야지
복불복
습지
룰루
##스펙
형체
꼰
봉우리
미치광이
용기사
MED
도련
1901
##자신
토코
모닝구
바카
소스케
삼위
쇼미더
##주식회사
##wn
##ᅥᆨ스
구걸
얏
##idae
후부키
려니
폼페이
연필
초승
국제선
##캉
##ᆸ니다
##구청장
PE
라키
##위주
레드벨벳
모뎀
위너스
소방관
OGN
##우터
##타격
안상
속수무
##스티드
수원역
속수무책
##정차
##유사
분데스리
범람
MOD
의수
수서
##착륙
브리지
텔레파시
af
##체이
하노이
발암
재력
##석희
히트맨
해마
##변환
납작
##셔틀
##캐릭
##이다
로터스
유모
유혈
##비에
신시
매크
재경기
게임플레이
티비
홍명
쥐어
박사학위
코우타
1860
##결정전
가고시마
평가전
상응
결점
폭염
슈투
401
땅콩
쑹
어항
마귀
대주자
무투
##글러스
286
도우미
GIT
##사범
##와라노
##ato
다이고
UB
##지법
조끼
안토
레거시
쓰다듬
딛
##은하
수비대
SPEC
##농장
상급자
##조물
아이기스
만장일치
카카시
니퍼트
김나
힘차
조선인민
맹공
생물체
실증
범퍼
하이데
트레인
JK
xB
오웬
윳
##클리어
Force
상층부
대물
미혼
원서
학년때
비트코인
당선자
아린
소거
츠지
ACE
##ITY
##우진
방진
하루만
상트페
길리
기흥
머슬
이경규
경례
박헌
##남매
머스킷
SHD
하운드
수훈
응수
도용
##만별
화풍
##픽스
반문
재계약
이치노
1898
시멘트
분분
##몰이
페이스리프트
실세
##ATA
ro
쟝
##MI
연휴
적분
##유정
탈진
321
##매일
주제곡
심상정
##스크린
윽
일반민족행위
299
이사오
신세기
평택시
시메
서영
연명
##ison
판타스틱
만주국
상동
까맣
중앙대학교
##농협
아랑전설
기득
##점검
멀록
##스퀘어
수문
##테리
형용사
##umber
격투게임
시마즈
나데시코
레이크
환기
우주세기
시설물
!!!!
놀이공원
STAGE
620
이어가
지코
과대
슈우
변화구
몽키
##hn
코라
##해방군
톈진
##TLE
스스
RES
##제공
키보
1902
Div
리무
##피크
아야노
누드
민선
군장
##늑
물의
디노
근사
싸늘
##셴
저우
태화
아키오
윗부분
기금
보일러
##전역
즉발
오가타
파우스트
FK
미스코리아
##거북
안일
문정
세종대왕
정윤종
ㅕ야지
호문쿨루스
천차만별
##가야
Lu
소정
애도
식칼
레이팅
강의실
어쨌거나
##댄서
역행
##거품
##두고
##티아스
GITAD
##드름
년후
용돈
삭감
아자르
##시나
자해
보크
허점
몸소
다이버
시국
미드라이너
출품
희석
EF
기뢰
##관통
예감
수순
독실
극후반
영화감독
제네바
##미리
성룡
##관객
##파트라
재외
창녕
타쿠마
나성범
이언
동당
##코아
태사
페트로
1897
KV
정열
경치
애너
한국전력
매개체
##이프
도교
삼국지연의
##뿔소
오호
달팽이
헥터
파티마
일축
요금제
##BT
리보
독사
과반수
##공급
심신
##홀름
MOVIE
전일
중전
소수민족
주신
정호
하나둘
사이언
작성자
##컴퓨터
이철
ᆫ다던지
조엘
무표정
폭우
논외
Ta
##딤
아차
바짝
비지
신룡
편법
희생플라이
먹잇감
##공용버스터미널
##다능
자조
##라니
루주
산토스
312
셋쇼마루
원샷
데어
##해튼
이동해
무신론
JAPAN
고루
오하이
Future
공조
경마
레이튼
##사업소
문제없
후지와라노
포르테
##발전소
숟가락
##tm
##자민
발송
##셔리
die
당도
카봇
접목
357
탐지기
솔플
boy
##당선
일반공격
케이이치
쇠고기
ZERO
##공정
포그
##트라이트
기계식
스포츠카
채영
##amb
than
상트페테르부르크
820
쏟아부
모니터링
미제
중랑
##보성
힘껏
금광
초전자
묵묵히
pre
자퇴
애증
엘튼
장단점
마르세유
기내
##자문
호머
본점
##열매
준이치
블랙리스트
합성수
프란치
영기재림
기프트
##구모
##맡
FD
307
유병
##신학
##재주
칼로리
355
힐량
유투브
칵테일
프루
영웅전설
현실세계
Here
하양
자코
##종류
독하
왕래
녹슬
밥값
Fin
el
다느니
##ᅳ렁
잡아가
마나카
Championship
##욘
##아누
소파
발군
명종
음식물
아리랑
##영웅전설
Aq
이수근
무턱대고
cod
경화
빠트리
##문화사
미륵
군부대
다운받
엉터리
다재다능
니라
토레스
달달
##봉인
중공업
코쿠
까발리
애니메이션판
##경제학
der
##탐구
##소보
박철
##극단
퀘벡
##irth
수아레스
마틸
호연
could
고저
고지대
##자산
수혈
세실
문도
태안
##read
335
International
모루
연약
열애
##hed
퇴진
아타리
결방
지구력
리허설
궐
하울
열연
산티아
이동거리
2600
이즈모
사황
자키
##간부
야나기
문희
##북부
퍼트리
알레르기
##프렌
초승달
자생
채식
##odu
제패
##acy
Queen
##ror
하노버
챈
##럼블
항공대
두산전
1894
##46
##나물
조나라
등기
원기
##챙이
##상실
파블로
Exper
김하성
티격태격하
대작
몇백
무인역
새천년민주당
##코이
계투
아이다
꾸역
정식명칭
폭스바겐
라칸
평준
쿠와
최전방
규범
망나
석재
유우기
국방장관
섬광탄
##아떨어지
말다툼
두통
수정바람
##랄라
브롤러
카트바디
GITADORA
리플레이
황재균
용문
축약
파이크
노면
##모치
맞닿
맨션
스파이럴
뛰쳐나오
선후배
오ᄅ
후크
특례
아야메
간헐
쉽사리
##메이카
장현
한양대학교
나지완
오하이오
하모니
코볼트
걸레
숄
남녀공학
팬더
드링크
틈틈
프톨레마이오스
power
만인
##쿠지
웨이드
미사토
메인보드
시비르
Pat
##프전
린코
을지언정
Old
대서양
선단
야나
역공
실사영화
##네이드
##메로
골때리
아케인
youtu
아냐
세심
##토무
게임보이
##브리오
스리랑카
##일리
how
는데요
진이
##ctor
안드레아
Ill
절멸
패스트볼
ᆫ다던
우버
불과한
적재량
강백호
##적거리
황야
템플릿
시이나
##달프
급강하
스포르
카이로
스테미
테크니컬
FOR
레티
경찰차
부산시
아라타
핑거
수백만
지선버스
Mor
영암
##계층
아레
사계
관상
황급
급조
##unch
옷차림
아랍에미
사회복무요원
##RC
치매
초고속
##입대
스텐
갱생
##엉이
##전등
리워크
Look
BLUE
##iw
거만
##주체
벽면
710
Work
##원리
함교
금나라
민주통합
헤이즈
pla
##호흡
##icle
소문나
함양
##큘
지지부진
##iant
##도바
##창작
컨커
시바타
VT
유시민
최연성
장조
앰프
끼이
아나킨
다윗
짖
모덴
시리얼
##벤션
케이코
쉔
브레이브스
산티아고
##디부
매킨
호쾌
##왕자
횡포
시라누이
##똘
로디
##주얼
형광
아우디
코즈믹
오치
인문학
노론
##렌즈
페르난데스
공기업
JD
##용어
이제야
의원직
아케치
##다희
수상작
앙코르
아오모리
미스릴
로또
정미
강기
계속하
데뷔골
##안경
제대로되
파이어볼
Er
Fore
Give
##ces
상국
##무제
배양
용광
자카르타
마킹
화분
영영
작품상
전국구
##스테르담
남경
폭장
드레드노트
흘
##QU
로도스
오클라
##냄새
##체가
재연
누마
핵전쟁
교육기관
사냥개
사이어인
Dyn
두건
세븐틴
스사노오
##지검
우즈키
멩스크
자형
##전지
제논
무분별
##비스트
일본시리즈
Cla
고국
지략
##cal
##LY
##otion
상이
당수
네기
삼형제
금주
##els
주문서
청취자
Aqours
Ber
##su
##리프
포포
매듭
민영화
피난민
##복귀
스털
암스트롱
왈츠
##WC
저레벨
아스나
을려
거진
신검
골밑
유례
##볶음
처우
실마리
##연예
지원받
이키
지브리
무더기
심취
346
비중있
고속철
계급장
##부쿠로
276
극단주의
고의로
비올레
여실히
피시
선데이
레코딩
복서
정찰병
배드엔딩
er
##르카
리지
직함
베오
짤짤이
오클라호마
Dav
소변
통장
끝나가
홍보대사
가마쿠라
진과
현란
맨해튼
무쌍
애런
토치
루이즈
타코
후열
카코
통지
사이언스
하코다테
##펙션
##라이드
아득히
아폴
영의정
발기
불복
학장
판치
에이핑크
수세
방통
린이
몽둥이
프라하
나루미
김민철
유즈맵
게으르
카츠라기
명함
최종병기
##ask
황금색
키리시마
그뒤
##제조
속내
세이라
##ender
##지방검찰청
크레이그
라시현
##바보
더라고
유리코
뒷목
강경파
사범대학
##정의당
장검
##페리아
##난방
##ami
마이스터
통행료
##스름
고상
장강
강풍
캐롤
##메즈
복역
레이더스
참전하
클레오파트라
판별
이제르
퇴원
쿄우
시에라
대죄
탈레
##슝
석조
ARC
Plan
np
이근
수거
동귀
안지
점막
##봐
##sy
유강
리자드
동일하나
앵무
RNG
##개치
##처장
여수시
어메이
##아의
더디
##핀스
온천욕
Fort
의미있
아리스토
TFT
##클레이
에밀
도나
##스가
공과대학
센토
##넌트
츠쿠요미
TBD
아랍에미리트
레저
직경
##탄소
얼버
비스무리
컨택
##사이클
Player
슈이치
휴재
타카야마
안젤라
마셜
전량
후세인
루갈
##거래소
추축국
CI
등짝
불후
다이나
##덴부르크
sy
치욕
친동생
총독부
신해철
꿍
우진
##루카
휴고
가디언즈
우치다
See
##중력
high
전학생
오븐
말싸움
안데르
##최강
유니콘스
방종
태엽
송환
##ular
국방군
블라드
인내심
유야
명수
식감
청도
비교적
모모카
에두
아편
##유치원
데포르
철폐
밀폐
##elieve
PTSD
##눌
반정부
예니
건들
컴필
특별법
##픽셀
이승기
모여들
리포터
심층
직장인
가닥
마즈
미첼
백동
통일신라
##쉘
art
MH
방독
술래
동해선
WIN
타파
프랜시스
남양주
##SH
주니
당직
시간여행
##베스트
##사다
한껏
##티니
배재
##호프
슈타
까치
아이템전
맥기
미군정
만수
성리학
Sub
세개
파훼
반향
##서류
신학자
쾌거
탬파
hPa
비활성
장시
낙점
보컬리스트
Ever
나래
여고
유실
가루다
의정부시
아폴론
##드림
캅
##실신
불스
##발생
INF
자메이카
뎃
##코시
퍼니셔
##펌
선악
치닫
##야구장
저장소
Dec
데블
Another
말미암
Make
Squ
도그
##보급
##레알
김부
아이티
670
등신
알로
니즘
기어코
용산구
##만족
김갑
총력
비스타
##띵
##tus
##EP
아드리아
돛
##노우치
이정훈
햄스터
이설
258
탐사선
애드온
IOC
보아
괌
당파
남서부
Wonder
글레이
강박
막대기
키미노
CU
ml
##마스크
생도
##분류
반토막
베레
보호받
그레이엄
마사시
대중문화
##ICK
선제공격
##현석
체술
##괴물
707
오토메
940
미스티
용모
완치
벳
970
셀카
하카
257
중후반부
과외
후신
선의
##들레
사마귀
##펑크
무진장
고함
경작
쇠약
Roll
rec
여과
포틀랜드
폭약
광둥
##itt
칸국
자연과학
385
야마가타
건너뛰
쇼미더머니
분탕
끝자락
컨텐더
여군
네트
격상
its
거구
전미
ㅏㅆ었
벤자민
트랜스젠더
종착역
제수
관철
APK
##꿀멍
과천
무형
효종
특수공격
둔하
주성욱
얼버무리
아브
사타
##정변
개인리그
어업
고흥
히요리
청라
정신건강
##그레시브
뒤덮이
##빌라이
##그네
문종
브리타니아
글로리
핫스퍼
끊임없
##앵글
발가락
##파동
은하영웅전설
개정안
상습
상봉
무전기
입안
##합체
##ddy
지급받
##뎅이
추태
꿋
솟아오르
연중
초신성
##저찌
잡졸
항시
침실
##ᆺ수염
Ben
권선
뉴올리
전국대회
카나에
호감도
사본
##심원
263
흐트러지
낌새
심기
간소
##질주
배웅
밥상
얼떨결
San
##바치
숙성
플라톤
##얗
데꿀멍
##이츠
##개선
군정
탯을
일리노이
스모크
##교동
##민턴
벤트
아탈
의용
##스커
메들리
##쓰기
맹목
##네이루
##궈
아모
헛되
아누비스
다윈
에린
도원
제제
소자
조선족
##OME
카네키
알론소
송은범
나팔
발걸음
울트론
루미너스
스핏파이어
##재호
##93
도수
화승
박지원
류큐
##프리드
낙후
525
org
발명품
핥
자타
공리
배타
두고
라이오
지지층
LoL
미카사
넘버링
Card
##vice
##버른
동호인
깁슨
츳코미
##컬러
bbq
글꼴
어찌저찌
Sea
하녀
전현
공예
영덕
삼성화재
왼손잡이
군청
셔틀버스
에렌
서운
후륜
이슈타르
유로파리그
스털링
##side
##니파
조난
타스
##판지
천정
##ellow
이승현
팔레트
볶음
련
사미
토종
아나타
아보
어인
가우
서툴
선수생활
소매치기
스커트
총사
규합
류노스케
학교폭력
Ko
주안
장합
요마
슈퍼히어로
들러붙
hello
이교도
으세요
코스케
디어
어마무시
Mind
이차
##오브
출가
접선
정치학
##삼성
구급차
오블리비언
모독
떠돌이
국내선
후속곡
이랜드
단시간
##결번
벨벳
크래쉬
부차
구치
제프리
영연방
더치
##any
##hes
밥먹
##ava
아이카츠
오디세이
대꾸
노블레스
계파
함종
스타벅스
링고
BY
##시네마
호아
알베르토
떡실신
프레이야
샌더스
비비안
질소
%~
수이
배그
입소
송정
##베이니아
보주
바리안
##산부
헤아리
문화체육관광부
자청
##투입
떡칠
##연합군
##공학부
김포시
낱말
##슬레
비화
요직
코랄
커티스
##넴
순혈
##왕전
나가노
암스테르담
우승컵
##참여
##ote
쥬다이
##PGA
총격전
고강
위전
펜실베이니아
데프콘
##블링
발끈
편히
외벽
즐비
AGE
##리지
기입
##수선
미생물
##부담
당혹
문파
##깎
매사추세츠
다잡
데저트
##결사
번호판
##린이
미치루
브래들리
오수
열망
730
Pal
##form
미요시
반일
영화진흥
마다가
요시히로
##드라실
상계
실태
단맛
##양성
능선
273
독립군
추진력
자갈
콘도
##뿌요
급속히
매카트니
Ra
등반
##모래
딴지
전임자
신참
##너리
살생
베이직
에리나
지난번
아이치현
꿋꾸
##연수원
맞닥
황선
라이프치히
카타리나
득실차
하카타
페페
액세스
가정교사
맥아더
이색
소박
##노예
시작점
연재중
스톱
-'
삼천
##reas
토론회
고사하고
##스태프
피르
클루
정영
세그
카톡
민가
포위망
싯
조디
유표
##부기
요술
퀸시
나나세
공문
##출혈
star
글쎄
under
마중
일설
##피나
캘
##충돌
##무비
난조
중앙부
흥덕
수리비
앵그리
칭송받
주괴
대참사
##ican
훈련장
ᆯ려면
시어머니
최동
##푸리
콜렉션
youtube
SPECIAL
황급히
##ih
화포
##디스트
##ories
같이하
코요
##집중
우주모함
퀸즈
공대공
에어로
비취
노먼
진시
보이그룹
##천후
##YY
참의원
궁녀
9999
킨테츠
Beautiful
HIV
다방면
리저
##역과
반야
판테온
##블록
레기온
아스트라
신학교
리빙
야미
메즈
##령우
자유계약
좌회전
방사성
벅차
Emp
수심
스프
##작물
장렬
캡처
아우구스
상선
구박
##oto
스탬프
혈족
True
GSM
볼드체
국토교통부
##인격
복속
친아버지
악귀
##드래건
인양
##ffer
유사시
알아들
yul
아트ᄅ
승리자
동일시
아마네
불꽃놀이
박원순
YTN
이능
##우회
연유
레츠
##백제
토미노
뱌쿠
거룩
402
얻어먹
경의선
gonna
기네스
볼링
전반부
오퍼레이션
##기타
성신
영화사
최고위원
쥬리
신체조건
ᆯ세
가쓰
##토프
쓰시마
벌벌
공개일
생활관
숱하
두꺼비
규명
##충격
##ollow
{{{#!
Electr
KM
아네
강우
딜레
프란시스
##그랑
폭망하
대양
선공개
리세
진열
너무하
세기말
##모임
##반동
풀업
마리코
그로기
지저분
어메이징
박령우
##iness
마리카
리라는
##미술관
심포니
컴필레이션
사산
개발살
324
Id
ep
리콜
더글러스
단면
##탄창
각성기
##인지
젝스
버나
멜버른
리버티
##팔리
다국적
발화
독가스
금관
허당
MSM
Trans
마요이
모체
레일리
곤도
칭기즈
##땀
클라인
930
SI
야포
##창호
아주머니
은커녕
라디
##교과
민요
청담
중앙정부
쫓아다니
소유주
##트런
흠집
첼로
다른데
맞아떨어지
##결제
몇달
##ific
회고록
비정규직
정찬
초소
강화도
어태커
성가
세시
##쿠젠
283
조선군
럭셔리
에너미
TOUR
천룡
산적
##득실
##걸즈
##칼라
미즈노
친선경기
각하
양산시
슬립
화사
##보관
팀워크
삼국무쌍
##ister
오시리스
##무적
장정
솔로홈런
한밤중
죽창
박형
##북자
유희관
스프링캠프
이왕
부름
안ᄊ
조직력
소화기
기척
SSS
다카라
두고두고
사륜
강물
재판관
에스컬
##끓
김민성
Bus
정략
##승지
##등판
병아리
벌목
아발론
어니스트
해괴
##평론가
설정집
우선하
경비대
##평리
여태껏
##press
##티에
신안
##scape
주창
요나
284
386
차우찬
##제이드
대림
우방
##라이너
로페즈
주영
세타
종언
비르
참회
본교
독침
나탈리
원맨
##디슨
스테인
261
김유신
중저
결판
독음
넘나들
혹자
004
아만다
Shadow
VF
에고
장항
알람
특별편
##푹
보나
##원인
개근
피어나
양학
아야네
##벼락
##ress
##당국
밋밋
카스티야
방독면
이펙터
##ada
이택
모처럼
호두
##호시
펜티
폭주족
##전문가
-.-
Av
VOD
##다일
장승
강지
##노동자
##통행
클로즈업
세무
삼림
발사속도
##스카이
자우
영애
역경
달마
국가원수
석권
대학살
아르마
Arch
시타델
성나
성년
스즈미야
정준영
불로불사
OFF
오천
약국
##onight
엄친
오오타
상세히
카스가
이딴
##국인
##메달리스트
클리프
sky
오랑
선례
버로우
Dep
알비온
선발출전
사민
정파
닝
건륭
##las
##제로
경춘
코비
정신차리
보조금
트램
고착
도형
항체
엘자
헬렌
유우나
드레노어
##bow
미비
후폭풍
결렬
오르내리
아스널
알렉산드라
배드민턴
수줍
YES
##서치
오락가락
##afe
du
##과자
##amage
뽀뽀
깊숙히
노원구
##네오
양해
정태
##메카
매니지
영화진흥위원회
이말
자대
마조
영생
##호테
##순이
영구결번
굿즈
꿀리
번거롭
이봉
동학
못말리
석회
경쟁전
잉카
TECHNIKA
##중일
류다희
희곡
레인지
##ives
칙령
여진족
Ve
주사기
자야
##크트
아니마
스킬셋
고분군
##지상주의
##oid
하물
월달
Two
##자세
추증
##선발
##병단
간토
터득
법제
흔드
핀치
##APP
귀인
277
매물
커밍
김동준
에스컬레이터
Ka
did
면세
방귀
리븐
에드가
일렉트로닉
##크랫
송시열
##쭈
다목
으르렁
##브로스
Hz
김옥
심재
영국령
듀란
Fro
##자크
셉
커스
##그래피
율법
다크나이트
무한대
최저임금
Chapter
##전산망
Tur
건반
터빈
경쟁사
나즈
미신
비법
내통
안두
얍
국부
우승후보
베네딕
맞닥뜨리
##두대
##츠네
백운
구조대
##MM
시르
바인드
전시장
조석
음독
투석기
기계족
이정현
라쿠텐
##사가
남송
잔느
파밍하
오송
손보
015
유즈키
야고
철인
##구장창
수동변속기
개척자
시판
이지선
승하차
주현
##사례
양준혁
열두
슈티
심장마비
하후돈
번도로
재조명
심도
보장받
호수비
지프
처벌받
##갱어
보디가드
##ini
컨설
밟히
신경쓰이
아유무
고우키
Intel
다마스
이종범
이타치
이차원
##곶
그와
발의
##공대
코에이
벌점
870
김태원
야생동물
서예
##교포
레코
물들이
##개방
판국
323
스위칭
Leader
밀레시안
##기종
전일본
해일
교파
플레이시
러스
기본공격
##증명
현대인
##넘버
이시이
정몽주
##아미
유랑
##태그
##레카
##엘리
총평
의료선
놀이터
프란시스코
##얀다
전준
캐럴
프로비
4500
죠스타
론도
찬탈
중흥
해파리
여성향
하루하루
920
TK
##원사
꼬드기
그루브
운동회
소인수분해
Vi
이부
조이드
중생
안마
통합진보당
Head
부지런
Cost
KK
특대
투톱
요시유키
비서실장
된장
추하
금괴
민자
시전시
빌드업
신동엽
삼위일체
도다
종국
필하
주구장창
위업
##면역
알프스
CHA
강릉시
UD
추존
음악방송
티라노사우루스
##ja
동형
국호
려는데
텐마
베스트셀러
디아스
부러뜨리
이너
인척
추악
##노비치
상처입
한화전
협동전
캔자스시티
일라이
대표자
##AMP
의무병
##미수
##신부
등불
방계
숙달
뻔히
투표수
후지이
히데아키
영락없
무심코
로케
월남
독기
왜군
근본주의
Christmas
셧아웃
##티넨탈
도플갱어
Earth
##97
구릉
타블로
파스
로드호그
사쿠마
##추적
민주자유당
Silver
Burn
화음
델라
완충
캠벨
화염병
구원받
뽀삐
맞춤법
딜레마
##나도
마안
##미경
네비
누설
294
##ᆻ다오
NBC
지팡
내막
니얀다
##좌석버스
이범호
Tok
##브란
##만장
##개편
샤인
운전면허
서브컬쳐
매니지먼트
miss
캥
고룡
바키
강정호
##피트
트레이스
상처받
대항해시대
Global
##CO
수풀
육손
롯데전
피로도
이태양
프란치스코
##관찰
##덕분
컴파일
냅두
Double
##퍽
##연결
병법
멸칭
소비량
이같
##타리오
생모
황위
핵미사일
성균관대학교
.?
소치
앵콜
HERO
work
만기
카니
집탄
##ones
274
Street
다섯번
신일본
딧
옴니버스
커세어
고유명사
##프랑
##Boy
변변
무한정
Hand
JO
이크
파급
히치
체르
덴버
사가라
Want
XL
다든가
지양
수산
##아비
조진
최씨
다운타운
동귀어진
스메
쿠즈
##ASH
혁명군
##ery
백어택
리츠코
터무니없
아퀴
동군
멍청이
뉴올리언스
펜티엄
하찮
방망이
책사
녹턴
050
Cloud
거침없이
하물며
정색
##마구
##보로스
항변
프리스타일
003
##공업고등학교
진언
천부
쇼타로
아키하바라
##알리
라스타
##세르크
두발
2800
마나미
대문자
미주리
피살
포천
원초
악세서리
##변호사
체력회복
역사학
Reb
===
트라이얼
LD
탈의
267
글귀
Techn
모카
전뇌
##슈터
##물리학
로커
저렙
예멘
착실
스칸
338
김석
각개
우리카드
사회복지
네일
정크랫
금연
명목상
마닐라
##KE
엥
##도마
직권
금동
저그전
EDG
화원
소연
진루
냉소
료타
원산지
##소속
##보다
특전사
김풍
주변국
공주시
기상청
big
##가쿠
원유
##태세
##aint
메디치
지크프리트
사력
전상
개발중
빼어나
아케미
테레비
피타
음표
삼인
민경
폐차
##웃음
맨발
##돈나
아웃사이더
ind
##클링
에른
버클리
##탄병
영상물
스파르
널널
##ii
에무
##발언
서브보컬
김정우
##ues
##port
##소닉
친히
특촬물
##도록
##야드
##꾸러기
덴오
소지품
Hal
##아일랜드
비슈
법관
준말
##딩크
젊음
##체조
야후
파사
집시
##독재
단지이름
탐험대
##플랭크
사선
##출마
##북면
271
전화기
리미터
랴오
PART
##장로
##공부
감도
캐터
##심리학
268
박력
##패닉
머금
헤로
시흥시
얽매이
동갑내기
노량진
##67
##동아리
감화
군국
박선
##은편
세르히
인더스트리
야성
재충전
켄신
리턴즈
##OTHER
MOM
기류
피폭
##시미
##대응
##델라
승화
##ating
유일무이
through
Thank
##ken
고드
라던지
##재해
##반경
안동시
스트리머들
디스토
견환
스팸
##gen
##화산
##까마귀
스토크
독려
어림
속보
임성
럭스
아츠코
##서인
부득이
맴돌
츠요시
Second
법조인
Oper
모피
회랑
맥시멈
##버니
에스페
##눈물
교도관
##마마
순욱
천주
동력원
라네
값싸
아야세
##처벌
켄타로
코치진
경향신문
웅덩이
Pur
##부패
##국립
공양
출정
기아자동차
##드롬
징병제
제퍼슨
##싶
한산
애드립
##그래프
땅바닥
닥돌
##세일
아파
##핫
##추리
앞발
Studio
이닝동안
415
Cho
레즈비언
그와중
##마린
##놀림
##깨우
호넷
총상
신앙심
안치홍
TUN
기침
한사람
베히
덜렁
관음
##포리
용신
##출구
##합병
풀어놓
국제법
##산업단지
DREAM
유충
하이스쿨
##프링
베일리
마사미
##HS
도성
사표
##통계
복직
##받이
헤이안
꽁꽁
##환승센터
##aa
학비
맞은편
싸이코
염색체
네이션스
성유
군의
레이커스
우주비행
지구인
##iko
아미노
##가토
##치노
전한
소이치로
##개정
##설비
거래소
보헤미아
##계단
반미
##파울
간담회
##귀비
Vita
##YO
수기
말벌
##bert
마천루
give
##문드
초석
국악
답니다
정의감
순양전함
MAR
으뜸
선덕
계왕
키릴
AU
경시
475
촉발
관현악
che
##KA
금사
##겹살
##갚
창녀
바이어
요구사항
화물선
##르츠
##배추
식탁
커서
정실
287
헥토르
통찰력
정월
신겐
##토바
네뷰
##꾸역
롯데월드
##프로젝트
갱플랭크
창립자
Hor
##jor
##하츠
시경
##수배
##주먹
정병
야코
치치
국지
손익
창구
니시노
Group
크랭크
Electrical
Water
먀
평론
##미네이트
codice
RW
금산
##애플
공포증
바티스타
기정사실
외딴
병약
곡식
##드록
레스큐
Qual
개의
최윤
##루크
##령부
악동
우리은행
올랜
아라키
장착시
LIG
조선인민군
가꾸
##주부
김효
카드파이트
허탈
다현
산정
끌려오
1880
디펜더
휘발유
윳쿠리
##브랜드
전란
성왕
특무
일본프로야구
풍신
잉어
##경비대
Sign
XG
버마
권세
트랙터
가나가와현
마오카
##데자
마츠오카
라프
바레인
만리
무디
##학기
못미치
워프레임
루시드
코코아
##ael
##하카
##수량
타의
##계정
##파인더
충만
요시카
치토세
여초
##포지
##oman
태양광
핏줄
##오일
무리없이
스완지
꾸역꾸역
아드레
갔다오
##다임
처박히
이웃집
##굿
매섭
관청
검문
서울시장
##stal
모이라
야쿠모
유루
##국시대
내무부
Gre
XIII
실효
##lad
굴림
##십리
마르스
스테파니
헤이하치
요괴워치
수백년
드로우하
대마초
##공포증
황건적
이간질
도지사
사피
장차
징조
원정팀
##선거구
기하급수
Vers
로다
종주
임박
지하철역
길드원
스펜서
##ior
호이
김천시
악순환
Jr
Wel
##지향
##신앙
히지
스위프트
끌어내리
Radio
떄문에
HC
기압
##나츠
##언트
머스탱
식단
절로
앙드레
의문점
##빽
소프
농산물
케스파
시전시간
too
##주아
특사
##귤
##꽂
불사신
오승환
어워즈
##시전
항렬
318
적용받
곱하
부녀자
Bill
##투리
문화방송
초음파
구획
야노
##물자
문득
국민투표
비난받
동대구
##나루
##차일드
##복선
히딩크
스타터
##ANT
대중음악
원더걸스
중상위
마그나
##젤로
##동굴
타순
파즈
탐내
740
키리카
쿠사카
홍시
+,
정변
영하
##학파
포교
스테이트
##imate
대청
무위
군도
황보
하이킥
이효리
자외선
일깨우
성좌
핏빛
네드
귀순
##광석
셋팅
##스트리트
##uz
연립
시민단체
브론
리오넬
수조
인산
세미나
트립
##ipp
트라이앵글
츠루기
어학
Right
역세
##천국
자유투
닭고기
Know
##수급
파이퍼
매치업
토아
투닥
##폴드
Cross
브르
##uff
##투게더
프로그레시브
##스트링
##테이프
하후연
커넥트
트럼펫
선왕
레넥
필중
##셰비키
Speed
이혜
##대국
유자
는다거나
##락하
309
590
노르드
그러다
본즈
##등등
##샤르
오프사이드
오리아나
무속
치장
네빌
슈타인
키리코
석가모니
Original
Sin
도선
완파
여러명
##침반
##ters
아시카가
이직
자급
피넛
교신
DOS
소국
관구
고담
신드
효능
이병규
##보너스
별빛
벤제
트론
##axy
전망대
마틸다
run
남우주
##춘추
뼈대
이두
가뿐
##학력
음유
표차
액자
국민정부
##usion
으려다
주민센터
포가
라이노
혈전
개정판
사대
식욕
아웃카운트
##이이
지류
짜장면
##빈도
민주정의당
모자르
##전문대학원
한성부
호그와트
수려
화풀이
중보병
타디스
##포이
양키
달렉
무기징역
스푼
##roid
END
문화재자료
god
##come
상심
내키
다이치
TM
가나다
여몽
노도
세공
금제
묘호
##셔스
read
실리콘
전여
오벨리
두더지
첫눈
Where
아산시
모레
분대원
##와키
Episode
대주주
#==
##다의
##바도르
안먹
패튼
자유도
휘어지
공화당
카게야마
Extra
##ᆷ린
##업소
힘싸움
백혈
##스컴
응원단
야타
카다
델리
##라이프
미치코
암살단
묵살
이방인
말자
실크
259
타카다
##지침
##저냥
##직할시
삼일
급부상
무지하
전당대회
TRPG
시진핑
Ki
기우
모텔
조중
##바브
니달리
백팩
사무국
브로드웨이
kW
##호리
친화
윤석
##튀김
남동부
##실업
아라드
지배하
##찌개
정우람
VOL
모질
스물
한영
관두
날조
길동
친형
탈리스
논평
알렉세이
유러
##후이
파스칼
배낭
킵
청송
우수학교
안쓰럽
##그란
이찬
##ative
팬서
자기자신
pack
##퀀
##가정
양주시
퇴계
##첸코
South
##꺽
젝
우완
밸런
빠짐없이
video
전말
스벤
최전선
에이즈
문화예술
정상인
조치원
##live
의붓
야영
##출산
앞날
컨티뉴
쇼고
노벨상
Lab
##68
포에
베트
몰타
인사이드
픽시브
Ju
신대륙
일본서기
퇴마
이성열
##소재지
아트록스
Born
##크기
막심
땅속
한두번
카탈로그
레넥톤
사노
중요도
little
size
오션
강석
슈퍼컵
중앙위원회
초대장
##헴
와카바
쩔쩔
탈레반
##오염
조소
인덕
무브
물병
Mill
Us
##핌
##보행
리벨리
남군
##받아치
홍천
정규직
Shin
김성주
덮개
효고현
불시착
디나모
Land
피력
##UMI
만대
더위
Pres
여객선
올림피아
##마기카
COL
##도그
영도
배영수
휴방
흩날리
신조어
Walk
중후
역겹
샤론
282
치료법
물러가
끈끈
들먹이
서포
리파
친딸
백정
##펠리
폭풍우
낭독
패자조
굴러다니
잡아당기
양승
##stic
POWER
TNA
일년
스크
온두
그냥저냥
축구팬
##다케
자폐
채태인
느닷
괴한
송영
씨족
뮬
플랑크
손승락
Rel
문맥
외인
국회의장
일기장
유러피언
##ji
거실
투병
곡사포
##백스
류중일
육수
몰카
##삼촌
플로라
한양대
스매시브라더스
남우주연상
FP
##쌔
지병
처자
직류
다이몬
서브픽셀
니시무라
##셀러레이터
PRE
고열
무득점
호건
경기병
청록
차량기지
와카야마
바꿔치기
Some
교문
##국민당
해적선
Mid
##ks
라흐
한식
압구
핵실험
혈투
테크놀로지
htm
대손
##전체
발길
쉼
돌진기
##펀트
리베로
friend
월경
파마
배꼽
확연
프로포즈
쿠죠
웡
##ᆷ피스트
##슈팅
발사대
오오츠카
아시아나
보름달
하하하
##치마
한남
세카
##민호
국세
히가
##망치
Chall
그래픽카드
뿅
문호준
성토
안목
문산
일본도
빠름
할퀴
오카베
중개
##진과
경기일
효성
산개
009
##대표팀
울트라리스크
체인지업
명소
결실
액정
기념품
마사코
##대중
위연
##극회
준코
위도우메이커
##뭐
현생
케임
선미
우성
##른베르크
김밥
##메키
이동국
317
##셔닝
브루드
##클럭
김재호
##볕
유라시아
may
##yl
##소자
##ᆨ시트
비명소리
SoC
폴로
폭등
병들
##증기
큐티
턱없이
현수막
조타
피폐
해동
코모
천인
##드랍
히트시
Iron
##**
군산시
답장
해산물
서사시
민병헌
소다
##역전
##넘치
KL
##기테
제철
후발
단풍
본전
##멘토
Ref
타케다
오하
##미네이션
##유행
그램
런들
솔져
살인범
##ora
벨로
아우구스투스
유급
죠니
##akes
##잔디
West
car
다든지
##이식
오야
##텔레스
##식량
남베트남
##ᅳ레기
혹한
279
칸타
작업장
조지프
이그니스
에스카
비위
##쿠레
맹주
세종시
햇살
Forever
퓌
이그나
##상제
킬리
298
살인자
팝업
취약점
엔지니어링
아흐
승조원
나경
상도
클로저
플로어
씹히
효도
##창조
차지샷
마르쿠스
앙고
대금
아키모토
##REAK
black
##vin
##가하라
속어
##here
##리르
볼로
비버
##hel
File
VV
##가을
안나가
##후유
##분방
골판지
##삼키
긴토키
여유있
선제후
##끝내
##aeb
그림체가
세르히오
바울
##추얼
하나은행
팔랑
전사자
장원준
모더
위너
##명단
##aki
빵집
Dynam
##기본
콧수염
int
네덜란드어
운행시간표
바렛
손재주
##IZ
유달리
##일점
감차
변론
##엄마
엘리자베트
룸메이트
##FE
##이터
로쿠
라던
모비스
##마쓰
실프
##네그로
##끼치
곤잘
오소마츠
화강
프로즌
##ese
##raw
수호천사
묶음
제스처
로버츠
##네이터
아성
##기온
##표지
청동기
급박
여성시대
쇠뇌
##카테
##티보
강시
서브컬처
people
이회창
히토시
샐리
##편지
오이타
콘솔판
미성숙
실존인물
두근거리
##HO
##뿍
기모노
##구경
물공
##병장
협소
펜던트
모노레일
WBC
주거지
호오
칼초
클라리
COST
##큘럼
##ault
##of
경시청
소체
걸출
육군사관학교
반지름
시스터즈
모티프
##슬레이
카림
##호란
용액
온타리오
356
아프간
신오
##선고
창백
철강
278
한둘
연선
두마리
쓰나미
##복음
난타
탈북자
##스트라이
카이사
부정부패
##드랑
정조준
알토
주치
포용
니켈
길버트
폐역
볼트액션
꼰대
Ray
어펙션
##조종
니드
##병우
몽크
##농업
020
ha
mind
호가
comp
쾌활
후쿠오카현
Circ
에프
아크로
슈마
붙들
깨부수
289
송승
##edia
Lord
##IVER
하아
고승
##아노
##출판
##렌트
패러다임
##헤헤
테이머
뻗치
공권력
위례
##호수
뒤흔들
##텐션
존경받
정전식
수혜자
##슈타트
기말
성내
##소유
김도우
종단
##캐롤라이나
브라보
휴식기
로얄럼블
츠쿠모
수건
라미아
파시스트
매몰
약캐
##곡면
최고위
주나라
코야마
##방침
##명사전
오목
동종
##레어
허스키
라이스
##프라이프
회생
악성
역할군
조리개
=,
그럴
##촌역
##윤리
Prot
봉사활동
이봐
##사마
##대밭
미확인
촘
2300
항공편
종교개혁
하프라이프
다혈
시일
주마
알베르
히다카
완행
테트리스
사회당
미니시리즈
찰지
ElectricalBoy
Award
전희
##날린
경제성장
어벤저스
올랜도
유종
데르
##관절
##매트
##박치기
격자
미드웨이
신분당선
금수저
NFC
낙오
융통
하라다
박민우
베히모스
LT
그레고
인민해방군
Collection
말빨
선양
##개토
##cc
애호가
속담
러커
골자
아킬레스
빨아먹
집어삼키
릿카
전근대
Pet
sl
파이로
롯데마트
OL
일수
생쥐
진사
##커버
##평등
##프랑스
sur
이요
메뚜기
하루키
겟타
비무장
종장
질기
돈독
유생
보이콧
위협받
아우터
910
Gar
커리큘럼
동국대학교
항속거리
선지자
우가
원대
히로인
주먹밥
##화단
우타이
리암
##밸
##착오
작사가
한손검
아랑곳
이레귤러
모랄
원탁
##관중
키라리
송금
008
##맞이
블로거
1889
미하엘
##소방서
##아채
속셈
용법
츠구미
빈사상태
조인성
에르난데스
함흥
269
창업주
미형
순애
##글로
탈선
##라도나
수십만
JS
##하리
공덕
##체고
버질
문지기
엄정
민주노동당
미라쥬
사법부
동질
##품질
명성황후
스크린도어
진천
##각류
외질
커스터
##아이스
아나톨리아
이산화탄소
입담
##팀장
성우극회
장전속도
mon
만달러
용검
##널목
메이든
레인즈
##지원청
그럴싸
다목적
위배
연신
명부
초성
##테마
##예보
실패작
도망다니
엠브리오
def
##입장권
애니멀
경제학자
옥스퍼드
TER
##계산
데코
##클러
##트로스
LH
##타주
리액
패링
APEX
카즈토
mag
가타
일말
##수기
캐롤라
##돌격
나이키
꽃미남
기념관
레버쿠젠
벤제마
Wild
내시
원톱
캐주얼
##덧
Plat
느림
집념
농지
밤중
핀잔
Ze
##럴리
니시키
물거품
총기류
녹색당
플릭
##ios
어조
그정도
포츠
알콜
사우루스
##스민
##호스
심성
##andy
인상깊
스턴트
안무가
소타
##레트
##감옥
다이쇼
내리막
알라라크
다혈질
DRA
##사수
부다
눈사람
도재욱
##주문
제미니
신랑
양덕
압록
퇴위
행정학
음양사
이카리
가망
고액
인파
재치
황성
학군
급작
##uh
미에
공론
카잔
운좋
손전등
선취점
아리스토텔레스
전군
정년
##티즈
불순
난이
소신
롤스터
피처링
##아야
##제기
젯
한자리
못잡
답하
자유민주당
뒷편
##몽골
리스본
나침반
일점
극치
지원금
온실
남장
권외
국가정보원
웹소설
##사이어티
##킨슨
수집가
벼랑
쥐어짜
||
##어치
부축
##부부
디비시
홍백
296
고교급
이데아
fire
##LV
장경
[...]
