[PAD]	0
[UNK]	0
[BOS]	0
[EOS]	0
[CLS]	0
[SEP]	0
[MASK]	0
▁▃	-0
▁ㅇ	-1
▁ㄱ	-2
▁ㄷ	-3
▁ㅎ	-4
▁ㅇㅣ	-5
ㅡㄹ	-6
▁ㅈ	-7
▁ㅅ	-8
▁ㄴ	-9
ㅡㄴ	-10
▁ㅎㅏ	-11
▁ㄷㅏ	-12
▁ㅂ	-13
▁.	-14
▁ㅇㅔ	-15
ㅏㅇ	-16
▁ㅁ	-17
▁ㄹ	-18
▁ㅇㅢ	-19
▁ㅇㅡㄹ	-20
ㅏㄴ	-21
▁ㄴㅡㄴ	-22
▁ᆫ	-23
ㅓㄴ	-24
ㅕㄴ	-25
ㅗㅇ	-26
▁ㅇㅏ	-27
▁ㅇㅓ	-28
▁,	-29
ㅅㅓ	-30
▁ㅊ	-31
ㅣㄴ	-32
ㅕㅇ	-33
ㅏㄹ	-34
▁ㅇㅡㄴ	-35
▁ㄱㅏ	-36
ㅏㄱ	-37
ㅜㄴ	-38
ㅗㄱ	-39
ㅓㅇ	-40
▁ㅍ	-41
ㅜㄱ	-42
▁1	-43
▁ㄱㅗ	-44
▁ㄷㅚ	-45
▁ㅈㅣ	-46
▁ㄹㅡㄹ	-47
ㅜㄹ	-48
ㅈㅣ	-49
▁ㅇㅓㅆ	-50
ㄹㅣ	-51
▁ㅇㅕ	-52
ㅅㅡ	-53
ㅜㅇ	-54
▁ㅌ	-55
▁ㄴㅕㄴ	-56
ㅎㅏ	-57
▁ㄹㅗ	-58
ㅅㅣ	-59
▁ㄱㅣ	-60
ㅐㅇ	-61
▁ㅇㅡㄹㅗ	-62
▁ㅅㅣ	-63
▁ㄱㅘ	-64
▁2	-65
▁ㅇㅔㅅㅓ	-66
ㅗㄴ	-67
▁ㅇㅣㅆ	-68
ㅇㅣ	-69
▁ㅇㅣㄹ	-70
ㅡㅁ	-71
▁ㅇㅏㅆ	-72
▁ㄷㅐ	-73
ㅏㅁ	-74
ㅡㅇ	-75
ㅓㄱ	-76
▁ㅋ	-77
ㄷㅏ	-78
▁ㄷㅗ	-79
ㅝㄴ	-80
▁ㅇㅘ	-81
▁ㄷㅡㄹ	-82
▁ㄸ	-83
ㅓㅂ	-84
ㅓㄹ	-85
ㅕㄱ	-86
ㅗㄹ	-87
ㄱㅜㄱ	-88
ㄱㅣ	-89
▁ᆫㄷㅏ	-90
ㅣㅇ	-91
ㅓㅁ	-92
ㅅㅏ	-93
▁ㅈㅓㄴ	-94
▁ㄱㅡ	-95
▁ㅅㅏㅇ	-96
▁ㅈㅓㄱ	-97
▁20	-98
ㅓㅅ	-99
ㅝㄹ	-100
ㅐㄱ	-101
▁ㅈㅜㅇ	-102
▁ㅅㅜ	-103
ㅎㅘ	-104
ㅈㅏㅇ	-105
ㅈㅏ	-106
ㄷㅗ	-107
▁ㅇㅝㄹ	-108
▁ㅇㅣㄴ	-109
ㅊㅣ	-110
▁ㅈㅔ	-111
ㅛㅇ	-112
▁19	-113
ㅑㅇ	-114
ㅈㅓㅇ	-115
▁ㅇㅟ	-116
▁ㅈㅓㅇ	-117
▁ᆯ	-118
ㅂㅜ	-119
ㅣㄹ	-120
ㄷㅐ	-121
▁ㄱㅗㅇ	-122
▁ㅇㅠ	-123
▁ㅎㅘ	-124
ㅕㄹ	-125
▁ㅅㅔ	-126
ㄷㅡ	-127
▁ㅂㅜ	-128
▁ㅇㅡㅁ	-129
▁ㅇㅕㅆ	-130
ㅅㅜ	-131
ㅅㅏㅇ	-132
ㅅㅓㅇ	-133
▁ㄱㅔ	-134
▁ㄱㅕㅇ	-135
▁ㅅㅓㅇ	-136
ㅈㅓㄴ	-137
▁ㅁㅣ	-138
▁ㅈㅏ	-139
ㅈㅔ	-140
ㅌㅡ	-141
ㄷㅗㅇ	-142
▁ㄱㅓㅅ	-143
▁ㅎㅏㄴ	-144
ㄱㅏ	-145
▁3	-146
ㅌㅓ	-147
ㅎㅏㄱ	-148
ㅔㄹ	-149
▁ㅁㅏ	-150
ㄱㅜ	-151
▁ㄷㅗㅇ	-152
▁"	-153
▁ㄱㅐ	-154
▁ㅈㅜ	-155
ㅎㅚ	-156
▁ㄷㅡㅇ	-157
▁ㅅㅓㄴ	-158
ㅇㅝㄴ	-159
▁ㄷㅏㅇ	-160
▁ㅅㅏ	-161
▁ㅂㅏ	-162
▁ㄲ	-163
▁ㅁㅏㄴ	-164
ㄱㅘ	-165
ㅗㅅ	-166
▁ㄱㅡㄹ	-167
▁ㅂㅏㄹ	-168
ㅈㅜ	-169
▁ㅇㅕㄴ	-170
ㅡㄱ	-171
▁ㅇㅕㅇ	-172
ㅔㅇㅣ	-173
▁ㄱㅜㄱ	-174
ㅣㄱ	-175
▁ㅂㅗ	-176
▁ㅁㅕ	-177
▁V	-178
▁ㅅㅡ	-179
▁ㅈㅏㅇ	-180
ㅣㅁ	-181
▁ㅇㅗ	-182
▁ㅍㅡㄹ	-183
▁ㄴㅏ	-184
ㅇㅓ	-185
▁ㅁㅕㄴ	-186
ㄱㅛ	-187
▁ㅇㅡㅁㅕ	-188
ㅇㅣㄴ	-189
ㅔㄴ	-190
ㅏㅇㅣ	-191
ㅁㅜㄴ	-192
▁201	-193
ㅅㅏㄴ	-194
ㄱㅖ	-195
ㅎㅏㄴ	-196
▁'	-197
ㅁㅣㄴ	-198
▁4	-199
ㅅㅣㄴ	-200
▁ㅅㅣㄴ	-201
▁ㅈㅗ	-202
▁ㅂㅏㅇ	-203
▁ㄱㅘㄴ	-204
ㅐㄴ	-205
▁ㅁㅕㅇ	-206
▁ㄷㅏㄴ	-207
ㄹㅗ	-208
ㅁㅏㄴ	-209
▁ㅁㅗ	-210
ㅏㅈㅣ	-211
ㄷㅏㄴ	-212
ㅅㅣㄱ	-213
▁ㄱㅜ	-214
▁ㅇㅏㄴ	-215
▁5	-216
ㅋㅣ	-217
▁ㅈㅣㄴ	-218
▁ㄸㅐ	-219
▁ㅇㅏㄹ	-220
▁200	-221
ㅇㅏ	-222
▁-	-223
▁ㄷㅏㄹ	-224
▁ㅎㅜ	-225
ㅈㅏㄱ	-226
▁ㄱㅏㅇ	-227
▁ㄷㅓㄴ	-228
ㅊㅔ	-229
▁ㅇㅕㄱ	-230
▁ㅈㅏㄱ	-231
ㄱㅗ	-232
ㅈㅐ	-233
▁ㅂㅣ	-234
▁ㅁㅜㄴ	-235
▁ㄴㅏㅁ	-236
ㅓㄴㅏ	-237
▁ㅅㅏㄹ	-238
ㅇㅕㄱ	-239
ㅏㄹㅡ	-240
ㅁㅕㅇ	-241
ㅅㅗ	-242
ㄷㅔ	-243
ㅎㅣ	-244
▁ㅂㅜㄹ	-245
ㄷㅡㄹ	-246
ㅎㅐㅇ	-247
▁ㅆ	-248
▁ㅌㅗㅇ	-249
ㅑㄱ	-250
ㅎㅜ	-251
▁ㅇㅝㄴ	-252
ㅜㅁ	-253
ㅈㅗ	-254
ㄱㅔ	-255
ㅏㄱㅗ	-256
▁ㅎㅕㄴ	-257
▁ㄱㅖ	-258
▁ㄱㅜㄴ	-259
ㄷㅏㅇ	-260
ㅂㅗㄴ	-261
▁ㄱㅏㅌ	-262
▁ㅂㅜㄴ	-263
ㅂㅣ	-264
ㄱㅗㅇ	-265
ㅇㅜ	-266
▁6	-267
▁ㅁㅏㄹ	-268
▁ㅎㅏㄱ	-269
ㅁㅜㄹ	-270
ㅋㅡ	-271
▁ㅅㅗ	-272
ㅅㅓㄴ	-273
▁ㅇㅏㄶ	-274
▁ㅅㅐㅇ	-275
▁ㄴㅗ	-276
▁ㅊㅜㄹ	-277
▁ㅂㅏㄷ	-278
ㅡㄹㄹ	-279
▁ㄲㅏㅈㅣ	-280
ㅈㅜㅇ	-281
ㅁㅏ	-282
ㅂㅏㄴ	-283
ㅇㅣㄹ	-284
▁ㄱㅕㄹ	-285
ㄱㅏㄴ	-286
▁ㅎㅚ	-287
ㄱㅜㄴ	-288
▁ㅇㅕㄹ	-289
▁ㄷㅐㅎㅏ	-290
▁ㅇㅔㄱㅔ	-291
▁ㅈㅣㅂ	-292
ㄱㅘㄴ	-293
▁ㅈㅗㅇ	-294
▁ㅂㅓㄴ	-295
▁ㅂㅏㄴ	-296
▁ㄱㅛ	-297
▁7	-298
▁ㄱㅏㄴ	-299
ㄹㅗㄱ	-300
▁ㅊㅚ	-301
▁ㅇㅖ	-302
▁10	-303
▁8	-304
▁ㄴㅐ	-305
ㄹㅕㄱ	-306
▁ㄹㅏㄴ	-307
▁ㅇㅟㅎㅏ	-308
ㅌㅏ	-309
▁ㅇㅗㄹ	-310
▁ㅎㅐ	-311
ㄹㅣㅂ	-312
ㅈㅣㄴ	-313
ㅇㅢ	-314
▁ㅅㅣㄹ	-315
▁ㅅㅓㄹ	-316
▁ㄹㅏ	-317
ㅇㅏㄴ	-318
ㅋㅏ	-319
▁ㅈㅣㅁㅏㄴ	-320
ㅂㅗ	-321
▁ㅎㅕㅇ	-322
ㅇㅟ	-323
ㅁㅣ	-324
ㅌㅗㅇ	-325
ㅌㅗ	-326
ㅇㅛㅇ	-327
ㅍㅛ	-328
▁ㅎㅐㅇ	-329
▁ㅍㅗ	-330
▁ㅎㅗ	-331
▁ㅂㅜㅌㅓ	-332
ㅇㅓㅂ	-333
ㅅㅐㅇ	-334
ㅈㅗㅇ	-335
▁ㅅㅏㅁ	-336
ㅎㅗ	-337
▁ㄷㅜ	-338
ㅣㅇㅏ	-339
ㅍㅡ	-340
ㄹㅠ	-341
▁ㅇㅓㅄ	-342
▁ㅅㅏㅇㅛㅇ	-343
▁9	-344
ㅣㅅㅡ	-345
▁ㅁㅣㄱㅜㄱ	-346
ㅂㅜㄴ	-347
▁ㅅㅓ	-348
ㅡㅂ	-349
▁ㅇㅜ	-350
▁ㅇㅣㅂ	-351
▁ㅊㅏ	-352
▁ㄹㅏㄱㅗ	-353
▁ㅎㅏㅁ	-354
▁ㅂㅗㅇ	-355
ㅂㅏㄹ	-356
▁ㅇㅣㅎㅜ	-357
▁ㅅㅏㄴ	-358
ㅅㅗㄱ	-359
▁ㄹㅏㄴㅡㄴ	-360
▁ㅊㅓㅇ	-361
▁ㅇㅛ	-362
ㅈㅓㄱ	-363
▁ㄷㅗㄱ	-364
▁ㅅㅡㅇ	-365
▁ㅌㅡㄱ	-366
▁ㄷㅔ	-367
ㅎㅏㅂ	-368
ㅁㅕㄴ	-369
▁ㅁㅣㄴ	-370
ㅂㅓㅂ	-371
▁ㅇㅣㄹㅂㅗㄴ	-372
▁ㅉ	-373
▁ㅁㅕㄴㅅㅓ	-374
ㅓㅈㅣ	-375
▁ㄱㅏㅁ	-376
▁ㅇㅜㄴ	-377
ㅎㅐ	-378
ㅅㅡㅇ	-379
▁ㅎㅘㄹ	-380
▁ㅁㅜㄹ	-381
▁ㄸㅗ	-382
ㅇㅕㅇ	-383
ㄱㅕㅇ	-384
▁ㄴㅡㄴㄷㅔ	-385
▁ㅈㅐ	-386
▁ㄱㅝㄴ	-387
▁ㅂㅗㄴ	-388
▁ㅅㅗㄱ	-389
▁ㅁㅗㄷ	-390
ㅇㅣㅁ	-391
ㅣㅂ	-392
▁ㅁㅜ	-393
▁ㄱㅓ	-394
ㅈㅣㄱ	-395
ㅅㅡㅌ	-396
ㅍㅗ	-397
▁ㅈㅣㄱ	-398
▁ㅋㅡ	-399
ㄱㅕㄱ	-400
ㅏㄹㅏ	-401
ㅇㅠ	-402
▁ㅇㅘㅇ	-403
▁ㅇㅑㅇ	-404
▁ㄱㅣㅁ	-405
▁ㅂㅜㄱ	-406
ㅁㅣㄴㄱㅜㄱ	-407
ㅂㅏㅇ	-408
ㅅㅓㄹ	-409
▁ㄷㅐㅎㅏㄴ	-410
▁ㄷㅏㅇㅡㅁ	-411
▁199	-412
▁ㅈㅣㅇㅕㄱ	-413
ㅋㅗ	-414
▁ㄱㅓㄴ	-415
ㅅㅣㄹ	-416
▁ㅇㅡㄴㅏ	-417
ㅕㅂ	-418
▁ㅁㅗㄱ	-419
▁ㅁㅣㅊ	-420
▁ㅍㅕㅇ	-421
ㅈㅡ	-422
▁ㅊㅗㅇ	-423
ㅈㅗㄱ	-424
▁12	-425
ㄹㅏ	-426
▁ㄷㅐㅎㅏㄴㅁㅣㄴㄱㅜㄱ	-427
▁ㅊㅜㄱ	-428
▁ㅁㅏㄶ	-429
ㅈㅓㅁ	-430
ㄷㅡㅇ	-431
ㅊㅏ	-432
▁ㄸㅏㄹㅡ	-433
▁ㅊㅏㅁ	-434
ㄱㅓ	-435
▁18	-436
ㅅㅔ	-437
ㅅㅜㄹ	-438
ㅏㄹㅣ	-439
ㅇㅛ	-440
ㄹㅕㅇ	-441
▁ㄱㅕㅇㄱㅣ	-442
▁ㅊㅗ	-443
▁ㅂㅗㄱ	-444
▁ㄷㅐㅎㅏㄱ	-445
▁ㄱㅏㅈㅣ	-446
ㄷㅗㄱ	-447
ㄹㅔ	-448
▁ㄷㅏㄹㅡㄴ	-449
ㅅㅣㅁ	-450
ㄱㅏㄱ	-451
00	-452
▁;	-453
▁ㄷㅏㄱㅗ	-454
ㅕㅁ	-455
▁ㅇㅢㅎㅏ	-456
ㅊㅜㄹ	-457
▁M	-458
▁ㅇㅚ	-459
ㅉㅗㄱ	-460
ㅐㅇㅜ	-461
ㅎㅕㅇ	-462
▁ㄱㅡㄴ	-463
ㅌㅐ	-464
▁ㅋㅗ	-465
or	-466
▁ㅇㅣㅁ	-467
ㅗㅅㅓㄴ	-468
▁ㅇㅑ	-469
▁S	-470
ㅎㅕㄴ	-471
▁ㄱㅏㄱ	-472
▁ㅊㅓㄹ	-473
▁ㅃ	-474
ㅍㅏ	-475
ㅅㅓㄱ	-476
▁ㅂㅓㅂ	-477
ㅐㅁ	-478
▁11	-479
ㅁㅗ	-480
▁ㅊㅓㄴ	-481
▁ㅎㅏㅇ	-482
ㅎㅑㅇ	-483
▁ㄸㅐㅁㅜㄴ	-484
▁ㅅㅣㅈㅏㄱ	-485
▁ㅂㅕㄴ	-486
ㅁㅜ	-487
ㄹㅏㄴ	-488
▁ㄹㅣ	-489
ㅍㅏㄴ	-490
▁ㅍㅛ	-491
▁ㄹㅔ	-492
ㅊㅓㄴ	-493
▁ㅅㅣㅋㅣ	-494
▁ㅇㅛㅇ	-495
▁ㅈㅓㅁ	-496
ㅍㅜㅁ	-497
ㅌㅡㄹ	-498
ㄲㅔ	-499
▁ᄆ	-500
▁&	-501
▁ㅂㅏㄱ	-502
▁ㅌㅣㅁ	-503
▁A	-504
▁ㅅㅏㄹㅏㅁ	-505
▁ㅇㅏㅇ	-506
▁ㅁㅔ	-507
ㅇㅕㄴ	-508
▁ㅎㅏㅁㄲㅔ	-509
ㅈㅐㅇ	-510
▁ㅊㅔ	-511
ㅓㅅㅡ	-512
▁ㅂㅐ	-513
ㅇㅏㄱ	-514
▁ㄸㅗㅎㅏㄴ	-515
ㅎㅏㅇ	-516
▁)	-517
▁ㅅㅓㄴㅅㅜ	-518
▁ㅋㅏ	-519
▁ㅇㅑㄱ	-520
▁ㅎㅏㄴㄱㅜㄱ	-521
▁ㅇㅏㅅㅓ	-522
▁ㄷㅓ	-523
la	-524
▁ㅇㅕㅇㅎㅘ	-525
▁ㅇㅐ	-526
▁ㄱㅘㅇ	-527
▁ㅅㅔㄱㅖ	-528
ㅌㅏㄴ	-529
▁ㅈㅜㄱ	-530
▁ㅅㅣㅈ	-531
ㅏㅇㅗ	-532
▁ㅌㅏ	-533
ㅡㅅ	-534
▁ㅍㅏ	-535
▁ㅍㅏㄴ	-536
▁ㅇㅓㄴ	-537
▁ㅂㅡㄹ	-538
▁ㅆㅡ	-539
▁C	-540
▁ㅂㅐㄱ	-541
▁ㅊㅏㅇ	-542
▁f	-543
ㅂㅏ	-544
ㅊㅓㅇ	-545
ㅇㅑ	-546
▁ㄱㅗㄱ	-547
ㅅㅗㅇ	-548
▁ㄱㅕㅇㅇㅜ	-549
▁ㅅㅐ	-550
▁ㅈㅏㅅㅣㄴ	-551
▁ㅈㅗㄴ	-552
ㅐㄴㄷㅡ	-553
▁ㅁㅏㅇ	-554
▁ㄴㅔ	-555
ㅎㅏㅁ	-556
▁ㅌㅗㅇㅎㅏ	-557
▁T	-558
▁ㅎㅕㄴㅈㅐ	-559
▁I	-560
▁F	-561
▁ㄷㅟ	-562
▁ㅍㅣㄹ	-563
▁ㄱㅗㄹ	-564
ㅈㅜㄴ	-565
▁ㅅㅏㅇㅣ	-566
ㅌㅣ	-567
▁ㅇㅣㄹㅡㅁ	-568
▁ㅅㅏㄱ	-569
▁ㅍㅣ	-570
▁198	-571
▁ㄱㅣㄹㅗㄱ	-572
▁ㄹㅣㄱ	-573
▁ㅍㅕㄴ	-574
ㅇㅑㄱ	-575
▁ㅎㅘㄱ	-576
▁ㄱㅜㄱㄱㅏ	-577
▁_	-578
ㅈㅣㄹ	-579
▁ㅇㅟㅊㅣ	-580
▁ㅁㅐ	-581
▁ㅊㅜ	-582
▁ㄱㅏㅈㅏㅇ	-583
▁ㅇㅏㄴㅣ	-584
▁ㄱㅡㅁ	-585
▁ㅈㅜㄹ	-586
▁ㄷㅏㅇㅅㅣ	-587
▁ㅅㅣㅁ	-588
▁(	-589
▁ㄷㅏㄴㅡㄴ	-590
▁ㅎㅏㅂ	-591
▁ㅎㅏㄱㄱㅛ	-592
ㅊㅗ	-593
ㅅㅕㄴ	-594
▁ㅈㅗㅅㅓㄴ	-595
ㄷㅣㅇ	-596
▁ㅎㅘㄹㄷㅗㅇ	-597
▁ㅅㅣㄱ	-598
▁ㅎㅏㄴㅏ	-599
ㅅㅣㅇㅏ	-600
▁for	-601
▁ㄹㅣㄱㅡ	-602
▁ㅁㅏㄴㄷㅡㄹ	-603
ㅡㄹㅣ	-604
▁15	-605
ㅓㄹㅣ	-606
▁ㄱㅠ	-607
mu	-608
▁ㅇㅣㄴㅏ	-609
ㅁㅐ	-610
▁ㅈㅡㅇ	-611
ㅈㅜㅇㅢ	-612
ㄷㅣ	-613
▁ㄱㅡㄹㅓㄴㅏ	-614
▁ㅂㅗㅇㅣ	-615
▁ㄷㅗㄹ	-616
▁ㅁㅗㅅ	-617
▁ㅅㅗㄴ	-618
mula	-619
▁formula	-620
▁ㅉㅐ	-621
ㄹㅣㅇㅏ	-622
▁ㅂㅔ	-623
ㅇㅑㅇ	-624
ㄴㅏㅁ	-625
ㅂㅕㅇ	-626
ㅍㅕㄴ	-627
ㅘㅇ	-628
ㅂㅗㄱ	-629
▁ㅅㅜㅇ	-630
▁ㅅㅗㅇ	-631
▁ㅌㅗ	-632
▁ㅇㅜㄹ	-633
ㄹㅣㅁ	-634
▁16	-635
▁ㅈㅗㄱ	-636
▁ㅍㅡㄹㅏㅇ	-637
ㅗㄴㅡㄴ	-638
▁ㅎㅘㅇ	-639
▁ㅅㅓㄱ	-640
▁ㄸㅗㄴㅡㄴ	-641
▁ㅅㅜㄴ	-642
ㅣㄱㅗ	-643
▁ㄷㅐㅍㅛ	-644
ㅔㄹㅡ	-645
▁ㅊㅜㅇ	-646
▁ㄱㅡㄱ	-647
ㅡㄹㅗ	-648
▁ㅈㅓ	-649
▁ㅂㅕㅇ	-650
▁ㅇㅠㄹ	-651
▁ㄱㅣㄹ	-652
▁ㅁㅗㅇ	-653
ㅌㅏㄹ	-654
ㅂㅕㄹ	-655
▁/	-656
▁ㅇㅣㄱ	-657
ㅂㅜㅌㅓ	-658
ㅗㄹㅡ	-659
ㅅㅐㄱ	-660
▁m	-661
ㄷㅏㄹ	-662
ㅎㅘㄴ	-663
ㅎㅘㅇ	-664
▁ㄱㅡㄹㅣㄱㅗ	-665
▁0	-666
▁ㅈㅏㄹ	-667
▁D	-668
ㅁㅗㄱ	-669
ㄱㅏㅇ	-670
▁ㅅㅏㅎㅚ	-671
▁ㅇㅏㅍ	-672
▁ㄴㅗㅇ	-673
ㄱㅕㄴ	-674
▁17	-675
ㅊㅣㅇ	-676
▁ㅁㅣㄹ	-677
ㅎㅓㅁ	-678
▁ㅅㅣㅈㅡㄴ	-679
▁ㅇㅕㄴㄱㅜ	-680
ㅘㄴ	-681
▁ㅊㅓㅅ	-682
▁ㅂㅣㄹ	-683
▁197	-684
▁ㄹㅜ	-685
▁B	-686
ㄴㅏ	-687
ㅌㅜ	-688
ㅏㄱㅏ	-689
ㄱㅡㅂ	-690
ㄷㅜ	-691
▁ㅇㅓㅅㅓ	-692
ㅊㅏㄹ	-693
▁ㅌㅜ	-694
ㅇㅕ	-695
▁ㄴㅗㄹ	-696
▁]	-697
ㄹㅕㄴ	-698
▁ㅌㅡㄹ	-699
▁ㅂㅗㄷㅏ	-700
▁[	-701
ㅅㅡㅂ	-702
ㄱㅕㄹ	-703
▁ㄴㅗㅍ	-704
▁ㅇㅘㄴ	-705
▁ㅌㅐㅇ	-706
▁ㅇㅏㄹㄹㅣ	-707
ㄹㅛ	-708
▁ㄴㅣ	-709
▁ㅈㅜㅇㄱㅜㄱ	-710
▁ㅅㅡㅌ	-711
▁ㅇㅏㅂ	-712
▁ㅎㅕㅂ	-713
▁ㅅㅓㅇㅜㄹ	-714
▁ㅍㅡㄹㅗ	-715
ㅎㅏㄱㄱㅛ	-716
▁K	-717
▁ㅇㅏㅁ	-718
ㅊㅡ	-719
▁:	-720
ㅂㅜㄱ	-721
▁ㅁㅗㅅㅎㅏ	-722
▁ㄷㅏㅅㅣ	-723
▁ㅇㅕㅇㄱㅜㄱ	-724
ㅈㅣㅂ	-725
▁ㅅㅣㄷㅐ	-726
▁ㅍㅐ	-727
▁ㅂㅜㅇ	-728
▁ㅌㅔ	-729
▁ㅌㅐ	-730
▁ㅍㅗㄱ	-731
▁ㄷㅣ	-732
ㄱㅐ	-733
▁k	-734
▁ㄸㅡㅅ	-735
▁ㄷㅗㅅㅣ	-736
▁ㅍㅗㅎㅏㅁ	-737
ㅇㅏㅇ	-738
▁ㅈㅓㅇㅂㅜ	-739
▁ㄲㅡ	-740
▁ㅍㅡㄹㅏㅇㅅㅡ	-741
ㄹㅓ	-742
▁ㅅㅜㄹ	-743
▁ㄱㅣㄴ	-744
▁ㅅㅓㅁ	-745
▁ㄱㅜㅇ	-746
▁ㅇㅔㄴ	-747
ㅇㅓㅈㅣ	-748
▁196	-749
▁ㅇㅠㄴ	-750
▁14	-751
▁ㅅㅓㅂ	-752
▁ㅅㅡㅍ	-753
ㅅㅡㅌㅡ	-754
ㅂㅓㅁ	-755
ㅈㅓ	-756
▁ㅋㅡㄹ	-757
▁ㄱㅛㅇ	-758
ㄱㅡㄴ	-759
▁ㅇㅕㄹㅓ	-760
▁ㅈㅓㄴㅈㅐㅇ	-761
ㅇㅗ	-762
er	-763
ㄹㅐ	-764
▁ㄹㅓ	-765
ㄹㅑㅇ	-766
▁~	-767
▁ㅂㅏㄲ	-768
▁ㄷㅐㅎㅚ	-769
▁ㅇㅗㄴ	-770
ㄱㅗㄱ	-771
▁ㄷㅗㄱㅇㅣㄹ	-772
▁ㄹㅗㅅㅓ	-773
ㅇㅓㄴㅏ	-774
▁ㅂㅐㅇㅜ	-775
▁ㅊㅜㄱㄱㅜ	-776
▁ㅁㅜㄴㅎㅘ	-777
ㅠㄱ	-778
▁13	-779
▁ㅂㅕㄹ	-780
▁g	-781
ㅋㅔ	-782
ㄱㅠ	-783
▁ㅊㅟ	-784
▁P	-785
ㅊㅜ	-786
in	-787
▁ㅇㅟㅇㅝㄴ	-788
ㅇㅣㅂ	-789
▁ㄱㅏㄴㅡㅇ	-790
▁ㄷㅏㄱㅏ	-791
ㅓㅎ	-792
▁ㄴㅠ	-793
▁ㅁㅗㄷㅜ	-794
▁ㅇㅣㅅㅏㅇ	-795
▁ㅊㅣㄴ	-796
▁ㄱㅏㅈ	-797
▁ㄱㅓㅁ	-798
▁ㄷㅗㅇㅇㅏㄴ	-799
▁ㄴㅏㄴ	-800
▁ㅎㅐㄱ	-801
▁ㅎㅗㅇ	-802
▁ㅁㅗㄷㅡㄴ	-803
▁ㅇㅓㄹ	-804
▁194	-805
▁ㅂㅏㅇㅅㅗㅇ	-806
ㅈㅗㄴ	-807
▁ㄱㅏㅁㄷㅗㄱ	-808
▁ㄱㅏㄹ	-809
ㅂㅗㅇ	-810
▁ㅎㅘㄴ	-811
ㄱㅝㄴ	-812
ㅎㅏㄹ	-813
ㅊㅜㄱ	-814
ㅍㅣ	-815
▁ㅁㅏㄱ	-816
▁ㄱㅓㄹ	-817
▁ㄷㅐㅎㅏㄱㄱㅛ	-818
▁ㄴㅏㄹ	-819
▁l	-820
ㅜㅅㅡ	-821
▁ㄱㅐㅂㅏㄹ	-822
▁ㅁㅏㅌ	-823
▁ㄱㅐㅇ	-824
ㅏㅇㅣㄴ	-825
▁ㅇㅣㄹㅂㅜ	-826
▁L	-827
▁ㄴㅡㄴㄷㅏ	-828
▁ㅇㅏㅇㅣ	-829
▁ㅈㅔㅈㅏㄱ	-830
ㅂㅓ	-831
ㅇㅓㄴ	-832
▁ㅈㅣㅂㅏㅇ	-833
▁ㅊㅓㅇㅡㅁ	-834
ㅇㅡㅁ	-835
▁ㅁㅜㄴㅈㅔ	-836
ㅍㅣㄱ	-837
ㄹㅗㄴ	-838
▁ㅅㅗㅅ	-839
ㄱㅡㅁ	-840
ㅠㄹ	-841
ㄹㅗㅂ	-842
▁ㄱㅜㅅㅓㅇ	-843
▁ㅋㅡㄹㄹ	-844
▁ㅇㅠㄱ	-845
▁ㄱㅜㄱㅈㅔ	-846
▁ㄴㅗㄴ	-847
▁%	-848
▁ㅇㅣㄴㅎㅏ	-849
▁ㄱㅔㅇㅣㅁ	-850
ㅍㅕㅇ	-851
▁ㅋㅏㄹ	-852
▁ㅇㅣㅇ	-853
▁ㄷㅏㅁ	-854
▁ㅈㅜㄴ	-855
ㅊㅓㄹ	-856
▁ㅅㅏㄱㅓㄴ	-857
ㄷㅏㅁ	-858
ㄱㅘㅇ	-859
▁ㅇㅣㄹㅂㅏㄴ	-860
▁ㅅㅔㄱㅣ	-861
▁ㅇㅣㅇㅛㅇ	-862
ㄹㄹㅣ	-863
▁ㅅㅣㄱㅏㄴ	-864
▁G	-865
▁N	-866
▁ㄱㅗㅅ	-867
▁ㄲㅡㅌ	-868
ㅏㅁㅏ	-869
ㅜㄹㅡ	-870
ㄷㅗㄹ	-871
ㅈㅣㅇ	-872
▁ㅈㅏㄱㅍㅜㅁ	-873
ㅈㅓㄹ	-874
▁ㅎㅑㅇ	-875
▁ㅈㅗㄴㅈㅐ	-876
▁ㅊㅣ	-877
▁ㅆㅣ	-878
ㅅㅏㄹ	-879
▁ㅇㅜㄴㄷㅗㅇ	-880
▁ㅇㅣㄴㄱㅜ	-881
▁ㅈㅓㅂ	-882
▁ㄱㅡㅂ	-883
ㅂㅡ	-884
▁gt	-885
▁ㅈㅓㅇㄷㅗ	-886
▁ㅈㅣㄹ	-887
on	-888
▁ㅊㅗㄱ	-889
▁km	-890
ㅌㅔ	-891
▁195	-892
▁ㅍㅏㄹ	-893
ㄴㅐ	-894
▁ㅈㅡㄱ	-895
▁ㄴㅏㅇㅗ	-896
▁ㅈㅜㅈㅏㅇ	-897
▁ㅈㅓㄹ	-898
▁ㅂㅜㄹㅡ	-899
▁ㄱㅛㅇㅠㄱ	-900
ㅎㅚㄱ	-901
▁ㄱㅘㄴㄱㅖ	-902
▁ㅊㅐㄱ	-903
ㅌㅐㄱ	-904
▁U	-905
▁ㅇㅡㅁㅇㅏㄱ	-906
▁ㄱㅟ	-907
▁ㄱㅓㄴㅏ	-908
▁lt	-909
ㅊㅏㅇ	-910
▁ㅍㅗㄹ	-911
▁ㅇㅕㄱㅅㅏ	-912
▁ㅈㅜㅇㅅㅣㅁ	-913
ㅈㅡㅇ	-914
▁ㄴㅏㅌㅏㄴ	-915
ㅁㅏㅇ	-916
ㅌㅓㄴ	-917
▁ㅅㅣㅇ	-918
▁ㅇㅞ	-919
▁R	-920
▁ㅋㅐ	-921
▁ㅈㅓㅇㅊㅣ	-922
ㅊㅏㄱ	-923
▁30	-924
▁ㅅㅠ	-925
▁ㅁㅏㅈ	-926
ㅅㅗㄴ	-927
ㄴㅕㄴ	-928
▁ㅊㅣㄹ	-929
▁ㅇㅣㄹㅓ	-930
▁ㅇㅏㄷㅡㄹ	-931
ㅂㅐ	-932
▁ㅊㅏㄹ	-933
▁H	-934
ㄴㅣ	-935
ㅇㅡㄴ	-936
▁ㅂㅏㄹㄱㅕㄴ	-937
ㅊㅐㄱ	-938
ㅂㅜㅂㅜㄴ	-939
ㅎㅘㄱㅜㄱ	-940
▁E	-941
▁ㅇㅗㄹㄹㅣㅁ	-942
▁ㄱㅕㅇㅈㅔ	-943
▁ㄷㅡ	-944
ㅌㅗㅇㄹㅕㅇ	-945
▁ㅂㅏㄹㅍㅛ	-946
ㄷㅓ	-947
▁ㄴㅐㅇ	-948
▁ㄷㅗㄹㅗㄱ	-949
▁ㅌㅏㅇ	-950
▁ㄱㅣㅅㅜㄹ	-951
ㅊㅓ	-952
ㅋㅡㄹ	-953
ㅂㅕㄴ	-954
▁ㅍㅡㄹㅗㄱ	-955
▁ㅋㅣ	-956
▁ㅂㅓ	-957
▁ㅊㅡㄱ	-958
▁ㅍㅡㄹㄹ	-959
ㅅㅡㄴ	-960
▁ㄷㅐㅇ	-961
▁ㅅㅗㄹ	-962
ㅔㅇㅣㄴ	-963
▁ㅈㅏㅁ	-964
▁ㅇㅜㅅㅡㅇ	-965
▁ㅅㅏㅁㅏㅇ	-966
▁2010	-967
ㄱㅡㄹ	-968
ㅎㅘㄹ	-969
ㅇㅘㅇ	-970
▁ㅇㅗㄹㄹㅣㅁㅍㅣㄱ	-971
▁ㅁㅣㄴㅈㅜ	-972
▁ㄹㅗㅂㅜㅌㅓ	-973
an	-974
ㅈㅓㅂ	-975
ㅋㅜ	-976
ㅁㅏㄱ	-977
▁ㄷㅐㅂㅜㅂㅜㄴ	-978
▁ㅂㅓㅁ	-979
ㅡㄹㅐㅁ	-980
▁ㄷㅐㅌㅗㅇㄹㅕㅇ	-981
▁ㅋㅗㄴ	-982
▁ㄱㅗㅇㄱㅕㄱ	-983
▁ㅂㅜㄹㄹㅣ	-984
▁ㅇㅣㅅ	-985
000	-986
▁ㅈㅏㅂ	-987
▁ㄴㅓㅁ	-988
▁ㅇㅕㅇㅎㅑㅇ	-989
ㅍㅓ	-990
ㅓㄱㅏ	-991
▁ㅇㅕㄹㄹㅣ	-992
▁ㅇㅕㄱㅣ	-993
▁ㅇㅓㅂ	-994
▁ㅈㅣㅇㅝㄴ	-995
ㅔㅅㅡ	-996
▁193	-997
▁ㅍㅡㄹㅗㄱㅡㄹㅐㅁ	-998
ㄷㅏㄴㅡㄴ	-999
ㅔㅁ	-1000
ㅔㅅ	-1001
ㄱㅡㄱ	-1002
▁ㄱㅕㄹㄱㅘ	-1003
▁ㅊㅣㅁ	-1004
▁ㅂㅓㄹ	-1005
▁ㅅㅐㄹㅗㅂ	-1006
▁ㅂㅏㄺ	-1007
▁ㅇㅓㄷ	-1008
▁ㅌㅏㄹ	-1009
ㅏㅂ	-1010
▁ㅎㅛ	-1011
▁c	-1012
▁ㄱㅘㅈㅓㅇ	-1013
▁ㅇㅢㅁㅣ	-1014
ㅎㅗㄴ	-1015
▁ㅌㅏㄴ	-1016
▁ㅈㅜㅇㅇㅏㅇ	-1017
▁ㅈㅓㄴㅌㅜ	-1018
▁ㅊㅏㅁㅇㅕ	-1019
▁ㅇㅠㄹㅓㅂ	-1020
▁ㅂㅏㄹㅅㅐㅇ	-1021
▁ㄱㅘㄴㄹㅕㄴ	-1022
ㅍㅡㄹ	-1023
▁ㅊㅐ	-1024
▁ㅂㅔㄹ	-1025
▁ㅎㅗㄴ	-1026
▁ㅊㅚㅊㅗ	-1027
20	-1028
▁ㅇㅏㄱ	-1029
▁ㅈㅣㄴㅎㅐㅇ	-1030
▁ㅅㅔㄴ	-1031
ㄷㅡㄱ	-1032
▁ㅇㅓㅁ	-1033
▁25	-1034
▁ㅌㅔㄹ	-1035
▁ㅅㅓㄹㄹㅣㅂ	-1036
▁ㄱㅗㄷㅡㅇ	-1037
▁ㅈㅗㅎ	-1038
▁ㅌㅐㅇㅓㄴㅏ	-1039
▁ㅂㅣㅇ	-1040
▁ㅂㅜㅂㅜㄴ	-1041
▁ㅊㅗㄷㅡㅇ	-1042
ㅆㅓ	-1043
▁ㄷㅗㄱㄹㅣㅂ	-1044
ㅜㄹㅣ	-1045
▁ㅅㅗㄱㅎㅏ	-1046
▁ㄷㅏㅇㅑㅇ	-1047
▁ㅅㅓㄹㅊㅣ	-1048
ㄱㅏㅁ	-1049
ㅜㅂ	-1050
▁ㅅㅔㅇㅜ	-1051
▁ㅍㅏㅇ	-1052
▁ㅁㅗㄹ	-1053
▁ㅇㅐㄹ	-1054
ㅌㅡㄴ	-1055
▁ㅌㅡㄱㅎㅣ	-1056
▁ㄱㅜㅈㅗ	-1057
▁ㅈㅔㄱㅜㄱ	-1058
▁ㅈㅏㅇㅠ	-1059
▁ㅂㅏㄹㅁㅐ	-1060
▁ㅍㅖ	-1061
▁ㅎㅕㅇㅌㅐ	-1062
▁ㅅㅗㅅㅗㄱ	-1063
▁2008	-1064
▁ㄱㅕㄹㅈㅓㅇ	-1065
▁W	-1066
ㅈㅣㅁㅏㄴ	-1067
▁ㅇㅣㄹㅜ	-1068
▁ㅅㅏㅇㅌㅐ	-1069
ㄹㅜ	-1070
▁ㅂㅡㄹㄹ	-1071
ㄹㅣㄱ	-1072
▁ㄷㅏㅇㅎㅏ	-1073
ㅔㅇㅣㅅㅕㄴ	-1074
▁21	-1075
▁ㄷㅡㄹㅇ	-1076
▁ㄹㅔㅇㅣ	-1077
▁ㅎㅣ	-1078
▁ㅇㅣㅈㅓㄴ	-1079
▁ㄱㅏㅌㅇㅣ	-1080
ㅂㅐㄱ	-1081
ㅌㅣㄴ	-1082
▁ᆫㄷㅏㄴㅡㄴ	-1083
▁ㅈㅘ	-1084
▁ㅇㅏㅇㅑ	-1085
▁ㄹㅣㅇ	-1086
ㄷㅣㅇㅗ	-1087
▁ㅇㅣㄹㅇㅓㄴㅏ	-1088
▁ㄱㅡㄴㅕ	-1089
▁ㅁㅜㅇ	-1090
▁ㅈㅜㄹㅗ	-1091
▁ㅁㅜㄱ	-1092
ㄹㅣㄴ	-1093
▁ㅋㅗㄹ	-1094
▁ㅎㅏㅈㅣㅁㅏㄴ	-1095
▁ㅇㅣㄴㅁㅣㄴ	-1096
▁ㄷㅔㅇㅣ	-1097
▁ㅇㅕㅅㅓㅇ	-1098
▁ㄴㅏㄹㅏ	-1099
▁ㅅㅏㅅㅣㄹ	-1100
▁2012	-1101
▁ㅂㅣㄱ	-1102
▁2011	-1103
▁ㅇㅡㄹㅗㅅㅓ	-1104
▁ㅊㅜㄹㅅㅣㄴ	-1105
ㄷㅓㄱ	-1106
▁ㅅㅓㄴㄱㅓ	-1107
en	-1108
▁ㄱㅣㅈㅜㄴ	-1109
▁ㅇㅣㄱㅓㅅ	-1110
▁ㄷㅜㄹ	-1111
▁ㅅㅡㄹ	-1112
▁ㅇㅜㄴㅇㅕㅇ	-1113
▁ㅋㅓㅁ	-1114
▁ㄷㅔㅂ	-1115
▁ㅇㅕㅈㅏ	-1116
ㅍㅐ	-1117
▁2007	-1118
▁ㅍㅣㄹㅇㅛ	-1119
▁100	-1120
▁ㅊㅏㅁㄱㅏ	-1121
▁ㅇㅣㅌㅏㄹ	-1122
▁t	-1123
▁2009	-1124
▁ㅇㅟㅇㅝㄴㅎㅚ	-1125
▁2014	-1126
▁ㄱㅘㄴㄹㅣ	-1127
▁ㅈㅗㅈㅣㄱ	-1128
▁ㅎㅐㅇㅈㅓㅇ	-1129
▁ㅅㅐㅇㄱㅏㄱ	-1130
ㄷㅏㄱㅗ	-1131
▁ㄱㅣㄱㅘㄴ	-1132
ㄹㅏㄴㄷㅡ	-1133
▁ㅈㅣㅈㅓㅇ	-1134
ㅅㅜㄴ	-1135
ㄹㅡ	-1136
▁ㄱㅖㅎㅚㄱ	-1137
▁ㅅㅐㅇㅅㅏㄴ	-1138
▁ㅈㅜㅇㅇㅛ	-1139
▁ㄷㅡㅇㅈㅏㅇ	-1140
▁ㅌㅡ	-1141
▁ㅇㅡㅁㅂㅏㄴ	-1142
▁ㄹㅏㅇㅣ	-1143
ㅣㅇㅓㄴ	-1144
ㄹㅏㄱ	-1145
▁a	-1146
ㅇㅕㄹ	-1147
ㅣㅇㅗ	-1148
ㅂㅏㄱ	-1149
▁ㅈㅗㄹ	-1150
▁ㅍㅔ	-1151
▁ㅂㅗㄴㅐ	-1152
▁ㄱㅓㅇ	-1153
ㅏㅇㅜㄴ	-1154
ㅌㅚ	-1155
▁ㅅㅜㄱ	-1156
▁ㅇㅣㄹㅡ	-1157
ㅇㅏㅁ	-1158
▁O	-1159
▁2013	-1160
▁ㄹㅓㅅㅣㅇㅏ	-1161
▁ㄷㅔㅂㅟ	-1162
▁ㅎㅢ	-1163
▁ㄹㅗㅁㅏ	-1164
he	-1165
▁ㅇㅗㅇ	-1166
▁ㅇㅓㄱ	-1167
▁ㅇㅓㄸ	-1168
▁ㅅㅏㅇㄷㅐ	-1169
▁ㅎㅐㄷㅏㅇ	-1170
▁ㄱㅖㅅㅗㄱ	-1171
▁ㅁㅐㅇㅜ	-1172
▁ㅍㅜㅇ	-1173
▁ㅅㅓㅇㄱㅗㅇ	-1174
▁ㄲㅗ	-1175
▁ㅅㅣㄹㅣ	-1176
▁ㅇㅗㄹㅡ	-1177
▁ㅇㅗㄱ	-1178
ㅊㅏㄴ	-1179
▁ㅅㅛ	-1180
▁ㄱㅜㄱㅁㅣㄴ	-1181
▁ㅆㅏㅇ	-1182
ㅎㅢ	-1183
▁ㄷㅐㅈㅓㄴ	-1184
ㄴㅏㄹㅏ	-1185
▁ㅎㅓㄴ	-1186
▁ㅇㅏㅂㅓㅈㅣ	-1187
ㄸㅐ	-1188
ㅂㅡㄹ	-1189
▁ㄱㅘㅎㅏㄱ	-1190
▁ㅇㅐㄴ	-1191
▁ㅈㅜㅇㅛ	-1192
▁ㅈㅓㅇㅂㅗ	-1193
▁191	-1194
▁ㅂㅏㄺㅎㅣ	-1195
▁ㅅㅏㅇㅓㅂ	-1196
▁ㅇㅏㄹㅐ	-1197
ㅓㄴㅣ	-1198
▁ㅈㅏㄹㅣ	-1199
▁ㅂㅗㄹ	-1200
▁23	-1201
▁24	-1202
▁ㄱㅗㄹㅕ	-1203
▁ㅂㅏㄹㅈㅓㄴ	-1204
▁ㅁㅕㅊ	-1205
ar	-1206
▁ㅃㅜㄴ	-1207
▁2015	-1208
▁ㅅㅡㅋ	-1209
▁ㅈㅣㄴㅐ	-1210
ㄹㅣㅇ	-1211
▁ㅊㅏㅈㅣ	-1212
▁2018	-1213
ㅊㅡㄱ	-1214
▁000	-1215
ㅁㅐㅇ	-1216
▁ㅌㅣ	-1217
ㅅㅡㅌㅡㄹ	-1218
▁ㅎㅣㅁ	-1219
▁2016	-1220
▁ㅊㅏㅈ	-1221
▁ㄱㅓㅊㅣ	-1222
ㅣㅇㅓ	-1223
▁ㅂㅣㄴ	-1224
▁ㅇㅣㅇㅠ	-1225
▁ㅂㅏㅇㅂㅓㅂ	-1226
▁ㄱㅡㄹㅜㅂ	-1227
▁ㄴㅡㅇ	-1228
▁ㅇㅝㄹㄷㅡ	-1229
▁ㅊㅓㄹㅓㅁ	-1230
▁ㅋㅜ	-1231
▁ㅇㅐㄹㅂㅓㅁ	-1232
▁ㅋㅏㄴ	-1233
▁ㅇㅜㅇ	-1234
ㅊㅣㅁ	-1235
▁J	-1236
▁ㄴㅗㄱ	-1237
▁ㅇㅣㅌㅏㄹㄹㅣㅇㅏ	-1238
es	-1239
▁ㅊㅜㄹㅇㅕㄴ	-1240
▁ㅅㅣㄹㅣㅈㅡ	-1241
▁ㅁㅗㅁ	-1242
ㅊㅜㅇ	-1243
▁22	-1244
▁ㄱㅗㄷㅡㅇㅎㅏㄱㄱㅛ	-1245
ㄱㅠㄴ	-1246
▁ㅁㅐㄱ	-1247
▁2006	-1248
ㅇㅐ	-1249
▁ㅈㅓㄴㅊㅔ	-1250
▁ㄸㅓㄹ	-1251
ㅆㅡ	-1252
▁ㅌㅓ	-1253
▁ㅅㅐㅇㅎㅘㄹ	-1254
▁ㅇㅣㄹㅜㅇ	-1255
▁ㄱㅘㄴㅎㅏ	-1256
▁ㅇㅣㄹㅜㅇㅓㅈㅣ	-1257
▁ㅁㅐㄴ	-1258
ㅇㅖ	-1259
▁ㅁㅛ	-1260
▁192	-1261
▁ㅊㅡㅇ	-1262
FA	-1263
▁ㅊㅚㄱㅗ	-1264
▁ㅂㅜㅌ	-1265
▁ㅎㅚㅅㅏ	-1266
ㅗㅇㅣ	-1267
▁ㅅㅑ	-1268
▁ㄱㅡㄹㅣㅅㅡ	-1269
▁2017	-1270
ㅇㅚ	-1271
▁ㅈㅔㄱㅗㅇ	-1272
▁ㄴㅓ	-1273
▁ㄴㅐㅇㅛㅇ	-1274
ㅊㅚ	-1275
▁ㅎㅏㄴㅍㅕㄴ	-1276
▁ㄱㅕㄹㄱㅜㄱ	-1277
▁ㅅㅣㅅㅡㅌ	-1278
▁ㅂㅏㅇㅅㅣㄱ	-1279
ㅅㅡㅌㅓ	-1280
▁ㄱㅕㄱ	-1281
ㅂㅓㄹ	-1282
▁ㅇㅕㄴㅎㅏㅂ	-1283
▁ㅎㅏㅇㄱㅗㅇ	-1284
▁ㄹㅠ	-1285
ㅌㅣㅇ	-1286
▁ㄱㅗㅇㅅㅣㄱ	-1287
▁ᆫㄷㅏㄱㅗ	-1288
▁ㅎㅗㄱ	-1289
▁ㄱㅏㅇㅜㄴ	-1290
▁ㄷㅡㄹㅏㅁㅏ	-1291
▁ㅁㅏㄶㅇㅣ	-1292
▁ㅈㅣㄴㅏ	-1293
▁ㄷㅗㅋ	-1294
▁ㄱㅏㅇㅜㄴㄷㅔ	-1295
▁ㅎㅜㅂㅗ	-1296
▁ㅇㅢㅇㅝㄴ	-1297
▁ㅅㅣㅅㅡㅌㅔㅁ	-1298
▁ㅅㅣㄱㅣ	-1299
▁ㅊㅜㄹㅈㅓㄴ	-1300
▁ㅎㅗㅁ	-1301
▁ㅇㅠㅁㅕㅇ	-1302
▁ㅇㅣㄴㄱㅏㄴ	-1303
▁ㅊㅗㄱㅣ	-1304
▁ㅇㅕㄱㅎㅏㄹ	-1305
▁ㅆㅡㅇㅣ	-1306
▁s	-1307
▁ㅂㅔㄴ	-1308
▁ㅎㅠ	-1309
▁ㅈㅏㄴ	-1310
▁ㄱㅣㅇㅓㅂ	-1311
▁ㄴㅗㅎ	-1312
▁ㄹㅡ	-1313
ㅍㅣㄹ	-1314
▁ㅈㅔㄷㅗ	-1315
▁ㄸㅏㄹ	-1316
ㅔㄹㅣ	-1317
▁ㅁㅣㄴㅈㅗㄱ	-1318
▁ㅅㅐㄱ	-1319
ㅁㅏㄹ	-1320
▁ㄱㅓㅇㅢ	-1321
▁ㅇㅜㄹㅣ	-1322
ㅈㅜㄱ	-1323
▁ㅈㅗㅅㅏ	-1324
▁ㅂㅜㄴㄹㅠ	-1325
▁ㅅㅜㅅㅏㅇ	-1326
▁ㅂㅏㄴㄷㅐ	-1327
▁ㄴㅏㅌㅏㄴㅏ	-1328
▁ㅁㅔㅇㅣ	-1329
ㄴㅏㄹ	-1330
▁ㅈㅣㄱㅜ	-1331
▁ㄱㅛㅎㅚ	-1332
ㄹㅑㄱ	-1333
▁ㅇㅡㄹㅗㅆㅓ	-1334
▁!	-1335
ㅍㅜㅇ	-1336
▁ㄷㅏㄹㄹㅣ	-1337
▁ㄷㅐㅅㅣㄴ	-1338
▁ㄴㅜㄴ	-1339
▁26	-1340
at	-1341
▁ㅇㅓㄴㅇㅓ	-1342
ㅊㅣㄱ	-1343
▁ㅇㅝ	-1344
ㅌㅏㅇ	-1345
▁ㅍㅛㅎㅕㄴ	-1346
ㅎㅓㄴ	-1347
▁ㅌㅡㄱㅂㅕㄹ	-1348
▁ㅍㅏㄱ	-1349
ㅇㅏㅂ	-1350
▁ㅇㅠㅈㅣ	-1351
▁ㅍㅕㅇㄱㅏ	-1352
▁ㄱㅣㄴㅡㅇ	-1353
▁ㄷㅐㅅㅏㅇ	-1354
▁ㄱㅡㄹㅣ	-1355
▁ㄴㅏㄱㅏ	-1356
▁ㅊㅣㅇ	-1357
▁ㅇㅡㄹㅗㅂㅜㅌㅓ	-1358
▁ㄱㅠㅁㅗ	-1359
▁ㅇㅡㅇ	-1360
▁ㄱㅜㄹ	-1361
▁28	-1362
▁2019	-1363
▁ㅂㅔㅇㅣ	-1364
ㅡㄹㄹㅐㄴㄷㅡ	-1365
▁ㅇㅕㄴㄱㅕㄹ	-1366
▁ㄷㅗㅇㅅㅣ	-1367
▁ㄴㅏㅇㅣ	-1368
▁ㄱㅗㅇㄱㅐ	-1369
▁27	-1370
▁ㅈㅏㅇㅕㄴ	-1371
▁ㄱㅏㄱㄱㅏㄱ	-1372
▁ㅁㅓㄹ	-1373
▁ㄱㅜㄴㅅㅏ	-1374
ㅂㅜㄱㄷㅗ	-1375
▁ㄸㅟ	-1376
ㅎㅟ	-1377
▁ㅁㅏㅈㅣ	-1378
▁ㅅㅟ	-1379
▁ㅁㅗㅅㅡㅂ	-1380
▁ㄹㅗㅂ	-1381
▁ㄴㅗㄷㅗㅇ	-1382
▁ㅇㅣㄹㅗㄴ	-1383
ㅋㅓ	-1384
▁ㄷㅡㄹㅇㅓㄱㅏ	-1385
▁ㄱㅐㅇㅣㄴ	-1386
▁ㄷㅏㄴㅊㅔ	-1387
▁2005	-1388
▁ㅈㅓㄴㅎㅏ	-1389
▁ㅅㅡㅌㅏ	-1390
▁ㅁㅗㄱㄹㅗㄱ	-1391
▁ㅎㅗㄹ	-1392
ㅋㅓㅂ	-1393
▁ㅇㅣㅇㅑ	-1394
▁ㅋㅐㄴ	-1395
ㅊㅗㅇ	-1396
▁ㄱㅕㅇㅅㅏㅇ	-1397
▁ㅇㅣㅁㅁㅕㅇ	-1398
▁2000	-1399
▁ㅇㅣㅁㅣ	-1400
▁ㅇㅔㄹ	-1401
▁ㅎㅕㄴㄷㅐ	-1402
▁ㅅㅡㅂ	-1403
▁ㅌㅏㅇㅣ	-1404
▁ㅇㅓㅇㅑ	-1405
▁ㅊㅓㄹㄷㅗ	-1406
▁ㅈㅣㄴㅊㅜㄹ	-1407
▁ㅇㅣㄴㅈㅓㅇ	-1408
▁ㄹㅏㅁ	-1409
▁ㄸㅓㄹㅇㅓㅈㅣ	-1410
ic	-1411
▁ㅅㅡㅇㄹㅣ	-1412
▁ㅈㅓㅇㅇㅢ	-1413
▁ㅅㅣㅈㅓㄹ	-1414
▁ㅁㅓㄱ	-1415
▁ㅈㅓㄴㅁㅜㄴ	-1416
▁ㅁㅏㅈㅣㅁㅏㄱ	-1417
al	-1418
▁ㅅㅣㅈㅏㅇ	-1419
ㄴㅕㅁ	-1420
▁ㅁㅗㄱㅈㅓㄱ	-1421
▁ㅈㅣㄷㅗ	-1422
ㅌㅡㅇ	-1423
▁ㅍㅔㄹ	-1424
ㅎㅡㅇ	-1425
ㅇㅔ	-1426
▁ㅅㅏㄴㅇㅓㅂ	-1427
▁ㅎㅜㄴ	-1428
▁ㅋㅓㅂ	-1429
▁ㄱㅣㄱㅏㄴ	-1430
ㅜㅇㅝㄴ	-1431
ㅊㅡㅇ	-1432
▁ㅇㅑㄱㅜ	-1433
▁ㅇㅣㅇㅑㄱㅣ	-1434
▁ㄴㅏㄱ	-1435
▁ㅈㅓㅇㅊㅐㄱ	-1436
▁ㅈㅣㄱㅈㅓㅂ	-1437
BS	-1438
▁ㄱㅣㅇㅝㄴ	-1439
▁ㄴㅡ	-1440
ㅅㅡㄹ	-1441
▁2004	-1442
ㅂㅜㄹ	-1443
▁ㅍㅡㄹㄹㅔㅇㅣ	-1444
▁ㅎㅕㄱ	-1445
▁ㄱㅐㅊㅚ	-1446
▁ㅅㅓㄹㅗ	-1447
ㅇㅡㅇ	-1448
▁ㅊㅏㄱ	-1449
▁ㅁㅗㄷㅔㄹ	-1450
▁ㄱㅖㅇㅑㄱ	-1451
▁FC	-1452
▁ㄱㅗㅇㄱㅏㄴ	-1453
▁ㅅㅏㅇㅎㅘㅇ	-1454
ㅎㅕㄱ	-1455
▁ㄱㅓㄴㅅㅓㄹ	-1456
▁ㄱㅓㄴㅁㅜㄹ	-1457
▁ㄱㅗㅇㄷㅗㅇ	-1458
▁ㅁㅏㅇㅣ	-1459
▁ㅂㅣㄹㅗㅅ	-1460
▁ㅊㅜㄱㅏ	-1461
▁ㄷㅗㄴ	-1462
ㄷㅡㅁ	-1463
▁ㅇㅣㄴㄷㅗ	-1464
▁50	-1465
ㄷㅡㄴ	-1466
▁ㄹㅏㅇ	-1467
▁ㅎㅘㄹㅇㅑㄱ	-1468
ㅅㅜㄱ	-1469
▁b	-1470
ㄱㅓㄴ	-1471
▁ㅂㅜㅅㅏㄴ	-1472
▁ㅅㅡㅍㅔㅇㅣㄴ	-1473
▁31	-1474
▁ㄱㅓㄹㅣ	-1475
▁ㅇㅡㅁㅕㄴ	-1476
▁ㄱㅕㅇㅊㅏㄹ	-1477
▁ㅎㅕㅇㅅㅓㅇ	-1478
▁ㅋㅓㅁㅍ	-1479
ㄲㅣ	-1480
ㄹㅠㄹ	-1481
▁ㅍㅣㅇ	-1482
▁ㅈㅗㄹㅇㅓㅂ	-1483
▁ㅁㅗㄴ	-1484
▁ㄱㅕㄹㅎㅗㄴ	-1485
▁29	-1486
ㄲㅡㄹ	-1487
▁TV	-1488
▁ㄱㅏㄲ	-1489
▁ㄴㅗㄹㅐ	-1490
ㅎㅏㄱㅈㅏ	-1491
ㅐㅁㅍ	-1492
is	-1493
▁ㅈㅏㄷㅗㅇ	-1494
ㅔㅇㅣㄹ	-1495
it	-1496
▁ㅎㅣㄹ	-1497
▁ㅂㅣㅅㅡ	-1498
ㅅㅠ	-1499
▁ㅅㅏㄹㅏㅇ	-1500
re	-1501
▁ㅂㅕㄴㄱㅕㅇ	-1502
ㅁㅔ	-1503
▁ㅅㅏㅅㅏㅇ	-1504
ㄹㅓㄴ	-1505
ㄱㅗㄹ	-1506
ㅈㅏㅂ	-1507
▁ㄱㅜㄱㅎㅚ	-1508
ㅌㅔㄴ	-1509
▁ㅇㅗㄹㄹㅣ	-1510
▁ㄱㅛㅅㅜ	-1511
▁ㄱㅗㅇㅎㅘㄱㅜㄱ	-1512
ㅡㅋㅣ	-1513
▁ㅁㅏㅇㅡㄹ	-1514
▁ㅌㅏㅁ	-1515
▁ㅇㅣㄴㅁㅜㄹ	-1516
▁ㅂㅕㄴㅎㅘ	-1517
ㅅㅣㅇ	-1518
ㅂㅣㅈㅓㄴ	-1519
ㄴㅣㄷㅏ	-1520
ㅇㅡㅋㅣ	-1521
▁ㅌㅏㅂ	-1522
▁ㅌㅔㄹㄹㅔ	-1523
▁190	-1524
▁ㄴㅗㅅㅓㄴ	-1525
▁ㅇㅗㅅㅡㅌㅡㄹ	-1526
ㄱㅏㄹ	-1527
▁ㅈㅜㅇㅎㅏㄱㄱㅛ	-1528
ㄷㅓㄴ	-1529
ㄹㅠㄱ	-1530
▁ㄴㅏㅈ	-1531
▁2020	-1532
▁ㅇㅣㄴㅁㅣㄴㄱㅗㅇ	-1533
▁ㅇㅣㄴㅁㅣㄴㄱㅗㅇㅎㅘㄱㅜㄱ	-1534
▁ㄱㅡㄱㅓㅅ	-1535
ㄹㅐㄴㄷㅡ	-1536
▁ㅇㅘㄴㅈㅓㄴ	-1537
▁ㄷㅏㄹㅡ	-1538
▁ㄱㅕㄴ	-1539
ㅍㅗㄴ	-1540
ou	-1541
ㅔㄹㅏ	-1542
▁ㅂㅗㅌㅗㅇ	-1543
▁ㅅㅣㅂ	-1544
ㅏㄷㅏ	-1545
ㄹㅖ	-1546
▁ㅅㅓㅂㅣㅅㅡ	-1547
ㄴㅏㅁㄷㅗ	-1548
▁ㅁㅏㄹㅡ	-1549
▁ㅈㅣㄱㅡㅁ	-1550
▁ㅈㅐㄱ	-1551
ㅇㅣㄱ	-1552
▁ㄹㅗㄴ	-1553
▁ㅎㅏㄱㅅㅐㅇ	-1554
▁ㅇㅕㄱㅅㅣ	-1555
▁ㄹㅗㄱ	-1556
▁ㅅㅣㄹㅈㅔ	-1557
ㅅㅏㄱ	-1558
▁ㅎㅔ	-1559
ㅇㅛㄱ	-1560
ㅈㅡㅁ	-1561
▁ㅅㅗㅅㅓㄹ	-1562
▁ㅊㅚㄷㅐ	-1563
▁ㅇㅜㅁ	-1564
▁ㅈㅓㄴㄱㅜㄱ	-1565
▁ㅇㅢㅎㅚ	-1566
▁ㅈㅜㅇㅎㅘ	-1567
ㅌㅔㄹ	-1568
▁ㅎㅓㅇ	-1569
ㅇㅕㄱㅅㅣ	-1570
▁ㅈㅣㅈㅣ	-1571
▁ㅁㅏㄴㄴㅏ	-1572
▁X	-1573
ㅇㅏㅇㅗ	-1574
▁ㄱㅕㅁ	-1575
ㅡㄹㅣㅋㅏ	-1576
▁ㅍㅜㄹ	-1577
▁ㄱㅏㅂ	-1578
▁ㅇㅣㄹㅇㅡㅋㅣ	-1579
▁ㄴㅏㅇ	-1580
ㄷㅐㄹㅗ	-1581
▁ㅏ	-1582
▁ㄱㅣㅂㅗㄴ	-1583
▁ㄹㅕ	-1584
ㅇㅜㄴ	-1585
ㅍㅡㅌㅡ	-1586
ㅜㄱㅣ	-1587
▁ㄱㅏㅅㅜ	-1588
▁ㅅㅣㅇㄱㅡㄹ	-1589
▁ㅇㅝㄴㄹㅐ	-1590
ㅎㅘㄱ	-1591
▁ㅂㅐㄴㄷㅡ	-1592
▁ㅇㅛㄱㅜ	-1593
▁ㄱㅕㅇㄱㅣㄷㅗ	-1594
▁ㅎㅘㅇㅈㅔ	-1595
▁ㄴㅗㅍㅇㅣ	-1596
▁ㄱㅣㅂㅏㄴ	-1597
▁ㅈㅓㄴㅌㅗㅇ	-1598
▁ㅌㅚ	-1599
▁ㅍㅜ	-1600
▁2002	-1601
▁ㅌㅜㅇ	-1602
▁ㅇㅓㅄㅇㅣ	-1603
ㄹㅔㄱ	-1604
ㅋㅏㄴ	-1605
▁ㅍㅗㅇ	-1606
ㅌㅡㄱ	-1607
ㅟㄴ	-1608
ㄹㅕ	-1609
▁ㅈㅣㅎㅏ	-1610
▁ㄹㅣㅂ	-1611
▁ㅇㅜㅈㅜ	-1612
▁ㅅㅜㄷㅗ	-1613
▁ㄹㅜㅇ	-1614
▁40	-1615
ㅅㅔㄴ	-1616
▁ㄱㅔㅆ	-1617
▁ㅊㅓ	-1618
▁ㅊㅏㅇㅣ	-1619
▁ㅈㅏㄹㅛ	-1620
▁ㅂㅣㅍㅏㄴ	-1621
▁2003	-1622
▁ㄱㅐㄱ	-1623
▁ㅈㅣㅇ	-1624
▁ㅇㅓㄸㅓㄴ	-1625
▁ㅁㅣㅇ	-1626
▁ㅈㅏㄱㅣ	-1627
▁ㄸㅓㄴㅏ	-1628
▁ㅇㅜㄴㅎㅐㅇ	-1629
ㄷㅜㅇ	-1630
ㄱㅜㄹ	-1631
ㅇㅏㄱㅏ	-1632
▁ㅈㅗㅇㄱㅛ	-1633
▁ㅅㅔㄴㅌㅓ	-1634
▁ㅅㅜㅎㅐㅇ	-1635
▁ㅁㅗㅇㅑㅇ	-1636
▁ㅅㅡㅇㄱㅏㅇ	-1637
ㅈㅚ	-1638
ㅓㅎㄱㅔ	-1639
▁ㅎㅘㄴㄱㅕㅇ	-1640
▁ㅅㅔㄹㅕㄱ	-1641
ㅊㅗㄴ	-1642
▁ㅈㅓㄴㄱㅣ	-1643
▁ㄷㅗㅋㅛ	-1644
▁ㅅㅣㅅㅓㄹ	-1645
▁ㄴㅐㄹㅣ	-1646
▁ㅂㅓㄹㅣ	-1647
▁ㅅㅗㄹㅕㄴ	-1648
▁ㅁㅕㅇㅊㅣㅇ	-1649
▁ㅎㅚㅇㅢ	-1650
▁ㅌㅔㄹㄹㅔㅂㅣㅈㅓㄴ	-1651
▁ㅍㅏㄴㅁㅐ	-1652
▁ㅇㅣㄲㅡㄹ	-1653
▁ㄹㅓㄴ	-1654
ㅂㅔ	-1655
ㄹㅔㄴ	-1656
ㄹㅣㅅㅡ	-1657
▁ㄱㅣㄴㅕㅁ	-1658
▁ㄴㅏㅌㅏㄴㅐ	-1659
▁ㄸㅏㄹㅏ	-1660
le	-1661
▁ㄷㅓㄱ	-1662
▁ㅎㅟ	-1663
▁ㄱㅓㄹㅊㅣ	-1664
▁ㅇㅝㄹㄷㅡㅋㅓㅂ	-1665
▁ㄱㅜㅇㅕㄱ	-1666
ㄷㅔㄴ	-1667
▁ㅇㅕㅁ	-1668
mp	-1669
▁ㅋㅏㅁ	-1670
▁ㅂㅜㄴㅇㅑ	-1671
ㅏㅇㅘ	-1672
▁ㄹㅔㄴ	-1673
▁ㄹㅣㄴ	-1674
▁ㅌㅡㄱㅈㅣㅇ	-1675
▁ㅍㅣㄴ	-1676
▁ㅁㅠ	-1677
ㅓㄹㄹㅣ	-1678
▁ㄱㅗㅇㅇㅕㄴ	-1679
▁ㅇㅣㄷㅗㅇ	-1680
▁ㅇㅖㅅㅜㄹ	-1681
▁ㄴㅏㅁㅈㅏ	-1682
▁ㅂㅗㅎㅗ	-1683
▁ㅅㅣㄹㅅㅣ	-1684
▁ㄱㅣㄷㅗㄱ	-1685
ㅍㅔ	-1686
▁ㅇㅕㄴㅂㅏㅇ	-1687
▁ㄷㅗㅇㅁㅜㄹ	-1688
▁ㄱㅡㄹㅐ	-1689
▁ㄱㅛㅎㅘㅇ	-1690
▁ㄷㅗㅇㅣㅂ	-1691
▁ㅅㅓㄴㅈㅓㅇ	-1692
▁ㄱㅣㅇ	-1693
▁ㅅㅓㄹㅁㅕㅇ	-1694
▁ㅋㅓㄴ	-1695
ㅇㅓㅁ	-1696
ㄹㅕㄹ	-1697
▁ㅈㅏㄱㅇㅓㅂ	-1698
▁ㅂㅜㄷㅐ	-1699
▁=	-1700
▁ㅎㅔㄹ	-1701
ㅠㅁ	-1702
▁ㅇㅟㄴ	-1703
▁ㄷㅓㅇ	-1704
▁ㄴㅏㅁㅉㅗㄱ	-1705
▁ㄸㅏㅇ	-1706
▁ㅂㅜㄱㅉㅗㄱ	-1707
▁ㅌㅗㅇㅎㅏㅂ	-1708
▁ㄴㅓㄼ	-1709
▁ㄸㅏㄹㅏㅅㅓ	-1710
▁ㄷㅓㅂ	-1711
▁ㅈㅏㄱㅇㅛㅇ	-1712
▁ㅎㅡㄹ	-1713
▁ㅊㅜㄹㅅㅣ	-1714
▁ㅎㅐㅇㄷㅗㅇ	-1715
ㅍㅗㄹ	-1716
▁ㄱㅛㅌㅗㅇ	-1717
▁ㄷㅡㄱ	-1718
ㄷㅗㄴ	-1719
ㅂㅣㄴ	-1720
▁ㅅㅡㅇㄱㅏㅇㅈㅏㅇ	-1721
▁ㅊㅏㄹㅑㅇ	-1722
▁ㄱㅏㅈㅗㄱ	-1723
▁ㅂㅏㅇㅎㅑㅇ	-1724
ㄱㅟ	-1725
▁ㅋㅡㄹㄹㅓㅂ	-1726
ㅈㅟ	-1727
▁ㅈㅡㅇㄱㅏ	-1728
▁ㄱㅣㅈㅗㄴ	-1729
▁ㄴㅡㅇㄹㅕㄱ	-1730
▁ㅇㅕㄱㅇㅣㅁ	-1731
▁ㅈㅔㅇㅚ	-1732
▁ㅎㅘㄱㅇㅣㄴ	-1733
▁ㅈㅏㄱㄱㅏ	-1734
▁ㅁㅜㄴㅎㅏㄱ	-1735
ㄷㅡㄹㅇㅣ	-1736
▁ㅇㅗㄻ	-1737
▁ㅂㅣㅅㅡㅅ	-1738
▁ㄱㅗㄴ	-1739
▁ㄱㅜㄴㄷㅐ	-1740
ㅌㅓㄹ	-1741
▁ㅂㅏㄹㅗ	-1742
▁ㄱㅗㄷ	-1743
▁ㅌㅐㅇㅑㅇ	-1744
▁ㅎㅕㅇㅅㅣㄱ	-1745
ㅎㅕㅂ	-1746
▁ㅁㅡㄹㅗ	-1747
▁ㅈㅣㅎㅟ	-1748
▁ㅎㅐㅇㅇㅟ	-1749
▁ㅋㅓㅁㅍㅠ	-1750
▁ㅇㅕㄹㅊㅏ	-1751
▁ㅇㅓㅁㅓㄴㅣ	-1752
▁ㅇㅣㄸㅐ	-1753
▁ㅁㅐㅇ	-1754
▁ㅈㅏㄱㄱㅗㄱ	-1755
▁ㅎㅕㄱㅁㅕㅇ	-1756
ㅎㅜㄴ	-1757
▁ㅅㅏㄱㅗ	-1758
▁ㅋㅗㅇ	-1759
ㅌㅏㄱ	-1760
▁ㄱㅏㄹㅣ	-1761
ㅇㅕㅁ	-1762
▁ㅇㅠㅇㅣㄹ	-1763
▁FI	-1764
▁ㅇㅘㅇㄱㅜㄱ	-1765
▁ㅎㅛㄱㅘ	-1766
▁ㄱㅡㄹㅓ	-1767
ㅂㅔㄹ	-1768
ㅇㅠㄱ	-1769
▁ㅌㅗㄹ	-1770
▁ㅇㅣㅈㅓㄱ	-1771
BC	-1772
▁ㅇㅗㄻㄱㅣ	-1773
▁ㄷㅗㄹㅗ	-1774
▁ㄱㅘㄱㅓ	-1775
▁ㄱㅏㅇㅎㅏ	-1776
▁ㄹㅕㄱ	-1777
▁ㅎㅕㅂㅎㅚ	-1778
ㅁㅣㄹ	-1779
▁ㄱㅣㄷㅗㄱㄱㅛ	-1780
▁ㄴㅡㄹ	-1781
▁ㅂㅓㅅㅡ	-1782
▁ㅍㅔㄴ	-1783
▁ㅅㅐㅇㄱㅣ	-1784
▁ㅊㅜㅈㅓㅇ	-1785
▁ㅎㅗㄱㅇㅡㄴ	-1786
▁ㅎㅡㅇ	-1787
▁ㅋㅐㄴㅏㄷㅏ	-1788
ㅌㅗㄴ	-1789
▁ㄴㅏㅁㅂㅜ	-1790
▁ㄴㅓㅎ	-1791
ㅈㅔㄹ	-1792
▁ㅍㅡㄹㅣ	-1793
ㅋㅗㅇ	-1794
▁ㄴㅠㅇㅛㄱ	-1795
▁ㅈㅓㄴㅈㅏ	-1796
▁ㅎㅡㄴ	-1797
▁ㅎㅏㄹ	-1798
ㅂㅕㄱ	-1799
▁ㅇㅐㄱ	-1800
▁ㅈㅣㅂㅐ	-1801
▁ㅉㅗㄱ	-1802
ㄹㅏㅇ	-1803
▁ㄱㅏㅈㅊㅜ	-1804
ㅎㅛ	-1805
▁ㅇㅠㄱㄱㅜㄴ	-1806
▁ㄷㅏㅁㄷㅏㅇ	-1807
▁ㅇㅗㅍ	-1808
ㅈㅏㄹㅣ	-1809
▁ㄱㅓㄷㅜ	-1810
ㅆㅣ	-1811
▁2001	-1812
▁ㄷㅗㅇㅇㅣㄹ	-1813
▁ㄷㅗㅇㅉㅗㄱ	-1814
▁ㅂㅣㄱㅛ	-1815
▁ㅅㅡㅁ	-1816
▁1990	-1817
ㅞㅇㅓ	-1818
▁ㅈㅜㅂㅕㄴ	-1819
▁p	-1820
▁ㅋㅣㅇ	-1821
▁ㄱㅜㄱㅏㄴ	-1822
▁ㅇㅣㅇㅓㅈㅣ	-1823
▁ㅎㅚㄱ	-1824
▁ㄱㅗㅇㅅㅏㄴ	-1825
▁ㅈㅏㅇㄱㅘㄴ	-1826
ㅋㅔㅅ	-1827
▁ㅅㅡㅌㅡㄹ	-1828
▁ㅁㅜㄹㄹㅣ	-1829
▁ㅍㅜㅁ	-1830
▁ㅅㅣㅁㅣㄴ	-1831
▁ㅋㅓㅁㅍㅠㅌㅓ	-1832
▁ㅇㅖㅈㅓㅇ	-1833
▁ㄱㅓㄴㅊㅜㄱ	-1834
▁ㅈㅗㅈㅣ	-1835
▁ㅇㅣㄴㄱㅣ	-1836
▁ㅈㅓㅇㄷㅏㅇ	-1837
▁ㅍㅐㄴ	-1838
▁ㅊㅜㅇㅊㅓㅇ	-1839
▁ㅋㅔㅇㅣ	-1840
▁ㅌㅗㄴ	-1841
ㄷㅓㄹ	-1842
▁ㅅㅓㅉㅗㄱ	-1843
▁ㅇㅐㄴㅣㅁ	-1844
ㅇㅜㅅㅡ	-1845
▁ㅁㅔㅁ	-1846
ㅇㅢㅇㅝㄴ	-1847
▁189	-1848
▁ㅇㅏㄹㅡ	-1849
▁ㄱㅐㄴㅕㅁ	-1850
▁ㅅㅏㄷㅏㄴ	-1851
▁ㅁㅏㄷㅏ	-1852
▁ㅋㅡㄱㅣ	-1853
▁ㅈㅓㄱㅇㅛㅇ	-1854
▁ㅇㅔㄴㅓㅈㅣ	-1855
▁ㅇㅗㄴㅡㄹ	-1856
▁ㅅㅓㅇㅈㅏㅇ	-1857
▁ㄱㅣㅌㅏ	-1858
▁ㅊㅏㄹㅖ	-1859
▁ㄱㅚ	-1860
ㄱㅜㅇ	-1861
▁ㅇㅠㅇ	-1862
▁ᆫㄷㅔ	-1863
▁ㅎㅡㄱ	-1864
▁ㅅㅏㅇㄷㅏㅇ	-1865
ㅈㅏㅇㅣㄴ	-1866
▁ㅁㅏㅇㅡㅁ	-1867
▁ㄱㅜㄱㄴㅐ	-1868
▁ㅈㅟ	-1869
▁ㅊㅣㄹㅡ	-1870
▁ㅊㅏㄴ	-1871
▁d	-1872
ㅅㅡㅋㅡ	-1873
▁ㅇㅓㄹㅣ	-1874
ㅂㅣㅇ	-1875
▁ㅂㅏㄲㅜ	-1876
▁ㄷㅣㅈㅏㅇㅣㄴ	-1877
▁ㅇㅔㄴㅈㅣㄴ	-1878
▁ㅁㅣㄴㅈㅜㅈㅜㅇㅢ	-1879
▁ㅈㅗㄱㅓㄴ	-1880
▁ㅅㅔㅍㅗ	-1881
▁ㄱㅗㅇㅅㅏ	-1882
ㅅㅡㅌㅏㄴ	-1883
▁ㅂㅏㅇㅇㅕㅇ	-1884
▁ㅁㅓㄹㅣ	-1885
▁ㅂㅓㅈㅓㄴ	-1886
ㄴㅗ	-1887
ㅋㅣㄴ	-1888
▁ㄱㅜㄱㄹㅣㅂ	-1889
ㄱㅅㅡ	-1890
▁ㅈㅏㄱㅈㅓㄴ	-1891
▁ㅇㅗㄹㅐ	-1892
▁ㅈㅏㅊㅔ	-1893
ㅊㅐ	-1894
▁FIFA	-1895
▁ㄱㅗㅇㅎㅏㅇ	-1896
▁ㅈㅗㅇㄹㅠ	-1897
ㄱㅐㄱ	-1898
▁ㅂㅏㄴㅇㅡㅇ	-1899
▁ㅅㅜㄹㅗㄱ	-1900
ㅅㅐ	-1901
▁ㅂㅣㅎㅏ	-1902
el	-1903
et	-1904
▁ㅇㅕㄴㄱㅣ	-1905
ㅊㅟ	-1906
▁ㅌㅡㄱㅈㅓㅇ	-1907
▁ㅅㅣㄹㅍㅐ	-1908
▁ㅋㅡㄹㅣㅅㅡ	-1909
▁ㄱㅓㅂ	-1910
▁ㅅㅓㄴㅇㅓㄴ	-1911
▁ㄷㅗㄹㅇㅏㅇㅗ	-1912
ㅁㅐㄱ	-1913
▁ㅎㅐㄱㅜㄴ	-1914
▁ㄷㅔㄴ	-1915
▁ㅇㅕㄴㅅㅗㄱ	-1916
▁ㅇㅐㄴㅣㅁㅔㅇㅣㅅㅕㄴ	-1917
▁ㅅㅟㅂ	-1918
▁ㅎㅓ	-1919
▁ㅇㅓㄴㅡ	-1920
▁ㅌㅏㄱ	-1921
▁ㅇㅣㄹㅓㄴ	-1922
ㅈㅘ	-1923
▁ㅂㅜㅈㅗㄱ	-1924
ㄱㅏㅈㅣ	-1925
▁ㅅㅔㄹ	-1926
▁ㄸㅏ	-1927
▁ㅅㅓㄴㅊㅜㄹ	-1928
▁ㅅㅓㄴㅌㅐㄱ	-1929
▁ㄱㅗㄷㅐ	-1930
▁ㅁㅔㅁㅂㅓ	-1931
▁ㅂㅜㄱㅂㅜ	-1932
▁ㄱㅣㅇㅝㄴㅈㅓㄴ	-1933
▁ㅈㅏㅊㅣ	-1934
▁ㄱㅠㅈㅓㅇ	-1935
▁ㄷㅏㄹㅜ	-1936
▁ㅈㅗㅇㅑㄱ	-1937
ion	-1938
▁ㅅㅗㄱㄷㅗ	-1939
▁ㅎㅓㄴㅂㅓㅂ	-1940
▁ㅊㅔㅈㅔ	-1941
▁ㅇㅖㅅ	-1942
▁ㅇㅣㅅㅏ	-1943
▁ㄱㅕㄹㅅㅡㅇ	-1944
▁ㅇㅣㄴㅊㅓㄴ	-1945
▁ㄴㅐㅂㅜ	-1946
▁ㅇㅕㅇㅇㅓ	-1947
▁ㅇㅕㄴㄷㅐ	-1948
ㄱㅌㅡ	-1949
▁ㄴㅏㄴㅜ	-1950
ㅅㅜㅇ	-1951
ing	-1952
ㅊㅣㄴ	-1953
ㅋㅗㄹ	-1954
▁ㅅㅡㅍㅗ	-1955
▁ㅇㅙ	-1956
▁ㅇㅣㄴㅌㅓㄴ	-1957
ㅜㄹㅏ	-1958
ㄱㅡㄹㄹㅐㄴㄷㅡ	-1959
▁ㅁㅕㅇㄹㅕㅇ	-1960
▁ㅂㅣㅁ	-1961
▁ㅇㅗㅅ	-1962
▁ㄱㅏㅊㅣ	-1963
▁ㅇㅕㄴㅈㅜ	-1964
▁ㅅㅓㄹㄱㅖ	-1965
▁ㅁㅓㄴ	-1966
▁ㄷㅏㄴㄱㅖ	-1967
▁ㅍㅣㅎㅐ	-1968
ㅅㅏㅁ	-1969
▁ㅈㅓㅇㅅㅣㄴ	-1970
▁ㅁㅜㄹㅈㅣㄹ	-1971
▁ㄹㅕㄴ	-1972
▁ㅊㅓㄱ	-1973
▁ㅂㅏㅁ	-1974
▁ㅊㅚㅈㅗㅇ	-1975
ㅌㅡㄴㅏㅁ	-1976
▁ㄷㅏㄹㄹㅓ	-1977
ㅈㅏㄴ	-1978
ㅎㅗㄱ	-1979
▁ㄴㅡㄴㅈㅣ	-1980
▁ㅊㅚㄱㅡㄴ	-1981
▁ㅂㅣㅎㅐㅇ	-1982
▁1999	-1983
ol	-1984
▁ㄱㅐㅎㅕㄱ	-1985
▁ㅈㅣㅁㅕㅇ	-1986
▁ㅍㅛㅈㅜㄴ	-1987
▁ㅊㅜㄹㅍㅏㄴ	-1988
▁ㅊㅣㄴㄱㅜ	-1989
ㄱㅣㄹ	-1990
21	-1991
▁ㅋㅓ	-1992
▁ㄱㅏㄲㅏㅂ	-1993
▁ㅂㅜㄴㅅㅓㄱ	-1994
▁ㅍㅕㅇㄱㅠㄴ	-1995
▁ㅇㅏㅅㅣㅇㅏ	-1996
▁ㅉㅏ	-1997
▁ㅎㅜㅇ	-1998
▁cm	-1999
ㅞㅇㅣ	-2000
ㅅㅣㅁㅏ	-2001
▁1998	-2002
ㄷㅏㅂ	-2003
▁ㅎㅏㄱㅖ	-2004
▁o	-2005
▁ㅎㅏㅁㅅㅜ	-2006
▁Y	-2007
ㅣㅅㅡㅌㅡ	-2008
▁ㅊㅔㄱㅖ	-2009
ㅅㅡㅋ	-2010
▁ㅂㅐㅊㅣ	-2011
▁ㄱㅗㅇㅇㅝㄴ	-2012
▁ᆫㅈㅣ	-2013
▁ㅇㅢㅅㅏ	-2014
▁ㅅㅏㅁㅜ	-2015
▁ㅂㅜㅁㅜㄴ	-2016
ㄷㅡㄹㅣ	-2017
▁ㄱㅗㅇㄹㅣㅂ	-2018
▁ㅊㅣㄹㅛ	-2019
ㅔㄹㅣㅋㅏ	-2020
ㅊㅓㄱ	-2021
▁ㄱㅏㅇㅎㅘ	-2022
▁ㅈㅐㅇ	-2023
▁ㄱㅘㄴㅎㅏㄹ	-2024
▁ㅆㅣㄱ	-2025
ㅜㄱㅜ	-2026
▁ㅎㅚㄱㄷㅡㄱ	-2027
ㅍㅡㄹㄹ	-2028
▁1980	-2029
▁ㅂㅜㄴㄹㅣ	-2030
▁ㅇㅣㅂㄷㅏㄴ	-2031
▁ㅇㅣㅇㄱㅡㄹㄹㅐㄴㄷㅡ	-2032
ㅍㅖ	-2033
ㅎㅐㄱ	-2034
▁ㄴㅏㅁㄱㅣ	-2035
▁ㄱㅐㅇㅝㄹ	-2036
▁ㅂㅓㅂㅇㅝㄴ	-2037
▁ㅈㅣㅂㄷㅏㄴ	-2038
▁60	-2039
ㅍㅣㄴ	-2040
▁ㄴㅐㄱ	-2041
ㅏㅎ	-2042
▁ㅇㅓㄴㄱㅡㅂ	-2043
▁35	-2044
▁ㅇㅠㅅㅏ	-2045
▁ㅈㅔㅍㅜㅁ	-2046
▁ㅂㅜㄱㅎㅏㄴ	-2047
▁ㄲㅗㅊ	-2048
▁ㅎㅘㄱㅈㅏㅇ	-2049
▁ㄹㅐ	-2050
▁ㄴㅏㅁㅜ	-2051
▁mm	-2052
▁ㄷㅓㅇㅜㄱ	-2053
▁ㄱㅘㄴㅅㅣㅁ	-2054
ㅏㅇㅣㄹ	-2055
▁ㅊㅐㅁㅍ	-2056
▁ㅎㅕㄴㅅㅏㅇ	-2057
ㅉㅐ	-2058
▁ㅊㅓㄹㅣ	-2059
▁ㅂㅜㅅㅏㅇ	-2060
▁ㅅㅗㅇㅠ	-2061
▁ㅈㅡ	-2062
ㅅㅙ	-2063
▁ㅁㅐㅈ	-2064
▁ㅈㅣㅅㅗㄱ	-2065
▁ㅅㅡㅍㅗㅊㅡ	-2066
▁ㅋㅔ	-2067
ㅓㅇㅗ	-2068
▁ㅎㅏㅇㅣ	-2069
▁ㅅㅣㄹㅎㅓㅁ	-2070
▁ㅈㅗㅈㅓㅇ	-2071
▁ㅊㅐㅁㅍㅣㅇㅓㄴ	-2072
▁ㄷㅐㅈㅜㅇ	-2073
▁ㄷㅔㅇㅣㅌㅓ	-2074
▁ㅅㅓㄴㅂㅏㄹ	-2075
ㅋㅣㅇ	-2076
▁ㄱㅓㅈㅜ	-2077
▁ㄷㅗㅇㅜㅁ	-2078
▁n	-2079
ㅋㅡㅁ	-2080
▁ㅈㅣㄴㅣ	-2081
ㅎㅗㅇ	-2082
▁ㅈㅓㅇㄱㅠ	-2083
▁ㅌㅗㅇㅇㅣㄹ	-2084
▁ㅈㅏㅇㄱㅜㄴ	-2085
▁ㅈㅜㄷㅗ	-2086
▁ㅁㅗㄱㅍㅛ	-2087
▁ㅇㅏㄹㄹㅔㄱ	-2088
▁ㄱㅗㅈㅏ	-2089
▁ㅃㅏㄹㅡ	-2090
ㅅㅓㅅ	-2091
▁ㅂㅣㅊ	-2092
▁ㅇㅛㅅㅗ	-2093
▁ㅇㅣㄹㅈㅗㅇ	-2094
ㅗㅅㅡ	-2095
▁ㅇㅚㄱㅜㄱ	-2096
▁ㄱㅗㅅㅗㄱ	-2097
▁ㄱㅜㄷㅏㄴ	-2098
▁ㅍㅕㄴㅅㅓㅇ	-2099
▁ㅈㅏㄷㅗㅇㅊㅏ	-2100
▁ㅇㅞㅂ	-2101
▁ㅈㅐㅍㅏㄴ	-2102
▁ㅅㅣㅎㅓㅁ	-2103
ㅍㅗㄱ	-2104
▁ㅈㅜㅇㅣㄴ	-2105
ㄷㅣㅇㅓ	-2106
▁ㅂㅏㄲㅟ	-2107
▁ㄱㅐㅂㅗㅇ	-2108
▁ㄱㅣㄹㅇㅣ	-2109
▁ㅇㅓㄹㅕㅂ	-2110
▁ㅌㅗㅇㅅㅣㄴ	-2111
▁ㅈㅓㅁㄹㅕㅇ	-2112
▁ㄴㅔㄷㅓㄹ	-2113
▁ㅇㅖㅅㅓㄴ	-2114
▁ㅍㅗㄹㅡ	-2115
om	-2116
ㅎㅖ	-2117
▁ㅎㅗㅅ	-2118
▁ㅈㅜㅁㅣㄴ	-2119
ㅋㅓㄹ	-2120
▁ㅅㅏㄹㅕㅇ	-2121
▁ㅂㅜㄹㄱㅛ	-2122
▁ㄱㅕㄹㅎㅏㅂ	-2123
▁ㅎㅑㅇㅎㅏ	-2124
▁ㅅㅣㄷㅗ	-2125
▁ㅊㅓㅂ	-2126
▁ㅓ	-2127
▁ㅈㅏㅇㅊㅣ	-2128
▁ㅂㅗㄴㅅㅓㄴ	-2129
▁ㅎㅜㅂㅏㄴ	-2130
▁ㅇㅏㅇㅣㄹ	-2131
▁ㄱㅕ	-2132
▁ㅎㅐㅇㅅㅏ	-2133
▁ㅎㅏㄱㅈㅏ	-2134
▁ㅍㅏㄹㅣ	-2135
ㅘㄹ	-2136
▁1997	-2137
▁ㅁㅜㄴㅅㅓ	-2138
ㅇㅗㄱ	-2139
ㅈㅔㄱㅌㅡ	-2140
▁ㅎㅕㄹ	-2141
▁ㅇㅔㅇㅣ	-2142
▁ㅇㅣㅀ	-2143
▁ㄷㅐㄱㅜ	-2144
▁ㄷㅏㅁㅕㄴ	-2145
▁ㅇㅏㄴㅈㅓㅇ	-2146
▁ㄷㅗㅇㅁㅐㅇ	-2147
▁ㄷㅏㅇㅣ	-2148
ㅂㅏㄷ	-2149
▁ㅂㅐㅇ	-2150
▁ㄱㅣㅍ	-2151
▁ㄱㅣㅅㅏ	-2152
ㄷㅚ	-2153
▁ㄱㅡㄹㅓㅎ	-2154
▁ㅅㅖ	-2155
▁ㅂㅔㅌㅡㄴㅏㅁ	-2156
▁ㅅㅜㅈㅜㄴ	-2157
▁ㄹㅕㄱㅗ	-2158
st	-2159
▁ㅍㅔㅇㅣ	-2160
ㅂㅓㅅㅡ	-2161
ㅁㅔㄷㅏㄹ	-2162
▁ㅍㅗㄴ	-2163
▁ㅅㅡㄹㅓㅂ	-2164
▁ㄱㅡㄹㅣㅁ	-2165
▁ㅅㅏㅈㅣㄴ	-2166
▁ㄱㅏㅁㅜㄴ	-2167
▁ㅇㅓㄴㄹㅗㄴ	-2168
▁ㄱㅏㄹㅡ	-2169
▁ㅁㅣㅊㅣ	-2170
▁ㅁㅜㄴㅈㅏ	-2171
▁ㅊㅐㄱㅇㅣㅁ	-2172
▁1995	-2173
▁ㅅㅣㄴㅁㅜㄴ	-2174
▁1996	-2175
▁The	-2176
▁ㅌㅜㅍㅛ	-2177
ㅇㅝㄹ	-2178
▁ㄱㅜㅂㅜㄴ	-2179
▁ㅈㅓㅇㅎㅏ	-2180
▁ㄹㅗㅇ	-2181
▁ㅇㅏㅍㅡㄹㅣㅋㅏ	-2182
▁ㅂㅏㅇㅁㅜㄴ	-2183
ㅌㅡㄱㅂㅕㄹ	-2184
ㅗㅂ	-2185
▁ㅇㅛㅇㅇㅓ	-2186
▁ㅇㅠㅈㅓㄴ	-2187
▁ㅈㅓㅇㄹㅣ	-2188
▁ㄲㅡㅌㄴㅏ	-2189
▁amp	-2190
▁ㄱㅏㅄ	-2191
▁ㅇㅛㄹㅣ	-2192
▁32	-2193
ㅋㅡㄹㄹ	-2194
▁ㄱㅏㅈㅓㅇ	-2195
▁ㅈㅓㅇㅎㅘㄱ	-2196
▁ㅌㅗㅇㄱㅘ	-2197
▁ㅂㅣㄷㅣㅇㅗ	-2198
▁ㄷㅡㅅ	-2199
▁70	-2200
ㅅㅡㅌㅓㄴ	-2201
ㅗㅊ	-2202
ㅅㅣㅂ	-2203
▁ᄇ	-2204
ㅎㅡ	-2205
▁ㅇㅣㅎㅐ	-2206
▁ㄹㅣㅁ	-2207
▁ㅇㅣㄹㅈㅔ	-2208
▁ㅇㅡㄴㅌㅚ	-2209
▁ㅂㅜㄹㄱㅜ	-2210
▁ㅍㅡㄹㅗㅈㅔㄱㅌㅡ	-2211
▁ㅋㅔㄴ	-2212
▁ㅈㅓㅇㄱㅝㄴ	-2213
▁ㅂㅜㅇㅣㄴ	-2214
▁ㅈㅜㄴㅂㅣ	-2215
▁ㅇㅗㄴㅡㄹㄴㅏㄹ	-2216
▁ㅇㅘㅇㅈㅗ	-2217
▁ㅅㅓㅇㅈㅓㄱ	-2218
▁ㅍㅓ	-2219
▁ㄹㅓㄴㄷㅓㄴ	-2220
▁ㄴㅓㄹㄹㅣ	-2221
▁ㄱㅕㅇㅎㅓㅁ	-2222
▁ㄷㅓㄹ	-2223
ㅇㅐㄱ	-2224
▁ㄷㅐㄹㅗ	-2225
▁ㅈㅗㅇㅎㅏㅂ	-2226
▁ㅍㅕㅇㅎㅘ	-2227
▁ㅁㅕㄹ	-2228
▁ㅇㅝㄴㅇㅣㄴ	-2229
▁ㅂㅏㄷㅏ	-2230
▁ㄱㅏㅇㅣ	-2231
▁ㅂㅕㅇㅇㅝㄴ	-2232
▁ㅇㅣㄱㅗㅅ	-2233
▁ㅁㅕㄴㅈㅓㄱ	-2234
▁ㅁㅣㄷ	-2235
ㅇㅓㅆ	-2236
ㄴㅡㅇ	-2237
▁ㅊㅜㅈㅣㄴ	-2238
▁500	-2239
▁ㅅㅡㅇㅟ	-2240
▁ㅇㅣㄴㅌㅓㄴㅔㅅ	-2241
▁the	-2242
▁ㅈㅜㅇㅕㄴ	-2243
ㅏㅁㅣ	-2244
▁ㅍㅖㅈㅣ	-2245
▁ㄴㅔㄷㅓㄹㄹㅏㄴㄷㅡ	-2246
▁ㅇㅏㅈㅣㄱ	-2247
am	-2248
▁ㅇㅣㄷㅡㅁ	-2249
ㅋㅗㄴ	-2250
▁ㅈㅓㅂㅎㅏ	-2251
▁ㅁㅏㄴㅎㅘ	-2252
ㅂㅣㅇㅏ	-2253
▁ㅇㅠㄹㅐ	-2254
▁ㅌㅗㅇㅊㅣ	-2255
▁ㅂㅓㄴㅎㅗ	-2256
▁ㅇㅕㅇㅇㅕㄱ	-2257
▁ㅊㅗㅇㄹㅣ	-2258
▁ㅁㅗㄹㅡ	-2259
▁ㅇㅡㅁㅡㄹㅗ	-2260
▁ㅁㅜㄷ	-2261
ㄷㅣㄴ	-2262
▁ㅎㅐㅅㅓㄱ	-2263
▁ㅅㅓㅂㅜ	-2264
▁ㄱㅕㅇㄱㅣㅈㅏㅇ	-2265
▁ㅈㅔㅈㅜ	-2266
▁ㄷㅗㅅㅓ	-2267
▁ㅍㅡ	-2268
▁ㅎㅜㄴㄹㅕㄴ	-2269
▁ㄱㅕㅇㅈㅐㅇ	-2270
▁ㅌㅐㄱ	-2271
▁80	-2272
▁188	-2273
▁ㅁㅣㅅㅜㄹ	-2274
▁ㄱㅏㅅㅡ	-2275
▁ㅇㅣㅇㅓ	-2276
▁ㄹㅕㄴㅡㄴ	-2277
ㅅㅡㅌㅏ	-2278
▁ㄱㅜㄱㅎㅚㅇㅢㅇㅝㄴ	-2279
ㅎㅣㄹ	-2280
▁ㄱㅞ	-2281
▁ㄱㅣㅇㅕ	-2282
ㅏㅇㅜ	-2283
▁ㄱㅕㅇㅇㅕㅇ	-2284
▁UE	-2285
▁ㅇㅕㄴㅁㅐㅇ	-2286
▁ㅇㅣㄷㅡㅁㅎㅐ	-2287
▁+	-2288
il	-2289
ㅂㅓㄴ	-2290
▁ㅅㅣㄴㄹㅏ	-2291
▁ㅎㅚㅈㅏㅇ	-2292
▁ㅍㅏㄱㅚ	-2293
▁ㄴㅏㅁㅅㅓㅇ	-2294
▁ㅈㅏㅈㅜ	-2295
▁ㅁㅗㅇㅡ	-2296
▁ㅈㅜㅈㅔ	-2297
▁1994	-2298
▁ㅎㅐㅇㅅㅓㅇ	-2299
▁ㄱㅕㅇㄱㅖ	-2300
ㅁㅣㅇ	-2301
▁ㅅㅐㅇㅁㅜㄹ	-2302
▁ㄴㅏㄴㅟ	-2303
ㅜㄹㅡㅋㅡ	-2304
ㅎㅔㄴ	-2305
▁ㅈㅔㅇㅏㄴ	-2306
▁ㅇㅗㄹㄹ	-2307
▁ㅅㅗㅈㅐ	-2308
▁UEFA	-2309
ㅅㅡㄹㅗ	-2310
ㅇㅏㄷㅡㄹㅇㅣ	-2311
▁ㅈㅓㅇㅅㅏㅇ	-2312
▁ㅅㅣㄱㅁㅣㄴ	-2313
▁ㅂㅏㄹㄷㅏㄹ	-2314
▁ㄷㅐㅅㅏ	-2315
▁1970	-2316
▁ㅂㅜㅈㅓㅇ	-2317
▁ㄴㅗㄹㅕㄱ	-2318
▁ㅂㅓㅂㄹㅠㄹ	-2319
▁ㅁㅔㄹ	-2320
▁ㅇㅏㄹㅡㅁ	-2321
▁ㅈㅜㄱㅇㅣ	-2322
ac	-2323
▁ㅇㅕㄴㄱㅜㅅㅗ	-2324
▁ㅍㅗㄹㄹㅏㄴㄷㅡ	-2325
▁ㄲㅡㄹ	-2326
▁ㅇㅣㅂㅈㅏㅇ	-2327
▁ㅇㅏㅅㅣ	-2328
▁ㅅㅏㅁㅅㅓㅇ	-2329
▁ㄷㅡㅇㄹㅗㄱ	-2330
▁ㅈㅣㅋㅣ	-2331
ㄹㅛㅇ	-2332
▁ㄷㅗㅂ	-2333
▁ㅌㅜㅅㅜ	-2334
▁ㅇㅘㄴㅈㅓㄴㅎㅣ	-2335
▁ㅍㅛㄱㅣ	-2336
▁ㄱㅏㅇㅇㅝㄴ	-2337
▁ㅂㅗㄷㅗ	-2338
▁ㅂㅏㄱㅁㅜㄹ	-2339
ㅗㄹㄹㅣㄱ	-2340
ㅝㄷㅡ	-2341
ㄱㅅㅣ	-2342
▁ㅈㅣㅈㅣㄴ	-2343
▁ㄷㅗㅇㅂㅜ	-2344
▁ㄹㅏㄷㅣㅇㅗ	-2345
▁ㅇㅛㅊㅓㅇ	-2346
▁KBS	-2347
ㄱㅓㄹㅣ	-2348
▁ㅅㅜㅇㅛㅇ	-2349
▁ㄷㅏㄹㅣ	-2350
ㄴㅕ	-2351
▁ㅂㅕㄱ	-2352
▁ㄹㅑㅇ	-2353
▁ㅂㅏㅌㅏㅇ	-2354
▁ㅅㅓㅅㅣㄱ	-2355
▁ㄹㅏㅇㅣㄴ	-2356
ㅌㅓㅂ	-2357
▁ㅈㅔㅎㅏㄴ	-2358
▁ㅂㅓㄹㅇㅣ	-2359
▁ㅈㅗㄱㅏㄱ	-2360
ㄹㅡㅁ	-2361
▁ㄷㅐㅊㅔ	-2362
▁ㄴㅚ	-2363
▁ㄱㅡㅁㅈㅣ	-2364
▁ㅈㅓㅇㅅㅣㄱ	-2365
▁ㅇㅛㅅㅣ	-2366
▁1992	-2367
▁ㅁㅓㅁ	-2368
▁ㅇㅕㅇㅌㅗ	-2369
▁ㅇㅟㄹㄹㅣ	-2370
ㅣㄱㅅㅡ	-2371
▁ㅍㅕㄹ	-2372
▁ㅅㅗㅍㅡ	-2373
ㅝㅋㅡ	-2374
▁ㅈㅓㅂㄱㅡㄴ	-2375
▁ㅍㅣㄹㄹㅣ	-2376
▁ㅇㅜㅁㅈㅣㄱ	-2377
▁ㅇㅣㄴㅅㅣㄱ	-2378
▁ㅂㅔㄹㅡ	-2379
▁ㄱㅕㄹㅅㅓㅇ	-2380
▁ㄴㅏㅁㅓㅈㅣ	-2381
ro	-2382
▁ㅂㅜㅌㅇㅣ	-2383
▁ㅃㅏㅈㅣ	-2384
▁ㅁㅜㄷㅐ	-2385
▁ㅇㅓㅂㅁㅜ	-2386
▁ㅈㅔㅈㅗ	-2387
ㄱㅏㅂ	-2388
ㅎㅓ	-2389
▁ㅇㅚㄱㅛ	-2390
▁ㅁㅏㅊㅏㄴ	-2391
▁ㅁㅏㅊㅏㄴㄱㅏㅈㅣ	-2392
ㄱㅌㅓ	-2393
▁45	-2394
▁ㅂㅏㄴㅁㅕㄴ	-2395
▁ㅊㅓㄹㅎㅏㄱ	-2396
▁ㄱㅡㄹㅓㄴ	-2397
▁ㅇㅡㄴㅎㅐㅇ	-2398
ㅌㅗㄹㅣ	-2399
ㅔㅌㅡ	-2400
▁ㄴㅠㅅㅡ	-2401
▁ㅁㅣㄴㅈㅜㄷㅏㅇ	-2402
ed	-2403
ㅏㄴㅗ	-2404
ㅅㅓㅂ	-2405
▁ㅉㅏㄼ	-2406
ㄷㅔㄹ	-2407
▁ㄱㅗㅇㅈㅏㄱ	-2408
ㅋㅏㄹ	-2409
▁ㅅㅜㅎㅏㄱ	-2410
▁of	-2411
▁ㅅㅡㅅㅡㄹㅗ	-2412
ㄹㅔㅅㅡ	-2413
ㅔㅇㅣㅅㅡ	-2414
▁ㅈㅣㄷㅐ	-2415
▁ᄇㄴㅣㄷㅏ	-2416
▁ㄱㅏㅌㅗㄹㄹㅣㄱ	-2417
ㅌㅏㅂ	-2418
ㄹㅏㅁ	-2419
ㅌㅡㄹㄹ	-2420
▁ㄱㅣㅊㅗ	-2421
▁ㅅㅡㅇㅞ	-2422
▁ㅂㅏㄱㅁㅜㄹㄱㅘㄴ	-2423
▁36	-2424
▁ㅈㅣㅂㅎㅏㅂ	-2425
▁ㅍㅔㄹㅡ	-2426
▁ㅇㅣㅁㅅㅣ	-2427
ㅈㅜㅅㅣ	-2428
▁ㅇㅠㄹㅗ	-2429
▁ㄱㅓㅂㅜ	-2430
▁ㅊㅗㄴ	-2431
▁ㅂㅏㄱㅅㅏ	-2432
▁ㄷㅗㄹㅇㅏㄱㅏ	-2433
▁ㅂㅏㄷㅇㅏㄷㅡㄹㅇㅣ	-2434
▁ㅂㅏㄹㅅㅏ	-2435
ㅏㅈㅣㄹ	-2436
▁ㅂㅗㄱㄱㅟ	-2437
ㅁㅗㄴ	-2438
▁ㅊㅗㄷㅐ	-2439
▁ㅈㅜㅇㅢ	-2440
ㅣㅂㅡ	-2441
ㅈㅏㄹ	-2442
▁ㅅㅗㄹㅣ	-2443
ㄹㅡㅇ	-2444
ig	-2445
▁ㅅㅏㅇㅎㅗ	-2446
▁ㅂㅡㄹㅏㅈㅣㄹ	-2447
▁ㄷㅏㅅㅜ	-2448
▁ㅅㅜㅁㅏ	-2449
▁ㅅㅓㅇㄱㅕㄱ	-2450
▁ㅈㅣㄷㅗㅈㅏ	-2451
▁ㅍㅏㅇㅣㄹ	-2452
▁ㅎㅘㅎㅏㄱ	-2453
▁ㄱㅣㄱㅜ	-2454
▁ㄴㅗㄴㄹㅏㄴ	-2455
▁ㄹㅗㅆㅓ	-2456
▁ㅇㅢㅅㅣㄱ	-2457
▁ㅍㅛㅅㅣ	-2458
▁ㄲㅐ	-2459
▁ㅇㅕㄹㅡㅁ	-2460
▁ㅇㅕㅎㅐㅇ	-2461
▁ㅊㅏㅇㅝㄴ	-2462
▁ㅈㅏㅇㅅㅗ	-2463
▁ㄱㅏㄹㅣㅋㅣ	-2464
▁ㅁㅜㄱㅣ	-2465
▁ㄱㅖㅇㅕㄹ	-2466
▁ㄷㅣㅅㅡ	-2467
▁ㅁㅏㄹㅣ	-2468
▁1991	-2469
ㅏㅌ	-2470
ㄷㅐㄱ	-2471
▁ㄱㅐㄱㅜㄱ	-2472
▁1960	-2473
ㅏㅇㅜㄴㄷㅡ	-2474
▁ㅅㅣㄱㅁㅜㄹ	-2475
▁ㅅㅣㄹㅈㅔㄹㅗ	-2476
▁ㅇㅣㄱㅣ	-2477
▁ㅇㅕㄴㄱㅡㄱ	-2478
▁ㅋㅏㄷㅡ	-2479
▁ㅎㅐㄱㅕㄹ	-2480
▁ㄱㅡㄷㅐㄹㅗ	-2481
▁ㄱㅘㄴㅊㅡㄱ	-2482
ㅌㅡㅇㅞㅇㅓ	-2483
▁ㅕ	-2484
▁ㅅㅡㅇㅞㄷㅔㄴ	-2485
▁ㅅㅗㅍㅡㅌㅡㅇㅞㅇㅓ	-2486
▁ㅂㅗㅅㅜ	-2487
ㅇㅜㅇ	-2488
ㅂㅐㅇㅜ	-2489
▁ㅇㅣㅇㅚ	-2490
▁ㄷㅡㄱㅈㅓㅁ	-2491
▁ㅅㅜㅁ	-2492
ㅔㅇㅣㄹㄹㅣㅇㅏ	-2493
▁ㄷㅣㅈㅣ	-2494
▁1993	-2495
▁ㄷㅓㅂㅜㄹ	-2496
▁ㅇㅏㅇㅣㄹㄹㅐㄴㄷㅡ	-2497
▁ㅁㅛㅅㅏ	-2498
▁ㅅㅠㅍㅓ	-2499
▁ㅊㅏㅌㅡ	-2500
ㅂㅗㄹ	-2501
▁ㅎㅚㅇㅝㄴ	-2502
▁ㄷㅏㄴㅣ	-2503
▁ㅈㅏㅇㅇㅐ	-2504
ㅇㅠㅇ	-2505
▁ㅂㅜㄴㅍㅗ	-2506
ㅈㅔㄴ	-2507
ㅑㅁㅏ	-2508
ㅣㄹㅡ	-2509
▁ㄷㅏㄴㅅㅜㄴ	-2510
▁ㅎㅘㄹㅇㅛㅇ	-2511
▁ㅋㅐㄹㅣㄱ	-2512
▁ㅇㅏㄴㅈㅓㄴ	-2513
▁ㄱㅣㄱㅖ	-2514
▁ㄱㅡㄴㅊㅓ	-2515
▁ㅈㅗㅅㅓㅇ	-2516
▁33	-2517
▁ㄱㅓㅁㅅㅏ	-2518
▁ㅇㅕㄱㅐㄱ	-2519
ㅌㅡㄱㅂㅕㄹㅅㅣ	-2520
▁ㅁㅜㅇㅕㄱ	-2521
▁ㄲㅣ	-2522
▁ㄲㅜㅁ	-2523
▁ㄸㅟㅇㅓㄴㅏ	-2524
▁ㅂㅡ	-2525
ㄹㄹ	-2526
▁ㅂㅏㄹㅎㅐㅇ	-2527
▁ㅈㅔㅅㅣ	-2528
▁ㅇㅏㄷㅗ	-2529
▁ㄱㅏㅇㄹㅕㄱ	-2530
ㅔㄴㅌㅡ	-2531
ㄱㅚ	-2532
▁ㅅㅓㅇㅜㄹㅌㅡㄱㅂㅕㄹㅅㅣ	-2533
od	-2534
▁ㅋㅗㅁ	-2535
▁ㄴㅡㄲㅣ	-2536
▁ㅎㅕㅇㅈㅔ	-2537
▁ㅇㅗㅅㅡㅌㅡㄹㅣㅇㅏ	-2538
▁ㄱㅓㄴㄴ	-2539
ㄱㅘㅇㅇㅕㄱㅅㅣ	-2540
▁ㅈㅣㅎㅏㅊㅓㄹ	-2541
▁ㅊㅗㅇㅅㅓㄴ	-2542
▁ㅎㅡㅂ	-2543
ㄱㅅㅣㅋㅗ	-2544
ㅗㅅㅔ	-2545
▁ㅅㅡㅌㅠ	-2546
▁ㅈㅜㅇㄱㅏㄴ	-2547
▁ㅂㅏㅇㅣㄹ	-2548
▁ㄱㅝㄴㄹㅕㄱ	-2549
▁ㅍㅐㅂㅐ	-2550
▁ㅁㅣㅅㅏㅇ	-2551
▁ㅆㅏㅇㅜ	-2552
▁ㅅㅡㅂㄴㅣㄷㅏ	-2553
▁ㅅㅏㅇㅣㅌㅡ	-2554
▁ㅂㅏㄴㄹㅏㄴ	-2555
ㄷㅏㅁㅕㄴ	-2556
▁ㅈㅜㅇㄷㅏㄴ	-2557
▁ㄱㅕㅇㅅㅏㅇㄴㅏㅁㄷㅗ	-2558
ㅈㅣㅅㅕㄴ	-2559
▁ㄷㅏㄴㅇㅓ	-2560
▁ㅇㅏㅁㅏ	-2561
▁ㅎㅡ	-2562
▁ㄸㅣ	-2563
ㅜㄹㅕ	-2564
▁ㅅㅣㅎㅐㅇ	-2565
ㅅㅡㅋㅗ	-2566
▁186	-2567
ve	-2568
as	-2569
▁ㅊㅡ	-2570
▁ㅋㅐㄹㅣㄱㅌㅓ	-2571
▁ㅇㅣㄹㅈㅓㅇ	-2572
▁ㅇㅟㅎㅓㅁ	-2573
▁ㅍㅏㅇㅣ	-2574
▁ㅅㅔㄷㅐ	-2575
ㅇㅗㄴ	-2576
▁ㅊㅟㅎㅏ	-2577
▁ㄷㅏㅁㅏㄴ	-2578
▁ㅎㅐㅇㅏㄴ	-2579
ㅣㄹㄹㅣ	-2580
▁ㄴㅣㅁ	-2581
▁ㅇㅗㅅㅡㅌㅡㄹㅔㅇㅣㄹㄹㅣㅇㅏ	-2582
▁ㅎㅕㅂㄹㅕㄱ	-2583
ㅏㄷ	-2584
▁ㄱㅕㅇㅅㅏㅇㅂㅜㄱㄷㅗ	-2585
▁ㅊㅐㄴ	-2586
▁ㄱㅣㅈㅏ	-2587
ㅈㅡㄴ	-2588
ㅔㅇㅣㅁ	-2589
▁ㅂㅏㅇㅣ	-2590
▁ㅅㅜㄴㅇㅟ	-2591
▁ㅇㅗㅂㅡ	-2592
▁ㅈㅣㅈㅓㄱ	-2593
▁ㅁㅓㄴㅈㅓ	-2594
ㅅㅏㅋㅏ	-2595
▁",	-2596
▁ㅅㅐㅇㅅㅓㅇ	-2597
▁ㅈㅓㄴㅅㅣ	-2598
▁ㅌㅐㅍㅕㅇ	-2599
▁ㅎㅖ	-2600
ㅁㅕ	-2601
▁ㅎㅜㄱㅣ	-2602
▁ㅁㅏㄴㅋㅡㅁ	-2603
▁ㅂㅓㄴㅇㅕㄱ	-2604
▁ㄷㅗㅊㅏㄱ	-2605
ㅅㅗㄴㅕㄴ	-2606
▁ㄴㅐㄱㅏㄱ	-2607
▁ㄱㅘㅇㅈㅜ	-2608
▁ㅇㅓㅇ	-2609
▁ㅅㅜㅁㅏㄶ	-2610
▁ㅇㅕㄴㅈㅏㅇ	-2611
▁ㅈㅣㅅㅏㅇ	-2612
▁ㄷㅜㅇ	-2613
▁ㄱㅔㅇㅣ	-2614
▁ㅍㅏㄱㅕㄴ	-2615
▁ㄱㅘㄴㄱㅘㅇ	-2616
▁ㅇㅟㄹㄹㅣㅇㅓㅁ	-2617
▁ㅇㅠㅎㅕㅇ	-2618
▁ㅍㅡㄹㄹㅐ	-2619
▁ㄱㅗㅇㅈㅏㅇ	-2620
▁ㅂㅗㄴㅂㅜ	-2621
▁ㅈㅜㄱㅇㅡㅁ	-2622
▁ㅋㅗㄷㅡ	-2623
▁ㅅㅓㄴㄱ	-2624
▁ㅎㅏㄹㅜ	-2625
▁ㅅㅔㅅㅏㅇ	-2626
▁1988	-2627
ㅂㅔㄹㅡ	-2628
▁ㅂㅗㅇㅠ	-2629
▁ㄷㅗㅇㅅㅐㅇ	-2630
▁ㅁㅠㅈㅣㄱ	-2631
▁ㅈㅚ	-2632
▁ㅂㅗㅈㅗㄴ	-2633
▁ㅇㅏㅋㅏ	-2634
▁ㅅㅏㄻ	-2635
▁ㅇㅑㅇㅅㅣㄱ	-2636
▁ㄷㅡㄹㅇㅓㅇㅗ	-2637
▁ㅂㅏㅇㅇㅓ	-2638
▁ㅇㅝㄴㅅㅗ	-2639
ㅇㅡㅂ	-2640
▁ㅁㅏㅅ	-2641
ㄷㅐㅇ	-2642
▁ㅂㅏㄹㅡ	-2643
▁187	-2644
▁ㄱㅡㄱㅈㅏㅇ	-2645
▁ㅅㅏㅇㅈㅣㅇ	-2646
▁ㅂㅜㅇㅕ	-2647
ㅁㅜㅇㅝㄴ	-2648
ㄹㅏㅇㅣㄴ	-2649
ㄹㅔㅇㅣ	-2650
▁ㄱㅕㄲ	-2651
ㅁㅕㄹ	-2652
▁ㄴㅜ	-2653
▁ㅍㅣㄱ	-2654
▁ㄱㅏㅁㅅㅗ	-2655
▁ㄱㅠㄴ	-2656
▁ㅂㅡㄹㅣ	-2657
▁ㅌㅔㄴ	-2658
▁ㅌㅜㅈㅏ	-2659
▁ㅎㅏㄱㅇㅟ	-2660
▁ㅈㅓㄴㄹㅏㄴ	-2661
▁ㄱㅟㅈㅗㄱ	-2662
▁ㅎㅕㅁ	-2663
▁ㅊㅘㄹ	-2664
▁ㅎㅘㄱㄷㅐ	-2665
▁ㄱㅡㄴㅁㅜ	-2666
▁ㄷㅣㅈㅣㅌㅓㄹ	-2667
▁ㅇㅕㅇㅅㅏㅇ	-2668
▁ㅅㅏㅇㅇㅓㅂ	-2669
▁ㅈㅣㅅㅣㄱ	-2670
▁ㅎㅔㄴ	-2671
▁ᆫㄱㅏ	-2672
▁ㄷㅏㄴㅇㅟ	-2673
▁ㄴㅏㅎ	-2674
▁ㄷㅏㄹㅅㅓㅇ	-2675
▁ㅂㅏㄹㅁㅐㄷㅚ	-2676
▁ㅅㅓㅇㄹㅣㅂ	-2677
▁ㄷㅔㄹ	-2678
▁?	-2679
ㅏㅇㅔㄹ	-2680
▁ㅇㅟㄱㅣ	-2681
▁ㄱㅜㅎㅏ	-2682
▁ㅈㅔㄱㅣ	-2683
▁ㅇㅣㄹㅏㄱㅗ	-2684
▁ㅈㅣㅅ	-2685
ㄹㅏㅇㅣ	-2686
id	-2687
▁ㅁㅔㄱㅅㅣㅋㅗ	-2688
▁ㅇㅕㅍ	-2689
▁ㅇㅘㄴㅅㅓㅇ	-2690
▁ㅈㅗㅇㅁㅗㄱ	-2691
▁ㅇㅣㄴㅅㅏ	-2692
▁34	-2693
ㅔㅇㅣㅌㅡ	-2694
▁ㄷㅡㄷ	-2695
▁ㄷㅐㅇㅡㅇ	-2696
ㅜㄴㄷㅡ	-2697
ㅎㅚㅅㅏ	-2698
▁ㅈㅔㄴ	-2699
▁ㄹㅜㅇㅣ	-2700
▁ㅈㅏㄹㅏ	-2701
▁38	-2702
▁ㅎㅡㄹㅡ	-2703
▁ㅇㅠㄹㅣ	-2704
ㅑㄴ	-2705
▁ㄱㅖㅅㅡㅇ	-2706
▁ㅊㅘㄹㅇㅕㅇ	-2707
▁ㅈㅓㄴㄹㅑㄱ	-2708
ㅍㅣㅇ	-2709
▁2021	-2710
▁ㄱㅐㅌㅗㅇ	-2711
▁ㅇㅏㄹㄹㅔㄱㅅㅏㄴ	-2712
ec	-2713
▁h	-2714
▁ㅁㅣㅌ	-2715
▁ㅅㅡㅇㄱㅕㄱ	-2716
ㅊㅣㅇㅣㄴ	-2717
▁ㄴㅏㅂ	-2718
▁ㅊㅔㄱㅕㄹ	-2719
▁ㅇㅣㅈㅣㅂ	-2720
ㅏㅁㄷㅗ	-2721
▁ㅈㅜㅅㅣㄱ	-2722
▁ㄱㅜㄱㅇㅘㅇ	-2723
▁ㅅㅣㄱㅁㅣㄴㅈㅣ	-2724
▁ㄷㅗㅇㄱㅖ	-2725
▁ㅁㅜㄴㅎㅘㅈㅐ	-2726
▁ㅋㅗㅊㅣ	-2727
▁1989	-2728
ㅍㅜㄹ	-2729
ㅁㅕㅊ	-2730
▁ㅁㅕㅊㅁㅕㅊ	-2731
▁90	-2732
▁ㅇㅣㄹㅏㄴ	-2733
▁ㄷㅏㅇㅅㅓㄴ	-2734
▁ㅎㅜㄱ	-2735
▁ㄷㅡㄴ	-2736
▁ㄴㅏㅈㅜㅇ	-2737
▁ㅎㅣㄹㅗ	-2738
▁ㅅㅣㄴㅐ	-2739
▁ㄷㅗㅅㅓㄱㅘㄴ	-2740
ㅂㅓㅌㅡ	-2741
▁ㅎㅗㅇㅋㅗㅇ	-2742
▁ㅊㅐㄴㅓㄹ	-2743
▁ㄷㅠ	-2744
▁ㅈㅓㅇㅊㅣㅇㅣㄴ	-2745
▁ㅅㅣㅊㅓㅇ	-2746
▁ㅅㅣㅌㅣ	-2747
▁ㅌㅡㄱㅅㅜ	-2748
▁ㅌㅓㅁ	-2749
▁ㅂㅗㅅ	-2750
▁ㅈㅓㄴㄷㅏㄹ	-2751
▁ㅇㅏㄴㅐ	-2752
us	-2753
▁ㅈㅓㄴㄹㅏ	-2754
▁ㅊㅜㄴ	-2755
▁48	-2756
▁ㅁㅏㅇㅣㅋㅡ	-2757
ㅊㅗㄱ	-2758
▁ㄷㅐㄹㅠㄱ	-2759
and	-2760
▁ㅁㅣㅅㅏㅇㅣㄹ	-2761
▁ㅅㅐㅇㅁㅕㅇ	-2762
▁ㅊㅔㅍㅗ	-2763
▁ㅅㅣㅍ	-2764
ㅇㅠㄹ	-2765
▁ㄹㅠㄹ	-2766
▁ㅅㅓㅅ	-2767
▁ㅂㅓㄹㅇㅓㅈㅣ	-2768
▁ㅂㅗㄴㄱㅘㄴ	-2769
▁ㅊㅔㄹ	-2770
▁ㄱㅝㄴㄹㅣ	-2771
▁ㅅㅡㅋㅗ	-2772
▁ㅊㅡㄱㅈㅓㅇ	-2773
▁ㅌㅏㅇㅣㅌㅡㄹ	-2774
▁ㅈㅣㄱㅎㅜ	-2775
ㅁㅜㄱ	-2776
▁ㅁㅏㅊㅣ	-2777
▁ㅁㅣㄱㅜㄴ	-2778
ㅋㅗㄷㅡ	-2779
▁ㅇㅗㅅㅡ	-2780
▁ㅅㅓㄹㅈㅓㅇ	-2781
ㅎㅕㄹ	-2782
▁ㅋㅏㅇㅜㄴ	-2783
▁ㅇㅣㄹㅓㅎㄱㅔ	-2784
▁ㅁㅏㅈㅊㅜ	-2785
ㅠㄴ	-2786
ㅇㅓㅄ	-2787
▁ㄱㅘㄴㅊㅏㄹ	-2788
▁ㅈㅓㄴㄹㅏㄴㅏㅁㄷㅗ	-2789
▁ㅈㅜㅇㅓㅈㅣ	-2790
▁ㅈㅓㄴㅎㅘㄴ	-2791
▁e	-2792
▁ㅆㅏㅎ	-2793
▁ㅈㅓㄻ	-2794
ㅁㅗㅇ	-2795
▁ㅅㅗㅅㅜ	-2796
▁ㅍㅕㄹㅊㅣ	-2797
▁ㅈㅔㅇㅣㅁ	-2798
▁ㄱㅓㄹㄹㅣ	-2799
▁ㄹㅏㄱ	-2800
▁ㅌㅡㄱㅅㅓㅇ	-2801
▁|	-2802
▁ㅈㅡㄹ	-2803
ㅁㅗㅅ	-2804
▁ㅍㅏㄴㄷㅏㄴ	-2805
▁ㅈㅔㅈㅓㅇ	-2806
▁1950	-2807
▁ㄱㅣㅎㅚㄱ	-2808
▁ㅈㅗㅇㄹㅛ	-2809
▁ㅊㅜㄹㅅㅐㅇ	-2810
▁',	-2811
NA	-2812
▁ㅊㅟㅇㅣㅁ	-2813
▁300	-2814
ad	-2815
▁ㄱㅐㅈㅓㅇ	-2816
ㅅㅔㄹ	-2817
▁MBC	-2818
▁ㅅㅣㄴㄱㅕㅇ	-2819
ㅔㄱ	-2820
ㅁㅓㄴ	-2821
ㅔㅇㅣㄷㅡ	-2822
ㅌㅡㅇㅝㅋㅡ	-2823
▁ㄱㅕㄹㅅㅡㅇㅈㅓㄴ	-2824
▁ㅊㅓㅇㄴㅕㄴ	-2825
▁ㄱㅖㅅㅏㄴ	-2826
▁ㅈㅜㅇㅣㄴㄱㅗㅇ	-2827
▁ㅇㅔㄹㄹㅣ	-2828
▁ㅇㅡㅁㅅㅣㄱ	-2829
ㅊㅜㄴ	-2830
ent	-2831
▁ㄷㅏㄹㅎㅏ	-2832
▁ㅇㅏㄹㅏㅂ	-2833
ㅕㅇㅗ	-2834
▁ㅅㅜㅅㅏ	-2835
▁ㅅㅣㅇㅟ	-2836
▁ㅈㅣㅇㅟ	-2837
▁ㄷㅏㅂ	-2838
▁ㅌㅓㄹ	-2839
▁ㅂㅏㅇㅣㄹㅓㅅㅡ	-2840
▁ㅇㅔㅅㅡ	-2841
▁ㅈㅔㅇㅣㅁㅅㅡ	-2842
ㅆㅏ	-2843
ㅣㄹㅏ	-2844
▁ㅂㅓㅁㅈㅚ	-2845
▁ㄴㅔㅌㅡㅇㅝㅋㅡ	-2846
ㅣㅇㅔㄹ	-2847
▁ㄱㅡㄴㄱㅓ	-2848
▁ㅅㅜㅈㅓㅇ	-2849
▁ㄴㅗㄱㅇㅡㅁ	-2850
▁ㅅㅏㅎㅚㅈㅜㅇㅢ	-2851
▁1945	-2852
▁ㅇㅡㄴㅎㅏ	-2853
▁ㅈㅏㅂㅗㄴ	-2854
▁ㅇㅣㅈㅣㅂㅌㅡ	-2855
ㅇㅏㄴㅐ	-2856
▁ㅇㅣㅍ	-2857
▁ㅇㅢㄱㅕㄴ	-2858
▁ㅊㅜㅇㄷㅗㄹ	-2859
▁ㅌㅗㅁ	-2860
▁ㅊㅔㅇㅠㄱ	-2861
▁ㅈㅜㅁㅗㄱ	-2862
▁ㅈㅡㄱㅇㅟ	-2863
▁ㄱㅛㅊㅔ	-2864
▁ㅎㅐㅇㅚ	-2865
▁ㅅㅗㄱㅐ	-2866
ㄴㅏㄴ	-2867
▁ㅊㅓㄴㅎㅘㅇ	-2868
▁ㅅㅜㅂㅣ	-2869
▁ㅂㅓㅅ	-2870
▁ㅇㅡㅁㅕㄴㅅㅓ	-2871
▁ㅇㅏㅆㅇㅓㅆ	-2872
▁ㅍㅗㅈㅣㅅㅕㄴ	-2873
▁ㅋㅡㄹㅗ	-2874
▁ㅈㅏㄱㅕㄱ	-2875
▁ㅇㅣㅅㅡㄹㄹ	-2876
▁ㅅㅗㅈㅏㅇ	-2877
▁ㅅㅓㅇㅇㅜ	-2878
▁ㅅㅡㅋㅣ	-2879
▁ㅂㅣㅇㅛㅇ	-2880
▁ㅈㅏㅇㄱㅣ	-2881
▁ㅈㅓㄴㅊㅏ	-2882
▁ㄷㅔㅇㅣㅂㅣ	-2883
▁ㄴㅏㅁㅂㅜㄱ	-2884
▁ㅂㅗㄴㄹㅐ	-2885
▁ㄱㅓㄴㄱㅏㅇ	-2886
▁ㄱㅗㅇㄱㅡㅂ	-2887
▁ㅇㅣㄴㄱㅡㄴ	-2888
▁ㄱㅞㄷㅗ	-2889
50	-2890
▁ㅅㅡㄹㄹ	-2891
▁ㅂㅐㄱㅕㅇ	-2892
▁ㄱㅐㅅㅓㄴ	-2893
▁ㅎㅏㅂㄹㅠ	-2894
ㄹㅣㅎㅏㄱ	-2895
▁ㅍㅗㅁ	-2896
▁ㄱㅗㅇㅂㅜ	-2897
ㅅㅏㄱㅘㄴ	-2898
ㅡㄹㄹㅣㄴ	-2899
▁ㅌㅡㄹㅣ	-2900
▁ㅁㅕㅇㄷㅏㄴ	-2901
▁ㅈㅔㄱㅓ	-2902
ㅖㄴ	-2903
▁ㅇㅗㄹㅡㄴ	-2904
▁ㅇㅠㄴㅣ	-2905
▁ㅁㅣㄹㅐ	-2906
ㄷㅗㅇㅜ	-2907
▁ㄱㅗㅇㄱㅜㄴ	-2908
▁ㅇㅣㄹㅐ	-2909
▁ㅁㅕㅇㅇㅖ	-2910
▁ㅇㅚㄴ	-2911
▁ㄱㅏㅁㅇㅕㅁ	-2912
▁ㅇㅣㅈㅜ	-2913
ㅋㅏㅇㅣ	-2914
▁ㅈㅏㄱㅅㅓㅇ	-2915
▁ㅁㅗㅇㅣ	-2916
▁ㄱㅖㄱㅣ	-2917
▁ㄱㅜㄱㄱㅕㅇ	-2918
▁ㅍㅡㄹㅔ	-2919
▁ㄱㅏㅇㅣㅂ	-2920
ㅈㅓㄴㅎㅣ	-2921
▁ㅋㅓㄹ	-2922
ㅓㄱㅜ	-2923
▁ㅊㅓㄴㅁㅜㄴ	-2924
▁ㄱㅏㄱㅈㅗㅇ	-2925
▁ㄱㅣㅎㅜ	-2926
▁ㅌㅓㅁㅣㄴ	-2927
▁ㅇㅝㄴㅈㅓㅇ	-2928
▁ㅅㅜㅍ	-2929
▁ㄱㅜㄴㅇㅣㄴ	-2930
▁ㅈㅏㅇㅝㄴ	-2931
▁ㅂㅜㅁㅗ	-2932
▁ㅇㅣㅂㅎㅏㄱ	-2933
▁ㅈㅣㄹㄹㅑㅇ	-2934
▁ㅇㅣㄺ	-2935
▁ㅅㅚ	-2936
▁x	-2937
▁ㅇㅜㄹㅅㅏㄴ	-2938
▁ㅅㅣㄴㅎㅏㄱ	-2939
▁St	-2940
▁ㄱㅓㄷㅐ	-2941
▁ㅌㅓㄴ	-2942
▁ㅋㅏㅇㅣ	-2943
▁ㄱㅏㄱㅕㄱ	-2944
▁ㄴㅜㄱㅜ	-2945
ㄷㅗㄹㅗ	-2946
▁ㅈㅜㄹㅇㅣ	-2947
▁ㅏㅆ	-2948
ㅋㅓㅅ	-2949
▁ㅇㅣㅅㅡㄹㄹㅏㅁ	-2950
▁ㅈㅣㅂㅈㅜㅇ	-2951
▁ㄱㅏㅇㅇㅝㄴㄷㅗ	-2952
ot	-2953
▁ㄴㅗㅇㅇㅓㅂ	-2954
▁ㅈㅓㄴㅅㅏ	-2955
ㅌㅜㄱ	-2956
▁ㅅㅗㅅㅗㅇ	-2957
▁ㅅㅣㄹㅎㅐㅇ	-2958
ㅋㅡㅅㅡ	-2959
ㅌㅡㄹㅣ	-2960
▁ㅊㅓㅁ	-2961
▁ㅇㅗㅍㅡㄴ	-2962
ㅇㅠㄴ	-2963
▁ㅂㅡㄹㄹㅐㄱ	-2964
▁ㅌㅓㅁㅣㄴㅓㄹ	-2965
▁ㅌㅐㅍㅕㅇㅇㅑㅇ	-2966
▁ㅈㅓㅎㅏㅇ	-2967
ㅊㅓㄹㄷㅗ	-2968
▁in	-2969
▁ㄱㅕㅇㅜㄹ	-2970
un	-2971
▁ㅎㅏㄱㅁㅜㄴ	-2972
▁ㅊㅡㄱㅁㅕㄴ	-2973
▁ㅇㅗㅎㅜ	-2974
▁ㅎㅗㅁㄹㅓㄴ	-2975
▁ㅁㅏㄴㅇㅑㄱ	-2976
▁ㄲㅗㄹㅣ	-2977
ㅊㅏㅁ	-2978
ㅗㄴㅏ	-2979
▁ㅌㅗㅇㅈㅔ	-2980
▁ㅋㅔㄹ	-2981
▁ㄹㅗㅁ	-2982
ㅂㅔㄴ	-2983
▁ㅈㅓㅇㅊㅏㄱ	-2984
▁ㅇㅣㄴㅅㅜ	-2985
ow	-2986
▁ㅂㅕㅇㄹㅕㄱ	-2987
ㅣㄴㅗ	-2988
▁ㄷㅐㄴ	-2989
▁ㅈㅡㅇㅁㅕㅇ	-2990
▁ㅌㅔㄱ	-2991
▁ㅇㅑㄱㄱㅏㄴ	-2992
ㅁㅛ	-2993
▁37	-2994
▁ㅁㅣㄹㄷㅗ	-2995
ㅜㅅ	-2996
ㅌㅣㄴㅏ	-2997
▁ㅇㅣㅅㅡㄹ	-2998
▁ㅍㅕㄴㅈㅣㅂ	-2999
▁ㅁㅜㅈㅏㅇ	-3000
ㅌㅣㅁ	-3001
▁ㅋㅐㄹㄹㅣ	-3002
▁ㄱㅜㄱㅂㅏㅇ	-3003
▁ㅊㅚㅅㅗ	-3004
▁ㅈㅔㅁㅗㄱ	-3005
▁ㅇㅚㅂㅜ	-3006
▁ㅁㅗㅇㄱㅗㄹ	-3007
▁ㅅㅗㅂㅣ	-3008
▁ㅍㅣㅎㅏ	-3009
▁ㅈㅣㅈㅓㅁ	-3010
▁ㅇㅕㅇㅎㅘㅂㅐㅇㅜ	-3011
▁ㄷㅏㅋ	-3012
ㄱㅗㄹㅣ	-3013
▁ㅊㅜㅇㅊㅓㅇㄴㅏㅁㄷㅗ	-3014
▁ㄱㅏㅇㅈㅗ	-3015
▁ㅂㅏㄹㅏㅁ	-3016
▁1987	-3017
▁ㅎㅐㅂㅏㅇ	-3018
▁ㅁㅣㄷㅣㅇㅓ	-3019
ㅎㅗㄹ	-3020
ㅍㅣㅇㅏ	-3021
▁ㅂㅕㅇㅅㅏ	-3022
ㅈㅜㄹ	-3023
▁w	-3024
▁ㄴㅏㅅㅓ	-3025
ㄷㅗㅇㅇㅏㄴ	-3026
▁ㅎㅏㅂㅂㅕㅇ	-3027
▁ㄱㅘㅇㄱㅗ	-3028
▁ㄱㅡㅁㅇㅠㅇ	-3029
▁ㅎㅘㄴㅈㅏ	-3030
▁ㅇㅠㄷㅗ	-3031
▁ㅍㅛㅁㅕㄴ	-3032
▁ㄱㅡㅎㅐ	-3033
▁ㅅㅓㄴㅅㅜㄷㅏㄴ	-3034
▁ㅇㅟㄴㄷㅗㅇㅜ	-3035
▁ㄴㅗㄷㅗㅇㅈㅏ	-3036
▁ㄱㅣㅎㅚ	-3037
▁ㅃㅏㄹ	-3038
▁ㅇㅏㅅㅣㅇㅏㄴ	-3039
▁ㄹㅏㅇㅜㄴㄷㅡ	-3040
▁ㅍㅗㄹㅡㅌㅜㄱ	-3041
▁ㄹㅕㅇ	-3042
▁ㅅㅏㄹㅏㅈㅣ	-3043
▁ㅎㅏㄱㄴㅕㄴ	-3044
▁ㅇㅗㅅㅏㅋㅏ	-3045
▁ㅈㅐㅈㅣㄱ	-3046
▁ㅍㅗㄹㅡㅌㅜㄱㅏㄹ	-3047
▁ㄷㅗㅈㅜㅇ	-3048
▁ㅅㅓㅇㄱㅘ	-3049
▁ㄷㅡㅇㄱㅡㅂ	-3050
▁ㅁㅜㄹㅕㅂ	-3051
ㄹㅗㅇ	-3052
ur	-3053
▁ㅇㅔㅁ	-3054
ㅘㅇㅣ	-3055
▁ㅈㅓㄴㄹㅕㄱ	-3056
▁1984	-3057
▁1986	-3058
▁ㅁㅏㄹㅕㄴ	-3059
▁ㅇㅑㅇㅅㅓㅇ	-3060
▁ㅅㅣㄴㅎㅗ	-3061
▁41	-3062
▁ㅂㅗㅁ	-3063
ㅈㅜㄱㅛ	-3064
▁ㄷㅐㅅㅜ	-3065
▁ㅎㅓㅇㅛㅇ	-3066
ㅅㅡㄹㄹ	-3067
ㄴㅏㅁㅜ	-3068
▁ㄷㅟㅅ	-3069
ㅇㅛㅇㅣㄹ	-3070
ㅇㅏㅅㅣㅇㅏ	-3071
▁ㅇㅐㅇ	-3072
ㄱㅏㄹㅣ	-3073
▁51	-3074
▁ㅅㅡㅌㅠㄷㅣㅇㅗ	-3075
▁ㅁㅣㄴㄱㅏㄴ	-3076
▁ㅎㅕㅁㅇㅢ	-3077
▁ㅋㅐㄹㄹㅣㅍㅗㄴ	-3078
▁ㅁㅔㄴ	-3079
▁ㅇㅖㅅㅜ	-3080
ㅓㄱㅡ	-3081
ㅣㄴㅣ	-3082
▁ㅇㅔㄴㅌㅓ	-3083
▁ㅂㅜㅇㄱㅚ	-3084
▁ㅈㅓㄴㅇㅕㄱ	-3085
▁ㅇㅣㅂㅓㄴ	-3086
▁ㅈㅐㅅㅏㄴ	-3087
▁ᆫㄷㅏㅁㅕㄴ	-3088
▁ㅕㅅㅓ	-3089
▁ㅂㅗㄱㅗ	-3090
▁ㅊㅜㅇㅂㅜㄴ	-3091
▁ㅅㅐㄹㅗ	-3092
▁ㅁㅓ	-3093
ㄹㅚ	-3094
▁ㄱㅗㅇㄱㅗㅇ	-3095
▁ㅇㅕㅈㅓㄴㅎㅣ	-3096
▁ㅈㅓㄴㅂㅏㄴ	-3097
ㅏㅁㅗ	-3098
▁ㅎㅐㅇㅎㅏ	-3099
▁ㄱㅗㅈㅓㄴ	-3100
▁ㅇㅓㅂㅊㅔ	-3101
▁ㄱㅗㅇㅈㅜ	-3102
▁ㅇㅟㅇㅝㄴㅈㅏㅇ	-3103
▁ㅋㅐㄹㄹㅣㅍㅗㄴㅣㅇㅏ	-3104
▁ㄷㅐㅎㅏㄱㅇㅝㄴ	-3105
▁ㅈㅐㅈㅓㅇ	-3106
▁ㅁㅏㄹㅣㅇㅏ	-3107
▁ㄱㅕㅇㄹㅕㄱ	-3108
▁ㅅㅡㅇㅇㅣㄴ	-3109
ㅅㅗㄹㅣ	-3110
ㅣㅇㅗㄴ	-3111
▁ㄱㅖㄱㅡㅂ	-3112
▁ㅇㅣㅁㅁㅜ	-3113
▁ㅇㅏㄴㄷㅡㄹ	-3114
ㅍㅡㄹㅣㅋㅏ	-3115
▁ㄱㅜㅊㅜㄱ	-3116
▁ㅍㅣㄹㄹㅣㅍㅣㄴ	-3117
ㅌㅡㄹㅗ	-3118
ㅏㅋㅡ	-3119
▁ㅇㅟㅅㅓㅇ	-3120
▁ㅇㅠㅇㅔㄴ	-3121
▁ㅈㅓㄴㅅㅓㄴ	-3122
ch	-3123
▁ㄷㅏㅅㅓㅅ	-3124
▁ㄱㅏㅇㅈㅔ	-3125
▁ㅈㅏㅂㅈㅣ	-3126
▁ㅈㅓㄱㄱㅡㄱ	-3127
▁ㅎㅕㄴㅅㅣㄹ	-3128
▁ㅇㅛㄱ	-3129
▁ㅅㅜㅇㅣㅂ	-3130
▁ㅁㅜㄹㄹ	-3131
▁ㅅㅓㅇㅇㅣㄴ	-3132
▁ㅌㅗㄹㅗㄴ	-3133
▁ㅋㅣㄹ	-3134
▁ㅂㅓㅁㅇㅟ	-3135
▁ㅅㅜㄹㅣㅂ	-3136
ㅏㅅㅡ	-3137
▁ㄷㅗㅇㄹㅛ	-3138
ㅡㄴㅗ	-3139
▁ㅇㅑㅇㅈㅏ	-3140
▁ㅊㅐㅌㅐㄱ	-3141
ㄱㅛㅎㅚ	-3142
▁ㅇㅟㅎㅕㅂ	-3143
▁ㅈㅣㅁ	-3144
▁ㅎㅏㅇㅅㅏㅇ	-3145
▁ㅅㅗㅍㅡㅌㅡ	-3146
▁ㅊㅜㄹㅂㅏㄹ	-3147
▁39	-3148
▁ㅇㅣㅁㅣㅈㅣ	-3149
▁ㅋㅐㅁㅍ	-3150
▁ㄷㅐㄷㅐ	-3151
ㅂㅜㅌ	-3152
▁ㄱㅐㅍㅕㄴ	-3153
▁ㄱㅏㅇㅇㅢ	-3154
▁ㅈㅏㅇㅅㅣㄱ	-3155
▁ㄱㅓㄹㅐ	-3156
▁ㅅㅣㅇㅣㄴ	-3157
▁ㄱㅛㅅㅏ	-3158
▁ㅌㅓㅋㅣ	-3159
▁ㅁㅐㄴㅕㄴ	-3160
▁ㄱㅡㄴㄷㅐ	-3161
▁ㄱㅓㄱ	-3162
▁400	-3163
▁ㅊㅜㅁ	-3164
ㅅㅓㅁ	-3165
▁ㅈㅓㄴㄱㅐ	-3166
▁ㅅㅜㄷㅏㄴ	-3167
▁ㅇㅗㄹㄹㅏㄱㅏ	-3168
ㅐㅍㅡㅌㅡ	-3169
▁ㄱㅗㅇㅅㅏㄴㄷㅏㅇ	-3170
▁ㄴㅗㄴㅁㅜㄴ	-3171
▁ㅂㅣㅁㅣㄹ	-3172
▁ㄱㅣㅈㅣ	-3173
▁64	-3174
▁ㅌㅟ	-3175
▁ㅅㅓㄴㅅㅐㅇ	-3176
▁ㅋㅡㄹㄹㅐ	-3177
▁ㅇㅝㄴㅊㅣㄱ	-3178
ㅅㅑ	-3179
▁ㅇㅛㅎㅏㄴ	-3180
▁1985	-3181
ㅣㄴㅏ	-3182
▁ㅂㅕㄴㅎㅗ	-3183
▁ㄴㅏㅁㅍㅕㄴ	-3184
▁ㅇㅣㅈㅔ	-3185
▁ㅇㅣㄹㅇㅝㄴ	-3186
▁ㅇㅏㅈㅜ	-3187
ㅂㅗㅇㅣ	-3188
ㅂㅜㅇ	-3189
▁ㅅㅡㅇㅟㅅㅡ	-3190
▁ㅇㅗㄴㄷㅗ	-3191
▁ㅅㅐㄴ	-3192
ㅂㅣㄹ	-3193
▁ㅂㅜㄺ	-3194
▁ㅎㅘㄱㅂㅗ	-3195
▁ㄱㅗㅇㅇㅓㅂ	-3196
ay	-3197
▁ㅁㅗㅅㅡㅋㅡ	-3198
▁ㅁㅏㄴㅈㅗㄱ	-3199
▁II	-3200
▁ㅈㅏㅇㅂㅣ	-3201
▁ㅎㅚㅂㅗㄱ	-3202
▁ㅇㅓㄹㄱㅜㄹ	-3203
ut	-3204
▁ㅈㅗㅇㅇㅣ	-3205
▁ㅎㅏㅇㅅㅓㅇ	-3206
ir	-3207
▁ㅂㅏㄹㅏ	-3208
▁ㅈㅓㅁㅊㅏ	-3209
▁ㅍㅗㄱㅂㅏㄹ	-3210
▁ㅈㅗㅇㅈㅗㅇ	-3211
ㄷㅔㅁㅣ	-3212
▁ㅅㅏㄹㅖ	-3213
▁ㅇㅝㄴㅈㅏ	-3214
▁ㅇㅣㅅㅡㄹㅏㅇㅔㄹ	-3215
▁ㅇㅏㅍㄷㅜ	-3216
▁ㄱㅠㅊㅣㄱ	-3217
▁ㄷㅐㄱㅣ	-3218
▁ㄱㅏㄴㅈㅜ	-3219
ㅋㅜㅇ	-3220
▁br	-3221
ㅁㅗㄹㅣ	-3222
um	-3223
▁ㅈㅗㅊㅣ	-3224
▁ㅅㅜㅇㅝㄴ	-3225
ㅏㄷㅗ	-3226
▁ㅇㅣㅅㅡㅇ	-3227
▁ㄷㅐㅎㅕㅇ	-3228
ㅡㄴㅔ	-3229
▁ㅇㅣㅎㅏ	-3230
▁ㄱㅏㅇㅈㅓㅁ	-3231
▁ㅇㅓㄹㅣㄴ	-3232
▁ㅌㅏㅂㅈㅐ	-3233
▁ㅅㅐㄱㅣ	-3234
▁ㅂㅏㄱㅈㅟ	-3235
ㄹㅓㅁ	-3236
▁ㄹㅔㅋㅗㄷㅡ	-3237
ㅅㅡㅋㅣ	-3238
▁ㅇㅏㅍㅅㅓ	-3239
ㅂㅐㄱㅈㅣㄹ	-3240
▁43	-3241
▁ㅇㅗㄹㅣ	-3242
▁ㅎㅏㅂㅇㅢ	-3243
im	-3244
▁ㅏㅅㅓ	-3245
▁ㅎㅐㅊㅔ	-3246
▁ㅇㅏㅋㅏㄷㅔㅁㅣ	-3247
▁ㄱㅡㄹㅐㅅㅓ	-3248
▁ㄹㅐㅇ	-3249
ㅛㅇㅠㄹ	-3250
▁ㄱㅟㄱㅜㄱ	-3251
▁ㅋㅏㅇㅜㄴㅌㅣ	-3252
ㅅㅗㄹ	-3253
ㅇㅏㄹ	-3254
▁ㄱㅕㅇㅈㅜ	-3255
▁ㄱㅜㄴㄷㅏㄴ	-3256
ㄷㅗㅇㅕㄱ	-3257
▁ㄲㅡㄶ	-3258
▁ㅈㅗㅎㅏㅂ	-3259
▁ㅇㅢㄹㅛ	-3260
▁ㅈㅣㄴㅎㅘ	-3261
▁ㄱㅗㅇㅑㅇ	-3262
▁ㅎㅓㅇㄱㅏㄹㅣ	-3263
ㅗㅇㅣㄷㅡ	-3264
▁ㄷㅐㅈㅏㅇ	-3265
▁ㄱㅜㄴㅈㅜ	-3266
▁ㅊㅓㅇㅅㅗㄴㅕㄴ	-3267
▁ㅍㅣㄴㄹㅏㄴㄷㅡ	-3268
▁ㅈㅓㅈㅣ	-3269
▁ㅈㅏㅇㅁㅕㄴ	-3270
▁ㅌㅏㅇㅣㅁ	-3271
▁ㅍㅕㅇㅇㅑㅇ	-3272
ㅍㅔㄴ	-3273
▁ㄴㅏㅁㄷㅗㅇ	-3274
ㅔㅅㅣㅇㅏ	-3275
▁ㅅㅓㅇㅑㅇ	-3276
▁ㄹㅏㅁㅕㄴ	-3277
▁42	-3278
▁ㅂㅜㄱㅡㄴ	-3279
▁ㅂㅣㅌㅡ	-3280
▁ㅇㅜㅁㅈㅣㄱㅇㅣ	-3281
▁ㅅㅣㄴㅎㅘ	-3282
ㅊㅣㄹ	-3283
▁ㄹㅗㅅㅡ	-3284
▁ㄱㅡㄱㅗㅅ	-3285
▁ㅅㅣㅁㅎㅏ	-3286
▁ㅊㅓㄹㄷㅗㅇㅕㄱ	-3287
▁ㅈㅗㄱㅡㅁ	-3288
▁ㅇㅢㅈㅏㅇ	-3289
▁ㄱㅣㄷㅐ	-3290
ver	-3291
▁ㅇㅢㅎㅏㄱ	-3292
ㅔㄹㅗ	-3293
▁ㅌㅜㅇㅓ	-3294
▁ㅇㅔㄱㅔㅅㅓ	-3295
▁ㄱㅕㅇㅎㅑㅇ	-3296
▁ㅈㅓㅅ	-3297
▁ㅈㅗㅁ	-3298
▁ㅅㅏㅎㅜ	-3299
▁ㅎㅑㅇㅅㅏㅇ	-3300
▁ㅆㅡㄹ	-3301
▁ㄱㅣㅇㅓㄱ	-3302
▁ㅎㅘㄱㅅㅣㄹ	-3303
▁ㅌㅗㅈㅣ	-3304
▁1982	-3305
ㄷㅏㄹㅣ	-3306
▁ㅊㅓㅇㄴㅏㄹㅏ	-3307
▁ㅈㅏㄱㅡㅁ	-3308
▁ㅇㅏㄹㅡㅁㄷㅏㅂ	-3309
▁ㅅㅣㄴㅅㅓㄹ	-3310
▁55	-3311
▁ㅊㅐㅇ	-3312
▁ㄹㅏㅌㅣㄴ	-3313
▁ㅁㅔㅇㅣㅈㅓ	-3314
▁ㅊㅣㅁㄱㅗㅇ	-3315
▁ㅂㅗㅈㅏㅇ	-3316
▁ㅅㅗㄴㅕㄴ	-3317
▁ㅍㅕㄴㅇㅣㅂ	-3318
▁ㄱㅗㄱㅜㄹㅕ	-3319
▁ㅂㅕㄴㅎㅏ	-3320
▁ㅂㅜㄴㅈㅏ	-3321
▁ㄴㅓㅁㅜ	-3322
▁ㅇㅏㅁㅔㄹㅣㅋㅏ	-3323
▁ㄷㅜㄹㄹㅓ	-3324
▁ㅈㅜㅇㅎㅘㅁㅣㄴㄱㅜㄱ	-3325
▁ㄷㅏㄴㅂㅐㄱㅈㅣㄹ	-3326
▁ㅇㅣㄴㅅㅏㅇ	-3327
▁ㄹㅏㅁㅕ	-3328
▁ㄱㅘㅇㅇㅕㄱㅅㅣ	-3329
ㅈㅏㄱㅣ	-3330
ㅍㅏㄹ	-3331
▁ㄷㅔㄴㅁㅏ	-3332
▁i	-3333
▁ㅍㅡㄹㄹㅏ	-3334
▁ㅅㅡㅌㅏㅇㅣㄹ	-3335
ㅏㄹㅡㅌㅡ	-3336
▁1983	-3337
▁ㅂㅗㅂㅕㅇ	-3338
▁ㅅㅔㅈㅗㅇ	-3339
▁ㄱㅗㅁㅜㄴ	-3340
ㅅㅏㅋㅣ	-3341
▁ㅎㅏㅂㅊㅣ	-3342
▁ㅇㅗㄴㄹㅏㅇㅣㄴ	-3343
▁ㅈㅐㄷㅏㄴ	-3344
▁ㅅㅏㄹㅎㅐ	-3345
ㅋㅠ	-3346
▁ㅍㅡㄹㅣㅁ	-3347
▁ㄷㅏㄴㅈㅣ	-3348
ㅓㅂㅡ	-3349
FC	-3350
▁ㄷㅡㅁ	-3351
▁ㅊㅏㅇㅅㅓㄹ	-3352
ㄷㅜㄴ	-3353
▁ㄷㅗㄱㅈㅏ	-3354
▁ㅁㅏㅁ	-3355
▁44	-3356
▁ㅈㅡㅇㄱㅓ	-3357
▁ㅈㅏㅁㅅㅣ	-3358
▁ㅇㅘㅇㅇㅟ	-3359
▁ㅇㅜㅅㅓㄴ	-3360
▁ㄱㅏㅅㅏ	-3361
▁LG	-3362
ㅇㅓㄷㅡㄹ	-3363
▁ㅂㅓㅂㅇㅣㄴ	-3364
▁ㅅㅣㄴㅇㅏㅇ	-3365
▁ㅇㅔㅍㅣ	-3366
▁ㅂㅣㅇㅠㄹ	-3367
▁ㅎㅘㄱㅈㅓㅇ	-3368
▁ㅇㅠㄱㅅㅏㅇ	-3369
▁ㅅㅓㄴㄱㅓㄱㅜ	-3370
▁ㅅㅓㄴㄱㅗ	-3371
▁ㅈㅓㄴㅅㅓㄹ	-3372
▁ㄱㅗㅎㅑㅇ	-3373
▁47	-3374
▁ㄱㅗㅇㅇㅠ	-3375
▁ㅂㅜㄹㄱㅘ	-3376
▁ㅎㅏㅁㄷㅐ	-3377
▁ㅂㅗㄱㅈㅏㅂ	-3378
▁ㄴㅏㅍㅗㄹ	-3379
ㅇㅏㅁㅔㄹㅣㅋㅏ	-3380
▁ㅅㅓㅇㄷㅏㅇ	-3381
▁ㅈㅓㅇㅂㅗㄱ	-3382
▁ㅊㅏㅂㅕㄹ	-3383
▁ㅅㅏㅁㄱㅜㄱ	-3384
▁ㅎㅜㄹ	-3385
▁ㅈㅓㄴㅎㅘ	-3386
▁ㅋㅜㄹ	-3387
ㅌㅡㄹㄹㅐㄴㄷㅡ	-3388
ㅂㅗㄷㅡ	-3389
ㅋㅣㅇㅏ	-3390
▁ㄴㅐㄴ	-3391
▁ㅅㅔㅇㅣㄴ	-3392
▁ㅂㅡㄹㅐㄴㄷㅡ	-3393
ㅁㅗㄹ	-3394
▁ㅅㅜㅅ	-3395
▁ㄱㅏㅇㅈㅓㅁㄱㅣ	-3396
▁ㅈㅓㅈㅏㅇ	-3397
ㅎㅏㄹㅏ	-3398
▁ㄱㅏㄹㅗ	-3399
▁ㅎㅜㅅㅗㄴ	-3400
▁ㅈㅣㅅㅣ	-3401
▁ㅇㅣㅅㅓㅇ	-3402
ㄱㅗㅂ	-3403
ㅇㅓㅅㅓ	-3404
▁Z	-3405
▁ㄹㅗㅅ	-3406
▁ㅂㅏㄴㄷㅗ	-3407
▁ㅇㅕㄱㄷㅐ	-3408
▁ㄱㅜㅊㅔ	-3409
▁ㄱㅗㅈㅓㅇ	-3410
▁75	-3411
ㅐㄴㅅㅡ	-3412
ㅍㅔㄹ	-3413
ㅡㄹㄹㅗ	-3414
▁ㄷㅗㅇㅇㅢ	-3415
▁ㅈㅜㄱㅛ	-3416
▁ㅂㅗㄱㅡㅂ	-3417
▁ㅅㅏㄴㅁㅐㄱ	-3418
▁ㄱㅏㅁㅈㅓㅇ	-3419
ㅅㅣㅇㅌㅓㄴ	-3420
ㅇㅢㅎㅚ	-3421
▁ㅇㅠㅎㅏㄱ	-3422
ㅇㅏㅍㅡㄹㅣㅋㅏ	-3423
▁ㅇㅜㅅㅜ	-3424
ㅅㅕㄴㅓㄹ	-3425
ㅁㅜㄴㅎㅘ	-3426
▁184	-3427
▁ㅋㅏㄹㅡ	-3428
▁ㅅㅗㄹㄹㅗ	-3429
▁ㅊㅏㅁㅅㅓㄱ	-3430
▁ㄴㅗㅇㅖ	-3431
▁ㅎㅏㄴㅡㄹ	-3432
▁ㅂㅗㅇㅏㄴ	-3433
▁1972	-3434
▁ㅇㅕㄴㄱㅗ	-3435
▁ㅅㅜㅊㅜㄹ	-3436
▁180	-3437
▁ㅇㅖㅅㅏㅇ	-3438
▁ㅎㅔㅇㅣ	-3439
ㄸㅡㄹㅣ	-3440
▁ㅎㅐㄱㅅㅣㅁ	-3441
ㅣㄴㅌㅡ	-3442
ㄷㅡㄹㅣㄷㅡ	-3443
▁ㅁㅏㄷㅡㄹㅣㄷㅡ	-3444
ㅉㅣㄱ	-3445
▁ㅌㅐㅍㅜㅇ	-3446
▁ㄱㅗㅇㅎㅏㄱ	-3447
▁ㅍㅏㄴㄱㅕㄹ	-3448
▁ㅍㅡㄹㄹㅐㅅ	-3449
▁ㅎㅚㅈㅓㄴ	-3450
▁ㄷㅔㄴㅁㅏㅋㅡ	-3451
▁ㅇㅓㄹㅣㄴㅇㅣ	-3452
▁ㅇㅏㅁㅅㅏㄹ	-3453
ㅇㅕㅂ	-3454
▁ㅇㅓㄷㅗ	-3455
▁ㅅㅏㅈㅓㄴ	-3456
ㅓㄴㅌㅡ	-3457
▁ㅌㅏㄴㅅㅐㅇ	-3458
▁ㄹㅗㅂㅓㅌㅡ	-3459
▁ㅈㅜㅇㅂㅏㄴ	-3460
▁ㅅㅜㄴㅅㅓ	-3461
▁ㅈㅓㄴㅇㅛㅇ	-3462
▁ㅂㅓㅂㅊㅣㄱ	-3463
▁ㅇㅟㄹ	-3464
ㅅㅗㄷㅡ	-3465
ㄷㅡㅂ	-3466
▁ㅇㅏㄹㅡㅎㅔㄴ	-3467
CA	-3468
▁ㄷㅐㅂㅣ	-3469
▁ㅁㅏㄹㄱㅣ	-3470
▁ㅇㅠㅈㅓㄱ	-3471
▁46	-3472
▁ㅁㅗㄹㅣ	-3473
▁ㄱㅓㅁㅊㅏㄹ	-3474
▁ㅂㅗㄴㄱㅕㄱ	-3475
ㄷㅏㄱㅏ	-3476
▁ㅊㅗㅂㅏㄴ	-3477
▁ㅈㅏㅅㅔ	-3478
ㄷㅠ	-3479
▁ㅈㅣㅂㅎㅐㅇ	-3480
ㄷㅣㅇㅏ	-3481
▁ㅈㅓㄴㄹㅏㅂㅜㄱㄷㅗ	-3482
▁ㅈㅜㅇㅅㅣㅁㅈㅣ	-3483
ㅇㅜㄴㄷㅗㅇ	-3484
▁ㄷㅐㅎㅏㅇ	-3485
▁ㅅㅜㅇㅕ	-3486
▁ㅍㅡㄹㅏㄴ	-3487
▁ㄱㅏㅎㅏ	-3488
▁ㅎㅕㅂㅅㅏㅇ	-3489
ㅁㅏㅅㅡ	-3490
▁1979	-3491
▁ㄷㅐㄹㅣㅂ	-3492
▁ㅇㅐㅍㅡㄹ	-3493
▁1920	-3494
ㅌㅏㅇㅣ	-3495
▁ㅇㅏㄹㅡㅎㅔㄴㅌㅣㄴㅏ	-3496
▁ㅂㅕㄹㄷㅗ	-3497
▁ㄱㅗㅇㄱㅣ	-3498
▁ㄷㅓㅍ	-3499
▁ㅎㅡㄴㅎㅣ	-3500
ㄲㅏ	-3501
▁ㄷㅏㄴㅇㅣㄹ	-3502
▁ㅅㅡㅋㅡㄹ	-3503
▁ㅇㅣㄴㅌㅓ	-3504
ㅎㅕ	-3505
ㅔㅇㅣㅋㅡ	-3506
ㅂㅏㄴㄷㅗ	-3507
▁CD	-3508
▁ㄱㅝㄴㅎㅏㄴ	-3509
▁ㄹㅗㄹ	-3510
▁ㅇㅓㄹㅁㅏ	-3511
▁ㅅㅣㄱㅏㄱ	-3512
ra	-3513
▁ㅅㅔㅅ	-3514
ㅡㅇㅞㅇㅣ	-3515
▁kg	-3516
ㅓㄴㅐ	-3517
ㅉㅏ	-3518
▁ㅌㅗㅇㄱㅖ	-3519
▁ㅇㅜㅋㅡㄹ	-3520
▁ㅁㅜㅇㅓㅅ	-3521
▁ㅂㅏㅇㅁㅕㄴ	-3522
▁ㄱㅘㄴㄹㅛ	-3523
▁In	-3524
▁ㅈㅣㄱㅇㅝㄴ	-3525
▁ㅇㅏㅋㅣ	-3526
▁1981	-3527
▁ㅇㅜㄴㅈㅓㄴ	-3528
▁ㄱㅡㅁㅁㅔㄷㅏㄹ	-3529
▁ㅅㅏㅎㅏㅇ	-3530
▁ㅇㅣㅇㅣㄱ	-3531
▁ㅎㅛㅅㅗ	-3532
▁ㅅㅏㅇㅎㅏ	-3533
▁ㅇㅝㅅㅣㅇㅌㅓㄴ	-3534
▁ㄱㅏㄹㅡㅊㅣ	-3535
ㄲㅗㅊ	-3536
▁1973	-3537
▁ㅎㅕㅂㅈㅓㅇ	-3538
▁1930	-3539
ㅆㅣㄴ	-3540
ㅊㅓㅂ	-3541
▁ㅉㅣㄱ	-3542
10	-3543
▁v	-3544
ㅈㅓㅇㅂㅜ	-3545
▁ㅅㅏㅇㅍㅜㅁ	-3546
▁ㅂㅕㄴㅎㅗㅅㅏ	-3547
▁ㅆㅗ	-3548
▁ㅁㅜㄴㅈㅏㅇ	-3549
▁ㅈㅏㄱㄱㅗㄱㄱㅏ	-3550
▁ㅎㅗㅌㅔㄹ	-3551
▁ㅅㅣㅋ	-3552
▁ㅇㅢㅁㅜ	-3553
▁ㄱㅗㅇㅍㅗ	-3554
▁ㅈㅓㄴㅎㅕ	-3555
ㅗㅋㅏ	-3556
▁ㅁㅏㅇㅣㅋㅡㄹ	-3557
▁ㄷㅗㅁ	-3558
ㅍㅓㄷㅡ	-3559
▁ㅇㅝㄴㅈㅏㄱ	-3560
▁ㅇㅏㅋ	-3561
▁150	-3562
▁ㅂㅣㄴㅏㄴ	-3563
os	-3564
▁ㅂㅔㄴㅔ	-3565
▁ㅇㅏㅊㅣㅁ	-3566
▁ㅈㅏㅇㅊㅏㄱ	-3567
▁ㅈㅏㄹㅁㅗㅅ	-3568
▁ㄹㅣㅅㅡ	-3569
▁ㅈㅓㅅㅓ	-3570
▁ㄴㅗㅎㅇㅣ	-3571
▁ㅅㅔㅇㅣ	-3572
ㅋㅏㅇㅘ	-3573
▁ㅂㅣㄹㄹㅣ	-3574
▁ㅇㅣㄴㄱㅝㄴ	-3575
▁ㅎㅕㄴㅈㅏㅇ	-3576
▁ㄱㅓㄴㄱㅜㄱ	-3577
ㅃㅡ	-3578
ㅇㅗㅍㅡ	-3579
▁ㅅㅏㄴㅎㅏ	-3580
▁ㄴㅣㅋㅗㄹ	-3581
▁ㅈㅔㅇㅣ	-3582
▁ㄱㅗㅇㅁㅜㅇㅝㄴ	-3583
ㅌㅜㅇ	-3584
▁ㅇㅗㄹㅡㄴㅉㅗㄱ	-3585
▁ㅈㅓㄴㅎㅜ	-3586
ㄷㅓㅁ	-3587
▁ㅈㅜㅇㅅㅔ	-3588
BO	-3589
em	-3590
▁ㄱㅣㅁㅈㅓㅇ	-3591
▁ㅅㅜㅅㅜㄹ	-3592
▁ㄱㅛㅌㅗ	-3593
▁ㄱㅛㄹㅠ	-3594
▁ㅁㅣㄹㄹㅣ	-3595
▁ㅋㅗㅁㅣ	-3596
▁ㅌㅐㄱㅜㄱ	-3597
▁ㅊㅏㅇㄹㅣㅂ	-3598
▁ㅎㅏㅇㅂㅗㄱ	-3599
ㄱㅗㄱㅣ	-3600
▁ㅍㅡㄹㄹㅔㅇㅣㅇㅓ	-3601
▁ㅎㅏㄴㄸㅐ	-3602
▁1974	-3603
▁ㅌㅜㅇㅣㅂ	-3604
30	-3605
▁ㅇㅣㄴㄹㅠ	-3606
▁ㅇㅑㅁㅏ	-3607
▁ㅅㅗㅅㅣㄱ	-3608
▁ㅇㅛㅅㅐ	-3609
ㅎㅠ	-3610
▁ㅇㅚㄴㅉㅗㄱ	-3611
▁ㄴㅏㅊㅣ	-3612
▁185	-3613
▁1940	-3614
▁ㅂㅔㅇㅣㅈㅣㅇ	-3615
ㅗㅎ	-3616
ter	-3617
▁ㅅㅜㄷㅗㅇ	-3618
▁ㅅㅓㄱㅣ	-3619
▁ㄱㅡㅁㅅㅗㄱ	-3620
▁ㅈㅓㄴㅊㅓㄹ	-3621
▁ㅎㅝㄹ	-3622
▁ㅂㅗㄱㅎㅏㅂ	-3623
▁ㅈㅜㅇㅟ	-3624
▁ㄱㅗㅇㅎㅘ	-3625
ㄱㅕㄴㅏ	-3626
▁ㄹㅐㄴ	-3627
▁ㅇㅡㅂ	-3628
▁ㄴㅗㄹㅡㅇㅞㅇㅣ	-3629
▁ㅎㅕㅇㅅㅏ	-3630
▁ㅁㅏㅋㅡ	-3631
ㅡㅁㅏ	-3632
▁ㅅㅓㅇㅈㅣㄹ	-3633
▁ㅇㅔㅍㅣㅅㅗㄷㅡ	-3634
▁ㄱㅗㅇㅠ	-3635
▁ㅂㅜㄱㅅㅓ	-3636
▁ㅇㅣㄴㅈㅓㅇㅂㅏㄷ	-3637
▁ㅇㅗㄹㅐㄴ	-3638
ㅏㅁㅜ	-3639
▁ㅍㅏㅋㅡ	-3640
▁ㅁㅔㄹㅣ	-3641
▁ㅈㅔㅈㅏ	-3642
▁ㅌㅏㅇㅣㅇ	-3643
▁ㅊㅜㅊㅡㄱ	-3644
▁ㅅㅓㅇㄱㅕㅇ	-3645
▁ㅇㅕㄴㅅㅏㄴ	-3646
▁ㄱㅣㅎㅏ	-3647
▁ㄲㅜ	-3648
▁ㅇㅠㅈㅓㄴㅈㅏ	-3649
▁ㅍㅏㅂ	-3650
▁ㅂㅏㅇㅊㅜㄹ	-3651
▁ㄷㅣㄹ	-3652
▁ㄹㅏㅇㅣㅂㅡ	-3653
▁ㅅㅣㅁㄱㅏㄱ	-3654
▁ㅇㅜㄴㅇㅛㅇ	-3655
▁ㅎㅝㄹㅆㅣㄴ	-3656
▁ㅇㅝㄴㅈㅜ	-3657
▁ㅎㅔㄴㄹㅣ	-3658
▁ㄱㅜㄴㅅㅜ	-3659
▁ㄱㅗㅇㅅㅏㄴㅈㅜㅇㅢ	-3660
▁ㄱㅏㄱㅂㅗㄴ	-3661
▁ㅁㅗㅅㅡㅋㅡㅂㅏ	-3662
▁ㅈㅓㄹㄷㅐ	-3663
▁ㄱㅓㄴㅈㅗ	-3664
▁ㅍㅐㅎㅏ	-3665
▁ㅅㅏㅁㄱㅏㄱ	-3666
▁SBS	-3667
▁ㅂㅗㄴㅇㅣㄴ	-3668
▁ㅎㅐㅇㅑㅇ	-3669
▁ㅈㅜㅇㅂㅜ	-3670
ㄷㅠㅅㅓ	-3671
▁ㅍㅡㄹㅗㄷㅠㅅㅓ	-3672
▁ㅁㅕㄹㅁㅏㅇ	-3673
ㅅㅟ	-3674
▁ㄴㅣㄴ	-3675
▁ㅎㅏㅂㅅㅓㅇ	-3676
▁1948	-3677
ㅔㅇㅣㅈㅣ	-3678
▁ㅅㅜㅅㅈㅏ	-3679
▁ㅇㅣㄴㅈㅗㅇ	-3680
▁ㅅㅏㄹㅕㅇㄱㅘㄴ	-3681
▁ㅇㅖㅅㅏㄴ	-3682
▁ㄱㅜㅂㅕㄹ	-3683
▁ㄴㅗㄴㅇㅢ	-3684
▁ㅎㅛㅇㅠㄹ	-3685
▁1968	-3686
ㅓㅅㅡㄴ	-3687
▁ㄱㅏㄹㄷㅡㅇ	-3688
▁54	-3689
▁ㅇㅕㄴㅎㅏㅂㄱㅜㄴ	-3690
▁ㅍㅡㄹㄹㅔㅇㅣㅇㅗㅍㅡ	-3691
▁1976	-3692
▁ㅇㅣㅂㅈㅏ	-3693
▁ㅅㅣㄹㄹㅣ	-3694
▁ㅁㅜㄹㅣ	-3695
▁ㅅㅏㅇㅣㅁ	-3696
ㅏㅌㅡ	-3697
▁ㅊㅗㄹ	-3698
▁ㄱㅜㄱㄷㅗ	-3699
▁ㅈㅣㅂㅇㅏㄴ	-3700
▁ㅂㅔㄹㅡㄹㄹㅣㄴ	-3701
▁ㅅㅐㅁ	-3702
ㅌㅓㄹㅣ	-3703
▁ㅊㅏㅇㅈㅗ	-3704
▁ㄷㅏㅋㅏ	-3705
▁ㅇㅣㄴㄱㅗㅇ	-3706
▁ㅇㅡㅁㄹㅕㄱ	-3707
▁ㅊㅜㄹㅇㅣㅂ	-3708
▁ㄹㅏㄷㅗ	-3709
▁ㅂㅏㄴㅂㅗㄱ	-3710
▁ㅊㅜㄹㅈㅏㅇ	-3711
▁ㅍㅓㅈㅣ	-3712
▁ㅇㅝㄴㅈㅏㄹ	-3713
▁ㄱㅓㄴㄹㅣㅂ	-3714
ㅔㄷㅡ	-3715
▁ㄱㅕㅇㅅㅓㅇ	-3716
▁ㅇㅓㄸㅓㅎㄱㅔ	-3717
▁1975	-3718
▁ㅌㅜㅈㅐㅇ	-3719
▁ㅋㅏㄹㄹㅣ	-3720
▁ㄷㅡㄹㅓㄴㅏ	-3721
ㅌㅐㅇ	-3722
▁ㅅㅏㅌㅐ	-3723
▁ㅂㅜㄱㄷㅗㅇ	-3724
▁ㄴㅗㄴㅈㅐㅇ	-3725
▁ㅃㅜㄹㅣ	-3726
▁ㅅㅏㅂㅓㅂ	-3727
▁ㄷㅓㄴㅈㅣ	-3728
▁ㅅㅜㅅㅗㅇ	-3729
▁ㅍㅡㄹㄹㅗ	-3730
▁ㅇㅣㄴㅈㅗ	-3731
▁ㅈㅓㄴㄱㅗㅇ	-3732
▁ㅅㅡㅋㅗㅌㅡㄹㄹㅐㄴㄷㅡ	-3733
▁ㅇㅗㅌㅗ	-3734
ㅇㅓㅄㅇㅣ	-3735
op	-3736
▁ㅁㅗㄱㅅㅏ	-3737
▁ㅇㅕㄴㄱㅘㄴ	-3738
▁ㅃㅗㅂ	-3739
▁ㅂㅗㅇㅎㅏ	-3740
ㅜㅁㅏ	-3741
▁ㅊㅜㄹㅁㅏ	-3742
▁ㅂㅓㅅㅇㅓㄴㅏ	-3743
▁ㅈㅓㅇㅂㅣ	-3744
ㅣㅇㅓㄹ	-3745
▁ㅈㅜㅈㅓㄴ	-3746
▁ㅁㅏㅅㅣ	-3747
▁ㄱㅗㄹㅣ	-3748
▁ㅅㅏㄹㅕㅇㅂㅜ	-3749
ㅂㅜㄹㅡㅋㅡ	-3750
ag	-3751
▁ㅇㅝㄴㄹㅣ	-3752
▁ㅈㅔㅊㅜㄹ	-3753
▁ㅊㅟㄱㅡㅂ	-3754
▁ㅇㅕㅇㅎㅘㅈㅔ	-3755
▁ㄹㅔㄷㅡ	-3756
▁ㄱㅏㅈㅕㅇㅗ	-3757
ㅏㅇㅣㅌㅣ	-3758
▁ㅅㅡㄹㅣ	-3759
▁ㅇㅣㅁㅣㄴ	-3760
▁ㅊㅜㄱㅈㅔ	-3761
▁ㅇㅜㅅㅡ	-3762
▁1978	-3763
▁ㅅㅣㄴㅊㅔ	-3764
▁ㅇㅕㄱㅐㄱㅊㅓㄹㄷㅗ	-3765
▁ㅈㅡㄹㄱㅣ	-3766
▁ㅎㅘㄹㅂㅏㄹ	-3767
ㅅㅕ	-3768
▁ㅅㅗㄴㅕ	-3769
▁ㅅㅣㅈㅓㅁ	-3770
ㄱㅡ	-3771
▁ㅌㅡㄹㅐㄱ	-3772
▁ㅅㅗㅅㅡ	-3773
▁ㅎㅡㅂㅅㅜ	-3774
▁ㅇㅠㄴㅏㅇㅣㅌㅣ	-3775
▁ㅁㅗㅂㅏㅇ	-3776
▁ㅇㅗㅎㅣㄹ	-3777
▁ㄱㅜㄱㅈㅏㅇ	-3778
▁1971	-3779
▁ㄱㅓㅈㅓㄹ	-3780
▁56	-3781
ㅏㅅ	-3782
▁ㄷㅐㅅㅓㅇ	-3783
▁ㅇㅗㅈㅓㄴ	-3784
▁ㅇㅏㅍㅏ	-3785
▁ㅁㅕㅇㅅㅓㅇ	-3786
▁ㅍㅗㅇㅟ	-3787
▁ㄱㅐㅅㅣ	-3788
▁ㅊㅟㄷㅡㄱ	-3789
ㅅㅡㅌㅣㅇ	-3790
ㄷㅔㅅㅡ	-3791
▁ㅎㅘㄹㅅㅓㅇ	-3792
▁ㅎㅣㅂ	-3793
▁1963	-3794
▁ㅊㅗㅇㄷㅗㄱ	-3795
▁ㅁㅔㅅㅣ	-3796
▁ㄹㅗㅅㅡㅇ	-3797
▁52	-3798
▁ㅁㅏㅆㅡ	-3799
ㅌㅗㄹ	-3800
▁ㅈㅜㅇㄷㅐ	-3801
▁ㅇㅗㅂ	-3802
▁ㅋㅐㅁ	-3803
ㅅㅛ	-3804
▁ㅈㅜㅌㅐㄱ	-3805
▁ㄹㅔㅇㅣㄴ	-3806
▁ㅍㅗㄱㅣ	-3807
▁ㅂㅜㄴㅈㅐㅇ	-3808
▁ㅇㅣㄴㅌㅓㅂ	-3809
▁ㅎㅜㅈㅣ	-3810
▁ㄱㅗㅇㅛㅇ	-3811
▁ㅎㅏㄴㄱㅜㄱㅇㅓ	-3812
▁65	-3813
▁ㅅㅣㄴㅅㅓㅇ	-3814
▁ㅇㅣㄴㅌㅓㅂㅠ	-3815
▁ㄴㅓㅁㄱㅣ	-3816
▁ㅎㅏㅇㅟ	-3817
ce	-3818
▁ㅎㅏㄱㅅㅡㅂ	-3819
▁ㅈㅜㄱㅣ	-3820
▁ㅇㅠㅁㅜㄹ	-3821
ㅅㅣㅅㅡ	-3822
▁ㅂㅗㄴㅅㅏ	-3823
▁49	-3824
ㅍㅏㅇ	-3825
ㅋㅣㅅㅡㅌㅏㄴ	-3826
ㅡㄹㄹㅣ	-3827
▁00	-3828
ㅇㅗㅇ	-3829
▁ㅇㅣㄹㅊㅣ	-3830
ㅜㅇㅣ	-3831
▁ㅌㅏㅇㅣㅇㅘㄴ	-3832
▁ㅇㅕㄴㄹㅛ	-3833
▁ㅈㅏㅇㅇㅏㄱ	-3834
▁ㅁㅏㅅㅏ	-3835
▁ㄱㅘㄴㅈㅣㄱ	-3836
▁ㅇㅣㅇㅗㄴ	-3837
▁ㄷㅗㅇㅇㅝㄴ	-3838
▁Q	-3839
▁ㅇㅜㄱ	-3840
ㅇㅓㄹ	-3841
▁ㅁㅏㅊㅣㅁ	-3842
ㅅㅓㅌㅡ	-3843
ㅂㅣㅊㅣ	-3844
▁ㄱㅗㅈㅗㅇ	-3845
▁ㅎㅜㅇㅝㄴ	-3846
▁ㄷㅣㅇ	-3847
▁ㄱㅕㄴㅎㅐ	-3848
▁ㅈㅜㄱㅘㄴ	-3849
▁179	-3850
▁ㅇㅑㄱㅅㅗㄱ	-3851
▁1969	-3852
ㅈㅔㄹㄹㅔㅅㅡ	-3853
▁ㅁㅕㅇㅁㅕㅇ	-3854
▁ㄷㅐㄹㅣ	-3855
▁ㅂㅜㄹㅅㅏㅇ	-3856
▁ㅈㅓㄴㅂㅜ	-3857
▁ㄴㅗㅇㅁㅣㄴ	-3858
▁ㅋㅗㅅㅡ	-3859
▁ㅊㅓㄴㅊㅔ	-3860
▁ㅇㅣㅈㅜㅇ	-3861
▁ㄷㅏㅅ	-3862
▁ㅅㅗㅂㅏㅇ	-3863
▁ㅎㅐㅅㅏㅇ	-3864
▁ㅁㅗㅅㅣ	-3865
▁ㅇㅗㅎㅣㄹㅕ	-3866
▁ㄴㅡㄹㅇㅓㄴㅏ	-3867
▁ㅂㅣㄹㅗㄱ	-3868
▁ㄴㅔㅅ	-3869
ㅋㅓㄴ	-3870
▁ㅂㅜㄹㅂㅓㅂ	-3871
▁ㅂㅡㄹㄹㅗㄱ	-3872
▁ㅈㅣㄱㅈㅓㄴ	-3873
▁ㄱㅜㅅㅗㄱ	-3874
▁ㅎㅏㅇㄱㅗㅇㄱㅣ	-3875
▁ㅇㅕㄴㅈㅐ	-3876
▁ㅈㅜㅅㅣㄱㅎㅚㅅㅏ	-3877
▁ㅂㅜㅎㅘㄹ	-3878
ㅏㄴㅏ	-3879
▁ㄴㅑ	-3880
OS	-3881
ㄱㅗㅇㅎㅏㅇ	-3882
▁ㅈㅓㅇㅊㅔ	-3883
▁ㅇㅕㅇㅇㅓㅂ	-3884
▁ㅊㅜㅇㅊㅓㅇㅂㅜㄱㄷㅗ	-3885
▁ㅅㅓㅇㄴㅡㅇ	-3886
▁ㅂㅏㄲㅇㅔ	-3887
▁ㄹㅗㄷㅡ	-3888
ㅂㅜㅌㅇㅣ	-3889
ㅍㅡㄹㅣ	-3890
▁ㅈㅜㄱㅏㄴ	-3891
▁1946	-3892
ㅣㅇㅗㄹ	-3893
▁ㅌㅡㅇ	-3894
▁ㅍㅗㄱㄹㅕㄱ	-3895
▁ㅎㅏㄱㅅㅜㄹ	-3896
▁ㅅㅜㅈㅣㅂ	-3897
▁ㅈㅏㅇㄱㅛ	-3898
▁ㅂㅐㄱㅈㅏㄱ	-3899
▁ㅂㅗㅎㅓㅁ	-3900
▁ㅂㅐㄱㅈㅔ	-3901
▁ㄴㅗㄴㄹㅣ	-3902
▁ㅅㅓㄴㄱㅛ	-3903
▁ㅎㅘㅁㅜㄹ	-3904
▁ㄷㅔㅇㅣㅂㅣㄷㅡ	-3905
▁ㅎㅗㄴㄹㅏㄴ	-3906
▁53	-3907
▁ㄷㅗㄱㅜ	-3908
▁ㄷㅗㄷㅏㄹ	-3909
▁ㄱㅔㄴ	-3910
▁ㅍㅗㄷㅗ	-3911
▁ㅁㅜㄹㄹㅓㄴㅏ	-3912
▁ㅎㅣㄷㅔ	-3913
▁ㅁㅣㄷㅡ	-3914
▁ㅈㅣㄱㅇㅓㅂ	-3915
▁ㅈㅗㅂ	-3916
▁ㅊㅓㄹㅅㅜ	-3917
▁ㅅㅏㅇㄷㅏㅇㅎㅣ	-3918
▁ㅋㅗㄹㅗㄴㅏ	-3919
▁ㄱㅘㄴㅈㅓㅁ	-3920
oc	-3921
▁ㅂㅗㄱㅘㄴ	-3922
▁ㅂㅏㄴㅇㅕㅇ	-3923
▁ㅍㅕㄴㅈㅣ	-3924
▁ㅂㅜㅈㅏㅇ	-3925
▁ㅎㅐㅅㅏㄴ	-3926
▁1964	-3927
ㅏㄴㅣㅁ	-3928
▁ㄷㅓㄹㅏㄷㅗ	-3929
▁ㅇㅣㄹㄷㅐ	-3930
▁ㅂㅜㅇㅣㅁ	-3931
▁ㅇㅕㅂㅜ	-3932
▁ㅎㅏㅇㅜㅅㅡ	-3933
ㅅㅓㅇㄱㅜㄴ	-3934
▁ㅇㅣㅁㄱㅡㅁ	-3935
▁ㄱㅜㄱㅈㅔㄱㅗㅇㅎㅏㅇ	-3936
▁ㅈㅓㅇㅇㅝㄴ	-3937
▁ㅈㅔㅇㅣㄹ	-3938
▁ㅁㅓㄱㅇㅣ	-3939
ri	-3940
ㄹㅏㄹ	-3941
▁US	-3942
▁ㅂㅗㄱㅓㄴ	-3943
▁and	-3944
ㄹㅏㅈㅣ	-3945
▁ㅋㅗㄹㄹㅗ	-3946
▁ㅅㅣㅎㅗ	-3947
▁ㄷㅐㄹㅑㄱ	-3948
▁ㅈㅣㅂㅜㅇ	-3949
▁ㅂㅏㄱㅈㅓㅇ	-3950
▁ㅎㅏㄱㅂㅜ	-3951
ㄷㅣㅇㅓㄴ	-3952
ㅣㄷㅡ	-3953
▁ㄱㅛㅎㅘㄴ	-3954
ㅈㅡㅂ	-3955
▁ㄱㅡㄹㄹㅗㅂ	-3956
▁ㅅㅣㅁㄹㅣ	-3957
▁ㄱㅏㄴㄷㅏㄴ	-3958
ㄲㅐ	-3959
ㄴㅕㅇ	-3960
▁ㅎㅓㅁ	-3961
▁ㅂㅔㄹㄱㅣ	-3962
ㅅㅡㅋㅏ	-3963
▁ㅎㅓㄱㅏ	-3964
▁ㅋㅏㅇ	-3965
▁ㅈㅐㄹㅛ	-3966
▁ㅇㅢㅈㅗㄴ	-3967
▁ㄹㅓㅅㅣ	-3968
▁ㅋㅗㄴㅅㅓㅌㅡ	-3969
▁ㅇㅣㄴㄷㅗㄴ	-3970
▁ㅅㅓㅂㅓ	-3971
▁ㅂㅔㅅㅡㅌㅡ	-3972
▁ㅊㅐㅁ	-3973
▁ㅂㅏㅂ	-3974
▁ㅇㅔㄷㅡㅇ	-3975
▁58	-3976
▁ㄱㅐㅊㅔ	-3977
▁ㅎㅏㄴㅏㄴㅣㅁ	-3978
▁ㅈㅓㄴㅁㅜㄴㄱㅏ	-3979
▁ㅈㅓㅇㅈㅣ	-3980
▁ㅈㅓㄴㄷㅗㅇ	-3981
▁ㅇㅏㄹㅣ	-3982
▁ㅈㅏㅅㅏㄹ	-3983
▁ㅎㅏㄱㅎㅚ	-3984
▁ㅎㅏㄱㅇㅝㄴ	-3985
▁PC	-3986
▁ㅅㅡㅋㅏ	-3987
▁ㅂㅕㄴㅎㅘㄴ	-3988
▁ㅇㅏㄴㅌㅏ	-3989
▁ㅅㅣㄱㅍㅜㅁ	-3990
▁ㅇㅡㅇㅇㅛㅇ	-3991
▁ㄱㅗㅇㅌㅗㅇ	-3992
▁ㄱㅏㅇㅡㄹ	-3993
ㅁㅜㄴㅎㅘㅈㅐ	-3994
▁ㅌㅗㅂ	-3995
▁ㄷㅐㅎㅘ	-3996
▁ㄲㅗㄱ	-3997
▁ㅅㅏㄹㅇㅣㄴ	-3998
ㅋㅜㄹㅏ	-3999
▁ㅅㅡㅇㅈㅣㄴ	-4000
ㅎㅏㅁㅏ	-4001
▁ㅅㅗㅂㅣㅇ	-4002
▁1977	-4003
▁ㄹㅜㅇㅣㅅㅡ	-4004
▁ㅅㅏㅇㄹㅠㄱ	-4005
▁ㄱㅖㅌㅗㅇ	-4006
▁ㅅㅏㅈㅏㅇ	-4007
ㅊㅓㄴㄱㅜㄴ	-4008
▁ㅍㅏㅁ	-4009
▁ㅁㅣㄴㅂㅓㅂ	-4010
▁ㅇㅕㅇㅎㅑㅇㄹㅕㄱ	-4011
▁ㅇㅣㅁㅇㅢ	-4012
▁ㅈㅣㄴㅇㅣㅂ	-4013
▁ㅈㅜㄴㅕㄴ	-4014
▁ㅁㅣㅇㅑ	-4015
ㅓㄷㅡ	-4016
▁ㅅㅣㄴㅂㅜㄴ	-4017
▁ㅊㅏㅇㄷㅏㄴ	-4018
ㅂㅕㅇㄷㅐ	-4019
▁ㅈㅣㄹㅂㅕㅇ	-4020
▁1000	-4021
▁ㅂㅏㄴㅂㅏㄹ	-4022
▁ㅈㅓㄴㅍㅏ	-4023
▁ㄱㅣㅁㅇㅕㅇ	-4024
▁ㅎㅚㅇ	-4025
▁ㅊㅐㅇㅛㅇ	-4026
▁ㅍㅣㅇㅏㄴㅗ	-4027
ㅏㄱㅣ	-4028
▁ㅇㅚㄱㅜㄱㅇㅣㄴ	-4029
▁ㅊㅣㄴㅇㅣㄹ	-4030
ㅁㅓㄴㅣ	-4031
▁ㅁㅣㅌㅓ	-4032
▁ㄱㅜㅅㅓㅇㅇㅝㄴ	-4033
▁ㅅㅏㅇㅜㄴㄷㅡ	-4034
▁ㅋㅟㄴ	-4035
igh	-4036
▁99	-4037
▁ㅎㅗㅅㅜ	-4038
ㅈㅓㅇㅅㅣㄱ	-4039
▁ㅈㅣㄴㅇㅏㅂ	-4040
▁ㅁㅏㄹㄹㅔㅇㅣ	-4041
▁ㅅㅜㅇㅕㅇ	-4042
▁ㅌㅗㅇㅅㅏㅇ	-4043
▁ㅅㅗㅂㅣㅇㅔㅌㅡ	-4044
▁ㅃㅐㅇ	-4045
ㅔㄹㄹㅏ	-4046
▁ㅋㅐㅁㅍㅓㅅㅡ	-4047
▁ㄹㅗㅅㅡㅇㅐㄴ	-4048
▁ㄹㅗㅅㅡㅇㅐㄴㅈㅔㄹㄹㅔㅅㅡ	-4049
▁ㄹㅣㄹ	-4050
▁ㅊㅏㅁㅈㅓㄴ	-4051
▁ㅂㅏㅇㅅㅗㅇㄱㅜㄱ	-4052
▁ㅎㅘㅅㅓㅇ	-4053
▁ㅁㅏㅇㅁㅕㅇ	-4054
▁ㅎㅘㅁㅕㄴ	-4055
▁ㄴㅏㅇㅏㄱㅏ	-4056
▁ㅅㅣㄹㅣㅇㅏ	-4057
▁88	-4058
▁ㅅㅏㅇㅅㅡㅇ	-4059
ㅗㄹㅣ	-4060
▁ㅁㅗㄷㅡ	-4061
ㅇㅏㅂㅓㅈㅣ	-4062
▁ㅇㅝㄴㅎㅏ	-4063
▁ㅁㅜㄴㅎㅓㄴ	-4064
▁ㅈㅔㅇㅓ	-4065
▁ㅎㅏㅂㄱㅕㄱ	-4066
▁ㅅㅓㄴㅈㅗ	-4067
▁ㅇㅠㄷㅐ	-4068
▁ㅂㅗㄱㅁㅜ	-4069
▁ㄱㅗㅇㄷㅗㅇㅊㅔ	-4070
▁ㄷㅗㅇㄴㅏㅁ	-4071
▁ㅇㅑㄱㅎㅏ	-4072
▁1949	-4073
▁ㄷㅏㅁㅕ	-4074
▁ㄷㅗㅇㅅㅓㅇ	-4075
▁ㄴㅜㄹㅣ	-4076
ㅜㅊㅣ	-4077
▁ㅎㅏㄱㄱㅘ	-4078
ation	-4079
ㅌㅡㅁ	-4080
▁ㅍㅐㅇ	-4081
▁ㅇㅔㄷㅗ	-4082
▁ㅂㅔㄹㄱㅣㅇㅔ	-4083
▁ㄹㅗㅅㄷㅔ	-4084
▁r	-4085
▁ㅋㅗㅍㅏ	-4086
▁ㅇㅕㅇㅇㅣㅂ	-4087
▁ㄱㅓㄱㅣ	-4088
▁ㅁㅏㄴㅈㅜ	-4089
▁1962	-4090
▁ㅁㅓㅁㅜㄹㅡ	-4091
▁ㅎㅕㄴㅇㅕㄱ	-4092
▁ㅁㅏㅋㅔ	-4093
ㄹㅗㄹ	-4094
▁SK	-4095
▁ㅈㅣㄴㅂㅗ	-4096
ㅌㅏㅇㅣㄴ	-4097
▁62	-4098
▁ㅅㅓㅇㅝㄴ	-4099
▁FA	-4100
▁ㄱㅗㄷㅗ	-4101
▁ㅂㅕㄴㅎㅕㅇ	-4102
▁ㅈㅣㄹㅣ	-4103
▁ㅇㅣㄴㄷㅗㄴㅔㅅㅣㅇㅏ	-4104
▁ㅋㅗㅁㅣㄷㅣ	-4105
▁ㄱㅣㅎㅗ	-4106
ㅊㅓㄴㅅㅣ	-4107
▁ㅈㅐㄴ	-4108
▁ㅈㅓㅈㅏㄱ	-4109
▁ㅇㅣㅁㄷㅐ	-4110
▁1967	-4111
▁ㅅㅏㅇㅇㅝㄴ	-4112
▁ㅈㅗㅈㅏㄱ	-4113
ㄲㅇㅣ	-4114
▁ㄷㅗㅇㅈㅏㄱ	-4115
▁ㄹㅗㅋㅔㅅ	-4116
▁ㅇㅕㄴㅊㅜㄹ	-4117
▁ㅇㅏㄹㄹㅔㄱㅅㅏㄴㄷㅡㄹ	-4118
▁ㅂㅐㅊㅜㄹ	-4119
▁ㅉㅗㅊ	-4120
▁ㅅㅡㅌㅏㄹ	-4121
▁ㄴㅗㄹㅣ	-4122
▁57	-4123
ㅔㅇㅣㅌㅓ	-4124
▁ㄱㅣㄷㅗ	-4125
▁ㅇㅏㄹㅏ	-4126
▁ㄱㅘㅇㅈㅏㅇ	-4127
▁ㄸㅡ	-4128
▁ㄸㅢ	-4129
▁ㅌㅏㄴㅅㅗ	-4130
▁ㅈㅡㅇㅅㅏㅇ	-4131
▁ㅈㅏㄴㅕ	-4132
▁ㅇㅟㅅㅏㅇ	-4133
ㅌㅣㄱ	-4134
▁ㄷㅗㅁㅏㅇ	-4135
ㅈㅓㅇㅜ	-4136
▁ㅊㅜㄹㄱㅏㄴ	-4137
▁ㅌㅏㄹㅊㅜㄹ	-4138
▁ㅇㅢㄷㅗ	-4139
▁ㅎㅏㄴㅂㅏㄴㄷㅗ	-4140
▁ㄱㅜㄱㅁㅜ	-4141
▁ㅎㅠㅇ	-4142
▁ㅁㅣㄴㅣ	-4143
▁ㅇㅕㄴㅇㅏㄴ	-4144
ㅌㅡㄹㅏ	-4145
ㅎㅏㅇㅣ	-4146
▁ㄹㅜㅌㅡ	-4147
▁ㅅㅣㄴㅊㅓㅇ	-4148
▁ㅅㅜㅇㅛ	-4149
▁ㅇㅟㅂㅏㄴ	-4150
▁ㅂㅜㅂㅜ	-4151
▁ㅎㅘㅈㅐ	-4152
▁ㅍㅏㄴㅅㅓ	-4153
▁Ch	-4154
▁You	-4155
▁ㅌㅏㄹㄹㅏㄱ	-4156
ㅌㅏㅁ	-4157
▁ㅇㅞㅇㅣ	-4158
▁ㅈㅜㄷㅜㄴ	-4159
▁ㅈㅗㅈㅓㄹ	-4160
▁ㄱㅡㄹㅓㄴㄷㅔ	-4161
▁ㄹㅣㄷㅓ	-4162
▁ㅅㅣㄹㅅㅜ	-4163
▁ㅊㅓㅎㅕㅇ	-4164
▁ㅎㅐㄹㅣ	-4165
▁ㄴㅗㅇㄱㅜ	-4166
▁ㅈㅓㅇㄱㅣ	-4167
▁ㅇㅣㄹㅉㅣㄱ	-4168
▁..	-4169
▁ㅂㅏㄴㄷㅡ	-4170
▁ㅁㅏㄱㅂㅜ	-4171
▁ㅌㅓㄴㅓㄹ	-4172
▁ㄱㅡㅊㅣ	-4173
▁ㅇㅖㅊㅡㄱ	-4174
ㅠㅂㅡ	-4175
▁ㅅㅣㄴㅇㅣㄴ	-4176
▁ㅈㅓㄹㅊㅏ	-4177
▁ㄷㅣㄴ	-4178
▁ㅂㅏㄹㅇㅓㄴ	-4179
▁ㅊㅓㄴㅇㅕㄴ	-4180
▁ㅂㅜㄴㅇㅕㄹ	-4181
▁ㅎㅘㅇㄱㅡㅁ	-4182
▁ㄲㅏ	-4183
ㄱㅓㅁ	-4184
▁ㄱㅡㅇ	-4185
▁ㅈㅏㅇㄹㅡ	-4186
▁ㅂㅏㄷㅜㄱ	-4187
▁ㅎㅜㅋㅜㅇ	-4188
▁ㄱㅣㅂㅓㅂ	-4189
ㄱㅗㅅ	-4190
▁ㅇㅣㅁㅈㅣㄴ	-4191
▁ㄴㅏㅁㅅㅓ	-4192
▁ㅇㅣㅅㅡㅇㅁㅏㄴ	-4193
▁ㄱㅜㅁ	-4194
ㅌㅏㄹㅡ	-4195
▁ㅁㅜㄷㅓㅁ	-4196
ㅅㅖ	-4197
▁ㄱㅣㅊㅔ	-4198
ㅋㅏㅇ	-4199
▁ㅅㅜㅅㅗ	-4200
ㅂㅏㅇㅅㅗㅇ	-4201
▁ㅂㅏㅇㅈㅣ	-4202
▁ㅎㅕㄴㅈㅣ	-4203
▁ㅅㅔㅇㅣㄴㅌㅡ	-4204
▁ㅅㅓㄴㅈㅓㄴ	-4205
▁181	-4206
ㅍㅗㄹㅡ	-4207
▁ㄱㅗㅊㅣ	-4208
▁ㄴㅜㄹㅡ	-4209
▁ㅇㅛㅇㅣㄴ	-4210
▁ㅇㅗㅅㅡㅁㅏㄴ	-4211
ㄹㅕㅇㅗ	-4212
▁ㅅㅏㅂ	-4213
▁ㅂㅏㄹㅡㅅ	-4214
▁ㅇㅣㄹㅅㅣㄱ	-4215
▁ㅂㅏㅇㅈㅓㅇㅅㅣㄱ	-4216
nd	-4217
▁ㅌㅡㄱㅇㅣ	-4218
▁ㄴㅗㅂㅔㄹ	-4219
▁ㅇㅓㄸㅓ	-4220
▁ㄱㅐㅈㅗ	-4221
▁ㅅㅐㅇㅈㅗㄴ	-4222
ㅅㅏㄴㅅㅣ	-4223
▁ㅇㅕㄷㅏㄴ	-4224
▁ㅊㅟㅅㅗ	-4225
▁ㄱㅗㅂ	-4226
ㅌㅜㄱㅣ	-4227
▁ㄲㅓ	-4228
▁66	-4229
▁ㄱㅡㄹㅈㅏ	-4230
▁KBO	-4231
▁ㅋㅏㅁㅔㄹㅏ	-4232
▁ㄱㅜㅂ	-4233
▁ㅂㅗㅋㅓㄹ	-4234
▁1966	-4235
▁ㅇㅣㄹㅂㅗㄴㄱㅜㄴ	-4236
ㄴㅔ	-4237
▁ㄱㅗㅈㅣ	-4238
ㅅㅜㄹㅗㄱ	-4239
▁ㅎㅏㅇㄱㅜ	-4240
▁ㅅㅓㄱㅜ	-4241
▁ㅋㅗㄴㅅㅡㅌㅏㄴ	-4242
▁ㅎㅡㄱㅇㅣㄴ	-4243
▁ㅅㅡㅌㅗㄹㅣ	-4244
▁ㄷㅗㄱㄹㅣㅂㅇㅜㄴㄷㅗㅇ	-4245
▁ㅁㅣㄱㅜㄱㅇㅣㄴ	-4246
▁ㄷㅓㅅ	-4247
▁ㅂㅗㅈㅗ	-4248
▁1965	-4249
▁ㅈㅣㄱㅡㅂ	-4250
▁ㄱㅐㄹㄹ	-4251
▁ㅇㅘㅇㅈㅏ	-4252
▁ㅅㅏㄹㅣㅂ	-4253
▁ㄴㅏㄷㅡㄹ	-4254
▁68	-4255
▁ㄹㅣㅊㅓ	-4256
▁ㅊㅏㅇㅇㅝㄴ	-4257
▁ㅂㅏㄴㄷㅡㅅㅣ	-4258
▁ㄴㅏㄷㅡㄹㅁㅗㄱ	-4259
▁ㄷㅜㄹㅉㅐ	-4260
ㅅㅏㅅㅡ	-4261
▁ㅇㅛㅋㅗ	-4262
ㅌㅣㅂㅡ	-4263
▁ㄱㅗㅇㅈㅓㅇ	-4264
▁ㄴㅗㄱㅅㅐㄱ	-4265
▁ㅈㅣㄴㅈㅜ	-4266
▁ㅎㅢㅁㅏㅇ	-4267
▁ㅎㅣㅁㄷㅡㄹ	-4268
▁ㅎㅘㅅㅏㄴ	-4269
▁ㄴㅡㅈ	-4270
▁ㄱㅕㅇㄹㅗ	-4271
▁ㅎㅣㅌㅡ	-4272
ST	-4273
▁ㄹㅏㅇㅣㅌㅡ	-4274
▁ㄷㅡㅁㅜㄹ	-4275
▁ㅍㅗㄹㅗ	-4276
▁ㅈㅓㄴㅎㅕㅇ	-4277
▁ㅅㅓㄴㅂㅗㅇㅣ	-4278
ㅡㄱㅏㄴ	-4279
▁ㅇㅏㅌㅔㄴ	-4280
▁ㅈㅓㄴㅁㅕㄴ	-4281
▁61	-4282
ㅇㅜㄹ	-4283
▁ㄱㅏㄴㅎㅐㅇ	-4284
▁ㅁㅐㅇㅣㄹ	-4285
▁ㄷㅗㄱㅌㅡㄱ	-4286
▁ㅂㅓㅂㅈㅓㅇ	-4287
▁ㄷㅗㅈㅓㄴ	-4288
▁%,	-4289
▁ㅇㅏㅂㄹㅕㄱ	-4290
ㅅㅡㅋㅔ	-4291
▁ㅁㅜㄹㅊㅔ	-4292
▁ㅁㅏㅈㅅㅓ	-4293
▁ㅎㅐㅁ	-4294
▁183	-4295
▁ㅎㅓㄹ	-4296
▁ㅊㅏㄹㅅㅡ	-4297
▁ㄱㅏㄹㅅㅐㄱ	-4298
▁ㄱㅐㅅㅣㄴ	-4299
ㄱㅜㅇㅝㄴ	-4300
▁ㅊㅣㅇㅎㅏ	-4301
ㅋㅡㄴ	-4302
ㄷㅗㄹㅡ	-4303
▁ㅈㅘㅇㅜ	-4304
ice	-4305
▁ㅋㅟ	-4306
▁ㄴㅡㄴㄱㅏ	-4307
▁ㅍㅏㅇㅏㄱ	-4308
▁ㅅㅣㄴㄹㅚ	-4309
▁ㅅㅗㄴㅈㅏ	-4310
ㄱㅓㄹ	-4311
ER	-4312
▁ㅅㅡㄴ	-4313
▁ㅇㅏㅌ	-4314
▁ㅎㅏㅇㅣㄴ	-4315
▁ㄴㅠㅈㅣㄹ	-4316
ㅣㄱㅕㅇ	-4317
art	-4318
▁ㅆㅏㅇㅜㅁ	-4319
▁1961	-4320
▁ㅇㅘㄴㄹㅛ	-4321
▁ㅂㅜㄴㅎㅏㄹ	-4322
▁ㅍㅐㄱ	-4323
▁IS	-4324
ㅇㅏㅂㅗ	-4325
▁ㄱㅏㅅㅏㅇ	-4326
▁ㅂㅕㄹㅁㅕㅇ	-4327
▁ㄱㅓㄴㄴㅓ	-4328
▁ㅇㅠㅎㅐㅇ	-4329
▁ㅂㅜㄴㅁㅕㅇ	-4330
▁ㄹㅏㄹ	-4331
▁ㄴㅠㅈㅣㄹㄹㅐㄴㄷㅡ	-4332
▁ㄷㅐㄱㅐ	-4333
▁ㅌㅣㅂ	-4334
▁ㅇㅓㄷㅣ	-4335
ON	-4336
▁ㅌㅔㅇㅣ	-4337
▁ㄹㅣㄱㅏ	-4338
▁ㅌㅣㅇ	-4339
▁ㅌㅔㄹㅓ	-4340
▁ㅇㅣㄴㅈㅣ	-4341
▁ㄴㅐㅈㅓㄴ	-4342
▁ㅁㅏㅈㅇㅣ	-4343
▁ㄱㅣㅁㅇㅣㄹ	-4344
ㅗㄹㄹㅣ	-4345
▁ㅈㅔㄷㅐㄹㅗ	-4346
▁ㅁㅗㄱㅅㅗㄹㅣ	-4347
▁ㅂㅜㄴㄱㅣ	-4348
▁ㅅㅜㄴㅎㅘㄴ	-4349
▁800	-4350
▁ㅎㅜㅅ	-4351
▁ㅅㅣㄹㅈㅣㄹ	-4352
▁86	-4353
ㅣㅂㅓ	-4354
▁ㅅㅑㅇ	-4355
▁ㅎㅢㄴ	-4356
▁ㅇㅘㄴㄱㅗㅇ	-4357
▁ㅍㅜㅇㅂㅜ	-4358
▁ㄷㅗㅇㄱㅣ	-4359
▁ㅈㅜㅇㄱㅣ	-4360
▁600	-4361
▁ㅊㅓㅂㅓㄹ	-4362
ㅇㅓㄱㅏ	-4363
▁ㄷㅗㄹㄹㅣ	-4364
▁ㅂㅓㅁㅈㅜ	-4365
▁ㅂㅗㄱㅈㅣ	-4366
▁ㅁㅗㅎㅕㅇ	-4367
▁ㅇㅣㅊㅣ	-4368
▁re	-4369
ㅅㅣㅇㅗ	-4370
▁ㅇㅏㅍㅏㅌㅡ	-4371
▁ㅅㅏㅇㅜ	-4372
▁ㅎㅏㄴㅈㅏ	-4373
▁ㅇㅠㄱㅣ	-4374
▁ㄱㅜㅎㅕㄴ	-4375
▁ㄴㅓㄼㅇㅣ	-4376
▁ㅂㅜㄴㅎㅐ	-4377
▁ㅇㅏㄴㅌㅗㄴ	-4378
▁ㅌㅏㄱㅕㄱ	-4379
▁ㅇㅔㅇㅓ	-4380
▁ㅈㅏㄱㅅㅏ	-4381
ia	-4382
▁ㄹㅜㅁ	-4383
▁ㅂㅔㄱㅌㅓ	-4384
ㅌㅔㄴㅊㅡ	-4385
▁ㅇㅏㄷㅗㅇ	-4386
▁ㅅㅑㄹ	-4387
▁ㅈㅓㄴㅈㅜ	-4388
▁ㄱㅣㄷㅜㅇ	-4389
▁ㅂㅣㅍㅕㅇ	-4390
▁ㅎㅘㅇㅣ	-4391
▁ㅁㅜㄹㄹㅣㅎㅏㄱ	-4392
ㅂㅣㅊ	-4393
▁ㅅㅡㅌㅔ	-4394
▁ㄴㅣㅅ	-4395
ㅈㅏㅁ	-4396
▁ㅍㅕㅇㄷㅡㅇ	-4397
est	-4398
▁ㅅㅓㅇㅎㅑㅇ	-4399
▁ㅇㅓㅁㅊㅓㅇ	-4400
ap	-4401
▁ㅅㅣㅈㅗ	-4402
▁ㄷㅡㅇㅈㅣ	-4403
▁ㅂㅡㄹㅗ	-4404
▁120	-4405
▁ㅅㅕㄴ	-4406
▁ㅂㅏㅇㅎㅐ	-4407
ㄹㅠㅇ	-4408
▁ㅈㅗㅅ	-4409
▁ㅈㅓㄴㅇㅝㄴ	-4410
ㅓㄴㅅㅡ	-4411
▁ㅅㅔㄹㅡㅂ	-4412
▁ㄷㅡㄹㅣ	-4413
▁ㅁㅜㄱㅔ	-4414
▁ㅃㅐㅇㅏㅅ	-4415
▁ㅎㅘㄱㅅㅏㄴ	-4416
▁ㅊㅜㄱㅜ	-4417
▁ㅊㅚㄷㅏ	-4418
▁ㅈㅓㅅㅜㄹ	-4419
▁ㅅㅏㄴㅑㅇ	-4420
▁ㄱㅗㅅㅗㄱㄷㅗㄹㅗ	-4421
▁ㅎㅏㄴㅈㅓㅇ	-4422
ak	-4423
▁ㅁㅏㅂㅓㅂ	-4424
▁ㅅㅏㅇㅇㅟ	-4425
▁ㄴㅏㄹㄱㅐ	-4426
▁ㅈㅣㅂㄱㅝㄴ	-4427
▁ㅍㅕㄴㅊㅏㄴ	-4428
▁ㅇㅣㄴㅈㅓㅂ	-4429
ㅓㄹㄷㅡ	-4430
▁ㅇㅗㅍㅔㄹㅏ	-4431
ㅋㅔㅇㅣㅅㅕㄴ	-4432
▁ㅁㅕㅇㄴㅏㄹㅏ	-4433
▁ㅎㅢㅅㅐㅇ	-4434
▁ㄹㅟ	-4435
▁ㅇㅣㄹㅂㅗㄴㅇㅣㄴ	-4436
▁ㅊㅜㄹㅂㅓㅁ	-4437
▁1919	-4438
▁ㄷㅐㄱㅗㅇ	-4439
▁ㅁㅕㅇㅎㅘㄱ	-4440
▁1944	-4441
ㅣㄹㄹㅓ	-4442
▁98	-4443
ㅗㄹㅗ	-4444
▁ㅇㅣㄴㅈㅡㅇ	-4445
▁ㅍㅏㄴㅅㅏ	-4446
TV	-4447
▁ㅇㅜㄹㅕ	-4448
▁ㅎㅗㅈㅜ	-4449
ㄷㅎㅣ	-4450
▁ㄱㅘㄱ	-4451
▁ㅇㅕㄴㄱㅜㅇㅝㄴ	-4452
▁ㅁㅏㅇㅣㄴ	-4453
▁63	-4454
▁ㅂㅜㅈㅣㄴ	-4455
AR	-4456
▁ㄱㅡㄴㅂㅗㄴ	-4457
▁ㅂㅏㅊㅣ	-4458
▁ㅅㅏㅎㅕㅇ	-4459
▁ㅂㅏㄹㄱㅜㄹ	-4460
▁ㅅㅡㅍㅡㄹ	-4461
▁ㅁㅔㅁㅗㄹㅣ	-4462
ㅇㅘ	-4463
▁ㄷㅐㅂㅓㅂ	-4464
▁ㄷㅏㄴㄷㅗㄱ	-4465
▁ㅇㅕㄴㄱㅏㄴ	-4466
▁ㅍㅡㄹㅣㅁㅣㅇㅓ	-4467
▁ㅈㅗㅈㅗㅇ	-4468
▁ㄷㅡㄹㅇㅓㅅㅓ	-4469
ㄷㅏㄹㅡ	-4470
ㄷㅣㅅㅕㄴ	-4471
ㅌㅡㄹㄹㅓ	-4472
▁ㅇㅕㅇㅇㅜㅇ	-4473
▁ㅅㅏㅇㅝㄴ	-4474
ㄴㅚ	-4475
▁ㅌㅏㅁㅅㅏ	-4476
▁ㅎㅐㅇㄹㅕㄹ	-4477
▁ㅂㅡㄹㅏㅇㅜㄴ	-4478
▁ㄱㅣㄱㅣ	-4479
▁ㄷㅏㅇㅊㅗ	-4480
▁95	-4481
▁ㄱㅣㅇㅗㄴ	-4482
▁ㅁㅗㅇㅣㅁ	-4483
▁ㅊㅜㅅㅏㄴ	-4484
▁ㅍㅗㅎㅏㅇ	-4485
▁ㅎㅏㄴㄱㅖ	-4486
▁ㄱㅛㅎㅑㅇ	-4487
▁ㅅㅓㅁㅕㅇ	-4488
▁ㅊㅜㅊㅓㄴ	-4489
▁ㅁㅜㄴㅁㅕㅇ	-4490
▁ㅌㅗㅇㅅㅏㄴ	-4491
▁ㄱㅕㅇㅈㅓㄴ	-4492
▁ㄱㅘㅇㅂㅗㄱ	-4493
▁ㄷㅏㅇㅜㄴ	-4494
▁ㅊㅜㅇㄱㅕㄱ	-4495
ct	-4496
▁1941	-4497
▁ㅇㅢㅈㅣ	-4498
▁ㅈㅓㅁㅈㅓㅁ	-4499
▁ㅂㅕㄴㅅㅜ	-4500
▁ㅇㅏㅁㅜㄹ	-4501
▁ㄱㅏㅅㅣ	-4502
ㅈㅜㄱㅜㄴ	-4503
▁ㅁㅏㅊㅣㅁㄴㅐ	-4504
▁ㅈㅓㄱㅈㅓㄹ	-4505
ㅋㅗㅁ	-4506
▁ㄱㅣㄹㅣ	-4507
▁ㅅㅐㅇㄱㅕㄴㅏ	-4508
▁ㄱㅗㅇㄹㅗ	-4509
▁ㅇㅏㄱㅎㅘ	-4510
▁ㅂㅡㄹㄹㅜ	-4511
▁ㅅㅓㅇㅂㅜㄴ	-4512
ㅇㅜㄱ	-4513
ㅠㄴㅣ	-4514
▁ㄱㅗㄹㄷㅡㄴ	-4515
ㅅㅏㅈㅏ	-4516
▁ㄱㅏㄱㅈㅣ	-4517
▁ㄹㅓㅆ	-4518
▁IC	-4519
▁ㅇㅓㅁㅊㅓㅇㄴㅏ	-4520
▁ㅅㅣㅂㅈㅏㄱ	-4521
▁59	-4522
▁ㅍㅗㅇㅣㄴㅌㅡ	-4523
▁ㅅㅣㅋㅏㄱㅗ	-4524
▁ㅂㅔㄹㅡㄴ	-4525
▁ㅌㅡㄱㅂㅕㄹㅅㅣ	-4526
▁ㅈㅏㅈㅓㄴ	-4527
▁ㅎㅏㄱㅅㅏㄹ	-4528
▁74	-4529
▁178	-4530
▁ㄱㅐㅁㅏㄱ	-4531
▁ㅂㅜㅎㅏ	-4532
▁ㅋㅣㅇㅜ	-4533
▁ㅎㅘㄱㄹㅠㄹ	-4534
▁ㅎㅗㅇㅂㅗ	-4535
ㅔㄹㅣㅋㅏㄴ	-4536
▁ㅌㅗㄱ	-4537
▁;/	-4538
▁ㅂㅏㅇㅟ	-4539
▁Lo	-4540
▁ㄱㅓㅈㅣ	-4541
▁ㅇㅢㅎㅗㄱ	-4542
▁ㅈㅏㄱㅡㄱ	-4543
ㅎㅏㄱㅅㅐㅇ	-4544
▁ㅇㅢㅅㅣㅁ	-4545
▁ㅇㅣㅅㅣ	-4546
▁to	-4547
▁ㅁㅐㅈㅏㅇ	-4548
▁ㅍㅗㅌㅡ	-4549
▁ㅎㅏㅁㄹㅏㄱ	-4550
ㅞㄹ	-4551
▁ㅅㅡㅁㅏㅌㅡ	-4552
▁82	-4553
▁ㄷㅡㄹㅏㅇㅣ	-4554
▁ㄱㅏㅁㅅㅏ	-4555
▁ㅍㅡㄹㅣㄴ	-4556
ul	-4557
▁ㄷㅡㄹㅓㄴㅐ	-4558
▁ㅇㅞㅅㅡㅌㅡ	-4559
▁ㅅㅏㅅㅣㄹㅅㅏㅇ	-4560
▁1958	-4561
▁ㅍㅡㄹㅗㅇㅣ	-4562
▁ㅇㅗㄹㅎㅐ	-4563
▁ㄱㅗㅇㅎㅓㄴ	-4564
▁ㄲㅗㅂ	-4565
▁ㅂㅣㅅㅏㅇ	-4566
▁ㅇㅡㄴㅣ	-4567
▁ㅇㅣㅇㅜ	-4568
▁ㅇㅣㅁㄱㅣ	-4569
ㅏㅇㅣㅇㅓㄴ	-4570
▁ㅎㅗㄴㅎㅏㅂ	-4571
▁ㅇㅑㄴ	-4572
▁ㅇㅖㅈㅓㄴ	-4573
ㅁㅜㅂㅜ	-4574
▁ㅅㅏㅈㅓㅇ	-4575
▁ㅎㅏㄴㄱㅜㄱㅇㅣㄴ	-4576
▁DNA	-4577
▁1947	-4578
▁ㅈㅓㅂㅊㅗㄱ	-4579
ㄷㅜㄱ	-4580
▁ㅈㅜㄹㄱㅣ	-4581
▁ㅇㅘㅇㅣ	-4582
▁ㅊㅜㄹㄹㅕㄱ	-4583
▁ㅂㅜㄴㅇㅟ	-4584
▁ㅎㅚㄷㅏㅁ	-4585
▁ㅇㅏㄱㄱㅣ	-4586
▁ㅈㅣㅇㅇㅕㄱ	-4587
▁76	-4588
▁ㅅㅜㄴㅅㅜ	-4589
▁ㄱㅡㄹㅐㅍㅣㄱ	-4590
▁ㄱㅐㅇㅣㅂ	-4591
▁ㅌㅔㄱㅅㅏㅅㅡ	-4592
▁ㅂㅏㅇㅇㅟ	-4593
ㅏㄹㅏㅎ	-4594
▁ㅂㅗㄱㅗㅅㅓ	-4595
▁SS	-4596
▁1956	-4597
▁ㅇㅑㅇㅉㅗㄱ	-4598
▁ㅇㅝㄴㅎㅕㅇ	-4599
▁ㅅㅡㅇㄱㅐㄱ	-4600
▁ㅇㅗㄹㅐㅅ	-4601
▁ㅇㅏㄴㄷㅗㅇ	-4602
▁ㄷㅐㅇㅝㄴ	-4603
ㅗㅅㅣㄴ	-4604
ㅅㅔㅇㅜ	-4605
▁ㅇㅣㅂㅂㅓㅂ	-4606
ㅈㅣㅋㅓㄹ	-4607
▁ㅈㅔㅅㅏ	-4608
▁ㅅㅜㄹㅣ	-4609
▁ㅅㅣㄹㅎㅕㄴ	-4610
▁ㅇㅣㅂㄹㅕㄱ	-4611
▁ㅇㅓㄴㅈㅔ	-4612
▁ㅎㅜㅅㄴㅏㄹ	-4613
▁ㅇㅏㅇㅣㄷㅗㄹ	-4614
▁ㅊㅓㅇㄱㅜ	-4615
ㅋㅓㅁ	-4616
▁ㄱㅡㄸㅐ	-4617
▁ㄱㅜㅇㅝㄴ	-4618
▁ㄱㅕㅇㄴㅏㅁ	-4619
▁72	-4620
▁ㅅㅜㅅㅓㄱ	-4621
▁ㅋㅡㄹㅗㅇ	-4622
▁ㄷㅏㄴㅍㅕㄴ	-4623
ㄹㅣㅇㅓ	-4624
▁ㄹㅣㅊㅓㄷㅡ	-4625
▁ㄴㅔㅇㅣ	-4626
▁ㅂㅐㄱㅅㅓㅇ	-4627
▁ㄱㅐㅅㅣㄴㄱㅛ	-4628
ㅅㅜㅇㅇㅣ	-4629
▁ㅇㅏㅅㅏ	-4630
▁ㄷㅗㅇㅁㅕㅇ	-4631
ie	-4632
ㅇㅙ	-4633
▁160	-4634
▁ㄱㅛㄱㅜ	-4635
▁ㅈㅏㄱㅇㅟ	-4636
▁ㄷㅡㅇㅍㅏㄴ	-4637
▁ㅇㅗㄹㅐㅅㄷㅗㅇㅇㅏㄴ	-4638
▁ㅈㅣㄴㅈㅓㅇ	-4639
ㅍㅓㄹ	-4640
ㅂㅏㄹㅡ	-4641
▁ㅇㅘㅇㅅㅣㄹ	-4642
▁ㅇㅕㅇㅑ	-4643
▁ㅋㅓㅁㅠㄴㅣ	-4644
▁ㅇㅣㄹㅏㅋㅡ	-4645
▁ㅊㅜㄱㄱㅜㄷㅏㄴ	-4646
▁ㅅㅜㄴㄱㅏㄴ	-4647
▁ㄱㅏㅁㅅㅣ	-4648
▁77	-4649
ㄷㅐㅂㅜ	-4650
▁ㅇㅔㄷㅡㅇㅝㄷㅡ	-4651
▁ㅋㅏㄹㅏ	-4652
▁ㄷㅗㄱㅇㅣㄹㄱㅜㄴ	-4653
▁ㅂㅣㅈㅜㅇ	-4654
▁ㅈㅓㄴㅕㄱ	-4655
▁ㅅㅣㅅㅏㅇ	-4656
ㅈㅗㄹ	-4657
▁ㅌㅜㄹ	-4658
▁ㅈㅜㄹㅇㅓㄷㅡㄹ	-4659
ㅎㅡㅂ	-4660
▁ㄷㅜㄱ	-4661
▁ㄲㅓㄲ	-4662
▁ㅂㅏㄷㅏㄱ	-4663
ㄹㅗㄷㅡ	-4664
▁ㅈㅐㄱㅓㄴ	-4665
▁ㅈㅗㅂㅕㄹ	-4666
ud	-4667
ㅋㅗㅅㅡ	-4668
▁ㄷㅐㄹㅑㅇ	-4669
▁ㅊㅔㄴ	-4670
▁ㅂㅏㄹㅂㅏㄹ	-4671
▁67	-4672
▁ㅇㅕㅇㅘㅇ	-4673
ㅋㅟ	-4674
▁ㄱㅠㄴㅎㅕㅇ	-4675
▁ㅌㅐㄷㅗ	-4676
▁ㅅㅣㄴㅂㅜ	-4677
ㄴㅏㅂ	-4678
▁ㅇㅔㄱㅅㅡ	-4679
▁ㅇㅔㅅㅓㅂㅜㅌㅓ	-4680
ly	-4681
▁ㅇㅕㄹㅗㄴ	-4682
▁ㅇㅣㄴㅣㅇ	-4683
▁ㅍㅗㅋㅔㅅ	-4684
ㄹㅏㄴㅗ	-4685
▁ㅇㅕㅇㅈㅣ	-4686
▁Th	-4687
▁ㅈㅏㅇㅅㅜ	-4688
▁ㅂㅕ	-4689
▁ㅋㅗㄹㅡ	-4690
▁ㅎㅡㄹㅡㅁ	-4691
▁ㅂㅗㄱㅇㅝㄴ	-4692
ㅓㅁㅍㅡ	-4693
▁AFC	-4694
ㅇㅡㄴㅎㅐㅇ	-4695
▁ㅌㅏㅇㅝ	-4696
og	-4697
ㅍㅗㅁ	-4698
▁1939	-4699
▁ㅊㅣㅁㄹㅑㄱ	-4700
▁ㅎㅏㄴㄱㅡㄹ	-4701
th	-4702
ㅎㅔㄹ	-4703
▁ㅈㅜㅊㅚ	-4704
▁ㅍㅡㄹㅏㅇㅋㅡ	-4705
▁ㅋㅗㄴㅅㅡㅌㅏㄴㅌㅣㄴ	-4706
▁ㅂㅕㅇㅎㅏㅂ	-4707
▁ㅈㅏㅁㅅㅜ	-4708
▁ㅂㅏㄲㅏㅌ	-4709
▁ㄱㅜㄱㄱㅣ	-4710
▁ㅈㅓㅁㅅㅜ	-4711
▁ㅂㅗㅁㅜㄹ	-4712
▁ㅆㅏㄹ	-4713
▁ㄷㅜㄹㄹㅓㅆㅏ	-4714
▁ㅂㅣㅊㅣ	-4715
▁ㅍㅗㄱㅌㅏㄴ	-4716
ㅅㅔㅁ	-4717
ㅜㄴㅣ	-4718
▁ㅎㅐㄴ	-4719
▁ㄱㅣㅅ	-4720
▁ㄱㅜㄱㅡㄹ	-4721
▁ㅍㅗㄹㄹㅣ	-4722
ㅛㅅㅣ	-4723
ㅣㅅㅡㅌㅏㄴ	-4724
▁ㄱㅘㅎㅏㄱㅈㅏ	-4725
ist	-4726
▁ㄷㅐㅇㅘㅇ	-4727
▁ㅂㅏㅇㅅㅏ	-4728
▁ㅇㅝㄴㅅㅜ	-4729
▁ㄱㅝㄴㅇㅟ	-4730
▁ㅍㅏㄹㄹㅣ	-4731
▁ㅌㅔㅅㅡㅌㅡ	-4732
▁ㅅㅓㄱㅇㅠ	-4733
▁ㄴㅐㅅㅕㄴㅓㄹ	-4734
▁ㄴㅕ	-4735
▁ㅎㅘㄱㄹㅣㅂ	-4736
▁ㅇㅏㅅㅡ	-4737
▁ㅇㅏㅁㅎㅗ	-4738
▁85	-4739
▁ㅇㅣㄹㅅㅏㅇ	-4740
▁ㄱㅕㅂ	-4741
▁ㅂㅜㅅ	-4742
▁1954	-4743
▁ㄱㅏㄱㅗㅇ	-4744
▁ㅇㅣㄴㅅㅙ	-4745
▁ㅌㅏㅇㅣㅂ	-4746
▁ㅎㅜㄴㅈㅏㅇ	-4747
AS	-4748
ight	-4749
▁ㅇㅏㄵ	-4750
▁ㅌㅏㅈㅏ	-4751
▁ㄱㅣㅇㅜㄹ	-4752
▁ㅁㅜㅅㅏ	-4753
ㅏㅂㅣㅇㅏ	-4754
▁ㅊㅣㅁㅇㅣㅂ	-4755
ㅇㅙㄹㅏㄴ	-4756
▁ㄷㅗㅇㅇㅑㅇ	-4757
▁ㅇㅣㅁㅈㅣㄴㅇㅙㄹㅏㄴ	-4758
ㅊㅣㅇㅏ	-4759
▁ㅂㅗㄱㅅㅜ	-4760
▁ㅈㅏㅅㅣㄱ	-4761
▁ㄷㅐㅅㅓㄴ	-4762
▁ㅁㅓㄹㄹㅣ	-4763
▁ㅅㅣㅅㅏ	-4764
▁ㅅㅣㅁㅅㅏ	-4765
▁ㅍㅕㅇㅇㅏㄴ	-4766
▁ㅇㅏㅇㅜ	-4767
▁ㅈㅣㅎㅕㅇ	-4768
▁ㅅㅏㅇㅇㅕㄱ	-4769
▁ㅂㅜㄴㅇㅟㄱㅣ	-4770
▁ㄱㅏㄹㅑㅇ	-4771
▁ㅂㅜㅅㅏ	-4772
▁ㅁㅓㅅ	-4773
▁ㅇㅕㄴㅇㅖ	-4774
▁ㅌㅏㅇㅜㄴ	-4775
▁ㅂㅗㄱㅇㅡㅁ	-4776
ㅋㅏㅇㅣㄷㅗ	-4777
▁ㅇㅓㄴㄷㅓㄱ	-4778
▁ㅁㅜㅅㅣ	-4779
▁ㅁㅣㄴㅈㅜㅇ	-4780
ㅊㅕ	-4781
▁*	-4782
▁1952	-4783
▁ㄱㅗㅇㅈㅜㅇ	-4784
▁ㄷㅏㅇㄱㅜㄱ	-4785
▁ㅇㅣㄹㅅㅣ	-4786
▁ㅂㅏㄹㅇㅡㅁ	-4787
▁ㅅㅔㄹㅣ	-4788
▁ㄴㅏㅍㅗㄹㄹㅔ	-4789
▁73	-4790
▁ㅊㅏㅇㅈㅏㄱ	-4791
▁ㄱㅡㅂㅈㅔ	-4792
▁ㅇㅔㄱ	-4793
▁ㅅㅡㅇㅂㅜ	-4794
▁ㄴㅏㅍㅗㄹㄹㅔㅇㅗㅇ	-4795
AT	-4796
▁ㅅㅡㅌㅏㄷㅣㅇ	-4797
▁ㅅㅜㅇㅣㄱ	-4798
▁ㅇㅏㄹㅍㅏ	-4799
▁ㅎㅕㄱㅅㅣㄴ	-4800
▁ㅍㅖㅅㅙ	-4801
▁ㄱㅓㄷㅡㅂ	-4802
▁ㅈㅐㅂㅐ	-4803
▁ㅈㅗㅈㅗ	-4804
▁ㅈㅓㄴㅅㅣㄴ	-4805
▁ㅎㅜㄱㅖ	-4806
▁ㄱㅏㄷㅏㅁ	-4807
▁ㄷㅗㅇㅛ	-4808
▁ㅊㅓㄴㅈㅜㄱㅛ	-4809
▁ㄷㅐㅈㅣ	-4810
▁ㅂㅣㄹㅂㅗㄷㅡ	-4811
▁ㅊㅏㅁㅁㅗ	-4812
ㅜㄱㅅㅡ	-4813
▁ㄲㅣㅊㅣ	-4814
▁ㅎㅣㄴ	-4815
ㄹㅕㄱㅏ	-4816
ㅈㅏㅊㅣ	-4817
ㅇㅏㄴㅏ	-4818
▁ㄱㅖㅊㅡㅇ	-4819
▁ㅂㅗㄴㅈㅣㄹ	-4820
▁ㅇㅏㅌㅔㄴㅔ	-4821
▁ㅂㅏㄱㅈㅓㅇㅎㅢ	-4822
▁Al	-4823
▁96	-4824
▁ㅅㅏㅈㅔ	-4825
▁78	-4826
▁ㄷㅗㅇㅂㅏㅇ	-4827
ㅈㅗㅎㅏㅂ	-4828
▁ㅂㅏㅇㅣㅇㅔㄹ	-4829
▁202	-4830
▁ㄱㅡㄹㅔ	-4831
▁ㅂㅗㅅㅏㄹ	-4832
ㅈㅣㅅ	-4833
ㅕㄱㅏ	-4834
▁ㅁㅜㅎㅏㄴ	-4835
▁81	-4836
▁ㅇㅓㄲㅐ	-4837
▁ㄹㅗㅂㅗㅅ	-4838
ㅏㅁㅗㅌㅗ	-4839
▁ㅁㅜㄴㅅㅣㄴ	-4840
ㅓㅅㅡㅌㅡ	-4841
▁ㅅㅏㄴㅎㅘ	-4842
▁ㅁㅠㅈㅣㅋㅓㄹ	-4843
▁ㅈㅏㅇㄴㅏㅁ	-4844
▁ㅎㅜㅅㅗㄱ	-4845
ㄷㅏㄹㄹㅣ	-4846
ㅍㅣㄹㄷㅓ	-4847
▁ㅊㅓㅇㅈㅜ	-4848
▁ㅁㅣㄷㅡㅍㅣㄹㄷㅓ	-4849
▁ㄱㅏㅅㅓㄹ	-4850
▁ㅊㅗㅇㅎㅚ	-4851
▁ㅎㅐㅂㅏㄹ	-4852
▁ㄴㅗㄹㄹㅏ	-4853
▁ㄴㅗㅊㅜㄹ	-4854
▁ㅍㅕㅇㄹㅗㄴ	-4855
▁ㅈㅐㅎㅏㄱ	-4856
▁ㅌㅏㄹㅌㅚ	-4857
ess	-4858
ㅁㅣㄴㅈㅜ	-4859
▁DV	-4860
▁ㄱㅡㄹㅣㅅㅡㄷㅗ	-4861
ㅇㅣㄹㅂㅗ	-4862
▁ㅎㅏㅇㅝㄴ	-4863
▁NH	-4864
▁ㅁㅟㄴ	-4865
▁ㄱㅐㅅㅓㄹ	-4866
ㅋㅓㄷ	-4867
▁ㅈㅓㄴㄴㅏㅁ	-4868
ㅡㅁㅏㄴ	-4869
▁ㄱㅡㄹㅣㄴ	-4870
▁ㄸㅏㄹㅗ	-4871
▁ㅊㅏㅁㄱㅗ	-4872
▁ㅅㅣㄴㅈㅏ	-4873
ㅇㅏㅎㅏ	-4874
▁Li	-4875
▁ㅂㅣㄹㄷㅣㅇ	-4876
▁ㅅㅏㅁㅜㅅㅗ	-4877
ㅌㅣㄹ	-4878
▁ㅅㅣㅁㅈㅣ	-4879
▁1959	-4880
▁ㅈㅘㅅㅏㅇ	-4881
▁ㅇㅣㄹㅋㅓㄷ	-4882
▁ㅎㅐㅇㅂㅗㄱ	-4883
▁ㅈㅓㄴㅌㅜㄱㅣ	-4884
▁ㅈㅗㅎㅇㅏㅎㅏ	-4885
▁ㅎㅘㅈㅏㅇ	-4886
▁ㅈㅓㄴㅈㅣㄱ	-4887
▁ㅈㅜㅇㄹㅕㄱ	-4888
▁ㅅㅜㄷㅗㅇㅝㄴ	-4889
▁ㄷㅏㅅㅗ	-4890
▁ㅍㅏㅇㅝ	-4891
▁ㅅㅣㄴㄱㅗ	-4892
▁ㅌㅏㅇㅣㄴ	-4893
▁71	-4894
▁ㅅㅣㄹㄹㅕㄱ	-4895
▁ㅍㅡㄹㅏ	-4896
ㅔㄴㅣㅇㅏ	-4897
▁ㅉㅣ	-4898
ㄹㅣㄹ	-4899
▁ㄱㅣㅁㅅㅓㅇ	-4900
▁ㅈㅓㄹㅂㅏㄴ	-4901
▁ㄷㅗㅁㅏ	-4902
▁ㅇㅟㅅ	-4903
▁AT	-4904
▁177	-4905
▁ㅂㅣㅅㅓ	-4906
▁ㅇㅗㄱㅏ	-4907
▁ㄱㅡㄹㅓㅁ	-4908
▁ㅎㅘㅇㅣㅌㅡ	-4909
▁ㅊㅐㅇㅜ	-4910
▁ㅍㅔㄹㅡㅅㅣㅇㅏ	-4911
▁ㄷㅗㅇㅅㅓ	-4912
▁ㄷㅏㅋㅔ	-4913
▁ㅇㅜㅁㅈㅣㄱㅇㅣㅁ	-4914
▁ㅅㅏㅈㅏ	-4915
▁ㄹㅔㅇㅏㄹ	-4916
▁ㅎㅘㅎㅏㅂ	-4917
▁ㅅㅏㅇㄱㅘㄴ	-4918
▁ㅊㅓㄴㅇㅏㄴ	-4919
▁ㅂㅠ	-4920
▁91	-4921
ㅌㅔㄹㅡ	-4922
▁ㄷㅡㄹㅇㅣ	-4923
▁ㄱㅏㄲㅏㅇㅣ	-4924
ㄹㅗㅅㅡ	-4925
▁ㄱㅗㅌㅗㅇ	-4926
▁ㅇㅕㅅㅓㅅ	-4927
▁ㅇㅣㄴㅇㅛㅇ	-4928
▁ㅎㅘㅇㅎㅜ	-4929
▁ㄱㅣㅅㅗ	-4930
▁ㅈㅣㄹㅎㅘㄴ	-4931
ㄱㅘㄹ	-4932
ㅋㅡㄹㄹㅣ	-4933
▁ㄷㅏㅇㄴㅏㄹㅏ	-4934
▁ㅇㅟㅋㅣ	-4935
▁ㅇㅣㅎㅗㄴ	-4936
▁ㅅㅐㅇㅁㅜㄹㅎㅏㄱ	-4937
▁ㅅㅡㅌㅐㄴ	-4938
ㅏㅌㅣㅇㅏ	-4939
BA	-4940
▁ㅇㅐㄱㅅㅕㄴ	-4941
ㅇㅣㄴㅁㅜㄹ	-4942
▁ㅅㅗㄴㅅㅏㅇ	-4943
ㅊㅔㅅㅡㅌㅓ	-4944
▁\	-4945
ㅔㄴㅏ	-4946
▁ㅁㅜㄹㅡ	-4947
▁ㄷㅡㅅㅇㅣ	-4948
▁ㅂㅐㄱㅁㅏㄴ	-4949
ㅑㄹ	-4950
ㅁㅣㅌㅓ	-4951
▁ㅂㅜㅈㅣ	-4952
▁ㄷㅣㅅㅡㅋㅡ	-4953
ㅜㄴㅏ	-4954
▁ㅅㅣㅁㅈㅏㅇ	-4955
▁st	-4956
▁ㅈㅏㄱㄷㅗㅇ	-4957
▁ㅂㅏㅇㅣㅇㅔㄹㅡㄴ	-4958
▁ㅅㅡㅇㄹㅕ	-4959
▁ㄱㅜㄱㄱㅜㄴ	-4960
▁ㅍㅐㅅㅕㄴ	-4961
ub	-4962
▁ㄱㅏㅅㅡㅁ	-4963
ㅌㅓㅅㅡ	-4964
▁1942	-4965
▁ㅇㅢㄷㅐ	-4966
▁ㅂㅜㅅㅏㄴㄱㅘㅇㅇㅕㄱㅅㅣ	-4967
▁ㅁㅗㅌㅗ	-4968
▁ㅎㅗㅅㅋㅏㅇㅣㄷㅗ	-4969
ㅡㄹㅣㅌㅡ	-4970
▁ㅂㅗㅅㅏㅇ	-4971
▁ㅇㅣㄴㅅㅐㅇ	-4972
▁ㅇㅏㅁㅔㄹㅣㅋㅏㄴ	-4973
▁ㅈㅣㅎㅑㅇ	-4974
▁ㄱㅕㅇㅂㅜㄱ	-4975
▁ㅇㅠㅎㅕㅇㅁㅜㄴㅎㅘㅈㅐ	-4976
ㄲㅣㅁ	-4977
▁ㅂㅣㄹㅖ	-4978
▁ㅁㅔㅅㅣㅈㅣ	-4979
▁ㄱㅡㅁㅏㄴ	-4980
▁ㅅㅓㅅㅣㄱㅈㅣ	-4981
▁ㄱㅡㄹㄹㅗㅂㅓㄹ	-4982
▁ㄱㅘㄴㅇㅕ	-4983
▁ㅇㅑㄱㅁㅜㄹ	-4984
▁ㅇㅠㅌㅗㅇ	-4985
▁ㅈㅣㅅㅏ	-4986
▁ㅈㅜㄹㅕㄱ	-4987
▁ㄸㅜ	-4988
▁ㅊㅓㅎㅏ	-4989
ㄷㅡㄹㅣㅎㅣ	-4990
ㅋㅐ	-4991
ㅣㅂㅡㄴ	-4992
▁ㅎㅗㄴㅇㅣㄴ	-4993
▁ㅅㅏㄹㄹㅣ	-4994
▁ㅍㅔㅇㅣㅈㅣ	-4995
ㅍㅜ	-4996
▁87	-4997
▁ㄱㅡㄹㅓㅎㄱㅔ	-4998
▁ㄴㅣㅅㅣ	-4999
ㄱㅏㄹㅏㄱ	-5000
▁1955	-5001
▁ㄱㅛㄹㅣ	-5002
▁159	-5003
▁ㅂㅐㄴ	-5004
▁ㅅㅣㅇㄱㅏ	-5005
▁ㅁㅏㄹㄹㅔㅇㅣㅅㅣㅇㅏ	-5006
▁ㄷㅗㄷㅓㄱ	-5007
▁ㄱㅜㅁㅐ	-5008
▁ㅇㅝㄴㄴㅕㄴ	-5009
▁ㅅㅡㅌㅏㄷㅣㅇㅜㅁ	-5010
▁AP	-5011
▁ㅇㅕㄱㅎㅏㄱ	-5012
▁ㅈㅣㄴㄷㅏㄴ	-5013
▁ㅇㅘㅇㅂㅣ	-5014
▁ㅅㅓㄴㅂㅏㄱ	-5015
▁ㄱㅜㄱㅈㅓㅇ	-5016
▁ㅁㅜㄹㅛ	-5017
▁ㄷㅡㄹㅐㅍㅡㅌㅡ	-5018
IA	-5019
ab	-5020
▁ㅇㅣㄹㅂㅗㄴㅇㅓ	-5021
▁ㅈㅓㅇㅊㅏ	-5022
▁ㄱㅏㅇㅘ	-5023
ㄹㅣㅎㅣ	-5024
▁1953	-5025
▁ㅈㅓㄱㅎㅏㅂ	-5026
▁ㅊㅗㅇㅈㅏㅇ	-5027
▁1943	-5028
▁ㅅㅏㅇㅠ	-5029
▁ㅁㅐㅊㅔ	-5030
▁ㄹㅜㅁㅏㄴ	-5031
▁ㅈㅗㅅㅏㅇ	-5032
▁ㅋㅠ	-5033
▁ㄱㅣㅅㅏㅇ	-5034
▁ㅇㅘㅇㅎㅜ	-5035
▁ㅅㅏㄴㅅㅗ	-5036
▁ㅋㅡㄹㅗㅇㅏㅌㅣㅇㅏ	-5037
▁ㅌㅗㅇㅎㅘ	-5038
▁ㅅㅡㅌㅗ	-5039
ㅇㅠㅅㅏㄴ	-5040
▁ㅅㅣㅇㄱㅏㅍㅗㄹㅡ	-5041
▁ᆯㅈㅣ	-5042
▁1936	-5043
▁ㅈㅓㄴㄷㅗㅇㅊㅏ	-5044
▁ㄱㅏㅇㅛ	-5045
ㅈㅣㄱㅈㅏ	-5046
▁ㅇㅖㅂㅏㅇ	-5047
▁ㅂㅔㅇㅣㅅㅡ	-5048
▁ㅅㅏㅇㅅㅣㄹ	-5049
▁ㅍㅣㅎㅐㅈㅏ	-5050
▁84	-5051
▁ㅁㅗㅂㅏㅇㅣㄹ	-5052
▁ㅈㅜㅅㅓㄱ	-5053
▁ㅈㅣㄴㅏㄱㅏ	-5054
▁ㄴㅡㄴㄷㅏㄴㅡㄴ	-5055
▁ㅅㅓㄴㅇㅣㅁ	-5056
▁ㄱㅣㅁㅇㅣㄹㅅㅓㅇ	-5057
▁ㄱㅠㅈㅔ	-5058
▁ㄴㅐㄹㅕㅇㅗ	-5059
▁ㄷㅔㅅㅡ	-5060
▁ㄱㅕㄹㅇㅢ	-5061
IV	-5062
ㅅㅡㅌㅣㄴ	-5063
▁ㅂㅜㄹㅁㅏㄴ	-5064
▁ㄴㅣㄱ	-5065
▁ㅋㅜㄷㅔ	-5066
ㅎㅣㄹㅗ	-5067
▁ㅎㅜㅋㅜㅇㅗㅋㅏ	-5068
▁ㄱㅐㅅㅓㅇ	-5069
▁ㅇㅏㅇㅜㅅ	-5070
▁ㄱㅐㅂㅏㅇ	-5071
▁ㅍㅣㄹㄷㅡ	-5072
▁ㄲㅔ	-5073
▁700	-5074
▁ㅌㅣㄱ	-5075
▁ㅅㅏㅁㅜㅅㅣㄹ	-5076
▁ㅇㅡㅁㅇㅏㄱㄱㅏ	-5077
▁ㅂㅏㄹㅌㅏㄱ	-5078
▁ㄴㅓㅁㅇㅓㄱㅏ	-5079
▁ㅍㅡㄹㅗㅇㅣㅅㅔㄴ	-5080
▁ㅇㅣㄹㅊㅔ	-5081
ㅊㅔㄹㅗ	-5082
▁ㅇㅗㅈㅣㄱ	-5083
ㄹㅗㄴㅏ	-5084
▁ㄱㅣㄷㅗㅇ	-5085
▁ㅇㅕㄴㅅㅡㅂ	-5086
▁ㄱㅐㅊㅣㅇ	-5087
ㅋㅡㄹㅗ	-5088
▁ㅂㅜㄷㅏㅁ	-5089
▁ㅈㅏㅇㅣㅇㅓㄴ	-5090
ine	-5091
ㅋㅔㄹ	-5092
▁ㅎㅜㅋㅜ	-5093
▁ㅅㅣㅁㅍㅏㄴ	-5094
▁ㅇㅟㄷㅐ	-5095
▁ㄱㅗㄱㅣ	-5096
ㄷㅡㄹㅗ	-5097
▁ㅁㅏㅁㅜㄹㅣ	-5098
▁1910	-5099
▁ㅇㅓㄱㅈㅔ	-5100
▁Re	-5101
▁ㅅㅗㄷㅡㄱ	-5102
▁ㅇㅓㄹㅕㅇ	-5103
▁ㅇㅏㄹㄱㅗㄹㅣ	-5104
▁ㅅㅔㄹㅡㅂㅣㅇㅏ	-5105
▁ㅇㅣㄹㄱㅣ	-5106
ㅎㅏㅇㅕ	-5107
▁ㅇㅣㄴㅇㅝㄴ	-5108
▁ㅍㅡㄹㅐㅇ	-5109
▁ㅅㅡㅌㅣㅂㅡㄴ	-5110
▁ㅈㅓㄴㅂㅜㄱ	-5111
ㅏㄴㅅㅐㄱ	-5112
▁ㅂㅓㅈㅣㄴ	-5113
▁ㅇㅛㄱㅡㅁ	-5114
▁ㄱㅏㅇㄹㅡㅇ	-5115
▁ㅊㅓㅂㅜㄴ	-5116
▁ㄴㅗㅅㅡ	-5117
▁ㅂㅗㄴㅁㅕㅇ	-5118
▁ㅈㅗㅋㅏ	-5119
ㅕㅂㅗ	-5120
ㄷㅗㄱㅂㅜ	-5121
▁ㅌㅐㅈㅗ	-5122
▁ㄱㅓㅁㅌㅗ	-5123
▁ㄱㅣㅁㅈㅗㅇ	-5124
▁ㅅㅏㄱㅕㄱ	-5125
▁ㅅㅓㄹㄷㅡㄱ	-5126
ㅌㅗㅅㅡ	-5127
▁ㅋㅜㄷㅔㅌㅏ	-5128
▁ㅈㅓㄴㄷㅏㅇ	-5129
▁ㄴㅏㅁㅇㅏㅍㅡㄹㅣㅋㅏ	-5130
▁ㅅㅗㅁㅕㄹ	-5131
▁ㅋㅜㅇ	-5132
▁ㄷㅗㅁㅗ	-5133
ew	-5134
▁="	-5135
▁;,	-5136
▁ㄷㅗㅇㅂㅜㄱ	-5137
ㅗㅅㅏㄴ	-5138
▁ㅇㅏㅌㅡ	-5139
▁ㅈㅓㅇㅅㅜ	-5140
▁ㄱㅜㅇㅈㅓㄴ	-5141
▁ㅋㅙ	-5142
ㅅㅡㅌㅗㄴ	-5143
▁1957	-5144
▁ㅌㅗㅇㅛ	-5145
ㄲㅏㄹ	-5146
ㄹㅣㅅ	-5147
▁ㅇㅏㄹㄱㅗㄹㅣㅈㅡㅁ	-5148
▁ㅎㅓㄹㅣ	-5149
▁ㅊㅏㅇㄷㅏㅇ	-5150
▁ㅍㅗㄱㄱㅕㄱ	-5151
▁ㅅㅣㅁㅈㅣㅇㅓ	-5152
▁ㄹㅐㄴㄷㅡ	-5153
▁ㅈㅓㄴㅅㅗㅇ	-5154
▁ㅁㅔㅇㅣㅈㅣ	-5155
▁ㅈㅐㄱㅅㅡㄴ	-5156
▁ㅇㅡㅁㅅㅓㅇ	-5157
▁ㅊㅐㅁㅍㅣㅇㅓㄴㅅㅣㅂ	-5158
▁ㅇㅓㄹㅕㅇㅜㅁ	-5159
▁ㅌㅗㄹㅗㄴㅌㅗ	-5160
▁1914	-5161
▁ㅍㅡㄹㅏㅇㅣ	-5162
▁ㅂㅜㄴㄴㅗ	-5163
▁ㅇㅣㅁㅕㅇ	-5164
▁ㅍㅓㄹ	-5165
ㅁㅜㄹㅏ	-5166
▁69	-5167
▁ㄱㅜㅇㅣㅂ	-5168
▁ㅎㅡㄴㅎㅏ	-5169
▁ㅍㅗㅅㅡㅌㅡ	-5170
ㅅㅔㅇㅣ	-5171
▁ㅅㅏㄷㅗ	-5172
▁ㅍㅡㄹㅣㄷㅡㄹㅣㅎㅣ	-5173
ㅣㅌㅡ	-5174
ue	-5175
▁ㅌㅔㅇㅣㄹ	-5176
ㅌㅣㅅㅡ	-5177
▁ㅂㅣㅈ	-5178
▁ㄱㅏㅁㅏ	-5179
▁ㅋㅗㄴㅌㅔㄴㅊㅡ	-5180
▁ㅂㅏㄹㅁㅕㅇ	-5181
▁97	-5182
▁ㄷㅐㅊㅔㄹㅗ	-5183
▁ㄴㅏㅃㅡ	-5184
ㅅㅡㅌㅡㄹㅏ	-5185
▁ㄱㅓㅁㅅㅐㄱ	-5186
▁ㅅㅏㅇㅅㅗㄱ	-5187
▁ㅇㅝㄴㅈㅜㅁㅣㄴ	-5188
▁ㅌㅏㅇㅣㄱ	-5189
▁ㅍㅗㅋㅔㅅㅁㅗㄴ	-5190
▁ㅅㅣㄴㅈㅏㅇ	-5191
▁ㅌㅔㅁㅏ	-5192
▁1900	-5193
▁ㅁㅣㅅㅜㄹㄱㅘㄴ	-5194
▁ㅌㅡㄹㅗ	-5195
▁ㄱㅣㅍㅇㅣ	-5196
ㄷㅏㅇㅣ	-5197
▁ㅎㅠㄷㅐ	-5198
▁ㅈㅣㄴㅇㅕㅇ	-5199
▁ㄱㅡㅇㅈㅓㅇ	-5200
▁ㅅㅏㅁㅏㄱ	-5201
▁ㅈㅡㄱㅅㅣ	-5202
▁ㅇㅏㅍㅡㄱㅏㄴ	-5203
▁ㄹㅜㄱ	-5204
▁92	-5205
▁ㅊㅗㅈㅓㅁ	-5206
▁ㅈㅏㄴㅡㄴ	-5207
EC	-5208
ㅡㄹㅏ	-5209
▁ㅊㅜㅂㅏㅇ	-5210
ㅅㅣㅅㅡㅋㅗ	-5211
▁ㅍㅣㄹㅅㅜ	-5212
ㅋㅔㄴ	-5213
ㅣㅇㅏㄴ	-5214
▁ㄱㅗㄹㅡ	-5215
▁ㅅㅡㅁㅣㅅㅡ	-5216
▁ㅁㅏㄱㄷㅐ	-5217
▁ㅂㅜㄹㄱㅏㄹ	-5218
▁ㄷㅐㅊㅐㄱ	-5219
▁ㅎㅣㅌㅡㄹㄹㅓ	-5220
▁ㅍㅣㅌㅓ	-5221
▁01	-5222
▁ㅍㅓㅇ	-5223
▁1938	-5224
▁ㅅㅓㄱㅅㅏ	-5225
▁ㄱㅘㅇㅂㅓㅁ	-5226
▁HD	-5227
▁ㄷㅜㄴ	-5228
ㅇㅝㄴㄱㅕㅇ	-5229
▁ㅂㅐㅍㅗ	-5230
▁DVD	-5231
▁ㅇㅞㅇㅣㄹ	-5232
▁ㄷㅏㄱ	-5233
▁ㄷㅏㅁㄱㅣ	-5234
▁ㅇㅣㄴㄷㅣㅇㅓㄴ	-5235
ㅗㅅㅔㅅㅓ	-5236
▁ㅂㅜㄹㅇㅏㄴ	-5237
▁ㅈㅏㄱㅜㄱ	-5238
▁ㅍㅜㅅ	-5239
▁ㅅㅓㄴㅎㅕㅇ	-5240
▁{	-5241
ㄱㅛㅇ	-5242
ㄹㅠㅁ	-5243
▁ㅌㅣㄹ	-5244
▁ㅅㅏㅇㅜㅅㅡ	-5245
▁ㅍㅗㅅㅡ	-5246
▁ㅎㅏㄱㅅㅏ	-5247
ㅊㅗㅇㄷㅗㄱㅂㅜ	-5248
▁ㅈㅗㅅㅓㄴㅊㅗㅇㄷㅗㄱㅂㅜ	-5249
▁ㄹㅔㅅㅡ	-5250
▁ㅇㅏㅁㅣ	-5251
▁101	-5252
▁ㅎㅏㅅ	-5253
▁ㅊㅓㄴㅁㅏㄴ	-5254
▁ㅍㅏㄹㅡ	-5255
▁ㅅㅣㄴㅐㅂㅓㅅㅡ	-5256
▁ㅈㅐㅈㅡ	-5257
▁ㅇㅕㄴㅍㅕㅇ	-5258
▁ㄹㅣㅂㅓ	-5259
▁ㅈㅜㅅㅗ	-5260
▁ㅉㅏㄱ	-5261
ㅈㅏㅋㅣ	-5262
▁ㄷㅜㅇㄱㅡㄹ	-5263
▁ㅇㅓㅂㅈㅓㄱ	-5264
▁ㅎㅗㅅㅗ	-5265
ㄷㅏㄱ	-5266
▁ㅇㅕㄴㅅㅓㄹ	-5267
ㅂㅣㅎㅣ	-5268
ㅗㅌㅗ	-5269
▁ㅂㅜㅇㅟ	-5270
▁ㅅㅓㅅㅜㄹ	-5271
▁ㅅㅔㅌㅡ	-5272
ㅗㄴㅣ	-5273
▁ㅅㅠㄹ	-5274
▁ㄴㅡㄹㄹㅣ	-5275
▁ㅅㅓㄹㅊㅣㄹㅠ	-5276
BM	-5277
▁ㅎㅜㅇㅣㅁ	-5278
▁ㄹㅣㄷㅡ	-5279
▁ㅇㅠㅅㅏㄴ	-5280
▁ㅇㅟㅇ	-5281
▁ㄴㅔㄱ	-5282
▁ㅇㅕㅇㅇㅑㅇ	-5283
ㄷㅔㅇㅣ	-5284
▁ㅇㅣㄴㅐ	-5285
▁ㅌㅡㄹㅏ	-5286
ㅌㅜㅅㅡ	-5287
▁ㅅㅔㅂㅜ	-5288
▁ㅍㅣㅂㅜ	-5289
▁ㅅㅜㅇㅓㅂ	-5290
ㅊㅗㅇㄹㅣ	-5291
▁on	-5292
▁1918	-5293
▁ㅂㅏㄹㅡㅅㅔㄹ	-5294
▁ㅂㅏㄹㅡㅅㅔㄹㄹㅗㄴㅏ	-5295
▁ㅅㅏㄱㅘ	-5296
▁ㅈㅣㄴㄱㅕㄱ	-5297
▁ㄷㅡㅇㅈㅏㅇㅇㅣㄴㅁㅜㄹ	-5298
▁ㅂㅜㄷㅗㅇ	-5299
▁ㄹㅏㅌㅣㄴㅇㅓ	-5300
▁ㅇㅕㄴㄹㅏㄱ	-5301
▁ㄴㅣㅇ	-5302
▁ㄴㅡㄲㅣㅁ	-5303
ㄷㅐㅇㅣㄴ	-5304
▁ㅁㅣㅆㅡ	-5305
▁ㅂㅜㄴㄱㅛ	-5306
▁ㅈㅏㅂㅎㅣ	-5307
▁1951	-5308
ㅂㅏㄹㅗ	-5309
▁1932	-5310
▁ㅅㅡㅍㅡㄹㅣㅇ	-5311
▁ㄷㅏㅅㅡㄹㅣ	-5312
ect	-5313
▁ㅎㅘㄴㅅㅡㅇ	-5314
ㅅㅔㅍㅗ	-5315
▁ㅅㅣㄴㄷㅗ	-5316
▁ㄱㅐㄹㅑㅇ	-5317
ㅜㅇㅏ	-5318
ㅅㅏㄴㅎㅘ	-5319
ㅔㅇㅗ	-5320
▁ㅇㅏㅁㅋㅓㅅ	-5321
ㅐㄴㅏ	-5322
▁ㅈㅓㅈㅏ	-5323
▁ㄹㅕㅁㅕㄴ	-5324
▁ㅂㅏㅇㅇㅓㄴ	-5325
▁ㅁㅏㅅㅡㅌㅓ	-5326
▁ㅇㅜㄴㅎㅏㅇ	-5327
▁ㅈㅓㅇㄱㅛㅎㅚ	-5328
ㅈㅔㄱㅜㄱ	-5329
▁ㄷㅡㄹㅐㄱ	-5330
▁ㄴㅡㄱ	-5331
▁ㅁㅏㅌㅣㄴ	-5332
ㅂㅐㅇ	-5333
ㅓㄷ	-5334
ㅡㄹㄹㅏ	-5335
ㄷㅏㄹㅏㅎ	-5336
▁ㅊㅚㅇㅜ	-5337
ㅅㅏㅈㅓㄴ	-5338
▁ㄷㅐㅁㅏㄴ	-5339
▁ㅋㅗㄹㅣㅇㅏ	-5340
▁ㄱㅣㄷㅏㄹㅣ	-5341
▁ㅎㅘㄹㅕ	-5342
▁ㄱㅏㄱㄱㅜㄱ	-5343
▁ㄱㅖㄱㅗㄱ	-5344
▁ㄲㅡㅌㄴㅐ	-5345
▁ㄷㅗㅇㅎㅐ	-5346
▁ㄱㅡㅂㄱㅕㄱ	-5347
▁89	-5348
▁ㄱㅜㄱㅈㅓㄱ	-5349
ㄱㅘㄱ	-5350
ㅈㅜㄱㅜㄱ	-5351
▁ㅇㅛㅇㅇㅣㄴ	-5352
▁ㄱㅗㄱㅡㅂ	-5353
▁ㅅㅏㅇㅇㅣㄴ	-5354
▁ㄸㅗㄱ	-5355
▁ㅈㅓㄴㅅㅜㄹ	-5356
ㅃㅏ	-5357
▁ㄹㅔㅇㅗㄴ	-5358
▁ㅇㅓㄴㅅㅡ	-5359
▁ㄱㅗㅁ	-5360
▁1937	-5361
▁ㅌㅣㄴ	-5362
▁ㅅㅜㅁㄱㅣ	-5363
ㅈㅣㅅㅏ	-5364
▁ㅅㅣㅇㅇㅓ	-5365
▁ㅇㅜㅋㅡㄹㅏ	-5366
▁ㅎㅢㄴㅅㅐㄱ	-5367
▁ㅎㅘㅅㅓㄱ	-5368
ㄹㅔㅁ	-5369
▁ㅈㅗㅊㅏ	-5370
ㅕㅂㅏㄷ	-5371
▁ㅅㅣㅁㅏ	-5372
▁ㅁㅏㄴㄷㅡㄴ	-5373
▁ㅅㅗㅎㅕㅇ	-5374
▁ㅂㅓㄴㅈㅣ	-5375
▁ㅅㅗㅂㅣㅈㅏ	-5376
▁ㅇㅣㄹㄹㅕㄴ	-5377
▁ㅇㅓㄷㅜ	-5378
▁ㅅㅣㄴㅅㅏ	-5379
ㅜㄴㅌㅡ	-5380
▁ㄹㅗㄹㅔㄴ	-5381
▁ㅇㅘㄴㅂㅕㄱ	-5382
ㅁㅏㄴㅏ	-5383
▁1935	-5384
▁ㅎㅏㅇㅕㄱ	-5385
▁182	-5386
▁ㄹㅐㅂ	-5387
▁ㄱㅗㅇㅟ	-5388
▁ㄴㅗㄹㅡ	-5389
▁ㅅㅣㄹㅊㅓㄴ	-5390
▁ㄱㅗㅇㅑㅇㅇㅣ	-5391
ㅅㅜㅁ	-5392
▁ㅁㅏㄹㄹㅣ	-5393
▁ㄱㅜㅅㅏㅇ	-5394
▁ㅅㅏㅊㅏㄹ	-5395
ㅏㅌㅏ	-5396
▁ㄹㅓㅆㄷㅏ	-5397
ㅍㅣㄹㄷㅡ	-5398
▁ㄱㅗㄱㅐㄱ	-5399
▁ㅂㅐㄱㅇㅣㄴ	-5400
▁ㅃㅐ	-5401
▁ㄷㅡㄹㅓㅁ	-5402
▁ㅅㅏㅌㅚ	-5403
▁ㅊㅣㅇㅎㅗ	-5404
▁ㅂㅜㅊㅣㄴ	-5405
▁ㅇㅠㅎㅛ	-5406
▁ㅁㅜㄹㄱㅓㄴ	-5407
▁ㅅㅗㄴㅅㅣㄹ	-5408
▁Be	-5409
▁ㄱㅕㅇㅈㅔㅎㅏㄱ	-5410
▁ㅁㅟㄴㅎㅔㄴ	-5411
▁93	-5412
ㄷㅏㄴㅣ	-5413
▁ㄷㅗㄱㅈㅐ	-5414
▁ㅇㅏㅇㅣㅅㅡ	-5415
▁ㅈㅣㄴㅎㅏㄱ	-5416
▁ㅇㅣㅇㅘ	-5417
▁ㅅㅕ	-5418
▁ㄱㅔㄷㅏㄱㅏ	-5419
▁ㅌㅏㅇㅠㄹ	-5420
▁ㅅㅔㄱㅡㅁ	-5421
▁ㄱㅘㅇㅂㅓㅁㅇㅟ	-5422
ㅁㅜㄴㅢ	-5423
▁ㄴㅐㄴㅗㅎ	-5424
▁ㅂㅣㅎㅐㅇㄱㅣ	-5425
ㅁㅣㄴㅈㅜㄷㅏㅇ	-5426
ㅌㅗㅂ	-5427
▁ㅈㅗㅈㅣㅇㅏ	-5428
▁ㅇㅗㄹㅅㅡㅌㅏ	-5429
ㅌㅜㅇㅏㄴ	-5430
ㄷㅗㅇㅅㅐㅇ	-5431
▁ㅅㅣㄹㅇㅓㅂ	-5432
▁ㅈㅣㄹㅁㅜㄴ	-5433
▁ㄹㅜㅁㅏㄴㅣㅇㅏ	-5434
▁ㅈㅜㅊㅔ	-5435
▁ㄱㅗㅇㅅㅣㄴ	-5436
▁ㅂㅏㄹㄱㅏㄴ	-5437
ㄹㅠㄴ	-5438
ㅣㅇㅗㅅㅡ	-5439
▁FM	-5440
ore	-5441
▁ㅇㅣㅇㅜㅅ	-5442
▁ㅁㅗㄱㅅㅓㅇ	-5443
▁ㅎㅚㄹㅗ	-5444
▁ㅎㅏㅇㄱㅗㅇㅅㅏ	-5445
▁ㅎㅘㅈㅔ	-5446
▁ㅅㅓㄴㅍㅗ	-5447
IN	-5448
▁ㅇㅠㅌ	-5449
▁ㄷㅚㄷㅗㄹ	-5450
▁ㅁㅕㄴㅇㅕㄱ	-5451
▁ㅈㅣㅂㅎㅚ	-5452
▁ㄱㅗㄱㅅㅓㄴ	-5453
▁ㅎㅜㄱㅖㅈㅏ	-5454
▁ㅊㅔㅎㅓㅁ	-5455
▁ㄱㅐㅂㅕㄹ	-5456
ㅌㅗㄹㅣㅇㅏ	-5457
▁ㄹㅛ	-5458
▁ㅈㅏㅁㅅㅜㅎㅏㅁ	-5459
▁ㅊㅏㄷㅏㄴ	-5460
▁ㅅㅏㅇㄷㅐㅅㅣㄱ	-5461
▁ㄱㅓㅌ	-5462
▁ㅅㅐㅇㅌㅐ	-5463
▁ㅍㅏㅇㅣㄴ	-5464
▁ㄷㅏㅇㅣㅁ	-5465
▁ㅅㅓㅇㄴㅏㅁ	-5466
▁ㅎㅓㅅ	-5467
▁OS	-5468
ㅇㅣㅊㅣ	-5469
▁ㅈㅐㄱㅐ	-5470
▁ㅁㅏㄹㅡㅋㅡㅅㅡ	-5471
▁ㅂㅔㄹㅣ	-5472
▁ㅊㅏㄴㅅㅓㅇ	-5473
▁ㅇㅑㅇㅅㅏㄴ	-5474
▁ㅍㅡㄹㅏㅇㅅㅡㄱㅜㄴ	-5475
▁ㅌㅐㅈㅗㅇ	-5476
▁ㄷㅗㅇㄱㅜㄹ	-5477
ㅅㅠㅌㅏㅇㅣㄴ	-5478
▁ㅂㅜㄴㅎㅘ	-5479
▁ㅇㅣㅈㅏ	-5480
▁ㅋㅡㄹㅣ	-5481
▁ㅂㅓㅂㅎㅏㄱ	-5482
ㅌㅜㄴ	-5483
▁ㅅㅏㅇㅅㅜ	-5484
▁ㄱㅕㄱㅍㅏ	-5485
ㅜㄹㅡㅌㅡ	-5486
▁ㄹㅜㅅㅡ	-5487
▁ㄱㅏㅁㄱㅏㄱ	-5488
▁ㄱㅗㅅㅣ	-5489
▁ㅈㅏㅅㅏㄴ	-5490
ㄱㅗㄴ	-5491
ㅏㄱㅏㅇㅘ	-5492
ㅂㅐㅁ	-5493
▁ㅋㅡㄹㄹㅐㅅㅣㄱ	-5494
▁ㅇㅜㅅ	-5495
▁ㅇㅖㅂㅣ	-5496
our	-5497
▁94	-5498
▁1928	-5499
▁ㅇㅕㅇㅈㅜ	-5500
▁1933	-5501
▁ㅇㅢㅁㅜㄴ	-5502
▁ㅁㅜㄹㄱㅗㄱㅣ	-5503
▁ㄷㅐㅇㅜ	-5504
▁ㅎㅓㅂ	-5505
▁ㅇㅑㅇㄱㅜㄱ	-5506
▁ㄱㅏㅂㅈㅏㄱㅣ	-5507
▁ㅊㅣㄱ	-5508
ㄷㅗㅅㅏ	-5509
ㅎㅜㄱ	-5510
▁ㅅㅜㅂㅐㄱ	-5511
▁ㄱㅓㅈㅣㅅ	-5512
▁ㅊㅜㄱㅣㄱㅕㅇ	-5513
▁ㅌㅡㄹㅔㅇㅣㄷㅡ	-5514
▁ㅅㅏㄱㅣ	-5515
▁ㅅㅡㅌㅗㄴ	-5516
ㅂㅗㅅ	-5517
▁ㅌㅏㄴㅇㅏㅂ	-5518
▁ㄱㅕㄹㄹㅗㄴ	-5519
▁ㄴㅣㄹ	-5520
▁ㅍㅡㄹㅗㄱㅡㄹㅐㅁㅣㅇ	-5521
▁CP	-5522
▁ㅅㅜㅊㅣ	-5523
▁ㅇㅕㅇㅇㅝㄴ	-5524
▁ㄱㅐㅁㅕㅇ	-5525
▁ㄷㅗㅇㄱㅕㅇ	-5526
▁ㅎㅘㅍㅖ	-5527
ㅈㅗㅅㅓㄴ	-5528
▁ㅊㅗㄱㅈㅣㄴ	-5529
▁ㅅㅏㅇㅈㅜ	-5530
▁ㄱㅏㅇㄴㅏㅁ	-5531
▁ㄷㅏㅇㅇㅝㄴ	-5532
▁ㅎㅏㅇㅇㅢ	-5533
▁ㅅㅡㅋㅡㄹㅣㄴ	-5534
ㅗㄹㄹㅗ	-5535
▁ㅇㅠㅂㅐ	-5536
▁ㄱㅜㅁㅓㅇ	-5537
▁ㅇㅣㅎㅐㅇ	-5538
ㅇㅜㄷㅡ	-5539
▁ㄱㅐㄹㄹㅓㄱ	-5540
▁ㅁㅜㄲ	-5541
▁ㅈㅣㅅㅜ	-5542
▁1924	-5543
ㅗㅅㅗ	-5544
end	-5545
▁ㅊㅚㅎㅜ	-5546
ㅅㅡㅌㅣㄱ	-5547
▁ㄲㅜㅈㅜㄴ	-5548
▁ㄱㅐㅊㅓㄱ	-5549
▁ㅇㅕㅇㄱㅜ	-5550
▁ㅂㅜㄹㄱㅏㄹㅣㅇㅏ	-5551
▁ㄱㅏㅅㅗㄱ	-5552
▁ㅂㅡㄹㅏ	-5553
▁ㄷㅐㅊㅣㅇ	-5554
▁ㅇㅏㅌㅣㅅㅡㅌㅡ	-5555
ell	-5556
▁ㄱㅐㅈㅏㅇ	-5557
▁ㅇㅡ	-5558
▁ㅈㅗㅎㅏㅇ	-5559
▁79	-5560
▁ㄸㅏㅇㅗ	-5561
▁ㅇㅣㄴㅕㅁ	-5562
▁ㅅㅏㅇㅑㅇ	-5563
▁ㄸㅓㅇ	-5564
▁ㅅㅣㅅㅣㄴ	-5565
▁ㅎㅚㅅㅐㄱ	-5566
▁ㄷㅔㄹㅣ	-5567
▁ㅅㅗㅁㅜㄴ	-5568
▁ㅊㅣㄹㄹㅔ	-5569
▁ㄷㅗㅇㅎㅘ	-5570
ㅁㅣㅇㅑ	-5571
▁ㅎㅓㄹㅏㄱ	-5572
▁ㅅㅜㅅㅣㅂ	-5573
▁ㅈㅣㄹㅅㅓ	-5574
▁ㅈㅜㄴㅣㅇㅓ	-5575
▁110	-5576
▁ㄱㅐㅊㅏㄹ	-5577
▁ㅈㅔㄹ	-5578
▁ㅇㅝㄴㅅㅣ	-5579
▁09	-5580
▁ㅂㅗㅍㅕㄴ	-5581
▁ㅇㅕㄹㅁㅐ	-5582
▁ㅈㅓㅇㄹㅠ	-5583
▁04	-5584
▁ㅈㅡㅇㅇㅓㄴ	-5585
▁ㄱㅡㄱㄷㅏㄴ	-5586
▁ㅅㅗㅎㅘ	-5587
▁ㅌㅗㅊㅏㄱ	-5588
▁ㅇㅛㅇㄷㅗ	-5589
▁ㅅㅡㅂㄱㅕㄱ	-5590
▁ㅅㅡㅋㅔㅇㅣ	-5591
▁ㅍㅡㄹㄹㅗㄹㅣ	-5592
ain	-5593
▁ㅇㅓㄷㅜㅂ	-5594
▁ㅋㅗㄹㄹㅗㅁ	-5595
▁ㅅㅓㄴㅎㅗ	-5596
▁ㅅㅔㄹㅡ	-5597
▁ㄷㅓㅅㅂㅜㅌㅇㅣ	-5598
▁ㅅㅗㅈㅣㅂ	-5599
▁ㅇㅜㄴㅅㅗㅇ	-5600
▁ㄷㅐㅂㅓㅂㅇㅝㄴ	-5601
ㅗㅇㅓ	-5602
ㅜㄱㅏㅇㅘ	-5603
▁ㅇㅝㄴㅈㅏㄹㅕㄱ	-5604
ㅈㅓㅅㅡ	-5605
ㅅㅔㅂ	-5606
ㅐㅁㅐ	-5607
▁ㅅㅗㅇㅟ	-5608
▁ㅊㅜㄱㅅㅗ	-5609
▁ㅇㅠㅊㅣ	-5610
▁ㄱㅓㄷ	-5611
▁ㅈㅓㅇㅁㅕㄴ	-5612
▁ㅋㅓㅂㅓ	-5613
▁ㅈㅓㄴㅈㅓㄱ	-5614
▁ㅌㅏㄴㅎㅐㄱ	-5615
▁ㄴㅜㅅㅡ	-5616
ㅂㅏㅋㅣㅇㅏ	-5617
▁ㅇㅢㅈㅓㅇㅂㅜ	-5618
▁ㅇㅣㄱㅅㅡ	-5619
▁ㅇㅣㅂㄷㅐ	-5620
▁ㄱㅣㅁㄷㅐ	-5621
▁ㅍㅡㄹㅗㅌㅗ	-5622
▁ㄹㅔㅇㅗ	-5623
ㄱㅔㄴ	-5624
ㄷㅏㅅㅜ	-5625
▁08	-5626
▁ㄷㅐㄴㅅㅡ	-5627
ㅆㅏㅇㅣ	-5628
▁ㄷㅏㄱㅌㅓ	-5629
▁ㅅㅏㄷㅏㅇ	-5630
▁ㅈㅜㅇㅣㄹ	-5631
ㅔㄹㄹㅣ	-5632
ㅇㅏㅇㅓ	-5633
ㅇㅘㄴ	-5634
ㅜㄹㄹㅣ	-5635
ers	-5636
▁ㅈㅣㅂㅜㄹ	-5637
▁ㅈㅏㅂㅗㄴㅈㅜㅇㅢ	-5638
▁ㅈㅓㄴㅁㅏㅇ	-5639
ill	-5640
▁ㅎㅔㄹㅡ	-5641
▁ㄱㅜㄹㅡㅁ	-5642
ㅏㅇㅣㅌㅡ	-5643
▁ㅎㅗㄴㅈㅏ	-5644
ID	-5645
▁ㄷㅐㄱㅜㄱ	-5646
▁ㅂㅕㅅㅡㄹ	-5647
▁83	-5648
ㅣㅇㅜㅅㅡ	-5649
▁ㄴㅐㅅㅔㅇㅜ	-5650
▁170	-5651
▁ㅊㅗㅅㅏㅇ	-5652
ㅂㅡㄴ	-5653
▁ㄷㅐㅅㅡㅇ	-5654
▁Co	-5655
▁ㅍㅏㅋㅣㅅㅡㅌㅏㄴ	-5656
▁ㅍㅠ	-5657
▁ㅇㅓㅇㅛ	-5658
▁ㅎㅕㅇㅅㅏㅇ	-5659
▁ㅍㅡㄹㅏㅇㅅㅡㅇㅓ	-5660
ㅍㅔㅇㅣㅅㅡ	-5661
▁ㅂㅗㅅㅡ	-5662
▁ㅍㅕㅇㅁㅕㄴ	-5663
ard	-5664
ㅌㅡㄴㅓ	-5665
▁ㅈㅐㄴㅡㅇ	-5666
▁ㅃㅓㄷ	-5667
▁ㄱㅣㅇㅔ	-5668
▁ㅇㅐㄱㅊㅔ	-5669
▁ㅁㅐㅊㅣ	-5670
▁ㅅㅜㅋㅓㅅ	-5671
▁ㅅㅔㅇㅝㄹ	-5672
▁ㅈㅣㅈㅜㅇ	-5673
▁ㅁㅔㅌㅏㄹ	-5674
▁ㅎㅏㅂㄷㅗㅇ	-5675
ㅇㅣㅍ	-5676
▁ㅈㅐㅅㅐㅇ	-5677
▁ㅈㅣㅍㅛ	-5678
ㅂㅜㅇㅣㄴ	-5679
▁ㅍㅓㄴ	-5680
ㅋㅗㅍㅡ	-5681
▁ㄹㅏㅅㅡ	-5682
▁ㅎㅏㄷㅡ	-5683
▁ㅂㅜㅅㅗㄱ	-5684
▁ㅃㅕ	-5685
▁ㅎㅣㅂㅎㅏㅂ	-5686
▁ㄱㅏㄴㅂㅜ	-5687
▁ㅈㅓㅇㅌㅗㅇ	-5688
▁ㅅㅓㄴㄹㅗ	-5689
▁ㅂㅣㅈㅏㄴ	-5690
▁ㅌㅗㅁㅏㅅㅡ	-5691
▁ㅎㅏㅁㄱㅕㅇ	-5692
▁ㅎㅏㅇㅕㄱㅡㅁ	-5693
▁ㄱㅕㅇㅊㅏㄹㅅㅓ	-5694
AN	-5695
▁ㅎㅏㄹㅇㅏㅂㅓㅈㅣ	-5696
▁ㅎㅡㄴㅈㅓㄱ	-5697
ㅍㅡㄹㄹㅔㅇㅣ	-5698
▁ㅌㅡㅁ	-5699
▁ㅁㅜㅇㅛㅇ	-5700
ㄲㅓㅂ	-5701
ㅡㄹㅡ	-5702
▁ㄷㅣㅇㅏ	-5703
▁ㅈㅜㅁㅜㄴ	-5704
▁MS	-5705
▁ㅃㅏㅇ	-5706
▁ㅌㅗㄷㅐ	-5707
▁ㅁㅜㄴㅓㅈㅣ	-5708
▁ㅅㅔㄹㅗ	-5709
▁ㅁㅔㅌㅡㄹㅗ	-5710
ㅍㅐㄱ	-5711
▁ㄱㅜㄱㅌㅗ	-5712
▁ㅇㅏㄴㅉㅗㄱ	-5713
ㄹㅏㅅㅡ	-5714
▁ㄴㅏㅁㄱㅡㄱ	-5715
▁ㅊㅜㅇㅂㅜㄴㅎㅣ	-5716
▁ㄴㅗㅌㅡ	-5717
▁ㅇㅛㅋㅗㅎㅏㅁㅏ	-5718
▁ㄷㅏㅇㅅㅣㄴ	-5719
ㅊㅏㄹㅗ	-5720
▁ㄴㅗㄹㅇㅣ	-5721
▁1934	-5722
▁ㅈㅜㅇㄷㅗㅇ	-5723
▁ㅇㅣㅂㅔㄴㅌㅡ	-5724
▁ㅇㅗㄹㅠ	-5725
▁ㄱㅜㄱㅂㅏㅇㅂㅜ	-5726
▁ㅂㅗㄹㅡ	-5727
▁ㅎㅐㅈㅔ	-5728
▁ㅈㅣㄴㅏㅊㅣ	-5729
▁De	-5730
▁ㅅㅜㅈㅏㅇ	-5731
▁ㄷㅏㄴㅅㅜㄴㅎㅣ	-5732
▁ㅂㅐㅇㅕㄹ	-5733
▁ㄹㅏㅇㅣㅍㅡ	-5734
▁ㄱㅜㄷ	-5735
▁ㅎㅗㅎㅡㅂ	-5736
▁ㅇㅓㅉ	-5737
▁ㅂㅏㄴㅎㅏ	-5738
▁ㄷㅗㅇㅁㅔㄷㅏㄹ	-5739
▁ㅂㅜㅅㅓ	-5740
▁ㅂㅓㅂㅇㅏㄴ	-5741
▁ㅇㅡㄴㅁㅔㄷㅏㄹ	-5742
▁ㄱㅏㄴㅏㄴ	-5743
▁ㅍㅕㄴㅇㅢ	-5744
▁ㅈㅏㄹㅏㅇ	-5745
▁ㅊㅣㅂ	-5746
▁ㅌㅣㅂㅔㅌㅡ	-5747
▁130	-5748
▁ㄱㅘㅇㅅㅏㄴ	-5749
▁ㄷㅐㅅㅏㄱㅘㄴ	-5750
▁ㄹㅓㅂㅡ	-5751
▁ㅊㅗㅇㅈㅐ	-5752
▁ㄷㅐㄷㅗㅇ	-5753
▁ㅇㅏㅇㅜㄹ	-5754
ㄱㅏㅄ	-5755
▁ㅁㅏㅈㅜ	-5756
▁ㄷㅏㅇㄷㅐ	-5757
ㅆㅡㅁ	-5758
▁ㅂㅏㄴㅅㅏ	-5759
▁ㅁㅗㄹㄹㅣ	-5760
▁ㅆㅏㅎㅇㅣ	-5761
▁ㅍㅗㄷㅡ	-5762
▁ㅍㅣㄹㄹㅣㅂ	-5763
▁ㅇㅣㅂㄱㅜ	-5764
▁ㄴㅗㅇㅈㅏㅇ	-5765
▁ㅈㅓㅂㅅㅗㄱ	-5766
ㅣㅇㅓㄹㅗ	-5767
▁ㅈㅏㄹㅡ	-5768
▁ㅍㅏㄴㅈㅓㅇ	-5769
ne	-5770
▁Me	-5771
▁ㅂㅜㄹㄱㅏ	-5772
▁ㅌㅗㅁㅓㅅㅡ	-5773
▁ㅎㅏㄴㅅㅓㅇ	-5774
▁ㅂㅔㄴㅔㅊㅣㅇㅏ	-5775
▁ㄱㅗㄱㅛ	-5776
▁ㅈㅏㅇㄹㅖ	-5777
▁ㅇㅏㅍㅡㄱㅏㄴㅣㅅㅡㅌㅏㄴ	-5778
▁ㄱㅕㅇㅂㅣ	-5779
▁ㅅㅏㅁㅏㅇㅈㅏ	-5780
▁ㅇㅓㅁㄱㅕㄱ	-5781
▁ㅓㅆ	-5782
▁ㅋㅗㅇㅓ	-5783
▁ㅁㅔㄷㅏㄹ	-5784
▁ㅈㅗㄴㅅㅡ	-5785
▁ㅁㅐㅈㅜ	-5786
▁ㅊㅜㅈㅓㄱ	-5787
▁ㅈㅣㄴㅅㅣㄹ	-5788
ㅍㅡㄹㅗ	-5789
▁ㅁㅏㄱㅏㅁ	-5790
▁ㅎㅕㄴㅈㅗㄴ	-5791
ㅇㅏㅈㅣ	-5792
▁ㄴㅡㄹㅣ	-5793
▁ㅅㅓㅇㅅㅓ	-5794
▁ㅍㅏㄹㄹㅔ	-5795
▁ㅎㅣㅇㅓㄹㅗ	-5796
▁ㄷㅗㅋㅜㄱㅏㅇㅘ	-5797
▁th	-5798
▁140	-5799
▁ㅂㅗㅅㅡㅌㅓㄴ	-5800
▁ㅂㅣㅌㅡㄹ	-5801
ㅡㄴㅂㅏ	-5802
▁ㅈㅣㄱㅁㅜ	-5803
▁ㅎㅕㄹㅇㅐㄱ	-5804
▁ㄴㅗㄷㅗㅇㄷㅏㅇ	-5805
▁ㅇㅣㄹㅡㄴㅂㅏ	-5806
▁ㅅㅓㅂㅏㅇ	-5807
OR	-5808
▁Sh	-5809
ㄴㅗㅇ	-5810
ㅔㄴㅗ	-5811
▁ㄱㅡㄹㅣㅎㅏㅇㅕ	-5812
▁ㅋㅡㄹㅜ	-5813
ㅂㅏㅂ	-5814
▁ㅅㅓㄴㅁㅜㄹ	-5815
▁ㅈㅜㅇㅈㅣ	-5816
▁ㄱㅡㄴㅇㅠㄱ	-5817
▁ㅋㅏㄹㄹㅣㅈㅣ	-5818
▁cod	-5819
▁ㅎㅣㄱㅏ	-5820
▁ㅁㅜㄹㅕㄱ	-5821
▁ㅇㅗㄹㄹㅣㅂ	-5822
▁ㅈㅜㅇㅅㅓㅇ	-5823
▁ㅋㅏㄹㅡㄹㄹㅗ	-5824
▁ㄱㅓㅈㅓㅁ	-5825
▁ㅈㅓㄴㅈㅔ	-5826
▁ㄱㅗㄴㅊㅜㅇ	-5827
▁ㅂㅜㄱㅁㅣ	-5828
▁ㅊㅏㅈㅇㅏㄱㅏ	-5829
▁ㅈㅓㅇㅎㅘㄱㅎㅣ	-5830
ㅋㅜㄹ	-5831
ㅗㅇㅑ	-5832
▁ㅂㅏㄹㅈㅓㄴㅅㅗ	-5833
▁ㅍㅜㄹㅡ	-5834
▁ㅈㅜㅈㅐ	-5835
▁ㄹㅔㄴㅣㄴ	-5836
▁ㅌㅜㅅㅡ	-5837
▁ㅇㅠㅂㅏㄹ	-5838
▁ㅁㅏㅌㄱㅣ	-5839
ㅅㅔㄷㅐ	-5840
▁ㅎㅘㅎㅏㅂㅁㅜㄹ	-5841
ㅣㅌㅓ	-5842
▁ㅅㅣㄱㅖ	-5843
▁ㅈㅜㅇㄱㅖ	-5844
▁ㅎㅏㅇㅑ	-5845
▁ㄱㅓㄴㅡㄹㅣ	-5846
▁ㅂㅗㅇㄱㅣ	-5847
▁ㄴㅏㅋㅏ	-5848
ㅔㅇㅏ	-5849
▁ㅍㅔㄹㅣ	-5850
▁ㄱㅏㅂㅕㅂ	-5851
▁ㅊㅔㅇㅠㄱㄱㅘㄴ	-5852
ㄷㅜㄹ	-5853
▁1931	-5854
▁ST	-5855
ㅉㅏㄱ	-5856
▁ㅁㅏㅅㅏㄴ	-5857
▁ㅁㅕㄹㅈㅗㅇ	-5858
▁ㅂㅜㅊㅓ	-5859
▁ㅈㅐㅍㅏㄴㅅㅗ	-5860
ㄷㅡㄹㄹㅣ	-5861
▁ㄱㅏㅇㄷㅡㅇ	-5862
▁ㅅㅐㄲㅣ	-5863
▁ㅈㅓㅇㅈㅗ	-5864
▁ㄴㅐㄹㅕㄱㅏ	-5865
ㄷㅗㄹㅍㅡ	-5866
▁ㅇㅣㄹㄷㅏㄴ	-5867
▁ㄱㅕㅇㄱㅗ	-5868
▁ㅌㅠ	-5869
ㅋㅣㅍㅓ	-5870
ㄱㅏㅌ	-5871
▁ㄴㅏㅁㄴㅕ	-5872
AM	-5873
▁ㄴㅗㅂㅜ	-5874
▁ㄱㅡㅁㄱㅏㅇ	-5875
▁ㄱㅗㄹㅋㅣㅍㅓ	-5876
▁ㅊㅓㄹㅎㅏㄱㅈㅏ	-5877
▁ㅇㅣㄴㅁㅣㄴㄱㅜㄴ	-5878
▁ㄸㅔ	-5879
▁ㅇㅣㅅㅡ	-5880
▁ㅂㅜㄴㅅㅏㄴ	-5881
▁ㄷㅗㅇㅈㅣ	-5882
▁ㅈㅣㄴㄷㅗㅇ	-5883
▁ㄱㅡㄹㅣㅅㅡㅇㅓ	-5884
▁ㅋㅣㅅㅡ	-5885
▁ㅂㅗㄴㅌㅗ	-5886
▁ㅊㅗㅊㅓㅇ	-5887
▁ㅇㅣㅅㅡㅌㅡ	-5888
▁ㅌㅏㅅ	-5889
▁ㅇㅑㄱㅎㅘ	-5890
▁ㄱㅡㄹㅐㅍㅡ	-5891
▁ㅈㅡㅇㄱㅝㄴ	-5892
all	-5893
ㅝㅎㅏ	-5894
ㅅㅣㄱㅏㄴ	-5895
▁ㄱㅏㄴㄱㅕㄱ	-5896
▁ㅋㅡㄹㄹㅐㅅㅡ	-5897
▁ㅌㅡㄱㅂㅕㄹㅎㅣ	-5898
▁ㅈㅗㅁㅜㄴ	-5899
ㅋㅣㅅㅡ	-5900
ㅌㅔㅅㅡ	-5901
▁ㄱㅏㅇㅇㅛ	-5902
▁ㅌㅏㅇㅝㄴ	-5903
▁ㅋㅜㅂㅏ	-5904
▁ㅅㅗㄴㅎㅐ	-5905
▁ㅎㅣㄹㅗㅅㅣㅁㅏ	-5906
▁ㅇㅑㅁ	-5907
▁ㅈㅐㅇㅣㅁ	-5908
▁ㅁㅓㅁㅊㅜ	-5909
▁ㄱㅏㅇㄷㅗ	-5910
▁ㄱㅗㄹㄷㅡ	-5911
▁ㅎㅏㅇㅎㅐ	-5912
▁ㅎㅐㅎㅕㅂ	-5913
▁ㅁㅐㄴㅊㅔㅅㅡㅌㅓ	-5914
▁ㄱㅡㄹㄹㅣ	-5915
▁ㅂㅣㅅ	-5916
ㅋㅡㄹㅐㅍㅡㅌㅡ	-5917
▁ㅇㅟㅇㅏㄴ	-5918
▁ㅇㅏㅇㅣㄴ	-5919
▁ㄱㅓㄴㄴㅓㄱㅏ	-5920
▁ㅅㅣㄱㄹㅑㅇ	-5921
▁ㅇㅣㄹㄱㅗㅂ	-5922
ㅘㅇㅇㅕㄱㅅㅣ	-5923
▁ㄱㅜㄹㅣ	-5924
▁ㅋㅐㅂ	-5925
▁y	-5926
▁An	-5927
▁ㅈㅗㅇㅅㅏ	-5928
▁ㅅㅐㅇㅇㅐ	-5929
▁176	-5930
▁ㅇㅕㄴㅎㅗ	-5931
▁ㅇㅗㅇㅣ	-5932
▁ㅁㅕㅇㅅㅣ	-5933
▁ㅈㅗㄴㅅㅡㄴ	-5934
▁ㅈㅗㅇㅈㅓㄴ	-5935
ang	-5936
▁ㄷㅓㅂㅡㄹ	-5937
▁ㅇㅗㅇㅕㅁ	-5938
ㄷㅓㅅㅡ	-5939
▁ㅁㅜㄴㅢ	-5940
▁ㅅㅐㅂㅕㄱ	-5941
▁ㅂㅜㄹㅣ	-5942
▁ㅅㅜㄱㅈㅗㅇ	-5943
▁ㅈㅣㅊㅣㅇ	-5944
▁ㄱㅣㅅㅐㅇ	-5945
▁ㅅㅡㅍㅔㄱ	-5946
▁ㄱㅣㄱㅏㅂ	-5947
▁ㅅㅡㅌㅏㄹㄹㅣㄴ	-5948
ㅂㅣㅅㅡ	-5949
▁05	-5950
▁ㅍㅏㅌㅣ	-5951
▁ㅂㅜㄷㅡㄹ	-5952
▁ㅇㅕㄴㅍㅕㅇㄱㅠㄴ	-5953
ㅌㅡㄴㅣ	-5954
▁ㅅㅏㅇㅣㄷㅡ	-5955
▁ㅇㅣㅈㅓㅇ	-5956
▁ㄴㅗㅇㅊㅗㄴ	-5957
▁ㅇㅜㄴㄷㅗㅇㄱㅏ	-5958
▁ㅅㅡㅌㅔㅇㅣㅅㅕㄴ	-5959
▁1929	-5960
▁ㄱㅗㅇㄹㅛㅇ	-5961
ㅓㅁㅓㄴㅌㅡ	-5962
▁ㅁㅣㅅㅡ	-5963
ㅌㅣㅇㅗ	-5964
▁ㅇㅑㄷㅏㅇ	-5965
ㅋㅣㅅ	-5966
▁ㅌㅡㄹㅐㄴㅅㅡ	-5967
ㅂㅗㄴㅐ	-5968
▁ㅅㅗㅇㅛ	-5969
▁ㅂㅜㅍㅜㅁ	-5970
▁ㅈㅓㄴㅈㅏㄱ	-5971
▁ㄹㅡㄴㅔ	-5972
▁ㅂㅏㄹㄹㅔ	-5973
▁ㅇㅣㄴㅌㅓㅍㅔㅇㅣㅅㅡ	-5974
▁1921	-5975
▁ㅎㅟㅎㅏ	-5976
▁ㄷㅗㄱㅈㅓㅁ	-5977
ㄹㅓㄹ	-5978
▁ㅂㅜㅈㅏㄱ	-5979
ㅊㅓㅁ	-5980
▁ㄷㅏㄻ	-5981
▁ㄱㅣㄹㅡ	-5982
▁ㅅㅓㄱㅂㅏㅇ	-5983
▁ㅇㅠㄹㅕㄱ	-5984
ss	-5985
▁ㅌㅗㄴㅓㅁㅓㄴㅌㅡ	-5986
▁ㄷㅐㄷㅏㅅㅜ	-5987
▁ㅁㅜㄹㄹㅣㅊㅣ	-5988
▁ㄱㅐㄹㄹㅓㄱㅅㅣ	-5989
▁250	-5990
ㅇㅓㄴㅐ	-5991
ㅜㄹㅕㅅ	-5992
▁ㅅㅔㅈㅏ	-5993
▁ㄸㅜㄹㅕㅅ	-5994
▁ㄱㅘㅇㅣㄹ	-5995
▁ㅋㅐㅁㅍㅡ	-5996
▁ㄷㅏㄴㅅㅓㄴ	-5997
▁ㅈㅣㅂㅍㅣㄹ	-5998
ㅁㅜㄱㅔ	-5999
▁ㄹㅏㅇㅜ	-6000
▁ㄷㅏㄹㄹㅏㅈㅣ	-6001
▁ㅁㅗㅁㅁㅜㄱㅔ	-6002
▁ㄲㅜㄴ	-6003
ㅠㅁㅔㄴ	-6004
▁ㄱㅛㅎㅑㅇㄱㅗㄱ	-6005
▁ㅎㅞ	-6006
ㅈㅡㄴㅣ	-6007
ㅋㅗㅂ	-6008
▁ㄸㅏㄱ	-6009
ㄱㅗㅇㅅㅏ	-6010
ㅇㅏㅇㅣㄹ	-6011
▁ㅈㅏㅇㅈㅓㅁ	-6012
▁ㅎㅏㅇㅘㅇㅣ	-6013
▁ㄷㅗㅎㅗ	-6014
▁ㅋㅣㄴ	-6015
ㅇㅏㄹㅣ	-6016
▁ㄱㅣㅁㄱㅜ	-6017
▁ㅅㅣㅁㄹㅣㅎㅏㄱ	-6018
ㄱㅝㄹ	-6019
ity	-6020
▁ㅈㅘㅍㅏ	-6021
▁ㅁㅣㅂㅜㄴ	-6022
▁1925	-6023
▁ㄱㅣㅂㅕㅇ	-6024
▁ㅅㅜㅂㅏㄴ	-6025
▁ㅅㅜㅅㅏㄴ	-6026
ㅁㅓ	-6027
▁ㄱㅗㅇㄱㅜㄱ	-6028
▁ㅇㅠㅅㅓㅇ	-6029
▁1923	-6030
ㅝㄴㄱㅜㄴ	-6031
▁ㅅㅏㄱㅘㄴ	-6032
▁ㅇㅣㄹㅎㅘㄴ	-6033
▁ㅍㅡㄹㄹㅗㄹㅣㄷㅏ	-6034
▁ㄱㅏㅁㅇㅗㄱ	-6035
▁ㅂㅜㄷㅡㄹㅓㅂ	-6036
▁07	-6037
▁ㅂㅏㄹㄹㅔㄴ	-6038
▁ㅊㅓㄹㄱㅓ	-6039
▁ㄱㅘㄴㄱㅖㅈㅏ	-6040
▁ㄹㅏㅇㅗ	-6041
ㅅㅜㄹㅑㅇ	-6042
▁ㅁㅗㄱㅍㅗ	-6043
▁ㅊㅏㄱㅇㅛㅇ	-6044
▁ㅈㅏㅁㅐ	-6045
▁ㅋㅡㄹㅣㅁ	-6046
▁ㅋㅐㄹㄹㅣㅍㅗㄴㅣㅇㅏㅈㅜ	-6047
▁ㄴㅏㅋ	-6048
ㅡㄴㅣㅁ	-6049
▁ㄴㅡㄴㅑ	-6050
▁ㄱㅡㄹㅔㅇㅣ	-6051
▁ㅇㅠㄷㅐㅇㅣㄴ	-6052
▁ㅋㅓㄷㅏㄹㅏㅎ	-6053
▁ㅂㅜㄱㅇㅏㅁㅔㄹㅣㅋㅏ	-6054
▁ㅇㅏㄹㄹㅔㄱㅅㅏㄴㄷㅓ	-6055
▁ㄴㅏㅁㅇㅏㅁㅔㄹㅣㅋㅏ	-6056
▁SC	-6057
▁codice	-6058
▁ㅅㅜㅂㅣㅅㅜ	-6059
▁ㅍㅏㄹㅏ	-6060
▁ㅇㅠㅂㅣ	-6061
▁ㅊㅜㄷㅐ	-6062
▁ㄱㅕㅁㅎㅏ	-6063
▁ㄷㅏㄴㅈㅏㅇ	-6064
▁ㅂㅜㄱㅅㅓㅉㅗㄱ	-6065
▁ㅇㅝㄴㅈㅗ	-6066
▁ㅇㅏㅂㅊㅜㄱ	-6067
▁ㅇㅣㅈ	-6068
▁ㅅㅡㅌㅡㄹㅏㅇㅣ	-6069
ㄷㅡㄴㅣ	-6070
▁ㄷㅡㄱㅍㅛ	-6071
▁ㅈㅣㅎㅟㄱㅘㄴ	-6072
▁ㅊㅏㅈㅇㅏㅇㅗ	-6073
▁ㅈㅏㅇㅠㅈㅜㅇㅢ	-6074
▁ㄱㅘㄴㄹㅣㅈㅏ	-6075
▁ㅈㅏㅇㅣㅇㅓㄴㅊㅡ	-6076
▁ㅇㅞㄹ	-6077
ㅋㅡㄹㄹㅣㄴ	-6078
▁ㅅㅏㄱㅓㄹㅣ	-6079
▁ㄷㅐㅎㅏㄴㅈㅔㄱㅜㄱ	-6080
▁ㅁㅜㄱㅓㅂ	-6081
▁ㄱㅡㄹㅓㅁㅡㄹㅗ	-6082
▁ㅇㅐㅂ	-6083
▁ㅅㅡㄹㄹㅗ	-6084
▁ㄱㅣㅁㅎㅐ	-6085
▁ㅈㅣㅂㅜ	-6086
▁ㄹㅐㅁ	-6087
ㄷㅐㅁㅜㄴ	-6088
▁ㅂㅜㄹㅎㅘ	-6089
▁ㅋㅡㄴ	-6090
▁ㅌㅏㅈㅓㅁ	-6091
▁ㅇㅗㄹㄹㅏㅇㅗ	-6092
▁ㄱㅓㄴㄷㅏㅁ	-6093
▁ㅂㅜㄱㄱㅡㄱ	-6094
▁ㅋㅣㅁ	-6095
▁ㄷㅗㅇㅅㅓㅇㅇㅐ	-6096
ㅇㅠㄹㅓㅂ	-6097
▁AC	-6098
▁ㅎㅏㄴㅡㄴㅣㅁ	-6099
▁ㅁㅏㅈㅓ	-6100
▁ㄱㅜㄴㅂㅜ	-6101
▁ㅇㅞㅇㅣㄹㅅㅡ	-6102
▁ㅅㅏㅁㄱㅏㄱㅎㅕㅇ	-6103
ㅗㅍㅡ	-6104
▁ㄹㅏㅌㅡ	-6105
ㅎㅐㅇㅅㅓㅇ	-6106
▁ㄱㅏㄲㅡㅁ	-6107
▁ㄷㅐㅂㅕㄴ	-6108
▁ㄱㅣㄱㅘㄴㅊㅏ	-6109
ㅏㄴㄷㅡ	-6110
▁ㅊㅓㅇㄷㅗㅇ	-6111
▁ㅇㅔㄹㄹㅣㅈㅏㅂ	-6112
▁ㅈㅣㄴㅎㅡㅇ	-6113
▁ㅃㅏ	-6114
ㅌㅔㅁ	-6115
ff	-6116
▁ㄴㅡㄱㄷㅐ	-6117
▁ㅇㅕㄴㄱㅖ	-6118
▁ㅇㅠㄴㄹㅣ	-6119
▁ㅎㅕㅂㅇㅑㄱ	-6120
ㄹㅣㅇㅗ	-6121
▁ㅇㅏㄴㄴㅐ	-6122
▁ㅎㅏㅂㄹㅣ	-6123
▁ㄱㅏㅇㅈㅓㄴ	-6124
▁ㅊㅔㅋㅗ	-6125
▁ㅁㅣㄴㅅㅗㄱ	-6126
▁ㅇㅕㄱㅈㅓㄴ	-6127
▁ㅈㅏㅇㄱㅏㅂ	-6128
▁ㅇㅑㅅㅡ	-6129
▁ㅇㅣㅂㅅㅏ	-6130
▁ㅌㅡㄱㅎㅓ	-6131
▁ㄷㅗㅇㅂㅏㄴ	-6132
▁ㅎㅜㄹㄹㅠㅇ	-6133
▁ㅍㅡㄹㅗㅅㅔㅅㅓ	-6134
ㅇㅢㅈㅓㅇ	-6135
▁ㄱㅘㄴㄱㅐㄱ	-6136
ㅏㄹㅡㅌㅏ	-6137
▁ㅁㅗㅇㅡㅁ	-6138
▁ㅇㅕㅇㅜ	-6139
▁ㅅㅣㄹㄴㅐ	-6140
▁ㅍㅣㄹㄹㅡㅁ	-6141
▁ㄷㅗㅁㅏㅂㅐㅁ	-6142
ㅣㄹㄹㅏ	-6143
ㄷㅜㅇㅇㅣ	-6144
ㅔㄷㅏ	-6145
▁ㄷㅣㅂ	-6146
▁ㅅㅓㅇㅁㅕㅇ	-6147
▁ㅇㅝㄴㅈㅏㅇ	-6148
ㅅㅣㅇㅗㄴ	-6149
▁ㄷㅐㄱㅏ	-6150
▁ㅁㅔㄹㅡ	-6151
▁ㄷㅐㄱㅕㄹ	-6152
▁ㄱㅏㄱㅜ	-6153
▁ㅈㅜㅈㅏ	-6154
▁ㅋㅗㄴㅓ	-6155
▁ㄱㅗㅂㅜㄴ	-6156
▁ㅁㅗㄱㅅㅜㅁ	-6157
▁ㅈㅗㅎㅘ	-6158
▁ㄷㅗㅁㅏㅇㅊㅣ	-6159
▁ㅁㅗㅎㅓㅁ	-6160
▁ㅊㅜㄹㅏㄱ	-6161
ㅣㅅ	-6162
▁ㅎㅏㄹㄹㅣ	-6163
▁ㅅㅜㅎㅗ	-6164
▁ㅇㅜㅇㅕㄴ	-6165
ㅅㅣㅅㅡㅌㅡ	-6166
▁ㅇㅣㅁㅅㅣㄴ	-6167
▁ㄱㅗㄱㅗ	-6168
▁ㅅㅓㅇㅆㅣ	-6169
▁161	-6170
▁de	-6171
▁ㅅㅓㅁㅇㅠ	-6172
▁ㅊㅓㅅㅉㅐ	-6173
▁ㄱㅛㅊㅏㄹㅗ	-6174
▁ㅇㅣㄴㅊㅓㄴㄱㅘㅇㅇㅕㄱㅅㅣ	-6175
▁ㅈㅜㅇㄱㅗㅇ	-6176
▁ㄱㅖㅅㅜ	-6177
▁ㅅㅜㅈㅣㄱ	-6178
▁ㅇㅛㅇㅝㄴ	-6179
▁ㄷㅏㅇㅣㅁㅛ	-6180
▁ㅁㅜㄴㅇㅣㄴ	-6181
▁ㅂㅏㅇㅣㅇㅗㄹ	-6182
▁ㅇㅕㅂ	-6183
▁ㄹㅣㅅㅡㅌㅡ	-6184
▁ㅇㅗㄹㅣㅈㅣㄴ	-6185
▁ㅁㅏㅇㅣㄹ	-6186
▁ㅇㅕㄴㅅㅏㅇ	-6187
▁ㅉㅡㅁ	-6188
▁ㅍㅣㅅㅡ	-6189
ㅊㅜㅇㅓ	-6190
▁ㅅㅓㅇㅣㄴ	-6191
▁ㅁㅏㅇㅇㅝㄴㄱㅕㅇ	-6192
ㅅㅓㅇㄱㅣ	-6193
▁ㄹㅔㅂㅔㄹ	-6194
▁ㅅㅔㄴㅌㅡㄹ	-6195
▁ㅍㅕㅇㄹㅗㄴㄱㅏ	-6196
▁ㅈㅏㅊㅣㄱㅜ	-6197
ㄹㄹㅣㄴ	-6198
▁ㅎㅜㅌㅚ	-6199
▁ㅇㅗㅁ	-6200
ㅈㅡㅋㅣ	-6201
▁ㅇㅏㄱㅘ	-6202
ㅡㄴㅏ	-6203
▁ㅇㅕㅇㅎㅗㄴ	-6204
▁ㄹㅔㅇㅣㅂㅡㄹ	-6205
▁EP	-6206
▁1922	-6207
▁ㄷㅗㅇㅇㅣㄹㅂㅗㄴ	-6208
▁ㅅㅓㅇㅈㅣㄱㅈㅏ	-6209
▁ㅂㅓㅈㅣㄴㅣㅇㅏ	-6210
▁ㅈㅜㄴㅇㅜ	-6211
▁175	-6212
▁ㄱㅡㄹㅆㅣ	-6213
▁ㄲㅗㅂㅎㅣ	-6214
ㅋㅓㅅㅡ	-6215
▁ㅋㅣㄹㄹㅗ	-6216
▁ㄱㅠㅅㅠ	-6217
▁ㅂㅜㅎㅗ	-6218
▁ㅇㅑㄱㅌㅏㄹ	-6219
ㅅㅡㅌㅏㅇㅣㄴ	-6220
▁ㄴㅔㅇㅣㅅㅕㄴ	-6221
▁1912	-6222
▁ㄷㅗㅇㅇㅣㄴ	-6223
▁ㅇㅕㅇㄱㅏㅁ	-6224
▁ㄹㅣㄴㅜㄱㅅㅡ	-6225
ㅁㅜㅇ	-6226
ㄱㅏㅅㅡ	-6227
ㅊㅣㅇㅗ	-6228
▁ㄴㅡㄴㄷㅏㄱㅗ	-6229
▁ㅅㅏㅁㅜㄹ	-6230
▁ㄷㅓㄱㅂㅜㄴ	-6231
▁ㅍㅛㅈㅣ	-6232
▁My	-6233
▁ㅅㅓㄴㄱㅛㅅㅏ	-6234
▁ㅅㅏㄱㅈㅔ	-6235
▁ㅈㅔㅇㅑㄱ	-6236
ㅇㅑㅇㄱㅜㄴ	-6237
ㅅㅏㅇㅣ	-6238
ㅍㅡㄹㅏㄴ	-6239
▁ㅇㅕㅇㄱㅘㅇ	-6240
▁ㄹㅜㅌㅡㅂㅣㅎㅣ	-6241
▁ㄱㅛㄱㅘ	-6242
▁ㅎㅘㄱㅏ	-6243
▁ㄱㅗㅇㅅㅔ	-6244
▁ㅁㅜㄴㅂㅓㅂ	-6245
▁ㅈㅜㅇㄹㅣㅂ	-6246
▁ㅍㅡㄹㅔㅇㅣㅁ	-6247
▁ㅊㅚㅅㅏㅇ	-6248
▁ㄱㅡㄱㅂㅗㄱ	-6249
ㅔㅅㅣ	-6250
▁ㅍㅗㅇㅠ	-6251
▁ㅂㅕㄴㅅㅣㄴ	-6252
▁ㅂㅗㄱㄱㅜ	-6253
▁ㅅㅜㅅㅏㅇㅈㅏ	-6254
ㅇㅏㄴㅏㅁ	-6255
▁ㄷㅏㅇㅑㅇㅊㅔ	-6256
▁ㅅㅏㄹㅇㅏㄴㅏㅁ	-6257
▁ㅂㅗㄱㅅㅏ	-6258
ㅏㅋㅣ	-6259
▁""	-6260
ㄹㄹㅓ	-6261
▁ㅇㅢㅅㅓㄱ	-6262
▁ㅎㅑㅇㅌㅗ	-6263
▁ㅂㅣㄱㅌㅗㄹㅣㅇㅏ	-6264
up	-6265
▁ㅂㅏㄱㄱㅡㄴ	-6266
▁Go	-6267
ong	-6268
ㅆㅡㅇ	-6269
▁ㅇㅗㅋㅔ	-6270
▁ㅁㅗㄱㅈㅗ	-6271
▁ㅅㅓㅈㅓㄱ	-6272
▁ㅅㅗㅅㅓㄹㄱㅏ	-6273
▁ㄷㅙ	-6274
▁ㅋㅏㄹㅡㄹ	-6275
▁ㄱㅏㅌㅗㄹㄹㅣㄱㄱㅛㅎㅚ	-6276
▁ㅈㅣㄱㅅㅓㄴ	-6277
ㅍㅣㅅㅡ	-6278
▁ㅋㅗㅌㅡ	-6279
▁ㅍㅔㄹㅜ	-6280
▁ㅇㅠㅇㅕㄱ	-6281
▁ㄱㅡㄹㅐㄴㄷㅡ	-6282
▁ㅂㅗㅌㅗㅇㅎㅏㄱㄱㅛ	-6283
ㅇㅗㄹ	-6284
ㅅㅏㄱㅣ	-6285
▁164	-6286
▁ㅁㅜㅇㅣㄴ	-6287
ㅋㅏㅇㅗ	-6288
▁06	-6289
▁ㅍㅕㅇㅅㅐㅇ	-6290
▁ㄱㅓㄴㅊㅜㄱㅁㅜㄹ	-6291
▁ㅁㅗㄷㅠㄹ	-6292
▁ㅎㅘㅇㅌㅐ	-6293
▁ㅂㅏㄹㅎㅟ	-6294
▁ㅊㅓㅇㅎㅏ	-6295
▁ㅌㅓㅂ	-6296
▁1908	-6297
▁ㅂㅜㅇㅠ	-6298
▁ㄸㅗㄱㄱㅏㅌ	-6299
▁ㅇㅣㄹㅈㅏ	-6300
▁ㄱㅗㅇㅏㄴ	-6301
▁1906	-6302
▁ㅇㅔㄹㅡ	-6303
ㅇㅏㅇㅣㄴ	-6304
▁ㅇㅕㅇㅣㄴ	-6305
▁ㅅㅡㅋㅔㅇㅣㅌㅣㅇ	-6306
▁ㅍㅗㄱㅍㅜㅇ	-6307
▁ㅁㅐㄴㅣ	-6308
▁ㅂㅡㄹㅜ	-6309
▁ㄹㅐㅇㅋㅣㅇ	-6310
▁ㄹㅓㄱ	-6311
▁Love	-6312
▁ㄸㅐㄹㅗ	-6313
▁ㅁㅣㅅㅣ	-6314
▁JR	-6315
▁ㅅㅡㅍㅣ	-6316
▁ㄱㅕㅇㅇㅠ	-6317
▁ㅈㅜㅇㅅㅣ	-6318
▁ㅅㅓㄹㅂㅣ	-6319
▁ㄱㅣㅂㅜ	-6320
ip	-6321
▁ㅍㅏㅌㅡㄴㅓ	-6322
ㄹㄹㅣㅇ	-6323
▁ㅌㅗㅂㅓㄹ	-6324
▁ㄴㅏㅁㄷㅗㅇㅉㅗㄱ	-6325
▁ㅇㅠㅇㅛㅇ	-6326
▁ㅍㅡㄹㄹㅏㅇ	-6327
▁ㅇㅏㅁㅏㅊㅜㅇㅓ	-6328
▁ㄷㅜㄹㅕㅇ	-6329
ㅠㅁㅔㄴㅌㅓㄹㅣ	-6330
▁ㅇㅔㄹㄹㅣㅈㅏㅂㅔㅅㅡ	-6331
▁ㅍㅓㅅㅣ	-6332
▁ㄱㅗㅇㄱㅕㄱㅅㅜ	-6333
▁ㅈㅜㄹㅠ	-6334
OM	-6335
▁03	-6336
ㄷㅡㄹㅏ	-6337
▁ㅈㅜㅇㄱㅜ	-6338
▁ㅍㅐㅌㅓㄴ	-6339
▁ㅋㅡㄹㄹㅏㅇㅜ	-6340
▁ㅁㅗㄹㅐ	-6341
▁ㅅㅏㅊㅗㄴ	-6342
▁ㄱㅜㅁㅣ	-6343
▁ㄱㅣㅇㅛ	-6344
▁ㅌㅗㅅㅡ	-6345
▁ㄱㅣㅁㄷㅐㅈㅜㅇ	-6346
▁KT	-6347
▁ㅅㅓㄱㅈㅗ	-6348
▁ㅇㅕㄴㄹㅕㅇ	-6349
▁ㅋㅡㄹㄹㅗ	-6350
▁ㄱㅕㄹㅅㅣㅁ	-6351
ㅌㅗㅅㅣ	-6352
▁ㅇㅘㅇㄱㅏ	-6353
▁ㅇㅏㅌㅡㄹㄹ	-6354
IS	-6355
▁ㄱㅗㅅㅓ	-6356
▁ㅇㅠㄱㅏ	-6357
▁ㅇㅣㅈㅗㅇ	-6358
▁ㄹㅡㅇ	-6359
▁ㄱㅛㄷㅗ	-6360
▁ㅂㅔㅌㅏ	-6361
ㅎㅚㅇㅢ	-6362
▁ㅈㅣㅇㅕㄴ	-6363
▁ㅈㅣㅈㅜㅇㅎㅐ	-6364
▁ㅇㅕㅇㅈㅗ	-6365
▁ㄴㅏㅇㅣㅌㅡ	-6366
▁ㅅㅡㅍㅏㅇㅣ	-6367
▁ㅇㅣㄴㅏㄹ	-6368
▁ㅈㅣㄴㅅㅜㄹ	-6369
ld	-6370
▁ㅇㅏㄴㅇㅑㅇ	-6371
ㅅㅚ	-6372
▁ㅇㅜㅋㅡㄹㅏㅇㅣㄴ	-6373
▁ㅋㅞ	-6374
▁ㅁㅜㅅㅏㄴ	-6375
▁SM	-6376
ㅋㅏㅅㅡ	-6377
ㅂㅔㄹㅡㅋㅡ	-6378
▁ㅇㅐㄹㄹㅓㄴ	-6379
▁ㄱㅜㅅ	-6380
ㄹㅏㅇㅣㅌㅓ	-6381
▁ㅁㅜㄹㅡㅍ	-6382
▁ㅂㅗㅇㅅㅏ	-6383
▁ㅂㅜㄱㄷㅗㅇㅉㅗㄱ	-6384
▁ㅅㅗㅇㄹㅏㅇㅣㅌㅓ	-6385
▁1927	-6386
▁ㅇㅓㅄㅇㅐ	-6387
▁ㅂㅐㄱㅡㅂ	-6388
▁ㄹㅏㅇㅣㅇㅗㄴ	-6389
ㅎㅐㄱㅜㄴ	-6390
ant	-6391
▁ㄱㅏㄱㅈㅏ	-6392
▁ㅇㅓㅇㅝㄷㅡ	-6393
▁1907	-6394
ㅋㅗㄱ	-6395
ㄹㅣㄱㅅㅡ	-6396
▁BBC	-6397
ㄷㅏㅇㅣㄹㅏ	-6398
▁ㅅㅏㄴㅇㅏㄱ	-6399
▁ㄷㅏㅋㅠㅁㅔㄴㅌㅓㄹㅣ	-6400
▁ㄷㅐㄱㅛ	-6401
▁ㅈㅜㄴㅇㅜㅅㅡㅇ	-6402
▁ㄱㅜㄱㅁㅣㄴㄷㅏㅇ	-6403
▁ㅅㅡㅇㅘ	-6404
▁ㅇㅣㄴㅈㅏ	-6405
▁ㅅㅏㅂㅇㅣㅂ	-6406
▁ㅋㅡㄹㅗㅅㅡ	-6407
▁ㅁㅕㅇㅅㅏ	-6408
▁ㅌㅜㄱㅜ	-6409
▁ㅇㅏㄹㅂㅏㄴ	-6410
▁ㅈㅣㄱㅇㅟ	-6411
▁||	-6412
ㅅㅅㅜ	-6413
▁ㄱㅣㅈㅗㅇ	-6414
▁1917	-6415
▁ㄷㅗㅇㅓ	-6416
▁ㅍㅡㄹㅗㄹ	-6417
▁ㅊㅏㅇㄱㅏㄴ	-6418
▁ㅍㅜㅇㅅㅗㄱ	-6419
▁ㅂㅏㅇㅣㅇㅗㄹㄹㅣㄴ	-6420
av	-6421
▁ㄱㅡㄹㅏ	-6422
▁ㅍㅣㅌㅡ	-6423
▁ㅌㅗㅇㄹㅗ	-6424
▁ㅂㅜㅅㅜ	-6425
▁ㅈㅗㅅㅔ	-6426
▁ㅂㅜㅌㅏㄱ	-6427
ㅇㅓㄷㅗ	-6428
ㅜㅇㅔㄹ	-6429
ㅔㄴㅅㅡ	-6430
▁ㅇㅏㅂㄷㅗ	-6431
▁ㄴㅏㅂㅊㅣ	-6432
▁ㅇㅣㄴㄹㅕㄱ	-6433
▁ㅁㅜㄴㅎㅏ	-6434
▁ㅁㅕㅇㅁㅜㄴ	-6435
▁ㅌㅏㅁㅎㅓㅁ	-6436
▁ㅎㅡㄺ	-6437
▁ㅇㅚㄱㅖ	-6438
▁ㅎㅏㅅㅏ	-6439
▁ㅈㅔㅈㅜㄷㅗ	-6440
ㅓㅇㅣㄹ	-6441
▁ㄴㅗㅂㅣ	-6442
▁ㄷㅣㅈㅡㄴㅣ	-6443
▁ㅅㅣㅅㅏㅇㅅㅣㄱ	-6444
▁ㅁㅗㄹㅗ	-6445
▁ㅈㅓㄴㅎㅑㅇ	-6446
▁ㅂㅓㄱ	-6447
▁1926	-6448
▁ㅁㅜㅅㅓㄴ	-6449
▁ㄴㅔㄹ	-6450
▁ㄷㅐㅎㅐㅇ	-6451
▁ㅈㅣㄹㅡㅁ	-6452
ㅇㅕㅇㅅㅏㅇ	-6453
ED	-6454
▁He	-6455
▁ㅁㅛㅈㅣ	-6456
▁ㅊㅐㄱㅝㄴ	-6457
▁ㅇㅠㄱㅅㅓㅇ	-6458
▁ㅇㅏㅁㅣㄴ	-6459
ㄷㅏㄷㅡ	-6460
▁ㅅㅔㅈㅗ	-6461
▁ㄹㅣㄷㅡㅁ	-6462
▁ㅁㅣㄹㄹㅏㄴㅗ	-6463
ㄹㄹㅓㄴ	-6464
▁ㄱㅡㄴㄹㅗ	-6465
▁ㅇㅢㅂㅕㅇ	-6466
▁ㅈㅓㄱㅇㅓㄷㅗ	-6467
▁ㄷㅐㅁ	-6468
▁ㅈㅏㅁㅜㄴ	-6469
▁ㅁㅜㄴㅎㅘㅇㅠㅅㅏㄴ	-6470
▁MV	-6471
▁ㅋㅓㅍㅣ	-6472
ㅌㅔㄴㄷㅗ	-6473
▁ㅈㅗㅁㅕㅇ	-6474
▁ㄴㅣㄴㅌㅔㄴㄷㅗ	-6475
▁ㅊㅔㅇㅣㄴ	-6476
▁ㅇㅠㅇㅣㄴ	-6477
ㅔㅂㅏ	-6478
▁ㅊㅣㅁㅎㅐ	-6479
▁ㄷㅗㅇㅇㅏㅅㅣㅇㅏ	-6480
▁NHK	-6481
▁ㄴㅗㅇㅣㄴ	-6482
▁ㅁㅐㄱㅏㄱ	-6483
▁ㅇㅕㄴㅅㅗ	-6484
▁ㅈㅓㄱㅇㅡㅇ	-6485
▁ㅈㅓㄴㅅㅡㅇ	-6486
se	-6487
ㅣㅇㅔ	-6488
▁ㄱㅛㅇㅕㄱ	-6489
ㅗㅅㅡㄹㄹ	-6490
▁ㅂㅣㅈㅓㄴ	-6491
ㅌㅓㅂㅔㅇㅣㅅㅡ	-6492
▁ㄱㅡㄹㅏㅇ	-6493
▁ㅇㅕㄱㄱㅘ	-6494
ㅡㄴㅏㄴ	-6495
▁ㄷㅔㅇㅣㅌㅓㅂㅔㅇㅣㅅㅡ	-6496
▁ㅌㅐㅈㅏ	-6497
▁ㄱㅏㄴㅅㅓㅂ	-6498
▁ㅎㅏㅇㅁㅗㄱ	-6499
▁ㅂㅡㄹㅔ	-6500
▁ㅎㅐㅅㅓㄹ	-6501
▁ㅇㅕㄴㄱㅗㅈㅣ	-6502
ame	-6503
▁ㅈㅏㅊㅐㄱ	-6504
▁ㅁㅏㄹㅜ	-6505
▁ㅅㅣㅇㅚ	-6506
▁ㅅㅏㅇㅎㅏㅇㅣ	-6507
▁ㄱㅘㅈㅏㅇ	-6508
▁ㅎㅏㅂㄱㅖ	-6509
▁ㄱㅣㅁㄷㅗㅇ	-6510
ㄱㅔㄹ	-6511
▁ㄱㅛㅊㅏ	-6512
▁ㅂㅗㅈㅘ	-6513
AC	-6514
▁ㅍㅡㄹㄹㅔ	-6515
▁ㅎㅕㅂㅇㅢㅎㅚ	-6516
▁ㅇㅏㄱㅣ	-6517
ㅅㅐㅇㅁㅜㄹ	-6518
▁ㅇㅘㅇㄹㅣㅂ	-6519
▁ㅈㅛ	-6520
▁ㅇㅗㅋ	-6521
▁SN	-6522
ind	-6523
▁ㄷㅗㄱㅇㅣㄹㅇㅓ	-6524
▁ㅂㅏㄱㄱㅡㄴㅎㅖ	-6525
ㅌㅔㄱ	-6526
ㅕㄷㅡㄹ	-6527
▁ㄴㅐㅈㅏㅇ	-6528
▁ㅅㅏㅅㅣㄴ	-6529
ㄷㅗㄴㅣㅇㅏ	-6530
▁ㅈㅣㅇㅕㄱㄱㅜ	-6531
▁ㅈㅓㅇㄹㅠㅈㅏㅇ	-6532
▁PD	-6533
▁ㄴㅗㅁㅜ	-6534
▁ㅅㅣㅌㅡ	-6535
▁ㄹㅔㅇㅣㄷㅏ	-6536
▁ㅈㅏㅇㅅㅏ	-6537
▁ㅅㅏㅇㅊㅓ	-6538
▁ㅅㅣㅈㅣㅂ	-6539
▁ㅅㅏㅇㅇㅕㅇ	-6540
▁ㅂㅕㄹㄹㅗ	-6541
▁ㅊㅓㄹㅈㅓ	-6542
▁ㅅㅓㅂㅜㄱ	-6543
▁ㅎㅏㅊㅓㄴ	-6544
▁ㅈㅗㅇㅈㅗㄱ	-6545
▁ㅊㅜㄹㅎㅕㄴ	-6546
▁ㅅㅏㄴㅈㅣ	-6547
▁ㅅㅜㅈㅣ	-6548
▁168	-6549
▁ㅅㅐㄱㅅㅏㅇ	-6550
▁ㅇㅜㅇㅣㄱ	-6551
▁ㅊㅏㅁㅈㅗ	-6552
ㅇㅣㅂㅡ	-6553
▁ㅎㅣㅅㅡ	-6554
▁ㅅㅡㅋㅏㅇㅣ	-6555
▁ㅍㅏㅇㅜㄴㄷㅡ	-6556
▁162	-6557
▁ㅌㅏㅂㅅㅡㅇ	-6558
▁ㅈㅏㅈㅓㄴㄱㅓ	-6559
ry	-6560
▁ㄱㅣㄹㅡㅁ	-6561
▁ㅂㅔㅇㅓ	-6562
▁ㅇㅠㅌㅠㅂㅡ	-6563
ith	-6564
ㅊㅡㅁ	-6565
ㅌㅗㄹㅡ	-6566
▁1905	-6567
▁ㅋㅜㅅㅡ	-6568
▁ㄱㅣㅎㅏㅎㅏㄱ	-6569
▁Sp	-6570
▁166	-6571
▁ㅇㅝㄴㅅㅏㄴ	-6572
▁151	-6573
▁ㅅㅜㄱㅏㅁ	-6574
▁ㅎㅗㄹㄹㅗ	-6575
▁ㅂㅐㅁ	-6576
▁ㅅㅣㅀ	-6577
▁ㅇㅔㄹㅣㄱ	-6578
▁ㅇㅐㄹㄹㅣ	-6579
▁ㅁㅜㄷㅎㅣ	-6580
ㅍㅔㅇㅣㅈㅣ	-6581
▁ㅈㅓㅇㅅㅓ	-6582
▁ㅎㅏㄷㅡㅇ	-6583
▁ㅋㅡㄹㅣㅅㅡㅌㅗ	-6584
ort	-6585
▁ㅅㅚㅌㅚ	-6586
ㅣㅇㅜ	-6587
▁02	-6588
▁ㅂㅣㄷㅏㄴ	-6589
▁ㅅㅜㅁㅕㅇ	-6590
▁ㅈㅜㅁㅏㄹ	-6591
ES	-6592
▁ㅈㅗㄱㅣ	-6593
▁ㄷㅏㄴㅎㅐㅇ	-6594
ok	-6595
▁ㅋㅓㅈㅣ	-6596
▁ㄷㅗㅇㅊㅣ	-6597
▁ㅇㅣㅈㅗ	-6598
▁ㅌㅡㄱㄱㅡㅂ	-6599
▁158	-6600
▁ㄷㅗㅇㄱㅜ	-6601
▁ㅇㅠㅇㅣㅂ	-6602
▁ㅍㅏㅇㅜㄹ	-6603
ㅔㅅㅕㄹ	-6604
▁ㄷㅡㄹㅐㄱㅗㄴ	-6605
▁ㅈㅜㅍㅏ	-6606
▁ㅂㅟ	-6607
▁ㄲㅜㅁㅣ	-6608
▁ㅈㅏㅂㅏ	-6609
▁ㅅㅏㄹㅛ	-6610
▁ㅍㅛㅂㅗㄴ	-6611
▁ㅎㅗㅁㅍㅔㅇㅣㅈㅣ	-6612
▁ㅈㅏㅁㅈㅐ	-6613
ㅊㅏㅈ	-6614
▁ㅍㅔㅅㅡㅌ	-6615
▁ㅂㅔㅌㅗ	-6616
▁ㅇㅣㄴㅌㅔㄹ	-6617
▁ㅇㅗㅇㅎㅗ	-6618
▁ㅍㅏㄴㅌ	-6619
ㅅㅡㅂㅗㄹ	-6620
▁ㅇㅏㄹㄹㅔ	-6621
▁ㄱㅣㄴㅕㅁㅁㅜㄹ	-6622
▁ㅂㅜㅅㅣ	-6623
▁ㄷㅗㄹㅣ	-6624
▁ㅎㅑㅇㄴㅕㄴ	-6625
▁ㄴㅏㅁㅅㅓㅉㅗㄱ	-6626
▁ㅁㅛㅅㅗ	-6627
▁ㅍㅖㄱㅣ	-6628
ㅌㅐㅇㅜ	-6629
▁ㅍㅣㄹㄹㅏ	-6630
ㅊㅗㅇㅈㅏㅇ	-6631
▁ㄱㅘㅇㅇㅕㄱ	-6632
ㅜㄹㅜㅅㅡ	-6633
▁ㅍㅜㅁㅈㅣㄹ	-6634
▁ㅋㅓㅁㅠㄴㅣㅌㅣ	-6635
▁ㅂㅔㅇㅣㅅㅡㅂㅗㄹ	-6636
▁ㅁㅓㅁㅜㄹ	-6637
ㄴㅐㅇ	-6638
▁ㅅㅓㄱㅌㅏㅂ	-6639
▁ㅈㅡㅇㄱㅣ	-6640
▁ㅂㅣㅍㅕㅇㄱㅏ	-6641
▁ㅁㅏㄹㅡㅌㅣㄴ	-6642
▁ㅅㅐㄱㄲㅏㄹ	-6643
▁ㅍㅗㅋㅡ	-6644
▁ㅇㅓㅁㅁㅏ	-6645
▁ㅌㅡㄹㅓㄱ	-6646
▁ㅇㅖㅇㅚ	-6647
▁ㅍㅡㄹㄹㅐㄴ	-6648
▁ㅇㅠㄴㅣㅅ	-6649
▁ㅇㅠㅅㅣㄴ	-6650
▁ㅁㅏㅆㅡㄷㅏㅇㅣㄹㅏ	-6651
▁ㅎㅗㅈㅗ	-6652
▁ㅅㅡㅅㅡㅇ	-6653
▁ㅇㅑㅅㅐㅇ	-6654
ㅅㅔㅅㅡ	-6655
▁ㅅㅡㅍㅔㅅㅕㄹ	-6656
▁ㅇㅏㄴㄷㅡㄹㅗㅇㅣㄷㅡ	-6657
ㅅㅏㄹㅡ	-6658
▁ㄱㅙ	-6659
▁ㄷㅏㄴㅊㅡㅇ	-6660
▁ㅈㅗㅅㅓㄴㅇㅣㄴ	-6661
▁ㅈㅣㅂㅏ	-6662
▁ㄱㅣㅈㅓㅁ	-6663
▁ㄱㅘㄴㅈㅜㅇ	-6664
▁ㅅㅗㄴㅣ	-6665
▁ㅁㅜㄴㄱㅘ	-6666
▁ㅈㅘㅇㅣㄱ	-6667
ㄷㅓㅇ	-6668
▁ㅂㅐㅅㅏㅇ	-6669
▁ㄷㅗㅅㅣㅁ	-6670
▁ㄲㅜㅈㅜㄴㅎㅣ	-6671
▁ㄷㅣㅈㅏㅇㅣㄴㅓ	-6672
▁ㄱㅡㄹㅔㄱㅗㄹㅣ	-6673
ㅇㅓㄱ	-6674
▁ㅂㅏㄴㅎㅘㄴ	-6675
▁ㅁㅣㄴㅈㅗㄱㅈㅜㅇㅢ	-6676
ㅡㄴㅣ	-6677
ㄹㅣㅋㅔㅇㅣㅅㅕㄴ	-6678
ㅣㅂㅓㄹ	-6679
▁ㅇㅣㄴㄷㅣ	-6680
ㅂㅣㄱ	-6681
ㅌㅗㅁㅣ	-6682
▁ㅅㅔㅅㅉㅐ	-6683
ㅂㅗㅅㅏㄹ	-6684
▁ㅇㅗㄹㅣㅈㅣㄴㅓㄹ	-6685
ㅂㅏㅇㅣ	-6686
▁ㅁㅗㅈㅣㅂ	-6687
▁ㅅㅏㅇㅅㅗ	-6688
▁ㅅㅜㅊㅓㄴ	-6689
▁ㅂㅜㄷㅗㅇㅅㅏㄴ	-6690
▁ㄷㅗㅇㅇㅕㅇㅅㅏㅇ	-6691
▁ㅅㅏㅈㅣㄱ	-6692
▁ㅇㅣㅂㅁㅜㄴ	-6693
▁ㅊㅚㅇㅜㅅㅜ	-6694
▁ㅁㅏㅇㅗ	-6695
▁ㅋㅔㅇㅣㅂㅡㄹ	-6696
▁ㅋㅗㄹㄹㅗㅁㅂㅣㅇㅏ	-6697
ㅁㅐㅅ	-6698
▁ㄹㅔㄴㅈㅡ	-6699
▁ㅌㅔㅁ	-6700
▁ㄹㅣㅇㅏ	-6701
▁ㄱㅏㄹㄹㅣ	-6702
▁ㄱㅡㅂㅎㅐㅇ	-6703
ㄷㅐㄱㅛ	-6704
▁1904	-6705
▁Un	-6706
ㅌㅣㅇㅜㅁ	-6707
▁ㅌㅔㄹㅡ	-6708
▁ㄱㅘㄴㅈㅏㅇ	-6709
ㅍㅡㄹㅏㄴㅅㅣㅅㅡㅋㅗ	-6710
▁ㅂㅓㄱㅡ	-6711
▁ㅇㅏㄴㅂㅗ	-6712
▁ㅇㅠㄱㅗㅅㅡㄹㄹ	-6713
▁ㅇㅠㄱㅗㅅㅡㄹㄹㅏㅂㅣㅇㅏ	-6714
ㅁㅐㄴ	-6715
▁ㄷㅐㅇㅏㄴ	-6716
▁ㄱㅡㅂㅅㅗㄱ	-6717
▁ㄹㅏㅇㅣㅂㅓㄹ	-6718
▁ㅅㅐㄴㅍㅡㄹㅏㄴㅅㅣㅅㅡㅋㅗ	-6719
▁ㅍㅡㄹㅐㄴ	-6720
▁ㅁㅜㅅㅣㄴ	-6721
▁ㅇㅖㅅㄴㅏㄹ	-6722
▁ㄸㅡㄱ	-6723
▁ㅌㅗㄹㅡ	-6724
▁ㅅㅓㄴㅈㅣㄴ	-6725
ord	-6726
▁ㄹㅔㅇㅣㅅㅡ	-6727
ㄹㅔㅇㅣㅅㅕㄴ	-6728
ㄹㅕㄴㅏ	-6729
ㅌㅡㄹㅓㅁ	-6730
▁ㅅㅓㄱㅕㅇ	-6731
▁ㅋㅏㅍㅔ	-6732
▁ㅈㅓㅁㅅㅓㅇ	-6733
▁ㅇㅕㄴㅈㅜㅈㅏ	-6734
▁ㄴㅏㅍㅗㄹㄹㅣ	-6735
ㅇㅛㅅㅣ	-6736
▁ㅎㅗㄴㅏㅁ	-6737
▁ㄷㅗㅇㅈㅓㄴ	-6738
▁ㅎㅣㄱㅏㅅㅣ	-6739
▁ㅁㅜㄱㅘㄴ	-6740
▁ㅂㅏㄷㅊㅣㅁ	-6741
▁ㅊㅜㄹㅍㅏㄴㅅㅏ	-6742
▁ㅍㅔㅅㅡㅌㅣㅂㅓㄹ	-6743
▁ㅂㅏㄱㅅㅡ	-6744
ob	-6745
▁Se	-6746
▁ㅈㅓㄱㅅㅐㄱ	-6747
▁ㅍㅏㄴㅌㅏㅈㅣ	-6748
qu	-6749
▁ㄷㅐㅇㅢ	-6750
ㅇㅜㅇㅖㄴ	-6751
ㄷㅣㅅㅡ	-6752
ㅋㅜㅅㅡ	-6753
▁ㅁㅣㅁㅏㄴ	-6754
▁ㅈㅜㅎㅏㄴ	-6755
▁ㅂㅔㅌㅗㅂㅔㄴ	-6756
▁ㅋㅏㅈㅏ	-6757
▁ㅈㅜㅇㅢㅈㅏ	-6758
▁ㅌㅡㅇㅟ	-6759
▁165	-6760
▁ㄷㅗㄹㅍㅏ	-6761
▁ㄷㅗㅁㅔㅇㅣㄴ	-6762
▁ㅇㅢㄱㅓ	-6763
▁ㅋㅏㅅㅡ	-6764
▁ㅎㅡㅇㅁㅣ	-6765
▁ㅁㅏㄹㅏ	-6766
▁ㅇㅜㄴㅂㅏㄴ	-6767
▁ㅁㅗㄱㄱㅕㄱ	-6768
▁ㅂㅏㄹㅏㅂㅗ	-6769
▁ㅅㅔㄴㅌㅡㄹㅓㄹ	-6770
▁ㅅㅓㅇㅣㄹ	-6771
▁154	-6772
▁ㄴㅐㄹㅠㄱ	-6773
▁ㅇㅘㅇㅈㅗㄱ	-6774
▁ㅇㅕㄴㄱㅡㅁ	-6775
▁ㅅㅡㅋㅗㅅ	-6776
▁ㅍㅏㅅㅐㅇ	-6777
▁ㄱㅐㅅㅜ	-6778
▁ㄱㅖㄷㅏㄴ	-6779
▁ㅊㅜㄹㅅㅏㄴ	-6780
▁ㅇㅖㄴ	-6781
▁ㅌㅜㄹㅡ	-6782
▁ㅂㅗㄱㅈㅔ	-6783
▁ㅇㅜㄴㅁㅕㅇ	-6784
ate	-6785
ㅁㅣㄴㅣ	-6786
ㅌㅏㅇㅜㄴ	-6787
▁ㅂㅏㅌ	-6788
▁ㅈㅏㅅㅏ	-6789
▁ㅋㅜㄴ	-6790
▁ㅇㅏㄱㅈㅏㅇ	-6791
▁ㄱㅣㅇㅛㅇ	-6792
▁ㅇㅓㅎㅏㅇ	-6793
▁ㅇㅐㄴㄷㅡㄹ	-6794
▁ㅎㅗㅎㅘㄴ	-6795
▁Wh	-6796
▁156	-6797
▁ㄴㄷㅏㄱㅗ	-6798
ㅈㅡㄴㅣㅅㅡ	-6799
▁ㄸㅜㅀ	-6800
▁ㅈㅏㅇㅠㄹ	-6801
▁ㅅㅓㄴㅈㅔ	-6802
▁ㅈㅓㅇㅈㅏ	-6803
ㅂㅜㅅㅏ	-6804
▁SF	-6805
▁ㄹㅚ	-6806
▁ㅇㅏㅁㅜㄹㅓㄴ	-6807
▁ㅂㅣㅈㅡㄴㅣㅅㅡ	-6808
ㅡㅂㅏ	-6809
▁ㄸㅏㄴ	-6810
▁ㅇㅔㅅㅡㅍㅏㄴ	-6811
▁ㄹㅣㅌㅜㅇㅏㄴ	-6812
PS	-6813
ㅇㅓㅅ	-6814
ㅈㅜㄱㅗㄱ	-6815
▁ㅈㅓㅇㄱㅛ	-6816
▁ㅈㅣㅎㅟㅈㅏ	-6817
ㅔㅇㅑ	-6818
▁ㄹㅣㅇㅋㅡ	-6819
▁ㄷㅗㅋㅏㅇㅣ	-6820
▁ㄱㅗㄷㅂㅏㄹㅗ	-6821
▁ㅇㅗㄷㅣㅅㅕㄴ	-6822
ㄱㅣㄴ	-6823
▁ㄱㅜㅅㅏ	-6824
ㅈㅏㅂㅎㅣ	-6825
▁163	-6826
▁ㅂㅡㄹㅏㅇㅣㅇㅓㄴ	-6827
▁ㅂㅜㅍㅐ	-6828
ㅅㅣㄴㅗ	-6829
▁ㅇㅣㄴㅊㅣ	-6830
▁ㅇㅛㅇㅅㅏㄴ	-6831
▁ㅈㅣㄱㅈㅏㅇ	-6832
▁ㄱㅜㅈㅏㅇ	-6833
▁ㅅㅡㅍㅔㄱㅌㅡㄹㅓㅁ	-6834
ㄹㅏㄴㄷㅡㅇ	-6835
▁ㅅㅣㄴㅂㅣ	-6836
▁ㅎㅏㅂㅈㅏㄱ	-6837
▁ㄹㅗㅈㅡ	-6838
▁ㅎㅕㅂㅇㅢ	-6839
ㄱㅣㄹㅇㅣ	-6840
▁ㅇㅖㅅㅜㄹㄱㅏ	-6841
▁ㅃㅏㄹㄹㅣ	-6842
▁ㅅㅡㅁㅏㅌㅡㅍㅗㄴ	-6843
▁ㄴㅏㅌ	-6844
▁ㅇㅕㄷㅗㅇㅅㅐㅇ	-6845
ㄷㅣㄱ	-6846
▁ㅂㅏㅇㅇㅏㄴ	-6847
ㅂㅏㄹㅏ	-6848
▁ㅅㅡㅋㅜㄹ	-6849
▁ㅋㅗㅇㄱㅗ	-6850
▁ㅍㅣㄹㅔㄴ	-6851
▁ㅂㅔㄴㅔㅅ	-6852
▁ㅍㅕㅇㅅㅗ	-6853
▁ㅍㅐㄹㅓ	-6854
▁ㅅㅣㄴㅇㅣㅁ	-6855
▁ㅈㅣㄴㅅㅏㅇ	-6856
IC	-6857
▁ㅍㅗㅁㅐㅅ	-6858
▁ㅈㅜㄹㅣㅂ	-6859
▁ㅍㅐㅁ	-6860
▁ㄴㅗㅈㅗ	-6861
ㅁㅜㄴㅎㅏㄱ	-6862
▁ㅅㅏㄹㅏ	-6863
▁ㅅㅏㅂㅓㅁ	-6864
▁ㄱㅣㄴㄱㅡㅂ	-6865
▁ㅌㅏㅇㅣㄱㅓ	-6866
ㅋㅙ	-6867
▁ㅅㅡㅌㅔㅇㅣㅈㅣ	-6868
▁ㄱㅏㄱㅔ	-6869
▁ㄷㅗㅇㅅㅏ	-6870
▁ㅎㅏㅇㅇㅣㄹ	-6871
▁ㅅㅜㅁㅕㄴ	-6872
▁ㅈㅘㅅㅓㄱ	-6873
▁ㅇㅕㅅㅣㄴ	-6874
ㅌㅡㄹㅡ	-6875
▁ㅇㅣㄹㅎㅐㅇ	-6876
▁ㅎㅏㄴㅇㅑㅇ	-6877
ㄹㅜㅅㅏㄹ	-6878
▁ㅈㅏㅇㅍㅕㄴ	-6879
▁ㅈㅏㅎㅚㅅㅏ	-6880
ㄹㅜㅅㅏㄹㄹㅔㅁ	-6881
▁ㅁㅏㅋㅔㄷㅗㄴㅣㅇㅏ	-6882
▁ㅃㅜㄹ	-6883
▁ㅁㅏㅅㅡ	-6884
▁ㄱㅣㅈㅐ	-6885
▁ㄷㅜㄷㅡㄹ	-6886
▁ㅅㅡㅌㅣㄹ	-6887
▁900	-6888
ㅌㅏㅋㅏ	-6889
ㅌㅡㄹㅗㄹ	-6890
▁167	-6891
▁ㄲㅏㄹ	-6892
▁ㄷㅚㅊㅏㅈ	-6893
▁ㅊㅜㅇㄴㅏㅁ	-6894
▁ㅎㅚㅇㅝㄴㄱㅜㄱ	-6895
▁ㄱㅝㄴㄱㅗ	-6896
▁AM	-6897
▁ㅁㅓㄹㅌㅣ	-6898
▁ㅁㅣㅇㅑㄴ	-6899
ㅍㅡㄹㅏ	-6900
▁ㄱㅕㅇㅜ	-6901
▁ㅇㅜㄷㅡ	-6902
▁ㄱㅕㅂㅊㅣ	-6903
▁ㅂㅜㄴㅈㅣ	-6904
▁ㅇㅛㅇㄱㅣ	-6905
▁ㅈㅣㄴㅈㅣ	-6906
▁ㅇㅖㅇㅓㄴ	-6907
ㅜㅇㅓ	-6908
▁ㄱㅛㅈㅓㄴ	-6909
▁ㅅㅏㅇㅇㅣㅁ	-6910
▁ㅅㅓㄴㅅㅏ	-6911
▁ㅈㅣㅈㅏㅇ	-6912
▁139	-6913
▁ㅂㅓㄴㅈㅜ	-6914
▁ㅅㅡㅍㅣㄷㅡ	-6915
▁ㅎㅏㄴㄱㅏㅇ	-6916
▁DJ	-6917
▁ㅊㅏㄱㄹㅠㄱ	-6918
ㅌㅣㅇㅏㄴ	-6919
▁ㄹㅏㅁㅏ	-6920
▁ㅇㅣㄹㅇㅛㅇㅣㄹ	-6921
ㅈㅡㅁㅣ	-6922
▁ㅂㅜㄴㅂㅐ	-6923
ㅊㅕㅈㅣ	-6924
▁ㅂㅐㅈㅔ	-6925
▁ㅈㅗㄹㅠ	-6926
▁ㅅㅣㄴㅎㅏ	-6927
▁ㅅㅣㄴㅇㅛㅇ	-6928
▁ㅁㅗㅁㄱㅣㄹㅇㅣ	-6929
▁ㄷㅗㄹㅡ	-6930
▁ㄷㅏㄴㅈㅗㅇ	-6931
▁ㅎㅏㄷㅡㅇㅞㅇㅓ	-6932
ㅏㅇㅇㅣ	-6933
▁ㅁㅜㅅㅡㄹ	-6934
▁ㅇㅛㅇㄹㅑㅇ	-6935
▁ㄱㅜㄹㅗ	-6936
▁ㄲㅣㄹㅣ	-6937
▁ㅇㅡㅇㅇㅜㅇㅖㄴ	-6938
ast	-6939
▁AS	-6940
ㅅㅣㄱㅁㅜㄹ	-6941
▁ㅇㅣㅂㅈㅡㅇ	-6942
▁ㄴㅣㅅㅡ	-6943
▁ㄷㅏㅇㅣㄴ	-6944
▁ㅇㅣㅂㅎㅣ	-6945
▁ㄱㅐㅂㅏㄹㅈㅏ	-6946
▁ㅁㅜㅅㅡㄹㄹㅣㅁ	-6947
▁ㄱㅔㅅㅣ	-6948
▁ㅈㅐㅁㅜ	-6949
▁ㄱㅣㅌㅏㄹ	-6950
▁ㅍㅡㄹㅗㅅ	-6951
ET	-6952
ㅍㅐㅇ	-6953
▁ㅈㅓㅇㄱㅖ	-6954
▁ㅈㅣㅌ	-6955
▁ㄱㅏㄴㅏ	-6956
▁ㅇㅠㅎㅏ	-6957
▁ㅇㅣㅌㅗ	-6958
▁ㅇㅡㅁㅁㅗ	-6959
▁ㄷㅏㅇㅇㅕㄴ	-6960
ㅛㄱ	-6961
▁ㅈㅓㅈㅣㄹㅡ	-6962
ㄱㅓㅈㅣ	-6963
▁ㅇㅏㅂㅣ	-6964
▁ㅊㅗㄹㅐ	-6965
▁ㅈㅣㅈㅣㄹ	-6966
ㅂㅔㄹㅡㅌㅡ	-6967
▁ㅇㅖㄹㅜㅅㅏㄹㄹㅔㅁ	-6968
▁ㅂㅓㄴㅅㅣㄱ	-6969
▁ㅊㅐㄹㄹㅣㄴ	-6970
▁ㅇㅐㄱㅜㄱ	-6971
▁ㅇㅕㄴㅇㅐ	-6972
▁ㅎㅏㄴㄴㅏㄹㅏ	-6973
▁ㅋㅣㄹㄹㅗㅁㅣㅌㅓ	-6974
▁ㅆㅏ	-6975
ㅠㅋㅣ	-6976
ㅈㅣㄹㅡ	-6977
▁ㄹㅔㅈㅣ	-6978
▁ㄴㅗㅇㄷㅗ	-6979
▁ㅅㅡㅌㅡㄹㅣㅌㅡ	-6980
▁ㅊㅚㅅㅣㄴ	-6981
ㄸㅡㅅ	-6982
▁ㅈㅗㄹㅡ	-6983
▁ㅎㅏㄴㄴㅏㄹㅏㄷㅏㅇ	-6984
▁ㅋㅗㄴㅅㅡㅌㅏㄴㅌㅣㄴㅗ	-6985
▁ㄴㅏㄹㄹㅣ	-6986
▁ㅇㅖㄴㅡㅇ	-6987
ㅌㅓㄱ	-6988
ㅈㅏㅂㅇㅣ	-6989
▁145	-6990
ㅇㅓㅌㅡ	-6991
▁ㅌㅡㄹㅔ	-6992
▁ㅎㅖㅅㅓㅇ	-6993
▁ㅅㅓㅇㅈㅗㅇ	-6994
▁ㅈㅓㄴㅇㅕㅁ	-6995
▁ㄱㅘㄴㄱㅘㅇㄱㅐㄱ	-6996
ㅍㅐㄴ	-6997
ㅣㄱㅡ	-6998
▁ㅈㅜㅇㄱㅜㄱㅇㅓ	-6999
▁ㄷㅐㅈㅗ	-7000
ㄹㅓㅁㅂㅣㅇㅏ	-7001
▁ㅇㅏㅎㅗ	-7002
ㅣㅇㅑ	-7003
▁ㄱㅏㄷㅡㄱ	-7004
ㄷㅔㅇㅣㅌㅡ	-7005
▁DS	-7006
▁ㅊㅣㄴㅈㅓㅇ	-7007
▁ㄷㅣㅂㅣㅈㅓㄴ	-7008
▁UN	-7009
▁ㅇㅣㅁㅅㅏㅇ	-7010
▁ㅇㅓㅂㄷㅔㅇㅣㅌㅡ	-7011
▁ㅇㅑㄱㅣ	-7012
▁ㅇㅛㅋㅡ	-7013
▁ㅅㅏㅁㅕㄴ	-7014
▁ㅊㅏㄱㅘㄴ	-7015
ㅣㅇㅏㅂ	-7016
▁ㅂㅏㄹㅈㅗㄱ	-7017
▁ㅁㅣㄹㅈㅓㅂ	-7018
▁ㄱㅗㅇㄱㅘ	-7019
▁ㅇㅝㄹㄱㅏㄴ	-7020
▁ㄱㅣㅌㅏㄹㅣㅅㅡㅌㅡ	-7021
▁ㅈㅣㅈㅜ	-7022
▁ㅇㅕㄷㅓ	-7023
▁ㅅㅣㄹㅈㅓㅁ	-7024
▁ㅇㅐㅍㅡㄹㄹㅣㅋㅔㅇㅣㅅㅕㄴ	-7025
if	-7026
▁ㅅㅣㅅㅡ	-7027
▁ㅋㅡㄹㅔ	-7028
DP	-7029
▁IP	-7030
▁ㅅㅡㅍㅏ	-7031
▁ㄱㅕㅇㅅㅏ	-7032
▁ㄱㅗㄹㅣㅂ	-7033
▁ㅅㅛㄱㅜㄴ	-7034
▁ㅅㅓㅇㄱㅗㅇㅎㅚ	-7035
▁ㅅㅣㅂㅈㅏㄱㅜㄴ	-7036
▁ㅅㅓㅇㅜㄹㅅㅣ	-7037
▁ㅅㅡㅍㅣㄴ	-7038
▁ㅇㅘㄹ	-7039
ㄹㅗㄱㅡ	-7040
▁ㅁㅗㅅㅜㄴ	-7041
ㅋㅗㅅ	-7042
▁ㄸㅡㄱㅓㅂ	-7043
▁ㅇㅗㄹㅣㅇ	-7044
▁ㄱㅗㅇㅇㅛㅇ	-7045
▁ㅇㅠㅇㅎㅏㅂ	-7046
▁ㅂㅜㅌㅗㅇㄹㅕㅇ	-7047
▁ㅅㅓㅇㅣㄹㅂㅗㄴ	-7048
▁ㄹㅣㅌㅜㅇㅏㄴㅣㅇㅏ	-7049
ㅌㅡㄹㅣㄱ	-7050
▁ㅂㅐㅈㅓㅇ	-7051
▁ㄷㅏㅇㅅㅏㅈㅏ	-7052
▁ㅇㅓㅆㅇㅓㅆ	-7053
▁1896	-7054
▁ㅈㅓㄴㅇㅣ	-7055
▁ㅍㅣㄹㅔㄴㅊㅔ	-7056
ure	-7057
▁ㄱㅗㄱㅐ	-7058
ㅃㅕ	-7059
▁ㅁㅐㅂ	-7060
ㅔㄹㅣㅇㅏ	-7061
▁ㄷㅐㄹㅕㅇ	-7062
▁ㅎㅐㅇㅣㄴ	-7063
▁ㄱㅏㅇㅇㅕㄴ	-7064
ack	-7065
▁ㅆㅢ	-7066
▁ㅇㅗㅂㅓ	-7067
ㅔㅅㅡㅋㅗ	-7068
▁ㅋㅚ	-7069
▁ㄱㅛㅅㅓㅂ	-7070
ㅔㄴㅈㅣ	-7071
▁ㅇㅓㄹㅇㅡㅁ	-7072
▁ㅈㅓㄴㄹㅠ	-7073
▁ㅅㅣㄱㅅㅏ	-7074
▁ㅊㅐㅁㅍㅣ	-7075
▁ㅈㅣㄴㄴㅏㄹㅏ	-7076
▁ㄲㅗㄹ	-7077
▁ㅊㅣㄴㅅㅓㄴ	-7078
▁ㅈㅗㄱㅜㄱ	-7079
▁ᆯㅅㅜㄹㅗㄱ	-7080
▁ㅅㅣㄷㅡㄴㅣ	-7081
▁ㅅㅗㅅㅗㅇㅂㅓㅂ	-7082
▁ㅎㅏㄱㅍㅏ	-7083
▁ㅎㅞㅅㅗㄴ	-7084
▁ㅅㅜㅎㅏㄱㅈㅏ	-7085
ive	-7086
▁ㅅㅏㄹㅡ	-7087
▁ㅌㅜㅁㅕㅇ	-7088
▁ㅅㅣㄷㅏㄹㄹㅣ	-7089
IT	-7090
▁ㄲㅓㅂ	-7091
▁ㅅㅣㅊㅔ	-7092
▁ㅇㅔㄹㅣ	-7093
ㅇㅣㅇ	-7094
▁ㄱㅘㅈㅔ	-7095
▁ㅈㅜㅇㄷㅗㄱ	-7096
▁ㅂㅏㄹㅎㅛ	-7097
▁ㅈㅓㅇㅂㅓㄹ	-7098
▁ㅂㅜㅎㅡㅇ	-7099
▁ㄱㅗㅇㅈㅓㄴ	-7100
▁ㅇㅕㄷㅓㄼ	-7101
▁ㅅㅣㄴㅋㅏㄴ	-7102
▁ㅇㅏㅂㅂㅏㄱ	-7103
▁ㄷㅜㄹㄹㅓㅆㅏㅇㅣ	-7104
▁ㅅㅡㅌㅏㅋㅡㄹㅐㅍㅡㅌㅡ	-7105
ock	-7106
▁ㅌㅔㅇㅗ	-7107
iv	-7108
▁ㅅㅣㅇㅏ	-7109
▁ㅁㅏㅋㅔㅌㅣㅇ	-7110
▁ㅂㅗㄱㅅㅗ	-7111
▁ㅎㅐㅇㅈㅓㅇㅂㅜ	-7112
▁ㅁㅣㄹㅇㅑㅇ	-7113
▁ㅈㅏㅇㅅㅓㅇ	-7114
ㄲㅗㄹ	-7115
▁ㄷㅐㄷㅏㄴ	-7116
▁ㅅㅏㅇㅣㄴ	-7117
▁ㅎㅕㅇㅂㅓㅂ	-7118
▁ㅅㅏㄹㅗ	-7119
▁ㅂㅜㄷㅗ	-7120
ㅋㅔㅇㅣㄴ	-7121
ㅏㅇㅜㄴㅅㅓ	-7122
▁ㅇㅏㄴㅏㅇㅜㄴㅅㅓ	-7123
▁ㅈㅓㄴㅇㅣㅁ	-7124
▁ㅇㅟㅈㅜ	-7125
▁ㅇㅣㄹㅣ	-7126
▁ㅅㅛㅍㅣㅇ	-7127
▁ㅈㅓㄴㅈㅣ	-7128
▁ㄱㅓㅅㅡㄹㅡ	-7129
▁ㅁㅣㄴㅏㅁㅣ	-7130
▁ㄴㅗㅁㅜㅎㅕㄴ	-7131
▁ㄱㅠㄱㅕㄱ	-7132
▁ㄱㅠㅁㅕㅇ	-7133
ㄱㅠㄴㄱㅘㄴ	-7134
▁ㅍㅡㄹㅗㅅㅔㅅㅡ	-7135
▁157	-7136
▁174	-7137
▁ㄱㅟㅎㅘㄴ	-7138
▁ㅅㅜㅅㅣㄴ	-7139
▁ㄱㅏㄴㅈㅓㅂ	-7140
▁ㅂㅗㅈㅓㄴ	-7141
▁ㅇㅗㅋㅔㅅㅡㅌㅡㄹㅏ	-7142
▁ㄹㅜㄹ	-7143
▁Ar	-7144
▁ㄱㅡㅁㅅㅓㅇ	-7145
▁ㄹㅗㅂㅔㄹㅡ	-7146
▁ㅂㅐㄱㅅㅣㄴ	-7147
▁ㅊㅡㄱㄱㅡㄴ	-7148
▁ㅂㅓㄴㄴㅚ	-7149
▁ㅇㅣㅇㅣ	-7150
▁ㅌㅔㅇㅣㄹㄹㅓ	-7151
▁ㅂㅣㅈㅏㄴㅌㅣㅇㅜㅁ	-7152
ck	-7153
ㅜㄷㅡ	-7154
▁ㅇㅏㅅㅔ	-7155
▁ㅇㅣㅈㅣ	-7156
▁j	-7157
ㅈㅏㅇㅘ	-7158
▁ㅊㅜㄹㄱㅜ	-7159
▁152	-7160
▁ㄹㅗㅂㅣㄴ	-7161
ㅈㅡㅋㅏ	-7162
▁ㅅㅓㄴㄷㅜ	-7163
▁ㅈㅓㄴㅈㅏㅇ	-7164
▁5000	-7165
ㄷㅐㄱㅜㄴ	-7166
▁ㅍㅕ	-7167
▁ㅍㅏㄷㅗㅇ	-7168
▁HIV	-7169
▁ㅈㅓㅈ	-7170
▁ㅈㅘㅍㅛ	-7171
▁ㄴㅐㄹㅕ	-7172
ㅅㅡㅂㅜㄹㅡㅋㅡ	-7173
▁ㅋㅡㄹㄹㅣㄴ	-7174
▁ㅍㅣㅇㅔㄹㅡ	-7175
▁ㅁㅏㄹㅣㅇㅗ	-7176
▁ㅈㅜㄴㄱㅗㅇ	-7177
▁ㅊㅜㅇㅅㅓㅇ	-7178
▁WW	-7179
▁ㅈㅜㅅㅏ	-7180
▁ㅊㅏㄱㅅㅜ	-7181
▁ㄴㅗㄷㅗㅇㅈㅗㅎㅏㅂ	-7182
ㅅㅠㄹ	-7183
▁MVP	-7184
▁ㅂㅜㅈㅏ	-7185
▁ㄱㅕㅇㅅㅓㄴ	-7186
▁ㅈㅓㅇㅊㅏㄹ	-7187
▁ㄱㅘㄴㅊㅏㄹㅅㅏ	-7188
ㅂㅡㄹㅣ	-7189
▁ㅈㅓㄴㅁㅜㄴㅎㅏㄱㄱㅛ	-7190
ㅁㅏㅈ	-7191
▁ㄱㅕㅌ	-7192
▁ㅈㅓㅁㅇㅠ	-7193
▁ㄱㅗㅈㅗ	-7194
▁ㅁㅛㅇ	-7195
▁ㄱㅜㄷㅗㅇ	-7196
▁ㅎㅏㄹㄷㅏㅇ	-7197
▁ㄱㅘㄴㅅㅡㅂ	-7198
▁ㅎㅏㅂㅓㄷㅡ	-7199
ㅗㄴㄷㅡ	-7200
▁ㅁㅣㅅㅏ	-7201
▁ㅊㅏㅊㅔ	-7202
▁ㅅㅓㅇㅕㄹ	-7203
▁ㅊㅐㄱㅂㅗㅇ	-7204
▁ㅎㅏㅌㅡ	-7205
▁ㅇㅘㅈㅜㅇ	-7206
▁ㅇㅏㅇㅣㄷㅣㅇㅓ	-7207
▁ㄱㅣㅇㅏ	-7208
▁ㅅㅏㅁㅕㅇ	-7209
▁ㄹㅜㅅㅜ	-7210
▁ㅇㅕㅁㅅㅐㄱ	-7211
▁ㅇㅜㅈㅣ	-7212
▁ㅈㅏㅁㅏ	-7213
▁ㅌㅡㄹㅐ	-7214
▁ㅇㅘㄴㅎㅘ	-7215
▁ㅅㅓㅇㅂㅕㄱ	-7216
▁ㅅㅣㄴㅋㅏㄴㅅㅔㄴ	-7217
▁ㅌㅡㅇㅟㄴ	-7218
▁ㅇㅕㄹㅐ	-7219
12	-7220
▁MP	-7221
▁ㅋㅏㅌㅏㄹ	-7222
▁ㅅㅓㄱㅌㅏㄴ	-7223
▁ㅊㅏㅁㅍㅏㄴ	-7224
▁ㅅㅏㄹㅇㅏㄱㅏ	-7225
ㅔㄱㅣ	-7226
▁ㅍㅔㅇㅓ	-7227
▁ㅅㅓㅇㄱㅠㄴㄱㅘㄴ	-7228
▁ㅌㅗㄴㅣ	-7229
▁ㅈㅏㅅㅗㄴ	-7230
▁ㅁㅣㅅㅡㅌㅓ	-7231
▁146	-7232
▁ㄱㅗㄹㅕㅇ	-7233
▁ㅂㅐㅇㅋㅡ	-7234
▁ㅅㅣㄹㅣㅂ	-7235
▁ㄱㅝㄴㅇㅠ	-7236
▁ㅎㅏㄴㅎㅘ	-7237
▁ㅍㅡㄹㅗㅌㅗㅋㅗㄹ	-7238
ㅓㅂㅣ	-7239
ㅜㅁㅣ	-7240
▁ㄱㅚㅇ	-7241
ㅓㄹㅣㅇ	-7242
ㅗㄱㄷㅗㄹㅗ	-7243
ime	-7244
ㅏㅇㅑ	-7245
▁ㅅㅗㄱㅘㄴ	-7246
▁ㅍㅣㄴㅏㄴ	-7247
▁ㅇㅣㅁㅕㅇㅂㅏㄱ	-7248
▁ㅌㅗㅇㅎㅐㅇ	-7249
ㅈㅐㄱ	-7250
ㅁㅗㅌㅗ	-7251
▁ㅅㅣㄹㅇㅛㅇ	-7252
▁ㄷㅣㅂㅣ	-7253
▁ㄴㅏㅇㅕㄹ	-7254
▁ㅇㅣㅅㅜㄴ	-7255
ㄲㅡㄹㅓㅂ	-7256
▁ㅅㅣㅇㅚㅂㅓㅅㅡ	-7257
ㄷㅔㄹㅡ	-7258
▁ㅊㅏㄱㄱㅗㅇ	-7259
ㅅㅏㄴㅁㅜㄹ	-7260
▁ㅅㅗㅈㅐㅈㅣ	-7261
▁ㅎㅡㅇㅎㅐㅇ	-7262
▁ㅈㅔㅎㅠ	-7263
▁ㄴㅏㅁㅇㅑㅇ	-7264
▁ㅇㅜㄹㅏㄴ	-7265
▁ㅇㅣㅂㅗㄱ	-7266
▁ㅇㅣㅅㅠ	-7267
▁125	-7268
▁ㅎㅐㅈㅓㄴ	-7269
▁ISO	-7270
ㄱㅕㄹㅅㅡㅇ	-7271
▁ㅂㅏㄱㅇㅕㅇ	-7272
▁ㅅㅔㄹㅖ	-7273
▁ㅈㅏㅇㅇㅣㄴ	-7274
▁ㄴㅣㅇㅏ	-7275
ㅈㅓㄴㅈㅏ	-7276
▁ㅅㅗㅊㅗㅇ	-7277
▁ㅎㅣㅁㅆㅡ	-7278
▁ㄹㅓㅅ	-7279
▁ㅇㅛㅁㅣㅇ	-7280
▁ㅅㅣㄱㄷㅏㅇ	-7281
▁ㅇㅛㅁㅣㅇㅜㄹㅣ	-7282
▁ㅅㅏㄹㅣ	-7283
ㅋㅣㄴㅅㅡ	-7284
▁ㄱㅓㅁㅈㅡㅇ	-7285
ㅗㅇㅜ	-7286
▁105	-7287
▁ㅅㅏㅈㅣ	-7288
▁ㄷㅏㅁㅂㅐ	-7289
▁ㄷㅗㅇㄴㅏㅁㅇㅏㅅㅣㅇㅏ	-7290
▁ㅈㅗㄴㄱㅕㅇ	-7291
▁ㅇㅡㄹㅕ	-7292
▁ㅈㅔㅇㅢ	-7293
▁ㅈㅣㄱㅏㄱ	-7294
▁ㅅㅗㄱㅡㅁ	-7295
ㅍㅡㅅㅡ	-7296
▁1911	-7297
▁ㄸㅏㅇㅟ	-7298
ㅌㅡㄹㅐㄱ	-7299
▁ㄱㅏㅇㅅㅏ	-7300
▁ㅇㅟㄹㅅㅡㄴ	-7301
▁ㄷㅗㅇㅇㅟ	-7302
▁ㄱㅏㅅ	-7303
▁ㅅㅗㄴㅣㄱ	-7304
▁ㅇㅝㄴㄴㅏㄹㅏ	-7305
ML	-7306
one	-7307
▁ㅇㅕㅇㅢ	-7308
▁ㄴㅏㅁㅇㅣㄴ	-7309
ㅁㅏㄹㅡ	-7310
▁ㅂㅕㄴㄷㅗㅇ	-7311
ㅍㅗㄹㄹㅣㅅㅡ	-7312
▁Le	-7313
▁ㅁㅏㅊㅓㄴ	-7314
ㅂㅡㄹㄹ	-7315
▁ㅇㅗㄷㅏ	-7316
ㅎㅕㄱㅁㅕㅇ	-7317
▁ㅅㅜㄴㅊㅓㄴ	-7318
▁ㅊㅏㅇㅇㅓㅂ	-7319
▁1500	-7320
▁ㄱㅜㄱㅇㅓ	-7321
▁ㄱㅘㄴㅎㅕㄴ	-7322
▁PS	-7323
▁ㅅㅏㅇㄹㅠ	-7324
▁ㅈㅗㅇㅛㅇ	-7325
▁ㅊㅟㅇㅑㄱ	-7326
▁ㄱㅡㅂㅈㅣㄴ	-7327
▁ㅎㅐㅇㅈㅣㄴ	-7328
ㅎㅔ	-7329
▁ㄱㅜㅈㅔ	-7330
▁ㅇㅔㅁㅣㄹ	-7331
▁ㅅㅣㄴㅈㅓㄴ	-7332
▁ㅈㅓㄴㅈㅣㄴ	-7333
▁3000	-7334
▁Pro	-7335
▁ㅈㅏㅁㅕㄴ	-7336
▁ㄱㅏㅇㅅㅜㄹㅑㅇ	-7337
▁ㅅㅔㅁ	-7338
▁ㅇㅜㄹㅡ	-7339
▁ㅇㅣㅂㅡ	-7340
▁ㅇㅜㅈㅓㅇ	-7341
▁ㄴㅗㄷㅡ	-7342
▁ㅅㅓㅂㅡ	-7343
ㅂㅔㅇㅣㄴ	-7344
▁ㅂㅣㄹㅎㅔㄹ	-7345
ㅈㅡㄹ	-7346
▁ㅂㅜㄹㄹ	-7347
ㅈㅐㅇㅣㄴ	-7348
▁ㅈㅜㅁㅓㄴㅣ	-7349
▁ㄱㅏㄱㅂㅗㄴㄱㅏ	-7350
▁ㄱㅗㅂㅔ	-7351
▁ㄱㅣㅁㅇㅛㅇ	-7352
▁ㅇㅚㅁㅜ	-7353
▁ㄷㅣㅈㅔㄹ	-7354
▁ㄱㅘㄷㅗ	-7355
▁ㄱㅗㅇㅝㄴ	-7356
▁ㅇㅘㅇㅣㄴ	-7357
▁ㅊㅓㅇㅅㅏ	-7358
▁ㅎㅏㅇㄱㅗㅇㅁㅗ	-7359
▁ㄲㅡㄴ	-7360
▁ㅈㅓㄱㅎㅣ	-7361
▁ㅅㅞ	-7362
ㅋㅏㄷㅡ	-7363
▁ㄷㅏㅈㅣ	-7364
▁ㄱㅓㅇㅣㄴ	-7365
▁ㅅㅓㄷㅗㄱ	-7366
▁ㅅㅏㅇㅅㅏㅇ	-7367
▁ㅂㅐㄱㅜ	-7368
▁153	-7369
▁ㅅㅏㅅ	-7370
▁ㅇㅕㄴㄹㅜ	-7371
▁ㅎㅢㄱㅡㄱ	-7372
▁ㅅㅜㄹㅌㅏㄴ	-7373
▁ㅊㅜㄹㅇㅣㅂㄱㅜ	-7374
▁ㅊㅓㄴㅁㅜㄴㅎㅏㄱ	-7375
ㅅㅜㅅㅜ	-7376
ㅆㅏㅇ	-7377
▁ㄱㅐㅇㅓㅂ	-7378
▁ㅁㅣㄴㄱㅜㄱ	-7379
▁ㅍㅐㅈㅓㄴ	-7380
▁ㅇㅑㄼ	-7381
▁ㄷㅜㄹㅡ	-7382
▁ㄷㅣㅇㅗ	-7383
ㅈㅔㅍㅡ	-7384
▁ㅎㅐㅇㅣㅁ	-7385
▁ㅂㅣㄱㅡㄱ	-7386
▁ㅇㅣㄹㄹㅔㄱ	-7387
▁ㅎㅡㅌ	-7388
▁ㅎㅚㅅㅜ	-7389
AP	-7390
▁ㅈㅓㅌㅐㄱ	-7391
▁ㅁㅐㅊㅜㄹ	-7392
▁ㅇㅣㄴㄱㅘ	-7393
▁ㄱㅣㅇㅜㄹㅇㅣ	-7394
▁ㅋㅜㄹㅡ	-7395
▁ㅈㅣㅂㅜㄴ	-7396
▁ㅁㅣㅇㅑㄴㅁㅏ	-7397
▁ㅇㅔㅇ	-7398
▁ㅅㅏㅁㅏ	-7399
ㅇㅏㄷㅏㄴㅣ	-7400
▁ㅇㅠㅊㅜㄹ	-7401
▁ㅇㅓㄹㅁㅏㄴㅏ	-7402
▁ㅈㅓㅇㅊㅣㄱㅏ	-7403
▁ㄱㅣㅈㅏㅇ	-7404
ㅏㄹㅏㅂㅣㅇㅏ	-7405
▁ㅇㅏㅍㅁㅕㄴ	-7406
ㄷㅔㄹㅍㅣㅇㅏ	-7407
▁ㅍㅣㄹㄹㅏㄷㅔㄹㅍㅣㅇㅏ	-7408
▁ㅁㅐㄱㅐ	-7409
ㅎㅜㄱㅜㄴ	-7410
▁ㅇㅏㄱㅁㅏ	-7411
▁ㄱㅏㄹㄹㅏㅈㅣ	-7412
▁ㄷㅏㄴㅇㅝㄴ	-7413
▁ㅅㅓㅇㅈㅓㄴ	-7414
▁ㅈㅜㅍㅏㅅㅜ	-7415
▁ㅁㅗㄹㄹㅏㄱ	-7416
▁ㅈㅡㅇㅎㅜㄱㅜㄴ	-7417
▁ㅎㅓㅂㅡ	-7418
▁ㅎㅗㅍㅕㅇ	-7419
▁ㅊㅓㅇㅇㅝㄴ	-7420
▁ㄷㅏㄺ	-7421
▁ㅇㅕㅅㅜ	-7422
▁ㅌㅡㄹㅐㄴ	-7423
▁ㄱㅘㅁㅗㄱ	-7424
▁ㅂㅗㅇㅣㅇ	-7425
▁ㅇㅗㅋㅣㄴ	-7426
ㅎㅏㄹㅡㅌㅡ	-7427
▁ㄷㅓㅁ	-7428
▁ㅁㅏㅊㅏㄹ	-7429
▁ㅊㅚㅈㅓㄱ	-7430
▁ㅍㅗㅈㅏㅇ	-7431
▁ㄱㅕㅁㅇㅣㅁ	-7432
▁ㄹㅔㅂㅏㄴ	-7433
▁ㅈㅜㅇㅈㅓㅁ	-7434
▁ㅍㅕㄴㄱㅗㄱ	-7435
▁ㅇㅕㄴㄱㅜㅈㅏ	-7436
ㅏㄱㅎㅕㅇ	-7437
te	-7438
▁ㅍㅏㄴㅁㅐㄹㅑㅇ	-7439
▁ㄷㅗㄱㄹㅣㅂㅇㅜㄴㄷㅗㅇㄱㅏ	-7440
▁ㄱㅜㄺ	-7441
▁ㅁㅜㅎㅛ	-7442
OC	-7443
▁ㅇㅣㅇㅝㄴ	-7444
▁ㅇㅡㅇㄷㅏㅂ	-7445
▁ㅎㅘㄴㅇㅝㄴ	-7446
▁ㅊㅜㅇㅈㅗㄱ	-7447
▁ㅇㅜㅈㅜㅅㅓㄴ	-7448
▁103	-7449
▁ㅁㅣㄷㅇㅡㅁ	-7450
▁ㅅㅙ	-7451
▁ㅇㅕㄴㅇㅣㄴ	-7452
▁ㄱㅐㅊㅏㄹㄱㅜ	-7453
▁ㅇㅏㅇㅜㄹㄹㅓ	-7454
▁ㄱㅔㅇ	-7455
▁ㄱㅣㅇㅏㅂ	-7456
▁ㅈㅜㅇㅈㅗㅇ	-7457
▁ㅈㅜㅇㅈㅏㅇ	-7458
▁155	-7459
▁ㄷㅏㄹㅇㅏㄴㅏ	-7460
▁ㅂㅜㄱㄷㅗㅇㅂㅜ	-7461
▁ㅇㅣㅈㅐ	-7462
ㅁㅜㄴㄱㅘㄴ	-7463
▁ㅈㅔㅎㅜ	-7464
▁ㅈㅣㅁㅗㄱ	-7465
▁ㅊㅓㅇㅇㅘ	-7466
ㄷㅗㅇㅁㅜㄹ	-7467
ㅇㅗㅅ	-7468
▁ㅇㅖㅂㅐ	-7469
▁MC	-7470
▁ㅁㅐㄱㅣ	-7471
▁ㅇㅜㅍㅕㄴ	-7472
▁ㅇㅠㅇㅓㄴ	-7473
▁ㅊㅓㄴㅅㅏ	-7474
▁ㅊㅏㅈㅇㅏㅂㅗ	-7475
ㅇㅏㄱㄷㅏㄴ	-7476
▁ㄱㅘㄴㄴㅕㅁ	-7477
▁ㅌㅚㄱㅏㄱ	-7478
▁ㅍㅕㅇㅎㅐㅇ	-7479
▁ㅎㅕㅂㄷㅗㅇ	-7480
▁ㅈㅏㅊㅐㄱㅈㅓㅁ	-7481
▁ㅇㅠㅎㅐ	-7482
ㅡㄴㅣㅇㅏ	-7483
▁ㅊㅓㅇㅇㅘㄷㅐ	-7484
▁ㅁㅜㄴㅈㅔㅈㅓㅁ	-7485
▁ㅅㅗㅈㅣ	-7486
▁Con	-7487
▁ㅇㅗㄹㅔㄴㅈㅣ	-7488
▁ㅇㅣㅇㅣㄴ	-7489
▁ㄱㅗㅇㅇㅣㄴ	-7490
▁ㅇㅗㅋㅏ	-7491
▁ㅌㅗㅋㅡ	-7492
▁ㄱㅔㄹㅡㅁ	-7493
▁ㅌㅡㄹㅏㅇ	-7494
▁ㅎㅐㅇㅕㄱ	-7495
▁ㅇㅣㄴㅎㅕㅇ	-7496
▁ㅇㅗㄷㅣㅇㅗ	-7497
▁Bo	-7498
▁ㅈㅗㅇㅓㄴ	-7499
▁ㅎㅘㄴㅅㅏㅇ	-7500
▁108	-7501
▁ㅂㅗㅊㅜㅇ	-7502
▁ㄱㅗㅅㄱㅗㅅ	-7503
▁ㅅㅓㄴㅇㅝㄴ	-7504
ㅍㅗㅅㅡ	-7505
▁ㄱㅏㅁㅣ	-7506
ㅅㅏㄴㅁㅕㄴ	-7507
▁ㅂㅣㅌㅡㄹㅈㅡ	-7508
▁ㅍㅗㄹㄹㅣㅅㅡ	-7509
▁ㅎㅏㅇㄱㅗㅇㅁㅗㅎㅏㅁ	-7510
▁ㅅㅏㅇㅁㅜ	-7511
▁ㅇㅕㅇㄷㅗㅇ	-7512
▁ㅌㅗㅇㅛㅇㅣㄹ	-7513
▁ㅈㅔㅌㅡ	-7514
▁ㅂㅓㅌㅡㄴ	-7515
▁ㅁㅣㄴㅇㅕㅇ	-7516
▁ㅂㅕㄹㅈㅏㄹㅣ	-7517
▁ㅆㅗㄷ	-7518
▁ㄲㅏㅁ	-7519
▁ㅅㅣㅁㅗ	-7520
▁ㄱㅡㄴㅈㅓㅂ	-7521
▁ㅇㅣㅂㅅㅏㅇ	-7522
▁ㅌㅗㄹㅣ	-7523
▁ㅅㅐㅇㅇㅣㄹ	-7524
▁ㅁㅔㅇㅣㄴ	-7525
▁ㅊㅣㄴㅊㅓㄱ	-7526
▁ㅂㅣㄹㅎㅔㄹㄹㅡㅁ	-7527
ㅗㄱㅣ	-7528
▁ㅅㅓㅇㅁㅗ	-7529
▁ㄴㅏㄱㅗㅇㅑ	-7530
▁ㅇㅏㅇㅗ	-7531
▁ㅇㅣㅂㅏㄴ	-7532
▁ㅇㅏㄹㅡㅁㅔㄴㅣㅇㅏ	-7533
ㄴㅓ	-7534
▁ㅇㅣㅅㅜ	-7535
▁IT	-7536
▁ㅂㅓㅂㄹㅕㅇ	-7537
▁ㅎㅚㄱㅖ	-7538
▁ㅎㅑㅇㄱㅛ	-7539
▁ㅂㅕㄹㄱㅐ	-7540
▁ㅇㅑㅇㅅㅏㅇ	-7541
▁ㅌㅡㄱㅇㅠ	-7542
▁ㅅㅏㄹㅍ	-7543
▁ㄷㅡㄹㄹㅣ	-7544
▁ㅈㅜㄱㅝㄴ	-7545
▁ㄷㅡㄹㅏㅇㅣㅂㅡ	-7546
ber	-7547
▁ㅊㅟㅈㅐ	-7548
ㅅㅡㅌㅔㄹ	-7549
▁ㅇㅏㄴㅣㅎㅏ	-7550
▁ㅍㅓㅅ	-7551
▁ㄱㅔㅈㅐ	-7552
io	-7553
ㅍㅔㅇㅣ	-7554
▁ㅇㅟㄴㄷㅗ	-7555
ㅔㄷㅣ	-7556
▁ㄱㅗㅇㅈㅏ	-7557
▁ㅇㅏㄴㅈㅏㅇ	-7558
▁ㅈㅣㅈㅣㅈㅏ	-7559
▁ㅅㅏㄹㅍㅕㅂㅗ	-7560
▁ㄹㅛㅇ	-7561
ㅏㄴㅌㅡ	-7562
▁ㅈㅣㄴㄹㅣ	-7563
▁ㄸㅓㅇㅗㄹㅡ	-7564
▁ㄴㅐㄴㅐ	-7565
▁ㅎㅜㅈㅏ	-7566
▁ㄴㅜㄴㅁㅜㄹ	-7567
▁ㅎㅐㅇㅜㄴ	-7568
ㅏㅇㅓ	-7569
▁ㅍㅗㅅㅜ	-7570
▁ㅈㅗㅂㅏㄴ	-7571
▁ㅊㅏㅁㄱㅏㅈㅏ	-7572
▁ㅎㅟㅂ	-7573
ㅅㅏㄹㅕㅇ	-7574
▁ㅅㅑㄹㅡㄹ	-7575
▁ㅎㅜㅇㅏㄴ	-7576
▁ㄱㅔㄹ	-7577
▁ㅅㅔㄱㅠㄴ	-7578
▁ㄴㅏㅁㅇㅝㄴ	-7579
▁ㅍㅓㅅㅣㅍㅣㄱ	-7580
▁ㅉㅏㄹㅣ	-7581
▁ㄱㅏㄱㄱㅣ	-7582
ㅡㅂㅜㄹㅡㅋㅡ	-7583
ㅊㅡㅋㅣ	-7584
▁ㅋㅡㄹㅣㅅㅡㅁㅏㅅㅡ	-7585
▁ㅅㅏㅅㅡ	-7586
▁ㅅㅏㅇㅈㅏ	-7587
ㅜㅇㅔㄹㄹㅏ	-7588
▁ㄱㅔㄹㅡㅁㅏㄴ	-7589
ㅌㅜㅁ	-7590
▁ㅅㅜㅅㅓㅇ	-7591
▁ㅅㅡㅇㅊㅏ	-7592
▁ㅎㅚㄱㅕㄴ	-7593
▁128	-7594
▁#	-7595
▁ㅎㅚㅎㅘ	-7596
▁ㅅㅏㅇㅈㅏㅇ	-7597
▁ㅅㅓㅅㅓ	-7598
▁ㅇㅜㅋㅡㄹㅏㅇㅣㄴㅏ	-7599
▁1909	-7600
▁ㅌㅔㅅㅡ	-7601
▁ㅇㅟㅈㅏㅇ	-7602
▁ㄱㅗㅇㄹㅑㄱ	-7603
▁ㅇㅣㅇㅕㅇ	-7604
▁ㄱㅣㅅㅡ	-7605
▁ㅊㅜㅁㅗ	-7606
▁ㅁㅣㄴㅅㅏ	-7607
▁ㅇㅠㄱㅕㄱ	-7608
▁ㅋㅓㄴㅌㅡㄹㅗㄹ	-7609
age	-7610
▁149	-7611
▁ㅇㅒ	-7612
▁ㅁㅐㅅㅏ	-7613
▁ㅇㅠㄱㅛ	-7614
▁ㄹㅔㅈㅓㄴ	-7615
▁ㅅㅏㄴㅌㅏ	-7616
ㅏㄷㅡ	-7617
ㅋㅏㅇㅑㅁㅏ	-7618
▁ㅅㅏㅇㅂㅜ	-7619
▁ㅇㅑㄱㅏㄴ	-7620
ㅂㅏㄷㅊㅣㅁ	-7621
▁ㅂㅏㄱㅌㅏㄹ	-7622
▁ㅅㅡㅇㅁㅜㅇㅝㄴ	-7623
ㅊㅔㄴ	-7624
▁ㅈㅐㅁㅣ	-7625
▁ㄱㅓㄴㅇㅢ	-7626
▁ㅂㅏㄹㅇㅝㄴ	-7627
▁ㅇㅣㄹㅈㅗㄱ	-7628
ㄸㅐㄹㅗ	-7629
▁ㄱㅛㄷㅏㄴ	-7630
▁ㅌㅐㅇㅜ	-7631
ㅂㅐㄱㄱㅘ	-7632
▁ㅍㅏㅌㅡ	-7633
▁ㄱㅛㅈㅏㅇ	-7634
ㄲㅜ	-7635
ㅂㅏㅌ	-7636
ㄹㅏㅁㅎㅚ	-7637
▁ㅅㅡㅌㅔㅍㅏㄴ	-7638
▁102	-7639
▁ㅇㅚㄱㅜㄱㅇㅓ	-7640
ㅌㅏㄴㅣ	-7641
▁ㅇㅏㄱㅜㄴ	-7642
▁ㅂㅗㄱㅈㅏㅇ	-7643
▁ㅇㅣㄹㄱㅘㄴ	-7644
▁ㅇㅣㄹㅉㅣㄱㅇㅣ	-7645
▁ㅎㅏㅇㅣㄴㄹㅣㅎㅣ	-7646
▁ㅎㅔㄷㅡ	-7647
▁ㅇㅏㅇㄹㅣ	-7648
▁ㅌㅖㄴ	-7649
▁ㅇㅚㄱㅘㄱ	-7650
▁ㄷㅗㅇㄷㅡㅇ	-7651
▁ㅅㅏㅇㅛㅇㅈㅏ	-7652
▁ㅇㅝㄴㅈㅏㄹㅗ	-7653
▁ㅇㅏㅁㅜ	-7654
▁ㅌㅓㅈㅣ	-7655
▁$	-7656
▁ㅎㅘㅅㅏㄹ	-7657
ㅂㅔㅅ	-7658
▁ㅇㅕㄴㄷㅗ	-7659
▁ㅎㅗㅊㅣㅇ	-7660
▁ㅃㅐㅇㅏㅅㄱㅣ	-7661
ㄷㅏㄷ	-7662
▁ㅂㅔㄹㅡㅋㅡ	-7663
ㅣㅁㅔ	-7664
▁ㅇㅠㄹㄹㅣ	-7665
▁ㅇㅣㄴㄱㅕㄱ	-7666
ㅌㅣㅇㅏ	-7667
▁ㅅㅏㅇㄱㅗㅇ	-7668
iz	-7669
ㅏㅇㅋㅏ	-7670
▁ㄸㅐㄸㅐㄹㅗ	-7671
▁ㅌㅡㄹㅔㅇㅣㄴ	-7672
ㅈㅣㅂㅎㅏㅂ	-7673
▁ㄷㅜㄷㅡㄹㅓㅈㅣ	-7674
▁ㅈㅜㅇㄷㅗ	-7675
▁ㅈㅏㅂㅏㄹ	-7676
▁ㅅㅣㄹㅈㅗㅇ	-7677
▁ㅇㅣㅅㅏㅈㅏㅇ	-7678
▁ㅅㅐㅇㅁㅕㅇㅊㅔ	-7679
▁ㅈㅓㄴㄹㅖ	-7680
▁ㄷㅗㅇㄱㅜㄱ	-7681
▁ㅅㅣㅊㅓㅇㅈㅏ	-7682
▁ㅈㅜㄴㄱㅕㄹㅅㅡㅇ	-7683
▁ㅌㅏㄹㅡ	-7684
▁ㅈㅣㄴㄷㅗ	-7685
▁ㅇㅣㅇㅓㅅㅓ	-7686
▁ㅂㅗㄷㅡ	-7687
▁ㅊㅣㅅㅔ	-7688
▁ㅇㅣㅇㅓㅂ	-7689
▁ㅌㅡㄹㅓㅁㅍㅡ	-7690
▁ㅇㅣㅅㅡㄹㄹㅏㅁㄱㅛ	-7691
▁ㄱㅓㄴㅊㅜㄱㄱㅏ	-7692
sp	-7693
ㅡㄹㅅㅡ	-7694
▁ㄷㅏㅈㅜㅇ	-7695
▁ㄷㅐㅈㅜㄱㅛ	-7696
▁ㄲㅚ	-7697
ㄹㅕㅈㅜ	-7698
▁ㄷㅜㅅㅏㄴ	-7699
ㅁㅓㄱ	-7700
▁ㄱㅖㅈㅓㄹ	-7701
▁ㅎㅏㅂㅂㅓㅂ	-7702
▁Bl	-7703
▁ㅈㅓㅁㅍㅡ	-7704
▁ㅊㅏㄴㅏㅁ	-7705
▁ㄴㅔㅇㅣㅂㅓ	-7706
▁ㄱㅣㄱㅡㅁ	-7707
▁ㅈㅓㄱㅈㅏ	-7708
▁ㅈㅣㅂㄱㅖ	-7709
ge	-7710
ㄱㅛㅇㅠㄱ	-7711
▁ㅇㅜㄴㄷㅗㅇㅈㅏㅇ	-7712
ㅎㅘㅈㅓㅁ	-7713
ㅅㅡㅌㅣ	-7714
▁ㅅㅓㅇㅈㅜ	-7715
▁ㅁㅔㄷㅣ	-7716
▁ㅂㅣㅇㅏ	-7717
▁ㅁㅐㄹㅕㄱ	-7718
▁ㅇㅣㅌㅡㄹ	-7719
▁ㄱㅡㅁㅇㅐㄱ	-7720
▁ㅇㅕㄱㅁㅕㅇ	-7721
▁ㅇㅙㅅㅓㅇ	-7722
▁ㅅㅓㄲㅇㅣ	-7723
ㄱㅣㅁ	-7724
▁ㅂㅏㄹㅎㅕㄴ	-7725
▁ㅈㅏㅇㅠㄷㅏㅇ	-7726
ㅅㅏㅇㅅㅡ	-7727
▁ㅊㅜㅇㅈㅜ	-7728
▁ㅌㅐㅅㅐㅇ	-7729
▁ㅈㅔㅈㅏㄱㅈㅏ	-7730
▁ㅇㅔㄷㅣ	-7731
▁ㅈㅡㄹㄱ	-7732
ㄱㅕㅇㄱㅣ	-7733
▁ㄹㅔㅇㅣㅈㅓ	-7734
▁ㅅㅏㅇㄷㅐㅂㅏㅇ	-7735
▁ㅌㅔㄱㅅㅡㅌㅡ	-7736
▁ㅇㅔㄹㄹㅣㅂ	-7737
▁ㄱㅡㄹㅏㅇㅍㅡㄹㅣ	-7738
▁ㅎㅗㅇㅟ	-7739
▁ㅇㅔㄹㄹㅣㅂㅔㅇㅣㅌㅓ	-7740
ㅅㅗㅅㅡ	-7741
ㄱㅜㅈㅏㅇ	-7742
▁ㄹㅔㅅㅡㄹ	-7743
▁ㄱㅔㅇㅣㅌㅡ	-7744
▁ㅇㅖㄹ	-7745
▁ㄴㅗㄹㅏㄴㅅㅐㄱ	-7746
▁ㅋㅐㅁㅍㅔㅇㅣㄴ	-7747
▁ㅈㅠ	-7748
ㅗㄹㅏ	-7749
▁ㄱㅕㄱㄹㅕㄹ	-7750
▁ㅎㅣㄷㅔㅇㅛㅅㅣ	-7751
AD	-7752
▁ㅂㅜㅊㅏㄱ	-7753
▁ㅈㅔㄱㅗㅂ	-7754
▁ㅍㅗㄱㅅㅡ	-7755
ㅅㅏㄴㄱㅜㄴ	-7756
▁CPU	-7757
▁ㅇㅠㅋㅣ	-7758
▁ㅅㅡㅌㅔㄹ	-7759
▁ㅇㅕㅈㅣㄴ	-7760
▁ㅍㅗㄷㅗㅈㅜ	-7761
▁ㅇㅔㅇㅣㅅㅡ	-7762
▁ㅈㅓㄴㄷㅐ	-7763
ㅇㅡㄹ	-7764
▁ㄷㅐㄱㅜㄴ	-7765
ㅎㅏㅇㄱㅗㅇ	-7766
▁ㅁㅣㄹㅜ	-7767
▁ㅊㅗㅊㅏㅇ	-7768
▁ㅈㅏㄱㅗ	-7769
▁ㄱㅏㅁㅈㅣ	-7770
▁ㅈㅓㅇㅁㅣㄹ	-7771
▁ㅇㅠㅅㅗㄴㅕㄴ	-7772
▁ㄴㅐㅈㅣ	-7773
▁ㅁㅕㅇㅇㅢ	-7774
▁ㅊㅜㅈㅡㅇ	-7775
▁ㅍㅗㄱㅘㄹ	-7776
▁ㅂㅡㄹㄹㅜㅅㅡ	-7777
▁ㅅㅏㅇㅜㄷㅣㅇ	-7778
▁ㅅㅏㅇㅜㄷㅣㅇㅏㄹㅏㅂㅣㅇㅏ	-7779
▁ㄷㅐㅇㅕㄱ	-7780
▁ㄷㅗㅇㄷㅏㅇ	-7781
▁ㅈㅣㄱㅊㅐㄱ	-7782
▁ㄹㅗㅁㅐㄴㅅㅡ	-7783
▁ㅇㅟㅋㅣㅂㅐㄱㄱㅘ	-7784
▁ㄷㅏㄷ	-7785
▁ㄱㅗㅊㅔ	-7786
▁ㅂㅏㄴㄱㅕㄱ	-7787
▁ㄱㅏㄹㅡㅊㅣㅁ	-7788
▁ㅇㅏㄹㅂㅏㄴㅣㅇㅏ	-7789
▁ㅈㅜㅇㄱㅜㄱㅇㅣㄴ	-7790
ㅅㅜㅇㅏ	-7791
▁1915	-7792
ㅏㄴㅎㅣ	-7793
ㅍㅡㄹㅗㅅㅡ	-7794
▁ㅁㅜㄴㅇㅑㅇ	-7795
▁ㅂㅜㄴㄱㅘㅇ	-7796
▁ㅂㅔㄴㅔㅅㅜㅇㅔㄹㄹㅏ	-7797
▁ㄱㅡㅁㅏㄴㄷㅜ	-7798
ㅁㅏㅊㅣ	-7799
▁ㅈㅜㅈㅣㅅㅏ	-7800
▁ㄱㅘㅇㄴㅕㄴ	-7801
▁ㅍㅕㄹㅊㅕㅈㅣ	-7802
▁ㄷㅐㅇㅚ	-7803
▁ㅌㅔㄴㅣㅅㅡ	-7804
ㅁㅕㅇㅅㅏㅈㅓㄴ	-7805
▁ㅇㅔㅅㅡㅍㅏㄴㅑ	-7806
ㅖㅍㅡ	-7807
▁147	-7808
▁ㅁㅔㄱㅏ	-7809
▁ㅂㅜㅊㅓㄴ	-7810
ㅈㅏㅊㅣㄷㅗ	-7811
▁ㅈㅔㅈㅜㅌㅡㄱㅂㅕㄹ	-7812
ㅣㅊㅣ	-7813
orld	-7814
▁ㄱㅣㅅㅜ	-7815
ㄷㅜㅎㅘㄴ	-7816
▁ㅊㅓㅇㅈㅏㅇ	-7817
▁ㅁㅜㄴㅈㅐㅇㅣㄴ	-7818
▁ㅅㅓㄲ	-7819
▁ㅁㅣㅎㅏㅇ	-7820
▁ㄱㅜㅇㅈㅓㅇ	-7821
▁127	-7822
ㅂㅗㄱㅣ	-7823
▁ㅌㅏㅋㅏ	-7824
▁ㄱㅗㄹㅐ	-7825
ㄸㅡ	-7826
▁ㄱㅏㅇㄱㅘ	-7827
▁ㄷㅜㄹㄹㅔ	-7828
▁ㅅㅜㅍㅕㅇ	-7829
▁ㄴㅏㅁㅎㅏㄴ	-7830
▁ㅋㅏㅈㅏㅎㅡ	-7831
▁ㄹㅔㅈㅓㄴㄷㅡ	-7832
▁ㅅㅗㅇㄴㅏㄹㅏ	-7833
ㅊㅏㄹㅖ	-7834
▁ㅌㅏㅁㅈㅣ	-7835
▁ㄱㅗㅂㅏㄹ	-7836
▁ㅋㅏㅁㅂㅗ	-7837
ㅍㅏㄱ	-7838
▁ㅌㅓㄱ	-7839
▁1913	-7840
▁ㅅㅔㄴㅅㅓ	-7841
ㅊㅏㅇㄱㅜㄴ	-7842
ㅅㅓㄹㅣ	-7843
▁ㅇㅜㄹㄹㅣ	-7844
▁ㅊㅏㅇㄱㅓㄴ	-7845
▁al	-7846
▁ㄴㅜㄹ	-7847
▁ㅁㅜㄴㅎㅏㄱㅅㅏㅇ	-7848
ik	-7849
▁171	-7850
▁ㅇㅗㄹㅗ	-7851
▁ㅅㅓㅂㅊㅟ	-7852
ㅏㄴㄷㅏ	-7853
▁ㅇㅏㄱㅏ	-7854
▁ㄷㅐㄷㅏㅂ	-7855
▁ㅅㅏㅇㅅㅔ	-7856
▁ㄴㅏㄴㅁㅣㄴ	-7857
▁ㄹㅡㄴㅔㅅㅏㅇㅅㅡ	-7858
ㅏㅋㅏ	-7859
ㅅㅣㅌㅣ	-7860
▁ㅎㅑㅇㅎㅜ	-7861
▁ㄲㅜㄹ	-7862
▁ㄴㅏㄹㅣ	-7863
▁ㄷㅗㅅㅡ	-7864
ㄷㅡㄹㅣㄱ	-7865
ㅊㅜㅇㅝㄴ	-7866
▁ㅁㅓㅅㅣㄴ	-7867
▁ㅊㅜㄱㅕㄱ	-7868
ㅊㅣㄹㄹㅣㅇㅏ	-7869
▁ㅁㅔㅌㅏ	-7870
▁ㅅㅓㅅㅓㅎㅣ	-7871
ㅁㅜㄴㅔ	-7872
ㅍㅗㅌㅡ	-7873
▁ㄷㅏㄴㅣㅇㅔㄹ	-7874
▁ㅅㅗㄴㄱㅏㄹㅏㄱ	-7875
▁ㄱㅘㅇㅂㅜ	-7876
▁ㅍㅡㄹㅐㅇㅋㅡ	-7877
▁ㅎㅜㅁ	-7878
ㄹㅏㄷㅡ	-7879
▁ㄱㅣㄴㅈㅏㅇ	-7880
▁ㅅㅜㄱㅜㄴ	-7881
▁ㄷㅏㄴㅈㅓㅁ	-7882
▁ㅌㅗㅁㅏ	-7883
▁ㄷㅙㅈㅣ	-7884
▁ㄷㅏㄴㄱㅣ	-7885
▁ㅅㅣㄴㅈㅜㅇ	-7886
ㅍㅗㄱㅜ	-7887
▁ㅍㅜㄴ	-7888
▁ㅌㅐㅅㅜ	-7889
▁ㅂㅜㄱㄱㅜ	-7890
ㅍㅕㅇㄱㅜㄴ	-7891
▁ㅌㅗㅇㅊㅣㅇ	-7892
▁ㅍㅐㅇㅊㅏㅇ	-7893
▁1895	-7894
▁ㅅㅏㅋㅏ	-7895
▁ㅅㅗㅁ	-7896
▁ㅅㅣㄴㅎㅡㅇ	-7897
▁ㅊㅓㄴㅁㅜㄴㅎㅏㄱㅈㅏ	-7898
▁ㅃㅗㅂㅎㅣ	-7899
▁ㄷㅣㅅㅡㅍㅡㄹㄹㅔㅇㅣ	-7900
ㅋㅡㅇ	-7901
▁ㅂㅐㅌㅡㄹ	-7902
▁ㅇㅗㄴㅊㅓㄴ	-7903
▁ㅇㅝㄴㅂㅏㄴ	-7904
▁ㄴㅏㄱㅏㅅㅏㅋㅣ	-7905
▁ㅅㅜㄹㅕㅁ	-7906
▁ㅊㅜㄹㅌㅗ	-7907
▁SP	-7908
▁ㅂㅜㄱㅘ	-7909
▁ㅊㅏㅇㅅㅣ	-7910
▁ㅎㅜㅇㅣㄹ	-7911
▁ㄷㅏㅎ	-7912
▁ㅂㅓㅂㅈㅔ	-7913
▁GT	-7914
▁ㅅㅗㄱㅅㅓㅇ	-7915
▁ㄴㄷㅏ	-7916
EN	-7917
▁ㅅㅣㅇㅗ	-7918
ㅅㅏㄴㄹㅣ	-7919
▁ㅊㅗㅇㅕㄴ	-7920
▁ㅍㅜㅅㅂㅗㄹ	-7921
▁ㅇㅗㅋㅣㄴㅏㅇㅘ	-7922
ㅏㅇㅣㅇㅓ	-7923
ㅋㅡㄹㅣㅌㅡ	-7924
▁ㄱㅏㅇㄱㅕㅇ	-7925
▁ㅊㅗㅊㅏㅇㄱㅣ	-7926
▁141	-7927
▁ㄸㅏㄸㅡㅅ	-7928
▁ㅇㅣㅂㅊㅔ	-7929
▁ㅂㅜㄱㅂㅏㅇ	-7930
▁Tr	-7931
▁ㅎㅗㅅㅔ	-7932
▁ㄴㅓㄼㅎㅣ	-7933
▁ㄷㅗㅇㄴㅕㄴ	-7934
▁ㄷㅏㅇㅜㄴㄹㅗㄷㅡ	-7935
▁ㅇㅓㄴㄹㅗㄴㅇㅣㄴ	-7936
▁ㅁㅕㅇㅁㅗㄱ	-7937
▁ㅂㅜㄱㅅㅓㅂㅜ	-7938
▁ㅍㅏㄹㄹㅔㅅㅡㅌㅏㅇㅣㄴ	-7939
ㅍㅗㅇ	-7940
▁ㅊㅜㅅㅏㅇ	-7941
MS	-7942
ㅅㅜㄹㅣ	-7943
ㅏㄹㄹㅏ	-7944
▁ㅈㅗㄴㅈㅜㅇ	-7945
▁ㄹㅏㅇㅣㅇㅓㄴ	-7946
▁ㄱㅣㅁㅇㅕㅇㅅㅏㅁ	-7947
ㅃㅏㄹ	-7948
▁ㅁㅜㅈㅔ	-7949
ㅌㅔㅇㅣㄴ	-7950
ㅅㅐㅇㅎㅘㄹ	-7951
▁ㅁㅜㄴㅎㅘㅂㅏㅇㅅㅗㅇ	-7952
ㄹㅣㅇㅔ	-7953
▁ㅁㅜㄹㅈㅏ	-7954
▁ㅂㅣㅁㅜㄴ	-7955
▁ㅅㅣㅁㅇㅢ	-7956
▁ㅈㅓㄴㅎㅏㅁ	-7957
ust	-7958
▁ㄷㅗㅇㄷㅗㄱ	-7959
▁169	-7960
ㅎㅐㅇㅇㅟ	-7961
▁ㄱㅐㄱㅘㄴ	-7962
▁ㅅㅜㅇㅂㅐ	-7963
▁ㅁㅕㅊㅣㄹ	-7964
▁ㅅㅏㅈㅓㄹ	-7965
▁ㅇㅣㅈㅣㄴ	-7966
▁ㄱㅗㄹㅍㅡ	-7967
▁ㅈㅓㄱㄷㅐ	-7968
ㄱㅗㅁ	-7969
▁ㅊㅚㅅㅗㅎㅏㄴ	-7970
int	-7971
▁ㄷㅏㅁㅏ	-7972
ㅇㅓㄷㅡㄹㅇㅣ	-7973
▁ㅈㅓㄱㅣㅇㅏㅂ	-7974
▁ㄹㅣㅁㅔㅇㅣㅋㅡ	-7975
▁135	-7976
▁ㅋㅐㅅㅡㅌㅣㅇ	-7977
▁ㅇㅟㄹㄹㅣㅇㅓㅁㅅㅡ	-7978
ep	-7979
▁144	-7980
ㅇㅓㅇㅗ	-7981
▁ㄱㅣㅁㅈㅣㄴ	-7982
▁ㅈㅜㅊㅜㄱ	-7983
▁ㄷㅗㅎㅗㅋㅜ	-7984
▁ㅂㅕㅇㅇㅕㄱ	-7985
▁ㅇㅏㅂㅔㄹ	-7986
▁ㅋㅝ	-7987
▁ㄱㅟㅈㅜㅇ	-7988
▁ㅂㅡㄹㅏㅇㅜ	-7989
▁ㅅㅜㅅㅜ	-7990
ㅈㅏㅅㅡ	-7991
▁ㅅㅡㅌㅣ	-7992
▁ㄱㅏㅂㅈㅏㄱ	-7993
▁ㅇㅣㅇㅓㅂㅏㄷ	-7994
▁111	-7995
▁ㅈㅜㅊㅏ	-7996
▁ㅇㅑㅇㅈㅜ	-7997
▁ㅈㅏㅁㅏㅈㅏ	-7998
▁ㅈㅓㄴㄷㅜㅎㅘㄴ	-7999
ㄹㅕㅁ	-8000
ㅇㅕㅈㅣ	-8001
▁ㄱㅜㄱㅅㅏ	-8002
▁ㅊㅣㅁㅁㅗㄹ	-8003
▁ㅈㅏㄱㅣㅈㅏㅇ	-8004
▁ㅅㅜㄹㅕㅇ	-8005
▁ㅎㅏㅇㅜ	-8006
ㅅㅓㄱㄱㅣ	-8007
▁ㅅㅗㅅㅣㄹ	-8008
▁ㅇㅓㅇㅓㅂ	-8009
▁ㅋㅓㄹㄹㅓ	-8010
▁ㅎㅗㅇㅅㅜ	-8011
▁ㄲㅙ	-8012
▁ㅂㅏㅅㅣㄹ	-8013
▁ㅋㅓㅁㅍㅓㄴㅣ	-8014
▁ㅊㅗㅇㅅㅓㄴㄱㅓ	-8015
▁ㅇㅏㅈㅗㅇ	-8016
▁ㅇㅣㅁㅣㄴㅈㅏ	-8017
▁ㅅㅏㅇㄷㅏㅇㅅㅜ	-8018
▁119	-8019
▁ㅅㅡㅌㅐ	-8020
▁ㅊㅣㄴㅇㅣㄹㅇㅣㄴ	-8021
▁CO	-8022
▁ㄱㅗㅇㅊㅐ	-8023
▁ㄴㅏㅈㅊㅜ	-8024
▁ㅇㅗㄱㅅㅡ	-8025
ㅣㅇㅐ	-8026
▁ㅎㅜㅅㅔ	-8027
▁ㅊㅗㅇㄱㅘㄹ	-8028
▁ㅁㅜㅈㅚ	-8029
▁ㅋㅡㄹㅏ	-8030
GC	-8031
▁ㄴㅏㅈㅜ	-8032
▁ㅅㅡㅌㅓ	-8033
▁ㄱㅖㅁㅗㅇ	-8034
▁ㅍㅕㅇㅇㅑ	-8035
▁ㅅㅣㄱㅗㅇ	-8036
▁ㅇㅕㅇㄹㅣ	-8037
▁ㄱㅐㅁㅣ	-8038
▁ㄷㅐㅍㅗ	-8039
▁ㅁㅜㄹㅕ	-8040
▁ㅊㅗㅅㅏㅇㅎㅘ	-8041
▁ㅅㅜㅇㅛㅇㅅㅗ	-8042
▁ㅋㅡㄹㄹㅣ	-8043
▁ㅅㅓㅂㅈㅓㅇ	-8044
▁ㄱㅛㅇㅚ	-8045
▁ㅁㅛㅇㅕㄱ	-8046
▁ㄷㅓㄱㅡㄹㄹ	-8047
▁ㅈㅓㅇㅈㅓㄴ	-8048
▁ㅍㅕㅇㅇㅣㄹ	-8049
ude	-8050
▁TH	-8051
▁ㄱㅗㅁㅜ	-8052
▁ㅅㅡㅌㅗㅇ	-8053
▁ㅇㅏㄷㅏㅁ	-8054
▁ㄱㅚㅇㅈㅏㅇ	-8055
ㅔㅇㅓ	-8056
▁ㄱㅣㅁㅅㅏㅇ	-8057
▁ㅂㅕㄹㅊㅣㅇ	-8058
▁ㅇㅠㄴㅣㅂㅓ	-8059
▁ㅍㅕㅇㅇㅝㄴ	-8060
▁ㅇㅠㄴㅔㅅㅡㅋㅗ	-8061
▁ㅎㅕㅂㅈㅗ	-8062
▁ㅁㅗㄴㅌㅡㄹ	-8063
▁ㅎㅡㅌㅇㅓㅈㅣ	-8064
▁ㅇㅣㄴㅈㅐ	-8065
▁ㅇㅓㄴㅈㅔㄴㅏ	-8066
▁ㅌㅏㅁㅏ	-8067
ㅍㅐㄱㅌㅡ	-8068
▁ㅅㅡㅍㅏㄹㅡㅌㅏ	-8069
▁ㅊㅟㅈㅣ	-8070
ㅋㅣㅈㅣ	-8071
▁ㅅㅓㅅㅏ	-8072
▁ㅍㅐㅅㅡ	-8073
▁ㅅㅣㄹㅏ	-8074
▁ㅇㅓㅅㅡ	-8075
▁ㅍㅖㅇㅟ	-8076
▁ㅎㅐㅂㅕㅇㄷㅐ	-8077
▁ㅁㅗㄴㅌㅡㄹㅣㅇㅗㄹ	-8078
▁ㅅㅣㄱㅂㅕㄹ	-8079
▁172	-8080
▁ㄹㅗㅍㅡ	-8081
▁ㅎㅏㅂㅜ	-8082
▁ㅇㅏㅅㅏㅎㅣ	-8083
▁ㅎㅜㄷㅐ	-8084
▁ㅇㅠㅇㅕㄴ	-8085
▁ㅇㅡㅁㅇㅝㄴ	-8086
▁ㅊㅗㄱㄱㅜ	-8087
ib	-8088
▁ㅈㅓㅁㅕㅇ	-8089
ㅎㅡㅁ	-8090
ㅗㅇㅣㄴ	-8091
▁ㅇㅚㅇㅑ	-8092
▁ㅈㅓㄴㄷㅗ	-8093
ㅏㅂㅔ	-8094
▁ㅋㅏㄹㅣㅂㅡ	-8095
▁It	-8096
ㅌㅡㄹㄹㅐㄴ	-8097
▁ㅂㅏㅇㅊㅣㅁ	-8098
▁ㅅㅓㅇㅜㄹㄷㅐ	-8099
▁ㅅㅣㄴㅎㅏㄱㄱㅛ	-8100
▁ㅈㅣㅍㅖ	-8101
▁ㄷㅐㅇㅜㅇ	-8102
▁ㅋㅏㅁㅂㅗㄷㅣㅇㅏ	-8103
▁ㅂㅜㄱㅇㅟ	-8104
▁ㄷㅗㅇㄹㅕㄱ	-8105
▁106	-8106
▁ㅁㅐㅋㅏ	-8107
▁ㅎㅏㄴㄷㅗㅇㅇㅏㄴ	-8108
▁ㅁㅗㅅㅡ	-8109
▁ㅂㅏㄹㅣ	-8110
▁ㅈㅏㅇㅁㅣ	-8111
▁ㅊㅏㄱㅣ	-8112
▁ㅍㅕㄴㄹㅣ	-8113
ㅡㅂㅏㅇㅣ	-8114
ㅍㅡㅁ	-8115
▁ㅇㅗㅍㅡ	-8116
▁ㅈㅣㄴㄱㅜㄴ	-8117
▁ㄹㅏㅇㅣㅂㅡㄹ	-8118
▁ㄴㅏㅅ	-8119
▁ㅌㅏㄹㅎㅘㄴ	-8120
▁ㅅㅡㄹㅣㄹㄹㅓ	-8121
▁ㄴㅐㅇㅚ	-8122
▁ㅇㅏㅇㅣㅅㅡㄹㄹ	-8123
▁ㅋㅓㄹㄹㅓㅁㅂㅣㅇㅏ	-8124
▁ㅇㅐㄷㅓㅁ	-8125
ome	-8126
▁ㄷㅐㅊㅓ	-8127
▁ㅇㅏㅂㅔ	-8128
▁ㄴㅏㄹㅉㅏ	-8129
▁ㅈㅗㄷㅏㄹ	-8130
▁ㅋㅗㄹㄹㅏ	-8131
▁ㅊㅏㅈㅇㅏㄴㅐ	-8132
▁ㄹㅣㅇㅋㅓㄴ	-8133
▁ㅇㅜㄹㅏㄴㅠㅁ	-8134
▁ㄸㅐㄹㅣ	-8135
▁ㅅㅣㄴㅅㅔ	-8136
▁ㄲㅓㅂㅈㅣㄹ	-8137
▁ㅈㅜㅇㅊㅜㅇㅝㄴ	-8138
ㅅㅓㄴㅅㅡ	-8139
▁ㄱㅗㅂㅐㄱ	-8140
▁ㄱㅘㄴㄹㅏㅁ	-8141
▁ㅅㅡㅌㅣㅂㅡ	-8142
▁ㅈㅓㄴㅇㅏㅂ	-8143
▁ㅇㅣㄱㅡㄹㅅㅡ	-8144
ㅈㅣㅇㅘ	-8145
▁ㅇㅗㅃㅏ	-8146
▁ㄴㅏㄱㅅㅓㄴ	-8147
ㅁㅔㄴ	-8148
ㅂㅏㄱㅈㅟ	-8149
▁ㅆㅡㄹㅓㅈㅣ	-8150
▁ㅈㅓㅇㄹㅕㄹ	-8151
▁ㅈㅜㅇㄹㅑㅇ	-8152
▁ㅇㅕㄴㅅㅔㄷㅐ	-8153
▁ㅇㅐㄴㅣ	-8154
▁ㄱㅗㅇㅁㅗ	-8155
▁ㅎㅏㅁㅇㅠ	-8156
▁ㄴㅏㅌㅁㅏㄹ	-8157
▁ㅊㅜㅇㅂㅜㄱ	-8158
ian	-8159
▁ㄱㅣㅅㅡㅂ	-8160
▁ㅈㅔㄱㅏㄹ	-8161
▁ㅅㅣㅂㅈㅏㄱㅏ	-8162
▁ㄷㅐㅈㅔ	-8163
ㅐㅅㅕㄴㅓㄹ	-8164
▁ㅇㅣㄴㅌㅓㄴㅐㅅㅕㄴㅓㄹ	-8165
ㄱㅣㅈㅣ	-8166
ㅅㅔㅊㅡ	-8167
▁ㅇㅜㄹㅏ	-8168
▁ㅌㅔㄹㅔ	-8169
▁ㅇㅣㄱㅘㅇ	-8170
▁ㅂㅐㄱㅇㅏㄱ	-8171
ment	-8172
▁ㅇㅠㄴㅊㅣ	-8173
▁ㅍㅜㅇㄱㅕㅇ	-8174
ㅏㄷㅣㅁ	-8175
▁ㄷㅡㅇㅈㅐ	-8176
▁ㅇㅐㄴㄷㅡ	-8177
▁ㄱㅐㄱㄱㅘㄴ	-8178
▁ㅁㅐㅅㅏㅊㅜ	-8179
▁ㅅㅏㅇㅣㅂㅓ	-8180
▁ㅂㅡㄹㄹㅏㄷㅣㅁ	-8181
▁ㄱㅛㅇㅑㅇ	-8182
▁ㅁㅕㄴㅎㅏ	-8183
▁ㅇㅣㄴㅅㅏㄴ	-8184
▁ㅈㅏㅇㅇㅏㄴ	-8185
▁ㅇㅏㅌㅡㄹㄹㅔ	-8186
▁CE	-8187
▁ㅇㅠㅅㅜ	-8188
▁ㅂㅓㄴㅇㅕㅇ	-8189
▁ㅁㅐㅅㅏㅊㅜㅅㅔㅊㅡ	-8190
▁ㅇㅣㅁㅏ	-8191
ㅏㄹㅣㅇㅗ	-8192
▁ㅇㅏㅇㅣㅌㅔㅁ	-8193
▁ㅋㅗㄴㅋㅡㄹㅣㅌㅡ	-8194
ere	-8195
▁ㄴㅜㅂ	-8196
▁ㅌㅜㄱ	-8197
ㅍㅡㄹㅏㅇ	-8198
▁ㄴㅗㅂㅜㄴ	-8199
▁ㅁㅜㅅㅏㅇ	-8200
▁ㅅㅗㅌㅗㅇ	-8201
▁ㅎㅠㅅㅣㄱ	-8202
▁We	-8203
▁ㅊㅗㅇㄷㅐ	-8204
▁ㅂㅜㄹㅍㅕㄴ	-8205
▁ㅍㅡㄹㅏㅇㅅㅜㅇㅏ	-8206
▁ㅈㅜㅇㅈㅐ	-8207
▁ㅁㅏㅎㅏ	-8208
▁ㅎㅐㅂㅕㄴ	-8209
ㅅㅓㄱㅌㅏㅂ	-8210
ㅣㅇㅓㅂ	-8211
▁ㅇㅣㅅㅣㄱ	-8212
▁ㅈㅜㅇㅅㅜㄴ	-8213
▁ㅎㅛㄹㅕㄱ	-8214
ㅊㅡㅇㅅㅓㄱㅌㅏㅂ	-8215
▁ㅅㅣㄴㅎㅏㄱㅈㅏ	-8216
ㄹㅜㅅㅕㄴ	-8217
▁ㅅㅓㅅㅏㄴ	-8218
▁ㅈㅔㅅㅜ	-8219
▁ㄷㅏㅎㅏㅇ	-8220
▁ㅅㅓㄴㅈㅗㅇ	-8221
▁ㄹㅏㅇㅣㅅㅓㄴㅅㅡ	-8222
pe	-8223
▁ㄹㅣㅊㅣ	-8224
▁ㅂㅏㅋㅟ	-8225
ㅊㅣㅇㅝㄴ	-8226
▁ㅇㅔㅅㅡㅌㅗㄴ	-8227
ire	-8228
▁ㅋㅔㄴㅔㄷㅣ	-8229
▁ㅅㅡㅍㅔㅇㅣㄴㅇㅓ	-8230
▁ㄱㅛㅇㅝㄴ	-8231
▁ㄷㅡㄴㅈㅣ	-8232
▁ㅈㅡㅇㅈㅣㄴ	-8233
▁ㅎㅜㅈㅣㅇㅘ	-8234
▁ㅅㅏㅇㅣㅋㅡㄹ	-8235
▁ㅈㅓㄴㅅㅓㅇㄱㅣ	-8236
▁ㅅㅡㅍㅔㅇㅣㅅㅡ	-8237
ㅅㅣㄹㄹㅗㄱ	-8238
▁ㄱㅘㄴㅌㅗㅇ	-8239
▁ㄷㅗㄹㅇㅕㄴ	-8240
▁ㅇㅏㄹㅣㅅㅡ	-8241
▁ㅈㅗㅇㄱㅕㄹ	-8242
▁ㄹㅣㅂㅓㅍㅜㄹ	-8243
ㅂㅓㄹㄹㅔ	-8244
▁ㅁㅔㄹㄹㅗ	-8245
▁ㅇㅏㄹㅔㄴㅏ	-8246
▁ㅍㅕㅇㅌㅐㄱ	-8247
▁ㅁㅗㄹㅇㅏㄴㅐ	-8248
▁ㅇㅚㄱㅛㄱㅘㄴ	-8249
▁ㄷㅐㅈㅓㄴㄱㅘㅇㅇㅕㄱㅅㅣ	-8250
▁HT	-8251
▁ㅂㅡㄹㅐ	-8252
▁ㄹㅗㄱㅗ	-8253
▁ㅇㅢㅅㅏㅇ	-8254
▁ㅇㅏㅂㅏ	-8255
▁ㄷㅏㄴㅅㅣㄱ	-8256
▁ㅅㅐㅇㅈㅓㄴ	-8257
▁ㅌㅗㅇㄱㅡㄴ	-8258
▁ㅇㅠㄴㅣㅍㅗㅁ	-8259
▁ㅍㅔㄹㅡㄴㅏㄴ	-8260
▁ㄴㅔㅇㅣㅅㅕㄴㅅㅡ	-8261
ㄴㅏㄱ	-8262
▁ㄷㅐㅇㅟ	-8263
▁ㅅㅡㅋㅐㄴ	-8264
ide	-8265
ㅅㅣㄹㅗ	-8266
▁ㄴㅏㄹㅡ	-8267
▁ㅊㅗㄱㅘ	-8268
ㅍㅡㄹㄹㅓ	-8269
▁ㅁㅏㄴㅅㅔ	-8270
ace	-8271
▁ㅇㅘㅇㅣㄹ	-8272
▁ㅇㅝㄴㄱㅗ	-8273
▁ㅈㅏㅇㄹㅗ	-8274
▁ㄱㅗㅇㄷㅏㄴ	-8275
▁ㅅㅣㄹㅈㅓㄴ	-8276
ㄷㅜㄹㅡ	-8277
▁ㅇㅏㅁㅅㅓㄱ	-8278
▁ㅂㅏㅇㅍㅐ	-8279
▁ㅈㅣㅎㅖ	-8280
▁ㅍㅏㅇㅓㅂ	-8281
▁ㅇㅏㅅ	-8282
▁ㅋㅏㅁㅔㄹ	-8283
▁ㅈㅣㅋ	-8284
▁ㅅㅗㅎㅘㄴ	-8285
▁ㅇㅝㄴㄴㅐ	-8286
▁ㅊㅜㅇㅅㅣㄹ	-8287
ㅏㅁㅈㅟ	-8288
▁ㅅㅣㄴㄱㅣ	-8289
▁ㅇㅜㅇㅕㄴㅎㅣ	-8290
▁ㄹㅗㅇㅕㄹ	-8291
▁IBM	-8292
▁ㅅㅓㄴㅏㅁ	-8293
▁ㅎㅠㅈㅓㄴ	-8294
ㅓㄴㅣㅈㅡㅁ	-8295
ㅅㅏㄱㅏ	-8296
IM	-8297
▁ㅁㅣㅌㅗ	-8298
▁ㅅㅣㄱㅔ	-8299
▁ㅅㅣㅎㅡㅇ	-8300
▁ㅎㅔㄹㄹㅔㄴ	-8301
ㅏㅂㅡ	-8302
ㄹㅓㅅㅡ	-8303
ㅔㅇㅣㅁㅓ	-8304
▁ㅇㅟㅇㅣㅁ	-8305
▁ㅍㅕㅇㅂㅓㅁ	-8306
▁ㅎㅘㅇㅌㅐㅈㅏ	-8307
▁ㅋㅏㅇㅣㄹ	-8308
▁TO	-8309
▁ㅎㅡㅁ	-8310
▁ㅂㅕㅇㅈㅗ	-8311
▁ㅂㅡㄹㅏㅇㅜㅈㅓ	-8312
▁ㅊㅐㄱㅇㅣㅁㅈㅏ	-8313
ㄸㅏㄹㅡ	-8314
▁ㅊㅚㅈㅓ	-8315
▁ㅇㅣㄹㅎㅘ	-8316
▁ㅂㅏㄹㅌㅡ	-8317
▁ㅂㅗㅇㅘㄴ	-8318
▁ㄱㅓㄱㅈㅓㅇ	-8319
▁ㅂㅜㄹㅁㅕㅇ	-8320
cl	-8321
ㅈㅣㄹㅣㅇㅏ	-8322
▁ㅅㅡㅇㅈㅓㅁ	-8323
▁ㄴㅏㅇㅣㅈㅣㄹㅣㅇㅏ	-8324
▁148	-8325
ㅇㅓㅇ	-8326
▁ㄱㅗㅁㅣㄴ	-8327
▁ㅂㅡㄹㅜㄴ	-8328
▁ㅇㅕㄱㅅㅓㄹ	-8329
▁ㅁㅜㄹㄹㅣㅎㅏㄱㅈㅏ	-8330
ㅎㅏㅅㅣ	-8331
▁ㅅㅏㅅㅡㄹ	-8332
▁ㅇㅏㅈㅔㄹ	-8333
▁ㅎㅏㄴㅅㅓㅇㅂㅜ	-8334
▁ㅁㅏㅂㅣ	-8335
▁ㅇㅔㅇㅜ	-8336
ㅅㅡㄹㅓㅂ	-8337
▁ㄱㅗㅇㅈㅣㄱ	-8338
ㅌㅏㄹㅗ	-8339
▁ㅇㅕㄴㅍㅐ	-8340
▁ㅍㅛㅁㅕㅇ	-8341
▁ㅍㅓㅅㅔㄴㅌㅡ	-8342
▁ㅎㅏㄹㄹㅣㅇㅜㄷㅡ	-8343
ㅍㅗㄷㅡ	-8344
▁ㄴㅐㅈㅜ	-8345
▁ㄴㅣㅅㅍㅗㄴ	-8346
▁ㅇㅑㄱㅊㅣㅇ	-8347
ㄱㅏㄹㅜ	-8348
▁ㅅㅣㄷㅡ	-8349
▁ㅁㅏㅇㅑㄱ	-8350
▁ㅁㅏㅇㅣㄴㅓ	-8351
▁ㅅㅣㄹㅅㅣㄱㅏㄴ	-8352
▁ㄷㅏㅊㅣ	-8353
ㅈㅜㅇㅢㅈㅏ	-8354
▁ㄲㅡㄶㅇㅣㅁ	-8355
▁ㅇㅏㄴㅅㅓㅇ	-8356
ㅡㅂㅏㅇㅣㅈㅏㄴ	-8357
▁ㅇㅏㅈㅔㄹㅡㅂㅏㅇㅣㅈㅏㄴ	-8358
▁ㄲㅡㅀ	-8359
▁ㅅㅓㄴㄱㅜ	-8360
▁ㅇㅜㅇㅜㄹ	-8361
▁ㅈㅏㅈ	-8362
▁ㄱㅣㄷㅏㄴ	-8363
▁ㅇㅏㅅㅏㄴ	-8364
▁ㅂㅏㅌㅣ	-8365
▁ㅇㅠㅇㅏ	-8366
▁ㅊㅐㅁㅜ	-8367
▁ㅇㅣㅇㅗ	-8368
▁ㅇㅣㅂㅈㅣ	-8369
▁ㅈㅏㅇㄴㅏㄴ	-8370
▁ㅂㅗㅅㅡㄴㅣㅇㅏ	-8371
▁136	-8372
▁ㅇㅔㅌㅣㅇㅗ	-8373
▁ㅎㅕ	-8374
▁ㅅㅏㅂㅏ	-8375
▁ㅅㅜㄴㅎㅚ	-8376
▁ㅅㅛㅌㅡ	-8377
▁ㅇㅓㄹㅏ	-8378
▁ㅅㅏㄴㄹㅣㅁ	-8379
▁ㅂㅜㅊㅐ	-8380
▁ㅈㅜㄱㅓ	-8381
▁ㄱㅏㄴㅎㅗ	-8382
▁ㅂㅐㅌㅓㄹㅣ	-8383
▁ㄱㅗㅇㅇㅢㅎㅚ	-8384
▁ㅅㅏㅎㅚㅎㅏㄱ	-8385
▁ㄱㅜㄹㅡㅇ	-8386
▁ㅇㅓㅂㄱㅖ	-8387
▁ㅍㅏㅈㅏㅇ	-8388
▁ㅈㅓㅇㅁㅏㄹ	-8389
▁ㅈㅜㅇㅅㅣㅁㅂㅜ	-8390
▁ㄷㅓㅍㅇㅣ	-8391
▁ㅇㅠㄱㅈㅣ	-8392
▁ㅍㅕㅇㅎㅏ	-8393
▁ㅅㅏㅁㅈㅣㄴ	-8394
▁ㅇㅣㄴㅇㅕㄴ	-8395
▁ㅎㅕㄴㄱㅡㅁ	-8396
▁ㅅㅔㄱㅖㄱㅘㄴ	-8397
▁ㄹㅏㅇㅣㅂㅡㄹㅓㄹㅣ	-8398
▁ㅁㅕㅇㅈㅔ	-8399
▁ㅈㅓㄴㄹㅏㄷㅗ	-8400
▁ㅅㅣㄴㅏㄹㅣㅇㅗ	-8401
▁ㅈㅣㄹㅠ	-8402
▁ㄹㅣㅂㅣㅇㅏ	-8403
▁ㅈㅏㄱㅅㅔㄴ	-8404
▁ㅎㅏㄹㅡ	-8405
▁ㅅㅓㅇㅅㅜㄱ	-8406
▁ㅋㅣㄱ	-8407
▁1916	-8408
▁ㅇㅏㅍㅡ	-8409
▁ㅍㅐㅋㅣㅈㅣ	-8410
ㅈㅔㄹㅣ	-8411
ㅔㄱㅅㅡ	-8412
▁ㄷㅗㅇㅅㅏㅇ	-8413
▁ㄷㅣㄱ	-8414
▁ㅋㅗㄱ	-8415
ㅋㅏㄹㅡ	-8416
▁ㅇㅔㅌㅣㅇㅗㅍㅣㅇㅏ	-8417
ㅅㅗㄹㄹㅣㄴ	-8418
▁ㅇㅏㅇㅜㄱㅜ	-8419
▁ㅅㅡㅌㅠㅇㅓㅌㅡ	-8420
▁ㅇㅢㅇㅑㄱ	-8421
▁ㅂㅏㄴㅂㅏㄱ	-8422
▁ㅅㅣㄴㅅㅐㅇ	-8423
▁la	-8424
ㅁㅜㄱㅣ	-8425
▁ㅎㅐㅁㅣㄹ	-8426
▁ㄷㅏㅇㅇㅣㄹ	-8427
▁ㅌㅡㄱㅈㅣㅂ	-8428
▁ㅈㅣㅇㅜ	-8429
▁ㅊㅜㅊㅜㄹ	-8430
▁ㅂㅗㄹㅣ	-8431
▁ㄹㅣㅌㅡㄹ	-8432
▁ㄱㅕㄹㅅㅓㄴ	-8433
▁ㅅㅓㅇㅇㅜㄴ	-8434
▁ㅆㅏㅇㄷㅜㅇㅇㅣ	-8435
▁138	-8436
▁ㅈㅘㅈㅓㄹ	-8437
▁ㄴㅐㄹㅕㅈㅣ	-8438
▁ㄱㅏㄹㅗㅈㅣㄹㅡ	-8439
▁ㄱㅓㅈㅔ	-8440
ㅎㅐㅇㅏㄴ	-8441
▁ㄱㅐㄱㅊㅔ	-8442
▁ㅇㅟㅌㅏㄱ	-8443
▁ㄴㅗㅂㅜㄴㅏㄱㅏ	-8444
▁ㅂㅔㄷㅡ	-8445
▁ㄱㅣㅇㅣㄴ	-8446
▁ㅊㅣㄴㅎㅏ	-8447
▁ㅅㅏㅇㄷㅏㅁ	-8448
▁ㅅㅣㅊㅗ	-8449
▁ㅎㅓㄹㅣㅋㅔㅇㅣㄴ	-8450
▁ㅋㅡㄹㅣㅅㅡㅌㅣㅇㅏㄴ	-8451
▁ㅂㅐㅅㅣㄴ	-8452
▁ㅈㅗㅇㅕㄴ	-8453
▁ㄱㅚㄹㅗㅂ	-8454
▁ㅊㅣㅇㅕㄹ	-8455
ㅁㅅㅐ	-8456
▁ㅇㅗㅌㅏ	-8457
▁ㅅㅣㅅㅓㄴ	-8458
▁ㅅㅗㅇㅠㅈㅏ	-8459
▁DC	-8460
▁ㄱㅏㄷㅗㅇ	-8461
▁ㅍㅡㄹㄹㅜ	-8462
▁ㄴㅗㄹㅡㅁ	-8463
▁ㅁㅕㅇㅂㅐㄱ	-8464
▁ㅅㅣㄴㅅㅗㄱ	-8465
▁ㅇㅣㅅㅏㅎㅚ	-8466
▁ㅇㅕㅇㄴㅏㅁ	-8467
▁ㄱㅜㅈㅗㅁㅜㄹ	-8468
▁ㅋㅏㄱ	-8469
▁ㄲㅔㅅㅓ	-8470
▁ㄱㅗㅅㅓㅇ	-8471
▁ㅎㅏㅂㅊㅏㅇ	-8472
▁ㅈㅗㅇㅣ	-8473
ㅊㅔㄹ	-8474
▁ㅂㅗㄱㅅㅓㄴ	-8475
ㅂㅔㅇㅣ	-8476
▁ㅂㅏㄷㅏㅅ	-8477
▁ㄱㅡㄱㄷㅗㅇ	-8478
▁ㅂㅜㄴㄷㅏㅇ	-8479
▁ㅇㅕㅇㅈㅏㅇ	-8480
▁ㅊㅚㅅㅏㅇㅇㅟ	-8481
ㅊㅜㅁ	-8482
ㅇㅟㄷㅐ	-8483
▁ㅎㅔㄹㅏ	-8484
▁ㅈㅣㅅㅓㄴ	-8485
▁ㅇㅣㅂㄷㅏㅇ	-8486
▁ㅋㅗㅁㅜㄴㅔ	-8487
ㅈㅜㅇㄱㅜㄱ	-8488
▁ㅇㅝㄴㅅㅜㅇㅇㅣ	-8489
▁ㄱㅜㄱㅁㅜㅊㅗㅇㄹㅣ	-8490
▁ㅂㅗㅇㅅㅙ	-8491
▁ㅎㅏㄴㅅㅡ	-8492
▁ㄱㅕㅇㅇㅕㄴ	-8493
▁ㅂㅏㄴㄱㅏㅁ	-8494
▁ㅎㅕㅂㅈㅜㄱㅗㄱ	-8495
▁ㅎㅜㅋㅜㅅㅣㅁㅏ	-8496
ㅅㅖㄹ	-8497
▁ㅎㅗㄱㅣ	-8498
▁ㅊㅣㄴㅇㅘㅇ	-8499
▁ᆯㄲㅏ	-8500
▁ㅂㅕㅇㅎㅐㅇ	-8501
▁ㅅㅓㅈㅓㅇ	-8502
▁ㅌㅐㅇㅋㅡ	-8503
▁En	-8504
ㅡㅁㅣ	-8505
▁NBA	-8506
▁ㅇㅢㄹㅚ	-8507
▁ㄷㅏㅇㅣㅇㅏㅁ	-8508
ㅂㅅㅡ	-8509
ㄹㅗㄱㅜ	-8510
▁ㄷㅜㄲㅓㅂ	-8511
ㅊㅘㄴ	-8512
▁360	-8513
ㅔㄱㅌㅓ	-8514
▁ㄱㅕㄴㄷㅣ	-8515
▁ㄷㅔㅇㅣㅂㅣㅅㅡ	-8516
▁ㅊㅔㄹㅅㅣ	-8517
▁ㅇㅗㅍㅣㅅㅡ	-8518
▁ㅂㅏㄴㄷㅗㅊㅔ	-8519
▁WWE	-8520
▁ㅂㅏㄼ	-8521
▁ㅂㅜㅈㅐ	-8522
▁ㅈㅡㅇㅡㅁ	-8523
ㅐㅇㅣㄴ	-8524
▁ㅊㅜㅅㅔ	-8525
▁ㅎㅘㅇㅎㅐ	-8526
▁ㄱㅗㅅㅜ	-8527
▁ㄱㅡㄹㅜ	-8528
▁ㄱㅐㅇㅝㄴ	-8529
▁ㅎㅕㄴㅈㅗㅇ	-8530
ㄹㅗㄹㄹㅏㅇㅣㄴ	-8531
▁ㅇㅕㅇㅇㅢㅈㅓㅇ	-8532
▁ㅂㅜㅁ	-8533
▁ㅈㅓㄴㄴㅕㅁ	-8534
▁ㅇㅓㅎㅟ	-8535
▁ㅈㅜㅇㅇㅟ	-8536
▁ㅈㅜㅇㅅㅓㅇㅈㅏ	-8537
▁ㅂㅜㅈㅓㄱ	-8538
▁ㅌㅔㅇㅣㅂㅡㄹ	-8539
▁104	-8540
▁ㅈㅏㅇㄹㅕ	-8541
▁ㅈㅣㄴㅡㅇ	-8542
▁ㅊㅜㄴㅊㅓㄴ	-8543
▁ㅈㅐㅇㅟ	-8544
▁ㅍㅗㄱㅕㄱ	-8545
▁ㅇㅔㄷㅏ	-8546
▁ㅇㅕㅈㅣ	-8547
▁ㄱㅣㅁㅍㅗ	-8548
▁ㅅㅔㅅㅕㄴ	-8549
▁ㅅㅡㅌㅗㄱ	-8550
▁ㅂㅐㄱㅅㅐㄱ	-8551
▁ㄹㅜㅅㅣ	-8552
▁ㅌㅗㅅㅓㅇ	-8553
▁ㅇㅏㅀ	-8554
ㄷㅔㅅㅣ	-8555
▁ㅎㅐㅅㅗ	-8556
ㅣㅇㅏㅈㅜ	-8557
▁ㄱㅏㅁㅕㄴ	-8558
▁ㄷㅗㅇㅇㅣ	-8559
▁ㅁㅗㄴㅣㅌㅓ	-8560
▁ㄱㅕㄹㅎㅗㄴㅅㅣㄱ	-8561
▁ㄹㅣㅅ	-8562
▁ㅇㅙㄴ	-8563
▁ㅅㅓㅁㄱㅣ	-8564
▁ㅅㅣㅁㅗㄴ	-8565
▁ㅁㅗㄱㅍㅏㄴ	-8566
ark	-8567
▁ㅋㅓㄹㅣ	-8568
▁ㅇㅔㅅㅡㅌㅗㄴㅣㅇㅏ	-8569
▁ㄱㅏㅁㄹㅣ	-8570
▁ㄷㅗㄹㅜ	-8571
▁ㅇㅐㅌㅡㄹㄹㅐㄴ	-8572
▁ㅅㅏㅌㅗ	-8573
▁ㅇㅓㄷㅏ	-8574
▁ㅊㅣㅈㅡ	-8575
ㄷㅐㅅㅣㄴ	-8576
▁ㅅㅏㅎㅓㄴ	-8577
▁ㅅㅗㅇㅅㅣ	-8578
▁ㅇㅣㄱㅎㅣ	-8579
▁ㅂㅐㄱㅎㅘㅈㅓㅁ	-8580
▁109	-8581
▁ㅅㅓㅈㅐ	-8582
▁ㅅㅡㅋㅔ	-8583
▁ㅇㅝㄷㅡ	-8584
▁ㅁㅣㄴㅎㅚ	-8585
▁ㅇㅠㄷㅗㅇ	-8586
▁ㅎㅏㄹㅏㄱ	-8587
▁ㄹㅣㅇㅜㅅㅡ	-8588
ㅋㅗㅇㅗㄹ	-8589
▁ㅇㅑㅇㄷㅗ	-8590
ㄲㅡㅁ	-8591
ㅌㅗㄱ	-8592
▁123	-8593
▁ㅌㅏㄹㄷㅏㅇ	-8594
▁ㅇㅏㄹㅇㅏㄴㅐ	-8595
▁ㅎㅡㄹㄹㅣ	-8596
▁ㅁㅕㅇㄹㅕㅇㅇㅓ	-8597
▁ㅍㅣㅇㅏ	-8598
▁ㄱㅓㅎㅐㅇ	-8599
▁ㅈㅓㅇㅁㅜ	-8600
ㅇㅡㄴㅅㅐㄱ	-8601
▁ㅂㅜㄴㄱㅣㅈㅓㅁ	-8602
ㅂㅏㅇㅑ	-8603
▁ㄹㅗㅇㅣ	-8604
▁ㄷㅏㅂㅏㄹ	-8605
▁ㅈㅣㄴㅉㅏ	-8606
▁ㄷㅐㅍㅛㅈㅏㄱ	-8607
▁ㅋㅓㅅ	-8608
▁ㄱㅗㅅㅏ	-8609
▁ㅂㅣㅅㅣ	-8610
ㄷㅓㅅㅡㄴ	-8611
▁ㄹㅔㄴㅗㄴ	-8612
▁ㅈㅜㄹㅡㅁ	-8613
▁ㅈㅗㅇㄹㅗㄱㅜ	-8614
ㅎㅚㅈㅏㅇ	-8615
ㄱㅣㅅㅡ	-8616
ㅇㅓㄹㅣ	-8617
▁ㅈㅓㅎㅏ	-8618
▁ㅋㅗㅍㅡ	-8619
▁ㄱㅗㅇㅣㄴ	-8620
▁ㄱㅗㅈㅏㅇ	-8621
▁ㅈㅜㅎㅐㅇ	-8622
▁ㅇㅣㅁㅇㅛㅇ	-8623
▁ㅌㅐㄱㅅㅣ	-8624
▁ㅌㅔㅋㅡㄴ	-8625
▁CS	-8626
▁col	-8627
ㅜㄱㅘㅇㅣ	-8628
▁ㅊㅓㅁㄱㅏ	-8629
▁ㅇㅜㄹㅜㄱㅘㅇㅣ	-8630
ㅁㅓㄹㅣ	-8631
▁ㅍㅔㄴㅅㅣㄹ	-8632
▁ㅍㅔㄴㅅㅣㄹㅂㅔㅇㅣㄴ	-8633
▁ㅅㅖㄹ	-8634
ㅈㅜㄹㅣ	-8635
ㅈㅣㄹㅡㅁ	-8636
▁ㄴㅐㅇㄱㅏㄱ	-8637
▁ㅎㅐㅇㅈㅓㄱ	-8638
▁ㅊㅏㅈㅏㅇ	-8639
▁ㅇㅏㅁㅏㄷㅗ	-8640
Pa	-8641
▁AR	-8642
▁ㄹㅡㄴ	-8643
▁ㄱㅗㄱㅏ	-8644
▁ㄷㅚㄱㅔ	-8645
▁ㄱㅕㄱㅌㅚ	-8646
▁ㅅㅜㅅㅡㅂ	-8647
ㅣㅇㅏㅇㅣㄴ	-8648
▁ㅎㅕㄹㅌㅗㅇ	-8649
▁ㅋㅓㅁㅍㅏㅇㅣㄹ	-8650
ㅗㄹㄹㅏ	-8651
▁ㄴㅓㅂㅣ	-8652
▁ㅎㅏㄴㅉㅗㄱ	-8653
▁Pr	-8654
▁143	-8655
▁ㄱㅓㄹㅗㄴ	-8656
▁ㅁㅕㄴㅎㅓ	-8657
▁ㅅㅣㅇㅓ	-8658
▁ㅅㅏㅎㅓㄴㅂㅜ	-8659
▁ㅇㅓㅇㅜㄹㄹㅣ	-8660
▁ㄴㅏㅇㅁㅏㄴ	-8661
▁ㄱㅣㅁㄱㅣ	-8662
▁ㅇㅡㄹㅈㅣ	-8663
▁ㅅㅐㅇㅅㅣㄱ	-8664
▁ㅅㅣㄹㅈㅏㅇ	-8665
▁ㅈㅏㅇㅎㅏㄱ	-8666
▁ㅈㅗㄹㅣ	-8667
ㅎㅔㅁ	-8668
ㄷㅗㄹㅣ	-8669
▁ㄷㅏㅂㅣ	-8670
▁ㅂㅏㄴㅈㅣ	-8671
▁ㅊㅏㅇㄱㅗ	-8672
▁ㅇㅒㄱㅣ	-8673
▁ㄱㅕㅇㄱㅘㄴ	-8674
▁ㄷㅗㅈㅏㅇ	-8675
▁ㅅㅣㄴㄱㅠ	-8676
▁ㅅㅏㄴㄹㅏㄴ	-8677
▁NC	-8678
▁ㅈㅔㄷㅗㄱ	-8679
▁ㅈㅓㄱㅂㅜㄴ	-8680
▁ㅂㅏㅇㅅㅗㅇㅅㅏ	-8681
▁AK	-8682
▁ㄱㅜㄷㅗ	-8683
▁ㅎㅚㅅㅅㅜ	-8684
▁ㄸㅓ	-8685
ㅌㅡㄹㅗㄴ	-8686
▁ㄱㅣㅈㅓㄱ	-8687
ile	-8688
ㅅㅡㅋㅏㄹㅡ	-8689
▁CC	-8690
▁ㅂㅏㅎㅡ	-8691
▁ㅊㅜㄹㅊㅓ	-8692
▁ㅊㅣㅁㅕㅇ	-8693
▁ㅅㅣㄴㅎㅏㄴ	-8694
▁ㅊㅓㅇㅊㅜㄴ	-8695
▁ㄷㅗㅈㅜ	-8696
▁ㅌㅏㅇㅣㄱㅓㅈㅡ	-8697
▁ㅋㅏㅈㅏㅎㅡㅅㅡㅌㅏㄴ	-8698
▁ㄱㅘㅇㅁㅜㄹ	-8699
▁ㄱㅡㅂㄱㅕㄱㅎㅣ	-8700
ㅏㄷㅓㅅㅡ	-8701
AL	-8702
▁ㅅㅓㅁㅓ	-8703
▁ㅎㅏㅇㅝㄷㅡ	-8704
▁ㄱㅜㅇㅣ	-8705
▁ㅅㅏㄷㅏ	-8706
▁ㅅㅜㄴㄱㅛ	-8707
▁ㅈㅏㄴㄹㅠ	-8708
▁ㅌㅗㅇㅈㅡㅇ	-8709
ㅂㅓㅂㅇㅣㄴ	-8710
▁ㅅㅣㄴㅌㅏㄱ	-8711
▁ㅂㅏㄱㄹㅏㅁㅎㅚ	-8712
▁ㅇㅏㅎㅗㅂ	-8713
▁ㅎㅐㅈㅓㄱ	-8714
▁ㅂㅓㅂㅁㅜ	-8715
▁ㅇㅕㄴㅎㅏㅂㅎㅚ	-8716
▁ㄱㅛㅎㅘㅇㅊㅓㅇ	-8717
▁ㅂㅜㄷㅣ	-8718
▁ㅁㅏㄷ	-8719
ㅅㅡㅇㅈㅣ	-8720
ㅎㅏㅁㅕㄴ	-8721
▁ㅅㅏㅇㅈㅓㅁ	-8722
▁ㄴㅏㅁㄷㅗㅇㅂㅜ	-8723
xt	-8724
▁ㅅㅏㅇㄷㅏㄴ	-8725
ㅍㅣㅂ	-8726
▁ㄹㅜㅍㅡ	-8727
▁ㅇㅠㄹㅗㅍㅏ	-8728
▁ㅇㅕㄹㄷㅐ	-8729
ㅅㅡㅌㅡㄹㅣ	-8730
▁CON	-8731
▁ㅂㅏㄱㅎㅐ	-8732
▁ㅈㅓㅇㅈㅓㅁ	-8733
▁ㄷㅐㅎㅏㄱㅅㅐㅇ	-8734
▁ㅅㅣㅊㅣㄹㄹㅣㅇㅏ	-8735
▁ㅇㅠㅎㅏㄴ	-8736
ㅇㅑㅇㅎㅏㅁ	-8737
▁ㅇㅗㄹㅂㅏㄹㅡ	-8738
▁ㅅㅏㅅㅏ	-8739
▁ㄱㅡㄱㅎㅣ	-8740
▁ㅌㅗㅇㅇㅕㅇ	-8741
▁ㅅㅏㅁㅊㅡㅇㅅㅓㄱㅌㅏㅂ	-8742
▁ㅅㅜㄹㅕㄴ	-8743
▁ㅇㅏㄹㄹㅜ	-8744
▁ㅇㅕㄴㅎㅏ	-8745
▁ㅈㅔㅇㅣㄴ	-8746
▁ㅍㅓㅇㅋㅡ	-8747
▁ㅊㅗㅅ	-8748
▁ㅌㅏㅁㄱㅜ	-8749
▁ㅎㅗㄹㅏㅇㅇㅣ	-8750
▁is	-8751
ㅡㄹㄹㅣㅇ	-8752
▁ㄱㅏㄱㅜㄴ	-8753
▁ㄱㅜㄱㅅㅗ	-8754
▁ㅁㅐㅇㅣㅂ	-8755
▁ㄹㅗㄹㄹㅣㅇ	-8756
▁ㅇㅕㅍㅁㅕㄴ	-8757
▁LP	-8758
▁Op	-8759
ㅓㅁㅣ	-8760
ㅎㅔㅇㅣ	-8761
▁ㅌㅣㅅㅡ	-8762
▁ㅈㅗㄹㅣㅂ	-8763
▁ㄷㅔㅁㅗ	-8764
ㅂㅡㄹㄹㅗ	-8765
▁ㄱㅡㄹㅐㅁ	-8766
▁ㅇㅣㅈㅜㄴ	-8767
▁ㅈㅜㅇㅕㄱ	-8768
ㅇㅓㅂㅓㄹㅣ	-8769
▁ㅈㅓㄱㄷㅏㅇ	-8770
▁ㅇㅑㄱㅜㅈㅏㅇ	-8771
▁ㅂㅜㄹㅡㅋㅡ	-8772
▁ㅌㅐㅇㅑㅇㄱㅖ	-8773
▁ㄴㅜㅇㅣ	-8774
▁ㅇㅏㅇㅣㅅㅡㄹㄹㅏㄴㄷㅡ	-8775
ㅕㄹㅐ	-8776
▁ㅎㅏㅇㅅㅗ	-8777
▁ㅅㅠㅍ	-8778
▁ㅇㅡㅁㄹㅛ	-8779
▁ㅋㅣㅍㅡㄹㅗㅅㅡ	-8780
▁ㅇㅏㄴㄱㅣ	-8781
▁ㅇㅏㄹㄹㅏ	-8782
ㅅㅣㅍㅣ	-8783
▁ㄱㅜㅎㅗ	-8784
▁ㄹㅐㅍㅓ	-8785
▁ㅎㅠㅅㅡㅌㅓㄴ	-8786
ㅅㅠㅁ	-8787
▁ㄱㅡㄴㅏㄹ	-8788
▁ㅈㅐㅎㅕㄴ	-8789
ㅇㅏㄴㄱㅜㄴ	-8790
▁ㅅㅓㅇㄷㅏㄴ	-8791
▁ㅎㅘㄴㅇㅕㅇ	-8792
ㅇㅑㅁㅏ	-8793
ㅅㅏㄹㅇㅣ	-8794
▁ㅅㅓㅇㅊㅔ	-8795
▁ㅇㅓㅇㅝㄴ	-8796
▁ㅇㅕㅁㄱㅣ	-8797
▁ㅂㅕㄹㄷㅏㄹㅡ	-8798
▁ㅇㅏㄹㅏㅂㅇㅓ	-8799
▁ㅊㅣㄴㅇㅣㄹㅍㅏ	-8800
▁ㅅㅓㄹㅌㅏㅇ	-8801
▁ㅍㅗㄱㄷㅗㅇ	-8802
▁ㅅㅡㅌㅡㄹㅣㅁ	-8803
▁ㅂㅗㄹㄹㅣㅂ	-8804
▁ㄷㅐㅇㅜㅇㅈㅓㄴ	-8805
▁ㄹㅏㅌㅡㅂㅣㅇㅏ	-8806
▁ㄷㅗㄹㅂㅗ	-8807
ㅍㅜㅅㅡ	-8808
▁ㅇㅣㄴㅍㅡㄹㄹ	-8809
▁ㅅㅡㅌㅡㄹㅔㅅㅡ	-8810
▁ㅅㅡㄹㄹㅗㅂㅏㅋㅣㅇㅏ	-8811
ft	-8812
▁ㅎㅜㅂㅏㅇ	-8813
▁ㅃㅏㄹㄱㅏㄴ	-8814
▁ㄹㅏㅇㅗㅅㅡ	-8815
▁ㅈㅗㄴㅅㅗㄱ	-8816
▁ㅊㅜㅇㅈㅓㄴ	-8817
ies	-8818
▁ㄷㅗㄷ	-8819
▁ㅈㅔㅎㅏ	-8820
ㅇㅡㄴㅇㅣ	-8821
▁ㄱㅡㄴㄱㅛ	-8822
▁ㅅㅏㅇㅇㅛㅇ	-8823
▁ㅎㅐㅅ	-8824
▁ㅂㅜㅅㅓㄹ	-8825
▁ㄱㅕㅇㅊㅏㄹㅊㅓㅇ	-8826
▁ㅇㅜㅇㅟ	-8827
▁ㄱㅓㅂㅜㄱ	-8828
▁ㄹㅔㅇㅣㄹ	-8829
▁ㅌㅏㅁㅅㅏㅅㅓㄴ	-8830
ite	-8831
ㅗㅇㅏ	-8832
▁ㅅㅓㅇㅊㅟ	-8833
▁ㄱㅗㅇㄱㅘㄴ	-8834
▁ㄱㅕㅇㅅㅏㅇㄷㅗ	-8835
▁ㅋㅏㅇㅣㅅㅏㄹㅡ	-8836
▁ㅂㅡㄹㄹㅏㄷㅣㅁㅣㄹㅡ	-8837
▁ㅂㅣㄹㅣ	-8838
▁ㅊㅏㅇㅣㅈㅓㅁ	-8839
▁ㅁㅐㄱㅈㅜ	-8840
▁ㅇㅜㅅㅡㅇㅈㅏ	-8841
▁ㅂㅡㄹㅏㄷㅓㅅㅡ	-8842
▁ㅇㅏㄹㅋㅗㅇㅗㄹ	-8843
▁ㅈㅜㅇㅇㅢㅇㅝㄴ	-8844
ㅔㅁㅏ	-8845
▁ㅁㅗㄱㅈㅐ	-8846
▁ㅊㅏㅈㅗㅇ	-8847
▁112	-8848
▁ㄹㅗㅁㅏㄴ	-8849
ㅇㅏㅇㅣㄹㅂㅗ	-8850
▁ㄷㅗㅇㅇㅏㅇㅣㄹㅂㅗ	-8851
ㅊㅏㄱㅣ	-8852
ㅈㅣㅂㅜㅇ	-8853
▁ㅇㅡㅇㅇㅝㄴ	-8854
▁ㅊㅜㄱㅈㅓㄱ	-8855
▁ㄱㅗㅇㅅㅜ	-8856
▁ㅅㅏㅇㅠㄱ	-8857
ㅈㅣㅁㅏ	-8858
▁ㅎㅏㄴㅇㅣㄴ	-8859
▁ㅅㅠㅌㅡ	-8860
▁ㅈㅜㄱㅏ	-8861
▁ㅅㅏㅇㅂㅏㄴ	-8862
▁ㅅㅏㅇㅓㅂㅈㅏ	-8863
▁107	-8864
▁ㅂㅣㅆㅏ	-8865
▁ㅇㅓㄱㅇㅏㅂ	-8866
▁ㅈㅜㄹㅁㅜㄴㅢ	-8867
▁ㄷㅏㅇㅈㅜ	-8868
▁ㅂㅡㄹㄹㅏ	-8869
▁ㅎㅏㅂㅎㅏ	-8870
▁ㄷㅏㅇㅣㅇㅏㅁㅗㄴㄷㅡ	-8871
▁SE	-8872
ㄴㅗㄹ	-8873
▁ㅂㅔㅅㅡ	-8874
▁ㅅㅡㄹㄹㅗㅂ	-8875
▁ㅅㅣㄴㅁㅣㄴ	-8876
▁ㄹㅣㅇㅓ	-8877
▁ㅂㅓㄹㄱㅡㅁ	-8878
ㄴㅔㅅ	-8879
▁ㅌㅓㅊㅣ	-8880
▁ㅁㅜㅅㅓㅇ	-8881
▁ㅂㅡㄹㄹㅗㄱㅡ	-8882
▁ㅇㅚㅊㅣ	-8883
▁ㄱㅘㅇㅎㅏㄱ	-8884
▁ㅈㅏㅇㄱㅓㄹㅣ	-8885
▁126	-8886
▁ㄴㅏㅁㅣ	-8887
ㅓㄸㅡㄹㅣ	-8888
▁ㅅㅜㅂㅓㅂ	-8889
▁ㅅㅣㄱㅗㄹ	-8890
▁ㄱㅗㅇㅇㅣㄱ	-8891
▁ㄱㅗㅇㅅㅏㄴㅈㅜㅇㅢㅈㅏ	-8892
▁ㄴㅏㅅㅡ	-8893
ㄹㅣㅅㅡㅌㅡ	-8894
▁ㅅㅐㅁㅍㅡㄹ	-8895
▁Te	-8896
ㄲㅗㅂ	-8897
▁ㅁㅣㅋㅏ	-8898
▁ㅇㅜㅅㅔ	-8899
▁ㅇㅣㅅㅜㄴㅅㅣㄴ	-8900
▁ㄷㅗㅁㅏㅂㅐㅁㅂㅜㅌㅇㅣ	-8901
▁ㅅㅓㅇㅅㅏ	-8902
▁ㅎㅕㄴㅈㅓ	-8903
▁ㅇㅕㄹㅈㅓㅇ	-8904
▁ㄴㅜㄱ	-8905
▁ㄷㅗㅇㅇㅏ	-8906
▁ㄷㅏㄴㄷㅏㄴ	-8907
▁ㅅㅐㅇㅅㅏㄴㄹㅑㅇ	-8908
▁ㅂㅜㄷㅏㅇ	-8909
▁ㅅㅏㅇㅅㅓ	-8910
▁ㄱㅜㅊㅜㄱㅎㅏㅁ	-8911
▁ㅅㅗㅇㅅㅣㅇㅕㄹ	-8912
▁ㅊㅚㅇㅏㄱ	-8913
▁ㅍㅜㅁㅈㅗㅇ	-8914
▁ㅍㅡㄹㄹㅓㅅㅡ	-8915
ㅂㅅㅣㄹ	-8916
▁ㅁㅗㄴㅗ	-8917
ㄹㅣㅇㅏㄴ	-8918
ㅡㄴㅓ	-8919
▁ㅇㅔㅋ	-8920
▁ㅍㅣㅂ	-8921
▁ㅇㅜㅇㅠ	-8922
▁ㄱㅣㅁㄱㅕㅇ	-8923
▁ㄱㅏㅉㅏ	-8924
▁ㅇㅜㄴㅎㅏ	-8925
ㄱㅏㄹㅅㅐㄱ	-8926
▁ㅇㅣㅅㅏㄴㅎㅘ	-8927
▁ㅁㅚ	-8928
▁117	-8929
▁ㅅㅣㄴㅈㅜ	-8930
▁ㅇㅛㄷㅗㅇ	-8931
ㅇㅜㅁ	-8932
▁ㅇㅘㅅ	-8933
▁ㅁㅣㄴㅔ	-8934
▁ㄱㅕㄴㅈㅔ	-8935
▁ㅁㅏㅅㅏㅇ	-8936
▁ㅅㅣㅂㅔㄹㅣㅇㅏ	-8937
▁ㄸㅏㅅ	-8938
▁ㅇㅏㅂㅜ	-8939
▁ㅇㅠㄱㅊㅔ	-8940
▁ㄱㅣㅃ	-8941
▁ㅈㅜㅇㅣ	-8942
▁ㅂㅔㅇㅓㅅㅡ	-8943
▁ㅎㅘㅇㅅㅣㄹ	-8944
▁ㄱㅡㄹㅗ	-8945
▁ㅇㅣㅋㅔ	-8946
▁ㄱㅛㅈㅓㅇ	-8947
▁ㅇㅕㄴㅅㅙ	-8948
▁ㅇㅣㄹㅈㅗ	-8949
▁ㄱㅗㅅㅗㄱㄷㅗ	-8950
▁ㅊㅏㅇㅇㅝㄴㅅㅣ	-8951
▁ㅇㅗㅂㅣ	-8952
▁ㅂㅗㅅㅓㄱ	-8953
▁ㅂㅗㅎㅗㄱ	-8954
▁ㅈㅏㅁㅣㄴ	-8955
▁ㅅㅗㄴㅏㅌㅏ	-8956
▁ㅃㅏㄹㄱㅏㄴㅅㅐㄱ	-8957
▁ㅈㅗㅅㅓㄴㅇㅣㄹㅂㅗ	-8958
▁ㅂㅏㅇㅣㅇㅗ	-8959
▁com	-8960
▁ㅋㅔㅇㅣㅅㅡ	-8961
ㅈㅗㅂㅜ	-8962
ㅠㄱㅣㄴㅣ	-8963
▁ㅈㅗㅈㅗㅇㅅㅏ	-8964
ㄸㅏㄹ	-8965
ㄷㅏㅈㅣ	-8966
ㅍㅏㄹㅡ	-8967
▁ㄱㅓㅊㅣㄹ	-8968
▁ㅇㅕㄷㅏㅇ	-8969
▁ㅍㅗㄹㅓㅁ	-8970
▁137	-8971
▁ㄱㅐㄱㅛ	-8972
▁ㄱㅖㅅㅣ	-8973
▁ㅇㅗㅎㅐ	-8974
▁ㅊㅏㄱㅏ	-8975
▁ㅇㅘㅇㅂㅗㄱ	-8976
▁ㄱㅏㅈㅜㄱ	-8977
▁ㅇㅏㅁㅅㅣ	-8978
▁ㅈㅓㅇㅅㅏ	-8979
▁ㅍㅕㅇㅇㅢㅎㅚ	-8980
▁ㅍㅡㄹㅗㄱㅔㅇㅣㅁㅓ	-8981
OL	-8982
ath	-8983
ㅌㅓㅁ	-8984
▁113	-8985
ㅣㅇㅓㅁ	-8986
▁ㅇㅣㄱㅕㅇ	-8987
▁ㅅㅣㄴㅅㅓㄴ	-8988
ㅁㅏㄷㅡ	-8989
▁ㄴㅜㄴㅏ	-8990
▁ㅈㅣㄹㅡ	-8991
▁ㄱㅛㄱㅘㅅㅓ	-8992
▁ㄷㅐㅇㅢㅇㅝㄴ	-8993
ond	-8994
▁ㄷㅗㅇㅁㅜㄴ	-8995
▁ㅎㅣㅁㅇㅣㅂ	-8996
▁ㄱㅡㄷㅗㅇㅇㅏㄴ	-8997
ㄹㅓㅅ	-8998
▁ㄴㅗㅅ	-8999
▁ㅇㅑㅇㅋㅣㅅㅡ	-9000
▁ㅅㅏㅁㅅㅓㅇㅈㅓㄴㅈㅏ	-9001
▁ㅇㅏㅋㅡ	-9002
▁ㅌㅐㄱㅝㄴ	-9003
▁ㄱㅏㅁㅅㅏㅇ	-9004
▁RNA	-9005
▁ㅎㅜㄱㅜㅇ	-9006
▁ㅁㅏㄴㄴㅏㅁ	-9007
ov	-9008
ound	-9009
▁ㄱㅗㅅㅗ	-9010
▁ㅇㅙㄴㅑ	-9011
ㄸㅜㄱ	-9012
▁ㅇㅓㄴㄴㅣ	-9013
▁ㅇㅣㄹㄹㅣㄴ	-9014
ory	-9015
▁1894	-9016
▁ㅈㅜㅈㅜ	-9017
▁ㅊㅓㄴㅈㅏㅇ	-9018
ㅅㅟㅂ	-9019
▁121	-9020
▁173	-9021
▁ㅂㅔㅇ	-9022
▁ㅂㅣㅇㅠ	-9023
▁ㅅㅣㄴㄴㅕㅁ	-9024
▁ㅋㅏㄹㅡㄹㄹㅗㅅㅡ	-9025
ㄹㅜㅅㅡ	-9026
ㅔㅇㅑㅅㅡ	-9027
▁ㅍㅣㄹㅌㅓ	-9028
▁ㅌㅡㅇㅟㄴㅅㅡ	-9029
▁ㅇㅣㅇㅔㅇㅑㅅㅡ	-9030
▁ㅎㅘㅈㅏㅇㅅㅣㄹ	-9031
▁ㅇㅏㅋㅏㄷㅔㅁㅣㅅㅏㅇ	-9032
▁ㅂㅣㄹㅡ	-9033
▁ㄱㅠㅂㅓㅁ	-9034
▁ㅇㅣㄴㅊㅔ	-9035
▁ㅋㅡㄹㄹㅣㅂ	-9036
▁ㅌㅡㅇㅟㅌㅓ	-9037
▁be	-9038
ㅂㅣㄴㅏ	-9039
▁ㅇㅠㅈㅚ	-9040
▁ㅌㅏㅁㅅㅐㄱ	-9041
▁ㅋㅡㄹㄹㅏㅇㅜㄷㅡ	-9042
▁CF	-9043
▁ㅁㅣㄹㅡ	-9044
▁ㅅㅣㄴㅇㅑㄱ	-9045
▁350	-9046
▁z	-9047
▁ㅂㅜㅈㅔ	-9048
▁ㅂㅏㅇㅎㅘ	-9049
▁ㅅㅗㅅㅕㄹ	-9050
▁ㅎㅐㄱㅁㅜㄱㅣ	-9051
▁ㄷㅏㅌㅜ	-9052
▁ㄱㅗㅇㅅㅡㅂ	-9053
▁ㅁㅣㄱ	-9054
ㄹㅣㅌㅡ	-9055
ㅌㅗㅁㅗ	-9056
▁ㅇㅣㅇㅠㄴ	-9057
▁ㅊㅜㄱㅎㅏ	-9058
▁ㅊㅣㅇㅏㄴ	-9059
ㄱㅡㄹㅔㅇㅣㄷㅡ	-9060
▁ㅈㅣㄴㄱㅡㅂ	-9061
ㄴㅡ	-9062
▁ㄴㅔㅅㅡ	-9063
▁ㄹㅜㅌㅓ	-9064
▁ㄹㅣㅇㅓㄹ	-9065
▁ㄱㅡㄴㅇㅝㄴ	-9066
▁ㄷㅟㅅㅁㅕㄴ	-9067
▁ㅍㅗㄱㅎㅐㅇ	-9068
▁ㅈㅏㅇㅕㄴㅅㅜ	-9069
iver	-9070
ㅂㅏㄷㅏ	-9071
ㅅㅏㄴㄷㅗㅇ	-9072
▁ㅂㅜㅇㅢ	-9073
▁ㅈㅓㄴㅂㅗㄱ	-9074
▁ㅇㅓㅂㄱㅡㄹㅔㅇㅣㄷㅡ	-9075
▁ㅇㅕㅅ	-9076
▁ㅎㅢㅅㅐㅇㅈㅏ	-9077
▁ㄴㅗㅂㅏ	-9078
▁ㅈㅔㄹㅗ	-9079
▁ㅁㅣㅅㅕㄴ	-9080
▁ㄴㅐㅂㅗㄴㅐ	-9081
▁ㅂㅓㅁㅇㅣㄴ	-9082
ㄷㅐㄱㅣ	-9083
▁ㅊㅓㄴㅕ	-9084
▁ㅁㅜㅇㅏㄴ	-9085
▁ㅇㅣㅂㅇㅝㄴ	-9086
▁ㅇㅕㅍㅏ	-9087
▁ㅈㅔㄴㅣ	-9088
▁ㄱㅡㄹㅐㄴ	-9089
▁ㅌㅔㅇㅣㅍㅡ	-9090
▁ㅁㅜㄹㄹㅕㅂㅏㄷ	-9091
ㄹㅔㄹ	-9092
▁ㄱㅏㅊㅜㄱ	-9093
▁ㄴㅗㅇㄹㅣㅁ	-9094
▁ㅁㅗㄴㅅㅡㅌㅓ	-9095
▁ㅂㅓㅂㅁㅜㅂㅜ	-9096
▁ㅊㅗㅇㄷㅗㄱㅂㅜ	-9097
▁ㅎㅏㄷㅗㅇ	-9098
▁ㄱㅏㅁㅏㅋㅜㄹㅏ	-9099
▁ㅇㅣㄹㅂㅏㄴㅇㅣㄴ	-9100
ㅔㅈㅡ	-9101
▁ㄴㅗㄹㄹㅏㅂ	-9102
▁ㅁㅐㄱㄹㅏㄱ	-9103
▁ㅅㅓㅇㅂㅕㄹ	-9104
▁ㅌㅐㄹㄹㅓㄴ	-9105
ㅂㅓㄱㅡ	-9106
▁ㅍㅔㄹㄹㅣ	-9107
▁ㅇㅣㄴㅁㅜㄴ	-9108
▁ㄹㅠㄱ	-9109
▁ㄱㅓㅇㅜㄹ	-9110
▁ㄱㅗㄱㅇㅣㄴ	-9111
▁ㅈㅣㅁㅣ	-9112
▁ㄸㅏㅅㅈㅟ	-9113
▁ㅁㅜㄴㅇㅖ	-9114
▁ㄱㅘㄴㅇㅡㅁ	-9115
man	-9116
ㄴㅓㄼ	-9117
▁ㄴㅏㄹㅆㅣ	-9118
▁ㄹㅣㄹㄹㅣ	-9119
▁ㄹㅏㅇㅣㄴㅓ	-9120
▁ㅅㅣㄴㅈㅗㅇ	-9121
▁ㅍㅣㄹㄹㅣㅍㅡ	-9122
▁ㄱㅏㅈㅏㅇㅈㅏㄹㅣ	-9123
ㄱㅡㄹㄹ	-9124
▁ㅈㅔㄷㅐ	-9125
▁ㅌㅐㄹㄹㅓㄴㅌㅡ	-9126
ㅋㅣㄱ	-9127
ㄱㅗㄹㅐ	-9128
▁ㅈㅔㅍㅡ	-9129
▁ㅍㅏㅇㅣㅇㅓ	-9130
▁ㅎㅐㄴㄷㅡ	-9131
▁ㄱㅗㅇㅁㅣㄴ	-9132
ㄲㅣㄹㅣ	-9133
▁ㄱㅜㅊㅜㄹ	-9134
▁ㅎㅘㄱㅅㅣㄴ	-9135
▁ㅇㅗㅅㅔ	-9136
ㄷㅏㄴㅊㅔ	-9137
▁ㅈㅡㅇㄷㅐ	-9138
▁ㅎㅐㅁㅕㅇ	-9139
ㄹㅜㅇ	-9140
ㅃㅜㄹ	-9141
ㅡㄱㅗㄴ	-9142
▁ㅇㅙㄱㅗㄱ	-9143
ㅍㅜㄹㅡㅌㅡ	-9144
▁ㄴㅏㅁㅅㅓㅂㅜ	-9145
ㅏㅁㅜㄹㅏ	-9146
▁ㅅㅡㅇㄱㅖ	-9147
▁ㅂㅣㄴㄱㅗㄴ	-9148
▁ㅅㅗㅇㅝㄴ	-9149
▁ㄱㅔㅇㅣㅈㅣ	-9150
ㅍㅓㄹㅓㄴㅅㅡ	-9151
▁ㅍㅔㄹㅡㄷㅣㄴ	-9152
▁ㅎㅏㄹㅁㅓㄴㅣ	-9153
▁ㅋㅡㄹㅣㅅㅡㅌㅗㅍㅓ	-9154
▁".	-9155
▁ㄹㅔㄱ	-9156
▁ㅆㅏㅇㅣ	-9157
▁ㅎㅓㅇㅟ	-9158
▁ㅅㅣㄹㅊㅔ	-9159
▁ㅍㅜㄹㄹㅣ	-9160
▁ㅎㅗㄹㅡㅁ	-9161
▁ㅌㅗㅇㅌㅡㄹ	-9162
▁ㅎㅚㅇㄷㅏㄴ	-9163
ㅓㄴㄷㅡ	-9164
▁ㅈㅣㅍㅕㅇ	-9165
▁ㄱㅔㅅㅡㅌㅡ	-9166
▁ㄱㅔㅇㅗㄹㅡ	-9167
▁ㅇㅏㄹㅈㅔㄹㅣ	-9168
▁ㅇㅠㄴㅊㅣㅎㅗ	-9169
▁ㄷㅐㅍㅗㄱ	-9170
▁ㅅㅓㅇㄷㅗ	-9171
▁ㄷㅗㅇㅈㅓㅁ	-9172
▁ㅂㅏㅇㅗㄹㅗ	-9173
ㄷㅐㅇㅝㄴㄱㅜㄴ	-9174
ㅓㅇㅜ	-9175
▁ㄱㅕㅇㅂㅗ	-9176
▁ㅂㅗㅈㅡㅇ	-9177
▁ㅅㅏㅁㅜㄱ	-9178
▁ㅇㅕㅇㅅㅏㄴ	-9179
▁ㄱㅖㅈㅓㅇ	-9180
▁ㄱㅣㅇㅓ	-9181
▁ㅇㅏㅇㅖ	-9182
▁ㅌㅜㅇㅗㄱ	-9183
▁On	-9184
ㄹㅣㄱㅡ	-9185
▁ㅅㅣㅁㅠㄹ	-9186
▁ㅈㅣㄴㄱㅗㅇ	-9187
▁ㄱㅣㅇㅓㅂㅇㅣㄴ	-9188
ㄷㅡㄹㅡ	-9189
ㅓㅂㅡㄹ	-9190
ich	-9191
ㄸㅏㄱ	-9192
▁ㄷㅏㄱㅏㄱ	-9193
▁ㅊㅗㄹㅗㄱ	-9194
▁ㄱㅗㅇㅣ	-9195
ㅈㅜㄹㄱㅣ	-9196
▁ㅈㅡㅇㅅㅗㄴ	-9197
▁ㄱㅣㅁㅈㅓㅇㅇㅣㄹ	-9198
▁hPa	-9199
▁ㄷㅣㅁ	-9200
ㄹㅗㅇㅝㄴ	-9201
▁World	-9202
▁ㅁㅜㄴㄱㅜ	-9203
▁ㅈㅏㅇㅡㅁ	-9204
▁ㅂㅏㄴㄱㅕㅇ	-9205
▁New	-9206
▁ㅂㅏㅌㅣㅋㅏㄴ	-9207
▁ㅁㅗㅈㅏ	-9208
▁ㅎㅡㄹㄹ	-9209
ㄱㅝㄴㅈㅏ	-9210
▁ㅍㅗㅂㅕㅇ	-9211
▁ㅇㅛㅇㅂㅕㅇ	-9212
▁ㅅㅏㅇㅜㄹㅜㅅㅡ	-9213
MA	-9214
ㅔㅌㅣ	-9215
▁ㄷㅜㅇㅈㅣ	-9216
▁ㅅㅓㅁㅣㄴ	-9217
▁ㄱㅗㄱㅗㅎㅏㄱ	-9218
▁ㅈㅣㄴㅎㅏ	-9219
▁ㄲㅚㅎㅏ	-9220
▁ㅎㅕㅂㅂㅏㄱ	-9221
▁ㄱㅚㅇㅈㅏㅇㅎㅣ	-9222
▁114	-9223
▁ㅁㅣㄹㅏ	-9224
▁ㄷㅐㅁㅕㅇ	-9225
▁ㅅㅏㅇㅍㅛ	-9226
▁ㅇㅑㅇㅎㅗ	-9227
ㅌㅏㄹㅣㅇㅗ	-9228
▁CR	-9229
▁ㄴㅟ	-9230
▁ㅍㅏㄴㅂㅗㄴ	-9231
mer	-9232
▁124	-9233
ㅍㅡㄹㅔㅅㅡ	-9234
▁ㄱㅜㄴㅈㅓㅇ	-9235
▁ㅋㅓㅁㅠㄴㅣㅋㅔㅇㅣㅅㅕㄴ	-9236
ㅅㅑㅇ	-9237
▁ㅎㅏㄱㅁㅕㅇ	-9238
▁ㅇㅕㄴㅎㅏㅂㄱㅜㄱ	-9239
ㅂㅔㄱ	-9240
ㅎㅏㄹㅜ	-9241
▁ㅅㅓㅇㅁㅜㄴ	-9242
▁ㄱㅏㄷㅎㅣ	-9243
▁ㄲㅐㄷㅏㄷ	-9244
▁ㄷㅣㅂㅣㅅㅣㅇㅗㄴ	-9245
▁ㅈㅔㅈㅐ	-9246
▁ㅊㅚㄱㅏㅇ	-9247
▁ㅌㅏㄷㅏㅇ	-9248
▁SU	-9249
▁ㄷㅐㅍㅣ	-9250
▁ㅅㅏㅇㅅㅏ	-9251
▁ㅇㅠㄴㅕㄴ	-9252
▁ㅇㅣㅁㅎㅏ	-9253
▁ㅂㅡㄹㅣㅈㅣ	-9254
▁ㅋㅗㄹㄹㅣㄴ	-9255
▁ㅍㅔㅇㅣㅅㅡ	-9256
▁ㅋㅘ	-9257
ㄷㅗㄱㅛ	-9258
▁ㅎㅜㅅㅏ	-9259
▁ㅁㅗㄹㄹㅐ	-9260
▁ㅇㅕㄴㅅㅜ	-9261
▁ㄷㅗㄱㅇㅣㄹㅇㅣㄴ	-9262
ㅇㅞㅇㅣ	-9263
▁1890	-9264
▁ㅅㅓㄴㅂㅣ	-9265
▁ㅋㅡㄹㅗㅁ	-9266
▁ㄱㅡㄱㅅㅣㅁ	-9267
▁ㄱㅡㄱㅈㅏㅇㅍㅏㄴ	-9268
ign	-9269
ㄴㅐㅇㅚ	-9270
▁ㄱㅜㄱㄴㅐㅇㅚ	-9271
ial	-9272
▁ㄷㅏㄷㅎㅣ	-9273
▁ㅎㅕㄹㄱㅘㄴ	-9274
▁ㅇㅙㄴㅑㅎㅏㅁㅕㄴ	-9275
▁ㅉㅏㅇ	-9276
▁ㅅㅡㅋㅡㄹㅣㅂ	-9277
▁ㅁㅟ	-9278
▁ㄴㅏㅂㅣ	-9279
▁ㅈㅗㅇㅊㅏㄱ	-9280
▁ㅍㅡㄹㅗㄷㅓㄱ	-9281
▁ㄹㅣㅇㅜ	-9282
▁ㅇㅣㄹㄹㅣㄴㅗㅇㅣ	-9283
▁118	-9284
▁ㄱㅜㅈㅓㄹ	-9285
▁ㄱㅣㅁㄱㅠ	-9286
▁ㅎㅔㄹㄹㅣ	-9287
▁ㄱㅜㅅㅡㅌㅏ	-9288
▁EC	-9289
▁ㄱㅕㄹㅎㅏㅁ	-9290
▁ㅂㅔㄹㄹㅏㄹ	-9291
▁ㅇㅝㄴㅈㅓㄴ	-9292
▁ㅇㅣㄹㅅㅐㅇ	-9293
▁Sc	-9294
▁ㅅㅣㅂㅏ	-9295
▁ㅊㅔㅈㅗ	-9296
▁ㅋㅐㅅㅣ	-9297
ㅣㅇㅓㅅㅡ	-9298
▁ㅊㅓㄹㅎㅚ	-9299
▁ㅇㅣㄹㅂㅏㅇ	-9300
ㅋㅏㄹㅏㄱ	-9301
▁ㄱㅐㅈㅗㅇ	-9302
▁ㅎㅏㄱㄱㅖ	-9303
▁ㅅㅜㅇㅛㅇㅊㅔ	-9304
▁ㄷㅡㄹㅏㅇㅣㅂㅓ	-9305
▁ㅅㅒ	-9306
▁ㄹㅔㄹ	-9307
▁ㅅㅔㅅㅗㄱ	-9308
▁ㅁㅗㅊㅣㄴ	-9309
▁ㅇㅑㅇㅊㅡㄱ	-9310
▁ㅇㅗㄹㅣㅋㅗㄴ	-9311
▁ㅈㅗㅂㅜ	-9312
▁ㅇㅏㄹㅐㅅ	-9313
▁ㄱㅡㄴㄹㅗㅈㅏ	-9314
▁ㅇㅗㅍㅡㄴㅣㅇ	-9315
▁ㅇㅜㅎㅗ	-9316
ㅇㅠㅎㅐㅇ	-9317
▁ㅇㅏㄱㄷㅏㄴ	-9318
▁ㅎㅓㄱ	-9319
▁ㅌㅟㄹㅡ	-9320
▁ㅁㅕㅇㅎㅏ	-9321
▁ㅇㅣㄴㅏㅁ	-9322
▁ㅋㅏㄹㅗㄹ	-9323
▁ㅁㅔㄹㄹㅗㄷㅣ	-9324
ㅌㅜㄹ	-9325
▁ㅈㅏㅅㅓㄴ	-9326
▁ㄱㅜㅇㄱㅡㄱ	-9327
▁ㅍㅏㄹㅏㄴㅅㅐㄱ	-9328
▁ㄹㅏㅇㅣㅇㅗㄴㅈㅡ	-9329
▁ㄱㅏㅈㅕㄱㅏ	-9330
▁ㅎㅏㅇㅈㅐㅇ	-9331
▁ㅅㅜㅅㅐㄱ	-9332
▁ㅅㅡㄹㄹㅗㅂㅔㄴㅣㅇㅏ	-9333
ㅅㅣㅌㅏ	-9334
▁ㅇㅓㅁㅣ	-9335
▁ㅈㅐㅅㅏㅇ	-9336
▁ㅂㅏㅅㅡ	-9337
▁ㄴㅐㅈㅓㅇ	-9338
▁ㅍㅕㅇㅈㅓㅇ	-9339
▁ㅇㅠㅈㅓ	-9340
▁ㅍㅣㅇㅜ	-9341
▁ㅎㅐㄱㅗ	-9342
▁ㄱㅗㅇㅂㅐㄱ	-9343
▁ㅅㅣㄴㅅㅏㅇ	-9344
ㅓㄹㄹㅣㅅㅡㅌㅡ	-9345
ㅗㅂㅓ	-9346
ㄱㅣㄴㅕㅁ	-9347
▁ㅂㅏㅂㅣㄹ	-9348
▁ㅋㅓㄴㅓㄹ	-9349
▁ㅂㅏㄴㅈㅣㄹㅡㅁ	-9350
▁ㅇㅐㅁ	-9351
ㅎㅘㅇㅎㅜ	-9352
▁ㅂㅔㄴㅔㄷㅣㄱ	-9353
▁ㅎㅣㅇㅓㄹㅗㅈㅡ	-9354
hn	-9355
▁ㅁㅏㄺ	-9356
▁ㅅㅓㅈㅏ	-9357
▁ㄱㅘㄴㄱㅜ	-9358
▁ㅁㅓㄴㅈㅣ	-9359
▁ㅍㅏㅇㅣㄴㅓㄹ	-9360
▁ㅂㅏㅇㅅㅏㅅㅓㄴ	-9361
IP	-9362
ㅈㅡㅂㅔ	-9363
ㅋㅏㅁㅣ	-9364
▁ㅅㅏㅅㅏㄹ	-9365
▁ㅌㅐㄱㅎㅏ	-9366
▁ㅇㅜㅈㅡㅂㅔ	-9367
▁ㄱㅡㄷㅐ	-9368
▁ㅁㅏㄴㅇㅣㄹ	-9369
▁ㅂㅗㅇㅇㅏㄴ	-9370
▁ㄷㅗㅊㅓㅇ	-9371
▁ㅇㅛㄱㄱㅜ	-9372
▁ㅈㅏㅌㅐㄱ	-9373
▁ㄱㅗㅇㅂㅏㅇ	-9374
▁SD	-9375
▁ㅌㅜㄴ	-9376
ㅠㄹㅓㅂ	-9377
▁ㅇㅣㅅㅔ	-9378
▁ㅁㅗㄹㅗㅋㅗ	-9379
▁ㅇㅞㅅㅡㅌㅓㄴ	-9380
ㅅㅖㅂㅣ	-9381
ㅈㅓㅈㅣ	-9382
▁1898	-9383
▁ㄹㅣㅇㅗ	-9384
▁ㄹㅔㅂㅏㄴㅗㄴ	-9385
ㅠㅁㅗ	-9386
▁ㅇㅣㄹㄱㅏ	-9387
▁ㅇㅗㅂㅅㅕㄴ	-9388
▁ㅂㅓㅁㅇㅠㅎㅐㅇ	-9389
▁ㅁㅏㄹㅣㄴ	-9390
▁ㄷㅏㄴㅕㅇㅗ	-9391
▁LC	-9392
ㄷㅜㄱㅛ	-9393
▁ㅋㅔㄴㅑ	-9394
ㄱㅗㅇㅅㅣㄴ	-9395
ㅂㅡㄹㅣㅈㅣ	-9396
ㅗㄴㅌㅡ	-9397
▁ㅇㅖㅅㅣ	-9398
ㅅㅡㅇㅂㅜ	-9399
▁ㅁㅣㅎㅏㅇㅣㄹ	-9400
▁ㅊㅐㄹㄹㅣㄴㅈㅣ	-9401
ㄹㅗㅇㅣ	-9402
▁ㄷㅟㅈㅣㅂ	-9403
▁ㅅㅣㅈㅓㅇ	-9404
▁ㄱㅓㅁㅊㅏㄹㅊㅓㅇ	-9405
ㅗㅁ	-9406
▁115	-9407
ㅅㅡㅂㅜㄱ	-9408
▁ㅇㅏㄹㅇㅏ	-9409
ㅈㅜㄹㅗ	-9410
▁ㅁㅜㅎㅏㅁ	-9411
▁GS	-9412
ㅈㅏㅇㅣ	-9413
ㅑㄴㅡㄴ	-9414
▁ㅎㅢㄱㅟ	-9415
▁ㅁㅏㄴㄹㅛ	-9416
▁ㄱㅣㅁㅎㅕㄴ	-9417
▁ㅅㅣㅇㅟㄷㅐ	-9418
▁ㅅㅏㅇㅟ	-9419
▁ㄱㅣㅈㅣㄹ	-9420
▁ㅅㅗㄱㅠㅁㅗ	-9421
▁ㅇㅓㄱㅡㅅ	-9422
▁ㅇㅚㅇㅑㅅㅜ	-9423
▁ㄱㅘㅇㅎㅐㄱㅜㄴ	-9424
▁GP	-9425
▁ㅂㅜㄷㅣㅈ	-9426
▁ㄴㅐㅇㅈㅓㄴ	-9427
▁ㅈㅡㄱㄱㅏㄱ	-9428
▁ㄱㅖㅇㅕㄹㅅㅏ	-9429
▁129	-9430
▁ㄴㅏㅁㄱㅜ	-9431
▁ㄱㅗㄴㄹㅏㄴ	-9432
▁ㅊㅣㅇㅊㅏㄴ	-9433
▁ㄹㅜㄴ	-9434
ㄹㅣㄴㅏ	-9435
▁ㅁㅐㄱㅅㅡ	-9436
▁ㅌㅐㄱㅡㄱ	-9437
▁ㅎㅔㄹㄱㅣ	-9438
ㅂㅏㅇㅅㅗㅇㄱㅗㅇㅅㅏ	-9439
rom	-9440
▁ㄱㅏㅇㅗㄱ	-9441
▁ㄱㅡㄴㅑㅇ	-9442
▁ㅂㅣㅊㄴㅏ	-9443
▁ㅊㅗㅇㅝㄹ	-9444
▁ㅍㅐㄹㅓㄹ	-9445
▁ㄴㅠㅈㅓㅈㅣ	-9446
▁ㅍㅡㄹㄹㅐㅅㅣ	-9447
ㅗㅇㅣㅌㅡ	-9448
▁ㅎㅚㅅㅏㅇ	-9449
▁ㅓㅅㅓ	-9450
▁ㅇㅝㅋㅡ	-9451
▁ㄱㅘㅂㅏㄴ	-9452
▁ㄴㅓㅁㅊㅣ	-9453
▁ㅍㅜㅇㅈㅏ	-9454
▁ㅂㅡㄹㄹㅐㄱㅎㅗㄹ	-9455
ㅌㅗㄹㄹㅔ	-9456
▁ㄱㅘㄴㅅㅔ	-9457
▁ㄷㅔㄹㅡ	-9458
▁ㅅㅏㅂㅗㄴ	-9459
▁ㅎㅘㅇㅈㅗㄱ	-9460
▁ㅅㅓㅇㄹㅣㅎㅏㄱ	-9461
▁ㄹㅓㅁ	-9462
▁ㅇㅏㅇㅣㄷㅣ	-9463
ㅡㄹㅔ	-9464
▁ㅂㅐㅎㅜ	-9465
▁ㄴㅗㅎㅊㅣ	-9466
▁ㅇㅛㅈㅓㅇ	-9467
▁ㅈㅓㄴㅓㄹ	-9468
▁ㅎㅗㅊㅜㄹ	-9469
▁ㄷㅗㅁㅣㄴㅣ	-9470
▁ㅇㅣㄴㅁㅕㅇ	-9471
▁ㅊㅜㄱㅊㅜㄹ	-9472
▁JT	-9473
ㅏㅇㅣㄷㅡ	-9474
▁ㄸㅓㄹㅊㅣ	-9475
▁III	-9476
▁ㅇㅗㄴㅗ	-9477
▁ㄱㅏㅁㅈㅏ	-9478
▁ㅊㅚㄷㅐㅎㅏㄴ	-9479
▁ㅇㅢㅇㅑㄱㅍㅜㅁ	-9480
▁ㄱㅏㅇㅅㅓ	-9481
▁ㄴㅏㅁㅁㅣ	-9482
▁ㄷㅏㅅㅡ	-9483
▁ㅊㅔㅅㅡ	-9484
ㄷㅗㄱㅜㄴ	-9485
▁ㅅㅣㄱㅏㅈㅣ	-9486
▁ㅁㅏㅇㅜㄴㅌㅡ	-9487
▁ㅈㅔㅊㅣ	-9488
▁ㅋㅐㄴㅈㅏㅅㅡ	-9489
▁ㄱㅡㄱㅈㅏㄱ	-9490
▁ㅁㅣㅅㅗ	-9491
▁ㅇㅏㄹㅇㅏㅂㅗ	-9492
▁ㅇㅛㅇㅇㅣ	-9493
▁ㅇㅡㄴㄷㅔ	-9494
▁ㄱㅕㅇㅅㅣㄴ	-9495
▁ㅌㅗㅇㅊㅣㅈㅏ	-9496
▁ㅇㅏㄹㄹㅜㅁㅣㄴ	-9497
ㅆㅜ	-9498
▁ㅋㅛ	-9499
ㅎㅣㅋㅗ	-9500
▁ㄷㅡㄹㅣㅁ	-9501
▁ㅇㅘㅇㅅㅔ	-9502
▁ㅇㅞㅂㅌㅜㄴ	-9503
▁ㅂㅔㄹㄹㅏㄹㅜㅅㅡ	-9504
ph	-9505
▁ㅎㅘㅎㅐ	-9506
▁ㅈㅐㅎㅗㄴ	-9507
ㅎㅐㅁ	-9508
▁ㅈㅓㅇㅂㅕㄴ	-9509
▁ㄱㅕㅇㅊㅏㄹㄱㅘㄴ	-9510
▁ㅂㅜㄹㅌㅏ	-9511
▁ㅇㅏㄴㅌㅗㄴㅣㅇㅗ	-9512
▁ㅇㅣㄱㅓ	-9513
ㄷㅐㅅㅓㅇ	-9514
▁ㅁㅣㄱㅅㅡ	-9515
▁ㅈㅣㅇㅣㄴ	-9516
ㅇㅣㅆ	-9517
ㅅㅜㅅㅗ	-9518
▁ㅁㅏㄱㄴㅐ	-9519
▁ㅍㅜㄹㄹㅕㄴㅏ	-9520
▁ㅁㅏㅇㅣㅋㅡㄹㅗ	-9521
urn	-9522
ㅆㅡㄹ	-9523
ㅜㅇㅔ	-9524
▁ㄷㅏㄷㅏ	-9525
ㅎㅏㅁㅅㅜ	-9526
▁ㅍㅗㄱㅍㅗ	-9527
▁ㅇㅔㄷㅡ	-9528
▁ㅂㅣㅅㅓㄱ	-9529
▁ㅅㅜㄴㅈㅗ	-9530
▁ㅋㅏㄹㄹㅏ	-9531
ㄷㅏㅎ	-9532
ㄷㅗㅂㅏ	-9533
ction	-9534
▁ㅅㅡㅇㅈㅏ	-9535
▁ㅈㅔㅇㅏㅂ	-9536
▁ㅋㅙㅅㅗㄱ	-9537
▁ㄱㅘㅇㅈㅜㄱ	-9538
ㄱㅞ	-9539
▁ㅅㅓㄴㄷㅗ	-9540
▁ㅊㅓㅁㄷㅏㄴ	-9541
▁ㅊㅓㅇㅈㅜㅅㅣ	-9542
▁ㅊㅓㄴㅁㅜㄴㄷㅐ	-9543
ㅏㅇㅜㅅㅡ	-9544
▁ㅂㅏㄹㄹㅣ	-9545
▁ㅈㅓㅇㄹㅕ	-9546
▁ㅈㅣㅊㅣㅁ	-9547
▁ㄷㅗㄹㄱㅕㄱ	-9548
▁ㅇㅝㄹㅇㅛㅇㅣㄹ	-9549
▁ㅇㅗㄴㅌㅏㄹㅣㅇㅗ	-9550
▁142	-9551
▁ㄷㅏㅋㅡ	-9552
▁ㅇㅠㄹㅏ	-9553
▁ㅍㅣㄹㅅㅏ	-9554
▁ㅂㅕㄱㄷㅗㄹ	-9555
▁ㅍㅡㄹㅗㄷㅓㄱㅅㅕㄴ	-9556
▁ㅊㅣㅁㅌㅜ	-9557
ㅋㅛ	-9558
ㅊㅓㄴㄹㅣ	-9559
▁ㅂㅗㄴㄱㅜㄱ	-9560
▁ㅊㅗㅇㅊㅣㅇ	-9561
▁ㅂㅜㅍㅣ	-9562
▁ㅂㅕㄴㅇㅣ	-9563
▁ㅈㅣㅇㄱㅖ	-9564
▁ㅁㅐㄴㅣㅈㅓ	-9565
▁ㅇㅑㅁㅏㅌㅗ	-9566
▁ㄹㅔㅅㅡㄹㄹㅣㅇ	-9567
ㄹㅗㄹㄹㅏㅇㅣㄴㅏ	-9568
ㅎㅏㅇㅣㅁ	-9569
▁ㅂㅏㄺㄱㅣ	-9570
▁ㅇㅓㅅ	-9571
▁ㅇㅞㄴ	-9572
▁ㄱㅘㅇㅈㅜㄱㅘㅇㅇㅕㄱㅅㅣ	-9573
TS	-9574
▁Ne	-9575
▁1899	-9576
▁ㅇㅖㅎㅏ	-9577
ㅈㅣㄴㄱㅜㄴ	-9578
▁ㅅㅜㄱㅊㅓㅇ	-9579
▁ㅈㅗㅈㅣㅍㅡ	-9580
▁ㅊㅜㄱㅁㅜㄹ	-9581
ㅌㅔㄹㅡㅂㅜㄹㅡㅋㅡ	-9582
▁CJ	-9583
ㅋㅗㄷㅣㅇ	-9584
▁ㄱㅕㄹㅋㅗ	-9585
▁ㅅㅡㅇㅂㅜㅊㅏㄱㅣ	-9586
ㅎㅘㅁㅜㄹ	-9587
▁ㄱㅘㄴㅈㅔ	-9588
▁ㅈㅐㅅㅓㄴ	-9589
▁ㅋㅔㅇㅣㅁ	-9590
▁ch	-9591
ㅇㅏㅁㅓㄱ	-9592
▁ㄱㅚㅁㅜㄹ	-9593
▁ㅎㅚㄱㅘㄴ	-9594
▁ㄹㅓㅅㅔㄹ	-9595
▁ㄷㅐㅅㅓㅇㅑㅇ	-9596
pp	-9597
▁ㅎㅔㄱ	-9598
▁ㅈㅜㅇㅅㅏㄴ	-9599
▁ㅈㅏㅇㄹㅖㅅㅣㄱ	-9600
ㅍㅗㄹㅗ	-9601
▁ㅅㅗㅁㅐ	-9602
ㅂㅏㄷㅏㄱ	-9603
▁ㅇㅠㅈㅣㄴ	-9604
▁ㄷㅏㄱㅏㅇㅗ	-9605
▁ㅎㅗㄴㄷㅗㅇ	-9606
▁ㅂㅜㅇㅢㅈㅏㅇ	-9607
ㅉㅣ	-9608
▁ㄷㅓㄴㅣ	-9609
▁ㅇㅚㅁㅗ	-9610
▁ㅁㅣㄹㅈㅣㅂ	-9611
▁ㅍㅗㄱㄴㅓㄼ	-9612
▁ㅈㅜㅂㅜ	-9613
▁ㅊㅟㅇㅓㅂ	-9614
▁ㅈㅓㄴㅈㅏㄱㅣ	-9615
▁ㅇㅕㄴㅅㅏㄴㅈㅏ	-9616
▁ㄱㅏㄹㅜ	-9617
▁ㅂㅣㅊㅜ	-9618
▁ㅇㅜㅊㅡㄱ	-9619
▁ㅈㅓㅇㅅㅔ	-9620
▁`	-9621
▁ㅇㅣㄷㅡ	-9622
ㅈㅐㅇㅇㅣ	-9623
▁ㄱㅣㅈㅡㅇ	-9624
▁ㄷㅐㅅㅗㄴ	-9625
▁ㅅㅓㅈㅣㄴ	-9626
▁ㅁㅕㅇㅈㅗㅇ	-9627
▁ㅁㅣㅅㅔ	-9628
▁ㅂㅏㄹㅎㅐ	-9629
▁ㅎㅏㄱㅇㅓㅂ	-9630
▁ㅊㅗㅇㅅㅏㄹㅕㅇ	-9631
▁ㄱㅏㅂㅈㅏㄱㅅㅡㄹㅓㅂ	-9632
▁ㄷㅐㅂㅜ	-9633
▁ㅍㅣㄱㅕ	-9634
▁ㅁㅣㄷㅡㄹ	-9635
▁ㅇㅗㅇㄹㅣㅂ	-9636
▁ㅈㅓㄻㅇㅡㄴㅇㅣ	-9637
▁Man	-9638
▁ㅁㅏㄷㅣ	-9639
▁ㅂㅏㄹㅂㅕㅇ	-9640
▁ㅅㅏㅅㅏㅇㅈㅏ	-9641
▁ㄱㅡㅁㅇㅛㅇㅣㄹ	-9642
▁ㄹㅣㅂㅠ	-9643
▁ㅅㅗㅅㅐㅇ	-9644
lan	-9645
▁ㄴㅠㅌㅓㄴ	-9646
▁ㅌㅚㅇㅣㅁ	-9647
▁ㅂㅡㄹㅣㅌㅡㄴ	-9648
▁ㄱㅛㅌㅗㅇㄱㅜㄱ	-9649
▁ㄱㅏㄱㄷㅗ	-9650
▁ㅍㅏㅅㅏㄴ	-9651
▁ㅈㅓㄴㄴㅕㄴ	-9652
▁ㅉㅗㅊㄱㅕㄴㅏ	-9653
▁1902	-9654
▁ㅂㅏㄹㄱㅣ	-9655
▁ㅇㅣㄴㄷㅣㅇ	-9656
▁ㅋㅓㄴㅅㅔㅂ	-9657
▁ㅋㅣㄹㅡ	-9658
▁ㅌㅗㅇㅂㅗ	-9659
▁ㄱㅘㅇㄷㅜㅇ	-9660
▁ㅋㅣㅂㅗㄷㅡ	-9661
▁ㅇㅕㄴㅇㅖㅇㅣㄴ	-9662
ens	-9663
▁ㅇㅜㅊㅔ	-9664
ㅈㅗㄱㅓㄴ	-9665
▁ㄷㅗㅇㅈㅓㅇ	-9666
▁ㅂㅜㅇㅕㅂㅏㄷ	-9667
▁ㅍㅡㄹㄹㅏㅅㅡㅌㅣㄱ	-9668
ㅌㅏㅈㅜ	-9669
ㅌㅏㅁㅣㄴ	-9670
▁ㅋㅔㄹㄹㅣ	-9671
▁ㅈㅗㅇㅅㅗㄱ	-9672
▁ㅌㅗㅊㅏㄱㅈㅗㅇ	-9673
lic	-9674
ㅡㄱㅏㅇ	-9675
▁ㄷㅜㄹㅜ	-9676
▁ㄱㅏㅎㅘㄴ	-9677
▁ㅋㅔㅂㅣㄴ	-9678
▁ㅎㅘㄹㅕㄱ	-9679
▁ㄱㅓㄹㅐㅅㅗ	-9680
▁ㅁㅏㄹㅆㅡㅁ	-9681
▁ㅇㅣㅁㅇㅝㄴ	-9682
▁ㅅㅓㄹㅎㅘ	-9683
▁ㅇㅠㅂㅏㅇ	-9684
▁ㄷㅓㄱㅡㄹㄹㅓㅅㅡ	-9685
▁ID	-9686
ㄹㅐㅇ	-9687
▁ㅈㅣㅇㅗㄱ	-9688
▁ㅎㅏㅇㅑㅎ	-9689
▁ㅅㅔㅇㅣㅂㅡ	-9690
▁ㅊㅐㅅㅗ	-9691
▁ㅊㅔㅋㅗㅅ	-9692
▁ㅎㅖㅌㅐㄱ	-9693
▁ㅊㅔㅋㅗㅅㅡㄹㄹㅗ	-9694
▁ㅊㅔㅋㅗㅅㅡㄹㄹㅗㅂㅏㅋㅣㅇㅏ	-9695
ㄹㅣㅇㅓㄹ	-9696
▁ㅇㅓㄹㅡㄴ	-9697
▁ㅌㅏㄴㄷㅗ	-9698
▁ㅇㅝㄴㄹㅗㅇㅝㄴ	-9699
▁ㅍㅡㄹㄹㅐㅅㅍㅗㅁ	-9700
▁ㄱㅔㄹㅡ	-9701
▁ㅇㅏㅈㅡ	-9702
▁ㅁㅜㅁㅕㅇ	-9703
▁ㄴㅏㄴㅈㅣㅇ	-9704
▁ㄹㅜㄱㅅㅔㅁ	-9705
▁ㄷㅗㅇㄹㅐ	-9706
▁ㅎㅘㅅㅏㅇ	-9707
▁''	-9708
▁ㅇㅕㄴㄲㅗㅊ	-9709
▁ㅁㅝ	-9710
▁ㅎㅏㄱㄱㅣ	-9711
▁ㅇㅏㄹㄹㅜㅁㅣㄴㅠㅁ	-9712
▁ㄹㅑ	-9713
▁ㄱㅏㅇㄷㅗㅇ	-9714
▁ㅁㅏㄴㅅㅓㅇ	-9715
ㅡㄹㅓㅁㅣ	-9716
▁ㄱㅜㄱㅕㅇ	-9717
▁ㅅㅣㄴㅇㅝㄴ	-9718
▁ㄱㅐㅁㅏㄱㅈㅓㄴ	-9719
▁ㅂㅜㄴㅁㅕㅇㅎㅣ	-9720
▁ㅇㅓㄵ	-9721
▁ㅁㅐㅁㅐ	-9722
▁ㅇㅑㅁㅏㄱ	-9723
▁ㅇㅡㅇㅅㅣ	-9724
▁ㅂㅗㅇㄱㅓㄴ	-9725
▁ㅋㅡㄹㄹㅔㅁ	-9726
▁ㅎㅏㄴㅈㅗㄱ	-9727
▁ㅂㅜㄴㅂㅣ	-9728
▁ㅂㅡㄹㅐㄴ	-9729
▁ㅊㅓㄴㅎㅏ	-9730
▁ㅇㅝㄴㅈㅗㅇ	-9731
▁ㅋㅜㄱ	-9732
▁ㄹㅗㄹㅏ	-9733
▁ㅇㅑㅇㅂㅏㄴ	-9734
TC	-9735
▁ㅎㅏㅊㅏ	-9736
ㄹㅡㄷㅏㄴ	-9737
▁ㄱㅏㅁㅁㅏ	-9738
▁ㅈㅣㄴㅅㅏ	-9739
▁ㄱㅗㅇㅈㅓㄱ	-9740
▁ㅇㅕㄴㅅㅡㅇ	-9741
▁ㄱㅣㅅㅏㄷㅏㄴ	-9742
▁ㅂㅣㅎㅐㅇㅈㅏㅇ	-9743
ㄲㅜㄹ	-9744
▁ㄹㅗㅂㅣ	-9745
▁ㄱㅏㄴㅅㅓㄴ	-9746
▁ㄷㅐㅅㅓㅇㄷㅏㅇ	-9747
▁ㅅㅡㅌㅏㄹㅣㄱㅡ	-9748
▁IM	-9749
▁ㄹㅓㅅㅡ	-9750
▁ㅎㅏㄷㅏㄴ	-9751
▁ㅈㅓㄴㅅㅗㄱ	-9752
▁BS	-9753
▁ㄱㅐㅅㅗ	-9754
▁ㅌㅗㄲㅣ	-9755
ㅏㅇㅣㅈㅡ	-9756
▁ㄱㅣㄱㅏㄱ	-9757
▁ㄴㅚㅁㅜㄹ	-9758
▁ㅅㅜㅂㅜㄴ	-9759
▁ㅌㅗㅇㅑㅇ	-9760
▁ㅂㅏㄹㄱㅡㅂ	-9761
▁ㅇㅚㄴㅅㅗㄴ	-9762
▁ㄷㅏㅎㅏㅇㅅㅣㄱ	-9763
▁ㄹㅔㅁ	-9764
▁ㄷㅐㄱㅓ	-9765
▁ㅌㅏㅈㅣ	-9766
▁ㄱㅏㄹㄹㅏ	-9767
▁ㄱㅗㅇㅈㅗ	-9768
▁ㄱㅗㅇㄱㅏㅁ	-9769
▁ㅅㅔㅇㅣㅂㅜ	-9770
▁ㅅㅡㅈㅡㅋㅣ	-9771
▁ㅍㅡㄹㅏㄴㅊㅡ	-9772
▁ㄱㅏㅅㅣㄴ	-9773
▁ㅂㅔㄹㄹㅣ	-9774
▁ㅅㅐㅇㅊㅔ	-9775
▁ㅎㅣㄴㄷㅜㄱㅛ	-9776
ary	-9777
▁ㅇㅛㄱㅓㄴ	-9778
▁ㅈㅓㄱㄷㅗ	-9779
▁ㅅㅗㄴㅏㅁㅜ	-9780
▁ㅁㅣㅋㅣ	-9781
▁ㅇㅞㅅㅡㅌ	-9782
▁ㅊㅏㅇㅊㅜㄹ	-9783
▁ㅋㅗㅁㅣㄱㅅㅡ	-9784
▁ㅇㅣㄱㅅㅡㅍㅡㄹㅔㅅㅡ	-9785
▁ㅍㅡㄹㅏㅇㅋㅡㅍㅜㄹㅡㅌㅡ	-9786
ㅌㅠㅁ	-9787
▁ㅈㅜㅇㅂㅗㄱ	-9788
▁ㅈㅜㅇㅎㅕㅇ	-9789
▁ㅕㅆ	-9790
ㄲㅜㅁ	-9791
▁ㅇㅏㄴㅏ	-9792
▁ㅍㅗㅎㅚㄱ	-9793
▁ㅎㅘㄱㅏㅇ	-9794
▁ㄱㅜㄱㅇㅕㅇ	-9795
▁ㅈㅑ	-9796
ㅔㄴㅣ	-9797
▁ㅅㅏㅅㅡㅁ	-9798
▁ㅅㅡㅂㅈㅣ	-9799
▁ㄷㅗㅇㅎㅏㄱ	-9800
▁ㅂㅣㄹㅗㅅㅗ	-9801
▁ㅅㅗㅅㅣ	-9802
▁ㅇㅖㅈㅗ	-9803
▁ㅇㅣㅎㅘ	-9804
▁ㅎㅘㅈㅏ	-9805
▁ㅅㅓㅅㅣㄴ	-9806
▁ㅊㅓㄱㅊㅜ	-9807
▁ㄱㅣㅅㅜㄹㅈㅏ	-9808
ㄷㅏㅁㅕ	-9809
▁ㅇㅣㅂㅡㄴ	-9810
▁ㅈㅜㅇㅊㅜ	-9811
▁ㅅㅐㅇㅅㅐㅇ	-9812
▁ㅇㅕㅇㄷㅡㅇ	-9813
▁ㄹㅓㅅㅣㅇㅏㅇㅓ	-9814
▁ㄱㅣㄴㅣ	-9815
▁ㅈㅏㅇㅏ	-9816
▁ㄱㅡㄹㅡㅅ	-9817
▁ㅇㅕㅇㅁㅜㄴ	-9818
▁ㅎㅐㅁㅣㄹㅌㅓㄴ	-9819
▁ㅍㅗㅋㅔㅅㅁㅗㄴㅅㅡㅌㅓ	-9820
▁ㅋㅏㅅㅣ	-9821
▁ㅅㅣㅂㅓㅁ	-9822
▁ㄱㅏㅇㅂㅕㄴ	-9823
▁ㅂㅏㄲㅏㅌㅉㅗㄱ	-9824
▁ㄷㅗㄱㅅㅓ	-9825
▁ㄲㅡㄹㅇㅓㄷㅡㄹㅇㅣ	-9826
ㄱㅗㅋㅜ	-9827
▁ㅇㅣㅈㅡ	-9828
▁ㄷㅏㅂㅂㅕㄴ	-9829
▁ㅎㅕㄴㅇㅡㄴ	-9830
▁ㅍㅡㄹㄹㅏㅇㅣ	-9831
TA	-9832
▁ㅅㅣㄱㅏ	-9833
ㅅㅡㅌㅗㄹ	-9834
▁ㅂㅕㅇㄱㅣ	-9835
▁ㅅㅐㅇㄹㅑㄱ	-9836
▁ㅌㅓㄸㅡㄹㅣ	-9837
▁ㄹㅜㄱㅅㅔㅁㅂㅜㄹㅡㅋㅡ	-9838
▁ㄷㅐㅅ	-9839
▁ㅇㅝㅌㅓ	-9840
ㅁㅣㅅㅏㅇ	-9841
ㅅㅣㅈㅡㅁ	-9842
ㅈㅣㅅㅈㅓㅁ	-9843
▁ㄷㅏㄴㅊㅜㄱ	-9844
▁ㅈㅓㅇㅅㅓㅇ	-9845
▁ㅁㅜㅅㅡㅇㅂㅜ	-9846
▁ㄱㅕㅇㅅㅓㅇㅂㅜ	-9847
ㅏㄱㅗㄴ	-9848
▁ㅈㅓㅈㅜ	-9849
▁ㅌㅗㅁㅗ	-9850
▁ㅂㅗㅇㅣㅅㅡ	-9851
▁ㄲㅗㄱㅈㅣㅅㅈㅓㅁ	-9852
▁ㄷㅐㅊㅣ	-9853
▁ㅂㅣㄱㅣ	-9854
ㅇㅟㅇㅝㄴ	-9855
▁ㅍㅣㅅㅣㄴ	-9856
▁ㄴㅏㅁㅈㅏㄱ	-9857
▁ㅈㅣㄱㅁㅕㄴ	-9858
▁ㅇㅜㄹㅅㅏㄴㄱㅘㅇㅇㅕㄱㅅㅣ	-9859
ach	-9860
▁ㅇㅟㅉㅗㄱ	-9861
▁No	-9862
ㅅㅔㅅ	-9863
▁ㄱㅗㅅㅏㄴ	-9864
▁ㅇㅏㄷㅗㄹㅍㅡ	-9865
ert	-9866
▁ㅊㅜㅂ	-9867
▁ㅎㅗㄹㅡㅁㅗㄴ	-9868
▁ㅁㅐㅋㅏㅌㅡㄴㅣ	-9869
LE	-9870
ㅍㅗㅌㅓ	-9871
▁ㅊㅓㄴㅈㅐ	-9872
▁ㅊㅗㄱㅁㅐ	-9873
▁ㅇㅏㅂㄷㅜㄹ	-9874
▁ㅂㅏㅂㅣㄹㄹㅗㄴ	-9875
ㅏㄴㅣ	-9876
▁ㄴㅏㄴㅗ	-9877
▁ㅅㅓㄹㅣ	-9878
▁ㅆㅡㅊㅘㄴ	-9879
▁ㅊㅜㄱㅈㅗ	-9880
▁ㄱㅗㅇㅑㅇㅅㅣ	-9881
▁ㅂㅜㅎㅚㅈㅏㅇ	-9882
▁ㄷㅜㄹㅕㅇㅝㅎㅏ	-9883
▁ㅇㅣㅀㅇㅓㅂㅓㄹㅣ	-9884
▁ㄷㅐㄱㅜㄱㅘㅇㅇㅕㄱㅅㅣ	-9885
out	-9886
ㄷㅜㄹㅣ	-9887
▁ㅊㅔㄹㅠ	-9888
▁ㅇㅕㄹㄷㅗ	-9889
▁ㅎㅢㄱㅗㄱ	-9890
▁ㄷㅐㅂㅕㄴㅇㅣㄴ	-9891
▁ㅇㅑㄱㅈㅏ	-9892
▁ㄱㅜㄴㅈㅜㅇ	-9893
▁ㅁㅏㄱㅅㅣㅁ	-9894
▁ㅂㅗㄱㅇㅛㅇ	-9895
▁ㄴㅓㅁㅇㅓㅅㅓ	-9896
▁}	-9897
▁1901	-9898
▁ㄷㅗㄱㅅㅓㅇ	-9899
▁ㅅㅡㅇㅟㅊㅣ	-9900
▁ㅇㅓㄱㅡㅅㄴㅏ	-9901
▁ㅌㅏㅇㅣㅁㅅㅡ	-9902
▁ㄱㅏㅇㅕㄱ	-9903
▁ㅇㅚㄱㅘㄴ	-9904
▁ㅊㅏㅁㅇㅢ	-9905
▁ㄱㅣㅅㅂㅏㄹ	-9906
▁ㅈㅏㅋㅡ	-9907
▁ㅅㅓㅇㅍㅗㄱ	-9908
▁ㅈㅓㅇㅈㅓㄱ	-9909
▁ㅇㅓㄹㅠ	-9910
▁ㅍㅛㅈㅓㄱ	-9911
ㅅㅖㅂㅣㅋㅣ	-9912
▁ㄷㅗㅇㅎㅐㅇ	-9913
▁ㅈㅣㄱㄱㅕㄹ	-9914
LS	-9915
ㄱㅛㄷㅗ	-9916
▁ㅅㅔㅇㅣㄹ	-9917
▁ㅈㅔㄴㅔㅂㅏ	-9918
▁ㄱㅘㅇㅁㅕㅇ	-9919
▁ㅇㅣㅇㅛㅇㅈㅏ	-9920
IG	-9921
ug	-9922
▁MB	-9923
▁ㅁㅗㄳ	-9924
▁ㅇㅓㅉㅓ	-9925
▁ㅅㅡㄹㅣㄹ	-9926
▁ㅈㅣㅊㅜㄹ	-9927
▁ㅋㅗㄲㅣㄹㅣ	-9928
▁ㅆㅓㄹ	-9929
▁ㅁㅜㄹㅏ	-9930
▁ㄱㅗㅇㄹㅣ	-9931
▁ㄷㅏㄴㅇㅢ	-9932
▁ㄷㅗㅇㄴㅔ	-9933
▁ㅅㅏㄱㅏㄴ	-9934
▁ㅂㅗㄴㅁㅜㄴ	-9935
▁ㅍㅜㅇㅔㄹㅡ	-9936
▁ㄷㅏㄲ	-9937
▁ㅇㅗㅀ	-9938
▁ㅁㅜㅇㅓ	-9939
ㄷㅐㅈㅏㅇ	-9940
ㅌㅏㅇㅣㅁ	-9941
▁ㄷㅡㄹㅓㅁㅓ	-9942
▁ㅎㅟㄹ	-9943
▁ㅈㅟㄱㅘ	-9944
ㅈㅓㅇㄹㅣ	-9945
▁ㅍㅡㅌㅗㄹㄹㅔ	-9946
ㅁㅏㅇㅣㅇㅗㅅㅡ	-9947
▁ㅍㅡㅌㅗㄹㄹㅔㅁㅏㅇㅣㅇㅗㅅㅡ	-9948
▁ㄱㅓㅅㅔ	-9949
▁ㅊㅗㅅㅣㄴ	-9950
▁ㅅㅏㅅㅍㅗㄹㅗ	-9951
▁ㅁㅣㄹㅡㄱ	-9952
▁ㅇㅝㄴㅊㅓㄴ	-9953
▁ㅂㅜㅈㅏㄱㅇㅛㅇ	-9954
ㅈㅏㄹㅡ	-9955
▁ㄱㅏㅁㅆㅏ	-9956
▁ㅅㅡㄴㅣㅁ	-9957
▁ㅇㅣㅎㅕㄴ	-9958
ㅋㅏㄱㅏ	-9959
▁ㅇㅖㄱㅗ	-9960
▁ㅎㅏㅁㅏ	-9961
ey	-9962
▁ㄹㅏㅂ	-9963
▁ㅇㅜㅇㅢ	-9964
▁ㅈㅣㅊㅣ	-9965
▁ㅈㅗㅇㄹㅐ	-9966
▁ㄱㅣㅁㅎㅗㅇ	-9967
▁ㄷㅏㄴㅈㅓㄹ	-9968
▁ㅅㅣㄴㄷㅗㅂㅣ	-9969
▁ㄱㅣㅁㅊㅏㅇ	-9970
ㄱㅑㄹ	-9971
▁ㅁㅏㄴㅕ	-9972
▁ㅊㅔㅈㅜㅇ	-9973
▁ㅂㅜㅌㅈㅏㅂㅎㅣ	-9974
▁ㅂㅔㄴㅣ	-9975
▁ㅎㅗㅁㅗ	-9976
▁ㅅㅡㅍㅗㄴ	-9977
▁ㅁㅏㅅㅡㅋㅡ	-9978
▁ㅂㅡㄹㅟ	-9979
▁ㅁㅜㄹㅍㅜㅁ	-9980
▁ㅈㅓㅇㅁㅜㄴ	-9981
▁ㄱㅘㅇㅈㅓㅇㅜ	-9982
▁ㅎㅘㄱㅅㅣㄹㅎㅣ	-9983
▁ㅁㅜㄱㅜㅇ	-9984
▁ㅈㅏㅈㅏㄱ	-9985
▁ㅇㅣㅁㄱㅘㄴ	-9986
▁ㄷㅟㅅㅂㅏㄷㅊㅣㅁ	-9987
▁ㅇㅏㄹㄹㅔㄱㅅㅏㄴㄷㅡㄹㅡ	-9988
▁THE	-9989
ㅅㅡㅌㅔ	-9990
▁ㅍㅛㄱㅣㅂㅓㅂ	-9991
ㅎㅣㅌㅗ	-9992
▁ㅍㅔㅇㅣㄴ	-9993
▁ㅇㅛㄹㅡㄷㅏㄴ	-9994
▁ㅍㅗㄱㄱㅕㄱㄱㅣ	-9995
ㅅㅈㅣ	-9996
▁134	-9997
▁ㅅㅠㄴ	-9998
▁ㅇㅓㄺ	-9999
▁1903	-10000
▁ㄷㅜㄲㅔ	-10001
ㅅㅔㄴㅌㅡ	-10002
ㅌㅔㄱㅊㅓ	-10003
▁ㄱㅣㅁㅈㅔ	-10004
▁ㅇㅕㅁㅈㅡㅇ	-10005
▁ㅈㅣㅅㅣㄱㅇㅣㄴ	-10006
▁ㅇㅏㅋㅣㅌㅔㄱㅊㅓ	-10007
ㅊㅣㄱㅣ	-10008
▁ㄷㅐㅍㅐ	-10009
ㅍㅗㄹㄹㅣ	-10010
▁ㄱㅏㄴㅌㅗ	-10011
▁ㅋㅞㅂㅔㄱ	-10012
ㅂㅔㅌㅡㄴㅏㅁ	-10013
ㅊㅓㅅㅡ	-10014
ㅍㅜㄹㅡ	-10015
▁ㄱㅝㄴㅊㅗㅇ	-10016
▁ㅌㅗㄱㅣ	-10017
ㄱㅡㄹㄹㅏ	-10018
▁ㅇㅕㄴㄱㅣㅈㅏ	-10019
▁ㅇㅠㅊㅔ	-10020
▁ㅈㅜㄷㅚ	-10021
▁ㅇㅗㄹㄹㅏ	-10022
▁ㅅㅏㅇㄱㅡㅁ	-10023
▁ㅅㅓㄴㅎㅐㅇ	-10024
▁ㅇㅕㅁㅅㅐㄱㅊㅔ	-10025
▁ㄹㅖ	-10026
▁ㄱㅏㄴㄷㅏㄴㅎㅣ	-10027
▁ㅅㅗㄴㄲㅗㅂ	-10028
▁ㅇㅣㅅㅓㅇㄱㅖ	-10029
ase	-10030
ㄹㅔㄴㅏ	-10031
▁ㄱㅘㅇㄷㅐ	-10032
▁ㅎㅏㅁㅈㅓㅇ	-10033
▁ㅅㅏㅎㅚㄷㅏㅇ	-10034
▁ㅇㅓㄴㅇㅓㅎㅏㄱ	-10035
▁AN	-10036
▁One	-10037
▁ㄱㅜㅇㅘ	-10038
ㅣㅇㅏㅅㅡ	-10039
▁ㅅㅜㅎㅘㄱ	-10040
▁ㅁㅗㅅㅓㄹㅣ	-10041
▁ㅇㅏㅁㅏㅈㅗㄴ	-10042
ㅓㅂㅓㅂ	-10043
▁ㅁㅜㅎㅏㅁㅁㅏㄷㅡ	-10044
▁ㄱㅣㅅㅜㄱ	-10045
▁ㅅㅓㅁㅜㄴ	-10046
▁ㄹㅏㅍ	-10047
▁ㅇㅡㄹㅕㄱ	-10048
▁ㅋㅗㅁㅍㅐㄱㅌㅡ	-10049
▁ㅇㅘㅋㅏ	-10050
▁ㅅㅓㅇㅈㅣ	-10051
▁ㄱㅐㅇㅅㅣㄴ	-10052
▁ㅇㅣㅌㅏㄹㄹㅣ	-10053
▁ㄱㅘㄴㄱㅘㅇㅈㅣ	-10054
▁ㅇㅏㅇㅣㄴㅅㅠㅌㅏㅇㅣㄴ	-10055
ㄹㅔㅅ	-10056
▁1884	-10057
▁ㅅㅓㄹㅠ	-10058
▁ㄱㅗㅇㅇㅖ	-10059
▁ㄱㅡㄹㄹㅜ	-10060
▁ㅅㅓㄴㅂㅐ	-10061
▁ㅇㅔㄴㄷㅣㅇ	-10062
▁ㅇㅕㄱㄹㅑㅇ	-10063
▁ㅇㅗㄱㅅㅡㅍㅓㄷㅡ	-10064
▁ㄹㅣㅍㅡ	-10065
▁ㅅㅗㅁㅏㄹ	-10066
ㅇㅓㄸㅡㄹㅣ	-10067
▁ㅎㅗㅁㄱㅜㅈㅏㅇ	-10068
▁ㅋㅔㅇㅣㅁㅂㅡㄹㅣㅈㅣ	-10069
▁KIA	-10070
ㅠㅇㅓㄹ	-10071
▁ㅇㅣㅂㅅㅓㅇ	-10072
▁Gr	-10073
▁ㅎㅔㅇㅣㄹ	-10074
ㅅㅡㅌㅔㄹㅡ	-10075
▁ㄱㅏㅁㅎㅐㅇ	-10076
▁ㅈㅣㄱㄱㅕㅇ	-10077
▁ㅍㅏㅇㅣㅌㅓ	-10078
▁ㅅㅏㅇㅓㅂㄱㅏ	-10079
▁EX	-10080
ㅂㅏㄴㅏ	-10081
ㅔㄹㅏㄹ	-10082
▁ㅇㅢㅇㅢ	-10083
▁ㅅㅓㄹㄱㅛ	-10084
▁ㅌㅚㅇㅕㄱ	-10085
▁ㅇㅣㅂㄱㅜㄱ	-10086
▁ㅈㅓㅇㅅㅓㄴ	-10087
▁ㅁㅕㄴㅈㅔ	-10088
▁ㅂㅗㅎㅔㅁ	-10089
▁ㅊㅜㄴㅊㅜ	-10090
▁ㅎㅐㄴㅏㅁ	-10091
▁ㅇㅡㄹㅕㄱㅗ	-10092
▁ㅎㅡㄴㄷㅡㄹㄹㅣ	-10093
ㅍㅣㅇㅓ	-10094
▁ㅁㅏㄹㅕㄱ	-10095
▁ㅌㅡㄹㅗㅍㅣ	-10096
▁ㅅㅗㅎㅐㅇㅅㅓㅇ	-10097
▁All	-10098
▁ㅍㅏㅅ	-10099
▁ㅂㅏㅇㅣㄴ	-10100
▁ㅇㅣㅅㅏㄱ	-10101
▁ㅅㅣㄹㅁㅏㅇ	-10102
▁ㅇㅟㄱ	-10103
ㅂㅡㅅㅡ	-10104
▁ㅂㅗㅇㅟ	-10105
ㅘㄷㅗㄹㅡ	-10106
▁ㅅㅜㅊㅜㄱ	-10107
▁ㅇㅝㄴㄹㅛ	-10108
▁ㅇㅣㄱㅘㄴ	-10109
▁ㅂㅜㄹㄲㅗㅊ	-10110
▁ㅂㅗㄱㅅㅗㅅㅜ	-10111
▁ㄱㅐㅎㅘ	-10112
▁ㅇㅔㅋㅘㄷㅗㄹㅡ	-10113
▁ㅂㅣㄴㅠ	-10114
▁ㄷㅐㅁㅜㄴ	-10115
▁ㅇㅡㅇㅎㅏ	-10116
▁ㅂㅏㅇㅣㅋㅣㅇ	-10117
ㅏㅇㅣㅇㅓㄴㅌㅡ	-10118
▁ㅇㅜㄴㅅㅜ	-10119
▁ㅇㅣㅈㅏㅇ	-10120
ㄹㅔㅇㅣㅌㅓ	-10121
▁ㅋㅓㅁㅂㅐㄱ	-10122
▁ㅅㅗㅂㅏㅇㅅㅓ	-10123
▁ㅇㅕㅇㄱㅜㄱㅇㅣㄴ	-10124
▁ㅂㅏㅇㄱㅡㄹㄹㅏ	-10125
▁ㅇㅑㅁㅏㄱㅜㅊㅣ	-10126
▁ㅈㅔㄱㅜㄱㅈㅜㅇㅢ	-10127
▁ㅂㅏㅇㄱㅡㄹㄹㅏㄷㅔㅅㅣ	-10128
▁ㅋㅡㄹㄹㅏㅇㅣㅇㅓㄴㅌㅡ	-10129
ree	-10130
ㅎㅡㄱ	-10131
▁ㅇㅣㄴㄷㅗㅇ	-10132
▁ㅅㅏㅁㄱㅜㄱㅈㅣ	-10133
▁ㅂㅔㄱ	-10134
▁ㅈㅓㅇㄷㅗㅇ	-10135
▁ㅁㅏㄴㅈㅜㄱㅜㄱ	-10136
▁ㅂㅗㄱㅎㅏㅂㅊㅔ	-10137
▁ㅇㅣㅂㅕㅇ	-10138
▁ㅇㅣㄹㅅㅏㄴ	-10139
▁ㅈㅓㅁㅅㅓㅇㅅㅜㄹ	-10140
ㄲㅡㅅ	-10141
ㅅㅕㄹ	-10142
▁ㅈㅜㅈㅗ	-10143
▁ㅊㅣㅇㅏ	-10144
▁ㄱㅓㅁㅇㅕㄹ	-10145
▁ㅁㅣㄴㄱㅏㅁ	-10146
▁ㅇㅏㅅㅣㅋㅏㄱㅏ	-10147
▁ㅇㅣㄷㅏㄴ	-10148
▁ㄷㅏㄹㄱㅑㄹ	-10149
▁ㅅㅓㅇㅠㄹㅓㅂ	-10150
ㄱㅜㅊㅣ	-10151
▁ㅇㅕㅈㅜ	-10152
▁ㅍㅐㄴㅓㄹ	-10153
▁ㅍㅛㅂㅏㅇ	-10154
ㅔㅅㅡㄹㄹㅣㅇ	-10155
▁ㅍㅡㄹㅗㄹㅔㅅㅡㄹㄹㅣㅇ	-10156
ㄴㅜㄴ	-10157
▁ㅂㅜㅅㅡ	-10158
▁ㅇㅜㅍㅏ	-10159
ㅂㅓㄴㄴㅚ	-10160
▁ㅆㅡㄹㅔㄱㅣ	-10161
▁ㅇㅏㅁㅣㅌㅏ	-10162
▁with	-10163
▁ㅎㅏㄹㅣ	-10164
▁ㅇㅕㅇㅜㄴ	-10165
▁ㅅㅡㅌㅗㅇㅓ	-10166
▁ㄷㅗㄴㅓㄹㄷㅡ	-10167
▁ㄱㅏㄹㅅㅜㄹㅗㄱ	-10168
▁ㅈㅏㅇㄱㅣㄱㅏㄴ	-10169
▁ㅍㅡㄹㅔㄴ	-10170
ㅂㅜㄹㄱㅛ	-10171
▁ㄱㅡㄷㅏㅈㅣ	-10172
▁ㄲㅗㄱㄷㅐㄱㅣ	-10173
▁IN	-10174
ㅏㅇㅣㅅㅡ	-10175
▁ㅂㅏㅇㅅㅏㄴ	-10176
▁ㅎㅣㄹㅗㅅㅣ	-10177
▁ㅇㅏㄹㅏㅂㅣㅇㅏ	-10178
▁1800	-10179
▁ㅁㅏㅇㅑ	-10180
▁ㄱㅕㅇㅂㅜ	-10181
▁ㅆㅡㅅㅣㅁㅏ	-10182
▁ㅌㅗㅅㅣ	-10183
▁ㅁㅗㅌㅓ	-10184
▁ㅍㅔㄴㅣ	-10185
▁ㄴㅜㅈㅓㄱ	-10186
▁ㅇㅝㄴㅂㅗㄴ	-10187
▁ㅊㅓㅇㅅㅏㄴ	-10188
▁ㄱㅣㄴㅕㅁㄱㅘㄴ	-10189
▁ㄷㅡㄹㅏ	-10190
▁ㄱㅕㅇㄱㅘ	-10191
▁ㅂㅜㄴㅊㅜㄹ	-10192
▁ㅅㅏㅁㅊㅗㄴ	-10193
▁ㅇㅣㅂㄱㅏㄱ	-10194
▁ㅈㅓㅇㄹㅣㅂ	-10195
▁ㄱㅐㅇㅣㄴㅈㅓㄴ	-10196
▁ㅌㅐㄱㅡ	-10197
▁ㅁㅗㅎㅏㅁ	-10198
▁ㅇㅜㄹㅍㅡ	-10199
ㅣㅇㅓㄴㅅㅡ	-10200
▁ㄷㅏㄴㅁㅕㄴ	-10201
▁ㅎㅡㅇㅅㅓㄴ	-10202
▁ㅍㅡㄹㅏㄴㅊㅔ	-10203
▁ㅂㅏㅇㅅㅏㅅㅓㅇ	-10204
▁ㄴㅣㅋㅗㄹㄹㅏㅇㅣ	-10205
▁ㅈㅓㅇㅇㅠ	-10206
▁ㅋㅗㅁㅣㄱ	-10207
▁ㅎㅕㅇㅈㅗ	-10208
▁ㄱㅕㅇㅇㅣㄴ	-10209
▁ㅈㅗㅂㅏㄴㄴㅣ	-10210
▁ㅇㅗㅅㅏㅋㅏㅂㅜ	-10211
▁ㄹㅣㅁㅏㄴ	-10212
▁ㄱㅜㄴㅅㅏㄴ	-10213
▁ㄷㅗㅇㅛㅌㅗㅁㅣ	-10214
ㅏㄵ	-10215
ㅏㅅㅣㅇㅏ	-10216
▁ㄱㅜㅎㅕㅇ	-10217
▁ㅋㅐㅅㅓㄹ	-10218
▁ㄱㅗㅇㅁㅕㅇ	-10219
▁ㅊㅏㅇㄴㅕㅇ	-10220
▁ㅌㅡㄱㄱㅝㄴ	-10221
▁Cl	-10222
ㄹㅜㄴ	-10223
▁ㅅㅗㅈㅏ	-10224
▁ㅅㅡㅋㅏㅇㅜ	-10225
▁ㄱㅓㅁㅊㅜㄹ	-10226
▁ㅍㅐㅁㅣㄹㄹㅣ	-10227
11	-10228
act	-10229
ㅅㅏㅇㅘ	-10230
▁ㅈㅏㅎㅕㅇ	-10231
▁ㅍㅣㅇㅋㅡ	-10232
▁ㅂㅏㄹㅋㅏㄴ	-10233
▁ㅈㅓㄴㅇㅕㅁㅂㅕㅇ	-10234
▁ㅈㅔㄹㅣ	-10235
ㅈㅜㅇㅣㄴ	-10236
▁ㄴㅗㄴㅎㅏ	-10237
ㅇㅝㄴㄱㅜㄴ	-10238
▁ㅊㅜㅇㅊㅓㅇㄷㅗ	-10239
▁LA	-10240
▁ㄷㅗㅅㅓㄴ	-10241
ys	-10242
ㅎㅏㅋㅣ	-10243
▁ㅁㅔㅁㅗ	-10244
▁ㄱㅣㅅㅡㄺ	-10245
▁ㅇㅓㄷㅜㅁ	-10246
▁ㅈㅜㄴㅈㅜ	-10247
▁ㅎㅓㄴㅅㅣㄴ	-10248
▁ㄱㅏㄴㅏㄱㅏㅇㅘ	-10249
▁ㄲㅡㄶㅇㅣㅁㅇㅓㅄㅇㅣ	-10250
▁ㅎㅛㄱㅗ	-10251
▁ㅂㅗㅂㅗㄱ	-10252
▁ㅊㅏㄹㅡ	-10253
▁ㅅㅏㅇㅇㅡㅇ	-10254
▁ㅈㅜㅇㄹㅕㅇ	-10255
▁ㅎㅕㄴㄱㅏㅁ	-10256
▁ㄱㅣㄴㅕㅁㅂㅣ	-10257
pt	-10258
▁Ad	-10259
▁ㄷㅡㅇㄱㅣ	-10260
▁ㄱㅝㄴㅈㅏㅇ	-10261
ㅌㅏㅋㅔ	-10262
▁ㄹㅣㅈㅗ	-10263
▁ㅁㅗㄴㅏ	-10264
▁ㅌㅡㄹㅔㅇㅣ	-10265
▁GO	-10266
▁ㅅㅜㅁㅗㄱ	-10267
▁ㄱㅜㄴㅎㅏㅁ	-10268
▁ㄴㅠㅇㅛㄱㅈㅜ	-10269
▁ㄴㅏㅁㄷㅗㅇㅅㅐㅇ	-10270
ㄹㅜㄱ	-10271
▁ㄱㅛㄹㅑㅇ	-10272
▁ㄴㅏㅁㅁㅐ	-10273
▁ㄱㅘㄴㅈㅓㄹ	-10274
▁ㅅㅓㄴㄷㅗㅇ	-10275
ㅓㅇㅣㄹㅇㅡㅋㅣ	-10276
▁ㅂㅜㄹㄹㅓㅇㅣㄹㅇㅡㅋㅣ	-10277
▁ㅂㅡㄹㅏㄴ	-10278
▁ㅈㅓㄴㅂㅏㅇ	-10279
ㄱㅣㄴㅕㅁㅁㅜㄹ	-10280
▁ㄹㅗㅈㅓ	-10281
▁ㅇㅝㄴㅓ	-10282
▁ㅎㅣㄹㅏ	-10283
▁ㅁㅏㅂㅡㄹ	-10284
▁ㄱㅏㅇㄱㅏㄴ	-10285
▁ㅈㅘㅊㅡㄱ	-10286
▁ㅅㅗㅅㅜㅈㅏ	-10287
ass	-10288
▁ㄱㅗㅊㅜ	-10289
▁ㅎㅣㅁㅔ	-10290
▁ㄱㅗㅇㄱㅗ	-10291
▁ㄷㅏㅇㅅㅜ	-10292
▁ㅊㅓㄹㅍㅖ	-10293
▁ㅍㅣㅇㅏㄴ	-10294
▁ㅇㅕㄴㅂㅗㅇ	-10295
▁ㄱㅛㅇㅠㄱㅊㅓㅇ	-10296
ㅗㄴㅔ	-10297
▁ㅇㅏㅁㅜㄱ	-10298
▁ㅈㅓㄴㅅㅣㅎㅚ	-10299
▁ㅅㅡㅋㅡㄹㅣㅂㅌㅡ	-10300
ㄹㅐㄴ	-10301
▁ㅂㅗㄹㄹㅣㅂㅣㅇㅏ	-10302
▁ㅅㅗㅁㅗ	-10303
▁ㅋㅏㅇㅜ	-10304
▁ㄹㅣㅂㅗㄴ	-10305
▁ㅇㅜㅁㅜㄹ	-10306
▁ㅇㅣㄹㅓㅎ	-10307
▁ㅈㅟㅅㅗㄱ	-10308
▁ㄷㅔㅅㅡㅋㅡ	-10309
▁ㅅㅏㄴㅊㅜㄹ	-10310
▁ㅇㅏㄹㄹㅔㄱㅅㅏㄴㄷㅡㄹㅣㅇㅏ	-10311
ㅑㅂㅏ	-10312
▁ㅅㅣㅋㅗ	-10313
▁ㄷㅟㅉㅗㄱ	-10314
▁ㅂㅗㅅㅓㅇ	-10315
▁ㅈㅓㄴㄱㅜ	-10316
▁ㅊㅜㅊㅓㅁ	-10317
▁ㄱㅗㄱㅁㅜㄹ	-10318
▁ㄱㅜㅇㅈㅜㅇ	-10319
▁116	-10320
▁ㅇㅓㄹㅚ	-10321
▁ㅅㅓㄱㅂㅜㄹ	-10322
▁ㅇㅏㄹㅣㅅㅡㅌㅗ	-10323
▁ㅊㅗㅇㄷㅐㅈㅜㄱㅛ	-10324
▁ㅁㅠㅈㅣㅅㅕㄴ	-10325
▁ㅂㅜㄱㅇㅏㅍㅡㄹㅣㅋㅏ	-10326
▁ㅇㅓㄷㅡ	-10327
▁ㅌㅚㅈㅓㄱ	-10328
▁ㅅㅔㄱ	-10329
▁ㅇㅜㅎㅚ	-10330
▁ㅈㅣㄹㅅㅗ	-10331
▁ㅎㅏㄱㄷㅐ	-10332
▁ㅁㅏㅇㅐ	-10333
▁ㅌㅡㄹㅣㄱ	-10334
▁ㅎㅜㅁㅊㅣ	-10335
ㅋㅡㄹㄹㅔㅅㅡ	-10336
▁ㅅㅡㄹㄹㅏㅂㅡ	-10337
▁ㄲㅐㅈㅣ	-10338
▁ㄱㅕㅇㅈㅏㄱ	-10339
▁ㅂㅜㄴㄹㅑㅇ	-10340
▁ㅇㅏㄴㄱㅕㅇ	-10341
▁ㅈㅜㅇㅇㅏㅇㅇㅏㅅㅣㅇㅏ	-10342
▁Br	-10343
ㅋㅡㄹㅏ	-10344
▁ㄲㅡㄹㄹ	-10345
▁ㅎㅏㄴㅌㅔ	-10346
ㅇㅕㄱㅎㅏㄱ	-10347
▁ㅅㅏㅇㄱㅕㅇ	-10348
▁ㅅㅣㄴㅊㅜㄱ	-10349
▁ㅎㅏㅁㅅㅓㄴ	-10350
▁ㅋㅐㅅㅓㄹㅣㄴ	-10351
ㅏㄱㅅㅡ	-10352
▁ㄱㅡㄹㅏㄴ	-10353
▁ㄱㅓㅈㅜㅈㅣ	-10354
▁CN	-10355
ㅎㅡㄹ	-10356
ㅅㅏㅇㅓㅂ	-10357
▁ㅇㅣㅂㅜㄱ	-10358
▁ㄱㅏㄱㅅㅐㄱ	-10359
▁ㅂㅏㄹㄹㅕㅇ	-10360
▁ㅂㅏㄹㄹㅔㄴㅅㅣㅇㅏ	-10361
ㅋㅜㅂㅓ	-10362
▁ㄷㅔㄹㅌㅏ	-10363
▁ㅅㅣㄹㅁㅜ	-10364
▁ㄴㅏㄹㅋㅏㄹ	-10365
▁ㅎㅓㄴㅈㅓㅇ	-10366
▁1897	-10367
▁ㅁㅔㄹㅏ	-10368
▁ㅎㅠㄱㅏ	-10369
▁ㅌㅐㅂㅐㄱ	-10370
▁ㅍㅕㅇㅊㅏㅇ	-10371
▁ㅇㅓㄷㅡㅂㅔㄴ	-10372
▁ㄴㅏㄹㅋㅏㄹㅗㅂ	-10373
ㄱㅏㅎ	-10374
ream	-10375
▁ㄱㅏㅅㅏㄴ	-10376
▁ㅅㅐㄱㅊㅐ	-10377
▁ㅂㅏㅇㅅㅗㅇㅇㅣㄴ	-10378
▁ㅁㅣㅋ	-10379
▁1860	-10380
▁ㄷㅗㅇㅎㅕㅇ	-10381
▁ㅈㅏㅇㅂㅕㄱ	-10382
▁ㄱㅣㄱㅘㄴㅊㅗㅇ	-10383
▁ㅁㅓㅇ	-10384
▁ㄱㅣㅂㅜㄴ	-10385
▁ㅁㅗㄴㅌㅔ	-10386
▁ㅅㅣㄴㅈㅗ	-10387
▁ㅍㅏㄹㄹㅏ	-10388
ㅅㅏㄴㅁㅐㄱ	-10389
▁ㅂㅜㄹㅅㅣㄴ	-10390
▁ㅇㅔㄷㅣㅅㅕㄴ	-10391
▁2022	-10392
▁ㅂㅓㅌㅣ	-10393
▁ㄷㅐㅊㅜㄹ	-10394
▁ㅎㅘㅅㅜㄴ	-10395
▁Ex	-10396
▁Is	-10397
ㄹㅣㄹㄹㅏ	-10398
▁ㅂㅔㄹㄹㅏ	-10399
▁ㅅㅏㅇㅂㅓㅂ	-10400
ㅁㅏㅅ	-10401
▁ㅂㅣㅈㅏ	-10402
▁ㅈㅏㅂㅣ	-10403
▁ㅈㅓㄴㅇㅟ	-10404
▁220	-10405
▁NGC	-10406
ㅋㅏㄴㅗ	-10407
▁ㅊㅟㅁㅣ	-10408
▁ㄴㅗㅇㅂㅜ	-10409
▁ㄱㅛㄷㅗㅅㅗ	-10410
▁ㄷㅡㅇㅇㅛㅇ	-10411
▁ㅎㅘㄱㅈㅣㄴ	-10412
▁ㅇㅘㅇㅣㄹㄷㅡ	-10413
▁ㄴㅐㅁㅅㅐ	-10414
▁ㅁㅏㄷㅏㅇ	-10415
▁ㅁㅜㄲㅇㅣ	-10416
▁ㅅㅠㅌㅣㅇ	-10417
▁ㅋㅗㄴㅌㅔ	-10418
▁ㄱㅏㅇㄴㅏㅁㄱㅜ	-10419
▁ㄱㅡㄹㅔㅇㅣㅌㅡ	-10420
▁ㄹㅣㅎㅣ	-10421
▁ㅅㅔㅂㅏ	-10422
▁ㅎㅚㅍㅣ	-10423
▁ㄱㅕㄴㅇㅣㄴ	-10424
▁ㅇㅣㄴㅈㅣㄹ	-10425
▁122	-10426
▁ㄷㅐㄷㅜ	-10427
▁ㅋㅏㅌㅏㄹㅡ	-10428
▁con	-10429
▁ㅁㅓㅅㅡ	-10430
▁ㅁㅗㅇㅛㅇ	-10431
▁ㄱㅗㅇㅊㅓㄴ	-10432
▁ㅁㅏㅋㅏㅇㅗ	-10433
▁ㅁㅔㅋ	-10434
▁ㅇㅛㅇㅑㄱ	-10435
▁ㅎㅜㅈㅏㄱ	-10436
▁ㄷㅏㅋㅔㄷㅏ	-10437
▁ㅁㅗㄹㅣㅅㅡ	-10438
▁ㅂㅏㄴㄱㅜㄴ	-10439
▁ㅂㅓㅋㅡㄹㄹㅣ	-10440
▁ㅇㅣㄹㅂㅜㅂㅜㄴ	-10441
▁ㅂㅡㄹㄹㅣ	-10442
▁ㅎㅛㅈㅗㅇ	-10443
▁ㅂㅐㅇㅜㅈㅏ	-10444
▁ㅇㅣㅈㅜㅎㅏ	-10445
▁ㅇㅠㄴㅣㄱㅅㅡ	-10446
▁ㅇㅓㄷㅡㅂㅔㄴㅊㅓ	-10447
▁ㅈㅗㅎㅕㅇ	-10448
▁ㅈㅓㄴㅅㅏㄴ	-10449
▁ㅁㅣㄴㄱㅏㄴㅇㅣㄴ	-10450
ㅗㄹㅜ	-10451
ㅔㄹㅌㅡ	-10452
▁ㅅㅜㄹㅛ	-10453
▁ㄷㅗㄹㄱㅣ	-10454
▁ㅍㅏㄹㅏㄱ	-10455
▁ㅈㅣㄷㅗㅂㅜ	-10456
▁ㅈㅣㅋㅕㅂㅗ	-10457
▁ㅂㅡㄹㅜㅅㅡ	-10458
▁ㅈㅗㅇㅈㅓㅁ	-10459
▁ㅍㅗㅅㅡㅌㅓ	-10460
▁ㅇㅏㅁㅣㄴㅗㅅㅏㄴ	-10461
▁ㅊㅓㄴㅇㅕㄴㄱㅣㄴㅕㅁㅁㅜㄹ	-10462
ㅐㄱㅗㄹ	-10463
▁ㄹㅜㅌㅏ	-10464
▁ㄲㅐㄲㅡㅅ	-10465
▁ㅈㅓㄹㅕㅁ	-10466
ㅂㅏㅇㅇㅜㄹ	-10467
▁ㅌㅡㄹㅣㅍㅡㄹ	-10468
▁ㅅㅔㄹㅏ	-10469
▁ㄱㅕㅇㅈㅔㅎㅏㄱㅈㅏ	-10470
▁ㅌㅗㅁㅣ	-10471
▁ㅊㅟㅎㅏㅇ	-10472
▁ㅂㅏㄴㄱㅗㅇ	-10473
▁ㅁㅔㅋㅓㄴㅣㅈㅡㅁ	-10474
▁ㅍㅔㅇㅣㅅㅡㅂㅜㄱ	-10475
▁;&	-10476
ㅌㅡㅍㅔ	-10477
▁ㅅㅣㄴㅗ	-10478
▁ㅁㅐㄱㄷㅗㄴ	-10479
▁ㅇㅏㄹㅍㅡㄹ	-10480
▁ㅅㅏㅇㅌㅡㅍㅔ	-10481
▁ㅈㅜㅇㄱㅗㅇㅇㅓㅂ	-10482
ㅋㅏㅌㅏ	-10483
▁ㄱㅏㅇㅢ	-10484
▁ㅁㅏㄱㅅㅡ	-10485
▁ㅂㅏㄱㅈㅣ	-10486
▁ㅇㅢㄱㅕㄹ	-10487
▁ㅁㅣㄴㅔㅅㅗ	-10488
▁ㄸㅓㄱ	-10489
ㅏㄷㅏㄺ	-10490
ㅐㄱㅅㅡ	-10491
▁ㄲㅏㄷㅏㄺ	-10492
▁ㄱㅗㅇㅎㅘㅇ	-10493
▁ㅅㅡㅋㅞㅇㅓ	-10494
▁ㅅㅣㄴㄷㅗㅇ	-10495
▁ㅅㅗㄹㄹㅜㅅㅕㄴ	-10496
▁ㅊㅔㅋㅡ	-10497
▁ㅎㅗㄹㅣ	-10498
▁ㅈㅗㅇㅍㅏ	-10499
▁ㄱㅜㄴㅊㅓㅇ	-10500
▁ㅈㅓㄹㄷㅏㄴ	-10501
▁ㅅㅡㅌㅡㄹㅏㅇㅣㅋㅡ	-10502
ㄹㄹㅏ	-10503
▁ㄹㅡㅁ	-10504
▁ㄴㅗㅇㅣ	-10505
▁ㅎㅏㅍㅡ	-10506
▁ㅅㅣㅇㅏㄴ	-10507
▁ㅇㅣㅅㅗㅇ	-10508
▁ㅈㅓㅇㅈㅜ	-10509
▁ㄷㅡㄹㅔㅅㅡ	-10510
▁ㅇㅕㄴㄷㅐㄱㅣ	-10511
▁ㅂㅓㅂㅈㅓㅇㄷㅗㅇ	-10512
ii	-10513
▁ㄱㅏㅇㅕㄹ	-10514
▁ㄱㅜㅇㅑㄱ	-10515
▁ㅅㅗㅎㅐㅇ	-10516
ㅂㅡㄹㅣㅇㅔㄹ	-10517
▁ㅇㅏㅍㅗㄹㄹㅗ	-10518
ㅓㅈㅣㄴ	-10519
▁ㄲㅏㄲ	-10520
▁ㄱㅡㅂㅅㅜ	-10521
▁ㄷㅣㅌㅡㄹ	-10522
▁ㅅㅏㅈㅓㄱ	-10523
▁ㅍㅏㅂㅕㅇ	-10524
▁ㄱㅗㅇㅅㅗㄴ	-10525
▁ㅇㅏㄴㅅㅏㄴ	-10526
▁ㄱㅗㅇㅇㅛㅇㅇㅓ	-10527
▁ㅇㅖㅁㅕㅇ	-10528
▁ㅁㅗㅌㅣㅂㅡ	-10529
▁ㅇㅛㅇㅇㅏㅁ	-10530
ㅅㅡㄹㄹㅣ	-10531
▁ㄷㅗㅇㅈㅗ	-10532
▁ㅁㅣㄹㄹㅏㄴ	-10533
▁ㅋㅓㄴㅌㅡㄹㅣ	-10534
clude	-10535
▁ㅂㅗㅌㅡ	-10536
ㅋㅗㅂㅌㅓ	-10537
▁ㄱㅏㄹㄹㅐ	-10538
▁ㅇㅣㄹㄱㅘㄹ	-10539
▁ㅈㅏㅇㅎㅡㅇ	-10540
▁ㅁㅏㄹㅏㅌㅗㄴ	-10541
▁ㅎㅡㅇㅅㅓㄴㄷㅐㅇㅝㄴㄱㅜㄴ	-10542
▁ㄴㅈㅣ	-10543
▁ㅅㅓㄱㅎㅚ	-10544
▁ㅇㅡㅁㅎㅑㅇ	-10545
▁ㅈㅣㄴㅈㅓㄴ	-10546
▁ㅈㅣㄴㅎㅐㅇㅈㅏ	-10547
▁ㄹㅗㅍ	-10548
▁ㄱㅏㄱㅖ	-10549
▁ㄹㅗㄹㅓㄴ	-10550
▁ㅂㅏㄴㅈㅓㄴ	-10551
▁ㅊㅓㅇㅅㅐㄱ	-10552
▁ㄹㅣㄷㅓㅅㅣㅂ	-10553
ㄹㅜㄹ	-10554
▁ㅁㅜㄹㄱㅏ	-10555
▁ㅅㅏㅇㄱㅏ	-10556
▁ㅋㅗㅅ	-10557
ㄷㅗㅅㅡ	-10558
▁ㄴㅏㄹㅜ	-10559
▁ㅌㅣㅋㅗ	-10560
▁ㅁㅣㄹㄹㅓ	-10561
▁ㅂㅕㄱㅎㅘ	-10562
▁ㅇㅕㅁㅅㅗ	-10563
▁ㅅㅓㄹㄹㅣㅂㅈㅏ	-10564
ㅉㅓ	-10565
ㅅㅜㅇㅝㄴ	-10566
▁ㅅㅣㄹㅈㅐ	-10567
▁ㅇㅣㅂㅈㅜ	-10568
▁ㅈㅏㅇㅈㅔ	-10569
▁ㅁㅏㅈㅂㅜㅌ	-10570
▁ㅅㅑㄴ	-10571
ㄱㅏㄴㅈㅣ	-10572
▁ㄱㅏㅁㅇㅏㄴ	-10573
▁ㄴㅏㄱㄷㅗㅇ	-10574
▁ㅍㅔㄴㅅㅣㅇ	-10575
▁ㅎㅏㅁㅇㅑㅇ	-10576
▁ㄷㅚㄷㅗㄹㄹㅣ	-10577
iss	-10578
▁ㅇㅑㅅㅣ	-10579
▁ㄷㅏㅇㅣㄹ	-10580
ㅈㅏㅊㅣㅅㅣ	-10581
▁ㄱㅐㄹㄹㅓㄹㅣ	-10582
▁ㅌㅡㄱㅂㅕㄹㅈㅏㅊㅣㅅㅣ	-10583
ick	-10584
ㄸㅏㅇ	-10585
▁133	-10586
ㅊㅡㅋㅡ	-10587
▁ㅇㅣㅇㅓㄴ	-10588
▁ㅂㅜㄱㄱㅕㅇ	-10589
▁ㅍㅗㅌㅓ	-10590
ㄹㅣㅁㅍㅣㄱ	-10591
▁ㄷㅣㅌㅡㄹㅗㅇㅣㅌㅡ	-10592
▁ㅅㅕㄹ	-10593
ㅇㅚㅅㅓㄴ	-10594
ㅌㅡㄹㄹㅣ	-10595
▁ㅂㅣㄴㄷㅗ	-10596
▁ㅅㅏㅋㅏㅇㅣ	-10597
▁ㅋㅡㄹㄹㅏㅋㅡ	-10598
own	-10599
▁CBS	-10600
▁ㅇㅠㅈㅓㅇ	-10601
▁ㅈㅏㅅㅐㅇ	-10602
▁ㅊㅔㄹㅕㄱ	-10603
▁ㄷㅓㅇㅜㄱㅇㅣ	-10604
▁ㅅㅣㄷ	-10605
▁1880	-10606
▁ㅇㅏㄴㅌㅣ	-10607
▁ㄱㅏㅇㅊㅓㄹ	-10608
▁ㅂㅏㄹㅡㅅㅑㅂㅏ	-10609
▁ㅊㅓㅈㅣ	-10610
▁ㅍㅏㅈㅣ	-10611
▁ㅂㅜㅌㅇㅕㅈㅣ	-10612
ake	-10613
▁ㄴㅔㅇㅗ	-10614
ㅍㅓㅅㅡㄴ	-10615
▁ㅈㅔㅈㅏㄱㅅㅏ	-10616
▁ㅅㅡㄹㅣㄹㅏㅇㅋㅏ	-10617
▁++	-10618
▁ㄱㅛㄷㅐ	-10619
▁ㅌㅓㅂㅗ	-10620
▁ㅇㅣㄹㅍㅏ	-10621
▁ㅅㅏㅇㅣㅌㅗ	-10622
▁ㅋㅜㅂ	-10623
ㅏㅁㅏㅆㅡ	-10624
▁ㄷㅐㄱㅘㄴ	-10625
▁ㅂㅔㄹㅡㄱ	-10626
▁ㅇㅣㄹㅈㅏㄹㅣ	-10627
▁BM	-10628
ㅅㄱㅏㅄ	-10629
▁ㅊㅜㄹㅗㄴ	-10630
▁ㅊㅣㅁㅊㅔ	-10631
▁ㅁㅣㄴㅈㅓㅇ	-10632
▁ㅅㅛㄴ	-10633
▁ㅇㅏㄴㅊㅣ	-10634
▁ㅇㅗㄱㅅㅜㅅㅜ	-10635
▁ㄷㅏㅇㅇㅕㄴㅎㅣ	-10636
▁ㅅㅣㄹㅂㅓ	-10637
▁ㅅㅣㅁㅇㅑ	-10638
HO	-10639
ㅜㅇㅏㄹㅡ	-10640
▁ㅇㅣㅇㅘㄴ	-10641
▁ㅁㅜㄴㄱㅕㅇ	-10642
▁ㅅㅗㄴㄲㅗㅂㅎㅣ	-10643
▁ㅍㅏㄹㅏㄱㅘㅇㅣ	-10644
▁ㅎㅏㅁㅂㅜㄹㅡㅋㅡ	-10645
▁ㅎㅣㅅㅏ	-10646
▁ㄱㅣㅁㅈㅣ	-10647
▁ㅈㅓㅇㅎㅘ	-10648
▁ㅊㅏㅇㅇㅢ	-10649
▁ㅅㅣㄴㅈㅓㅇ	-10650
▁ㅈㅜㅇㅇㅝㄴ	-10651
▁ㄱㅡㄱㅈㅏㄱㄱㅏ	-10652
▁ㅇㅣㄱㅠ	-10653
▁ㄱㅣㅁㅅㅜ	-10654
▁ㄱㅣㅅㅓㅇ	-10655
▁ㅇㅗㅅㅏㄴ	-10656
▁ㅈㅏㄱㅕㄹ	-10657
▁ㅂㅓㄴㅅㅓㅇ	-10658
▁ㅁㅜㅅㅜㄹ	-10659
▁ㅂㅣㄹㄹㅏ	-10660
▁ㅇㅜㄹㅣㅁ	-10661
▁ㅈㅓㅇㄱㅕㅇ	-10662
▁ㄱㅓㅈㅣㅅㅁㅏㄹ	-10663
▁ㅇㅏㄴㄷㅡㄹㅔㅇㅏ	-10664
▁ㅅㅣㅇㅑ	-10665
▁ㅇㅛㅇㅅㅓ	-10666
▁ㅇㅣㅃㅏㄹ	-10667
▁ㅎㅔㄹㄹㅠㅁ	-10668
UR	-10669
▁Mus	-10670
▁ㅁㅣㅈㅡ	-10671
▁ㅍㅗㄱㄹㅗ	-10672
▁ㄱㅘㅇㅇㅑㅇ	-10673
▁ㅅㅣㄹㅈㅓㄱ	-10674
▁ㅇㅣㅂㅇㅑㅇ	-10675
▁ㅈㅓㅇㅂㅜㄱ	-10676
▁ㅋㅣㅇㅖㅍㅡ	-10677
Hz	-10678
old	-10679
ork	-10680
▁ㅂㅜㅇㅕㄱ	-10681
▁ㅈㅏㅇㅇㅝㄴ	-10682
▁ㄱㅡㄱㄷㅐ	-10683
▁ㄱㅡㄱㄹㅏㄱ	-10684
▁ㅁㅏㄷㅏㄱㅏ	-10685
▁ㅇㅕㄴㄷㅗㅇ	-10686
▁ㅈㅣㅁㅈㅏㄱ	-10687
▁ㅇㅐㄹㅣ	-10688
▁ㅇㅓㄹㅗ	-10689
▁ㄱㅏㅇㄷㅐ	-10690
▁ㅇㅐㅊㅣㅇ	-10691
▁ㅂㅗㄱㄱㅝㄴ	-10692
▁ㅇㅘㅇㅈㅓㅇ	-10693
▁ㅁㅜㄱㅜㅇㅎㅘ	-10694
ㄴㅡㄴ	-10695
▁ㅇㅜㅅㅏㅇ	-10696
▁ㅈㅣㅊㅓㅇ	-10697
▁ㅇㅠㄷㅐㄱㅛ	-10698
▁ㅈㅓㄴㄱㅕㄱ	-10699
▁ㅍㅐㄹㅓㄹㄹㅣㅁㅍㅣㄱ	-10700
ㅌㅡㄹㅠㅁ	-10701
▁ㅇㅏㄴㅏㅋㅣ	-10702
▁ㄱㅓㅌㅂㅗㄱㅣ	-10703
ㅏㄹㅗ	-10704
ㄱㅗㄱㄹㅣ	-10705
▁ㅅㅗㄹㅕㅇ	-10706
▁ㄱㅓㄴㄹㅠㅇ	-10707
ㅇㅟㅅㅓㅇ	-10708
▁ㅅㅓㄴㅇㅜ	-10709
▁ㅍㅔㄴㅓㄹ	-10710
▁ㅎㅏㄴㅊㅡㅇ	-10711
▁ㄷㅐㅅㅓㅇㅈㅓㄴ	-10712
▁ㅁㅣㅅㅣㅅㅣㅍㅣ	-10713
ㅏㄹㅜ	-10714
▁ㅎㅗㅍㅡ	-10715
▁ㅅㅜㅈㅜㅇ	-10716
▁ㅈㅗㅅㅜ	-10717
▁ㅈㅓㅇㅇㅣㄴ	-10718
▁ㄴㅏㄹㅏㄴㅎㅣ	-10719
▁ㅇㅏㄹㅐㅉㅗㄱ	-10720
ㅅㅏㄱㅘㄴㅎㅏㄱㄱㅛ	-10721
▁ㅈㅣㄴㄹㅛ	-10722
▁ㅊㅕㄷㅡㄹ	-10723
▁ㅎㅕㄴㅇㅏㄱ	-10724
▁ㅁㅣㅅㅐㅇㅁㅜㄹ	-10725
▁ㅇㅣㄴㄷㅣㅇㅐㄴㅏ	-10726
▁ㅇㅣㅎㅏㅇ	-10727
▁ㄱㅜㄱㅇㅏㄱ	-10728
▁ㅇㅐㅌㅡㄹㄹㅐㄴㅌㅏ	-10729
()	-10730
▁or	-10731
▁ㅉㅡ	-10732
▁pro	-10733
ㅅㅡㄹㄹㅓ	-10734
ㅈㅗㅇㅓㅂ	-10735
▁ㅈㅔㅇㅘㅇ	-10736
▁ㅎㅗㅇㅡㅇ	-10737
▁ㅅㅐㄹㅗㅇㅣ	-10738
lo	-10739
CAF	-10740
▁ㅂㅗㄱㅏㅇ	-10741
▁ㅅㅜㅅㅣㅁ	-10742
▁ㅇㅗㄹㅏㄱ	-10743
▁ㅋㅗㄹㄹㅔ	-10744
▁ㅋㅗㅅㅡㅌ	-10745
▁ㄱㅏㅂㅇㅗㅅ	-10746
▁ㅇㅕㄴㅁㅗㅅ	-10747
▁ㅈㅏㅇㄹㅗㄱ	-10748
▁ㅇㅣㄷㅗㅇㅎㅏ	-10749
▁ㅍㅏㅇㅜ	-10750
▁ㅎㅏㅇㅣㅁ	-10751
▁ㄱㅛㅇㅠㄱㅂㅜ	-10752
▁ㅎㅜㅂㅏㄴㄱㅣ	-10753
▁ES	-10754
▁ㅁㅜㅅㅡㄴ	-10755
▁ㅅㅏㅁㅜㅊㅗㅇㅈㅏㅇ	-10756
ㅡㄹㅐ	-10757
ㄱㅐㅁㅣ	-10758
▁ㄴㅐㅅㅓㅇ	-10759
▁ㅅㅏㄹㅍㅣ	-10760
▁ㅈㅗㅇㅁㅏㄹ	-10761
▁ㄱㅔㄹㅣㄹㄹㅏ	-10762
▁ㄱㅡㄹㅣㅅㅡㅇㅣㄴ	-10763
GA	-10764
▁132	-10765
▁ㄷㅠㅇㅗ	-10766
ㅅㅗㄱㄱㅣ	-10767
▁ㅇㅠㄹㅕㅇ	-10768
▁ㅈㅗㅂㅕㅇ	-10769
▁ㅎㅕㅁㅇㅗ	-10770
▁ㅇㅟㄴㅏㄹㅏ	-10771
▁ㅍㅣㄱㅗㅇㅣㄴ	-10772
▁ㄱㅏㅆㅡ	-10773
▁ㅅㅔㄴㅔ	-10774
▁ㅈㅗㄱㅖ	-10775
▁ㅅㅣㅁㅎㅘ	-10776
▁ㅇㅟㅅㅐㅇ	-10777
▁ㅇㅝㄴㄱㅕㄱ	-10778
▁ㅈㅣㅂㄱㅕㄹ	-10779
▁ㅅㅣㅁㅠㄹㄹㅔㅇㅣㅅㅕㄴ	-10780
▁ㅇㅏㅊㅣ	-10781
▁ㄱㅕㄹㅈㅔ	-10782
▁ㅅㅔㄱㅅㅡ	-10783
▁ㄱㅣㅁㅇㅗㄱ	-10784
▁GDP	-10785
ㅂㅔㅅㅡ	-10786
▁ㄷㅓㅂㅣ	-10787
▁ㅈㅐㅎㅐ	-10788
▁ㅈㅣㄴㅅㅜ	-10789
▁ㅎㅏㅇㅣㄹ	-10790
▁ㄱㅚㄹㅗㅂㅎㅣ	-10791
▁ㄱㅡㄹㅣㅁㅈㅏ	-10792
▁ㄱㅏㅁㅊㅜ	-10793
▁ㅈㅓㅂㅅㅜ	-10794
▁ㄱㅕㄹㅍㅣㅂ	-10795
▁ㄷㅜㄱㅐㄱㅗㄹ	-10796
▁ㅇㅣㄴㅌㅔㄹㅡ	-10797
▁ㄷㅐㄱㅏㄱ	-10798
▁ㄱㅘㄴㅇㅏㄱ	-10799
▁ㅁㅏㅇㅜㅅㅡ	-10800
▁ㅇㅜㅊㅔㄱㅜㄱ	-10801
▁ㄷㅗㄹㅇㅏㄷㅏㄴㅣ	-10802
ix	-10803
ㄷㅗㅁ	-10804
▁ㅅㅏㄱㅏ	-10805
▁ㅊㅣㅇㅜ	-10806
ㅎㅐㅌㅡㄴ	-10807
▁ㄱㅗㅇㅇㅑㄱ	-10808
▁ㄱㅕㅇㅈㅐㅇㄹㅕㄱ	-10809
▁ㄱㅏㅇㅎㅢ	-10810
▁ㄱㅐㅎㅏㅇ	-10811
▁ㅌㅏㅎㅕㅂ	-10812
ㄱㅏㅈ	-10813
ㄱㅣㄱㅜ	-10814
▁ㅅㅏㅇㄱㅗ	-10815
▁ㅊㅗㅇㅝㄴ	-10816
▁ㅎㅜㅅㅗㄱㅈㅏㄱ	-10817
▁ㅊㅜㅈㅗㅇ	-10818
ㄸㅟ	-10819
ㅌㅏㅁㅏ	-10820
▁ㄴㅐㅇㅑ	-10821
▁ㅁㅣㄴㅏ	-10822
▁ㅅㅡㅋㅏㄴ	-10823
▁ㅈㅓㅇㅂㅗㅇ	-10824
▁ㅌㅏㄱㅇㅝㄹ	-10825
▁ㄱㅏㅂㅡㄹㅣㅇㅔㄹ	-10826
▁ㅈㅜㄴㄱㅕㄹㅅㅡㅇㅈㅓㄴ	-10827
▁DM	-10828
▁Ro	-10829
ence	-10830
ㅏㅇㅣㄷㅓ	-10831
▁ㅅㅜㄴㅕㄴ	-10832
▁ㅅㅗㄱㅍㅕㄴ	-10833
▁ㄷㅏㄹㅏㅁㅈㅟ	-10834
▁ㅇㅣㄴㅍㅡㄹㅏ	-10835
▁ㄴㅏㄲ	-10836
ㅅㅔㄱㅣ	-10837
▁ㄹㅣㅁㅗ	-10838
▁ㄴㅐㄱㅓㄹ	-10839
▁ㅇㅛㅈㅔㅍㅡ	-10840
▁ㅎㅏㅂㄷㅏㅇ	-10841
▁ㄷㅐㅈㅣㅈㅣㄴ	-10842
▁ㄷㅏㄴㅎㅐㅇㅂㅗㄴ	-10843
▁NE	-10844
ㅂㅡㄹㅏ	-10845
▁ㅇㅝㅊㅣ	-10846
▁ㅈㅜㅎㅘ	-10847
ㅎㅗㄹㄹㅡㅁ	-10848
▁ㄴㅗㅌㅐㅇㅜ	-10849
▁ㅌㅡㄱㅅㅐㄱ	-10850
▁kt	-10851
▁ㅃㅓㄴ	-10852
▁ㅁㅜㅅㅡ	-10853
ㅎㅏㄹㅅㅣ	-10854
▁ㅅㅔㅅㅗㄴ	-10855
▁ㅌㅡㄹㅣㄴㅣ	-10856
▁ㅁㅐㄲㅡㄹㅓㅂ	-10857
▁ㅇㅔㄹㄹㅣㅌㅡ	-10858
▁ㅅㅏㅁㄱㅜㄱㅅㅏㄱㅣ	-10859
▁PR	-10860
ㅊㅓㄴㅅㅏ	-10861
ection	-10862
▁ㅁㅣㅅㅖㄹ	-10863
▁ㅍㅗㄷㅗㄷㅏㅇ	-10864
▁ㄷㅜㅁ	-10865
▁ㄱㅜㅅㅡ	-10866
▁ㄱㅘㅅㅣㄹ	-10867
▁ㅈㅐㄴㅏㄴ	-10868
▁USS	-10869
▁only	-10870
▁ㄷㅗㅅㅏ	-10871
ㅊㅜㄱㄱㅜ	-10872
▁ㅊㅏㄹㄹㅣ	-10873
▁ㅅㅏㅋㅜㄹㅏ	-10874
▁ㅎㅕㄴㅎㅘㅇ	-10875
ㅡㄹㅌㅔ	-10876
▁ㅎㅗㅈㅗㄱ	-10877
ㅡㄹㅌㅔㅁㅕㄴ	-10878
▁ㅇㅣㄹㅡㄹㅌㅔㅁㅕㄴ	-10879
▁ㅍㅕㅇㅇㅏㄴㅂㅜㄱㄷㅗ	-10880
▁ㅃㅛ	-10881
▁ㅍㅔㅅ	-10882
▁ㄷㅠㅇㅓㄹ	-10883
▁ㅇㅛㅂㅓㅂ	-10884
▁ㄱㅏㄹㄹㅣㅇㅏ	-10885
▁ㅈㅏㅇㄹㅗㄱㅛ	-10886
▁ㄴㅗㅇㅅㅏㄴㅁㅜㄹ	-10887
▁ㄱㅗㅇㅍㅏ	-10888
▁Ph	-10889
▁ㅇㅓㅉㅣ	-10890
ㅍㅣㅇㅓㄴ	-10891
▁ㄱㅜㄱㅅㅜ	-10892
▁ㅂㅔㄹㅌㅡ	-10893
▁ㅊㅗㅇㄱㅣ	-10894
ㅅㅏㄴㅅㅓㅇ	-10895
▁ㄷㅡㅇㄱㅡㄱ	-10896
▁ㅈㅓㄱㄱㅜㄴ	-10897
▁ㅊㅜㄹㅅㅓㄱ	-10898
▁ㅂㅗㅎㅔㅁㅣㅇㅏ	-10899
▁ㄱㅡㄹㅓㅎㅈㅣㅁㅏㄴ	-10900
▁ㄱㅗㅌㅗ	-10901
▁ㅇㅗㅋㅣ	-10902
▁ㄱㅏㄴㅅㅣㄴ	-10903
▁ㅂㅏㄴㅇㅕㄱ	-10904
▁ㅅㅏㅇㅇㅕㄴ	-10905
▁ㅈㅡㄹㄱㅓㅂ	-10906
▁ㅎㅗㅇㅁㅜㄴㄱㅘㄴ	-10907
▁ㅅㅡㅌㅡㄹㅏㅇㅣㅋㅓ	-10908
▁ㄱㅣㅈㅓ	-10909
▁ㅅㅣㅈㅗㅇ	-10910
▁ㅇㅡㄹㄲㅏ	-10911
▁ㅊㅓㅇㅈㅏ	-10912
▁ㅍㅕㅇㅁㅣㄴ	-10913
▁ㅎㅕㄴㅈㅣㄱ	-10914
▁ㅇㅏㄴㄷㅡㄹㅗ	-10915
ㅍㅓㅇ	-10916
▁ㅁㅣㅈㅜㄹㅣ	-10917
▁ㄱㅡㄹㄹㅗㅂㅡ	-10918
▁ㅎㅘㄹㅈㅜㄹㅗ	-10919
▁ㅁㅗㅌㅓㅅㅡ	-10920
▁ㅍㅡㄹㅐㅇㅋㅡㄹㄹㅣㄴ	-10921
▁ㅇㅜㅈㅡㅂㅔㅋㅣㅅㅡㅌㅏㄴ	-10922
▁ㅎㅠㄱㅔ	-10923
▁ㄷㅏㄴㄱㅘ	-10924
▁ㅇㅏㄹㄹㅐ	-10925
ㅎㅐㅈㅣ	-10926
▁ㄱㅣㅁㅁㅣㄴ	-10927
▁ㅁㅏㄴㄴㅕㄴ	-10928
▁ㅁㅏㄹㄴㅕㄴ	-10929
▁ㅂㅣㅈㅜㅇㅓㄹ	-10930
lass	-10931
▁NAS	-10932
▁ㄷㅡㄹㅔ	-10933
▁ㅇㅗㅇㅗ	-10934
▁ㅇㅢㄱㅘ	-10935
ㅂㅗㅅㅓㄴ	-10936
ㅇㅝ	-10937
▁ㄱㅜㄱㅇㅠ	-10938
ㅇㅕㄴㅎㅏㅂ	-10939
▁ㄷㅗㄹㅇㅣㅂ	-10940
▁ㅊㅏㅇㅅㅣㅈㅏ	-10941
▁ㄱㅡㄹㅔㄱㅗㄹㅣㅇㅗ	-10942
▁ㅍㅕㅇㅇㅏㄴㄴㅏㅁㄷㅗ	-10943
▁La	-10944
▁450	-10945
ㅅㅡㄹㄹㅏ	-10946
▁ㅍㅛㅊㅏㅇ	-10947
▁ㅂㅗㄱㅅㅣㄱ	-10948
▁ㅇㅖㅈㅓㅇㅈㅏ	-10949
▁un	-10950
▁ㅅㅏㅇㄱㅣ	-10951
▁ㅌㅏㅇㅣㅂㅔㅇㅣ	-10952
▁CEO	-10953
▁Mar	-10954
▁ㅇㅣㅎㅘㅇ	-10955
▁ㅁㅐㄱㅓㅈㅣㄴ	-10956
▁ㅇㅑㅇㅅㅓㅇㅈㅏ	-10957
▁ㅍㅡㄹㅐㄴㅅㅣㅅㅡ	-10958
ance	-10959
▁1885	-10960
▁ㅋㅏㅌㅏ	-10961
ㅣㅂㅓㅅㅡ	-10962
▁ㅇㅐㄹㄹㅣㅅㅡ	-10963
▁ㅈㅜㅇㅇㅏㅇㅂㅜ	-10964
▁To	-10965
▁ㅁㅐㅅ	-10966
ㅂㅕㄴㅇㅣ	-10967
▁ㄱㅡㄱㄷㅗ	-10968
▁ㅈㅐㅈㅣㄹ	-10969
▁ㄱㅘㄴㄷㅗㅇ	-10970
▁ㅇㅏㅇㅣㅅㅡㅎㅏㅋㅣ	-10971
▁ㄷㅗㄹㅇㅕㄴㅂㅕㄴㅇㅣ	-10972
▁ㄲㅜㅁㄲㅜ	-10973
▁ㄷㅗㅇㅇㅛ	-10974
▁ㅁㅔㄹㅣㄹ	-10975
▁ㅇㅏㅍㅈㅏㅇ	-10976
▁ㅇㅐㄴㄷㅓㅅㅡㄴ	-10977
▁ㅈㅣㅂㅏㅇㅅㅏㄴ	-10978
▁ㅇㅗㅋㅡㄹㄹㅐㄴㄷㅡ	-10979
ㅁㅏㄹㅜ	-10980
▁ㅈㅜㅈㅣ	-10981
▁ㅌㅏㅅㅓㄱ	-10982
▁ㅁㅏㄹㅡㅋㅗ	-10983
▁ㅂㅣㄴㅂㅓㄴ	-10984
▁ㅇㅏㅇㅣㅇㅗ	-10985
▁1870	-10986
▁ㅅㅡㄹㅗ	-10987
▁ᆫㄷㅏㅁㅕ	-10988
▁ㅅㅏㅎㅏㄱ	-10989
▁ㅅㅗㄱㅈㅜ	-10990
▁ㅇㅔㅇㅣㅂ	-10991
▁ㄱㅏㅁㄷㅗㅇ	-10992
ild	-10993
▁1871	-10994
▁ㅇㅣㄷㅔ	-10995
ㅅㅣㅂㅈㅏ	-10996
▁ㅎㅘㄱㄱㅗ	-10997
▁ㄴㅣㅋㅗㄹㄹㅏ	-10998
▁ㅊㅓㅇㄷㅗㅇㄱㅣ	-10999
▁ㅁㅏㄷㅏㄱㅏㅅㅡㅋㅏㄹㅡ	-11000
▁ㅅㅜㅇㅕㅁ	-11001
▁ㅁㅕㅇㅂㅜㄴ	-11002
▁ㅇㅕㄹㅅㅣㅁ	-11003
▁ㅅㅜㅇㅝㄴㅅㅣ	-11004
ear	-11005
▁GN	-11006
ㅌㅔㄴㅏ	-11007
▁ㅅㅜㅁㅈㅣ	-11008
▁ㅇㅑㅁㅏㄱㅏ	-11009
▁ㅇㅠㄴㅂㅗㅅㅓㄴ	-11010
▁ㅈㅣㄹㅗ	-11011
▁ㅅㅗㅇㅜㄹ	-11012
▁ㅂㅏㄱㅎㅓㄴ	-11013
▁ㅌㅏㅂㅅㅣㄴ	-11014
▁ㅎㅏㅂㅅㅡㅂㅜㄹㅡㅋㅡ	-11015
ㅊㅔㄱㅗ	-11016
▁ㅇㅠㅂㅜ	-11017
ㅂㅏㄴㄱㅜ	-11018
▁ㅅㅓㅈㅏㅇ	-11019
▁ㅅㅜㄱㅈㅜ	-11020
▁ㅈㅜㅇㅅㅐㅇ	-11021
ㄹㅏㄴㄷㅡㅇㅓ	-11022
ㅊㅔㄱㅗㅂㅣㄴㅏ	-11023
ㅋㅗㅌㅗ	-11024
▁ㅇㅢㅈㅏ	-11025
ㅂㅏㅇㅑㅅㅣ	-11026
▁ㅇㅠㄹㅓ	-11027
▁ㅇㅠㄹㅛ	-11028
▁ㄱㅕㄱㅈㅏ	-11029
▁ㅂㅐㅅㅗㄱ	-11030
▁ㅇㅕㄱㄷㅗ	-11031
▁ㅂㅏㄹㄱㅏㄱ	-11032
▁ㄷㅣㄹㅔㄱㅌㅓ	-11033
▁ㅇㅏㄹㄹㅐㅅㅡㅋㅏ	-11034
▁ㅂㅜㄱㅏ	-11035
ㅌㅣㄱㅅㅡ	-11036
▁ㅈㅓㅇㄱㅜㄱ	-11037
▁ㅅㅔㄴㄱㅗㅋㅜ	-11038
ㄷㅣㅂ	-11039
▁ㅈㅐㅇㅚ	-11040
▁ㅎㅏㅁㅈㅏ	-11041
▁ㅎㅘㅇㄷㅗ	-11042
▁ㅇㅏㅍㅉㅗㄱ	-11043
▁ㅋㅏㅅㅡㅌㅣㅇ	-11044
▁ㅇㅠㄹㅓㅍㅣㅇㅓㄴ	-11045
▁SL	-11046
▁1600	-11047
▁ㄹㅗㄹㅣ	-11048
▁ㅅㅔㅂㅡㄴ	-11049
▁ㅅㅗㅍㅣㅇㅏ	-11050
▁ㅂㅜㅇㅝㄴㄱㅜㄴ	-11051
▁1200	-11052
▁ㅇㅙㄱㅜ	-11053
▁ㅎㅏㄱㅗ	-11054
▁ㅈㅓㄱㅕㄱ	-11055
▁ㅈㅏㅅㅔㅎㅣ	-11056
▁ㄹㅗㄹㅔㄴㅅㅡ	-11057
ㄱㅗㅅㅗㄱㄷㅗㄹㅗ	-11058
▁ㅇㅔㄴㅈㅣㄴㅣㅇㅓ	-11059
EM	-11060
ㄹㅡㄴ	-11061
▁ㅅㅓㄴㅈㅏㅇ	-11062
▁ㅋㅏㄹㅂㅐㅇ	-11063
▁ㄱㅗㅇㅍㅛ	-11064
▁ㅅㅣㄱㅜㄱ	-11065
▁ㅅㅐㅇㅅㅓㄴ	-11066
▁ㅎㅕㄴㅎㅐㅇ	-11067
▁vs	-11068
ㅇㅏㄱㅣ	-11069
▁ㅎㅘㄹㅏㅇ	-11070
include	-11071
▁ㄴㅐㅁㅜㅂㅜ	-11072
▁ㅍㅏㄴㅏㅁㅏ	-11073
▁ㅅㅗㄱㅇㅣ	-11074
▁ㅌㅗㅇㅌㅡㄹㅇㅓ	-11075
ㅐㅂ	-11076
▁240	-11077
ㅅㅡㄴㅓㄹ	-11078
▁ㅈㅓㅇㄱㅘㄴ	-11079
▁ㄷㅗㅇㅅㅓㅇㅇㅐㅈㅏ	-11080
ype	-11081
ivers	-11082
▁ㄱㅗㅁㅏ	-11083
▁ㅊㅜㄹㅣ	-11084
ㅅㅏㅅㅏㅇ	-11085
▁ㅁㅐㅇㅅㅔ	-11086
▁ㅅㅐㅇㄱㅖ	-11087
▁ㄱㅣㅁㅂㅕㅇ	-11088
▁ㅇㅗㄴㄱㅏㅈ	-11089
ㅇㅟㅇㅝㄴㅎㅚ	-11090
ㅍㅏㅋㅡ	-11091
▁ㅇㅛㅈㅣ	-11092
▁ㅎㅏㅇㅣㄷㅡ	-11093
▁ㅇㅏㅅㅡㄴㅓㄹ	-11094
▁ㄱㅣㅁㄱㅠㅅㅣㄱ	-11095
▁ㄴㅓㄱ	-11096
▁ㅈㅡㅁ	-11097
ㅈㅣㄹㅣ	-11098
▁ㅂㅏㄹㅈㅏㄱ	-11099
▁ㅋㅏㅍㅡ	-11100
▁ㅈㅗㄱㅘㅇ	-11101
▁ㅅㅏㅇㅎㅐㅇ	-11102
▁ㅁㅐㄴㅎㅐㅌㅡㄴ	-11103
▁ㅂㅗㄱㅇㅡㅁㅅㅓ	-11104
▁AD	-11105
▁Sy	-11106
ㅌㅔㅆㅡ	-11107
▁ㅇㅏㅃㅏ	-11108
▁ㅇㅘㅇㅣㅂ	-11109
ㅊㅓㄴㅁㅕㄴ	-11110
▁ㄷㅗㄹㅊㅜㄹ	-11111
▁ㅍㅡㄹㅔㅅㅡ	-11112
▁":	-11113
▁ㅇㅓㄸㅓㅎ	-11114
▁ㅌㅜㅎㅏㅇ	-11115
▁ㄱㅏㅁㄱㅡㅁ	-11116
▁ㅃㅏㅈ	-11117
▁ㅋㅏㅌㅓ	-11118
ㅗㅇㅑㅁㅏ	-11119
▁ㄴㅏㄱㅎㅏ	-11120
▁ㄴㅡㅇㅅㅓㄴ	-11121
▁ㅃㅏㄹㄱㅏㅎ	-11122
▁ㅇㅏㅁㅎㅡㄱ	-11123
▁ㅂㅗㄹㅅㅖㅂㅣㅋㅣ	-11124
▁ㅇㅣㄷㅡㄱ	-11125
▁ㄹㅣㅈㅗㅌㅡ	-11126
▁ㄱㅜㅁㅏㅁㅗㅌㅗ	-11127
▁EBS	-11128
▁ㅈㅏㅇㄷㅐ	-11129
▁ㄴㅏㅁㅅㅏㄴ	-11130
▁ㅊㅓㅇㄹㅛㅇ	-11131
▁ㅂㅣㄱㅌㅗㄹㅡ	-11132
ㅜㅇㅑ	-11133
▁ㅇㅗㄹㅏ	-11134
▁ㅇㅠㅅㅡ	-11135
▁ㅂㅕㅇㅁㅏ	-11136
ㄹㅏㄴㄷㅡㅇㅣㄴ	-11137
OV	-11138
ans	-11139
ㅂㅏㅁ	-11140
▁ㅎㅛㅇ	-11141
▁ㄹㅜㅋㅡ	-11142
▁ㅅㅣㅇㅐ	-11143
▁ㅇㅏㄹㄹㅔㄱㅅㅡ	-11144
ㄴㅗㄴ	-11145
ㅁㅣㄴㅏ	-11146
ㅏㄹㅡㄷㅗ	-11147
▁ㄴㅏㄴㅇㅣ	-11148
▁ㄴㅐㅁㅕㄴ	-11149
▁ㅁㅐㅈㅣㄱ	-11150
▁ㄷㅗㅇㅊㅏㅁ	-11151
▁ㅂㅜㄹㅎㅐㅇ	-11152
▁ㄷㅐㅎㅏㅂㅅㅣㄹ	-11153
▁ㄱㅜㄱㅂㅗ	-11154
ㅅㅏㅇㅣㄷㅡ	-11155
▁ㅅㅓㅇㄹㅕㅇ	-11156
▁ㅁㅜㅈㅗㄱㅓㄴ	-11157
▁ㅅㅓㅈㅐㅍㅣㄹ	-11158
▁ㄱㅣㅁㅈㅓㅇㅇㅡㄴ	-11159
ㅅㅏㄹㅣ	-11160
ㅌㅏㄹㅣ	-11161
ㅅㅣㅁㅗㅌㅗ	-11162
▁ㅇㅐㄴㄷㅡㄹㅜ	-11163
▁ㄱㅕㄱㅊㅏ	-11164
▁ㄷㅜㄹㅕㅂ	-11165
▁ㅎㅠㅇㄴㅗ	-11166
ㅌㅏㅇㅣㄷㅡ	-11167
▁ㅇㅑㅇㅇㅠㄱ	-11168
▁ㅍㅕㄴㅈㅣㅂㅈㅏ	-11169
ㅠㅇ	-11170
ish	-11171
▁ㄷㅐㅈㅏㅇㄱㅜㄴ	-11172
▁ㅅㅓㅇㄴㅏㅁㅅㅣ	-11173
TP	-11174
▁@	-11175
▁ㅎㅗㅇㅢ	-11176
▁ㅃㅛㅈㅗㄱ	-11177
▁ㅅㅓㄴㄷㅐ	-11178
▁ㅊㅏㅁㅅㅏ	-11179
▁ㅎㅘㅇㅓㅁ	-11180
ㅌㅔㄹㅣㅇㅏ	-11181
▁ㅋㅏㅂ	-11182
ㅣㅇㅏㅇㅓ	-11183
▁ㄱㅛㅅㅣㄹ	-11184
▁ㅂㅗㅇㅅㅜ	-11185
▁ㅈㅏㅇㅈㅏ	-11186
▁ㅍㅏㅁㅜㄴ	-11187
▁ㄱㅜㅇㄱㅝㄹ	-11188
▁ㅈㅏㅊㅣㅊㅔ	-11189
▁ㄴㅛ	-11190
▁ㄱㅜㅊㅓㅇ	-11191
▁ㄱㅡㄹㄹㅐ	-11192
▁ㅊㅜㄹㄱㅏ	-11193
▁ㅈㅏㅂㅇㅏㅁㅓㄱ	-11194
ke	-11195
irl	-11196
▁ㅋㅏㄴㅏ	-11197
ㅁㅜㄱㅘㄴ	-11198
▁ㅇㅔㄷㅡㅁ	-11199
ㅁㅣㄹㅣㅌㅡ	-11200
▁ㅈㅏㅇㄷㅏㄴ	-11201
▁ex	-11202
▁ㅂㅐㅅㅜ	-11203
▁ㅈㅗㄹㅖ	-11204
▁ㅌㅏㅋㅔ	-11205
▁ㅇㅗㄹㄷㅡ	-11206
▁ㅈㅓㅇㅈㅔ	-11207
▁ㅈㅔㄷㅗㅇ	-11208
▁ㅈㅜㅇㅅㅏㅇ	-11209
▁ㅎㅔㄹㄹㅣㅋㅗㅂㅌㅓ	-11210
▁ㅂㅏㅇㅜ	-11211
▁ㅋㅔㅇㅣㄴ	-11212
▁ㄷㅐㄷㅐㄹㅗ	-11213
▁ㅈㅓㄴㄴㅏㄹ	-11214
▁ㅅㅣㅇㅐㅌㅡㄹ	-11215
▁ㅎㅘㄹㅂㅏㄹㅎㅣ	-11216
▁ㅁㅏㄹㅡㅋㅡㅅㅡㅈㅜㅇㅢ	-11217
GM	-11218
▁ㅍㅜㄱ	-11219
ㅁㅣㄹㅡ	-11220
▁ㅇㅔㄹㅡㄴ	-11221
▁ㅈㅏㅊㅣㅇ	-11222
▁ㅍㅡㄹㅔㅇㅣ	-11223
▁ㄴㅔㅇㅣㅅㅕㄴㅅㅡㅋㅓㅂ	-11224
▁ㅇㅏㅇㅛ	-11225
▁ㅋㅔㄹㅏ	-11226
▁ㅈㅣㅅㅓㅇ	-11227
▁ㄱㅘㄴㅁㅜㄴ	-11228
▁ㅎㅏㄴㅗㅇㅣ	-11229
▁ㄱㅗㅇㅁㅣㄴㅇㅘㅇ	-11230
▁sc	-11231
▁ㅎㅐㅈㅓ	-11232
ㅅㅡㅋㅜㄹ	-11233
ㅍㅛㅇㅠㄹ	-11234
▁ㄱㅕㅇㅅㅣ	-11235
ㅗㄹㄹㅗㅈㅣ	-11236
▁ㅁㅗㅁㅌㅗㅇ	-11237
▁ㅁㅏㄴㅣㄹㄹㅏ	-11238
▁ㅈㅔㅈㅗㅇㅓㅂ	-11239
▁ㄷㅗㅇㄷㅐㅁㅜㄴ	-11240
ㅓㅇㅣㄴ	-11241
▁ㄱㅕㅇㅎㅢ	-11242
▁ㅇㅣㅂㅅㅜ	-11243
▁ㅇㅣㅇㅑㅇ	-11244
▁ㅊㅣㄴㅂㅜㄴ	-11245
▁ㅌㅡㄹㅏㅇㅣ	-11246
▁ㄷㅗㅇㅁㅜㄹㅇㅝㄴ	-11247
AF	-11248
ㄷㅠㅁ	-11249
▁ㄱㅘㄹ	-11250
ㅅㅡㅌㅗ	-11251
▁ㄹㅣㄹㅏ	-11252
▁ㅈㅏㅇㅟ	-11253
▁ㅎㅘㄱㅣ	-11254
▁ㅇㅓㄱㅜㄴ	-11255
▁ㅊㅗㅂㅣㅇ	-11256
ㄷㅡㅇㅅㅣㄱ	-11257
▁ㅅㅏㄱㅏㄱㅎㅕㅇ	-11258
▁ㅇㅗㄹㅡㄴㅅㅗㄴ	-11259
▁ㅇㅣㅌㅏ	-11260
▁ㅇㅞㅇㅣㄴ	-11261
ㅏㄹㄹㅗㄱㅡ	-11262
▁ㄸㅏㄹㅏㄱㅏ	-11263
▁ㄱㅣㅂㅕㅇㄷㅐ	-11264
ㅞㄴ	-11265
▁CM	-11266
ㄴㅣㄲㅏ	-11267
▁ㅎㅐㄹㅣㅅㅡㄴ	-11268
▁ㅁㅣㄱㅜㄴㅈㅓㅇ	-11269
▁ㅂㅏㄱㅎㅓㄴㅇㅕㅇ	-11270
ㅌㅣㅅㅣ	-11271
▁ㅅㅜㄷㅏ	-11272
▁ㄴㅗㅇㅅㅏ	-11273
▁ㅂㅜㄴㄹㅠㄱㅜㄴ	-11274
▁ㅇㅑㅌ	-11275
▁ㅊㅏㄹㅣ	-11276
▁ㅂㅔㄴㅊㅣ	-11277
▁ㅂㅣㄴㅡㄹ	-11278
▁ㅋㅓㅍㅡㄹ	-11279
▁ㅅㅏㅇㄱㅡㅂ	-11280
▁ㅈㅣㅇㅂㅕㅇ	-11281
▁ㄹㅜㄷㅗㄹㅍㅡ	-11282
▁ㅂㅏㄴㄹㅏㄴㄱㅜㄴ	-11283
▁ㅎㅏㅁㄱㅕㅇㄴㅏㅁㄷㅗ	-11284
OD	-11285
▁ㅋㅡㅁ	-11286
▁ㅇㅜㅇㅏ	-11287
▁ㅎㅓㅈㅓㅇ	-11288
▁ㅌㅗㅇㅇㅛㅇ	-11289
▁ㅁㅜㄹㅗ	-11290
▁ㅎㅏㅂㅏㄴ	-11291
▁ㅋㅔㅇㅣㅍㅡ	-11292
▁ㄱㅏㅈㅡ	-11293
▁ㅆㅣㅇㅏ	-11294
▁ㅇㅗㅈㅣ	-11295
▁ㅉㅣㄹㅡ	-11296
▁ㅎㅏㅋㅣ	-11297
▁ㅅㅜㅇㅣㄴ	-11298
▁ㅊㅏㅇㅛㅇ	-11299
▁ㄱㅘㄴㅎㅐㅇ	-11300
▁ㅅㅣㄴㅁㅜㄴㅅㅏ	-11301
ㅋㅏㄹㅣ	-11302
▁ㄱㅔㄹㅣ	-11303
▁ㅂㅜㄴㄱㅘ	-11304
▁ㅇㅣㅂㅏㅇ	-11305
▁ㅌㅡㄹㄹㅣ	-11306
▁ㅅㅣㄴㅂㅏㄹ	-11307
▁ㅇㅣㅅㅏㅂㅔㄹ	-11308
▁ㅅㅣㄹㅎㅓㅁㅅㅣㄹ	-11309
ㅁㅓㄴㅅㅡ	-11310
▁ㄹㅓㅅㅣㅇㅏㅇㅣㄴ	-11311
▁ㅅㅡㅌㅗㄱㅎㅗㄹㄹㅡㅁ	-11312
EG	-11313
oun	-11314
ㅍㅏㄹㅣ	-11315
▁ㅁㅔㄴㅠ	-11316
▁ㄱㅏㄴㅡㄹ	-11317
▁ㅇㅏㅋㅣㅌㅏ	-11318
▁ㅂㅣㅌㅏㅁㅣㄴ	-11319
ㅇㅏㅇㅣㄹㄹㅐㄴㄷㅡ	-11320
ㅅㅏㄱㅅㅡ	-11321
ㅔㅇㅣㄹㅜ	-11322
▁ㅈㅜㅇㅣㅁ	-11323
▁ㅇㅏㅋㅣㄹㅏ	-11324
▁ㅇㅗㄹㅗㅈㅣ	-11325
▁ㅈㅏㅊㅣㅈㅜ	-11326
▁ㅍㅡㄹㅗㄹㅣㄱㅡ	-11327
▁ㅓㅇ	-11328
ㄷㅡㅅㅡㄴ	-11329
▁ㅁㅏㄱㅎㅣ	-11330
▁ㄴㅗㅁ	-11331
▁ㅁㅐㅋㅣㄴ	-11332
▁ㅅㅓㅁㅅㅔ	-11333
▁ㅌㅗㅇㅇㅕㄱ	-11334
▁ㅌㅔㄹㅣ	-11335
▁ㅍㅏㄷㅗ	-11336
▁ㅊㅓㅇㅅㅗ	-11337
▁ㅌㅣㅋㅔㅅ	-11338
▁ㄴㅐㅇㅑㅅㅜ	-11339
▁ㅊㅏㅇㅁㅜㄴ	-11340
▁ㅌㅜㄹㅡㅋㅡ	-11341
▁ㅈㅜㄹㄱㅓㄹㅣ	-11342
ㄹㄹㅡㄴ	-11343
ㅠㄹㄹㅓ	-11344
▁ㅎㅐㅅㅜ	-11345
▁ㅂㅜㄴㅅㅜ	-11346
▁ㅈㅐㅎㅘㄹ	-11347
▁ㅊㅗㅇㅁㅜ	-11348
fe	-11349
▁ㅁㅗㅂ	-11350
ㅈㅣㅅㅡ	-11351
▁ㅁㅜㅊㅓㄱ	-11352
▁ㄱㅡㄱㅎㅏㄴ	-11353
▁ㅈㅘㅇ	-11354
▁ㄷㅗㅁㅣ	-11355
▁ㄹㅡㄴㅗ	-11356
▁ㅊㅓㄴㄷㅗ	-11357
▁ㅇㅏㄴㄴㅕㅇ	-11358
lat	-11359
▁ㄱㅕㅇㅈㅣㄹ	-11360
▁ㄱㅣㅁㅇㅝㄴ	-11361
▁ㅈㅡㅇㅇㅣㄴ	-11362
▁ㅍㅡㄹㅏㅎㅏ	-11363
▁ㅇㅕㄱㅅㅏㄱㅏ	-11364
ㅓㅇㅇㅣ	-11365
▁ㄱㅓㅁㅈㅓㅇ	-11366
▁ㅋㅏㄹㄹㅓㅁ	-11367
▁CH	-11368
ical	-11369
▁ㅋㅗㅋㅏ	-11370
ㅉㅓㄷㅜㅇ	-11371
ㅊㅏㅇㅎㅗ	-11372
ㅋㅡㄹㄹㅏ	-11373
▁ㄱㅏㄷㅡㄴ	-11374
▁ㄴㅏㅅㅓㄴ	-11375
▁ㅅㅜㅍㅣㄹ	-11376
▁ㅅㅣㅈㅡㅇ	-11377
ㅈㅓㅇㅇㅝㄴ	-11378
▁ㄱㅏㄱㅅㅓㅇ	-11379
▁ㄷㅏㄴㅏㅋㅏ	-11380
▁ㅅㅓㄷㅐㅁㅜㄴ	-11381
▁ㅊㅣㄴㅇㅟㄷㅐ	-11382
▁ㅁㅏㅇㅗㅉㅓㄷㅜㅇ	-11383
▁ㅍㅏㄴㅏ	-11384
▁ㅁㅜㄴㄱㅗ	-11385
▁ㅎㅜㅈㅣㄴ	-11386
▁ㄷㅗㄱㅛ	-11387
▁ㄱㅐㅎㅓㄴ	-11388
▁ㅇㅑㅁㅏㅇ	-11389
▁ㄴㅗㅇㄱㅕㅇ	-11390
▁Jo	-11391
▁ㅅㅛㅇ	-11392
▁ㅇㅔㅂㅓ	-11393
▁ㄹㅕㄷㅓㄴ	-11394
▁ㅅㅜㅇㅑㅇ	-11395
▁ㅇㅗㅎㅏㅇ	-11396
▁ㄱㅘㄴㅊㅓㅇ	-11397
▁ㅂㅏㅇㅣㅌㅡ	-11398
▁ㅍㅕㅇㅎㅕㅇ	-11399
▁NT	-11400
ㅎㅣㅌㅡ	-11401
▁ㅍㅣㅇㅗ	-11402
▁ㅁㅣㄴㅇㅛ	-11403
▁ㄱㅣㄴㅌㅔㅆㅡ	-11404
▁ㅋㅓㅁㅍㅠㅌㅣㅇ	-11405
▁ㅋㅗㄴㅌㅔㅅㅡㅌㅡ	-11406
▁ㅇㅕㄴㄱㅡㄱㅂㅐㅇㅜ	-11407
ㅊㅡㅂ	-11408
▁ㄹㅗㄱㅡ	-11409
▁ㅅㅡㅋㅣㅁ	-11410
▁ㅂㅏㄴㅅㅓㅇ	-11411
▁ㅇㅛㅅㅣㄷㅏ	-11412
▁ㅊㅗㅇㅌㅗㅇ	-11413
▁ㅈㅣㅈㅣㅇㅠㄹ	-11414
▁ㅅㅗㄹㄹㅗㅁㅗㄴ	-11415
▁DD	-11416
▁pr	-11417
▁ㅆㅜ	-11418
ㅡㄹㄹㅔ	-11419
▁ㅅㅣㅇㅔ	-11420
▁ㅌㅏㅅㅡ	-11421
▁ㅇㅏㄹㅡㄴ	-11422
▁ㅅㅔㄴㅌㅣㅁ	-11423
▁ㅇㅜㅊㅣ	-11424
▁ㄷㅏㄷㅏㅇ	-11425
▁ㅂㅗㅎㅐㅇ	-11426
▁ㅅㅏㅁㅈㅗㄴ	-11427
▁AV	-11428
▁ㅁㅏㅅㅜㄹ	-11429
▁ㅆㅣㅇㅏㅅ	-11430
▁ㅊㅗㅇㅇㅐ	-11431
ㄹㅔㄱㅅㅕㄴ	-11432
▁ㅎㅔㄹㅅㅣㅇ	-11433
ㅅㅡㅌㅗㄹㅏㅇ	-11434
▁ㅍㅡㄹㄹㅏㅌㅗㄴ	-11435
▁ㄹㅔㅅㅡㅌㅗㄹㅏㅇ	-11436
▁ㅂㅐㄹㅕ	-11437
▁ㅇㅝㄴㅅㅣㅁ	-11438
▁ㅋㅡㄹㅏㅇㅣ	-11439
▁ㅂㅜㄹㅌㅐㅇㅜ	-11440
▁ㅎㅘㄱㅏㅇㅇㅏㅁ	-11441
▁ㄱㅏㄷㅡ	-11442
▁ㅇㅏㄹㅣㅇㅏ	-11443
▁ㅊㅣㄱㅘ	-11444
▁ㅋㅓㅅㅡ	-11445
▁ㅁㅏㅋㅔㅅ	-11446
▁ㅂㅜㄱㅏㄱ	-11447
ㅌㅗㅇㅇㅣㄹ	-11448
▁ㅅㅓㅇㅅㅣㄹ	-11449
▁ㄷㅐㅅㅏㅎㅓㄴ	-11450
▁ㅎㅔㄹㅡㅊㅔㄱㅗㅂㅣㄴㅏ	-11451
▁ㅂㅜㅈㅗ	-11452
▁ㅈㅓㄴㄹㅐ	-11453
▁ㅊㅏㄱㅏㅂ	-11454
▁ㅌㅏㅇㅣㄹ	-11455
▁ㅍㅓㅅㅡㅌㅡ	-11456
▁ㅎㅏㄱㅅㅓㄹ	-11457
▁ㅁㅏㅊㅓㄴㄹㅜ	-11458
▁ㅅㅣㅎㅏㅂ	-11459
▁ㄴㅠㅋㅡㄹㄹ	-11460
ㅌㅔㄹㄹㅔㅅㅡ	-11461
▁ㅇㅛㅇㅇㅣㄴㅅㅣ	-11462
▁ㅇㅗㄹㄹㅣㅁㅍㅣㅇㅏ	-11463
▁ㅊㅗㅇㅅㅏㄹㅕㅇㄱㅘㄴ	-11464
ㄴㅛ	-11465
▁ㄷㅡㅁㅣ	-11466
▁ㅊㅜㅇㅣ	-11467
▁ㅎㅐㅂㅜ	-11468
ㅅㅏㄱㅏㄱ	-11469
▁ㅇㅏㄹㅍㅡㅅㅡ	-11470
IR	-11471
▁210	-11472
ㅂㅏㅅㅣ	-11473
▁ㄹㅗㅂㅓ	-11474
▁ㄴㅏㅁㅇㅛㅇ	-11475
▁ㅇㅏㅇㄱㅗㄹ	-11476
▁ㅇㅑㄱㅎㅗㄴ	-11477
▁ㄲㅡㄹㄹㅕㄱㅏ	-11478
▁ㅁㅗㅇㅢ	-11479
▁ㅅㅜㄱㅛ	-11480
▁ㅎㅏㄹㅠ	-11481
▁ㅈㅓㅇㅈㅏㄱ	-11482
▁ㅋㅡㄹㄹㅣㄴㅌㅓㄴ	-11483
FL	-11484
▁ㅂㅚ	-11485
ㄷㅣㄹ	-11486
ㅁㅔㅇㅣ	-11487
▁ㄷㅏㅇㄴㅐ	-11488
▁ㅎㅏㄴㅎㅏ	-11489
▁ㅂㅏㅇㅋㅗㄱ	-11490
▁ㅈㅜㅊㅏㅈㅏㅇ	-11491
▁ABC	-11492
▁ㅁㅔㅅ	-11493
▁ㄱㅗㅋㅜ	-11494
ㄱㅜㄱㅅㅏ	-11495
▁ㅇㅣㄹㅜㄱ	-11496
▁ㅇㅝㄴㅌㅗㅇ	-11497
▁ㅋㅗㄹㄹㅗㄴ	-11498
are	-11499
▁ㅂㅜㄴㅍㅏ	-11500
▁ㅅㅗㅇㅡㅁ	-11501
▁ㅁㅔㅇㅣㅋㅓ	-11502
▁ㅍㅡㄹㅔㄷㅔ	-11503
▁ㅅㅡㅍㅗㄴㅅㅓ	-11504
▁ㅈㅔㅍㅓㅅㅡㄴ	-11505
▁ㅁㅗㄱㅇㅛㅇㅣㄹ	-11506
EE	-11507
▁ㅅㅐㄱㅅㅗ	-11508
▁ㅇㅣㄹㄹㅣ	-11509
▁ㅇㅣㄹㄷㅏㅇ	-11510
ㅎㅘㄴㄱㅕㅇ	-11511
▁ㅊㅣㄱㄹㅕㅇ	-11512
▁ㄷㅐㅇㅝㄴㄱㅜㄴ	-11513
▁ㅇㅏㄹㅍㅏㅂㅔㅅ	-11514
▁ㅂㅜㄱㅇㅏㅇㅣㄹㄹㅐㄴㄷㅡ	-11515
ㅂㅡㄹㅡ	-11516
▁ㄱㅣㅊㅏ	-11517
▁ㄹㅣㅌㅓ	-11518
▁ㄱㅘㅇㄷㅗ	-11519
▁ㄷㅗㄱㄷㅗ	-11520
▁ㅁㅏㅅㅕㄹ	-11521
▁ㅂㅐㄱㄷㅜ	-11522
▁ㅅㅜㅂㅗㄱ	-11523
▁ㅈㅓㅇㄱㅓ	-11524
▁ㄷㅗㄱㅊㅏㅇ	-11525
▁ㅂㅏㄱㅈㅗㅇ	-11526
▁ㅌㅡㄱㅈㅓㄴ	-11527
60	-11528
▁he	-11529
▁ㅈㅜㄱㅗ	-11530
▁ㄹㅏㅇㅣㅁ	-11531
▁ㅂㅐㄹㄹㅣ	-11532
▁ㅅㅣㅈㅜㅇ	-11533
▁ㅌㅡㄹㅗㅇㅣ	-11534
▁ㄸㅟㅇㅓㄷㅡㄹ	-11535
▁ㅌㅏㅇㅣㅌㅏㄴ	-11536
▁ㅅㅓㄴㄱㅓㅂㅓㅂ	-11537
▁ㅇㅏㄹㅣㅅㅡㅌㅗㅌㅔㄹㄹㅔㅅㅡ	-11538
▁ㅂㅔㄴㅊㅓ	-11539
▁ㅊㅓㄴㄱㅓ	-11540
▁ㅂㅜㄹㅂㅕㄴ	-11541
▁ㅇㅓㅁㅁㅣㄹ	-11542
▁ㅍㅣㄹㅏㅁㅣ	-11543
▁ㄷㅗㅇㅇㅠㄹㅓㅂ	-11544
▁Ma	-11545
ㅈㅣㅇㅏ	-11546
▁ㅇㅏㅅㅗ	-11547
▁ㄱㅗㄷㅡㄴ	-11548
▁ㅈㅜㅇㅣㅂ	-11549
▁ㅍㅗㅅㅣㄱ	-11550
▁ㅍㅗㅊㅏㄱ	-11551
▁ㅇㅠㅇㅏㄱㅣ	-11552
ㅅㅐㅁ	-11553
ㅇㅏㄱㅜㄴ	-11554
▁ㄱㅕㅇㅈㅓㄴㅊㅓㄹ	-11555
▁ㅎㅣㅇ	-11556
▁ㅈㅏㅈㅔ	-11557
▁ㄴㅔㅅㅉㅐ	-11558
▁ㄹㅓㄱㅂㅣ	-11559
▁ㅅㅔㄴㅌㅡ	-11560
▁ㅊㅓㄴㅇㅘㅇ	-11561
▁ㅇㅖㅅㅓㄴㅈㅓㄴ	-11562
▁ㅁㅐㅅㅜ	-11563
▁CONCA	-11564
ㅅㅣㄴㅁㅜㄴ	-11565
▁ㄱㅏㅇㄹㅕㅇ	-11566
▁ㅌㅟㄹㅡㅋㅡ	-11567
▁ㄱㅜㄴㅐ	-11568
▁ㄴㅣㅋㅗ	-11569
▁ㅌㅔㅋㅡ	-11570
▁ㅂㅏㄴㄱㅣ	-11571
▁ㅇㅏㄴㅏㅌ	-11572
▁ㅈㅔㅁㅜㄹ	-11573
▁ㅌㅖㄴㅈㅣㄴ	-11574
▁ㅇㅏㄹㅂㅔㄹㅡ	-11575
▁ㅇㅠㅎㅗㄱ	-11576
▁ㄹㅔㅇㅣㅋㅡ	-11577
▁ㅈㅓㄱㅇㅚㅅㅓㄴ	-11578
ㄲㅏㄴ	-11579
ㅔㅁㅗㅇ	-11580
▁ㅎㅗㄷㅐ	-11581
▁ㄱㅏㅁㅅㅜ	-11582
▁ㄷㅏㅈㅓㅅㅡ	-11583
▁ㅇㅕㅇㅈㅓㅇ	-11584
▁ㅇㅏㅁㅜㄱㅓㅅ	-11585
▁CONCACAF	-11586
ica	-11587
ㅇㅞㄹ	-11588
ㅎㅡㄴ	-11589
ㅅㅡㅋㅐ	-11590
▁ㅅㅓㅇㅎㅘ	-11591
▁ㅈㅓㄴㅁㅜ	-11592
ㅊㅓㄴㄷㅗㅇ	-11593
▁ㅁㅐㅁ	-11594
▁ㅁㅗㅎㅗ	-11595
▁ㅇㅗㅋㅡ	-11596
▁ㅈㅜㄱㅖ	-11597
▁ㄷㅏㅇㅣㅂ	-11598
▁ㅇㅏㄷㅔㄴ	-11599
▁ㅋㅡㄹㄹㅔ	-11600
ㄹㅏㅇㅣㄷㅓ	-11601
▁ㅊㅓㄴㄱㅜㄱ	-11602
▁ㄴㅏㅌㅡㄹㅠㅁ	-11603
▁ㅂㅣㅁㅣㄹㄹㅣ	-11604
▁ㅇㅕㄴㅅㅏㄴㄱㅜㄴ	-11605
▁ㅁㅗㅇㅓ	-11606
▁ㅍㅏㅅㅗㄴ	-11607
▁ㅅㅗㅇㅅㅣㄴ	-11608
▁ㅅㅣㄹㄱㅝㄴ	-11609
▁1889	-11610
▁ㅂㅗㄴㅈㅏㄱ	-11611
▁ㅅㅓㄴㄱㅜㅈㅏ	-11612
ㅅㅜㅅㅡ	-11613
▁ㄹㅜㅋㅏ	-11614
▁ㄴㅑㄴㅡㄴ	-11615
▁ㅇㅑㅈㅓㄴ	-11616
▁ㅇㅣㅈㅓㅁ	-11617
ㅅㅡㅌㅡㄹㅗ	-11618
▁ㄱㅜㄱㄱㅗㅇ	-11619
▁ㅌㅜㅈㅏㅈㅏ	-11620
▁ㅇㅠㅊㅣㅇㅝㄴ	-11621
▁Fr	-11622
ㄲㅓㅇ	-11623
▁ATP	-11624
▁MTV	-11625
▁ㄹㅏㅅㅓ	-11626
▁ㅊㅐㅊㅟ	-11627
▁ㅌㅜㅇㅕ	-11628
▁ㄱㅏㄹㅏㄱ	-11629
▁ㄷㅐㅂㅗㄴ	-11630
▁ㅅㅏㅂㅏㅇ	-11631
▁ㅅㅡㄹㅎㅏ	-11632
▁ㅇㅢㄹㅕㅇ	-11633
▁ㅈㅗㅇㅣㄴ	-11634
▁ㄷㅔㄹㅕㅇㅗ	-11635
▁ㅋㅚㄹㄹㅡㄴ	-11636
▁ㅂㅗㅅㅜㄷㅏㅇ	-11637
▁ㅂㅐㄹ	-11638
▁ㅌㅐㅁ	-11639
▁ㅍㅓㅍㅗ	-11640
▁ㅍㅔㄹㅗ	-11641
▁ㅁㅏㄴㅈㅏㅇ	-11642
▁ㄴㅡㄴㄷㅏㅁㅕㄴ	-11643
▁ㅈㅓㅇㅂㅜㄱㅜㄴ	-11644
ㄷㅔㄴㅂㅜㄹㅡㅋㅡ	-11645
▁ㅍㅓㅍㅗㅁㅓㄴㅅㅡ	-11646
▁ㅅㅠㅅ	-11647
ㅈㅣㄱㅣ	-11648
ㅍㅏㅇㅣ	-11649
▁Live	-11650
▁ㅋㅏㄴㄱㅜㄱ	-11651
▁ㅁㅏㄴㅜㅇㅔㄹ	-11652
ㅌㅣㄴㅓㅁ	-11653
▁ㅅㅣㄹㅈㅗㄴ	-11654
▁ㅍㅐㅌㅡㄹㅣㄱ	-11655
▁ㅍㅡㄹㄹㅐㅌㅣㄴㅓㅁ	-11656
ㅏㄴㅌㅗ	-11657
▁ㅂㅓㄷㅡ	-11658
▁ㅅㅡㅌㅔㅂ	-11659
▁ㅈㅜㅇㅌㅚ	-11660
▁ㅎㅗㄹㄹㅣ	-11661
▁ㅈㅓㅇㅇㅡㅂ	-11662
ㅁㅐㅁㅐ	-11663
▁ㅇㅑㄷㅡ	-11664
▁ㅂㅕㄹㅅㅔ	-11665
▁ㅊㅏㅊㅜㄹ	-11666
▁ㅌㅚㅈㅏㅇ	-11667
▁ㅂㅏㅇㅇㅓㅅ	-11668
▁ㅈㅓㄴㄷㅏㅁ	-11669
ㄱㅏㄹㅡ	-11670
ㅇㅝㅋㅡ	-11671
▁ㅂㅏㄷㅣ	-11672
▁ㄷㅐㅂㅜㄱ	-11673
▁ㅍㅣㅍㅣㄴ	-11674
▁ㅈㅓㅇㅈㅗㅇ	-11675
▁ㅇㅗㄹㅣㅇㅗㄴ	-11676
▁ㄱㅏㄴㅏㄱㅏㅇㅘㅎㅕㄴ	-11677
▁ㅈㅣㅇㅗ	-11678
▁ㅇㅛㅊㅜㅇ	-11679
▁ㅅㅣㄹㅈㅓㅇ	-11680
▁ㅊㅐㄱㅇㅣㅁㅈㅣ	-11681
bo	-11682
▁ㅎㅛㅈㅏ	-11683
ㅊㅜㅇㄹㅠ	-11684
▁ㄷㅗㄷㅜㄱ	-11685
▁ㅁㅜㅇㅊㅣ	-11686
▁ㅊㅏㄴㅅㅏ	-11687
▁ㅅㅏㅁㄹㅣㅁ	-11688
▁ㄱㅗㅅㅗㄱㅂㅓㅅㅡ	-11689
▁ㅇㅘㅇㅣㅂㅓㄴㅅㅡ	-11690
▁ㅇㅣㅇㅢ	-11691
▁ㅎㅏㅊㅣ	-11692
▁ㅂㅣㅇㅔㄴ	-11693
▁ㅍㅗㄱㅍㅏ	-11694
▁ㅅㅣㄹㄹㅗㄱ	-11695
▁ㅍㅔㄴㅓㄹㅌㅣ	-11696
▁ㅍㅣㅇㅏㄴㅣㅅㅡㅌㅡ	-11697
▁ㅋㅜㅁ	-11698
▁JTBC	-11699
▁ㅇㅢㄹㅠ	-11700
▁ㅎㅐㅊㅣ	-11701
▁ㄱㅣㅁㅇㅠ	-11702
▁ㅇㅕㅇㅇㅠ	-11703
▁ㅅㅡㅂㅇㅠㄴ	-11704
▁ㅂㅐㄴㅋㅜㅂㅓ	-11705
▁ㅇㅏㅇㅣㅍㅗㄴ	-11706
▁ㅇㅠㄱㅝㄴㅈㅏ	-11707
▁ㅁㅣㅇㅑㅈㅏㅋㅣ	-11708
▁ㅋㅏㅌㅏㄹㄹㅜㄴ	-11709
▁So	-11710
▁ㄴㅣㅎㅗㄴ	-11711
▁ㅊㅗㅅㅣㄴㅅㅓㅇ	-11712
ㅓㄹㅓㄹ	-11713
▁ㄱㅏㅁㅐㅇ	-11714
▁ㄱㅗㅇㅎㅠ	-11715
▁ㅁㅜㅎㅕㅇ	-11716
▁ㄱㅣㅅㅏㅇㅊㅓㅇ	-11717
ㄷㅓㅇㅇㅣ	-11718
ㅔㄱㅡㄹㅗ	-11719
▁ㅌㅐㅇㅏㄴ	-11720
▁ㅅㅏㄴㅅㅓㅇ	-11721
▁ㅅㅡㅍㅗㄹㅡ	-11722
▁ㅈㅓㄹㅁㅏㅇ	-11723
▁ㅇㅘㅇㅅㅔㅈㅏ	-11724
EL	-11725
sh	-11726
▁ㄹㅣㅅㅏ	-11727
▁ㅂㅜㅊㅣ	-11728
ㄹㅏㄴㅌㅡ	-11729
▁ㅇㅠㅅㅓㄴ	-11730
▁ㅇㅏㄴㅌㅔㄴㅏ	-11731
▁ㅅㅡㅋㅏㅇㅜㅌㅡ	-11732
▁int	-11733
▁ㅊㅗㄱㅗ	-11734
▁ㄱㅜㅅㅣㄹ	-11735
▁ㄴㅡㅇㅎㅏ	-11736
▁ㅇㅓㄴㅡㄴ	-11737
▁ㅈㅜㄴㅅㅜ	-11738
▁ㅎㅘㅇㅅㅗ	-11739
ㅅㅏㄴㄷㅏㅇ	-11740
▁ㅅㅓㄴㅊㅓㄴ	-11741
▁ㅈㅣㄱㅌㅗㅇ	-11742
▁ㅅㅔㄴㅌㅣㅁㅣㅌㅓ	-11743
▁ㄴㅗㄹㅗㄴ	-11744
▁ㅈㅓㅇㅎㅕㅇ	-11745
▁ㅈㅜㅇㅎㅏㅂ	-11746
▁ㅅㅗㅁㅏㄹㄹㅣㅇㅏ	-11747
▁ㄷㅐㅈㅗㅇ	-11748
▁ㄱㅕㅇㅇㅕㅇㅈㅏ	-11749
▁ㅎㅔㅅ	-11750
ㅅㅡㅋㅗㄴ	-11751
▁ㅂㅐㄱㄱㅘ	-11752
▁ㄱㅕㄹㅂㅕㄹ	-11753
▁For	-11754
ㄹㅣㅋㅡ	-11755
ㅡㄹㅣㄷㅡ	-11756
▁ㅅㅜㄹㅏㄱ	-11757
▁ㅇㅖㅅㅜㅎㅚ	-11758
▁ㅇㅛㄱㅁㅏㅇ	-11759
▁ㅋㅏㅋㅏㅇㅗ	-11760
IL	-11761
▁ㅇㅡㄴㄱㅓ	-11762
▁ㅍㅓㅁㅍㅡ	-11763
▁ㅇㅠㄴㅣㅂㅓㅅㅓㄹ	-11764
span	-11765
▁GB	-11766
ㅓㅌㅡ	-11767
▁ㅓㅇㅑ	-11768
▁ㄴㅗㅂㅗ	-11769
▁ㅊㅣㅎㅘㄴ	-11770
▁ㅌㅚㅈㅣㄱ	-11771
▁ㄱㅣㅁㅎㅕㅇ	-11772
▁ㅎㅐㄹㅣㅅㅡ	-11773
▁ㅋㅔㅍㅡㄹㄹㅓ	-11774
▁ㅇㅏㅍㅈㅏㅇㅅㅓ	-11775
▁onlyinclude	-11776
▁ㅋㅡㄹㄹㅣㅂㅡㄹㄹㅐㄴㄷㅡ	-11777
ㄷㅗㄹㄹㅣ	-11778
▁ㅂㅏㅇㅊㅣ	-11779
▁ㅊㅜㄹㅕㄱ	-11780
▁ㅇㅘㅇㄱㅝㄴ	-11781
▁ㄱㅣㅁㅈㅐ	-11782
▁ㅇㅕㅇㅇㅖ	-11783
▁ㅇㅠㅁㅗㄱ	-11784
▁ㄱㅏㅁㅊㅏㄹ	-11785
▁ㅊㅏㄴㅇㅑㅇ	-11786
ost	-11787
▁Com	-11788
▁ㅌㅡㄹㅜ	-11789
▁ㄱㅕㄱㄹㅣ	-11790
▁ㅂㅏㄴㅍㅗ	-11791
▁ㅅㅣㄴㅔㅁㅏ	-11792
▁ㅈㅏㅇㅠㅁㅣㄴㅈㅜㄷㅏㅇ	-11793
tern	-11794
▁Col	-11795
▁Sou	-11796
ㅁㅣㅅㅡ	-11797
▁ㄷㅏㅌㅔ	-11798
▁ㄹㅜㅂㅣ	-11799
▁ㅁㅜㅅㅣㄹ	-11800
▁ㅇㅕㄲ	-11801
▁Time	-11802
ㅅㅗㅌㅗㅇ	-11803
▁ㅍㅏㄴㄹㅖ	-11804
▁ㅊㅣㅁㅁㅜㄱ	-11805
▁ㅍㅡㄹㅏㅇㅣㅁ	-11806
▁ㅂㅣㅇㅑ	-11807
▁ㅁㅗㄱㅡㅁ	-11808
▁ㅂㅗㅇㅎㅘ	-11809
▁ㅅㅗㅈㅜㅇ	-11810
ㅎㅕㄴㄷㅗㅇ	-11811
▁ㅈㅗㅇㅅㅣㄱ	-11812
ㅅㅏㄱㅗ	-11813
▁ㅅㅐㅇㅜ	-11814
ㅇㅏㅇㅜㅅ	-11815
▁ㅇㅣㄴㄱㅏ	-11816
▁ㅅㅗㅇㅊㅜㄹ	-11817
▁TR	-11818
▁ㅁㅏㅊㅏ	-11819
ㅍㅡㅌㅓㄴ	-11820
▁ㄷㅐㅇㅕㅇ	-11821
▁ㅁㅔㄷㅣㅊㅣ	-11822
▁ㅂㅡㄹㅔㅇㅣㅋㅡ	-11823
▁ㅂㅏㅌㅡ	-11824
▁ㅂㅏㄷㅊㅣ	-11825
▁ㅇㅠㅅㅣㄱ	-11826
ㅍㅇㅣ	-11827
▁ㄱㅣㅇㅘ	-11828
▁ㅇㅣㅁㅗ	-11829
▁ㄷㅏㅇㅟㄴ	-11830
▁ㄱㅗㅇㅈㅗㄴ	-11831
▁ㄱㅡㅁㅅㅏㄴ	-11832
▁ㅎㅏㄴㄹㅣㅁ	-11833
▁ㄱㅗㅇㅎㅠㅇㅣㄹ	-11834
▁ㅇㅢㅅㅏㅅㅗㅌㅗㅇ	-11835
ㅂㅜㄹㅗ	-11836
▁ㅎㅏㄱㅜ	-11837
▁ㅎㅏㅎㅐㅇ	-11838
▁ㄹㅔㅇㅣㅅㅣㅇ	-11839
▁ㅍㅣㄹㅏㅁㅣㄷㅡ	-11840
ㄷㅐㅅㅏ	-11841
▁ㅇㅗㅅㅏ	-11842
▁ㅅㅗㄱㅡㄱ	-11843
▁ㅈㅗㅇㅈㅏ	-11844
▁ㄱㅣㅁㅈㅜㄴ	-11845
▁ㅎㅏㅇㅁㅏㄴ	-11846
▁ㄴㅠㅋㅡㄹㄹㅔㅇㅗ	-11847
▁Part	-11848
▁ㄴㅔㅌㅡ	-11849
ㅈㅗㅇㅣㄴ	-11850
▁ㅇㅕㄱㅝㄴ	-11851
▁ㅇㅛㄱㅕㄱ	-11852
▁ㅎㅘㅇㅑㄱ	-11853
▁ㅂㅜㄹㄹㅑㅇ	-11854
▁ㅅㅓㅇㄱㅘㄱ	-11855
▁ㅈㅓㄴㅈㅓㄴ	-11856
▁ㅍㅡㄹㅏㄴㅊㅔㅅㅡㅋㅗ	-11857
ood	-11858
▁ㄱㅏㄹㅏ	-11859
▁ㄸㅏㅈㅣ	-11860
▁ㄱㅗㄷㅣㄱ	-11861
▁ㅂㅗㄹㅌㅡ	-11862
▁ㅇㅗㅂㅏㅁㅏ	-11863
▁ㅈㅏㄱㅁㅜㄹ	-11864
▁ㅇㅠㄱㅕㄱㅅㅜ	-11865
▁ㄷㅐㅅㅡㅇㅂㅜㄹㄱㅛ	-11866
ㄴㅣㅈㅣ	-11867
▁ㅈㅣㅈㅏ	-11868
▁ㅊㅣㄹㅜ	-11869
▁ㅂㅜㄹㅊㅏㅁ	-11870
▁ㅅㅡㄹㅍㅡㅁ	-11871
▁ㅇㅘㅇㄱㅓㄴ	-11872
▁ㅌㅟㄴㅣㅈㅣ	-11873
▁ㅋㅡㄹㄹㅔㅇㅣ	-11874
▁ㄴㅏㅋㅏㅁㅜㄹㅏ	-11875
▁ㄱㅓㅁㅇㅡㄴㅅㅐㄱ	-11876
▁ㅌㅡㄴ	-11877
ㅆㅡㅁㅏ	-11878
▁ㄷㅐㄴㅅㅓ	-11879
▁ㅇㅜㅎㅏㄴ	-11880
▁ㅁㅜㄴㅈㅣㅂ	-11881
▁ㅂㅣㅈㅜㄴ	-11882
▁ㅅㅏㅌㅏㅇ	-11883
ㅈㅓㅇㄷㅗㅇ	-11884
▁ㅇㅝㄴㄱㅜㄴ	-11885
▁ㅋㅏㅅㅡㅌㅣㅇㅑ	-11886
▁ㅇㅣㄹㅂㅗㄴㄱㅜㄱ	-11887
▁ㅅㅗㅇㄷㅗ	-11888
▁ㅁㅣㅇㅑㄱㅣ	-11889
▁ㅅㅏㅁㅈㅜㅇ	-11890
▁ㅌㅏㅇㅣㅇㅓ	-11891
▁ㅇㅗㅎㅏㅇㅣㅇㅗ	-11892
▁ㄱㅣㅇㅣ	-11893
ㅁㅣㅇㅏㅁ	-11894
▁ㅇㅕㄴㅁㅏㄹ	-11895
▁ㅇㅕㅂㅐㅇㅜ	-11896
▁ㅅㅏㄹㅗㅈㅏㅂ	-11897
▁ㅁㅏㄹㅁㅣㅇㅏㅁ	-11898
▁ㅁㅗㅅㅔ	-11899
▁ㅇㅕㅇㅠ	-11900
ㅔㅅㅡㅌㅡ	-11901
▁ㅁㅜㅈㅏㄱ	-11902
▁ㅇㅡㅁㅈㅓㄹ	-11903
ㅍㅡㄹㅏㅇㅋㅡ	-11904
uc	-11905
▁AKB	-11906
▁ㅇㅏㄴㄴㅏ	-11907
▁ㄱㅏㅇㅍㅜㅇ	-11908
▁ㄱㅓㄴㅈㅓㄴ	-11909
▁ㅇㅣㅁㅈㅓㅇ	-11910
▁ㅌㅗㄹㅣㄴㅗ	-11911
▁ㅍㅕㅇㅍㅕㅇ	-11912
ㅎㅐㅅㅏㄹㅇㅣ	-11913
▁ㅌㅏㅇㅣㄱㅓㅅㅡ	-11914
▁"&	-11915
▁ㄱㅏㄷㅗ	-11916
▁ㄱㅡㄹㄹ	-11917
▁ㅈㅜㅇㅅㅓ	-11918
ㄷㅗㄹㅡㅍㅡ	-11919
▁ㅂㅗㄴㅅㅓㅇ	-11920
▁ㅇㅕㄴㅈㅓㅇ	-11921
▁ㅎㅕㅇㅈㅣㄹ	-11922
▁ㅇㅔㄴㅌㅡㄹㅣ	-11923
lay	-11924
row	-11925
▁ㄱㅗㅈ	-11926
ㄷㅐㅍㅛ	-11927
▁ㄱㅡㄴㅅㅏ	-11928
ㅂㅣㅅ	-11929
ㅊㅏㄶ	-11930
▁ㄷㅡㄹㅗ	-11931
ㅏㅇㅑㅁㅏ	-11932
▁ㄹㅏㅍㅏㅇㅔㄹ	-11933
▁ㄹㅗㅇㅜ	-11934
▁ㄱㅣㅁㅌㅐ	-11935
▁ㅂㅗㄹㅕㅇ	-11936
▁ㄸㅓㄹㅇㅓㄸㅡㄹㅣ	-11937
ous	-11938
▁EU	-11939
ㅌㅓㅅ	-11940
ㅜㅇㅕㄱ	-11941
▁ㄹㅏㄹㅣ	-11942
ㅋㅐㅅㅡㄹ	-11943
▁ㄱㅗㅊㅏㅇ	-11944
▁ㅈㅐㅍㅐㄴ	-11945
▁ㄱㅏㅇㄹㅕㄹ	-11946
▁ㄱㅣㅁㅇㅣㄴ	-11947
▁ㄹㅏㅇㅣㄷㅓ	-11948
▁ㄹㅗㅁㅏㅇㅣㄴ	-11949
▁ㅇㅣㅅㄸㅏㄹㅡ	-11950
▁ㅇㅏㄲㅣ	-11951
▁ㄷㅗㅇㄹㅗ	-11952
▁ㅅㅓㅇㅣㅁ	-11953
▁ㄷㅐㄴㅣㅇㅓㄹ	-11954
ㅇㅝㄴㅅㅜㅇㅇㅣ	-11955
▁ㄱㅘㅇㅂㅗㄱㄱㅜㄴ	-11956
▁ㄴㅡㄺ	-11957
▁ㄹㅠㅋㅠ	-11958
ㅣㅇㅐㅁㅣ	-11959
▁ㅅㅣㅁㅔㄴㅌㅡ	-11960
▁ㅁㅏㅇㅣㅇㅐㅁㅣ	-11961
▁at	-11962
▁ㅈㅏㅅㅓ	-11963
▁ㄱㅝㄴㅎㅏ	-11964
▁ㅇㅔㄹㄹㅔ	-11965
▁ㄱㅡㄹㄲㅗㄹ	-11966
▁ㅎㅜㅈㅣㅇㅘㄹㅏㄴㅗ	-11967
ows	-11968
▁ㅊㅠ	-11969
▁ㄷㅣㅇㅗㄴ	-11970
▁ㅂㅕㅇㅈㅏ	-11971
▁ㅈㅓㅇㄱㅓㅈㅏㅇ	-11972
ㅁㅣㅈㅡ	-11973
ㅏㅇㄷㅣ	-11974
▁ㅁㅜㄱㅘ	-11975
▁ㅋㅡㄹㄹㅏ	-11976
▁ㄱㅜㄱㄷㅏㅇ	-11977
▁ㅇㅣㄴㅊㅣㅇ	-11978
▁ㅈㅏㅁㅈㅓㅇ	-11979
▁ㅈㅗㅇㄱㅜㄴ	-11980
▁ㅎㅏㄴㅈㅜㅇ	-11981
ㅍㅡㄹㅏㅇㅣㄴ	-11982
▁ㄱㅗㅇㅣㄴㄷㅗㄹ	-11983
▁ㅅㅔㅋㅣ	-11984
▁ㅁㅏㅆㅡㅇ	-11985
▁ㅊㅜㅇㅓㄱ	-11986
▁ㅂㅜㅊㅗㅇㄹㅣ	-11987
ㅋㅣㄴㅗ	-11988
ㅅㅡㅌㅔㄴ	-11989
▁ㄹㅔㅇㅣㅌㅡ	-11990
▁ㅈㅓㄹㅈㅓㅇ	-11991
▁ㄴㅠㅋㅐㅅㅡㄹ	-11992
▁ㅂㅏㄹㄹㅏㄷㅡ	-11993
▁ㄱㅜㄱㅈㅔㅂㅓㅂ	-11994
▁API	-11995
▁ㅌㅏㄹㅣ	-11996
ㄹㅣㄱㅓㄴ	-11997
ㅅㅡㄹㅕㅇ	-11998
▁ㅁㅗㄱㅎㅚ	-11999
▁ㅂㅗㅈㅗㄱ	-12000
▁ㅅㅏㅅㅓㄹ	-12001
ㅌㅔㅇㅣㄴㅓ	-12002
▁ㅈㅓㄴㅎㅏㄴ	-12003
▁ㅍㅡㄹㅏㅇㅅㅡㄹㅕㅇ	-12004
▁u	-12005
ㄷㅜㅁ	-12006
ㅎㅣㄴ	-12007
▁ㄴㅕㅇ	-12008
▁ㅌㅜㅁ	-12009
▁ㅇㅠㅎㅢ	-12010
▁ㅂㅜㅍㅕㅇ	-12011
▁ㄱㅏㅁㅅㅓㅇ	-12012
▁ㅁㅏㄹㅡㅋㅡ	-12013
▁ㄱㅛㅌㅗㅇㅂㅜ	-12014
olog	-12015
ㅈㅣㅂㅜ	-12016
▁ㅎㅜㅂㅐ	-12017
▁ㄷㅏㅇㄱㅣ	-12018
▁ㅁㅕㅇㅅㅗ	-12019
▁ㅈㅐㅇㅣㄹ	-12020
▁ㅈㅣㅇㅅㅜ	-12021
▁ㄱㅜㄹㅈㅓㄹ	-12022
▁ㄹㅔㅇㅣㄷㅓ	-12023
▁ㄹㅔㅂ	-12024
ㅔㅇㅣㅋㅏ	-12025
▁ㄱㅕㄱㅊㅜ	-12026
▁ㅇㅖㅇㅑㄱ	-12027
▁ㅈㅜㅇㅅㅜ	-12028
▁ㅎㅏㄴㅏㅁ	-12029
▁ㄱㅕㅇㅂㅗㄱ	-12030
▁ㄱㅣㅁㅁㅕㅇ	-12031
▁ㄷㅗㅁㅏㅇㄱㅏ	-12032
▁ㅂㅏㅇㅇㅓㅅㅓㄴ	-12033
▁ㅈㅏㅇㅎㅏㄱㄱㅡㅁ	-12034
az	-12035
▁131	-12036
ㄱㅓㄹㅐ	-12037
▁1848	-12038
▁ㅅㅣㅋㅗㅋㅜ	-12039
ㅓㄹㄹㅣㅈㅡㅁ	-12040
▁ㄱㅣㅅㅜㄱㅅㅏ	-12041
▁ㅇㅏㄹㅏㅂㅇㅔ	-12042
▁ㅈㅏㅁㅔㅇㅣㅋㅏ	-12043
▁ㅇㅏㄹㅏㅂㅇㅔㅁㅣㄹㅣㅌㅡ	-12044
OP	-12045
ㅡㅇㅣㄴ	-12046
▁ㅌㅏㅇㅜ	-12047
▁ㅅㅏㅇㅕㄱ	-12048
▁ㅇㅐㅈㅓㅇ	-12049
▁ㅇㅗㅁㅏㄴ	-12050
▁ㅍㅡㄹㅔㅅ	-12051
▁ㅈㅓㄹㅂㅕㄱ	-12052
ㅋㅡㄹㄹㅣㄷㅡ	-12053
▁ㄷㅜㄹㅕㅇㅜㅁ	-12054
▁ㅈㅣㅅㅏㅇㅍㅏ	-12055
▁ㅋㅏㅁㅔㄹㅜㄴ	-12056
▁ㅅㅐㅇㅈㅗㄴㅈㅏ	-12057
▁ㄴㅏㄱㄷㅗㅇㄱㅏㅇ	-12058
ㅐㅇㅇㅣ	-12059
▁ㄷㅗㅋㅜ	-12060
ㄹㅣㅇㅗㄴ	-12061
▁ㅇㅔㅇㅣㅈㅡ	-12062
▁ㅁㅣㅅㅜ	-12063
▁ㅂㅏㄱㅡ	-12064
ㅎㅘㅁㅜㄴ	-12065
▁ㄹㅣㅇㅗㅇ	-12066
▁ㅍㅗㅌㅓㄹ	-12067
▁ㄱㅏㄴㅊㅓㅂ	-12068
▁ㅅㅜㄴㅈㅗㅇ	-12069
▁ㅅㅣㅁㅅㅏㅇ	-12070
▁ㅇㅕㄹㄱㅏㅇ	-12071
▁ㅈㅓㅈㅣㄷㅐ	-12072
▁BC	-12073
ㅈㅏㄹㅜ	-12074
ㅈㅣㄹㅗ	-12075
▁ㅇㅠㅇㅢ	-12076
▁ㅌㅔㄹㅏ	-12077
▁ㄷㅗㄹㅏㅇ	-12078
▁ㄹㅗㅇㅑㄹ	-12079
▁EM	-12080
ㅈㅣㄴㅡㅇ	-12081
▁ㄱㅓㄹㅏㄴ	-12082
▁ㅅㅏㅁㅣㄴ	-12083
▁ㄷㅐㄴㅏㅁㅜ	-12084
▁ㅈㅔㅇㅟ	-12085
▁ㅈㅣㅅㅓㄱ	-12086
▁ㄱㅣㅁㄱㅘㅇ	-12087
▁ㄸㅗㄱㄱㅏㅌㅇㅣ	-12088
▁ㅌㅔㄱㅅㅏㅅㅡㅈㅜ	-12089
▁ㅍㅡㄹㅏㅇㅅㅡㅇㅣㄴ	-12090
▁ㅇㅣㄴㄱㅗㅇㅈㅣㄴㅡㅇ	-12091
ann	-12092
▁Bla	-12093
ㅂㅣㅇㅑ	-12094
▁ㅇㅛㅇㅇㅢ	-12095
▁ㅂㅗㄹㅏ	-12096
▁ㅋㅜㄴㅣ	-12097
▁ㅅㅜㄱㅂㅜ	-12098
▁ㅇㅟㄴㅓㅅㅡ	-12099
▁ㅎㅏㄴㅗㅂㅓ	-12100
▁ㄱㅡㄹㅐㄴㅌㅡ	-12101
▁ㅇㅕㅅㅏ	-12102
▁ㅇㅕㅅㅓ	-12103
ㅌㅡㄴㅓㅁ	-12104
▁ㅁㅏㅂㅓㅂㅅㅏ	-12105
ㅏㅇㅣㅁ	-12106
▁NASA	-12107
▁ㅋㅗㅅㅣ	-12108
▁ㅌㅡㄱㅎㅘ	-12109
▁ㅎㅐㄷㅗㄱ	-12110
▁ㅅㅏㄴㄷㅜㅇ	-12111
▁ㅇㅏㄹㅏㄱㅗㄴ	-12112
ㅏㅇㅗㅋㅏ	-12113
▁ㄱㅏㄹㅏㅇ	-12114
▁ㅇㅏㄱㅂㅗ	-12115
▁ㅎㅘㅇㅅㅐㄱ	-12116
▁ㅈㅔㅇㅣㅅㅡㄴ	-12117
▁ㄱㅗㅂㅜㄴㄱㅜㄴ	-12118
▁ㅈㅓㅂㅇㅓㄷㅡㄹ	-12119
▁ㅁㅏㄴㅣ	-12120
▁ㅂㅓㅁㅏ	-12121
ㅜㄹㅣㅇㅏ	-12122
▁ㅅㅏㄹㅣㅁ	-12123
▁ㅎㅏㅇㅊㅔ	-12124
▁ㄴㅏㅁㅂㅏㅇ	-12125
▁ㅅㅣㄴㄱㅗㄱ	-12126
▁ㅇㅜㄹㅜㅅㅡ	-12127
▁ㅈㅗㅇㅇㅑㅇ	-12128
▁ㅈㅣㅂㅈㅓㅇ	-12129
▁ㅇㅕㄹㅅㅣㅁㅎㅣ	-12130
▁OST	-12131
▁ㄱㅗㅇㅏ	-12132
▁ㅇㅗㄷㅣ	-12133
▁ㅂㅣㅈㅓㅇ	-12134
▁ㄱㅗㅇㅇㅕㅇ	-12135
▁ㅇㅗㅁㅣ	-12136
▁ㄴㅗㅁㅕㄴ	-12137
▁ㅇㅕㄴㅎㅢ	-12138
▁ㅁㅏㅇㅣㅇㅓ	-12139
▁ㅂㅜㄷㅣㅈㅎㅣ	-12140
▁ㅈㅜㄹㄱㅣㅅㅔㅍㅗ	-12141
ern	-12142
▁ㅎㅗㅂ	-12143
ㅎㅣㅅㅏ	-12144
▁ㅅㅓㅎㅐ	-12145
▁ㅍㅣㄹㅣ	-12146
▁ㄱㅡㄱㅇㅜ	-12147
▁ㅁㅗㄱㅓㄴ	-12148
▁ㅊㅗㅋㅗㄹ	-12149
▁ㄹㅣㅍㅡㅌㅡ	-12150
▁ㅍㅡㄹㅗㄱㅡㄹㅐㅁㅓ	-12151
ㅍㅔㅅ	-12152
▁Your	-12153
▁ㄱㅛㅇㅢ	-12154
▁ㄴㅗㅇㅇㅓ	-12155
▁ㅁㅗㅅㅐㄱ	-12156
▁ㅇㅜㅅㅏㄴ	-12157
▁ㅈㅔㅇㅜㅅㅡ	-12158
▁ㅌㅏㄴㅇㅑㄱ	-12159
▁ㅁㅏㄴㅎㅘㄱㅏ	-12160
▁ㄱㅘㄴㅎㅕㄴㅇㅏㄱㄷㅏㄴ	-12161
ㄷㅡㅇㅣㄴ	-12162
▁ㅅㅔㄹㅡㄱ	-12163
▁ㅈㅔㅁㅕㅇ	-12164
▁ㅊㅗㅇㄱㅕㄱ	-12165
▁ㄷㅡㄱㅍㅛㅇㅠㄹ	-12166
▁ㅇㅑㅁㅏㄱㅏㅌㅏ	-12167
▁1883	-12168
▁ㅎㅐㅌㅐ	-12169
▁ㅅㅜㅅㅣㄱ	-12170
ㅍㅔㅅㅡㅌㅡ	-12171
▁ㄴㅏㅁㄱㅜㄴ	-12172
▁ㅅㅓㄱㅟ	-12173
▁ㅂㅗㄴㄸㅡ	-12174
▁ㅇㅑㅁㅏㄴ	-12175
▁ㅎㅐㅅㅏㅇㄷㅗ	-12176
▁ㅈㅓㄱㄹㅛ	-12177
▁ㅅㅓㄴㅁㅕㅇ	-12178
▁ㅈㅓㅇㅊㅣㅎㅏㄱ	-12179
80	-12180
ㅍㅜㄹㅇㅣ	-12181
▁ㅇㅔㅅㅡㅋ	-12182
▁ㅈㅏㅁㅕㅇ	-12183
▁ㅈㅗㅇㄹㅗ	-12184
▁ㄱㅘㄴㅅㅏㅇ	-12185
▁ㅇㅕㅇㅢㄷㅗ	-12186
▁ㅈㅜㅇㅅㅗㄱ	-12187
▁ㅍㅏㄴㅅㅗㄹㅣ	-12188
ㅅㅓㅅㅡ	-12189
▁ㄱㅖㅈㅜ	-12190
▁ㄷㅐㅈㅘ	-12191
▁ㅇㅠㄱㅗㅇ	-12192
▁ㅈㅜㅅㅏㅇ	-12193
▁ㅇㅗㄴㄴㅏㄴ	-12194
▁ㅈㅣㅂㅐㅈㅏ	-12195
ㄲㅏㅂ	-12196
ㄷㅗㅇㅓ	-12197
ㅇㅓㅅㅏ	-12198
ㅝㄴㅅㅜ	-12199
▁ㄱㅏㄱㅏ	-12200
▁ㅍㅗㄱㅗ	-12201
▁ㅎㅔㅂㅣ	-12202
▁ㄱㅗㅎㅡㅇ	-12203
▁ㅁㅗㅇㅛㄱ	-12204
▁ㅂㅏㅇㄷㅐ	-12205
▁ㅇㅏㄴㄱㅐ	-12206
▁ㅎㅏㄴㅅㅣㄴ	-12207
▁ㄷㅓㅂㅡㄹㄹㅣㄴ	-12208
▁ref	-12209
▁ㄹㅗㅋㅣ	-12210
▁ㅁㅛㅂㅣ	-12211
ㄴㅗㄹㅇㅣ	-12212
▁ㄱㅟㅅㅣㄴ	-12213
▁ㅈㅓㅁㅍㅗ	-12214
▁ㅍㅕㅇㅈㅣ	-12215
▁ㅇㅏㄴㅂㅏㅇ	-12216
▁ㅂㅓㅂㅇㅝㄴㅈㅏㅇ	-12217
CC	-12218
▁FK	-12219
▁tv	-12220
ㅂㅓㄹㅡㄴ	-12221
▁ㅋㅜㅂㅣㄹ	-12222
▁ㄱㅏㄴㄹㅑㄱ	-12223
▁ㅇㅏㅇㅣㅈㅡ	-12224
▁ㅇㅡㅇㄱㅡㅂ	-12225
40	-12226
▁ㅅㅏㅇㅕㅇ	-12227
▁ㅍㅏㅍㅜㅇ	-12228
▁ㅎㅗㄴㄷㅏ	-12229
▁ㅇㅕㄹㅈㅓㄴ	-12230
▁ㅇㅝㄴㅅㅏㄴㅈㅣ	-12231
orn	-12232
▁ㅁㅜㅉ	-12233
▁ㅇㅏㅁㅗㄱ	-12234
▁ㅇㅛㅇㅇㅐㄱ	-12235
▁ㅅㅠㅍㅓㅋㅓㅂ	-12236
▁Wind	-12237
▁ㅇㅑㅇㅚ	-12238
ㅋㅏㅇㅣㄴ	-12239
▁ㄷㅓㅍㄱㅐ	-12240
▁ㅅㅏㅂㅎㅘ	-12241
▁ㅁㅜㄴㄷㅏㄴ	-12242
▁ㅂㅜㅅㅏㅇㅈㅏ	-12243
ㅅㅡㅌㅔㄹㅡㄷㅏㅁ	-12244
▁ㅋㅜㅂㅣㄹㄹㅏㅇㅣ	-12245
▁RP	-12246
ㄷㅡㄹㅣㅇㅏ	-12247
▁ㅁㅜㅉㅣㄹㅡ	-12248
▁ㅅㅓㅇㄷㅗㅇ	-12249
▁ㅇㅑㅇㅅㅣㅁ	-12250
▁ㅂㅗㅅㅜㅈㅜㅇㅢ	-12251
▁ㅇㅜㅇㅔ	-12252
▁ㄱㅓㅅㅓㅇ	-12253
▁ㄱㅣㅈㅓㄴ	-12254
▁ㄷㅏㄴㄱㅕㄹ	-12255
▁ㅂㅡㄹㅔㅇㅣ	-12256
▁RS	-12257
▁1882	-12258
▁ㄴㅗㄱㅎㅘ	-12259
▁ㄱㅜㄱㅎㅏㄴ	-12260
▁ㅅㅓㄹㅁㅜㄴ	-12261
▁ㅇㅕㄴㄱㅜㄱ	-12262
▁ㅍㅐㄹㅓㄷㅣ	-12263
▁ㅎㅏㄴㄱㅕㄹ	-12264
▁ㅇㅔㅇㅣㅈㅓㄴ	-12265
▁ㅇㅣㅇㅛㅇㄱㅐㄱ	-12266
▁ㅈㅣㅂㅜㅇㄷㅗㄹ	-12267
ㅂㅓㄹㅓ	-12268
ㅏㄴㅡㄴ	-12269
▁ㄷㅐㅁㅏ	-12270
▁ㅂㅔㅌㅡ	-12271
▁ㅂㅜㅇㅏㄴ	-12272
▁ㅈㅣㅂㅓㅂ	-12273
▁ㅇㅣㄹㄱㅏㄱ	-12274
▁ㅇㅔㅅㅡㅍㅔㄹ	-12275
▁ㄷㅏㄴㅊㅔㅈㅓㄴ	-12276
▁ㄱㅏㄷㅜ	-12277
▁ㅎㅏㄴㅁㅣ	-12278
▁ㄷㅗㅇㅅㅏㄴ	-12279
▁ㅌㅗㅁㅏㅌㅗ	-12280
▁ㅎㅔㅇㅓㅈㅣ	-12281
▁ㅁㅕㅇㅎㅘㄱㅎㅣ	-12282
▁ㅇㅛㅈㅓㄹ	-12283
▁ㄷㅏㄴㄱㅜㄴ	-12284
▁ㄷㅗㅇㅈㅣㄴ	-12285
▁ㅅㅏㅇㄹㅗㄱ	-12286
▁ㅇㅞㅅㅡㅌㅡㅁ	-12287
ink	-12288
▁SNS	-12289
▁new	-12290
▁ㄴㅏㅇㅣㄴ	-12291
▁ㄱㅘㄴㅁㅗㄱ	-12292
▁ㅅㅗㄱㄹㅕㄱ	-12293
▁ㅇㅟㄱㅜㄹㅡ	-12294
▁Ge	-12295
▁ㅍㅔㅅㅡ	-12296
▁ㅃㅏㅈㅕㄴ	-12297
▁ㅇㅓㅂㅈㅏ	-12298
▁ㅇㅣㄱㅅㅜㄱ	-12299
▁ㅎㅠㄱㅔㅅㅗ	-12300
▁Day	-12301
▁ㄴㅐㅇㅣㄹ	-12302
▁ㅅㅜㅇㅕㄹ	-12303
▁ㅈㅐㅍㅕㄴ	-12304
▁ㅈㅔㅊㅓㄴ	-12305
▁ㅅㅓㄴㅂㅗㅇ	-12306
▁ㅇㅣㅅㅡㅌㅏㄴ	-12307
▁ㅁㅣㅅㅡㅌㅓㄹㅣ	-12308
▁ㅈㅔㄱㅏㄹㄹㅑㅇ	-12309
▁ㄱㅏㄱㅗ	-12310
▁ㅅㅓㅌㅐ	-12311
▁ㅋㅜㅍㅓ	-12312
ㅈㅔㅍㅜㅁ	-12313
▁ㅇㅠㅅㅐㅇ	-12314
▁ㄱㅗㅇㅅㅓㅇ	-12315
▁ㅎㅏㅁㄹㅑㅇ	-12316
▁ㅇㅕㄴㄱㅜㅎㅚ	-12317
▁ㅅㅣㅈㅡㅇㅗㅋㅏ	-12318
▁ㅈㅓㅇㅂㅗㅇㅝㄴ	-12319
▁ㅈㅜㅇㅅㅗㄱㅣㅇㅓㅂ	-12320
ㅐㄴㅌㅣㄱ	-12321
ㅊㅜㅂㅜㅅㅏ	-12322
▁ㅎㅕㅇㅂㅓㄹ	-12323
II	-12324
▁Sch	-12325
▁ㅋㅏㅅㅏ	-12326
ㅇㅏㄷㅡㄹ	-12327
▁ㄱㅗㅇㅁㅜ	-12328
▁ㄷㅏㄷㅡㅁ	-12329
▁ㅈㅜㅇㅇㅕㅂ	-12330
▁ㅇㅏㅇㅣㅇㅓㄴ	-12331
▁ㅊㅔㅇㅣㄴㅈㅣ	-12332
ㅋㅗㄹㅡ	-12333
ㅍㅗㅅㅣ	-12334
▁ㄱㅗㄹㄱㅕㄱ	-12335
▁ㄷㅔㄴㅣㅅㅡ	-12336
▁ㄷㅣㄹㄹㅓㄴ	-12337
▁ㅂㅡㄹㄹㅜㅁ	-12338
▁ㅍㅡㄹㅣㄴㅅㅡ	-12339
▁ㅎㅐㅇㅏㄴㅅㅓㄴ	-12340
ㅟㄹㅡ	-12341
▁ㅋㅐㄹ	-12342
ㅞㅇㅣㅌㅡ	-12343
▁ㅅㅏㄴㅇㅛ	-12344
ㅎㅏㅂㅅㅓㅇ	-12345
▁ㄴㅏㄹㅇㅏㄱㅏ	-12346
▁ㄷㅏㅌㅜㅁ	-12347
▁ㅁㅏㄸㅏㅇ	-12348
▁ㅂㅜㅇㅘㅇ	-12349
▁ㅅㅏㄴㅅㅣ	-12350
▁ㅈㅓㅇㅇㅡㄴ	-12351
▁ㅍㅕㅇㅍㅏㄴ	-12352
▁ㄷㅐㄹㅣㅇㅣㄴ	-12353
▁ㄴㅗㅂㅔㄹㅅㅏㅇ	-12354
▁ㅍㅏㅇㅣㄹㄹㅓㅅ	-12355
ㄷㅡㅇㅟ	-12356
ㄹㅗㅈㅣ	-12357
▁ㅅㅏㅅㅓ	-12358
▁ㅅㅡㄴㅗ	-12359
▁ㄱㅓㅁㄱㅓ	-12360
▁ㄴㅏㄲㅅㅣ	-12361
▁ㅅㅔㅅㅡㅂ	-12362
▁ㅁㅗㄴㅌㅔㄴ	-12363
ㅌㅔㅇㅣㅅㅕㄴ	-12364
ㅋㅏㄴㅏ	-12365
▁ㅇㅜㅅㅣ	-12366
ㅁㅏㄹㄹㅏ	-12367
▁ㅇㅝㄴㄹㅗ	-12368
▁ㄱㅐㄱㅜㄹㅣ	-12369
▁ㅇㅕㄴㄹㅣㅂ	-12370
▁ㅇㅕㅇㅎㅘㅅㅏㅇ	-12371
▁ㅈㅗㄱㅛ	-12372
▁ㅋㅏㅍㅣ	-12373
▁ㅇㅝㄹㅌㅓ	-12374
▁ㅋㅔㄹㅌㅡ	-12375
▁ㄷㅡㄷㅣㅇㅓ	-12376
▁ㄱㅜㄷㅜ	-12377
▁ㄴㅣㅋㅣ	-12378
▁ㄱㅡㅂㅇㅕ	-12379
▁ㅇㅡㄴㅎㅖ	-12380
▁ㅂㅏㄷㄷㅡㄹ	-12381
▁ㄱㅕㅇㅈㅜㅅㅣ	-12382
▁ㅁㅔㄹㅂㅓㄹㅡㄴ	-12383
▁ㅂㅏㅇㅅㅏㄴㅡㅇ	-12384
▁ㅍㅣㄹㄹㅣㅂㅅㅡ	-12385
▁ㅂㅡㄹㅜㅋㅡㄹㄹㅣㄴ	-12386
ㅉㅜㄱ	-12387
▁ㄱㅜㄹㅡ	-12388
▁ㄱㅏㅎㅗㄱ	-12389
▁ㅈㅣㄴㄹㅗ	-12390
ㅈㅏㄴㅣㅇㅏ	-12391
▁ㅇㅐㅇㄱㅡㄹ	-12392
▁ㄴㅗㄹㅡㅁㅏㅇㄷㅣ	-12393
OT	-12394
▁GM	-12395
ㄷㅡㄹㅔ	-12396
ㅅㅓㄴㅣ	-12397
▁ㄱㅘㅌㅔ	-12398
▁ㅂㅗㄹㅗ	-12399
▁ㅅㅜㅇㅟ	-12400
ㄷㅗㄹㅇㅣ	-12401
▁ㅆㅣㅈㅗㄱ	-12402
▁ㅂㅏㄱㅡㄴㅓ	-12403
▁ㅈㅓㅇㅇㅝㄹ	-12404
▁ㄱㅘㅌㅔㅁㅏㄹㄹㅏ	-12405
▁ㄱㅛㅎㅑㅇㅇㅏㄱㄷㅏㄴ	-12406
▁SA	-12407
ㅐㄱㅡ	-12408
▁ㅂㅜㄷㅏ	-12409
▁ㅁㅗㅂㅓㅁ	-12410
▁ㅈㅓㄹㄱㅏㅁ	-12411
▁ㅋㅗㄴㅅㅗㄹ	-12412
▁ㄱㅡㄹㅏㅇㅜㄴㄷㅡ	-12413
▁ㅇㅏㄴㅏㄹㄹㅗㄱㅡ	-12414
▁ㄱㅡㅈㅓ	-12415
▁ㅋㅗㅅㅗ	-12416
▁ㄱㅘㄴㄹㅖ	-12417
▁ㅊㅚㅇㅕㅇ	-12418
▁ㅂㅏㄹㅅㅏㅇ	-12419
▁ㅂㅗㅇㅇㅣㄴ	-12420
▁colspan	-12421
▁ㅈㅜㄱㅖㅇㅕㄹ	-12422
▁ㅇㅓㅍㅏ	-12423
ㅂㅣㄱㅜㄴ	-12424
▁ㄱㅏㅇㄷㅏㅇ	-12425
▁ㄷㅏㄴㅅㅗㄱ	-12426
▁ㅂㅓㄴㅊㅏㅇ	-12427
▁ㅅㅏㄴㅌㅣㅇ	-12428
▁ㅊㅣㄴㅈㅗㄱ	-12429
▁ㄹㅔㄷㅡㅅㅏㄱㅅㅡ	-12430
▁ㅅㅡㅁㅣ	-12431
▁ㅈㅐㄹㅐ	-12432
ㅁㅏㄹㄹㅣ	-12433
▁ㄱㅏㅈㅜㅇ	-12434
▁ㄱㅗㅇㅅㅗ	-12435
▁ㅅㅣㄱㅅㅡ	-12436
▁ㅈㅣㄱㅅㅗㄱ	-12437
▁ㅎㅕㅂㅇㅓㅂ	-12438
▁ㅁㅗㄴㅌㅔㄴㅔㄱㅡㄹㅗ	-12439
▁ㄷㅗㅍㅣ	-12440
▁ㅎㅏㅋㅗ	-12441
▁ㅂㅜㅎㅏㅂ	-12442
▁ㅈㅔㄷㅏㄴ	-12443
▁ㅂㅜㄱㄱㅜㄴ	-12444
▁ㅈㅓㅇㅈㅓㅇ	-12445
▁ㅅㅏㅇㅓㅂㅅㅗ	-12446
▁ㅈㅓㅇㅇㅢㄷㅏㅇ	-12447
▁ㅇㅠㅋㅡㄹㄹㅣㄷㅡ	-12448
▁Or	-12449
ㄴㅣㅁ	-12450
ㅏㄱㅟ	-12451
ㄷㅗㄹㅏ	-12452
ㅡㅅㅔㄴ	-12453
▁ㄱㅕㅇㅇㅟ	-12454
▁ㅂㅏㄱㅅㅓㅇ	-12455
ㅗㅅㅗㄱㄷㅗㄹㅗ	-12456
▁ㅋㅣㅂ	-12457
ㅋㅔㅇㅣ	-12458
▁ㄱㅣㅅㅔ	-12459
▁ㅌㅐㅎㅜ	-12460
ㅅㅏㄹㅕㄱ	-12461
ㅎㅏㄱㅔㄴ	-12462
▁ㅅㅓㅊㅗㄱ	-12463
▁ㅈㅣㄱㅡㄱ	-12464
▁ㅎㅏㅇㅇㅝㄴ	-12465
ㄷㅟ	-12466
▁ㅅㅏㅅㅜ	-12467
▁ㅈㅓㅇㄹㅕㅇ	-12468
▁ㅊㅜㅇㄹㅕㄹ	-12469
▁ㅅㅏㅇㅣㅌㅏㅁㅏ	-12470
▁ㅌㅗㅇㅅㅣㄴㅅㅏ	-12471
▁ㅋㅓㄴㅌㅡㄹㅗㄹㄹㅓ	-12472
▁ㄹㅣㅈㅡ	-12473
▁ㅂㅏㅈㅣ	-12474
▁ㅇㅠㅅㅓ	-12475
ㅂㅗㄴㅂㅜ	-12476
ㅏㄹㅣㅋㅏ	-12477
▁ㄷㅗㅂㅏㄱ	-12478
▁ㄱㅗㅇㅎㅘㅈㅓㅇ	-12479
▁ㅋㅗㅍㅔㄴ	-12480
▁ㅌㅏㄹㅏㄱ	-12481
▁ㄴㅔㄹㅅㅡㄴ	-12482
▁ㅇㅕㅇㅇㅏㅁ	-12483
▁ㅎㅛㄱㅗㅎㅕㄴ	-12484
▁ㅇㅏㅇㄱㅗㄹㄹㅏ	-12485
US	-12486
▁end	-12487
▁ㅎㅚㄱㅟ	-12488
▁ㄱㅜㄱㅇㅚ	-12489
▁ㅇㅛㅇㅑㅇ	-12490
▁ㄷㅐㅍㅛㅈㅏ	-12491
▁ㄷㅗㅇㅈㅓㄱ	-12492
▁ㅇㅕㅇㄷㅓㄱ	-12493
▁ㅁㅣㅌㅗㅋㅗㄴ	-12494
▁ㅁㅣㅌㅗㅋㅗㄴㄷㅡㄹㅣㅇㅏ	-12495
▁4000	-12496
▁ㄱㅗㄹㅗ	-12497
▁ㅂㅜㅍㅏ	-12498
▁ㅎㅜㅇㅖ	-12499
▁ㄱㅝㄴㅇㅕㄱ	-12500
▁ㅈㅗㅇㅇㅕㅇ	-12501
▁ㅍㅕㄴㄱㅕㄴ	-12502
▁ㄷㅐㄷㅏㄴㅎㅣ	-12503
▁ㅅㅣㄴㅈㅜㅋㅜ	-12504
▁330	-12505
▁ㄱㅏㄴㅅㅏ	-12506
▁ㄹㅏㅇㅜㄹ	-12507
▁ㅈㅗㅅㅔㅂ	-12508
▁ㅋㅡㄹㅣㅇ	-12509
▁ㄱㅏㄴㅅㅣㄴㅎㅣ	-12510
▁ㅊㅜㅅㅓ	-12511
ㄱㅛㅌㅗㅇ	-12512
ㅗㅌㅡ	-12513
ㅊㅣㅎㅣ	-12514
▁ㅈㅗㅅㅠ	-12515
▁ㄷㅐㅊㅓㅇ	-12516
▁ㄹㅗㅁㅏㅈㅏ	-12517
▁ㄱㅣㅁㅇㅗㄱㄱㅠㄴ	-12518
▁ㅌㅏㅅㅜ	-12519
▁ㄱㅣㄹㅑㅇ	-12520
▁ㅈㅜㅊㅏㅇ	-12521
▁ㅅㅣㄱㅇㅛㅇ	-12522
▁ㅇㅕㅇㅇㅝㄹ	-12523
▁ㅇㅘㅇㄱㅜㅇ	-12524
▁ㅎㅏㄹㅇㅣㄴ	-12525
▁ㄹㅔㅇㅗㅍㅗㄹ	-12526
▁ㅇㅗㅇㅣㄹㄹㅓ	-12527
▁ㄷㅐㅂㅓㅂㄱㅘㄴ	-12528
▁ㅇㅣㅅㅡㅌㅏㄴㅂㅜㄹ	-12529
▁ㄷㅡㅂ	-12530
▁ㅋㅐㅅ	-12531
ㅓㄹㅅㅡ	-12532
▁ㄱㅗㅅㅐㅇ	-12533
▁ㅈㅜㅅㅓㄴ	-12534
▁ㅊㅚㅅㅓㄴ	-12535
▁ㅁㅔㄹㅣㄹㄹㅐㄴㄷㅡ	-12536
oll	-12537
ㅌㅏㄴㅏ	-12538
▁1868	-12539
▁ㅂㅐㅂㅜㄴ	-12540
▁ㄷㅏㄴㅁㅏㄹ	-12541
▁ㅅㅜㅇㅛㅇㅣㄹ	-12542
▁ㄱㅣㄴㅕㅁㅇㅣㄹ	-12543
▁ㅇㅓㅅㅣㅅㅡㅌㅡ	-12544
ㅔㄱㅗ	-12545
▁ㅂㅐㄷㅏㄹ	-12546
▁ㅅㅓㅁㅕㄴ	-12547
▁ㅇㅏㄴㅌㅣㅇㅗ	-12548
▁by	-12549
▁ㅍㅗㅌㅗ	-12550
ㅇㅠㅇㅎㅏㅂ	-12551
▁ㄷㅗㅇㅅㅣㄷㅐ	-12552
ㅌㅣㅁㅗㅇㅓ	-12553
▁ㅅㅣㄹㅈㅡㅇ	-12554
▁ㅇㅛㅊㅜㅇㅈㅣ	-12555
▁ㅆㅏㄱ	-12556
▁ㅍㅔㅂ	-12557
ㅎㅗㄹㅏㄴ	-12558
▁ㅈㅗㄱㅂㅗ	-12559
▁ㅋㅏㅌㅜㄴ	-12560
▁ㅂㅜㄱㅇㅠㄹㅓㅂ	-12561
▁ㅎㅐㄱㅇㅠㅇㅎㅏㅂ	-12562
ㅋㅏㄹㄹㅣ	-12563
▁ㄷㅐㄷㅓㄱ	-12564
▁ㅇㅜㅇㅘㅇ	-12565
▁ㅍㅏㅂㅓㄹ	-12566
▁ㄴㄷㅏㅁㅕㄴ	-12567
▁ㅋㅓㄹㅣㅇㅓ	-12568
gin	-12569
▁ㄷㅗㄹㅐ	-12570
▁ㄱㅡㅂㅈㅡㅇ	-12571
▁ㅅㅓㅇㅇㅝㄴ	-12572
▁ㅊㅜㄱㅅㅏㄴ	-12573
▁ㅇㅏㅋㅔㅇㅣㄷㅡ	-12574
▁ㅈㅔㄴㅗ	-12575
ㅁㅏㄹㄹㅗ	-12576
▁ㅂㅜㄹㄱㅖ	-12577
▁ㅇㅠㅇㅕㅇ	-12578
ㅌㅗㄹㅣㅋㅗ	-12579
▁ㅅㅣㄴㅇㅣㅂ	-12580
▁ㅂㅣㅅㅓㄱㅘㄴ	-12581
▁ㅅㅓㄴㅈㅣㄴㄱㅜㄱ	-12582
amp	-12583
▁OB	-12584
▁Girl	-12585
▁ㅊㅚㅈㅣㄴ	-12586
▁ㅎㅏㅇㄹㅗ	-12587
▁ㅌㅔㄴㅔㅅㅣ	-12588
▁320	-12589
ㅔㅁㅔㄴ	-12590
▁ㅇㅟㅊㅗㄱ	-12591
▁ㅁㅜㄴㅈㅗㅇ	-12592
▁ㅋㅗㄹㄹㅓㅁ	-12593
▁ㅇㅠㄱㅗ	-12594
ㅂㅜㄱㄱㅜ	-12595
▁ㅁㅏㅆㅡㅁ	-12596
▁ㅁㅗㅌㅓㅅ	-12597
▁ㅂㅡㄹㅏㅁ	-12598
▁ㅎㅏㄱㄹㅕㄱ	-12599
▁ㅈㅓㄴㅂㅏㄴㄱㅣ	-12600
▁ㅍㅡㄹㅏㄴㅅㅣㅅㅡㅋㅗ	-12601
▁ㅍㅣㅅ	-12602
▁ㄹㅏㄱㅏ	-12603
▁ㅅㅗㅇㅚ	-12604
▁ㅎㅐㅍㅣ	-12605
▁ㅂㅗㄹㅡㅁ	-12606
▁ㅊㅏㅅㅓㄴ	-12607
▁ㅈㅗㅇㅅㅣㄴ	-12608
▁ㅋㅓㄴㅅㅓㄹ	-12609
▁ㅅㅡㅋㅐㄴㄷㅡㄹ	-12610
ㄱㅗㅇㅅㅏㄴㄷㅏㅇ	-12611
▁ㄱㅘㄴㄱㅖㅇㅓㅄㅇㅣ	-12612
RT	-12613
ㅗㄴㅗ	-12614
▁ㄴㅑㅇ	-12615
ㅇㅡㄹㅗ	-12616
▁ㄱㅏㅇㅜ	-12617
▁ㅇㅚㄱㅘ	-12618
▁ㅌㅡㅇㅣ	-12619
▁ㄱㅕㄹㅅㅏ	-12620
▁ㅇㅓㅇㅞㅇㅣ	-12621
▁ㅋㅗㅍㅔㄴㅎㅏㄱㅔㄴ	-12622
▁ㅋㅏㅁㅣ	-12623
▁ㅅㅓㅇㅅㅏㄴ	-12624
▁ㅇㅣㅂㅏㅈㅣ	-12625
▁ㅅㅏㅇㅣㅁㅓㄴ	-12626
▁ㅇㅗㅅㅡㅌㅣㄴ	-12627
▁ㅍㅛㅇ	-12628
ㅎㅣㄷㅡ	-12629
▁ㅎㅏㅇㅢ	-12630
▁ㄹㅐㅇㅋㅡ	-12631
▁ㅁㅜㅅㅓㅂ	-12632
▁ㅅㅣㅌㅡㅋㅗㅁ	-12633
▁ㅇㅏㅁㅅㅡㅌㅔㄹㅡㄷㅏㅁ	-12634
▁ㅍㅜㅇㅔㄹㅡㅌㅗㄹㅣㅋㅗ	-12635
ㅈㅣㄱㅐ	-12636
▁ㄲㅓㄴㅐ	-12637
▁ㅇㅝㅋㅓ	-12638
▁ㄷㅗㅅㅏㅇ	-12639
▁ㅁㅓㅅㅈㅣ	-12640
▁ㅊㅗㅇㅏㄴ	-12641
ㄱㅡㄹㅏㄷㅡ	-12642
▁ㅇㅕㅇㅊㅓㄴ	-12643
▁ㅍㅡㄹㅐㄴㅊ	-12644
▁DF	-12645
ㅜㅌㅡ	-12646
▁ㄹㅣㅁㅏ	-12647
▁ㅇㅣㄴㅗ	-12648
▁ㅅㅏㅊㅓㄴ	-12649
▁ㄱㅏㅇㅅㅓㅇ	-12650
▁ㅇㅑㅁㅏㅁㅗㅌㅗ	-12651
ㅕㅈㅣ	-12652
▁ㅎㅣㅌㅏ	-12653
ㅂㅡㄹㄹㅣ	-12654
▁ㄱㅘㄴㅇㅜ	-12655
▁ㄱㅜㄱㄱㅛ	-12656
▁ㄹㅓㅇㅣㄹ	-12657
▁ㄱㅜㄴㅂㅓㄹ	-12658
▁ㅎㅣㅂㅡㄹㅣ	-12659
▁Fe	-12660
▁ㄱㅏㅌㅗ	-12661
▁ㄹㅏㄱㅣ	-12662
▁ㅇㅠㅇㅜ	-12663
▁ㅎㅏㄴㅈㅏㅇ	-12664
▁ㅂㅡㄹㅟㅅㅔㄹ	-12665
▁ㅎㅔㅇㅣㅇㅏㄴ	-12666
ㅈㅣㄴㅡㄹㅓㅁㅣ	-12667
▁ㅅㅏㄹㅗㅈㅏㅂㅎㅣ	-12668
▁ㅋㅗㅅㅡㅌㅏㄹㅣㅋㅏ	-12669
gr	-12670
ㅅㅗㅅ	-12671
▁ㅂㅏㅇㅗ	-12672
▁ㅌㅏㄹㅗ	-12673
▁ㄴㅔㅇㅣㅁ	-12674
▁ㅇㅚㅎㅕㅇ	-12675
▁ㅍㅓㅈㅡㄹ	-12676
▁ㅂㅏㄱㅅㅏㅇ	-12677
▁ㅅㅏㅇㄱㅜㄱ	-12678
▁ㅊㅜㄱㅈㅓㄴ	-12679
▁ㅎㅗㅅㅡㅌㅡ	-12680
▁ㅋㅜㅇㅞㅇㅣㅌㅡ	-12681
ㅅㅏㅇㅜ	-12682
▁ㅈㅗㅈㅔ	-12683
ㅎㅕㅂㅎㅚ	-12684
▁ㅇㅡㄴㅅㅣㄴ	-12685
▁ㅅㅓㅎㅐㅇㅏㄴ	-12686
▁ㅇㅕㅇㅇㅝㄴㅎㅣ	-12687
▁ㅌㅔㄹㄹㅔㅋㅗㅁ	-12688
▁ㅁㅏㅊㅡ	-12689
ㅈㅣㅇㅐㄴㅏ	-12690
▁ㄷㅐㅅㅏㅇㅈㅏ	-12691
▁ㅅㅡㅋㅏㄹㄹㅏ	-12692
▁ㅅㅏㄴㅌㅣㅇㅏㄱㅗ	-12693
▁ㅇㅔㄹㅡㄴㅅㅡㅌㅡ	-12694
▁ㄹㅜㅇㅣㅈㅣㅇㅐㄴㅏ	-12695
OW	-12696
▁ㅇㅓㄱㅣ	-12697
▁ㄹㅣㅌㅠㅁ	-12698
▁ㅁㅗㄹㅌㅏ	-12699
▁ㅈㅏㅁㄲㅏㄴ	-12700
▁ㅈㅓㅂㅈㅗㅇ	-12701
▁ㅎㅓㄴㅈㅏㅇ	-12702
ㄷㅣㄴㅏㅂㅣㅇㅏ	-12703
▁ㅇㅕㄴㅈㅏㅇㅈㅓㄴ	-12704
▁ㅅㅡㅋㅏㄴㄷㅣㄴㅏㅂㅣㅇㅏ	-12705
▁ㄱㅜㄴㅣ	-12706
ㄱㅡㄹㄹㅣ	-12707
ㅍㅏㅇㅇㅣ	-12708
▁ㄱㅗㅇㅗㄴ	-12709
▁ㄱㅛㅈㅣㄱ	-12710
▁ㄱㅠㅌㅏㄴ	-12711
▁ㅂㅔㅍㅜㄹ	-12712
▁ㅇㅔㄴㄹㅣ	-12713
▁ㅈㅜㅅㅓㅇ	-12714
▁ㅂㅏㄹㄷㅗㅇ	-12715
▁ㅂㅓㅂㄱㅘㄴ	-12716
▁ㅂㅜㅌㅈㅏㅂ	-12717
▁ㅎㅏㅁㅎㅡㅇ	-12718
▁ㅍㅡㄹㅐㄴㅊㅏㅇㅣㅈㅡ	-12719
▁ㅅㅏㅎㅚㅁㅣㄴㅈㅜㄷㅏㅇ	-12720
▁ㄴㅗㅇㅏ	-12721
▁ㅂㅗㄹㅜ	-12722
▁ㅅㅑㅍㅡ	-12723
▁ㄷㅏㅁㅂㅗ	-12724
▁ㅇㅔㅇㅣㄴ	-12725
▁ㅇㅜㅇㅝㄹ	-12726
▁ㅂㅏㄹㅈㅓㄴㄱㅣ	-12727
▁ㅂㅜㄹㄱㅖㅅㅡㅇ	-12728
▁ㅊㅓㄴㅇㅏㄴㅅㅣ	-12729
▁ㅇㅟㅈㅗ	-12730
▁ㅅㅏㅇㅇㅓ	-12731
▁ㅈㅓㅇㅁㅗㅇ	-12732
▁ㅂㅓㅂㅈㅗㅇㅣㄴ	-12733
▁le	-12734
▁ㄱㅘㅁ	-12735
▁ㄱㅗㅇㅢ	-12736
▁ㄷㅐㅇㅣㄴ	-12737
▁ㅈㅗㅇㅕㅇ	-12738
▁ㅊㅜㄹㄷㅗㅇ	-12739
▁ㄴㅣㅋㅗㄹㄹㅏㅅㅡ	-12740
▁ㅂㅗㄱㅇㅡㅁㅈㅜㅇㅢ	-12741
▁ㅎㅜㅋㅜㅇㅗㅋㅏㅎㅕㄴ	-12742
ung	-12743
▁1893	-12744
▁ㄹㅔㅍㅡ	-12745
▁ㅂㅜㄱㅛ	-12746
▁ㅊㅣㅎㅏ	-12747
▁ㄴㅗㄹㅏㅇ	-12748
▁ㄷㅗㅇㅍㅗ	-12749
▁ㅅㅔㄹㅕㄴ	-12750
▁ㅇㅠㅎㅏㄱㅈㅏ	-12751
▁203	-12752
▁ㄱㅐㅅ	-12753
▁ㄷㅐㄷㅗ	-12754
▁ㄹㅣㅋㅗ	-12755
▁ㄷㅗㅇㅑㅁㅏ	-12756
▁ㅊㅡㄱㄹㅑㅇ	-12757
▁ㄱㅛㅇㅠㄱㅈㅏ	-12758
▁ㄹㅏㅇㅣㄴㅇㅓㅂ	-12759
ㅁㅣㅅㅏ	-12760
ㅣㄹㄹㅗ	-12761
▁ㄱㅓㅊㅓ	-12762
▁ㅂㅡㄹㄹㅗ	-12763
▁ㅍㅖㄹㅕㅁ	-12764
▁ㄱㅕㄹㅎㅐㄱ	-12765
▁ㄱㅜㄱㅊㅓㄹ	-12766
▁ㅈㅜㄴㅈㅏㅇ	-12767
▁ㅈㅡㅇㅍㅗㄱ	-12768
▁ㅈㅏㅅㅓㅈㅓㄴ	-12769
▁ㅋㅏㅌㅏㄹㄹㅜㄴㅑ	-12770
▁ㅇㅣㅌㅏㄹㄹㅣㅇㅏㅇㅓ	-12771
ㅎㅡㄺ	-12772
ㅍㅡㄹㅔ	-12773
▁ㅈㅏㅇㄷㅓㄱ	-12774
▁Univers	-12775
▁ㅍㅔㄹㄹㅣㄱㅅㅡ	-12776
▁ㅌㅏㄴㅈㅏㄴㅣㅇㅏ	-12777
ㅣㅍㅏ	-12778
ㅎㅐㅈㅏ	-12779
▁ㄴㅗㅎㅜ	-12780
▁ㅈㅓㅈㅗ	-12781
ㄷㅏㄴㅈㅣ	-12782
▁ㄲㅡㅀㅇㅣ	-12783
▁ㅁㅏㄱㅡㄴ	-12784
▁ㅇㅓㄺㅎㅣ	-12785
▁ㄱㅡㅁㄷㅗㅇ	-12786
▁ㅅㅓㄴㅇㅣㄴ	-12787
▁ㅈㅓㅇㅂㅏㄴ	-12788
▁ㅈㅣㄱㅎㅐㅇ	-12789
▁ㄷㅗㄱㅅㅜㄹㅣ	-12790
▁ㅇㅕㅅㅓㅇㅈㅜㅇㅢ	-12791
ㅇㅜㄹㅣ	-12792
ㅎㅕㄴㅐ	-12793
▁ㄴㅓㅁㅓ	-12794
▁ㅁㅗㄷㅓㄴ	-12795
▁ㅇㅔㄴㄷㅡ	-12796
▁ㄱㅣㅁㅊㅓㄴ	-12797
▁ㅎㅏㄱㅈㅏㅇ	-12798
▁ㅂㅏㄺㅎㅕㄴㅐ	-12799
▁ㄱㅡㅂㅅㅗㄱㅎㅣ	-12800
▁ㅇㅔㅅㅡㅍㅔㄹㅏㄴㅌㅗ	-12801
▁TBS	-12802
▁Rock	-12803
▁ㅅㅏㅊㅣ	-12804
▁ㅇㅗㅋㅜ	-12805
▁ㅁㅔㅇㅣㄹ	-12806
▁ㅎㅐㅇㅘㅇ	-12807
▁ㄱㅣㅁㅇㅠㄴ	-12808
▁ㅈㅏㅇㅂㅕㅇ	-12809
▁ㅎㅏㅁㄱㅕㅇㅂㅜㄱㄷㅗ	-12810
▁ㅈㅓㄴㅅㅔ	-12811
▁ㅊㅗㅈㅓㄴ	-12812
▁ㅎㅓㄴㅌㅓ	-12813
▁ㅋㅏㄹㅅㅠㅁ	-12814
▁LED	-12815
▁ㄴㅐㅂㅜㄴ	-12816
▁ㅊㅓㅇㄱㅖ	-12817
ㅌㅡㄹㅣㅅㅡ	-12818
▁ㅇㅜㅇㅢㅈㅓㅇ	-12819
▁ㅈㅘㅇㅢㅈㅓㅇ	-12820
▁ㅍㅣㄱㅊㅓㅅㅡ	-12821
▁ㄱㅏㄱㅗㅅㅣㅁㅏ	-12822
▁ㅎㅘㅈㅏㅇㅍㅜㅁ	-12823
▁ㅅㅏㅇㅜㄴㄷㅡㅌㅡㄹㅐㄱ	-12824
▁NP	-12825
ㄲㅓㅅ	-12826
ㅂㅣㅋㅡ	-12827
▁ㅁㅏㅋㅣ	-12828
▁ㅁㅔㅅㅡ	-12829
▁ㅂㅡㄹㅡ	-12830
▁ㅇㅔㅍㅡ	-12831
ㅅㅏㅇㅅㅣ	-12832
▁ㅂㅓㅅㅓㅅ	-12833
▁ㅇㅕㅁㄹㅕ	-12834
▁ㅍㅛㅈㅓㅇ	-12835
▁ㅎㅏㄴㅋㅠ	-12836
▁ㅎㅠㅇㅑㅇ	-12837
▁ㅂㅜㄹㄱㅕㅇ	-12838
▁ㅇㅏㅂㄹㅗㄱ	-12839
▁ㄹㅔㅅ	-12840
ublic	-12841
▁ㄹㅣㅋㅏ	-12842
▁ㅈㅜㅇㄱㅗㅇㄱㅜㄴ	-12843
LA	-12844
les	-12845
▁Mo	-12846
ㅋㅜㄴ	-12847
▁Car	-12848
ㅂㅏㅇㅗ	-12849
▁ㄴㅔㅌㅣ	-12850
▁ㄲㅡㄶㄱㅣ	-12851
▁ㄴㅏㅁㅎㅏ	-12852
▁ㅅㅜㄴㅊㅏ	-12853
▁ㅇㅗㄴㅎㅘ	-12854
▁ㄴㅡㅇㄷㅗㅇ	-12855
▁ㄷㅗㅈㅏㄱㅣ	-12856
▁ㅅㅓㅅㅏㅅㅣ	-12857
eth	-12858
ㅇㅣㅇㅓ	-12859
▁ㄷㅗㄴㅔ	-12860
▁ㅇㅣㅎㅚ	-12861
▁ㅅㅏㅇㅏㄴ	-12862
▁ㅈㅏㅇㄴㅕ	-12863
▁ㄷㅗㅇㅎㅑㅇ	-12864
▁ㅍㅡㄹㄹㅏㅇㅋㅡ	-12865
▁ㅋㅓㄴㅌㅔㅇㅣㄴㅓ	-12866
▁GNU	-12867
▁IOC	-12868
▁ㅈㅗㄴㅣ	-12869
ㄷㅏㅇㄱㅣ	-12870
ㅍㅗㄱㅌㅏㄴ	-12871
▁ㅂㅓㅁㅎㅐㅇ	-12872
▁ㅅㅓㅊㅗㄱㅜ	-12873
▁ㅇㅛㅅㅣㄴㅗ	-12874
▁ㅍㅖㄱㅣㅁㅜㄹ	-12875
▁ㅎㅐㅇㅏㄴㄱㅏ	-12876
▁ㄱㅜㄴㅅㅏㄹㅕㄱ	-12877
▁ㅊㅗㅋㅗㄹㄹㅣㅅ	-12878
▁Rec	-12879
▁ㅉㅣㅈ	-12880
▁ㅁㅣㄴㅗ	-12881
▁ㅎㅗㅅㅡ	-12882
▁ㅂㅓㅁㅎㅏ	-12883
▁ㄱㅏㅇㅈㅣㄴ	-12884
▁ㅂㅔㄹㅡㅌㅏ	-12885
▁ㅅㅓㅇㅇㅏㄱ	-12886
▁ㅈㅓㄴㅎㅏㄱ	-12887
▁ㅊㅣㅇㅅㅗㅇ	-12888
▁ㅍㅡㄹㅣㅅㅡ	-12889
▁ㅂㅓㅌㅓ	-12890
▁ㅂㅣㄷㅐ	-12891
▁ㅎㅜㅎㅏ	-12892
▁ㅇㅝㄹㅌㅡ	-12893
ㄲㅗㄹㅣ	-12894
▁from	-12895
ㅅㅔㄹㄹㅓ	-12896
▁ㄱㅐㄱㅊㅏ	-12897
▁ㄱㅔㄲㅡㅁ	-12898
▁ㄷㅐㄱㅏㅇ	-12899
▁ㅎㅕㄴㅍㅏㄴ	-12900
▁ㅂㅏㄹㅅㅏㅊㅔ	-12901
▁ㅇㅠㅈㅓㄱㅈㅣ	-12902
▁ㄱㅔㅇㅗㄹㅡㅋㅡ	-12903
▁ㅈㅏㅈㅐ	-12904
▁ㅅㅐㅇㄹㅣ	-12905
▁ㅊㅓㄴㅁㅏ	-12906
▁ㅎㅡㅂㅅㅏ	-12907
▁ㄴㅗㅁㅣㅇㅑ	-12908
▁ㅂㅣㅅㅡㅌㅏ	-12909
▁ㅅㅡㅌㅡㄹㅗ	-12910
▁ㅇㅟㅅㅂㅜㅂㅜㄴ	-12911
▁Comp	-12912
▁ㄱㅡㅁㅈㅓㄴ	-12913
▁ㄱㅣㅁㅅㅓㄴ	-12914
▁ㅍㅏㅅㅣㅈㅡㅁ	-12915
▁280	-12916
▁ㅁㅣㅅ	-12917
ㅌㅏㄱㅗ	-12918
▁ㄴㅐㅁㅜ	-12919
ㅇㅣㄱㅅㅡ	-12920
▁ㄷㅏㅇㄴㅛ	-12921
▁ㅇㅑㅇㅂㅗ	-12922
▁ㅂㅜㄴㄷㅏㄴ	-12923
▁ㅇㅣㄴㄱㅗㅇㅇㅟㅅㅓㅇ	-12924
▁ㅍㅡㄹㄹㅗㄹㅣㄷㅏㅈㅜ	-12925
▁ㅌㅔㅋ	-12926
ㅏㄹㅣㄴ	-12927
▁ㅈㅏㅅㅜ	-12928
▁ㅅㅣㅅㅗㄱ	-12929
▁ㅁㅕㅇㅇㅣㄴ	-12930
▁ㅇㅏㅁㅁㅗㄴ	-12931
▁ㅈㅣㅂㅏㅎㅕㄴ	-12932
▁ㄱㅏㅇㅘㅅㅏㅋㅣ	-12933
oth	-12934
▁IV	-12935
▁ㅊㅣㅇㅠ	-12936
▁ㅋㅐㄹㅣ	-12937
▁ㅅㅔㄹㄹㅔ	-12938
▁ㅇㅜㅇㅔㅅㅡ	-12939
▁ㄹㅣㅁㅣㄱㅅㅡ	-12940
▁ㄷㅗㅋㅏㅇㅣㄷㅗ	-12941
▁Sup	-12942
▁ㅅㅣㅇㅜ	-12943
▁ㅎㅚㄱㅗ	-12944
▁ㄱㅜㄷㅗㄱ	-12945
▁ㄷㅐㅈㅣㄴ	-12946
▁ㅂㅏㅇㅜㄹ	-12947
▁ㅅㅔㄱㅜㄴ	-12948
▁ㄱㅗㅇㅇㅏㄴ	-12949
▁ㅊㅓㅇㅅㅗㅇ	-12950
▁ㅎㅕㅇㅍㅕㄴ	-12951
▁ㄱㅕㄹㄱㅘㅁㅜㄹ	-12952
ㅇㅣㄱㅅㅡㅍㅣㅇㅓ	-12953
▁ㅅㅓㅈㅜ	-12954
▁ㅈㅜㅅㅔ	-12955
▁ㅎㅜㅇㅠ	-12956
▁ㅇㅟㄹㅕㄱ	-12957
▁ㅎㅏㅇㅣㅂ	-12958
▁ㅇㅣㅂㅏㄹㅏ	-12959
▁ㅈㅏㄴㅇㅣㄴ	-12960
▁ㅅㅖㅇㅣㄱㅅㅡㅍㅣㅇㅓ	-12961
▁Am	-12962
▁ㅈㅏㅇㅣ	-12963
▁ㅍㅔㅇㅗ	-12964
ㄷㅏㅇㅜㄴ	-12965
ㅎㅘㅎㅏㄱ	-12966
ㅡㄱㅗㄴㅠ	-12967
▁ㅇㅣㅂㅗㅇ	-12968
▁ㅂㅗㄱㅈㅗㅇ	-12969
▁ㅅㅡㅂㄱㅘㄴ	-12970
▁ㅇㅏㅇㅜㄹㅡ	-12971
▁ㅊㅓㅇㄹㅑㅇ	-12972
▁ㅌㅗㅁㅅㅡㄴ	-12973
▁ㅎㅏㄴㅁㅜㄴ	-12974
▁ㅂㅜㄹㅡㄱㅗㄴㅠ	-12975
▁ㅋㅓㄹㄹㅔㄱㅅㅕㄴ	-12976
▁Su	-12977
▁230	-12978
▁ㅇㅑㅋ	-12979
ㅈㅔㅇㅣ	-12980
▁ㄱㅜㅁㅏ	-12981
▁ㅁㅔㅅㅗ	-12982
▁ㅊㅣㅋㅏ	-12983
▁ㅅㅣㅁㅜㄴ	-12984
▁ㅍㅡㄹㄹㅗㄹ	-12985
▁AB	-12986
▁ㅇㅟㄹㅗ	-12987
▁ㄱㅏㄱㄹㅛ	-12988
▁ㅂㅜㄴㅅㅏ	-12989
▁ㅈㅓㅁㄱㅓ	-12990
▁ㅇㅣㅈㅡㅁㅣ	-12991
▁ㅍㅡㄹㅏㄴㅊㅣ	-12992
▁ㅁㅜㄴㅈㅏㅇㅕㄹ	-12993
▁ㄴㅡㅍ	-12994
ㅗㄱㅓㄴ	-12995
▁ㅂㅐㄹㅣ	-12996
ㅌㅐㅍㅕㅇ	-12997
▁ㄱㅣㅁㅅㅡㅇ	-12998
▁ㅇㅜㄴㅇㅣㅁ	-12999
▁ㅁㅜㅅㅣㄹㅈㅓㅁ	-13000
ㅃㅏㅇ	-13001
ㅡㅇㅞ	-13002
ㅍㅏㄱㅜ	-13003
▁ㅁㅏㅋㅏ	-13004
▁ㅅㅜㄹㅗ	-13005
▁ㅁㅕㅇㅂㅜ	-13006
▁ㅅㅜㄹㅑㅇ	-13007
ㅣㄴㅅㅡㅌㅓ	-13008
▁ㄹㅔㅇㅣㄴㅈㅓㅅㅡ	-13009
▁ar	-13010
▁1888	-13011
▁ㄷㅗㅇㅣ	-13012
▁ㅂㅐㄱㅈㅏ	-13013
▁ㄱㅘㄴㅅㅓㅇ	-13014
▁ㄴㅗㅅㅡㅋㅐ	-13015
▁ㅅㅐㄴㄷㅣㅇ	-13016
▁ㅈㅣㅁㅅㅡㅇ	-13017
▁ㄴㅗㅅㅡㅋㅐㄹㅗㄹㄹㅏㅇㅣㄴㅏ	-13018
▁ㅇㅗㅇㅏ	-13019
ㅣㅇㅔㄹㅡ	-13020
▁ㅁㅣㅅㅓㅇ	-13021
▁ㅁㅣㅅㅣㄱ	-13022
ㄷㅡㄹㅏㅁㅏ	-13023
▁ㄱㅗㅇㅇㅑㅇ	-13024
▁ㅍㅔㄹㅡㅅㅣ	-13025
▁ㅇㅟㅇㅏㄴㅂㅜ	-13026
▁ㅈㅜㅇㅇㅏㅇㅇㅡㄴㅎㅐㅇ	-13027
▁ㄴㅗㅇㅈㅣ	-13028
▁ㅁㅏㅇㅊㅣ	-13029
▁ㅇㅠㅈㅗㄱ	-13030
▁ㄱㅏㄴㅈㅣㄱ	-13031
▁ㅅㅓㄱㄱㅏㅁ	-13032
▁ㅅㅔㅂㅣㅇㅑ	-13033
▁ㅈㅣㅂㅊㅏㄱ	-13034
▁ㅅㅏㅅㅏㅇㄱㅏ	-13035
▁ㄴㅗㄱㅅㅐㄱㄷㅏㅇ	-13036
▁ㄱㅕㄱㅌㅜ	-13037
▁ㅈㅓㄹㅈㅔ	-13038
▁ㅍㅏㅍㅕㄴ	-13039
▁ㅎㅑㅇㄱㅣ	-13040
▁ㄷㅔㅇㅣㅂㅡ	-13041
▁ㅁㅣㄴㅂㅕㅇㄷㅐ	-13042
ㅡㅁㅗ	-13043
▁1892	-13044
▁ㄷㅐㅊㅏ	-13045
▁ㄹㅣㅂㅡ	-13046
▁ㅇㅏㅋㅔ	-13047
▁ㅌㅗㅇㅣ	-13048
▁ㄴㅓㅁㅜㄴㅏ	-13049
▁ㅅㅏㄴㅊㅓㅇ	-13050
▁ㄱㅏㄹㅏㅇㅏㄵ	-13051
▁Do	-13052
▁ㅂㅓㄹㅓ	-13053
▁ㅅㅏㅋㅓ	-13054
▁ㅈㅓㄴㅁㅣ	-13055
▁ㄷㅗㅇㅈㅗㅇ	-13056
▁ㅇㅛㅇㅍㅜㅁ	-13057
▁ㅇㅣㄴㅌㅓㄹ	-13058
▁ㅊㅓㄴㅊㅓㄴ	-13059
▁ㅅㅡㅌㅐㄴㄹㅣ	-13060
AI	-13061
▁Sw	-13062
▁ㅋㅔㅁ	-13063
▁ㄱㅕㄹㅜ	-13064
▁ㄴㅏㅇㅜ	-13065
▁ㅅㅡㄱㅏ	-13066
▁ㅈㅡㅇㅇㅗ	-13067
▁ㄷㅔㄹㅕㄱㅏ	-13068
▁ㅇㅜㄹㄹㅡㅇ	-13069
▁ㅎㅘㅇㅅㅏㄴ	-13070
▁ㄷㅐㅁㅕㅇㅅㅏ	-13071
▁ㄷㅔㅇㅣㄹㄹㅣ	-13072
▁ㅂㅏㅅㅣㄹㄹㅣ	-13073
▁ㄷㅔㅅㅡㅋㅡㅌㅗㅂ	-13074
▁ㅅㅜㄴㅇㅑㅇㅎㅏㅁ	-13075
▁ㅍㅔㅇ	-13076
▁ㄱㅗㅅㅡ	-13077
▁ㄱㅜㅊㅣ	-13078
▁ㅇㅣㅂㅓㅁ	-13079
▁ㅊㅔㄹㄹㅗ	-13080
▁ㅅㅜㄴㅏㄹㅏ	-13081
▁ㄱㅣㅇㅓㅂㄱㅏ	-13082
▁ㄱㅏㅁㅕㄴㄹㅏㅇㅣㄷㅓ	-13083
▁ㅍㅡㄹㅔㅇㅣㅁㅇㅝㅋㅡ	-13084
▁wh	-13085
▁ㄱㅗㄴㅗ	-13086
▁ㄴㅗㅍㅡ	-13087
▁ㅋㅏㅇㅘ	-13088
▁ㄹㅐㅁㅍㅡ	-13089
▁ㅁㅔㅌㅣㄹ	-13090
▁ㅇㅐㅇㅣㄴ	-13091
▁ㅌㅏㄹㅊㅟ	-13092
▁ㅎㅏㄴㅂㅓㄴ	-13093
▁ㄱㅣㄱㅘㄴㅈㅣ	-13094
▁ㄱㅏㅅㅗㄹㄹㅣㄴ	-13095
▁ㅇㅜㅇㅜㄹㅈㅡㅇ	-13096
▁ㅍㅔㄴㅅㅣㄹㅂㅔㅇㅣㄴㅣㅇㅏ	-13097
ㅌㅏㄴㅗ	-13098
ㄷㅡㄹㄹㅓ	-13099
▁ㄱㅕㄱㅎㅏ	-13100
▁ㄱㅖㄹㅑㅇ	-13101
▁ㅇㅝㄴㅎㅘㄹ	-13102
▁ㅊㅓㄴㅊㅓㄴㅎㅣ	-13103
ㅣㅋㅏ	-13104
ㄱㅏㅇㅘ	-13105
▁ㅋㅗㄹㅣ	-13106
ㄹㄹㅣㅅㅡ	-13107
▁ㅊㅏㅁㅁㅗㅊㅗㅇㅈㅏㅇ	-13108
ㅏㅎㅣㅁ	-13109
▁ㅎㅗㅋㅡ	-13110
▁ㅇㅑㅇㄷㅐ	-13111
▁ㅋㅔㄴㅌㅡ	-13112
▁ㅇㅝㄴㅅㅏㅇ	-13113
▁ㅂㅜㄹㅡㅈㅜㅇ	-13114
▁ㅅㅠㅌㅏㅇㅣㄴ	-13115
▁CG	-13116
▁ㄴㅠㅇ	-13117
▁ㅋㅏㅁㅏ	-13118
▁ㅁㅜㄷㅏㄴ	-13119
▁ㅇㅣㅅㅏㄴ	-13120
▁ㄴㅏㄱㅇㅑㅇ	-13121
▁ㄴㅗㅇㅊㅜㄱ	-13122
▁ㅅㅏㄴㅅㅡㅋ	-13123
▁ㅅㅚㄱㅗㄱㅣ	-13124
▁ㅈㅗㅅㅓㄴㅇㅘㅇ	-13125
▁ㅅㅏㄴㅅㅡㅋㅡㄹㅣㅌㅡ	-13126
▁ㅋㅠㅂㅡ	-13127
▁ㄱㅟㅅㅗㄱ	-13128
ㅁㅏㄹㅡㅋㅡ	-13129
▁ㅇㅣㅂㅎㅓㄴ	-13130
▁ㅈㅓㅁㄱㅓㅁ	-13131
▁ㄱㅏㅇㅎㅘㄷㅗ	-13132
▁ㅈㅓㄹㄷㅗㅅㅏ	-13133
▁IR	-13134
ㅅㅔㅇㅠ	-13135
▁ㅋㅏㅌㅔ	-13136
▁ㅎㅗㄹㅡ	-13137
▁ㅍㅔㄹㅌㅡ	-13138
▁ㄷㅏㄴㅈㅓㅇ	-13139
▁ㄹㅗㅇㅣㄷㅡ	-13140
▁ㅂㅏㄴㄷㅗㅇ	-13141
▁ㅅㅓㅂㅏㅇㅣ	-13142
▁ㄷㅗㅇㅁㅐㅇㄱㅜㄱ	-13143
AE	-13144
▁ㄷㅗㅊㅜㄹ	-13145
▁ㅅㅣㅈㅣㄱ	-13146
ㄷㅗㄱㄹㅣㅂ	-13147
ㅎㅗㅇㅅㅐㄱ	-13148
▁ㅎㅏㅂㅊㅓㄴ	-13149
▁ㄱㅡㄹㄹㅐㅅㅡ	-13150
▁ㅅㅣㅈㅣㄱㄱㅕㅇ	-13151
▁ㄱㅜㄱㅈㅓㅇㅇㅝㄴ	-13152
ㅅㅜㄹㅗ	-13153
▁ㄹㅣㅊㅏ	-13154
ㄹㅣㅇㅓㄴ	-13155
▁ㅇㅣㅁㄱㅖ	-13156
▁ㅈㅏㄹㅣㅂ	-13157
▁ㅊㅓㄱㄷㅗ	-13158
▁ㄱㅗㅇㅂㅓㅂ	-13159
▁ㅈㅓㅇㅈㅣㄴ	-13160
▁ㅅㅓㄱㅣㄱㅘㄴ	-13161
▁ㄷㅐㄱㅗㅇㄱㅜㄱ	-13162
▁ㅂㅜㄱㅈㅗㅅㅓㄴ	-13163
ㄴㅣㅇ	-13164
▁ㄹㅏㄹㅡ	-13165
▁ㅅㅏㄱㅟ	-13166
ㅇㅕㄱㅐㄱ	-13167
ㅈㅏㄷㅗㅇ	-13168
▁ㄱㅣㄴㅋㅣ	-13169
▁ㅂㅐㅇㅑㅇ	-13170
▁ㅅㅓㄴㅇㅑㅇ	-13171
ㅋㅠㅇㅓ	-13172
▁ㅈㅏㄱㅜㅇ	-13173
▁ㅋㅔㅇㅣㅋㅡ	-13174
▁ㅅㅗㅎㅏㄱㄱㅛ	-13175
▁ㄱㅏㄹㅡㅅㅣㅇㅏ	-13176
▁ㅅㅏㅇㄱㅘㄴㅇㅓㅄㅇㅣ	-13177
▁co	-13178
▁ㄱㅏㅂㅜ	-13179
▁ㅁㅏㅇㅛ	-13180
▁ㅇㅓㅇㅢ	-13181
ㅇㅓㄴㅓㅎ	-13182
▁ㄱㅣㅃㅡㅁ	-13183
▁ㄷㅐㅈㅓㅂ	-13184
▁ㅇㅕㄴㅎㅚ	-13185
▁ㅇㅣㅁㅏㄴ	-13186
ㄱㅘㅇㅅㅓㅇ	-13187
▁ㅈㅓㄴㅈㅜㅅㅣ	-13188
▁ㅎㅓㄷㅡㅅㅡㄴ	-13189
▁ㄴㅓㄹ	-13190
▁ㄲㅣㅇㅜ	-13191
▁ㄱㅕㄴㄱㅗ	-13192
▁ㄴㅣㅋㅔㄹ	-13193
▁ㅅㅗㄴㄴㅕ	-13194
▁ㄱㅣㄴㅁㅣㄹ	-13195
▁ㅍㅕㄴㅎㅑㅇ	-13196
▁ㄷㅏㅇㅣㅂㅣㅇ	-13197
▁ㄱㅕㅇㄱㅖㅅㅓㄴ	-13198
EST	-13199
ㅏㅁㅣㄴ	-13200
▁ㅂㅐㄱㅣ	-13201
▁ㅇㅠㅁㅜ	-13202
▁ㅇㅣㅌㅐ	-13203
▁ㅁㅐㄷㅏㄹ	-13204
▁ㄱㅏㄴㅎㅗㄱ	-13205
▁ㅇㅡㅁㅇㅜㄴ	-13206
▁ㅇㅐㄴㅅㅓㄴㅣ	-13207
▁ㅅㅏㅋ	-13208
▁ㅋㅏㅌㅡㄹ	-13209
▁ㅎㅏㄱㅡㅂ	-13210
▁ㄱㅏㅇㅎㅐㅇ	-13211
▁ㅁㅜㄹㄹㅕㅈㅜ	-13212
▁ㅇㅐㄷㅓㅁㅅㅡ	-13213
▁ㅈㅣㄹㅣㅎㅏㄱ	-13214
▁1876	-13215
ㅂㅏㅇㅣㄴ	-13216
▁ㄴㅗㄹㅏㅎ	-13217
▁ㅂㅗㄹㄹㅗㄴ	-13218
▁ㅂㅔㅇㅣㅅㅣㅅㅡㅌㅡ	-13219
ah	-13220
▁260	-13221
ㄷㅜㄹㅏ	-13222
▁ㅋㅗㅎㅗ	-13223
▁ㅅㅏㅂㅕㄴ	-13224
▁ㄱㅡㅁㅏㄴㅋㅡㅁ	-13225
▁ㄹㅗㅂㅣㄴㅅㅡㄴ	-13226
▁ㅂㅜㅂㅜㄴㄱㅜㄴ	-13227
ron	-13228
▁ㄹㅓㅂ	-13229
ㅇㅢㅅㅏ	-13230
▁1886	-13231
▁ㄱㅗㅈㅣㅂ	-13232
▁ㅅㅓㅇㄱㅣ	-13233
▁ㅈㅔㅊㅏㅇ	-13234
▁ㅈㅔㅊㅓㄹ	-13235
▁ㄱㅗㄹㅕㄷㅐ	-13236
aw	-13237
ㅈㅏㄹㅏ	-13238
▁ㄹㅗㅋㅡ	-13239
▁ㅅㅓㅇㅖ	-13240
ㄹㅕㄷㅡㄹ	-13241
▁ㅇㅐㄴㄷㅣ	-13242
▁ㅌㅡㄱㅅㅏ	-13243
▁ㅌㅡㄹㅔㄴ	-13244
▁ㅂㅗㄱㅅㅣㅇ	-13245
▁ㅇㅓㄹㄹㅜㄱ	-13246
▁ㅈㅓㄴㄹㅏㄱ	-13247
▁ㅊㅜㄱㅅㅓㅇ	-13248
▁ㄱㅜㄱㅈㅔㅅㅓㄴ	-13249
▁ㄷㅐㅈㅜ	-13250
▁ㄷㅗㄹㅏ	-13251
▁ㅇㅏㅊㅡ	-13252
▁ㅇㅟㄱㅖ	-13253
ㄱㅏㄹㄹㅣ	-13254
▁ㅈㅏㅈㅣㄴ	-13255
▁ㅎㅕㄴㄱㅘ	-13256
▁ㄱㅛㄱㅜㅈㅏㅇ	-13257
▁ㅁㅣㄹㄹㅕㄴㅏ	-13258
▁ㅅㅡㅌㅔㅇㅣㄴ	-13259
▁ㅂㅏㄱㅌㅔㄹㅣㅇㅏ	-13260
▁ㅇㅞㅅㅡㅌㅡㅁㅣㄴㅅㅡㅌㅓ	-13261
ㄷㅣㅅ	-13262
▁Gre	-13263
▁ㅇㅟㅍㅐ	-13264
ㅡㄹㅏㄷㅡ	-13265
▁ㅇㅝㄴㅇㅠ	-13266
▁ㅊㅏㅊㅡㅁ	-13267
▁ㅅㅏㅁㄱㅏㄱㅈㅜ	-13268
▁ㅍㅔㄹㅡㄴㅏㄴㄷㅗ	-13269
▁USB	-13270
ㅁㅣㅌㅡ	-13271
ㅅㅡㅇㅞ	-13272
ㅈㅣㄴㅗ	-13273
▁ㄱㅏㄴㅔ	-13274
▁ㅈㅣㄱㄱㅖ	-13275
ㅂㅜㄴㅇㅕㄹ	-13276
▁ㅅㅏㅇㅈㅓㅇ	-13277
▁ㅈㅓㄴㄱㅝㄴ	-13278
▁ㅊㅏㅅㅔㄷㅐ	-13279
▁ㅊㅓㄹㅈㅓㅎㅣ	-13280
ㅜㅈㅣ	-13281
▁270	-13282
▁ㅇㅕㄷㅗ	-13283
▁ㅇㅗㅎㅏ	-13284
▁ㅆㅏㅇㄷㅐ	-13285
▁ㅇㅣㄴㅈㅔ	-13286
▁ㅈㅓㄴㅅㅜ	-13287
▁ㅌㅗㅇㅍㅖ	-13288
▁ㅈㅏㄹㅏㄴㅏ	-13289
▁ㄷㅓㅇㅇㅓㄹㅣ	-13290
land	-13291
ㅡㄹㅏㅇ	-13292
▁ㅁㅗㄴㅣㅇ	-13293
▁ㅅㅐㅇㅁㅗ	-13294
▁ㅈㅗㄹㅗㅇ	-13295
▁ㅊㅣㅁㄹㅖ	-13296
▁ㅍㅓㄴㄷㅡ	-13297
▁ㅋㅡㄹㅔㅇㅣ	-13298
▁ㄱㅏㄴㅅㅏㅇㅣ	-13299
▁ㅎㅘㅇㅛㅇㅣㄹ	-13300
▁ㅊㅜㄱㄱㅜㅌㅣㅁ	-13301
▁1866	-13302
▁ㄱㅗㅇㅅㅣ	-13303
▁ㄱㅜㄴㄷㅔ	-13304
▁ㄸㅟㅇㅓㄴ	-13305
▁ㅂㅐㅇㅕㄱ	-13306
▁ㅇㅡㄹㅕㄴ	-13307
▁ㅊㅐㅅㅐㄱ	-13308
▁ㅅㅣㅁㅁㅜㄴ	-13309
▁ㅇㅏㄹㅍㅗㄴ	-13310
▁ㅋㅔㅇㅣㅌㅡ	-13311
▁ㅍㅕㅇㅇㅏㄴㄷㅗ	-13312
▁ㄱㅓㅁㅣ	-13313
▁ㄹㅏㄷㅡ	-13314
▁ㅍㅓㅅㅡ	-13315
ㄱㅛㅇㅣㄴ	-13316
▁ㄱㅗㄹㅕㅅㅏ	-13317
▁ㄱㅜㄴㄱㅘㄴ	-13318
▁ㅂㅗㄹㄹㅗㄴㅑ	-13319
▁ㅍㅡㄹㅣㄴㅅㅡㅌㅓㄴ	-13320
▁KB	-13321
ㅌㅣㅇㅑ	-13322
▁ㄲㅜㄹㅣ	-13323
ㄱㅡㄹㅜㅂ	-13324
▁ㄱㅡㄹㄹㅗ	-13325
▁ㅅㅏㄴㅎㅗ	-13326
▁ㅍㅣㅅㅏㄹ	-13327
ㅍㅏㅇㅣㅇㅓ	-13328
▁ㅂㅓㄴㄱㅏㄹ	-13329
▁ㅋㅗㅅㅗㅂㅗ	-13330
▁ㄷㅐㅈㅓㄴㅊㅏ	-13331
▁it	-13332
ㅗㅋㅣ	-13333
▁ㅍㅣㄷㅡ	-13334
▁ㅈㅜㅁㅓㄱ	-13335
▁ㅍㅏㅅㅡㅋ	-13336
▁ㅎㅡㅇㅂㅜㄴ	-13337
▁ㄹㅗㅅㅡㅋㅜㄹ	-13338
▁ㅂㅗㅅㅏㄹㅅㅏㅇ	-13339
▁ㅂㅡㄹㅣㅌㅣㅅㅣ	-13340
▁ㅇㅏㄹㄹㅔㄱㅅㅏㄴㄷㅡㄹㅗㅅㅡ	-13341
▁SV	-13342
ㄷㅔㄹㅏ	-13343
ㅌㅏㅅㅡ	-13344
▁ㅈㅗㄱㅐ	-13345
▁ㅍㅕㄴㅐ	-13346
▁ㅁㅜㄹㄱㅕㄹ	-13347
▁ㅍㅜㅇㅅㅡㅂ	-13348
▁ㅇㅗㄹㄹㅣㅂㅓ	-13349
▁ㅍㅔㄹㄹㅣㅍㅔ	-13350
▁ㄱㅕㅇㅇㅕㅇㅎㅏㄱ	-13351
▁ㅂㅔㄴㅔㄷㅣㄱㅌㅗ	-13352
▁ㄷㅗㅅ	-13353
ㄱㅓㅅㅡ	-13354
▁ㅎㅏㅂㅣ	-13355
▁ㄷㅜㄱㅏㄱ	-13356
▁ㅅㅜㄴㄹㅖ	-13357
▁ㅅㅜㄹㅕㄱ	-13358
▁ㅈㅏㅇㄹㅐ	-13359
▁ㅅㅡㅇㄷㅏㄴ	-13360
▁ㅍㅗㄹㅡㅌㅜ	-13361
▁ㅁㅏㄹㅡㅅㅔㅇㅠ	-13362
ㅡㄹㅜ	-13363
▁ㅆㅣㅅ	-13364
▁ㅋㅏㄴㅣ	-13365
ㄱㅓㄹㅇㅣ	-13366
▁ㄴㅣㅋㅗㄴ	-13367
▁ㅎㅐㅂㅕㅇ	-13368
▁ㅅㅣㄴㅈㅣㄴ	-13369
▁ㅊㅜㄹㅎㅕㄹ	-13370
▁ㄷㅗㅁㅣㄴㅣㅋㅏ	-13371
▁ㅅㅏㄷㅏㄴㅈㅏㅇ	-13372
19	-13373
ㅂㅗㄹㅣ	-13374
▁ㅎㅗㅇㅏ	-13375
▁ㅎㅗㅇㅅㅓㅇ	-13376
▁ㄷㅏㄴㄱㅓㄹㅣ	-13377
▁ㅉㅗㅊㅇㅏㄴㅐ	-13378
▁ㄱㅜㅅㅡㅌㅏㅍㅡ	-13379
▁ㄱㅘㄴㅎㅕㄴㅇㅏㄱ	-13380
ble	-13381
ㅋㅗㅌㅏ	-13382
ㅌㅗㄴㅗ	-13383
ㅏㄹㄷㅡ	-13384
▁ㅁㅣㅇㅏ	-13385
▁ㅅㅗㄷㅗㅇ	-13386
▁ㅎㅕㅇㅇㅛㅇ	-13387
▁ㄴㅗㄴㄹㅣㅎㅏㄱ	-13388
▁ㅌㅗㅇㅍㅖㅎㅏㅂ	-13389
▁ㅎㅘㄹㄷㅗㅇㄱㅏ	-13390
▁ㅈㅐㄷㅏㄴㅂㅓㅂㅇㅣㄴ	-13391
▁Wii	-13392
▁ㄱㅏㅍ	-13393
▁ㄱㅔㅅ	-13394
ㅅㅡㅇㅘ	-13395
▁ㅅㅓㅅㅡ	-13396
▁ㄴㅏㅁㅜㅅ	-13397
▁ㅊㅜㄹㅈㅏ	-13398
▁ㄷㅏㅋㅏㄹㅏ	-13399
▁ㄹㅔㅇㅣㄷㅣ	-13400
▁ㅂㅏㄹㅁㅗㄱ	-13401
▁ㅅㅜㅊㅏㄹㅖ	-13402
▁ㄱㅔㅅㅣㅍㅏㄴ	-13403
▁ㅅㅓㅇㅁㅐㅁㅐ	-13404
▁ㅋㅏㅅ	-13405
▁1887	-13406
ㄱㅜㅇㅕㄱ	-13407
▁ㄱㅜㄷㅎㅣ	-13408
▁ㅇㅔㅂㅏㄴ	-13409
▁ㅅㅐㅁㅠㅇㅓㄹ	-13410
▁Up	-13411
ㄴㅗㅁ	-13412
▁ㄱㅗㅌㅡ	-13413
▁ㅍㅏㅋㅓ	-13414
ㅍㅔㄱㅌㅡ	-13415
▁ㅂㅜㄹㅅㅏ	-13416
▁ㄱㅏㅇㅅㅓㄱㅜ	-13417
▁ㅁㅏㅇㅡㄹㅂㅓㅅㅡ	-13418
▁ㅁㅓㄹㅣㅋㅏㄹㅏㄱ	-13419
ave	-13420
▁ML	-13421
ㅁㅜㄹㅡ	-13422
▁1864	-13423
▁Dream	-13424
▁ㄴㅏㄹㅡㅁ	-13425
▁ㄷㅗㅅㅓㅇ	-13426
▁ㄱㅗㅇㅂㅏㅇㅈㅓㄴ	-13427
ition	-13428
▁ㅁㅔㅋㅏ	-13429
ㄷㅜㄹㄱㅣ	-13430
▁ㄱㅜㅁㅜㄴ	-13431
▁ㅂㅔㅌㅔㄹ	-13432
▁ㅅㅔㅂㅜㄴ	-13433
▁ㅊㅜㅈㅗㄴ	-13434
▁ㅎㅗㄹㄷㅣㅇ	-13435
▁ㄱㅡㅁㄴㅏㄹㅏ	-13436
▁ㅂㅐㄱㅇㅏㄱㄱㅣ	-13437
ㄸㅣ	-13438
▁SH	-13439
ㅣㄱㅗㅇ	-13440
▁ㄱㅛㅂㅜ	-13441
▁ㄱㅜㄱㅡㅁ	-13442
▁ㄷㅗㅇㅑㄱ	-13443
▁ㅎㅘㅇㅎㅐㄷㅗ	-13444
▁ㅂㅔㅅ	-13445
▁Life	-13446
▁ㄲㅓㄹㅣ	-13447
▁ㄹㅔㅌㅡ	-13448
▁ㅇㅣㄹㄹ	-13449
▁ㅌㅚㅇㅟ	-13450
▁ㅈㅣㄴㅏㄴ	-13451
▁ㅁㅏㄱㅍㅏㄴ	-13452
▁ㅇㅠㅈㅓㄴㅎㅏㄱ	-13453
▁if	-13454
▁ㄱㅐㄱㅡㅁ	-13455
▁ㄹㅣㅇㅗㄴ	-13456
▁ㅇㅗㅇㅣㄹ	-13457
▁ㄴㅣㄱㅅㅡㄴ	-13458
▁ㅂㅗㅇㅎㅘㅇ	-13459
▁ㅇㅏㄱㄱㅗㄱ	-13460
▁ㅎㅜㅇㅝㄴㅈㅏ	-13461
▁ㅎㅟㅁㅏㄹㄹㅣ	-13462
▁ㅎㅐㅇㅈㅓㅇㄷㅗㅇ	-13463
ult	-13464
▁RT	-13465
ㅣㄹㄷㅡ	-13466
▁ㄱㅘㅅㅣ	-13467
ㅇㅕㄴㅎㅣ	-13468
▁ㅅㅏㄴㅅㅜ	-13469
▁ㅈㅏㄹㄹㅣ	-13470
▁ㅈㅜㅅㅣㅁ	-13471
▁ㅅㅏㅆㅡㅁㅏ	-13472
▁ㄷㅗㅇㅁㅐㅇㄱㅜㄴ	-13473
▁ㄱㅜㄻ	-13474
▁ㅂㅜㄹㅠ	-13475
▁ㅂㅜㅇㅑㅇ	-13476
▁ㅈㅐㅇㅏㅇ	-13477
▁ㅇㅣㄹㅈㅣㄴ	-13478
▁ㅍㅏㅇㅣㅍㅡ	-13479
▁ㅋㅓㄴㅌㅔㄴㅊㅡ	-13480
▁ㅇㅑㄹ	-13481
▁1861	-13482
▁Tour	-13483
▁ㅇㅠㅌㅏ	-13484
ㅅㅡㅇㅞㄹ	-13485
▁ㄱㅓㄹㅜㄱ	-13486
▁ㄱㅕㄱㄹㅕ	-13487
▁ㅅㅔㅇㅣㅂ	-13488
▁ㅇㅣㄴㅗㅇ	-13489
▁ㄷㅗㅇㅊㅏㅇ	-13490
▁ㅈㅘㅍㅛㄱㅖ	-13491
▁ㅇㅛㄱㅡㅁㅅㅗ	-13492
▁ㅁㅣㄴㅇㅕㅇㅎㅘ	-13493
▁ㅅㅐㅇㄹㅣㅎㅏㄱ	-13494
▁ㄷㅗㄱㄹㅣㅂㄱㅜㄴ	-13495
▁ㅂㅗㄹㅌㅣㅁㅗㅇㅓ	-13496
▁ㄴㅏㅁㅂㅔㅌㅡㄴㅏㅁ	-13497
▁ㅋㅓㅁㅍㅏㅇㅣㄹㄹㅓ	-13498
▁ㅇㅣㄴㅍㅡㄹㄹㅔㅇㅣㅅㅕㄴ	-13499
DA	-13500
▁ㅂㅣㄹㅗ	-13501
ㄱㅗㅇㅈㅜ	-13502
▁ㄴㅐㄹㅣㅁ	-13503
▁ㅂㅓㄹㄹㅔ	-13504
▁ㅅㅗㅇㅛㅇ	-13505
▁ㄱㅣㅅㅌㅓㄹ	-13506
▁ㅈㅏㅇㅈㅔㅅㅡ	-13507
▁ㅇㅜㅇㅔㅅㅡㄱㅣ	-13508
▁TC	-13509
ㅅㅏㅌㅐ	-13510
ㅌㅏㄴㅠ	-13511
▁ㄱㅛㅈㅣ	-13512
▁ㅇㅝㅋㅣㅇ	-13513
▁ㅎㅏㅇㅑㄴ	-13514
▁ㅇㅘㄴㄱㅕㄹ	-13515
▁ㅍㅕㅇㅌㅏㄴ	-13516
▁en	-13517
▁ㄱㅜㄹㅖ	-13518
▁ㄴㅓㅅㅡ	-13519
▁ㅈㅐㅊㅏ	-13520
▁ㄱㅏㄹㅇㅏ	-13521
▁ㄷㅗㅁㅣㄴ	-13522
▁ㄷㅐㅅㄱㅡㄹ	-13523
▁ㅈㅜㄴㅣㅊㅣ	-13524
▁ㄱㅡㄴㄱㅓㅈㅣ	-13525
▁ㄷㅔㅇㅣㅂㅣㅅ	-13526
▁ㅊㅏㅁㅇㅢㅇㅝㄴ	-13527
▁ㄷㅗㄹㅏㅇㅔㅁㅗㅇ	-13528
▁ㅅㅡㅌㅡㄹㅣㅁㅣㅇ	-13529
ㅁㅏㅅㅏ	-13530
▁ㄷㅗㅎㅏ	-13531
▁ㅂㅣㅇㅜ	-13532
▁ㅇㅝㅈㅡ	-13533
▁ㄷㅏㅅㅣㄱ	-13534
▁ㅈㅐㅂㅏㄹ	-13535
ㅂㅔㄹㅣㅇㅏ	-13536
▁ㄱㅕㅇㅈㅗㅇ	-13537
▁ㄷㅐㄱㅛㄱㅜ	-13538
▁ㅂㅜㄹㅂㅜㄴ	-13539
▁ㅇㅛㅇㅇㅢㅈㅏ	-13540
▁ㅅㅏㄱㅏㄴㅇㅝㄴ	-13541
ㄹㅏㅌㅡ	-13542
ㅌㅗㅍㅡ	-13543
ㅗㄴㅣㅇ	-13544
▁ㅋㅏㅇㅑ	-13545
▁ㅇㅣㅎㅗㅇ	-13546
▁ㅈㅏㅇㅈㅓㄴ	-13547
ㅔㄱㅡ	-13548
▁ㅁㅜㅁ	-13549
▁ㅇㅡㅅㅣ	-13550
▁ㄱㅙㅂㅜㄹ	-13551
▁ㅁㅕㄴㅁㅗ	-13552
▁ㅁㅗㄱㅜㄱ	-13553
▁ㅂㅗㄴㅊㅔ	-13554
ㅂㅏㄷㅗㄹㅡ	-13555
▁ㄷㅏㅁㅕㄴㅅㅓ	-13556
▁ㅂㅗㅈㅘㄱㅘㄴ	-13557
▁ㅅㅐㅇㅅㅓㅇㅁㅜㄹ	-13558
ㄱㅕㅁ	-13559
ㅂㅡㄹㅗ	-13560
▁ㅅㅏㅋㅣ	-13561
ㄲㅜㅁㅊㅣ	-13562
ㄱㅗㅇㅇㅓㅂ	-13563
▁ㄱㅘㅇㅅㅓㄴ	-13564
▁ㅂㅏㄹㅌㅗㅂ	-13565
▁ㅅㅏㅁㅊㅓㄱ	-13566
▁ㅇㅟㅅㅡㅋㅗㄴ	-13567
▁ㅇㅡㄹㅕㄴㅡㄴ	-13568
▁ㅎㅜㅅㅔㅇㅣㄴ	-13569
▁ㅇㅟㅅㅡㅋㅗㄴㅅㅣㄴ	-13570
▁ㄷㅗㅈㅔ	-13571
▁ㅋㅝㅋㅡ	-13572
ㄷㅣㅅㅡㄴ	-13573
▁ㅈㅏㅍㅏㄴ	-13574
▁ㅅㅔㄴㅔㄱㅏㄹ	-13575
▁ㅅㅣㄴㅅㅔㄱㅖ	-13576
▁ㅍㅡㄹㅏㅇㅋㅗ	-13577
▁ㅁㅏㄹㅡㅋㅜㅅㅡ	-13578
▁ㅂㅡㄹㅡㅌㅏㄴㅠ	-13579
ㅔㄴㅔ	-13580
▁ㄹㅔㅈㅡ	-13581
▁ㅅㅡㄹㅜ	-13582
▁ㅅㅡㅌㅜ	-13583
▁ㅅㅡㅇㅎㅏ	-13584
▁ㅍㅗㅌㅏㄴ	-13585
ational	-13586
▁ㅅㅏㄴㅁㅜㄹ	-13587
▁ㅍㅏㄹㅈㅏㄱ	-13588
▁ㄱㅗㅇㅇㅕㄴㅈㅏㅇ	-13589
▁AG	-13590
▁ㄲㅗㅈ	-13591
ㅂㅜㄹㅣ	-13592
▁ㅁㅣㅁㅣ	-13593
ㅎㅘㄱㅕㅇ	-13594
▁ㅈㅣㅁㅕㄴ	-13595
▁ㅋㅗㄴㅏㄴ	-13596
▁ㅅㅗㅇㅎㅘㄴ	-13597
▁ㅇㅘㅇㄱㅘㄴ	-13598
▁ㅈㅗㄴㅏㄹㅏ	-13599
▁ㄹㅓㅅㅣㅇㅏㄱㅜㄴ	-13600
ㅍㅓㄴ	-13601
ject	-13602
ㅁㅕㄴㅊㅔ	-13603
▁ㄱㅘㄴㄴㅐ	-13604
▁ㅂㅏㄹㅇㅢ	-13605
▁ㅈㅡㅇㅅㅔ	-13606
▁ㅍㅔㄹㄹㅗ	-13607
▁ㅅㅏㄴㅏㅇㅣ	-13608
ㅇㅔㄹ	-13609
▁ㅁㅜㄴㅔ	-13610
▁ㅇㅏㅌㅗ	-13611
▁ㅇㅠㅍㅗ	-13612
▁ㅈㅣㄴㅎㅐ	-13613
▁ㅌㅗㅁㅗㄱ	-13614
▁ㅁㅗㅁㄷㅗㄹ	-13615
▁ㅅㅏㅈㅓㄹㄷㅏㄴ	-13616
orm	-13617
▁1881	-13618
▁ㅊㅏㅅㅜ	-13619
▁ㅌㅡㄱㄱㅣ	-13620
▁ㅁㅣㄴㅁㅜㄹ	-13621
▁ㅅㅡㅇㅇㅛㅇ	-13622
▁ㅎㅐㅇㅂㅏㅇ	-13623
EP	-13624
▁ㅍㅗㅎㅘ	-13625
▁Music	-13626
▁ㅂㅗㄴㅓㅅㅡ	-13627
▁ㅇㅜㅅㅇㅡㅁ	-13628
▁ㅋㅏㅇㅜㄴㅌㅡ	-13629
▁ㅈㅏㅇㅇㅐㅁㅜㄹ	-13630
▁te	-13631
ㄴㅏㅇ	-13632
ㅣㅅㅣ	-13633
ㄸㅟㄱㅣ	-13634
ㄹㅏㄷㅗ	-13635
ㅈㅡㅁㅏ	-13636
▁ㅇㅏㅇㅠ	-13637
▁ㅅㅓㅍㅗㅌㅓ	-13638
▁ㅇㅑㄱㅈㅓㅁ	-13639
ㅍㅕㅇㄹㅣ	-13640
▁ㅁㅏㅇㅎㅏ	-13641
▁ㅁㅗㄴㅏㅋㅗ	-13642
▁ㅂㅏㅇㄱㅗㅇ	-13643
▁ㅅㅡㅌㅔㅇㅣ	-13644
▁ㅇㅣㄱㅅㅏㄴ	-13645
▁ㅎㅗㅁㄱㅕㅇㄱㅣ	-13646
ㅝㅅㅡ	-13647
▁Open	-13648
▁ㅇㅔㅂㅏ	-13649
▁ㅂㅜㅇㅇㅓ	-13650
▁ㅂㅔㅇㅣㅂㅣ	-13651
▁ㅇㅠㄴㅣㅂㅓㅅㅡ	-13652
▁ㅎㅐㄱㅕㄹㅊㅐㄱ	-13653
ㅗㄹㅔ	-13654
ㅇㅠㅅㅏ	-13655
▁ㅅㅜㅇㅣ	-13656
▁ㅇㅟㅅㅣ	-13657
▁ㄹㅣㅁㅍㅡ	-13658
▁ㅇㅏㅋㅏㄴ	-13659
▁ㅋㅐㄹㅗㄹ	-13660
▁ㅇㅑㄱㅜㄷㅏㄴ	-13661
▁BL	-13662
▁ㅍㅗㅅ	-13663
▁ㄱㅏㄷㅏㄱ	-13664
ㅊㅏㄹㅡㅌㅡ	-13665
▁ㅇㅕㄱㅅㅏㅎㅏㄱ	-13666
▁ㅍㅡㄹㅣㅁㅣㅇㅓㅁ	-13667
ㅛㄴ	-13668
▁Ed	-13669
▁ㅅㅔㅁㅣ	-13670
▁ㅅㅣㅂㅣ	-13671
▁ㄱㅐㄱㅇㅝㄴ	-13672
▁ㅂㅐㄱㅇㅓㅂ	-13673
ㅏㅇㅣㅇㅓㅌㅣ	-13674
▁ㅇㅕㅎㅏㄱㅅㅐㅇ	-13675
▁ㅂㅓㄹㅏㅇㅣㅇㅓㅌㅣ	-13676
▁an	-13677
ㄴㅡㅈ	-13678
ㅐㅅㅣ	-13679
▁1850	-13680
▁ㄷㅔㄷㅡ	-13681
▁ㅇㅕㅌㅏ	-13682
▁ㅁㅜㄹㄹㅠ	-13683
▁ㅂㅐㅊㅓㄱ	-13684
▁ㅈㅓㄴㄹㅣ	-13685
ㅍㅡㄹㄹㅣㄴ	-13686
▁ㅂㅏㄴㅈㅜㄱ	-13687
▁ㅅㅡㅂㄷㅡㄱ	-13688
▁ㅇㅣㄱㅁㅕㅇ	-13689
▁ㅎㅘㄴㄱㅘㄴ	-13690
ION	-13691
ton	-13692
▁XP	-13693
ㄷㅣㅇㅓㄹ	-13694
▁ㄷㅗㅅㅏㄴ	-13695
▁ㅅㅡㄹㅍㅡ	-13696
▁ㅊㅏㄱㅎㅏ	-13697
▁ㄷㅏㅇㅈㅣㄴ	-13698
▁ㅅㅡㄹㄹㅐㅁ	-13699
▁ㅁㅗㅁㅔㄴㅌㅡ	-13700
ㅁㅗㅁ	-13701
ㅅㅔㄴㅅㅡ	-13702
ㅗㄴㅗㅅㅡ	-13703
▁ㅂㅗㄱㅇㅟ	-13704
▁ㅈㅗㅎㅕㄴ	-13705
▁ㅋㅔㄴㅌㅓ	-13706
ㅣㄹㄹㅣㅌㅣ	-13707
▁ㅍㅏㄴㄱㅘㄴ	-13708
▁ㅁㅣㅋㅏㅇㅔㄹ	-13709
▁ㅁㅣㄴㅔㅅㅗㅌㅏ	-13710
ㅓㄱㅣ	-13711
▁ㄱㅛㄷㅗㅇ	-13712
▁ㄱㅡㄴㄹㅐ	-13713
▁ㅂㅏㄱㅈㅏ	-13714
▁ㅂㅡㄹㅜㄱ	-13715
▁ㅇㅠㄴㅡㅇ	-13716
▁ㅇㅑㅇㄱㅜㅇ	-13717
▁ㅍㅕㄴㅇㅏㄴ	-13718
▁ㅁㅜㅈㅏㄱㅇㅟ	-13719
▁ㅅㅔㄱㅜㄴㄷㅏ	-13720
▁ㅇㅏㅂㅣㄷㅏㄹ	-13721
▁ㅁㅗㅊㅏㄹㅡㅌㅡ	-13722
▁ㄷㅐㅈㅜㅇㄱㅛㅌㅗㅇ	-13723
ㅝㅈㅡ	-13724
ㅉㅏㄱㅣ	-13725
ㅎㅗㅁㅏ	-13726
▁ㄱㅖㅂㅗ	-13727
▁ㄴㅐㅍㅗ	-13728
▁ㅂㅏㅂㅣ	-13729
▁ㅅㅏㄴㅐ	-13730
▁ㅇㅛㄱㅚ	-13731
▁ㄸㅏㄹㄹㅣ	-13732
▁ㅁㅐㄱㅇㅏ	-13733
▁ㅂㅜㅈㅓㄴ	-13734
▁ㅂㅏㄹㅗㅋㅡ	-13735
▁ㅈㅏㅁㅅㅣㄹ	-13736
ㅏㅁㅔ	-13737
ㅋㅡㄹㅣ	-13738
▁ㅅㅠㅌㅔ	-13739
▁ㅇㅐㅊㅗ	-13740
▁ㄷㅐㄱㅡㅁ	-13741
▁ㄷㅗㅇㅊㅏ	-13742
▁ㄹㅓㄴㅣㅇ	-13743
▁ㅅㅡㅁㅗㄹ	-13744
▁ㄴㅣㅅㅅㅏㄴ	-13745
▁ㅅㅣㄴㅅㅣㄴ	-13746
▁ㅌㅗㅌㅡㄴㅓㅁ	-13747
▁ㅎㅘㅅㅓㅇㅅㅣ	-13748
ㅣㅁㅏ	-13749
ㅣㅁㅐ	-13750
ㄷㅏㅂㅗ	-13751
ㅚㅅㅓㄴ	-13752
▁HTML	-13753
ㄹㅣㅁㅅㅏ	-13754
ㅌㅏㅇㅣㅂ	-13755
▁ㄱㅣㅁㅣㄹ	-13756
▁ㅈㅐㄱㅕㄹ	-13757
▁ㅈㅓㅇㅇㅖ	-13758
▁ㅎㅓㅁㅗㄱ	-13759
ㄱㅜㄱㅈㅓㄱ	-13760
▁ㄴㅏㅁㅅㅗㅇ	-13761
▁ㅅㅏㄷㅡㄹㅇㅣ	-13762
▁ㅎㅏㅇㅑㄴㅅㅐㄱ	-13763
ru	-13764
▁ㄹㅏㅈㅏ	-13765
▁ㅅㅜㄴㅎㅏㅇ	-13766
▁ㅅㅡㅇㅅㅏㅇ	-13767
▁ㅇㅏㄴㅏㅌㅗㄹ	-13768
▁ㅈㅐㅍㅏㄴㄱㅘㄴ	-13769
▁ㅇㅡㅁㅇㅏㄱㅇㅝㄴ	-13770
▁ㅈㅏㅇㄴㅏㄴㄱㅏㅁ	-13771
▁"-	-13772
ㅂㅣㅁ	-13773
ㄱㅓㄱㅜ	-13774
▁ㄹㅜㄴㅏ	-13775
▁ㅈㅚㅅㅜ	-13776
▁ㅍㅛㅎㅏ	-13777
▁ㅇㅛㅇㅅㅏ	-13778
▁ㄱㅗㅂㅅㅔㅁ	-13779
▁ㅅㅣㄹㄱㅏㄱ	-13780
▁ㄴㅔㅌㅣㅈㅡㄴ	-13781
▁ㅇㅣㅁㅔㅇㅣㄹ	-13782
ㅓㅁㅏ	-13783
ㄷㅏㅇㅗ	-13784
ㄹㄹㅓㅅㅡ	-13785
▁ㅍㅏㅈㅣㄱ	-13786
ㄷㅓㄱㅇㅘㅇ	-13787
▁ㅂㅏㄹㅅㅏㄴ	-13788
▁ㅂㅡㄹㅐㄷㅡ	-13789
▁ㅇㅐㅅㅡㄹㄹ	-13790
▁ㄹㅗㄷㅡㄹㅣㄱ	-13791
▁ㅎㅔㄹㅏㅋㅡㄹㄹㅔㅅㅡ	-13792
ㄷㅓㅈㅣ	-13793
ㄷㅏㄴㅇㅟ	-13794
▁ㄱㅜㅎㅚㄱ	-13795
▁ㄴㅏㅇㅣㄹ	-13796
▁ㅁㅗㄹㅏㄴ	-13797
▁ㅂㅏㄴㅈㅜ	-13798
▁ㅇㅓㅊㅗㄴ	-13799
▁ㄹㅏㅊㅣㅇㅗ	-13800
▁ㅇㅠㄹㅏㅅㅣㅇㅏ	-13801
▁ㅊㅓㅇㄴㅕㄴㅎㅚ	-13802
▁ㅋㅏㄹㅡㅌㅏㄱㅗ	-13803
▁ㅇㅏㅇㅣㄷㅣㅇㅓㄹ	-13804
▁ㅇㅣㄹㄹㅔㄱㅌㅡㄹㅗㄴ	-13805
ics	-13806
ode	-13807
▁ret	-13808
▁ㅁㅜㅅㅜ	-13809
▁ㅇㅖㅇㅢ	-13810
▁ㅇㅠㄷㅏ	-13811
▁ㅈㅣㅋㅜ	-13812
▁ㅇㅣㄹㅕㄱ	-13813
▁ㅎㅓㅂㅡㄹ	-13814
▁ㄱㅘㄴㅇㅛㅇ	-13815
▁ㅁㅏㄹㅡㅅㅔㄹ	-13816
▁ㅁㅣㄹㄱㅏㄹㅜ	-13817
▁ㅍㅣㄴㅣㄱㅅㅡ	-13818
▁ㅎㅘㅎㅏㄱㅈㅏ	-13819
▁ㅇㅣㅅㅣㅋㅏㅇㅘ	-13820
▁ㅂㅜㄹㅂㅜㄴㅁㅕㅇ	-13821
▁iOS	-13822
ㅇㅜㅎㅚ	-13823
▁1872	-13824
▁ㄷㅗㅂㅗㅇ	-13825
▁ㅅㅣㅇㅝㄴ	-13826
▁ㅍㅏㅇㅕㄹ	-13827
ㅌㅏㄴㅣㅇㅏ	-13828
▁ㄱㅕㅇㄱㅓㄴ	-13829
▁ㄱㅕㅇㄹㅑㅇ	-13830
▁ㅇㅑㅇㅎㅕㄴ	-13831
▁ㅇㅚㅁㅜㅂㅜ	-13832
▁ㅈㅜㅇㄹㅏㅇ	-13833
▁ㅋㅏㅁㅍㅏㄴ	-13834
▁ㅌㅏㄴㅅㅏㄴ	-13835
▁ㄹㅗㅁㅂㅏㄹㅡ	-13836
▁ㅇㅏㅂㄹㅗㄱㄱㅏㅇ	-13837
▁ㄷㅏㅋㅏㄹㅏㅈㅡㅋㅏ	-13838
ㄸㅓㄹ	-13839
▁750	-13840
▁ㅅㅑㅁ	-13841
ㄷㅔㅈㅏㄴ	-13842
▁ㅂㅐㅎㅑㅇ	-13843
▁ㅇㅓㄴㄷㅓ	-13844
▁ㅌㅡㄹㅏㄴ	-13845
▁ㄱㅗㅇㅍㅏㄴ	-13846
▁ㅎㅟㄷㅜㄹㅡ	-13847
▁ㅎㅡㄱㅂㅐㄱ	-13848
▁ㅇㅗㅋㅡㄹㄹㅏ	-13849
▁ㅇㅠㄴㅣㅇㅓㄴ	-13850
▁ㅇㅗㅋㅡㄹㄹㅏㅎㅗㅁㅏ	-13851
▁Don	-13852
▁ㅇㅔㄹㅗ	-13853
ㄷㅗㅇㅈㅏ	-13854
▁ㄱㅡㅁㅎㅗ	-13855
▁ㄹㅜㅅㅡㅂ	-13856
▁ㅇㅗㄴㄷㅐ	-13857
▁ㅈㅗㄱㅕㅇ	-13858
ㄷㅡㅇㅞㅇㅣ	-13859
▁ㅂㅏㄱㅅㅡㅇ	-13860
▁ㅈㅓㅇㅎㅘㅇ	-13861
▁ㄱㅘㄴㄹㅕㄴㅈㅏ	-13862
▁ㄹㅗㅁㅐㄴㅌㅣㄱ	-13863
▁ㅂㅏㄱㅇㅕㅇㅎㅛ	-13864
▁ㄹㅜㅅㅡㅂㅔㄹㅌㅡ	-13865
▁ㄴㄷㅔ	-13866
▁1830	-13867
▁ㄱㅏㅇㅅㅔ	-13868
▁ㄱㅕㅇㄷㅗ	-13869
▁ㅂㅜㄹㄹㅓ	-13870
▁ㅅㅔㄱㅏㄴ	-13871
ㅊㅡㅂㅓㄱㅡ	-13872
▁ㅎㅗㄴㅎㅕㄹ	-13873
ㅌㅐㅍㅕㅇㅇㅑㅇ	-13874
▁ㅇㅗㅋㅏㅇㅑㅁㅏ	-13875
▁ㅌㅏㅁㅎㅓㅁㄱㅏ	-13876
ier	-13877
▁1863	-13878
▁ㄱㅏㄷㅗㄱ	-13879
▁ㅍㅐㄱㅝㄴ	-13880
▁ㅎㅗㅁㅈㅡ	-13881
▁ㄷㅏㅇㅎㅘㅇ	-13882
▁ㄴㅗㅇㅇㅓㅊㅗㄴ	-13883
▁ㅅㅔㄹㅡㄱㅔㅇㅣ	-13884
▁ㅂㅏㄷㅊㅣㅁㄷㅗㄹ	-13885
▁ㄱㅗㅇㄱㅜㄴㄱㅣㅈㅣ	-13886
QL	-13887
▁ㅎㅔㅁ	-13888
▁ㄹㅔㅇㅏ	-13889
▁ㄱㅗㄱㅁㅕㄴ	-13890
▁ㅂㅕㄴㅈㅗㅇ	-13891
▁ㅈㅓㅇㅈㅜㅇ	-13892
▁ㅊㅓㄹㅈㅗㅇ	-13893
ㅌㅡㅁㅜㄴㅌㅡ	-13894
ㅣㄹㄹㅣㅇㅏㄴ	-13895
▁ㅊㅗㄹㅗㄱㅅㅐㄱ	-13896
▁ㅅㅔㄱㅖㅇㅠㅅㅏㄴ	-13897
▁ㄷㅗㄹㅡㅌㅡㅁㅜㄴㅌㅡ	-13898
TE	-13899
ㄲㅔㄲㅣ	-13900
▁ㄹㅏㅅㅣ	-13901
▁ㅎㅔㅇㅓ	-13902
▁ㄱㅡㅂㅎㅣ	-13903
▁ㅅㅡㅇㅟㅇ	-13904
▁ㅊㅣㅁㄷㅐ	-13905
▁ㅍㅡㄹㅣㄹ	-13906
▁ㅂㅕㄹㅈㅏㅇ	-13907
▁ㅍㅣㄱㅅㅔㄹ	-13908
▁ㅎㅐㅅㅂㅣㅊ	-13909
▁ㅅㅜㅅㅜㄲㅔㄲㅣ	-13910
▁1865	-13911
▁ㄱㅣㅁㅎㅢ	-13912
▁ㅁㅐㅈㅣㄴ	-13913
▁ㅎㅚㄱㅗㄹ	-13914
▁ㄷㅏㄴㄱㅜㄱ	-13915
▁ㅁㅗㄱㅇㅛㄱ	-13916
▁ㅂㅔㅇㅣㅋㅓ	-13917
▁ㅂㅗㄱㅇㅕㄱ	-13918
▁ㅇㅏㅂㅡㄹㅏ	-13919
▁ㅇㅑㅁㅏㄴㅏ	-13920
▁ㄱㅏㅁㄹㅣㄱㅛ	-13921
▁ㄷㅗㄷㅂㅗㅇㅣ	-13922
▁ㅂㅏㄴㄷㅐㅍㅏ	-13923
▁ㅅㅣㄱㅏㄴㄷㅐ	-13924
▁ㅇㅏㅇㅣㅋㅗㄴ	-13925
▁DR	-13926
▁ㅅㅜㅎ	-13927
▁ㅅㅜㄴㅕ	-13928
ㄷㅐㅇㅝㄴ	-13929
ㄷㅗㅇㅣㄴ	-13930
ㅈㅡㄹㄹㅣ	-13931
▁ㄱㅏㄱㅗㄱ	-13932
▁ㅇㅣㄱㅏㅇ	-13933
▁ㅊㅓㄴㅈㅣ	-13934
▁ㅊㅗㅅㅂㅜㄹ	-13935
▁ㅌㅏㅁㅈㅓㅇ	-13936
▁ㅍㅗㄹㄹㅣㄴ	-13937
▁ㄱㅕㄱㅌㅜㄱㅣ	-13938
▁ㅈㅏㅇㅠㅎㅕㅇ	-13939
▁ㅈㅗㅅㅓㄴㅅㅗ	-13940
▁ㅂㅜㄹㄹㅓㄷㅡㄹㅇㅣ	-13941
▁ㅉㅓㄹ	-13942
▁ㅇㅏㅇㅘ	-13943
▁Night	-13944
▁ㅇㅏㅍㅕㄴ	-13945
▁ㅇㅣㅂㅕㄹ	-13946
▁ㄲㅏㅁㅏㄱㅟ	-13947
▁ㅊㅓㄹㄱㅏㅇ	-13948
▁ㅇㅜㄱㅏㄴㄷㅏ	-13949
▁ㅋㅔㄴㅌㅓㅋㅣ	-13950
▁ㅌㅡㄹㅔㅇㅣㄴㅣㅇ	-13951
▁Sm	-13952
▁ㅎㅡㄹㅣ	-13953
ㅋㅗㅇㅣㄴ	-13954
▁ㅇㅗㄹㄹㅔ	-13955
▁ㅍㅕㄴㅎㅏ	-13956
ㅎㅜㄴㅈㅏㅇ	-13957
▁ㄱㅏㅎㅐㅈㅏ	-13958
▁ㅂㅗㄱㅈㅣㄱ	-13959
▁ㅎㅗㅋㅡㅅㅡ	-13960
▁ㅂㅏㄹㄱㅣㅇㅣㄴ	-13961
▁ㄹㅣㅇㅜㄷㅔㅈㅏㄴ	-13962
▁ㅋㅡㄹㄹㅔㅁㅔㄴㅅㅡ	-13963
▁ㄹㅣㅇㅜㄷㅔㅈㅏㄴㅔㅇㅣㄹㅜ	-13964
UC	-13965
▁ㅍㅣㅊㅣ	-13966
▁ㄱㅘㅇㅣㅇ	-13967
▁ㅇㅗㅇㅈㅜ	-13968
▁ㅈㅏㅇㅆㅜ	-13969
▁ㄱㅜㄱㄱㅏㅇ	-13970
▁ㅇㅘㅇㅅㅓㅇ	-13971
▁ㅆㅗㄷㅇㅏㅈㅣ	-13972
▁ㅇㅠㅈㅓㄴㅊㅔ	-13973
▁ㄷㅏㅇㅅㅓㄴㅈㅏ	-13974
ool	-13975
▁AL	-13976
▁Ab	-13977
ㅣㅈㅡㅁ	-13978
▁ㄱㅕㅇㅁㅏ	-13979
▁ㅇㅘㄴㅂㅣ	-13980
▁ㅁㅏㄹㄷㅏㄴ	-13981
▁ㅇㅏㅁㅜㄹㅣ	-13982
▁ㅋㅡㄹㄹㅣㄱ	-13983
▁ㅌㅔㅁㅜㄹㅡ	-13984
▁ㄱㅐㅈㅓㅇㅇㅏㄴ	-13985
▁ㅇㅕㅈㅣㄴㅈㅗㄱ	-13986
▁ㅈㅏㄱㅍㅜㅁㅅㅏㅇ	-13987
▁ㅈㅣㅂㅈㅓㅇㄱㅘㄴ	-13988
▁ㅇㅗㄴㅌㅏㄹㅣㅇㅗㅈㅜ	-13989
▁ㅍㅏㄹㅈㅏㄱㅈㅣㅂㅜㅇ	-13990
stem	-13991
▁ㄷㅡㄹㅜ	-13992
▁ㅁㅏㅌㅡ	-13993
ㅣㅇㅓㄹㅣㅇ	-13994
▁ㅇㅔㄹㄹㅓㄴ	-13995
▁ㅍㅏㅊㅜㅇㄹㅠ	-13996
▁ㅅㅡㅇㅈㅓㅇㅇㅝㄴ	-13997
▁ㅊㅛ	-13998
▁ㄱㅛㅈㅔ	-13999
▁ㅇㅢㄹㅖ	-14000
▁ㄱㅘㅇㅕㄴ	-14001
▁ㄴㅏㅂㅂㅜ	-14002
▁ㄴㅣㄴㅈㅏ	-14003
▁ㅁㅣㅇㅣㄴ	-14004
▁ㅂㅗㅈㅓㅇ	-14005
▁ㅅㅓㅇㄱㅏ	-14006
▁ㅈㅐㅂㅓㄹ	-14007
▁ㅋㅗㅇㅣㄴ	-14008
▁ㄱㅡㄹㅐㅁㅣ	-14009
▁ㅂㅏㄴㅈㅓㅁ	-14010
▁ㄱㅗㅅㅓㅇㄱㅜㄴ	-14011
▁ㅅㅔㅇㅣㄴㅌㅡㄹ	-14012
▁ㄱㅕㅇㅂㅗㄱㄱㅜㅇ	-14013
▁--	-14014
▁MA	-14015
ㅗㄹㅓ	-14016
▁ㅋㅗㅂ	-14017
ㅗㅂㅣㅊㅣ	-14018
▁ㅅㅏㄱㅅㅡ	-14019
▁ㅇㅓㅈㅣㄹ	-14020
▁ㅇㅚㅎㅘㄴ	-14021
▁ㅈㅓㄴㄱㅛ	-14022
▁ㅅㅣㄴㅂㅗㅇ	-14023
▁ㄷㅐㅍㅛㄷㅏㄴ	-14024
ㅜㅇㅝㄴㅅㅜㅇㅇㅣ	-14025
▁1891	-14026
▁ㅇㅗㄷㅐ	-14027
ㅇㅕㄹㅊㅏ	-14028
▁ㄷㅏㅎㅐㅇ	-14029
▁ㅁㅗㄹㄷㅜ	-14030
▁ㅂㅜㅍㅜㄹ	-14031
▁ㅉㅣㄱㅎㅣ	-14032
▁ㄴㅏㅂㅈㅏㄱ	-14033
▁ㅇㅏㄹㅁㅏㅈ	-14034
▁ㅇㅑㅇㅁㅕㄴ	-14035
ㅅㅗㄹㄹㅣㄴㅣ	-14036
▁section	-14037
▁ㅂㅜㄷㅏㅍㅔㅅㅡㅌㅡ	-14038
▁ㄹㄹㅏ	-14039
▁ㅂㅏㅅㅣ	-14040
▁ㅊㅔㅎㅏ	-14041
▁ㅌㅗㅇㅠ	-14042
▁ㅈㅓㅂㅎㅏㅂ	-14043
▁ㅈㅜㄴㅏㄹㅏ	-14044
▁ㅍㅔㅌㅡㄹㅗ	-14045
▁ㄸㅟㅇㅓㄴㅓㅁ	-14046
▁ㄷㅡㅁㅣㅌㅡㄹㅣ	-14047
▁ㅎㅏㅂㅊㅏㅇㄷㅏㄴ	-14048
▁NS	-14049
ㅇㅇㅣ	-14050
ㄷㅓㄹㅣ	-14051
▁ㅋㅐㅍㅣ	-14052
ㅊㅣㄴㅇㅘㅇ	-14053
▁ㅅㅑㅂ	-14054
ㅏㄴㄷㅗ	-14055
▁ㅈㅣㅎㅏㅇ	-14056
▁ㅎㅕㄹㅇㅏㅂ	-14057
▁ㅎㅐㅅㅓㄱㅎㅏㄱ	-14058
ise	-14059
ㅂㅏㅎㅡ	-14060
ㅆㅡㄱㅣ	-14061
▁ㄱㅐㄱㅡ	-14062
▁ㄷㅜㅇㅓ	-14063
▁ㅋㅔㄹㅡ	-14064
ㅂㅣㅇㅏㄴ	-14065
▁ㅅㅏㅎㅏㄹ	-14066
▁ㅅㅐㅇㄷㅗ	-14067
▁ㅇㅕㄱㅓㄴ	-14068
▁ㅈㅗㅅㅣㅁ	-14069
▁ㅈㅜㅇㄱㅗ	-14070
▁ㄷㅏㅂㅣㄷㅡ	-14071
▁ㄷㅏㄱㅜㄱㅈㅓㄱ	-14072
70	-14073
▁ㄴㅜㄴㅊㅣ	-14074
▁ㄱㅣㅁㅇㅕㄴ	-14075
▁ㄷㅡㅇㄷㅏㄴ	-14076
▁ㅇㅐㄴㄷㅡㄹㅠ	-14077
▁qu	-14078
▁Can	-14079
ㅈㅔㅂㅣ	-14080
▁ㅅㅖㅇㅣ	-14081
▁ㅇㅏㅈㅣ	-14082
ㅌㅣㄴㅔㄴ	-14083
▁ㄱㅜㄱㅏㅇ	-14084
▁ㄷㅟㄴㅡㅈ	-14085
▁ㅍㅗㅎㅏㅇㅅㅣ	-14086
ai	-14087
ower	-14088
▁ㄱㅏㅇㅑ	-14089
▁ㅇㅗㅁㅔ	-14090
▁ㄹㅏㄴㅅㅡ	-14091
▁ㅇㅣㅇㅡㄴ	-14092
ㅅㅡㅌㅜㅅㅡ	-14093
▁ㅈㅔㅍㅡㄹㅣ	-14094
ㅁㅗㄹㄹㅗㅈㅣ	-14095
▁ㅂㅓㅁㅈㅚㅈㅏ	-14096
▁ㅅㅣㅌㅣㅈㅡㄴ	-14097
▁ㅋㅗㅎㅗㅁㅗㄹㄹㅗㅈㅣ	-14098
▁ㄴㅗㅅㅏ	-14099
▁ㄱㅓㄲㅜㄹ	-14100
▁ㅅㅡㅋㅣㄴ	-14101
▁ㅇㅕㅅㅂㅗ	-14102
▁ㅈㅗㅇㅁㅛ	-14103
▁ㅈㅜㅇㅅㅗ	-14104
▁ㅍㅕㄴㅈㅔ	-14105
▁ㄱㅖㅅㅡㅇㅈㅏ	-14106
▁ㅎㅏㅇㅇㅏㄹㅣ	-14107
▁ㅇㅏㄴㅅㅏㄴㅅㅣ	-14108
▁ㅂㅔㅅㅡㅌㅡㅅㅔㄹㄹㅓ	-14109
▁q	-14110
ㅅㅣㄷㅐ	-14111
▁ㄱㅘㄷㅏ	-14112
▁ㅁㅐㄹㅣㅂ	-14113
▁ㅇㅔㄷㅜㅇ	-14114
▁ㅍㅏㄹㅏㅇ	-14115
▁ㅋㅏㅇㅣㄹㅗ	-14116
▁ㄹㅣㄹㄹㅔㅇㅣ	-14117
▁ㅅㅔㄴㄷㅏㅇㅣ	-14118
▁ㅌㅏㅇㅣㅁㅈㅡ	-14119
▁ㅇㅣㅂㅏㄹㅏㅋㅣ	-14120
▁ㅎㅏㅇㅣㅂㅡㄹㅣㄷㅡ	-14121
ㅋㅣㅁ	-14122
ㅂㅡㄹㅔ	-14123
▁ㄹㅏㅂㅏ	-14124
▁ㅅㅓㅇㅟ	-14125
▁ㅅㅗㄷㅐ	-14126
▁ㅅㅣㅈㅣㄴ	-14127
ㅂㅏㅂㅡㅇㅞ	-14128
▁ㅈㅣㅁㅂㅏㅂㅡㅇㅞ	-14129
ㅇㅠㅇㅖ	-14130
▁ㅌㅜㅎㅏ	-14131
▁ㅈㅏㅋㅔㅅ	-14132
▁ㅂㅓㅂㅈㅓㄴ	-14133
▁ㄱㅛㅌㅗㅇㅅㅏㄱㅗ	-14134
▁ㅈㅣㅂㅎㅐㅇㅇㅠㅇㅖ	-14135
▁ㄷㅐㅎㅏㄴㅎㅏㅇㄱㅗㅇ	-14136
NG	-14137
▁705	-14138
ㅅㅔㄷㅏ	-14139
▁1873	-14140
▁ㅁㅏㅌㅏ	-14141
▁ㅇㅕㄷㅐ	-14142
▁ㅍㅣㄹㅗ	-14143
▁ㅎㅐㅅㅣ	-14144
ㅔㄹㅡㅋㅡ	-14145
▁ㅂㅓㅍㅓㄹ	-14146
▁ㅇㅏㄷㅔㄹ	-14147
▁ㅈㅣㄴㅎㅡㄺ	-14148
▁ㄱㅐㅊㅔㄱㅜㄴ	-14149
che	-14150
▁Good	-14151
▁ㅇㅏㄷㅣ	-14152
▁ㅋㅏㅇㅗ	-14153
▁ㅁㅗㅂㅣㄹ	-14154
▁ㅇㅐㅇㅘㄴ	-14155
▁ㅊㅚㅈㅏㅇ	-14156
▁ㅋㅗㅁㅟㄴ	-14157
▁ㅊㅣㄴㅁㅣㄹ	-14158
ㅎㅐㅅㅏㄹㅇㅣㅍㅜㄹ	-14159
▁ㄹㅗㅂㅡ	-14160
▁ㄱㅜㄴㅅㅔ	-14161
▁ㄷㅔㄴㅅㅛ	-14162
▁ㅇㅝㄴㄷㅗㅇ	-14163
▁ㄱㅣㅎㅚㄱㅅㅏ	-14164
ㅁㅗㅅㅡ	-14165
▁ㅅㅑㄹㄹ	-14166
▁ㅍㅡㄹㄹㅣ	-14167
ㅏㅎㅡ	-14168
▁ㄹㅏㄹㅏ	-14169
▁Black	-14170
▁ㄴㅏㅁㅇㅏㄱ	-14171
▁ㅁㅏㅅㅡㅋㅗ	-14172
▁ㅅㅜㅅㅣㄹㅗ	-14173
▁ㅇㅑㅇㅇㅑㅇ	-14174
▁ㅇㅏㅇㅗㅁㅗㄹㅣ	-14175
ank	-14176
▁MM	-14177
▁ㅈㅔㅁ	-14178
▁ㄷㅗㄷㅗ	-14179
▁ㅌㅏㄱㅜ	-14180
▁ㅂㅏㄹㅎㅏ	-14181
▁ㅂㅜㄹㅡㅂ	-14182
▁ㅎㅏㅇㅇㅜ	-14183
▁ㅎㅐㅋㅣㅇ	-14184
▁ㅅㅏㄴㅅㅣㄴ	-14185
▁ㅅㅗㅇㅈㅣㄴ	-14186
▁ㅂㅕㄴㄱㅘㅇㅅㅓㅇ	-14187
▁AI	-14188
▁Let	-14189
ㅎㅗㅇㅣㄴ	-14190
▁ㅇㅕㄴㅎㅘ	-14191
▁ㅇㅚㅅㅏㅇ	-14192
▁ㅋㅐㄴㅗㄴ	-14193
ㅋㅣㄴㅅㅡㄴ	-14194
▁ㄹㅏㅇㅣㅅㅡ	-14195
▁ㅎㅓㄴㄴㅏㅂ	-14196
▁ㅈㅔㄴㅓㄹㅓㄹ	-14197
▁ㅂㅏㄹㅏㅁㅈㅣㄱ	-14198
▁ㄴㅏㅇㅁㅏㄴㅈㅜㅇㅢ	-14199
ㄲㅗ	-14200
ㅜㅁㅓㄴ	-14201
▁ㄱㅖㅈㅘ	-14202
▁ㅅㅠㄱㅗ	-14203
▁ㅋㅣㅈㅡ	-14204
ㅅㅜㅇㅕㅁ	-14205
▁ㄷㅜㅌㅓㅂ	-14206
▁ㅇㅣㅂㅅㅣ	-14207
ㅅㅡㅂㅏㄱㅅㅡ	-14208
ㅏㅍㅡㄹㅣㅋㅏ	-14209
▁ㅍㅔㄹㅡㄷㅣㄴㅏㄴㅌㅡ	-14210
▁PM	-14211
ㅅㅜㄱㅛ	-14212
ㅔㄹㄹㅗ	-14213
▁ㅊㅔㄴㅐ	-14214
ㅔㄹㅡㅌㅡ	-14215
▁ㅇㅏㅅㅟㅂ	-14216
▁ㅁㅜㄴㅈㅓㅇ	-14217
▁AU	-14218
▁ㅈㅗㅇㅓ	-14219
▁ㅍㅏㅈㅜ	-14220
▁ㅂㅏㄹㅍㅗ	-14221
▁ㅅㅡㅇㅈㅣ	-14222
▁ㅌㅓㅂㅣㄴ	-14223
▁ㄴㅏㄴㅇㅣㄷㅗ	-14224
▁ㅇㅗㅅㅡㅌㅡㄹㅣ	-14225
ㄲㅡㄴ	-14226
ㄸㅓㄱ	-14227
▁ㅅㅜㅈㅜ	-14228
▁ㅍㅣㅅㅕ	-14229
ㅁㅣㄱㅕㅇ	-14230
▁ㄱㅜㄱㅎㅗ	-14231
▁ㅂㅕㅇㄱㅘ	-14232
▁ㅇㅢㅇㅛㅇ	-14233
▁ㄴㅔㄱㅅㅔㄴ	-14234
▁ㅁㅏㄴㅈㅓㅁ	-14235
▁ㅊㅓㅇㅁㅜㄴ	-14236
▁ㄷㅏㅅㅣㄱㅡㅁ	-14237
▁ㅇㅔㄱㅅㅡㅍㅗ	-14238
ㅂㅡㄱ	-14239
▁650	-14240
ㅈㅣㄴㄱㅜ	-14241
▁ㄱㅜㅅㅡㄹ	-14242
▁ㅇㅛㅈㅡㅁ	-14243
▁ㅊㅓㅂㅏㅇ	-14244
▁ㅅㅏㄴㅊㅐㄱ	-14245
▁ㅈㅗㅇㅇㅓㅂ	-14246
▁ㅍㅡㄹㅔㄷㅡ	-14247
▁ㅂㅜㄹㅡㅈㅜㅇㅏ	-14248
ㅎㅏㅂㅈㅜㅇㄱㅜㄱ	-14249
ㅉㅗㅊ	-14250
ings	-14251
▁550	-14252
▁ㅂㅏㅅ	-14253
▁ㅆㅜㅇ	-14254
▁ㅎㅐㄹ	-14255
ㅇㅏㅇㅣ	-14256
▁ㅈㅗㄱㅗㅇ	-14257
▁ㅎㅘㅇㅈㅏ	-14258
▁ㄱㅏㅇㅣㄷㅡ	-14259
▁ㄱㅘㅇㅇㅓㅂ	-14260
▁ㅎㅏㅂㄱㅡㅁ	-14261
▁ㅈㅡㅇㅈㅗㅂㅜ	-14262
▁ㄱㅣㅁㅅㅓㅇㅅㅜ	-14263
▁ㄴㅗㄷㅗㅇㄹㅕㄱ	-14264
▁ㅂㅐㄱㅇㅏㄱㄱㅘㄴ	-14265
▁ㅅㅏㅇㅣㅌㅏㅁㅏㅎㅕㄴ	-14266
▁-&	-14267
ㅁㅜㅅㅡ	-14268
▁ㅁㅔㅇㅜ	-14269
▁ㅇㅣㄹㅖ	-14270
▁ㄴㅏㅁㅈㅗ	-14271
▁ㄷㅐㅁㅗㄱ	-14272
▁ㅈㅏㅁㄱㅣ	-14273
▁ㅈㅏㄱㄴㅕㄴ	-14274
▁ㄹㅔㅇㅣㄴㅈㅓ	-14275
▁ㅈㅏㅇㅚㅅㅓㄴ	-14276
▁ㅇㅣㄴㅗㅇㅜㅇㅔ	-14277
▁ㅍㅗㄷㅐ	-14278
ㅏㄹㅣㅇㅏ	-14279
▁ㄱㅕㅇㅈㅣ	-14280
▁ㄱㅘㅇㅈㅏ	-14281
ㄱㅏㄱㅎㅕㅇ	-14282
ㄷㅗㅇㅁㅐㅇ	-14283
▁ㅈㅣㄴㅇㅝㄴ	-14284
▁ㅎㅏㄴㅊㅏㅇ	-14285
DS	-14286
ㅡㄱㅗㅅㅡ	-14287
▁ㅅㅣㅇㅕㄱ	-14288
▁ㄷㅡㅇㄷㅡㅇ	-14289
▁ㅁㅜㄴㅈㅜㅇ	-14290
▁ㅂㅣㄱㅂㅐㅇ	-14291
▁ㅁㅜㅅㅗㄹㄹㅣㄴㅣ	-14292
▁El	-14293
▁1867	-14294
▁ㅂㅐㅇㅏ	-14295
▁ㅇㅏㄷㅡ	-14296
ㅅㅜㅅㅏㄴ	-14297
▁ㅎㅘㄹㅈㅏ	-14298
▁ㅁㅏㅈㅊㅜㅁ	-14299
▁ㅌㅡㄴㅌㅡㄴ	-14300
▁ㅈㅐㅍㅏㄴㅂㅜ	-14301
▁ㅅㅗㄴㅈㅏㅂㅇㅣ	-14302
ㅇㅔㄴ	-14303
ㅅㅣㄴㅣ	-14304
ㄷㅏㅂㅏㄹ	-14305
ㅋㅡㄹㅣㅁ	-14306
ㄷㅜㄹㅏㅅㅡ	-14307
ㅂㅏㅇㄱㅜㄴ	-14308
▁ㅂㅏㄹㄱㅏㄹㅏㄱ	-14309
▁ㅍㅣㅊㅡㅂㅓㄱㅡ	-14310
▁ㅇㅗㄴㄷㅜㄹㅏㅅㅡ	-14311
ㄹㅗㅋㅜ	-14312
▁ㅅㅔㄹㅔ	-14313
▁ㅈㅣㅇㅏ	-14314
ㅈㅓㅇㅅㅏ	-14315
ㅓㅅㅡㅌㅓ	-14316
▁ㄱㅣㅌㅗㅇ	-14317
▁ㅇㅘㅇㅣㄷㅡ	-14318
▁ㅈㅣㄱㄱㅘㄴ	-14319
▁ㅍㅡㄹㅗㅌㅔ	-14320
ㅈㅓㄹㄷㅗㅅㅏ	-14321
▁ㅎㅕㅂㄷㅗㅇㅈㅗㅎㅏㅂ	-14322
ㅎㅞ	-14323
▁ㅇㅏㄹㅚ	-14324
▁ㅈㅏㅇㅗ	-14325
▁ㄱㅣㅁㅊㅣ	-14326
▁ㅁㅏㅇㅜㄴ	-14327
▁ㅊㅐㄱㅜㄹ	-14328
▁ㅋㅣㄹㅣㄹ	-14329
ㅌㅏㄴㅏㅂㅔ	-14330
▁ㅈㅓㄱㅂㅏㄹ	-14331
▁ㅌㅡㄹㅗㅌㅡ	-14332
▁ㅎㅡㅂㅇㅕㄴ	-14333
▁ㅎㅏㅂㅏㄴㄱㅣ	-14334
▁ㅈㅗㅅㅓㄴㅇㅘㅇㅈㅗ	-14335
▁ㅋㅣㅅ	-14336
ㄹㅔㄹㅡ	-14337
▁ㅇㅔㅊㅣ	-14338
▁ㄱㅓㄴㄴㅔ	-14339
▁ㄱㅕㅇㅁㅐ	-14340
▁ㅂㅓㄹㄹㅣ	-14341
▁ㅅㅓㅎㅏㄴ	-14342
▁ㅍㅣㄹㄷㅜ	-14343
▁ㅂㅜㄱㅂㅓㄹ	-14344
▁ㅎㅟㅂㅆㅡㄹ	-14345
▁ㄱㅏㄹㅇㅏㅌㅏ	-14346
▁ㅂㅜㅇㅕㄱㅜㄴ	-14347
ㅋㅏㅁ	-14348
▁ㄱㅗㅎㅏ	-14349
▁ㅅㅔㅁㅜ	-14350
ㅅㅓㅇㄱㅕㅇ	-14351
ㅣㅁㅐㄱㅣㅁ	-14352
▁ㄷㅏㅇㄷㅏㅇ	-14353
▁ㅅㅏㄹㅉㅏㄱ	-14354
▁ㅈㅣㄴㅇㅓㄴ	-14355
▁ㅍㅣㄹㅇㅕㄴ	-14356
▁ㅇㅐㄹㅂㅓㅌㅡ	-14357
▁ㅈㅏㄹㅣㅁㅐㄱㅣㅁ	-14358
ta	-14359
▁802	-14360
▁ㅍㅜㄷㅡ	-14361
ㅁㅗㅅㅕㄴ	-14362
ㅜㅇㅣㅅㅡ	-14363
▁ㅇㅖㅈㅗㅇ	-14364
▁ㅍㅔㄹㅡㅁ	-14365
▁ㄲㅗㅊㅇㅣㅍ	-14366
▁ㄱㅕㅌㄷㅡㄹㅇㅣ	-14367
▁ㅇㅛㅇㅅㅏㄴㄱㅜ	-14368
▁ㄱㅏㅁㅇㅕㅁㅈㅡㅇ	-14369
▁1862	-14370
▁ㄹㅔㅂㅓ	-14371
▁ㄹㅗㄴㅣ	-14372
▁ㄱㅘㄱㅕㄱ	-14373
▁ㄱㅘㄹㅎㅗ	-14374
ㅋㅡㄹㄹㅓㅂ	-14375
▁ㄱㅕㅇㅇㅡㄴ	-14376
▁ㅂㅗㄹㄹㅗㄱ	-14377
▁ㅇㅕㄹㄹㅕㄹ	-14378
▁ㅍㅣㄹㅎㅏㅁ	-14379
▁ㅅㅡㄹㄹㅗㄱㅓㄴ	-14380
▁ㅇㅑㅋㅜㄹㅡㅌㅡ	-14381
▁ㄱㅜㄱㅁㅣㄴㅎㅏㄱㄱㅛ	-14382
ky	-14383
lar	-14384
ㅏㅂㅏ	-14385
ㅅㅣㄱㅔ	-14386
▁ㄱㅐㄱㅣ	-14387
▁ㅇㅗㄱㅅㅣ	-14388
▁ㅈㅣㄱㄱㅛ	-14389
▁ㄱㅡㄹㄹㅔㄴ	-14390
▁ㅇㅘㅅㅅㅡㄴ	-14391
▁ㅊㅣㄹㅛㅈㅔ	-14392
▁ㅁㅐㄷㅏㄹㄹㅣ	-14393
▁ㅇㅣㄷㅔㅇㅗㄹ	-14394
▁ㅇㅏㄹㅍㅗㄴㅅㅗ	-14395
▁ㅅㅏㅁㄱㅜㄱㅇㅠㅅㅏ	-14396
▁ㅁㅣㅎㅏㅂㅈㅜㅇㄱㅜㄱ	-14397
▁ㄱㅙㄴ	-14398
▁6000	-14399
▁ㅁㅜㅈㅣ	-14400
ㄹㅔㅂㅏㄴ	-14401
▁ㄱㅏㅁㅜㄹ	-14402
▁ㄱㅡㅁㄱㅗ	-14403
▁ㅁㅏㄹㅣㅇ	-14404
ㅇㅏㅁㄷㅗㅇ	-14405
▁ㄱㅏㄴㅍㅏㄴ	-14406
▁ㄱㅓㄹㅈㅏㄱ	-14407
▁ㅊㅗㄱㅂㅏㄹ	-14408
▁ㅂㅏㄴㅈㅓㅇㅂㅜ	-14409
▁ㅎㅗㄹㄷㅣㅇㅅㅡ	-14410
▁ㄱㅗㅇㅌㅗㅇㅈㅓㅁ	-14411
tr	-14412
ㅡㄱㅗ	-14413
▁ㅁㅏㄱㅏ	-14414
▁ㄱㅡㅂㅎㅏ	-14415
▁ㅇㅏㅁㅏㄹ	-14416
▁ㅇㅟㅂㅓㅂ	-14417
▁ㅊㅐㅇㄱㅣ	-14418
ㅌㅏㅁㅣㅇㅏ	-14419
▁ㅇㅣㅂㅅㅜㄹ	-14420
▁ㅊㅜㅇㄷㅏㅇ	-14421
▁ㅁㅜㄹㅗㅁㅏㅊㅣ	-14422
▁ㅂㅗㅇㅏㄴㅂㅓㅂ	-14423
▁ㅊㅜㄹㅇㅣㅂㅁㅜㄴ	-14424
▁ㅣ	-14425
▁LS	-14426
▁ㅈㅗㅅㅣ	-14427
▁ㄱㅖㅇㅓㅁ	-14428
▁ㄷㅏㄴㅈㅏ	-14429
▁ㅊㅟㅎㅑㅇ	-14430
▁ㅁㅔㅅㅗㅍㅗ	-14431
▁ㄱㅕㅇㅎㅢㄷㅐ	-14432
▁ㅅㅏㅁㅜㄱㅜㄱ	-14433
▁ㅊㅐㄹㄹㅣㄴㅈㅓ	-14434
▁ㅂㅐㄱㄱㅘㅅㅏㅈㅓㄴ	-14435
▁ㅁㅔㅅㅗㅍㅗㅌㅏㅁㅣㅇㅏ	-14436
▁Ac	-14437
rist	-14438
▁Ser	-14439
ㄹㅗㄱㅣ	-14440
▁1878	-14441
▁ㄹㅣㅊㅣㅁ	-14442
▁ㅅㅣㄴㅇㅢ	-14443
▁ㄴㅠㄱㅣㄴㅣ	-14444
▁ㅈㅡㅇㄱㅏㅇ	-14445
▁ㅂㅡㄹㄹㅏㄷㅣ	-14446
▁ㅍㅗㅁㅠㄹㄹㅓ	-14447
ㅋㅏㄹㅡㅌㅏ	-14448
▁ㅂㅏㄱㅈㅣㄴ	-14449
▁ㅈㅓㅇㅁㅕㅇ	-14450
▁ㅈㅣㅈㅏㅊㅔ	-14451
▁ㅍㅕㄴㅈㅣㅂㅈㅏㅇ	-14452
▁ㄷㅔㄱ	-14453
ㅂㅏㅈㅣ	-14454
▁ㄱㅣㅃㅡ	-14455
▁ㅂㅜㅇㅓ	-14456
▁ㅅㅗㅈㅏㄱ	-14457
▁ㅊㅏㅁㅅㅜ	-14458
▁ㄴㅗㅇㅅㅓㅇ	-14459
▁ㅇㅣㅅㅓㅇㅈㅣㄹ	-14460
▁UC	-14461
▁ㅌㅓㅇ	-14462
▁ㅈㅗㅅㅓ	-14463
▁ㄷㅏㅇㄱㅘ	-14464
▁ㄹㅔㅁㅗㄴ	-14465
▁ㅇㅠㄹㅣㅁ	-14466
▁ㅌㅔㄱㅅㅡ	-14467
▁ㅂㅏㄴㅎㅏㅇ	-14468
▁ㅈㅔㅈㅗㅅㅏ	-14469
▁ㅇㅣㄹㅂㅗㄴㅅㅣㄱ	-14470
▁Qu	-14471
▁ㄲㅞ	-14472
ㄱㅟㄴ	-14473
▁ㅁㅔㅊㅡ	-14474
▁ㅌㅐㅇㅏ	-14475
▁ㅎㅏㅈㅜㅇ	-14476
▁ㄱㅓㄲㅜㄹㅗ	-14477
▁ㄷㅗㅇㅌㅏㄱ	-14478
▁ㅇㅗㄱㅊㅓㄴ	-14479
▁ㅇㅏㅍㅅㅔㅇㅜ	-14480
▁ㄷㅏㅇㅣㄴㅗㅅㅡ	-14481
▁ㅇㅕㄴㅊㅜㄹㄱㅏ	-14482
▁ㅇㅛㅎㅏㄴㅔㅅㅡ	-14483
ㅆㅡㄴㅗ	-14484
▁ㄱㅘㅈㅏ	-14485
▁ㄷㅓㅎㅏ	-14486
▁ㄹㅣㅌㅡ	-14487
▁ㅇㅐㄱㅣ	-14488
▁ㅇㅗㅇㅜ	-14489
ㅔㅇㅣㄹㅏ	-14490
▁ㅈㅗㅈㅜㄴ	-14491
▁ㅂㅜㄴㄱㅕㅇ	-14492
▁ㅇㅛㅇㄱㅏㅁ	-14493
▁ㅊㅜㅇㅅㅣㄴ	-14494
▁ㅋㅡㄹㅜㅈㅡ	-14495
hem	-14496
▁MSL	-14497
▁ㄱㅛㅅㅓ	-14498
▁ㄹㅏㅈㅣ	-14499
▁ㄹㅔㅂㅣ	-14500
▁ㅊㅓㅊㅣ	-14501
▁ㅂㅜㅅㅣㄹ	-14502
▁ㅇㅣㄴㅇㅟ	-14503
▁ㅈㅣㄱㅕㅇ	-14504
ㅂㅔㄴㅅㅕㄴ	-14505
▁ㄱㅜㄹㅂㅗㄱ	-14506
▁ㅇㅣㄹㅅㅓㄹ	-14507
▁ㅈㅏㅇㅅㅣㄴ	-14508
▁ㅈㅡㅇㅂㅏㄹ	-14509
▁ㅈㅡㅇㅅㅣㄱ	-14510
▁ㅋㅗㅅㅡㅌㅡ	-14511
▁ㄱㅣㅇㅝㄴㅎㅜ	-14512
▁ㅇㅣㄷㅔㅇㅗㄹㄹㅗㄱㅣ	-14513
▁ㅇㅣㄹㄹㅣㄴㅗㅇㅣㅈㅜ	-14514
▁HMS	-14515
▁ㅅㅑㄹㅡ	-14516
▁ㄷㅏㅁㅗㄱ	-14517
▁ㅊㅏㄱㅊㅟ	-14518
▁ㄲㅡㄹㅇㅓㅇ	-14519
▁ㅇㅠㄴㅊㅣㅇ	-14520
▁ㅇㅣㄹㄹㅓㅅㅡㅌㅡ	-14521
▁ㄹㅡㅂ	-14522
▁ㅍㅏㄱㅣ	-14523
▁ㅁㅗㅂㅏㄴ	-14524
▁ㄱㅜㄱㅇㅣㄴ	-14525
▁ㄱㅡㅂㅅㅓㅇ	-14526
▁ㅈㅓㄴㅁㅕㄹ	-14527
▁ㅇㅏㄴㄷㅗㅇㅅㅣ	-14528
▁tr	-14529
ㅐㅌㅣ	-14530
▁ㅁㅐㅅㅠ	-14531
▁ㅇㅣㅅㅗ	-14532
▁ㅎㅣㄴㅗ	-14533
ㅌㅜㅇㅇㅣ	-14534
ㅓㅅㅡㅌㅏ	-14535
▁ㄷㅏㄹㅑㅇ	-14536
▁ㅌㅜㅅㅣㄴ	-14537
▁ㄷㅐㄹㅣㅅㅓㄱ	-14538
▁ㅂㅜㄷㅡㅇㅅㅣㄱ	-14539
▁ㅅㅡㅌㅔㅇㅣㅌㅡ	-14540
▁ㅇㅣㄴㅋㅗㄷㅣㅇ	-14541
▁ㅋㅡㄹㅣㅅㅡㅌㅣㄴ	-14542
ae	-14543
▁Ag	-14544
▁And	-14545
▁ㄷㅐㄴㅣ	-14546
ㅈㅔㄹㄹㅗ	-14547
▁ㅍㅗㅊㅓㄴ	-14548
▁ㅇㅞㅇㅣㅂㅡ	-14549
▁ㅅㅡㅌㅐㄴㄷㅡ	-14550
▁ㅈㅣㅎㅏㅇㅕㄱ	-14551
▁ㅍㅡㄹㄹㅏㅅㅡ	-14552
▁ㄸㅏㅁ	-14553
▁ㅅㅖㄴ	-14554
▁ㄴㅐㅈㅐ	-14555
▁ㅁㅜㅈㅏ	-14556
▁ㅅㅏㄱㅛ	-14557
▁ㅅㅓㅈㅣ	-14558
▁ㅇㅗㅅㅣ	-14559
▁ㅂㅓㄴㄱㅐ	-14560
▁ㅈㅗㅅㅓㄱ	-14561
▁ㅍㅐㅋㅣㅅ	-14562
ㅅㅣㅇㅏㄷㅡ	-14563
▁ㅇㅘㄴㅁㅏㄴ	-14564
▁ㅊㅜㅇㅊㅣㅇ	-14565
▁ㅎㅓㄴㅂㅕㅇ	-14566
ㅍㅡㄹㄹㅗㄹㅓ	-14567
▁ㅂㅗㅇㅇㅜㄹㅣ	-14568
▁ㅇㅓㄴㄹㅗㄴㅅㅏ	-14569
▁ㅅㅣㄴㅅㅣㄴㅐㅌㅣ	-14570
▁ㅍㅡㄹㅗㅁㅗㅅㅕㄴ	-14571
▁ㅎㅐㄱㅂㅜㄴㅇㅕㄹ	-14572
▁ㅅㅣㄴㅎㅏㄴㅇㅡㄴㅎㅐㅇ	-14573
▁ㅇㅣㄱㅅㅡㅍㅡㄹㄹㅗㄹㅓ	-14574
▁ㅍㅐㅅ	-14575
ㄷㅏㅅㅡ	-14576
▁ㄷㅏㄴㅈㅗ	-14577
▁ㅇㅕㄹㅅㅚ	-14578
▁ㅈㅗㅈㅏㅇ	-14579
▁ㅎㅕㅇㅈㅜ	-14580
▁ㅇㅘㅅㅔㄷㅏ	-14581
▁ㅇㅠㄴㅣㅂㅓㅅㅣㅇㅏㄷㅡ	-14582
▁AA	-14583
ㅍㅡㄴ	-14584
▁1869	-14585
▁ㄹㅏㄴㅣ	-14586
ㅣㄹㅓㅅㅡ	-14587
▁ㅂㅔㅇㅣㄹ	-14588
▁ㅈㅣㄹㅣㄴ	-14589
▁ㅊㅏㄹㅣㅁ	-14590
ㅅㅔㅇㅜㅅㅡ	-14591
▁ㅇㅗㄴㄱㅓㄴ	-14592
ee	-14593
▁ㅋㅔㅅ	-14594
ㅅㅏㅎㅘ	-14595
ㅣㅁㅕㄴ	-14596
▁ㄱㅣㅁㅛ	-14597
▁ㅂㅓㅋㅡ	-14598
▁ㅈㅐㄱㅗ	-14599
▁ㅅㅡㅌㅗㅁ	-14600
▁ㅇㅘㄴㅅㅜ	-14601
▁ㅇㅑㅇㄱㅜㄴ	-14602
▁ㅊㅟㄹㅣㅎㅣ	-14603
▁ㅍㅣㄹㅁㅕㅇ	-14604
▁ㅎㅡㄴㄷㅡㄹ	-14605
▁ㅁㅓㄴㅣ	-14606
▁ㅅㅣㄹㅡ	-14607
▁ㅇㅑㅅㅣㅁ	-14608
▁ㅇㅣㅅㅣㅁ	-14609
▁ㅇㅣㅈㅡㅁ	-14610
▁ㅋㅗㅍㅓㄹ	-14611
▁ㅇㅕㄴㅎㅐㅇ	-14612
▁ㅇㅠㄱㅅㅣㄱ	-14613
▁ㅈㅓㄹㅇㅑㄱ	-14614
▁ㅇㅓㅂㄹㅗㄷㅡ	-14615
▁ㅁㅏㅅㅡㅋㅗㅌㅡ	-14616
▁ㅅㅡㅋㅔㅇㅣㅌㅡ	-14617
▁ㅊㅣㄴㅅㅓㄴㄱㅕㅇㄱㅣ	-14618
▁ㄱㅝㄹ	-14619
▁ㅈㅡㅂ	-14620
▁ㅊㅣㅇㅣ	-14621
▁ㄱㅘㅇㅂㅐ	-14622
▁ㅅㅜㄷㅏㅇ	-14623
▁ㄱㅏㄴㄱㅕㄹ	-14624
▁ㅁㅏㅍㅗㄱㅜ	-14625
▁ㅅㅓㄴㅇㅠㄹ	-14626
▁ㅈㅏㄴㅈㅗㄴ	-14627
▁ㅎㅏㅇㅅㅐㅇ	-14628
▁ㄱㅣㅂ	-14629
▁ㅅㅏㅇㅅㅓㄹ	-14630
▁ㄹㅏㅇㅣㅍㅡㅊㅣㅎㅣ	-14631
▁ㅁㅕㅇㅅㅓㅇㅎㅘㅇㅎㅜ	-14632
▁ㅂㅐㅅ	-14633
ㄷㅐㅈㅓㄴ	-14634
ㅇㅘㅇㅎㅜ	-14635
▁ㄴㅏㅌㅏㄹ	-14636
▁ㅂㅡㄹㅔㄴ	-14637
▁ㅍㅗㅇㅣㄴ	-14638
▁return	-14639
▁ㅇㅣㅂㅡㅅㅡ	-14640
▁ㅋㅐㅅㅡㅌㅡ	-14641
▁ㅅㅣㄴㄱㅣㄹㅗㄱ	-14642
▁ㅇㅣㅂㅂㅓㅂㅂㅜ	-14643
▁ㅍㅡㄹㅏㅇㅣㅈㅡ	-14644
▁ㅎㅣㄹㅂㅔㄹㅡㅌㅡ	-14645
▁ㅇㅕㅇㅜㅇㅝㄴㅅㅜㅇㅇㅣ	-14646
▁me	-14647
ㅅㅣㄴㅏ	-14648
▁1592	-14649
▁ㅅㅏㅋㅜㄹ	-14650
▁ㅅㅣㅁㅅㅗ	-14651
▁ㅇㅣㅇㅋㅡ	-14652
▁ㄱㅡㄱㅊㅏㄴ	-14653
▁ㅍㅡㄹㅣㅊㅡ	-14654
▁ㄴㅗㄹㅡㅁㅏㄴ	-14655
▁ㄱㅣㄷㅗㅇㅈㅓㄴ	-14656
▁ㅈㅗㅇㅇㅓㅂㅇㅝㄴ	-14657
▁ㅋㅗㅍㅓㄹㅔㅇㅣㅅㅕㄴ	-14658
ㅣㅇㅠ	-14659
▁ㅁㅐㄹ	-14660
▁ㅅㅛㅋㅡ	-14661
▁ㅂㅜㄱㅜㄴ	-14662
▁ㅎㅘㅇㅍㅖ	-14663
▁ㅈㅜㅇㅇㅛㅇ	-14664
▁ㅍㅗㄹㅡㄴㅗ	-14665
▁ㄹㅔㅈㅣㅅㅡㅌㅓ	-14666
▁ㅅㅡㅇㅇㅛㅇㅊㅏ	-14667
pr	-14668
ata	-14669
ㅔㅌㅏ	-14670
▁ㅇㅣㅌㅓ	-14671
▁ㅍㅣㅋㅏ	-14672
▁ㅈㅣㅌㅐㅇ	-14673
▁ㅌㅗㅇㅈㅣ	-14674
▁ㅍㅗㅌㅏㅂ	-14675
▁ㅈㅏㄱㅈㅜㅇ	-14676
▁ㄱㅗㅇㅅㅣㄱㅈㅓㄴ	-14677
ㅋㅝ	-14678
ㅂㅔㄹㅣ	-14679
▁ㄷㅗㅋㅣ	-14680
▁ㄷㅏㅇㅍㅏ	-14681
▁ㅁㅗㅁㅊㅔ	-14682
▁ㅆㅓㄴ	-14683
ㅜㅇㅔㄴ	-14684
▁ㄱㅣㄱㅗ	-14685
▁ㅇㅏㅇㅓ	-14686
▁ㅇㅟㅈㅡ	-14687
▁ㅈㅏㅋㅗ	-14688
▁ㅋㅜㄹㅏ	-14689
▁ㄱㅏㄱㅡㄱ	-14690
▁ㅂㅗㅈㅣㄱ	-14691
▁ㅈㅏㄴㄷㅣ	-14692
▁ㅊㅓㅈㅏㅇ	-14693
▁ㅂㅗㄹㄴㅔㅅ	-14694
▁ㅎㅏㅇㅣㅍㅓ	-14695
▁ㅇㅐㄱㅅㅔㅅㅡ	-14696
▁ㅈㅏㅇㄹㅗㅎㅚ	-14697
▁ㅇㅝㄴㅈㅏㅎㅐㄱ	-14698
▁ㅍㅡㄹㅏㄴㅊㅣㅅㅡㅋㅗ	-14699
ㅓㄱㅓ	-14700
▁ㅋㅜㄹㅗ	-14701
▁ㄱㅗㅊㅏㄹ	-14702
▁ㅂㅗㄹㅍㅡ	-14703
▁ㅇㅗㄱㅌㅏ	-14704
▁ㅇㅟㅎㅓㄴ	-14705
▁ㅇㅕㄴㄷㅏㄹ	-14706
▁ㅊㅓㅇㄱㅏㄱ	-14707
▁RC	-14708
▁ab	-14709
ount	-14710
▁ㅊㅜㅎㅜ	-14711
▁ㄱㅗㄴㅏㄴ	-14712
▁ㅅㅡㅋㅣㄹ	-14713
ㅌㅏㄹㅣㅇㅏ	-14714
▁ㅇㅘㅌㅏㄴㅏㅂㅔ	-14715
▁ㅋㅣㄹㅡㄱㅣㅅㅡ	-14716
▁ㄷㅚㄷㅗㄹㅇㅏㄱㅏ	-14717
▁KN	-14718
ㅍㅏㅅㅡ	-14719
▁ㅁㅜㄱㅗ	-14720
▁ㅎㅔㄹㅗ	-14721
▁ㄱㅜㄱㅎㅘ	-14722
▁ㅇㅠㅁㅏㅇ	-14723
▁ㅇㅣㅁㅗㄱ	-14724
▁ㅁㅕㄴㅈㅣㄱ	-14725
▁ㅇㅏㅇㅣㄹㄹㅐㄴ	-14726
OU	-14727
per	-14728
▁Mon	-14729
▁ㅂㅗㄲ	-14730
▁ㅆㅓㄱ	-14731
ㅅㅗㄴㅕ	-14732
▁ㅇㅕㅍㅗ	-14733
▁ㅎㅜㄷㅡ	-14734
▁ㄴㅣㄱㅅㅡ	-14735
▁ㅂㅜㄱㅘㄴ	-14736
▁ㅅㅓㅈㅓㅁ	-14737
▁ㄱㅡㄴㅂㅏㅇ	-14738
▁ㄴㅗㄴㅅㅏㄴ	-14739
▁ㅅㅏㅇㅅㅓㄴ	-14740
▁ㅈㅗㅇㅊㅏㄱㅇㅕㄱ	-14741
▁ㄱㅗㄷㅡㅇㅎㅏㄱㅅㅐㅇ	-14742
ㅇㅔㅅ	-14743
▁ㅈㅐㅁ	-14744
▁ㄹㅜㄷㅗ	-14745
ㅎㅜㄱㅜㄱ	-14746
▁ㄷㅐㄷㅏㅁ	-14747
▁ㅈㅏㄴㅎㅐ	-14748
ㅔㅌㅣㅋㅓㅅ	-14749
▁ㅁㅣㄴㅏㅁㅗ	-14750
▁ㅋㅓㅁㅍㅣㄹ	-14751
▁ㄱㅗㄹㅉㅏㄱㅣ	-14752
▁ㅇㅜㄴㄷㅗㅇㄹㅑㅇ	-14753
▁ㅋㅗㄴㅔㅌㅣㅋㅓㅅ	-14754
▁ㅋㅓㅁㅍㅣㄹㄹㅔㅇㅣㅅㅕㄴ	-14755
90	-14756
ㅟㅅ	-14757
▁IMF	-14758
▁ㅇㅠㅇㅣ	-14759
▁ㅊㅓㄴㅅㅜ	-14760
ㅎㅘㄹㅇㅑㄱ	-14761
▁ㄱㅐㄱㅅㅣㄹ	-14762
▁ㄷㅏㄴㅇㅕㄱ	-14763
▁ㅂㅔㅇㄱㅗㄹ	-14764
▁ㅇㅓㄷㅗㅂㅣ	-14765
▁ㅇㅣㅂㅊㅜㄹ	-14766
▁ㅈㅓㄱㅈㅓㅇ	-14767
▁ㅊㅜㄱㅇㅣㄹ	-14768
▁ㅇㅕㄱㅐㄱㄱㅣ	-14769
▁ㅍㅣㄹㅅㅏㅂㅗㄴ	-14770
▁ㅇㅠㄹㄹㅣㅇㅜㅅㅡ	-14771
ade	-14772
▁ㅆㅢㅇㅜ	-14773
▁ㅈㅏㅂㅜ	-14774
▁ㅌㅏㄷㅗ	-14775
ㅌㅡㅁㅏㄴ	-14776
▁ㅂㅗㅇㅠㅈㅏ	-14777
▁ㅅㅏㅇㅣㅇㅓㄴㅅㅡ	-14778
▁ㅆㅣㄴ	-14779
▁Song	-14780
▁ㄱㅗㅈㅔ	-14781
▁ㅅㅓㄱㅓ	-14782
ㅅㅓㄴㄱㅓ	-14783
ㅇㅓㄴㅅㅡ	-14784
▁ㅈㅜㄱㅗㅂㅏㄷ	-14785
▁ㅎㅐㅂㅜㅎㅏㄱ	-14786
▁ㅁㅐㅇㅎㅘㄹㅇㅑㄱ	-14787
▁ㄱㅡㄹㄹㅗㅂㅡㅅㅏㅇ	-14788
▁ㄹㅗㄷㅡㄹㅣㄱㅔㅅㅡ	-14789
▁DB	-14790
ㅏㄷㅡㄹ	-14791
▁ㅋㅐㅊㅣ	-14792
▁ㅍㅏㅅㅡ	-14793
▁ㄹㅗㅁㅏㅇ	-14794
ㄱㅗㄱㄷㅗㅇ	-14795
▁ㅅㅓㅇㅍㅜㅁ	-14796
▁ㅈㅓㅁㅈㅣㄴ	-14797
▁ㅈㅓㅇㅂㅏㄱ	-14798
▁ㅈㅣㄱㅁㅜㄹ	-14799
▁ㅍㅡㄹㅗㄹㄹㅔ	-14800
▁ㄱㅕㅇㅈㅐㅇㅈㅏ	-14801
▁ㅁㅣㄴㅏㅁㅗㅌㅗㄴㅗ	-14802
▁ㅈㅣㅈㅏㅇㅂㅗㅅㅏㄹ	-14803
▁ㅍㅡㄹㅗㄹㄹㅔㅌㅏㄹㅣㅇㅏ	-14804
▁ㄲㅐㅇ	-14805
▁ㄴㅏㅊ	-14806
▁ㅍㅓㅁ	-14807
ㅈㅣㅇㅗ	-14808
▁ㅎㅗㅋㅜ	-14809
▁ㄱㅗㅇㅡㄹ	-14810
▁ㅁㅜㅅㅐㄱ	-14811
▁ㅅㅏㅇㄱㅘ	-14812
▁ㅂㅕㅇㅍㅜㅇ	-14813
▁ㅁㅐㅋㅣㄴㅌㅗㅅㅣ	-14814
▁ㅋㅟㅈㅡ	-14815
ㄷㅐㄱㅗㅇ	-14816
ㅌㅡㅁㅐㄴ	-14817
▁ㄱㅕㅇㅎㅗ	-14818
▁ㄱㅡㅁㅜㄹ	-14819
▁ㅇㅑㄱㅅㅏ	-14820
ㅂㅡㄹㅣㅇㅏ	-14821
▁ㅁㅗㄱㄷㅗㅇ	-14822
▁ㅇㅕㄴㅇㅖㄱㅖ	-14823
▁ㅇㅕㄴㅈㅜㅎㅚ	-14824
▁ㄱㅜㄱㅁㅣㄴㅎㅚ	-14825
▁ㅃㅏㅈㅕㄴㅏㄱㅏ	-14826
▁ㄴㅏㅁㅇㅏㅅㅣㅇㅏ	-14827
ium	-14828
ㄱㅣㅅ	-14829
▁516	-14830
ㄹㅏㅇㅑ	-14831
ㅁㅜㅈㅔ	-14832
▁ㄱㅏㅌㅏ	-14833
▁ㅇㅣㅌㅡ	-14834
▁ㄱㅖㄹㅛㅇ	-14835
▁ㅇㅑㅇㅈㅗ	-14836
▁ㅂㅏㄹㅊㅏㄱ	-14837
▁ㅂㅜㄴㅂㅕㄹ	-14838
▁ㅆㅏㅇㅅㅓㅇ	-14839
ㅂㅜㅅㅣ	-14840
ㅓㅇㅜㅁ	-14841
▁ㅁㅜㅂㅣ	-14842
▁ㅇㅟㄷㅗ	-14843
ㅔㅇㅣㄱㅗ	-14844
▁Heart	-14845
▁ㄱㅣㅎㅐㅇ	-14846
▁ㄴㅗㅂㅜㅇ	-14847
▁ㄷㅗㅇㅈㅏ	-14848
▁ㅅㅡㅌㅐㄱ	-14849
▁ㄱㅡㅁㅅㅐㄱ	-14850
▁ㅇㅗㅅㅡㅋㅏ	-14851
▁ㅇㅚㄱㅛㅂㅜ	-14852
▁ㅇㅣㄹㅅㅓㄴ	-14853
▁ㅈㅜㄴㄷㅗㅇ	-14854
▁ㅈㅏㄹㅣㅅㅅㅜ	-14855
▁ㅊㅏㅇㄹㅣㅂㅈㅏ	-14856
▁ㄱㅡㅁㄱㅏㅇㅅㅏㄴ	-14857
▁ㄱㅡㄴㅂㅗㄴㅂㅓㄴㄴㅚ	-14858
IX	-14859
ㅈㅗㄹㅣ	-14860
▁ㄲㅗㅁㅏ	-14861
▁ㅇㅗㅈㅏ	-14862
▁ㄱㅓㅊㅏㅇ	-14863
▁ㄱㅟㅇㅣㄴ	-14864
▁ㅂㅕㄴㅁㅗ	-14865
▁ㅍㅛㅈㅓㄹ	-14866
▁ㅅㅜㅂㅣㄷㅐ	-14867
▁ㅅㅣㄴㅣㅇㅓ	-14868
▁Windows	-14869
▁ㅅㅐㅇㅎㅘㅎㅏㄱ	-14870
▁ㅋㅡㄹㅣㅅㅡㅌㅣㄴㅏ	-14871
▁ㅌㅠㅂㅡ	-14872
ㅇㅓㅂㅈㅏ	-14873
ㅊㅓㄹㅅㅜ	-14874
▁ㅁㅏㅅㅂㅗ	-14875
▁ㅅㅔㄷㅏㄴ	-14876
▁ㅇㅛㅇㅎㅐ	-14877
▁ㅂㅏㄱㅇㅝㄴ	-14878
▁ㅍㅐㅅㅡㅌㅡ	-14879
▁ㅇㅘㅋㅏㅇㅑㅁㅏ	-14880
ㅛㄹ	-14881
▁As	-14882
ㅂㅏㄹㅣ	-14883
▁ㄴㅏㅁㅏ	-14884
▁ㄷㅐㅌㅏ	-14885
▁ㄹㅏㅍㅡ	-14886
▁ㄱㅓㄹㅍㅡ	-14887
▁ㅇㅕㅇㅁㅣ	-14888
▁ㅈㅓㄴㄷㅏㄴ	-14889
▁ㅇㅣㄴㅈㅣㄷㅗ	-14890
▁ㅁㅗㄱㅈㅓㄱㅈㅣ	-14891
▁ㅇㅔㅇㅣㅈㅓㄴㅌㅡ	-14892
▁ㅌㅡㄱㅂㅕㄹㅂㅓㅂ	-14893
▁Pe	-14894
▁ㅅㅕㅁ	-14895
▁1840	-14896
▁ㄷㅗㄱㅈㅜ	-14897
▁ㅇㅣㅈㅣㄹ	-14898
▁ㅌㅔㄴㅅㅓ	-14899
▁ㅂㅣㄴㅁㅣㄴ	-14900
▁ㅈㅓㄹㅊㅣㄴ	-14901
▁ㅇㅕㅇㅇㅠㄱㅝㄴ	-14902
▁ㅅㅏㅇㅘ	-14903
▁ㅈㅏㅊㅓ	-14904
▁ㅋㅏㅂㅏ	-14905
▁ㅋㅏㅌㅡ	-14906
▁ㄴㅗㅎㅕㄴ	-14907
▁ㅍㅛㅊㅜㄹ	-14908
▁ㅅㅓㄷㅜㄹㅡ	-14909
▁ㅇㅕㄴㅈㅜㅇ	-14910
▁ㅎㅚㅇㄹㅕㅇ	-14911
▁ㅁㅜㄴㅓㄸㅡㄹㅣ	-14912
▁ㅂㅏㅇㅇㅟㄱㅜㄴ	-14913
▁ㅎㅜㅈㅣㅇㅘㄹㅏ	-14914
IF	-14915
▁ㅇㅓㅅㅏ	-14916
ㅇㅣㄹㅊㅣ	-14917
▁ㅈㅏㅎㅐㅇ	-14918
▁ㅍㅜㅇㄱㅣ	-14919
▁ㅎㅡㅇㅇㅝㄴ	-14920
▁Aw	-14921
▁Out	-14922
▁ㅎㅐㅈㅣ	-14923
▁ㄱㅗㄱㅜㄱ	-14924
▁ㅂㅐㄱㅈㅗ	-14925
▁ㅈㅓㅊㅜㄱ	-14926
ㅋㅏㄹㅡㅌㅡ	-14927
▁ㅅㅣㅁㅣㅈㅡ	-14928
▁ㅇㅏㅇㅣㅈㅔㄴ	-14929
▁ㅍㅏㅅㅣㅅㅡㅌㅡ	-14930
▁AMD	-14931
▁ㄴㅏㄺ	-14932
▁ㄹㅐㄹㅣ	-14933
▁ㅅㅡㄱㅣ	-14934
▁ㅈㅏㅊㅟ	-14935
▁ㄱㅣㄹㅣㄴ	-14936
▁ㄷㅏㅇㅣㅇ	-14937
▁ㅇㅠㄱㅗㄹ	-14938
▁ㅇㅠㄴㅎㅠ	-14939
▁ㄴㅔㅇㅣㅌㅡ	-14940
▁ㅅㅗㄴㄴㅣㅁ	-14941
ㅗㄴㅔㅅㅣㅇㅏ	-14942
▁ㅇㅏㄴㅊㅏㅇㅎㅗ	-14943
▁ㅅㅔㅇㅣㄴㅌㅡㄹㅜㅇㅣㅅㅡ	-14944
ㅎㅣㄷㅔ	-14945
▁ㅎㅚㅇㅠ	-14946
ㅅㅜㄷㅏㄴ	-14947
▁ㅂㅣㄱㅌㅓ	-14948
▁ㅇㅏㅁㅅㅜ	-14949
▁ㅇㅝㄱㅅㅡ	-14950
▁ㅈㅣㄴㅈㅜㅅㅣ	-14951
▁ㅅㅣㅁㄹㅣㅎㅏㄱㅈㅏ	-14952
itt	-14953
▁sh	-14954
ㄱㅗㄷ	-14955
▁ㅂㅓㅇ	-14956
ㄱㅜㅅㅡ	-14957
ㅐㅇㅋㅡ	-14958
▁ㅎㅣㅌㅗ	-14959
ㄷㅓㄴㅌㅡ	-14960
▁ㅅㅣㄴㅎㅐ	-14961
▁ㅇㅔㄹㄹㅏ	-14962
▁ㅇㅝㄹㅎㅘ	-14963
▁ㅈㅣㅁㅜㄴ	-14964
▁ㅋㅣㅇㅅㅡ	-14965
ㅋㅡㄹㄹㅗㄴ	-14966
▁ㅂㅏㄴㅇㅣㅂ	-14967
▁ㅅㅣㅁㅈㅓㅇ	-14968
▁ㅍㅏㅈㅜㅅㅣ	-14969
▁ㅎㅔㄹㅡㅁㅏㄴ	-14970
▁ㅈㅣㅈㅣㄹㅎㅏㄱ	-14971
▁ㅍㅏㄹㄲㅜㅁㅊㅣ	-14972
▁ㅂㅜㄱㄱㅡㄱㅈㅓㅁ	-14973
▁ㅇㅕㅇㄷㅡㅇㅍㅗㄱㅜ	-14974
ㅘㄱ	-14975
ㅅㅣㅅ	-14976
ㅎㅜㅇ	-14977
▁ㅍㅣㅊㅓ	-14978
▁ㅊㅗㅇㅡㅁ	-14979
▁ㅎㅏㅅㅏㄴ	-14980
ㅈㅓㄴㅅㅓㄴ	-14981
▁ㅁㅜㅅㅏㅎㅣ	-14982
▁ㅅㅏㄷㅐㅂㅜ	-14983
▁ㅌㅜㄹㅡㅋㅡㅁ	-14984
▁ㄱㅏㅎㅘㄴㅎㅘㄴ	-14985
ㅈㅜㅇㅊㅜㅂㅜㅅㅏ	-14986
ㅓㅎㅏ	-14987
▁ㄹㅗㅈㅣ	-14988
▁ㅂㅗㄹㅠ	-14989
▁ㅇㅝㅅㅡ	-14990
▁ㅍㅣㅋㅡ	-14991
ㅂㅣㅇㅕㄱ	-14992
▁ㅅㅗㅂㅏㄱ	-14993
▁ㄱㅕㅁㅈㅣㄱ	-14994
▁ㄱㅗㅇㅅㅏㅇ	-14995
▁ㄱㅡㄴㅏㅁㅏ	-14996
▁ㅁㅕㄴㅡㄹㅣ	-14997
▁ㅅㅜㄷㅗㅎㅚ	-14998
▁ㅊㅜㄹㄱㅜㄱ	-14999
▁ㄱㅗㅁㅜㄴㅅㅓ	-15000
▁ㄱㅡㄹㄹㅓㅂㅡ	-15001
ㅋㅣㄴㅏ	-15002
▁8000	-15003
▁ㅅㅏㄷㅡ	-15004
▁ㅋㅗㅁㅏ	-15005
▁ㅇㅚㅊㅓㄱ	-15006
▁ㅊㅜㄹㅅㅔ	-15007
▁ㅍㅐㅁㅏㅇ	-15008
▁ㄹㅗㅌㅏㄹㅡ	-15009
▁ㅈㅓㄱㅅㅣㅂㅈㅏ	-15010
▁ㅇㅏㄴㅏㅌㅗㄹㄹㅣㅇㅏ	-15011
▁ㅇㅣㅇㅏ	-15012
▁ㅈㅣㅊㅔ	-15013
▁ㅇㅕㅇㅅㅏ	-15014
▁ㅈㅏㅈㅣㄹ	-15015
ㅈㅏㄱㅈㅓㄴ	-15016
▁ㄱㅝㄴㅇㅣㄱ	-15017
▁ㅅㅏㄴㄴㅏㅁ	-15018
▁ㅋㅓㄴㅂㅔㄴㅅㅕㄴ	-15019
▁ㅂㅣㅅㅡㅁㅏㄹㅡㅋㅡ	-15020
▁ㅍㅗㄹㅡㅌㅜㄱㅏㄹㅇㅓ	-15021
▁Gl	-15022
ㅌㅣㅈㅣ	-15023
▁ㅇㅡㄹㅓ	-15024
▁ㅈㅏㄹㅜ	-15025
▁ㅈㅓㅎㅐ	-15026
▁ㄱㅗㅇㄷㅐ	-15027
▁ㅅㅐㅇㅈㅟ	-15028
▁ㄱㅜㄱㄹㅕㄱ	-15029
▁ㅊㅓㄴㅅㅏㅇ	-15030
▁ㅅㅏㅁㅜㄱㅘㄴ	-15031
▁ㅇㅏㅇㅌㅜㅇㅏㄴ	-15032
▁ㅈㅔㅈㅏㄱㅈㅣㄴ	-15033
▁ㅉㅗㅊㄱㅣ	-15034
▁ㅊㅓㅇㅊㅟ	-15035
▁ㄷㅏㄴㅇㅑㅇ	-15036
▁ㄱㅔㅇㅣㅁㄱㅣ	-15037
▁ㄷㅐㄹㄹㅓㅅㅡ	-15038
▁ㄹㅣㅅㅡㅂㅗㄴ	-15039
▁ㅌㅗㅇㄷㅗㅅㅏ	-15040
▁ㅂㅣㄷㅏㄴㅌㅓㄹ	-15041
▁ㅇㅏㄹㅍㅡㄹㅔㄷㅡ	-15042
able	-15043
ㅋㅜㄹㅡ	-15044
▁ㅁㅏㄱㅜ	-15045
▁ㅅㅏㅅㅗ	-15046
▁ㅇㅠㅎㅘ	-15047
▁ㅈㅣㅇㅛ	-15048
▁ㅋㅏㄹㅔ	-15049
ㅍㅔㄹㄹㅓ	-15050
ㅣㄴㅣㅊㅣ	-15051
▁ㄹㅏㄴㅌㅡ	-15052
▁ㅅㅜㄱㅡㅂ	-15053
▁ㅅㅜㅁㅏㄴ	-15054
▁ㅊㅓㄹㅈㅏ	-15055
▁ㅊㅚㄴㅏㅁ	-15056
▁ㅌㅏㄱㄱㅜ	-15057
▁ㄴㅏㅊㅣㅇㅗ	-15058
▁ㅅㅏㅇㄷㅗㅇ	-15059
▁ㅇㅏㄴㅈㅜㅇ	-15060
▁ㅇㅗㄴㅅㅣㄹ	-15061
▁ㅂㅕㅇㅈㅏㅎㅗㄹㅏㄴ	-15062
▁ㅂㅣㄷㅏㄴㅌㅓㄹㅈㅟ	-15063
ㅏㅇㅔ	-15064
ㄱㅏㅌㅏ	-15065
▁1875	-15066
▁ㅅㅡㅇㅔ	-15067
▁ㄴㅐㄹㅏㄴ	-15068
▁ㅇㅢㅅㅓㅇ	-15069
▁ㅇㅢㅈㅓㅇ	-15070
▁ㄱㅏㅇㅇㅣㄴ	-15071
▁ㄱㅡㅁㅈㅓㅇ	-15072
▁ㄷㅗㄱㅅㅏㄹ	-15073
▁ㅇㅣㅇㅘㅌㅔ	-15074
▁ㅎㅐㅇㄱㅜㄴ	-15075
ㅅㅡㅋㅗㄹㅣㅇㅏ	-15076
▁ㄱㅘㅇㄷㅜㅇㅅㅓㅇ	-15077
▁VS	-15078
▁"()	-15079
ㅅㅡㄹㅔ	-15080
▁ㄹㅏㄷㅏ	-15081
ㄷㅓㄹㅣㅇ	-15082
▁ㅅㅓㅇㄷㅐ	-15083
▁ㅇㅢㅂㅗㄱ	-15084
▁ㅎㅕㄴㄷㅗ	-15085
▁ㅎㅗㄴㅈㅏㅂ	-15086
▁ㄲㅗㅊㅊㅏㄹㅖ	-15087
▁ㄷㅗㄹㄱㅗㄹㅐ	-15088
▁ㅂㅏㄷㅏㅅㅁㅜㄹ	-15089
▁ㅍㅡㄹㅏㅇㅅㅡㅇㅘ	-15090
▁ㅌㅗㄹㅏ	-15091
ㅍㅡㅁㅏㄴ	-15092
▁ㅂㅔㄴㅊㅡ	-15093
▁ㄴㅗㄹㅡㄷㅡ	-15094
▁ㄱㅜㄷㅏㄴㅈㅜ	-15095
▁ㅇㅠㄴㅕㄴㄱㅣ	-15096
▁ㅋㅗㅌㅡㄷㅣㅂ	-15097
▁ㅌㅜㄹㅡㅋㅡㅁㅔㄴ	-15098
▁ㅅㅐㄴㄷㅣㅇㅔㅇㅣㄱㅗ	-15099
▁ㅋㅗㅌㅡㄷㅣㅂㅜㅇㅏㄹㅡ	-15100
▁TS	-15101
▁Gen	-15102
▁ㅅㅜㅍㅓ	-15103
▁ㄸㅏㄱㄸㅏㄱ	-15104
▁ㅁㅗㅈㅏㅇㅣ	-15105
▁ㄱㅘㅂㅏㄴㅅㅜ	-15106
▁ㅇㅖㅂㅣㅇㅕㄱ	-15107
BI	-15108
ng	-15109
ㅈㅣㅈ	-15110
▁708	-15111
▁ㅂㅓㅈ	-15112
▁ㅇㅟㅋㅡ	-15113
▁ㄱㅏㅂㅏㅇ	-15114
▁ㅍㅏㄹㅏㅎ	-15115
▁ㄷㅏㅇㅣㅅㅛ	-15116
▁ㅁㅜㅈㅣㄱㅐ	-15117
▁ㅅㅔㅁㅣㄴㅏ	-15118
▁ㅍㅗㅁㅍㅔㅇㅣ	-15119
▁ㅁㅗㅈㅏㅇㅣㅋㅡ	-15120
▁ㅂㅏㄴㄱㅏㅁㄱㅣ	-15121
▁PL	-15122
▁ㅆㅣㅂ	-15123
ㄱㅜㄹㅣ	-15124
ㅎㅐㅇㅍㅏ	-15125
▁ㄱㅜㄱㅅㅔ	-15126
▁ㄱㅙㄴㅊㅏㄶ	-15127
▁ㅂㅏㅇㅇㅜㄹ	-15128
▁ㅂㅗㄹㅣㅅㅡ	-15129
▁ㅅㅏㅇㅣㅈㅡ	-15130
▁ㅇㅣㅁㅈㅗㅇ	-15131
▁ㅎㅣㅌㅏㅊㅣ	-15132
ㄹㅗㄱㄷㅐㅂㅜ	-15133
▁ㅇㅔㅇㅣㅂㅡㄹ	-15134
ㄱㅕㅂ	-15135
ㅅㅏㅇㅠ	-15136
ㅇㅓㅎㅏ	-15137
▁ㅇㅏㅌㅔ	-15138
▁ㄷㅏㄴㅅㅓ	-15139
▁ㄹㅗㅋㅡㄴ	-15140
▁ㄱㅡㅁㅎㅘㄴ	-15141
▁ㅁㅣㄴㅅㅣㅁ	-15142
▁ㅈㅓㅇㅊㅣㄱ	-15143
▁ㅇㅖㅇㅓㄴㅈㅏ	-15144
▁ㅊㅣㄹㅛㅂㅓㅂ	-15145
▁ㅇㅕㄴㅅㅗㄱㄱㅡㄱ	-15146
▁ㄱㅡㄹㅣㄴㄹㅏㄴㄷㅡ	-15147
ㅢㅈㅏ	-15148
ㅊㅗㄴㄹㅣ	-15149
▁ㄴㅗㅇㄱㅏ	-15150
▁ㄴㅗㅇㅝㄴ	-15151
▁ㅍㅗㅅㅏㅇ	-15152
▁ㅇㅏㅅㅔㅌㅣㄹ	-15153
ㅌㅠ	-15154
son	-15155
▁ㅅㅏㅈㅜ	-15156
▁ㅇㅠㅁㅓ	-15157
▁ㅌㅗㄹㅗ	-15158
ㅈㅐㄷㅏㄴ	-15159
▁ㅅㅜㄱㅅㅗ	-15160
▁ㅇㅔㅂㅗㄹ	-15161
▁ㅋㅓㅂㅅㅡ	-15162
ㅊㅏㄴㅅㅓㅇ	-15163
▁ㄴㅏㄹㅣㅌㅏ	-15164
▁ㅅㅏㄱㄱㅏㅁ	-15165
▁ㅅㅓㄴㅅㅏㅇ	-15166
▁ㅁㅐㄷㅣㅅㅡㄴ	-15167
▁ㅇㅗㄹㄹㅣㅂㅡ	-15168
▁ㄱㅗㄷㅡㅇㄱㅛㅇㅠㄱ	-15169
▁ㄴㅏㅁㅇㅑㅇㅈㅜㅅㅣ	-15170
ㅣㅇㅅㅡ	-15171
▁ㅇㅢㅈㅜ	-15172
▁ㅁㅗㅈㅣㄹ	-15173
▁ㅅㅏㅇㅇㅢ	-15174
▁ㅇㅏㅁㅏㄴ	-15175
▁ㅇㅑㅇㅍㅏ	-15176
▁ㅇㅕㄹㅓㅅ	-15177
▁ㅈㅓㅇㅇㅔ	-15178
▁ㅎㅟㅂㅏㄹ	-15179
▁ㅅㅐㅇㅇㅝㄴ	-15180
▁ㅇㅏㄱㅁㅕㅇ	-15181
▁ㅎㅏㅁㄱㅕㅇㄷㅗ	-15182
▁ㅎㅏㅇㄱㅗㅇㄷㅐ	-15183
ale	-15184
ㄸㅜㅇ	-15185
ㄱㅣㅈㅡ	-15186
ㅌㅏㄴㄷㅜ	-15187
▁ㅇㅓㅅㅓㄴ	-15188
▁ㅇㅛㅇㅈㅣ	-15189
▁ㅊㅜㅊㅜㄱ	-15190
ㄱㅗㅁㅔㄹㅣ	-15191
▁ㅁㅗㄹㄷㅗㅂㅏ	-15192
▁ㅇㅗㄹㅡㄱㅏㄴ	-15193
▁ㅅㅏㅅㅐㅇㅎㅘㄹ	-15194
▁ㅅㅛㅍㅣㅇㅁㅗㄹ	-15195
▁ㅍㅡㄹㄹㅜㅌㅗㄴ	-15196
▁University	-15197
▁JC	-15198
ㅔㅎㅕㄴ	-15199
▁ㄱㅜㅅㅣ	-15200
▁ㄷㅏㄹㅡㅁ	-15201
▁ㄷㅗㅈㅓㄱ	-15202
▁ㅅㅓㄷㅏㅇ	-15203
▁ㅊㅏㅁㅍㅐ	-15204
▁ㅊㅟㅈㅣㄱ	-15205
▁ㅅㅡㅍㅣㅋㅓ	-15206
▁ㅇㅏㄹㅣㄹㅏㅇ	-15207
▁ㅎㅚㄱㅗㄹㅗㄱ	-15208
ㅜㄴㅔ	-15209
ㅋㅣㅇㅗ	-15210
▁ㅇㅜㅁㅏ	-15211
ㅁㅜㄱㅗㅇ	-15212
▁ㄱㅛㄱㅘㄴ	-15213
ㅂㅏㅇㅎㅑㅇ	-15214
▁ㅁㅗㄱㅈㅏㅇ	-15215
▁ㅈㅣㅂㅈㅓㄴ	-15216
ㅎㅐㅂㅏㅇㄱㅜㄴ	-15217
▁ㅅㅓㄴㄱㅓㅇㅣㄴ	-15218
▁ㅅㅣㄴㅅㅓㄱㄱㅣ	-15219
▁ㄷㅚㄷㅗㄹㅇㅏㅇㅗ	-15220
▁ㅊㅣㄴㅎㅘㄴㄱㅕㅇ	-15221
▁ㄹㅏㅇㅣㅂㅔㄹㅣㅇㅏ	-15222
▁ㅇㅣㄴㅁㅣㄴㅎㅐㅂㅏㅇㄱㅜㄴ	-15223
▁ATC	-15224
▁ㅇㅔㅂ	-15225
ㅇㅜㅊㅣ	-15226
▁ㄴㅣㅋㅔ	-15227
▁ㄴㅠㄹㅓㄴ	-15228
▁ㄹㅣㅇㅏㄴ	-15229
▁ㅅㅣㅊㅏㄹ	-15230
▁ㅇㅏㄹㅡㅂ	-15231
▁ㅇㅣㅂㅡㄹ	-15232
▁ㅈㅏㅈㅓㅇ	-15233
▁ㅇㅡㄴㅁㅣㄹ	-15234
▁ㄱㅏㅇㄹㅕㄱㅎㅣ	-15235
▁ㅈㅓㅇㅊㅣㄱㅜㄱ	-15236
▁380	-15237
▁ㄱㅛㅍㅏ	-15238
▁ㅂㅔㄹㅏ	-15239
▁ㅈㅗㅂㅣ	-15240
▁ㄱㅛㅎㅜㄴ	-15241
▁ㄱㅟㅇㅕㅂ	-15242
▁ㄱㅣㄹㄷㅡ	-15243
▁ㅅㅓㅋㅡㄹ	-15244
▁ㅅㅕㅌㅡㄹ	-15245
▁ㅊㅣㄴㅎㅘ	-15246
ㅅㅔㄷㅔㅅㅡ	-15247
▁ㄱㅡㄹㅐㄷㅗ	-15248
▁ㅊㅜㄹㅍㅜㅁ	-15249
▁ㅍㅏㄹㅏㅇㅗ	-15250
▁ㅈㅏㅇㄱㅏㅂㅊㅏ	-15251
▁ㅈㅜㅇㅇㅏㅇㅅㅓㄴ	-15252
▁ㅈㅓㄴㅓㄹㄹㅣㅅㅡㅌㅡ	-15253
▁KTX	-15254
ㅋㅠㄹㅣ	-15255
▁ㄱㅛㅎㅘ	-15256
▁ㅇㅣㅎㅢ	-15257
▁ㅍㅛㅈㅔ	-15258
ㅅㅏㄹㅗㄴ	-15259
▁ㄹㅣㄴㄷㅏ	-15260
▁ㅇㅣㅅㅓㄴ	-15261
▁ㄱㅏㅇㅅㅡㅂ	-15262
▁ㅇㅝㄴㄷㅏㄴ	-15263
▁ㅈㅜㅇㄱㅕㄴ	-15264
▁ㅊㅣㅁㅅㅣㄱ	-15265
▁ㄹㅏㅁㅕㄴㅅㅓ	-15266
▁ㅊㅣㅇㄱㅣㅈㅡ	-15267
▁ㅅㅓㄴㅈㅔㄱㅗㄹ	-15268
▁ㅇㅜㄴㅈㅓㄴㅈㅏ	-15269
▁ㅎㅕㅇㅇㅛㅇㅅㅏ	-15270
▁ㅁㅗㅇㄱㅗㅁㅔㄹㅣ	-15271
▁ㅁㅔㄹㅡㅅㅔㄷㅔㅅㅡ	-15272
▁At	-15273
▁205	-15274
▁Vol	-15275
▁ㅅㅗㄹㅏ	-15276
▁ㄱㅠㅇㅑㄱ	-15277
▁ㅅㅜㅈㅡㅇ	-15278
▁ㅈㅗㅂㅗㅇ	-15279
▁ㄷㅏㄹㅋㅗㅁ	-15280
▁ㅂㅕㄴㅈㅡㅇ	-15281
▁ㅎㅑㅇㅅㅣㄴ	-15282
▁ㅎㅏㅂㅅㅓㅇㅇㅓ	-15283
▁ㅋㅕ	-15284
ㅋㅜㅅㅏ	-15285
▁ㅌㅓㄴㅓ	-15286
▁ㅅㅣㄹㅅㅏㅇ	-15287
▁ㅍㅛㅌㅡㄹㅡ	-15288
▁ㅋㅗㄴㄹㅏㅌㅡ	-15289
▁ㅅㅏㅎㅏㄹㄹㅣㄴ	-15290
▁ㄴㅏㅁㄱㅡㄱㅈㅓㅁ	-15291
▁ㅅㅓㅇㅍㅗㄱㅎㅐㅇ	-15292
▁GR	-15293
▁WC	-15294
ㅎㅣㅁㅔ	-15295
▁ㅂㅏㅃㅡ	-15296
▁ㅍㅣㅅㅏ	-15297
ㅁㅗㅇㅡㅁ	-15298
ㅂㅗㄷㅏㅇ	-15299
ㅍㅔㅇㅣㄴ	-15300
ㅣㄷㅣㅇㅓ	-15301
▁ㄱㅜㄱㅂㅜ	-15302
▁ㄱㅣㅍㅏㄴ	-15303
▁ㅇㅙㄱㅜㄴ	-15304
▁ㅋㅗㄹㄹㅣ	-15305
▁ㅎㅐㅇㅂㅗ	-15306
▁ㅎㅣㄹㅗㅇ	-15307
▁ㅂㅏㄴㄹㅗㄴ	-15308
▁ㅇㅐㄹㅣㅈㅗ	-15309
▁ㅇㅑㅁㅏㄷㅏ	-15310
▁ㅇㅣㄹㅁㅕㅇ	-15311
▁ㅈㅣㅇㅈㅣㅂ	-15312
▁ㅎㅗㅎㅡㅂㄱㅣ	-15313
▁ㅇㅓㅅㄱㅏㄹㄹㅣ	-15314
▁ㄱㅘㄴㅇㅡㅁㅂㅗㅅㅏㄹ	-15315
▁Par	-15316
▁ㄱㅣㄱㅗㅇ	-15317
▁ㄷㅡㄹㄹㅡ	-15318
▁ㅅㅓㄴㅊㅔ	-15319
▁ㅇㅚㅎㅏㄹ	-15320
▁ㅊㅓㅂㅂㅗ	-15321
▁ㅎㅓㄴㅏㄴ	-15322
▁ㅇㅣㄴㅅㅡㅇ	-15323
▁ㅍㅏㅅㅡㅋㅏㄹ	-15324
ㅋㅡㄹㅏㅌㅔㅅㅡ	-15325
▁ㄷㅏㅁㄷㅏㅇㅈㅏ	-15326
▁ㅇㅔㄱㅅㅡㅂㅏㄱㅅㅡ	-15327
▁ㄱㅠㅇㅠㄹ	-15328
▁ㅈㅏㅈㅏㅇ	-15329
▁ㄷㅡㅇㅅㅏㄴ	-15330
▁ㅅㅜㄱㄹㅕㄴ	-15331
▁ㅈㅜㅇㅇㅣㄹ	-15332
▁ㅈㅣㄱㄹㅕㄹ	-15333
ㄹㅡㄴㅂㅔㄹㅡㅋㅡ	-15334
▁235	-15335
▁ㅇㅠㅋㅏ	-15336
▁ㅌㅗㅍㅣ	-15337
▁ㄹㅔㄱㅅㅡ	-15338
▁ㅁㅏㄹㅡㄱ	-15339
▁ㅅㅏㄱㅏㄱ	-15340
▁ㅅㅏㅇㄱㅖ	-15341
▁ㅇㅑㅇㅅㅜ	-15342
▁ㅎㅔㅅㅔㄴ	-15343
▁ㅇㅣㄴㅁㅓㄴ	-15344
▁ㅂㅗㅎㅗㅂㅓㅂ	-15345
▁ㅂㅜㄹㄱㅏㅍㅣ	-15346
▁ㅇㅛㄹㅣㅌㅗㅁㅗ	-15347
▁ㅎㅏㄱㅅㅜㄹㅈㅣ	-15348
▁ㅇㅏㄴㄷㅡㄹㅗㅁㅔ	-15349
▁ㅈㅣㅎㅏㅊㅓㄹㅇㅕㄱ	-15350
ㅁㅔㄹ	-15351
ㅈㅏㄷㅡ	-15352
▁ㅇㅑㅋㅜ	-15353
▁ㅍㅣㅈㅣ	-15354
▁ㄷㅔㅇㅣㄹ	-15355
▁ㄹㅏㅅㅡㅂ	-15356
▁ㅅㅣㄴㄷㅐ	-15357
▁ㅅㅣㄴㅅㅣ	-15358
▁ㄷㅔㅇㅣㅌㅡ	-15359
▁ㅂㅏㅇㅣㅇㅓ	-15360
▁ㅅㅏㅇㅅㅣㄱ	-15361
▁ㅅㅣㅀㅇㅓㅎㅏ	-15362
▁ㅌㅗㅇㄱㅖㅊㅓㅇ	-15363
▁ㅁㅣㅅㅡㅋㅗㄹㅣㅇㅏ	-15364
▁DOS	-15365
▁ㅁㅗㅍㅣ	-15366
[...]
