[PAD]
[UNK]
[BOS]
[EOS]
[CLS]
[SEP]
[MASK]
▁▃
▁이
▁하
▁.
▁에
▁다
▁의
▁는
▁ᆫ
▁,
▁을
▁은
▁가
▁1
▁으
▁고
▁되
▁아
▁를
▁었
▁지
▁년
▁로
▁으로
▁에서
▁2
▁있
▁대
▁어
▁았
▁기
▁사
▁그
▁시
▁도
▁일
▁과
▁ᆫ다
▁들
▁수
▁전
▁적
▁자
▁여
▁와
▁20
▁부
▁월
▁주
▁제
▁19
▁라
▁정
▁ᆯ
▁보
▁중
▁위
▁인
▁였
▁공
▁나
▁경
▁개
▁세
▁게
▁것
▁오
▁유
▁3
▁"
▁조
▁선
▁스
▁등
▁성
▁마
▁만
▁미
▁연
▁동
▁상
▁소
▁서
▁구
▁한
▁모
▁비
▁V
▁영
▁국
▁발
▁면
▁며
▁으며
▁201
▁'
▁4
▁관
▁후
▁명
▁신
▁프
▁5
▁역
▁때
▁200
▁장
▁-
▁던
▁방
▁거
▁교
▁바
▁리
▁문
▁해
▁차
▁내
▁생
▁우
▁당
▁무
▁원
▁통
▁계
▁현
▁노
▁분
▁남
▁군
▁포
▁화
▁6
▁또
▁않
▁까
▁학
▁작
▁결
▁까지
▁같
▁강
▁출
▁파
▁에게
▁진
▁대하
▁크
▁받
▁단
▁최
▁번
▁7
▁반
▁불
▁10
▁8
▁데
▁알
▁위하
▁배
▁호
▁두
▁회
▁안
▁초
▁실
▁카
▁형
▁지만
▁예
▁말
▁재
▁따
▁없
▁부터
▁타
▁사용
▁종
▁9
▁음
▁미국
▁라고
▁특
▁요
▁이후
▁라는
▁설
▁함
▁면서
▁일본
▁코
▁운
▁레
▁산
▁는데
▁행
▁권
▁감
▁활
▁독
민국
▁더
▁대한
▁추
▁베
▁다음
▁왕
▁처
▁피
▁태
▁김
▁지역
▁평
▁대한민국
▁양
▁매
▁민
▁199
▁그리
▁으나
▁및
▁입
▁건
▁많
▁참
▁12
▁따르
▁경기
▁간
▁18
▁목
▁승
▁드
▁가지
▁열
▁다고
▁프로
▁대학
▁다른
리아
▁;
▁속
▁M
▁의하
00
▁총
스트
▁야
▁북
▁S
▁집
▁외
▁)
or
▁법
▁트
▁변
▁체
▁11
▁때문
▁물
▁각
▁메
▁시작
▁천
▁표
▁직
▁시키
▁임
▁달
▁올
▁본
▁ᄆ
▁토
어나
▁그러
▁저
▁점
▁사람
▁쓰
▁&
▁A
▁(
▁팀
▁선수
▁함께
▁아서
▁또한
▁박
▁한국
▁치
어지
▁투
▁청
▁항
▁브
▁세계
▁영화
▁약
▁버
▁사이
▁광
▁새
▁자신
▁C
▁디
la
▁용
▁판
▁국가
▁네
▁경우
▁통하
▁루
▁기록
▁T
▁복
▁f
▁F
▁축
▁현재
▁하나
시아
▁I
▁아니
▁이름
▁존
▁편
▁활동
▁198
▁다는
▁확
▁삼
▁당시
▁위치
▁가장
▁철
주의
▁_
▁보이
▁조선
▁학교
▁이나
▁리그
▁만들
▁뒤
▁필
▁그러나
▁15
▁증
▁플
▁금
▁살
▁페
▁합
▁째
▁for
▁테
▁언
▁대표
▁심
▁백
▁애
▁창
mu
레이
▁역사
▁식
mula
▁연구
▁formula
▁16
▁근
▁병
▁못
▁프랑
▁또는
부터
▁니
▁그리고
▁/
▁사회
▁황
▁규
▁돌
▁D
▁시즌
▁0
▁m
▁충
▁순
▁17
▁패
▁어서
▁클
▁[
▁첫
▁]
▁B
▁197
▁러
▁보다
▁히
랜드
▁완
▁이루
▁중국
▁다시
▁못하
▁협
▁높
▁시대
▁알리
▁길
▁정부
▁프랑스
▁:
▁서울
▁K
▁채
▁영국
학교
▁도시
▁키
▁는다
▁k
▁전쟁
▁배우
▁뜻
▁여러
▁포함
▁문화
▁196
▁독일
▁아이
▁14
▁로서
▁죽
▁~
▁대회
er
▁다가
▁별
▁취
▁축구
▁g
▁13
▁P
▁뉴
▁정치
▁허
▁가능
▁위원
▁곡
▁모두
in
▁환
▁친
▁모든
▁동안
▁손
▁감독
▁문제
▁이상
▁방송
▁구성
▁논
▁194
▁개발
▁L
▁l
▁석
▁일부
▁지방
▁사건
▁처음
▁제작
▁대학교
▁캐
▁검
▁%
▁국제
▁인하
▁작품
▁농
▁관계
라이
▁터
▁이용
▁골
▁세기
▁시간
▁게임
▁끝
▁씨
▁일반
▁교육
▁G
▁N
▁부르
▁존재
▁인구
▁운동
▁향
▁날
▁밀
▁폭
▁급
▁티
▁쿠
▁정도
▁주장
▁음악
▁나오
▁즉
▁gt
▁곳
▁효
▁앞
니아
▁섬
▁려
on
▁km
▁경제
▁195
▁접
▁중심
▁육
▁나타
▁이러
리스
▁거나
▁lt
▁극
▁R
▁맡
▁U
▁선거
▁절
▁전투
▁귀
▁맞
▁30
▁블
▁민주
▁발견
통령
▁기술
▁H
화국
▁담
부분
▁누
▁E
▁슈
▁측
▁봉
▁도록
▁홍
▁막
▁발표
▁글
▁갖
▁결과
▁암
▁구조
▁올림
이스
▁영향
▁태어나
▁케
▁책
▁아들
▁엔
▁사망
▁의미
▁2010
▁우승
▁공격
▁로부터
▁ㄴ
▁대통령
▁들어
▁과정
▁줄
▁잘
▁대부분
an
▁라이
▁질
▁걸
▁헤
▁올림픽
▁관련
▁송
▁밝
▁불리
▁새롭
▁여기
000
▁지원
▁프로그
▁앨
▁열리
리카
▁업
▁발생
▁잡
▁참여
▁193
▁머
▁유럽
▁진행
▁준
▁중앙
▁범
지만
▁행정
▁최초
란드
▁독립
20
▁c
▁얻
▁자유
▁25
▁W
▁부분
▁결정
▁설립
▁특히
▁제국
▁형태
▁고등
▁악
▁발매
▁다양
▁폐
▁세우
▁탄
▁당하
▁상태
▁하지만
▁팔
나라
▁ᆫ다는
▁탈
▁속하
▁설치
▁이전
버지
▁온
▁같이
▁러시아
▁벌
▁스타
▁2008
▁소속
▁좌
▁사실
▁아야
▁초등
▁침
▁센
▁좋
디오
▁21
우스
▁커
▁르
▁그녀
▁일어나
▁로마
▁타이
▁으로서
▁조직
▁프로그램
▁나라
▁인민
▁이것
▁참가
▁생각
▁여성
▁폴
▁등장
▁정보
▁주로
▁2011
▁갈
▁2012
▁필요
▁싱
▁혼
▁이탈
▁주요
▁관리
▁운영
▁출신
▁기준
▁생산
▁계획
en
▁2009
▁100
▁기관
▁윤
▁중요
▁위원회
▁2014
▁란
▁보내
▁지정
▁2007
▁여자
▁오르
므로
▁상대
▁음반
▁t
▁성공
▁바이
▁이르
▁계속
▁시절
▁데이
▁국민
▁콘
▁a
▁지나
▁O
▁데뷔
▁매우
▁2013
▁철도
▁넘
▁레이
▁밝히
▁과학
▁대전
리즈
▁사업
▁시스
▁해당
▁발전
he
▁생활
▁이탈리아
▁뿐
▁방법
프트
▁칼
▁고려
스터
▁아버지
▁몇
▁자리
▁묘
▁찾
▁191
▁생애
▁초기
▁2015
라마
▁23
▁2018
▁24
ar
▁억
▁월드
▁내용
이션
▁쇼
레스
▁처럼
▁능
▁헌
▁앨범
▁000
▁얼
▁차지
▁출연
▁2016
▁지내
▁최고
▁인도
▁후보
▁그룹
남도
▁빌
▁시리즈
▁돌아
▁결국
▁마이
▁평가
▁관하
르크
▁J
es
▁엘
▁아래
▁22
▁우리
▁전체
▁회사
▁그리스
▁빠
▁이유
▁방식
▁떨
이트
▁2006
FA
▁이루어지
▁격
▁한편
▁고등학교
▁인간
▁나가
▁ᆫ다고
비아
▁수상
▁풍
▁스페
▁192
▁거치
▁2017
▁분류
▁힘
▁인터
▁연합
▁시기
▁공식
▁층
▁개요
▁항공
▁제공
▁드라마
▁역할
▁의원
▁시스템
▁컴
운데
▁정의
▁많이
▁기업
▁군사
▁제도
▁조사
▁희
▁잠
▁가운데
▁류
▁워
▁몸
▁출전
▁유명
▁민족
▁기능
▁교회
▁반대
▁거의
▁퍼
▁나타나
▁s
▁으로써
▁놓
▁지구
▁색
비스
▁텔
▁둘
▁쓰이
▁울
▁푸
▁현대
▁언어
▁표현
▁떠
▁응
▁대신
▁유지
▁목록
▁몰
▁느
▁개인
▁달리
▁녹
▁대상
▁으로부터
▁홈
▁특별
▁이론
▁동시
▁웨
▁26
at
▁자연
▁규모
▁!
▁모습
야기
▁올리
▁프리
▁공개
▁노동
▁이미
▁야구
▁마지
▁지도
▁연결
▁승리
▁28
▁어야
▁2019
▁진출
▁들어가
▁27
▁졸
▁단체
▁각각
▁밖
▁정책
▁전하
▁브라
▁인정
▁목적
▁특징
▁상황
▁붙
▁산업
▁인물
▁뛰
▁핵
▁시장
▁2000
▁2005
▁마지막
▁기원
▁플레이
▁수도
▁난
▁아르
▁임명
▁족
▁메이
▁전문
▁이야기
▁떨어지
▁너
▁습
▁기간
북도
▁샤
▁눈
▁먹
▁멀
머니
▁직접
▁구역
▁혁
al
ic
니다
▁모델
스크
▁경상
▁압
▁서로
▁계약
▁슬
▁오스트
▁밴
▁추가
▁건설
▁으면
▁공동
▁개최
▁콜
▁FC
▁2004
BS
▁망
▁경찰
▁형성
▁공간
▁사상
▁결혼
▁건물
▁자동
▁노선
▁변화
▁그것
▁기타
▁50
▁활약
▁스페인
▁훈
▁거리
▁TV
▁31
▁노래
▁변경
▁부산
학자
▁국회
▁가리
▁29
▁교수
▁칸
▁나이
is
▁졸업
으키
▁공화국
it
▁완전
▁텔레
▁b
▁벨
re
▁마을
▁궁
▁다르
▁인민공
▁경력
▁인민공화국
▁클럽
▁사랑
비전
▁휴
▁비롯
▁흐
▁역시
이드
▁2020
▁190
▁낮
▁비판
▁서비스
▁ㅏ
▁학생
▁맥
ou
▁실제
▁볼
▁지지
▁최대
거리
운드
▁소설
▁요구
▁보통
▁견
▁만나
▁겠
▁보호
▁잉
▁따라
▁지금
▁가수
▁중학교
프리카
대로
▁우주
▁론
▁기본
▁중화
▁싸
▁의회
▁탑
▁종교
▁전국
▁다이
▁일으키
▁X
▁자기
▁차이
▁지하
▁판매
▁없이
▁딸
▁싱글
▁겸
▁실시
▁전통
르트
▁혹
▁시설
▁황제
▁옥
역시
▁퇴
▁밴드
▁엄
▁높이
▁기반
너지
▁원래
▁떠나
▁탐
▁2002
▁어떤
▁세력
▁버리
▁운행
로스
▁명칭
▁환경
▁교통
▁내리
▁가족
▁자료
▁설명
▁40
▁경기도
▁소련
▁뮤
스탄
▁월드컵
▁전기
▁센터
▁이끌
▁공연
▁2003
▁수행
▁회의
▁그래
▁풀
▁애니
▁전자
▁승강
러스
▁모양
▁부대
▁도쿄
▁컵
▁분야
▁기독
▁예술
▁기념
▁이동
▁통합
▁교황
▁득
▁나타내
나다
▁사고
▁걸치
mp
▁도입
▁텔레비전
le
▁작업
▁행동
▁남자
▁동물
▁연방
▁염
▁선정
▁차량
▁능력
▁따라서
▁소프트
▁작용
▁출시
▁바로
▁문학
▁숙
▁=
▁할
스타
▁군대
의원
들이
▁증가
▁기독교
▁행위
▁형식
▁전라
▁방향
▁기존
▁도로
▁확인
▁지휘
▁넓
▁작가
▁남쪽
▁효과
▁혁명
▁국내
▁십
▁과거
▁북쪽
▁작곡
▁이때
▁착
▁제외
▁그렇
▁비슷
▁승강장
▁옮
▁빈
▁강하
▁FI
▁므로
▁런
▁지배
▁챔
▁컴퓨
▁주변
▁윌
▁어머니
▁낙
▁마르
▁왕국
▁캐나다
▁몽
▁종류
▁거두
▁태양
▁열차
▁마다
▁사무
▁유일
▁비교
▁갑
▁정당
▁역임
▁뉴욕
▁옮기
▁이적
▁남부
리오
BC
▁흥
▁링
▁솔
▁협회
▁적용
▁혹은
▁스포
▁공산
▁베이
▁생기
▁물리
▁반응
▁성장
▁흔
자리
▁추정
▁담당
▁챔피
▁시민
▁건축
▁동일
▁개념
▁이사
▁즈
▁1990
▁육군
▁대사
▁장관
▁이어지
▁홀
▁어리
▁늘
▁갖추
▁2001
▁인기
▁획
▁스트
▁세포
▁버스
▁넣
▁징
▁맨
▁윈
▁컴퓨터
▁동쪽
메이션
▁공사
▁데이터
드리
▁오늘
▁멤
▁구간
▁p
▁쪽
▁품
▁ᆫ데
▁디자
▁에너지
▁곧
▁마음
▁사단
▁상당
▁연기
▁예정
▁크기
▁움
▁액
▁조지
▁돈
▁작전
▁흑
▁조건
▁민주주의
이지
▁바르
▁비하
▁189
▁차례
▁실패
▁잔
▁록
▁바꾸
▁서쪽
▁이라
▁버전
▁자체
▁칭
▁FIFA
▁애니메이션
▁율
▁어느
▁땅
▁수록
▁d
▁충청
▁치르
▁컨
▁특정
▁선언
▁이런
▁고대
▁돌아오
▁덕
▁연주
▁체제
카이
▁부족
▁연속
▁쌍
▁쉽
▁방영
버스
▁피해
▁선택
▁페르
▁익
▁결승
▁가리키
▁내부
▁멤버
▁국립
el
▁규정
▁해군
▁공항
▁개혁
가지
▁대체
et
루스
▁아시아
▁정신
▁속도
▁다루
▁조약
웨어
▁단계
▁대구
라지
▁북부
▁헌법
▁최종
▁왜
▁명령
ion
▁연대
글랜드
▁ㅓ
▁기원전
▁포르
▁선출
▁영어
▁분석
▁는지
▁가치
▁지명
▁자치
▁크리스
▁설계
▁옛
▁휘
▁인천
트남
▁물질
▁치료
▁로스
▁출판
▁입단
▁최근
▁먼
▁친구
▁쥐
▁체계
ing
▁의사
▁논란
▁소비
▁관할
▁달러
▁나누
▁강화
▁비행
▁척
시마
▁ᆫ지
▁밤
▁더욱
아가
▁집단
▁평균
▁롭
▁가깝
▁팬
▁북한
▁대중
▁1999
ol
메리카
▁스포츠
▁표준
▁후반
라스
▁술
▁배치
21
▁엔진
▁법원
▁잉글랜드
▁제품
▁곤
▁언급
▁부문
▁하이
널리
▁관심
▁현상
▁1998
▁Y
▁실험
▁파이
▁머리
▁헬
▁챔피언
▁함수
▁남기
▁조정
▁o
▁벤
▁개월
▁예선
▁확장
스코
▁스테
▁씩
▁겨
▁획득
▁공원
▁1980
▁유사
▁선발
▁요소
▁분리
▁처리
▁주도
▁부상
▁지속
▁목표
▁배경
디어
▁재판
▁cm
▁지니
▁통일
▁60
▁하계
▁자동차
▁베르
▁문자
▁고자
▁주민
▁맺
▁소유
▁35
▁편성
▁유래
▁시도
▁이해
리지
▁정규
▁마리
▁구단
▁외국
▁어렵
▁장군
▁도움
▁빠르
▁에스
▁파리
▁향하
▁이어
▁주인
▁거주
▁시험
▁점령
▁나무
▁꽃
▁미치
▁공립
▁행사
▁기사
▁디자인
▁요시
▁원자
▁려고
▁앙
▁통신
▁mm
▁원인
▁네덜
▁네덜란드
▁언론
▁괴
▁책임
▁안정
▁다면
▁바뀌
▁가르
▁학자
▁스럽
▁캠
▁잃
▁결합
▁동맹
▁투표
▁n
▁웹
▁준비
▁수준
▁사령
▁본선
▁혈
▁베트남
▁개봉
▁장치
▁불교
▁고속
▁ᄇ
▁일종
▁앤
▁끌
▁아프리카
▁용어
광역시
om
▁모르
▁듯
젝트
▁알렉
▁은퇴
▁깊
▁불구
야마
▁잇
▁성적
▁끝나
▁덴
▁1997
▁다니
▁촉
▁구분
나무
일랜드
▁비디오
▁길이
▁제조
▁빛
▁아마
▁방문
▁문서
▁칠
▁정하
▁사진
▁정권
▁유전
▁요리
▁가정
▁광주
▁신문
▁몬
▁가문
▁대로
st
▁해석
▁믿
▁경험
▁폴란드
▁정리
▁드러
▁amp
▁평화
▁정확
▁그림
▁일제
▁핀
▁The
▁1996
▁왕조
▁1995
▁오늘날
▁서식
▁32
메달
▁분포
▁찬
▁추진
▁면적
▁통과
▁프로젝트
▁입장
▁방어
▁경영
▁부인
▁슈퍼
▁런던
▁려는
▁멸
▁종합
스턴
▁70
▁아직
▁ㄹ
▁민주당
▁값
▁부여
▁만화
▁경쟁
▁통치
▁깨
스로
인트
▁병원
▁인터넷
▁신라
▁발달
▁경기장
▁영역
▁프레
▁올라
▁주제
특별
▁이곳
▁폐지
▁노력
▁널리
▁끼
▁훈련
▁츠
▁부정
▁500
▁으므로
▁보도
웨이
▁그런
▁미사
▁파괴
▁이듬
▁놀
▁총리
레일
▁생물
am
아들이
▁미술
▁죽이
▁제주
▁제안
▁서부
▁꼬
▁국회의원
▁도서
▁the
▁80
▁회장
▁지키
▁복귀
▁철학
▁식민
리트
▁번호
라인
▁모으
▁법률
▁빅
▁외교
▁기여
▁야마
▁정상
▁삼성
▁완전히
▁세대
▁궤
▁요청
▁188
▁접하
▁주연
▁행성
▁남성
▁무기
▁동부
▁라디오
▁이듬해
▁소재
▁경계
▁UE
▁인식
▁1970
▁자주
▁연맹
il
▁+
▁무대
▁투수
▁ᄇ니다
▁수용
▁금지
▁등록
▁폰
▁1994
▁움직
▁제한
▁벌이
▁린
▁UEFA
▁돕
▁아시
톨릭
▁나뉘
▁지진
▁업무
▁표기
ac
▁접근
▁연구소
▁발사
▁영토
▁더불
▁뇌
▁노르
▁펼
▁박물
▁지도자
▁바탕
▁빠지
▁다리
▁결성
▁성격
머지
▁득점
▁나머지
▁스스로
▁거부
▁KBS
▁조각
▁상호
▁지대
▁반면
▁뉴스
▁아일랜드
▁수학
▁ㅕ
▁강원
▁정식
▁오래
▁트리
▁돌아가
▁오스
▁의식
▁받아들이
▁보수
▁은행
▁주의
▁펜
▁기초
▁벽
▁이기
▁필리
▁소리
▁마찬
▁마찬가지
ro
▁이렇
▁1992
▁붙이
▁캐릭
▁가톨릭
▁공작
토리
▁굴
▁임시
시코
▁다수
▁아카
▁스웨
▁45
▁바다
▁짧
▁박사
▁화학
▁아도
요일
▁장애
▁패배
임스
▁검사
▁해결
▁죽음
▁장소
▁차트
ed
▁36
▁브라질
워드
▁차원
▁실제로
▁로써
트리
모토
▁에이
▁그대로
▁of
▁이스
▁초대
▁박물관
▁긴
▁습니다
▁활용
▁마이크
▁느끼
▁유니
▁총선
▁스위
▁카드
▁유로
▁캐릭터
▁관측
▁윌리
▁기구
▁계열
▁여행
▁순위
▁식물
▁안전
▁묘사
▁인사
▁오브
▁강력
▁표시
▁지리
▁제시
▁단순
▁집합
▁1960
▁소프트웨어
▁일정
ig
▁무역
▁이외
로나
▁권력
▁여름
▁파일
▁멕
▁연극
▁스웨덴
▁회원
▁1991
▁기계
▁디지
▁지적
부르크
▁위험
▁뛰어나
▁삶
▁오스트리아
▁꾸
▁반란
▁싸우
▁히로
레일리아
▁먼저
▁붕
▁1993
▁조성
▁33
▁발행
▁취하
▁형제
▁중간
▁관광
▁기자
▁개국
▁자라
▁만큼
▁근처
▁중단
▁흡
▁협력
▁시행
▁스코
▁뮤직
▁기획
▁여객
베이
트로
▁지하철
소년
▁도착
▁량
▁외부
▁스튜
▁투자
▁사이트
사카
▁다만
▁ᆫ가
▁소개
od
배우
▁윈도
▁렌
▁번역
워크
나이
▁코드
▁단어
▁띠
▁전시
▁",
▁죄
버트
▁연장
▁유형
▁태평
니스
▁186
ve
▁해안
▁하루
특별시
▁카이
▁후기
▁들어오
▁성립
as
▁확대
▁세상
▁혜
▁근거
▁이라고
▁서울특별시
▁상징
▁혐
▁파견
▁오스트레일리아
▁공장
▁본부
▁위기
▁보유
▁내각
무원
▁수많
▁기후
▁제기
▁겪
▁생성
주시
▁케이
▁양식
▁감소
▁네트
▁다카
▁내려
▁지식
▁옹
▁보존
▁?
▁극장
▁수사
지션
▁지상
▁균
▁전략
▁멜
▁촬
▁듣
▁귀족
▁윌리엄
▁유대
▁특수
▁경상남도
▁래
▁구하
▁상업
▁멕시코
▁달성
▁특성
▁경상북도
▁h
▁대응
▁1988
▁숨
▁출생
▁187
▁영상
▁원소
▁완성
▁유리
▁캘
▁동생
▁디지털
▁단위
▁미래
▁촬영
▁님
▁당선
▁이렇게
▁이슬
▁촌
▁계승
▁학위
아시아
▁시티
▁체포
▁싶
▁34
티아
▁짓
▁근무
▁식민지
▁타이틀
가리
▁젊
▁이란
▁종목
회사
▁률
▁전달
▁권리
▁자본
▁생명
▁38
▁수비
▁마치
id
▁흐르
아내
▁이집
▁코치
▁이집트
▁체결
▁시청
▁듀
▁옆
▁측정
▁설정
▁판단
▁나중
▁직후
▁90
▁승격
▁소수
▁마사
▁몇몇
▁정치인
가와
▁2021
▁맹
▁문화재
▁크로
▁알렉산
▁대륙
▁48
▁벌어지
▁라인
▁주식
▁걸리
▁국왕
모리
▁전환
▁1989
▁채널
▁틀
▁낳
▁아내
▁1950
▁개정
▁스키
▁도서관
▁이주
▁헨
▁관찰
▁미군
▁발매되
▁즐
NA
▁본관
us
▁펼치
▁맞추
▁톤
▁의견
ec
▁신경
▁개통
▁세르
▁포르투
▁청년
▁녹음
▁지위
▁답
▁엘리
▁시위
▁납
▁밑
▁홍콩
▁제정
▁주어지
▁결승전
▁텍
▁해외
▁얼마
▁',
▁은하
▁종료
▁취임
▁헝
▁셰
and
▁새로
▁동계
▁미사일
▁범죄
▁즉위
▁주인공
▁쌓
▁계산
디아
▁사회주의
▁교체
▁상하
▁음식
▁예수
스티
▁충돌
▁후쿠
▁아키
▁신학
▁300
코드
ad
▁남북
▁천황
▁셀
▁달하
▁장기
▁e
교회
▁전차
▁아라
▁으면서
▁개선
▁주목
▁빼
▁비용
▁MBC
▁자격
▁수정
▁사후
▁춘
▁제임스
▁바이러스
▁벗
▁원정
▁|
▁건강
▁았었
▁공급
▁스티
▁계기
▁1945
▁본래
▁비밀
▁소장
▁모이
ent
전히
▁가격
▁네트워크
스카
▁궤도
▁명단
▁공부
▁전라남도
▁심리
▁컬
▁펠
▁누구
▁부모
▁합류
▁라운드
▁제거
▁자원
▁이래
▁카운
▁농업
▁홈런
▁랑
▁명예
▁건너
▁객
▁체육
▁성우
▁집중
▁거대
▁각종
▁시내
50
보이
▁감염
▁롤
▁입학
▁에드
▁증명
▁털
▁오후
▁작성
▁가입
▁인근
▁천문
▁군인
▁읽
▁전사
▁소송
▁국경
▁이슬람
▁저항
▁ㅏㅆ
▁베네
▁피하
▁학문
▁공군
▁측면
피아
티나
▁미디어
▁통제
베르
▁강조
▁왼
▁피아
▁병력
라도
▁터미
▁인수
▁신호
동안
▁아우
▁세이
▁울산
▁블랙
▁이번
▁찰
▁줄이
▁터키
▁광고
▁플로
▁실행
▁태평양
▁St
리포
▁너무
▁질량
▁해방
▁만약
ot
▁콩
▁변호
▁포지션
▁엑
▁기회
▁아무
▁정착
▁병사
▁나서
▁쇠
니어
▁무장
도로
▁냉
▁겨울
▁오른
▁최소
▁터미널
▁노동자
▁전반
▁제목
철도
▁금융
▁쉬
▁x
un
드로
▁약간
▁몽골
▁강원도
▁유도
▁편집
▁마리아
▁바람
▁37
ow
▁국방
▁마쓰
▁in
▁잎
▁고전
▁사례
▁전개
▁환자
▁사라지
▁바라
▁혐의
스키
▁ᆫ다면
▁지점
▁재산
▁도중
▁허용
▁표면
▁마련
▁근대
소리
▁카르
오카
▁재정
▁합병
▁충분
▁인디
▁밀도
▁무렵
▁가스
▁이하
▁힐
▁학년
▁헝가리
▁ㅕ서
▁전력
▁1987
▁오리
▁비트
▁오사카
▁민간
▁윈도우
▁빨
▁선수단
▁현실
▁라이브
▁여전히
▁포르투갈
▁유엔
▁보고
▁붕괴
ra
▁등급
▁계급
▁전역
▁뒷
▁킹
▁샌
▁가져
▁그해
▁루이
▁양성
▁범위
▁w
▁대수
▁41
▁령
▁숲
▁원칙
▁재직
마크
▁51
▁강제
▁조치
▁공공
▁후지
▁엔터
▁적극
▁꼬리
▁성질
▁위협
▁수입
▁행하
▁충청남도
▁동료
▁1986
▁공주
▁군주
▁임무
▁온도
▁이미지
▁전선
▁업체
▁논문
▁영화배우
▁스튜디오
▁토론
▁1984
▁대대
▁캘리포
▁위원장
▁이제
▁승인
▁공업
▁클라
▁대학원
▁봄
▁양자
▁구축
▁거래
▁위성
▁꿈
▁고구
▁수립
▁교사
▁출발
▁회복
▁잭
▁점차
▁수단
▁확보
▁섭
▁성인
▁항상
테르
▁다섯
▁신화
▁앞서
▁핀란드
▁역대
▁필리핀
▁둥
▁캘리포니아
▁공산당
▁드래
▁아시안
▁증거
러지
▁채택
▁스타일
ch
▁장비
▁규칙
마스
▁의료
▁든
▁강의
▁기대
▁잡지
바이
▁올라가
ur
▁그래서
▁시인
▁어떻
▁첨
주교
▁합의
고리
▁남아
▁39
▁폭발
▁라며
▁스파
▁나카
▁에피
▁만족
▁부근
▁이스라
▁얼굴
▁모스크
▁개편
▁욕
▁스위스
▁선생
▁남편
▁진화
▁400
▁일원
▁매년
▁이승
▁불가
▁장면
▁튀
▁기지
▁경향
▁대기
로드
▁1985
▁이스라엘
▁64
▁군단
▁대형
▁II
▁토지
▁가사
▁앞두
▁해체
▁통계
▁분자
▁끊
▁스리
▁강점
▁뜨
▁종이
▁태풍
▁붉
▁아메리카
▁게이
▁간주
다리
▁둘러
▁아주
데미
▁움직이
ut
▁종종
▁경주
▁캄
▁어린
▁기억
▁귀국
백질
▁서양
우드
▁조합
▁낭
▁항성
▁ㅏ서
키아
레이드
▁아랍
▁라면
▁수원
▁성과
▁의학
▁아름
고기
▁청소년
▁감정
▁확실
▁i
▁폼
▁스피
▁에게서
▁저지
▁클래
▁좀
▁사항
▁초반
▁맛
▁보장
▁레코드
▁아나
▁향상
▁대장
▁43
▁삼국
um
▁심하
▁투어
▁그곳
▁탑재
▁침공
▁장식
▁고양
▁아카데미
▁짐
▁소년
▁융
▁LG
▁카메
어들
▁변하
▁자금
오프
▁메이저
▁랭
▁나폴
오스
▁청나라
▁아름답
▁평양
▁켄
▁불과
▁고구려
▁선고
보드
요시
▁42
▁나치
▁남동
▁중화민국
▁신앙
▁가로
▁대립
▁보병
▁단백질
▁줄거리
ir
ver
▁전설
▁라틴
▁우선
▁독자
▁잠시
▁확정
네스
▁숭
타인
▁고문
▁br
라노
▁새기
▁만주
틀랜드
▁박쥐
▁55
▁선거구
▁단지
▁1982
▁스케
▁신설
▁살해
운동
▁카운티
소드
▁차별
네시아
▁지시
▁스카
▁우수
▁복잡
▁구체
▁판결
▁철도역
▁의장
▁전화
▁탄생
▁삭
무르
▁육상
에르
▁냐
▁비율
▁검찰
▁예상
▁창설
▁성당
▁함대
▁합치
im
▁광역시
다이
▁온라인
FC
▁편입
▁브랜드
일러
▁법인
▁왕위
▁재단
▁44
▁마크
▁솔로
▁덴마크
트라
누스
▁수출
▁저서
▁1983
▁브리
▁공유
뜨리
▁동의
▁짜
이크
▁고향
▁유학
▁킬
▁세종
▁강점기
▁보급
의회
▁반도
▁가하
▁47
▁묻
싱턴
▁참석
▁노예
▁핵심
▁전후
▁집행
▁Z
▁하늘
▁마드리
CA
▁암살
▁애플
▁헤이
▁둘러싸
▁고정
▁협상
뿌리
ay
반도
없이
▁무엇
▁마드리드
▁사전
▁보안
▁본격
▁법칙
▁어도
▁후손
▁저장
하라
▁회전
▁롯
▁이성
비드
▁중반
▁사우
▁의무
▁오픈
▁아르헨
▁플랫
▁논리
▁주교
▁대비
▁관료
▁권한
▁자세
▁카를
퍼스
▁184
▁75
각형
▁전용
▁산맥
▁대항
레이션
▁숫
▁순서
▁연고
▁180
▁이익
▁전혀
▁상품
▁옷
셔널
▁하위
▁v
▁베를
▁공학
▁중세
▁유적
▁베이스
▁1972
▁아르헨티나
▁플레이오프
문화
▁단일
▁시각
▁어린이
원군
▁갈등
▁공기
▁직원
리스트
▁인상
▁로버트
▁에피소드
▁말기
▁1920
▁아스
▁켈
터리
▁46
▁프란
▁의도
▁CD
▁조금
바르
▁모리
▁보조
▁기하
▁스크
▁중심지
▁운전
▁창조
▁아파
▁공포
▁잘못
▁협정
어스
▁아미
▁흔히
▁변호사
▁인권
▁가르치
▁공무원
▁요한
▁원리
▁워싱턴
▁효소
▁원주
▁비난
▁수여
▁성경
▁글로
▁1979
▁하드
▁별도
▁마시
▁레드
▁밀리
▁셋
▁정복
▁덮
▁In
퍼드
▁전라북도
▁작곡가
▁투입
▁1930
▁엠
정부
▁교류
▁파크
▁오히
▁우크
▁장착
▁소식
▁벡
▁논쟁
▁플라
▁방면
▁kg
무라
▁넘어
▁본인
사키
▁현장
▁빙
▁건국
▁공화
▁논의
▁심각
▁어떻게
▁원작
▁호텔
▁항복
▁1981
▁1973
▁150
▁공산주의
10
▁아침
▁훨
▁택
▁중부
▁교토
os
▁출마
▁놓이
▁건조
▁마이클
▁헨리
▁인류
▁금메달
▁무리
▁노스
▁유전자
▁운용
▁요새
▁사태
▁투쟁
▁세인트
▁물러
▁훨씬
▁코미
▁오토
▁창립
다가
▁니콜
▁연합군
▁합성
▁연산
▁오랜
▁코스
▁뿌리
▁라도
겨나
▁로드
▁오른쪽
▁김정
▁멸망
▁예산
▁에어
▁추측
▁형사
▁ㄴ다
▁절대
▁플레이어
▁산하
▁금속
▁방출
▁태국
▁드러나
▁1940
▁패하
▁릴
▁한때
▁인정받
30
▁인공
ter
▁서기
▁왼쪽
em
▁메시
▁노르웨이
▁모스크바
▁구별
▁찍
▁복합
▁던지
▁북서
▁베이징
▁벗어나
▁1974
BO
일보
▁아프
▁주위
▁미니
▁트랙
▁사령관
▁스코틀랜드
▁효율
▁해양
▁탁
▁각본
▁제자
▁오히려
▁반복
▁185
▁인종
카와
▁오전
▁전철
▁블루
▁연관
▁정비
▁사법
▁입자
▁제출
시스
▁해상
젤레스
▁가져오
▁출장
▁뽑
▁노부
▁주기
▁댄
▁읍
▁숫자
▁집안
▁델
▁신체
▁베를린
▁군수
▁보험
▁SBS
▁웨스트
▁슬로
▁마침
▁분쟁
▁54
▁인터뷰
▁하나님
▁중대
머스
▁목사
▁포위
▁인조
나이티
▁흡수
▁빌리
듀서
▁프로듀서
붙이
▁축제
▁유나이티
▁디스
▁1948
아오
▁거절
▁이민
▁수송
▁포기
▁소방
▁시점
▁구속
▁취급
▁소녀
▁자이
▁1968
▁관점
▁활발
▁1976
▁북동
▁퍼지
▁개시
▁명성
▁건립
▁우스
▁보스
▁밖에
▁전공
▁출입
▁고용
▁갤
▁견해
▁텐
op
▁직업
▁사령부
▁진보
▁1975
▁넘기
▁경성
▁즐기
▁한국어
데스
▁응용
▁활성
▁히데
▁부활
서트
▁국도
▁안타
▁주택
▁학습
▁성능
도르
▁프라
▁신성
▁불법
▁실리
▁동원
▁장악
▁주전
▁농민
▁소스
▁영화제
▁여부
▁취득
▁정체
▁음력
리어
▁비록
▁일치
▁명명
▁56
▁직전
▁총독
ag
▁고유
▁먹이
▁보컬
▁유물
▁후원
▁전부
▁폭력
▁1978
▁대리
▁1971
▁52
▁파라
▁포도
▁Q
▁국장
▁1963
▁미드
▁한자
▁더라도
▁여객철도
▁늘어나
▁봉하
▁연료
▁혼란
에트
리케
키스탄
▁천체
▁항공기
▁문헌
▁선교
▁코미디
▁65
▁약속
▁편지
▁시리아
▁타이완
세이
▁49
▁그리스도
▁누리
▁닌
▁교차
▁브레
▁상당히
▁임금
산시
▁수술
▁랜
메리
비치
▁주관
ce
자기
▁팝
▁도달
쿠라
▁관직
▁북아
▁로스앤
▁로스앤젤레스
▁백제
▁제어
▁본사
릭스
기에
▁일대
▁미나
▁철수
▁반영
▁스미
▁아테
▁화물
▁대화
▁수집
▁상륙
▁넷
▁테러
▁1969
▁다며
▁도구
▁주간
▁스마
▁의존
노스
▁영업
▁고종
▁교환
▁179
▁학술
▁캠퍼스
▁콘서트
▁00
▁물러나
▁십자
▁계통
▁아사
OS
라비아
▁장교
▁전파
▁프로세
▁항구
▁그런데
▁증상
▁정지
▁해산
▁보관
▁데이비드
▁재료
▁학부
▁롯데
▁정원
▁사운드
▁구성원
▁자살
▁53
▁..
▁전문가
▁모드
▁프리미
▁톰
▁상승
▁연재
▁하우스
▁개체
▁주식회사
▁코로나
▁모시
▁나아가
▁1946
▁영향력
▁방사
▁백작
▁SK
▁부임
▁판서
▁좁
▁김영
▁박정
▁핑
공항
▁거기
▁살인
▁반발
▁허가
oc
▁발언
▁영입
▁간단
▁고리
▁그레
▁공통
▁겐
▁진입
▁리스
▁헤르
▁에도
▁질병
▁불상
▁망명
▁제일
▁위반
▁사유
▁파트
▁1964
▁신분
병대
▁외국인
▁원하
▁99
▁니시
▁브루
▁페이
▁기도
미터
▁절차
▁화성
▁베스트
▁드리
▁보건
▁한반도
▁리더
▁US
▁시호
▁자녀
▁참전
▁감사
▁인도네시아
▁사장
▁저작
▁학원
▁벨기에
ri
▁미터
▁대략
▁서버
▁포트
▁변형
▁스프
▁소비에트
▁약하
▁탈락
▁고도
▁변환
▁창단
▁꼭
▁시카
▁충청북도
▁횡
▁조작
▁진압
▁트랜
▁58
▁폴리
▁피아노
▁스토
▁승진
▁탈출
이어
▁마케
▁통상
▁가을
▁1000
▁락
▁부장
하마
정식
▁픽
▁PC
▁학회
▁and
오르
▁채용
▁도망
▁루이스
▁국제공항
▁복무
▁식품
▁임대
▁청구
▁요인
▁주년
▁현역
▁닥
▁신청
▁말레이
▁콤
▁공동체
▁다스
▁그치
▁문장
▁누르
▁쫓
▁지붕
▁분열
▁요코
▁작사
▁이중
▁라이트
▁머무르
▁동남
▁방송국
▁생태
▁장수
▁트라
▁벼
저우
ation
▁합격
▁기호
▁1977
▁큐
▁연출
▁조절
▁트로
프리
▁예측
▁탄소
▁FA
▁화면
▁민법
▁수영
▁포로
▁학과
아버지
▁1949
천군
▁임의
▁띄
▁신인
igh
▁지급
로그
▁엑스
▁친일
▁막부
▁국무
▁특이
크스
▁부부
카이도
▁기법
▁위상
▁이치
▁장르
▁취소
▁카메라
▁88
려움
▁오페
▁동작
▁상원
▁메모리
▁앵
▁62
성군
▁레스
▁선보이
▁참고
▁1962
▁전동
▁서식지
▁수소
▁출간
▁실수
▁정기
▁황금
▁선전
▁광장
▁배출
▁수리
▁스토리
▁독립운동
드시
▁흉
▁칭하
▁코파
문화재
▁레오
▁화재
타르
▁개조
▁생존
▁선조
▁처형
▁방지
▁예비
▁1967
브리
▁남서
▁흑인
▁Ch
▁주둔
▁기체
▁이승만
▁는가
▁힘들
▁57
▁도전
▁왕자
▁연안
▁현지
▁어떠
▁호수
▁로켓
▁이시
▁롱
▁등지
▁서구
▁일본군
▁임진
▁공정
▁오스만
▁그라
▁콘스탄
에이
포르
▁경로
▁동성
▁서원
▁농구
▁루트
▁희망
천시
▁크리
▁고지
▁You
▁히트
▁방정식
수록
▁천연
▁제대로
▁반드시
아나
▁의혹
▁싸움
▁여단
▁동기
▁성향
▁좌우
▁늦
인물
▁분명
먼트
▁동아
▁무덤
▁진주
▁전주
▁노리
nd
▁맞서
▁맞이
▁고치
▁노벨
▁터널
▁톱
▁그레이
▁181
▁타임
▁스탠
▁미국인
▁인지
▁압력
▁우려
더스
▁전면
▁파악
▁둘째
▁이온
▁한계
바라
▁목소리
▁으려
▁내전
▁묵
▁법정
▁전형
▁신뢰
▁엄청
▁코르
▁멘
베스
▁유기
▁66
▁흘
▁1966
▁꺾
라이언
▁독특
▁돌리
티브
▁녹색
▁r
▁에르
ST
▁개신
▁해리
▁처벌
▁삽
▁범주
▁글자
▁비평
▁덧
▁물체
▁%,
▁유행
▁체코
▁홋
ON
▁68
▁아동
▁별명
▁아파트
▁람
▁복지
이치
▁1965
▁순환
▁어디
▁아리
▁매일
▁리처
▁61
▁부사
▁분할
▁오프
방송
▁추구
▁방해
▁KBO
▁드물
▁모형
▁밥
▁퀸
▁평등
▁분해
▁183
▁타격
▁가시
▁실질
▁집권
▁클레
▁바둑
▁간행
▁구현
▁알렉산드
질랜드
치아
▁화산
▁묶
▁뉴질랜드
▁곱
▁김일
▁마르크
▁광복
▁한정
▁웅
ER
▁희생
르타
▁부진
▁일찍
▁찌
▁찰스
▁빼앗
피스
▁풍부
▁뮤지
▁최다
▁첼
art
유럽
▁사립
▁플래
▁완료
▁가상
▁시조
텐츠
▁일식
▁1961
▁벡터
디션
▁800
▁86
▁파르
▁마침내
▁사원
▁엄청나
▁테이
▁마법
▁물리학
▁대개
▁으니
▁대법
▁션
▁손자
▁통산
▁사냥
▁근본
▁악기
▁분위
▁의지
▁레인
▁전원
▁중기
▁점점
라드
▁호주
▁확산
▁오페라
▁캔
▁일본인
▁분기
▁600
▁120
투스
▁나들
믹스
▁사형
▁출범
▁나들목
▁부하
ice
▁웨이
▁판사
▁갈색
▁흰
▁알파
▁프린
사자
est
다르
▁회담
▁창원
▁영웅
▁유치
▁충격
▁IS
▁여론
▁완공
▁시카고
▁리가
▁기둥
▁명확
▁드러내
▁개입
▁샘
은행
▁교향
▁날개
▁저술
ia
▁훗
▁단독
▁바치
▁제이
▁대공
▁무게
▁가나
▁사임
▁포인트
▁모토
▁인접
▁발굴
▁훌
▁가까
▁메리
▁악화
▁이자
▁적절
▁인증
▁편찬
▁98
▁들어서
▁순간
▁조별
▁닛
▁사마
▁1919
▁홍보
틀러
▁문명
사스
▁상위
▁쏘
TV
▁무시
▁의심
▁뚜
▁조종
세우
ap
▁re
▁키우
▁굽
▁명나라
▁카라
▁함락
▁시드
▁탐사
AR
▁기기
▁렀
▁그때
▁등장인물
▁성분
▁당초
▁연간
▁도쿠
▁자극
▁징역
▁서명
▁순수
▁곽
▁접촉
▁득표
▁연구원
▁각지
ak
▁1944
▁추천
▁임기
▁모임
▁사정
우리
▁이닝
▁진정
▁드라이
▁구원
민주
▁입법
▁넓이
▁학살
버그
▁스마트
▁독일군
▁생겨나
▁태도
▁올해
아보
▁63
▁행렬
일리
라이나
▁95
▁포항
▁DNA
▁팽
연히
▁고속도로
▁링크
▁세르비아
▁변수
▁사실상
나가
▁골든
▁1941
▁뱅
▁동서
▁개막
▁프리미어
▁네이
▁심사
▁아티
▁루스
▁실현
▁여야
메이
▁74
▁언제
▁59
▁기리
시오
▁예전
▁등판
학생
▁자전
러리
▁경전
▁꼽
▁재배
▁한국인
▁균형
▁공헌
ct
▁프로그래
▁혼합
▁바위
▁춤
▁시사
▁기온
▁보고서
▁확률
▁백성
▁Lo
무부
▁페르시아
▁수석
▁공로
▁오랫
▁감시
▁튜
▁커뮤
▁닉
▁178
▁매장
▁방위
▁침략
▁개신교
ul
▁앤드
▁대선
▁긍
숭이
▁출력
▁분위기
리히
▁영지
▁훗날
▁IC
▁줄어들
▁양쪽
▁급제
▁흐름
▁점수
대부
▁오랫동안
코스
▁왕실
▁프라이
▁72
▁단편
▁무사
▁이라크
▁미쓰
▁안드로
▁승부
▁대량
▁커뮤니
▁지형
▁특별시
▁추산
▁재건
▁텍사스
▁82
▁160
▁1947
▁랜드
이너
▁SS
▁1958
▁76
▁원형
▁그래픽
▁에드워드
▁줄기
▁권위
▁다케
▁뮤지컬
▁피터
▁미야
▁리처드
▁신부
▁안토
▁확립
▁복원
▁1956
▁to
▁여왕
▁동명
▁발발
▁아이돌
▁저녁
▁프랑크
▁고르
▁시상
ie
▁석유
▁타자
▁가와
▁멀리
▁우라
▁에서부터
▁일상
▁경남
▁제사
▁기울
▁팔리
▁승객
▁AFC
▁77
무리
▁비상
▁파워
▁테스트
▁복수
▁입력
▁침입
▁브라운
리노
▁리버
▁도요
▁;/
▁보물
▁복음
▁작위
▁앉
▁데스
▁교구
▁포켓
▁수익
▁비치
▁업적
▁과학자
▁개설
▁연예
▁원수
▁1939
▁가설
메리칸
▁타워
▁Th
▁바깥
▁기소
▁안동
▁창작
▁혁신
▁더블
▁잠수
▁민중
▁정수
▁한글
▁젠
▁가공
▁67
▁섞
▁암호
레옹
▁본질
레나
ud
일스
▁계층
▁겹
▁힌
▁사자
▁일시
▁나폴레옹
▁당국
▁와이
og
마르
▁어깨
▁폭탄
▁그렇게
▁자식
▁소득
▁신고
에른
▁시마
▁끼치
▁동양
IA
▁심지
왜란
▁덜
▁임진왜란
▁평론
이센
▁85
▁병합
▁축구단
ist
▁사제
▁다운
▁대왕
▁공중
▁신자
▁빌보드
▁발음
▁듯이
▁부지
▁주최
▁거듭
ly
▁빅토
▁후계
th
▁후속
마니아
▁력
레인
▁인쇄
▁폐쇄
▁훈장
▁도모
▁움직임
▁깃
▁진단
▁고통
▁자이언
▁가량
▁1954
▁가담
▁보상
▁내셔널
▁고기
▁노출
▁국기
체스터
▁구글
아티아
▁크로아티아
▁산화
▁동방
▁쌀
▁총회
▁국정
▁평안
▁실력
ight
▁대지
▁참모
BA
▁96
▁생물학
▁73
▁라스
▁매체
아지
▁1952
▁Al
▁박정희
▁탱
▁비서
▁인용
▁채우
▁전신
조합
▁아트
▁가이
▁세리
▁DV
타이
▁뷰
▁오카
▁행복
▁도덕
▁포스트
▁다소
▁상관
▁께
▁무한
▁레알
▁아테네
▁교리
▁오가
▁김대
▁로봇
▁타운
▁들이
▁이혼
▁탈퇴
▁부담
▁역학
▁셔
▁작동
▁조조
▁81
▁그만
▁예방
▁피해자
▁알바
▁수도원
아하
▁바닥
▁지나가
▁화이트
▁비례
▁*
▁따로
▁심장
느리
▁인생
▁뤼
▁78
▁대성
▁보살
▁뮌
▁최후
▁중력
▁수요
▁환승
▁절반
너스
▁스타디
▁바이에른
하여
▁화합
▁지향
▁살리
AS
▁ᆯ지
▁타이거
▁좋아하
▁기상
▁재학
AT
▁규제
▁불만
▁화장
▁장남
▁김성
▁포스
▁센트
▁손상
터스
▁가까이
필더
▁질환
▁총장
토스
▁심판
▁미드필더
▁전투기
▁개방
▁유통
▁블라
▁녀
▁지사
ess
▁메달
▁전남
▁천안
세포
▁액션
▁청주
▁하인
클리
▁아웃
▁국군
▁여섯
▁처하
▁마무리
▁사무소
▁그린
▁91
▁약물
▁메시지
▁주력
▁피부
의정
▁는다는
▁패션
▁검토
▁골드
▁일컫
▁붓
▁71
▁연습
▁콘스탄티
▁긍정
▁보르
▁전직
▁1959
▁산소
▁모바
▁빌딩
▁선박
▁202
▁AT
▁이명
▁가마
▁황후
▁처분
▁햄
▁Li
▁상실
스트라
▁NH
▁백만
▁유산
▁혼인
▁결의
직자
▁통화
자치
▁당나라
▁사우스
▁신사
▁관여
▁호소
▁;,
▁글로벌
쿠스
▁세부
▁프로이센
▁인원
▁177
▁심지어
▁분노
▁가요
▁대책
▁소멸
▁말레이시아
▁윗
▁설득
▁의대
IV
가락
▁문신
▁오직
▁디스크
▁가슴
▁하원
▁승려
▁위대
▁동해
▁요금
▁1942
▁홋카이도
▁넘어가
▁시나
▁쿠데
▁창당
▁위키
▁구매
▁왕비
▁퀴
▁잭슨
▁김일성
▁상역
▁적합
ub
▁페이지
▁크루
드리히
▁내려오
리학
▁87
▁개성
▁선임
▁억제
▁모바일
▁쾌
▁조지아
▁AP
▁음악가
▁1943
미야
▁사격
▁일기
▁st
▁테크
▁불안
▁사도
▁야스
▁조카
▁일본어
▁싱가
▁주석
▁크로스
▁1955
▁싱가포르
▁쿠데타
▁톨
▁진영
▁필드
▁좌상
▁프리드리히
▁전당
▁159
▁드래프트
▁프랭
▁일체
▁700
▁어려움
▁조차
▁타인
▁알고리
가니
▁무료
▁84
▁카스
▁나쁘
▁1953
▁굳
ab
▁원년
▁스타디움
▁발탁
▁상속
▁닫
▁챔피언십
▁사라
미르
▁루마니아
▁힙
▁1936
▁부산광역시
▁세자
▁유고
▁본명
▁천주교
▁테마
▁이와
버리
▁티베
히로
▁김종
데이
▁Re
▁기동
▁디아
▁몰리
올리
▁폭격
▁즉시
▁왕후
▁토론토
▁알고리즘
▁후쿠오카
유산
▁궁전
▁독재
▁여우
▁콘텐츠
▁막대
▁1910
▁깊이
▁사무실
▁발명
▁연설
▁\
▁리드
▁용도
▁메이지
ine
▁딘
▁각국
▁전동차
▁부동
▁태조
▁대체로
▁97
▁딜
▁사양
▁정차
우치
▁오이
▁검색
▁구입
▁전북
▁1900
▁음성
▁스티븐
▁학사
구리
▁유형문화재
▁원주민
▁히틀러
▁진격
원경
주군
▁휴대
▁느낌
▁추방
시스코
▁수호
▁주소
▁대우
▁사기
구치
▁남아프리카
바로
▁1957
▁영양
▁아메리칸
▁이즈
▁자국
▁전술
▁조상
ew
▁DVD
▁개칭
▁세트
▁초점
▁포켓몬
달리
▁신장
래프트
▁강릉
제국
▁필수
베르트
▁동북
▁사과
▁최우
란색
▁수업
머리
▁늘리
▁불가리아
▁전송
▁광범
▁코리아
▁스미스
▁이마
▁인디언
▁덩
ue
▁핫
▁69
▁급격
▁완벽
▁1914
▁92
미니
▁기다리
다랗
▁게르
▁섹
▁흔하
▁클로
▁넥
독부
▁노트
▁게다가
▁개량
▁담기
EC
▁렀다
▁유효
▁잡히
▁끝내
▁바르셀
▁오키
▁바르셀로나
▁서술
▁질문
▁똑
▁빚
▁펑
▁결론
▁도마
▁자는
▁천만
로지
지사
▁WW
▁라이프
▁연락
▁늑
▁선형
▁미술관
▁고급
▁끌어
▁재즈
▁림
▁신도
▁만든
▁커버
▁101
▁라틴어
▁스탈
▁마르크스
▁랄
▁후임
총리
▁상인
▁소비자
▁1938
▁립
▁스프링
▁부위
▁이내
▁주니어
▁="
▁배포
▁물건
▁랩
▁화려
▁다스리
▁고시
▁닥터
▁손실
▁저자
▁01
▁운항
▁실천
▁주체
▁려면
▁부친
산화
▁HD
▁료
다니
▁숨기
▁언덕
▁윙
자키
▁느냐
▁1918
▁석사
리그
▁블록
▁알레
▁마스터
▁사퇴
▁상주
▁소형
▁안드
▁시내버스
▁백인
▁언스
▁화석
▁의문
▁내놓
▁연평
▁고위
▁갑자기
▁이념
▁일련
▁국적
▁암컷
▁웰
비히
▁추기
▁상수
▁자본주의
여금
▁방언
▁어요
▁집회
▁대만
▁라우
▁개별
▁정교회
▁감각
▁반사
▁미스
BM
▁해발
민주당
펙트
▁풋
▁경비
▁올스타
▁고객
▁차단
▁매치
▁1951
▁짝
▁영주
▁계곡
▁분화
▁탄압
▁경제학
▁화폐
총독부
▁조선총독부
▁선포
▁실업
필드
▁미시
▁거짓
▁on
▁89
▁1937
▁1932
가시
▁용인
▁프랑스군
▁뮌헨
▁우크라
▁격파
바키아
▁구상
▁당원
▁화제
▁재개
▁크라
▁마틴
▁엘리자
▁이웃
▁항공사
▁후계자
▁93
▁퀘
▁칭호
▁182
▁기부
▁클리
▁이스트
▁진학
▁찬성
▁체험
▁말리
▁고양이
▁시트
무늬
▁싱어
▁회로
▁추기경
▁번지
▁첩
저스
▁면역
▁1935
▁질서
▁수치
▁비행기
ect
▁베리
▁곡선
▁비스
▁광범위
▁파티
▁흰색
▁옵
▁사찰
▁항의
▁트레이드
▁공신
▁자산
▁Be
▁되돌
▁발간
어로
▁아티스트
▁겉
▁증언
▁웃
▁둥글
▁촉진
▁세월
▁클래식
▁데리
▁꾸준
▁설치류
▁마루
사전
▁구멍
동생
▁타율
▁로렌
▁소화
▁극단
▁개척
▁중추
▁가속
▁법학
▁운송
▁히어로
▁반지
▁유배
▁습격
▁지수
▁보편
▁영원
▁쿨
▁쿼
▁남녀
▁OS
▁전망
▁허락
▁분교
▁전적
런스
▁성남
▁시모
ore
▁수백
▁소문
▁양산
▁소위
▁94
▁덧붙이
슈타인
▁축소
벤트
▁탕
▁마주
▁탄핵
▁내세우
▁직무
▁대법원
다수
▁카리
our
▁목성
추어
▁물고기
▁아오
▁팩
센트
▁푸르
▁기에
IN
▁툴
▁쟁
ell
▁동화
▁잠수함
▁강남
▁원시
▁약화
▁티베트
▁뼈
▁핸
▁프랑스어
▁1933
▁소집
▁CP
▁영구
른바
▁FM
▁대칭
▁충분히
▁조항
▁그리하여
도사
▁프로그래밍
슬링
▁무용
▁수십
▁이른바
▁하여금
▁멀티
▁선호
▁익스
▁혼자
돼지
려가
▁군부
▁콜로
▁주일
▁고교
▁정통
▁1928
프레
▁누스
닉스
▁정류
ers
▁어둡
▁칠레
사이
▁간부
▁걷
▁당신
▁이행
▁무너지
▁지나치
공사
들리
▁개명
▁댄스
▁시신
리우스
▁국토
ID
▁형상
▁경사
▁실내
▁오버
▁펴
▁동경
▁발레
▁판정
▁재능
▁틈
▁펀
▁09
▁콜롬
▁자매
▁해제
▁손해
▁메트로
▁79
▁진실
▁브로
▁사이드
▁1924
▁부속
▁액체
▁지불
▁태종
▁04
▁토마스
▁사막
▁자이언츠
▁조기
▁토대
▁개장
▁멈
▁이재
▁110
▁단순히
▁반하
과이
▁입대
▁지중
▁따오
▁종사
end
▁토너
▁강전
▁합동
▁원자력
▁이벤트
코프
▁열매
▁파키스탄
▁전제
▁플로리
▁정면
▁오류
▁08
브라
ill
▁늑대
페이스
▁구름
▁170
▁아마추어
▁김해
▁주문
▁지표
▁프로토
▁대승
▁분산
▁경고
▁코너
▁퓨
▁양국
▁유아
▁스카이
▁안티
▁러브
▁상대식
▁ㅓㅆ
▁서방
▁무력
▁비잔
▁하와
▁가난
▁의정부
▁Co
▁놀이
▁동굴
▁토착
▁안토니
▁룸
▁틴
▁성서
▁엄격
▁재생
▁회색
▁MS
▁장점
▁투스
▁베네치아
▁존스
▁로즈
▁총재
▁당대
▁보스턴
어도
▁수컷
▁법안
베리아
▁자르
ain
▁자랑
▁스크린
▁배열
▁호흡
성기
▁초상
테스
▁강도
▁중동
▁뻗
▁오케
▁부리
▁부서
▁우에
사르
티스
▁행적
▁흔적
▁세로
▁일단
▁편의
AN
▁{
ard
▁봉기
▁스톤
▁평면
▁맨체스터
▁젤
▁불러
공업
▁다큐
▁북미
▁인민군
▁83
야스
▁힙합
▁엉
레오
조선
▁De
▁토너먼트
▁동지
▁마저
▁대가
▁요코하마
▁메탈
▁주재
▁중계
▁판타
▁메르
▁장로
▁빵
▁레닌
▁재임
▁야당
▁강요
▁스케이
데르
▁경북
▁맡기
▁페리
▁찾아가
▁쌓이
리나
▁추적
▁대원
▁쿠바
▁밸
▁선로
▁대사관
▁혈액
▁철거
▁1934
▁나이트
▁개찰
▁마감
▁국방부
▁포드
▁한성
즈니
▁근육
▁안쪽
▁벼슬
▁주자
제르
▁중지
▁풍속
▁구사
▁탓
▁농장
▁장례
▁발전소
▁입구
▁코어
▁르네
▁해설
▁관계자
▁할아버지
세대
키퍼
▁뱀
워하
▁글리
▁페이스
▁동구
▁본토
▁함경
▁경찰서
▁골키퍼
아르
▁스탈린
베르크
▁안내
▁화합물
위대
▁접속
▁떼
▁거스
▁농촌
▁도쿠가와
▁가볍
▁현존
▁노동당
▁아프가니
▁느리
▁닐
드라
유키
▁관객
▁철학자
▁시계
▁심리학
▁광산
▁역전
고속
크래프트
▁멈추
▁리스트
▁구로
▁증권
▁사망자
▁오염
▁거점
▁곤충
▁거느리
▁얀
▁선물
▁130
ne
▁Me
▁항해
▁모노
▁식량
▁복사
▁대동
▁레지
▁정확히
▁정조
▁모자
▁부작
▁토머스
▁사카
▁유키
▁조문
▁남극
▁계수
▁부호
▁재판소
▁동메달
▁부처
▁폭풍
▁독점
▁Sh
▁종전
▁필립
▁합리
▁140
▁그러므로
▁훼
▁그리스어
▁이정
▁내려가
▁문재
▁중성
▁테르
▁알렉산더
▁비중
▁대다수
하이
▁대결
▁초청
▁돔
▁세금
▁아프가니스탄
▁김구
레이크
▁휘하
▁은메달
▁히로시마
레아
▁특별히
▁클래스
▁윤리
보내
▁WWE
▁펄
OR
▁유대인
▁칼리지
▁아비
▁아과
▁석방
▁교향곡
▁필라
▁새끼
▁자유주의
돌프
▁로맨
▁멸종
▁박근
▁원조
▁커다랗
▁매주
▁겸하
▁파울
▁체육관
▁리아
▁새벽
▁대한제국
밀리
▁ST
▁부품
▁건너가
AM
▁진동
▁th
▁타카
▁성명
▁훌륭
▁구리
▁위안
▁유력
▁그래프
▁달라지
베리
안군
▁미카
all
▁1931
▁마그
▁물리치
▁고서
▁아이스
▁간격
▁아틀
▁캠프
▁일곱
클린
▁금강
▁캡
사관
▁트랜스
▁꾼
느님
▁감옥
나르
▁타점
▁기생
▁타원
▁존슨
▁하느님
▁강등
▁문법
▁코트
▁기병
▁뚜렷
ang
▁스트라이
▁An
▁기르
▁연호
▁찾아오
▁명시
▁첫째
▁특허
▁대변
▁공세
▁후퇴
▁인터페이스
▁지칭
▁좌파
▁해협
▁250
▁도메
▁네이션
▁지휘관
▁버지
▁비즈
▁교도
▁단장
▁평론가
▁집필
▁도망치
▁공룡
▁1921
▁극복
▁목포
▁유발
▁고고
▁스테이션
▁가구
▁부드
▁사관
게이
▁cod
▁무늬
▁소요
▁킬로
▁176
▁비틀
▁올라오
▁갤럭
▁덕분
▁동반
▁수반
▁닮
생활
▁키스
▁목숨
▁박스
▁김대중
▁매니
시스트
▁동성애
▁협약
▁빗
▁칙
▁조화
▁05
▁1929
ss
산물
▁숙종
▁타입
▁하버
▁삼각
▁약탈
둥이
▁부드럽
▁일환
마이
▁살아
▁틱
▁건담
▁착용
▁수비수
널드
▁미분
▁잠재
▁원장
▁입사
▁성씨
▁라트
▁지부
▁샤를
▁갤럭시
▁de
▁연계
▁무겁
▁의석
▁y
▁영혼
▁곰
미아
▁AC
▁연상
▁운동가
▁롬
▁발렌
▁근로
▁설비
▁중립
수량
▁발휘
베이스
▁1923
▁램
▁쯤
▁기갑
▁섬유
▁이수
▁는다고
▁경유
▁공국
▁플로리다
슬리
▁07
▁1925
▁임신
▁망원경
페인
ity
▁서적
▁도호
▁압축
▁다다
▁불화
투아
키스
▁과일
▁추락
▁웨일스
▁성직자
▁안드로이드
▁모험
▁영감
타카
▁첸
▁다이묘
▁SC
▁레벨
▁딱
▁진흥
▁박근혜
▁모로
▁요원
▁트레이
▁남아메리카
▁변신
▁유가
니즘
▁동인
▁라이온
▁선교사
▁캘리포니아주
▁연평균
▁살아남
▁고분
▁삭제
▁우드
▁채권
▁갱
▁장갑
▁관리자
▁지역구
▁디오
▁모음
일본
▁가끔
▁제약
▁영광
▁민속
▁악장
무게
▁몸무게
▁북서쪽
▁유비
▁유성
▁프로세서
▁어원
▁똑같
▁페루
▁소설가
카스
▁진술
▁교과
▁수직
▁추대
▁죠
▁시게
▁161
▁그랜드
▁변동
▁하와이
ff
▁일자
▁둔
▁EP
▁돌파
▁명사
▁수명
▁주사
대문
▁필름
up
▁음모
▁복구
▁카자
▁주류
▁압도
▁어워드
프란
▁기관차
▁사당
▁프레임
▁파트너
▁결심
▁수상자
▁빅토리아
▁북극
▁중시
▁청동
행성
▁꼽히
▁철저
▁파생
▁단선
▁이조
▁레이블
▁수장
▁엽
▁서인
▁KT
▁쇠퇴
▁삼각형
▁가톨릭교회
스팅
▁부수
▁홀로
▁175
▁사거리
▁어항
▁부탁
▁도마뱀
▁종로
▁틸
▁칼리
▁동일본
▁규슈
▁트럼
▁바오
▁이날
▁표지
▁피트
▁최상
▁건축물
애나
▁때로
▁나폴리
즈키
▁북아메리카
태우
▁도어
▁랭킹
▁평생
부사
▁파운드
▁향토
▁황태
▁각자
▁크레
멘트
▁리치
메니아
▁유역
▁자치구
▁My
▁노무
▁여인
▁왕가
▁전승
▁지연
▁엘리자베스
▁준우
▁투구
▁1922
▁고안
▁없애
▁codice
▁SM
▁유용
▁화가
▁버지니아
▁부유
▁직선
▁무인
▁벨라
▁라마
▁아기
▁청하
타운
▁""
IS
▁이오
▁중구
▁침해
▁무릎
▁노비
▁문인
▁토벌
▁1912
▁아르메니아
▁공격수
▁국민당
▁JR
▁연령
▁단행
라이터
▁모니
▁모래
▁납치
▁직위
눅스
▁구미
▁패턴
▁무산
▁간섭
▁봉사
▁인천광역시
▁색상
▁다양체
▁루트비히
▁왈
▁적응
▁리눅스
▁지중해
▁MV
▁인력
▁포유
▁모듈
▁스케이팅
▁베타
▁윤치
▁항목
▁164
▁사토
▁수지
▁퍼시
▁탐험
▁동아시아
▁06
▁상처
▁Go
▁Love
ip
▁출현
마치
▁교차로
▁릭
▁교역
▁매각
▁이종
▁하사
▁마카
ant
ong
양군
▁배상
▁삽입
▁연소
▁블라디
▁글씨
▁베토
▁영조
▁토르
▁상무
ED
ld
▁실점
▁전향
▁시상식
▁돼지
▁플레
▁부동산
▁헤드
▁1908
▁렉
▁호조
아리
▁커피
▁과도
▁제주도
슬로
▁아가
▁연금
▁장사
▁패러
멘터리
▁우루
▁굿
▁자책
▁시아
▁참조
▁남동쪽
▁싫
▁03
▁육성
▁조명
▁크림
▁태자
▁SN
도니아
▁히가시
▁1917
OM
▁기종
▁사촌
▁에스파
▁1906
▁외계
▁목조
▁배급
▁시집
▁체인
▁기하학
▁인자
야수
▁정서
▁밀라노
▁관중
▁명문
▁비전
몬드
▁종족
▁폐기
▁입문
▁호르
▁시외
보살
▁전작
▁안양
영상
▁동사
▁통로
▁표본
▁럭
▁우익
▁적어도
▁옹호
▁유인
▁보통학교
▁무선
▁이토
▁정자
▁몬테
▁사이클
▁1927
▁앱
▁산타
▁앨런
av
▁과장
▁의병
▁창간
▁송라이터
▁자전거
▁대행
▁노인
▁북동쪽
▁보좌
▁스와
▁트윈
▁다큐멘터리
▁선제
▁산악
▁준우승
이즈
▁기압
▁안보
▁내장
▁유신
▁포크
플레이
▁1907
▁1926
티움
▁정류장
▁유닛
▁커지
▁험
▁별로
▁오리지
▁협의회
▁디즈니
▁최우수
▁유입
▁슐
▁사신
▁예외
▁흙
튜브
▁산지
▁탑승
▁스페셜
▁노조
AC
▁수감
▁왕립
페이지
▁베토벤
▁우크라이나
▁168
▁석조
▁자문
▁꺼
▁BBC
▁묘지
▁드래곤
▁PD
▁놀라
▁상영
▁호남
▁He
▁연고지
▁유튜브
스토
▁급속
▁하천
슬라
▁스틸
▁번식
▁기름
▁시에
▁주거
▁상하이
▁광역
▁카페
런트
▁머물
다이라
▁독일어
ind
▁Sp
▁아무런
▁데이터베이스
▁에릭
▁라이벌
▁대교
▁진지
▁버그
▁할리
▁색깔
se
▁대안
▁사료
▁겨우
▁점성
▁정사
▁합계
▁커뮤니티
▁선진
무네
로프
▁아울
▁지바
▁홈페이지
▁문하
▁제후
▁세조
▁자바
브스
▁꾸미
ame
▁마오
▁룩
텐도
▁흥미
▁닌텐도
생물
▁요미
▁좌익
▁NHK
▁민족주의
▁지름
총장
▁원로
프란시스코
세스
▁소니
▁특급
▁대조
▁방안
▁분배
▁수수
▁콩고
▁품질
▁꾸준히
▁리듬
▁상세
▁증기
▁166
▁엄마
▁162
▁샌프란시스코
▁레이스
▁1905
▁문화유산
▁레이다
▁운명
▁주의자
ort
▁반환
▁와카
▁원산
▁151
ry
▁트럭
▁스승
▁아크
▁주한
▁바이올
▁모집
▁비평가
▁십자군
지마
▁도리
▁마일
▁가쓰
스티벌
▁ㄴ다고
▁랴
▁진도
▁칩
▁재무
▁뚫
▁역과
▁출산
▁현황
▁물려
▁페스티벌
ith
▁02
▁협의
▁조선인
▁모터
▁셋째
▁신비
▁리얼
려나
스케
▁비단
▁우르
ES
▁쥬
▁일행
▁주말
▁유고슬
▁유고슬라비아
나카
▁목격
▁주파
▁묻히
▁날리
▁곧바로
▁스피드
▁158
▁묘소
▁바라보
▁한나라
엘라
▁크리스토
▁렌즈
▁야생
▁정계
▁오리지널
▁가미
▁단층
▁배정
▁보전
▁플루
▁구마
▁오디션
▁한나라당
▁||
▁조르
어트
▁문과
▁한화
▁옛날
▁입증
▁남서쪽
▁스테이지
▁템
▁상소
프스
▁수천
결승
▁토니
▁빨리
▁이리
▁직장
▁동전
▁무관
▁미네
▁문제점
▁운반
교육
▁기점
▁마라
▁복제
▁사면
▁되찾
▁동영상
▁급행
▁도심
▁출판사
리케이션
▁브라이언
▁적색
▁디자이너
▁챌
▁마스
▁서북
▁기용
▁긴급
▁사리
▁인텔
▁케이블
ok
▁Un
▁동치
▁인치
▁합작
▁쿠르
잡히
▁지휘자
회의
▁배제
▁지질
▁호환
▁베이스볼
▁알라
▁예언
▁폭스
▁저지르
▁프랜
▁연주자
▁판타지
▁콜롬비아
▁마케도니아
▁번주
▁기념물
▁당사자
▁교전
▁단종
해군
▁신임
▁향년
▁비즈니스
▁부패
▁사직
▁초래
▁회원국
루살
프라
▁예술가
▁모순
▁개수
▁좌석
▁미만
▁부시
▁오다
▁정교
▁용기
루살렘
▁하드웨어
▁기재
▁도메인
▁선사
qu
▁수면
▁집계
▁파나
▁가게
▁역명
▁오타
▁평소
▁포맷
▁165
▁마쓰다이라
▁AM
▁관장
▁트레
쳐지
▁센트럴
▁스펙트
▁콘스탄티노
▁서경
모니
▁154
▁내륙
▁자회사
▁1904
▁이지
▁신용
경기
▁의거
▁입히
ord
▁석탑
▁항일
▁과제
▁무신
▁왕족
▁사로
▁연애
▁스펙트럼
▁Wh
▁Se
PS
▁이력
문학
▁신하
▁임상
▁자사
▁파동
▁여동생
▁압박
ob
▁권고
▁전염
▁여신
▁챌린
▁이명박
▁DJ
▁용산
식물
▁사르
▁장편
▁마케팅
▁예루살렘
▁겹치
▁계단
▁SF
▁아인
IC
▁163
▁900
▁발효
▁167
▁혜성
▁스마트폰
우옌
▁차관
가스
페이
ate
▁무슬
려오
▁가득
▁이글
▁그랑
▁대단
▁스쿨
▁게시
▁훼손
▁바이올린
▁서브
▁사범
디스
▁조류
▁156
▁상임
▁노무현
▁받침
▁크리스티
▁교섭
▁미얀
▁끼리
▁얼음
▁팅
▁부흥
▁차체
▁리투아
▁리투아니아
▁분지
▁식사
▁무슬림
▁저기
▁행정부
▁비잔티움
운서
▁디비전
▁쇼군
▁진상
▁서울시
▁아나운서
▁기아
▁AS
▁규격
▁예능
▁깔
▁니스
▁조국
▁비로
▁타마
▁밀접
▁착륙
▁피스
▁끄
▁샹
껍질
▁한양
▁씌
▁성공회
▁UN
▁간접
▁지주
랑이
커스
▁애국
지르
▁정벌
▁고립
▁자마
▁친정
카르
▁아베
▁바그
▁우지
▁구장
▁오케스트라
▁낱
▁하트
▁옌
▁월간
▁점유
▁무라
잡이
▁피렌
▁시달리
로디
▁와중
▁융합
ET
▁출구
▁충남
▁브라우
▁아이디
▁주립
▁바티
▁뱅크
▁제네
▁학파
▁참판
▁부통령
ast
▁었었
▁ᆯ수록
▁선두
▁샬
▁용량
▁잊
킨스
▁소나
▁페어
▁하노
▁일요일
▁거인
▁몰락
▁요크
▁유하
▁스타크래프트
럼비아
▁농도
▁진나라
예프
▁김동
▁굉
▁귀환
▁두산
▁맥스
▁이에
▁지장
▁최신
▁뜨겁
▁투명
▁부자
▁비아
▁시체
▁쿠스
▁개발자
▁련
▁공과
▁MVP
▁야기
▁흥행
▁발족
▁성종
▁위주
부인
▁강연
▁완화
데이트
▁중국어
길이
▁사사
▁스트리트
▁알바니아
▁충성
▁139
▁마천
▁업데이트
▁애플리케이션
▁DS
▁대령
▁보드
▁전지
▁미나미
트롤
▁HIV
▁전이
▁145
▁마리오
if
▁고조
▁공용
▁서열
▁아세
▁측근
▁응우옌
▁이슈
▁피렌체
▁디젤
▁시드니
▁킬로미터
▁착수
AD
▁경선
▁서일본
▁부도
▁기타리스트
주곡
▁검증
▁해인
레이터
트랙
▁리오
▁게이트
▁주머니
▁준결승
랑크
ive
▁관찰사
▁아이디어
▁수산
▁중도
란트
▁사명
▁전두
▁구동
수아
▁마산
▁형법
IT
▁턴
▁사바
▁요미우리
▁넬
▁아종
▁해전
▁전류
▁거스르
악기
▁공전
▁규명
▁전임
▁테오
▁174
▁관광객
츠키
카드
▁석탄
▁몸길이
ack
ure
▁권유
▁지각
트니
▁수학자
▁제의
▁IP
▁인과
리티
▁연수
▁중독
▁소송법
▁관습
▁플라스
▁좌표
▁1896
토미
▁천문학
▁끈
▁로빈
▁자율
▁소재지
▁실용
루미
▁Ar
▁노동조합
▁젖
▁청와
▁판매량
▁스콧
▁우즈
▁피에르
▁여덟
어내
▁마운
▁메디
▁정찰
▁책봉
▁사인
▁뷔
균관
▁쇼핑
▁옐
▁신칸
▁살아가
▁세례
▁존경
▁호평
▁자면
iv
▁백신
▁오렌
▁통행
▁청와대
▁5000
ock
▁성벽
▁꼴
▁수신
▁전장
▁친선
▁다이아
▁저기압
▁둘러싸이
▁피난
▁152
▁로고
▁조용
▁행진
▁짙
▁프로세스
▁전진
ck
▁미하
▁문재인
▁복소
▁회수
▁시라
▁테일러
▁상상
▁염색
▁악마
▁신전
▁157
▁시외버스
▁쏟
▁고사
▁구제
▁자손
▁취약
▁곁
▁폴리스
▁전문학교
문관
▁비극
▁카시
▁연구자
가루
▁기울이
▁미스터
▁관념
▁얼마나
혁명
▁과목
▁MP
▁대외
▁지분
▁카나
▁급진
▁뿔
▁킨
▁장성
▁유년
▁준공
▁한강
▁할당
▁금성
▁빌헬
▁동남아시아
▁유출
▁루터
▁무효
▁밀양
▁창업
▁쇄
창기
▁관현
▁마찰
▁번뇌
▁식당
▁퇴각
▁파스
▁독립운동가
▁믿음
▁아울러
▁일화
▁적대
▁제휴
▁해임
외선
▁고개
▁루수
▁메가
▁힌두
▁신칸센
▁여의
▁응답
끄럽
수수
▁히스
▁가즈
▁국어
▁들리
▁승차
▁에티
12
전자
▁장인
▁하버드
포스
▁김용
▁j
일드
▁서독
▁힘쓰
메르
▁나미
▁상류
▁이순
니스트
▁성균관
▁따위
▁소금
▁아니하
▁희극
▁프로토콜
▁연루
▁105
산군
▁매출
▁쳐
델피아
▁필라델피아
▁PS
▁동위
▁중점
▁히라
▁소총
폴리스
▁외무
▁충족
▁패전
▁휩
▁소닉
하르트
▁1500
▁3000
▁노드
▁성전
▁소지
악단
▁저택
▁항공모
▁박영
자와
▁니아
▁이노
▁125
▁MC
▁두드
▁와인
▁청사
▁우정
▁달아나
▁1911
▁매개
▁146
▁오클
▁아즈
▁자고
원숭이
▁남인
▁예배
▁흩
▁Le
▁적히
▁추모
▁단점
▁성모
▁제트
▁편곡
▁조언
▁참가자
팩트
▁얇
▁서서
▁주권
▁하마
▁술탄
▁여수
▁원나라
▁보잉
▁천사
▁남양
one
▁개원
▁민국
▁환원
ML
▁강사
▁증후
▁우주선
▁법령
▁Pro
▁포장
▁153
▁단원
네이
▁반격
라트
▁착공
▁패스
▁초창기
▁회계
▁고무
▁회화
▁곳곳
▁환상
▁떠오르
▁자책점
▁고원
▁윌슨
▁회견
▁지지자
오리
ime
▁내내
▁나열
▁카자흐
AP
▁유언
서양
▁두르
▁배구
▁일렉
상스
▁찾아보
▁얘
▁눈물
▁연인
▁셈
▁리메
▁별자리
고속도로
▁점프
▁친척
▁카트
▁미얀마
펴보
▁빌헬름
▁살펴보
▁이복
▁지목
▁특유
▁여래
▁103
▁닭
▁고베
▁근접
▁후자
OC
▁개업
▁소관
▁출입구
▁매기
▁인격
▁오키나
▁디비
제프
토시
▁석가
▁순천
▁기장
▁이어서
▁양상
▁일관
▁터지
▁민사
▁대답
▁클린
▁공략
▁사지
▁갈라지
▁오디오
▁가라
▁진리
▁채무
▁나리
▁유해
▁최적
▁북동부
▁비틀즈
▁정치가
▁룰
▁삿
▁공인
▁강수량
노리
어리
▁우편
▁인형
▁위장
▁컨트롤
te
즈카
▁이원
▁협동
▁보충
▁실종
▁이이
▁이글스
▁토크
노프
▁매력
▁중장
▁해역
동물
소스
▁허브
대군
▁공자
▁항공모함
▁취재
▁베르크
기니
▁매사
▁게재
▁선원
▁주파수
Pa
▁레전
▁증후군
▁사우디아
▁나고
▁ISO
▁카타
▁155
▁상자
▁토리
▁오렌지
▁별개
▁사가
▁굵
▁전례
받침
▁미소
▁버튼
▁빼앗기
▁내지
▁민영
▁유격
▁이영
▁아군
▁테스
▁시립
▁지우
항공
▁각기
▁합법
▁트라이
▁겸임
▁사물
▁호칭
▁르네상스
▁쉐
▁승무원
▁각본가
▁#
마사
▁금액
▁법무
▁두드러지
▁중종
io
▁Con
▁배틀
리크
▁스터
▁담배
▁유교
▁스파이
▁맵
플러
▁Bo
▁연도
▁격렬
▁동등
▁이인
▁평행
▁아리스
▁성주
▁캐스팅
▁108
▁히데요시
▁아바
▁아케
▁태우
▁밭
▁자발
때로
▁사다
▁일족
▁캠페인
시온
ber
▁상장
▁생일
▁이바
▁포수
▁고체
▁세균
▁레이저
▁서해
▁에이스
▁이슬람교
▁치세
▁전두환
▁갓
▁조리
▁영동
▁나고야
▁생명체
▁일찍이
▁드라이브
pe
▁IT
▁싸이
▁앞면
▁해운
▁복장
▁에디
▁퍼시픽
▁감지
▁서서히
▁고발
▁미루
▁콜라
▁화살
▁시청자
▁토요일
▁브래
▁때때로
시티
퍼니
▁만세
라이트
▁상대방
모어
▁궁정
▁외곽
▁하우
▁사우디아라비아
▁메타
▁야간
▁골프
▁연혁
▁호세
▁교단
▁추격
▁가계
▁교장
▁1909
▁향후
▁이사장
▁트럼프
▁최저
▁박탈
▁꾀
▁어드
▁홍수
▁트위
▁크리스마스
ge
▁건의
▁무려
▁상부
▁입상
▁아우구
다드
베이터
▁하인리히
라미
러미
화점
▁기금
▁에우
▁김영삼
행위
▁댐
▁방침
▁섞이
▁속성
▁가르침
구장
▁일생
▁개찰구
▁유니폼
▁외국어
산리
▁긴장
▁초연
칠리아
산면
▁발현
▁앙리
▁중재
가타
▁전도
▁단기
집합
▁명의
▁수성
▁128
▁레전드
▁다중
▁톈
▁건축가
▁ᆯ까
▁개관
▁물자
▁네이버
람회
▁슬라
▁피고
▁149
▁사이버
▁하이드
▁부착
▁트루
▁102
▁자마자
▁대주교
▁송나라
▁포도주
▁보스니아
▁세미
▁남한
▁전대
▁제작자
▁Bl
▁운동장
▁텍스트
▁GT
▁섭취
▁안장
▁정밀
▁캄보
▁아미노
▁존중
▁팽창
▁유소년
▁주지사
▁짜리
▁취지
▁여진
▁그만두
▁고가
▁셸
▁굉장
▁직책
언스
▁에스파냐
▁기수
▁예시
▁대군
▁발원
▁자유당
▁숭배
▁컬러
트릭
▁포괄
▁계절
▁여주
▁토스
▁중국인
▁객관
▁펼쳐지
iz
▁딩
▁강경
▁향교
▁원자로
▁키프
▁시오
▁입체
▁후안
DP
먼드
▁오키나와
▁고래
▁문양
▁팔레스
울리
▁계몽
▁촉구
▁병역
▁차남
▁낙선
▁사절
orld
백과
▁탐지
▁블루스
▁최소한
age
▁서사
▁넓히
▁동독
▁수평
▁통칭
▁태생
▁룽
▁턱
▁며칠
▁토마
▁음원
▁청장
▁보리
▁스릴
▁손가락
▁내주
▁메인
▁수군
▁추상
▁CPU
▁대니
▁로프
사기
▁경과
▁센서
▁디스플레이
▁$
▁볼리
▁갑작
▁북방
▁뽑히
수엘라
▁뢰
▁머신
▁정말
▁그랑프리
▁리메이크
▁겔
▁아미타
▁프랭크
서리
▁조반
석기
▁무죄
▁진군
차례
▁명목
▁시그
▁심의
▁충주
▁침몰
▁147
라리
▁효력
노부
▁마하
▁어업
▁팜
▁엘리베이터
▁난민
▁전함
▁김진
▁마비
▁왜성
▁저명
우라
▁협조
▁127
▁171
▁제곱
▁께서
▁알코
▁hPa
▁김재
ik
▁경부
▁김태
▁원고
▁후일
▁타이거즈
▁대처
▁수렴
▁스핀
▁노란색
▁로맨스
▁1915
▁모스
▁수동
포트
▁트윈스
▁베네수엘라
▁라파
두르
▁신흥
▁투르크
▁윌리엄스
▁반박
▁부천
▁케네
▁세계관
▁추증
▁언론인
자스
EN
▁분광
▁재미
▁주축
▁김수
▁전성기
▁1913
▁울리
▁코프
▁그동안
▁동년
▁북구
▁옥스
▁타르
▁이어받
▁부과
▁창시
▁풍경
▁시공
▁인재
▁문학상
▁언제나
▁테니스
▁낮추
▁프레스
▁황해
▁이민자
▁나가사키
▁al
▁개미
▁공직
▁기습
▁탈환
▁상당수
▁닿
기지
▁따뜻
▁출토
▁원반
▁위키백과
▁천문학자
▁동력
크리트
와라
▁창건
트리올
▁몬트리올
▁SP
▁동당
▁차종
▁청원
▁강과
▁광년
▁아폴
▁쓰러지
▁Tr
▁아사히
▁네이션스
▁결선
무기
▁섭정
▁종결
▁북서부
창군
▁대역
▁링컨
▁별칭
▁이틀
▁169
▁캄보디아
▁스파르타
▁팔레스타인
sp
▁둘레
▁바흐
▁주차
▁걱
▁큰
▁정무
▁동래
▁유수
▁아이템
▁대포
▁엔지
▁태수
▁식별
▁적자
▁고백
▁나주
▁유연
▁수령
▁대제
▁에다
▁카탈
▁찾아내
▁이진
▁도호쿠
▁끊임
자치도
▁제주특별
▁제주특별자치도
▁온천
▁차기
포구
▁풋볼
MS
▁딴
▁광부
▁든지
▁신세
▁사회학
▁자기장
▁1895
선거
▁때리
▁언더
▁후대
▁나르
▁비문
▁총괄
▁북위
▁지폐
네스코
▁그로
▁영리
▁무제
▁번영
여지
▁남원
▁리버풀
▁베어스
▁NC
▁135
▁141
▁초상화
▁흩어지
▁장학
▁폐위
▁후세
▁다운로드
▁한동안
공신
▁날짜
▁대위
▁어스
명사전
▁무상
▁양주
▁총선거
▁교원
▁십자가
▁면하
▁하부
▁111
▁법제
▁삼진
▁오빠
▁조달
▁아틀레
▁해병대
▁탤
평군
ust
▁바실
▁여파
▁서울대
▁수용소
벌레
▁휴전
보기
키지
▁소환
▁관람
▁국사
▁소실
▁첨가
▁중소
▁컴퍼니
▁기요
▁원내
▁장미
▁제수
선스
▁위임
그라드
▁144
▁CE
▁명백
▁미즈
▁서머
▁중순
▁신중
▁카리브
▁CO
▁걱정
▁인산
▁파업
박쥐
▁정전
▁천도
▁119
▁모방
니치
▁의상
▁평하
GC
ep
▁덤
▁불편
▁이광
▁휴식
▁신학자
▁드라
▁리어
▁충실
ib
▁민회
▁스릴러
▁더글
따르
▁당일
▁고민
▁김포
▁함유
ian
▁내외
▁다니엘
▁스티브
▁문화방송
▁선구
▁쇼트
루션
▁두루
int
▁루시
▁TO
▁도스
▁신기
▁실전
▁요르
▁몰아내
▁TH
▁귀중
▁지능
▁172
라이더
▁아레나
▁컬럼비아
▁캉
▁드럼
▁소통
▁장난
▁해수
리케인
케이션
▁시나리오
푸스
▁교양
▁연세대
▁엔지니어
▁케이스
▁관통
▁신학교
그로
▁총사
▁라이선스
▁간호
▁평야
▁허리케인
릴라
▁It
▁슈트
▁외교관
▁공모
▁바퀴
▁병조
▁오세
▁정렬
▁증진
▁스페이스
누엘
ome
▁김상
▁선종
▁할리우드
▁꽤
▁항소
ire
▁신탁
▁좌절
▁배신
▁초과
▁아이슬
▁유니버
▁카이사르
▁격투
▁미토
▁약칭
▁진짜
▁총대
▁테레
▁편리
▁106
▁유네스코
페르
▁We
▁마인
▁베드
▁연패
▁껍질
▁아벨
▁NBA
▁마이너
▁매카
▁미주
▁우연히
스럽
▁영남
▁영장
▁평범
▁케네디
▁룡
▁쿤
▁공채
▁그루
▁낱말
▁콘크리트
▁서남
▁역설
▁인연
▁표명
▁구조물
시로
▁바리
▁장려
▁바이오
▁보완
▁승점
▁의의
▁에스토
▁마츠
▁지혜
▁평일
▁에버
▁아이슬란드
▁멋
▁공의회
나리
▁구이
▁부재
▁중량
▁니콜라
▁돌연
▁등재
▁애덤
▁콰
▁열대
▁차이점
▁닷
▁고수
▁업계
치오
▁오비
▁제갈
▁묘역
▁합창
▁해변
▁애틀
▁전압
▁탱크
▁포격
블로
▁공단
내셔널
▁인터내셔널
▁훔
▁부채
▁우울
▁입지
▁치열
▁페르난
▁책임자
▁양도
▁요하
▁장안
▁한성부
▁도르
▁잦
▁발트
▁우라늄
▁단식
▁배터리
▁나스
▁레바
▁얘기
▁친일인
▁파이어
▁황태자
▁친일인명사전
▁오사
▁방패
▁생전
▁첼시
▁프랑수아
ere
ude
▁로열
▁마약
주의자
▁괴롭
▁스페인어
세츠
실록
말라
▁봉쇄
▁라이온즈
▁교외
▁파장
▁횟
▁투르
▁에스토니아
▁불명
▁통근
▁매사추
▁동문
▁호위
▁매사추세츠
▁신속
▁호프
의자
▁암석
▁주행
▁협주곡
▁대전광역시
유행
▁HT
▁상담
▁오피스
▁다항
▁사슬
▁재위
▁충북
▁상서
▁일조
오피아
▁리비아
▁에티오피아
ide
▁도라
▁섬기
▁치즈
▁하락
▁닝
▁DC
▁개그
▁낭만
▁슬로바키아
▁유동
ment
▁생식
▁신생
▁여지
▁탈당
▁밟
제리
▁고령
▁김기
▁도주
▁시흥
▁어휘
ace
▁오노
▁지선
바이잔
▁CON
▁조이
▁특집
중국
▁다치
▁추세
▁해소
야시
▁".
▁견디
▁대웅
▁서정
▁아드
▁위탁
▁중심부
▁물리학자
▁응원
▁명제
▁소유자
▁우루과이
▁끓
번스
▁시선
▁친하
IM
리에
▁가면
▁기인
▁추출
▁현금
▁기어
▁육지
아이
▁조연
▁아제르
▁중추원
▁친왕
▁평택
▁실시간
▁퍼센트
▁닛폰
▁도루
▁의뢰
▁출처
▁흘리
▁병행
▁호기
▁내려지
▁아제르바이잔
▁어다
▁어라
▁패키지
▁국무총리
▁객체
▁을지
마드
▁성운
▁시초
▁즈음
▁바닷
▁바스
▁알아
▁푼
하면
▁극동
▁부적
▁창고
지리아
▁노부나가
▁나이지리아
위원
▁브라우저
▁순회
▁지류
▁136
▁박해
▁전라도
▁신념
▁구도
▁비리
▁쌍둥이
▁휴스턴
▁1916
▁포터
▁허리
▁가로지르
▁구호
▁세션
▁입당
▁작센
▁결혼식
▁이사회
▁고소
▁148
▁동상
▁우세
바다
석탑
▁의약
▁중위
▁딕
▁막내
층석탑
▁IBM
▁리틀
▁워드
▁스튜어트
▁솜
▁수습
▁덮이
▁신규
▁실장
▁펌
승지
▁격퇴
▁알아내
▁애틀랜
▁되게
▁해적
▁라이언
▁서재
▁어쩌
▁저하
▁급격히
▁산림
▁거론
▁냉각
▁분당
▁안성
▁138
시피
▁경연
▁극히
▁백색
▁아마도
▁면허
▁도장
▁원숭이
▁LP
▁성숙
▁해밀
▁라이브러리
▁la
▁시즈
▁시칠리아
▁대의원
▁앓
▁옴
▁가동
▁이세
▁인플
▁택시
▁어울리
▁신한
▁삼국지
▁데이비스
▁전념
▁만남
타로
▁돌려
▁반감
▁안기
▁탐구
▁백화점
▁후쿠시마
▁회고
▁갈리
▁감리
▁동점
▁평원
거지
▁대표작
▁테이블
▁외치
▁이식
▁최상위
▁반경
▁사헌
▁줄리
▁현종
▁360
고쿠
▁기단
▁솟
▁코무네
▁환영
▁게르만
▁도미
▁돌보
▁리우스
▁혀
▁스톡
▁오해
▁주이
▁라트비아
람쥐
파르
▁최악
▁토성
▁한스
▁한쪽
▁횟수
푸르트
▁고성
▁익히
▁치명
▁혈통
▁모니터
양함
▁반도체
▁중성자
대신
▁구릉
토모
▁En
▁사우루스
▁뭉
데시
▁트래
▁104
▁그램
▁야구장
▁영의정
▁페르디
▁부당
▁피에
▁후방
타나
▁가짜
▁성체
▁오바
cl
▁그날
▁산란
▁칼라
▁공천
▁리라
▁상공
▁임용
▁주가
▁춘추
▁아부
▁재현
▁플랜
▁거행
▁발해
▁복선
▁레논
▁음료
▁잔류
▁동이
▁순교
▁사헌부
▁거제
▁여당
하시
▁성취
▁팔라
베르토
어버리
▁대학생
타고
▁춘천
래스카
▁AK
▁시바
▁109
▁방송사
마쓰
▁나비
▁비시
▁주주
▁증대
▁힘입
▁Mar
▁명령어
▁스트레스
▁별다르
▁릉
▁견제
▁피츠
회장
▁루프
▁우위
▁휠
▁데모
▁폭행
▁올바르
▁왜냐
▁적분
▁품종
▁현저
은색
▁폭동
▁교황청
▁차장
▁이에야스
여래
▁고인
▁목판
▁한인
▁열정
▁제독
▁축적
▁공수
▁플라이
글리
브레
▁매입
▁아홉
살이
▁AR
▁CS
▁송시
▁육체
▁123
▁주역
▁축하
곡리
▁이윤
▁정점
▁분비
▁수련
▁하워드
▁호랑이
▁킥
▁카자흐스탄
리니
▁다발
▁사모
▁유한
▁이케
▁터치
▁충전
▁헐
▁광학
▁아담
▁억압
▁통증
▁히어로즈
▁법조
▁주름
▁해명
권자
헤이
▁기적
▁바나
란히
▁소매
▁연합회
▁공산주의자
차기
▁관구
▁제하
▁다이아몬드
AL
은이
▁경관
▁래퍼
▁햇
▁팡
▁신조
실베이
실베이니아
▁펜실베이니아
▁고장
▁광물
러스트
ies
▁왓
▁Op
▁드로
▁암시
▁규범
▁처녀
더슨
▁계시
▁벌금
▁청춘
▁사업자
법인
포드
▁히메
▁부르크
▁생산량
▁리우
▁상용
▁마야
▁미라
▁남동부
바시
▁목재
▁베스
▁존속
▁상점
▁아예
▁컴파
▁CC
▁염기
▁143
▁소나타
▁태양계
▁펑크
▁룬
스틴
▁상반
▁갈라
▁놀랍
▁박람회
▁자민
▁돋
▁너비
▁블로그
▁가죽
▁다투
▁제프
▁티스
▁경상도
▁동아일보
▁성사
▁신주
브리지
▁공습
▁무지
▁누이
▁보석
▁사육
▁신약
▁이화
▁공관
▁노바
▁롤링
▁연하
▁적당
▁분기점
▁종로구
▁이소
▁평의회
ile
▁국소
▁부설
▁조세
▁토모
▁라오스
▁가군
▁김경
▁부제
▁조선일보
▁누나
▁우유
▁운하
▁태권
▁친일파
▁비자
▁지르
▁유로파
▁근교
▁레일
▁왜곡
▁블라디미르
▁헤비
▁알코올
▁비싸
▁상단
▁서진
나오
연합
▁이타
▁허위
▁황실
▁말라
▁동국
▁헤라
▁나트
▁날씨
▁공익
▁맥락
▁비유
▁RNA
▁범인
▁설탕
▁통영
▁경보
▁마디
▁협박
산동
▁소셜
▁유죄
▁굉장히
레기
▁Pr
▁트위터
나스
▁깨닫
▁상사
▁확신
▁col
▁시골
▁제재
수리
ite
▁대폭
▁에미
▁인체
▁112
▁인문
▁내보내
▁성단
▁신민
▁플러스
▁장거리
▁전자기
▁Te
▁맥주
▁카롤
▁브라더스
▁미르
▁미션
▁시어
▁루이지
비나
▁거칠
▁구출
▁왜냐하면
xt
▁흠
▁우승자
▁아랍어
▁중의원
▁카를로스
▁갇
기업
▁성별
▁포럼
▁법무부
▁양키스
▁시베리아
▁뉘
▁CF
▁근원
▁경찰청
▁키프로스
▁믹스
▁보증
▁연쇄
▁히사
도리
의장
▁다녀
▁창원시
▁실체
▁필터
▁엿
도바
▁126
▁이순신
▁거북
▁자선
▁개교
▁당주
▁언니
▁우호
▁임하
▁107
▁다지
▁단단
▁수법
▁핸드
▁이산화
스부르크
▁교과서
▁탐사선
랑카
▁가마쿠라
▁117
▁SE
▁신선
▁세라
▁구축함
▁결함
▁탐색
▁거울
▁다크
▁빨간
▁소원
▁일방
▁입원
▁희생자
()
고래
▁빈곤
▁후사
▁냉전
▁양측
▁릿
▁인명
ath
▁ㅓ서
▁합하
ound
▁곡인
▁조종사
ft
단체
▁몰래
▁제니
▁is
▁갇히
▁자아
▁천장
▁KIA
▁공방
▁투옥
▁할머니
▁샘플
▁수색
▁이브
▁후궁
그레이드
▁지평
▁풀리
▁교정
▁꾀하
▁이경
▁피우
▁게스트
▁350
▁수용체
▁제대
▁삼층석탑
▁업그레이드
▁퐁
▁문예
▁진하
▁네스
승부
▁승계
▁송시열
▁철회
▁com
▁고속도
▁도마뱀붙이
OL
다지
▁신시
▁칭찬
▁맘
▁통틀
▁핵무기
▁말씀
▁줄무늬
▁클라우드
▁결코
▁성도
▁판본
▁대웅전
▁삼성전자
크라
▁IM
▁상표
▁진공
갈색
▁도청
▁극장판
▁근로자
▁테이프
▁옆면
▁요약
▁워터
베니아
▁아카데미상
▁택하
▁라이너
▁일반인
▁CR
▁세속
▁173
▁헥
끼리
ond
▁더니
▁문구
▁요동
▁해고
▁고고학
▁사생활
▁연합국
수소
▁궁극
▁방화
▁121
▁알제리
▁Am
▁LC
▁스캔
▁진급
▁포병
▁브로드
▁비추
▁가져가
▁슬로베니아
마루
▁그냥
▁일가
▁멜로디
▁화장실
▁항쟁
▁113
▁137
▁킴
▁가축
▁김현
▁만일
무스
▁펠리
▁기업인
시타
지붕
▁치안
▁1894
박스
▁대명
▁뒤집
▁드레
▁비르
▁약력
▁공백
▁레온
▁바우
▁냄
조부
ory
▁타당
▁빨간색
▁프랑크푸르트
ov
▁불타
▁몬스터
▁지미
▁카카
▁게이지
▁놓치
▁캐시
▁ㅁ
▁시뮬
▁제인
▁최강
▁도미니
▁바티칸
▁말년
▁z
▁왕복
▁초월
▁둥지
게이머
▁바오로
▁프로게이머
축구
톨레
▁SU
▁럼
▁붐
▁농림
▁야쿠
▁용병
▁오프닝
▁총독부
▁코스타
▁낫
규모
man
▁미키
▁원전
▁피오
▁계정
▁적도
▁물려받
▁공민
▁구절
▁옵션
아프리카
그리
로이
▁사상자
▁야마토
린스
▁군정
▁혈관
▁먼지
▁서민
▁크리스토퍼
대기
블리
▁기질
▁필리프
▁대피
▁학명
▁남서부
▁최대한
▁커뮤니케이션
▁쑤
▁가루
▁내정
▁학계
▁화해
▁World
퍼런스
iver
▁가장자리
▁닫히
▁극심
▁즉각
▁횡단
▁넘치
▁뒷면
▁욕구
▁곤란
▁정세
로니
▁그랜
▁돌격
▁무어
▁성문
셰비
▁개종
▁외모
▁124
아키
▁이거
▁로이
▁부딪
▁국내외
▁침투
▁독일인
▁배후
▁모친
▁자비
▁하동
▁1890
▁관세
▁두껍
▁체크
▁평정
▁파이널
▁On
▁그대
▁명하
▁우파
▁제치
프레스
▁탤런트
▁뭐
▁프로덕
▁강서
▁서초
▁브리지
▁New
▁땃
▁자오
▁제압
▁트로이
줄기
▁데르
▁이드
▁계열사
▁분명히
▁오리콘
▁므
▁EC
▁러시
▁풍자
▁드라이버
IP
▁징계
▁초록
▁자연수
▁륙
▁감자
▁디렉
▁체조
▁다가오
ich
▁발리
▁오라
▁관음
▁챌린지
드르
▁be
▁봉건
▁설화
▁은데
▁SD
▁vs
▁매매
▁선비
▁부작용
▁뉴턴
▁정변
▁쾌속
지스
▁괴물
▁어미
▁예조
▁114
▁검찰청
▁블랙홀
▁미노
▁베니
▁유저
▁소규모
▁맑
▁정주
▁베네딕
▁플래시
▁대거
대원군
▁방사선
렉스
ial
▁공감
▁김정일
▁매니저
▁알루미
▁태극
▁코믹스
▁영산
▁자음
▁아랫
▁컨셉
▁태그
▁학업
▁안토니오
먼스
▁경신
▁이준
hn
▁퇴임
▁캔자스
▁답변
▁시정
▁지침
▁알아보
▁군중
▁양호
▁요정
▁컷
황후
▁Sc
ign
▁가드
▁빛나
▁조부
▁중형
▁악단
▁자택
▁115
▁구스타
▁벵
▁빔
▁김규
▁스칼
▁운수
러드
▁앵글
▁이남
▁118
▁시위대
저지
▁비로소
▁통치자
▁떨치
▁연승
타리오
조건
▁공조
▁세이브
▁윤치호
▁`
▁비기
▁체스
▁다녀오
▁원로원
TS
▁과반
▁비주
▁하프
▁모나
▁변이
보르
▁진사
▁일리노
▁취업
▁대부
▁생체
▁저널
▁깎
▁남미
▁종착
▁주부
▁일리노이
▁믹
닐라
▁로그
▁어긋
▁용이
▁키르
▁혜택
▁크리스티안
▁동정
▁증손
▁하르
▁헬리
▁무승부
▁우즈베
하루
▁땃쥐
▁지인
▁경찰관
▁승부차기
히코
▁구와
▁재상
▁카우
▁커널
▁1898
▁갑작스럽
기념
문트
▁숙청
▁뉴저지
▁레바논
▁풀려나
▁마력
▁만료
▁힌두교
▁남구
▁기각
▁밝기
▁본국
마이오스
▁GP
▁극작
▁맥도
▁서자
▁종속
▁천하
▁미하일
▁소방서
▁모로코
▁소모
▁밀집
▁외관
▁파란색
교도
함수
▁GS
▁미세
▁헬기
▁엇
▁바빌
바닥
▁순조
▁축출
▁통보
▁뇌물
▁우측
벨트
▁한족
▁III
▁반지름
▁스폰
▁전년
▁직면
▁코카
▁필사
▁성리학
▁왕세
▁연예인
▁웨스턴
▁체코슬로
▁체코슬로바키아
▁렐
▁선도
▁리뷰
▁사적
▁희귀
▁쯔
미사
▁예고
ph
쟁이
▁관제
▁웹툰
▁레슬링
▁스크립
려워하
▁그레고
▁디비시온
▁프로덕션
시즘
아먹
▁부스
▁케빈
▁범유행
속기
▁기증
▁호출
▁사쿠라
▁가옥
▁배수
▁척추
▁천재
타니
▁ㅕㅆ
▁서신
▁지출
▁케냐
▁129
▁시가지
▁무성
▁카디
▁젊은이
레타
▁발급
▁종래
▁대변인
▁의약품
▁알루미늄
▁광해군
▁쫓겨나
슬러
틱스
화물
▁말미
▁패럴
▁화력
테르부르크
▁맏
부리
▁승자
▁임원
▁파산
▁외야수
▁로비
▁발병
▁봉안
▁페널
▁Ne
▁스타리그
▁옳
▁센티
▁재혼
▁컴백
▁개막전
▁닦
타리
▁등기
▁어른
▁흘러
▁워크
▁중산
▁창출
▁한테
▁사위
▁요건
▁응시
▁켈리
▁폭넓
▁핑크
▁터뜨리
▁난징
▁실망
▁1899
▁벨라루스
▁글루
▁부의장
▁원천
▁재선
▁첨단
▁연산자
▁총사령
▁무명
▁마운트
코딩
▁저주
▁전속
▁중공
▁세이부
▁확실히
개미
▁부피
▁성폭
▁지옥
▁청산
▁케임
▁사용자
▁러셀
▁미들
▁예하
▁토양
▁회관
▁브리튼
TA
▁총칭
▁천문대
▁퉁
▁기차
▁사본
▁장례식
▁키보드
▁기술자
▁플라스틱
▁웬
rom
우트
▁황족
니까
▁드림
▁유라
▁뒷받침
▁오오
▁워너
▁넘어서
▁스트리
▁감싸
▁토끼
▁희곡
포로
▁유진
▁ch
▁유방
▁각도
▁남작
▁토미
▁감행
▁안테
느러미
▁끌어들이
▁괘
▁구경
▁벽돌
▁시범
▁142
▁얹
▁공리
▁양반
▁오크
▁옹립
▁혼동
MA
▁ID
▁찌르
▁거래소
▁조지프
▁두려워하
▁설교
▁독서
▁리프
▁사간
▁소생
▁교통국
▁아리아
ens
▁대치
▁폭포
▁월요일
토르
▁감마
▁만성
▁제국주의
▁대패
▁벨트
▁병기
파이어
▁타임스
▁프란츠
pp
▁학기
셰비키
방송공사
진군
▁BS
▁CJ
▁공적
▁지켜
▁광둥
▁채소
▁화자
ction
urn
▁신원
▁형조
▁도카이
타주
▁무함
▁정성
▁피겨
▁하얗
▁화상
▁어긋나
▁프톨레
▁더글러스
▁프톨레마이오스
▁가야
▁시리
▁의자
▁중복
▁룩셈
▁본문
▁시코
치기
lan
▁거세
▁스턴
▁마르티
▁룩셈부르크
럴드
▁JT
▁김지
▁수분
▁트리플
▁온타리오
▁보위
▁지치
▁Man
▁잃어버리
▁쟈
▁체류
▁대서양
▁부여받
ert
▁끊임없이
▁제네바
글라
▁마녀
▁시가
▁영문
▁왼손
▁축물
▁청주시
▁밍
브르
▁선배
▁자크
롤라이나
▁발기
▁금요일
▁스즈키
샤바
▁서류
▁그래미
▁점성술
▁콕
▁서장
▁촉매
▁코시
▁습지
덩이
▁동네
▁선행
▁정적
▁피신
▁플랫폼
▁게리
▁유체
▁광주광역시
▁익스프레스
▁동학
▁빌라
▁1902
▁간선
▁물품
▁함정
두리
▁기사단
▁몫
천리
▁명종
▁혐오
▁다항식
▁호르몬
▁흔들리
▁간토
▁니코
▁포획
▁표기법
▁''
▁가환
▁깃발
▁엔딩
▁정려
▁표적
▁강변
▁국영
▁얽
크로
▁독성
▁버드
▁우체
▁초신
▁스위치
▁러시아어
▁준결승전
그룹
▁그릇
▁단절
▁영등
▁서유럽
▁으려고
lic
▁사슴
▁관광지
▁마스크
▁바깥쪽
▁붙잡히
▁지식인
▁앗
▁수확
▁약자
▁위쪽
▁타케
▁코끼리
aw
▁나노
▁메커
▁치아
▁보이스
▁정동
▁소나무
▁매수
▁기니
▁원종
▁응하
▁해밀턴
▁광명
▁동행
▁로라
▁세비
▁정립
▁판례
▁갈수록
▁갈릴
▁참의
▁아이오
ys
ach
▁불꽃
▁연꽃
폴리
▁개소
▁검열
▁면제
▁부가
▁상금
▁슈팅
▁입각
▁주조
▁춥
▁대합
▁성지
▁전방
▁조립
▁탄도
▁비석
▁서리
▁하단
▁비행장
▁아돌프
짓점
▁고아
▁대손
▁복용
▁역량
▁기숙
▁마블
▁입국
▁꼭짓점
▁부회장
▁단축
▁보복
▁소시
▁염증
▁퀘벡
▁크롬
▁뮤지션
▁이용자
TC
▁강동
▁실버
▁원료
▁이단
▁헌신
레슬링
▁연기자
카가
텍처
▁갱신
▁산출
▁색채
▁쓰촨
▁울프
▁입성
▁고양시
▁아키텍처
▁박지
▁아산
▁열도
▁하치
▁간단히
LS
디나
타임
▁직결
▁코코
▁1901
▁포켓몬스터
▁No
▁광대
▁브뤼
▁에디션
▁패밀리
구르
히토
▁염색체
out
▁커스
▁삿포로
▁토착종
▁페널티
▁페르디난
▁민감
▁생생
▁임관
▁체르
▁특권
▁폭격기
테인
▁스텔
▁쿄
미트
▁단의
▁대두
▁보트
▁드러머
국사
▁극대
▁누적
▁서문
▁압둘
▁축조
▁표방
▁매카트니
LE
▁권총
▁이현
피어
▁생략
▁프로레슬링
링턴
▁어류
모스
▁수축
▁일산
▁카미
▁사이토
▁영국인
자르
▁레즈
▁분수
▁제로
▁리더십
▁요르단
▁지켜보
IG
▁공예
▁호모
▁케임브리지
▁김창
▁라그
▁아라비아
루아
▁버티
▁안경
▁페니
▁경성부
▁자작
▁바이킹
▁메커니즘
▁울산광역시
▁논하
▁여운
아웃
▁소말
▁실적
일으키
▁도요토미
▁불러일으키
ug
▁렘
▁례
로우
▁아브
▁오쿠
▁정문
▁사회당
▁차르
▁화강
▁kt
▁고산
▁체중
▁하비
▁언어학
▁발렌시아
▁동조
▁보헤
▁원본
▁터보
▁특색
▁광저우
▁알렉산드르
▁무궁
▁학대
▁쓰레기
▁아리스토
▁아시카가
▁옥스퍼드
▁MB
▁이태
▁그다지
▁비타
▁선동
▁갈리아
▁사업가
▁이병
▁조수
▁퇴역
▁노태우
▁장기간
▁트로피
▁홈구장
▁공명
▁섹스
▁어둠
▁회상
클레스
사리
▁불신
▁손꼽
▁어찌
▁카프
▁토기
▁All
▁개인전
▁파이터
▁썰
쿠버
펜하
▁교대
▁다마
▁크레이
기스
테르담
▁134
▁마우
▁질소
나우
카미
▁연봉
노미야
내리
ype
▁개화
▁현은
라이어
▁방송인
▁두께
▁조형
▁전염병
▁피고인
▁아인슈타인
올로
▁스님
▁원더
▁취항
▁훔치
▁당연히
▁알렉산드리아
▁Cl
▁EX
▁THE
▁푸에르
▁무함마드
▁검출
▁공고
▁김제
▁어뢰
ke
▁루타
▁만주국
▁지도부
▁1903
대장
정리
ase
▁공황
▁드레스
▁모서리
그래
카타
퀘어
▁반공
그레
▁미륵
▁패널
▁AN
▁가역
▁모모
▁전위
▁좌측
▁토요
▁헌정
베트남
하키
▁강간
▁삼촌
▁배우자
▁이성계
▁야마구치
▁노보
▁뛰어
▁마키
사이드
▁방글라
▁컨트리
▁1884
▁방글라데시
▁기분
▁아폴로
방울
▁구형
▁물가
▁직경
▁파병
▁쓰시마
▁김홍
▁와일드
처스
▁Gr
▁각색
▁남매
▁단면
▁에콰
▁취미
▁코믹
▁미시시피
▁에콰도르
그라
▁상고
▁이관
▁하리
▁One
도스
천사
▁로저
▁우치
▁인질
▁캐서
▁함선
역학
CAF
▁정유
▁LA
▁슬라브
▁세키
▁회피
▁히타
▁기념관
▁그레이트
▁대구광역시
▁앰
▁실재
▁정선
▁기념비
▁더욱이
푸르
▁데카
▁밀란
▁장벽
▁토시
▁1800
▁군산
▁날카
▁조승
▁복합체
라이언트
가와현
▁날카롭
▁신도비
▁아나키
▁염소
▁진전
▁오사카부
▁와이번스
▁발칸
▁의결
▁클라이언트
고스
▁네오
▁준주
▁중령
▁클라이
▁아미노산
불교
▁강대
▁실무
▁우회
▁마르틴
▁프란체
▁히로시
▁중앙아시아
▁구스
▁군함
▁상응
▁상트
▁에밀
▁프레드
▁농부
▁리만
▁도널드
▁콤팩트
▁북아프리카
네마
▁IN
▁깨지
11
▁경작
▁퇴적
▁티코
▁니콜라이
▁샌디
▁추첨
가르
▁음향
▁}
니시
▁CN
▁간신
▁대문
▁분량
▁조반니
리코
▁복소수
▁충청도
▁내걸
▁소자
▁유부
▁이북
▁전구
▁진료
▁마르코
▁을까
▁효고
▁꼭대기
ree
▁곡물
▁구약
▁도선
▁상가
간지
▁달걀
▁카사
▁팰
번뇌
▁관절
▁비뉴
▁철폐
테이션
▁선우
▁추론
▁꿀
▁팟
사우
▁공약
▁당수
▁심화
▁쥐과
▁소행성
▁일자리
▁기저
▁무슨
▁종말
▁갤러리
▁총대주교
파리
▁까닭
▁분출
▁민간인
▁소수자
pt
포터
▁가산
▁상경
▁유대교
▁전시회
ary
▁GO
▁묶이
▁한층
▁거짓말
▁데스크
▁방사성
ass
▁가열
▁가오
▁권장
▁전복
▁다케다
▁Ad
▁건륭
▁교량
▁러스
▁브란
▁신축
▁용서
▁정화
▁침체
▁하차
▁득표율
▁카스티
act
▁델타
▁돌기
▁뉴욕주
▁대성당
▁스토어
사업
▁Br
▁가신
▁대출
▁뒤쪽
▁반전
▁가브리
벤처
산성
아들
▁감안
▁격차
▁해남
▁활주
▁흥선
▁with
▁어드벤처
▁강희
▁모리스
▁수목
▁교도소
▁마가
▁막스
▁시야
▁자형
▁진행자
▁일렉트로
구역
▁견인
▁궁중
▁급수
▁냄새
▁상법
산맥
▁복권
▁우물
▁장자
▁반군
▁샌드
▁이반
▁116
▁220
▁지지율
개골
▁등용
▁남동생
▁볼리비아
▁절단
▁창녕
▁칼뱅
▁현감
▁거주지
▁기관총
몰로지
▁되돌리
▁인테르
▁페이스북
▁깨끗
▁라오
▁카를로
▁1860
ark
▁경인
▁민정
▁버마
▁체력
▁폭로
▁스트라이크
▁연대기
▁스크립트
▁글래
▁기슭
▁디트로
▁마카오
▁포스터
▁디트로이트
▁갈래
▁발령
▁접수
기념물
▁버클리
▁쓸
▁마니
▁무로
▁애리
▁올드
▁일파
▁맞붙
▁세바
▁1897
▁Ex
▁낙동
▁신정
▁오로
▁중원
ream
▁홉
곡동
▁ㄴ지
▁후반기
▁나루
▁평창
▁떡
▁단행본
▁중공업
▁카타르
▁대관
▁찰리
▁후작
▁가의
▁종파
▁태백
▁모티브
▁홍문관
▁애칭
▁사카이
▁일부분
▁가가
▁보성
▁상트페
▁상트페테르부르크
▁벽화
▁아소
▁쿠니
▁타우
▁솔루션
▁북경
▁전격
▁강남구
▁리조
▁장제
▁적군
▁과실
▁동형
▁왕정
▁입주
▁안산
▁캐서린
▁바르샤바
▁랍
▁전산
▁학력
▁델라
▁르노
▁브랜
▁미네소
리안
▁속편
▁카즈
▁합당
거진
츠크
▁농사
▁사살
▁수중
▁제작사
▁경제학자
▁애틀랜타
▁셜
▁Is
▁공손
▁돌입
▁마당
▁수료
▁호쿠
▁휴가
▁한국방송공사
▁저렴
▁효종
▁교육청
▁청소
▁팔레
▁공용어
▁타지
▁클라크
▁섀
리즘
반구
▁;&
▁con
▁고이
▁스퀘어
▁알프레
세기
▁리히
▁무술
▁집결
▁유닉스
▁1880
▁신동
▁오지
▁프렌
▁확진
▁BM
▁노이
▁분파
▁소행
▁이빨
▁122
▁고토
▁정경
▁쥐속
▁타협
▁괴롭히
▁마라톤
▁안드레아
▁함부르크
니지
▁갑옷
▁보강
▁빈도
▁살피
▁숙주
▁연동
▁창의
▁아마존
▁옥수수
▁경위
▁청색
스카르
▁그림자
iss
▁김민
▁ᆫ다며
▁게릴라
▁이주하
▁일러스트
▁파라과이
▁뻔
▁메라
▁세네
▁설립자
나미
▁브룩
▁블리
▁추리
▁나란히
▁새로이
▁2022
▁슛
퍼슨
▁고추
▁안치
▁동요
▁루크
▁막시
▁예명
▁오락
▁천연기념물
UR
▁낚
▁강풍
▁듀얼
▁석회
▁열심
▁유령
▁극작가
ii
케이
▁강철
▁군청
▁입양
콥터
▁ES
▁석불
▁이데
▁장원
▁출석
▁133
▁그레고리오
▁눕
기구
▁어로
▁재해
▁치우
네시
▁감추
▁메릴
▁짐작
▁돌아다니
ake
▁등극
▁처지
▁NGC
▁++
▁용암
▁프롤
▁호응
푸아
▁스노
▁이언
▁쳐들
▁스트라이커
▁엮
▁더비
▁무스
▁두개골
▁교육부
▁키예프
▁기성
▁수녀
▁아요
▁원격
▁확고
▁경쟁력
▁추종
▁엘리트
▁이용객
▁마애
▁이장
▁지청
▁해부
▁지방산
▁사무총장
▁흥선대원군
타케
해튼
▁극도
▁번성
▁유스
▁제왕
▁화순
▁소령
▁위생
▁유정
▁즐겁
자치시
▁CEO
▁특별자치시
▁대국
▁기상청
▁DM
▁연못
▁요법
▁우상
▁워치
▁윤보
▁재난
▁현행
캐롤라이나
▁선장
▁자카
▁콘테
▁그렇지만
▁격자
▁몽고
▁붙여지
▁손꼽히
old
▁사쿠
▁아치
▁함양
▁이동하
▁반역
▁이득
▁장단
▁종점
▁진수
▁파우
HO
타마
▁결핍
▁심야
▁제리
▁Mus
▁미생물
▁인프라
▁포도당
사관학교
▁결제
▁국유
▁농어
▁일괄
GA
▁개항
▁모용
▁자결
▁정관
▁해치
다운
▁가네
▁니카
own
▁Ro
▁이규
▁헬륨
▁CBS
▁대지진
▁법정동
▁시뮬레이션
▁프랭클린
▁감동
▁도사
▁명분
▁야시
▁펜싱
▁파이프
▁스리랑카
어뜨리
▁가도
▁스로
▁암흑
▁아스널
▁앨리스
▁위나라
▁자치체
거래
ork
▁파문
▁제조업
▁평민
▁하고
▁무궁화
렉션
▁성령
▁자생
▁탁월
▁국악
▁앞장
▁겉보기
▁막히
▁조계
▁아래쪽
▁그레고리
▁툰
미스
▁GDP
에미
▁NE
▁만년
▁문경
▁불행
▁아데
▁정인
▁무조건
lo
▁싣
멘스
삭스
파크
▁온갖
▁대사헌
▁마우스
▁수년
▁스태
▁모터스
▁선거법
버러
▁듀오
▁루비
▁미셸
▁부조
▁132
▁동성애자
▁삼국사기
위성
ick
▁이모
▁아이스하키
▁PR
▁가타
▁타석
▁쾰
▁시종
▁장흥
▁총무
▁인디애나
▁동참
▁베른
▁속주
▁주지
▁후속작
▁낙하
▁리모
▁빈번
▁복음서
▁or
▁꿈꾸
▁주화
▁퇴장
스기
원장
▁상연
▁조병
위원회
림픽
▁상기
▁신상
▁정국
▁센고쿠
▁그리스인
▁CONCA
▁글로브
변이
헌영
▁수심
▁시국
▁초원
▁돌연변이
▁보헤미아
Hz
▁대각
▁시애
▁장대
▁표창
▁호족
▁비주얼
▁CONCACAF
▁국당
▁단과
▁무르
▁매거진
▁헛
미즈
▁제너
▁른
라기
▁구니
▁두렵
▁아쿠
▁황도
ence
▁광양
▁현직
브리아
▁대성전
ix
타이드
▁통틀어
clude
메다
▁공파
▁총기
▁기병대
해지
▁국수
▁김병
▁맞대
▁맹세
▁발각
▁마다가
마리
▁카바
바야시
▁애리조
▁오클랜드
▁초고
▁pro
▁댓
벨라
▁양육
▁미주리
▁자세히
▁짱
▁SL
▁난이
▁소울
▁저격
▁피로
▁시애틀
▁저널리
▁타이베이
▁합스부르크
할시
▁투항
플로
홀름
▁로리
▁속이
▁재질
공산
▁틀리
▁호리
▁호의
ance
▁마르크스주의
▁숀
▁관동
▁페로
▁농산물
▁맨해튼
▁요제프
EM
루냐
를테
▁복식
▁빠져
▁아빠
를테면
▁청동기
▁이를테면
▁엥
ear
▁비늘
▁극락
▁티켓
▁소피아
▁볼셰비키
▁패럴림픽
▁감금
▁반성
▁따라가
▁우즈베키스탄
▁공표
▁김옥
▁내면
▁민요
▁수교
▁의과
▁활주로
▁1885
러피
▁GN
▁Ph
▁개헌
▁밀러
▁배속
▁이븐
▁포고
▁중앙부
십자
▁리터
▁매직
▁세븐
▁실존
▁즘
돌리
▁수염
▁야구단
▁창시자
▁숨지
▁입수
▁퍼포
▁1870
티시
▁바디
▁NAS
▁매끄럽
▁스폰서
어오
▁세손
▁제동
▁주되
▁오로지
▁퍼포먼스
쩌둥
▁감수
▁생계
▁마오쩌둥
파이
▁릴리
▁청자
▁예선전
▁유권자
▁냐는
▁리바
▁머스
▁원심
▁지로
▁우체국
관리
▁un
▁경질
▁왜구
▁대장군
▁To
▁우아
▁휩쓸
▁240
▁450
▁1871
▁평안남도
▁뾰
제이
▁참사
▁테일
테리아
▁프랜시스
▁돌출
▁벤치
▁하노이
▁네이션스컵
▁중상
▁학설
▁끌려가
▁볼프
▁카터
OV
▁관행
▁내성
▁신종
▁전날
▁파인
▁활발히
irl
▁증인
텔레스
▁유료
▁마닐라
▁프레이
라고
▁중서
▁차리
▁청룡
▁편집자
▁맷
▁역도
▁중생
▁화랑
lass
면체
▁지성
▁함자
▁해저
▁로렌스
▁쿡
테쓰
▁각성
▁남용
▁뉴클
▁실험실
▁1600
▁평안북도
ild
▁AD
▁앞쪽
▁이양
▁수원시
▁당내
▁콜레
▁파나마
▁USS
▁내무부
▁알래스카
▁분과
▁수인
▁출가
▁카니
등식
틀리
▁CM
▁고쿠
▁로페
▁생선
▁흉노
▁아리스토텔레스
▁개개
▁시합
▁트릭
▁양성자
▁프라하
▁프로리그
올라
▁문고
▁위스
▁퍼스
▁빅토르
ection
맥스
ans
▁루카
▁호크
▁다람쥐
▁유치원
▁브레이크
▁상급
▁요지
▁자칭
▁지오
▁휴게
러피언
▁알렉스
▁앤더슨
▁능선
▁빨갛
▁성실
▁다나카
▁구청
▁궁궐
▁박헌영
▁러시아인
사상
▁무척
▁이룩
▁정제
▁퍼스트
▁1200
▁유러피언
▁교실
▁나선
▁리비
▁이완
▁화기
▁불태우
▁역사가
▁독도
▁부각
▁케라
▁국보
▁조광
▁친분
▁아무것
▁올림피아
▁멍
▁조례
▁왕세자
▁Sy
▁동로
▁경영자
▁잡아먹
▁케이프
▁칼럼
▁동유럽
▁반란군
▁오른손
▁오미
▁케인
▁신문사
▁마다가스카르
▁려던
▁차용
▁초빙
▁테라
▁동물원
▁only
▁구마모토
▁겁
메스
체고
▁서산
▁재외
▁지쿠
▁김정은
▁루돌프
체고비나
무소
▁섬세
▁성화
▁이방
▁EBS
▁레이싱
▁앤드루
▁몸통
▁한미
▁한하
▁미군정
▁강령
▁징병
▁평형
▁봉수
▁약혼
▁MTV
▁공민왕
▁다저스
ivers
▁뉴클레오
ish
▁경시
▁김원
▁농경
▁메카
▁칙령
▁통용
▁배려
▁재활
▁밴쿠버
OD
▁대본
▁바트
▁송도
▁신발
▁통역
▁허드
▁윤보선
GM
▁관문
▁수필
▁김규식
▁유년기
▁클레이
▁헬리콥터
▁괄
환경
▁가솔
▁에프
▁영예
▁창문
▁특전
▁동대문
▁레이크
바흐
통일
▁전래
▁절망
▁주입
▁탑신
▁하류
▁부원군
▁극한
▁로얄
▁포식
▁예정자
▁경희
▁나우
▁메뉴
▁일당
▁총애
▁정의당
▁친위대
▁Jo
▁독창
▁총통
▁커플
▁비타민
▁성남시
▁크라이
코토
▁욕망
▁예수회
▁위너스
▁해리슨
▁남산
▁마술
▁산호
▁는다면
▁리조트
▁메이커
▁NT
▁명소
▁시노
▁카테
▁케플러
▁경호
▁나인
▁수다
▁시부
▁편제
▁포착
▁호스
▁솔로몬
▁ex
▁검정
▁제노
▁대대로
▁진해
토랑
▁담보
▁보행
▁뾰족
▁아날
▁찬양
▁하반
▁사각형
▁레스토랑
어사
▁안녕
▁도교
▁마차
▁보라
▁카지
▁데려오
▁제퍼슨
▁컴퓨팅
▁유혹
▁파도
▁하키
▁고속버스
RA
▁얕
oun
▁대북
▁모의
▁시몬
▁실정
▁차갑
▁화엄
원수
▁당연
▁플라톤
매매
▁관청
▁광도
▁모호
▁사역
▁소극
▁소음
▁스가
▁아키라
천면
▁남해
▁테리
▁대합실
▁클린턴
▁해리스
▁벅
▁추이
▁브루스
EL
lat
▁가맹
▁매리
▁찬사
▁천왕
▁침묵
▁긴테쓰
fe
에스
are
▁반기
▁수양
▁보로
▁블레
▁블로
▁최진
▁황소
▁효자
▁스톡홀름
az
신문
▁씨앗
▁Fr
▁국공
▁드미
▁라서
▁불변
▁자제
ical
▁스테파
▁북아일랜드
▁허정
▁서재필
▁오리온
EG
▁다테
▁선천
▁전한
▁프론
▁방어선
▁알프스
▁요시다
▁가늘
▁김유
▁마켓
▁이점
▁바이트
▁아나톨
▁@
지능
히트
▁무실
▁박종
▁주임
▁캐롤
▁인공지능
▁sc
▁드루
▁럭비
▁리보
▁폭파
▁개구리
▁리프트
▁총사령관
include
▁도둑
▁들여
▁수복
▁시중
블랜드
러브
▁넷째
▁라자
▁만장
▁본성
▁제물
▁분류군
라니
▁ㅓ야
▁색소
▁ABC
▁결별
▁채취
▁타스
▁피라미
▁샐
▁별세
▁화약
▁보수당
▁아키타
TP
▁":
▁CH
▁스텝
▁어군
▁카피
▁클리블랜드
정원
▁모어
▁엄밀
▁뛰어들
덴부르크
창호
▁DD
▁전담
▁포토
대표
▁AV
▁고든
▁로버
▁영유
▁원통
▁정거
▁나트륨
▁마천루
▁토스카
▁프린스
▁함경남도
▁전무
▁투자자
▁구두
▁벤처
▁일리
▁천국
▁210
▁비밀리
▁슬픔
▁초신성
▁리사
▁야전
▁퇴직
▁가이드
놀이
▁로우
▁마셜
▁내야수
▁타이거스
▁콘스탄티노폴리스
▁쾰른
▁로드리
▁선구자
▁자치주
카리
▁방콕
▁소중
▁대원군
▁극우
▁동향
▁웨인
▁유선
▁제명
▁차출
▁치과
▁서대문
▁알파벳
란토
사고
▁백두
▁약사
▁정형
▁켈트
▁노론
▁리베
▁로크
▁묘비
▁실권
▁위그
▁안테나
▁따지
▁ATP
▁여유
▁펌프
▁홀리
▁경전철
▁동시대
▁유아기
부르
▁김형
▁왕권
▁장시
▁천거
▁파손
▁유격수
▁가브리엘
메드
▁종식
▁중합
공산당
▁주차장
▁피아니스트
▁멧
▁삼림
▁아이폰
▁앞장서
▁타이어
▁튀르크
FL
대사
▁구실
▁미수
▁플리
▁적외선
▁봇
▁엣
▁강렬
▁밸리
▁형질
클레
▁목회
▁야드
▁왕건
▁이의
▁톈진
▁헬싱
▁드디어
▁용인시
▁정부군
수스
▁감상
▁책임지
암동
휴일
ica
▁감성
▁감찰
▁마에
▁상행
▁스칸
▁임정
▁가락
▁사방
▁유목
▁연극배우
소통
▁간첩
▁그저
▁불참
▁사설
▁친족
▁캐리
▁잇따르
▁딥
충류
대교
말리
▁매트
▁뭉치
해살이
▁사로잡
▁콘테스트
▁헤르체고비나
▁구내
▁방치
▁삽화
▁애정
▁마누엘
▁소말리아
ey
캐슬
티넘
▁리본
▁악보
▁준수
▁칸국
▁플래티넘
▁he
▁공존
▁실록
▁절정
와라노
▁연산군
▁프레데
▁의사소통
▁후지와라노
군다
▁고딕
▁산성
▁송신
▁여권
▁연말
▁예약
▁운임
▁스트로
▁1889
▁브루클린
60
▁비엔
▁사탕
▁삼존
▁어는
▁불량
▁새우
▁슬하
▁외형
▁전전
▁지자
▁직통
테이너
tern
▁간신히
합성
▁마땅
▁시네마
▁열심히
▁나카무라
▁스카우트
▁구르
▁니혼
▁모하
▁서임
▁여서
▁치환
▁가솔린
▁화강암
▁늙
▁건전
▁라리
▁로트
▁모금
▁본작
▁의류
▁집정
▁치루
▁쿠퍼
▁기관지
▁두려움
▁목요일
▁발라드
▁가나가와현
▁대영
▁징수
▁무형
▁아끼
▁하시
▁해독
▁AKB
▁말미암
▁메디치
▁브레이
▁엔트리
▁오바마
▁접어들
▁챙
▁김준
▁봉화
▁중퇴
▁피지
▁For
▁패트릭
sh
망디
바나
▁반포
▁베트
▁사서
▁삼중
▁시크
▁이송
▁OST
▁라이더
난성
▁백과
▁영정
▁도망가
▁So
▁다윈
▁메소
▁요충
▁뉴캐슬
AF
위안
▁모색
▁유희
▁토트
▁Com
부로
천동
▁pr
▁격리
▁능하
▁비야
▁로마인
▁금호
▁리옹
▁작물
▁트렌
▁한중
▁해태
▁피라미드
bo
가미
▁볼트
▁은거
▁인가
▁하야
▁생존자
IL
▁갈아
▁송출
▁호대
▁츄
유예
▁우림
▁종자
▁항만
▁깜
▁Ma
▁도피
▁유의
▁정작
▁기숙사
▁낙동강
▁스타트
애미
▁공소
▁비준
▁똑같이
▁Part
▁마이애미
▁훙
▁Mo
▁도래
▁요격
▁투여
▁후배
도르프
▁장학금
▁지상파
▁떨어뜨리
▁프란체스코
프로
▁수락
▁클러
추부사
▁카카오
교통
▁권하
▁앙골
▁음운
▁공휴일
▁토리노
▁Live
▁미야자키
풀이
▁가두
▁김명
▁열강
▁주계
▁중수
▁일본국
▁자유민주당
▁EU
▁거미
▁정종
▁Sou
▁부딪히
에미리트
▁아랍에미리트
▁양심
▁잠정
▁당기
▁병자
▁의령
▁정읍
▁페트
▁1848
드레
▁공성
▁벨리
▁서태
▁워즈
▁한신
바이트
▁어시스트
말로
▁거란
▁원군
▁천주
▁여배우
▁튀니지
▁JTBC
▁프랑스인
▁튼
▁기이
▁받치
▁연정
▁광복군
▁프랑스령
▁급여
▁모욕
▁바지
▁성곽
▁하구
EE
지기
▁평판
클리드
▁미야기
▁센티미터
▁격추
▁순종
▁암스
▁포털
▁Col
▁유니버설
uc
화문
▁귀신
▁김광
▁인칭
▁자서
마르크
▁에스페
▁티아
▁대리인
▁에이즈
▁보수주의
▁카탈루냐
에몽
▁금산
▁워커
▁레이더
▁마이어
의사
▁교의
▁굴절
▁무과
▁습윤
▁응급
▁익숙
▁탄약
▁대법관
▁대승불교
▁"&
▁랴오
▁만화가
▁무네
▁조인
▁국제법
▁마법사
▁줄기세포
▁캅
▁매킨
▁해피
▁카스티야
간다
관계
▁문집
하이오
▁API
▁검은색
▁여의도
▁레드삭스
▁오하이오
▁쌍대
▁진로
▁코리
▁모건
▁유식
▁교통부
▁사운드트랙
ann
▁류큐
▁배분
▁사쓰
▁평평
▁정거장
▁패러디
거스
▁볼로
▁자명
▁우루스
▁지배자
▁니키
▁음절
페스트
▁Time
▁부합
레스트
▁시코쿠
메니
▁EM
▁여사
▁재팬
▁추력
▁혼다
파니아
▁int
나마
지부
lay
▁BC
▁권역
▁수로
▁한림
▁아이즈
row
▁공대
▁공영
▁국한
▁총격
▁바그너
▁그라운드
▁기전
▁김인
▁댄서
▁리카
▁안개
▁여고
▁재일
olog
▁SNS
브로
ous
▁동진
▁비정
▁점포
▁추억
▁대단히
▁레이트
▁부총리
▁정치학
▁하노버
▁아날로그
▁비토
▁베어
▁비대
▁사민
▁산둥
▁업자
▁명확히
OP
▁검거
▁국외
▁라르
▁로키
▁사수
▁설문
▁치카
▁대니얼
▁프란치
자루
orn
ows
▁고생
▁메일
▁실증
▁오만
▁방사능
▁가혹
▁도박
▁동산
▁지법
찌르
현동
▁근사
▁종군
▁시멘트
서스
▁GB
▁고로
▁골격
▁부다
▁절벽
▁제위
▁특화
▁하행
▁커리어
용차
▁그랜트
▁초콜
▁우한
▁헬레
프랑크
▁고인돌
▁카메룬
▁남군
▁단결
▁대마
▁몰아
▁방대
▁선명
▁용액
▁클라우
▁문단
▁셀레
▁관현악단
▁경복
▁연립
▁오디
▁케르
▁법원장
▁페트로
▁곶
▁국교
▁글꼴
▁Bla
▁노르망디
시노
정동
▁남방
▁마테
▁부평
▁최선
▁편견
드리아
▁Your
▁관상
▁모세
▁무안
▁범행
▁신곡
▁종양
▁타락
▁라인업
▁제우스
▁헤어지
버른
제품
▁보령
▁소외
▁항체
span
▁131
▁무찌르
▁체인지
으로
▁가쿠
▁메스
▁황색
▁대나무
▁저지대
▁파일럿
▁onlyinclude
▁GM
▁가중
▁꺼내
▁단군
▁하코
▁형벌
▁NASA
▁촛
▁가고
▁간략
▁모빌
▁선봉
▁콘솔
▁후진
메이카
▁정보원
▁자메이카
▁쾨
칼리
▁수식
▁은혜
▁Sch
▁교부
▁봉인
▁사림
▁중소기업
▁1883
▁라디
▁라바
▁모범
▁숙부
▁절감
▁ㄴ다면
▁영화상
히사
▁at
▁무작
▁보루
▁재편
▁녕
지아
▁객차
▁김윤
▁속력
▁중엽
▁원산지
센스
토프
▁범하
▁사학
▁산요
▁유우
▁정반
▁공화정
▁제이슨
▁u
▁쪼
▁기세
▁노면
▁전보
른스트
▁라파엘
▁연구회
▁줄리아
amp
▁리즈
▁야외
▁연희
▁판소리
▁가토
▁다툼
▁도키
▁리마
▁서귀
▁피리
▁전반기
▁욱
▁공무
▁녹화
▁램프
▁발상
▁큐브
▁국정원
▁에이전
▁기량
▁코소
워스
▁SA
▁다듬
▁라기
▁식스
▁엔드
▁유공
▁적료
▁평지
▁플러
▁할인
네그로
▁해상도
▁본뜨
▁하남
▁ref
▁고분군
▁교향악단
▁유클리드
80
▁열전
▁항우
▁날아가
▁부상자
▁스칼라
CC
▁기와
▁안방
▁위조
빌라이
▁비서관
ood
▁Ge
▁무섭
▁분단
▁조교
티모어
▁북유럽
▁텍사스주
ink
▁고의
▁병마
▁안나
▁카마
ern
▁스루
▁씨족
▁외래
▁이터
▁자수
▁탄자
스트리
▁뫼
▁Or
▁사영
▁온난
▁이회
▁지석
▁멜버른
▁선진국
▁연장전
▁가우
▁상어
▁송파
▁수위
▁다이어
▁스캔들
▁Wind
돌이
지로
프턴
▁RS
▁간사
▁도네
▁세습
▁콜럼
▁노벨상
▁위구르
▁프로모
▁1882
RT
치히
▁계주
▁지극
▁헤이안
에고
▁위로
▁통신사
▁OB
▁대인
▁어기
▁우산
▁피치
▁다이노스
II
▁콥
화학
▁RP
▁관례
▁단속
▁멋지
▁아유
▁요양
▁카네
ost
▁tv
▁결사
▁족보
▁함량
▁토마토
▁프로그래머
US
▁관악
▁몰타
▁왕궁
▁요절
▁파벌
▁너무나
▁내일
▁대좌
▁동적
▁부교
▁천수
▁표정
▁거성
▁시안
▁군사력
▁아이언
▁카스트
40
▁루키
▁성원
▁월터
▁유생
▁재래
▁회귀
▁330
▁해안선
▁강행
▁북군
▁사안
▁유서
▁주선
▁야마가타
▁받들
▁배달
▁정정
▁최영
▁후예
▁Day
▁미토콘
▁산티아
▁관계없이
▁미토콘드리아
데라
팡이
협회
▁세련
▁장덕
갈리
▁고흥
▁급증
▁동포
▁법관
▁선대
▁정은
▁올리브
▁중공군
▁히브리
▁Girl
▁La
▁내력
▁정월
▁항원
▁기념일
▁영원히
▁파시즘
▁필립스
▁쿠빌라이
융합
▁부왕
▁붙잡
▁성동
▁출자
▁협업
▁시즈오카
도라
▁고노
▁다우
▁랭크
▁으리
스탄불
▁대상자
▁대표자
▁폐기물
▁미스터리
▁이스탄불
▁덮개
▁리믹스
▁부파
▁직속
▁항로
▁독수리
▁사이타마
▁서면
▁어파
▁우시
▁우월
▁종영
▁데니스
▁부르주
▁사업소
▁슈퍼컵
▁핵융합
▁효고현
포시
호란
▁부치
▁상록
▁수열
▁식용
▁사로잡히
▁몹
▁단말
▁빙하
▁잠깐
▁조셉
▁LED
▁단체전
▁해운대
▁FK
▁남하
▁아목
▁조슈
▁형편
▁레오폴
▁프랜차
▁호스트
▁컨트롤러
▁렛
게스
서니
▁발동
▁베풀
▁얽히
▁주창
▁무실점
▁냥
여객
▁뇨
▁러일
▁소프
▁타수
오르크
▁4000
▁사회민주당
OT
▁군벌
▁노사
▁보름
▁스콜
▁제천
▁테네시
oll
▁강당
▁넬슨
▁대진
▁산시
▁증폭
▁켄트
▁피드
▁서사시
▁번창
▁양보
▁1868
▁컨테이너
지리
해자
▁사치
▁신입
▁태후
▁오스틴
▁오일러
▁아케이드
▁관목
▁규탄
▁버터
▁사천
▁안티오
▁프랜차이즈
▁괌
▁염려
▁위력
▁여성주의
▁교직
▁내분
▁밝혀
▁고트
▁금전
▁딜런
▁라미
▁분사
▁양수
▁제단
▁법조인
▁앙골라
▁제갈량
▁휴게소
본부
▁전수
▁증오
▁메릴랜드
▁과테
▁라카
▁성악
▁베이커
▁과테말라
▁겨루
▁능동
▁시비
▁급속히
▁데려가
▁배역
▁오아
▁전세
▁점거
▁퍼즐
▁하의
▁각료
▁농지
▁밀레
▁호아
▁320
▁경주시
▁파푸아
▁샨
히드
▁국철
▁습관
▁영덕
▁일각
▁절제
▁접종
▁청계
▁로마자
▁가고시마
▁공안
▁밝혀내
▁야마모토
▁찢
▁너머
▁대도
웨이트
펜하겐
▁new
▁발전기
▁레인저스
▁코펜하겐
▁몬테네그로
▁암스테르담
▁놈
▁안무
▁저조
▁지난
▁척도
▁초안
▁축전
▁카세
▁우의정
▁베르나르
바오
▁박성
▁외과
▁정령
▁대명사
당기
▁노후
▁데드
▁생리
▁컨설
▁타리
▁트이
▁사이먼
걸이
게임
▁고온
▁넥센
▁우연
▁이항
▁헌장
▁복음주의
▁TR
▁바울
▁우왕
▁이메
▁잔인
▁장병
▁치하
▁요충지
▁지붕돌
▁산티아고
▁프란시스코
웍스
▁거처
▁수량
▁정몽
▁종신
▁출동
▁치유
▁편향
▁에스페란토
▁후쿠오카현
▁망치
▁복종
▁이바지
▁코스타리카
▁늪
독립
▁DF
▁배드
▁양대
19
나드
▁게끔
▁성산
▁소아
▁주심
LA
les
▁브릿
▁자진
▁자서전
▁화장품
▁마이크로
▁도상
▁상국
▁서스
▁서주
▁영월
▁루이지애나
▁김선
▁사비
▁조영
▁차선
▁충렬
▁피핀
▁그만큼
▁서바이
▁신주쿠
▁좌의정
디나비아
▁스칸디나비아
gr
▁위촉
▁이아
▁위안부
▁주계열
▁네티
▁샤프
▁슈테
▁톰슨
▁페더
▁end
▁수요일
▁요하네스
▁쿠웨이트
ung
▁천마
▁헌터
아다니
▁결과물
▁포르노
퍼레이션
▁이탈리아어
▁슌
▁끊기
▁노랗
▁은신
▁철강
▁동맹국
꼬리
▁소대
▁순차
▁자재
▁청도
▁추서
▁거지
▁대차
▁리코
▁축산
▁"()
▁텔레콤
▁가면라이더
익스
▁NP
▁정재
▁타일
토리코
▁도자기
▁에른스트
▁le
▁모차
▁영암
▁직행
▁김옥균
▁서해안
▁맬
▁결핵
▁온대
▁타로
▁피크
▁해왕
라이드
▁김승
▁대청
▁전락
▁카툰
▁하타
▁브뤼셀
▁시트콤
▁철저히
▁갯
▁촐
▁고집
▁대덕
▁주성
▁부르고
▁Comp
▁육군사관학교
OW
▁톡
공주
레드
우에
▁노아
▁배양
▁압록
▁충무
▁함흥
▁후유
▁교육자
▁게오르크
▁니콜라스
려들
▁기쁨
▁긴밀
▁대종
▁리튬
▁문종
▁전학
▁준장
▁칭송
▁탈취
▁203
▁데이브
▁유적지
▁컬렉션
▁트리오
▁colspan
니파
어넣
▁여도
▁차츰
▁첼로
▁측량
▁초콜릿
단지
▁by
▁레프
▁문무
▁바비
▁오하
▁코네
로이드
▁데일리
▁케이크
▁푸에르토리코
비크
▁격려
▁낚시
▁박상
▁원활
▁재발
▁짐승
▁글래스
▁로스쿨
▁도카이도
▁스킴
▁아흐
▁앤디
▁이우
▁집착
▁기업가
▁1893
셀러
업자
gin
▁Fe
▁공양
▁미성
▁페오
▁폐렴
▁한큐
▁280
▁가라앉
▁장로교
▁지리학
상시
eth
▁내무
▁온화
▁헤로
▁흡사
▁흥분
▁백악
▁조니
▁하급
▁막판
▁선인
▁심포
▁학장
▁아라곤
▁윗부분
▁펠릭스
▁플랑크
▁해안가
▁플로리다주
▁갚
▁관성
▁김치
▁단정
▁아쉽
▁조제
▁생리학
▁지바현
세유
▁영천
▁월트
▁천천
▁IOC
▁어웨이
IR
▁과시
▁끓이
▁도출
▁반동
▁스포르
▁유학자
▁천안시
▁가르시아
티에
▁AB
▁금동
▁아와
▁우두
▁유족
▁도야마
몬트
바리
▁도이
▁앨리
▁주세
▁침례
▁TBS
▁노미야
▁민병대
▁비스타
▁아우르
▁함경북도
▁핼
▁관우
▁굳히
▁입헌
▁칼슘
루이스
▁논리학
▁프리스
▁Univers
북구
▁에로
▁점검
▁천천히
▁Rock
▁핏
▁까마
▁림프
▁마트
▁심부
▁제철
▁조롱
▁특기
▁탄자니아
계승
▁격하
▁발목
▁심상
▁애인
▁유영
▁한문
▁Rec
▁국제선
▁로베르
▁부르고뉴
들러
▁간직
▁과잉
▁버러
▁소동
▁아츠
▁유포
▁이황
▁서초구
▁픽처스
▁위즈
▁전미
▁Sup
▁게오르
▁발사체
▁사상가
익스피어
▁덥
▁가부
▁귀속
▁배리
▁공방전
▁동맹군
▁셰익스피어
oth
▁상정
▁소사
▁카레
▁우울증
▁하이퍼
▁대주
▁마타
▁버섯
▁심문
▁용품
▁중고
▁녹색당
▁조선왕
▁미나모토
▁참모총장
▁Su
▁구금
▁구치
▁라드
▁라흐
▁사귀
▁세레
▁톱니
▁휴양
▁고려사
▁더블린
▁인플레이션
▁펫
▁공법
▁구독
▁미츠
▁위계
▁재차
▁특사
▁순양함
▁가와사키
국적
▁명인
▁으시
▁쇠고기
▁인공위성
나기
▁IV
▁견고
▁김천
▁무단
▁배기
▁한번
▁서포터
▁수나라
▁으려는
▁카운트
▁중앙은행
태평
▁강성
▁비지
▁웃음
▁청량
▁황산
민스터
▁도르트
▁당뇨
▁명부
▁물결
▁불경
▁아메
▁악곡
▁에바
▁자립
▁장녀
▁파편
▁강화도
▁절도사
그마
▁고스
▁라가
▁메틸
▁스투
▁경계선
▁성매매
▁데스크톱
폭탄
mer
▁시속
▁에마
▁이바라
▁평안도
▁미아
▁살라
▁슈타
▁슬램
▁조현
▁직계
▁풍습
▁현판
로니아
▁스탠드
▁차세대
▁휘말리
▁박테리아
▁노랑
▁대접
▁성기
▁소용
▁연회
▁제창
▁230
▁GNU
▁율리우스
▁CG
▁나뭇
▁노프
▁원유
▁주먹
▁USB
▁밀려나
▁산스크
▁러시아군
▁상관없이
▁산스크리트
▁Do
▁축성
▁코호
▁피사
▁다이빙
▁1892
▁펩
비안
유사
▁코사
▁베르타
▁마르세유
▁프레임워크
연수
자동
트르
▁공시
▁데미
▁사변
▁옥타
▁이범
▁장래
▁향기
▁Car
▁스탠리
▁1888
▁뮐
네임
헤드
▁면모
▁발자
▁이은
▁형용
▁끼우
▁산수
▁유무
▁자코
▁재앙
▁다면서
▁아브라
▁과연
▁꾸리
▁리차
▁불사
▁시우
▁울릉
▁금나라
▁로이드
▁물려주
ublic
▁계량
▁닉슨
▁불계승
▁서기관
▁세비야
▁수차례
▁케이트
▁from
ah
▁푹
▁Sw
▁강진
▁계보
▁네모
▁라즈
▁애초
▁에반
▁하임
미디어
▁관현악
▁세네갈
▁허드슨
▁미식
▁사키
▁어의
▁펠트
▁후하
▁문자열
▁쫓아내
▁펠리페
▁대중교통
▁볼티모어
▁깁
▁덱
쓰기
연의
▁ar
▁동종
▁반주
▁아다
▁카야
▁퇴위
▁필하
▁로빈슨
▁자라나
둘기
▁거룩
▁매달
▁모던
▁수력
▁순례
▁정진
▁사커
▁이봉
▁소학교
▁유전학
▁좌표계
보리
▁농축
▁변종
▁포츠
▁대공국
▁활동가
티노
ron
▁머니
▁복싱
▁청송
▁애덤스
▁조승우
AE
다보
철수
코르
홍색
▁나름
▁대금
▁붕어
▁아지
▁페스
▁해결책
▁1876
▁겟
사태
▁납부
▁맥아
▁시문
▁아디
▁이산
▁펀드
▁게시판
▁고려대
▁볼로냐
▁참의원
▁후원자
DA
▁뱃
클라
▁군데
▁단조
▁서예
▁약점
▁재결
▁우에스기
▁프린스턴
▁알렉산드로스
▁굶
▁당황
▁선양
▁토이
▁다카라
▁대전차
▁레이디
▁보좌관
▁아무리
▁펭
네트
라호
▁co
▁박수
▁부류
▁해병
▁주니치
로쿠
▁너스
▁니켈
▁도제
▁새뮤
▁채색
▁꽂
▁씻
▁사간원
▁프리미엄
▁노스캐롤라이나
뮬러
큐어
▁구문
▁군관
▁낙양
▁본체
▁스모
▁임계
▁죄수
▁파파
▁브래드
▁사절단
▁레버
▁미미
▁부양
▁Gre
▁바이어
▁이즈미
ational
▁웨스트민스터
광성
▁도하
▁라시
▁물류
▁중일
▁통폐
▁교구장
▁민영화
▁북조선
▁올리버
▁용의자
▁장난감
▁토트넘
▁1866
암리
▁ML
▁댓글
▁도약
▁마구
▁바시
▁박자
▁수하
▁신진
▁에리
▁유능
▁사단장
▁쏟아지
▁집행유예
다오
▁경무
▁긴키
▁깃털
▁백자
▁앤서니
분열
▁SH
▁송환
▁이호
▁전권
▁중개
리카락
른베르크
▁1886
▁머리카락
▁SV
▁마린
▁알폰
▁애슬
▁오메
▁제르
▁조개
▁초전
러뜨리
▁간사이
▁스테판
▁장제스
▁wh
▁실각
▁익명
▁베이비
▁구스타프
▁브리티시
▁광선
▁두각
▁산청
▁습득
▁여건
▁유머
▁일진
▁260
▁바람직
▁보안법
▁전주시
ble
▁간혹
▁레트
▁코소보
▁페미니
▁Tour
슈타
우회
▁로브
▁모라
▁생모
▁손녀
▁유다
▁작중
▁저우
▁조소
▁경영학
▁독립군
▁조나라
▁프란치스코
EST
▁무수
▁원상
▁행방
르타뉴
▁역사학
▁브르타뉴
▁페르난도
▁베이시스트
꿈치
▁라니
▁비우
▁아자
▁요괴
▁천지
▁프루
▁270
▁구획
▁발의
▁산물
▁얼룩
▁완도
▁촛불
▁출혈
▁쿼크
land
▁스테이
▁스테인
짜기
▁마티
▁엘런
▁차수
▁펠로
▁펴내
▁포탄
▁표하
▁덩어리
▁통폐합
▁돗
레시
▁KB
▁도성
▁번갈
▁세분
▁파커
▁삼각주
▁1887
▁베네딕토
너드
하임
▁배척
▁장애물
▁1861
▁대한항공
▁빅뱅
▁타구
▁현과
▁Wii
▁모나코
▁바로크
▁도미니카
▁모차르트
▁Dream
▁삼국지연의
▁마나
▁위시
▁잘리
▁사쓰마
▁축구팀
▁코스트
▁재단법인
▁여타
▁지아
▁근거지
▁새뮤얼
ition
▁프로모션
AI
▁동창
▁외환
▁지면
▁포화
▁합천
▁홍성
▁강서구
▁부분군
▁홈경기
▁1850
▁Life
지오
ult
▁강세
▁경매
▁내포
▁사내
▁오일
▁생성물
▁화요일
▁유니버스
▁가닥
▁무자
▁올레
▁자판
▁공연장
▁해석학
▁마르쿠스
▁카르타고
▁RT
▁it
▁완결
▁음주
▁정예
브리드
▁개정안
▁컨텐츠
▁드미트리
▁싹
orm
▁Up
▁세무
▁슬프
▁오대
▁피닉스
▁렙
코타
▁AG
▁남조
▁모국
▁복위
▁증세
▁직사
▁홀딩
▁당선자
▁요금소
린트
즐리
▁TC
▁배트
▁오산
▁접합
▁착하
▁뛰어넘
▁보너스
▁센다이
▁집정관
니오
▁급히
▁저축
▁토목
▁편안
▁표절
스코트
▁보살상
▁선제골
▁낭만주의
제비
▁망하
▁모닝
▁몰두
▁이별
▁자궁
라호마
▁아카이
▁오클라호마
동자
▁자릿
▁환관
▁노동력
▁프랑코
아메리카
▁하이브리드
▁댈
직경
▁경건
▁앵커
▁유타
▁가해자
▁불러들이
▁Ed
▁고창
▁다행
▁버크
▁위패
▁이누
▁시직경
▁신세계
▁클레멘스
▁기밀
▁삭스
▁필연
▁히토
▁재판부
▁헤라클레스
왕후
▁교지
▁꺼리
▁패권
솔리니
▁스트리밍
▁오스트리
▁관내
▁동차
▁만점
▁말단
▁왕관
▁워킹
▁단거리
▁1864
▁Open
콘신
▁"-
▁암모
▁애완
▁1830
▁석가모니
▁위스콘신
열차
▁건네
▁눈치
▁예의
▁전교
▁파직
▁음악원
▁도라에몽
▁승하
▁여호
▁백악기
▁카이로
▁휘두르
EP
예술
타입
ton
▁공판
▁광업
▁대강
▁뒤늦
▁딸리
▁리트
▁매스
▁양현
▁혼혈
▁후세인
▁마을버스
▁컴파일러
▁도르트문트
거나
▁en
▁가독
▁관용
▁근래
▁스몰
▁평탄
▁허블
▁감리교
라이어티
▁미네소타
▁버라이어티
디슨
▁더하
▁발톱
▁승단
▁잔디
▁장전
▁카와
▁네티즌
▁데이빗
▁크리에이
▁다카라즈카
▁마요
▁방공
▁사하
▁쓰루
▁에두
▁재벌
▁홈즈
▁로맨틱
▁사나이
▁주나라
▁황해도
▁아이디얼
▁이시카와
▁배아
▁불분
▁수이
▁아편
▁어우
▁정황
▁추존
▁현미
▁격투기
▁관련자
▁재판관
해살이풀
▁백업
▁하얀
달마
클럽
▁ㄴ데
▁고모
▁라라
▁매진
▁민물
▁뷰티
▁스기
▁스윙
▁챙기
▁청문
▁푸아
바도르
▁캣
▁an
▁등등
▁조경
▁라치오
▁유전체
▁1881
▁트레이닝
ION
ave
▁선율
▁황자
▁난이도
▁남베트남
▁객원
▁나마
▁러닝
▁벌레
▁소라
▁양조
▁침대
▁헌납
▁iOS
께끼
플린
▁Ab
▁기고
▁도산
▁보정
▁편하
▁까마귀
▁무작위
▁수수께끼
브웨
스레
▁다비
▁알맞
▁야망
▁잠실
▁전리
▁코난
▁트란
▁행정동
▁피츠버그
리쿠
▁구례
▁남송
▁목욕
▁아타
▁엿보
▁조심
▁사들이
▁캐스트
▁Music
TE
▁고하
▁그란
▁기통
▁세간
▁왕성
▁짐바
▁찍히
ject
▁롬바르
▁모멘트
▁반대파
▁외무부
▁1872
▁리에
▁생도
▁아이콘
▁압록강
▁루스벨트
▁XP
▁군세
▁로니
▁승지
▁오우
▁재고
▁코뮌
▁흑백
올로기
▁기획사
▁대표단
▁이데올로기
▁루나
▁별장
▁부풀
▁산기
▁용사
▁쿠로
▁농어촌
▁이메일
▁부다페스트
▁레비
▁발포
▁베일
▁부실
▁양면
▁의례
▁지경
▁돋보이
▁여학생
▁제프리
▁합창단
나파
▁닌자
▁반죽
▁복직
▁캐피
▁콘티
▁통지
▁750
덕왕
▁BL
▁김희
▁미상
▁부전
▁어촌
▁토로
▁투하
▁판관
▁화성시
▁쵸
▁킷
렌스
ics
▁if
▁국호
▁삼척
▁인제
▁종업
▁대교구
▁파충류
▁부르주아
▁세계유산
▁교제
▁극찬
▁리브
▁메츠
▁원동
▁직관
▁파기
리아스
▁라이스
쿠니
▁곡면
▁곱셈
▁이례
▁파주
▁노르드
▁범죄자
뛰기
성경
▁경도
▁꼬마
▁닛산
▁상파
▁시원
▁신봉
▁다시금
▁마르셀
▁1863
▁무솔리니
▁당과
▁샤이
▁진흙
▁탄산
▁밀가루
▁HTML
▁꿰
화경
ier
▁Sm
▁가곡
▁경량
▁괘불
▁내재
▁발산
▁북벌
▁정명
▁친밀
▁파열
변속기
▁다비드
▁슬로건
ool
▁금고
▁메우
▁배향
▁익산
▁중랑
▁취향
부아르
▁승용차
▁화학자
루크
림사
▁순항
▁가든
▁가비
▁브렌
▁주고
▁해킹
태평양
▁개체군
▁무로마치
QL
▁나탈
▁인위
▁계승자
평리
▁AL
▁병단
▁살짝
▁종묘
▁체하
▁Don
▁참가국
▁취리히
▁코호몰로지
ru
▁엡
▁단국
▁레아
▁입시
▁켄터
▁탐정
▁앞세우
▁호크스
▁te
▁거꾸
▁계좌
▁고난
▁납작
▁당진
▁의용
슬라프
▁초록색
▁유라시아
데자
바인
워즈
▁대의
▁두어
▁루즈
▁복역
▁승상
▁불분명
▁작품상
데자네이
▁1873
▁세르게이
비오
che
▁ㄹ라
▁기쁘
▁덴쇼
▁오트
▁클릭
▁햇빛
▁타임즈
번에
▁조장
▁페라
▁페인
▁휩싸
▁공통점
▁국민회
▁1865
▁교통사고
▁교동
▁매립
▁완비
▁장쑤
▁조시
▁태아
▁피카
▁시간대
▁청년회
▁하얀색
ise
▁경마
▁모란
▁박진
▁위법
▁을사
▁작년
▁코마
▁킹스
▁여진족
▁폼페이
▁샵
타스
ode
▁도도
▁서지
▁에치
▁팔작
▁와이드
▁항아리
리야
▁계엄
▁과다
▁비키
▁옹주
▁왓슨
▁잠기
▁IMF
▁그나마
▁챌린저
▁탐험가
▁마스코트
▁열렬
▁외상
▁픽셀
▁경복궁
▁오카야마
▁쩔
▁신대
▁양궁
▁충당
▁하스
▁해시
▁제너럴
▁1891
리언
▁PM
▁걸작
▁몸돌
▁착취
▁한창
▁허목
▁안산시
▁야쿠르트
데자네이루
▁리우데자네이루
▁등단
▁벌리
▁티모
▁유니언
더지
매김
시대
▁구강
▁단자
▁대목
▁봉황
▁슈고
▁요즘
▁조공
▁처방
▁캐치
stem
▁몰도바
▁박영효
▁Night
바지
▁반항
▁법전
▁세단
▁쇼크
▁다국적
▁생화학
▁제조사
▁조선소
▁크루즈
▁아비달마
▁아오모리
▁경지
▁도봉
▁루피
▁리자
▁야심
▁입술
▁합금
▁발기인
린더
미쓰
▁라크
▁모함
▁최장
▁피셔
▁시티즌
▁지자체
▁공군기지
UC
친왕
쿠르
▁MA
▁두텁
▁발하
▁부에
▁분경
▁사드
▁산책
▁포대
▁혈압
플렉스
▁고성군
▁우간다
▁온타리오주
▁괜
단위
사화
인구
▁--
▁NS
▁구슬
▁급하
▁매도
▁부추
▁이야
▁적발
▁촉발
▁카슈
이스케
▁공식전
▁세군다
▁종사자
라르
훈장
▁버펄
▁볼넷
▁주저
▁증발
▁현무
합중국
▁승정원
▁앤드류
▁자리매김
▁맞춤
▁우마
▁철종
▁타도
▁필두
▁해부학
▁조선왕조
▁삐
▁불로
▁후한
▁발가락
▁켄터키
▁고마
▁과격
▁란스
▁미인
▁채굴
▁650
▁제작진
▁짐바브웨
NG
동맹
참찬
▁MM
▁반점
▁아뢰
▁헤어
▁거꾸로
레타리아
▁프롤레타리아
▁마모
▁무고
▁스킬
▁증강
▁진원
▁스코어
▁Good
▁이바라키
▁베스트셀러
ai
레반
▁AI
▁굴복
▁시진
▁연행
▁체내
▁캐논
▁키즈
▁헌병
▁현도
▁Black
ank
▁강호
▁소작
▁여대
▁유태
▁후미
ower
▁릴레이
▁연출가
상어
▁qu
▁반론
▁오즈
▁자켓
▁접전
▁직교
▁다마스
▁스테이트
▁콧
▁터빈
▁튼튼
▁파랑
▁Can
▁노르만
▁매달리
▁종업원
▁포항시
▁삼국유사
▁사이타마현
▁샴
▁간판
▁기묘
▁네임
▁농성
▁도발
▁용감
▁ret
▁댈러스
▁백악관
▁국부
▁스톰
▁위헌
▁적정
▁NAD
▁트로트
▁미합중국
킨슨
포타
▁당당
▁산신
▁이니
▁조준
▁처치
▁투신
▁흔들
▁550
▁수시로
▁테무르
70
▁믈
무제
세다
▁El
▁내란
▁대담
▁리키
▁문정
▁병과
▁열쇠
▁저해
▁횡령
▁반정부
▁자외선
▁자유형
DS
▁켜
고르
▁교서
▁변증
▁사교
▁신의
▁온건
▁행보
▁흡연
▁용산구
▁이성질
▁하반기
▁1862
내티
티야
▁걸프
▁무도
▁수퍼
▁연달
▁미카엘
▁받침돌
▁타이탄
포타미아
▁신시내티
▁메소포타미아
▁q
펠러
▁분별
▁전멸
▁티저
▁히노
▁Qu
▁길드
▁내역
▁아델
▁양양
▁완수
▁장신
▁조어
▁증식
▁피어
▁활자
타나베
▁Ser
▁국력
▁서위
▁송진
▁심정
▁연화
▁오보
▁이강
▁조서
▁조석
▁진언
▁필명
▁김성수
▁서두르
▁엑스포
▁입법부
▁LS
▁군자
▁북대
▁성수
▁신해
▁엘라
▁해지
▁언론사
▁연주회
▁플러그
루엔
조리
▁교훈
▁황폐
▁1867
디언
▁독주
▁모반
▁온두
▁레인저
▁편집장
▁온두라스
▁페르디난트
▁UC
▁광자
▁Let
▁페르미
▁6000
▁팔작지붕
▁라이프치히
▁Ac
▁간결
▁고찰
▁그거
▁씌우
▁지문
▁처장
▁푸드
세우스
▁705
▁사무국
테이
▁DR
▁광배
▁서한
▁양군
드라마
선거구
▁변광성
▁앨버트
▁증조부
▁타타르
구나
정사
활약
▁AU
▁나사
▁노브
▁변모
▁옥시
▁경희대
진구
lar
ings
▁ㅣ
▁팍
센터
▁유구
▁토유
▁표출
▁MSL
▁맹활약
▁손잡이
▁알폰소
▁페드로
▁데카르트
비언
투르
▁예종
▁지탱
▁쿠라
▁회유
▁프로테
▁백과사전
▁이노우에
▁section
▁궐
▁객실
▁잔존
▁코모
▁키릴
▁빠져나가
다발
▁보직
▁사보이
▁치료제
중추부사
▁프라이즈
▁협동조합
ta
▁낡
렐라
방군
위치
젤로
▁-&
▁경은
▁넘버
▁성품
▁수당
▁잉크
▁청각
▁하중
▁부등식
▁홀딩스
▁썩
▁상선
절도사
▁감염증
▁탬
자원
할린
▁당파
▁버진
▁번개
▁절약
▁충칭
▁피처
▁기원후
▁이브스
▁일본식
▁특별법
▁심소
▁차림
▁폴라
▁헤겔
rist
▁And
▁곁들이
▁라면서
▁무사히
▁웨이브
▁명성황후
tr
▁가극
▁무너
▁벵골
▁유망
▁치이
▁무너뜨리
▁스파이더
▁신한은행
▁후지와라
ee
▁Ag
▁수급
▁엘레
▁지그
▁참패
▁마그네
▁봉우리
▁인지도
▁1878
니티
마디
정보
▁가방
▁박원
▁용해
▁자행
▁컴파일
▁국민학교
▁미나모토노
▁코퍼레이션
ky
▁PL
▁가물
▁글렌
▁동탁
▁시르
▁영미
▁중용
▁지린
▁자릿수
▁플루토
▁고등학생
▁썬
▁SO
▁후드
가르트
▁수도회
▁교화
▁냐고
▁동자
▁변질
▁참수
▁건륭제
▁경쟁자
▁그래도
▁연예계
▁지질학
▁비스마르크
▁아나톨리아
▁일리노이주
빌리
▁꽃잎
▁렉스
▁보류
▁서거
▁세토
▁유림
▁직물
▁충신
▁대리석
▁주고받
▁출입문
▁스에
▁점진
▁추축
▁행군
플로러
▁나치오
▁신기록
▁아이젠
▁익스플로러
산부
▁괄호
▁국화
▁미학
▁서점
▁손님
▁현악
▁802
▁베르나
▁외교부
▁패스트
▁스케이트
▁tr
▁라다
▁용수
▁텍스
▁항생
▁불가피
▁사대부
▁되돌아가
▁프랑스와
▁급성
▁자부
▁차명
▁액세스
▁밧
▁뵈
누마
▁무비
▁수레
▁완만
▁유화
▁지체
▁축일
▁골짜기
▁뉴기니
▁요리토모
북면
일치
hem
▁RC
▁각주
▁다목
▁모티
▁바쿠
▁사부
▁솔라
▁수증
▁습성
▁정박
▁추후
▁출국
▁형주
에이고
▁영유권
▁쿠르드
▁아우구스
▁키르기스
▁샌디에이고
작전
▁과자
▁영사
▁환율
▁원자핵
▁인코딩
▁포뮬러
▁프리츠
▁공상
▁근방
▁부관
▁에트
▁옥천
▁추계
▁패킷
▁랙
대전
벤션
셔주
시게
▁거사
▁고국
▁국인
▁반입
▁시역
▁콜드
▁갈아타
▁여객기
BI
퉁이
▁강우
▁기조
▁맛보
▁사소
▁육식
▁으러
▁일설
▁잔해
▁치사
▁516
▁핵분열
사우루스
▁개기
▁그물
▁대타
▁출세
▁패망
▁헤더
▁방위군
▁부여군
▁수비대
▁프라임
▁1869
▁힐베르트
▁팻
수단
▁교파
▁다량
▁매슈
▁무색
▁시시
▁인승
▁일선
▁절친
▁해트
시아드
▁HMS
▁기동전
▁운동량
▁1840
▁글로브상
▁와타나베
▁이끼
▁채권자
▁유니버시아드
pr
날드
부시
▁로시
▁면직
▁소피
▁오자
▁의정
▁초음
▁쿼터
▁며느리
▁바닷물
▁와세다
네르
▁닉스
▁부두
▁상식
▁상의
▁쫓기
▁포천
뉴기니
▁업로드
▁운전자
▁유엔군
▁널
블릿
▁목동
▁빅터
▁쌍성
▁자정
▁자처
▁저그
▁청취
▁컵스
▁마포구
▁치료법
▁몸체
▁벤츠
▁이목
▁퀴즈
▁토키
▁떠올리
▁오스카
▁낯
노르
▁국세
▁귀인
▁민심
▁바보
▁베라
▁애기
▁입출
스타인
▁예언자
▁팔꿈치
▁레지스터
▁사이언스
▁에이전트
곡면
ade
▁물론
▁컴필
▁휘발
▁Mon
▁강력히
▁시니어
▁Song
▁매킨토시
▁컴필레이션
ae
▁벳
▁볶
날레
선언
▁단서
▁바인
▁베오
▁부군
▁자취
▁포자
▁포탑
▁헤일
▁호그
▁피의자
▁파시스트
▁로드리게스
▁아나키스트
조사
효소
▁디나
▁변혁
▁텐서
▁금강산
크라테스
per
▁마레
▁신지
▁위도
▁글러브
▁네이트
▁스트림
▁모자이크
▁와카야마
세르
▁더러
▁빈민
▁숙소
▁자질
▁캐슬
ount
▁목적지
탄두
▁AA
▁Pe
▁VS
▁강인
▁걸음
▁지요
▁천상
▁토라
▁하수
▁세미나
티컷
▁me
▁괜찮
▁단역
▁박재
▁백조
▁블러
▁소박
▁아어
▁전단
▁맥아더
▁1592
▁고등교육
▁남아시아
▁코네티컷
▁밋
히메
▁As
▁논산
▁바쁘
▁성가
▁스택
▁실사
▁영수
▁철자
▁리차드
▁안타깝
▁종착역
▁창립자
구스
▁고을
▁고제
▁니까
▁직렬
암사
ium
▁Aw
▁금색
▁끌리
▁관심사
▁테크놀
▁8000
▁병자호란
▁친선경기
IF
▁뒤지
▁암수
▁양파
▁의복
▁자루
▁튜브
이치로
▁보유자
▁안동시
▁장로회
▁필사본
▁크리스티나
수염
ale
▁KN
▁규율
▁리스본
▁이랜드
▁적십자
▁히타치
▁Windows
IX
보당
전선
▁란트
▁슈투
▁어부
▁어사
▁왜군
▁유이
▁이와테
▁코트디
▁휩싸이
▁뉘른베르크
▁코트디부아르
▁펜실베이니아주
90
히데
▁기행
▁다쓰
▁박히
▁성대
▁온실
▁은밀
▁피살
▁KTX
▁과반수
▁린다
▁외면
▁유자
▁풍기
▁뒤따르
▁엇갈리
▁지하역
▁Heart
▁포르투갈어
찬성
ata
▁노현
▁동호
▁방탄
▁사주
▁악명
▁웍스
▁유골
▁임종
▁구단주
▁담당자
▁보호법
▁어도비
▁헤르만
테랑
▁Gl
▁ab
▁능가
▁면담
▁병풍
▁수만
▁질투
▁하라
▁클리어
▁심리학자
▁눌
어하
▁계룡
▁농가
▁삭감
▁이카
▁준동
▁380
▁로타르
▁파주시
던트
▁뉴런
▁여포
▁의주
▁탁구
▁1875
▁그린란드
▁페널티킥
▁세인트루이스
링겐
▁거창
▁크메르
▁형용사
▁근본번뇌
넌트
▁권익
▁김연
▁도우
▁문중
▁서약
▁연중
▁염화
▁오구
▁위크
▁이선
▁정오
▁비둘기
▁신석기
뻐하
어가
▁니케
▁들르
▁디바
▁라프
▁문체
▁방울
▁볼록
▁열세
▁예식
▁워스
▁일명
▁잠입
▁흥원
루엔자
▁Gen
▁기뻐하
▁성폭행
▁되돌아오
세키
욕장
▁독살
▁미지
▁숙련
▁실상
▁어선
▁오시
▁율법
▁특공
▁한민
▁스피커
▁통신망
▁여우원숭이
son
▁강습
▁상과
▁설리
▁셔틀
▁외척
▁원문
▁친화
▁콜린
▁키드
▁타쿠
▁페레
▁호른
▁사이즈
▁안창호
▁집단군
▁학술지
▁기판
▁다름
▁루도
▁막강
▁상동
▁시찰
▁야수
▁예금
▁이심
▁타나
세데스
▁개그맨
▁지장보살
▁브란덴부르크
▁귀엽
▁불복
▁엔젤
▁원단
▁유카
▁중견
▁칸트
▁친환경
▁메르세데스
▁return
▁sh
▁겸직
▁도적
▁발착
▁비료
▁사각
▁실명
▁윤휴
▁Out
▁회고록
▁영등포구
▁바빌로니아
▁배당
▁절충
▁최하
레이트
▁강대국
▁몽고메리
▁기린
▁로큰
▁아노
▁재보
▁정칙
▁징집
▁침식
▁향신
▁가환환
▁고문서
▁스케줄
▁시미즈
▁예비역
▁크라운
▁토요타
부대
알라
itt
▁구루
▁몹시
▁조비
▁키리
▁포인
▁나리타
▁대항전
▁아세틸
ng
기아
세서
▁다자
▁로사
▁선상
▁게임기
▁레스터
▁스케치
▁알프레드
▁엑스박스
▁랠
기즈
놀드
사유
▁TS
▁예프
▁착각
▁출품
▁AMD
▁다이쇼
▁보리스
▁클레어
▁파스칼
▁함경도
▁합성어
▁항공대
▁끌어올리
▁인플루엔자
▁땀
이에
▁기운
▁슬리
▁야권
▁첩보
▁파랗
▁폐허
▁로큰롤
▁사무라이
PA
계사
▁결말
▁구시
▁달콤
▁최남
▁표제
▁슈타인
▁열역학
▁일부러
▁최성기
▁싯
더링
▁DB
▁김두
▁리크
▁명상
▁사와
▁애착
▁자장
▁데이트
▁벙
방향
양이
▁바늘
▁왕래
▁마주치
▁부적절
▁진주시
▁컨벤션
UN
▁생원
▁오마
▁일차
▁혼잡
그래피
▁데뷔작
▁채무자
▁테오도
두사
르카
▁에코
▁오도
▁인먼
▁강희제
▁그러면
▁돌고래
▁매디슨
▁표트르
▁쳐들어오
▁극소
▁버트
▁서클
▁선체
▁순식
▁여럿
▁예멘
▁이희
▁취직
▁터너
▁맥스웰
▁파라오
▁프론트
▁안드로메다
▁노원
▁닥치
▁배반
▁성행
▁이씨
▁타시
▁태안
▁반감기
▁칭기즈
▁오프라인
몽골
IVE
▁감기
▁라벨
▁목장
▁용지
▁웨어
▁재화
▁집전
▁헤센
▁획기
able
▁Par
▁광둥성
▁쇼핑몰
▁중앙선
행파
▁결전
▁레몬
▁스펜
▁월남
▁되풀이
▁베르트
▁송파구
▁남양주시
▁맴
ody
▁KO
▁구타
▁메모
▁모피
▁수은
▁술라
▁장정
▁Vol
▁싫어하
▁야마다
건설
시험
▁WC
▁모질
▁안식
▁안중
▁의성
▁이질
▁235
▁행해지
VA
벌리
엽수
윽고
임새
▁기마
▁등산
▁디디
▁양극
▁영락
▁월화
▁토피
▁보조금
▁이윽고
▁장갑차
▁쇼트트랙
▁거머
▁문관
▁양지
▁에레
▁유충
▁체로
록대부
▁중앙아메리카
▁샷
▁텅
모음
▁가세
▁경의
▁기공
▁동거
▁모체
▁묘호
▁법규
▁생쥐
▁서안
▁이홍
▁즐거
▁DOS
▁상반기
▁선거인
▁이사벨
▁통도사
▁University
▁가모
▁거시
▁내림
▁보우
▁원효
▁아리랑
13
우주
크리
화당
▁수마
▁건너오
▁자격증
▁아우구스투스
루즈
어류
은사
▁교관
▁금정
▁모사
▁무능
▁방호
▁서당
▁활기
▁캐스터
▁브로드웨이
▁구세
▁근세
▁로바
▁실은
▁안톤
▁위트
▁코로
▁사할린
▁카디널
▁저널리스트
me
▁탭
▁가명
▁베티
▁보그
▁세일
▁수역
▁열악
▁잉카
▁정언
▁젤리
▁콘스
▁키트
해방군
▁동아리
▁바나나
▁서스펜
▁슈퍼스타
▁인민해방군
그램
박사
텐셜
▁구아
▁규약
▁시의
▁양서
▁요가
▁일간
▁출격
▁북극점
▁연속극
▁정치국
▁대류
▁샤르
▁염두
▁패치
▁205
▁NBC
▁꽃차례
▁통계청
사와
▁동군
▁라울
▁문수
▁미트
▁박용
▁변천
▁빌드
▁사미
▁야코
▁이달
▁정글
▁종가
▁확충
▁순식간
▁콜럼버스
18
anc
▁경순
▁세스
▁시제
▁은폐
▁출사
▁키타
▁가이아
▁교육감
▁퍼텐셜
▁라이베리아
▁보컬리스트
▁IR
▁경종
▁래리
▁병렬
▁잉여
▁자위
▁중남
▁집사
▁후루
진보당
▁가요제
▁로버츠
쿠사
▁At
▁기미
▁단양
▁볼드
▁상계
▁석기
▁소양
▁실효
▁악당
▁안심
▁전조
▁뉴올리
▁사학자
▁청문회
스코리아
▁나일
▁숙박
▁싱크
▁초계
▁케리
▁시그마
▁퀄
데기
▁가뭄
▁델리
▁라지
▁신병
▁정승
▁정에
▁대수학
▁무지개
▁비단털
▁셴
촌리
▁균일
▁노카
▁데일
▁미첼
▁바니
▁복부
▁불쾌
▁자키
▁품목
▁호로
very
▁708
▁슈미트
▁아스카
▁비단털쥐
에쓰
연구
주크
▁AE
▁띄우
▁외할
▁일주
▁축복
▁스케일
▁콘라트
▁관음보살
▁유가행파
▁지하철역
au
▁뤄
▁군복
▁금하
▁나기
▁라플
▁무가
▁산문
▁아연
▁에볼
▁조봉
▁족장
▁총영
▁칼륨
▁하지
▁한겨
▁재미있
▁호흡기
▁Hell
▁서비스업
보라
▁cc
▁경화
▁금환
▁안팎
▁화음
▁ATC
▁게임즈
▁교육학
▁당뇨병
▁로베르토
▁바이마르
▁스틸러스
net
▁단발
▁옥사
▁잔혹
▁폐교
▁한복
▁비잔틴
▁오르간
▁조선공산당
열대
▁JC
▁기스
▁남단
▁리시
▁뮐러
▁베크
▁줄곧
▁초회
▁다가가
▁신호장
▁테두리
▁갈릴레오
르산
큐슈
ala
▁골절
▁시성
▁애드
▁후이
스크림
▁거주자
▁그레이엄
▁마흐
▁손목
▁오니
▁코크
▁포니
▁향수
폴리탄
▁간호사
▁시마즈
▁유명세
▁조각상
▁1874
▁name
▁일렉트릭
▁클러스터
▁메트로폴리탄
바드
ATO
▁낭비
▁스펙
▁전범
▁치마
▁침범
▁카로
▁클랜
▁오릭스
▁벚
나들
변수
▁비옥
▁상한
▁솜씨
▁외손
▁우기
▁우표
▁읍성
▁인성
▁조각가
▁후쿠이
▁잼
민당
악산
▁고층
▁그립
▁보어
▁소론
▁에노
▁자네
▁젠더
▁통솔
▁하산
▁화승
▁김해시
▁출판물
▁케이드
▁sp
▁다쿠
▁외삼
▁일삼
▁Her
▁공학자
▁라스트
▁성폭력
▁콘퍼런스
14
구니
프랑
▁되살
▁무예
▁쿠마
▁화원
▁반대편
▁최진실
▁포식자
▁우두머리
ps
범죄
ash
▁강국
▁과세
▁나한
▁뉴멕
▁도형
▁리나
▁모치
▁몰수
▁밸브
▁재회
▁창구
▁탄수
▁풀백
▁사무관
▁안양시
▁전시관
▁핸드볼
▁뉴멕시코
▁멱
란다
신저
▁SR
▁et
▁강좌
▁관위
▁발작
▁쓰리
▁이문
▁tvN
▁한겨레
▁This
▁오아시스
데일
▁너희
▁넷플
▁노라
▁리타
▁발판
▁버니
▁사중
▁양평
▁적법
▁점하
▁사하라
▁안드레
▁컨설팅
▁트레일
▁넷플릭스
▁멀티미디어
높이
소문
황색
▁가온
▁동백
▁요직
▁학당
▁남극점
▁부르봉
▁셀주크
▁여운형
▁바그다드
▁알렉산데르
ax
▁YG
▁마늘
▁예제
▁잔여
▁조동
어나오
▁저스틴
▁휴대폰
▁1877
▁유니코드
▁컨퍼런스
▁서아프리카
15
co
▁맞물
▁벗기
▁석권
▁이색
▁코린
▁화염
▁204
▁클로드
HC
▁레나
▁문맥
▁산조
▁인스
▁칠성
▁코바
▁협곡
▁로페스
▁외계인
▁중거리
▁천도교
▁항공편
▁미스코리아
▁뉴클레오타이드
▁"|
▁격전
▁공문
▁김우
▁백지
▁자성
▁홍익
▁이주민
▁핵탄두
▁파푸아뉴기니
스퍼
피크
▁가선
▁변론
▁선단
▁엄지
▁템플
야누스
▁지리산
▁캄파니아
▁플루토늄
▁호소카와
GB
so
yn
▁쿰
일기
▁고승
▁그르
▁두뇌
▁부엌
▁소인
▁의제
▁주군
▁퇴진
▁행선
▁회차
▁CIA
▁Dra
▁동남쪽
▁한국군
를레
징어
▁경합
▁문물
▁바야
▁에페
▁공주시
▁아놀드
▁레닌주의
▁서바이벌
▁트라야누스
계약
비에
혈구
▁AF
▁복속
▁제비
▁판명
▁펭귄
▁흐리
▁Best
▁기울어지
▁챠
▁툼
oid
▁GR
▁논증
▁소르
▁송이
▁여정
▁차오
▁카일
▁518
▁허베이
▁현미경
▁7000
▁끔
▁감축
▁경내
▁깔리
▁승낙
▁시발
▁원사
▁재물
▁지크
▁캠벨
▁Bab
▁개화파
▁앞바다
▁에스컬
▁카리스
▁트레인
▁에스컬레이터
더릭
토크
▁곤살
▁도부
▁라임
▁무주
▁미겔
▁블랑
▁세제
▁제지
▁퇴치
▁후회
▁거머쥐
▁브리스
▁오리엔
▁참전하
▁콘티넨
▁돌려보내
동원
운수
▁기닿
▁민원
▁스플
▁아킬
▁앨라
▁미트라
▁스타드
▁프레슬리
투리
▁레크
▁서품
▁양천
▁1700
▁다카하시
마을
재판
▁Mi
▁결장
▁노하
▁도읍
▁미러
▁베다
▁앞뒤
▁억울
▁요도
▁트림
▁클레오
▁페스트
ict
▁건지
▁달력
▁바젤
▁소주
▁달려가
▁대사간
▁수백만
▁울트라
▁쓰러뜨리
▁웜
티지
ose
▁로망
▁북측
▁산술
▁산체
▁루이즈
▁콜린스
제철
▁거병
▁미켈
▁숙명
▁순찰
▁승률
▁지령
▁츠카
▁타선
▁통찰
▁하층
▁625
▁사다리
▁원주시
▁인류학
22
▁랏
▁얄
▁켐
의식
▁본존
▁사연
▁산재
▁산정
▁토바
▁화소
▁APG
▁길거리
▁루카스
▁아키텐
▁엘비스
▁연방군
▁우에노
▁이론가
▁만장일치
▁아드리아
장사
형제
▁공병
▁다윗
▁만지
▁인계
▁자백
▁처마
▁투사
▁게이밍
▁경부선
▁돌려주
▁억제제
▁1859
▁라이센스
▁카디널스
▁프리큐어
버터
▁KS
▁결여
▁대입
▁맹렬
▁상환
▁롤러
▁방학
▁블룸
▁테헤
로트
▁ᆫ단
▁문건
▁북인
▁상설
▁허물
▁강화군
▁서태지
양구
▁도안
▁뒤덮
▁수질
▁율리
▁푸젠
▁함장
▁난쟁이
▁통계학
▁향신료
▁짚
고사
과학
무장
▁se
▁곡식
▁구전
▁김주
▁네브
▁만류
▁명왕
▁성조
▁유창
▁일어
▁차역
▁후견
▁빌바오
▁이케다
▁제니퍼
▁자이언트
나시
▁김도
▁나투
▁리안
▁발광
▁알로
▁전봉
▁플랑
▁헬스
▁가치관
▁매니아
▁아이치
▁앙드레
▁아이스크림
르바
EEE
▁니즈
▁로디
▁무공
▁백운
▁사병
▁완장
▁빈센트
▁자카르타
▁튀어나오
장조
▁us
▁관아
▁구가
▁부식
▁서체
▁이만
▁주포
▁진심
▁결의안
▁곧이어
▁혼합물
▁스테파노
▁뚜껑
▁멜라
▁사산
▁상감
▁원점
▁폐차
▁대혁명
▁불러오
▁슈투트
▁테크놀로지
▁슈투트가르트
▁긋
uck
▁군기
▁루드
▁박찬
▁선과
▁수프
▁의인
▁일면
▁카보
▁피자
▁홀수
▁미성년
▁순천시
▁아파치
▁출장소
▁미야기현
▁사이클론
▁뮈
매기
배마
소니
스톤
▁금관
▁왕당
▁퇴출
reak
▁셰퍼드
▁메모리얼
▁앨라배마
플레
▁소서
▁오와
▁중건
▁타파
▁튜링
▁후면
de
▁펙
▁이창
▁바스크
▁이치현
▁소아시아
남면
▁모교
▁바투
▁발터
▁보디
▁안주
▁어학
▁예보
▁태화
▁터스
▁가우스
▁개최지
▁대제학
▁순교자
▁직사각
▁^
완다
vel
▁레티
▁모션
▁수주
▁340
▁쓰촨성
▁안철수
▁정착지
▁헬레니즘
정변
▁사생
▁선별
▁연해
▁장경
▁전서
▁정역
▁타밀
▁학창
▁무신론
▁브레멘
▁IEEE
▁국가원수
▁크리스틴
▁Super
학파
▁리언
▁비어
▁솔리
▁원만
▁입찰
▁자갈
▁총감
▁호투
떨어지
▁목표물
▁바빌론
▁아니면
▁환승역
▁안토니우스
댓값
▁관군
▁교재
▁근간
▁로보
▁로코
▁사탄
▁스완
▁오인
▁호적
▁화풍
▁개막식
▁라그랑
▁로스트
▁마코토
HL
oo
▁FF
▁공석
▁교감
▁뉴잉
▁속국
▁아누
▁짝수
▁코이
▁하후
▁국내선
▁기념장
▁로저스
▁무사시
▁조르주
티어
팩스
▁김학
▁덮치
▁도끼
▁동급
▁발진
▁보아
▁산남
▁유틸
▁은지
▁작자
게이트
▁310
▁des
▁선제후
▁실린더
▁에세이
▁유틸리티
나주
패드
ail
▁as
▁개표
▁섹션
▁조회
▁타라
▁통감
레틱스
▁대관식
▁볼프강
▁예문관
▁Star
▁그래픽스
▁오토바이
▁무형문화재
▁애슬레틱스
▁후쿠시마현
TF
바퀴
조류
▁경원
▁구라
▁베가
▁산인
▁센타
▁수구
▁시력
▁왕명
▁용맹
▁기생충
▁원정대
▁탈레반
▁모니터링
▁썸
버라
주사
▁거문
▁과달
▁교인
▁도매
▁뚫리
▁변성
▁상층
▁어지
▁추장
▁희미
공화당
▁개척자
▁리바이
▁1812
▁선거관리
▁중앙일보
▁뉴올리언스
▁민주공화당
▁매사추세츠주
▁선거관리위원회
디드
▁my
▁정청
▁커리
▁투기
▁호화
▁레이건
▁슈트라
▁오슬로
▁John
▁나바
▁아칸
▁황위
하마드
▁디에고
▁분류학
▁여러분
▁해인사
▁아이파크
▁콘스탄티누스
iel
▁DO
▁ON
▁나시
▁담양
▁닷컴
▁도파
▁메드
▁버밍
▁철기
▁교황령
▁어우러지
▁슈트라우스
▁뽀
▁ad
▁기권
▁무위
▁보국
▁세밀
▁손수
▁스쿼
▁슬러
▁양동
▁청정
▁추밀
▁포상
▁하강
▁호국
▁자본가
▁합병증
▁고바야시
▁아미타불
gh
▁Kn
▁근위
▁떠돌
▁박경
▁시편
▁유보
▁평방
▁Sun
▁록히드
▁셀레우
▁테헤란
▁한자어
▁불법행위
주석
▁게놈
▁공경
▁레저
▁명륜
▁빨강
▁용역
▁울루
▁이건
▁진천
▁체질
▁커브
▁특명
▁호이
시아키
▁you
▁이광수
▁후반전
▁뉴잉글랜드
RI
▁당상
▁부락
▁수문
▁토프
▁단말기
▁보이즈
▁에이지
▁인산화
▁Soul
▁아브라함
구미
▁걸스
▁로런
▁무진
▁배타
▁주유
▁폐하
▁해커
▁App
어놓
ray
▁개경
▁김덕
▁로컬
▁수라
▁정실
▁충동
▁퀸스
▁항문
▁209
▁에이브
▁파르마
▁북대서양
OK
▁IF
▁가창
▁과감
▁관개
▁논평
▁소포
▁수족
▁식이
▁아호
▁조던
▁지검
▁천자
▁청일
▁총생
▁카파
▁코우
▁공성전
▁대대장
▁레코딩
▁오메가
▁울주군
▁Christ
블릭
ute
▁Mr
▁리퍼
▁샤오
▁애호
▁양념
▁쿠루
▁투니
▁피그
▁태블릿
EA
연맹
▁귀순
▁금기
▁도자
▁의논
▁패자
▁해주
하우스
▁게이오
▁송진우
▁접미사
▁주거지
▁지석묘
▁ICBM
▁리바운드
▁강유
▁구비
▁그릴
▁노마
▁늦추
▁안면
▁카펠
▁휴일
▁206
▁사우디
▁파르티아
▁아람
▁영도
▁쪼개
▁풀이
▁주제가
▁클라리
▁페르시
▁쑹
탄올
▁금천
▁끔찍
▁당장
▁법상
▁속초
▁유계
▁장강
▁장지
▁점토
▁천적
▁풍요
라이스
▁르완다
▁베르사유
도감
샤오
초프
▁HP
▁그늘
▁사파
▁양원
▁유상
▁인척
▁조우
▁탄두
▁스태프
▁자오선
▁1879
59
▁름
▁쑨
화산
▁NM
▁Tw
▁규합
▁김시
▁단수
▁로지
▁부기
▁상이
▁손쉽
▁지카
▁집적
▁남북조
▁여주인
▁영사관
▁음식점
▁막시밀리
분투
자드
▁고후
▁니치
▁듀스
▁루손
▁반정
▁자존
▁차차
▁개개인
▁윤치영
▁자치현
▁조광조
네프
반정
▁감당
▁더라
▁산동
▁유세
▁카토
▁콜론
▁쿠시
▁747
▁백두산
▁안데스
▁엘리스
▁알렉세이
▁군마
▁모태
▁부화
▁불문
▁유민
▁자석
▁춘계
▁현수
▁효능
로세서
▁고지대
▁에다가
▁여수시
▁카지노
▁트리스
▁ᆯ지라도
16
네오
방스
티보
▁동맥
▁두부
▁딱딱
▁범람
▁아로
▁역동
▁위축
▁이코
▁독재자
▁삼거리
▁아이작
▁연대장
▁의병장
▁피어스
▁금리
▁농담
▁시타
▁중등
▁흐트
▁광합성
무지
▁NX
▁갑신
▁맞배
▁비오
▁성자
▁자각
를레앙
▁420
▁로널드
▁선수상
▁조봉암
▁페이퍼
▁유럽연합
YP
▁꽝
다임
슐리
▁PA
▁반납
▁정맥
▁카다
▁힐스
로그램
▁석회암
▁남경
▁대등
▁대여
▁라쿠
▁불능
▁빛깔
▁스킨
▁양정
▁전열
▁초식
▁국방군
17
▁쿵
산업
▁Gu
▁낯설
▁반향
▁상회
▁소량
▁수아
▁앙상
▁잇달
▁장이
▁호시
스트림
▁Win
▁바닷가
▁건국훈장
면적
일체
▁국문
▁나토
▁동대
▁머큐
▁시영
▁원한
▁CoA
▁사가미
▁패러다임
▁둠
▁뜯
▁퀼
수지
ual
▁무패
▁실베
▁영종
▁오웬
▁인삼
▁촐라
▁컬링
▁킬러
▁폴로
▁버스터
▁재결합
▁일렉트로닉
태자
▁내시
▁온전
▁클럭
▁440
▁변호인
▁제이크
▁즐거움
▁테크노
▁항생제
▁반달
▁부트
▁안락
▁유관
▁제고
▁군주제
▁니가타
▁여행자
리아누스
▁포틀랜드
링크
박이
ull
▁"'
▁RA
▁권투
▁능숙
▁두스
▁먼로
▁압수
▁일보
▁투병
▁할로
▁호찌
▁리그컵
▁바레인
▁으리라
▁플래닛
▁엔지니어링
▁Record
울루
의금
▁스텐
▁열람
▁이설
▁임실
▁할구
▁항전
▁랴오닝
▁수영장
▁알칼리
▁암스트
▁야구부
▁영화관
▁요나라
▁접근성
▁들어올리
선교
장군
▁고독
▁노역
▁대방
▁바바
▁전곡
▁화이
▁Per
▁크리스탈
▁Intern
발트
신보
VID
▁강가
▁사목
▁요셉
▁이석
▁증축
▁후추
▁글리제
▁부추기
▁불거지
▁스텔스
▁실리콘
▁오우치
▁ㄹ로
▁고요
▁끊이
▁매복
▁멘델
▁사체
▁산투스
▁지극히
▁KD
▁기한
▁리노
▁접목
▁최용
▁코인
▁행운
▁환산
▁256
▁본거지
▁호기심
바이러스
능력
대비
▁광시
▁기시
▁기피
▁도나
▁바타
▁소진
▁솔직
▁오차
▁처칠
▁체리
▁911
▁기본법
▁베이직
▁스위트
▁유기체
▁잠비아
▁그러다가
▁다마스쿠스
▁아우구스트
▁미타
▁성형
▁정직
▁제방
▁치킨
▁225
▁Str
▁깨어나
▁살아오
▁엔리케
▁이회창
▁조용히
▁토론회
▁판매고
▁2500
▁원종공신
▁MD
▁문어
▁앉히
▁열거
▁준하
▁트램
▁을수록
▁타지키스탄
로로
쿠치
▁po
▁가결
▁노엘
▁담수
▁시온
▁왕릉
▁왕좌
▁우디
▁바실리
▁양산시
▁엘리엇
▁대법원장
니에
▁내기
▁동하
▁멘토
▁봉분
▁우타
▁중신
▁탈피
고로드
▁연금술
데오
레미
스틱
▁mu
▁담임
▁미녀
▁성현
▁양구
▁왕녀
▁워낙
▁콜리
▁Hot
▁디스코
▁렌더링
▁초고층
▁총생산
▁후유증
▁'.
▁교명
▁균등
▁동두
▁리지
▁만물
▁사조
▁성교
▁수표
▁아역
▁악어
▁응력
▁코니
▁탄력
▁피질
ions
▁고다이
▁네바다
▁습니까
▁잠재력
▁제시카
▁춘천시
▁주머니쥐
▁쐐
▁nm
▁강자
▁군도
▁노름
▁브이
▁사나
▁신익
▁영성
▁용문
▁윤곽
▁맞물리
▁비행사
▁왕당파
▁프리드
길준
로움
▁CA
▁궁주
▁득실
▁로만
▁사스
▁원곡
▁카츠
▁헐리
▁히코
레이즈
▁생산자
▁시에라
▁오토모
▁카스텔
▁허버트
▁독립선언
▁public
ty
는점
피카
황제
▁곱하
▁광동
▁교내
▁동체
▁무소
▁북마
▁세타
▁실책
▁쌍용
▁쐐기
▁유미
▁은평
▁이보
▁이한
▁파출
▁길버트
▁부서지
▁앙상블
▁예비군
▁웨슬리
▁이세이
▁지배하
25
▁앳
덕궁
스텐
ors
▁HS
▁관저
▁대용
▁애프
▁여관
▁조율
▁캅카스
▁Kore
▁드래곤즈
빨리
인산
자나
▁거품
▁교학
▁구명
▁라사
▁마거
▁환초
▁오나라
▁프린세스
▁print
무트
RNA
▁Ke
▁강타
▁명동
▁유독
▁즉흥
▁지브
▁코일
▁호지
▁마운틴
▁부러지
▁브릿지
▁사무엘
▁유물론
ll
▁농협
▁미디
▁생김
▁셔츠
▁스팀
▁종실
▁방법론
▁와이어
▁주둔지
▁추축국
▁1789
▁기타큐슈
▁리치먼드
라과
불명
커우
훈련
▁OK
▁누마
▁접시
▁침수
▁파피
▁머큐리
▁프로필
▁탄수화물
▁플랑드르
이상
▁가전
▁구애
▁군림
▁던전
▁동률
▁예쁘
▁장차
▁제타
▁채집
▁춘향
▁커넥
▁향로
▁흉내
▁고스트
▁디아스
▁브루노
▁오이타
▁유도탄
▁이마가와
포리
▁노골
▁녹이
▁느슨
▁석재
▁성부
▁아구
▁우니
▁진성
ames
▁오리건
▁제품군
▁조연상
▁콜라보
▁천문단위
▁베오그라드
평면
▁'-
▁NL
▁깊숙
▁정중
▁현관
▁흡입
리오스
▁내몽골
▁다행히
▁알베르
▁인문학
▁1801
▁NATO
자락
▁Fl
▁도식
▁소노
▁진위
▁칠곡
lect
ogle
▁208
▁제노바
▁Back
▁캥
다스
던스
모닉
차리
ove
▁가령
▁겨냥
▁공평
▁도화
▁무루
▁신천
▁청중
▁타키
▁트론
▁급속도
▁사법부
▁사천왕
▁아미타여래
▁강구
▁야만
▁유익
▁이크
▁재심
▁중학
▁치밀
던지기
▁예수교
▁클라인
▁흘러가
▁니카라과
▁돼지고기
GO
▁박태
▁안건
▁첫날
▁카인
▁트럼펫
▁1400
▁미식축구
제사
▁다채
▁라테
▁부안
▁생장
▁열기
▁전과
▁최순
▁통킹
▁함의
프리드
▁동일시
▁브루크
▁영문학
▁영장류
▁조제프
ox
레븐
▁BO
▁Cr
▁결투
▁교란
▁군량
▁균열
▁악의
▁안시
▁유감
▁초석
▁초판
▁탄성
▁후난
▁붉은색
▁아르테
▁킵
▁가변
▁김장
▁부이
▁승마
▁양위
▁총국
▁캡틴
▁코디
▁표어
▁호전
▁370
▁거듭나
▁나카노
▁유길준
▁제주시
▁항소심
▁Amer
▁암스트롱
▁이성질체
득점
파니
▁기일
▁소마
▁약품
▁얼리
▁유재
▁책정
▁코딩
▁핼리
▁Res
▁War
▁광주시
▁남아공
▁동북부
▁미요시
▁방문객
▁페라리
노스아이
▁생물학자
▁항공우주
▁해수욕장
▁셀레우코스
노스아이레스
▁부에노스아이레스
▁렬
▁격침
▁격화
▁굳이
▁김은
▁본능
▁실태
▁약수
▁어인
▁예편
▁이가
▁폭주
▁Mag
▁기네스
▁어드밴
▁해수면
▁이리하여
▁소크라테스
▁갸
▁고관
▁궁수
▁사일
▁신궁
▁알마
▁에픽
▁운석
▁직각
▁흑색
▁Get
▁만주족
▁리하르트
▁폼페이우스
▁고는
▁매듭
▁명장
▁황하
▁GPS
▁들여오
▁메신저
▁사망률
▁요시카
그라운드
▁비로자나
월드
처럼
let
▁BB
▁서곡
▁수화
▁천태
▁철근
▁출정
▁출항
▁MIT
▁디렉터
▁로런스
▁베테랑
▁타일러
▁태양광
▁트로츠키
▁둑
▁뿜
▁씬
enn
▁구부
▁나날
▁무쓰
▁배지
▁오랑
▁하세
inal
▁마거릿
▁Baby
▁남한산성
▁레오나르
UM
▁DA
▁니트
▁듀엣
▁발열
▁비방
▁윈드
▁효모
▁라이드
▁부천시
▁스펜서
▁양평군
▁주세페
ology
가요
경찰
심원
▁개축
▁결단
▁결렬
▁공지
▁관원
▁국산
▁미끄
▁미로
▁박동
▁생포
▁장론
▁제헌
▁탄광
▁해내
▁호박
▁화교
▁아열대
▁작아지
남동
덱스
든가
메랄
오드
▁극회
▁누에
▁민선
▁승선
▁장승
▁쟁점
▁조엘
▁허구
▁블러드
▁모노이드
TN
▁Dr
▁개리
▁공훈
▁그간
▁다라
▁대소
▁레반
▁비고
▁사옥
▁수선
▁예일
▁증류
▁지회
▁청군
▁카불
▁한정판
▁알아차리
▁안티오키아
금속
무실
▁결집
▁군위
▁기교
▁도보
▁총수
▁출병
▁친히
▁캔터
▁365
▁Way
▁모터쇼
▁민의원
▁부사장
▁사이다
▁스트라
▁시나노
▁이유로
▁이지스
▁정몽주
▁선거인단
니츠
시카
입자
▁PH
▁니체
▁베아
▁봉헌
▁악역
▁죄인
▁필로
▁감마선
▁혈액형
▁게오르기
▁서귀포시
당류
테일
▁굴욕
▁명중
▁불길
▁연어
▁외가
▁충고
▁카노
▁학도
▁효성
▁리카르
▁쌍방울
▁전망대
ature
▁로베르트
가키
락부
▁고취
▁기형
▁산마
▁에인
▁으뜸
▁해머
이즈미
▁직할시
▁리얼리티
▁이오니아
▁프레더릭
나비
백색
컨드
app
ons
ret
▁도난
▁도량
▁벅스
▁북송
▁사계
▁설과
▁영위
▁키치
코비치
▁TOP
▁다카시
▁리그전
▁범어사
▁선데이
▁시아파
▁태극기
▁Cent
▁라이온스
▁SG
▁SW
▁갑오
▁담그
▁변조
▁창씨
▁콘셉
▁토하
▁국무부
▁대학살
▁도나우
▁신안군
▁알레산
▁이치로
▁지포스
▁함부로
의금부사
▁에두아르
▁System
FS
za
갱이
즈미
현실
▁결실
▁레르
▁맞닿
▁매튜
▁선서
▁스틱
▁풋살
피에르
▁디나모
▁프린터
▁1815
▁아르바이트
▁경산
▁리서
▁살레
▁성찬
▁세도
▁습도
▁에든
▁전극
▁주스
▁토의
▁특혜
말라야
▁Dis
▁무정부
▁일제히
▁피드백
▁필리스
▁에든버러
랭크
민정
▁롤리
▁사악
▁인노
▁장서
▁쿠사
▁틈타
▁퍼플
▁하츠
▁합장
▁207
▁김종직
▁생김새
▁세컨드
▁압둘라
▁야행성
▁유공자
▁전동기
▁포인터
로프로세서
▁마이크로프로세서
▁욘
▁공해
▁기주
▁모잠
▁발라
▁사보
▁새해
▁천리
▁트롤
▁한꺼
ater
▁가디언
▁농민군
▁조합원
▁1820
▁모잠비크
▁한꺼번에
▁낸
카라
ina
▁깁슨
▁서역
▁월경
▁위배
▁잔치
▁테살
▁강릉시
▁모델링
▁일진회
▁지팡이
▁훅
마니
▁공보
▁베컴
▁본진
▁소탕
▁음역
▁이구
▁조너
▁종단
▁하카
지먼트
▁노무라
▁두더지
▁혁명가
▁필하모닉
▁매니지먼트
▁폴리네시아
24
▁기근
▁김석
▁당사
▁성내
▁슐레
▁이삭
▁자막
▁직류
▁펜스
▁헬로
ange
▁미우라
▁고고학자
▁마쓰모토
▁서대문구
▁히말라야
▁레닌그라드
▁쥘
▁격상
▁견지
▁녹말
▁달마
▁디펜
▁만수
▁분담
▁비이
▁아약
▁에뮬
▁음양
▁조나
▁피시
▁그리드
▁연습생
▁오스트로
▁막시밀리안
실험
▁로제
▁마취
▁시차
▁전란
▁헤지
▁형광
▁휴먼
어들이
▁Tra
▁오징어
▁페레스
▁후베이
▁High
ux
달음
러기
▁경구
▁더빙
▁마초
▁미완
▁미추
▁상해
▁신안
▁옵티
▁정현
▁특위
▁학생회
▁카롤루스
토바
▁술집
▁전액
▁좌랑
▁징후
▁코넬
▁태상
▁한라
▁Int
▁넘어지
▁노르트
▁적절히
▁체육회
▁프로방스
광사
라나
쓰네
▁노총
▁담장
▁마도
▁융기
▁지반
▁출루
▁퇴계
스티안
▁마피아
▁아드리
▁지방도
▁알베르트
▁써
자유
ley
▁FS
▁기민
▁발췌
▁세실
▁앨버
▁쿠리
▁프록
▁피쳐
▁USA
▁광화문
▁군산시
▁선언문
▁아약스
▁액티브
▁조병옥
▁트랜싯
▁1858
▁밈
▁엎
스테
퍼트
▁기욤
▁데니
▁위태
▁지뢰
가하라
▁Mac
▁Not
▁수증기
▁크레타
▁프렌즈
▁천연가스
▁알렉산드라
▁캔자스시티
▁귤
거루
베인
비츠
적분
▁관대
▁낙태
▁만연
▁매질
▁소켓
▁아토
▁양분
▁엠블
▁완산
▁육박
▁초당
▁퀘이
▁탈리
▁테드
▁핑계
▁도치기
▁목포시
▁평상시
▁챈
운전
전쟁
▁대정
▁로어
▁안재
▁제법
▁콤비
▁튀기
▁포섭
▁노트북
▁라쿠텐
▁분홍색
▁마그네슘
▁알베르토
att
▁광서
▁군집
▁기악
▁당명
▁수훈
▁엠마
▁율령
▁주상
▁토드
▁허들
▁MLB
▁관찰자
▁중심핵
▁파블로
▁Type
▁조선왕조실록
▁고택
▁납품
▁농작
▁도표
▁스쿠
▁스팅
▁깨달음
▁모조리
▁베일리
▁비올라
▁안티고
▁티무르
데냐
사랑
싸움
▁군비
▁급사
▁말소
▁보카
▁수강
▁좌천
▁합산
▁효용
▁마에다
▁밀어내
▁수도사
▁스와프
▁신익희
▁보호구역
▁사르데냐
▁암모니아
▁동아프리카
정제
▁고갈
▁궁내
▁급기
▁달래
▁마고
▁바하
▁애쓰
▁우대
▁재주
▁펠레
▁막아내
▁연구실
▁조너선
▁플래그
▁1814
▁자연주의
▁class
토쿠
▁견훤
▁군락
▁남궁
▁동티
▁보육
▁아핀
▁알렌
▁에린
▁열망
▁우이
▁이철
▁총액
▁풍수
▁학급
▁혼돈
정보부
▁ᄇ니까
▁고조선
▁넘어오
▁스타인
▁시게루
▁크라스
▁무궁화호
식스
촌동
코인
ART
▁갈비
▁로타
▁모식
▁부탄
▁비욘
▁수의
▁애매
▁의왕
▁정공
▁제보
▁진구
▁총살
▁키아
▁푸틴
지스터
▁날아오
▁리포트
▁스레드
▁플라자
▁서아시아
기둥
▁감탄
▁독실
▁소정
▁아말
▁용접
▁원생
▁유승
▁전집
▁증직
▁직권
▁290
▁IEC
▁WHO
▁니스트
▁성명서
▁정확도
▁클라이맥스
뉴스
동리
마일
재단
▁간지
▁니라
▁덕수
▁마틸
▁민가
▁벨벳
▁비호
▁성제
▁완주
▁장택
▁정일
▁증원
▁Art
▁사이공
▁주교좌
▁혁명군
▁1300
▁샌드위치
▁토스카나
▁그리스도교
▁그리스도인
OVE
▁Of
▁괴뢰
▁북상
▁아루
▁열풍
▁팬아
▁헬렌
플레잉
▁봉수대
▁커티스
▁그래미상
▁롤플레잉
▁자유민주
▁프로이트
▁트랜지스터
que
▁구자
▁귀하
▁노화
▁랜덤
▁만기
▁미자
▁영재
▁정과
▁패드
▁TBC
▁교토부
▁유성구
▁지방관
▁취약점
▁패트리
▁type
▁맞배지붕
▁서프랑크
▁세키가하라
거성
전차
enc
▁루지
▁리츠
▁머피
▁버거
▁승전
▁실크
▁아픔
▁약학
▁우도
▁패퇴
▁훈족
▁전철역
▁타블로
▁프리킥
살바도르
▁플레이스
▁여러해살이풀
yle
▁EN
▁레딧
▁면은
▁목화
▁문성
▁바사
▁신관
▁씨름
▁옥상
▁이덕
▁잊히
▁지층
▁캐럴
▁토비
▁포진
▁공기업
▁상대론
▁하모니
▁페더레이션
BN
널목
회원
alk
▁ED
▁Vf
▁리온
▁미에
▁아랑
▁암초
▁얼터
▁웅진
▁춤추
▁흥덕
▁LCK
▁건널목
▁겨울철
▁아쿠아
▁파출소
▁평의원
▁What
▁산업단지
▁크리스천
ye
▁뱌
고나
구멍
▁게일
▁규장
▁소치
▁헤임
씨식물
▁MHz
▁대항해
▁맞대결
▁미시간
▁변속기
▁스타즈
▁에히메
▁창업자
▁아나키즘
▁병인
▁보궐
▁소도
▁포교
▁할양
학생회
ough
▁Med
▁건너편
▁다면체
▁등록금
▁성북구
▁수번뇌
▁우승컵
▁중서부
▁충주시
▁아오모리현
건적
ger
▁Di
▁kW
▁구석
▁려다
▁올랭
▁238
▁남조선
▁넥스트
▁재빨리
▁초대칭
▁키워드
▁With
▁수마트라
▁요시아키
▁총학생회
ING
▁민권
▁선회
▁세베
▁인대
▁장조
▁직함
▁파드
▁홍천
▁나가노
▁보행자
▁윤리학
▁평택시
▁포스코
▁1795
▁아틀레틱
▁Google
TR
▁렝
르모
천국
▁개전
▁경이
▁드니
▁레미
▁매춘
▁미숙
▁석등
▁순정
▁스톨
▁일람
네소스
독립당
▁850
▁원정군
▁홉킨스
▁카테고리
▁한국독립당
▁윔
림동
▁과부
▁김세
▁독소
▁멜론
▁쇠약
▁아난
▁우사
▁윈터
▁이효
▁정여
▁켈빈
▁페터
▁하디
▁헨드
주니어
▁남반구
▁트루먼
▁포위전
▁갑신정변
팽이
▁내수
▁마는
▁몬태
▁브람
▁수렵
▁에런
▁윗면
▁이국
▁차분
▁첨부
▁페데
디우스
▁480
▁메이트
▁베드로
▁블루어
▁석가여래
▁어드밴스
▁언어학자
▁중앙정보부
▁줌
니코
렁이
부미
▁월북
▁웰스
▁유시
▁익산시
▁통신부
▁MPEG
▁드레이크
▁디렉터리
▁사탕수수
▁여주인공
▁키르기스스탄
▁깡
▁국지
▁니나
▁니콘
▁도정
▁민생
▁반야
▁부녀
▁장준
▁정병
▁코지
▁국문학
▁로렌초
▁여객선
▁다리우스
▁하이웨이
대성
블린
▁PP
▁도색
▁루머
▁여과
▁유원
▁특례
▁공직자
▁웨이트
▁체스터
▁자동변속기
UI
▁뚱
▁먀
▁각광
▁골수
▁광택
▁국과
▁굶주
▁남포
▁데메
▁맛있
▁미코
▁보훈
▁본초
▁불평
▁신구
▁심플
▁이트
▁인신
▁팀장
▁필기
▁COM
▁Rev
▁바로잡
▁빅토리
▁시공간
▁합천군
▁황태후
▁부위원장
▁COVID
▁켓
레프
▁당분
▁로동
▁발단
▁버시
▁이형
▁정강
▁참배
▁펀치
시우스
▁737
▁돌아서
▁북반구
▁1793
▁안드레이
사회
▁ㄴ가
▁교묘
▁내구
▁더럽
▁몸집
▁종친
▁평신
▁해일
캐스트
▁223
▁에밀리
▁가나자와
23
개혁
der
▁갤러
▁구인
▁군국
▁깜짝
▁낙타
▁덩굴
▁데쓰
▁바덴
▁바일
▁설사
▁세탁
▁연유
▁천구
▁클루
슬라브
▁가입자
▁남해군
▁데포르
▁돗토리
▁손바닥
▁안데르
▁알레르
▁제이스
▁창덕궁
▁팩토리
▁Blue
▁꼼
▁뺏
섬유
에리
재란
▁간디
▁구나
▁논설
▁느라
▁랜디
▁무당
▁박승
▁보츠
▁솔트
▁야로
▁엄정
▁존엄
▁쿠릴
▁벤피카
▁산체스
▁이완용
▁추밀원
▁정유재란
메트
▁교주
▁범용
▁산불
▁숭실
▁오호
▁장항
▁천정
▁환기
루리아
코스트
▁낙하산
▁유격대
▁페테르
총리대신
▁1846
▁갈릴레이
▁기념사업
▁브루나이
▁블레이드
▁상파울루
▁이베리아
▁이해관계
▁시즈오카현
▁내각총리대신
래시
모자
ump
▁묘법
▁아민
▁언약
▁역습
▁이견
▁표결
▁농작물
▁보라색
▁아칸소
▁이브라
▁테이크
▁평화상
26
BT
▁넉
바람
증권
▁갑각
▁걸맞
▁구토
▁귀양
▁돌핀
▁리저
▁서강
▁억류
▁예속
▁철원
▁총체
▁치중
▁문하시
▁보호관
▁엉덩이
▁입출력
▁전기장
▁지난해
▁페인트
▁하카타
▁중앙아프리카
IO
LC
나물
든지
▁경멸
▁교포
▁국면
▁대뇌
▁분양
▁삼키
▁유품
▁제식
▁주경
▁톨킨
▁하순
▁핵산
▁Top
▁국무원
▁충렬왕
▁테트라
▁에드먼드
▁퓌
▁ME
▁구룡
▁박기
▁베버
▁본당
▁실로
▁역모
▁와해
▁윤석
▁조력
▁추위
연화경
웨스트
▁LCD
▁Min
▁기부금
▁다이나
▁상속인
▁Beat
▁서스펜션
▁초등학생
▁돛
파스
패스
호프
후이
▁괴멸
▁봉작
▁상작
▁서보
▁수류
▁육아
▁잠들
▁칼레
▁페가
▁후시
비우스
▁산둥성
▁시어터
▁외무성
▁물리학상
▁오브젝트
▁하시모토
▁히로부미
▁네덜란드어
HD
처리
▁간장
▁라티
▁모기
▁미묘
▁브롱
▁심근
▁웨일
▁치수
다람쥐
티우스
프랑스
▁구청장
▁버나드
▁절대로
스트리트
▁1839
▁공화주의
▁미성년자
▁촘
질량
▁방조
▁인출
▁해자
▁현충
쿠스틱
▁아산시
▁1854
▁time
▁어쿠스틱
버드
연대
우어
▁공덕
▁망루
▁볼륨
▁윤원
▁이부
▁휘트
▁가시마
▁배수량
▁배트맨
▁비지니스
▁간염
▁등대
▁몰입
▁박준
▁브론
▁사흘
▁상투
▁새턴
▁성추
▁아모
▁욕설
▁인피
▁코레
▁후백
▁214
▁430
▁아테나
▁오비탈
베이거스
깨비
왕국
천년
▁고압
▁마한
▁매월
▁반려
▁반열
▁본디
▁비참
▁사죄
▁센스
▁오딘
▁찬탈
▁퇴단
▁교직원
▁보나파
▁비행대
▁찬드라
▁파트리
▁기독교인
▁소용돌이
▁데포르티보
▁보나파르트
▁라스베이거스
고트
정권
▁견습
▁메사
▁석상
▁적재
▁종주
니다드
▁건국대
▁증명서
▁후임자
▁1849
▁차량기지
▁트리니다드
OU
▁매번
▁미모
▁부윤
▁소홀
▁시경
▁신작
▁오닐
▁원제
▁유폐
▁인테
▁제학
▁존상
▁현령
▁화전
트로피
▁211
▁경비대
▁식물원
▁어리석
▁진보당
▁헬싱키
▁플로이드
담회
버거
호르
▁계란
▁담론
▁북해
▁소란
▁손책
▁알비
▁태세
▁화북
고양이
atch
▁419
▁보르도
▁장택상
28
▁럴
누아
▁김문
▁만국
▁변방
▁어이
▁우동
▁웅장
▁윤영
▁임베
▁제원
▁파격
▁FBI
▁대머리
▁안중근
▁노동자당
▁마음대로
▁비트코인
▁임베디드
오린
탐정
▁낙랑
▁단사
▁배설
▁분쇄
▁분장
▁셔먼
▁스맥
▁유장
▁친절
▁폰트
▁필살
▁갖가지
▁은하단
▁하이든
▁1856
▁정사각형
소득
재기
▁TG
▁광경
▁단성
▁라몬
▁비크
▁여생
▁장령
▁타오
▁페드
▁한서
궐선거
타니아
▁가파르
▁레인보
▁조계종
▁참모장
▁해럴드
▁Will
▁이와테현
▁크레이그
▁재보궐선거
▁통합진보당
▁크리에이티브
전기
oup
▁가니
▁명주
▁열반
▁적성
▁추궁
▁가속기
▁감염자
▁시부야
▁카운터
▁펠로폰
츠부르크
타고라스
▁1851
▁델라웨어
▁펠로폰네소스
일라
▁낙엽
▁단호
▁대세
▁마자
▁밀스
▁선하
▁수배
▁한참
▁301
▁베르디
▁아가씨
▁에리크
▁특이점
▁반공주의
▁스탠퍼드
ery
▁KC
▁계투
▁남로
▁디온
▁방한
▁벽면
▁시주
▁심슨
▁요아
▁원가
▁이안
▁타현
▁페티
▁글리코
▁대주주
▁북극해
▁저작물
86
ma
▁녜
카테
쿠젠
▁결탁
▁서상
▁연임
▁히다
직할시
icro
▁공사관
▁레이어
▁일간지
▁사보이아
▁폴란드인
케스
▁상체
▁성간
▁오기
▁카잔
▁케니
cess
▁그로스
▁명명법
▁스나이
▁투데이
▁핵폭탄
메니스탄
▁1857
▁스맥다운
▁올랭피크
▁캐나다인
▁투르크메니스탄
지대
테른
투안
하늘
▁ER
▁IA
▁거액
▁귀납
▁니즘
▁도독
▁발송
▁방수
▁버퍼
▁빌미
▁소망
▁원성
▁잠복
▁재원
▁정시
▁착안
▁찬스
▁촌은
▁퇴사
▁헤엄
▁현청
▁히나
▁변증법
▁수산물
▁수수료
▁집어넣
▁핵실험
▁다이스케
▁엔트로피
니엄
모습
체어
▁쇼팽
▁하쿠
▁현명
제르맹
▁노스케
▁뽑아내
▁새천년
▁올라서
▁지평선
▁최하위
▁형무소
▁1855
▁힉
레토
바꿈
연료
하스
▁경색
▁미안
▁보문
▁신영
▁현생
▁마그마
▁서북쪽
▁하이델
▁행정관
▁Free
▁프란시스
29
봉사
▁YM
▁가메
▁김한
▁노다
▁박격
▁변장
▁분개
▁수서
▁정년
▁대각선
▁동의어
▁사모아
▁애벌레
▁캥거루
▁하동군
▁스티븐스
쇼프
흐트
▁과업
▁벚꽃
▁액수
▁외동
▁음경
▁주치
▁체임
▁캔디
▁택지
▁템포
▁항모
들랜드
중국해
▁XML
▁구석기
▁기념식
▁봉사자
▁시흥시
▁황도대
▁생제르맹
로아
하르
▁간파
▁대열
▁무왕
▁서천
▁지소
▁포구
▁픽션
▁합체
▁Pop
▁비정규
▁상세히
▁성추행
▁작사가
▁컨디션
▁포브스
▁휠체어
▁무라카미
▁사카모토
▁병마절도사
▁캄파니아주
27
▁기물
▁대광
▁덧셈
▁슈바
▁언젠
▁주둥
▁친목
▁병원체
▁타고나
▁민족주의자
▁오하이오주
니크
▁권세
▁노회
▁본기
▁성년
▁성채
▁수스
▁신명
▁역행
▁이학
▁체첸
▁코민
▁한도
메네스
콥스키
▁루터교
▁모티프
▁언젠가
▁오카다
▁해설자
▁스포르팅
▁원내대표
▁좡
댄스
평가
▁Po
▁고증
▁대적
▁도기
▁라데
▁만리
▁미팅
▁서드
▁위니
▁중첩
▁지병
▁해금
▁회부
시오날
▁마인드
▁비엔나
▁태그팀
▁LIVE
▁나시오날
▁태평천국
▁플루오린
산읍
ont
▁급습
▁녀석
▁셀룰
▁셰이
▁실습
▁요네
▁장구
▁카렐
▁칸타
▁급기야
▁나주시
▁달라이
▁모자라
▁샘플링
▁포천시
▁프로파
▁ne
▁누락
▁레베
▁문교
▁산탄
▁외벽
▁이공
▁탄원
▁퇴화
▁호가
▁화신
덜랜드
▁Bro
▁구미시
▁려다가
▁베르그
▁출생지
▁포위망
▁미주리주
▁포레스트
노동
마타
스탕
▁계파
▁몬트
▁사극
▁압송
▁이서
▁입안
▁직제
▁늘어지
▁따돌리
▁베리아
▁시우바
▁헤이스
를린
여들
day
▁금광
▁버즈
▁영아
▁와트
▁읽히
▁준위
▁청탁
▁크세
▁파사
▁수송기
▁시설물
▁팰리스
▁항구역
▁1776
▁가까스로
▁클라리넷
광선
▁교복
▁국고
▁뇌졸
▁명지
▁율곡
▁총알
▁최경
레시브
▁del
▁독립국
▁브레인
▁아세트
▁영등포
▁퍼펙트
▁국민회의
▁프로그레시브
계리
페리
활성
aut
▁HK
▁심신
▁음란
▁천명
▁팔자
▁픽업
▁End
▁리서치
▁모여들
▁보니파
▁이범석
▁크리켓
▁플레이트
▁국물
▁대흥
▁명절
▁생사
▁알론
▁이연
▁장타
▁정파
▁포탈
▁혹독
메데스
▁게이츠
▁메이플
▁바이스
▁살아나
▁청교도
▁청구인
▁후반부
▁코미디언
▁그레고리력
▁레오나르도
▁프로토타입
팔렌
▁골목
▁김보
▁나나
▁메콩
▁부총
▁서던
▁세브
▁연좌
▁연천
▁음소
▁정량
▁포에
▁홀드
▁다시피
▁목걸이
▁서기장
▁에인절
버섯
▁BR
▁FX
▁린드
▁사성
▁양손
▁이로
▁조식
▁쿠페
▁한방
▁233
▁레일리
▁부활절
▁브리트
▁진정하
▁클라라
▁특공대
▁10000
가야
니발
▁각별
▁간소
▁박주
▁발주
▁비슈
▁수잔
▁전갈
▁접착
▁클론
▁판별
▁포즈
노벨라
▁215
▁거제시
▁경기력
▁레너드
▁심포니
▁유니온
▁미시간주
▁인테리어
▁텔레노벨라
다롭
행사
its
▁TN
▁괴팅
▁국채
▁노미
▁땅콩
▁로로
▁모더
▁세가
▁영세
▁표상
▁퓨전
▁가로막
▁계약서
▁단기간
▁수메르
▁어지럽
▁엑스선
▁치우치
▁해적단
HS
oss
▁누각
▁대양
▁반증
▁살림
▁살상
▁샬럿
▁시로
▁양력
▁욕심
▁창안
▁Des
▁굳어지
▁김종필
▁까다롭
▁영산회
▁네브래스카
슐린
▁MW
▁로미
▁루아
▁매드
▁미망
▁반일
▁영연
▁우랄
▁지단
▁질리
▁계약금
▁서로마
▁에버턴
▁플랜트
▁LOVE
▁피에트로
▁묘법연화경
▁언더그라운드
br
▁뿌
개발
급시
볼트
빼미
워키
▁CV
▁교우
▁금화
▁노먼
▁로젠
▁미움
▁상시
▁실드
▁어필
▁커트
▁Big
▁권력자
▁동북쪽
▁Sing
저민
IDS
▁JP
▁가인
▁나니
▁비비
▁시왕
▁아속
▁열광
▁요세
▁위드
▁유즈
▁윤선
▁조참
▁진안
▁쿠키
파트라
irst
▁239
▁510
▁벤저민
▁빠뜨리
▁파이브
▁클레오파트라
타라
▁RE
▁WH
▁독감
▁라비
▁마마
▁부원
▁수난
▁시판
▁에나
▁우메
▁이족
▁제반
▁콘월
▁문화사
▁Rain
▁아틀라스
▁알레르기
미치
▁감명
▁구면
▁루소
▁면접
▁서훈
▁숙성
▁약정
▁최북
▁카쿠
핵생물
▁212
▁미카사
▁생태학
▁한마디
▁사다하루
▁캔터베리
be
하워
▁SI
▁감히
▁낭독
▁도핑
▁북제
▁불황
▁시동
▁신재
▁위아
▁이계
▁정약
▁청화
▁황보
▁BMW
▁사중주
▁조기어류
▁아이젠하워
▁히로시마현
▁개간
▁경수
▁상피
▁서킷
▁시료
▁은둔
▁정철
▁틈새
▁향리
▁호치
▁DFB
▁set
▁게이초
▁버밍엄
▁서남쪽
▁아르카
▁전년도
▁Mnet
▁권위주의
개명
▁공녀
▁대검
▁로자
▁배영
▁세관
▁아그
▁우문
▁원화
▁음색
▁장보
너티브
▁미술가
▁보호자
▁사생아
▁양서류
▁요리사
▁월리스
ement
▁1792
▁뱀파이어
▁얼터너티브
BL
▁찻
지않
▁CT
▁경치
▁귀향
▁근연
▁도금
▁디어
▁사구
▁시구
▁질레
▁촌락
▁탄환
▁튀르
▁패주
▁호러
▁홍백
▁경영진
▁논산시
▁정말로
▁출연진
▁퀘스트
▁표준어
▁프리랜
▁핵연료
▁호위함
▁계몽주의
▁젬
코바
▁개년
▁그려
▁덤불
▁듀크
▁밑면
▁방과
▁상권
▁슬럼
▁시암
▁안상
▁외화
▁잠그
▁지드
▁추석
▁출소
▁코다
즐랜드
▁부제학
▁슈퍼주니어
▁잣
이인
▁내쫓
▁도고
▁독신
▁유실
▁윤회
▁이면
▁정태
▁제향
▁착오
▁티르
▁히브
메이트
▁Bar
▁게이머
▁목격자
▁밀워키
▁재정난
▁퀸즐랜드
▁begin
▁롬바르디아
그림
얼빈
▁만찬
▁바크
▁수뇌
▁스커
▁슬퍼
▁최재
▁호엔
▁명백히
▁베이컨
▁브람스
▁재판장
▁크래프트
▁엘살바도르
▁퓰
타바
▁do
▁까치
▁라벤
▁매너
▁색인
▁선방
▁쓰가
▁지터
▁칼빈
▁케스
▁쾌락
▁후신
▁기장군
▁릴리스
▁랜드마크
▁소선거구
▁카리브해
▁퍼레이드
보스
삼문
임수
aff
vis
▁CL
▁구급
▁다의
▁메트
▁서하
▁으라
▁절멸
▁카오
▁회중
▁다다르
▁부끄럽
▁앵글로
▁좀처럼
▁중학생
▁지도력
▁퍼뜨리
▁1852
▁경향신문
▁천주교회
▁프라이스
▁Hello
경궁
바타
방식
▁관서
▁그람
▁비츠
▁수온
▁실화
▁어음
▁예견
▁오쓰
▁우쓰
▁유루
▁타코
▁탄화
▁함안
▁검사장
▁다각형
▁동식물
▁외삼촌
▁중생대
▁1853
▁Road
▁도네츠크
▁동대문구
▁모하메드
▁창씨개명
도서
루이
▁FN
▁나츠
▁나팔
▁성하
▁수첩
▁식료
▁에타
▁예천
▁요트
▁제각
▁주술
▁그려지
▁더구나
▁에르난
▁콘셉트
▁1791
▁Show
▁옥타비아
▁즌
▁가평
▁입적
▁점심
▁종택
▁초중
▁평년
▁무인역
▁프레디
▁void
▁옅
노헤
막염
오세
▁구보
▁모후
▁밀턴
▁박인
▁산토
▁섬멸
▁셰프
▁오에
▁자락
▁카멜
▁캄포
▁합방
▁황성
▁희박
하이머
▁과선교
▁중대장
▁지원자
▁최적화
▁현악기
▁다운타운
▁시트르산
▁Sound
▁테러리스트
▁콘스탄티노플
티드
▁EF
▁갑판
▁관사
▁난간
▁노던
▁망상
▁미신
▁박중
▁버블
▁아쓰
▁어쨌
▁연작
▁친숙
▁푸시
컨트리
▁간행물
▁무안군
▁브리즈
▁벌어들이
▁사회단체
▁속씨식물
▁필리포스
▁강물
▁고질
▁고타
▁기노
▁노년
▁버락
▁아만
▁울음
▁원망
▁진과
▁한류
▁호감
▁분화구
▁세일러
▁슬퍼하
▁이베이
▁조나단
▁1100
▁크로스컨트리
▁뚝
귀비
야구
하트
ech
▁RD
▁기치
▁김호
▁래스
▁벨레
▁부응
▁여태
▁영해
▁월급
▁이도
▁장영
▁최치
▁도지사
▁비스트
▁유목민
▁레인보우
way
▁es
▁강수
▁고작
▁궁금
▁냉동
▁능통
▁대파
▁독려
▁동복
▁따내
▁린치
▁마왕
▁발화
▁밥상
▁보두
▁부름
▁안젤
▁윤상
▁자력
▁파니
▁학점
▁레프트
▁쓰임새
▁올빼미
▁옹진군
▁저술가
▁점성가
▁카이저
▁1847
▁개인주의
▁팬아메리칸
▁똥
▁빽
무드
색슨
에어
▁경감
▁남짓
▁마조
▁미일
▁수전
▁수찬
▁해동
대주의
▁221
▁LTE
▁Red
▁강아지
▁끊어지
▁레슬리
▁상류층
▁성동구
▁세포막
▁음악회
▁피스톤
▁하얼빈
▁Like
▁글래스고
▁모모야마
▁앵글로색슨
고도
▁RO
▁베레
▁북진
▁삼부
▁송금
▁실황
▁쑨원
▁장터
▁장현
▁정구
▁패미
▁폐간
▁품계
▁후각
리오카
소년단
▁관악구
▁꽃받침
▁수류탄
▁현저히
▁교섭단체
▁시라카와
▁옵티머스
WS
yl
▁젓
거슨
니언
▁가봉
▁골자
▁동족
▁불펜
▁비약
▁서간
▁앙주
▁유위
▁전륜
▁존호
▁청진
▁추월
▁플뢰
▁독립성
▁브룩스
▁이스턴
▁인슐린
▁Over
오밍
▁MX
▁OC
▁ac
▁교착
▁본적
▁슬롯
▁완투
▁왈라
▁우화
▁회군
노세키
▁Eng
▁김포시
▁배상금
▁세례명
▁유학생
▁정보국
▁브래들리
▁에트루리아
서기
ric
▁경학
▁국명
▁업소
▁연사
▁연일
▁오경
▁오목
▁우성
▁조위
▁주어
▁팔각
자위대
ouse
▁390
▁편의점
▁콘티넨털
▁Light
▁안티고노스
▁즙
비어
슈티
쿠로
ana
▁고부
▁궤멸
▁마누
▁마로
▁봉산
▁수작
▁신예
▁포리
▁혈청
▁혹평
▁회기
▁...
▁나뭇잎
▁뇌졸중
▁박격포
▁유가족
▁탈수소
▁동명이인
▁루키우스
▁프리랜서
iet
▁NK
▁UK
▁강압
▁계명
▁공물
▁다키
▁벙커
▁신숙
▁약국
▁유주
▁재귀
▁케어
▁크릭
▁흡혈
▁Net
▁갑각류
▁리히텐
▁잎자루
▁정찰기
▁황갈색
▁가이우스
▁도쿠시마
▁오를레앙
▁카리스마
▁프라이드
▁읊
랄라
▁JS
▁ㄴ대
▁갑상
▁계략
▁과천
▁낙인
▁덴버
▁반민
▁색조
▁선승
▁신빙
▁안구
▁커크
▁프롬
하이드
▁개찰기
▁부사관
▁생산력
▁프런트
▁하루카
▁은행나무
▁민속문화재
▁버지니아주
루트
▁고즈
▁고해
▁균류
▁명품
▁무방
▁부결
▁삼가
▁선지
▁성직
▁야채
▁외전
▁유흥
▁임업
▁적시
▁조만
▁중흥
▁차드
▁해류
ason
▁231
▁멤피스
▁미망인
▁자신감
▁태권도
▁후견인
보레
시간
옹주
▁mg
▁비명
▁수유
▁스벤
▁여순
▁오데
▁우미
▁이등
▁쟁취
▁치타
▁키노
▁토사
베를린
슈타트
▁228
▁가오슝
▁도깨비
▁산화물
▁성범죄
▁요코스카
▁꽁
코로
ner
▁TA
▁간편
▁다방
▁담화
▁미약
▁바예
▁북단
▁셀러
▁셀프
▁재야
▁청렴
▁토토
자동차
▁가야금
▁피타고라스
제곱
▁PK
▁Pa
▁과수
▁노시
▁라피
▁보현
▁선더
▁송병
▁실바
▁아레
▁악하
▁체온
▁콕스
▁티나
▁정착민
▁집합론
▁1837
▁1844
▁팁
호크
▁각인
▁굴리
▁메로
▁비니
▁식년
▁아워
▁약제
▁유예
▁장엄
▁칼초
▁Sec
▁예배당
▁창세기
브레히트
▁포리스트
▁강판
▁거장
▁걸즈
▁노숙
▁동천
▁만능
▁아론
▁정연
▁취락
▁트랩
▁하체
▁한옥
▁홍명
▁Har
▁무척추
▁비대칭
▁연장선
▁취임식
▁저널리즘
▁네덜란드인
조작
프슨
ven
▁ro
▁급부
▁독단
▁아저
▁열등
▁요안
▁풍토
▁950
▁단체장
▁드래건
▁모국어
▁반대쪽
▁발자국
▁여름철
▁곤살레스
▁트레이너
▁고군
▁김혜
▁냉방
▁밀교
▁연마
▁예우
▁원판
▁이천
▁일직
▁증서
▁청풍
▁코노
echn
▁미스트
▁아저씨
▁아즈치
▁조교수
▁현급시
▁환경부
코프스키
▁고속철도
99
소시
▁GD
▁맨틀
▁미오
▁방랑
▁성희
▁숙고
▁엘프
▁옴니
▁익주
▁제례
▁집약
▁출근
▁테츠
▁홍대
사이클
▁226
▁520
▁SQL
▁Sum
▁발명가
▁항저우
▁헤아리
▁호찌민
▁Stud
▁북베트남
▁알레산드로
aj
부스
red
▁낙농
▁라코
▁만경
▁벨로
▁속죄
▁스털
▁친형
▁호라
▁발행인
▁예카테
▁아시리아
▁오렌지색
HT
▁뜰
서구
실론
▁거물
▁라나
▁말러
▁반원
▁방전
▁아명
▁여가
▁자니
▁주앙
▁주청
▁차가
▁초보
▁판도
▁007
▁fun
▁군단장
▁스타스
▁스턴트
▁유리수
▁임팩트
▁최남단
▁테레사
ution
▁1836
▁스테레오
헤치
▁FR
▁가자
▁김나
▁김응
▁난자
▁라운
▁여장
▁운문
▁이매
▁일신
▁자폐
▁총지
▁코라
▁타국
▁히치
국민당
민정음
정대부
▁로스터
▁평창군
▁화순군
▁CCTV
▁방탄소년단
▁Af
▁고야
▁광종
▁나방
▁망막
▁문부
▁성왕
▁슈가
▁심층
▁썬더
▁전황
▁정순
▁합전
▁혼용
▁자연사
▁헤이룽
▁페미니즘
IE
곡선
링거
시설
▁OF
▁건안
▁랭커
▁리턴
▁방황
▁빈약
▁서동
▁소토
▁스퍼
▁알현
▁외젠
▁편모
▁폭우
니우스
▁315
▁관리국
▁아이유
▁요시노
▁일대기
▁제작소
▁케네스
▁퍼블릭
데하이드
▁블리자드
▁산마리노
▁승부조작
교동
기술
승람
타야
▁HE
▁XX
▁기만
▁난사
▁리부
▁반구
▁습하
▁아의
▁영흥
▁익사
▁목판본
▁앞당기
▁이준용
▁근본주의
▁요시노부
07
▁칵
다라
도체
영향
회로
▁군현
▁냉정
▁로랑
▁보사
▁예리
▁우부
▁은사
▁전광
▁정희
▁척수
▁허영
vent
▁동인도
▁버틀러
▁윈스턴
▁헤이그
▁블레이크
▁훈민정음
개석
날두
돈나
ism
▁난입
▁레고
▁물의
▁미용
▁선덕
▁성녀
▁소단
▁소변
▁숙의
▁오거
▁자급
▁전폭
▁졸리
▁주살
▁체격
▁투영
▁포사
바이크
▁관동군
▁다이너
▁명륜당
▁서산시
▁수호자
▁스코트
▁구스타브
▁마르티네스
uk
▁쉘
▁얌
생명
전력
젤란
▁Mk
▁각오
▁공회
▁길목
▁디시
▁마태
▁모레
▁빼내
▁어판
▁워런
▁제스
▁증산
▁출진
▁757
▁노원구
▁닭고기
▁상나라
▁슐레스
▁호날두
▁라플라스
자재
▁EV
▁김만
▁도큐
▁마포
▁명은
▁병영
▁복고
▁살롱
▁승천
▁액정
▁이프
▁좁히
▁증여
▁지에
▁키시
▁테베
▁토우
소시엄
유철도
ital
▁217
▁거문고
▁게임스
▁마리나
▁신인왕
▁앙코르
▁에리트
▁1794
▁컨소시엄
▁일본국유철도
피오
▁고드
▁관공
▁낸시
▁도노
▁사시
▁상석
▁시술
▁아쉬
▁의금
▁이근
▁일류
▁주시
▁척탄
미사일
클랜드
▁640
▁베르너
▁시크릿
▁에스테
▁울릉도
▁원통형
▁위클리
▁최치원
등기
이나
젠더
치카
테롤
하나
화가
▁데시
▁돌풍
▁마현
▁북면
▁용매
▁720
▁경제력
▁군사령
▁끊임없
▁알론소
▁연천군
▁처해지
▁매트릭스
▁모노레일
▁브리트니
▁콘스탄틴
루프
상도
우병
▁OP
▁UR
▁el
▁결속
▁고어
▁낙향
▁단련
▁대면
▁동태
▁북조
▁수생
▁야르
▁이각
▁학제
▁히바
ator
▁경작지
▁밀양시
▁비디아
▁비서실
▁알렉시
▁오미야
▁정규군
▁제작비
▁1806
▁레오폴트
▁콘스탄티노스
시계
처분
▁굽히
▁궁예
▁김부
▁매표
▁불순
▁사표
▁성충
▁쇼니
▁슈뢰
▁스즈
▁영하
▁이교
사와라
▁공로자
▁아타리
▁증손자
▁라그랑주
▁비로자나불
▁알브레히트
성이
플리
bum
▁대일
▁러더
▁명맥
▁박세
▁상도
▁쓸모
▁염료
▁정설
▁함평
▁610
▁Sci
▁도승지
▁본회의
▁부딪치
▁허난성
▁후백제
▁코르테스
▁리히텐슈타인
▁딤
▁웁
야르
여왕
▁도감
▁불멸
▁오성
▁욕계
▁우트
▁접경
▁주오
▁철제
▁카밀
▁켈러
▁폐단
▁표범
▁헌제
▁후학
oney
port
▁교통량
▁니케아
▁만화책
▁문화원
▁야구팀
▁콩쿠르
▁우리나라
▁세르비아인
▁쁘
공간
급수
▁내밀
▁내사
▁돈녕
▁부록
▁비핵
▁사세
▁선무
▁섭씨
▁수능
▁이대
▁자의
▁저압
▁절연
▁타계
▁탈선
▁티노
▁복잡도
▁불명예
▁오보에
▁전투력
▁지린성
▁Play
▁총영사관
▁플라스마
08
▁ㄱ
외과
장자
▁GL
▁개회
▁낙원
▁대축
▁밀착
▁서라
▁오정
▁위선
▁의화
▁이발
▁잔당
▁조모
▁주방
▁한산
▁Boy
▁RPG
▁고창군
▁규장각
▁기후현
▁농경지
▁되살리
▁득점자
▁배포판
▁스털링
▁옆구리
▁이교도
▁코코넛
▁후쿠다
▁밀리미터
MP
들레
사병
요리
▁관방
▁구식
▁라구
▁산간
▁설법
▁세나
▁송정
▁인현
▁지루
▁차후
▁최충
▁한진
▁희소
▁드나들
▁비핵화
▁에볼라
▁온전히
▁최북단
▁하코다
▁이스마일
▁오가사와라
▁프레데리크
▁박현
▁상향
▁신간
▁인장
▁장부
▁채팅
▁해구
▁화사
form
▁문학가
▁설리번
▁연구관
▁연주가
▁조선조
▁징병제
▁포워드
▁코민테른
고시
셔스
▁MT
▁군용
▁릭스
▁민자
▁박제
▁반유
▁변제
▁비닐
▁신현
▁유추
▁윤봉
▁이륙
▁캡슐
▁펄스
▁폐막
▁Bad
▁끌어내
▁비행단
▁사사키
▁생산물
▁실종자
▁오리올
▁윈난성
▁인구수
시프
▁IB
▁동결
▁딸기
▁만두
▁번복
▁부마
▁소감
▁숙이
▁승소
▁아코
▁양부
▁여전
▁의외
▁인솔
▁인턴
▁인회
▁조미
▁치앙
▁탐욕
▁투고
▁헌종
▁815
▁min
▁고분자
▁나가토
▁엄격히
▁영화사
▁예산군
▁오와리
▁충실히
▁파헤치
▁그레이스
▁프레드릭
▁슐레스비히
UT
▁젯
더기
무덤
바스
▁기함
▁노량
▁묵시
▁백국
▁보비
▁실물
▁애도
▁엣지
▁전소
▁전해
▁주니
▁주안
▁주필
▁중사
▁진양
▁출제
▁회랑
▁후생
스타파
스트로
▁공모전
▁에탄올
▁연해주
▁철원군
▁테슬라
▁해산물
▁흰개미
▁1798
▁호몰로지
전리
체인
ony
▁구국
▁깔끔
▁노획
▁동면
▁번번
▁서광
▁순창
▁암벽
▁왜적
▁전경
▁토고
▁파벨
▁편수
▁하향
▁각운동
▁라이터
▁오시마
▁조직원
▁족제비
▁학부모
▁1842
▁애틀랜틱
lex
ush
▁구레
▁극좌
▁네프
▁니컬
▁단판
▁병리
▁성급
▁쇼난
▁종과
▁집현
▁처단
▁표류
▁피노
▁OVA
▁Rem
▁문학사
▁선발전
▁완주군
▁코러스
▁한니발
▁1796
▁1832
▁누비
▁누설
▁로메
▁방계
▁선풍
▁신년
▁추봉
▁편차
▁학비
▁현안
▁EMI
▁감독상
▁글리세
▁대문자
▁웰링턴
▁쿠르트
▁헤이룽장
▁멕시코시티
▁뺨
▁간청
▁궁지
▁루르
▁만석
▁소각
▁소드
▁수계
▁쌍방
▁애너
▁유혈
▁일구
▁조그
▁책판
▁치역
▁푸른
raph
▁Met
▁마티아
▁술탄국
▁원동력
▁자위대
▁지원금
▁코페르
▁That
▁레즈비언
▁마우리아
▁애기박쥐
▁브라이언트
▁트랜스젠더
▁페르난데스
▁간간
▁김소
▁벤자
▁어셈
▁의리
▁철권
▁촉한
▁티오
레이스
▁wid
▁눈부시
▁미즈노
▁주간지
▁케로로
▁2030
▁King
▁마이니치
▁맥도널드
▁에드워즈
▁나가사키현
▁옙
상가
▁공생
▁누벨
▁도합
▁문묘
▁보손
▁엥겔
▁잡음
▁절터
▁정산
▁침전
▁222
▁가부장
▁다섯째
▁도리어
▁보두앵
▁인터랙
▁자치령
▁참정권
▁합법화
▁헥타르
▁홋스퍼
▁이오시프
af
뿔소
▁관철
▁금상
▁다나
▁다원
▁물병
▁살균
▁소경
▁열중
▁정토
▁태사
▁한지
▁독립당
▁돌아보
▁소시지
▁앞부분
▁에르빈
▁이주한
▁잉글리
▁테크니
▁상륙작전
ady
▁데인
▁럭키
▁마수
▁성층
▁쿼드
▁토레
▁투과
▁후왕
이스터
▁460
▁660
▁ROM
▁남양주
▁레인지
▁미완성
▁아랍인
▁제이미
▁타이밍
▁트래픽
▁Inst
▁각운동량
▁스위프트
▁멩
▁횃
군가
밍고
트론
▁MR
▁각계
▁고금
▁래드
▁밤중
▁상온
▁알카
▁에렌
▁외출
▁일지
▁장진
▁절도
▁치소
▁Cor
▁NHL
▁글라스
▁부스터
▁엄밀히
▁전사자
▁맥도날드
▁지느러미
▁Colle
▁외할아버지
YS
공원
동면
에즈
▁no
▁구어
▁동과
▁반장
▁수륙
▁양당
▁양재
▁위문
▁철교
▁페퍼
▁호송
orce
▁232
▁귀족원
▁스톤스
▁재정부
▁퍼거슨
▁1790
▁소선거구제
▁프로테스탄
권력
루브
오버
치니
테아
폭스
▁당부
▁레퍼
▁레흐
▁습기
▁승패
▁알토
▁연성
▁임사
▁주공
▁질산
▁찬가
▁최규
▁침착
▁핸들
▁not
▁명탐정
▁박지원
▁법학자
▁사림파
▁생산지
▁안성시
▁좌찬성
▁콜레스
▁호쿠리쿠
▁우쓰노미야
대왕
elf
▁간통
▁도립
▁선법
▁유유
▁참봉
▁철로
▁총합
▁파노
▁피르
▁황궁
▁김유신
▁누군가
▁메이어
▁아즈마
▁주황색
▁터키어
▁포터블
여지승람
컬럼비아
▁이끌어내
▁경부고속도로
▁브리티시컬럼비아
WA
눌프
물질
카레
케인
테리
iew
▁pH
▁몰살
▁심볼
▁옐친
▁종일
▁커비
▁호골
사우스
연수원
▁216
▁관광업
▁이시다
▁1831
▁스트라스
▁아르눌프
▁무척추동물
▁사법연수원
가슴
국수
누르
병원
영화
▁교두
▁국자
▁기틀
▁두만
▁배럴
▁빌레
▁승탑
▁시퀀
▁암술
▁업종
▁에니
▁의종
▁장력
▁지토
▁청조
▁프시
▁화친
▁회합
▁234
▁유망주
▁카네기
▁밀레니엄
▁비정규직
▁아이패드
09
pm
we
▁깅
▁쉴
농사
를로
▁국판
▁명회
▁박차
▁수제
▁일례
▁참호
▁클락
▁파샤
▁필적
▁구독자
▁다름없
▁도요타
▁로런츠
▁앙투안
▁플루트
▁1810
▁브루크너
▁모터사이클
ama
▁다롄
▁명창
▁방비
▁수개
▁시메
▁신드
▁야후
▁유약
▁지파
▁차질
▁하일
그래프
▁264
▁410
▁RCA
▁경유지
▁일레븐
▁콜레스테롤
▁School
KA
레도
연장
▁군무
▁기흥
▁누명
▁린네
▁사향
▁색슨
▁석학
▁수월
▁신변
▁제군
▁조산
▁짜이
▁찬반
▁초조
▁피플
▁후스
▁흐루
▁달팽이
▁애프터
▁완도군
▁진동수
▁학년도
▁호프만
▁레퍼토리
▁신약성경
▁인사이드
▁노스캐롤라이나주
마켓
민턴
조치
ins
▁EL
▁김봉
▁난방
▁노토
▁당도
▁삼남
▁오두
▁윈저
▁윤지
▁정장
▁통사
수산부
▁Run
▁뱅크스
▁수감자
▁슈바르
▁전반전
▁해남군
▁that
▁어니스트
▁사회주의자
sc
려주
복음
슬란
우마
테크
ane
ney
▁결부
▁노포
▁봉승
▁분대
▁아강
▁아포
▁어가
▁여류
▁유색
▁중문
▁판권
껍데기
▁Web
▁버펄로
▁아소카
▁인더스
▁정반대
▁척탄병
▁프로페
▁피난민
▁휴양지
▁Great
▁퀵
▁핍
더드
라프
리가
키타
틸렌
rop
▁UI
▁나자
▁노릇
▁선왕
▁윤종
▁입교
▁자객
▁차우
▁평사
▁후버
르트르
ript
▁괴팅겐
▁미시마
▁에이미
▁울타리
▁의성군
▁테크닉
▁1841
▁매일신보
▁숄
넬라
넬리
누이
렉트
살라
차크
▁Je
▁괴산
▁근해
▁레니
▁로펌
▁마의
▁멜리
▁분실
▁불도
▁사멸
▁색계
▁설가
▁성호
▁이랑
▁전량
▁티미
▁파가
▁현내
스토크
▁보이콧
▁이와키
▁제사장
▁다다요시
▁배드민턴
▁시스템즈
▁원더러스
▁알렉산드로
▁쉼
사지
상부
평동
IST
ene
▁we
▁가위
▁꾸짖
▁남문
▁라부
▁라야
▁막말
▁만과
▁비사
▁섀도
▁송강
▁연선
▁키요
▁튜버
▁틀림
▁휘그
거래소
▁GPU
▁노동부
▁달성군
▁미나토
▁오로라
▁진흥왕
▁차이나
바노
추리
uth
▁군왕
▁덕흥
▁드롭
▁루브
▁방형
▁빽빽
▁성찰
▁안달
▁양시
▁용법
▁청두
▁초본
▁타다
▁항거
▁가속도
▁군주국
▁마돈나
▁미야코
▁번역본
▁클리프
▁다카마쓰
▁오카자키
▁워싱턴주
▁코페르니
▁오키나와현
▁Project
EX
▁엷
퓨터
▁UF
▁갈레
▁광석
▁극성
▁노블
▁마더
▁신디
▁양제
▁영일
▁울림
▁원예
▁쟁탈
▁지세
▁카도
▁코흐
▁Are
▁가극단
▁다케시
▁로열스
▁애슐리
▁예비치
▁스파이크
▁요시히로
▁꿇
가쿠
단조
시다
ARD
▁견주
▁고비
▁궤간
▁북로
▁불허
▁산학
▁속현
▁손오
▁애버
▁재량
웨일스
▁213
▁고생물
▁보이저
▁샐러드
▁안후이
▁은평구
▁정나라
▁와이파이
▁요시타카
▁Every
▁width
▁노브고로드
시효
▁계면
▁남측
▁사족
▁야인
▁연골
▁연체
▁오수
▁임차
▁전군
▁전횡
▁조예
▁체이
▁캐스
▁파탄
▁홍준
▁공예품
▁몰아넣
▁생물체
▁야나기
▁전쟁터
▁파이썬
▁하야시
▁개혁주의
▁뉴사우스
▁스토리지
▁트랜스포
▁align
▁뉴사우스웨일스
▁International
04
묘지
장어
ott
▁신승
▁정대
▁중주
▁집시
▁타사
▁페론
라이즈
▁리오스
▁보성군
▁애스턴
▁인도인
▁주택지
▁케이지
▁토착민
스티누스
▁귄
▁찔
▁개폐
▁도지
▁리빙
▁본드
▁사네
▁석호
▁스메
▁신촌
▁신파
▁위엄
▁유모
▁자상
▁친필
▁포지
▁UAE
▁메이크
▁반다이
▁스텔라
▁위아래
▁음식물
▁지휘봉
▁총동원
▁탈바꿈
▁프렌치
▁1804
▁this
▁매개변수
▁미끄러지
▁슬라이드
▁하비에르
▁농어촌버스
▁캇
eng
▁곤도
▁공구
▁금주
▁몽케
▁생가
▁생후
▁안트
▁열린
▁외세
▁음극
▁이여
▁처우
▁파월
▁험하
▁YTN
▁고르바
▁그리핀
▁가선대부
미드
블러
▁계책
▁광원
▁금품
▁셰리
▁수차
▁이변
▁저당
▁코팅
▁탈옥
▁텐트
▁환생
▁Mod
▁구로다
▁기술력
▁김천시
▁리스크
▁벤자민
▁엡실론
▁의금부
▁지구대
▁옥타비아누스
경제
북동
숭아
키르
▁매핑
▁미티
▁소이
▁수완
▁수혈
▁아일
▁어종
▁전처
▁중년
▁진관
▁포체
▁허니
▁Rad
▁빌리지
▁서양식
▁설득력
▁아이비
▁알아채
▁칭다오
▁통영시
▁편집기
▁고이즈미
▁플러그인
▁스파이더맨
▁웸
길동
스프
에타
티엄
▁up
▁꼭두
▁니르
▁린턴
▁임지
▁정열
▁주루
▁혈연
그레브
tain
▁거주민
▁과도기
▁로망스
▁막바지
▁펜티엄
▁형이상
▁남태평양
▁자그레브
lement
로리
ize
▁UP
▁am
▁ha
▁겸손
▁교위
▁근현
▁김효
▁레노
▁무오
▁무적
▁밀어
▁박철
▁배송
▁선주
▁실격
▁어간
▁오고
▁최승
▁축약
▁타니
▁판각
오피스
▁219
▁Off
▁귀퉁이
▁설계자
▁소방관
▁유태인
▁이영호
▁아나스타
▁고르바초프
▁베른하르트
노신
뉴얼
바겐
조약
티니
▁간헐
▁격돌
▁동관
▁동음
▁레게
▁만력
▁매료
▁시복
▁신창
▁야자
▁양전
▁엘튼
▁연필
▁옐로
▁이따
▁총력
▁커맨
▁키라
▁키미
▁탄탄
▁파멸
▁판문
▁호우
▁255
▁광명시
▁얼스터
▁제이콥
▁집현전
▁초능력
라이언스
▁안드레아스
▁뭄
룩스
웨시
청정
퇴근
▁DP
▁결점
▁권영
▁근심
▁급유
▁돌진
▁맬컴
▁배합
▁수기
▁신데
▁역법
▁우의
▁원균
▁유병
▁은상
▁정랑
▁지국
▁처남
▁체의
▁투라
▁해법
▁ARM
▁EOS
▁FTA
▁라이히
▁밤하늘
▁방문자
▁완성도
▁1843
▁술라웨시
▁와이오밍
▁전체주의
▁샛
▁교신
▁구파
▁남진
▁넥슨
▁도민
▁도조
▁보답
▁분립
▁산군
▁성상
▁인방
▁전법
▁짝짓
▁클립
▁퍼드
▁한일
라리온
atic
▁275
▁공포증
▁디지몬
▁주사위
▁헤비급
▁고다이고
SI
럭스
중미
푸라
▁감로
▁결번
▁권선
▁단념
▁반가
▁배재
▁성시
▁섹시
▁신겐
▁오존
▁유람
▁티니
▁함포
▁혼슈
▁감염병
▁바울로
▁바이든
▁북중미
▁소시에
▁스포트
▁파스타
▁1809
▁1821
▁스트로스
▁시에라리온
▁쎄
룬궁
▁-.
▁각서
▁공제
▁군소
▁농노
▁뒤편
▁마네
▁명기
▁문답
▁미혼
▁보은
▁생부
▁실라
▁우등
▁원뿔
▁홍주
▁강동구
▁강진군
▁안기부
▁파룬궁
▁파올로
▁1813
▁슈바르츠
ations
▁야마구치현
서면
코어
▁간척
▁근친
▁남명
▁다기
▁레디
▁발데
▁보태
▁비안
▁예거
▁유복
▁정운
▁정육
▁취역
▁탁발
▁하룻
▁Blu
▁Ind
▁key
▁구로구
▁남원시
▁버몬트
▁베니스
▁양주군
▁우참찬
▁1623
▁1783
▁나카지마
▁신데렐라
▁영지주의
▁전자기파
노지
레알
사촌
생기
장식
▁Mc
▁VV
▁괴테
▁레터
▁무녀
▁민병
▁불의
▁수험
▁울진
▁인맥
▁조희
▁증설
▁미소녀
▁부대원
▁브리핑
▁이끌리
▁호르헤
▁더글라스
▁소프라노
▁엑스트라
▁이야말로
▁카슈미르
▁뎀
ams
▁Em
▁가노
▁고주
▁농악
▁머릿
▁밀수
▁반칙
▁법당
▁본점
▁세그
▁소부
▁순치
▁야노
▁유랑
▁유례
▁장직
▁재기
▁지온
▁하랄
▁횃불
▁회생
레우스
▁기울기
▁김제시
▁담양군
▁비트겐
▁사토시
▁줄리엣
▁출퇴근
▁호스팅
▁1805
▁가시광선
▁에인절스
▁허베이성
▁가고시마현
▁구마모토현
▁비트겐슈타인
▁욜
마뉴
춘기
▁FL
▁길쭉
▁리포
▁망가
▁목축
▁밀로
▁바드
▁박희
▁보주
▁연례
▁온양
▁육류
▁임박
▁차내
▁타트
▁특파
▁히포
▁Rob
▁Sub
▁레이터
▁마애불
▁서보장
▁양주시
▁칼리파
▁하룻밤
▁다이렉트
▁디바이스
▁샤를마뉴
▁클라우스
▁score
NS
난히
바야
▁DL
▁GE
▁꺾이
▁네온
▁데루
▁도당
▁메기
▁부역
▁비탈
▁서영
▁수미
▁스무
▁심혈
▁에그
▁외롭
▁지망
▁진봉
▁총관
▁측도
▁카렌
▁타치
즈버그
▁레이드
▁밑부분
▁송광사
▁진도군
▁1799
▁1835
▁1845
▁궁수자리
▁아사쿠라
▁프로펠러
▁코페르니쿠스
▁윅
라시
롤터
슈빌
암면
정책
함대
▁Im
▁고우
▁무학
▁속박
▁시군
▁원대
▁유쾌
▁유파
▁은총
▁응고
▁임성
▁장본
▁창사
▁총상
▁친교
어도어
▁교회법
▁모리슨
▁불안감
▁연나라
▁자존심
▁작용소
▁장시간
▁저수지
▁주둥이
▁카세트
▁트렌드
▁훈련소
▁1819
▁시어도어
▁지브롤터
▁20120
▁아케메네스
▁크리스토프
▁헤르베르트
05
▁넵
▁댁
▁쏠
▁기류
▁나크
▁라타
▁밀크
▁비법
▁사노
▁서군
▁섹터
▁송영
▁시련
▁암반
▁오피
▁왕전
▁우먼
▁저마
▁절개
▁조안
▁청천
▁혼재
▁She
▁val
▁두드리
▁신숙주
▁피루브
▁혁명당
▁법무법인
▁인기가요
▁애리조나주
na
▁ㅂ
▁큼
레마
로메
▁격분
▁겸비
▁광무
▁드론
▁리티
▁민진
▁석물
▁시보
▁완충
▁정다
▁파면
▁DMB
▁라이즈
▁멧돼지
▁번역가
▁브란트
▁비무장
▁어쨌든
▁제후국
▁키루스
▁팬클럽
▁홍준표
▁1803
▁Fire
▁코르도바
▁인터랙티브
아노
erm
▁라빈
▁루가
▁루빈
▁마유
▁반탁
▁분투
▁선산
▁중류
▁체사
▁크래
▁투아
▁흑자
가르드
▁Inc
▁OEC
▁구조대
▁동반자
▁오쿠보
▁증권거래소
광석
런드
야카
엄경
칼라
▁DE
▁nt
▁경직
▁나포
▁다승
▁리호
▁마역
▁매화
▁무마
▁부계
▁일광
▁자가
▁정미
▁지산
▁참새
▁총신
▁카고
ates
▁227
▁출발점
▁휘트니
▁YMCA
▁세그먼트
▁중합효소
▁카스트로
놀룰
입상
▁KR
▁강탈
▁다호
▁마드
▁미화
▁버디
▁보천
▁성유
▁세세
▁순국
▁스물
▁아령
▁옥중
▁와시
▁재가
▁주정
▁지와
놀룰루
▁Bel
▁마츠모토
▁킬로그램
▁핵미사일
▁호놀룰루
봉산
예보
oph
▁RF
▁김순
▁데릭
▁록맨
▁순사
▁쓰키
▁아방
▁압승
▁앵무
▁조밀
▁종용
▁질의
▁충절
▁파머
▁블레어
▁아무르
▁알파인
▁에드윈
▁에스터
▁영연방
▁창녕군
▁HTTP
▁마스터스
▁트리니티
▁Award
▁소시에다드
UL
▁VR
▁노팅
▁대간
▁미쿠
▁애비
▁엘렌
▁유린
▁전각
▁전태
▁활력
프리트
▁Ste
▁근거리
▁도에이
▁상주시
▁영동군
▁웸블리
▁칼데라
▁플뢰레
▁흑사병
▁얼라이언스
▁팥
▁헴
두스
렌츠
미츠
▁EA
▁MY
▁Sk
▁김익
▁돌방
▁로잔
▁목도
▁발부
▁와라
▁주법
▁행태
티나무
▁구락부
▁끝마치
▁사춘기
▁세이버
▁수공업
▁양방향
▁오사무
▁의석수
▁파르티
▁폭발물
▁현무암
▁루즈벨트
▁미네소타주
▁웡
란도
랜도
▁라모
▁민방
▁여흥
▁전령
▁조운
▁중창
▁진남
▁진폭
▁피력
▁한수
드랑이
복지부
▁발레리
▁비욘세
▁아프간
▁퇴적물
▁화물선
▁어린아이
▁페미니스트
▁해양수산부
06
▁펨
마트
별초
아비
혈병
ava
▁DX
▁구지
▁기약
▁눈앞
▁산도
▁산양
▁삼위
▁원지
▁이과
▁주동
▁집게
▁헌트
▁Raw
▁간담회
▁경순왕
▁기쿠치
▁노나라
▁담아내
▁메이드
▁함양군
irect
▁AIDS
▁피루브산
▁Korea
기군
네세
신기
▁RX
▁WK
▁거르
▁랄프
▁만호
▁미케
▁밀정
▁바레
▁본가
▁어퍼
▁오언
▁유현
▁자모
▁탈라
▁프티
▁헤딩
▁325
▁AEK
▁Act
▁Ass
▁마우리
▁바르트
▁산사태
▁아르마
▁오마르
▁전환점
▁점령지
▁지원군
▁Down
▁레버쿠젠
▁페가수스
xy
만금
보전
분별
비노
지우
air
▁OR
▁견과
▁궁녀
▁만네
▁비장
▁상학
▁쓰쿠
▁앤젤
▁야오
▁오레
▁원추
▁이쿠
▁탱화
▁행법
▁매출액
▁문교부
▁사이키
▁사회부
▁새만금
▁수행원
▁여호와
▁외래어
▁음성군
▁이즈모
▁OECD
▁브롱크스
▁삼위일체
▁폭스바겐
▁Micro
러니
튠즈
▁마두
▁보가
▁상보
▁에베
▁오드
▁용자
▁윙스
▁찬송
▁친근
▁파고
▁하녀
▁환호
어머니
▁253
▁고구마
▁금산군
▁무용가
▁박원순
▁색소폰
▁아우디
▁엠블럼
▁요시오
▁Game
▁Just
▁아이튠즈
▁20100
▁에리트레아
▁이탈리아인
▁홀로코스트
곡사
정지
타기
파업
oud
▁TF
▁가꾸
▁강민
▁급식
▁다각
▁도체
▁문란
▁순절
▁쓰시
▁아문
▁옥고
▁요나
▁이분
▁이비
▁주미
▁코칭
▁판독
▁포프
▁황조
▁후천
▁218
▁are
▁ver
▁기업체
▁사바나
▁서커스
▁수니파
▁식료품
▁에반스
▁크롬웰
▁파이낸
▁1824
▁에스파뇰
▁평양직할시
콘티
▁감속
▁계림
▁구기
▁금오
▁변의
▁상아
▁오귀
▁왕망
▁원순
▁청양
▁추도
▁태클
▁특산
▁한눈
▁해면
세이돈
▁Che
▁POS
▁노선도
▁마사카
▁몰려들
▁불어넣
▁안보리
▁영암군
▁지원병
▁총파업
▁크레인
▁토레스
▁에마누엘
▁엠파이어
▁포세이돈
▁흘러내리
▁Power
▁시모노세키
▁줍
래곤
베그
▁게코
▁굴곡
▁나베
▁달인
▁들판
▁모계
▁박명
▁승화
▁양공
▁양사
▁오코
▁이숙
▁입선
▁팔로
▁햇볕
▁회가
적으로
▁224
▁777
▁다이라
▁올랜도
▁중국식
▁휘발유
▁9000
▁comp
▁느티나무
▁금메달리스트
닥치
riv
▁고차
▁누드
▁선분
▁소급
▁자일
▁작화
▁투척
리스토
▁Ang
▁How
▁느냐고
▁로도스
▁매크로
▁미카와
▁사마의
▁수족관
▁에이드
▁음악상
▁정읍시
▁초음파
▁친동생
aster
▁1802
▁스피어스
▁주계열성
▁카롤링거
▁켄터키주
▁라이프니츠
릅쓰
▁LD
▁고단
▁김택
▁랭스
▁러너
▁백금
▁병장
▁분청
▁석축
▁세차
▁은색
▁입회
▁진법
▁초인
▁BSD
▁Who
▁ᄇ시오
▁동작구
▁손오공
▁애호가
▁전임자
▁중앙당
▁푸른색
▁호나우
티아누스
▁1775
▁마사히로
▁비스콘티
▁오스트로네시아
03
에다
▁di
▁단테
▁대시
▁라브
▁명곡
▁생년
▁성결
▁완패
▁장방
▁팬덤
리스타
샘프턴
▁거창군
▁무릅쓰
▁신생아
▁아르타
▁차일드
▁피에로
▁마리우스
▁스포르차
▁아랫부분
▁야마자키
TO
궤도
멘토
▁겐지
▁녹스
▁만인
▁문항
▁미역
▁미처
▁빗대
▁산현
▁시랑
▁아퀴
▁약체
▁영제
▁장충
▁접대
▁특진
▁패소
▁푸트
룸푸르
▁305
▁316
▁CNN
▁공격력
▁스피어
▁에리히
▁징역형
▁합중국
▁시리우스
▁요시쓰네
▁포츠머스
▁반유대주의
MC
▁콴
▁텃
게니
마당
발라
사쿠
요크
쿼이
튿날
▁가압
▁기즈
▁넓적
▁눈길
▁데어
▁메노
▁민첩
▁볼가
▁속곡
▁엄호
▁이륜
▁전치
▁책상
▁처참
▁추앙
▁캡콤
▁토구
▁파란
▁헬라
스카이
▁237
▁512
▁남대문
▁몽골족
▁무제한
▁밀리언
▁발사대
▁발상지
▁쉐보레
▁에이커
▁화학식
보스토크
▁1808
▁수양대군
▁스포츠카
▁블라디보스토크
가라
러햄
▁Bu
▁다짐
▁돌궐
▁반월
▁상쇄
▁스이
▁시연
▁양치
▁완행
▁이요
▁정석
▁직구
▁크누
▁티어
▁파급
▁평온
▁포티
ster
▁par
▁관람객
▁눈치채
▁대장경
▁메이슨
▁아오이
▁연기력
▁올라프
▁체이스
▁카오스
▁확고히
▁말레이어
벌린
케라
▁감영
▁금당
▁도저
▁문공
▁와다
▁육조
▁의향
▁중군
▁커밍
▁560
▁940
▁노이즈
▁보상금
▁유타카
▁짝사랑
▁청계천
▁청년단
▁피어슨
▁1807
▁동프랑크
▁비상사태
▁아라카와
▁야마시타
▁콤플렉스
▁행방불명
▁스테로이드
▁췌
▁고보
▁김남
▁나침
▁뒤셀
▁말갈
▁신당
▁아수
▁취입
▁퀴어
▁해충
▁행차
▁후두
샤오핑
ited
▁501
▁껍데기
▁노키아
▁보수파
▁스피릿
▁으라고
▁이튿날
▁평양성
▁하르트
ittle
▁1834
▁덩샤오핑
▁신비주의
▁이사벨라
▁콜로라도
▁하코다테
▁뒤셀도르프
▁트랜스포머
MI
▁힝
리시
미분
슈나
인자
▁간쑤
▁남만
▁사샤
▁시급
▁식생
▁알프
▁원당
▁응축
▁인어
▁조망
▁지프
▁판무
▁행주
▁화의
▁황룡
ield
▁Dav
▁Pre
▁고흥군
▁마인츠
▁밸런스
▁사용법
▁세포질
▁쌍계사
▁특산물
▁함안군
▁아오야마
▁에이브러햄
▁스트라스부르
▁아르메니아인
기름
냅스
이츠
▁TP
▁교목
▁덩치
▁소조
▁수려
▁쉬르
▁신보
▁아머
▁장화
▁저온
▁주박
▁터리
▁트립
▁계엄령
▁마쓰이
▁미하엘
▁바나흐
▁비키니
▁세르비
▁시냅스
▁웨이크
▁전산망
▁중견수
▁플레어
▁2023
▁위안스카이
du
고백
도어
바사
▁각하
▁강박
▁계모
▁기예
▁기제
▁대첩
▁백마
▁복건
▁소하
▁여종
▁웨딩
▁제석
▁카누
▁호분
오스트
트리스
▁보령시
▁집대성
▁교통수단
▁레이더스
▁신앙고백
▁인조반정
▁크리스털
▁파트너십
▁Dance
▁프로테스탄트
구동
와트
▁구드
▁냉장
▁단락
▁뒷날
▁랜스
▁명실
▁빌럼
▁사철
▁야산
▁원호
▁입방
▁장유
▁허무
▁호에
▁303
▁Pol
▁감사원
▁교차점
▁당분간
▁마산시
▁문인석
▁스턴스
▁완벽히
▁다이오드
▁사고방식
ME
▁씹
마침
무로
와르
진법
타일
▁공론
▁공위
▁나혜
▁노우
▁리야
▁방목
▁석굴
▁역간
▁영창
▁우여
▁정우
▁조중
▁체구
▁칼날
▁코토
▁탑비
▁합세
▁Tim
▁all
▁괴산군
▁남북한
▁니제르
▁명목상
▁보내오
▁부산물
▁빼어나
▁속임수
▁아폴론
▁옥타브
▁코나미
▁거듭제곱
▁구약성경
▁잘츠부르크
오스트레일리아
bs
▁툭
메라
문왕
ape
▁가석
▁고라
▁미구
▁백범
▁벌써
▁세드
▁송준
▁진왕
▁치부
▁카베
▁칸토
▁포경
▁해롭
▁'()
▁530
▁강우량
▁모음곡
▁미코토
▁이동식
▁테레비
▁스키타이
▁페니키아
CO
카쓰
톱스
▁내통
▁벤투
▁병들
▁봉선
▁불발
▁속기
▁오위
▁잡종
▁코덱
▁토후
▁퇴학
▁특보
▁편평
▁풀럼
▁해탈
다나오
▁999
▁Air
▁Und
▁리소스
▁상거래
▁소장품
▁아브루
▁아비뇽
▁지하수
▁카톨릭
▁케이시
▁홍성군
케라톱스
▁바티스타
▁젝
저기
촌면
포도
▁감형
▁관부
▁김좌
▁남코
▁납북
▁위세
▁충정
▁홍진
로니카
▁244
▁Hol
▁개정판
▁계획안
▁덕양구
▁동구권
▁로이스
▁보병대
▁볼거리
▁수녀원
▁에드거
▁에테르
▁조사단
▁쭉
권법
룬디
통감
페라
▁고레
▁대보
▁드와
▁삼매
▁세아
▁소현
▁어제
▁육사
▁음수
▁책자
▁컴포
▁키보
▁테너
▁폐암
간지주
아가라
▁540
▁Mer
▁net
▁경사면
▁그레그
▁나바라
▁모니카
▁상상력
▁성행위
▁스파크
▁툴루즈
▁프리덤
▁하남시
▁황금기
▁회의소
▁당간지주
▁블루투스
▁나이아가라
▁메달리스트
▁파이어폭스
▁항공우주국
공격
▁가내
▁경쾌
▁귀박
▁명승
▁백석
▁부령
▁산세
▁수모
▁전초
레슈티
▁321
▁글쓰기
▁눈동자
▁레슬러
▁악영향
▁원거리
▁유키오
▁찢어지
▁추진력
▁케이티
▁타악기
▁행진곡
보르기니
▁러더퍼드
▁리카르도
GE
수사
시장
정기
코더
햄프
▁가만
▁데크
▁도맡
▁동주
▁로카
▁마정
▁면화
▁병참
▁심취
▁유황
▁코비
▁티비
▁판교
▁평단
▁피파
▁하토
▁헬멧
▁401
▁국경선
▁김원봉
▁나침반
▁마일스
▁접두사
▁다이라노
▁레이아웃
▁람보르기니
비시
준호
▁MK
▁군역
▁다트
▁단풍
▁대연
▁명망
▁무아
▁반투
▁소공
▁윔블
▁재림
▁접견
▁최단
▁한상
노스케
▁뉴햄프
▁베로나
▁철도선
▁파이트
▁표준시
▁필살기
▁형이상학
▁Records
저리
징금
호텔
ATA
ari
▁기라
▁내과
▁명작
▁방직
▁베넷
▁생육
▁시세
▁예장
▁외양
▁응집
▁잡스
▁티그
헌대부
▁Fre
▁Now
▁SUV
▁느냐는
▁니코스
▁마쓰다
▁일어서
▁프레시
▁힐러리
▁Mark
▁우르바노
▁제네시스
▁Again
▁등지느러미
45
바트
하리
▁다로
▁분신
▁성역
▁양명
▁에지
▁우가
▁음각
▁최성
▁팀원
▁학식
▁행각
▁환각
ther
▁경사지
▁깨뜨리
▁마틸다
▁미워하
▁안재홍
▁앨리슨
▁에릭슨
▁에치젠
▁윔블던
▁홍천군
▁여기저기
▁전용도로
▁중앙유럽
비르
샤르
▁가출
▁간극
▁길가
▁꾸란
▁리허
▁문리
▁봉천
▁원초
▁일축
▁저상
▁전업
▁전영
▁중경
▁풍미
▁항법
▁횡포
그러지
▁KAI
▁Tri
▁Ver
▁그러다
▁긴꼬리
▁두만강
▁복숭아
▁아라이
▁유기물
▁자부심
▁지배층
▁차라리
▁스탠더드
▁트라우마
▁보건복지부
▁보니파시오
▁봅
곡절
너리
부패
주제
티콘
▁망설
▁완강
▁제논
▁조짐
▁최윤
게임넷
ning
ring
▁265
▁Cal
▁가나안
▁교두보
▁내슈빌
▁때마침
▁사브르
▁소유주
▁중랑장
▁1392
▁1787
▁1833
▁온게임넷
DR
▁긁
▁텀
정신
학사
▁노섬
▁당산
▁더그
▁더미
▁두아
▁레브
▁묶음
▁산후
▁식단
▁입석
▁천성
atur
▁리저브
▁마사키
▁바바라
▁방어력
▁부산시
▁엘리사
▁의용군
▁조그맣
▁캐롤라
▁Real
▁부정부패
▁아세트산
▁파이터스
▁해발고도
▁프로페셔널
▁꽉
시니
질기
춘추
▁Si
▁고영
▁고환
▁굴뚝
▁기복
▁낙관
▁마름
▁마샬
▁만행
▁볼링
▁성안
▁수탈
▁스탬
▁시한
▁악용
▁외직
▁채식
▁코요
▁쿠프
▁포이
▁퓨처
▁힉스
ated
▁가와치
▁극소수
▁원작자
▁윤선도
▁의사당
other
▁아이오딘
▁우여곡절
▁차이콥스키
관총
보쿠
자브
inc
mas
▁게양
▁김미
▁데라
▁레우
▁맞먹
▁뮤즈
▁소국
▁순응
▁식읍
▁신격
▁실링
▁정혜
▁코메
▁풍선
▁건드리
▁걸어가
▁나혜석
▁로미오
▁시행령
▁신뢰도
▁인디아
▁좌참찬
▁직선제
▁프로스
▁허정숙
▁후시미
▁1597
▁1816
▁Home
▁대통령령
▁인도주의
계선
▁OG
▁궁핍
▁기년
▁법대
▁수박
▁스탄
▁아보
▁양태
▁유괴
▁이신
▁초급
▁캐머
▁푸앵
▁헌팅
▁회동
▁RFC
▁가석방
▁레이테
▁콜레라
니히
any
▁개천
▁고귀
▁근소
▁동리
▁말엽
▁문의
▁박은
▁변태
▁브렛
▁사선
▁선화
▁스매
▁신수
▁압류
▁유토
▁재실
▁저희
▁진중
▁캐넌
▁팬텀
▁풍력
▁풍화
▁혼수
컴퓨터
ling
▁가평군
▁마라도
▁말라위
▁빚어지
▁재방송
▁청도군
▁그리피스
zy
저트
전설
카시
클로
▁KF
▁김철
▁난해
▁달빛
▁데프
▁도총
▁미그
▁반년
▁봉토
▁빙판
▁성심
▁소신
▁심복
▁오퍼
▁이충
▁전근
▁좌완
▁총명
▁칸나
▁포커
▁245
▁TNA
▁Vis
▁공양왕
▁공학부
▁끈질기
▁데이먼
▁동역학
▁미에현
▁비행선
▁산기슭
▁아라키
▁참으로
▁초나라
▁1818
▁국민정부
▁라치오주
▁페널티킥을
▁눔
네일
원사
카쿠
플라
▁관입
▁난부
▁노자
▁눈금
▁문호
▁물량
▁본대
▁사돈
▁수세
▁시녀
▁식수
▁앤트
▁외피
▁용모
▁우암
▁월등
▁이두
▁지기
▁진통
▁진평
▁철새
▁킬리
▁토막
▁포용
▁680
▁기록물
▁남해안
▁모듈러
▁유미르
▁정약용
▁펀자브
▁항등식
축구협회
▁아카이브
▁플리머스
▁히타이트
▁대한축구협회
gy
르템
콜라
▁고상
▁다인
▁도트
▁루벤
▁모씨
▁민스
▁버금
▁심도
▁인내
▁진무
▁판화
▁풍산
▁후량
▁대국민
▁대동강
▁뒤덮이
▁모기업
▁에이트
▁청량리
▁홍백가
▁사실주의
▁파피루스
르템베르크
▁뻘
▁솅
가이
네즈
미나
터우
토끼
▁PV
▁Sn
▁군내
▁돌이
▁람다
▁묵살
▁병부
▁샤먼
▁선적
▁악몽
▁찔리
▁츠나
▁치솟
▁타개
▁Soc
▁겉모습
▁대마도
▁루도비
▁세바스
▁수신기
▁슬럼프
▁여학교
▁체로키
▁히데키
▁셉
카즈
히라
vil
▁KM
▁객사
▁고명
▁교배
▁국권
▁그분
▁닛코
▁디랙
▁레위
▁명료
▁박병
▁변명
▁순화
▁신춘
▁양털
▁엄중
▁요사
▁우방
▁원류
▁잉어
루시아
▁311
▁Ber
▁imp
▁관공서
▁마땅히
▁박중양
▁수뇌부
▁시간표
▁유배지
▁정선군
▁주제곡
▁킵차크
▁합격자
▁헬레나
▁버펄로스
▁브리즈번
▁스탠다드
▁평화통일
전서
ook
▁;"
▁간택
▁독학
▁바루
▁발문
▁소제
▁속명
▁수체
▁심경
▁약어
▁우레
▁유표
▁장도
▁장주
▁태위
▁호두
ival
▁262
▁263
▁강경파
▁골프장
▁바르톨
▁불명확
▁상록수
▁수산화
▁옹정제
▁이따금
▁이주해
▁정신병
▁존스턴
▁칠곡군
▁학술원
▁찜
디트
lin
▁IL
▁대례
▁반짝
▁방진
▁부쿠
▁산초
▁소명
▁영공
▁제복
▁참관
▁폐업
▁효행
ican
▁313
▁대사성
▁동남아
▁머레이
▁아르키
▁야전군
▁적혈구
▁페라라
▁그라나다
▁사쿠라이
▁오스카르
▁파르티잔
▁Never
▁부쿠레슈티
lt
무진
쓰키
애자
터슨
▁강기
▁군의
▁금발
▁농심
▁동선
▁메탄
▁모면
▁수혜
▁정광
▁천억
▁최국
▁크론
▁통학
▁폴드
▁필즈
▁학관
▁회남
▁Fri
▁UTC
▁고려인
▁부안군
▁사라이
▁억지로
▁의령군
▁진보신
▁희극인
▁2600
▁Jour
▁나카모리
▁마사유키
▁프레이저
▁아르키메데스
양동
전동
추얼
▁AW
▁OH
▁다정
▁양각
▁위급
▁음계
▁피코
▁휴고
트리아
▁Sil
▁org
▁단양군
▁드레이
▁리버스
▁리처즈
▁문무왕
▁브라만
▁사이고
▁성장률
▁수성구
▁스노우
▁이제동
▁자주포
▁잠자리
▁조선족
▁진행하
▁카다피
▁마르코스
▁사라예보
▁시라쿠사
도전
리처
이시
환국
▁BJ
▁Ig
▁가용
▁나요
▁노령
▁대홍
▁박문
▁번가
▁빙상
▁사피
▁오행
▁인왕
▁일요
▁자파
▁제청
▁진자
▁현자
▁휴지
본주의
티스트
▁386
▁달서구
▁모닝구
▁바하마
▁시바타
▁안도라
▁야마노
▁컨셉트
▁통행료
▁휘어지
변사
이동
OCA
▁Wr
▁리쿠
▁무굴
▁백련
▁사누
▁속출
▁승무
▁유량
▁조아
▁즉석
▁티탄
▁판다
커버리
▁금지법
▁에디터
▁우메다
▁이자겸
▁쿠알라
▁탈리아
▁플레인
▁카를로만
▁쿠알라룸푸르
ek
▁뽕
레네
슬론
츠만
ino
▁Sa
▁gr
▁기뢰
▁김화
▁눈썹
▁맹자
▁범퍼
▁볼레
▁분구
▁비버
▁셜록
▁시치
▁신토
▁엘람
▁역적
▁온몸
▁칩셋
▁통수
▁티타
▁풀밭
▁헤스
애슬론
평대군
▁기관사
▁레지옹
▁마운드
▁무자비
▁미란다
▁반혁명
▁셰필드
Force
▁City
▁Draw
▁랭커스터
▁스웨덴어
▁트라키아
▁20200
지드
▁UD
▁기내
▁다산
▁달라
▁미호
▁방파
▁배차
▁비각
▁사담
▁사문
▁소가
▁쇄신
▁수조
▁양왕
▁에토
▁워프
▁월계
▁임영
▁장동
▁장막
▁재킷
▁제패
▁초구
▁품류
▁황기
▁Pet
▁런타임
▁보살피
▁보일러
▁수집가
▁수페르
▁신조어
▁여고생
▁초이스
▁충성심
▁후지타
▁Moon
▁모리오카
▁헤르메스
간드
극장
케로
▁갈대
▁고루
▁과대
▁교각
▁납세
▁서유
▁성신
▁신식
▁양질
▁엽록
▁외우
▁원광
▁이권
▁정액
▁종반
▁중진
▁지라
▁태정
▁한영
▁호메
플러스
▁Die
▁mod
▁out
▁노이만
▁문학부
▁시마네
▁이동한
▁이스터
▁전봉준
▁1763
▁크로스오버
빠르
자카
fin
▁NO
▁니더
▁미달
▁비바
▁상전
▁속옷
▁스냅
▁역인
▁울라
▁저승
▁총탄
▁패닉
▁편대
▁구례군
▁구사론
▁더욱더
▁도저히
▁레이첼
▁바이런
▁베이시
▁산청군
▁의화단
▁최우선
▁1780
▁말라리아
▁앨프리드
▁초전도체
▁한국은행
▁한국전력
코이
ves
▁경국
▁딱정
▁랜더
▁망토
▁셰르
▁습작
▁시디
▁여담
▁외야
▁원어
▁유르
▁응모
▁징발
▁참되
▁허나
▁호부
세서리
클라베
▁333
▁980
▁Fun
▁MLS
▁대륙군
▁비활성
▁순환선
▁시작점
▁역무원
▁연수구
▁웨일즈
▁적갈색
ouble
▁1825
▁청소년기
▁콘클라베
▁하드코어
딩턴
뚜기
럽트
발디
출마
ely
err
▁누출
▁당면
▁도원
▁이극
▁전편
▁지네
▁항변
노비치
apan
▁동인지
▁매장량
▁사투리
▁성희롱
▁쇼펜하
▁시퀀스
▁아바스
▁아우렐
▁진안군
▁집합체
▁플레밍
▁1453
▁호메로스
▁Group
▁쇼펜하우어
yr
▁된
▁쩌
델라
레즈
베다
포화
하타
▁관립
▁능률
▁던스
▁레자
▁리니
▁미흡
▁병세
▁볼라
▁브록
▁옮겨
▁조강
▁철갑
▁한탄
▁회자
▁훈구
▁흥국
차일드
▁Swe
▁경덕왕
▁관측소
▁김홍집
▁노르딕
▁부룬디
▁아스타
▁클레르
▁퓨처스
▁해왕성
▁훈련장
▁1778
▁머리장식
▁Techn
▁홑
자료
중앙
▁간절
▁김신
▁도일
▁리디
▁매시
▁먹히
▁비구
▁산개
▁시럽
▁안국
▁우뚝
▁진산
▁케토
메이슨
▁Cre
▁강연회
▁고메스
▁산리쿠
▁수사관
▁아이누
▁역전승
▁조소앙
▁조슈아
▁무라야마
▁선덜랜드
▁연꽃무늬
▁카트리지
▁렴
▁Hz
▁고맙
▁곡사
▁금방
▁꺼지
▁남도
▁니어
▁단추
▁대월
▁빈혈
▁아슈
▁야나
▁역병
▁임오
▁조원
▁침실
▁한학
itch
▁.."
▁광산구
▁로버스
▁보호령
▁스티커
▁아리마
▁영양분
▁패미컴
▁포르쉐
▁1817
▁left
▁인터럽트
▁펩타이드
베쓰
사항
페어
펠트
ars
▁개역
▁고착
▁남강
▁마제
▁망라
▁백합
▁법치
▁부츠
▁석실
▁성군
▁성혼
▁수재
▁악행
▁워렌
▁육안
▁잉태
▁출몰
▁큰곰
▁푸코
▁하대
▁학무
바니아
reet
ress
work
▁나루토
▁도파민
▁미켈란
▁워터스
▁자연히
▁카트린
▁헤엄치
▁1828
▁딱정벌레
▁판타스틱
▁판의금부사
▁새천년민주당
치산
ope
▁BP
▁강정
▁강태
▁갯벌
▁검역
▁관인
▁구소
▁기로
▁난폭
▁누아
▁닐스
▁도내
▁만루
▁범종
▁변주
▁셔터
▁의전
▁질주
▁코즈
▁콥트
▁클랩
▁핀치
▁호종
도토스
▁노비타
▁레이철
▁백혈병
▁애니콜
▁영천시
▁요크셔
▁원피스
▁응원가
▁적시타
▁채플린
▁국제기구
▁아브루초
▁열린집합
▁카를루스
▁흐루쇼프
ts
각시
강도
게르
나잇
덕리
바위
털루
▁MI
▁ph
▁공범
▁근절
▁기득
▁대림
▁동궁
▁동그
▁뼈대
▁살포
▁승문
▁열혈
▁영가
▁오현
▁우로
▁원구
▁잔재
▁전등
▁종별
▁천진
스티스
자유당
▁광양시
▁따라오
▁레트로
▁마술사
▁미술사
▁잡아내
▁재경기
▁저소득
▁코르넬
▁휘그당
▁Team
▁나카가와
▁마사무네
▁코린토스
▁Album
▁민주자유당
▁아우구스티누스
▁뮬
가치
그너
슈트
일점
찰사
키리
폭력
▁다뉴
▁마장
▁보크
▁빈스
▁소우
▁임재
▁장공
▁재키
▁제회
▁찬미
▁폐비
베르데
▁관측자
▁기동성
▁도봉구
▁몽골어
▁무분별
▁무안타
▁빙그레
▁성장기
▁스크롤
▁일라이
▁조그마
▁크랭크
▁문하시중
▁에너지원
▁포항제철
▁HR
▁격노
▁고품
▁내연
▁리뉴
▁북주
▁사별
▁송수
▁시일
▁신나
▁양기
▁염전
▁용담
▁의열
▁종위
▁준용
▁진달
▁테루
▁표고
▁힘차
▁가처분
▁마사코
▁마젤란
▁사냥개
▁사이코
▁사진가
▁신경망
▁안세이
▁양성소
▁옥개석
▁외조부
▁이방인
▁제미니
▁카이두
▁코발트
▁Hist
▁매리너스
▁모더니즘
▁무한도전
▁브라이트
▁스타트업
▁Enter
무사
스름
장성
팔로
포츠
▁동질
▁반미
▁반시
▁불연
▁비신
▁아밀
▁알콜
▁이그
▁자영
▁정준
▁최동
▁카가
▁팰컨
▁황주
▁흑연
▁고쿠라
▁뒷부분
▁록펠러
▁미도리
▁부총재
▁선교회
▁아리안
▁앙카라
▁에디슨
▁장본인
▁장신구
프레이즈
▁1593
▁1788
▁분리주의
▁이브라힘
▁쉰
링스
ler
▁TE
▁기오
▁노크
▁로슈
▁루니
▁볼턴
▁손잡
▁신랑
▁안도
▁양광
▁연접
▁원경
▁주현
▁지안
▁콘도
▁타바
▁편도
▁플롯
▁힐튼
ific
▁960
▁금정구
▁리누스
▁사업비
▁삼별초
▁수호신
▁영광군
▁장덕수
▁재계약
▁조선어
▁진사시
▁캐피탈
▁퓰리처
▁비토리오
▁이집트인
▁한국일보
▁헝가리인
▁자유주의자
yp
롤라
충사
화사
▁광릉
▁굳건
▁면도
▁불운
▁소학
▁앙헬
▁약초
▁어귀
▁영내
▁예민
▁은닉
▁충선
▁한기
▁후주
군주제
연구소
▁POP
▁PSP
▁광무제
▁나오키
▁슬라이
▁신해철
▁클로즈
▁퍼킨스
▁포병대
▁Happ
▁로트링겐
▁무스타파
▁민다나오
▁크로노스
▁아일랜드어
▁앨라배마주
▁우크라이나인
▁콜라보레이션
록색
성장
지상
패닉
포동
ike
▁기꺼
▁더듬
▁도프
▁맥라
▁바카
▁반송
▁비웃
▁셀라
▁에라
▁열병
▁위화
▁인트
▁질타
▁창법
▁편광
▁혈전
▁SNK
▁갈라타
▁고용주
▁관리법
▁꽃가루
▁네모나
▁대표부
▁도로시
▁레오니
▁사육신
▁수에즈
▁시나이
▁코베인
▁1838
▁팔레르모
▁히로유키
▁히스패닉
▁First
▁솔트레이크
개토
걸스
렁크
첼로
켤레
ird
▁경당
▁구한
▁네버
▁도면
▁라메
▁모성
▁무정
▁순열
▁엄하
▁예기
▁원각
▁직역
▁콜트
리아노
▁229
▁860
▁ESP
▁나이토
▁스피너
▁유스티
▁카르타
▁파티마
▁헤이케
▁나가오카
▁모하마드
▁물병자리
▁헐리우드
▁미켈란젤로
▁수페르리가
▁Little
▁Summer
던지
소프
oom
▁KP
▁fe
▁경왕
▁교상
▁기절
▁낙점
▁남대
▁녹훈
▁뒤섞
▁수고
▁아달
▁원세
▁퇴거
▁티티
무스메
▁Dig
▁내려놓
▁동두천
▁리허설
▁매표소
▁법상종
▁실비아
▁음운론
▁지표면
▁텅스텐
▁SEED
▁구부러지
▁플랑크톤
▁모닝구무스메
ha
코니
하치
ris
▁경리
▁계비
▁고졸
▁기침
▁난바
▁노기
▁단언
▁대박
▁동강
▁듀이
▁마미
▁슈만
▁에비
▁연경
▁열녀
▁찰나
▁통가
▁하목
▁SAR
▁광개토
▁극락전
▁메소드
▁서천군
▁선인장
▁에미상
▁정여립
▁조건부
▁차베스
▁프리즘
▁피오나
ative
▁1797
▁드래건스
▁드레스덴
▁테네시주
▁히스파니아
▁안드로메다자리
▁구균
▁다드
▁도킹
▁로더
▁멀린
▁물음
▁박순
▁분가
▁알란
▁역경
▁역관
▁오동
▁최인
▁카구
▁캘빈
▁혜왕
▁회선
머니즘
삼각형
스탕스
▁323
▁공문서
▁구매자
▁기꺼이
▁남수단
▁라이징
▁미적분
▁오베르
▁워털루
▁표지판
▁프랑켄
▁Char
▁세종실록
▁스케이프
▁하나하나
▁레지스탕스
▁프리스타일
▁하이델베르크
▁쑥
메인
시드
지움
텍스
▁Ap
▁If
▁갈망
▁교민
▁말뚝
▁불우
▁산발
▁선량
▁신광
▁어근
▁어진
▁외장
▁용호
▁울창
▁이혜
▁인목
▁입궁
▁코먼
▁파시
▁페달
▁호구
▁황화
에이터
카이치
혁명당
ross
▁갑상선
▁말버러
▁브라이
▁수호이
▁이니셜
▁저항성
▁지멘스
▁캐머런
슈바이크
▁1636
▁Gold
▁다이애나
▁모리셔스
▁트레이시
▁인디애나주
▁페르세우스
ze
관광
소녀
켄지
ECT
▁MO
▁OL
▁구주
▁굴드
▁레몽
▁루앙
▁말레
▁물들
▁성나
▁스탭
▁애쉬
▁양해
▁원안
▁유임
▁일약
▁탐라
▁후륜
▁249
▁257
▁가쓰라
▁관박쥐
▁나아지
▁셰이크
▁스토크
▁이규완
▁재통일
▁토후국
▁다치바나
▁집적회로
▁트레일러
▁Stage
▁하이라이트
▁브라운슈바이크
yc
▁ㅇ
▁씽
리프
착륙
▁DT
▁내해
▁니노
▁대불
▁락스
▁복도
▁소품
▁신령
▁약재
▁우와
▁유종
▁인두
▁주걱
▁증보
▁큼직
▁하한
▁항등
▁효시
파고스
▁Tom
▁경호원
▁공작원
▁다뉴브
▁메디아
▁자본금
▁정상부
▁확장팩
▁이로쿼이
▁익스트림
▁카나리아
▁크리슈나
▁주간고속도로
디니
ius
▁Nt
▁ed
▁검교
▁금과
▁등식
▁명랑
▁바벨
▁봉신
▁붓다
▁비앙
▁성탄
▁안수
▁올가
▁용납
▁용두
▁인동
▁주종
▁커튼
▁파치
▁평시
▁풍성
▁프릴
▁흑해
▁Pla
▁RAM
▁공급원
▁근연종
▁너구리
▁들려주
▁마사토
▁베니토
▁상징물
▁섬네일
▁수십만
▁수자원
▁에일리
▁의정서
▁청취자
▁탐험대
▁트렁크
▁특파원
▁Plan
▁part
▁나뭇가지
▁보호관찰
▁야마나시
▁차가타이
▁테마파크
▁페르미온
▁디스커버리
▁왁
르담
워싸
get
umb
uro
▁광교
▁루미
▁만슈
▁무령
▁봉급
▁섭동
▁어마
▁연제
▁왕상
▁좡족
▁추수
▁편년
▁피델
▁협연
▁화단
바라기
▁570
▁AES
▁관중석
▁남동구
▁로리타
▁미술품
▁민스크
▁소작농
▁송준길
▁스코프
▁에워싸
▁연합체
▁위스키
▁진천군
▁페드루
▁피그미
▁하인츠
▁황무지
▁김나지움
▁노트르담
▁로테이션
▁블록체인
▁노스웨스트
르노
마에
천후
키치
▁MG
▁검단
▁공비
▁규소
▁남면
▁단부
▁레그
▁말투
▁배서
▁백스
▁심재
▁왼발
▁원외
▁일일
▁죄목
▁징용
▁처자
▁초명
▁코보
▁한우
▁황토
uman
▁810
▁MBN
▁May
▁der
▁도전자
▁보급품
▁서귀포
▁신간회
▁워크스
▁웹스터
▁은하수
▁중남부
▁편집국
▁2024
▁Conc
▁패러데이
▁미시시피주
▁예카테리나
WC
랜즈
▁Vo
▁고뇌
▁과소
▁국학
▁굴착
▁난소
▁다부
▁베인
▁보소
▁본받
▁신증
▁애용
▁연명
▁옹기
▁장마
▁절기
▁태실
▁특검
▁허적
▁환수
line
▁353
▁도플러
▁발트해
▁서울역
▁세기말
▁시프트
▁신대륙
▁아르민
▁우분투
▁재조합
▁저압부
▁초거성
▁코스닥
▁털어놓
▁화엄경
▁고전주의
▁네이티브
▁아유타야
▁Class
▁민코프스키
▁브리타니아
▁사우스캐롤라이나
▁ㅅ
의어
태영
▁Pi
▁곡성
▁당구
▁방아
▁방역
▁변위
▁서른
▁아계
▁어벤
▁유두
▁저런
▁정호
▁질감
▁최정
▁토치
▁266
▁273
▁306
▁관리인
▁금지령
▁릴리즈
▁시스터
▁진주성
▁총감독
▁펌웨어
▁히메지
▁More
▁poem
▁대학원생
▁삼성그룹
AV
to
현리
els
ero
▁급감
▁도인
▁두목
▁모유
▁사공
▁스틴
▁요일
▁은화
▁초각
▁학상
▁허셜
▁훌린
orth
▁경사각
▁경산시
▁공격자
▁김정희
▁르베그
▁크루스
▁파이리
▁홍건적
▁1777
▁1826
▁고생물학
▁니가타현
▁레이먼드
▁럽
빌라
사장
실히
▁더더
▁마노
▁법사
▁비누
▁삼보
▁선군
▁수론
▁순방
▁에센
▁여리
▁잔기
▁튀김
▁파베
▁판시
▁페소
▁함축
스카야
▁But
▁TCP
▁라벤나
▁부조리
▁스트립
▁유력자
▁캐리어
▁허스트
수염박쥐
▁Year
▁가와카미
▁마티아스
▁Gener
▁right
▁캐치프레이즈
덕사
디크
밍턴
▁군악
▁극하
▁금석
▁뇌터
▁메토
▁무량
▁빗물
▁암사
▁야유
▁엉뚱
▁오펜
▁장명
▁켤레
▁파타
▁한결
▁404
▁God
▁갈매기
▁군자금
▁레반트
▁미추홀
▁법무관
▁소득세
▁영주시
▁음악인
▁이승훈
▁조언자
▁주원장
▁카니발
▁페르마
▁에히메현
▁푸앵카레
▁찹
발리
티르
ACK
▁Km
▁nd
▁구심
▁그야
▁류성
▁번사
▁봉투
▁비소
▁삼도
▁에덴
▁월성
▁읍내
▁의탁
▁작별
▁절이
▁쾌적
▁파로
엽수림
▁긴장감
▁대마초
▁드레드
▁미노루
▁수출입
▁온건파
▁전람회
▁참석자
▁통일부
▁호남선
▁활화산
▁LGBT
▁포메이션
▁다이어그램
olution
▁밉
거북
라티
림리
소송
연사
쿠마
▁Fi
▁KL
▁so
▁네빌
▁도가
▁로직
▁미우
▁백남
▁북문
▁분분
▁서화
▁석장
▁세터
▁얽매
▁연원
▁요요
▁전가
▁진시
▁칙서
▁태즈
▁파비
▁퍼트
▁화나
토니오
▁Sky
▁다거나
▁대역폭
▁미크로
▁배심원
▁부평구
▁불어나
▁세르히
▁아가미
▁예천군
▁윤원형
▁자아내
▁제트기
▁춘추관
▁평신도
▁포츠담
▁회색빛
▁모리타니
▁옥스포드
▁해바라기
▁메릴랜드주
소네
찰청
첼리
▁Tu
▁고봉
▁광천
▁노정
▁뉴펀
▁니우
▁대권
▁란다
▁레코
▁로건
▁룬드
▁막론
▁법의
▁사복
▁사색
▁상비
▁석좌
▁수납
▁슈마
▁액자
▁어택
▁이춘
▁재조
▁토종
▁피보
▁헥사
▁630
▁Aut
▁겨울잠
▁그로브
▁기무라
▁런던탑
▁마오리
▁문하생
▁슈바벤
▁아메리
▁외손자
▁중앙동
▁하리마
▁TOUR
▁대검찰청
▁문화재청
▁시마네현
▁테크니컬
▁뉴펀들랜드
▁위스콘신주
덕면
셀라
엔드
음악
케르
후미
▁건반
▁라키
▁몬티
▁박창
▁본위
▁수르
▁아고
▁알자
▁양준
▁치매
▁타슈
▁화구
▁회령
▁SHO
▁var
▁대구경
▁실력자
▁애국심
▁은밀히
▁인도양
▁재래식
▁조이스
▁천태종
▁카메오
▁포커스
▁하이데
니아누스
▁다카사키
▁드래곤볼
▁카탈로그
▁탄화수소
▁하마마쓰
▁Girls
▁function
에나
▁Rh
▁가트
▁경장
▁군공
▁드가
▁미제
▁분묘
▁비티
▁스치
▁이음
▁이찬
▁정촌
▁지간
▁질책
▁천공
▁천인
▁체급
▁초순
▁퀴리
▁페놀
▁환공
▁회송
크루스
▁GHz
▁NGO
▁STX
▁app
▁감독관
▁계산기
▁곰팡이
▁리디아
▁리포터
▁마커스
▁몰려오
▁미국식
▁발원문
▁불신임
▁셀틱스
▁야코프
▁외로움
▁운전사
▁콜롬비
▁1680
▁1784
▁흘러나오
PG
gg
▁댕
티늄
▁강선
▁교점
▁납득
▁늘이
▁대산
▁데비
▁랠리
▁벌집
▁부아
▁상산
▁세인
▁인포
▁임수
▁장연
▁접히
▁코아
▁탈영
▁하네
▁해마
네이터
▁620
▁Bra
▁OFC
▁고릴라
▁관습법
▁광주군
▁내버리
▁노후화
▁로베스
▁마가렛
▁부지사
▁사령탑
▁양양군
▁이시이
▁인덱스
▁전시실
▁주자학
▁카이퍼
▁휩쓸리
▁마라도나
▁스티븐슨
▁찾아다니
▁윗수염박쥐
▁Direct
▁로베스피에르
GS
가드
글러
멜로
무역
배상
야식
장이
즈다
ful
ren
▁Da
▁OM
▁가람
▁간언
▁리토
▁보타
▁비관
▁설날
▁성토
▁안료
▁양안
▁어순
▁어획
▁염원
▁이응
▁재적
▁조진
▁하퍼
▁항암
디비시
프레임
▁236
▁군포시
▁맥라렌
▁벨리즈
▁비슈누
▁영양소
▁으려면
▁정류소
▁정복자
▁테이트
▁현대식
▁ISIL
▁main
▁영산회상
▁적십자사
▁진핵생물
▁에레디비시
▁카운트다운
▁미크로네시아
▁갠
가나
데나
새우
언군
테로
era
▁ㅏ야
▁날조
▁랄리
▁방산
▁산국
▁수안
▁아센
▁약관
▁오족
▁우고
▁인화
▁창극
▁태고
▁파블
▁폰티
▁폴더
▁힘러
메이커
▁880
▁마니아
▁마테오
▁맘루크
▁수필가
▁충선왕
▁크로마
▁키케로
▁잉글리시
▁자연환경
▁Beaut
▁Japan
▁갈라파고스
놀즈
험자
led
▁건기
▁고함
▁곡률
▁등각
▁똑똑
▁레토
▁링고
▁병설
▁샤크
▁성황
▁스스
▁심해
▁장석
▁정릉
▁지마
▁췌장
▁팩터
▁평영
▁풍조
▁호드
▁후아
롭스크
▁243
▁710
▁Vir
▁개혁가
▁구덩이
▁누리꾼
▁시집가
▁아카시
▁장흥군
▁재건축
▁정치범
▁중심가
▁그야말로
▁남중국해
▁로테르담
▁아키타현
▁에노모토
▁표현주의
▁솥
깨우
왕도
지방
체계
타자
▁Sl
▁거든
▁구정
▁독보
▁로쿠
▁마담
▁멸치
▁야역
▁양모
▁옥산
▁웨버
▁융성
▁음파
▁적국
▁절지
▁제과
▁진부
▁한시
▁향유
▁화평
슬레이
▁Fla
▁res
▁경영난
▁고속철
▁군부인
▁나이츠
▁넥서스
▁닉네임
▁마르키
▁방어전
▁보험료
▁봉화군
▁양천구
▁영남대
▁의료진
▁페트라
▁혼마루
▁히카리
umber
▁Long
▁국민은행
▁비엔날레
▁이복동생
▁전통문화
▁크리스트
▁놉
득이
▁CI
▁가례
▁궁도
▁류지
▁묵인
▁백상
▁쇄도
▁자드
▁좌초
▁파평
▁푸이
▁하청
▁행상
▁허벅
▁헬름
▁호도
▁Bus
▁pop
▁과학부
▁구릉지
▁스트링
▁요아힘
▁이코마
▁조로아
▁주성분
▁지치부
▁파이퍼
▁Dark
▁아일랜드인
▁프리메이슨
▁ㄷ
나크
소수
와프
판윤
포항
AND
▁경서
▁곧장
▁내년
▁노고
▁뒤쫓
▁악사
▁엑소
▁여중
▁완봉
▁천호
▁측실
▁터전
▁티토
▁화정
▁화천
텐디크
ents
▁415
▁국세청
▁루시아
▁몽구스
▁버금가
▁부풀리
▁은언군
▁의왕시
▁이데아
▁재빠르
▁주동자
▁콜로니
▁튀링겐
▁플렉스
▁현충원
itude
▁Comm
▁언더우드
▁포클랜드
▁그로텐디크
▁한성부판윤
CE
강원
사의
팬지
ISC
▁갑과
▁검진
▁경공
▁공진
▁기모
▁대식
▁대작
▁메티
▁문선
▁민트
▁번안
▁순진
▁스필
▁아톰
▁와우
▁와의
▁우당
▁웅변
▁인부
▁저빌
▁정평
less
▁470
▁UFO
▁ᄇ시다
▁공로상
▁능력자
▁달려오
▁뒷다리
▁리베라
▁매개체
▁메네스
▁무한히
▁블랙번
▁세미놀
▁시발점
▁연면적
▁제천시
▁존재감
▁클랜시
▁파울리
▁홍길동
iness
▁날아다니
▁마요르카
▁아킬레스
▁오피스텔
▁요시미쓰
▁페데리코
▁Stand
▁White
▁유스티니아누스
녜스
임자
ald
▁귀부
▁도의
▁사타
▁상군
▁시무
▁아탈
▁오치
▁육신
▁은유
▁작은
▁죄책
▁차고
▁청백
▁쿼리
▁토가
▁파수
▁후카
▁히우
ople
▁247
▁MGM
▁공손찬
▁광우병
▁기차역
▁마이트
▁메디컬
▁벨라스
▁브라흐
▁시그널
▁안무가
▁오랜만
▁오세아
▁인천시
▁일일이
▁제럴드
▁제레미
▁침팬지
▁토바고
▁헨리크
▁소방본부
▁액세서리
▁지주회사
▁크리스티아
대상
댑터
▁공교
▁교조
▁기력
▁남이
▁농수
▁면세
▁무모
▁배교
▁백양
▁북두
▁사경
▁성비
▁소다
▁안현
▁연변
▁우현
▁위인
▁육영
▁전생
▁주례
▁치바
▁피레
▁확증
메랄드
▁304
▁345
▁남학생
▁다비트
▁대방광
▁병리학
▁불포화
▁서라벌
▁세이프
▁아루바
▁아메바
▁어댑터
▁일반직
▁자작곡
▁체세포
▁출입국
▁풀타임
투아네트
▁에메랄드
랴쿠
쓰카
종합
토닌
▁HM
▁광기
▁도니
▁밧줄
▁비드
▁스컬
▁언양
▁에콜
▁용골
▁이괄
▁일절
▁작풍
▁재거
▁직할
▁청대
▁체액
▁최창
▁출하
▁통설
▁폭설
▁회개
▁후송
▁후크
▁GUI
▁PHP
▁bes
▁mac
▁갈루아
▁광진구
▁그래피
▁랜더스
▁목적물
▁반대자
▁발표회
▁실업자
▁아쉬움
▁암살자
▁유스케
▁일깨우
▁조리법
▁충무공
▁칼리프
▁플라잉
▁헤럴드
▁헬무트
▁1660
▁1811
▁1822
▁Roll
▁나카소네
▁레이놀즈
AX
르겐
비지
사토
엑스
통신
asy
▁Na
▁__
▁px
▁감귤
▁게스
▁디리
▁룰라
▁병약
▁산대
▁샌타
▁야고
▁언행
▁에머
▁연개
▁연의
▁완승
▁입건
▁정창
▁초승
▁코피
▁토큰
▁페름
▁피격
▁피임
▁한나
▁화법
레인지
▁데미지
▁로고스
▁로지스
▁리아스
▁망설이
▁분류법
▁사나다
▁사업장
▁수산업
▁알레포
▁은신처
▁임진강
▁패터슨
▁헤이시
▁후원회
▁8859
▁Miss
▁Sweet
▁헤로도토스
mb
디브
렌트
문제
조프
▁공허
▁김안
▁들뜨
▁머드
▁민수
▁벌목
▁북청
▁불선
▁상술
▁오션
▁용융
▁의기
▁자화
▁주당
▁채드
▁최익
▁태원
▁특질
▁폭락
▁표수
▁형평
▁Ret
▁공백기
▁끓는점
▁다득점
▁링네임
▁시흥군
▁식물학
▁얽매이
▁유의미
▁이스타
▁이와타
▁지리지
▁파열음
▁하루히
▁1620
▁Fall
▁볼리바르
▁스테파니
▁어셈블리
▁오리건주
▁체임벌린
▁칼뱅주의
▁폄
메데
이행
차오
▁강론
▁나눗
▁만회
▁말살
▁문맹
▁본과
▁북키
▁시들
▁잡이
▁적립
▁카게
▁협찬
▁NXT
▁군부대
▁근위대
▁문화상
▁법률가
▁스트롱
▁신의주
▁오다큐
▁위그노
▁이동해
▁자연법
▁침례교
▁클로버
lease
▁마쓰야마
▁석불입상
▁캔자스주
▁핀란드어
▁박스오피스
▁앙투아네트
▁싼
더미
모트
산역
잭션
▁각막
▁거동
▁고케
▁기입
▁나그
▁내선
▁다임
▁미마
▁방광
▁봉행
▁선국
▁성금
▁스펠
▁약소
▁엘베
▁오모
▁접영
▁정윤
▁조프
▁채찍
▁충만
▁카제
▁큐어
디스트
순양함
▁UFC
▁거북이
▁기동대
▁나눗셈
▁달리기
▁마린스
▁메콩강
▁명부전
▁변경백
▁성주군
▁수리남
▁수세기
▁승문원
▁신고식
▁전교조
▁정무직
▁태안군
▁하행선
▁로버트슨
▁봅슬레이
▁스프린트
▁트랜잭션
▁헨드릭스
▁크리에이터
▁하드리아누스
▁American
▁Christmas
운사
erv
▁Ca
▁괴담
▁남초
▁다도
▁라싱
▁부석
▁분말
▁생강
▁선착
▁소독
▁스톱
▁역수
▁완구
▁이징
▁정각
▁중정
▁천둥
▁팬터
▁핑거
▁화분
달레나
oman
▁나이키
▁분석가
▁스쿼드
▁신중도
▁영월군
▁우주국
▁저마다
▁중남미
▁지하실
▁참나무
▁카펠라
▁특별상
▁피아트
▁하우젠
▁char
▁꼭두각시
▁미쓰나리
▁컴포넌트
▁Elect
▁Young
sy
노미
떡잎
무이
민관
세나
▁검소
▁근신
▁능히
▁다네
▁단총
▁대미
▁무디
▁물산
▁방재
▁배추
▁비노
▁스팟
▁아커
▁양복
▁였었
▁왕사
▁진종
▁초간
▁카포
▁페미
베스트
▁Cry
▁def
▁경시청
▁더더욱
▁데이비
▁돌핀스
▁삼척시
▁울진군
▁주둔군
▁중립국
▁최고봉
▁카디프
▁히라이
▁1610
▁사다리꼴
▁소행성대
▁실증주의
▁에르난데스
▁와일드카드
아스
키오
태후
mun
▁"/
▁골대
▁교세
▁녹지
▁대잠
▁도살
▁로아
▁매혹
▁명신
▁배스
▁비파
▁씨방
▁자회
▁점막
▁조업
▁종성
▁체신
▁파지
▁피복
테우스
▁고케닌
▁길들이
▁김종서
▁데이지
▁몰디브
▁반역자
▁부적합
▁산호초
▁수행자
▁아스트
▁에어컨
▁초음속
▁험프리
축구연맹
▁1770
▁가니메데
▁갑오개혁
▁스탠포드
▁오카모토
▁중심주의
▁타카하시
KO
타다
BSD
▁고신
▁군체
▁귀도
▁네리
▁뉴딜
▁루주
▁무반
▁소성
▁신채
▁유향
▁일인
▁질식
▁첨탑
▁총경
▁크롤
▁테디
▁246
▁Mat
▁드래그
▁레드불
▁레이지
▁무용수
▁바우어
▁부코바
▁비변사
▁수송선
▁시리얼
▁쑤저우
▁아그리
▁우거지
▁페루자
▁네바다주
▁롯데월드
▁슬라이더
▁지그문트
▁해군기지
▁Under
fr
▁젼
산염
und
▁고다
▁난시
▁목초
▁봄바
▁부로
▁사재
▁사포
▁서프
▁실학
▁아롱
▁야사
▁양화
▁웨스
▁중임
▁차인
▁태초
▁통째
▁트렉
▁호성
▁흥업
레흐트
▁간사장
▁괘불탱
▁그라드
▁나오미
▁법주사
▁불가침
▁생방송
▁소유스
▁유원지
▁이사금
▁인스트
▁인텔리
▁제이컵
▁청송군
▁출루율
▁티라노
▁평가전
▁프로메
▁한국사
▁한림원
▁1519
▁루도비코
▁스나이퍼
▁아뢰야식
▁헤이세이
뎅이
뮤다
박해
▁AH
▁검술
▁국조
▁덴분
▁뜻밖
▁방벽
▁배위
▁사오
▁상봉
▁수어
▁원담
▁원환
▁원회
▁위서
▁자퇴
▁정묘
▁정민
▁폐포
▁효령
예비치
▁930
▁PCI
▁굶주리
▁동해안
▁드리블
▁마자르
▁미라클
▁배급사
▁버뮤다
▁빈번히
▁생활비
▁카시오
▁클랩튼
▁후보자
안토니오
▁3500
▁기요모리
▁달마티아
▁해운대구
▁프라이부르크
88
▁캬
에라
좌상
청사
텔라
▁계양
▁공역
▁답습
▁대함
▁수보
▁순무
▁아덴
▁의관
▁조간
▁징시
▁토번
▁하양
▁혈당
▁히든
▁다이요
▁대구시
▁동호회
▁문화부
▁물방울
▁성악가
▁엘레나
▁임실군
▁플리트
▁1604
▁1827
▁맞아들이
▁주니어스
▁파우스트
▁GeForce
ka
▁럿
군트
다주
디시
렐리
예트
트만
▁LM
▁Us
▁광의
▁기선
▁낙성
▁낙후
▁단가
▁링스
▁사저
▁서얼
▁수각
▁신심
▁케미
▁탱고
▁특무
▁플린
aven
ible
illa
▁286
▁Mem
▁모회사
▁설계도
▁수사학
▁오마이
▁이방원
▁졸업식
▁중시조
▁청년기
▁초승달
▁코카인
▁홀랜드
▁Spec
▁보르네오
▁부르군트
▁에이로쿠
▁Party
▁파이프라인
▁일러스트레이터
델리
워프
진흥
콜리
▁-"
▁가늠
▁고배
▁두건
▁말초
▁방망
▁별시
▁불어
▁샤론
▁석고
▁시추
▁쌍극
▁아헨
▁액면
▁역원
▁외지
▁워리
▁장호
▁청혼
▁초의
▁컬럼
▁탈북
▁태인
▁평점
▁허준
바르드
▁252
▁403
▁뉴타운
▁동음이
▁로비치
▁백혈구
▁역사관
▁인디펜
▁전리품
▁쥐라기
▁집행부
▁최신형
▁축전기
▁타이타
▁통감부
▁파비아
▁판문점
▁협력자
▁니코니코
▁안드레스
▁요구사항
▁요시노리
▁조지아주
ki
li
▁숍
▁츨
라크
막이
몬테
하드
▁낭트
▁내뿜
▁데바
▁도바
▁로토
▁사대
▁옷감
▁저리
▁증조
▁탄창
▁티크
▁포물
▁표식
▁하숙
▁후국
▁겐로쿠
▁교육법
▁노히트
▁디오니
▁레시피
▁미즈키
▁발루아
▁으니까
▁이나바
▁중합체
▁진달래
▁통찰력
▁호시노
▁통정대부
▁위트레흐트
▁플루오린화
▁깍
▁넛
규어
닝스
록스
소나
nal
▁CB
▁GA
▁QS
▁VL
▁군장
▁귀의
▁남침
▁몸소
▁배격
▁베츠
▁부토
▁세심
▁소추
▁슈리
▁음표
▁쾌거
▁킹덤
▁화형
마리아
▁GSL
▁NCA
▁라이플
▁목욕탕
▁비스듬
▁소비량
▁앞다리
▁우익수
▁유난히
▁지상군
▁횡성군
▁1829
▁고스란히
▁아데노신
▁아흐마드
▁오리온스
▁호그와트
▁황소자리
▁안티오코스
▁이슬람교도
bc
고원
더넷
밴드
raw
▁JO
▁UH
▁거류
▁검문
▁결산
▁램지
▁론도
▁부차
▁불기
▁손톱
▁시화
▁암묵
▁연전
▁우량
▁유코
▁장판
▁접점
▁제강
▁집요
▁키츠
▁피쉬
▁히젠
부쿠로
▁302
▁307
▁dis
▁도함수
▁발원지
▁분당선
▁세라믹
▁스콜라
▁연수원
▁영락제
▁우에다
▁이더넷
▁전도사
▁킹스턴
떡잎식물
▁1823
▁IDOL
▁디아블로
▁석불좌상
▁아드리안
▁올림푸스
▁핼리팩스
▁호나우두
▁Season
ml
▁궈
▁넌
▁숯
처치
▁난류
▁동중
▁면책
▁벤트
▁병상
▁사루
▁소호
▁손견
▁신혼
▁암행
▁양봉
▁저속
▁전패
▁제호
▁조음
▁진척
▁초토
▁친위
▁팔달
▁휴스
스턴트
즈베리
▁LNG
▁Sur
▁Val
▁김성근
▁마르텔
▁반자동
▁볼프스
▁사마르
▁성전환
▁에리카
▁지급시
▁최고점
▁커맨드
▁판무관
▁확장자
▁동부승지
▁미야모토
▁스타워즈
▁스테이크
▁알카에다
▁Story
▁National
by
경사
삼국
아치
펄스
헤르
▁RB
▁그렉
▁금수
▁뇌전
▁레진
▁록과
▁목과
▁목련
▁백기
▁부팅
▁샤흐
▁석성
▁수크
▁실기
▁알랭
▁완치
▁원죄
▁홍영
사무소
▁242
▁251
▁285
▁288
▁DDR
▁고기압
▁공격기
▁권위자
▁더라면
▁메이스
▁색다르
▁시끄럽
▁아르투
▁이홍장
▁장성군
▁장애인
▁Kiss
▁Child
▁조로아스터
▁카트라이더
31
드기
십리
ENT
▁CW
▁Er
▁격납
▁과당
▁데빌
▁도다
▁도드
▁삼색
▁애들
▁일찌
▁최현
▁충적
▁토와
▁하도
▁현세
다이스
사회당
▁PSV
▁도호부
▁베르겐
▁유사시
▁제곱근
▁커플링
▁탈북자
▁테일즈
▁플라워
▁1598
▁리처드슨
▁베트남어
▁상무위원
▁약사여래
▁자동차도
▁스테인리스
▁카보베르데
ms
구로
도치
사위
스컵
아과
코지
bit
▁JK
▁광구
▁굽타
▁기거
▁나돌
▁반출
▁벤조
▁스캐
▁염분
▁영안
▁왜관
▁우생
▁임직
▁참회
▁칭화
▁피폐
▁해답
▁행의
프로스
▁EXO
▁마르타
▁법체계
▁부주석
▁사타케
▁아세안
▁여행기
▁키르케
▁후이족
▁1018
▁1750
▁STER
▁chem
▁마르코프
▁세바스티안
▁챔피언스컵
▁테오도시우스
UE
롭스
분리
gon
▁꿀벌
▁네발
▁대운
▁도수
▁레빈
▁매점
▁매클
▁바브
▁백군
▁빈부
▁삼지
▁상량
▁샤토
▁석주
▁슬립
▁썸머
▁안지
▁예지
▁우발
▁전우
▁조도
▁지롱
▁청담
▁택배
▁통달
▁팽팽
▁홍가
레이저
▁274
▁615
▁910
▁Cap
▁버팔로
▁삽입곡
▁수개월
▁신천지
▁아미르
▁엄정화
▁오스본
▁유리창
▁장수군
▁퀘벡주
르크세스
예술종합
▁1603
▁BEST
▁구이저우
▁오고타이
▁케이블카
▁Staff
▁에뮬레이터
예술종합학교
▁크세르크세스
▁한국예술종합학교
VF
▁룹
겨지
신경
쓰구
의지
장치
틸라
lus
▁각류
▁교로
▁당해
▁두들
▁목공
▁반부
▁산골
▁수운
▁시프
▁식초
▁실외
▁아깝
▁양립
▁양키
▁자구
▁잡식
▁주범
▁주영
▁크렘
▁편이
▁해미
arth
▁TTC
▁URL
▁메이든
▁복사본
▁분당구
▁새마을
▁서태후
▁에라스
▁옥천군
▁이고르
▁이기붕
▁작용기
▁총인구
▁카시니
▁커스텀
▁투성이
▁트러스
▁흥덕구
▁Club
▁Last
▁요시모토
▁인스턴트
▁전륜구동
DC
▁뤽
셔츠
자매
▁감바
▁개점
▁갤리
▁고흐
▁기화
▁닫힌
▁당근
▁리전
▁비결
▁상형
▁숙적
▁영인
▁예니
▁용강
▁유허
▁이왕
▁재촉
▁적위
▁주리
▁출원
▁캘리
▁휴즈
의사당
▁580
▁남다르
▁맞춤법
▁베르토
▁소대장
▁수없이
▁장방형
▁전용선
▁주택가
▁청양군
▁틀림없
▁프리마
▁도치기현
▁바이올리
▁아이치현
▁Inter
▁대하드라마
▁와카야마현
▁볼프스부르크
▁바이올리니스트
96
▁젱
쿠프
▁NR
▁건재
▁공언
▁롬멜
▁빅스
▁솅겐
▁아웅
▁악수
▁어법
▁오군
▁자포
▁통풍
▁한가
▁후금
빌리시
gram
▁map
▁가창력
▁남북국
▁디제이
▁따라잡
▁리간드
▁버추얼
▁상층부
▁알타이
▁윤봉길
▁지휘부
▁1689
▁간선도로
▁뉴저지주
▁중성자별
▁트빌리시
▁팟캐스트
버시
사람
시기
호쿠
▁도굴
▁들키
▁러쉬
▁사행
▁상좌
▁쇼어
▁식욕
▁악성
▁앙겔
▁요로
▁이티
▁정안
▁조스
▁충효
▁치프
▁하바
▁협공
나이더
▁670
▁Lee
▁가만히
▁고이치
▁당진시
▁대축일
▁동래구
▁로그인
▁세자빈
▁신이치
▁아와지
▁알자스
▁야마나
▁에번스
▁오세훈
▁요시마
▁윌리암
▁적당히
▁전화기
▁mark
▁바르바로
▁아칸소주
▁요한네스
▁전기철도
▁크라쿠프
▁해방전선
▁style
oon
▁Oh
▁강직
▁경련
▁교습
▁군축
▁단형
▁라만
▁레슨
▁반디
▁비가
▁생동
▁스푸
▁왜건
▁우바
▁윤정
▁조양
▁카산
ends
soft
▁JYP
▁Son
▁per
▁고위급
▁니시노
▁로이터
▁리에주
▁솔리드
▁알렉상
▁어쩌면
▁자연석
▁종교인
▁Boys
▁뒤떨어지
▁마르티노
▁분청사기
▁오리엔트
▁하세가와
▁하토야마
▁독립선언서
▁이바라키현
▁헵
나디
대륙
루치
츠카
▁값싸
▁강주
▁고슴
▁금연
▁남사
▁남우
▁남정
▁노장
▁농상
▁대모
▁듀란
▁랠프
▁레테
▁막사
▁반승
▁밤낮
▁베텔
▁비축
▁순결
▁스팸
▁신월
▁암각
▁영변
▁요란
▁자강
▁장문
▁차녀
▁참지
▁호퍼
▁Som
▁곡성군
▁다방면
▁당상관
▁문학관
▁미라이
▁순서수
▁아사노
▁오타쿠
▁지대공
▁1774
▁절지동물
UB
▁륭
성사
이라
▁jp
▁고심
▁김중
▁놀리
▁루블
▁루체
▁막심
▁예절
▁외주
▁유마
▁의창
▁전능
▁차륜
▁촘촘
▁캘러
▁펜타
▁희종
벌랜드
ould
▁고조부
▁공고히
▁구치소
▁나무과
▁대유행
▁로터리
▁불국사
▁슈테판
▁스테드
▁음모론
▁이용해
▁제자리
▁처인구
▁컨버터
▁1624
▁Want
▁고슴도치
▁나카야마
▁무하마드
▁바이너리
▁아이러니
▁올리비아
▁이와쿠라
▁코스모스
▁국회의사당
▁뽐
▁잿
레트
▁HC
▁가운
▁김무
▁내심
▁대남
▁메흐
▁변절
▁실형
▁이다
▁이쪽
▁잎겨
▁전립
▁진경
▁천동
▁포카
▁할레
▁행장
▁후불
▁휘장
절제사
▁295
▁Que
▁대공포
▁디나르
▁라이어
▁무한대
▁발사기
▁빨치산
▁살인범
▁스플릿
▁신속히
▁이름나
▁정의역
▁최충헌
▁허벅지
▁헌병대
▁1617
▁Core
▁미네르바
▁북키프로스
▁잎겨드랑이
85
▁퀀
총사
ola
oul
▁게티
▁답사
▁대당
▁레시
▁리세
▁멸하
▁물망
▁밀폐
▁바주
▁박노
▁보부
▁비나
▁스나
▁시해
▁외측
▁종시
▁종인
▁중턱
▁천일
▁폐선
▁피폭
▁화차
▁후부
▁312
▁그라스
▁드리스
▁물러가
▁불출마
▁상당구
▁수영복
▁시에나
▁신고전
▁신정부
▁완전열
▁쥐아과
▁코뿔소
▁표시기
▁헤르츠
▁Come
▁Park
▁Take
▁큰곰자리
▁color
▁가이드라인
▁코네티컷주
GL
로빈
바니
숨에
▁건대
▁경미
▁남중
▁무례
▁변함
▁불공
▁서무
▁석관
▁성무
▁심청
▁엑셀
▁예스
▁예테
▁오무
▁잠자
▁좌안
▁철조
▁파마
iter
▁갤러거
▁고품질
▁구한말
▁단숨에
▁도시락
▁수용액
▁에가와
▁오른팔
▁형태학
▁로체스터
▁베네딕트
▁예테보리
▁주체사상
▁남해고속도로
윳값
SQL
▁각칙
▁결절
▁관보
▁기강
▁대호
▁린스
▁분전
▁설파
▁소의
▁시전
▁십육
▁얼티
▁여산
▁왜소
▁작정
▁정위
▁체전
▁최명
▁친부
▁트릴
▁펀딩
▁품위
▁풍년
▁풍물
리스크
망원경
▁324
▁346
▁ITV
▁USD
▁und
▁고윳값
▁달라붙
▁베르가
▁부유층
▁세이지
▁스키장
▁에나쓰
▁인버터
▁축구장
▁클레멘
▁트란실
▁피터슨
erson
▁1650
▁오디세이
▁외무대신
▁처녀자리
▁David
▁라디에이터
▁이케부쿠로
▁자유민주연합
▁트란실바니아
LD
ex
이다
참모
흥사
▁가재
▁강신
▁괴인
▁권상
▁나경
▁대격
▁또래
▁박규
▁변칙
▁상냥
▁선례
▁앰프
▁어거
▁우다
▁육로
▁음정
▁치욕
▁황진
iful
rown
ters
▁308
▁강북구
▁구부리
▁구속력
▁리어스
▁매뉴얼
▁소문자
▁소화기
▁운전석
▁유위법
▁재규어
▁죄책감
▁지부장
▁후쿠치
▁1758
▁Work
▁브레스트
▁There
대리
울림
혀가
ada
con
▁BA
▁간과
▁결방
▁나로
▁남연
▁녹차
▁도농
▁도브
▁딱히
▁레기
▁리암
▁미정
▁바움
▁방편
▁비엘
▁비화
▁사납
▁샬롯
▁서도
▁속속
▁수달
▁아귀
▁야훼
▁예부
▁완고
▁유경
▁자임
▁접두
▁천민
▁청해
▁쿠즈
▁킬링
▁혈장
▁혜종
▁호군
로니키
obal
▁241
▁254
▁970
▁add
▁ㅓㅆ었
▁게시물
▁경전차
▁고려조
▁고령군
▁고아원
▁기술원
▁노이드
▁동급생
▁무색계
▁바이크
▁받침대
▁신청서
▁아오키
▁알버트
▁오라클
▁오로치
▁오야마
▁월간지
▁이코스
▁추징금
▁훈련기
ATION
▁PROD
▁long
▁마이너스
▁입헌군주제
▁테살로니키
▁페르디난도
긴스
슨스
아라
예스
ube
▁IG
▁건원
▁꼬이
▁대내
▁대추
▁몸값
▁번진
▁보닌
▁분동
▁산전
▁샐리
▁스베
▁신태
▁실러
▁오송
▁익룡
▁장손
▁조속
▁체형
▁컬트
▁코브
▁과천시
▁서부터
▁엿보이
▁유행어
▁제니스
▁새마을호
▁스페인인
▁안달루시아
▁하우스도르프
노바
돋움
러시
렉틱
임관
토키
호테
fer
▁GC
▁Hi
▁gl
▁고니
▁넬리
▁망고
▁멸시
▁물색
▁미남
▁베시
▁산로
▁선망
▁소백
▁신야
▁신오
▁역내
▁유류
▁유속
▁이피
▁전상
▁정방
▁정영
▁청국
▁청서
▁청어
▁훌라
수수색
스코샤
▁Cat
▁관리원
▁루치아
▁매카시
▁미니애
▁비너스
▁샌더스
▁아바타
▁에미넴
▁오두막
▁잡혀가
▁지요다
▁최강전
▁클로스
▁행렬식
오세티야
▁나미비아
▁심플렉틱
▁아시아나
▁압수수색
▁인문주의
▁크레이지
▁프레스코
▁Radio
▁미니애폴리스
문예
이익
▁강착
▁교행
▁국을
▁글라
▁넉넉
▁다빈
▁단바
▁미비
▁배선
▁불쌍
▁서수
▁섭외
▁성관
▁스도
▁식성
▁실세
▁아길
▁여제
▁유탄
▁임씨
▁제제
▁조재
▁팬더
▁하진
▁해달
▁호앙
야구장
▁248
▁299
▁525
▁건축학
▁리버티
▁망가지
▁문경시
▁보건부
▁아토스
▁장보고
▁체르노
▁코브라
▁피난처
▁햄버거
earch
▁1080
▁1618
▁2025
▁라인란트
▁슈퍼마켓
▁유한회사
▁차례차례
▁필라멘트
▁Trans
▁노바스코샤
▁오세아니아
▁동지중추부사
▁아시아나항공
▁레트로바이러스
▁숱
물관
벨리
lad
▁김책
▁랍비
▁만민
▁미개
▁사암
▁산모
▁수형
▁시지
▁알선
▁오븐
▁토속
▁화족
iano
▁258
▁272
▁318
▁490
▁경전선
▁녹는점
▁딜레마
▁레베카
▁마그나
▁말린스
▁뭄바이
▁미네랄
▁상대편
▁승강기
▁한양대
▁한자음
▁회사법
▁휴식기
▁니시무라
▁신춘문예
▁중선거구
▁남오세티야
라다
미도
반응
소총
웰스
체육
▁계측
▁고경
▁군포
▁금은
▁날로
▁단맛
▁동고
▁사외
▁셀틱
▁소상
▁연표
▁예매
▁외성
▁최연
▁퇴원
▁플립
▁행세
▁허수
▁협소
▁회심
리아나
클레어
▁269
▁MiG
▁Sal
▁기흥구
▁도로망
▁로페즈
▁목적어
▁몬태나
▁물리량
▁발돋움
▁방화벽
▁산토스
▁에어백
▁제러미
▁조에쓰
▁주고쿠
▁파도바
▁퍼블리
▁하지메
▁화천군
▁1781
▁Mach
▁리얼리즘
▁요시마사
▁샌안토니오
▁알렉상드르
▁우주망원경
▁트리케라톱스
▁뜸
▁솝
킹엄
ERT
▁*/
▁Hy
▁TW
▁개구
▁개창
▁교유
▁군법
▁금욕
▁김이
▁당인
▁뒷산
▁라세
▁라싸
▁망각
▁맞은
▁무치
▁문희
▁버들
▁번트
▁선의
▁성소
▁셜리
▁셰어
▁영묘
▁예브
▁와타
▁정간
▁제소
▁증득
▁초라
▁캄차
▁탐진
▁혈증
▁혹시
평장사
izza
▁276
▁293
▁CSS
▁VfL
▁가로채
▁고위직
▁구리시
▁김연아
▁리라는
▁바스티
▁부총장
▁사누키
▁생명력
▁서고트
▁아카드
▁와이즈
▁이세민
▁저격수
▁지배력
▁직제학
▁체사레
▁총연장
▁타오르
▁헨더슨
▁화산재
▁서베를린
▁우즈베크
▁폴란드어
▁보수주의자
▁스프링필드
▁프라이버시
46
덕동
요스
을리
mus
rib
▁OO
▁UM
▁감격
▁강산
▁경동
▁군신
▁귀결
▁노모
▁니티
▁마쿠
▁바가
▁부검
▁붐비
▁석패
▁순경
▁오너
▁이롭
▁일소
▁잠식
▁재치
▁코타
▁파테
▁팍스
▁폴스
▁형량
▁회절
▁히가
드리치
▁279
▁990
▁Ext
▁가드너
▁감비아
▁내용물
▁볼츠만
▁부득이
▁사라왁
▁사유지
▁상행선
▁생산품
▁서강대
▁아래층
▁이치카
▁자유시
▁채권법
▁철광석
▁파슨스
▁회의실
ember
▁1785
▁1786
▁Band
▁슈베르트
▁트러스트
▁오카야마현
▁옻
공연
레르
100
▁==
▁FP
▁Kh
▁각급
▁격변
▁관등
▁권속
▁권신
▁동단
▁무속
▁반스
▁법명
▁병용
▁본연
▁비보
▁서성
▁성터
▁소질
▁쇠락
▁시파
▁에브
▁연비
▁위너
▁위정
▁조커
▁중핵
▁타츠
▁탁자
▁태산
▁팔츠
▁폭정
▁헤밍
ache
▁TNT
▁뒤섞이
▁모퉁이
▁밑바닥
▁부산항
▁식별자
▁신호기
▁알바로
▁옮겨가
▁유제품
▁장학생
▁콘트라
▁함평군
▁흡혈귀
▁1506
▁temp
▁will
▁마쓰마에
▁수아레스
▁순회공연
▁왼손잡이
▁히로히토
▁애들레이드
▁PRODUC
▁루이지애나주
레로
시리
실린
후보
sch
▁공증
▁관작
▁노런
▁병무
▁봉지
▁산산
▁손발
▁시책
▁요는
▁일전
▁젊음
▁조군
▁타가
▁토륨
▁퐁텐
▁학산
▁호자
▁홀름
▁홀트
▁회도
▁히에
가사키
스토이
▁581
▁갈고리
▁나세르
▁둘러보
▁법화경
▁변주곡
▁사야카
▁승하차
▁이상재
▁자가용
▁쟁탈전
▁컴팩트
▁폭발력
▁히다카
press
▁NCAA
▁브레이커
ga
그란
벡스
조각
▁BN
▁LE
▁난항
▁다낭
▁딜러
▁런닝
▁매상
▁매키
▁목수
▁몸담
▁백선
▁백호
▁산천
▁석영
▁슐츠
▁유후
▁일회
▁입소
▁전연
▁정이
▁펄프
▁황우
▁후나
▁희석
사이저
아비브
폴리오
▁Del
▁건조물
▁문제삼
▁미유키
▁사부로
▁수출품
▁스쿼시
▁신채호
▁요시키
▁재처리
▁치타스
▁톰프슨
▁투수진
▁한라산
▁해파리
▁1413
▁1590
▁1614
▁독립신문
▁드와이트
▁아퀴나스
▁야마우치
▁페르소나
▁형제자매
▁Instit
35
▁묀
교구
다코
전지
팔트
포이
▁가다
▁가칭
▁간이
▁강병
▁경정
▁고음
▁공납
▁국책
▁내막
▁단파
▁동초
▁면밀
▁봉고
▁비숍
▁양곤
▁양말
▁예문
▁오소
▁용성
▁위층
▁장형
▁죄악
▁중증
▁치키
▁터프
▁학예
▁해골
▁행크
▁혼례
▁화질
▁히키
뮤지스
▁730
▁GPL
▁OBS
▁ㄹ수록
▁공급자
▁네우스
▁상공업
▁시구르
▁알레한
▁영상물
▁총면적
▁편집인
▁막내아들
▁불가사의
▁암행어사
▁텔아비브
▁하치노헤
▁나인뮤지스
48
yo
▁튕
감치
유정
ets
ift
▁대야
▁된장
▁명과
▁몽테
▁문왕
▁문익
▁방주
▁변인
▁브룬
▁아멘
▁용구
▁위례
▁위수
▁유조
▁자우
▁장계
▁주보
▁촉탁
▁최병
▁출옥
▁크립
▁타결
▁탈린
▁혈중
▁황국
ider
ious
▁351
▁421
▁Kid
▁경찰대
▁나탈리
▁돌출부
▁동북아
▁맞은편
▁엥겔스
▁작업장
▁저고리
▁충실하
▁캔버라
▁테라스
▁필리포
cript
▁1609
▁News
▁시구르드
▁저스티스
▁코카서스
▁트리오스
▁플로렌스
▁신시사이저
▁포트폴리오
SS
pl
게티
내기
딩거
를리
사드
제도
uss
▁강림
▁루디
▁모지
▁믈라
▁백서
▁섬진
▁아악
▁앗딘
▁예르
▁외인
▁일문
▁자꾸
▁장어
▁찬란
▁타령
▁판과
▁행실
안데르
쿠츠크
▁335
▁JAP
▁KNN
▁간쑤성
▁경의선
▁누에바
▁다무라
▁득표자
▁메구미
▁보은군
▁사계절
▁성삼문
▁세계사
▁수출국
▁실내악
▁이사국
▁제라드
▁칭하이
▁행정학
▁NADP
▁다이어트
▁도미니크
▁베이루트
▁사르트르
▁에마누엘레
▁이르쿠츠크
HA
VB
▁땡
양성
청년
▁HN
▁경조
▁관복
▁기문
▁기염
▁깃들
▁니야
▁로베
▁마호
▁맞히
▁발성
▁보필
▁비견
▁소바
▁신일
▁아네
▁어구
▁어차
▁역세
▁인덕
▁정법
▁조피
▁지의
▁징조
▁참파
▁채광
▁천궁
▁첨사
▁코만
▁탈주
▁필러
▁한식
▁흑점
프스키
ruct
ving
▁870
▁BGM
▁cle
▁경비원
▁근현대
▁김장생
▁뒤집히
▁막대기
▁선전관
▁여행객
▁이그나
▁종목별
▁주유소
▁출산율
▁흥천사
▁스키피오
▁시나가와
▁애너하임
▁인류학자
▁중등학교
▁파이낸셜
▁Songs
FF
LO
▁챕
소닉
▁TT
▁강계
▁남안
▁단막
▁두근
▁드골
▁무임
▁미연
▁베릴
▁변국
▁사에
▁서호
▁신랄
▁심성
▁야영
▁양민
▁양승
▁오더
▁원론
▁진저
▁첨지
▁초속
▁카푸
▁코언
▁핍박
▁향사
▁황인
▁회이
▁후렴
대표제
▁Fly
▁GTX
▁Mad
▁Max
▁공화제
▁노하우
▁다라니
▁메시아
▁묘지명
▁사무처
▁삼총사
▁아즈텍
▁위르겐
▁유프라
▁카르텔
▁코시모
▁퀘이사
▁크누트
▁탐지기
▁피오르
▁text
▁손해배상
▁슈나이더
▁Count
▁동음이의어
▁수동변속기
▁유프라테스
ti
▁푀
사건
어마
에프
여름
열왕
▁건수
▁군제
▁김근
▁노퍽
▁논어
▁다미
▁대천
▁디미
▁명정
▁목차
▁무연
▁소꿉
▁송사
▁연약
▁오야
▁음대
▁장재
▁적기
▁정씨
▁초성
▁투리
▁협시
▁호안
▁환멸
레이라
소수점
플라이
▁405
▁HBO
▁경쟁사
▁고유종
▁괴로움
▁교수진
▁기계식
▁부녀자
▁순례자
▁아람어
▁아이다
▁출신자
▁칵테일
▁크리크
▁파이팅
▁회의장
▁히데오
▁Feel
▁cent
▁두루마리
▁머라이어
▁부분집합
▁자격정지
▁서울특별시장
▁롄
▁헹
뭉치
용수
충제
프먼
INE
oot
uch
▁;-
▁BE
▁XL
▁개울
▁구개
▁극본
▁돌림
▁마코
▁문동
▁박선
▁보나
▁볶음
▁봉양
▁서포
▁신교
▁아전
▁알스
▁여느
▁연남
▁영릉
▁영생
▁유어
▁장내
▁쟁의
▁출고
▁타히
▁헤매
▁환대
▁히카
▁maj
▁동화사
▁드웨이
▁리아노
▁부수찬
▁아스투
▁임산부
▁지배인
▁카르멘
다코타주
▁over
▁군사령관
▁따라다니
▁현대그룹
▁아스투리아스
▁넋
▁셍
같이
애플
▁골반
▁극진
▁데브
▁르망
▁미공
▁부성
▁사투
▁수일
▁실례
▁아체
▁야즈
▁어색
▁올슨
▁외르
▁임자
▁정가
▁직간
▁통곡
▁항고
▁허균
▁형세
▁홍조
▁화포
베르투
▁Lin
▁Mot
▁Say
▁대성공
▁대장균
▁디저트
▁살라딘
▁아담스
▁일개미
▁제철소
▁주모자
▁최익현
▁크로우
▁프로비
▁헤일리
▁형태소
▁히로키
▁0000
▁1718
▁Hard
▁소프트볼
▁슬라브족
▁아스팔트
▁쳐들어가
▁크라이슬러
순환
참배
▁거버
▁공청
▁굴지
▁남평
▁랩퍼
▁매국
▁본원
▁부곡
▁뻗치
▁뽐내
▁소래
▁송곳
▁수피
▁수해
▁에딘
▁예후
▁운트
▁일로
▁임천
▁적개
▁전야
▁제전
▁쥬얼
▁징벌
▁처소
▁체가
▁초유
▁최면
▁판자
▁피침
르트헤
▁TBN
▁공대공
▁다빈치
▁미쓰이
▁번식기
▁브렌트
▁사마소
▁사마시
▁슈퍼맨
▁오랑캐
▁옹호자
▁좌익수
▁파이크
▁풀어내
▁함재기
▁Mind
▁비행대대
▁신사참배
▁오이라트
▁티베트족
▁아방가르드
▁페르디난드
나귀
숙왕
irc
▁구포
▁군영
▁김관
▁너클
▁로터
▁상왕
▁성진
▁스켈
▁안사
▁에러
▁유순
▁응징
▁인양
▁자경
▁자자
▁재연
▁존자
▁창가
드로스
▁","
▁Mil
▁Thr
▁가마터
▁김좌진
▁사용량
▁스크리
▁에드먼
▁영업소
▁오티스
▁조직법
▁줄리안
▁챈들러
▁충숙왕
▁태양풍
▁페넌트
▁허가서
지느러미
▁공동묘지
▁기독교도
▁마사요시
▁신해혁명
▁에밀리아
▁인피니티
▁자유로이
▁지명타자
가족
교사
네사
보트
사슬
센테
은하
III
IME
▁go
▁가택
▁고법
▁공여
▁딜리
▁랑고
▁래피
▁료마
▁루마
▁서핑
▁셋쓰
▁안영
▁알류
▁원부
▁자야
▁점근
▁주서
▁최루
▁최태
▁쿠도
▁쿠타
▁키티
▁타타
▁팬택
▁풀러
▁하로
▁험준
▁현주
▁혈류
▁홍종
박물관
ular
▁707
▁SSG
▁각본상
▁급성장
▁다이시
▁다카오
▁대륙성
▁로스엔
▁만토바
▁봉은사
▁부교리
▁북극성
▁사업단
▁스폰지
▁애국가
▁애국자
▁제닝스
안데르탈
bject
▁경국대전
▁백조자리
▁아우크스
▁통근열차
▁프레데릭
▁하이패스
▁IDOLM
▁네안데르탈
▁랑고바르드
▁팬터그래프
▁로스엔젤레스
▁아우크스부르크
▁듬
▁숏
▁슝
▁져
벤토
집행
▁공저
▁국원
▁낙마
▁남위
▁닐슨
▁매그
▁모독
▁물어
▁반다
▁반목
▁백수
▁삼청
▁상복
▁생합
▁석비
▁성좌
▁예송
▁울버
▁일월
▁적설
▁종중
▁직급
▁집산
▁칠리
▁카슨
▁포시
▁프랫
▁한발
▁항속
▁화보
▁흉년
상가상
스티니
▁Dec
▁대용량
▁데이즈
▁동해선
▁마르스
▁세자르
▁순창군
▁신분증
▁아라시
▁우편물
▁의열단
▁행선지
렌부르크
▁1050
▁글리세롤
▁베네벤토
▁선덕여왕
▁설상가상
▁일찌감치
▁자유자재
▁테오도르
▁퓰리처상
▁지중추부사
▁파라다이스
▁클라우디우스
OX
▁딛
동국
110
ury
▁낭인
▁린지
▁맹주
▁무종
▁비음
▁심벌
▁우구
▁우키
▁직영
▁철인
▁추돌
▁쿠엔
▁퇴폐
▁포그
▁필치
▁노래방
▁다이스
▁도이치
▁매도인
▁보관소
▁새크라
▁실학자
▁유방암
▁정규직
▁조만식
▁철자법
젠테이션
▁1644
▁끌어당기
▁밀어붙이
▁제곱미터
▁코르시카
▁JAPAN
▁베스트팔렌
▁새크라멘토
▁랫
리얼
뱅이
하탄
▁MF
▁ll
▁골문
▁광운
▁권제
▁난동
▁노로
▁리의
▁만만
▁반찬
▁삭과
▁소연
▁숭상
▁스지
▁신통
▁악셀
▁오파
▁우계
▁운남
▁장량
▁정한
▁촌의
▁트롬
▁푸리
▁MBA
▁NFL
▁Reg
▁고니시
▁나치스
▁니시오
▁다카기
▁매립지
▁사리탑
▁이산해
▁작곡자
▁지휘권
▁캄차카
▁태양신
▁현대사
지상주의
타르코스
▁1605
▁돗토리현
▁마법소녀
▁윈체스터
▁임상시험
▁체르노빌
▁코먼웰스
▁부동소수점
▁워크래프트
go
조림
카인
▁IQ
▁거침
▁니조
▁동도
▁박형
▁베링
▁본교
▁사동
▁선녀
▁소거
▁야곱
▁엔도
▁육수
▁이본
▁임치
▁제롬
▁참혹
▁측선
▁튕기
▁합주
네이도
다코타
시아스
프레드
ense
▁317
▁가등기
▁금천구
▁덕수궁
▁마키노
▁모리타
▁무령왕
▁부교수
▁샤프트
▁세계인
▁에비스
▁엔리코
▁이시영
▁진출권
▁쫓아가
▁푸리에
▁하이트
▁호치민
▁훈련원
▁Only
▁cont
▁메인보드
▁토네이도
▁Break
▁올림피아드
▁티베리우스
공단
인간
▁가경
▁걸림
▁다그
▁단죄
▁디모
▁라멘
▁몽키
▁문민
▁문산
▁문전
▁바츠
▁분홍
▁시현
▁아족
▁어빙
▁영접
▁위암
▁일격
▁장가
▁장윤
▁전계
▁천보
▁천식
▁초프
▁힐데
베이라
아지에
▁261
▁Hel
▁Key
▁WOR
▁경공업
▁경마장
▁다카다
▁루브르
▁무인기
▁산화제
▁쌍극자
▁왈라비
▁웨이드
▁이바르
▁전문점
▁코스모
▁타카시
▁피카르
▁현대인
▁활기차
anger
▁1648
▁세르히오
▁연합뉴스
▁바르바로사
▁바르톨로메
▁월스트리트
▁꼰
▁쌈
▁좇
▁탠
시안
웨인
콜로
PER
put
▁BD
▁Cy
▁mi
▁감면
▁권기
▁나물
▁나하
▁노랫
▁다당
▁르비
▁분견
▁분관
▁불빛
▁붕당
▁사만
▁송치
▁심기
▁에크
▁영당
▁영통
▁의안
▁일국
▁조난
▁청학
▁칼데
▁패튼
▁혼성
▁환도
▁황혼
▁326
▁780
▁Bet
▁CGV
▁WWF
▁rem
▁구세주
▁다르마
▁대화재
▁돌이키
▁마도카
▁만하임
▁바운드
▁베릴륨
▁스토아
▁응답자
▁중력장
▁판매자
▁폭풍우
▁When
▁글로리아
▁다이나믹
▁톱니바퀴
▁피에몬테
▁후쿠야마
▁뉴멕시코주
▁라부아지에
▁패트리어트
▁Street
▁Microsoft
▁꿩
내면
달라
바루
바바
지도
121
ily
une
▁Bi
▁NA
▁고액
▁곤잘
▁뉴먼
▁면회
▁미도
▁버릇
▁섬인
▁시효
▁신평
▁재검
▁치치
▁친자
▁켄지
▁폐색
▁해식
▁혜공
▁호황
▁황교
▁휴학
메이터
지원군
▁기계어
▁깊숙이
▁노팅엄
▁못지않
▁부시장
▁사파리
▁상속자
▁서포트
▁심상정
▁암트랙
▁영덕군
▁원자재
▁윌리스
▁제조법
▁중원소
▁지방선
▁창업주
▁틀어지
▁1637
▁가져다주
▁봄바디어
▁유가증권
▁하타모토
▁인민지원군
▁키르케고르
▁통일민주당
78
ba
▁곤경
▁그제
▁노련
▁떠들
▁랑선
▁마부
▁매지
▁보른
▁시몽
▁아두
▁앤티
▁여공
▁용례
▁웬디
▁장한
▁재수
▁적진
▁전출
▁정력
▁조디
▁종수
▁충원
▁콜먼
▁템스
▁트윗
▁현손
모비치
아오르
주머니
▁328
▁log
▁one
▁가맹국
▁간간히
▁그림책
▁노량진
▁라운지
▁사우드
▁살인죄
▁생활사
▁앨릭스
▁연방제
▁이마트
▁적어지
▁파킨슨
▁폐막식
▁피날레
▁햄스터
자치단체
▁오르내리
▁카타리나
▁테레지아
르트헤이트
▁오클라호마주
▁아파르트헤이트
궐기
▁감실
▁갑사
▁검지
▁과열
▁내비
▁덩이
▁메클
▁목관
▁무심
▁민란
▁밀직
▁복리
▁불륜
▁사량
▁소천
▁알트
▁역부
▁염오
▁임피
▁조쉬
▁쿨라
▁튜더
▁틸라
▁홍차
edia
▁375
▁니콜로
▁단단히
▁덮개돌
▁돌려받
▁마이티
▁바누아
▁블라인
▁생활상
▁서정시
▁소리치
▁소방정
▁제물포
▁집무실
▁창경궁
▁총궐기
▁코멘트
▁키치너
▁편미분
▁하시바
ather
onder
▁1760
▁Perf
▁대프랑스
▁비야레알
▁슈뢰딩거
▁안토니우
▁major
▁라디오헤드
▁클라우디오
▁메클렌부르크
▁자유민주주의
SA
my
oy
▁흄
배기
불화
심판
어붙
치현
턴트
▁남제
▁농약
▁동광
▁디노
▁딕슨
▁리도
▁무이
▁박민
▁샤워
▁석판
▁식인
▁쏠리
▁어용
▁오웰
▁윤기
▁재계
▁정답
▁종손
▁카티
▁튀코
▁하북
▁호노
▁호저
▁힘겹
▁DNS
▁Two
▁기념탑
▁베티스
▁쇼헤이
▁순전히
▁테베스
▁Face
▁Here
▁사라고사
▁셀룰로스
▁에스메랄
▁초등학교
▁타타르족
알데하이드
▁PRODUCE
▁Beautiful
▁햐
귀족
양요
중심
ula
▁KA
▁감미
▁네로
▁뒤바
▁리놀
▁밴더
▁선악
▁성리
▁송가
▁수액
▁스오
▁심양
▁압구
▁오테
▁원폭
▁을과
▁전분
▁정략
▁중편
▁증시
▁처사
▁초소
▁태동
▁태반
▁헤즈
▁혜화
▁홈스
▁히고
군다나
글로빈
▁284
▁475
▁TOK
▁jpg
▁was
▁건축사
▁걸림돌
▁게리온
▁과수원
▁궁내부
▁김택용
▁당나귀
▁보르자
▁사과문
▁산책로
▁양산박
▁얼티밋
▁엎드리
▁엘레오
▁카라스
▁카자크
▁후원금
▁도야마현
▁동물학자
▁만리장성
남북
뮤직
비트
헨글
▁FE
▁게으
▁계위
▁권능
▁내국
▁대계
▁도처
▁동역
▁미끼
▁북스
▁분고
▁불그
▁서현
▁어와
▁여명
▁열흘
▁오영
▁왕도
▁외딴
▁위저
▁자칫
▁점액
▁창호
▁초지
▁쿠파
▁타미
▁타역
▁토호
▁협성
▁힐드
나파소
코스터
▁259
▁760
▁840
▁KOF
▁김덕령
▁로마네
▁묀헨글
▁부르키
▁상승세
▁선댄스
▁시황제
▁신경전
▁애플렉
▁역전사
▁울리히
▁현상금
▁히카루
라트바흐
▁1492
▁Java
▁경제성장
▁더군다나
▁베르베르
▁아시아인
▁예브게니
▁롤러코스터
▁애니메이터
▁부르키나파소
▁묀헨글라트바흐
▁티라노사우루스
▁늄
▁큘
날리
신론
음계
잔디
▁Ev
▁KV
▁경악
▁근년
▁근동
▁눈여
▁단신
▁더디
▁덕성
▁동제
▁배쪽
▁번스
▁선관
▁성욕
▁쇄국
▁스핑
▁신서
▁악취
▁어질
▁에요
▁여분
▁우장
▁윤동
▁전의
▁지스
▁추크
▁침탈
▁폐번
▁학내
▁한명
▁홉스
▁277
▁EFL
▁Got
▁네이선
▁노리오
▁도리아
▁드레퓌
▁마리안
▁명문가
▁무수히
▁묵시록
▁발명품
▁번호판
▁보험금
▁불기소
▁불순물
▁안식일
▁유인원
▁이심률
▁인증서
▁인형극
▁중간자
▁증기선
▁천연두
▁특산품
▁페메니
▁표준궤
▁피터스
▁1759
▁메가데스
▁수소폭탄
▁신증동국
▁어마어마
▁에픽하이
▁컨설턴트
▁폐번치현
▁프로스트
▁덕흥대원군
▁신증동국여지승람
▁브리티시컬럼비아주
43
▁념
결사
배추
전위
크롬
ael
als
▁고현
▁귀가
▁꽃피
▁나흘
▁낙서
▁난초
▁노환
▁눌리
▁당직
▁디프
▁라베
▁레츠
▁리미
▁리엄
▁미덕
▁밍크
▁야크
▁위관
▁윤성
▁입점
▁점자
▁좌도
▁초저
▁칠드
▁파조
▁파키
▁펠라
▁평강
▁황희
▁휴직
노이드
부인과
alth
▁268
▁fis
▁기관포
▁냉장고
▁더블유
▁사자상
▁생식기
▁십진법
▁아키코
▁여단장
▁연구가
▁우스터
▁인쇄물
▁인제군
▁전국구
▁접두어
▁프리즈
▁플라멩
숭록대부
▁FIBA
▁Fore
▁Some
▁비밀결사
▁사단법인
▁서바이버
국영
방위
소자
제트
표범
ini
▁Ju
▁명군
▁별거
▁산부
▁산역
▁상궁
▁서대
▁양인
▁연역
▁오순
▁외조
▁응오
▁입항
▁접선
▁죽산
▁지노
▁챔프
▁청약
▁총열
▁폐수
▁포춘
▁한랭
▁향약
▁흑룡
돌리드
인트호
▁331
▁485
▁개혁파
▁다케오
▁다코타
▁라일리
▁리오넬
▁마찰음
▁쇼토쿠
▁스카웃
▁얼어붙
▁오모리
▁유도체
▁최고령
▁티셔츠
▁SLBM
▁고해상도
▁에인트호
▁에일리언
▁장로교회
▁바야돌리드
▁Concert
기성
치슨
▁cl
▁격식
▁계발
▁금세
▁꼭지
▁두문
▁디언
▁레딩
▁로커
▁리피
▁링거
▁반자
▁법리
▁보덕
▁보시
▁부강
▁비올
▁소고
▁수포
▁술부
▁숱하
▁악재
▁알츠
▁연단
▁연두
▁장산
▁조윤
▁폭도
▁황새
디푸스
▁740
▁767
▁OEM
▁나카쓰
▁뉴포트
▁리무진
▁면역계
▁벡터장
▁불변량
▁이동성
▁킴벌리
▁태백시
▁하타케
▁흑기군
프라데시
▁Mart
▁마흐무드
▁발렌타인
▁올림포스
▁을사조약
▁조선귀족
▁캐롤라인
▁macOS
▁알츠하이머
▁오이디푸스
게일
무니
분수
야샤
여대
box
ita
ste
▁PT
▁거위
▁건주
▁계율
▁고미
▁다와
▁명대
▁불시
▁속리
▁식구
▁실과
▁온돌
▁유압
▁유호
▁윤두
▁융자
▁이무
▁일용
▁장생
▁주희
▁집터
▁후설
대장경
▁AAA
▁NET
▁라우터
▁라우팅
▁맡아보
▁베이더
▁빙하기
▁상장군
▁운전대
▁이대로
▁장준하
▁지부티
▁진공관
▁컬리지
▁트레블
▁페아노
▁플로우
▁한국식
▁훈구파
비르스크
▁군국주의
▁비토리아
▁아스트라
▁이누야샤
▁하이드로
▁while
▁볏
런즈
메탈
밸리
켄트
혜진
▁Jr
▁강지
▁교편
▁국령
▁둔화
▁밀약
▁발흥
▁벌거
▁상중
▁수트
▁오줌
▁용군
▁위독
▁육계
▁육전
▁윤용
▁일경
▁장창
▁재밌
▁창제
▁치요
▁토포
▁티치
▁페닐
▁폐해
▁플란
▁필자
▁행랑
▁현물
▁황정
▁ICT
▁고속화
▁군위군
▁브로스
▁사라센
▁시모쓰
▁아다치
▁애버딘
▁우치다
▁장타율
▁접착제
▁정명훈
▁찬송가
▁충격파
▁크리올
▁페렌츠
▁플레잉
브리아기
▁1526
▁1782
▁나무껍질
▁마리아나
▁보조정리
▁시어머니
▁푸에르토
▁Happy
▁힌덴부르크
▁쭈
왕묘
의동
장구
테론
화기
ume
▁sy
▁가덕
▁경운
▁광안
▁구술
▁국전
▁군가
▁귀비
▁김사
▁노반
▁다층
▁밋밋
▁발차
▁본상
▁서운
▁속어
▁수병
▁술어
▁시놉
▁억양
▁예과
▁오역
▁인준
▁잡아
▁주형
▁짓밟
▁첨정
▁초선
▁치경
▁쿠미
▁폐사
lish
▁830
▁경수로
▁기억력
▁나한상
▁니코틴
▁도코로
▁메르켈
▁사이비
▁사형수
▁소인수
▁수목원
▁스타니
▁스티스
▁스티어
▁예산안
▁워크숍
▁원세훈
▁이사야
▁이창호
▁치료사
▁포르테
▁히파르
▁1779
▁데스티니
▁들이닥치
▁스미토모
▁양아버지
▁콜론타이
▁Apple
▁House
▁로마네스크
▁미야자키현
▁수군절도사
▁히파르코스
▁Single
▁사우스캐롤라이나주
▁룻
노트
무시
미어
충분
커녕
핸드
▁괴한
▁그럼
▁나체
▁달구
▁당쟁
▁도너
▁뒷발
▁등반
▁디즈
▁로웰
▁무니
▁북북
▁분하
▁선문
▁식도
▁신제
▁요람
▁우금
▁우베
▁음서
▁청라
▁콩트
▁폐역
▁피조
▁합자
▁홍경
▁555
▁Spe
▁고장나
▁관절염
▁리보솜
▁바버라
▁생원시
▁신드롬
▁외동딸
▁음악제
▁이착륙
▁다카히로
▁음주운전
▁디오니소스
▁바이애슬론
dy
▁텡
사다
ERS
▁"[
▁TD
▁bl
▁가급
▁구교
▁누어
▁대곡
▁동갑
▁롤프
▁부국
▁사울
▁산면
▁샤우
▁소보
▁외도
▁원역
▁유노
▁재지
▁천시
▁최원
▁학적
▁핸콕
▁호서
▁황사
▁흥사
재판소
▁267
▁319
▁SIG
▁렉싱턴
▁루아르
▁리버럴
▁마음먹
▁보안관
▁빼돌리
▁세레스
▁스마일
▁예술인
▁전문지
▁칼로리
▁크리티
▁클러치
▁타케시
▁티투스
▁From
▁STAR
▁Serv
▁love
▁마이스터
▁볼드모트
▁전지훈련
▁브래드퍼드
다비
시키
재지
혈증
ASS
ICE
▁견도
▁라보
▁무언
▁미량
▁베나
▁봉래
▁비라
▁상리
▁선반
▁수꽃
▁수림
▁양감
▁우어
▁종회
▁친서
▁하자
▁항이
▁해프
▁황동
▁395
▁계양구
▁고양군
▁그라프
▁노리치
▁들어맞
▁망주석
▁외아들
▁자료실
▁전보국
▁청원군
▁체인점
▁하늘색
▁1772
▁Mich
▁고군분투
▁라파예트
▁아흐메드
▁오리엔탈
▁지드래곤
▁Special
St
▁몯
웅렬
칠성
해협
환자
ule
▁BY
▁격문
▁노심
▁단청
▁레조
▁로케
▁마커
▁명산
▁바부
▁백설
▁벤더
▁분주
▁블럭
▁삼계
▁상생
▁쑤이
▁아멜
▁안병
▁우노
▁접사
▁카펜
▁페란
▁풍류
로디테
cept
▁357
▁Div
▁고트족
▁교수법
▁도리스
▁박물학
▁브레스
▁수정안
▁스타킹
▁아레스
▁조형물
▁지렁이
▁탑승자
▁포에니
▁1580
▁동두천시
▁발칸반도
▁베르누이
▁크리스찬
▁파인애플
▁프로야구
▁world
▁아프로디테
▁올리베이라
세움
음기
임금
ara
▁VP
▁가무
▁강현
▁교미
▁김자
▁네츠
▁노상
▁닛타
▁동탄
▁럭스
▁마기
▁모종
▁발아
▁배임
▁별동
▁뷰트
▁사액
▁수공
▁양이
▁연군
▁이너
▁인품
▁재사
▁제련
▁지모
▁짱구
▁측지
▁치리
▁쿤밍
▁토탈
▁트러
▁티거
▁푸가
▁피선
▁해학
▁화공
▁환국
라노스
손가락
트리히
ware
▁292
▁355
▁820
▁man
▁군마현
▁나오토
▁뮌스터
▁
▃
이
하
다
.
에
의
는
ᆫ
로
,
을
지
가
1
고
서
아
은
기
리
0
사
어
으
시
대
스
되
2
를
도
었
년
나
자
수
있
일
았
라
부
전
그
정
국
9
과
주
인
제
들
성
구
장
상
적
동
르
여
위
3
보
오
원
와
공
선
게
트
마
우
드
만
조
5
한
치
경
중
며
화
4
미
8
월
비
학
소
유
교
세
신
6
개
역
문
ᆯ
7
계
명
회
연
후
관
것
면
터
모
등
였
영
용
프
니
발
군
타
산
무
"
작
크
당
민
데
방
레
단
내
재
거
음
러
카
생
V
e
해
통
바
반
분
안
차
포
a
행
체
진
키
간
식
호
요
노
o
파
현
물
남
t
히
본
'
출
종
양
r
두
루
m
때
속
야
실
토
임
결
형
l
던
강
설
표
코
i
-
각
법
초
배
디
태
운
업
승
독
n
력
직
버
록
건
함
래
입
피
S
점
합
A
불
까
예
매
최
번
C
티
또
않
받
베
천
같
권
메
약
브
말
추
알
왕
더
목
격
립
판
심
감
투
u
s
청
활
금
네
처
항
평
북
저
없
외
달
특
란
따
열
M
I
집
언
즈
석
복
편
테
향
류
T
려
병
변
F
광
족
령
른
B
페
애
랑
근
황
름
급
람
축
총
존
쓰
송
능
김
c
많
질
참
술
박
철
별
쪽
g
f
D
론
절
및
환
살
준
울
악
증
품
창
올
P
E
육
쿠
곡
료
;
백
플
d
)
h
망
새
순
글
돌
필
&
께
량
머
확
팀
ᄆ
패
규
림
(
N
클
쟁
극
케
색
너
범
탈
련
견
삼
O
k
L
랜
R
탄
째
충
K
럽
린
막
책
손
봉
접
p
날
퍼
G
츠
완
션
_
협
못
뒤
담
든
밀
런
누
채
블
길
습
/
골
측
녀
혼
온
취
험
즌
벌
귀
암
할
슈
H
곳
찰
슬
웨
워
허
씨
앙
U
[
친
y
]
뉴
칭
첫
커
효
침
높
획
징
:
응
죽
널
롭
뜻
락
난
논
착
엔
희
례
센
폭
검
~
잡
캐
득
헌
b
농
픽
갈
틀
엘
섬
홍
풍
퇴
움
W
느
택
폴
%
좌
럼
폐
싱
층
헤
압
끝
념
혁
덕
앞
맞
즉
링
윤
턴
걸
율
줄
릭
맡
늘
슨
익
얼
텔
갖
염
찬
v
램
묘
컵
벨
팔
콘
엄
잘
궁
ㄴ
빌
맹
렌
훈
균
흥
억
밝
휘
앨
몇
객
옥
먼
칼
델
푸
써
칸
빈
콜
얻
맥
쇼
흐
J
X
숙
괴
넘
샤
좋
끼
뷔
므
몰
싸
핵
w
템
찾
볼
붙
빠
끌
놓
률
컴
액
굴
쥐
욕
혹
룹
탑
떠
뿐
꾸
갑
칙
덴
잠
롯
십
죄
몬
렇
떨
힘
둘
촌
척
벽
풀
먹
략
몸
잉
맨
렉
졸
벤
핀
휴
몽
틴
녹
잔
!
뮤
눈
뛰
홈
털
멀
폰
밖
륙
밴
탁
렵
곤
겨
컬
답
멸
혜
탕
솔
둥
톤
팅
Y
윈
홀
혈
x
넷
셀
돈
롤
냐
겸
쿄
낮
칠
님
딸
탐
텐
컨
퓨
톨
ㅏ
욱
헨
촉
겠
낙
앤
떤
콩
릴
꽃
펜
넓
랙
왜
뇌
섭
=
렬
킹
옹
붕
읍
덜
튜
깨
융
젤
놀
흔
춘
넣
셔
닝
슷
윌
헬
옮
빛
챔
듬
흑
짓
멘
쉽
땅
딩
쌍
곧
즘
켓
팬
큐
멤
뜨
쇄
룡
듀
닉
뢰
값
밤
웅
릉
깝
튼
ㅓ
랭
옛
흡
쉬
납
짜
잇
닌
젠
롱
씩
랫
젝
맺
겐
닥
꼬
궤
z
숭
뉘
멜
펠
캠
뀌
ㅆ
빙
듯
숨
섯
+
웃
웹
핑
깊
잃
셰
ᄇ
즐
틱
밍
|
킨
믿
빅
뷰
텍
ㄹ
찍
큼
긴
덤
엽
랍
돕
잎
멕
틸
쇠
펼
곱
럭
ㅕ
띠
롬
폼
짧
삭
릿
켈
삶
첨
혐
Z
?
켄
빨
듣
촬
딘
낭
져
겪
혀
럴
찌
Q
힐
캘
컷
둔
콤
엇
빼
싶
젊
랄
벗
옆
밑
셜
첩
곽
낳
꿈
쌓
짐
킬
헝
냥
룩
옷
냉
믹
닛
톱
엑
맛
읽
퀴
겁
왼
븐
벡
얀
튀
잭
숲
뱅
샌
묵
봄
쿨
셋
뒷
앗
캄
닐
괄
넬
떻
엠
좀
붉
슴
뿌
끊
둑
첼
웰
밥
늄
앵
덮
녕
톰
쳐
묻
팩
팽
씬
탱
쁘
뤼
픈
숫
뱀
짝
흘
늬
댄
j
캔
렐
셈
렴
쾌
팝
춤
옌
깔
훨
꼽
끄
륨
쫓
겔
닫
횡
샘
뽑
늦
갤
뼈
렘
룸
덩
랗
앉
흉
꼭
펴
륜
봇
좁
햄
펙
벼
멍
룬
뚜
끔
깃
굽
딕
랩
탠
퀸
윗
륭
힌
띄
딜
퀘
빗
겹
궐
덧
쿼
첸
뮌
삽
긍
윙
슐
쏘
홋
q
꺾
셉
듭
펄
렛
펑
껍
묶
꼴
흰
쌀
훌
넥
훗
섞
붓
*
툰
녁
렀
펀
돔
꺼
곰
섹
밭
깥
\
낌
셸
빵
랴
닷
툴
엉
콧
똑
톡
훼
뿔
갱
딱
컫
늑
쩌
킷
닭
팡
맷
틈
풋
핸
콰
콕
굳
힙
룰
콥
흙
룽
뮬
핫
뇨
떼
빚
킥
옵
킴
넌
{
둡
꾼
큰
밸
벳
굿
멈
돼
겉
닿
턱
럿
걷
캡
샹
쑤
왈
끈
퉁
죠
뻗
홉
탓
볍
렷
쓸
샬
닮
눅
쉐
쯤
엣
굉
듈
릇
뚫
쥬
릎
칩
켜
싫
웬
놈
앱
퐁
툼
긋
낱
갓
챌
젖
슘
씌
푼
흠
얄
삿
맵
쿤
펌
톈
#
넨
딴
쯔
걱
팜
댐
솟
잊
옐
렁
솜
캉
륵
덟
멋
짙
곁
쏟
헐
돋
떡
탤
휩
흩
얇
$
얘
밟
핍
굵
덱
둠
텀
뭉
꾀
뚝
훔
끓
댓
옴
맘
밋
빔
왓
펫
햇
촨
괘
꽤
픔
잦
횟
벅
앓
붐
싯
휠
샨
벵
엿
슭
낫
꿀
눌
멧
짱
씀
팟
}
헥
냄
갇
츄
딪
ㅁ
튬
랏
`
몫
맑
곶
얹
깎
뭐
땃
얗
뭇
텝
윅
닦
눕
썰
팍
걀
맏
얽
옳
쟈
슛
캅
끗
엥
앰
춥
뻔
쭉
핏
뱃
욘
캣
팰
뚱
깐
낚
듐
챙
믈
섀
갛
촐
썬
넛
귤
헛
훙
귄
쾰
엮
뭄
숀
뫼
싣
탬
쿡
찮
렝
@
싹
갯
푹
뾰
녜
셴
삐
뮈
딧
돗
딥
얕
줌
샐
웍
깜
덥
렙
펩
탭
늙
샵
낸
꽂
슌
쾨
볶
겟
뇽
껏
쪼
갚
촛
펭
깁
꽝
큘
뻐
퀼
몹
췌
냅
짚
늪
썩
츰
괌
숍
짖
즙
퓌
찢
쿰
훤
맬
엡
넉
룻
롄
쁨
뜸
텁
핼
뮐
빽
뵈
뿜
씻
젯
잼
굶
샷
젓
퀄
쵸
릅
샴
똥
댈
잣
쩔
벚
뤄
촘
욤
벙
슝
퓰
뜯
꿰
멩
팻
밧
엎
윽
땀
ㅣ
껑
켐
댕
궈
괜
튠
텅
낡
뽀
츨
낯
멱
밈
깅
킵
꼼
뇰
뎀
퀀
놉
캇
랠
맴
^
좡
챠
쑹
썸
뮴
웜
팎
헴
뜰
쿵
딤
뱌
팥
엌
칫
캥
왁
꽁
솥
갸
쑨
댁
훅
앳
먀
쐐
윔
욜
옙
챈
쉘
뎅
퍽
얌
젬
쉰
깡
칵
넴
쥘
맣
돛
쑥
뽕
툭
줍
콴
쩍
뺏
눔
찻
힉
쎄
찜
캬
팁
늠
룀
웁
맙
찔
옅
쨌
읊
ㄱ
볕
쉴
뺨
쭈
퀵
잖
샛
딛
넵
썹
팸
핌
쏠
숄
횃
븀
텡
쉼
젼
엷
꿇
웡
웸
텃
펨
ㅂ
쌈
땡
힝
된
싼
씹
춧
텟
튿
씽
휼
눗
뻘
봅
댑
긁
꽉
깍
솝
ㅇ
뱉
솅
ㅅ
폄
홑
윳
꺽
얏
냇
밉
갠
뎃
쥔
켤
뎬
뤽
꼰
ㅡ
ㄷ
찹
귈
젱
됭
뜩
뢴
숯
쭤
륀
꿩
쩡
숏
쌔
륄
탸
짤
잿
헵
푀
뽐
숱
꿉
컹
옻
볜
헹
ㅎ
빡
셍
튕
굼
묀
땜
볏
챕
묄
흄
넋
랸
좇
낵
녘
뷸
햐
꿋
첵
놋
껌
냑
ㅔ
밌
몯
쩐
챗
헷
갬
짬
탯
줏
핥
뻣
썽
셤
쥰
쳇
짠
쨩
짊
됨
툇
쟝
덫
똘
갭
탉
겜
넝
눙
닙
욧
넙
쿱
쓴
괭
젭
쇤
췬
쭝
훠
뷜
귓
콸
튤
솽
폿
뜬
긱
닳
꾹
궂
쏙
윕
껴
앎
헉
둬
섣
햅
뚤
몐
벰
쬐
깟
놔
늉
찐
팹
돤
셩
펍
ㅈ
ㅋ
뷴
쳅
톳
댜
숟
괵
긔
껄
왑
믐
뗏
숑
잰
챤
푈
겅
냘
끽
뵐
쁠
솁
쥴
꿍
닻
욥
듄
왐
쳄
힛
꼿
뺄
샥
톄
갉
옇
껀
묽
뺑
뻑
샅
칡
쩨
넹
쳉
믄
왠
셧
웩
죤
뵤
휨
떳
켁
퓸
뭍
쭐
윰
꽈
뎁
륌
껫
쫄
섐
됴
뻬
팃
낼
빳
윷
줘
틋
뜀
츤
휫
ㅗ
땔
퍄
뵙
빻
쾅
쾡
녓
뢸
섕
씁
잽
홰
ㅊ
솀
찧
켕
틔
웻
퉈
렸
멎
ㅍ
냠
쉔
쫑
퓔
퀜
좨
갔
웽
훑
녠
띵
깻
켠
꽌
뵘
찡
냔
둣
빤
깽
쟌
햘
튈
ㅌ
꿔
뷧
뼛
쉥
빕
쏭
졍
짭
쯩
쿈
홧
뎐
얍
ㅜ
겊
뎨
쇳
땋
쿳
먄
뱁
졔
틍
젋
혓
꽹
롼
섶
멥
옘
켑
궬
봐
삯
줴
겼
듸
똔
헙
뻥
뒬
쌩
쭌
쫒
ㅐ
낟
룔
삵
씰
붑
뿍
읏
뒹
묠
닢
찟
푄
엾
쳔
낏
룅
큅
뷘
쏴
씸
큔
띤
깬
묜
굄
녤
떫
뚬
쑈
컥
폽
뇬
뽁
숩
쏨
읫
갗
겡
섄
젹
츈
큄
툠
툽
뉼
쇽
툐
듦
벋
숴
쉿
ㄲ
똠
횔
쮸
뿡
쐬
얉
ㅠ
룝
붇
낄
졈
뱐
퇘
퇼
귬
쌤
믜
빰
쏜
푯
퓐
ㅑ
쯕
툉
띔
밂
쇨
졀
좆
짢
촙
펏
낑
뽈
솎
옝
웠
뒨
벱
슥
큉
틂
ㅃ
겋
륑
뮨
셱
싀
ㅛ
갹
궉
낀
멓
숌
쾃
ㅉ
짇
캑
짦
튄
ㄸ
죵
넒
릏
쓱
욀
쨍
츳
돠
큇
덞
떵
뭔
녯
캴
텨
훵
ᆼ
뱡
옭
쩜
ㅢ
뗀
뼉
뿅
삥
얭
쨋
햏
휙
ㅒ
뵬
쌕
쫀
ㅖ
꾐
덛
묑
샾
썻
왔
죈
춰
걔
긷
쌉
앴
죌
퀠
틉
ㅟ
껩
븡
뺌
퇀
푁
푤
끙
딨
뚠
몌
횬
곗
꿎
뎡
땝
맟
잌
쿌
흭
ㅚ
곪
귿
됸
묏
벧
볘
븓
웟
젔
쳥
캰
큥
븨
샙
랖
랼
뼘
솃
쉑
쪄
땁
앏
윾
굠
떰
똣
랐
솨
쏸
왬
챵
ㅘ
꺅
놘
돝
롸
싁
졉
졌
킁
텬
걍
뤠
슙
읒
잴
쳬
쳰
퇸
겍
굣
꾜
끎
륍
뭣
밞
슉
짹
큭
퍌
ㅄ
궃
귐
꽥
쉭
좐
죗
킈
탼
곬
덖
릐
뱟
섈
쌋
쟤
쩧
춉
췐
귁
녈
뉸
닑
닯
댠
뜷
롹
몆
엳
읗
쟉
챨
췰
쿽
풰
ㅙ
ㅝ
겯
괸
뀨
냣
뉵
뎌
됙
밎
뽄
삑
슯
옯
읻
츌
햔
똬
믯
붸
쀼
쌰
읕
읖
찿
쵤
켸
튐
햑
흗
ㅞ
궨
긑
녬
늡
돐
듕
솬
왱
죡
쫌
쫙
춍
핬
했
혠
훕
휀
괼
뇩
늴
댱
먁
셕
셥
왝
윁
읔
쥣
즁
찝
틑
퍈
>
굘
됀
뒴
떱
룟
엊
졘
좃
즛
쨈
쨔
쾍
튱
햣
ㄺ
ㄼ
껭
꿘
뀍
녑
륩
묫
믕
뺀
섧
쎌
읓
쳡
겻
곯
궜
낢
뚧
밪
볓
뺐
삘
슾
옉
짯
쩬
쮠
챡
캪
퀑
텽
ㄳ
ㄻ
ㅀ
걲
뙈
륏
맻
벛
섥
썅
앝
엹
읃
잍
잛
죔
쭘
쯧
촤
큠
튁
푠
횐

ㄿ
꺄
꼍
녔
뇸
뉙
딫
뙤
뜽
랬
뢱
밷
뻰
삔
솓
슁
쎅
쏱
쒸
왹
욺
윱
짼
첬
촹
츔
퀌
턔
풂
햠
휜
ㄽ
겇
꼳
꽛
눞
늣
될
땐
맽
묭
묾
뱔
섁
엤
옜
욍
읜
읺
짫
츼
픙
ㄵ
ㄾ
귑
껸
눼
닏
뎜
듧
뵨
븜
빋
빱
뺘
쁜
삳
섰
얆
얐
얶
왯
욷
웤
읠
졋
쨘
쭙
쮜
켯
콀
쾬
쿙
푕
휭
ㄶ
갣
겿
꿕
낻
뉻
닸
덪
돟
둗
듁
땟
뚯
띡
띨
렫
롐
룐
멉
벴
쌘
쏫
씃
얾
욋
잏
잗
쟛
쫏
챰
쳑
쵼
컁
켬
콱
큽
탘
퍙
픠
햤
횻
훽
곂
곈
곷
괏
깯
깸
꽅
꾿
넗
뉨
늗
닜
닺
됩
땨
땸
떄
뙡
랟
럄
럇
룁
몃
뭏
볻
봔
뷁
뷕
븍
뺴
뻴
섿
슽
쌴
씼
엶
옫
옸
쟐
좔
짔
쩝
쬔
쬼
쯘
챱
촥
쵹
춋
쾀
퀍
톺
톼
폘
퐝
핮
혤
홤
휑
걈
걺
겆
곙
굥
깆
깩
꽆
꾄
꾕
넀
넖
넢
넫
녇
닽
댛
덨
뎰
됫
둏
뒸
뗑
띱
뢨
뤗
먈
멂
몔
뫃
뮹
믓
믾
빝
샇
쇵
숳
싻
쎙
쑜
앧
욈
읆
쟂
쟙
젇
쩽
찓
쳘
쳣
춈
츅
츙
콛
콬
탙
텦
툿
튽
햗
헿
홥
홱
횩
횰
횽
흝
흫
힁
ᄀ
갂
갘
걑
곌
괂
깉
깹
꺠
껶
꽦
꿏
뀀
냬
녣
놰
뇻
늇
덝
뎍
뎦
돴
됄
됏
됮
둄
뒈
듫
떽
뗴
럅
렢
롈
뤀
륻
맄
맆
몄
뫄
뭘
밣
붘
븥
빎
뽓
뿟
삠
삡
삮
샏
섓
셖
솦
솻
쇘
숰
쉉
쉡
쎔
쓔
앟
얖
얺
엜
엵
욌
욯
윶
읭
읳
읹
잋
쟘
졜
졷
좽
줫
쥠
쩄
쩰
쫜
쬬
찣
챦
쵝
츕
츩
콮
퀭
텉
툥
튝
팯
푱
풉
퓬
핟
핶
핻
홛
횄
훍
훓
훝
흿
갃
걋
겂
겄
겣
곅
곘
굑
굔
궅
귝
깂
깢
껙
껼
꼇
꼐
꽐
끕
냡
넎
넚
넡
넶
녝
뇔
뉫
늚
늰
댤
덣
뎠
돎
돚
돵
돽
둰
둴
둿
뒁
뒥
뒫
듥
딷
뗌
뗘
똫
뙨
뛔
뜌
띳
랒
럐
럔
렜
렡
롑
롓
뤌
맜
먕
먗
먿
몀
몴
뫙
뭅
뭰
뮝
믏
믠
밒
밨
밫
밯
뱆
뱜
벉
봍
봘
뵉
뵷
붏
붖
붛
붜
붴
뷋
뺩
뺵
뼁
뼤
삣
삻
샂
샊
섡
섦
셑
쇗
숖
숡
숸
슼
싈
싰
싲
싾
쎕
쎴
쏩
쏳
쐇
쑴
쒜
쓿
씉
앃
앋
얅
엩
옄
옰
옲
옺
왰
웝
윘
윟
읅
읶
읿
잩
젣
젿
죕
죰
줃
줓
쥭
즤
짗
쨉
쩸
쩻
쫃
쫍
쫗
춴
췅
칲
칳
캌
캭
컈
켙
콙
퀏
킼
턀
텥
톹
퇌
퇻
퉤
튭
틧
팈
팉
퍅
퍠
폅
폔
폳
퐈
푣
풜
핔
핳
햊
햋
햬
혔
혿
홅
홯
횓
횢
훋
휄
휏
힜
갅
갆
갊
갋
갌
갍
갎
갏
갞
갟
갡
갢
갥
갦
갧
갨
갩
갪
갫
갮
갰
갲
갳
갴
갵
갶
갷
갺
갻
갽
갾
갿
걁
걂
걃
걄
걅
걆
걇
걉
걊
걌
걎
걏
걐
걒
걓
걕
걖
걗
걙
걚
걛
걝
걞
걟
걠
걡
걢
걣
걤
걥
걦
걧
걨
걩
걪
걫
걬
걭
걮
걯
걳
걵
걶
걹
걻
걼
걽
걾
걿
겈
겎
겏
겑
겒
겓
겕
겖
겘
겙
겚
겛
겞
겢
겤
겥
겦
겧
겫
겭
겮
겱
겲
겳
겴
겵
겶
겷
겺
겾
곀
곃
곆
곇
곉
곊
곋
곍
곎
곏
곐
곑
곒
곓
곔
곕
곖
곚
곛
곜
곝
곲
곹
곺
괁
괍
괕
괗
괠
굇
굦
굻
궇
궎
궘
궝
궡
궷
귯
긆
긜
긧
긪
긾
깄
깋
깓
깖
꺌
껠
껬
꼈
꼮
꾈
꿧
뀜
끟
낛
낣
났
낲
냤
넁
넏
넑
넞
녋
녙
놃
놧
놩
뇍
뇓
뇜
눋
눝
뉩
늅
늏
늒
늕
늩
늿
닁
닞
닟
닠
댇
댔
댚
댝
댸
덙
덭
덯
뎗
뎝
돇
돍
돓
돰
됍
됢
됰
됼
둉
둙
둚
둟
둧
뒵
듲
듳
듹
듼
딀
딈
딭
딯
딲
땍
땽
떘
떙
떢
떥
떦
떪
떯
뗄
뗼
뚷
뚸
뚼
뜁
띁
띅
랃
랓
랕
랛
랢
랰
랲
럈
럘
럲
럻
렃
렆
렗
렠
렣
롣
롲
뢀
뢉
룍
룧
룯
뤈
뤘
뤨
뤰
뤳
뤵
륐
륫
륱
륽
릌
릍
릘
릫
릳
맀
맃
맊
맍
맔
맕
맗
맠
맢
먓
먘
먾
멏
멪
멵
몊
몪
뫂
뫈
뫔
묺
뭌
뭴
뮺
믁
밚
밠
밬
뱍
뱓
벏
벐
벓
벹
볃
볈
볿
봋
봌
봣
봥
뵛
뵝
붊
붔
붠
붵
뷀
뷃
뷤
븃
븕
븝
븟
빍
빧
빩
뺙
뺬
뺸
뺼
뻇
뻠
뻡
뻤
뻩
뻼
뽝
뿗
뿝
쀍
쁭
삜
샆
샞
섊
섨
섵
섷
셒
셨
솏
솑
쇡
쇰
숔
숮
쉅
쉠
쉣
슢
슦
슳
싄
싡
싦
싪
싵
싿
쌁
썊
썪
썼
쎗
쎼
쎾
쐉
쐑
쐼
쑷
쓘
씜
앀
앆
앖
앚
앛
앹
앾
얂
얃
얊
얜
얨
얫
엗
엪
옂
옏
옽
옾
왇
왘
왙
왤
왿
욨
욽
욿
웆
웇
웑
윋
윛
윥
읂
읇
읋
읐
읙
읟
읷
잂
잆
잙
잚
잧
잨
쟃
쟇
쟬
젃
젆
젏
젗
젙
젲
젵
졩
졶
좍
좧
죳
줜
줼
쥉
쥤
쥥
쥼
쥿
즑
즞
짎
짛
짥
쨜
쨤
쩃
쩟
쩩
쩹
쪗
쪤
쫘
쭁
찯
챂
첟
첮
첯
첲
쳠
쳤
촏
촣
쵀
쵣
춛
춝
춟
춭
췍
췡
췩
췽
츹
칯
칱
캎
캿
컀
컅
컺
켰
켱
켼
콭
쾁
쾩
쾭
쾻
쾽
쿸
쿹
퀩
퀫
큎
큣
큹
킄
킌
킽
탇
탣
탶
턚
텛
텤
텰
텸
텻
텼
툅
툘
툱
퉜
튻
틜
틩
팑
팠
팤
팦
퍁
펲
폏
폶
퐃
퐅
퐌
퐷
푓
푝
픅
픝
픞
핃
핒
핓
핝
핞
핢
핦
핧
핱
핲
햝
햡
