▁이 -0
▁. -1
▁에 -2
▁다 -3
▁의 -4
▁는 -5
▁, -6
▁하 -7
▁을 -8
▁은 -9
▁가 -10
▁1 -11
▁고 -12
▁를 -13
▁한 -14
▁으 -15
▁년 -16
▁로 -17
▁으로 -18
▁에서 -19
▁2 -20
▁지 -21
▁있 -22
▁대 -23
▁기 -24
▁되 -25
▁사 -26
▁인 -27
▁었 -28
▁그 -29
▁도 -30
▁일 -31
▁시 -32
▁과 -33
▁아 -34
▁들 -35
▁수 -36
▁했 -37
▁어 -38
▁전 -39
▁적 -40
▁여 -41
▁였 -42
▁와 -43
▁자 -44
▁20 -45
▁월 -46
▁부 -47
▁제 -48
▁19 -49
▁라 -50
▁주 -51
▁정 -52
▁중 -53
▁위 -54
▁된 -55
▁공 -56
▁보 -57
▁해 -58
▁세 -59
▁나 -60
▁경 -61
▁게 -62
▁개 -63
▁것 -64
▁유 -65
▁3 -66
▁" -67
▁조 -68
▁한다 -69
▁등 -70
▁선 -71
▁스 -72
▁마 -73
▁성 -74
▁만 -75
▁미 -76
▁연 -77
▁동 -78
▁오 -79
▁상 -80
▁소 -81
▁서 -82
▁모 -83
▁구 -84
▁영 -85
▁비 -86
▁국 -87
▁발 -88
▁면 -89
▁며 -90
▁201 -91
▁' -92
▁4 -93
▁후 -94
▁관 -95
▁신 -96
▁명 -97
▁5 -98
▁프 -99
▁때 -100
▁200 -101
▁할 -102
▁장 -103
▁던 -104
▁- -105
▁방 -106
▁거 -107
▁바 -108
▁교 -109
▁리 -110
▁대한 -111
▁문 -112
▁역 -113
▁차 -114
▁당 -115
▁우 -116
▁무 -117
▁원 -118
▁내 -119
▁통 -120
▁진 -121
▁계 -122
▁현 -123
▁남 -124
▁군 -125
▁노 -126
▁분 -127
▁포 -128
▁6 -129
▁또 -130
▁화 -131
▁않 -132
▁까 -133
▁생 -134
▁학 -135
▁았 -136
▁까지 -137
▁같 -138
▁작 -139
▁결 -140
▁강 -141
▁출 -142
▁파 -143
▁에게 -144
▁불 -145
▁받 -146
▁함 -147
▁으며 -148
▁단 -149
▁번 -150
▁7 -151
▁최 -152
▁반 -153
▁10 -154
▁8 -155
▁된다 -156
▁알 -157
▁호 -158
▁데 -159
▁안 -160
▁회 -161
▁지만 -162
▁실 -163
▁배 -164
▁형 -165
▁초 -166
▁카 -167
▁두 -168
▁말 -169
▁예 -170
▁재 -171
▁따 -172
▁없 -173
▁부터 -174
▁타 -175
▁사용 -176
▁9 -177
▁미국 -178
▁라고 -179
▁요 -180
▁종 -181
▁음 -182
▁이후 -183
▁라는 -184
▁설 -185
▁특 -186
▁면서 -187
▁산 -188
▁코 -189
▁일본 -190
▁는데 -191
▁레 -192
▁운 -193
▁감 -194
▁권 -195
▁더 -196
으며 -197
▁독 -198
▁활 -199
▁행 -200
▁추 -201
▁왕 -202
▁처 -203
▁건 -204
▁베 -205
민국 -206
▁김 -207
▁간 -208
▁입 -209
▁크 -210
▁지역 -211
▁피 -212
▁양 -213
▁매 -214
▁199 -215
▁민 -216
▁다음 -217
▁평 -218
▁태 -219
▁많 -220
▁12 -221
▁올 -222
▁참 -223
▁대한민국 -224
▁18 -225
▁경기 -226
▁및 -227
▁승 -228
▁본 -229
▁다고 -230
▁다른 -231
▁드 -232
▁목 -233
▁임 -234
▁열 -235
▁대학 -236
▁; -237
리아 -238
00 -239
▁총 -240
▁프로 -241
▁속 -242
▁그리 -243
스트 -244
▁위해 -245
▁북 -246
▁야 -247
▁집 -248
▁S -249
or -250
▁때문 -251
▁법 -252
▁달 -253
▁11 -254
▁시작 -255
▁물 -256
▁외 -257
▁체 -258
▁변 -259
▁각 -260
▁트 -261
▁천 -262
▁토 -263
▁표 -264
▁직 -265
▁메 -266
▁사람 -267
▁& -268
▁따라 -269
▁그러 -270
▁함께 -271
▁또한 -272
▁점 -273
▁A -274
▁박 -275
▁팀 -276
▁항 -277
▁투 -278
▁한국 -279
▁청 -280
▁저 -281
▁선수 -282
▁치 -283
▁브 -284
▁사이 -285
▁세계 -286
▁영화 -287
▁) -288
▁자신 -289
▁약 -290
▁광 -291
▁버 -292
▁판 -293
▁새 -294
la -295
▁C -296
▁디 -297
▁경우 -298
▁M -299
▁용 -300
▁f -301
▁루 -302
▁기록 -303
▁네 -304
▁T -305
▁축 -306
▁F -307
▁복 -308
▁현재 -309
▁하나 -310
▁국가 -311
▁존 -312
시아 -313
▁다는 -314
▁편 -315
▁이름 -316
▁198 -317
▁당시 -318
▁확 -319
▁가장 -320
▁삼 -321
▁위치 -322
▁_ -323
▁필 -324
▁합 -325
▁가지 -326
▁테 -327
▁활동 -328
▁조선 -329
▁이나 -330
▁학교 -331
▁뒤 -332
▁철 -333
주의 -334
▁그러나 -335
▁살 -336
▁리그 -337
▁15 -338
▁( -339
▁금 -340
▁증 -341
▁페 -342
▁for -343
▁언 -344
▁째 -345
▁플 -346
▁심 -347
▁백 -348
mu -349
▁창 -350
▁의해 -351
mula -352
▁formula -353
▁못 -354
▁16 -355
▁식 -356
▁대표 -357
▁병 -358
레이 -359
▁근 -360
▁연구 -361
부터 -362
▁또는 -363
▁쓰 -364
▁프랑 -365
▁니 -366
▁통해 -367
▁그리고 -368
▁/ -369
▁사회 -370
▁황 -371
으나 -372
▁돌 -373
▁규 -374
▁m -375
▁0 -376
▁애 -377
▁D -378
▁충 -379
▁시즌 -380
▁17 -381
▁순 -382
▁] -383
▁클 -384
▁[ -385
▁첫 -386
▁패 -387
▁197 -388
▁아니 -389
▁러 -390
▁B -391
▁완 -392
▁히 -393
▁보다 -394
▁다시 -395
▁만들 -396
랜드 -397
▁높 -398
▁중국 -399
▁협 -400
▁키 -401
▁정부 -402
▁서울 -403
▁프랑스 -404
▁영국 -405
▁채 -406
▁K -407
학교 -408
▁시대 -409
▁I -410
▁: -411
▁대해 -412
▁는다 -413
▁k -414
▁포함 -415
▁여러 -416
▁도시 -417
▁뜻 -418
▁196 -419
▁전쟁 -420
▁14 -421
▁독일 -422
▁다가 -423
▁으나 -424
▁친 -425
▁로서 -426
▁죽 -427
▁아이 -428
▁큰 -429
er -430
▁길 -431
▁문화 -432
▁대회 -433
▁~ -434
▁g -435
▁취 -436
▁13 -437
▁엔 -438
▁온 -439
▁축구 -440
▁모두 -441
▁가능 -442
▁위원 -443
▁별 -444
▁동안 -445
▁P -446
▁뉴 -447
▁모든 -448
▁준 -449
in -450
▁이상 -451
▁손 -452
▁곡 -453
▁감독 -454
▁정치 -455
▁환 -456
▁194 -457
▁문제 -458
▁일부 -459
▁l -460
▁석 -461
▁방송 -462
▁허 -463
▁처음 -464
▁개발 -465
▁대학교 -466
▁위한 -467
▁L -468
▁알려 -469
▁지방 -470
▁% -471
▁이루 -472
▁제작 -473
▁검 -474
▁구성 -475
▁골 -476
▁논 -477
▁였으며 -478
▁국제 -479
▁캐 -480
▁농 -481
▁될 -482
▁케 -483
▁배우 -484
▁사건 -485
라이 -486
▁끝 -487
▁날 -488
▁세기 -489
▁시간 -490
▁이용 -491
▁씨 -492
▁일반 -493
▁존재 -494
▁작품 -495
▁향 -496
▁G -497
▁정도 -498
▁게임 -499
▁걸 -500
▁주장 -501
▁폭 -502
▁운동 -503
▁밀 -504
▁볼 -505
▁쿠 -506
▁급 -507
▁역사 -508
▁티 -509
▁gt -510
▁관계 -511
▁앞 -512
▁즉 -513
▁곳 -514
▁섬 -515
▁N -516
▁교육 -517
▁려 -518
니아 -519
▁음악 -520
▁인구 -521
▁효 -522
▁195 -523
on -524
▁나타 -525
▁km -526
▁거나 -527
▁접 -528
▁중심 -529
▁lt -530
▁이러 -531
리스 -532
▁육 -533
▁맡 -534
▁극 -535
▁귀 -536
▁U -537
▁새로 -538
▁맞 -539
▁30 -540
▁R -541
▁터 -542
▁경제 -543
▁했으며 -544
▁절 -545
▁선거 -546
부분 -547
통령 -548
▁질 -549
▁블 -550
▁발견 -551
▁전투 -552
▁담 -553
이스 -554
▁민주 -555
▁H -556
▁글 -557
▁봉 -558
▁발표 -559
▁올림 -560
▁측 -561
▁갖 -562
화국 -563
▁누 -564
▁홍 -565
▁슈 -566
▁기술 -567
▁막 -568
▁E -569
▁줄 -570
▁도록 -571
▁시키 -572
▁암 -573
▁잘 -574
▁아들 -575
▁책 -576
▁우승 -577
▁로부터 -578
▁들어 -579
▁공격 -580
▁헤 -581
▁대통령 -582
▁2010 -583
▁대부분 -584
▁커 -585
▁영향 -586
▁사망 -587
▁결과 -588
▁올림픽 -589
an -590
▁갈 -591
▁밝 -592
▁앨 -593
000 -594
▁송 -595
▁라이 -596
▁지원 -597
▁프로그 -598
▁과정 -599
▁잡 -600
리카 -601
▁탄 -602
▁발생 -603
▁193 -604
▁의미 -605
▁관련 -606
▁머 -607
▁참여 -608
▁유럽 -609
▁중앙 -610
▁업 -611
▁센 -612
▁진행 -613
▁최초 -614
▁얻 -615
▁c -616
▁범 -617
란드 -618
20 -619
▁25 -620
지만 -621
▁부분 -622
▁특히 -623
▁자유 -624
▁독립 -625
▁고등 -626
▁결정 -627
▁난 -628
▁제국 -629
▁됐 -630
▁구조 -631
▁태어 -632
▁다양 -633
▁탈 -634
▁어서 -635
▁설립 -636
버지 -637
▁상태 -638
나라 -639
▁설치 -640
▁W -641
▁악 -642
▁형태 -643
▁폐 -644
▁발매 -645
▁초등 -646
▁일어 -647
▁좌 -648
▁소속 -649
▁같이 -650
▁사실 -651
▁하지만 -652
▁러시아 -653
▁2008 -654
▁침 -655
▁이전 -656
▁그녀 -657
▁새로운 -658
▁21 -659
우스 -660
▁스타 -661
▁좋 -662
▁인해 -663
▁르 -664
▁로마 -665
디오 -666
▁생각 -667
▁으로서 -668
▁나라 -669
▁여성 -670
▁폴 -671
▁팔 -672
▁인민 -673
▁프로그램 -674
▁주로 -675
▁필요 -676
▁타이 -677
▁벌 -678
▁이것 -679
▁2011 -680
▁2012 -681
▁혼 -682
▁출신 -683
▁싱 -684
▁참가 -685
▁조직 -686
▁이탈 -687
▁관리 -688
▁100 -689
▁기준 -690
어진 -691
▁생산 -692
▁중요 -693
므로 -694
▁운영 -695
▁위원회 -696
▁윤 -697
▁란 -698
▁계획 -699
▁2009 -700
en -701
▁여자 -702
▁기관 -703
▁2007 -704
▁2014 -705
▁상대 -706
▁행정 -707
▁t -708
▁등장 -709
▁성공 -710
▁계속 -711
▁정보 -712
▁음반 -713
▁바이 -714
▁국민 -715
▁매우 -716
▁지정 -717
▁데이 -718
▁콘 -719
▁a -720
▁해서 -721
▁헌 -722
▁넘 -723
▁빌 -724
▁데뷔 -725
▁해당 -726
▁2013 -727
▁O -728
▁뿐 -729
he -730
▁레이 -731
▁과학 -732
▁고려 -733
▁발전 -734
▁아버지 -735
▁철도 -736
▁칼 -737
▁대전 -738
▁몇 -739
스터 -740
▁이탈리아 -741
리즈 -742
▁주요 -743
▁자리 -744
▁따르 -745
르크 -746
▁사업 -747
프트 -748
▁엘 -749
▁찾 -750
▁191 -751
▁시스 -752
▁묘 -753
▁억 -754
▁24 -755
▁23 -756
▁쇼 -757
▁방법 -758
▁처럼 -759
▁차지 -760
▁000 -761
▁2015 -762
▁보이 -763
▁2018 -764
ar -765
▁이어 -766
남도 -767
▁앨범 -768
▁능 -769
▁월드 -770
라마 -771
▁돌아 -772
▁최고 -773
▁2016 -774
레스 -775
▁결국 -776
▁그룹 -777
▁후보 -778
▁인도 -779
▁마이 -780
▁출연 -781
▁아래 -782
▁생활 -783
▁시리즈 -784
▁전체 -785
이션 -786
▁J -787
▁22 -788
es -789
▁한편 -790
▁둘 -791
▁이유 -792
▁고등학교 -793
▁내용 -794
▁떨 -795
▁회사 -796
▁졌 -797
▁우리 -798
▁그리스 -799
▁격 -800
▁2006 -801
이트 -802
▁얼 -803
FA -804
▁퍼 -805
▁192 -806
비아 -807
▁였으나 -808
▁풍 -809
▁인간 -810
▁힘 -811
▁층 -812
▁제공 -813
▁연합 -814
운데 -815
▁방식 -816
▁못하 -817
▁스페 -818
▁의원 -819
▁많이 -820
▁빠 -821
▁공식 -822
▁2017 -823
▁인터 -824
▁떠 -825
▁시기 -826
▁항공 -827
▁역할 -828
▁잠 -829
▁컴 -830
▁몸 -831
▁군사 -832
▁조사 -833
▁가운데 -834
▁시스템 -835
한다 -836
▁초기 -837
▁워 -838
▁드라마 -839
▁기업 -840
▁거의 -841
▁출전 -842
▁반대 -843
▁제도 -844
▁유명 -845
▁민족 -846
▁으로써 -847
▁먼 -848
▁s -849
▁교회 -850
▁지구 -851
▁색 -852
▁수상 -853
▁대신 -854
▁평가 -855
▁텔 -856
▁유지 -857
▁해야 -858
▁표현 -859
▁울 -860
▁느 -861
비스 -862
인다 -863
▁으로부터 -864
▁동시 -865
▁분류 -866
▁홈 -867
▁26 -868
▁대상 -869
▁특별 -870
▁현대 -871
▁이르 -872
▁기능 -873
▁! -874
▁녹 -875
▁웨 -876
▁졸 -877
▁모습 -878
▁이미 -879
▁규모 -880
▁몰 -881
▁따라서 -882
▁류 -883
▁공개 -884
▁언어 -885
▁마지 -886
▁프리 -887
▁자연 -888
▁응 -889
▁승리 -890
▁노동 -891
at -892
▁열린 -893
▁28 -894
▁개인 -895
야기 -896
▁놓 -897
▁각각 -898
▁이론 -899
▁연결 -900
▁27 -901
▁인정 -902
▁밖 -903
▁여기 -904
▁푸 -905
▁진출 -906
▁붙 -907
▁2019 -908
▁지도 -909
▁단체 -910
▁칸 -911
▁시켰 -912
▁브라 -913
▁마지막 -914
▁임명 -915
▁긴 -916
▁가진 -917
▁시장 -918
▁핵 -919
▁상황 -920
북도 -921
▁V -922
▁목적 -923
▁2005 -924
▁가리 -925
▁정책 -926
▁2000 -927
▁수도 -928
▁밴 -929
머니 -930
▁시절 -931
▁눈 -932
▁전문 -933
▁아르 -934
▁샤 -935
▁기간 -936
▁정의 -937
▁왔 -938
▁알려져 -939
▁희 -940
▁직접 -941
▁경상 -942
▁산업 -943
▁습 -944
▁족 -945
▁이야기 -946
▁목록 -947
▁서로 -948
▁뛰 -949
▁먹 -950
니다 -951
ic -952
▁계약 -953
▁했으나 -954
▁압 -955
al -956
▁빈 -957
▁혁 -958
▁슬 -959
▁불리 -960
▁야구 -961
스크 -962
▁오스트 -963
▁추가 -964
▁기원 -965
▁모델 -966
▁공동 -967
▁건설 -968
BS -969
▁2004 -970
▁콜 -971
▁개최 -972
▁경찰 -973
▁FC -974
▁플레이 -975
▁형성 -976
▁망 -977
▁공간 -978
▁건물 -979
▁50 -980
▁벨 -981
▁활약 -982
▁자동 -983
▁관한 -984
▁보여 -985
▁결혼 -986
▁부산 -987
▁변화 -988
▁훈 -989
▁31 -990
▁스페인 -991
▁29 -992
▁노래 -993
▁그것 -994
▁태어났 -995
▁너 -996
학자 -997
▁으면 -998
▁거리 -999
▁사상 -1000
▁교수 -1001
▁변경 -1002
▁졸업 -1003
▁의하 -1004
▁나이 -1005
▁국회 -1006
▁인물 -1007
▁b -1008
▁완전 -1009
▁TV -1010
▁마을 -1011
▁궁 -1012
is -1013
re -1014
▁공화국 -1015
it -1016
▁부르 -1017
▁텔레 -1018
▁비롯 -1019
▁역시 -1020
▁사랑 -1021
▁낮 -1022
▁190 -1023
▁노선 -1024
▁휴 -1025
▁인민공 -1026
▁인민공화국 -1027
이드 -1028
비전 -1029
▁실제 -1030
▁학생 -1031
▁2020 -1032
▁맥 -1033
ou -1034
▁최대 -1035
▁보통 -1036
▁중학교 -1037
▁요구 -1038
▁지금 -1039
▁겠 -1040
▁견 -1041
대로 -1042
▁서비스 -1043
▁잉 -1044
▁딸 -1045
▁보호 -1046
▁탑 -1047
▁전국 -1048
▁일으 -1049
▁지지 -1050
▁속하 -1051
프리카 -1052
▁소설 -1053
▁거쳐 -1054
▁우주 -1055
▁의회 -1056
▁중화 -1057
른다 -1058
▁없이 -1059
▁겸 -1060
▁실시 -1061
▁자기 -1062
▁메이 -1063
▁기본 -1064
▁판매 -1065
르트 -1066
▁혹 -1067
▁비판 -1068
▁론 -1069
운드 -1070
▁지하 -1071
▁황제 -1072
▁다이 -1073
▁옥 -1074
▁가수 -1075
▁전통 -1076
역시 -1077
▁한다는 -1078
▁싱글 -1079
▁달리 -1080
▁엄 -1081
▁어떤 -1082
▁밴드 -1083
▁원래 -1084
▁기반 -1085
▁퇴 -1086
▁싸 -1087
▁만든 -1088
▁세력 -1089
▁종교 -1090
▁차이 -1091
▁그래 -1092
▁위하 -1093
▁2002 -1094
▁지나 -1095
▁경기도 -1096
▁못했 -1097
▁탐 -1098
▁40 -1099
로스 -1100
▁소련 -1101
▁자료 -1102
스탄 -1103
▁환경 -1104
▁수행 -1105
▁기타 -1106
▁아닌 -1107
▁2003 -1108
▁회의 -1109
▁전기 -1110
▁모양 -1111
▁센터 -1112
▁월드컵 -1113
▁부대 -1114
린다 -1115
▁공연 -1116
▁시설 -1117
▁흐 -1118
▁특징 -1119
▁운행 -1120
▁전자 -1121
어져 -1122
러스 -1123
▁나오 -1124
▁앤 -1125
▁뮤 -1126
▁도쿄 -1127
▁설명 -1128
▁통합 -1129
▁이동 -1130
▁컵 -1131
▁교황 -1132
▁기념 -1133
▁예술 -1134
▁기독 -1135
▁분야 -1136
나다 -1137
▁득 -1138
▁작업 -1139
▁승강 -1140
▁명칭 -1141
▁대해서 -1142
le -1143
▁행동 -1144
▁풀 -1145
▁도로 -1146
▁남자 -1147
mp -1148
▁도입 -1149
▁염 -1150
▁동물 -1151
▁텔레비전 -1152
▁연방 -1153
▁선정 -1154
▁의한 -1155
▁십 -1156
▁바로 -1157
▁구역 -1158
▁군대 -1159
▁숙 -1160
▁능력 -1161
▁전라 -1162
▁출시 -1163
▁애니 -1164
▁증가 -1165
▁가족 -1166
스타 -1167
▁작용 -1168
어지 -1169
▁확인 -1170
▁기존 -1171
▁넓 -1172
▁방향 -1173
▁남쪽 -1174
▁행위 -1175
▁나가 -1176
▁소프트 -1177
▁지휘 -1178
▁북쪽 -1179
너지 -1180
▁제외 -1181
▁이때 -1182
▁교통 -1183
▁이끌 -1184
▁문학 -1185
▁피해 -1186
▁기독교 -1187
▁차량 -1188
▁옮 -1189
진다 -1190
▁착 -1191
▁므로 -1192
▁작가 -1193
▁사고 -1194
▁국내 -1195
▁형식 -1196
▁= -1197
▁비슷 -1198
의원 -1199
▁혁명 -1200
▁어머니 -1201
▁클럽 -1202
▁윌 -1203
▁작곡 -1204
킨다 -1205
▁효과 -1206
▁지배 -1207
▁낙 -1208
▁마다 -1209
▁런 -1210
▁몽 -1211
▁과거 -1212
▁태양 -1213
▁왕국 -1214
▁컴퓨 -1215
▁역임 -1216
▁유일 -1217
▁챔 -1218
▁한다고 -1219
▁갑 -1220
▁캐나다 -1221
▁FI -1222
▁승강장 -1223
▁사무 -1224
▁열차 -1225
▁이적 -1226
BC -1227
▁보내 -1228
▁혹은 -1229
▁높이 -1230
▁협회 -1231
리오 -1232
▁비교 -1233
▁남부 -1234
▁흥 -1235
▁정당 -1236
▁공산 -1237
▁잔 -1238
▁추정 -1239
▁솔 -1240
▁뉴욕 -1241
▁적용 -1242
▁흔 -1243
▁담당 -1244
▁시민 -1245
자리 -1246
▁이사 -1247
▁동일 -1248
▁획 -1249
▁주변 -1250
▁육군 -1251
▁베이 -1252
▁인기 -1253
▁돈 -1254
▁장관 -1255
▁홀 -1256
▁1990 -1257
▁대사 -1258
▁시켜 -1259
▁2001 -1260
▁즈 -1261
▁챔피 -1262
▁동쪽 -1263
▁스포 -1264
▁스트 -1265
▁쪽 -1266
▁맨 -1267
▁어린 -1268
▁세포 -1269
▁곧 -1270
▁X -1271
▁상당 -1272
▁성장 -1273
▁윈 -1274
▁마음 -1275
▁예정 -1276
▁건축 -1277
▁징 -1278
▁개념 -1279
▁사단 -1280
▁공사 -1281
▁덴 -1282
▁오늘 -1283
▁컴퓨터 -1284
▁데이터 -1285
▁p -1286
▁구간 -1287
▁움 -1288
▁품 -1289
▁차례 -1290
▁조지 -1291
▁대하 -1292
▁크기 -1293
▁에너지 -1294
▁멤 -1295
▁가까 -1296
▁흑 -1297
▁마르 -1298
▁넣 -1299
▁189 -1300
▁서쪽 -1301
▁버스 -1302
▁액 -1303
이지 -1304
▁어느 -1305
▁자체 -1306
▁실패 -1307
▁땅 -1308
▁충청 -1309
▁록 -1310
▁조건 -1311
▁작전 -1312
▁칭 -1313
▁민주주의 -1314
▁연기 -1315
▁다르 -1316
▁물리 -1317
▁디자 -1318
▁올라 -1319
▁이런 -1320
▁율 -1321
▁늘 -1322
▁반응 -1323
▁덕 -1324
▁선언 -1325
▁컨 -1326
▁연주 -1327
▁FIFA -1328
▁부족 -1329
▁연속 -1330
▁특정 -1331
▁종류 -1332
▁버전 -1333
▁선택 -1334
▁d -1335
▁페르 -1336
드리 -1337
▁익 -1338
▁규정 -1339
▁대체 -1340
메이션 -1341
▁국립 -1342
▁쌍 -1343
▁수록 -1344
▁방영 -1345
카이 -1346
▁곤 -1347
▁대구 -1348
el -1349
▁해군 -1350
▁위해서 -1351
▁내부 -1352
가지 -1353
▁체제 -1354
▁고대 -1355
▁멤버 -1356
루스 -1357
▁공항 -1358
▁속도 -1359
et -1360
▁정신 -1361
▁결승 -1362
▁조약 -1363
버스 -1364
▁이라 -1365
▁지냈 -1366
▁밝혔 -1367
▁아시아 -1368
▁명령 -1369
▁북부 -1370
▁기원전 -1371
▁왜 -1372
▁는지 -1373
▁인지 -1374
▁연대 -1375
▁헌법 -1376
글랜드 -1377
▁벤 -1378
▁선출 -1379
▁인천 -1380
▁크리스 -1381
▁개혁 -1382
거리 -1383
▁단계 -1384
▁링 -1385
▁몬 -1386
▁가치 -1387
▁애니메이션 -1388
▁찬 -1389
▁옛 -1390
▁포르 -1391
▁걸쳐 -1392
▁친구 -1393
▁최종 -1394
▁물질 -1395
ion -1396
▁보인다 -1397
▁분석 -1398
▁영어 -1399
▁달러 -1400
▁자치 -1401
웨어 -1402
▁최근 -1403
▁일어나 -1404
ing -1405
▁더욱 -1406
▁팬 -1407
▁밤 -1408
▁의사 -1409
▁설계 -1410
트남 -1411
▁강화 -1412
▁척 -1413
▁평균 -1414
▁소비 -1415
▁출판 -1416
▁핀 -1417
▁비행 -1418
시마 -1419
▁체계 -1420
▁휘 -1421
▁지명 -1422
▁1999 -1423
▁널 -1424
▁로스 -1425
난다 -1426
▁법원 -1427
▁북한 -1428
▁집단 -1429
▁술 -1430
▁관심 -1431
▁배치 -1432
ol -1433
라스 -1434
▁내려 -1435
▁언급 -1436
▁엔진 -1437
▁잉글랜드 -1438
▁개월 -1439
▁겨 -1440
▁머리 -1441
▁1998 -1442
▁부문 -1443
메리카 -1444
▁표준 -1445
▁치료 -1446
▁Y -1447
▁쥐 -1448
▁획득 -1449
▁씩 -1450
▁현상 -1451
렇게 -1452
▁하이 -1453
▁cm -1454
21 -1455
▁조정 -1456
▁헬 -1457
▁o -1458
▁당하 -1459
▁지속 -1460
▁부상 -1461
▁실험 -1462
▁분리 -1463
▁맺 -1464
▁선발 -1465
▁1980 -1466
▁유사 -1467
▁60 -1468
▁파리 -1469
▁대중 -1470
▁처리 -1471
▁챔피언 -1472
▁스테 -1473
▁함수 -1474
▁하계 -1475
▁확장 -1476
▁스포츠 -1477
▁공원 -1478
▁어야 -1479
▁어려 -1480
스코 -1481
▁마리 -1482
▁소유 -1483
▁목표 -1484
▁베르 -1485
▁이해 -1486
▁제품 -1487
▁35 -1488
▁통일 -1489
▁시도 -1490
▁칠 -1491
▁고자 -1492
▁도움 -1493
▁장군 -1494
▁자동차 -1495
리지 -1496
▁관할 -1497
▁입단 -1498
▁요소 -1499
▁뛰어 -1500
▁재판 -1501
▁공립 -1502
아들 -1503
▁후반 -1504
▁주도 -1505
디어 -1506
▁점령 -1507
▁외국 -1508
▁정규 -1509
▁문자 -1510
▁mm -1511
▁에스 -1512
▁꽃 -1513
▁요시 -1514
▁거주 -1515
▁려고 -1516
▁구단 -1517
▁나무 -1518
▁들어가 -1519
▁주인 -1520
▁가문 -1521
▁기사 -1522
▁편성 -1523
▁주민 -1524
▁잃 -1525
▁앙 -1526
▁원자 -1527
▁시험 -1528
▁책임 -1529
▁다면 -1530
▁네덜 -1531
▁네덜란드 -1532
▁학자 -1533
▁행사 -1534
▁안정 -1535
▁통신 -1536
▁괴 -1537
▁n -1538
▁동맹 -1539
▁수준 -1540
▁투표 -1541
▁결합 -1542
▁사령 -1543
광역시 -1544
▁파이 -1545
▁혈 -1546
▁언론 -1547
▁불구 -1548
▁일종 -1549
▁깊 -1550
▁알렉 -1551
▁웹 -1552
▁고속 -1553
▁장치 -1554
▁불교 -1555
▁듯 -1556
▁예선 -1557
▁제한 -1558
▁디자인 -1559
om -1560
▁준비 -1561
▁길이 -1562
▁아프리카 -1563
나무 -1564
▁개봉 -1565
▁나타나 -1566
▁1997 -1567
야마 -1568
젝트 -1569
▁베트남 -1570
▁빛 -1571
▁촉 -1572
▁방문 -1573
▁문서 -1574
▁본선 -1575
▁인데 -1576
▁광주 -1577
▁통치 -1578
▁만나 -1579
▁사진 -1580
▁비해 -1581
▁갔 -1582
▁캠 -1583
일랜드 -1584
▁정권 -1585
▁신문 -1586
▁바르 -1587
▁믿 -1588
▁경험 -1589
▁드러 -1590
▁가정 -1591
▁정확 -1592
▁유전 -1593
▁성적 -1594
▁대로 -1595
▁구분 -1596
▁제조 -1597
메달 -1598
st -1599
▁그림 -1600
▁올랐 -1601
▁The -1602
▁1996 -1603
▁폴란드 -1604
▁요리 -1605
▁평화 -1606
▁끌 -1607
▁1995 -1608
▁비디오 -1609
▁거두 -1610
▁오늘날 -1611
▁원인 -1612
▁amp -1613
▁통과 -1614
▁부인 -1615
▁려는 -1616
▁그런 -1617
▁왕조 -1618
▁아직 -1619
▁부여 -1620
▁용어 -1621
▁일제 -1622
▁추진 -1623
▁알려진 -1624
▁32 -1625
▁정리 -1626
▁70 -1627
스로 -1628
▁쉽 -1629
▁값 -1630
▁아마 -1631
▁런던 -1632
▁프로젝트 -1633
▁입장 -1634
▁종합 -1635
특별 -1636
▁신라 -1637
▁이곳 -1638
▁멀 -1639
▁병원 -1640
▁해석 -1641
▁쓴 -1642
▁멸 -1643
▁경영 -1644
▁은퇴 -1645
스턴 -1646
▁경쟁 -1647
▁프레 -1648
▁발달 -1649
▁방어 -1650
▁영역 -1651
▁노력 -1652
▁슈퍼 -1653
인트 -1654
▁500 -1655
▁이듬 -1656
▁폐지 -1657
▁인터넷 -1658
▁훈련 -1659
▁널리 -1660
▁민주당 -1661
▁사라 -1662
▁보도 -1663
▁파괴 -1664
▁오르 -1665
▁츠 -1666
▁제안 -1667
▁제주 -1668
▁주제 -1669
▁미사 -1670
웨이 -1671
▁총리 -1672
▁부정 -1673
▁놀 -1674
▁회장 -1675
▁the -1676
▁완전히 -1677
▁80 -1678
am -1679
레일 -1680
▁면적 -1681
▁세워 -1682
▁기여 -1683
▁미술 -1684
▁주연 -1685
▁요청 -1686
▁꼬 -1687
▁서부 -1688
▁이듬해 -1689
▁델 -1690
▁가르 -1691
▁정상 -1692
▁만화 -1693
리트 -1694
▁유래 -1695
▁번호 -1696
▁나온 -1697
▁빅 -1698
▁188 -1699
▁국회의원 -1700
▁경기장 -1701
▁남성 -1702
▁투수 -1703
▁도서 -1704
▁자주 -1705
▁여겨 -1706
▁식민 -1707
▁야마 -1708
▁생물 -1709
▁법률 -1710
라인 -1711
▁연맹 -1712
▁UE -1713
▁아서 -1714
▁경계 -1715
▁궤 -1716
▁동부 -1717
▁+ -1718
▁움직 -1719
▁무기 -1720
▁폰 -1721
▁1994 -1722
▁펼 -1723
▁1970 -1724
▁금지 -1725
▁잇 -1726
il -1727
▁인식 -1728
▁수용 -1729
▁행성 -1730
▁UEFA -1731
▁소재 -1732
▁깨 -1733
▁등록 -1734
▁더불 -1735
▁철학 -1736
▁삼성 -1737
▁무대 -1738
톨릭 -1739
▁끼 -1740
▁바탕 -1741
▁외교 -1742
▁연구소 -1743
▁전해 -1744
▁영토 -1745
머지 -1746
ac -1747
▁나머지 -1748
▁스스로 -1749
▁반면 -1750
▁접근 -1751
▁라디오 -1752
▁든 -1753
▁받아들 -1754
▁지대 -1755
▁아시 -1756
▁거부 -1757
▁업무 -1758
▁조각 -1759
▁지진 -1760
▁강원 -1761
▁KBS -1762
▁뇌 -1763
▁발사 -1764
▁노르 -1765
▁박물 -1766
▁뉴스 -1767
▁오른 -1768
▁마찬 -1769
▁마찬가지 -1770
▁오래 -1771
▁정식 -1772
▁벽 -1773
▁지난 -1774
▁표기 -1775
▁당했 -1776
▁상호 -1777
▁오스 -1778
▁아일랜드 -1779
▁결성 -1780
▁논란 -1781
▁보수 -1782
▁은행 -1783
▁의식 -1784
▁득점 -1785
▁서식 -1786
▁찾아 -1787
▁필리 -1788
▁다수 -1789
▁펜 -1790
▁기초 -1791
▁1992 -1792
▁복귀 -1793
▁짧 -1794
▁소리 -1795
▁성격 -1796
▁45 -1797
▁공작 -1798
▁주의 -1799
▁가톨릭 -1800
▁박사 -1801
요일 -1802
▁다리 -1803
▁트리 -1804
임스 -1805
▁아카 -1806
▁임시 -1807
▁패배 -1808
▁바다 -1809
▁스웨 -1810
▁해결 -1811
▁로써 -1812
ro -1813
▁수학 -1814
▁돼 -1815
시코 -1816
▁실제로 -1817
▁그대로 -1818
▁총선 -1819
▁장애 -1820
▁36 -1821
▁습니다 -1822
모토 -1823
▁검사 -1824
워드 -1825
▁밝혀 -1826
▁케이 -1827
▁윌리 -1828
▁of -1829
▁장소 -1830
▁지도자 -1831
ed -1832
▁파일 -1833
▁초대 -1834
▁둔 -1835
▁강력 -1836
▁유로 -1837
▁브라질 -1838
▁바뀌 -1839
▁이스 -1840
▁여행 -1841
▁마이크 -1842
▁제시 -1843
▁스위 -1844
▁박물관 -1845
▁린 -1846
▁차원 -1847
▁표시 -1848
▁묘사 -1849
▁여름 -1850
▁단순 -1851
▁오브 -1852
▁기구 -1853
▁차트 -1854
▁인사 -1855
▁식물 -1856
▁화학 -1857
▁카드 -1858
▁이외 -1859
▁안전 -1860
▁1960 -1861
▁계열 -1862
ig -1863
▁집합 -1864
▁관측 -1865
▁권력 -1866
▁그린 -1867
▁유니 -1868
▁활용 -1869
▁무역 -1870
▁에이 -1871
▁연극 -1872
▁쓰이 -1873
▁1991 -1874
▁먼저 -1875
토리 -1876
▁지적 -1877
▁스웨덴 -1878
로나 -1879
▁아무 -1880
▁멕 -1881
▁오스트리아 -1882
▁기계 -1883
▁회원 -1884
▁가져 -1885
▁디지 -1886
▁셀 -1887
▁캐릭 -1888
▁히로 -1889
▁개국 -1890
▁조성 -1891
▁형제 -1892
부르크 -1893
▁근처 -1894
▁위험 -1895
▁1993 -1896
▁반란 -1897
▁33 -1898
▁만큼 -1899
▁중단 -1900
트리 -1901
레일리아 -1902
▁중간 -1903
▁붕 -1904
▁세대 -1905
▁일정 -1906
▁흡 -1907
▁도착 -1908
▁시행 -1909
▁소프트웨어 -1910
▁발행 -1911
▁굴 -1912
▁기자 -1913
▁분포 -1914
낸다 -1915
▁협력 -1916
베이 -1917
▁다만 -1918
▁쉬 -1919
배우 -1920
▁스코 -1921
▁량 -1922
▁캘 -1923
▁나타내 -1924
▁스튜 -1925
트로 -1926
버트 -1927
▁사이트 -1928
특별시 -1929
od -1930
▁캐릭터 -1931
▁멜 -1932
▁죽음 -1933
▁여객 -1934
▁하루 -1935
▁서울특별시 -1936
▁죄 -1937
▁세상 -1938
▁", -1939
▁186 -1940
▁단어 -1941
▁꾸 -1942
▁통하 -1943
▁해안 -1944
사카 -1945
▁렌 -1946
▁파견 -1947
▁투자 -1948
ve -1949
▁수많 -1950
▁연장 -1951
▁지하철 -1952
주시 -1953
▁떠나 -1954
▁윈도 -1955
▁삶 -1956
▁겪 -1957
▁혜 -1958
니스 -1959
▁제기 -1960
워크 -1961
▁공장 -1962
▁혐 -1963
▁순위 -1964
▁카이 -1965
▁확대 -1966
▁뮤직 -1967
▁감소 -1968
as -1969
▁코드 -1970
▁근거 -1971
▁태평 -1972
나이 -1973
▁본부 -1974
소년 -1975
▁내각 -1976
▁다카 -1977
▁전시 -1978
▁옹 -1979
▁오스트레일리아 -1980
▁후기 -1981
▁위기 -1982
▁번역 -1983
지션 -1984
▁생성 -1985
▁경상남도 -1986
▁지식 -1987
▁? -1988
▁윌리엄 -1989
▁귀족 -1990
▁경상북도 -1991
▁지상 -1992
▁보유 -1993
▁균 -1994
▁달성 -1995
▁네트 -1996
▁양식 -1997
간다 -1998
▁바꾸 -1999
▁보존 -2000
▁유형 -2001
▁숨 -2002
무원 -2003
▁상징 -2004
▁1988 -2005
▁동생 -2006
▁세웠 -2007
▁유대 -2008
▁수사 -2009
▁촬 -2010
▁관광 -2011
▁전략 -2012
▁떨어진 -2013
▁h -2014
▁래 -2015
▁187 -2016
▁완성 -2017
▁춘 -2018
▁멕시코 -2019
▁유리 -2020
▁극장 -2021
▁당선 -2022
▁성립 -2023
▁보였 -2024
▁상업 -2025
▁이렇게 -2026
▁촌 -2027
▁대응 -2028
▁영상 -2029
▁학위 -2030
▁원소 -2031
▁님 -2032
▁근무 -2033
▁디지털 -2034
▁특수 -2035
▁촬영 -2036
▁단위 -2037
▁체포 -2038
▁계승 -2039
티아 -2040
▁34 -2041
▁그렇 -2042
▁수비 -2043
▁이슬 -2044
▁미래 -2045
▁올리 -2046
▁옆 -2047
▁따른 -2048
▁권리 -2049
▁나중 -2050
▁체결 -2051
▁전달 -2052
▁38 -2053
▁이루어진 -2054
▁코치 -2055
▁몇몇 -2056
▁식민지 -2057
▁생명 -2058
▁이집 -2059
▁판단 -2060
가리 -2061
회사 -2062
▁이집트 -2063
▁마사 -2064
id -2065
어졌 -2066
▁듀 -2067
▁90 -2068
▁자본 -2069
▁타이틀 -2070
▁알렉산 -2071
▁으므로 -2072
▁시티 -2073
▁맹 -2074
아시아 -2075
▁싶 -2076
▁아내 -2077
▁이란 -2078
▁이라고 -2079
▁국왕 -2080
▁직후 -2081
▁관찰 -2082
▁종목 -2083
▁헨 -2084
▁이주 -2085
가와 -2086
▁률 -2087
▁크로 -2088
▁측정 -2089
▁시청 -2090
▁승격 -2091
▁젊 -2092
▁1989 -2093
▁즐 -2094
▁대륙 -2095
▁주식 -2096
▁미군 -2097
▁톤 -2098
▁전환 -2099
▁소수 -2100
모리 -2101
▁낳 -2102
▁다루 -2103
▁설정 -2104
▁개통 -2105
▁라인 -2106
▁밑 -2107
▁컬 -2108
▁얼마 -2109
▁48 -2110
▁도서관 -2111
▁의견 -2112
ec -2113
▁채널 -2114
▁2021 -2115
▁세르 -2116
▁엘리 -2117
▁동계 -2118
▁특성 -2119
▁', -2120
us -2121
▁스키 -2122
▁납 -2123
NA -2124
▁시위 -2125
▁홍콩 -2126
▁발매되 -2127
▁개정 -2128
▁정치인 -2129
▁지위 -2130
▁문화재 -2131
▁종료 -2132
▁부른다 -2133
and -2134
▁신경 -2135
▁져 -2136
▁취임 -2137
▁포르투 -2138
▁셰 -2139
▁텍 -2140
▁제정 -2141
▁기획 -2142
▁| -2143
▁미사일 -2144
▁1950 -2145
▁쌓 -2146
▁교체 -2147
▁빨 -2148
▁헝 -2149
▁300 -2150
▁예수 -2151
▁사회주의 -2152
▁은하 -2153
▁주인공 -2154
디아 -2155
▁가리킨다 -2156
▁MBC -2157
▁결승전 -2158
스티 -2159
▁천황 -2160
▁주목 -2161
▁후쿠 -2162
▁청년 -2163
▁본관 -2164
▁범죄 -2165
▁벗 -2166
▁못한 -2167
▁강한 -2168
▁장기 -2169
▁충돌 -2170
코드 -2171
▁소개 -2172
▁해외 -2173
▁이래 -2174
▁전차 -2175
▁찰 -2176
▁개선 -2177
▁출생 -2178
▁제임스 -2179
ad -2180
▁수정 -2181
▁비용 -2182
▁녹음 -2183
▁계산 -2184
▁아키 -2185
▁e -2186
전히 -2187
교회 -2188
라도 -2189
▁남북 -2190
▁스티 -2191
러운 -2192
▁본래 -2193
▁전라남도 -2194
▁계기 -2195
▁음식 -2196
▁1945 -2197
▁보냈 -2198
▁즉위 -2199
▁바이러스 -2200
▁비밀 -2201
▁자격 -2202
▁공급 -2203
▁공부 -2204
▁합류 -2205
리학 -2206
▁건강 -2207
▁만드 -2208
▁물론 -2209
▁소장 -2210
▁부모 -2211
▁옮겨 -2212
▁카운 -2213
▁홈런 -2214
▁원정 -2215
▁배경 -2216
ent -2217
▁펠 -2218
▁제거 -2219
▁오후 -2220
스카 -2221
▁으면서 -2222
▁네트워크 -2223
▁각종 -2224
▁신학 -2225
▁체육 -2226
▁집중 -2227
▁궤도 -2228
▁에드 -2229
▁거대 -2230
50 -2231
▁가격 -2232
▁듣 -2233
▁인근 -2234
▁시내 -2235
▁자원 -2236
▁랑 -2237
▁작성 -2238
▁명예 -2239
▁왼 -2240
▁가입 -2241
▁읽 -2242
▁객 -2243
▁감염 -2244
▁입학 -2245
▁공군 -2246
▁국경 -2247
▁강조 -2248
▁피아 -2249
▁군인 -2250
▁롤 -2251
▁병력 -2252
▁준다 -2253
▁베네 -2254
▁전사 -2255
▁가리키 -2256
▁썼 -2257
베르 -2258
▁저항 -2259
▁나누 -2260
▁측면 -2261
▁통제 -2262
▁천문 -2263
▁다니 -2264
티나 -2265
▁울산 -2266
▁이슬람 -2267
▁농업 -2268
▁성우 -2269
▁소송 -2270
▁명단 -2271
▁일어난 -2272
▁신호 -2273
▁인수 -2274
▁이번 -2275
니어 -2276
피아 -2277
▁포지션 -2278
▁샌 -2279
▁만약 -2280
▁학문 -2281
▁너무 -2282
▁병사 -2283
▁기회 -2284
▁세이 -2285
▁가까운 -2286
▁기후 -2287
▁마치 -2288
▁지내 -2289
어나 -2290
▁실행 -2291
▁블랙 -2292
리포 -2293
▁아우 -2294
▁질량 -2295
▁플로 -2296
▁St -2297
▁이루어져 -2298
▁털 -2299
▁빼 -2300
▁틀 -2301
▁변호 -2302
▁터미 -2303
▁콩 -2304
ot -2305
▁최소 -2306
아가 -2307
▁광고 -2308
▁증명 -2309
▁약간 -2310
▁겨울 -2311
▁태평양 -2312
▁노동자 -2313
▁정착 -2314
▁터키 -2315
도로 -2316
▁강원도 -2317
▁엑 -2318
동안 -2319
▁비트 -2320
▁외부 -2321
▁해방 -2322
▁x -2323
▁무장 -2324
▁미디어 -2325
▁전반 -2326
▁가졌 -2327
▁바람 -2328
▁짓 -2329
▁마리아 -2330
▁잎 -2331
▁둘러 -2332
▁몽골 -2333
▁37 -2334
un -2335
▁환자 -2336
▁나왔 -2337
▁냉 -2338
▁인한 -2339
▁도중 -2340
▁국방 -2341
▁제목 -2342
ow -2343
▁편집 -2344
▁금융 -2345
▁마련 -2346
▁in -2347
▁혐의 -2348
▁마쓰 -2349
▁건너 -2350
▁라운드 -2351
▁허용 -2352
▁무렵 -2353
▁지점 -2354
▁터미널 -2355
▁표면 -2356
▁재산 -2357
▁충분 -2358
스키 -2359
철도 -2360
소리 -2361
▁여전히 -2362
▁가스 -2363
▁밀도 -2364
▁유도 -2365
▁1987 -2366
▁카르 -2367
▁쇠 -2368
▁시킨 -2369
▁힐 -2370
▁고전 -2371
▁그해 -2372
▁현실 -2373
오카 -2374
▁민간 -2375
▁학년 -2376
▁갖추 -2377
▁인디 -2378
▁루이 -2379
▁겐 -2380
▁보고 -2381
▁모리 -2382
▁합병 -2383
▁뒷 -2384
▁전력 -2385
▁흰 -2386
▁헝가리 -2387
▁재정 -2388
▁숲 -2389
▁재직 -2390
▁전역 -2391
▁윈도우 -2392
▁꼬리 -2393
▁양성 -2394
▁오사카 -2395
▁충청남도 -2396
▁킹 -2397
▁적극 -2398
▁41 -2399
▁등급 -2400
▁계급 -2401
▁봄 -2402
▁동료 -2403
▁포르투갈 -2404
▁붕괴 -2405
▁령 -2406
▁인하 -2407
▁조치 -2408
▁영화배우 -2409
▁w -2410
▁강제 -2411
▁위협 -2412
드로 -2413
마크 -2414
▁선수단 -2415
▁51 -2416
▁그려 -2417
▁라이브 -2418
▁대대 -2419
▁공주 -2420
▁공공 -2421
▁짐 -2422
▁근대 -2423
▁1986 -2424
▁엔터 -2425
▁수입 -2426
▁이하 -2427
▁온도 -2428
▁위원장 -2429
▁1984 -2430
▁불러 -2431
▁오리 -2432
▁승인 -2433
ur -2434
▁전선 -2435
▁스튜디오 -2436
▁유엔 -2437
▁군주 -2438
▁구축 -2439
▁답 -2440
▁범위 -2441
▁이미지 -2442
▁점차 -2443
▁캘리포 -2444
▁상하 -2445
▁원칙 -2446
▁전하 -2447
▁꿈 -2448
▁확보 -2449
▁대수 -2450
▁논문 -2451
▁항상 -2452
▁임무 -2453
▁클라 -2454
▁그래서 -2455
▁출발 -2456
▁거래 -2457
▁업체 -2458
▁고구 -2459
▁전개 -2460
▁불린다 -2461
▁공업 -2462
▁미치 -2463
▁둥 -2464
▁회복 -2465
▁경력 -2466
▁교사 -2467
▁다섯 -2468
▁공산당 -2469
▁채택 -2470
▁양자 -2471
▁잭 -2472
▁수단 -2473
▁위성 -2474
▁킬 -2475
▁대학원 -2476
▁증거 -2477
▁수립 -2478
▁캘리포니아 -2479
▁후지 -2480
▁성인 -2481
마스 -2482
▁토론 -2483
▁섭 -2484
▁핀란드 -2485
▁필리핀 -2486
▁강의 -2487
▁잡지 -2488
▁합의 -2489
▁드래 -2490
▁됨 -2491
▁첨 -2492
주교 -2493
테르 -2494
▁얼굴 -2495
▁부근 -2496
▁39 -2497
▁라며 -2498
▁아시안 -2499
▁흘 -2500
ch -2501
▁남아 -2502
▁사례 -2503
▁남편 -2504
▁만족 -2505
▁냈 -2506
▁개편 -2507
바이 -2508
▁400 -2509
▁스파 -2510
▁의료 -2511
▁일원 -2512
▁선생 -2513
▁시인 -2514
▁폭발 -2515
▁매년 -2516
▁기지 -2517
▁나카 -2518
▁욕 -2519
▁이승 -2520
▁끊 -2521
▁장면 -2522
고리 -2523
▁간주 -2524
▁이스라 -2525
▁아라 -2526
▁스위스 -2527
▁군단 -2528
▁대형 -2529
▁1985 -2530
▁장비 -2531
▁아름 -2532
▁모스크 -2533
▁붉 -2534
▁토지 -2535
▁64 -2536
▁경향 -2537
▁아주 -2538
▁종종 -2539
▁불가 -2540
로드 -2541
▁대기 -2542
▁스리 -2543
▁롭 -2544
데미 -2545
▁규칙 -2546
▁띠 -2547
▁이스라엘 -2548
ay -2549
▁분자 -2550
▁경주 -2551
ir -2552
▁수원 -2553
▁버리 -2554
▁라면 -2555
▁기대 -2556
리스트 -2557
▁종이 -2558
▁게이 -2559
▁캄 -2560
▁알리 -2561
▁확실 -2562
키아 -2563
▁기억 -2564
▁열렸 -2565
▁이제 -2566
▁조합 -2567
▁항성 -2568
▁낭 -2569
ut -2570
▁II -2571
▁그곳 -2572
▁불렀 -2573
▁에게서 -2574
▁아랍 -2575
▁진화 -2576
▁튀 -2577
▁일어났 -2578
▁해도 -2579
▁귀국 -2580
▁탑재 -2581
▁해체 -2582
백질 -2583
▁맛 -2584
▁향상 -2585
레이드 -2586
▁좀 -2587
고기 -2588
▁43 -2589
▁대장 -2590
▁레코드 -2591
▁장식 -2592
▁어떻 -2593
우드 -2594
▁세우 -2595
▁서양 -2596
um -2597
▁신화 -2598
▁아나 -2599
▁강점 -2600
▁아카데미 -2601
▁스피 -2602
▁보장 -2603
어들 -2604
▁투어 -2605
▁평양 -2606
▁불과 -2607
▁br -2608
▁가로 -2609
▁침공 -2610
▁클래 -2611
▁융 -2612
▁감정 -2613
▁고양 -2614
▁청나라 -2615
▁아메리카 -2616
▁청소년 -2617
▁선고 -2618
▁의학 -2619
im -2620
▁고구려 -2621
▁42 -2622
▁폼 -2623
▁자금 -2624
▁성과 -2625
▁떨어져 -2626
▁랭 -2627
▁가사 -2628
▁켄 -2629
요시 -2630
보드 -2631
▁남동 -2632
▁박쥐 -2633
▁잠시 -2634
▁사후 -2635
오스 -2636
▁세운 -2637
▁스타일 -2638
▁보병 -2639
▁독자 -2640
▁메이저 -2641
▁우선 -2642
▁카메 -2643
▁카운티 -2644
▁소년 -2645
▁빠르 -2646
▁아야 -2647
▁에피 -2648
▁확정 -2649
네스 -2650
▁이끄 -2651
▁고문 -2652
ver -2653
▁단지 -2654
▁중화민국 -2655
▁살해 -2656
▁신설 -2657
▁만주 -2658
▁55 -2659
▁나치 -2660
라노 -2661
타인 -2662
▁1982 -2663
▁모르 -2664
▁신앙 -2665
▁우수 -2666
▁의해서 -2667
▁숭 -2668
▁갖춘 -2669
▁지시 -2670
일러 -2671
▁단백질 -2672
▁라틴 -2673
에르 -2674
틀랜드 -2675
▁복잡 -2676
▁비율 -2677
▁스카 -2678
▁편입 -2679
▁검찰 -2680
▁태풍 -2681
▁알려졌 -2682
▁차별 -2683
▁스케 -2684
▁함대 -2685
▁예상 -2686
▁나폴 -2687
▁삭 -2688
▁구체 -2689
▁전화 -2690
▁광역시 -2691
▁철도역 -2692
네시아 -2693
▁왕위 -2694
▁대립 -2695
▁의장 -2696
▁44 -2697
누스 -2698
▁마크 -2699
▁뛰어난 -2700
▁LG -2701
▁고향 -2702
▁1983 -2703
▁역대 -2704
▁법인 -2705
▁판결 -2706
▁재단 -2707
▁동의 -2708
▁창설 -2709
▁덴마크 -2710
다이 -2711
▁세종 -2712
▁시킬 -2713
▁i -2714
▁성당 -2715
▁온라인 -2716
▁공유 -2717
트라 -2718
▁나와 -2719
▁수출 -2720
▁냐 -2721
▁쓰인다 -2722
▁나뉘 -2723
▁전설 -2724
▁태어난 -2725
▁참석 -2726
▁보급 -2727
FC -2728
▁솔로 -2729
▁브리 -2730
▁47 -2731
▁반도 -2732
▁하늘 -2733
▁선거구 -2734
▁육상 -2735
▁이루어지 -2736
셔널 -2737
▁삼국 -2738
없이 -2739
하라 -2740
운동 -2741
▁협상 -2742
▁브랜드 -2743
▁올렸 -2744
▁노예 -2745
▁핵심 -2746
싱턴 -2747
▁했었 -2748
▁통한 -2749
▁집행 -2750
▁고정 -2751
▁본격 -2752
▁유학 -2753
룬다 -2754
▁뿌 -2755
의회 -2756
이크 -2757
▁텐 -2758
▁아파 -2759
반도 -2760
비드 -2761
▁후손 -2762
▁저장 -2763
▁카를 -2764
오프 -2765
▁애플 -2766
▁초반 -2767
▁탄생 -2768
▁댄 -2769
▁태어나 -2770
▁보안 -2771
▁75 -2772
▁대비 -2773
▁자세 -2774
▁앞두 -2775
▁사전 -2776
▁중반 -2777
▁산맥 -2778
▁184 -2779
▁Z -2780
▁옷 -2781
▁180 -2782
▁사우 -2783
▁전혀 -2784
▁대항 -2785
▁오픈 -2786
▁강점기 -2787
▁숫 -2788
▁주교 -2789
▁지키 -2790
▁암살 -2791
▁이성 -2792
▁마드리 -2793
▁회전 -2794
▁아르헨 -2795
▁이익 -2796
▁시킨다 -2797
▁권한 -2798
원군 -2799
▁의무 -2800
각형 -2801
▁법칙 -2802
▁연고 -2803
▁1972 -2804
▁로버트 -2805
문화 -2806
▁플랫 -2807
▁헤이 -2808
▁어린이 -2809
▁베이스 -2810
▁마드리드 -2811
▁단일 -2812
▁공기 -2813
▁인상 -2814
▁조금 -2815
▁직원 -2816
▁프란 -2817
▁켈 -2818
▁전용 -2819
▁46 -2820
▁아르헨티나 -2821
▁1920 -2822
▁공학 -2823
▁묻 -2824
소드 -2825
▁순서 -2826
▁베를 -2827
▁말기 -2828
▁바라 -2829
▁운전 -2830
▁에선 -2831
▁시각 -2832
레이션 -2833
터리 -2834
▁잘못 -2835
▁공포 -2836
▁요한 -2837
▁사항 -2838
▁비난 -2839
▁아스 -2840
▁유적 -2841
▁1979 -2842
▁별도 -2843
▁상품 -2844
▁협정 -2845
▁수여 -2846
해졌 -2847
▁중심지 -2848
▁보조 -2849
CA -2850
▁흔히 -2851
▁창조 -2852
▁변호사 -2853
▁아미 -2854
▁물러 -2855
▁전후 -2856
▁덮 -2857
▁스크 -2858
▁워싱턴 -2859
▁전라북도 -2860
▁롯 -2861
▁인권 -2862
▁원주 -2863
▁넘어 -2864
▁글로 -2865
▁관료 -2866
▁효소 -2867
▁장착 -2868
▁kg -2869
정부 -2870
▁투입 -2871
▁소식 -2872
▁오히 -2873
▁통계 -2874
▁CD -2875
▁앞서 -2876
▁저지 -2877
▁작곡가 -2878
▁방면 -2879
▁파크 -2880
▁셋 -2881
▁1930 -2882
▁심각 -2883
퍼드 -2884
ra -2885
▁갈등 -2886
▁레드 -2887
▁현장 -2888
▁본인 -2889
▁우크 -2890
▁훨 -2891
무라 -2892
▁항복 -2893
▁정복 -2894
▁엠 -2895
▁저서 -2896
▁어떻게 -2897
▁150 -2898
▁아침 -2899
▁돌아가 -2900
▁강하 -2901
▁1981 -2902
▁In -2903
▁금메달 -2904
▁중세 -2905
▁1973 -2906
▁하드 -2907
리어 -2908
▁성경 -2909
▁논의 -2910
▁오랜 -2911
▁출마 -2912
▁공무원 -2913
퍼스 -2914
▁호텔 -2915
▁헨리 -2916
▁훨씬 -2917
▁공산주의 -2918
▁교류 -2919
사키 -2920
▁v -2921
▁니콜 -2922
10 -2923
▁마이클 -2924
▁벡 -2925
▁공화 -2926
▁플라 -2927
▁무리 -2928
▁짜 -2929
▁건국 -2930
▁오른쪽 -2931
▁요새 -2932
▁교토 -2933
▁택 -2934
▁인류 -2935
os -2936
▁건조 -2937
▁노스 -2938
▁빙 -2939
▁멘 -2940
▁중부 -2941
▁연합군 -2942
▁유전자 -2943
▁코미 -2944
▁인정받 -2945
▁오토 -2946
▁김정 -2947
▁예산 -2948
▁한때 -2949
▁낸 -2950
▁산하 -2951
▁플레이어 -2952
▁인가 -2953
▁방출 -2954
▁추측 -2955
▁왼쪽 -2956
▁세인트 -2957
▁로드 -2958
▁금속 -2959
▁서기 -2960
▁사태 -2961
▁성질 -2962
▁투쟁 -2963
▁찍 -2964
▁주위 -2965
▁라도 -2966
▁창립 -2967
▁일으키 -2968
▁1940 -2969
▁에어 -2970
▁절대 -2971
30 -2972
일보 -2973
▁오전 -2974
▁베이징 -2975
▁사령관 -2976
▁릴 -2977
▁태국 -2978
▁1974 -2979
▁오히려 -2980
▁원작 -2981
▁형사 -2982
▁탁 -2983
▁185 -2984
▁열리 -2985
▁내렸 -2986
▁플레이오프 -2987
▁멸망 -2988
▁코스 -2989
▁북서 -2990
▁제자 -2991
▁노르웨이 -2992
BO -2993
▁뽑 -2994
▁제출 -2995
▁효율 -2996
▁반복 -2997
▁에피소드 -2998
▁마침 -2999
▁복합 -3000
▁논쟁 -3001
em -3002
▁구별 -3003
▁군수 -3004
▁운용 -3005
▁스코틀랜드 -3006
ter -3007
▁SBS -3008
▁메시 -3009
▁집안 -3010
▁모스크바 -3011
▁파라 -3012
▁읍 -3013
▁진다 -3014
▁정비 -3015
▁해양 -3016
▁입자 -3017
▁해상 -3018
카와 -3019
▁숫자 -3020
▁포위 -3021
▁갤 -3022
▁사법 -3023
▁인공 -3024
▁중대 -3025
▁합성 -3026
▁거절 -3027
▁이어지 -3028
▁목사 -3029
▁전철 -3030
▁노부 -3031
▁지니 -3032
▁인종 -3033
▁흡수 -3034
▁1948 -3035
▁지닌 -3036
▁원리 -3037
▁미니 -3038
▁출장 -3039
▁주기 -3040
▁활발 -3041
듀서 -3042
▁54 -3043
▁프로듀서 -3044
▁우스 -3045
▁연관 -3046
▁그레 -3047
▁시점 -3048
▁인조 -3049
▁포기 -3050
▁블루 -3051
머스 -3052
▁연산 -3053
▁인터뷰 -3054
▁각본 -3055
▁1968 -3056
▁1976 -3057
▁아름다 -3058
▁밖에 -3059
▁베를린 -3060
▁수송 -3061
▁소녀 -3062
▁불렸 -3063
▁웨스트 -3064
▁생겨 -3065
▁슬로 -3066
▁신체 -3067
▁이민 -3068
▁개시 -3069
▁이기 -3070
▁취급 -3071
▁경성 -3072
▁붙여 -3073
▁들어갔 -3074
▁머물 -3075
▁북동 -3076
▁하나님 -3077
▁보험 -3078
다리 -3079
▁통해서 -3080
도르 -3081
▁안타 -3082
▁주전 -3083
▁출입 -3084
▁전공 -3085
▁내리 -3086
▁고용 -3087
▁1975 -3088
▁건립 -3089
▁명성 -3090
▁어렵 -3091
▁동원 -3092
▁보스 -3093
▁생기 -3094
▁분쟁 -3095
▁비록 -3096
▁죽이 -3097
▁구속 -3098
시스 -3099
▁진보 -3100
▁자라 -3101
데스 -3102
▁장악 -3103
나이티 -3104
▁디스 -3105
▁히데 -3106
▁사령부 -3107
▁음력 -3108
▁주택 -3109
▁취득 -3110
op -3111
▁유나이티 -3112
▁축제 -3113
▁견해 -3114
▁일치 -3115
▁신성 -3116
▁활성 -3117
▁트랙 -3118
▁농민 -3119
서트 -3120
▁영화제 -3121
▁써 -3122
▁국도 -3123
▁보컬 -3124
▁전부 -3125
▁56 -3126
▁불법 -3127
▁프라 -3128
▁1978 -3129
▁1971 -3130
▁국장 -3131
▁더라도 -3132
▁부활 -3133
▁총독 -3134
▁미드 -3135
▁고유 -3136
▁직전 -3137
ag -3138
▁1963 -3139
▁52 -3140
▁해졌 -3141
▁정체 -3142
▁관점 -3143
▁약속 -3144
▁유물 -3145
에트 -3146
▁소스 -3147
▁편지 -3148
산시 -3149
▁상당히 -3150
▁속한다 -3151
▁학습 -3152
▁북아 -3153
다가 -3154
▁도달 -3155
▁49 -3156
▁후원 -3157
▁하위 -3158
▁혼란 -3159
▁직업 -3160
▁폭력 -3161
▁자이 -3162
키스탄 -3163
▁65 -3164
▁대리 -3165
▁연료 -3166
▁코미디 -3167
쿠라 -3168
▁주관 -3169
▁그리스도 -3170
▁교차 -3171
▁타이완 -3172
▁철수 -3173
▁포도 -3174
▁한자 -3175
▁지낸 -3176
▁여부 -3177
▁임금 -3178
▁일으켰 -3179
▁항공기 -3180
▁반영 -3181
▁수술 -3182
▁취하 -3183
▁시리아 -3184
▁닌 -3185
▁무엇 -3186
▁선교 -3187
자기 -3188
▁다며 -3189
▁다운 -3190
▁백제 -3191
메리 -3192
ce -3193
▁1969 -3194
세이 -3195
▁아테 -3196
▁관직 -3197
▁여객철도 -3198
릭스 -3199
▁179 -3200
▁상륙 -3201
기에 -3202
▁팝 -3203
▁고종 -3204
▁천체 -3205
▁성능 -3206
▁논리 -3207
▁의존 -3208
▁Q -3209
▁대화 -3210
▁한국어 -3211
리케 -3212
▁떠났 -3213
▁랜 -3214
▁브레 -3215
▁명명 -3216
▁수집 -3217
젤레스 -3218
▁제어 -3219
▁그런데 -3220
▁장교 -3221
▁주간 -3222
▁00 -3223
▁이른 -3224
▁심리 -3225
▁본사 -3226
▁넷 -3227
▁부임 -3228
▁예비 -3229
▁콘서트 -3230
▁미나 -3231
▁테러 -3232
▁판서 -3233
▁교환 -3234
▁데이비드 -3235
▁영업 -3236
▁보관 -3237
▁일대 -3238
▁1946 -3239
▁프리미 -3240
▁십자 -3241
▁좁 -3242
▁화물 -3243
▁정지 -3244
▁백작 -3245
▁학술 -3246
▁아사 -3247
▁해산 -3248
▁톰 -3249
준다 -3250
▁개체 -3251
▁도구 -3252
▁스미 -3253
▁상승 -3254
▁53 -3255
▁허가 -3256
▁거기 -3257
▁폴리 -3258
▁주식회사 -3259
▁반발 -3260
▁박정 -3261
▁불상 -3262
▁스마 -3263
▁빠른 -3264
▁자살 -3265
▁로운 -3266
공항 -3267
▁전파 -3268
▁전문가 -3269
라비아 -3270
▁하우스 -3271
▁김영 -3272
OS -3273
▁소방 -3274
이어 -3275
▁제일 -3276
▁간단 -3277
▁방사 -3278
▁알아 -3279
▁진입 -3280
▁연재 -3281
▁접하 -3282
▁영향력 -3283
▁코로나 -3284
▁프로세 -3285
프리 -3286
▁영입 -3287
▁핑 -3288
▁쳐 -3289
▁살인 -3290
▁렀 -3291
▁대략 -3292
▁공통 -3293
미터 -3294
병대 -3295
▁1964 -3296
oc -3297
▁모여 -3298
▁정원 -3299
▁신분 -3300
▁화성 -3301
▁헤르 -3302
▁베스트 -3303
▁리스 -3304
▁셔 -3305
▁재료 -3306
▁충청북도 -3307
▁니시 -3308
▁락 -3309
▁보건 -3310
▁학부 -3311
▁갈라 -3312
▁당한 -3313
▁사장 -3314
▁미터 -3315
▁발언 -3316
▁기도 -3317
▁피아노 -3318
▁소비에트 -3319
▁US -3320
▁승진 -3321
▁외국인 -3322
▁한반도 -3323
▁파트 -3324
▁도망 -3325
▁가을 -3326
▁항구 -3327
▁99 -3328
▁벼 -3329
▁꼭 -3330
▁고도 -3331
▁벨기에 -3332
▁포트 -3333
▁부장 -3334
노스 -3335
▁탈락 -3336
▁학원 -3337
▁1000 -3338
▁서버 -3339
▁진압 -3340
▁사운드 -3341
▁고리 -3342
▁현역 -3343
▁58 -3344
▁지붕 -3345
▁and -3346
▁모아 -3347
▁리더 -3348
어스 -3349
▁스프 -3350
▁구성원 -3351
▁국제공항 -3352
▁감사 -3353
▁질병 -3354
▁탈출 -3355
▁횡 -3356
▁인도네시아 -3357
ri -3358
▁의도 -3359
▁다스 -3360
▁학회 -3361
▁신청 -3362
▁쫓 -3363
▁닥 -3364
▁채용 -3365
▁시호 -3366
▁주년 -3367
▁루이스 -3368
▁참전 -3369
▁스토 -3370
하마 -3371
▁스러운 -3372
▁통상 -3373
▁공동체 -3374
▁창단 -3375
▁장수 -3376
▁브루 -3377
▁식품 -3378
▁트랜 -3379
▁콤 -3380
▁복무 -3381
▁PC -3382
▁응용 -3383
▁합격 -3384
▁픽 -3385
▁계통 -3386
▁망명 -3387
▁모드 -3388
▁위반 -3389
천군 -3390
▁임대 -3391
▁1977 -3392
▁조작 -3393
아버지 -3394
▁변환 -3395
▁포로 -3396
저우 -3397
▁청구 -3398
▁.. -3399
▁SK -3400
▁롯데 -3401
▁선보 -3402
▁친일 -3403
▁민법 -3404
▁요코 -3405
▁임의 -3406
▁1949 -3407
▁작사 -3408
▁FA -3409
▁페이 -3410
▁문헌 -3411
▁화면 -3412
▁에도 -3413
▁요인 -3414
▁트라 -3415
▁흐르 -3416
▁부부 -3417
▁빠져 -3418
▁생긴 -3419
▁마케 -3420
▁절차 -3421
▁말레이 -3422
▁예측 -3423
▁동남 -3424
▁신인 -3425
▁누구 -3426
성군 -3427
▁문장 -3428
▁분열 -3429
▁이뤄 -3430
▁라이트 -3431
igh -3432
▁저작 -3433
▁탄소 -3434
▁로스앤 -3435
▁로스앤젤레스 -3436
▁이치 -3437
▁지급 -3438
▁방송국 -3439
▁젠 -3440
▁트로 -3441
▁연출 -3442
▁배출 -3443
▁변형 -3444
드시 -3445
▁학과 -3446
▁수영 -3447
▁1962 -3448
▁선조 -3449
▁88 -3450
▁캠퍼스 -3451
▁조절 -3452
문화재 -3453
▁보낸 -3454
▁자녀 -3455
▁엑스 -3456
▁기하 -3457
▁주둔 -3458
▁선전 -3459
▁레오 -3460
▁국무 -3461
▁상원 -3462
정식 -3463
▁시카 -3464
▁수소 -3465
▁이중 -3466
▁62 -3467
▁전동 -3468
▁스럽 -3469
▁어떠 -3470
▁코파 -3471
ation -3472
▁레스 -3473
▁이승만 -3474
▁1967 -3475
▁출간 -3476
▁메모리 -3477
▁흉 -3478
▁처형 -3479
▁막부 -3480
▁는가 -3481
▁실수 -3482
▁흑인 -3483
▁광장 -3484
▁취소 -3485
▁큐 -3486
▁정기 -3487
크스 -3488
타르 -3489
▁수리 -3490
▁방지 -3491
로그 -3492
▁기호 -3493
▁화재 -3494
▁달하 -3495
▁생존 -3496
▁오페 -3497
▁황금 -3498
▁콘스탄 -3499
▁장르 -3500
▁기법 -3501
▁태어났으며 -3502
천시 -3503
▁서원 -3504
카이도 -3505
▁r -3506
▁샘 -3507
▁서구 -3508
▁로켓 -3509
▁57 -3510
▁You -3511
수록 -3512
▁나갔 -3513
▁이시 -3514
▁현지 -3515
▁증상 -3516
▁오스만 -3517
▁카메라 -3518
▁남서 -3519
▁호수 -3520
▁동작 -3521
▁왕자 -3522
▁제대로 -3523
▁반드시 -3524
▁연안 -3525
▁남겼 -3526
▁동성 -3527
▁앵 -3528
브리 -3529
▁개조 -3530
▁루트 -3531
▁롱 -3532
▁히트 -3533
▁희망 -3534
▁늦 -3535
▁나타났 -3536
▁등지 -3537
▁뿌리 -3538
▁기체 -3539
▁메인 -3540
▁좌우 -3541
▁그라 -3542
바르 -3543
▁우려 -3544
▁고지 -3545
바라 -3546
▁분명 -3547
▁된다는 -3548
▁입니다 -3549
▁공정 -3550
▁싸움 -3551
▁위상 -3552
▁Ch -3553
▁임진 -3554
포르 -3555
▁여야 -3556
▁도전 -3557
▁농구 -3558
▁맞이 -3559
▁여단 -3560
▁뜨 -3561
▁동아 -3562
▁전주 -3563
▁무덤 -3564
▁톱 -3565
▁천연 -3566
▁진주 -3567
▁크리 -3568
▁전면 -3569
▁일본군 -3570
▁파악 -3571
▁살아 -3572
▁엄청 -3573
비치 -3574
▁치렀 -3575
▁181 -3576
▁둘째 -3577
▁독특 -3578
▁압력 -3579
▁꺾 -3580
▁터널 -3581
▁끝나 -3582
▁전형 -3583
▁목소리 -3584
▁코르 -3585
▁%, -3586
▁1966 -3587
▁해리 -3588
nd -3589
▁특이 -3590
▁성향 -3591
▁스탠 -3592
▁66 -3593
▁물체 -3594
▁미국인 -3595
라이언 -3596
▁동기 -3597
▁매일 -3598
▁이온 -3599
▁법정 -3600
▁신뢰 -3601
방송 -3602
▁그레이 -3603
▁녹색 -3604
▁타임 -3605
▁리처 -3606
▁치러 -3607
▁경로 -3608
▁독립운동 -3609
▁에르 -3610
▁글자 -3611
▁덧 -3612
에이 -3613
▁1965 -3614
▁유기 -3615
▁68 -3616
▁추구 -3617
▁이룬다 -3618
베스 -3619
▁노벨 -3620
▁바둑 -3621
▁부사 -3622
▁아프 -3623
▁처벌 -3624
▁방정식 -3625
▁체코 -3626
▁183 -3627
더스 -3628
▁KBO -3629
▁분해 -3630
티브 -3631
▁실질 -3632
▁지리 -3633
▁방해 -3634
▁나타난다 -3635
▁묶 -3636
▁개신 -3637
▁클레 -3638
▁알렉산드 -3639
▁람 -3640
▁밥 -3641
▁싸우 -3642
▁일찍 -3643
▁타격 -3644
▁61 -3645
치아 -3646
▁구하 -3647
ST -3648
▁삽 -3649
▁유행 -3650
▁움직임 -3651
▁웅 -3652
▁나들 -3653
▁묵 -3654
▁일식 -3655
▁김일 -3656
▁부진 -3657
▁분할 -3658
▁찰스 -3659
▁풍부 -3660
▁아동 -3661
▁간행 -3662
▁퀸 -3663
▁완료 -3664
이치 -3665
▁올려 -3666
▁평등 -3667
▁내전 -3668
▁끝난 -3669
르타 -3670
▁먹이 -3671
▁희생 -3672
▁마침내 -3673
▁마르크 -3674
▁순환 -3675
▁아리 -3676
▁버렸 -3677
▁복지 -3678
질랜드 -3679
▁홋 -3680
▁빼앗 -3681
▁화산 -3682
▁사립 -3683
▁아파트 -3684
▁손자 -3685
▁뉴질랜드 -3686
▁범주 -3687
먼트 -3688
▁향해 -3689
▁1961 -3690
▁최다 -3691
▁대개 -3692
▁집권 -3693
▁800 -3694
▁어도 -3695
▁점점 -3696
▁비평 -3697
▁별명 -3698
▁나들목 -3699
▁플래 -3700
▁캔 -3701
▁의지 -3702
▁한정 -3703
ER -3704
▁오프 -3705
▁분위 -3706
▁한계 -3707
▁첼 -3708
art -3709
▁전원 -3710
▁향하 -3711
▁갈색 -3712
▁86 -3713
▁시조 -3714
▁600 -3715
▁파르 -3716
▁근본 -3717
▁마시 -3718
▁부하 -3719
▁판사 -3720
▁대법 -3721
▁쓸 -3722
▁분기 -3723
▁사냥 -3724
▁창원 -3725
▁구현 -3726
▁시드 -3727
▁가상 -3728
▁명확 -3729
투스 -3730
▁테이 -3731
▁리가 -3732
▁기둥 -3733
▁모형 -3734
▁120 -3735
유럽 -3736
ice -3737
▁충격 -3738
▁훗 -3739
▁사원 -3740
▁달라 -3741
▁가시 -3742
▁맞추 -3743
▁일본인 -3744
▁사형 -3745
텐츠 -3746
▁교향 -3747
▁완공 -3748
▁웨이 -3749
ON -3750
▁사임 -3751
다는 -3752
▁IS -3753
▁무게 -3754
▁확산 -3755
▁단독 -3756
▁카라 -3757
▁스토리 -3758
▁메리 -3759
▁중기 -3760
▁출범 -3761
▁으려 -3762
▁마법 -3763
▁오페라 -3764
▁프린 -3765
▁적절 -3766
▁션 -3767
▁악화 -3768
▁벡터 -3769
▁둘러싸 -3770
▁날개 -3771
▁된다고 -3772
디션 -3773
▁1919 -3774
▁훌 -3775
▁의혹 -3776
▁통산 -3777
est -3778
라드 -3779
▁대공 -3780
▁상위 -3781
▁뚜 -3782
틀러 -3783
▁회담 -3784
은행 -3785
▁유치 -3786
▁의심 -3787
▁물리학 -3788
▁사마 -3789
사자 -3790
피스 -3791
▁호주 -3792
▁레인 -3793
▁제이 -3794
▁도와 -3795
▁났 -3796
TV -3797
▁이자 -3798
▁무시 -3799
▁명나라 -3800
ia -3801
▁득표 -3802
▁모토 -3803
▁당초 -3804
▁영웅 -3805
▁re -3806
리히 -3807
▁98 -3808
▁이닝 -3809
▁조종 -3810
▁닛 -3811
▁순간 -3812
▁알파 -3813
▁연구원 -3814
▁서명 -3815
▁함락 -3816
▁사실상 -3817
▁나아가 -3818
▁가나 -3819
▁새롭 -3820
▁징역 -3821
▁밝히 -3822
▁여론 -3823
▁편찬 -3824
ap -3825
▁문명 -3826
▁새겨 -3827
▁자극 -3828
▁포인트 -3829
▁발굴 -3830
▁1944 -3831
▁추천 -3832
▁개입 -3833
▁느끼 -3834
사스 -3835
▁나뉜 -3836
▁광복 -3837
▁모임 -3838
▁곽 -3839
▁인접 -3840
ak -3841
▁그때 -3842
▁연간 -3843
▁포항 -3844
▁인증 -3845
▁저술 -3846
▁접촉 -3847
▁진정 -3848
▁넓이 -3849
▁순수 -3850
▁사정 -3851
연히 -3852
▁각지 -3853
▁구원 -3854
라이나 -3855
▁도쿠 -3856
▁올해 -3857
▁독일군 -3858
▁등판 -3859
▁흘러 -3860
▁태도 -3861
▁홍보 -3862
▁프리미어 -3863
▁동서 -3864
▁악기 -3865
▁개막 -3866
▁세르비아 -3867
▁뮤지 -3868
▁1941 -3869
▁정하 -3870
▁63 -3871
▁골든 -3872
▁고속도로 -3873
우리 -3874
▁95 -3875
▁기온 -3876
▁오랫 -3877
▁드라이 -3878
▁실현 -3879
▁꼽 -3880
AR -3881
▁DNA -3882
▁루스 -3883
▁팽 -3884
▁백성 -3885
▁학살 -3886
무부 -3887
▁네이 -3888
일리 -3889
▁74 -3890
▁탐사 -3891
▁기기 -3892
학생 -3893
▁언제 -3894
▁수석 -3895
▁임기 -3896
버그 -3897
▁한국인 -3898
메이 -3899
시오 -3900
▁59 -3901
민주 -3902
▁Lo -3903
▁공로 -3904
▁바위 -3905
▁시카고 -3906
믹스 -3907
▁변수 -3908
▁예전 -3909
▁공헌 -3910
▁경전 -3911
▁성분 -3912
▁춤 -3913
▁행렬 -3914
▁입법 -3915
▁보고서 -3916
▁균형 -3917
▁178 -3918
▁떨어지 -3919
▁스마트 -3920
숭이 -3921
▁양쪽 -3922
▁아티 -3923
▁훗날 -3924
▁뱅 -3925
▁앤드 -3926
▁감시 -3927
▁오랫동안 -3928
▁심사 -3929
▁추산 -3930
▁분위기 -3931
ct -3932
▁닉 -3933
▁페르시아 -3934
대부 -3935
▁혼합 -3936
▁튜 -3937
▁확률 -3938
▁방위 -3939
▁침략 -3940
▁한다면 -3941
▁자전 -3942
▁띄 -3943
▁시사 -3944
▁1958 -3945
▁매장 -3946
▁프로그래 -3947
▁출력 -3948
▁합쳐 -3949
▁미쓰 -3950
▁1947 -3951
▁대량 -3952
▁영지 -3953
▁왕실 -3954
▁특별시 -3955
▁에드워드 -3956
ul -3957
▁리처드 -3958
러리 -3959
▁승부 -3960
▁82 -3961
▁IC -3962
▁신부 -3963
▁조별 -3964
▁피터 -3965
코스 -3966
▁무사 -3967
▁커뮤 -3968
▁권위 -3969
▁저녁 -3970
▁160 -3971
▁원형 -3972
▁안토 -3973
▁개신교 -3974
▁멀리 -3975
▁이라크 -3976
거운 -3977
▁to -3978
▁마무 -3979
▁타자 -3980
▁대선 -3981
▁단편 -3982
▁경남 -3983
▁동해 -3984
▁내셔널 -3985
▁에서부터 -3986
▁다케 -3987
▁76 -3988
▁1956 -3989
▁72 -3990
▁흐름 -3991
이너 -3992
▁줄기 -3993
▁프라이 -3994
▁;/ -3995
▁여왕 -3996
▁미야 -3997
▁제사 -3998
▁승객 -3999
▁발발 -4000
▁텍사스 -4001
▁그래픽 -4002
▁랜드 -4003
▁재건 -4004
▁프랑크 -4005
▁확립 -4006
▁앉 -4007
▁아이돌 -4008
▁커뮤니 -4009
▁SS -4010
▁가와 -4011
리노 -4012
▁일상 -4013
▁긍 -4014
▁받아들여 -4015
▁석유 -4016
▁안동 -4017
▁속한 -4018
▁펼쳐 -4019
ie -4020
▁바깥 -4021
▁동명 -4022
▁77 -4023
▁우라 -4024
▁과학자 -4025
▁데스 -4026
▁복원 -4027
▁작위 -4028
▁참고 -4029
▁침입 -4030
▁점수 -4031
▁비상 -4032
▁밝혀졌 -4033
▁수익 -4034
▁교구 -4035
▁시상 -4036
▁기울 -4037
▁섞 -4038
▁복수 -4039
▁정해 -4040
▁당국 -4041
▁테스트 -4042
▁입력 -4043
▁1939 -4044
▁지켜 -4045
▁Th -4046
▁기에 -4047
▁리버 -4048
▁어깨 -4049
▁잠수 -4050
▁브라운 -4051
레나 -4052
▁폭탄 -4053
▁일시 -4054
▁67 -4055
▁벌였 -4056
▁신자 -4057
메리칸 -4058
▁민중 -4059
▁본질 -4060
▁심지 -4061
▁기소 -4062
▁자식 -4063
▁그렇게 -4064
▁복음 -4065
▁계층 -4066
▁도요 -4067
▁사자 -4068
▁파워 -4069
▁축구단 -4070
▁더블 -4071
레옹 -4072
▁혁신 -4073
▁움직이 -4074
▁연예 -4075
▁겹 -4076
▁재배 -4077
일스 -4078
▁어디 -4079
▁포켓 -4080
▁신고 -4081
▁타워 -4082
▁AFC -4083
▁나폴레옹 -4084
ud -4085
▁병합 -4086
▁듯이 -4087
▁빌보드 -4088
▁주최 -4089
▁쌀 -4090
이센 -4091
▁부지 -4092
▁가공 -4093
▁도모 -4094
▁가량 -4095
▁거듭 -4096
▁대왕 -4097
▁한글 -4098
▁시마 -4099
▁가진다 -4100
에른 -4101
▁빅토 -4102
▁정수 -4103
▁돌아왔 -4104
▁벗어나 -4105
▁어려운 -4106
▁85 -4107
▁동양 -4108
▁가담 -4109
ly -4110
og -4111
▁지형 -4112
▁턴 -4113
▁공중 -4114
▁사제 -4115
▁창작 -4116
▁암호 -4117
▁돕 -4118
▁대성 -4119
▁힌 -4120
▁고통 -4121
▁깃 -4122
▁보물 -4123
th -4124
▁평안 -4125
▁폐쇄 -4126
▁소득 -4127
▁1954 -4128
아티아 -4129
▁크로아티아 -4130
레인 -4131
마니아 -4132
▁가설 -4133
▁노출 -4134
▁평론 -4135
ist -4136
▁아름다운 -4137
▁누르 -4138
▁후계 -4139
▁급제 -4140
▁인쇄 -4141
왜란 -4142
▁훈장 -4143
▁임진왜란 -4144
▁다소 -4145
▁비서 -4146
▁가이 -4147
▁구글 -4148
ight -4149
▁국기 -4150
▁산화 -4151
▁참모 -4152
▁실력 -4153
▁총회 -4154
▁력 -4155
▁1952 -4156
▁고기 -4157
▁박정희 -4158
AS -4159
▁탱 -4160
▁세리 -4161
▁보상 -4162
▁곱 -4163
▁블라 -4164
▁상관 -4165
▁전신 -4166
▁대지 -4167
▁후속 -4168
▁김대 -4169
▁그만 -4170
▁바닥 -4171
▁73 -4172
▁국정 -4173
▁동방 -4174
▁행복 -4175
▁뮤지컬 -4176
▁보살 -4177
▁따로 -4178
하여 -4179
▁아테네 -4180
▁96 -4181
▁절반 -4182
▁나타낸다 -4183
▁도덕 -4184
▁라스 -4185
바로 -4186
조합 -4187
▁부담 -4188
▁비례 -4189
▁인용 -4190
▁발음 -4191
▁조조 -4192
▁무한 -4193
▁탈퇴 -4194
▁81 -4195
▁스타디 -4196
▁피해자 -4197
▁오카 -4198
▁타운 -4199
▁수도원 -4200
▁덜 -4201
▁개설 -4202
▁* -4203
▁께 -4204
▁Al -4205
▁불만 -4206
필더 -4207
▁가까이 -4208
▁미드필더 -4209
▁로봇 -4210
체스터 -4211
▁좋아 -4212
▁뤼 -4213
▁뷰 -4214
▁심장 -4215
마르 -4216
▁78 -4217
▁장남 -4218
▁화이트 -4219
▁이혼 -4220
▁청주 -4221
▁나뉜다 -4222
▁끝내 -4223
▁화장 -4224
▁는다는 -4225
AT -4226
▁옮겼 -4227
▁교리 -4228
▁재학 -4229
▁손상 -4230
▁지향 -4231
의정 -4232
▁전남 -4233
▁전직 -4234
▁총장 -4235
너스 -4236
▁전투기 -4237
▁바이에른 -4238
▁김성 -4239
▁센트 -4240
▁여섯 -4241
▁안드로 -4242
▁벌이 -4243
▁마무리 -4244
▁뮌 -4245
▁하인 -4246
▁포스트 -4247
▁녀 -4248
▁중력 -4249
▁피하 -4250
나가 -4251
▁주력 -4252
▁검토 -4253
▁국군 -4254
▁아트 -4255
▁기리 -4256
▁수요 -4257
▁천안 -4258
타이 -4259
▁콘스탄티 -4260
▁인생 -4261
▁백만 -4262
▁결론 -4263
▁산소 -4264
▁기상 -4265
BA -4266
▁작동 -4267
▁NH -4268
▁진단 -4269
▁1959 -4270
▁보르 -4271
▁지사 -4272
▁202 -4273
▁관여 -4274
▁디아 -4275
▁레알 -4276
▁당나라 -4277
▁;, -4278
▁유한 -4279
▁심지어 -4280
직자 -4281
▁91 -4282
▁Li -4283
▁상실 -4284
▁포스 -4285
▁유통 -4286
▁생물학 -4287
▁와이 -4288
▁177 -4289
▁윗 -4290
토스 -4291
ess -4292
▁질환 -4293
▁패션 -4294
인물 -4295
자치 -4296
▁엄청난 -4297
▁빌딩 -4298
▁아웃 -4299
▁호소 -4300
▁개방 -4301
▁사무소 -4302
▁71 -4303
▁설득 -4304
▁화합 -4305
▁규제 -4306
▁사유 -4307
▁처분 -4308
▁피부 -4309
▁황후 -4310
▁메시지 -4311
세포 -4312
▁AT -4313
▁오직 -4314
▁신사 -4315
▁이어졌 -4316
▁분노 -4317
가락 -4318
▁문신 -4319
▁선박 -4320
▁이명 -4321
▁상역 -4322
▁사우스 -4323
▁프로이센 -4324
▁결의 -4325
▁가마 -4326
▁연습 -4327
스트라 -4328
클리 -4329
▁DV -4330
▁가슴 -4331
▁골드 -4332
쿠스 -4333
▁두려 -4334
▁액션 -4335
▁승려 -4336
▁햄 -4337
▁모터 -4338
▁1942 -4339
▁가요 -4340
▁심판 -4341
▁하원 -4342
▁여겨진다 -4343
▁약물 -4344
▁혼인 -4345
▁선임 -4346
▁위대 -4347
▁적합 -4348
▁매체 -4349
드리히 -4350
▁글로벌 -4351
▁역학 -4352
▁김일성 -4353
▁디스크 -4354
▁올라가 -4355
▁통화 -4356
▁부친 -4357
▁페이지 -4358
▁개성 -4359
▁조카 -4360
IV -4361
▁구매 -4362
▁돌아와 -4363
▁이른다 -4364
▁잭슨 -4365
▁모바 -4366
▁소멸 -4367
▁87 -4368
▁맞서 -4369
▁왕비 -4370
▁좌상 -4371
▁긍정 -4372
▁비치 -4373
▁나온다 -4374
▁프리드리히 -4375
▁억제 -4376
미야 -4377
▁159 -4378
▁1943 -4379
▁위키 -4380
ub -4381
▁프랭 -4382
▁발탁 -4383
▁1955 -4384
▁st -4385
▁야스 -4386
IA -4387
▁쿠데 -4388
▁크루 -4389
▁어려움 -4390
▁부산광역시 -4391
▁원년 -4392
▁일기 -4393
▁진영 -4394
▁서식지 -4395
▁조차 -4396
▁말레이시아 -4397
가니 -4398
▁대책 -4399
▁벌어진 -4400
▁1953 -4401
▁불안 -4402
▁였을 -4403
▁홋카이도 -4404
▁예방 -4405
▁일체 -4406
▁주석 -4407
▁왕후 -4408
▁스타디움 -4409
▁굳 -4410
▁퀴 -4411
▁사도 -4412
▁700 -4413
▁음악가 -4414
▁드래프트 -4415
▁테크 -4416
▁자이언 -4417
▁필드 -4418
▁무료 -4419
▁시나 -4420
▁타인 -4421
▁톨 -4422
해서 -4423
▁본다 -4424
▁주어진 -4425
▁1936 -4426
ab -4427
▁\ -4428
▁즉시 -4429
▁조지아 -4430
▁힙 -4431
아내 -4432
▁사격 -4433
미르 -4434
▁84 -4435
▁싱가 -4436
▁사무실 -4437
▁웃 -4438
▁싱가포르 -4439
▁카스 -4440
▁쾌 -4441
▁일컫 -4442
▁유고 -4443
▁AP -4444
▁태조 -4445
▁폭격 -4446
▁티베 -4447
▁일본어 -4448
▁쿠데타 -4449
▁인원 -4450
▁졌으며 -4451
▁루마니아 -4452
▁깊이 -4453
▁자는 -4454
▁여우 -4455
▁막대 -4456
▁김종 -4457
데이 -4458
▁궁전 -4459
▁리드 -4460
▁대체로 -4461
▁천주교 -4462
▁1910 -4463
▁세자 -4464
▁유형문화재 -4465
▁크로스 -4466
▁누리 -4467
▁상속 -4468
▁연설 -4469
▁이와 -4470
▁모바일 -4471
▁기동 -4472
▁창당 -4473
▁정차 -4474
▁닫 -4475
▁쓰여 -4476
▁전북 -4477
▁스티븐 -4478
▁구입 -4479
▁진격 -4480
슬러 -4481
▁전동차 -4482
주군 -4483
ine -4484
▁히틀러 -4485
▁후쿠오카 -4486
유산 -4487
▁Re -4488
▁97 -4489
▁오이 -4490
▁독재 -4491
▁딜 -4492
▁요금 -4493
▁전당 -4494
▁챔피언십 -4495
▁학사 -4496
▁자국 -4497
▁딘 -4498
▁대우 -4499
▁느낌 -4500
구리 -4501
▁개칭 -4502
▁발명 -4503
▁남아프리카 -4504
▁아메리칸 -4505
▁1957 -4506
오르 -4507
▁강릉 -4508
란색 -4509
▁속해 -4510
▁알바 -4511
▁조상 -4512
▁보여준다 -4513
▁부동 -4514
▁원주민 -4515
리나 -4516
▁추방 -4517
▁검색 -4518
▁초점 -4519
머리 -4520
▁광범 -4521
▁급격 -4522
▁필수 -4523
▁수호 -4524
▁사과 -4525
▁늘어 -4526
▁타이거 -4527
▁콘텐츠 -4528
▁본명 -4529
▁알고리 -4530
▁스미스 -4531
ew -4532
▁동북 -4533
▁음성 -4534
베르트 -4535
▁휴대 -4536
▁세트 -4537
독부 -4538
히로 -4539
▁생태 -4540
▁사기 -4541
▁1914 -4542
▁신장 -4543
▁천만 -4544
▁전송 -4545
▁69 -4546
▁빚 -4547
▁테마 -4548
▁이마 -4549
▁메이지 -4550
원경 -4551
▁게다가 -4552
▁수업 -4553
▁완벽 -4554
▁덩 -4555
▁92 -4556
▁똑 -4557
▁원수 -4558
▁이즈 -4559
▁핫 -4560
▁인디언 -4561
▁업적 -4562
▁주소 -4563
▁미리 -4564
시스코 -4565
▁연락 -4566
미니 -4567
ue -4568
▁최우 -4569
▁후임 -4570
▁알고리즘 -4571
▁=" -4572
▁포켓몬 -4573
▁신도 -4574
▁렀다 -4575
▁와서 -4576
▁이내 -4577
▁게르 -4578
▁불가리아 -4579
리그 -4580
▁토론토 -4581
▁섹 -4582
▁세부 -4583
▁전술 -4584
▁서술 -4585
▁도마 -4586
▁코리아 -4587
▁1900 -4588
▁유효 -4589
▁림 -4590
구치 -4591
▁달려 -4592
▁1938 -4593
▁상인 -4594
▁클로 -4595
▁밀려 -4596
▁화려 -4597
▁랄 -4598
▁고급 -4599
▁려면 -4600
▁닥터 -4601
▁물건 -4602
▁스탈 -4603
▁펑 -4604
▁스프링 -4605
▁부위 -4606
▁늑 -4607
▁빌리 -4608
지사 -4609
▁질문 -4610
래프트 -4611
다란 -4612
드라 -4613
▁노트 -4614
▁석사 -4615
▁고시 -4616
▁미술관 -4617
▁돌려 -4618
EC -4619
▁언덕 -4620
▁재즈 -4621
▁라이프 -4622
▁바르셀 -4623
▁각국 -4624
▁바르셀로나 -4625
▁소비자 -4626
▁배포 -4627
▁핸 -4628
총리 -4629
▁내세 -4630
▁암컷 -4631
▁영양 -4632
▁오키 -4633
▁마르크스 -4634
▁느냐 -4635
▁101 -4636
▁주니어 -4637
▁연평 -4638
▁립 -4639
비히 -4640
▁고위 -4641
▁손실 -4642
▁라틴어 -4643
▁사퇴 -4644
▁1918 -4645
로지 -4646
▁01 -4647
▁개량 -4648
▁실천 -4649
▁HD -4650
▁오가 -4651
▁백인 -4652
▁랩 -4653
▁해발 -4654
여금 -4655
▁만났 -4656
자키 -4657
▁소형 -4658
▁갑자기 -4659
▁윙 -4660
▁당해 -4661
산화 -4662
▁일련 -4663
▁료 -4664
▁라우 -4665
▁마스터 -4666
친다 -4667
▁줄어들 -4668
▁언스 -4669
▁선형 -4670
▁집회 -4671
▁등장인물 -4672
▁웰 -4673
▁주체 -4674
▁DVD -4675
▁경비 -4676
▁유산 -4677
▁자본주의 -4678
▁화석 -4679
▁조선총 -4680
▁풋 -4681
▁상주 -4682
제국 -4683
▁조선총독부 -4684
▁저자 -4685
▁프랑스군 -4686
▁1951 -4687
▁용인 -4688
▁감각 -4689
▁개별 -4690
▁시내버스 -4691
▁메달 -4692
▁의문 -4693
▁1932 -4694
▁생겼 -4695
▁격파 -4696
▁국적 -4697
▁반사 -4698
▁추기 -4699
▁계곡 -4700
▁블록 -4701
드레 -4702
▁미스 -4703
▁선포 -4704
▁운항 -4705
▁영주 -4706
▁차단 -4707
▁받아들이 -4708
▁거짓 -4709
BM -4710
▁알레 -4711
▁1937 -4712
▁on -4713
▁노리 -4714
▁성남 -4715
▁사양 -4716
▁짝 -4717
▁변하 -4718
▁{ -4719
▁미시 -4720
▁정교회 -4721
▁고객 -4722
▁발간 -4723
무늬 -4724
▁대만 -4725
▁다다 -4726
▁화제 -4727
어도 -4728
▁당원 -4729
▁진학 -4730
▁넥 -4731
▁마틴 -4732
▁상수 -4733
▁이웃 -4734
▁재개 -4735
▁182 -4736
▁올스타 -4737
민주당 -4738
필드 -4739
▁89 -4740
▁광범위 -4741
펙트 -4742
▁실업 -4743
▁흰색 -4744
▁엘리자 -4745
▁첩 -4746
▁설치류 -4747
▁내놓 -4748
▁찬성 -4749
▁되돌 -4750
▁타율 -4751
▁후계자 -4752
▁덧붙 -4753
바키아 -4754
▁꾸준 -4755
▁방언 -4756
▁트레이드 -4757
▁합니다 -4758
▁항의 -4759
▁기부 -4760
▁시트 -4761
▁93 -4762
▁수치 -4763
▁비스 -4764
▁탄압 -4765
▁1935 -4766
▁칭호 -4767
▁환승 -4768
ect -4769
▁우크라 -4770
▁접한다 -4771
▁구상 -4772
▁비행기 -4773
동생 -4774
▁남기 -4775
▁뮌헨 -4776
▁크라 -4777
▁경제학 -4778
▁이스트 -4779
▁질서 -4780
▁퀘 -4781
▁분교 -4782
▁사찰 -4783
▁줄이 -4784
▁커버 -4785
▁Be -4786
▁구멍 -4787
▁로렌 -4788
▁모음 -4789
▁수백 -4790
▁허락 -4791
▁증언 -4792
▁파티 -4793
▁추기경 -4794
▁중추 -4795
▁촉진 -4796
▁자산 -4797
▁최후 -4798
▁고양이 -4799
▁체험 -4800
▁화폐 -4801
▁옵 -4802
사전 -4803
▁항공사 -4804
▁분화 -4805
▁일으켜 -4806
▁면역 -4807
▁싱어 -4808
▁겉 -4809
▁극단 -4810
다수 -4811
하이 -4812
▁남녀 -4813
가시 -4814
▁법학 -4815
▁이념 -4816
▁반지 -4817
▁소문 -4818
▁아티스트 -4819
▁거치 -4820
▁마루 -4821
▁소위 -4822
▁회로 -4823
▁마주 -4824
▁곡선 -4825
▁소화 -4826
▁개척 -4827
▁습격 -4828
▁양산 -4829
▁매치 -4830
▁영원 -4831
▁쿨 -4832
▁목성 -4833
▁클리 -4834
▁공신 -4835
▁보편 -4836
▁가속 -4837
▁약화 -4838
센트 -4839
▁클래식 -4840
저스 -4841
▁축소 -4842
▁대법원 -4843
슈타인 -4844
ore -4845
런스 -4846
▁94 -4847
리우스 -4848
▁물고기 -4849
▁강남 -4850
▁힘들 -4851
▁탕 -4852
▁시모 -4853
▁소집 -4854
▁탄핵 -4855
▁오버 -4856
▁OS -4857
▁1933 -4858
▁그리하여 -4859
▁운송 -4860
▁잠수함 -4861
our -4862
▁FM -4863
▁유배 -4864
▁충분히 -4865
▁티베트 -4866
▁수십 -4867
▁이른바 -4868
▁산지 -4869
▁쿼 -4870
▁선호 -4871
▁지수 -4872
▁하여금 -4873
▁툴 -4874
▁혼자 -4875
IN -4876
▁군부 -4877
▁원시 -4878
▁쓰였 -4879
▁1928 -4880
▁동화 -4881
▁당신 -4882
▁치르 -4883
▁세월 -4884
▁아오 -4885
▁돌아오 -4886
▁뼈 -4887
▁전적 -4888
▁조항 -4889
▁주일 -4890
▁직무 -4891
도사 -4892
▁베리 -4893
▁CP -4894
▁밸 -4895
▁틈 -4896
▁지불 -4897
▁경사 -4898
▁동경 -4899
▁태종 -4900
▁시신 -4901
▁정통 -4902
▁팩 -4903
▁누스 -4904
ell -4905
▁국토 -4906
▁간부 -4907
▁1924 -4908
▁멈 -4909
▁으니 -4910
▁이행 -4911
▁돌아온 -4912
공사 -4913
▁영구 -4914
▁칠레 -4915
▁프랑스어 -4916
▁댄스 -4917
▁재능 -4918
▁콜로 -4919
▁용도 -4920
▁전망 -4921
▁토대 -4922
▁이어진 -4923
▁토마스 -4924
▁끈 -4925
▁형상 -4926
▁정면 -4927
▁손해 -4928
▁79 -4929
프레 -4930
▁조기 -4931
닉스 -4932
▁발레 -4933
▁익스 -4934
▁사막 -4935
▁틴 -4936
벤트 -4937
▁개명 -4938
▁상대식 -4939
▁종사 -4940
▁단순히 -4941
▁액체 -4942
▁진실 -4943
▁펀 -4944
▁110 -4945
▁메트로 -4946
▁김해 -4947
▁실내 -4948
▁이재 -4949
▁걸친 -4950
▁09 -4951
▁입대 -4952
▁콜롬 -4953
▁의정부 -4954
▁가난 -4955
▁브로 -4956
▁쟁 -4957
▁멀티 -4958
▁회색 -4959
▁프로그래밍 -4960
슬링 -4961
▁170 -4962
▁대칭 -4963
▁개장 -4964
▁판정 -4965
사이 -4966
▁경고 -4967
▁동인 -4968
▁04 -4969
▁무력 -4970
▁지중 -4971
▁양국 -4972
▁구름 -4973
▁전제 -4974
▁못한다 -4975
▁안토니 -4976
▁러브 -4977
▁합동 -4978
end -4979
▁엄격 -4980
▁자랑 -4981
▁수컷 -4982
▁열매 -4983
▁동굴 -4984
▁해제 -4985
과이 -4986
▁무용 -4987
▁파키스탄 -4988
▁사이드 -4989
코프 -4990
▁유아 -4991
▁가깝 -4992
▁법안 -4993
▁존스 -4994
▁초상 -4995
▁뻗 -4996
ill -4997
▁토착 -4998
브라 -4999
▁일단 -5000
▁들어오 -5001
▁고교 -5002
▁안티 -5003
▁당대 -5004
▁쏘 -5005
ain -5006
▁흔적 -5007
▁늑대 -5008
▁하와 -5009
▁로즈 -5010
▁총재 -5011
▁베네치아 -5012
▁대승 -5013
▁밀리 -5014
▁원자력 -5015
▁분산 -5016
베리아 -5017
리다 -5018
▁08 -5019
ID -5020
테스 -5021
▁재생 -5022
▁세로 -5023
▁룸 -5024
▁인민군 -5025
▁퓨 -5026
ers -5027
▁대가 -5028
▁주문 -5029
▁행하 -5030
▁마저 -5031
▁오케 -5032
▁경북 -5033
▁힙합 -5034
▁스톤 -5035
▁주재 -5036
▁서방 -5037
▁지표 -5038
에도 -5039
▁우에 -5040
▁정류 -5041
▁Co -5042
▁강도 -5043
▁비잔 -5044
뜨리 -5045
티스 -5046
▁부속 -5047
▁장로 -5048
▁스카이 -5049
▁83 -5050
▁드물 -5051
▁부서 -5052
▁개찰 -5053
▁다큐 -5054
▁오류 -5055
▁동지 -5056
▁레닌 -5057
▁프로토 -5058
▁벼슬 -5059
▁엉 -5060
▁강요 -5061
▁한성 -5062
▁메탈 -5063
▁배열 -5064
▁탓 -5065
야스 -5066
▁세워졌 -5067
▁안쪽 -5068
데르 -5069
▁호흡 -5070
▁마감 -5071
▁함경 -5072
▁국방부 -5073
▁중동 -5074
▁페리 -5075
조선 -5076
▁MS -5077
▁선로 -5078
페이스 -5079
▁나섰 -5080
▁중지 -5081
▁편의 -5082
ard -5083
▁추적 -5084
▁경찰서 -5085
▁할아버지 -5086
▁이벤트 -5087
▁성서 -5088
▁놓여 -5089
▁투스 -5090
▁혈액 -5091
▁스크린 -5092
▁간다 -5093
▁메르 -5094
▁평면 -5095
▁주자 -5096
▁대원 -5097
▁포드 -5098
▁구사 -5099
고속 -5100
▁대사관 -5101
어로 -5102
키퍼 -5103
AN -5104
▁아인 -5105
▁풍속 -5106
▁골키퍼 -5107
▁농장 -5108
▁북미 -5109
▁자매 -5110
▁철거 -5111
▁1934 -5112
▁쿠바 -5113
▁De -5114
▁입구 -5115
세대 -5116
▁거느 -5117
베르크 -5118
▁아프가니 -5119
▁놀이 -5120
▁스케이 -5121
▁스탈린 -5122
▁근육 -5123
▁보스턴 -5124
▁요코하마 -5125
공업 -5126
▁페이스 -5127
▁뱀 -5128
▁빵 -5129
▁동구 -5130
▁본토 -5131
▁봉기 -5132
▁장례 -5133
성기 -5134
▁판타 -5135
▁히어로 -5136
▁정확히 -5137
▁닐 -5138
▁리아 -5139
▁야당 -5140
▁노동당 -5141
유키 -5142
▁광산 -5143
▁현존 -5144
▁킨 -5145
▁130 -5146
아르 -5147
레오 -5148
▁Me -5149
▁식량 -5150
▁구로 -5151
▁관계자 -5152
▁철학자 -5153
무르 -5154
▁나이트 -5155
▁꾼 -5156
▁얀 -5157
▁거점 -5158
▁글리 -5159
▁정조 -5160
▁맨체스터 -5161
▁코어 -5162
▁토머스 -5163
▁대동 -5164
▁항해 -5165
▁유키 -5166
제르 -5167
▁대다수 -5168
▁사망자 -5169
▁젤 -5170
즈니 -5171
▁부처 -5172
▁선물 -5173
▁동메달 -5174
ne -5175
▁은메달 -5176
▁농촌 -5177
▁모자 -5178
▁남극 -5179
▁시계 -5180
▁140 -5181
▁접속 -5182
▁도쿠가와 -5183
▁초청 -5184
▁그러므로 -5185
▁중계 -5186
▁사카 -5187
▁역전 -5188
▁발전소 -5189
▁새끼 -5190
▁독점 -5191
▁카리 -5192
▁필립 -5193
▁돔 -5194
▁훼 -5195
▁아프가니스탄 -5196
▁레지 -5197
▁특별히 -5198
위대 -5199
▁김구 -5200
▁복사 -5201
▁알렉산더 -5202
▁나선 -5203
▁재판소 -5204
▁Sh -5205
▁문재 -5206
▁테르 -5207
▁합리 -5208
▁안내 -5209
사르 -5210
▁중성 -5211
▁칼리지 -5212
▁새벽 -5213
▁증권 -5214
돌프 -5215
▁휘하 -5216
▁교향곡 -5217
▁매주 -5218
▁비중 -5219
▁르네 -5220
▁세금 -5221
▁화합물 -5222
안군 -5223
우치 -5224
▁곤충 -5225
▁오염 -5226
▁유력 -5227
▁훌륭 -5228
▁주어졌 -5229
▁펼쳤 -5230
▁토너 -5231
▁관객 -5232
▁위안 -5233
힌다 -5234
레이크 -5235
OR -5236
▁봉해졌 -5237
▁파울 -5238
▁로맨 -5239
▁이정 -5240
▁재임 -5241
▁모노 -5242
▁박근 -5243
▁이어서 -5244
▁th -5245
▁코너 -5246
크래프트 -5247
▁1931 -5248
▁부드 -5249
▁체육관 -5250
베리 -5251
▁뚜렷 -5252
▁생애 -5253
▁타점 -5254
▁폭풍 -5255
▁부호 -5256
▁석방 -5257
▁히로시마 -5258
▁부품 -5259
▁일곱 -5260
▁강등 -5261
▁대변 -5262
▁진동 -5263
▁원조 -5264
▁간격 -5265
▁기병 -5266
▁종전 -5267
▁감옥 -5268
▁존슨 -5269
▁미카 -5270
▁꺼 -5271
느님 -5272
▁그리스어 -5273
▁계수 -5274
▁금강 -5275
▁펄 -5276
▁타카 -5277
▁하느님 -5278
▁명시 -5279
▁대결 -5280
▁사신 -5281
▁클래스 -5282
▁멸종 -5283
▁ST -5284
▁후퇴 -5285
▁놀라 -5286
▁목포 -5287
▁자유주의 -5288
all -5289
▁장점 -5290
▁하사 -5291
▁윤리 -5292
▁심리학 -5293
▁커다란 -5294
▁아비 -5295
나르 -5296
▁교도 -5297
▁캠프 -5298
게이 -5299
▁1921 -5300
AM -5301
▁250 -5302
▁무늬 -5303
▁cod -5304
▁숙종 -5305
▁타원 -5306
▁배웠 -5307
▁목숨 -5308
▁버지 -5309
▁좌파 -5310
▁첫째 -5311
▁해협 -5312
▁유발 -5313
▁176 -5314
▁지휘관 -5315
▁구리 -5316
▁덕분 -5317
시스트 -5318
▁An -5319
▁일환 -5320
▁스트라이 -5321
▁가구 -5322
▁물려 -5323
▁아이스 -5324
▁지칭 -5325
▁그래프 -5326
▁수비수 -5327
▁유대인 -5328
▁킬로 -5329
▁김대중 -5330
▁기생 -5331
▁극복 -5332
▁성명 -5333
▁마그 -5334
▁공룡 -5335
▁단장 -5336
▁코트 -5337
▁토너먼트 -5338
▁공세 -5339
▁동성애 -5340
널드 -5341
ang -5342
▁강전 -5343
▁닮 -5344
▁WW -5345
▁빗 -5346
여서 -5347
▁소요 -5348
▁필라 -5349
▁트랜스 -5350
둥이 -5351
▁하버 -5352
▁1929 -5353
▁착용 -5354
▁칙 -5355
▁약탈 -5356
▁연호 -5357
▁수반 -5358
▁조문 -5359
▁집필 -5360
▁쯤 -5361
수량 -5362
▁는다고 -5363
▁조화 -5364
▁아틀 -5365
▁키스 -5366
▁특허 -5367
▁평론가 -5368
▁자이언츠 -5369
▁그럼 -5370
▁드리 -5371
▁05 -5372
▁바이올 -5373
▁부작 -5374
▁비즈 -5375
▁사관 -5376
▁스테이션 -5377
▁캡 -5378
▁기갑 -5379
▁갤럭 -5380
▁운동가 -5381
▁험 -5382
▁빠지 -5383
▁연상 -5384
▁동반 -5385
▁1925 -5386
▁살아남 -5387
▁곰 -5388
▁도메 -5389
▁y -5390
▁1923 -5391
▁잠재 -5392
▁크레 -5393
▁램 -5394
▁매니 -5395
밀리 -5396
산물 -5397
▁발휘 -5398
▁롬 -5399
▁공국 -5400
▁의석 -5401
투아 -5402
▁라트 -5403
▁연평균 -5404
▁첸 -5405
▁이수 -5406
▁갤럭시 -5407
▁인터페이스 -5408
미아 -5409
▁건담 -5410
▁영혼 -5411
▁성직자 -5412
▁가끔 -5413
▁삼각 -5414
▁고고 -5415
▁번지 -5416
▁협약 -5417
▁북아메리카 -5418
ss -5419
▁딱 -5420
▁지부 -5421
▁비틀 -5422
▁요원 -5423
▁입사 -5424
▁섬유 -5425
▁타입 -5426
▁어두 -5427
▁도호 -5428
클린 -5429
▁임신 -5430
▁근로 -5431
▁비하 -5432
▁지역구 -5433
▁플로리다 -5434
▁과일 -5435
▁불화 -5436
무게 -5437
▁원장 -5438
▁몸무게 -5439
▁추대 -5440
▁무너 -5441
▁연계 -5442
▁영감 -5443
▁틱 -5444
▁07 -5445
▁AC -5446
▁장갑 -5447
▁모로 -5448
▁발렌 -5449
▁전한 -5450
▁박근혜 -5451
▁똑같 -5452
▁압축 -5453
▁추락 -5454
▁선교사 -5455
▁웨일스 -5456
타카 -5457
▁관리자 -5458
▁중립 -5459
▁대한제국 -5460
▁샤를 -5461
▁드러나 -5462
▁북서쪽 -5463
▁디오 -5464
▁우드 -5465
▁카페 -5466
▁모험 -5467
▁영광 -5468
▁트레이 -5469
대문 -5470
▁갱 -5471
▁유비 -5472
ity -5473
▁박스 -5474
▁시게 -5475
▁진술 -5476
▁채권 -5477
마이 -5478
카스 -5479
▁삭제 -5480
▁이조 -5481
▁지질 -5482
▁사당 -5483
▁고분 -5484
▁레벨 -5485
▁일자 -5486
베이스 -5487
▁유성 -5488
추어 -5489
▁압도 -5490
▁남아메리카 -5491
▁단선 -5492
▁데리 -5493
▁돌아갔 -5494
▁진흥 -5495
키스 -5496
▁돌파 -5497
▁결심 -5498
▁리스트 -5499
▁망원경 -5500
▁하와이 -5501
▁서인 -5502
▁철저 -5503
▁161 -5504
▁캘리포니아주 -5505
▁수직 -5506
▁종로 -5507
▁제약 -5508
▁페루 -5509
▁필름 -5510
▁북극 -5511
▁미분 -5512
▁모시 -5513
▁그려져 -5514
▁부탁 -5515
▁설비 -5516
▁유가 -5517
▁기관차 -5518
▁SC -5519
▁저널 -5520
▁다이묘 -5521
▁변신 -5522
▁중시 -5523
▁빅토리아 -5524
▁준우 -5525
▁주류 -5526
▁홀로 -5527
▁그랜드 -5528
▁교과 -5529
▁민속 -5530
ff -5531
▁사거리 -5532
▁향토 -5533
▁EP -5534
보이 -5535
▁복구 -5536
▁카자 -5537
▁넘겨 -5538
▁이날 -5539
▁청동 -5540
▁무릎 -5541
부사 -5542
▁트럼 -5543
▁파운드 -5544
▁피트 -5545
▁성씨 -5546
▁175 -5547
슬리 -5548
▁각자 -5549
▁1922 -5550
▁빨간 -5551
▁나서 -5552
▁쓰러 -5553
▁도마뱀 -5554
▁부유 -5555
▁여인 -5556
▁프로세서 -5557
▁바오 -5558
▁수장 -5559
▁문인 -5560
▁평생 -5561
▁codice -5562
▁떼 -5563
▁도어 -5564
▁아기 -5565
▁삼각형 -5566
▁엽 -5567
▁틸 -5568
행성 -5569
▁레이블 -5570
▁음모 -5571
▁화가 -5572
▁서적 -5573
즈키 -5574
▁프레임 -5575
▁고서 -5576
▁유역 -5577
▁명사 -5578
▁My -5579
▁노무 -5580
▁중구 -5581
애나 -5582
▁de -5583
▁칼리 -5584
▁가톨릭교회 -5585
일본 -5586
▁모래 -5587
▁엘리자베스 -5588
▁고안 -5589
▁유용 -5590
▁지연 -5591
▁버지니아 -5592
▁인천광역시 -5593
▁규슈 -5594
▁윤치 -5595
▁직위 -5596
▁리치 -5597
▁직선 -5598
▁토벌 -5599
▁공격수 -5600
▁파트너 -5601
▁일어난다 -5602
▁굽 -5603
▁투구 -5604
▁노비 -5605
▁최상 -5606
▁루트비히 -5607
▁1912 -5608
▁KT -5609
▁표지 -5610
▁황태 -5611
오리 -5612
프란 -5613
▁어워드 -5614
▁죠 -5615
▁국민당 -5616
니즘 -5617
▁라마 -5618
▁문법 -5619
▁무산 -5620
▁Love -5621
▁자치구 -5622
▁아과 -5623
메니아 -5624
▁왕가 -5625
▁무인 -5626
▁164 -5627
▁교차로 -5628
양군 -5629
▁간섭 -5630
▁봉사 -5631
▁올린 -5632
▁고르 -5633
▁구미 -5634
▁네이션 -5635
▁베토 -5636
▁실점 -5637
▁글씨 -5638
▁상처 -5639
▁인력 -5640
▁수상자 -5641
▁Go -5642
▁납치 -5643
▁들어서 -5644
▁침해 -5645
눅스 -5646
▁사토 -5647
▁영조 -5648
▁넬 -5649
▁모니 -5650
▁벨라 -5651
▁왈 -5652
▁패턴 -5653
ong -5654
▁남겨 -5655
▁"" -5656
▁퍼시 -5657
▁동일본 -5658
▁블라디 -5659
▁포유 -5660
▁소설가 -5661
멘트 -5662
▁장사 -5663
타운 -5664
▁자책 -5665
▁행해 -5666
▁아르메니아 -5667
▁리눅스 -5668
▁MV -5669
▁랭킹 -5670
▁지중해 -5671
▁SM -5672
▁교역 -5673
▁주사 -5674
▁1908 -5675
▁릭 -5676
야수 -5677
▁아마추어 -5678
▁옮기 -5679
▁연령 -5680
▁호조 -5681
▁경유 -5682
▁아울 -5683
라이터 -5684
▁목조 -5685
▁배상 -5686
▁이종 -5687
▁06 -5688
▁연소 -5689
▁스케이팅 -5690
▁사촌 -5691
▁수지 -5692
▁전향 -5693
▁1906 -5694
▁가해 -5695
▁건축물 -5696
▁제주도 -5697
▁보통학교 -5698
up -5699
▁과도 -5700
▁매각 -5701
▁태자 -5702
▁관하 -5703
▁마라 -5704
▁돼지 -5705
▁적응 -5706
멘터리 -5707
보살 -5708
▁토르 -5709
▁베타 -5710
▁남동쪽 -5711
▁1917 -5712
지마 -5713
▁시상식 -5714
▁싫 -5715
▁마카 -5716
▁적어도 -5717
슬로 -5718
▁출현 -5719
도니아 -5720
사관 -5721
▁준우승 -5722
▁육성 -5723
▁플레 -5724
ip -5725
▁띤 -5726
▁낸다 -5727
▁JR -5728
▁전승 -5729
▁정자 -5730
▁삽입 -5731
스팅 -5732
▁들여 -5733
▁에스파 -5734
▁히가시 -5735
▁조명 -5736
▁1927 -5737
▁쇠퇴 -5738
▁통로 -5739
▁시아 -5740
ld -5741
▁명문 -5742
▁안양 -5743
▁커피 -5744
▁크림 -5745
▁03 -5746
▁유인 -5747
▁진지 -5748
▁다양체 -5749
▁북동쪽 -5750
란다 -5751
▁우익 -5752
IS -5753
ant -5754
▁기압 -5755
▁우루 -5756
ED -5757
▁앨런 -5758
▁사라지 -5759
▁과장 -5760
▁시집 -5761
▁이토 -5762
▁낼 -5763
▁관중 -5764
▁대행 -5765
▁부동산 -5766
▁별로 -5767
▁정서 -5768
▁1907 -5769
▁굿 -5770
▁모듈 -5771
▁스와 -5772
▁표본 -5773
▁몬테 -5774
OM -5775
▁보좌 -5776
▁옹호 -5777
▁인자 -5778
▁아무런 -5779
▁렉 -5780
▁전작 -5781
▁호르 -5782
▁세워진 -5783
▁흙 -5784
▁노인 -5785
▁배급 -5786
▁체인 -5787
▁BBC -5788
▁외계 -5789
▁폐기 -5790
▁베토벤 -5791
▁색상 -5792
▁연금 -5793
▁의병 -5794
▁탐험 -5795
▁다큐멘터리 -5796
영상 -5797
▁석조 -5798
이즈 -5799
▁SN -5800
▁때로 -5801
▁럭 -5802
▁단행 -5803
▁창간 -5804
▁1926 -5805
▁종족 -5806
▁168 -5807
몬드 -5808
▁헤드 -5809
▁협의회 -5810
▁걷 -5811
▁밀라노 -5812
▁우크라이나 -5813
▁데려 -5814
▁아가 -5815
▁항목 -5816
▁안보 -5817
▁자문 -5818
▁맞춰 -5819
▁산악 -5820
▁선제 -5821
▁호남 -5822
▁포크 -5823
▁산타 -5824
▁앱 -5825
▁탑승 -5826
페이지 -5827
▁수감 -5828
▁상하이 -5829
▁슐 -5830
▁무선 -5831
▁해설 -5832
▁겨우 -5833
▁급속 -5834
▁왕립 -5835
▁유입 -5836
▁동아시아 -5837
▁He -5838
av -5839
티움 -5840
다니 -5841
▁지름 -5842
생물 -5843
▁내장 -5844
▁문하 -5845
▁노조 -5846
▁여서 -5847
▁송라이터 -5848
어트 -5849
▁대교 -5850
스토 -5851
▁패러 -5852
▁꾸준히 -5853
▁비전 -5854
▁PD -5855
▁자전거 -5856
▁상영 -5857
▁찌 -5858
긴다 -5859
▁세조 -5860
▁스틸 -5861
▁좌익 -5862
▁NHK -5863
▁연고지 -5864
▁기아 -5865
▁묘지 -5866
▁하천 -5867
런트 -5868
ind -5869
▁디즈니 -5870
슬라 -5871
튜브 -5872
▁사료 -5873
▁최우수 -5874
▁에릭 -5875
▁166 -5876
▁기종 -5877
▁유신 -5878
다른 -5879
▁홈페이지 -5880
다이라 -5881
▁동사 -5882
▁원로 -5883
▁162 -5884
ame -5885
▁합계 -5886
▁이어져 -5887
로프 -5888
▁기름 -5889
▁민족주의 -5890
▁정사 -5891
▁엄마 -5892
▁레이다 -5893
▁1905 -5894
▁줬 -5895
페인 -5896
▁대조 -5897
▁오리지 -5898
▁유튜브 -5899
AC -5900
▁시에 -5901
▁예외 -5902
▁제후 -5903
▁흥미 -5904
se -5905
▁룩 -5906
▁칭하 -5907
▁비평가 -5908
텐도 -5909
▁그쳤 -5910
▁기하학 -5911
▁닌텐도 -5912
▁Sp -5913
▁콩고 -5914
▁뚫 -5915
▁비단 -5916
▁늘어나 -5917
▁딴 -5918
▁독일어 -5919
총장 -5920
▁151 -5921
▁가르치 -5922
▁스승 -5923
브스 -5924
▁곧바로 -5925
▁|| -5926
▁선진 -5927
세스 -5928
▁버그 -5929
▁색깔 -5930
▁문화유산 -5931
▁증기 -5932
▁펼치 -5933
▁해진 -5934
▁소니 -5935
▁사이클 -5936
플레이 -5937
▁품질 -5938
▁스페셜 -5939
▁조선인 -5940
▁모집 -5941
▁목격 -5942
▁수명 -5943
▁수천 -5944
▁시외 -5945
▁운명 -5946
▁리듬 -5947
▁드래곤 -5948
▁주말 -5949
나카 -5950
▁요미 -5951
▁트럭 -5952
▁가쓰 -5953
▁방안 -5954
▁셋째 -5955
▁158 -5956
ES -5957
ry -5958
▁리얼 -5959
스티벌 -5960
▁참조 -5961
▁협의 -5962
▁전해진다 -5963
▁데이터베이스 -5964
▁거둔 -5965
▁마일 -5966
▁랴 -5967
▁칩 -5968
▁반환 -5969
▁주한 -5970
▁악장 -5971
▁유닛 -5972
▁일행 -5973
▁역과 -5974
스케 -5975
▁커뮤니티 -5976
▁페스티벌 -5977
▁나폴리 -5978
ith -5979
▁아크 -5980
▁이오 -5981
▁광역 -5982
▁쥬 -5983
▁구마 -5984
▁상소 -5985
▁옛날 -5986
▁원산 -5987
▁유고슬 -5988
▁유고슬라비아 -5989
▁문과 -5990
무네 -5991
▁라이온 -5992
▁02 -5993
▁입증 -5994
▁정류장 -5995
▁주의자 -5996
▁크리스토 -5997
엘라 -5998
▁수수 -5999
▁지바 -6000
▁대안 -6001
▁도리 -6002
▁이리 -6003
▁신비 -6004
▁심하 -6005
▁라이벌 -6006
▁할리 -6007
▁십자군 -6008
▁분배 -6009
▁점성 -6010
▁남서쪽 -6011
ort -6012
▁가미 -6013
▁주거 -6014
▁무관 -6015
▁야생 -6016
▁레이스 -6017
▁브라이언 -6018
▁자바 -6019
▁토니 -6020
▁푸른 -6021
▁한나라 -6022
▁되찾 -6023
▁도심 -6024
▁주파 -6025
▁한나라당 -6026
▁기점 -6027
▁입문 -6028
▁기용 -6029
으므로 -6030
▁거친 -6031
▁운반 -6032
▁스피드 -6033
▁기단 -6034
▁플루 -6035
프란시스코 -6036
ok -6037
▁일으킨 -6038
▁배제 -6039
▁오디션 -6040
▁샌프란시스코 -6041
▁사면 -6042
▁재무 -6043
▁향년 -6044
▁특급 -6045
▁인치 -6046
▁이루어진다 -6047
▁인텔 -6048
▁서북 -6049
▁베이스볼 -6050
▁동치 -6051
▁적색 -6052
▁직장 -6053
▁디자이너 -6054
▁챌 -6055
▁초래 -6056
프스 -6057
▁걸려 -6058
▁사직 -6059
▁쿠르 -6060
▁드러내 -6061
▁그럼에도 -6062
▁콜롬비아 -6063
▁연주자 -6064
▁안드로이드 -6065
회의 -6066
▁폭스 -6067
▁출판사 -6068
해군 -6069
▁미네 -6070
▁신임 -6071
▁당사자 -6072
▁가하 -6073
▁붙잡 -6074
▁살펴 -6075
▁동영상 -6076
▁단층 -6077
▁미만 -6078
▁프랜 -6079
▁렌즈 -6080
▁기념물 -6081
▁마케도니아 -6082
▁정교 -6083
▁케이블 -6084
▁마스 -6085
▁우르 -6086
▁평소 -6087
▁오리지널 -6088
▁련 -6089
▁긴급 -6090
▁스테이지 -6091
▁단종 -6092
▁시달 -6093
▁와카 -6094
▁출산 -6095
▁묘소 -6096
▁나타난 -6097
루살 -6098
▁다녔 -6099
▁개수 -6100
▁사로 -6101
▁1904 -6102
▁복제 -6103
▁부패 -6104
루살렘 -6105
▁지휘자 -6106
▁템 -6107
▁알라 -6108
▁예술가 -6109
▁석탑 -6110
▁예언 -6111
▁콘스탄티노 -6112
▁좌석 -6113
▁165 -6114
프라 -6115
▁쓴다 -6116
▁기재 -6117
▁서경 -6118
▁왕족 -6119
▁용기 -6120
▁관장 -6121
▁교전 -6122
▁진도 -6123
▁파생 -6124
▁걸리 -6125
▁모순 -6126
▁의거 -6127
▁자사 -6128
▁Un -6129
▁권고 -6130
▁Wh -6131
▁가게 -6132
▁상무 -6133
▁센트럴 -6134
▁마쓰다이라 -6135
▁트레 -6136
▁여동생 -6137
▁판타지 -6138
▁내륙 -6139
▁아도 -6140
▁급행 -6141
▁신하 -6142
▁압박 -6143
교육 -6144
▁계단 -6145
▁합작 -6146
▁수면 -6147
▁봐 -6148
문학 -6149
▁154 -6150
리케이션 -6151
ob -6152
▁만난 -6153
ord -6154
▁드림 -6155
▁비즈니스 -6156
▁Se -6157
▁오타 -6158
▁선보였 -6159
▁동전 -6160
▁무신 -6161
▁파나 -6162
qu -6163
▁무슬 -6164
▁두려워 -6165
▁예루살렘 -6166
터스 -6167
▁받침 -6168
▁가득 -6169
▁항일 -6170
▁DJ -6171
▁용산 -6172
▁옌 -6173
▁사르 -6174
▁156 -6175
가스 -6176
페이 -6177
▁신용 -6178
▁163 -6179
모니 -6180
▁정계 -6181
▁167 -6182
▁이명박 -6183
▁그랑 -6184
▁링크 -6185
경기 -6186
▁대단 -6187
▁연애 -6188
▁스펙트 -6189
▁바이올린 -6190
▁훼손 -6191
▁무슬림 -6192
▁도메인 -6193
우옌 -6194
▁AM -6195
▁두드 -6196
▁마쳤 -6197
▁사범 -6198
▁크리스티 -6199
▁무라 -6200
▁상임 -6201
▁스쿨 -6202
▁이지 -6203
▁밀접 -6204
▁부리 -6205
▁얼음 -6206
디스 -6207
▁끼리 -6208
▁비로 -6209
▁여신 -6210
▁SF -6211
▁부수 -6212
▁퍼져 -6213
▁진상 -6214
▁노무현 -6215
▁스펙트럼 -6216
▁과제 -6217
▁리투아 -6218
▁머물렀 -6219
▁회원국 -6220
▁리투아니아 -6221
PS -6222
ate -6223
▁900 -6224
▁혜성 -6225
▁호환 -6226
식물 -6227
▁조국 -6228
▁타마 -6229
▁말라 -6230
▁서울시 -6231
▁파동 -6232
랑이 -6233
▁전염 -6234
아지 -6235
▁충남 -6236
▁미얀 -6237
▁챌린 -6238
▁친정 -6239
▁스마트폰 -6240
▁한양 -6241
▁자마 -6242
▁조류 -6243
▁자회사 -6244
▁게시 -6245
▁샬 -6246
카르 -6247
▁지주 -6248
▁참판 -6249
▁뛰어나 -6250
▁장편 -6251
▁고립 -6252
▁분지 -6253
▁와중 -6254
▁팅 -6255
▁발효 -6256
▁번식 -6257
▁비잔티움 -6258
껍질 -6259
▁바그 -6260
▁애국 -6261
▁예능 -6262
▁우지 -6263
▁니스 -6264
▁선사 -6265
▁식사 -6266
▁싸웠 -6267
▁WWE -6268
▁저기 -6269
▁샹 -6270
▁교섭 -6271
▁좋아하 -6272
▁디비전 -6273
▁댐 -6274
▁어항 -6275
▁쇼군 -6276
▁지장 -6277
▁차관 -6278
▁착륙 -6279
▁일요일 -6280
IC -6281
리크 -6282
▁오다 -6283
킨스 -6284
▁피스 -6285
▁오케스트라 -6286
▁UN -6287
▁선두 -6288
▁벌어지 -6289
▁피렌 -6290
잡이 -6291
▁주립 -6292
▁시체 -6293
커스 -6294
▁부흥 -6295
▁포맷 -6296
길이 -6297
▁잊 -6298
▁농도 -6299
▁서브 -6300
▁성종 -6301
▁융합 -6302
▁139 -6303
▁사리 -6304
▁진나라 -6305
마치 -6306
▁알바니아 -6307
▁아베 -6308
▁충성 -6309
▁구장 -6310
▁심한 -6311
▁야기 -6312
▁최신 -6313
▁하트 -6314
로디 -6315
예프 -6316
▁AS -6317
▁쿠스 -6318
▁행정부 -6319
부인 -6320
▁소나 -6321
▁요크 -6322
럼비아 -6323
▁강연 -6324
▁대령 -6325
▁바티 -6326
▁용량 -6327
▁위주 -6328
▁사인 -6329
▁월간 -6330
▁145 -6331
▁간접 -6332
▁보전 -6333
▁낱 -6334
▁빨리 -6335
▁벌어졌 -6336
▁사라졌 -6337
▁기타리스트 -6338
▁거인 -6339
▁점유 -6340
▁투명 -6341
ET -6342
▁부자 -6343
▁발족 -6344
▁차체 -6345
▁해인 -6346
▁굉 -6347
ast -6348
들리 -6349
▁공과 -6350
▁관찰사 -6351
▁아이디 -6352
▁전이 -6353
▁마리오 -6354
▁학파 -6355
▁MVP -6356
▁개발자 -6357
▁하드웨어 -6358
▁착수 -6359
▁주머니 -6360
▁이에 -6361
▁킬로미터 -6362
▁김동 -6363
▁브라우 -6364
▁깔 -6365
▁고조 -6366
▁부통령 -6367
▁스트리트 -6368
▁전임 -6369
▁알렸 -6370
▁제네 -6371
▁측근 -6372
▁아이디어 -6373
▁디젤 -6374
▁아세 -6375
DP -6376
어리 -6377
▁사사 -6378
▁임상 -6379
▁피렌체 -6380
▁번주 -6381
▁부도 -6382
▁완화 -6383
▁푼 -6384
▁HIV -6385
▁마케팅 -6386
▁응우옌 -6387
▁중국어 -6388
▁규명 -6389
▁던지 -6390
▁마산 -6391
▁몸길이 -6392
▁아울러 -6393
▁전지 -6394
▁관광객 -6395
랑크 -6396
수아 -6397
아리 -6398
▁권유 -6399
▁정벌 -6400
▁미나미 -6401
▁배정 -6402
▁뱅크 -6403
▁전두 -6404
▁맥스 -6405
데이트 -6406
▁경선 -6407
▁하노 -6408
if -6409
▁성공회 -6410
▁부시 -6411
▁중도 -6412
▁1896 -6413
▁업데이트 -6414
트롤 -6415
▁전류 -6416
▁제의 -6417
▁트윈 -6418
트니 -6419
▁구동 -6420
▁다이아 -6421
▁귀환 -6422
▁들어간 -6423
주곡 -6424
▁변동 -6425
▁석탄 -6426
▁출구 -6427
레이터 -6428
▁피에르 -6429
ive -6430
ack -6431
▁공용 -6432
▁형법 -6433
란트 -6434
▁DS -6435
▁사바 -6436
▁성벽 -6437
▁공전 -6438
▁여덟 -6439
IT -6440
균관 -6441
▁검증 -6442
루미 -6443
츠키 -6444
▁스콧 -6445
▁청와 -6446
▁짙 -6447
ure -6448
▁로빈 -6449
리티 -6450
▁연수 -6451
▁게이트 -6452
▁174 -6453
▁들어와 -6454
▁존경 -6455
▁젖 -6456
로운 -6457
▁친선 -6458
▁붓 -6459
악기 -6460
▁세례 -6461
▁다룬 -6462
▁실용 -6463
▁IP -6464
▁정찰 -6465
▁청와대 -6466
▁5000 -6467
▁인과 -6468
▁중독 -6469
▁수학자 -6470
▁달아 -6471
▁플라스 -6472
▁스타크래프트 -6473
▁마운 -6474
▁사명 -6475
▁오렌 -6476
▁우즈 -6477
▁찾아가 -6478
▁요미우리 -6479
▁애플리케이션 -6480
▁자면 -6481
▁조용 -6482
▁관습 -6483
▁붙이 -6484
▁152 -6485
▁피난 -6486
▁노동조합 -6487
▁수산 -6488
▁지각 -6489
ock -6490
▁옐 -6491
문관 -6492
▁서열 -6493
운서 -6494
▁미하 -6495
▁시라 -6496
▁전장 -6497
▁시드니 -6498
iv -6499
나와 -6500
▁전진 -6501
▁소송법 -6502
▁테일러 -6503
결승 -6504
▁행진 -6505
▁아나운서 -6506
▁쇼핑 -6507
▁메디 -6508
▁얼마나 -6509
▁뷔 -6510
▁리오 -6511
▁157 -6512
▁쏟 -6513
▁장성 -6514
▁서일본 -6515
토미 -6516
▁호평 -6517
▁문재인 -6518
▁전문학교 -6519
▁꼴 -6520
▁테오 -6521
▁규격 -6522
▁밀양 -6523
▁한화 -6524
▁Ar -6525
▁자율 -6526
▁상상 -6527
▁한강 -6528
▁저기압 -6529
▁루수 -6530
▁신전 -6531
▁준공 -6532
ck -6533
▁고개 -6534
▁곁 -6535
▁금성 -6536
▁해전 -6537
▁판매량 -6538
▁퇴각 -6539
폴리스 -6540
▁빌헬 -6541
▁어릴 -6542
▁연구자 -6543
▁룬 -6544
▁가질 -6545
▁수신 -6546
▁고사 -6547
▁적대 -6548
▁회수 -6549
▁물러나 -6550
▁관념 -6551
▁뿔 -6552
▁이슈 -6553
▁좌표 -6554
▁흥행 -6555
▁프로세스 -6556
▁급진 -6557
▁염색 -6558
▁구제 -6559
▁번뇌 -6560
▁신칸 -6561
▁취약 -6562
▁미스터 -6563
▁보드 -6564
▁비극 -6565
▁하버드 -6566
▁책봉 -6567
가루 -6568
▁관현 -6569
▁몰락 -6570
▁지분 -6571
▁성균관 -6572
▁무효 -6573
▁장인 -6574
▁자손 -6575
▁가즈 -6576
▁응답 -6577
외선 -6578
▁백신 -6579
▁카시 -6580
▁해임 -6581
▁할당 -6582
산군 -6583
트랙 -6584
전자 -6585
▁상류 -6586
▁연루 -6587
▁이순 -6588
▁휩 -6589
▁김용 -6590
▁복소 -6591
▁식당 -6592
수수 -6593
▁마찰 -6594
▁충족 -6595
▁MP -6596
원숭이 -6597
▁쇄 -6598
▁국어 -6599
▁소금 -6600
▁1500 -6601
카드 -6602
▁통행 -6603
니스트 -6604
▁125 -6605
▁문제점 -6606
▁제휴 -6607
▁서독 -6608
▁악마 -6609
하르트 -6610
▁믿음 -6611
포스 -6612
▁메가 -6613
▁146 -6614
▁j -6615
▁승차 -6616
▁천문학 -6617
▁105 -6618
▁흩 -6619
혁명 -6620
▁루터 -6621
▁소총 -6622
▁에티 -6623
▁니아 -6624
▁카나 -6625
▁3000 -6626
악단 -6627
▁자고 -6628
▁창업 -6629
메르 -6630
▁매출 -6631
▁히스 -6632
자와 -6633
▁남양 -6634
▁비아 -6635
▁파스 -6636
▁히라 -6637
▁패전 -6638
▁외무 -6639
▁마오 -6640
▁서서 -6641
▁유출 -6642
▁강사 -6643
▁남인 -6644
▁박영 -6645
▁여수 -6646
▁저택 -6647
▁로고 -6648
▁자책점 -6649
▁나미 -6650
▁우정 -6651
▁동남아시아 -6652
▁소지 -6653
▁곳곳 -6654
12 -6655
▁가라 -6656
▁술탄 -6657
▁됐으며 -6658
▁착공 -6659
▁1911 -6660
ime -6661
▁윌슨 -6662
▁이노 -6663
▁민국 -6664
▁신칸센 -6665
▁얇 -6666
▁노드 -6667
▁성전 -6668
▁조언 -6669
▁원나라 -6670
▁이복 -6671
▁와인 -6672
▁단원 -6673
▁내내 -6674
고속도로 -6675
▁나열 -6676
▁중점 -6677
▁지지자 -6678
▁봤 -6679
▁항공모 -6680
▁회견 -6681
▁떨어졌 -6682
▁소닉 -6683
▁지목 -6684
▁153 -6685
▁못해 -6686
▁청사 -6687
▁일렉 -6688
라트 -6689
일드 -6690
▁고원 -6691
▁하마 -6692
▁소재지 -6693
▁과목 -6694
▁석가 -6695
▁프로토콜 -6696
▁PS -6697
▁매개 -6698
▁소관 -6699
▁MC -6700
▁고무 -6701
▁여래 -6702
▁이이 -6703
one -6704
서양 -6705
▁예배 -6706
▁셈 -6707
▁Le -6708
▁순천 -6709
▁두드러 -6710
▁빌헬름 -6711
▁디비 -6712
▁유언 -6713
▁환상 -6714
▁사지 -6715
▁후자 -6716
▁조르 -6717
▁103 -6718
▁눈물 -6719
▁카트 -6720
▁환원 -6721
▁희극 -6722
▁회계 -6723
▁강수량 -6724
▁미얀마 -6725
▁없애 -6726
▁힌두 -6727
▁폴리스 -6728
네이 -6729
▁특유 -6730
▁시외버스 -6731
제프 -6732
▁내지 -6733
▁따위 -6734
토시 -6735
▁성모 -6736
▁아즈 -6737
▁사로잡 -6738
▁동위 -6739
▁증후 -6740
▁배구 -6741
▁연인 -6742
▁우주선 -6743
▁진리 -6744
▁편곡 -6745
▁마천 -6746
팩트 -6747
▁주권 -6748
▁중장 -6749
▁천사 -6750
대군 -6751
▁이글 -6752
▁채무 -6753
▁Pro -6754
▁참가자 -6755
▁카자흐 -6756
▁떠난 -6757
▁보잉 -6758
▁취재 -6759
▁포장 -6760
Pa -6761
▁법령 -6762
▁일관 -6763
▁한데 -6764
▁패스 -6765
▁개업 -6766
▁비틀즈 -6767
ML -6768
▁여의 -6769
▁클린 -6770
▁공략 -6771
▁반격 -6772
▁ISO -6773
델피아 -6774
▁필라델피아 -6775
▁공자 -6776
▁오클 -6777
▁제트 -6778
▁기장 -6779
▁약한 -6780
▁친척 -6781
▁고베 -6782
▁페어 -6783
▁공인 -6784
▁별개 -6785
▁닭 -6786
받침 -6787
▁근접 -6788
▁해역 -6789
▁회화 -6790
▁겸임 -6791
▁매사 -6792
▁선원 -6793
▁인격 -6794
▁점프 -6795
기니 -6796
▁버튼 -6797
노리 -6798
▁최적 -6799
▁토크 -6800
▁삿 -6801
▁각기 -6802
▁여진 -6803
▁우편 -6804
즈카 -6805
AP -6806
▁금액 -6807
▁대답 -6808
▁발해 -6809
▁시립 -6810
▁추모 -6811
▁얘 -6812
▁나리 -6813
▁굵 -6814
▁오렌지 -6815
▁유격 -6816
▁협동 -6817
OC -6818
▁게재 -6819
▁상자 -6820
▁155 -6821
▁출입구 -6822
▁격렬 -6823
▁중종 -6824
마사 -6825
▁보충 -6826
▁독립운동가 -6827
동물 -6828
▁각본가 -6829
▁아군 -6830
▁카타 -6831
▁테스 -6832
▁컨트롤 -6833
▁모으 -6834
▁실종 -6835
▁위장 -6836
▁매력 -6837
▁사물 -6838
▁나고 -6839
▁유해 -6840
▁이원 -6841
▁밭 -6842
▁법무 -6843
▁갓 -6844
▁동등 -6845
▁미소 -6846
▁허브 -6847
▁정치가 -6848
▁인형 -6849
▁즐기 -6850
▁주파수 -6851
▁108 -6852
▁사가 -6853
▁항공모함 -6854
노프 -6855
소스 -6856
▁Bo -6857
▁이인 -6858
▁포수 -6859
▁합법 -6860
▁담배 -6861
▁민영 -6862
▁토리 -6863
▁별자리 -6864
시온 -6865
▁이영 -6866
te -6867
▁컸 -6868
▁생일 -6869
▁앞면 -6870
▁증후군 -6871
▁레전 -6872
▁두산 -6873
▁이바 -6874
▁리메 -6875
▁성주 -6876
▁양상 -6877
▁유교 -6878
▁민사 -6879
▁평행 -6880
▁북동부 -6881
▁하얀 -6882
▁사우디아 -6883
플러 -6884
▁오디오 -6885
때로 -6886
▁영동 -6887
▁서서히 -6888
▁거슬러 -6889
▁일찍이 -6890
▁토요일 -6891
▁룰 -6892
▁감지 -6893
▁아리스 -6894
▁스터 -6895
▁트라이 -6896
▁서해 -6897
▁자발 -6898
▁고체 -6899
리언 -6900
▁마친 -6901
▁Con -6902
▁전두환 -6903
상스 -6904
▁에이스 -6905
▁건의 -6906
▁아바 -6907
▁베르크 -6908
▁준결승 -6909
▁어두운 -6910
▁펴 -6911
▁상대방 -6912
▁히데요시 -6913
▁외곽 -6914
▁스파이 -6915
▁만세 -6916
산면 -6917
▁상부 -6918
▁가르침 -6919
▁개찰구 -6920
▁헐 -6921
▁하우 -6922
▁박탈 -6923
▁추격 -6924
▁에디 -6925
▁때때로 -6926
▁무려 -6927
▁화살 -6928
io -6929
▁꾀 -6930
▁일족 -6931
▁승무원 -6932
▁시청자 -6933
▁이사장 -6934
▁전례 -6935
항공 -6936
ber -6937
▁브래 -6938
▁아케 -6939
▁야간 -6940
▁김영삼 -6941
▁퍼시픽 -6942
산리 -6943
▁교장 -6944
▁고발 -6945
▁상장 -6946
▁트럼프 -6947
▁1909 -6948
▁앙리 -6949
▁입상 -6950
▁나고야 -6951
▁물자 -6952
▁드라이브 -6953
▁하인리히 -6954
▁호세 -6955
▁크리스마스 -6956
▁IT -6957
▁궁정 -6958
▁생명체 -6959
▁캠페인 -6960
▁세균 -6961
▁아우구 -6962
▁골프 -6963
▁사다 -6964
▁홍수 -6965
베이터 -6966
▁교단 -6967
▁해운 -6968
퍼니 -6969
▁옴 -6970
러미 -6971
화점 -6972
▁튼 -6973
▁기금 -6974
▁남긴 -6975
▁트위 -6976
▁외국어 -6977
▁전함 -6978
▁부착 -6979
▁대주교 -6980
▁이슬람교 -6981
▁긴장 -6982
▁수성 -6983
▁연도 -6984
▁128 -6985
▁송나라 -6986
▁보스니아 -6987
▁끊임 -6988
▁149 -6989
▁레이저 -6990
가타 -6991
▁대군 -6992
▁명의 -6993
▁자마자 -6994
▁남한 -6995
▁대외 -6996
▁배틀 -6997
▁집계 -6998
▁콜라 -6999
▁네이버 -7000
▁운동장 -7001
▁피고 -7002
라이트 -7003
▁102 -7004
▁기다리 -7005
▁제작자 -7006
▁지나치 -7007
▁전도 -7008
▁정밀 -7009
▁존중 -7010
▁물러났 -7011
▁짜리 -7012
▁톈 -7013
▁복장 -7014
▁트루 -7015
▁사우디아라비아 -7016
구장 -7017
▁메타 -7018
▁향교 -7019
칠리아 -7020
▁# -7021
모어 -7022
▁사용자 -7023
라미 -7024
▁호칭 -7025
▁르네상스 -7026
▁고가 -7027
▁최저 -7028
▁어드 -7029
람회 -7030
▁건축가 -7031
▁안장 -7032
▁여주 -7033
▁중재 -7034
▁후안 -7035
트릭 -7036
▁방침 -7037
▁슬라 -7038
▁치세 -7039
▁안드레 -7040
▁중국인 -7041
생활 -7042
▁텍스트 -7043
▁에스파냐 -7044
▁쉐 -7045
▁직책 -7046
▁발현 -7047
▁주지사 -7048
▁발원 -7049
▁계절 -7050
▁강경 -7051
▁전대 -7052
ge -7053
age -7054
▁팽창 -7055
▁촉구 -7056
▁포괄 -7057
▁굉장 -7058
▁차남 -7059
▁최소한 -7060
먼드 -7061
▁레전드 -7062
붙이 -7063
▁단기 -7064
▁섭취 -7065
다드 -7066
▁Bl -7067
▁셸 -7068
▁시오 -7069
▁향한 -7070
▁향후 -7071
▁자유당 -7072
iz -7073
▁상세 -7074
▁세미 -7075
▁사절 -7076
▁패하 -7077
▁손가락 -7078
집합 -7079
▁초창 -7080
▁키프 -7081
▁턱 -7082
▁갑작 -7083
백과 -7084
▁객관 -7085
▁끌어 -7086
▁문양 -7087
▁캄보 -7088
▁아미타 -7089
▁대니 -7090
▁수평 -7091
▁토스 -7092
▁사이버 -7093
▁포도주 -7094
▁$ -7095
우라 -7096
▁낙선 -7097
▁둥근 -7098
▁원하 -7099
차례 -7100
▁원자로 -7101
▁에우 -7102
▁청장 -7103
▁팔레스 -7104
▁그랑프리 -7105
사기 -7106
▁다중 -7107
▁프랭크 -7108
▁수군 -7109
태우 -7110
AD -7111
행위 -7112
▁충주 -7113
▁건너가 -7114
▁딩 -7115
▁단점 -7116
▁고래 -7117
▁진군 -7118
▁취지 -7119
▁컬러 -7120
▁hPa -7121
▁유니폼 -7122
▁캐스팅 -7123
▁태생 -7124
▁로프 -7125
▁명목 -7126
▁속성 -7127
▁죽였 -7128
▁탐지 -7129
▁147 -7130
▁동독 -7131
▁음원 -7132
▁조반 -7133
▁룽 -7134
▁무죄 -7135
▁127 -7136
▁블루스 -7137
리즘 -7138
▁경부 -7139
▁버린 -7140
▁CPU -7141
▁스릴 -7142
▁토마 -7143
▁노란색 -7144
▁볼리 -7145
▁숭배 -7146
▁협조 -7147
수엘라 -7148
▁기수 -7149
▁북방 -7150
▁초연 -7151
▁1915 -7152
▁171 -7153
▁케네 -7154
▁엘리베이터 -7155
▁주축 -7156
▁아미노 -7157
▁겔 -7158
▁마비 -7159
▁입체 -7160
▁뢰 -7161
▁왜성 -7162
▁난민 -7163
▁심의 -7164
▁침몰 -7165
노부 -7166
다고 -7167
▁하이드 -7168
▁뉘 -7169
▁엔지 -7170
orld -7171
▁이어받 -7172
▁오키나와 -7173
▁달린 -7174
▁역명 -7175
▁로맨스 -7176
▁상당수 -7177
▁황해 -7178
▁1913 -7179
▁알코 -7180
▁윌리엄스 -7181
sp -7182
보기 -7183
▁원고 -7184
▁언제나 -7185
▁김진 -7186
▁후일 -7187
▁가져왔 -7188
▁라파 -7189
▁북구 -7190
▁유소년 -7191
▁동년 -7192
▁따뜻 -7193
▁재미 -7194
▁추증 -7195
▁부천 -7196
▁제곱 -7197
▁김재 -7198
▁베네수엘라 -7199
▁휠 -7200
▁마하 -7201
▁센서 -7202
▁투르크 -7203
▁천문학자 -7204
▁김수 -7205
▁수동 -7206
▁신흥 -7207
▁서사 -7208
▁동당 -7209
▁부과 -7210
▁이틀 -7211
▁추상 -7212
ik -7213
▁출토 -7214
서리 -7215
창군 -7216
▁광년 -7217
▁옥스 -7218
▁정말 -7219
▁이민자 -7220
▁GT -7221
▁미쳤 -7222
▁탈환 -7223
▁닿 -7224
▁CE -7225
▁창건 -7226
▁코프 -7227
▁문학상 -7228
▁테니스 -7229
▁보리 -7230
▁어업 -7231
▁조리 -7232
▁초창기 -7233
▁도라 -7234
▁분광 -7235
시티 -7236
▁든지 -7237
▁버려 -7238
▁타르 -7239
▁169 -7240
▁위키백과 -7241
▁기습 -7242
▁둘레 -7243
▁전한다 -7244
▁팜 -7245
▁수렴 -7246
▁태수 -7247
▁동래 -7248
▁대포 -7249
▁링컨 -7250
▁걱 -7251
▁강과 -7252
▁종결 -7253
▁가르쳤 -7254
기지 -7255
▁시그 -7256
▁창시 -7257
▁라이언 -7258
▁머신 -7259
▁개미 -7260
▁병역 -7261
자치도 -7262
▁제주특별 -7263
▁제주특별자치도 -7264
▁프레스 -7265
▁디스플레이 -7266
▁넨 -7267
▁대제 -7268
▁대처 -7269
▁동력 -7270
▁수령 -7271
▁적자 -7272
석기 -7273
▁인재 -7274
▁청원 -7275
포구 -7276
▁원반 -7277
▁유연 -7278
▁스파르타 -7279
▁광부 -7280
▁바흐 -7281
▁유수 -7282
명사전 -7283
▁한동안 -7284
▁무제 -7285
▁효력 -7286
▁둘러싼 -7287
▁대역 -7288
▁반박 -7289
▁거느리 -7290
▁1895 -7291
▁SP -7292
크리트 -7293
▁아폴 -7294
▁팔레스타인 -7295
포트 -7296
▁남원 -7297
▁모스 -7298
▁총선거 -7299
▁카탈 -7300
▁나가사키 -7301
▁리메이크 -7302
▁나주 -7303
▁다녀 -7304
▁al -7305
▁계몽 -7306
▁141 -7307
▁주차 -7308
▁멈추 -7309
▁풀려 -7310
▁언론인 -7311
평군 -7312
▁께서 -7313
▁시공 -7314
▁135 -7315
▁초상화 -7316
▁대위 -7317
▁통칭 -7318
▁아사히 -7319
▁부른 -7320
와라 -7321
▁고백 -7322
▁총괄 -7323
▁법제 -7324
▁섭정 -7325
▁김태 -7326
▁차기 -7327
공신 -7328
▁국사 -7329
▁다운로드 -7330
MS -7331
▁비문 -7332
▁신세 -7333
▁양주 -7334
▁북서부 -7335
▁후세 -7336
박쥐 -7337
▁삼진 -7338
▁하부 -7339
▁Tr -7340
▁온천 -7341
▁111 -7342
벌레 -7343
▁번영 -7344
네스코 -7345
▁신중 -7346
▁캄보디아 -7347
▁탤 -7348
무기 -7349
ust -7350
선거 -7351
▁바실 -7352
▁소실 -7353
▁오빠 -7354
▁중순 -7355
그라드 -7356
▁도호쿠 -7357
▁수용소 -7358
자스 -7359
▁십자가 -7360
▁명백 -7361
▁저명 -7362
ep -7363
▁서머 -7364
▁영리 -7365
▁풋볼 -7366
▁지냈으며 -7367
▁귀중 -7368
▁자기장 -7369
▁원내 -7370
▁걱정 -7371
▁이진 -7372
▁개관 -7373
▁여겼 -7374
▁조달 -7375
▁문화방송 -7376
▁스핀 -7377
▁풍경 -7378
▁144 -7379
▁해병대 -7380
▁날짜 -7381
▁어스 -7382
▁중소 -7383
▁서울대 -7384
▁내외 -7385
▁자랐 -7386
▁후대 -7387
▁기요 -7388
▁당일 -7389
▁더글 -7390
▁휴식 -7391
▁스티브 -7392
▁교원 -7393
▁첨가 -7394
▁김포 -7395
▁폐위 -7396
▁리버풀 -7397
▁제수 -7398
▁그로 -7399
▁써서 -7400
▁충실 -7401
▁연세대 -7402
▁식별 -7403
▁휴전 -7404
▁불편 -7405
▁두루 -7406
▁병조 -7407
▁함유 -7408
▁에다 -7409
▁정무 -7410
▁버린다 -7411
▁며칠 -7412
▁이광 -7413
▁무상 -7414
▁정전 -7415
▁파업 -7416
▁컴퍼니 -7417
▁It -7418
▁소환 -7419
▁전성기 -7420
▁리어 -7421
▁장미 -7422
키지 -7423
▁고민 -7424
▁천도 -7425
▁119 -7426
▁지나가 -7427
▁관통 -7428
▁바꿔 -7429
▁평야 -7430
▁꽤 -7431
int -7432
▁북위 -7433
▁넘어가 -7434
▁우연히 -7435
▁편리 -7436
▁아레나 -7437
▁드럼 -7438
▁모방 -7439
▁총사 -7440
▁스릴러 -7441
▁공채 -7442
▁언더 -7443
▁다니엘 -7444
▁사회학 -7445
▁컬럼비아 -7446
누엘 -7447
▁CO -7448
▁고인 -7449
▁쇼트 -7450
▁172 -7451
EN -7452
▁왓 -7453
▁TH -7454
▁드라 -7455
▁신학교 -7456
▁케네디 -7457
▁캉 -7458
▁교양 -7459
▁덤 -7460
▁간호 -7461
▁위임 -7462
릴라 -7463
▁겸하 -7464
▁별칭 -7465
▁매카 -7466
▁선구 -7467
트리올 -7468
▁신학자 -7469
▁몬트리올 -7470
▁도스 -7471
▁스러 -7472
▁의상 -7473
▁인산 -7474
▁차종 -7475
▁106 -7476
▁좌절 -7477
▁엔지니어 -7478
▁카이사르 -7479
리에 -7480
▁연패 -7481
▁룡 -7482
▁바치 -7483
▁요르 -7484
말라 -7485
▁김상 -7486
▁바퀴 -7487
▁증진 -7488
▁초과 -7489
▁가벼 -7490
▁총대 -7491
▁해수 -7492
▁유니버 -7493
GC -7494
푸스 -7495
▁선종 -7496
▁니콜라 -7497
▁그렸 -7498
▁미즈 -7499
▁어요 -7500
▁평범 -7501
▁표명 -7502
시로 -7503
▁신기 -7504
▁진짜 -7505
▁이글스 -7506
ib -7507
▁관람 -7508
▁보완 -7509
▁아종 -7510
▁테레 -7511
▁루시 -7512
▁미주 -7513
▁베드 -7514
▁소통 -7515
▁공모 -7516
▁껍질 -7517
▁실린 -7518
라리 -7519
▁장안 -7520
▁평일 -7521
▁세계관 -7522
▁아틀레 -7523
ian -7524
ome -7525
▁장난 -7526
▁아이템 -7527
▁친일인 -7528
▁한성부 -7529
▁스페이스 -7530
▁유네스코 -7531
▁친일인명사전 -7532
그로 -7533
▁느낀 -7534
▁서남 -7535
▁몰려 -7536
▁묘역 -7537
니치 -7538
져서 -7539
▁공직 -7540
▁애덤 -7541
▁항소 -7542
▁카리브 -7543
▁도주 -7544
▁장려 -7545
케이션 -7546
▁멋 -7547
▁누군 -7548
▁승점 -7549
▁들어온 -7550
▁케이스 -7551
▁도왔 -7552
▁배신 -7553
▁중량 -7554
ude -7555
▁열대 -7556
▁잦 -7557
▁포격 -7558
▁치열 -7559
▁그루 -7560
▁마인 -7561
▁영남 -7562
▁고수 -7563
▁아벨 -7564
▁미토 -7565
▁슈트 -7566
▁일어날 -7567
▁훔 -7568
블로 -7569
▁마츠 -7570
▁지능 -7571
▁바라보 -7572
▁프랑수아 -7573
▁쿤 -7574
▁제갈 -7575
▁지혜 -7576
▁콘크리트 -7577
▁돌연 -7578
▁들어왔 -7579
▁책임자 -7580
▁닷 -7581
▁콰 -7582
▁등재 -7583
▁일화 -7584
▁쫓겨 -7585
▁에스토 -7586
▁We -7587
▁지폐 -7588
▁쓰인 -7589
▁영장 -7590
▁생전 -7591
▁쉬운 -7592
▁에버 -7593
▁탱크 -7594
▁방패 -7595
▁역설 -7596
▁충북 -7597
▁아이슬 -7598
루션 -7599
▁업계 -7600
▁해변 -7601
내셔널 -7602
▁인터내셔널 -7603
ere -7604
▁우울 -7605
▁일조 -7606
▁입지 -7607
▁정렬 -7608
▁낱말 -7609
▁외교관 -7610
▁불명 -7611
▁전압 -7612
▁합창 -7613
주의자 -7614
페르 -7615
▁시나리오 -7616
세츠 -7617
실록 -7618
▁양도 -7619
선스 -7620
▁청하 -7621
▁투르 -7622
치오 -7623
▁부재 -7624
▁부채 -7625
ire -7626
▁공단 -7627
▁상서 -7628
▁황태자 -7629
▁단식 -7630
▁호위 -7631
▁매사추 -7632
▁발트 -7633
▁신속 -7634
▁공의회 -7635
▁암석 -7636
▁매사추세츠 -7637
▁냄 -7638
▁기어 -7639
▁시흥 -7640
▁아이슬란드 -7641
▁나쁜 -7642
▁나스 -7643
▁난다 -7644
▁퍼센트 -7645
▁대웅 -7646
▁도르 -7647
▁탈당 -7648
▁중추원 -7649
▁우라늄 -7650
▁밟 -7651
나리 -7652
▁김기 -7653
▁레바 -7654
▁협주곡 -7655
▁봉쇄 -7656
▁여지 -7657
▁교외 -7658
▁실전 -7659
라이더 -7660
▁소유자 -7661
유행 -7662
▁어울 -7663
▁하락 -7664
▁구이 -7665
▁무거운 -7666
▁마약 -7667
▁친왕 -7668
리케인 -7669
▁도루 -7670
▁오비 -7671
▁인연 -7672
▁호프 -7673
ace -7674
▁상담 -7675
▁오세 -7676
▁육지 -7677
오피아 -7678
▁에티오피아 -7679
▁기인 -7680
▁서정 -7681
▁위탁 -7682
▁NBA -7683
▁횟 -7684
▁신탁 -7685
▁해소 -7686
▁에스토니아 -7687
▁고령 -7688
▁오노 -7689
▁스페인어 -7690
▁허리케인 -7691
▁돌리 -7692
▁시선 -7693
ment -7694
pe -7695
▁닝 -7696
▁중심부 -7697
▁로열 -7698
▁대전광역시 -7699
▁햇 -7700
▁바리 -7701
▁보일 -7702
▁라이선스 -7703
▁물리학자 -7704
▁병행 -7705
▁숨겨 -7706
▁평택 -7707
▁배터리 -7708
▁의뢰 -7709
▁현금 -7710
▁리비아 -7711
▁전라도 -7712
▁즈음 -7713
▁창고 -7714
▁추세 -7715
▁통근 -7716
▁주행 -7717
▁파장 -7718
하면 -7719
ide -7720
▁신생 -7721
▁오사 -7722
▁슬로바키아 -7723
마드 -7724
▁136 -7725
▁할리우드 -7726
▁내린 -7727
▁호기 -7728
▁격투 -7729
바이잔 -7730
의자 -7731
▁사슬 -7732
▁애틀 -7733
▁148 -7734
▁끓 -7735
야시 -7736
▁벗어 -7737
▁빠졌 -7738
▁페르난 -7739
▁끌려 -7740
▁바뀐 -7741
▁바닷 -7742
▁바른 -7743
▁1916 -7744
▁극동 -7745
석탑 -7746
중국 -7747
▁부적 -7748
▁이사회 -7749
제리 -7750
▁유동 -7751
▁급격히 -7752
층석탑 -7753
▁낭만 -7754
▁치즈 -7755
▁마이너 -7756
▁아제르 -7757
▁막내 -7758
▁허리 -7759
▁얘기 -7760
▁추출 -7761
▁실시간 -7762
▁스튜어트 -7763
▁우루과이 -7764
▁TO -7765
▁순회 -7766
▁결혼식 -7767
▁명제 -7768
▁아제르바이잔 -7769
▁앓 -7770
승지 -7771
▁HT -7772
▁격퇴 -7773
▁거론 -7774
▁우세 -7775
▁파이어 -7776
▁국무총리 -7777
▁서재 -7778
▁입당 -7779
▁특집 -7780
▁극히 -7781
▁닛폰 -7782
위원 -7783
▁말리 -7784
▁사헌 -7785
▁조연 -7786
▁내려가 -7787
▁동상 -7788
▁첼시 -7789
▁성운 -7790
▁솜 -7791
바다 -7792
▁구도 -7793
지리아 -7794
▁나이지리아 -7795
▁DC -7796
▁바스 -7797
▁세션 -7798
▁아마도 -7799
▁패키지 -7800
▁작센 -7801
▁산림 -7802
▁전념 -7803
▁IBM -7804
▁네이션스 -7805
IM -7806
▁고소 -7807
▁되게 -7808
▁실장 -7809
▁신규 -7810
▁모른다 -7811
▁노부나가 -7812
▁깨달 -7813
▁다항 -7814
시피 -7815
▁박해 -7816
▁산다 -7817
▁실리 -7818
▁의약 -7819
▁원숭이 -7820
▁솟 -7821
▁가동 -7822
▁시초 -7823
▁저하 -7824
▁한지 -7825
▁쌍둥이 -7826
▁데이비스 -7827
▁반감 -7828
▁수습 -7829
▁중위 -7830
▁안성 -7831
▁현종 -7832
▁138 -7833
▁자아 -7834
▁포터 -7835
▁워드 -7836
▁딕 -7837
▁성숙 -7838
▁개그 -7839
▁전했 -7840
▁한스 -7841
▁회고 -7842
람쥐 -7843
▁구릉 -7844
▁반경 -7845
▁객체 -7846
▁내보 -7847
▁면허 -7848
▁분당 -7849
▁치명 -7850
▁탐구 -7851
▁평원 -7852
▁백색 -7853
▁환영 -7854
▁후방 -7855
▁구호 -7856
▁약칭 -7857
▁백화점 -7858
▁치러진 -7859
▁지류 -7860
▁리우스 -7861
▁사헌부 -7862
▁페르디 -7863
▁브라우저 -7864
리니 -7865
▁리틀 -7866
▁경연 -7867
▁신한 -7868
▁실려 -7869
▁할지 -7870
▁냉각 -7871
cl -7872
어버 -7873
▁레논 -7874
▁붙였 -7875
▁잡아 -7876
▁지선 -7877
▁구조물 -7878
▁시칠리아 -7879
타로 -7880
▁la -7881
▁시즈 -7882
▁이세 -7883
▁최악 -7884
드리아 -7885
▁360 -7886
▁펌 -7887
▁거제 -7888
▁거행 -7889
▁그날 -7890
▁상공 -7891
▁해밀 -7892
▁고성 -7893
▁나타낼 -7894
▁뭉 -7895
▁여겨졌 -7896
▁영의정 -7897
▁후쿠시마 -7898
▁동점 -7899
▁재위 -7900
▁104 -7901
▁도미 -7902
▁중성자 -7903
타나 -7904
▁토성 -7905
▁한쪽 -7906
양함 -7907
▁감리 -7908
▁리라 -7909
▁이를 -7910
▁LP -7911
▁아부 -7912
▁춘천 -7913
▁갑작스 -7914
▁최상위 -7915
▁재현 -7916
▁해적 -7917
▁다스리 -7918
▁성체 -7919
▁정한 -7920
아이 -7921
토모 -7922
▁가면 -7923
▁복선 -7924
▁오바 -7925
▁휴스턴 -7926
▁바이오 -7927
브레 -7928
▁생식 -7929
▁게르만 -7930
대신 -7931
▁결선 -7932
▁보인 -7933
▁택시 -7934
▁혈통 -7935
▁힘입 -7936
래스카 -7937
▁라이브러리 -7938
▁도장 -7939
▁장학 -7940
▁테이블 -7941
곡리 -7942
스틴 -7943
▁공천 -7944
▁우위 -7945
▁임용 -7946
▁춘추 -7947
▁횟수 -7948
여래 -7949
▁En -7950
▁그램 -7951
▁모니터 -7952
▁반도체 -7953
▁피에 -7954
▁라트비아 -7955
회장 -7956
▁왜냐 -7957
▁잔류 -7958
▁차장 -7959
▁새겨져 -7960
▁릉 -7961
▁비시 -7962
▁송시 -7963
▁주가 -7964
베르토 -7965
▁애틀랜 -7966
마쓰 -7967
▁스트레스 -7968
은색 -7969
타고 -7970
▁부당 -7971
▁트래 -7972
▁별다른 -7973
데시 -7974
▁가짜 -7975
▁고치 -7976
▁현저 -7977
ark -7978
▁견제 -7979
▁나비 -7980
▁몰아 -7981
▁어휘 -7982
▁미라 -7983
▁사우루스 -7984
▁치아 -7985
푸르트 -7986
▁오피스 -7987
▁Pr -7988
▁제독 -7989
▁109 -7990
하시 -7991
▁매달 -7992
▁주름 -7993
▁축하 -7994
▁칼라 -7995
▁행적 -7996
▁방송사 -7997
▁개원 -7998
▁정점 -7999
▁스톡 -8000
▁123 -8001
▁대학생 -8002
▁하워드 -8003
랜트 -8004
▁목판 -8005
▁성취 -8006
▁아홉 -8007
▁호랑이 -8008
▁육체 -8009
▁이케 -8010
▁축적 -8011
▁야구장 -8012
▁여당 -8013
▁인플 -8014
▁주주 -8015
▁억압 -8016
▁교황청 -8017
▁공수 -8018
▁통증 -8019
▁폭동 -8020
리안 -8021
▁비리 -8022
▁열정 -8023
란히 -8024
▁적당 -8025
▁대표작 -8026
▁NC -8027
▁매입 -8028
▁한인 -8029
▁공산주의자 -8030
차기 -8031
▁눌 -8032
▁벌금 -8033
▁이식 -8034
▁코무네 -8035
▁루프 -8036
▁증대 -8037
▁이에야스 -8038
▁타이거즈 -8039
고쿠 -8040
▁바나 -8041
▁소매 -8042
▁요하 -8043
▁고장 -8044
▁못할 -8045
▁일러 -8046
은이 -8047
더슨 -8048
포드 -8049
▁순교 -8050
헤이 -8051
▁시바 -8052
▁연합회 -8053
▁나눌 -8054
▁모이 -8055
▁노바 -8056
▁민회 -8057
▁아담 -8058
▁응원 -8059
▁주역 -8060
▁플라이 -8061
▁분비 -8062
▁펜실 -8063
베이니아 -8064
▁펜실베이니아 -8065
글리 -8066
▁카자흐스탄 -8067
▁경관 -8068
▁암시 -8069
▁처녀 -8070
▁해명 -8071
▁명령어 -8072
▁종로구 -8073
▁수련 -8074
▁이윤 -8075
▁터치 -8076
▁143 -8077
▁AR -8078
▁폭행 -8079
▁관해서 -8080
법인 -8081
▁관해 -8082
▁덧붙여 -8083
▁동아일보 -8084
▁AK -8085
▁가죽 -8086
▁기적 -8087
▁존속 -8088
▁광물 -8089
▁너비 -8090
▁롤링 -8091
▁오해 -8092
▁팔라 -8093
권자 -8094
▁상점 -8095
▁그동안 -8096
▁분기점 -8097
▁돋 -8098
▁상반 -8099
▁성사 -8100
▁신조 -8101
▁베스 -8102
▁산란 -8103
▁아예 -8104
▁사모 -8105
▁부르크 -8106
▁킥 -8107
▁리우 -8108
▁목재 -8109
▁자민 -8110
▁청춘 -8111
▁조선일보 -8112
▁다발 -8113
▁상단 -8114
▁이화 -8115
▁피츠 -8116
▁소나타 -8117
바시 -8118
▁유로파 -8119
▁차이점 -8120
▁팡 -8121
ies -8122
▁생산량 -8123
▁엿 -8124
▁CS -8125
▁살리 -8126
▁신주 -8127
▁히메 -8128
▁늘어났 -8129
▁토모 -8130
▁경상도 -8131
▁김경 -8132
▁염기 -8133
▁제프 -8134
▁충전 -8135
▁다이아몬드 -8136
기업 -8137
▁근교 -8138
▁신념 -8139
▁출처 -8140
▁친일파 -8141
AL -8142
▁마야 -8143
▁만남 -8144
▁규범 -8145
▁모았 -8146
▁블라디미르 -8147
▁CC -8148
▁비자 -8149
▁유죄 -8150
▁블로그 -8151
▁펑크 -8152
▁남동부 -8153
▁누군가 -8154
▁박람회 -8155
▁드문 -8156
▁col -8157
산동 -8158
▁컴파 -8159
▁맵 -8160
ile -8161
▁광학 -8162
▁부설 -8163
▁원했 -8164
▁음료 -8165
▁누가 -8166
▁보석 -8167
▁통영 -8168
▁쳤 -8169
▁관구 -8170
▁법조 -8171
▁시골 -8172
▁헤라 -8173
▁래퍼 -8174
▁무지 -8175
▁화해 -8176
▁알코올 -8177
▁깨닫 -8178
▁조세 -8179
▁마디 -8180
▁갇 -8181
▁Op -8182
▁상용 -8183
▁나트 -8184
▁달했 -8185
▁부제 -8186
▁운하 -8187
▁이소 -8188
▁황실 -8189
브리지 -8190
▁누나 -8191
▁확신 -8192
▁뜨거운 -8193
▁동국 -8194
▁설탕 -8195
▁우유 -8196
▁태양계 -8197
▁트위터 -8198
▁공습 -8199
▁누이 -8200
▁트윈스 -8201
▁끄 -8202
▁티스 -8203
▁협박 -8204
▁경찰청 -8205
▁라오스 -8206
▁베어스 -8207
▁왜냐하면 -8208
▁상사 -8209
▁카롤 -8210
▁흠 -8211
▁단단 -8212
▁떨어 -8213
▁이타 -8214
비나 -8215
▁대폭 -8216
▁적분 -8217
▁사육 -8218
▁굉장히 -8219
▁법무부 -8220
▁경보 -8221
▁비유 -8222
살이 -8223
▁속했 -8224
▁112 -8225
레기 -8226
▁공익 -8227
▁품종 -8228
▁장거리 -8229
▁카를로스 -8230
xt -8231
▁공관 -8232
▁빠진 -8233
▁이순신 -8234
▁중의원 -8235
▁126 -8236
▁브라더스 -8237
▁언니 -8238
▁이긴 -8239
▁히사 -8240
▁CON -8241
▁사업자 -8242
▁레일 -8243
▁제재 -8244
▁시베리아 -8245
도리 -8246
수리 -8247
▁Te -8248
▁미르 -8249
▁신민 -8250
▁어원 -8251
▁107 -8252
▁드러났 -8253
▁이산화 -8254
▁수법 -8255
▁후사 -8256
▁후한 -8257
▁구축함 -8258
▁창원시 -8259
ite -8260
▁루이지 -8261
▁시어 -8262
▁우승자 -8263
▁국소 -8264
▁맥락 -8265
▁왜곡 -8266
▁우호 -8267
▁플러스 -8268
▁거북 -8269
▁구출 -8270
▁범인 -8271
▁허위 -8272
▁RNA -8273
▁키프로스 -8274
거진 -8275
▁입원 -8276
▁곡인 -8277
▁느껴 -8278
▁신선 -8279
▁당주 -8280
▁몰리 -8281
▁천장 -8282
▁몰래 -8283
▁실체 -8284
▁헤비 -8285
▁받아들였 -8286
▁인문 -8287
▁여파 -8288
▁교과서 -8289
▁조종사 -8290
▁삼층석탑 -8291
▁is -8292
▁소셜 -8293
고래 -8294
▁살아가 -8295
▁할머니 -8296
▁가군 -8297
▁근원 -8298
▁보증 -8299
▁빈곤 -8300
▁세라 -8301
▁117 -8302
▁송시열 -8303
▁아랍어 -8304
▁동문 -8305
▁성단 -8306
▁빌려 -8307
▁소원 -8308
▁옆면 -8309
스부르크 -8310
도바 -8311
랑카 -8312
▁그만두 -8313
▁줄무늬 -8314
▁탐사선 -8315
▁거울 -8316
▁일방 -8317
▁지평 -8318
▁포럼 -8319
▁물리치 -8320
▁결함 -8321
▁나르 -8322
▁맥주 -8323
▁핸드 -8324
▁연쇄 -8325
▁인체 -8326
ft -8327
다지 -8328
▁키우 -8329
갈색 -8330
▁이브 -8331
▁담긴 -8332
▁드로 -8333
▁대웅전 -8334
▁생겨났 -8335
▁350 -8336
▁찾아볼 -8337
▁퐁 -8338
승부 -8339
▁네스 -8340
▁담겨 -8341
▁을지 -8342
▁결코 -8343
▁희생자 -8344
▁이경 -8345
▁일반인 -8346
▁평의회 -8347
▁교정 -8348
▁성별 -8349
▁내려오 -8350
▁도마뱀붙이 -8351
▁릿 -8352
▁기다 -8353
▁데모 -8354
▁만일 -8355
ound -8356
▁다룬다 -8357
▁SE -8358
▁신약 -8359
▁철회 -8360
▁통틀 -8361
▁화장실 -8362
▁가마쿠라 -8363
▁제니 -8364
▁제대 -8365
▁탐색 -8366
▁해고 -8367
▁승계 -8368
▁com -8369
▁아카데미상 -8370
▁삼성전자 -8371
▁양키스 -8372
▁날씨 -8373
▁고속도 -8374
▁테이프 -8375
▁CF -8376
▁빨간색 -8377
시타 -8378
조부 -8379
▁나눠 -8380
▁샘플 -8381
▁양측 -8382
▁121 -8383
▁173 -8384
▁왔으며 -8385
▁드레 -8386
▁후궁 -8387
▁구해 -8388
▁서진 -8389
▁진급 -8390
▁근로자 -8391
끼리 -8392
▁궁극 -8393
▁힘든 -8394
무스 -8395
연합 -8396
▁펠리 -8397
▁137 -8398
▁개교 -8399
▁뒤집 -8400
▁전자기 -8401
ath -8402
▁요동 -8403
▁필터 -8404
▁바오로 -8405
▁연합국 -8406
ond -8407
▁거쳤 -8408
▁비르 -8409
▁포병 -8410
▁맘 -8411
마루 -8412
▁가축 -8413
▁떠올 -8414
▁띤다 -8415
▁일가 -8416
▁물려받 -8417
▁문예 -8418
▁칭찬 -8419
▁라이너 -8420
▁1894 -8421
▁킴 -8422
의장 -8423
지붕 -8424
▁왕복 -8425
▁방화 -8426
▁지미 -8427
▁진공 -8428
▁총독부 -8429
▁주이 -8430
▁투옥 -8431
▁가장자리 -8432
OL -8433
▁헥 -8434
나스 -8435
▁필리프 -8436
▁바우 -8437
▁수용체 -8438
▁성도 -8439
▁세속 -8440
ory -8441
▁최강 -8442
게이머 -8443
▁프로게이머 -8444
크라 -8445
▁수색 -8446
man -8447
▁다크 -8448
▁문구 -8449
베니아 -8450
규모 -8451
▁IM -8452
▁워터 -8453
▁113 -8454
▁붐 -8455
수소 -8456
▁공방 -8457
▁무어 -8458
▁태권 -8459
그레이드 -8460
▁믹스 -8461
▁멜로디 -8462
번스 -8463
▁공민 -8464
▁미션 -8465
▁최대한 -8466
대기 -8467
▁곤란 -8468
▁그냥 -8469
▁극심 -8470
▁레온 -8471
▁용병 -8472
▁일컬 -8473
로이 -8474
▁유년 -8475
▁주어지 -8476
▁클라우드 -8477
▁슬로베니아 -8478
▁업그레이드 -8479
▁계정 -8480
▁서민 -8481
▁크리스토퍼 -8482
▁농림 -8483
▁뒷면 -8484
▁요건 -8485
▁적도 -8486
▁즉각 -8487
▁게스트 -8488
▁도미니 -8489
▁핵무기 -8490
단체 -8491
▁공백 -8492
▁신시 -8493
▁카카 -8494
▁알제리 -8495
▁김현 -8496
ov -8497
▁LC -8498
▁군정 -8499
▁브로드 -8500
▁대피 -8501
▁치안 -8502
▁타당 -8503
▁대의원 -8504
▁캐시 -8505
▁바티칸 -8506
▁코스타 -8507
▁땃 -8508
톨레 -8509
▁더니 -8510
▁상해 -8511
▁둥지 -8512
▁로이 -8513
▁말씀 -8514
▁몬스터 -8515
▁". -8516
▁모친 -8517
▁게이지 -8518
▁미루 -8519
▁하동 -8520
셰비 -8521
▁미키 -8522
▁부딪 -8523
▁초월 -8524
▁국내외 -8525
▁강서 -8526
▁먼지 -8527
▁제인 -8528
▁항쟁 -8529
▁124 -8530
▁프랑크푸르트 -8531
mer -8532
▁개종 -8533
▁혈관 -8534
퍼런스 -8535
iver -8536
▁독일인 -8537
▁z -8538
▁구절 -8539
▁상표 -8540
▁땄 -8541
▁륙 -8542
▁옵션 -8543
아프리카 -8544
▁On -8545
▁서초 -8546
▁욕구 -8547
▁스캔 -8548
▁시뮬 -8549
▁횡단 -8550
▁야마토 -8551
박스 -8552
▁피오 -8553
로니 -8554
▁갈릴 -8555
▁관음 -8556
▁기질 -8557
▁내정 -8558
▁로우 -8559
▁배후 -8560
▁판본 -8561
▁탤런트 -8562
▁SU -8563
▁World -8564
▁커뮤니케이션 -8565
▁성문 -8566
▁야쿠 -8567
▁침투 -8568
▁분명히 -8569
▁자연수 -8570
블리 -8571
▁그치 -8572
▁일생 -8573
▁제압 -8574
▁가루 -8575
▁돌격 -8576
▁예조 -8577
▁고고학 -8578
▁오리콘 -8579
▁우파 -8580
▁자선 -8581
▁붙인 -8582
린스 -8583
줄기 -8584
▁be -8585
▁학계 -8586
▁자비 -8587
▁검찰청 -8588
▁초록 -8589
▁원전 -8590
▁1890 -8591
▁이어진다 -8592
▁감자 -8593
▁디렉 -8594
▁아랫 -8595
▁영산 -8596
▁유저 -8597
▁자오 -8598
▁체크 -8599
대원군 -8600
▁김정일 -8601
▁알루미 -8602
▁들어간다 -8603
▁라이온즈 -8604
▁대거 -8605
▁풍자 -8606
▁New -8607
▁남서부 -8608
▁베네딕 -8609
▁양호 -8610
▁정세 -8611
▁내주 -8612
▁연이 -8613
▁평정 -8614
▁소규모 -8615
▁CR -8616
▁브리지 -8617
ich -8618
▁오프닝 -8619
▁맑 -8620
▁므 -8621
축구 -8622
▁고쳐 -8623
드르 -8624
▁선비 -8625
▁러시 -8626
▁EC -8627
▁데르 -8628
▁조부 -8629
▁징계 -8630
▁따른다 -8631
지스 -8632
▁군중 -8633
▁베니 -8634
▁시위대 -8635
▁윤치호 -8636
▁냉전 -8637
▁오라 -8638
▁과반 -8639
▁발라 -8640
▁114 -8641
▁사상자 -8642
▁자택 -8643
▁팔리 -8644
▁안토니오 -8645
▁슨 -8646
▁시정 -8647
▁에미 -8648
▁이준 -8649
▁태극 -8650
▁김규 -8651
▁비로소 -8652
▁깎 -8653
▁그대 -8654
▁땃쥐 -8655
▁기업인 -8656
▁봉건 -8657
▁컷 -8658
▁대명 -8659
▁매매 -8660
▁증손 -8661
프레스 -8662
▁원로원 -8663
▁빔 -8664
▁경신 -8665
▁관세 -8666
▁미노 -8667
▁심해 -8668
▁연승 -8669
▁지침 -8670
▁공감 -8671
▁대부 -8672
▁은데 -8673
▁이드 -8674
▁구스타 -8675
▁사쿠라 -8676
렉스 -8677
▁가드 -8678
▁정주 -8679
IP -8680
▁답변 -8681
▁어미 -8682
▁방사선 -8683
▁블랙홀 -8684
▁히어로즈 -8685
▁이남 -8686
▁중형 -8687
▁매니저 -8688
▁세이브 -8689
조건 -8690
▁어긋 -8691
▁118 -8692
▁럼 -8693
▁파이널 -8694
ign -8695
▁구와 -8696
▁만료 -8697
▁퍼지 -8698
▁흔하 -8699
ial -8700
▁괴물 -8701
▁나올 -8702
▁용이 -8703
▁공조 -8704
▁뉴턴 -8705
▁예시 -8706
▁파인 -8707
▁드라이버 -8708
▁본국 -8709
▁주부 -8710
타리오 -8711
▁일리노 -8712
러드 -8713
▁서자 -8714
▁요정 -8715
▁진사 -8716
▁승부차기 -8717
▁크리스티안 -8718
▁도청 -8719
▁악단 -8720
▁프로덕 -8721
▁플래시 -8722
▁1898 -8723
▁벵 -8724
▁셨 -8725
▁자음 -8726
▁일리노이 -8727
▁Sc -8728
▁반해 -8729
▁재상 -8730
▁경찰관 -8731
▁무승부 -8732
▁줄여서 -8733
▁인명 -8734
▁체조 -8735
▁계열사 -8736
▁통치자 -8737
▁파란색 -8738
하루 -8739
황후 -8740
▁컨셉 -8741
▁115 -8742
닐라 -8743
▁학명 -8744
▁미하일 -8745
▁외모 -8746
▁체스 -8747
▁우즈베 -8748
hn -8749
교도 -8750
저지 -8751
▁SD -8752
▁마력 -8753
▁이끈 -8754
▁스칼 -8755
▁였음 -8756
▁우측 -8757
▁하르 -8758
▁한족 -8759
▁트로이 -8760
▁동정 -8761
▁종착 -8762
▁지인 -8763
▁디비시온 -8764
▁로그 -8765
▁변이 -8766
▁소모 -8767
▁전년 -8768
▁극장판 -8769
▁순조 -8770
▁챌린지 -8771
▁밀집 -8772
▁어렸 -8773
▁취업 -8774
벨트 -8775
▁헬리 -8776
▁그레고 -8777
▁직면 -8778
▁키르 -8779
▁혜택 -8780
▁살펴보 -8781
▁봉안 -8782
▁축출 -8783
▁희귀 -8784
▁레바논 -8785
▁남구 -8786
▁카우 -8787
▁반지름 -8788
▁기각 -8789
▁앵글 -8790
▁하프 -8791
▁외야수 -8792
▁` -8793
▁극작 -8794
▁선도 -8795
▁통보 -8796
바닥 -8797
▁맥도 -8798
▁대변인 -8799
▁모로코 -8800
▁시가지 -8801
보르 -8802
▁알루미늄 -8803
▁JT -8804
▁가옥 -8805
▁말미 -8806
▁뉴저지 -8807
▁웨스턴 -8808
문트 -8809
▁커널 -8810
▁팰 -8811
▁날아 -8812
▁남미 -8813
▁왕세 -8814
▁개막전 -8815
▁믹 -8816
▁나눈 -8817
▁필사 -8818
▁기증 -8819
▁무성 -8820
▁정변 -8821
마이오스 -8822
먼스 -8823
▁미세 -8824
▁헬기 -8825
▁연예인 -8826
▁젊은이 -8827
▁닦 -8828
기념 -8829
▁실망 -8830
▁성리학 -8831
▁체코슬로 -8832
▁체코슬로바키아 -8833
▁폭넓 -8834
▁129 -8835
▁옳 -8836
▁GS -8837
▁뇌물 -8838
▁부스 -8839
▁종래 -8840
▁케냐 -8841
▁패럴 -8842
▁학업 -8843
▁광해군 -8844
▁달한다 -8845
레타 -8846
타니 -8847
▁사위 -8848
▁센티 -8849
▁켈리 -8850
▁코카 -8851
▁범유행 -8852
▁어려워 -8853
▁렐 -8854
속기 -8855
아키 -8856
▁어른 -8857
▁종속 -8858
▁맏 -8859
▁쯔 -8860
쟁이 -8861
히코 -8862
▁지우 -8863
▁비주 -8864
▁웹툰 -8865
▁창출 -8866
▁호출 -8867
미사 -8868
▁GP -8869
▁발급 -8870
▁핑크 -8871
▁의약품 -8872
니까 -8873
▁글루 -8874
▁러셀 -8875
▁리뷰 -8876
▁승자 -8877
▁중공 -8878
▁회관 -8879
rom -8880
▁중산 -8881
▁천재 -8882
▁총사령 -8883
▁숙청 -8884
▁척추 -8885
▁캔자스 -8886
▁꿀 -8887
온다 -8888
▁커지 -8889
▁쾌속 -8890
▁구할 -8891
▁예하 -8892
▁재선 -8893
▁확실히 -8894
▁서신 -8895
▁첨단 -8896
▁재혼 -8897
▁케빈 -8898
▁끌어들 -8899
▁마운트 -8900
▁스타리그 -8901
개미 -8902
타리 -8903
▁끼쳤 -8904
▁흔들 -8905
레아 -8906
▁예고 -8907
▁토양 -8908
▁퇴임 -8909
▁퉁 -8910
▁남작 -8911
▁유라 -8912
▁지출 -8913
▁기술자 -8914
▁로비 -8915
▁바빌 -8916
▁사간 -8917
그리 -8918
▁청산 -8919
▁토미 -8920
▁황족 -8921
▁Ne -8922
▁감행 -8923
▁화력 -8924
▁벨라루스 -8925
ph -8926
▁컴백 -8927
▁뒷받침 -8928
▁장례식 -8929
TS -8930
▁배수 -8931
▁벽돌 -8932
▁카디 -8933
치기 -8934
▁밝기 -8935
▁웬 -8936
▁옹립 -8937
▁적혀 -8938
▁파산 -8939
▁각도 -8940
▁무명 -8941
▁흔한 -8942
▁괘 -8943
▁바꾼 -8944
▁유방 -8945
▁저주 -8946
▁형조 -8947
▁III -8948
▁스크립 -8949
▁스트리 -8950
▁타임스 -8951
방송공사 -8952
▁플라스틱 -8953
우트 -8954
▁관제 -8955
▁난징 -8956
▁대패 -8957
▁등기 -8958
▁오오 -8959
▁원천 -8960
▁임원 -8961
▁전속 -8962
▁채워 -8963
▁조지프 -8964
▁응시 -8965
▁페널 -8966
화물 -8967
▁생체 -8968
▁양반 -8969
느러미 -8970
▁얹 -8971
▁부피 -8972
▁워크 -8973
▁142 -8974
▁1899 -8975
▁대치 -8976
▁설화 -8977
▁브리튼 -8978
▁구경 -8979
▁학기 -8980
▁월요일 -8981
▁천문대 -8982
▁미들 -8983
▁유진 -8984
▁부여받 -8985
테르부르크 -8986
시즘 -8987
진군 -8988
▁시범 -8989
▁싸이 -8990
▁태그 -8991
▁워너 -8992
▁케임 -8993
셰비키 -8994
▁레슬링 -8995
▁세이부 -8996
▁프란츠 -8997
▁콕 -8998
포로 -8999
urn -9000
▁발병 -9001
▁소생 -9002
▁안테 -9003
▁토끼 -9004
▁폭포 -9005
▁마르티 -9006
▁청주시 -9007
▁모나 -9008
코딩 -9009
▁리프 -9010
▁성폭 -9011
▁더글러스 -9012
로우 -9013
파이어 -9014
▁거래소 -9015
▁힌두교 -9016
롤라이나 -9017
▁CJ -9018
▁ch -9019
▁무함 -9020
▁운수 -9021
▁화상 -9022
▁프로덕션 -9023
▁룩셈 -9024
▁사본 -9025
▁에밀 -9026
▁총칭 -9027
▁룩셈부르크 -9028
▁설교 -9029
▁지옥 -9030
▁축물 -9031
▁희곡 -9032
천리 -9033
토르 -9034
틱스 -9035
▁벨트 -9036
▁신원 -9037
▁정려 -9038
▁정성 -9039
함수 -9040
▁자크 -9041
▁대서양 -9042
ction -9043
럴드 -9044
▁독서 -9045
▁보위 -9046
▁오크 -9047
▁피겨 -9048
▁혼동 -9049
▁화자 -9050
▁끊임없이 -9051
▁발리 -9052
▁중복 -9053
▁스즈키 -9054
▁걸렸 -9055
▁동네 -9056
▁왼손 -9057
▁늘리 -9058
▁만성 -9059
▁명종 -9060
▁피신 -9061
▁1902 -9062
▁그래미 -9063
▁잃어버 -9064
▁제국주의 -9065
두리 -9066
▁온타리오 -9067
▁광주광역시 -9068
브르 -9069
▁가야 -9070
▁던져 -9071
▁금요일 -9072
▁부의장 -9073
▁공적 -9074
▁극한 -9075
▁병기 -9076
▁Man -9077
▁쟈 -9078
ens -9079
▁광둥 -9080
▁의자 -9081
▁플랫폼 -9082
MA -9083
덩이 -9084
타주 -9085
▁ID -9086
▁감마 -9087
▁의의 -9088
▁체류 -9089
▁물품 -9090
▁위쪽 -9091
▁프톨레 -9092
▁프톨레마이오스 -9093
▁썬 -9094
올라 -9095
lan -9096
▁기차 -9097
▁가벼운 -9098
▁선배 -9099
▁키보드 -9100
▁BS -9101
▁그릇 -9102
▁니코 -9103
▁부를 -9104
▁스턴 -9105
▁혐오 -9106
▁바깥쪽 -9107
pp -9108
▁느꼈 -9109
▁서류 -9110
▁가까워 -9111
▁머무르 -9112
▁연산자 -9113
▁지식인 -9114
▁수분 -9115
▁우체 -9116
▁표적 -9117
▁갈수록 -9118
▁대성당 -9119
▁아리아 -9120
▁원종 -9121
▁도카이 -9122
샤바 -9123
▁강변 -9124
▁단절 -9125
▁시가 -9126
▁영등 -9127
▁포획 -9128
▁'' -9129
▁나갈 -9130
▁발기 -9131
▁시코 -9132
▁연꽃 -9133
▁채소 -9134
▁가신 -9135
▁한테 -9136
▁소나무 -9137
▁개소 -9138
▁대손 -9139
▁코시 -9140
▁하단 -9141
▁밍 -9142
▁기사단 -9143
글라 -9144
▁게리 -9145
▁마녀 -9146
▁간선 -9147
▁비석 -9148
▁촉매 -9149
▁캐서 -9150
TA -9151
▁국영 -9152
▁깃발 -9153
▁따온 -9154
▁로라 -9155
▁사슴 -9156
▁선행 -9157
▁외관 -9158
▁이겼 -9159
▁이관 -9160
▁코끼리 -9161
그룹 -9162
▁참의 -9163
▁동행 -9164
▁영문 -9165
▁탄도 -9166
▁제네바 -9167
lic -9168
▁주조 -9169
▁고양시 -9170
▁아돌프 -9171
나우 -9172
▁버드 -9173
▁김창 -9174
▁빌라 -9175
▁입성 -9176
▁함정 -9177
▁헌신 -9178
▁비행장 -9179
▁겁 -9180
▁기니 -9181
▁보이스 -9182
폴리 -9183
▁교통국 -9184
▁마스크 -9185
▁부회장 -9186
▁단축 -9187
▁매수 -9188
▁페르디난 -9189
▁얽 -9190
▁광명 -9191
▁수확 -9192
▁유체 -9193
크로 -9194
▁김지 -9195
▁쌓았 -9196
▁전방 -9197
▁정적 -9198
▁이용자 -9199
▁트리플 -9200
▁동학 -9201
▁들이 -9202
▁아산 -9203
▁정동 -9204
▁몫 -9205
카가 -9206
▁강동 -9207
▁단의 -9208
▁생생 -9209
▁역량 -9210
▁직결 -9211
▁매카트니 -9212
▁대합 -9213
▁부가 -9214
▁울프 -9215
▁당한다 -9216
▁둥글 -9217
▁색채 -9218
▁오를 -9219
▁이건 -9220
▁드러머 -9221
▁스위치 -9222
TC -9223
▁공리 -9224
▁광대 -9225
▁둔다 -9226
▁압둘 -9227
▁부작용 -9228
▁익스프레스 -9229
국사 -9230
▁간토 -9231
▁고아 -9232
▁초신 -9233
ary -9234
▁면제 -9235
▁스폰 -9236
▁입각 -9237
▁서유럽 -9238
▁토착종 -9239
▁포켓몬스터 -9240
▁경과 -9241
▁어류 -9242
▁채우 -9243
▁아이오 -9244
▁폭격기 -9245
▁해밀턴 -9246
out -9247
▁가환 -9248
▁갱신 -9249
▁조립 -9250
▁호르몬 -9251
구르 -9252
▁여운 -9253
▁이단 -9254
▁일산 -9255
▁경성부 -9256
▁민감 -9257
▁약자 -9258
▁축조 -9259
▁화강 -9260
▁일으킬 -9261
▁1901 -9262
▁러시아어 -9263
ert -9264
▁브뤼 -9265
▁성지 -9266
▁세비 -9267
▁입국 -9268
▁생략 -9269
▁슈팅 -9270
▁열도 -9271
▁사이토 -9272
▁코믹스 -9273
▁본문 -9274
▁정립 -9275
▁표방 -9276
짓점 -9277
피어 -9278
▁보트 -9279
▁복용 -9280
▁습지 -9281
▁원료 -9282
ach -9283
▁나노 -9284
▁누적 -9285
▁크롬 -9286
▁그다지 -9287
▁꼭짓점 -9288
▁어려서 -9289
테인 -9290
▁임관 -9291
▁퀘벡 -9292
모스 -9293
▁날카 -9294
▁쓰촨 -9295
▁체르 -9296
▁패했 -9297
타임 -9298
▁No -9299
▁소시 -9300
▁커스 -9301
▁영국인 -9302
▁알렉산드르 -9303
▁울산광역시 -9304
일으 -9305
▁권총 -9306
▁보복 -9307
▁잡혀 -9308
▁타케 -9309
▁특권 -9310
▁불러일으 -9311
▁즐겨 -9312
▁하치 -9313
▁삿포로 -9314
▁연기자 -9315
그라 -9316
미트 -9317
▁실버 -9318
▁염증 -9319
▁다항식 -9320
디나 -9321
▁괴롭 -9322
▁동조 -9323
▁불꽃 -9324
▁코코 -9325
▁검열 -9326
▁손꼽 -9327
▁제치 -9328
▁아시카가 -9329
▁서문 -9330
▁자작 -9331
▁정문 -9332
▁천하 -9333
▁체중 -9334
LE -9335
ys -9336
▁렘 -9337
▁기숙 -9338
▁무궁 -9339
▁수축 -9340
▁낫 -9341
▁쿄 -9342
▁선동 -9343
▁염색체 -9344
자르 -9345
▁이현 -9346
▁간단히 -9347
▁바이킹 -9348
LS -9349
▁MB -9350
▁대두 -9351
▁엔딩 -9352
▁조이 -9353
▁차르 -9354
▁현은 -9355
▁점성술 -9356
루아 -9357
▁공고 -9358
▁연봉 -9359
▁옥스퍼드 -9360
파르 -9361
▁김제 -9362
▁카미 -9363
▁패한 -9364
▁사회당 -9365
▁고산 -9366
▁두께 -9367
▁박지 -9368
▁소말 -9369
레슬링 -9370
▁장기간 -9371
▁스님 -9372
▁노태우 -9373
▁페널티 -9374
IG -9375
링턴 -9376
▁불신 -9377
▁페니 -9378
▁134 -9379
▁KIA -9380
▁파이터 -9381
▁아라비아 -9382
▁조수 -9383
▁학대 -9384
▁극대 -9385
▁명하 -9386
▁토기 -9387
▁개인전 -9388
▁시네 -9389
▁주된 -9390
▁하비 -9391
▁광저우 -9392
▁쓰레기 -9393
▁요르단 -9394
▁피고인 -9395
▁케임브리지 -9396
▁례 -9397
▁마우 -9398
▁보헤 -9399
▁분수 -9400
▁스텔 -9401
▁원본 -9402
▁카프 -9403
▁터보 -9404
▁호모 -9405
▁} -9406
▁상금 -9407
▁갈리아 -9408
▁당연히 -9409
▁크레이 -9410
▁공예 -9411
▁동이 -9412
▁어둠 -9413
▁어뢰 -9414
베트남 -9415
▁모서리 -9416
▁무함마드 -9417
▁아리스토 -9418
ug -9419
펜하 -9420
▁남매 -9421
▁좌측 -9422
▁All -9423
▁패밀리 -9424
▁푸에르 -9425
대장 -9426
▁토요 -9427
노미야 -9428
▁트로피 -9429
▁프로레슬링 -9430
기스 -9431
▁독성 -9432
▁레즈 -9433
▁삼촌 -9434
▁직경 -9435
▁정해진 -9436
▁대구광역시 -9437
▁기르 -9438
▁섹스 -9439
▁사업가 -9440
▁전염병 -9441
▁1903 -9442
▁공명 -9443
▁패널 -9444
▁회상 -9445
▁THE -9446
▁루타 -9447
▁미륵 -9448
▁산출 -9449
▁질소 -9450
▁1884 -9451
▁가역 -9452
클레스 -9453
▁One -9454
▁개화 -9455
▁다마 -9456
▁미시시피 -9457
사리 -9458
ase -9459
▁교대 -9460
▁군산 -9461
▁모은 -9462
라이어 -9463
▁아인슈타인 -9464
카미 -9465
▁라그 -9466
▁Gr -9467
▁구형 -9468
▁김홍 -9469
▁노보 -9470
▁오쿠 -9471
▁알렉산드리아 -9472
▁엇 -9473
정리 -9474
▁이병 -9475
▁중령 -9476
테르담 -9477
▁더욱이 -9478
▁들어갈 -9479
▁이성계 -9480
리코 -9481
▁정선 -9482
▁만주국 -9483
▁홈구장 -9484
아웃 -9485
카타 -9486
▁뮤지션 -9487
▁신도비 -9488
▁지도부 -9489
올로 -9490
▁강간 -9491
▁잘라 -9492
처스 -9493
퀘어 -9494
▁로저 -9495
▁메커 -9496
▁아브 -9497
▁차가 -9498
▁쓰시마 -9499
ke -9500
▁EX -9501
▁원더 -9502
▁드레스 -9503
▁언어학 -9504
▁퇴역 -9505
▁검출 -9506
▁조형 -9507
▁지녔 -9508
▁하리 -9509
▁관광지 -9510
▁물가 -9511
▁반공 -9512
▁벌인 -9513
▁도널드 -9514
▁충청도 -9515
▁프레드 -9516
▁AN -9517
▁기분 -9518
▁쥐과 -9519
▁강대 -9520
▁헌정 -9521
▁표기법 -9522
▁륜 -9523
▁에콰 -9524
▁에콰도르 -9525
▁농부 -9526
▁퇴적 -9527
▁함선 -9528
▁되돌아 -9529
히토 -9530
▁갈래 -9531
▁실재 -9532
▁이태 -9533
▁제로 -9534
▁아폴로 -9535
▁클라이 -9536
▁니콜라이 -9537
▁발렌시아 -9538
도스 -9539
▁LA -9540
▁간신 -9541
▁공황 -9542
▁군함 -9543
▁우치 -9544
▁전위 -9545
▁Cl -9546
▁파병 -9547
▁야마구치 -9548
▁실무 -9549
▁우회 -9550
▁방글라 -9551
▁도요토미 -9552
▁방글라데시 -9553
▁따왔 -9554
▁비타 -9555
▁의결 -9556
▁히타 -9557
▁히로시 -9558
▁1800 -9559
고스 -9560
텍처 -9561
▁구스 -9562
▁대문 -9563
▁장벽 -9564
▁진전 -9565
▁마르틴 -9566
▁무너지 -9567
▁슬라브 -9568
▁조반니 -9569
▁프란체 -9570
▁아키텍처 -9571
▁인질 -9572
▁하차 -9573
▁꼭대기 -9574
▁득표율 -9575
간지 -9576
▁뒤쪽 -9577
▁밝힌 -9578
▁정유 -9579
▁다름 -9580
▁도선 -9581
▁상고 -9582
▁리더십 -9583
▁복합체 -9584
그레 -9585
▁까닭 -9586
▁단면 -9587
라이언트 -9588
▁건륭 -9589
▁경작 -9590
▁곡물 -9591
▁싸워 -9592
▁안경 -9593
▁철폐 -9594
▁컨트리 -9595
▁마키 -9596
▁불린 -9597
▁거짓말 -9598
▁마르코 -9599
▁민간인 -9600
▁일자리 -9601
▁감안 -9602
▁비뉴 -9603
▁토시 -9604
▁회피 -9605
사이드 -9606
테이션 -9607
▁클라이언트 -9608
니시 -9609
▁달걀 -9610
방울 -9611
▁무슨 -9612
▁밀란 -9613
▁삼국지 -9614
▁돌기 -9615
▁발칸 -9616
▁선우 -9617
▁카사 -9618
▁한층 -9619
가르 -9620
사우 -9621
▁강희 -9622
▁당수 -9623
▁용서 -9624
▁해남 -9625
▁기념관 -9626
▁콤팩트 -9627
ree -9628
▁전복 -9629
▁CN -9630
▁가오 -9631
▁시야 -9632
▁흥선 -9633
▁가브리 -9634
▁기념비 -9635
▁소방서 -9636
▁해진다 -9637
▁올라간다 -9638
▁중앙아시아 -9639
▁가려 -9640
▁상가 -9641
▁아나키 -9642
▁총대주교 -9643
▁리만 -9644
▁분출 -9645
▁일렉트로 -9646
개골 -9647
▁데카 -9648
▁맞붙 -9649
▁분량 -9650
▁상경 -9651
▁이룬 -9652
▁현감 -9653
▁방사성 -9654
▁에디션 -9655
▁으려고 -9656
▁북아프리카 -9657
하키 -9658
▁대출 -9659
▁염소 -9660
▁유부 -9661
▁교도소 -9662
▁소행성 -9663
▁부드러운 -9664
▁권장 -9665
▁우물 -9666
▁이북 -9667
▁자형 -9668
▁전구 -9669
▁코믹 -9670
▁남동생 -9671
▁소수자 -9672
▁그레이트 -9673
▁깨끗 -9674
▁상응 -9675
▁창녕 -9676
▁취항 -9677
▁활주 -9678
▁지지율 -9679
▁메커니즘 -9680
불교 -9681
산맥 -9682
▁경인 -9683
▁기슭 -9684
▁불타 -9685
▁신축 -9686
▁모리스 -9687
▁카를로 -9688
▁팟 -9689
▁IN -9690
▁가산 -9691
▁냄새 -9692
▁발령 -9693
▁수목 -9694
가와현 -9695
▁다케다 -9696
ass -9697
▁가계 -9698
▁견인 -9699
▁궁중 -9700
▁살라 -9701
▁with -9702
▁각색 -9703
▁등용 -9704
▁반군 -9705
▁거주지 -9706
▁정화 -9707
▁복소수 -9708
▁시킴 -9709
▁침체 -9710
▁폭로 -9711
▁스토어 -9712
▁격차 -9713
▁낙동 -9714
▁막스 -9715
▁상트 -9716
▁220 -9717
▁페이스북 -9718
▁쑤 -9719
▁씌 -9720
▁세바 -9721
▁심화 -9722
▁기관총 -9723
▁와일드 -9724
▁관절 -9725
▁농사 -9726
▁러스 -9727
▁모모 -9728
▁소자 -9729
▁프론 -9730
▁새겨진 -9731
▁볼리비아 -9732
▁시켰으며 -9733
사업 -9734
act -9735
▁116 -9736
▁뉴욕주 -9737
▁몰아내 -9738
▁찐 -9739
곡동 -9740
구역 -9741
▁Br -9742
▁마가 -9743
▁오사카부 -9744
파리 -9745
▁가열 -9746
▁기저 -9747
▁버마 -9748
▁상법 -9749
▁장자 -9750
▁접수 -9751
▁홍문관 -9752
▁아미노산 -9753
▁라오 -9754
▁브란 -9755
▁세키 -9756
▁취미 -9757
▁평창 -9758
▁1897 -9759
▁일파 -9760
▁준주 -9761
▁추첨 -9762
번뇌 -9763
▁Ad -9764
▁일부분 -9765
▁전시회 -9766
▁포스터 -9767
▁샌드 -9768
▁요약 -9769
▁태백 -9770
11 -9771
▁가의 -9772
▁교량 -9773
▁반전 -9774
▁후작 -9775
▁1860 -9776
▁스트라이크 -9777
▁안산 -9778
▁강남구 -9779
쿠버 -9780
▁체력 -9781
▁티코 -9782
▁보성 -9783
▁음향 -9784
▁절단 -9785
▁한국방송공사 -9786
▁느리 -9787
▁민정 -9788
▁온대 -9789
▁교육청 -9790
▁방송인 -9791
▁델타 -9792
▁버클리 -9793
▁캐서린 -9794
pt -9795
▁홉 -9796
▁구약 -9797
▁마니 -9798
▁적군 -9799
▁특색 -9800
▁앰 -9801
▁줘 -9802
역학 -9803
▁사살 -9804
▁올드 -9805
▁효고 -9806
ream -9807
▁마카오 -9808
▁생겨나 -9809
▁카스티 -9810
▁네오 -9811
▁중원 -9812
▁찰리 -9813
▁추론 -9814
▁아름답 -9815
▁중공업 -9816
▁겐지 -9817
▁나루 -9818
▁넘기 -9819
▁리조 -9820
▁그려진 -9821
▁데스크 -9822
바른 -9823
▁;& -9824
▁공약 -9825
▁다를 -9826
▁마블 -9827
▁오로 -9828
▁GO -9829
▁아소 -9830
▁효종 -9831
▁배우자 -9832
버리 -9833
벤처 -9834
▁르노 -9835
▁북경 -9836
▁서리 -9837
▁장제 -9838
▁후반기 -9839
▁어드벤처 -9840
▁저렴 -9841
▁연대기 -9842
▁대관 -9843
▁델라 -9844
▁글래 -9845
▁수료 -9846
▁타우 -9847
▁이주하 -9848
나드 -9849
▁돌입 -9850
▁애리 -9851
▁집결 -9852
▁휴가 -9853
▁알프레 -9854
▁바르샤바 -9855
▁Ex -9856
▁카타르 -9857
▁공손 -9858
▁샌디 -9859
▁확진 -9860
기념물 -9861
▁Is -9862
▁가가 -9863
▁복권 -9864
▁전산 -9865
▁합당 -9866
▁떡 -9867
▁거뒀 -9868
▁122 -9869
▁가져오 -9870
▁경제학자 -9871
▁랍 -9872
푸아 -9873
▁거처 -9874
▁청색 -9875
▁안드레아 -9876
산성 -9877
포터 -9878
▁메라 -9879
▁벽화 -9880
▁청소 -9881
▁사카이 -9882
▁아닐 -9883
▁이반 -9884
▁종파 -9885
▁카즈 -9886
▁나간다 -9887
▁미네소 -9888
▁스크립트 -9889
캐롤라이나 -9890
반구 -9891
퍼슨 -9892
피언 -9893
▁리히 -9894
▁신정 -9895
▁전격 -9896
▁쿠니 -9897
▁게릴라 -9898
으니 -9899
▁두꺼 -9900
▁마당 -9901
▁수중 -9902
▁짐작 -9903
▁그레고리오 -9904
▁보강 -9905
츠크 -9906
▁석불 -9907
▁석회 -9908
▁소행 -9909
▁종말 -9910
▁창의 -9911
▁새로이 -9912
▁뻔 -9913
▁강풍 -9914
▁이빨 -9915
▁타협 -9916
스카르 -9917
▁모티브 -9918
▁솔루션 -9919
부리 -9920
▁세네 -9921
▁갑옷 -9922
▁막시 -9923
▁실적 -9924
▁마라톤 -9925
▁클라크 -9926
▁였으므로 -9927
▁브룩 -9928
▁안치 -9929
▁정경 -9930
▁쥐속 -9931
▁2022 -9932
▁봉해 -9933
▁입주 -9934
▁피치 -9935
▁나란히 -9936
▁1880 -9937
푸르 -9938
▁고토 -9939
▁무로 -9940
▁두개골 -9941
▁셜 -9942
▁과실 -9943
▁루크 -9944
▁약하 -9945
▁확고 -9946
▁스퀘어 -9947
▁유닉스 -9948
▁이언 -9949
▁호응 -9950
▁인테르 -9951
▁마애 -9952
▁을까 -9953
▁출석 -9954
▁아마존 -9955
▁섀 -9956
▁동형 -9957
▁무술 -9958
▁열심 -9959
▁쳐들 -9960
▁화순 -9961
▁상트페 -9962
▁상트페테르부르크 -9963
콥터 -9964
▁신동 -9965
▁조인 -9966
▁옥수수 -9967
▁진해 -9968
▁유대교 -9969
▁엮 -9970
▁극도 -9971
▁다툼 -9972
▁따랐 -9973
▁모용 -9974
▁연동 -9975
▁윤보 -9976
▁장원 -9977
▁지켰 -9978
▁칼뱅 -9979
▁con -9980
▁갤러리 -9981
▁BM -9982
▁메릴 -9983
▁빈도 -9984
▁사적 -9985
▁교육부 -9986
▁설립자 -9987
▁강철 -9988
▁기성 -9989
▁선장 -9990
▁팔레 -9991
▁CEO -9992
▁제작사 -9993
▁그리스인 -9994
▁흥선대원군 -9995
ii -9996
▁군청 -9997
▁살려 -9998
▁어로 -9999
▁유정 -10000
▁입양 -10001
▁극작가 -10002
▁옮겨졌 -10003
▁번성 -10004
▁어리 -10005
▁연못 -10006
▁오락 -10007
▁종점 -10008
▁추종 -10009
▁133 -10010
▁기상청 -10011
▁함부르크 -10012
기구 -10013
▁급수 -10014
▁용암 -10015
▁이장 -10016
▁호쿠 -10017
▁NGC -10018
▁경쟁력 -10019
▁공용어 -10020
▁진행자 -10021
▁파라과이 -10022
▁노이 -10023
▁함양 -10024
▁이동하 -10025
네시 -10026
▁등극 -10027
▁무스 -10028
▁제리 -10029
▁치른 -10030
▁콘테 -10031
▁그렇지만 -10032
▁가볍 -10033
▁일괄 -10034
▁제왕 -10035
▁소령 -10036
▁예명 -10037
▁자결 -10038
▁그림자 -10039
▁붙여진 -10040
▁몽고 -10041
▁키예프 -10042
나미 -10043
타케 -10044
iss -10045
▁가네 -10046
▁명분 -10047
▁빛나 -10048
▁야시 -10049
▁디트로 -10050
▁디트로이트 -10051
니지 -10052
▁도사 -10053
▁수녀 -10054
▁진료 -10055
▁엘리트 -10056
▁준결승전 -10057
aw -10058
ake -10059
▁스노 -10060
▁왕정 -10061
▁탁월 -10062
자치시 -10063
▁천연기념물 -10064
▁특별자치시 -10065
▁낚 -10066
own -10067
▁프렌 -10068
사관학교 -10069
▁스트라이커 -10070
▁슛 -10071
▁블리 -10072
▁Mus -10073
▁프랭클린 -10074
▁타지 -10075
▁듀얼 -10076
▁숙주 -10077
▁유령 -10078
▁된다면 -10079
케이 -10080
▁심야 -10081
▁앞장 -10082
▁이데 -10083
▁프롤 -10084
▁농어 -10085
▁덮여 -10086
▁도우 -10087
▁스로 -10088
▁온갖 -10089
▁우상 -10090
▁재난 -10091
몰로지 -10092
▁대사헌 -10093
▁아래쪽 -10094
▁수년 -10095
▁CBS -10096
▁주어진다 -10097
▁국유 -10098
▁아치 -10099
▁이득 -10100
▁미생물 -10101
▁일러스트 -10102
▁넌 -10103
뜨렸 -10104
▁들려 -10105
▁원격 -10106
▁타석 -10107
▁무궁화 -10108
▁앨리스 -10109
▁사무총장 -10110
▁반역 -10111
▁위생 -10112
▁이규 -10113
▁평민 -10114
▁아니하 -10115
세기 -10116
▁니카 -10117
▁파우 -10118
▁법정동 -10119
▁애틀랜타 -10120
▁ES -10121
▁감동 -10122
▁조계 -10123
UR -10124
▁미셸 -10125
▁GDP -10126
▁무조건 -10127
▁위나라 -10128
미스 -10129
▁김민 -10130
▁자카 -10131
▁장흥 -10132
▁포도당 -10133
▁그레고리 -10134
▁고추 -10135
▁빈번 -10136
▁속편 -10137
▁펜싱 -10138
▁vs -10139
▁개항 -10140
▁헬륨 -10141
▁후진 -10142
▁겉보기 -10143
그래 -10144
▁결핍 -10145
▁문경 -10146
▁자생 -10147
▁열린다 -10148
▁동성애자 -10149
HO -10150
old -10151
▁정인 -10152
▁132 -10153
▁삼국사기 -10154
원장 -10155
▁워치 -10156
끄러운 -10157
▁툰 -10158
멘스 -10159
타마 -10160
▁재해 -10161
▁주지 -10162
clude -10163
▁스리랑카 -10164
▁울리 -10165
▁지청 -10166
▁진수 -10167
▁파이프 -10168
Hz -10169
▁더비 -10170
▁동참 -10171
▁상연 -10172
▁유스 -10173
▁자르 -10174
▁정관 -10175
▁인프라 -10176
▁지방산 -10177
▁동요 -10178
▁듀오 -10179
▁대성전 -10180
▁시종 -10181
▁총무 -10182
▁글로브 -10183
▁샐 -10184
림픽 -10185
버러 -10186
에미 -10187
헌영 -10188
▁수심 -10189
▁애칭 -10190
▁대지진 -10191
▁시뮬레이션 -10192
▁아데 -10193
▁하고 -10194
▁마우스 -10195
▁모인 -10196
▁호족 -10197
▁기병대 -10198
위성 -10199
▁광양 -10200
▁불행 -10201
▁초원 -10202
운다 -10203
▁NE -10204
▁결제 -10205
▁리모 -10206
거래 -10207
▁인디애나 -10208
스기 -10209
▁++ -10210
▁대국 -10211
▁베른 -10212
▁현행 -10213
미즈 -10214
▁맹세 -10215
▁상기 -10216
▁현직 -10217
▁쾰 -10218
▁닫힌 -10219
▁암흑 -10220
▁조병 -10221
▁자세히 -10222
메다 -10223
ork -10224
▁낮추 -10225
▁속주 -10226
▁헛 -10227
천사 -10228
파크 -10229
▁발각 -10230
▁신상 -10231
▁주화 -10232
▁격자 -10233
GA -10234
ix -10235
렉션 -10236
▁성령 -10237
바야시 -10238
▁농산물 -10239
▁마다가 -10240
▁세워져 -10241
▁통틀어 -10242
▁른 -10243
▁kt -10244
▁브랜 -10245
▁호의 -10246
▁루비 -10247
▁미주리 -10248
▁복음서 -10249
▁보헤미아 -10250
▁극락 -10251
▁파문 -10252
ence -10253
▁요제프 -10254
lo -10255
변이 -10256
▁장대 -10257
▁돌연변이 -10258
할시 -10259
해튼 -10260
▁Ro -10261
▁or -10262
▁김병 -10263
▁단과 -10264
▁둘러싸여 -10265
벨라 -10266
어질 -10267
ick -10268
▁가타 -10269
▁국수 -10270
▁요법 -10271
▁초고 -10272
위원회 -10273
▁아스널 -10274
▁공표 -10275
▁대본 -10276
▁표창 -10277
▁피로 -10278
▁선보이 -10279
▁해부 -10280
▁볼셰비키 -10281
▁패럴림픽 -10282
() -10283
▁현황 -10284
▁pro -10285
▁붙여졌 -10286
▁공파 -10287
▁낙하 -10288
마리 -10289
▁김옥 -10290
▁대각 -10291
▁메일 -10292
▁밀러 -10293
▁제너 -10294
▁투항 -10295
▁오로지 -10296
▁올바른 -10297
▁평안남도 -10298
테면 -10299
▁감금 -10300
▁세손 -10301
▁소울 -10302
▁시리 -10303
▁의과 -10304
▁입수 -10305
▁청자 -10306
▁이를테면 -10307
▁저격 -10308
▁우체국 -10309
▁후속작 -10310
▁1870 -10311
▁아빠 -10312
▁모터스 -10313
▁활주로 -10314
▁앗 -10315
라기 -10316
루냐 -10317
▁계시 -10318
▁생계 -10319
▁양육 -10320
▁재질 -10321
▁정국 -10322
▁총기 -10323
▁퇴장 -10324
▁매거진 -10325
▁합스부르크 -10326
▁뾰 -10327
▁댓 -10328
▁만년 -10329
▁서장 -10330
▁페로 -10331
▁포고 -10332
▁타이베이 -10333
▁우즈베키스탄 -10334
▁PR -10335
▁난이 -10336
▁내면 -10337
▁수염 -10338
▁이븐 -10339
▁황도 -10340
▁소피아 -10341
CAF -10342
▁리터 -10343
▁우아 -10344
▁카바 -10345
브리아 -10346
▁대장군 -10347
▁창시자 -10348
▁활발히 -10349
다르 -10350
▁부조 -10351
▁시국 -10352
ance -10353
▁Mar -10354
▁애리조 -10355
▁중앙부 -10356
▁숀 -10357
▁관동 -10358
▁중상 -10359
▁호리 -10360
▁NAS -10361
삭스 -10362
▁돌출 -10363
▁말년 -10364
▁머스 -10365
▁앞쪽 -10366
▁단행본 -10367
플로 -10368
▁To -10369
▁감수 -10370
▁리바 -10371
▁비늘 -10372
▁아쿠 -10373
▁전날 -10374
▁카터 -10375
▁450 -10376
▁1885 -10377
▁국당 -10378
▁국악 -10379
▁원심 -10380
▁꼽힌다 -10381
▁수원시 -10382
▁평안북도 -10383
▁아이스하키 -10384
홀름 -10385
▁반성 -10386
▁왜구 -10387
▁프랜시스 -10388
▁마르크스주의 -10389
▁엥 -10390
▁Ph -10391
▁수교 -10392
▁지로 -10393
▁1871 -10394
▁DM -10395
▁벤치 -10396
▁일리 -10397
▁청동기 -10398
▁un -10399
▁로페 -10400
▁배속 -10401
▁복식 -10402
▁티켓 -10403
▁제조업 -10404
EM -10405
공산 -10406
쩌둥 -10407
▁줄어 -10408
▁참사 -10409
▁마오쩌둥 -10410
▁경질 -10411
▁세븐 -10412
▁짱 -10413
irl -10414
▁GN -10415
▁바디 -10416
▁반하 -10417
테리아 -10418
▁비주얼 -10419
십자 -10420
으로 -10421
지오 -10422
▁미친 -10423
▁신종 -10424
▁로렌스 -10425
▁편집자 -10426
▁관행 -10427
▁USS -10428
ear -10429
▁중생 -10430
▁증인 -10431
▁푸르 -10432
▁1600 -10433
▁맷 -10434
▁감싸 -10435
▁냐는 -10436
▁로리 -10437
▁매직 -10438
▁불어 -10439
▁빅토르 -10440
▁알래스카 -10441
▁쿡 -10442
제이 -10443
▁다람쥐 -10444
▁일으킨다 -10445
ection -10446
▁즘 -10447
▁민요 -10448
▁볼프 -10449
▁케라 -10450
▁다나카 -10451
▁마닐라 -10452
▁자란다 -10453
▁콘스탄티노폴리스 -10454
티시 -10455
▁시애 -10456
▁유러 -10457
타이드 -10458
▁240 -10459
▁내무부 -10460
▁올랐으며 -10461
▁이양 -10462
▁지성 -10463
lass -10464
▁앤더슨 -10465
▁내성 -10466
▁스태 -10467
▁역도 -10468
▁이룩 -10469
▁자칭 -10470
▁흉노 -10471
▁프레이 -10472
파이 -10473
▁끝났 -10474
▁성실 -10475
▁콜레 -10476
▁휴게 -10477
▁양성자 -10478
▁1200 -10479
▁유러피언 -10480
라고 -10481
▁걸린 -10482
▁수인 -10483
▁줄여 -10484
▁청룡 -10485
▁테일 -10486
▁박헌영 -10487
▁알렉스 -10488
▁오클랜드 -10489
컨대 -10490
▁당내 -10491
▁부각 -10492
▁요지 -10493
▁위스 -10494
▁제동 -10495
▁친분 -10496
▁화랑 -10497
텔레스 -10498
▁쉴 -10499
▁개헌 -10500
▁수다 -10501
▁온다 -10502
▁유료 -10503
▁해저 -10504
▁only -10505
▁개개 -10506
▁이완 -10507
▁반란군 -10508
▁센고쿠 -10509
▁역사가 -10510
▁유권자 -10511
ild -10512
▁능선 -10513
▁려던 -10514
▁시달리 -10515
테쓰 -10516
▁장단 -10517
▁조광 -10518
▁프로리그 -10519
▁루카 -10520
▁중서 -10521
▁지오 -10522
▁아무것 -10523
▁잡아먹 -10524
▁파나마 -10525
▁SL -10526
▁갈리 -10527
▁이모 -10528
▁전단 -10529
▁시애틀 -10530
▁케이프 -10531
관리 -10532
▁무척 -10533
▁상급 -10534
▁오른손 -10535
▁교실 -10536
▁다투 -10537
▁봉수 -10538
▁이방 -10539
▁김정은 -10540
▁부드럽 -10541
▁궁궐 -10542
▁분과 -10543
▁카니 -10544
▁탑신 -10545
체고 -10546
▁플랜 -10547
▁부원군 -10548
▁예정자 -10549
체고비나 -10550
▁아리스토텔레스 -10551
▁멍 -10552
▁왕세자 -10553
▁하노이 -10554
▁남용 -10555
▁섬세 -10556
▁실험실 -10557
▁윤보선 -10558
▁마다가스카르 -10559
메스 -10560
▁몸통 -10561
▁재외 -10562
▁초빙 -10563
▁출가 -10564
▁넘어갔 -10565
▁앤드루 -10566
▁프라하 -10567
맥스 -10568
지기 -10569
▁구니 -10570
▁조례 -10571
▁김규식 -10572
▁맨해튼 -10573
▁유치원 -10574
▁각성 -10575
▁돌보 -10576
▁실존 -10577
▁정제 -10578
▁퍼포 -10579
▁브레이크 -10580
▁사쿠 -10581
▁시중 -10582
▁통역 -10583
▁MTV -10584
▁동대문 -10585
▁루돌프 -10586
OV -10587
ans -10588
▁AD -10589
▁고쿠 -10590
▁배려 -10591
▁생선 -10592
▁창문 -10593
▁총애 -10594
▁성남시 -10595
▁퍼포먼스 -10596
▁글러 -10597
▁재활 -10598
▁공민왕 -10599
▁미군정 -10600
▁구마모토 -10601
무소 -10602
▁경희 -10603
▁리비 -10604
▁바트 -10605
▁송도 -10606
▁차용 -10607
▁나타냈 -10608
▁신문사 -10609
▁해리슨 -10610
드슨 -10611
▁경시 -10612
▁칼럼 -10613
▁경영자 -10614
▁관문 -10615
▁오미 -10616
▁징병 -10617
▁동물원 -10618
▁가솔 -10619
▁독창 -10620
▁호크 -10621
▁어려웠 -10622
면체 -10623
사상 -10624
▁서산 -10625
▁약혼 -10626
▁지쿠 -10627
▁트릭 -10628
▁농경 -10629
▁처하 -10630
▁대대로 -10631
▁헬리콥터 -10632
▁괄 -10633
천면 -10634
▁나인 -10635
▁테라 -10636
▁포착 -10637
▁줄거리 -10638
코토 -10639
▁Sy -10640
▁국보 -10641
▁독도 -10642
▁하반 -10643
▁해져 -10644
▁위너스 -10645
▁크라이 -10646
▁러시아인 -10647
▁남산 -10648
▁수필 -10649
▁커플 -10650
▁EBS -10651
▁는다면 -10652
ivers -10653
▁CM -10654
▁퍼스 -10655
▁제퍼슨 -10656
▁시합 -10657
▁함자 -10658
▁리조트 -10659
▁퍼스트 -10660
▁싣 -10661
▁남해 -10662
▁뾰족 -10663
▁케인 -10664
▁가져온 -10665
▁동유럽 -10666
▁얕 -10667
▁구청 -10668
▁김원 -10669
▁신발 -10670
▁화기 -10671
어사 -10672
ype -10673
▁경호 -10674
▁에프 -10675
▁총통 -10676
▁칙령 -10677
▁통용 -10678
▁욕망 -10679
▁유혹 -10680
▁사각형 -10681
▁클린턴 -10682
▁뉴클 -10683
▁학설 -10684
▁드미 -10685
▁스가 -10686
▁시노 -10687
▁파도 -10688
▁클레이 -10689
▁올림피아 -10690
ish -10691
▁모의 -10692
▁모호 -10693
▁안녕 -10694
▁어쩔 -10695
▁전래 -10696
▁하류 -10697
include -10698
▁서재필 -10699
▁마차 -10700
▁보라 -10701
▁일당 -10702
▁절망 -10703
▁주입 -10704
▁효자 -10705
▁내려졌 -10706
▁브루스 -10707
▁선거법 -10708
▁솔로몬 -10709
▁스테파 -10710
▁가늘 -10711
▁레이크 -10712
▁해리스 -10713
▁산호 -10714
▁주임 -10715
▁카지 -10716
통일 -10717
▁Jo -10718
▁이렇 -10719
▁자제 -10720
GM -10721
▁관청 -10722
▁무실 -10723
▁성화 -10724
▁허정 -10725
▁예수회 -10726
▁나우 -10727
▁당연 -10728
▁실정 -10729
▁연한 -10730
▁찬사 -10731
▁케플러 -10732
토랑 -10733
▁": -10734
▁보행 -10735
▁씨앗 -10736
▁평형 -10737
▁보낸다 -10738
▁레스토랑 -10739
▁총사령관 -10740
fe -10741
▁광도 -10742
▁보로 -10743
▁수양 -10744
▁시부 -10745
▁하키 -10746
▁화엄 -10747
▁자치체 -10748
원수 -10749
지르 -10750
▁호스 -10751
▁예선전 -10752
▁정의당 -10753
▁함경남도 -10754
신문 -10755
oun -10756
▁NT -10757
▁천왕 -10758
▁대합실 -10759
▁아키라 -10760
에스 -10761
▁마술 -10762
▁이겨 -10763
▁침묵 -10764
▁카테 -10765
▁분류군 -10766
▁요시다 -10767
OD -10768
아나 -10769
▁찬양 -10770
▁방어선 -10771
▁비밀리 -10772
▁@ -10773
히트 -10774
▁만장 -10775
▁메카 -10776
▁전무 -10777
▁제물 -10778
AF -10779
환경 -10780
▁라서 -10781
▁로버 -10782
▁분파 -10783
▁신지 -10784
정원 -10785
▁ex -10786
▁메뉴 -10787
▁박종 -10788
▁소음 -10789
▁이점 -10790
▁테리 -10791
▁포식 -10792
▁폭파 -10793
▁향했 -10794
▁내야수 -10795
군다 -10796
▁검정 -10797
▁담보 -10798
▁긴테쓰 -10799
▁벅 -10800
▁보수당 -10801
려서 -10802
바흐 -10803
▁고든 -10804
▁한미 -10805
az -10806
창호 -10807
are -10808
▁sc -10809
▁대북 -10810
▁본성 -10811
▁시몬 -10812
▁천국 -10813
▁다저스 -10814
▁플라톤 -10815
▁김유 -10816
▁리보 -10817
▁맞대 -10818
▁색소 -10819
▁소극 -10820
▁알프스 -10821
▁컴퓨팅 -10822
▁다테 -10823
▁블레 -10824
▁소중 -10825
▁수복 -10826
▁엄밀 -10827
▁개구리 -10828
▁그래도 -10829
▁샀 -10830
▁도둑 -10831
▁원통 -10832
▁캐롤 -10833
▁리프트 -10834
▁올라갔 -10835
▁뉴클레오 -10836
▁네이션스컵 -10837
▁넷째 -10838
▁라자 -10839
▁리사 -10840
▁문고 -10841
▁블로 -10842
▁비타민 -10843
▁서대문 -10844
▁아키타 -10845
▁넘치 -10846
▁도교 -10847
▁드루 -10848
▁영유 -10849
▁웨인 -10850
▁파손 -10851
▁쓰여진 -10852
▁친위대 -10853
▁스톡홀름 -10854
▁마셜 -10855
▁어군 -10856
▁전담 -10857
▁ABC -10858
▁바이트 -10859
다운 -10860
▁강령 -10861
▁구두 -10862
▁노론 -10863
▁스텝 -10864
▁카피 -10865
ical -10866
등식 -10867
▁치과 -10868
▁타스 -10869
▁용인시 -10870
▁유아기 -10871
▁와이번스 -10872
▁왕건 -10873
▁황소 -10874
▁오리온 -10875
▁프린스 -10876
메드 -10877
▁모어 -10878
▁방콕 -10879
▁특전 -10880
▁자치주 -10881
lat -10882
▁동로 -10883
▁리베 -10884
▁불변 -10885
▁실권 -10886
▁포토 -10887
▁나트륨 -10888
▁투자자 -10889
대표 -10890
암동 -10891
▁묘비 -10892
▁백두 -10893
▁우림 -10894
▁장시 -10895
▁채취 -10896
▁아름다움 -10897
TP -10898
▁국공 -10899
▁릴리 -10900
▁스폰서 -10901
IR -10902
라니 -10903
▁DD -10904
▁마켓 -10905
▁벤처 -10906
▁선천 -10907
▁슬픔 -10908
▁천거 -10909
▁추이 -10910
▁로드리 -10911
▁가브리엘 -10912
▁북아일랜드 -10913
EG -10914
▁구실 -10915
▁유격수 -10916
▁멧 -10917
매매 -10918
▁모셔 -10919
▁대원군 -10920
▁동시대 -10921
▁피라미 -10922
▁피아니스트 -10923
▁럭비 -10924
▁로얄 -10925
▁쾰른 -10926
▁마천루 -10927
지능 -10928
▁강렬 -10929
▁와라 -10930
▁왕권 -10931
▁이의 -10932
▁화약 -10933
▁ATP -10934
▁인공지능 -10935
질러 -10936
▁Fr -10937
▁야전 -10938
▁잇따 -10939
▁져서 -10940
▁CH -10941
▁사방 -10942
▁야드 -10943
▁퇴직 -10944
▁합친 -10945
▁AV -10946
▁결별 -10947
▁별세 -10948
▁상행 -10949
▁헬싱 -10950
▁210 -10951
▁마누엘 -10952
EL -10953
▁감찰 -10954
▁구내 -10955
▁로크 -10956
▁사역 -10957
▁슬하 -10958
▁여유 -10959
▁톈진 -10960
▁가이드 -10961
▁연산군 -10962
▁토스카 -10963
▁튀르크 -10964
▁간첩 -10965
▁정거 -10966
▁제노 -10967
▁선구자 -10968
▁안테나 -10969
▁정부군 -10970
덴부르크 -10971
러지 -10972
티넘 -10973
▁방치 -10974
▁삼존 -10975
▁스칸 -10976
▁어찌 -10977
▁연극배우 -10978
▁플래티넘 -10979
▁헤르체고비나 -10980
▁그저 -10981
▁안드 -10982
▁어는 -10983
▁적외선 -10984
▁화강암 -10985
FL -10986
▁가맹 -10987
▁즐길 -10988
▁차출 -10989
▁콘테스트 -10990
놀이 -10991
대교 -10992
▁강해 -10993
▁준수 -10994
▁간신히 -10995
▁메이커 -10996
▁가락 -10997
▁러서 -10998
▁불참 -10999
▁약사 -11000
▁펌프 -11001
▁아나톨 -11002
▁아이폰 -11003
▁이뤄졌 -11004
▁주차장 -11005
ey -11006
▁늙 -11007
언스 -11008
▁pr -11009
▁마에 -11010
▁삼림 -11011
▁유선 -11012
▁죽인 -11013
▁취했 -11014
▁두려움 -11015
▁알파벳 -11016
▁타이어 -11017
▁프레데 -11018
ica -11019
▁공존 -11020
▁마땅 -11021
▁위그 -11022
▁중퇴 -11023
사고 -11024
수스 -11025
▁김형 -11026
▁끼치 -11027
▁켈트 -11028
▁말미암 -11029
▁오바마 -11030
▁극우 -11031
▁종식 -11032
▁최진 -11033
▁드디어 -11034
▁목요일 -11035
▁엔트리 -11036
▁딥 -11037
▁리본 -11038
▁본작 -11039
▁애정 -11040
▁임정 -11041
▁초신성 -11042
▁소말리아 -11043
들여 -11044
▁건전 -11045
▁모하 -11046
▁영예 -11047
▁추리 -11048
와라노 -11049
▁경전철 -11050
▁나타낸 -11051
▁후지와라노 -11052
▁반포 -11053
▁밸리 -11054
▁봉화 -11055
▁실록 -11056
▁유목 -11057
▁이송 -11058
▁집정 -11059
▁처지 -11060
▁열심히 -11061
▁1889 -11062
▁스카우트 -11063
60 -11064
클레 -11065
▁he -11066
▁벌여 -11067
▁비엔 -11068
▁산성 -11069
▁아날 -11070
▁요충 -11071
▁칸국 -11072
▁쿠퍼 -11073
▁가솔린 -11074
▁기관지 -11075
소통 -11076
▁갈아 -11077
▁감성 -11078
▁모금 -11079
▁연말 -11080
▁엣 -11081
▁여권 -11082
▁영정 -11083
▁자란 -11084
▁전전 -11085
▁직통 -11086
▁플리 -11087
▁발라드 -11088
▁패트릭 -11089
부로 -11090
천동 -11091
▁나아 -11092
▁로트 -11093
▁송신 -11094
▁예약 -11095
▁호대 -11096
▁휩쓸 -11097
▁찾아내 -11098
난성 -11099
▁겹쳐 -11100
▁절정 -11101
▁하시 -11102
▁형질 -11103
공산당 -11104
▁밴쿠버 -11105
▁베트 -11106
▁중합 -11107
▁고속버스 -11108
▁대영 -11109
▁사설 -11110
▁정형 -11111
▁피지 -11112
▁낙동강 -11113
▁로마인 -11114
▁의사소통 -11115
충류 -11116
▁다윈 -11117
▁불량 -11118
▁타이거스 -11119
▁So -11120
▁김준 -11121
▁수락 -11122
▁정작 -11123
▁투여 -11124
▁판례 -11125
테이너 -11126
▁라리 -11127
▁똑같이 -11128
▁챙 -11129
▁매트 -11130
▁모색 -11131
▁캐리 -11132
▁사라진 -11133
▁니혼 -11134
▁미수 -11135
▁열강 -11136
▁의류 -11137
▁For -11138
▁스트로 -11139
▁바꿨 -11140
▁비야 -11141
▁악보 -11142
▁정읍 -11143
▁후배 -11144
▁생존자 -11145
▁나카무라 -11146
▁감상 -11147
▁금호 -11148
▁작물 -11149
▁종자 -11150
▁주계 -11151
▁지자 -11152
▁힘썼 -11153
▁메디치 -11154
▁격리 -11155
▁중수 -11156
추부사 -11157
▁혀 -11158
위안 -11159
유예 -11160
▁시크 -11161
▁Live -11162
풀이 -11163
▁목회 -11164
▁사탕 -11165
▁생긴다 -11166
▁JTBC -11167
바나 -11168
▁무형 -11169
▁사서 -11170
블랜드 -11171
▁들어올 -11172
▁CONCA -11173
부르 -11174
카리 -11175
휴일 -11176
▁삼중 -11177
▁의령 -11178
▁징수 -11179
▁프란체스코 -11180
▁제명 -11181
▁센티미터 -11182
▁어시스트 -11183
bo -11184
▁싼 -11185
가미 -11186
▁CONCACAF -11187
▁공소 -11188
▁비추 -11189
▁원군 -11190
▁은거 -11191
▁하야 -11192
▁훙 -11193
▁기이 -11194
▁도피 -11195
▁메소 -11196
▁서임 -11197
▁잠정 -11198
▁드러냈 -11199
▁클리블랜드 -11200
sh -11201
망디 -11202
▁고쳤 -11203
▁서태 -11204
▁유희 -11205
▁정종 -11206
▁뛰어났 -11207
▁깜 -11208
▁김명 -11209
▁내걸 -11210
▁반기 -11211
▁앙골 -11212
▁요격 -11213
▁Sou -11214
▁놀라운 -11215
▁미야자키 -11216
말로 -11217
캐슬 -11218
▁습윤 -11219
▁유의 -11220
▁트렌 -11221
▁시네마 -11222
▁카카오 -11223
▁프랑스인 -11224
▁고딕 -11225
▁한중 -11226
프로 -11227
▁백과 -11228
▁비준 -11229
▁페트 -11230
바이트 -11231
▁레이싱 -11232
▁장학금 -11233
에미리트 -11234
▁아랍에미리트 -11235
IL -11236
▁가도 -11237
▁익숙 -11238
▁피라미드 -11239
▁모욕 -11240
▁볼트 -11241
▁송출 -11242
▁연정 -11243
마르크 -11244
▁여배우 -11245
란토 -11246
화문 -11247
▁금산 -11248
▁김광 -11249
▁가나가와현 -11250
▁리옹 -11251
▁성곽 -11252
▁치환 -11253
▁해독 -11254
도르프 -11255
하이오 -11256
▁오하이오 -11257
▁카탈루냐 -11258
▁자유민주당 -11259
▁노면 -11260
▁검은색 -11261
▁Time -11262
EE -11263
▁EU -11264
tern -11265
▁교통부 -11266
▁에이즈 -11267
▁GB -11268
▁거미 -11269
▁순종 -11270
▁평평 -11271
▁Com -11272
▁광복군 -11273
▁레이더 -11274
▁마이어 -11275
▁스타트 -11276
ood -11277
ost -11278
▁벨리 -11279
▁워커 -11280
▁자서 -11281
▁항만 -11282
▁브레이 -11283
나마 -11284
에몽 -11285
▁격추 -11286
▁귀신 -11287
▁무네 -11288
▁미야기 -11289
▁토리노 -11290
▁캅 -11291
워하 -11292
▁Ma -11293
▁도래 -11294
▁매킨 -11295
▁탄약 -11296
▁포털 -11297
▁Part -11298
대사 -11299
▁"& -11300
▁때려 -11301
▁양심 -11302
▁여사 -11303
▁클러 -11304
▁Col -11305
▁유니버설 -11306
▁문집 -11307
▁베어 -11308
▁뉴캐슬 -11309
▁프랑스령 -11310
▁츄 -11311
▁바지 -11312
▁수로 -11313
▁암스 -11314
▁천주 -11315
▁AKB -11316
▁1848 -11317
▁걸어 -11318
▁댄서 -11319
▁여고 -11320
▁티아 -11321
▁int -11322
▁기숙사 -11323
▁대리인 -11324
▁라이더 -11325
▁시켜서 -11326
자루 -11327
▁급여 -11328
▁느린 -11329
▁무과 -11330
▁줄리 -11331
▁한림 -11332
▁해피 -11333
▁레이트 -11334
▁여의도 -11335
현동 -11336
▁추억 -11337
▁해태 -11338
▁모건 -11339
▁대단히 -11340
▁우루스 -11341
▁사쓰 -11342
▁셀레 -11343
▁총격 -11344
▁토트 -11345
▁명확히 -11346
▁지상파 -11347
▁댈 -11348
row -11349
▁가혹 -11350
▁꼽히 -11351
▁랴오 -11352
▁맞춘 -11353
▁오만 -11354
▁재일 -11355
▁부총리 -11356
▁졌으나 -11357
▁국한 -11358
▁사민 -11359
▁추력 -11360
▁프란치 -11361
거스 -11362
브로 -11363
▁재팬 -11364
▁파란 -11365
▁바그너 -11366
▁지배자 -11367
의사 -11368
ous -11369
▁누렸 -11370
▁병자 -11371
▁비정 -11372
▁워즈 -11373
▁절벽 -11374
▁공휴일 -11375
애미 -11376
워서 -11377
지부 -11378
▁TR -11379
▁공성 -11380
▁안개 -11381
span -11382
▁마이애미 -11383
▁섰 -11384
나오 -11385
▁거란 -11386
▁부합 -11387
▁하행 -11388
▁대니얼 -11389
▁정치학 -11390
관계 -11391
▁업자 -11392
▁우한 -11393
▁종군 -11394
▁그랜트 -11395
▁튀니지 -11396
▁onlyinclude -11397
uc -11398
정동 -11399
▁김인 -11400
▁남군 -11401
▁바꿀 -11402
▁방대 -11403
▁볼로 -11404
프랑크 -11405
▁어긋나 -11406
▁클라우 -11407
▁Your -11408
lay -11409
▁굴절 -11410
▁라르 -11411
▁비대 -11412
▁코리 -11413
▁마법사 -11414
▁법원장 -11415
▁보수주의 -11416
▁카스티야 -11417
▁공대 -11418
▁진로 -11419
▁로키 -11420
▁무안 -11421
▁비토 -11422
▁산둥 -11423
▁제위 -11424
페스트 -11425
▁고인돌 -11426
▁대법관 -11427
▁이뤄지 -11428
▁대승불교 -11429
거지 -11430
orn -11431
▁EM -11432
▁든다 -11433
▁보령 -11434
▁신곡 -11435
▁특화 -11436
▁합치 -11437
▁SNS -11438
▁일본국 -11439
▁정거장 -11440
▁가쿠 -11441
▁교의 -11442
▁다치 -11443
▁선봉 -11444
▁유식 -11445
파니아 -11446
▁OST -11447
지아 -11448
▁경복 -11449
▁단결 -11450
▁설문 -11451
▁시켜야 -11452
▁페트로 -11453
ann -11454
▁부평 -11455
▁음절 -11456
▁치카 -11457
▁국제법 -11458
OP -11459
▁찔 -11460
▁국교 -11461
▁선명 -11462
olog -11463
메니 -11464
▁리카 -11465
▁사수 -11466
▁인칭 -11467
▁시코쿠 -11468
▁관현악단 -11469
ows -11470
▁고로 -11471
▁동산 -11472
▁모라 -11473
▁지법 -11474
▁대나무 -11475
▁시멘트 -11476
▁검거 -11477
▁용액 -11478
▁아이즈 -11479
▁BC -11480
▁공영 -11481
▁동진 -11482
▁모빌 -11483
▁문단 -11484
▁소외 -11485
▁커서 -11486
▁케르 -11487
▁Bla -11488
▁맬 -11489
▁숙부 -11490
▁연립 -11491
해살이 -11492
▁저지대 -11493
▁NASA -11494
▁GM -11495
▁류큐 -11496
▁마테 -11497
▁서귀 -11498
▁실증 -11499
▁외치 -11500
▁131 -11501
▁제우스 -11502
▁하노버 -11503
▁대마 -11504
▁봉인 -11505
▁중엽 -11506
▁황색 -11507
▁방사능 -11508
▁줄기세포 -11509
서스 -11510
▁교부 -11511
▁점포 -11512
▁최선 -11513
▁평지 -11514
▁항체 -11515
용차 -11516
▁고생 -11517
▁사림 -11518
▁적료 -11519
메이카 -11520
▁정보원 -11521
▁카메룬 -11522
▁1883 -11523
▁자메이카 -11524
▁라디 -11525
▁메스 -11526
▁오디 -11527
▁재편 -11528
▁API -11529
▁영화상 -11530
틀리 -11531
▁가중 -11532
▁골격 -11533
▁기량 -11534
▁접한 -11535
▁초콜 -11536
클리드 -11537
▁ref -11538
▁가져다 -11539
▁예컨대 -11540
▁그라운드 -11541
▁레드삭스 -11542
▁단군 -11543
▁명소 -11544
▁모범 -11545
▁안방 -11546
▁팔렸 -11547
▁항우 -11548
▁라파엘 -11549
▁줄리아 -11550
▁쳐들어 -11551
▁도키 -11552
▁전보 -11553
▁절감 -11554
▁편견 -11555
▁형벌 -11556
▁뛰어들 -11557
▁쾨 -11558
▁남방 -11559
▁다듬 -11560
▁부상자 -11561
▁비서관 -11562
▁패러디 -11563
▁욱 -11564
▁at -11565
▁녹화 -11566
▁램프 -11567
▁은혜 -11568
▁종양 -11569
▁지석 -11570
▁혼다 -11571
빌라이 -11572
▁제이슨 -11573
▁체인지 -11574
▁중소기업 -11575
▁촛 -11576
칼리 -11577
▁글꼴 -11578
▁기와 -11579
▁다우 -11580
▁속력 -11581
▁연희 -11582
▁타락 -11583
▁평판 -11584
▁달라지 -11585
▁도박 -11586
▁바쳤 -11587
▁부다 -11588
▁선대 -11589
▁홀리 -11590
레스트 -11591
른스트 -11592
▁가토 -11593
▁관상 -11594
▁기해 -11595
▁하코 -11596
▁학력 -11597
▁한신 -11598
▁노르망디 -11599
▁녕 -11600
시노 -11601
히사 -11602
▁기세 -11603
▁수식 -11604
네그로 -11605
▁파일럿 -11606
▁곶 -11607
합성 -11608
▁라기 -11609
▁무작 -11610
▁약해 -11611
▁응급 -11612
▁꿈꾸 -11613
▁유우 -11614
▁카네 -11615
▁탄자 -11616
▁해치 -11617
▁교향악단 -11618
제품 -11619
▁경위 -11620
▁밀어 -11621
▁송파 -11622
▁하남 -11623
▁연구회 -11624
▁판소리 -11625
▁나간 -11626
▁삽화 -11627
▁유공 -11628
▁이회 -11629
▁에스페 -11630
▁연장전 -11631
▁u -11632
들이 -11633
▁계주 -11634
▁너머 -11635
▁니키 -11636
▁라바 -11637
▁산요 -11638
▁상어 -11639
▁식스 -11640
▁야외 -11641
▁위로 -11642
▁코소 -11643
▁공무 -11644
▁근사 -11645
▁대좌 -11646
▁쌍대 -11647
▁이터 -11648
▁자명 -11649
▁지극 -11650
▁해상도 -11651
▁텍사스주 -11652
80 -11653
▁간략 -11654
▁달랐 -11655
▁배분 -11656
▁열전 -11657
▁콘솔 -11658
▁큐브 -11659
▁걸쳐서 -11660
센스 -11661
▁리즈 -11662
▁온난 -11663
▁피리 -11664
▁고분군 -11665
▁흐른다 -11666
▁tv -11667
▁권역 -11668
▁발상 -11669
▁병마 -11670
▁조교 -11671
▁친족 -11672
▁헬레 -11673
▁전반기 -11674
▁모세 -11675
▁뫼 -11676
▁가우 -11677
▁단정 -11678
▁세습 -11679
▁우산 -11680
▁내세우 -11681
▁위구르 -11682
▁프로그래머 -11683
돌이 -11684
▁간사 -11685
▁고의 -11686
▁리마 -11687
▁수위 -11688
▁요양 -11689
▁카마 -11690
스트리 -11691
▁에이전 -11692
▁Ge -11693
▁관악 -11694
▁유생 -11695
▁장덕 -11696
▁단속 -11697
▁부교 -11698
▁안나 -11699
▁엔드 -11700
▁요절 -11701
▁월터 -11702
▁달아났 -11703
▁관계없이 -11704
▁고마 -11705
▁관례 -11706
▁잃어버린 -11707
▁쿠빌라이 -11708
▁군데 -11709
▁도네 -11710
▁북군 -11711
▁위조 -11712
▁이용객 -11713
▁토마토 -11714
▁봇 -11715
에고 -11716
▁국외 -11717
▁부왕 -11718
▁사학 -11719
▁성동 -11720
▁통신사 -11721
▁1882 -11722
40 -11723
워스 -11724
치히 -11725
ink -11726
▁고흥 -11727
▁그릴 -11728
▁씨족 -11729
▁주선 -11730
▁함량 -11731
▁330 -11732
▁너무나 -11733
▁만화가 -11734
▁해안선 -11735
ern -11736
▁급증 -11737
▁동포 -11738
▁범행 -11739
▁세련 -11740
▁다이어 -11741
▁중공군 -11742
▁야마가타 -11743
CC -11744
프턴 -11745
▁RP -11746
▁루키 -11747
▁성원 -11748
▁스루 -11749
▁여도 -11750
▁유서 -11751
▁선진국 -11752
▁슈퍼컵 -11753
토프 -11754
포시 -11755
▁결사 -11756
▁내일 -11757
▁맞춤 -11758
▁보루 -11759
▁왕궁 -11760
▁자수 -11761
▁정월 -11762
▁Day -11763
▁Wind -11764
▁콥 -11765
버른 -11766
▁강행 -11767
▁국정원 -11768
▁올리브 -11769
▁거성 -11770
▁고노 -11771
▁기전 -11772
▁아이언 -11773
▁카스트 -11774
▁Girl -11775
▁몹 -11776
팡이 -11777
▁덮개 -11778
▁타수 -11779
▁파벌 -11780
▁단체전 -11781
▁대표자 -11782
▁영원히 -11783
II -11784
나갔 -11785
▁SA -11786
▁가고 -11787
▁느낄 -11788
▁새우 -11789
▁표정 -11790
▁형편 -11791
▁데니스 -11792
▁스칼라 -11793
▁원산지 -11794
교통 -11795
▁RS -11796
▁객차 -11797
▁랭크 -11798
▁받들 -11799
▁시안 -11800
▁잠깐 -11801
▁군사력 -11802
▁무실점 -11803
▁비해서 -11804
▁필립스 -11805
▁아날로그 -11806
여객 -11807
▁옮긴 -11808
▁조셉 -11809
오르크 -11810
▁공화정 -11811
▁부르주 -11812
서니 -11813
▁남하 -11814
▁배달 -11815
▁플러 -11816
▁레오폴 -11817
▁맡기 -11818
▁산시 -11819
▁우시 -11820
▁재래 -11821
▁정정 -11822
▁직속 -11823
▁지닌다 -11824
▁묻혔 -11825
▁발동 -11826
▁상록 -11827
▁세요 -11828
▁양보 -11829
▁염려 -11830
▁주창 -11831
▁최영 -11832
▁협업 -11833
▁미토콘 -11834
▁미토콘드리아 -11835
US -11836
▁FK -11837
▁지르 -11838
▁Sch -11839
▁미스터리 -11840
▁사안 -11841
▁제천 -11842
▁태후 -11843
▁생겨난 -11844
▁어울리 -11845
도라 -11846
▁La -11847
▁강당 -11848
▁아유 -11849
▁앞선 -11850
▁항원 -11851
▁4000 -11852
▁관목 -11853
▁넬슨 -11854
▁몰타 -11855
▁사영 -11856
▁외래 -11857
지리 -11858
▁사치 -11859
▁아목 -11860
▁독수리 -11861
▁북유럽 -11862
게스 -11863
▁서면 -11864
▁노벨상 -11865
▁테네시 -11866
▁해운대 -11867
▁브루클린 -11868
▁시즈오카 -11869
▁괌 -11870
▁규탄 -11871
▁우월 -11872
▁진한 -11873
▁천수 -11874
▁경주시 -11875
▁만난다 -11876
▁호스트 -11877
▁냥 -11878
▁신입 -11879
▁키워 -11880
▁떠오르 -11881
▁접어들 -11882
데라 -11883
▁딜런 -11884
▁일각 -11885
▁조슈 -11886
▁콜럼 -11887
▁LED -11888
▁라인업 -11889
▁안티오 -11890
▁알아보 -11891
▁쪼 -11892
▁OB -11893
▁놓인 -11894
▁법관 -11895
▁보름 -11896
▁빙하 -11897
▁소프 -11898
▁정은 -11899
▁회귀 -11900
▁급속히 -11901
▁파시즘 -11902
▁파푸아 -11903
▁줌 -11904
본부 -11905
▁노사 -11906
▁제단 -11907
▁족보 -11908
▁타일 -11909
▁우의정 -11910
▁제갈량 -11911
▁1868 -11912
▁뒤이 -11913
▁후예 -11914
▁대상자 -11915
▁사업소 -11916
▁산티아 -11917
▁지붕돌 -11918
▁휴게소 -11919
▁렛 -11920
▁샨 -11921
▁Or -11922
▁단말 -11923
▁대인 -11924
▁저조 -11925
▁켄트 -11926
▁하의 -11927
▁할인 -11928
OT -11929
융합 -11930
▁라미 -11931
▁번창 -11932
▁영덕 -11933
티모어 -11934
▁베이커 -11935
▁치러졌 -11936
▁프랜차 -11937
▁뇨 -11938
▁쩐 -11939
▁거세 -11940
▁외형 -11941
스탄불 -11942
▁new -11943
▁멜버른 -11944
▁메릴랜드 -11945
▁이스탄불 -11946
협회 -11947
oll -11948
▁고트 -11949
▁과테 -11950
▁무서 -11951
▁았었 -11952
▁전수 -11953
▁종영 -11954
▁피할 -11955
▁스캔들 -11956
▁이바지 -11957
▁과테말라 -11958
▁유클리드 -11959
▁컨테이너 -11960
▁군벌 -11961
▁동적 -11962
▁수열 -11963
▁증오 -11964
▁오스틴 -11965
▁요충지 -11966
▁사이타마 -11967
▁대도 -11968
▁오아 -11969
▁증폭 -11970
▁리믹스 -11971
▁커리어 -11972
▁핵융합 -11973
▁찢 -11974
▁청계 -11975
▁앙골라 -11976
▁컨트롤러 -11977
▁몬테네그로 -11978
▁사운드트랙 -11979
▁사회민주당 -11980
▁김윤 -11981
▁농지 -11982
▁어파 -11983
▁출자 -11984
▁피핀 -11985
▁라카 -11986
▁스콜 -11987
▁위력 -11988
▁절제 -11989
▁초안 -11990
▁좌의정 -11991
▁베르나르 -11992
히드 -11993
▁금전 -11994
▁노후 -11995
▁안무 -11996
▁영월 -11997
▁출동 -11998
▁프랜차이즈 -11999
▁성산 -12000
▁기념일 -12001
▁야마모토 -12002
▁복종 -12003
▁잔인 -12004
▁장병 -12005
▁충렬 -12006
▁호아 -12007
▁폐기물 -12008
▁고온 -12009
▁사비 -12010
▁사천 -12011
▁외과 -12012
▁항로 -12013
▁교직 -12014
▁동향 -12015
▁양수 -12016
▁우왕 -12017
▁위촉 -12018
▁차선 -12019
호란 -12020
▁게끔 -12021
▁공안 -12022
▁꾀하 -12023
▁분단 -12024
▁영암 -12025
▁정몽 -12026
웨이트 -12027
펜하겐 -12028
▁히브리 -12029
▁코펜하겐 -12030
내리 -12031
▁러일 -12032
▁성악 -12033
▁우연 -12034
▁종신 -12035
▁주계열 -12036
▁밀레 -12037
▁버터 -12038
▁부파 -12039
▁습관 -12040
▁은신 -12041
▁주심 -12042
▁타리 -12043
▁320 -12044
▁떠난다 -12045
▁흩어져 -12046
▁아케이드 -12047
▁끝날 -12048
▁청도 -12049
▁그만큼 -12050
▁요하네스 -12051
▁프란시스코 -12052
바오 -12053
▁내분 -12054
▁도상 -12055
▁바울 -12056
▁새긴 -12057
▁이메 -12058
▁치유 -12059
▁피드 -12060
▁발전기 -12061
▁분사 -12062
▁상국 -12063
▁시비 -12064
▁위함 -12065
▁신주쿠 -12066
▁암스테르담 -12067
▁colspan -12068
▁네티 -12069
▁식용 -12070
▁자진 -12071
▁전세 -12072
▁카세 -12073
▁헌장 -12074
▁수요일 -12075
▁능동 -12076
▁대청 -12077
▁이항 -12078
▁치하 -12079
▁피우 -12080
▁동맹국 -12081
▁자서전 -12082
디나비아 -12083
▁스칸디나비아 -12084
익스 -12085
▁DF -12086
▁매리 -12087
▁순차 -12088
▁슈테 -12089
▁준장 -12090
▁차츰 -12091
▁결과물 -12092
▁김옥균 -12093
▁사이먼 -12094
▁슌 -12095
공주 -12096
▁국철 -12097
▁양대 -12098
▁점거 -12099
▁추서 -12100
▁컨설 -12101
▁게오르크 -12102
▁늪 -12103
▁긴밀 -12104
▁당할 -12105
▁대덕 -12106
▁문무 -12107
▁배리 -12108
▁자재 -12109
▁조영 -12110
▁end -12111
▁오일러 -12112
▁니콜라스 -12113
▁놈 -12114
걸이 -12115
▁고이 -12116
▁소아 -12117
▁전락 -12118
▁첼로 -12119
▁카툰 -12120
▁한번 -12121
▁서해안 -12122
▁철저히 -12123
▁효고현 -12124
▁산티아고 -12125
▁여성주의 -12126
우에 -12127
▁데드 -12128
▁무언 -12129
▁압록 -12130
▁정령 -12131
▁직행 -12132
▁축산 -12133
▁보여준 -12134
독립 -12135
▁고집 -12136
▁김선 -12137
▁모차 -12138
▁박성 -12139
토리코 -12140
▁가라앉 -12141
▁헤이안 -12142
RT -12143
▁기쁨 -12144
▁었었 -12145
▁타로 -12146
▁톰슨 -12147
▁텔레콤 -12148
▁에른스트 -12149
▁쿠웨이트 -12150
▁코스타리카 -12151
▁육군사관학교 -12152
꼬리 -12153
셀러 -12154
▁by -12155
▁거지 -12156
▁문종 -12157
▁샤프 -12158
▁서주 -12159
▁수량 -12160
▁정했 -12161
▁함흥 -12162
▁흡사 -12163
▁280 -12164
▁화장품 -12165
amp -12166
gin -12167
▁격려 -12168
▁높였 -12169
▁정반 -12170
▁데이브 -12171
▁브뤼셀 -12172
▁서사시 -12173
▁위안부 -12174
니파 -12175
▁노아 -12176
▁높여 -12177
▁짐승 -12178
▁칭송 -12179
▁시트콤 -12180
웍스 -12181
▁온화 -12182
▁원활 -12183
▁주성 -12184
▁척도 -12185
▁천천 -12186
▁로마자 -12187
▁루이지애나 -12188
▁김승 -12189
▁내무 -12190
▁브릿 -12191
▁서스 -12192
▁전학 -12193
▁퍼즐 -12194
▁후유 -12195
▁윗부분 -12196
▁유학자 -12197
▁아흐 -12198
▁앤디 -12199
▁나타날 -12200
▁데일리 -12201
▁법조인 -12202
▁어웨이 -12203
▁장로교 -12204
▁푸에르토리코 -12205
LA -12206
▁각료 -12207
▁과시 -12208
▁리튬 -12209
▁막판 -12210
▁집착 -12211
▁천마 -12212
▁탈취 -12213
▁편향 -12214
▁피크 -12215
▁203 -12216
▁부르고 -12217
▁천안시 -12218
▁함경북도 -12219
▁촐 -12220
업자 -12221
▁가했 -12222
▁결핵 -12223
▁리코 -12224
▁백악 -12225
▁펠릭스 -12226
▁포르노 -12227
▁1893 -12228
계승 -12229
▁생리 -12230
▁이아 -12231
▁정재 -12232
▁학장 -12233
▁IOC -12234
▁도자기 -12235
▁천천히 -12236
퍼레이션 -12237
▁갚 -12238
▁갯 -12239
게임 -12240
▁Fe -12241
▁대종 -12242
▁박상 -12243
▁소대 -12244
▁유족 -12245
▁축전 -12246
▁충무 -12247
▁코네 -12248
▁트리오 -12249
OW -12250
세유 -12251
▁배드 -12252
▁영천 -12253
▁측량 -12254
▁폐렴 -12255
▁헌터 -12256
▁로스쿨 -12257
▁민병대 -12258
▁복음주의 -12259
북구 -12260
▁간직 -12261
▁레프 -12262
▁배양 -12263
▁접종 -12264
상시 -12265
▁김치 -12266
▁선인 -12267
▁아드 -12268
▁우두 -12269
▁조니 -12270
라이드 -12271
▁교육자 -12272
▁서바이 -12273
▁가고시마 -12274
▁이탈리아어 -12275
▁톡 -12276
ung -12277
▁Mo -12278
▁NP -12279
▁관우 -12280
▁조제 -12281
gr -12282
▁이황 -12283
▁왔으나 -12284
▁해안가 -12285
▁마이크로 -12286
▁탄자니아 -12287
화학 -12288
▁심포 -12289
▁애인 -12290
▁취한 -12291
▁하급 -12292
▁해왕 -12293
▁로베르 -12294
▁Rock -12295
▁le -12296
▁도출 -12297
▁미성 -12298
▁숨기 -12299
▁점검 -12300
▁서초구 -12301
les -12302
▁하타 -12303
▁헤로 -12304
▁동맹군 -12305
▁지켜보 -12306
eth -12307
▁기뻐 -12308
▁김천 -12309
▁도이 -12310
▁바비 -12311
▁흥분 -12312
익스피어 -12313
들러 -12314
티에 -12315
▁공양 -12316
▁귀속 -12317
▁심상 -12318
▁철강 -12319
▁한문 -12320
로이드 -12321
▁가르시아 -12322
▁셰익스피어 -12323
▁핏 -12324
▁관성 -12325
▁발목 -12326
▁불사 -12327
▁유영 -12328
▁노미야 -12329
▁아라곤 -12330
▁초콜릿 -12331
▁구금 -12332
▁보낼 -12333
▁심부 -12334
▁주세 -12335
▁톱니 -12336
루이스 -12337
▁고려대 -12338
▁유적지 -12339
▁Comp -12340
▁레인저스 -12341
▁후쿠오카현 -12342
몬트 -12343
비크 -12344
▁견고 -12345
▁겹치 -12346
▁금동 -12347
▁불경 -12348
▁오하 -12349
▁한큐 -12350
▁도로는 -12351
▁밝혀진 -12352
▁컬렉션 -12353
▁플랑크 -12354
▁Am -12355
▁림프 -12356
▁칼슘 -12357
▁구한 -12358
▁마타 -12359
▁상정 -12360
▁전미 -12361
▁조롱 -12362
▁합하 -12363
▁글래스 -12364
▁비스타 -12365
▁스포르 -12366
▁우울증 -12367
▁부르고뉴 -12368
▁참모총장 -12369
▁배역 -12370
▁시속 -12371
▁아츠 -12372
▁강화도 -12373
▁녹색당 -12374
▁다면서 -12375
▁케이크 -12376
▁픽처스 -12377
▁Univers -12378
▁낚시 -12379
▁마트 -12380
▁물결 -12381
▁버섯 -12382
▁스런 -12383
▁심문 -12384
▁침례 -12385
▁현판 -12386
▁휘말 -12387
▁내린다 -12388
▁다스렸 -12389
▁사상가 -12390
▁러시아군 -12391
▁미나모토 -12392
oth -12393
▁구독 -12394
▁끝냈 -12395
▁대주 -12396
▁명인 -12397
▁무단 -12398
▁미아 -12399
▁반동 -12400
▁버러 -12401
▁소사 -12402
▁에로 -12403
▁상관없이 -12404
나기 -12405
▁라흐 -12406
▁에마 -12407
▁장녀 -12408
▁재차 -12409
▁Rec -12410
▁TBS -12411
▁도야마 -12412
▁핼 -12413
▁구치 -12414
▁까마 -12415
▁아메 -12416
▁휴양 -12417
▁AB -12418
▁노랑 -12419
▁대접 -12420
▁특사 -12421
▁페더 -12422
▁황산 -12423
▁게오르 -12424
▁불계승 -12425
▁순양함 -12426
레드 -12427
▁견디 -12428
▁월트 -12429
▁발사체 -12430
▁달라진다 -12431
▁도카이도 -12432
▁인공위성 -12433
바리 -12434
태평 -12435
▁라즈 -12436
▁이우 -12437
트르 -12438
▁연회 -12439
▁청량 -12440
▁취해 -12441
▁230 -12442
▁기업가 -12443
▁미츠 -12444
▁에바 -12445
▁유포 -12446
▁마르세유 -12447
폭탄 -12448
▁Do -12449
▁가부 -12450
▁나뭇 -12451
▁소용 -12452
▁파편 -12453
▁들어섰 -12454
▁수차례 -12455
▁평안도 -12456
▁프로모 -12457
▁from -12458
▁매끄러운 -12459
▁노프 -12460
▁옥타 -12461
▁Sup -12462
▁베르타 -12463
▁프리스 -12464
▁플로리다주 -12465
국적 -12466
▁대진 -12467
▁라가 -12468
▁재발 -12469
▁제창 -12470
▁제철 -12471
▁GNU -12472
▁스탠리 -12473
▁가와사키 -12474
▁둘러싸인 -12475
▁율리우스 -12476
▁에스페란토 -12477
▁공법 -12478
▁당뇨 -12479
▁슈타 -12480
▁스투 -12481
▁애초 -12482
▁용품 -12483
▁원유 -12484
▁향기 -12485
▁국제선 -12486
▁덧붙였 -12487
▁수나라 -12488
그마 -12489
▁강진 -12490
▁대차 -12491
▁이범 -12492
▁장래 -12493
ublic -12494
▁1888 -12495
▁뮐 -12496
헤드 -12497
▁IV -12498
▁산수 -12499
▁운임 -12500
▁울릉 -12501
▁케이트 -12502
▁중앙은행 -12503
유사 -12504
▁동종 -12505
▁명부 -12506
▁주먹 -12507
민스터 -12508
▁고려사 -12509
▁로빈슨 -12510
▁조선왕 -12511
▁지바현 -12512
▁펠리페 -12513
▁Su -12514
▁리차 -12515
▁배기 -12516
▁사커 -12517
▁웃음 -12518
▁재앙 -12519
▁터지 -12520
▁펠트 -12521
▁피사 -12522
▁하이퍼 -12523
▁허드슨 -12524
▁박테리아 -12525
홍색 -12526
▁과연 -12527
▁스킴 -12528
▁카야 -12529
▁페오 -12530
▁강성 -12531
▁네모 -12532
▁닉슨 -12533
▁일진 -12534
▁경계선 -12535
▁로이드 -12536
▁사간원 -12537
▁절도사 -12538
▁1892 -12539
AE -12540
둘기 -12541
▁면모 -12542
▁소동 -12543
▁청송 -12544
▁다이빙 -12545
▁쇠고기 -12546
▁이바라 -12547
▁노스캐롤라이나 -12548
AI -12549
▁CG -12550
▁Sw -12551
▁과잉 -12552
▁납부 -12553
▁데미 -12554
▁사변 -12555
▁시우 -12556
▁유무 -12557
▁Car -12558
▁세네갈 -12559
▁고스 -12560
▁무르 -12561
▁반주 -12562
▁조현 -12563
▁세비야 -12564
▁차세대 -12565
연수 -12566
▁맥아 -12567
▁메틸 -12568
▁사키 -12569
▁시문 -12570
▁하구 -12571
▁활동가 -12572
▁알렉산드로스 -12573
암리 -12574
▁공시 -12575
▁백자 -12576
▁아와 -12577
▁위계 -12578
▁우에스기 -12579
▁굶 -12580
▁뱃 -12581
▁푹 -12582
티노 -12583
▁낙양 -12584
▁마요 -12585
▁붕어 -12586
▁순례 -12587
▁입헌 -12588
▁자립 -12589
▁더블린 -12590
▁소학교 -12591
▁애덤스 -12592
▁카운트 -12593
▁ar -12594
▁모던 -12595
▁새뮤 -12596
▁세레 -12597
▁어의 -12598
▁관현악 -12599
▁논리학 -12600
▁씻 -12601
로니아 -12602
미디어 -12603
▁대명사 -12604
▁레이디 -12605
▁스탠드 -12606
▁아무리 -12607
▁인플레이션 -12608
사태 -12609
▁당황 -12610
▁미미 -12611
▁온건 -12612
▁이봉 -12613
▁공방전 -12614
▁대공국 -12615
▁아브라 -12616
▁으려는 -12617
철수 -12618
▁수력 -12619
▁직계 -12620
▁채색 -12621
▁USB -12622
▁대전차 -12623
▁문자열 -12624
▁산스크 -12625
▁산스크리트 -12626
▁펩 -12627
네트 -12628
자동 -12629
▁나름 -12630
▁대금 -12631
▁미식 -12632
▁으리 -12633
▁코사 -12634
▁하임 -12635
▁해병 -12636
▁다카라 -12637
▁도르트 -12638
▁사절단 -12639
▁스테판 -12640
▁앤서니 -12641
▁후원자 -12642
▁1876 -12643
보리 -12644
▁농축 -12645
▁산청 -12646
▁자코 -12647
▁지리학 -12648
▁집행유예 -12649
▁펫 -12650
네임 -12651
▁IR -12652
▁계량 -12653
▁깃털 -12654
▁니켈 -12655
▁부류 -12656
▁정진 -12657
▁중고 -12658
▁북조선 -12659
▁데스크톱 -12660
▁프린스턴 -12661
▁겟 -12662
▁두각 -12663
▁죄수 -12664
▁축성 -12665
▁볼로냐 -12666
▁사단장 -12667
▁성매매 -12668
▁올리버 -12669
▁프레임워크 -12670
ah -12671
코르 -12672
클라 -12673
▁도하 -12674
리카락 -12675
▁전주시 -12676
▁머리카락 -12677
▁꽂 -12678
▁단조 -12679
▁댓글 -12680
▁부양 -12681
▁생모 -12682
▁선양 -12683
▁손녀 -12684
▁약점 -12685
▁조개 -12686
▁풍습 -12687
▁덩어리 -12688
▁보좌관 -12689
▁1866 -12690
▁1886 -12691
▁베이시스트 -12692
▁wh -12693
▁거룩 -12694
▁수하 -12695
▁이산 -12696
▁이호 -12697
▁Tour -12698
▁페르난도 -12699
로쿠 -12700
▁간혹 -12701
▁로브 -12702
▁발의 -12703
▁번갈 -12704
▁유능 -12705
▁전권 -12706
▁즐거 -12707
▁토이 -12708
▁통폐 -12709
▁퍼졌 -12710
▁포탄 -12711
▁260 -12712
▁Gre -12713
▁브래드 -12714
▁서기관 -12715
▁가면라이더 -12716
▁덱 -12717
▁물류 -12718
▁복싱 -12719
▁본체 -12720
▁앨리 -12721
▁에반 -12722
▁완도 -12723
▁카레 -12724
▁금나라 -12725
▁장제스 -12726
▁송환 -12727
▁알폰 -12728
▁엘런 -12729
▁펀드 -12730
▁게시판 -12731
광성 -12732
▁군관 -12733
▁라드 -12734
▁몰랐 -12735
▁무수 -12736
▁이니 -12737
▁저우 -12738
▁파파 -12739
르타뉴 -12740
▁브르타뉴 -12741
▁프란치스코 -12742
레시 -12743
뮬러 -12744
▁거스 -12745
▁너스 -12746
▁도성 -12747
▁바시 -12748
▁박수 -12749
▁아디 -12750
▁바람직 -12751
▁베네딕토 -12752
▁펭 -12753
너드 -12754
▁베일 -12755
▁신진 -12756
▁조소 -12757
▁합천 -12758
▁교구장 -12759
▁생리학 -12760
▁조나라 -12761
▁해결책 -12762
▁레트 -12763
▁페스 -12764
▁270 -12765
▁스테인 -12766
짜기 -12767
EST -12768
▁거칠 -12769
▁마린 -12770
▁빅뱅 -12771
▁슬램 -12772
▁얼룩 -12773
▁바이어 -12774
▁구스타프 -12775
▁돌아다니 -12776
분열 -12777
▁co -12778
▁구르 -12779
▁배척 -12780
▁원상 -12781
▁유다 -12782
▁접해 -12783
▁제르 -12784
▁지면 -12785
▁독립군 -12786
▁민영화 -12787
▁베이비 -12788
▁코소보 -12789
▁홈경기 -12790
▁드미트리 -12791
▁웨스트민스터 -12792
라호 -12793
▁서예 -12794
▁필하 -12795
▁강서구 -12796
▁이즈미 -12797
▁페미니 -12798
꿈치 -12799
우회 -12800
▁ML -12801
▁도약 -12802
▁배운 -12803
▁산물 -12804
▁임계 -12805
▁초전 -12806
▁출혈 -12807
▁행방 -12808
▁새뮤얼 -12809
▁용의자 -12810
▁프리미엄 -12811
쓰기 -12812
큐어 -12813
▁긴키 -12814
▁여건 -12815
▁위시 -12816
▁천지 -12817
▁파커 -12818
▁서포터 -12819
▁역사학 -12820
▁장난감 -12821
▁주니치 -12822
▁통폐합 -12823
▁마르쿠스 -12824
▁모차르트 -12825
▁경무 -12826
▁마구 -12827
▁마나 -12828
▁습득 -12829
▁악곡 -12830
▁타구 -12831
▁현과 -12832
▁간사이 -12833
▁집정관 -12834
▁1887 -12835
▁카르타고 -12836
ron -12837
▁KB -12838
▁광선 -12839
▁음운 -12840
▁포츠 -12841
▁경영학 -12842
▁이어주 -12843
▁1861 -12844
▁싹 -12845
직경 -12846
ave -12847
▁급히 -12848
▁놓이 -12849
▁성기 -12850
▁유머 -12851
▁중개 -12852
▁퇴위 -12853
▁편안 -12854
▁프루 -12855
▁피어 -12856
▁보살상 -12857
▁삼각주 -12858
른베르크 -12859
▁뭐 -12860
슈타 -12861
코타 -12862
▁동창 -12863
▁아자 -12864
▁여타 -12865
▁위패 -12866
land -12867
▁근거지 -12868
▁시직경 -12869
▁가로지르 -12870
▁도제 -12871
▁무자 -12872
▁박자 -12873
▁해냈 -12874
▁사쓰마 -12875
▁Life -12876
▁브리티시 -12877
동자 -12878
ble -12879
▁몰두 -12880
▁오지 -12881
▁유전학 -12882
▁장애물 -12883
▁축구팀 -12884
▁화요일 -12885
▁갖춰 -12886
▁비지 -12887
▁에두 -12888
▁지아 -12889
▁촛불 -12890
▁달아나 -12891
▁Dream -12892
19 -12893
왕후 -12894
제비 -12895
▁고창 -12896
▁라니 -12897
▁외환 -12898
▁자궁 -12899
▁특기 -12900
▁뛰어넘 -12901
▁보안법 -12902
▁클레멘스 -12903
비안 -12904
하임 -12905
▁SV -12906
▁Up -12907
▁부름 -12908
▁세분 -12909
▁오산 -12910
▁펠로 -12911
▁포화 -12912
▁Wii -12913
▁알아내 -12914
▁1864 -12915
▁재단법인 -12916
▁지나간다 -12917
▁가닥 -12918
▁나마 -12919
▁죽임 -12920
▁도미니카 -12921
▁볼티모어 -12922
▁다행 -12923
▁버크 -12924
▁유타 -12925
▁익명 -12926
▁정예 -12927
▁코호 -12928
▁환관 -12929
▁it -12930
▁경매 -12931
▁레버 -12932
▁만날 -12933
▁모국 -12934
▁오메 -12935
▁올레 -12936
▁직사 -12937
▁형용 -12938
▁단거리 -12939
▁내포 -12940
▁라시 -12941
▁만점 -12942
▁양현 -12943
▁완결 -12944
솔리니 -12945
▁부분군 -12946
▁인해서 -12947
▁경건 -12948
▁자릿 -12949
▁노동력 -12950
▁당선자 -12951
DA -12952
▁돗 -12953
ult -12954
▁사내 -12955
▁황해도 -12956
▁1850 -12957
▁눈치 -12958
▁뒤늦 -12959
▁모닝 -12960
▁오대 -12961
▁치우 -12962
▁파직 -12963
▁평했 -12964
▁후세인 -12965
▁석가모니 -12966
▁깁 -12967
▁RT -12968
▁기밀 -12969
▁불분 -12970
▁전과 -12971
▁증세 -12972
▁바로크 -12973
▁신세계 -12974
▁재판부 -12975
▁코스트 -12976
▁예의 -12977
▁왕관 -12978
▁개정안 -12979
열차 -12980
예술 -12981
▁교지 -12982
▁발톱 -12983
▁복위 -12984
▁수이 -12985
▁필연 -12986
▁홍성 -12987
▁공연장 -12988
▁네티즌 -12989
▁데이빗 -12990
▁좌표계 -12991
린트 -12992
즐리 -12993
▁장전 -12994
▁재결 -12995
▁혼혈 -12996
▁흘리 -12997
▁모나코 -12998
▁카이로 -12999
▁프랑코 -13000
▁스트리밍 -13001
콘신 -13002
▁근래 -13003
▁섞여 -13004
▁세무 -13005
▁스모 -13006
▁실각 -13007
▁가해자 -13008
▁음악원 -13009
▁토트넘 -13010
▁위스콘신 -13011
니오 -13012
▁SH -13013
▁리트 -13014
▁내보내 -13015
▁백악기 -13016
▁구문 -13017
▁승단 -13018
▁응하 -13019
▁이력 -13020
▁잔디 -13021
▁토목 -13022
▁두려워하 -13023
디슨 -13024
▁평탄 -13025
▁사나이 -13026
▁피닉스 -13027
▁TC -13028
▁강세 -13029
▁정황 -13030
▁처해 -13031
▁홀딩 -13032
▁홈즈 -13033
▁주나라 -13034
▁남베트남 -13035
▁다카라즈카 -13036
ational -13037
▁렙 -13038
▁군세 -13039
▁승지 -13040
▁암모 -13041
▁왕성 -13042
▁접합 -13043
▁쿼크 -13044
▁히토 -13045
ition -13046
▁도라에몽 -13047
▁Music -13048
orm -13049
▁공판 -13050
▁대강 -13051
▁라라 -13052
▁매진 -13053
▁열려 -13054
▁잠실 -13055
▁조심 -13056
▁선제골 -13057
▁컨텐츠 -13058
▁1830 -13059
▁마을버스 -13060
▁계보 -13061
▁기통 -13062
▁도산 -13063
▁선율 -13064
▁오일 -13065
▁보너스 -13066
▁재판관 -13067
플린 -13068
▁객원 -13069
▁관내 -13070
▁구획 -13071
▁남조 -13072
▁쓰루 -13073
▁재벌 -13074
▁허블 -13075
라호마 -13076
▁1881 -13077
▁오클라호마 -13078
▁헤라클레스 -13079
▁알맞 -13080
▁이별 -13081
▁추존 -13082
▁헌납 -13083
▁생성물 -13084
▁아카이 -13085
▁참의원 -13086
▁미네소타 -13087
EP -13088
▁쑨 -13089
▁쥘 -13090
ton -13091
▁AG -13092
▁구례 -13093
▁리에 -13094
▁요괴 -13095
▁워킹 -13096
▁패권 -13097
바도르 -13098
브웨 -13099
▁침대 -13100
▁푸아 -13101
▁황자 -13102
▁압록강 -13103
▁행정동 -13104
▁화성시 -13105
▁날카로운 -13106
▁루스벨트 -13107
▁유니버스 -13108
두르 -13109
▁en -13110
▁남송 -13111
▁로니 -13112
▁말단 -13113
▁민물 -13114
▁방공 -13115
▁백업 -13116
▁전리 -13117
▁짐바 -13118
▁갔으며 -13119
▁크리에이 -13120
다오 -13121
▁발포 -13122
▁산기 -13123
▁삼척 -13124
▁세간 -13125
▁파기 -13126
▁관련자 -13127
▁끝난다 -13128
▁대표단 -13129
▁if -13130
▁매스 -13131
▁목욕 -13132
▁조경 -13133
▁로맨틱 -13134
▁외무부 -13135
▁요금소 -13136
▁배아 -13137
▁스몰 -13138
▁승하 -13139
▁아편 -13140
▁차수 -13141
▁카와 -13142
▁대교구 -13143
▁무작위 -13144
▁여학생 -13145
▁합창단 -13146
라이어티 -13147
▁1872 -13148
▁낭만주의 -13149
▁트레이닝 -13150
▁버라이어티 -13151
▁모신 -13152
▁배트 -13153
▁벌레 -13154
▁아타 -13155
▁지경 -13156
▁DR -13157
▁경도 -13158
▁괘불 -13159
▁별장 -13160
▁복직 -13161
▁삭스 -13162
▁여호 -13163
▁전교 -13164
▁판관 -13165
▁감리교 -13166
▁반대파 -13167
▁야구단 -13168
▁해석학 -13169
렌스 -13170
▁Ed -13171
▁등등 -13172
▁마티 -13173
▁뷰티 -13174
▁뽑혔 -13175
▁신봉 -13176
▁자판 -13177
▁죽여 -13178
▁태우 -13179
▁다시금 -13180
▁도망치 -13181
▁컴파일러 -13182
▁관용 -13183
▁다비 -13184
▁러닝 -13185
▁베풀 -13186
▁생도 -13187
▁소라 -13188
▁스윙 -13189
▁저축 -13190
▁투하 -13191
▁헤일 -13192
▁흑백 -13193
ject -13194
▁다비드 -13195
▁대한항공 -13196
▁오스트리 -13197
뛰기 -13198
타입 -13199
화경 -13200
▁닛산 -13201
▁동차 -13202
▁미칠 -13203
▁아다 -13204
▁오우 -13205
▁종업 -13206
▁현미 -13207
▁까마귀 -13208
▁무솔리니 -13209
▁부르주아 -13210
평리 -13211
▁묻혀 -13212
▁발자 -13213
▁이누 -13214
변속기 -13215
▁마르셀 -13216
아메리카 -13217
께끼 -13218
▁XP -13219
▁금고 -13220
▁기고 -13221
▁부전 -13222
▁스기 -13223
▁시원 -13224
▁야망 -13225
▁익산 -13226
▁코난 -13227
▁파주 -13228
브리드 -13229
▁750 -13230
▁iOS -13231
▁농어촌 -13232
▁이메일 -13233
▁수수께끼 -13234
러진 -13235
▁미상 -13236
▁양면 -13237
▁용사 -13238
▁이례 -13239
▁이은 -13240
▁진흙 -13241
▁콘티 -13242
▁쿠로 -13243
▁전해졌 -13244
▁이시카와 -13245
▁넥센 -13246
▁파열 -13247
▁불분명 -13248
▁승용차 -13249
▁세르게이 -13250
▁레비 -13251
▁부실 -13252
▁의례 -13253
▁청문 -13254
▁토로 -13255
▁Open -13256
덕왕 -13257
리야 -13258
ION -13259
▁고모 -13260
▁김희 -13261
▁꼬마 -13262
▁앞세 -13263
▁원동 -13264
▁종묘 -13265
▁중랑 -13266
▁햇빛 -13267
▁라치오 -13268
▁범죄자 -13269
▁제프리 -13270
▁도르트문트 -13271
나파 -13272
림사 -13273
비오 -13274
쿠니 -13275
▁an -13276
▁교제 -13277
▁당과 -13278
▁당진 -13279
▁두어 -13280
▁루나 -13281
▁상한 -13282
▁주고 -13283
▁캐피 -13284
▁팔작 -13285
▁헤어 -13286
슬라프 -13287
▁난이도 -13288
▁유라시아 -13289
▁엡 -13290
바인 -13291
▁가비 -13292
▁레아 -13293
▁머니 -13294
▁복역 -13295
▁살짝 -13296
▁승상 -13297
▁애완 -13298
▁열릴 -13299
▁인제 -13300
▁친밀 -13301
▁트란 -13302
▁롬바르 -13303
▁아이콘 -13304
▁하얀색 -13305
▁하이브리드 -13306
▁리브 -13307
▁애슬 -13308
▁인위 -13309
▁켄터 -13310
태평양 -13311
▁기획사 -13312
▁라이스 -13313
▁화학자 -13314
▁대중교통 -13315
▁부다페스트 -13316
느리 -13317
루크 -13318
번에 -13319
클럽 -13320
▁BL -13321
▁경량 -13322
▁교동 -13323
▁브렌 -13324
▁섬기 -13325
▁양조 -13326
▁어우 -13327
▁Don -13328
▁모멘트 -13329
▁센다이 -13330
▁1863 -13331
달마 -13332
▁Sm -13333
▁te -13334
▁몸돌 -13335
▁샤이 -13336
▁걸린다 -13337
▁감추 -13338
▁그란 -13339
▁단국 -13340
▁배향 -13341
▁변종 -13342
▁사나 -13343
▁의용 -13344
▁취향 -13345
▁통지 -13346
▁그나마 -13347
▁였음을 -13348
▁청년회 -13349
▁타임즈 -13350
▁폼페이 -13351
워즈 -13352
▁Ab -13353
▁대의 -13354
▁도봉 -13355
▁뒤따 -13356
▁머무 -13357
▁반죽 -13358
▁병단 -13359
▁음주 -13360
▁작년 -13361
▁장쑤 -13362
▁페라 -13363
리아스 -13364
올로기 -13365
▁아닌가 -13366
▁이뤄진 -13367
▁초록색 -13368
▁이데올로기 -13369
▁거꾸 -13370
▁구슬 -13371
▁닌자 -13372
▁발산 -13373
▁엘라 -13374
▁열렬 -13375
▁조시 -13376
▁개체군 -13377
▁계승자 -13378
▁호크스 -13379
ru -13380
데자 -13381
매김 -13382
ics -13383
▁가두 -13384
▁고난 -13385
▁맡겼 -13386
▁일지 -13387
▁탄산 -13388
▁휩싸 -13389
데자네이 -13390
▁1865 -13391
▁쵸 -13392
더지 -13393
리드 -13394
▁계좌 -13395
▁모란 -13396
▁순항 -13397
▁왓슨 -13398
▁허목 -13399
▁격투기 -13400
▁유전체 -13401
▁파충류 -13402
지로 -13403
ier -13404
▁내재 -13405
▁한창 -13406
▁무언가 -13407
▁시간대 -13408
▁안산시 -13409
▁항아리 -13410
▁보정 -13411
▁경복궁 -13412
▁세군다 -13413
▁작품상 -13414
▁가독 -13415
▁가든 -13416
▁걸작 -13417
▁납작 -13418
▁루즈 -13419
▁박진 -13420
▁비싼 -13421
▁슈고 -13422
▁오트 -13423
▁피카 -13424
▁밀가루 -13425
▁박영효 -13426
▁탐험가 -13427
▁1873 -13428
▁과다 -13429
▁반항 -13430
▁세단 -13431
▁옹주 -13432
▁입시 -13433
▁잡히 -13434
▁조공 -13435
▁직관 -13436
▁충당 -13437
▁티모 -13438
▁1891 -13439
거나 -13440
리쿠 -13441
친왕 -13442
▁부추 -13443
▁야심 -13444
▁조장 -13445
▁코마 -13446
▁승정원 -13447
▁챌린저 -13448
▁자리매김 -13449
▁"- -13450
▁AL -13451
▁대목 -13452
▁봉황 -13453
▁착취 -13454
▁처방 -13455
▁킹스 -13456
▁Good -13457
▁볼넷 -13458
▁요즘 -13459
▁재고 -13460
▁편제 -13461
▁피셔 -13462
▁고성군 -13463
▁공식전 -13464
▁공통점 -13465
▁여진족 -13466
▁교통사고 -13467
▁Night -13468
단위 -13469
▁덴쇼 -13470
▁루피 -13471
▁이야 -13472
▁입술 -13473
▁진이 -13474
▁우간다 -13475
▁HTML -13476
▁오카야마 -13477
데자네이루 -13478
▁리우데자네이루 -13479
미쓰 -13480
ool -13481
▁극찬 -13482
▁신대 -13483
▁정명 -13484
▁클릭 -13485
▁탐정 -13486
▁포대 -13487
▁발기인 -13488
▁앤드류 -13489
▁공군기지 -13490
▁괜 -13491
▁샵 -13492
참찬 -13493
▁경마 -13494
▁경지 -13495
▁구강 -13496
▁굴복 -13497
▁메츠 -13498
▁어선 -13499
▁태아 -13500
▁따라가 -13501
▁유니언 -13502
▁곡면 -13503
▁모함 -13504
▁어촌 -13505
▁최장 -13506
▁페인 -13507
▁두꺼운 -13508
▁베스트셀러 -13509
훈장 -13510
▁곱셈 -13511
▁시진 -13512
▁촉발 -13513
▁해킹 -13514
▁IMF -13515
▁제너럴 -13516
TE -13517
바지 -13518
▁나탈 -13519
▁란스 -13520
▁리자 -13521
▁매립 -13522
▁법전 -13523
▁철종 -13524
▁픽셀 -13525
▁조선소 -13526
▁켄터키 -13527
▁아이디얼 -13528
쿠르 -13529
che -13530
▁과격 -13531
▁반점 -13532
▁여대 -13533
부아르 -13534
▁국민회 -13535
▁발가락 -13536
▁두드러지 -13537
▁-- -13538
▁계엄 -13539
▁단자 -13540
▁미인 -13541
▁분경 -13542
▁위법 -13543
▁자켓 -13544
▁적발 -13545
▁필두 -13546
▁후미 -13547
▁ret -13548
▁꿰 -13549
타스 -13550
▁쇼크 -13551
▁완비 -13552
▁카슈 -13553
이스케 -13554
▁와이드 -13555
▁짐바브웨 -13556
UC -13557
ise -13558
▁국호 -13559
▁라크 -13560
▁불로 -13561
▁소작 -13562
▁외상 -13563
▁헌병 -13564
▁다국적 -13565
▁벗어난 -13566
▁수시로 -13567
▁시티즌 -13568
▁크루즈 -13569
▁포항시 -13570
▁세계유산 -13571
▁야쿠르트 -13572
▁더러 -13573
▁주저 -13574
▁혈압 -13575
▁가리켜 -13576
▁릴레이 -13577
QL -13578
▁PM -13579
▁도도 -13580
▁마모 -13581
▁무고 -13582
▁상파 -13583
▁앞둔 -13584
▁용감 -13585
▁유태 -13586
▁코뮌 -13587
▁튼튼 -13588
▁합금 -13589
▁몰도바 -13590
▁받침돌 -13591
▁자유형 -13592
▁테무르 -13593
무제 -13594
▁매도 -13595
▁사드 -13596
▁증발 -13597
플렉스 -13598
▁거꾸로 -13599
레타리아 -13600
▁프롤레타리아 -13601
NG -13602
ai -13603
동맹 -13604
으면 -13605
▁NS -13606
▁당당 -13607
▁산신 -13608
▁키즈 -13609
▁백악관 -13610
▁리키 -13611
▁베라 -13612
▁성가 -13613
▁신의 -13614
▁연행 -13615
▁토록 -13616
stem -13617
▁노르드 -13618
▁종업원 -13619
▁온타리오주 -13620
▁구시 -13621
▁노란 -13622
▁등단 -13623
▁체내 -13624
▁커졌 -13625
▁하반기 -13626
▁무로마치 -13627
레반 -13628
킨슨 -13629
▁MA -13630
▁나빠 -13631
▁병과 -13632
▁에치 -13633
▁오즈 -13634
▁원한 -13635
▁접전 -13636
▁증강 -13637
▁현무 -13638
▁650 -13639
▁Can -13640
▁캐스트 -13641
▁Black -13642
성경 -13643
세다 -13644
ode -13645
▁강호 -13646
▁네임 -13647
▁심정 -13648
▁해시 -13649
▁취리히 -13650
▁씬 -13651
▁콧 -13652
▁간판 -13653
▁연화 -13654
▁을사 -13655
▁전멸 -13656
▁하스 -13657
합중국 -13658
▁거쳐서 -13659
▁다마스 -13660
▁슬로건 -13661
▁팔작지붕 -13662
▁피츠버그 -13663
▁믈 -13664
▁교서 -13665
▁기운 -13666
▁산책 -13667
▁서위 -13668
▁양양 -13669
▁연달 -13670
▁파랑 -13671
▁김성수 -13672
▁삼국유사 -13673
▁샴 -13674
상어 -13675
▁서지 -13676
▁양궁 -13677
▁조준 -13678
▁550 -13679
▁반정부 -13680
▁용산구 -13681
▁지자체 -13682
▁트로트 -13683
▁스테이트 -13684
70 -13685
▁다닌 -13686
▁채굴 -13687
▁타도 -13688
▁황폐 -13689
ower -13690
▁연주회 -13691
▁다이노스 -13692
▁군자 -13693
▁농성 -13694
▁대담 -13695
▁앵커 -13696
▁우마 -13697
▁패해 -13698
▁표절 -13699
선거구 -13700
▁스코어 -13701
▁이바라키 -13702
▁조선왕조 -13703
▁페르디난트 -13704
▁들리 -13705
▁문정 -13706
▁버펄 -13707
▁열쇠 -13708
▁이강 -13709
▁조서 -13710
▁미카엘 -13711
▁1867 -13712
▁광배 -13713
▁국력 -13714
▁무도 -13715
▁부에 -13716
▁송진 -13717
▁임하 -13718
▁진언 -13719
▁진원 -13720
▁터빈 -13721
▁Let -13722
▁1862 -13723
▁section -13724
ank -13725
▁qu -13726
▁도발 -13727
▁토유 -13728
▁앨버트 -13729
▁언론사 -13730
▁간결 -13731
▁국부 -13732
▁독주 -13733
▁사하 -13734
▁아델 -13735
▁완수 -13736
타나베 -13737
▁705 -13738
▁경희대 -13739
▁스테이 -13740
▁자외선 -13741
▁증조부 -13742
▁아비달마 -13743
티야 -13744
펠러 -13745
▁광업 -13746
▁사교 -13747
▁에겐 -13748
▁갈라져 -13749
▁숨겨진 -13750
단지 -13751
진구 -13752
▁모반 -13753
▁캐논 -13754
스코트 -13755
▁엑스포 -13756
▁q -13757
▁챈 -13758
고르 -13759
대전 -13760
활약 -13761
▁El -13762
▁MM -13763
드라마 -13764
▁움직일 -13765
▁AI -13766
▁경은 -13767
▁북벌 -13768
▁엇갈 -13769
▁예종 -13770
▁위헌 -13771
▁조어 -13772
▁투신 -13773
▁현도 -13774
▁활자 -13775
▁횡령 -13776
▁미친다 -13777
정사 -13778
▁변모 -13779
▁스킬 -13780
▁유구 -13781
▁잔존 -13782
▁티저 -13783
▁MSL -13784
▁가르쳐 -13785
▁맹활약 -13786
▁손잡이 -13787
▁미합중국 -13788
▁아오모리 -13789
▁이노우에 -13790
▁프로모션 -13791
▁라이프치히 -13792
▁코호몰로지 -13793
포타 -13794
▁LS -13795
▁광자 -13796
▁내란 -13797
▁모조 -13798
▁수퍼 -13799
▁이선 -13800
▁지탱 -13801
▁체하 -13802
▁갈라지 -13803
▁노르만 -13804
해살이풀 -13805
▁낡 -13806
▁됩 -13807
곡면 -13808
방군 -13809
▁기묘 -13810
▁오름 -13811
▁용해 -13812
▁처장 -13813
▁흡연 -13814
ings -13815
▁알폰소 -13816
▁노브 -13817
▁변증 -13818
▁서한 -13819
▁연출가 -13820
▁썩 -13821
렐라 -13822
▁AU -13823
▁걸프 -13824
▁꺼내 -13825
▁꾸며 -13826
▁던졌 -13827
▁보직 -13828
▁장신 -13829
▁증식 -13830
▁무사히 -13831
중추부사 -13832
포타미아 -13833
▁6000 -13834
▁국민학교 -13835
▁메소포타미아 -13836
구나 -13837
▁Ac -13838
▁논하 -13839
▁번개 -13840
▁상선 -13841
▁성수 -13842
▁양군 -13843
세우스 -13844
절도사 -13845
▁변광성 -13846
▁타이탄 -13847
▁사이타마현 -13848
디언 -13849
인구 -13850
▁오보 -13851
▁유망 -13852
▁지그 -13853
▁처한 -13854
▁코모 -13855
▁페드로 -13856
DS -13857
▁고찰 -13858
▁차림 -13859
▁회유 -13860
▁라면서 -13861
▁레인저 -13862
▁캣 -13863
비언 -13864
▁옥시 -13865
▁참패 -13866
▁표출 -13867
▁건륭제 -13868
▁사무국 -13869
▁사보이 -13870
▁행해졌 -13871
▁UC -13872
▁그럴 -13873
▁새겼 -13874
▁자행 -13875
▁충칭 -13876
▁푸드 -13877
▁해지 -13878
▁저지른 -13879
▁신한은행 -13880
▁팍 -13881
센터 -13882
lar -13883
▁온두 -13884
▁절약 -13885
▁캐치 -13886
▁신기록 -13887
▁출입문 -13888
▁편집장 -13889
▁온두라스 -13890
젤로 -13891
▁꽃잎 -13892
▁나사 -13893
▁신해 -13894
▁아지 -13895
▁유림 -13896
▁쿠라 -13897
▁키로 -13898
▁기원후 -13899
▁대리석 -13900
▁궐 -13901
▁-& -13902
▁조석 -13903
▁키릴 -13904
▁감염증 -13905
▁프로테 -13906
북면 -13907
사화 -13908
위치 -13909
▁구부 -13910
▁동자 -13911
▁작중 -13912
▁중용 -13913
▁경쟁자 -13914
▁일본식 -13915
▁고등학생 -13916
▁미나모토노 -13917
ky -13918
끄러 -13919
▁부군 -13920
▁스톰 -13921
▁적정 -13922
▁지린 -13923
▁직교 -13924
▁하중 -13925
▁외교부 -13926
▁1878 -13927
▁협동조합 -13928
▁비스마르크 -13929
tr -13930
▁건널 -13931
▁떠날 -13932
▁세토 -13933
▁엘레 -13934
▁완만 -13935
▁자부 -13936
▁취할 -13937
▁불가피 -13938
▁유엔군 -13939
▁자릿수 -13940
▁제조사 -13941
▁주고받 -13942
▁치료제 -13943
할린 -13944
▁동탁 -13945
▁버진 -13946
▁보류 -13947
▁저해 -13948
▁행군 -13949
▁후드 -13950
rist -13951
▁웨이브 -13952
▁타타르 -13953
▁밋 -13954
퉁이 -13955
▁점진 -13956
▁줄일 -13957
▁충신 -13958
▁필명 -13959
▁Ser -13960
ee -13961
▁Qu -13962
▁국인 -13963
▁당파 -13964
▁생길 -13965
▁정박 -13966
▁행보 -13967
▁마그네 -13968
▁부여군 -13969
▁아이젠 -13970
▁인지도 -13971
▁컴파일 -13972
ta -13973
▁급성 -13974
▁손님 -13975
▁시역 -13976
▁청각 -13977
▁피처 -13978
▁히노 -13979
▁프리츠 -13980
▁해부학 -13981
▁백과사전 -13982
▁스케이트 -13983
마디 -13984
hem -13985
▁Ag -13986
▁가극 -13987
▁고국 -13988
▁봉하 -13989
▁서거 -13990
▁수급 -13991
▁수레 -13992
▁옥천 -13993
▁지체 -13994
플로러 -13995
▁골짜기 -13996
▁사대부 -13997
▁입법부 -13998
▁익스플로러 -13999
빌리 -14000
산부 -14001
일치 -14002
▁가방 -14003
▁다량 -14004
▁바쿠 -14005
▁벵골 -14006
▁시르 -14007
▁일선 -14008
▁HMS -14009
▁변한다 -14010
▁봉우리 -14011
▁플러그 -14012
▁홀딩스 -14013
▁삐 -14014
내티 -14015
▁버티 -14016
▁스에 -14017
▁이끼 -14018
▁잉크 -14019
▁제작진 -14020
▁쿠르드 -14021
▁신시내티 -14022
▁후지와라 -14023
시게 -14024
▁괄호 -14025
▁구아 -14026
▁길드 -14027
▁라다 -14028
▁변질 -14029
▁북대 -14030
▁솔라 -14031
▁수당 -14032
▁영사 -14033
▁직물 -14034
▁참수 -14035
▁폴라 -14036
▁현악 -14037
시아드 -14038
▁And -14039
▁사생활 -14040
▁액세스 -14041
▁영유권 -14042
▁이성질 -14043
▁특별법 -14044
▁글로브상 -14045
▁킷 -14046
니티 -14047
루엔 -14048
▁대타 -14049
▁유화 -14050
▁일설 -14051
▁지문 -14052
▁집어 -14053
▁토라 -14054
▁뉴기니 -14055
▁줄어든 -14056
▁프라이즈 -14057
▁일리노이주 -14058
▁유니버시아드 -14059
▁팻 -14060
질렀 -14061
▁길러 -14062
▁내림 -14063
▁부두 -14064
▁아뢰 -14065
▁추후 -14066
▁802 -14067
▁베르나 -14068
▁수도회 -14069
▁수비대 -14070
▁이브스 -14071
▁1869 -14072
▁밧 -14073
뜨려 -14074
▁SO -14075
▁매슈 -14076
▁미학 -14077
▁서점 -14078
▁이목 -14079
▁팔린 -14080
뉴기니 -14081
▁다가오 -14082
▁됩니다 -14083
▁업로드 -14084
사우루스 -14085
▁요리토모 -14086
▁코퍼레이션 -14087
다발 -14088
▁개기 -14089
▁과자 -14090
▁기조 -14091
▁모티 -14092
▁몸체 -14093
▁박원 -14094
▁인승 -14095
▁잔해 -14096
▁헤겔 -14097
▁형주 -14098
▁와세다 -14099
▁플루토 -14100
▁핵분열 -14101
벤션 -14102
▁tr -14103
▁강우 -14104
▁근방 -14105
▁넘겼 -14106
▁상의 -14107
▁애기 -14108
▁용수 -14109
▁육식 -14110
▁자처 -14111
▁댈러스 -14112
▁마포구 -14113
▁방위군 -14114
▁데카르트 -14115
누마 -14116
정보 -14117
▁객실 -14118
▁냐고 -14119
▁멋진 -14120
▁민심 -14121
▁반입 -14122
▁소피 -14123
▁자정 -14124
▁차명 -14125
▁내세웠 -14126
▁며느리 -14127
▁아우구스 -14128
▁와타나베 -14129
▁프랑스와 -14130
ae -14131
▁무비 -14132
▁둠 -14133
▁무색 -14134
▁헤더 -14135
▁운전자 -14136
▁포뮬러 -14137
▁명성황후 -14138
▁스파이더 -14139
셔주 -14140
▁그랬 -14141
▁다목 -14142
▁면직 -14143
▁부관 -14144
▁시시 -14145
▁저그 -14146
▁절친 -14147
▁포천 -14148
가르트 -14149
▁강력히 -14150
▁연예계 -14151
▁원자핵 -14152
▁페르미 -14153
▁Song -14154
▁파시스트 -14155
▁거사 -14156
▁빅터 -14157
▁에트 -14158
▁위도 -14159
▁칭했 -14160
▁토키 -14161
▁종사자 -14162
▁1840 -14163
▁낯 -14164
▁고을 -14165
▁국세 -14166
▁그물 -14167
▁다닐 -14168
▁로시 -14169
▁목동 -14170
▁부풀 -14171
▁치사 -14172
스타인 -14173
▁기동전 -14174
▁채권자 -14175
▁키르기스 -14176
▁글렌 -14177
▁벤츠 -14178
▁숙소 -14179
▁입히 -14180
▁포탑 -14181
▁하라 -14182
▁516 -14183
▁바닷물 -14184
▁사라져 -14185
▁1592 -14186
▁끔 -14187
▁랙 -14188
▁탬 -14189
노르 -14190
르바 -14191
▁가곡 -14192
▁넘버 -14193
▁단서 -14194
▁마레 -14195
▁성품 -14196
▁수증 -14197
▁오자 -14198
▁텍스 -14199
▁패킷 -14200
자원 -14201
▁귀인 -14202
▁린다 -14203
▁상식 -14204
▁자취 -14205
▁최하 -14206
▁축일 -14207
▁콜드 -14208
▁패망 -14209
▁금강산 -14210
▁목적지 -14211
▁밝혀져 -14212
▁생화학 -14213
▁안동시 -14214
▁오스카 -14215
▁장로회 -14216
▁팔꿈치 -14217
▁프라임 -14218
▁친선경기 -14219
▁벳 -14220
▁PL -14221
▁괜찮 -14222
▁금색 -14223
▁빈민 -14224
▁사부 -14225
▁소박 -14226
▁항생 -14227
▁맥아더 -14228
▁유년기 -14229
▁매킨토시 -14230
▁공상 -14231
▁날려 -14232
▁단역 -14233
▁사귀 -14234
▁사소 -14235
▁처치 -14236
▁컴필 -14237
▁머물러 -14238
▁컴필레이션 -14239
암사 -14240
▁AA -14241
▁강인 -14242
▁겨루 -14243
▁논산 -14244
▁위즈 -14245
▁출국 -14246
▁풀리 -14247
ount -14248
▁끌어올 -14249
▁여객기 -14250
▁운동량 -14251
▁인코딩 -14252
▁8000 -14253
▁사이언스 -14254
▁크리스티나 -14255
▁영수 -14256
▁왜군 -14257
▁펼친 -14258
▁포자 -14259
▁도망쳤 -14260
▁로드리게스 -14261
수염 -14262
찬성 -14263
티컷 -14264
▁RC -14265
▁분별 -14266
▁수만 -14267
▁아쉬 -14268
▁추축 -14269
▁쿼터 -14270
▁해트 -14271
▁로타르 -14272
▁부등식 -14273
▁코네티컷 -14274
작전 -14275
▁렉스 -14276
▁Mon -14277
▁과반수 -14278
▁시니어 -14279
▁지하역 -14280
▁Heart -14281
pr -14282
구스 -14283
블릿 -14284
per -14285
▁암수 -14286
▁영미 -14287
▁이거 -14288
▁자루 -14289
▁튜브 -14290
▁하수 -14291
▁휘발 -14292
▁네이트 -14293
▁패스트 -14294
수단 -14295
ade -14296
▁능가 -14297
▁어사 -14298
▁연해 -14299
▁내려와 -14300
▁마스코트 -14301
▁고제 -14302
▁다쓰 -14303
▁반론 -14304
▁병풍 -14305
▁악명 -14306
▁자질 -14307
▁천상 -14308
▁글러브 -14309
▁예언자 -14310
▁지나친 -14311
▁파주시 -14312
크라테스 -14313
▁레지스터 -14314
▁아나키스트 -14315
조사 -14316
테랑 -14317
ata -14318
▁거창 -14319
▁규율 -14320
▁블러 -14321
▁아어 -14322
▁임종 -14323
▁출세 -14324
▁캐슬 -14325
▁구단주 -14326
▁내세워 -14327
▁준다는 -14328
▁힐베르트 -14329
▁아나톨리아 -14330
▁닉스 -14331
▁백조 -14332
▁은밀 -14333
▁청취 -14334
▁심리학자 -14335
▁에이전트 -14336
▁여우원숭이 -14337
90 -14338
선언 -14339
▁농가 -14340
▁문중 -14341
▁삭감 -14342
▁양파 -14343
▁유자 -14344
▁친한 -14345
▁관심사 -14346
▁스트림 -14347
▁찾아와 -14348
▁me -14349
▁디나 -14350
▁성대 -14351
▁어부 -14352
▁유이 -14353
▁입출 -14354
▁중견 -14355
▁직렬 -14356
▁담당자 -14357
▁정해져 -14358
▁창립자 -14359
▁볶 -14360
전선 -14361
효소 -14362
▁Gl -14363
▁Pe -14364
▁국화 -14365
▁김연 -14366
▁늘려 -14367
▁란트 -14368
▁변혁 -14369
▁사주 -14370
▁오도 -14371
▁외면 -14372
▁필사본 -14373
▁지장보살 -14374
▁return -14375
세르 -14376
히메 -14377
▁KN -14378
▁ab -14379
▁계룡 -14380
▁루도 -14381
▁심소 -14382
▁염화 -14383
▁잠입 -14384
▁세미나 -14385
▁올라오 -14386
▁차가운 -14387
▁모자이크 -14388
날드 -14389
▁DB -14390
▁걸음 -14391
▁발착 -14392
▁실상 -14393
▁오시 -14394
▁유골 -14395
▁의주 -14396
▁질투 -14397
▁탁구 -14398
▁흥원 -14399
▁나치오 -14400
▁적십자 -14401
▁종착역 -14402
▁테크놀 -14403
▁히타치 -14404
▁고등교육 -14405
▁떨어진다 -14406
히데 -14407
▁겸직 -14408
▁바보 -14409
▁시찰 -14410
▁워스 -14411
▁지요 -14412
▁초음 -14413
이치로 -14414
▁비둘기 -14415
▁한다며 -14416
▁와카야마 -14417
▁세인트루이스 -14418
로움 -14419
ium -14420
▁권익 -14421
▁숙련 -14422
▁쌍성 -14423
▁이카 -14424
▁페레 -14425
▁호른 -14426
▁환율 -14427
▁Windows -14428
▁펜실베이니아주 -14429
던트 -14430
▁기행 -14431
▁라프 -14432
▁사와 -14433
▁상과 -14434
▁스택 -14435
▁연중 -14436
▁온실 -14437
▁이심 -14438
▁피살 -14439
▁지질학 -14440
날레 -14441
▁면담 -14442
▁몹시 -14443
▁바인 -14444
▁의복 -14445
▁정오 -14446
▁퀴즈 -14447
▁보유자 -14448
▁치료법 -14449
▁크메르 -14450
▁피의자 -14451
▁남아시아 -14452
▁영등포구 -14453
▁As -14454
▁변해 -14455
▁불려 -14456
▁설리 -14457
▁여포 -14458
▁열세 -14459
▁외척 -14460
▁컵스 -14461
▁호그 -14462
▁안창호 -14463
▁어도비 -14464
▁예비역 -14465
▁그린란드 -14466
IX -14467
구니 -14468
넌트 -14469
놀드 -14470
보당 -14471
테이 -14472
▁Aw -14473
▁다룰 -14474
▁막강 -14475
▁박재 -14476
▁베오 -14477
▁출품 -14478
▁1875 -14479
IF -14480
▁뉴런 -14481
▁니케 -14482
▁동호 -14483
▁디바 -14484
▁미지 -14485
▁불복 -14486
▁에리 -14487
▁윤휴 -14488
▁침식 -14489
▁KTX -14490
▁토요타 -14491
▁뉘른베르크 -14492
링겐 -14493
욕장 -14494
▁교훈 -14495
▁볼록 -14496
▁일명 -14497
▁조비 -14498
▁착각 -14499
세데스 -14500
▁최성기 -14501
▁김두 -14502
▁위크 -14503
▁키드 -14504
▁타쿠 -14505
▁Out -14506
▁고문서 -14507
▁시미즈 -14508
▁진주시 -14509
▁풀려났 -14510
▁헤르만 -14511
▁메르세데스 -14512
계사 -14513
▁강습 -14514
▁교파 -14515
▁니까 -14516
▁상동 -14517
▁오마 -14518
▁친화 -14519
▁콜린 -14520
▁집단군 -14521
▁도적 -14522
▁사각 -14523
▁키리 -14524
▁이랜드 -14525
▁이와테 -14526
▁친환경 -14527
▁클리어 -14528
▁페널티킥 -14529
▁노현 -14530
▁방울 -14531
▁야수 -14532
▁예프 -14533
▁유카 -14534
▁준동 -14535
▁한민 -14536
▁강대국 -14537
▁나리타 -14538
▁사이즈 -14539
▁일부러 -14540
▁회고록 -14541
▁기린 -14542
▁날리 -14543
▁실명 -14544
▁웍스 -14545
▁의정 -14546
▁이길 -14547
▁징집 -14548
▁폐허 -14549
▁Gen -14550
▁보리스 -14551
▁채무자 -14552
▁함경도 -14553
▁알프레드 -14554
▁랠 -14555
기즈 -14556
▁노원 -14557
▁독살 -14558
▁서약 -14559
▁순식 -14560
▁슈투 -14561
▁원단 -14562
▁인먼 -14563
▁취직 -14564
▁타나 -14565
▁표제 -14566
▁혼잡 -14567
▁학술지 -14568
▁근본번뇌 -14569
▁몽고메리 -14570
기아 -14571
탄두 -14572
▁VS -14573
▁문체 -14574
▁비키 -14575
▁선상 -14576
▁철자 -14577
▁게임기 -14578
▁표트르 -14579
▁남양주시 -14580
▁병자호란 -14581
이에 -14582
▁기한 -14583
▁생원 -14584
▁여럿 -14585
▁용지 -14586
▁절충 -14587
▁강희제 -14588
▁리스본 -14589
사유 -14590
itt -14591
son -14592
▁로사 -14593
▁왕래 -14594
▁최남 -14595
레이트 -14596
▁380 -14597
▁스피커 -14598
▁통신망 -14599
▁땀 -14600
▁sh -14601
▁목장 -14602
▁셔틀 -14603
▁쏟아 -14604
▁아노 -14605
▁월화 -14606
▁첩보 -14607
▁터너 -14608
에이고 -14609
▁돌고래 -14610
▁되풀이 -14611
▁송파구 -14612
▁코트디 -14613
▁샌디에이고 -14614
▁코트디부아르 -14615
▁성행 -14616
▁양지 -14617
▁컨벤션 -14618
▁타일러 -14619
▁안드로메다 -14620
BI -14621
세서 -14622
▁다자 -14623
▁로큰 -14624
▁리크 -14625
▁비료 -14626
▁율법 -14627
▁의성 -14628
▁이희 -14629
▁텐서 -14630
▁획기 -14631
록대부 -14632
▁AMD -14633
▁데이트 -14634
▁돌아갈 -14635
▁매디슨 -14636
▁부적절 -14637
▁성폭행 -14638
▁TS -14639
▁달콤 -14640
▁배반 -14641
▁싫어 -14642
▁에레 -14643
▁집전 -14644
▁태안 -14645
▁스케치 -14646
▁테오도 -14647
▁통도사 -14648
ng -14649
▁뵈 -14650
▁격하 -14651
▁야권 -14652
▁일차 -14653
▁칭기즈 -14654
▁브란덴부르크 -14655
더링 -14656
ale -14657
▁KO -14658
▁버트 -14659
▁스펜 -14660
▁안중 -14661
▁영락 -14662
▁장정 -14663
▁특공 -14664
▁활기 -14665
▁상반기 -14666
▁쇼핑몰 -14667
▁아세틸 -14668
▁파라오 -14669
PA -14670
몽골 -14671
방향 -14672
윽고 -14673
▁거머 -14674
▁극소 -14675
▁금정 -14676
▁문관 -14677
▁바늘 -14678
▁배당 -14679
▁예식 -14680
▁이질 -14681
▁정언 -14682
▁레스터 -14683
▁로큰롤 -14684
▁북극점 -14685
▁슈타인 -14686
▁이사벨 -14687
▁이윽고 -14688
▁장갑차 -14689
▁중앙선 -14690
▁크라운 -14691
▁클레어 -14692
▁프론트 -14693
▁항공대 -14694
UN -14695
어류 -14696
▁결전 -14697
▁기판 -14698
▁단양 -14699
▁선체 -14700
▁유충 -14701
▁체로 -14702
able -14703
▁베르트 -14704
▁신석기 -14705
▁포르투갈어 -14706
세키 -14707
은사 -14708
▁나쁘 -14709
▁레몬 -14710
▁명상 -14711
▁애착 -14712
▁원효 -14713
▁광둥성 -14714
▁달린다 -14715
▁싯 -14716
부대 -14717
시대 -14718
알라 -14719
엽수 -14720
▁구루 -14721
▁생쥐 -14722
▁가환환 -14723
▁다이쇼 -14724
▁쇼트트랙 -14725
▁벙 -14726
▁가세 -14727
▁경의 -14728
▁동거 -14729
▁슬리 -14730
▁실은 -14731
▁안톤 -14732
▁예금 -14733
▁자장 -14734
▁찌르 -14735
해방군 -14736
▁꽃차례 -14737
▁보조금 -14738
▁연속극 -14739
▁파스칼 -14740
▁바빌로니아 -14741
▁인민해방군 -14742
▁교관 -14743
▁구타 -14744
▁라울 -14745
▁서당 -14746
▁세일 -14747
▁술라 -14748
▁실렸 -14749
▁염두 -14750
▁재화 -14751
▁중일 -14752
▁칸트 -14753
▁포인 -14754
▁로버츠 -14755
▁야마다 -14756
▁오프라인 -14757
르카 -14758
▁교화 -14759
▁기공 -14760
▁수은 -14761
▁엔젤 -14762
▁열악 -14763
▁지치 -14764
▁치킨 -14765
▁"() -14766
▁됐으나 -14767
▁바나나 -14768
▁순식간 -14769
▁아리랑 -14770
▁흔들리 -14771
▁저널리스트 -14772
두사 -14773
▁구세 -14774
▁모체 -14775
▁수역 -14776
▁안식 -14777
▁이룰 -14778
▁출격 -14779
루엔자 -14780
▁보호법 -14781
▁보컬리스트 -14782
▁기마 -14783
▁방호 -14784
▁Par -14785
▁비단털 -14786
▁펼쳐져 -14787
박사 -14788
촌리 -14789
▁가모 -14790
▁골라 -14791
▁로바 -14792
▁모피 -14793
▁배워 -14794
▁보우 -14795
▁아끼 -14796
▁이홍 -14797
▁향신 -14798
▁선거인 -14799
스코리아 -14800
▁비단털쥐 -14801
▁WC -14802
▁문수 -14803
▁샤르 -14804
▁수마 -14805
▁양극 -14806
▁에코 -14807
▁케리 -14808
▁헤센 -14809
▁반감기 -14810
▁스케줄 -14811
▁정치국 -14812
데기 -14813
보내 -14814
우주 -14815
▁가명 -14816
▁노라 -14817
▁래리 -14818
▁위트 -14819
▁잉카 -14820
▁정에 -14821
▁대항전 -14822
▁데뷔작 -14823
▁University -14824
▁기미 -14825
▁망치 -14826
▁보그 -14827
▁서클 -14828
▁안심 -14829
▁205 -14830
▁708 -14831
▁맥스웰 -14832
▁빼앗기 -14833
▁썼으며 -14834
▁터뜨리 -14835
▁관음보살 -14836
▁아우구스투스 -14837
▁탭 -14838
▁텅 -14839
▁금환 -14840
▁대류 -14841
▁모사 -14842
▁무능 -14843
▁묶여 -14844
▁월남 -14845
▁후루 -14846
very -14847
▁개그맨 -14848
▁사학자 -14849
▁합성어 -14850
▁형용사 -14851
건설 -14852
연구 -14853
행파 -14854
▁경순 -14855
▁경종 -14856
▁복부 -14857
▁불태 -14858
▁실사 -14859
▁안팎 -14860
▁Vol -14861
▁통계청 -14862
▁라이베리아 -14863
▁맴 -14864
▁cc -14865
▁규약 -14866
▁동군 -14867
▁야코 -14868
▁해질 -14869
▁NBC -14870
▁테두리 -14871
▁군복 -14872
▁불쾌 -14873
▁빨라 -14874
▁시의 -14875
▁정칙 -14876
▁쳐서 -14877
▁한겨 -14878
▁ATC -14879
▁교육감 -14880
▁사할린 -14881
▁콘라트 -14882
▁못했으며 -14883
▁At -14884
▁데일 -14885
▁서안 -14886
▁재보 -14887
▁확충 -14888
▁서스펜 -14889
▁슈미트 -14890
▁인플루엔자 -14891
양이 -14892
쿠사 -14893
▁GR -14894
▁거시 -14895
▁라벨 -14896
▁미첼 -14897
▁외손 -14898
▁일간 -14899
▁족장 -14900
▁집사 -14901
▁초계 -14902
▁캐스터 -14903
르산 -14904
net -14905
▁가뭄 -14906
▁균일 -14907
▁맡겨 -14908
▁박용 -14909
▁베크 -14910
▁베티 -14911
▁양서 -14912
▁올릴 -14913
▁외할 -14914
▁정글 -14915
▁조봉 -14916
▁줄곧 -14917
▁타시 -14918
▁김해시 -14919
▁물려주 -14920
▁전해져 -14921
▁name -14922
▁엑스박스 -14923
▁잼 -14924
루즈 -14925
IVE -14926
▁남단 -14927
▁등산 -14928
▁뮐러 -14929
▁싱크 -14930
▁웨어 -14931
▁자위 -14932
▁치마 -14933
▁235 -14934
▁가졌으며 -14935
▁로베르토 -14936
▁조선공산당 -14937
ody -14938
▁JC -14939
▁라지 -14940
▁상계 -14941
▁신병 -14942
▁실효 -14943
▁아연 -14944
▁안겨 -14945
▁안기 -14946
▁외삼 -14947
▁잔혹 -14948
▁토피 -14949
▁후이 -14950
▁가이아 -14951
▁다녀왔 -14952
▁스케일 -14953
▁퀄 -14954
라르 -14955
보라 -14956
anc -14957
▁가온 -14958
▁놓치 -14959
▁마흐 -14960
▁석기 -14961
▁세스 -14962
▁손목 -14963
▁축복 -14964
▁칼륨 -14965
▁하산 -14966
▁화승 -14967
▁시마즈 -14968
▁안양시 -14969
▁자격증 -14970
▁재미있 -14971
▁썰 -14972
모음 -14973
주크 -14974
화당 -14975
▁골절 -14976
▁나기 -14977
▁비옥 -14978
▁솜씨 -14979
▁이달 -14980
▁잉여 -14981
▁쫓아 -14982
▁차오 -14983
▁통솔 -14984
▁패치 -14985
폴리탄 -14986
▁DOS -14987
▁반대편 -14988
▁손꼽히 -14989
▁호흡기 -14990
▁그레이엄 -14991
▁슈퍼스타 -14992
▁메트로폴리탄 -14993
▁뜰 -14994
악산 -14995
▁결말 -14996
▁노카 -14997
▁에노 -14998
▁자키 -14999
▁정승 -15000
▁종가 -15001
▁포니 -15002
▁풀백 -15003
▁호로 -15004
▁tvN -15005
▁오르간 -15006
▁해준다 -15007
▁브로드웨이 -15008
사와 -15009
열대 -15010
황색 -15011
▁고층 -15012
▁나한 -15013
▁사미 -15014
▁싸울 -15015
▁일삼 -15016
▁젠더 -15017
▁창구 -15018
▁침범 -15019
▁키트 -15020
진보당 -15021
▁간호사 -15022
▁조각상 -15023
▁카디널 -15024
▁This -15025
▁일렉트릭 -15026
▁뤄 -15027
▁경화 -15028
▁기스 -15029
▁바니 -15030
▁소론 -15031
▁리차드 -15032
▁사무관 -15033
▁열역학 -15034
▁1874 -15035
▁우두머리 -15036
▁지하철역 -15037
▁셴 -15038
▁낭비 -15039
▁내릴 -15040
▁리나 -15041
▁버니 -15042
▁병렬 -15043
▁요직 -15044
▁코바 -15045
▁화원 -15046
▁남극점 -15047
▁동아리 -15048
▁한겨레 -15049
벌리 -15050
▁발판 -15051
▁석권 -15052
▁소양 -15053
▁잔여 -15054
▁카로 -15055
▁키타 -15056
▁향수 -15057
▁화음 -15058
▁거주자 -15059
▁조각가 -15060
18 -15061
에쓰 -15062
▁끼친 -15063
▁시제 -15064
▁당뇨병 -15065
▁로페스 -15066
▁시달렸 -15067
▁신호장 -15068
▁가로질러 -15069
so -15070
큐슈 -15071
▁맞물 -15072
▁무가 -15073
▁부엌 -15074
▁은폐 -15075
▁코로 -15076
▁공주시 -15077
▁책임지 -15078
▁알렉산데르 -15079
ATO -15080
▁강국 -15081
▁마늘 -15082
▁밸브 -15083
▁볼드 -15084
▁빌드 -15085
▁양평 -15086
▁클랜 -15087
▁협곡 -15088
▁무지개 -15089
▁천도교 -15090
▁스틸러스 -15091
▁미스코리아 -15092
▁뉴멕 -15093
▁동백 -15094
▁떨쳤 -15095
▁몰수 -15096
▁무예 -15097
▁법규 -15098
▁산문 -15099
▁숙박 -15100
▁악당 -15101
▁일주 -15102
▁재회 -15103
▁중남 -15104
▁품목 -15105
▁홍익 -15106
▁라스트 -15107
▁시그마 -15108
▁올라와 -15109
▁저스틴 -15110
▁청문회 -15111
▁뉴멕시코 -15112
▁오아시스 -15113
▁콘퍼런스 -15114
▁중앙아메리카 -15115
▁파푸아뉴기니 -15116
▁김우 -15117
▁나일 -15118
▁리시 -15119
▁리타 -15120
▁칠성 -15121
▁한복 -15122
올리언 -15123
▁아놀드 -15124
▁트레일 -15125
▁컨퍼런스 -15126
신저 -15127
텐셜 -15128
▁메모 -15129
▁산조 -15130
▁이색 -15131
스크림 -15132
▁204 -15133
▁가요제 -15134
▁중거리 -15135
▁바그다드 -15136
▁사무라이 -15137
▁유가행파 -15138
▁벚 -15139
시험 -15140
프랑 -15141
▁공문 -15142
▁다쿠 -15143
▁발작 -15144
▁방탄 -15145
▁인성 -15146
▁주군 -15147
▁코크 -15148
야누스 -15149
▁성폭력 -15150
▁지리산 -15151
▁항공편 -15152
▁호소카와 -15153
징어 -15154
ala -15155
▁격전 -15156
▁고승 -15157
▁되살 -15158
▁받치 -15159
▁옥사 -15160
▁하지 -15161
▁여운형 -15162
▁클로드 -15163
▁YG -15164
▁sp -15165
▁델리 -15166
▁레나 -15167
▁싸운 -15168
▁쓰일 -15169
▁인스 -15170
▁조동 -15171
▁쿠마 -15172
▁판명 -15173
▁동남쪽 -15174
▁퍼텐셜 -15175
▁1877 -15176
▁바이마르 -15177
▁트라야누스 -15178
me -15179
▁띈 -15180
▁강좌 -15181
▁곤살 -15182
▁넷플 -15183
▁라플 -15184
▁민원 -15185
▁복속 -15186
▁선단 -15187
▁읍성 -15188
▁학당 -15189
▁Bab -15190
▁교육학 -15191
▁대수학 -15192
▁비잔틴 -15193
▁셀주크 -15194
▁참전하 -15195
▁넷플릭스 -15196
▁뉴올리언 -15197
▁SR -15198
▁너희 -15199
▁모치 -15200
▁묘호 -15201
▁미겔 -15202
▁송이 -15203
▁캠벨 -15204
▁화염 -15205
▁Her -15206
▁게임즈 -15207
▁아우르 -15208
▁앞바다 -15209
▁에스컬 -15210
▁휴대폰 -15211
▁콜럼버스 -15212
▁에스컬레이터 -15213
au -15214
ax -15215
▁탔 -15216
소문 -15217
▁감축 -15218
▁사중 -15219
▁앨라 -15220
▁우니 -15221
▁이문 -15222
▁지크 -15223
▁탄수 -15224
▁퇴진 -15225
▁행선 -15226
▁518 -15227
▁핸드볼 -15228
▁후쿠이 -15229
▁7000 -15230
▁클러스터 -15231
▁서아프리카 -15232
co -15233
▁단발 -15234
▁앞뒤 -15235
▁엄지 -15236
▁대사간 -15237
▁프레슬리 -15238
더릭 -15239
비에 -15240
▁AE -15241
▁결장 -15242
▁에페 -15243
▁물러난 -15244
▁사하라 -15245
▁이주민 -15246
▁켜 -15247
계약 -15248
▁도형 -15249
▁애드 -15250
▁억울 -15251
▁예멘 -15252
▁총영 -15253
▁출사 -15254
▁루이즈 -15255
▁수백만 -15256
▁포식자 -15257
▁한국군 -15258
▁허베이 -15259
▁Best -15260
▁레닌주의 -15261
yn -15262
민당 -15263
운수 -15264
▁돌렸 -15265
▁북측 -15266
▁아킬 -15267
▁에볼 -15268
▁지령 -15269
▁추운 -15270
▁CIA -15271
▁멀티미디어 -15272
HC -15273
▁쿰 -15274
뜨린 -15275
▁두뇌 -15276
▁무주 -15277
▁소인 -15278
▁승낙 -15279
▁양천 -15280
▁재물 -15281
▁전조 -15282
▁처마 -15283
▁카일 -15284
▁타선 -15285
▁원주시 -15286
▁컨설팅 -15287
ps -15288
범죄 -15289
ash -15290
▁AF -15291
▁경내 -15292
▁도읍 -15293
▁시발 -15294
▁의제 -15295
▁제지 -15296
▁공학자 -15297
GB -15298
▁얄 -15299
네르 -15300
oid -15301
▁바야 -15302
▁박찬 -15303
▁본존 -15304
▁블랑 -15305
▁요가 -15306
▁전범 -15307
▁스타드 -15308
▁오릭스 -15309
▁외계인 -15310
▁콘티넨 -15311
▁갈릴레오 -15312
▁툼 -15313
마을 -15314
바드 -15315
일기 -15316
혈구 -15317
▁경합 -15318
▁나투 -15319
▁문맥 -15320
▁바쳐 -15321
▁변론 -15322
▁산체 -15323
▁상환 -15324
▁소주 -15325
▁순찰 -15326
▁스펙 -15327
▁APG -15328
▁브리스 -15329
양구 -15330
▁곡식 -15331
▁과세 -15332
▁라임 -15333
▁로망 -15334
▁바투 -15335
▁승률 -15336
▁우표 -15337
▁토바 -15338
▁통찰 -15339
▁펭귄 -15340
▁강화군 -15341
▁루카스 -15342
▁했으므로 -15343
장사 -15344
ict -15345
ose -15346
▁맹렬 -15347
▁방학 -15348
▁사연 -15349
▁원사 -15350
▁유창 -15351
▁인계 -15352
▁추계 -15353
▁하층 -15354
▁후회 -15355
▁경부선 -15356
▁콜린스 -15357
▁트레인 -15358
▁1700 -15359
▁1859 -15360
▁다카하시 -15361
▁만장일치 -15362
▁뜬 -15363
변수 -15364
제철 -15365
▁et -15366
▁대입 -15367
▁문물 -15368
▁미켈 -15369
▁소르 -15370
▁숙명 -15371
▁코린 -15372
▁부르봉 -15373
▁연방군 -15374
▁클레오 -15375
▁Hell -15376
▁갑작스럽 -15377
22 -15378
다보 -15379
▁도부 -15380
▁앙드레 -15381
▁캄파니아 -15382
▁플루토늄 -15383
▁켐 -15384
피크 -15385
▁결여 -15386
▁관아 -15387
▁도안 -15388
▁뒤덮 -15389
▁레크 -15390
▁만류 -15391
▁불릴 -15392
▁비싸 -15393
▁산재 -15394
▁오구 -15395
▁완장 -15396
▁엘비스 -15397
14 -15398
▁샷 -15399
▁챠 -15400
의식 -15401
▁가선 -15402
▁오니 -15403
▁자성 -15404
▁퇴치 -15405
▁가져가 -15406
▁곧이어 -15407
▁아스카 -15408
▁메모리얼 -15409
▁구가 -15410
▁뚜껑 -15411
▁사병 -15412
▁여정 -15413
▁제비 -15414
▁트림 -15415
▁서태지 -15416
▁현미경 -15417
▁스테파노 -15418
▁니즈 -15419
▁보어 -15420
▁상감 -15421
▁스플 -15422
▁이씨 -15423
▁625 -15424
▁길거리 -15425
▁난쟁이 -15426
▁라이센스 -15427
▁랏 -15428
남면 -15429
무장 -15430
토크 -15431
형제 -15432
▁두르 -15433
▁서품 -15434
▁게이밍 -15435
▁오리엔 -15436
▁이론가 -15437
▁전시관 -15438
▁튀어나 -15439
▁짚 -15440
배마 -15441
▁KS -15442
▁se -15443
▁us -15444
▁구전 -15445
▁미트 -15446
▁원문 -15447
▁중건 -15448
▁플랑 -15449
▁개화파 -15450
▁억제제 -15451
▁이케다 -15452
▁카리스 -15453
▁혼합물 -15454
▁앨라배마 -15455
▁프리큐어 -15456
▁매기 -15457
▁모교 -15458
▁서체 -15459
▁선과 -15460
▁세제 -15461
▁요도 -15462
▁투사 -15463
▁푸젠 -15464
▁결의안 -15465
▁울트라 -15466
▁인류학 -15467
▁찾아오 -15468
▁서바이벌 -15469
▁아드리아 -15470
▁^ -15471
동원 -15472
▁네브 -15473
▁블룸 -15474
▁원점 -15475
▁적법 -15476
▁평하 -15477
▁사다리 -15478
▁아키텐 -15479
▁아파치 -15480
▁소아시아 -15481
▁멱 -15482
EEE -15483
▁롤러 -15484
▁리안 -15485
▁명왕 -15486
▁태화 -15487
▁가치관 -15488
▁셰퍼드 -15489
▁순천시 -15490
13 -15491
15 -15492
▁웜 -15493
▁미러 -15494
▁반달 -15495
▁부식 -15496
▁북인 -15497
▁왕당 -15498
▁원만 -15499
▁일면 -15500
▁진심 -15501
▁함장 -15502
▁후견 -15503
▁후면 -15504
▁대제학 -15505
▁안철수 -15506
데일 -15507
▁공병 -15508
▁관위 -15509
▁군기 -15510
▁백지 -15511
▁율리 -15512
▁전서 -15513
▁호투 -15514
▁미트라 -15515
▁우에노 -15516
▁뮈 -15517
나시 -15518
로트 -15519
크리 -15520
투리 -15521
▁백운 -15522
▁베다 -15523
▁알로 -15524
▁어지 -15525
▁이만 -15526
▁자갈 -15527
▁화소 -15528
reak -15529
▁제니퍼 -15530
▁최진실 -15531
▁미야기현 -15532
▁자이언트 -15533
▁자카르타 -15534
▁테크놀로지 -15535
▁뉴클레오타이드 -15536
VA -15537
과학 -15538
매기 -15539
완다 -15540
▁관군 -15541
▁근간 -15542
▁무공 -15543
▁바젤 -15544
▁발터 -15545
▁아누 -15546
▁자백 -15547
▁츠카 -15548
▁타파 -15549
▁미성년 -15550
▁출장소 -15551
▁핵탄두 -15552
▁크리스틴 -15553
재판 -15554
주석 -15555
티지 -15556
uck -15557
▁김학 -15558
▁빌바오 -15559
▁예문관 -15560
▁출판물 -15561
▁안토니우스 -15562
들였 -15563
▁문건 -15564
▁수주 -15565
▁퇴출 -15566
▁빈센트 -15567
▁실린더 -15568
▁저질렀 -15569
▁직사각 -15570
▁케이드 -15571
▁세웠으며 -15572
둘러 -15573
장조 -15574
▁거병 -15575
▁금관 -15576
▁다윗 -15577
▁로디 -15578
▁속국 -15579
▁이창 -15580
▁헬스 -15581
▁페스트 -15582
▁카디널스 -15583
de -15584
조류 -15585
▁레티 -15586
▁로보 -15587
▁산남 -15588
▁어라 -15589
▁왕명 -15590
▁용맹 -15591
▁장경 -15592
▁테헤 -15593
▁통감 -15594
▁엄청나 -15595
▁환승역 -15596
▁아이스크림 -15597
▁공석 -15598
▁자네 -15599
▁전봉 -15600
▁주포 -15601
▁처칠 -15602
▁희미 -15603
▁목표물 -15604
▁선제후 -15605
▁순교자 -15606
▁탈레반 -15607
▁IEEE -15608
▁넓혀 -15609
▁도끼 -15610
▁발광 -15611
▁산술 -15612
▁안주 -15613
▁오인 -15614
▁총감 -15615
▁피자 -15616
▁홀수 -15617
▁로저스 -15618
▁바스크 -15619
▁통계학 -15620
▁오토바이 -15621
HL -15622
나주 -15623
소니 -15624
스톤 -15625
▁논증 -15626
▁사산 -15627
▁상층 -15628
▁정청 -15629
▁하후 -15630
▁호화 -15631
▁화풍 -15632
▁회차 -15633
▁기념장 -15634
▁떠올랐 -15635
▁쓰촨성 -15636
▁정착지 -15637
▁Star -15638
▁두드러진 -15639
▁아미타불 -15640
버터 -15641
▁갇혀 -15642
▁경원 -15643
▁뉴잉 -15644
▁로코 -15645
▁리언 -15646
▁양동 -15647
▁340 -15648
▁마코토 -15649
▁아니면 -15650
▁아이치 -15651
▁이치현 -15652
▁정해졌 -15653
▁해인사 -15654
주사 -15655
▁달력 -15656
▁발진 -15657
▁보디 -15658
▁오와 -15659
▁코이 -15660
▁튜링 -15661
▁특명 -15662
▁대혁명 -15663
▁디에고 -15664
▁셀레우 -15665
▁여러분 -15666
▁이광수 -15667
▁조르주 -15668
▁고바야시 -15669
oo -15670
▁쏜 -15671
고사 -15672
스퍼 -15673
ail -15674
▁DO -15675
▁FF -15676
▁개경 -15677
▁넓히 -15678
▁도매 -15679
▁수질 -15680
▁으러 -15681
▁의인 -15682
▁젤리 -15683
▁조회 -15684
▁허물 -15685
하마드 -15686
▁로스트 -15687
▁볼프강 -15688
패드 -15689
▁보국 -15690
▁사생 -15691
▁섹션 -15692
▁수문 -15693
▁유틸 -15694
▁잡힌 -15695
▁청정 -15696
▁호적 -15697
▁교황령 -15698
▁레이건 -15699
▁향신료 -15700
▁유틸리티 -15701
▁콘스탄티누스 -15702
학파 -15703
▁as -15704
▁교인 -15705
▁교재 -15706
▁김덕 -15707
▁담양 -15708
▁동급 -15709
▁두터 -15710
▁사탄 -15711
▁산정 -15712
▁상설 -15713
▁수프 -15714
▁진천 -15715
▁타밀 -15716
▁터스 -15717
게이트 -15718
▁310 -15719
▁리바이 -15720
▁자본가 -15721
▁펙 -15722
▁김도 -15723
▁놓였 -15724
▁소서 -15725
▁지검 -15726
▁지날 -15727
▁짝수 -15728
▁추장 -15729
▁커브 -15730
▁개척자 -15731
▁대대장 -15732
▁슈트라 -15733
▁스러워 -15734
▁지석묘 -15735
▁국가원수 -15736
▁중앙일보 -15737
▁구라 -15738
▁베가 -15739
▁선별 -15740
▁정역 -15741
▁폐차 -15742
▁Sun -15743
▁you -15744
▁가우스 -15745
▁국내선 -15746
▁대관식 -15747
▁오슬로 -15748
▁원정대 -15749
▁Super -15750
▁매사추세츠주 -15751
팩스 -15752
▁my -15753
▁개표 -15754
▁거문 -15755
▁김주 -15756
▁나바 -15757
▁닷컴 -15758
▁부락 -15759
▁비어 -15760
▁손수 -15761
▁입찰 -15762
▁흐트 -15763
▁브레멘 -15764
▁슈투트 -15765
▁슈트라우스 -15766
▁슈투트가르트 -15767
▁뽀 -15768
바퀴 -15769
플레 -15770
▁교감 -15771
▁멜라 -15772
▁수구 -15773
▁어학 -15774
▁은지 -15775
▁한하 -15776
▁개막식 -15777
▁근세 -15778
▁세밀 -15779
▁센타 -15780
▁속초 -15781
▁의논 -15782
▁카파 -15783
▁해커 -15784
▁호이 -15785
▁209 -15786
▁에세이 -15787
▁1812 -15788
▁모니터링 -15789
구미 -15790
댓값 -15791
vel -15792
▁모션 -15793
▁무찌 -15794
▁배타 -15795
▁시력 -15796
▁아칸 -15797
▁템플 -15798
▁무사시 -15799
▁무신론 -15800
▁바뀐다 -15801
▁에이브 -15802
▁울주군 -15803
▁아이파크 -15804
▁뉴잉글랜드 -15805
▁강유 -15806
▁걸스 -15807
▁과달 -15808
▁당상 -15809
▁도파 -15810
▁무위 -15811
▁박경 -15812
▁빨강 -15813
▁스쿼 -15814
▁충동 -15815
▁평방 -15816
▁바빌론 -15817
초프 -15818
▁명륜 -15819
▁장강 -15820
▁장지 -15821
▁정실 -15822
▁추밀 -15823
▁하강 -15824
▁항문 -15825
▁기울이 -15826
▁송진우 -15827
▁Soul -15828
▁그래픽스 -15829
▁리바운드 -15830
▁Kn -15831
▁과감 -15832
▁그늘 -15833
▁루드 -15834
▁성조 -15835
▁안면 -15836
▁조던 -15837
▁주유 -15838
▁죽일 -15839
▁타라 -15840
▁토프 -15841
▁풀이 -15842
▁피그 -15843
▁황위 -15844
▁윤치영 -15845
▁자치현 -15846
▁클라리 -15847
▁유니코드 -15848
▁후쿠시마현 -15849
스레 -15850
▁ad -15851
▁규합 -15852
▁로컬 -15853
▁메드 -15854
▁콘스 -15855
▁호국 -15856
하우스 -15857
▁록히드 -15858
▁에이지 -15859
▁자오선 -15860
▁북대서양 -15861
▁서비스업 -15862
▁선거관리 -15863
▁무형문화재 -15864
▁선거관리위원회 -15865
TF -15866
라는 -15867
티어 -15868
iel -15869
▁근위 -15870
▁나시 -15871
▁논평 -15872
▁산인 -15873
▁위축 -15874
▁천자 -15875
시아키 -15876
▁르완다 -15877
▁물리쳤 -15878
▁음식점 -15879
▁썸 -15880
▁Tw -15881
▁끔찍 -15882
▁맞배 -15883
▁산동 -15884
▁익히 -15885
▁점토 -15886
▁지카 -15887
▁집적 -15888
▁탄두 -15889
▁206 -15890
▁단말기 -15891
▁삼거리 -15892
▁접미사 -15893
▁주거지 -15894
▁한자어 -15895
▁John -15896
▁알렉세이 -15897
▁Christ -15898
그램 -15899
▁눌러 -15900
▁루손 -15901
▁슬러 -15902
▁용역 -15903
▁폐하 -15904
▁끌려가 -15905
▁보이즈 -15906
▁여수시 -15907
▁조광조 -15908
▁ICBM -15909
▁름 -15910
디드 -15911
▁ON -15912
▁고후 -15913
▁구비 -15914
▁김시 -15915
▁당장 -15916
▁로런 -15917
▁매듭 -15918
▁법상 -15919
▁상이 -15920
▁스완 -15921
▁예보 -15922
▁잡혔 -15923
▁코우 -15924
▁포상 -15925
▁기생충 -15926
▁여주인 -15927
▁연대장 -15928
▁주제가 -15929
▁막시밀리 -15930
59 -15931
gh -15932
네오 -15933
샤오 -15934
▁가창 -15935
▁귀순 -15936
▁노마 -15937
▁니치 -15938
▁리퍼 -15939
▁아호 -15940
▁카보 -15941
▁투니 -15942
공화당 -15943
▁개개인 -15944
▁그러면 -15945
▁사우디 -15946
▁1879 -15947
▁아브라함 -15948
▁민주공화당 -15949
▁궈 -15950
ute -15951
▁Mi -15952
▁금천 -15953
▁도자 -15954
▁동맥 -15955
▁로지 -15956
▁무진 -15957
▁버밍 -15958
▁샤오 -15959
▁수라 -15960
▁아람 -15961
▁영도 -15962
▁자각 -15963
▁택하 -15964
▁레코딩 -15965
▁의병장 -15966
▁치른다 -15967
TR -15968
▁쑹 -15969
도감 -15970
버라 -15971
▁Mr -15972
▁딱딱 -15973
▁유세 -15974
▁장이 -15975
▁철기 -15976
▁춘계 -15977
▁휴일 -15978
▁고지대 -15979
▁에다가 -15980
▁베르사유 -15981
블릭 -15982
탄올 -15983
▁IF -15984
▁범람 -15985
▁카토 -15986
▁747 -15987
▁도망쳐 -15988
▁라그랑 -15989
▁로널드 -15990
▁안데스 -15991
▁테헤란 -15992
▁건국훈장 -15993
▁파르티아 -15994
EA -15995
면적 -15996
여지 -15997
▁꾸몄 -15998
▁떠돌 -15999
▁모태 -16000
▁애호 -16001
▁양원 -16002
▁양정 -16003
▁차차 -16004
▁체질 -16005
▁초식 -16006
▁커리 -16007
▁콜론 -16008
라이스 -16009
▁바닷가 -16010
▁백두산 -16011
▁태블릿 -16012
▁파르마 -16013
▁감당 -16014
▁관개 -16015
▁농담 -16016
▁동대 -16017
▁변성 -16018
▁부화 -16019
▁소량 -16020
▁우기 -16021
▁전열 -16022
▁차역 -16023
▁청일 -16024
▁붙잡혀 -16025
▁석회암 -16026
▁불러일으켰 -16027
나들 -16028
레앙 -16029
방스 -16030
▁단수 -16031
▁대등 -16032
▁변함 -16033
▁부기 -16034
▁불문 -16035
▁빛깔 -16036
▁소포 -16037
▁유보 -16038
▁정맥 -16039
▁카펠 -16040
▁조봉암 -16041
▁태어날 -16042
▁피어스 -16043
▁일렉트로닉 -16044
▁뜯 -16045
분투 -16046
태자 -16047
▁공경 -16048
▁두부 -16049
▁듀스 -16050
▁양념 -16051
▁영종 -16052
▁울루 -16053
▁유상 -16054
▁조우 -16055
▁투기 -16056
▁풍요 -16057
▁독재자 -16058
▁카지노 -16059
▁불법행위 -16060
▁뉴올리언스 -16061
▁HP -16062
▁기권 -16063
▁대방 -16064
▁대여 -16065
▁자석 -16066
▁쿠시 -16067
▁해주 -16068
▁420 -16069
▁des -16070
▁기울였 -16071
▁제이크 -16072
▁즐거움 -16073
▁펼쳐진 -16074
슐리 -16075
▁국문 -16076
▁노역 -16077
▁무겁 -16078
▁무패 -16079
▁상회 -16080
▁실베 -16081
▁아요 -16082
▁유계 -16083
▁일보 -16084
▁임실 -16085
▁죄인 -16086
▁중등 -16087
▁게이오 -16088
▁변호인 -16089
▁오메가 -16090
▁헬레니즘 -16091
OK -16092
네프 -16093
신보 -16094
▁군마 -16095
▁말려 -16096
▁수족 -16097
▁이코 -16098
▁인삼 -16099
▁제고 -16100
▁초회 -16101
▁매니아 -16102
▁여행자 -16103
▁당했으며 -16104
▁드러난다 -16105
▁원종공신 -16106
반정 -16107
의금 -16108
화산 -16109
▁게놈 -16110
▁능숙 -16111
▁레저 -16112
▁불능 -16113
▁역동 -16114
▁온전 -16115
▁유민 -16116
▁적힌 -16117
로세서 -16118
▁CoA -16119
▁Str -16120
▁리그컵 -16121
▁아이작 -16122
▁영사관 -16123
▁트리스 -16124
정변 -16125
▁강가 -16126
▁사파 -16127
▁스킨 -16128
▁자존 -16129
▁촐라 -16130
▁현수 -16131
▁App -16132
▁사가미 -16133
▁암스트 -16134
▁반납 -16135
▁사체 -16136
▁수아 -16137
▁스텐 -16138
▁열람 -16139
▁전곡 -16140
▁최용 -16141
▁클럭 -16142
▁440 -16143
리아누스 -16144
▁쿵 -16145
▁남경 -16146
▁성자 -16147
▁호시 -16148
레틱스 -16149
▁국방군 -16150
▁들어선 -16151
▁본거지 -16152
▁테크노 -16153
▁애슬레틱스 -16154
▁Record -16155
연맹 -16156
VID -16157
▁따돌 -16158
▁카다 -16159
▁컬링 -16160
▁항전 -16161
▁꽝 -16162
▁퀼 -16163
산업 -16164
수지 -16165
자드 -16166
장군 -16167
▁광시 -16168
▁두스 -16169
▁매복 -16170
▁시타 -16171
▁입혔 -16172
▁접목 -16173
로그램 -16174
▁군주제 -16175
▁글리제 -16176
▁수영장 -16177
▁엘리엇 -16178
▁이회창 -16179
▁지극히 -16180
가요 -16181
선교 -16182
ull -16183
▁Gu -16184
▁강했 -16185
▁권투 -16186
▁노엘 -16187
▁도나 -16188
▁머큐 -16189
▁보아 -16190
▁소진 -16191
▁인척 -16192
▁조승 -16193
▁후추 -16194
▁광합성 -16195
▁니가타 -16196
▁알칼리 -16197
▁올라왔 -16198
▁인산화 -16199
▁호기심 -16200
▁사이클론 -16201
▁이루어질 -16202
▁엔지니어링 -16203
러져 -16204
▁압수 -16205
▁왕좌 -16206
▁유관 -16207
▁체리 -16208
▁행운 -16209
▁야구부 -16210
▁요나라 -16211
▁유기체 -16212
▁조용히 -16213
▁주머니쥐 -16214
▁아우구스트 -16215
링크 -16216
▁부트 -16217
▁세울 -16218
▁제방 -16219
▁증축 -16220
▁공성전 -16221
▁습니까 -16222
▁페르시 -16223
▁페이퍼 -16224
▁플래닛 -16225
▁2500 -16226
▁PA -16227
▁고요 -16228
▁만물 -16229
▁안락 -16230
▁정직 -16231
▁폴로 -16232
▁할구 -16233
▁Hot -16234
▁양산시 -16235
▁엘리스 -16236
▁잠비아 -16237
티보 -16238
▁"| -16239
▁날렸 -16240
▁내시 -16241
▁동두 -16242
▁망가 -16243
▁양구 -16244
▁열거 -16245
▁왕녀 -16246
▁왕릉 -16247
▁요셉 -16248
▁워낙 -16249
▁이석 -16250
▁이한 -16251
▁쿠루 -16252
▁파고 -16253
▁화이 -16254
▁환산 -16255
▁Per -16256
▁바실리 -16257
▁춘천시 -16258
▁판매고 -16259
▁합병증 -16260
▁항생제 -16261
▁print -16262
▁다마스쿠스 -16263
▁고독 -16264
▁금기 -16265
▁따지 -16266
▁라쿠 -16267
▁앙상 -16268
▁용문 -16269
▁작자 -16270
▁탈피 -16271
▁투병 -16272
▁호찌 -16273
▁256 -16274
▁되돌려 -16275
▁스위트 -16276
▁엔리케 -16277
▁오우치 -16278
▁타지키스탄 -16279
▁public -16280
길준 -16281
덕궁 -16282
일체 -16283
▁CA -16284
▁궁주 -16285
▁리지 -16286
▁미타 -16287
▁신익 -16288
리오스 -16289
▁실리콘 -16290
▁영화관 -16291
▁제시카 -16292
▁허버트 -16293
▁대법원장 -16294
니에 -16295
대비 -16296
▁po -16297
▁나토 -16298
▁득실 -16299
▁리노 -16300
▁명동 -16301
▁문어 -16302
▁종실 -16303
▁퀸스 -16304
▁킬러 -16305
▁라고도 -16306
▁오토모 -16307
높이 -16308
레미 -16309
무지 -16310
▁균등 -16311
▁담임 -16312
▁마거 -16313
▁성현 -16314
▁콜리 -16315
▁바레인 -16316
▁산투스 -16317
▁접근성 -16318
바이러스 -16319
▁돌아간다 -16320
▁앳 -16321
발트 -16322
빨리 -16323
황제 -16324
▁nm -16325
▁가결 -16326
▁섞인 -16327
▁연하 -16328
▁은평 -16329
▁즐겼 -16330
▁기본법 -16331
▁날아가 -16332
▁왕당파 -16333
▁카스텔 -16334
▁후반전 -16335
ty -16336
자나 -16337
▁ER -16338
▁광동 -16339
▁내기 -16340
▁담수 -16341
▁바바 -16342
▁반향 -16343
▁북마 -16344
▁사목 -16345
▁사스 -16346
▁성형 -16347
▁시영 -16348
▁식이 -16349
▁실책 -16350
▁아루 -16351
▁이설 -16352
▁코니 -16353
▁패자 -16354
▁환초 -16355
▁랴오닝 -16356
▁버스터 -16357
16 -16358
25 -16359
는점 -16360
데오 -16361
▁강타 -16362
▁교학 -16363
▁셔츠 -16364
▁우타 -16365
▁중신 -16366
▁향로 -16367
▁힐스 -16368
▁시에라 -16369
▁초고층 -16370
▁후유증 -16371
▁크리스탈 -16372
▁짠 -16373
다임 -16374
쿠치 -16375
▁군도 -16376
▁노골 -16377
▁동률 -16378
▁장차 -16379
▁코인 -16380
▁Win -16381
▁고다이 -16382
▁남북조 -16383
▁비행사 -16384
▁생산자 -16385
▁을수록 -16386
▁재결합 -16387
▁캅카스 -16388
▁천문단위 -16389
포리 -16390
ual -16391
▁금리 -16392
▁석재 -16393
▁솔직 -16394
▁접시 -16395
▁방법론 -16396
▁토론회 -16397
▁NM -16398
▁깊숙 -16399
▁바타 -16400
▁성교 -16401
▁아역 -16402
▁오차 -16403
▁카츠 -16404
고로드 -16405
▁냈으며 -16406
▁렌더링 -16407
▁브루노 -16408
▁알베르 -16409
▁잠재력 -16410
▁뭔 -16411
▁쐐 -16412
스틱 -16413
자락 -16414
▁농협 -16415
▁동체 -16416
▁미녀 -16417
▁쌍용 -16418
▁여관 -16419
▁엿볼 -16420
▁즉흥 -16421
▁피질 -16422
ogle -16423
▁911 -16424
▁거느렸 -16425
▁다행히 -16426
▁압둘라 -16427
▁웨슬리 -16428
▁패러다임 -16429
무트 -16430
불명 -16431
▁Ke -16432
▁강자 -16433
▁기피 -16434
▁느슨 -16435
▁대용 -16436
▁멘델 -16437
▁아님 -16438
▁유독 -16439
▁유미 -16440
▁칠곡 -16441
▁침수 -16442
▁예비군 -16443
▁예수교 -16444
▁이세이 -16445
▁프리드 -16446
▁쏠 -16447
든가 -16448
울루 -16449
▁HS -16450
▁mu -16451
▁간지 -16452
▁관저 -16453
▁교명 -16454
▁군량 -16455
▁반정 -16456
▁브이 -16457
▁사조 -16458
▁쐐기 -16459
▁악어 -16460
▁정중 -16461
▁코일 -16462
▁탄력 -16463
▁할로 -16464
▁넘어서 -16465
▁조연상 -16466
▁주둔지 -16467
▁Back -16468
▁리치먼드 -16469
▁플랑드르 -16470
라과 -16471
커우 -16472
▁도화 -16473
▁라사 -16474
▁변한 -16475
▁스팀 -16476
▁시온 -16477
▁아로 -16478
▁조율 -16479
▁지브 -16480
▁진성 -16481
▁베이직 -16482
▁사무엘 -16483
▁스텔스 -16484
▁1789 -16485
▁1801 -16486
▁캥 -16487
스텐 -16488
▁구애 -16489
▁군림 -16490
▁귀여 -16491
▁마른 -16492
▁성부 -16493
▁응력 -16494
▁이보 -16495
▁초석 -16496
그래피 -16497
▁208 -16498
▁선보인 -16499
▁제주시 -16500
▁이마가와 -16501
▁포틀랜드 -16502
▁KD -16503
▁겨냥 -16504
▁봉분 -16505
▁부안 -16506
▁아구 -16507
▁우디 -16508
던지기 -16509
프리드 -16510
▁오이타 -16511
▁트럼펫 -16512
▁기타큐슈 -16513
▁독립선언 -16514
▁아미타여래 -16515
득점 -16516
▁변했 -16517
▁세타 -16518
▁윤곽 -16519
▁트램 -16520
▁파피 -16521
▁광주시 -16522
▁급속도 -16523
▁유도탄 -16524
▁조제프 -16525
▁Kore -16526
▁ㅣ -16527
▁누마 -16528
▁다채 -16529
▁로만 -16530
▁변천 -16531
▁소노 -16532
▁신천 -16533
▁아쉽 -16534
▁악의 -16535
▁원곡 -16536
▁유감 -16537
▁총생 -16538
▁히코 -16539
▁길버트 -16540
▁내몽골 -16541
▁스태프 -16542
▁영문학 -16543
▁유길준 -16544
▁클라인 -16545
▁1400 -16546
▁암스트롱 -16547
▁셀레우코스 -16548
RNA -16549
▁Fl -16550
▁가전 -16551
▁기일 -16552
▁면하 -16553
▁이크 -16554
▁책정 -16555
▁청중 -16556
▁마운틴 -16557
▁머큐리 -16558
▁아르테 -16559
▁영장류 -16560
▁오른다 -16561
▁시킨다는 -16562
▁폼페이우스 -16563
평면 -16564
▁거품 -16565
▁교란 -16566
▁애프 -16567
▁폐교 -16568
▁네바다 -16569
▁동일시 -16570
▁브릿지 -16571
▁인문학 -16572
▁지배했 -16573
▁니카라과 -16574
▁드래곤즈 -16575
ll -16576
▁뿜 -16577
레븐 -16578
이상 -16579
▁MD -16580
▁국산 -16581
▁균열 -16582
▁모였 -16583
▁미디 -16584
▁약수 -16585
▁에픽 -16586
▁채집 -16587
▁370 -16588
▁MIT -16589
▁디아스 -16590
▁사망률 -16591
▁선수상 -16592
▁앙상블 -16593
▁NATO -16594
인산 -16595
▁NL -16596
▁가령 -16597
▁격화 -16598
▁고는 -16599
▁공평 -16600
▁궁수 -16601
▁김장 -16602
▁안시 -16603
▁영성 -16604
▁유재 -16605
▁이가 -16606
▁지킬 -16607
▁최순 -16608
▁225 -16609
▁Get -16610
▁브루크 -16611
▁사천왕 -16612
▁유물론 -16613
▁남한산성 -16614
▁탄수화물 -16615
제사 -16616
▁OK -16617
▁갑신 -16618
▁고관 -16619
▁구명 -16620
▁어둡 -16621
▁오웬 -16622
▁유익 -16623
▁제타 -16624
▁첫날 -16625
▁호전 -16626
lect -16627
▁로런스 -16628
▁마거릿 -16629
▁만주족 -16630
▁방문객 -16631
▁붉은색 -16632
▁연금술 -16633
▁이유로 -16634
▁추축국 -16635
▁Baby -16636
▁비로자나 -16637
ox -16638
▁NA -16639
▁깨지 -16640
▁도식 -16641
▁열기 -16642
▁중학 -16643
▁총국 -16644
▁출정 -16645
▁코디 -16646
스트림 -16647
▁나와서 -16648
▁베테랑 -16649
▁양평군 -16650
▁생물학자 -16651
▁Intern -16652
▁킵 -16653
남동 -16654
▁나날 -16655
▁발열 -16656
▁약품 -16657
▁예편 -16658
▁청군 -16659
▁흑색 -16660
ames -16661
▁부천시 -16662
▁와이어 -16663
▁펼쳐지 -16664
▁미식축구 -16665
▁이리하여 -16666
▁가변 -16667
▁극회 -16668
▁명장 -16669
▁수표 -16670
▁승선 -16671
▁야만 -16672
▁오랑 -16673
▁친히 -16674
▁커넥 -16675
▁트론 -16676
▁오리건 -16677
ology -16678
▁리하르트 -16679
▁프린세스 -16680
▁렬 -16681
ove -16682
▁Cr -16683
▁강구 -16684
▁격침 -16685
▁교내 -16686
▁그간 -16687
▁민선 -16688
▁생포 -16689
▁안건 -16690
▁장승 -16691
▁현관 -16692
▁요시카 -16693
▁항공우주 -16694
YP -16695
▁둑 -16696
모닉 -16697
파니 -16698
▁NX -16699
▁개리 -16700
▁결렬 -16701
▁관원 -16702
▁굳이 -16703
▁먼로 -16704
▁미로 -16705
▁박태 -16706
▁승마 -16707
▁신궁 -16708
▁치밀 -16709
▁코딩 -16710
▁탄성 -16711
▁행한 -16712
▁황하 -16713
▁후난 -16714
inal -16715
▁Mag -16716
▁디렉터 -16717
▁메신저 -16718
▁레오나르 -16719
▁서귀포시 -16720
▁해수욕장 -16721
GO -16722
처럼 -16723
▁노름 -16724
▁다라 -16725
▁듀엣 -16726
▁소마 -16727
▁의대 -16728
▁제헌 -16729
▁출항 -16730
▁카인 -16731
▁하세 -16732
▁남아공 -16733
▁부사장 -16734
▁항소심 -16735
▁행해진 -16736
무실 -16737
▁개축 -16738
▁결단 -16739
▁결투 -16740
▁공훈 -16741
▁군위 -16742
▁무소 -16743
▁외가 -16744
▁지회 -16745
▁타키 -16746
▁흉내 -16747
▁기네스 -16748
▁미요시 -16749
▁스펜서 -16750
▁해수면 -16751
ature -16752
▁트로츠키 -16753
▁안티오키아 -16754
능력 -16755
백색 -16756
피카 -16757
훈련 -16758
▁건네 -16759
▁공지 -16760
▁대소 -16761
▁배지 -16762
▁버거 -16763
▁조엘 -16764
▁직각 -16765
▁진위 -16766
▁초판 -16767
▁캔터 -16768
▁캡틴 -16769
▁통킹 -16770
▁호지 -16771
▁효성 -16772
▁나카노 -16773
▁어드밴 -16774
▁올라갈 -16775
▁태극기 -16776
그라운드 -16777
▁로베르트 -16778
▁소크라테스 -16779
투르 -16780
let -16781
▁꾸미 -16782
▁사일 -16783
▁생장 -16784
▁케로 -16785
▁탄광 -16786
▁블러드 -16787
▁콜라보 -16788
▁태양광 -16789
▁에두아르 -16790
TN -16791
경찰 -16792
금속 -16793
메랄 -16794
박이 -16795
▁도보 -16796
▁명중 -16797
▁무쓰 -16798
▁불길 -16799
▁비방 -16800
▁서곡 -16801
▁알마 -16802
▁양위 -16803
▁총수 -16804
피에르 -16805
▁고스트 -16806
▁시나노 -16807
▁정몽주 -16808
▁주세페 -16809
▁함부로 -16810
▁Amer -16811
▁돼지고기 -16812
▁베오그라드 -16813
17 -16814
심원 -16815
enn -16816
▁BO -16817
▁고취 -16818
▁김은 -16819
▁누에 -16820
▁니트 -16821
▁무루 -16822
▁비긴 -16823
▁수화 -16824
▁춘향 -16825
▁카노 -16826
▁풍기 -16827
▁화교 -16828
코비치 -16829
▁Way -16830
▁리카르 -16831
▁신안군 -16832
▁아열대 -16833
▁일진회 -16834
▁프레더릭 -16835
▁MR -16836
▁결실 -16837
▁경산 -16838
▁던전 -16839
▁사옥 -16840
▁재심 -16841
▁증류 -16842
▁천태 -16843
▁출병 -16844
▁피시 -16845
▁한꺼 -16846
▁핼리 -16847
▁흡입 -16848
▁다카시 -16849
▁사법부 -16850
의금부사 -16851
▁한꺼번에 -16852
락부 -16853
▁김석 -16854
▁끼워 -16855
▁라테 -16856
▁벗겨 -16857
▁윈드 -16858
▁주스 -16859
▁합장 -16860
▁범어사 -16861
▁스트라 -16862
▁알아차 -16863
▁페라리 -16864
▁게오르기 -16865
▁나왔으며 -16866
▁이오니아 -16867
가키 -16868
ors -16869
▁BB -16870
▁굴욕 -16871
▁내게 -16872
▁레반 -16873
▁베아 -16874
▁인노 -16875
▁카불 -16876
▁파출 -16877
▁폭주 -16878
▁효모 -16879
▁김종직 -16880
▁동북부 -16881
▁두더지 -16882
▁이치로 -16883
▁혈액형 -16884
▁유럽연합 -16885
▁아르바이트 -16886
UM -16887
갱이 -16888
던스 -16889
월드 -16890
▁내역 -16891
▁레르 -16892
▁매튜 -16893
▁베컴 -16894
▁봉헌 -16895
▁북송 -16896
▁사계 -16897
▁잔치 -16898
▁철근 -16899
▁하츠 -16900
▁207 -16901
▁365 -16902
▁GPS -16903
▁Res -16904
▁강릉시 -16905
▁국무부 -16906
▁나눈다 -16907
▁내려갔 -16908
▁돌아올 -16909
▁무정부 -16910
▁알레산 -16911
▁일제히 -16912
▁1815 -16913
▁1820 -16914
▁선거인단 -16915
▁"' -16916
▁깁슨 -16917
▁더라 -16918
▁연어 -16919
말라야 -16920
▁시아파 -16921
▁리얼리티 -16922
즈미 -16923
▁기형 -16924
▁도량 -16925
▁미추 -16926
▁에인 -16927
▁운석 -16928
▁조너 -16929
▁충고 -16930
▁토의 -16931
▁모터쇼 -16932
▁조합원 -16933
▁체육회 -16934
▁서대문구 -16935
덱스 -16936
app -16937
▁DA -16938
▁결집 -16939
▁맞닿 -16940
▁박동 -16941
▁봐야 -16942
▁살레 -16943
▁습도 -16944
▁시편 -16945
▁이구 -16946
▁좌랑 -16947
▁치루 -16948
▁사이다 -16949
▁연습생 -16950
▁유명세 -16951
▁이지스 -16952
▁직할시 -16953
현실 -16954
▁노하 -16955
▁설과 -16956
▁어인 -16957
▁에든 -16958
▁으뜸 -16959
▁천리 -16960
▁키치 -16961
▁힘쓰 -16962
▁농민군 -16963
▁진정한 -16964
▁페레스 -16965
▁프린터 -16966
노스아이 -16967
▁에든버러 -16968
노스아이레스 -16969
▁부에노스아이레스 -16970
광사 -16971
나비 -16972
시카 -16973
▁Dr -16974
▁공보 -16975
▁세도 -16976
▁술집 -16977
▁신안 -16978
▁영위 -16979
▁천적 -16980
▁타오 -16981
▁퇴계 -16982
▁펜스 -16983
▁풋살 -16984
▁필로 -16985
▁허구 -16986
스티안 -16987
▁지팡이 -16988
▁Cent -16989
▁카롤루스 -16990
끄럽 -16991
▁담장 -16992
▁변조 -16993
▁산마 -16994
▁학도 -16995
이즈미 -16996
▁노무라 -16997
▁도나우 -16998
▁오징어 -16999
▁지방도 -17000
▁라이온스 -17001
▁사라진다 -17002
▁히말라야 -17003
24 -17004
▁갸 -17005
▁격상 -17006
▁본능 -17007
▁분담 -17008
▁살피 -17009
▁서역 -17010
▁시성 -17011
▁양분 -17012
▁조나 -17013
▁한라 -17014
▁해머 -17015
레이즈 -17016
▁감마선 -17017
▁도망가 -17018
▁야행성 -17019
▁막시밀리안 -17020
▁욘 -17021
ret -17022
▁견지 -17023
▁로제 -17024
▁모잠 -17025
▁슐레 -17026
▁스틱 -17027
▁쿠사 -17028
▁표어 -17029
▁호박 -17030
ange -17031
ater -17032
▁가디언 -17033
▁리그전 -17034
▁저지르 -17035
▁전동기 -17036
▁제품군 -17037
▁후베이 -17038
▁모잠비크 -17039
로프로세서 -17040
▁레닌그라드 -17041
▁마이크로프로세서 -17042
FS -17043
▁훅 -17044
오드 -17045
ina -17046
▁디펜 -17047
▁마취 -17048
▁만수 -17049
▁실태 -17050
▁전극 -17051
▁전액 -17052
▁출루 -17053
▁피쳐 -17054
▁유공자 -17055
▁혁명가 -17056
마니 -17057
입자 -17058
▁기주 -17059
▁당사 -17060
▁리서 -17061
▁만연 -17062
▁벅스 -17063
▁본진 -17064
▁센다 -17065
▁쓰리 -17066
▁월경 -17067
▁이게 -17068
▁이삭 -17069
▁장서 -17070
▁지반 -17071
▁청했 -17072
▁테살 -17073
▁트롤 -17074
▁아드리 -17075
▁쫓겨나 -17076
▁고고학자 -17077
▁알베르트 -17078
▁System -17079
▁갑오 -17080
▁기욤 -17081
▁데니 -17082
▁사보 -17083
▁시차 -17084
▁융기 -17085
▁진하 -17086
▁특혜 -17087
지먼트 -17088
▁디나모 -17089
▁모델링 -17090
▁선데이 -17091
▁적절히 -17092
▁조병옥 -17093
▁지포스 -17094
▁1858 -17095
▁마쓰모토 -17096
▁천연가스 -17097
▁매니지먼트 -17098
▁알렉산드라 -17099
다스 -17100
베인 -17101
비츠 -17102
▁경구 -17103
▁니체 -17104
▁마초 -17105
▁모질 -17106
▁세실 -17107
▁소정 -17108
▁아토 -17109
▁위태 -17110
▁이부 -17111
▁커져 -17112
▁퍼플 -17113
▁합산 -17114
▁모조리 -17115
▁총생산 -17116
▁합쳐져 -17117
za -17118
▁SW -17119
▁광서 -17120
▁기민 -17121
▁노총 -17122
▁달마 -17123
▁던진 -17124
▁새해 -17125
▁성찬 -17126
▁위배 -17127
▁자막 -17128
▁종단 -17129
▁직류 -17130
▁코넬 -17131
▁탈리 -17132
▁핑계 -17133
▁허들 -17134
▁형광 -17135
▁광화문 -17136
▁막아내 -17137
▁분홍색 -17138
▁전망대 -17139
▁중심핵 -17140
▁즐거운 -17141
▁모노이드 -17142
▁프로방스 -17143
▁엎 -17144
거루 -17145
니츠 -17146
ons -17147
▁기교 -17148
▁납품 -17149
▁능하 -17150
▁미완 -17151
▁사악 -17152
▁소켓 -17153
▁소탕 -17154
▁육박 -17155
▁지뢰 -17156
▁Int -17157
▁Mac -17158
▁Tra -17159
▁군산시 -17160
▁오스트로 -17161
쓰네 -17162
퍼트 -17163
▁관대 -17164
▁급사 -17165
▁안재 -17166
▁장론 -17167
▁정현 -17168
▁창씨 -17169
▁콘셉 -17170
▁태상 -17171
▁거머쥐 -17172
▁관찰자 -17173
▁내려온 -17174
▁라이드 -17175
▁민의원 -17176
▁스와프 -17177
▁제노바 -17178
▁크레타 -17179
▁마그네슘 -17180
랭크 -17181
토바 -17182
ley -17183
▁'- -17184
▁낙태 -17185
▁도난 -17186
▁마도 -17187
▁매질 -17188
▁선서 -17189
▁엠마 -17190
▁옵티 -17191
▁음양 -17192
▁재주 -17193
▁특위 -17194
▁하카 -17195
▁대학살 -17196
▁목포시 -17197
▁신익희 -17198
▁안티고 -17199
▁조너선 -17200
▁파블로 -17201
▁필리스 -17202
▁High -17203
▁갑작스런 -17204
▁알베르토 -17205
▁이성질체 -17206
▁필하모닉 -17207
▁폴리네시아 -17208
▁갈비 -17209
▁궁내 -17210
▁기근 -17211
▁녹말 -17212
▁늘렸 -17213
▁더빙 -17214
▁의왕 -17215
▁포섭 -17216
▁한가 -17217
▁도치기 -17218
▁평상시 -17219
▁class -17220
ux -17221
동리 -17222
정제 -17223
▁견훤 -17224
▁대정 -17225
▁수강 -17226
▁슬퍼 -17227
▁에뮬 -17228
▁이철 -17229
▁장택 -17230
▁정공 -17231
▁좌천 -17232
▁총살 -17233
▁테드 -17234
ions -17235
▁USA -17236
▁미우라 -17237
▁스타인 -17238
▁합쳐서 -17239
▁맞배지붕 -17240
▁무궁화호 -17241
라나 -17242
사랑 -17243
싸움 -17244
▁급기 -17245
▁농작 -17246
▁니라 -17247
▁덕수 -17248
▁독실 -17249
▁말소 -17250
▁민가 -17251
▁비욘 -17252
▁완산 -17253
▁진구 -17254
▁총액 -17255
▁프록 -17256
▁노트북 -17257
▁마에다 -17258
▁무너져 -17259
▁베일리 -17260
▁봉수대 -17261
▁시게루 -17262
▁연구실 -17263
▁돌아와서 -17264
▁받아들일 -17265
실험 -17266
테일 -17267
▁공해 -17268
▁기악 -17269
▁남궁 -17270
▁선지 -17271
▁수선 -17272
▁어쨌 -17273
▁정과 -17274
▁토드 -17275
▁펠레 -17276
▁Not -17277
▁가져갔 -17278
▁그리드 -17279
▁마피아 -17280
▁유성구 -17281
▁포인터 -17282
▁조선왕조실록 -17283
컨드 -17284
코인 -17285
att -17286
▁마신 -17287
▁모를 -17288
▁손쉽 -17289
▁아픔 -17290
▁증원 -17291
▁콤비 -17292
▁패퇴 -17293
▁푸틴 -17294
▁성명서 -17295
▁수도사 -17296
▁전철역 -17297
▁타블로 -17298
▁플래그 -17299
▁1300 -17300
▁서프랑크 -17301
▁고택 -17302
▁동티 -17303
▁마틸 -17304
▁북상 -17305
▁예일 -17306
▁우도 -17307
▁이뤘 -17308
▁키웠 -17309
▁틈타 -17310
지스터 -17311
▁TBC -17312
▁어려울 -17313
▁평의원 -17314
▁피드백 -17315
▁1814 -17316
▁그래미상 -17317
▁동아프리카 -17318
▁클라이맥스 -17319
ART -17320
▁FS -17321
▁SG -17322
▁고갈 -17323
▁군락 -17324
▁로어 -17325
▁미자 -17326
▁벨벳 -17327
▁성제 -17328
▁스쿠 -17329
▁아말 -17330
▁알렌 -17331
▁앨버 -17332
▁우이 -17333
▁유승 -17334
▁음역 -17335
▁제보 -17336
▁휴먼 -17337
▁흥덕 -17338
▁290 -17339
▁겨울철 -17340
▁비올라 -17341
▁올라온 -17342
▁트랜싯 -17343
▁티무르 -17344
▁귤 -17345
당류 -17346
마일 -17347
어냈 -17348
촌동 -17349
토쿠 -17350
▁kW -17351
▁로타 -17352
▁마고 -17353
▁문성 -17354
▁비호 -17355
▁애매 -17356
▁전란 -17357
▁주상 -17358
▁헬렌 -17359
▁MHz -17360
▁건너편 -17361
▁수증기 -17362
▁쌍방울 -17363
▁커티스 -17364
▁What -17365
▁type -17366
▁보였으나 -17367
▁보호구역 -17368
재단 -17369
▁RA -17370
▁군비 -17371
▁군집 -17372
▁보육 -17373
▁소치 -17374
▁수의 -17375
▁아약 -17376
▁열풍 -17377
▁이덕 -17378
▁쿠리 -17379
▁퀘이 -17380
▁키아 -17381
▁MLB -17382
▁깨달음 -17383
▁맞대결 -17384
▁세컨드 -17385
▁액티브 -17386
▁우승컵 -17387
▁준다고 -17388
▁트랜지스터 -17389
기둥 -17390
자유 -17391
▁Of -17392
▁려다 -17393
▁목화 -17394
▁스팅 -17395
▁어쩌 -17396
▁열망 -17397
▁옥상 -17398
▁우대 -17399
▁전집 -17400
▁증직 -17401
▁홍천 -17402
▁IEC -17403
▁WHO -17404
▁건널목 -17405
▁여긴다 -17406
▁오나라 -17407
▁충주시 -17408
BN -17409
거성 -17410
데냐 -17411
▁구석 -17412
▁보카 -17413
▁신관 -17414
▁완주 -17415
▁직권 -17416
▁포진 -17417
▁War -17418
▁재빨리 -17419
▁평택시 -17420
▁프리킥 -17421
▁한정판 -17422
▁혁명군 -17423
▁1795 -17424
▁사르데냐 -17425
▁산업단지 -17426
▁암모니아 -17427
▁크리스천 -17428
▁토스카나 -17429
▁Google -17430
림동 -17431
민정 -17432
▁면은 -17433
▁웅진 -17434
▁캐럴 -17435
▁풍수 -17436
▁할양 -17437
▁헬로 -17438
▁훈족 -17439
정보부 -17440
▁니스트 -17441
▁성북구 -17442
▁주교좌 -17443
▁그리스도인 -17444
▁규장 -17445
▁루지 -17446
▁미에 -17447
▁바사 -17448
▁부탄 -17449
▁석등 -17450
▁윗면 -17451
▁이다 -17452
▁정일 -17453
▁페데 -17454
▁고조선 -17455
▁라쿠텐 -17456
▁미시간 -17457
▁패트리 -17458
▁감기 -17459
▁괴뢰 -17460
▁구자 -17461
▁레미 -17462
▁만기 -17463
▁멘토 -17464
▁바하 -17465
▁선회 -17466
▁세베 -17467
▁쇠약 -17468
▁헤임 -17469
씨식물 -17470
▁돌아간 -17471
▁바로잡 -17472
▁아약스 -17473
▁원정군 -17474
▁트루먼 -17475
▁프렌즈 -17476
▁석가여래 -17477
▁뱌 -17478
ger -17479
▁리온 -17480
▁모식 -17481
▁실크 -17482
▁아랑 -17483
▁원생 -17484
▁지층 -17485
▁초당 -17486
▁헨드 -17487
▁혼돈 -17488
▁Dis -17489
▁LCK -17490
▁사이공 -17491
▁통신부 -17492
▁포스코 -17493
▁하모니 -17494
▁홉킨스 -17495
살바도르 -17496
▁부위원장 -17497
▁샌드위치 -17498
NT -17499
구멍 -17500
전차 -17501
▁도표 -17502
▁발췌 -17503
▁스톨 -17504
▁암초 -17505
▁에린 -17506
▁장조 -17507
▁줄였 -17508
▁켈빈 -17509
▁포교 -17510
▁학급 -17511
▁리포트 -17512
▁익산시 -17513
▁플라자 -17514
▁With -17515
▁다리우스 -17516
▁받아들인 -17517
▁플레이스 -17518
▁윔 -17519
스테 -17520
식스 -17521
회원 -17522
▁Di -17523
▁리츠 -17524
▁몬태 -17525
▁미숙 -17526
▁에런 -17527
▁인대 -17528
▁판다 -17529
▁480 -17530
▁공직자 -17531
▁국문학 -17532
▁남조선 -17533
▁무너졌 -17534
▁정확도 -17535
▁프로이트 -17536
ye -17537
▁밈 -17538
alk -17539
▁PH -17540
▁김세 -17541
▁데인 -17542
▁도정 -17543
▁매춘 -17544
▁본초 -17545
▁부녀 -17546
▁우사 -17547
▁유시 -17548
▁토비 -17549
▁패드 -17550
▁850 -17551
▁대항해 -17552
▁드러난 -17553
▁보행자 -17554
▁선언문 -17555
▁창업자 -17556
▁찾아왔 -17557
▁여주인공 -17558
▁그리스도교 -17559
▁렝 -17560
부미 -17561
▁감탄 -17562
▁고해 -17563
▁약학 -17564
▁이효 -17565
▁효용 -17566
주니어 -17567
▁블루어 -17568
▁쓰여졌 -17569
▁디렉터리 -17570
yle -17571
▁각광 -17572
▁경이 -17573
▁광택 -17574
▁국지 -17575
▁로동 -17576
▁브람 -17577
▁설사 -17578
▁얼터 -17579
▁윈터 -17580
▁첨부 -17581
▁베드로 -17582
▁스타즈 -17583
▁창덕궁 -17584
▁합천군 -17585
▁카테고리 -17586
enc -17587
▁권하 -17588
▁나눔 -17589
▁맛있 -17590
▁보궐 -17591
▁보훈 -17592
▁불평 -17593
▁언젠 -17594
▁유원 -17595
▁종친 -17596
▁착한 -17597
▁코지 -17598
▁함의 -17599
디우스 -17600
▁Art -17601
▁남해군 -17602
▁돋보이 -17603
▁로렌초 -17604
▁북반구 -17605
▁스레드 -17606
▁수마트라 -17607
▁안드레이 -17608
▁요시아키 -17609
▁자동변속기 -17610
▁켓 -17611
건적 -17612
니코 -17613
팽이 -17614
▁교묘 -17615
▁머피 -17616
▁승전 -17617
▁아핀 -17618
▁장준 -17619
▁개최지 -17620
▁학생회 -17621
▁사탕수수 -17622
▁아틀레틱 -17623
▁자연주의 -17624
▁COVID -17625
뉴스 -17626
레프 -17627
쳐서 -17628
▁고운 -17629
▁굶주 -17630
▁내구 -17631
▁당명 -17632
▁랜덤 -17633
▁미코 -17634
▁반야 -17635
▁어딘 -17636
▁엄정 -17637
▁연유 -17638
▁웰스 -17639
▁천정 -17640
▁헤지 -17641
▁등록금 -17642
▁빼앗겼 -17643
▁에히메 -17644
▁지방관 -17645
▁페테르 -17646
▁헬싱키 -17647
▁꼼 -17648
든지 -17649
카라 -17650
▁간디 -17651
▁걸치 -17652
▁골수 -17653
▁니나 -17654
▁소도 -17655
▁수렵 -17656
▁씨름 -17657
▁차분 -17658
▁팀장 -17659
독립당 -17660
ough -17661
▁238 -17662
▁가입자 -17663
▁남반구 -17664
▁충렬왕 -17665
▁크라스 -17666
▁Blue -17667
▁드레이크 -17668
▁한국독립당 -17669
글러 -17670
▁논설 -17671
▁멜론 -17672
▁몸집 -17673
▁박승 -17674
▁숭실 -17675
▁영재 -17676
▁원술 -17677
▁평신 -17678
▁빅토리 -17679
▁안데르 -17680
▁여객선 -17681
IO -17682
블린 -17683
전쟁 -17684
하스 -17685
▁구토 -17686
▁남포 -17687
▁느라 -17688
▁당분 -17689
▁덩굴 -17690
▁데쓰 -17691
▁세탁 -17692
▁율령 -17693
▁장항 -17694
▁존엄 -17695
플레잉 -17696
▁기뻐하 -17697
▁데려가 -17698
▁보호관 -17699
▁손바닥 -17700
▁가나자와 -17701
▁롤플레잉 -17702
▁이베리아 -17703
▁뚱 -17704
▁먀 -17705
▁괴멸 -17706
▁다지 -17707
▁민권 -17708
▁버시 -17709
▁서강 -17710
▁이트 -17711
▁정병 -17712
▁정여 -17713
가하라 -17714
네소스 -17715
▁공기업 -17716
▁넥스트 -17717
▁문하시 -17718
▁변속기 -17719
▁산체스 -17720
▁이브라 -17721
▁이완용 -17722
▁1793 -17723
▁어드밴스 -17724
▁중앙정보부 -17725
▁낀 -17726
천국 -17727
ING -17728
▁과부 -17729
▁국과 -17730
▁기시 -17731
▁깜짝 -17732
▁노화 -17733
▁리저 -17734
▁무당 -17735
▁민생 -17736
▁신구 -17737
▁와해 -17738
▁직함 -17739
▁쿠릴 -17740
▁에밀리 -17741
▁최하위 -17742
▁페인트 -17743
▁아나키즘 -17744
▁에드먼드 -17745
▁자유민주 -17746
▁키르기스스탄 -17747
UI -17748
▁뺏 -17749
바람 -17750
적분 -17751
OVE -17752
que -17753
▁갤러 -17754
▁교주 -17755
▁데메 -17756
▁묘법 -17757
▁역모 -17758
▁오호 -17759
▁이견 -17760
▁이국 -17761
▁준하 -17762
▁하디 -17763
▁하순 -17764
▁Rev -17765
▁보라색 -17766
▁수번뇌 -17767
▁아쿠아 -17768
▁유격대 -17769
▁지난해 -17770
▁취약점 -17771
26 -17772
▁넉 -17773
대성 -17774
운전 -17775
▁ED -17776
▁Vf -17777
▁마조 -17778
▁미묘 -17779
▁보츠 -17780
▁성내 -17781
▁올랭 -17782
▁용접 -17783
▁윤원 -17784
▁참배 -17785
▁천구 -17786
▁총체 -17787
▁페터 -17788
다람쥐 -17789
연화경 -17790
▁러서는 -17791
▁버나드 -17792
▁윤리학 -17793
▁포위전 -17794
스트리트 -17795
▁1846 -17796
▁MPEG -17797
▁물리학상 -17798
▁이해관계 -17799
르모 -17800
메트 -17801
후이 -17802
▁걸맞 -17803
▁경멸 -17804
▁구룡 -17805
▁귀양 -17806
▁낙타 -17807
▁대뇌 -17808
▁서보 -17809
▁월북 -17810
▁윤석 -17811
▁철원 -17812
▁클루 -17813
▁펀치 -17814
비우스 -17815
시우스 -17816
웨스트 -17817
▁노르트 -17818
▁농작물 -17819
▁아산시 -17820
▁아칸소 -17821
▁1839 -17822
▁브루나이 -17823
▁초등학생 -17824
ump -17825
▁'. -17826
▁교포 -17827
▁구인 -17828
▁새기 -17829
▁억류 -17830
▁추위 -17831
▁파드 -17832
▁학창 -17833
▁LCD -17834
▁기부금 -17835
▁메이트 -17836
▁배수량 -17837
▁엉덩이 -17838
▁외무성 -17839
▁절대로 -17840
▁중서부 -17841
▁기념사업 -17842
▁하시모토 -17843
▁히로부미 -17844
래시 -17845
파스 -17846
▁게일 -17847
▁니콘 -17848
▁말린 -17849
▁박기 -17850
▁사흘 -17851
▁산불 -17852
▁순정 -17853
▁악역 -17854
▁인출 -17855
▁퇴단 -17856
▁환기 -17857
▁국무원 -17858
▁시어터 -17859
▁추밀원 -17860
▁1854 -17861
▁time -17862
나물 -17863
재란 -17864
▁개전 -17865
▁공덕 -17866
▁내수 -17867
▁도색 -17868
▁실로 -17869
▁정강 -17870
▁치중 -17871
▁표결 -17872
슬라브 -17873
▁아테나 -17874
▁체스터 -17875
▁키워드 -17876
▁테트라 -17877
▁정유재란 -17878
▁시즈오카현 -17879
▁아오모리현 -17880
질량 -17881
der -17882
▁갑각 -17883
▁군국 -17884
▁독소 -17885
▁루머 -17886
▁망루 -17887
▁박인 -17888
▁사죄 -17889
▁솔트 -17890
▁심플 -17891
▁여과 -17892
▁쪼개 -17893
▁특례 -17894
▁해자 -17895
▁휘트 -17896
티우스 -17897
학생회 -17898
▁낙하산 -17899
▁상속인 -17900
▁알레르 -17901
▁후임자 -17902
▁끌어들이 -17903
▁촘 -17904
▁고하 -17905
▁마는 -17906
▁매번 -17907
▁본당 -17908
▁부윤 -17909
▁아민 -17910
▁이형 -17911
▁인신 -17912
▁존상 -17913
▁치가 -17914
▁케도 -17915
▁737 -17916
▁건너갔 -17917
▁상대론 -17918
▁시공간 -17919
▁전기장 -17920
▁파트리 -17921
▁팩토리 -17922
▁황태후 -17923
▁기독교인 -17924
▁총학생회 -17925
모자 -17926
우어 -17927
▁걸로 -17928
▁미모 -17929
▁범용 -17930
▁심근 -17931
▁웅장 -17932
▁톨킨 -17933
▁필기 -17934
▁현충 -17935
니다드 -17936
루리아 -17937
캐스트 -17938
쿠스틱 -17939
▁214 -17940
▁대머리 -17941
▁보나파 -17942
▁평화상 -17943
▁하카타 -17944
▁향한다 -17945
▁Beat -17946
▁미성년자 -17947
▁어쿠스틱 -17948
▁언어학자 -17949
▁보나파르트 -17950
▁트리니다드 -17951
▁중앙아프리카 -17952
▁돛 -17953
고트 -17954
▁가니 -17955
▁디디 -17956
▁바일 -17957
▁방조 -17958
▁분양 -17959
▁석상 -17960
▁어이 -17961
▁예속 -17962
▁유폐 -17963
▁유품 -17964
▁육아 -17965
▁장령 -17966
▁칼레 -17967
코스트 -17968
▁가시마 -17969
▁분류학 -17970
▁산둥성 -17971
▁지난다 -17972
▁마음대로 -17973
패스 -17974
▁소홀 -17975
▁야로 -17976
▁엠블 -17977
▁오닐 -17978
▁잇달 -17979
▁종주 -17980
▁찬탈 -17981
▁화북 -17982
▁후시 -17983
프랑스 -17984
▁경비대 -17985
▁증명서 -17986
총리대신 -17987
▁소용돌이 -17988
▁세키가하라 -17989
▁내각총리대신 -17990
BT -17991
▁BR -17992
▁ME -17993
▁광경 -17994
▁두껍 -17995
▁등대 -17996
▁라몬 -17997
▁라티 -17998
▁매월 -17999
▁박준 -18000
▁브론 -18001
▁비참 -18002
▁상작 -18003
▁상투 -18004
▁새턴 -18005
▁손책 -18006
▁수류 -18007
▁시경 -18008
▁오딘 -18009
▁제학 -18010
▁코레 -18011
▁COM -18012
▁Min -18013
▁갖가지 -18014
▁돗토리 -18015
▁안중근 -18016
▁조계종 -18017
▁갈릴레이 -18018
▁비지니스 -18019
▁플로이드 -18020
▁고압 -18021
▁단성 -18022
▁마한 -18023
▁베버 -18024
▁북해 -18025
▁소란 -18026
▁적재 -18027
▁태세 -18028
▁팔려 -18029
▁페드 -18030
▁에리크 -18031
▁테이크 -18032
▁1849 -18033
▁서스펜션 -18034
▁깡 -18035
▁퓌 -18036
담회 -18037
렁이 -18038
▁견습 -18039
▁변방 -18040
▁분쇄 -18041
▁분장 -18042
▁제식 -18043
▁틀리 -18044
▁팬아 -18045
▁교토부 -18046
▁북극해 -18047
▁비행대 -18048
▁어리석 -18049
▁취한다 -18050
▁공화주의 -18051
▁비트코인 -18052
▁스탠퍼드 -18053
사회 -18054
섬유 -18055
호프 -18056
▁간염 -18057
▁거액 -18058
▁계투 -18059
▁단호 -18060
▁담론 -18061
▁디온 -18062
▁바덴 -18063
▁반열 -18064
▁비크 -18065
▁시주 -18066
▁역습 -18067
▁오기 -18068
▁인피 -18069
▁추궁 -18070
▁트러 -18071
▁페가 -18072
▁해일 -18073
▁헤엄 -18074
직할시 -18075
▁430 -18076
▁건국대 -18077
▁교직원 -18078
▁데포르 -18079
▁언젠가 -18080
▁잇따라 -18081
▁찬드라 -18082
▁초대칭 -18083
▁파출소 -18084
▁하이든 -18085
▁1856 -18086
▁오브젝트 -18087
▁페더레이션 -18088
28 -18089
HD -18090
▁럴 -18091
탐정 -18092
▁남로 -18093
▁낯선 -18094
▁만국 -18095
▁배설 -18096
▁본디 -18097
▁수배 -18098
▁신작 -18099
▁으론 -18100
▁이안 -18101
▁쟁점 -18102
▁파격 -18103
▁현령 -18104
▁화전 -18105
▁효능 -18106
▁구청장 -18107
▁나가노 -18108
▁쓰여져 -18109
▁델라웨어 -18110
▁쥔 -18111
누아 -18112
호르 -18113
▁국면 -18114
▁김문 -18115
▁낙랑 -18116
▁대세 -18117
▁모기 -18118
▁봉작 -18119
▁심슨 -18120
▁우동 -18121
▁웨일 -18122
▁윤영 -18123
▁태워 -18124
▁후백 -18125
atch -18126
▁Top -18127
▁아가씨 -18128
▁노동자당 -18129
▁네덜란드어 -18130
러기 -18131
려야 -18132
리가 -18133
오린 -18134
정권 -18135
체어 -18136
▁PP -18137
▁반려 -18138
▁벽면 -18139
▁연임 -18140
▁적성 -18141
▁치수 -18142
타니아 -18143
▁세운다 -18144
▁식물원 -18145
▁장택상 -18146
▁투데이 -18147
▁해럴드 -18148
베이거스 -18149
▁1851 -18150
▁캐나다인 -18151
▁크레이그 -18152
▁하이웨이 -18153
23 -18154
개혁 -18155
케스 -18156
▁간장 -18157
▁낙엽 -18158
▁도독 -18159
▁마자 -18160
▁메사 -18161
▁쌓여 -18162
▁알비 -18163
▁요아 -18164
▁유장 -18165
리어스 -18166
▁419 -18167
▁공사관 -18168
▁다이나 -18169
▁집어넣 -18170
▁빠져나가 -18171
▁캔자스시티 -18172
▁라스베이거스 -18173
OU -18174
▁녜 -18175
▁결탁 -18176
▁계란 -18177
▁드니 -18178
▁밀스 -18179
▁볼륨 -18180
▁빌미 -18181
▁셔먼 -18182
▁촌은 -18183
▁친절 -18184
▁한서 -18185
▁한참 -18186
▁감염자 -18187
▁다닌다 -18188
▁레인보 -18189
▁바란다 -18190
▁일간지 -18191
▁입출력 -18192
▁참모장 -18193
▁하동군 -18194
츠부르크 -18195
▁블레이드 -18196
▁사보이아 -18197
▁상파울루 -18198
▁차량기지 -18199
▁크리에이티브 -18200
▁힉 -18201
니크 -18202
전기 -18203
▁서천 -18204
▁수서 -18205
▁외동 -18206
▁원성 -18207
▁잊혀 -18208
▁정시 -18209
▁착안 -18210
▁타고 -18211
▁헐리 -18212
트로피 -18213
▁FBI -18214
▁대주주 -18215
▁디스코 -18216
▁벤피카 -18217
▁보르도 -18218
▁수수료 -18219
▁시부야 -18220
▁프란시스 -18221
처리 -18222
ery -18223
▁경색 -18224
▁단사 -18225
▁발송 -18226
▁분개 -18227
▁상체 -18228
▁생가 -18229
▁액수 -18230
▁어기 -18231
▁언약 -18232
▁인테 -18233
▁포구 -18234
▁현명 -18235
▁Med -18236
▁기념식 -18237
▁노스케 -18238
▁레이어 -18239
▁상세히 -18240
▁서북쪽 -18241
▁시흥시 -18242
▁오비탈 -18243
▁진보당 -18244
▁행정관 -18245
▁휠체어 -18246
▁Will -18247
▁스티븐스 -18248
▁오하이오주 -18249
86 -18250
바꿈 -18251
왕국 -18252
하늘 -18253
▁대광 -18254
▁랜디 -18255
▁명주 -18256
▁쇼팽 -18257
▁아모 -18258
▁여생 -18259
▁욕설 -18260
▁주경 -18261
▁히다 -18262
고양이 -18263
▁애벌레 -18264
▁쫓아내 -18265
▁캥거루 -18266
▁핵폭탄 -18267
▁1855 -18268
▁1857 -18269
▁정사각형 -18270
▁폴란드인 -18271
▁민족주의자 -18272
깨비 -18273
버거 -18274
일라 -18275
천년 -18276
테른 -18277
투안 -18278
▁TG -18279
▁김한 -18280
▁대열 -18281
▁맛보 -18282
▁무왕 -18283
▁보문 -18284
▁서상 -18285
▁조력 -18286
▁카잔 -18287
▁페티 -18288
cess -18289
▁211 -18290
▁모여서 -18291
▁배트맨 -18292
▁수산물 -18293
▁작사가 -18294
▁갑신정변 -18295
▁다이스케 -18296
▁열렸으며 -18297
봉사 -18298
산읍 -18299
소득 -18300
증권 -18301
카테 -18302
하르 -18303
▁YM -18304
▁권세 -18305
▁미안 -18306
▁비이 -18307
▁성채 -18308
▁재원 -18309
▁캔디 -18310
▁템포 -18311
▁무서운 -18312
▁베르디 -18313
▁변증법 -18314
▁봉사자 -18315
▁웨이트 -18316
▁포브스 -18317
▁반공주의 -18318
▁뛴 -18319
▁까다 -18320
▁몰라 -18321
▁수훈 -18322
▁정년 -18323
▁주치 -18324
▁친목 -18325
▁택지 -18326
▁핵산 -18327
icro -18328
▁Pop -18329
▁구미시 -18330
▁글리코 -18331
▁려다가 -18332
▁제이스 -18333
▁지평선 -18334
▁포천시 -18335
▁들어와서 -18336
▁불렀으며 -18337
▁여러해살이풀 -18338
▁좡 -18339
지대 -18340
▁간파 -18341
▁대적 -18342
▁만다 -18343
▁몰입 -18344
▁살림 -18345
▁소망 -18346
▁신영 -18347
콥스키 -18348
▁223 -18349
▁301 -18350
▁그로스 -18351
▁시우바 -18352
▁저작물 -18353
▁펠로폰 -18354
▁형무소 -18355
▁원내대표 -18356
▁데포르티보 -18357
▁병마절도사 -18358
▁통합진보당 -18359
▁펠로폰네소스 -18360
댄스 -18361
레토 -18362
재기 -18363
▁돌핀 -18364
▁롤리 -18365
▁변장 -18366
▁슬픈 -18367
▁압송 -18368
▁찬스 -18369
▁체첸 -18370
▁폰트 -18371
▁해금 -18372
▁동의어 -18373
▁은하단 -18374
▁카운터 -18375
메니스탄 -18376
▁서아시아 -18377
▁이와테현 -18378
▁투르크메니스탄 -18379
버드 -18380
서구 -18381
연대 -18382
▁버퍼 -18383
▁셀룰 -18384
▁수스 -18385
▁외벽 -18386
▁지병 -18387
▁탄원 -18388
▁팔자 -18389
▁비엔나 -18390
▁스나이 -18391
▁컨디션 -18392
▁헤이스 -18393
흐트 -18394
▁노회 -18395
▁만리 -18396
▁방한 -18397
▁센스 -18398
▁실습 -18399
▁이로 -18400
▁이학 -18401
▁임베 -18402
▁장구 -18403
▁지소 -18404
▁크세 -18405
▁퇴사 -18406
▁나주시 -18407
▁찾아온 -18408
타고라스 -18409
▁가까스로 -18410
▁올랐으나 -18411
▁임베디드 -18412
쇼프 -18413
▁CL -18414
▁급습 -18415
▁도기 -18416
▁문교 -18417
▁버릴 -18418
▁벚꽃 -18419
▁슈바 -18420
▁열반 -18421
▁총알 -18422
▁코민 -18423
▁한도 -18424
▁회부 -18425
▁히나 -18426
레시브 -18427
▁NAD -18428
▁급기야 -18429
▁좋아했 -18430
▁1776 -18431
▁Free -18432
▁엔트로피 -18433
▁클라리넷 -18434
▁프로그레시브 -18435
니엄 -18436
로아 -18437
▁고증 -18438
▁당기 -18439
▁박격 -18440
▁성간 -18441
▁신명 -18442
▁항모 -18443
▁XML -18444
▁다시피 -18445
▁마그마 -18446
▁오카다 -18447
▁핵실험 -18448
day -18449
ont -18450
▁FR -18451
▁IA -18452
▁골목 -18453
▁노다 -18454
▁대흥 -18455
▁레베 -18456
▁알론 -18457
▁원가 -18458
▁원제 -18459
▁율곡 -18460
▁음경 -18461
▁지남 -18462
▁최경 -18463
▁카렐 -18464
▁합체 -18465
궐선거 -18466
시오날 -18467
중국해 -18468
▁가까웠 -18469
▁게이츠 -18470
▁대각선 -18471
▁하이델 -18472
▁나시오날 -18473
▁사카모토 -18474
▁플루오린 -18475
▁재보궐선거 -18476
스탕 -18477
▁과업 -18478
▁구운 -18479
▁버즈 -18480
▁비기 -18481
▁여긴 -18482
▁와트 -18483
▁이공 -18484
▁장타 -18485
▁천명 -18486
▁표했 -18487
▁현청 -18488
▁호가 -18489
▁홀드 -18490
▁화신 -18491
▁다면체 -18492
▁독립국 -18493
▁모티프 -18494
▁바이스 -18495
▁보니파 -18496
▁수송기 -18497
▁원한다 -18498
▁청교도 -18499
▁무라카미 -18500
▁미주리주 -18501
27 -18502
모습 -18503
어내 -18504
▁금광 -18505
▁심신 -18506
▁요네 -18507
▁조식 -18508
▁현생 -18509
▁루터교 -18510
▁비정규 -18511
▁이어질 -18512
▁태평천국 -18513
광선 -18514
▁UR -18515
▁개요 -18516
▁끊이 -18517
▁뇌졸 -18518
▁부총 -18519
▁상시 -18520
▁윤선 -18521
▁잠복 -18522
▁조참 -18523
▁지워 -18524
노벨라 -18525
▁거제시 -18526
▁레너드 -18527
▁병원체 -18528
▁이범석 -18529
▁올랭피크 -18530
▁그레고리력 -18531
▁텔레노벨라 -18532
가야 -18533
평가 -18534
활성 -18535
▁Po -18536
▁국고 -18537
▁누락 -18538
▁라데 -18539
▁사극 -18540
▁성추 -18541
▁중첩 -18542
▁달라이 -18543
▁사모아 -18544
▁새천년 -18545
▁서둘러 -18546
▁아세트 -18547
▁영등포 -18548
▁클라라 -18549
▁국민회의 -18550
볼트 -18551
쿠젠 -18552
aut -18553
▁MW -18554
▁간소 -18555
▁귀납 -18556
▁나나 -18557
▁누각 -18558
▁반가 -18559
▁서던 -18560
▁안다 -18561
▁양손 -18562
▁역행 -18563
▁연좌 -18564
▁입안 -18565
▁직제 -18566
▁체임 -18567
▁케니 -18568
▁퇴화 -18569
▁혹독 -18570
▁가로막 -18571
▁가속기 -18572
▁돌려주 -18573
▁동북쪽 -18574
▁영산회 -18575
▁청구인 -18576
▁출생지 -18577
▁피에트로 -18578
▁레오나르도 -18579
▁캄파니아주 -18580
29 -18581
ma -18582
돼지 -18583
▁계파 -18584
▁땅콩 -18585
▁맞섰 -18586
▁몬트 -18587
▁미움 -18588
▁산탄 -18589
▁영아 -18590
▁준위 -18591
▁파사 -18592
▁표상 -18593
▁Big -18594
▁김종필 -18595
▁마인드 -18596
▁심포니 -18597
▁10000 -18598
▁쉰 -18599
계리 -18600
를린 -18601
마타 -18602
연료 -18603
its -18604
▁CV -18605
▁교복 -18606
▁로로 -18607
▁로미 -18608
▁명지 -18609
▁방수 -18610
▁본기 -18611
▁습성 -18612
▁음란 -18613
▁이연 -18614
▁진안 -18615
▁타현 -18616
메네스 -18617
▁End -18618
▁버려진 -18619
▁서기장 -18620
▁쓰러져 -18621
▁후반부 -18622
▁ne -18623
▁각별 -18624
▁괴팅 -18625
▁기물 -18626
▁미망 -18627
▁미팅 -18628
▁발주 -18629
▁시왕 -18630
▁이족 -18631
▁지단 -18632
▁하쿠 -18633
▁Bro -18634
▁계약금 -18635
▁메이플 -18636
▁베르그 -18637
▁브리트 -18638
▁포위망 -18639
▁묘법연화경 -18640
에리 -18641
저민 -18642
▁감명 -18643
▁로젠 -18644
▁사성 -18645
▁생사 -18646
▁셰이 -18647
▁수잔 -18648
▁시로 -18649
▁처했 -18650
▁편하 -18651
▁포에 -18652
들랜드 -18653
▁DFB -18654
▁del -18655
▁경기력 -18656
▁단기간 -18657
▁베리아 -18658
▁벤저민 -18659
▁샘플링 -18660
▁에인절 -18661
▁팰리스 -18662
▁황도대 -18663
▁조기어류 -18664
▁네브래스카 -18665
개발 -18666
니발 -18667
페리 -18668
oss -18669
▁DL -18670
▁가메 -18671
▁국채 -18672
▁달렸 -18673
▁메콩 -18674
▁반일 -18675
▁세브 -18676
▁어필 -18677
▁청탁 -18678
▁치이 -18679
▁콘월 -18680
▁픽업 -18681
메데스 -18682
▁215 -18683
▁스포르팅 -18684
▁공녀 -18685
▁금화 -18686
▁열광 -18687
▁정량 -18688
▁타가 -18689
▁포즈 -18690
irst -18691
▁논산시 -18692
▁리서치 -18693
▁서남쪽 -18694
▁해설자 -18695
▁돌아온다 -18696
▁미시간주 -18697
▁캔터베리 -18698
슐린 -18699
지않 -18700
▁가인 -18701
▁대양 -18702
▁배영 -18703
▁부이 -18704
▁세가 -18705
▁에나 -18706
▁점하 -18707
▁접착 -18708
▁포탈 -18709
▁퓨전 -18710
▁황보 -18711
▁크리켓 -18712
▁떨어뜨리 -18713
▁코미디언 -18714
BL -18715
급시 -18716
미치 -18717
빼미 -18718
▁개간 -18719
▁노미 -18720
▁라비 -18721
▁로자 -18722
▁린드 -18723
▁마마 -18724
▁밑면 -18725
▁우문 -18726
▁장보 -18727
▁주둥 -18728
▁즐겁 -18729
▁청화 -18730
▁권력자 -18731
▁문화사 -18732
▁미카사 -18733
▁부제학 -18734
▁특공대 -18735
▁프리랜 -18736
▁포레스트 -18737
▁플레이트 -18738
하워 -18739
▁낭독 -18740
▁녀석 -18741
▁노먼 -18742
▁니즘 -18743
▁독감 -18744
▁실드 -18745
▁어진 -18746
▁요세 -18747
▁위아 -18748
▁정철 -18749
▁제반 -18750
▁틈새 -18751
파트라 -18752
▁계약서 -18753
▁Mnet -18754
▁begin -18755
▁아이젠하워 -18756
▁클레오파트라 -18757
▁WH -18758
▁감히 -18759
▁돼서 -18760
▁살상 -18761
▁서드 -18762
▁약정 -18763
▁욕심 -18764
▁원화 -18765
▁위드 -18766
▁정약 -18767
▁촌락 -18768
▁코다 -18769
▁패주 -18770
▁한방 -18771
▁239 -18772
▁브레인 -18773
▁서로마 -18774
▁엑스선 -18775
▁월리스 -18776
▁전년도 -18777
▁언더그라운드 -18778
HS -18779
br -18780
▁젬 -18781
▁큼 -18782
연의 -18783
코바 -18784
▁경치 -18785
▁다의 -18786
▁브롱 -18787
▁서킷 -18788
▁연천 -18789
▁우메 -18790
▁유즈 -18791
▁전갈 -18792
▁징후 -18793
▁추석 -18794
▁쿠페 -18795
▁향리 -18796
▁호치 -18797
더니즘 -18798
▁구석기 -18799
▁목걸이 -18800
▁부활절 -18801
▁사생아 -18802
▁수메르 -18803
▁특이점 -18804
▁1792 -18805
▁사다하루 -18806
▁내쫓 -18807
▁래스 -18808
▁루소 -18809
▁루아 -18810
▁시동 -18811
▁아그 -18812
▁우랄 -18813
▁정파 -18814
▁주어 -18815
▁질레 -18816
▁쿠키 -18817
▁Des -18818
▁기장군 -18819
▁보호자 -18820
▁유니온 -18821
▁LIVE -18822
▁소선거구 -18823
▁인테리어 -18824
▁HK -18825
▁경수 -18826
▁대검 -18827
▁딸린 -18828
▁비슈 -18829
▁세관 -18830
▁시료 -18831
▁시암 -18832
▁시판 -18833
▁창안 -18834
▁칸타 -18835
▁픽션 -18836
▁510 -18837
▁BMW -18838
▁사중주 -18839
▁앞장섰 -18840
▁프로토타입 -18841
노동 -18842
보스 -18843
aff -18844
▁KC -18845
▁덤불 -18846
▁명절 -18847
▁영연 -18848
▁유실 -18849
▁종택 -18850
▁커트 -18851
▁트인 -18852
▁틀림 -18853
▁평년 -18854
▁함안 -18855
덜랜드 -18856
▁에버턴 -18857
▁외삼촌 -18858
▁재정난 -18859
▁정말로 -18860
▁퍼펙트 -18861
▁한마디 -18862
▁Rain -18863
▁경향신문 -18864
▁권위주의 -18865
▁동대문구 -18866
▁모하메드 -18867
▁뱀파이어 -18868
▁아틀라스 -18869
▁프라이스 -18870
▁슈퍼주니어 -18871
▁까치 -18872
▁듀크 -18873
▁부원 -18874
▁안상 -18875
[...]
