{"version":"1.0","truncation":null,"padding":null,"added_tokens":[{"id":0,"special":true,"content":"[UNK]","single_word":false,"lstrip":false,"rstrip":false,"normalized":false},{"id":1,"special":true,"content":"[CLS]","single_word":false,"lstrip":false,"rstrip":false,"normalized":false},{"id":2,"special":true,"content":"[SEP]","single_word":false,"lstrip":false,"rstrip":false,"normalized":false},{"id":3,"special":true,"content":"[PAD]","single_word":false,"lstrip":false,"rstrip":false,"normalized":false},{"id":4,"special":true,"content":"[MASK]","single_word":false,"lstrip":false,"rstrip":false,"normalized":false}],"normalizer":{"type":"Sequence","normalizers":[{"type":"StripAccents"}]},"pre_tokenizer":{"type":"WhitespaceSplit"},"post_processor":{"type":"TemplateProcessing","single":[{"SpecialToken":{"id":"[CLS]","type_id":0}},{"Sequence":{"id":"A","type_id":0}},{"SpecialToken":{"id":"[SEP]","type_id":0}}],"pair":[{"SpecialToken":{"id":"[CLS]","type_id":0}},{"Sequence":{"id":"A","type_id":0}},{"SpecialToken":{"id":"[SEP]","type_id":0}},{"Sequence":{"id":"B","type_id":1}},{"SpecialToken":{"id":"[SEP]","type_id":1}}],"special_tokens":{"[CLS]":{"id":"[CLS]","ids":[1],"tokens":["[CLS]"]},"[SEP]":{"id":"[SEP]","ids":[2],"tokens":["[SEP]"]}}},"decoder":null,"model":{"type":"WordPiece","unk_token":"[UNK]","continuing_subword_prefix":"##","max_input_chars_per_word":100,"vocab":{"[UNK]":0,"[CLS]":1,"[SEP]":2,"[PAD]":3,"[MASK]":4,"!":5,"\"":6,"#":7,"$":8,"%":9,"&":10,"'":11,"(":12,")":13,"*":14,"+":15,",":16,"-":17,".":18,"/":19,"0":20,"1":21,"2":22,"3":23,"4":24,"5":25,"6":26,"7":27,"8":28,"9":29,":":30,";":31,"<":32,"=":33,">":34,"?":35,"@":36,"A":37,"B":38,"C":39,"D":40,"E":41,"F":42,"G":43,"H":44,"I":45,"J":46,"K":47,"L":48,"M":49,"N":50,"O":51,"P":52,"Q":53,"R":54,"S":55,"T":56,"U":57,"V":58,"W":59,"X":60,"Y":61,"Z":62,"[":63,"\\":64,"]":65,"^":66,"_":67,"`":68,"a":69,"b":70,"c":71,"d":72,"e":73,"f":74,"g":75,"h":76,"i":77,"j":78,"k":79,"l":80,"m":81,"n":82,"o":83,"p":84,"q":85,"r":86,"s":87,"t":88,"u":89,"v":90,"w":91,"x":92,"y":93,"z":94,"{":95,"|":96,"}":97,"~":98,"":99,"ᄀ":100,"ᄁ":101,"ᄂ":102,"ᄃ":103,"ᄄ":104,"ᄅ":105,"ᄆ":106,"ᄇ":107,"ᄈ":108,"ᄉ":109,"ᄊ":110,"ᄋ":111,"ᄌ":112,"ᄍ":113,"ᄎ":114,"ᄏ":115,"ᄐ":116,"ᄑ":117,"ᄒ":118,"ᅡ":119,"ᅢ":120,"ᅣ":121,"ᅤ":122,"ᅥ":123,"ᅦ":124,"ᅧ":125,"ᅨ":126,"ᅩ":127,"ᅪ":128,"ᅫ":129,"ᅬ":130,"ᅭ":131,"ᅮ":132,"ᅯ":133,"ᅰ":134,"ᅱ":135,"ᅲ":136,"ᅳ":137,"ᅴ":138,"ᅵ":139,"ᆨ":140,"ᆩ":141,"ᆪ":142,"ᆫ":143,"ᆬ":144,"ᆭ":145,"ᆮ":146,"ᆯ":147,"ᆰ":148,"ᆱ":149,"ᆲ":150,"ᆳ":151,"ᆴ":152,"ᆵ":153,"ᆶ":154,"ᆷ":155,"ᆸ":156,"ᆹ":157,"ᆺ":158,"ᆻ":159,"ᆼ":160,"ᆽ":161,"ᆾ":162,"ᆿ":163,"ᇀ":164,"ᇁ":165,"ᇂ":166,"ㄱ":167,"ㄲ":168,"ㄳ":169,"ㄴ":170,"ㄵ":171,"ㄶ":172,"ㄷ":173,"ㄸ":174,"ㄹ":175,"ㄺ":176,"ㄻ":177,"ㄼ":178,"ㄽ":179,"ㄾ":180,"ㄿ":181,"ㅀ":182,"ㅁ":183,"ㅂ":184,"ㅃ":185,"ㅄ":186,"ㅅ":187,"ㅆ":188,"ㅇ":189,"ㅈ":190,"ㅉ":191,"ㅊ":192,"ㅋ":193,"ㅌ":194,"ㅍ":195,"ㅎ":196,"ㅏ":197,"ㅐ":198,"ㅑ":199,"ㅒ":200,"ㅓ":201,"ㅔ":202,"ㅕ":203,"ㅖ":204,"ㅗ":205,"ㅘ":206,"ㅙ":207,"ㅚ":208,"ㅛ":209,"ㅜ":210,"ㅝ":211,"ㅞ":212,"ㅟ":213,"ㅠ":214,"ㅡ":215,"ㅢ":216,"ㅣ":217,"##ᄃ":218,"##ᅦ":219,"##ᆫ":220,"##ᄏ":221,"##ᅡ":222,"##'":223,"##ᄅ":224,"##ᄂ":225,"##ᅳ":226,"##ᅩ":227,"##ᆼ":228,"##ᄀ":229,"##ᄋ":230,"##ᅯ":231,"##ᆯ":232,"##ᅧ":233,"##ᅵ":234,"##ᅮ":235,"##ᅥ":236,"##ᄒ":237,"##ᆺ":238,"##ᄆ":239,"##ᄐ":240,"##ᄑ":241,"##ᄉ":242,"##ᅪ":243,"##ᄌ":244,"##ᆻ":245,"##ᅴ":246,"##ᆸ":247,"##ᄎ":248,"##ᆷ":249,"##ᅢ":250,"##ᅲ":251,"##ᆨ":252,"##ᄇ":253,"##ᅨ":254,"##ᅣ":255,"##0":256,"##6":257,"##.":258,"##1":259,"##-":260,"##ᅰ":261,"##+":262,"##ᄈ":263,"##s":264,"##A":265,"##ᄁ":266,"##ᆹ":267,"##ᅭ":268,"##ᄊ":269,"##ᅬ":270,"##m":271,"##,":272,"##/":273,"##8":274,"##7":275,"##5":276,"##2":277,"##3":278,"##a":279,"##l":280,"##i":281,"##f":282,"##r":283,"##c":284,"##t":285,"##u":286,"##p":287,"##:":288,"##w":289,"##b":290,"##o":291,"##U":292,"##F":293,"##S":294,"##h":295,"##e":296,"##D":297,"##y":298,"##4":299,"##g":300,"##d":301,"##x":302,"##n":303,"##T":304,"##ᅱ":305,"##ᅫ":306,"##H":307,"##M":308,"##P":309,"##[":310,"##*":311,"##%":312,"##ᆭ":313,"##v":314,"##9":315,"##]":316,"##\"":317,"##_":318,"##ᄍ":319,"##&":320,"##;":321,"##?":322,"##k":323,"##O":324,"##ᇂ":325,"##ㅛ":326,"##ㅊ":327,"##!":328,"##ᇀ":329,"##~":330,"##ᆩ":331,"##B":332,"##ᆾ":333,"##N":334,"##G":335,"##ᆱ":336,"##C":337,"##ᆮ":338,"##ᇁ":339,"##ᆽ":340,"##(":341,"##)":342,"##L":343,"##z":344,"##ᄄ":345,"##R":346,"##I":347,"##K":348,"##E":349,"###":350,"##ᅤ":351,"##V":352,"##q":353,"##ㄴ":354,"##X":355,"##Y":356,"##ᆰ":357,"##W":358,"##Q":359,"##=":360,"##j":361,"##ㅈ":362,"##\\":363,"##ᆶ":364,"##>":365,"##Z":366,"##ᆴ":367,"##ᆿ":368,"##ㅋ":369,"##ㄱ":370,"##ㅇ":371,"##ㅅ":372,"##ㅂ":373,"##ㅌ":374,"##ㅁ":375,"##@":376,"##ᆲ":377,"##|":378,"##J":379,"##`":380,"##}":381,"##{":382,"##ㄹ":383,"##ᆳ":384,"##$":385,"##ㅃ":386,"##ᆵ":387,"##^":388,"##ㅎ":389,"##ㄷ":390,"##<":391,"##ᆬ":392,"##ㅠ":393,"##ㅔ":394,"##ㄺ":395,"##ㅗ":396,"##ㅡ":397,"##ㅣ":398,"##ㅞ":399,"##ㅀ":400,"##ㄵ":401,"##ㅝ":402,"##ㄻ":403,"##ㅏ":404,"##ㅘ":405,"##ㅐ":406,"##ㅙ":407,"##ㄽ":408,"##ㅍ":409,"##ㅑ":410,"##ㅆ":411,"##ㄸ":412,"##ㅒ":413,"##ㅓ":414,"##ㅄ":415,"##ᆪ":416,"##ㄲ":417,"##ㅕ":418,"##ㄼ":419,"##ㅖ":420,"##ㅜ":421,"##ㅢ":422,"##ㅚ":423,"##ㄾ":424,"##ㄿ":425,"##ㅟ":426,"##ㅉ":427,"##ㄳ":428,"##ㄶ":429,"##":430,"##이":431,"##ᅳᆫ":432,"##ᅳᆯ":433,"##ᅡᆫ":434,"##다":435,"##는":436,"##에":437,"이":438,"##다.":439,"##로":440,"##ᅡᆼ":441,"##ᅥᆫ":442,"##의":443,"##하":444,"##지":445,"##을":446,"##ᅧᆫ":447,"##가":448,"##서":449,"##고":450,"##어":451,"##도":452,"##리":453,"##ᅮᆫ":454,"##시":455,"##ᅧᆼ":456,"##으":457,"##ᅡᆯ":458,"##기":459,"##를":460,"##은":461,"##라":462,"##스":463,"##한":464,"##해":465,"##저":466,"##ᅩᆼ":467,"##ᆻ다.":468,"##ᅮᆯ":469,"아":470,"시":471,"##인":472,"##ᅧᆨ":473,"##나":474,"##ᅩᆨ":475,"그":476,"##자":477,"##게":478,"가":479,"##으로":480,"##에서":481,"##아":482,"하":483,"##ᅩᆫ":484,"사":485,"##과":486,"저":487,"##ᅳᆼ":488,"##들":489,"##ᅮᆨ":490,"거":491,"##면":492,"지":493,"##만":494,"어":495,"마":496,"##워":497,"##ᅮᆼ":498,"##니":499,"##되":500,"있":501,"수":502,"자":503,"##대":504,"##사":505,"##드":506,"##와":507,"기":508,"나":509,"##여":510,"대":511,"##트":512,"##러":513,"##장":514,"##화":515,"##요":516,"모":517,"##ᅢᆼ":518,"다":519,"보":520,"##ᅦ이":521,"##년":522,"##치":523,"##우":524,"한":525,"서":526,"전":527,"##미":528,"바":529,"##부":530,"##수":531,"##야":532,"##전":533,"##며":534,"##르":535,"##그":536,"##정":537,"##적":538,"것":539,"##일":540,"##상":541,"##마":542,"##버":543,"##ᅧᆯ":544,"##ᅩᆯ":545,"##터":546,"##데":547,"##성":548,"되":549,"##려":550,"##주":551,"##하는":552,"미":553,"정":554,"20":555,"##거":556,"일":557,"유":558,"해":559,"##국":560,"##용":561,"##지만":562,"##제":563,"조":564,"##ᅢᆨ":565,"##이다.":566,"스":567,"상":568,"##히":569,"##신":570,"때":571,"##력":572,"공":573,"##보":574,"##구":575,"부":576,"비":577,"##키":578,"있다.":579,"##타":580,"##문":581,"주":582,"제":583,"경":584,"##었":585,"##원":586,"##래":587,"##동":588,"중":589,"오":590,"화":591,"인":592,"##었다.":593,"##오":594,"##ᅣᆼ":595,"##간":596,"##진":597,"없":598,"##비":599,"##격":600,"위":601,"무":602,"##ᆷ을":603,"##ᅯᆫ":604,"##ᅥᆯ":605,"##명":606,"##월":607,"않":608,"등":609,"##에게":610,"차":611,"과":612,"소":613,"##위":614,"##던":615,"여":616,"고":617,"##하고":618,"##ᅳᆨ":619,"##차":620,"##할":621,"##ᆷ이":622,"##유":623,"##선":624,"##까":625,"##크":626,"##티":627,"##바":628,"##회":629,"##세":630,"##소":631,"201":632,"노":633,"##된":634,"##하여":635,"##했":636,"##체":637,"##계":638,"##당":639,"##무":640,"##레":641,"내":642,"만":643,"##작":644,"##00":645,"##한다.":646,"##카":647,"있는":648,"세":649,"피":650,"##처":651,"##내":652,"도":653,"##공":654,"방":655,"##학":656,"동":657,"성":658,"구":659,"더":660,"영":661,"후":662,"타":663,"##고,":664,"선":665,"연":666,"##단":667,"##다는":668,"##재":669,"##식":670,"##루":671,"발":672,"##후":673,"##조":674,"##운":675,"말":676,"##이라":677,"##다고":678,"##즈":679,"##교":680,"신":681,"에":682,"안":683,"장":684,"##실":685,"##분":686,"##했다.":687,"생":688,"##피":689,"##프":690,"버":691,"개":692,"##디":693,"우":694,"##중":695,"의":696,"##..":697,"##모":698,"##른":699,"##행":700,"때문":701,"##개":702,"##역":703,"##물":704,"처":705,"##까지":706,"카":707,"최":708,"##속":709,"##하게":710,"19":711,"##에는":712,"##음":713,"##능":714,"##토":715,"드":716,"적":717,"아니":718,"##군":719,"##져":720,"##들이":721,"##면서":722,"와":723,"치":724,"불":725,"##호":726,"##린":727,"##는데":728,"##반":729,"요":730,"##노":731,"##생":732,"리":733,"##연":734,"파":735,"강":736,"진":737,"당":738,"실":739,"##며,":740,"문":741,"많":742,"##산":743,"##테":744,"##ᅢᆫ":745,"결":746,"같":747,"##더":748,"원":749,"##경":750,"##류":751,"##관":752,"알":753,"포":754,"##본":755,"한다.":756,"특":757,"##에서는":758,"##안":759,"관":760,"##방":761,"반":762,"##각":763,"##코":764,"##ᅳ로":765,"##적으로":766,"##레이":767,"##록":768,"##번":769,"##급":770,"경우":771,"들":772,"##준":773,"작":774,"너":775,"매":776,"때문에":777,"된":778,"야":779,"히":780,"##영":781,"##건":782,"역":783,"배":784,"##습":785,"따":786,"단":787,"##민":788,"추":789,"라":790,"사라":791,"##태":792,"받":793,"사용":794,"##든":795,"##베":796,"##파":797,"##두":798,"남":799,"##적인":800,"##런":801,"##점":802,"##발":803,"출":804,"##부터":805,"그러":806,"##ᆯ리":807,"이후":808,"##법":809,"##형":810,"현":811,"그리":812,"데":813,"##종":814,"자신":815,"##하기":816,"##포":817,"못":818,"공격":819,"##해서":820,"물":821,"##승":822,"또":823,"본":824,"##난":825,"코":826,"국":827,"##업":828,"##통":829,"##판":830,"##브":831,"##란":832,"예":833,"초":834,"10":835,"메":836,"레":837,"##ᆨ을":838,"##라는":839,"좋":840,"계":841,"##라고":842,"통":843,"##온":844,"##스트":845,"##ᆷ은":846,"##머":847,"두":848,"호":849,"재":850,"##대로":851,"##양":852,"##론":853,"달":854,"감":855,"##술":856,"##투":857,"입":858,"로":859,"함":860,"건":861,"회":862,"##네":863,"##ᆷ의":864,"##다가":865,"##녀":866,"분":867,"캐":868,"애":869,"##입":870,"##ᆻ으":871,"##하면":872,"##료":873,"머":874,"패":875,"##들은":876,"##너":877,"명":878,"##션":879,"다른":880,"교":881,"##지만,":882,"김":883,"##ᆯ이":884,"##직":885,"정도":886,"##초":887,"참":888,"##표":889,"##권":890,"##되었다.":891,"##들을":892,"##랑":893,"외":894,"##합":895,"크":896,"편":897,"평":898,"올":899,"##족":900,"##금":901,"##량":902,"##ᅳᆷ":903,"##매":904,"##기도":905,"##지는":906,"##에도":907,"게이":908,"설":909,"쓰":910,"할":911,"죽":912,"##들의":913,"대한":914,"것이":915,"티":916,"##ᆷ으로":917,"##기에":918,"등장":919,"##혀":920,"뒤":921,"##하다.":922,"돌":923,"##기를":924,"플":925,"200":926,"##ᆯ을":927,"##았":928,"그리고":929,"##배":930,"##츠":931,"##출":932,"##푸":933,"디":934,"속":935,"된다.":936,"잘":937,"##하지":938,"##울":939,"##되어":940,"##이나":941,"##현":942,"##등":943,"확":944,"가능":945,"##청":946,"##령":947,"##황":948,"직":949,"아이":950,"종":951,"##병":952,"같은":953,"##메":954,"##복":955,"##석":956,"들어":957,"맞":958,"##er":959,"##천":960,"##것":961,"하나":962,"##언":963,"변":964,"##릭":965,"하는":966,"이르":967,"##리는":968,"##편":969,"게":970,"사실":971,"키":972,"살":973,"##겨":974,"##께":975,"하지만":976,"##외":977,"##련":978,"12":979,"##때":980,"승":981,"끄":982,"##향":983,"심":984,"##망":985,"걸":986,"##커":987,"학":988,"프":989,"있으":990,"토":991,"체":992,"운":993,"높":994,"##환":995,"시작":996,"##하였다.":997,"##는데,":998,"##허":999,"##설":1000,"##ᆷ에":1001,"##거나":1002,"필":1003,"모습":1004,"일본":1005,"행":1006,"##약":1007,"##스터":1008,"활":1009,"목":1010,"번":1011,"함께":1012,"##케":1013,"##보다":1014,"##질":1015,"##쿠":1016,"점":1017,"베":1018,"박":1019,"약":1020,"채":1021,"##강":1022,"##럼":1023,"##절":1024,"각":1025,"##는다.":1026,"언":1027,"한국":1028,"양":1029,"커":1030,"트":1031,"##페":1032,"##리를":1033,"##살":1034,"##...":1035,"간":1036,"##씨":1037,"##목":1038,"##였":1039,"사이":1040,"존":1041,"있었":1042,"##말":1043,"##송":1044,"##in":1045,"##기가":1046,"11":1047,"##있":1048,"위해":1049,"##았다.":1050,"날":1051,"##된다.":1052,"표":1053,"##다면":1054,"나오":1055,"것을":1056,"##독":1057,"이상":1058,"생각":1059,"만들":1060,"##라이":1061,"##어서":1062,"테":1063,"##되는":1064,"군":1065,"##쳐":1066,"독":1067,"사람":1068,"##즌":1069,"했":1070,"프로":1071,"증":1072,"문제":1073,"투":1074,"순":1075,"##하며":1076,"또한":1077,"새":1078,"##쪽":1079,"##결":1080,"##탄":1081,"워":1082,"열":1083,"##니다.":1084,"##퍼":1085,"##시키":1086,"##임":1087,"집":1088,"따라":1089,"##학교":1090,"##색":1091,"##이라고":1092,"손":1093,"총":1094,"끝":1095,"완":1096,"가장":1097,"##되었":1098,"##이라는":1099,"##심":1100,"##력을":1101,"##집":1102,"태":1103,"다시":1104,"형":1105,"##막":1106,"##패":1107,"##였다.":1108,"잡":1109,"클":1110,"##에서도":1111,"##째":1112,"효":1113,"##왕":1114,"##예":1115,"당시":1116,"##립":1117,"##리가":1118,"##릭터":1119,"근":1120,"##근":1121,"##on":1122,"판":1123,"##지를":1124,"##함":1125,"및":1126,"되었다.":1127,"##처럼":1128,"##긴":1129,"없는":1130,"음":1131,"##글":1132,"##ᇂ게":1133,"##력이":1134,"왕":1135,"캐릭터":1136,"모두":1137,"##데,":1138,"싸":1139,"##항":1140,"##락":1141,"##0년":1142,"##ᅥᆯ어":1143,"상대":1144,"플레이":1145,"용":1146,"막":1147,"볼":1148,"15":1149,"폭":1150,"능":1151,"##기는":1152,"항":1153,"난":1154,"##악":1155,"없다.":1156,"상황":1157,"##곡":1158,"##날":1159,"스키":1160,"##an":1161,"별":1162,"모든":1163,"빠":1164,"##or":1165,"##ᆺ이":1166,"루":1167,"##별":1168,"결국":1169,"복":1170,"추가":1171,"##지고":1172,"것이다.":1173,"##8년":1174,"##ᆯ로":1175,"시간":1176,"##규":1177,"했다.":1178,"느":1179,"것으로":1180,"네":1181,"##스의":1182,"친":1183,"##쟁":1184,"보여":1185,"##ᆸ게":1186,"충":1187,"앞":1188,"광":1189,"##남":1190,"##느":1191,"##자가":1192,"현재":1193,"##달":1194,"그래":1195,"##9년":1196,"상태":1197,"자신의":1198,"게임":1199,"많이":1200,"##이었":1201,"것은":1202,"##받":1203,"##켜":1204,"##플":1205,"합":1206,"삼":1207,"##끼":1208,"##하면서":1209,"##어나":1210,"그러나":1211,"다만":1212,"##냥":1213,"존재":1214,"##존":1215,"임":1216,"##7년":1217,"블":1218,"허":1219,"##택":1220,"##접":1221,"##리즈":1222,"##냐":1223,"그런":1224,"##벨":1225,"##스를":1226,"##겠":1227,"보면":1228,"시즌":1229,"천":1230,"큰":1231,"넘":1232,"##없":1233,"전투":1234,"18":1235,"미국":1236,"눈":1237,"##스가":1238,"브":1239,"##이는":1240,"병":1241,"첫":1242,"누":1243,"##탈":1244,"다음":1245,"준":1246,"산":1247,"##6년":1248,"얼":1249,"##견":1250,"페":1251,"매우":1252,"##ar":1253,"##성이":1254,"##리아":1255,"카드":1256,"많은":1257,"##블":1258,"##.1":1259,"선수":1260,"악":1261,"199":1262,"세계":1263,"금":1264,"헤":1265,"##엔":1266,"먹":1267,"효과":1268,"듯":1269,"##나,":1270,"취":1271,"##턴":1272,"##틀":1273,"##추":1274,"##박":1275,"##랜":1276,"##험":1277,"##들에게":1278,"얻":1279,"줄":1280,"##므로":1281,"##5년":1282,"##he":1283,"##ᆺ을":1284,"##지가":1285,"나온":1286,"##득":1287,"상당":1288,"라이":1289,"##.0":1290,"##at":1291,"백":1292,"##인이":1293,"경기":1294,"이러":1295,"찾":1296,"이유":1297,"슈":1298,"민":1299,"##품":1300,"바ᄁ":1301,"##광":1302,"물론":1303,"아니라":1304,"##ᆯ러":1305,"않는":1306,"이용":1307,"##창":1308,"식":1309,"##순":1310,"지역":1311,"##친":1312,"##널":1313,"##감":1314,"여러":1315,"있었다.":1316,"##가는":1317,"황":1318,"16":1319,"##으면":1320,"기록":1321,"쉬":1322,"##짜":1323,"북":1324,"하고":1325,"엄":1326,"##림":1327,"##4년":1328,"아닌":1329,"어ᄄ":1330,"##사를":1331,"괴":1332,"처음":1333,"돌아":1334,"극":1335,"니":1336,"실제":1337,"##가지":1338,"##인다.":1339,"이런":1340,"##변":1341,"자체":1342,"갈":1343,"겨":1344,"떠":1345,"##-1":1346,"필요":1347,"##불":1348,"##백":1349,"##으며":1350,"##들과":1351,"업":1352,"온":1353,"##000":1354,"##열":1355,"일반":1356,"은":1357,"시리즈":1358,"##부분":1359,"창":1360,"이미":1361,"##ᆫ트":1362,"바로":1363,"13":1364,"절":1365,"##하자":1366,"##범":1367,"##슬":1368,"터":1369,"##철":1370,"청":1371,"##름":1372,"거의":1373,"역시":1374,"##졌다.":1375,"##en":1376,"##애":1377,"##사가":1378,"팬":1379,"되어":1380,"해당":1381,"##착":1382,"피해":1383,"##상을":1384,"##칭":1385,"##라도":1386,"##인지":1387,"특히":1388,"모습을":1389,"기술":1390,"레이":1391,"##시아":1392,"##리고":1393,"영화":1394,"30":1395,"주인":1396,"##ᆯ드":1397,"##도가":1398,"##찬":1399,"##이고":1400,"14":1401,"##괴":1402,"##주의":1403,"기본":1404,"탈":1405,"##ou":1406,"##진다.":1407,"즉":1408,"마법":1409,"팀":1410,"나와":1411,"철":1412,"##혼":1413,"통해":1414,"붙":1415,"관련":1416,"진행":1417,"혼":1418,"##례":1419,"##맨":1420,"아무":1421,"이야":1422,"##기로":1423,"##찰":1424,"골":1425,"##장을":1426,"엔":1427,"##3년":1428,"##ᆫ다.":1429,"떨어":1430,"##어가":1431,"같이":1432,"17":1433,"마지":1434,"##스는":1435,"수도":1436,"##2년":1437,"뜨":1438,"##릴":1439,"올라":1440,"둘":1441,"유니":1442,"힘":1443,"귀":1444,"며":1445,"##희":1446,"곡":1447,"##올":1448,"스킬":1449,"##했던":1450,"##극":1451,"##성을":1452,"권":1453,"밝":1454,"##ᆸ을":1455,"##국의":1456,"##몬":1457,"좋은":1458,"##거리":1459,"좀":1460,"쿠":1461,"##육":1462,"위치":1463,"몰":1464,"제작":1465,"방송":1466,"##졌":1467,"##으며,":1468,"##al":1469,"##st":1470,"##클":1471,"##평":1472,"##해야":1473,"대부분":1474,"되었":1475,"환":1476,"##증":1477,"##에선":1478,"부분":1479,"사건":1480,"##주는":1481,"##징":1482,"어려":1483,"##로는":1484,"스타":1485,"##아서":1486,"범":1487,"잠":1488,"찌":1489,"계속":1490,"##같":1491,"마지막":1492,"탄":1493,"비스":1494,"##1년":1495,"##ᆺ한":1496,"증가":1497,"##20":1498,"참고":1499,"##린다.":1500,"##ᆨ스":1501,"##슨":1502,"##활":1503,"##리에":1504,"##축":1505,"##응":1506,"일부":1507,"않고":1508,"몇":1509,"##걸":1510,"방어":1511,"달리":1512,"인간":1513,"##귀":1514,"싶":1515,"접":1516,"##북":1517,"되는":1518,"있어":1519,"만들어":1520,"맡":1521,"검":1522,"주인공":1523,"##리스":1524,"##돌":1525,"보고":1526,"내용":1527,"##전히":1528,"서울":1529,"밀":1530,"있을":1531,"##하고,":1532,"않은":1533,"뿐":1534,"꼬":1535,"활동":1536,"능력":1537,"가지고":1538,"##큼":1539,"축":1540,"##ᆷ버":1541,"까":1542,"##르는":1543,"그냥":1544,"##시간":1545,"##쉬":1546,"##담":1547,"이전":1548,"##시에":1549,"보이":1550,"##로,":1551,"국가":1552,"어느":1553,"풀":1554,"##장이":1555,"##놓":1556,"##럽":1557,"인해":1558,"100":1559,"##정을":1560,"곳":1561,"##링":1562,"##책":1563,"성공":1564,"그의":1565,"정도로":1566,"##re":1567,"대신":1568,"##드는":1569,"이를":1570,"##.2":1571,"담":1572,"수준":1573,"##리어":1574,"##dd":1575,"##인의":1576,"타이":1577,"##랴":1578,"낮":1579,"대해":1580,"법":1581,"##자를":1582,"##갈":1583,"혀":1584,"##층":1585,"퍼":1586,"러":1587,"뛰":1588,"##ᆨ이":1589,"25":1590,"##으나":1591,"##트를":1592,"새로":1593,"##메이":1594,"##도록":1595,"상당히":1596,"##볼":1597,"##굴":1598,"격":1599,"##수가":1600,"##le":1601,"##봉":1602,"##자의":1603,"##총":1604,"암":1605,"받아":1606,"그녀":1607,"않는다.":1608,"써":1609,"대표":1610,"##ᆻ으나":1611,"보인다.":1612,"##렸":1613,"높은":1614,"규":1615,"최대":1616,"##이가":1617,"##10":1618,"##위를":1619,"198":1620,"논":1621,"이동":1622,"##스로":1623,"기준":1624,"##마다":1625,"않았":1626,"##it":1627,"##드를":1628,"여기":1629,"##렸다.":1630,"것.":1631,"##시켜":1632,"##있는":1633,"몬":1634,"##이었다.":1635,"될":1636,"제외":1637,"좋아":1638,"것도":1639,"##되고":1640,"너무":1641,"##누":1642,"##람":1643,"팔":1644,"웨":1645,"그대로":1646,"홍":1647,"인물":1648,"##와의":1649,"덕":1650,"##슈":1651,"나타":1652,"면":1653,"감독":1654,"이는":1655,"##지도":1656,"##ff":1657,"##ᆩ에":1658,"글":1659,"##앙":1660,"##사의":1661,"결과":1662,"중국":1663,"##들도":1664,"의미":1665,"흐":1666,"희":1667,"대한민":1668,"이어":1669,"##려고":1670,"##팅":1671,"없이":1672,"직접":1673,"등의":1674,"스ᄐ":1675,"##트로":1676,"##하였":1677,"##기의":1678,"##수를":1679,"벌":1680,"##길":1681,"##ᆸ이":1682,"##르게":1683,"원래":1684,"전체":1685,"언급":1686,"꾸":1687,"##딩":1688,"##도를":1689,"##측":1690,"스토":1691,"##도로":1692,"##먹":1693,"##정이":1694,"-2":1695,"짜":1696,"##스테":1697,"울":1698,"싸우":1699,"##곤":1700,"##ing":1701,"##이트":1702,"알려":1703,"##폭":1704,"이름":1705,"##리의":1706,"##닝":1707,"##전을":1708,"케":1709,"##ic":1710,"갖":1711,"하다.":1712,"애니":1713,"동안":1714,"레벨":1715,"경우가":1716,"보내":1717,"##.5":1718,"데미":1719,"자신이":1720,"##치는":1721,"##늘":1722,"##자는":1723,"육":1724,"##율":1725,"관계":1726,"##드의":1727,"의해":1728,"있던":1729,"##벌":1730,"소속":1731,"##다!":1732,"##번째":1733,"##대의":1734,"##습니다.":1735,"##일에":1736,"##욱":1737,"나오는":1738,"전쟁":1739,"가까":1740,"##하지만":1741,"멤버":1742,"향":1743,"과거":1744,"유저":1745,"##자.":1746,"던":1747,"슬":1748,"##인데":1749,"##ᆻ을":1750,"##웨":1751,"지원":1752,"이것":1753,"길":1754,"##대를":1755,"문서":1756,"쓸":1757,"선택":1758,"##로서":1759,"2018년":1760,"##확":1761,"##웅":1762,"질":1763,"이에":1764,"##ᆻ으며,":1765,"묘":1766,"푸":1767,"늘":1768,"넣":1769,"뉴":1770,"많다.":1771,"##ᅦ이지":1772,"##이며":1773,"사람이":1774,"발매":1775,"그렇":1776,"##억":1777,"느끼":1778,"포함":1779,"##스타":1780,"##씩":1781,"망":1782,"그는":1783,"##중에":1784,"##하던":1785,"##나가":1786,"##략":1787,"##될":1788,"##렌":1789,"자기":1790,"성우":1791,"봐":1792,"최고":1793,"##캐":1794,"##점이":1795,"몬스터":1796,"엄청":1797,"##없이":1798,"위한":1799,"##등학교":1800,"##손":1801,"50":1802,"##점을":1803,"설명":1804,"##ᆻ던":1805,"평가":1806,"##나는":1807,"깨":1808,"샤":1809,"방법":1810,"21":1811,"크게":1812,"휴":1813,"##컬":1814,"##화를":1815,"바뀌":1816,"출연":1817,"##드가":1818,"##써":1819,"찾아":1820,"먼":1821,"불가":1822,"컨":1823,"##돼":1824,"아버":1825,"##줄":1826,"##풍":1827,"홈":1828,"개발":1829,"유명":1830,"연구":1831,"왜":1832,"##채":1833,"시절":1834,"##과는":1835,"##상이":1836,"##치가":1837,"##찌":1838,"있으며,":1839,"##잡":1840,"##am":1841,"장면":1842,"만든":1843,"##치를":1844,"혹":1845,"##인을":1846,"빼":1847,"2019년":1848,"칼":1849,"##원이":1850,"리그":1851,"밝혀":1852,"##훈":1853,"영향":1854,"12월":1855,"2017년":1856,"사망":1857,"꽤":1858,"##어로":1859,"실제로":1860,"이루":1861,"압":1862,"##되지":1863,"##하기도":1864,"들어가":1865,"발생":1866,"##먼":1867,"7월":1868,"급":1869,"책":1870,"4월":1871,"있다는":1872,"협":1873,"##팀":1874,"초반":1875,"##이자":1876,"##어난":1877,"##리지":1878,"8월":1879,"쪽":1880,"##벽":1881,"이때":1882,"##샤":1883,"말을":1884,"드라":1885,"배우":1886,"##그래":1887,"봉":1888,"##줘":1889,"3월":1890,"5월":1891,"프랑":1892,"우승":1893,"##새":1894,"##센":1895,"9월":1896,"10월":1897,"##ᆻ다고":1898,"22":1899,"##률":1900,"돈":1901,"##효":1902,"갑":1903,"주로":1904,"##밀":1905,"6월":1906,"##머니":1907,"바라":1908,"##랙":1909,"도시":1910,"##준다.":1911,"전부":1912,"2016년":1913,"##es":1914,"##전에서":1915,"공식":1916,"출신":1917,"##명이":1918,"아이테":1919,"24":1920,"무기":1921,"##전에":1922,"제대로":1923,"운영":1924,"##벤트":1925,"만나":1926,"사랑":1927,"##이어":1928,"##덕":1929,"인터":1930,"##ᅦ이스":1931,"##el":1932,"소환":1933,"하지":1934,"놀":1935,"보여주":1936,"자주":1937,"##과의":1938,"##운드":1939,"##이며,":1940,"##트가":1941,"중요":1942,"##식을":1943,"그것":1944,"##하며,":1945,"없었":1946,"##켓":1947,"또는":1948,"최종":1949,"아직":1950,"##음을":1951,"농":1952,"공격력":1953,"1월":1954,"##리그":1955,"##충":1956,"##ᅦ일":1957,"##으로,":1958,"##객":1959,"the":1960,"정보":1961,"놓":1962,"최초":1963,"##명을":1964,"측":1965,"어떠":1966,"##om":1967,"##있다.":1968,"듣":1969,"서로":1970,"##와는":1971,"친구":1972,"##으로는":1973,"참고로":1974,"##에서의":1975,"역할":1976,"##휘":1977,"학생":1978,"적이":1979,"비해":1980,"노래":1981,"않아":1982,"나온다.":1983,"학교":1984,"##일,":1985,"있어서":1986,"강력":1987,"파괴":1988,"##-0":1989,"기존":1990,"##퇴":1991,"이벤트":1992,"##했을":1993,"##ᆯ레":1994,"가진":1995,"공개":1996,"##la":1997,"##적이":1998,"궁":1999,"11월":2000,"여성":2001,"23":2002,"##옥":2003,"비교":2004,"##격을":2005,"아래":2006,"정말":2007,"마찬":2008,"##50":2009,"##획":2010,"##자로":2011,"##였던":2012,"어떤":2013,"##ᆼ크":2014,"##is":2015,"마찬가지":2016,"##뜨":2017,"##듯":2018,"강화":2019,"송":2020,"지나":2021,"해도":2022,"빨":2023,"사회":2024,"끌":2025,"등을":2026,"##리카":2027,"##지의":2028,"당연":2029,"독일":2030,"뽀":2031,"##니까":2032,"변경":2033,"침":2034,"형태":2035,"결정":2036,"##히려":2037,"프리":2038,"##사는":2039,"보통":2040,"##드로":2041,"##명의":2042,"##ᆺ에":2043,"##인은":2044,"유지":2045,"##하려":2046,"##스와":2047,"설정":2048,"##스러":2049,"##나라":2050,"##룡":2051,"살아":2052,"탑":2053,"휘":2054,"조금":2055,"##필":2056,"##ᅯᆯ":2057,"그런데":2058,"마이":2059,"##동안":2060,"때문이다.":2061,"쇼":2062,"##서는":2063,"오히려":2064,"##개의":2065,"2015년":2066,"스페":2067,"##니아":2068,"##수의":2069,"##ᆻ으며":2070,"착":2071,"아니다.":2072,"##지어":2073,"##숙":2074,"##요.":2075,"##했고,":2076,"정신":2077,"##대에":2078,"##오는":2079,"후반":2080,"##킹":2081,"##군의":2082,"##침":2083,"잔":2084,"회복":2085,"##르면":2086,"지금":2087,"찍":2088,"##어도":2089,"##대가":2090,"##하거나":2091,"발견":2092,"##골":2093,"폐":2094,"2월":2095,"##et":2096,"슈퍼":2097,"##물을":2098,"월드":2099,"##픽":2100,"게다가":2101,"알고":2102,"##프트":2103,"##분에":2104,"197":2105,"##는지":2106,"조선":2107,"드래":2108,"##하다":2109,"##나마":2110,"이번":2111,"이러한":2112,"나가":2113,"않았다.":2114,"돼":2115,"유일":2116,"구성":2117,"영상":2118,"##ol":2119,"##원을":2120,"행동":2121,"있다고":2122,"##자인":2123,"40":2124,"있으며":2125,"있는데,":2126,"##어를":2127,"##ion":2128,"##폰":2129,"사실상":2130,"그래서":2131,"##,000":2132,"유닛":2133,"앨":2134,"##nd":2135,"멀":2136,"아예":2137,"모양":2138,"주장":2139,"##했다고":2140,"새로운":2141,"하면":2142,"##회의":2143,"##이를":2144,"일단":2145,"자유":2146,"##30":2147,"##랜드":2148,"여자":2149,"##11":2150,"특수":2151,"##지로":2152,"##-2":2153,"##같은":2154,"##튼":2155,"##염":2156,"이렇게":2157,"##경기":2158,"이제":2159,"승리":2160,"뜻":2161,"부족":2162,"##갑":2163,"드러":2164,"##ᅩᆯ로":2165,"성능":2166,"좌":2167,"노선":2168,"##화가":2169,"##텐":2170,"작품":2171,"##화에서":2172,"등이":2173,"##디오":2174,"동시에":2175,"데이":2176,"##ᅩᆾ":2177,"##이기":2178,"흔":2179,"모데":2180,"주변":2181,"먼저":2182,"비슷한":2183,"심지어":2184,"##라면":2185,"정부":2186,"##ᆷ.":2187,"차지":2188,"##도의":2189,"대한민국":2190,"일이":2191,"윤":2192,"##셔":2193,"##ᅢᆼ크":2194,"##ᆯ라":2195,"없어":2196,"가능하다.":2197,"##협":2198,"버전":2199,"그렇게":2200,"##균":2201,"발동":2202,"씨":2203,"완전히":2204,"같다.":2205,"확인":2206,"수록":2207,"흑":2208,"힘들":2209,"정치":2210,"##ow":2211,"##스티":2212,"##뢰":2213,"##밖에":2214,"그래도":2215,"내려":2216,"##다며":2217,"##상으로":2218,"##스,":2219,"##통령":2220,"난이":2221,"적용":2222,"##검":2223,"방식":2224,"##헤":2225,"##빠":2226,"메이":2227,"##멸":2228,"생산":2229,"##ig":2230,"26":2231,"콘":2232,"잃":2233,"##특":2234,"좋다.":2235,"영웅":2236,"##ed":2237,"보스":2238,"바이":2239,"##il":2240,"28":2241,"##ᆼ글":2242,"##리오":2243,"움":2244,"##보면":2245,"##뷔":2246,"##메이션":2247,"##ᆨ시":2248,"이야기":2249,"도우":2250,"있는데":2251,"녹":2252,"영국":2253,"##스크":2254,"##ᆷ피":2255,"##다\"":2256,"시스테":2257,"2014년":2258,"##구를":2259,"획":2260,"성격":2261,"혹은":2262,"##빈":2263,"한번":2264,"다이":2265,"27":2266,"실패":2267,"##하는데":2268,"어디":2269,"##데이":2270,"전에":2271,"기사":2272,"어떻게":2273,"##만큼":2274,"음악":2275,"전혀":2276,"##간에":2277,"있지만":2278,"자세":2279,"있게":2280,"##도는":2281,"##르고":2282,"##죄":2283,"못한":2284,"패배":2285,"원작":2286,"꺼":2287,"##아내":2288,"우리":2289,"##ac":2290,"##얼":2291,"31":2292,"가지":2293,"##!!":2294,"##궁":2295,"##더라도":2296,"국내":2297,"차량":2298,"##원의":2299,"빛":2300,"굉":2301,"장비":2302,"작푸":2303,"위해서":2304,"감소":2305,"응":2306,"##as":2307,"사진":2308,"스트":2309,"##념":2310,"센":2311,"색":2312,"##대한":2313,"딸":2314,"얼굴":2315,"동일":2316,"때는":2317,"불가능":2318,"##쓰":2319,"있고":2320,"에피":2321,"##지에":2322,"##이지만":2323,"엘":2324,"얼마":2325,"##ve":2326,"##BS":2327,"대통령":2328,"##아가":2329,"##트의":2330,"지속":2331,"가져":2332,"데뷔":2333,"하이":2334,"대학":2335,"체력":2336,"오브":2337,"뽑":2338,"표현":2339,"대회":2340,"참여":2341,"1,":2342,"##밍":2343,"##컵":2344,"##인데,":2345,"##ᆸ다.":2346,"마을":2347,"마음":2348,"##봐":2349,"플레이어":2350,"굉장":2351,"이루어":2352,"출시":2353,"##간다.":2354,"##른다.":2355,"힘을":2356,"##.3":2357,"석":2358,"다니":2359,"##씬":2360,"of":2361,"##보다는":2362,"획득":2363,"##으나,":2364,"##님":2365,"##완":2366,"##탕":2367,"하루":2368,"##혁":2369,"##자,":2370,"다양":2371,"애니메이션":2372,"반응":2373,"풍":2374,"##했고":2375,"뭐":2376,"##장의":2377,"특성":2378,"등장하는":2379,"##뷰":2380,"긴":2381,"##칸":2382,"##힌":2383,"##ᆻ다는":2384,"##압":2385,"액":2386,"196":2387,"##대학교":2388,"졸":2389,"발표":2390,"##체를":2391,"##다'":2392,"##알":2393,"움직":2394,"해서":2395,"숨":2396,"##ᆻ고,":2397,"인정":2398,"견":2399,"정확":2400,"##참":2401,"##ᆭ은":2402,"기능":2403,"자동":2404,"##해도":2405,"##버스":2406,"명칭":2407,"##끔":2408,"오래":2409,"##제가":2410,"바다":2411,"그나마":2412,"담당":2413,"쓰는":2414,"문제가":2415,"따라서":2416,"드래곤":2417,"##맹":2418,"##싸":2419,"역사":2420,"드라마":2421,"있고,":2422,"##렉":2423,"자신을":2424,"프로그래":2425,"진출":2426,"##뉴":2427,"훈":2428,"몸":2429,"상승":2430,"경우도":2431,"덕분에":2432,"##콘":2433,"##취":2434,"이름을":2435,"판매":2436,"##큐":2437,"번째":2438,"작중":2439,"##웃":2440,"##룹":2441,"남자":2442,"사용하는":2443,"대체":2444,"##지,":2445,"쓴":2446,"##약을":2447,"##상의":2448,"##조차":2449,"##혹":2450,"월":2451,"##어버":2452,"받은":2453,"##수는":2454,"아마":2455,"있기":2456,"##었던":2457,"##문을":2458,"요구":2459,"특징":2460,"수비":2461,"##삼":2462,"설치":2463,"공격을":2464,"퇴":2465,"경찰":2466,"선발":2467,"##탁":2468,"남아":2469,"제1":2470,"일어나":2471,"##0년대":2472,"##ot":2473,"##라가":2474,"조건":2475,"##우스":2476,"빈":2477,"##장에서":2478,"상위":2479,"2017":2480,"다르":2481,"하여":2482,"불러":2483,"하였다.":2484,"받고":2485,"##액":2486,"##라의":2487,"고려":2488,"##했다는":2489,"개인":2490,"##제를":2491,"나이":2492,"중앙":2493,"##사로":2494,"Lv":2495,"만큼":2496,"##못":2497,"맥":2498,"참가":2499,"##척":2500,"##끄":2501,"따르면":2502,"듯.":2503,"축구":2504,"##다니":2505,"파이":2506,"에피소":2507,"##한다는":2508,"##수로":2509,"##했지만":2510,"가능한":2511,"아주":2512,"말이":2513,"땅":2514,"##전이":2515,"##권을":2516,"자체가":2517,"물리":2518,"##군이":2519,"크로":2520,"컴":2521,"##ad":2522,"항목":2523,"##ᆸ니다.":2524,"##한테":2525,"29":2526,"강력한":2527,"더욱":2528,"순간":2529,"2013년":2530,"##부의":2531,"##ᆻ으나,":2532,"어머니":2533,"주의":2534,"2차":2535,"각각":2536,"믿":2537,"##.4":2538,"대해서":2539,"상대로":2540,"건물":2541,"##장은":2542,"끝나":2543,"##혜":2544,"폴":2545,"우주":2546,"##춰":2547,"득":2548,"-1":2549,"펼":2550,"##ᆷ피언":2551,"딱":2552,"##가가":2553,"##지지":2554,"맨":2555,"##이드":2556,"##넷":2557,"##최":2558,"후보":2559,"끼":2560,"헌":2561,"확실":2562,"굉장히":2563,"사람들이":2564,"##적을":2565,"비판":2566,"##계를":2567,"시간이":2568,"편이다.":2569,"뮤":2570,"##문에":2571,"##장으로":2572,"##카이":2573,"##톤":2574,"##이기도":2575,"##스키":2576,"##튜":2577,"##답":2578,"비슷":2579,"러시아":2580,"가격":2581,"결혼":2582,"현대":2583,"쳐":2584,"가족":2585,"##장에":2586,"##ᆫ의":2587,"후에":2588,"구조":2589,"##이었던":2590,"어린":2591,"케이":2592,"피해를":2593,"##혈":2594,"##치고":2595,"챔피언":2596,"불구":2597,"단순":2598,"참조":2599,"##춘":2600,"빌":2601,"##부를":2602,"습":2603,"시점":2604,"##되면서":2605,"##id":2606,"무시":2607,"낙":2608,"아르":2609,"주요":2610,"##mm":2611,"마찬가지로":2612,"##량이":2613,"여기서":2614,"진짜":2615,"사용할":2616,"폭발":2617,"##선을":2618,"대미":2619,"여다":2620,"##부에":2621,"##십":2622,"선거":2623,"활약":2624,"쏘":2625,"준비":2626,"##ch":2627,"2012년":2628,"##대는":2629,"세이":2630,"##위원":2631,"있었던":2632,"가면":2633,"생겨":2634,"과정":2635,"일으":2636,"속성":2637,"섬":2638,"##타를":2639,"숙":2640,"제공":2641,"##낸":2642,"나머":2643,"##체가":2644,"묻":2645,"되고":2646,"##레이드":2647,"엄청난":2648,"스토리":2649,"##뮤":2650,"지구":2651,"쉽게":2652,"옆":2653,"가능성이":2654,"##치로":2655,"약간":2656,"##까지는":2657,"The":2658,"활용":2659,"않다.":2660,"##음이":2661,"##ᆻ지만":2662,"수가":2663,"가는":2664,"벌어":2665,"훨":2666,"방영":2667,"##ay":2668,"초기":2669,"히로":2670,"혼자":2671,"##내는":2672,"받는":2673,"제한":2674,"2000":2675,"##트는":2676,"##들에":2677,"##ER":2678,"##면,":2679,"클리어":2680,"시청":2681,"##엘":2682,"마스터":2683,"대전":2684,"##정한":2685,"여전히":2686,"##ᅢᆫ드":2687,"논란":2688,"스피":2689,"발사":2690,"194":2691,"프랑스":2692,"동료":2693,"탐":2694,"##시키는":2695,"##.6":2696,"##임을":2697,"괘":2698,"##시즌":2699,"부산":2700,"60":2701,"당연히":2702,"작은":2703,"##.\"":2704,"비로":2705,"패턴":2706,"술":2707,"쓰러":2708,"분위":2709,"##인물":2710,"한편":2711,"##력은":2712,"못하고":2713,"##려서":2714,"훨씬":2715,"##뿐":2716,"St":2717,"사고":2718,"##ᆫ이":2719,"##칠":2720,"웃":2721,"현실":2722,"퀘":2723,"지하":2724,"주는":2725,"##.7":2726,"##식이":2727,"제국":2728,"##업을":2729,"##ᆻ고":2730,"##리,":2731,"나무":2732,"1일":2733,"맵":2734,"##흐":2735,"강한":2736,"흡":2737,"##곳":2738,"##닉":2739,"그가":2740,"##욕":2741,"##익":2742,"래":2743,"##리로":2744,"듀":2745,"이해":2746,"하며":2747,"##으니":2748,"츠":2749,"제2":2750,"영향을":2751,"##정도":2752,"##개를":2753,"##us":2754,"싫":2755,"방향":2756,"##하다는":2757,"얘":2758,"콜":2759,"적을":2760,"##40":2761,"그를":2762,"읽":2763,"##제로":2764,"##히는":2765,"보호":2766,"##없는":2767,"##만한":2768,"특별":2769,"똑":2770,"기간":2771,"##만이":2772,"##위로":2773,"확류":2774,"##심을":2775,"##해주":2776,"##둥":2777,"##릿":2778,"유럽":2779,"##행을":2780,"##놓고":2781,"한정":2782,"죄":2783,"조합":2784,"##키는":2785,"FC":2786,"##움":2787,"##합니다.":2788,"괜":2789,"파워":2790,"해결":2791,"최근":2792,"취급":2793,"##리와":2794,"나타나":2795,"지니":2796,"##나이":2797,"##사와":2798,"##레벨":2799,"삼성":2800,"지그":2801,"2010년":2802,"짧":2803,"도망":2804,"##ro":2805,"##기,":2806,"역할을":2807,"##수록":2808,"##감을":2809,"##짝":2810,"기준으로":2811,"영어":2812,"본인":2813,"블랙":2814,"소모":2815,"##프를":2816,"곧":2817,"연결":2818,"##흥":2819,"의견":2820,"류":2821,"브라":2822,"국민":2823,"##.8":2824,"##듀":2825,"쿨":2826,"##헌":2827,"보는":2828,"즐":2829,"굴":2830,"때문.":2831,"##만에":2832,"크리스":2833,"국제":2834,"##자기":2835,"않을":2836,"for":2837,"##라운드":2838,"문제는":2839,"흥":2840,"##학년":2841,"어두":2842,"##케이":2843,"##다,":2844,"##위가":2845,"처리":2846,"##꾸":2847,"##좌":2848,"이탈":2849,"지방":2850,"##!\"":2851,"다양한":2852,"##쩌":2853,"##킨":2854,"##촌":2855,"중요한":2856,"익":2857,"엘리":2858,"TV":2859,"정도.":2860,"##ir":2861,"전용":2862,"추정":2863,"##BC":2864,"##라인":2865,"버스":2866,"자연":2867,"2011년":2868,"##꺼":2869,"에이":2870,"##도,":2871,"것에":2872,"##라서":2873,"##신이":2874,"##가를":2875,"충분":2876,"교육":2877,"##폐":2878,"없었다.":2879,"##위에":2880,"핵":2881,"벗":2882,"##인트":2883,"##랄":2884,"##학생":2885,"##붙":2886,"##암":2887,"##가의":2888,"방면":2889,"이유는":2890,"트위":2891,"##죠":2892,"라인":2893,"##쇼":2894,"2018":2895,"##시의":2896,"스스로":2897,"문화":2898,"##사에":2899,"끊":2900,"중시":2901,"무려":2902,"불구하고":2903,"##둔":2904,"오른":2905,"다음과":2906,"운동":2907,"##로부터":2908,"##자와":2909,"받았다.":2910,"##으면서":2911,"##지션":2912,"##듯이":2913,"##난다.":2914,"아군":2915,"##렬":2916,"##12":2917,"보이는":2918,"타입":2919,"언제":2920,"##로를":2921,"##만을":2922,"장착":2923,"##신을":2924,"195":2925,"출전":2926,"##구가":2927,"등장한다.":2928,"들고":2929,"기타":2930,"나서":2931,"넘어":2932,"##기와":2933,"퀘스트":2934,"##ht":2935,"##죽":2936,"내가":2937,"아버지":2938,"##단의":2939,"낮은":2940,"운행":2941,"##륙":2942,"##틴":2943,"##한다고":2944,"미션":2945,"알아":2946,"이름이":2947,"벽":2948,"##소를":2949,"##보니":2950,"##이지":2951,"##크로":2952,"##회를":2953,"##져서":2954,"이유로":2955,"##성은":2956,"경제":2957,"##대학":2958,"편.":2959,"HP":2960,"##th":2961,"모드":2962,"중에":2963,"연속":2964,"나ᄈ":2965,"##명은":2966,"##팔":2967,"대부분의":2968,"##자들이":2969,"굳":2970,"##성의":2971,"경우는":2972,"입장":2973,"##벤":2974,"나는":2975,"##'라는":2976,"찬":2977,"절대":2978,"##하다고":2979,"##ᆰ은":2980,"에너":2981,"나ᄂ":2982,"##리기":2983,"전문":2984,"##비아":2985,"##un":2986,"아들":2987,"되면":2988,"종료":2989,"염":2990,"##우는":2991,"더불":2992,"이ᄁ":2993,"구간":2994,"넓":2995,"##im":2996,"##하다가":2997,"##ᆨ트":2998,"되지":2999,"##초에":3000,"##원으로":3001,"튀":3002,"타고":3003,"수상":3004,"말한다.":3005,"##dddd":3006,"##쇄":3007,"독립":3008,"부르":3009,"##당한":3010,"떠나":3011,"번역":3012,"달성":3013,"베이":3014,"예정":3015,"##싱":3016,"##력으로":3017,"##터를":3018,"포켓":3019,"##지게":3020,"메인":3021,"##엄":3022,"솔":3023,"##ur":3024,"엔딩":3025,"##.9":3026,"##원은":3027,"##전의":3028,"제목":3029,"근접":3030,"##이의":3031,"##od":3032,"이상의":3033,"##세대":3034,"##말로":3035,"##유의":3036,"##네이":3037,"##세기":3038,"##기고":3039,"싱글":3040,"목소":3041,"##라를":3042,"네이":3043,"일본의":3044,"자리":3045,"##에게는":3046,"##15":3047,"아프":3048,"여담으로":3049,"##묘":3050,"종류":3051,"만약":3052,"항공":3053,"무어":3054,"관리":3055,"배경":3056,"##마의":3057,"##32":3058,"일을":3059,"##이고,":3060,"졸업":3061,"업데이":3062,"현재는":3063,"생존":3064,"받았":3065,"더불어":3066,"##로가":3067,"##스에":3068,"검은":3069,"했지만":3070,"SK":3071,"##km":3072,"##함을":3073,"##사,":3074,"조직":3075,"시도":3076,"칭":3077,"##공격":3078,"##시를":3079,"위에":3080,"##봇":3081,"에피소드":3082,"##맞":3083,"야구":3084,"반대":3085,"민주":3086,"##따":3087,"하면서":3088,"##ᆨ제":3089,"밖에":3090,"##조건":3091,"##점으로":3092,"##ST":3093,"나머지":3094,"최소":3095,"배틀":3096,"하기":3097,"##비가":3098,"##마저":3099,"일정":3100,"##부가":3101,"##빙":3102,"##ut":3103,"##상에":3104,"엔진":3105,"속도":3106,"##신의":3107,"##ᆻ는데":3108,"##세이":3109,"##왔다.":3110,"만화":3111,"제외한":3112,"목표":3113,"칸":3114,"##ᆯ립":3115,"##려는":3116,"##관이":3117,"지휘":3118,"2019":3119,"##티브":3120,"항상":3121,"202":3122,"##라며":3123,"##세를":3124,"##ag":3125,"##ᆻ다":3126,"얻을":3127,"##거나,":3128,"틀":3129,"분노":3130,"잘못":3131,"유리":3132,"대사":3133,"능력을":3134,"##ver":3135,"부활":3136,"수정":3137,"플래":3138,"##종의":3139,"아이템":3140,"##시가":3141,"앨범":3142,"##운데":3143,"두고":3144,"생긴":3145,"##60":3146,"성장":3147,"##짓":3148,"직업":3149,"정도의":3150,"공연":3151,"신경":3152,"랜":3153,"##?\"":3154,"##윤":3155,"##쿄":3156,"##단을":3157,"빅":3158,"정식":3159,"위험":3160,"유명한":3161,"전작":3162,"##ec":3163,"뒷":3164,"소재":3165,"##19":3166,"##37":3167,"모델":3168,"##같이":3169,"##홍":3170,"##나게":3171,"##ᆷ보":3172,"돌아가":3173,"##시로":3174,"##여서":3175,"##야마":3176,"##어들":3177,"2016":3178,"좋지":3179,"포켓몬":3180,"##지기":3181,"스파":3182,"##물이":3183,"##시마":3184,"기억":3185,"해야":3186,"사람은":3187,"##냐고":3188,"비행":3189,"##르크":3190,"나왔다.":3191,"##었다고":3192,"이끌":3193,"북한":3194,"you":3195,"##선이":3196,"뚜":3197,"자랑":3198,"가끔":3199,"##으로서":3200,"##카와":3201,"아키":3202,"사실을":3203,"인터뷰":3204,"##했으며,":3205,"##븐":3206,"##나의":3207,"페이":3208,"##비를":3209,"##계의":3210,"높다.":3211,"미사":3212,"##버린":3213,"##ent":3214,"##콜":3215,"각종":3216,"##호를":3217,"오늘":3218,"다르게":3219,"대상":3220,"##칙":3221,"잡아":3222,"##의를":3223,"##어야":3224,"##낙":3225,"괜차":3226,"그림":3227,"뿌":3228,"##일을":3229,"##주를":3230,"35":3231,"하지만,":3232,"상황에서":3233,"바람에":3234,"##되기":3235,"##했으나":3236,"크리":3237,"거기":3238,"빠른":3239,"##ᅪᆯ":3240,"지켜":3241,"대한민국의":3242,"것과":3243,"##방송":3244,"##군은":3245,"부여":3246,"흘":3247,"등으로":3248,"참조.":3249,"냉":3250,"미래":3251,"이외":3252,"연출":3253,"만드는":3254,"전반":3255,"##ak":3256,"모습이":3257,"누구":3258,"##ᆫ드":3259,"##하지만,":3260,"##ᆼ이":3261,"정작":3262,"##음에도":3263,"##서를":3264,"계획":3265,"재미":3266,"적은":3267,"##해진":3268,"제이":3269,"쌓":3270,"스태":3271,"##무를":3272,"갤러":3273,"##다운":3274,"##ᆺ은":3275,"##호가":3276,"미국의":3277,"시전":3278,"있다":3279,"##수한":3280,"##선의":3281,"##t;":3282,"##시킨":3283,"라고":3284,"##스토":3285,"전국":3286,"헬":3287,"32":3288,"결승":3289,"아쉬":3290,"있지만,":3291,"달라":3292,"##칼":3293,"옥":3294,"1회":3295,"##픈":3296,"##....":3297,"##게임":3298,"##비스":3299,"##디어":3300,"클래":3301,"##타로":3302,"왼":3303,"##버리":3304,"##으로도":3305,"못하는":3306,"수는":3307,"##외로":3308,"##맥":3309,"않게":3310,"소녀":3311,"자세한":3312,"80":3313,"따로":3314,"##빌":3315,"##cm":3316,"##프로":3317,"때,":3318,"##시는":3319,"쌍":3320,"훈련":3321,"전차":3322,"작곡":3323,"하게":3324,"있다면":3325,"과학":3326,"별로":3327,"##이라면":3328,"특정":3329,"달려":3330,"제일":3331,"위치한":3332,"아카":3333,"##동을":3334,"묘사":3335,"아이돌":3336,"상황이":3337,"##부터는":3338,"##단이":3339,"##ᆷ과":3340,"갑자기":3341,"##고를":3342,"##팩":3343,"##더니":3344,"##80":3345,"기관":3346,"예상":3347,"##ᆨ터":3348,"##모토":3349,"타카":3350,"70":3351,"2009년":3352,"##고는":3353,"##장,":3354,"깊":3355,"때문에,":3356,"없을":3357,"종족":3358,"연기":3359,"인구":3360,"깔":3361,"##하라":3362,"답":3363,"이탈리아":3364,"경우에는":3365,"##마가":3366,"꽃":3367,"경험":3368,"1년":3369,"맹":3370,"하늘":3371,"##지와":3372,"뒤에":3373,"소개":3374,"##로운":3375,"일행":3376,"##풀":3377,"옵":3378,"##일이":3379,"##스러운":3380,"옛":3381,"근처":3382,"분류":3383,"안에":3384,"1위":3385,"평균":3386,"##어의":3387,"보유":3388,"필요한":3389,"효과를":3390,"to":3391,"##겠다고":3392,"##퓨":3393,"게임을":3394,"##율이":3395,"명령":3396,"확정":3397,"1차":3398,"##ᆫ스":3399,"불리":3400,"##탑":3401,"##림픽":3402,"이름은":3403,"포지션":3404,"띄":3405,"##몽":3406,"옮":3407,"##ffff":3408,"##ub":3409,"지난":3410,"압도":3411,"소설":3412,"인천":3413,"행정":3414,"최고의":3415,"공중":3416,"덱":3417,"##덤":3418,"교체":3419,"본인이":3420,"안정":3421,"##롭":3422,"없고":3423,"##룬":3424,"##도에":3425,"예를":3426,"것이라고":3427,"사냥":3428,"##즈의":3429,"집중":3430,"등장인물":3431,"링크":3432,"##제의":3433,"##세가":3434,"납":3435,"롤":3436,"파티":3437,"##군을":3438,"걸리":3439,"2008년":3440,"멸":3441,"애초에":3442,"이게":3443,"각성":3444,"기어":3445,"일러":3446,"193":3447,"이쪽":3448,"식으로":3449,"##ᆷ프":3450,"잠시":3451,"##야말로":3452,"벨":3453,"홀":3454,"지정":3455,"표기":3456,"특이":3457,"나올":3458,"건설":3459,"생명":3460,"어째":3461,"##계가":3462,"##소가":3463,"##'의":3464,"본래":3465,"스테이지":3466,"##부로":3467,"스포":3468,"나중에":3469,"계열":3470,"##ᅪᆯ영":3471,"##논":3472,"##마자":3473,"가까운":3474,"시작했다.":3475,"##바이":3476,"##었고,":3477,"##지면":3478,"부모":3479,"없다는":3480,"이용해":3481,"##인으로":3482,"##'를":3483,"보니":3484,"##껴":3485,"##미가":3486,"##고등학교":3487,"##심이":3488,"즉,":3489,"기반":3490,"경쟁":3491,"발전":3492,"머리":3493,"탈출":3494,"최강":3495,"##하나":3496,"전설":3497,"##',":3498,"기다":3499,"경우,":3500,"죽은":3501,"##치기":3502,"in":3503,"물건":3504,"못했다.":3505,"갖고":3506,"겪":3507,"치명":3508,"처음으로":3509,"계약":3510,"배치":3511,"없다고":3512,"차이가":3513,"연합":3514,"라는":3515,"그룹":3516,"존재한다.":3517,"빠져":3518,"외국":3519,"사례":3520,"##이란":3521,"스테":3522,"수행":3523,"##퀴":3524,"##았던":3525,"##원에":3526,"지지":3527,"트리":3528,"위의":3529,"빠르게":3530,"##겠지만":3531,"##어내":3532,"설립":3533,"##-3":3534,"징":3535,"지도":3536,"##셜":3537,"이야기를":3538,"##꾼":3539,"모르":3540,"밑":3541,"##빛":3542,"사용자가":3543,"다크":3544,"##대표":3545,"바꾸":3546,"##스코":3547,"무슨":3548,"기대":3549,"##폴":3550,"등장한":3551,"이적":3552,"##ight":3553,"사이에":3554,"많아":3555,"중에서":3556,"혈":3557,"코미":3558,"있으면":3559,"##부는":3560,"기본적으로":3561,"제거":3562,"스코":3563,"블루":3564,"여기에":3565,"##량을":3566,"##입니다.":3567,"좋아하는":3568,"##em":3569,"##드시":3570,"지키":3571,"카운":3572,"기동":3573,"스위":3574,"vs":3575,"대기":3576,"##솔":3577,"나름":3578,"##테이":3579,"소련":3580,"아니면":3581,"지내":3582,"나라":3583,"롯":3584,"##스케":3585,"##역을":3586,"##:0":3587,"##쪽으로":3588,"##란드":3589,"##상은":3590,"##'을":3591,"뭔":3592,"도입":3593,"##꽃":3594,"부정":3595,"말에":3596,"이후로":3597,"##ON":3598,"##만의":3599,"밀리":3600,"##잔":3601,"고양":3602,"##ᆱ은":3603,"앤":3604,"발언":3605,"##보는":3606,"저지":3607,"보아":3608,"##화의":3609,"완전":3610,"목록":3611,"짓":3612,"##,#":3613,"턴":3614,"그녀의":3615,"등급":3616,"##간의":3617,"##16":3618,"##벼":3619,"##사이":3620,"올라가":3621,"지배":3622,"카이":3623,"##냐는":3624,"##타가":3625,"있으니":3626,"직후":3627,"##치의":3628,"##AR":3629,"##ᆯ링":3630,"가스":3631,"복귀":3632,"남은":3633,"##ce":3634,"##25":3635,"변신":3636,"##문이":3637,"도쿄":3638,"##ᆭ아":3639,"2000년":3640,"과정에서":3641,"차이":3642,"타격":3643,"가운데":3644,"##:00":3645,"##ᆯ의":3646,"군사":3647,"로마":3648,"##크를":3649,"##트라":3650,"연습":3651,"##'라고":3652,"포기":3653,"접근":3654,"대구":3655,"##ᆷ,":3656,"촬영":3657,"동생":3658,"##버렸다.":3659,"밖":3660,"유사":3661,"도착":3662,"##진이":3663,"##됐다.":3664,"##주고":3665,"유일한":3666,"사람을":3667,"가르":3668,"월드컵":3669,"쫓":3670,"##우가":3671,"500":3672,"맞추":3673,"##터가":3674,"2,":3675,"관한":3676,"##지.":3677,"##하였고,":3678,"알게":3679,"하는데":3680,"살해":3681,"뇌":3682,"회피":3683,"했던":3684,"##학과":3685,"##um":3686,"45":3687,"##AN":3688,"꼭":3689,"남성":3690,"##몇":3691,"2007년":3692,"##ap":3693,"##되었고,":3694,"업그":3695,"##ᆻ다가":3696,"듣고":3697,"역대":3698,"##ri":3699,"상태에서":3700,"겸":3701,"##os":3702,"분명":3703,"추천":3704,"완성":3705,"라이브":3706,"정규":3707,"##48":3708,"##로의":3709,"일러스트":3710,"반면":3711,"때마다":3712,"##차가":3713,"이건":3714,"범위":3715,"준다.":3716,"##많은":3717,"##'s":3718,"반드시":3719,"싫어":3720,"미니":3721,"점이":3722,"끝에":3723,"##셉":3724,"올려":3725,"조종":3726,"하자":3727,"LG":3728,"상당한":3729,"사용한다.":3730,"##체의":3731,"##주가":3732,"받을":3733,"타이틀":3734,"유튜":3735,"##아의":3736,"소리":3737,"##광역":3738,"이하":3739,"##레스":3740,"##한다":3741,"데미지":3742,"##18":3743,"해외":3744,"##점은":3745,"##몰":3746,"##럭":3747,"중간":3748,"효과가":3749,"심각":3750,"고정":3751,"상관":3752,"완벽":3753,"태어나":3754,"##()":3755,"##ula":3756,"##지라":3757,"##력과":3758,"저항":3759,"뛰어난":3760,"##드리":3761,"이로":3762,"투수":3763,"##했는데":3764,"지상":3765,"앞에":3766,"##감이":3767,"유일하게":3768,"##진을":3769,"##and":3770,"욕":3771,"경기에서":3772,"추측":3773,"##지면서":3774,"다루":3775,"마무":3776,"끝내":3777,"자체는":3778,"높아":3779,"반대로":3780,"점을":3781,"한다는":3782,"2개":3783,"##\"라고":3784,"##아이":3785,"##했으며":3786,"##파트":3787,"##크래":3788,"비용":3789,"동물":3790,"90":3791,"##덴":3792,"몇몇":3793,"오버":3794,"가서":3795,"##들로":3796,"넘어가":3797,"자리를":3798,"경기를":3799,"웹":3800,"늦":3801,"삭제":3802,"주민":3803,"##이면":3804,"-3":3805,"##버린다.":3806,"##으므로":3807,"##관을":3808,"도와":3809,"판단":3810,"알려져":3811,"공동":3812,"리더":3813,"연재":3814,"정상":3815,"치료":3816,"롯데":3817,"날아":3818,"우선":3819,"##콩":3820,"합류":3821,"충격":3822,"구매":3823,"##받은":3824,"점점":3825,"통합":3826,"##술을":3827,"환경":3828,"##문의":3829,"##플레이":3830,"시간을":3831,"탈락":3832,"회사":3833,"##했는데,":3834,"작가":3835,"보기":3836,"다소":3837,"무장":3838,"1개":3839,"곤":3840,"##민주":3841,"밤":3842,"도중":3843,"봐도":3844,"##어진":3845,"##형을":3846,"##탄을":3847,"품":3848,"킹":3849,"##뤄":3850,"인도":3851,"##주로":3852,"##앗":3853,"몽":3854,"##꼬":3855,"##시킬":3856,"팀의":3857,"없어서":3858,"난이도":3859,"##분이":3860,"요시":3861,"##세계":3862,"form":3863,"수많은":3864,"공간":3865,"##ᆻ는데,":3866,"##체는":3867,"종종":3868,"##일러":3869,"딜":3870,"개최":3871,"##것도":3872,"##화국":3873,"EX":3874,"가수":3875,"##스카":3876,"##자들은":3877,"##어는":3878,"##깨":3879,"이름으로":3880,"쓰고":3881,"##화된":3882,"카메":3883,"##석이":3884,"192":3885,"##찍":3886,"생활":3887,"##로우":3888,"##에만":3889,"생각해":3890,"런":3891,"##ula_":3892,"카드를":3893,"##프가":3894,"힘이":3895,"No":3896,"##들어":3897,"##인,":3898,"후,":3899,"규모":3900,"기업":3901,"녀":3902,"##하자.":3903,"정의":3904,"기계":3905,"##금을":3906,"##나와":3907,"의외로":3908,"제외하면":3909,"##컨":3910,"##단계":3911,"##하는데,":3912,"걱":3913,"##펜":3914,"시리즈의":3915,"장소":3916,"개봉":3917,"널":3918,"록":3919,"formula_":3920,"암살":3921,"종교":3922,"상태로":3923,"맞춰":3924,"##지에서":3925,"스티":3926,"히어로":3927,"##용으로":3928,"벤":3929,"퀴":3930,"##받는":3931,"전통":3932,"아니고":3933,"않으면":3934,"보여준다.":3935,"그야말로":3936,"게임이":3937,"##되면":3938,"##14":3939,"순위":3940,"큐":3941,"조사":3942,"##가,":3943,"##었고":3944,"##무라":3945,"죽음":3946,"##섭":3947,"공포":3948,"##섯":3949,"올림픽":3950,"##정에":3951,"소유":3952,"평범":3953,"##IN":3954,"무조건":3955,"화면":3956,"300":3957,"##김":3958,"워낙":3959,"듯하다.":3960,"##이라도":3961,"Ch":3962,"아내":3963,"##회가":3964,"디자인":3965,"프로제":3966,"2006년":3967,"그린":3968,"KBS":3969,"##타이":3970,"##두고":3971,"인한":3972,"##멘":3973,"길이":3974,"린":3975,"무엇":3976,"33":3977,"억":3978,"##함이":3979,"트레이":3980,"전사":3981,"##돈":3982,"다행":3983,"##차를":3984,"요청":3985,"##인과":3986,"전개":3987,"정리":3988,"팀이":3989,"단,":3990,"밴":3991,"어려운":3992,"홈런":3993,"3개":3994,"##판을":3995,"야마":3996,"##이다":3997,"and":3998,"레드":3999,"시대":4000,"맺":4001,"##구의":4002,"컴퓨":4003,"본격":4004,"느껴":4005,"전기":4006,"##/2":4007,"2015":4008,"하고,":4009,"생성":4010,"##식으로":4011,"거쳐":4012,"##력의":4013,"빨리":4014,"##적으로는":4015,"아라":4016,"도전":4017,"아무리":4018,"##르트":4019,"늘어나":4020,"2년":4021,"마사":4022,"##속도":4023,"##가와":4024,"개그":4025,"이걸":4026,"##원,":4027,"##었을":4028,"##녕":4029,"평소":4030,"비중":4031,"굳이":4032,"한글":4033,"##ul":4034,"##적은":4035,"##1,":4036,"##넣":4037,"맛":4038,"것처럼":4039,"부하":4040,"최초로":4041,"##TV":4042,"##한다면":4043,"##베이":4044,"##되며":4045,"##방을":4046,"데미지를":4047,"사무":4048,"##일부터":4049,"##FA":4050,"##어,":4051,"##원에서":4052,"적의":4053,"외에도":4054,"최후":4055,"세워":4056,"##질을":4057,"없음":4058,"사업":4059,"##호선":4060,"##하도록":4061,"##니티":4062,"악마":4063,"##함으로":4064,"충분히":4065,"##키의":4066,"변화":4067,"##에게서":4068,"투입":4069,"##르의":4070,"영혼":4071,"##리게":4072,"대중":4073,"##정은":4074,"상징":4075,"능력이":4076,"##op":4077,"##톨":4078,"탓에":4079,"##롱":4080,"오프":4081,"무한":4082,"어렵":4083,"##팬":4084,"##운동":4085,"이와":4086,"진화":4087,"열린":4088,"##ck":4089,"보다":4090,"##승을":4091,"비롯한":4092,"의하면":4093,"##키가":4094,"##홀":4095,"##했기":4096,"##수도":4097,"경기도":4098,"##13":4099,"##17":4100,"##쪽에":4101,"##온다.":4102,"쉽":4103,"##션을":4104,"##미를":4105,"십":4106,"##안을":4107,"##ter":4108,"##%,":4109,"##특별":4110,"##트리":4111,"거기에":4112,"중반":4113,"사람들은":4114,"##나를":4115,"##적이다.":4116,"##휴":4117,"안전":4118,"##시,":4119,"선언":4120,"##보고":4121,"##보다도":4122,"##ation":4123,"##설이":4124,"##성에":4125,"돈을":4126,"##스에서":4127,"버그":4128,"대응":4129,"최초의":4130,"##'로":4131,"36":4132,"##왕의":4133,"##법을":4134,"##ra":4135,"##ᆸ은":4136,"붕":4137,"##이닝":4138,"표시":4139,"##험을":4140,"##정의":4141,"성우는":4142,"범죄":4143,"##동생":4144,"등에":4145,"생각하면":4146,"하야":4147,"##드라":4148,"확장":4149,"##둘":4150,"##인가":4151,"손을":4152,"대화":4153,"붉은":4154,"언론":4155,"##ᆯ런":4156,"떡":4157,"##세의":4158,"때까지":4159,"듯한":4160,"대형":4161,"특유의":4162,"##2,":4163,"조작":4164,"##대전":4165,"비밀":4166,"앞서":4167,"성향":4168,"##다른":4169,"희생":4170,"##지역":4171,"##드와":4172,"##ᆻ으니":4173,"##조의":4174,"기존의":4175,"##라이더":4176,"##요일":4177,"운용":4178,"관련된":4179,"##버리는":4180,"##트에서":4181,"##뇌":4182,"말하는":4183,"##ᆺ의":4184,"##기사":4185,"##털":4186,"##너스":4187,"무리":4188,"th":4189,"##호는":4190,"간단":4191,"대결":4192,"오리지":4193,"##하려고":4194,"패러":4195,"##크가":4196,"바꿔":4197,"##미널":4198,"하며,":4199,"작업":4200,"##IC":4201,"##구에":4202,"년":4203,"밝혔다.":4204,"패치":4205,"숫":4206,"##성과":4207,"얼마나":4208,"본인의":4209,"##부에서":4210,"명중":4211,"MA":4212,"km":4213,"쥬":4214,"사기":4215,"보조":4216,"##브로":4217,"잊":4218,"확률로":4219,"장면이":4220,"##트에":4221,"맞는":4222,"##시오":4223,"통과":4224,"컬":4225,"##깐":4226,"선생":4227,"##'이라는":4228,"하드":4229,"주고":4230,"극장":4231,"멋":4232,"##미의":4233,"구분":4234,"팩":4235,"2020년":4236,"##즈가":4237,"##려면":4238,"뚫":4239,"##경을":4240,"##회에서":4241,"점령":4242,"잭":4243,"사격":4244,"거부":4245,"오랜":4246,"##라우":4247,"##첩":4248,"체력이":4249,"##덜":4250,"마르":4251,"칠":4252,"시민":4253,"##트와":4254,"태양":4255,"건담":4256,"##도우":4257,"둔":4258,"척":4259,"중심으로":4260,"##라,":4261,"##자들의":4262,"##자에":4263,"나오지":4264,"마치":4265,"##석을":4266,"다운":4267,"기념":4268,"불과":4269,"##힐":4270,"빙":4271,"섞":4272,"날려":4273,"잇":4274,"##크의":4275,"부탁":4276,"마리":4277,"반복":4278,"프로듀":4279,"##때문에":4280,"내용은":4281,"시나":4282,"사는":4283,"##수,":4284,"##페이":4285,"내에서":4286,"힘든":4287,"제3":4288,"적에게":4289,"2005년":4290,"맞아":4291,"##페이지":4292,"있지":4293,"MBC":4294,"지금은":4295,"##70":4296,"##ᆯ리티":4297,"투표":4298,"##남도":4299,"3일":4300,"##레인":4301,"재료":4302,"앞에서":4303,"켄":4304,"되면서":4305,"##시킨다.":4306,"##품을":4307,"##젠":4308,"서술":4309,"##치게":4310,"인식":4311,"##정으로":4312,"##션이":4313,"인터넷":4314,"콤보":4315,"데려":4316,"영입":4317,"서버":4318,"##듬":4319,"정책":4320,"하는데,":4321,"붙어":4322,"뻔":4323,"몸을":4324,"100%":4325,"흉":4326,"##다시":4327,"##시대":4328,"시기":4329,"##겼다.":4330,"신체":4331,"목수":4332,"##젤":4333,"유튜브":4334,"##드에":4335,"입고":4336,"털":4337,"오르":4338,"2회":4339,"개조":4340,"##단에":4341,"38":4342,"소년":4343,"##90":4344,"올리":4345,"대표적인":4346,"외모":4347,"모르는":4348,"숲":4349,"##인들이":4350,"진입":4351,"그걸":4352,"##핑":4353,"그저":4354,"SP":4355,"##이니":4356,"후속":4357,"##명으로":4358,"34":4359,"근데":4360,"사쿠":4361,"선정":4362,"##만으로":4363,"##제는":4364,"##실을":4365,"사태":4366,"##광역시":4367,"디자":4368,"##했지만,":4369,"이들은":4370,"프로그램":4371,"적극":4372,"##하니":4373,"고대":4374,"##해를":4375,"##넘":4376,"디지":4377,"##론을":4378,"득점":4379,"은퇴":4380,"받는다.":4381,"거두":4382,"때도":4383,"##드,":4384,"##사카":4385,"앉":4386,"##형이":4387,"그려":4388,"점프":4389,"오오":4390,"##전은":4391,"스ᄏ":4392,"말았다.":4393,"##kg":4394,"##쯤":4395,"이기":4396,"다만,":4397,"좀비":4398,"보상":4399,"##RA":4400,"##쥐":4401,"##라.":4402,"##쳤다.":4403,"방어력":4404,"든":4405,"##딜":4406,"혁":4407,"앙":4408,"시스템":4409,"##전으로":4410,"##전쟁":4411,"##설을":4412,"##마를":4413,"쥐":4414,"##었다는":4415,"##흑":4416,"테이":4417,"인기":4418,"대단":4419,"장난":4420,"##보를":4421,"꽤나":4422,"주문":4423,"닌":4424,"##시티":4425,"##기관":4426,"불안":4427,"아는":4428,"그때":4429,"##장과":4430,"무너":4431,"을":4432,"VS":4433,"무사":4434,"##방에":4435,"##텔":4436,"2004년":4437,"소비":4438,"스카":4439,"##로도":4440,"광주":4441,"놀라":4442,"2일":4443,"초대":4444,"##art":4445,"그럼":4446,"##이지만,":4447,"##소년":4448,"으":4449,"##ᆷ이나":4450,"적절":4451,"자료":4452,"##다이":4453,"사람의":4454,"단순히":4455,"You":4456,"비고":4457,"하나의":4458,"대해서는":4459,"이후에":4460,"살인":4461,"##규모":4462,"##텐츠":4463,"버티":4464,"오토":4465,"음반":4466,"##었지만":4467,"텐":4468,"##시브":4469,"마음을":4470,"##률이":4471,"##:2":4472,"철도":4473,"U+":4474,"##ie":4475,"오리지널":4476,"##선수":4477,"##복을":4478,"꾸준":4479,"##ab":4480,"방문":4481,"문제를":4482,"클럽":4483,"##교육":4484,"부분이":4485,"##으로부터":4486,"##해졌다.":4487,"##르가":4488,"##트,":4489,"1000":4490,"##고가":4491,"마침":4492,"거대한":4493,"트로":4494,"채널":4495,"보였다.":4496,"상황을":4497,"특성상":4498,"##'가":4499,"##분을":4500,"##활을":4501,"선보":4502,"다르다.":4503,"착용":4504,"##45":4505,"대학교":4506,"받지":4507,"저격":4508,"미드":4509,"##하려는":4510,"요리":4511,"활동을":4512,"펜":4513,"모습으로":4514,"##질이":4515,"##니스":4516,"란":4517,"##호의":4518,"손에":4519,"쿼":4520,"관통":4521,"##핀":4522,"한국의":4523,"부르는":4524,"##제에":4525,"##게이":4526,"##하므로":4527,"앨버":4528,"나이트":4529,"나누":4530,"비난":4531,"##99":4532,"대다":4533,"##군에":4534,"##이상":4535,"부대":4536,"챙":4537,"빼앗":4538,"국회의":4539,"##이,":4540,"##스럽게":4541,"##코의":4542,"단계":4543,"##/0":4544,"인사":4545,"중심":4546,"택":4547,"요소":4548,"되고,":4549,"##위는":4550,"돌려":4551,"##패를":4552,"마무리":4553,"노력":4554,"##어.":4555,"##니다":4556,"원거리":4557,"##해진다.":4558,"전환":4559,"##릉":4560,"멈":4561,"##되었으며,":4562,"의한":4563,"설계":4564,"코스":4565,"##였고,":4566,"점은":4567,"##쇠":4568,"37":4569,"끌어":4570,"##아버":4571,"##ill":4572,"나쁘":4573,"##이므로":4574,"떨어진":4575,"분리":4576,"##IA":4577,"##카가":4578,"훌":4579,"일반적인":4580,"촉":4581,"낫":4582,"앞으로":4583,"캡":4584,"꿈":4585,"마나":4586,"하나로":4587,"겹":4588,"##지아":4589,"더블":4590,"대비":4591,"먹고":4592,"바람":4593,"죽을":4594,"##ia":4595,"정당":4596,"아름":4597,"##센터":4598,"탑재":4599,"누군":4600,"2014":4601,"포함한":4602,"레베":4603,"##읍":4604,"도로":4605,"뜬":4606,"셰":4607,"##소녀":4608,"교통":4609,"##역으로":4610,"##회에":4611,"##방의":4612,"했으나":4613,"눈에":4614,"보컬":4615,"엑":4616,"##ik":4617,"도움을":4618,"##즈를":4619,"솔로":4620,"##화에":4621,"##야.":4622,"##다보니":4623,"##~2":4624,"등장.":4625,"브레이":4626,"##연히":4627,"미리":4628,"감안":4629,"##산을":4630,"자신은":4631,"##ᆻ기":4632,"점에서":4633,"보병":4634,"##밥":4635,"경상":4636,"아프리카":4637,"노동":4638,"비교적":4639,"2번":4640,"승리를":4641,"짐":4642,"AP":4643,"필살":4644,"확보":4645,"##로드":4646,"확실히":4647,"##답게":4648,"인기가":4649,"왕국":4650,"##요?":4651,"서브":4652,"##틱":4653,"확률":4654,"191":4655,"탱":4656,"스타일":4657,"일은":4658,"페르":4659,"##에게도":4660,"고등학교":4661,"완료":4662,"##놓은":4663,"##타는":4664,"캠":4665,"지적":4666,"등록":4667,"##러스":4668,"승강":4669,"조각":4670,"##고속":4671,"##되었고":4672,"엠":4673,"##나다":4674,"##35":4675,"딱히":4676,"남편":4677,"##진의":4678,"##힌다.":4679,"PC":4680,"##구는":4681,"사과":4682,"바탕":4683,"정보를":4684,"유래":4685,"논란이":4686,"만들어진":4687,"##금이":4688,"##에서만":4689,"장갑":4690,"차례":4691,"계회":4692,"##시키고":4693,"고속":4694,"##그룹":4695,"##시켰다.":4696,"##킬":4697,"##ᆯ리아":4698,"##타임":4699,"In":4700,"금지":4701,"묶":4702,"한다고":4703,"세트":4704,"허용":4705,"줘":4706,"죠":4707,"먹는":4708,"포인트":4709,"##초등학교":4710,"##멀":4711,"##워서":4712,"150":4713,"지닌":4714,"##수에":4715,"상처":4716,"##신은":4717,"일어난":4718,"10일":4719,"브로":4720,"그레이":4721,"##쌍":4722,"75":4723,"15일":4724,"여겨":4725,"##성도":4726,"구축":4727,"상대가":4728,"1번":4729,"##판이":4730,"가게":4731,"연주":4732,"##악의":4733,"연장":4734,"인류":4735,"##all":4736,"추가로":4737,"컴퓨터":4738,"##바로":4739,"그에":4740,"있습니다.":4741,"##루가":4742,"고통":4743,"병사":4744,"수밖에":4745,"실시":4746,"얻어":4747,"캐릭터가":4748,"명의":4749,"원정":4750,"스포츠":4751,"##촉":4752,"때의":4753,"형성":4754,"##:5":4755,"임명":4756,"##골을":4757,"그만":4758,"곳에":4759,"##력에":4760,"이것은":4761,"##식의":4762,"멘":4763,"##AT":4764,"##까지도":4765,"##가로":4766,"작성":4767,"걱정":4768,"전략":4769,"##개로":4770,"스킬을":4771,"##EN":4772,"##ea":4773,"센터":4774,"아시아":4775,"분야":4776,"를":4777,"거짓":4778,"덴":4779,"##리며":4780,"이유가":4781,"임무":4782,"주목":4783,"##문화":4784,"그리스":4785,"기술을":4786,"##선에":4787,"멸망":4788,"##하였고":4789,"##ne":4790,"개녀":4791,"수호":4792,"##받아":4793,"##리에서":4794,"##FF":4795,"제외하고":4796,"본인은":4797,"##님이":4798,"##나무":4799,"##우고":4800,"##역이":4801,"##래도":4802,"나뉘":4803,"##자에게":4804,"곳이":4805,"생기":4806,"떨어져":4807,"트랙":4808,"사용한":4809,"희망":4810,"필요가":4811,"##자들":4812,"II":4813,"웬":4814,"##빵":4815,"##서,":4816,"이용한":4817,"모아":4818,"##코가":4819,"##ue":4820,"##델":4821,"어찌":4822,"픽":4823,"\"이":4824,"아나":4825,"##동,":4826,"편집":4827,"##랭크":4828,"끝난":4829,"##PS":4830,"유우":4831,"만한":4832,"짧은":4833,"시작한다.":4834,"##미는":4835,"잠깐":4836,"##붕":4837,"##마트":4838,"##기.":4839,"이사":4840,"##당의":4841,"##리면":4842,"제압":4843,"##사에서":4844,"##겠다는":4845,"30일":4846,"##화에서는":4847,"초반에":4848,"##선거":4849,"##움을":4850,"##AL":4851,"##도시":4852,"가벼":4853,"해석":4854,"##롭게":4855,"5일":4856,"측면":4857,"##공을":4858,"카즈":4859,"##:1":4860,"##피아":4861,"겨우":4862,"##북도":4863,"##\"라는":4864,"##발을":4865,"녀석":4866,"방해":4867,"##권이":4868,"넥":4869,"##상태":4870,"##뒤":4871,"뿐만":4872,"윈":4873,"따른":4874,"평범한":4875,"메가":4876,"주연":4877,"##동이":4878,"이전에":4879,"아메":4880,"거주":4881,"##티어":4882,"엄청나게":4883,"로봇":4884,"##닥":4885,"커뮤":4886,"48":4887,"##크래프트":4888,"없기":4889,"부른다.":4890,"기체":4891,"20일":4892,"멀티":4893,"##ll":4894,"장기":4895,"라디오":4896,"삼국":4897,"업데이트":4898,"젊은":4899,"불리는":4900,"##포를":4901,"레어":4902,"##위의":4903,"여행":4904,"던전":4905,"예전":4906,"보여줘":4907,"##ct":4908,"속도가":4909,"업그레이드":4910,"##라스":4911,"25일":4912,"어느정도":4913,"동맹":4914,"##서가":4915,"2002년":4916,"골드":4917,"##토가":4918,"포르":4919,"##레이션":4920,"##ss":4921,"원래는":4922,"##상에서":4923,"##량의":4924,"##빨":4925,"3년":4926,"귀여":4927,"55":4928,"버프":4929,"##륭":4930,"있으나":4931,"화염":4932,"##조가":4933,"+1":4934,"사령":4935,"##-4":4936,"오리":4937,"##하의":4938,"가리":4939,"무서":4940,"대놓고":4941,"자신에게":4942,"카오":4943,"그녀는":4944,"에너지":4945,"공략":4946,"##dddddd":4947,"190":4948,"위협":4949,"st":4950,"최대한":4951,"안타":4952,"만다.":4953,"삶":4954,"##,#dddddd":4955,"평가를":4956,"##OR":4957,"흡수":4958,"멀리":4959,"말했다.":4960,"유도":4961,"있도록":4962,"##해지":4963,"해군":4964,"제시":4965,"1.":4966,"필수":4967,"되기":4968,"##ate":4969,"덜":4970,"##툰":4971,"프레":4972,"약속":4973,"시험":4974,"사이에서":4975,"##카의":4976,"##락을":4977,"##스트로":4978,"##해져":4979,"##기술":4980,"물어":4981,"대공":4982,"어ᄍ":4983,"형태로":4984,"내용을":4985,"42":4986,"봉인":4987,"내부":4988,"##디아":4989,"뮤직":4990,"없지만":4991,"##세트":4992,"당선":4993,"보급":4994,"황금":4995,"파트":4996,"궁극":4997,"##하여,":4998,"드라이":4999,"해금":5000,"이거":5001,"##'이":5002,"##물로":5003,"눈을":5004,"출생":5005,"##차로":5006,"##모를":5007,"코너":5008,"가정":5009,"##되며,":5010,"3,":5011,"4일":5012,"##.10":5013,"맞고":5014,"혜":5015,"##셰":5016,"드러나":5017,"직전":5018,"무게":5019,"중단":5020,"50%":5021,"##든지":5022,"##대에서":5023,"육군":5024,"끝까지":5025,"종합":5026,"팀을":5027,"어울":5028,"##물의":5029,"게임의":5030,"2003년":5031,"이야기가":5032,"오후":5033,"##키를":5034,"##ᆻ으면":5035,"28일":5036,"MP":5037,"##도와":5038,"능력치":5039,"랭크":5040,"이것이":5041,"이후에는":5042,"7일":5043,"엉":5044,"##헨":5045,"국가대표":5046,"##웨이":5047,"##ᆸ터":5048,"##사건":5049,"##륜":5050,"##했다":5051,"##되기도":5052,"##량은":5053,"홈페이지":5054,"광역":5055,"##직을":5056,"해주":5057,"시나리오":5058,"알려진":5059,"유용":5060,"밸런":5061,"처음에는":5062,"##관은":5063,"잡고":5064,"게시":5065,"용병":5066,"##'는":5067,"##카드":5068,"길을":5069,"개의":5070,"궤":5071,"제조":5072,"떼":5073,"테러":5074,"개선":5075,"자이":5076,"##셀":5077,"서포":5078,"##농":5079,"##능력":5080,"걸어":5081,"2.":5082,"죽이":5083,"##계에":5084,"받아들":5085,"##구나":5086,"애매":5087,"서비스":5088,"뭔가":5089,"##이라서":5090,"##까지의":5091,"##하기로":5092,"나카":5093,"##단은":5094,"드러내":5095,"쿄":5096,"컨트로":5097,"##ove":5098,"##값":5099,"걸로":5100,"##권의":5101,"소울":5102,"미친":5103,"##미야":5104,"무기를":5105,"미나":5106,"이곳":5107,"뛰어":5108,"소리를":5109,"##기만":5110,"##3,":5111,"중이다.":5112,"도움이":5113,"집에":5114,"실험":5115,"##oo":5116,"##리트":5117,"수준의":5118,"##수와":5119,"인기를":5120,"흔히":5121,"뒤로":5122,"##받고":5123,"보여주는":5124,"귀족":5125,"##쥬":5126,"##성으로":5127,"##모로":5128,"중화":5129,"##딘":5130,"##었는데":5131,"##ard":5132,"거절":5133,"##대,":5134,"Re":5135,"##비의":5136,"##주시":5137,"10%":5138,"참고.":5139,"증거":5140,"본편":5141,"##ang":5142,"##우의":5143,"##위원회":5144,"SBS":5145,"##PC":5146,"##하자면":5147,"시내":5148,"플라":5149,"##달라고":5150,"달러":5151,"습격":5152,"전술":5153,"싶어":5154,"##ell":5155,"보이지":5156,"아스":5157,"유키":5158,"27일":5159,"##성,":5160,"발휘":5161,"##사키":5162,"##라와":5163,"##다면,":5164,"처치":5165,"때부터":5166,"추가된":5167,"당장":5168,"사상":5169,"Sh":5170,"##등을":5171,"말고":5172,"폭탄":5173,"위에서":5174,"없게":5175,"##험이":5176,"타이밍":5177,"레이저":5178,"일반적으로":5179,"히트":5180,"뉴욕":5181,"##마을":5182,"단체":5183,"한다":5184,"왼쪽":5185,"바뀌었다.":5186,"콩":5187,"##ant":5188,"지옥":5189,"카페":5190,"##ers":5191,"##하이":5192,"##루스":5193,"##서의":5194,"##타의":5195,"##오의":5196,"밀려":5197,"개편":5198,"진영":5199,"##언을":5200,"렌":5201,"그들의":5202,"##라리":5203,"##ine":5204,"##랭":5205,"상대의":5206,"##해보":5207,"서울특별":5208,"거대":5209,"##자들을":5210,"속에서":5211,"갱":5212,"##관의":5213,"자살":5214,"##토의":5215,"##다가,":5216,"재생":5217,"모자":5218,"##ᆺ으로":5219,"##주차":5220,"어렵다.":5221,"또한,":5222,"14일":5223,"39":5224,"##프의":5225,"##품이":5226,"##마스":5227,"##팡":5228,"##다고.":5229,"##식은":5230,"레전":5231,"상대적으로":5232,"쉬운":5233,"공통":5234,"##전사":5235,"##였고":5236,"##론이":5237,"아무래도":5238,"미야":5239,"##둑":5240,"문제로":5241,"깎":5242,"상황에":5243,"##어져":5244,"시작한":5245,"원하는":5246,"##OS":5247,"타임":5248,"##제이":5249,"사건이":5250,"지역의":5251,"강제":5252,"제안":5253,"못한다.":5254,"##ᆻ지만,":5255,"수치":5256,"##심히":5257,"21일":5258,"부상":5259,"산업":5260,"##쳐서":5261,"##효과":5262,"퓨":5263,"구입":5264,"중에서도":5265,"##옹":5266,"하나를":5267,"단독":5268,"크다.":5269,"줄어들":5270,"전자":5271,"누가":5272,"##만크":5273,"슬로":5274,"##갖":5275,"겨울":5276,"##ᆷ이다.":5277,"비록":5278,"##느냐":5279,"##면서도":5280,"지명":5281,"##ᆺ글":5282,"26일":5283,"홍콩":5284,"벗어나":5285,"##ᆼ가":5286,"##중학교":5287,"##대와":5288,"반란":5289,"##연구":5290,"다름":5291,"찰":5292,"들어서":5293,"상대를":5294,"폰":5295,"##향이":5296,"##.12":5297,"계산":5298,"##조를":5299,"꼴":5300,"숨겨":5301,"자기가":5302,"##토를":5303,"##AS":5304,"##융":5305,"스페인":5306,"##/3":5307,"건너":5308,"미사일":5309,"##와서":5310,"2013":5311,"뛰어나":5312,"조준":5313,"근거":5314,"상태가":5315,"에어":5316,"##크는":5317,"##스탄":5318,"##AM":5319,"꾸준히":5320,"떨어지는":5321,"꼽":5322,"행복":5323,"스크":5324,"##ED":5325,"17일":5326,"12일":5327,"Sp":5328,"민족":5329,"##개월":5330,"##사항":5331,"##찾":5332,"##격이":5333,"향해":5334,"##모리":5335,"낳":5336,"8일":5337,"그녀를":5338,"출발":5339,"온라인":5340,"##것이":5341,"떨":5342,"##당이":5343,"##형의":5344,"하나가":5345,"이미지":5346,"##교통":5347,"못해":5348,"##VE":5349,"##기인":5350,"싶은":5351,"##렛":5352,"##하러":5353,"사실은":5354,"탑승":5355,"헤이":5356,"##오가":5357,"11일":5358,"고유":5359,"어그":5360,"동일한":5361,"##윈":5362,"##하게도":5363,"##비는":5364,"##원과":5365,"시설":5366,"만족":5367,"##파이":5368,"##묵":5369,"##있던":5370,"광고":5371,"18일":5372,"##적이고":5373,"바르":5374,"채용":5375,"반영":5376,"오스트":5377,"22일":5378,"##치지":5379,"##먹는":5380,"머리를":5381,"13일":5382,"16일":5383,"우려":5384,"텔레":5385,"##구로":5386,"##/32":5387,"##철도":5388,"장르":5389,"##돌이":5390,"꺼내":5391,"두산":5392,"실질":5393,"##-10":5394,"존재하는":5395,"##즈는":5396,"뿐이다.":5397,"문서:":5398,"24일":5399,"얘기":5400,"약한":5401,"프레이":5402,"에서":5403,"흰":5404,"싸워":5405,"##학을":5406,"테마":5407,"6일":5408,"판타":5409,"시티":5410,"사항":5411,"##할때":5412,"##였지만":5413,"르":5414,"쏟":5415,"필드":5416,"##스에게":5417,"붕괴":5418,"##ive":5419,"##친다.":5420,"그게":5421,"내용이":5422,"황제":5423,"혼란":5424,"온갖":5425,"23일":5426,"액션":5427,"##권에서":5428,"##먼트":5429,"스테이":5430,"파악":5431,"##되고,":5432,"흘러":5433,"캔":5434,"##자마자":5435,"인생":5436,"맡았다.":5437,"힘들다.":5438,"라이트":5439,"##에,":5440,"##500":5441,"##니가":5442,"료":5443,"오는":5444,"것이라":5445,"공격력이":5446,"##gt;":5447,"이상한":5448,"##안타":5449,"##ee":5450,"이래":5451,"기록했다.":5452,"BG":5453,"처음부터":5454,"안습":5455,"되었고,":5456,"있으므로":5457,"##점에서":5458,"사람들":5459,"위로":5460,"##히고":5461,"강조":5462,"##끼리":5463,"##ack":5464,"활약을":5465,"극장판":5466,"훌륭":5467,"관광":5468,"##잖아":5469,"덩":5470,"##이던":5471,"거리":5472,"그것을":5473,"##사인":5474,"바닥":5475,"생물":5476,"살짝":5477,"패러디":5478,"9일":5479,"SS":5480,"없고,":5481,"##임에도":5482,"##차피":5483,"해제":5484,"19일":5485,"##율을":5486,"##ast":5487,"##373":5488,"아오":5489,"스파이":5490,"커버":5491,"3회":5492,"##어주":5493,"당시에는":5494,"나오고":5495,"그렇다고":5496,"어쩔":5497,"핀":5498,"모험":5499,"탄생":5500,"기원":5501,"배신":5502,"루이":5503,"120":5504,"수원":5505,"두번째":5506,"##마리":5507,"컨셉":5508,"둘이":5509,"##주년":5510,"Th":5511,"고민":5512,"인간의":5513,"##바람":5514,"##곳에":5515,"데스":5516,"방식으로":5517,"부터":5518,"는":5519,"##모가":5520,"##다지":5521,"하위":5522,"##전에서는":5523,"공산":5524,"##루를":5525,"29일":5526,"아야":5527,"##화로":5528,"##하였으며,":5529,"삽":5530,"아우":5531,"플레이어가":5532,"FI":5533,"지하철":5534,"주도":5535,"[[":5536,"##uby":5537,"##ᆷ스":5538,"보여준":5539,"돌파":5540,"아니지만":5541,"들어오":5542,"##가능":5543,"지급":5544,"밴드":5545,"둘러":5546,"확률이":5547,"##왕이":5548,"##4,":5549,"화살":5550,"기ᄈ":5551,"##과학":5552,"##터의":5553,"##로그":5554,"스킬이":5555,"않기":5556,"중간에":5557,"##ᆷ에서":5558,"만들었다.":5559,"##'에":5560,"주어":5561,"않지만":5562,"ST":5563,"당황":5564,"##스트를":5565,"프로젝트":5566,"##&gt;":5567,"##았을":5568,"속에":5569,"##만은":5570,"사람들을":5571,"2012":5572,"##밀리":5573,"##선은":5574,"셈.":5575,"은근":5576,"##시와":5577,"##기에는":5578,"횟":5579,"##정부":5580,"##속성":5581,"나쁜":5582,"##3c":5583,"말해":5584,"뒤집":5585,"납치":5586,"##거리가":5587,"말도":5588,"2001년":5589,"가로":5590,"##버렸":5591,"##lt;":5592,"와중에":5593,"##은행":5594,"1위를":5595,"방패":5596,"시점에서":5597,"##되었던":5598,"클로":5599,"##선에서":5600,"이들":5601,"표준":5602,"뻐":5603,"마지막으로":5604,"오프닝":5605,"##ᆺ포":5606,"##루의":5607,"들어간":5608,"##ong":5609,"패시브":5610,"##자리":5611,"입은":5612,"괜찮":5613,"우승을":5614,"갖추":5615,"융":5616,"가입":5617,"##ᆯ은":5618,"##오카":5619,"기절":5620,"때려":5621,"스프":5622,"일종의":5623,"47":5624,"##AC":5625,"be":5626,"즉시":5627,"몰아":5628,"얻은":5629,"##국이":5630,"작전":5631,"닥터":5632,"##개가":5633,"##하긴":5634,"##방이":5635,"의심":5636,"열심히":5637,"한국어":5638,"##ort":5639,"옮겨":5640,"외에":5641,"신뢰":5642,"##파이어":5643,"##ruby":5644,"구단":5645,"이름의":5646,"데미지가":5647,"##로서의":5648,"##닌":5649,"통일":5650,"디스":5651,"3번":5652,"밟":5653,"##판에":5654,"실행":5655,"마련":5656,"##담을":5657,"있었지만":5658,"하기도":5659,"##즈키":5660,"##if":5661,"사실이":5662,"만에":5663,"오른쪽":5664,"##LC":5665,"몰라":5666,"기획":5667,"있었고,":5668,"한때":5669,"추정된다.":5670,"##ind":5671,"##데미":5672,"##오프":5673,"아사":5674,"불명":5675,"받게":5676,"버튼":5677,"##ᆯ린":5678,"##5%":5679,"##ith":5680,"##a3c":5681,"물러":5682,"##373a3c":5683,"##점에":5684,"공항":5685,"400":5686,"##EC":5687,"단일":5688,"##세는":5689,"##동에":5690,"한화":5691,"덮":5692,"일으켜":5693,"##토리":5694,"명예":5695,"역전":5696,"PS":5697,"않아서":5698,"##ruby]":5699,"##ld":5700,"옆에":5701,"하던":5702,"어차피":5703,"대미지":5704,"바탕으로":5705,"##마법":5706,"##정보":5707,"##장.":5708,"대답":5709,"##티컬":5710,"현재의":5711,"아웃":5712,"내에":5713,"것이라는":5714,"만난":5715,"주력":5716,"내내":5717,"들어가는":5718,"등등":5719,"실력":5720,"이론":5721,"##베르":5722,"서울특별시":5723,"##시리즈":5724,"사정":5725,"##ly":5726,"설득":5727,"10년":5728,"옵션":5729,"가까이":5730,"후쿠":5731,"이스":5732,"제주":5733,"##놀":5734,"##진은":5735,"시키":5736,"수입":5737,"댓글":5738,"##ffffff":5739,"아이템을":5740,"커뮤니티":5741,"교환":5742,"습득":5743,"##르기":5744,"뒤,":5745,"없애":5746,"동아":5747,"보수":5748,"눈치":5749,"분석":5750,"##지마":5751,"언어":5752,"##지며":5753,"##인지라":5754,"20%":5755,"제로":5756,"입학":5757,"이승":5758,"##하기에":5759,"성적":5760,"##증을":5761,"스페셜":5762,"##까?":5763,"절반":5764,"가면라이더":5765,"초월":5766,"경유":5767,"링":5768,"공주":5769,"박살":5770,"공격이":5771,"2위":5772,"무력":5773,"음식":5774,"기여":5775,"2루":5776,"발음":5777,"데이터":5778,"##렴":5779,"##ist":5780,"걸려":5781,"김성":5782,"것이었다.":5783,"카드가":5784,"집안":5785,"##쿨":5786,"놓고":5787,"##선으로":5788,"여름":5789,"돌격":5790,"시켜":5791,"##우를":5792,"##니,":5793,"##둬":5794,"46":5795,"##급의":5796,"울트라":5797,"알렉":5798,"##럴":5799,"44":5800,"건축":5801,"시행":5802,"메이저":5803,"##치에":5804,"사거리":5805,"수리":5806,"##단으로":5807,"못하게":5808,"##회는":5809,"##말을":5810,"정말로":5811,"##'으로":5812,"##VP":5813,"했는데":5814,"##원들이":5815,"##ain":5816,"행동을":5817,"##지컬":5818,"공을":5819,"##//":5820,"랭":5821,"##군과":5822,"정글":5823,"펼쳐":5824,"##지자":5825,"재능":5826,"이슬":5827,"두려":5828,"가득":5829,"계승":5830,"작품이":5831,"위키":5832,"사이트":5833,"##이와":5834,"##룩":5835,"##.11":5836,"아티":5837,"##역,":5838,"##ps":5839,"##~3":5840,"딜러":5841,"##했다가":5842,"내구":5843,"##니어":5844,"말한":5845,"##탐":5846,"그다지":5847,"선배":5848,"부분은":5849,"오픈":5850,"##기에서":5851,"레인":5852,"###x":5853,"로드":5854,"롱":5855,"##-5":5856,"갑오":5857,"##요!":5858,"##켄":5859,"격파":5860,"위하여":5861,"##per":5862,"마주":5863,"사람도":5864,"제국의":5865,"안되는":5866,"붙여":5867,"##마이":5868,"##홈":5869,"노래를":5870,"안드로":5871,"##했으나,":5872,"##각을":5873,"엑스":5874,"덕에":5875,"룰":5876,"##하지는":5877,"##싼":5878,"##권에":5879,"공유":5880,"01":5881,"##공항":5882,"나의":5883,"##해지는":5884,"조정":5885,"붙잡":5886,"밥":5887,"계속해서":5888,"격투":5889,"정도는":5890,"제기":5891,"##즘":5892,"##면을":5893,"얼음":5894,"그럴":5895,"값":5896,"마법사":5897,"마녀":5898,"마츠":5899,"형제":5900,"살고":5901,"기독":5902,"##해주는":5903,"정령":5904,"팀은":5905,"쓰러뜨":5906,"점수":5907,"##병을":5908,"##ᆷ입":5909,"##낼":5910,"##족의":5911,"맡은":5912,"위해서는":5913,"클리":5914,"##가에":5915,"적도":5916,"쓰지":5917,"##연합":5918,"그녀가":5919,"브라질":5920,"##치와":5921,"고급":5922,"죽는":5923,"일부러":5924,"당시의":5925,"07":5926,"의미가":5927,"##츄":5928,"오로":5929,"##판의":5930,"하다가":5931,"그것도":5932,"여러가지":5933,"##다\"고":5934,"곳에서":5935,"그동안":5936,"보인":5937,"다행히":5938,"이뤄":5939,"북미":5940,"피아":5941,"##였다고":5942,"경계":5943,"근무":5944,"##ᆸ고":5945,"가문":5946,"때문인지":5947,"##역에서":5948,"하수":5949,"건강":5950,"없었던":5951,"메탈":5952,"NC":5953,"사용하면":5954,"##est":5955,"모양.":5956,"##껏":5957,"비롯":5958,"##바라":5959,"카르":5960,"남겨":5961,"네이버":5962,"외교":5963,"##눈":5964,"데리고":5965,"노르":5966,"##HE":5967,"아시":5968,"##긴다.":5969,"##장인":5970,"울산":5971,"연예":5972,"쇠":5973,"추진":5974,"베르":5975,"생각하는":5976,"와서":5977,"##기간":5978,"##OL":5979,"순식":5980,"##:3":5981,"아무도":5982,"했을":5983,"책임":5984,"비하면":5985,"##악한":5986,"이들이":5987,"셋":5988,"의도":5989,"공작":5990,"프라이":5991,"##화,":5992,"증명":5993,"##류가":5994,"통한":5995,"제품":5996,"전체적으로":5997,"##소의":5998,"##엽":5999,"##판에서는":6000,"떠올":6001,"느낌이":6002,"패치로":6003,"쓰레":6004,"프로토":6005,"효율":6006,"세력":6007,"\"그":6008,"무난":6009,"##았다고":6010,"심각한":6011,"거래":6012,"장애":6013,"암흑":6014,"##사용":6015,"걷":6016,"역으로":6017,"##화는":6018,"후에는":6019,"스트라이":6020,"드랍":6021,"##0000":6022,"43":6023,"##니의":6024,"얼굴을":6025,"3.":6026,"늑":6027,"포인":6028,"아무런":6029,"##ry":6030,"글로":6031,"낚":6032,"신인":6033,"##땅":6034,"실제로는":6035,"홍보":6036,"화려":6037,"쓰이는":6038,"했다고":6039,"자리에":6040,"크레":6041,"해체":6042,"주인공이":6043,"##IT":6044,"##373a3c,#dddddd":6045,"'이":6046,"##디언":6047,"##시간이":6048,"정체":6049,"##색이":6050,"##프레":6051,"02":6052,"08":6053,"시야":6054,"못할":6055,"전투에서":6056,"##등급":6057,"연계":6058,"##별로":6059,"##해졌":6060,"##lo":6061,"자동차":6062,"입수":6063,"3차":6064,"민간":6065,"돌아오":6066,"##판은":6067,"취소":6068,"에이스":6069,"한계":6070,"하나인":6071,"##64":6072,"##부와":6073,"순식간에":6074,"##들이다.":6075,"기독교":6076,"##리안":6077,"추가되었다.":6078,"싸우는":6079,"1999년":6080,"##-12":6081,"스튜":6082,"사건을":6083,"베트":6084,"관객":6085,"##면에":6086,"해적":6087,"8강":6088,"여동생":6089,"##스팅":6090,"힐":6091,"뒤를":6092,"##원도":6093,"지금까지":6094,"관심을":6095,"살아남":6096,"##큰":6097,"##실이":6098,"보여주었다.":6099,"옹":6100,"##명,":6101,"##기까지":6102,"이겨":6103,"않고,":6104,"목적으로":6105,"캐나다":6106,"돌아와":6107,"난이도가":6108,"##'이라고":6109,"##오를":6110,"카운터":6111,"부족한":6112,"족":6113,"복잡":6114,"신의":6115,"있긴":6116,"##FC":6117,"##인.":6118,"채로":6119,"깃":6120,"##마는":6121,"로켓":6122,"많았다.":6123,"##었는데,":6124,"통해서":6125,"그만큼":6126,"##관으로":6127,"##담이":6128,"때에는":6129,"노트":6130,"선수가":6131,"예술":6132,"##유키":6133,"얻는":6134,"함정":6135,"##프는":6136,"넘겨":6137,"전달":6138,"소멸":6139,"선호":6140,"꺾":6141,"회전":6142,"첫번째":6143,"or":6144,"나루":6145,"##보단":6146,"파견":6147,"##워드":6148,"방송을":6149,"도달":6150,"당한":6151,"##거운":6152,"투자":6153,"돌진":6154,"me":6155,"모티브":6156,"##스포":6157,"##PU":6158,"1998년":6159,"최악의":6160,"어려워":6161,"이들의":6162,"##자들에게":6163,"몰래":6164,"##되었으며":6165,"##스턴":6166,"듀얼":6167,"##호,":6168,"캐릭터의":6169,"##달리":6170,"닿":6171,"on":6172,"크리티컬":6173,"##하시":6174,"##중한":6175,"스킨":6176,"체포":6177,"수요":6178,"##가락":6179,"##인에게":6180,"감염":6181,"핵심":6182,"##치,":6183,"##해,":6184,"##컷":6185,"방향으로":6186,"06":6187,"괴물":6188,"텍":6189,"##ᆻ어":6190,"드디어":6191,"정확히":6192,"대륙":6193,"맞이":6194,"CD":6195,"몸이":6196,"빨간":6197,"대장":6198,"03":6199,"##코는":6200,"출현":6201,"셔":6202,"경영":6203,"쓴다.":6204,"파이널":6205,"##깔":6206,"##지방":6207,"아닐":6208,"##100":6209,"##시장":6210,"겐":6211,"관계를":6212,"##쓸":6213,"##우리":6214,"흔들":6215,"편이":6216,"리버":6217,"네덜":6218,"어쨌":6219,"##었으나":6220,"##류를":6221,"불꽃":6222,"가이":6223,"##널티":6224,"수용":6225,"##BO":6226,"체육":6227,"닮":6228,"테크":6229,"본격적으로":6230,"소프트":6231,"해방":6232,"기회를":6233,"넓은":6234,"러브":6235,"##만원":6236,"노출":6237,"지역에":6238,"##대회":6239,"하자.":6240,"까다":6241,"입단":6242,"국회의원":6243,"##관에":6244,"문을":6245,"##해가":6246,"있었으나":6247,"자원":6248,"##임이":6249,"목적":6250,"균":6251,"드립":6252,"개통":6253,"##로로":6254,"조용":6255,"다녀":6256,"교황":6257,"폭풍":6258,"부진":6259,"고전":6260,"의식":6261,"NPC":6262,"09":6263,"it":6264,"방법을":6265,"##아웃":6266,"##것을":6267,"추락":6268,"요새":6269,"잉글":6270,"충청":6271,"단지":6272,"##거리는":6273,"구현":6274,"##목을":6275,"넘는":6276,"쓰인다.":6277,"이쪽은":6278,"##아,":6279,"##사.":6280,"##ust":6281,"아무것도":6282,"다니는":6283,"##당을":6284,"묵":6285,"감독이":6286,"##카를":6287,"쓰면":6288,"등판":6289,"##냈다.":6290,"##관계":6291,"변호":6292,"눈이":6293,"후지":6294,"낭":6295,"##뜩":6296,"일으키":6297,"목숨을":6298,"의견이":6299,"99":6300,"대규모":6301,"대로":6302,"계급":6303,"64":6304,"##]]":6305,"##종이":6306,"52":6307,"중.":6308,"방법이":6309,"##즐":6310,"##5,":6311,"가능.":6312,"등에서":6313,"옷":6314,"##구,":6315,"영원":6316,"##아파트":6317,"아니라,":6318,"했지만,":6319,"잡혀":6320,"##시한":6321,"견제":6322,"##형은":6323,"신규":6324,"응원":6325,"편성":6326,"##끄러":6327,"프리미":6328,"AT":6329,"충전":6330,"최상":6331,"작용":6332,"##실에":6333,"##으려":6334,"되찾":6335,"##체로":6336,"...":6337,"신청":6338,"1인":6339,"##숭":6340,"사이의":6341,"해당하는":6342,"없다":6343,"성능이":6344,"##브를":6345,"됐다.":6346,"수학":6347,"셀":6348,"이용하여":6349,"##일은":6350,"무지":6351,"죽여":6352,"is":6353,"카나":6354,"중인":6355,"뉴스":6356,"Su":6357,"쪽으로":6358,"치고":6359,"크루":6360,"##한국":6361,"##팀이":6362,"인근":6363,"##까지만":6364,"49":6365,"##믹":6366,"되는데":6367,"아직도":6368,"상향":6369,"이후로는":6370,"깊은":6371,"열차":6372,"감독의":6373,"거야":6374,"유명하다.":6375,"튜":6376,"1997년":6377,"그에게":6378,"교수":6379,"##머리":6380,"##듯.":6381,"보도":6382,"모습은":6383,"폐지":6384,"대립":6385,"##부,":6386,"마지막에":6387,"모른":6388,"옛날":6389,"##se":6390,"비슷하게":6391,"협력":6392,"모른다.":6393,"말할":6394,"여러모로":6395,"덤":6396,"기록을":6397,"자치":6398,"갓":6399,"있었는데,":6400,"의사":6401,"기초":6402,"##주인":6403,"고양이":6404,"##낸다.":6405,"31일":6406,"긍":6407,"괜찮은":6408,"윌리":6409,"통신":6410,"180":6411,"먹을":6412,"대상으로":6413,"모리":6414,"동원":6415,"걸쳐":6416,"경기가":6417,"이시":6418,"영상을":6419,"보너스":6420,"##박을":6421,"트위터":6422,"불편":6423,"해설":6424,"우리가":6425,"있어야":6426,"##ore":6427,"##고의":6428,"컨텐츠":6429,"##역에":6430,"##주,":6431,"생각을":6432,"스마트":6433,"훔":6434,"쪽이":6435,"##라노":6436,"##경이":6437,"기능을":6438,"효과는":6439,"##장한":6440,"##공의":6441,"##멍":6442,"##형으로":6443,"서비":6444,"어깨":6445,"##저히":6446,"출판":6447,"부분을":6448,"##터리":6449,"파이터":6450,"수집":6451,"캐릭터를":6452,"##컴":6453,"필요하다.":6454,"##:4":6455,"집단":6456,"이후의":6457,"##6,":6458,"##인들은":6459,"파이어":6460,"혼자서":6461,"언제나":6462,"##어와":6463,"##잘":6464,"##색을":6465,"##스트라":6466,"만들고":6467,"##RE":6468,"##로스":6469,"매일":6470,"##앤":6471,"수준으로":6472,"모바":6473,"고향":6474,"##자키":6475,"토모":6476,"섭":6477,"##납":6478,"연애":6479,"무료":6480,"##야의":6481,"US":6482,"전투를":6483,"화이트":6484,"##쾌":6485,"말이다.":6486,"##인민":6487,"1.5":6488,"##용이":6489,"##one":6490,"글을":6491,"무대":6492,"운전":6493,"##자고":6494,"그런지":6495,"끔":6496,"대폭":6497,"MS":6498,"전라":6499,"다수":6500,"반응을":6501,"몸에":6502,"##소에":6503,"##가?":6504,"##미,":6505,"달아":6506,"00":6507,"##파의":6508,"행사":6509,"##되자":6510,"아일":6511,"##악을":6512,"유저들이":6513,"30%":6514,"덧":6515,"마음에":6516,"순서":6517,"맡고":6518,"스탠":6519,"##리온":6520,"##24":6521,"인지":6522,"##맛":6523,"복수":6524,"##리스트":6525,"창작":6526,"유희":6527,"공부":6528,"하나.":6529,"공화국":6530,"빠진":6531,"무르":6532,"고생":6533,"푸른":6534,"본선":6535,"둥":6536,"뱀":6537,"KT":6538,"걸린":6539,"##ᇀ은":6540,"학살":6541,"##영상":6542,"타워":6543,"상황.":6544,"자체를":6545,"자신과":6546,"대체로":6547,"&lt;":6548,"##ᆻ는지":6549,"##함에":6550,"##짱":6551,"돌아온":6552,"자이언":6553,"##콤":6554,"##책을":6555,"위기에":6556,"##인이다.":6557,"마리아":6558,"##보스":6559,"##전투":6560,"만든다.":6561,"평화":6562,"번호":6563,"##인인":6564,"무효":6565,"##민이":6566,"제법":6567,"화장":6568,"##카는":6569,"##격으로":6570,"간의":6571,"기습":6572,"##톨릭":6573,"사람들의":6574,"노예":6575,"##렙":6576,"사진을":6577,"있었는데":6578,"콘서":6579,"##쩡":6580,"이후에도":6581,"##페이스":6582,"##이로":6583,"조지":6584,"어디까지":6585,"드물":6586,"등과":6587,"마시":6588,"중학교":6589,"##앞":6590,"##이라며":6591,"그와":6592,"이날":6593,"이것을":6594,"##버려":6595,"케이스":6596,"#373a3c,#dddddd":6597,"안에서":6598,"본인도":6599,"##연이":6600,"##동의":6601,"2배":6602,"오빠":6603,"충돌":6604,"네가":6605,"참전":6606,"성능을":6607,"##아를":6608,"전원":6609,"에스":6610,"넣어":6611,"##라이언":6612,"An":6613,"던져":6614,"춘":6615,"##다의":6616,"인상":6617,"거기다":6618,"사이가":6619,"적어도":6620,"스폰":6621,"특별한":6622,"##피스":6623,"04":6624,"##PG":6625,"##운다.":6626,"추적":6627,"뼈":6628,"템":6629,"위치를":6630,"##비전":6631,"말은":6632,"명이":6633,"작동":6634,"호평":6635,"##ip":6636,"거라고":6637,"이중":6638,"계획을":6639,"필리":6640,"정류":6641,"##겠지만,":6642,"양산":6643,"A4":6644,"##조리":6645,"조금씩":6646,"05":6647,"어쩌":6648,"구출":6649,"영문":6650,"##먹을":6651,"유전":6652,"짤":6653,"겉":6654,"3위":6655,"하나는":6656,"똑같이":6657,"돌아다니":6658,"점차":6659,"들은":6660,"코드":6661,"된다는":6662,"사람들에게":6663,"##기엔":6664,"##타입":6665,"조심":6666,"##마저도":6667,"하다":6668,"가드":6669,"4강":6670,"##:30":6671,"대략":6672,"##하에":6673,"##라에":6674,"##아야":6675,"##리나":6676,"알파":6677,"##.25":6678,"##업이":6679,"##사랑":6680,"곡을":6681,"##\",":6682,"65":6683,"댄스":6684,"그것이":6685,"##시스":6686,"똑같은":6687,"##리얼":6688,"보낸":6689,"주지":6690,"##미니":6691,"##end":6692,"연사":6693,"4년":6694,"파일러":6695,"마이클":6696,"##할수":6697,"세월":6698,"##표를":6699,"##ere":6700,"있으나,":6701,"차별":6702,"##기지":6703,"헤드":6704,"##점.":6705,"즈":6706,"그렇지":6707,"다섯":6708,"체력을":6709,"변경되었다.":6710,"노멀":6711,"진정한":6712,"##었기":6713,"4개":6714,"입장에서는":6715,"스웨":6716,"1996년":6717,"##드러":6718,"준우":6719,"내는":6720,"있었고":6721,"4,":6722,"##지원":6723,"##안이":6724,"##함으로써":6725,"공급":6726,"동작":6727,"익숙":6728,"연방":6729,"Te":6730,"블러":6731,"##관,":6732,"전직":6733,"되는데,":6734,"보이고":6735,"##33":6736,"도서":6737,"그들은":6738,"##당에":6739,"캐릭터.":6740,"##마디":6741,"##적의":6742,"이노":6743,"잡는":6744,"##리자":6745,"##세에":6746,"사토":6747,"##조는":6748,"##75":6749,"런던":6750,"##어날":6751,"행성":6752,"##역의":6753,"미츠":6754,"##??":6755,"생겼다.":6756,"##닫":6757,"파란":6758,"관계가":6759,"레오":6760,"성인":6761,"와이":6762,"##리면서":6763,"##동차":6764,"##디션":6765,"임시":6766,"##주에":6767,"##국을":6768,"비중이":6769,"##녁":6770,"거리가":6771,"그럼에도":6772,"##프리":6773,"살려":6774,"어지":6775,"되자":6776,"프린":6777,"##병이":6778,"널리":6779,"##ity":6780,"##실에서":6781,"코스트":6782,"##파를":6783,"불법":6784,"##ᅮᆯ러":6785,"##력도":6786,"형태의":6787,"많았":6788,"의혹":6789,"##유가":6790,"찾아가":6791,"##재를":6792,"스카이":6793,"예선":6794,"심한":6795,"위원":6796,"시기에":6797,"했고,":6798,"선물":6799,"도중에":6800,"##ath":6801,"기반으로":6802,"##짜리":6803,"최후의":6804,"##-11":6805,"##화되어":6806,"##상,":6807,"때가":6808,"##사라":6809,"펼치기":6810,"##좋":6811,"1대":6812,"마리오":6813,"##스킬":6814,"이재":6815,"탁":6816,"쉐":6817,"낸":6818,"높이":6819,"젠":6820,"##내고":6821,"그로":6822,"더빙":6823,"##부대":6824,"세계의":6825,"##-20":6826,"1995년":6827,"BGM":6828,"이내":6829,"몰려":6830,"##.01":6831,"멕시":6832,"권총":6833,"어드":6834,"##님의":6835,"##한의":6836,"##공화국":6837,"##고로":6838,"조성":6839,"국립":6840,"##이치":6841,"16강":6842,"##인에":6843,"막을":6844,"갈아":6845,"레전드":6846,"빠르":6847,"제4":6848,"플로":6849,"수영":6850,"시각":6851,"##ᆸ의":6852,"##히로":6853,"합쳐":6854,"낮아":6855,"아머":6856,"메카":6857,"MAX":6858,"인공":6859,"간다.":6860,"Ar":6861,"정도가":6862,"변형":6863,"다가":6864,"근처에":6865,"유로":6866,"달린":6867,"타케":6868,"##슬러":6869,"등은":6870,"##민의":6871,"##체에":6872,"전형":6873,"고용":6874,"공격에":6875,"신성":6876,"##테인":6877,"Ne":6878,"장식":6879,"합격":6880,"박근":6881,"##당하는":6882,"##티아":6883,"집어":6884,"2010":6885,"##색으로":6886,"##데스":6887,"유령":6888,"##냐며":6889,"붙은":6890,"##쟁이":6891,"지니고":6892,"다리":6893,"비디오":6894,"##200":6895,"##미와":6896,"마도":6897,"아버지가":6898,"정확한":6899,"SN":6900,"##였으나":6901,"##주면":6902,"##인들의":6903,"구속":6904,"De":6905,"##항공":6906,"##받았다.":6907,"##료를":6908,"##과를":6909,"##필드":6910,"##데레":6911,"곧바로":6912,"5회":6913,"파라":6914,"##하였으나":6915,"대부분이":6916,"접기":6917,"태어난":6918,"##ome":6919,"##자면":6920,"소리가":6921,"수송":6922,"4회":6923,"전까지":6924,"있었다고":6925,"팬들이":6926,"등장했다.":6927,"언니":6928,"##영화":6929,"샌":6930,"##들,":6931,"지속적으로":6932,"##65":6933,"하더라도":6934,"여왕":6935,"##부르크":6936,"대미지를":6937,"##되었을":6938,"평가가":6939,"FIFA":6940,"##버리고":6941,"모으":6942,"매니":6943,"AI":6944,"##해의":6945,"모바일":6946,"나를":6947,"이성":6948,"##과,":6949,"크로스":6950,"-원":6951,"아침":6952,"##MA":6953,"블록":6954,"쿠로":6955,"##우,":6956,"팬들은":6957,"주변에":6958,"출처":6959,"##이나,":6960,"불린다.":6961,"설정이":6962,"무언":6963,"단순한":6964,"김영":6965,"너무나":6966,"예측":6967,"모두가":6968,"9회":6969,"생일":6970,"오랫":6971,"##등이":6972,"회의":6973,"##달을":6974,"크고":6975,"생활을":6976,"쿨타임":6977,"마크":6978,"동네":6979,"엮":6980,"시장":6981,"라이벌":6982,"되었고":6983,"##중인":6984,"##마루":6985,"헤어":6986,"##섬":6987,"적극적으로":6988,"##무원":6989,"득표":6990,"예외":6991,"어둠의":6992,"##법이":6993,"##홈런":6994,"##씨가":6995,"내려가":6996,"수사":6997,"홀로":6998,"무엇보다":6999,"서서":7000,"리메이":7001,"편의":7002,"않았던":7003,"##보가":7004,"##교의":7005,"검색":7006,"##함과":7007,"초창":7008,"놈":7009,"##양이":7010,"58":7011,"극단":7012,"버려":7013,"가져가":7014,"녹음":7015,"어떻게든":7016,"플레이를":7017,"기억을":7018,"연상":7019,"의원":7020,"추격":7021,"빵":7022,"##데다":7023,"-명":7024,"쏟아":7025,"2011":7026,"##산이":7027,"전쟁을":7028,"공개된":7029,"자신들의":7030,"반격":7031,"일본어":7032,"##당은":7033,"웨이":7034,"져":7035,"잠수":7036,"##티드":7037,"취임":7038,"이들을":7039,"절망":7040,"커맨":7041,"줄어":7042,"구해":7043,"괴롭":7044,"막기":7045,"잦":7046,"업무":7047,"##야구":7048,"AC":7049,"##7,":7050,"##age":7051,"마술":7052,"##영이":7053,"##.02":7054,"##권은":7055,"요괴":7056,"고백":7057,"알레":7058,"존재하지":7059,"##IS":7060,"내의":7061,"##제한":7062,"밀어":7063,"##ᆺ,":7064,"##챠":7065,"지나치게":7066,"##이었으나":7067,"##탱":7068,"5년":7069,"MVP":7070,"파트너":7071,"##사업":7072,"관심이":7073,"차단":7074,"위험한":7075,"##놔":7076,"##절을":7077,"##경찰":7078,"##뿐만":7079,"판정":7080,"라이더":7081,"보물":7082,"승격":7083,"##전차":7084,"##평가":7085,"힘으로":7086,"##니다!":7087,"##둥이":7088,"중에는":7089,"않아도":7090,"압도적인":7091,"MC":7092,"종점":7093,"빗":7094,"등,":7095,"진지":7096,"189":7097,"다이아":7098,"##'에서":7099,"왠":7100,"대상이":7101,"3D":7102,"##무기":7103,"##곡을":7104,"##실한":7105,"##학자":7106,"##크라":7107,"디지털":7108,"들어와":7109,"저그":7110,"타이거":7111,"작중에서":7112,"중국의":7113,"밖으로":7114,"대항":7115,"목격":7116,"##당히":7117,"##22":7118,"##소는":7119,"동방":7120,"영국의":7121,"가톨릭":7122,"없으면":7123,"데이비":7124,"탱커":7125,"팝":7126,"이후,":7127,"일도":7128,"이루어진":7129,"자가":7130,"##드립":7131,"주전":7132,"박정":7133,"마음이":7134,"쏴":7135,"##호로":7136,"소화":7137,"FA":7138,"불가능하다.":7139,"##II":7140,"##관리":7141,"##쪽의":7142,"반발":7143,"능력은":7144,"##츠키":7145,"관할":7146,"##인간":7147,"마법을":7148,"본작":7149,"특이한":7150,"용의":7151,"클래스":7152,"개념":7153,"전면":7154,"잡을":7155,"##막을":7156,"나타난":7157,"3대":7158,"##스럽":7159,"##었다":7160,"규정":7161,"장수":7162,"닉":7163,"##였다는":7164,"##ect":7165,"일시":7166,"##동으로":7167,"##편의":7168,"잉":7169,"부상을":7170,"1994년":7171,"##하라고":7172,"##름을":7173,"후속작":7174,"##슈타":7175,"활성":7176,"가깝다.":7177,"유행":7178,"##환이":7179,"페이스":7180,"##개발":7181,"##했었다.":7182,"##://":7183,"브리":7184,"성격이":7185,"##국가":7186,"모여":7187,"##하면서도":7188,"##ᆻ다면":7189,"##현이":7190,"기점":7191,"##%의":7192,"외계":7193,"##ire":7194,"##구역":7195,"객":7196,"보여주고":7197,"쾌":7198,"중계":7199,"##떠":7200,"차라리":7201,"단어":7202,"주의.":7203,"##나라의":7204,"##절이":7205,"곁":7206,"##소에서":7207,"인수":7208,"브랜드":7209,"저장":7210,"이리":7211,"써서":7212,"##생활":7213,"DLC":7214,"##.03":7215,"사용하여":7216,"의뢰":7217,"기능이":7218,"예비":7219,"##세요.":7220,"입력":7221,"통상":7222,"##러가":7223,"THE":7224,"갤럭시":7225,"압박":7226,"##전,":7227,"되어서":7228,"##BA":7229,"펀":7230,"##ᆺ날":7231,"단점이":7232,"식민":7233,"히데":7234,"곳으로":7235,"##츠의":7236,"정착":7237,"스케":7238,"한동안":7239,"##친구":7240,"##방어":7241,"##하기는":7242,"에드":7243,"폭주":7244,"지금의":7245,"##tt":7246,"##에겐":7247,"##었으며,":7248,"아름다운":7249,"계약을":7250,"작품의":7251,"길드":7252,"이전의":7253,"대처":7254,"최강의":7255,"판타지":7256,"##버트":7257,"##석은":7258,"오랫동안":7259,"##66":7260,"전력":7261,"##연의":7262,"나눠":7263,"빌드":7264,"외부":7265,"##코,":7266,"긍정":7267,"베이스":7268,"창조":7269,"##네가":7270,"##명이다.":7271,"치명타":7272,"착각":7273,"##ᆸ에":7274,"2부":7275,"아바":7276,"##~4":7277,"예능":7278,"나와서":7279,"중에서는":7280,"##당하고":7281,"국방":7282,"##했는지":7283,"강철":7284,"##분의":7285,"##-8":7286,"##린이":7287,"##연을":7288,"##당했다.":7289,"##번에":7290,"생각이":7291,"바뀐":7292,"사운드":7293,"날개":7294,"역임":7295,"앵":7296,"의존":7297,"튀어나":7298,"##유를":7299,"현지":7300,"##편에서":7301,"서양":7302,"전후":7303,"다룬":7304,"부른":7305,"실력을":7306,"8회":7307,"쪼":7308,"성적을":7309,"마침내":7310,"##보이":7311,"있기에":7312,"맞지":7313,"41":7314,"많아서":7315,"아리":7316,"##교를":7317,"##해서는":7318,"유형":7319,"무적":7320,"루트":7321,"##들과는":7322,"말하면":7323,"자매":7324,"##때는":7325,"##르를":7326,"신기":7327,"##노가":7328,"기원전":7329,"죽인":7330,"어쨌든":7331,"막아내":7332,"##으려고":7333,"##시절":7334,"베스트":7335,"기술이":7336,"##핵":7337,"청년":7338,"끌려":7339,"##세로":7340,"##og":7341,"##토는":7342,"결성":7343,"승부":7344,"외에는":7345,"감시":7346,"간혹":7347,"출신의":7348,"##삭":7349,"오사카":7350,"##OT":7351,"Le":7352,"##류의":7353,"저녁":7354,"다루는":7355,"##스톤":7356,"최다":7357,"대사를":7358,"받아들이":7359,"대화를":7360,"신고":7361,"##ide":7362,"##/4":7363,"헨":7364,"신설":7365,"하나이다.":7366,"방출":7367,"오늘날":7368,"##군으로":7369,"##되었다고":7370,"총을":7371,"어디까지나":7372,"##ID":7373,"감옥":7374,"끝나고":7375,"##'.":7376,"##디가":7377,"##령을":7378,"싸울":7379,"##구치":7380,"##터테인":7381,"커플":7382,"##ure":7383,"##린의":7384,"부디":7385,"순수":7386,"가속":7387,"##트워":7388,"아니냐는":7389,"##라!":7390,"##소리":7391,"보장":7392,"찾는":7393,"탱크":7394,"콜로":7395,"잃은":7396,"닫":7397,"##진,":7398,"1990년":7399,"##배를":7400,"##번호":7401,"##육을":7402,"##ake":7403,"##ᆷ비":7404,"##룰":7405,"##\"는":7406,"##하는게":7407,"##리우":7408,"박근혜":7409,"##사령":7410,"현상":7411,"마구":7412,"엄마":7413,"콜라":7414,"심리":7415,"생각하고":7416,"보일":7417,"쉽다.":7418,"골든":7419,"안내":7420,"56":7421,"했다는":7422,"낼":7423,"##ime":7424,"소수":7425,"까지":7426,"##어버린":7427,"##그라":7428,"나나":7429,"갇":7430,"##론의":7431,"않는다는":7432,"강제로":7433,"##기업":7434,"##세요":7435,"세계를":7436,"인간이":7437,"##어리":7438,"지역을":7439,"##28":7440,"채워":7441,"침공":7442,"이지":7443,"##소한":7444,"54":7445,"보라":7446,"##웨어":7447,"경기는":7448,"주기":7449,"마인":7450,"맞은":7451,"비슷하다.":7452,"##타와":7453,"##통을":7454,"Me":7455,"##당해":7456,"##졌고,":7457,"##신으로":7458,"했는데,":7459,"주말":7460,"Se":7461,"##다'는":7462,"##과도":7463,"##던가":7464,"AK":7465,"디버":7466,"한자":7467,"좌우":7468,"나름대로":7469,"##독을":7470,"이어지는":7471,"근육":7472,"'아":7473,"자는":7474,"외국인":7475,"살아나":7476,"##실,":7477,"파일":7478,"3루":7479,"김태":7480,"올린":7481,"##찮":7482,"통제":7483,"죽음을":7484,"59":7485,"##튀":7486,"##등의":7487,"##즈,":7488,"##즈와":7489,"둘째":7490,"마이너":7491,"일본에서":7492,"##ᆺ가":7493,"##amp":7494,"실버":7495,"생각보다":7496,"합성":7497,"##ark":7498,"##니와":7499,"##판에서":7500,"##하거나,":7501,"이끌고":7502,"WW":7503,"구체":7504,"전화":7505,"##OM":7506,"자신도":7507,"##회사":7508,"이집":7509,"똑같":7510,"깜":7511,"레벨이":7512,"가고":7513,"정치적":7514,"한국에서":7515,"지나가":7516,"브루":7517,"무작":7518,"##레이터":7519,"##ᆷ새":7520,"예ᄈ":7521,"##77":7522,"대만":7523,"다수의":7524,"##았고,":7525,"##량으로":7526,"끌고":7527,"독자":7528,"빚":7529,"훌륭한":7530,"이루어져":7531,"##ES":7532,"화력":7533,"아가":7534,"정확히는":7535,"정복":7536,"지금도":7537,"##인지는":7538,"포르투":7539,"인형":7540,"빡":7541,"##의가":7542,"##코와":7543,"##코를":7544,"작사":7545,"어릴":7546,"우리는":7547,"구성되어":7548,"2기":7549,"##넌":7550,"발매된":7551,"은근히":7552,"안티":7553,"##유니":7554,"사용해":7555,"접촉":7556,"600":7557,"멜":7558,"수록곡":7559,"무기로":7560,"##노의":7561,"정면":7562,"##물에":7563,"인하여":7564,"##안에":7565,"KIA":7566,"더더":7567,"##ite":7568,"희귀":7569,"향상":7570,"깨닫":7571,"Lv.":7572,"학원":7573,"##르지":7574,"##일드":7575,"동시":7576,"소형":7577,"##들.":7578,"성립":7579,"은하":7580,"##38":7581,"6회":7582,"##톱":7583,"내놓":7584,"##겐":7585,"했고":7586,"수련":7587,"방법은":7588,"웹툰":7589,"영업":7590,"##OP":7591,"##재가":7592,"감정":7593,"##계에서":7594,"초등학교":7595,"밝혀졌다.":7596,"타게":7597,"##묘한":7598,"##주지":7599,"##들에게는":7600,"알렉산":7601,"베트남":7602,"좋게":7603,"##펴":7604,"노부":7605,"##점,":7606,"헌터":7607,"오스트리아":7608,"같아":7609,"##지고,":7610,"#ffffff":7611,"##또":7612,"DJ":7613,"앨리":7614,"맞서":7615,"캐릭터로":7616,"##하고자":7617,"정지":7618,"##실로":7619,"릴리":7620,"##당한다.":7621,"날아가":7622,"한편,":7623,"없던":7624,"##더스":7625,"드리":7626,"막장":7627,"태그":7628,"팬들의":7629,"##식에":7630,"강하게":7631,"사용하지":7632,"##심으로":7633,"독특":7634,"델":7635,"kt":7636,"것만":7637,"지역에서":7638,"##환을":7639,"일제":7640,"다들":7641,"출장":7642,"##UN":7643,"이끄":7644,"누적":7645,"등장인물.":7646,"마왕":7647,"썩":7648,"상호":7649,"베어":7650,"흥행":7651,"##ound":7652,"##.05":7653,"제5":7654,"옷을":7655,"예고":7656,"##치며":7657,"피격":7658,"##하려면":7659,"몬스터를":7660,"경향이":7661,"##한을":7662,"융합":7663,"이치":7664,"##iv":7665,"##구려":7666,"##oy":7667,"코믹스":7668,"##라기":7669,"##'t":7670,"##된다는":7671,"##ᆺ과":7672,"넉":7673,"더더욱":7674,"이란":7675,"##야가":7676,"2017-0":7677,"니시":7678,"##산업":7679,"할아버":7680,"##덱":7681,"my":7682,"반응이":7683,"CC":7684,"포스트":7685,"기본적인":7686,"아빠":7687,"이길":7688,"메시":7689,"극복":7690,"멀쩡":7691,"의료":7692,"스미":7693,"말로":7694,"맞게":7695,"##iz":7696,"##파가":7697,"당신":7698,"##크와":7699,"##현의":7700,"##드에서":7701,"들어간다.":7702,"세상을":7703,"7회":7704,"피를":7705,"편입":7706,"멈추":7707,"이르러":7708,"탄약":7709,"##명한":7710,"역사상":7711,"랜덤":7712,"경비":7713,"##조차도":7714,"핫":7715,"전에는":7716,"소닉":7717,"He":7718,"##법은":7719,"고등":7720,"테란":7721,"락":7722,"##센트":7723,"결과를":7724,"##였는데":7725,"##잡이":7726,"##민주당":7727,"##초간":7728,"섀":7729,"##졌을":7730,"88":7731,"5개":7732,"소총":7733,"수십":7734,"갈라":7735,"김정":7736,"##이었고,":7737,"인물.":7738,"##ᆻ는":7739,"눌러":7740,"지능":7741,"특기":7742,"대원":7743,"사용하고":7744,"그래픽":7745,"지어":7746,"Be":7747,"##재로":7748,"##.08":7749,"##소로":7750,"##명에":7751,"##구와":7752,"##피를":7753,"##렘":7754,"이상으로":7755,"지원을":7756,"알리":7757,"##듭":7758,"제2차":7759,"##투를":7760,"주었다.":7761,"##OW":7762,"스튜디오":7763,"스피드":7764,"훗날":7765,"##아는":7766,"이슬람":7767,"##크,":7768,"횡":7769,"##안의":7770,"##ᆸ게도":7771,"그라":7772,"넌":7773,"불가능한":7774,"로스":7775,"하얀":7776,"뜻은":7777,"대개":7778,"한마디":7779,"블로그":7780,"경험치":7781,"##마에":7782,"##군,":7783,"##AD":7784,"##멘트":7785,"원본":7786,"AR":7787,"##ge":7788,"코어":7789,"사랑을":7790,"##전과":7791,"탓":7792,"키워":7793,"별다른":7794,"역을":7795,"프로듀서":7796,"##팀의":7797,"감사":7798,"##ᆷ으로써":7799,"##ess":7800,"적대":7801,"##였기":7802,"게임에":7803,"어른":7804,"달고":7805,"+2":7806,"이주":7807,"57":7808,"슬라이":7809,"장면을":7810,"적응":7811,"접속":7812,"상황이다.":7813,"비싸":7814,"들어갈":7815,"##졸":7816,"##심한":7817,"청소년":7818,"발달":7819,"저주":7820,"문재":7821,"게임에서":7822,"관계로":7823,"스트리":7824,"속하는":7825,"##에이":7826,"있었기":7827,"전시":7828,"내세":7829,"##쩍":7830,"밝히":7831,"층":7832,"2세":7833,"##렁":7834,"킬":7835,"##만큼은":7836,"죄다":7837,"대충":7838,"문학":7839,"새벽":7840,"##잠":7841,"사라진":7842,"##종을":7843,"보게":7844,"##열이":7845,"GT":7846,"66":7847,"##색의":7848,"이끄는":7849,"전성":7850,"##시키기":7851,"##도르":7852,"##영의":7853,"중의":7854,"틈":7855,"리메이크":7856,"당해":7857,"##되었는데,":7858,"버리고":7859,"1992년":7860,"절대로":7861,"5,":7862,"쓰기":7863,"환승":7864,"##단과":7865,"자라":7866,"실력이":7867,"##화와":7868,"고마":7869,"##용을":7870,"이즈":7871,"다를":7872,"##9,":7873,"퀸":7874,"##니는":7875,"전형적인":7876,"##전대":7877,"물고":7878,"공격하는":7879,"방에":7880,"랭킹":7881,"이정":7882,"네덜란드":7883,"정도다.":7884,"개입":7885,"각본":7886,"카타":7887,"챔피언스":7888,"연도":7889,"##망을":7890,"있다가":7891,"##~20":7892,"카미":7893,"1993년":7894,"물을":7895,"##줘야":7896,"플랫포":7897,"2대":7898,"결코":7899,"적혀":7900,"유대":7901,"갈수록":7902,"죽음의":7903,"되돌":7904,"활발":7905,"##기나":7906,"##미터":7907,"##OC":7908,"이외에도":7909,"들을":7910,"미술":7911,"애플":7912,"##등장":7913,"사용되는":7914,"다음날":7915,"그곳":7916,"해병":7917,"땐":7918,"무릎":7919,"##펀":7920,"내리":7921,"오해":7922,"2층":7923,"비트":7924,"분위기를":7925,"##름이":7926,"상업":7927,"검사":7928,"대하여":7929,"썬":7930,"제어":7931,"##sh":7932,"룬":7933,"끈":7934,"결합":7935,"##관에서":7936,"##라이트":7937,"막차":7938,"싸움을":7939,"##사회":7940,"##다란":7941,"##롤":7942,"##감독":7943,"뜯":7944,"##향을":7945,"##산의":7946,"어떠한":7947,"보며":7948,"바보":7949,"스코어":7950,"첨":7951,"혐":7952,"댄":7953,"Wh":7954,"조절":7955,"인터뷰에서":7956,"##메달":7957,"SD":7958,"아니라고":7959,"독일의":7960,"뺏":7961,"##도에서":7962,"##브리":7963,"가야":7964,"성공했다.":7965,"##그리":7966,"도발":7967,"##석의":7968,"꽂":7969,"SC":7970,"트래":7971,"##LL":7972,"수준.":7973,"3인":7974,"##보기":7975,"은행":7976,"##공이":7977,"2의":7978,"이외의":7979,"죽일":7980,"들어온":7981,"과거의":7982,"##.09":7983,"명령을":7984,"##다시피":7985,"안타까":7986,"일상":7987,"##역은":7988,"사건의":7989,"안드로이드":7990,"##경에":7991,"##비트":7992,"##률을":7993,"위치해":7994,"나가는":7995,"##ᆷ도":7996,"짝":7997,"뭉":7998,"테스트":7999,"혐의":8000,"의미한다.":8001,"My":8002,"##이었지만":8003,"삐":8004,"##았다는":8005,"##화한":8006,"요코":8007,"태평":8008,"공군":8009,"##버스터":8010,"퀄리티":8011,"##.07":8012,"##했습니다.":8013,"갖춘":8014,"캐스팅":8015,"우연히":8016,"##자도":8017,"것인지":8018,"##츠가":8019,"평이":8020,"나아":8021,"의무":8022,"오스":8023,"카를":8024,"##포가":8025,"장교":8026,"##com":8027,"이라는":8028,"##px":8029,"경우에":8030,"##36":8031,"##-7":8032,"싫어하는":8033,"with":8034,"전철":8035,"##맨의":8036,"##아와":8037,"##메가":8038,"유닛이":8039,"##ame":8040,"없으니":8041,"칭찬":8042,"##돌리":8043,"개방":8044,"컵":8045,"짓을":8046,"카라":8047,"##ord":8048,"검찰":8049,"##일의":8050,"1기":8051,"선출":8052,"자동으로":8053,"분위기가":8054,"##로워":8055,"뜻이":8056,"Tr":8057,"250":8058,"키리":8059,"박사":8060,"상태.":8061,"김민":8062,"전방":8063,"꿈을":8064,"약간의":8065,"##()는":8066,"\"아":8067,"##뿌":8068,"카드의":8069,"방사":8070,"##이에":8071,"##ud":8072,"##령이":8073,"아니었다.":8074,"##받을":8075,"##랜드의":8076,"##국은":8077,"##다를":8078,"어지간":8079,"##스틱":8080,"디아":8081,"서부":8082,"그건":8083,"세종":8084,"이글":8085,"##물은":8086,"유사한":8087,"##실의":8088,"토론":8089,"점이다.":8090,"몹":8091,"작가가":8092,"그들이":8093,"##당할":8094,"##였는데,":8095,"멍":8096,"금속":8097,"캠페":8098,"신이":8099,"보너":8100,"연관":8101,"불을":8102,"아니라는":8103,"##없다.":8104,"##문은":8105,"첫차":8106,"버프를":8107,"미카":8108,"##야,":8109,"##비에":8110,"##.04":8111,"##느라":8112,"##으러":8113,"##선,":8114,"적절한":8115,"이영":8116,"참석":8117,"아끼":8118,"만나게":8119,"치는":8120,"##였을":8121,"아들이":8122,"과연":8123,"덤.":8124,"유저가":8125,"자랑한다.":8126,"85":8127,"슈팅":8128,"대표적으로":8129,"빔":8130,"##상한":8131,"준우승":8132,"##이게":8133,"나쁘지":8134,"빨라":8135,"##여자":8136,"메타":8137,"##대장":8138,"##하였으며":8139,"가문의":8140,"과정을":8141,"오전":8142,"##중앙":8143,"트랜":8144,"이제는":8145,"김종":8146,"##키와":8147,"##34":8148,"폴란드":8149,"덧붙":8150,"##갤":8151,"##수.":8152,"##국에":8153,"##탄이":8154,"하니":8155,"##경의":8156,"많고":8157,"##나카":8158,"어마":8159,"곽":8160,"HD":8161,"##our":8162,"##정,":8163,"이민":8164,"##보드":8165,"SM":8166,"##왜":8167,"챙겨":8168,"구사":8169,"입을":8170,"편곡":8171,"켜":8172,"##았지만":8173,"모양이다.":8174,"사람들도":8175,"법률":8176,"##에서,":8177,"##집을":8178,"추가바람":8179,"열쇠":8180,"##혔다.":8181,"부서":8182,"챕터":8183,"맡아":8184,"##\"를":8185,"72":8186,"위주로":8187,"##지인":8188,"##킥":8189,"기자":8190,"##'은":8191,"선수들이":8192,"결과적으로":8193,"그들을":8194,"매직":8195,"##론은":8196,"모조리":8197,"-위":8198,"보지":8199,"2번째":8200,"##ax":8201,"오직":8202,"1학년":8203,"있어도":8204,"##ance":8205,"되었다고":8206,"개막":8207,"의미로":8208,"시절의":8209,"매년":8210,"자식":8211,"가능성도":8212,"##oc":8213,"왕의":8214,"빛의":8215,"##ix":8216,"##ok":8217,"벌어진":8218,"##계로":8219,"윌리엄":8220,"68":8221,"아버지의":8222,"내장":8223,"##욕을":8224,"노란":8225,"##토와":8226,"프리큐":8227,"정찰":8228,"##배우":8229,"기병":8230,"봐야":8231,"우수":8232,"날짜":8233,"1991년":8234,"뒤에서":8235,"##렬한":8236,"있었을":8237,"##일본":8238,"챌린":8239,"휘두":8240,"메뉴":8241,"##이긴":8242,"컬러":8243,"과거에":8244,"##번,":8245,"형식":8246,"대사가":8247,"피니":8248,"아쉬운":8249,"재사용":8250,"병력":8251,"김동":8252,"남아있":8253,"경기에":8254,"방법으로":8255,"이상을":8256,"##'와":8257,"언더":8258,"심하게":8259,"이라":8260,"##ice":8261,"샘":8262,"직원":8263,"##마스터":8264,"Al":8265,"IS":8266,"UE":8267,"미치":8268,"##다나":8269,"사양":8270,"좋을":8271,"##질러":8272,"##되어서":8273,"회수":8274,"##ww":8275,"목소리가":8276,"188":8277,"와타":8278,"네오":8279,"보관":8280,"##ick":8281,"이른":8282,"##브라":8283,"루시":8284,"채택":8285,"태어났다.":8286,"##유럽":8287,"주인공의":8288,"믿고":8289,"뭘":8290,"자리에서":8291,"카와":8292,"##하라는":8293,"사장":8294,"스마트폰":8295,"##났다.":8296,"사용된다.":8297,"부담":8298,"한타":8299,"교회":8300,"베네":8301,"4.":8302,"아파트":8303,"##.06":8304,"##가시":8305,"##그러":8306,"스타크래프트":8307,"피해량":8308,"완벽한":8309,"보유하고":8310,"집에서":8311,"##었지만,":8312,"##걸로":8313,"##것은":8314,"정신을":8315,"3학년":8316,"수수":8317,"##레어":8318,"##익을":8319,"##략을":8320,"##{{":8321,"사후":8322,"##-9":8323,"별명":8324,"##하가":8325,"셈이다.":8326,"보안":8327,"드는":8328,"##스트의":8329,"허나":8330,"헌법":8331,"출마":8332,"##약한":8333,"손으로":8334,"##밴":8335,"유나이":8336,"##에다":8337,"110":8338,"군단":8339,"비례":8340,"빛을":8341,"환영":8342,"학생들이":8343,"돕":8344,"그것은":8345,"SKT":8346,"기분":8347,"공식적으로":8348,"##번의":8349,"JR":8350,"##걸이":8351,"임무를":8352,"잃고":8353,"##ᆫ가":8354,"##역이다.":8355,"##쿼":8356,"감안하면":8357,"##오리":8358,"PD":8359,"##급으로":8360,"##하기가":8361,"##자치":8362,"##pe":8363,"##마와":8364,"협박":8365,"박스":8366,"부수":8367,"막아":8368,"##루는":8369,"##증이":8370,"모션":8371,"##깥":8372,"##단지":8373,"후계":8374,"##()은":8375,"동굴":8376,"##시설":8377,"반면,":8378,"위치에":8379,"##레나":8380,"시즈":8381,"##것으로":8382,"뜻을":8383,"행위":8384,"30분":8385,"##카,":8386,"잡은":8387,"전멸":8388,"남부":8389,"남북":8390,"이렇":8391,"##학적":8392,"플레이오프":8393,"##커가":8394,"풀어":8395,"가을":8396,"동부":8397,"하락":8398,"##스트가":8399,"연극":8400,"올리는":8401,"되며":8402,"##하자,":8403,"하거나":8404,"보이며":8405,"전체를":8406,"들이":8407,"유니포":8408,"##봐야":8409,"전진":8410,"거듭":8411,"정체를":8412,"##소,":8413,"소식을":8414,"1세":8415,"##맨이":8416,"웅":8417,"##했다면":8418,"밸런스":8419,"스프링":8420,"##졌다고":8421,"##\"이라고":8422,"제임스":8423,"자세히":8424,"재현":8425,"일방":8426,"맞다.":8427,"치러":8428,"무방":8429,"폭격":8430,"나이가":8431,"헛":8432,"SR":8433,"가라":8434,"여신":8435,"Go":8436,"##39":8437,"크기":8438,"캐릭터는":8439,"##니를":8440,"개혁":8441,"##되었으나":8442,"모래":8443,"##츠를":8444,"확인할":8445,"모모":8446,"51":8447,"제갈":8448,"##짐":8449,"이명":8450,"곳은":8451,"관중":8452,"로보":8453,"따르면,":8454,"##뛰":8455,"이닝":8456,"증가한다.":8457,"현재까지":8458,"노리":8459,"##오고":8460,"##언이":8461,"핑":8462,"하트":8463,"##되었다는":8464,"얼굴이":8465,"시그":8466,"##음악":8467,"de":8468,"로그":8469,"시즌을":8470,"가짜":8471,"이전에는":8472,"##EM":8473,"##건을":8474,"##PM":8475,"##na":8476,"##속도가":8477,"##%로":8478,"병력을":8479,"나아가":8480,"둘은":8481,"라이온":8482,"신앙":8483,"목소리":8484,"바깥":8485,"가격이":8486,"시스템이":8487,"배트":8488,"##사무":8489,"내보":8490,"알바":8491,"##렸던":8492,"연락":8493,"스승":8494,"작품을":8495,"흠":8496,"앞두고":8497,"##이즈":8498,"##티나":8499,"##서에":8500,"거리를":8501,"유닛을":8502,"공화":8503,"##드레":8504,"##번이":8505,"##시고":8506,"강남":8507,"지형":8508,"좁":8509,"##학,":8510,"GS":8511,"##비로":8512,"잡아내":8513,"##ᆯ,":8514,"3연":8515,"말아":8516,"Love":8517,"##작을":8518,"세계에서":8519,"어린이":8520,"재판":8521,"출입":8522,"##ᆸ어":8523,"##로서는":8524,"##해준다.":8525,"##셋":8526,"방치":8527,"0.5":8528,"이나":8529,"않도록":8530,"##호와":8531,"미국에서":8532,"잠재":8533,"##우와":8534,"##가.":8535,"개시":8536,"가까워":8537,"물론,":8538,"명확":8539,"2학년":8540,"충격을":8541,"몰라도":8542,"##품으로":8543,"작가의":8544,"전의":8545,"강요":8546,"터뜨":8547,"##텍":8548,"언급한":8549,"##노스":8550,"남긴":8551,"브레":8552,"쓰레기":8553,"전공":8554,"상급":8555,"전부터":8556,"2008":8557,"##캠":8558,"카드.":8559,"OST":8560,"내지":8561,"것일":8562,"아즈":8563,"핸드":8564,"외의":8565,"95":8566,"체계":8567,"할머니":8568,"나타난다.":8569,"간신":8570,"명을":8571,"전쟁이":8572,"##흡":8573,"##ᇁ은":8574,"2009":8575,"싸움":8576,"시스템을":8577,"##위키":8578,"##비와":8579,"눈물을":8580,"멜로":8581,"##험에":8582,"욕을":8583,"넣고":8584,"##질로":8585,"들려":8586,"메르":8587,"의지":8588,"##own":8589,"이용해서":8590,"기울":8591,"버린":8592,"##\"의":8593,"되며,":8594,"해상":8595,"돈이":8596,"머물":8597,"깔끔":8598,"군주":8599,"색깔":8600,"##텀":8601,"##ᆷ이지만":8602,"장점이":8603,"UEFA":8604,"##씨는":8605,"##qu":8606,"##ber":8607,"장악":8608,"넥센":8609,"어둠":8610,"1층":8611,"추구":8612,"혁명":8613,"##지?":8614,"##파로":8615,"올라와":8616,"비싼":8617,"저작":8618,"간부":8619,"EP":8620,"{{{":8621,"##68":8622,"영구":8623,"등장하지":8624,"2000년대":8625,"가사":8626,"감독은":8627,"처형":8628,"배우는":8629,"때에":8630,"메리":8631,"##한이":8632,"대거":8633,"##늬":8634,"##생을":8635,"800":8636,"있었다는":8637,"스톤":8638,"차가":8639,"##겁":8640,"비주":8641,"##인들을":8642,"##쿠라":8643,"주먹":8644,"##있게":8645,"98":8646,"##지않":8647,"일치":8648,"집을":8649,"한정으로":8650,"##석에":8651,"분위기":8652,"CPU":8653,"화를":8654,"왔다.":8655,"##주민":8656,"##잉":8657,"있었지만,":8658,"어택":8659,"장군":8660,"터키":8661,"잡지":8662,"1988년":8663,"##.18":8664,"나오기":8665,"##버릴":8666,"당하는":8667,"##선과":8668,"##old":8669,"된다고":8670,"포항":8671,"발생한":8672,"##리아의":8673,"단단":8674,"야스":8675,"돋":8676,"##상과":8677,"통산":8678,"조별":8679,"##케이드":8680,"##US":8681,"##득을":8682,"##학의":8683,"##방향":8684,"한참":8685,"오카":8686,"홈런을":8687,"신문":8688,"삼국지":8689,"##동은":8690,"미디어":8691,"##%를":8692,"머리가":8693,"클래식":8694,"##로봇":8695,"한다면":8696,"힘들어":8697,"적합":8698,"험":8699,"##av":8700,"인물이":8701,"발언을":8702,"##종은":8703,"샷":8704,"공격할":8705,"헤비":8706,"탈퇴":8707,"떨어진다.":8708,"##ᆻ습니다.":8709,"##인도":8710,"뜬금":8711,"밝혀진":8712,"##ng":8713,"죽어":8714,"찢":8715,"단편":8716,"윙":8717,"[ruby]":8718,"##다니는":8719,"##버그":8720,"##오와":8721,"아이를":8722,"천재":8723,"62":8724,"찾기":8725,"쿠키":8726,"지식":8727,"이번에는":8728,"띠":8729,"##110":8730,"##세한":8731,"##졌고":8732,"##뚜":8733,"77":8734,"한명":8735,"##이었고":8736,"정부의":8737,"유효":8738,"크라":8739,"계기로":8740,"##있어":8741,"카메라":8742,"쏠":8743,"53":8744,"##됩니다.":8745,"효과로":8746,"터치":8747,"수준이다.":8748,"기용":8749,"##체이":8750,"특집":8751,"##뱅":8752,"##들만":8753,"##여객":8754,"##위,":8755,"신분":8756,"숭":8757,"목표로":8758,"페이지":8759,"공공":8760,"숨겨진":8761,"딴":8762,"하나도":8763,"##들인":8764,"수여":8765,"윌":8766,"엘프":8767,"##orld":8768,"무시하고":8769,"##.15":8770,"않았을":8771,"##모드":8772,"##뚱":8773,"##커의":8774,"몰락":8775,"현역":8776,"아크":8777,"이것도":8778,"##lay":8779,"랩":8780,"스턴":8781,"사마":8782,"##뇨":8783,"##받는다.":8784,"군대":8785,"어째서":8786,"##바의":8787,"없으며,":8788,"##놈":8789,"기록한":8790,"아마도":8791,"맞으면":8792,"뮈":8793,"##교회":8794,"코치":8795,"만들기":8796,"##각이":8797,"1989년":8798,"업그레이":8799,"##단체":8800,"##자이다.":8801,"플레이어의":8802,"##트릭":8803,"##생의":8804,"튕":8805,"강하다.":8806,"##EX":8807,"##정과":8808,"김재":8809,"넣는":8810,"레어도":8811,"컨트롤":8812,"##양을":8813,"초반에는":8814,"##가미":8815,"일명":8816,"합체":8817,"그러자":8818,"이식":8819,"1군":8820,"##랑이":8821,"차원":8822,"미스":8823,"##/h":8824,"##았고":8825,"구원":8826,"후술":8827,"나중":8828,"주간":8829,"공개되었다.":8830,"유치":8831,"##퍼스":8832,"##직한":8833,"##되게":8834,"##터미널":8835,"성능은":8836,"이은":8837,"농구":8838,"하차":8839,"아쿠":8840,"늑대":8841,"##진으로":8842,"당시에":8843,"리가":8844,"##s,":8845,"KO":8846,"최신":8847,"파리":8848,"상상":8849,"##조로":8850,"##후의":8851,"##서로":8852,"##먹고":8853,"세르":8854,"##체육":8855,"오래된":8856,"피아노":8857,"모르고":8858,"##시피":8859,"빌리":8860,"고작":8861,"##나서":8862,"프랑스의":8863,"레알":8864,"76":8865,"##챈":8866,"##통신":8867,"패션":8868,"퀘스트를":8869,"비공":8870,"##타운":8871,"바꾼":8872,"##ont":8873,"물려":8874,"살펴":8875,"올라온":8876,"자체의":8877,"자폭":8878,"구글":8879,"않으며":8880,"조건을":8881,"Ro":8882,"마력":8883,"시너":8884,"승객":8885,"있는지":8886,"##일보":8887,"떨어뜨":8888,"존재가":8889,"덤으로":8890,"##금은":8891,"##띠":8892,"타락":8893,"왕이":8894,"넷":8895,"아이스":8896,"##퀘":8897,"##중이다.":8898,"앉아":8899,"##~5":8900,"느린":8901,"##나가는":8902,"##이었다고":8903,"##족이":8904,"블레이":8905,"##희가":8906,"식의":8907,"휴대":8908,"##커를":8909,"네트워":8910,"적당히":8911,"그러한":8912,"##열을":8913,"인원":8914,"##로와":8915,"사막":8916,"한쪽":8917,"##타,":8918,"##27":8919,"만날":8920,"##국제":8921,"이용하는":8922,"트럼":8923,"상술":8924,"캐논":8925,"사우":8926,"##ies":8927,"##주와":8928,"##어마":8929,"##망이":8930,"##네의":8931,"##템":8932,"찍은":8933,"##터는":8934,"뜻하는":8935,"고위":8936,"잉글랜드":8937,"##방에서":8938,"##번을":8939,"사망한":8940,"거기서":8941,"회원":8942,"들여":8943,"사용이":8944,"포탑":8945,"죽고":8946,"탄창":8947,"##pt":8948,"몽골":8949,"이미지가":8950,"겁":8951,"Ex":8952,"이상이":8953,"올랐다.":8954,"가르쳐":8955,"##하겠다고":8956,"##저의":8957,"의미를":8958,"급격":8959,"선전":8960,"세이버":8961,"160":8962,"팬들":8963,"##슬링":8964,"피해가":8965,"##율은":8966,"달리,":8967,"잡기":8968,"##포의":8969,"개정":8970,"도구":8971,"##21":8972,"마드리":8973,"##펙":8974,"매치":8975,"느낄":8976,"##치면":8977,"버렸다.":8978,"##군.":8979,"##-6":8980,"진보":8981,"것으로,":8982,"##탄의":8983,"또다시":8984,"그러니까":8985,"별개로":8986,"즉위":8987,"중독":8988,"##비,":8989,"그러다가":8990,"확대":8991,"130":8992,"육성":8993,"아파":8994,"프로젝":8995,"아일랜드":8996,"라운드":8997,"다음에":8998,"위장":8999,"##셔널":9000,"김대":9001,"##었으며":9002,"이어서":9003,"##실은":9004,"남녀":9005,"커다란":9006,"후손":9007,"책을":9008,"트라이":9009,"##니까.":9010,"##OD":9011,"##가스":9012,"직전에":9013,"아테":9014,"되기도":9015,"미안":9016,"부상으로":9017,"##두는":9018,"고구려":9019,"##29":9020,"미군":9021,"초보":9022,"##기에,":9023,"미스터":9024,"KBO":9025,"판정이":9026,"##제국":9027,"아이콘":9028,"신경쓰":9029,"경고":9030,"##덩":9031,"휩":9032,"저런":9033,"점수를":9034,"드림":9035,"무관":9036,"'그":9037,"범위가":9038,"78":9039,"##으로써":9040,"##되는데,":9041,"아메리카":9042,"기뻐":9043,"K리그":9044,"종목":9045,"싱크":9046,"보여주며":9047,"동의":9048,"처럼":9049,"아닌가":9050,"되었을":9051,"##술사":9052,"비판을":9053,"새끼":9054,"주변의":9055,"아르헨":9056,"맛이":9057,"##끈":9058,"##현,":9059,"세운":9060,"저렴":9061,"수도권":9062,"##요시":9063,"보존":9064,"##하더라도":9065,"근본":9066,"수업":9067,"##졌던":9068,"##달러":9069,"알아내":9070,"간신히":9071,"##제와":9072,"카트":9073,"찾을":9074,"국왕":9075,"제작한":9076,"마다":9077,"장전":9078,"##다면서":9079,"봄":9080,"독특한":9081,"##통이":9082,"사카":9083,"결과는":9084,"##차는":9085,"초기에는":9086,"##요,":9087,"##사거리":9088,"##투스":9089,"곡명":9090,"DF":9091,"깡":9092,"무척":9093,"1부":9094,"블라":9095,"북쪽":9096,"움직이는":9097,"했으나,":9098,"화려한":9099,"##팽":9100,"카드는":9101,"우리나라":9102,"환상":9103,"으로":9104,"에너지를":9105,"것,":9106,"##하를":9107,"공격력을":9108,"부딪":9109,"생략":9110,"wh":9111,"버린다.":9112,"너의":9113,"74":9114,"##이야":9115,"게임은":9116,"##저가":9117,"##관과":9118,"##+1":9119,"##죠.":9120,"인증":9121,"##/10":9122,"수류":9123,"전함":9124,"##들과의":9125,"양쪽":9126,"가볍게":9127,"MF":9128,"뻗":9129,"그렇지만":9130,"자리잡":9131,"곳을":9132,"##네.":9133,"잘못된":9134,"모티":9135,"연료":9136,"##끝":9137,"##주기":9138,"##결을":9139,"해주는":9140,"메모":9141,"##헤이":9142,"남쪽":9143,"멕시코":9144,"##인들":9145,"##법에":9146,"도끼":9147,"호위":9148,"당연한":9149,"##딱":9150,"LI":9151,"Un":9152,"##패로":9153,"패턴이":9154,"트레":9155,"총알":9156,"##약이":9157,"없으며":9158,"사전":9159,"##않":9160,"관측":9161,"멤버들이":9162,"민주당":9163,"그루":9164,"주제에":9165,"아니고,":9166,"##보로":9167,"떠오":9168,"포함되어":9169,"##샷":9170,"##년에":9171,"##io":9172,"손가락":9173,"##NA":9174,"챔피언십":9175,"용도로":9176,"##미나":9177,"##자나":9178,"드레":9179,"있음을":9180,"##백을":9181,"공성":9182,"##고속도로":9183,"##헬":9184,"##-15":9185,"##구에서":9186,"대회에서":9187,"가시":9188,"예정이다.":9189,"곤란":9190,"중립":9191,"꿀":9192,"식물":9193,"가끔씩":9194,"##명과":9195,"배워":9196,"##천시":9197,"시절에":9198,"검을":9199,"##적,":9200,"어마어마":9201,"존재를":9202,"##함은":9203,"개량":9204,"WWE":9205,"시작으로":9206,"해안":9207,"##검을":9208,"서식":9209,"##해지고":9210,"##훈련":9211,"##곱":9212,"고교":9213,"##움이":9214,"CF":9215,"레이더":9216,"##세스":9217,"부문":9218,"##였지만,":9219,"##발이":9220,"벼":9221,"##ET":9222,"단점":9223,"기록이":9224,"##므로,":9225,"가치가":9226,"넘어서":9227,"시간에":9228,"##씨의":9229,"##력,":9230,"꽈":9231,"##괄":9232,"##만,":9233,"시대의":9234,"2020":9235,"2인":9236,"지시":9237,"효율이":9238,"수출":9239,"사냥꾼":9240,"##스러워":9241,"클랜":9242,"사쿠라":9243,"##MP":9244,"제정":9245,"건조":9246,"토끼":9247,"비상":9248,"어비":9249,"컷":9250,"화가":9251,"처음에":9252,"않았고,":9253,"출연한":9254,"고문":9255,"사귀":9256,"sh":9257,"##차례":9258,"떨어지":9259,"곰":9260,"그림자":9261,"두려워":9262,"의견을":9263,"실망":9264,"죽이고":9265,"아틀":9266,"##되던":9267,"도주":9268,"합의":9269,"후반에":9270,"##생이":9271,"##거를":9272,"##세.":9273,"##테이션":9274,"오버워":9275,"망가":9276,"보석":9277,"나폴":9278,"헐":9279,"숙련":9280,"가만":9281,"마그":9282,"##봤":9283,"기록하며":9284,"##계열":9285,"관찰":9286,"아시안":9287,"격추":9288,"생년":9289,"특성을":9290,"your":9291,"mm":9292,"##VD":9293,"140":9294,"받아들여":9295,"않으며,":9296,"코코":9297,"##구리":9298,"윗":9299,"흡혈":9300,"후배":9301,"수준이":9302,"글로벌":9303,"공룡":9304,"##cm,":9305,"곡이":9306,"속도를":9307,"않았지만":9308,"부각":9309,"털어":9310,"호텔":9311,"의문":9312,"모르게":9313,"Pro":9314,"없지만,":9315,"##/1":9316,"취급을":9317,"팽":9318,"완벽하게":9319,"위반":9320,"시에":9321,"시작된":9322,"주둔":9323,"커리어":9324,"##린을":9325,"##즈에":9326,"위대한":9327,"포스":9328,"##판으로":9329,"##해질":9330,"##후반":9331,"##디의":9332,"나오면":9333,"없는데":9334,"주사":9335,"##진과":9336,"걸고":9337,"CV":9338,"캡틴":9339,"##온의":9340,"그랜드":9341,"##98":9342,"##슬로":9343,"U+11":9344,"킨":9345,"진짜로":9346,"67":9347,"##디를":9348,"액티브":9349,"치유":9350,"이미지를":9351,"부분에":9352,"죽이는":9353,"난다.":9354,"1라운드":9355,"춤":9356,"##벌이":9357,"크리스탈":9358,"##공사":9359,"포르투갈":9360,"편이라":9361,"###x11":9362,"바이오":9363,"늘어난":9364,"##들보다":9365,"자극":9366,"제도":9367,"##수사":9368,"##속에":9369,"초중":9370,"귀환":9371,"집으로":9372,"일이다.":9373,"확실한":9374,"##내가":9375,"안나":9376,"일찍":9377,"구하기":9378,"##900":9379,"자전":9380,"무기가":9381,"##얄":9382,"감정을":9383,"##\"을":9384,"##함.":9385,"무기는":9386,"카오스":9387,"멘탈":9388,"##포인트":9389,"##ᆻ음을":9390,"문재인":9391,"페널티":9392,"스웨덴":9393,"##제,":9394,"관심":9395,"##윙":9396,"소드":9397,"입히":9398,"부를":9399,"4대":9400,"한국에서는":9401,"티어":9402,"##Hz":9403,"##하자마자":9404,"방송에서":9405,"We":9406,"##펙트":9407,"재정":9408,"##가고":9409,"간접":9410,"##능력을":9411,"##비디오":9412,"사람에게":9413,"##하마":9414,"비해서":9415,"##조에":9416,"##실점":9417,"있었으나,":9418,"넣은":9419,"한번에":9420,"I'":9421,"오지":9422,"발행":9423,"정도였다.":9424,"다스":9425,"장점":9426,"아이언":9427,"문자":9428,"알았":9429,"닭":9430,"유저들은":9431,"##까진":9432,"집행":9433,"북부":9434,"후에도":9435,"기숙":9436,"모를":9437,"강의":9438,"리드":9439,"원인이":9440,"금방":9441,"폐쇄":9442,"##고에":9443,"시노":9444,"기회":9445,"##다리":9446,"성공한다.":9447,"소지":9448,"뿔":9449,"히카":9450,"제작된":9451,"이혼":9452,"통치":9453,"동쪽":9454,"##라엘":9455,"##타카":9456,"더러":9457,"관람":9458,"흩":9459,"4번":9460,"면에서":9461,"무렵":9462,"포위":9463,"골을":9464,"보면,":9465,"CJ":9466,"얻게":9467,"하나씩":9468,"문서를":9469,"##되었지만":9470,"##모의":9471,"##인한":9472,"제출":9473,"라이프":9474,"새롭게":9475,"##린은":9476,"해피":9477,"우수한":9478,"종류의":9479,"##out":9480,"아티스트":9481,"나면":9482,"대우":9483,"니코":9484,"전반적으로":9485,"다음으로":9486,"타자":9487,"##사우":9488,"성공한":9489,"SH":9490,"1987년":9491,"닥":9492,"놔":9493,"소위":9494,"레코":9495,"##되는데":9496,"성별":9497,"사라져":9498,"##성능":9499,"1980년":9500,"전투에":9501,"시드":9502,"##라고도":9503,"##경은":9504,"함선":9505,"사용하기":9506,"음악을":9507,"##과에":9508,"##기록":9509,"발라":9510,"지불":9511,"명칭은":9512,"영상이":9513,"쓰여":9514,"##넨":9515,"늦게":9516,"##셀로":9517,"##ave":9518,"##습을":9519,"물질":9520,"익스":9521,"##rom":9522,"자본":9523,"##편에":9524,"##냐?":9525,"이듬":9526,"6,":9527,"##된다고":9528,"잔뜩":9529,"##IP":9530,"##시에는":9531,"정수":9532,"##테르":9533,"전주":9534,"##26":9535,"정차":9536,"##단에서":9537,"그레":9538,"##장전":9539,"2.0":9540,"연속으로":9541,"휘말":9542,"##거리를":9543,"스플":9544,"추종":9545,"아카데미":9546,"냄새":9547,"##병원":9548,"나오는데":9549,"총기":9550,"친구가":9551,"갤러리":9552,"성남":9553,"자연스럽게":9554,"4위":9555,"당일":9556,"대미지가":9557,"##타자":9558,"횟수":9559,"디지몬":9560,"1루":9561,"마키":9562,"쉽지":9563,"거짓말":9564,"듣는":9565,"발생하는":9566,"It":9567,"전체적인":9568,"빅토":9569,"##세)":9570,"불교":9571,"생기는":9572,"동성":9573,"구성된":9574,"유통":9575,"패스":9576,"열어":9577,"사랑하는":9578,"둘의":9579,"아까":9580,"난입":9581,"기관총":9582,"이다.":9583,"녹색":9584,"대통령이":9585,"1:1":9586,"무라":9587,"최소한":9588,"##팅을":9589,"다카":9590,"입장을":9591,"답변":9592,"간주":9593,"장비를":9594,"목을":9595,"##프와":9596,"않았고":9597,"지뢰":9598,"##ION":9599,"좁은":9600,"똥":9601,"##해와":9602,"생년월":9603,"스펙":9604,"한글판":9605,"##으로서의":9606,"유력":9607,"아래에":9608,"that":9609,"김현":9610,"떠난":9611,"숨어":9612,"##야만":9613,"상영":9614,"정황":9615,"##46":9616,"##55":9617,"시작하는":9618,"##즈마":9619,"올스타":9620,"전투가":9621,"생각해보면":9622,"국가의":9623,"알아서":9624,"보다는":9625,"무서운":9626,"상관없이":9627,"마법소녀":9628,"##조사":9629,"보여줬다.":9630,"부러":9631,"클레":9632,"정부가":9633,"브랜":9634,"유독":9635,"##ream":9636,"대부분은":9637,"하나,":9638,"##발의":9639,"알겠지만":9640,"중,":9641,"고스트":9642,"크리스마스":9643,"##작이":9644,"초록":9645,"##산으로":9646,"따온":9647,"##LE":9648,"프란":9649,"거울":9650,"##문학":9651,"##노우":9652,"멋진":9653,"찍어":9654,"틀어":9655,"방지":9656,"옳":9657,"1만":9658,"플레이어를":9659,"##첨":9660,"##동과":9661,"들면":9662,"##공원":9663,"##축구":9664,"지역은":9665,"##편이":9666,"불렀다.":9667,"호칭":9668,"보완":9669,"설정을":9670,"##부장":9671,"혹시":9672,"##개,":9673,"심지어는":9674,"##크리":9675,"톤":9676,"뮤지컬":9677,"스탯":9678,"##ile":9679,"물건을":9680,"먹은":9681,"전문가":9682,"그러다":9683,"즐거":9684,"후보로":9685,"1장":9686,"사건으로":9687,"##ond":9688,"올렸다.":9689,"분명히":9690,"##야는":9691,"플레이어는":9692,"정부는":9693,"데드":9694,"##rd":9695,"관련이":9696,"선두":9697,"이유를":9698,"##브가":9699,"반사":9700,"차를":9701,"구멍":9702,"나타나는":9703,"##\"이라는":9704,"가려":9705,"##졌다는":9706,"데에":9707,"등.":9708,"다이아몬":9709,"##경제":9710,"받으며":9711,"언급이":9712,"쭉":9713,"##앉":9714,"##나간":9715,"##.00":9716,"##더라":9717,"##브의":9718,"해리":9719,"주인공은":9720,"+10":9721,"##아리":9722,"##렸고,":9723,"노려":9724,"##영은":9725,"##사람":9726,"##받지":9727,"##감한":9728,"##급이":9729,"자격":9730,"공격으로":9731,"##운이":9732,"##우기":9733,"##플러":9734,"일어나는":9735,"사살":9736,"코우":9737,"##에서부터":9738,"미쿠":9739,"죽는다.":9740,"나도":9741,"닌자":9742,"체인":9743,"##운을":9744,"돌입":9745,"가지는":9746,"##사이트":9747,"동양":9748,"영토":9749,"끝날":9750,"아미":9751,"데몬":9752,"속한다.":9753,"발매되었다.":9754,"##발로":9755,"##SP":9756,"네임":9757,"서쪽":9758,"##.20":9759,"양성":9760,"없다면":9761,"##뚝":9762,"눈물":9763,"최근에는":9764,"강원도":9765,"위력":9766,"1승":9767,"뱅":9768,"##함의":9769,"##밭":9770,"금융":9771,"음성":9772,"묘사가":9773,"##톡":9774,"부임":9775,"##ian":9776,"##디는":9777,"피할":9778,"신라":9779,"##iss":9780,"말하며":9781,"##무장":9782,"##국에서":9783,"뜻이다.":9784,"걸맞":9785,"##겠어":9786,"예로":9787,"증언":9788,"대대":9789,"##슨이":9790,"나간":9791,"나선":9792,"양의":9793,"지팡":9794,"대성":9795,"평타":9796,"죽지":9797,"콜라보":9798,"##프,":9799,"Gr":9800,"토너":9801,"AM":9802,"101":9803,"대단한":9804,"점도":9805,"오마":9806,"니콜":9807,"스킬은":9808,"아이템이":9809,"마코":9810,"가지게":9811,"수를":9812,"삽입":9813,"장면은":9814,"들어가면":9815,"잇는":9816,"5%":9817,"정식으로":9818,"애매한":9819,"##면이":9820,"이듬해":9821,"수술":9822,"##체인":9823,"타는":9824,"##더러":9825,"정도이다.":9826,"인디":9827,"##누리":9828,"훼":9829,"느낌을":9830,"클라":9831,"##급을":9832,"##DD":9833,"영화를":9834,"##블로":9835,"스페이스":9836,"2연":9837,"프리큐어":9838,"체결":9839,"##운의":9840,"아나운":9841,"##-19":9842,"발렌":9843,"어뢰":9844,"결과가":9845,"##하나,":9846,"##지기도":9847,"공격은":9848,"##예술":9849,"승강장":9850,"데다가":9851,"배차":9852,"칼날":9853,"말하고":9854,"##고한":9855,"떡바":9856,"핸":9857,"리듬":9858,"##칙을":9859,"심판":9860,"뽑아":9861,"##\"로":9862,"##-K":9863,"죽기":9864,"트레이드":9865,"유저들의":9866,"요소가":9867,"내야":9868,"단축":9869,"동일하다.":9870,"투구":9871,"##300":9872,"같지만":9873,"바퀴":9874,"##ost":9875,"##전자":9876,"##복이":9877,"##싱턴":9878,"곡이다.":9879,"경험이":9880,"##루,":9881,"아래의":9882,"수백":9883,"답이":9884,"2007":9885,"##;&":9886,"오류":9887,"##행이":9888,"##s.":9889,"96":9890,"##사관":9891,"##택을":9892,"별도의":9893,"곡은":9894,"입장에서":9895,"요정":9896,"매력":9897,"유발":9898,"윈도우":9899,"생명력":9900,"귀여운":9901,"카카":9902,"작업을":9903,"메디":9904,"2.5":9905,"##프리카":9906,"공허":9907,"##면에서":9908,"##이면서":9909,"임대":9910,"3번째":9911,"##:10":9912,"가치":9913,"시절에는":9914,"영광":9915,"##지구":9916,"공격한다.":9917,"선수로":9918,"##하면,":9919,"인물이다.":9920,"경상북도":9921,"준수한":9922,"마케":9923,"팀에":9924,"##44":9925,"##곽":9926,"활성화":9927,"적어":9928,"##\"고":9929,"2006":9930,"엿":9931,"형사":9932,"않는다고":9933,"가슴":9934,"##......":9935,"##달아":9936,"팬들에게":9937,"발생한다.":9938,"캐리":9939,"4차":9940,"면이":9941,"##ᆨ저":9942,"##종합":9943,"##르와":9944,"##음.":9945,"1분":9946,"철저":9947,"소재로":9948,"일종":9949,"##현은":9950,"##슨의":9951,"일으킨":9952,"##바나":9953,"다리를":9954,"평을":9955,"사회적":9956,"칼을":9957,"##속으로":9958,"##보병":9959,"스케이":9960,"투어":9961,"##벌레":9962,"되지만":9963,"제가":9964,"##치면서":9965,"현장":9966,"##기기":9967,"##츠는":9968,"타쿠":9969,"화학":9970,"##orm":9971,"LC":9972,"상처를":9973,"1명":9974,"당신의":9975,"##ᆻ었다.":9976,"의해서":9977,"합니다.":9978,"1986년":9979,"말하자면":9980,"코믹":9981,"호주":9982,"##비한":9983,"주장하는":9984,"##짤":9985,"머리에":9986,"커스터":9987,"##다\"는":9988,"끔찍":9989,"##온이":9990,"톱":9991,"시절부터":9992,"처벌":9993,"##벌을":9994,"##:20":9995,"삶을":9996,"업데이트로":9997,"갑작":9998,"전신":9999,"##ace":10000,"##진에":10001,"고수":10002,"운영하는":10003,"기술.":10004,"속으로":10005,"배포":10006,"내고":10007,"그럭저":10008,"##'과":10009,"##무가":10010,"##주었다.":10011,"군대를":10012,"##마,":10013,"확실하게":10014,"얻기":10015,"드라이버":10016,"##나이트":10017,"각각의":10018,"##속이":10019,"마이크로":10020,"이수":10021,"##ory":10022,"쪽은":10023,"속도로":10024,"##러니":10025,"비미":10026,"##,8":10027,"##95":10028,"##바가":10029,"전북":10030,"##위해":10031,"인구는":10032,"##대상":10033,"이하의":10034,"기사가":10035,"전설의":10036,"##신교":10037,"눈치채":10038,"미라":10039,"왠지":10040,"체크":10041,"먹어":10042,"일일":10043,"스킬로":10044,"최우":10045,"높게":10046,"##해보면":10047,"##더의":10048,"##단,":10049,"대리":10050,"항복":10051,"##왕을":10052,"개설":10053,"##습니다":10054,"천안":10055,"##ov":10056,"##데다가":10057,"왕국의":10058,"신화":10059,"##렸다고":10060,"전체의":10061,"특징.":10062,"187":10063,"LV":10064,"당하고":10065,"##너가":10066,"생긴다.":10067,"세대":10068,"이슈":10069,"리뷰":10070,"플라이":10071,"##IG":10072,"##버전":10073,"##슨은":10074,"##길이":10075,"이젠":10076,"##.16":10077,"실종":10078,"##곡이":10079,"##드래":10080,"현상이":10081,"인간을":10082,"빼고":10083,"##하진":10084,"불이":10085,"전체가":10086,"연금":10087,"어두운":10088,"나은":10089,"새겨":10090,"상태를":10091,"##키퍼":10092,"##범위":10093,"##ᆻ을때":10094,"이긴":10095,"##ph":10096,"##하하":10097,"##합이":10098,"##희의":10099,"질문":10100,"##ear":10101,"아저":10102,"##석,":10103,"시대에":10104,"곳이다.":10105,"또다른":10106,"##민은":10107,"##족을":10108,"##아시아":10109,"원자":10110,"세븐":10111,"첼":10112,"생년월일":10113,"당했다.":10114,"화성":10115,"##네스":10116,"차지했다.":10117,"##경기에서":10118,"실수로":10119,"오랜만에":10120,"여객":10121,"##;&#x11":10122,"조연":10123,"##사이드":10124,"##리고,":10125,"##르,":10126,"아케이드":10127,"쉬워":10128,"토벌":10129,"Com":10130,"##있고":10131,"발을":10132,"##계는":10133,"##관광":10134,"부분.":10135,"지휘관":10136,"서번":10137,"##장갑":10138,"올라오":10139,"맘":10140,"비유":10141,"자녀":10142,"라틴":10143,"의견도":10144,"원칙":10145,"나츠":10146,"않지만,":10147,"##클럽":10148,"##건이":10149,"성을":10150,"포트":10151,"사이버":10152,"방식을":10153,"요즘":10154,"##-16":10155,"그럭저럭":10156,"정통":10157,"심장":10158,"##oth":10159,"##신과":10160,"세인트":10161,"이스라엘":10162,"커녕":10163,"주포":10164,"단행":10165,"이종":10166,"##렇게":10167,"지나지":10168,"##ᆯ로그":10169,"속의":10170,"창원":10171,"펄":10172,"빌려":10173,"##공간":10174,"아버지는":10175,"AD":10176,"유나이티드":10177,"AS":10178,"##주일":10179,"출시된":10180,"##man":10181,"##점의":10182,"주식":10183,"어머니가":10184,"무더":10185,"우리의":10186,"밝힌":10187,"##란의":10188,"##달라는":10189,"##전한":10190,"##례를":10191,"뮤직비디오":10192,"정확하게":10193,"보내는":10194,"##커스":10195,"##마크":10196,"186":10197,"경우엔":10198,"3000":10199,"##테일":10200,"##ys":10201,"두들":10202,"상자":10203,"##상황":10204,"고기":10205,"상대는":10206,"강등":10207,"샌드":10208,"##-S":10209,"##인데도":10210,"요구하는":10211,"97":10212,"본다.":10213,"상기":10214,"시간은":10215,"싱":10216,"마비":10217,"피에":10218,"스톰":10219,"쟈":10220,"창설":10221,"하나만":10222,"얻었다.":10223,"##추어":10224,"re":10225,"밑에":10226,"##든가":10227,"지은":10228,"무시무":10229,"제외하고는":10230,"합병":10231,"출연했다.":10232,"승점":10233,"1~2":10234,"##국으로":10235,"상대에게":10236,"##난이":10237,"시라":10238,"세상":10239,"모델이":10240,"술을":10241,"태평양":10242,"미드필":10243,"##시스트":10244,"대지":10245,"바닥에":10246,"아니라면":10247,"자막":10248,"##머가":10249,"63":10250,"파르":10251,"여담이지만":10252,"##전설":10253,"##펠":10254,"막는":10255,"보이지만":10256,"2~3":10257,"잘라":10258,"##가며":10259,"간단한":10260,"##주교":10261,"적중":10262,"갖추고":10263,"61":10264,"##국민":10265,"##환의":10266,"##후에":10267,"키가":10268,"생각할":10269,"그랑":10270,"##노는":10271,"워싱턴":10272,"15%":10273,"by":10274,"간단히":10275,"문명":10276,"비교하면":10277,"콘서트":10278,"##리에이":10279,"읽는":10280,"차기":10281,"##거야":10282,"나치":10283,"낮다.":10284,"제6":10285,"##더가":10286,"제자":10287,"##오,":10288,"약점":10289,"날카":10290,"선고":10291,"##ᆷ블":10292,"세계관":10293,"##조직":10294,"##TE":10295,"시상":10296,"많지":10297,"이라고":10298,"작품은":10299,"25%":10300,"들어올":10301,"디젤":10302,"부가":10303,"##sp":10304,"영향으로":10305,"##미로":10306,"상품":10307,"누르면":10308,"후퇴":10309,"꼼":10310,"상의":10311,"##딸":10312,"유희왕":10313,"타격을":10314,"2:":10315,"측정":10316,"히나":10317,"더군":10318,"사라진다.":10319,"##렸을":10320,"낫다.":10321,"왕자":10322,"형식으로":10323,"사례가":10324,"##음에":10325,"부스터":10326,"스트레":10327,"부분에서":10328,"##으로만":10329,"##정도로":10330,"##집이":10331,"사이드":10332,"블레이드":10333,"제7":10334,"##ᆷ이라는":10335,"##23":10336,"회차":10337,"일행이":10338,"69":10339,"##용의":10340,"##병의":10341,"마법의":10342,"##ᆽ게":10343,"1500":10344,"무사히":10345,"필살기":10346,"완결":10347,"된다":10348,"말자.":10349,"##되지만":10350,"태도를":10351,"##인민공화국":10352,"악역":10353,"위기를":10354,"이벤트가":10355,"브레이크":10356,"##aw":10357,"전작의":10358,"##pp":10359,"##시타":10360,"##.17":10361,"##ale":10362,"넣을":10363,"괜히":10364,"##영을":10365,"##2의":10366,"전까지는":10367,"##네시아":10368,"터미널":10369,"시체":10370,"퍼포":10371,"##숙한":10372,"파생":10373,"드래프트":10374,"한국인":10375,"신도":10376,"일로":10377,"##하다면":10378,"이벤트를":10379,"화물":10380,"##TS":10381,"##기능":10382,"공기":10383,"##산에":10384,"완전한":10385,"텔레비전":10386,"##고도":10387,"오라":10388,"선제":10389,"국민의":10390,"도둑":10391,"구할":10392,"차트":10393,"땅을":10394,"기지":10395,"##전문":10396,"##이기에":10397,"##ike":10398,"가격은":10399,"##OU":10400,"한데":10401,"##영,":10402,"지칭":10403,"##야를":10404,"##루와":10405,"##히지":10406,"버그가":10407,"##령의":10408,"##이었기":10409,"이용할":10410,"침묵":10411,"유격":10412,"##위권":10413,"간간":10414,"##살을":10415,"1985년":10416,"부인":10417,"명중률":10418,"##XX":10419,"뽑아내":10420,"에그":10421,"##우지":10422,"프리미어":10423,"미네":10424,"와일드":10425,"##소와":10426,"##로만":10427,"비정":10428,"##로써":10429,"한반":10430,"당신이":10431,"갔다.":10432,"##.19":10433,"ED":10434,"##필이":10435,"최하":10436,"한나라":10437,"##나?":10438,"뿜":10439,"##/5":10440,"사유":10441,"유리한":10442,"막내":10443,"##링을":10444,"오키":10445,"있듯이":10446,"조조":10447,"사용된":10448,"##다\"라고":10449,"대인":10450,"인민":10451,"발굴":10452,"주차":10453,"패키":10454,"##캐릭터":10455,"만드":10456,"동남":10457,"피가":10458,"부근":10459,"나오는데,":10460,"삼각":10461,"##스레":10462,"##IM":10463,"5.":10464,"진심으로":10465,"과도":10466,"심심":10467,"##맵":10468,"지녀":10469,"위력을":10470,"와중":10471,"크기가":10472,"파일럿":10473,"##아아":10474,"##군에게":10475,"##VA":10476,"특징이다.":10477,"가동":10478,"##월드":10479,"회장":10480,"닮은":10481,"하이퍼":10482,"결말":10483,"##품의":10484,"허리":10485,"##되었는데":10486,"적지":10487,"음식을":10488,"폭력":10489,"##씨를":10490,"마약":10491,"트리플":10492,"코리아":10493,"##경우":10494,"모습도":10495,"##머스":10496,"개발한":10497,"특별히":10498,"##툴":10499,"아트":10500,"반박":10501,"2군":10502,"##매를":10503,"2라운드":10504,"##합을":10505,"세부":10506,"걸리는":10507,"##형,":10508,"시리즈에":10509,"요약":10510,"철거":10511,"기회가":10512,"높고":10513,"##었으나,":10514,"그러던":10515,"얻고":10516,"SNS":10517,"복잡한":10518,"계획이":10519,"쟁":10520,"왜냐":10521,"예언":10522,"##irl":10523,"너프":10524,"톰":10525,"여유":10526,"타마":10527,"엑스트라":10528,"배를":10529,"##역과":10530,"서서히":10531,"교전":10532,"사라졌다.":10533,"##아키":10534,"실수":10535,"개념이":10536,"책임을":10537,"배출":10538,"형태를":10539,"##산시":10540,"하필":10541,"풀려":10542,"에르":10543,"##번은":10544,"모양의":10545,"경상남도":10546,"##레인저":10547,"의상":10548,"진압":10549,"##배가":10550,"배경으로":10551,"플레이가":10552,"기아":10553,"히로인":10554,"약탈":10555,"얘기를":10556,"아기":10557,"매번":10558,"실드":10559,"##곡으로":10560,"침입":10561,"용인":10562,"올릴":10563,"##줬다.":10564,"블러드":10565,"파는":10566,"어빌리티":10567,"팀원":10568,"허락":10569,"힐러":10570,"##파는":10571,"700":10572,"줄어든":10573,"벌레":10574,"용서":10575,"##안은":10576,"페이스북":10577,"진실을":10578,"##보자.":10579,"##방으로":10580,"베이징":10581,"커피":10582,"전해":10583,"시카":10584,"]세)":10585,"##흔":10586,"에반":10587,"소속의":10588,"##8,":10589,"##였으며,":10590,"버스터":10591,"사용했다.":10592,"1.2":10593,"물론이고":10594,"##손으로":10595,"목소리를":10596,"변환":10597,"##녹":10598,"건국":10599,"##내기":10600,"특수한":10601,"시원":10602,"##프레이":10603,"프로필":10604,"##면의":10605,"빼면":10606,"오타":10607,"무산":10608,"##ook":10609,"씌":10610,"근거리":10611,"곡의":10612,"노리는":10613,"##박스":10614,"사도":10615,"중세":10616,"있었으며,":10617,"노선이":10618,"천사":10619,"go":10620,"몬스터가":10621,"##ows":10622,"모니":10623,"##타수":10624,"임팩":10625,"##있을":10626,"뒤집어":10627,"의하여":10628,"대상을":10629,"선생님":10630,"말라고":10631,"##협회":10632,"##블린":10633,"골키퍼":10634,"##은,":10635,"##저스":10636,"기가":10637,"게스트":10638,"향한":10639,"영원히":10640,"스토리가":10641,"번개":10642,"창단":10643,"개별":10644,"##ink":10645,"##~6":10646,"종이":10647,"서포터":10648,"##미에":10649,"##서야":10650,"##준이":10651,"##건의":10652,"##ᆼ을":10653,"지키는":10654,"나라의":10655,"언급된":10656,"ch":10657,"더군다나":10658,"공연을":10659,"집착":10660,"사건에":10661,"트러":10662,"웬만한":10663,"보충":10664,"##연한":10665,"민첩":10666,"법정":10667,"영화의":10668,"역사를":10669,"끊임":10670,"##바르":10671,"쌍둥이":10672,"소요":10673,"##십시오":10674,"한국에":10675,"마블":10676,"언데":10677,"로버트":10678,"##마치":10679,"##오로":10680,"노리고":10681,"엘리트":10682,"##UM":10683,"htt":10684,"##오스":10685,"서구":10686,"발표했다.":10687,"##라면서":10688,"자랑하는":10689,"인구가":10690,"일부를":10691,"압도적으로":10692,"가리키":10693,"닌텐":10694,"없으므로":10695,"성격을":10696,"무인":10697,"##바야":10698,"1984년":10699,"2002":10700,"코르":10701,"대치":10702,"##떨어":10703,"금액":10704,"웨스트":10705,"리미":10706,"##인치":10707,"상대방":10708,"##옵":10709,"땅에":10710,"감지":10711,"##자베":10712,"신호":10713,"치명적인":10714,"꿰":10715,"침략":10716,"앱":10717,"엔터테인":10718,"기재":10719,"##기게":10720,"미쳐":10721,"딜링":10722,"교사":10723,"플래그":10724,"불만을":10725,"즉사":10726,"무력화":10727,"나고":10728,"##tle":10729,"##더를":10730,"##:40":10731,"정예":10732,"스토리를":10733,"잘모":10734,"인종":10735,"차이는":10736,"##로에":10737,"대선":10738,"선수를":10739,"##ial":10740,"더이상":10741,"과목":10742,"장치":10743,"##뮬":10744,"##했기에":10745,"놓은":10746,"뷰":10747,"##와도":10748,"BL":10749,"CG":10750,"업로드":10751,"구별":10752,"사태가":10753,"##먹은":10754,"##극을":10755,"레지":10756,"##금의":10757,"일에":10758,"무의":10759,"평양":10760,"별의":10761,"유의":10762,"되었으며,":10763,"바가":10764,"##ish":10765,"##절한":10766,"##.com":10767,"장면에서":10768,"공사":10769,"끝으로":10770,"자신들이":10771,"론":10772,"##정치":10773,"굿":10774,"항의":10775,"RPG":10776,"##우주":10777,"엑시":10778,"가만히":10779,"3세":10780,"##넬":10781,"토마":10782,"퍼포먼":10783,"##되거나":10784,"Br":10785,"시즌에":10786,"Team":10787,"했으며,":10788,"##보이는":10789,"스즈":10790,"포격":10791,"그날":10792,"세포":10793,"갈등":10794,"뱀파이어":10795,"세계에":10796,"규칙":10797,"피터":10798,"##플레":10799,"##47":10800,"측에서":10801,"##했어":10802,"라이플":10803,"3개의":10804,"엘레":10805,"##주며":10806,"버튼을":10807,"펴":10808,"한두":10809,"둘을":10810,"히어로즈":10811,"동영상":10812,"사고를":10813,"유카":10814,"어리":10815,"헝가":10816,"너희":10817,"조건이":10818,"##란이":10819,"안양":10820,"1990년대":10821,"##GE":10822,"당사":10823,"영어판":10824,"튼":10825,"##나고":10826,"##ower":10827,"버리는":10828,"로이":10829,"##우라":10830,"##란다.":10831,"적다.":10832,"시작하였다.":10833,"유인":10834,"##소총":10835,"주장을":10836,"써야":10837,"킥":10838,"시위":10839,"김경":10840,"비하":10841,"라인업":10842,"여론":10843,"장탄":10844,"기존에":10845,"해킹":10846,"##히트":10847,"##너의":10848,"##ob":10849,"억지로":10850,"변화가":10851,"##자라는":10852,"악몽":10853,"##영웅":10854,"즐겨":10855,"야생":10856,"긴급":10857,"##스ᄐ":10858,"수능":10859,"직접적으로":10860,"건물을":10861,"최종보스":10862,"&#x":10863,"무승":10864,"힙":10865,"쏜":10866,"고객":10867,"쏘는":10868,"호소":10869,"받기":10870,"나무위키":10871,"20년":10872,"##림을":10873,"기점으로":10874,"사형":10875,"취향":10876,"시작되었다.":10877,"백작":10878,"##르며":10879,"사람으로":10880,"아이러니":10881,"이룬":10882,"##-17":10883,"신입":10884,"##능력이":10885,"과거에는":10886,"##토,":10887,"몰리":10888,"##코어":10889,"##민,":10890,"참여한":10891,"쫓아":10892,"들어오는":10893,"병원":10894,"배정":10895,"안된다.":10896,"나머지는":10897,"##팀은":10898,"이어가":10899,"부착":10900,"삼아":10901,"##ft":10902,"동기":10903,"##우스의":10904,"옹호":10905,"친한":10906,"지속시간":10907,"여지가":10908,"##병으로":10909,"##듈":10910,"나오기도":10911,"##틀러":10912,"세력이":10913,"채팅":10914,"미즈":10915,"##ach":10916,"##감도":10917,"듯이":10918,"음원":10919,"##공업":10920,"명백":10921,"##졌지만":10922,"길어":10923,"##체스터":10924,"7,":10925,"초반부터":10926,"1시간":10927,"은신":10928,"##편을":10929,"깨달":10930,"대단히":10931,"##밤":10932,"소방":10933,"루카":10934,"주인공을":10935,"출격":10936,"남아있는":10937,"후기":10938,"국가대표팀":10939,"##사나":10940,"##공학":10941,"거친":10942,"캘리":10943,"매니저":10944,"##쯔":10945,"넘게":10946,"##루에":10947,"##산은":10948,"##차량":10949,"##차별":10950,"##름의":10951,"시계":10952,"저질러":10953,"##겠다며":10954,"원인":10955,"실점":10956,"점.":10957,"팔을":10958,"느려":10959,"Sk":10960,"출력":10961,"돌아가는":10962,"##했듯이":10963,"몬스터의":10964,"전승":10965,"질문에":10966,"보면서":10967,"##스도":10968,"5000":10969,"다투":10970,"아치":10971,"궁금":10972,"##바닥":10973,"Cl":10974,"##님을":10975,"연기를":10976,"##니까?":10977,"나빠":10978,"않았다고":10979,"카츠":10980,"청와":10981,"정비":10982,"##하고는":10983,"했었다.":10984,"##틸":10985,"영화이다.":10986,"##체와":10987,"사령관":10988,"처참":10989,"호평을":10990,"모노":10991,"달라고":10992,"##갔다.":10993,"관여":10994,"##품은":10995,"스카우":10996,"프로그램을":10997,"##이라고도":10998,"결정적인":10999,"저택":11000,"세력을":11001,"##타이어":11002,"제한이":11003,"비웃":11004,"##것이다.":11005,"싶다면":11006,"럭":11007,"시리즈를":11008,"코멘트":11009,"방어력이":11010,"위력이":11011,"에디":11012,"사용자":11013,"수치가":11014,"170":11015,"##로나":11016,"상륙":11017,"열리는":11018,"##순위":11019,"##푼":11020,"줄여":11021,"남겼다.":11022,"##질의":11023,"나이에":11024,"##과정":11025,"백성":11026,"하향":11027,"일격":11028,"처음엔":11029,"OP":11030,"##중에서":11031,"언덕":11032,"바뀐다.":11033,"코토":11034,"##상으로는":11035,"##원.":11036,"주인공인":11037,"별명이":11038,"맷":11039,"스킬의":11040,"여학생":11041,"썰":11042,"아츠":11043,"##늦게":11044,"동계":11045,"무역":11046,"통틀":11047,"툴":11048,"##즈니":11049,"아버지를":11050,"##계약":11051,"터져":11052,"작전을":11053,"슬프":11054,"##스런":11055,"유이":11056,"185":11057,"새누리":11058,"##스틴":11059,"가죽":11060,"SE":11061,"적들을":11062,"이로써":11063,"미드필더":11064,"##반의":11065,"드롭":11066,"부품":11067,"남자가":11068,"##사도":11069,"##길을":11070,"나왔던":11071,"구간이":11072,"1턴":11073,"재개":11074,"인피":11075,"계통":11076,"##이었으나,":11077,"차이를":11078,"Sc":11079,"##색,":11080,"바꿀":11081,"일행을":11082,"##포르":11083,"군인":11084,"작곡가":11085,"##디움":11086,"사거리가":11087,"패널":11088,"어이":11089,"가해":11090,"김상":11091,"##인데다":11092,"몫":11093,"10분":11094,"받아서":11095,"자유롭게":11096,"나지":11097,"훈련을":11098,"경기장":11099,"사립":11100,"일부는":11101,"84":11102,"에릭":11103,"##당과":11104,"여기는":11105,"##:50":11106,"모스크":11107,"##ex":11108,"##타임이":11109,"캐스터":11110,"박물":11111,"경남":11112,"##반이":11113,"담긴":11114,"##속의":11115,"천연":11116,"##다'고":11117,"교과":11118,"점,":11119,"장거리":11120,"로빈":11121,"통하여":11122,"각자":11123,"프렌":11124,"알라":11125,"##31":11126,"연맹":11127,"나갈":11128,"중형":11129,"돌연":11130,"##해준":11131,"사제":11132,"중요하다.":11133,"엄격":11134,"권장":11135,"조금이":11136,"##이동":11137,"풍부":11138,"##공격을":11139,"남기고":11140,"2개의":11141,"##슬라":11142,"것보다":11143,"잠입":11144,"뜻한다.":11145,"같다고":11146,"DVD":11147,"##[ruby]":11148,"전세계":11149,"에리":11150,"스크린":11151,"특히나":11152,"취득":11153,"평생":11154,"복구":11155,"스팀":11156,"구슬":11157,"디스크":11158,"숫자":11159,"Bl":11160,"싸움이":11161,"선행":11162,"##살이":11163,"##차에":11164,"##산,":11165,"좋아서":11166,"대조":11167,"Dr":11168,"##뤼":11169,"##AP":11170,"번에":11171,"Man":11172,"둘러싸":11173,"구경":11174,"구조를":11175,"포켓몬스터":11176,"##째로":11177,"##판과":11178,"지워":11179,"##사한":11180,"아래로":11181,"##꼽":11182,"##나로":11183,"공지":11184,"##ble":11185,"##티를":11186,"##화.":11187,"말하기":11188,"##MS":11189,"또,":11190,"아니었":11191,"너는":11192,"##궤":11193,"충성":11194,"전역":11195,"##낭":11196,"조약":11197,"록맨":11198,"경우에도":11199,"정기":11200,"라그":11201,"첩":11202,"당할":11203,"신장":11204,"된다면":11205,"##티스":11206,"##왕은":11207,"##률은":11208,"이득을":11209,"##되어있다.":11210,"##!!!":11211,"##네는":11212,"부정적인":11213,"소송":11214,"##타니":11215,"나오면서":11216,"he":11217,"호환":11218,"시내버스":11219,"기상":11220,"##주의를":11221,"건지":11222,"##라이브":11223,"많기":11224,"##키아":11225,"공용":11226,"진학":11227,"Pr":11228,"소식이":11229,"##기어":11230,"##ms":11231,"인물로":11232,"느낀":11233,"##포니아":11234,"악의":11235,"트라우":11236,"일람":11237,"버전이":11238,"어드벤":11239,"##.5%":11240,"머리카":11241,"공립":11242,"##자동차":11243,"##혀서":11244,"김진":11245,"맡게":11246,"한마디로":11247,"학교에":11248,"센트":11249,"좋다고":11250,"내린":11251,"임의":11252,"중복":11253,"한일":11254,"도저히":11255,"이토":11256,"##경,":11257,"지키기":11258,"편에":11259,"끝난다.":11260,"좋고":11261,"크래":11262,"인스타":11263,"키스":11264,"시청자":11265,"전무":11266,"##권,":11267,"저지른":11268,"아군의":11269,"##소설":11270,"선수는":11271,"출간":11272,"Wind":11273,"79":11274,"86":11275,"##등한":11276,"##훈이":11277,"##름에":11278,"1집":11279,"김기":11280,"불펜":11281,"##중간":11282,"떡밥":11283,"베를":11284,"##...\"":11285,"수록된":11286,"##.14":11287,"조롱":11288,"않았다는":11289,"어필":11290,"맞을":11291,"##오버":11292,"국회":11293,"깜짝":11294,"딜을":11295,"후반부":11296,"임신":11297,"카구":11298,"아서":11299,"##룸":11300,"로얄":11301,"거둔":11302,"an":11303,"능력으로":11304,"준비를":11305,"트윈":11306,"올라가는":11307,"주장했다.":11308,"세우":11309,"방식이":11310,"이득":11311,"82":11312,"##곳을":11313,"동인":11314,"##토니":11315,"인용":11316,"##어버리는":11317,"##ree":11318,"기동전사":11319,"##카이도":11320,"그림을":11321,"##-B":11322,"87":11323,"##심의":11324,"##되었기":11325,"##3.":11326,"##대원":11327,"썼다.":11328,"##다거나":11329,"생각한":11330,"##너는":11331,"##now":11332,"1,2":11333,"오로지":11334,"텍스트":11335,"길게":11336,"때문이라고":11337,"메이플":11338,"바르셀로":11339,"치열":11340,"##서도":11341,"전화를":11342,"##투표":11343,"패턴을":11344,"리버풀":11345,"거는":11346,"귀국":11347,"난이도는":11348,"##다'라는":11349,"초창기":11350,"##~8":11351,"운이":11352,"##듯한":11353,"모로":11354,"헤르":11355,"##이었는데":11356,"##리한":11357,"불명.":11358,"##포로":11359,"밝은":11360,"죽게":11361,"##ass":11362,"##이었다는":11363,"##키,":11364,"원작의":11365,"##인가?":11366,"##좀":11367,"파울":11368,"조용히":11369,"조금만":11370,"유지하고":11371,"##GB":11372,"빛나는":11373,"버전은":11374,"연구를":11375,"1982년":11376,"105":11377,"가능성은":11378,"모토":11379,"##-18":11380,"아지":11381,"자의":11382,"마스크":11383,"##범이":11384,"손오":11385,"소속팀":11386,"가깝":11387,"재장전":11388,"기록은":11389,"바위":11390,"##법으로":11391,"##ᆺ하게":11392,"무소":11393,"사야":11394,"이상은":11395,"##후가":11396,"##란을":11397,"제네":11398,"하에":11399,"일본에":11400,"탐험":11401,"UN":11402,"##도서":11403,"수월":11404,"##덩이":11405,"그러나,":11406,"서비스를":11407,"##문으로":11408,"세상에":11409,"추정되는":11410,"##봤자":11411,"##치아":11412,"감독을":11413,"동화":11414,"골라":11415,"##atch":11416,"LA":11417,"테일":11418,"##전기":11419,"ID":11420,"##리다":11421,"##yle":11422,"따뜨":11423,"사법":11424,"그러면":11425,"함대":11426,"도움으로":11427,"아이가":11428,"아베":11429,"노선을":11430,"##팀을":11431,"##The":11432,"억제":11433,"개체":11434,"##싶":11435,"##피가":11436,"선택할":11437,"가졌다.":11438,"미래를":11439,"##천의":11440,"안녕":11441,"##가서":11442,"세이브":11443,"##실점으로":11444,"응용":11445,"해골":11446,"뛰어넘":11447,"퍼부":11448,"쓰인":11449,"그래서인지":11450,"존경":11451,"이야기는":11452,"##하였으나,":11453,"뒤에는":11454,"귀신":11455,"##400":11456,"건드":11457,"얻어맞":11458,"And":11459,"느끼고":11460,"##세서":11461,"노벨":11462,"##폭탄":11463,"테라":11464,"##범죄":11465,"##정책":11466,"##우에":11467,"예전에":11468,"계기가":11469,"되었다는":11470,"타츠":11471,"치면":11472,"복무":11473,"카자":11474,"얻는다.":11475,"##-A":11476,"용사":11477,"##속을":11478,"BS":11479,"##are":11480,"중순":11481,"##란히":11482,"엘리자베":11483,"혐오":11484,"면역":11485,"선거에서":11486,"시리즈에서":11487,"##역사":11488,"상실":11489,"##ug":11490,"유닛의":11491,"##변이":11492,"너를":11493,"싹":11494,"자꾸":11495,"서머":11496,"상태에":11497,"최대의":11498,"주최":11499,"1983년":11500,"배우,":11501,"##터스":11502,"증폭":11503,"경주":11504,"##었다가":11505,"카드로":11506,"시로":11507,"권력":11508,"후원":11509,"파크":11510,"##ING":11511,"정체는":11512,"것이고,":11513,"성우가":11514,"콘텐츠":11515,"되살":11516,"입는":11517,"2004":11518,"##시키면":11519,"날리는":11520,"보통은":11521,"##중의":11522,"쓸데":11523,"축하":11524,"화력이":11525,"##였으나,":11526,"No.":11527,"##재판":11528,"아닌,":11529,"##둘러":11530,"##~19":11531,"연타":11532,"갑옷":11533,"##매치":11534,"##ᆻ으므로":11535,"칼리":11536,"용이":11537,"말투":11538,"##eat":11539,"##엔딩":11540,"보정":11541,"철수":11542,"수면":11543,"##하겠다는":11544,"뒤늦게":11545,"1편":11546,"##현을":11547,"늘려":11548,"##밋":11549,"##해서,":11550,"토요":11551,"엔트":11552,"안타를":11553,"대량":11554,"모티브로":11555,"##ool":11556,"취약":11557,"##부터가":11558,"##지나":11559,"히토":11560,"거미":11561,"##STER":11562,"막상":11563,"가디언":11564,"하츠":11565,"##천만":11566,"##창을":11567,"이어진":11568,"기사를":11569,"해준다.":11570,"만나는":11571,"\"어":11572,"정보가":11573,"스파이더":11574,"기둥":11575,"안좋":11576,"넘버":11577,"찾아와":11578,"##쟈":11579,"외전":11580,"직접적인":11581,"내게":11582,"강원":11583,"##작으로":11584,"For":11585,"##권으로":11586,"40%":11587,"##권과":11588,"교도":11589,"코난":11590,"포기하고":11591,"##레베":11592,"마감":11593,"만들어서":11594,"지냈다.":11595,"제독":11596,"##포트":11597,"본명은":11598,"배우이다.":11599,"##딧":11600,"지목":11601,"세뇌":11602,"블래":11603,"어렸을":11604,"##츠로":11605,"만일":11606,"20대":11607,"캠페인":11608,"고쳐":11609,"##회,":11610,"마냥":11611,"##ᆻ다며":11612,"시달리":11613,"극히":11614,"##렸고":11615,"##노를":11616,"##구간":11617,"1억":11618,"##당에서":11619,"연대":11620,"바에":11621,"차고":11622,"레이드":11623,"수립":11624,"어디서":11625,"War":11626,"유출":11627,"당신은":11628,"##백이":11629,"들어가서":11630,"##ae":11631,"회상":11632,"역시나":11633,"2경기":11634,"##ment":11635,"오페":11636,"엄밀":11637,"행위를":11638,"캔슬":11639,"##외의":11640,"화제가":11641,"Bla":11642,"???":11643,"늘어":11644,"촌":11645,"출시되었다.":11646,"##적.":11647,"불의":11648,"십자":11649,"위기":11650,"##얀":11651,"##들처럼":11652,"변화를":11653,"코미디":11654,"##았는데":11655,"가리지":11656,"##ase":11657,"##바를":11658,"##탁을":11659,"번도":11660,"후의":11661,"사로":11662,"야쿠":11663,"##민족":11664,"수직":11665,"뮌":11666,"여행을":11667,"시간의":11668,"##거든":11669,"##희는":11670,"주장이":11671,"벙":11672,"시리아":11673,"마디":11674,"발동할":11675,"##1.":11676,"##사고":11677,"영역":11678,"이자":11679,"시의":11680,"축제":11681,"스트리트":11682,"이걸로":11683,"집어넣":11684,"못하면":11685,"들었다.":11686,"##렸다는":11687,"##동물":11688,"대신에":11689,"없었고,":11690,"개신교":11691,"##었는지":11692,"2005":11693,"재활":11694,"경북":11695,"##ᆷ으로,":11696,"we":11697,"가상":11698,"##on't":11699,"가능성을":11700,"빠져나":11701,"가챠":11702,"모델로":11703,"인접":11704,"랜더":11705,"지는":11706,"##마일":11707,"##소나":11708,"데다":11709,"##ᆻ기에":11710,"##리도":11711,"##벽을":11712,"우월":11713,"볼넷":11714,"##내에":11715,"오브제":11716,"합계":11717,"##텨":11718,"##페르":11719,"Star":11720,"##터로":11721,"이니":11722,"##마츠":11723,"만크":11724,"자체도":11725,"함락":11726,"##림이":11727,"동영":11728,"분열":11729,"##대사":11730,"비틀":11731,"유물":11732,"스트라이크":11733,"화력을":11734,"보유한":11735,"보호막":11736,"증가,":11737,"##부지":11738,"입주":11739,"두들겨":11740,"상반":11741,"원더":11742,"오버워치":11743,"슬래":11744,"분쟁":11745,"AKB":11746,"불사":11747,"##호환":11748,"사자":11749,"속한":11750,"나타내는":11751,"벽을":11752,"89":11753,"상태였다.":11754,"논의":11755,"##,000원":11756,"말라":11757,"담당하는":11758,"##모데":11759,"작년":11760,"아랍":11761,"실시간":11762,"박지":11763,"##km/h":11764,"선수이다.":11765,"##파크":11766,"이세":11767,"##지능":11768,"아동":11769,"끝이":11770,"실질적인":11771,"능력치가":11772,"##학원":11773,"위치하고":11774,"##갑을":11775,"10개":11776,"##사단":11777,"##리에게":11778,"##양의":11779,"##쉽":11780,"##권에서는":11781,"되도록":11782,"요한":11783,"안으로":11784,"편지를":11785,"며칠":11786,"##nt":11787,"##박이":11788,"##ous":11789,"외야":11790,"명목":11791,"학력":11792,"up":11793,"##티즌":11794,"전투기":11795,"All":11796,"##골드":11797,"클릭":11798,"스티븐":11799,"킬러":11800,"##하였는데,":11801,"가기":11802,"가난":11803,"##사기":11804,"유재":11805,"토큰":11806,"마린":11807,"정발":11808,"##메달을":11809,"솔직":11810,"인지도":11811,"지나면":11812,"딜레이":11813,"낙선":11814,"기종":11815,"우크라":11816,"##85":11817,"##ᆮ는":11818,"한방에":11819,"만화가":11820,"연고":11821,"크림":11822,"실은":11823,"##코스트":11824,"쌀":11825,"키타":11826,"유망":11827,"투명":11828,"사이코":11829,"##/20":11830,"자이언츠":11831,"에픽":11832,"##-C":11833,"원소":11834,"추방":11835,"##추는":11836,"않다는":11837,"##어에":11838,"가질":11839,"수의":11840,"프리미엄":11841,"타율":11842,"##식과":11843,"가리키는":11844,"출루":11845,"##포스":11846,"찍는":11847,"어벤":11848,"제공하는":11849,"악당":11850,"물이":11851,"스와":11852,"##그램":11853,"##서울":11854,"##신도":11855,"여기서는":11856,"결승전":11857,"##er.":11858,"발매일":11859,"닉네이":11860,"와카":11861,"결심":11862,"끓":11863,"퍼져":11864,"제트":11865,"공장":11866,"밤에":11867,"엔진을":11868,"##법의":11869,"드럼":11870,"연습생":11871,"LP":11872,"##민을":11873,"복수를":11874,"##조선":11875,"확장팩":11876,"##님은":11877,"복합":11878,"배려":11879,"##하면서,":11880,"차지하는":11881,"분기":11882,"핑크":11883,"##초의":11884,"##반을":11885,"구미":11886,"기술로":11887,"중화민":11888,"대통령의":11889,"##저런":11890,"##준의":11891,"동반":11892,"크라이":11893,"##이었는데,":11894,"필리핀":11895,"쪽에":11896,"함부로":11897,"지경":11898,"식량":11899,"팔아":11900,"오니":11901,"되어있":11902,"증가합니다.":11903,"부드러":11904,"생길":11905,"##미사":11906,"리치":11907,"빛이":11908,"날이":11909,"##석에서":11910,"트루":11911,"##way":11912,"우에":11913,"암시":11914,"쌓아":11915,"##즈로":11916,"##ason":11917,"갖춰":11918,"7년":11919,"##67":11920,"뜬금없이":11921,"##하지도":11922,"5위":11923,"'오":11924,"헬리":11925,"활동하고":11926,"##용은":11927,"##모는":11928,"125":11929,"3.5":11930,"우라":11931,"전파":11932,"상황은":11933,"부적":11934,"##-14":11935,"방향을":11936,"##내며":11937,"호불":11938,"##iki":11939,"못해서":11940,"##분,":11941,"엎":11942,"위치가":11943,"기기":11944,"오크":11945,"##시에서":11946,"실질적으로":11947,"사용시":11948,"73":11949,"성적이":11950,"홋":11951,"정상적인":11952,"사건은":11953,"솜":11954,"##ᆻ다!":11955,"##az":11956,"설치되어":11957,"하려고":11958,"태풍":11959,"전원이":11960,"주의해야":11961,"근대":11962,"##신,":11963,"중후반":11964,"끌어올":11965,"슈퍼로봇":11966,"본격적인":11967,"물에":11968,"##AY":11969,"얽":11970,"따지면":11971,"##일로":11972,"뚫고":11973,"진행하는":11974,"계열의":11975,"안정적인":11976,"매출":11977,"아들을":11978,"사가":11979,"결론":11980,"마카":11981,"사실이다.":11982,"소문이":11983,"쫓겨":11984,"##-J":11985,"##관련":11986,"교장":11987,"왕조":11988,"##시험":11989,"거론":11990,"상하이":11991,"아인":11992,"전라남도":11993,"##강의":11994,"##노동":11995,"여성의":11996,"##되었으나,":11997,"##\"가":11998,"감싸":11999,"버텨":12000,"건네":12001,"싶다고":12002,"Gam":12003,"3명":12004,"모티브는":12005,"데이터를":12006,"##카운":12007,"분해":12008,"거둬":12009,"1945년":12010,"마이크":12011,"폭탄을":12012,"국정":12013,"나노":12014,"71":12015,"쉴드":12016,"##식,":12017,"##서와":12018,"##저를":12019,"##밖":12020,"서로의":12021,"사회주의":12022,"##목이":12023,"흔한":12024,"유래는":12025,"##소프트":12026,"+3":12027,"아니기":12028,"데이비드":12029,"전력을":12030,"바이러":12031,"무시무시한":12032,"반해":12033,"시크":12034,"##장애":12035,"##?\"라고":12036,"진격":12037,"일방적으로":12038,"리스":12039,"도착한":12040,"작품이다.":12041,"수익":12042,"알려졌다.":12043,"DC":12044,"1호":12045,"10대":12046,"초콜":12047,"폭파":12048,"겹쳐":12049,"묻자":12050,"너무나도":12051,"SF":12052,"문제.":12053,"여기저":12054,"##노트":12055,"추억":12056,"동경":12057,"##어스":12058,"야간":12059,"##양함":12060,"짱":12061,"##ary":12062,"##조합":12063,"##마냥":12064,"일본은":12065,"일어날":12066,"이어져":12067,"##번과":12068,"비주얼":12069,"모습에":12070,"독재":12071,"##것.":12072,"##act":12073,"##운드를":12074,"사고가":12075,"2명":12076,"앞의":12077,"##비치":12078,"안의":12079,"먹으면":12080,"누군가":12081,"들어갔다.":12082,"가진다.":12083,"##%가":12084,"충분한":12085,"네티즌":12086,"도망가":12087,"쿠데":12088,"주제":12089,"소중한":12090,"##-09":12091,"보건":12092,"투척":12093,"상태이다.":12094,"One":12095,"거다.":12096,"##키스탄":12097,"##프라이":12098,"마루":12099,"클라우":12100,"ne":12101,"넘어가는":12102,"##무의":12103,"##층의":12104,"New":12105,"담은":12106,"기도":12107,"상점":12108,"저는":12109,"3점":12110,"이르는":12111,"출범":12112,"##표가":12113,"심사":12114,"막강":12115,"남는":12116,"프라":12117,"말로는":12118,"콤":12119,"대다수":12120,"##달이":12121,"4개의":12122,"##티가":12123,"낚시":12124,"여의":12125,"##회복":12126,"##곡은":12127,"CS":12128,"Part":12129,"진정":12130,"시,":12131,"교육을":12132,"3부":12133,"느끼는":12134,"주된":12135,"간호":12136,"조리":12137,"1981년":12138,"지향":12139,"##브레":12140,"넘치는":12141,"인연":12142,"혈액":12143,"브라운":12144,"전날":12145,"인터뷰를":12146,"대해서도":12147,"정도를":12148,"복제":12149,"번째로":12150,"슬롯":12151,"81":12152,"말레이":12153,"교토":12154,"##스테이지":12155,"있기도":12156,"그녀에게":12157,"World":12158,"사용되었다.":12159,"스캔":12160,"##터널":12161,"폐기":12162,"디자인이":12163,"남을":12164,"별도로":12165,"구역":12166,"나중에는":12167,"가벼운":12168,"부작":12169,"캘리포니아":12170,"##ai":12171,"##과대학":12172,"오다":12173,"대표하는":12174,"1사":12175,"사단":12176,"설정상":12177,"##태를":12178,"##숴":12179,"데미지는":12180,"미루":12181,"##건설":12182,"On":12183,"전쟁의":12184,"최근에":12185,"바른":12186,"시즌2":12187,"##이자,":12188,"일본에서는":12189,"토르":12190,"##600":12191,"1970년":12192,"##히게":12193,"##시켜서":12194,"FW":12195,"페스티":12196,"못했던":12197,"샤를":12198,"우호":12199,"메모리":12200,"여섯":12201,"NE":12202,"##법원":12203,"JT":12204,"배가":12205,"##시대의":12206,"##봐도":12207,"서로를":12208,"정화":12209,"기대를":12210,"어쩌면":12211,"##자라고":12212,"도와주":12213,"좋아한다.":12214,"선수들의":12215,"오락":12216,"##번으로":12217,"식민지":12218,"##였으며":12219,"##론가":12220,"차지하고":12221,"심의":12222,"막대한":12223,"육상":12224,"입장에선":12225,"쓸만한":12226,"##떼":12227,"할수":12228,"선임":12229,"부동":12230,"오스만":12231,"##놓는":12232,"##즈에서":12233,"학생회":12234,"옆에서":12235,"PR":12236,"작화":12237,"퍼즐":12238,"멀어":12239,"##처리":12240,"약화":12241,"나오게":12242,"175":12243,"아들인":12244,"1980년대":12245,"낸다.":12246,"플레":12247,"개인의":12248,"상세":12249,"공방":12250,"##CG":12251,"##앨":12252,"##소리를":12253,"발견된":12254,"단위":12255,"##바다":12256,"번의":12257,"리얼":12258,"일부가":12259,"10만":12260,"반응은":12261,"재회":12262,"것이며,":12263,"포스터":12264,"##적으로도":12265,"움직임을":12266,"스나이":12267,"없었고":12268,"IN":12269,"##교가":12270,"##차의":12271,"사진이":12272,"D.":12273,"서클":12274,"##궐":12275,"도적":12276,"##통합":12277,"##줘서":12278,"충실":12279,"##겠지":12280,"이집트":12281,"그르":12282,"방탄":12283,"베테":12284,"1979년":12285,"사망했다.":12286,"##ife":12287,"주관":12288,"##해줄":12289,"##UP":12290,"버서":12291,"##1의":12292,"##ᆯ스":12293,"##버스터미널":12294,"세번째":12295,"##ade":12296,"스킬.":12297,"##니아의":12298,"##시청":12299,"##mer":12300,"'어":12301,"왜곡":12302,"##벅":12303,"일렉":12304,"##타점":12305,"문제에":12306,"##부인":12307,"튕겨":12308,"UP":12309,"친일":12310,"대동":12311,"매주":12312,"스코틀":12313,"##퉁":12314,"우크라이나":12315,"요원":12316,"온천":12317,"상태의":12318,"벽에":12319,"전락":12320,"배급":12321,"가요":12322,"둘다":12323,"무리가":12324,"올드":12325,"서바이":12326,"##링이":12327,"바이올":12328,"자유한국":12329,"전남":12330,"달리는":12331,"모집":12332,"##배치":12333,"##자이":12334,"##a,":12335,"노가":12336,"의식을":12337,"규모가":12338,"훔쳐":12339,"##p://":12340,"아군이":12341,"느리":12342,"끊어":12343,"싶을":12344,"드라이브":12345,"오디":12346,"DE":12347,"이른바":12348,"##사에게":12349,"##터,":12350,"젖":12351,"##감과":12352,"머무":12353,"유혹":12354,"우익":12355,"##ven":12356,"기분이":12357,"끝나는":12358,"여성이":12359,"만들어낸":12360,"되어있다.":12361,"연봉":12362,"일원":12363,"##.24":12364,"누구도":12365,"충청남도":12366,"통칭":12367,"사퇴":12368,"0.3":12369,"##뱃":12370,"표정을":12371,"갖게":12372,"하늘을":12373,"##자료":12374,"유기":12375,"##딜이":12376,"##석으로":12377,"##베리":12378,"4인":12379,"필요는":12380,"##능한":12381,"##i-":12382,"##련의":12383,"진주":12384,"보냈다.":12385,"했다":12386,"조우":12387,"러시아의":12388,"개를":12389,"3의":12390,"평가는":12391,"##바는":12392,"호의":12393,"성향이":12394,"춤을":12395,"귀찮":12396,"##야!":12397,"받으면":12398,"##w.":12399,"##카르":12400,"튼튼":12401,"선택한":12402,"##시스테":12403,"풋":12404,"##ank":12405,"BR":12406,"해산":12407,"질투":12408,"등장할":12409,"##aby":12410,"배달":12411,"나누어":12412,"팬덤":12413,"##되므로":12414,"##켓을":12415,"상대방의":12416,"8,":12417,"##~10":12418,"동일하게":12419,"CH":12420,"##타마":12421,"##책으로":12422,"연령":12423,"범용":12424,"다이어":12425,"대표팀":12426,"날뛰":12427,"##해져서":12428,"게이지":12429,"만만":12430,"도박":12431,"한방":12432,"유입":12433,"##볼을":12434,"논리":12435,"##관계를":12436,"싱가":12437,"일시적으로":12438,"그대":12439,"##보의":12440,"위혀":12441,"##쉐":12442,"우측":12443,"플러":12444,"##늄":12445,"설명을":12446,"##-08":12447,"히가시":12448,"##ps://":12449,"##프라":12450,"##커는":12451,"비가":12452,"실현":12453,"사정거리":12454,"##득점":12455,"키우":12456,"운동을":12457,"##행정":12458,"학습":12459,"싶지":12460,"##류는":12461,"##8년에":12462,"작품에":12463,"##면서,":12464,"마신":12465,"##선생":12466,"##평을":12467,"##음으로":12468,"이곳에":12469,"##스피":12470,"##메리카":12471,"순수한":12472,"##88":12473,"긴장":12474,"한창":12475,"영혼을":12476,"##겠다":12477,"무기의":12478,"노무":12479,"팬더":12480,"동해":12481,"싶으면":12482,"써먹":12483,"아케":12484,"##공으로":12485,"상대할":12486,"네트워크":12487,"달하는":12488,"이동속도":12489,"##는지는":12490,"이오":12491,"적용된다.":12492,"##lect":12493,"학교에서":12494,"PP":12495,"황제의":12496,"##에른":12497,"##룡의":12498,"##색은":12499,"닛":12500,"분당":12501,"소장":12502,"기다려":12503,"GB":12504,"사신":12505,"##연맹":12506,"사이클":12507,"감독으로":12508,"배차간":12509,"##-07":12510,"기억이":12511,"##흉":12512,"경력":12513,"##보호":12514,"##데렐라":12515,"주의할":12516,"기다리고":12517,"##gin":12518,"보이기도":12519,"##온은":12520,"##몬의":12521,"산탄":12522,"##라미":12523,"배트맨":12524,"주역":12525,"독점":12526,"조기":12527,"단종":12528,"##몹":12529,"거두었다.":12530,"바꾸는":12531,"간간히":12532,"##고리":12533,"짜증":12534,"부산광역시":12535,"포스트시즌":12536,"이누":12537,"92":12538,"막고":12539,"##'이다.":12540,"##박한":12541,"손쉬":12542,"##들에서":12543,"섬의":12544,"유적":12545,"##저항":12546,"조언":12547,"이유도":12548,"제1차":12549,"여자가":12550,"차량이":12551,"##CC":12552,"자금":12553,"##해주고":12554,"드루":12555,"##께서":12556,"품고":12557,"올라간다.":12558,"트레일러":12559,"부르며":12560,"내성":12561,"체중":12562,"부르고":12563,"내용의":12564,"고속도로":12565,"기술은":12566,"천천":12567,"철학":12568,"끊임없이":12569,"마라":12570,"전장":12571,"이순":12572,"##클래":12573,"코인":12574,"인도네시아":12575,"수습":12576,"모드를":12577,"걸린다.":12578,"간에":12579,"단행본":12580,"부유":12581,"스쿨":12582,"##처를":12583,"포수":12584,"##킷":12585,"오디션":12586,"##본부":12587,"##강을":12588,"##내에서":12589,"집권":12590,"기생":12591,"미노":12592,"모두를":12593,"청주":12594,"##남이":12595,"상한":12596,"##:0으로":12597,"쓰게":12598,"짐작":12599,"케이블":12600,"평일":12601,"베타":12602,"사업을":12603,"커맨드":12604,"##oon":12605,"제노":12606,"##경기에":12607,"볼트":12608,"가능하게":12609,"##본다.":12610,"분포":12611,"##초로":12612,"찾아온":12613,"김준":12614,"되어버렸다.":12615,"##도리":12616,"되므로":12617,"AN":12618,"##ork":12619,"방영된":12620,"##만으로도":12621,"##되어,":12622,"5분":12623,"살아있는":12624,"도망치":12625,"이웃":12626,"집합":12627,"##대문":12628,"##온을":12629,"틈을":12630,"설명은":12631,"맞춘":12632,"경우를":12633,"##국,":12634,"에미":12635,"맞붙":12636,"뿐.":12637,"드문":12638,"언젠가":12639,"##나에게":12640,"비율이":12641,"시작할":12642,"뉘":12643,"상태이상":12644,"얀":12645,"중첩":12646,"농업":12647,"하계":12648,"주목을":12649,"하시":12650,"일대":12651,"##AK":12652,"퇴각":12653,"##oll":12654,"##감에":12655,"Mar":12656,"율":12657,"##팀에":12658,"##조,":12659,"90년대":12660,"신경을":12661,"인격":12662,"지키고":12663,"are":12664,"더불어민주당":12665,"청소":12666,"불태":12667,"##사스":12668,"##터와":12669,"이런저런":12670,"스타리그":12671,"왈":12672,"수류탄":12673,"주니어":12674,"무술":12675,"판결":12676,"##렐":12677,"사랑의":12678,"6개":12679,"읽어":12680,"김해":12681,"##hen":12682,"사천":12683,"1경기":12684,"패밀리":12685,"##게이머":12686,"아이디":12687,"##께끼":12688,"리처":12689,"트럭":12690,"북한의":12691,"설이":12692,"내각":12693,"배드":12694,"주택":12695,"##층이":12696,"확산":12697,"깨어나":12698,"94":12699,"패배를":12700,"##티의":12701,"6개월":12702,"##미노":12703,"좌절":12704,"##티는":12705,"불량":12706,"게이머":12707,"믿을":12708,"젤":12709,"##미한":12710,"##당,":12711,"히든":12712,"모습.":12713,"##br":12714,"도시를":12715,"올해의":12716,"장신":12717,"##집에":12718,"##AA":12719,"장관":12720,"##CE":12721,"##생활을":12722,"##구청":12723,"터널":12724,"머신":12725,"1:":12726,"합동":12727,"설령":12728,"모자라":12729,"싱크로":12730,"##퍼가":12731,"흑인":12732,"결투":12733,"##들어가":12734,"거라":12735,"연쇄":12736,"1장을":12737,"해양":12738,"사망한다.":12739,"삭":12740,"##음은":12741,"던지는":12742,"도움":12743,"워크래프트":12744,"##올림픽":12745,"권유":12746,"해당한다.":12747,"차량을":12748,"해명":12749,"지정되었다.":12750,"2편":12751,"살아남은":12752,"'자":12753,"헨리":12754,"커서":12755,"##스:":12756,"##비행":12757,"LIVE":12758,"마치고":12759,"##했으니":12760,"아니지만,":12761,"얼티":12762,"모은":12763,"열매":12764,"투사":12765,"찾아볼":12766,"공격해":12767,"개성":12768,"##리칸":12769,"손이":12770,"것과는":12771,"시가":12772,"등극":12773,"kg":12774,"##초를":12775,"최적":12776,"강경":12777,"당한다.":12778,"지고":12779,"딸을":12780,"정책을":12781,"선사":12782,"첫째":12783,"크레이":12784,"손꼽":12785,"##버튼":12786,"가능하며,":12787,"국경":12788,"이번엔":12789,"+5":12790,"##나베":12791,"승리로":12792,"##핏":12793,"유용한":12794,"초기에":12795,"지리":12796,"형태가":12797,"다닌다.":12798,"'마":12799,"그렇고":12800,"정해진":12801,"유성":12802,"퇴장":12803,"##꿈":12804,"발표한":12805,"벨기에":12806,"오염":12807,"##과가":12808,"배제":12809,"##그레":12810,"하이라":12811,"##워즈":12812,"듣는다.":12813,"폭행":12814,"##버를":12815,"정신이":12816,"역사가":12817,"불행":12818,"기후":12819,"##하여야":12820,"명문":12821,"지도자":12822,"차이로":12823,"##누스":12824,"등도":12825,"##로마":12826,"시리즈가":12827,"소니":12828,"##국과":12829,"한가":12830,"체험":12831,"츠바":12832,"##민주주의":12833,"시작된다.":12834,"낙하":12835,"안심":12836,"따르는":12837,"순으로":12838,"##나에":12839,"가담":12840,"규모의":12841,"되었는데,":12842,"갇혀":12843,"포획":12844,"나라를":12845,"턱":12846,"어머니는":12847,"조회":12848,"경직":12849,"시키는":12850,"있어,":12851,"출신으로":12852,"##나기":12853,"약점을":12854,"싸운":12855,"##곡의":12856,"##댄":12857,"즐기는":12858,"흙":12859,"##파와":12860,"상징하는":12861,"꽉":12862,"##4년에":12863,"##카미":12864,"하반":12865,"것이기":12866,"입대":12867,"##6년에":12868,"##레옹":12869,"봤을":12870,"발로":12871,"##미네이":12872,"NH":12873,"시종":12874,"잡아먹":12875,"갖는":12876,"코스튜":12877,"전쟁에서":12878,"뿐,":12879,"5번":12880,"갚":12881,"뿌리":12882,"재직":12883,"최저":12884,"##면으로":12885,"지연":12886,"두꺼":12887,"제작진":12888,"##침을":12889,"대변":12890,"##계획":12891,"피의":12892,"설명이":12893,"패널티":12894,"지역이":12895,"영주":12896,"1화":12897,"##보지":12898,"##당하게":12899,"내리는":12900,"##혹한":12901,"시게":12902,"그러니":12903,"##킹을":12904,"부르기도":12905,"그중":12906,"우위를":12907,"말하자":12908,"##ᆷ이라고":12909,"슬레이":12910,"##거래":12911,"대전차":12912,"짐승":12913,"바둑":12914,"취미":12915,"##문제":12916,"지지를":12917,"벌인":12918,"가량":12919,"##메라":12920,"##질은":12921,"만주":12922,"Fe":12923,"매달":12924,"리타이어":12925,"무서워":12926,"있기는":12927,"다이아몬드":12928,"의미하는":12929,"##인들에게":12930,"##ᆻ음에도":12931,"##본을":12932,"구간은":12933,"그외":12934,"사고로":12935,"많을":12936,"##ox":12937,"##넷을":12938,"초등":12939,"체제":12940,"어렵지":12941,"##형과":12942,"##와이":12943,"##션의":12944,"바이에른":12945,"83":12946,"의미는":12947,"##목록":12948,"##딜을":12949,"호수":12950,"지원하는":12951,"정류장":12952,"플래시":12953,"##마로":12954,"재건":12955,"분산":12956,"볼수":12957,"일어났다.":12958,"포지션은":12959,"기록하였다.":12960,"어나":12961,"이전부터":12962,"보스턴":12963,"회사의":12964,"##들이나":12965,"대접":12966,"다큐":12967,"##네를":12968,"##96":12969,"목적을":12970,"##갱":12971,"##기준":12972,"전송":12973,"증오":12974,"##으려는":12975,"10.":12976,"콘스탄":12977,"올리고":12978,"권력을":12979,"반지":12980,"토오":12981,"##막지":12982,"900":12983,"완공":12984,"##행위":12985,"천천히":12986,"요즈":12987,"상황이었다.":12988,"##스포츠":12989,"쓸만":12990,"생방송":12991,"실전":12992,"##-02":12993,"##생명":12994,"사이에서는":12995,"원시":12996,"##이었지만,":12997,"편에서":12998,"캠프":12999,"실수를":13000,"##야와":13001,"##있었다.":13002,"위주의":13003,"Mk":13004,"신데렐라":13005,"감정이":13006,"성과를":13007,"램":13008,"##ᆯ리는":13009,"쿨타임이":13010,"AFC":13011,"##경기를":13012,"끼고":13013,"##작의":13014,"##7년에":13015,"이곳에서":13016,"통계":13017,"따라가":13018,"##분으로":13019,"##령으로":13020,"거지":13021,"자전거":13022,"lv":13023,"부숴":13024,"클린":13025,"토우":13026,"##법인":13027,"모델은":13028,"키라":13029,"마찬가지.":13030,"중장":13031,"파고":13032,"그곳에서":13033,"1,000":13034,"##리라":13035,"휴식":13036,"##ᆷ으로서":13037,"##er,":13038,"어색":13039,"나오며":13040,"세웠다.":13041,"반란을":13042,"축소":13043,"경험을":13044,"##=\"":13045,"마을을":13046,"수수께끼":13047,"난이도를":13048,"도루":13049,"##너를":13050,"대마":13051,"특성이":13052,"##블리":13053,"아버지와":13054,"연인":13055,"##복지":13056,"콰":13057,"넘기":13058,"이번에도":13059,"##뽀":13060,"시체를":13061,"이병":13062,"케빈":13063,"어울리는":13064,"##트랙":13065,"허무":13066,"바니":13067,"브래":13068,"거북":13069,"##파에":13070,"##때마다":13071,"않았기":13072,"진행된":13073,"대사는":13074,"##여행":13075,"##재의":13076,"힙합":13077,"##.S":13078,"일기":13079,"##방울":13080,"##링크":13081,"수요가":13082,"전망":13083,"##탐정":13084,"웃는":13085,"오스트레이":13086,"배터리":13087,"6.":13088,"남기":13089,"싸움에서":13090,"매장":13091,"##바퀴":13092,"10초":13093,"얇":13094,"가져다":13095,"기갑":13096,"깔아":13097,"사로잡":13098,"믿는":13099,"1의":13100,"##ᆫ을":13101,"아니더라도":13102,"소프트웨어":13103,"우울":13104,"관계는":13105,"6년":13106,"부자":13107,"주면":13108,"##게이트":13109,"##지니":13110,"캐릭터들이":13111,"can":13112,"있겠다.":13113,"##히코":13114,"##오지":13115,"페미니":13116,"아레나":13117,"위성":13118,"##땐":13119,"##골이":13120,"##태가":13121,"시마":13122,"브라이언":13123,"신선":13124,"김일":13125,"개척":13126,"로맨":13127,"##very":13128,"나폴레옹":13129,"어드벤처":13130,"용어":13131,"이대":13132,"복원":13133,"싼":13134,"기본으로":13135,"어마어마한":13136,"##이었을":13137,"##ᆺ빛":13138,"글이":13139,"전쟁에":13140,"I'm":13141,"도시의":13142,"일행은":13143,"주위":13144,"끝나면":13145,"하쿠":13146,"##심은":13147,"후반부에":13148,"하라":13149,"여타":13150,"Fate":13151,"정체가":13152,"##올라":13153,"김용":13154,"##~7":13155,"어머니의":13156,"무지막지":13157,"공헌":13158,"Up":13159,"##자책":13160,"##마귀":13161,"후보가":13162,"지구의":13163,"히메":13164,"프레임":13165,"거기다가":13166,"항목을":13167,"스틸":13168,"##uck":13169,"있다!":13170,"##인지,":13171,"논쟁":13172,"이외에":13173,"역의":13174,"길고":13175,"지진":13176,"악마의":13177,"##딕":13178,"##실과":13179,"체감":13180,"유료":13181,"10,":13182,"##시키며":13183,"##ᆫ은":13184,"오기":13185,"그러므로":13186,"제8":13187,"3:":13188,"##백과":13189,"##담의":13190,"타이틀을":13191,"강릉":13192,"입증":13193,"속해":13194,"철권":13195,"선수의":13196,"BB":13197,"그리고,":13198,"##}}":13199,"때와":13200,"##버리면":13201,"##청을":13202,"##지며,":13203,"위안":13204,"##금으로":13205,"'사":13206,"때문이었다.":13207,"##ᆺ불":13208,"##ah":13209,"피부":13210,"##ᆯ레스":13211,"얼굴에":13212,"마음의":13213,"테니":13214,"게이트":13215,"##-P":13216,"신속":13217,"##ᆺ지":13218,"버리":13219,"치킨":13220,"인게임":13221,"##-06":13222,"측은":13223,"주류":13224,"##칭은":13225,"로즈":13226,"수석":13227,"바뀌는":13228,"콘솔":13229,"##저리":13230,"포인트를":13231,"파밍":13232,"켈":13233,"붙인":13234,"##았다":13235,"##입구":13236,"어지간한":13237,"모에":13238,"않으므로":13239,"3층":13240,"##바시":13241,"엘리베이":13242,"점유":13243,"많은데,":13244,"도시철도":13245,"놓여":13246,"곱":13247,"##들끼리":13248,"경악":13249,"무대를":13250,"수색":13251,"포함된":13252,"적당한":13253,"기술의":13254,"하나다.":13255,"베테랑":13256,"##나.":13257,"보좌":13258,"산맥":13259,"do":13260,"누군가가":13261,"사촌":13262,"##반에":13263,"##앵":13264,"##igh":13265,"##두면":13266,"##리.":13267,"##건지":13268,"Ad":13269,"##해온":13270,"호불호가":13271,"##가드":13272,"신형":13273,"##위대":13274,"이모":13275,"트라":13276,"##cc":13277,"##A의":13278,"봉쇄":13279,"발키":13280,"성격은":13281,"##작은":13282,"##포는":13283,"##분은":13284,"##으니까":13285,"##시간에":13286,"##지는데":13287,"신사":13288,"OS":13289,"백인":13290,"플레이어에게":13291,"후회":13292,"##/6":13293,"공수":13294,"왕복":13295,"잉여":13296,"국제공항":13297,"##숲":13298,"충족":13299,"긁":13300,"1일에":13301,"##콤보":13302,"일자":13303,"실패한":13304,"전투의":13305,"칩":13306,"최종적으로":13307,"표현을":13308,"포함해":13309,"##정하고":13310,"정반":13311,"##화하는":13312,"일관":13313,"가공":13314,"all":13315,"##시아의":13316,"고통을":13317,"없다며":13318,"동행":13319,"획득할":13320,"##/12":13321,"무거운":13322,"신용":13323,"쇼핑":13324,"##투수":13325,"##환으로":13326,"맡겨":13327,"드로우":13328,"히비":13329,"소용":13330,"##97":13331,"마음대로":13332,"도쿠":13333,"##동맹":13334,"##천년":13335,"멈춰":13336,"입문":13337,"했으며":13338,"부분이다.":13339,"##동에서":13340,"움직이":13341,"아저씨":13342,"공업":13343,"##딴":13344,"결정적으로":13345,"파멸":13346,"##ung":13347,"##쿤":13348,"정도면":13349,"쵸":13350,"교차":13351,"자국":13352,"쓰러트":13353,"##드래곤":13354,"회색":13355,"##호에":13356,"말.":13357,"##클리":13358,"학부":13359,"아래와":13360,"쯤":13361,"호남":13362,"빠르고":13363,"##돈의":13364,"할로":13365,"피해자":13366,"루나":13367,"##.0%":13368,"열고":13369,"노린":13370,"창립":13371,"2주":13372,"DD":13373,"메구":13374,"올림":13375,"양손":13376,"##결승":13377,"사서":13378,"부부":13379,"컨세":13380,"일본이":13381,"움직일":13382,"매드":13383,"'미":13384,"요리를":13385,"생각한다.":13386,"DPS":13387,"승진":13388,"##밀한":13389,"1973년":13390,"##때도":13391,"임진":13392,"##철이":13393,"##ical":13394,"스탈":13395,"##삐":13396,"젊":13397,"천황":13398,"제안을":13399,"성우:":13400,"##러브":13401,"학교를":13402,"##줄이":13403,"아스카":13404,"##뻐":13405,"프로리그":13406,"레벨을":13407,"호시":13408,"하마":13409,"뽑는":13410,"자존":13411,"2003":13412,"##ype":13413,"##라에게":13414,"##도도":13415,"등번호":13416,"##노와":13417,"##되었다가":13418,"##했듯":13419,"이해할":13420,"침투":13421,"질러":13422,"본명":13423,"철저히":13424,"나뉜다.":13425,"고무":13426,"축복":13427,"디자이":13428,"##디스":13429,"##-01":13430,"오우":13431,"주축":13432,"적게":13433,"##훈의":13434,"##ARD":13435,"##성한":13436,"교류":13437,"셀레":13438,"있었으며":13439,"al":13440,"티켓":13441,"##녀가":13442,"##병은":13443,"##되어야":13444,"싶다.":13445,"##희,":13446,"오면":13447,"배운":13448,"특징을":13449,"와이번":13450,"긍정적인":13451,"##란드의":13452,"##돌을":13453,"지켜보":13454,"##.O":13455,"대가":13456,"잦은":13457,"미묘":13458,"경호":13459,"Day":13460,"##5년에":13461,"막혀":13462,"ML":13463,"적시":13464,"##orn":13465,"싸우게":13466,"단어를":13467,"전체에":13468,"세팅":13469,"##te":13470,"##한데":13471,"1호선":13472,"하려":13473,"삼진":13474,"##일지도":13475,"것들이":13476,"규격":13477,"차량은":13478,"9,":13479,"지붕":13480,"너머":13481,"영어로":13482,"비극":13483,"성적은":13484,"->":13485,"장례":13486,"동급":13487,"메달":13488,"썬더":13489,"고지":13490,"구독":13491,"죄를":13492,"So":13493,"지역으로":13494,"맨체스터":13495,"빌런":13496,"쓰던":13497,"후일":13498,"후방":13499,"##차게":13500,"초당":13501,"감수":13502,"다음은":13503,"화산":13504,"손해":13505,"##풍을":13506,"왜냐하면":13507,"소규모":13508,"극대":13509,"##젼":13510,"상하":13511,"##쿼터":13512,"인식이":13513,"태클":13514,"특정한":13515,"발견한":13516,"죽으면":13517,"듣게":13518,"인가":13519,"##궈":13520,"##저는":13521,"먹는다.":13522,"프로듀스":13523,"손쉽게":13524,"강간":13525,"올라왔다.":13526,"남매":13527,"##남의":13528,"정권":13529,"리그에서":13530,"냈다.":13531,"랑":13532,"스즈키":13533,"##피해":13534,"덱에서":13535,"물러나":13536,"특징이":13537,"것입니다.":13538,"나이는":13539,"잊지":13540,"##히면":13541,"최연":13542,"프로게이머":13543,"생각은":13544,"놀라운":13545,"##들로부터":13546,"184":13547,"그렇다.":13548,"##ᆺ테":13549,"다운로드":13550,"고블린":13551,"발레":13552,"수단":13553,"사람과":13554,"체인지":13555,"수동":13556,"소문":13557,"드러난다.":13558,"##로이":13559,"##멜":13560,"일곱":13561,"디즈니":13562,"해머":13563,"하급":13564,"1초":13565,"리플":13566,"북아":13567,"이때는":13568,"##IR":13569,"##2년에":13570,"폼":13571,"##세,":13572,"사라지고":13573,"건물이":13574,"의문을":13575,"상주":13576,"블리자":13577,"##형에":13578,"##화되었다.":13579,"약점이":13580,"##애를":13581,"올라갈":13582,"부천":13583,"뜻으로":13584,"반짝":13585,"##했음에도":13586,"##ero":13587,"미국은":13588,"극도로":13589,"##츠와":13590,"##우며":13591,"엄연히":13592,"특이하게도":13593,"물어보":13594,"업체":13595,"돼지":13596,"##파워":13597,"##스.":13598,"##조와":13599,"##클레":13600,"드물게":13601,"도마":13602,"진에":13603,"총선":13604,"##거라고":13605,"전향":13606,"김유":13607,"반도":13608,"##y,":13609,"할인":13610,"디자인을":13611,"##있지":13612,"분노를":13613,"##공화":13614,"멤버들의":13615,"닌텐도":13616,"Windows":13617,"1패":13618,"한번도":13619,"활동하는":13620,"압축":13621,"한계가":13622,"스포일러":13623,"이대로":13624,"여부":13625,"##-KR":13626,"받기도":13627,"115":13628,"멤버가":13629,"##-05":13630,"##보우":13631,"묻는":13632,"비용이":13633,"##anc":13634,"일하는":13635,"##릴라":13636,"초상":13637,"결혼을":13638,"내렸다.":13639,"1st":13640,"잠실":13641,"기묘한":13642,"##.26":13643,"소속으로":13644,"우루":13645,"기사단":13646,"뚜려":13647,"무덤":13648,"프로레":13649,"{{{#":13650,"에어로":13651,"인지도가":13652,"상식":13653,"##폰을":13654,"끝났다.":13655,"##뻔":13656,"2사":13657,"도깨":13658,"2nd":13659,"보구":13660,"궤도":13661,"360":13662,"양자":13663,"##.28":13664,"##쉬를":13665,"20세기":13666,"쳐들어":13667,"닦":13668,"##퍼를":13669,"Station":13670,"걸그룹":13671,"##다\"며":13672,"숫자가":13673,"돌고":13674,"대가로":13675,"발음이":13676,"던진":13677,"##히메":13678,"##수인":13679,"이루어졌다.":13680,"스티브":13681,"가능하며":13682,"조별리그":13683,"공무원":13684,"벌어지는":13685,"관료":13686,"찔러":13687,"큐브":13688,"베를린":13689,"국도":13690,"JTBC":13691,"엔드":13692,"답답":13693,"##~!":13694,"우회":13695,"앤드":13696,"##당으로":13697,"밀어내":13698,"승부를":13699,"불쌍":13700,"미국이":13701,"##내지":13702,"##카페":13703,"유니크":13704,"더해":13705,"##줄을":13706,"초에":13707,"##wiki":13708,"영향력을":13709,"깨끄":13710,"제목은":13711,"방어력을":13712,"끔살":13713,"'가":13714,"죽었다.":13715,"오이":13716,"단위로":13717,"되려":13718,"온다.":13719,"잡으면":13720,"##iver":13721,"##미.":13722,"명칭이":13723,"##'이라":13724,"보상으로":13725,"특급":13726,"상무":13727,"부모님":13728,"우르":13729,"##ich":13730,"문제의":13731,"프리즈":13732,"예산":13733,"##십시오.":13734,"##/s":13735,"많은데":13736,"'나":13737,"##타리":13738,"무난하게":13739,"1.3":13740,"En":13741,"##니코":13742,"##까봐":13743,"페스티벌":13744,"오렌":13745,"2010년대":13746,"시즌이":13747,"##달라":13748,"##지만.":13749,"어그로를":13750,"시뮬":13751,"편하게":13752,"##?!":13753,"찍고":13754,"적으로":13755,"##속에서":13756,"##OO":13757,"BE":13758,"그거":13759,"##하르":13760,"요소를":13761,"##였기에":13762,"##포인":13763,"아니라서":13764,"알려지지":13765,"##교사":13766,"서울대학교":13767,"디시":13768,"살던":13769,"중거리":13770,"##우면":13771,"##었다면":13772,"박성":13773,"마오":13774,"담배":13775,"운영하고":13776,"리틀":13777,"점에":13778,"##병에":13779,"DP":13780,"##네마":13781,"##int":13782,"##1년에":13783,"절친":13784,"데려가":13785,"경기에서는":13786,"마을의":13787,"Oh":13788,"##음의":13789,"모순":13790,"토트":13791,"##년이":13792,"OVA":13793,"BPM":13794,"멤버로":13795,"##브레이":13796,"93":13797,"거라는":13798,"챔피언스리그":13799,"##들에게도":13800,"원작에서는":13801,"##젤리":13802,"흰색":13803,"펠리":13804,"##뱅크":13805,"이마":13806,"##장비":13807,"운송":13808,"유학":13809,"1960년":13810,"GO":13811,"항공모":13812,"##시스코":13813,"전적":13814,"##+0":13815,"##맨을":13816,"출혈":13817,"2집":13818,"룩":13819,"지낸":13820,"##노스케":13821,"것이고":13822,"올바":13823,"꼬리":13824,"내부의":13825,"조치":13826,"공산주의":13827,"##루미":13828,"시점에서는":13829,"##urn":13830,"김승":13831,"##강화":13832,"신부":13833,"프랜":13834,"##기보다는":13835,"당초":13836,"##왔던":13837,"선수권":13838,"##수이다.":13839,"히틀러":13840,"영화는":13841,"김포":13842,"탕":13843,"슈퍼로봇대전":13844,"사사":13845,"2승":13846,"##는데도":13847,"롤드":13848,"영향이":13849,"굴러":13850,"법무":13851,"다가가":13852,"##병,":13853,"오죽":13854,"돌아왔다.":13855,"미션을":13856,"##시기":13857,"100만":13858,"##있다는":13859,"방식의":13860,"되게":13861,"껍":13862,"세계대전":13863,"역이다.":13864,"비난을":13865,"미키":13866,"##파,":13867,"밑에서":13868,"##이었으며,":13869,"##대체":13870,"노래가":13871,"##ock":13872,"때에도":13873,"셈이":13874,"KOF":13875,"##9년에":13876,"진행된다.":13877,"셔틀":13878,"DS":13879,"도덕":13880,"##락이":13881,"에피소드에서":13882,"혐의로":13883,"영웅이":13884,"여전":13885,"말과":13886,"##중국":13887,"이해가":13888,"사용해서":13889,"잠수함":13890,"산하":13891,"섀도우":13892,"이가":13893,"##우스가":13894,"고의":13895,"뮌헨":13896,"##ence":13897,"하단":13898,"좌측":13899,"전,":13900,"일요일":13901,"실패했다.":13902,"과거를":13903,"안경":13904,"옵션이":13905,"내부에":13906,"NBA":13907,"확정되었다.":13908,"데빌":13909,"비서":13910,"##으라고":13911,"피로":13912,"##시키지":13913,"보편":13914,"1등":13915,"납득":13916,"적군":13917,"##IV":13918,"##아나":13919,"미국과":13920,"##ise":13921,"##바야시":13922,"##MC":13923,"내에서는":13924,"일으키는":13925,"##베르크":13926,"3~4":13927,"굉장한":13928,"공간을":13929,"##병과":13930,"마드리드":13931,"아비":13932,"서포트":13933,"개봉한":13934,"비롯해":13935,"CP":13936,"국적":13937,"아이들을":13938,"거인":13939,"멍청":13940,"##ㅋㅋ":13941,"뽑을":13942,"누구나":13943,"##m,":13944,"이현":13945,"love":13946,"라스":13947,"방어구":13948,"스리":13949,"진행되는":13950,"##생으로":13951,"평상":13952,"곳곳에":13953,"드러났다.":13954,"멋대로":13955,"##-JP":13956,"이틀":13957,"##재는":13958,"최상위":13959,"앓":13960,"##추가":13961,"뜨거운":13962,"비비":13963,"매체":13964,"원주민":13965,"군의":13966,"##략이":13967,"랜드":13968,"##700":13969,"##초,":13970,"이럴":13971,"진급":13972,"##ep":13973,"##42":13974,"조차":13975,"##환은":13976,"##쵸":13977,"만들어졌다.":13978,"##시간을":13979,"오가":13980,"차원에서":13981,"모습과":13982,"역습":13983,"정상적으로":13984,"잃어버":13985,"야수":13986,"모습이다.":13987,"2위를":13988,"##ᆷ임":13989,"##하기를":13990,"바나":13991,"##았는데,":13992,"야마토":13993,"잊혀":13994,"##.A":13995,"구축함":13996,"스트리머":13997,"국무":13998,"손님":13999,"##변을":14000,"마을에":14001,"치즈":14002,"그러면서":14003,"편하다.":14004,"토니":14005,"##쭉":14006,"묻혀":14007,"조합을":14008,"스쿼":14009,"##조각":14010,"##이후":14011,"영양":14012,"평행":14013,"평점":14014,"위상":14015,"지나가는":14016,"노스":14017,"아쉬워":14018,"합리":14019,"놈이":14020,"##신에":14021,"##자로서":14022,"밀리는":14023,"##자들과":14024,"##카라":14025,"게임이다.":14026,"보내고":14027,"무엇이":14028,"183":14029,"연산":14030,"##쑤":14031,"극단적인":14032,"전격":14033,"질문을":14034,"양이":14035,"음모":14036,"선보였다.":14037,"바ᄈ":14038,"이름도":14039,"추측이":14040,"그레이트":14041,"재미있는":14042,"끔찍한":14043,"##식에서":14044,"##작전":14045,"##웰":14046,"아직까지":14047,"이상하게":14048,"##타에":14049,"일단은":14050,"##영과":14051,"즐길":14052,"종결":14053,"시청률":14054,"##첸":14055,"클러":14056,"##중이":14057,"##미르":14058,"##훼":14059,"Ph":14060,"목적은":14061,"자원을":14062,"않는다면":14063,"Sw":14064,"벌이는":14065,"##사리":14066,"##장도":14067,"시작해":14068,"##되었지만,":14069,"##열의":14070,"##하였다고":14071,"##차고":14072,"엑시즈":14073,"찾고":14074,"패배한":14075,"##.com/":14076,"##ii":14077,"##플로":14078,"징역":14079,"추측된다.":14080,"의지를":14081,"있었기에":14082,"면모를":14083,"이경":14084,"하이라이트":14085,"일커":14086,"원조":14087,"병력이":14088,"스스로를":14089,"끼워":14090,"김지":14091,"추천한다.":14092,"사우스":14093,"그후":14094,"곡으로":14095,"조건으로":14096,"##'고":14097,"김수":14098,"##스와의":14099,"##화에선":14100,"주행":14101,"되었으며":14102,"##들고":14103,"##되지는":14104,"##렉션":14105,"토리":14106,"백업":14107,"##동시":14108,"바뀌어":14109,"고소":14110,"세라":14111,"토요일":14112,"##질적인":14113,"##공은":14114,"##량과":14115,"##SS":14116,"버틸":14117,"남지":14118,"실제로도":14119,"##이한":14120,"##.\"라고":14121,"잃어버린":14122,"##더는":14123,"주문을":14124,"변한":14125,"##피안타":14126,"캐릭":14127,"무기.":14128,"##케이션":14129,"##뼈":14130,"신발":14131,"죄책":14132,"##활동을":14133,"##삼진":14134,"부끄러":14135,"IT":14136,"황제가":14137,"##49":14138,"##모습":14139,"적절히":14140,"##ᆨ의":14141,"##계와":14142,"소속사":14143,"##00년":14144,"##ᆺ수":14145,"##들까지":14146,"태워":14147,"##힘":14148,"열혈":14149,"##박물":14150,"트리거":14151,"자료를":14152,"기부":14153,"판정을":14154,"사항은":14155,"필요로":14156,"설치된":14157,"##\"에":14158,"##타인":14159,"##빼":14160,"##uk":14161,"생체":14162,"##량에":14163,"##멤버":14164,"비율":14165,"토너먼트":14166,"라며":14167,"은폐":14168,"##자유":14169,"##하,":14170,"##리기도":14171,"강도":14172,"통째로":14173,"가져온":14174,"해치":14175,"##스트는":14176,"##건은":14177,"나뉘어":14178,"테이블":14179,"달의":14180,"연출이":14181,"##초가":14182,"To":14183,"수상한":14184,"##된다":14185,"##미에게":14186,"##민과":14187,"2에서":14188,"자칭":14189,"##고와":14190,"카리스":14191,"##형태":14192,"시에는":14193,"원숭":14194,"공무":14195,"108":14196,"이후로도":14197,"부패":14198,"에로":14199,"##해야만":14200,"싶다는":14201,"칼로":14202,"##성에서":14203,"속성이":14204,"맞는다.":14205,"from":14206,"##는게":14207,"##대교":14208,"##던지":14209,"시모":14210,"128":14211,"##하르트":14212,"여러번":14213,"쓸모":14214,"업무를":14215,"정교":14216,"것인데,":14217,"공중에서":14218,"##ens":14219,"지속적인":14220,"##다'라고":14221,"주소":14222,"목적이":14223,"꼬마":14224,"인공지능":14225,"조언을":14226,"사이즈":14227,"행동이":14228,"##제일":14229,"##퍼의":14230,"19세기":14231,"다시금":14232,"유비":14233,"인권":14234,"반전":14235,"따르":14236,"학생들은":14237,"예쁘":14238,"공격력의":14239,"sp":14240,"아스날":14241,"ex":14242,"소음":14243,"##ign":14244,"한국시리즈":14245,"작품으로":14246,"묘하게":14247,"국가가":14248,"돌아갈":14249,"기믹":14250,"어려울":14251,"감상":14252,"##!\"라고":14253,"'고":14254,"이야기.":14255,"TVA":14256,
[...]
