▁▃ -0
▁ㅇ -1
ㅡㄴ -2
▁ㄱ -3
▁ㄷ -4
▁. -5
ㅡㄹ -6
▁ㄴ -7
▁ㅇㅔ -8
▁ㄴㅡㄴ -9
▁ㄹ -10
▁ㄷㅏ -11
▁ㅇㅣ -12
▁ㅎ -13
▁이 -14
▁ㅇㅡㄹ -15
▁ㅇㅢ -16
▁하 -17
ㅏㄴ -18
▁, -19
ㅅㅓ -20
▁ㄱㅏ -21
▁ㄹㅡㄹ -22
▁ㅇㅡㄴ -23
▁ㅁ -24
ㅈㅣ -25
ㄷㅏ -26
▁ㄱㅗ -27
▁1 -28
▁ㅇㅡ -29
▁ㅎㅏㄴ -30
▁ㅇㅓ -31
▁있 -32
▁2 -33
ㄹㅗ -34
▁ㄷㅗ -35
▁ㄹㅗ -36
▁ㅎㅐ -37
▁사 -38
▁그 -39
▁ㅈㅣ -40
▁ㅁㅕ -41
▁들 -42
▁시 -43
▁수 -44
▁아 -45
▁ㅂ -46
▁대 -47
▁ㄱㅔ -48
▁되 -49
▁ㄱㅣ -50
▁일 -51
▁전 -52
▁ㄹㅏ -53
▁가 -54
▁기 -55
▁ㅇㅓㅆ -56
▁- -57
▁자 -58
▁적 -59
▁ㅇㅏ -60
▁ㅁㅕㄴ -61
▁것 -62
▁ㅇㅣㄴ -63
▁다 -64
▁3 -65
▁보 -66
▁지 -67
▁스 -68
▁ㄱㅘ -69
▁ㅇㅘ -70
▁주 -71
▁ㅎㅐㅆ -72
▁마 -73
ㄴㄷㅏ -74
▁상 -75
▁정 -76
ㄱㅗ -77
▁ㄷㅚ -78
ㅏㄹ -79
▁20 -80
▁ㅈ -81
ㅕㅆ -82
▁년 -83
▁공 -84
▁' -85
ㅓㄴ -86
▁: -87
▁ㅎㅏㄴㄷㅏ -88
▁때 -89
▁모 -90
ㄴㅡㄴ -91
▁나 -92
▁경 -93
ㅁㅕ -94
▁중 -95
▁유 -96
▁제 -97
ㅎㅐ -98
▁한 -99
▁오 -100
▁없 -101
▁인 -102
ㅁㅏㄴ -103
▁부 -104
▁4 -105
▁소 -106
ㄴㅏ -107
▁ㅅ -108
▁성 -109
▁등 -110
ㄱㅔ -111
▁무 -112
▁않 -113
▁ㄴㅏ -114
▁ㅎㅏㄹ -115
▁5 -116
▁ㅂㅗ -117
▁비 -118
▁개 -119
ㄷㅔ -120
▁0 -121
▁미 -122
ㅣㄴ -123
▁ㄷㅓㄴ -124
▁여 -125
▁월 -126
▁" -127
▁어 -128
▁조 -129
▁ㄲ -130
▁201 -131
▁ㅁㅏㄴ -132
▁세 -133
▁장 -134
▁/ -135
▁위 -136
▁방 -137
▁만 -138
▁고 -139
▁동 -140
▁카 -141
▁바 -142
▁연 -143
▁선 -144
▁도 -145
ㄹㄹ -146
▁거 -147
▁영 -148
▁신 -149
▁타 -150
▁안 -151
▁화 -152
▁후 -153
▁말 -154
ㅎㅏㄴ -155
▁발 -156
▁리 -157
▁ㄴㅡㄴㄷㅔ -158
▁구 -159
▁내 -160
▁차 -161
▁레 -162
ㅁㅕㄴ -163
▁때문 -164
▁6 -165
ㄱㅏ -166
▁ㄲㅏ -167
▁ㄷㅚㄴ -168
▁생 -169
▁원 -170
▁10 -171
▁파 -172
▁명 -173
▁최 -174
▁우 -175
ㅇㅓ -176
▁문 -177
▁ㅈㅏ -178
▁실 -179
ㅜㄴ -180
▁당 -181
▁7 -182
▁노 -183
▁번 -184
▁강 -185
▁ㅇㅕㅆ -186
▁포 -187
▁같 -188
▁해 -189
▁회 -190
▁데 -191
▁서 -192
▁더 -193
▁ㄷㅚㄴㄷㅏ -194
▁단 -195
▁S -196
▁진 -197
▁8 -198
▁특 -199
▁ㄱㅓ -200
▁많 -201
▁초 -202
▁결 -203
▁받 -204
▁라 -205
▁! -206
▁ㅊ -207
▁관 -208
▁ㅇㅏㅆ -209
▁ㅂㅜ -210
▁불 -211
▁작 -212
▁반 -213
▁의 -214
▁프 -215
▁역 -216
▁19 -217
▁게 -218
▁버 -219
▁ㅁㅕㄴㅅㅓ -220
ㄷㅗ -221
▁9 -222
ㄹㅏ -223
▁코 -224
▁경우 -225
▁계 -226
ㄴㅣ -227
▁공격 -228
▁배 -229
▁분 -230
▁ㅇㅕ -231
▁ㄸ -232
▁추 -233
▁피 -234
▁A -235
▁아니 -236
▁드 -237
▁사용 -238
▁출 -239
ㅌㅓ -240
▁국 -241
▁남 -242
▁에 -243
▁현 -244
레이 -245
▁크 -246
▁M -247
▁물 -248
▁자신 -249
▁이후 -250
ㄹㅓ -251
▁매 -252
▁% -253
▁편 -254
▁좋 -255
▁점 -256
▁호 -257
ㅣㄴㄷㅏ -258
▁감 -259
▁패 -260
▁ㄷㅐ -261
▁트 -262
▁학 -263
▁로 -264
▁교 -265
▁ㅋ -266
▁정도 -267
▁사람 -268
▁재 -269
▁C -270
ㅇㅑ -271
▁요 -272
▁또 -273
▁ㅅㅓ -274
스트 -275
▁저 -276
▁그리 -277
▁예 -278
▁두 -279
▁B -280
▁플 -281
▁입 -282
▁가능 -283
▁T -284
ㄹㅕ -285
▁ㅆ -286
▁김 -287
▁설 -288
ㅣㄹ -289
▁속 -290
▁달 -291
▁참 -292
▁형 -293
▁캐 -294
ㅇㅗ -295
▁함 -296
▁등장 -297
▁본 -298
▁치 -299
▁ㅇㅟ -300
▁알 -301
▁평 -302
▁D -303
ㅇㅡ -304
ㅇㅜㄴ -305
▁ㅁㅗ -306
▁메 -307
▁~ -308
▁+ -309
ㅇㅕ -310
▁과 -311
▁ㅌ -312
▁.. -313
▁12 -314
▁종 -315
▁다른 -316
▁승 -317
▁아이 -318
▁? -319
ㅈㅣㄴ -320
▁체 -321
▁게임 -322
▁토 -323
▁권 -324
▁팀 -325
▁군 -326
▁ㄴㅡㄴㄷㅏ -327
er -328
▁ㅇㅗ -329
▁200 -330
▁11 -331
▁L -332
▁ㅅㅣ -333
▁직 -334
▁용 -335
▁ㅁㅏ -336
▁외 -337
▁판 -338
00 -339
▁그리고 -340
▁확 -341
▁애 -342
▁처 -343
ㅇㅏ -344
▁하나 -345
in -346
▁경기 -347
▁잘 -348
▁행 -349
▁사실 -350
▁테 -351
▁F -352
▁필 -353
▁시간 -354
▁ㄴㅣ -355
▁운 -356
▁키 -357
▁P -358
▁죽 -359
ㅇㅘ -360
▁쓰 -361
▁ㅂㅓ -362
ㅂㄴㅣ -363
▁박 -364
▁못 -365
▁ㅂㅏ -366
▁심 -367
▁투 -368
▁살 -369
ㅇㅎㅐ -370
▁디 -371
▁변 -372
▁모습 -373
▁목 -374
▁간 -375
▁뒤 -376
ㄴㅏㄴ -377
▁집 -378
ㅈㅕ -379
▁히 -380
▁G -381
▁활 -382
▁네 -383
▁이상 -384
▁루 -385
▁사이 -386
▁이름 -387
▁통 -388
▁베 -389
▁높 -390
▁E -391
▁각 -392
▁양 -393
▁나오 -394
▁상대 -395
▁순 -396
▁언 -397
스터 -398
▁표 -399
ㄹㄹㅕ -400
▁맞 -401
▁그러 -402
▁야 -403
an -404
▁ㅈㅜ -405
▁능 -406
지만 -407
▁시작 -408
▁ㄱㅓㄴ -409
▁효 -410
on -411
▁15 -412
▁ㄹㅕ -413
▁존 -414
▁ㄴㅐ -415
▁문제 -416
▁돌 -417
▁일본 -418
▁함께 -419
▁왕 -420
▁하지만 -421
▁증 -422
▁ㅇㅑ -423
ㅇㅝ -424
▁한국 -425
▁병 -426
▁손 -427
▁# -428
▁ㄱㅔㅆ -429
▁생각 -430
▁H -431
▁캐릭 -432
▁건 -433
▁ㅎㅏ -434
▁약 -435
▁ㄱㅡ -436
▁브 -437
▁R -438
▁K -439
▁천 -440
▁폭 -441
▁캐릭터 -442
▁ㅊㅓ -443
ㄹㅓㅁ -444
▁별 -445
▁완 -446
ㄹㅡㄴ -447
▁능력 -448
▁듯 -449
▁프로 -450
▁ㅍ -451
▁t -452
대로 -453
▁너 -454
▁총 -455
▁클 -456
▁플레이 -457
▁I -458
▁독 -459
▁블 -460
▁시즌 -461
▁다시 -462
▁N -463
▁스킬 -464
▁잡 -465
▁막 -466
▁페 -467
이트 -468
▁항 -469
▁ㄸㅏ -470
▁날 -471
▁광 -472
▁ㅃ -473
▁근 -474
▁추가 -475
▁음 -476
▁복 -477
▁m -478
▁가지 -479
▁ㄱㅓㄹ -480
▁식 -481
▁검 -482
▁가장 -483
▁힘 -484
▁카드 -485
▁따 -486
▁상황 -487
▁만들 -488
▁또한 -489
or -490
미지 -491
ㅈㅕㅆ -492
▁먹 -493
▁삼 -494
▁상태 -495
▁당시 -496
ㅓㄹ -497
▁모두 -498
ar -499
▁열 -500
▁결국 -501
▁효과 -502
▁백 -503
▁충 -504
▁곡 -505
▁업 -506
▁18 -507
▁모든 -508
▁16 -509
▁다만 -510
▁쿠 -511
▁채 -512
ㄹㅣㄴ -513
ㄲㅏ -514
▁많이 -515
▁얼 -516
▁악 -517
▁금 -518
▁보이 -519
▁30 -520
▁전투 -521
▁O -522
at -523
ㄴㅐ -524
▁시리 -525
▁및 -526
▁티 -527
▁끝 -528
▁ㄷㅡㄹ -529
ㅅㅓㄴ -530
▁ㄷㅚㄹ -531
▁13 -532
▁ㅁㅗㅅ -533
▁산 -534
▁임 -535
ㄴㅣㄴ -536
▁레벨 -537
▁ㅅㅡ -538
▁급 -539
▁민 -540
▁눈 -541
he -542
▁] -543
▁올 -544
▁s -545
▁선수 -546
▁세계 -547
▁태 -548
▁W -549
▁ㅂㅗㄹ -550
ㄹㄹㅏ -551
▁존재 -552
▁엔 -553
라이 -554
▁14 -555
ㄱㅕ -556
▁[ -557
ㅇㅛ -558
▁친 -559
▁현재 -560
▁라이 -561
▁시리즈 -562
▁매우 -563
▁무기 -564
▁ㅇㅣㄹ -565
▁그런 -566
▁슈 -567
ㅇㅗㄴ -568
▁상당 -569
▁앞 -570
▁ㅅㅐ -571
▁길 -572
▁스타 -573
▁ㅋㅡㄴ -574
▁커 -575
▁물론 -576
▁머 -577
▁레이 -578
▁그러나 -579
▁첫 -580
▁ㅌㅗ -581
▁마법 -582
▁골 -583
en -584
ㅇㅣㄴㄷㅏ -585
▁17 -586
▁c -587
▁극 -588
▁절 -589
▁황 -590
▁팬 -591
▁얻 -592
▁난 -593
ㅜㄹ -594
▁터 -595
▁창 -596
▁100 -597
▁자체 -598
▁기술 -599
▁00 -600
ㅇㅘㅆ -601
▁그렇 -602
▁취 -603
▁합 -604
▁이런 -605
▁니 -606
▁주인 -607
▁청 -608
ㅇㅣㄴ -609
▁실제 -610
▁이유 -611
▁25 -612
▁관련 -613
ou -614
거리 -615
▁V -616
al -617
이지 -618
▁누 -619
▁탈 -620
ㅇㅎㅏㄴ -621
ㄹㅕㅆ -622
▁허 -623
▁U -624
▁이용 -625
▁필요 -626
▁시키 -627
ㅏㄴㄷㅏ -628
▁방송 -629
▁ㄷㅡ -630
▁해당 -631
▁기본 -632
▁케 -633
▁여기 -634
▁다음 -635
▁ㅇㅣㄴㄷㅔ -636
▁철 -637
▁지역 -638
▁법 -639
▁기록 -640
▁워 -641
▁역시 -642
▁처음 -643
▁바로 -644
▁방어 -645
▁일반 -646
▁곳 -647
▁은 -648
▁새 -649
▁ㄱㅣㄴ -650
▁거의 -651
▁ㄷㅓ -652
▁환 -653
▁째 -654
▁2017 -655
▁199 -656
▁피해 -657
리스 -658
학교 -659
ㄷㅡㄴ -660
ㅊㅕ -661
▁북 -662
▁혼 -663
이스 -664
▁ㅎㅐㅆㅇㅡ -665
▁그래 -666
▁좀 -667
▁아무 -668
▁ㅂㅣ -669
▁2018 -670
▁범 -671
▁사건 -672
▁여러 -673
▁같이 -674
▁이야 -675
▁미국 -676
▁ㄴㅑ -677
▁특히 -678
▁ㅂㅘ -679
▁탄 -680
▁이야기 -681
▁격 -682
▁ㄴㅡㄴㅈㅣ -683
ㅎㅕ -684
ㅈㅣㄴㄷㅏ -685
▁k -686
▁ㅇㅡㅁ -687
▁글 -688
▁잠 -689
ㅎㅐㅆ -690
▁ㅈㅣㄴ -691
▁몬 -692
es -693
▁부분 -694
리아 -695
▁없이 -696
▁영화 -697
▁ㅌㅗㅇㅎㅐ -698
▁싶 -699
▁학교 -700
▁달리 -701
▁ㅎㅏㅁ -702
지막 -703
▁본인 -704
▁증가 -705
▁인간 -706
▁진행 -707
▁ㄷㅙ -708
▁넘 -709
▁2019 -710
▁ㅇㅔㄴ -711
▁참고 -712
it -713
▁못하 -714
▁ㄷㅡㄹㅇㅓ -715
▁즉 -716
▁귀 -717
▁싸 -718
▁줄 -719
▁ㅇㅣㄴㅈㅣ -720
▁버리 -721
ㄹㅗㄱ -722
▁리그 -723
▁엘 -724
▁주인공 -725
부분 -726
▁제작 -727
ㅇㅔ -728
▁뿐 -729
▁속도 -730
▁마지막 -731
▁작품 -732
▁21 -733
▁X -734
▁50 -735
▁준 -736
▁그냥 -737
▁몸 -738
▁덕 -739
어지 -740
▁자기 -741
▁찾 -742
▁밀 -743
▁내용 -744
▁둘 -745
▁2016 -746
▁ㄷㅡㄴ -747
▁면 -748
▁와 -749
▁놓 -750
▁걸 -751
▁공격력 -752
ㄹㄹㅓ -753
▁ㅅㅡㅂㄴㅣ -754
▁개요 -755
ㅇㅗㄴㄷㅏ -756
▁대표 -757
▁대부분 -758
▁인물 -759
▁수준 -760
is -761
▁계속 -762
▁& -763
▁암 -764
re -765
▁몇 -766
▁쪽 -767
전히 -768
▁비슷 -769
▁위치 -770
▁동안 -771
▁어느 -772
▁ㄱㅜ -773
▁22 -774
▁헤 -775
▁w -776
le -777
▁딜 -778
ㅋㅕ -779
▁담 -780
▁국가 -781
▁대신 -782
토리 -783
▁ㅇㅣㄴㅎㅐ -784
▁홈 -785
▁상당히 -786
▁지금 -787
▁평가 -788
▁축 -789
▁기사 -790
▁활동 -791
▁엄 -792
▁일부 -793
▁타이 -794
▁관계 -795
▁이전 -796
▁J -797
▁접 -798
▁영상 -799
▁보스 -800
▁우리 -801
▁서울 -802
▁d -803
ㅇㅕㅆ -804
▁질 -805
▁24 -806
▁체력 -807
▁규 -808
▁유닛 -809
▁그대로 -810
▁문서 -811
▁감독 -812
▁너무 -813
▁최대 -814
▁ㄴㅡ -815
▁들어 -816
▁슬 -817
▁기준 -818
▁낮 -819
▁성공 -820
▁시절 -821
ing -822
ic -823
▁홍 -824
▁팔 -825
▁f -826
▁러 -827
▁넣 -828
▁데미지 -829
▁제외 -830
▁중국 -831
▁ㅁㅡ -832
▁ㅇㅏㄹ -833
▁빠 -834
▁느 -835
▁몬스터 -836
as -837
▁츠 -838
▁ㅅㅏ -839
▁유저 -840
▁실제로 -841
▁바람 -842
▁ㅃㅏ -843
▁b -844
▁붙 -845
▁정보 -846
▁멤 -847
▁결과 -848
▁설정 -849
시아 -850
▁지원 -851
▁전쟁 -852
▁그녀 -853
ㄴㅏㅆ -854
▁23 -855
▁승리 -856
▁갈 -857
▁소속 -858
ㅇㄱ -859
▁멤버 -860
▁2015 -861
▁논 -862
▁이미 -863
▁애니 -864
▁벌 -865
▁ㄹㅏㄴ -866
▁언급 -867
▁ㄴㅗ -868
▁자리 -869
▁40 -870
▁울 -871
▁님 -872
▁맨 -873
▁원래 -874
▁온 -875
▁ㅈㅝ -876
▁칼 -877
▁성우 -878
▁맡 -879
▁직접 -880
▁ㅂㅗㄴ -881
▁설명 -882
▁ㅊㅣ -883
▁컨 -884
▁육 -885
버지 -886
▁전체 -887
▁이동 -888
▁선택 -889
▁도시 -890
▁의미 -891
▁a -892
▁풀 -893
▁쉽 -894
ㄹㅣㄴㄷㅏ -895
▁씩 -896
운드 -897
▁여자 -898
▁마음 -899
▁희 -900
ㅡㅁ -901
▁다르 -902
▁과거 -903
▁< -904
랜드 -905
ㅜㄴㄷㅏ -906
▁머리 -907
▁괴 -908
▁협 -909
ㅂㅜ -910
▁ㅈㅜㄹ -911
▁ㅁㅜ -912
▁플레이어 -913
▁친구 -914
▁방법 -915
▁아이템 -916
이션 -917
▁출연 -918
▁봉 -919
▁돈 -920
▁뉴 -921
▁측 -922
▁장면 -923
▁ㅂㅏㄺ -924
▁ㄷㅙㅆ -925
▁버전 -926
▁ㅈㅜㄴㄷㅏ -927
▁스토리 -928
▁차이 -929
om -930
ㄷㅡㄹ -931
ㄹㅇㅏ -932
▁묘 -933
▁탑 -934
am -935
▁센 -936
▁꽤 -937
▁p -938
가지 -939
ㄹㄹㅣㄴ -940
▁몰 -941
▁h -942
▁대사 -943
▁즈 -944
이드 -945
ㅣㅁ -946
ㅜㅁ -947
▁갑 -948
▁공식 -949
▁모드 -950
어나 -951
▁사랑 -952
벤트 -953
▁프리 -954
▁소리 -955
▁혹 -956
▁압 -957
▁ㄹㅓ -958
▁조금 -959
▁이것 -960
▁송 -961
▁개발 -962
▁198 -963
el -964
▁대상 -965
▁당하 -966
▁대학 -967
▁ㅇㅗㄹㄹㅏ -968
▁초반 -969
▁파이 -970
▁거리 -971
▁버스 -972
▁전부 -973
▁o -974
▁연구 -975
▁ㄸㅓㄹ -976
▁이벤트 -977
▁씨 -978
▁속성 -979
▁침 -980
▁퍼 -981
▁최고 -982
▁남자 -983
▁26 -984
▁링 -985
▁ㅅㅔ -986
▁2014 -987
▁제대로 -988
ㅓㅁ -989
▁기타 -990
▁책 -991
▁ㅆㅓ -992
▁볼 -993
▁ㅇㅏㄹㄹㅕ -994
▁강화 -995
▁궁 -996
▁유명 -997
▁동시 -998
▁만큼 -999
▁여성 -1000
이도 -1001
ㅎㅏㄹ -1002
▁파괴 -1003
▁n -1004
▁스테 -1005
▁층 -1006
▁ㄴㅏㄹ -1007
ㄹㅣㄹ -1008
▁28 -1009
▁역사 -1010
▁나이 -1011
▁정말 -1012
▁듣 -1013
▁드래 -1014
▁아버지 -1015
▁쇼 -1016
▁소환 -1017
ㄱㅏㅆ -1018
▁성능 -1019
▁27 -1020
▁자주 -1021
▁the -1022
▁답 -1023
▁최종 -1024
▁학생 -1025
▁류 -1026
▁운영 -1027
▁색 -1028
▁31 -1029
▁우승 -1030
▁회복 -1031
▁아직 -1032
▁석 -1033
▁후반 -1034
ㅁㅕㄴㅅㅓ -1035
▁앨 -1036
▁출신 -1037
▁ㅈㅗ -1038
ㅎㅏㄴㄷㅏ -1039
▁이렇 -1040
▁농 -1041
▁모르 -1042
▁당연 -1043
▁왜 -1044
▁마이 -1045
▁특성 -1046
▁= -1047
▁ㄸㅓㄹㅇㅓ -1048
▁나가 -1049
▁그런데 -1050
▁인터 -1051
▁공개 -1052
▁강력 -1053
▁확률 -1054
▁빌 -1055
▁콘 -1056
▁주로 -1057
▁사망 -1058
▁노선 -1059
▁멀 -1060
다가 -1061
▁유지 -1062
리어 -1063
▁노래 -1064
▁마리 -1065
▁서로 -1066
▁이때 -1067
ㅈㅏ -1068
ol -1069
ㄱㅏㄴ -1070
▁ㄷㅗㄹㅇㅏ -1071
▁ㅅㅐㅇㄱ -1072
▁밖 -1073
▁발매 -1074
▁ㅈㅓ -1075
▁000 -1076
▁ㄷㅡㅅ -1077
▁그것 -1078
▁샤 -1079
▁슈퍼 -1080
▁방식 -1081
▁발생 -1082
▁특수 -1083
▁잔 -1084
▁마찬 -1085
▁마찬가지 -1086
▁나라 -1087
▁시스 -1088
ㅇㅓㅆ -1089
▁라인 -1090
▁ㅇㅕㅆㅇㅡ -1091
▁대전 -1092
ion -1093
▁월드 -1094
▁영향 -1095
▁망 -1096
▁정신 -1097
▁결정 -1098
et -1099
▁ㅇㅗㄴ -1100
▁변경 -1101
▁솔 -1102
▁장비 -1103
▁영웅 -1104
ac -1105
▁오히 -1106
▁기존 -1107
▁포함 -1108
▁비교 -1109
▁오히려 -1110
ㅊㅣㄴ -1111
▁배우 -1112
▁역할 -1113
▁보통 -1114
▁인기 -1115
ㄹㅡㄴㄷㅏ -1116
▁32 -1117
▁르 -1118
▁작중 -1119
▁게다가 -1120
▁ㅆㅡㄹ -1121
▁뜻 -1122
ㅐㄴ -1123
머니 -1124
▁찍 -1125
ㅇㅣ -1126
▁수록 -1127
▁차량 -1128
▁먼 -1129
아가 -1130
▁형태 -1131
ㅁㅏ -1132
▁마을 -1133
▁Y -1134
▁아예 -1135
▁중요 -1136
▁들어가 -1137
▁세트 -1138
▁어떤 -1139
▁성격 -1140
▁싱 -1141
▁ㄴㅜ -1142
▁좌 -1143
▁술 -1144
▁억 -1145
▁난이도 -1146
il -1147
us -1148
▁행동 -1149
ㄹㄹㅕㅆ -1150
▁일단 -1151
▁이번 -1152
▁대한 -1153
▁29 -1154
프트 -1155
▁착 -1156
▁섬 -1157
▁ㅁㅗㅅㅎㅐㅆ -1158
▁v -1159
ig -1160
▁ㅊㅏ -1161
▁액 -1162
▁맵 -1163
▁모양 -1164
▁부르 -1165
ow -1166
우스 -1167
▁갖 -1168
▁음악 -1169
▁흑 -1170
▁과정 -1171
▁ㅈㅕㅆ -1172
▁시대 -1173
레이드 -1174
▁대회 -1175
▁드라 -1176
▁주장 -1177
▁최초 -1178
▁심지 -1179
ed -1180
▁ㅁㅏㄴㄷㅡㄴ -1181
민국 -1182
▁부족 -1183
▁ㅁㅣ -1184
▁떨 -1185
ㅔㄴ -1186
▁2013 -1187
▁구성 -1188
▁이러 -1189
▁ㅅㅏㄹ -1190
ㄱㅓㄹ -1191
▁사회 -1192
▁발동 -1193
▁스트 -1194
▁ㅉ -1195
▁심지어 -1196
▁윤 -1197
▁이렇게 -1198
▁휴 -1199
ㄹㅐ -1200
▁입장 -1201
▁폐 -1202
▁l -1203
▁ㅋㅓ -1204
▁ㄴㅏㄴ -1205
▁유일 -1206
▁ㄷㅏㅇㅎㅐ -1207
▁확인 -1208
ㅈㅣㄹ -1209
▁ㄸㅓ -1210
▁던 -1211
▁ㅇㅘㅆ -1212
▁깨 -1213
▁바이 -1214
▁풍 -1215
▁사진 -1216
▁다이 -1217
▁거기 -1218
▁획 -1219
▁애니메 -1220
▁x -1221
▁60 -1222
▁항목 -1223
▁빛 -1224
▁여담 -1225
▁정치 -1226
▁먼저 -1227
▁아래 -1228
▁활약 -1229
▁모델 -1230
▁조건 -1231
▁ㅆㅡ -1232
▁자세 -1233
▁원작 -1234
▁35 -1235
▁ㅆㅏ -1236
ㅇㅜㄹ -1237
▁어떻 -1238
▁Lv -1239
▁ㅎㅏㅂㄴㅣ -1240
▁콜 -1241
▁훈 -1242
▁바뀌 -1243
▁덕분 -1244
▁대한민국 -1245
▁시스템 -1246
▁득 -1247
▁감소 -1248
▁하이 -1249
ㄱㅏㄴㄷㅏ -1250
▁굉 -1251
ㅂㅗ -1252
▁주변 -1253
▁완전히 -1254
id -1255
ㄹㅡㄹ -1256
▁이제 -1257
인트 -1258
▁까 -1259
▁응 -1260
▁ㅇㅣㅁ -1261
▁명칭 -1262
▁프랑 -1263
▁챔 -1264
ay -1265
ㅈㅊ -1266
▁애니메이션 -1267
▁그래서 -1268
▁ㄴㅓㅁ -1269
▁자유 -1270
▁따르 -1271
▁메이 -1272
▁ㄲㅡ -1273
ad -1274
▁특징 -1275
▁독일 -1276
▁2012 -1277
▁관리 -1278
▁얼굴 -1279
버스 -1280
▁자동 -1281
▁순간 -1282
▁전혀 -1283
▁뭐 -1284
▁01 -1285
▁우주 -1286
▁경찰 -1287
▁차지 -1288
▁적용 -1289
▁영어 -1290
ㄱㅏㄹ -1291
▁교육 -1292
▁지나 -1293
▁부대 -1294
▁가격 -1295
나마 -1296
▁듀 -1297
ㅌㅏ -1298
▁할 -1299
▁굉장 -1300
▁뮤 -1301
▁of -1302
ㅇㅣㄹ -1303
▁고등 -1304
▁r -1305
▁정부 -1306
▁마스터 -1307
▁패배 -1308
▁드래곤 -1309
▁뛰 -1310
▁아군 -1311
▁기간 -1312
▁오브 -1313
소드 -1314
▁실패 -1315
▁앨범 -1316
없이 -1317
ot -1318
▁생산 -1319
▁개인 -1320
ve -1321
and -1322
▁건물 -1323
▁힘들 -1324
▁덱 -1325
▁상승 -1326
ㅊㅏ -1327
▁놀 -1328
▁그렇게 -1329
▁ㅈㅜㄴ -1330
▁시점 -1331
▁얼마 -1332
▁지속 -1333
▁하루 -1334
▁혹은 -1335
▁기능 -1336
▁국내 -1337
▁뽑 -1338
▁획득 -1339
▁그나마 -1340
▁작가 -1341
▁ㄹㅜ -1342
▁TV -1343
▁ㅂㅏㄲ -1344
▁ㅂㅏㄲㅇㅔ -1345
디오 -1346
▁지구 -1347
▁아들 -1348
▁패치 -1349
주의 -1350
▁반대 -1351
▁턴 -1352
▁에피 -1353
▁처리 -1354
레스 -1355
▁웨 -1356
▁녹 -1357
▁소개 -1358
▁발견 -1359
▁퀘 -1360
▁실력 -1361
▁y -1362
▁짓 -1363
▁반응 -1364
▁만화 -1365
▁제국 -1366
▁랭 -1367
▁참조 -1368
너지 -1369
▁기억 -1370
20 -1371
▁정확 -1372
▁동일 -1373
▁도움 -1374
▁대학교 -1375
▁영국 -1376
▁선발 -1377
▁킹 -1378
▁현대 -1379
ㅇㅗㄹ -1380
ch -1381
▁담당 -1382
▁출시 -1383
▁빼 -1384
▁그림 -1385
▁칸 -1386
▁에피소드 -1387
ㅇㅝㅆ -1388
▁기관 -1389
▁쿨 -1390
▁맥 -1391
▁떠 -1392
▁땅 -1393
▁초기 -1394
▁량 -1395
▁세대 -1396
▁드라마 -1397
▁단계 -1398
ㅌㅔ -1399
▁계획 -1400
▁향 -1401
▁아마 -1402
▁홀 -1403
ㅁㅊ -1404
un -1405
▁판매 -1406
▁밤 -1407
▁범위 -1408
▁또는 -1409
▁딱 -1410
▁ㅁㅔ -1411
▁폴 -1412
▁버프 -1413
▁37 -1414
▁헬 -1415
BS -1416
▁The -1417
ㅆㅓ -1418
ㅁㅡ -1419
▁ㅆㅡㄴ -1420
ㄴㅏㄴㄷㅏ -1421
▁2010 -1422
▁퇴 -1423
▁ㅎㅏㄴㅌㅔ -1424
▁패턴 -1425
▁시청 -1426
소리 -1427
▁맛 -1428
▁상위 -1429
▁늘 -1430
▁등급 -1431
▁g -1432
ㅓㅇ -1433
▁문화 -1434
▁대미지 -1435
▁회사 -1436
▁폭발 -1437
▁타입 -1438
▁벨 -1439
▁빠르 -1440
▁시기 -1441
▁표현 -1442
▁80 -1443
▁따라 -1444
▁싸우 -1445
▁빨 -1446
▁500 -1447
▁데이 -1448
▁요구 -1449
▁탐 -1450
▁무시 -1451
ㅎㅕㅆ -1452
▁St -1453
▁견 -1454
ㄹㄹㅣㄴㄷㅏ -1455
ㄱㅣㄴ -1456
▁확실 -1457
▁습 -1458
▁수비 -1459
▁라운드 -1460
▁45 -1461
▁스페 -1462
▁굉장히 -1463
▁끼 -1464
▁사고 -1465
▁이미지 -1466
▁진짜 -1467
ER -1468
▁움 -1469
▁인정 -1470
ㅕㄴ -1471
▁발사 -1472
▁경험 -1473
▁* -1474
▁죽이 -1475
▁ㅈㅜㄱ -1476
▁잃 -1477
▁어떻게 -1478
▁소모 -1479
▁파워 -1480
▁컴 -1481
▁09 -1482
▁주의 -1483
▁가족 -1484
▁) -1485
▁생활 -1486
▁세이 -1487
▁묘사 -1488
▁특별 -1489
▁어디 -1490
dd -1491
▁ㄱㅏㄹ -1492
▁활용 -1493
▁낙 -1494
▁딸 -1495
▁율 -1496
ㄴㅐㅆ -1497
▁족 -1498
▁디자 -1499
▁중앙 -1500
▁km -1501
▁ㄷㅏㅇㅎㅏㄴ -1502
▁아주 -1503
▁만나 -1504
▁오리 -1505
▁대체 -1506
▁히로 -1507
▁197 -1508
▁연기 -1509
▁02 -1510
▁한정 -1511
▁방향 -1512
▁트리 -1513
▁03 -1514
▁진출 -1515
▁ㅂㅏㄺㅎㅕ -1516
▁운동 -1517
▁헌 -1518
▁ㅈㅝㅆ -1519
인물 -1520
로스 -1521
▁데뷔 -1522
▁불리 -1523
▁엑 -1524
▁중간 -1525
▁그룹 -1526
▁프랑스 -1527
▁익 -1528
ㅎㅣㄴ -1529
▁린 -1530
▁생명 -1531
▁물리 -1532
▁ㅇㅓㅁㅊ -1533
▁ㅇㅓㅁㅊㅓㅇ -1534
▁끌 -1535
▁싸움 -1536
▁졸 -1537
▁포인트 -1538
▁빈 -1539
▁엔딩 -1540
▁ㄴㅔ -1541
▁어렵 -1542
▁2011 -1543
▁스테이지 -1544
ff -1545
▁야구 -1546
▁ㄲㅡㅌ -1547
▁믿 -1548
▁준비 -1549
▁핵 -1550
▁겨 -1551
▁선거 -1552
▁유리 -1553
▁등장인물 -1554
▁ㄹㅏㅇ -1555
▁ㅂㅓㄹ -1556
▁혼자 -1557
ir -1558
▁흔 -1559
▁당연히 -1560
▁후보 -1561
▁시장 -1562
▁논란 -1563
▁옆 -1564
▁다니 -1565
▁꿈 -1566
▁위험 -1567
▁조합 -1568
▁순위 -1569
▁현실 -1570
▁사실상 -1571
▁05 -1572
▁무장 -1573
▁ㅇㅓㅁㅊㅓㅇㄴㅏㄴ -1574
▁아르 -1575
통령 -1576
▁숙 -1577
▁퀘스트 -1578
▁Z -1579
▁표기 -1580
▁흡 -1581
▁더욱 -1582
ㄱㅓㄴ -1583
os -1584
▁미션 -1585
▁고등학교 -1586
▁크리스 -1587
▁챔피 -1588
▁어머니 -1589
▁프로그 -1590
스크 -1591
▁분위 -1592
▁브라 -1593
▁70 -1594
▁민주 -1595
▁참여 -1596
▁90 -1597
▁떨어지 -1598
▁비판 -1599
▁그래도 -1600
▁08 -1601
▁구조 -1602
▁블랙 -1603
▁단순 -1604
▁학년 -1605
▁죄 -1606
ㅝㄴ -1607
im -1608
▁푸 -1609
▁계약 -1610
▁분위기 -1611
▁07 -1612
▁동료 -1613
ㅋㅕㅆ -1614
▁약간 -1615
▁중심 -1616
▁링크 -1617
▁훨 -1618
ㅊㅕㅆ -1619
▁투수 -1620
▁대통령 -1621
▁방어력 -1622
▁취급 -1623
▁욕 -1624
▁괜 -1625
▁조선 -1626
▁직업 -1627
▁48 -1628
▁ㅁㅗㅅㅎㅏㄴ -1629
▁HP -1630
▁콤 -1631
▁ㄱㅏㅆ -1632
▁똑 -1633
리카 -1634
▁보호 -1635
비스 -1636
ter -1637
▁구간 -1638
▁설치 -1639
▁계열 -1640
▁방면 -1641
▁얘 -1642
▁다양 -1643
▁여전히 -1644
▁위원 -1645
▁결혼 -1646
▁훨씬 -1647
▁ㄸㅟ -1648
▁나무 -1649
▁전용 -1650
ㄱㅓ -1651
▁쉬 -1652
▁염 -1653
이크 -1654
▁시도 -1655
▁디자인 -1656
머지 -1657
▁주요 -1658
▁나머지 -1659
▁올리 -1660
티브 -1661
▁06 -1662
▁mm -1663
▁ㅇㅣㅂㄴㅣ -1664
▁300 -1665
▁보상 -1666
▁2000 -1667
▁불구 -1668
▁일정 -1669
▁축구 -1670
▁이루 -1671
▁성적 -1672
▁웃 -1673
▁33 -1674
▁소녀 -1675
▁ㅂㅜㄹㄹㅓ -1676
▁흥 -1677
▁... -1678
니아 -1679
▁탓 -1680
▁연속 -1681
▁목적 -1682
▁수정 -1683
▁갤 -1684
▁올라 -1685
▁싫 -1686
▁탱 -1687
▁배틀 -1688
ur -1689
▁지하 -1690
▁ㄱㅏㅇㅎㅏㄴ -1691
▁읽 -1692
▁ㅌㅓ -1693
▁종류 -1694
▁삼성 -1695
▁고려 -1696
▁36 -1697
▁부산 -1698
▁론 -1699
▁쌍 -1700
▁률 -1701
▁세력 -1702
▁성장 -1703
▁04 -1704
▁벽 -1705
▁기대 -1706
▁각각 -1707
▁대화 -1708
▁안타 -1709
ㄱㅕㅆ -1710
▁지방 -1711
▁캠 -1712
▁팩 -1713
▁잘못 -1714
▁e -1715
스로 -1716
od -1717
ㅋㅣㄴ -1718
▁참가 -1719
▁발표 -1720
▁이해 -1721
▁ㅇㅣㄹㅇㅓ -1722
▁해결 -1723
▁력 -1724
▁의견 -1725
▁th -1726
▁포켓 -1727
▁징 -1728
▁ㅅㅓㄴ -1729
▁당신 -1730
▁전설 -1731
▁부상 -1732
ㅋㅡㅁ -1733
ㅈㅜㄴㄷㅏ -1734
ag -1735
▁ㅊㅕ -1736
▁방영 -1737
ㅈㅓ -1738
▁큐 -1739
▁휘 -1740
▁느낌 -1741
▁예정 -1742
▁픽 -1743
▁전문 -1744
▁일행 -1745
▁거대 -1746
▁프로그램 -1747
▁스피 -1748
▁종족 -1749
▁you -1750
▁랜 -1751
▁운행 -1752
▁ㅌㅏ -1753
▁센터 -1754
▁ㅅㅗ -1755
▁밴 -1756
▁힐 -1757
▁짜 -1758
▁소설 -1759
▁ㅁㅏㄴㅋㅡㅁ -1760
▁과학 -1761
▁FC -1762
▁숨 -1763
▁근접 -1764
▁각성 -1765
▁종료 -1766
▁부활 -1767
지션 -1768
ub -1769
▁죽음 -1770
▁ㅈㅕ -1771
▁배치 -1772
▁조사 -1773
▁도중 -1774
▁충분 -1775
ㄴㅏㄹ -1776
▁렌 -1777
▁장착 -1778
▁녀 -1779
▁최근 -1780
▁짧 -1781
▁빅 -1782
데이트 -1783
▁ㄷㅜ -1784
▁ㅈㅔ -1785
▁아이돌 -1786
▁업데이트 -1787
▁국민 -1788
▁러시아 -1789
▁ㅂㅘㅆ -1790
▁삭 -1791
▁정상 -1792
▁옥 -1793
▁무리 -1794
▁척 -1795
▁스카 -1796
▁세상 -1797
▁안정 -1798
▁cm -1799
▁항공 -1800
ㅈㅇㅏ -1801
▁나중 -1802
▁SK -1803
▁절대 -1804
▁제목 -1805
igh -1806
▁유니 -1807
▁제공 -1808
▁점수 -1809
▁경제 -1810
▁엄청 -1811
▁달성 -1812
▁엔진 -1813
▁번호 -1814
▁ㅅㅟ -1815
▁지도 -1816
▁자연 -1817
▁챔피언 -1818
▁스스로 -1819
▁켄 -1820
ver -1821
▁틀 -1822
▁배경 -1823
▁충격 -1824
▁추정 -1825
▁미사 -1826
▁만드 -1827
▁나타 -1828
▁목록 -1829
ㅋㅣㄹ -1830
▁ㅋㅣ -1831
▁번역 -1832
ak -1833
▁작전 -1834
▁사이트 -1835
▁오래 -1836
▁롤 -1837
▁레어 -1838
▁가끔 -1839
▁포켓몬 -1840
▁비행 -1841
스타 -1842
▁곧 -1843
너스 -1844
▁목소리 -1845
▁34 -1846
▁똑같 -1847
▁셈 -1848
▁조직 -1849
▁요소 -1850
▁미래 -1851
▁규모 -1852
▁정체 -1853
▁196 -1854
▁스파 -1855
▁전작 -1856
▁남성 -1857
▁꾸 -1858
▁ㅁㅓ -1859
ㅅㅣ -1860
자기 -1861
▁ㄷㅏㅇㅎㅐㅆ -1862
▁출전 -1863
▁ㅊㅏㅈㅇㅏ -1864
▁악마 -1865
▁빙 -1866
▁전차 -1867
▁파티 -1868
▁공중 -1869
▁훈련 -1870
▁스타일 -1871
▁전사 -1872
▁십 -1873
▁타카 -1874
▁품 -1875
▁타격 -1876
ent -1877
▁클리어 -1878
▁강하 -1879
▁ㅌㅐ -1880
▁굴 -1881
▁ㅁㅏㅈㅊ -1882
▁사냥 -1883
▁변화 -1884
▁에너지 -1885
▁만약 -1886
▁괜찮 -1887
▁홈런 -1888
▁동물 -1889
▁혈 -1890
▁클래 -1891
▁위기 -1892
▁생존 -1893
▁누구 -1894
▁분노 -1895
BC -1896
ㅋㅣㄴㄷㅏ -1897
▁자랑 -1898
▁신경 -1899
ㄱㅎㅏㄴ -1900
▁ㅎㅐㅆㅇㅓㅆ -1901
▁더불 -1902
▁득점 -1903
▁75 -1904
ㅡㄹㅇㅓ -1905
▁꼬 -1906
리오 -1907
▁ㅇㅛ -1908
um -1909
▁뒷 -1910
▁수상 -1911
▁애초 -1912
▁필드 -1913
▁굳 -1914
▁건담 -1915
▁단점 -1916
ut -1917
▁연결 -1918
▁로봇 -1919
▁장갑 -1920
▁크리 -1921
▁소재 -1922
▁국제 -1923
▁포지션 -1924
러스 -1925
▁vs -1926
▁요리 -1927
ec -1928
▁특정 -1929
디어 -1930
▁38 -1931
▁비용 -1932
▁기동 -1933
▁전기 -1934
▁싱글 -1935
▁냉 -1936
ㅇㄱㅕ -1937
▁연합 -1938
▁사항 -1939
▁판정 -1940
▁ㅊㅐ -1941
▁시험 -1942
▁런 -1943
▁덤 -1944
▁ㅎㅏㄴㄷㅔ -1945
▁반면 -1946
▁장소 -1947
▁롯 -1948
▁공연 -1949
ㄹㄹㅣㄹ -1950
▁한편 -1951
▁옵 -1952
▁기체 -1953
▁55 -1954
▁ㄷㅡㅅㅇㅣ -1955
▁목표 -1956
▁항상 -1957
라지 -1958
▁화력 -1959
▁ㄴㅏㅁ -1960
▁얘기 -1961
▁연출 -1962
▁무엇 -1963
▁사거리 -1964
▁무대 -1965
▁예상 -1966
▁정작 -1967
▁묻 -1968
▁in -1969
▁시설 -1970
▁맹 -1971
▁멸 -1972
▁사업 -1973
▁2009 -1974
▁최소 -1975
▁던전 -1976
▁텐 -1977
▁움직 -1978
▁ㄷㅔ -1979
▁인터뷰 -1980
▁유럽 -1981
▁관심 -1982
▁교체 -1983
▁ㄹㅣ -1984
▁철도 -1985
▁ㅂㅜㅌ -1986
▁하늘 -1987
▁내부 -1988
▁Q -1989
▁야마 -1990
▁꽃 -1991
▁비밀 -1992
ST -1993
▁제일 -1994
ro -1995
▁칭 -1996
▁카이 -1997
▁지휘 -1998
▁사격 -1999
▁엘리 -2000
▁별로 -2001
▁다크 -2002
▁변신 -2003
▁인사 -2004
▁to -2005
▁록 -2006
▁수치 -2007
▁찬 -2008
▁작곡 -2009
▁정식 -2010
▁ㅋㅡㄹ -2011
▁다리 -2012
▁쓰이 -2013
▁나름 -2014
▁기계 -2015
ㄹㅏㄴ -2016
▁스포 -2017
▁수도 -2018
ㄴㅑ -2019
ㄴㅐㄴ -2020
▁시전 -2021
▁교통 -2022
▁결승 -2023
▁파일 -2024
▁카운 -2025
▁오버 -2026
▁벤 -2027
아오 -2028
▁각종 -2029
▁부여 -2030
▁마나 -2031
▁따로 -2032
▁비롯 -2033
▁옷 -2034
▁코스 -2035
▁졸업 -2036
▁레인 -2037
▁케이 -2038
▁확정 -2039
▁일러 -2040
동안 -2041
▁ㅎㅣㅁ -2042
▁오늘 -2043
나라 -2044
▁보내 -2045
▁진화 -2046
▁지상 -2047
▁치명 -2048
▁ㅈㅓㄴ -2049
▁황제 -2050
▁이탈 -2051
▁그만 -2052
▁특이 -2053
▁이쪽 -2054
▁흐 -2055
▁놈 -2056
▁_ -2057
▁도로 -2058
▁란 -2059
▁전반 -2060
ㅕㄹ -2061
▁북한 -2062
▁따라서 -2063
▁제한 -2064
▁라이브 -2065
▁기업 -2066
▁발전 -2067
▁끊 -2068
▁시티 -2069
▁건설 -2070
▁아키 -2071
▁병력 -2072
▁갑자기 -2073
em -2074
▁왼 -2075
▁이외 -2076
▁EX -2077
▁돌아가 -2078
▁오르 -2079
▁쯤 -2080
▁일러스트 -2081
▁의외 -2082
▁가사 -2083
▁ㅇㅜ -2084
▁압도 -2085
▁언제 -2086
▁2008 -2087
▁나이트 -2088
▁역대 -2089
▁사정 -2090
▁넓 -2091
▁외국 -2092
▁ㅇㅣㄴㄱㅏ -2093
▁삭제 -2094
▁아파 -2095
ight -2096
▁주문 -2097
ㅝㅆ -2098
▁ㅃㅜㄴ -2099
아내 -2100
▁저항 -2101
▁티어 -2102
▁무슨 -2103
AN -2104
▁탈출 -2105
▁직전 -2106
▁이닝 -2107
▁골드 -2108
▁지지 -2109
라인 -2110
어로 -2111
▁감정 -2112
▁이기 -2113
▁고양 -2114
▁임무 -2115
▁위력 -2116
▁보유 -2117
▁프레 -2118
▁아카 -2119
▁마치 -2120
▁자원 -2121
▁납 -2122
AR -2123
▁노트 -2124
▁표시 -2125
▁세기 -2126
▁서비스 -2127
▁로드 -2128
▁지키 -2129
▁점프 -2130
▁어둠 -2131
▁집중 -2132
▁파트 -2133
▁전국 -2134
▁사례 -2135
▁분류 -2136
▁잉 -2137
▁쏘 -2138
▁아프 -2139
ㄷㅓㄴ -2140
▁깊 -2141
▁', -2142
▁랭크 -2143
▁ㄱㅗㄴ -2144
▁페이 -2145
▁인구 -2146
▁ㅁㅓㄴ -2147
▁효율 -2148
젝트 -2149
▁히어로 -2150
▁작업 -2151
▁ㄴㅓㅁㅇㅓ -2152
▁상관 -2153
▁뇌 -2154
▁완전 -2155
ap -2156
▁루트 -2157
▁아스 -2158
▁인식 -2159
▁회피 -2160
▁극장 -2161
▁가수 -2162
▁연습 -2163
▁공간 -2164
ON -2165
▁도전 -2166
▁명령 -2167
▁생기 -2168
▁42 -2169
▁41 -2170
▁오른 -2171
▁화면 -2172
▁이어 -2173
▁ㅍㅣ -2174
▁물건 -2175
▁별명 -2176
▁기회 -2177
▁경쟁 -2178
▁컬 -2179
▁장점 -2180
▁션 -2181
▁컵 -2182
▁폰 -2183
▁촬 -2184
▁레드 -2185
ㄱㅣㄹ -2186
▁녀석 -2187
▁행정 -2188
▁래 -2189
그레이드 -2190
▁업그레이드 -2191
▁단어 -2192
▁잠시 -2193
▁인천 -2194
▁사기 -2195
▁No -2196
▁개념 -2197
▁옛 -2198
▁ㄴㅐㄴ -2199
▁군사 -2200
▁부모 -2201
▁몽 -2202
▁추천 -2203
▁오프 -2204
▁ㅎㅑ -2205
▁39 -2206
ㅏㄹㄹㅏ -2207
▁Ch -2208
▁병원 -2209
▁스럽 -2210
▁근처 -2211
ㄹㅡㅁ -2212
▁발언 -2213
▁ㄱㅘㄴ -2214
▁ㅊㅣㄴ -2215
▁펜 -2216
▁불가 -2217
▁꾼 -2218
▁무려 -2219
▁전력 -2220
▁194 -2221
▁살인 -2222
▁미니 -2223
▁아파트 -2224
▁신체 -2225
▁ㅇㅡㄴㄷㅔ -2226
▁크기 -2227
학생 -2228
▁전개 -2229
▁ㅈㅛ -2230
▁의식 -2231
▁정리 -2232
▁포기 -2233
▁촬영 -2234
▁kg -2235
ㅂㅓ -2236
▁> -2237
ul -2238
▁주제 -2239
페이지 -2240
▁본래 -2241
▁히트 -2242
▁킬 -2243
▁고정 -2244
▁강제 -2245
어들 -2246
▁44 -2247
▁타임 -2248
▁판단 -2249
▁ㅍㅜ -2250
▁st -2251
▁라이트 -2252
▁밑 -2253
▁ㅁㅗㄹㄹㅏ -2254
ㅐㄹ -2255
▁노력 -2256
▁붕 -2257
라스 -2258
▁밀리 -2259
ce -2260
▁ㄱㅏㄴ -2261
▁버그 -2262
▁부정 -2263
▁홈페이지 -2264
▁공주 -2265
▁이하 -2266
▁스코 -2267
▁평균 -2268
▁데스 -2269
000 -2270
▁셋 -2271
▁독립 -2272
▁2020 -2273
▁롭 -2274
▁멘 -2275
▁; -2276
▁최강 -2277
▁학원 -2278
▁선생 -2279
▁구매 -2280
▁제거 -2281
▁베이 -2282
무리 -2283
▁ㅅㅣㅁ -2284
▁왕국 -2285
▁구하 -2286
▁99 -2287
▁LG -2288
▁제품 -2289
▁폭탄 -2290
▁위키 -2291
▁롯데 -2292
▁조종 -2293
▁밝 -2294
▁ㅅㅐㅇㄱㅕㅆ -2295
▁꼭 -2296
▁닌 -2297
요일 -2298
▁분명 -2299
믹스 -2300
▁마법사 -2301
▁ㄱㅏㄴㄷㅏ -2302
▁병사 -2303
▁고속 -2304
▁가드 -2305
▁리더 -2306
▁웹 -2307
▁여행 -2308
▁동생 -2309
ik -2310
▁중반 -2311
▁단체 -2312
▁군대 -2313
▁윈 -2314
▁옵션 -2315
▁예전 -2316
ㄱㅎㅕ -2317
▁2007 -2318
▁떡 -2319
▁전자 -2320
다리 -2321
▁행위 -2322
▁곤 -2323
▁짐 -2324
▁음식 -2325
다니 -2326
▁195 -2327
트리 -2328
▁노리 -2329
▁43 -2330
▁현상 -2331
▁대구 -2332
▁칠 -2333
▁완벽 -2334
▁ㅁㅝㄴ -2335
▁수행 -2336
▁겪 -2337
all -2338
▁가문 -2339
▁요시 -2340
IN -2341
▁구분 -2342
▁탈락 -2343
야마 -2344
▁원인 -2345
▁새로 -2346
▁부탁 -2347
모토 -2348
▁완성 -2349
▁그야 -2350
▁대기 -2351
▁겸 -2352
▁ㅇㅗㄹㄹㅕ -2353
드시 -2354
▁바다 -2355
▁MA -2356
▁통합 -2357
▁붉 -2358
▁개그 -2359
▁의원 -2360
▁반드시 -2361
이치 -2362
▁일어나 -2363
란드 -2364
▁재료 -2365
▁하드 -2366
▁드러 -2367
▁전략 -2368
▁마사 -2369
▁바꾸 -2370
▁차원 -2371
▁주민 -2372
▁단지 -2373
▁펼 -2374
▁크로 -2375
▁복귀 -2376
▁쥬 -2377
▁직후 -2378
▁템 -2379
▁광역 -2380
▁환경 -2381
튜브 -2382
말로 -2383
nd -2384
타임 -2385
▁한글 -2386
러리 -2387
▁연재 -2388
▁기반 -2389
▁46 -2390
이어 -2391
▁넘어 -2392
▁그야말로 -2393
▁서버 -2394
르트 -2395
▁47 -2396
트라 -2397
▁끝나 -2398
▁밸 -2399
▁지정 -2400
▁정규 -2401
▁치료 -2402
▁해군 -2403
▁인도 -2404
▁뜨 -2405
▁마무리 -2406
▁2006 -2407
▁연장 -2408
▁ㅈㅣㄹ -2409
▁걱 -2410
▁보너스 -2411
▁걸리 -2412
▁타이틀 -2413
▁멜 -2414
▁해외 -2415
▁대장 -2416
▁ㅋㅔ -2417
▁걱정 -2418
▁평범 -2419
▁다수 -2420
▁월드컵 -2421
▁다행 -2422
th -2423
▁보병 -2424
▁느끼 -2425
▁유사 -2426
▁워낙 -2427
▁조작 -2428
▁공포 -2429
▁밥 -2430
▁포스 -2431
▁미사일 -2432
▁51 -2433
▁상세 -2434
▁코스트 -2435
▁심각 -2436
▁우선 -2437
▁추측 -2438
조건 -2439
▁가면 -2440
▁실험 -2441
▁빨리 -2442
▁ㅈㅣㄴㄷㅏ -2443
▁샷 -2444
▁캡 -2445
▁필살 -2446
▁나타나 -2447
루스 -2448
▁디스 -2449
▁점점 -2450
▁폼 -2451
▁아무리 -2452
▁도착 -2453
▁다소 -2454
▁중학교 -2455
▁털 -2456
op -2457
▁굳이 -2458
▁ㅈㅏㅂ -2459
▁맞추 -2460
▁로마 -2461
▁재미 -2462
▁성향 -2463
▁이끌 -2464
▁닥 -2465
▁타자 -2466
▁바라 -2467
▁ㄱㅓㄹㄹㅗ -2468
▁교수 -2469
▁닉 -2470
▁실점 -2471
ㄸㅡ -2472
▁SP -2473
ㄹㅓㄴ -2474
▁한계 -2475
▁접근 -2476
▁ㅅㅐㅇㄱㅣㄴ -2477
▁무조건 -2478
▁톤 -2479
st -2480
▁의사 -2481
▁영혼 -2482
▁국회 -2483
▁무한 -2484
▁대결 -2485
▁잭 -2486
▁비중 -2487
시마 -2488
운데 -2489
▁죠 -2490
▁사무 -2491
▁보조 -2492
▁부하 -2493
ation -2494
ㅃㅡㄴ -2495
▁댄 -2496
▁ㅇㅣㄹㅇㅡ -2497
▁함정 -2498
tt -2499
▁복수 -2500
▁암살 -2501
▁장르 -2502
▁정확히 -2503
ra -2504
▁정의 -2505
▁광고 -2506
▁엠 -2507
▁인터넷 -2508
▁아내 -2509
▁평소 -2510
▁마르 -2511
▁의하 -2512
ia -2513
ack -2514
▁마력 -2515
▁투표 -2516
▁1000 -2517
▁채널 -2518
무라 -2519
▁숲 -2520
▁다루 -2521
▁늦 -2522
▁범죄 -2523
▁확장 -2524
▁도쿄 -2525
▁혁 -2526
▁운용 -2527
▁봉인 -2528
▁사령 -2529
나이 -2530
▁ㅌㅏㄴ -2531
▁기념 -2532
ㅅㅜ -2533
▁공략 -2534
▁이곳 -2535
▁ㅂㅏㄺㅎㅕㅆ -2536
▁와중 -2537
▁깔 -2538
▁합류 -2539
▁ㅂㅕㄴ -2540
▁and -2541
▁초등 -2542
▁검사 -2543
▁몇몇 -2544
▁장치 -2545
▁금지 -2546
▁150 -2547
▁이적 -2548
▁펼치 -2549
▁빵 -2550
▁소련 -2551
▁종종 -2552
▁다운 -2553
▁쓸 -2554
▁65 -2555
▁앙 -2556
▁낫 -2557
▁오리지 -2558
▁가치 -2559
로그 -2560
▁전화 -2561
▁소유 -2562
▁도입 -2563
▁아웃 -2564
▁ㄴㅐㅆ -2565
▁보컬 -2566
시브 -2567
▁유튜브 -2568
▁올라가 -2569
▁살아 -2570
▁네이 -2571
ㅇㅎㅏㄹ -2572
▁플래 -2573
▁지배 -2574
▁시청자 -2575
▁비하 -2576
▁코드 -2577
▁특유 -2578
▁가운데 -2579
▁ㅂㅓㄹㅇㅓ -2580
▁브레이 -2581
▁도망 -2582
▁VS -2583
▁정당 -2584
▁ㄱㅣㄹ -2585
▁클럽 -2586
▁사쿠 -2587
▁충분히 -2588
▁즐 -2589
oc -2590
▁근데 -2591
▁미드 -2592
▁화염 -2593
▁ㅇㅏㅍ -2594
▁실수 -2595
▁프로젝트 -2596
▁소년 -2597
▁뉴스 -2598
▁ㅁㅏㅈㅊㅝ -2599
▁개조 -2600
▁본격 -2601
▁고대 -2602
▁시민 -2603
▁ㄷㅏㄹㄹㅏ -2604
▁시나 -2605
▁투입 -2606
뜨리 -2607
▁대로 -2608
▁책임 -2609
ie -2610
▁전원 -2611
▁기지 -2612
▁저격 -2613
▁ㅇㅣㄴㅎㅏㄴ -2614
ill -2615
▁종교 -2616
ㅈㅜㄴ -2617
▁무사 -2618
▁스포츠 -2619
ㄹㅣ -2620
▁형제 -2621
▁괴물 -2622
▁로스 -2623
▁%, -2624
▁ㄴㅡㄴㄱㅏ -2625
▁행사 -2626
▁고양이 -2627
▁에이 -2628
▁수많 -2629
▁인상 -2630
▁앤 -2631
▁얼마나 -2632
라이더 -2633
▁뻔 -2634
▁KBS -2635
▁희생 -2636
비아 -2637
▁이탈리아 -2638
▁52 -2639
▁릴 -2640
▁II -2641
로드 -2642
ㄴㅐㄹ -2643
▁2005 -2644
▁밴드 -2645
▁발음 -2646
▁상징 -2647
art -2648
▁카메 -2649
▁터미 -2650
▁대중 -2651
▁종합 -2652
▁요청 -2653
▁셀 -2654
▁잇 -2655
▁내려 -2656
일러 -2657
▁원정 -2658
▁벗 -2659
▁64 -2660
▁넥 -2661
▁사태 -2662
▁클래스 -2663
▁구역 -2664
▁ㅍㅓ -2665
▁들어오 -2666
▁숫 -2667
▁대형 -2668
▁올림 -2669
텐츠 -2670
▁군단 -2671
▁엄청나 -2672
▁외모 -2673
▁흉 -2674
▁스크 -2675
▁가리 -2676
ㄱㅜㄴ -2677
▁패러 -2678
ㄷㅡ -2679
▁대비 -2680
▁ㄲㅓ -2681
▁방패 -2682
▁이사 -2683
▁조정 -2684
▁ㅎㅣㅁㄷㅡㄴ -2685
▁서브 -2686
▁ㄱㅏㅇㅎㅐ -2687
▁일본어 -2688
▁불명 -2689
니티 -2690
▁인원 -2691
▁생물 -2692
▁최후 -2693
▁서술 -2694
▁컨셉 -2695
▁ㄴㅏㄹㄹㅕ -2696
▁형식 -2697
▁위협 -2698
▁관통 -2699
▁움직이 -2700
▁자료 -2701
▁ㅁㅝㄴㄱㅏ -2702
▁광주 -2703
ㅏㄹㄹㅕ -2704
ㄲㅕ -2705
▁그저 -2706
▁약점 -2707
▁가깝 -2708
▁비고 -2709
ri -2710
▁몹 -2711
▁2004 -2712
▁You -2713
▁ㅂㅐ -2714
▁49 -2715
▁통신 -2716
ab -2717
런스 -2718
RA -2719
uby -2720
▁정책 -2721
▁내리 -2722
▁행성 -2723
시스 -2724
▁액션 -2725
▁상자 -2726
▁모험 -2727
▁오리지널 -2728
▁AP -2729
▁달러 -2730
▁ㄷㅏㄹㄹㅕ -2731
ㄹㅓㄹ -2732
▁트랙 -2733
▁56 -2734
▁ST -2735
▁전술 -2736
▁쿨타임 -2737
▁장난 -2738
ㄹㅜ -2739
ㄲㅟ -2740
est -2741
▁쌓 -2742
ㄴㅐㄴㄷㅏ -2743
래프트 -2744
▁박사 -2745
▁ㅆㅡㄴㄷㅏ -2746
▁사라지 -2747
▁젊 -2748
▁400 -2749
로우 -2750
▁인형 -2751
▁리어 -2752
▁거부 -2753
▁미리 -2754
▁등록 -2755
▁MBC -2756
▁명중 -2757
▁간단 -2758
▁dd -2759
▁매일 -2760
▁빠지 -2761
▁ruby -2762
▁회장 -2763
▁의도 -2764
▁반복 -2765
▁ㅅㅜㅁ -2766
▁이치 -2767
▁ㅁㅗㅅㅎㅏㄴㄷㅏ -2768
▁In -2769
▁공동 -2770
▁개월 -2771
▁눈물 -2772
▁영입 -2773
▁마크 -2774
▁구단 -2775
ㄷㅇㅏ -2776
AL -2777
▁대응 -2778
▁해석 -2779
▁개봉 -2780
▁열차 -2781
▁오토 -2782
▁언론 -2783
▁의지 -2784
ㅇㅡㄹ -2785
▁지명 -2786
▁85 -2787
▁ㅉㅣ -2788
▁지적 -2789
▁코어 -2790
▁튀 -2791
▁주력 -2792
▁원거리 -2793
▁한국어 -2794
스케 -2795
▁ㅁㅏㄴㄷㅡㄹ -2796
▁오랜 -2797
▁찌 -2798
▁언어 -2799
▁53 -2800
▁ㄴㅏㅆ -2801
▁데이터 -2802
▁더블 -2803
▁설계 -2804
▁54 -2805
자리 -2806
▁웬 -2807
▁윌 -2808
▁탯 -2809
▁흡수 -2810
▁193 -2811
▁디지 -2812
▁선언 -2813
▁혐 -2814
▁카즈 -2815
▁자동차 -2816
▁사상 -2817
▁소식 -2818
▁목숨 -2819
▁택 -2820
리트 -2821
▁2002 -2822
▁ㄱㅘㄴㅎㅏㄴ -2823
▁차례 -2824
▁텔 -2825
▁모티브 -2826
▁나쁘 -2827
▁여름 -2828
▁카페 -2829
퓨터 -2830
▁바닥 -2831
▁혜 -2832
▁방해 -2833
▁역전 -2834
▁피하 -2835
▁승부 -2836
▁거짓 -2837
▁연계 -2838
ㅎㅣㄴㄷㅏ -2839
▁필살기 -2840
▁닮 -2841
ㅊㅣㄹ -2842
▁살아남 -2843
▁대단 -2844
▁숫자 -2845
▁그때 -2846
▁핑 -2847
▁체육 -2848
▁ㄲㅐ -2849
▁ㄴㅡㄹㅇㅓ -2850
▁미스 -2851
▁기자 -2852
▁완료 -2853
▁엄마 -2854
▁저주 -2855
▁사과 -2856
▁황금 -2857
▁텍 -2858
▁소울 -2859
▁dddd -2860
▁dddddd -2861
▁쿄 -2862
오스 -2863
▁Sh -2864
▁진입 -2865
▁PC -2866
▁이르 -2867
ㄴㅣㄹ -2868
▁수리 -2869
▁상대방 -2870
ttp -2871
▁긴 -2872
▁수호 -2873
▁불과 -2874
▁산업 -2875
▁착용 -2876
▁생성 -2877
▁앉 -2878
▁유우 -2879
▁http -2880
▁ㄸㅐ -2881
▁공화 -2882
▁해제 -2883
▁컴퓨터 -2884
▁ff -2885
▁장기 -2886
▁테마 -2887
▁가정 -2888
▁터미널 -2889
▁적절 -2890
동생 -2891
▁덩 -2892
▁던지 -2893
▁모리 -2894
▁조각 -2895
▁드라이 -2896
ㅂㅊㅕ -2897
▁실시 -2898
니스 -2899
▁필수 -2900
▁컷 -2901
▁편성 -2902
▁단순히 -2903
▁ㅆㅓㅆ -2904
▁행적 -2905
▁선정 -2906
▁비트 -2907
▁에이스 -2908
▁독자 -2909
up -2910
▁카운터 -2911
▁딱히 -2912
▁질문 -2913
▁특기 -2914
▁뮤직 -2915
▁꼴 -2916
ㅡㄹㄹㅕ -2917
▁드립 -2918
▁기점 -2919
▁날개 -2920
▁떠나 -2921
▁유도 -2922
▁패시브 -2923
▁표정 -2924
▁감안 -2925
▁ㅁㅗㅅㅎㅐ -2926
▁ㅇㅜㅁ -2927
▁선물 -2928
▁전환 -2929
▁페르 -2930
▁훌 -2931
▁꾸준 -2932
▁습격 -2933
▁확실히 -2934
▁의심 -2935
▁소비 -2936
▁59 -2937
▁횟 -2938
▁왼쪽 -2939
▁퓨 -2940
▁안전 -2941
▁i -2942
▁무력 -2943
▁솔로 -2944
▁집단 -2945
▁MP -2946
▁인류 -2947
▁개선 -2948
▁박스 -2949
▁저지 -2950
▁함대 -2951
▁위원회 -2952
▁제도 -2953
▁연주 -2954
VE -2955
▁높이 -2956
▁스킨 -2957
▁경력 -2958
▁맺 -2959
▁값 -2960
▁당장 -2961
▁넘어가 -2962
▁회전 -2963
▁ㅇㅡㄹㅈㅣ -2964
▁덜 -2965
▁코치 -2966
▁ㅋㅜ -2967
▁쥐 -2968
▁구축 -2969
▁마츠 -2970
▁Re -2971
▁ㄱㅜㄴ -2972
▁ㅍㅕㄹ -2973
▁설립 -2974
▁잠깐 -2975
▁가스 -2976
▁돌파 -2977
▁Sp -2978
ㅡㄹㄹㅓ -2979
▁행복 -2980
▁사장 -2981
▁확보 -2982
▁바르 -2983
▁랍 -2984
▁올림픽 -2985
▁지옥 -2986
▁심하 -2987
▁스마 -2988
▁테크 -2989
▁58 -2990
▁보다 -2991
▁블루 -2992
ㅅㅣㄴ -2993
레이션 -2994
▁시나리오 -2995
▁시내 -2996
▁안드 -2997
▁일종 -2998
▁띄 -2999
▁전통 -3000
▁기어 -3001
▁횟수 -3002
▁듀얼 -3003
▁장군 -3004
▁120 -3005
▁가슴 -3006
▁라디오 -3007
▁거두 -3008
▁공항 -3009
ㅊㅣㄴㄷㅏ -3010
▁통과 -3011
AT -3012
▁하위 -3013
▁공사 -3014
OR -3015
▁희망 -3016
모리 -3017
▁문명 -3018
▁57 -3019
ang -3020
▁re -3021
▁해금 -3022
▁제압 -3023
▁초대 -3024
ate -3025
▁체제 -3026
▁멀티 -3027
▁적극 -3028
▁수사 -3029
▁촉 -3030
▁비디오 -3031
▁편집 -3032
▁상처 -3033
▁버튼 -3034
▁셰 -3035
▁펀 -3036
▁66 -3037
▁95 -3038
▁수원 -3039
드리 -3040
▁딜러 -3041
▁인지 -3042
▁롱 -3043
▁방문 -3044
▁위주 -3045
▁2003 -3046
▁패스 -3047
ㄱㅔㄴ -3048
ㄷㅜ -3049
▁케이스 -3050
▁리스 -3051
▁마침 -3052
트롤 -3053
▁댓 -3054
▁ㄷㅚㅁ -3055
▁작성 -3056
▁이어지 -3057
연히 -3058
▁의문 -3059
▁처치 -3060
ㄹㅝ -3061
ard -3062
▁ㅃㅐ -3063
▁콩 -3064
▁현장 -3065
▁대답 -3066
▁동맹 -3067
▁장전 -3068
▁뱀 -3069
▁분리 -3070
▁유키 -3071
▁진영 -3072
▁전장 -3073
▁태양 -3074
IA -3075
▁마시 -3076
▁코너 -3077
▁어찌 -3078
▁고통 -3079
▁투자 -3080
▁뚫 -3081
▁한자 -3082
▁예선 -3083
▁갱 -3084
▁태도 -3085
▁크로스 -3086
▁대놓 -3087
▁계기 -3088
ㅉㅐ -3089
▁노동 -3090
▁핸 -3091
▁지니 -3092
▁스페인 -3093
▁삼국 -3094
▁ㄷㅏㄴ -3095
르크 -3096
▁마왕 -3097
▁육군 -3098
▁고유 -3099
▁ㅅㅣㄴ -3100
▁랩 -3101
▁비난 -3102
▁최악 -3103
ㅇㅜ -3104
▁료 -3105
PS -3106
▁Bl -3107
▁스위 -3108
ess -3109
▁BG -3110
▁후속 -3111
▁에스 -3112
▁ㅇㅡㄹㄲㅏ -3113
ant -3114
▁레이저 -3115
▁스펙 -3116
▁be -3117
▁공부 -3118
▁110 -3119
▁게시 -3120
▁가까 -3121
▁개최 -3122
▁제안 -3123
▁ㅎㅟ -3124
ㄷㅏㄴ -3125
▁나카 -3126
▁제로 -3127
▁빌리 -3128
▁시체 -3129
▁평화 -3130
▁아머 -3131
▁회의 -3132
▁오른쪽 -3133
▁게이지 -3134
▁성인 -3135
▁ㅇㅗㄻ -3136
▁그라 -3137
▁가르 -3138
IC -3139
▁배신 -3140
▁극장판 -3141
▁겨우 -3142
▁조준 -3143
▁여부 -3144
▁기획 -3145
▁on -3146
▁룰 -3147
▁탑재 -3148
ㄲㅝ -3149
ell -3150
▁궤 -3151
▁SS -3152
▁용병 -3153
▁매치 -3154
▁컨트롤 -3155
▁궁극 -3156
▁젤 -3157
▁or -3158
▁373 -3159
▁ㅈㅓㄴㅎㅐ -3160
▁락 -3161
▁카메라 -3162
▁청소 -3163
ct -3164
▁62 -3165
▁봄 -3166
▁엉 -3167
▁베이스 -3168
▁멀리 -3169
머리 -3170
▁보급 -3171
▁견제 -3172
ue -3173
▁ㅈㅡㄹ -3174
▁타이밍 -3175
▁ㅎㅑㅇㅎㅐ -3176
ine -3177
▁점령 -3178
▁애매 -3179
▁충전 -3180
▁체인 -3181
▁관광 -3182
▁순서 -3183
▁댄스 -3184
▁온라인 -3185
▁스피드 -3186
마스 -3187
▁ㄴㅏㄴㄷㅏ -3188
▁진실 -3189
▁뿌 -3190
▁에어 -3191
▁ㅇㅗㄹ -3192
ㄴㅓ -3193
▁정령 -3194
▁게이 -3195
▁은퇴 -3196
▁보도 -3197
▁끝내 -3198
▁최대한 -3199
▁한화 -3200
▁직원 -3201
▁그레이 -3202
의원 -3203
▁남편 -3204
▁NP -3205
라리 -3206
▁날리 -3207
▁레전 -3208
▁모션 -3209
▁Al -3210
▁기분 -3211
▁후반부 -3212
▁튜 -3213
▁하트 -3214
▁수단 -3215
▁오스 -3216
▁세계관 -3217
래도 -3218
▁아무래도 -3219
ist -3220
▁트레 -3221
▁격투 -3222
▁터지 -3223
▁76 -3224
▁교회 -3225
▁민주당 -3226
▁멸망 -3227
▁밸런스 -3228
▁미치 -3229
▁트위 -3230
▁얼음 -3231
▁쓰러 -3232
▁스코어 -3233
무원 -3234
ove -3235
▁갤러리 -3236
▁파이터 -3237
▁ㅅㅗㄱ -3238
▁알렉 -3239
▁스탠 -3240
▁허용 -3241
▁Th -3242
ore -3243
▁미나 -3244
▁오오 -3245
▁보수 -3246
▁우수 -3247
▁여왕 -3248
▁빔 -3249
▁스프 -3250
▁약속 -3251
▁77 -3252
▁울트라 -3253
▁유용 -3254
▁대원 -3255
▁61 -3256
▁등등 -3257
▁ㄴㅓ -3258
▁춤 -3259
▁융 -3260
oo -3261
▁로켓 -3262
▁부담 -3263
▁.... -3264
▁토스 -3265
▁헤드 -3266
▁무게 -3267
▁{ -3268
아리 -3269
▁판타 -3270
▁생일 -3271
▁고급 -3272
▁돌격 -3273
ㄶㅇㅏ -3274
▁본선 -3275
▁가면라이더 -3276
▁뱅 -3277
▁샌 -3278
▁규정 -3279
▁쫓 -3280
▁알리 -3281
▁지식 -3282
▁72 -3283
▁커뮤 -3284
▁모자 -3285
피스 -3286
▁아프리카 -3287
▁벌이 -3288
▁88 -3289
▁ㄱㅕ -3290
▁기절 -3291
▁병기 -3292
▁렉 -3293
▁랜덤 -3294
▁차별 -3295
▁중단 -3296
▁com -3297
▁그리스 -3298
▁삶 -3299
ㅈㅣㄱ -3300
▁분야 -3301
▁자이 -3302
▁장애 -3303
▁2001 -3304
▁스케 -3305
로이드 -3306
▁ㄱㅓㄹㄹㅕ -3307
▁패러디 -3308
▁경기도 -3309
▁ㄴㅐㄹ -3310
아다니 -3311
▁끼리 -3312
▁돌아오 -3313
▁입수 -3314
▁트레이 -3315
▁} -3316
▁누르 -3317
▁갓 -3318
▁측면 -3319
▁ffff -3320
▁지점 -3321
ㅇㅜㅁ -3322
심히 -3323
▁넷 -3324
▁셔 -3325
▁나누 -3326
▁마녀 -3327
▁ㄹㅔ -3328
ive -3329
▁주목 -3330
바이 -3331
▁도서 -3332
▁언니 -3333
▁ㅎㅔ -3334
▁회수 -3335
▁유래 -3336
▁발휘 -3337
▁포르 -3338
▁카나 -3339
OS -3340
ort -3341
▁떼 -3342
▁공통 -3343
▁커버 -3344
▁웨이 -3345
▁닥터 -3346
▁외부 -3347
▁미야 -3348
▁자살 -3349
ong -3350
▁ffffff -3351
아하 -3352
▁SBS -3353
▁국적 -3354
▁오프닝 -3355
▁인생 -3356
▁삽 -3357
▁후지 -3358
▁도구 -3359
▁취소 -3360
▁승강 -3361
▁개편 -3362
▁교환 -3363
▁트위터 -3364
▁제시 -3365
▁공원 -3366
AM -3367
▁스페셜 -3368
▁아사 -3369
ers -3370
▁ㅅㅡㄹ -3371
▁피해자 -3372
▁군주 -3373
▁ㄴㅏㄹㅇㅏ -3374
▁경계 -3375
워드 -3376
크래프트 -3377
아보 -3378
오리 -3379
▁아라 -3380
▁릭 -3381
▁살해 -3382
아들 -3383
▁페이스 -3384
▁서포 -3385
▁PS -3386
▁ㅈㅓㅇㅎㅐ -3387
▁민족 -3388
▁장수 -3389
AS -3390
▁윙 -3391
▁아침 -3392
▁킥 -3393
▁공장 -3394
▁98 -3395
▁출생 -3396
▁계산 -3397
▁핵심 -3398
▁부진 -3399
▁재판 -3400
하라 -3401
▁구입 -3402
▁브랜드 -3403
▁진정 -3404
▁어차 -3405
▁메탈 -3406
유키 -3407
티컬 -3408
니어 -3409
▁붕괴 -3410
▁용도 -3411
▁대놓고 -3412
▁기다리 -3413
▁191 -3414
▁어차피 -3415
▁사단 -3416
▁이거 -3417
ED -3418
▁단독 -3419
▁젠 -3420
▁당선 -3421
ip -3422
스티 -3423
터리 -3424
▁제기 -3425
▁ㄷㅜㄴ -3426
▁겨울 -3427
ㅅㅔ -3428
▁바탕 -3429
▁탄생 -3430
▁교사 -3431
▁오후 -3432
▁작사 -3433
▁갑옷 -3434
▁잊 -3435
▁어린 -3436
▁주연 -3437
ㅇㅜㄴㄷㅏ -3438
다수 -3439
▁아야 -3440
▁아시아 -3441
▁페이지 -3442
▁펠 -3443
▁영역 -3444
▁온갖 -3445
▁이성 -3446
ain -3447
▁CD -3448
▁소수 -3449
▁함선 -3450
▁출발 -3451
▁은근 -3452
▁좋아하 -3453
▁살짝 -3454
▁ㅇㅑㄱㅎㅏㄴ -3455
▁은행 -3456
ㄱㅣㄴㄷㅏ -3457
▁요원 -3458
▁분석 -3459
어리 -3460
▁600 -3461
▁습득 -3462
즈키 -3463
▁꾸준히 -3464
if -3465
▁스파이 -3466
▁하수 -3467
피아 -3468
ㅂㅗㄹ -3469
ㅎㅏ -3470
▁화살 -3471
ㅉㅓㄹ -3472
▁틈 -3473
▁ㅆㅗ -3474
▁재생 -3475
▁ㄲㅡㅌㄴㅏㄴ -3476
▁납치 -3477
▁엑스 -3478
▁데리 -3479
▁ㅅㅜㅁㄱㅕ -3480
▁순수 -3481
▁타워 -3482
▁선배 -3483
▁대공 -3484
▁꺼 -3485
ee -3486
▁거절 -3487
▁홍보 -3488
▁| -3489
▁예술 -3490
리티 -3491
▁유형 -3492
▁업무 -3493
▁자식 -3494
▁자격 -3495
▁섭 -3496
▁이스 -3497
▁ㅂㅔ -3498
▁ㅂㅜㅌㅇㅕ -3499
▁좁 -3500
▁1990 -3501
EN -3502
▁귀족 -3503
▁파악 -3504
▁증거 -3505
▁보정 -3506
▁따지 -3507
▁ㅌㅟ -3508
가락 -3509
▁협력 -3510
디션 -3511
▁경유 -3512
▁ㅇㅜㅁㅈㅣㄱ -3513
▁레전드 -3514
▁프라 -3515
▁ㄲㅗ -3516
▁군인 -3517
▁훌륭 -3518
▁베르 -3519
▁MV -3520
▁신화 -3521
▁ㅍㅏ -3522
▁테러 -3523
▁폭풍 -3524
▁사카 -3525
▁ㅂㅏㄷㅇㅏ -3526
▁63 -3527
▁플라 -3528
▁흔히 -3529
▁고민 -3530
▁ㅇㅕㄹㄹㅣㄴ -3531
▁댓글 -3532
▁영원 -3533
▁ㅈㅏㄶㅇㅏ -3534
▁응원 -3535
▁미소 -3536
▁적당 -3537
▁종점 -3538
▁퀄 -3539
▁카르 -3540
▁보물 -3541
▁쓰레 -3542
▁출처 -3543
▁열심히 -3544
▁마인 -3545
세이 -3546
▁68 -3547
▁소드 -3548
▁눈치 -3549
▁챠 -3550
▁ㅂㅗㄴㄷㅏ -3551
▁탑승 -3552
▁러브 -3553
▁채용 -3554
▁ㄷㅏㅇㅎㅏㄴㄷㅏ -3555
▁내내 -3556
▁틱 -3557
▁당황 -3558
▁네이버 -3559
▁장관 -3560
▁왕자 -3561
▁ㅁㅏㅈ -3562
▁무적 -3563
▁스트라이 -3564
▁주도 -3565
▁만족 -3566
▁거래 -3567
▁불안 -3568
▁부인 -3569
ith -3570
▁본명 -3571
▁컨텐츠 -3572
▁비록 -3573
ly -3574
▁정말로 -3575
▁ㅂㅓㅅ -3576
▁71 -3577
ㄹㅣㅁ -3578
ld -3579
▁800 -3580
▁혼란 -3581
▁정류 -3582
▁버티 -3583
▁대다수 -3584
▁감사 -3585
ind -3586
▁중계 -3587
▁문제점 -3588
▁우려 -3589
▁계급 -3590
▁실질 -3591
레인 -3592
▁늑 -3593
▁운전 -3594
▁커뮤니티 -3595
▁연도 -3596
▁ㄱㅓㄴㅈㅣ -3597
▁운명 -3598
▁지급 -3599
▁라이벌 -3600
▁74 -3601
▁지내 -3602
▁균 -3603
▁AC -3604
▁ㄷㅟ -3605
▁드리 -3606
▁반격 -3607
OL -3608
▁멋 -3609
▁두산 -3610
▁초월 -3611
▁치명타 -3612
▁오류 -3613
▁옹 -3614
▁트라 -3615
▁67 -3616
▁빼앗 -3617
▁짝 -3618
▁미군 -3619
▁수입 -3620
▁파이어 -3621
▁랜드 -3622
▁전공 -3623
▁전함 -3624
▁연예 -3625
▁김성 -3626
▁줄어들 -3627
▁돌진 -3628
▁오해 -3629
▁카라 -3630
▁ㅌㅓㄴ -3631
▁기기 -3632
▁아트 -3633
▁흘 -3634
▁ㅁㅗㄴ -3635
▁메타 -3636
▁파라 -3637
▁라스 -3638
ㅇㅣㄴㅈㅣ -3639
ew -3640
▁가까이 -3641
이터 -3642
▁모으 -3643
▁공군 -3644
▁가져 -3645
ㄱㅎㅣㄴ -3646
▁73 -3647
▁체계 -3648
▁코믹스 -3649
다지 -3650
▁피아 -3651
ry -3652
▁TH -3653
▁반영 -3654
▁여신 -3655
▁밟 -3656
▁통일 -3657
▁돌리 -3658
▁ㅂㅣㄴ -3659
▁거주 -3660
▁단위 -3661
▁불꽃 -3662
▁캔 -3663
▁충돌 -3664
▁즉시 -3665
▁안습 -3666
▁NC -3667
▁문자 -3668
▁아오 -3669
ast -3670
▁96 -3671
▁깎 -3672
▁학과 -3673
▁메가 -3674
▁홍콩 -3675
▁그림자 -3676
IT -3677
▁AT -3678
▁크리티컬 -3679
▁화장 -3680
▁주년 -3681
▁편의 -3682
▁낳 -3683
▁슬롯 -3684
▁닿 -3685
▁전투력 -3686
카와 -3687
▁레오 -3688
▁설득 -3689
▁아나 -3690
▁크루 -3691
▁국회의원 -3692
나다 -3693
▁비율 -3694
▁아리 -3695
ㄹㅓㄴㅈㅣ -3696
▁me -3697
▁짜리 -3698
▁생명력 -3699
▁시야 -3700
ㄹㅐㅆ -3701
LC -3702
가와 -3703
ㄱㅣ -3704
보이 -3705
▁ㄷㅚㅂㄴㅣ -3706
츠키 -3707
▁상향 -3708
아먹 -3709
▁떡밥 -3710
EC -3711
▁해방 -3712
바로 -3713
▁다행히 -3714
▁81 -3715
ㅅㅟ -3716
ㅂㅘ -3717
▁제조 -3718
으키 -3719
▁CP -3720
▁소프트 -3721
▁정지 -3722
▁토모 -3723
▁격파 -3724
▁지시 -3725
▁공화국 -3726
▁그다지 -3727
▁판타지 -3728
▁약하 -3729
▁신뢰 -3730
▁파이널 -3731
▁ㄱㅐㄹ -3732
▁변하 -3733
FA -3734
▁암흑 -3735
사카 -3736
▁닌자 -3737
▁관객 -3738
▁심장 -3739
▁사전 -3740
▁일부러 -3741
▁192 -3742
▁1999 -3743
▁사운드 -3744
▁등판 -3745
▁무난 -3746
▁유비 -3747
▁오로 -3748
▁가입 -3749
▁수업 -3750
▁j -3751
▁신고 -3752
▁연사 -3753
▁늑대 -3754
▁78 -3755
▁동네 -3756
▁NPC -3757
▁별개 -3758
▁그만큼 -3759
▁창작 -3760
end -3761
▁91 -3762
▁84 -3763
▁ㅍㅐ -3764
▁맘 -3765
▁본부 -3766
▁엘프 -3767
▁디아 -3768
▁니시 -3769
▁마술 -3770
▁ㅁㅣㄹㄹㅕ -3771
▁찰 -3772
▁제주 -3773
▁아티 -3774
▁an -3775
▁써 -3776
▁지하철 -3777
▁건강 -3778
ㄴㅕㅆ -3779
ㅂㅅㅣ -3780
▁ㅇㅓㄴ -3781
▁고기 -3782
▁실드 -3783
▁막장 -3784
▁재능 -3785
▁룡 -3786
▁근무 -3787
▁장식 -3788
고기 -3789
▁ㄷㅗㄹㄹㅕ -3790
▁업체 -3791
▁화이트 -3792
▁팝 -3793
▁집안 -3794
▁1998 -3795
▁경험치 -3796
▁ㅅㅐㅇㄱㅕ -3797
▁반란 -3798
식간 -3799
▁지형 -3800
▁추적 -3801
▁수학 -3802
▁곰 -3803
▁드디어 -3804
▁전적 -3805
▁압박 -3806
▁ㄷㅡㄴㅈㅣ -3807
▁입학 -3808
▁순식간 -3809
▁리버 -3810
▁상품 -3811
▁An -3812
▁ㄴㅓㄴ -3813
▁천사 -3814
▁저런 -3815
▁브리 -3816
▁신세 -3817
▁기원 -3818
▁ㄴㅐㄴㄷㅏ -3819
▁낚 -3820
▁게이트 -3821
▁노멀 -3822
▁it -3823
ㄹㅡㅁㄷㅏ -3824
▁예고 -3825
▁경향 -3826
▁대만 -3827
▁증명 -3828
▁쿼 -3829
▁불만 -3830
▁블레이드 -3831
▁사쿠라 -3832
▁오픈 -3833
▁ㄸㅐㄴ -3834
▁형성 -3835
▁가이 -3836
▁스티 -3837
▁신청 -3838
▁낭 -3839
▁전방 -3840
▁테이 -3841
▁남기 -3842
▁여동생 -3843
▁ㅈㅜㄱㅇㅕ -3844
▁콜라 -3845
▁97 -3846
▁쿠키 -3847
▁ㄱㅟ -3848
▁늘어나 -3849
▁내놓 -3850
▁통하 -3851
광역 -3852
▁매력 -3853
ㅍㅣ -3854
▁사령관 -3855
▁의상 -3856
▁Ar -3857
▁짱 -3858
▁유희 -3859
▁가득 -3860
▁마도 -3861
▁지나가 -3862
▁소문 -3863
ㄹㅗㄴ -3864
▁감염 -3865
▁ㅌㅗㅇㅎㅏㄴ -3866
▁절반 -3867
▁쓰레기 -3868
▁팅 -3869
▁82 -3870
▁나루 -3871
▁69 -3872
▁나서 -3873
▁타점 -3874
▁라이더 -3875
▁이마 -3876
▁룬 -3877
▁마이크 -3878
▁묵 -3879
▁ㄱㅏㅈㅊ -3880
▁단일 -3881
▁He -3882
▁섹 -3883
▁정권 -3884
▁묶 -3885
아버지 -3886
▁외국인 -3887
▁으 -3888
▁클로 -3889
▁어택 -3890
▁주먹 -3891
▁엔터 -3892
▁사토 -3893
▁연상 -3894
▁코인 -3895
▁복장 -3896
▁여론 -3897
▁메카 -3898
▁회차 -3899
▁ㅇㅑㄱ -3900
▁별도 -3901
돼지 -3902
광역시 -3903
▁령 -3904
▁강조 -3905
▁250 -3906
▁!! -3907
▁이론 -3908
▁이승 -3909
▁선호 -3910
▁덴 -3911
트로 -3912
▁ㅇㅝㄴ -3913
▁키스 -3914
▁소멸 -3915
▁MAX -3916
▁오빠 -3917
지컬 -3918
▁ㅁㅏㄴㄴㅏㄴ -3919
▁180 -3920
▁근거 -3921
▁실행 -3922
▁가로 -3923
▁86 -3924
▁스톤 -3925
▁for -3926
▁전선 -3927
▁바보 -3928
▁주전 -3929
▁공기 -3930
▁is -3931
▁최상 -3932
▁ㅃㅏㄹ -3933
▁아메 -3934
▁SN -3935
▁한때 -3936
▁190 -3937
▁부품 -3938
▁출현 -3939
▁대륙 -3940
▁일으키 -3941
▁작용 -3942
▁요정 -3943
▁간격 -3944
▁반지 -3945
▁평타 -3946
▁화려 -3947
▁호환 -3948
▁스토 -3949
▁ㅉㅗ -3950
ㅁㅏㅇ -3951
▁아가 -3952
▁헌터 -3953
▁공작 -3954
파이어 -3955
▁ㅎㅏㅂㅊㅕ -3956
▁ㅂㅜㄹㄹㅓㅆ -3957
▁해설 -3958
▁울산 -3959
▁ㅇㅣㅂ -3960
▁쳐 -3961
▁핀 -3962
▁출장 -3963
▁뉴욕 -3964
모로 -3965
▁전형 -3966
▁퀸 -3967
▁BGM -3968
▁총기 -3969
▁ㅂㅏㄴ -3970
▁경상 -3971
▁ㅇㅗㄹㄹㅕㅆ -3972
▁토리 -3973
▁때리 -3974
▁ㄷㅓㄴㅈㅕ -3975
▁대하 -3976
ath -3977
▁사자 -3978
둥이 -3979
더스 -3980
▁무효 -3981
▁마스 -3982
▁ㅎㅏㄹㅈㅣ -3983
서트 -3984
타로 -3985
▁아무것 -3986
▁따위 -3987
▁스카이 -3988
RE -3989
av -3990
▁탱크 -3991
ㅎㅣㄹ -3992
▁프레임 -3993
▁권력 -3994
레나 -3995
▁시드 -3996
▁Te -3997
▁연애 -3998
▁주위 -3999
▁명예 -4000
50 -4001
▁De -4002
▁추격 -4003
▁여러모로 -4004
▁1997 -4005
ㄹㅡ -4006
▁ㄷㅏㅇㅎㅏㄹ -4007
▁요새 -4008
▁ㄲㅣ -4009
▁ㄴㅗㅎ -4010
▁조용 -4011
▁권총 -4012
▁모바 -4013
▁구도 -4014
▁동기 -4015
▁키리 -4016
▁폭격 -4017
▁신규 -4018
▁몰래 -4019
▁벌어지 -4020
▁블록 -4021
▁하수인 -4022
▁후쿠 -4023
ㅊㅣ -4024
▁경영 -4025
▁테스트 -4026
▁ㄴㅘ -4027
▁이슬 -4028
▁영업 -4029
듀서 -4030
▁프로듀서 -4031
se -4032
▁대우 -4033
드라 -4034
▁경비 -4035
▁지대 -4036
타인 -4037
▁우스 -4038
▁추락 -4039
▁심리 -4040
히로 -4041
▁MS -4042
▁소총 -4043
웨이 -4044
▁범인 -4045
▁공유 -4046
▁수요 -4047
▁심판 -4048
▁탄약 -4049
어스 -4050
▁전대 -4051
▁폭주 -4052
▁클라 -4053
▁일상 -4054
one -4055
나가 -4056
▁그래픽 -4057
▁아무런 -4058
▁계승 -4059
▁아크 -4060
▁고교 -4061
▁외교 -4062
▁메이저 -4063
▁환상 -4064
남도 -4065
▁사양 -4066
▁Be -4067
▁꼽 -4068
▁제이 -4069
▁마리오 -4070
▁북미 -4071
▁갈등 -4072
▁변호 -4073
▁브라질 -4074
▁상점 -4075
▁열리 -4076
▁보석 -4077
og -4078
사키 -4079
▁렙 -4080
▁83 -4081
▁거짓말 -4082
▁입력 -4083
▁고전 -4084
▁요괴 -4085
▁변형 -4086
▁공학 -4087
▁ㅅㅏㄹㄹㅕ -4088
▁탁 -4089
▁터치 -4090
ㅇㅎㅐㅆ -4091
▁언제나 -4092
▁다이아 -4093
▁편하 -4094
▁학살 -4095
▁시각 -4096
▁통제 -4097
▁제법 -4098
▁ㅁㅏㄴㄴㅏ -4099
▁통상 -4100
▁ㄹㅏㄹ -4101
▁미츠 -4102
▁마련 -4103
▁KT -4104
▁리스트 -4105
▁이득 -4106
▁커맨 -4107
▁89 -4108
퍼스 -4109
▁혁명 -4110
▁블러 -4111
▁92 -4112
▁갖추 -4113
▁믹 -4114
▁탱커 -4115
▁폭력 -4116
스트라 -4117
▁유령 -4118
▁승강장 -4119
ust -4120
▁밝히 -4121
▁불편 -4122
▁제작진 -4123
▁작동 -4124
ㄹㅏㅇ -4125
▁용사 -4126
▁프로필 -4127
▁94 -4128
▁뒤집 -4129
▁지나치 -4130
▁미디어 -4131
▁예외 -4132
▁옛날 -4133
ㅎㅏㅁ -4134
ide -4135
▁ㅎㅡㄴ -4136
▁타케 -4137
▁메인 -4138
▁전투기 -4139
▁ㅍㅜㄹ -4140
▁스마트 -4141
▁79 -4142
▁수집 -4143
▁일자 -4144
▁구현 -4145
▁조치 -4146
도우 -4147
▁파일럿 -4148
▁Le -4149
▁연대 -4150
▁진지 -4151
▁동원 -4152
자키 -4153
▁챕 -4154
▁머신 -4155
▁네임 -4156
나무 -4157
▁모바일 -4158
▁검색 -4159
▁Se -4160
▁한국인 -4161
▁민간 -4162
▁그곳 -4163
▁사이즈 -4164
ity -4165
▁조심 -4166
ㅆㅏㄴ -4167
▁앵 -4168
▁쿠로 -4169
▁워치 -4170
▁고생 -4171
▁현지 -4172
▁포탑 -4173
▁이리 -4174
▁걷 -4175
▁경기장 -4176
노스 -4177
▁신장 -4178
▁93 -4179
메달 -4180
▁콘서트 -4181
▁US -4182
▁깃 -4183
PG -4184
▁ㅇㅏㄴ -4185
▁신인 -4186
일드 -4187
려움 -4188
▁만든 -4189
▁동영 -4190
▁챕터 -4191
▁ㄱㅏㅌ -4192
▁뿌리 -4193
▁조절 -4194
▁부위 -4195
▁표준 -4196
▁", -4197
▁레인저 -4198
OT -4199
▁조조 -4200
▁ㄲㅔ -4201
▁음반 -4202
▁정류장 -4203
▁ㄹㅣㅇ -4204
▁ㄱㅚ -4205
▁요즘 -4206
▁동방 -4207
▁87 -4208
▁키우 -4209
▁메시 -4210
▁카미 -4211
▁101 -4212
▁입구 -4213
▁ㅅㅓㄴㅂㅗ -4214
▁감시 -4215
일리 -4216
▁배차 -4217
북도 -4218
▁마루 -4219
▁시행 -4220
▁1996 -4221
▁부수 -4222
▁수송 -4223
ㄱㅜㄴㄱㅏ -4224
▁ㅇㅐㄴ -4225
▁DJ -4226
올리 -4227
▁스톰 -4228
▁되찾 -4229
▁긍 -4230
AC -4231
▁보장 -4232
▁동영상 -4233
▁프린 -4234
▁리얼 -4235
▁교전 -4236
▁레스 -4237
▁용어 -4238
▁1995 -4239
▁MC -4240
▁공산 -4241
▁길드 -4242
▁편지 -4243
▁프리미 -4244
▁도발 -4245
▁자이언 -4246
▁패널 -4247
▁음성 -4248
▁AI -4249
저히 -4250
오르 -4251
▁차단 -4252
▁폐지 -4253
▁어쩌 -4254
▁겐 -4255
▁앱 -4256
어도 -4257
▁상상 -4258
▁On -4259
▁호평 -4260
▁텔레 -4261
ere -4262
▁볼넷 -4263
▁라이프 -4264
▁기습 -4265
▁올라오 -4266
▁특화 -4267
▁연방 -4268
age -4269
▁김정 -4270
▁드러나 -4271
▁이재 -4272
▁계정 -4273
▁쇠 -4274
▁루타 -4275
▁한방 -4276
▁강철 -4277
▁구출 -4278
▁흥행 -4279
▁전하 -4280
▁똑같이 -4281
▁세월 -4282
▁사이드 -4283
▁볼트 -4284
▁도서관 -4285
▁어깨 -4286
▁ㅇㅏㅍㅅㅓ -4287
펙트 -4288
▁추진 -4289
▁무료 -4290
▁연락 -4291
▁ㄱㅏㅌㅇㅣ -4292
▁..... -4293
워하 -4294
▁슈트 -4295
▁잠수 -4296
▁ㅁㅓㄱ -4297
울리 -4298
▁루시 -4299
▁도달 -4300
▁핸드 -4301
▁연관 -4302
▁ㅋㅣㄹ -4303
▁이날 -4304
▁결승전 -4305
▁농구 -4306
▁뛰어 -4307
▁신문 -4308
▁익숙 -4309
▁번개 -4310
▁레이드 -4311
▁간부 -4312
▁슛 -4313
▁ㅁㅐ -4314
▁@ -4315
▁주소 -4316
▁섞 -4317
▁매니 -4318
▁리메 -4319
▁널 -4320
▁지휘관 -4321
▁향상 -4322
▁ㅊㅟ -4323
▁삼진 -4324
▁전직 -4325
오프 -4326
▁사마 -4327
ㄴㅣㄴㄷㅏ -4328
▁묘지 -4329
▁양산 -4330
▁ㅁㅏㄴㄴㅏㅆ -4331
▁전달 -4332
레이터 -4333
▁가상 -4334
▁출력 -4335
이즈 -4336
▁극단 -4337
▁신분 -4338
▁쟁 -4339
▁px -4340
▁누리 -4341
▁노예 -4342
▁빌드 -4343
ㄹㄹㅓㅆ -4344
▁겉 -4345
▁고향 -4346
▁소닉 -4347
▁부문 -4348
▁신성 -4349
▁켈 -4350
▁환자 -4351
▁스튜 -4352
▁수술 -4353
▁환승 -4354
▁갤럭 -4355
▁즐기 -4356
qu -4357
▁가속 -4358
▁노출 -4359
▁신기 -4360
▁마구 -4361
▁글자 -4362
▁박근 -4363
▁입단 -4364
▁레이스 -4365
▁임명 -4366
▁동작 -4367
▁DLC -4368
▁먹이 -4369
오카 -4370
▁세이브 -4371
▁전역 -4372
▁캐리 -4373
▁베트 -4374
▁헨 -4375
▁장교 -4376
▁멕 -4377
▁복잡 -4378
ood -4379
▁커플 -4380
▁웬만 -4381
▁제자 -4382
▁'. -4383
▁AK -4384
▁내구 -4385
▁성별 -4386
▁봇 -4387
▁캐스 -4388
▁쾌 -4389
ㅍㅡㄴ -4390
▁ㅇㅗㄹㄹㅏㅆ -4391
▁THE -4392
▁내성 -4393
▁느리 -4394
▁대체로 -4395
▁적어도 -4396
▁팀원 -4397
BO -4398
▁막차 -4399
▁명중률 -4400
▁타마 -4401
▁ㅇㅗㄴㄷㅏ -4402
창기 -4403
▁ㅃㅏㄹㄹㅏ -4404
▁해체 -4405
ㄷㅡㄹㅇㅕ -4406
▁ㄷㅏㄹㄹㅣㄴ -4407
▁임시 -4408
▁페이즈 -4409
▁진심 -4410
▁브레이크 -4411
▁핫 -4412
▁알파 -4413
▁MVP -4414
▁기병 -4415
▁갤럭시 -4416
▁듯이 -4417
▁절망 -4418
▁전시 -4419
▁가게 -4420
▁샘 -4421
란색 -4422
PM -4423
IS -4424
▁아쉽 -4425
▁가시 -4426
▁겁 -4427
▁플레 -4428
▁구속 -4429
▁넘기 -4430
▁아우 -4431
조리 -4432
▁맞이 -4433
▁ㅂㅓㅅㅇㅓ -4434
▁종이 -4435
▁득표 -4436
▁연구소 -4437
▁육성 -4438
▁수영 -4439
▁중화 -4440
ㅇㅓㄴ -4441
▁ㄷㅏㅁ -4442
▁근육 -4443
▁착각 -4444
▁개통 -4445
▁ㅇㅏㄹㅇㅏ -4446
▁부리 -4447
▁뛰어나 -4448
▁융합 -4449
▁이즈 -4450
▁CC -4451
▁$ -4452
▁아빠 -4453
▁리메이크 -4454
▁공지 -4455
▁너무나 -4456
▁여유 -4457
are -4458
▁분기 -4459
▁차라리 -4460
▁대량 -4461
▁자매 -4462
▁1994 -4463
▁강원 -4464
ㄹㅓㅁㅇㅔ -4465
ㅃㅏ -4466
▁인수 -4467
▁ㅅㅣㅁㅎㅏㄴ -4468
▁Wh -4469
▁카오스 -4470
▁날짜 -4471
▁창조 -4472
▁이시 -4473
ㄲㅇㅕ -4474
전자 -4475
▁인증 -4476
ㄱㅜ -4477
▁협회 -4478
▁ㅎㅡ -4479
▁지능 -4480
▁물질 -4481
▁초창기 -4482
아지 -4483
▁럭 -4484
▁리치 -4485
▁규칙 -4486
▁글로 -4487
▁고백 -4488
▁시즈 -4489
▁인연 -4490
▁1980 -4491
OM -4492
▁실버 -4493
▁파리 -4494
▁게스트 -4495
▁그럼 -4496
▁참전 -4497
▁이자 -4498
▁소화 -4499
▁대대 -4500
▁ㅅㅕㅆ -4501
▁경고 -4502
▁하필 -4503
▁배트 -4504
브리 -4505
▁구체 -4506
▁입히 -4507
▁700 -4508
▁카타 -4509
▁분량 -4510
▁톱 -4511
▁Tr -4512
▁태그 -4513
디아 -4514
▁의뢰 -4515
▁ㅇㅚ -4516
▁드물 -4517
▁점차 -4518
ㅇㅡㄴ -4519
크스 -4520
▁악역 -4521
▁제어 -4522
▁가량 -4523
▁의혹 -4524
▁청년 -4525
▁남부 -4526
▁성과 -4527
ock -4528
▁테일 -4529
▁누적 -4530
▁투구 -4531
▁회원 -4532
▁메모리 -4533
▁미카 -4534
▁'' -4535
▁ㄴㅓㄹ -4536
▁합격 -4537
▁고용 -4538
▁흠 -4539
▁조지 -4540
ㅇㅣㅁ -4541
▁대립 -4542
▁객 -4543
ake -4544
OW -4545
▁합체 -4546
▁돼지 -4547
▁정복 -4548
▁어울리 -4549
ect -4550
▁고르 -4551
먼트 -4552
▁식사 -4553
our -4554
▁이내 -4555
▁김영 -4556
▁호감 -4557
▁FI -4558
▁녹음 -4559
▁이명 -4560
▁춘 -4561
ㅅㅓㅆ -4562
▁웹툰 -4563
▁왠 -4564
ass -4565
ire -4566
티나 -4567
구리 -4568
▁반발 -4569
▁피격 -4570
▁아시 -4571
▁중대 -4572
▁의료 -4573
▁차트 -4574
▁뷰 -4575
ark -4576
oy -4577
▁귀신 -4578
보드 -4579
도로 -4580
▁파트너 -4581
▁삼국지 -4582
▁출판 -4583
▁도망치 -4584
▁꼬리 -4585
▁인하 -4586
▁후속작 -4587
▁위장 -4588
▁합성 -4589
ob -4590
▁he -4591
▁ㅍㅕㄴ -4592
ite -4593
▁여지 -4594
▁베스트 -4595
▁써먹 -4596
▁쏟 -4597
▁츄 -4598
▁발매되 -4599
▁쟈 -4600
▁그동안 -4601
▁게시판 -4602
지마 -4603
▁히데 -4604
▁모모 -4605
▁외계 -4606
▁유로 -4607
▁편곡 -4608
▁랭킹 -4609
▁감옥 -4610
▁스턴 -4611
▁결론 -4612
▁서부 -4613
▁기초 -4614
▁한번 -4615
▁강의 -4616
▁축제 -4617
▁체포 -4618
웨어 -4619
▁마키 -4620
▁뚜 -4621
▁협박 -4622
▁세우 -4623
▁카스 -4624
▁ㅁㅝ -4625
어내 -4626
▁아기 -4627
▁블리 -4628
▁퀄리티 -4629
▁림 -4630
주시 -4631
▁문장 -4632
▁SR -4633
▁동화 -4634
▁안드로이드 -4635
▁둥 -4636
▁꺾 -4637
▁본작 -4638
▁햄 -4639
▁예비 -4640
▁사제 -4641
▁토론 -4642
FC -4643
ES -4644
▁정면 -4645
▁Cl -4646
▁구멍 -4647
▁ㄴㅓㅁㄱㅕ -4648
▁개방 -4649
▁kt -4650
▁FA -4651
▁곧바로 -4652
▁어지 -4653
▁AR -4654
▁단장 -4655
▁드러내 -4656
▁어쨌 -4657
▁공급 -4658
▁소형 -4659
▁매체 -4660
▁수련 -4661
▁ㅇㅖ -4662
▁토르 -4663
▁렛 -4664
▁유행 -4665
▁은하 -4666
▁다섯 -4667
UN -4668
ah -4669
▁트로 -4670
▁대폭 -4671
▁횡 -4672
아들이 -4673
▁플랫 -4674
▁초간 -4675
▁전면 -4676
▁룸 -4677
▁인공 -4678
▁문학 -4679
▁대가 -4680
▁활성 -4681
▁부부 -4682
▁ㅋㅐ -4683
▁투어 -4684
▁캐나다 -4685
▁립 -4686
▁wh -4687
▁돕 -4688
▁소원 -4689
라이언 -4690
▁예능 -4691
▁GT -4692
ound -4693
▁내장 -4694
▁저그 -4695
ㄴㅕ -4696
▁매직 -4697
iz -4698
▁과목 -4699
▁마리아 -4700
▁웅 -4701
▁ㄱㅓㄹㄹㅣㄴ -4702
▁해병 -4703
▁일시 -4704
성기 -4705
릭스 -4706
▁클리 -4707
▁외형 -4708
▁내주 -4709
▁아일 -4710
▁대략 -4711
ㄷㅜㄴ -4712
▁뜬 -4713
▁고문 -4714
▁비아 -4715
▁연타 -4716
▁파견 -4717
▁김태 -4718
▁커맨드 -4719
▁살리 -4720
▁세이버 -4721
▁관중 -4722
▁간혹 -4723
▁시위 -4724
▁신호 -4725
▁컬러 -4726
ime -4727
▁넉 -4728
▁왕조 -4729
▁희귀 -4730
▁적군 -4731
▁야스 -4732
▁스틸 -4733
▁슈팅 -4734
▁일원 -4735
▁SD -4736
▁포스트 -4737
▁식물 -4738
▁손가락 -4739
▁플레이오프 -4740
▁리아 -4741
▁팬덤 -4742
▁흔들 -4743
▁블로그 -4744
▁뼈 -4745
▁Gr -4746
ㄷㅎㅕ -4747
▁피부 -4748
▁에드 -4749
▁긍정 -4750
▁정글 -4751
▁마이클 -4752
▁박근혜 -4753
▁반사 -4754
LL -4755
ㄷㅓㄴㄱㅏ -4756
▁소지 -4757
▁김민 -4758
▁코우 -4759
▁KIA -4760
▁멍 -4761
iv -4762
▁PD -4763
▁my -4764
▁펀치 -4765
▁프라이 -4766
▁의무 -4767
▁Me -4768
▁목격 -4769
▁타이거 -4770
▁신라 -4771
려가 -4772
▁바위 -4773
우드 -4774
▁구원 -4775
▁수수 -4776
▁은근히 -4777
▁SC -4778
▁ㅅㅔㄴ -4779
▁움직임 -4780
▁준수 -4781
▁깜 -4782
▁크라 -4783
▁앞서 -4784
▁상성 -4785
▁주말 -4786
▁섀 -4787
ID -4788
▁가볍 -4789
▁파크 -4790
▁잦 -4791
▁116 -4792
▁곡명 -4793
스턴 -4794
▁연인 -4795
▁오카 -4796
▁ㄴㅗㄹㄹㅏ -4797
▁피스 -4798
잡이 -4799
▁육체 -4800
▁이지 -4801
▁특집 -4802
▁인근 -4803
▁전철 -4804
▁최소한 -4805
페인 -4806
큐어 -4807
▁나뉘 -4808
▁메뉴 -4809
ㅂㅕ -4810
▁둔 -4811
▁ㅇㅗㄻㄱㅕ -4812
버트 -4813
▁그대 -4814
▁상하 -4815
▁멘탈 -4816
▁대처 -4817
▁수용 -4818
▁개체 -4819
▁붙이 -4820
▁불법 -4821
▁My -4822
▁대충 -4823
MA -4824
▁아니면 -4825
▁일격 -4826
▁자치 -4827
▁빡 -4828
▁취하 -4829
▁박정 -4830
▁킨 -4831
▁헤이 -4832
▁ㅇㅑㄱㅎㅐ -4833
▁ㅌㅔㄴ -4834
▁ㄷㅡㄴㄷㅏ -4835
▁예측 -4836
OP -4837
▁영문 -4838
▁헤비 -4839
▁동부 -4840
▁130 -4841
▁환영 -4842
▁홀로 -4843
▁건축 -4844
▁조성 -4845
시코 -4846
▁각자 -4847
▁원본 -4848
▁커스 -4849
▁로즈 -4850
미야 -4851
▁보안 -4852
▁적대 -4853
디언 -4854
▁냄 -4855
▁{{ -4856
▁기사단 -4857
▁바리 -4858
▁영토 -4859
▁썩 -4860
▁딩 -4861
▁서양 -4862
▁왈 -4863
▁Pr -4864
▁멀쩡 -4865
▁ㅂㅕㄹ -4866
▁주포 -4867
▁접속 -4868
▁냥 -4869
▁멈 -4870
▁국군 -4871
▁오랫 -4872
ge -4873
▁{{{ -4874
▁더더 -4875
▁아바 -4876
▁좌우 -4877
▁강남 -4878
▁탄창 -4879
▁형사 -4880
▁침공 -4881
▁어린이 -4882
▁액티브 -4883
▁계단 -4884
ㄲㅟㄴ -4885
▁훗 -4886
▁시내버스 -4887
▁소중 -4888
▁안내 -4889
▁겹 -4890
▁사우 -4891
▁면역 -4892
▁첨 -4893
▁결말 -4894
▁골든 -4895
▁기독 -4896
▁어른 -4897
▁BE -4898
▁펫 -4899
▁대지 -4900
▁플로 -4901
▁스미 -4902
▁유이 -4903
▁정찰 -4904
▁더더욱 -4905
▁지도자 -4906
▁호주 -4907
ax -4908
▁이래 -4909
▁작화 -4910
▁ㄸㅢ -4911
데스 -4912
▁지우 -4913
가미 -4914
▁누나 -4915
▁시마 -4916
ㄴㅣㄴㄱㅏ -4917
▁후기 -4918
▁호텔 -4919
▁음원 -4920
▁와이 -4921
▁허나 -4922
▁학부 -4923
▁ㅇㅗㄹㄹㅣㄴ -4924
▁ㅆㅘ -4925
▁대항 -4926
▁DF -4927
▁회상 -4928
▁현역 -4929
▁죄다 -4930
▁괴수 -4931
▁박살 -4932
ㅀㅇㅓ -4933
▁ㅁㅝㄹ -4934
ome -4935
▁처벌 -4936
▁거인 -4937
ance -4938
▁MF -4939
▁이루어지 -4940
▁취미 -4941
▁퀴 -4942
▁딘 -4943
▁시선 -4944
▁버스터 -4945
▁하야 -4946
▁식당 -4947
▁포트 -4948
▁히메 -4949
▁아이스 -4950
▁상당수 -4951
▁캐스팅 -4952
▁ㄴㅏㅁㄱㅕ -4953
▁프리큐어 -4954
uc -4955
▁고스트 -4956
▁해적 -4957
▁주간 -4958
ick -4959
▁ㄷㅔㄴ -4960
▁리듬 -4961
ㅈㅔㄴ -4962
▁라인업 -4963
▁절대로 -4964
ㅂㅜㅌ -4965
▁요코 -4966
▁과제 -4967
▁ㅁㅏㅇ -4968
▁아티스트 -4969
덜란드 -4970
▁첫차 -4971
▁네덜란드 -4972
▁빛나 -4973
▁재미있 -4974
▁미안 -4975
▁Pl -4976
▁일기 -4977
▁새벽 -4978
▁깡 -4979
▁메르 -4980
▁로그 -4981
▁과연 -4982
▁그로 -4983
▁전문가 -4984
▁ch -4985
▁시계 -4986
▁스키 -4987
▁저녁 -4988
▁전진 -4989
▁HD -4990
▁도우 -4991
▁유치 -4992
▁WW -4993
구치 -4994
ㅁㅜ -4995
▁니코 -4996
▁어떠 -4997
ix -4998
밀리 -4999
mer -5000
▁ㄷㅔㄹ -5001
▁비행기 -5002
▁바라보 -5003
▁놀라 -5004
▁트윈 -5005
▁한동안 -5006
▁승격 -5007
닉스 -5008
▁파츠 -5009
▁돌아다니 -5010
▁고지 -5011
ㅎㅇㅏ -5012
▁오스트 -5013
스탄 -5014
▁SM -5015
▁천재 -5016
ord -5017
▁열쇠 -5018
▁총선 -5019
▁드레 -5020
▁방지 -5021
▁마주 -5022
요시 -5023
▁기적 -5024
▁검찰 -5025
ㅂㅎㅕ -5026
▁마비 -5027
▁트레이드 -5028
▁자금 -5029
▁스타크래프트 -5030
▁160 -5031
▁한참 -5032
▁용기 -5033
▁안경 -5034
▁고수 -5035
ure -5036
▁속하 -5037
▁방사 -5038
▁저장 -5039
▁GB -5040
▁코코 -5041
▁트럭 -5042
▁리드 -5043
▁디지털 -5044
▁경기력 -5045
▁챌 -5046
▁주사 -5047
▁캠페인 -5048
ㄹㅜㄴ -5049
아웃 -5050
▁신비 -5051
특별 -5052
▁허리 -5053
▁휴대 -5054
▁양쪽 -5055
▁이슬람 -5056
ㅇㅎㅏㄴㄷㅏ -5057
▁국어 -5058
▁OST -5059
▁전라 -5060
▁캠퍼스 -5061
10 -5062
▁청소년 -5063
▁어지간 -5064
▁개성 -5065
▁위하 -5066
▁유희왕 -5067
▁토끼 -5068
▁ㅂㅕㄹㄷㅏ -5069
▁ㅂㅜㄹㄹㅣㄴㄷㅏ -5070
▁보라 -5071
▁우위 -5072
▁농담 -5073
▁크리스마스 -5074
▁깨닫 -5075
▁상급 -5076
▁ㅁㅗㄹㄹㅏㅆ -5077
▁할아버지 -5078
▁ㄱㅔㅅ -5079
▁ㅁㅣㄹ -5080
▁동굴 -5081
프레 -5082
ㅂㅏ -5083
▁1992 -5084
마디 -5085
▁갈수 -5086
▁외치 -5087
▁무덤 -5088
고리 -5089
▁캡틴 -5090
▁램 -5091
▁with -5092
덩이 -5093
▁ㄸㅡㄴ -5094
▁ㄲㅡㄹㅇㅓ -5095
▁ㅁㅗㅅㅎㅏㄹ -5096
▁ㅎㅡㄹㄹㅓ -5097
▁아이콘 -5098
ud -5099
▁클래식 -5100
▁갈수록 -5101
▁\ -5102
▁방출 -5103
▁체크 -5104
▁인지도 -5105
바라 -5106
▁화제 -5107
▁문재 -5108
▁개정 -5109
▁김동 -5110
▁ㅈㅜㄱㅇㅣㄹ -5111
▁빗 -5112
▁1993 -5113
▁마이너 -5114
▁영향력 -5115
▁ㅅㅣㅁㅎㅐ -5116
▁KO -5117
▁ㄱㅓㄹㅊㅕ -5118
▁ㅈㅜㄹㅇㅕ -5119
▁오랫동안 -5120
▁북부 -5121
▁바퀴 -5122
▁기독교 -5123
▁미술 -5124
▁올해 -5125
▁원소 -5126
▁곽 -5127
▁이영 -5128
▁해리 -5129
▁연료 -5130
ㄴㅝ -5131
라이트 -5132
▁정원 -5133
▁클릭 -5134
▁터키 -5135
라드 -5136
▁호위 -5137
지로 -5138
▁시아 -5139
양함 -5140
▁어쨌든 -5141
▁베트남 -5142
▁중독 -5143
▁촌 -5144
▁받아들이 -5145
톨릭 -5146
▁웃음 -5147
▁140 -5148
▁안티 -5149
▁Ex -5150
▁조언 -5151
▁어마 -5152
▁일제 -5153
▁접촉 -5154
▁국방 -5155
▁귀찮 -5156
ame -5157
▁바이러스 -5158
▁https -5159
▁SKT -5160
▁무작 -5161
▁극복 -5162
▁하락 -5163
치기 -5164
▁끄 -5165
80 -5166
▁미라 -5167
▁ㅃㅗ -5168
▁의존 -5169
▁마침내 -5170
▁JR -5171
▁장악 -5172
▁인정받 -5173
▁델 -5174
▁전신 -5175
▁사도 -5176
▁신설 -5177
▁하우스 -5178
▁덮 -5179
▁?? -5180
▁놀이 -5181
▁선택지 -5182
▁윌리 -5183
▁노인 -5184
▁생존자 -5185
▁톰 -5186
▁식량 -5187
▁ㅌㅔㄴㄷㅔ -5188
▁곁 -5189
AD -5190
▁sh -5191
▁붙잡 -5192
멘트 -5193
▁ㅅㅏㄹㅇㅏ -5194
▁흐름 -5195
▁보관 -5196
▁외전 -5197
▁멈추 -5198
▁수익 -5199
▁개수 -5200
▁투명 -5201
▁결코 -5202
▁캐논 -5203
▁체육관 -5204
▁본체 -5205
▁ㅈㅜㄱㅇㅣㄴ -5206
▁다가 -5207
▁기아 -5208
▁들이 -5209
▁로우 -5210
임스 -5211
▁챌린 -5212
▁핏 -5213
▁부장 -5214
▁도끼 -5215
▁취향 -5216
▁ㅈㅓㄱㅎㅕ -5217
▁모조리 -5218
▁de -5219
▁공무원 -5220
▁커리어 -5221
▁IC -5222
▁카트 -5223
▁대리 -5224
▁노부 -5225
▁ㅂㅣㄹ -5226
몬드 -5227
▁ㄹㅓㄴ -5228
ost -5229
▁예시 -5230
▁전멸 -5231
▁비주 -5232
▁벗어나 -5233
▁치유 -5234
▁Love -5235
▁이브 -5236
▁전성기 -5237
▁칭찬 -5238
▁최다 -5239
▁손해 -5240
▁쉐 -5241
▁모래 -5242
▁ㄷㅜㄹ -5243
▁ㅅㅏㄴ -5244
세스 -5245
▁에리 -5246
▁기종 -5247
▁콜라보 -5248
▁ㅎㅏㄴㅈㅣ -5249
▁루수 -5250
▁데드 -5251
리그 -5252
▁갈리 -5253
▁제작자 -5254
old -5255
▁후방 -5256
▁교장 -5257
▁김종 -5258
▁GS -5259
▁스승 -5260
▁한마디 -5261
▁이터 -5262
ㄲㅇㅣㄴ -5263
▁논리 -5264
▁ㅁㅓㅁ -5265
카리 -5266
▁유니폼 -5267
▁ㅁㅓㅁㅊ -5268
▁힙 -5269
out -5270
코토 -5271
▁어스 -5272
▁가톨릭 -5273
▁900 -5274
▁재현 -5275
▁Un -5276
▁정비 -5277
▁ㅊㅕㅆ -5278
▁마린 -5279
▁충청 -5280
▁무릎 -5281
▁수십 -5282
▁작곡가 -5283
▁반동 -5284
▁레이더 -5285
▁무지 -5286
▁우연히 -5287
▁툴 -5288
▁충성 -5289
▁첼 -5290
▁변호사 -5291
▁칩 -5292
▁사막 -5293
▁구경 -5294
▁ㅅㅣㄹ -5295
own -5296
▁일반인 -5297
▁당일 -5298
네스 -5299
▁ㅈㅏㅁ -5300
▁세르 -5301
▁오전 -5302
▁동의 -5303
ㄷㅡㄴㄱㅏ -5304
▁202 -5305
▁들리 -5306
▁명성 -5307
▁우라 -5308
▁사정거리 -5309
▁코미 -5310
▁제임스 -5311
▁이정 -5312
▁트랜 -5313
스키 -5314
▁카츠 -5315
▁쵸 -5316
▁적응 -5317
▁기여 -5318
▁패션 -5319
▁업적 -5320
▁ㄴㅜㄹㄹㅓ -5321
▁지켜 -5322
▁구사 -5323
▁그러니 -5324
▁.." -5325
▁거미 -5326
▁소스 -5327
▁로고 -5328
▁타선 -5329
▁아일랜드 -5330
▁멕시코 -5331
▁맥스 -5332
워크 -5333
▁수류 -5334
▁아즈 -5335
▁잉글 -5336
▁판매량 -5337
▁소라 -5338
▁유통 -5339
ㄲㅣㄹ -5340
▁합의 -5341
▁자세히 -5342
▁타인 -5343
▁무방 -5344
카드 -5345
▁선전 -5346
▁ㅃㅜ -5347
▁연금 -5348
US -5349
▁SH -5350
▁스트리 -5351
▁개입 -5352
▁둘째 -5353
▁잡지 -5354
▁초보 -5355
▁증언 -5356
ㅇㅑㄴ -5357
▁상업 -5358
▁ㅁㅏㅌ -5359
▁LI -5360
▁타락 -5361
▁넥센 -5362
▁드라이브 -5363
▁날아가 -5364
▁기도 -5365
▁기량 -5366
▁법원 -5367
▁스웨 -5368
▁조연 -5369
▁ㄴㅗㅍ -5370
▁취임 -5371
▁다스 -5372
▁아쿠 -5373
▁EP -5374
▁무라 -5375
▁바깥 -5376
시로 -5377
▁다름 -5378
▁신부 -5379
▁유물 -5380
ㅇㅓㄴㄱㅏ -5381
▁의회 -5382
▁ㅈㅏㅂㅎㅕ -5383
▁북쪽 -5384
▁가짜 -5385
▁FF -5386
▁폴란드 -5387
▁법률 -5388
ok -5389
▁루카 -5390
▁자국 -5391
▁정수 -5392
▁할머니 -5393
pe -5394
▁수류탄 -5395
ㄱㅓㄹㄹㅗ -5396
▁포격 -5397
다이 -5398
▁가루 -5399
▁어드 -5400
▁출마 -5401
▁차기 -5402
▁전후 -5403
▁닭 -5404
▁벌레 -5405
미니 -5406
▁오사카 -5407
ace -5408
▁주기 -5409
ave -5410
▁복무 -5411
▁찌르 -5412
▁쌍둥이 -5413
per -5414
▁싱크 -5415
▁향하 -5416
▁금속 -5417
▁깔끔 -5418
▁드롭 -5419
▁펑 -5420
▁IS -5421
▁ㅉㅗㅊ -5422
▁씹 -5423
▁결성 -5424
▁화장실 -5425
▁교실 -5426
▁인조 -5427
▁지켜보 -5428
▁비례 -5429
▁대개 -5430
ng -5431
▁XX -5432
▁똥 -5433
▁일방 -5434
▁남쪽 -5435
▁위상 -5436
▁히나 -5437
▁주식 -5438
▁포드 -5439
▁교차 -5440
려오 -5441
▁정착 -5442
▁동력 -5443
▁비싸 -5444
▁과장 -5445
노우 -5446
▁승점 -5447
▁인격 -5448
▁독특 -5449
ice -5450
▁방어구 -5451
▁ㅁㅓㅅ -5452
▁1991 -5453
네임 -5454
▁흔적 -5455
ㅏㄹㄹㅣㄴ -5456
▁빚 -5457
▁라이온 -5458
▁도주 -5459
▁주일 -5460
▁CV -5461
▁보고 -5462
▁연패 -5463
▁도적 -5464
▁채우 -5465
▁훗날 -5466
▁자폭 -5467
▁스마트폰 -5468
▁국립 -5469
▁CF -5470
▁스프링 -5471
▁포항 -5472
▁스터 -5473
▁공룡 -5474
▁그러니까 -5475
▁AD -5476
▁블러드 -5477
달리 -5478
▁스텔 -5479
가시 -5480
▁공성 -5481
▁숭 -5482
▁1988 -5483
▁대인 -5484
ㅈㅕㅆㅇㅡ -5485
▁부작 -5486
▁자책 -5487
OD -5488
▁화학 -5489
▁정치인 -5490
▁남녀 -5491
▁처형 -5492
▁냄새 -5493
ov -5494
▁타수 -5495
▁사라 -5496
▁강도 -5497
▁포수 -5498
▁팽 -5499
▁상호 -5500
▁위대 -5501
▁람 -5502
▁연승 -5503
▁ㅅㅠ -5504
▁We -5505
▁클랜 -5506
▁크리스탈 -5507
▁매니저 -5508
▁스튜디오 -5509
▁ㄸㅡ -5510
▁각본 -5511
▁클레 -5512
ont -5513
▁스페이스 -5514
▁런던 -5515
▁잡히 -5516
▁비상 -5517
▁시너지 -5518
▁개량 -5519
▁시노 -5520
▁추억 -5521
▁김재 -5522
▁이슈 -5523
▁일찍 -5524
▁오타 -5525
▁귀환 -5526
▁아츠 -5527
▁트라이 -5528
▁간신 -5529
러지 -5530
▁기용 -5531
▁제갈 -5532
▁후술 -5533
랑이 -5534
▁혈액 -5535
▁색깔 -5536
▁몰락 -5537
▁권한 -5538
▁105 -5539
▁새끼 -5540
▁광역시 -5541
▁행보 -5542
▁주역 -5543
▁사유 -5544
▁승률 -5545
▁사신 -5546
나카 -5547
▁풀리 -5548
▁헛 -5549
▁AM -5550
▁녹색 -5551
▁거점 -5552
▁일람 -5553
자드 -5554
▁아케 -5555
▁개막 -5556
orld -5557
▁상술 -5558
▁지뢰 -5559
랭크 -5560
▁적당히 -5561
▁고작 -5562
▁미스터 -5563
▁유대 -5564
▁숙련 -5565
ies -5566
▁생년 -5567
▁히어로즈 -5568
ㅆㅏ -5569
▁자막 -5570
▁타로 -5571
▁DS -5572
▁해피 -5573
▁커피 -5574
▁카운트 -5575
▁루나 -5576
▁학력 -5577
▁색상 -5578
▁코리아 -5579
▁뜬금 -5580
▁줄이 -5581
▁거치 -5582
▁길이 -5583
▁ㅅㅐㅇㄱㅣㄴㄷㅏ -5584
▁어려움 -5585
ann -5586
▁실망 -5587
▁혐오 -5588
▁이중 -5589
▁흥미 -5590
ㄷㅐ -5591
▁ㅍㅕㄹㅊㅕ -5592
팡이 -5593
▁화성 -5594
▁재단 -5595
ㅡㄹㄹㅣㄴ -5596
블린 -5597
▁서포터 -5598
▁공세 -5599
▁계통 -5600
▁널리 -5601
▁금융 -5602
▁스트라이크 -5603
로나 -5604
OC -5605
특별시 -5606
▁특전 -5607
▁인민 -5608
▁제작사 -5609
▁노르 -5610
▁SNS -5611
고속 -5612
▁티켓 -5613
▁요금 -5614
ㄲㅡ -5615
▁ㅋㅓㅆ -5616
▁소위 -5617
▁관람 -5618
▁다름없 -5619
▁디지몬 -5620
▁망치 -5621
▁ED -5622
ㄱㅅ -5623
▁미터 -5624
▁차이점 -5625
▁서울특별시 -5626
▁아이언 -5627
▁영구 -5628
▁흡혈 -5629
▁개시 -5630
▁릿 -5631
▁아마도 -5632
▁중량 -5633
▁배터리 -5634
▁국왕 -5635
▁하단 -5636
▁세종 -5637
▁CPU -5638
▁ㅎㅜㅁ -5639
럼프 -5640
▁면모 -5641
▁심사 -5642
▁나치 -5643
LE -5644
▁사이버 -5645
▁추종 -5646
▁칭호 -5647
▁어뢰 -5648
▁기숙 -5649
▁ㅊㅐㅇㄱㅕ -5650
▁쓸모 -5651
▁ㅊㅏㄴ -5652
▁세븐 -5653
▁DE -5654
▁오크 -5655
▁아서 -5656
▁wik -5657
시타 -5658
▁오랜만 -5659
▁너희 -5660
▁미묘 -5661
▁단단 -5662
▁리타 -5663
▁스팀 -5664
▁둘러 -5665
▁소대 -5666
BA -5667
▁오직 -5668
▁중첩 -5669
▁건너 -5670
▁공공 -5671
▁보호막 -5672
▁민첩 -5673
▁좌석 -5674
▁썬 -5675
▁펄 -5676
▁생략 -5677
▁잉글랜드 -5678
▁연령 -5679
▁흘리 -5680
▁시그 -5681
▁증오 -5682
▁편입 -5683
▁히토 -5684
▁호수 -5685
▁삐 -5686
▁언더 -5687
▁ㄹㅐ -5688
▁몰아 -5689
▁LV -5690
▁애플 -5691
▁고구 -5692
▁뎀 -5693
▁노벨 -5694
▁재산 -5695
티아 -5696
▁LC -5697
▁혐의 -5698
▁ㅈㅗㅎㅇㅏ -5699
▁맛있 -5700
▁단편 -5701
▁부지 -5702
▁해상 -5703
▁워커 -5704
▁뿔 -5705
ㅁㅜㄴ -5706
▁타율 -5707
▁상단 -5708
▁십자 -5709
ber -5710
▁NE -5711
로디 -5712
▁총알 -5713
▁하차 -5714
ys -5715
▁실전 -5716
시스트 -5717
▁네트 -5718
▁오라 -5719
▁연예인 -5720
▁신사 -5721
베르 -5722
▁휴식 -5723
▁메리 -5724
▁지경 -5725
▁펌 -5726
▁중국어 -5727
▁ㄷㅓㄴㅈㅣ -5728
▁SE -5729
▁익스 -5730
▁협상 -5731
▁가만 -5732
▁탈퇴 -5733
▁189 -5734
▁가요 -5735
ION -5736
▁마약 -5737
▁후배 -5738
▁흐르 -5739
▁딜링 -5740
▁예언 -5741
어마 -5742
▁카카 -5743
▁쿼터 -5744
▁ㅁㅏㄴㄴㅏㄹ -5745
▁정화 -5746
▁지르 -5747
▁모노 -5748
▁임대 -5749
der -5750
▁아저 -5751
▁기관총 -5752
▁수장 -5753
ㄷㅣㄴ -5754
▁your -5755
▁오마 -5756
▁네오 -5757
▁언스 -5758
▁ㄴㅏㅁㄱㅕㅆ -5759
저스 -5760
▁아저씨 -5761
▁상인 -5762
▁용량 -5763
aw -5764
▁문구 -5765
▁막대 -5766
▁곤란 -5767
▁동쪽 -5768
▁이익 -5769
▁예산 -5770
▁혹시 -5771
▁드럼 -5772
▁뺏 -5773
▁구슬 -5774
▁강자 -5775
▁어마어마 -5776
▁3000 -5777
60 -5778
두르 -5779
FF -5780
▁큐브 -5781
▁수호자 -5782
▁BPM -5783
▁턱 -5784
▁공방 -5785
▁캠프 -5786
▁소장 -5787
▁EN -5788
▁엮 -5789
▁It -5790
▁험 -5791
▁강요 -5792
40 -5793
▁악당 -5794
▁ㅃㅏㄹㄱㅏㄴ -5795
▁하루카 -5796
▁잠수함 -5797
▁개혁 -5798
▁넘치 -5799
▁김현 -5800
▁가하 -5801
▁원칙 -5802
▁ㅉㅏ -5803
▁총리 -5804
▁진보 -5805
▁굿 -5806
▁인치 -5807
▁찬스 -5808
▁부각 -5809
▁닫 -5810
▁가져가 -5811
이너 -5812
▁용서 -5813
▁자극 -5814
ream -5815
사자 -5816
▁잠재 -5817
▁메달 -5818
▁포르투 -5819
▁학자 -5820
▁금방 -5821
▁칼리 -5822
▁상실 -5823
ike -5824
▁원문 -5825
▁틸 -5826
▁저작 -5827
▁루이 -5828
▁Com -5829
▁ㄱㅗㄹㄹㅏ -5830
▁125 -5831
▁교류 -5832
▁원주 -5833
▁엑스트라 -5834
▁앨리스 -5835
▁미쿠 -5836
▁포로 -5837
나미 -5838
▁결전 -5839
월일 -5840
▁가을 -5841
▁집행 -5842
▁모토 -5843
▁상관없 -5844
▁어리 -5845
▁타운 -5846
술사 -5847
▁뱀파이어 -5848
▁활발 -5849
▁1989 -5850
▁자전 -5851
▁원하 -5852
▁카와 -5853
▁로리 -5854
▁원수 -5855
▁마디 -5856
▁유효 -5857
▁서번 -5858
▁엘리트 -5859
▁도루 -5860
▁중립 -5861
▁내지 -5862
▁PV -5863
▁신앙 -5864
▁입지 -5865
▁채팅 -5866
버리 -5867
▁저렴 -5868
▁서번트 -5869
▁제트 -5870
▁일족 -5871
가스 -5872
▁칼날 -5873
▁표지 -5874
▁마그 -5875
▁생년월일 -5876
▁낚시 -5877
▁기생 -5878
▁화물 -5879
▁내려가 -5880
▁없애 -5881
▁후계 -5882
▁메시지 -5883
▁사형 -5884
▁루비 -5885
▁사명 -5886
▁UP -5887
▁요약 -5888
iss -5889
▁무척 -5890
▁이끄 -5891
▁헬기 -5892
▁미즈 -5893
▁ㄷㅏㄹ -5894
▁담배 -5895
위대 -5896
▁첩 -5897
▁ww -5898
▁피터 -5899
▁복지 -5900
▁정예 -5901
▁위원장 -5902
▁구축함 -5903
▁힌 -5904
▁동아 -5905
▁행운 -5906
▁안녕 -5907
▁간신히 -5908
▁ㄴㅏㅁㄱㅣㄴ -5909
▁일본인 -5910
▁대학원 -5911
▁딜레이 -5912
▁순환 -5913
▁짜증 -5914
팩트 -5915
▁존재감 -5916
▁구석 -5917
▁거울 -5918
▁터널 -5919
▁바이오 -5920
▁재밌 -5921
▁레알 -5922
▁라면 -5923
▁캐스터 -5924
▁텍스트 -5925
▁모이 -5926
▁그랜드 -5927
▁뜯 -5928
▁무렵 -5929
▁추구 -5930
▁최신 -5931
▁테라 -5932
▁집어 -5933
▁꺼내 -5934
▁피아노 -5935
데이 -5936
▁엔젤 -5937
▁오가 -5938
▁www -5939
▁AS -5940
▁주자 -5941
▁음모 -5942
▁BL -5943
▁말리 -5944
▁철학 -5945
chor -5946
▁가동 -5947
▁나리 -5948
▁무역 -5949
▁도둑 -5950
▁성남 -5951
▁애정 -5952
30 -5953
▁반전 -5954
▁부스터 -5955
▁지라 -5956
ian -5957
▁영주 -5958
▁공용 -5959
▁격추 -5960
▁기구 -5961
▁ㅁㅓㅅㅈㅣㄴ -5962
▁-> -5963
ㄴㅔ -5964
▁며 -5965
▁서쪽 -5966
▁모니 -5967
▁사원 -5968
▁참석 -5969
▁심심 -5970
▁공허 -5971
▁꽂 -5972
라기 -5973
▁유나이 -5974
걸이 -5975
▁잔뜩 -5976
▁기숙사 -5977
▁알렉산 -5978
▁체중 -5979
▁비서 -5980
▁통산 -5981
▁드래프트 -5982
▁주차 -5983
회사 -5984
▁해골 -5985
▁부적 -5986
io -5987
▁이집 -5988
▁취약 -5989
▁ㅈㅜㄹㅇㅓ -5990
▁이집트 -5991
▁분신 -5992
▁유나이티 -5993
▁플라이 -5994
▁초록 -5995
▁CJ -5996
▁준우 -5997
테르 -5998
▁얻어 -5999
▁Pro -6000
▁명단 -6001
▁ㅂㅜㄹ -6002
소녀 -6003
▁궤도 -6004
▁스펠 -6005
▁탄환 -6006
▁하츠 -6007
▁윌리엄 -6008
▁이토 -6009
▁that -6010
▁종목 -6011
▁상기 -6012
▁훼 -6013
▁확대 -6014
▁ㅈㅏㄹㄹㅏ -6015
▁씬 -6016
▁교황 -6017
▁챙 -6018
▁유적 -6019
▁나츠 -6020
▁ㅋㅗ -6021
▁경로 -6022
▁토벌 -6023
▁브루 -6024
▁쭉 -6025
▁분대 -6026
게임 -6027
▁글로벌 -6028
▁밍 -6029
▁악명 -6030
▁왠지 -6031
▁말투 -6032
▁ㅆㅏㅎ -6033
▁출입 -6034
▁페널 -6035
▁Fl -6036
하면 -6037
▁권리 -6038
▁복구 -6039
▁업로드 -6040
▁이식 -6041
▁코멘트 -6042
0000 -6043
▁1970 -6044
ory -6045
▁외계인 -6046
우마 -6047
▁건조 -6048
▁식민 -6049
▁은신 -6050
▁도박 -6051
▁난입 -6052
▁대선 -6053
▁트랜스 -6054
▁태평 -6055
▁레딧 -6056
▁옳 -6057
정부 -6058
▁장탄 -6059
▁간접 -6060
▁Br -6061
▁아미 -6062
▁;& -6063
▁ㄷㅜㄹㄹㅓ -6064
▁형상 -6065
▁anchor -6066
▁연맹 -6067
▁ㅌㅣ -6068
▁와일드 -6069
▁레슬 -6070
▁신전 -6071
▁시라 -6072
▁디스크 -6073
▁ㄴㅗㄹㄹ -6074
ㅢㄴ -6075
▁양성 -6076
▁하향 -6077
▁윗 -6078
▁발달 -6079
▁끔 -6080
▁소유자 -6081
▁적합 -6082
▁구글 -6083
▁불사 -6084
▁연극 -6085
▁라이플 -6086
▁이펙트 -6087
▁드라이버 -6088
▁얀 -6089
▁일치 -6090
▁이드 -6091
▁도라 -6092
▁김대 -6093
▁제약 -6094
▁이수 -6095
▁짤 -6096
▁아메리카 -6097
▁흰 -6098
▁릴리 -6099
▁그램 -6100
▁WWE -6101
▁미키 -6102
▁전이 -6103
▁&# -6104
ㅈㅎㅕ -6105
▁자라 -6106
▁동인 -6107
▁유독 -6108
▁천만 -6109
▁가방 -6110
▁사후 -6111
▁크림 -6112
▁화재 -6113
▁팬텀 -6114
▁명확 -6115
IP -6116
ㅅㅓㄹ -6117
▁정황 -6118
▁로얄 -6119
▁매장 -6120
▁강점 -6121
▁주택 -6122
▁리뷰 -6123
▁할인 -6124
▁숨기 -6125
▁170 -6126
▁ㅂㅏㄴㅎㅐ -6127
IG -6128
ㅈㅜㄹ -6129
▁Or -6130
UM -6131
▁울프 -6132
▁리스크 -6133
▁ㅂㅣㄹㄹㅕ -6134
▁곳곳 -6135
▁헌법 -6136
포트 -6137
▁고개 -6138
▁이민 -6139
▁딕 -6140
▁아키라 -6141
▁비주얼 -6142
리나 -6143
▁문단 -6144
▁하이퍼 -6145
▁운동장 -6146
VD -6147
▁저택 -6148
▁셜 -6149
▁ㅍㅏㄴ -6150
▁마블 -6151
▁렐 -6152
▁다이아몬드 -6153
▁끔찍 -6154
▁단축 -6155
▁le -6156
▁실책 -6157
TE -6158
▁보완 -6159
▁그럭 -6160
▁조별 -6161
▁암시 -6162
▁ㅇㅓㅄ -6163
▁ㅈㅕㅆㅇㅡ -6164
▁야수 -6165
▁메이드 -6166
▁앞두 -6167
▁웨이브 -6168
▁을 -6169
▁치즈 -6170
저럭 -6171
▁by -6172
▁우르 -6173
▁어필 -6174
▁테츠 -6175
▁박물 -6176
▁플래시 -6177
▁평생 -6178
▁승객 -6179
▁충실 -6180
▁1987 -6181
▁금액 -6182
▁그럭저럭 -6183
▁자이언츠 -6184
az -6185
▁언덕 -6186
▁걸맞 -6187
▁원자 -6188
▁~! -6189
▁만남 -6190
▁ㅇㅣㄹㅈㅣ -6191
▁호기 -6192
▁비스 -6193
▁샌드 -6194
가리 -6195
▁Dr -6196
▁헤어 -6197
oth -6198
▁여우 -6199
ep -6200
man -6201
▁상영 -6202
▁고위 -6203
▁백성 -6204
▁;&# -6205
▁항공기 -6206
▁승자 -6207
▁조리 -6208
ㄲㅟㄴㄷㅏ -6209
▁파편 -6210
▁ㅋㅏㄴ -6211
▁스크린 -6212
▁스웨덴 -6213
▁덩치 -6214
▁토너 -6215
ale -6216
OU -6217
▁ㅁㅜㄹ -6218
▁치킨 -6219
▁구리 -6220
▁록맨 -6221
▁ㄹㅠ -6222
▁출격 -6223
▁감각 -6224
▁허락 -6225
ㅂㅎㅏㄴ -6226
데미 -6227
▁위반 -6228
▁불펜 -6229
▁알아 -6230
▁구미 -6231
▁시합 -6232
▁ㅇㅕㅆㅇㅡㄹ -6233
▁토니 -6234
▁성립 -6235
▁트롤 -6236
▁딴 -6237
▁매년 -6238
▁OP -6239
VA -6240
▁ㄱㅔㄴ -6241
▁답변 -6242
▁입대 -6243
▁기동성 -6244
▁상식 -6245
▁권장 -6246
▁평점 -6247
▁뛰어넘 -6248
▁ㄱㅓㄹㄹㅣㄴㄷㅏ -6249
▁마법소녀 -6250
▁축복 -6251
▁에르 -6252
▁필리 -6253
▁ㅇㅣㅀㅇㅓ -6254
▁시원 -6255
▁넘버 -6256
▁언젠 -6257
▁니스 -6258
▁언젠가 -6259
▁ㄷㅓㅅ -6260
▁문재인 -6261
ky -6262
▁킬러 -6263
▁꼼 -6264
비드 -6265
▁호칭 -6266
▁잡아먹 -6267
▁스테이 -6268
▁급격 -6269
▁부자 -6270
▁유학 -6271
▁미네 -6272
▁동성 -6273
▁대수 -6274
▁서구 -6275
▁보드 -6276
▁플래그 -6277
▁아카데미 -6278
ach -6279
arg -6280
▁일대 -6281
▁RPG -6282
▁스즈 -6283
▁사살 -6284
▁스폰 -6285
▁천하 -6286
70 -6287
▁적중 -6288
▁참가자 -6289
▁배트맨 -6290
운서 -6291
▁긴장 -6292
▁토마 -6293
▁기인 -6294
▁나타내 -6295
▁아나운서 -6296
▁우에 -6297
▁집착 -6298
▁관할 -6299
▁탐험 -6300
▁ㄱㅓㄹㅇㅓ -6301
▁Sc -6302
▁시공 -6303
▁노바 -6304
▁작년 -6305
▁1500 -6306
▁퇴장 -6307
▁정하 -6308
▁중형 -6309
ows -6310
▁열매 -6311
▁전주 -6312
▁구름 -6313
ㅁㅗ -6314
▁놓치 -6315
▁교과 -6316
▁ㅃㅗㅂ -6317
▁창고 -6318
▁ㄴㅘㅆ -6319
쟁이 -6320
▁해명 -6321
▁맷 -6322
▁사키 -6323
▁어판 -6324
부르크 -6325
▁내전 -6326
▁ㄱㅏㅈㅊㅜㄴ -6327
▁ㅁㅔㄴ -6328
▁리플 -6329
▁5000 -6330
▁근거리 -6331
▁학기 -6332
▁ㅅㅜㄴ -6333
orm -6334
▁법인 -6335
▁실종 -6336
▁ㅁㅗㄹㄹㅕ -6337
▁케인 -6338
▁결합 -6339
▁서서 -6340
▁고도 -6341
▁정기 -6342
▁용인 -6343
▁팟 -6344
▁선고 -6345
▁ㅎㅢㄴ -6346
▁채보 -6347
▁111 -6348
▁약화 -6349
▁믹스 -6350
▁타쿠 -6351
▁분명히 -6352
▁Team -6353
▁토너먼트 -6354
ish -6355
▁완결 -6356
▁ㄲㅜ -6357
▁그렇지만 -6358
▁경직 -6359
▁천안 -6360
▁ㅁㅜㄹㄹㅓ -6361
▁해안 -6362
▁호시 -6363
▁결투 -6364
▁페이스북 -6365
▁전승 -6366
▁결심 -6367
▁등지 -6368
▁KBO -6369
▁야생 -6370
▁센스 -6371
▁BB -6372
▁발렌 -6373
▁호흡 -6374
▁}} -6375
▁꿀 -6376
ae -6377
군다 -6378
▁정차 -6379
▁흑인 -6380
▁ㅇㅓㅄㅇ -6381
▁랄 -6382
GE -6383
▁럼 -6384
▁마스크 -6385
▁생명체 -6386
▁막내 -6387
▁암살자 -6388
▁치르 -6389
▁본사 -6390
▁ㅈㅜㄱㅇㅕㅆ -6391
▁솜 -6392
ook -6393
▁동아리 -6394
▁내일 -6395
▁동점 -6396
▁박물관 -6397
▁불교 -6398
▁베타 -6399
▁엔드 -6400
▁변환 -6401
▁ㄲㅡㄹㄹㅕ -6402
▁커녕 -6403
▁겹치 -6404
▁보이스 -6405
▁악몽 -6406
Hz -6407
▁슬라이 -6408
▁본진 -6409
▁연습생 -6410
ug -6411
▁연합군 -6412
▁수능 -6413
▁스위치 -6414
ade -6415
▁와타 -6416
▁베리 -6417
▁불타 -6418
▁지팡이 -6419
▁우정 -6420
▁파르 -6421
▁마우스 -6422
▁괜히 -6423
▁떠올리 -6424
ile -6425
▁쓰러뜨리 -6426
무시 -6427
▁지위 -6428
▁인디 -6429
▁기운 -6430
▁면적 -6431
▁휘두르 -6432
▁소음 -6433
▁침묵 -6434
ㅃㅓ -6435
커스 -6436
▁FIFA -6437
yle -6438
▁장인 -6439
▁사용자 -6440
rom -6441
▁헝 -6442
▁근본 -6443
▁뮤지컬 -6444
일보 -6445
▁초인 -6446
▁침입 -6447
▁침략 -6448
▁크레 -6449
▁유발 -6450
▁통계 -6451
▁키타 -6452
▁솔직 -6453
▁동급 -6454
irl -6455
▁ㅉㅏㄹ -6456
▁ㅇㅗㄹㄹㅣㄹ -6457
▁ㅣ -6458
▁관리자 -6459
ash -6460
▁한쪽 -6461
ower -6462
▁대왕 -6463
▁유력 -6464
▁서클 -6465
▁트리플 -6466
▁참모 -6467
▁부실 -6468
▁통화 -6469
▁지진 -6470
▁wiki -6471
▁무작위 -6472
▁알아보 -6473
▁영광 -6474
▁타석 -6475
▁임팩트 -6476
▁CH -6477
▁1986 -6478
▁법정 -6479
ink -6480
▁사인 -6481
▁선두 -6482
▁유격 -6483
▁우타 -6484
▁싹 -6485
▁프리미엄 -6486
▁출구 -6487
▁새롭 -6488
▁소방 -6489
▁돌입 -6490
▁노스 -6491
▁FW -6492
프리 -6493
▁CG -6494
▁따라가 -6495
▁인피 -6496
데드 -6497
▁헐 -6498
반도 -6499
▁수급 -6500
▁수비력 -6501
▁ㄱㅓㄴㄱㅏ -6502
▁마물 -6503
▁가죽 -6504
TS -6505
▁디젤 -6506
▁리카 -6507
▁지불 -6508
▁가디언 -6509
▁채택 -6510
▁무시무시 -6511
▁끈 -6512
atch -6513
▁간간 -6514
IM -6515
▁스쿨 -6516
▁재정 -6517
▁언데드 -6518
▁대거 -6519
▁허가 -6520
▁세팅 -6521
▁삽입 -6522
▁폐쇄 -6523
▁보험 -6524
▁썬더 -6525
▁부서 -6526
▁철수 -6527
▁벙 -6528
▁토시 -6529
▁콜로 -6530
▁신발 -6531
CG -6532
▁교도 -6533
▁무관 -6534
▁창원 -6535
▁DD -6536
▁안개 -6537
려들 -6538
▁히라 -6539
▁균형 -6540
▁핑크 -6541
▁남북 -6542
▁감지 -6543
ial -6544
▁포켓몬스터 -6545
▁ㄱㅓㄹㄹㅕㅆ -6546
▁바디 -6547
sh -6548
▁몽골 -6549
▁we -6550
▁통치 -6551
▁ㅁㅏㅇㅎㅐㅆ -6552
군다나 -6553
부로 -6554
▁고블린 -6555
▁인력 -6556
▁임신 -6557
▁경남 -6558
▁판결 -6559
▁비전 -6560
▁뿜 -6561
▁데모 -6562
▁ㄴㅜㄴ -6563
▁인방 -6564
머스 -6565
▁격차 -6566
은행 -6567
▁배포 -6568
▁막판 -6569
▁리프 -6570
▁쓰러지 -6571
▁텟 -6572
▁항복 -6573
▁인종 -6574
▁트럼프 -6575
▁War -6576
▁더군다나 -6577
센트 -6578
▁관계자 -6579
▁인질 -6580
여객 -6581
▁철저 -6582
▁ID -6583
▁여주 -6584
▁아끼 -6585
▁제정 -6586
▁이타 -6587
▁스파이더 -6588
▁ㄲㅡㄶ -6589
▁Star -6590
▁단원 -6591
ㄷㅣㄴㄱㅏ -6592
▁도망가 -6593
▁쿠라 -6594
▁인용 -6595
▁체인지 -6596
▁코르 -6597
▁의외로 -6598
래시 -6599
▁아틀 -6600
▁이혼 -6601
▁남매 -6602
ㄷㅡㄴㅈㅣ -6603
▁출루 -6604
▁존경 -6605
▁김경 -6606
▁골렘 -6607
▁고구려 -6608
▁투스 -6609
▁복선 -6610
▁여러분 -6611
ㄹㅏㅆ -6612
먼스 -6613
▁개설 -6614
▁후계자 -6615
전차 -6616
▁복제 -6617
▁ㄷㅓㅅㅂㅜㅌ -6618
▁106 -6619
▁유인 -6620
▁뻗 -6621
▁팁 -6622
▁중복 -6623
▁일본군 -6624
▁메이플 -6625
▁동양 -6626
▁읍 -6627
▁LA -6628
▁가라 -6629
▁오늘날 -6630
▁반박 -6631
▁살아가 -6632
ㄴㅣㄴㄷㅔ -6633
리스트 -6634
▁예수 -6635
▁영원히 -6636
코드 -6637
▁백인 -6638
▁동명 -6639
▁수면 -6640
▁학습 -6641
ㅅㅕ -6642
▁포위 -6643
▁일당 -6644
▁매번 -6645
▁에픽 -6646
▁이글 -6647
▁포르투갈 -6648
▁스트레스 -6649
▁돌려 -6650
▁그린 -6651
▁캐치 -6652
▁준우승 -6653
▁티아 -6654
▁챌린지 -6655
▁소송 -6656
▁선행 -6657
▁아테 -6658
▁ㅁㅏㄹ -6659
▁국당 -6660
▁무사히 -6661
카이 -6662
▁up -6663
▁레지 -6664
▁장신 -6665
▁미나미 -6666
필드 -6667
▁해머 -6668
ㅇㅕㅆㅇㅡ -6669
▁거듭 -6670
▁기세 -6671
ㅈㅜ -6672
ㄲㅕㅆ -6673
▁수출 -6674
▁물량 -6675
천시 -6676
▁물고기 -6677
오루 -6678
▁토크 -6679
▁오디션 -6680
▁DVD -6681
▁옮 -6682
▁깨달 -6683
키지 -6684
▁네트워크 -6685
▁보충 -6686
▁미만 -6687
▁PR -6688
▁무너지 -6689
▁닉네임 -6690
▁귀엽 -6691
▁탕 -6692
▁기상 -6693
▁보건 -6694
▁ㄲㅡㅌㄴㅏㄴㄷㅏ -6695
▁멜로디 -6696
▁대책 -6697
▁ㅅㅕ -6698
▁라라 -6699
▁어이 -6700
▁개업 -6701
▁코난 -6702
▁버섯 -6703
▁시크 -6704
▁오키 -6705
▁이주 -6706
▁간단히 -6707
▁ON -6708
▁115 -6709
▁오우 -6710
▁전북 -6711
▁지리 -6712
▁축하 -6713
▁102 -6714
▁코트 -6715
▁나미 -6716
▁중력 -6717
▁상한 -6718
▁하마 -6719
▁피닉스 -6720
▁정통 -6721
▁상담 -6722
▁배정 -6723
▁왜곡 -6724
티스 -6725
▁패키지 -6726
▁가만히 -6727
▁단행 -6728
▁입주 -6729
ㄲㅜㄹ -6730
▁자르 -6731
▁포즈 -6732
▁마다 -6733
▁분열 -6734
▁공업 -6735
▁체험 -6736
▁메이커 -6737
ING -6738
▁오메 -6739
▁fe -6740
▁데이트 -6741
▁수석 -6742
▁즉사 -6743
▁장탄수 -6744
화점 -6745
▁기동전 -6746
▁웰 -6747
▁야마토 -6748
▁여전 -6749
▁Ne -6750
ous -6751
▁악기 -6752
▁만만 -6753
▁후원 -6754
▁잠입 -6755
▁배역 -6756
▁벨트 -6757
▁혼돈 -6758
▁For -6759
amp -6760
▁ㅇㅔㄹ -6761
▁뽀 -6762
▁기재 -6763
▁플러스 -6764
▁트릭 -6765
att -6766
▁마드리 -6767
▁처분 -6768
▁해킹 -6769
▁진압 -6770
▁리오 -6771
▁}}} -6772
▁서포트 -6773
▁자전거 -6774
▁사령부 -6775
▁아랍 -6776
▁Go -6777
세대 -6778
▁콘텐츠 -6779
▁ㄱㅓㄴㄴㅓ -6780
▁ㄷㅡㄹㅇㅡ -6781
▁선제 -6782
▁장거리 -6783
▁And -6784
▁항의 -6785
ㄱㅗㄴ -6786
▁닛 -6787
▁야구장 -6788
▁퍼포 -6789
▁정발 -6790
▁유산 -6791
▁퍼포먼스 -6792
자와 -6793
▁기갑 -6794
▁돔 -6795
▁마드리드 -6796
▁대포 -6797
게이 -6798
▁파이트 -6799
▁고리 -6800
▁성전 -6801
▁억지로 -6802
▁GP -6803
▁도감 -6804
▁자본 -6805
야수 -6806
▁수백 -6807
▁175 -6808
▁라그 -6809
▁세부 -6810
▁ㅈㅏㄹ -6811
▁기름 -6812
▁Cr -6813
▁호랑이 -6814
▁수명 -6815
▁사이코 -6816
▁ㄹㅠㄴ -6817
▁블라 -6818
▁악화 -6819
▁파멸 -6820
▁Wind -6821
▁오스트리아 -6822
▁토키 -6823
▁파동 -6824
▁가공 -6825
▁유미 -6826
▁ㅂㅏㄺㅎㅣㄴ -6827
▁188 -6828
▁주니어 -6829
▁탐정 -6830
▁분쟁 -6831
▁신입 -6832
▁통로 -6833
아키 -6834
▁ㄱㅡㄹㄹㅓ -6835
me -6836
▁김상 -6837
▁옹호 -6838
▁젤리 -6839
▁신나 -6840
붙이 -6841
▁파생 -6842
하시 -6843
▁첼시 -6844
▁1985 -6845
▁wid -6846
▁배달 -6847
▁모험가 -6848
▁". -6849
▁이스라 -6850
▁디즈 -6851
▁무술 -6852
▁대치 -6853
▁세포 -6854
▁프레이 -6855
▁분해 -6856
▁조약 -6857
▁전제 -6858
▁우세 -6859
크로 -6860
ms -6861
▁최상위 -6862
▁모터 -6863
▁산하 -6864
▁유성 -6865
바닥 -6866
▁공정 -6867
▁광선 -6868
▁논의 -6869
AY -6870
▁진주 -6871
▁bl -6872
64 -6873
가드 -6874
텐도 -6875
▁시트 -6876
▁기력 -6877
▁노조 -6878
▁닌텐도 -6879
▁장미 -6880
▁차체 -6881
▁ㅊㅣㄴㄷㅏ -6882
▁무스 -6883
▁마코토 -6884
▁커지 -6885
▁위안 -6886
▁재회 -6887
▁ㄷㅡㄹㅇㅕ -6888
▁터스 -6889
▁강원도 -6890
▁박지 -6891
ㄹㄹㅐ -6892
▁버드 -6893
▁처참 -6894
▁부착 -6895
▁증폭 -6896
▁궁금 -6897
▁규격 -6898
▁후손 -6899
▁체감 -6900
▁금메달 -6901
▁레일 -6902
▁조이 -6903
▁width -6904
▁조우 -6905
▁진학 -6906
▁김진 -6907
▁깜짝 -6908
ㄹㄹㅣㅁ -6909
▁아르헨 -6910
▁ㄴㅡㄹㄹㅕ -6911
▁행방 -6912
▁여학생 -6913
▁al -6914
▁나비 -6915
▁그날 -6916
▁롬 -6917
12 -6918
ib -6919
ft -6920
▁나기 -6921
▁양상 -6922
▁고로 -6923
▁350 -6924
▁Gam -6925
▁히가시 -6926
▁드루 -6927
▁즈음 -6928
▁업계 -6929
▁아동 -6930
▁독재 -6931
▁리온 -6932
▁퍼지 -6933
▁조기 -6934
now -6935
▁니콜 -6936
ㄷㅣ -6937
▁시카 -6938
▁PP -6939
▁검술 -6940
ㅟㄴ -6941
▁방치 -6942
▁휘하 -6943
▁들어서 -6944
▁ㅊㅣㄴㅎㅐ -6945
▁띠 -6946
▁카구 -6947
▁난사 -6948
▁전파 -6949
벌레 -6950
▁BS -6951
▁주둔 -6952
▁훈장 -6953
▁개발자 -6954
▁아르헨티나 -6955
▁무인 -6956
▁폭행 -6957
▁파란색 -6958
▁IN -6959
▁베네 -6960
ps -6961
▁반부 -6962
▁경주 -6963
▁브레 -6964
▁스트리트 -6965
▁듀오 -6966
ㅂㅗㄴ -6967
▁공수 -6968
▁전동 -6969
▁ㄱㅕㅂㅊㅕ -6970
▁톨 -6971
▁비웃 -6972
oll -6973
▁페널티 -6974
아이 -6975
▁ㅊㅣㄴㅎㅏㄴ -6976
▁스탠드 -6977
▁ㅅㅗㄱㅎㅏㄴㄷㅏ -6978
▁한두 -6979
▁방송국 -6980
▁저지르 -6981
비전 -6982
▁BR -6983
▁관점 -6984
▁소요 -6985
▁측정 -6986
MP -6987
▁전무 -6988
▁토큰 -6989
▁기원전 -6990
렐라 -6991
▁1984 -6992
▁감상 -6993
▁Man -6994
▁제독 -6995
▁이온 -6996
▁AKB -6997
▁벼 -6998
▁베테 -6999
▁운수 -7000
히코 -7001
▁중세 -7002
▁세인트 -7003
▁국판 -7004
▁질투 -7005
▁능력자 -7006
▁김기 -7007
▁오염 -7008
▁중장 -7009
▁ㄱㅏㅁ -7010
▁택시 -7011
▁산탄 -7012
▁면허 -7013
▁승무원 -7014
▁조커 -7015
▁시상 -7016
▁지사 -7017
승부 -7018
▁왜냐 -7019
▁사귀 -7020
▁마냥 -7021
▁루스 -7022
▁최적 -7023
TV -7024
▁이라 -7025
▁우치 -7026
pl -7027
▁UN -7028
▁All -7029
▁유니크 -7030
▁불량 -7031
▁부사 -7032
▁늘리 -7033
▁드론 -7034
▁이스라엘 -7035
▁후자 -7036
▁혈액형 -7037
▁감동 -7038
▁닝 -7039
▁루머 -7040
태프 -7041
▁피트 -7042
▁나루토 -7043
▁괴롭 -7044
▁위성 -7045
▁대단히 -7046
▁트루 -7047
▁아레나 -7048
▁선거구 -7049
▁기장 -7050
▁이종 -7051
▁스캔 -7052
▁약탈 -7053
▁코마 -7054
▁Part -7055
▁스텝 -7056
▁도저히 -7057
ㅋㅣ -7058
▁브로 -7059
▁신도 -7060
▁아시안 -7061
▁디바 -7062
▁발목 -7063
▁KR -7064
▁ㅂㅐㄴ -7065
▁자꾸 -7066
▁SU -7067
▁주행 -7068
▁창단 -7069
▁베기 -7070
신교 -7071
▁에디 -7072
▁ㅎㅣ -7073
▁광장 -7074
▁En -7075
▁철권 -7076
▁상관없이 -7077
▁우월 -7078
▁하하 -7079
▁바론 -7080
카락 -7081
▁112 -7082
▁다운로드 -7083
▁머리카락 -7084
▁룩 -7085
▁샷건 -7086
▁ㅅㅣㅂㅅㅣ -7087
▁루이스 -7088
▁내려오 -7089
▁분당 -7090
ㄱㅡ -7091
▁남아 -7092
▁자비 -7093
ond -7094
▁선보이 -7095
▁맡기 -7096
▁옮기 -7097
세서 -7098
▁후퇴 -7099
▁루크 -7100
▁명의 -7101
▁달라지 -7102
▁식민지 -7103
▁Sup -7104
▁까이 -7105
▁왕위 -7106
번에 -7107
▁나노 -7108
▁연고 -7109
▁프렌 -7110
▁DC -7111
▁일화 -7112
▁야간 -7113
▁서서히 -7114
▁Fate -7115
▁찢 -7116
▁ㅊㅣㄹ -7117
▁줄거리 -7118
경기 -7119
▁둠 -7120
▁과도 -7121
▁아가씨 -7122
▁기둥 -7123
▁노가 -7124
▁토미 -7125
▁Mar -7126
▁제출 -7127
▁대시 -7128
▁더빙 -7129
▁라이너 -7130
▁자녀 -7131
▁투척 -7132
▁돌연 -7133
▁공백 -7134
▁쇼핑 -7135
▁ㄷㅓㄴㄱㅏ -7136
▁원리 -7137
▁타이거즈 -7138
▁ex -7139
▁소용 -7140
▁엑시 -7141
▁간호 -7142
▁철거 -7143
▁LP -7144
▁듀스 -7145
▁캣 -7146
▁루피 -7147
▁드림 -7148
▁108 -7149
ㄹㅜㄴㄷㅏ -7150
▁굵 -7151
▁마감 -7152
▁요인 -7153
▁힐러 -7154
▁수월 -7155
▁AN -7156
ase -7157
▁전망 -7158
▁이란 -7159
▁중시 -7160
▁라이온즈 -7161
▁보존 -7162
▁고증 -7163
▁ㅎㅑㅇㅎㅏㄴ -7164
데레 -7165
▁특급 -7166
ool -7167
▁뻥 -7168
▁조롱 -7169
▁틴 -7170
▁조용히 -7171
▁오락 -7172
▁얻어맞 -7173
▁프란 -7174
▁합계 -7175
도리 -7176
키퍼 -7177
▁sp -7178
▁절차 -7179
▁온천 -7180
ㄲㅜㄴ -7181
▁시바 -7182
▁쇼크 -7183
▁평일 -7184
▁장사 -7185
▁배급 -7186
필더 -7187
▁미드필더 -7188
▁닐 -7189
▁스리 -7190
▁시외 -7191
▁360 -7192
▁무산 -7193
▁몫 -7194
▁수동 -7195
▁식품 -7196
▁합병 -7197
▁원조 -7198
▁백작 -7199
▁비명 -7200
ㅌㅡ -7201
▁배드 -7202
▁생애 -7203
▁모로 -7204
▁117 -7205
▁저하 -7206
유럽 -7207
▁주류 -7208
▁이나 -7209
▁범죄자 -7210
▁긴급 -7211
▁시신 -7212
▁타일 -7213
▁막히 -7214
▁안양 -7215
▁유재 -7216
▁One -7217
▁걸즈 -7218
투스 -7219
▁막상 -7220
▁킷 -7221
▁고객 -7222
▁마계 -7223
▁와카 -7224
▁잠실 -7225
우리 -7226
▁인권 -7227
런트 -7228
▁처지 -7229
▁꼬마 -7230
▁오이 -7231
▁뒤늦 -7232
▁세라 -7233
▁청와 -7234
▁실장 -7235
▁복합 -7236
▁스포일러 -7237
ㅇㅘㅆㅇㅡ -7238
▁빅토 -7239
▁에릭 -7240
▁샤이 -7241
▁챙기 -7242
블로 -7243
▁우유 -7244
▁지칭 -7245
▁여인 -7246
▁확장팩 -7247
▁러시 -7248
▁에반 -7249
▁카시 -7250
▁증상 -7251
▁수색 -7252
▁낙하 -7253
▁발굴 -7254
산시 -7255
▁로빈 -7256
▁실은 -7257
어놓 -7258
▁방위 -7259
▁교단 -7260
▁강림 -7261
▁직장 -7262
▁골키퍼 -7263
▁아아 -7264
▁공인 -7265
▁호소 -7266
▁ㅂㅓㄴ -7267
▁어시스트 -7268
▁코스튬 -7269
▁달하 -7270
▁팡 -7271
▁만일 -7272
▁성당 -7273
▁예고편 -7274
▁의자 -7275
▁ㅇㅗㅂ -7276
ree -7277
▁개별 -7278
▁청와대 -7279
ph -7280
▁ㅍㅏㄹ -7281
▁로이 -7282
▁부임 -7283
▁ㅂㅕㄴㅎㅐ -7284
▁경악 -7285
▁기묘 -7286
▁임금 -7287
▁배수 -7288
하르트 -7289
▁여고 -7290
▁고소 -7291
ㄷㅚ -7292
▁포스터 -7293
▁미루 -7294
▁뱅크 -7295
▁청주 -7296
▁As -7297
▁폭파 -7298
▁유의 -7299
플레이 -7300
▁교복 -7301
▁히든 -7302
▁비치 -7303
▁New -7304
▁거북 -7305
▁로버트 -7306
ason -7307
▁그라운드 -7308
▁ㄱㅘㄴㅎㅐ -7309
▁하이라이트 -7310
▁학생회 -7311
▁개장 -7312
▁ㅇㅜㅅ -7313
▁나폴 -7314
▁붐 -7315
▁바스 -7316
▁당당 -7317
▁국경 -7318
카이도 -7319
▁ㄴㅔㄴ -7320
▁리즈 -7321
▁뱃 -7322
aby -7323
▁특별히 -7324
▁며칠 -7325
틀러 -7326
▁통틀 -7327
▁프린세스 -7328
▁ㅎㅣㅁㄷㅡㄹ -7329
▁헨리 -7330
▁Oh -7331
학자 -7332
리온 -7333
▁103 -7334
▁꽉 -7335
▁케이드 -7336
▁아이러 -7337
▁도트 -7338
▁여객 -7339
▁퍼즐 -7340
저리 -7341
▁막아내 -7342
ai -7343
▁조명 -7344
▁GO -7345
▁수염 -7346
▁오로지 -7347
▁FM -7348
도르 -7349
▁회담 -7350
▁선사 -7351
▁실존 -7352
▁JP -7353
▁렌즈 -7354
▁트레일러 -7355
▁흰색 -7356
▁ㄷㅡㄹㄹㅕ -7357
불호 -7358
▁호불호 -7359
▁그레 -7360
▁개신교 -7361
▁비스트 -7362
▁술사 -7363
▁후회 -7364
▁집어넣 -7365
▁모집 -7366
▁220 -7367
▁휠 -7368
▁명백 -7369
베스 -7370
릴라 -7371
▁쓸데 -7372
ment -7373
▁에로 -7374
▁사야 -7375
불명 -7376
▁극도 -7377
▁시로 -7378
▁뜬금없이 -7379
▁보라색 -7380
러그 -7381
▁ㅅㅔㄹ -7382
▁양손 -7383
ㄹㅜㄹ -7384
▁1960 -7385
▁마케 -7386
▁매출 -7387
ㅇㅏㅅ -7388
크라 -7389
▁유기 -7390
▁끊임 -7391
▁동경 -7392
▁역습 -7393
▁CS -7394
▁관찰 -7395
▁오더 -7396
▁캘 -7397
▁올스타 -7398
▁부동 -7399
▁z -7400
▁성질 -7401
아나 -7402
▁라즈 -7403
▁프로토 -7404
▁유언 -7405
▁셔틀 -7406
▁트레이너 -7407
▁라크 -7408
▁불행 -7409
▁240 -7410
▁엿 -7411
▁모듈 -7412
▁되게 -7413
▁어쩌면 -7414
▁심의 -7415
▁바지 -7416
▁원곡 -7417
▁tv -7418
▁UE -7419
▁윈드 -7420
▁캐시 -7421
oon -7422
▁코미디 -7423
▁흔들리 -7424
▁회색 -7425
▁오브젝트 -7426
▁과학자 -7427
▁찾아가 -7428
그리 -7429
▁우주선 -7430
▁샵 -7431
▁타르 -7432
▁un -7433
▁장로 -7434
▁찾아보 -7435
▁128 -7436
▁타이탄 -7437
에이 -7438
▁초콜 -7439
▁웨스트 -7440
▁지인 -7441
▁무섭 -7442
▁항구 -7443
▁잡아내 -7444
▁손상 -7445
▁법칙 -7446
▁나스 -7447
키아 -7448
▁그거 -7449
마크 -7450
▁여파 -7451
▁떠오르 -7452
▁이와 -7453
MS -7454
▁드로우 -7455
90 -7456
▁결계 -7457
▁에서 -7458
▁연봉 -7459
▁물품 -7460
▁홀드 -7461
▁포탄 -7462
▁지향 -7463
▁구르 -7464
▁폐기 -7465
베이 -7466
▁이글스 -7467
▁풋 -7468
▁우즈 -7469
▁비유 -7470
ㄴㅑㅇ -7471
돌이 -7472
ㄸㅓㄹ -7473
ㅍㅏ -7474
싱턴 -7475
act -7476
▁유망 -7477
ox -7478
▁유출 -7479
▁김용 -7480
▁광산 -7481
▁엘리자 -7482
▁ㅁㅏㅈㅅㅓ -7483
▁건국 -7484
▁세뇌 -7485
▁각오 -7486
▁국정 -7487
▁갤러 -7488
▁손실 -7489
▁무승부 -7490
ARD -7491
▁신선 -7492
▁제네 -7493
▁진격 -7494
▁맥주 -7495
▁코믹 -7496
▁ㄷㅏㅁㄱㅣㄴ -7497
▁갈아 -7498
▁알라 -7499
▁중순 -7500
▁국장 -7501
▁슬로 -7502
▁워크래프트 -7503
▁포장 -7504
▁무공 -7505
▁브라운 -7506
▁장판 -7507
라노 -7508
▁즉위 -7509
hen -7510
▁늙 -7511
▁임기 -7512
▁패전 -7513
▁발리 -7514
▁가져오 -7515
▁트랩 -7516
▁랑 -7517
▁따뜻 -7518
▁엄밀 -7519
▁치열 -7520
▁우드 -7521
▁%/ -7522
▁클론 -7523
ㅇㅗㄹㄹㅏ -7524
▁TVA -7525
▁제갈량 -7526
▁모스 -7527
▁단기 -7528
▁추리 -7529
토스 -7530
거지 -7531
▁아바타 -7532
▁네티 -7533
▁짐승 -7534
▁서머 -7535
▁노동자 -7536
러나 -7537
저기 -7538
▁스핀 -7539
▁태어나 -7540
▁최우 -7541
▁탐지 -7542
▁섀도우 -7543
▁쿤 -7544
▁커스텀 -7545
메이 -7546
▁반감 -7547
▁ㅇㅕㄴ -7548
▁썰 -7549
ank -7550
▁영지 -7551
▁나나 -7552
▁계수 -7553
▁하스 -7554
▁사이클 -7555
▁로이드 -7556
▁트로피 -7557
▁리안 -7558
▁관통력 -7559
▁함부로 -7560
▁라틴 -7561
ㅈㅝ -7562
▁하프 -7563
▁튼 -7564
▁간주 -7565
▁여기저기 -7566
▁기수 -7567
▁양자 -7568
▁이웃 -7569
▁World -7570
▁트리거 -7571
▁독점 -7572
▁신데 -7573
ㄲㅣㄴ -7574
▁신용 -7575
우치 -7576
▁배려 -7577
ich -7578
▁소프트웨어 -7579
▁원더 -7580
ary -7581
▁ㄲㅡㅁ -7582
lect -7583
▁김준 -7584
▁백제 -7585
▁일요일 -7586
▁키라 -7587
▁레온 -7588
▁단종 -7589
▁사립 -7590
깨비 -7591
▁합리 -7592
▁방탄 -7593
▁알렉스 -7594
▁생전 -7595
▁스나이 -7596
▁ㅅㅐㅇㄱㅣㄹ -7597
▁JT -7598
▁지연 -7599
▁콤비 -7600
▁아쉬 -7601
▁챔피언십 -7602
▁장난감 -7603
▁디즈니 -7604
▁당대 -7605
▁안심 -7606
▁프라임 -7607
▁신자 -7608
▁토요일 -7609
▁1982 -7610
▁Mk -7611
▁옐 -7612
포르 -7613
ife -7614
▁단검 -7615
▁먹히 -7616
▁여럿 -7617
펴보 -7618
▁살펴보 -7619
▁대조 -7620
▁태평양 -7621
▁트라우마 -7622
▁날씨 -7623
더라 -7624
▁끌어 -7625
▁빨간 -7626
▁야쿠 -7627
▁태국 -7628
▁후미 -7629
▁시인 -7630
▁아이러니 -7631
ear -7632
▁신데렐라 -7633
▁우익 -7634
▁벤치 -7635
▁방송사 -7636
▁카더라 -7637
▁이모 -7638
▁나르 -7639
▁상륙 -7640
▁휴가 -7641
보내 -7642
▁때려 -7643
▁리버풀 -7644
▁마땅 -7645
▁네티즌 -7646
▁신속 -7647
ㄷㅝㅆ -7648
uk -7649
▁혜택 -7650
▁센서 -7651
▁손오 -7652
에르 -7653
ㅡㄹㄹㅕㅆ -7654
▁시비 -7655
▁음료 -7656
블리 -7657
반기 -7658
▁스트라이커 -7659
▁서바이 -7660
ㅂㅎㅣㄴㄷㅏ -7661
▁LIVE -7662
▁스피릿 -7663
▁쉴 -7664
▁서기 -7665
하마 -7666
▁디시 -7667
ET -7668
렉션 -7669
란히 -7670
▁동속 -7671
▁파밍 -7672
▁선임 -7673
▁추세 -7674
▁주어지 -7675
▁SF -7676
▁도장 -7677
▁수습 -7678
11 -7679
▁ㅎㅏㄹㄲㅏ -7680
▁실내 -7681
▁사법 -7682
▁라스트 -7683
▁키보드 -7684
▁슬라 -7685
▁버스트 -7686
▁근원 -7687
▁막강 -7688
▁의학 -7689
ㅂㅗㄴㄷㅏ -7690
▁권유 -7691
▁김해 -7692
ㅈㅣㅁ -7693
▁ㅇㅜㄹ -7694
way -7695
▁185 -7696
▁변수 -7697
▁돋 -7698
▁탭 -7699
▁all -7700
▁Day -7701
▁ㄸㅡㄴㄷㅏ -7702
ple -7703
▁벡 -7704
▁시리아 -7705
타카 -7706
▁순양함 -7707
▁결제 -7708
▁뭉 -7709
▁낙선 -7710
▁그만두 -7711
▁ㅍㅜㄹㄹㅕ -7712
▁상사 -7713
▁ㅂㅜㄹㄹㅕㅆ -7714
▁허무 -7715
▁되돌 -7716
▁지목 -7717
▁권위 -7718
ㅁㅏㄹ -7719
키리 -7720
▁전남 -7721
▁지력 -7722
사기 -7723
▁곱 -7724
▁독일군 -7725
쿠라 -7726
▁경북 -7727
▁마카 -7728
▁Fr -7729
▁흡사 -7730
▁니혼 -7731
▁ㅌㅟㅇㄱㅕ -7732
▁기호 -7733
▁후임 -7734
하나 -7735
▁1983 -7736
▁샬 -7737
▁실시간 -7738
▁구조물 -7739
▁갚 -7740
▁약물 -7741
▁배출 -7742
▁표면 -7743
▁스타디 -7744
▁추방 -7745
ㄷㅎㅣㄴ -7746
▁후반기 -7747
▁엽 -7748
▁{{{# -7749
▁lv -7750
▁드레스 -7751
▁파울 -7752
▁울트라맨 -7753
▁로보 -7754
ype -7755
싸움 -7756
▁ㄷㅚㄹㅈㅣ -7757
▁선장 -7758
노리 -7759
▁아름 -7760
▁극히 -7761
▁경호 -7762
▁매니아 -7763
▁논쟁 -7764
▁근접전 -7765
▁창설 -7766
▁당사자 -7767
▁ㅎㅡㄴㅎㅏㄴ -7768
▁유혹 -7769
▁패밀리 -7770
▁유전자 -7771
▁짐작 -7772
▁포획 -7773
▁119 -7774
ens -7775
▁nd -7776
▁ㅇㅏㅆㅇㅓㅆ -7777
▁조상 -7778
▁역임 -7779
▁페리 -7780
▁간간히 -7781
숭이 -7782
▁성배 -7783
▁진상 -7784
aster -7785
▁강사 -7786
▁고치 -7787
▁둘러보 -7788
▁정석 -7789
▁태클 -7790
▁켜 -7791
▁침대 -7792
▁ㅎㅜㅁㅊㅕ -7793
▁원형 -7794
▁소모량 -7795
orn -7796
▁합동 -7797
ork -7798
▁MB -7799
사리 -7800
▁좌절 -7801
▁감수 -7802
▁범용 -7803
▁몰리 -7804
▁go -7805
▁베어스 -7806
▁전생 -7807
▁시온 -7808
▁마피아 -7809
▁물체 -7810
▁비극 -7811
▁백화점 -7812
▁페어 -7813
▁손오공 -7814
▁ㅅㅜ -7815
▁DPS -7816
▁DP -7817
▁구동 -7818
▁지선 -7819
▁123 -7820
▁104 -7821
스티벌 -7822
▁ㅅㅕㄴ -7823
▁페스티벌 -7824
▁연구원 -7825
▁중상 -7826
▁부스트 -7827
▁특공 -7828
▁Wi -7829
▁집권 -7830
▁퀵 -7831
▁출혈 -7832
▁사무소 -7833
▁해병대 -7834
▁빌딩 -7835
▁Ad -7836
▁Sw -7837
▁미궁 -7838
▁are -7839
▁마트 -7840
▁콘솔 -7841
▁설령 -7842
▁RA -7843
▁낭비 -7844
▁동남 -7845
▁엑시즈 -7846
▁튼튼 -7847
▁삼각 -7848
▁OVA -7849
▁특별시 -7850
▁Up -7851
▁피로 -7852
▁수직 -7853
ans -7854
▁변태 -7855
▁띄우 -7856
▁도리 -7857
▁명목 -7858
▁생체 -7859
▁질병 -7860
▁style -7861
▁109 -7862
▁스태프 -7863
▁의장 -7864
▁정교 -7865
우트 -7866
▁단행본 -7867
▁한반도 -7868
▁헤르 -7869
▁래퍼 -7870
▁바나 -7871
▁강렬 -7872
▁미미 -7873
ons -7874
▁오메가 -7875
▁복원 -7876
▁질주 -7877
▁전날 -7878
▁빨간색 -7879
▁개국 -7880
▁토요 -7881
▁찾아오 -7882
▁호남 -7883
▁사악 -7884
▁AA -7885
▁스즈키 -7886
사이 -7887
▁엄격 -7888
▁쨩 -7889
▁탐색 -7890
▁베테랑 -7891
ey -7892
▁닷 -7893
▁do -7894
▁KOF -7895
버그 -7896
▁관측 -7897
▁하인 -7898
▁직선 -7899
▁동행 -7900
▁ㅍㅕㄹㅊㅕㅆ -7901
▁케이블 -7902
▁실상 -7903
▁공감 -7904
▁공대 -7905
▁걸어 -7906
▁배제 -7907
▁그치 -7908
very -7909
▁ㅈㅠ -7910
▁제물 -7911
▁도깨비 -7912
▁대타 -7913
▁브레이커 -7914
▁리코 -7915
▁스플 -7916
▁데이비드 -7917
ung -7918
▁약자 -7919
▁III -7920
▁본관 -7921
공항 -7922
▁디펜 -7923
▁물려 -7924
▁양반 -7925
▁우측 -7926
▁ES -7927
▁본토 -7928
▁페미니 -7929
▁센트 -7930
▁장성 -7931
▁ㅅㅟㄹ -7932
▁ㅈㅡㄹㄱㅓ -7933
▁스테이션 -7934
▁블로 -7935
▁위로 -7936
▁진급 -7937
▁총합 -7938
▁ㅁㅏㅇㄱㅏ -7939
▁쌀 -7940
▁변동 -7941
▁연쇄 -7942
▁메리트 -7943
▁무실 -7944
NA -7945
▁바둑 -7946
▁광기 -7947
▁앰 -7948
▁마타 -7949
▁잉여 -7950
▁히로시 -7951
▁우호 -7952
▁관여 -7953
▁전격 -7954
▁UEFA -7955
▁거론 -7956
▁비추 -7957
▁전락 -7958
▁라그나 -7959
▁해양 -7960
▁오노 -7961
타입 -7962
렉스 -7963
▁코토 -7964
▁선조 -7965
▁스타디움 -7966
▁단발 -7967
▁앗 -7968
▁워싱턴 -7969
EM -7970
브라 -7971
▁군수 -7972
▁고무 -7973
▁유탄 -7974
▁메일 -7975
▁촉수 -7976
▁위엄 -7977
▁프리미어 -7978
▁구장 -7979
▁훼손 -7980
ㅇㅏㅆ -7981
▁그랑 -7982
나기 -7983
▁에이지 -7984
박스 -7985
▁역명 -7986
▁친절 -7987
▁하급 -7988
▁논문 -7989
▁아스카 -7990
▁ㅇㅡㄹㅅㅜ -7991
능력 -7992
anc -7993
▁축소 -7994
▁세금 -7995
차기 -7996
▁리모 -7997
▁마술사 -7998
▁끼치 -7999
▁다가오 -8000
AK -8001
▁트윈스 -8002
▁할로 -8003
▁응용 -8004
ll -8005
▁백업 -8006
▁장애물 -8007
▁스와 -8008
▁스위스 -8009
▁중지 -8010
▁친하 -8011
ㅋㅏ -8012
▁한창 -8013
▁대박 -8014
▁인재 -8015
▁Windows -8016
▁반짝 -8017
▁마오 -8018
께끼 -8019
▁수수께끼 -8020
▁데빌 -8021
▁민주주의 -8022
▁치카 -8023
▁카를 -8024
▁오지 -8025
▁노란색 -8026
▁경상북도 -8027
▁성실 -8028
▁사리 -8029
▁ne -8030
▁시달리 -8031
▁확산 -8032
▁코바 -8033
▁징역 -8034
▁괴롭히 -8035
▁제왕 -8036
▁최저 -8037
▁원피스 -8038
체스터 -8039
▁구성원 -8040
▁수비수 -8041
▁워크 -8042
▁어색 -8043
▁재학 -8044
▁박살내 -8045
▁강호 -8046
▁키미 -8047
▁명문 -8048
▁차리 -8049
▁취업 -8050
argin -8051
▁겜 -8052
▁소니 -8053
▁땅볼 -8054
▁묘하 -8055
35 -8056
▁카카오 -8057
▁안쪽 -8058
▁as -8059
▁미지 -8060
▁초콜릿 -8061
▁형편 -8062
▁메카닉 -8063
▁대행 -8064
▁츠카 -8065
▁깃발 -8066
▁천연 -8067
▁노가다 -8068
▁윈도우 -8069
▁란스 -8070
▁빈도 -8071
ero -8072
▁힙합 -8073
▁ㅇㅓㅄㅇㅐ -8074
▁이현 -8075
ㄹㄹㅣ -8076
▁산타 -8077
▁en -8078
▁우승자 -8079
▁공통점 -8080
▁짙 -8081
▁포터 -8082
▁역량 -8083
▁승차 -8084
▁유료 -8085
▁강등 -8086
▁여타 -8087
▁고스 -8088
▁해치 -8089
▁ㅅㅑ -8090
▁폴리 -8091
▁가리키 -8092
▁과자 -8093
▁온도 -8094
▁껍 -8095
▁Station -8096
▁우회 -8097
▁중고 -8098
▁썸 -8099
▁인자 -8100
▁레이디 -8101
▁드래곤볼 -8102
▁구독 -8103
▁창문 -8104
▁통칭 -8105
누스 -8106
▁젬 -8107
다보 -8108
▁Ph -8109
▁렉스 -8110
▁187 -8111
▁티스 -8112
▁유망주 -8113
벤처 -8114
▁전당 -8115
▁분산 -8116
▁바르셀 -8117
▁Qu -8118
▁어드벤처 -8119
▁마유 -8120
▁margin -8121
oss -8122
▁리퍼 -8123
▁LO -8124
▁취득 -8125
▁바르셀로나 -8126
▁no -8127
▁부작용 -8128
▁시상식 -8129
▁성씨 -8130
▁퇴각 -8131
▁ㅊㅐㄴ -8132
▁농장 -8133
▁수인 -8134
▁이병 -8135
▁엔지 -8136
ㄴㅡㄴㄷㅔ -8137
지막지 -8138
▁무지막지 -8139
▁So -8140
▁불쌍 -8141
▁스미스 -8142
루미 -8143
▁칭하 -8144
▁ㄴㅏㄹㅋㅏ -8145
모스 -8146
▁발판 -8147
▁동반 -8148
▁루프 -8149
▁ㄷㅗㄹ -8150
▁올드 -8151
▁ㅅㅏㄴㄷㅏ -8152
▁굴욕 -8153
▁크레이 -8154
▁대령 -8155
▁화산 -8156
▁파도 -8157
▁눈치채 -8158
▁클린 -8159
▁봉쇄 -8160
▁ㅈㅡㄹㄱㅕ -8161
▁급행 -8162
▁발행 -8163
▁135 -8164
▁다이스 -8165
▁레이어 -8166
▁스노우 -8167
▁블레이 -8168
▁ML -8169
▁관우 -8170
▁210 -8171
▁로맨 -8172
ise -8173
▁최선 -8174
▁츠바 -8175
▁ㅁㅏㄱ -8176
▁발키리 -8177
동자 -8178
ㄹㅏㄴㄷㅏ -8179
▁규제 -8180
▁대접 -8181
▁카마 -8182
▁렘 -8183
port -8184
pt -8185
▁빙판 -8186
▁요한 -8187
비치 -8188
▁매드 -8189
▁공단 -8190
▁121 -8191
▁젖 -8192
니시 -8193
▁원시 -8194
▁주사위 -8195
▁고장 -8196
▁진에 -8197
▁소재지 -8198
▁어벤 -8199
▁사족 -8200
99 -8201
▁타치 -8202
▁흔하 -8203
▁챔프 -8204
▁머니 -8205
▁정반 -8206
▁후드 -8207
▁결혼식 -8208
▁공산당 -8209
▁오스만 -8210
▁표절 -8211
▁변이 -8212
▁평양 -8213
▁잔인 -8214
ical -8215
▁국무 -8216
▁대전차 -8217
AP -8218
▁톡 -8219
구장 -8220
▁천천 -8221
▁미오 -8222
▁특훈 -8223
▁손님 -8224
▁107 -8225
▁경연 -8226
▁ㅍㅣㄹ -8227
▁겔 -8228
▁아베 -8229
▁와이번 -8230
네마 -8231
▁황후 -8232
▁카리스 -8233
▁예약 -8234
▁Ver -8235
▁피카 -8236
셔널 -8237
▁선출 -8238
▁검열 -8239
▁스케일 -8240
▁쿵 -8241
▁가난 -8242
▁블리자드 -8243
▁쯔 -8244
▁어나 -8245
▁털리 -8246
구미 -8247
▁개척 -8248
▁스택 -8249
▁열혈 -8250
▁시사 -8251
▁수지 -8252
베이터 -8253
▁페어리 -8254
▁신중 -8255
▁강간 -8256
▁게이머 -8257
▁목걸이 -8258
▁MG -8259
ㅅㅝ -8260
▁1981 -8261
ㅟㄴㄷㅏ -8262
▁여포 -8263
▁김수 -8264
ㄷㅚㄴ -8265
▁뮌 -8266
▁엔트리 -8267
▁패자 -8268
▁스타리그 -8269
▁인과 -8270
▁호크 -8271
▁캄 -8272
▁날뛰 -8273
▁인칭 -8274
▁와인 -8275
▁어나더 -8276
리안 -8277
▁여섯 -8278
▁시외버스 -8279
▁이라크 -8280
▁주체 -8281
▁멍청 -8282
▁난무 -8283
▁신동 -8284
ign -8285
▁이대로 -8286
▁프랑스어 -8287
▁사체 -8288
루션 -8289
▁침투 -8290
모함 -8291
▁ㅅㅓㄲㅇㅕ -8292
▁!" -8293
▁-- -8294
리스타 -8295
▁왼손 -8296
▁ㄱㅓㄴㄷㅔ -8297
▁쇄 -8298
▁마인드 -8299
▁천천히 -8300
▁기부 -8301
다운 -8302
▁교토 -8303
▁강경 -8304
▁광물 -8305
▁대성 -8306
▁퍼스트 -8307
▁강민 -8308
▁pl -8309
▁세리 -8310
▁꿰 -8311
▁지수 -8312
▁이순 -8313
▁주관 -8314
▁점검 -8315
게이머 -8316
▁프로게이머 -8317
▁김지 -8318
▁서식 -8319
군가 -8320
▁사관 -8321
▁워프 -8322
▁케빈 -8323
▁슌 -8324
▁ㄷㅓㅅㅂㅜㅌㅇㅕ -8325
▁끊임없이 -8326
▁사수 -8327
▁부재 -8328
테이션 -8329
ㄴㅣㄹㄲㅏ -8330
으로 -8331
▁love -8332
▁조종사 -8333
▁미정 -8334
▁폭스 -8335
▁지오 -8336
▁그레이트 -8337
▁스컬 -8338
▁제재 -8339
▁소금 -8340
▁트윗 -8341
▁타츠 -8342
▁모니터 -8343
▁압권 -8344
하루 -8345
▁이노 -8346
▁ㅉㅗㅊㅇㅏ -8347
▁출간 -8348
▁혈통 -8349
▁미러 -8350
▁소통 -8351
▁누군가 -8352
▁모델링 -8353
▁동해 -8354
▁선진 -8355
▁루리 -8356
▁레인지 -8357
▁김승 -8358
IR -8359
▁무용 -8360
▁스티븐 -8361
▁프론 -8362
▁땡 -8363
▁미국인 -8364
▁중거리 -8365
▁토지 -8366
gh -8367
▁ㅇㅣㄹㄲㅏ -8368
▁레시 -8369
▁고시 -8370
▁TR -8371
▁Sk -8372
▁평론 -8373
▁철갑 -8374
스레 -8375
▁첸 -8376
테일 -8377
▁답답 -8378
▁해산 -8379
▁요미 -8380
센스 -8381
▁덧 -8382
▁크라이 -8383
▁맞붙 -8384
ail -8385
어드 -8386
▁ㅇㅕㄹㄹㅕㅆ -8387
▁페스 -8388
▁아스트 -8389
▁임의 -8390
▁ㅊㅏㄱㅎㅏㄴ -8391
▁첫째 -8392
ㄷㅝ -8393
▁망토 -8394
▁math -8395
▁186 -8396
▁경찰서 -8397
▁용자 -8398
▁리나 -8399
▁장타 -8400
바나 -8401
▁엄연히 -8402
▁냉정 -8403
▁폭격기 -8404
▁너머 -8405
▁명분 -8406
▁알바 -8407
▁자네 -8408
▁이경 -8409
▁점유 -8410
▁흙 -8411
urn -8412
▁개교 -8413
▁주최 -8414
▁구별 -8415
ode -8416
▁친분 -8417
▁ㅍㅕ -8418
▁라이즈 -8419
▁러스 -8420
▁도어 -8421
▁가르치 -8422
▁실사 -8423
▁중동 -8424
▁오죽 -8425
▁자존 -8426
▁재개 -8427
▁마산 -8428
▁플랜 -8429
▁상무 -8430
▁ㄱㅏㄹㄹㅏ -8431
VER -8432
▁JTBC -8433
▁감탄 -8434
▁유니버스 -8435
▁Super -8436
▁보좌 -8437
▁밀어 -8438
ence -8439
어하 -8440
▁To -8441
▁공격수 -8442
▁연산 -8443
▁자제 -8444
민주 -8445
▁화상 -8446
▁처하 -8447
▁크래프트 -8448
▁풍부 -8449
▁( -8450
▁중위 -8451
▁고속도로 -8452
▁하여 -8453
▁항공모함 -8454
▁트릴 -8455
▁이대 -8456
▁122 -8457
추어 -8458
▁떨어 -8459
▁고사 -8460
▁굴리 -8461
▁ㅁㅜㅇ -8462
▁외곽 -8463
▁붓 -8464
▁국제공항 -8465
▁사퇴 -8466
▁열정 -8467
▁Dream -8468
▁BJ -8469
틀랜드 -8470
베리 -8471
▁본능 -8472
▁스폰서 -8473
▁질서 -8474
▁초능력 -8475
▁손쉽 -8476
▁웜 -8477
▁ㅂㅓㄹㅇㅕㅆ -8478
▁=" -8479
▁공속 -8480
▁EC -8481
▁에디션 -8482
▁삼성전자 -8483
▁영감 -8484
▁유입 -8485
▁코노 -8486
▁불능 -8487
▁정신력 -8488
▁LE -8489
▁그릇 -8490
▁검정 -8491
▁꼽히 -8492
▁박성 -8493
!! -8494
▁애칭 -8495
▁지부 -8496
▁맹세 -8497
▁마일 -8498
▁ㅇㅣㅈㅎㅕ -8499
▁시타 -8500
▁EXP -8501
▁라이언 -8502
▁인벤 -8503
▁하나하나 -8504
▁출범 -8505
▁어이없 -8506
▁김유 -8507
▁리틀 -8508
ier -8509
ㄷㅜㄹㄹㅓ -8510
▁변장 -8511
▁홋 -8512
▁몸통 -8513
▁ㅍㅡㄹ -8514
라미 -8515
바지 -8516
▁까마 -8517
▁원숭이 -8518
▁우마 -8519
▁찬성 -8520
▁동정 -8521
배우 -8522
▁김포 -8523
▁저렇 -8524
▁하치 -8525
▁유연 -8526
▁고집 -8527
▁민국 -8528
▁광명 -8529
▁중점 -8530
▁기본기 -8531
의자 -8532
▁법사 -8533
이동 -8534
▁납득 -8535
▁1979 -8536
▁카레 -8537
IX -8538
▁카쿠 -8539
▁평상 -8540
▁기스 -8541
▁곡인 -8542
▁벙커 -8543
▁ㅇㅜㅁㅈㅣㄱㅇㅣㄹ -8544
▁쫒 -8545
▁ㅈㅣㄴㅇㅣ -8546
▁왜냐하면 -8547
▁템플 -8548
▁엘리베이터 -8549
▁에버 -8550
▁쉴드 -8551
▁사무실 -8552
▁워즈 -8553
▁예쁘 -8554
▁카자 -8555
ble -8556
▁극대 -8557
▁근대 -8558
▁145 -8559
▁아쿠아 -8560
▁유치원 -8561
▁엘레 -8562
▁ㅇㅡㄴㅈㅣ -8563
▁체결 -8564
▁로키 -8565
▁히틀러 -8566
▁마모 -8567
▁창작물 -8568
▁장례 -8569
▁브라더스 -8570
ㄲㅝㅆ -8571
▁도색 -8572
▁쿠마 -8573
▁박수 -8574
oun -8575
▁만능 -8576
▁멋대로 -8577
▁광경 -8578
▁총장 -8579
▁무제 -8580
▁카네 -8581
▁ㅂㅕㄴㅎㅐㅆ -8582
▁매주 -8583
▁스가 -8584
▁ㅂㅜㅌㅇㅣㄴ -8585
▁Ap -8586
▁NO -8587
▁부천 -8588
▁블럭 -8589
▁작정 -8590
iver -8591
▁청구 -8592
이나 -8593
▁can -8594
▁토트 -8595
▁기르 -8596
▁워리어 -8597
▁퍽 -8598
▁롤러 -8599
▁113 -8600
▁이어받 -8601
ㄴㅣㄴㅈㅣ -8602
▁튜버 -8603
워즈 -8604
▁모임 -8605
▁165 -8606
▁가이드 -8607
▁쿠니 -8608
▁할리 -8609
▁부근 -8610
▁씨앗 -8611
▁후일 -8612
이치로 -8613
▁펭 -8614
▁일가 -8615
▁투쟁 -8616
▁헬멧 -8617
▁ㅆㅏㄴ -8618
▁출산 -8619
▁왕복 -8620
ott -8621
▁IM -8622
▁확신 -8623
▁ㄱㅜㄴㅇㅛ -8624
▁암호 -8625
▁학급 -8626
▁마운 -8627
▁호러 -8628
▁테이블 -8629
▁조카 -8630
▁슈퍼맨 -8631
ㄷㅡㄹㄱㅕ -8632
▁풍선 -8633
▁무실점 -8634
▁ㅂㅏㄹㄹㅏ -8635
▁싫어하 -8636
▁안타깝 -8637
▁슬픔 -8638
▁144 -8639
▁동전 -8640
▁비틀 -8641
▁실현 -8642
▁터보 -8643
▁이누 -8644
▁복사 -8645
▁글씨 -8646
▁인접 -8647
▁만주 -8648
▁ㄱㅏㄷㅎㅕ -8649
▁레이블 -8650
▁고등학생 -8651
▁스쿼 -8652
▁히스 -8653
▁유격수 -8654
▁명사 -8655
▁방심 -8656
▁사사 -8657
▁이카 -8658
▁마라 -8659
▁엮이 -8660
▁헝가리 -8661
▁1950 -8662
▁IT -8663
역사 -8664
▁브라이언 -8665
들이 -8666
▁항모 -8667
▁비리 -8668
▁포탈 -8669
▁상주 -8670
▁병역 -8671
▁ATK -8672
▁155 -8673
▁Max -8674
▁케이크 -8675
▁운송 -8676
▁아지 -8677
ㅌㅣㄹ -8678
▁CM -8679
▁아처 -8680
▁재앙 -8681
▁니아 -8682
▁사연 -8683
▁유우키 -8684
▁엄밀히 -8685
▁리가 -8686
▁이이 -8687
▁ㄱㅓㅂㄴㅣ -8688
▁변명 -8689
페라 -8690
▁손자 -8691
▁생김 -8692
▁큰 -8693
▁각인 -8694
▁검증 -8695
▁부스 -8696
▁타구 -8697
▁노무 -8698
▁세로 -8699
▁넬 -8700
▁시뮬 -8701
▁연수 -8702
▁ERA -8703
▁엉망 -8704
▁카지 -8705
▁at -8706
▁사투 -8707
▁젼 -8708
▁철저히 -8709
▁닦 -8710
▁BD -8711
▁몰살 -8712
ㄴㅣㅁ -8713
▁깨지 -8714
▁알레 -8715
▁114 -8716
uck -8717
▁기리 -8718
▁방학 -8719
▁연전 -8720
▁인성 -8721
II -8722
▁신지 -8723
▁조국 -8724
자치 -8725
▁영양 -8726
▁상금 -8727
▁독일어 -8728
oh -8729
▁절친 -8730
▁츤 -8731
▁히카 -8732
진호 -8733
▁승인 -8734
▁페르소 -8735
▁통째 -8736
▁시크릿 -8737
페이 -8738
▁화폐 -8739
폭탄 -8740
러가 -8741
슬라 -8742
▁쪼 -8743
▁유재석 -8744
코트 -8745
▁입문 -8746
▁쿠데 -8747
▁바쿠 -8748
▁제니 -8749
▁집회 -8750
▁유메 -8751
▁ㅈㅔㄴ -8752
▁일곱 -8753
▁품질 -8754
▁햇 -8755
▁엔지니어 -8756
▁매트 -8757
▁유카 -8758
▁현금 -8759
▁목사 -8760
야시 -8761
eah -8762
▁천장 -8763
▁원전 -8764
ㅋㅣㅂㄴㅣ -8765
ㅈㅣㄹㄹㅓㅆ -8766
▁바치 -8767
▁옥상 -8768
▁간지 -8769
▁스틱 -8770
▁사나 -8771
▁ㄷㅓㅍ -8772
▁양식 -8773
▁아무튼 -8774
▁제리 -8775
▁마음대로 -8776
세우 -8777
▁쓰리 -8778
▁다큐 -8779
▁간섭 -8780
▁동대 -8781
▁기차 -8782
▁스나이퍼 -8783
ㅐㅆ -8784
▁싸이 -8785
▁리본 -8786
▁전동차 -8787
▁망하 -8788
ㅌㅕ -8789
▁태우 -8790
▁이케 -8791
▁친애 -8792
▁GK -8793
▁할로윈 -8794
▁쿠스 -8795
▁우연 -8796
▁함락 -8797
▁초록색 -8798
▁수위 -8799
▁티저 -8800
▁스카우트 -8801
▁750 -8802
▁ㅊㅜ -8803
▁샐 -8804
▁멧 -8805
▁개구리 -8806
▁시모 -8807
▁혁신 -8808
▁뮌헨 -8809
▁오렌 -8810
▁용암 -8811
▁호드 -8812
▁벅 -8813
▁ㅂㅜㅌㅈㅏ -8814
들리 -8815
▁감자 -8816
▁너스 -8817
▁코스프레 -8818
▁깊이 -8819
▁궁합 -8820
▁스피어 -8821
▁메트로 -8822
주교 -8823
▁정문 -8824
▁뉘 -8825
▁죄책 -8826
▁기동력 -8827
▁아자 -8828
▁전향 -8829
▁참사 -8830
▁성경 -8831
▁사무라이 -8832
케이션 -8833
▁페르소나 -8834
가루 -8835
끼리 -8836
▁마당 -8837
▁this -8838
네시아 -8839
▁승진 -8840
▁부패 -8841
▁..? -8842
▁거지 -8843
▁토대 -8844
방송 -8845
bs -8846
▁종결 -8847
▁스티브 -8848
▁최순 -8849
int -8850
▁녹화 -8851
▁시게 -8852
▁디자이너 -8853
▁아드 -8854
▁화해 -8855
변이 -8856
▁Season -8857
▁돌연변이 -8858
▁평행 -8859
▁이놈 -8860
▁오니 -8861
▁토우 -8862
▁ㄴㅗㅍㅇㅕ -8863
▁미르 -8864
▁OS -8865
▁아리아 -8866
▁러쉬 -8867
▁이력 -8868
▁450 -8869
▁혀 -8870
▁AB -8871
▁HE -8872
▁만점 -8873
▁자율 -8874
▁아오이 -8875
▁한나라 -8876
▁협의 -8877
▁메이지 -8878
▁미성 -8879
▁호의 -8880
▁죄책감 -8881
▁from -8882
▁한나라당 -8883
▁오퍼 -8884
ㄷㅡㅅ -8885
▁고아 -8886
▁나아가 -8887
▁{{{- -8888
▁원장 -8889
▁스매 -8890
▁필리핀 -8891
▁종영 -8892
▁합작 -8893
IL -8894
▁기후 -8895
▁깨끗 -8896
▁자칭 -8897
▁이스트 -8898
▁도약 -8899
▁레나 -8900
▁ㅍㅣㄴ -8901
▁은폐 -8902
▁EXT -8903
▁교과서 -8904
ose -8905
▁ㅎㅏㅂ -8906
itt -8907
운동 -8908
▁tr -8909
▁미인 -8910
▁나이프 -8911
▁갯 -8912
▁브론 -8913
▁자이언트 -8914
▁항해 -8915
▁얼티 -8916
▁유전 -8917
▁ㅁㅏㄱㅎㅕ -8918
ㄷㅇㅓ -8919
▁지분 -8920
▁파스 -8921
▁아이디어 -8922
▁정성 -8923
▁진에어 -8924
▁이태 -8925
▁적절히 -8926
▁동서 -8927
▁EZ -8928
▁실체 -8929
▁잭슨 -8930
▁충족 -8931
▁흑마 -8932
▁다니엘 -8933
▁ㅇㅏㄴㄷㅏ -8934
▁La -8935
▁대위 -8936
▁레코드 -8937
▁마에 -8938
▁여의 -8939
▁좌측 -8940
▁현자 -8941
▁치안 -8942
▁314 -8943
철도 -8944
▁흡혈귀 -8945
▁리사 -8946
▁여단 -8947
▁트래 -8948
▁뱅가드 -8949
▁이틀 -8950
▁ㅊㅐㅇㄱ -8951
▁마기 -8952
ㄷㅡㄹㅇㅣㄴ -8953
▁분홍 -8954
▁스타트 -8955
▁외국어 -8956
▁지혜 -8957
직자 -8958
▁저글 -8959
▁Im -8960
탐정 -8961
▁Vol -8962
▁ㅇㅏㄴㅌㅏ -8963
▁헥 -8964
▁new -8965
렉터 -8966
▁툰 -8967
▁학문 -8968
▁욕설 -8969
▁ㄱㅓㄴㄴㅔ -8970
▁베이징 -8971
▁히드라 -8972
▁시골 -8973
▁ㅇㅣㅂㅎㅣㄴㄷㅏ -8974
▁스쿼드 -8975
▁소생 -8976
▁Con -8977
▁가위 -8978
▁얇 -8979
▁피자 -8980
▁밀도 -8981
▁NBA -8982
▁ㅆㅗㄷㅇㅏ -8983
▁계층 -8984
▁내기 -8985
▁갈색 -8986
ㄹㅔ -8987
▁ㅅㅡㄴ -8988
ats -8989
▁가담 -8990
▁각지 -8991
▁Sch -8992
▁ㄸㅓㅆ -8993
▁바이올 -8994
▁강릉 -8995
ㄷㅡㄹㅇㅓ -8996
▁Ed -8997
▁신곡 -8998
▁말씀 -8999
▁포병 -9000
마루 -9001
▁일관 -9002
▁124 -9003
▁ㄸㅜ -9004
▁ㅆㅓㄴ -9005
▁서류 -9006
▁추후 -9007
▁울리 -9008
▁학년도 -9009
▁로스트 -9010
▁잔혹 -9011
▁ld -9012
▁ㅁㅜㄴ -9013
▁고고 -9014
▁우루 -9015
▁협정 -9016
▁아케이드 -9017
▁rd -9018
▁침착 -9019
▁스타즈 -9020
▁초상 -9021
▁학대 -9022
▁날아오 -9023
▁Girl -9024
▁출판사 -9025
▁가오 -9026
▁무도 -9027
▁카테 -9028
▁주석 -9029
나베 -9030
▁부원 -9031
▁해소 -9032
▁카리스마 -9033
▁까다 -9034
▁Gre -9035
우라 -9036
▁입증 -9037
15 -9038
▁ㅌㅏㄹ -9039
▁스파이더맨 -9040
▁에메 -9041
▁잼 -9042
▁ㄲㅡㅌㄴㅏㄹ -9043
▁물자 -9044
▁대동 -9045
▁나이츠 -9046
은색 -9047
▁RE -9048
철수 -9049
▁Night -9050
▁나인 -9051
ari -9052
▁펌프 -9053
▁시어 -9054
ube -9055
▁미아 -9056
▁배구 -9057
▁존스 -9058
▁밀레 -9059
▁워터 -9060
▁억울 -9061
부키 -9062
▁물약 -9063
지능 -9064
▁갑작 -9065
ㄴㅏㅆㅇㅡ -9066
▁인공지능 -9067
▁부속 -9068
msys -9069
▁강타 -9070
ㅈㅇㅓ -9071
▁대세 -9072
ition -9073
▁중원 -9074
▁ldmsys -9075
▁이오 -9076
므로 -9077
usic -9078
바르 -9079
▁183 -9080
▁판도 -9081
바이트 -9082
▁존중 -9083
▁놀랍 -9084
▁저글링 -9085
▁격려 -9086
슈타인 -9087
▁고의 -9088
13 -9089
▁강전 -9090
▁감당 -9091
▁대검 -9092
▁USB -9093
▁쌓이 -9094
▁힘입 -9095
▁압축 -9096
▁피지컬 -9097
워프 -9098
▁익히 -9099
▁정사 -9100
오피스 -9101
▁디아블로 -9102
▁유스 -9103
▁과금 -9104
▁부유 -9105
▁긁 -9106
▁괴인 -9107
▁저기 -9108
▁우울 -9109
▁스탈 -9110
▁퀴즈 -9111
▁함장 -9112
▁점멸 -9113
▁대변 -9114
▁생김새 -9115
▁점심 -9116
▁ㅌㅡㄹㄹㅣㄴ -9117
▁빙결 -9118
▁표적 -9119
25 -9120
▁극한 -9121
▁내역 -9122
▁테스 -9123
▁압력 -9124
▁레이싱 -9125
▁하지 -9126
▁이빨 -9127
항공 -9128
▁동구 -9129
▁맞서 -9130
▁민간인 -9131
▁마하 -9132
▁애완 -9133
▁산맥 -9134
▁황당 -9135
▁라마 -9136
▁키요 -9137
▁ㄱㅏㅇㅎㅐㅆ -9138
▁ㅂㅕㄴㅎㅏㄴ -9139
▁1200 -9140
리얼 -9141
▁리버스 -9142
▁Black -9143
▁세자 -9144
▁경부 -9145
▁발사기 -9146
▁ㅈㅡㄹㄱㅣㄹ -9147
▁박스오피스 -9148
▁집계 -9149
▁WC -9150
▁TS -9151
▁법무 -9152
▁자책점 -9153
▁ㅇㅗㄹㄹㅣㄴㄷㅏ -9154
▁철도역 -9155
▁이소 -9156
▁ㅅㅏㅆ -9157
▁마케팅 -9158
ㅁㅏㄹㄹㅗ -9159
▁김주 -9160
시오 -9161
▁건드리 -9162
▁소소 -9163
▁그러므로 -9164
▁아카네 -9165
▁후유 -9166
▁ㅅㅗㄱㅎㅏㄴ -9167
▁마틴 -9168
▁만렙 -9169
▁모형 -9170
▁스탭 -9171
▁골프 -9172
▁보스턴 -9173
▁NH -9174
▁퇴치 -9175
▁중견 -9176
yn -9177
▁ㄴㅏㄹㄹㅣㄴㄷㅏ -9178
▁일렉 -9179
업자 -9180
▁벌써 -9181
ㄹㅗㅂ -9182
▁예의 -9183
▁잠들 -9184
▁ㅂㅓㄹㅇㅣㄴ -9185
▁그쪽 -9186
▁ㅂㅕㄴㅎㅏㄴㄷㅏ -9187
▁다시금 -9188
▁제노 -9189
▁그레이드 -9190
▁농업 -9191
▁대차 -9192
른바 -9193
▁마도카 -9194
▁병살 -9195
▁연동 -9196
▁127 -9197
▁ㅈㅏㅂㅇㅏ -9198
▁이른바 -9199
▁박진 -9200
▁기질 -9201
▁일지 -9202
▁BC -9203
▁에미 -9204
▁데몬 -9205
▁ㄱㅕㄴ -9206
▁지로 -9207
▁재건 -9208
사랑 -9209
▁기껏 -9210
▁모종 -9211
▁주축 -9212
▁원판 -9213
시대 -9214
▁토마스 -9215
▁현황 -9216
▁교차로 -9217
▁연설 -9218
▁그러면 -9219
▁노아 -9220
▁이원 -9221
ㅅㅡ -9222
▁리처 -9223
▁출동 -9224
▁어서 -9225
DD -9226
끄럽 -9227
▁무녀 -9228
▁자아 -9229
▁통솔 -9230
▁디오 -9231
▁문양 -9232
토니 -9233
▁ㅈㅏㄴ -9234
18 -9235
▁덩어리 -9236
▁MM -9237
▁남동생 -9238
▁ver -9239
app -9240
▁DM -9241
▁포착 -9242
▁ㅌㅡㄴ -9243
▁사촌 -9244
▁천상 -9245
▁로프 -9246
▁Let -9247
▁드워프 -9248
▁상냥 -9249
▁등극 -9250
▁유진 -9251
▁구상 -9252
▁뚱 -9253
세지 -9254
▁장벽 -9255
▁모빌 -9256
▁각도 -9257
▁자존심 -9258
ㄹㅕㅆㅇㅡ -9259
▁스토어 -9260
▁도덕 -9261
▁선동 -9262
▁ㄴㅗㄴ -9263
▁억제 -9264
▁불길 -9265
▁SSR -9266
▁발명 -9267
▁118 -9268
▁관장 -9269
▁귀국 -9270
▁모스크 -9271
▁바텀 -9272
▁킴 -9273
▁레아 -9274
▁도대 -9275
▁스크롤 -9276
▁빠져 -9277
▁OG -9278
▁퓨전 -9279
▁카게 -9280
▁Am -9281
▁Op -9282
▁육상 -9283
▁프랜 -9284
▁노무현 -9285
▁184 -9286
▁오른손 -9287
▁아마추어 -9288
▁Col -9289
▁아포 -9290
▁절벽 -9291
▁ㅎㅡㅌ -9292
▁용산 -9293
▁Str -9294
gr -9295
ye -9296
▁사치 -9297
▁전담 -9298
▁AF -9299
▁봉사 -9300
아치 -9301
▁서울대 -9302
▁애인 -9303
▁회관 -9304
▁토라 -9305
▁타이어 -9306
당초 -9307
▁발레 -9308
▁라미 -9309
▁까마귀 -9310
▁발급 -9311
▁시안 -9312
ㄹㅝㅆ -9313
▁아담 -9314
▁원주민 -9315
▁그란 -9316
▁도배 -9317
▁이윤 -9318
▁not -9319
▁탄핵 -9320
▁리바 -9321
▁섬광 -9322
▁왕실 -9323
▁쿄코 -9324
▁청춘 -9325
ㄷㅡㄴㄷㅏ -9326
▁향후 -9327
▁서적 -9328
CE -9329
▁굽 -9330
▁학사 -9331
▁퍼펙트 -9332
▁Mag -9333
ough -9334
▁쿠데타 -9335
▁왕비 -9336
▁152 -9337
▁방사능 -9338
▁큐어 -9339
▁환생 -9340
▁박자 -9341
▁잎 -9342
▁필름 -9343
▁솔저 -9344
▁GM -9345
▁하사 -9346
▁입시 -9347
▁착륙 -9348
▁정밀 -9349
▁베를 -9350
▁챔스 -9351
타이 -9352
▁ㅎㅜ -9353
▁베스 -9354
iel -9355
▁루마 -9356
▁시시 -9357
▁사방 -9358
▁행진 -9359
▁다카 -9360
▁제치 -9361
▁컴뱃 -9362
▁..! -9363
▁미녀 -9364
▁뤼 -9365
▁시오 -9366
▁인피니티 -9367
▁리자 -9368
▁이무 -9369
▁지장 -9370
▁마을버스 -9371
▁협동 -9372
▁실용 -9373
▁밀리언 -9374
▁피오 -9375
▁우두 -9376
▁프롤 -9377
▁000000 -9378
▁싱가 -9379
▁싱가포르 -9380
▁선박 -9381
▁적시타 -9382
▁앓 -9383
어트 -9384
▁보우 -9385
▁루미 -9386
▁훔 -9387
vel -9388
▁유가 -9389
▁ㄷㅓㄴㅈㅣㄴ -9390
▁오렌지 -9391
▁여태 -9392
▁지루 -9393
▁스타워즈 -9394
▁금발 -9395
▁카리 -9396
▁주공 -9397
▁편리 -9398
▁갱신 -9399
▁서열 -9400
ull -9401
▁강인 -9402
▁카피 -9403
▁폴아웃 -9404
▁직책 -9405
▁스로 -9406
▁제발 -9407
▁뻘 -9408
▁지크 -9409
▁홀리 -9410
▁화기 -9411
▁숙소 -9412
▁AV -9413
▁밀어내 -9414
▁테리 -9415
▁얌 -9416
▁옴 -9417
▁선원 -9418
▁민폐 -9419
▁시호 -9420
▁AL -9421
▁1978 -9422
▁경전 -9423
▁침몰 -9424
▁승패 -9425
▁아수 -9426
▁과일 -9427
▁브래 -9428
▁김치 -9429
▁182 -9430
▁물러나 -9431
▁김광 -9432
▁취재 -9433
ㄲㅡㅁ -9434
▁쏠 -9435
▁스카웃 -9436
▁까다롭 -9437
▁탐사 -9438
▁ㅈㅓㅂ -9439
▁우미 -9440
▁반성 -9441
▁감추 -9442
ult -9443
▁스네 -9444
▁조화 -9445
▁ㅎㅐㅆㅇㅓ -9446
.. -9447
▁전송 -9448
프리카 -9449
▁쿠사 -9450
▁완화 -9451
▁도대체 -9452
▁툭 -9453
▁이진 -9454
▁라인하르트 -9455
▁팔라 -9456
▁교도소 -9457
▁178 -9458
▁리부 -9459
▁홋카이도 -9460
▁시간대 -9461
▁전지 -9462
▁해운 -9463
▁한꺼 -9464
▁한꺼번에 -9465
▁오즈 -9466
▁섬멸 -9467
▁일일 -9468
헤이 -9469
서스 -9470
▁성명 -9471
▁중구 -9472
▁#! -9473
▁친척 -9474
▁그간 -9475
▁욕심 -9476
▁화신 -9477
able -9478
▁스기 -9479
▁반경 -9480
▁CL -9481
▁모순 -9482
ㅅㅕㅆ -9483
▁욱 -9484
▁컴백 -9485
▁경상남도 -9486
크리 -9487
▁군부 -9488
▁어벤져 -9489
▁구형 -9490
▁이계 -9491
ject -9492
▁아사히 -9493
▁흑역사 -9494
▁까지 -9495
▁이별 -9496
▁흑막 -9497
▁ㅈㅜㅂㄴㅣ -9498
▁천국 -9499
▁미소녀 -9500
▁도르 -9501
▁엇 -9502
▁가구 -9503
▁흥분 -9504
소년 -9505
▁소나 -9506
▁오토바이 -9507
마리 -9508
▁안무 -9509
바리 -9510
▁호리 -9511
▁사와 -9512
▁완공 -9513
에른 -9514
▁보강 -9515
▁동계 -9516
▁ㅆㅢ -9517
▁모에 -9518
▁등재 -9519
▁신관 -9520
▁아슬 -9521
▁ㅎㅟㅂ -9522
▁최상급 -9523
▁타카하시 -9524
▁관문 -9525
▁스텔스 -9526
▁그리핀 -9527
▁얼티밋 -9528
MAN -9529
▁ㄸㅜㅀ -9530
키스탄 -9531
▁발각 -9532
▁CE -9533
▁신작 -9534
▁용이 -9535
▁인문 -9536
▁레버 -9537
eth -9538
▁대역 -9539
▁라비 -9540
▁이단 -9541
▁엣 -9542
▁Co -9543
▁아름답 -9544
▁민감 -9545
바람 -9546
▁직행 -9547
▁능가 -9548
▁사직 -9549
▁ㅇㅓㅆㅇㅓㅆ -9550
▁1945 -9551
▁주머니 -9552
▁스윙 -9553
▁PK -9554
▁헬리 -9555
▁토트넘 -9556
▁ㅁㅗㄹㅇㅏ -9557
▁매각 -9558
oot -9559
▁se -9560
▁유즈 -9561
▁단자 -9562
▁시카고 -9563
▁디스플레이 -9564
▁일체 -9565
▁쿠리 -9566
▁간판 -9567
▁코레 -9568
▁마야 -9569
▁저자 -9570
▁에코 -9571
▁반역 -9572
▁스마일 -9573
방울 -9574
▁금요일 -9575
▁머스 -9576
속기 -9577
▁들키 -9578
▁플라스 -9579
▁프레스 -9580
▁패트 -9581
▁레시피 -9582
▁모욕 -9583
▁베이비 -9584
▁엉덩이 -9585
▁cl -9586
▁ㅇㅏㄴㄱㅕ -9587
모습 -9588
▁부채 -9589
▁사탕 -9590
▁소득 -9591
기에 -9592
▁약혼 -9593
수리 -9594
▁수라 -9595
▁BO -9596
구니 -9597
▁라이트닝 -9598
▁TOP -9599
▁강대 -9600
▁시종 -9601
▁매그 -9602
▁불참 -9603
▁여주인 -9604
▁ㄱㅓㄹㄲㅏ -9605
▁늪 -9606
▁엘리자베스 -9607
▁일러스트레이터 -9608
▁오다 -9609
▁파운드 -9610
▁카제 -9611
ㄱㅇㅕ -9612
▁AFC -9613
▁장남 -9614
▁ㄱㅏㅈㅊㅝ -9615
▁마미 -9616
▁밈 -9617
타리 -9618
▁약체 -9619
▁도쿠 -9620
▁ㅁㅓㄱㅇㅕ -9621
▁바이에른 -9622
ild -9623
▁정점 -9624
ㄷㅎㅕㅆ -9625
▁겟 -9626
▁가왕 -9627
▁울음 -9628
▁태풍 -9629
▁BGA -9630
▁레이지 -9631
▁맨체스터 -9632
▁ㅁㅏㄴㄴㅏㄴㄷㅏ -9633
▁오케 -9634
▁카사 -9635
▁정답 -9636
▁오만 -9637
▁달려들 -9638
니코 -9639
▁ㅈㅏㅂㅎㅣㄴ -9640
▁모음 -9641
▁애용 -9642
▁명장 -9643
inal -9644
▁Is -9645
▁적자 -9646
▁카이저 -9647
▁편의점 -9648
▁휴먼 -9649
▁4000 -9650
▁도심 -9651
▁실적 -9652
▁터뜨리 -9653
▁수천 -9654
▁탈취 -9655
무지 -9656
파이 -9657
▁시범 -9658
▁소마 -9659
▁Do -9660
▁고맙 -9661
스크림 -9662
▁이쿠 -9663
▁ㅌㅏㅆ -9664
▁드루이드 -9665
▁아랫 -9666
▁곤충 -9667
▁교리 -9668
▁아이디 -9669
▁Gaming -9670
▁함수 -9671
▁자사 -9672
▁요격 -9673
▁과시 -9674
도전 -9675
▁웨폰 -9676
▁비비 -9677
러브 -9678
▁가이아 -9679
▁무지개 -9680
▁박정희 -9681
▁평상시 -9682
▁ㅋㅐㄴ -9683
▁대피 -9684
▁신한 -9685
▁입사 -9686
▁평론가 -9687
▁스파크 -9688
▁카일 -9689
겨나 -9690
▁눈동자 -9691
▁김일 -9692
▁GSL -9693
▁크로우 -9694
▁눈앞 -9695
▁스모 -9696
어나오 -9697
▁320 -9698
▁ㄴㅗㅎㅇㅕ -9699
▁CR -9700
▁욕망 -9701
DX -9702
▁진동 -9703
생활 -9704
▁투고 -9705
▁ㅋㅕ -9706
▁무능 -9707
▁315 -9708
▁네크로 -9709
ㄹㅏㅂㄴㅣ -9710
▁SA -9711
▁집사 -9712
아시아 -9713
▁컬렉션 -9714
▁유아 -9715
▁씻 -9716
▁연이 -9717
▁유머 -9718
▁부가 -9719
▁노릇 -9720
ings -9721
▁달콤 -9722
▁Gl -9723
▁ME -9724
쿠스 -9725
▁고가 -9726
▁선회 -9727
14 -9728
▁ㅎㅘ -9729
▁수아 -9730
▁공신 -9731
▁아마존 -9732
▁물려받 -9733
▁목욕 -9734
▁삽질 -9735
▁맷집 -9736
▁남학생 -9737
▁장신구 -9738
▁1973 -9739
▁보르 -9740
ㄷㅡㄹㅇㅕㅆ -9741
▁오공 -9742
▁타리 -9743
▁정우 -9744
▁찾아내 -9745
▁소집 -9746
▁캡슐 -9747
▁포크 -9748
TA -9749
▁중소 -9750
▁패왕 -9751
▁숙련도 -9752
▁무한도전 -9753
▁이용자 -9754
▁명시 -9755
▁리볼 -9756
ㄹㅣㅂㄴㅣ -9757
▁ㅌㅡ -9758
▁좌익 -9759
▁Gu -9760
▁검토 -9761
▁단련 -9762
▁성분 -9763
▁ㅆㅣㄴ -9764
▁식스 -9765
▁신하 -9766
▁하도 -9767
▁라이드 -9768
▁ㅎㅡㄴㄷㅡㄹ -9769
▁당초 -9770
▁슬라이드 -9771
▁사천 -9772
▁급하 -9773
▁아르바이트 -9774
▁장본 -9775
▁ㅂㅜㄴ -9776
▁일명 -9777
reak -9778
▁마마 -9779
▁자력 -9780
대사 -9781
ron -9782
▁치우 -9783
ㄱㅇㅣㄴ -9784
▁초과 -9785
▁중부 -9786
▁물리치 -9787
▁징계 -9788
▁와타나베 -9789
▁아쉬움 -9790
ㅅㅓㄴㄷㅏ -9791
히토 -9792
ㅁㅗㄴ -9793
중간 -9794
▁중기 -9795
▁저항력 -9796
▁미노 -9797
▁케리 -9798
▁주술사 -9799
▁아유 -9800
르타 -9801
▁위쪽 -9802
▁테란 -9803
▁모의 -9804
▁유동 -9805
▁와이번스 -9806
▁얄 -9807
▁오로치 -9808
▁ㅉㅣㄹㄹㅓ -9809
▁짬 -9810
▁무늬 -9811
▁궁수 -9812
▁독백 -9813
▁키노 -9814
▁민중 -9815
▁냉장 -9816
▁ㅁㅗㅅㅈㅣ -9817
티니 -9818
▁리리 -9819
▁시련 -9820
▁ㅁㅗㄹ -9821
▁잔류 -9822
타운 -9823
▁공교 -9824
▁금강 -9825
▁마수 -9826
▁이호 -9827
트론 -9828
▁상시 -9829
▁하이드 -9830
▁외야수 -9831
▁소꿉 -9832
▁캘리 -9833
▁표식 -9834
▁부산광역시 -9835
▁코끼리 -9836
▁NM -9837
▁168 -9838
▁네이션 -9839
▁중국인 -9840
17 -9841
▁이명박 -9842
▁이용객 -9843
▁급식 -9844
▁인도네시아 -9845
▁장본인 -9846
▁서바이벌 -9847
▁ㅅㅗㄱㅎㅐ -9848
▁컨디션 -9849
▁진단 -9850
▁어그 -9851
▁벨기에 -9852
▁국도 -9853
▁평택 -9854
▁ㄷㅙㅆㅇㅡ -9855
▁앤드 -9856
▁마찰 -9857
ㄷㅓ -9858
▁so -9859
▁유카리 -9860
▁203 -9861
▁더럽 -9862
▁학위 -9863
닐라 -9864
▁접하 -9865
▁협조 -9866
▁가해 -9867
▁ㅂㅔㄴ -9868
▁그루 -9869
▁218 -9870
▁라이징 -9871
PA -9872
사와 -9873
▁무자 -9874
▁배리 -9875
▁보로 -9876
▁판사 -9877
▁like -9878
운수 -9879
▁개명 -9880
▁성대 -9881
▁고인 -9882
▁크라운 -9883
▁Min -9884
▁이즈미 -9885
▁혼혈 -9886
태우 -9887
▁가령 -9888
▁도미 -9889
▁급격히 -9890
▁ㅁㅜㄷㅎㅕ -9891
ㄴㅟㄴㄷㅏ -9892
▁일리 -9893
▁쥬얼 -9894
▁대면 -9895
▁공헌 -9896
▁모나 -9897
▁초청 -9898
▁강동 -9899
▁충청남도 -9900
▁방침 -9901
▁주술 -9902
▁승급 -9903
▁ㅁㅏㅈㅊㅜㄴ -9904
▁고발 -9905
▁도마 -9906
▁ㅇㅘㅆㅇㅡ -9907
▁내외 -9908
▁시네마 -9909
▁수신 -9910
▁몸매 -9911
▁내각 -9912
▁강아지 -9913
▁ㅁㅓㅁㅊㅝ -9914
GA -9915
▁김병 -9916
▁어원 -9917
▁이어서 -9918
▁보직 -9919
▁재수 -9920
▁단역 -9921
▁will -9922
▁헤라 -9923
▁오페라 -9924
▁소우 -9925
▁아무렇 -9926
▁조립 -9927
저래 -9928
▁체코 -9929
▁나폴레 -9930
▁ㅈㅓㄱㅎㅣㄴ -9931
MAX -9932
▁이래저래 -9933
▁국토 -9934
▁꿈꾸 -9935
▁런처 -9936
▁수립 -9937
▁레이븐 -9938
▁휴대폰 -9939
▁리믹스 -9940
▁단총 -9941
▁자산 -9942
▁배율 -9943
▁휴게 -9944
▁의정부 -9945
▁흉악 -9946
▁균열 -9947
▁하츠네 -9948
▁10000 -9949
ECT -9950
전사 -9951
▁천지 -9952
ㅅㅜㄹ -9953
▁오사 -9954
▁황혼 -9955
▁고우 -9956
▁아테나 -9957
▁뚜렷 -9958
▁윤리 -9959
▁나폴레옹 -9960
▁모시 -9961
▁사슬 -9962
▁독보 -9963
▁비자 -9964
▁iOS -9965
▁주저 -9966
▁테크닉 -9967
▁볶 -9968
▁불러 -9969
▁라가 -9970
▁수중 -9971
ㅅㅣㄹ -9972
▁차장 -9973
▁번지 -9974
ICE -9975
▁니트 -9976
▁버거 -9977
▁교역 -9978
▁ㅂㅔㄹ -9979
▁one -9980
▁대학생 -9981
▁시간표 -9982
▁로크 -9983
▁충격파 -9984
AND -9985
▁ALL -9986
▁보가 -9987
▁부동산 -9988
ㄷㅓㄴㅈㅣ -9989
▁트론 -9990
▁엠블 -9991
▁위시 -9992
▁베를린 -9993
▁정반대 -9994
▁악행 -9995
▁RO -9996
▁오역 -9997
▁원한 -9998
▁na -9999
▁Type -10000
▁국방부 -10001
▁Red -10002
▁스코틀랜드 -10003
보우 -10004
oul -10005
▁서방 -10006
주의자 -10007
▁탄압 -10008
▁저격수 -10009
▁히사 -10010
▁저승 -10011
▁리프트 -10012
▁탄막 -10013
▁인명 -10014
▁면제 -10015
▁1974 -10016
▁말레이 -10017
▁Ser -10018
▁플레임 -10019
▁리츠 -10020
▁지지율 -10021
te -10022
▁이오리 -10023
저우 -10024
성이 -10025
▁주황 -10026
▁KB -10027
▁Play -10028
▁자루 -10029
▁웃기 -10030
▁성지 -10031
▁정전 -10032
▁사이토 -10033
▁더미 -10034
▁타우 -10035
▁튀어나오 -10036
▁미남 -10037
▁절단 -10038
▁캇 -10039
ater -10040
ody -10041
▁타키 -10042
▁중화민국 -10043
▁UC -10044
▁펑크 -10045
▁해역 -10046
▁NT -10047
▁버블 -10048
▁플레이버 -10049
STER -10050
16 -10051
다드 -10052
▁177 -10053
▁견해 -10054
▁칼라 -10055
▁아수라 -10056
▁원로 -10057
▁작위 -10058
▁Car -10059
▁흉내 -10060
▁피우 -10061
친구 -10062
▁걸음 -10063
▁비단 -10064
▁달인 -10065
▁설마 -10066
▁필사 -10067
▁대국 -10068
▁발톱 -10069
▁출석 -10070
▁멋지 -10071
▁공격기 -10072
▁Don -10073
▁단서 -10074
▁전라남도 -10075
▁둥지 -10076
▁액체 -10077
▁김윤 -10078
▁이리저리 -10079
▁토비 -10080
▁커플링 -10081
▁데려가 -10082
▁대법 -10083
▁계절 -10084
ㄲㅣㄴㄷㅏ -10085
▁득표율 -10086
▁스나 -10087
▁사물 -10088
▁지터 -10089
▁평판 -10090
▁밭 -10091
ions -10092
▁랜서 -10093
▁무비 -10094
▁깃털 -10095
▁이듬 -10096
▁마저 -10097
▁성사 -10098
▁사우스 -10099
▁보편 -10100
▁ㄲㅡㄴ -10101
▁다케 -10102
▁샘플 -10103
▁선로 -10104
▁재배 -10105
ould -10106
▁난리 -10107
▁벚 -10108
▁한양 -10109
▁련 -10110
▁우두머리 -10111
▁딥 -10112
▁입원 -10113
▁팰 -10114
▁해변 -10115
텍스 -10116
▁희생자 -10117
▁요우 -10118
▁반장 -10119
▁138 -10120
▁마주치 -10121
▁손잡이 -10122
▁리볼버 -10123
▁의의 -10124
▁격렬 -10125
▁전법 -10126
▁차일드 -10127
▁극심 -10128
▁마르코 -10129
과이 -10130
▁Es -10131
▁슬라임 -10132
▁1975 -10133
▁강습 -10134
▁가해자 -10135
▁감성 -10136
▁진형 -10137
▁완벽히 -10138
▁주입 -10139
▁맑 -10140
▁왕족 -10141
▁사야카 -10142
▁스콜 -10143
▁김성근 -10144
천군 -10145
레븐 -10146
▁유지비 -10147
▁홈경기 -10148
▁연막 -10149
▁ㄴㅏㄹㄹㅕㅆ -10150
▁순간이동 -10151
▁반도 -10152
▁크롬 -10153
▁태생 -10154
▁ㅇㅜㅁㅈㅣㄱㅇㅕ -10155
alk -10156
▁짝사랑 -10157
▁간파 -10158
▁너클 -10159
▁지면 -10160
▁과언 -10161
▁방울 -10162
▁부제 -10163
▁산탄총 -10164
▁us -10165
스카 -10166
ㅅㅐ -10167
▁접수 -10168
▁상어 -10169
▁보루 -10170
▁ㄱㅓㄴㄷㅏ -10171
▁ㄷㅜㄴㄷㅏ -10172
▁ㅅㅓㄲㅇㅣㄴ -10173
▁헤드샷 -10174
▁입자 -10175
▁아이즈 -10176
▁맹독 -10177
▁탈환 -10178
▁레슨 -10179
▁서명 -10180
ven -10181
▁메테 -10182
▁워드 -10183
▁졸업식 -10184
보기 -10185
▁자켓 -10186
▁중도 -10187
▁필립 -10188
▁안젤 -10189
▁Time -10190
▁러너 -10191
▁ㅁㅏㅌㄱㅕ -10192
▁계략 -10193
▁어드밴 -10194
▁상의 -10195
▁중재 -10196
▁리처드 -10197
▁병과 -10198
▁''' -10199
▁마스코트 -10200
▁금고 -10201
▁동성애 -10202
▁월간 -10203
▁공명 -10204
▁원화 -10205
▁석유 -10206
▁아리스 -10207
ㄷㅣㄹ -10208
▁162 -10209
▁레인보우 -10210
▁테니스 -10211
af -10212
▁ㄹㅏㄱ -10213
라이언스 -10214
▁코디 -10215
▁측근 -10216
드로 -10217
▁주교 -10218
▁바이크 -10219
야스 -10220
▁삿 -10221
▁팔리 -10222
▁타스 -10223
▁완성도 -10224
▁만지 -10225
▁126 -10226
소총 -10227
▁얼라이언스 -10228
▁이사장 -10229
ㅊㅏㄴ -10230
▁팍 -10231
▁EU -10232
▁찬양 -10233
▁프로스트 -10234
▁Sum -10235
▁분할 -10236
▁낮추 -10237
▁데미 -10238
▁테일즈 -10239
쳐지 -10240
공사 -10241
▁WH -10242
▁우지 -10243
스티스 -10244
▁고래 -10245
▁일각 -10246
▁콘스탄 -10247
▁충고 -10248
▁아울 -10249
▁ㄷㅣ -10250
▁교대 -10251
▁백만 -10252
맥스 -10253
ics -10254
▁이념 -10255
▁이듬해 -10256
▁떨어뜨리 -10257
▁스바 -10258
▁두려움 -10259
▁??? -10260
▁스매시 -10261
▁부딪 -10262
▁키즈 -10263
▁ㅇㅣㄴㄷㅡㅅ -10264
▁가히 -10265
▁히카루 -10266
▁영화제 -10267
▁왓 -10268
▁김선 -10269
▁자키 -10270
▁Bo -10271
▁빙의 -10272
▁박명 -10273
▁조수 -10274
▁찰스 -10275
▁이영호 -10276
▁카오루 -10277
YP -10278
느리 -10279
▁견디 -10280
▁다치 -10281
▁구로 -10282
▁냉장고 -10283
▁신생 -10284
▁놀리 -10285
▁득표수 -10286
▁수감 -10287
ACK -10288
▁연소 -10289
▁슬러그 -10290
▁다가가 -10291
▁부시 -10292
▁쟁이 -10293
▁클리셰 -10294
▁초등학생 -10295
▁기관포 -10296
▁BT -10297
▁본질 -10298
▁IIDX -10299
▁엉뚱 -10300
▁CB -10301
▁have -10302
▁노부나가 -10303
▁차림 -10304
▁평등 -10305
▁회계 -10306
▁ㅉㅗㅊㄱㅕ -10307
▁주차장 -10308
▁스칼 -10309
▁펙 -10310
▁동상 -10311
▁고종 -10312
▁BA -10313
시스코 -10314
ㄴㅡ -10315
랄드 -10316
▁말기 -10317
▁적이 -10318
▁에드워드 -10319
▁카토 -10320
▁연세대 -10321
▁뺨 -10322
▁나락 -10323
▁대니 -10324
▁민병 -10325
▁ㄹㅗㄹ -10326
▁보고서 -10327
▁텔레포트 -10328
▁로비 -10329
▁꼴찌 -10330
재기 -10331
▁비키 -10332
▁폭로 -10333
▁응급 -10334
▁oh -10335
▁313 -10336
▁지역구 -10337
▁애드 -10338
▁사회주의 -10339
▁맞먹 -10340
▁병행 -10341
▁직위 -10342
▁후면 -10343
tern -10344
▁왕가 -10345
미터 -10346
▁팜 -10347
▁심정 -10348
르드 -10349
▁공짜 -10350
▁과격 -10351
▁주유 -10352
▁휩 -10353
▁~" -10354
▁가나 -10355
▁고립 -10356
▁난투 -10357
페이스 -10358
▁Kore -10359
▁ㄷㅝ -10360
전설 -10361
▁ㅁㅜㄹㅇㅓ -10362
▁EV -10363
▁LTE -10364
ict -10365
▁누스 -10366
▁신상 -10367
▁종로 -10368
▁카인 -10369
▁김두 -10370
▁제너 -10371
▁결과물 -10372
▁조르 -10373
▁브레스 -10374
▁젝 -10375
뻐하 -10376
▁팩션 -10377
▁기뻐하 -10378
ins -10379
▁콰 -10380
ㅌㅐ -10381
ㅅㅏㄹ -10382
▁끊기 -10383
▁한정판 -10384
▁핑계 -10385
▁투사 -10386
ange -10387
▁1976 -10388
ator -10389
▁재질 -10390
▁무식 -10391
▁손목 -10392
▁조항 -10393
▁카렌 -10394
▁레귤 -10395
시티 -10396
▁know -10397
▁제자리 -10398
셉트 -10399
▁유비트 -10400
▁132 -10401
보라 -10402
▁기울 -10403
▁out -10404
▁정의당 -10405
빨리 -10406
▁솔직히 -10407
▁아인 -10408
무르 -10409
▁팬티 -10410
▁피드 -10411
▁Sun -10412
▁약칭 -10413
▁포도 -10414
▁소꿉친구 -10415
고사 -10416
▁볼드 -10417
▁신조 -10418
▁이세 -10419
▁경사 -10420
▁극악 -10421
▁set -10422
▁김구 -10423
▁분배 -10424
▁야망 -10425
▁멘붕 -10426
▁트랜스포 -10427
▁날아다니 -10428
ㅈㅣㄹㄹㅓ -10429
▁pr -10430
▁표기법 -10431
▁DI -10432
▁군데 -10433
은이 -10434
▁손꼽 -10435
▁제주도 -10436
▁페이크 -10437
▁숙청 -10438
▁두루 -10439
▁리셋 -10440
▁로제 -10441
▁즐겁 -10442
▁테르 -10443
▁캔디 -10444
퍼니 -10445
▁바나나 -10446
▁후반전 -10447
▁ㅅㅡㄹㅍㅡㄴ -10448
ㅎㅣㅁ -10449
▁병종 -10450
▁발전소 -10451
▁상부 -10452
▁미트 -10453
▁거꾸 -10454
▁자포 -10455
▁채찍 -10456
▁feat -10457
▁로그인 -10458
▁카테고리 -10459
▁결의 -10460
갈리 -10461
▁연간 -10462
▁럭키 -10463
▁보복 -10464
▁TP -10465
▁1972 -10466
▁하지메 -10467
▁세츠 -10468
▁그랑프리 -10469
▁슬슬 -10470
▁일산 -10471
▁츤데레 -10472
▁근로 -10473
▁수확 -10474
▁MO -10475
▁난민 -10476
▁내면 -10477
▁158 -10478
▁여주인공 -10479
▁페미니즘 -10480
▁ㄱㅓㄹㄹㅣㄹ -10481
▁IV -10482
▁몰아넣 -10483
▁빈약 -10484
▁해고 -10485
▁테이프 -10486
▁수영복 -10487
▁내뱉 -10488
▁실리 -10489
▁선봉 -10490
19 -10491
▁개판 -10492
▁230 -10493
▁해전 -10494
▁훔치 -10495
▁서치 -10496
▁재벌 -10497
▁ㅇㅐ -10498
레이크 -10499
▁폐선 -10500
무이 -10501
▁메디 -10502
▁구독자 -10503
▁산소 -10504
▁종전 -10505
▁교훈 -10506
▁탁월 -10507
▁제의 -10508
▁바이킹 -10509
고속도로 -10510
▁프롤로그 -10511
▁미도리 -10512
▁니코니코 -10513
ㅅㄱㅏㄹ -10514
▁HS -10515
▁강탈 -10516
▁지미 -10517
▁도사 -10518
▁자카 -10519
▁1977 -10520
▁ㄴㅓㅁㄱㅕㅆ -10521
▁High -10522
▁정준 -10523
▁제조사 -10524
▁레귤러 -10525
▁르노 -10526
▁인트 -10527
▁콧 -10528
▁어제 -10529
▁오딘 -10530
▁일조 -10531
처럼 -10532
▁갸 -10533
▁무궁 -10534
▁구호 -10535
▁Light -10536
▁프로그래 -10537
▁메세지 -10538
▁쿠바 -10539
ME -10540
▁TE -10541
▁최하 -10542
사스 -10543
▁응답 -10544
▁로렌 -10545
▁중급 -10546
▁쥰 -10547
▁IP -10548
▁자작 -10549
▁제인 -10550
▁172 -10551
▁가설 -10552
▁마가 -10553
▁리뉴 -10554
▁초점 -10555
▁파고 -10556
▁GD -10557
▁앨런 -10558
▁환호 -10559
▁치바 -10560
▁야마모토 -10561
▁수여 -10562
▁접전 -10563
▁충남 -10564
▁스케줄 -10565
▁퉁 -10566
▁ㅂㅏㄹ -10567
che -10568
▁ㄴㅏㅈㅊ -10569
▁관료 -10570
▁진로 -10571
▁이니 -10572
▁서리 -10573
▁키드 -10574
▁거꾸로 -10575
▁사각 -10576
▁껍질 -10577
그마 -10578
천사 -10579
▁힌트 -10580
▁내정 -10581
▁대명 -10582
민주당 -10583
▁스바루 -10584
▁프랭크 -10585
▁카이사 -10586
활약 -10587
▁개막전 -10588
▁컴퍼니 -10589
ㄲㅓ -10590
▁다투 -10591
▁지배자 -10592
▁133 -10593
▁LOVE -10594
▁순천 -10595
▁태미 -10596
▁임진 -10597
▁무신 -10598
▁덴마크 -10599
▁주식회사 -10600
▁필두 -10601
▁소비자 -10602
▁얼터 -10603
▁ㅇㅗㄹㅂㅏ -10604
▁재림 -10605
상가 -10606
▁알아내 -10607
▁정조 -10608
▁이점 -10609
▁테레 -10610
▁인텔 -10611
▁대등 -10612
▁방벽 -10613
돌프 -10614
▁빼앗기 -10615
▁뚝 -10616
▁냉기 -10617
▁실바 -10618
▁박쥐 -10619
▁Your -10620
▁조던 -10621
▁캐슬 -10622
▁NEW -10623
▁유라 -10624
▁Tw -10625
덕션 -10626
▁도스 -10627
키스 -10628
▁깡패 -10629
▁148 -10630
▁신념 -10631
▁ㅆㅗㄹ -10632
▁ㅍㅕㄴㅎㅏㄴ -10633
▁아폴 -10634
▁때려잡 -10635
▁강서 -10636
▁구청 -10637
▁랜스 -10638
▁파괴력 -10639
▁플리 -10640
▁릴리스 -10641
▁트러 -10642
▁진짜로 -10643
▁유능 -10644
▁빠져나가 -10645
▁댐 -10646
▁라시 -10647
▁내보내 -10648
▁혹평 -10649
지사 -10650
▁la -10651
▁179 -10652
▁%. -10653
▁섭취 -10654
▁Mr -10655
▁박종 -10656
▁제작비 -10657
ㄸㅏ -10658
▁줄기 -10659
▁OF -10660
▁공국 -10661
▁매지 -10662
▁바인 -10663
ica -10664
▁ㅁㅣㄹㅇㅓ -10665
▁찰나 -10666
▁차분 -10667
▁여장 -10668
▁존슨 -10669
▁앵커 -10670
▁저스티스 -10671
▁펭귄 -10672
▁감금 -10673
산역 -10674
▁애쉬 -10675
▁베어 -10676
▁피난 -10677
▁무색 -10678
▁수성 -10679
▁최정 -10680
▁양심 -10681
▁노르웨이 -10682
▁헐크 -10683
▁스톡 -10684
▁황태 -10685
▁다저스 -10686
▁보트 -10687
ㄱㅅㅏㄹ -10688
▁팀장 -10689
▁기술력 -10690
▁ㅈㅜㄱㅇㅣㄴㄷㅏ -10691
제스 -10692
▁지붕 -10693
▁이만 -10694
IK -10695
▁망상 -10696
▁트랜스포머 -10697
▁Gen -10698
▁메구미 -10699
▁라우 -10700
▁고질 -10701
▁지성 -10702
▁연달 -10703
▁소노 -10704
세서리 -10705
그라 -10706
▁호응 -10707
▁레슬러 -10708
▁순찰 -10709
▁객관 -10710
▁후쿠오카 -10711
▁교시 -10712
▁급속 -10713
▁GTA -10714
▁렀 -10715
▁Mi -10716
▁리터 -10717
▁ㅎㅡㅌㅇㅓ -10718
▁득실 -10719
▁라이센스 -10720
▁배후 -10721
▁신학 -10722
▁모스크바 -10723
▁이순신 -10724
▁립스 -10725
▁머물 -10726
▁조력 -10727
▁로맨스 -10728
▁샤오 -10729
▁파랑 -10730
▁포니 -10731
ex -10732
▁미끼 -10733
▁틀리 -10734
▁윈터 -10735
▁능숙 -10736
▁스팅 -10737
▁156 -10738
▁과감 -10739
▁Par -10740
▁사내 -10741
리칸 -10742
▁장갑차 -10743
▁찌질 -10744
▁Em -10745
지않 -10746
▁망명 -10747
▁모자라 -10748
교통 -10749
▁오른팔 -10750
▁154 -10751
FL -10752
메라 -10753
▁탐구 -10754
▁복도 -10755
▁심히 -10756
▁사나이 -10757
▁명대사 -10758
▁철갑탄 -10759
▁제대 -10760
▁표창 -10761
▁어벤져스 -10762
▁히나타 -10763
▁HARD -10764
▁진흥 -10765
▁안동 -10766
▁세례 -10767
▁노래방 -10768
▁풍경 -10769
▁시조 -10770
▁교육청 -10771
▁드로 -10772
▁출제 -10773
▁격퇴 -10774
▁여수 -10775
▁176 -10776
▁음향 -10777
▁ㄷㅗㅇ -10778
ㅁㅓㄴ -10779
▁미숙 -10780
HT -10781
▁솟 -10782
▁두뇌 -10783
▁초코 -10784
▁호무 -10785
▁OCG -10786
▁222 -10787
▁일컫 -10788
▁미모 -10789
▁슈가 -10790
▁성벽 -10791
▁ㅎㅗ -10792
▁ar -10793
사고 -10794
▁공립 -10795
▁레슬링 -10796
▁치마 -10797
▁159 -10798
▁am -10799
▁재즈 -10800
▁ㅂㅏㄱㅎㅕ -10801
▁MK -10802
▁파우 -10803
▁사일 -10804
▁꼼수 -10805
▁춤추 -10806
▁밧 -10807
▁ㅅㅣㄴㄷㅏ -10808
▁염두 -10809
▁뒤쪽 -10810
날두 -10811
▁사지 -10812
▁129 -10813
▁케리건 -10814
▁AE -10815
▁u -10816
▁호날두 -10817
▁1971 -10818
▁173 -10819
▁생태 -10820
▁종말 -10821
▁사소 -10822
▁장시 -10823
▁바닷 -10824
▁남양 -10825
▁냉동 -10826
▁맹활약 -10827
▁른 -10828
▁ㅈㅓㅁ -10829
▁반론 -10830
▁FPS -10831
▁미호 -10832
▁벨라 -10833
CH -10834
▁핀란드 -10835
▁블랙홀 -10836
▁기행 -10837
▁제지 -10838
▁중후 -10839
▁노골 -10840
▁비참 -10841
▁명탐정 -10842
클린 -10843
▁발탁 -10844
▁현직 -10845
▁게르 -10846
▁ㄷㅡㄹㄹㅣㄴㄷㅏ -10847
▁오리온 -10848
▁아비 -10849
퀘어 -10850
▁발발 -10851
▁호구 -10852
박이 -10853
▁응시 -10854
▁착지 -10855
▁전반기 -10856
티지 -10857
▁계곡 -10858
▁에그 -10859
▁153 -10860
▁미세 -10861
▁ㄴㅏㄹㄹㅣㄴ -10862
UT -10863
▁Kn -10864
▁사르 -10865
▁거스 -10866
▁PL -10867
ㅂㅎㅣㄴ -10868
▁가마 -10869
▁통틀어 -10870
▁떠돌 -10871
바스 -10872
▁캘리포 -10873
▁프로덕션 -10874
▁성폭 -10875
▁폐허 -10876
▁레오나 -10877
▁전학 -10878
▁ㅎㅑㅇㅎㅏㄴㄷㅏ -10879
스럽 -10880
▁전임 -10881
▁세키 -10882
▁텍사스 -10883
어붙 -10884
▁섹시 -10885
▁ll -10886
pr -10887
▁대목 -10888
▁죄수 -10889
멘터리 -10890
▁사천왕 -10891
▁죠죠 -10892
▁137 -10893
▁나카무라 -10894
▁코프 -10895
▁Of -10896
▁천문 -10897
▁에메랄드 -10898
▁고음 -10899
▁배신자 -10900
▁분쇄 -10901
▁리우스 -10902
▁안드레 -10903
▁진술 -10904
▁세일러 -10905
eep -10906
▁화석 -10907
▁샹 -10908
▁전도 -10909
▁오락실 -10910
▁나란히 -10911
▁시뮬레이션 -10912
▁캘리포니아 -10913
▁사가 -10914
▁통보 -10915
▁GHz -10916
▁질풍 -10917
▁ㅈㅏㅂㅎㅕㅆ -10918
▁ㅁㅏㅈㅊㅜㄹ -10919
▁수하 -10920
▁혼인 -10921
▁ㅇㅏㄹㄹㅕㅆ -10922
슬링 -10923
▁토막 -10924
▁ㄲㅏㄹㄹㅕ -10925
▁문화재 -10926
▁유타 -10927
▁파이프 -10928
▁엄폐 -10929
▁러닝 -10930
▁책상 -10931
▁Ro -10932
▁남한 -10933
▁래스터 -10934
▁에필 -10935
▁에필로그 -10936
▁헷 -10937
les -10938
▁ㅇㅓㄺ -10939
타니 -10940
▁우산 -10941
▁로스터 -10942
▁테러리 -10943
▁혼다 -10944
▁인플 -10945
▁목포 -10946
▁테오 -10947
▁책략 -10948
▁말소 -10949
▁280 -10950
▁무단 -10951
▁꽁 -10952
▁선포 -10953
▁총선거 -10954
▁지각 -10955
▁유니콘 -10956
▁발렌타인 -10957
▁대교 -10958
▁영등 -10959
▁오쿠 -10960
▁푸르 -10961
구나 -10962
▁드리블 -10963
▁모기 -10964
▁174 -10965
▁was -10966
▁호스 -10967
▁요코하마 -10968
▁절정 -10969
▁225 -10970
▁Per -10971
▁BM -10972
▁로열 -10973
▁믿음 -10974
▁이광 -10975
▁대안 -10976
▁신주 -10977
▁서울시 -10978
▁교정 -10979
▁빅토리아 -10980
▁다큐멘터리 -10981
▁잔해 -10982
▁GPU -10983
▁1969 -10984
▁로테이션 -10985
▁이행 -10986
▁노하 -10987
▁ㅇㅏㅍㅅㅓㄴ -10988
▁예방 -10989
▁139 -10990
▁슬램 -10991
▁엣지 -10992
▁스탈린 -10993
▁월요일 -10994
▁카즈야 -10995
ㅊㅝ -10996
▁Heart -10997
▁청룡 -10998
ㄹㅡㅁㅇㅏ -10999
▁감싸 -11000
▁얹 -11001
▁ㅁㅝㄴㅈㅣ -11002
▁163 -11003
▁델타 -11004
▁비기 -11005
▁143 -11006
▁멋있 -11007
▁134 -11008
▁불문 -11009
플러스 -11010
▁167 -11011
▁악곡 -11012
▁얼어붙 -11013
하여 -11014
▁Fe -11015
▁마신 -11016
▁미식 -11017
▁신세계 -11018
▁의아 -11019
▁레바 -11020
▁토가 -11021
볼루션 -11022
▁하의 -11023
▁ㅇㅝㄴㅎㅐㅆ -11024
▁중공 -11025
▁~~ -11026
더기 -11027
▁먼지 -11028
▁ㅁㅏㄹㄹㅕ -11029
▁아랑 -11030
▁CO -11031
▁TO -11032
▁오바 -11033
▁Good -11034
▁ㅇㅝㄴㅎㅏㄴㄷㅏ -11035
▁분포 -11036
▁심연 -11037
▁해상도 -11038
▁버터 -11039
▁스텔라 -11040
▁스페인어 -11041
▁상장 -11042
▁함성 -11043
▁숭배 -11044
▁단의 -11045
ㄹㅡㄹㄲㅏ -11046
▁주파 -11047
총장 -11048
▁142 -11049
▁처녀 -11050
}} -11051
▁골치 -11052
▁스파이크 -11053
▁ㅇㅕㄹㄹㅣㄴㄷㅏ -11054
컨드 -11055
▁전광 -11056
▁beat -11057
▁오타쿠 -11058
▁세컨드 -11059
▁열기 -11060
▁2500 -11061
▁루루 -11062
▁청사 -11063
▁왕관 -11064
▁로지 -11065
지오 -11066
▁기쁨 -11067
▁두목 -11068
▁총사 -11069
▁최대치 -11070
▁김도 -11071
▁이준 -11072
ㅋㅓ -11073
▁나사 -11074
▁어설 -11075
▁블라디 -11076
▁골목 -11077
ㄷㅗㄹㄹㅕ -11078
반신 -11079
▁퍼시 -11080
▁CN -11081
▁ㄴㅘㅆㄷㅏ -11082
agon -11083
▁뛰어들 -11084
▁땀 -11085
▁깽 -11086
EL -11087
ert -11088
▁면접 -11089
▁필라 -11090
▁배리어 -11091
▁히카리 -11092
▁야당 -11093
▁164 -11094
▁항공사 -11095
▁ㅎㅓㄴ -11096
▁십자군 -11097
▁쓸데없이 -11098
▁퓨처 -11099
▁What -11100
▁보디 -11101
▁ㄱㅓㄴㄷㅡ -11102
▁ㅇㅕㅆㅇㅡㅁ -11103
▁스윕 -11104
아슬 -11105
▁아슬아슬 -11106
▁국기 -11107
▁yout -11108
▁관광객 -11109
▁ㅡ -11110
▁우투 -11111
▁추모 -11112
▁인사이드 -11113
에몽 -11114
▁투성이 -11115
▁드레드 -11116
▁ㅆㅏㅎㅇㅕ -11117
▁태권 -11118
▁네스 -11119
▁해태 -11120
▁인구수 -11121
▁화약 -11122
▁ONE -11123
▁미유키 -11124
공화 -11125
▁김천 -11126
▁직통 -11127
▁유나 -11128
▁심야 -11129
▁스트로 -11130
▁트레이닝 -11131
▁뉴질 -11132
▁뉴질랜드 -11133
▁하후 -11134
▁연기력 -11135
▁무안 -11136
▁하우 -11137
▁때로 -11138
▁136 -11139
▁Dark -11140
▁꿇 -11141
▁부처 -11142
▁pro -11143
ㄸㅓㄹㅇㅓ -11144
▁스토커 -11145
▁벚꽃 -11146
부인 -11147
▁청장 -11148
▁야마다 -11149
▁용의자 -11150
▁전수 -11151
▁킹덤 -11152
▁왕후 -11153
▁홍성 -11154
▁선수단 -11155
▁패닉 -11156
▁리부트 -11157
▁기소 -11158
▁음색 -11159
백과 -11160
▁콘셉트 -11161
▁선인 -11162
▁기이 -11163
▁바닐라 -11164
▁ㅎㅏㄹㅅㅜ -11165
▁누이 -11166
▁원망 -11167
▁ㄷㅏㅁㄱㅕ -11168
▁실로 -11169
▁극우 -11170
▁제단 -11171
▁라임 -11172
▁마의 -11173
▁0900 -11174
▁회로 -11175
▁반란군 -11176
▁관계없이 -11177
▁비로 -11178
프란 -11179
▁오프라인 -11180
▁로브 -11181
▁공고 -11182
▁완구 -11183
어버리 -11184
▁동아시아 -11185
▁페르시아 -11186
▁개그맨 -11187
ㄴㅕㅇ -11188
▁김연 -11189
▁경찰청 -11190
▁야전 -11191
리드 -11192
▁일환 -11193
▁time -11194
▁KC -11195
▁달라 -11196
▁두근 -11197
▁적립 -11198
▁이인 -11199
▁ㄴㅡㄹ -11200
▁ㄷㅓㄴㅈㅕㅆ -11201
ideo -11202
▁뽑아내 -11203
▁157 -11204
▁조준경 -11205
좀무 -11206
▁흠좀무 -11207
▁구제 -11208
▁불쾌 -11209
▁330 -11210
▁안철수 -11211
▁직격 -11212
▁뱉 -11213
▁모던 -11214
▁사범 -11215
▁패스트 -11216
▁화소 -11217
립트 -11218
▁동사 -11219
▁ㅃㅗㅂㅇㅏ -11220
무게 -11221
▁유고 -11222
▁몸무게 -11223
▁텀 -11224
레이트 -11225
▁ㄲㅏㄹ -11226
▁메이트 -11227
▁랙 -11228
▁징크스 -11229
▁템포 -11230
▁서장 -11231
무실 -11232
▁따라잡 -11233
▁Sl -11234
▁아이스크림 -11235
▁Sm -11236
▁쓰러트리 -11237
▁궁전 -11238
▁출고 -11239
▁꾸미 -11240
▁방안 -11241
▁중심지 -11242
▁세미 -11243
▁유해 -11244
ㅇㄱㅣㄴ -11245
슬리 -11246
▁미라이 -11247
▁혼동 -11248
▁숙주 -11249
▁훈훈 -11250
▁뮤지션 -11251
▁제이슨 -11252
티넘 -11253
▁카니 -11254
▁플래티넘 -11255
ors -11256
▁유선 -11257
▁한층 -11258
▁ㅅㅣㄹㄹㅕ -11259
▁그제 -11260
▁라바 -11261
other -11262
▁번갈 -11263
디스 -11264
▁중년 -11265
▁1963 -11266
▁자부 -11267
▁지극 -11268
▁모양새 -11269
air -11270
▁270 -11271
▁순정 -11272
▁연의 -11273
▁Blue -11274
▁알렉산더 -11275
▁악령 -11276
▁연금술사 -11277
▁에일리 -11278
▁어린아이 -11279
▁우천 -11280
▁ㄷㅗㄷ -11281
▁내세우 -11282
▁Baby -11283
▁경지 -11284
▁양대 -11285
▁하카 -11286
▁Ac -11287
land -11288
▁ㄷㅓㅁ -11289
▁제우스 -11290
▁창립 -11291
▁ab -11292
▁체격 -11293
▁시흥 -11294
▁코즈 -11295
▁브이 -11296
▁설탕 -11297
▁호박 -11298
▁대중교통 -11299
▁갈리아 -11300
▁방호 -11301
▁AG -11302
▁문신 -11303
anna -11304
▁휴스턴 -11305
▁레프 -11306
▁주한 -11307
▁패드 -11308
▁사투리 -11309
iew -11310
▁안토니 -11311
▁워너 -11312
▁외관 -11313
▁술집 -11314
▁집필 -11315
▁출연진 -11316
▁근력 -11317
▁유코 -11318
▁핸드폰 -11319
▁내뿜 -11320
▁전라북도 -11321
▁1968 -11322
▁클라우드 -11323
▁ㄱㅖ -11324
▁타다 -11325
▁오키나 -11326
▁플라스틱 -11327
▁박상 -11328
▁성숙 -11329
▁스케이 -11330
▁ㅂㅜㄹㄹㅕ -11331
▁앞뒤 -11332
▁대진 -11333
▁열세 -11334
애나 -11335
▁저조 -11336
▁합치 -11337
▁깨알 -11338
풀이 -11339
▁환사 -11340
▁샤를 -11341
ush -11342
▁브루스 -11343
▁신수 -11344
▁본의 -11345
려나 -11346
▁침해 -11347
▁투신 -11348
▁하이브리 -11349
▁우상 -11350
▁미티 -11351
▁히로시마 -11352
▁하이브리드 -11353
▁고자 -11354
▁참으로 -11355
▁나뭇 -11356
▁정서 -11357
▁좌파 -11358
▁장례식 -11359
▁미니언 -11360
▁제프 -11361
▁눈빛 -11362
▁하시 -11363
▁브레인 -11364
▁브론즈 -11365
▁Li -11366
▁후루 -11367
▁농민 -11368
▁선교 -11369
▁149 -11370
▁외면 -11371
▁꿰뚫 -11372
▁계시 -11373
▁벌금 -11374
▁테러리스트 -11375
▁해독 -11376
▁ㅂㅜㄹㄹㅣㄹ -11377
▁동호 -11378
▁테루 -11379
▁샤워 -11380
▁제사 -11381
▁타당 -11382
▁죄송 -11383
▁ㅅㅏㅇㅎㅏㄴ -11384
▁집합 -11385
▁줄리 -11386
▁멜론 -11387
▁도시락 -11388
▁센트럴 -11389
▁Fire -11390
▁허브 -11391
▁방언 -11392
▁세스 -11393
▁146 -11394
▁ㄱㅕㅂ -11395
▁공영 -11396
토리얼 -11397
▁후쿠시마 -11398
▁전열 -11399
▁청나라 -11400
▁오비 -11401
▁브레이브 -11402
카미 -11403
▁경제학 -11404
▁로라 -11405
▁튜토리얼 -11406
▁무수 -11407
▁마켓 -11408
▁사탄 -11409
▁수시로 -11410
▁공모 -11411
▁희대 -11412
▁총독 -11413
▁260 -11414
▁기피 -11415
OID -11416
▁적성 -11417
▁오리진 -11418
▁종착 -11419
▁부사관 -11420
▁장풍 -11421
▁이아 -11422
▁체스 -11423
▁El -11424
▁각국 -11425
na -11426
▁크롤 -11427
▁트러블 -11428
▁모어 -11429
▁김대중 -11430
▁취지 -11431
▁프렌즈 -11432
▁Dis -11433
▁심상 -11434
▁전반전 -11435
▁BEMAN -11436
▁ㄷㅏㄹㄹㅏㅆ -11437
▁마초 -11438
▁프로토타입 -11439
▁담임 -11440
▁푹 -11441
▁자칫 -11442
▁풍기 -11443
▁OK -11444
▁조교 -11445
▁일레븐 -11446
▁ㅍㅜㄹㄹㅣㄴ -11447
▁강세 -11448
▁암컷 -11449
▁손꼽히 -11450
▁기함 -11451
▁남미 -11452
▁환수 -11453
▁황실 -11454
▁초교 -11455
르도 -11456
▁지문 -11457
▁격전 -11458
▁하비 -11459
▁경과 -11460
▁DJMAX -11461
▁상쇄 -11462
▁리액 -11463
▁거품 -11464
▁넉넉 -11465
▁모함 -11466
▁베일 -11467
▁아르카 -11468
▁BEMANI -11469
▁방공 -11470
▁ㅆㅗㄴ -11471
▁미스터리 -11472
▁ㅊㅜㄹ -11473
▁낡 -11474
▁마테 -11475
▁프로모 -11476
▁헤일 -11477
▁연회 -11478
▁라프 -11479
▁소사 -11480
▁sm -11481
▁더구나 -11482
▁Champ -11483
▁ㅈㅜㄹㄱㅔ -11484
▁원자력 -11485
▁유니온 -11486
▁초상화 -11487
ㅇㅟㄴ -11488
▁확고 -11489
▁인체 -11490
▁가혹 -11491
ady -11492
▁럴 -11493
▁섹스 -11494
▁심화 -11495
▁일품 -11496
▁타카시 -11497
▁줌 -11498
▁성비 -11499
▁장동 -11500
두사 -11501
▁별칭 -11502
▁다이노스 -11503
▁ㅁㅐㄴ -11504
▁개미 -11505
▁주의자 -11506
전트 -11507
글라스 -11508
▁웨인 -11509
▁STR -11510
▁페이커 -11511
▁속력 -11512
▁문법 -11513
▁뒤지 -11514
▁루키 -11515
▁ㅅㅣㅁㅎㅐㅆ -11516
▁도검 -11517
▁fl -11518
▁적재 -11519
▁월등 -11520
▁방화 -11521
▁가라앉 -11522
▁하여금 -11523
▁고추 -11524
▁수량 -11525
▁켄지 -11526
▁랩터 -11527
▁미즈키 -11528
▁격기 -11529
▁상공 -11530
▁오의 -11531
단지 -11532
▁실력자 -11533
▁핸들 -11534
▁파격 -11535
레드 -11536
ution -11537
▁빈틈 -11538
▁무선 -11539
▁Pre -11540
▁하반기 -11541
▁데스티니 -11542
▁찰리 -11543
▁kr -11544
▁브랜 -11545
▁일삼 -11546
▁스트리밍 -11547
더링 -11548
▁고성 -11549
▁명명 -11550
▁석상 -11551
▁연말 -11552
▁클러 -11553
▁지난 -11554
▁합법 -11555
▁레이너 -11556
▁Ev -11557
▁병장 -11558
▁북구 -11559
▁중학생 -11560
베트 -11561
▁속공 -11562
▁우편 -11563
▁뒷면 -11564
레슬링 -11565
▁운반 -11566
▁프랜차 -11567
▁주가 -11568
▁ㅂㅏㄱㅅㅏㄹ -11569
▁맥락 -11570
▁205 -11571
▁공손 -11572
티노 -11573
▁cc -11574
▁므 -11575
나리 -11576
토랑 -11577
▁ㄷㅝㅆ -11578
▁책임지 -11579
▁포워드 -11580
▁야만 -11581
▁레스토랑 -11582
▁슈터 -11583
▁생선 -11584
▁통행 -11585
구역 -11586
ㅌㅓㄴ -11587
▁프로레슬링 -11588
ium -11589
▁파손 -11590
▁유승 -11591
▁평창 -11592
▁ㄱㅏㅆㅇㅡ -11593
▁신병 -11594
ㅁㅏㅇㅊㅕ -11595
▁선곡 -11596
▁성기 -11597
▁니나 -11598
▁퇴역 -11599
▁DB -11600
▁프랜차이즈 -11601
▁배우자 -11602
앙스 -11603
▁단식 -11604
▁맞대 -11605
▁피카츄 -11606
▁Summer -11607
▁말년 -11608
▁자질 -11609
▁오세 -11610
▁유유 -11611
저드 -11612
▁소령 -11613
▁550 -11614
▁수령 -11615
▁쏟아지 -11616
ㄱㅎㅕㅆ -11617
▁1967 -11618
▁본가 -11619
▁타나카 -11620
▁빈번 -11621
▁말아먹 -11622
▁수컷 -11623
▁Grand -11624
▁앞면 -11625
▁추출 -11626
▁탯이 -11627
▁편견 -11628
▁솜씨 -11629
▁쐐 -11630
▁아메리칸 -11631
▁RP -11632
▁저희 -11633
▁앤디 -11634
메어 -11635
▁하라 -11636
▁가브리 -11637
▁돋보이 -11638
▁클립 -11639
▁발차기 -11640
▁프리즘 -11641
▁독립운동 -11642
▁석사 -11643
▁박명수 -11644
▁놔 -11645
▁박용 -11646
▁뚜껑 -11647
사벽 -11648
▁넘사벽 -11649
▁뉘앙스 -11650
▁Rock -11651
석민 -11652
▁하와 -11653
▁호출 -11654
▁정재 -11655
▁불화 -11656
▁ㅆㅓㄹ -11657
▁디비전 -11658
▁ㅁㅜㅇㅊㅕ -11659
▁격리 -11660
▁주고 -11661
▁블래 -11662
▁나레이션 -11663
▁당국 -11664
▁운석 -11665
▁부친 -11666
▁강점기 -11667
▁정체불명 -11668
▁리바운드 -11669
치아 -11670
▁져 -11671
▁다면 -11672
▁질환 -11673
▁전염 -11674
▁원작자 -11675
▁ㄴㅜㄴㅊㅣ -11676
와라 -11677
▁애국 -11678
▁미로 -11679
▁211 -11680
▁147 -11681
▁부관 -11682
▁나이트메어 -11683
엘라 -11684
▁나열 -11685
▁게임즈 -11686
ㄷㅡㄹㅇㅣㄹ -11687
▁노블 -11688
▁광전사 -11689
▁신임 -11690
▁정형 -11691
▁경질 -11692
▁대승 -11693
▁츠바사 -11694
듈럼 -11695
▁총평 -11696
미르 -11697
▁우체 -11698
더슨 -11699
▁원흉 -11700
▁ㄸㅔ -11701
▁오시 -11702
▁Over -11703
▁플레어 -11704
▁하드웨어 -11705
▁내셔널 -11706
▁끓 -11707
▁자각 -11708
▁일례 -11709
▁증인 -11710
▁우파 -11711
▁ㅈㅐ -11712
▁무죄 -11713
스틴 -11714
gain -11715
▁미들 -11716
퍼드 -11717
ㅂㅎㅕㅆ -11718
▁back -11719
▁간호사 -11720
▁토마토 -11721
▁SCP -11722
▁넥서스 -11723
모어 -11724
▁동년 -11725
▁교통사고 -11726
▁복면 -11727
▁미팅 -11728
ㄹㅓㅆ -11729
▁은메달 -11730
▁특이점 -11731
▁브라우 -11732
▁페인 -11733
▁재빨리 -11734
▁우가 -11735
어들이 -11736
▁콕 -11737
▁펜듈럼 -11738
▁GG -11739
▁네코 -11740
▁Dance -11741
▁배속 -11742
▁퓨리 -11743
▁day -11744
현우 -11745
▁퓨어 -11746
▁수수료 -11747
평가 -11748
▁드릴 -11749
▁유신 -11750
▁몹시 -11751
▁무명 -11752
▁말레이시아 -11753
▁코지 -11754
ction -11755
▁흩 -11756
▁치루 -11757
▁LED -11758
▁가의 -11759
▁원종 -11760
▁입국 -11761
▁아이폰 -11762
두리 -11763
▁마지 -11764
▁범행 -11765
▁호노 -11766
▁체형 -11767
▁포식 -11768
ㅁㅏㄹㄹㅕ -11769
▁뭔 -11770
▁게시물 -11771
▁메모 -11772
▁이방 -11773
▁ㄲㅡㅌㄴㅏㅆ -11774
▁실루 -11775
▁별자리 -11776
▁ㄲㅗㅂㅎㅣㄴㄷㅏ -11777
▁DR -11778
▁유무 -11779
▁VOC -11780
▁여관 -11781
▁개개 -11782
▁탄탄 -11783
고래 -11784
▁감전 -11785
▁줄어드 -11786
▁This -11787
▁무고 -11788
▁영등포 -11789
▁ㄱㅜㄹㄹㅕ -11790
▁만루 -11791
▁버릇 -11792
▁ㅇㅏㅍㅅㅔ -11793
▁인어 -11794
▁now -11795
▁힐링 -11796
▁대외 -11797
▁공습 -11798
▁ㅅㅏㅁ -11799
▁옌 -11800
▁재활 -11801
통수 -11802
ㅉㅐㅆ -11803
노스케 -11804
▁십자가 -11805
▁전례 -11806
▁깨어나 -11807
▁방과 -11808
ne -11809
▁리키 -11810
▁파문 -11811
▁SL -11812
▁동등 -11813
irst -11814
▁픽셀 -11815
▁군림 -11816
▁텅 -11817
▁아래쪽 -11818
▁푼 -11819
▁염색 -11820
▁But -11821
▁Gold -11822
ㅇㅜㄴㄷㅔ -11823
▁광속 -11824
▁ㅁㅜㄲㅇㅕ -11825
▁관절 -11826
▁사슴 -11827
▁전두 -11828
▁함재기 -11829
▁Wii -11830
▁3164 -11831
▁ㅂㅣㅅ -11832
▁경순 -11833
▁살인마 -11834
▁그리드 -11835
▁내구력 -11836
▁한강 -11837
▁홀딩 -11838
츠카 -11839
▁멀리서 -11840
▁미스트 -11841
▁폴리스 -11842
▁에바 -11843
▁유마 -11844
▁속박 -11845
▁통수 -11846
▁헤어지 -11847
▁보구 -11848
▁이창 -11849
▁알렉산드 -11850
트랙 -11851
▁하행 -11852
▁속편 -11853
▁발라드 -11854
▁Ste -11855
▁ㅅㅗㄴ -11856
▁강팀 -11857
▁동북 -11858
▁상행 -11859
▁무제한 -11860
▁오디오 -11861
ount -11862
▁사교 -11863
▁HG -11864
▁ㅅㅣㄴㅈㅣ -11865
▁떄 -11866
파리 -11867
▁배송 -11868
▁온몸 -11869
▁ㅂㅗㄹㄲㅏ -11870
▁ㄱㅜㄹㄹㅓ -11871
▁엎 -11872
▁박찬 -11873
▁교내 -11874
▁박재 -11875
▁캐스트 -11876
▁권능 -11877
▁노트북 -11878
▁증가량 -11879
▁제보 -11880
▁호투 -11881
결승 -11882
▁박영 -11883
▁카우 -11884
▁ㅅㅓㄹ -11885
▁시초 -11886
▁진도 -11887
▁대패 -11888
▁루팡 -11889
▁점사 -11890
르바 -11891
▁격침 -11892
▁공천 -11893
▁미수 -11894
▁여배우 -11895
▁해적단 -11896
▁목재 -11897
▁직속 -11898
▁자격증 -11899
▁펴 -11900
▁DX -11901
▁륙 -11902
▁동메달 -11903
▁FL -11904
▁라파 -11905
▁Just -11906
▁기괴 -11907
자동 -11908
기사 -11909
▁HK -11910
▁스퀘어 -11911
let -11912
▁대군 -11913
▁길거리 -11914
ring -11915
▁발현 -11916
▁무슬 -11917
▁심문 -11918
▁감기 -11919
▁교양 -11920
▁빌보드 -11921
▁별점 -11922
▁성직자 -11923
▁타치바나 -11924
▁가창 -11925
▁노비 -11926
▁왕좌 -11927
▁보행 -11928
▁통증 -11929
▁채취 -11930
▁성수 -11931
▁격투기 -11932
▁데려오 -11933
콥터 -11934
▁박탈 -11935
▁요리사 -11936
▁창세 -11937
▁우물 -11938
▁204 -11939
eng -11940
▁클레이 -11941
ㄷㅗㄹㅇㅏ -11942
▁1966 -11943
▁단말 -11944
▁안드로 -11945
▁호그 -11946
▁MSL -11947
▁쇼트 -11948
DS -11949
▁국민당 -11950
▁추궁 -11951
▁기획사 -11952
▁스네이크 -11953
▁첫날 -11954
▁대공포 -11955
▁닥치 -11956
▁리엘 -11957
▁pt -11958
▁어느새 -11959
▁셋째 -11960
▁지온 -11961
▁ㄱㅏㅁㅊ -11962
▁멸종 -11963
▁방송인 -11964
▁166 -11965
느님 -11966
▁가성 -11967
▁남발 -11968
▁회복력 -11969
▁샌프란 -11970
▁샌프란시스코 -11971
레일 -11972
▁동문 -11973
▁TW -11974
무네 -11975
▁무사시 -11976
줌마 -11977
▁혼합 -11978
▁ㅋㅣㄴ -11979
▁프로모션 -11980
▁번식 -11981
▁맴 -11982
플렉스 -11983
▁독수리 -11984
▁지지자 -11985
▁닉스 -11986
▁스킵 -11987
▁줄줄 -11988
▁레이첼 -11989
▁미사키 -11990
▁동로 -11991
▁잖 -11992
▁오키나와 -11993
▁news -11994
▁리턴 -11995
▁여친 -11996
▁달라붙 -11997
▁Korea -11998
▁VOCAL -11999
▁구타 -12000
ㅇㅎㅏㅁ -12001
▁크리스토 -12002
▁대쉬 -12003
▁손톱 -12004
▁책정 -12005
산동 -12006
▁하느님 -12007
▁사우루스 -12008
▁아줌마 -12009
▁내밀 -12010
▁수강 -12011
▁무슬림 -12012
▁CA -12013
▁기합 -12014
▁일일이 -12015
▁비즈 -12016
▁Can -12017
▁걸어가 -12018
▁머릿 -12019
▁코바야시 -12020
▁불평 -12021
▁끌려가 -12022
▁명곡 -12023
▁카구라 -12024
▁경감 -12025
▁증발 -12026
▁DNA -12027
▁스크립트 -12028
▁진구 -12029
현진 -12030
▁뒤통수 -12031
저것 -12032
▁이것저것 -12033
▁다이스케 -12034
▁사모 -12035
▁사망자 -12036
▁속이 -12037
▁회견 -12038
▁쫄 -12039
ina -12040
▁직무 -12041
▁인천광역시 -12042
▁삼촌 -12043
▁뷔 -12044
파크 -12045
▁농락 -12046
▁물가 -12047
▁도라에몽 -12048
▁슬로우 -12049
▁냅 -12050
▁괴력 -12051
▁공존 -12052
▁제스 -12053
▁롤링 -12054
스트림 -12055
ㅁㅏㅇㄱ -12056
▁친목 -12057
ERO -12058
▁누명 -12059
▁커트 -12060
▁사료 -12061
▁MHz -12062
▁카이토 -12063
▁회오리 -12064
▁셸 -12065
▁단과 -12066
▁악어 -12067
▁연고지 -12068
▁주심 -12069
▁인쇄 -12070
▁Sec -12071
UR -12072
▁호프 -12073
▁후대 -12074
▁이례 -12075
소수 -12076
▁650 -12077
▁회귀 -12078
▁아카리 -12079
▁포효 -12080
▁현상금 -12081
▁복용 -12082
▁정정 -12083
▁기술자 -12084
▁계란 -12085
▁소서 -12086
▁비타 -12087
▁실습 -12088
▁시가 -12089
자재 -12090
▁아까 -12091
조합 -12092
▁미판 -12093
▁신정 -12094
▁ㅁㅜㄹㄹㅣ -12095
▁트렌 -12096
▁레이트 -12097
▁니카 -12098
▁동조 -12099
▁KTX -12100
▁Music -12101
▁키트 -12102
▁명나라 -12103
▁ㅂㅓㅅㄱㅕ -12104
메스 -12105
▁네놈 -12106
▁At -12107
▁카르마 -12108
▁타시 -12109
▁로컬 -12110
▁우메 -12111
ally -12112
▁EBS -12113
▁리플렉 -12114
OO -12115
▁FB -12116
▁필터 -12117
▁헬리콥터 -12118
▁...... -12119
▁박치기 -12120
▁ㄲㅣㄴ -12121
▁넘어지 -12122
▁포대 -12123
▁ㅂㅓㄹㅇㅕ -12124
▁장원 -12125
▁프린스 -12126
보그 -12127
▁시부 -12128
▁토이 -12129
▁고조 -12130
▁아깝 -12131
▁분홍색 -12132
▁분장 -12133
▁광대 -12134
▁김원 -12135
▁회심 -12136
▁디렉터 -12137
▁Su -12138
▁다스리 -12139
티콘 -12140
▁김형 -12141
▁ㅆㅗㄴㄷㅏ -12142
▁로저 -12143
▁박경 -12144
프라 -12145
▁천마 -12146
▁한숨 -12147
▁ㅎㅓㅁ -12148
▁진수 -12149
▁동족 -12150
▁총열 -12151
▁파수 -12152
▁Ep -12153
▁두르 -12154
▁문어 -12155
▁브릿 -12156
네이터 -12157
▁퐁 -12158
▁홍진호 -12159
▁Live -12160
▁스냅 -12161
▁실루엣 -12162
▁듀크 -12163
▁유영 -12164
▁이속 -12165
소문 -12166
▁GN -12167
ART -12168
▁하리 -12169
▁미하 -12170
▁쿠시 -12171
▁경보 -12172
▁되돌리 -12173
▁ㅇㅗㄻㄱㅕㅆ -12174
니카 -12175
▁유난 -12176
▁일어 -12177
▁태극 -12178
▁셉 -12179
▁부류 -12180
▁벌리 -12181
▁비로소 -12182
▁루마니아 -12183
▁ㅌㅐㄱ -12184
▁Comm -12185
▁ㅇㅜㄴ -12186
▁박해 -12187
ㅊㅐㄴ -12188
▁텍스 -12189
▁캐리어 -12190
▁급히 -12191
▁ㅂㅓㄹㅇㅣㄴㄷㅏ -12192
▁레즈 -12193
▁정크 -12194
▁ㅇㅓㅍ -12195
▁괴상 -12196
▁BF -12197
▁만행 -12198
▁ㅇㅓㄹ -12199
▁딸기 -12200
▁1962 -12201
▁가급 -12202
▁난감 -12203
▁춘천 -12204
▁로코 -12205
▁선우 -12206
▁유정 -12207
▁경유지 -12208
▁놔두 -12209
▁MX -12210
▁피스트 -12211
▁달빛 -12212
▁그립 -12213
▁아타 -12214
▁케이지 -12215
▁열람 -12216
▁고토 -12217
▁카가미 -12218
▁뽕 -12219
▁공자 -12220
▁스완 -12221
▁요시다 -12222
▁` -12223
▁항아리 -12224
바다 -12225
널드 -12226
▁살상 -12227
젤레스 -12228
▁장학 -12229
▁망령 -12230
▁미성년 -12231
▁병살타 -12232
ㅋㅕㅆㅇㅡ -12233
▁바티 -12234
▁츠나 -12235
▁가미 -12236
son -12237
▁프랑크 -12238
▁위키백과 -12239
▁무진 -12240
▁어퍼 -12241
ㅅㅏ -12242
▁한발 -12243
▁금색 -12244
▁달려가 -12245
▁ㅁㅏㅇㅎㅏㄴ -12246
▁습관 -12247
▁판권 -12248
▁get -12249
▁고릴라 -12250
장난 -12251
▁재직 -12252
▁퍼센트 -12253
▁키무라 -12254
▁서태 -12255
▁목동 -12256
▁돌격소총 -12257
▁반군 -12258
use -12259
▁비꼬 -12260
ㅍㅕ -12261
▁똑똑 -12262
▁관직 -12263
▁가로막 -12264
▁발광 -12265
▁ㅍㅐㄴ -12266
▁홈즈 -12267
▁감행 -12268
▁대마 -12269
▁리티 -12270
상가상 -12271
▁1800 -12272
▁바주 -12273
▁설상가상 -12274
▁암울 -12275
▁김명 -12276
▁학점 -12277
▁주거 -12278
▁코다 -12279
▁ㅈㅣㄴㅈㅓ -12280
▁레기 -12281
▁입양 -12282
▁소절 -12283
▁요시노 -12284
▁UF -12285
▁ㄷㅏㄹㅇㅏ -12286
▁콜롬 -12287
▁야외 -12288
▁영진 -12289
▁기법 -12290
▁후문 -12291
ㅇㄱㅏ -12292
▁짚 -12293
▁사로 -12294
▁투니 -12295
▁무겁 -12296
▁ㅈㅣㄴㅈㅓㅇㅎㅏㄴ -12297
▁GR -12298
▁악의 -12299
▁천공 -12300
▁ㅁㅏㄴㄷㅡㄴㄷㅏ -12301
▁조직원 -12302
▁169 -12303
▁그리하여 -12304
▁개연 -12305
itch -12306
▁Power -12307
▁섀도 -12308
▁진리 -12309
▁ㅈㅏㄹㄹㅕ -12310
말리 -12311
▁카에 -12312
▁코요 -12313
려워하 -12314
▁ㅁㅏㅇㅎㅐ -12315
▁ㅎㅏㅂㅊㅣㄴ -12316
▁강수 -12317
▁저서 -12318
▁사이보그 -12319
ㄴㅘ -12320
▁대인배 -12321
▁Leg -12322
▁gr -12323
▁셰프 -12324
▁클라이 -12325
▁스퍼 -12326
▁뇌물 -12327
▁용감 -12328
▁Res -12329
▁천둥 -12330
▁Af -12331
▁레이나 -12332
▁고든 -12333
▁진성 -12334
▁++ -12335
tr -12336
▁오케스트라 -12337
▁구급 -12338
▁단정 -12339
관총 -12340
▁주황색 -12341
attle -12342
inn -12343
▁도청 -12344
▁Hard -12345
▁타니 -12346
▁볼텍스 -12347
▁에도 -12348
▁man -12349
▁연발 -12350
▁북아 -12351
▁파벌 -12352
▁바니 -12353
▁경쟁자 -12354
▁디펜스 -12355
▁차용 -12356
▁MR -12357
▁로저스 -12358
▁RC -12359
▁ARM -12360
▁서민 -12361
▁세탁 -12362
▁안보 -12363
▁양보 -12364
▁산책 -12365
▁실업 -12366
문트 -12367
▁UI -12368
75 -12369
▁예지 -12370
▁저상 -12371
▁사스케 -12372
▁송출 -12373
▁추적자 -12374
▁커비 -12375
▁그랜 -12376
▁히토미 -12377
니클 -12378
▁Ma -12379
▁ADV -12380
▁전산 -12381
못미 -12382
▁자판 -12383
▁지못미 -12384
▁결사 -12385
쌔신 -12386
▁1940 -12387
▁어쌔신 -12388
▁Sing -12389
▁바그 -12390
▁쿠루 -12391
▁잠재력 -12392
▁Life -12393
▁치사 -12394
ㅈㅝㅆ -12395
▁베이더 -12396
▁엘리스 -12397
▁ㅁㅛ -12398
일라 -12399
▁전속 -12400
▁응원가 -12401
마당 -12402
▁법안 -12403
▁Master -12404
▁but -12405
▁ㅍㅕㄴㅎㅐ -12406
▁제원 -12407
징어 -12408
▁코이 -12409
▁Che -12410
▁블래스트 -12411
▁영남 -12412
▁단속 -12413
▁접점 -12414
XT -12415
▁마요 -12416
▁조력자 -12417
ern -12418
▁배상 -12419
▁직결 -12420
▁경선 -12421
▁미코토 -12422
▁행방불명 -12423
아라 -12424
▁보잉 -12425
▁진행자 -12426
▁VOCALOID -12427
▁번트 -12428
TC -12429
▁똘 -12430
▁교관 -12431
▁독서 -12432
▁카즈마 -12433
▁호로 -12434
ㅇㅗㄹㄹㅏㅆ -12435
ars -12436
▁청원 -12437
▁Pv -12438
▁장제스 -12439
▁런닝 -12440
큘라 -12441
▁수복 -12442
▁천주교 -12443
▁처절 -12444
▁나들 -12445
▁저렇게 -12446
▁아이유 -12447
▁어미 -12448
▁공과 -12449
▁공약 -12450
▁리조 -12451
▁수용소 -12452
▁워낙에 -12453
▁ㄱㅔㄴㅈㅣ -12454
▁남작 -12455
▁나들목 -12456
놀이 -12457
▁Fem -12458
▁냉각 -12459
▁출중 -12460
▁설화 -12461
▁준결승 -12462
asy -12463
ㄱㅇㅣㅁ -12464
▁모닝 -12465
▁월급 -12466
▁정확도 -12467
▁여정 -12468
▁준공 -12469
▁Rem -12470
▁출루율 -12471
▁쐐기 -12472
▁얕 -12473
장이 -12474
▁코파 -12475
▁급기 -12476
rain -12477
▁ㄴㅗㄹㄹㅏㄴ -12478
▁매너 -12479
▁튜닝 -12480
▁뷰티 -12481
▁카밀 -12482
▁피치 -12483
▁은혜 -12484
▁ㅇㅣㅂㅎㅣㄹ -12485
▁co -12486
▁ㅇㅣㄹㅅㅜ -12487
▁탈당 -12488
니스트 -12489
▁한탄 -12490
토르 -12491
▁크리스티 -12492
▁마운드 -12493
▁열악 -12494
▁충청북도 -12495
▁im -12496
▁혹사 -12497
▁Out -12498
▁Lo -12499
▁카를로스 -12500
IE -12501
▁무효화 -12502
▁제다이 -12503
▁ㅋㅋ -12504
UE -12505
규모 -12506
▁기복 -12507
▁페이트 -12508
▁휴게소 -12509
총리 -12510
▁편안 -12511
▁켈리 -12512
▁동요 -12513
▁키사 -12514
▁슬리 -12515
▁채집 -12516
▁부드 -12517
▁구두 -12518
to -12519
▁출근 -12520
▁예언자 -12521
▁카오리 -12522
▁러시아어 -12523
▁증기 -12524
▁"" -12525
▁시가지 -12526
24 -12527
▁더비 -12528
ana -12529
▁근성 -12530
▁재사 -12531
▁LCK -12532
▁동체 -12533
▁한도 -12534
▁금호 -12535
▁댄서 -12536
▁ㅇㅞ -12537
▁가호 -12538
▁트리스 -12539
▁네이트 -12540
▁교향 -12541
▁ㄱㅓㄹㅊㅣㄴ -12542
▁훅 -12543
▁광탈 -12544
▁매출액 -12545
▁동탁 -12546
▁1944 -12547
▁사출 -12548
▁득점자 -12549
▁박준 -12550
▁리전 -12551
▁픽업 -12552
▁데우스 -12553
▁간선 -12554
▁포트리스 -12555
cl -12556
▁당첨 -12557
▁선방 -12558
▁행하 -12559
▁151 -12560
▁실명 -12561
▁OPS -12562
테이 -12563
▁여권 -12564
▁매칭 -12565
▁1930 -12566
▁가두 -12567
▁문고 -12568
▁체리 -12569
▁원활 -12570
▁지주 -12571
▁주고받 -12572
▁실정 -12573
▁자회사 -12574
▁외우 -12575
▁호기심 -12576
▁농협 -12577
▁사당 -12578
ield -12579
▁고산 -12580
▁무빙 -12581
▁제라 -12582
▁End -12583
▁전두환 -12584
▁궤적 -12585
▁이변 -12586
▁전세 -12587
▁금화 -12588
▁소매 -12589
▁카노 -12590
▁토로 -12591
▁신칸 -12592
▁999 -12593
년기 -12594
▁256 -12595
▁ㄴㅗㄹㄹㅏㅆ -12596
▁포맷 -12597
▁카디 -12598
▁반대편 -12599
▁OB -12600
▁부흥 -12601
▁불신 -12602
▁비장 -12603
▁형편없 -12604
▁무림 -12605
▁베인 -12606
▁창병 -12607
▁내수 -12608
▁야심 -12609
▁노기 -12610
▁상용 -12611
▁이노우 -12612
▁차후 -12613
ㄷㅊㅕ -12614
▁ㅁㅗㅅㅎㅐㅆㅇㅡ -12615
▁Fi -12616
▁구단주 -12617
▁부당 -12618
▁털어놓 -12619
▁학술 -12620
▁ㅂㅜㄹㅌㅐ -12621
▁ㅌㅏㄴㄷㅏ -12622
▁시에 -12623
▁인벤토리 -12624
▁김두한 -12625
▁ㅍㅛ -12626
▁괴리 -12627
ㅇㅜㄹㄹㅣㄴㄷㅏ -12628
▁초선 -12629
▁숀 -12630
심장 -12631
▁Hell -12632
▁감히 -12633
riend -12634
▁농사 -12635
▁신칸센 -12636
▁POP -12637
▁등교 -12638
▁이은 -12639
▁일절 -12640
▁돌려주 -12641
▁사안 -12642
▁중전차 -12643
▁열등 -12644
▁태자 -12645
▁퀄컴 -12646
코어 -12647
▁유방 -12648
▁Miss -12649
▁더욱이 -12650
▁성역 -12651
▁시스터 -12652
atic -12653
▁동갑 -12654
▁이질 -12655
▁ㅁㅣㄹㄹㅣㄴㄷㅏ -12656
▁탬 -12657
▁세레 -12658
▁자처 -12659
무소 -12660
▁1965 -12661
클럽 -12662
▁모범 -12663
▁사극 -12664
▁유난히 -12665
▁Air -12666
▁교감 -12667
▁법학 -12668
33 -12669
차례 -12670
▁ㄷㅓㄴㅈㅣㄴㄷㅏ -12671
▁부호 -12672
▁ㅁㅣㄹㄹㅕㅆ -12673
▁따내 -12674
▁친정 -12675
▁팔찌 -12676
▁야마구치 -12677
▁동지 -12678
▁코타로 -12679
▁night -12680
▁순교 -12681
▁1964 -12682
▁서해 -12683
▁소시 -12684
▁잔디 -12685
▁배열 -12686
▁돌보 -12687
▁수식 -12688
▁충북 -12689
▁스타팅 -12690
▁테일러 -12691
ittle -12692
▁서지 -12693
▁김일성 -12694
▁숏 -12695
▁지표 -12696
▁허공 -12697
▁못지않 -12698
▁군복 -12699
▁함포 -12700
▁PVP -12701
▁목적지 -12702
▁세일 -12703
▁SG -12704
▁sc -12705
▁민정 -12706
▁향기 -12707
▁안성 -12708
▁리마 -12709
▁세세 -12710
LS -12711
지부 -12712
▁ㅁㅏㅈㅁㅜ -12713
▁아이언맨 -12714
▁에일리언 -12715
▁ㄱㅏㄹㄹㅣㄴㄷㅏ -12716
▁확립 -12717
▁커먼 -12718
▁포토 -12719
▁다짐 -12720
▁클레어 -12721
▁Hy -12722
▁교직 -12723
▁깽판 -12724
▁마차 -12725
▁6000 -12726
▁구절 -12727
뮤직 -12728
▁지극히 -12729
▁꾀 -12730
▁아카이 -12731
▁q -12732
▁Vo -12733
▁트로이 -12734
▁just -12735
▁굶 -12736
▁380 -12737
▁오징어 -12738
▁음주 -12739
▁영동 -12740
▁서정 -12741
▁일본식 -12742
▁카스미 -12743
▁애교 -12744
▁신대 -12745
▁웨어 -12746
▁ㅎㅏㄴㅎㅐ -12747
▁불로 -12748
▁파파 -12749
▁어리석 -12750
▁정동 -12751
▁스캔들 -12752
▁망설 -12753
▁Mod -12754
▁바주카 -12755
28 -12756
▁설비 -12757
▁센티 -12758
▁애시 -12759
▁빅토르 -12760
▁ㅈㅓㄴㅎㅐㅆ -12761
마침 -12762
▁랜턴 -12763
▁수험 -12764
▁부드럽 -12765
▁반기 -12766
▁VR -12767
▁배기 -12768
▁이용해 -12769
▁아홉 -12770
▁Di -12771
▁액셀 -12772
▁필연 -12773
▁아몬 -12774
▁퍼붓 -12775
▁가뜩 -12776
▁부대원 -12777
▁이치고 -12778
▁패미 -12779
▁밋 -12780
▁해내 -12781
▁넥슨 -12782
▁럼블 -12783
▁라틴어 -12784
▁징징 -12785
▁콜드 -12786
▁본성 -12787
▁역병 -12788
▁직역 -12789
▁때마침 -12790
ㄹㅡㄴㄷㅔ -12791
▁차관 -12792
▁자주포 -12793
▁챌린저 -12794
▁신흥 -12795
▁ㅇㅜㅁㅈㅣㄱㅇㅣㅁ -12796
▁거칠 -12797
▁케로 -12798
▁설계도 -12799
▁샤크 -12800
▁출몰 -12801
▁고폭탄 -12802
레스트 -12803
▁ㄲㅐㄹ -12804
▁노엘 -12805
▁MT -12806
▁Sy -12807
▁국산 -12808
▁바비 -12809
▁부딪히 -12810
▁팔라딘 -12811
▁볼륨 -12812
▁토오루 -12813
▁로딩 -12814
▁시코 -12815
▁스타크 -12816
▁학번 -12817
▁가급적 -12818
▁조폭 -12819
▁레몬 -12820
▁억지 -12821
▁예장 -12822
▁YOU -12823
▁집중력 -12824
▁가뜩이나 -12825
▁tvN -12826
▁쏠쏠 -12827
▁일렉트로 -12828
▁손아 -12829
▁수녀 -12830
▁흘러가 -12831
▁King -12832
▁임원 -12833
▁1920 -12834
▁발악 -12835
▁서대 -12836
▁연구실 -12837
▁what -12838
▁중견수 -12839
▁XXX -12840
▁개개인 -12841
▁수상자 -12842
▁ㅇㅜㄹㄹㅕ -12843
사관 -12844
▁Ang -12845
▁게릴라 -12846
▁토네 -12847
▁악랄 -12848
▁페니 -12849
▁그려 -12850
▁김택 -12851
▁연비 -12852
▁자크 -12853
ㄴㅣㅂㄴㅣ -12854
ony -12855
▁직구 -12856
▁차선 -12857
▁하타 -12858
▁승려 -12859
▁전폭 -12860
지르 -12861
▁소동 -12862
▁도요 -12863
▁스콧 -12864
▁접근성 -12865
▁왠만 -12866
▁강판 -12867
▁호쿠 -12868
▁소감 -12869
▁ㅇㅠ -12870
▁재사용 -12871
▁폿 -12872
ㅈㅏㅇ -12873
▁상체 -12874
▁야드 -12875
ㄴㄱㅏ -12876
▁넘어서 -12877
▁성형 -12878
▁조영 -12879
▁노조미 -12880
▁마도사 -12881
mania -12882
▁끝장 -12883
▁파이브 -12884
▁포지 -12885
▁리우 -12886
▁다비 -12887
▁절규 -12888
▁첨단 -12889
▁ㄷㅏㄹㄹㅕㅆ -12890
▁상가 -12891
▁안산 -12892
ㄱㅅㅡ -12893
▁전리 -12894
▁칙 -12895
▁콘티 -12896
▁인터페이스 -12897
▁페가 -12898
ㅍㅓ -12899
▁매스 -12900
▁용맹 -12901
▁소규모 -12902
▁ㅂㅏㄺㅎㅣㄴㄷㅏ -12903
▁ㄷㅗㄹㄹㅣㄹ -12904
▁리에 -12905
▁서킷 -12906
▁자연수 -12907
▁STER -12908
▁최영 -12909
▁공산주의 -12910
▁노이즈 -12911
▁반항 -12912
▁후예 -12913
▁동인지 -12914
이센 -12915
▁강행 -12916
▁시몬 -12917
▁가르침 -12918
▁0000 -12919
로프 -12920
▁보리 -12921
▁샤프 -12922
테이너 -12923
▁EMP -12924
▁UFC -12925
▁ㅂㅜㅌㅇㅕㅆ -12926
ma -12927
동원 -12928
▁IG -12929
▁즉각 -12930
▁총탄 -12931
▁건재 -12932
▁태조 -12933
ㄲㅟㄹ -12934
▁박격 -12935
▁ㄹㅏㅁ -12936
▁실황 -12937
▁드라큘라 -12938
ㄲㅜㄴㄷㅏ -12939
포드 -12940
▁Cy -12941
▁ㄹㅜㄴ -12942
란트 -12943
▁쳐다보 -12944
▁리쿠 -12945
▁먹방 -12946
▁악용 -12947
▁펠리 -12948
▁진료 -12949
블릿 -12950
▁카린 -12951
▁기성 -12952
▁퇴사 -12953
▁크루즈 -12954
▁오로라 -12955
▁패기 -12956
▁퇴출 -12957
▁생산력 -12958
▁EA -12959
▁플루 -12960
▁마에다 -12961
▁와이어 -12962
ㅇㅗㄹㄹㅕ -12963
▁바루 -12964
▁양측 -12965
미스 -12966
▁만료 -12967
▁빈사 -12968
▁사사키 -12969
대기 -12970
▁밀집 -12971
▁광신 -12972
▁밀란 -12973
▁초사 -12974
▁IDOL -12975
▁타케시 -12976
▁웨이트 -12977
▁사임 -12978
단체 -12979
타르 -12980
▁우아 -12981
▁대상자 -12982
▁1600 -12983
▁카무이 -12984
▁공성전 -12985
▁딱딱 -12986
무기 -12987
▁아델 -12988
▁재난 -12989
▁포럼 -12990
▁카타르 -12991
곡동 -12992
숨에 -12993
▁오인 -12994
▁이선 -12995
▁단숨에 -12996
▁ㅆㅏㅎㅇㅣㄴ -12997
▁옵티 -12998
▁쿠파 -12999
▁자수 -13000
▁자신감 -13001
be -13002
▁원내 -13003
▁씌 -13004
▁131 -13005
인드 -13006
▁타국 -13007
▁무전 -13008
▁수고 -13009
▁적진 -13010
▁게리온 -13011
▁목요일 -13012
ual -13013
▁허위 -13014
▁카지노 -13015
▁white -13016
▁말미 -13017
▁솔라 -13018
▁카탈 -13019
▁Run -13020
▁로사 -13021
▁장편 -13022
▁학회 -13023
▁남동 -13024
▁드라군 -13025
▁스피커 -13026
▁무궁화 -13027
▁파인 -13028
▁페르난 -13029
▁스위트 -13030
터스 -13031
▁안면 -13032
▁은밀 -13033
▁변질 -13034
▁MASTER -13035
▁유토 -13036
▁ㅃㅐㄴ -13037
하하 -13038
▁대출 -13039
▁부평 -13040
▁섬기 -13041
▁벅스 -13042
▁한심 -13043
▁퍼부 -13044
▁대주 -13045
▁ㄷㅚㄹㄲㅏ -13046
▁마사키 -13047
▁초당 -13048
▁프랭 -13049
▁소용돌이 -13050
▁관동 -13051
▁원고 -13052
▁소극 -13053
▁수요일 -13054
▁광복 -13055
▁대대로 -13056
▁스티커 -13057
▁진가 -13058
▁저격총 -13059
▁ㅍㅜㄹㄹㅕㅆ -13060
ㅈㅓㅇ -13061
▁투하 -13062
ㄷㅜㄹ -13063
▁메테오 -13064
▁총격 -13065
▁경성 -13066
▁에밀리 -13067
▁괴담 -13068
▁마이트 -13069
ecial -13070
▁준하 -13071
밀리아 -13072
▁내야수 -13073
▁선대 -13074
▁우체국 -13075
▁덫 -13076
미즈 -13077
▁ㅁㅜㄹㄹㅕ -13078
▁입학식 -13079
▁School -13080
▁생산량 -13081
▁SV -13082
어먹 -13083
▁좌표 -13084
▁보증 -13085
▁UM -13086
▁원호 -13087
회장 -13088
▁MLB -13089
▁지그 -13090
페르 -13091
▁운운 -13092
▁다단 -13093
▁멀쩡히 -13094
ane -13095
▁SO -13096
▁외래 -13097
▁물리학 -13098
▁수비진 -13099
▁통신사 -13100
▁홍준 -13101
▁가브리엘 -13102
▁태세 -13103
▁마징 -13104
▁새우 -13105
▁승천 -13106
▁마징가 -13107
▁서초 -13108
▁백합 -13109
▁치명상 -13110
▁분기점 -13111
▁민원 -13112
▁Rec -13113
▁샴 -13114
▁장타율 -13115
▁다중 -13116
▁대각 -13117
▁ㅅㅡㅂㅎㅏㄴ -13118
▁미타 -13119
▁자유자재 -13120
▁전편 -13121
▁Sound -13122
▁뮬 -13123
▁단골 -13124
Fat -13125
▁타노스 -13126
▁빅뱅 -13127
▁청산 -13128
▁Art -13129
▁축적 -13130
▁아야카 -13131
▁카이사르 -13132
▁램프 -13133
▁든 -13134
셔츠 -13135
▁선제골 -13136
▁이승만 -13137
▁지상파 -13138
▁전교 -13139
▁마커 -13140
▁김전 -13141
▁사쿠라이 -13142
▁케이트 -13143
▁하야토 -13144
▁초래 -13145
▁경매 -13146
▁벡터 -13147
▁아이작 -13148
▁재위 -13149
▁사에 -13150
▁BAS -13151
ret -13152
▁염려 -13153
▁증권 -13154
▁don -13155
ope -13156
▁야쿠자 -13157
▁우루과이 -13158
▁동창 -13159
▁영미 -13160
▁도도 -13161
▁머무르 -13162
▁소실 -13163
▁Femme -13164
티어 -13165
▁달걀 -13166
▁마운트 -13167
▁대파 -13168
▁일진 -13169
▁테이크 -13170
▁쉘 -13171
▁김희 -13172
▁가축 -13173
▁way -13174
▁흑화 -13175
▁Arm -13176
▁아이리스 -13177
▁탄도 -13178
▁결함 -13179
▁피에 -13180
▁호전 -13181
▁계열사 -13182
▁아루 -13183
▁소설가 -13184
▁미시 -13185
권자 -13186
▁Cat -13187
▁갈라 -13188
▁여고생 -13189
무장 -13190
범죄 -13191
▁적료 -13192
ision -13193
▁컨트롤러 -13194
▁천계 -13195
▁이마트 -13196
퇴근 -13197
▁태블릿 -13198
▁EM -13199
▁고속도 -13200
▁경희 -13201
▁히노 -13202
니즘 -13203
▁어인 -13204
대교 -13205
▁베가 -13206
▁인맥 -13207
▁Rev -13208
▁로스앤 -13209
▁마이너스 -13210
▁로스앤젤레스 -13211
▁제시카 -13212
▁레지스 -13213
▁괄 -13214
▁부츠 -13215
베르트 -13216
▁Ge -13217
▁캐롤 -13218
▁마모루 -13219
▁대법원 -13220
▁박살나 -13221
▁합당 -13222
바퀴 -13223
elf -13224
▁방금 -13225
▁플래닛 -13226
수수 -13227
▁렀다 -13228
▁리트 -13229
▁고속버스 -13230
마르 -13231
▁인내 -13232
▁태그팀 -13233
▁강적 -13234
▁리베 -13235
▁어드밴스 -13236
▁ㅅㅣㅀㅇㅓ -13237
▁루카스 -13238
▁주방 -13239
에이터 -13240
▁비시 -13241
▁바이스 -13242
▁스코프 -13243
▁칠레 -13244
▁막바지 -13245
▁고어 -13246
▁김전일 -13247
Fatale -13248
▁ㅇㅜㅅㄱㅣㄴ -13249
▁피드백 -13250
▁강성 -13251
▁일련 -13252
▁FemmeFatale -13253
▁DO -13254
▁그닥 -13255
▁세르비아 -13256
we -13257
재판 -13258
▁ㅈㅏㅁㄱ -13259
▁프로리그 -13260
▁간략 -13261
▁ㄷㅐㄴㄷㅏ -13262
▁WE -13263
▁VIP -13264
▁구마 -13265
▁궁지 -13266
▁라드 -13267
▁당나라 -13268
▁기밀 -13269
▁동래 -13270
▁매수 -13271
▁완수 -13272
str -13273
▁오너 -13274
▁계좌 -13275
▁소행 -13276
즈카 -13277
▁깎이 -13278
▁발칸 -13279
▁식신 -13280
▁홍준표 -13281
▁피처 -13282
▁슈퍼스타 -13283
▁경량 -13284
▁박주 -13285
▁부식 -13286
▁세나 -13287
▁레이터 -13288
▁양국 -13289
▁총괄 -13290
▁빨강 -13291
▁두부 -13292
▁불멸 -13293
ational -13294
▁Yeah -13295
▁ㄲㅡㅌㄴㅐ -13296
▁지령 -13297
▁크로니클 -13298
▁소피아 -13299
▁1961 -13300
▁실무 -13301
▁헌신 -13302
▁원천 -13303
▁자진 -13304
▁야시 -13305
▁입술 -13306
▁페더 -13307
▁꽝 -13308
▁ㄴㅗㄹ -13309
카즈 -13310
▁모친 -13311
▁예명 -13312
ouse -13313
▁브라더 -13314
행위 -13315
AG -13316
▁묻히 -13317
▁발전기 -13318
▁공방전 -13319
▁사용법 -13320
ㄷㅏㄹㄹㅕ -13321
▁할리우드 -13322
SS -13323
▁일보 -13324
▁하세 -13325
▁ㅌㅡㄹㅇㅓ -13326
▁싣 -13327
▁석궁 -13328
어찌 -13329
▁우크라 -13330
▁ㅁㅜㄷㅎㅕㅆ -13331
수스 -13332
▁쫓기 -13333
▁파산 -13334
▁두려워하 -13335
▁마작 -13336
▁화수 -13337
▁깁 -13338
ORE -13339
▁다이나 -13340
▁작별 -13341
appy -13342
▁시궁 -13343
▁극소수 -13344
▁Order -13345
▁ㄱㅏㄴㅈㅣ -13346
▁팝픈 -13347
▁팝픈뮤직 -13348
▁편대 -13349
▁광석 -13350
▁후타 -13351
▁황태자 -13352
려드 -13353
▁족장 -13354
▁매달 -13355
▁기마 -13356
▁이스터 -13357
▁대잠 -13358
▁양파 -13359
▁NHK -13360
▁이에 -13361
▁효과음 -13362
▁저리 -13363
▁미츠루 -13364
▁성도 -13365
▁1100 -13366
▁넵 -13367
▁섬유 -13368
야샤 -13369
▁MD -13370
▁이누야샤 -13371
ㅅㅐㅇㄱㅣㄴ -13372
휴일 -13373
▁그려지 -13374
▁무언 -13375
▁ㅎㅔㅅㄱㅏㄹ -13376
▁튕 -13377
▁부도 -13378
▁무작정 -13379
▁Elect -13380
▁어찌어찌 -13381
내리 -13382
서야 -13383
수아 -13384
▁여당 -13385
▁자취 -13386
▁배지 -13387
▁제멋 -13388
▁에이전트 -13389
▁악세 -13390
▁고난 -13391
▁술법 -13392
▁회화 -13393
▁연금술 -13394
▁ㄲㅡㅌㄴㅏ -13395
케인 -13396
▁br -13397
쿠로 -13398
▁가명 -13399
▁호노카 -13400
ness -13401
▁하임 -13402
▁쓸데없 -13403
▁반말 -13404
꿈치 -13405
▁군기 -13406
▁EXH -13407
▁ㅇㅕㄹㄹㅕ -13408
▁공로 -13409
▁반환 -13410
▁창업 -13411
▁쿠르 -13412
▁혼종 -13413
▁TCG -13414
아서 -13415
▁정계 -13416
▁초필 -13417
▁양현 -13418
▁아의 -13419
▁스플래시 -13420
▁얼핏 -13421
▁검은색 -13422
▁대본 -13423
▁유로파 -13424
▁김혜 -13425
▁ㅃㅐㅅ -13426
▁삼거리 -13427
▁CON -13428
▁바하 -13429
스트로 -13430
▁이치로 -13431
▁신디 -13432
▁ㄹㅕㅆ -13433
▁살아나 -13434
▁소심 -13435
▁진작 -13436
▁코카 -13437
▁프로세서 -13438
▁양키스 -13439
▁그놈 -13440
▁수준급 -13441
▁허세 -13442
▁소진 -13443
▁주작 -13444
ㅋㅣㅁ -13445
▁키리토 -13446
▁하워드 -13447
▁수락 -13448
▁토론토 -13449
▁하부 -13450
▁아즈사 -13451
▁카도 -13452
▁엄지 -13453
▁후일담 -13454
inc -13455
▁RG -13456
▁정명 -13457
축구 -13458
▁완전체 -13459
▁들여 -13460
▁성채 -13461
▁헬스 -13462
▁자잘 -13463
▁정립 -13464
▁천적 -13465
▁블레이즈 -13466
▁택배 -13467
델피아 -13468
▁필라델피아 -13469
▁미라클 -13470
▁적발 -13471
▁어비스 -13472
같이 -13473
라이나 -13474
▁교섭 -13475
▁스크래 -13476
▁병단 -13477
▁주범 -13478
▁SHOW -13479
▁소피 -13480
▁말장난 -13481
▁전리품 -13482
▁프론트 -13483
투아 -13484
▁당원 -13485
▁운항 -13486
▁조형 -13487
▁스칼렛 -13488
▁적색 -13489
▁214 -13490
▁서드 -13491
▁연예계 -13492
▁미지수 -13493
▁대사관 -13494
▁애당초 -13495
▁ㄴㅐㅆㅇㅡ -13496
▁한몫 -13497
▁옵티머스 -13498
▁과부 -13499
▁이노우에 -13500
투수 -13501
▁이안 -13502
▁휴일 -13503
▁dis -13504
▁기미 -13505
그룹 -13506
▁ㅇㅕㅅ -13507
▁매진 -13508
▁다인 -13509
▁선발투수 -13510
▁리노 -13511
시계 -13512
▁복싱 -13513
▁로만 -13514
히트 -13515
▁도호 -13516
▁태종 -13517
▁폴더 -13518
▁공휴일 -13519
▁world -13520
▁점거 -13521
day -13522
▁결장 -13523
▁폭동 -13524
▁beatmania -13525
▁키워드 -13526
▁갑작스럽 -13527
▁기한 -13528
▁She -13529
▁신주쿠 -13530
▁Da -13531
▁잘리 -13532
its -13533
▁임창 -13534
▁고령 -13535
▁콜로니 -13536
omb -13537
▁수평 -13538
▁카가 -13539
▁경장 -13540
▁펄스 -13541
저트 -13542
ham -13543
▁당주 -13544
▁후궁 -13545
IV -13546
▁조운 -13547
▁지망 -13548
▁대표작 -13549
▁리브 -13550
▁스왑 -13551
▁탄종 -13552
▁사이퍼 -13553
▁광범 -13554
▁본디 -13555
▁냉전 -13556
▁종일 -13557
▁시엘 -13558
▁정거 -13559
우루스 -13560
사의 -13561
▁양호 -13562
▁쓸모없 -13563
▁코시 -13564
▁제정신 -13565
▁루이지 -13566
▁좌익수 -13567
제국 -13568
▁키퍼 -13569
▁급기야 -13570
▁요미우리 -13571
▁유포 -13572
▁ㅇㅕㄹ -13573
▁불어 -13574
▁아멜 -13575
▁340 -13576
▁정류소 -13577
▁ㅁㅏㅈㅁㅜㄹㄹㅕ -13578
투표 -13579
▁141 -13580
ㄷㅜㄴㄷㅏ -13581
▁콜라보레이션 -13582
▁명작 -13583
▁ㅂㅏㄱㅎㅣㄴ -13584
▁비토 -13585
▁도전자 -13586
▁유서 -13587
▁깊숙 -13588
▁사로잡 -13589
▁재고 -13590
날드 -13591
▁교주 -13592
▁도쿠가와 -13593
퍼런스 -13594
▁강유 -13595
▁성추 -13596
▁킹스 -13597
▁밀어주 -13598
▁신이치 -13599
▁고독 -13600
▁정은 -13601
▁빌라 -13602
▁당분 -13603
▁후안 -13604
▁상대식 -13605
ㅇㅓㄴㅈㅓㅇ -13606
▁볼프 -13607
▁토탈 -13608
▁ㄷㅐㅆ -13609
EX -13610
▁naver -13611
▁더스트 -13612
▁히데요시 -13613
▁산악 -13614
▁애프 -13615
▁ㄷㅡㄴㄱㅏ -13616
▁교란 -13617
▁당기 -13618
▁개인전 -13619
▁툼 -13620
▁탄소 -13621
▁호세 -13622
ious -13623
▁스폰지 -13624
▁기온 -13625
▁상회 -13626
▁토하 -13627
▁ㄲㅡㄹ -13628
▁프런트 -13629
▁덥 -13630
▁제르 -13631
▁압살 -13632
▁다이브 -13633
▁ㄸㅏㄹ -13634
== -13635
▁제이드 -13636
▁ap -13637
▁맞히 -13638
▁셀프 -13639
▁레스터 -13640
▁텔레비전 -13641
▁불사조 -13642
▁ㄴㅓㅁㄱㅣㄴ -13643
ㄷㅕ -13644
▁노숙 -13645
▁윌슨 -13646
▁피곤 -13647
사이드 -13648
▁루터 -13649
▁휩쓸 -13650
▁해수 -13651
▁건전 -13652
▁창당 -13653
▁에리카 -13654
▁엑소 -13655
▁씁 -13656
▁섭외 -13657
▁초토 -13658
▁박격포 -13659
▁프로그래밍 -13660
▁오모 -13661
▁일쑤 -13662
▁프랑켄 -13663
▁불가사의 -13664
▁여사 -13665
ㄷㅏㄱ -13666
▁게임기 -13667
▁액세서리 -13668
▁사부 -13669
▁언행 -13670
ivers -13671
▁동봉 -13672
▁예비군 -13673
▁스크래치 -13674
▁쟁탈 -13675
세데스 -13676
아티아 -13677
▁메르세데스 -13678
▁크로아티아 -13679
▁te -13680
▁Not -13681
▁출퇴근 -13682
데아 -13683
▁캡콤 -13684
ANC -13685
▁오클 -13686
▁좀비 -13687
▁합창 -13688
ㄷㅡㄹㅇㅣㄴㄷㅏ -13689
▁SW -13690
▁제식 -13691
▁ㄸㅡㄹ -13692
▁공익 -13693
▁양주 -13694
▁확연히 -13695
▁오버로드 -13696
27 -13697
▁폭발물 -13698
▁^ -13699
▁지기 -13700
aut -13701
▁아지트 -13702
▁상속 -13703
▁정거장 -13704
▁프로이센 -13705
인간 -13706
▁승기 -13707
▁아그 -13708
매니아 -13709
olution -13710
▁미성년자 -13711
▁방황 -13712
▁시그마 -13713
▁하드코어 -13714
▁ㅇㅜㅁㅈㅣㄱㅇㅣㄴㄷㅏ -13715
▁Ke -13716
▁신축 -13717
▁이우 -13718
ERS -13719
댓말 -13720
▁상권 -13721
▁손흥 -13722
▁도리어 -13723
▁정교회 -13724
▁존댓말 -13725
▁RAW -13726
▁싱어 -13727
▁상반기 -13728
▁옥타 -13729
▁표본 -13730
▁글러브 -13731
▁폭사 -13732
23 -13733
▁로망 -13734
▁장병 -13735
▁휘말리 -13736
▁행태 -13737
▁위즈 -13738
▁캐서 -13739
▁다툼 -13740
▁With -13741
▁위탁 -13742
▁김창 -13743
▁셜록 -13744
▁반다이 -13745
▁트린 -13746
▁ㅇㅏㄱㅎㅏㄴ -13747
▁난전 -13748
▁ㅂㅣㅊ -13749
▁증세 -13750
▁ㅅㅣㄹㄹㅣㄴ -13751
▁DEF -13752
▁광범위 -13753
▁스파르타 -13754
▁윌리엄스 -13755
▁네메 -13756
▁막부 -13757
▁지자 -13758
요환 -13759
▁상표 -13760
▁장안 -13761
▁Every -13762
▁ㅎㅓ -13763
UC -13764
▁리액션 -13765
▁글래 -13766
▁세션 -13767
▁따라오 -13768
▁아역 -13769
▁손흥민 -13770
▁평원 -13771
▁군함 -13772
▁화자 -13773
▁피라미 -13774
▁다정 -13775
▁직감 -13776
▁까먹 -13777
▁종사 -13778
▁프리즈 -13779
▁자연스레 -13780
패스 -13781
▁프리스트 -13782
olog -13783
▁한조 -13784
▁310 -13785
▁와우 -13786
▁입맛 -13787
▁도피 -13788
▁바우 -13789
▁질리 -13790
라이어 -13791
▁마이어 -13792
▁ㄱㅏㄷㅎㅣㄴ -13793
▁우시 -13794
▁현명 -13795
무늬 -13796
▁시한 -13797
▁치이 -13798
▁체이 -13799
▁ㅈㅝㅆㅇㅡ -13800
45 -13801
▁정장 -13802
▁해커 -13803
▁질량 -13804
던트 -13805
▁오재 -13806
▁김준호 -13807
▁임요환 -13808
▁어처 -13809
▁브릿지 -13810
▁시즈카 -13811
66 -13812
▁진군 -13813
▁마음껏 -13814
▁든든 -13815
▁아부 -13816
▁랏 -13817
레미 -13818
▁러셀 -13819
▁쾌속 -13820
▁위화 -13821
▁수원시 -13822
▁007 -13823
▁코이치 -13824
29 -13825
스톤 -13826
▁1943 -13827
▁ㅈㅓㅇㅎㅏㄴ -13828
▁ㄲㅏㅆ -13829
▁망가지 -13830
데르 -13831
▁카바 -13832
▁최우수 -13833
▁백미 -13834
▁수다 -13835
▁안나 -13836
▁정세 -13837
▁저번 -13838
▁사이오 -13839
▁뾰 -13840
▁ㅍㅏㄴㄷㅏ -13841
▁원제 -13842
▁구자 -13843
▁Chr -13844
▁캐서린 -13845
▁헷갈리 -13846
지리 -13847
▁FR -13848
▁사다 -13849
▁꼭두 -13850
▁짤방 -13851
르기 -13852
▁** -13853
▁방정 -13854
▁해운대 -13855
▁제구 -13856
▁체질 -13857
▁Get -13858
▁듀티 -13859
▁서원 -13860
▁나나미 -13861
▁망자 -13862
icro -13863
▁공동체 -13864
▁박병 -13865
▁전전 -13866
▁Skill -13867
▁국력 -13868
▁추석 -13869
▁Boy -13870
▁술탄 -13871
▁무상 -13872
▁쑥 -13873
▁꼬이 -13874
▁송구 -13875
▁TB -13876
▁대문 -13877
ㅇㅡㄹㅈㅣ -13878
ㅂㅈㅏ -13879
▁화요일 -13880
ㅂㅈㅏㄱㅅㅡ -13881
▁왼팔 -13882
즈마 -13883
▁미야자키 -13884
▁가솔 -13885
▁손바닥 -13886
ty -13887
▁시노부 -13888
▁비하인드 -13889
▁뢰 -13890
▁외출 -13891
▁Har -13892
▁if -13893
▁낙원 -13894
▁최면 -13895
▁ㅎㅡㄹㄹㅕ -13896
ely -13897
▁옐로 -13898
ny -13899
▁기하 -13900
▁피츠 -13901
▁김세 -13902
reat -13903
▁촛 -13904
▁집결 -13905
▁720 -13906
▁ㄴㅡㄴㄱㅜㄴ -13907
▁1946 -13908
▁스루 -13909
▁르네 -13910
▁Des -13911
▁대명사 -13912
마치 -13913
▁기총 -13914
노기 -13915
데기 -13916
▁CT -13917
▁시저 -13918
▁환각 -13919
▁탈옥 -13920
▁사과문 -13921
▁중앙선 -13922
▁신원 -13923
▁커터 -13924
▁영화판 -13925
▁토네이도 -13926
리에 -13927
▁대부 -13928
▁도모 -13929
▁주파수 -13930
▁나날 -13931
조각 -13932
▁메라 -13933
▁부서지 -13934
나드 -13935
▁군사력 -13936
▁김정은 -13937
▁관념 -13938
▁=, -13939
▁지침 -13940
▁재임 -13941
▁골리 -13942
▁어처구니 -13943
▁부여받 -13944
▁에덴 -13945
▁호르 -13946
▁가출 -13947
▁켄타 -13948
▁흡연 -13949
▁불상 -13950
▁평민 -13951
▁Ab -13952
▁무협 -13953
▁순진 -13954
▁1942 -13955
▁인즈 -13956
베르토 -13957
▁1954 -13958
▁예배 -13959
▁생사 -13960
▁연희 -13961
▁까닭 -13962
▁바오 -13963
▁경찰관 -13964
▁열받 -13965
▁아폴로 -13966
▁키메라 -13967
▁리포트 -13968
아아 -13969
▁한스 -13970
▁슈타인 -13971
▁ㅉㅣㄱㅎㅣㄴ -13972
▁분경 -13973
▁영분 -13974
무니 -13975
소스 -13976
▁표출 -13977
▁추첨 -13978
▁홍대 -13979
▁480 -13980
▁랫 -13981
▁1958 -13982
▁171 -13983
▁소수자 -13984
▁터트리 -13985
킨스 -13986
▁걸작 -13987
▁정중 -13988
▁벵 -13989
▁DA -13990
ient -13991
▁영기 -13992
라이즈 -13993
▁마누 -13994
▁보답 -13995
▁Big -13996
▁>, -13997
▁교화 -13998
▁마더 -13999
▁미상 -14000
ters -14001
▁혜성 -14002
▁리젠 -14003
베리아 -14004
▁당당히 -14005
▁빡빡 -14006
▁탐욕 -14007
▁PSP -14008
▁북방 -14009
▁웨일 -14010
▁만세 -14011
▁금기 -14012
▁민영 -14013
의사 -14014
▁Tri -14015
▁담당자 -14016
▁스님 -14017
▁예리 -14018
▁부메 -14019
▁무자비 -14020
▁듀엣 -14021
▁줄곧 -14022
▁튜너 -14023
▁괴도 -14024
▁자발 -14025
▁png -14026
▁181 -14027
▁1900 -14028
▁육지 -14029
▁지름 -14030
▁체가 -14031
리우스 -14032
▁가든 -14033
▁드리프트 -14034
▁대용 -14035
▁커리 -14036
▁후유증 -14037
▁생물학 -14038
▁반칙 -14039
▁진흙 -14040
▁류현진 -14041
▁이동하 -14042
▁UR -14043
▁단테 -14044
▁부메랑 -14045
▁초고 -14046
▁떨구 -14047
받침 -14048
▁시력 -14049
▁견인 -14050
▁전태 -14051
▁졸개 -14052
▁추이 -14053
▁다이어트 -14054
▁ㄴㅓㅁㅊㅕ -14055
▁ㅈㅜㄹㅇㅣㄹ -14056
▁발상 -14057
▁kn -14058
▁츠루 -14059
▁이어인 -14060
▁섬세 -14061
▁의미심장 -14062
▁성체 -14063
▁카운티 -14064
▁겸하 -14065
▁연혁 -14066
▁양아치 -14067
▁유행어 -14068
▁8000 -14069
▁사마의 -14070
▁어워드 -14071
▁미디 -14072
테스 -14073
▁취직 -14074
▁피리 -14075
▁석화 -14076
▁트림 -14077
▁협곡 -14078
▁차종 -14079
▁ㄷㅗㄷㅂㅗ -14080
체스 -14081
▁성녀 -14082
▁Ext -14083
▁DT -14084
▁맛보 -14085
칼리 -14086
▁스탠다드 -14087
▁수작 -14088
▁생몰 -14089
▁문헌 -14090
▁임관 -14091
▁자문 -14092
▁XP -14093
▁양념 -14094
프레스 -14095
▁샤이닝 -14096
▁복음 -14097
▁기관차 -14098
ship -14099
ful -14100
bl -14101
uch -14102
▁RS -14103
▁설득력 -14104
▁제이스 -14105
85 -14106
▁두드 -14107
▁라오 -14108
토시 -14109
▁id -14110
크리트 -14111
▁바바 -14112
▁ㄲㅡㅀ -14113
▁ㅈㅜㅁ -14114
▁방랑 -14115
▁CCTV -14116
▁성균 -14117
▁오피스 -14118
▁잉크 -14119
▁충성심 -14120
▁라자 -14121
ports -14122
▁STAR -14123
▁매복 -14124
클레스 -14125
▁총사령 -14126
ㄹㅗㅂㅎㅣㅁ -14127
▁천황 -14128
▁원년 -14129
▁봉황 -14130
▁상원 -14131
▁1941 -14132
▁고분 -14133
▁낙인 -14134
▁윤종 -14135
버린 -14136
▁군벌 -14137
▁파장 -14138
▁성균관 -14139
▁조율 -14140
▁ㄴㅡㄴㄱㅜ -14141
▁염소 -14142
▁이과 -14143
▁데카 -14144
▁기라 -14145
▁원격 -14146
▁오디 -14147
▁부화 -14148
▁EB -14149
▁직관 -14150
▁입체 -14151
자카 -14152
▁방어선 -14153
▁군산 -14154
▁박세 -14155
▁통용 -14156
▁스펙터 -14157
▁세간 -14158
▁클락 -14159
▁퍼스 -14160
▁경쟁력 -14161
▁성모 -14162
▁선공 -14163
▁가토 -14164
▁꺼지 -14165
▁초식 -14166
리케이션 -14167
▁어둡 -14168
▁태연 -14169
▁츠카사 -14170
무진 -14171
▁Inf -14172
▁빅터 -14173
▁Sil -14174
▁격노 -14175
▁OO -14176
▁나츠미 -14177
▁송이 -14178
▁ㄴㅗㄱㅇㅕ -14179
기업 -14180
테리 -14181
▁창의 -14182
▁샤아 -14183
▁송도 -14184
▁255 -14185
▁봉기 -14186
▁텔레콤 -14187
▁White -14188
▁굴복 -14189
▁제비 -14190
▁풍자 -14191
▁시동 -14192
▁조장 -14193
▁채소 -14194
▁ㅂㅜㅌㅈㅏㅂㅎㅕ -14195
▁갈기 -14196
▁비숍 -14197
▁OR -14198
니트 -14199
▁윈스턴 -14200
▁Bar -14201
▁미련 -14202
▁디테일 -14203
정역 -14204
▁기만 -14205
슬러 -14206
▁요일 -14207
▁Fre -14208
▁클로즈 -14209
▁KS -14210
▁선체 -14211
▁웍 -14212
▁귀중 -14213
▁정인 -14214
▁헌데 -14215
▁회고 -14216
▁역기 -14217
▁1948 -14218
▁ㅁㅏㄹㄹㅏ -14219
▁격돌 -14220
▁토템 -14221
▁Back -14222
레트 -14223
▁흑백 -14224
▁Win -14225
▁히로유키 -14226
▁ㅅㅛ -14227
▁학창 -14228
▁서커스 -14229
▁접어들 -14230
▁장기간 -14231
▁만류 -14232
▁만회 -14233
▁프레데 -14234
ump -14235
▁무의 -14236
▁청량 -14237
▁최전 -14238
▁유대인 -14239
▁양면 -14240
▁유감 -14241
26 -14242
▁씁쓸 -14243
▁농어 -14244
▁갈래 -14245
▁뒤이 -14246
▁아테네 -14247
▁동참 -14248
▁송병 -14249
▁뭉치 -14250
▁잠복 -14251
▁재팬 -14252
co -14253
▁조제 -14254
▁특촬 -14255
ㄷㅣㅈ -14256
▁크래 -14257
▁증원 -14258
▁난동 -14259
▁420 -14260
▁수리검 -14261
▁아제 -14262
▁스테이트 -14263
RAM -14264
▁배분 -14265
▁시궁창 -14266
▁여의도 -14267
ㅅㅣㄴㄷㅏ -14268
ㄴㅜㄴ -14269
▁불리우 -14270
▁qu -14271
▁느긋 -14272
▁가치관 -14273
▁ㅌㅡㄹㄹㅕㅆ -14274
▁PO -14275
▁되살 -14276
버릇 -14277
노미야 -14278
▁피에르 -14279
혁명 -14280
▁마비노기 -14281
▁ㄱㅏㅂㅈㅏㄱㅅㅡ -14282
도스 -14283
▁창시 -14284
▁자위대 -14285
ift -14286
▁태고 -14287
산물 -14288
▁솔로몬 -14289
ENT -14290
▁GL -14291
▁만두 -14292
ATION -14293
▁판도라 -14294
▁겨루 -14295
▁전년 -14296
▁커브 -14297
▁다이너 -14298
▁ㅎㅟㅂㅆㅏ -14299
기지 -14300
▁초급 -14301
▁우익수 -14302
▁켄이치 -14303
ㄴㅏㅁ -14304
▁모호 -14305
▁손녀 -14306
▁오드 -14307
▁타쿠미 -14308
▁ㄲㅕ -14309
▁공병 -14310
▁그리스도 -14311
▁NG -14312
▁jp -14313
▁모라 -14314
▁콘크리트 -14315
▁뽑히 -14316
▁고양시 -14317
▁간식 -14318
모사 -14319
▁색채 -14320
▁아틀레 -14321
▁도타 -14322
▁215 -14323
▁바이올린 -14324
▁ㄷㅓㄴㅈㅣㄹ -14325
▁초원 -14326
ㄱㅜㄴㅈㅣ -14327
▁ㅂㅏㄷㅊㅕ -14328
▁ㅉㅣㄱㅎㅕ -14329
▁샨 -14330
▁젤다 -14331
러드 -14332
▁FE -14333
▁파키스탄 -14334
▁베니 -14335
edia -14336
▁하와이 -14337
호도 -14338
▁오덕 -14339
▁치중 -14340
▁퇴근 -14341
마츠 -14342
튀기 -14343
▁학계 -14344
▁왕궁 -14345
▁Met -14346
▁Sky -14347
▁심리학 -14348
▁연루 -14349
▁벌칙 -14350
▁down -14351
틀리 -14352
▁수소 -14353
ㅅㅠ -14354
▁관악 -14355
▁뻥튀기 -14356
▁뫼 -14357
▁단신 -14358
▁바늘 -14359
▁접시 -14360
▁실험실 -14361
▁진과 -14362
▁폭포 -14363
ALL -14364
ERT -14365
▁off -14366
▁하코 -14367
▁백색 -14368
▁ㄱㅏㄹㄹㅕ -14369
▁박민 -14370
▁지독 -14371
▁착하 -14372
▁소음기 -14373
MC -14374
▁사토시 -14375
▁제휴 -14376
▁FN -14377
▁포털 -14378
▁하르 -14379
▁컨테이너 -14380
▁맏 -14381
▁시구 -14382
▁고려대 -14383
▁1949 -14384
▁인기투표 -14385
▁정유 -14386
▁나츠키 -14387
▁나고 -14388
▁쩔 -14389
▁자드 -14390
링크 -14391
▁강변 -14392
ㅇㅝㅆㅇㅡ -14393
▁ㅃㅓㄴ -14394
레인지 -14395
▁이성계 -14396
▁쇼핑몰 -14397
▁ㄷㅗㄹㄹㅕㅆ -14398
▁맥도 -14399
▁텐션 -14400
▁왕따 -14401
▁허영 -14402
▁Act -14403
▁횡단 -14404
▁333 -14405
▁성서 -14406
▁카세 -14407
▁바쁘 -14408
▁최성 -14409
▁CEO -14410
▁광부 -14411
▁금전 -14412
▁선구 -14413
▁235 -14414
▁제이크 -14415
▁제멋대로 -14416
▁테크노 -14417
틀링 -14418
▁서진 -14419
▁러블리 -14420
▁오퍼레이터 -14421
▁타라 -14422
▁작렬 -14423
▁208 -14424
▁변종 -14425
▁거주지 -14426
▁거제 -14427
▁every -14428
공격 -14429
▁친밀 -14430
▁려 -14431
바위 -14432
▁유엔 -14433
▁병맛 -14434
▁현존 -14435
oud -14436
▁쇠퇴 -14437
▁라운 -14438
▁인장 -14439
▁삽화 -14440
▁사육 -14441
▁어중간 -14442
▁1936 -14443
▁어지간히 -14444
▁갭 -14445
▁열풍 -14446
▁206 -14447
▁출생지 -14448
▁FX -14449
모니 -14450
▁바시 -14451
ㄱㅣㅁ -14452
▁..' -14453
▁UFO -14454
▁포고 -14455
각시 -14456
▁집정 -14457
▁파업 -14458
▁Song -14459
▁}{ -14460
▁양동 -14461
▁듬 -14462
▁TD -14463
▁생겨나 -14464
▁성폭행 -14465
▁육식 -14466
▁초동 -14467
▁키바 -14468
▁알아채 -14469
less -14470
▁실천 -14471
ㄲㅗ -14472
▁메소 -14473
▁프레디 -14474
▁항속 -14475
▁대머리 -14476
▁향수 -14477
▁가차 -14478
ize -14479
▁ㅊㅜㄴ -14480
▁이승엽 -14481
▁욕구 -14482
▁시중 -14483
▁비늘 -14484
▁헤딩 -14485
▁뇌격 -14486
▁디스코 -14487
▁우기 -14488
▁자손 -14489
케이 -14490
▁럽 -14491
▁May -14492
VEL -14493
▁마장 -14494
▁인프라 -14495
bps -14496
▁em -14497
사우루스 -14498
드래 -14499
천동 -14500
니스탄 -14501
득점 -14502
▁런닝맨 -14503
방향 -14504
▁하렘 -14505
변속기 -14506
▁오마주 -14507
95 -14508
▁거물 -14509
▁서독 -14510
▁심플 -14511
▁유쾌 -14512
▁육박 -14513
▁체이스 -14514
▁마츠모토 -14515
UB -14516
▁안도 -14517
▁남용 -14518
▁동선 -14519
▁정현 -14520
▁ㅎㅏㄹㄹㅕ -14521
▁배급사 -14522
어쓰 -14523
▁어머 -14524
▁161 -14525
▁미쓰 -14526
▁병영 -14527
▁아론 -14528
▁GAM -14529
▁경인 -14530
▁나루호도 -14531
▁ㄹㅏㄹㄲㅏ -14532
공화국 -14533
▁비행선 -14534
▁NL -14535
▁메아리 -14536
▁850 -14537
▁줍 -14538
▁ve -14539
▁편제 -14540
▁좀처럼 -14541
▁ㄷㅡㄹㅇㅣ -14542
BM -14543
▁문의 -14544
▁빌미 -14545
▁넘쳐 -14546
▁덩크 -14547
IST -14548
ape -14549
지대 -14550
▁피어 -14551
▁틀림 -14552
▁마그마 -14553
ㅁㅓ -14554
ger -14555
린스 -14556
▁난폭 -14557
▁갈고리 -14558
▁계보 -14559
▁세츠나 -14560
▁누마 -14561
▁소이 -14562
▁크러 -14563
▁con -14564
▁도르트 -14565
▁본국 -14566
▁사다리 -14567
▁펼쳐지 -14568
▁넘어오 -14569
▁That -14570
▁Rain -14571
▁김인 -14572
▁카멜 -14573
▁모터스 -14574
▁김하 -14575
▁ㅈㅣㄴㅎㅐ -14576
▁철회 -14577
aka -14578
▁처단 -14579
돌리 -14580
▁대여 -14581
▁아픔 -14582
▁코지마 -14583
▁피라미드 -14584
▁기쁘 -14585
▁비약 -14586
▁우로 -14587
▁감시자 -14588
▁개틀링 -14589
▁개드 -14590
▁수배 -14591
▁스릴 -14592
▁아울러 -14593
네트 -14594
▁멸자 -14595
▁ㅁㅏㄱㅎㅣㄴ -14596
▁명인 -14597
▁RAM -14598
ita -14599
▁끼어들 -14600
▁속옷 -14601
▁영리 -14602
▁좌석버스 -14603
▁독성 -14604
▁송곳 -14605
▁합방 -14606
▁오미 -14607
▁표방 -14608
▁얀데레 -14609
▁인피니트 -14610
96 -14611
▁단선 -14612
▁팀킬 -14613
▁김태균 -14614
▁Hey -14615
▁카에데 -14616
▁와일드카드 -14617
▁벽돌 -14618
▁God -14619
▁RF -14620
▁내년 -14621
▁스플릿 -14622
의회 -14623
ORM -14624
▁참패 -14625
타자 -14626
▁단간 -14627
▁라트 -14628
▁호대 -14629
▁ㅇㅣㄴㄷㅏ -14630
▁페인트 -14631
▁290 -14632
▁극찬 -14633
▁언락 -14634
▁얼리 -14635
▁끝판 -14636
▁젊은이 -14637
▁이윽 -14638
▁선발전 -14639
▁청색 -14640
▁위나라 -14641
▁이윽고 -14642
▁커넥 -14643
▁데이브 -14644
▁Top -14645
zy -14646
▁신시 -14647
▁리오스 -14648
▁불태우 -14649
▁ㅇㅣㅂㅎㅕ -14650
▁디에 -14651
▁북극 -14652
▁밴시 -14653
▁돌아보 -14654
▁설사 -14655
▁도마뱀 -14656
▁순교자 -14657
▁앞마당 -14658
▁패거리 -14659
모자 -14660
▁데이즈 -14661
▁하데스 -14662
▁불가리아 -14663
▁정렬 -14664
▁난해 -14665
▁아이리 -14666
▁북두 -14667
▁열전 -14668
▁페로 -14669
레인저 -14670
▁마드 -14671
▁장래 -14672
주군 -14673
rop -14674
▁소인 -14675
▁무법 -14676
▁야기 -14677
▁나기사 -14678
▁트레이서 -14679
▁ㅇㅣㅂㅎㅣㄴ -14680
▁버디 -14681
▁want -14682
때로 -14683
▁메스 -14684
▁축구단 -14685
▁친일 -14686
▁전용기 -14687
▁토와 -14688
▁풀백 -14689
▁늘어놓 -14690
▁Pe -14691
76 -14692
▁유목 -14693
▁심심찮 -14694
▁정벌 -14695
IGHT -14696
▁마니 -14697
▁성검 -14698
기어 -14699
▁Game -14700
▁Battle -14701
▁서면 -14702
▁포이 -14703
▁콘테 -14704
▁플라워 -14705
▁ㅍㅏㄹㄹㅕ -14706
▁기겁 -14707
▁상대편 -14708
net -14709
▁헛소리 -14710
▁수레 -14711
▁Moon -14712
ㅁㅏㅇㅊㅕㅆ -14713
▁베라 -14714
▁이복 -14715
▁대각선 -14716
▁성문 -14717
▁영장 -14718
▁코스타 -14719
▁징병 -14720
▁석탄 -14721
▁지아 -14722
ㅇㅘㅆㅇㅓㅆ -14723
▁야채 -14724
▁어린애 -14725
▁일자리 -14726
▁정규군 -14727
OK -14728
▁TEC -14729
▁WAR -14730
▁무난히 -14731
암동 -14732
▁불운 -14733
▁비욘 -14734
▁선도 -14735
▁슬퍼 -14736
▁칼럼 -14737
▁1955 -14738
ara -14739
com -14740
▁화속 -14741
▁SUP -14742
비우스 -14743
▁more -14744
▁여건 -14745
▁망원 -14746
▁ㅂㅡㄴ -14747
지원 -14748
▁역학 -14749
▁당분간 -14750
실히 -14751
▁손수 -14752
bo -14753
ren -14754
▁행동력 -14755
▁도르트문트 -14756
▁노브 -14757
▁영창 -14758
ward -14759
운전 -14760
▁스몰 -14761
▁ㄲㅡㅌㄴㅐㅆ -14762
▁경위 -14763
▁max -14764
▁좆 -14765
▁미셸 -14766
▁바실 -14767
▁호타 -14768
▁ㅋㅓㄹ -14769
▁게리 -14770
▁헤매 -14771
▁Bra -14772
▁유우야 -14773
▁책임자 -14774
▁최재 -14775
▁줄줄이 -14776
▁젯 -14777
▁존속 -14778
▁코로나 -14779
▁곡선 -14780
row -14781
▁스케치 -14782
▁가까스로 -14783
▁중성 -14784
무스 -14785
▁대강 -14786
▁절묘 -14787
▁일직 -14788
▁스케이팅 -14789
버거 -14790
▁유추 -14791
▁212 -14792
▁여진 -14793
ㄱㅏㅆㅇㅡ -14794
▁가창력 -14795
▁코나미 -14796
▁이따 -14797
포스 -14798
▁갑판 -14799
▁위화감 -14800
▁허리케인 -14801
▁눕 -14802
작전 -14803
▁임하 -14804
▁광저우 -14805
▁한가 -14806
▁반자동 -14807
▁새로이 -14808
▁끌어들이 -14809
▁인민공화국 -14810
▁LCD -14811
▁Dragon -14812
▁선풍 -14813
▁자부심 -14814
▁NS -14815
▁되려 -14816
▁분사 -14817
▁새해 -14818
▁허구 -14819
▁성추행 -14820
▁LS -14821
▁남구 -14822
▁토요타 -14823
▁꼭두각시 -14824
▁KG -14825
메다 -14826
니엄 -14827
▁특공대 -14828
ㅇㅏㅅㄱㅣㄴ -14829
▁Special -14830
▁과실 -14831
▁내륙 -14832
▁북유럽 -14833
▁국사 -14834
▁라이터 -14835
버드 -14836
▁드레이크 -14837
▁칭송 -14838
▁우습 -14839
▁복종 -14840
▁플레이트 -14841
▁밸리 -14842
▁영락 -14843
▁튕기 -14844
▁울부 -14845
▁인테르 -14846
▁독재자 -14847
▁흑룡 -14848
▁터미네이터 -14849
▁총통 -14850
▁1959 -14851
▁밀레니엄 -14852
▁나고야 -14853
▁친위대 -14854
▁개드립 -14855
▁유명세 -14856
▁피겨 -14857
▁베이스볼 -14858
여행 -14859
▁레트 -14860
▁카야 -14861
▁즐거 -14862
▁가솔린 -14863
ㄸㅐ -14864
▁ㅇㅣㄹㄹㅓ -14865
▁강당 -14866
▁역전승 -14867
▁루시퍼 -14868
▁교육부 -14869
▁다나카 -14870
▁매트릭스 -14871
연합 -14872
▁ㅊㅏㄹ -14873
▁알프레 -14874
▁가메 -14875
▁민지 -14876
led -14877
▁ㅈㅣㄹㄹㅓ -14878
▁사이언 -14879
리아나 -14880
▁안기 -14881
▁이신 -14882
aven -14883
▁나데 -14884
블랜드 -14885
▁본문 -14886
▁ㅇㅏㄹㄹㅣㅁ -14887
▁클리블랜드 -14888
▁할당 -14889
▁탤 -14890
▁부과 -14891
▁푸른 -14892
▁연방군 -14893
▁카트라이더 -14894
▁두들 -14895
▁치타 -14896
▁001 -14897
러기 -14898
▁자석 -14899
▁초회 -14900
▁파괴자 -14901
▁wiz -14902
▁Track -14903
짜기 -14904
▁쿠미 -14905
코프 -14906
럭스 -14907
▁이제동 -14908
▁틀어 -14909
▁와이드 -14910
▁진나라 -14911
▁경이 -14912
▁팩토리 -14913
▁플로리 -14914
▁FFFF -14915
▁가변 -14916
▁귀도 -14917
▁뚫리 -14918
▁생각나 -14919
▁호스트 -14920
클리 -14921
▁행선 -14922
▁Pop -14923
▁태수 -14924
▁광화 -14925
▁데프 -14926
▁티코 -14927
▁래스 -14928
▁Amer -14929
▁관제 -14930
▁ㄸㅟㄹ -14931
LD -14932
▁Hot -14933
▁발산 -14934
▁도미니 -14935
카스 -14936
▁해임 -14937
▁스트레이트 -14938
▁서점 -14939
▁목표물 -14940
▁니키 -14941
▁뮤즈 -14942
▁킬로 -14943
▁캬 -14944
▁대담 -14945
▁서울역 -14946
토록 -14947
▁소중히 -14948
▁1956 -14949
▁가네 -14950
▁광양 -14951
▁벨벳 -14952
▁치부 -14953
▁피고 -14954
▁레고 -14955
▁임프 -14956
▁플러그 -14957
▁요건 -14958
▁DAY -14959
▁아산 -14960
▁전투원 -14961
▁경호원 -14962
▁카즈키 -14963
▁협약 -14964
▁내심 -14965
▁우사 -14966
▁크림슨 -14967
▁조달 -14968
▁밀어붙이 -14969
하이 -14970
▁울부짖 -14971
▁종자 -14972
▁사파이어 -14973
▁ㄷㅐㄴ -14974
▁의리 -14975
▁특허 -14976
▁이치카 -14977
▁핵무기 -14978
▁마포 -14979
▁머들 -14980
▁오반 -14981
▁의석 -14982
▁펜스 -14983
▁레미 -14984
▁TG -14985
▁원동 -14986
▁장막 -14987
▁무성 -14988
▁앙리 -14989
▁피니시 -14990
▁Cont -14991
▁베드 -14992
▁활주 -14993
부대 -14994
▁살라 -14995
▁발간 -14996
▁이시다 -14997
▁안드로메다 -14998
테나 -14999
▁기와 -15000
▁십상 -15001
▁추월 -15002
▁알아듣 -15003
▁익스트림 -15004
패드 -15005
▁they -15006
히사 -15007
▁강연 -15008
▁왕녀 -15009
▁부회장 -15010
▁협공 -15011
▁칠흑 -15012
▁스켈 -15013
▁마티 -15014
▁유민 -15015
▁잔당 -15016
▁합산 -15017
▁ㅍㅕㅇㅎㅐㅆ -15018
▁백신 -15019
▁신령 -15020
▁ㄴㅏㄹㄹㅣㄹ -15021
▁차남 -15022
▁tw -15023
▁미완 -15024
▁명령어 -15025
▁포르노 -15026
▁게이밍 -15027
▁슐 -15028
바키아 -15029
▁계약자 -15030
▁에스파 -15031
▁마고 -15032
▁조회 -15033
▁보단 -15034
▁아란 -15035
▁트리오 -15036
▁이화 -15037
▁골대 -15038
▁음양 -15039
▁baby -15040
그래 -15041
▁TN -15042
▁입성 -15043
▁증후 -15044
▁ㅉㅏㄴ -15045
▁ㄴㅓㅁㄱㅣㄹ -15046
▁첩보 -15047
▁207 -15048
▁적정 -15049
▁광주광역시 -15050
▁이분 -15051
▁와타루 -15052
▁네메시스 -15053
▁온화 -15054
▁토의 -15055
▁이상민 -15056
▁창세기 -15057
34 -15058
▁무심 -15059
▁금성 -15060
▁주군 -15061
▁심리전 -15062
▁1939 -15063
▁지갑 -15064
▁오스카 -15065
▁두드러지 -15066
▁등산 -15067
▁너구리 -15068
▁멧돼지 -15069
지기 -15070
▁520 -15071
▁뒷받침 -15072
▁ㅈㅣㄹㄹㅕ -15073
▁각기 -15074
▁아치 -15075
ands -15076
▁청동 -15077
▁COM -15078
▁마늘 -15079
내기 -15080
▁인분 -15081
▁온전히 -15082
▁불기 -15083
▁플라잉 -15084
▁대한항공 -15085
쿠버 -15086
ien -15087
▁석방 -15088
▁우와 -15089
두근 -15090
▁저거 -15091
▁파드 -15092
▁내려찍 -15093
▁동물원 -15094
바시 -15095
▁랄프 -15096
▁패트릭 -15097
▁황무지 -15098
▁프랑스군 -15099
▁BASIC -15100
▁노랑 -15101
▁넵튠 -15102
ze -15103
렉트 -15104
▁신공 -15105
ㄴㅘㅆ -15106
▁선진국 -15107
▁차세대 -15108
다르 -15109
ㄱㅇㅏ -15110
▁매지컬 -15111
▁떠들 -15112
▁오피 -15113
▁루리웹 -15114
▁경신 -15115
▁빵빵 -15116
▁얽 -15117
▁퀑 -15118
▁로자 -15119
▁이지스 -15120
▁ㅌㅗㅇㅎㅏㄴㄷㅏ -15121
▁나시 -15122
▁대적 -15123
▁뾰족 -15124
ㅂㅇㅓ -15125
▁단단히 -15126
그레 -15127
▁기타리스트 -15128
▁단말기 -15129
▁슬퍼하 -15130
▁박기 -15131
▁주스 -15132
▁코리 -15133
▁새신 -15134
▁슈타 -15135
▁택하 -15136
▁이터널 -15137
▁PA -15138
▁기병대 -15139
▁김현수 -15140
왜란 -15141
▁IDOLM -15142
▁초중 -15143
▁모티 -15144
▁위인 -15145
아스 -15146
▁서사 -15147
▁위생 -15148
orts -15149
▁임진왜란 -15150
▁단백 -15151
캐스트 -15152
▁제품군 -15153
▁ㅁㅗㄹㄹㅣㄴ -15154
ㄴㅜ -15155
▁빈스 -15156
지물 -15157
▁네모 -15158
▁화장품 -15159
▁영재 -15160
▁푸드 -15161
▁good -15162
▁탈것 -15163
▁역관 -15164
▁외야 -15165
▁777 -15166
▁트레버 -15167
▁각색 -15168
▁바사 -15169
▁점하 -15170
▁교재 -15171
▁단절 -15172
▁팔꿈치 -15173
▁바이올렛 -15174
누르 -15175
ited -15176
▁호라이 -15177
▁나우 -15178
▁사시 -15179
▁분자 -15180
▁구치 -15181
▁재해 -15182
▁겉보기 -15183
▁밀려나 -15184
▁209 -15185
▁망가 -15186
▁Yes -15187
play -15188
▁Bur -15189
▁애프터 -15190
▁천체 -15191
▁도널드 -15192
▁뺏기 -15193
▁조비 -15194
▁네타 -15195
▁미공 -15196
▁티탄 -15197
▁구세 -15198
▁다트 -15199
▁문호 -15200
▁서문 -15201
▁데이빗 -15202
▁Project -15203
▁크레이지 -15204
방사기 -15205
▁화염방사기 -15206
큐버스 -15207
▁Mir -15208
▁철벽 -15209
▁꺼리 -15210
▁무언가 -15211
거진 -15212
▁over -15213
▁배럴 -15214
▁col -15215
▁최적화 -15216
▁블라디미르 -15217
▁황자 -15218
au -15219
▁내려놓 -15220
▁송파 -15221
▁TF -15222
▁정제 -15223
▁투타 -15224
▁따라다니 -15225
▁에우 -15226
▁감속 -15227
▁붕대 -15228
▁의대 -15229
▁고스란히 -15230
▁심슨 -15231
▁비정 -15232
▁로마자 -15233
▁로로 -15234
중국 -15235
▁그래프 -15236
▁전류 -15237
▁Sur -15238
▁보유자 -15239
▁이나즈마 -15240
▁ㅅㅏㄹㄹㅣㄹ -15241
▁마코 -15242
▁인신 -15243
▁유세 -15244
▁항로 -15245
▁1400 -15246
용차 -15247
▁친근 -15248
▁소모품 -15249
▁배틀필드 -15250
▁동거 -15251
▁선명 -15252
▁다이렉트 -15253
▁ㄱㅏㅁㅆㅏ -15254
▁FFFFFF -15255
▁터무니 -15256
▁Off -15257
▁솔리드 -15258
▁단연 -15259
▁상정 -15260
▁스탠딩 -15261
▁이가 -15262
파니 -15263
드리히 -15264
▁창원시 -15265
▁성급 -15266
▁시제 -15267
로이 -15268
▁전투복 -15269
▁콜롬비아 -15270
ius -15271
▁포화 -15272
▁로드리 -15273
UK -15274
▁상류 -15275
▁일부분 -15276
▁집정관 -15277
둘기 -15278
▁리바이 -15279
▁ㅅㅏㄹㄹㅣㄴ -15280
▁사면 -15281
▁사바 -15282
블랑 -15283
▁글리 -15284
▁버즈 -15285
▁사설 -15286
▁이어폰 -15287
위치 -15288
▁작살 -15289
36 -15290
▁터리 -15291
ㄹㅏㄹ -15292
▁유스케 -15293
▁체급 -15294
교육 -15295
▁안토니오 -15296
▁중령 -15297
▁동포 -15298
▁강호동 -15299
▁단거리 -15300
▁신촌 -15301
▁주성 -15302
▁증후군 -15303
▁지휘자 -15304
21 -15305
준호 -15306
▁~' -15307
▁비범 -15308
▁타협 -15309
▁콥 -15310
▁KD -15311
▁채굴 -15312
▁독설 -15313
▁정연 -15314
▁에로게 -15315
HD -15316
▁현질 -15317
▁심포 -15318
▁비즈니스 -15319
▁사카모토 -15320
ata -15321
▁군단장 -15322
▁민병대 -15323
▁프론티어 -15324
▁노사 -15325
▁yeah -15326
▁ㄷㅓㅁㅂㅕ -15327
▁모방 -15328
▁김택용 -15329
▁액트 -15330
▁칸나 -15331
▁간장 -15332
▁써니 -15333
▁Int -15334
▁반짝이 -15335
▁끌어올리 -15336
▁아노 -15337
▁풋볼 -15338
▁Bad -15339
▁WOR -15340
▁매사 -15341
▁제네시스 -15342
▁감도 -15343
▁무어 -15344
oney -15345
▁정직 -15346
▁탈리 -15347
ㅊㅐㅆ -15348
▁랜디 -15349
▁장단 -15350
▁엠파이어 -15351
▁공석 -15352
▁ㄱㅝㄴ -15353
▁선비 -15354
▁청하 -15355
▁들통 -15356
▁김영삼 -15357
INE -15358
▁투기 -15359
▁시세 -15360
▁선형 -15361
▁장동민 -15362
▁노마 -15363
▁대제 -15364
▁락스 -15365
▁한결 -15366
▁황족 -15367
▁류지 -15368
▁백수 -15369
▁1938 -15370
▁대두 -15371
▁톡톡 -15372
▁DDR -15373
▁프리드리히 -15374
▁최우선 -15375
▁아르테 -15376
▁ㄴㅏㅁㄱㅣㄴㄷㅏ -15377
▁데뷔작 -15378
▁자의 -15379
▁피버 -15380
ㄱㅏㅁ -15381
▁코브라 -15382
▁군중 -15383
▁자민 -15384
▁나폴리 -15385
▁시프트 -15386
▁노이 -15387
▁인스 -15388
▁결투장 -15389
▁ㅁㅣㄹㅊㅕ -15390
▁미토 -15391
▁세이지 -15392
▁스탠스 -15393
▁결별 -15394
▁침식 -15395
▁당근 -15396
▁WCS -15397
▁Po -15398
▁관대 -15399
▁저력 -15400
▁정진 -15401
▁미유 -15402
▁나탈 -15403
▁가산 -15404
▁역전패 -15405
▁'- -15406
▁마호 -15407
vent -15408
▁안중 -15409
▁억압 -15410
▁산화 -15411
▁ㅇㅗㄻㄱㅣㄴ -15412
▁Ul -15413
▁단조 -15414
▁어도 -15415
▁저러 -15416
▁체조 -15417
준혁 -15418
ㄲㅡㄴ -15419
▁ㅊㅐㄱㅇㅣㅁ -15420
▁치히로 -15421
▁영령 -15422
▁휴전 -15423
▁골리앗 -15424
▁버니 -15425
▁긴장감 -15426
ck -15427
▁그지 -15428
▁천도 -15429
▁성유 -15430
▁행정부 -15431
▁파열 -15432
▁쭈 -15433
▁전갈 -15434
▁걸스 -15435
틱스 -15436
▁조류 -15437
▁격하 -15438
▁어기 -15439
▁끌어내 -15440
긋나 -15441
▁운전자 -15442
▁오아 -15443
토미 -15444
▁JC -15445
마트 -15446
▁탈탈 -15447
▁메이크 -15448
드래곤 -15449
▁275 -15450
▁일갈 -15451
▁노스케 -15452
▁리조트 -15453
▁블루스 -15454
▁Ass -15455
제이 -15456
▁카논 -15457
▁탄수 -15458
▁ㅅㅓㅆ -15459
ㅡㄹㄹㅣㄴㄷㅏ -15460
▁관건 -15461
line -15462
▁그토록 -15463
▁메두사 -15464
▁Are -15465
▁동대문 -15466
▁마공 -15467
UL -15468
▁매개 -15469
ㄴㅜㄹ -15470
▁org -15471
▁ㅈㅏㅁㄱㅡㅁ -15472
▁명품 -15473
▁치프 -15474
▁외래어 -15475
▁하늘색 -15476
▁TWICE -15477
▁템플러 -15478
▁가가 -15479
비언 -15480
▁분전 -15481
▁튜브 -15482
▁비올 -15483
▁221 -15484
▁때때로 -15485
▁유노 -15486
ㅁㅣㄴ -15487
▁구애 -15488
▁페루 -15489
▁루드 -15490
▁광학 -15491
▁두께 -15492
▁애틀 -15493
ague -15494
고루 -15495
▁산산 -15496
▁Match -15497
▁입법 -15498
▁순순 -15499
▁say -15500
▁현행 -15501
▁타츠야 -15502
▁졸지 -15503
▁만화책 -15504
▁주시 -15505
▁ㅅㅐㅁ -15506
▁학업 -15507
▁패미컴 -15508
AA -15509
UST -15510
▁소량 -15511
▁Eng -15512
▁외침 -15513
ton -15514
▁모치 -15515
방식 -15516
▁거유 -15517
▁교직원 -15518
감치 -15519
▁출세 -15520
▁배척 -15521
찌감치 -15522
▁올리버 -15523
▁섹터 -15524
▁즉석 -15525
▁#, -15526
▁차마 -15527
▁총구 -15528
▁베른 -15529
▁애틀랜 -15530
▁잿 -15531
▁정자 -15532
▁지체 -15533
▁노동당 -15534
▁시오리 -15535
▁팻 -15536
홍철 -15537
▁아르메 -15538
규어 -15539
▁용품 -15540
▁클로버 -15541
▁샌드박스 -15542
▁쿼드 -15543
세이더 -15544
▁마리사 -15545
▁크루세이더 -15546
▁경전차 -15547
▁래쉬 -15548
▁브리핑 -15549
▁ac -15550
▁대장장이 -15551
▁시발 -15552
▁PvP -15553
▁음모론 -15554
▁프라이즈 -15555
78 -15556
▁세토 -15557
▁에프 -15558
▁아츠시 -15559
▁자본주의 -15560
피탈 -15561
▁레베 -15562
페스트 -15563
▁AMD -15564
▁홈구장 -15565
▁신한은행 -15566
▁ㅈㅏㄱㅇㅣㄴ -15567
▁스스 -15568
▁발트 -15569
▁샌디 -15570
▁건립 -15571
▁응징 -15572
ㅁㅏㅇㅊㅣㄴ -15573
컨대 -15574
▁조로 -15575
▁케미 -15576
▁법무부 -15577
▁폭군 -15578
▁RED -15579
▁몰려오 -15580
▁가와 -15581
▁멀린 -15582
▁시립 -15583
▁로미 -15584
툭튀 -15585
▁디디 -15586
▁하얀 -15587
▁플로리다 -15588
▁Char -15589
▁괴멸 -15590
▁시르 -15591
▁짤막 -15592
▁여명 -15593
▁츠바키 -15594
▁사생활 -15595
▁헬로 -15596
▁커맨더 -15597
▁기린 -15598
▁바이퍼 -15599
▁금곡 -15600
▁Core -15601
▁즘 -15602
▁최진 -15603
▁갑툭튀 -15604
▁ㄷㅏㄱ -15605
erm -15606
▁시애 -15607
▁XY -15608
▁고원 -15609
▁폭투 -15610
▁몰아내 -15611
▁ㅉㅗㄹ -15612
▁엘소드 -15613
▁리벤 -15614
▁트레인 -15615
▁셔츠 -15616
▁여행자 -15617
▁노후 -15618
▁제드 -15619
▁슬래시 -15620
매치 -15621
▁피크 -15622
▁타케루 -15623
▁캉 -15624
▁대관 -15625
▁see -15626
▁1952 -15627
▁쓸어버리 -15628
und -15629
의지 -15630
ute -15631
▁데스매치 -15632
▁중소기업 -15633
▁부두 -15634
▁티타 -15635
▁희미 -15636
▁데이비스 -15637
▁ㅎㅏㄴㄱㅏ -15638
▁몬테 -15639
▁재혼 -15640
▁행각 -15641
▁수영장 -15642
▁순순히 -15643
▁제각 -15644
▁사업자 -15645
hy -15646
▁케르 -15647
▁단번에 -15648
▁수뇌 -15649
▁216 -15650
▁꼼짝 -15651
▁방대 -15652
▁수도원 -15653
▁최형 -15654
▁}}}} -15655
▁ㄴㅏㅊ -15656
▁갱단 -15657
▁묵직 -15658
▁경비원 -15659
▁리언 -15660
▁티나 -15661
▁일정량 -15662
▁}}}}}} -15663
▁BW -15664
▁BRV -15665
▁자판기 -15666
▁Now -15667
▁매거진 -15668
▁일직선 -15669
▁Blood -15670
▁유시 -15671
▁퇴마 -15672
▁416 -15673
▁수속 -15674
▁안치 -15675
▁치아 -15676
▁란트 -15677
▁부합 -15678
▁농어촌 -15679
▁발렌시아 -15680
▁ㄴㅗㄹㄹㅏㄴㄷㅏ -15681
▁노드 -15682
▁진공 -15683
▁213 -15684
▁쳐들 -15685
▁세단 -15686
▁마토 -15687
▁우동 -15688
▁히이 -15689
▁넘쳐나 -15690
▁고베 -15691
▁조원 -15692
▁여덟 -15693
▁부녀 -15694
▁다크니스 -15695
▁요르 -15696
▁ㅃㅏㄹㄹㅕ -15697
▁길목 -15698
▁아재 -15699
▁앞쪽 -15700
▁재규어 -15701
▁동국 -15702
▁화랑 -15703
▁2021 -15704
자루 -15705
▁탈주 -15706
▁환불 -15707
▁댈 -15708
ILL -15709
▁타가 -15710
▁Rob -15711
▁루즈 -15712
▁Joh -15713
▁척하 -15714
▁시애틀 -15715
▁가쿠 -15716
▁럭스 -15717
▁아카기 -15718
▁헤라클레스 -15719
▁츠치 -15720
정동 -15721
red -15722
▁기공 -15723
▁누님 -15724
▁리히 -15725
▁매점 -15726
▁앨리 -15727
▁햇빛 -15728
▁our -15729
레즈 -15730
▁ㅁㅗㄹㄹㅕㅆ -15731
ㅇㄱㅡ -15732
▁아틀라스 -15733
▁서스 -15734
▁티셔츠 -15735
▁레비 -15736
▁해저 -15737
▁슬쩍 -15738
▁Last -15739
▁쌩 -15740
▁후후 -15741
▁쑤 -15742
▁장녀 -15743
▁농촌 -15744
▁릭스 -15745
▁관전 -15746
▁우이 -15747
▁일선 -15748
▁조인 -15749
ism -15750
▁브란 -15751
▁서유 -15752
▁욕먹 -15753
▁간편 -15754
▁도보 -15755
▁fr -15756
▁소름 -15757
▁친선 -15758
ㅁㅎㅏㄴ -15759
▁릉 -15760
▁둔화 -15761
▁테츠야 -15762
▁퍼시픽 -15763
▁익스프레스 -15764
55 -15765
▁숙명 -15766
▁BBC -15767
▁현수 -15768
▁아리사 -15769
▁파고들 -15770
맹이 -15771
III -15772
▁충공 -15773
ㅂㅎㅣㄹ -15774
▁볼일 -15775
▁쪽지 -15776
▁명장면 -15777
▁충실히 -15778
▁마사무네 -15779
▁ㄸㅏㄹㄹㅕ -15780
ㄴㅗ -15781
▁세무 -15782
▁사력 -15783
▁야자 -15784
▁대장군 -15785
▁바흐 -15786
▁위조 -15787
▁정적 -15788
▁1300 -15789
▁능동 -15790
▁평안 -15791
▁기염 -15792
▁스노 -15793
▁충동 -15794
▁흉터 -15795
▁건너편 -15796
▁모건 -15797
▁코칭 -15798
OCK -15799
▁시집 -15800
▁에테르 -15801
▁햄버거 -15802
▁선글라스 -15803
▁유배 -15804
▁아득 -15805
▁심부 -15806
▁디트로 -15807
▁디트로이트 -15808
▁리시 -15809
조작 -15810
▁ㄷㅚㅆ -15811
▁오일 -15812
▁재화 -15813
▁중사 -15814
▁급상 -15815
▁레그 -15816
▁화판 -15817
▁모탈 -15818
▁아종 -15819
게임넷 -15820
▁ㅅㅓㅁ -15821
▁온게임넷 -15822
▁친화 -15823
▁케어 -15824
▁헌병 -15825
▁보살 -15826
▁헤븐 -15827
▁right -15828
▁속사 -15829
▁필기 -15830
▁승부조작 -15831
ets -15832
ㄴㅐㅆㅇㅡ -15833
add -15834
▁ㅁㅕㄴㅇㅡㄴ -15835
▁토코 -15836
일관 -15837
▁애리 -15838
▁경영학 -15839
▁기판 -15840
▁조슈 -15841
▁다이크 -15842
괭이 -15843
미사 -15844
애미 -15845
▁전고 -15846
▁블리츠 -15847
▁두근두근 -15848
미츠 -15849
▁센트리 -15850
▁경의 -15851
▁임상 -15852
▁회자 -15853
▁비둘기 -15854
▁Magic -15855
▁기통 -15856
▁마이애미 -15857
▁분수 -15858
▁선천 -15859
▁검찰청 -15860
▁기생충 -15861
▁뽐 -15862
▁벤트 -15863
▁악인 -15864
▁알비 -15865
▁업종 -15866
▁강남구 -15867
▁과다 -15868
▁재선 -15869
▁방어전 -15870
▁시라이 -15871
▁cr -15872
▁국물 -15873
▁무모 -15874
포로 -15875
▁미니게임 -15876
xt -15877
▁경희대 -15878
▁보이드 -15879
▁여느 -15880
▁1953 -15881
코스 -15882
▁돌풍 -15883
▁소망 -15884
▁통학 -15885
▁ㄸㅟㄴ -15886
▁저스틴 -15887
▁조선일보 -15888
▁ㅈㅏㄹㄹㅣㄴ -15889
▁드래곤즈 -15890
▁데일리 -15891
▁ㅂㅕㄴㅎㅏㅁ -15892
▁NA -15893
▁단백질 -15894
▁레이크 -15895
ama -15896
▁완패 -15897
▁구미호 -15898
장구 -15899
▁학부모 -15900
▁유소년 -15901
▁료마 -15902
▁가주 -15903
▁빼놓 -15904
▁국수 -15905
▁데스크 -15906
▁슬라이딩 -15907
▁Like -15908
▁병신 -15909
▁여하 -15910
▁메탈기어 -15911
▁악질 -15912
▁안식 -15913
ㅁㅏㅇㅊㅣㄴㄷㅏ -15914
▁직계 -15915
▁표명 -15916
▁풍속 -15917
88 -15918
▁근래 -15919
천역 -15920
OWN -15921
▁7000 -15922
▁ㅂㅣㅅㄴㅏ -15923
▁수군 -15924
▁자자 -15925
▁ㅁㅏㅈㅊㅝㅆ -15926
▁거리표 -15927
매매 -15928
외선 -15929
▁눈썹 -15930
▁나뭇잎 -15931
▁Alb -15932
▁중화기 -15933
▁소아 -15934
▁초딩 -15935
▁국정원 -15936
▁HOT -15937
▁무네 -15938
▁백룡 -15939
▁비석 -15940
▁팬클럽 -15941
▁동산 -15942
▁pe -15943
ㄴㅜㄴㄷㅏ -15944
▁그해 -15945
▁시빌 -15946
수엘라 -15947
▁상하이 -15948
▁재판소 -15949
▁희생양 -15950
▁RR -15951
▁튀김 -15952
▁해프 -15953
▁영화관 -15954
▁활주로 -15955
▁쓸쓸 -15956
▁서인 -15957
타기 -15958
▁카츠키 -15959
▁정종 -15960
먹이 -15961
▁극성 -15962
▁진해 -15963
▁암흑기 -15964
▁관광지 -15965
▁속삭 -15966
로움 -15967
▁순삭 -15968
니지 -15969
▁피칭 -15970
▁권고 -15971
▁Soul -15972
▁Happy -15973
▁서약 -15974
▁홉 -15975
▁찜 -15976
▁총대 -15977
▁호우 -15978
▁승부차기 -15979
▁재미없 -15980
▁토사 -15981
▁암기 -15982
▁침체 -15983
ader -15984
▁Nor -15985
▁법정동 -15986
▁권역 -15987
▁아킬 -15988
▁사쿠야 -15989
▁프랭클린 -15990
▁매그넘 -15991
▁출연자 -15992
▁가세 -15993
▁차출 -15994
▁텐더 -15995
▁히코 -15996
▁거미줄 -15997
▁둘러싸 -15998
▁자가 -15999
OWER -16000
▁양도 -16001
▁첨가 -16002
▁박태 -16003
▁메르시 -16004
▁하자드 -16005
▁잔여 -16006
▁ㅅㅏㄹㅍㅕ -16007
▁RPM -16008
▁드래그 -16009
이인 -16010
▁들려 -16011
▁원어 -16012
▁미나토 -16013
탕스 -16014
▁이천 -16015
▁223 -16016
▁레지스탕스 -16017
▁남극 -16018
▁사병 -16019
▁음란 -16020
▁자정 -16021
▁가넷 -16022
▁농부 -16023
▁포진 -16024
▁사단장 -16025
ga -16026
▁고갈 -16027
▁악보 -16028
▁세레나 -16029
▁성남시 -16030
▁이대호 -16031
▁몸집 -16032
▁there -16033
이프 -16034
▁토토 -16035
▁방정식 -16036
ㅃㅏㅆ -16037
▁세실 -16038
▁니즘 -16039
▁불허 -16040
▁연안 -16041
▁총사령관 -16042
▁프라이드 -16043
▁본드 -16044
▁사비 -16045
▁사역 -16046
▁설레 -16047
▁달아나 -16048
▁생방송 -16049
ther -16050
▁포레스트 -16051
▁마크로스 -16052
▁TT -16053
▁신종 -16054
ocal -16055
▁베네수엘라 -16056
▁필승 -16057
▁정윤 -16058
▁ㅁㅏㅇㅎㅏㄹ -16059
▁이메 -16060
▁해프닝 -16061
▁사요 -16062
▁Party -16063
▁그물 -16064
▁클라우 -16065
▁체로 -16066
▁리포 -16067
▁전과 -16068
▁몽땅 -16069
▁이범 -16070
▁삽입곡 -16071
▁GX -16072
▁비룡 -16073
▁크리드 -16074
▁범주 -16075
▁ph -16076
▁이로 -16077
▁이의 -16078
▁쳐내 -16079
베이스 -16080
▁방관 -16081
▁코팅 -16082
▁Sim -16083
▁낙하산 -16084
▁Side -16085
▁김소 -16086
▁365 -16087
▁비대 -16088
▁베르크 -16089
uz -16090
▁철퇴 -16091
▁레프트 -16092
▁ㄷㅏㅇㄱㅕ -16093
▁ㄷㅗㄹㅂㅘ -16094
▁대입 -16095
▁화룡 -16096
▁Show -16097
▁볼리 -16098
▁성동 -16099
▁피신 -16100
▁동명이인 -16101
렁이 -16102
▁문성 -16103
▁이목 -16104
▁역과 -16105
▁자멸 -16106
▁교향곡 -16107
▁수송선 -16108
▁임페 -16109
▁체구 -16110
ERF -16111
▁무당 -16112
▁골고루 -16113
▁Edition -16114
ONE -16115
▁정대 -16116
▁하이브 -16117
▁불안감 -16118
▁사위 -16119
▁net -16120
▁ㅁㅏㄱㅎㅕㅆ -16121
니르 -16122
▁요동 -16123
▁girl -16124
ㄱㅝ -16125
▁민트 -16126
▁선역 -16127
▁산호 -16128
▁아레스 -16129
▁카메오 -16130
▁Open -16131
▁공시 -16132
자국 -16133
▁충공깽 -16134
▁ㅎㅐㅇㅎㅐ -16135
▁뭣 -16136
더리 -16137
BOX -16138
▁임용 -16139
▁370 -16140
▁낯 -16141
ated -16142
▁도입부 -16143
▁바트 -16144
▁테슬라 -16145
▁계승자 -16146
장판 -16147
▁여대 -16148
▁막말 -16149
▁쿠도 -16150
▁IF -16151
▁크리에이터 -16152
▁이츠키 -16153
▁산체스 -16154
▁장기전 -16155
rew -16156
▁성희 -16157
▁에티 -16158
▁쌈 -16159
work -16160
▁ㄷㅏㄹㄹㅣㄴㄷㅏ -16161
▁덤비 -16162
▁1957 -16163
ley -16164
▁got -16165
▁스피리 -16166
니치 -16167
벅지 -16168
▁격납 -16169
▁ㄱㅡㅂㅎㅏㄴ -16170
▁마취 -16171
▁Und -16172
▁장학금 -16173
▁feel -16174
▁쩌 -16175
▁순조 -16176
▁역설 -16177
▁연성 -16178
▁망설이 -16179
▁뜬공 -16180
▁마키나 -16181
ASS -16182
▁관하 -16183
▁네로 -16184
▁주임 -16185
▁Mark -16186
▁크로노스 -16187
▁룽 -16188
▁Cap -16189
▁Way -16190
▁맨날 -16191
▁청문 -16192
▁기어이 -16193
▁시위대 -16194
▁아유미 -16195
hammer -16196
▁수납 -16197
▁용왕 -16198
▁조세 -16199
▁ㅇㅕㄲㅇㅣㄴ -16200
▁고모 -16201
▁his -16202
▁에어리어 -16203
▁잽 -16204
형제 -16205
▁링컨 -16206
▁플랫폼 -16207
▁ㅉㅣㅈㅇㅓ -16208
▁미달 -16209
▁레타 -16210
▁알파벳 -16211
▁ㅈㅣㄴㅎㅐㅇㅎㅏㄹ -16212
▁조나 -16213
▁일찌감치 -16214
▁재무 -16215
▁who -16216
▁사우디아 -16217
98 -16218
▁미용 -16219
▁얌전 -16220
▁노원 -16221
ster -16222
▁공중전 -16223
▁수법 -16224
▁붉은색 -16225
▁키쿠 -16226
▁ㅇㅏㅍㄷㅜㄴ -16227
▁감염자 -16228
▁임페리얼 -16229
▁갈구 -16230
▁쟁탈전 -16231
▁코로 -16232
▁대의 -16233
▁보급품 -16234
▁ㅅㅡㄹㅍㅓ -16235
▁유수 -16236
▁Pol -16237
▁투표율 -16238
▁구루 -16239
▁후카 -16240
▁도호쿠 -16241
▁성범죄 -16242
▁플레인 -16243
▁경순양함 -16244
▁ㄹㅑ -16245
▁천연가스 -16246
▁투석 -16247
▁급상승 -16248
▁라이토 -16249
▁방영일 -16250
▁하시모토 -16251
▁에러 -16252
▁블루투스 -16253
▁김호 -16254
▁micro -16255
▁불러오 -16256
▁영조 -16257
▁SKE -16258
▁Val -16259
▁Na -16260
▁대변인 -16261
▁작물 -16262
▁브라이 -16263
▁Angel -16264
▁신년 -16265
▁남아공 -16266
▁watch -16267
ird -16268
▁반달 -16269
▁터프 -16270
▁엘런 -16271
▁충주 -16272
▁인플레 -16273
▁개화 -16274
▁아프가 -16275
▁총재 -16276
▁치밀 -16277
▁쿠폰 -16278
▁시종일관 -16279
▁퍼니 -16280
48 -16281
▁남친 -16282
▁능욕 -16283
▁전복 -16284
▁활약상 -16285
▁Comp -16286
▁몸체 -16287
▁프레드 -16288
▁아르메니아 -16289
▁비운 -16290
▁토카 -16291
▁음식점 -16292
▁복각 -16293
▁잣 -16294
선거 -16295
▁정경 -16296
▁역전재판 -16297
▁백지 -16298
▁입상 -16299
더스트 -16300
▁카터 -16301
▁바람직 -16302
▁오리콘 -16303
▁맞춤 -16304
▁봄버 -16305
▁왕건 -16306
▁ㄷㅡㄹㄹㅓ -16307
▁해결책 -16308
▁변함 -16309
▁950 -16310
▁배수량 -16311
▁버퍼 -16312
▁지자체 -16313
▁금서 -16314
▁레테 -16315
▁옵스 -16316
▁성주 -16317
▁알코 -16318
▁며느리 -16319
▁바운드 -16320
▁아야노 -16321
▁의존도 -16322
▁알루미 -16323
▁구라 -16324
▁화보 -16325
▁그리폰 -16326
▁만악 -16327
▁베르나 -16328
▁남짓 -16329
▁장담 -16330
▁퍼트 -16331
▁무너 -16332
▁부토 -16333
▁무너뜨리 -16334
▁빽 -16335
피드 -16336
▁디에고 -16337
▁1947 -16338
▁090 -16339
▁미공개 -16340
▁시드니 -16341
▁덕택 -16342
▁알맞 -16343
▁전령 -16344
▁푸쉬 -16345
▁댈러스 -16346
▁민족주의 -16347
▁소주 -16348
▁절약 -16349
▁누락 -16350
▁Legend -16351
▁복권 -16352
▁피쳐 -16353
▁Fly -16354
▁토우마 -16355
▁근황 -16356
▁의류 -16357
▁경합 -16358
▁위태 -16359
▁효력 -16360
▁Stage -16361
▁개더링 -16362
▁에어컨 -16363
▁카트리 -16364
▁Fall -16365
▁엑셀 -16366
▁특권 -16367
▁허니 -16368
▁엘더스 -16369
▁화질 -16370
▁기각 -16371
▁하반신 -16372
▁상고 -16373
▁소탕 -16374
레톤 -16375
▁수족 -16376
ㅂㅏㄱㅎㅕ -16377
▁윤성 -16378
▁잠식 -16379
▁이석 -16380
▁교무실 -16381
ura -16382
▁스켈레톤 -16383
▁점포 -16384
▁화끈 -16385
▁일기토 -16386
▁애틀랜타 -16387
▁상임 -16388
▁치토 -16389
▁키시 -16390
▁멱 -16391
▁식인 -16392
stem -16393
▁First -16394
▁무패 -16395
▁선별 -16396
▁분과 -16397
ㄲㅏㄴ -16398
▁!!! -16399
▁갇 -16400
▁맞대결 -16401
▁빗나가 -16402
▁아프가니스탄 -16403
▁벼락 -16404
▁적기 -16405
▁희박 -16406
라비아 -16407
▁245 -16408
▁중순양함 -16409
▁수분 -16410
▁연기자 -16411
▁한성 -16412
▁Sam -16413
▁호라이즌 -16414
▁예매 -16415
▁항우 -16416
▁수박 -16417
▁전경 -16418
▁중추 -16419
▁케니 -16420
▁깔리 -16421
무로 -16422
▁부디 -16423
▁빅토리 -16424
▁촛불 -16425
▁꼭대기 -16426
▁Perf -16427
▁신민 -16428
▁주루 -16429
▁통역 -16430
▁이관 -16431
▁박병호 -16432
▁ㅎㅟㅂㅆ -16433
▁미카엘 -16434
▁유교 -16435
▁life -16436
▁ㅍㅕㄹㅊㅣㄴ -16437
▁불분 -16438
▁상경 -16439
udio -16440
▁엘릭 -16441
▁어설트 -16442
▁엑스맨 -16443
▁양평 -16444
▁ㄷㅚㄹㅅㅜ -16445
▁빌헬 -16446
▁구비 -16447
▁재주 -16448
▁평정 -16449
▁마운틴 -16450
▁쥴 -16451
벨트 -16452
▁540 -16453
▁유한 -16454
▁자위 -16455
▁경전철 -16456
▁단타 -16457
▁웨딩 -16458
▁저항군 -16459
▁트라웃 -16460
▁로버 -16461
▁익명 -16462
▁차갑 -16463
▁234 -16464
▁그리스어 -16465
넘기 -16466
▁검도 -16467
▁코일 -16468
▁Free -16469
▁가중 -16470
▁번영 -16471
트리스 -16472
▁FBI -16473
▁비열 -16474
▁전념 -16475
▁좌완 -16476
▁폐하 -16477
▁조현 -16478
▁Final -16479
▁생포 -16480
▁알몸 -16481
▁중론 -16482
▁추위 -16483
▁중공업 -16484
▁틀어막 -16485
▁Class -16486
▁과잉 -16487
▁전염병 -16488
▁-! -16489
▁판과 -16490
▁헤더 -16491
▁겸비 -16492
▁시연 -16493
▁행세 -16494
▁이유로 -16495
▁갑주 -16496
▁무소 -16497
▁이도 -16498
▁Break -16499
▁부기 -16500
▁불분명 -16501
고생 -16502
▁총회 -16503
ㅁㅜㄹ -16504
▁오바마 -16505
▁푸른색 -16506
▁만화가 -16507
▁알루미늄 -16508
err -16509
▁Er -16510
▁콩두 -16511
▁헌납 -16512
▁top -16513
▁어쩌다 -16514
▁오카다 -16515
▁운임 -16516
▁성우진 -16517
▁손책 -16518
▁Spring -16519
TH -16520
arius -16521
▁유다 -16522
▁파워레인저 -16523
▁소폭 -16524
▁오리지날 -16525
▁ㄱㅣㅅ -16526
ling -16527
레일리아 -16528
건설 -16529
치오 -16530
▁City -16531
▁라지 -16532
▁세조 -16533
▁상승세 -16534
▁승승 -16535
▁ㄱㅣㄹㄹㅓ -16536
▁440 -16537
캐슬 -16538
▁온전 -16539
▁언론사 -16540
▁스튜어트 -16541
▁반대쪽 -16542
▁내공 -16543
AGE -16544
▁수뇌부 -16545
피어 -16546
▁~? -16547
▁나카노 -16548
▁불가피 -16549
▁키사라기 -16550
▁카자마 -16551
▁Never -16552
▁김구라 -16553
▁Down -16554
▁미처 -16555
페어 -16556
▁로페 -16557
▁포메 -16558
▁무방비 -16559
▁ㄴㅡㄹㄹㅣㄹ -16560
가요 -16561
▁막론 -16562
▁엠블럼 -16563
ux -16564
▁덩달 -16565
▁진범 -16566
▁지명타자 -16567
▁ㅈㅓㅂㅎㅏㄴ -16568
▁ㅃㅗㅂㅎㅣㄴ -16569
해군 -16570
▁명실 -16571
▁갈아입 -16572
▁249 -16573
▁이문 -16574
▁Cor -16575
▁GDP -16576
▁MAN -16577
▁아스타 -16578
▁쇼군 -16579
▁체내 -16580
yes -16581
▁준장 -16582
소니 -16583
▁투르 -16584
▁갈아타 -16585
▁오우거 -16586
▁김제 -16587
▁슬래 -16588
▁아벨 -16589
▁자바 -16590
▁이니셜 -16591
만다 -16592
▁조니 -16593
▁쥬라기 -16594
▁엄폐물 -16595
▁하얀색 -16596
▁이시카와 -16597
▁ㄹㅏㅂㅅㅣ -16598
▁헤지 -16599
▁뉴캐슬 -16600
tm -16601
▁노프 -16602
▁수제 -16603
▁타지 -16604
▁겁쟁이 -16605
▁경비병 -16606
▁카라스 -16607
▁중파 -16608
▁린다 -16609
▁청주시 -16610
슬쩍 -16611
IVE -16612
▁비평 -16613
▁머릿속 -16614
▁수혜 -16615
▁ㅈㅣㄹㅅㅜ -16616
REME -16617
▁Mon -16618
▁사냥터 -16619
▁쫓아가 -16620
▁대전광역시 -16621
▁ㄲㅡㅌㄴㅐㄹ -16622
▁ㅈㅓㅇㅎㅏㄴㄷㅏ -16623
▁If -16624
▁바드 -16625
그라드 -16626
▁메츠 -16627
▁스투 -16628
▁삿포로 -16629
▁명은 -16630
▁법조 -16631
▁질질 -16632
▁GOT -16633
려보 -16634
▁복부 -16635
▁부우 -16636
▁선상 -16637
▁How -16638
▁대리인 -16639
▁세가 -16640
고쿠 -16641
▁잔재 -16642
▁허술 -16643
ㅇㅢ -16644
▁급습 -16645
▁루기 -16646
▁-. -16647
▁벤츠 -16648
▁앤더슨 -16649
▁제복 -16650
▁후작 -16651
▁껴 -16652
▁물음 -16653
▁쌍용 -16654
▁우려먹 -16655
▁PRO -16656
▁무안타 -16657
▁".. -16658
▁BP -16659
▁후세 -16660
▁도메 -16661
▁망각 -16662
▁송병구 -16663
블루 -16664
▁최원 -16665
▁열렬 -16666
▁자재 -16667
▁케로로 -16668
▁프리드 -16669
▁밀러 -16670
▁동급생 -16671
▁죄인 -16672
▁동유럽 -16673
▁분화 -16674
▁김정일 -16675
▁반하 -16676
▁사죄 -16677
▁평지 -16678
▁엠블렘 -16679
▁광폭 -16680
▁티라노 -16681
영수 -16682
▁베토 -16683
▁유죄 -16684
tain -16685
▁사우디아라비아 -16686
▁어로 -16687
ause -16688
▁나오키 -16689
▁검기 -16690
▁김신 -16691
▁지중 -16692
현동 -16693
▁니퍼 -16694
▁유체 -16695
IME -16696
▁ㄱㅜㄷㅇㅓ -16697
▁뚱뚱 -16698
▁판본 -16699
▁219 -16700
ㅁㅏㅇㅊㅣㄹ -16701
즐리 -16702
erry -16703
▁악수 -16704
▁체크카드 -16705
▁또래 -16706
▁AW -16707
ㄴㅏㄹㅅㅜ -16708
▁Sn -16709
▁신격 -16710
▁인승 -16711
▁일개 -16712
▁창출 -16713
▁한승 -16714
▁화내 -16715
▁무리수 -16716
▁1914 -16717
▁Swe -16718
▁자치령 -16719
▁ㅅㅗㄱㅇㅕ -16720
제리 -16721
▁sk -16722
▁직진 -16723
raft -16724
칼리버 -16725
▁명백히 -16726
▁티거 -16727
▁1951 -16728
피온 -16729
▁9000 -16730
▁이형 -16731
▁Mem -16732
▁226 -16733
iny -16734
▁입당 -16735
▁공채 -16736
▁레니 -16737
▁연호 -16738
▁품종 -16739
▁마카오 -16740
▁안테나 -16741
▁ㅇㅣㅈㅇㅓ -16742
▁맥시 -16743
▁건축물 -16744
▁서스펜 -16745
▁자유주의 -16746
▁편도 -16747
나시 -16748
▁짱구 -16749
▁세이부 -16750
라이언트 -16751
▁사복 -16752
▁로토 -16753
평균 -16754
▁나지 -16755
▁불발 -16756
▁알트 -16757
▁위저드 -16758
안군 -16759
▁밸브 -16760
▁엠마 -16761
▁저널 -16762
▁팰리스 -16763
▁시녀 -16764
▁현무 -16765
▁011 -16766
▁광동 -16767
▁수전 -16768
ㅇㅜㄹㄹㅕ -16769
▁클라이언트 -16770
▁박히 -16771
▁ㄴㅔㄹ -16772
▁번번 -16773
▁선후 -16774
▁악장 -16775
▁저음 -16776
영향 -16777
▁KCC -16778
▁코우지 -16779
▁염동 -16780
신기 -16781
▁빈센트 -16782
▁신태 -16783
코스터 -16784
▁ㄱㅏㅇㅎㅏㅁ -16785
재욱 -16786
▁베아 -16787
스부르크 -16788
▁성령 -16789
▁시프 -16790
▁정치력 -16791
ㄱㅐ -16792
▁베레 -16793
▁청취 -16794
▁승계 -16795
▁순항 -16796
▁페달 -16797
▁국무총리 -16798
de -16799
▁ㅈㅣㄴㅎㅏㄴ -16800
리히 -16801
▁합금 -16802
▁띵 -16803
▁야스오 -16804
▁변속기 -16805
▁롤러코스터 -16806
▁곡사 -16807
▁그제서야 -16808
▁성품 -16809
▁한중 -16810
▁RX -16811
ival -16812
▁end -16813
▁의뢰인 -16814
▁최형우 -16815
▁반납 -16816
▁숙지 -16817
▁끝없이 -16818
▁ㅎㅓㅁㅎㅏㄴ -16819
▁주주 -16820
요리 -16821
▁마석 -16822
▁ㅇㅡㄴㄱㅏ -16823
테라 -16824
▁토바 -16825
▁바알 -16826
▁위닝 -16827
▁ㄲㅏㄴㄷㅏ -16828
▁꾹 -16829
▁ㄲㅜㄹ -16830
▁노선도 -16831
▁1937 -16832
▁허벅지 -16833
▁베로 -16834
▁숨결 -16835
▁니즈 -16836
▁야인 -16837
▁ㅁㅣㄹㄹㅣㄴ -16838
▁화가 -16839
▁하나님 -16840
▁전우 -16841
▁ㅍㅡㄴ -16842
▁투여 -16843
74 -16844
▁오산 -16845
▁티모 -16846
ㄱㅎㅐ -16847
▁APC -16848
▁브래드 -16849
▁cont -16850
▁빙글 -16851
▁난장판 -16852
▁밀접 -16853
▁서재 -16854
▁명왕 -16855
▁다이빙 -16856
▁신봉 -16857
▁만우 -16858
▁훈련소 -16859
▁그레이브 -16860
▁애시당초 -16861
RO -16862
▁부끄 -16863
▁228 -16864
▁aqu -16865
▁검색어 -16866
▁오스트레일리아 -16867
대표 -16868
▁하쿠 -16869
▁make -16870
▁가늠 -16871
▁ㅎㅏㄴㄷㅡㄹ -16872
▁읊 -16873
▁슬립 -16874
▁양양 -16875
▁큐트 -16876
김없이 -16877
▁오스틴 -16878
▁"' -16879
▁예술가 -16880
▁샬롯 -16881
▁에버튼 -16882
다듬 -16883
▁이송 -16884
▁노라 -16885
▁서동 -16886
▁컬링 -16887
▁play -16888
▁메가트론 -16889
▁크리스토퍼 -16890
▁EXTREME -16891
ATE -16892
▁폴라 -16893
테리어 -16894
▁224 -16895
▁코요미 -16896
▁375 -16897
▁Christ -16898
▁포자 -16899
que -16900
▁갇히 -16901
▁PT -16902
▁디럭스 -16903
▁블로킹 -16904
▁베네치아 -16905
▁410 -16906
▁방망 -16907
▁ㅇㅣㄱㅎㅕ -16908
▁선지 -16909
▁키치 -16910
▁요양 -16911
▁조개 -16912
▁세계수 -16913
▁강령 -16914
▁사생 -16915
▁설진 -16916
▁원상 -16917
▁233 -16918
소통 -16919
▁평준 -16920
▁의사소통 -16921
▁쎄 -16922
▁양말 -16923
▁들려주 -16924
▁버금 -16925
▁탄두 -16926
▁Hol -16927
▁결단 -16928
▁말살 -16929
리즘 -16930
▁시메 -16931
▁펠트 -16932
▁행군 -16933
▁호각 -16934
▁제너럴 -16935
▁톱니 -16936
▁ㄷㅏㅇㅎㅐㅆㅇㅡ -16937
▁춘추 -16938
▁part -16939
▁ㄷㅏㄴㄷㅏ -16940
▁김은 -16941
▁미도 -16942
▁보호자 -16943
▁애니플러스 -16944
22 -16945
▁ㅎㅗㄴ -16946
▁애니메이터 -16947
모델 -16948
▁사츠키 -16949
ㄲㅇㅕㅆ -16950
▁츳 -16951
▁소란 -16952
▁이강 -16953
▁라리 -16954
▁끊이 -16955
넌트 -16956
erg -16957
▁착수 -16958
▁피그 -16959
ㅇㅗㅁ -16960
ㅅㅔㄴ -16961
▁얍 -16962
▁건의 -16963
▁이달 -16964
▁싱크로 -16965
▁연구자 -16966
▁ㅎㅑㅇㅎㅐㅆ -16967
▁외장 -16968
▁칼질 -16969
ㅇㅗㄹㄹㅕㅆ -16970
ONG -16971
▁정무 -16972
▁야마자키 -16973
하늘 -16974
▁MIX -16975
▁만우절 -16976
▁성시 -16977
▁쌍검 -16978
ino -16979
▁경시 -16980
▁자택 -16981
성군 -16982
▁성원 -16983
▁캠핑 -16984
▁Club -16985
▁반려 -16986
▁일생 -16987
▁애리조 -16988
idd -16989
▁회유 -16990
▁허다 -16991
▁미약 -16992
▁스맥 -16993
▁험악 -16994
▁최하위 -16995
▁골짜기 -16996
▁러스트 -16997
▁스맥다운 -16998
▁KE -16999
▁짓밟 -17000
▁리제 -17001
▁반죽 -17002
▁오보 -17003
▁again -17004
▁어시 -17005
▁Cry -17006
▁레전더리 -17007
ㅈㅣㅂㄴㅣ -17008
▁중산 -17009
린더 -17010
▁래리 -17011
▁쇼타 -17012
▁사상자 -17013
▁그러다가 -17014
▁태후 -17015
▁몸싸움 -17016
▁과반 -17017
▁우먼 -17018
ya -17019
썰트 -17020
▁위아 -17021
▁어썰트 -17022
▁에노 -17023
▁ㅂㅜㄹㅌㅏ -17024
▁WHIP -17025
▁뻔하 -17026
▁사찰 -17027
▁생계 -17028
▁착취 -17029
전함 -17030
▁개칭 -17031
▁걸치 -17032
이라 -17033
▁월터 -17034
▁들이대 -17035
▁판단력 -17036
임수 -17037
▁교목 -17038
가르드 -17039
▁아니하 -17040
▁잔소리 -17041
▁코러스 -17042
lo -17043
▁슈리 -17044
▁악평 -17045
▁ㅁㅣㄴ -17046
▁유승민 -17047
▁근위 -17048
▁북서 -17049
▁세카 -17050
▁시어터 -17051
▁ㅌㅓㄹㄹㅕㅆ -17052
▁hp -17053
▁고뇌 -17054
▁흉기 -17055
▁앤드류 -17056
▁레코 -17057
▁면도 -17058
▁수퍼 -17059
먼드 -17060
▁소프 -17061
▁스미레 -17062
▁슬로건 -17063
▁ㄷㅗㅇㅇㅣㄴ -17064
▁폰트 -17065
▁황소 -17066
▁고안 -17067
▁간절 -17068
▁레볼루션 -17069
▁알코올 -17070
▁Come -17071
▁라니 -17072
▁음력 -17073
▁차우 -17074
▁둔기 -17075
▁전패 -17076
▁heart -17077
▁실탄 -17078
▁식별 -17079
▁귤 -17080
BY -17081
▁오승 -17082
▁참모총장 -17083
▁ㅅㅓㄴㅈㅣ -17084
▁대구경 -17085
일기 -17086
▁필적 -17087
▁편집자 -17088
▁찬사 -17089
▁동탄 -17090
▁ㄴㅏㄹㄹㅏ -17091
하니 -17092
▁노홍철 -17093
HN -17094
▁유원 -17095
▁레이카 -17096
살렘 -17097
▁KA -17098
▁아르타 -17099
▁수산 -17100
▁순례 -17101
▁이장 -17102
▁진전 -17103
▁ㄷㅡㄹㅋㅕ -17104
▁고철 -17105
▁매도 -17106
▁원성 -17107
▁ㄴㅗㅎㅇㅣㄴ -17108
▁린이 -17109
▁무로 -17110
▁투수진 -17111
▁스테이크 -17112
▁증표 -17113
루살렘 -17114
▁악영향 -17115
▁윤종신 -17116
▁구이 -17117
▁성희롱 -17118
▁줄리아 -17119
▁카르텔 -17120
▁진기 -17121
▁항쟁 -17122
베르크 -17123
▁노획 -17124
▁은혼 -17125
▁겉모습 -17126
▁ㅂㅓㄹㅇㅣㄹ -17127
▁절감 -17128
▁블랑 -17129
▁젠지 -17130
▁ㅈㅏㄹㅅㅐㅇㄱㅣㄴ -17131
▁급여 -17132
▁편애 -17133
▁김종국 -17134
▁NORM -17135
▁악세사리 -17136
▁never -17137
▁쿄스케 -17138
▁이바 -17139
▁인원수 -17140
▁이탈리아어 -17141
▁백병 -17142
▁강서구 -17143
▁한복 -17144
이즈미 -17145
▁CIA -17146
cy -17147
▁린치 -17148
▁마사토 -17149
▁블레 -17150
▁포상 -17151
▁ㅁㅓㄹ -17152
▁적과 -17153
폴리스 -17154
▁라이덴 -17155
▁PH -17156
▁독도 -17157
▁안장 -17158
▁카오 -17159
▁미완성 -17160
자치단체 -17161
▁PM -17162
▁설문 -17163
▁명확히 -17164
▁김한 -17165
▁제명 -17166
▁대도 -17167
▁어휘 -17168
▁뺑 -17169
일본 -17170
▁성소 -17171
열차 -17172
▁달래 -17173
▁호문 -17174
▁bb -17175
▁치과 -17176
▁이메일 -17177
▁파탄 -17178
▁마우 -17179
▁미네랄 -17180
▁이에야스 -17181
공주 -17182
OUR -17183
▁충원 -17184
사람 -17185
ORA -17186
▁동결 -17187
▁류우 -17188
▁미우 -17189
▁관용 -17190
▁지하실 -17191
▁ㅈㅏㅁㄷㅡㄴ -17192
걸음 -17193
▁일루 -17194
▁Will -17195
▁긋 -17196
▁시정 -17197
▁옴니 -17198
▁티격 -17199
▁XC -17200
aker -17201
▁ㅎㅓㄹ -17202
▁xx -17203
▁쫓아내 -17204
▁Girls -17205
▁NORMAL -17206
▁환원 -17207
▁벳 -17208
▁Ah -17209
▁어부 -17210
▁유키노 -17211
▁돗 -17212
▁화전 -17213
▁임재 -17214
▁성취 -17215
▁순차 -17216
▁루시안 -17217
▁콘테스트 -17218
▁정시 -17219
▁ㄸㅜㅀㄹㅕ -17220
전대 -17221
회의 -17222
▁마이티 -17223
▁예루살렘 -17224
르슈 -17225
▁퍼플 -17226
▁체이서 -17227
▁깍 -17228
▁땜 -17229
▁쁘 -17230
ㄸㅓ -17231
▁틈새 -17232
▁MY -17233
▁브로드 -17234
ㅅㅏㄹㅇㅏ -17235
anger -17236
▁카모 -17237
▁has -17238
▁차크라 -17239
▁카프 -17240
▁멩 -17241
▁신빙 -17242
▁코만 -17243
▁개리 -17244
▁그분 -17245
해야 -17246
▁본거지 -17247
▁컨퍼런스 -17248
▁평이 -17249
메리카 -17250
▁다마 -17251
▁밤중 -17252
▁데니스 -17253
▁동남아 -17254
관계 -17255
▁수료 -17256
▁김종민 -17257
onder -17258
▁뜬금없 -17259
▁수사관 -17260
▁게재 -17261
▁부전 -17262
▁다이노 -17263
▁MUS -17264
▁Sol -17265
▁RB -17266
▁실감 -17267
▁only -17268
▁수렴 -17269
▁유부 -17270
▁1919 -17271
▁SEED -17272
▁ㅈㅏㅁㄱㅕ -17273
▁수당 -17274
▁랠 -17275
▁개종 -17276
▁연하 -17277
▁프렌드 -17278
▁밧줄 -17279
▁EXO -17280
▁음악가 -17281
▁Best -17282
NG -17283
푸스 -17284
▁ㅊㅐㅇㄱㅕㅆ -17285
▁뿌요 -17286
▁우대 -17287
▁각별 -17288
▁미코 -17289
▁채무 -17290
▁납품 -17291
▁경대 -17292
▁페이퍼 -17293
▁성공회 -17294
▁제네레이션 -17295
▁용호 -17296
▁ㅇㅘㄴ -17297
▁올인 -17298
▁천진 -17299
▁포커 -17300
▁시리우스 -17301
▁몰입 -17302
▁찔 -17303
▁비서관 -17304
ball -17305
▁메트 -17306
▁인테리어 -17307
osh -17308
▁페미니스트 -17309
쩌둥 -17310
▁열광 -17311
▁Net -17312
▁해설자 -17313
▁마오쩌둥 -17314
▁간첩 -17315
▁나주 -17316
▁외환 -17317
▁ㅅㅐㅇㄱㅕㅆㅇㅡ -17318
팔로 -17319
▁볶음 -17320
▁쇼코 -17321
ㄷㅡㄴㅇㅛ -17322
▁보크 -17323
▁첨부 -17324
▁지상군 -17325
▁아이젠 -17326
▁ㄹㅗㄴㄱㅏ -17327
▁철혈 -17328
▁눈보라 -17329
▁Little -17330
▁매입 -17331
▁활력 -17332
▁서큐버스 -17333
▁올리브 -17334
▁마자 -17335
▁Ind -17336
▁뻐 -17337
▁미주 -17338
▁재차 -17339
▁짝퉁 -17340
▁217 -17341
▁나츠메 -17342
▁전쟁터 -17343
▁Dest -17344
▁ㅅㅡㅁ -17345
▁스커 -17346
▁장대 -17347
▁미식축구 -17348
65 -17349
UD -17350
▁여중 -17351
▁옥타브 -17352
▁문과 -17353
▁트롤링 -17354
▁하남 -17355
세포 -17356
▁고아원 -17357
▁시미즈 -17358
▁남산 -17359
▁후지와라 -17360
▁이리스 -17361
▁우크 -17362
▁최연 -17363
▁능하 -17364
▁SMG -17365
▁소나무 -17366
▁우크라이나 -17367
▁미스테리 -17368
▁OM -17369
▁연마 -17370
▁ㅁㅓㅁㅊㅜㄹ -17371
▁파주 -17372
light -17373
▁ㄴㅏㅈㅊㅝ -17374
오버 -17375
▁개전 -17376
▁해인 -17377
▁ㅁㅏㅅ -17378
샤인 -17379
▁라파엘 -17380
▁억양 -17381
▁에너 -17382
디우스 -17383
▁스턴트 -17384
▁한국군 -17385
▁교원 -17386
▁red -17387
▁스팟 -17388
▁오컬 -17389
▁초전 -17390
▁포메이션 -17391
▁곧장 -17392
▁투항 -17393
▁환산 -17394
▁미술관 -17395
▁카니발 -17396
고스 -17397
▁잠자 -17398
▁전곡 -17399
▁ㄱㅣㅅㄷㅡㄴ -17400
▁약수 -17401
▁증강 -17402
▁초심 -17403
▁민심 -17404
▁배반 -17405
▁우의 -17406
▁호화 -17407
▁북동 -17408
▁1911 -17409
▁없음 -17410
▁월등히 -17411
▁ㅃㅗㅂㅎㅕㅆ -17412
▁산전 -17413
▁주부 -17414
▁픽처 -17415
ANCED -17416
▁KN -17417
▁이보 -17418
▁우선시 -17419
▁슬라이더 -17420
▁ㄷㅐㄹ -17421
▁낙서 -17422
▁부록 -17423
▁다듬 -17424
▁신드 -17425
▁전황 -17426
▁페트 -17427
▁소대장 -17428
▁메모리얼 -17429
▁겨누 -17430
▁연화 -17431
▁라이엇 -17432
▁데미안 -17433
▁서프 -17434
▁내용물 -17435
▁ㅈㅓㅇㅎㅐㅆ -17436
▁물류 -17437
소년단 -17438
▁타쿠야 -17439
▁스콜피온 -17440
▁'~ -17441
▁은빛 -17442
▁궤멸 -17443
▁깜빡 -17444
▁덤벼 -17445
▁시술 -17446
▁here -17447
▁교명 -17448
▁010 -17449
▁켐 -17450
월드 -17451
ASY -17452
▁과열 -17453
▁정근 -17454
▁정민 -17455
▁Take -17456
▁폐업 -17457
▁큰일 -17458
▁베이커 -17459
HC -17460
니컬 -17461
▁낭만 -17462
▁우치하 -17463
▁301 -17464
▁소품 -17465
eek -17466
▁di -17467
▁로어 -17468
▁추기 -17469
▁피노 -17470
▁아라시 -17471
▁플랜트 -17472
와르 -17473
▁고요 -17474
▁체르 -17475
▁Mix -17476
▁수년 -17477
▁브룩 -17478
▁사드 -17479
▁생리 -17480
▁Inv -17481
▁복수심 -17482
▁패하 -17483
티티 -17484
▁악연 -17485
▁마스터즈 -17486
▁기교 -17487
▁ㄷㅗㄹㄹㅣㄴ -17488
▁정승 -17489
▁오아시스 -17490
▁뻔뻔 -17491
▁나리타 -17492
▁서태지 -17493
▁조짐 -17494
▁액수 -17495
▁GPS -17496
세움 -17497
차리 -17498
▁노노 -17499
▁검거 -17500
▁str -17501
▁익산 -17502
▁정선 -17503
▁한판 -17504
▁let -17505
▁난쟁이 -17506
▁나성 -17507
▁소셜 -17508
▁Single -17509
▁조선소 -17510
▁부상자 -17511
▁야나기 -17512
▁ㄲㅡㄶㅇㅓ -17513
▁하노 -17514
▁오컬트 -17515
38 -17516
▁발령 -17517
▁남아프리카 -17518
불리 -17519
▁gu -17520
▁요지 -17521
▁NFL -17522
▁래빗 -17523
IO -17524
▁레닌 -17525
▁크류 -17526
▁Aut -17527
▁Ult -17528
▁몰아붙이 -17529
▁비터 -17530
▁야구단 -17531
▁내레이션 -17532
▁ㅎㅏㄹㄱㅔ -17533
데라 -17534
oom -17535
▁앵글 -17536
▁BMW -17537
▁시끄럽 -17538
▁세터 -17539
▁액스 -17540
▁다량 -17541
▁헌트 -17542
▁에이미 -17543
▁\] -17544
▁aquarius -17545
▁무트 -17546
▁화합 -17547
▁대기실 -17548
▁연장전 -17549
▁ㄴㅏㅊㅅㅓㄴ -17550
▁ad -17551
▁고드 -17552
▁고참 -17553
▁음료수 -17554
▁초라 -17555
▁세련 -17556
▁유창 -17557
▁252 -17558
▁빌헬름 -17559
▁딸리 -17560
▁찍히 -17561
▁어긋나 -17562
▁강정 -17563
▁담원 -17564
▁변모 -17565
▁게르만 -17566
▁유니버 -17567
▁방탄소년단 -17568
▁세바스 -17569
▁야구부 -17570
▁미움 -17571
▁패권 -17572
▁ㅌㅡㄹ -17573
장치 -17574
▁세이야 -17575
▁ADVANCED -17576
▁특색 -17577
uture -17578
▁ㅂㅜㅌㅇㅣㄴㄷㅏ -17579
ena -17580
▁미하일 -17581
▁프레데터 -17582
▁굴림 -17583
▁맹수 -17584
▁반주 -17585
▁저축 -17586
▁하계 -17587
▁뮐 -17588
lex -17589
▁영국인 -17590
▁타카히로 -17591
▁광란 -17592
▁냉혹 -17593
▁지효 -17594
▁허약 -17595
▁CGV -17596
▁체류 -17597
▁승하 -17598
▁뉴타입 -17599
▁부적절 -17600
▁사이비 -17601
▁스트림 -17602
▁타카오 -17603
▁러시아군 -17604
▁사대 -17605
▁카즈미 -17606
▁mA -17607
▁출입구 -17608
▁클러치 -17609
ㅅㅡㄹㄹㅓ -17610
시장 -17611
▁우디 -17612
▁FO -17613
▁상반 -17614
▁업자 -17615
▁촉진 -17616
▁피파 -17617
▁Real -17618
32 -17619
▁괴이 -17620
▁사주 -17621
▁해밀 -17622
비지 -17623
▁로켓단 -17624
▁Storm -17625
각형 -17626
▁제후 -17627
▁티르 -17628
▁Dec -17629
▁어르 -17630
▁환장 -17631
▁페라리 -17632
▁YG -17633
▁드미 -17634
▁마방 -17635
▁재상 -17636
▁512 -17637
▁골수 -17638
▁라다 -17639
▁자백 -17640
▁재보 -17641
▁지탱 -17642
▁통찰 -17643
▁둘째치 -17644
▁통솔력 -17645
▁정국 -17646
ital -17647
▁사카이 -17648
▁코미디언 -17649
성어 -17650
▁껌 -17651
▁형벌 -17652
▁를 -17653
▁독단 -17654
▁하로 -17655
▁한눈 -17656
▁신천 -17657
▁정관 -17658
▁이트 -17659
▁ㄴㅡㄴㅋㅓ -17660
▁촉구 -17661
▁대성공 -17662
교사 -17663
▁닛산 -17664
▁우여 -17665
▁Med -17666
▁카르타 -17667
▁스냅드래곤 -17668
▁퍼블 -17669
▁메커 -17670
▁호위함 -17671
▁알라딘 -17672
▁아카이브 -17673
ano -17674
▁공직 -17675
▁나아지 -17676
▁저상버스 -17677
▁백두 -17678
▁EPL -17679
▁백종 -17680
▁2022 -17681
세우스 -17682
▁이동기 -17683
▁오자 -17684
▁광화문 -17685
▁헤이세이 -17686
▁예민 -17687
▁|[ -17688
▁요령 -17689
▁멘토 -17690
▁명지 -17691
▁최장 -17692
▁케네 -17693
▁파기 -17694
▁Def -17695
▁Gun -17696
▁니르 -17697
▁도넛 -17698
▁속임수 -17699
▁초계 -17700
니케이션 -17701
▁켓 -17702
▁항성 -17703
ㄷㅏㄹㄹㅕㅆ -17704
▁녹스 -17705
▁로젠 -17706
▁폐인 -17707
▁교제 -17708
▁ㄱㅣㄹㄹㅐ -17709
▁밀가루 -17710
▁하야테 -17711
▁애플리케이션 -17712
▁거창 -17713
▁커뮤니케이션 -17714
ude -17715
▁Hero -17716
▁의거 -17717
▁재발 -17718
▁아틀란 -17719
서리 -17720
요이 -17721
▁츠네 -17722
▁버금가 -17723
▁샤르 -17724
▁츳코 -17725
▁파나 -17726
▁하원 -17727
▁스탬 -17728
▁포구 -17729
▁Zero -17730
네즈 -17731
▁야요이 -17732
▁섬뜩 -17733
▁DSP -17734
▁다람 -17735
▁youtu -17736
공학 -17737
레오 -17738
▁착공 -17739
▁나오미 -17740
▁스케이트 -17741
대왕 -17742
모트 -17743
▁Rad -17744
▁프란츠 -17745
▁포식자 -17746
▁정찰기 -17747
▁별거 -17748
DDR -17749
▁사이먼 -17750
UG -17751
▁가즈 -17752
▁김시 -17753
▁운동가 -17754
경민 -17755
덱스 -17756
마사 -17757
▁베토벤 -17758
▁서유럽 -17759
▁EXTRA -17760
▁슬프 -17761
▁Warhammer -17762
▁ER -17763
▁강급 -17764
▁시놉 -17765
▁학파 -17766
▁윤석민 -17767
▁크래시 -17768
▁ㅁㅏㅌㄱㅕㅆ -17769
소타 -17770
▁산출 -17771
▁신승 -17772
apan -17773
▁수차례 -17774
러미 -17775
▁HR -17776
▁발하 -17777
39 -17778
노트 -17779
▁사춘 -17780
▁자음 -17781
▁절도 -17782
▁ㄱㅕㄴㄷㅕ -17783
▁ㅇㅕㅅㅂㅗㄹ -17784
▁손길 -17785
▁토드 -17786
▁390 -17787
▁Cal -17788
ett -17789
▁승낙 -17790
▁선샤인 -17791
▁정착지 -17792
▁시놉시스 -17793
▁Ry -17794
ning -17795
▁미네소타 -17796
▁아토 -17797
▁야가미 -17798
▁제때 -17799
ㅁㅜㄹㄹㅓㅆ -17800
려우 -17801
▁QP -17802
▁격변 -17803
▁꼬박 -17804
▁부설 -17805
▁텐트 -17806
▁227 -17807
폴트 -17808
▁집요 -17809
▁급속도 -17810
▁그딴 -17811
▁클럭 -17812
▁ㅍㅜㄴ -17813
▁Park -17814
▁Ag -17815
▁왕성 -17816
▁보이즈 -17817
얼거리 -17818
lection -17819
▁총점 -17820
▁송곳니 -17821
▁탐험가 -17822
▁틀림없 -17823
▁자릿 -17824
ㅟㄹ -17825
aid -17826
ler -17827
▁레터 -17828
▁은색 -17829
▁재탕 -17830
▁횡령 -17831
▁BLACK -17832
unk -17833
▁사하 -17834
BE -17835
▁암석 -17836
▁폭언 -17837
unt -17838
▁보그 -17839
▁욘 -17840
arm -17841
부리 -17842
▁처방 -17843
▁스프레이 -17844
▁Sweet -17845
▁경관 -17846
▁Mbps -17847
지우 -17848
▁공안 -17849
병기 -17850
▁대장간 -17851
▁데이지 -17852
▁라티 -17853
▁매료 -17854
▁문관 -17855
▁여차 -17856
ours -17857
irect -17858
une -17859
▁크로스오버 -17860
쩐지 -17861
▁관습 -17862
▁깨우 -17863
▁어쩐지 -17864
▁트렌드 -17865
▁1934 -17866
▁경부선 -17867
▁교가 -17868
▁htm -17869
▁샌드위치 -17870
▁ㅇㅝㄴㅊㅣ -17871
▁멜리 -17872
▁웍스 -17873
▁표준어 -17874
▁등용 -17875
▁브록 -17876
▁any -17877
▁when -17878
▁급증 -17879
▁주름 -17880
▁John -17881
조림 -17882
▁풀이 -17883
▁오거 -17884
▁예하 -17885
▁태백 -17886
▁시부야 -17887
▁마사히로 -17888
▁우등 -17889
▁거느리 -17890
▁추격전 -17891
곡절 -17892
▁투영 -17893
▁시급 -17894
▁ㅁㅜㄷㅎㅣㄴ -17895
▁노보 -17896
▁툭하면 -17897
▁우여곡절 -17898
oj -17899
▁만신 -17900
▁예거 -17901
리스크 -17902
▁Gal -17903
ouble -17904
▁알프레드 -17905
▁루팅 -17906
▁오정 -17907
▁평하 -17908
▁동이 -17909
▁합숙 -17910
▁양방향 -17911
▁콴 -17912
▁엄연 -17913
▁홍련 -17914
▁Space -17915
▁다라 -17916
▁소홀 -17917
▁거액 -17918
▁사춘기 -17919
▁아랍어 -17920
ather -17921
나타 -17922
▁만장 -17923
▁ㄸㅢㄴㄷㅏ -17924
44 -17925
▁다채 -17926
▁돌변 -17927
▁샤이니 -17928
▁알아차리 -17929
▁미시마 -17930
▁youtube -17931
▁압승 -17932
▁쿠보 -17933
▁정보원 -17934
▁몽환 -17935
▁세균 -17936
▁Hel -17937
▁ㅇㅡㄹㅅㅣ -17938
▁롱주 -17939
▁백악 -17940
▁휴지 -17941
▁대지진 -17942
▁토치 -17943
▁레이브 -17944
▁밴쿠버 -17945
▁보좌관 -17946
▁오소 -17947
▁쿠퍼 -17948
▁비밀리 -17949
▁신노스케 -17950
ㅁㅜㄹㄹㅓ -17951
▁서북 -17952
ords -17953
▁파이팅 -17954
▁쇼우 -17955
▁자습 -17956
▁내걸 -17957
▁차고 -17958
▁231 -17959
▁리비 -17960
▁ㄴㅓㄼ -17961
uct -17962
br -17963
▁나크 -17964
▁장민 -17965
▁보리스 -17966
숭아 -17967
▁최민 -17968
▁분양 -17969
▁뽐내 -17970
▁노리코 -17971
▁료코 -17972
브론 -17973
▁오현 -17974
▁자객 -17975
▁치요 -17976
▁페가수스 -17977
▁LEVEL -17978
립스 -17979
▁컷인 -17980
▁홍수 -17981
▁Feel -17982
살이 -17983
▁우터 -17984
▁정몽 -17985
레마 -17986
oe -17987
ames -17988
▁Bu -17989
▁대련 -17990
▁아틀란티스 -17991
▁ㄷㅏㄹㅎㅐㅆ -17992
TER -17993
▁가야 -17994
▁위임 -17995
▁요가 -17996
▁냅다 -17997
▁숙제 -17998
▁연막탄 -17999
▁연대기 -18000
END -18001
▁주재 -18002
▁op -18003
▁동맹군 -18004
▁아오키 -18005
▁오라클 -18006
▁코스모스 -18007
▁반쪽 -18008
▁서바이버 -18009
▁Je -18010
▁조슈아 -18011
ㅁㅐ -18012
▁파비 -18013
▁Kim -18014
▁HT -18015
▁Say -18016
▁구스 -18017
▁효용 -18018
KO -18019
로리 -18020
▁난도 -18021
▁윤영 -18022
▁에디터 -18023
▁mAh -18024
▁쿠루미 -18025
▁ㄹㅏㄴㄷㅏ -18026
▁핍 -18027
▁고영 -18028
▁린드 -18029
▁ㅂㅜㄹㄹㅣㄴ -18030
▁진명 -18031
▁관람객 -18032
▁심복 -18033
▁제련 -18034
▁ㅅㅓㄴㄱㅏ -18035
▁코타 -18036
▁함경 -18037
yr -18038
▁영수 -18039
▁개머리 -18040
ople -18041
▁ㄲㅞ -18042
▁정주 -18043
▁초구 -18044
▁브라우저 -18045
▁깐 -18046
▁교활 -18047
▁안즈 -18048
▁흡입 -18049
▁구스타 -18050
▁나가사키 -18051
▁사칭 -18052
▁인삼 -18053
▁정명훈 -18054
▁코스모 -18055
▁옅 -18056
▁하가 -18057
▁주변인 -18058
▁햐 -18059
▁유상 -18060
▁타타 -18061
▁판명 -18062
▁포섭 -18063
▁텝 -18064
▁보름 -18065
▁자물 -18066
▁옥수수 -18067
▁need -18068
▁PG -18069
▁min -18070
▁베가스 -18071
▁수송기 -18072
▁은신처 -18073
▁뜻밖 -18074
▁어떡 -18075
▁오사무 -18076
▁하즈 -18077
▁계약서 -18078
어뜯 -18079
▁로더 -18080
thing -18081
▁사념 -18082
▁부착물 -18083
▁피고인 -18084
▁명심 -18085
▁트리니티 -18086
개골 -18087
▁금단 -18088
▁아날 -18089
▁용족 -18090
▁약품 -18091
▁웬디 -18092
▁나카지마 -18093
▁공적 -18094
▁출진 -18095
▁자물쇠 -18096
▁유족 -18097
▁남녀공학 -18098
▁이부키 -18099
▁대첩 -18100
▁요하 -18101
▁Ret -18102
▁ㄷㅏㄹㄹㅣㄹ -18103
▁라몬 -18104
vil -18105
▁근로자 -18106
▁협의회 -18107
▁은근슬쩍 -18108
▁안톤 -18109
▁용납 -18110
▁경상도 -18111
▁최준 -18112
▁가르시아 -18113
▁낙사 -18114
▁ㅁㅏㅇㅅㅓㄹ -18115
거스 -18116
▁거침 -18117
▁근방 -18118
▁마즈 -18119
▁방주 -18120
▁설립자 -18121
▁ㅎㅡㄹㄹㅕㅆ -18122
▁두각 -18123
▁Sou -18124
▁법령 -18125
▁비견 -18126
▁Dem -18127
▁중대장 -18128
▁권하 -18129
▁바카 -18130
동물 -18131
▁성물 -18132
▁실컷 -18133
후미 -18134
▁병합 -18135
▁지저 -18136
▁피쉬 -18137
소연 -18138
▁카나코 -18139
▁프리킥 -18140
▁투지 -18141
리아스 -18142
▁Tour -18143
▁겸임 -18144
곡리 -18145
자스 -18146
uel -18147
▁고마 -18148
▁멱살 -18149
▁일간 -18150
▁젓 -18151
▁아와 -18152
▁GTX -18153
▁간직 -18154
▁주점 -18155
▁JYP -18156
▁ㅈㅗㅂㅎㅕ -18157
ODE -18158
▁마쓰 -18159
▁도봉 -18160
▁햄튼 -18161
▁컬트 -18162
▁프리퀄 -18163
▁조공 -18164
▁청문회 -18165
▁잭스 -18166
▁소양 -18167
▁손발 -18168
▁더러 -18169
▁구식 -18170
▁후진 -18171
▁레베카 -18172
비슷 -18173
▁달려드 -18174
▁즐거움 -18175
사노 -18176
▁견고 -18177
▁막스 -18178
▁여제 -18179
ㅃㅡㄹ -18180
▁조련 -18181
▁흑발 -18182
▁를르슈 -18183
나우 -18184
▁골절 -18185
▁Kill -18186
aser -18187
▁430 -18188
▁부포 -18189
▁코아 -18190
▁238 -18191
▁스타킹 -18192
▁짓거리 -18193
▁페드로 -18194
▁ㄱㅏㄹㄱ -18195
▁블룸 -18196
▁이그 -18197
▁조동 -18198
▁LOL -18199
▁모리스 -18200
▁탤런트 -18201
▁ㄲㅡㅌㄴㅐㄴ -18202
▁사루 -18203
▁하강 -18204
▁역마 -18205
▁피통 -18206
▁스틸러스 -18207
분투 -18208
▁비화 -18209
▁재기 -18210
▁크레인 -18211
▁둥글 -18212
▁발열 -18213
▁전광판 -18214
▁아누 -18215
▁꼬맹이 -18216
▁Orig -18217
▁저질 -18218
▁노동조합 -18219
▁ㅂㅓㄹㄹㅕ -18220
▁버팔로 -18221
▁치솟 -18222
린트 -18223
▁some -18224
태격 -18225
▁백스 -18226
▁정부군 -18227
▁티격태격 -18228
arth -18229
▁동남아시아 -18230
▁드럼매니아 -18231
▁폄 -18232
질기 -18233
▁덮치 -18234
▁나이지 -18235
▁나이지리아 -18236
설수 -18237
▁지네 -18238
▁끈질기 -18239
ㅎㅇㅏㅆ -18240
▁ㅆㅏㅎㅇㅏㅆ -18241
▁ㅂㅏㄱㅅㅏㄹㄴㅏㄴ -18242
뚜기 -18243
▁씌우 -18244
▁평면 -18245
▁후사 -18246
▁ㅅㅐㅇㄱㅏ -18247
▁규율 -18248
▁ㅇㅕㅆㅇㅓㅆ -18249
▁비우 -18250
▁내쫓 -18251
▁요요 -18252
▁ㅅㅐㅇㄱㅏㄱ -18253
▁명계 -18254
▁지출 -18255
▁포커스 -18256
▁플리트 -18257
▁횃 -18258
▁236 -18259
▁KBL -18260
▁마일리 -18261
▁셔먼 -18262
▁치어리 -18263
노프 -18264
비야 -18265
▁카로 -18266
▁포이즌 -18267
ner -18268
▁스메 -18269
▁개머리판 -18270
▁Great -18271
▁Beat -18272
▁어정 -18273
교도 -18274
▁어려우 -18275
▁남원 -18276
▁위아래 -18277
▁지중해 -18278
▁치아키 -18279
▁엑스칼리버 -18280
ㅊㅜ -18281
메이트 -18282
▁매튜 -18283
ㄷㅐㅆ -18284
onna -18285
▁근육질 -18286
▁부대장 -18287
ormal -18288
▁견습 -18289
▁변기 -18290
다카 -18291
제트 -18292
▁입점 -18293
ㄱㅎㅣㄹ -18294
▁경멸 -18295
▁초밥 -18296
▁톰슨 -18297
▁사일런트 -18298
▁WORLD -18299
▁동률 -18300
▁265 -18301
▁참치 -18302
▁매크로 -18303
▁Story -18304
▁포츈 -18305
▁덴마 -18306
▁만년 -18307
▁이규 -18308
▁연주자 -18309
▁마로 -18310
▁PERF -18311
▁them -18312
▁서남 -18313
▁코라 -18314
ways -18315
▁지원군 -18316
▁짭 -18317
▁도가 -18318
▁이북 -18319
UND -18320
▁뫼비우스 -18321
▁사오 -18322
▁라카 -18323
▁Luc -18324
▁격납고 -18325
▁로밍 -18326
▁올레 -18327
▁GC -18328
▁복식 -18329
▁르블랑 -18330
▁목장 -18331
▁파라오 -18332
▁열화 -18333
▁원가 -18334
▁옐로우 -18335
부수 -18336
마니 -18337
▁사이다 -18338
슬로 -18339
▁난데 -18340
▁사절 -18341
37 -18342
▁김건 -18343
▁껴안 -18344
▁하피 -18345
iful -18346
▁똑바로 -18347
▁정근우 -18348
팽이 -18349
▁사서 -18350
▁철구 -18351
▁타깃 -18352
도어 -18353
▁<< -18354
▁날카 -18355
▁MAD -18356
▁원정대 -18357
▁통통 -18358
▁WWF -18359
▁프랑켄슈타인 -18360
▁신야 -18361
▁마츠다 -18362
▁앞머리 -18363
▁넥스트 -18364
▁Tech -18365
▁닳 -18366
▁한인 -18367
▁주유소 -18368
▁티베트 -18369
▁경기관총 -18370
리역 -18371
▁방아 -18372
▁엘라 -18373
▁끌어안 -18374
▁마커스 -18375
▁신스 -18376
▁미니건 -18377
▁표류 -18378
▁메커니즘 -18379
▁장문 -18380
▁her -18381
▁감찰 -18382
▁백과 -18383
▁3500 -18384
▁싯 -18385
상부 -18386
▁떨치 -18387
▁수트 -18388
▁인턴 -18389
▁미끄 -18390
▁위안부 -18391
▁팔다리 -18392
입구역 -18393
▁스트롱 -18394
▁Album -18395
▁식구 -18396
▁아로 -18397
▁원사 -18398
ental -18399
fl -18400
▁저술 -18401
▁NAS -18402
▁이리야 -18403
▁When -18404
▁ㄲㅐㄴ -18405
▁세이프 -18406
▁ㅆㅡㄹㄹㅕ -18407
▁파병 -18408
▁사이킥 -18409
▁픽처스 -18410
▁ㄱㅓㄹㄹㅓ -18411
▁ㅅㅏㅇㅎㅐ -18412
ANG -18413
주니어 -18414
▁다비드 -18415
▁아스가르드 -18416
▁개관 -18417
▁빼내 -18418
▁코코로 -18419
▁선율 -18420
▁양지 -18421
▁방탄복 -18422
▁편찬 -18423
▁ㅁㅓㄱㅎㅕ -18424
▁쿡 -18425
▁테디 -18426
▁바바리 -18427
▁ㄱㅡㄱㅎㅏㄴ -18428
슐리 -18429
▁노미 -18430
▁로니 -18431
▁피스톨 -18432
▁이모티콘 -18433
▁로아 -18434
▁폭죽 -18435
▁달려오 -18436
▁리비아 -18437
문화 -18438
▁엘사 -18439
▁기대감 -18440
ㅇㅣㄹㅇㅡ -18441
ations -18442
▁놓이 -18443
▁하르트 -18444
▁Step -18445
▁ㅎㅐㅆㄷㅏ -18446
천리 -18447
▁루가 -18448
▁일파 -18449
▁불굴 -18450
▁DIO -18451
ene -18452
▁뒤덮 -18453
▁아브 -18454
ㄱㅡㅅ -18455
ㅇㅓㄹ -18456
▁시속 -18457
▁쿠즈 -18458
▁한국식 -18459
▁232 -18460
▁GE -18461
▁가희 -18462
ㄷㅐㄴ -18463
▁블러디 -18464
▁램지 -18465
▁형주 -18466
▁강민호 -18467
▁밀리터리 -18468
포동 -18469
▁대나무 -18470
▁ㅎㅜㅁㅊㅣㄴ -18471
▁즌 -18472
▁조라 -18473
▁ㅎㅐㅆㅇㅓㅆㅇㅡ -18474
배기 -18475
▁마개 -18476
시간 -18477
▁구실 -18478
▁집게 -18479
▁군세 -18480
▁마성 -18481
실록 -18482
OSS -18483
▁정설 -18484
▁로데 -18485
▁판다 -18486
▁휘둘 -18487
▁케네디 -18488
▁풀타임 -18489
사전 -18490
▁앙쥬 -18491
▁간과 -18492
▁심영 -18493
▁일전 -18494
▁she -18495
▁칼데아 -18496
구멍 -18497
▁결번 -18498
▁이윤열 -18499
▁내신 -18500
▁상디 -18501
▁기울이 -18502
▁로드리게 -18503
▁홍차 -18504
▁라르 -18505
▁막시 -18506
▁상병 -18507
▁어진 -18508
▁출국 -18509
▁Death -18510
▁ㄱㅕㄴㄷㅣㄹ -18511
▁서슴 -18512
▁서강 -18513
전쟁 -18514
▁갈비 -18515
▁질럿 -18516
ait -18517
▁공구 -18518
▁맨서 -18519
▁숙이 -18520
▁항소 -18521
▁희한 -18522
▁정준하 -18523
▁조건부 -18524
▁Champion -18525
▁땅굴 -18526
▁사우디 -18527
▁순전히 -18528
통일 -18529
▁김장 -18530
▁더듬 -18531
▁조부 -18532
▁암묵 -18533
▁괄호 -18534
▁실기 -18535
▁의병 -18536
▁체하 -18537
▁호루스 -18538
▁드로이드 -18539
▁금빛 -18540
▁볼링 -18541
▁공연장 -18542
▁한없이 -18543
▁급감 -18544
▁레티 -18545
▁변속 -18546
▁옥스 -18547
▁일괄 -18548
▁진중 -18549
body -18550
▁공격대 -18551
▁노어 -18552
▁두개골 -18553
▁외화 -18554
▁행렬 -18555
▁아디 -18556
페르노 -18557
▁세리카 -18558
▁1931 -18559
그래피 -18560
▁대북 -18561
▁세인 -18562
프스 -18563
▁바빌 -18564
▁의약 -18565
▁sec -18566
▁산산조각 -18567
▁하네 -18568
▁인기가요 -18569
▁양현종 -18570
▁인페르노 -18571
▁공평 -18572
▁마레 -18573
▁돌려받 -18574
▁Line -18575
▁서경 -18576
▁510 -18577
▁다르크 -18578
▁ㄴㅗㅎㅊㅕ -18579
▁ㅁㅜㄹㅇㅡ -18580
▁art -18581
▁안영 -18582
▁비타민 -18583
▁물결 -18584
▁숙적 -18585
▁기껏해야 -18586
▁수첩 -18587
▁엽기 -18588
▁족족 -18589
▁팔아먹 -18590
▁ㅊㅣㅇㅎㅏㄴㄷㅏ -18591
▁힛 -18592
IDE -18593
▁음파 -18594
▁Tra -18595
뉴스 -18596
▁원산 -18597
▁투혼 -18598
▁푸딩 -18599
▁삼국사기 -18600
▁대영 -18601
▁언뜻 -18602
▁수식어 -18603
▁사이렌 -18604
사무소 -18605
ume -18606
▁소굴 -18607
▁재결 -18608
▁최승 -18609
AE -18610
▁테드 -18611
▁혼잡 -18612
▁금세 -18613
▁루디 -18614
▁사학 -18615
▁SNK -18616
레스타인 -18617
▁토모코 -18618
▁온건 -18619
▁위드 -18620
▁전위 -18621
▁Bus -18622
rough -18623
주곡 -18624
투사 -18625
▁벨리 -18626
▁착안 -18627
▁카툰 -18628
스틱 -18629
▁독살 -18630
▁찻 -18631
게일 -18632
당기 -18633
▁ㄴㅗㅎㅊㅕㅆ -18634
▁도맡 -18635
▁도면 -18636
▁다이어 -18637
▁퍼레이드 -18638
예프 -18639
▁무서 -18640
▁플롯 -18641
▁TRA -18642
▁ㅍㅕㄹㅊㅣㄴㄷㅏ -18643
▁." -18644
▁얼른 -18645
▁Apple -18646
▁이클 -18647
▁ㅈㅏㅂㅎㅣㄴㄷㅏ -18648
ESS -18649
▁1935 -18650
orever -18651
▁닷컴 -18652
▁머독 -18653
빙글 -18654
욕장 -18655
▁박원 -18656
▁푸시 -18657
▁비행장 -18658
▁ㅈㅗㄹㄹㅏ -18659
▁XBOX -18660
하임 -18661
▁탈락자 -18662
84 -18663
▁남서 -18664
▁넬슨 -18665
▁참수 -18666
▁외교관 -18667
▁ㅅㅏㅁㅋㅕ -18668
▁Electr -18669
▁총애 -18670
▁매혹 -18671
▁밀짚 -18672
▁엘더 -18673
▁747 -18674
시즘 -18675
▁뮐러 -18676
▁이코 -18677
로그램 -18678
▁타츠미 -18679
▁클래시 -18680
▁1700 -18681
▁이크 -18682
바야시 -18683
INAL -18684
▁리더십 -18685
▁종로구 -18686
▁대구광역시 -18687
▁재킷 -18688
▁천자 -18689
▁파커 -18690
▁수없이 -18691
▁워페어 -18692
마을 -18693
▁약사 -18694
▁조각상 -18695
▁족보 -18696
▁니콜라 -18697
▁나즈 -18698
▁범하 -18699
▁곧이어 -18700
▁구가 -18701
▁흑색 -18702
▁타사 -18703
▁Who -18704
▁프리티 -18705
파일 -18706
▁셀렉 -18707
▁ㄴㅡㅈㅊ -18708
▁콘스탄티노 -18709
▁장발 -18710
ral -18711
▁불륜 -18712
▁왕정 -18713
[...]
