▁▃ -0
▁ㅇ -1
▁ㄱ -2
▁ㄷ -3
▁ㅎ -4
▁ㅇㅣ -5
▁ㅈ -6
▁ㅅ -7
▁ㄴ -8
ㅡㄴ -9
ㅡㄹ -10
ㅏㄴ -11
▁ㅂ -12
▁ㄷㅏ -13
▁. -14
▁ㅇㅔ -15
▁ㅁ -16
▁ㄹ -17
▁ㅇㅢ -18
▁ㄴㅡㄴ -19
▁ㅎㅏ -20
ㅕㄴ -21
ㅓㄴ -22
ㅏㅇ -23
▁, -24
ㅗㅇ -25
▁ㅇㅡㄹ -26
ㅅㅓ -27
ㅣㄴ -28
▁ㅊ -29
ㅕㅇ -30
ㄹㅗ -31
▁ㄱㅏ -32
ㅜㄴ -33
▁ㅇㅡㄴ -34
▁ㅇㅓ -35
ㅇㅣ -36
ㄹㅣ -37
▁ㄱㅗ -38
▁ㅍ -39
▁1 -40
▁ㅇㅡ -41
▁ㅇㅕ -42
ㅓㅇ -43
▁ㄷㅚ -44
▁ㄹㅡㄹ -45
▁ㅎㅏㄴ -46
ㅜㄱ -47
ㅅㅡ -48
▁ㅇㅏ -49
▁ㅈㅣ -50
▁ㅌ -51
ㅏㄱ -52
▁ㄴㅕㄴ -53
ㅈㅣ -54
▁ㄹㅗ -55
ㅗㄱ -56
ㅅㅣ -57
▁ㅎㅐ -58
ㅏㄹ -59
▁ㄱㅣ -60
▁ㅅㅣ -61
▁2 -62
▁ㄱㅘ -63
▁ㅇㅣㅆ -64
ㅜㄹ -65
▁ㄷㅐ -66
ㄷㅏ -67
▁ㅅㅏ -68
▁ㄱㅡ -69
▁ㅋ -70
▁ㅈㅜ -71
▁ㄷㅗ -72
▁ㅇㅣㄴ -73
ㅡㅇ -74
▁ㅇㅓㅆ -75
ㅓㄱ -76
ㅗㄴ -77
▁ㅇㅣㄹ -78
ㅝㄴ -79
ㄴㅏ -80
ㄹㅏ -81
▁ㅇㅘ -82
ㅇㅓ -83
ㄱㅣ -84
▁ㄸ -85
ㅎㅐ -86
ㄱㅜㄱ -87
ㅅㅏ -88
▁ㄱㅓ -89
ㅕㄱ -90
▁ㄷㅡㄹ -91
▁ㅅㅜ -92
▁ㄴㅏ -93
▁ㅈㅏ -94
ㄷㅗ -95
▁ㅎㅐㅆ -96
ㅈㅏ -97
▁ㅈㅓㄴ -98
ㄹㅡ -99
ㄱㅏ -100
▁20 -101
▁ㅇㅕㅆ -102
▁ㅈㅓㄱ -103
ㅝㄹ -104
ㄱㅗ -105
ㅓㄹ -106
▁ㅂㅜ -107
ㄷㅡ -108
ㅇㅏ -109
ㅎㅘ -110
ㅎㅏ -111
ㅌㅡ -112
▁ㅇㅝㄹ -113
ㅂㅜ -114
▁ㅁㅏ -115
ㅎㅏㄴ -116
ㅈㅏㅇ -117
▁ㅈㅔ -118
ㅈㅜ -119
▁19 -120
ㅇㅛ -121
ㅊㅣ -122
▁ㅁㅣ -123
ㅓㅁ -124
ㅑㅇ -125
▁ㄹㅏ -126
ㅈㅓㅇ -127
▁ㅇㅟ -128
ㅇㅣㄴ -129
ㄷㅐ -130
▁ㅈㅓㅇ -131
ㅐㅇ -132
▁ㅈㅜㅇ -133
▁ㅂㅗ -134
ㅅㅜ -135
▁ㅇㅠ -136
▁ㅎㅘ -137
ㄱㅜ -138
▁ㅅㅔ -139
ㅕㄹ -140
▁ㅇㅗ -141
ㅇㅝㄴ -142
▁ㅂㅏ -143
ㅇㅡ -144
▁ㄷㅚㄴ -145
▁ㄱㅗㅇ -146
▁ㅈㅗ -147
ㄹㅓ -148
ㅅㅓㅇ -149
▁ㄱㅔ -150
ㅐㄱ -151
ㅈㅓㄴ -152
ㅇㅜ -153
▁ㄱㅕㅇ -154
ㅅㅏㅇ -155
▁ㅁㅗ -156
▁ㄱㅐ -157
ㅈㅔ -158
ㅌㅓ -159
ㄱㅘ -160
ㄷㅗㅇ -161
▁3 -162
ㄱㅡ -163
▁ㄱㅓㅅ -164
ㅎㅏㄱ -165
▁ㅅㅡ -166
▁" -167
ㄴㅣ -168
▁ㅎㅏㄴㄷㅏ -169
▁ㅂㅣ -170
ㅇㅛㅇ -171
▁ㅅㅓㄴ -172
ㅎㅚ -173
▁ㄷㅡㅇ -174
ㅓㅂ -175
▁ㄲ -176
▁ㅅㅓㅇ -177
▁ㄱㅜ -178
ㄱㅛ -179
▁ㅁㅏㄴ -180
▁ㅅㅗ -181
▁ㅊㅏ -182
▁ㅇㅕㄴ -183
▁ㄷㅗㅇ -184
▁ㅅㅓ -185
ㄴㅡㄴ -186
ㄹㅔ -187
ㄹㅐ -188
▁ㅅㅏㅇ -189
▁ㅁㅕ -190
ㅁㅕ -191
▁ㅇㅕㅇ -192
▁ㄱㅜㄱ -193
ㅁㅏ -194
▁ㅂㅏㄹ -195
ㅅㅓㄴ -196
ㅁㅜㄴ -197
ㅇㅣㄹ -198
▁ㅁㅕㄴ -199
ㄱㅖ -200
▁201 -201
▁ㄴㅗ -202
ㅅㅏㄴ -203
ㅂㅣ -204
ㅇㅢ -205
ㅁㅣ -206
ㅁㅣㄴ -207
ㅇㅕㄱ -208
▁4 -209
ㅅㅣㄴ -210
ㅇㅠ -211
ㅇㅑ -212
▁' -213
ㄷㅔ -214
ㅌㅏ -215
ㅕㅆ -216
ㅡㄱ -217
▁ㅎㅜ -218
▁ㄱㅘㄴ -219
▁ㅁㅕㅇ -220
ㅁㅏㄴ -221
ㅈㅣㄴ -222
▁ㅅㅣㄴ -223
ㅅㅗ -224
▁ㄹㅣ -225
▁5 -226
▁ㅍㅡ -227
ㅅㅣㄱ -228
▁200 -229
▁ㄸㅐ -230
ㄹㄹㅣ -231
▁- -232
ㅊㅔ -233
ㅇㅡㅁ -234
ㅋㅡ -235
ㅈㅐ -236
▁ㅈㅏㅇ -237
▁ㅍㅗ -238
ㅇㅗ -239
▁ㅂㅏㅇ -240
▁ㅇㅜ -241
▁ㅎㅏㄹ -242
ㅁㅕㅇ -243
ㄱㅔ -244
ㄱㅏㄴ -245
▁ㄷㅓㄴ -246
▁ㅇㅛ -247
ㅇㅟ -248
ㄹㅕ -249
▁ㄱㅛ -250
ㄱㅜㄴ -251
ㅈㅗ -252
▁ㅁㅜ -253
ㅋㅏ -254
▁ㅇㅕㄱ -255
▁ㅁㅜㄴ -256
▁ㄴㅐ -257
ㅈㅏㄱ -258
ㄷㅏㄴ -259
ㅋㅣ -260
ㄱㅘㄴ -261
▁ㅆ -262
ㅎㅜ -263
ㄹㅜ -264
ㅎㅐㅇ -265
▁ㅎㅗ -266
▁ㄷㅏㅇ -267
ㄱㅗㅇ -268
▁ㅇㅝㄴ -269
▁ㅎㅕㄴ -270
ㅍㅡ -271
▁ㅌㅗㅇ -272
▁ㅈㅣㄴ -273
▁ㄴㅏㅁ -274
▁ㄱㅖ -275
ㅁㅜ -276
▁ㄱㅜㄴ -277
ㄱㅓ -278
ㅁㅜㄹ -279
ㅂㅗ -280
▁ㅍㅣ -281
▁ㅂㅜㄴ -282
ㅂㅗㄴ -283
▁6 -284
ㄹㅗㄱ -285
ㄹㅕㄱ -286
▁ㄲㅏ -287
▁ㅎㅏㄱ -288
ㅌㅗ -289
▁ㄸㅗ -290
ㄷㅏㅇ -291
▁ㅇㅑ -292
ㅇㅜㄴ -293
▁ㅍㅏ -294
ㅇㅓㅂ -295
▁ㅂㅐ -296
▁ㅇㅏㄶ -297
ㅌㅣ -298
▁ㄷㅔ -299
▁ㅅㅐㅇ -300
▁ㄱㅏㅌ -301
▁ㅌㅏ -302
ㅇㅏㄴ -303
▁ㅈㅏㄱ -304
▁ㅊㅜ -305
ㄹㅡㄴ -306
▁ㅊㅜㄹ -307
▁ㅇㅏㅆ -308
ㅎㅣ -309
▁ㄱㅏㅇ -310
ㅇㅕ -311
▁ㅎㅚ -312
▁ㄱㅕㄹ -313
ㄴㅐ -314
ㅁㅕㄴ -315
▁ㅊㅓ -316
▁ㅂㅜㄹ -317
ㅂㅏㄴ -318
▁ㅎㅏㅁ -319
ㅇㅘ -320
▁ㅂㅏㄷ -321
▁ㅂㅓㄴ -322
▁ㄷㅏㄴ -323
ㅇㅑㅇ -324
▁7 -325
ㅅㅔ -326
ㅅㅗㄱ -327
▁10 -328
ㄹㅠ -329
▁ㅇㅖ -330
▁8 -331
▁ㅊㅚ -332
ㅇㅣㅁ -333
ㄷㅣ -334
▁ㄷㅚㄴㄷㅏ -335
▁ㅂㅏㄴ -336
ㅍㅣ -337
ㄹㅣㅂ -338
ㅎㅗ -339
▁ㅋㅏ -340
ㅂㅏㅇ -341
▁ㅂㅔ -342
ㅍㅗ -343
▁ㄷㅜ -344
▁ㅋㅗ -345
▁ㅇㅏㄹ -346
▁ㅊㅗ -347
ㅣㅁ -348
▁ㅇㅏㄴ -349
▁ㅎㅕㅇ -350
ㅁㅗ -351
ㅍㅛ -352
▁ㄸㅏ -353
ㄱㅕㅇ -354
▁ㅅㅣㄹ -355
ㅅㅐㅇ -356
▁ㅈㅐ -357
ㅌㅗㅇ -358
ㅈㅡ -359
▁ㅁㅏㄹ -360
ㅋㅗ -361
ㄷㅡㄹ -362
ㅂㅜㄴ -363
ㄹㅣㄴ -364
▁ㅁㅐ -365
ㅂㅏ -366
▁ㄹㅔ -367
▁ㅇㅓㅄ -368
ㅈㅗㅇ -369
ㅇㅕㅇ -370
▁9 -371
ㄱㅕㄱ -372
▁ㅈㅗㅇ -373
ㅇㅕㄴ -374
▁ㅇㅡㅁ -375
ㄱㅏㄱ -376
ㅌㅔ -377
▁ㅅㅓㄹ -378
▁ㅁㅔ -379
ㅂㅓㅂ -380
▁ㅅㅏㄴ -381
ㅂㅓ -382
ㅎㅏㅂ -383
ㅈㅓㄱ -384
▁ㅌㅡㄱ -385
▁ㅇㅣㄹㅂㅗㄴ -386
▁ㅉ -387
ㅊㅏ -388
▁ㄷㅓ -389
ㄹㅏㄴ -390
ㄷㅜ -391
ㄹㅡㅁ -392
▁ㅁㅕㄴㅅㅓ -393
ㅂㅏㄹ -394
▁ㅇㅜㄴ -395
ㅍㅏ -396
ㄴㅗ -397
ㅇㅔ -398
▁ㄷㅡ -399
ㅍㅜ -400
▁ㄱㅝㄴ -401
ㄹㅕㅇ -402
▁ㄱㅏㅁ -403
▁ㄴㅡㄴㄷㅔ -404
▁ㅎㅘㄹ -405
▁ㄷㅗㄱ -406
ㅈㅣㄱ -407
▁ㅇㅐ -408
ㄹㅏㅇ -409
ㅁㅣㄴㄱㅜㄱ -410
ㄹㅏㅁ -411
▁ㅎㅐㅇ -412
▁ㅇㅘㅇ -413
▁ㄱㅓㄴ -414
▁ㅌㅐ -415
▁199 -416
▁ㄱㅣㅁ -417
▁ㅊㅣ -418
ㅅㅓㄹ -419
ㅅㅡㅇ -420
▁ㅋㅡ -421
▁ㅌㅔ -422
▁ㄱㅏㄴ -423
▁ㅇㅑㅇ -424
▁ㅇㅣㅂ -425
▁ㅁㅣㄴ -426
ㅌㅐ -427
ㅎㅏㄴㅁㅣㄴㄱㅜㄱ -428
▁12 -429
▁ㅍㅕㅇ -430
ㄹㅛ -431
ㅅㅣㄹ -432
▁ㅁㅏㄶ -433
ㅈㅓㅁ -434
▁18 -435
▁ㅊㅏㅁ -436
▁ㅁㅣㅊ -437
▁ㅂㅗㄴ -438
ㅈㅗㄱ -439
▁ㅌㅗ -440
ㅁㅔ -441
▁ㄱㅕㅇㄱㅣ -442
▁ㅅㅡㅇ -443
▁ㅁㅗㄱ -444
ㅈㅜㅇ -445
ㄴㅕ -446
▁ㅇㅣㅁ -447
ㅎㅏㄱㄱㅛ -448
ㄴㅔ -449
ㅅㅜㄹ -450
ㅂㅔ -451
00 -452
▁; -453
▁ㅅㅗㄱ -454
or -455
▁ㅊㅗㅇ -456
ㅊㅜㄹ -457
ㅉㅗㄱ -458
▁ㅊㅔ -459
▁ㅇㅚ -460
ㅎㅕㅇ -461
▁ㅂㅜㄱ -462
▁S -463
ㄴㅏㅁ -464
ㅅㅣㅁ -465
ㄱㅓㄴ -466
ㄹㅗㄴ -467
ㅇㅑㄱ -468
ㅎㅕㄴ -469
ㄷㅗㄱ -470
ㅂㅡ -471
▁ㅇㅕㄹ -472
▁ㅌㅡ -473
▁11 -474
▁ㅃ -475
ㅅㅓㄱ -476
▁ㅈㅣㅂ -477
ㄷㅡㅇ -478
▁ㅂㅓㅂ -479
▁ㄱㅏㄱ -480
ㅎㅑㅇ -481
▁ㅈㅓ -482
▁ㅊㅓㄴ -483
ㄴㅏㄴ -484
▁ㅅㅐ -485
ㄹㄹㅏ -486
▁ㅍㅛ -487
ㅁㅐ -488
▁ㅂㅕㄴ -489
▁ㅁㅜㄹ -490
ㄴㅡㅇ -491
ㅊㅓㄴ -492
ㅇㅜㄹ -493
ㅇㅣㅂ -494
ㄱㅡㅁ -495
▁ㄴㅔ -496
▁ㅈㅣㄱ -497
ㅈㅣㄹ -498
▁ㅂㅓ -499
▁ㅍㅔ -500
ㅍㅜㅁ -501
ㄲㅔ -502
▁& -503
▁A -504
▁ㄷㅣ -505
ㄴㄷㅡ -506
▁) -507
ㅅㅗㅇ -508
▁ㅎㅏㅁㄲㅔ -509
▁ㅌㅣㅁ -510
▁ㅌㅜ -511
▁ㅅㅓㄴㅅㅜ -512
▁ㅂㅏㄱ -513
ㅇㅝ -514
la -515
ㅍㅏㄴ -516
▁ㅎㅏㄴㄱㅜㄱ -517
▁ㅎㅏㅇ -518
▁ㅊㅓㅇ -519
ㅈㅕ -520
▁ㅇㅕㅇㅎㅘ -521
▁ㅈㅓㅁ -522
▁ㅂㅡ -523
ㄹㅑㅇ -524
▁ㄹㅜ -525
ㅈㅜㄴ -526
▁f -527
▁ㄱㅘㅇ -528
▁C -529
ㅌㅜ -530
ㅈㅐㅇ -531
ㄷㅡㄴ -532
▁M -533
▁ㅇㅑㄱ -534
ㄹㅕㄴ -535
ㄱㅡㅂ -536
ㅎㅏㅁ -537
ㄱㅐ -538
ㅊㅓㅇ -539
▁ㅇㅛㅇ -540
▁ㄱㅕㅇㅇㅜ -541
▁ㅍㅏㄴ -542
ㅇㅓㄴ -543
▁ㅊㅜㄱ -544
▁T -545
▁ㅎㅕㄴㅈㅐ -546
▁F -547
▁_ -548
▁ㄷㅟ -549
▁198 -550
▁ㄴㅣ -551
ㅍㅔ -552
▁ㅂㅗㄱ -553
ㅕㅂ -554
▁ㄱㅜㄱㄱㅏ -555
ㅁㅏㅇ -556
▁ㅈㅗㄴ -557
▁ㅍㅕㄴ -558
ㅊㅗ -559
▁ㅅㅏㅁ -560
▁( -561
▁ㅋㅐ -562
▁ㅋㅣ -563
▁ㅎㅏㄱㄱㅛ -564
ㅎㅏㅇ -565
ㅇㅏㄱ -566
▁for -567
▁ㅎㅘㄱ -568
▁ㄷㅏㅇㅅㅣ -569
▁ㅊㅐ -570
▁ㅍㅐ -571
▁ㅎㅘㄹㄷㅗㅇ -572
mu -573
ㅋㅔ -574
▁ㅊㅓㄹ -575
ㄱㅕㄹ -576
▁ㅎㅏㅂ -577
▁15 -578
ㄴㅕㄴ -579
mula -580
▁ㅇㅕㅆㅇㅡ -581
▁ㄱㅠ -582
▁formula -583
ㄱㅏㅇ -584
ㅂㅕㅇ -585
▁ㅅㅏㄹ -586
▁ㅎㅣ -587
▁ㄷㅏㄹ -588
ㅂㅐ -589
▁ㄱㅡㅁ -590
ㄴㅓ -591
▁ㅍㅡㄹ -592
ㅅㅕㄴ -593
▁ㅉㅐ -594
▁ㅈㅡㅇ -595
▁ㅇㅓㄴ -596
ㅈㅕㅆ -597
▁ㅂㅐㄱ -598
▁ㅊㅏㅇ -599
ㅍㅕㄴ -600
ㄱㅕㄴ -601
▁ㅅㅣㅁ -602
ㅁㅗㄱ -603
ㅈㅓ -604
▁16 -605
▁ㅅㅣㄱ -606
ㄹㄹㅔ -607
ㅅㅐㄱ -608
ㅊㅜ -609
▁ㅆㅡ -610
▁ㅇㅕㄴㄱㅜ -611
ㅂㅕㄹ -612
▁/ -613
▁ㄱㅡㄴ -614
ㅂㅗㄱ -615
▁ㅍㅜ -616
▁ㅂㅕㅇ -617
ㅈㅓㄹ -618
ㄹㅓㅂ -619
ㅊㅡ -620
▁ㅌㅗㅇㅎㅐ -621
▁m -622
▁ㄹㅓ -623
ㅋㅜ -624
ㄱㅡㄴ -625
▁ㅁㅗㅅ -626
ㅈㅡㄴ -627
▁ㅎㅘㅇ -628
ㅎㅘㄴ -629
▁0 -630
▁D -631
ㄷㅏㄹ -632
ㅇㅠㄱ -633
▁17 -634
▁ㅎㅔ -635
▁ㅊㅜㅇ -636
▁ㅎㅐㅆㅇㅡ -637
▁ㄸㅡ -638
▁ㅋㅡㄹ -639
ㅂㅜㄱ -640
ㅎㅘㅇ -641
▁ㅅㅜㄴ -642
ㅎㅓㅁ -643
▁197 -644
▁B -645
ㅁㅓ -646
▁ㅊㅓㅅ -647
ㄱㅝㄴ -648
▁ㅋㅔ -649
▁ㅆㅣ -650
▁ㄷㅗㄹ -651
ㅇㅗㄴ -652
ㅇㅚ -653
▁ㅇㅘㄴ -654
▁ㅈㅜㅇㄱㅜㄱ -655
▁] -656
▁[ -657
ㄱㅠ -658
▁I -659
▁K -660
ㅇㅘㅇ -661
▁ㄴㅗㅍ -662
▁: -663
▁ㅁㅏㄴㄷㅡㄹ -664
▁ㅎㅕㅂ -665
ㅁㅍㅣ -666
ㅎㅏㄹ -667
ㄹㅏㅇㅅㅡ -668
▁ㅍㅣㄹ -669
▁ㅇㅕㅇㄱㅜㄱ -670
ㅌㅏㄹ -671
▁ㄸㅡㅅ -672
▁k -673
ㄱㅡㄹ -674
▁ㅈㅓㅇㅂㅜ -675
ㄹㅓㄴ -676
ㄷㅓ -677
ㄱㅗㄱ -678
▁ㄴㅡㄴㄷㅏ -679
ㄹㅐㄴㄷㅡ -680
▁ㄲㅡ -681
▁196 -682
▁14 -683
ㅂㅓㅁ -684
ㅊㅏㄹ -685
ㅈㅣㅂ -686
ㄱㅘㅇ -687
er -688
ㄴㅏㅆ -689
▁~ -690
▁ㅊㅜㄱㄱㅜ -691
▁ㅈㅓㄴㅈㅐㅇ -692
ㅊㅕ -693
▁ㅁㅜㄴㅎㅘ -694
ㄹㅖ -695
ㅍㅓ -696
▁ㅊㅣㄴ -697
▁ㄷㅗㄱㅇㅣㄹ -698
▁13 -699
▁g -700
▁ㅋㅡㄴ -701
▁ㅌㅣ -702
▁P -703
in -704
ㄹㅣㅁ -705
▁ㄴㅠ -706
▁ㄱㅣㄹ -707
ㅎㅐㅆ -708
▁ㅈㅜㄱ -709
ㄱㅕ -710
▁ㅂㅕㄹ -711
▁ㅊㅟ -712
▁ㄴㅓ -713
▁ㅇㅗㄴ -714
ㅌㅏㄴ -715
ㄹㅕㅆ -716
▁ㅇㅗㄹㄹㅣ -717
ㄱㅓㅅ -718
▁ㅂㅏㅇㅅㅗㅇ -719
ㅇㅏㅇ -720
ㄹㅏㄱ -721
▁ㅇㅔㄴ -722
▁194 -723
▁ㅈㅓㅇㅊㅣ -724
▁ㄷㅗㅇㅇㅏㄴ -725
▁ㅈㅜㄴ -726
▁ㄱㅏㅁㄷㅗㄱ -727
▁ㄱㅗㄱ -728
▁ㅅㅗㄴ -729
▁ㅎㅓ -730
ㅇㅕㄹ -731
ㄱㅡㄱ -732
▁ㅇㅣㄹㅂㅜ -733
▁ㅎㅘㄴ -734
▁l -735
▁ㅅㅓㄱ -736
▁ㅇㅏㄹㄹㅕ -737
▁L -738
ㅈㅗㄴ -739
ㅇㅡㄴ -740
ㄹㄹㅗ -741
ㅊㅜㄱ -742
▁ㄱㅜㄱㅈㅔ -743
ㅅㅡㅂ -744
▁ㅁㅜㄴㅈㅔ -745
ㅇㅖ -746
ㄹㅓㅁ -747
ㅊㅣㅇ -748
ㄴㅓㄹ -749
▁ㄱㅓㅁ -750
▁ㄴㅗㅇ -751
ㅍㅕㅇ -752
▁% -753
▁ㅇㅣㄹㅂㅏㄴ -754
ㅊㅓㄹ -755
▁ㅋㅜ -756
▁ㄴㅗㄴ -757
▁G -758
ㄱㅏㅁ -759
▁ㄷㅚㄹ -760
▁ㅅㅠ -761
ㅇㅞ -762
▁ㄴㅏㄹ -763
▁ㅈㅗㄴㅈㅐ -764
ㄴㅕㅁ -765
▁ㅎㅑㅇ -766
▁ㅇㅣㄴㄱㅜ -767
▁ㅅㅓㅁ -768
▁ㄱㅗㄹ -769
▁ㅈㅏㄱㅍㅜㅁ -770
ㅊㅓ -771
▁ㄲㅡㅌ -772
▁N -773
on -774
▁ㅇㅜㄴㄷㅗㅇ -775
▁ㅇㅕㄱㅅㅏ -776
▁gt -777
▁km -778
▁ㄱㅡㅂ -779
▁ㄷㅙ -780
ㅅㅏㄹ -781
▁ㅈㅓㅇㄷㅗ -782
▁195 -783
ㅅㅡㄹ -784
▁ㄱㅗㅅ -785
▁ㅍㅗㄱ -786
▁ㄱㅕ -787
ㅇㅐ -788
▁U -789
▁ㅈㅡㄱ -790
▁ㅇㅠㄱ -791
▁ㅎㅛ -792
▁ㅈㅓㅂ -793
▁lt -794
ㅌㅐㄱ -795
ㅎㅚㄱ -796
▁ㅁㅏㅌ -797
▁ㅇㅏㅍ -798
▁ㄱㅟ -799
▁ㄱㅘㄴㄱㅖ -800
▁ㅇㅡㅁㅇㅏㄱ -801
▁ㅌㅓ -802
▁ㅇㅞ -803
ㅅㅡㄴ -804
ㅌㅡㄹ -805
▁R -806
▁ㅈㅜㅇㅅㅣㅁ -807
ㅂㅗㅇ -808
▁30 -809
▁ㅋㅓ -810
ㄴㅏㄹ -811
▁H -812
▁ㄹㅕ -813
ㅁㅏㄱ -814
▁ㅂㅡㄹ -815
▁ㄱㅡㄱ -816
ㅊㅏㅇ -817
▁E -818
▁ㅂㅏㄹㄱㅕㄴ -819
ㄱㅅㅡ -820
ㅂㅕㄴ -821
ㅌㅓㄴ -822
▁ㅅㅓㄴㄱㅓ -823
▁ㄱㅡㄹ -824
▁ㄷㅏㅁ -825
▁ㅂㅗㅇ -826
▁ㅎㅗㅇ -827
ㅁㅍㅣㄱ -828
▁ㅈㅓㄹ -829
ㅊㅐㄱ -830
▁ㅈㅓㄴㅌㅜ -831
ㅌㅗㅇㄹㅕㅇ -832
▁ㄱㅕㅇㅈㅔ -833
ㅈㅡㅇ -834
▁ㅂㅏㄹㅍㅛ -835
▁ㅁㅏㅈ -836
▁ㄴㅜ -837
▁ㄱㅏㅈ -838
▁ㄱㅓㄹ -839
▁ㅇㅏㅁ -840
▁2010 -841
▁ㅈㅜㄹ -842
ㅊㅏㄱ -843
▁ㅊㅡㄱ -844
▁ㅇㅗㄹㄹㅣㅁㅍㅣㄱ -845
▁ㅂㅗㄹ -846
ㅈㅣㅇ -847
▁ㅈㅣㄹ -848
▁ㅁㅣㄴㅈㅜ -849
ㅋㅓ -850
▁ㅈㅏㄹ -851
an -852
▁ㅁㅏㄱ -853
▁ㅊㅐㄱ -854
ㄹㅐㅁ -855
ㅎㅘㄹ -856
ㅇㅜㅁ -857
000 -858
▁ㄷㅡㄹㅇㅓ -859
▁ㅁㅓ -860
▁ㅅㅗㅇ -861
ㅈㅓㅂ -862
▁ㄱㅗㅇㄱㅕㄱ -863
▁193 -864
▁ㅇㅕㅇㅎㅑㅇ -865
ㅋㅣㄴ -866
▁c -867
▁ㅅㅔㄴ -868
ㅅㅜㄴ -869
▁ㅌㅏㄴ -870
▁ㅊㅏㅁㅇㅕ -871
▁ㅈㅜㅇㅇㅏㅇ -872
▁ㅂㅏㄺ -873
▁ㅇㅗㄹ -874
▁ㄹㅠ -875
▁ㅁㅣㄹ -876
ㅆㅓ -877
ㅇㅡㄹ -878
▁ㄱㅕㄹㄱㅘ -879
▁ㅈㅏㅂ -880
20 -881
▁ㄱㅘㄴㄹㅕㄴ -882
▁ㅇㅓㅂ -883
ㅎㅗㄴ -884
▁ㅂㅏㄹㅅㅐㅇ -885
ㄹㅏㄴㄷㅡ -886
▁25 -887
▁ㅈㅣㄴㅎㅐㅇ -888
ㅆㅡ -889
ㅇㄱㅡㄹ -890
▁ㅂㅓㅁ -891
▁ㅅㅓㄹㄹㅣㅂ -892
▁ㅅㅓㄹㅊㅣ -893
ㄷㅡㄱ -894
▁ㄷㅗㄱㄹㅣㅂ -895
▁ㅇㅓㄷ -896
▁ㄴㅏㄴ -897
▁ㅂㅏㄹㅁㅐ -898
ㅂㅐㄱ -899
▁2008 -900
▁ㅌㅡㄱㅎㅣ -901
▁W -902
ㅍㅐ -903
▁ㅍㅖ -904
▁ㅇㅐㄹ -905
▁ㅎㅕㅇㅌㅐ -906
▁ㄷㅙㅆ -907
▁ㅈㅘ -908
ㅓㄹㅇㅓ -909
▁ㄹㅡ -910
▁ㅎㅡ -911
▁ㄱㅕㄹㅈㅓㅇ -912
▁21 -913
ㅇㅡㅇ -914
ㄷㅏㅁ -915
ㅂㅜㄹ -916
▁ㅌㅏㄹ -917
▁ㅅㅏㅇㅌㅐ -918
ㅇㅝㄴㅎㅚ -919
▁ㅇㅣㄹㅇㅓ -920
▁ㄱㅏㅌㅇㅣ -921
ㅂㅓㄹ -922
▁ㅇㅏㄱ -923
ㅇㅝㄹ -924
ㄷㅗㄹ -925
▁ㅇㅣㄴㅁㅣㄴ -926
▁2012 -927
▁ㄲㅗ -928
▁2011 -929
▁ㅊㅣㅁ -930
ㅍㅡㄹ -931
▁ㅊㅏㅁㄱㅏ -932
▁ㅊㅜㄹㅅㅣㄴ -933
ㄴㅣㄴ -934
▁ㅍㅏㄹ -935
en -936
▁ㅈㅗㅎ -937
▁ㅇㅣㄴㅎㅐ -938
▁ㅇㅜㄴㅇㅕㅇ -939
▁2007 -940
▁ㄱㅘㄴㄹㅣ -941
▁t -942
ㅊㅣㄴ -943
ㅂㅏㄱ -944
▁2009 -945
ㅅㅗㄴ -946
ㅇㅕㅆ -947
▁2014 -948
▁100 -949
▁ㅎㅗㄴ -950
ㅋㅡㄹ -951
ㄴㅐㅆ -952
▁ㅎㅐㅇㅈㅓㅇ -953
ㅂㅡㄹ -954
▁ㅇㅠㄴ -955
▁ㅍㅣㄹㅇㅛ -956
ㅂㅟ -957
▁ㄹㅏㄴ -958
▁a -959
▁ㄷㅡㅇㅈㅏㅇ -960
▁ㅇㅡㅁㅂㅏㄴ -961
▁ㅅㅐㅇㅅㅏㄴ -962
▁ㅈㅓㅇㅂㅗ -963
▁ㅅㅛ -964
ㄷㅓㄱ -965
▁ㅈㅜㅇㅇㅛ -966
ㅌㅏㄹㄹㅣ -967
ㅎㅢ -968
▁ㅅㅐㅇㄱㅏㄱ -969
ㅅㅠ -970
ㅌㅚ -971
▁2013 -972
▁O -973
▁ㅊㅓㄹㄷㅗ -974
he -975
▁ㅋㅗㄴ -976
▁ㅎㅢ -977
▁ㅎㅓㄴ -978
▁ㄴㅡ -979
▁ㅅㅏㅇㄷㅐ -980
ㄲㅏ -981
ㅊㅏㄴ -982
ㅋㅕㅆ -983
ㄹㅜㅂ -984
ㅁㅐㅇ -985
ㄴㅏㅁㄷㅗ -986
ㄱㅐㄱ -987
▁ㅅㅓㅇㄱㅗㅇ -988
ㄸㅐ -989
ㄱㅠㄴ -990
▁ㄱㅜㄱㅁㅣㄴ -991
▁ㅋㅏㄹ -992
▁ㅁㅛ -993
▁191 -994
▁23 -995
ar -996
▁ㅅㅑ -997
▁ㄴㅓㅁ -998
▁2015 -999
▁24 -1000
▁2018 -1001
ㅌㅔㅁ -1002
ㄴㅜ -1003
▁2016 -1004
ㄹㅡㄹ -1005
▁000 -1006
▁ㅂㅏㄹㅈㅓㄴ -1007
ㅈㅣㄴㄷㅏ -1008
▁ㅁㅕㅊ -1009
ㅊㅡㄱ -1010
ㅎㅕ -1011
▁ㅃㅜㄴ -1012
ㄷㅔㄹ -1013
ㄷㅡㅇㅎㅏㄱㄱㅛ -1014
▁ㅇㅓㄱ -1015
▁ㅂㅏㅇㅂㅓㅂ -1016
▁ㅇㅝㄹㄷㅡ -1017
▁J -1018
▁ㅇㅣㄴㄷㅗ -1019
▁ㅊㅏㅈ -1020
es -1021
▁ㅇㅐㄹㅂㅓㅁ -1022
▁ㅊㅜㄹㅇㅕㄴ -1023
ㅇㅠㄹ -1024
▁ㅇㅝ -1025
▁ㄴㅡㅇ -1026
ㄴㅡㄹ -1027
▁22 -1028
▁2006 -1029
▁ㄱㅏㄹ -1030
▁ㅆㅏ -1031
ㅊㅣㅁ -1032
ㄹㅑ -1033
▁192 -1034
ㅇㅏㅁ -1035
ㅇㅣㄱ -1036
FA -1037
▁ㅈㅓㄴㅊㅔ -1038
ㄱㅏㄹ -1039
▁ㅅㅐㅇㅎㅘㄹ -1040
▁ㄱㅗㅇㅎㅘ -1041
▁2017 -1042
▁ㅊㅡㅇ -1043
▁ㄷㅗㄹㅇㅏ -1044
▁ㄷㅜㄹ -1045
▁ㅍㅓ -1046
ㅊㅚ -1047
▁ㅈㅕㅆ -1048
ㅇㅜㄴㄷㅔ -1049
▁ㄹㅐ -1050
▁ㅇㅗㄹㄹㅏ -1051
▁ㅎㅏㅇㄱㅗㅇ -1052
▁ㅋㅓㅁ -1053
▁ㅂㅏㅇㅅㅣㄱ -1054
▁ㅇㅣㄴㅌㅓ -1055
▁ㄱㅗㅇㅅㅣㄱ -1056
▁ㅇㅕㄴㅎㅏㅂ -1057
▁ㅁㅏㄶㅇㅣ -1058
▁ㅎㅏㄴㅍㅕㄴ -1059
▁ㄱㅕㄱ -1060
ㅁㅏㄹ -1061
ㅎㅏㄴㄷㅏ -1062
▁ㅍㅜㅇ -1063
▁ㅊㅜㄹㅈㅓㄴ -1064
▁s -1065
▁ㅁㅗㅁ -1066
ㄹㅑㄱ -1067
▁ㅍㅡㄹㄹㅔ -1068
▁ㅎㅠ -1069
▁ㄱㅕㄹㄱㅜㄱ -1070
▁ㅃㅏ -1071
ㄴㅡ -1072
ㅎㅏㄱㅈㅏ -1073
▁ㄸㅓ -1074
▁ㅇㅕㄱㅎㅏㄹ -1075
▁ㅂㅜㄴㄹㅠ -1076
▁ㅈㅏㅁ -1077
ㄱㅟ -1078
▁ㅎㅣㅁ -1079
▁ㅁㅣㄴㅈㅗㄱ -1080
▁ㄱㅜㄴㅅㅏ -1081
▁ㅅㅐㄱ -1082
▁ㅇㅣㄴㄱㅏㄴ -1083
▁! -1084
▁ㅁㅗㅅㅎㅏ -1085
ㅇㅘㅆ -1086
ㄹㅔㄴ -1087
ㅎㅓㄴ -1088
▁ㅁㅓㄴ -1089
at -1090
▁ㅇㅓㄹ -1091
▁26 -1092
▁ㅂㅏㄴㄷㅐ -1093
▁ㅇㅜㄹ -1094
▁ㅇㅓㄴㅇㅓ -1095
ㅇㅣㄴㄷㅏ -1096
▁2019 -1097
▁ㅌㅡㄱㅂㅕㄹ -1098
ㅊㅣㄱ -1099
▁28 -1100
ㅇㅕㅁ -1101
▁ㄸㅓㄹㅇㅓ -1102
ㅂㅜㄱㄷㅗ -1103
▁ㄴㅗㄱ -1104
▁ㅎㅕㄴㄷㅐ -1105
▁ㅇㅡㅇ -1106
▁ㅇㅕㄴㄱㅕㄹ -1107
ㅎㅔ -1108
▁ㅍㅕㅇㄱㅏ -1109
▁27 -1110
▁ㅋㅏㄴ -1111
▁ㄱㅗㅇㄱㅐ -1112
ㅋㅕ -1113
ㅁㅣㄹ -1114
▁ㅁㅗㄱㄹㅗㄱ -1115
▁ㄱㅏㄱㄱㅏㄱ -1116
▁ㅇㅕㄹㄹㅣㄴ -1117
▁ㅎㅗㅁ -1118
▁ㄱㅕㅇㅅㅏㅇ -1119
▁ㄷㅗㅇㅅㅣ -1120
▁ㄸㅟ -1121
▁2005 -1122
▁ㅈㅗㄹ -1123
ㅎㅟ -1124
ㅁㅓㄴ -1125
ㅇㅏㅂ -1126
▁ㅂㅜㅌ -1127
▁V -1128
▁ㄷㅏㄴㅊㅔ -1129
▁2000 -1130
▁ㅅㅟ -1131
▁ㅇㅣㅁㅁㅕㅇ -1132
ic -1133
▁ㅂㅣㄹ -1134
▁ㄴㅗㅎ -1135
▁ㅎㅐㄱ -1136
ㅊㅗㅇ -1137
▁ㅂㅜㄹㄹㅣ -1138
ㄱㅗㄹ -1139
ㄹㅐㄴ -1140
▁ㅈㅓㅇㅇㅢ -1141
al -1142
ㄹㅣㄱ -1143
▁ㅈㅣㄴㅊㅜㄹ -1144
ㅍㅣㄹ -1145
▁ㅈㅓㄴㅁㅜㄴ -1146
▁ㅈㅗㄱ -1147
▁ㄱㅣㄴ -1148
ㅂㅓㄴ -1149
ㅅㅔㄴ -1150
▁ㅇㅣㄴㅈㅓㅇ -1151
ㅍㅜㅇ -1152
▁ㅁㅗㄱㅈㅓㄱ -1153
▁ㅂㅏㄲ -1154
ㅌㅣㄴ -1155
ㅎㅡㅇ -1156
▁ㅅㅡㅇㄹㅣ -1157
▁ㅍㅗㄹ -1158
▁ㅅㅏㄴㅇㅓㅂ -1159
BS -1160
ㅋㅓㅂ -1161
ㅊㅕㅆ -1162
ㅇㅛㄱ -1163
ㄴㅐㄴ -1164
▁2004 -1165
ㄹㅓㅎ -1166
▁ㅁㅓㄱ -1167
▁FC -1168
▁ㅇㅘㅆ -1169
ㄱㅏㅆ -1170
▁ㄴㅜㄴ -1171
▁ㄱㅗㅇㄱㅏㄴ -1172
▁ㅈㅓㅇㅊㅐㄱ -1173
▁ㅅㅡㄹ -1174
▁ㅂㅓㄹ -1175
ㄱㅚ -1176
▁ㅂㅣㄴ -1177
▁ㄱㅓㄴㅁㅜㄹ -1178
▁ㅈㅣㄱㅈㅓㅂ -1179
ㄹㅣㅇ -1180
▁ㄱㅓㄴㅅㅓㄹ -1181
▁ㅎㅕㄱ -1182
▁b -1183
▁ㄱㅗㅇㄷㅗㅇ -1184
ㅊㅜㅇ -1185
ㄱㅕㅆ -1186
▁31 -1187
▁50 -1188
▁ㅅㅡㅂ -1189
▁ㅌㅔㄹㄹㅔ -1190
ㄹㅗㅅ -1191
▁ㅇㅏㅂ -1192
▁TV -1193
▁ㅎㅘㄹㅇㅑㄱ -1194
▁ㅁㅏㅇ -1195
▁ㅈㅗㄹㅇㅓㅂ -1196
▁29 -1197
is -1198
ㅎㅕㄱ -1199
▁ㅅㅏㅇㅎㅘㅇ -1200
ㅇㅝㅆ -1201
ㄹㅠㄱ -1202
ㄹㅠㄹ -1203
ㄱㅗㅇㅎㅘ -1204
re -1205
it -1206
▁ㄱㅕㅇㅊㅏㄹ -1207
▁ㅎㅕㅇㅅㅓㅇ -1208
▁ㅎㅜㄴ -1209
ㅊㅡㅇ -1210
ㄱㅗㅅ -1211
▁ㄱㅕㄹㅎㅗㄴ -1212
ㄷㅓㄴ -1213
▁ㅂㅕㄴㄱㅕㅇ -1214
▁ㄱㅜㄱㅎㅚ -1215
▁ㄱㅘㄴㅎㅏㄴ -1216
ㅇㅓㅁ -1217
▁ㅈㅜㅇㅎㅏㄱㄱㅛ -1218
ㄹㄹㅓ -1219
ㅎㅡ -1220
▁ㅇㅣㄴㅁㅜㄹ -1221
ㅇㅔㄹ -1222
▁2020 -1223
▁190 -1224
▁ㅇㅣㄴㅁㅣㄴㄱㅗㅇㅎㅘ -1225
▁ㅂㅕㄴㅎㅘ -1226
ㄱㅣㄴ -1227
ㅎㅕㅆ -1228
▁ㄱㅜㅇ -1229
▁ㅅㅗㄱㅎㅏ -1230
ou -1231
▁ㅇㅘㄴㅈㅓㄴ -1232
▁ㄴㅏㅈ -1233
▁ㅁㅐㄱ -1234
▁ㄸㅏㄹ -1235
▁ㅌㅏㅂ -1236
ㅋㅛ -1237
ㅇㅕㄱㅅㅣ -1238
ㅓㄹㄹㅣ -1239
▁ㅎㅏㄱㅅㅐㅇ -1240
ㄹㅔㄱ -1241
▁ㅈㅜㅇㅎㅘ -1242
▁ㅈㅓㄴㄱㅜㄱ -1243
ㄱㅜㄹ -1244
ㄹㅡㄴㄷㅏ -1245
▁ㄱㅕㅁ -1246
▁ㅇㅕㄱㅅㅣ -1247
▁ㅅㅣㄹㅈㅔ -1248
▁ㄷㅏㄹㄹㅣ -1249
ㅂㅣㄴ -1250
▁ㄱㅕㄴ -1251
▁ㅅㅣㄹㅅㅣ -1252
▁ㅁㅗㄹ -1253
ㅌㅏㅇ -1254
ㅌㅣㅇ -1255
▁ㅇㅝㄴㄹㅐ -1256
▁ㅇㅗㄱ -1257
▁ㅇㅣㄹㅇㅡ -1258
▁ㅅㅣㅇㄱㅡㄹ -1259
▁ㅎㅗㄱ -1260
▁ㅂㅐㄴㄷㅡ -1261
▁2002 -1262
▁ㅁㅏㄴㄷㅡㄴ -1263
▁ㅍㅏㄴㅁㅐ -1264
ㅇㅜㄴㄷㅡ -1265
ㅎㅘㄱ -1266
▁ㅈㅓㄴㅌㅗㅇ -1267
▁ㄹㅗㄴ -1268
ㄱㅜㅇ -1269
▁ㅌㅚ -1270
▁ㅌㅏㅁ -1271
▁ㅎㅘㅇㅈㅔ -1272
▁ㅅㅡㅇㄱㅏㅇ -1273
▁2003 -1274
▁40 -1275
▁ㅇㅓㅄㅇㅣ -1276
▁ㅇㅜㄴㅎㅐㅇ -1277
▁ㅅㅔㄴㅌㅓ -1278
ㄸㅓㄴ -1279
▁ㅇㅓㅁ -1280
▁ㅈㅗㅇㄱㅛ -1281
▁ㅁㅡ -1282
▁ㅁㅕㅇㅊㅣㅇ -1283
▁ㅈㅓㄴㄱㅣ -1284
ㅊㅗㄴ -1285
▁ㅁㅠ -1286
▁ㅎㅘㄴㄱㅕㅇ -1287
ㅟㄴ -1288
le -1289
ㄱㅣㄹ -1290
ㅈㅚ -1291
▁ㅋㅓㅂ -1292
mp -1293
▁ㅈㅓㄴㅈㅏ -1294
▁ㅌㅡㄱㅈㅣㅇ -1295
▁ㅈㅓㄴㄹㅏ -1296
ㅇㅗㄱ -1297
ㅇㅜㄱ -1298
▁ㄱㅔㅆ -1299
ㅍㅠ -1300
ㅌㅡㄱ -1301
▁ㅂㅜㄴㅇㅑ -1302
ㅆㅣ -1303
ㅅㅐ -1304
▁= -1305
▁ㄴㅏㅁㅈㅏ -1306
▁ㅁㅗㅅㅎㅐㅆ -1307
▁ㅎㅟ -1308
ㄹㅐㄱ -1309
▁ㅇㅕㅁ -1310
▁ㄷㅗㅇㅁㅜㄹ -1311
▁ㄱㅗㅇㅇㅕㄴ -1312
▁ㅈㅡ -1313
▁ㅇㅕㄴㅂㅏㅇ -1314
ㅇㅘㄴ -1315
▁ㅍㅜㄹ -1316
▁ㅅㅓㄴㅈㅓㅇ -1317
▁ㄴㅏㅁㅉㅗㄱ -1318
▁ㅂㅜㄱㅉㅗㄱ -1319
▁ㄲㅜ -1320
▁ㅅㅡㅇㄱㅏㅇㅈㅏㅇ -1321
ㅅㅜㄱ -1322
ㄹㅕㄹ -1323
▁ㅅㅣㅂ -1324
▁ㅅㅜㄱ -1325
▁ㄴㅓㄼ -1326
▁ㅊㅜㄹㅅㅣ -1327
ㅊㅜㄴ -1328
ㄷㅗㅇㅊㅏ -1329
▁ㅈㅏㄱㅇㅓㅂ -1330
ㄹㅣㄴㄷㅏ -1331
ㅌㅏㄱ -1332
▁ㅈㅏㄱㅇㅛㅇ -1333
▁ㅇㅕㄱㅇㅣㅁ -1334
▁ㅅㅓㄹㅁㅕㅇ -1335
ㄴㅠ -1336
ㅈㅟ -1337
▁ㅌㅗㅇㅎㅏㅂ -1338
▁ㅋㅡㄹㄹㅓㅂ -1339
▁ㅂㅏㅇㅎㅑㅇ -1340
ㅈㅏㅂ -1341
ㅎㅛ -1342
▁ㅉㅏ -1343
▁ㅇㅕㄹㅊㅏ -1344
ㅂㅔㄹ -1345
ㅋㅣㄴㄷㅏ -1346
▁ㅎㅐㅇㄷㅗㅇ -1347
ㅇㅔㄴ -1348
ㅅㅡㅅ -1349
▁ㅈㅡㅇㄱㅏ -1350
▁ㅋㅓㅁㅍㅠ -1351
▁ㅈㅏㄱㄱㅏ -1352
▁ㅇㅗㄻ -1353
▁ㅁㅜㄴㅎㅏㄱ -1354
▁ㅊㅏㄱ -1355
ㄱㅌㅡ -1356
▁ㅎㅕㅇㅅㅣㄱ -1357
ㄷㅗㄱㄱㅛ -1358
ㅎㅜㄴ -1359
▁ㄱㅜㄱㄴㅐ -1360
▁ㄴㅡㅇㄹㅕㄱ -1361
ㄹㅓㅆ -1362
▁ㅎㅘㄱㅇㅣㄴ -1363
▁ㄹㅓㄴ -1364
ㅎㅕㅂ -1365
ㄲㅡㄹ -1366
▁ㅈㅏㄱㄱㅗㄱ -1367
▁FI -1368
▁ㅎㅐㅇㅇㅟ -1369
▁ㅁㅗㅇ -1370
BC -1371
▁ㄱㅜㄴㄷㅐ -1372
ㅁㅗㄴ -1373
▁ㅎㅕㄱㅁㅕㅇ -1374
ㄲㅡ -1375
ㄷㅔㄴ -1376
▁ㅎㅕㅂㅎㅚ -1377
▁ㄴㅗㅍㅇㅣ -1378
ㄲㅣ -1379
▁ㄴㅏㄱ -1380
▁ㅇㅘㅇㄱㅜㄱ -1381
ㄴㅔㅅ -1382
ㄷㅡㅁ -1383
▁ㄷㅡㄱ -1384
ㅁㅂㅓ -1385
ㅂㅕㄱ -1386
▁ㄴㅏㅁㅂㅜ -1387
▁ㅎㅗㄱㅇㅡㄴ -1388
▁ㅇㅠㄱㄱㅜㄴ -1389
ㅌㅓㄹ -1390
ㅅㅣㅇ -1391
▁p -1392
▁ㅎㅡㅇ -1393
▁2001 -1394
▁X -1395
▁ㄷㅗㅇㅉㅗㄱ -1396
▁ㄷㅏㅁㄷㅏㅇ -1397
▁ㅎㅡㄴ -1398
▁1990 -1399
▁ㄷㅗㅇㅇㅣㄹ -1400
▁ㄱㅏㅂ -1401
▁ㅈㅏㄴ -1402
ㅌㅠ -1403
▁ㅊㅜㅇㅊㅓㅇ -1404
ㅋㅔㅅ -1405
▁ㄷㅔㄴ -1406
▁ㅎㅚㄱ -1407
▁ㅈㅏㅇㄱㅘㄴ -1408
▁ㄱㅓㄴㅊㅜㄱ -1409
ㅊㅐ -1410
▁ㄱㅗㅇㅅㅏ -1411
▁189 -1412
▁ㄱㅗㅇㅅㅏㄴ -1413
▁ㅇㅣㄴㄱㅣ -1414
▁ㅊㅐㅁㅍㅣ -1415
ㅁㅐㄱ -1416
ㅋㅏㄴ -1417
▁ㄷㅗㄴ -1418
▁ㅁㅐㄴ -1419
▁ㅈㅓㅇㄷㅏㅇ -1420
ㅋㅓㄹ -1421
▁ㅍㅜㅁ -1422
▁d -1423
ㅂㅏㄷ -1424
ㅌㅔㄴ -1425
ㄷㅜㅇ -1426
▁ㅂㅏㅇㅇㅕㅇ -1427
▁ㅇㅟㄴ -1428
▁ㅉㅗㄱ -1429
▁ㅇㅐㄱ -1430
ㅈㅘ -1431
▁ㄱㅚ -1432
▁ㅅㅓㅇㅈㅏㅇ -1433
▁ㅎㅡㄱ -1434
▁ㅈㅓㄱㅇㅛㅇ -1435
▁ㅁㅜㄹㄹㅣ -1436
▁ㅂㅔㄹ -1437
ㄲㅜ -1438
▁ㄱㅜㄱㄹㅣㅂ -1439
▁ㅊㅣㅇ -1440
▁ㅈㅣㅇ -1441
ㅇㅣㄹㄹㅣ -1442
ㅅㅕ -1443
▁ㄱㅗㅇㅎㅏㅇ -1444
▁ㄹㅗㄱ -1445
▁ㅈㅟ -1446
ㅁㅡ -1447
▁FIFA -1448
▁ㄴㅓㅎ -1449
▁ㅅㅏㅇㄷㅏㅇ -1450
ㅇㅐㄱ -1451
▁ㅋㅓㄴ -1452
▁ㅇㅜㅁ -1453
et -1454
▁ㄷㅓㄱ -1455
▁ㄸㅏㅇ -1456
el -1457
▁ㅆㅏㅇ -1458
▁ㅈㅗㅇㄹㅠ -1459
▁ㄱㅗㄷ -1460
▁ㅍㅣㄹㄹㅣ -1461
▁ㅂㅏㄴㅇㅡㅇ -1462
▁ㅈㅏㄱㅈㅓㄴ -1463
ㄴㅣㅇ -1464
▁ㅌㅡㄱㅈㅓㅇ -1465
ㅊㅟ -1466
ㄴㅑ -1467
ㅇㅝㄴㅈㅓㄴ -1468
ㄹㅣㄹ -1469
ion -1470
▁ㅂㅜㄱㅂㅜ -1471
▁ㅅㅓㄴㅊㅜㄹ -1472
ㅍㅣㄴ -1473
▁ㅅㅓㄴㅇㅓㄴ -1474
▁ㅇㅕㄴㄱㅣ -1475
▁ㄴㅡㄹ -1476
▁ㅇㅕㄴㅈㅜ -1477
▁ㅁㅔㅁㅂㅓ -1478
▁ㅅㅣㄹㅍㅐ -1479
▁ㅁㅗㄴ -1480
▁ㅇㅕㄴㅅㅗㄱ -1481
ㅈㅡㅁ -1482
▁ㅅㅗㄱㄷㅗ -1483
ㅂㅗㄹ -1484
▁ㅇㅕㅇㅇㅓ -1485
▁ㅅㅓㄴㅌㅐㄱ -1486
ㄷㅣㅇ -1487
▁ㅇㅔㄹ -1488
▁ㅇㅖㅅ -1489
ㅇㄱㅡㄹㄹㅐㄴㄷㅡ -1490
▁ㄱㅗㄴ -1491
▁ㅇㅣㄴㅊㅓㄴ -1492
▁ㅎㅓㄴㅂㅓㅂ -1493
ing -1494
▁ㄱㅕㄹㅅㅡㅇ -1495
▁ㅇㅕㄴㄷㅐ -1496
ㄹㅕㅂ -1497
▁ㄹㅣㅇ -1498
▁ㄱㅓㄹㅊㅕ -1499
▁ㅂㅔㄴ -1500
▁ㅅㅓㄹㄱㅖ -1501
ㄹㅜㄴ -1502
▁ㅎㅏㅁㅅㅜ -1503
▁ㅍㅣㄴ -1504
21 -1505
ol -1506
▁ㅇㅙ -1507
▁1999 -1508
▁ㄷㅏㄴㄱㅖ -1509
▁ㅁㅜㄹㅈㅣㄹ -1510
▁ㄷㅏㄹㄹㅓ -1511
ㅌㅔㄹ -1512
▁ㅇㅐㄴ -1513
▁ㅊㅓㄱ -1514
▁cm -1515
▁ㄱㅗㅇㄹㅣㅂ -1516
▁ㅁㅕㅇㄹㅕㅇ -1517
▁1998 -1518
▁ㅍㅕㅇㄱㅠㄴ -1519
▁ㅊㅜㄹㅍㅏㄴ -1520
ㄴㅅㅡ -1521
▁o -1522
▁ㅂㅏㅁ -1523
▁ㅈㅓㅇㅅㅣㄴ -1524
ㅇㅓㄹ -1525
▁ㄱㅗㅇㅇㅝㄴ -1526
ㄹㅡㅇ -1527
▁ㄱㅘㄴㅎㅏㄹ -1528
▁Y -1529
▁ㅊㅏㄴ -1530
▁ㅊㅣㄴㄱㅜ -1531
▁ㅂㅜㄴㅅㅓㄱ -1532
ㄹㅛㅇ -1533
▁ㅇㅣㄴㅈㅣ -1534
ㄷㅓㄹ -1535
▁ㅇㅣㅇㄱㅡㄹㄹㅐㄴㄷㅡ -1536
▁ㄴㅡㄴㅈㅣ -1537
ㅇㅗㄹ -1538
▁ㅅㅜㄹ -1539
▁ㅂㅏㄺㅎㅕㅆ -1540
▁ㅇㅣㅂㄷㅏㄴ -1541
ㅉㅐ -1542
ㅌㅗㄴ -1543
ㄴㅏㄴㄷㅏ -1544
▁ㅍㅐㄴ -1545
▁ㄱㅏㅇㅎㅘ -1546
ㅍㅖ -1547
▁ㅆㅣㄱ -1548
▁1980 -1549
ㄹㅚ -1550
▁ㅆㅓ -1551
▁ㅎㅚㄱㄷㅡㄱ -1552
▁ㅅㅣㅇ -1553
ㅊㅓㄱ -1554
▁mm -1555
▁ㅁㅜㄴㅈㅏ -1556
ㅌㅡㄴ -1557
▁ㅂㅜㄴㄹㅣ -1558
▁60 -1559
▁35 -1560
▁ㄲㅗㅊ -1561
▁ㅂㅜㄱㅎㅏㄴ -1562
▁ㅈㅣㅂㄷㅏㄴ -1563
▁ㅂㅓㅂㅇㅝㄴ -1564
▁ㅎㅘㄱㅈㅏㅇ -1565
ㄱㅘㅇㅇㅕㄱㅅㅣ -1566
▁n -1567
ㅅㅙ -1568
▁ㅇㅝㄴㅈㅏ -1569
▁ㅇㅓㄴㄱㅡㅂ -1570
ㄹㅐㅅ -1571
ㅍㅗㄴ -1572
▁ㅎㅕㄴㅅㅏㅇ -1573
▁ㅇㅣㄹㅈㅗㅇ -1574
▁ㅁㅐㅈ -1575
▁ㅇㅞㅂ -1576
▁ㅅㅣㄹㅎㅓㅁ -1577
▁ㅈㅓㅇㄱㅠ -1578
ㅅㅑ -1579
▁ㅇㅔㄴㅈㅣㄴ -1580
▁ㄱㅘㄴㅅㅣㅁ -1581
ㅅㅓㅅ -1582
▁ㅅㅓㄴㅂㅏㄹ -1583
▁ㄱㅣㄹㅇㅣ -1584
ㅇㅡㅂ -1585
▁ㅌㅗㅇㅇㅣㄹ -1586
▁ㅇㅏㅇ -1587
▁ㅁㅗㄱㅍㅛ -1588
▁ㅍㅕㄴㅅㅓㅇ -1589
om -1590
ㅇㅠㄴ -1591
▁ㅈㅏㅇㄱㅜㄴ -1592
▁ㅌㅗㅇㅅㅣㄴ -1593
▁ㅂㅜㄹㄱㅛ -1594
▁ㅂㅗㄴㅅㅓㄴ -1595
▁ㄷㅏㅇㅎㅏ -1596
ㄷㅓㄹㄹㅏㄴㄷㅡ -1597
ㅎㅖ -1598
▁1997 -1599
ㄷㅚ -1600
▁ㅈㅏㅇㅊㅣ -1601
ㅈㅔㄱㅌㅡ -1602
▁ㅁㅜㄴㅅㅓ -1603
▁ㄱㅕㄹㅎㅏㅂ -1604
▁ㅈㅓㅁㄹㅕㅇ -1605
▁ㅎㅏㄱㅈㅏ -1606
▁ㄱㅘㅇㅈㅜ -1607
ㅇㅣㄹㄹㅐㄴㄷㅡ -1608
▁ㅎㅐㅇㅅㅏ -1609
st -1610
ㄲㅗ -1611
ㅁㅛ -1612
▁ㅅㅖ -1613
ㅂㅔㄴ -1614
ㅌㅡㄱㅂㅕㄹ -1615
▁ㅎㅕㄹ -1616
▁1995 -1617
▁ㅇㅏㄴㅈㅓㅇ -1618
▁ㅇㅣㄴㄷㅔ -1619
▁1996 -1620
▁ㄷㅗㅇㅁㅐㅇ -1621
▁ㅇㅠㄹ -1622
▁ㅇㅣㅀ -1623
ㄹㅓㅎㄱㅔ -1624
▁The -1625
▁ㅈㅓㅇㄹㅣ -1626
▁ㅇㅓㄴㄹㅗㄴ -1627
▁amp -1628
▁ㅇㅛㅇㅇㅓ -1629
▁ㅋㅐㅁ -1630
▁ㅅㅣㄴㅁㅜㄴ -1631
ㅌㅗㄹㄹㅣ -1632
▁ㄱㅣㅍ -1633
▁32 -1634
▁ㄱㅏㅄ -1635
▁ㅊㅗㄱ -1636
▁70 -1637
▁ㅊㅐㄱㅇㅣㅁ -1638
▁ㅂㅣㅊ -1639
▁ㅌㅗㅇㅊㅣ -1640
▁ㅂㅏㅇㅁㅜㄴ -1641
▁ㅇㅣㄹㅈㅔ -1642
▁ㅇㅡㄴㅌㅚ -1643
ㅎㅓ -1644
ㅎㅣㄴ -1645
▁ㅁㅕㄴㅈㅓㄱ -1646
▁ㅌㅗㅇㄱㅘ -1647
▁ㅈㅓㅇㅎㅘㄱ -1648
▁ㅍㅗㄹㄹㅏㄴㄷㅡ -1649
▁ㅇㅗㄹㄹㅏㅆ -1650
▁ㅇㅘㅇㅈㅗ -1651
▁ㅁㅏㄴㄴㅏ -1652
▁ㅈㅜㄴㅂㅣ -1653
▁ㅈㅗㅇㅎㅏㅂ -1654
ㄴㅡㄹㄴㅏㄹ -1655
▁ㄹㅓㄴㄷㅓㄴ -1656
ㅇㅓㅆ -1657
▁ㅈㅓㅇㄱㅝㄴ -1658
▁the -1659
▁ㅂㅕㅇㅇㅝㄴ -1660
▁ㅅㅓㅇㅈㅓㄱ -1661
ㅇㅣㄴㅌㅡ -1662
am -1663
▁500 -1664
▁ㄴㅓㄹㄹㅣ -1665
▁ㅁㅏㄴㅎㅘ -1666
▁ㅁㅕㄹ -1667
ㄸㅓ -1668
ㄱㅅㅣ -1669
▁ㄱㅏㅆ -1670
ㅋㅠ -1671
▁ㅍㅕㅇㅎㅘ -1672
▁ㅆㅡㄴ -1673
▁ㅂㅓㄴㅎㅗ -1674
ㅅㅣㅂ -1675
▁ㄷㅡㅅ -1676
▁ㄱㅕㅇㅎㅓㅁ -1677
ㅣㄱ -1678
▁ㅇㅝㄴㅇㅣㄴ -1679
▁ㅅㅣㄴㄹㅏ -1680
▁ㅂㅜㄹㄱㅜ -1681
▁ㅅㅟㅂ -1682
▁80 -1683
ㄱㅏㅂ -1684
▁ㅊㅗㅇㄹㅣ -1685
▁188 -1686
ㄴㅣㅁ -1687
▁ㅊㅡ -1688
▁+ -1689
▁ㅇㅕㄴㅁㅐㅇ -1690
il -1691
▁UE -1692
▁ㅎㅜㄴㄹㅕㄴ -1693
▁ㅎㅗㄹ -1694
▁ㅇㅔㄹㄹㅣ -1695
▁ㅇㅕㅇㅇㅕㄱ -1696
▁ㄱㅞ -1697
▁ㄲㅐ -1698
▁ㅁㅣㄷ -1699
▁1994 -1700
▁ㄲㅡㄹ -1701
▁ㄱㅕㅇㅈㅐㅇ -1702
▁ㄷㅗㅇㅂㅜ -1703
ㄷㅡㅁㅎㅐ -1704
▁ㅂㅏㅇㅇㅓ -1705
▁ㄹㅣㄴ -1706
▁UEFA -1707
▁ㄱㅕㅇㄱㅖ -1708
▁ㄱㅕㅇㅇㅕㅇ -1709
▁ㅇㅏㄹㄹㅔㄱ -1710
ac -1711
ㅋㅗㅇ -1712
▁ㅇㅣㅅ -1713
▁ㅅㅐㅇㅁㅜㄹ -1714
▁ㄱㅏㅇㅇㅝㄴ -1715
▁ㅍㅗㄴ -1716
▁ㅅㅏㅁㅅㅓㅇ -1717
▁ㅎㅐㅇㅅㅓㅇ -1718
▁ㅂㅏㄱㅁㅜㄹ -1719
▁1970 -1720
▁KBS -1721
▁ㄷㅡㅇㄹㅗㄱ -1722
▁ㅂㅏㄹㅅㅏ -1723
▁ㅂㅓㅂㄹㅠㄹ -1724
▁ㄴㅏㅁㅅㅓㅇ -1725
▁ㅇㅣㄱ -1726
ㅎㅔㄴ -1727
ㅇㅣㅁㅅㅡ -1728
ㄲㅟ -1729
▁ㅅㅣㄱㅁㅣㄴ -1730
▁ㅈㅓㅇㅅㅏㅇ -1731
▁ㅂㅏㄹㄷㅏㄹ -1732
ㅁㅣㅇ -1733
▁ㅂㅣㄱ -1734
▁ㅇㅘㄴㅈㅓㄴㅎㅣ -1735
▁ㅋㅡㄹㄹㅏ -1736
▁ㅈㅓㄴㅎㅐ -1737
ro -1738
▁ㄲㅣ -1739
▁1992 -1740
▁ㅈㅓㅇㅅㅣㄱ -1741
ㅌㅗㄹㄹㅣㄱ -1742
▁ㄱㅡㅁㅈㅣ -1743
▁ㅇㅣㅂㅈㅏㅇ -1744
▁ㄴㅚ -1745
▁ㄱㅕㄹㅅㅓㅇ -1746
▁ㅇㅟㄹㄹㅣ -1747
ed -1748
▁ㅍㅕㄹ -1749
▁ㅇㅓㅂㅁㅜ -1750
ㅋㅡㅁ -1751
▁45 -1752
▁ㅈㅣㅂㅎㅏㅂ -1753
▁ㅂㅕㄱ -1754
▁ㅈㅓㅂㄱㅡㄴ -1755
▁ㅂㅏㄱㅁㅜㄹㄱㅘㄴ -1756
▁of -1757
ㅅㅏㅁ -1758
ㅊㅏㄴㄱㅏ -1759
▁ㅇㅡㄴㅎㅐㅇ -1760
▁ㅉㅏㄼ -1761
▁ㅇㅕㅇㅌㅗ -1762
▁ㅇㅜㅁㅈㅣㄱ -1763
▁ㅇㅣㄴㅅㅣㄱ -1764
▁36 -1765
▁ㅂㅏㄱㅅㅏ -1766
▁ㅇㅣㅁㅅㅣ -1767
ㅁㅔㄴ -1768
▁ㄱㅗㅇㅈㅏㄱ -1769
ㅁㅕㄹ -1770
▁ㅂㅏㄴㅁㅕㄴ -1771
ig -1772
▁ㅈㅏㅇㅇㅐ -1773
ㅌㅏㅂ -1774
ㄷㅠ -1775
▁ㅊㅓㄹㅎㅏㄱ -1776
▁ㅅㅏㅇㅎㅗ -1777
ㅋㅣㅇ -1778
▁ㅂㅏㄷㅇㅏ -1779
▁ㅎㅕ -1780
ㅇㅠㅇ -1781
ㄷㅜㄴ -1782
▁ㄷㅏㅇㅎㅐㅆ -1783
▁ㅂㅗㄱㄱㅟ -1784
▁ㄷㅜㄴ -1785
▁1991 -1786
▁ㅈㅏㅇㅅㅗ -1787
ㅇㅜㅇ -1788
▁ㄷㅡㄴ -1789
▁1960 -1790
▁ㄱㅓㅁㅅㅏ -1791
▁ㅇㅕㄴㄱㅡㄱ -1792
▁ㅅㅣㄱㅁㅜㄹ -1793
▁ㅊㅏㅈㅇㅏ -1794
▁ㅅㅓㅇㄱㅕㄱ -1795
ㅁㅕㄴㅅㅓ -1796
ㅌㅡㄱㅂㅕㄹㅅㅣ -1797
▁ㅋㅗㄹ -1798
▁ㅂㅜㄴㅍㅗ -1799
ㅁㅠ -1800
▁ㅅㅡㅂㄴㅣ -1801
▁ㄴㅗㄴㄹㅏㄴ -1802
▁ㅍㅔㄴ -1803
ㅇㅜㄹㅌㅡㄱㅂㅕㄹㅅㅣ -1804
▁ㄱㅘㄴㅊㅡㄱ -1805
▁1993 -1806
▁ㅂㅏㄺㅎㅕ -1807
ㅈㅏㄴ -1808
▁ㅍㅡㄹㄹㅏ -1809
ㅍㅗㄱ -1810
od -1811
▁33 -1812
ㅋㅣㄹ -1813
ㅎㅗㄱ -1814
▁ㄱㅕㅇㅅㅏㅇㄴㅏㅁㄷㅗ -1815
▁ㅂㅏㄹㅎㅐㅇ -1816
ㄸㅡ -1817
▁ㅎㅘㄹㅇㅛㅇ -1818
▁ㄱㅡㄴㅊㅓ -1819
▁ㄷㅏㄴㅅㅜㄴ -1820
ㅎㅗㅇ -1821
ㄱㅜㄱㅇㅣㄴ -1822
▁ㄷㅡㄱㅈㅓㅁ -1823
▁ㅇㅏㄴㅈㅓㄴ -1824
▁ㅇㅟㄴㄷㅗ -1825
▁ㅈㅜㅇㄱㅏㄴ -1826
▁ㅎㅕㅇㅈㅔ -1827
▁ㄱㅕㅇㅅㅏㅇㅂㅜㄱㄷㅗ -1828
▁ㄷㅏㄴㅇㅓ -1829
▁ㅂㅜㅇ -1830
▁ㄹㅑㅇ -1831
▁ㅇㅣㄴㅅㅏ -1832
as -1833
ve -1834
▁186 -1835
▁ㄱㅏㅇㄹㅕㄱ -1836
▁ㅎㅡㅂ -1837
ㅅㅗㄱㄷㅗ -1838
▁ㄱㅜㄹ -1839
▁ㅊㅗㅇㅅㅓㄴ -1840
▁ㅈㅜㅇㄷㅏㄴ -1841
ㄹㅣㄱㅌㅓ -1842
ㅈㅔㄴ -1843
ㅋㅗㄴ -1844
ㄷㅓㅁ -1845
▁ㅅㅐㅇㅅㅓㅇ -1846
ㅅㅓㅂ -1847
▁ㄱㅡㄴㄱㅓ -1848
▁ㄱㅘㄴㄱㅘㅇ -1849
▁ㅅㅜㄴㅇㅟ -1850
▁ㄱㅝㄴㄹㅕㄱ -1851
▁ㅈㅓㄴㅅㅣ -1852
▁ㅇㅣㄹㅈㅓㅇ -1853
▁ㅎㅖ -1854
ㄱㅌㅓ -1855
ㄱㅗㄴ -1856
▁ㅂㅗㄴㅂㅜ -1857
▁ㅂㅏㄴㄹㅏㄴ -1858
▁ㅂㅓㄴㅇㅕㄱ -1859
▁ㅎㅕㅂㄹㅕㄱ -1860
▁", -1861
ㅇㅝㄴㅈㅏㅇ -1862
▁ㅊㅗㄴ -1863
ㅈㅓㄴㅈㅏ -1864
▁ㅁㅓㄴㅈㅓ -1865
▁1988 -1866
ㅁㅏㄶ -1867
▁ㅇㅕㄴㅈㅏㅇ -1868
▁ㅊㅣㄹ -1869
▁ㅁㅔㄱㅅㅣ -1870
▁ㄱㅗㅇㅈㅏㅇ -1871
▁ㅇㅝㄴㅅㅗ -1872
ㅇㅏㄹ -1873
ㅘㄹ -1874
▁ㄷㅗㅇㅅㅐㅇ -1875
▁ㅁㅏㄴㅋㅡㅁ -1876
▁ㅇㅗㅇ -1877
▁ㅊㅜㄴ -1878
ㅇㅓㅄ -1879
▁ㄹㅔㄴ -1880
▁187 -1881
▁ㅈㅜㄱㅇㅡㅁ -1882
▁ㅌㅗㅇㅎㅏ -1883
▁ㅇㅑㅇㅅㅣㄱ -1884
▁ㅎㅏㄱㅇㅟ -1885
▁ㅅㅏㅇㅈㅣㅇ -1886
▁ㄱㅡㄱㅈㅏㅇ -1887
▁ㄱㅡㄴㅁㅜ -1888
▁ㄱㅏㅁㅅㅗ -1889
▁ㅈㅚ -1890
ㅇㅓㄱ -1891
▁ㅅㅏㄻ -1892
▁ㅈㅗㅇㅁㅗㄱ -1893
ㄱㅏㄴㄷㅏ -1894
id -1895
▁ㄷㅏㄴㅇㅟ -1896
▁ㅅㅏㅇㅇㅓㅂ -1897
▁ㅇㅕㅇㅅㅏㅇ -1898
▁ㄱㅠㄴ -1899
ㅆㅏ -1900
▁ㅊㅘㄹ -1901
▁2021 -1902
▁ㅎㅘㄱㄷㅐ -1903
▁ㄷㅠ -1904
ㅇㅣㄴㄱㅗㅇ -1905
▁ㄱㅕㄲ -1906
▁ㅂㅓㄹㅇㅓ -1907
▁34 -1908
▁ㅅㅓㅇㄹㅣㅂ -1909
▁ㅎㅕㅁ -1910
▁ㅇㅕㅍ -1911
ec -1912
▁38 -1913
▁ㄷㅏㄹㅅㅓㅇ -1914
▁ㄷㅗㅇㄱㅖ -1915
▁ㅅㅡㅇㄱㅕㄱ -1916
▁ㅅㅜㅁ -1917
ㅇㅜㅅ -1918
ㅁㅗㅇ -1919
▁? -1920
▁ㅇㅘㄴㅅㅓㅇ -1921
▁ㅌㅡㄱㅅㅜ -1922
▁1989 -1923
▁ㅌㅗㄴ -1924
ㅎㅕㄹ -1925
▁ㅊㅘㄹㅇㅕㅇ -1926
▁90 -1927
▁ㅂㅗㄴㄱㅘㄴ -1928
▁ㅇㅏㄹㄹㅔㄱㅅㅏㄴ -1929
▁ㅎㅗㅇㅋㅗㅇ -1930
▁ㅈㅓㄴㄹㅑㄱ -1931
and -1932
us -1933
▁ㄱㅜㄱㅇㅘㅇ -1934
ㅈㅣㅂㅌㅡ -1935
▁48 -1936
ㅍㅕㅇㅇㅑㅇ -1937
▁h -1938
▁ㅃㅐ -1939
▁e -1940
ㅁㅕㅊ -1941
▁ㅁㅕㅊㅁㅕㅊ -1942
▁ㄹㅠㄹ -1943
▁ㄴㅣㅁ -1944
▁ㅅㅣㄱㅁㅣㄴㅈㅣ -1945
ㄷㅗㅇㅈㅏ -1946
▁ㄷㅏㅇㅅㅓㄴ -1947
▁ㅈㅓㄴㄷㅏㄹ -1948
▁ㅊㅡㄱㅈㅓㅇ -1949
▁ㅈㅡㄹ -1950
▁ㅅㅐㅇㅁㅕㅇ -1951
▁ㄱㅝㄴㄹㅣ -1952
▁ㅁㅣㅌ -1953
▁ㅅㅓㄹㅈㅓㅇ -1954
▁ㅈㅣㄱㅎㅜ -1955
ㅊㅣㄹ -1956
▁ㅁㅐㅇ -1957
▁ㅊㅜㄹㅅㅐㅇ -1958
▁| -1959
▁MBC -1960
ㅐㅇㅋㅡ -1961
ad -1962
ent -1963
NA -1964
▁1950 -1965
▁ㄴㅏㅎ -1966
▁ㅌㅡㄱㅅㅓㅇ -1967
▁300 -1968
▁ㅈㅗㅇㄹㅛ -1969
ㄹㅓㄹ -1970
▁ㄱㅕㄹㅅㅡㅇㅈㅓㄴ -1971
▁ㅈㅓㄴㅎㅘㄴ -1972
▁ㄷㅔㄹ -1973
▁ㅇㅡㄴㅎㅏ -1974
▁ㅈㅓㄻ -1975
▁ㅅㅣㄴㄱㅕㅇ -1976
▁ㄴㅏㅂ -1977
▁ㅊㅓㅇㄴㅕㄴ -1978
ㄹㅗㅇ -1979
▁ㄱㅘㄴㅊㅏㄹ -1980
▁', -1981
▁ㅅㅓㅇㅇㅜ -1982
▁ㅆㅏㅎ -1983
ㄹㅗㅂ -1984
▁ㅊㅏㄹ -1985
▁ㅇㅡㅁㅅㅣㄱ -1986
▁ㅈㅕ -1987
▁ㅋㅓㄹ -1988
▁1945 -1989
▁ㅃㅏㄹ -1990
▁ㅈㅓㄴㅊㅏ -1991
ㄱㅔㄴ -1992
▁ㅍㅏㄴㄷㅏㄴ -1993
ㅍㅜㄹ -1994
▁ㅂㅓㅁㅈㅚ -1995
▁ㅂㅡㄹㄹㅜ -1996
ㅂㅠ -1997
▁ㅁㅏㄴㄷㅡ -1998
▁ㅈㅡㄱㅇㅟ -1999
ㅁㅐㄴ -2000
▁ㅎㅓㅇ -2001
ㅎㅐㄱ -2002
ㅇㅣㄹㄹㅓ -2003
▁ㅁㅕㅇㄷㅏㄴ -2004
50 -2005
▁ㅇㅣㄴㄱㅡㄴ -2006
▁ㄴㅗㄱㅇㅡㅁ -2007
▁ㄴㅏㅁㅂㅜㄱ -2008
▁ㅊㅜㅇㄷㅗㄹ -2009
▁ㅂㅗㄴㄹㅐ -2010
▁ㄱㅗㅇㄱㅡㅂ -2011
▁ㄱㅕㅇㅈㅜ -2012
▁ㅇㅗㄻㄱㅕ -2013
▁ㄱㅗㅇㅂㅜ -2014
▁ㄱㅗㅇㄱㅜㄴ -2015
▁ㅇㅓㄹㅁㅏ -2016
▁ㅅㅣㅍ -2017
▁ㄱㅓㄴㄱㅏㅇ -2018
▁ㅎㅏㅂㄹㅠ -2019
▁x -2020
▁ㅁㅕㅇㅇㅖ -2021
▁ㅈㅏㅇㄱㅣ -2022
ㅂㅡㄴ -2023
▁ㄱㅏㅁㅇㅕㅁ -2024
▁ㄱㅗㅇㅈㅜ -2025
▁ㅊㅓㄴㅎㅘㅇ -2026
▁ㅍㅗㄹㄹㅣ -2027
▁ㅊㅓㅇㅅㅗ -2028
▁ㅇㅚㄴ -2029
▁ㅇㅜㄹㅅㅏㄴ -2030
▁ㅈㅏㄱㅅㅓㅇ -2031
ㅊㅓㄹㄷㅗ -2032
▁ㅇㅣㄴㄷㅣ -2033
▁St -2034
▁ㅇㅏㄹㄹㅣ -2035
▁ㅊㅓㄴㅁㅜㄴ -2036
▁ㅎㅔㄹ -2037
▁ㄱㅏㅇㅇㅝㄴㄷㅗ -2038
ㅇㅗㅇ -2039
ㄹㅓㄱ -2040
▁ㄴㅏㅁㅇㅏ -2041
▁ㄱㅜㄱㄱㅕㅇ -2042
▁ㅎㅔㄴ -2043
▁ㅈㅣㄹㄹㅑㅇ -2044
▁ㄱㅏㅇㅎㅏㄴ -2045
ot -2046
▁ㄱㅜㄴㅇㅣㄴ -2047
▁ㅅㅣㄴㅎㅗ -2048
▁ㄱㅏㄱㅈㅗㅇ -2049
ㅂㅜㅇ -2050
▁ㅇㅣㅂㅎㅏㄱ -2051
▁ㄴㅐㄴ -2052
▁ㅇㅣㄴㅅㅜ -2053
▁ㅇㅣㅍ -2054
▁ㅅㅚ -2055
▁ㅁㅗㅅㅎㅏㄴ -2056
▁in -2057
▁ㅋㅗㅇ -2058
▁ㅇㅣㄺ -2059
▁ㅈㅓㄴㅅㅏ -2060
ㅊㅏㅁ -2061
un -2062
▁ㅍㅡㄹㄹㅗ -2063
▁ㄹㅏㅇ -2064
▁ㄴㅗㅇㅇㅓㅂ -2065
ㅅㅡㄹㄹㅏㅁ -2066
▁ㄱㅐㄱ -2067
ㄹㅏㅂ -2068
ㅍㅡㄴ -2069
▁ㅅㅣㄹㅎㅐㅇ -2070
▁ㅂㅓㅅ -2071
ㄷㅏㄱ -2072
▁ㅇㅝㄴㅈㅓㅇ -2073
▁ㅂㅡㄹㄹㅐㄱ -2074
ㅈㅓㄴㅎㅣ -2075
ㄷㅏㅂ -2076
▁ㅅㅣㅁㄹㅣ -2077
ow -2078
▁ㅅㅣㄴㅎㅏㄱ -2079
▁ㅁㅣㄹㄷㅗ -2080
▁ㅆㅓㅆ -2081
▁ㅈㅣㅂㅈㅜㅇ -2082
▁ㅋㅐㄹㄹㅣ -2083
▁ㅈㅜㄴㄷㅏ -2084
▁ㅊㅜㅇㅊㅓㅇㄴㅏㅁㄷㅗ -2085
▁37 -2086
▁ㅁㅏㄴㅇㅑㄱ -2087
▁ㅎㅏㄱㅁㅜㄴ -2088
ㅋㅐ -2089
ㅌㅣㄱ -2090
▁ㅍㅕㄴㅈㅣㅂ -2091
▁ㅇㅑㄱㄱㅏㄴ -2092
▁ㅊㅡㄱㅁㅕㄴ -2093
▁w -2094
▁ㄱㅜㄱㅂㅏㅇ -2095
▁ㅈㅓㅇㅊㅏㄱ -2096
▁ㅈㅡㅇㅁㅕㅇ -2097
ㄴㅏㅆㅇㅡ -2098
ㅅㅛ -2099
▁1987 -2100
▁ㅁㅜㄹㄹㅗㄴ -2101
ㅇㅕㅂ -2102
▁ㅁㅗㅇㄱㅗㄹ -2103
▁ㄱㅓㄴㄴㅓ -2104
▁ㅌㅗㅇㅈㅔ -2105
▁ㅇㅑㅇㅈㅏ -2106
ㅝㅆ -2107
ㅎㅏㄱㅇㅝㄴ -2108
▁ㅂㅕㄴㅎㅗ -2109
▁ㄷㅡㄷ -2110
▁ㄱㅘㅇㄱㅗ -2111
▁ㄱㅡㅁㅇㅠㅇ -2112
ㅅㅟ -2113
▁ㅎㅗㅁㄹㅓㄴ -2114
▁ㅂㅕㅇㄹㅕㄱ -2115
▁ㄷㅜㄹㄹㅓ -2116
▁ㅎㅏㅂㅂㅕㅇ -2117
ㅋㅓㅅ -2118
ur -2119
▁ㄷㅡㅇㄱㅡㅂ -2120
▁ㅅㅜㅍ -2121
ㅂㅜㅌ -2122
▁ㅈㅣㅅ -2123
▁1984 -2124
ㅂㅣㄹ -2125
▁1986 -2126
▁ㅋㅣㅇ -2127
ㄷㅗㅇㅇㅏㄴ -2128
▁ㅎㅢㄴ -2129
▁ㄱㅏㅈㅊㅜ -2130
▁ㄴㅐㅇ -2131
▁41 -2132
▁ㅂㅜㄹㄹㅣㄴㄷㅏ -2133
▁ㅌㅓㄹ -2134
▁ㅎㅏㄱㄴㅕㄴ -2135
▁ㄱㅏㅇㅈㅗ -2136
▁ㅎㅘㄴㅈㅏ -2137
▁ㄱㅔㄴ -2138
▁ㅇㅑㅇㅅㅓㅇ -2139
▁ㅌㅡㄹ -2140
ㅁㅗㅅ -2141
▁ㅂㅕㅇㅅㅏ -2142
▁ㅅㅗㄹ -2143
▁51 -2144
▁ㅇㅔㄴㅌㅓ -2145
▁ㅇㅏㄴㄷㅡ -2146
▁ㅅㅓㅇㄱㅘ -2147
▁ㅈㅓㄴㄹㅕㄱ -2148
▁ㅇㅣㄴㅎㅏㄴ -2149
▁ㄹㅕㅇ -2150
ㅅㅕㄹ -2151
▁ㅂㅗㅁ -2152
▁ㅅㅏㅇㅎㅏ -2153
▁ㅁㅣㄴㄱㅏㄴ -2154
▁ㅂㅜㅇㄱㅚ -2155
▁ㅍㅣㄴㄹㅏㄴㄷㅡ -2156
▁ㄱㅗㅇㄱㅗㅇ -2157
ㅅㅔㄹ -2158
▁ㅈㅓㄴㅇㅕㄱ -2159
▁ㅎㅕㅁㅇㅢ -2160
ㅍㅔㄴ -2161
ㅋㅏㄹ -2162
ㄴㅣㄱ -2163
▁ㄷㅟㅅ -2164
ㅍㅣㄱ -2165
▁ㅁㅓㄹ -2166
ㄴㅑㅇ -2167
▁ㄷㅗㅇㅇㅏ -2168
▁ㅇㅓㅂㅊㅔ -2169
▁ㅎㅓㅇㄱㅏ -2170
ㅊㅗㄱ -2171
▁ㅈㅣㅁ -2172
ch -2173
ㅅㅓㅁ -2174
▁ㄱㅜㄴㅈㅜ -2175
▁ㅌㅟ -2176
▁ㄱㅕㅇㄹㅕㄱ -2177
▁ㅇㅗㄴㄷㅗ -2178
▁ㅈㅏㅂㅈㅣ -2179
▁ㄸㅜ -2180
▁ㅈㅓㄴㅎㅏ -2181
ㄴㅚ -2182
ㄹㅣㅅ -2183
▁ㅊㅜㅇㅂㅜㄴ -2184
▁ㅈㅓㄴㅂㅏㄴ -2185
▁ㅊㅓㅁ -2186
▁ㅇㅣㅁㅁㅜ -2187
▁ㅅㅓㅇㅇㅣㄴ -2188
▁ㅅㅡㅇㅇㅣㄴ -2189
▁ㄲㅓ -2190
▁39 -2191
▁ㅋㅡㄹㄹㅐ -2192
▁ㄱㅏㅇㅈㅔ -2193
▁1985 -2194
▁ㄱㅡㄴㄷㅐ -2195
▁64 -2196
▁400 -2197
▁ㅂㅓㅁㅇㅟ -2198
▁ㄱㅏㅇㅇㅢ -2199
▁ㄸㅣ -2200
▁ㅈㅓㄱㄱㅡㄱ -2201
ㅍㅣㅇ -2202
▁ㅅㅓㄴㅅㅐㅇ -2203
▁ㅎㅏㅇㅅㅏㅇ -2204
▁ㅇㅣㄴㅎㅏ -2205
▁II -2206
▁ㅈㅓㄴㅅㅓㄴ -2207
▁ㄲㅜㅁ -2208
▁br -2209
▁i -2210
▁ㅈㅗㅇㅇㅣ -2211
ut -2212
ㅈㅣㅅ -2213
▁ㅇㅣㄹㅇㅝㄴ -2214
▁ㅅㅓㅂ -2215
▁ㅎㅕㄴㅅㅣㄹ -2216
▁ㄷㅗㅇㄹㅛ -2217
▁ㄴㅏㅁㅍㅕㄴ -2218
ㅉㅏ -2219
▁ㅊㅜㄹㅂㅏㄹ -2220
ay -2221
ㅇㅜㄴㅌㅣ -2222
▁ㅁㅏㄴㅈㅗㄱ -2223
▁ㄱㅗㅇㅅㅏㄴㄷㅏㅇ -2224
▁ㅂㅜㄺ -2225
ㄴㅐㄴㄷㅏ -2226
▁ㅂㅏㄱㅈㅟ -2227
▁ㅈㅓㄴㄱㅐ -2228
ㄹㅕㅇㄱㅘㄴ -2229
▁ㅎㅏㅇㅅㅓㅇ -2230
▁ㅈㅏㅇㅂㅣ -2231
▁ㄴㅗㄴㅁㅜㄴ -2232
▁ㄱㅏㅇㅈㅓㅁ -2233
um -2234
▁ㅇㅝㄴㅊㅣㄱ -2235
▁ㅂㅜㄹㄹㅓ -2236
▁ㄱㅗㅇㅇㅓㅂ -2237
▁ㅇㅕㄹㄹㅕㅆ -2238
▁ㄱㅏㄴㅈㅜ -2239
ㄴㅟ -2240
ㅈㅓㅇㅂㅜ -2241
▁ㅈㅗㅇㅈㅗㅇ -2242
▁ㅇㅓㄹㄱㅜㄹ -2243
▁ㅈㅐㄱ -2244
▁ㅁㅏㅅ -2245
▁ㅎㅡㄹ -2246
▁ㅌㅏㅂㅈㅐ -2247
▁ㅍㅗㄱㅂㅏㄹ -2248
▁ㅂㅜㄹㄱㅏ -2249
▁ㄷㅏㅂ -2250
▁ㄴㅗㄹ -2251
▁43 -2252
ir -2253
▁ㄷㅚㅁ -2254
▁ㅎㅘㄱㅂㅗ -2255
▁ㅈㅡㅇㄱㅓ -2256
ㄹㅗㄹ -2257
ㅇㅝㄴㄱㅜㄴ -2258
▁ㅂㅜㄴㅈㅏ -2259
▁ㄱㅗㅇㅁㅜ -2260
ㅂㅐㄱㅈㅣㄹ -2261
ㅅㅏㅇㅈㅏ -2262
ㅂㅅㅡ -2263
ㄴㅗㄴ -2264
▁ㅃㅜ -2265
▁ㅈㅓㅁㅊㅏ -2266
▁ㄴㅏㅁㄷㅗㅇ -2267
ㄷㅣㄴ -2268
▁ㅇㅛㄱ -2269
▁42 -2270
▁ㅍㅕㅇㅇㅑㅇ -2271
▁ㅂㅜㄹㄹㅓㅆ -2272
▁ㅈㅣㄴㅎㅘ -2273
ver -2274
▁ㄱㅜㄴㄷㅏㄴ -2275
▁ㅅㅣㄴㅎㅘ -2276
▁ㅋㅏㅁ -2277
▁ㅎㅏㅂㅇㅢ -2278
▁ㅇㅝㄴㅈㅜ -2279
▁ㄴㅏㅇ -2280
▁ㄱㅏㅈㅊㅜㄴ -2281
ㅋㅗㄹ -2282
▁ㄲㅡㄶ -2283
▁1982 -2284
ㅅㅡㅁ -2285
▁ㄴㅐㅆ -2286
▁ㅅㅣㄴㅅㅓㄹ -2287
im -2288
▁ㅅㅐㄴ -2289
▁ㄱㅘㅇㅇㅕㄱㅅㅣ -2290
▁55 -2291
▁ㅈㅏㅇㅁㅕㄴ -2292
▁ㅎㅑㅇㅅㅏㅇ -2293
▁ㅇㅠㅇ -2294
▁ㅈㅏㅇㅅㅣㄱ -2295
ㄴㅠㅁ -2296
▁ㄷㅔㄴㅁㅏ -2297
▁ㅍㅕㄴㅇㅣㅂ -2298
▁ㅇㅕㄹㄹㅣ -2299
▁ㅊㅓㅇㄴㅏ -2300
ㄷㅜㄱ -2301
▁ㅍㅗㅁ -2302
▁1983 -2303
▁ㄱㅕㅇㅎㅑㅇ -2304
ㅌㅡㄹㄹㅐㄴㄷㅡ -2305
FC -2306
▁ㅇㅗㄴㄹㅏ -2307
▁ㅋㅏㄹㄹㅣ -2308
▁ㄹㅗㅂ -2309
▁ㄷㅏㄴㅂㅐㄱㅈㅣㄹ -2310
▁ㅅㅜㅇ -2311
ㅇㅐㄴ -2312
▁ㅁㅏㄴㅈㅜ -2313
ㄹㅜㄴㄷㅏ -2314
▁ㅎㅘㄱㅅㅣㄹ -2315
ㅍㅗㄹㄹㅣ -2316
▁ㅅㅔㄹ -2317
▁ㅊㅣㅁㄱㅗㅇ -2318
ㅂㅣㅇ -2319
▁ㅊㅏㅇㅅㅓㄹ -2320
ㄱㅓㅁ -2321
▁ㄴㅑ -2322
▁44 -2323
▁ㅈㅗㅁ -2324
▁ㄷㅏㄴㅈㅣ -2325
▁ㅂㅓㅂㅇㅣㄴ -2326
▁ㅃㅗ -2327
▁ㅋㅔㄴ -2328
ㅋㅓㄴ -2329
▁ㅅㅏㄹㅎㅐ -2330
▁ㄱㅏㅇㅈㅓㅁㄱㅣ -2331
ㅁㅜㄴㅎㅘ -2332
▁LG -2333
▁47 -2334
▁ㄷㅗㄱㅈㅏ -2335
▁ㅈㅓㄴㅅㅓㄹ -2336
▁ㅇㅘㅇㅇㅟ -2337
▁ㅈㅏㅁㅅㅣ -2338
ㅇㅜㄴㄷㅗㅇ -2339
▁ㅅㅓㄴㄱㅗ -2340
ㅇㅇㅣ -2341
▁ㅅㅏㅁㄱㅜㄱ -2342
▁Z -2343
▁ㅋㅗㄹㄹㅗ -2344
▁ㄱㅗㅇㅇㅠ -2345
▁ㅅㅓㅇㄷㅏㅇ -2346
▁ㅅㅏㄱ -2347
ㄴㅢ -2348
▁ㅈㅓㄴㅎㅘ -2349
ㅎㅏㄱㅅㅐㅇ -2350
▁75 -2351
▁ㅎㅣㄹ -2352
▁ㅂㅏㄴㄷㅗ -2353
▁ㄴㅡㄹㅇㅓ -2354
▁ㅎㅏㅁㄷㅐ -2355
▁ㅎㅘㄱㅈㅓㅇ -2356
ㅅㅖ -2357
▁ㅅㅏㄴㅁㅐㄱ -2358
▁ㅅㅣㄴㅇㅏㅇ -2359
▁ㅂㅗㄱㅈㅏㅂ -2360
ㅇㅑㄴ -2361
▁ㅅㅗㄹㄹㅗ -2362
▁ㅇㅠㄱㅅㅏㅇ -2363
ㄱㅏㄱㅎㅕㅇ -2364
ㅅㅣㅇㅌㅓㄴ -2365
▁1972 -2366
▁ㅇㅕㄴㄱㅗ -2367
ㅎㅠ -2368
▁ㅅㅜㄴㅅㅓ -2369
▁ㅇㅕㄱㄷㅐ -2370
ㄹㅏㅇㅋㅡ -2371
▁ㅌㅔㄴ -2372
ㅅㅈㅏ -2373
▁184 -2374
▁ㅂㅜㄹㄱㅘ -2375
ㄱㅗㅂ -2376
▁ㅍㅡㄹㄹㅐㅅ -2377
▁180 -2378
CA -2379
ㄸㅓㅎ -2380
ㅇㅗㄴㄷㅏ -2381
▁ㄴㅓㅁㅇㅓ -2382
ㄹㅣㄴㅇㅣ -2383
▁ㄱㅗㅇㅎㅏㄱ -2384
▁46 -2385
▁ㅈㅓㄴㅇㅛㅇ -2386
▁ㅁㅏㄹㄱㅣ -2387
▁ㅊㅏㅁㅅㅓㄱ -2388
▁ㅈㅓㄹㄷㅐ -2389
▁ㄷㅗㅇㅇㅢ -2390
▁ㅂㅓㅂㅊㅣㄱ -2391
▁ㅎㅐㄱㅅㅣㅁ -2392
▁ㅇㅏㅁㅅㅏㄹ -2393
▁ㅌㅗㅇㅎㅏㄴ -2394
▁ㄱㅏㅁㅈㅓㅇ -2395
▁ㅇㅏㅍㄷㅜ -2396
▁ㅎㅐㅆㅇㅓㅆ -2397
▁ㅈㅜㅇㅅㅣㅁㅈㅣ -2398
▁ㅍㅏㄴㄱㅕㄹ -2399
ㅈㅔㄹ -2400
▁1979 -2401
▁CD -2402
ㅎㅔㄴㅌㅣ -2403
▁ㅈㅜㅇㅂㅏㄴ -2404
▁ㅇㅗㄹㄹㅕㅆ -2405
ㅅㅓㅆ -2406
▁ㅌㅏㄴㅅㅐㅇ -2407
▁ㄷㅏㄹㄹㅏ -2408
▁ㄱㅡㄹㄹㅗ -2409
▁ㅂㅕㄹㄷㅗ -2410
ㄹㅏㄹ -2411
ra -2412
▁ㅎㅡㄴㅎㅣ -2413
▁kg -2414
ㄷㅗㄴ -2415
ㅇㅓㅅ -2416
▁ㅈㅣㅂㅎㅐㅇ -2417
▁1920 -2418
▁ㅅㅏㄹㅇㅏ -2419
▁ㄴㅗㄴㄹㅣ -2420
ㅂㅏㄴㄷㅗ -2421
ㄹㅡㄹㄹㅣㄴ -2422
▁ㅂㅗㄴㄱㅕㄱ -2423
▁ㅌㅗㅇㄱㅖ -2424
▁ㄷㅏㄴㅇㅣㄹ -2425
▁ㄱㅓㅁㅊㅏㄹ -2426
ㄹㅕㅇㅂㅜ -2427
▁In -2428
▁ㄱㅡㅁㅁㅔ -2429
▁1981 -2430
▁v -2431
ㄹㅝ -2432
▁ㄱㅘㄴㄹㅛ -2433
ㄲㅗㅊ -2434
▁ㄱㅗㅇㄱㅣ -2435
▁ㅂㅏㅇㅁㅕㄴ -2436
▁ㄹㅗㅅ -2437
▁ㅎㅕㅂㅅㅏㅇ -2438
10 -2439
▁1973 -2440
ㄹㅜㄱ -2441
▁ㄱㅗㅇㅍㅗ -2442
▁ㄷㅓㅍ -2443
▁ㅁㅔㄹ -2444
▁ㄱㅝㄴㅎㅏㄴ -2445
ㄱㅘㄹ -2446
ㄹㄹㅣㅇ -2447
▁1930 -2448
▁ㅉㅗ -2449
▁ㅅㅏㄴㅎㅏ -2450
▁ㅈㅣㄱㅇㅝㄴ -2451
ㅇㅓㅄㅇㅣ -2452
ㅁㅗㄹ -2453
os -2454
▁ㅈㅓㄴㅎㅜ -2455
▁ㅅㅏㅇㅍㅜㅁ -2456
ㅅㅏㄴㅅㅣ -2457
ㅆㅣㄴ -2458
▁ㅈㅏㄱㄱㅗㄱㄱㅏ -2459
ㅎㅗㄹ -2460
BO -2461
▁150 -2462
▁ㅇㅝㄴㅈㅏㄱ -2463
▁ㅎㅕㅂㅈㅓㅇ -2464
▁ㄷㅜㅇ -2465
▁ㅁㅜㄷ -2466
▁ㅈㅜㅇㅂㅜ -2467
▁ㅇㅗㅅ -2468
em -2469
▁ㄱㅓㄴㄱㅜㄱ -2470
▁ㅊㅏㅇㄹㅣㅂ -2471
▁ㅇㅣㄴㅅㅏㅇ -2472
ㄹㅠㅁ -2473
ter -2474
▁ㅈㅓㅇㄱㅛ -2475
▁ㄱㅓㄴㅈㅗ -2476
ㄹㅡㄴㅉㅗㄱ -2477
▁ㄱㅣㅁㅈㅓㅇ -2478
▁ㅈㅓㄴㅈㅜ -2479
ㄹㅕㅁ -2480
▁ㅅㅔㅅ -2481
▁ㅈㅓㄴㅊㅓㄹ -2482
▁1974 -2483
▁ㄱㅜㄴㅅㅜ -2484
30 -2485
ㅈㅜㄹ -2486
▁ㅇㅣㄴㄱㅝㄴ -2487
▁ㅈㅏㅇㅊㅏㄱ -2488
▁ㅎㅕㄴㅈㅏㅇ -2489
ㄴㅕㅇ -2490
▁ㅇㅚㄴㅉㅗㄱ -2491
▁ㅇㅡㅂ -2492
▁ㅎㅔㄴㄹㅣ -2493
▁ㅁㅜㄹㄹㅓ -2494
▁ㅇㅕㄴㅅㅏㄴ -2495
▁ㅋㅡㄹㄹㅔ -2496
▁ㅂㅗㄱㅎㅏㅂ -2497
ㅉㅣㄱ -2498
▁ㅂㅜㄱㅅㅓ -2499
▁ㅌㅔㄱ -2500
▁1940 -2501
▁ㄱㅏㄱㅂㅗㄴ -2502
ㅇㅏㅅ -2503
▁ㅈㅜㅇㅅㅔ -2504
▁ㅈㅏㄹㅁㅗㅅ -2505
▁ㅎㅏㄴㄸㅐ -2506
▁185 -2507
▁ㄱㅡㅁㅅㅗㄱ -2508
▁ㅌㅐㄱ -2509
▁ㅊㅏㅇㅈㅗ -2510
▁ㅅㅐㅇㄱㅣ -2511
▁ㅈㅓㄴㅎㅕ -2512
▁SBS -2513
▁ㅂㅣㅇ -2514
▁ㅎㅕㅇㅅㅏ -2515
▁ㄹㅐㅇ -2516
▁ㅌㅏㄱ -2517
▁ㅅㅓㅇㅈㅣㄹ -2518
▁ㅇㅣㄴㅈㅗ -2519
▁ㄱㅜㄱㄷㅗ -2520
▁ㅎㅏㅇㅂㅗㄱ -2521
▁ㅇㅣㅇ -2522
▁ㅈㅓㅇㅂㅗㄱ -2523
▁ㄱㅏㅇㅎㅏ -2524
▁ㅇㅔㅁ -2525
▁ㅇㅜㄴㅇㅛㅇ -2526
▁ㅇㅣㄴㅈㅓㅇㅂㅏㄷ -2527
▁ㅇㅣㄴㄹㅠ -2528
▁1948 -2529
▁ㅂㅏㅇㅊㅜㄹ -2530
▁1968 -2531
▁ㅎㅏㅂㅅㅓㅇ -2532
▁1976 -2533
▁ㅂㅜㄹㄹㅕㅆ -2534
ㄲㅐ -2535
▁ㅆㅗ -2536
▁54 -2537
▁ㅇㅡㅁㄹㅕㄱ -2538
▁ㅅㅜㅅㅈㅏ -2539
▁ㅁㅔㄴ -2540
▁ㅅㅓㅇㄱㅕㅇ -2541
▁ㅎㅝㄹ -2542
▁ㅈㅓㅇㅂㅣ -2543
ㅇㅣㄹㅂㅗ -2544
▁ㄱㅕㅇㅅㅓㅇ -2545
▁ㅅㅣㅁㄱㅏㄱ -2546
▁ㅇㅣㄴㄱㅗㅇ -2547
▁ㅇㅣㅂㅈㅏ -2548
ㄱㅐㄱㅊㅓㄹㄷㅗ -2549
ㄱㅓㄹ -2550
▁ㄱㅗㅇㅅㅏㄴㅈㅜ -2551
▁ㅂㅜㅌㅇㅕ -2552
▁ㅊㅜㄹㅇㅣㅂ -2553
▁ㄱㅓㄴㄹㅣㅂ -2554
▁ㅂㅜㄱㄷㅗㅇ -2555
▁ㅁㅕㄹㅁㅏㅇ -2556
ㄷㅡㄹㅇㅕ -2557
▁1975 -2558
ㄹㅡㅁㄷㅏ -2559
ㅍㅏㄹ -2560
▁ㅎㅝㄹㅆㅣㄴ -2561
ㅇㅣㅇ -2562
▁ㅂㅗㄴㅇㅣㄴ -2563
op -2564
▁ㅈㅣㅂㅇㅏㄴ -2565
▁ㅊㅜㄹㅈㅏㅇ -2566
▁ㅅㅡㄹㄹㅗ -2567
▁ㅉㅣㄱ -2568
▁ㅈㅣㄴㄷㅏ -2569
▁ㅈㅣㄴㅈㅜ -2570
ag -2571
▁ㅈㅓㄴㄱㅗㅇ -2572
▁ㅇㅔㄱㅅㅡ -2573
▁ㅎㅡㅂㅅㅜ -2574
▁ㅅㅓㄴㄱㅛ -2575
▁ㅅㅗㄱㅎㅏㄴㄷㅏ -2576
▁ㄴㅗㄴㅇㅢ -2577
▁ㅎㅏㄴㅈㅏ -2578
▁ㄱㅏㄹㄷㅡㅇ -2579
▁ㅇㅕㄴㅎㅏㅂㄱㅜㄴ -2580
ㅍㅡㄹㄹㅔ -2581
▁ㅊㅜㄱㅈㅔ -2582
▁ㅇㅣㄴㅈㅗㅇ -2583
▁1978 -2584
▁ㅇㅣㄴㄱㅏ -2585
▁ㅂㅏㄴㅂㅗㄱ -2586
▁56 -2587
▁ㅁㅗㄱㅅㅏ -2588
▁ㅊㅓㅇㅈㅜ -2589
▁ㄱㅜㄱㅈㅏㅇ -2590
ㅊㅓㅂ -2591
▁ㅇㅏㅍㅅㅓ -2592
▁1963 -2593
▁ㅇㅝㄴㄹㅣ -2594
▁ㅂㅜㄱㅇㅏ -2595
▁1971 -2596
▁ㅃㅗㅂ -2597
▁ㅅㅕ -2598
▁ㄴㅗㄴㅈㅐㅇ -2599
ㅁㅍㅡ -2600
▁ㅇㅕㄴㄱㅘㄴ -2601
▁ㅅㅣㄴㅊㅔ -2602
▁ㅂㅗㄴㅅㅏ -2603
▁ㅇㅟㄹ -2604
▁52 -2605
▁ㅁㅕㅇㅅㅓㅇ -2606
▁ㅎㅏㄴㄱㅜㄱㅇㅓ -2607
▁65 -2608
▁ㅂㅕ -2609
▁ㅅㅐㅇㄱㅕ -2610
▁00 -2611
▁ㅈㅜㅇㄷㅐ -2612
ㅅㅓㅇㄱㅜㄴ -2613
▁ㅎㅘㄹㅅㅓㅇ -2614
▁ㄴㅣㄴ -2615
ㄸㅓㅎㄱㅔ -2616
▁ㅎㅘㄹㅂㅏㄹ -2617
▁ㅊㅜㄹㅁㅏ -2618
▁ㅊㅗㅇㄷㅗㄱ -2619
▁ㅂㅓㅅㅇㅓ -2620
ce -2621
▁ㄱㅜㄱㅁㅜ -2622
▁Q -2623
▁49 -2624
▁ㅎㅏㄱㅅㅡㅂ -2625
ㅈㅔㄹㄹㅔ -2626
▁ㄱㅘㄴㅈㅣㄱ -2627
▁ㄹㅛ -2628
ㄱㅗㅇㅎㅏㅇ -2629
▁ㅊㅓㄴㅊㅔ -2630
▁ㅂㅜㄴㅈㅐㅇ -2631
▁ㅁㅏㅈㅊㅜ -2632
OS -2633
▁ㅊㅜㅇㅊㅓㅇㅂㅜㄱㄷㅗ -2634
▁ㅇㅕㄴㅈㅐ -2635
▁ㅁㅏㄹㄹㅔ -2636
▁ㅁㅕㅇㅁㅕㅇ -2637
▁ㅇㅕㄴㄹㅛ -2638
▁1969 -2639
ㅂㅕㅇㄷㅐ -2640
▁ㅂㅜㄹㅅㅏㅇ -2641
▁ㄴㅔㅅ -2642
▁179 -2643
ㅅㅓㅇㅇㅝㄴ -2644
ㅅㅣㄱㅎㅚ -2645
▁ㅈㅓㅂㅎㅏ -2646
▁ㄴㅗㅇㅁㅣㄴ -2647
ㅅㅡㄹㄹㅏ -2648
▁ㅋㅗㄴㅅㅡ -2649
▁ㅇㅕㅇㅇㅓㅂ -2650
▁ㅇㅣㄹㅊㅣ -2651
▁ㅈㅏㅇㅇㅏㄱ -2652
▁ㅎㅏㄱㅅㅜㄹ -2653
▁ㅎㅏㅇㄱㅗㅇㄱㅣ -2654
▁ㅈㅓㄴㅂㅜ -2655
▁ㄷㅗㅇㅇㅝㄴ -2656
▁1946 -2657
▁ㄱㅕㄴㅎㅐ -2658
▁ㅈㅣㄴㅂㅗ -2659
▁ㅅㅓㅇㄴㅡㅇ -2660
oc -2661
▁53 -2662
▁ㅇㅝㄴㅅㅜ -2663
ㄴㅗㅎ -2664
▁ㅇㅜㄴㅈㅓㄴ -2665
▁ㄱㅏㄹㄹㅏ -2666
▁ㅋㅠ -2667
▁ㅂㅜㄹㅂㅓㅂ -2668
ri -2669
▁1964 -2670
▁ㅂㅏㅇㅅㅏ -2671
ㅈㅓㅇㅅㅣㄱ -2672
▁ㅈㅣㄱㅈㅓㄴ -2673
▁and -2674
▁ㅇㅏㄴㅌㅏ -2675
▁ㅇㅣㄹㄷㅐ -2676
▁ㅈㅏㅇㄱㅛ -2677
▁ㅅㅣㄴㅅㅓㅇ -2678
▁US -2679
ㄷㅡㄹㅇㅣ -2680
▁ㅂㅐㄱㅈㅏㄱ -2681
▁ㅈㅓㅇㅊㅔ -2682
ㅃㅏ -2683
▁ㅈㅓㅇㅇㅝㄴ -2684
▁ㅈㅣㄱㅇㅓㅂ -2685
▁ㅈㅜㄱㅇㅣ -2686
ㄴㅗㅇ -2687
▁ㅂㅏㄱㅈㅓㅇ -2688
▁ㄱㅏㄴㄷㅏㄴ -2689
▁ㅍㅗㄱㄹㅕㄱ -2690
▁ㅈㅗㅂ -2691
▁ㅎㅏㄱㅂㅜ -2692
▁ㅂㅔㄹㄱㅣ -2693
▁ㅇㅣㅁㄱㅡㅁ -2694
▁ㅂㅕㄴㅎㅘㄴ -2695
▁58 -2696
▁ㅋㅗㄴㅅㅓ -2697
▁ㅂㅐㄱㅈㅔ -2698
ㅊㅓㄴㄱㅜㄴ -2699
▁ㄱㅘㄴㅈㅓㅁ -2700
▁ㅂㅏㄴㅇㅕㅇ -2701
ㅁㅂㅣ -2702
▁PC -2703
ㅅㅗㄹ -2704
▁ㅎㅏㄱㅎㅚ -2705
▁ㅅㅏㅇㄷㅏㅇㅎㅣ -2706
▁ㄹㅏㄱ -2707
▁ㅊㅓㄹㅅㅜ -2708
▁ㅎㅏㄱㅇㅝㄴ -2709
▁ㅈㅓㄴㅍㅏ -2710
▁ㅍㅣㅇ -2711
▁ㅅㅣㄱㅍㅜㅁ -2712
▁ㅁㅣㄴㅂㅓㅂ -2713
▁ㅎㅗㄴㄹㅏㄴ -2714
▁ㅇㅣㅁㅇㅢ -2715
▁ㅋㅐㅁㅍㅓ -2716
▁ㅈㅓㅇㅈㅣ -2717
▁ㅇㅡㅇㅇㅛㅇ -2718
▁ㅎㅏㅇㄱㅜ -2719
▁1977 -2720
▁ㅈㅏㄱㅅㅏ -2721
ㄹㅠㄴ -2722
▁ㅊㅏㅇㄷㅏㄴ -2723
▁ㅍㅕㄴㅈㅣ -2724
▁ㅈㅓㄴㅁㅜㄴㄱㅏ -2725
ㅈㅜㄴㄷㅏ -2726
▁ㅂㅏㄲㅇㅔ -2727
igh -2728
▁ㄱㅗㅇㅌㅗㅇ -2729
▁ㅊㅣㄴㅇㅣㄹ -2730
▁ㅅㅏㄹㅇㅣㄴ -2731
▁ㅅㅡㅇㅈㅣㄴ -2732
▁ㅇㅏㄹㄹㅔ -2733
▁ㅎㅕㅂㅇㅢ -2734
▁ㅇㅏㄹㄹㅔㄱㅅㅏㄴㄷㅡ -2735
▁ㅂㅏㅇㅅㅗㅇㄱㅜㄱ -2736
▁ㅎㅚㅇ -2737
ㅇㅐㄴㅈㅔㄹㄹㅔ -2738
▁r -2739
▁ㄲㅗㄱ -2740
▁ㅁㅜㄴㅈㅏㅇ -2741
ㅋㅗㄹㄹㅏ -2742
▁88 -2743
▁1000 -2744
ation -2745
▁ㅂㅗㄱㅁㅜ -2746
▁ㅇㅑㄱㅅㅗㄱ -2747
▁ㅈㅣㄹㅂㅕㅇ -2748
▁ㅇㅏㄹㅇㅏ -2749
▁ㅇㅣㅁㄷㅐ -2750
ㅁㅣㄹㄹㅣ -2751
▁ㄱㅣㅁㅇㅕㅇ -2752
▁ㅅㅣㄴㅂㅜㄴ -2753
▁ㅌㅗㅇㅅㅏㅇ -2754
▁ㅎㅏㅂㄱㅕㄱ -2755
▁99 -2756
▁ㅅㅓㄴㅈㅗ -2757
▁ㅈㅏㅇㅅㅜ -2758
▁ㅈㅣㄴㅇㅣㅂ -2759
▁ㅋㅟ -2760
▁ㅍㅏㅂ -2761
▁ㄷㅗㅇㄴㅏㅁ -2762
▁1949 -2763
▁ㅁㅏㅇㅁㅕㅇ -2764
ㅊㅓㄴㅅㅣ -2765
▁ㅎㅏㄱㄱㅘ -2766
▁ㅁㅜㄴㅎㅓㄴ -2767
ㅈㅕㅆㅇㅡ -2768
▁ㄹㅗㅅㄷㅔ -2769
▁ㅊㅏㅁㅈㅓㄴ -2770
▁ㄹㅓㅆ -2771
▁1962 -2772
▁62 -2773
▁SK -2774
ㄴㅐㄹ -2775
▁ㅅㅣㅂㅈㅏ -2776
▁ㅈㅣㄴㅇㅏㅂ -2777
▁1967 -2778
▁FA -2779
▁ㄹㅐㄴ -2780
▁ㅂㅏㄴㅂㅏㄹ -2781
▁ㅎㅕㄴㅇㅕㄱ -2782
▁ㅌㅏㄴㅅㅗ -2783
▁ㄴㅏㅁㅅㅓ -2784
ㄴㅏㅂ -2785
▁ㄱㅗㅇㄷㅗㅇㅊㅔ -2786
▁ㅇㅕㅇㅎㅑㅇㄹㅕㄱ -2787
▁57 -2788
ㅈㅜㄱ -2789
▁ㄴㅗㅇㄱㅜ -2790
▁ㄷㅏㅇㅎㅏㄴ -2791
▁ㅊㅕ -2792
▁ㅂㅕㄴㅎㅕㅇ -2793
▁ㅅㅏㅇㄹㅠㄱ -2794
▁ㅅㅏㅇㅅㅡㅇ -2795
▁ㅈㅡㅇㅅㅏㅇ -2796
▁ㅈㅓㅇㄱㅣ -2797
▁ㄷㅗㅇㅈㅏㄱ -2798
▁ㅇㅕㄴㅊㅜㄹ -2799
▁ㅇㅕㄴㅇㅏㄴ -2800
▁ㅊㅏㄹㅅㅡ -2801
▁ㄱㅘㅇㅈㅏㅇ -2802
▁Ch -2803
▁ㅊㅜㄹㄱㅏㄴ -2804
ㅊㅝ -2805
▁ㅅㅏㅇㅇㅝㄴ -2806
▁ㅂㅡㄹㄹㅏ -2807
▁ㅎㅏㄴㅂㅏㄴㄷㅗ -2808
▁ㅊㅓㄴㅇㅕㄴ -2809
▁ㅇㅕㅇㅇㅣㅂ -2810
▁ㅌㅗㅁ -2811
ㄹㅏㅆ -2812
▁ㅅㅣㄹㅅㅜ -2813
▁ㅇㅣㅁㅈㅣㄴ -2814
ㅂㅏㅇㅅㅗㅇ -2815
▁ㄸㅢ -2816
▁You -2817
ㅋㅟ -2818
▁ㄹㅗㅇ -2819
▁ㅇㅣㄹㅅㅣㄱ -2820
▁ㅈㅕㅆㅇㅡ -2821
▁ㅂㅏㅇㅈㅓㅇㅅㅣㄱ -2822
ㅟㄴㄷㅏ -2823
▁ㅅㅐㅇㄱㅣㄴ -2824
▁KBO -2825
nd -2826
▁.. -2827
▁ㅈㅔㄴ -2828
▁ㅎㅠㅇ -2829
▁ㅎㅘㅇㄱㅡㅁ -2830
▁ㅌㅏㄹㅊㅜㄹ -2831
▁ㅈㅏㅇㄹㅡ -2832
▁ㄱㅡㄹㅈㅏ -2833
▁ㅂㅏㄴㄷㅡ -2834
▁ㅌㅏㄹㄹㅏㄱ -2835
ㅌㅣㄹ -2836
▁ㄷㅡㅇㅈㅣ -2837
▁ㅇㅐㅇ -2838
▁ㅅㅣㄴㅊㅓㅇ -2839
ㄹㅓㄴㄷㅔ -2840
ㅅㅡㅇㅁㅏㄴ -2841
▁ㅉㅗㅊ -2842
▁66 -2843
ㄷㅡㄹㅁㅗㄱ -2844
▁ㅅㅣㄴㅇㅣㄴ -2845
▁ㅌㅡㄱㅇㅣ -2846
▁ㄷㅗㄱㄹㅣㅂㅇㅜㄴㄷㅗㅇ -2847
▁181 -2848
▁ㄷㅗㅇㅅㅓㅇ -2849
▁ㅅㅐㅁ -2850
▁68 -2851
▁ㅇㅘㅇㅈㅏ -2852
▁ㅎㅕㄴㅈㅣ -2853
▁ㄹㅗㄹ -2854
▁ㅁㅏㄱㅂㅜ -2855
▁ㅂㅏㅇㅈㅣ -2856
▁1966 -2857
▁ㅂㅏㄹㅇㅓㄴ -2858
▁ㄴㅏㅁㄱㅕㅆ -2859
▁ㅊㅓㅇㄱㅜ -2860
▁ㅎㅗㅅ -2861
▁1965 -2862
▁ㄷㅏㄹㅎㅏ -2863
▁ㅉㅣ -2864
▁ㅂㅜㄴㅇㅕㄹ -2865
▁ㅍㅣㄱ -2866
▁ㄱㅏㅁㅅㅏ -2867
▁ㅈㅓㄹㅊㅏ -2868
ST -2869
▁ㅅㅓㄴㅈㅓㄴ -2870
ice -2871
▁ㅍㅏㄴㅅㅓ -2872
▁ㄷㅜㄹㅉㅐ -2873
▁ㅇㅣㄹㅂㅗㄴㄱㅜㄴ -2874
▁ㅌㅠ -2875
▁ㅍㅡㄹㄹㅐ -2876
▁ㄱㅏㄴㅎㅐㅇ -2877
▁ㅊㅓㄴㅈㅜ -2878
▁ㅋㅟㄴ -2879
▁ㅅㅐㅇㅈㅗㄴ -2880
▁61 -2881
▁ㄱㅕㅇㄹㅗ -2882
▁ㅈㅓㅇㅎㅐ -2883
▁ㄴㅗㄱㅅㅐㄱ -2884
▁ㅂㅜㄴㅎㅐ -2885
▁ㅂㅓㅁㅈㅜ -2886
▁ㅅㅗㄴㅈㅏ -2887
▁ㅂㅔㄱㅌㅓ -2888
▁%, -2889
▁ㄱㅏㄹㅅㅐㄱ -2890
ER -2891
▁ㄱㅗㅇㅈㅓㅇ -2892
▁ㅂㅓㅂㅈㅓㅇ -2893
▁ㄹㅏㅁ -2894
▁ㅎㅡㄱㅇㅣㄴ -2895
▁183 -2896
▁ㅇㅣㅂㄴㅣ -2897
▁ㅅㅓㄴㅂㅗ -2898
▁ㅈㅓㄴㅎㅕㅇ -2899
▁ㅈㅓㄴㅁㅕㄴ -2900
▁IS -2901
▁ㅅㅏㅂ -2902
art -2903
ON -2904
▁ㅁㅜㄹㅊㅔ -2905
▁ㅂㅣㄱㅌㅗ -2906
▁ㄷㅗㄱㅌㅡㄱ -2907
▁ㅂㅏㅂ -2908
ㅈㅣㄹㄹㅐㄴㄷㅡ -2909
ㄷㅡㅂ -2910
▁1961 -2911
▁ㄹㅟ -2912
▁ㄴㅓㄼㅇㅣ -2913
▁ㅂㅕㄹㅁㅕㅇ -2914
▁ㅈㅜㅇㄱㅣ -2915
▁ㅂㅜㄴㄱㅣ -2916
▁ㅇㅘㄴㄹㅛ -2917
▁re -2918
▁ㅁㅜㄲ -2919
▁ㅇㅘㄴㄱㅗㅇ -2920
ㅇㅟㄴ -2921
▁ㅇㅏㅂㄹㅕㄱ -2922
▁ㅁㅓㄱㅇㅣ -2923
▁ㅇㅣㄹㅉㅣㄱ -2924
ㅎㅕㅇㅁㅜㄴㅎㅘ -2925
ㅁㅓㄴㅌㅡ -2926
▁ㅂㅜㄴㅎㅏㄹ -2927
▁ㄷㅓㅅ -2928
ㄴㅣㄹ -2929
▁ㅅㅜㄴㅎㅘㄴ -2930
▁ㅁㅜㄱ -2931
ia -2932
▁86 -2933
▁ㄴㅡㅈ -2934
▁ㅂㅗㄱㅈㅣ -2935
▁ㅋㅡㄹㄹㅗ -2936
▁ㅌㅗㅂ -2937
▁ㅇㅜㅇ -2938
▁800 -2939
est -2940
▁600 -2941
▁ㄱㅣㅁㅇㅣㄹ -2942
▁ㅊㅏㅇㅇㅝㄴ -2943
▁ㅋㅐㄴ -2944
ap -2945
▁ㅍㅜㅇㅂㅜ -2946
▁ㄴㅡㄴㄱㅏ -2947
ㅌㅔㄴㅊㅡ -2948
▁ㅂㅏㄺㅎㅣ -2949
▁120 -2950
▁ㅇㅏㄹㅍㅏ -2951
ㅌㅡㄹㄹㅓ -2952
▁ㅅㅣㄴㄹㅚ -2953
▁ㅅㅕㄴ -2954
▁ㄴㅣㅅ -2955
▁ㄲㅡㅌㄴㅏ -2956
▁ㅇㅐㄴㄷㅡ -2957
▁ㅇㅗㄹㄹㅕ -2958
▁ㄴㅏㄹㄱㅐ -2959
ak -2960
▁ㅈㅜㄹㅇㅓ -2961
ㄹㅐㅇ -2962
ㅂㅣㅊ -2963
▁ㅁㅗㄱㅅㅗ -2964
▁ㅇㅣㄴㅈㅓㅂ -2965
▁ㄲㅓㄲ -2966
▁ㅅㅣㄹㅈㅣㄹ -2967
▁ㅁㅏㅈㅇㅣ -2968
ㅅㅣㄹㅅㅏㅇ -2969
ㅉㅣ -2970
AR -2971
ㅇㅡㄴㅎㅐㅇ -2972
ㅅㅣㄴㄱㅛ -2973
▁ㅂㅗㅇㅎㅐ -2974
ㅋㅜㄹ -2975
▁ㅂㅜㄴㅁㅕㅇ -2976
▁ㅍㅕㄴㅊㅏㄴ -2977
▁ㄲㅡㅌㄴㅏㄴ -2978
▁ㅈㅓㄴㅇㅝㄴ -2979
⊸⊸ -2980
▁ㅎㅏㄴㅈㅓㅇ -2981
▁98 -2982
ㄲㅡㅁ -2983
▁ㅎㅘㄱㅅㅏㄴ -2984
TV -2985
▁ㅊㅜㄹㅂㅓㅁ -2986
ㄹㅠㅇ -2987
▁ㅅㅏㅇㅇㅟ -2988
▁ㄷㅗㅇㄱㅣ -2989
▁ㅋㅡㄹㄹㅣ -2990
ct -2991
▁1919 -2992
▁63 -2993
▁ㅆㅡㄹ -2994
▁ㅇㅣㄴㅈㅡㅇ -2995
▁1944 -2996
▁ㅍㅕㅇㄷㅡㅇ -2997
▁ㅂㅗㄱㅅㅜ -2998
▁ㅌㅏㅁㅅㅏ -2999
▁ㅇㅣㄹㅂㅗㄴㅇㅣㄴ -3000
▁ㅁㅕㅇㄴㅏ -3001
▁ㅎㅐㅇㄹㅕㄹ -3002
ㅇㅕㄴㅎㅣ -3003
▁ㄷㅗㅇㅅㅓ -3004
▁ㅇㅕㄴㄱㅏㄴ -3005
▁ㅈㅣㅂㄱㅝㄴ -3006
▁ㄱㅘㄱ -3007
▁ㅅㅓㅇㅎㅑㅇ -3008
▁ㄴㅕ -3009
▁ㅂㅏㅇㅎㅐ -3010
▁ㅇㅓㅁㅊㅓㅇ -3011
▁ㅂㅕㄴㅅㅜ -3012
▁ㅁㅕㅇㅎㅘㄱ -3013
▁ㅍㅏㄴㅅㅏ -3014
▁ㅂㅏㄹㄱㅜㄹ -3015
▁ㄱㅗㅇㄹㅗ -3016
▁95 -3017
▁IC -3018
▁ㄱㅕㅇㅈㅓㄴ -3019
▁ㄱㅘㅇㅂㅗㄱ -3020
▁;/ -3021
▁ㅅㅓㅇㅂㅜㄴ -3022
▁1941 -3023
ㅁㅣㄴㅈㅜ -3024
▁ㅎㅜㅅ -3025
▁ㄱㅏㄹㄹㅣ -3026
▁59 -3027
▁ㄱㅡㄴㅂㅗㄴ -3028
ㄴㅕㄱ -3029
▁ㅎㅑㅇㅎㅏ -3030
▁ㅂㅘ -3031
ㅋㅓㅁ -3032
ㅇㅙ -3033
og -3034
▁ㄷㅏㅇㅊㅗ -3035
▁ㅌㅡㄱㅂㅕㄹㅅㅣ -3036
▁ㅇㅜㅁㅈㅣㄱㅇㅣㅁ -3037
▁74 -3038
▁ㄱㅗㄹㄷㅡㄴ -3039
▁ㅇㅕㅇㅇㅜㅇ -3040
▁82 -3041
ㅍㅗㄹㄹㅔ -3042
▁ㅌㅗㅇㅅㅏㄴ -3043
▁ㄷㅏㄴㄷㅗㄱ -3044
▁ㅎㅘㄱㄹㅠㄹ -3045
▁ㅉㅡ -3046
ul -3047
ㅇㅝㄴㅅㅜ -3048
▁ㅎㅗㅇㅂㅗ -3049
▁178 -3050
▁ㄱㅏㄱㅈㅣ -3051
▁ㅎㅏㄴㄱㅖ -3052
ㄹㅗㅁ -3053
▁to -3054
▁ㅁㅜㄴㅁㅕㅇ -3055
▁1958 -3056
▁ㅎㅡㄹㄹㅓ -3057
▁ㅊㅜㅇㄱㅕㄱ -3058
ㅍㅡㄹㄹㅣ -3059
ㄴㅛ -3060
▁ㅌㅔㄱㅅㅏ -3061
▁ㅈㅓㄱㅈㅓㄹ -3062
▁ㄷㅗㅇㅎㅐ -3063
ㄹㅏㄴㅅㅣ -3064
ㅂㅗㅅ -3065
▁ㅇㅏㄴㄷㅗㅇ -3066
▁ㅊㅜㄹㄹㅕㄱ -3067
▁ㅇㅣㅂㄹㅕㄱ -3068
▁ㅈㅜㄹㄱㅣ -3069
ㄴㅓㅁ -3070
▁ㄹㅐㄴㄷㅡ -3071
▁1947 -3072
▁DNA -3073
▁SS -3074
▁76 -3075
▁ㅇㅗㄹㅎㅐ -3076
▁ㅈㅓㅁㅈㅓㅁ -3077
▁ㅎㅏㄴㄱㅜㄱㅇㅣㄴ -3078
▁ㄱㅗㅇㅎㅓㄴ -3079
▁ㅎㅗㄴㅎㅏㅂ -3080
▁ㅇㅣㅁㄱㅣ -3081
▁ㅇㅏㄱㅎㅘ -3082
▁ㄲㅗㅂ -3083
▁ㄷㅗㅇㅁㅕㅇ -3084
▁ㅎㅑㅇㅎㅐ -3085
▁1956 -3086
▁72 -3087
▁ㅎㅏㅂㅊㅕ -3088
ㅋㅡㄹㄹㅔ -3089
ㅊㅣㅁㄴㅐ -3090
▁ㅈㅓㅇㅎㅏ -3091
▁ㅇㅝㄴㅎㅕㅇ -3092
▁ㅎㅏㄱㅅㅏㄹ -3093
▁ㅅㅗㄱㅎㅏㄴ -3094
▁ㅇㅑㅇㅉㅗㄱ -3095
▁ㅅㅜㄴㅅㅜ -3096
▁ㅈㅏㄱㅇㅟ -3097
ie -3098
▁ㄱㅕㅇㄴㅏㅁ -3099
▁ㅂㅣㄹㄹㅣ -3100
▁ㅅㅡㅇㄱㅐㄱ -3101
▁ㅈㅣㅇㅇㅕㄱ -3102
ud -3103
▁ㅎㅜㄹ -3104
▁77 -3105
ㅋㅗㅁ -3106
ㅇㅑㅇㅇㅣ -3107
▁ㄴㅏㅆ -3108
▁ㅂㅏㅇㅇㅟ -3109
▁ㅅㅣㅁㅅㅏ -3110
▁ㅈㅓㅂㅊㅗㄱ -3111
▁ㅈㅓㅇㅅㅜ -3112
▁ㄷㅏㄴㅍㅕㄴ -3113
▁ㅂㅠ -3114
ㅇㅣㄹㅅㅡ -3115
▁ㅎㅏㅁㄹㅏㄱ -3116
ㄴㅕㅆ -3117
ly -3118
ㄹㅣㄴㅅㅡ -3119
▁ㅅㅔㄴㅌㅡ -3120
▁67 -3121
ㅅㅔㅂ -3122
▁160 -3123
▁AFC -3124
▁ㄱㅏㅁㅅㅣ -3125
▁ㅂㅜㄴㅇㅟ -3126
▁ㅇㅏㄱㄱㅣ -3127
th -3128
▁ㅋㅗㅁ -3129
▁ㅇㅣㅂㅂㅓㅂ -3130
▁ㅎㅏㄴㄱㅡㄹ -3131
▁ㅍㅐㅇ -3132
▁ㅈㅏㅁㅅㅜ -3133
▁ㄷㅏㅇㄴㅏ -3134
ㅅㅔㅁ -3135
ㄹㅐㅅㄷㅗㅇㅇㅏㄴ -3136
▁ㅅㅣㄹㅎㅕㄴ -3137
▁Th -3138
▁ㅂㅐㄱㅅㅓㅇ -3139
▁Lo -3140
▁ㄱㅗㅂ -3141
▁ㄱㅜㄱㄱㅣ -3142
▁ㅎㅜㅅㄴㅏㄹ -3143
▁ㅊㅜㅁ -3144
▁ㅊㅏㅁㄱㅗ -3145
▁ㅂㅗㄱㅇㅝㄴ -3146
▁ㅇㅘㅇㅅㅣㄹ -3147
▁1939 -3148
ㅅㅣㄱㅈㅣ -3149
▁ㅂㅕㅇㅎㅏㅂ -3150
▁ㅆㅏㄹ -3151
ight -3152
▁ㅇㅏㅁㅎㅗ -3153
▁ㄷㅡㅇㅍㅏㄴ -3154
ist -3155
▁ㅈㅣㄴㅈㅓㅇ -3156
▁ㅇㅓㄴㅈㅔ -3157
▁ㅎㅜㄴㅈㅏㅇ -3158
▁ㅂㅏㄹㅂㅏㄹ -3159
▁85 -3160
ㅎㅡㅂ -3161
▁ㄷㅗㄱㅇㅣㄹㄱㅜㄴ -3162
▁* -3163
▁ㅇㅣㅁㅈㅣㄴㅇㅙ -3164
AS -3165
▁ㅅㅣㄴㅂㅜ -3166
▁1954 -3167
ㄲㅏㅌ -3168
▁ㅍㅗㄱㅌㅏㄴ -3169
▁ㅅㅓㄲ -3170
▁ㅇㅣㄴㅅㅙ -3171
▁ㅁㅓㄹㄹㅣ -3172
▁ㅍㅕㅇㅇㅏㄴ -3173
ㅁㅓㄱ -3174
▁ㄱㅠㄴㅎㅕㅇ -3175
▁ㅍㅕㄹㅊㅕ -3176
▁ㅂㅏㄹㅇㅡㅁ -3177
ㄴㅗㄹ -3178
▁ㅇㅕㅇㅈㅣ -3179
▁ㅅㅏㅇㅇㅕㄱ -3180
▁ㅅㅓㄱㅇㅠ -3181
▁ㅇㅏㄴㅌㅗ -3182
▁ㅈㅓㅁㅅㅜ -3183
ㄴㅣㅅ -3184
▁ㅅㅜㄴㄱㅏㄴ -3185
▁ㅇㅕㄴㅇㅖ -3186
▁73 -3187
ㄴㅟㄴㄷㅏ -3188
▁ㄷㅗㅇㅇㅑㅇ -3189
▁ㄱㅡㅂㅈㅔ -3190
▁ㅂㅣㄹㅂㅗ -3191
▁ㅇㅣㄹㅈㅏ -3192
ㄹㅡㄹㄹㅗ -3193
ㄸㅏ -3194
▁ㅌㅓㄴ -3195
AT -3196
▁ㄱㅣㅅ -3197
▁1952 -3198
▁ㅅㅏㅇㅈㅜ -3199
▁ㅇㅣㄹㅅㅏㅇ -3200
ㄴㅕㅁㅁㅜㄹ -3201
▁ㅅㅏㄴㅎㅘ -3202
▁ㅊㅏㅁㅁㅗ -3203
▁ㅊㅣㅁㄹㅑㄱ -3204
▁ㅇㅣㄹㅅㅣ -3205
▁202 -3206
ㄷㅜㄹ -3207
▁ㅎㅘㄱㄹㅣㅂ -3208
▁ㅎㅣㄴ -3209
▁ㅊㅣㅁㅇㅣㅂ -3210
▁ㄱㅕㅂ -3211
▁ㅁㅜㄴㅅㅣㄴ -3212
▁ㄱㅝㄴㅇㅟ -3213
ㄹㄹㅓㄴ -3214
ㄱㅝㄹ -3215
▁ㅂㅗㄱㅇㅡㅁ -3216
ㅁㅓㅇ -3217
▁ㄱㅗㅇㅈㅜㅇ -3218
▁78 -3219
▁ㅇㅏㄵ -3220
▁ㅁㅣㄴㅈㅜㅇ -3221
▁81 -3222
▁96 -3223
▁ㅊㅏㅇㅈㅏㄱ -3224
▁ㅈㅓㄴㅅㅣㄴ -3225
▁Al -3226
▁ㅈㅏㅇㄴㅏㅁ -3227
ess -3228
▁ㅂㅏㄱㅈㅓㅇㅎㅢ -3229
ㅍㅣㄹㄷㅓ -3230
▁ㅎㅕㄱㅅㅣㄴ -3231
▁ㅅㅡㅇㅂㅜ -3232
▁ㅅㅣㄴㅈㅏ -3233
▁DV -3234
▁ㄷㅏㅇㄱㅜㄱ -3235
▁ㅂㅣㄹㄷㅣㅇ -3236
ㅋㅡㄹㄹㅣ -3237
▁NH -3238
▁ㅈㅓㄴㅈㅣㄱ -3239
▁\ -3240
▁ㅈㅗㅇㅅㅏ -3241
▁ㅇㅏㄹㅂㅏ -3242
▁ㅇㅜㅁㅈㅣㄱㅇㅣ -3243
▁ㅊㅗㅇㅎㅚ -3244
▁ㅎㅗㅅㅋㅏ -3245
ㅎㅐㅇㄱㅣ -3246
▁71 -3247
▁Li -3248
▁1959 -3249
▁ㄷㅗㅇㅂㅏㅇ -3250
▁ㅂㅗㄴㅈㅣㄹ -3251
▁ㄹㅕㄱ -3252
▁ㅊㅓㄴㅇㅏㄴ -3253
▁ㄱㅡㅇ -3254
▁ㅅㅣㄴㄱㅗ -3255
▁ㅍㅕㅇㄹㅗㄴ -3256
▁ㅎㅘㅇㅎㅜ -3257
▁ㅈㅓㄴㄴㅏㅁ -3258
▁st -3259
▁AT -3260
ㅇㅣㄴㅁㅜㄹ -3261
▁91 -3262
ㅅㅏㄴㄱㅘㅇㅇㅕㄱㅅㅣ -3263
▁ㅁㅟㄴ -3264
▁ㅇㅐㄱㅅㅕㄴ -3265
▁ㅂㅓㄹㅇㅕㅆ -3266
▁ㅈㅜㅇㄹㅕㄱ -3267
▁177 -3268
▁ㅇㅟㅅ -3269
BA -3270
ㅇㅛㅇㅈㅏ -3271
▁ㅌㅏㄹㅌㅚ -3272
▁ㅎㅐㅇㅂㅗㄱ -3273
▁ㅂㅐㄴ -3274
▁ㅈㅗㅎㅇㅏ -3275
▁ㅇㅗㄻㄱㅕㅆ -3276
ub -3277
▁ㄷㅗㅂ -3278
▁ㅅㅡㅇㄹㅕ -3279
ㅅㅏㄴㅁㅜㄹ -3280
▁ㅈㅓㄹㅂㅏㄴ -3281
▁ㅈㅣㄴㄷㅏㄴ -3282
ㄹㄹㅣㄴ -3283
▁ㅈㅣㄹㅎㅘㄴ -3284
ㅖㄴ -3285
▁ㅅㅐㅇㅁㅜㄹㅎㅏㄱ -3286
▁ㄱㅗㄹㄷㅡ -3287
▁ㅅㅣㄹㄹㅕㄱ -3288
▁ㅇㅣㄴㅇㅛㅇ -3289
▁ㅅㅣㄴㅅㅏ -3290
▁ㅇㅣㄹㅋㅓ -3291
▁ㅇㅣㄹㅋㅓㄷ -3292
▁AP -3293
▁ㄱㅜㄱㄱㅜㄴ -3294
▁1942 -3295
▁ㅂㅐㄱㅁㅏㄴ -3296
▁ㅇㅘㅇㅎㅜ -3297
▁ㅅㅗㄴㅅㅏㅇ -3298
ㄹㅔㅁ -3299
▁87 -3300
▁ㅈㅓㅇㅊㅏ -3301
ㄲㅏㅂ -3302
▁ㄷㅓㄹ -3303
ㅅㅔㄹㄹㅗ -3304
▁ㅈㅏㄱㄷㅗㅇ -3305
▁ㅅㅣㅇㄱㅏ -3306
▁ㅇㅕㅇㅈㅜ -3307
▁ㅅㅏㅇㄱㅘㄴ -3308
▁ㅅㅏㄴㅅㅗ -3309
ㅌㅐㄴ -3310
▁ㅇㅣㄹㅂㅗㄴㅇㅓ -3311
▁159 -3312
▁ㅅㅣㅁㅈㅏㅇ -3313
▁ㅇㅣㄴㅅㅐㅇ -3314
▁ㅎㅗㄴㅇㅣㄴ -3315
▁ㅇㅑㄱㅁㅜㄹ -3316
ab -3317
ㅇㅓㅂㅈㅏ -3318
▁ㅅㅣㅁㅈㅣ -3319
▁ㅍㅠ -3320
▁1955 -3321
ㅅㅏㄱ -3322
▁ㅇㅘㅇㅂㅣ -3323
▁ㄱㅘㄴㅇㅕ -3324
▁ㅇㅝㄴㄴㅕㄴ -3325
▁1953 -3326
ㅅㅜㄹㄱㅘㄴ -3327
▁ㅇㅏㄹㄱㅗ -3328
▁84 -3329
▁ㅈㅓㄴㄷㅗㅇㅊㅏ -3330
IA -3331
▁1943 -3332
▁1936 -3333
▁ㄱㅣㅁㅅㅓㅇ -3334
▁ㄷㅡㅅㅇㅣ -3335
▁ㅅㅓㄴㅂㅏㄱ -3336
▁ㅇㅕㄱㅎㅏㄱ -3337
▁ㅅㅓㄴㅇㅣㅁ -3338
▁ㅂㅓㅂㅁㅜ -3339
IV -3340
ㄲㅓ -3341
ㄲㅣㅁ -3342
▁ㅌㅗㅇㅎㅘ -3343
ew -3344
ine -3345
▁ㄱㅏㅇㄹㅡㅇ -3346
▁ㅂㅗㄴㅁㅕㅇ -3347
▁ㅍㅣㄹㄷㅡ -3348
▁=" -3349
▁700 -3350
▁ㅊㅗㅇㅈㅏㅇ -3351
▁ㅂㅏㄹㅌㅏㄱ -3352
▁ㅎㅣㅂ -3353
ㅈㅣㄱㅈㅏ -3354
ㄷㅗㄱㅂㅜ -3355
▁ㅈㅓㄱㅎㅏㅂ -3356
▁ㅈㅓㄴㅂㅜㄱ -3357
ㅌㅏㄴㅌㅣ -3358
▁ㄱㅣㅁㄷㅐ -3359
▁ㄱㅣㅁㅇㅣㄹㅅㅓㅇ -3360
ㅅㅡㄹㄹㅓ -3361
▁ㅇㅣㄹㅊㅔ -3362
ㅅㄱㅏ -3363
▁ㄱㅜㄱㅈㅓㅇ -3364
▁ㄱㅕㄹㅇㅢ -3365
ㅇㅖㄴ -3366
ㄹㅏㄴㅅㅐㄱ -3367
▁1910 -3368
▁ㅎㅏㄱㅅㅏ -3369
ㄹㅗㄴㅌㅗ -3370
▁ㅅㅗㄱㅎㅐ -3371
▁Re -3372
▁ㅇㅡㅁㅇㅏㄱㄱㅏ -3373
▁ㄷㅡㄱㅍㅛ -3374
▁ㅈㅓㄴㄷㅏㅇ -3375
▁ㅂㅓㄹㅇㅣ -3376
▁ㅇㅕㄴㅅㅡㅂ -3377
▁ㅇㅡㅁㅅㅓㅇ -3378
▁ㅅㅣㅁㅍㅏㄴ -3379
▁1957 -3380
▁ㄷㅣㄴ -3381
▁ㅅㅏㅇㅅㅣㄹ -3382
▁ㄱㅓㅁㅌㅗ -3383
ㅈㅣㅁ -3384
▁ㅇㅣㄹㄱㅣ -3385
▁ㅊㅏㅇㄷㅏㅇ -3386
▁ㄷㅏㄷ -3387
▁ㄱㅣㅁㅈㅗㅇ -3388
ㅇㅞㄹ -3389
ㅇㅓㄴㅅㅣㅂ -3390
▁1914 -3391
▁ㅂㅗㄴㄷㅏ -3392
▁69 -3393
ㅊㅣㄴㄷㅏ -3394
ue -3395
▁ㄲㅔ -3396
▁ㅂㅜㄹㅁㅏㄴ -3397
▁ㅈㅓㄴㅅㅗㅇ -3398
▁97 -3399
▁1900 -3400
▁ㅇㅓㄱㅈㅔ -3401
▁ㅋㅙ -3402
ㄹㅌㅡ -3403
▁ㅅㅐㅇㅌㅐ -3404
▁ㄱㅓㅁㅅㅐㄱ -3405
ㅅㅜㄹㄱㅏ -3406
ㅋㅔㅅㅁㅗㄴ -3407
▁{ -3408
▁HD -3409
▁ㅋㅗㄴㅌㅔㄴㅊㅡ -3410
EC -3411
▁ㄱㅜㅇㅈㅓㄴ -3412
▁ㅈㅗㄴㅅㅡ -3413
▁ㅅㅓㄱㅅㅏ -3414
ㅌㅣㅁ -3415
▁01 -3416
▁ㅂㅏㄹㅁㅕㅇ -3417
ㅇㅝㄴㄱㅕㅇ -3418
▁DVD -3419
ㅅㅓㄴㅊㅗㅇ -3420
▁ㅇㅕㄴㅍㅕㅇ -3421
▁;, -3422
▁ㅅㅣㄴㄷㅗ -3423
▁ㅇㅣㄱㅅㅡ -3424
▁ㄷㅗㅇㅂㅜㄱ -3425
▁ㄱㅕㄹㄹㅗㄴ -3426
▁92 -3427
▁ㅇㅕㅆㅇㅡㄹ -3428
▁ㅍㅗㄱㄱㅕㄱ -3429
▁ㅅㅓㄴㅎㅕㅇ -3430
▁ㅃㅓ -3431
▁ㅁㅏㅈㅅㅓ -3432
▁ㅈㅓㅂㅎㅏㄴㄷㅏ -3433
ㅆㅏㄴ -3434
▁ㅍㅜㅅ -3435
ㅅㅓㄴㅊㅗㅇㄷㅗㄱㅂㅜ -3436
▁ㄱㅣㅍㅇㅣ -3437
▁ㄲㅡㅌㄴㅐ -3438
▁1938 -3439
▁ㅈㅐㄱㅅㅡㄴ -3440
▁ㅅㅏㅇㅅㅗㄱ -3441
▁101 -3442
▁ㅂㅜㄴㄱㅛ -3443
▁ㅅㅓㄹㄷㅡㄱ -3444
▁ㄷㅓㅇ -3445
ㅈㅡㄹ -3446
BM -3447
▁ㅅㅣㄴㅈㅏㅇ -3448
▁ㄹㅏㄹ -3449
▁on -3450
▁ㅇㅜㅅ -3451
▁ㅂㅜㄴㄴㅗ -3452
▁ㅍㅣㄹㅅㅜ -3453
ㅂㅐㅁ -3454
▁ㅇㅓㅁㅊㅓㅇㄴㅏㄴ -3455
▁ㅍㅓㅇ -3456
▁ㅁㅣㄹㄹㅣ -3457
▁ㅅㅏㅇㅅㅜ -3458
ect -3459
▁ㅎㅐㅇㅎㅐ -3460
▁ㄷㅡㅇㅈㅏㅇㅇㅣㄴㅁㅜㄹ -3461
▁ㄱㅡㅇㅈㅓㅇ -3462
▁ㅇㅕㅇㅇㅑㅇ -3463
▁ㅈㅣㄴㅇㅕㅇ -3464
▁ㅎㅘㄴㅅㅡㅇ -3465
▁ㅎㅏㅅ -3466
▁ㅈㅡㄱㅅㅣ -3467
▁ㅊㅓㄴㅁㅏㄴ -3468
ㅊㅗㅇㄹㅣ -3469
▁ㅋㅞ -3470
▁ㄱㅘㅇㅂㅓㅁ -3471
ㄲㅏㄹ -3472
▁ㄱㅏㅂㅈㅏ -3473
▁ㅇㅟㅇ -3474
ㅍㅗㅁ -3475
▁ㅁㅏㄱㄷㅐ -3476
▁ㅋㅓㄴㅌㅡ -3477
▁ㅂㅏㅇㅇㅓㄴ -3478
▁ㅇㅓㄴㄷㅓㄱ -3479
▁1932 -3480
ㄱㅣㅁ -3481
▁1951 -3482
▁ㅇㅓㅂㅈㅓㄱ -3483
▁ㄱㅜㄷ -3484
ㅌㅣㄴㅇㅓ -3485
▁1918 -3486
▁ㅅㅣㅇㅇㅓ -3487
▁ㅇㅛㅇㅇㅣㄴ -3488
▁ㅇㅣㄴㅇㅝㄴ -3489
▁ㅂㅏㄴㅅㅏ -3490
▁ㅅㅓㅇㄴㅏㅁ -3491
▁89 -3492
▁ㅂㅡㄹㄹㅗㄱ -3493
▁ㅂㅜㄹㅇㅏㄴ -3494
ㅍㅐㄱ -3495
▁ㅇㅜㄴㅎㅏㅇ -3496
▁ㅋㅣㄹㄹㅗ -3497
▁ㅂㅏㄹㄱㅏㄴ -3498
▁ㅇㅕㄴㅅㅓㄹ -3499
▁ㄹㅓㅆㄷㅏ -3500
▁ㅇㅏㅁㅋㅓㅅ -3501
▁ㄴㅗㄹㄹㅏ -3502
▁ㅇㅕㄴㄹㅏㄱ -3503
▁ㄷㅗㄱㅈㅐ -3504
▁ㅇㅓㄴㅅㅡ -3505
▁ㅈㅜㅇㅊㅜ -3506
▁ㄴㅣㄱ -3507
▁ㅇㅗㄹㅅㅡ -3508
ㄱㅘㄱ -3509
▁1935 -3510
▁ㅎㅢㄴㅅㅐㄱ -3511
▁ㄷㅏㅇㅎㅐ -3512
▁1937 -3513
▁ㄱㅜㄱㅈㅓㄱ -3514
ㅅㅏㄴㅎㅘ -3515
▁ㄱㅐㄹ -3516
ㅂㅗㄴㅈㅜ -3517
▁ㅁㅜㄹㄱㅗ -3518
▁ㅊㅓㅂ -3519
ㅍㅔㄱㅌㅡ -3520
▁ㅈㅣㄴㄱㅕㄱ -3521
▁FM -3522
ㅌㅜㄴ -3523
▁ㅉㅏㄱ -3524
▁ㄱㅗㅇㅅㅣㄴ -3525
▁ㄱㅕㅇㅂㅣ -3526
ㄱㅗㅇㅅㅏ -3527
▁ㄱㅏㄱㄱㅜㄱ -3528
IN -3529
ore -3530
▁93 -3531
▁Be -3532
▁ㅋㅝ -3533
▁OS -3534
ㄴㅜㄴ -3535
▁ㅅㅏㄴㅈㅣ -3536
▁ㅍㅏㄹㄹㅔ -3537
▁182 -3538
▁ㅂㅣㅈ -3539
▁ㄷㅏㄹㄹㅕ -3540
▁ㅅㅏㅇㅇㅣㄴ -3541
▁ㅇㅣㄹㄹㅕㄴ -3542
▁ㅊㅣㅇㅎㅗ -3543
▁ㄱㅡㅂㄱㅕㄱ -3544
▁ㅁㅣㄹㄹㅕ -3545
▁ㅇㅠㄴㄹㅣ -3546
▁ㅅㅐㅇㄱㅕㅆ -3547
▁ㄸㅗㄱ -3548
▁ㄱㅗㄱㅅㅓㄴ -3549
▁ㅁㅟㄴㅎㅔㄴ -3550
▁ㅁㅕㄴㅇㅕㄱ -3551
▁ㅈㅣㄴㅎㅏㄱ -3552
▁ㅅㅣㄹㅊㅓㄴ -3553
▁ㅎㅏㅇㄱㅗㅇㅅㅏ -3554
▁ㅁㅗㄱㅅㅓㅇ -3555
▁ㅇㅘㄴㅂㅕㄱ -3556
▁ㅂㅐㄱㅇㅣㄴ -3557
ㄷㅗㅇㅅㅐㅇ -3558
▁ㅂㅏㄹㄹㅔ -3559
ㅅㅔㄴㅌㅡ -3560
▁ㅂㅓㅂㅎㅏㄱ -3561
▁ㄲㅡㄹㅇㅓ -3562
▁1928 -3563
▁94 -3564
▁ㅇㅑㅇㅅㅏㄴ -3565
▁ㅅㅗㄴㅅㅣㄹ -3566
▁ㄱㅓㅌ -3567
ㅁㅏㅇㅈㅏ -3568
▁ㄴㅏㅁㄴㅕ -3569
▁ㅂㅏㄴㅈㅣ -3570
▁ㅌㅏㅇ -3571
▁ㅂㅜㄴㅎㅘ -3572
▁ㄱㅘㅇㅂㅓㅁㅇㅟ -3573
▁ㅈㅓㄴㅅㅜㄹ -3574
▁ㄱㅘㄴㅎㅐ -3575
▁ㅋㅜㄹ -3576
our -3577
ㅅㅜㅁ -3578
ㅂㅔㄴㅌㅡ -3579
▁ㅁㅜㄹㄱㅓㄴ -3580
▁ㅇㅣㄹㄹㅣ -3581
ㄴㅣㄱㅅㅡ -3582
▁ㄷㅗㅇㄱㅕㅇ -3583
end -3584
▁1933 -3585
▁ㄱㅏㅇㄴㅏㅁ -3586
▁CP -3587
▁ㅍㅐㄱ -3588
▁ㅂㅕㄴㅎㅏ -3589
▁1924 -3590
ell -3591
▁ㅌㅣㄴ -3592
▁ㅈㅣㄹㅁㅜㄴ -3593
▁ㄷㅗㅇㅎㅘ -3594
▁ㄱㅕㅇㅅㅏ -3595
▁ㅊㅏㄴㅅㅓㅇ -3596
ㅍㅏㄴㅅㅗ -3597
▁ㅌㅜㄹ -3598
ㄴㅓㄴ -3599
▁ㅅㅓㄴㅍㅗ -3600
▁ㄷㅏㅇㅇㅝㄴ -3601
▁ㄱㅕㄱㅍㅏ -3602
▁ㄷㅗㄹㄹㅕ -3603
▁ㅊㅣㄹㄹㅔ -3604
▁79 -3605
ㅇㅏㅆ -3606
ㅌㅗㅂ -3607
ㄴㅐㅆㅇㅡ -3608
ㄴㅔㄹ -3609
ㅅㅡㄹㄹㅣㅇ -3610
▁ㅃㅕ -3611
▁ㄱㅓㄹㄹㅣ -3612
ain -3613
▁ㅇㅕㄹㅁㅐ -3614
▁ㅈㅣㅂㅎㅚ -3615
▁ㅁㅏㄴㄴㅏㅆ -3616
▁09 -3617
▁110 -3618
▁ㄱㅏㄴㄷㅏ -3619
ㄷㅗㅇㅈㅗ -3620
▁ㅇㅕㅇㄱㅜ -3621
▁ㅈㅓㅇㄹㅠ -3622
▁04 -3623
▁ㅌㅏㄴㅇㅏㅂ -3624
▁ㅂㅗㅇㅅㅏ -3625
▁ㅁㅓㄹㅌㅣ -3626
▁ㅈㅜㄹㅇㅣ -3627
▁ㄷㅗㅇㄱㅜㄹ -3628
▁ㅊㅗㄱㅈㅣㄴ -3629
ㅍㅣㄹㄷㅡ -3630
ㄹㄹㅔㄴ -3631
▁ㄴㅏㅁㄱㅣ -3632
▁ㅇㅛㅇㄷㅗ -3633
ㅋㅣㅁ -3634
▁ㄹㅐㅂ -3635
▁ㄷㅓㅅㅂㅜㅌ -3636
▁ㅎㅏㅇㅇㅢ -3637
▁ㄱㅏㅁㄱㅏㄱ -3638
ill -3639
▁ㅅㅡㄹㄹㅏ -3640
▁08 -3641
ID -3642
ers -3643
▁ㅇㅝㄴㅅㅣ -3644
▁ㄷㅗㅇㅈㅣ -3645
ㅇㅣㅍ -3646
▁ㄷㅐㄴㅅㅡ -3647
▁ㅍㅕㅇㅁㅕㄴ -3648
ㄱㅔㄹ -3649
▁ㄱㅣㅁㅎㅐ -3650
▁83 -3651
▁ㅍㅓㄴ -3652
▁ㄸㅔ -3653
▁ㄲㅡㄴ -3654
ㅌㅗㄹㄹㅣㄱㄱㅛ -3655
▁ㅇㅣㅂㄷㅐ -3656
▁ㅇㅕㅇㅇㅝㄴ -3657
AN -3658
ㅇㅑㅇㅅㅣ -3659
▁ㄱㅡㄱㄷㅏㄴ -3660
▁ㄹㅣㅂ -3661
▁ㅇㅏㄴㅌㅣ -3662
▁ㅍㅏㄴㅌㅏ -3663
▁ㄱㅜㄴㅂㅜ -3664
▁ㅇㅜㄴㅅㅗㅇ -3665
ard -3666
▁ㄱㅜㄱㅌㅗ -3667
▁ㅌㅏㄴㅎㅐㄱ -3668
▁Co -3669
ㅜㄱㅅㅡ -3670
▁ㅅㅣㄹㄴㅐ -3671
▁ㅈㅓㄴㅈㅓㄱ -3672
▁ㅎㅏㅂㄴㅣ -3673
▁ㅈㅓㅇㅁㅕㄴ -3674
▁ㅎㅏㅁㄱㅕㅇ -3675
▁ㄴㅡㄱ -3676
▁ㅊㅜㄱㅅㅗ -3677
▁ㅅㅓㄴㄹㅗ -3678
▁ㄷㅐㄴ -3679
▁ㄴㅏㅁㄱㅡㄱ -3680
▁ㅈㅓㄴㅁㅏㅇ -3681
▁ㅎㅏㄹㅇㅏ -3682
▁ㅎㅣㅂㅎㅏㅂ -3683
▁ㄷㅗㅇㅇㅣㄴ -3684
▁170 -3685
▁ㄱㅏㄴㅂㅜ -3686
▁ㅃㅓㄷ -3687
▁ㅇㅗㅂ -3688
▁ㅈㅣㄹㅅㅓ -3689
▁ㅅㅓㄴㅎㅗ -3690
▁ㅅㅡㅂㄱㅕㄱ -3691
ㅁㅕㅇㅅㅏ -3692
ㄷㅗㅇㄷㅏㅇ -3693
▁ㅈㅡㅇㅇㅓㄴ -3694
▁MS -3695
▁ㅇㅡㄴㅁㅔ -3696
▁ㅃㅏㅇ -3697
▁ㄱㅕㅇㅊㅏㄹㅅㅓ -3698
▁ㅋㅣㄴ -3699
▁ㅊㅗㅇㅈㅐ -3700
▁ㄷㅗㅇㅁㅔ -3701
▁ㄱㅓㄹㅊㅣㄴ -3702
▁ㅁㅣㄹㄹㅏ -3703
▁ㄱㅕㅇㅂㅜㄱ -3704
▁ㅎㅕㅇㅅㅏㅇ -3705
▁1934 -3706
▁ㄴㅗㅎㅇㅕ -3707
▁ㅂㅔㄹㄹㅏ -3708
ㅍㅕㅇㄱㅏ -3709
ㅇㅏㄴㄱㅜㄴ -3710
▁ㅎㅗㄴㅈㅏ -3711
▁130 -3712
▁De -3713
▁ㄴㅗㄹㅇㅣ -3714
▁ㅎㅡㄴㅈㅓㄱ -3715
▁th -3716
▁ㄱㅜㄱㅂㅏㅇㅂㅜ -3717
▁cod -3718
▁ㅈㅏㅇㄹㅗ -3719
ㅎㅏㅂㅁㅜㄹ -3720
▁ㄷㅗㅇㄱㅜ -3721
ㅇㅑㅇㄱㅜㄴ -3722
▁ㅇㅏㄴㅉㅗㄱ -3723
▁ㅇㅓㅇ -3724
▁ㅍㅕㄴㅇㅢ -3725
ㄹㅜㄹ -3726
▁140 -3727
▁ㅈㅐㅇ -3728
▁ㅊㅓㄹㄱㅓ -3729
OR -3730
▁ㅇㅐㄱㅊㅔ -3731
▁ㄷㅏㄱㅌㅓ -3732
▁ㅈㅓㅂㅅㅗㄱ -3733
▁ㅈㅜㅇㄷㅗㅇ -3734
ne -3735
▁ㅈㅓㅇㅌㅗㅇ -3736
ㅋㅗㅅ -3737
ㄹㅐㄴㅅㅡ -3738
▁ㄹㅜㅁ -3739
▁ㅇㅣㅂㄱㅜ -3740
▁ㅎㅣㅁㄷㅡㄹ -3741
▁Sh -3742
▁ㅌㅔㄹ -3743
▁ㅁㅓㅁ -3744
▁ㅈㅏㅇㄹㅖ -3745
▁ㄱㅘㅇㅅㅏㄴ -3746
▁Me -3747
▁ㄱㅡㄹㄹㅣ -3748
ㅎㅔㄹ -3749
▁ㄷㅏㅇㄷㅐ -3750
▁ㅈㅓㅇㅈㅗ -3751
▁ㄷㅏㄴㅅㅜㄴㅎㅣ -3752
▁ㅇㅏㄹㄹㅔㄱㅅㅏㄴㄷㅓ -3753
ㅁㅜㄱ -3754
▁ㅎㅕㄴㅈㅗㄴ -3755
▁ㅂㅗㄱㅅㅏ -3756
ㄱㅗㅇㅇㅓㅂ -3757
▁ㄴㅗㅇㅈㅏㅇ -3758
▁ㅎㅏㅂㄷㅗㅇ -3759
▁ㅂㅏㄹㅈㅓㄴㅅㅗ -3760
▁ST -3761
▁ㅊㅜㅇㅂㅜㄴㅎㅣ -3762
▁ㅂㅐㅁ -3763
▁ㅂㅓㅂㅇㅏㄴ -3764
ㅍㅗㄹ -3765
▁ㄱㅗㄴㅊㅜㅇ -3766
▁ㅎㅏㄴㅅㅓㅇ -3767
▁ㄱㅡㄴㅇㅠㄱ -3768
AM -3769
▁ㅈㅜㅇㅅㅓㅇ -3770
▁ㅁㅗㅅㅎㅏㄴㄷㅏ -3771
▁ㅈㅜㄹㄹㅣ -3772
▁ㅅㅓㅇㅅㅓ -3773
ㅇㅠㄱㄱㅘㄴ -3774
▁ㄱㅡㅁㄱㅏㅇ -3775
▁ㅍㅏㄴㅈㅓㅇ -3776
▁ㄱㅏㅇㄷㅗ -3777
▁ㄷㅏㅇㅅㅣㄴ -3778
▁ㅌㅡㅁ -3779
▁ㅈㅣㄱㅁㅜ -3780
▁ㅈㅜㅇㅈㅣ -3781
▁ㅎㅕㄹㅇㅐㄱ -3782
▁1931 -3783
▁ㅎㅐㅇㅎㅏ -3784
▁ㅇㅕㄴㅎㅗ -3785
▁ㅅㅣㄹㅇㅓㅂ -3786
▁ㅈㅓㅇㅎㅘㄱㅎㅣ -3787
▁ㄱㅣㅁㄱㅜ -3788
▁ㅂㅗㄴㅌㅗ -3789
▁ㅂㅜㄱㅁㅣ -3790
▁ㄴㅣㄹ -3791
▁ㅇㅓㅁㄱㅕㄱ -3792
▁ㅈㅜㅇㄱㅖ -3793
▁ㅁㅕㄹㅈㅗㅇ -3794
▁ㅈㅠ -3795
▁ㅍㅔㄹㄹㅣ -3796
▁ㅁㅗㄹㅇㅏ -3797
ㅋㅣㅅ -3798
▁ㅂㅗㅇㄱㅣ -3799
▁ㄱㅏㅇㄷㅡㅇ -3800
▁ㄱㅗㄹㅋㅣ -3801
ㄹㅡㄴㅂㅏ -3802
▁ㅇㅕㄴㅍㅕㅇㄱㅠㄴ -3803
▁ㅈㅣㄴㅅㅣㄹ -3804
▁y -3805
ㄱㅏㅌ -3806
▁ㅈㅡㅇㄱㅝㄴ -3807
all -3808
ㅎㅣㄴㄷㅏ -3809
▁ㄷㅙㅆㅇㅡ -3810
▁ㄱㅐㄹㄹㅓㄱ -3811
▁ㄹㅑ -3812
▁ㅇㅏㄴㄴㅐ -3813
▁ㅅㅓㄴㅁㅜㄹ -3814
▁ㄲㅜㄴ -3815
▁ㅂㅡㄹㄹㅗ -3816
ㅘㄴ -3817
ㄷㅣㄱ -3818
ㅇㅑㅇㅊㅔ -3819
▁An -3820
▁ㄷㅗㅁ -3821
ㄱㅜㄱㅇㅓ -3822
▁05 -3823
ㅂㅐㅇ -3824
▁ㅅㅜㄱㅈㅗㅇ -3825
▁ㄷㅏㄴㅅㅓㄴ -3826
▁ㅁㅗㄱㅍㅗ -3827
ㄷㅗㄹㅍㅡ -3828
▁ㅊㅓㄹㅎㅏㄱㅈㅏ -3829
ㄹㅟ -3830
ang -3831
▁ㅇㅑㄴ -3832
▁ㄱㅐㄹㄹㅓㄱㅅㅣ -3833
ㅌㅗㄱ -3834
▁ㄱㅏㄴㄱㅕㄱ -3835
ㅋㅔㄹ -3836
▁ㅌㅡㄱㅎㅓ -3837
▁ㅈㅓㄴㅈㅔ -3838
▁ㅇㅣㄹㄱㅗㅂ -3839
▁ㅇㅜㄴㄷㅗㅇㄱㅏ -3840
ㄹㅕㅅ -3841
ss -3842
▁ㅍㅓㄹ -3843
▁1929 -3844
▁176 -3845
▁ㅌㅗㄹ -3846
▁ㅇㅣㅂㅅㅏ -3847
▁ㅁㅗㅁㅁㅜ -3848
▁ㅇㅣㄴㅁㅣㄴㄱㅜㄴ -3849
▁ㅌㅏㅅ -3850
▁ㅌㅡㄱㅂㅕㄹㅎㅣ -3851
ㅉㅏㄱ -3852
▁ㅎㅏㅇㅎㅐ -3853
▁ㅈㅗㅇㅈㅓㄴ -3854
ㄴㅓㄹㄷㅡ -3855
▁ㅎㅐㅁ -3856
▁ㅇㅑㅇㄱㅜㄱ -3857
▁ㅅㅏㅁㄱㅏㄱ -3858
▁ㅅㅐㅇㅇㅐ -3859
▁1921 -3860
ㅅㅏㄴㄱㅜㄴ -3861
▁codice -3862
▁ㅈㅓㄴㅎㅏㄴ -3863
▁ㄷㅏㄻ -3864
▁07 -3865
▁ㅇㅏㄹㅍㅡ -3866
▁ㄴㅗㅇㅊㅗㄴ -3867
ity -3868
▁ㅎㅞ -3869
▁250 -3870
▁ㅈㅗㄴㅅㅡㄴ -3871
ㅅㅚ -3872
▁ㅇㅑㅇㅈㅜ -3873
ㅅㅡㅇㅈㅏ -3874
ㅎㅏㄴㅈㅔ -3875
ㄷㅜㅇㅇㅣ -3876
▁ㅁㅕㅇㅅㅣ -3877
▁ㅇㅣㄹㄷㅏㄴ -3878
▁1925 -3879
▁ㅁㅐㄴㅊㅔ -3880
▁ㄱㅕㅇㄱㅗ -3881
▁ㅂㅓㄴㅈㅣ -3882
▁ㅍㅣㄹㄹㅏ -3883
▁SC -3884
▁ㅈㅓㄱㅇㅓ -3885
ㅅㅏㅇㅅㅣㄱ -3886
ㄷㅡㄹㅇㅕㅆ -3887
▁1923 -3888
▁ㅅㅗㄴㅎㅐ -3889
▁ㅎㅑㅇㅌㅗ -3890
▁ㅌㅔㄱㅅㅡ -3891
▁ㄱㅗㅇㄹㅛㅇ -3892
▁ㅅㅣㄱㄹㅑㅇ -3893
▁ㅂㅜㄴㅅㅏㄴ -3894
▁ㅂㅡㄹㄹㅔ -3895
ㅈㅏㅇㄱㅜㄴ -3896
▁ㅅㅓㄱㅂㅏㅇ -3897
▁ㅋㅐㅁㅍㅡ -3898
▁ㄷㅏㅇㅅㅏ -3899
▁ㅊㅣㅇㅎㅏ -3900
▁ㅎㅏㄹㄹㅣ -3901
▁ㅈㅏㅇㅈㅓㅁ -3902
▁ㅊㅏㄱㅇㅛㅇ -3903
ㄱㅘㄴㅊㅏ -3904
▁ㅈㅣㅂㅍㅣㄹ -3905
▁ㄱㅗㅁ -3906
▁ㅇㅣㄹㅎㅘㄴ -3907
ㅇㅓㄴㅅㅡ -3908
▁ㅎㅗㄹㄹㅗ -3909
ㅇㅣㄹㅂㅗㄴ -3910
ㅌㅏㄹㄹㅣㄴ -3911
▁ㅂㅏㄱㅅㅡ -3912
▁ㅇㅏㅂㅊㅜㄱ -3913
▁ㅂㅜㄱㄱㅡㄱ -3914
▁ㅈㅣㄴㅎㅡㅇ -3915
▁ㅇㅠㄴㅊㅣ -3916
▁ㅅㅏㅁㄱㅏㄱㅎㅕㅇ -3917
▁ㅋㅗㄹㄹㅗㅁㅂㅣ -3918
ㅂㅏㄴㄱㅣ -3919
▁ㄷㅗㄱㅈㅓㅁ -3920
ff -3921
ㅎㅐㅇㅅㅓㅇ -3922
▁ㄱㅏㅇㅇㅛ -3923
▁ㅁㅣㄴㅅㅗㄱ -3924
▁ㅍㅣㄹㄹㅡㅁ -3925
▁ㄹㅗㅁ -3926
▁ㄱㅗㅇㄱㅜㄱ -3927
▁AC -3928
ㅇㅓㄴㅊㅡ -3929
▁ㅈㅗㅇㄹㅗ -3930
ㄴㅜㄱㅅㅡ -3931
▁ㅇㅝㄴㅈㅗ -3932
▁ㅇㅑㄱㅎㅘ -3933
▁ㅌㅣㄱ -3934
▁ㅇㅣㄴㅊㅓㄴㄱㅘㅇㅇㅕㄱㅅㅣ -3935
▁ㅁㅕㅇㅅㅏ -3936
▁ㅂㅜㄹㅎㅘ -3937
▁ㅅㅓㅇㅆㅣ -3938
▁ㅁㅜㄹㄹㅕ -3939
▁ㅂㅏㄹㄹㅔㄴ -3940
▁ㄷㅗㅇㅇㅣㄹㅂㅗㄴ -3941
▁ㄱㅏㅁㅇㅗㄱ -3942
▁ㅎㅕㅂㅇㅑㄱ -3943
ㅋㅔㄴ -3944
▁ㅊㅣㄱ -3945
▁de -3946
▁ㅇㅣㄹㅇㅛ -3947
▁ㅈㅜㅇㄱㅜ -3948
▁ㄱㅓㄴㄷㅏㅁ -3949
▁ㅇㅕㄴㄱㅖ -3950
ㅎㅑㅇㄱㅗㄱ -3951
▁ㅊㅓㅇㄷㅗㅇ -3952
▁ㅈㅜㄹㅇㅕ -3953
▁ㄱㅏㅇㅈㅓㄴ -3954
▁ㄷㅏㄴㅈㅏㅇ -3955
▁ㅁㅜㄴㅇㅣㄴ -3956
▁ㄷㅗㅇㅂㅏㄴ -3957
▁ㄴㅡㄱㄷㅐ -3958
▁ㄱㅡㄹㅆㅣ -3959
▁ㅃㅏㄹㄱㅏㄴ -3960
▁ㅍㅡㄹㄹㅓ -3961
ㄹㅔㅅ -3962
▁ㅅㅓㅁㅇㅠ -3963
▁ㅁㅗㄱㅈㅗ -3964
▁ㅅㅗㅇㄹㅏ -3965
▁ㅈㅏㅇㄱㅏㅂ -3966
ㄹㅓㄴㅅㅡ -3967
▁161 -3968
ㅅㅓㅇㄱㅣ -3969
▁ㅎㅏㄴㄴㅏ -3970
▁ㅇㅝㄴㅈㅏㅇ -3971
▁EP -3972
▁1922 -3973
▁ㅊㅔㄴ -3974
▁ㅊㅓㅅㅉㅐ -3975
▁ㅍㅕㄹㅊㅕㅆ -3976
▁ㅅㅞ -3977
ㅅㅓㄹㄱㅏ -3978
up -3979
▁ㄸㅏㄱ -3980
ㅋㅡㄹㄹㅣㄴ -3981
ㅁㅔㄴㅌㅡ -3982
▁ㅇㅣㅁㅅㅣㄴ -3983
▁ㅁㅜㄴㅂㅓㅂ -3984
▁My -3985
▁ㅇㅕㄴㅅㅏㅇ -3986
▁1912 -3987
▁ㅅㅓㅇㅁㅕㅇ -3988
▁ㅇㅕㄱㅈㅓㄴ -3989
▁175 -3990
▁ㅈㅜㄴㅇㅜ -3991
▁ㅈㅏㅁㅈㅐ -3992
▁ㅁㅗㄱㅅㅜㅁ -3993
ㅌㅗㅇㅎㅏㄱㄱㅛ -3994
▁ㄱㅘㄴㄱㅐㄱ -3995
▁ㄱㅐㅇ -3996
▁ㄱㅏㅇㅅㅜ -3997
▁ㄷㅗㅇㅅㅓㅇㅇㅐ -3998
▁ㅍㅕㅇㄹㅗㄴㄱㅏ -3999
ㄴㅜㄹ -4000
▁ㅁㅏㅇㅇㅝㄴㄱㅕㅇ -4001
▁06 -4002
▁Go -4003
▁ㅇㅞㄹ -4004
ㅈㅓㄴㄱㅓ -4005
▁ㅋㅐㅂ -4006
▁ㅎㅓㅁ -4007
▁ㅂㅗㄱㄱㅜ -4008
ong -4009
▁ㅈㅣㄱㅅㅓㄴ -4010
ㅅㅡㄹㄹㅣ -4011
ip -4012
▁JR -4013
▁"" -4014
▁ㅂㅕㄴㅅㅣㄴ -4015
▁ㄱㅓㄴㅊㅜㄱㅁㅜㄹ -4016
▁03 -4017
▁ㅅㅓㄱㅈㅗ -4018
▁ㅅㅏㄴㅌㅏ -4019
▁ㅎㅜㄹㄹㅠㅇ -4020
ㅁㅔㄴㅌㅓ -4021
▁ㄹㅐㅇㅋㅣㅇ -4022
▁1906 -4023
OM -4024
▁ㅇㅕㅂ -4025
▁ㅈㅓㅇㅈㅏ -4026
▁ㄴㅏㅁㄷㅗㅇㅉㅗㄱ -4027
ㄹㅡㅅ -4028
▁164 -4029
▁ㅎㅘㅇㅌㅐ -4030
▁ㅉㅡㅁ -4031
▁ㅍㅕㅇㅅㅐㅇ -4032
▁ㅊㅜㅇㅈㅜ -4033
▁ㅎㅏㅂㄹㅣ -4034
▁ㅈㅣㄴㄷㅗㅇ -4035
▁1908 -4036
▁ㅁㅗㄴㅌㅔ -4037
▁ㅈㅜㅇㄹㅣㅂ -4038
▁ㅅㅓㅇㅈㅣㄱㅈㅏ -4039
▁ㅅㅏㄱㅈㅔ -4040
ㄹㅏㄴㄷㅏ -4041
▁ㄱㅡㄴㄹㅗ -4042
▁ㅅㅓㄹㅂㅣ -4043
▁ㅇㅕㅇㄱㅘㅇ -4044
▁|| -4045
▁ㄸㅣㄴ -4046
ㅁㅏㅈ -4047
ㅊㅓㅁ -4048
IS -4049
ㄹㅔㄱㅌㅡ -4050
ld -4051
▁ㄱㅡㄱㅂㅗㄱ -4052
▁ㅇㅑㄱㅌㅏㄹ -4053
▁ㅇㅕㅇㅈㅗ -4054
▁Love -4055
▁ㄱㅕㅇㅇㅠ -4056
▁ㅇㅕㅇㄱㅏㅁ -4057
ㄱㅣㄴㄷㅏ -4058
▁ㅂㅜㄱㄷㅗㅇㅉㅗㄱ -4059
▁KT -4060
▁ㅂㅣㅅ -4061
▁ㄱㅗㅇㅅㅔ -4062
▁ㅂㅏㄹㄹㅏ -4063
▁ㄱㅗㅇㄱㅕㄱㅅㅜ -4064
ㄹㅣㄱㅅㅡ -4065
▁ㅈㅏㅇㅅㅏ -4066
ㄷㅗㅇㅅㅏㄴ -4067
ㅅㅓㄴㅇㅣㄴ -4068
▁ㅇㅕㄴㅅㅗ -4069
▁ㄹㅓㄱ -4070
▁ㅈㅜㅇㅅㅣ -4071
▁ㄷㅓㄱㅂㅜㄴ -4072
ㄴㅏㄱ -4073
ㅅㅐㅇㅁㅜㄹ -4074
▁ㄷㅡㄹㅇㅕ -4075
▁SM -4076
▁1927 -4077
▁ㅁㅜㄴㅎㅏ -4078
av -4079
▁ㄷㅗㅇㅅㅏ -4080
ㅈㅜㅇㅎㅐ -4081
▁ㅇㅕㄴㄹㅕㅇ -4082
▁ㅂㅏㄱㄱㅡㄴ -4083
▁ㅅㅏㄴㅇㅏㄱ -4084
▁ㅊㅏㅇㄱㅏㄴ -4085
▁1907 -4086
▁ㅇㅘㅇㄱㅏ -4087
▁ㅈㅛ -4088
▁ㅂㅏㄹㅎㅟ -4089
▁ㅇㅣㄴㅈㅏ -4090
▁BBC -4091
▁ㄱㅜㅂ -4092
▁ㅈㅜㅇㅇㅏㅇㅇㅏ -4093
▁ㅌㅗㅇㄹㅗ -4094
ant -4095
▁ㅇㅕㅇㅎㅗㄴ -4096
ㅁㅣㄱㅅㅡ -4097
ㅇㅕㅇㅅㅏㅇ -4098
▁ㅇㅕㄱㄱㅘ -4099
▁ㄱㅜㅅ -4100
▁ㄸㅗㄱㄱㅏㅌ -4101
▁ㅍㅗㄱㅍㅜㅇ -4102
ED -4103
ㄹㅡㅍ -4104
ㅂㅕ -4105
▁ㅅㅏㅂㅇㅣㅂ -4106
ㅌㅔㄴㄷㅗ -4107
▁ㅂㅐㅇㅋㅡ -4108
▁NHK -4109
▁ㄴㅏㅂㅊㅣ -4110
▁ㄴㅣㄴㅌㅔㄴㄷㅗ -4111
se -4112
▁1917 -4113
▁ㅌㅏㅁㅎㅓㅁ -4114
ame -4115
▁ㄷㅗㄹㅍㅏ -4116
ㅃㅡㄴ -4117
▁1926 -4118
▁ㅇㅗㄻㄱㅣ -4119
AC -4120
▁ㅇㅗㄹㄹㅣㄴ -4121
▁ㅎㅡㄺ -4122
▁ㄴㅓㅁㄱㅕ -4123
▁ㅁㅕㅇㅁㅜㄴ -4124
▁ㅇㅘㅆㅇㅡ -4125
▁He -4126
ㅇㅗㄹㄹㅣ -4127
▁ㅈㅣㄱㅇㅟ -4128
▁ㅈㅓㄴㅈㅏㄱ -4129
▁ㅎㅏㅂㄱㅖ -4130
▁ㅎㅏㅇㅁㅗㄱ -4131
▁ㅋㅗㅇㄱㅗ -4132
▁ㅈㅣㄴㅅㅜㄹ -4133
▁ㅊㅏㅁㅈㅗ -4134
▁ㅇㅣㄴㄹㅕㄱ -4135
▁ㄱㅏㄱㅈㅏ -4136
▁MV -4137
▁ㄱㅕㄹㅅㅣㅁ -4138
ㅅㅡㄹㄹㅗ -4139
▁ㅈㅓㄴㅎㅑㅇ -4140
ㅂㅔㅅ -4141
▁ㅆㅡㄴㄷㅏ -4142
▁ㅇㅠㄱㅅㅓㅇ -4143
ㅇㅔㄹㄹㅏ -4144
▁ㅇㅘㅇㄹㅣㅂ -4145
ind -4146
▁ㄷㅗㅇㅊㅣ -4147
▁ㄷㅗㄱㅇㅣㄹㅇㅓ -4148
▁ㅅㅏㅇㅇㅕㅇ -4149
ㅇㅕㄴㅅㅜ -4150
▁SN -4151
▁ㅇㅡㅁㅁㅗ -4152
▁ㅌㅡㄱㄱㅡㅂ -4153
ort -4154
ㄹㅐㅇㅋㅡ -4155
▁ㅇㅐㄹㄹㅣ -4156
▁ㅈㅓㅇㅅㅏ -4157
▁ㅈㅗㅇㅈㅗㄱ -4158
▁ㄱㅜㄱㅁㅣㄴㄷㅏㅇ -4159
ith -4160
▁PD -4161
▁ㄸㅏㄴ -4162
▁ㅊㅣㅁㅎㅐ -4163
ES -4164
▁ㄴㅐㄴㄷㅏ -4165
ㅁㅗㄴㄷㅡ -4166
▁ㄷㅗㅇㄴㅏㅁㅇㅏ -4167
ㄴㅏㅇ -4168
▁02 -4169
ry -4170
ㅂㅓㅂㅇㅝㄴ -4171
▁ㅍㅡㄹㄹㅜ -4172
▁ㅇㅝㄴㅅㅏㄴ -4173
▁151 -4174
▁ㅅㅐㄱㅅㅏㅇ -4175
▁Sp -4176
ㅇㅝㄴㄱㅜㄱ -4177
▁168 -4178
ok -4179
▁ㅅㅏㅇㅁㅜ -4180
▁ㄷㅏㄴㅎㅐㅇ -4181
▁ㅇㅐㄹㄹㅓㄴ -4182
▁162 -4183
▁ㅂㅕㄹㄹㅗ -4184
▁ㅎㅑㅇㄴㅕㄴ -4185
▁ㅇㅐㅂ -4186
▁ㅅㅓㄱㅌㅏㅂ -4187
▁ㅇㅏㄹㄹㅏ -4188
▁ㅈㅓㄱㅇㅡㅇ -4189
▁ㅇㅏㅂㄷㅗ -4190
ㅌㅔㄱ -4191
▁166 -4192
ㅇㅓㄴㅌㅡ -4193
▁1905 -4194
ㅇㅕㄱㄱㅜ -4195
▁ㅂㅟ -4196
▁ㄱㅏㄴㅅㅓㅂ -4197
▁158 -4198
▁ㄹㅣㅇㅋㅡ -4199
▁ㄱㅘㅇㅇㅕㄱ -4200
▁ㅁㅏㅈㅊㅝ -4201
▁ㅈㅓㅇㅅㅓ -4202
ㅂㅏㄹㅈㅏ -4203
▁ㅈㅓㄴㅅㅡㅇ -4204
▁ㅁㅜㄴㅈㅐ -4205
▁ㅎㅗㅁㅍㅔ -4206
ㅊㅗㅇㅈㅏㅇ -4207
▁ㅍㅜㅁㅈㅣㄹ -4208
ㄱㅡㄹㄹㅏ -4209
▁ㄹㅣㅁ -4210
▁ㅇㅓㅁㅁㅏ -4211
▁ㅈㅣㄴㄷㅗ -4212
▁ㄷㅏㄴㅊㅡㅇ -4213
▁ㅁㅜㄴㄱㅘ -4214
▁ㅂㅏㄱㄱㅡㄴㅎㅖ -4215
▁ㅈㅡㅇㄱㅣ -4216
ㄹㅗㄹㄹㅏ -4217
▁ㅅㅏㅇㅅㅗ -4218
▁ㅊㅜㄹㅎㅕㄴ -4219
▁ㅅㅣㅀ -4220
▁ㅅㅏㅇㅊㅓ -4221
ㅍㅕ -4222
ㅁㅐㅅ -4223
▁ㄴㅏㅁㄱㅕ -4224
▁ㄱㅡㅂㅎㅐㅇ -4225
▁1904 -4226
▁ㅇㅣㅂㅁㅜㄴ -4227
▁ㄹㅕㄴ -4228
▁ㄹㅔㄴㅈㅡ -4229
▁ㅇㅗㅇㅎㅗ -4230
▁ㄷㅗㅇㅇㅕㅇㅅㅏㅇ -4231
▁ㅅㅐㄱㄲㅏㄹ -4232
▁ㄹㅣㄱ -4233
▁ㅊㅣㅂ -4234
▁ㅊㅔㄹ -4235
ㅇㅣㄴㄹㅣ -4236
▁ㅈㅣㄴㅈㅣ -4237
▁ㄱㅙ -4238
▁Un -4239
▁ㄴㅐㄹ -4240
ord -4241
▁ㅊㅓㄹㅈㅓ -4242
ㅇㅜㄴㅌㅡ -4243
▁ㅁㅗㄴㅌㅡ -4244
▁ㅂㅏㄷㅊㅣㅁ -4245
ㅊㅏㅈ -4246
▁ㅂㅏㄴㅎㅘㄴ -4247
▁ㄱㅘㄴㅈㅏㅇ -4248
▁ㅅㅔㅅㅉㅐ -4249
ate -4250
▁ㄴㅔㄱ -4251
▁ㅅㅐㄴㅍㅡ -4252
▁ㄷㅗㅇㅈㅓㄴ -4253
qu -4254
ob -4255
▁IP -4256
ㅇㅈㅏㅇ -4257
ㅈㅜㄴㅎㅣ -4258
▁SF -4259
▁ㅇㅖㅅㄴㅏㄹ -4260
▁Se -4261
▁ㅁㅣㄴㅈㅗㄱㅈㅜ -4262
▁ㅅㅓㅇㅈㅜ -4263
▁165 -4264
▁ㅇㅛㅇㅅㅏㄴ -4265
▁Wh -4266
▁ㄱㅘㄴㅈㅜㅇ -4267
ㅃㅡ -4268
ㄱㅣㄹㅇㅣ -4269
▁ㅇㅏㄴㅂㅗ -4270
▁ㅇㅘㅇㅈㅗㄱ -4271
ㅇㅗㄹㄹㅣㄴ -4272
▁ㅈㅓㄱㅅㅐㄱ -4273
ㅁㅣㄱ -4274
▁ㅅㅣㄴㅂㅣ -4275
▁ㅍㅗㄱㅅㅡ -4276
ㅌㅐㅇ -4277
▁ㄱㅓㄷ -4278
▁ㅊㅜㄹㅍㅏㄴㅅㅏ -4279
▁ㄹㅚ -4280
▁ㅇㅕㄴㄱㅡㅁ -4281
▁ㅍㅜㅇㅅㅗㄱ -4282
▁ㅍㅕㄹㅊㅣ -4283
▁ㅂㅗㄱㅈㅔ -4284
▁ㅅㅓㄴㅈㅣㄴ -4285
▁154 -4286
▁ㅈㅓㅁㅅㅓㅇ -4287
▁ㅇㅓㅄㅇㅐ -4288
▁156 -4289
ㄷㅏㄹㄹㅣ -4290
▁ㅅㅣㅁㅎㅏ -4291
▁ㄹㅜㄱ -4292
▁ㅇㅕㄴㅇㅐ -4293
▁ㅇㅝㄴㄹㅗ -4294
IC -4295
ㅁㅜㄴㅎㅏㄱ -4296
ㄹㅓㅁㅂㅣ -4297
▁ㅈㅣㄱㅈㅏㅇ -4298
▁ㅊㅜㄹㅅㅏㄴ -4299
▁163 -4300
▁ㅁㅏㄹㄹㅏ -4301
▁ㅊㅜㅇㄴㅏㅁ -4302
▁ㅂㅜㄴㅈㅣ -4303
▁ㅎㅏㄴㅇㅑㅇ -4304
▁ㅂㅓㄴㅈㅜ -4305
▁ㅁㅗㄱㄱㅕㄱ -4306
ㄹㅔㄹ -4307
▁ㅎㅡㅇㅁㅣ -4308
▁ㅇㅜㄴㅂㅏㄴ -4309
▁ㅎㅏㅂㅈㅏㄱ -4310
▁ㄱㅘㄴㅎㅏ -4311
▁ㅇㅣㄴㅊㅣ -4312
▁ㅁㅗㅁㄱㅣㄹㅇㅣ -4313
ㅍㅡㄹㄹㅓ -4314
▁ㅅㅓㄴㅅㅏ -4315
▁ㅇㅜㄴㅁㅕㅇ -4316
ㄹㅓㅁㅍㅡ -4317
ㅋㅕㅆㅇㅡ -4318
▁ㅅㅡㅇㅁㅜ -4319
▁167 -4320
ㄹㅏㅇㅇㅣ -4321
▁DJ -4322
▁ㅈㅏㅇㅍㅕㄴ -4323
▁ㄸㅜㅀ -4324
▁ㅍㅕㅇㅅㅗ -4325
▁ㅎㅏㅇㅇㅣㄹ -4326
▁AM -4327
ㅈㅗㄹ -4328
ㅇㅣㄴㅈㅣ -4329
ㅎㅣㄹ -4330
▁900 -4331
▁139 -4332
▁ㄴㅏㅌ -4333
ET -4334
▁AS -4335
ast -4336
ㅅㅏㄴㄹㅣ -4337
ㅓㅂㅈㅣㄹ -4338
▁ㄸㅓㄹ -4339
▁ㅂㅏㄹㅎㅛ -4340
ㅋㅣㄴㅅㅡ -4341
▁ㅇㅡㅇㅇㅜ -4342
▁ㅂㅜㄴㅂㅐ -4343
ㅅㅏㄹㄹㅔㅁ -4344
▁ㄱㅣㄴㄱㅡㅂ -4345
▁ㄱㅘㄴㄱㅘㅇㄱㅐㄱ -4346
▁ㅊㅏㄱㄹㅠㄱ -4347
ㅋㅙ -4348
▁ㄱㅓㄹㄹㅕ -4349
ㅇㅜㄹㄹㅓ -4350
▁ㅅㅏㅇㅇㅣㅁ -4351
▁ㅅㅣㄴㅎㅏ -4352
▁ㅇㅏㄱㅈㅏㅇ -4353
▁ㅈㅣㄴㄴㅏ -4354
▁ㅅㅓㅇㅈㅗㅇ -4355
▁ㅂㅏㅇㅇㅏㄴ -4356
▁DS -4357
▁ㅈㅣㄴㅅㅏㅇ -4358
▁145 -4359
▁ㅇㅛㅇㄹㅑㅇ -4360
▁ㅅㅑㅇ -4361
▁ㄱㅝㄴㄱㅗ -4362
ㅈㅏㅂㅇㅣ -4363
▁ㄱㅗㄷㅂㅏ -4364
▁ㅅㅓㄴㅈㅔ -4365
▁ㅌㅣㅇ -4366
▁ㅍㅕ -4367
if -4368
▁ㅈㅜㅇㄱㅜㄱㅇㅓ -4369
▁ㅂㅏㄹㅈㅗㄱ -4370
▁ㅊㅐㄹㄹㅣㄴ -4371
▁ㅇㅛㅇㄱㅣ -4372
▁ㅅㅣㄴㅇㅛㅇ -4373
▁ㅇㅝㄹㄱㅏㄴ -4374
ㄱㅕㅇㄱㅣ -4375
▁ㄷㅏㄴㅈㅗㅇ -4376
▁ㅌㅔㅁ -4377
▁ㅈㅓㅇㄱㅖ -4378
DP -4379
ㅅㅡㄹㄹㅣㅁ -4380
ㅁㅜㄴㄱㅘㄴ -4381
ㅅㅣㄱㅁㅜㄹ -4382
ure -4383
ㄹㅏㄴㅌㅡ -4384
▁ㄱㅗㅇㄱㅘ -4385
▁1896 -4386
ㅅㅏㄴㅁㅕㄴ -4387
▁ㄴㅗㅇㄷㅗ -4388
▁ㄱㅗㅇㅇㅛㅇ -4389
▁ㅇㅣㄹㅎㅐㅇ -4390
▁ㅅㅓㅇㄱㅗㅇㅎㅚ -4391
ㅅㅗㅇㅂㅓㅂ -4392
▁ㅂㅗㄱㅅㅗ -4393
▁ㅅㅏㄹㅍㅕ -4394
▁ㅇㅣㅁㅅㅏㅇ -4395
ㅁㅜㄹㄹㅓㅆ -4396
▁UN -4397
ㄸㅡㅅ -4398
▁ㅇㅓㅂㄷㅔ -4399
PS -4400
▁ㅂㅜㅌㅈㅏㅂ -4401
ㅍㅐㅇ -4402
ㄹㅔㄴㅊㅔ -4403
▁ㅇㅣㅂㅈㅡㅇ -4404
▁ㅈㅓㄴㅇㅕㅁ -4405
▁ㅊㅣㄴㅈㅓㅇ -4406
ack -4407
▁ㅅㅣㄴㅇㅣㅁ -4408
▁ㅍㅕㅇㅇㅢ -4409
ㅃㅕ -4410
ㅇㅓㅂㄱㅏ -4411
IT -4412
ㅅㅠㅁ -4413
▁ㅈㅓㄴㅇㅣ -4414
▁ㄱㅏㅇㅇㅕㄴ -4415
▁ㅊㅣㄴㅅㅓㄴ -4416
ㅇㅗㄹㄹㅏ -4417
▁ㅊㅏㅁㅇㅢ -4418
ㅇㅜㄹㅅㅣ -4419
ㄷㅓㄼ -4420
▁ㅈㅓㄴㅈㅣ -4421
▁ㅋㅚ -4422
ㅇㅜㄴㅅㅓ -4423
▁ㅎㅕㅇㅂㅓㅂ -4424
ive -4425
iv -4426
ㄲㅡㄴ -4427
▁ㅁㅏㄴㄴㅏㄴ -4428
▁ㅅㅣㄱㅅㅏ -4429
▁ㄱㅗㅇㅈㅓㄴ -4430
▁ㅋㅔㄹ -4431
▁ㅍㅜㄴ -4432
ock -4433
▁j -4434
▁ㅁㅣㄹㅈㅓㅂ -4435
ㅇㅗㅅ -4436
▁ㅌㅏㅂㅅㅡㅇ -4437
▁ㅈㅜㅇㄷㅗ -4438
▁ㅂㅓㄴㄴㅚ -4439
▁ㅈㅓㄴㄹㅠ -4440
▁ㅂㅐㄱㅅㅣㄴ -4441
▁ㅈㅓㄴㄷㅗ -4442
ㅇㅝㄴㅅㅜㅇㅇㅣ -4443
▁ㅅㅣㄴㅋㅏㄴ -4444
▁ㅇㅠㄹㄹㅣ -4445
▁ㄱㅣㅁㄷㅗㅇ -4446
ㄱㅝㄴㅈㅏ -4447
▁ㅇㅓㄹㅇㅡㅁ -4448
▁Ar -4449
▁ㅂㅜㅅ -4450
▁ㅈㅝㅆ -4451
ㄲㅗㄹ -4452
▁ㅈㅜㄴㄱㅗㅇ -4453
▁ㅇㅕㄴㅅㅜ -4454
▁ㄷㅐㅁ -4455
ㅇㅣㄹㄷㅡ -4456
▁ㅇㅠㅇㅎㅏㅂ -4457
▁ㅎㅏㄴㄱㅏㅇ -4458
▁ㄹㅜㄴ -4459
▁ㅊㅜㄹㄱㅜ -4460
ㄱㅠㄴㄱㅘㄴ -4461
▁ㅈㅓㅇㅂㅓㄹ -4462
ck -4463
▁5000 -4464
▁ㅇㅖㄴ -4465
▁ㅎㅐㅇㅈㅓㅇㅂㅜ -4466
▁174 -4467
▁157 -4468
ㄴㅔㄴ -4469
ㄹㅓㅁㅇㅔ -4470
ㅅㅏㅇㅎㅘ -4471
▁ㄱㅡㅁㅅㅓㅇ -4472
ㅂㅏㅂ -4473
▁ㅈㅓㄴㅇㅣㅁ -4474
▁ㅇㅏㄹㄹㅕㅆ -4475
▁ㅎㅏㄱㅍㅏ -4476
▁ㅅㅣㅁㅎㅏㄴ -4477
▁ㅈㅜㅇㄷㅗㄱ -4478
▁HIV -4479
▁152 -4480
ㄷㅡㄹㄹㅣ -4481
▁ㅈㅣㅌ -4482
12 -4483
▁ㅅㅣㄴㅋㅏㄴㅅㅔㄴ -4484
▁ㅁㅐㄱㅅㅡ -4485
▁ㄱㅏㄴㅈㅓㅂ -4486
▁ㄲㅗㄹ -4487
▁ㅊㅐㄱㅂㅗㅇ -4488
▁ISO -4489
▁ㅊㅡㄱㄱㅡㄴ -4490
▁ㅇㅣㄴㅌㅔㄹ -4491
▁ㄱㅕㅇㅅㅓㄴ -4492
▁ㅈㅏㅇㅅㅓㅇ -4493
▁ㄴㅏㅁㅇㅑㅇ -4494
▁ㅅㅣㄹㅈㅓㅁ -4495
▁ㅈㅓㅁㅇㅠ -4496
▁ㅈㅓㄴㅁㅜㄴㅎㅏㄱㄱㅛ -4497
▁146 -4498
ime -4499
▁ㄲㅏㄹ -4500
ㅁㅔㄹ -4501
ㅇㅑㄴㅁㅏ -4502
ㅊㅓㅇㅈㅏ -4503
▁ㅈㅓㅈ -4504
ㅇㅏㄱㄱㅣ -4505
▁ㅎㅏㄴㅎㅘ -4506
▁ㅈㅓㅇㅊㅏㄹ -4507
▁MVP -4508
▁ㄹㅣㄹㄹㅣ -4509
▁ㅂㅜㅌㅇㅣ -4510
▁ㄱㅜㄱㅇㅓ -4511
ML -4512
▁ㅁㅗㅅㅎㅐ -4513
ㅓㅇㅇㅣ -4514
▁ㅅㅓㅇㅂㅕㄱ -4515
ㅍㅐㄱㅌㅡ -4516
▁ㅊㅏㄱㅅㅜ -4517
▁ㅅㅓㅇㄱㅠㄴㄱㅘㄴ -4518
▁ㅊㅏㄱㄱㅗㅇ -4519
▁ㄷㅗㅇㅇㅟ -4520
▁MP -4521
▁ㄱㅏㄱㅂㅗㄴㄱㅏ -4522
▁125 -4523
▁ㅇㅕㅁㅅㅐㄱ -4524
▁ㅇㅣㅈ -4525
▁ㅅㅓㄱㅌㅏㄴ -4526
▁ㅎㅏㄹㄷㅏㅇ -4527
ㅋㅗㄱ -4528
▁ㅇㅏㅂㅂㅏㄱ -4529
▁ㄷㅏㅁㅂㅐ -4530
▁ㅅㅡㅇㅊㅏ -4531
▁ㅅㅜㄴㅊㅓㄴ -4532
▁105 -4533
▁ㅃㅏㄹㄹㅣ -4534
▁ㅅㅣㄱㄷㅏㅇ -4535
▁ㅌㅗㅇㅎㅐㅇ -4536
▁Pro -4537
▁ㅂㅏㄱㅇㅕㅇ -4538
▁Le -4539
▁WW -4540
▁ㄱㅘㄴㅅㅡㅂ -4541
▁ㄱㅘㄴㅊㅏㄹㅅㅏ -4542
▁ㄱㅏㅇㅅㅏ -4543
▁ㅅㅓㄴㄷㅜ -4544
▁ㅊㅏㅁㅍㅏㄴ -4545
▁ㅇㅘㄴㅎㅘ -4546
▁ㅈㅏㅂㅇㅏ -4547
▁ㅈㅡㅇㅎㅜ -4548
ㄱㅕㄹㅅㅡㅇ -4549
▁ㄱㅕㅌ -4550
one -4551
▁ㄴㅏㅁㅇㅣㄴ -4552
▁ㅁㅏㄹㄹㅣ -4553
▁ㅅㅓㄱㄱㅏ -4554
▁ㄷㅗㄹㄹㅣ -4555
▁ㅇㅝㄴㄴㅏ -4556
▁ㅊㅜㄹㅇㅣㅂㄱㅜ -4557
▁ㅊㅓㅇㅅㅏ -4558
ㅈㅏㄴㅌㅣ -4559
▁ㅎㅏㅇㄱㅗㅇㅁㅗ -4560
ㅁㅕㅇㅂㅏㄱ -4561
ㄹㅔㄴㅈㅣ -4562
▁1911 -4563
▁ㅈㅏㅇㅇㅣㄴ -4564
▁ㅇㅔㄱ -4565
AP -4566
▁1500 -4567
▁ㅅㅣㄹㅇㅛㅇ -4568
▁ㅇㅟㄹㅅㅡㄴ -4569
▁ㄱㅝㄴㅇㅠ -4570
▁ㅇㅏㅍㅁㅕㄴ -4571
▁ㅊㅜㅇㅅㅓㅇ -4572
▁ㅋㅣㄹ -4573
ㅇㅏㄱㄷㅏㄴ -4574
▁ㄱㅣㅁㅇㅛㅇ -4575
▁PS -4576
ㄹㅐㄴㅅㅣ -4577
ㅎㅕㄱㅁㅕㅇ -4578
ㅊㅏㄹㄱㅜ -4579
▁ㅅㅏㅇㄹㅠ -4580
▁3000 -4581
▁ㄱㅓㅁㅈㅡㅇ -4582
▁ㅅㅣㄴㅈㅓㄴ -4583
▁ㄷㅗㄱㄹㅣㅂㅇㅜㄴㄷㅗㅇㄱㅏ -4584
▁ㅂㅓㄴㅅㅣㄱ -4585
▁ㅂㅣㄹㅎㅔㄹ -4586
ㅇㅝㅆㅇㅡ -4587
▁ㅇㅑㄼ -4588
▁ㅇㅣㄴㄱㅘ -4589
▁ㄷㅏㄺ -4590
▁ㄱㅕㅁㅇㅣㅁ -4591
▁ㅂㅕㄴㄷㅗㅇ -4592
ㅇㅣㄴㅈㅓ -4593
▁ㅈㅜㅇㅈㅗㅇ -4594
te -4595
▁ㅃㅜㄹ -4596
▁ㅇㅣㄹㄹㅔㄱㅌㅡ -4597
▁ㄱㅗㅇㅈㅏ -4598
▁ㄱㅡㅂㅈㅣㄴ -4599
▁153 -4600
ㄹㅔㄴㅅㅡ -4601
▁ㅈㅓㄴㅈㅏㅇ -4602
▁ㄱㅘㄴㅎㅕㄴ -4603
▁ㅈㅗㄴㄱㅕㅇ -4604
▁ㄷㅏㄴㅇㅝㄴ -4605
▁ㅎㅐㅇㅈㅣㄴ -4606
▁ㅈㅓㄴㅈㅣㄴ -4607
▁ㄱㅜㄺ -4608
▁ㅇㅕㄴㄹㅜ -4609
▁ㅁㅣㄴㄱㅜㄱ -4610
▁ㅂㅜㄱㄷㅗㅇㅂㅜ -4611
▁ㅅㅣㅁㅇㅢ -4612
▁ㅊㅓㄴㅁㅜㄴㅎㅏㄱ -4613
ㅈㅏㅇㅈㅏ -4614
▁ㅈㅜㅇㅈㅓㅁ -4615
ㅈㅏㄱㅈㅏ -4616
▁ㄷㅓㄴㅈㅣ -4617
▁ㅅㅜㄹㅌㅏㄴ -4618
OC -4619
▁ㅎㅑㅇㄱㅛ -4620
ㄷㅠㄹ -4621
▁103 -4622
▁ㅎㅘㄴㅇㅝㄴ -4623
▁ㅍㅕㄴㄱㅗㄱ -4624
ㅅㅓㅇㅈㅓㄴ -4625
▁ㅁㅗㄹㄹㅏㄱ -4626
▁Con -4627
▁ㅊㅓㄴㅅㅏ -4628
▁MC -4629
▁ㅇㅕㄴㅇㅣㄴ -4630
▁ㅂㅏㅌ -4631
▁ㅎㅣㄴㄷㅜ -4632
▁ㄷㅏㄹㅇㅏ -4633
▁ㅇㅕㅇㄷㅗㅇ -4634
ㄷㅚㄴ -4635
▁ㄴㅏㄹㅇㅏ -4636
▁ㅅㅣㄹㄹㅣ -4637
▁ㅈㅓㅁㅍㅡ -4638
ㅈㅣㅂㅎㅏㅂ -4639
▁ㅇㅡㅇㄷㅏㅂ -4640
▁ㅊㅜㅇㅈㅗㄱ -4641
▁Bo -4642
ㄹㅡㄱ -4643
▁155 -4644
io -4645
ㄷㅔㄹㅍㅣ -4646
▁ㅎㅡㅇㅎㅐㅇ -4647
▁IT -4648
ㄷㅗㅇㅁㅜㄹ -4649
▁108 -4650
▁ㅈㅜㅇㅈㅏㅇ -4651
▁ㅎㅡㅌ -4652
▁ㅅㅓㅇㅈㅓㄴ -4653
▁# -4654
▁ㅂㅕㄹㅈㅏ -4655
▁ㅅㅙ -4656
▁ㅇㅏㄱㅁㅏ -4657
ㅂㅐㄱㄱㅘ -4658
▁ㅇㅣㄴㅎㅕㅇ -4659
▁ㅅㅐㅇㅇㅣㄹ -4660
▁ㄱㅗㅇㅇㅣㄴ -4661
▁ㅍㅕㅇㅎㅐㅇ -4662
▁ㅌㅐㅇ -4663
ㅌㅡㄹㅈㅡ -4664
▁128 -4665
▁ㅅㅏㄴㄷㅏ -4666
ㅊㅐㄱㅈㅓㅁ -4667
ber -4668
▁ㅅㅓㅇㅁㅗ -4669
age -4670
▁ㅋㅓㅁㅍㅓ -4671
▁ㅋㅗㄹㄹㅏ -4672
ㅇㅝㄴㅅㅣ -4673
▁ㅈㅓㄱㄷㅐ -4674
▁ㄱㅗㅅㄱㅗㅅ -4675
▁ㅎㅘㄴㅅㅏㅇ -4676
ㅇㅛㅇㅅㅗ -4677
▁ㅁㅣㄴㅇㅕㅇ -4678
▁ㅂㅣㄹㅎㅔㄹㄹㅡㅁ -4679
▁ㄱㅡㄴㅈㅓㅂ -4680
▁ㅊㅣㄴㅊㅓㄱ -4681
▁$ -4682
▁ㅇㅣㄴㅌㅔ -4683
▁ㅎㅏㄴㄷㅔ -4684
▁ㄱㅏㅅ -4685
▁ㅂㅏㄹㅇㅝㄴ -4686
ㅍㅐㄴ -4687
▁ㅈㅓㄴㄷㅜ -4688
iz -4689
▁ㅁㅣㄴㅅㅏ -4690
▁ㅇㅏㄴㅈㅏㅇ -4691
▁1909 -4692
▁ㅊㅓㅇㅇㅘ -4693
sp -4694
▁ㅁㅣㄷㅇㅡㅁ -4695
ㅍㅏㅇ -4696
▁ㅂㅕㄹㄱㅐ -4697
ㅉㅓ -4698
▁ㅆㅜ -4699
▁ㅌㅖㄴ -4700
▁ㅋㅘ -4701
▁ㅅㅏㅇㅈㅏ -4702
▁ㅇㅕㄴㄷㅗ -4703
▁ㅈㅣㄴㄹㅣ -4704
▁ㅌㅡㄱㅇㅠ -4705
▁ㅅㅏㅇㅅㅏㅇ -4706
▁ㅈㅡㄹㄱㅣ -4707
▁ㅇㅕㄴㅅㅔ -4708
▁ㅇㅕㄱㅁㅕㅇ -4709
▁149 -4710
▁ㅎㅗㅇㅅㅜ -4711
ㅋㅡㄹㄹㅏ -4712
▁ㄱㅏㅁㅈㅣ -4713
▁ㅅㅏㅇㅂㅜ -4714
▁102 -4715
ㅈㅓㄴㄷㅡ -4716
▁ㄱㅓㄴㅇㅢ -4717
ㄹㅏㅁㅎㅚ -4718
▁ㄱㅏㄱㄱㅣ -4719
▁ㅂㅗㄱㅈㅏㅇ -4720
▁ㅇㅗㅁ -4721
▁ㅂㅓㅂㄹㅕㅇ -4722
ㅂㅏㄷㅊㅣㅁ -4723
▁ㄴㅓㄹ -4724
▁ㅆㅗㄷ -4725
▁ㄹㅜㄹ -4726
▁ㅇㅣㄹㅉㅣㄱㅇㅣ -4727
▁ㄹㅜㅇ -4728
ㄹㅏㅇㅍㅡ -4729
▁ㄱㅘㄴㄴㅕㅁ -4730
▁ㄴㅜㄴㅁㅜㄹ -4731
▁ㅌㅡㄴ -4732
▁ㅇㅏㅇㄹㅣ -4733
ㅈㅗㅇㅅㅏ -4734
ge -4735
▁ㄷㅗㅇㄷㅡㅇ -4736
▁ㅈㅣㅂㄱㅖ -4737
ㅁㅐㄴㅅㅡ -4738
▁ㅇㅜㄴㄷㅗㅇㅈㅏㅇ -4739
ㅇㅘㅆㅇㅡ -4740
▁Bl -4741
▁ㄱㅓㄴㅊㅜㄱㄱㅏ -4742
AD -4743
ㅅㅡㄹㄹㅏㅁㄱㅛ -4744
▁ㅈㅓㄴㄹㅖ -4745
▁ㅇㅑㄱㅎㅏㄴ -4746
▁ㅈㅜㄴㄱㅕㄹㅅㅡㅇ -4747
ㅁㅓㄴㄷㅡ -4748
ㅌㅡㄱㅂㅕㄹㅈㅏ -4749
▁ㄷㅗㅇㄷㅏㅇ -4750
ㄱㅜㄱㅈㅜ -4751
▁ㄱㅕㅇㅂㅜ -4752
▁ㄴㅔㄹ -4753
▁ㅈㅓㄴㄷㅐ -4754
▁ㅅㅓㄴㅇㅝㄴ -4755
▁CPU -4756
▁ㄴㅏㄴㄷㅏ -4757
▁ㄷㅜㅇㄱㅡㄴ -4758
▁ㅂㅏㄱㅌㅏㄹ -4759
ㅅㅏㅇㅅㅡ -4760
▁ㅂㅜㄴㄱㅘㅇ -4761
▁ㅅㅐㅇㅁㅕㅇㅊㅔ -4762
ㅂㅏㄱㅈㅟ -4763
ㅅㅕㄴㅅㅡ -4764
▁ㅋㅐㅁㅍㅔ -4765
ㅂㅜㄴㄱㅜㄴ -4766
▁ㅇㅣㄴㄱㅕㄱ -4767
▁ㅎㅟㅂ -4768
▁ㄷㅜㄹㄹㅔ -4769
▁ㅎㅘㅇㅎㅐ -4770
▁ㅇㅣㅂㅅㅏㅇ -4771
▁ㄱㅗㅇㄹㅑㄱ -4772
▁ㄱㅘㅇㄴㅕㄴ -4773
orld -4774
ㅊㅏㅇㄱㅜㄴ -4775
▁ㅋㅗㄹㄹㅔ -4776
▁ㅁㅕㅇㅇㅢ -4777
▁ㅇㅒ -4778
▁147 -4779
ㅂㅡㄹㄹㅗ -4780
▁ㅂㅗㄹㄹㅣ -4781
ㅌㅜㅁ -4782
▁ㅇㅣㄹㅈㅗㄱ -4783
▁al -4784
▁ㅇㅣㄹㄱㅘㄴ -4785
▁ㅊㅏㅇㄱㅓㄴ -4786
▁ㅂㅘㅆ -4787
▁1915 -4788
▁ㄱㅏㅇㄱㅘ -4789
▁ㅅㅔㅁ -4790
▁ㄱㅗㄹㅍㅡ -4791
ㅂㅜㅌㅇㅣ -4792
▁ㅅㅏㅅ -4793
ㅇㅓㅁㅅㅡ -4794
▁127 -4795
ㄴㄷㅡㄹ -4796
▁ㅋㅏㄹㄹㅏ -4797
▁ㅂㅏㄹㅎㅕㄴ -4798
▁ㅊㅓㅇㅈㅏㅇ -4799
ㅍㅕㅇㄱㅜㄴ -4800
ㅎㅏㅇㄱㅗㅇ -4801
▁ㅁㅜㄴㅇㅑㅇ -4802
▁ㄴㅏㅁㅎㅏㄴ -4803
▁ㅁㅜㄴㅎㅏㄱㅅㅏㅇ -4804
▁ㄱㅘㅇㅂㅜ -4805
▁ㅂㅜㄱㄱㅜ -4806
▁ㅈㅓㄱㅈㅏ -4807
▁ㅈㅣㄱㅊㅐㄱ -4808
ㅊㅏㅇㄱㅣ -4809
▁ㅅㅔㄴㅅㅓ -4810
▁ㅈㅜㅇㄱㅜㄱㅇㅣㄴ -4811
ㄲㅜㄴ -4812
ㅎㅣㅁ -4813
▁171 -4814
▁ㅌㅗㅇㅊㅣㅇ -4815
▁ㄴㅟ -4816
ㅇㅜㄴㄷㅏ -4817
▁ㄷㅗㅇㄹㅐ -4818
▁ㄲㅚ -4819
ㄱㅓㅂ -4820
▁ㄹㅣㄹ -4821
▁ㅌㅏㅁㅈㅣ -4822
▁ㅇㅗㄴㅊㅓㄴ -4823
ik -4824
▁1913 -4825
ㅊㅣㄹㄹㅣ -4826
ㅁㅠㄹㄹㅔ -4827
▁SP -4828
▁ㅋㅓㅆ -4829
▁ㅍㅜㅅㅂㅗㄹ -4830
ㅂㅓㄹㄹㅔ -4831
▁ㅇㅏㄹㅋㅗ -4832
EN -4833
▁ㅈㅓㄴㅎㅏㅁ -4834
▁ㅈㅓㄴㅎㅏㄴㄷㅏ -4835
▁ㅋㅏㅁㅂㅗ -4836
▁ㄱㅡㅁㅇㅐㄱ -4837
▁ㅈㅓㅇㅁㅣㄹ -4838
ㄷㅏㄷ -4839
▁ㅎㅏㅂㅂㅓㅂ -4840
▁ㅂㅓㅂㅈㅔ -4841
▁ㅇㅔㄴㅈㅣ -4842
▁ㅊㅜㄹㅌㅗ -4843
ㅂㅣㅅ -4844
▁141 -4845
ㄱㅗㅇㅅㅣㄴ -4846
▁1895 -4847
▁ㄱㅣㅁㅅㅜ -4848
int -4849
▁GT -4850
ㅍㅔㄹ -4851
ㅇㅜㄴㄹㅗ -4852
ㅂㅏㅌ -4853
▁ㅅㅗㄴㄱㅏ -4854
▁ㄷㅏㄹㄹㅣㄴ -4855
▁ㅈㅏㅇㅁㅣ -4856
▁ㅅㅣㄹㅈㅗㅇ -4857
▁Tr -4858
ㅅㅖㄹ -4859
▁ㄴㅏㅁㄱㅣㄴ -4860
ㄲㅝ -4861
▁ㄴㅔㄴ -4862
MS -4863
ㅅㅓㄴㄷㅐ -4864
▁ㅇㅑㅇㅅㅏㅇ -4865
▁ㅍㅣㄹㄹㅣㅂ -4866
▁ㅅㅣㄴㅅㅔ -4867
▁ㅎㅑㅇㅎㅜ -4868
▁ㅇㅏㄹㅂㅔ -4869
▁ㅇㅗㄱㅅㅡ -4870
▁ㅅㅣㄴㅎㅡㅇ -4871
ㅇㅣㄴㅁㅕㅇㅅㅏ -4872
▁ㅊㅣㄴㅇㅣㄹㅇㅣㄴㅁㅕㅇㅅㅏ -4873
GC -4874
ㄴㅣㄴㄷㅏ -4875
▁ㄷㅏㄴㄱㅣ -4876
▁ㅅㅏㅇㅅㅔ -4877
ust -4878
ㄱㅡㄹㅅㅡ -4879
▁ㄱㅜㄱㅅㅏ -4880
▁ㅅㅗㄱㅅㅓㅇ -4881
▁ㅇㅓㄴㄹㅗㄴㅇㅣㄴ -4882
▁ㅋㅓㄹㄹㅓ -4883
▁ㄷㅏㄴㅈㅓㅁ -4884
▁ㅇㅝㄴㅂㅏㄴ -4885
▁ㅇㅣㅂㅊㅔ -4886
▁ㅂㅜㄱㅂㅏㅇ -4887
▁144 -4888
▁ㄱㅜㅇㅈㅓㅇ -4889
▁ㅈㅓㅇㅁㅜ -4890
ep -4891
▁ㅅㅓㅂㅊㅟ -4892
ㅋㅘ -4893
ㅈㅏㅁ -4894
▁135 -4895
▁ㅁㅏㄴㅅㅔ -4896
ㄹㅏㅇㅅㅜ -4897
ㅌㅡㄹㄹㅔ -4898
▁ㄱㅕㄱㄹㅕㄹ -4899
▁ㅊㅓㄴㅁㅜㄴㅎㅏㄱㅈㅏ -4900
▁ㄱㅗㅇㅊㅐ -4901
▁ㄱㅏㅇㄱㅕㅇ -4902
▁ㄱㅣㅁㅍㅗ -4903
▁ㅊㅏㅇㅅㅣ -4904
▁ㄷㅓㅅㅂㅜㅌㅇㅕ -4905
▁ㅂㅏㄹㅎㅐ -4906
ude -4907
▁169 -4908
▁111 -4909
▁ㅅㅗㅇㄴㅏ -4910
▁CO -4911
▁ㅂㅐㄱㅎㅘ -4912
▁ㄷㅣㅇ -4913
▁ㅁㅕㅇㅁㅗㄱ -4914
▁ㅌㅓㄱ -4915
▁ㄷㅗㅇㄴㅕㄴ -4916
▁ㅊㅗㅇㅅㅓㄴㄱㅓ -4917
ㅂㅌㅓ -4918
▁ㄱㅣㅁㅈㅐ -4919
▁ㅈㅜㅇㅈㅐ -4920
▁TH -4921
▁ㄱㅏㄴㅅㅏ -4922
▁119 -4923
ㄹㅣㄹㄹㅓ -4924
▁ㄴㅏㄴㅁㅣㄴ -4925
ㅁㅏㄹㄹㅏ -4926
ㅅㅓㄱㄱㅣ -4927
ㅓㄱㅈㅓㅇ -4928
▁ㅍㅐㅇㅊㅏㅇ -4929
▁ㅍㅕㅇㅇㅣㄹ -4930
▁ㅈㅜㄱㅇㅕㅆ -4931
▁ㄱㅣㅁㅇㅕㅇㅅㅏㅁ -4932
▁ㄷㅗㅇㄷㅗㄱ -4933
ㅇㅐㅇ -4934
ㅅㅐㅇㅎㅘㄹ -4935
▁ㅇㅏㄴㅇㅑㅇ -4936
ㄱㅡㄹㄹㅓ -4937
ㅇㅜㄹㄷㅐ -4938
▁ㅋㅓㄹㄹㅓㅁㅂㅣ -4939
ㅃㅏㄹ -4940
▁ㅍㅔㄹ -4941
ㅅㅏㄴㄷㅗㅇ -4942
▁ㄱㅣㄴㅈㅏㅇ -4943
▁ㅊㅗㅇㄱㅘㄹ -4944
▁ㄷㅗㅇㄷㅐ -4945
▁ㅁㅜㄹㅈㅏ -4946
▁ㅂㅕㄹㅊㅣㅇ -4947
▁ㅍㅕㅇㅇㅑ -4948
ㅁㅣㄴㅈㅏ -4949
▁ㅇㅕㅇㄹㅣ -4950
▁ㄱㅣㅁㅈㅣㄴ -4951
▁ㅍㅏㅁ -4952
▁ㅂㅏㄹㅌㅡ -4953
ㅅㅅㅜ -4954
ib -4955
▁ㅊㅓㅁㄱㅏ -4956
ㅂㄴㅣ -4957
▁ㄱㅗㅇㅇㅢ -4958
▁ㅊㅓㄴㄷㅗ -4959
▁ㅂㅏㄴㄱㅕㄱ -4960
▁ㅎㅑㅇㅎㅏㄴ -4961
ㅎㅐㅇㅇㅟ -4962
▁172 -4963
ㅁㅅㅐ -4964
▁ㄹㅛㅇ -4965
▁ㄷㅏㅎ -4966
▁ㅂㅕㅇㅇㅕㄱ -4967
▁ㅋㅏㅇ -4968
▁106 -4969
ㅅㅓㄴㄱㅓ -4970
▁ㄱㅣㅁㅌㅐ -4971
▁ㅊㅣㅁㅁㅗㄹ -4972
▁ㅈㅗㄴㅈㅜㅇ -4973
ㅅㅡㄹㄹㅏㄴㄷㅡ -4974
▁ㅂㅜㄱㅇㅟ -4975
▁ㅅㅓㅂㅈㅓㅇ -4976
▁ㅅㅜㅇㅂㅐ -4977
▁ㅇㅣㄴㅈㅐ -4978
▁ㅅㅣㄱㅂㅕㄹ -4979
▁ㅊㅜㅇㅂㅜㄱ -4980
ㅅㅣㄹㄹㅣ -4981
▁ㄴㅏㅌㅁㅏㄹ -4982
▁ㅅㅣㄴㅎㅏㄱㄱㅛ -4983
ㅊㅔㄴ -4984
ㅅㅓㄴㅅㅡ -4985
ㅇㅣㄴㅇㅓ -4986
ome -4987
▁ㄷㅓㅁ -4988
▁ㅈㅓㅇㅈㅓㄴ -4989
ment -4990
▁ㅇㅑㅇㅋㅣ -4991
▁ㅍㅜㄹㄹㅕ -4992
▁ㅇㅡㅁㅇㅝㄴ -4993
ㅅㅓㄱㅌㅏㅂ -4994
▁ㅈㅓㅇㄹㅕㄹ -4995
▁ㄷㅡㅇㅈㅐ -4996
▁ㅅㅏㅇㄷㅏㅇㅅㅜ -4997
ㅊㅡㅇㅅㅓㄱㅌㅏㅂ -4998
▁ㅎㅕㅂㅈㅗ -4999
▁ㄱㅏㅂㅈㅏㄱ -5000
▁ㅈㅓㄴㅇㅏㅂ -5001
▁We -5002
ㅇㅜㄹㄹㅣ -5003
▁ㅈㅜㅇㄹㅑㅇ -5004
pe -5005
▁ㅇㅝㄴㅎㅏ -5006
▁ㅎㅔㄹㄹㅣ -5007
ㅈㅓㄴㄱㅘㅇㅇㅕㄱㅅㅣ -5008
▁It -5009
▁ㅋㅡㄹㄹㅣㄴ -5010
▁ㅋㅗㄴㅋㅡ -5011
▁ㅍㅕㄴㄹㅣ -5012
▁ㄲㅙ -5013
▁ㅈㅏㅇㅇㅏㄴ -5014
▁ㄱㅘㄴㄱㅜ -5015
▁ㄲㅓㅂㅈㅣㄹ -5016
▁ㅎㅏㄴㄷㅗㅇㅇㅏㄴ -5017
ian -5018
▁ㅈㅜㅇㅅㅗ -5019
▁ㅅㅣㄴㅈㅜㅇ -5020
▁ㅍㅏㄹㄹㅏ -5021
▁HT -5022
▁ㄱㅚㅇㅈㅏㅇ -5023
▁ㄷㅗㅇㄹㅕㄱ -5024
▁ㄴㅏㄹㅉㅏ -5025
ire -5026
▁ㄱㅘㄴㄹㅏㅁ -5027
▁ㅍㅕㅇㅌㅐㄱ -5028
ㄲㅣㄴ -5029
▁ㅅㅏㅇㅅㅓ -5030
▁ㅂㅏㅇㅍㅐ -5031
▁ㅎㅏㅁㅂㅜ -5032
▁ㅇㅓㄴㄷㅓ -5033
▁CE -5034
▁ㅁㅔㄹㄹㅗ -5035
▁ㅎㅡㅌㅇㅓ -5036
▁ㅌㅗㅇㄱㅡㄴ -5037
▁ㄲㅡㄶㅇㅣㅁ -5038
▁ㄹㅣㅇㅋㅓㄴ -5039
ere -5040
▁ㅂㅏㅇㅊㅣㅁ -5041
▁ㅅㅓㄴㅈㅗㅇ -5042
▁ㅅㅐㅇㄹㅣ -5043
▁ㅊㅓㅇㅇㅝㄴ -5044
ㅎㅐㅇㅈㅏ -5045
▁ㄱㅏㄴㅎㅗ -5046
▁ㄱㅐㄹㄹㅓ -5047
▁ㄷㅏㄴㅅㅣㄱ -5048
▁ㅁㅓㅁㅊㅜ -5049
IM -5050
▁ㅎㅏㅁㅇㅠ -5051
▁ㅅㅓㄴㄱㅜ -5052
▁ㅊㅗㄱㄱㅜ -5053
ㅅㅡㅇㅈㅣ -5054
▁ㅎㅕㅂㅈㅜ -5055
ㅈㅜㅇㄱㅜㄱ -5056
ace -5057
▁ㄱㅗㅇㄷㅏㄴ -5058
▁ㅈㅗㅇㄱㅕㄹ -5059
▁ㅈㅡㅇㅈㅣㄴ -5060
▁ㅇㅣㄴㅅㅏㄴ -5061
cl -5062
▁ㅇㅘㄹ -5063
ㄴㅓㄹㄹㅣ -5064
ㄹㅏㅁㅈㅟ -5065
ide -5066
▁ㅍㅜㅇㄱㅕㅇ -5067
▁ㄱㅗㅇㅁㅗ -5068
ㅅㅣㄹㄹㅗㄱ -5069
▁ㅅㅣㄹㅈㅓㄴ -5070
ㅁㅏㄹㄹㅣ -5071
ㄱㅡㅅ -5072
▁ㄱㅡㅂㅅㅗㄱ -5073
▁ㅅㅣㄴㄱㅣ -5074
▁ㅊㅗㅇㅅㅏ -5075
▁ㄷㅏㅅ -5076
▁ㅌㅏㄹㅎㅘㄴ -5077
ㄲㅕ -5078
▁ㅁㅗㄹㄹㅣ -5079
▁ㅇㅝㄴㄱㅗ -5080
▁ㅂㅓㄴㅇㅕㅇ -5081
▁ㅂㅜㄹㅍㅕㄴ -5082
▁ㅇㅑㄱㅊㅣㅇ -5083
▁TO -5084
ㄷㅗㄹㅇㅏ -5085
▁ㅅㅣㄹㄹㅣㄴ -5086
▁IBM -5087
▁ㅅㅣㄴㅎㅏㄱㅈㅏ -5088
▁ㄴㅣㅇ -5089
▁ㄱㅘㄴㅌㅗㅇ -5090
▁ㄴㅏㄱㅅㅓㄴ -5091
▁ㅇㅏㅁㅅㅓㄱ -5092
▁ㅅㅐㅇㅈㅓㄴ -5093
ㄱㅏㄴㅈㅣ -5094
▁ㅈㅜㅇㅅㅜㄴ -5095
▁ㅅㅏㅇㅈㅏㅇ -5096
▁ㄱㅕㅇㅂㅗ -5097
▁ㅇㅘㅅ -5098
ㄱㅗㄱㄹㅣ -5099
▁ㅊㅗㅇㄷㅐ -5100
▁ㅊㅓㅇㅎㅏ -5101
▁ㅇㅏㄴㅅㅓㅇ -5102
▁148 -5103
▁ㅈㅣㄴㄱㅜㄴ -5104
▁ㅇㅣㄹㅎㅘ -5105
▁ㅈㅜㅇㅇㅢ -5106
▁ㅊㅐㄱㅇㅣㅁㅈㅏ -5107
ㄱㅞ -5108
▁ㅈㅓㄴㅅㅓㅇㄱㅣ -5109
▁ㅇㅕㅇㅇㅢ -5110
▁ㄴㅣㅅㅍㅗㄴ -5111
▁ㅅㅓㅇㅇㅜㄴ -5112
▁ㅅㅓㅇㄹㅣ -5113
▁ㄱㅐㄱㄱㅘㄴ -5114
▁ㅅㅏㄹㄹㅣ -5115
▁ㄱㅕㄹㅅㅓㄴ -5116
▁136 -5117
▁ㄷㅗㅇㅅㅏㅇ -5118
▁ㅈㅜㅇㅅㅣㅁㅂㅜ -5119
▁ㄱㅣㅁㅅㅏㅇ -5120
▁ㅌㅡㄱㅈㅣㅂ -5121
▁ㄲㅡㅀ -5122
ㅇㅕㅆㅇㅡ -5123
▁ㄱㅗㅇㅈㅣㄱ -5124
▁ㅁㅣㄹㅇㅑㅇ -5125
▁la -5126
▁ㅎㅏㄴㅅㅡ -5127
▁ㅇㅠㄱㅈㅣ -5128
ㅅㅡㄺ -5129
▁ㅋㅜㄴ -5130
▁ㅁㅕㅇㅈㅔ -5131
▁ㅅㅡㅇㅈㅓㅁ -5132
▁138 -5133
▁ㅇㅕㄱㅅㅓㄹ -5134
ㄸㅜ -5135
▁ㅎㅏㄴㅅㅓㅇㅂㅜ -5136
▁ㅈㅔㄹ -5137
▁1916 -5138
▁ㄱㅐㄱㅊㅔ -5139
▁ㅂㅜㄹㅁㅕㅇ -5140
ㅁㅕㄴㅊㅔ -5141
▁ㄷㅗㄹㅇㅕㄴ -5142
ㅈㅓㅇㅈㅏ -5143
▁ㅊㅜㅇㅅㅣㄹ -5144
▁ㅍㅕㅇㅂㅓㅁ -5145
▁ㄷㅡㄴㅈㅣ -5146
▁ㅂㅕㅇㅈㅗ -5147
▁ㄱㅕㄱㅌㅜ -5148
▁ㅇㅝㄴㄴㅐ -5149
▁ㅅㅏㄴㄹㅣㅁ -5150
▁ㄹㅡㅇ -5151
▁ㅇㅓㅂㄱㅖ -5152
▁ㅇㅕㄹㄷㅐ -5153
ㅅㅏㅇㅇㅟ -5154
▁ㅅㅜㄴㅎㅚ -5155
▁ㅇㅣㄴㅇㅕㄴ -5156
▁DC -5157
▁ㅈㅏㅇㄴㅏㄴ -5158
▁ㅎㅕㄴㄱㅡㅁ -5159
ㄱㅕㅁ -5160
▁ㅁㅓㅅ -5161
▁ㅆㅏㅇㄷㅜㅇㅇㅣ -5162
ㄹㅣㄹㄹㅏ -5163
▁ㅇㅣㄹㅈㅗ -5164
▁ㅌㅐㅇㅋㅡ -5165
▁ㅈㅏㅇㄹㅕ -5166
▁En -5167
ㅇㅜㅇㅈㅓㄴ -5168
▁ㅂㅜㄴㄷㅏㅇ -5169
ㄹㅏㅇㅋㅏ -5170
▁ㅁㅏㄱㄴㅐ -5171
▁ㄱㅕㅇㅇㅕㄴ -5172
▁⊸ -5173
▁ㅈㅏㅈ -5174
▁ㅍㅕㅇㅇㅝㄴ -5175
▁ㅈㅜㅇㅅㅓㅇㅈㅏ -5176
▁ㄴㅏㅁㅎㅐ -5177
▁ㅇㅕㄴㅍㅐ -5178
▁ㅁㅗㄱㅍㅏㄴ -5179
▁ㅅㅏㅇㄷㅏㅁ -5180
▁ㅎㅜㅁ -5181
▁ㅇㅣㅂㄷㅏㅇ -5182
▁ㅎㅕㄴㅈㅗㅇ -5183
▁ㅈㅜㅇㅇㅟ -5184
▁ㅊㅔㄹㅅㅣ -5185
▁ㅊㅜㄴㅊㅓㄴ -5186
▁ㅇㅝㄴㅅㅜㅇㅇㅣ -5187
▁360 -5188
▁ㅅㅗㅅ -5189
▁ㅁㅗㄹㄹㅕ -5190
▁ㅅㅣㄴㅅㅐㅇ -5191
▁ㅇㅕㅇㅈㅏㅇ -5192
▁ㅂㅗㄱㅅㅓㄴ -5193
▁ㅈㅏㄱㅅㅔㄴ -5194
▁NBA -5195
▁ㅇㅕㅇㄴㅏㅁ -5196
▁ㅊㅜㄴㅊㅜ -5197
▁104 -5198
▁ㅅㅣㅁㅎㅐ -5199
▁ㄱㅓㄱㅈㅓㅇ -5200
▁ㄷㅏㅇㅇㅣㄹ -5201
▁ㅁㅕㅇㄹㅕㅇㅇㅓ -5202
▁ㅇㅑㅇㄷㅗ -5203
▁ㅈㅓㄴㄴㅕㅁ -5204
▁ㅊㅏㅇㄱㅗ -5205
▁ㅍㅡㄹㄹㅣ -5206
▁ㅂㅏㄴㄱㅏㅁ -5207
▁ㅇㅣㅂㅈㅣ -5208
▁ㅉㅗㅊㄱㅕ -5209
▁ㄱㅏㅁㄹㅣ -5210
▁ㄱㅡㄱㄷㅗㅇ -5211
▁ㅇㅕㄴㅎㅏㅂㅎㅚ -5212
ㅌㅡㄹㄹㅐㄴ -5213
▁ㅂㅏㄴㅂㅏㄱ -5214
ark -5215
ㅊㅘㄴ -5216
▁col -5217
▁ㅅㅗㅁ -5218
▁ㅅㅣㄹㄹㅕ -5219
▁ㅎㅏㅂㅊㅏㅇ -5220
▁ㅋㅓㅁㅍㅏ -5221
▁ㅈㅓㄱㅂㅜㄴ -5222
▁143 -5223
▁123 -5224
▁ㅇㅣㄹㄹㅓ -5225
ㅍㅡㅁ -5226
ㅂㅡㄹㄹㅣ -5227
ㄱㅘㄴㅊㅗㅇ -5228
ㅇㅣㅁㅈㅡ -5229
▁AR -5230
▁ㅅㅏㅇㄱㅗㅇ -5231
▁109 -5232
▁ㅁㅣㄴㅎㅚ -5233
▁ㄱㅕㅁㅎㅏ -5234
ㅌㅏㅁ -5235
▁ㅂㅐㄱㅅㅐㄱ -5236
▁ㅇㅏㅁㅅㅡ -5237
ㅇㅡㄴㅅㅐㄱ -5238
▁ㅂㅕㅇㅎㅐㅇ -5239
▁CS -5240
▁ㅌㅐㄱㅅㅣ -5241
▁ㅎㅐㅇㅈㅓㄱ -5242
▁ㅇㅔㄹㄹㅔ -5243
ile -5244
▁ㅎㅐㅅ -5245
ㅅㅗㄱㄱㅣ -5246
▁ㅁㅕㄴㅎㅓ -5247
▁ㅅㅗㅇㅅㅣ -5248
▁ㅍㅓㅁ -5249
▁ㅅㅜㅁㄱㅕ -5250
▁ㅇㅔㄴㅌㅡ -5251
▁ㅁㅜㅇ -5252
▁ㅌㅣㄹ -5253
▁ㅅㅣㄴㅈㅜ -5254
▁ㅅㅣㄴㅅㅗㄱ -5255
▁AK -5256
▁ㅇㅏㅀ -5257
ㅁㅏㄴㄷㅜ -5258
ㅅㅣㄹㅂㅔ -5259
▁ㄱㅕㄹㅎㅗㄴㅅㅣㄱ -5260
▁ㄱㅣㅁㄱㅣ -5261
ㄹㅏㅂㅇㅓ -5262
▁ㅈㅣㄴㅉㅏ -5263
▁ㄱㅕㅇㄱㅘㄴ -5264
▁ㄴㅐㅇㄱㅏㄱ -5265
AL -5266
▁ㅅㅣㄴㅅㅣ -5267
▁ㅍㅔㄴㅅㅣㄹㅂㅔ -5268
▁NC -5269
▁Pr -5270
▁ㅂㅏㄼ -5271
▁ㅍㅏㅇ -5272
▁ㅎㅏㄴㅉㅗㄱ -5273
ㅂㅓㅂㅇㅣㄴ -5274
▁CON -5275
▁ㄱㅡㅁㅇㅛ -5276
▁ㅊㅜㄹㅊㅓ -5277
▁CC -5278
▁ㅇㅗㄹㅂㅏ -5279
▁ㅅㅏㅁㅈㅣㄴ -5280
▁ㅊㅓㅇㅊㅜㄴ -5281
▁ㅈㅏㅇㄱㅓ -5282
▁ㅇㅕㅍㅁㅕㄴ -5283
▁ㅂㅏㅇㅅㅗㅇㅅㅏ -5284
▁ㅁㅕㅇㅂㅐㄱ -5285
ㅎㅓㄴㅂㅜ -5286
▁ㅅㅣㄹㅈㅏㅇ -5287
▁ㅅㅏㅁㅊㅡㅇㅅㅓㄱㅌㅏㅂ -5288
xt -5289
ㄹㅜㅁ -5290
▁is -5291
▁ㅁㅐㅂ -5292
▁ㅍㅏㄹㄹㅣ -5293
ㅎㅗㅂ -5294
▁ㅂㅏㄱㅎㅐ -5295
▁ㅊㅣㄴㅇㅘㅇ -5296
▁ㄱㅜㄱㅅㅗ -5297
▁ㅅㅏㄴㄹㅏㄴ -5298
▁ㅂㅜㄴㅂㅣ -5299
▁ㅇㅣㅁㅇㅛㅇ -5300
▁ㅈㅓㅇㅁㅏㄹ -5301
ㅅㅔㅅ -5302
ㅋㅡㄹㄹㅐㄴㄷㅡ -5303
ㅈㅏㅇㅅㅣㄹ -5304
▁ㄴㅏㅁㄷㅗㅇㅂㅜ -5305
▁Op -5306
ㅌㅓㅁ -5307
▁ㅌㅏㄹㄷㅏㅇ -5308
▁ㅈㅓㅇㅈㅜ -5309
▁ㅎㅚㅅㅅㅜ -5310
ㅑㄹ -5311
▁ㅅㅣㄴㄱㅠ -5312
▁ㅅㅐㅇㅅㅣㄱ -5313
▁WWE -5314
ㅅㅏㄹㅇㅣ -5315
▁ㅁㅗㄴㅅㅡ -5316
▁ㅂㅗㅇㅅㅙ -5317
▁ㅈㅏㅇㅎㅏㄱ -5318
▁ㅌㅗㅇㅇㅕㅇ -5319
▁ㅇㅗㄹㄹㅏㅆㅇㅡ -5320
▁ㅅㅜㄴㄱㅛ -5321
ft -5322
ㅇㅣㄴㅈㅓㄴ -5323
▁ㅅㅣㄴㅈㅗ -5324
ㅇㅑㅇㅎㅏㅁ -5325
▁ㅎㅕㄹㅌㅗㅇ -5326
▁ㅅㅏㅇㄷㅏㄴ -5327
▁ㅅㅏㅇㅈㅓㅁ -5328
▁ㅇㅏㄹㄹㅜ -5329
▁ㅇㅏㄹㅈㅔ -5330
▁ㅈㅏㄴㄹㅠ -5331
▁ㅈㅓㅇㅎㅏㄴ -5332
▁ㄱㅗㅇㅅㅜ -5333
▁ㅂㅏㄱㄹㅏㅁㅎㅚ -5334
▁ㄴㅏㅇㅁㅏㄴ -5335
ㄴㅓㄼ -5336
ㄹㅐㄴㅌㅡ -5337
▁ㅊㅣㄴㅇㅣㄹㅍㅏ -5338
ㅅㅏㅇㄷㅗ -5339
ㅇㅑㅇㄱㅖ -5340
ㅈㅓㅇㄹㅣ -5341
▁ㄸㅣㄴㄷㅏ -5342
▁ㅌㅗㅇㅈㅡㅇ -5343
ㅎㅡㄹ -5344
ite -5345
▁ㄱㅘㅇㅁㅜㄹ -5346
▁ㄱㅗㅇㄱㅘㄴ -5347
▁ㅅㅓㄹㅌㅏㅇ -5348
▁LP -5349
▁ㅁㅗㄱㅈㅐ -5350
▁ㅅㅣㄴㅎㅏㄴ -5351
▁ㅇㅕㅁㄱㅣ -5352
▁ㅎㅏㅇㅅㅗ -5353
▁ㅅㅣㄴㅌㅏㄱ -5354
▁ㄱㅕㄱㅌㅚ -5355
▁ㅍㅓㅇㅋㅡ -5356
▁ㅎㅏㄴㅈㅣ -5357
▁ㄹㅗㄹㄹㅣㅇ -5358
▁ㅅㅓㅇㄷㅏㄴ -5359
▁ㅁㅐㄱㅈㅜ -5360
▁ㅅㅏㅇㅇㅛㅇ -5361
▁ㄴㅜㄹ -5362
▁ㅂㅓㅂㅈㅗ -5363
ㅇㅝㄴㅈㅏ -5364
▁ㅇㅡㅁㄹㅛ -5365
▁ㅊㅜㄱㅎㅏ -5366
▁SE -5367
▁ㄸㅏㅅ -5368
▁ㄱㅡㄴㄱㅛ -5369
▁ㅈㅓㄱㄷㅏㅇ -5370
▁107 -5371
ㅅㅓㄴㅇㅣㄹㅂㅗ -5372
▁ㄱㅕㅇㅅㅏㅇㄷㅗ -5373
▁ㅊㅜㅇㅈㅓㄴ -5374
▁ㄷㅏㅇㅈㅜ -5375
▁ㅌㅏㅁㄱㅜ -5376
ㄱㅏㄹㅅㅐㄱ -5377
ㅎㅘㅇㅊㅓㅇ -5378
▁ㅈㅜㄹㅁㅜ -5379
▁112 -5380
▁ㄱㅡㅂㄱㅕㄱㅎㅣ -5381
▁ㅈㅓㅇㅈㅓㅁ -5382
▁ㄱㅕㅇㅊㅏㄹㅊㅓㅇ -5383
▁Te -5384
▁ㄱㅘㅇㅎㅏㄱ -5385
ies -5386
▁126 -5387
ㅇㅡㄴㅇㅣ -5388
ㅇㅟㄴㅅㅡ -5389
▁ㅇㅜㄴㅎㅏ -5390
▁117 -5391
▁ㅅㅓㅇㅅㅜㄱ -5392
ㅍㅣㅂ -5393
ㅍㅗㄹㄹㅗ -5394
▁ㅍㅗㄱㄷㅗㅇ -5395
▁ㄹㅣㅅ -5396
▁ㅈㅗㄴㅅㅗㄱ -5397
▁ㄱㅡㄱㅎㅣ -5398
▁ㅅㅗㄱㅎㅐㅆ -5399
▁com -5400
▁ㅂㅣㄹㄹㅏ -5401
ㅊㅜㄱㅎㅏㅁ -5402
OL -5403
ㄲㅗㅂ -5404
ㅅㅐㅇㅈㅏ -5405
▁ㅅㅓㅇㅊㅔ -5406
ㅅㅜㄴㅅㅣㄴ -5407
▁ㅃㅏㄹㄱㅏㄴㅅㅐㄱ -5408
▁ㅁㅚ -5409
ㄷㅗㅇㄹㅕㄱ -5410
▁ㄷㅗㄷ -5411
▁ㄷㅗㅇㄱㅜㄱ -5412
ㅆㅜ -5413
ㄹㅏㄴㅎㅣ -5414
▁ㄱㅗㅇㅇㅣㄱ -5415
▁ㅋㅣㅁ -5416
▁ㅅㅐㅇㅅㅏㄴㄹㅑㅇ -5417
▁ㅇㅘㅇㅂㅗㄱ -5418
▁ㅂㅓㅁㅇㅠ -5419
▁ㅇㅕㄴㅅㅙ -5420
▁113 -5421
▁ㄲㅡㄹㄹㅕ -5422
▁ㅅㅣㄴㅁㅣㄴ -5423
ound -5424
▁ㅇㅜㄹㄹㅣ -5425
▁ㅊㅜㄱㅈㅓㄱ -5426
ond -5427
▁ㅂㅕㄹㄷㅏ -5428
ov -5429
▁ㄱㅏㅂㅈㅏㄱㅅㅡ -5430
▁z -5431
▁137 -5432
▁ㅍㅜㅁㅈㅗㅇ -5433
▁ㄷㅗㅇㅁㅜㄴ -5434
ㅊㅔㄹ -5435
▁ㅎㅡㅁ -5436
▁ㅍㅣㄹㅌㅓ -5437
▁be -5438
▁ㅅㅓㅇㅊㅟ -5439
▁ㅂㅓㄹㄱㅡㅁ -5440
ㅂㅐㅁㅂㅜㅌㅇㅣ -5441
▁ㅅㅏㅁㅅㅓㅇㅈㅓㄴㅈㅏ -5442
▁ㅇㅓㄴㄴㅣ -5443
▁ㄱㅣㅁㄱㅕㅇ -5444
ory -5445
▁ㄸㅏㅅㅈㅟ -5446
ㅅㅓㅇㄷㅏㅇ -5447
ㅋㅞ -5448
ath -5449
ㅍㅓㄹ -5450
ㅂㅔㄱ -5451
▁1894 -5452
ㅅㅜㅇ -5453
ㅋㅡㄴ -5454
▁ㄱㅘㅇㅎㅐ -5455
▁ㅎㅐㄴㄷㅡ -5456
▁ㅍㅗㅇ -5457
▁ㅎㅘㄴㅇㅕㅇ -5458
▁173 -5459
ㅍㅡㄹㄹㅏ -5460
▁ㅂㅜㅌㅇㅕㅆ -5461
▁ㅎㅏㄴㅇㅣㄴ -5462
▁ㅊㅏㅇㅇㅝㄴㅅㅣ -5463
▁RNA -5464
▁ㅁㅣㄱㅅㅡ -5465
▁ㅇㅣㄴㅊㅔ -5466
▁ㄴㅗㅇㄹㅣㅁ -5467
▁ㅌㅐㄹㄹㅓㄴ -5468
▁ㄱㅘㄴㅇㅡㅁ -5469
ㅇㅔㅅ -5470
▁ㅇㅡㅇㅇㅝㄴ -5471
▁121 -5472
ㄹㅕㅆㅇㅡ -5473
▁ㅎㅘㅇㅅㅣㄹ -5474
ㄴㅗㅁ -5475
▁ㅈㅓㄴㅎㅐㅆ -5476
▁ㅌㅐㄹㄹㅓㄴㅌㅡ -5477
▁ㄱㅏㅇㅅㅓ -5478
▁ㅇㅓㄱㅇㅏㅂ -5479
▁ㅌㅏㅁㅅㅐㄱ -5480
▁350 -5481
▁ㄸㅏㅆ -5482
▁ㄷㅏㄴㄷㅏㄴ -5483
▁ㅂㅏㄹㄹㅣ -5484
▁ㅂㅏㅇㅎㅘ -5485
▁ㅇㅣㄹㅂㅏㄴㅇㅣㄴ -5486
▁ㄱㅔㄹ -5487
ㅇㅓㅂㅇㅣㄴ -5488
▁ㄷㅟㅅㅁㅕㄴ -5489
▁ㅎㅏㄹㅈㅣ -5490
▁ㅎㅐㄱㅁㅜ -5491
▁ㅎㅕㄴㅈㅓ -5492
▁ㅇㅕㄹㅈㅓㅇ -5493
▁ㅈㅣㄴㄱㅡㅂ -5494
▁ㅊㅓㄴㅈㅏㅇ -5495
▁ㅊㅗㅇㄷㅗㄱㅂㅜ -5496
▁ㅇㅓㅂㄱㅡ -5497
▁ㅇㅕㅇㅅㅏㄴ -5498
iver -5499
▁ㅇㅕㅅ -5500
▁ㅅㅓㅇㅅㅏ -5501
ㄷㅗㄹㄹㅣ -5502
▁ㅅㅏㅇㅅㅏ -5503
▁ㄷㅏㄹㅎㅐㅆ -5504
▁ㅅㅐㅁㅍㅡㄹ -5505
▁ㅅㅣㄴㅇㅑㄱ -5506
▁ㅈㅓㄱㄷㅗ -5507
▁ㅊㅏㅇㅇㅓㅂ -5508
▁CF -5509
▁ㅂㅔㄹㄹㅣ -5510
▁ㄹㅠㄱ -5511
ㅇㅛㅇㅊㅔ -5512
ㅂㅓㄴㅅㅡ -5513
▁ㅈㅡㅇㅅㅗㄴ -5514
▁ㅋㅣㄱ -5515
▁ㅈㅑ -5516
▁ㄱㅗㅇㅁㅣㄴ -5517
▁ㅁㅏㄴㄴㅏㅁ -5518
man -5519
ㅂㅏㄱㅅㅡ -5520
▁ㄱㅕㄴㅈㅔ -5521
▁ㄴㅏㄹㅆㅣ -5522
▁ㅅㅣㄴㅅㅓㄴ -5523
▁ㅇㅣㅂㅇㅝㄴ -5524
▁". -5525
ㅌㅠㅁ -5526
▁ㅅㅡㅇㄱㅖ -5527
▁ㅎㅚㅇㄷㅏㄴ -5528
▁World -5529
▁ㅎㅣㅁㅇㅣㅂ -5530
ㅈㅜㄹㄱㅣ -5531
ㅇㅕㄴㅎㅏㅂ -5532
▁New -5533
ㄱㅜㄴㄱㅏ -5534
ign -5535
▁ㅇㅑㅇㅎㅗ -5536
▁On -5537
▁ㅇㅠㄱㅊㅔ -5538
▁ㅍㅗㄱㅎㅐㅇ -5539
▁ㅂㅓㅁㅇㅣㄴ -5540
MA -5541
▁ㄷㅏㅁㄱㅕ -5542
▁ㄷㅏㅁㄱㅣㄴ -5543
▁ㅁㅗㅅㅎㅏㄹ -5544
▁ㅁㅏㅁ -5545
▁ㅎㅟㄹ -5546
▁114 -5547
▁ㄱㅏㅁㅈㅏ -5548
ich -5549
▁ㅁㅟ -5550
ㄸㅜㄱ -5551
▁ㄱㅗㄱㅇㅣㄴ -5552
ial -5553
ㄷㅏㄴㅊㅔ -5554
▁ㄱㅡㄴㅇㅝㄴ -5555
ㅌㅗㄹ -5556
▁ㅇㅣㄴㅁㅜㄴ -5557
▁ㅅㅓㅇㄷㅗ -5558
▁ㅎㅏㄹㅁㅓ -5559
▁ㅈㅣㄴㄱㅗㅇ -5560
▁ㅅㅏㅇㅎㅐ -5561
▁ㄷㅣㄱ -5562
▁ㅂㅜㅌㅇㅣㄴ -5563
▁ㅇㅣㄹㅋㅓㄹ -5564
▁124 -5565
▁ㅇㅏㅁㅅㅣ -5566
▁ㅎㅏㄱㅁㅕㅇ -5567
▁ㄱㅡㄱㅈㅏㅇㅍㅏㄴ -5568
mer -5569
▁ㅈㅗㅇㅊㅏㄱ -5570
▁ㅁㅜㄴㅇㅖ -5571
▁ㅇㅝㄹㅇㅛ -5572
▁ㅁㅐㄱㄹㅏㄱ -5573
▁ㅅㅓㅇㅂㅕㄹ -5574
▁ㄱㅣㅁㅈㅓㅇㅇㅣㄹ -5575
▁118 -5576
▁ㅌㅗㅇㅌㅡㄹ -5577
▁ㅇㅣㄹㄱㅏ -5578
▁ㅅㅖㄹ -5579
ㅅㅜㄹㅈㅏ -5580
ㅇㅕㄹㅅㅏ -5581
▁ㅁㅓㄴㅈㅣ -5582
▁ㅅㅓㄴㅂㅣ -5583
▁CR -5584
▁Sc -5585
▁ㅅㅏㄹㄹㅏ -5586
▁ㅍㅏㄴㅂㅗㄴ -5587
ㄴㅝ -5588
ㅋㅝ -5589
▁EC -5590
▁ㅅㅣㄹㅊㅔ -5591
▁ㄱㅗㅇㅅㅡㅂ -5592
▁ㅅㅏㅇㅍㅛ -5593
ㅇㅑㄱㅍㅜㅁ -5594
▁ㄷㅜㅇㅈㅣ -5595
▁ㄹㅐㅁ -5596
▁ㅈㅡㅇㄷㅐ -5597
▁ㄱㅜㄴㅈㅓㅇ -5598
ㅊㅜㄱㄱㅜ -5599
ㅎㅘㅇㅎㅜ -5600
▁ㅂㅣㄹㄹㅕ -5601
▁ㅁㅜㄴㄱㅜ -5602
ㄷㅏㄺ -5603
▁1890 -5604
ㅅㅓㅇㄱㅖ -5605
▁GP -5606
ㄲㅜㅁ -5607
▁ㅅㅡㄴ -5608
▁ㄷㅜㄴㄷㅏ -5609
▁ㅅㅣㄴㄴㅕㅁ -5610
▁SD -5611
ㄷㅜㅁ -5612
▁ㅊㅕㅆ -5613
ㅅㅂㅜㄹ -5614
ㄱㅏㅄ -5615
ㅊㅓㄴㄹㅣ -5616
▁ㄴㅏㅁㅇㅝㄴ -5617
▁ㅂㅏㄴㅎㅐ -5618
▁ㅇㅏㄱㄷㅏㄴ -5619
ㄱㅗㅇㅈㅜ -5620
▁ㄱㅣㅁㄱㅠ -5621
▁ㅅㅓㅇㅁㅜㄴ -5622
▁ㅇㅝㄴㅎㅐㅆ -5623
hn -5624
▁ㅁㅏㄺ -5625
ㅌㅗㄹㄹㅔ -5626
ㅂㅕㄴㅇㅣㄴ -5627
▁ㄱㅏㄷ -5628
▁ㅈㅣㄴㅅㅏ -5629
▁ㅍㅜㅇㅈㅏ -5630
▁ㄷㅗㄱㅇㅣㄹㅇㅣㄴ -5631
ㅂㅏㅇㅅㅗㅇㄱㅗㅇㅅㅏ -5632
▁ㅋㅛ -5633
▁ㅎㅡㄴㅎㅏ -5634
▁GS -5635
ㅃㅜㄹ -5636
ㅆㅏㅇ -5637
ㅇㅣㅁㅂㅡ -5638
▁ㅎㅕㄹㄱㅘㄴ -5639
▁ㄱㅚㅇㅈㅏㅇㅎㅣ -5640
▁SU -5641
▁ㅂㅗㅇㅇㅏㄴ -5642
▁ㅎㅕㅂㅂㅏㄱ -5643
IP -5644
ㅎㅏㅇㅅㅣㄱ -5645
ㄷㅓㄱㅅㅕㄴ -5646
▁ㅊㅐㄹㄹㅣㄴㅈㅣ -5647
ㄷㅣㅈ -5648
▁ㄴㅏㅁㄱㅜ -5649
▁ㅇㅛㅇㅂㅕㅇ -5650
▁ㅇㅕㄴㅎㅏㅂㄱㅜㄱ -5651
ㅇㅗㄴㅈㅡ -5652
▁ㅎㅏㄱㄱㅖ -5653
Pa -5654
ㄹㅣㅂㅌㅡ -5655
▁129 -5656
ㄹㅏㄴㅊㅡ -5657
▁ㅎㅘㄱㅅㅣㄴ -5658
▁ㄱㅣㅁㅎㅕㄴ -5659
▁1898 -5660
ㅌㅗㅁ -5661
ㅎㅏㅁㅅㅜ -5662
▁ㅂㅗㄹㅍㅡ -5663
▁ㅎㅔㄹㄱㅣ -5664
▁115 -5665
▁III -5666
ㅇㅠㄱㅂㅜ -5667
▁ㅇㅗㄴㅌㅏ -5668
▁ㄱㅗㅇㅂㅐㄱ -5669
rom -5670
▁ㅇㅝㄴㅈㅓㄴ -5671
▁ㅇㅣㄹㅅㅐㅇ -5672
▁ㅅㅒ -5673
ㅎㅏㅁㅁㅏ -5674
▁ㄷㅗㅇㅈㅓㅁ -5675
ㄹㅓㄹㄷㅡ -5676
▁ㅂㅣㄴㄱㅗㄴ -5677
▁ㅇㅞㅂㅌㅜㄴ -5678
▁ㅍㅗㄱㅍㅗ -5679
▁ㄱㅓㅁㅊㅏㄹㅊㅓㅇ -5680
▁JT -5681
▁ㅅㅔㄴㅌㅣ -5682
▁ㅈㅓㅇㄹㅕ -5683
▁ㅋㅔㄹㄹㅣ -5684
▁ㅎㅏㅇㅈㅐㅇ -5685
urn -5686
▁ㅎㅓㄹ -5687
▁ㄱㅡㄱㅅㅣㅁ -5688
▁ㄷㅏㄹㅎㅏㄴㄷㅏ -5689
▁ㅁㅏㄷ -5690
▁ㅇㅝㄴㄷㅓ -5691
ction -5692
ㅇㅣㄴㅅㅡ -5693
▁ㅊㅓㄹㅎㅚ -5694
ㅇㅣㅆ -5695
ㄴㅣㄹㄹㅏ -5696
▁ㅇㅗㅂㅅㅕㄴ -5697
ㅅㄱㅏㅄ -5698
▁ㅁㅗㄹㄹㅐ -5699
▁ㅇㅘㅇㅅㅔ -5700
▁ㅇㅕㅇㅅㅏ -5701
▁ㄱㅗㅇㅂㅏㅇ -5702
▁ㅇㅑㅇㅊㅡㄱ -5703
▁ㄲㅜㄹ -5704
▁ㄱㅕㄹㅎㅏㅁ -5705
▁ㅊㅗㅇㅊㅣㅇ -5706
▁ㄴㅏㅁㅁㅣ -5707
▁ㅁㅏㄴㄹㅛ -5708
▁ㅅㅓㄴㄷㅗ -5709
▁ㅍㅕㅇㅈㅓㅇ -5710
ㅋㅏㄹㄹㅏ -5711
ㅎㅐㅇㅅㅏ -5712
ㅈㅓㄴㅊㅏ -5713
▁ㅁㅗㄹㄹㅏ -5714
ㅈㅏㄱㅇㅛㅇ -5715
▁142 -5716
▁ㅇㅡㄹㅈㅣ -5717
ㅎㅐㅇㅈㅏㅇ -5718
▁ㄴㅐㅇㅈㅓㄴ -5719
▁ㅊㅓㄴㅁㅜㄴㄷㅐ -5720
ㅈㅣㄴㄱㅜㄴ -5721
▁ㅅㅔㄴㄷㅏ -5722
▁ㅂㅏㄴㄱㅕㅇ -5723
▁ㅇㅣㄴㅁㅕㅇ -5724
▁ㅇㅣㄴㅅㅡ -5725
▁ㄱㅡㄱㅈㅏㄱ -5726
▁ㅇㅣㄹㅂㅏㅇ -5727
▁ㅇㅕㄴㅅㅏㄴㅈㅏ -5728
▁ㅋㅐㄴㅈㅏ -5729
ph -5730
▁ㅌㅜㅇ -5731
▁ㅎㅣㅁㄷㅡㄴ -5732
▁ㅊㅜㄱㅊㅜㄹ -5733
▁1899 -5734
▁ch -5735
▁ㅂㅏㄺㄱㅣ -5736
▁ㅅㅡㅇㅈㅏ -5737
▁ㅈㅓㅇㅂㅕㄴ -5738
▁ㄱㅘㅇㅈㅓ -5739
▁ㅅㅔㄹㄹㅔ -5740
▁ㅍㅣㅇㅋㅡ -5741
▁ㅊㅜㄱㅁㅜㄹ -5742
▁ㅎㅘㅇㅈㅗㄱ -5743
ㅂㅡㄹㄹㅣㄴ -5744
▁LC -5745
▁ㄲㅏㄲ -5746
ㄹㅣㅁㅈㅏ -5747
▁ㄱㅜㅇㄱㅡㄱ -5748
▁ㅊㅓㅁㄷㅏㄴ -5749
ㄲㅜㄹ -5750
▁ㅎㅡㄴㅎㅏㄴ -5751
▁ㅂㅡㄹㄹㅐㄱㅎㅗㄹ -5752
▁Ne -5753
ㅅㅡㅇㅂㅜ -5754
▁ㄱㅘㄴㅅㅔ -5755
▁ㄱㅗㄴㄹㅏㄴ -5756
ㅇㅣㄴㅅㅠ -5757
▁ㅁㅕㅇㅈㅗㅇ -5758
pp -5759
▁ㅅㅜㄴㅈㅗ -5760
ㅊㅏㄱㅈㅗㅇ -5761
ㅌㅗㅇㄱㅜㄱ -5762
TS -5763
lic -5764
ㄹㅓㅇ -5765
▁CJ -5766
▁ㅇㅡㄴㄷㅔ -5767
▁ㅈㅡㄱㄱㅏㄱ -5768
ㅂㅏㄴㄴㅣ -5769
▁ㅇㅛㄱㄱㅜ -5770
▁ㅇㅛㅇㅇㅣ -5771
▁ㅊㅓㄱㅊㅜ -5772
▁ㅊㅣㄴㅇㅟ -5773
▁ㄱㅕㅇㅅㅣㄴ -5774
▁ㅇㅐㅇㄱㅡㄹ -5775
▁ㅂㅔㅇ -5776
▁ㅇㅗㄴㄷㅏ -5777
▁ㅂㅡㄹㄹㅣ -5778
▁ㅁㅐㄱㄷㅗ -5779
ㅈㅐㅇㅇㅣ -5780
▁ID -5781
▁ㅅㅜㄱㅊㅓㅇ -5782
▁ㅆㅓㄴ -5783
▁ㄱㅘㄴㅈㅔ -5784
ㅈㅏㅇㅍㅜㅁ -5785
▁` -5786
lan -5787
▁ㄹㅓㅁ -5788
▁ㅊㅣㅁㅌㅜ -5789
▁ㅁㅏㄴㅇㅣㄹ -5790
ㅆㅡㅁ -5791
▁ㅋㅗㄱ -5792
▁ㄱㅡㄹㄹㅜ -5793
▁ㅂㅕㄴㅇㅣ -5794
▁ㅍㅡㄹㄹㅐㅅㅍㅗㅁ -5795
▁Man -5796
▁ㄱㅡㄱㅎㅏㄴ -5797
▁1902 -5798
▁ㅂㅏㄹㄱㅣ -5799
▁ㅍㅗㄱㄴㅓㄼ -5800
ㄱㅜㄱㅅㅏ -5801
▁ㅂㅕㄱㄷㅗㄹ -5802
▁BS -5803
▁ㄹㅔㄱ -5804
▁ㅈㅓㅇㅅㅔ -5805
▁ㅇㅕㄴㄲㅗㅊ -5806
ens -5807
ㅁㅣㄹㅌㅓㄴ -5808
▁ㄱㅘㅇㄷㅜㅇ -5809
▁ㄱㅕㅇㅊㅏㄹㄱㅘㄴ -5810
▁ㅂㅐㅇ -5811
ㅈㅓㄱㅈㅣ -5812
▁ㅇㅜㄴㅅㅜ -5813
▁ㅈㅡㄹㄱㅓ -5814
▁ㅍㅣㄹㅅㅏ -5815
▁ㅎㅗㄴㄷㅗㅇ -5816
▁ㅎㅣㅁㅆㅓ -5817
▁ㅂㅏㄹㅂㅕㅇ -5818
▁ㅈㅜㅇㅅㅏㄴ -5819
ㅂㅏㅇㅅㅓ -5820
▁ㄱㅏㄱㄷㅗ -5821
▁ㄱㅣㅁㅈㅣ -5822
▁ㄷㅓㄴㅈㅕ -5823
▁ㄷㅗㄱㅅㅓ -5824
ㄷㅗㅇㄱㅏㅇ -5825
▁ㅅㅣㄹㅂㅓ -5826
▁ㅁㅣㄹㅈㅣㅂ -5827
▁ㅌㅏㄴㄷㅗ -5828
ㅎㅡㅇㄱㅜㄴ -5829
TC -5830
ary -5831
▁ㅋㅓㅅ -5832
▁ㅇㅗㅇㄹㅣㅂ -5833
ㅇㅑㄹ -5834
▁ㅇㅏㄴㅌㅔ -5835
▁ㄱㅏㅇㄷㅗㅇ -5836
▁ㄴㅏㄴㅈㅣㅇ -5837
▁ㄷㅗㄹㄱㅕㄱ -5838
▁ㅈㅓㄻㅇㅡㄴㅇㅣ -5839
▁ㄷㅏㄲ -5840
▁ㅂㅣㅁ -5841
▁ㅎㅔㄹㄹㅔ -5842
ㅅㅏㅇㄱㅏ -5843
▁ㅈㅓㄱㅎㅕ -5844
▁ㅇㅑㅇㅂㅏㄴ -5845
ㄹㅏㄴㅊㅔ -5846
ㅁㅜㄴㅌㅡ -5847
▁ㅁㅏㄴㅅㅓㅇ -5848
▁ㅂㅗㄴㄱㅜㄱ -5849
▁ㅈㅓㄴㄴㅕㄴ -5850
▁ㅊㅣㅇㅊㅏㄴ -5851
ㅋㅔㅅㅁㅗㄴㅅㅡ -5852
▁ㄱㅕㅇㅅㅓㅇㅂㅜ -5853
▁'' -5854
ㅅㅔㅁㅂㅜ -5855
▁ㅅㅓㄹㅎㅘ -5856
▁ㄹㅜㄱㅅㅔㅁㅂㅜ -5857
▁ㅇㅝㄴㅈㅗㅇ -5858
▁ㅎㅏㄱㅇㅓㅂ -5859
▁IM -5860
▁ㅇㅓㄵ -5861
▁ㄱㅏㅁㅁㅏ -5862
ㅈㅣㅅㅈㅓㅁ -5863
▁ㅇㅕㅇㄷㅡㅇ -5864
▁ㅇㅣㅁㅇㅝㄴ -5865
▁ㄲㅗㄱㅈㅣㅅㅈㅓㅁ -5866
▁ㅅㅐㅇㅊㅔ -5867
▁ㅈㅓㄴㅅㅗㄱ -5868
▁ㅋㅓㄴㅅㅔㅂ -5869
ㅇㅛㄱㅈㅜ -5870
ㅍㅔㄴㅎㅏ -5871
▁ㅈㅜㅇㅂㅗㄱ -5872
▁ㅁㅣㅇ -5873
▁ㅇㅡㅇㅅㅣ -5874
▁ㅎㅏㄱㄱㅣ -5875
▁ㅇㅜㄹㅅㅏㄴㄱㅘㅇㅇㅕㄱㅅㅣ -5876
ㅂㅔㄹㄹㅏ -5877
▁ㄱㅜㄱㅇㅕㅇ -5878
▁ㄷㅗㅇㅎㅏㄱ -5879
▁ㄱㅏㄴㅅㅓㄴ -5880
▁ㄷㅗㅇㅈㅓㅇ -5881
▁ㅈㅗㅇㅅㅗㄱ -5882
▁ㅎㅕㄴㅇㅡㄴ -5883
▁ㅎㅔㄱ -5884
▁ㅁㅏㄹㅁㅣ -5885
▁ㅈㅣㅇㄱㅖ -5886
▁} -5887
ㅅㅁㅜㄹ -5888
LE -5889
▁No -5890
ㅂㅔㄹㅌㅡ -5891
▁ㅁㅣㄱ -5892
▁ㄱㅗㅇㅈㅓㄱ -5893
▁ㅋㅐㄹ -5894
TA -5895
ach -5896
▁ㄷㅏㄹㄱ -5897
▁ㅇㅕㅇㅁㅜㄴ -5898
▁ㅌㅗㅇㅂㅗ -5899
▁ㅅㅐㅇㅅㅐㅇ -5900
ㄲㅕㅆ -5901
ㅁㅏㄱㅈㅓㄴ -5902
▁ㅇㅚㄴㅅㅗㄴ -5903
▁ㄱㅏㅇㅂㅕㄴ -5904
▁ㅅㅣㄴㅇㅝㄴ -5905
▁ㄷㅏㄱ -5906
▁1901 -5907
▁ㅂㅏㄹㄱㅡㅂ -5908
ㅁㅓㄴㅅㅡ -5909
▁ㅇㅕㄹㄷㅗ -5910
ㅆㅡㄹ -5911
▁ㅂㅔㄹㅌㅡ -5912
▁ㅂㅕㅇㄱㅣ -5913
ert -5914
▁ㄱㅗㅇㅈㅗ -5915
▁ㄷㅏㄴㅊㅜㄱ -5916
▁MB -5917
▁ㅁㅏㄹㅆㅡㅁ -5918
ㅋㅣㄱ -5919
ㅌㅣㄱㅅㅡ -5920
▁ㅅㅡㅂㅈㅣ -5921
▁ㅅㅐㅇㄹㅑㄱ -5922
▁ㅊㅜㄱㅈㅗ -5923
out -5924
▁ㄷㅜㅇㄱㅡㄹ -5925
ug -5926
▁ㄱㅗㅇㄹㅣ -5927
▁ㄹㅖ -5928
▁ㅇㅞㄴ -5929
▁ㅅㅏㅅㅍㅗ -5930
IG -5931
LS -5932
ㄷㅓㅇㅇㅣ -5933
ㄲㅏㅌㅉㅗㄱ -5934
▁ㅅㅓㅇㅍㅗㄱ -5935
▁ㅊㅗㄱㅁㅐ -5936
▁ㄱㅣㅅㅂㅏㄹ -5937
▁ㄱㅕㄹㅋㅗ -5938
▁ㅇㅐㄹㅂㅓ -5939
▁ㄷㅗㅇㄴㅔ -5940
▁ㅇㅑㄱㅈㅏ -5941
▁ㅈㅜㅇㅎㅕㅇ -5942
▁ㅊㅏㅇㅊㅜㄹ -5943
ㅌㅔㄱㅊㅓ -5944
▁ㅇㅜㄹㅍㅡ -5945
▁ㅇㅕㅆㅇㅡㅁ -5946
▁ㅈㅓㅇㅁㅜㄴ -5947
▁134 -5948
ㅂㅣㄹㄹㅏ -5949
▁ㅅㅐㄴㄷㅡ -5950
▁ㄱㅗㅇㄱㅏㅁ -5951
▁ㅂㅗㄴㅁㅜㄴ -5952
▁ㅈㅣㄱㄱㅕㄹ -5953
▁THE -5954
▁ㅊㅓㄴㅈㅐ -5955
▁ㅂㅜㄹㅌㅏ -5956
▁ㅇㅕㄴㅅㅡㅇ -5957
▁ㅇㅗㄱㅅㅜ -5958
ㅁㅗㄹㄹㅗ -5959
▁ㄷㅏㄴㅇㅢ -5960
▁ㄷㅗㄱㅅㅓㅇ -5961
▁AN -5962
▁ㅇㅕㄴㅇㅣ -5963
▁ㅎㅡㄴㄷㅡㄹ -5964
▁ㄷㅗㅇㅇㅣ -5965
▁ㄷㅏㅂㅂㅕㄴ -5966
▁ㄱㅘㄴㄱㅘㅇㅈㅣ -5967
ys -5968
▁ㅎㅏㄴㅈㅗㄱ -5969
▁ㅋㅗㅁㅍㅐㄱㅌㅡ -5970
ase -5971
▁ㅂㅜㄴㅁㅕㅇㅎㅣ -5972
▁ㄱㅣㅁㅈㅔ -5973
▁ㅅㅏㅇㄱㅡㅁ -5974
▁ㅇㅝㄴㅊㅓㄴ -5975
ㄷㅣㄹ -5976
▁ㄷㅔㄹㄹㅏ -5977
ㄸㅏㄹ -5978
▁ㅇㅏㅂㄷㅜㄹ -5979
▁1903 -5980
▁ㅈㅓㅇㅅㅓㄴ -5981
▁ㄴㅏㅁㅈㅏㄱ -5982
▁ㅂㅗㅇㄱㅓㄴ -5983
▁ㅈㅓㅇㅈㅓㄱ -5984
▁ㅈㅓㅇㅅㅓㅇ -5985
▁hPa -5986
▁ㅅㅗㄴㄲㅗㅂ -5987
▁ㅈㅜㅇㄱㅗㅇ -5988
▁ㅇㅣㅀㅇㅓ -5989
▁ㅂㅗㄱㅇㅛㅇ -5990
▁ㅆㅏㅎㅇㅏㅆ -5991
ㄴㅏㄴㄷㅗ -5992
▁ㅇㅕㅁㅈㅡㅇ -5993
▁ㄱㅏㄴㄷㅏㄴㅎㅣ -5994
▁EX -5995
▁1884 -5996
▁ㅊㅗㅇㅁㅜ -5997
▁ㅎㅗㅁㄱㅜ -5998
▁ㅈㅣㄱㅁㅕㄴ -5999
▁ㅅㅏㅁㄱㅜㄱㅈㅣ -6000
ㄴㅕㄴㄱㅣ -6001
ㅂㅓㄴㄴㅚ -6002
▁ㄴㅡㄹㄹㅣ -6003
▁ㅂㅜㄴㅅㅜ -6004
▁ㅁㅗㄳ -6005
▁ㅈㅜㅇㅅㅜ -6006
▁ㄷㅏㄹㄱㅑㄹ -6007
ㄴㅓㅎ -6008
▁ㅅㅔㄱㅅㅡ -6009
▁ㅇㅔㄴㄷㅣㅇ -6010
▁ㅇㅕㅁㅅㅐㄱㅊㅔ -6011
▁ㄱㅝㄴㅊㅗㅇ -6012
▁ㅉㅣㄴ -6013
▁ㄱㅗㅇㅇㅖ -6014
▁ㄱㅘㅇㅁㅕㅇ -6015
▁Gr -6016
▁ㅈㅓㄴㅇㅟ -6017
▁One -6018
▁ㅅㅓㅇㅈㅣ -6019
ree -6020
▁ㄱㅏㅇㅎㅐ -6021
▁ㅈㅡㄹㄱㅕ -6022
ㅅㅣㄱㅇㅣㄴ -6023
▁ㄱㅣㅁㅊㅏㅇ -6024
▁ㅎㅏㅁㅈㅓㅇ -6025
ke -6026
▁ㅈㅣㄱㄱㅕㅇ -6027
▁ㅂㅗㄱㅎㅏㅂㅊㅔ -6028
▁ㅂㅜㄹㄲㅗㅊ -6029
▁ㅇㅣㅁㄱㅘㄴ -6030
▁All -6031
▁ㅇㅗㅀ -6032
▁with -6033
ㅂㅜㄹㄱㅛ -6034
▁ㄴㅏㅁㅈㅗ -6035
▁ㅇㅗㄹㄹㅣㅁ -6036
ㅋㅏㄹㄹㅣ -6037
▁ㄴㅏㅁㅁㅐ -6038
▁ㅇㅕㄱㄹㅑㅇ -6039
▁ㅂㅏㄹㄹㅔㄴㅅㅣ -6040
▁ㅁㅜㄹㅍㅜㅁ -6041
▁IN -6042
▁KIA -6043
▁ㅇㅣㅂㄱㅜㄱ -6044
▁ㅍㅗㄱㄱㅕㄱㄱㅣ -6045
▁ㄷㅟㅅㅂㅏㄷㅊㅣㅁ -6046
▁ㅂㅜㅁ -6047
▁ㄱㅘㅇㄷㅐ -6048
ㄴㅕㅁㄱㅘㄴ -6049
ㅋㅗㄹㄹㅣ -6050
▁ㅅㅓㄴㅂㅐ -6051
▁ㅈㅓㄹㄷㅗ -6052
▁ㅈㅓㅇㅇㅠ -6053
▁ㄷㅏㄴㅈㅓㄹ -6054
11 -6055
▁ㄱㅡㄱㄷㅐ -6056
▁ㄱㅕㅇㅇㅣㄴ -6057
▁ㅅㅓㄴㅇㅜ -6058
▁ㄱㅏㄴㅌㅗ -6059
ㄱㅗㄱㄷㅗㅇ -6060
▁ㄱㅗㅇㅁㅕㅇ -6061
▁ㄱㅜㄴㅅㅏㄴ -6062
▁ㅇㅣㅂㅅㅓㅇ -6063
▁ㅇㅓㄺ -6064
▁ㅅㅓㄴㅎㅐㅇ -6065
▁ㅎㅘㄱㅅㅣㄹㅎㅣ -6066
▁ㄱㅓㅁㅊㅜㄹ -6067
▁GO -6068
▁ㄹㅔㅁ -6069
ㄷㅗㅇㄱㅣ -6070
ㅈㅏㄱㅈㅣ -6071
▁ㅊㅏㅇㄴㅕㅇ -6072
act -6073
ㅎㅡㄱ -6074
▁Ad -6075
▁ㅅㅕㅆ -6076
ㅈㅓㅇㄷㅗㅇ -6077
▁ㄱㅜㄴㅈㅜㅇ -6078
▁LA -6079
▁ㅂㅏㄱㅈㅣ -6080
▁ㅂㅡㄹㄹㅓ -6081
▁ㄱㅐㅇㅅㅣㄴ -6082
pt -6083
ㅁㅏㅅ -6084
ㅊㅕㅆㅇㅡ -6085
▁Cl -6086
▁ㄱㅏㄹㅅㅜ -6087
▁ㅅㅓㄱㅂㅜㄹ -6088
ㄱㅕㄱㅅㅜ -6089
▁ㅁㅕㄴㅈㅔ -6090
▁ㅂㅏㅇㄱㅡㄹㄹㅏ -6091
▁ㅈㅓㅁㅅㅓㅇㅅㅜㄹ -6092
▁1800 -6093
▁ㄱㅏㄹㄹㅐ -6094
▁ㄷㅏㄴㅁㅕㄴ -6095
ㅅㅏㄴㅁㅐㄱ -6096
▁ㅂㅜㄴㅊㅜㄹ -6097
▁ㄴㅏㅅ -6098
▁ㅍㅏㅅ -6099
▁ㅉㅗㅊㅇㅏ -6100
▁ㅂㅜㄱㅈㅗ -6101
▁ㄱㅓㅁㅇㅕㄹ -6102
ㄲㅡㅅ -6103
▁ㄲㅗㄱㄷㅐ -6104
▁ㅈㅏㄹㄹㅏ -6105
▁ㅎㅕㄴㄱㅏㅁ -6106
▁ㅊㅜㅇㅊㅓㅇㄷㅗ -6107
▁ㅅㅏㅇㅌㅡ -6108
ㄷㅝㅆ -6109
▁ㅇㅕㅁㅅㅗ -6110
▁ㅈㅗㅇㄹㅐ -6111
▁ㅁㅣㄴㄱㅏㅁ -6112
▁ㅇㅣㄹㅅㅏㄴ -6113
▁ㅇㅝㄴㄹㅛ -6114
▁ㄷㅔㄹㅌㅏ -6115
▁ㅊㅓㄴㅎㅏ -6116
ㅇㅠㄱㅊㅓㅇ -6117
▁ㄷㅗㅇㅎㅕㅇ -6118
▁ㅅㅏㅇㅇㅡㅇ -6119
▁ㅇㅝㄴㅂㅗㄴ -6120
▁ㅈㅜㄴㅈㅜ -6121
▁ㅋㅓㅁㅂㅐㄱ -6122
ㄴㅕㅁㅂㅣ -6123
ㄹㅔㄱㅌㅓ -6124
▁ㄱㅕㅇㄱㅘ -6125
▁ㄱㅣㅁㅎㅗㅇ -6126
▁ㅇㅕㄹㄹㅣㄴㄷㅏ -6127
▁ㅇㅕㅇㄱㅜㄱㅇㅣㄴ -6128
▁116 -6129
▁NGC -6130
▁ㄷㅡㄹㅇㅣ -6131
ㅅㅏㄴㅅㅓㅇ -6132
▁ㄱㅜㄴㅎㅏㅁ -6133
▁ㄱㅝㄴㅈㅏㅇ -6134
▁ㄱㅘㄴㅈㅓㄹ -6135
ㄷㅡㅇㅎㅏㄱㅅㅐㅇ -6136
▁ㅂㅏㅇㅅㅗㅇㅇㅣㄴ -6137
▁ㄷㅏㅇㅅㅜ -6138
▁ㅅㅐㄱㅊㅐ -6139
▁ㄱㅗㄱㅁㅜㄹ -6140
▁ㅈㅜㅇㄹㅕㅇ -6141
▁ㄴㅏㅁㄷㅗㅇㅅㅐㅇ -6142
▁ㅅㅏㅁㅊㅗㄴ -6143
▁CN -6144
▁2022 -6145
▁ㅈㅣㄹㅅㅗ -6146
▁ㄱㅜㅇㅈㅜㅇ -6147
▁ㅈㅓㄴㅇㅕㅁㅂㅕㅇ -6148
ㅂㅔㄴㅊㅓ -6149
▁ㅈㅓㄴㄱㅜ -6150
▁ㅊㅓㄹㅍㅖ -6151
▁ㄱㅏㅁㅎㅐㅇ -6152
▁ㅋㅗㄴㅌㅔ -6153
ass -6154
▁con -6155
▁ㄴㅗㅇㅂㅜ -6156
▁ㅈㅏㅂㅎㅕ -6157
▁ㅎㅘㄹㅈㅜ -6158
▁ㄱㅏㅇㄴㅏㅁㄱㅜ -6159
▁ㄷㅗㅇㅈㅗ -6160
▁ㄱㅡㅂㅅㅜ -6161
▁ㅇㅐㄴㄷㅓ -6162
▁ㅇㅗㄹㄷㅡ -6163
▁ㅂㅜㄴㄹㅑㅇ -6164
ㅇㅕㄱㅎㅏㄱ -6165
▁ㄱㅏㄱㅅㅐㄱ -6166
▁ㅅㅣㄹㅁㅏㅇ -6167
▁ㅎㅘㄱㅈㅣㄴ -6168
▁Br -6169
▁ㅅㅏㅇㄱㅏ -6170
▁ㅇㅕㄴㅂㅗㅇ -6171
▁ㅊㅓㅇㅅㅏㄴ -6172
ㅇㅏㄵ -6173
ream -6174
ㅂㅏㄴㄱㅜ -6175
▁ㄴㅏㄹㅋㅏ -6176
▁ㅈㅓㅇㄹㅣㅂ -6177
▁ㅍㅕㅇㅊㅏㅇ -6178
▁ㅅㅐㄴㄷㅣ -6179
▁ㅅㅣㄹㅁㅜ -6180
▁ㅊㅓㄴㅇㅕㄴㄱㅣ -6181
▁122 -6182
▁1897 -6183
ㅁㅜㄴㅅㅓ -6184
▁ㅈㅓㅇㄷㅗㅇ -6185
▁ㅈㅗㅇㅈㅓㅁ -6186
▁Ex -6187
▁1860 -6188
ㅅㅓㄴㅇㅘㅇ -6189
▁ㅂㅓㅂㅈㅓㅇㄷㅗㅇ -6190
▁ㄷㅏㅇㅎㅏㄴㄷㅏ -6191
▁;& -6192
▁ㄱㅗㅇㄱㅗ -6193
▁ㅁㅕㅇㅎㅏ -6194
▁ㅂㅏㄹㄹㅕㅇ -6195
clude -6196
▁ㄱㅏㅇㄱㅏㄴ -6197
▁ㅅㅣㄴㅊㅜㄱ -6198
▁ㅇㅣㅂㄱㅏㄱ -6199
▁ㅇㅓㅅ -6200
▁ㅎㅕㅁㅇㅗ -6201
▁ㅂㅜㄹㄹㅣㄴ -6202
▁ㅅㅏㄴㅊㅜㄹ -6203
▁ㅅㅓㄹㄱㅛ -6204
▁ㄱㅜㄴㅊㅓㅇ -6205
▁Is -6206
▁220 -6207
ㅌㅣㄹㄹㅣ -6208
▁ㄴㅛ -6209
▁ㅇㅏㄴㄱㅕㅇ -6210
▁ㅈㅓㄴㅂㅗㄱ -6211
ㄷㅠㅁ -6212
▁ㄹㅠㄴ -6213
▁ㅎㅕㅇㅈㅗ -6214
▁ㅍㅔㄴㅅㅣㅇ -6215
▁ㅅㅗㄹㄹㅜ -6216
▁ㅌㅡㄱㄱㅝㄴ -6217
ㅅㅓㅇㅈㅜ -6218
ㅌㅡㄹㄹㅣ -6219
▁ㅇㅣㄹㅍㅏ -6220
▁ㅅㅏㅇㄱㅕㅇ -6221
▁ㅅㅏㅇㅂㅓㅂ -6222
▁ㅈㅓㄴㅅㅏㄴ -6223
▁ㅎㅓㄴㅅㅣㄴ -6224
▁ㅌㅡㄱㅂㅕㄹㅈㅏ -6225
ㅇㅣㄹㅇㅡ -6226
▁ㅈㅏㅇㅂㅕㄱ -6227
▁ㅎㅏㅁㅇㅑㅇ -6228
▁ㅈㅓㄴㅂㅏㅇ -6229
▁ㅇㅕㅇㄷㅡㅇㅍㅗ -6230
ㅌㅔㄹㄹㅔ -6231
▁ㄷㅡㅇㅇㅛㅇ -6232
▁ㅇㅛㅇㅇㅏㅁ -6233
▁ㅎㅓㄴㅈㅓㅇ -6234
ii -6235
▁ㄸㅓㄱ -6236
▁ㄷㅡㅇㄱㅣ -6237
▁ㄱㅗㅇㅇㅛㅇㅇㅓ -6238
ㄹㅓㄹㄹㅣ -6239
▁ㄷㅗㄹㅂㅗ -6240
▁ㅇㅣㄹㄱㅘㄹ -6241
▁ㅈㅜㅇㄱㅗㅇㅇㅓㅂ -6242
▁ㄲㅡㄶㅇㅣㅁㅇㅓㅄㅇㅣ -6243
▁ㄹㅏㅂ -6244
▁ㅁㅏㄱㅅㅡ -6245
▁ㅇㅠㄴㅂㅗ -6246
ㅈㅏㄱㅅㅏ -6247
ㅋㅗㅂㅌㅓ -6248
▁ㄴㅐㅁㅅㅐ -6249
▁++ -6250
▁133 -6251
▁ㅇㅏㄴㅊㅣ -6252
▁ㅈㅣㄴㅎㅐ -6253
ㅂㅏㅇㅅㅏㄴ -6254
▁ㅇㅏㄴㅅㅏㄴ -6255
▁ㅅㅜㄱㅂㅜ -6256
▁ㄱㅏㅆㅇㅡ -6257
▁ㅅㅓㄱㅎㅚ -6258
▁ㄱㅕㄴㅇㅣㄴ -6259
▁ㄱㅏㅇㄷㅐ -6260
▁ㅎㅏㅁㅅㅓㄴ -6261
▁ㄱㅡㄹㄹㅐ -6262
▁ㅇㅣㅂㅈㅜ -6263
▁ㅂㅏㄹㅋㅏㄴ -6264
▁ㅂㅜㄹㅅㅣㄴ -6265
▁ㄴㅏㅁㅇㅑㅇㅈㅜ -6266
own -6267
▁ㅂㅓㄹㅇㅣㄴ -6268
▁ㅈㅓㄹㄷㅏㄴ -6269
▁ㅈㅏㅇㅈㅏ -6270
▁ㅈㅗㅇㅍㅏ -6271
▁ㅎㅏㄱㄷㅐ -6272
▁ㅅㅓㄴㄷㅐ -6273
▁ㅁㅜㄴㄱㅕㅇ -6274
▁ㅈㅣㄴㅎㅐㅇㅈㅏ -6275
ake -6276
▁1880 -6277
ㅇㅗㄹㄹㅗ -6278
▁ㅁㅜㄹㄱㅏ -6279
▁ㅅㅓㄹㄹㅣㅂㅈㅏ -6280
ㄹㅓㅅ -6281
▁CBS -6282
▁ㄷㅗㄹㄱㅣ -6283
▁ㅂㅜㄹㅇㅓ -6284
▁ㄱㅗㅇㅅㅗㄴ -6285
▁ㅅㅓㄴㄷㅗㅇ -6286
iss -6287
▁ㅅㅕㄹ -6288
▁ㅇㅣㄴㅈㅣㄹ -6289
▁ㅊㅓㅇㅅㅐㄱ -6290
Hz -6291
▁ㅁㅣㄹㄹㅓ -6292
ㅂㅏㅇㅇㅜㄹ -6293
▁ㄱㅡㄱㄹㅏㄱ -6294
▁BM -6295
▁ㅇㅕㄲ -6296
▁ㅂㅣㄴㄷㅗ -6297
▁ㅎㅏㄴㅌㅔ -6298
ㅈㅓㅇㅇㅝㄴ -6299
▁ㅎㅡㅇㅅㅓㄴㄷㅐ -6300
▁ㅂㅏㄴㄱㅜㄴ -6301
▁ㅂㅏㄴㅈㅓㄴ -6302
HO -6303
▁ㄱㅓㅌㅂㅗ -6304
▁ㅈㅏㅇㅈㅔ -6305
▁ㄴㅗㅇㅅㅏ -6306
▁ㅁㅗㄱㅇㅛ -6307
▁ㅂㅗㄹㅅㅖ -6308
▁ㄱㅗㅇㅎㅘㅇ -6309
CAF -6310
▁ㅅㅏㅇㄱㅗ -6311
▁ㄴㅗㅇㅇㅓ -6312
▁ㅈㅓㅇㅎㅘ -6313
▁ㄱㅏㅇㅊㅓㄹ -6314
▁ㄷㅣㄹ -6315
▁ㅁㅣㄴㄱㅏㄴㅇㅣㄴ -6316
ㅘㅇ -6317
▁or -6318
ㄱㅜㅇㅎㅘ -6319
▁ㅁㅏㄱㅅㅣ -6320
▁ㅎㅔㄹㄹㅠㅁ -6321
ㄱㅘㄴㅎㅏㄱㄱㅛ -6322
ork -6323
ㅍㅡㄹㄹㅗ -6324
▁ㄱㅕㄱㅈㅏ -6325
▁ㅂㅕㄱㅎㅘ -6326
▁ㅅㅣㅁㅇㅑ -6327
▁ㅇㅑㄱㅅㅏ -6328
▁ㅊㅓㅇㅈㅏ -6329
▁ㄱㅡㄱㅈㅏㄱㄱㅏ -6330
UR -6331
▁ㅈㅓㅂㅅㅜ -6332
▁ㅂㅜㄱㄱㅕㅇ -6333
ㄷㅗㅇㄱㅜㄴ -6334
▁pro -6335
▁ㅅㅣㄴㄷㅗㅇ -6336
▁ㅎㅕㅂㄷㅗㅇ -6337
() -6338
▁ㅆㅢ -6339
ㄹㅓㄹㄹㅣㅁㅍㅣㄱ -6340
GA -6341
▁ㅈㅣㄴㅅㅜ -6342
▁ㄱㅏㅁㅇㅏㄴ -6343
ㄷㅗㅇㅎㅏ -6344
ㅂㅓㅂㅅㅏ -6345
▁ㅅㅣㄹㅈㅐ -6346
▁ㅁㅏㅈㅂㅜㅌ -6347
▁Mus -6348
ㅈㅣㄱㅇㅝㄴ -6349
▁ㅁㅣㄴㅈㅓㅇ -6350
▁ㄱㅜㄱㅅㅜ -6351
▁ㄷㅓㅍㅇㅕ -6352
▁ㅇㅕㄴㅁㅗㅅ -6353
▁ㄱㅜㄱㅁㅣㄴㅎㅚ -6354
▁ㅅㅣㄹㅈㅓㄱ -6355
▁ㅇㅡㅁㅎㅑㅇ -6356
ㅌㅡㄹㄹㅐㄴㅌㅏ -6357
lo -6358
ㄹㅡㅁㄷㅏㅂ -6359
▁ㅇㅕㄴㄷㅗㅇ -6360
▁ㅇㅣㅂㅇㅑㅇ -6361
old -6362
▁ㄱㅔㄴㅈㅣ -6363
▁ㅇㅑㄱㅎㅐ -6364
▁ㄷㅏㄷㅎㅣㄴ -6365
▁ㅂㅗㄱㄱㅝㄴ -6366
▁ㄷㅏㄴㅎㅐㅇㅂㅗㄴ -6367
▁ㅃㅛ -6368
ㅇㅟㅇ -6369
ㅅㅗㄱㅈㅏㄱ -6370
ㅊㅓㄴㅁㅕㄴ -6371
▁ㅈㅣㄴㅈㅓㄴ -6372
ㄷㅗㅁ -6373
ㅌㅔㅂ -6374
▁only -6375
▁ㅇㅝㄴㄱㅕㄱ -6376
▁ㅈㅓㅇㄱㅕㅇ -6377
▁ㅌㅜㄴ -6378
ection -6379
▁ㅇㅏㄴㄷㅔ -6380
ㄷㅏㄴㅈㅏㅇ -6381
▁ㅈㅜㅇㅇㅝㄴ -6382
▁GDP -6383
▁ㅂㅐㄹ -6384
ㄱㅗㅁ -6385
ㅇㅣㅂㅈㅏ -6386
▁ㅂㅕㅇㅁㅏ -6387
ㄷㅡㄹㅇㅣㄴ -6388
▁132 -6389
▁ㄱㅓㄹㄹㅕㅆ -6390
▁ㅁㅗㅇㄱㅗ -6391
▁ㅊㅣㅁㅊㅔ -6392
ㅎㅗㄹㄹㅡㅁ -6393
▁ㅂㅓㄴㅅㅓㅇ -6394
▁ㅍㅕㅇㅇㅏㄴㅂㅜㄱㄷㅗ -6395
▁ES -6396
ㅎㅡㄴ -6397
▁ㅊㅏㅇㅇㅢ -6398
ㄱㅗㅇㅅㅏㄴ -6399
▁ㅈㅝ -6400
▁USS -6401
▁ㅅㅑㄹ -6402
▁ㄱㅣㅁㅇㅗㄱ -6403
ㅅㅟㅂ -6404
ㅎㅏㄹㅅㅣ -6405
▁ㄱㅕㄹㅈㅔ -6406
ix -6407
▁DM -6408
▁ㅊㅏㄹㄹㅣ -6409
▁ㄱㅓㄴㄹㅠㅇ -6410
▁ㅈㅓㄴㄱㅕㄱ -6411
ㄸㅏㅇ -6412
▁ㅂㅔㄱ -6413
▁PR -6414
▁Ph -6415
▁ㅈㅣㅁㅈㅏㄱ -6416
ick -6417
▁ㄴㅏㄲ -6418
▁ㄱㅕㄹㅍㅣㅂ -6419
▁ㅅㅗㄱㅍㅕㄴ -6420
▁ㅇㅗㄹㄹㅣㅁㅍㅣ -6421
▁ㅍㅗㄱㄹㅗ -6422
▁ㅈㅏㅇㅇㅝㄴ -6423
▁ㅇㅗㄴㄱㅏ -6424
▁ㅈㅣㄴㄹㅛ -6425
▁ㅈㅜㄴㄱㅕㄹㅅㅡㅇㅈㅓㄴ -6426
▁ㅇㅑㄱㅎㅏ -6427
▁ㅂㅏㄺㅎㅣㄴ -6428
▁ㅉㅏㅇ -6429
ㅁㅔㄴㅅㅡ -6430
▁ㅅㅏㅁㄱㅜㄱㅅㅏ -6431
▁NE -6432
▁Ro -6433
▁ㅂㅗㅇㅅㅜ -6434
▁ㅎㅘㅇㄷㅗ -6435
▁ㅎㅕㄴㅎㅘㅇ -6436
ㄹㅡㄹㅌㅔ -6437
▁ㅍㅕㅇㅇㅏㄴㄴㅏㅁㄷㅗ -6438
▁kt -6439
ㅂㅅㅣ -6440
ence -6441
lass -6442
▁ㅇㅘㅇㅈㅓㅇ -6443
▁ㅂㅣㅊㄴㅏ -6444
▁ㅅㅏㄴㅌㅣ -6445
▁ㅅㅜㄱㅈㅜ -6446
ㄹㅗㄱㅅㅐㄱ -6447
ㅈㅣㅅㅁㅏㄹ -6448
▁GN -6449
ㅇㅣㄹㅈㅡ -6450
▁ㄴㅓㄴ -6451
ㅇㅓㅂㅅㅗ -6452
▁ㅇㅏㅇㄱㅗ -6453
▁ㅇㅕㄱㄷㅗ -6454
▁ㅊㅗㅇㄱㅣ -6455
▁ㄱㅏㅁㅆㅏ -6456
▁ㄴㅗㅇㅅㅏㄴㅁㅜㄹ -6457
▁La -6458
ㄹㅡㄴㅅㅗㄴ -6459
▁ㅁㅣㄹㄹㅏㄴ -6460
▁ㅌㅏㄱㅇㅝㄹ -6461
▁ㄱㅕㅇㅈㅐㅇㄹㅕㄱ -6462
▁un -6463
▁ㅎㅏㅁㅈㅏ -6464
▁ㅂㅗㄱㅅㅣㄱ -6465
ild -6466
ㅅㅜㄹㅅㅏ -6467
ㅅㅡㄹㄹㅔ -6468
ㅇㅜㄱㅇㅣ -6469
ㅅㅣㄴㅅㅓㅇ -6470
▁ㅎㅏㅂㄷㅏㅇ -6471
▁ㅊㅓㅇㄷㅗㅇㄱㅣ -6472
ㅎㅓㄴㅇㅕㅇ -6473
▁ㅌㅏㅂㅅㅣㄴ -6474
▁ㅎㅏㄴㅊㅡㅇ -6475
▁ㅇㅑㅇㅅㅓㅇㅈㅏ -6476
ㅊㅓㄴㅅㅏ -6477
include -6478
▁ㄱㅏㅂㅇㅗㅅ -6479
▁ㄴㅓㅁㄱㅣ -6480
▁1885 -6481
▁ㄷㅗㅇㅎㅐㅇ -6482
▁ㅈㅣㅂㄱㅕㄹ -6483
▁ㅎㅕㄴㅈㅣㄱ -6484
▁ㅈㅜㅇㅇㅏㅇㅂㅜ -6485
▁ㅎㅗㅇㅁㅜㄴㄱㅘㄴ -6486
▁ㅇㅗㄴㄷㅐ -6487
▁ㅌㅡㄱㅅㅐㄱ -6488
▁To -6489
▁ㅇㅛㅇㅅㅓ -6490
ㄹㅐㅇㅋㅡㄹㄹㅣㄴ -6491
ㅇㅟㅅ -6492
▁450 -6493
▁ㄷㅏㄴㄱㅘ -6494
▁ㅇㅣㄴㅍㅡ -6495
▁ㅁㅏㄴㄴㅕㄴ -6496
▁ㅁㅏㄹㄴㅕㄴ -6497
▁ㅈㅗㅇㅁㅏㄹ -6498
ear -6499
ㅅㅏㅇㅅㅣ -6500
▁ㄱㅗㅇㅇㅑㄱ -6501
▁NAS -6502
▁ㅈㅜㅇㅅㅐㅇ -6503
ype -6504
▁": -6505
▁ㅅㅣㄴㅅㅏㅇ -6506
▁ㄹㅡㄴ -6507
▁ㅅㅔㄴㄱㅗ -6508
▁ㅅㅣㅁㅎㅘ -6509
▁ㅅㅐㅇㄱㅣㄴㄷㅏ -6510
ance -6511
▁1871 -6512
▁ㅊㅜㄹㅅㅓㄱ -6513
▁ㄲㅗㅂㅎㅣㄴㄷㅏ -6514
ㄸㅟ -6515
▁ㅁㅐㄴㅎㅐ -6516
▁ㄷㅏㅇㅇㅕㄴㅎㅣ -6517
▁ㅈㅏㅇㄷㅐ -6518
▁SL -6519
▁ㅁㅐㅅ -6520
ㅅㅣㅂㅈㅏ -6521
▁ㅈㅜㅇㅅㅓ -6522
▁ㄱㅣㅁㅁㅣㄴ -6523
ㄱㅜㄱㅁㅣㄴ -6524
▁ㅂㅏㄴㅇㅕㄱ -6525
▁CEO -6526
▁ㄱㅗㅇㅍㅏ -6527
▁vs -6528
▁ㄴㅏㅈㅊㅜ -6529
▁ㅅㅛㄴ -6530
ㅌㅓㄱ -6531
▁EBS -6532
▁ㅅㅐㅇㅅㅓㄴ -6533
▁Sy -6534
▁Mar -6535
▁ㄱㅜㄱㅇㅠ -6536
ㅎㅏㅂㅅㅣㄹ -6537
▁ㄷㅐㅅ -6538
ㄷㅡㄹㅇㅓ -6539
▁ㅅㅏㄹㄹㅕ -6540
▁ㅇㅏㄹㄹㅐ -6541
OV -6542
▁@ -6543
▁AD -6544
▁ㅅㅏㅇㄱㅣ -6545
▁ㅅㅏㅇㅇㅕㄴ -6546
▁ㅍㅕㅇㅁㅣㄴ -6547
▁1200 -6548
▁ㅁㅜㄴㄱㅗ -6549
▁1870 -6550
▁240 -6551
ㄱㅘㄴㄹㅣ -6552
ㅈㅓㄴㄱㅣ -6553
▁ㄱㅏㅇㅎㅢ -6554
▁ㄴㅏㅁㅅㅏㄴ -6555
ㄴㅕㅁㅇㅣㄹ -6556
▁ㄷㅡㅇㄱㅡㄱ -6557
▁ㅇㅏㅍㅉㅗㄱ -6558
▁ㅈㅓㄱㄱㅜㄴ -6559
▁1600 -6560
▁ㅎㅗㄹㄹㅣ -6561
ivers -6562
ㅂㅕㄴㅇㅣ -6563
▁ㅅㅣㄴㅈㅗㅇ -6564
▁ㅈㅓㅇㄱㅜㄱ -6565
▁ㄷㅗㄹㅇㅕㄴㅂㅕㄴㅇㅣ -6566
ㄹㅓㅎㅈㅣ -6567
TP -6568
ㅅㅓㄴㅈㅓㄴ -6569
▁ㄱㅜㄱㅇㅏㄱ -6570
ㄷㅡㅇㅅㅣㄱ -6571
▁ㅅㅓㅇㄴㅏㅁㅅㅣ -6572
▁ex -6573
EM -6574
ans -6575
▁sc -6576
ㄲㅝㅆ -6577
▁ㄱㅜㄱㅂㅗ -6578
▁ㅊㅓㅇㄹㅛㅇ -6579
▁ㅂㅏㄹㄱㅏㄱ -6580
▁ㅋㅜㄱ -6581
ㅇㅓㄴㅈㅏ -6582
▁ㄱㅗㅇㅍㅛ -6583
▁ㅂㅣㄴㅂㅓㄴ -6584
▁ㅇㅏㅍㅈㅏㅇ -6585
▁ㅋㅣㅇㅅㅡ -6586
▁ㅈㅓㄴㄷㅏㄴ -6587
▁ㅎㅕㄴㅎㅐㅇ -6588
▁ㅃㅓㄴ -6589
▁ㄱㅡㄱㄷㅗ -6590
ㅈㅏㄱㅁㅜㄹ -6591
▁ㄷㅗㄹㅇㅣㅂ -6592
▁ㅎㅐㄴ -6593
▁ㄱㅏㄹㄹㅣㄹㄹㅔ -6594
▁ㅂㅗㄱㅇㅡㅁㅅㅓ -6595
GM -6596
▁ㅅㅗㅇㄷㅗ -6597
▁ㄱㅘㄴㅁㅜㄴ -6598
▁ㅇㅏㅁㅎㅡㄱ -6599
ish -6600
▁ㄱㅘㄹ -6601
▁ㄴㅏㄴㅇㅣ -6602
▁ㅅㅓㄴㅈㅏㅇ -6603
▁ㅍㅕㄴㅈㅣㅂㅈㅏ -6604
▁ㄷㅗㅇㅁㅜㄹㅇㅝㄴ -6605
▁ㄱㅏㄴㅅㅣㄴ -6606
AF -6607
ㅂㅕㅂ -6608
ㅈㅏㄹ -6609
▁ㄷㅡㄹㄹㅕ -6610
ㄱㅏㅇㅇㅏㅁ -6611
▁ㄱㅗㅇㅊㅓㄴ -6612
▁ㅌㅗㅇㅌㅡㄹㅇㅓ -6613
▁ㅎㅏㅁㄱㅕㅇㄴㅏㅁㄷㅗ -6614
EG -6615
▁ㅅㅣㄴㅈㅓㅇ -6616
▁ㅇㅏㅅ -6617
▁ㄷㅗㅇㅇㅛ -6618
ㄱㅅㅕㄴ -6619
▁ㄴㅏㄱㅎㅏ -6620
▁ㅇㅡㄹㄲㅏ -6621
▁ㄱㅣㅁㅂㅕㅇ -6622
▁ㄴㅡㅇㅅㅓㄴ -6623
▁ㄷㅗㄹㅊㅜㄹ -6624
▁ㅇㅕㄹㅅㅣㅁ -6625
▁ㅈㅏㅇㄷㅏㄴ -6626
▁ㄱㅗㅇㅁㅣㄴㅇㅘㅇ -6627
ㄷㅏㄴㅂㅓㅂㅇㅣㄴ -6628
▁ㄱㅣㅁㅈㅓㅇㅇㅡㄴ -6629
▁ㅁㅕㅇㅂㅜㄴ -6630
▁CM -6631
ㅁㅜㄴㅈㅏ -6632
▁ㅎㅏㅂㅅㅡ -6633
OD -6634
▁ㄱㅕㅇㅎㅢ -6635
▁ㅈㅓㅇㅈㅔ -6636
▁ㅎㅠㅇㄴㅗ -6637
ㅊㅓㄴㄷㅗㅇ -6638
ㅌㅗㄱㅎㅗㄹㄹㅡㅁ -6639
▁ㅂㅏㄱㅎㅓㄴㅇㅕㅇ -6640
ㅇㅔㅁ -6641
▁ㄱㅜㅇㄱㅝㄹ -6642
ㅈㅜㅇㅊㅜ -6643
▁ㅇㅣㅂㅅㅜ -6644
ㅇㅣㄴㄷㅡ -6645
▁ㅍㅡㄹㄹㅐㄴ -6646
oun -6647
▁ㅈㅡㅁ -6648
▁ㅅㅗㄱㅈㅜ -6649
▁ㄷㅗㅇㅊㅏㅁ -6650
▁ㅁㅗㅁㅌㅗㅇ -6651
▁ㅇㅗㄴㄱㅏㅈ -6652
▁ㅇㅏㄹㄹㅔㄱㅅㅡ -6653
▁ㅇㅑㅌ -6654
▁ㅊㅜㄹㄱㅏ -6655
▁ㄱㅏㅁㄷㅗㅇ -6656
▁ㅈㅓㅇㄱㅘㄴ -6657
▁ㄷㅗㅇㅇㅠ -6658
ㅇㅣㅅ -6659
▁ㅅㅓㅇㄹㅕㅇ -6660
▁ㄱㅡㄹㄹㅓ -6661
ㄱㅜㄴㅈㅓㅇ -6662
ㅎㅐㅇㅅㅓㄴ -6663
lat -6664
▁ㄱㅘㅇㄷㅗ -6665
are -6666
▁ㅁㅓㅇ -6667
▁ㄱㅕㅇㅅㅣ -6668
▁ㄹㅓㄱㅂㅣ -6669
▁ㅅㅏㄴㅎㅗ -6670
irl -6671
▁CH -6672
ㅁㅜㄴㄱㅜ -6673
▁ㄱㅏㅁㄱㅡㅁ -6674
▁ㅌㅗㅇㅇㅕㄱ -6675
▁DD -6676
ㅅㅓㅇㅅㅣ -6677
▁ㅅㅏㅁㅈㅗㄴ -6678
▁pr -6679
ㅊㅏㅇㅎㅗ -6680
▁ㅇㅕㄴㅎㅏㄴ -6681
▁ㅎㅘㄱㄱㅗ -6682
▁ㅅㅏㅇㄱㅡㅂ -6683
▁ㅅㅣㄴㅁㅜㄴㅅㅏ -6684
ㅃㅓ -6685
ㅊㅏㄶ -6686
▁ㅅㅐㅇㄱㅖ -6687
▁ㅇㅏㄴㄴㅕㅇ -6688
▁ㅇㅕㄴㄱㅡㄱㅂㅐ -6689
▁ㅇㅛㅇㅇㅣㄴㅅㅣ -6690
▁ㅎㅘㄹㅂㅏㄹㅎㅣ -6691
fe -6692
▁NT -6693
▁ㅂㅜㄴㄱㅘ -6694
▁ㅊㅏㅁㅅㅏ -6695
ical -6696
▁ㅈㅣㅇㅂㅕㅇ -6697
▁ㅌㅗㅇㅇㅛㅇ -6698
ㅇㅠㄱㅈㅏ -6699
ㅈㅓㅇㅅㅏ -6700
ㅇㅏㅁㄷㅗㅇ -6701
ㅂㅏㅁ -6702
ㅊㅓㄴㄹㅜ -6703
▁ㅈㅜㄹㄱㅓ -6704
▁ㅈㅡㅇㅈㅗ -6705
▁ㄱㅓㅁㅈㅓㅇ -6706
▁ㅅㅣㄹㅎㅓㅁㅅㅣㄹ -6707
▁ㄱㅡㄴㅅㅏ -6708
EE -6709
▁AV -6710
▁ㄱㅘㄴㅊㅓㅇ -6711
▁ㅋㅏㄹㄹㅓㅁ -6712
IR -6713
▁ㅈㅓㄴㄴㅏㄹ -6714
▁ㅊㅣㄴㅂㅜㄴ -6715
▁Jo -6716
▁ㅁㅣㄴㅇㅛ -6717
▁ㅅㅓㅁㅅㅔ -6718
ㄹㅏㅇㅋㅗ -6719
ㅅㅏㄱㅅㅡ -6720
▁ㅁㅐㅇㅅㅔ -6721
▁ㅂㅔㄴㅊㅣ -6722
▁ㅎㅔㄹㅅㅣㅇ -6723
FL -6724
▁210 -6725
▁CONCA -6726
▁ㅂㅜㄹㅎㅐㅇ -6727
ㄱㅜㄴㄷㅏ -6728
▁ㄱㅣㄴㅌㅔ -6729
ㅅㅡㅇㅂㅜㄹㄱㅛ -6730
60 -6731
ㄹㄹㅡㄴ -6732
▁ㄷㅡㄴㄷㅏ -6733
▁ㅂㅗㅇㅎㅘ -6734
▁ㄱㅣㅁㅇㅝㄴ -6735
▁ㄴㅗㅇㄱㅕㅇ -6736
▁CONCACAF -6737
▁he -6738
▁ㄱㅘㄴㅎㅐㅇ -6739
▁ㅍㅕㅇㅎㅕㅇ -6740
ㅇㅜㄴㄷㅐ -6741
▁ㅎㅘㅇㅅㅗ -6742
▁ㅂㅚ -6743
▁ㅁㅏㅈㄷㅐ -6744
▁ㅈㅓㅂㅇㅓ -6745
ㄴㅏㄴㅅㅓㅇ -6746
▁ㅁㅔㅅ -6747
▁ㅈㅓㄴㄹㅐ -6748
ㅎㅕㄴㄷㅗㅇ -6749
▁ㅂㅏㄴㅅㅓㅇ -6750
▁ㅎㅏㅂㅊㅣㄴ -6751
▁ㄱㅏㅁㅅㅜ -6752
▁ㅂㅏㅇㅋㅗㄱ -6753
▁ㅇㅝㄴㅌㅗㅇ -6754
▁ㅂㅔㄴㅊㅓ -6755
▁ㅊㅗㅇㅇㅐ -6756
ㅌㅏㄹㄹㅜ -6757
ㄴㅗㄹㅇㅣ -6758
ㅁㅐㄱㅅㅡ -6759
ㅎㅘㄴㄱㅕㅇ -6760
▁ㅊㅏㅇㅁㅜㄴ -6761
▁ㅊㅗㅇㅌㅗㅇ -6762
ㅌㅗㅇㅇㅣㄹ -6763
▁ㅂㅐㄱㄷㅜ -6764
▁ㅂㅏㄴㄹㅏㄴㄱㅜㄴ -6765
▁ㅋㅡㄹㄹㅣㄴㅌㅓㄴ -6766
ㅅㅕㅆ -6767
▁ㅇㅝㄴㅅㅣㅁ -6768
▁Ma -6769
▁ㅇㅔㅇ -6770
ㄹㅏㄴㅌㅗ -6771
▁ㅊㅓㄴㄱㅓ -6772
▁ㅂㅜㄹㅂㅕㄴ -6773
▁ㅅㅣㄴㅂㅏㄹ -6774
▁ㅌㅡㄱㅈㅓㄴ -6775
ㅍㅗㄴㅅㅓ -6776
▁ㄷㅗㄱㄷㅗ -6777
▁ㅇㅕㅇㅈㅓㅇ -6778
▁ㅈㅓㅇㅇㅡㅂ -6779
ㅁㅗㅇㅈㅜ -6780
▁ㅈㅡㅇㅇㅣㄴ -6781
▁ㄴㅔㅅㅉㅐ -6782
▁ㄱㅕㅇㅈㅓㄴㅊㅓㄹ -6783
▁ABC -6784
▁ㅎㅓㅅ -6785
▁ㅂㅗㄴㅈㅏㄱ -6786
▁ㄱㅜㄱㄱㅛ -6787
▁ㄱㅏㅇㄹㅕㅇ -6788
▁ㅅㅡㅂㅇㅠㄴ -6789
▁ㅈㅏㅇㅅㅣ -6790
ㅈㅓㅇㅇㅏㄴ -6791
▁ㅅㅗㅇㅅㅣㄴ -6792
▁ㅇㅣㄹㄷㅏㅇ -6793
▁ㅂㅓㄱ -6794
▁ㅇㅏㄴㄴㅏ -6795
▁ㅇㅑㄱㅎㅗㄴ -6796
▁ㅌㅖㄴㅈㅣㄴ -6797
ey -6798
ㄱㅘㄴㅈㅣ -6799
ㄴㅓㄹㅌㅣ -6800
▁ㄹㅔㄹ -6801
▁ㅅㅣㄷ -6802
▁ㅂㅐㄹㄹㅣ -6803
▁ㅂㅗㄹㄹㅗ -6804
▁ㅈㅓㅇㄱㅓ -6805
▁ㅂㅏㄱㅈㅗㅇ -6806
▁ㅇㅕㄴㅅㅏㄴㄱㅜㄴ -6807
▁int -6808
▁ㄱㅏㄱㅅㅓㅇ -6809
▁ㅁㅗㅅㅎㅐㅆㅇㅡ -6810
▁ㅂㅏㄴㅎㅏ -6811
▁ㅅㅐㄱㅅㅗ -6812
▁ㅋㅏㄴㄱㅜㄱ -6813
ica -6814
ㅂㅜㄱㄱㅜ -6815
ㅇㅓㄹㄹㅣ -6816
▁ㅊㅓㄴㅇㅘㅇ -6817
EL -6818
span -6819
▁ㄷㅏㅇㄴㅐ -6820
▁ㄴㅏㅁㅇㅛㅇ -6821
▁1889 -6822
▁Live -6823
ㅅㅗㄱㅂㅓ -6824
▁ㅅㅓㅇㅎㅘ -6825
▁ㅅㅓㅇㅅㅣㄹ -6826
▁ㅋㅏㄹㅂㅐㅇ -6827
▁onlyinclude -6828
▁ㅂㅜㄹㅌㅐ -6829
▁ㅅㅡㄹㅎㅏ -6830
▁ㅇㅐㄱㅅㅔ -6831
▁ㅈㅜㅇㅌㅚ -6832
▁ㄱㅕㅇㅈㅣㄹ -6833
▁ㅈㅓㅇㅈㅗㅇ -6834
▁ㅈㅜㅇㅅㅏㅇ -6835
▁ㄱㅗㅇㅎㅠ -6836
▁ㅍㅔㄹㄹㅗ -6837
ㅅㅣㄴㅁㅜㄴ -6838
▁JTBC -6839
▁ㅂㅜㄴㅍㅏ -6840
▁ㅇㅓㅁㅁㅣㄹ -6841
▁ㅎㅏㄱㅅㅓㄹ -6842
▁Fr -6843
▁ㅂㅜㄹㅅㅏ -6844
▁ㅈㅓㄱㅇㅚ -6845
▁ㅍㅣㄱㅊㅓ -6846
▁So -6847
▁ㅈㅓㄴㅁㅜ -6848
▁ㄱㅕㅇㅎㅗ -6849
▁ㅂㅕㄹㅅㅔ -6850
▁ㅁㅏㄴㅈㅏㅇ -6851
▁ㅈㅣㄱㅌㅗㅇ -6852
▁ㅊㅠ -6853
▁ㄱㅣㅁㅇㅠ -6854
ㅅㅓㅇㄱㅜ -6855
▁ㅇㅡㄴㄱㅓ -6856
▁ㄱㅓㄹㄹㅣㄴ -6857
▁ㅈㅓㄴㄷㅏㅁ -6858
▁ㅈㅡㄹㄱㅣㄹ -6859
▁ㅊㅣㄱㄹㅕㅇ -6860
▁ㄱㅕㄱㅊㅏ -6861
▁ㅂㅐㄴㅋㅜ -6862
▁ㅋㅓㄴㅌㅔ -6863
▁ㄱㅜㄱㄱㅗㅇ -6864
▁ㅅㅏㅁㄹㅣㅁ -6865
▁ㅊㅓㄴㄱㅜㄱ -6866
tern -6867
▁ㅂㅏㄴㅍㅗ -6868
▁ㅌㅏㄹㄹㅣ -6869
▁ㅅㅏㄴㅅㅓㅇ -6870
bo -6871
▁GB -6872
ㅊㅜㅇㄹㅠ -6873
▁ㅇㅝㄹㅌㅓ -6874
▁ㄱㅣㅁㅎㅕㅇ -6875
▁ㅈㅜㅇㅎㅏㅂ -6876
▁ㅋㅚㄹㄹㅡㄴ -6877
▁For -6878
▁MTV -6879
▁ㄷㅗㄱㅊㅏㅇ -6880
▁ㅅㅓㄴㅊㅓㄴ -6881
▁ㅅㅣㄹㅈㅗㄴ -6882
ㄹㅜㅇ -6883
ous -6884
ㅍㅓㅇ -6885
ost -6886
▁ㄱㅏㄹㅇㅏ -6887
▁ㄱㅡㄹㄹㅏ -6888
IL -6889
▁ㅇㅔㅅ -6890
ㅂㅣㄹㄹㅣ -6891
▁ㅈㅜㄴㅅㅜ -6892
ㄱㅗㅇㅅㅏㄴㄷㅏㅇ -6893
▁Com -6894
▁ㅅㅗㅇㅊㅜㄹ -6895
ㄱㅡㄹㄹㅣ -6896
▁ㅈㅗㅇㅈㅏ -6897
ㅂㅏㅇㄱㅜㄴ -6898
▁ㅁㅜㄴㅈㅣㅂ -6899
▁ㅅㅣㄹㄱㅝㄴ -6900
ㅂㅡㄹㄹㅐㄴㄷㅡ -6901
ows -6902
▁ㄷㅣㅂ -6903
▁ㅅㅣㄴㅈㅣ -6904
▁ㅍㅏㄴㄹㅖ -6905
▁ㄱㅡㅁㅅㅏㄴ -6906
▁ㅎㅏㄴㄹㅣㅁ -6907
▁Col -6908
▁Time -6909
ㅅㅏㅇㅍㅏ -6910
ㄷㅔㄴㅂㅜ -6911
▁ㅂㅏㄱㅌㅔ -6912
▁ㅂㅐㄱㄱㅘ -6913
▁ㅅㅣㄹㄹㅗㄱ -6914
▁ㅎㅏㅇㅁㅏㄴ -6915
▁TR -6916
▁ATP -6917
ㄹㅡㄴㅅㅡ -6918
ㄹㅣㄴㅌㅡ -6919
▁ㅇㅗㄹㄹㅔ -6920
ㄲㅏㄴ -6921
▁Part -6922
▁ㄷㅐㄴㅅㅓ -6923
ㄹㅔㄱㅅㅕㄴ -6924
ㄱㅣㅅ -6925
▁ㅋㅔㄹㅌㅡ -6926
ㅅㅏㄴㅇㅓㅂ -6927
ㅇㅣㄴㄷㅗㄹ -6928
▁ㅅㅓㅇㄱㅘㄱ -6929
ㄹㅝㅆ -6930
ㄹㅗㄹㄹㅓ -6931
▁ㅅㅣㄹㅈㅓㅇ -6932
▁ㅇㅣㄹㅂㅗㄴㄱㅜㄱ -6933
ㅈㅓㅇㄱㅘㄴ -6934
▁ㄱㅕㄹㅂㅕㄹ -6935
▁ㅇㅡㅁㅈㅓㄹ -6936
▁ㅇㅕㅇㅇㅖ -6937
▁ㄱㅓㅂ -6938
▁ㅂㅗㄹㅌㅡ -6939
▁ㅇㅕㅇㅇㅠ -6940
▁ㅍㅓㅁㅍㅡ -6941
ㅅㅣㄴㄹㅗㄴ -6942
row -6943
▁ㅇㅛㄱㅁㅏㅇ -6944
▁ㅎㅣㅁㅆㅓㅆ -6945
▁AKB -6946
ㅌㅓㄴㅌㅡ -6947
▁ㄱㅡㄹㄲㅗㄹ -6948
▁ㅈㅓㅇㅎㅕㅇ -6949
▁u -6950
▁ㄱㅕㄱㄹㅣ -6951
▁ㄱㅏㅁㅊㅏㄹ -6952
ㄴㅏㄹㄹㅗ -6953
▁ㅅㅠㄹㄹㅔ -6954
▁ㄱㅗㅇㅈㅗㄴ -6955
▁ㄱㅓㅁㅇㅡㄴㅅㅐㄱ -6956
▁ㅂㅏㅇㅊㅣ -6957
▁ㅂㅓㄹㅇㅕ -6958
▁API -6959
▁ㄱㅣㅁㅈㅜㄴ -6960
ood -6961
▁ㄱㅗㅇㄷㅐ -6962
▁ㅇㅣㄴㅊㅣㅇ -6963
▁ㅈㅏㄱㅁㅜㄹ -6964
lay -6965
▁ㅈㅓㄴㅅㅔ -6966
▁ㅊㅏㄴㅅㅏ -6967
▁ㅊㅣㅁㅁㅜㄱ -6968
▁at -6969
ㄲㅟㄴ -6970
ㅅㅏㄴㄷㅡ -6971
▁ㅇㅕㄴㅎㅚ -6972
▁ㅅㅏㅁㅈㅜㅇ -6973
▁ㅇㅣㅁㅈㅓㅇ -6974
sh -6975
▁Sou -6976
ㅇㅣㄹㄹㅗ -6977
▁ㄴㅓㅁㅊㅣ -6978
▁ㅂㅜㄹㄹㅑㅇ -6979
▁ㅈㅗㅇㅅㅣㄱ -6980
▁"& -6981
az -6982
▁ㅆㅏㄴ -6983
▁ㅁㅕㅇㅅㅗ -6984
▁ㅈㅓㄹㅁㅏㅇ -6985
▁ㅂㅕㅇㅈㅏ -6986
▁ㅍㅕㅇㅍㅕㅇ -6987
▁ㄱㅘㅇㅂㅗㄱㄱㅜㄴ -6988
▁ㄱㅕㅂㅊㅕ -6989
▁ㅆㅏㅇㄷㅐ -6990
▁ㄱㅕㅇㅂㅗㄱ -6991
▁ㅇㅝㄴㄱㅜㄴ -6992
uc -6993
ㅅㅜㄱㅅㅏ -6994
ㅌㅗㅇㅂㅜ -6995
▁ㅇㅘㄴㅈㅜ -6996
▁ㅎㅏㄴㅁㅣ -6997
▁ㅈㅗㅇㄱㅜㄴ -6998
ㅋㅓㄴㄷㅐ -6999
▁ㅂㅜㄹㅊㅏㅁ -7000
▁131 -7001
▁ㅅㅠㅅ -7002
ㄹㅏㅂㅇㅔ -7003
▁ㅍㅗㄱㅍㅏ -7004
▁ㅇㅘㅇㄱㅝㄴ -7005
▁ㄱㅕㅇㅇㅕㅇㅈㅏ -7006
OP -7007
▁ㄱㅗㅈ -7008
▁ㅅㅏㅆ -7009
▁ㅊㅏㄴㅇㅑㅇ -7010
▁ㅌㅡㄱㅎㅘ -7011
▁ㅍㅕㅇㅈㅣ -7012
▁ㅇㅕㄴㅁㅏㄹ -7013
▁ㅈㅓㄴㅈㅓㄴ -7014
ㅅㅏㅇㅊㅓㅇ -7015
▁ㅅㅡㄹㅍㅡㅁ -7016
▁ㅎㅏㄴㅈㅜㅇ -7017
▁ㄹㅣㄹㄹㅔ -7018
▁ㅅㅏㄴㅅㅣ -7019
ㄱㅡㅅㄴㅏ -7020
▁ㄱㅣㅁㅁㅕㅇ -7021
CC -7022
▁ㅌㅏㄴㅈㅏ -7023
▁ㄱㅏㄴㅊㅓㅂ -7024
▁ㄱㅓㄴㅈㅓㄴ -7025
olog -7026
ㅅㅔㄴㅅㅡ -7027
▁ㅅㅜㄴㅈㅗㅇ -7028
▁ㄴㅕㅇ -7029
▁ㅁㅗㄱㅎㅚ -7030
ㅉㅓㄹ -7031
▁ㅈㅣㅇㅅㅜ -7032
▁ㅈㅏㅁㅈㅓㅇ -7033
▁EM -7034
▁FK -7035
▁Bla -7036
▁ㅇㅜㄱ -7037
ㅈㅣㄹㄹㅓ -7038
▁ㄱㅗㅇㅇㅕㅇ -7039
▁ㄱㅜㄹㅈㅓㄹ -7040
▁ㅇㅕㄴㅈㅓㅇ -7041
▁ㅎㅕㅇㅈㅣㄹ -7042
ann -7043
▁EU -7044
ㅈㅓㄴㅊㅔ -7045
▁ㅂㅗㄴㅅㅓㅇ -7046
▁ㅈㅏㅇㅎㅏㄱㄱㅡㅁ -7047
80 -7048
ㅍㅓㄴ -7049
▁ㄴㅡㄺ -7050
▁ㅎㅜㅇ -7051
▁ㅎㅏㅇㅊㅔ -7052
▁ㅈㅜㄱㅇㅣㄴ -7053
ern -7054
▁tv -7055
▁ㅇㅣㅅㄸㅏ -7056
▁ㅎㅘㅇㅅㅐㄱ -7057
40 -7058
ㅁㅣㅅ -7059
▁ㅎㅗㅂ -7060
ㅇㅜㄹㄹㅜ -7061
▁ㅈㅓㄱㄹㅛ -7062
ㄷㅗㅇㅅㅓㅇ -7063
▁ㄱㅣㅁㄱㅘㅇ -7064
▁ㅈㅓㅇㅇㅣㄴ -7065
▁ㅎㅑㅇㅎㅐㅆ -7066
▁ㅅㅐㅇㅈㅗㄴㅈㅏ -7067
▁OST -7068
ㅈㅓㄴㅌㅡ -7069
▁ㅁㅣㄹㄹㅔ -7070
▁ㅇㅛㅇㅇㅢ -7071
▁ㄱㅏㅁㅅㅓㅇ -7072
▁ㅅㅏㄴㄷㅜㅇ -7073
▁ㅅㅓㅇㄷㅗㅇ -7074
▁1848 -7075
▁Wind -7076
▁ㅇㅕㄴㅎㅢ -7077
▁ㄷㅏㅇㅇㅕㄴ -7078
▁new -7079
▁ㄱㅡㄱㅇㅜ -7080
▁ㄲㅗㅂㅎㅣ -7081
ㅂㅜㅇㄷㅗㄹ -7082
▁ㄱㅏㅇㄹㅕㄹ -7083
▁ㅇㅔㄴㄷㅡ -7084
▁ㅋㅡㄹㄹㅓ -7085
▁ㅍㅏㄴㅅㅗ -7086
▁ㅎㅗㄴㄷㅏ -7087
ㅂㅔㄹㅅㅏㅇ -7088
▁ㄴㅏㅁㅂㅏㅇ -7089
▁ㅇㅛㅇㅇㅐㄱ -7090
▁ㅇㅣㄴㄱㅗㅇㅈㅣ -7091
▁NASA -7092
ㄷㅏㄴㅎㅣ -7093
▁ㄷㅓㅍㄱㅐ -7094
▁ㄷㅗㅇㄹㅗ -7095
▁ㅅㅏㄴㅅㅡ -7096
▁ㅁㅏㅈㅊㅜㄴ -7097
▁ㅈㅓㄹㅂㅕㄱ -7098
▁ㅈㅓㅂㅎㅏㄴ -7099
▁BC -7100
▁RP -7101
▁1883 -7102
▁ㅅㅏㄴㅇㅛ -7103
▁ㅎㅓㄴㅌㅓ -7104
▁ref -7105
ㅇㅣㄴㅅㅏ -7106
▁ㅅㅏㅇㄹㅗㄱ -7107
▁ㄱㅘㄴㅎㅕㄴㅇㅏㄱㄷㅏㄴ -7108
orn -7109
▁Your -7110
▁ㅅㅏㅂㅎㅘ -7111
▁ㅇㅗㄴㄴㅏㄴ -7112
▁ㅇㅡㅇㄱㅡㅂ -7113
▁ㅇㅝㄴㅅㅏㄴㅈㅣ -7114
ㅇㅛㅇㄱㅐㄱ -7115
▁ㄱㅏㄴㄹㅑㄱ -7116
▁ㄴㅏㄱㄷㅗㅇㄱㅏㅇ -7117
▁ㄱㅘㄴㅁㅗㄱ -7118
▁ㅇㅏㄴㅂㅏㅇ -7119
▁ㅇㅘㅇㄱㅓㄴ -7120
ㄷㅟ -7121
▁ㅉㅓㄴ -7122
▁ㅋㅏㅂ -7123
▁ㅂㅏㄴㄱㅣ -7124
▁ㄴㅏㅁㄱㅜㄴ -7125
▁ㅎㅏㄴㅅㅣㄴ -7126
▁RS -7127
▁ㄱㅕㄱㅊㅜ -7128
▁Ge -7129
▁ㅇㅏㄴㄱㅐ -7130
▁ㅈㅣㄴㄹㅗ -7131
ㄱㅏㄹㄹㅑㅇ -7132
▁ㅁㅜㄴㄷㅏㄴ -7133
ㅎㅐㅁ -7134
ㅁㅣㄴㅅㅡ -7135
▁ㄱㅓㄹㅇㅓ -7136
▁ㄱㅣㅁㅇㅣㄴ -7137
▁ㄷㅏㄴㄱㅜㄴ -7138
▁ㅅㅓㄴㅁㅕㅇ -7139
▁ㅈㅓㄹㅈㅓㅇ -7140
▁ㄴㅗㄱㅎㅘ -7141
II -7142
ㄲㅣㄹ -7143
▁ㄲㅏㅁ -7144
ㅊㅜㅇㅈㅣ -7145
ㅈㅓㄴㅎㅏㄱ -7146
▁colspan -7147
▁Sch -7148
▁ㄱㅗㅇㅅㅗ -7149
▁ㅇㅑㅇㅅㅜ -7150
ㅂㅏㅇㄱㅘㄴ -7151
ㅂㅓㅂㄱㅘㄴ -7152
▁ㅈㅓㅇㅇㅡㄴ -7153
ink -7154
ㅁㅏㅇㄷㅣ -7155
▁ㄱㅜㄱㄷㅏㅇ -7156
▁ㅌㅏㄴㅇㅑㄱ -7157
ㄴㄷㅏ -7158
▁ㅂㅗㅅ -7159
ㄷㅏㄴㅇㅟ -7160
▁ㅁㅔㄹㅂㅓ -7161
ㅁㅏㄱㅅㅣㄱ -7162
▁ㄷㅗㅇㅈㅣㄴ -7163
▁ㅅㅣㄱㅅㅡ -7164
ㅁㅏㄴㅋㅡㅁ -7165
▁ㄸㅗㄱㄱㅏㅌㅇㅣ -7166
OT -7167
▁ㄷㅗㅇㅅㅏㄴ -7168
ㄷㅗㄹㅇㅣ -7169
▁ㅇㅏㄱㅂㅗ -7170
▁ㅁㅜㄷㅎㅕㅆ -7171
▁ㄱㅡㅁㅎㅗ -7172
▁ㅂㅏㅇㄷㅐ -7173
▁ㅊㅓㅇㄷㅗ -7174
▁ㅊㅗㅇㄱㅕㄱ -7175
▁1882 -7176
▁ㄷㅗㄱㅅㅜ -7177
▁ㅁㅗㄹㅌㅏ -7178
ㄱㅗㅇㄱㅏㄴ -7179
▁ㅁㅏㅈㅊㅜㅁ -7180
ㄱㅏㅆㅇㅡ -7181
▁ㄱㅡㅂㅇㅕ -7182
▁ㄴㅏㄲㅅㅣ -7183
▁ㄱㅏㅁㅅㅏㅇ -7184
▁ㅎㅏㅂㅊㅣ -7185
ㅇㅣㄹㄹㅓㅅ -7186
▁ㅎㅏㅁㄹㅑㅇ -7187
▁end -7188
▁ㅅㅑㄴ -7189
ㅍㅜㄹㅇㅣ -7190
ㅁㅐㄴㅌㅣㄱ -7191
ㅇㅏㄴㅅㅓㄴ -7192
ㅈㅓㄴㅅㅓㄴ -7193
▁ㅇㅑㅇㅇㅠㄱ -7194
ㅎㅑㅇㅇㅏㄱㄷㅏㄴ -7195
▁ㅅㅓㄹㅁㅜㄴ -7196
▁ㅇㅕㄹㅅㅣㅁㅎㅣ -7197
▁ㅂㅓㅂㅇㅝㄴㅈㅏㅇ -7198
▁ㅈㅓㅁㅍㅗ -7199
▁ㄱㅏㅇㄷㅏㅇ -7200
▁ㅎㅕㅇㅂㅓㄹ -7201
▁ㅁㅕㅇㅎㅘㄱㅎㅣ -7202
ㄱㅐㅇ -7203
▁ㅅㅗㅇㅍㅏ -7204
▁ㅇㅑㅇㅅㅣㅁ -7205
▁ㅇㅏㅇㄱㅗㄹㄹㅏ -7206
▁Day -7207
▁ㄱㅓㅁㄱㅓ -7208
▁ㄱㅘㄴㅇㅏㄱ -7209
▁ㅇㅕㅇㄷㅓㄱ -7210
▁SNS -7211
▁ㅇㅓㅂㅈㅏ -7212
ㅌㅏㄴㅂㅜㄹ -7213
ㅎㅏㅂㅅㅓㅇ -7214
▁ㅇㅕㅇㅇㅝㄹ -7215
ㄹㅐㄴㅊㅏ -7216
▁ㄷㅏㄴㄱㅕㄹ -7217
▁ㅈㅗㅇㅇㅑㅇ -7218
ㅃㅜ -7219
ㅂㅣㄴㅅㅡㄴ -7220
▁ㅂㅓㄴㅊㅏㅇ -7221
▁ㅅㅗㄱㄹㅕㄱ -7222
▁ㅇㅕㄹㄱㅏㅇ -7223
▁ㅇㅕㅇㅇㅏㅁ -7224
▁ㅊㅐㅇ -7225
ㅇㅞㄴ -7226
▁ㅎㅕㅂㅇㅓㅂ -7227
▁ㅍㅣㄹㄹㅣㅂㅅㅡ -7228
▁ㅂㅜㄹㄱㅖ -7229
▁ㅇㅔㄴㄹㅣ -7230
▁ㄷㅗㅇㅈㅓㄱ -7231
▁ㅇㅕㄴㄹㅣㅂ -7232
▁ㅋㅗㄴㅅㅗㄹ -7233
▁Or -7234
▁ㅇㅕㄴㅎㅘ -7235
▁ㄴㅔㄹㅅㅡㄴ -7236
ㅂㅗㄴㅂㅜ -7237
▁ㄱㅜㄴㄷㅔ -7238
▁ㅅㅓㄴㅂㅗㅇ -7239
▁ㅈㅣㄱㅅㅗㄱ -7240
▁ㅊㅜㅇㄹㅕㄹ -7241
▁ㅅㅏㅇㅇㅓ -7242
▁ㅈㅗㅇㅇㅕㅇ -7243
▁ㅎㅟㅂㅆㅡㄹ -7244
ㄹㅐㅆ -7245
ㄹㅓㄴㅌㅡ -7246
ㅈㅔㄹㄹㅗ -7247
ㄹㅐㅂ -7248
▁4000 -7249
▁ㄷㅏㄴㅅㅗㄱ -7250
▁ㅈㅓㅇㅇㅝㄹ -7251
US -7252
▁ㄱㅜㄱㅎㅏㄴ -7253
▁ㅈㅣㄴㅎㅏㄴ -7254
▁SA -7255
▁ㄱㅕㅇㅇㅟ -7256
▁ㅈㅜㅇㅇㅕㅂ -7257
gin -7258
ㄹㅔㄹㄹㅣ -7259
▁ㅈㅓㄴㅂㅗ -7260
▁ㅎㅏㅇㅇㅜ -7261
▁ㅊㅣㄴㅈㅗㄱ -7262
▁by -7263
▁ㄱㅏㅇㅍㅜㅇ -7264
▁ㄱㅗㄹㄱㅕㄱ -7265
▁ㅅㅣㄱㅇㅛㅇ -7266
▁ㅇㅕㄹㅈㅓㄴ -7267
amp -7268
ㅇㅛㅇㅅㅜ -7269
▁ㅈㅓㄹㄱㅏㅁ -7270
ㄹㅣㄹㄹㅐㄴㄷㅡ -7271
▁ㅅㅓㅆ -7272
▁ㄱㅘㄴㄹㅖ -7273
▁ㄲㅜㅁㄲㅜ -7274
▁ㄱㅝㄴㅇㅕㄱ -7275
▁ㄱㅣㅁㅇㅗㄱㄱㅠㄴ -7276
▁ㅂㅜㄴㅅㅏ -7277
ㅇㅠㅇㅎㅏㅂ -7278
▁ㅌㅗㅇㅅㅣㄴㅅㅏ -7279
RT -7280
▁330 -7281
▁ㄱㅜㄱㅇㅚ -7282
▁ㅊㅓㄴㅅㅜ -7283
▁ㅂㅏㄷㄷㅡㄹ -7284
▁ㅇㅣㄱㅅㅜㄱ -7285
▁ㅈㅓㅇㅈㅏㄱ -7286
▁OB -7287
▁1868 -7288
▁ㅁㅜㄴㅈㅗㅇ -7289
▁ㅎㅏㅇㅇㅝㄴ -7290
▁GM -7291
ㄴㅔㄹㄹㅣ -7292
▁ㅂㅗㅇㅇㅣㄴ -7293
▁ㅅㅓㅇㅅㅏㄴ -7294
▁ㅅㅣㄴㄱㅗㄱ -7295
▁ㅎㅐㄱㅇㅠㅇㅎㅏㅂ -7296
▁320 -7297
ㅇㅜㄹㅈㅡㅇ -7298
▁ㄷㅣㄹㄹㅓㄴ -7299
▁ㅇㅕㅇㅊㅓㄴ -7300
▁ㅋㅗㄹㄹㅓㅁ -7301
gr -7302
oll -7303
▁ㅈㅓㅂㅈㅗㅇ -7304
▁ㅍㅕㅇㅍㅏㄴ -7305
▁ㅎㅏㄹㅇㅣㄴ -7306
▁ㅊㅓㄴㅇㅏㄴㅅㅣ -7307
▁DF -7308
ㅉㅜㄱ -7309
▁ㅂㅣㅇㅎㅏ -7310
▁ㅇㅘㅇㄱㅜㅇ -7311
▁ㅈㅓㅇㄹㅕㅇ -7312
ㄱㅏㄴㄷㅐ -7313
ㄷㅡㅇㄱㅛ -7314
▁ㅂㅏㄹㅅㅏㅇ -7315
OW -7316
ㅇㅏㄴㅂㅜ -7317
ㅋㅗㄴㄷㅡ -7318
ㅍㅏㅇㅇㅣ -7319
ㅍㅕㅇㄹㅣ -7320
▁ㄴㅗㅍㅇㅕ -7321
ㅅㅏㅇㄱㅡㅁ -7322
▁ㅂㅜㄱㅇㅠ -7323
▁ㅋㅓㄴㅅㅓㄹ -7324
▁ㄷㅏㄴㅁㅏㄹ -7325
▁ㅈㅗㅇㅅㅣㄴ -7326
▁203 -7327
▁ㅅㅟㄹ -7328
▁ㄹㅐㅇㅋㅡ -7329
ㅋㅐㄴㄷㅡㄹ -7330
▁ㄷㅏㄴㅈㅓㅇ -7331
▁Fe -7332
ㄴㅓㅅ -7333
ㄱㅘㄴㄱㅖ -7334
▁ㅊㅓㄴㅁㅏ -7335
ㅊㅓㄴㅇㅘㅇ -7336
▁ㄱㅜㄴㅂㅓㄹ -7337
▁le -7338
ㄸㅏㄱ -7339
ㄹㅏㄴㅊㅣ -7340
ㅎㅕㅂㅎㅚ -7341
▁ㄱㅘㄴㅇㅜ -7342
▁ㅇㅗㄻㄱㅣㄴ -7343
ung -7344
ㅈㅏㄱㅇㅟ -7345
▁ㄴㅏㅁㅎㅏ -7346
▁ㅈㅗㄱㅂㅗ -7347
▁ㅎㅏㅇㄹㅗ -7348
ㄷㅓㅁㅅㅡ -7349
ㅁㅗㄴㅌㅡ -7350
▁ㅇㅡㄴㅎㅖ -7351
▁ㅂㅜㄱㄱㅜㄴ -7352
▁ㅅㅣㄹㅈㅡㅇ -7353
ublic -7354
ㅈㅣㄴㅇㅜ -7355
ㄷㅗㅇㅁㅕㄴ -7356
▁ㅎㅏㅁㄱㅕㅇㅂㅜㄱㄷㅗ -7357
ㅇㅟㄱ -7358
▁GNU -7359
▁ㄱㅕㄹㅅㅏ -7360
▁ㄱㅘㄴㅅㅏㅇ -7361
▁ㅅㅓㅇㅇㅝㄴ -7362
▁ㅅㅣㄴㅇㅣㅂ -7363
▁ㅈㅣㄱㅎㅐㅇ -7364
▁ㅎㅏㅁㅎㅡㅇ -7365
▁ㅇㅠㄱㄱㅜㄴㅅㅏ -7366
▁ㄱㅡㅂㅈㅡㅇ -7367
▁ㄴㅗㅎㅇㅣㄴ -7368
▁1893 -7369
▁Girl -7370
ㅇㅣㄱㅅㅡ -7371
▁ㄱㅡㅁㄷㅗㅇ -7372
▁ㅂㅜㄹㄱㅕㅇ -7373
▁ㅊㅡㄱㄹㅑㅇ -7374
▁ㅁㅏㄴㄴㅏㄴㄷㅏ -7375
▁ㅊㅜㅇㅁㅜ -7376
▁ㄱㅕㄹㅎㅐㄱ -7377
▁ㄴㅗㅇㅈㅣ -7378
▁ㅇㅡㄴㅅㅣㄴ -7379
▁Rock -7380
▁ㅎㅏㄱㄹㅕㄱ -7381
▁ㅂㅏㄹㅈㅓㄴㄱㅣ -7382
▁ㅍㅔㄹㄹㅣㄱㅅㅡ -7383
▁ㄱㅣㅁㅊㅣ -7384
▁ㅈㅓㄴㅁㅣ -7385
ㅍㅗㄱㅌㅏㄴ -7386
▁ㅈㅓㅇㅈㅓㅇ -7387
▁NP -7388
▁ㅊㅓㅇㄱㅖ -7389
▁ㅈㅓㅇㅂㅏㄴ -7390
▁Univers -7391
▁ㅈㅡㅇㅍㅗㄱ -7392
▁ㅂㅗㄱㅇㅡㅁㅈㅜ -7393
▁ㅅㅓㄴㅈㅣㄴㄱㅜㄱ -7394
▁Rec -7395
▁ㄱㅣㅁㅊㅓㄴ -7396
▁ㄹㅔㅅ -7397
ㅇㅛㅇㅊㅏ -7398
▁ㅍㅕㄴㄱㅕㄴ -7399
▁ㅈㅓㄴㅂㅏㄴㄱㅣ -7400
▁ㅌㅗㄱ -7401
ㅁㅏㄹㄹㅗ -7402
ㅎㅏㄱㅂㅜ -7403
▁ㅎㅕㄴㅍㅏㄴ -7404
▁ㄱㅏㄴㅅㅣㄴㅎㅣ -7405
▁ㅎㅏㄴㅋㅠ -7406
▁ㅈㅜㄴㅈㅏㅇ -7407
▁ㅎㅓㄴㅈㅏㅇ -7408
▁ㅈㅏㅇㄴㅕ -7409
▁ㅌㅏㄹㄹㅔ -7410
▁Comp -7411
▁ㅅㅏㄴㅅㅜ -7412
▁ㄱㅣㅁㅅㅓㄴ -7413
▁ㅂㅓㅂㄱㅘㄴ -7414
▁Mo -7415
▁TBS -7416
▁from -7417
ㄱㅓㄹㅇㅣ -7418
▁ㅅㅏㄴㅌㅗ -7419
▁ㅅㅜㄴㅊㅏ -7420
▁ㅅㅏㅇㄱㅜㄱ -7421
▁ㅊㅓㅇㅅㅗㅇ -7422
▁LED -7423
▁ㄷㅗㅇㅍㅗ -7424
▁ㅂㅐㄱㅈㅏ -7425
▁ㅇㅗㄴㅎㅘ -7426
▁ㄱㅣㅁㅇㅠㄴ -7427
LA -7428
▁IV -7429
▁ㄴㅑㅇ -7430
ㅋㅏㄴㄷㅣ -7431
ㅅㅏㄹㅅㅏㅇ -7432
▁ㅈㅏㅁㄲㅏㄴ -7433
eth -7434
▁AB -7435
▁IOC -7436
ㄹㅕㅇㄱㅜㄴ -7437
ㅅㅣㄹㅈㅓㅁ -7438
▁ㅇㅣㄹㄱㅏㄱ -7439
▁ㅈㅏㅇㄷㅓㄱ -7440
▁ㅈㅏㅇㅂㅕㅇ -7441
▁ㄱㅏㅇㅈㅣㄴ -7442
▁ㅅㅓㄴㅇㅣㄴ -7443
▁ㅎㅏㄱㅈㅏㅇ -7444
▁ㅇㅣㄴㄱㅗㅇㅇㅟ -7445
ㅋㅗㄹㄹㅣㅅ -7446
▁ㄷㅏㄹㄹㅏㅆ -7447
▁ㄷㅗㅇㅎㅑㅇ -7448
les -7449
oth -7450
▁Am -7451
▁Sup -7452
ㅅㅔㄹㄹㅓ -7453
▁ㅇㅝㄹㅌㅡ -7454
▁ㅇㅟㅅㅂㅜ -7455
▁ㅂㅏㄱㅅㅏㅇ -7456
▁ㅊㅜㄹㄷㅗㅇ -7457
▁ㅇㅕㅇㅇㅝㄴㅎㅣ -7458
▁ㄱㅘㅁ -7459
▁ㅈㅓㄴㅅㅜ -7460
▁ㄴㅡㅇㄷㅗㅇ -7461
▁ㅈㅏㅇㅎㅡㅇ -7462
▁ㄴㅗㄱㅅㅐㄱㄷㅏㅇ -7463
▁ar -7464
ㅁㅕㄴㄹㅏ -7465
▁ㄷㅏㅇㄴㅛ -7466
▁ㅇㅏㅆㅇㅓㅆ -7467
▁ㅈㅓㄴㅎㅏㄱ -7468
▁ㅍㅡㄹㄹㅏㅇㅋㅡ -7469
▁230 -7470
▁ㅆㅗㄷㅇㅏ -7471
▁ㅇㅘㄴㄷㅗ -7472
▁ㄷㅗㅇㅈㅗㅇ -7473
▁ㅂㅐㄱㅇㅏㄱ -7474
▁ㅅㅏㄴㅊㅓㅇ -7475
▁ㄱㅗㅇㄱㅜㄴㄱㅣ -7476
AI -7477
▁ㅇㅜㄹㅈㅜ -7478
▁ㅊㅓㄱㄷㅗ -7479
▁ㅇㅏㅂㄹㅗㄱ -7480
▁ㅋㅏㄹㅅㅠㅁ -7481
ㄹㅜㄱㅅㅡ -7482
ㅂㅣㄹㄹㅗ -7483
▁ㄱㅐㄱㅊㅏ -7484
▁ㅅㅣㅁㅍㅗ -7485
▁ㅊㅓㅇㄹㅑㅇ -7486
▁ㄱㅡㅂㅅㅗㄱㅎㅣ -7487
▁ㅊㅣㅇㅅㅗㅇ -7488
▁Su -7489
▁ㅅㅠㄹ -7490
ㅇㅏㄴㄱㅏ -7491
▁ㄱㅏㄱㄹㅛ -7492
▁ㅅㅓㄲㅇㅕ -7493
▁ㅇㅑㅇㄷㅐ -7494
ㅈㅣㄱㄱㅕㅇ -7495
▁ㄱㅜㄱㅊㅓㄹ -7496
▁ㅎㅘㅇㅅㅏㄴ -7497
▁wh -7498
ㅌㅐㄴㄹㅣ -7499
▁ㅁㅜㄴㅁㅜ -7500
ㅇㅣㅁㅇㅝ -7501
▁ㄱㅕㅂㅊㅣ -7502
▁ㅎㅡㅂㅅㅏ -7503
▁ㅈㅜㅇㅇㅏㅇㅇㅡㄴㅎㅐㅇ -7504
▁280 -7505
▁1892 -7506
▁ㅁㅣㄹㅇㅓ -7507
▁ㅇㅜㄹㄹㅡㅇ -7508
▁IR -7509
ㅃㅏㅇ -7510
ㅃㅡㅁ -7511
▁ㅇㅕㅁㄹㅕ -7512
▁ㄱㅣㅁㅅㅡㅇ -7513
▁ㅂㅓㅁㅎㅐㅇ -7514
▁ㅂㅜㄴㄷㅏㄴ -7515
▁ㅈㅓㅇㅎㅐㅆ -7516
ㅇㅏㅁㄹㅣ -7517
▁ㅈㅓㅂㅎㅐ -7518
▁ㅎㅏㅂㅎㅏ -7519
▁ㅌㅗㅁㅅㅡㄴ -7520
▁ㅈㅜㅇㄱㅗㅇㄱㅜㄴ -7521
ㅊㅝㅆ -7522
▁ㅉㅣㅈ -7523
▁ㅋㅏㅁㅍㅏ -7524
▁ㅇㅓㅆㅇㅓㅆ -7525
▁ㅇㅕㄴㅈㅏㅇㅈㅓㄴ -7526
▁ㅋㅓㄹㄹㅔㄱㅅㅕㄴ -7527
▁Sw -7528
▁1888 -7529
ㅈㅏㅇㅅㅏ -7530
▁ㄱㅡㄴㅇㅟ -7531
▁ㅇㅣㄴㅋㅗ -7532
ㅇㅣㄴㅇㅓㅂ -7533
▁ㅇㅛㅇㅍㅜㅁ -7534
▁ㅇㅣㄴㅍㅡㄹㄹㅔ -7535
ron -7536
▁ㅈㅓㄴㄱㅛ -7537
▁ㅊㅜㄹㅈㅏ -7538
▁ㅋㅔㄴㅌㅡ -7539
▁ㅎㅑㅇㄱㅣ -7540
▁ㅎㅏㄴㅁㅜㄴ -7541
▁ㅇㅐㄴㅅㅓ -7542
▁ㄱㅡㅁㅈㅓㄴ -7543
▁ㅎㅏㅂㅊㅓㄴ -7544
▁co -7545
▁ㄷㅏㅁㅂㅗ -7546
ㄱㅘㅇㅅㅓㅇ -7547
▁ㅅㅓㅇㅇㅏㄱ -7548
▁ㅇㅡㅁㅇㅜㄴ -7549
ㄲㅓㅅ -7550
▁ㅈㅓㄹㅈㅔ -7551
ㄱㅜㄱㅈㅓㄱ -7552
▁ㄴㅡㅍ -7553
ㅂㅔㄹㄹㅣ -7554
ㅅㅓㄴㄷㅗ -7555
▁ㅁㅏㅌㄱㅣ -7556
▁ㄱㅏㄴㅈㅣㄱ -7557
▁ㄱㅗㅇㅇㅑㅇ -7558
▁ㅈㅏㄴㅇㅣㄴ -7559
ㄱㅡㅁㅂㅜ -7560
▁ㄹㅣㅁㅍㅡ -7561
▁ㅂㅏㄱㅅㅓㅇ -7562
EST -7563
ㅎㅗㅇㅅㅐㄱ -7564
ㅎㅡㄺ -7565
ㅌㅣㄹㄹㅓ -7566
ㅌㅗㅇㅅㅏ -7567
▁ㅅㅣㅁㅂㅜ -7568
▁ㅋㅗㄹㄹㅣ -7569
ㄱㅗㅇㄱㅜㄱ -7570
ㄷㅗㄱㄹㅣㅂ -7571
▁Do -7572
▁ㅇㅖㄹ -7573
ㅇㅡㄹㅂㅓ -7574
▁ㅇㅏㄴㅁㅜ -7575
▁ㅇㅔㄹㄹㅏ -7576
▁ㄱㅗㅇㅇㅏㄴ -7577
▁ㅅㅡㅂㄱㅘㄴ -7578
▁ㅇㅜㄴㅇㅣㅁ -7579
▁ㅇㅣㅂㅎㅓㄴ -7580
▁CG -7581
▁ㅈㅜㅇㄱㅗ -7582
▁ㅊㅔㄹㄹㅗ -7583
▁ㅍㅗㄹㄹㅏ -7584
▁ㅂㅗㄱㅅㅣㅇ -7585
▁ㅎㅕㅇㅍㅕㄴ -7586
ㄸㅣ -7587
ㅋㅡㄹㄹㅗ -7588
▁ㅍㅔㄹㅌㅡ -7589
▁ㄴㅗㅇㅊㅜㄱ -7590
▁ㅅㅓㄴㅇㅑㅇ -7591
▁ㅇㅏㅍㅅㅓㄴ -7592
AE -7593
ㄷㅗㅇㄹㅣ -7594
ㄹㅡㄹㄹㅔ -7595
▁ㄱㅡㅁㄴㅏ -7596
▁ㄱㅣㄴㅋㅣ -7597
▁ㄴㅗㅁ -7598
▁ㅈㅓㅇㅈㅐ -7599
▁ㅂㅏㄹㄷㅗㅇ -7600
▁ㅅㅏㅁㄱㅏㄱㅈㅜ -7601
▁ㅇㅐㄴㄷㅣ -7602
ah -7603
▁Car -7604
▁ㄲㅡㅌㄴㅏㅆ -7605
▁ㅇㅣㅁㄱㅖ -7606
▁ㅈㅓㅁㄱㅓ -7607
▁ㅈㅣㅁㅂㅏ -7608
▁ㅈㅣㅂㅊㅏㄱ -7609
land -7610
▁ㅁㅕㅇㅂㅜ -7611
▁ㅅㅗㄴㄴㅕ -7612
▁ㅌㅗㅂㄴㅣ -7613
aw -7614
▁270 -7615
▁ㅇㅑㅇㅂㅗ -7616
▁ㄱㅗㅇㅂㅓㅂ -7617
▁ㅅㅡㅇㄷㅏㄴ -7618
▁ㅍㅏㄹㄹㅕㅆ -7619
▁ㅅㅜㄴㅇㅑㅇㅎㅏㅁ -7620
▁Gre -7621
▁ㄱㅗㄹㄹㅏ -7622
▁KB -7623
ㅁㅓㄹ -7624
▁ㅍㅔㅅ -7625
▁ㅍㅔㅇ -7626
ㄱㅘㅇㅅㅜ -7627
ㅇㅘㅇㅎㅜ -7628
ㄷㅗㅇㅈㅓㄴ -7629
▁ㄱㅏㄴㅎㅗㄱ -7630
▁ㅇㅝㄴㅎㅘㄹ -7631
ㄴㅏㄴㄷㅔ -7632
▁ㄴㅏㄱㅇㅑㅇ -7633
▁ㅊㅓㄴㅊㅓㄴ -7634
ㅍㅗㅇ -7635
▁260 -7636
▁ㄱㅐㅅ -7637
▁ㅇㅣㄴㅈㅔ -7638
▁ㅈㅡㅇㅇㅗ -7639
▁ㅌㅏㄹㅊㅟ -7640
▁ㅊㅜㄱㅅㅓㅇ -7641
▁1876 -7642
ㄱㅡㅁㅅㅗ -7643
ㄴㅓㄹㅅㅡ -7644
ㅌㅐㄴㄷㅡ -7645
▁ㄷㅏㄴㄱㅓ -7646
▁ㅌㅗㅇㅍㅖ -7647
ㅅㅞ -7648
ㅇㅣㄴㅊㅡ -7649
▁ㅅㅐㅇㅁㅗ -7650
▁ㅈㅣㄱㅅㅏ -7651
▁ㅊㅓㄴㅊㅓㄴㅎㅣ -7652
▁if -7653
ㅍㅔㅅ -7654
ㅇㅝㄴㅅㅏ -7655
▁ㅈㅣㄱㄱㅖ -7656
▁ㅋㅗㄴㄹㅏ -7657
▁ㅎㅕㄴㄱㅘ -7658
19 -7659
ㄴㅛㅇ -7660
▁ㄱㅕㅇㅁㅜ -7661
▁ㄱㅗㅇㅅㅣ -7662
▁ㅆㅓㅆㅇㅡ -7663
▁ㅍㅓㄴㄷㅡ -7664
▁ㅈㅣㅁㅅㅡㅇ -7665
▁ㄱㅕㅇㅇㅕㅇㅎㅏㄱ -7666
▁1886 -7667
▁ㅇㅏㄹㅍㅗㄴ -7668
▁ㅈㅓㅁㄱㅓㅁ -7669
▁SV -7670
▁ㅊㅣㅁㄹㅖ -7671
ㅂㅜㄴㅇㅕㄹ -7672
▁ㅇㅣㄹㅈㅣㄴ -7673
▁USB -7674
▁ㅂㅗㄱㅈㅗㅇ -7675
▁ㅎㅏㄴㅂㅓㄴ -7676
▁ㅁㅣㄴㅂㅕㅇㄷㅐ -7677
▁ㅎㅐㅇㅈㅓㅇㄷㅗㅇ -7678
▁ㅅㅏㅇㄱㅘㄴㅇㅓㅄㅇㅣ -7679
ble -7680
▁it -7681
ㅅㅓㄱㅎㅏㄱ -7682
▁ㄲㅡㅌㄴㅏㄹ -7683
▁ㄷㅗㅇㅁㅐㅇㄱㅜㄱ -7684
ㅇㅕㄹㅊㅏ -7685
▁ㅂㅓㄹㄹㅔ -7686
▁ㅇㅝㄴㅇㅠ -7687
ㅂㅘ -7688
ave -7689
▁SH -7690
▁ㅂㅏㄹㄱㅏ -7691
▁1864 -7692
▁ㅈㅓㄴㄱㅝㄴ -7693
▁ㅊㅜㄹㅎㅕㄹ -7694
▁ㅂㅐㄱㅇㅏㄱㄱㅣ -7695
▁Wii -7696
▁ㄱㅜㄴㄱㅘㄴ -7697
▁ㅅㅏㅇㅂㅏㄴ -7698
▁ML -7699
ition -7700
▁1866 -7701
▁ㄱㅕㄴㄱㅗ -7702
▁ㄷㅓㅇㅇㅓ -7703
▁ㄹㅗㅁㅂㅏ -7704
▁ㅅㅓㅇㅁㅐ -7705
▁ㅂㅓㄴㄱㅏㄹ -7706
▁ㅇㅓㄹㄹㅜㄱ -7707
▁ㅍㅕㄴㅎㅑㅇ -7708
▁ㅎㅕㅇㅇㅛㅇ -7709
DA -7710
▁RT -7711
▁Up -7712
▁1887 -7713
ㄷㅣㅇㅅㅡ -7714
▁ㅂㅏㄴㄷㅗㅇ -7715
▁ㅅㅣㄴㅈㅣㄴ -7716
ㅊㅡㅁ -7717
▁ㅇㅑㅇㅈㅗ -7718
▁ㅍㅕㅇㅇㅏㄴㄷㅗ -7719
ㅁㅜㅅ -7720
▁ㄹㅔㅂ -7721
▁ㅆㅣㅅ -7722
▁ㅂㅗㄹㅌㅣ -7723
▁ㅎㅘㄹㄷㅗㅇㄱㅏ -7724
▁ㄱㅕㄴㄷㅣ -7725
▁ㄴㅏㅁㅂㅔ -7726
ㅍㅏㄴㄱㅘㄴ -7727
▁ㄱㅘㅇㅇㅑㅇ -7728
▁ㅍㅕㅇㅌㅏㄴ -7729
ㅍㅣㄹㄹㅔ -7730
▁Dream -7731
▁ㄹㅐㅁㅍㅡ -7732
▁ㄷㅏㅇㅎㅏㄹ -7733
▁ㄷㅗㅇㅊㅏㅇ -7734
▁ㅅㅏㅁㅊㅓㄱ -7735
▁ㅇㅘㄴㄱㅕㄹ -7736
ult -7737
▁ㄱㅔㅅ -7738
▁Life -7739
ㅇㅗㄴㅅㅡ -7740
ㅈㅡㄹㄹㅣ -7741
▁ㅅㅜㄴㄹㅖ -7742
▁ㄱㅣㄴㅁㅣㄹ -7743
▁ㅋㅓㄴㅌㅔㄴㅊㅡ -7744
▁AG -7745
ㄸㅓㄱ -7746
ject -7747
▁ㅁㅜㄹㄱㅕㄹ -7748
▁ㄱㅜㄱㅈㅓㅇㅇㅝㄴ -7749
ㄷㅏㄹㅁㅏ -7750
▁ㄷㅗㅇㅊㅏ -7751
▁ㅂㅗㄴㅊㅔ -7752
▁ㄷㅐㅅㄱㅡㄹ -7753
▁ㅁㅗㅁㄷㅗㄹ -7754
▁ㅍㅜㅇㅅㅡㅂ -7755
ㅉㅡ -7756
ㄹㅣㅁㅅㅏ -7757
▁ㅇㅗㄴㄱㅓㄴ -7758
ㄱㅟㄴ -7759
▁ㅂㅜㅇㅇㅓ -7760
▁ㄱㅏㅇㅎㅐㅇ -7761
▁ㅎㅗㅇㅅㅓㅇ -7762
▁te -7763
▁ㅊㅛ -7764
▁Open -7765
ational -7766
▁ㅁㅣㄴㅁㅜㄹ -7767
▁ㅅㅏㅇㅈㅓㅇ -7768
▁1861 -7769
▁ㅅㅜㅁㄱㅣ -7770
▁ㅅㅣㅁㅁㅜㄴ -7771
▁ㅇㅣㄱㅅㅏㄴ -7772
▁ㄱㅗㅇㅂㅏㅇㅈㅓㄴ -7773
▁Tour -7774
▁ㄱㅏㅈㅊㅝ -7775
▁ㅈㅏㄴㄷㅣ -7776
▁ㄷㅗㄷㅂㅗ -7777
▁ㅅㅗㄹㄹㅏ -7778
▁ㅈㅏㅇㄹㅐ -7779
ㅅㅗㄹㄹㅣㄴ -7780
▁ㅂㅏㄹㅌㅗㅂ -7781
▁ㅅㅣㅁㅅㅏㅇ -7782
▁ㄱㅗㅇㅇㅕㄴㅈㅏㅇ -7783
orm -7784
▁TC -7785
▁ㄱㅏㅍ -7786
▁ㅈㅓㄴㄹㅏㄱ -7787
▁ㅅㅐㅇㅅㅓㅇㅁㅜㄹ -7788
▁BL -7789
ㅍㅡㄹㄹㅣㄴ -7790
▁ㄱㅣㅅㅌㅓㄹ -7791
▁ㄷㅏㅇㅈㅣㄴ -7792
▁ㄷㅗㄱㄹㅣㅂㄱㅜㄴ -7793
▁en -7794
ㄷㅣㄱㅌㅗ -7795
ㅈㅜㅇㄱㅛ -7796
▁ㅊㅏㅁㅅㅜ -7797
▁ㅇㅏㄱㄱㅗㄱ -7798
ㄱㅏㄴㅇㅝㄴ -7799
▁ㅎㅡㅇㅂㅜㄴ -7800
▁Ed -7801
ㄷㅜㄹㄱㅣ -7802
▁ㄱㅕㄱㄹㅕ -7803
▁ㅁㅜㄹㄹㅠ -7804
▁ㅇㅏㅁㅁㅗ -7805
▁ㅌㅡㄱㅅㅏ -7806
▁ㅂㅏㅇㄱㅗㅇ -7807
ton -7808
▁ㅈㅜㅁ -7809
▁ㅌㅡㄱㄱㅣ -7810
▁ㅈㅏㅇㅈㅓㄴ -7811
ION -7812
▁ㄴㅏㅂㅂㅜ -7813
▁ㅅㅓㅇㄱㅣ -7814
▁ㅈㅜㅇㄱㅐ -7815
ㅊㅜㅁ -7816
▁1881 -7817
▁Music -7818
▁ㄱㅘㄴㄴㅐ -7819
▁ㅅㅡㅇㅎㅏ -7820
▁ㅂㅏㄹㅁㅗㄱ -7821
▁an -7822
▁ㅁㅕㄴㅁㅗ -7823
▁ㅂㅗㅇㅇㅜ -7824
ㅋㅗㄴㅅㅣㄴ -7825
▁ㄱㅗㅂㅅㅔㅁ -7826
▁ㅅㅡㅇㅅㅏㅇ -7827
▁ㅁㅣㄴㅇㅕㅇㅎㅘ -7828
▁ret -7829
▁HTML -7830
ㅅㅏㅇㅅㅏ -7831
▁ㄱㅏㅇㅅㅓㅇ -7832
▁ㄴㅣㄱㅅㅡㄴ -7833
▁ㅇㅘㅇㄱㅘㄴ -7834
▁XP -7835
▁ㅇㅏㅂㅅㅜ -7836
ㅇㅑㄴㅅㅐㄱ -7837
▁ㅇㅝㄴㅅㅏㅇ -7838
ㅍㅜㄴ -7839
▁ㅍㅣㅅ -7840
▁ㅁㅣㄹㄱㅏ -7841
▁ㅂㅜㄹㅂㅜㄴ -7842
▁ㅊㅓㅇㄴㅕㄴㅎㅚ -7843
▁ㄱㅘㄴㅎㅕㄴㅇㅏㄱ -7844
ics -7845
▁iOS -7846
▁ㄱㅜㄻ -7847
▁ㅂㅏㄱㅈㅏ -7848
▁ㅈㅡㅇㅅㅔ -7849
ru -7850
ㅁㅗㅁ -7851
▁ㅂㅐㅅ -7852
ㄱㅡㅂㅅㅣ -7853
ㅅㅏㄴㄷㅐ -7854
ㅇㅣㄴㅂㅗ -7855
▁ㅇㅛㅇㅅㅏ -7856
▁ㄱㅐㄱㅇㅝㄴ -7857
▁ㅇㅜㅅㅇㅡㅁ -7858
▁ㄲㅗㅈ -7859
▁ㄱㅗㄱㅁㅕㄴ -7860
▁ㅅㅏㄴㅁㅜㄹ -7861
▁ㅇㅑㅇㅎㅕㄴ -7862
TE -7863
▁ㅍㅜㄱ -7864
ㄲㅜㅁㅊㅣ -7865
▁ㅇㅕㄹㄹㅕ -7866
▁ㅇㅣㄱㅁㅕㅇ -7867
▁ㅂㅏㄷㅊㅣㅁㄷㅗㄹ -7868
▁1850 -7869
ㄴㅗㄹㄹㅗ -7870
▁ㅁㅗㄹㄷㅗ -7871
▁ㅅㅏㄴㅁㅏ -7872
▁ㅁㅏㄱㅍㅏㄴ -7873
▁ㅅㅗㅇㅎㅘㄴ -7874
▁ㅈㅏㅁㅅㅣㄹ -7875
▁ㅍㅏㄴㄱㅘㄴ -7876
▁ㅎㅐㅇㅂㅏㅇ -7877
ode -7878
ㅇㅣㅁㅈㅏ -7879
ㅁㅟㄴ -7880
ㅅㅗㄹㄹㅣ -7881
▁ㅁㅔㄹㄹㅏ -7882
▁ㅇㅖㄹㄹㅗ -7883
▁ㅂㅐㄱㅇㅓㅂ -7884
▁ㅈㅜㅇㄹㅏㅇ -7885
▁ㄱㅕㅇㄷㅗ -7886
▁ㅂㅏㄱㅅㅜ -7887
▁ㅂㅗㄱㅇㅟ -7888
▁ㅊㅓㄴㅈㅣ -7889
ㄷㅓㄱㅇㅘㅇ -7890
ㅈㅓㄹㄷㅏㄴ -7891
▁ㅂㅏㄹㅇㅢ -7892
ㅎㅜㄴㅈㅏㅇ -7893
▁ㄴㅏㅁㅅㅗㅇ -7894
▁ㅎㅗㅁㄱㅕㅇㄱㅣ -7895
▁1872 -7896
▁ㅇㅗㅇㅈㅜ -7897
▁ㅋㅔㄴㅌㅓ -7898
▁ㅅㅣㄹㄱㅏㄱ -7899
ㅇㅣㄴㄱㅜ -7900
▁ㅎㅘㄴㄱㅘㄴ -7901
▁ㅎㅏㅇㅇㅏ -7902
▁ㄱㅘㅇㅅㅓㄴ -7903
▁ㄲㅡㅌㄴㅐㅆ -7904
▁ㄷㅏㄴㄱㅜㄱ -7905
▁ㅅㅡㅂㄷㅡㄱ -7906
▁ㅌㅏㅁㅎㅓㅁㄱㅏ -7907
EP -7908
ㅈㅣㄴㄱㅜ -7909
▁ㅅㅡㄹㄹㅐㅁ -7910
▁section -7911
▁ㅂㅏㄱㅇㅕㅇㅎㅛ -7912
▁ㅍㅏㄹㅈㅏㄱㅈㅣ -7913
▁"- -7914
ㅋㅓㄹㄹㅣ -7915
▁ㄱㅏㅇㅅㅔ -7916
▁ㅂㅏㄴㅈㅜ -7917
▁ㅂㅏㄹㅅㅏㄴ -7918
▁ㅊㅓㄹㅈㅗㅇ -7919
▁ㅍㅣㄱㅅㅔㄹ -7920
▁ㅎㅡㄱㅂㅐㄱ -7921
QL -7922
▁1863 -7923
▁ㅂㅏㄴㅈㅜㄱ -7924
▁ㅈㅏㅇㄴㅏㄴㄱㅏㅁ -7925
UC -7926
▁750 -7927
ㅍㅓㄹㄹㅗ -7928
▁ㄱㅣㅁㅎㅢ -7929
▁ㄹㅏㄴㅅㅡ -7930
▁ㅂㅕㄴㅈㅗㅇ -7931
ier -7932
stem -7933
▁ㅈㅏㅇㅆㅜ -7934
▁ㅈㅓㄴㄹㅣ -7935
▁ㅎㅕㄴㅁㅣ -7936
▁ㄴㅣㅅㅅㅏㄴ -7937
▁ㅅㅜㄴㅎㅏㅇ -7938
▁MA -7939
ㅈㅓㅇㄱㅜ -7940
▁Night -7941
▁ㄱㅕㅇㅁㅏ -7942
▁ㄱㅡㄴㄹㅐ -7943
▁ㅅㅏㄴㄱㅣ -7944
▁ㅋㅗㄴㅌㅣ -7945
▁ㅎㅕㄴㅁㅜ -7946
▁ㅈㅜㄱㅇㅣㅁ -7947
▁ㅌㅏㅁㅈㅓㅇ -7948
▁ㅍㅕㄴㅇㅏㄴ -7949
▁ㄷㅗㅇㅁㅐㅇㄱㅜㄴ -7950
▁DR -7951
ㄴㅡㅈ -7952
ㅅㅣㄴㄹㅛ -7953
▁ㅁㅏㄹㄷㅏㄴ -7954
▁ㅇㅡㅁㅇㅏㄱㅇㅝㄴ -7955
▁ㅆㅜㄴ -7956
▁1830 -7957
▁ㅇㅘㄴㅂㅣ -7958
▁ㄱㅕㅇㅂㅗㄱㄱㅜㅇ -7959
▁NS -7960
▁1865 -7961
▁ㅂㅗㄱㅇㅕㄱ -7962
▁ㅊㅓㄹㄱㅏㅇ -7963
▁Sm -7964
ㅅㅓㄴㅅㅗ -7965
ㅎㅏㅇㅅㅣ -7966
▁ㄷㅏㄴㅈㅗ -7967
▁ㅅㅣㅇㅋㅡ -7968
▁ㅈㅜㄱㅇㅕ -7969
▁ㅂㅗㅇㅎㅘㅇ -7970
ool -7971
ㅈㅓㄹㄷㅗ -7972
▁ㄴㅣㄴㅈㅏ -7973
▁ㅈㅗㅇㅁㅛ -7974
▁ㅍㅣㄹㅎㅏ -7975
▁ㅌㅏㄴㅅㅏㄴ -7976
▁ㅁㅜㄷㅎㅕ -7977
▁ㄱㅕㅇㄹㅑㅇ -7978
▁ㄱㅗㅇㅍㅏㄴ -7979
▁ㅇㅑㄱㅈㅓㅁ -7980
▁ㅈㅏㄱㅍㅜㅁㅅㅏㅇ -7981
70 -7982
▁Ab -7983
ㅇㅠㄱㅎㅚ -7984
▁ㄱㅘㅇㅂㅐ -7985
▁ㅇㅑㅇㄱㅜㅇ -7986
▁ㅇㅕㄹㄹㅣㄹ -7987
ai -7988
▁-- -7989
▁705 -7990
▁ㄷㅗㄹㄱㅗ -7991
▁Don -7992
▁ㅈㅓㄴㄱㅘ -7993
ㄱㅕㄹㅊㅐㄱ -7994
ㅈㅣㄴㅈㅗㄱ -7995
▁ㅂㅏㄴㅈㅓㅁ -7996
▁ㅇㅏㅂㄹㅗㄱㄱㅏㅇ -7997
ise -7998
▁ㄱㅘㅇㅈㅏ -7999
▁ㅇㅔㄹㅂㅣ -8000
ㅍㅡㄹㄹㅔㄱㅅㅡ -8001
▁ㅂㅜㄹㅂㅜㄴㅁㅕㅇ -8002
ㄴㅏㄴㅌㅡ -8003
▁ㄷㅔㄴㅅㅛ -8004
▁ㅂㅏㄴㄷㅏ -8005
▁ㅂㅏㄹㅈㅏ -8006
▁ㅁㅏㄴㄴㅏㄹ -8007
▁ㅎㅐㅅㅂㅣㅊ -8008
▁ㅁㅐㄹ -8009
▁1891 -8010
▁ㅅㅏㅇㅍㅏ -8011
ㄱㅗㄱㅁㅕㄴ -8012
ㅅㅓㅇㄱㅕㅇ -8013
▁ㅂㅕㄹㅈㅏㅇ -8014
▁ㅇㅏㄴㅅㅏㄴㅅㅣ -8015
▁ㅁㅐㄱㅇㅏ -8016
▁ㅂㅗㄱㅈㅣㄱ -8017
▁ㅅㅏㅇㅎㅏㄴ -8018
▁ㄱㅘㄴㄹㅕㄴㅈㅏ -8019
ower -8020
▁ㅋㅗㅂ -8021
ㄹㅏㅇㄷㅡ -8022
ㅇㅝㄴㅈㅣ -8023
▁ㄴㅗㅎㅇㅣ -8024
▁ㅁㅏㅇㄱㅏ -8025
▁ㅊㅣㅁㄷㅐ -8026
▁ㄱㅕㅇㄱㅓㄴ -8027
NG -8028
▁q -8029
▁ㅁㅝ -8030
▁ㅎㅕㄴㄷㅗ -8031
▁ㅁㅗㄱㅇㅛㄱ -8032
▁ㅎㅗㄴㅎㅕㄹ -8033
▁ㄷㅏㅇㅎㅐㅆㅇㅡ -8034
▁ㅎㅏㅂㅊㅏㅇㄷㅏㄴ -8035
▁ㅅㅠㄴ -8036
ㅁㅠㄹㄹㅓ -8037
▁ㅋㅡㄹㄹㅣㄱ -8038
▁AL -8039
▁qu -8040
▁ㅁㅡㄹ -8041
▁ㅂㅓㅁㅇㅓ -8042
ㅋㅡㄹㄹㅓㅂ -8043
▁ㄴㅏㅂㅈㅏㄱ -8044
▁ㅇㅑㅇㅁㅕㄴ -8045
▁ㅇㅘㅇㅅㅓㅇ -8046
▁ㄷㅏㄴㅈㅏ -8047
▁ㄷㅡㅇㄷㅏㄴ -8048
▁ㅈㅓㅇㅇㅖ -8049
▁ㅍㅕㄴㅈㅔ -8050
ㅉㅗ -8051
▁MM -8052
ㅅㅏㅇㅇㅓ -8053
▁ㄷㅗㅇㅈㅏ -8054
▁ㄱㅓㄹㄹㅣㄴㄷㅏ -8055
▁-& -8056
ㅅㅣㄴㄱㅣ -8057
ㅊㅣㄴㅇㅘㅇ -8058
▁ㄱㅘㄴㅇㅛㅇ -8059
▁ㅂㅓㅂㅈㅓㄴ -8060
▁ㅈㅓㅂㅎㅏㅂ -8061
▁ㅊㅗㅅㅂㅜㄹ -8062
▁ㅅㅡㅇㅈㅓㅇㅇㅝㄴ -8063
ㄴㅗㄱ -8064
▁ㄷㅗㅅ -8065
▁ㄷㅔㄹㄹㅣ -8066
▁ㅅㅐㅇㄷㅗ -8067
▁ㅇㅡㅁㅈㅜ -8068
ㄱㅘㄴㅅㅣㄱ -8069
▁ㅃㅗㅂㅎㅕㅆ -8070
▁ㄲㅞ -8071
ㄷㅏㄴㅈㅣ -8072
▁ㅎㅗㅁㅈㅡ -8073
▁ㅇㅏㄹㅁㅏㅈ -8074
▁ㄲㅡㅌㄴㅏㄴㄷㅏ -8075
▁1873 -8076
▁ㅅㅣㄴㄷㅐ -8077
DS -8078
che -8079
▁Good -8080
▁Black -8081
▁ㄱㅡㅁㄱㅗ -8082
▁ㅅㅓㅇㄱㅏ -8083
▁AI -8084
▁Can -8085
▁ㅅㅏㄱㅅㅡ -8086
▁ㅎㅡㄹㄹㅣ -8087
▁ㅁㅜㄴㅈㅓㅇ -8088
ㅋㅣㄴㅅㅡㄴ -8089
▁ㅂㅕㄴㄱㅘㅇㅅㅓㅇ -8090
ㅎㅞ -8091
ㄹㅡㄴㅂㅔ -8092
▁ㄱㅜㄴㅈㅏ -8093
▁ㅇㅔㄹㄹㅓㄴ -8094
▁ㅈㅓㅇㅈㅣㄴ -8095
▁550 -8096
▁ㅎㅘㄹㅈㅏ -8097
▁ㅅㅏㄴㅊㅐㄱ -8098
▁ㅅㅏㅇㅎㅐㅇ -8099
ings -8100
▁802 -8101
ㅋㅣㄴㅌㅗ -8102
ㅎㅚㄱㅅㅏ -8103
▁AU -8104
ㅌㅜㅇ -8105
ㅅㅔㄴㅌㅓ -8106
ㅍㅏㄴㅂㅜ -8107
▁ㅅㅣㄴㅂㅗㅇ -8108
▁ㅈㅣㅂㅈㅓㅇㄱㅘㄴ -8109
ank -8110
ㅎㅡㅁ -8111
▁ㅅㅑㅂ -8112
▁ㅆㅏㄱ -8113
▁ㄱㅘㄹㅎㅗ -8114
▁ㅂㅕㅇㄱㅘ -8115
▁ㅇㅗㄱㅅㅣ -8116
▁ㅇㅛㅇㅅㅏㄴㄱㅜ -8117
▁ㅅㅏㄴㅅㅣㄴ -8118
▁Let -8119
▁ㄱㅡㅂㅎㅣ -8120
▁ㄴㅡㄹㄹㅕ -8121
▁ㅇㅕㅁㅎㅘ -8122
▁ㅇㅡㅇㅎㅏ -8123
▁ㅇㅣㅂㅅㅣ -8124
ㅂㅜㄱㅁㅕㄴ -8125
ㅇㅕㅇㅈㅏㅇ -8126
▁ㅁㅏㄴㅈㅓㅁ -8127
ㅅㅓㄴㅇㅘㅇㅈㅗ -8128
▁ㅃㅣ -8129
▁ㅅㅑㅁ -8130
▁ㅌㅗㅇㄷㅗ -8131
▁ㄱㅣㅁㅅㅓㅇㅅㅜ -8132
ㅎㅏㅂㅈㅜㅇㄱㅜㄱ -8133
▁1867 -8134
▁ㅂㅜㄱㄷㅐ -8135
ta -8136
▁650 -8137
▁ㄷㅗㄱㅈㅜ -8138
▁ㅁㅗㄹㄷㅜ -8139
▁ㅇㅡㄹㅅㅏ -8140
▁ㅈㅣㄴㅇㅣ -8141
▁ㄷㅏㅇㅅㅓㄴㅈㅏ -8142
▁ㅎㅕㅂㄷㅗㅇㅈㅗ -8143
▁ㄱㅏㅁㅇㅕㅁㅈㅡㅇ -8144
tr -8145
▁El -8146
ㅅㅐㅁ -8147
▁ㅈㅗㅇㅇㅓㅂ -8148
▁ㅎㅕㄹㅇㅏㅂ -8149
▁ㅈㅣㅂㅎㅐㅇㅇㅠ -8150
▁ㄱㅓㄹㅍㅡ -8151
▁ㅁㅏㅌㄱㅕㅆ -8152
▁ㅂㅜㄱㅂㅓㄹ -8153
▁ㄱㅜㄱㅁㅣㄴㅎㅏㄱㄱㅛ -8154
▁ㄱㅕㅇㅈㅣ -8155
▁ㄲㅗㅊㅇㅣㅍ -8156
▁ㅊㅓㅇㅁㅜㄴ -8157
▁ㅈㅣㄱㄱㅛ -8158
▁ㄱㅘㄴㅅㅓㅇ -8159
▁ㅇㅑㅇㅇㅑㅇ -8160
▁ㅅㅗㄴㅈㅏㅂㅇㅣ -8161
ky -8162
lar -8163
▁ㅋㅐㅅ -8164
ㅈㅏㅇㅈㅗ -8165
ㅈㅓㅇㄱㅣ -8166
▁ㅅㅓㅇㅅㅜ -8167
▁ㅅㅡㅇㅈㅣ -8168
▁ㅇㅗㄴㄷㅜ -8169
ㄷㅗㅇㅁㅐㅇ -8170
ㅅㅓㅇㅈㅣㄹ -8171
▁PM -8172
▁Qu -8173
▁ㅅㅣㄴㅇㅢ -8174
▁ㅌㅡㄴㅌㅡㄴ -8175
▁ㅎㅡㅂㅇㅕㄴ -8176
▁ㅇㅏㄴㄷㅗㅇㅅㅣ -8177
▁ㅇㅣㄹㅂㅗㄴㅅㅣㄱ -8178
▁ㅎㅣㄹㅂㅔ -8179
▁ㅁㅗㄹㄹㅏㅆ -8180
▁1862 -8181
ㄷㅓㄴㅈㅣ -8182
ㅂㅓㄴㅇㅔ -8183
ㅎㅡㅂㄱㅣ -8184
▁ㄴㅔㄱㅅㅔㄴ -8185
▁ㅇㅕㄴㅊㅜㄹㄱㅏ -8186
▁ㅂㅐㄱㅇㅏㄱㄱㅘㄴ -8187
ㄹㅣㅅㅅㅜ -8188
ㅇㅕㅇㅅㅏ -8189
ㅇㅝㄴㅎㅜ -8190
▁ㄱㅜㄱㅎㅗ -8191
▁ㄴㅐㅆㅇㅡ -8192
▁ㅇㅕㅆㅇㅡㅁㅇㅡㄹ -8193
▁Ac -8194
▁ㅆㅣㄴ -8195
▁ㅅㅓㅁㄱㅣ -8196
▁ㅇㅑㅇㅈㅣ -8197
▁ㅇㅗㄱㅊㅓㄴ -8198
▁ㅅㅏㅁㄱㅜㄱㅇㅠ -8199
▁ㅇㅏㄹㅍㅗㄴㅅㅗ -8200
▁ㅎㅗㄹㄷㅣㅇㅅㅡ -8201
▁ㅊㅜㄹㅇㅣㅂㅁㅜㄴ -8202
▁UC -8203
▁Ser -8204
ㄹㅔㄹㄹㅏ -8205
ㅅㅏㄴㅂㅜ -8206
▁ㄴㅔㄱㅅㅡ -8207
▁ㅁㅣㄴㅅㅡ -8208
▁ㅈㅏㄱㄴㅕㄴ -8209
▁ㅈㅣㄴㅇㅓㄴ -8210
▁ㅎㅓㄴㄴㅏㅂ -8211
▁ㅋㅣㅅ -8212
▁ㄷㅏㅇㅎㅘㅇ -8213
▁ㅂㅣㄱㅂㅐㅇ -8214
▁ㅈㅓㅇㅎㅘㅇ -8215
▁LS -8216
▁6000 -8217
▁ㄱㅕㅇㅁㅐ -8218
▁ㅂㅏㄹㅍㅗ -8219
▁ㄱㅓㄴㄴㅓㄹ -8220
▁ㅂㅏㄴㅈㅓㅇㅂㅜ -8221
▁HMS -8222
▁ㄴㅜㄴㅊㅣ -8223
ㅂㅔㄴㅅㅕㄴ -8224
▁ㄷㅗㅇㅌㅏㄱ -8225
▁ㅈㅓㄱㅂㅏㄹ -8226
▁ㅊㅜㄱㅅㅏㄴ -8227
▁ㅍㅕㄴㅈㅣㅂㅈㅏㅇ -8228
▁And -8229
ㅍㅣㄱㅅㅡ -8230
▁ㅅㅜㄹㄹㅏ -8231
▁ㅈㅏㅂㅎㅣ -8232
▁ㅌㅏㄱㄱㅜ -8233
▁return -8234
▁ㅊㅜㅇㅅㅣㄴ -8235
▁ㅊㅐㄹㄹㅣㄴㅈㅓ -8236
ㅎㅏㄴㅎㅏㅇㄱㅗㅇ -8237
ee -8238
▁Ag -8239
▁1878 -8240
▁ㅍㅣㄹㄷㅜ -8241
ㄹㅏㅁㅈㅣㄱ -8242
ㅇㅏㄴㅂㅓㅂ -8243
▁ㅈㅣㄴㅎㅡㄺ -8244
ㅁㅜㅁ -8245
rist -8246
ㄹㅗㄹㄹㅔ -8247
ㅌㅜㅇㅇㅣ -8248
▁ㄱㅏㄴㅍㅏㄴ -8249
▁ㅇㅣㅂㅅㅜㄹ -8250
▁ㅊㅜㅇㅊㅣㅇ -8251
▁ㅎㅏㅂㄱㅡㅁ -8252
▁ㄷㅓㅅㅂㅜㅌㅇㅕㅆ -8253
ㄴㅗㅍ -8254
▁ㅍㅐㅅ -8255
▁ㅅㅗㄹㄹㅣ -8256
▁AA -8257
ㅇㅓㄴㄱㅏ -8258
▁ㄱㅜㄱㅂㅜ -8259
▁ㄱㅣㄹㄹㅓ -8260
▁ㅇㅣㄹㅈㅣ -8261
▁ㄷㅡㅇㄷㅡㅇ -8262
▁ㅅㅏㄹㅉㅏㄱ -8263
▁ㄱㅗㅇㅌㅗㅇㅈㅓㅁ -8264
ㅌㅟ -8265
▁tr -8266
ㅁㅏㅇㅊㅣ -8267
▁ㅅㅣㅁㅅㅗ -8268
▁ㅇㅛㅇㅎㅐ -8269
▁ㅊㅣㅇㄱㅣ -8270
▁ㄱㅡㅂㅅㅓㅇ -8271
▁ㄴㅏㅇㅁㅏㄴㅈㅜ -8272
hem -8273
▁1869 -8274
ㅈㅓㅇㅂㅗ -8275
ㅇㅓㅁㄱㅕㅇ -8276
▁ㅊㅜㅇㄷㅏㅇ -8277
ae -8278
ㅉㅗㅊ -8279
▁ㄱㅜㄱㅎㅘ -8280
▁ㅅㅏㅇㅇㅢ -8281
▁ㅊㅣㄴㅁㅣㄹ -8282
▁ㅎㅏㄴㅊㅏㅇ -8283
ㅇㅏㅁㅅㅏ -8284
ㅍㅔㄹㄹㅓ -8285
▁ㄱㅓㄹㅈㅏㄱ -8286
▁ㄱㅕㅇㅇㅡㄴ -8287
▁ㅇㅘㅅㅅㅡㄴ -8288
ㅅㅣㄴㅈㅏ -8289
ㅁㅕㄴㅈㅓㄱ -8290
▁ㅈㅡㅇㅅㅣㄱ -8291
▁ㅎㅐㄱㅂㅜㄴㅇㅕㄹ -8292
▁me -8293
▁ㅈㅓㄹㅇㅑㄱ -8294
▁ㅍㅣㄹㅁㅕㅇ -8295
▁ㄱㅏㅁㅊㅜ -8296
▁ㅇㅘㄴㅁㅏㄴ -8297
▁ㅇㅝㄴㅎㅏㄴ -8298
▁ㅇㅣㄹㅅㅓㄹ -8299
▁ㅁㅕㅇㅅㅓㅇㅎㅘㅇㅎㅜ -8300
▁1592 -8301
▁ㅇㅓㅂㄹㅗ -8302
▁ㅎㅕㅇㅈㅜ -8303
ㅇㅣㄹㅅㅣㄴ -8304
▁ㅇㅛㅇㄱㅏㅁ -8305
▁ㅈㅡㅇㅂㅏㄹ -8306
pr -8307
▁ㄱㅜㄴㅅㅔ -8308
▁ㅂㅔㄹㄹㅔ -8309
▁ㅇㅐㅇㅋㅓ -8310
▁ㅎㅘㅇㅈㅏ -8311
ㅂㅡㄹㄹㅣㅅ -8312
▁ㄴㅗㄴㅅㅏㄴ -8313
▁KN -8314
▁ㅂㅗㄲ -8315
ㅈㅏㅇㅂㅗ -8316
▁ㅅㅐㅇㅎㅘ -8317
▁ㅇㅏㄴㄷㅗ -8318
▁ㅇㅏㅇㅌㅜ -8319
▁ㅇㅣㅁㅎㅏ -8320
▁ㄱㅜㄱㅇㅣㄴ -8321
▁ㄷㅏㅇㄷㅏㅇ -8322
90 -8323
ade -8324
▁ab -8325
ㅍㅕㅇㄱㅜ -8326
▁ㄱㅏㄴㄱㅕㄹ -8327
▁ㄱㅡㄹㄹㅔㄴ -8328
▁ㅇㅣㅂㅊㅜㄹ -8329
▁ㅈㅏㅇㅅㅣㄴ -8330
▁ㅊㅣㄴㅅㅓㄴㄱㅕㅇㄱㅣ -8331
ㄲㅓㅇ -8332
▁ㅍㅏㄱ -8333
ㅌㅔㄹㄹㅏ -8334
▁ㄷㅏㅇㄱㅘ -8335
▁ㅍㅜㄹㄹㅣ -8336
▁ㄱㅘㅇㅇㅓㅂ -8337
▁ㅈㅗㅇㅊㅏㄱㅇㅕㄱ -8338
OU -8339
▁RC -8340
ount -8341
▁Mon -8342
▁ㅇㅐㅁ -8343
▁ㅂㅓㄴㄱㅐ -8344
▁ㅈㅣㄱㄱㅘㄴ -8345
▁ㅎㅓㄴㅂㅕㅇ -8346
▁ㅇㅓㄴㄹㅗㄴㅅㅏ -8347
ㅈㅜㅁ -8348
▁MSL -8349
ㄷㅡㄹㄹㅔ -8350
▁ㄴㅏㅁㄷㅐ -8351
▁ㅇㅑㅇㄱㅜㄴ -8352
▁ㅇㅕㄹㄹㅕㄹ -8353
▁ㅇㅠㄱㅅㅣㄱ -8354
▁ㅈㅡㅇㄱㅏㅇ -8355
▁ㅊㅓㅇㄱㅏㄱ -8356
▁ㄱㅝㄹ -8357
ㅅㅓㄹㅁㅜㄹ -8358
ㅌㅜㄹ -8359
▁ㄹㅣㄴㄷㅏ -8360
ㅇㅣㄴㅅㅏㄴ -8361
▁ㄴㅗㅍㅇㅕㅆ -8362
▁ㅂㅜㄴㄱㅕㅇ -8363
▁ㅈㅓㅇㅁㅕㅇ -8364
▁ㅇㅣㅂㅂㅓㅂㅂㅜ -8365
▁ㄱㅡㅁㄱㅏㅇㅅㅏㄴ -8366
▁ㅇㅜㄴㄷㅗㅇㄹㅑㅇ -8367
▁ㅈㅗㅇㅇㅓㅂㅇㅝㄴ -8368
▁ㄱㅡㄴㅂㅗㄴㅂㅓㄴㄴㅚ -8369
ㅊㅗㄴㄹㅣ -8370
ㅌㅡㄹㄹㅏ -8371
▁ㅇㅏㅍㅅㅔ -8372
▁ㅇㅣㅇㅋㅡ -8373
▁ㅂㅕㅇㅍㅜㅇ -8374
▁ㅇㅏㅍㄷㅜㄴ -8375
▁ㅈㅜㄹㅇㅣㄹ -8376
▁ㅍㅣㄹㅇㅕㄴ -8377
▁DB -8378
▁ㄱㅙㄴ -8379
▁ㄴㅓㅁㅂㅓ -8380
▁ㅅㅏㅇㄱㅘ -8381
▁ㅇㅘㄴㅅㅜ -8382
▁ㅈㅜㄴㄷㅗㅇ -8383
ata -8384
▁ㄱㅏㅇㅎㅗ -8385
▁ㅌㅔㄴㅅㅓ -8386
per -8387
▁ㄱㅗㄹㅉㅏ -8388
▁ㄴㅣㄱㅅㅡ -8389
▁ㅂㅗㅇㅎㅏ -8390
▁ㅇㅜㄹㅌㅡ -8391
▁ㅊㅗㄱㅂㅏㄹ -8392
▁ㅁㅣㅅ -8393
ㅌㅏㄴㄷㅜ -8394
▁ㅊㅏㄱㅊㅟ -8395
ㅂㅕㅇㅈㅏㅇ -8396
ㅇㅛㄱㅈㅏㅇ -8397
▁ㄱㅕㅇㅈㅏㄱ -8398
▁ㅈㅏㄱㅈㅜㅇ -8399
ㄹㅣㄴㄹㅏㄴㄷㅡ -8400
▁ㅋㅓㅁㅍㅣㄹㄹㅔ -8401
▁ㅅㅣㄴㅎㅏㄴㅇㅡㄴㅎㅐㅇ -8402
IX -8403
▁As -8404
▁ㄹㅐㄱ -8405
▁ㄱㅘㅇㅁㅜ -8406
▁ㅂㅣㄱㅌㅓ -8407
▁ㅇㅏㅍㅂㅏ -8408
▁ㅇㅛㅇㅅㅜ -8409
▁ㅋㅗㄹㄷㅡ -8410
▁ㄷㅏㄴㅇㅕㄱ -8411
▁ㅂㅏㄹㅊㅏㄱ -8412
▁ㅁㅗㅁㅊㅔ -8413
▁ㅂㅜㄹㄹㅗ -8414
▁ㅇㅣㄴㅇㅟ -8415
▁ㄱㅜㄹㅂㅗㄱ -8416
▁ㅊㅏㅇㄹㅣㅂㅈㅏ -8417
IF -8418
ㄹㅡㄹㄹㅣ -8419
▁ㅌㅗㅇㅈㅣ -8420
▁Windows -8421
▁ㅂㅜㄱㄱㅡㄱㅈㅓㅁ -8422
▁sh -8423
▁516 -8424
ㅇㅣㄹㄹㅏ -8425
▁ㄱㅐㄱㅅㅣㄹ -8426
▁ㄱㅡㅁㅅㅐㄱ -8427
▁ㅂㅏㄱㅈㅣㄴ -8428
▁ㅂㅜㄴㅂㅕㄹ -8429
▁ㅅㅓㅇㅍㅜㅁ -8430
ㄷㅏㄴㅈㅜ -8431
ㅈㅓㅇㅈㅣ -8432
▁ㅇㅕㄹㅅㅚ -8433
ㅎㅘㄴㅎㅘㄴ -8434
▁ㄱㅡㄴㅂㅏㅇ -8435
▁ㅁㅕㄴㅈㅣㄱ -8436
▁ㅈㅏㄴㅈㅗㄴ -8437
▁ㅈㅜㅇㅇㅛㅇ -8438
▁ㅂㅜㄱㅁㅏ -8439
▁ㅇㅕㄴㅈㅜㅇ -8440
▁ㅍㅏㄹㄹㅣㄴ -8441
▁AMD -8442
▁IMF -8443
▁Heart -8444
▁ㄷㅗㅇㄱㅓ -8445
▁ㄷㅡㄹㄹㅣ -8446
▁ㅇㅗㄱㅅㅏ -8447
▁ㅊㅜㄱㅇㅣㄹ -8448
ㄹㅔㄴㅌㅡ -8449
▁ㅇㅝㄱㅅㅡ -8450
▁ㅍㅗㅁㅍㅔ -8451
▁Out -8452
▁ㅂㅏㅅ -8453
▁Song -8454
▁ㅂㅏㄴㅎㅏㅇ -8455
▁ㅎㅡㅇㅇㅝㄴ -8456
▁ㅅㅡㅇㅇㅛㅇㅊㅏ -8457
▁ㅇㅜㅁㅈㅣㄱㅇㅣㄹ -8458
ium -8459
ㄱㅐㄱㄱㅣ -8460
▁ㄹㅔㄱㅅㅡ -8461
▁ㅇㅝㄹㅎㅘ -8462
ㄷㅏㄴㅌㅓㄹ -8463
▁ㄱㅡㄱㅊㅏㄴ -8464
▁ㅈㅓㄴㅁㅕㄹ -8465
▁ㅈㅓㅇㅂㅏㄱ -8466
▁ㅈㅣㄱㅁㅜㄹ -8467
▁ㅊㅣㅇㅎㅐㅆ -8468
▁ㅎㅏㅇㅅㅐㅇ -8469
ㄱㅘㅇㅈㅗ -8470
▁ㅁㅜㄴㅈㅜㅇ -8471
▁ㅆㅏㅇㅅㅓㅇ -8472
▁ㅇㅕㄴㅎㅐㅇ -8473
▁ㅈㅓㄱㅈㅓㅇ -8474
▁ㅍㅕㅇㅎㅐㅆ -8475
ㄷㅏㄴㅌㅓㄹㅈㅟ -8476
▁ㅇㅣㄴㅁㅣㄴㅎㅐ -8477
▁ㄱㅗㅇㅅㅣㄱㅈㅓㄴ -8478
▁Aw -8479
▁Pe -8480
▁ㄱㅘㅇㅎㅘ -8481
▁8000 -8482
ㄱㅏㄹㅇㅓ -8483
ㄴㅣㄴㄱㅏ -8484
ㅎㅏㄱㅅㅏ -8485
▁ㄱㅏㅇㅇㅜ -8486
▁ㄲㅗㅊㅊㅏ -8487
▁ㄷㅏㅇㅍㅏ -8488
▁ㅇㅗㄱㅌㅏ -8489
▁ㅎㅘㅇㅍㅖ -8490
▁ㅇㅓㅅㄱㅏㄹ -8491
▁ㅇㅏㄴㅊㅏㅇㅎㅗ -8492
able -8493
▁ㅍㅐㄹ -8494
▁ㅇㅕㄴㄷㅏㄹ -8495
▁ㅇㅝㄴㅎㅛ -8496
▁ㅈㅣㅂㅇㅓ -8497
▁ㅊㅓㄹㅈㅏ -8498
▁ㅂㅏㄱㅇㅝㄴ -8499
▁ㄱㅕㅇㅈㅐㅇㅈㅏ -8500
▁Gl -8501
▁708 -8502
▁ㅇㅕㅇㅁㅣ -8503
▁ㅈㅓㅇㅊㅣㄱ -8504
▁ㅎㅚㅇㄹㅕㅇ -8505
▁ㅂㅏㄴㄱㅏㅁㄱㅣ -8506
▁ㅋㅓㄴㅂㅔㄴㅅㅕㄴ -8507
▁1840 -8508
ㅇㅣㄹㅊㅣ -8509
ㅇㅗㄹㄹㅏㅆ -8510
▁ㄱㅣㅁㄷㅜ -8511
▁ㄴㅗㄴㅎㅏ -8512
▁ㅎㅟㅂㅆㅏ -8513
ㅈㅏㅇㄱㅕㅇ -8514
ㄷㅓㄴㅌㅡ -8515
ㅂㅏㄱㅅㅏ -8516
▁ㅈㅏㄴㅎㅐ -8517
▁ㅂㅗㄹㄴㅔㅅ -8518
▁ㅅㅐㅇㄱㅣㄹ -8519
▁ㅈㅓㄹㅊㅣㄴ -8520
ng -8521
▁VS -8522
ㅇㅕㄴㅅㅏ -8523
▁ㄴㅗㅇㄱㅏ -8524
▁ㅅㅡㄹㄹㅣ -8525
ㅈㅏㄱㅈㅓㄴ -8526
▁ㅈㅓㅁㅈㅣㄴ -8527
▁ㅁㅗㄱㅈㅓㄱㅈㅣ -8528
▁"() -8529
▁ㅅㅓㅇㄷㅐ -8530
▁ㄷㅏㄴㅇㅑㅇ -8531
▁ㅅㅗㄴㄴㅣㅁ -8532
▁ㅇㅗㄴㅅㅣㄹ -8533
itt -8534
▁ㄷㅐㄹㄹㅓ -8535
▁ㅅㅓㅇㄱㅛ -8536
▁ㅇㅏㅁㅅㅜ -8537
▁ㅇㅐㄱㅌㅣ -8538
▁ㅈㅓㅇㅇㅔ -8539
▁ㅊㅜㄹㅅㅔ -8540
ㅇㅠㄱㅎㅏㄱ -8541
▁ㄱㅡㅁㅎㅘㄴ -8542
▁ㅂㅔㅇㄱㅗㄹ -8543
▁ㅂㅕㄴㅎㅏㄴㄷㅏ -8544
ㅇㅣㅁㄱㅣ -8545
▁ㅂㅕㄴㅁㅗ -8546
▁ㅅㅓㄹㄹㅣ -8547
▁ㅊㅓㅇㅊㅟ -8548
ㅎㅘㄹㅇㅑㄱ -8549
▁ㅅㅏㅇㅅㅓㄴ -8550
▁ㅈㅓㄱㅅㅣㅂㅈㅏ -8551
▁ㄷㅗㅇㅎㅗ -8552
▁ㅇㅠㄴㅎㅠ -8553
▁ㅂㅣㄴㅁㅣㄴ -8554
▁JC -8555
▁ㄴㅏㄺ -8556
▁ㅇㅑㅇㅍㅏ -8557
▁ㅁㅐㅇㅎㅘㄹㅇㅑㄱ -8558
▁ㅇㅕㄴㅅㅗㄱㄱㅡㄱ -8559
son -8560
ㄹㅔㄴㅈㅡ -8561
ㅇㅏㄹㄹㅏ -8562
ㅍㅡㄹㄹㅜ -8563
▁ㅂㅜㄹㄹㅕ -8564
▁ㅋㅗㄹㄹㅣㄴ -8565
▁ㄷㅏㄹㄹㅣㄴㄷㅏ -8566
▁1875 -8567
ㄹㅗㄴㄱㅏ -8568
▁ㄷㅚㅂㄴㅣ -8569
ㄴㅕㅁㅈㅏㅇ -8570
ㅍㅣㅇㅁㅗㄹ -8571
▁ㅅㅣㄴㅅㅓㄱㄱㅣ -8572
▁ㄴㅏㅁㄱㅡㄱㅈㅓㅁ -8573
▁ㅌㅡㄱㅂㅕㄹㅂㅓㅂ -8574
ㅅㅑㅇ -8575
▁ㅆㅓㄱ -8576
ㄹㅗㄱㄷㅐ -8577
ㅁㅜㄴㅅㅏ -8578
ㅂㅏㄴㅅㅜ -8579
ㅊㅓㅇㅅㅏ -8580
▁ㅅㅣㄴㅎㅐ -8581
▁ㅇㅕㅇㅅㅜ -8582
▁ㅇㅣㅇㅇㅕ -8583
ㄷㅏㄹㄹㅕㅆ -8584
ㄷㅏㅅㅁㅜㄹ -8585
▁ㅊㅜㄹㄱㅜㄱ -8586
▁ㅍㅏㄹㄲㅜㅁㅊㅣ -8587
▁ㄱㅘㅇㄷㅜㅇㅅㅓㅇ -8588
ale -8589
ㄷㅓㅍ -8590
ㅂㅌㅏ -8591
ㅅㅑㄴ -8592
ㄴㅏㄹㄹㅔ -8593
ㄹㅣㅇㄱㅔㄴ -8594
▁ㄱㅝㄴㅇㅣㄱ -8595
▁ㅂㅏㅇㅇㅜㄹ -8596
▁ㅅㅓㄴㅅㅏㅇ -8597
▁ㅇㅣㄹㅅㅓㄴ -8598
▁ㅎㅗㄴㅈㅏㅂ -8599
▁ㅎㅏㅇㄱㅗㅇㄷㅐ -8600
ㅊㅓㄹㅅㅜ -8601
▁ㅅㅐㅇㅈㅟ -8602
ㅊㅏㄴㅅㅓㅇ -8603
▁ㄱㅕㅁㅈㅣㄱ -8604
▁PL -8605
▁Gen -8606
ㅎㅐㅇㅍㅏ -8607
ㅋㅡㄹㄹㅗㄴ -8608
▁ㅇㅣㅁㅈㅗㅇ -8609
ㄱㅗㄷ -8610
▁Par -8611
▁ㄹㅏㄴㅌㅡ -8612
▁ㅇㅕㄹㄱㅣ -8613
ㅈㅣㄹㅎㅏㄱ -8614
ㅊㅓㄹㅇㅕㄱ -8615
▁ㄱㅘㄴㅇㅡㅁㅂㅗ -8616
▁ATC -8617
ㄴㅏㄹㄷㅡ -8618
ㅇㅡㄴㅅㅏ -8619
▁ㅎㅏㄹㄹㅗ -8620
ㅂㅏㅇㅎㅑㅇ -8621
▁ㄷㅏㄹㅋㅗㅁ -8622
▁ㅂㅗㄹㄹㅗㄱ -8623
▁ㅎㅕㄴㅇㅏㄱ -8624
▁ㅎㅏㅂㅅㅓㅇㅇㅓ -8625
▁ㅎㅕㅇㅇㅛㅇㅅㅏ -8626
▁At -8627
ㅇㅕㅂㅅㅜ -8628
ㅍㅕㅇㅁㅕㄴ -8629
▁ㄷㅗㄱㅅㅏㄹ -8630
▁ㅎㅏㅁㄱㅕㅇㄷㅗ -8631
▁ㅊㅣㄴㅎㅘㄴㄱㅕㅇ -8632
▁TS -8633
ㄴㅓㄴㅌㅡ -8634
▁ㄱㅣㄹㄷㅡ -8635
▁ㅇㅛㅇㅈㅣ -8636
ㅎㅏㄹㄹㅣㄴ -8637
▁ㅁㅓㅅㅈㅣㄴ -8638
▁ㅁㅗㄱㅈㅏㅇ -8639
▁ㅇㅏㄴㅈㅜㅇ -8640
▁ㅅㅓㅇㅍㅗㄱㅎㅐㅇ -8641
so -8642
▁Vol -8643
▁ㅂㅔㅅ -8644
ㅇㅑㅇㄱㅜ -8645
ㅇㅔㄴㅈㅏ -8646
▁ㄱㅜㄱㅅㅔ -8647
▁ㅂㅔㄴㅊㅡ -8648
▁ㅇㅏㄹㄹㅗ -8649
▁ㅇㅣㅂㅎㅣ -8650
▁University -8651
▁ㅊㅑ -8652
ㅇㅣㄴㅈㅜ -8653
▁ㅇㅏㄹㄹㅔㄱㅅㅔ -8654
ㅇㅣㄹㄱㅣ -8655
▁ㅁㅏㄹㄹㅕ -8656
▁NBC -8657
▁ㅁㅜㄴㅅㅜ -8658
ㅌㅔㄴㅅㅕㄹ -8659
▁ㄱㅗㅇㅅㅏㅇ -8660
▁ㅈㅏㅇㄱㅏㅂㅊㅏ -8661
ㅁㅠㅁ -8662
▁205 -8663
ㄹㅗㄴㅌㅡ -8664
▁ㅂㅏㅇㅎㅗ -8665
▁ㅈㅗㅇㄱㅏ -8666
▁ㅋㅓㅂㅅㅡ -8667
▁ㅅㅓㄴㅇㅠㄹ -8668
▁ㅇㅑㅇㅍㅕㅇ -8669
▁ㅊㅜㄹㅍㅜㅁ -8670
▁WC -8671
▁380 -8672
ㄹㅔㄴㄷㅡ -8673
▁ㄱㅡㄱㅅㅗ -8674
▁ㄷㅡㅇㅅㅏㄴ -8675
▁ㅇㅝㄴㄷㅏㄴ -8676
yn -8677
▁KTX -8678
▁ㄷㅜㅁ -8679
▁ㅂㅐㄱㅈㅗ -8680
ㅇㅛㅇㄹㅑㅇ -8681
▁ㅇㅗㄹㄹㅕㅆㅇㅡ -8682
ㅍㅔㄱ -8683
▁235 -8684
▁DOS -8685
ㅈㅣㅇㅇㅓ -8686
▁ㅅㅏㅇㄱㅖ -8687
▁ㄱㅕㅇㅅㅜㄴ -8688
▁ㄱㅜㄱㄹㅕㄱ -8689
▁ㅌㅗㅇㅅㅣㄴㅁㅏㅇ -8690
BI -8691
ala -8692
▁GR -8693
▁ㄱㅏㅇㅅㅡㅂ -8694
▁ㄱㅏㅇㅇㅣㄴ -8695
▁ㅇㅔㄴㅈㅔㄹ -8696
very -8697
▁name -8698
▁ㅇㅕㄴㅎㅐ -8699
▁ㅋㅗㄴㅍㅓ -8700
▁ㄷㅗㅇㅂㅐㄱ -8701
ㅍㅡㄹㄹㅣㄱㅅㅡ -8702
▁ㅈㅜㅇㅇㅏㅇㅅㅓㄴ -8703
▁ㄴㅔㅅㅍㅡㄹㄹㅣㄱㅅㅡ -8704
ㄲㅟㄴㄷㅏ -8705
ㅇㅜㄴㅅㅜ -8706
ㅋㅓㄹㄹㅔ -8707
▁ㅊㅏㅇㄱㅜ -8708
▁ㄴㅓㅁㄱㅕㅆ -8709
▁ㅁㅣㄴㅅㅣㅁ -8710
▁ㅎㅐㅇㄱㅜㄴ -8711
▁tvN -8712
▁ㄱㅕㄱㅎㅏ -8713
▁ㅁㅜㄲㅇㅕ -8714
▁ㅇㅝㄹㄹㅣ -8715
▁ㅂㅕㄴㅎㅐ -8716
▁ㅌㅏㄴㄷㅜ -8717
ㄴㅏㅁㅁㅕㄴ -8718
ㅈㅣㄹㄹㅓㅆ -8719
▁ㄴㅗㅇㅅㅓㅇ -8720
18 -8721
co -8722
ㅂㅓㄹㄹㅣ -8723
▁ㅁㅜㄴㅊㅔ -8724
ㅁㅗㅇㄱㅗㄹ -8725
▁ㅂㅕㅇㄹㅕㄹ -8726
▁ㅇㅣㄹㅁㅕㅇ -8727
▁ㅈㅣㅂㅈㅓㄴ -8728
ㄷㅔㄹㄹㅣ -8729
▁ㅇㅡㄴㅁㅣㄹ -8730
▁ㅊㅣㅁㅅㅣㄱ -8731
ㄹㅏㄴㄷㅔㄴㅂㅜ -8732
▁ㅂㅜㄹㄹㅓㅆㅇㅡ -8733
▁ㄴㅏㅊ -8734
ㅁㅜㄹㄹㅓ -8735
ㅇㅕㄴㄱㅜ -8736
▁ㅊㅏㅁㅍㅐ -8737
▁ㅊㅓㅂㅂㅗ -8738
ㄱㅓㄴㅅㅓㄹ -8739
ㅈㅏㄱㅈㅣㄴ -8740
▁ㄱㅙㄴㅊㅏㄶ -8741
▁ㄴㅏㅁㄷㅏㄴ -8742
▁ㅇㅝㄹㄴㅏㅁ -8743
▁ㅎㅏㄱㅅㅜㄹㅈㅣ -8744
ax -8745
▁APG -8746
▁ㄷㅏㄴㅅㅓ -8747
ㄱㅏㄱㅅㅏㅇ -8748
▁ㅇㅕㅇㄹㅏㄱ -8749
▁ㅍㅕㄹㅊㅣㄴ -8750
▁ㄷㅗㅇㄴㅏㅁㅉㅗㄱ -8751
▁ㅅㅓㄱㄱㅣ -8752
ㄷㅗㅇㅇㅝㄴ -8753
ㅅㅓㄴㅇㅓㄴ -8754
ㅎㅏㄱㅅㅏㅇ -8755
▁ㅈㅓㅇㄱㅡㄹ -8756
▁ㅎㅘㄴㅇㅠㄹ -8757
22 -8758
▁ㅌㅓㅇ -8759
▁ㅅㅜㄱㅅㅗ -8760
ㅁㅏㅇㅊㅕㅆ -8761
▁ㄷㅏㅁㄷㅏㅇㅈㅏ -8762
oid -8763
▁ㅇㅣㄹㄹㅔ -8764
▁ㄱㅘㄴㄷㅗㅇ -8765
▁ㅁㅕㅇㅇㅣㄴ -8766
▁ㅇㅣㄴㅁㅓㄴ -8767
▁ㅈㅜㅇㄱㅕㄴ -8768
▁ㅅㅏㅇㅂㅏㄴㄱㅣ -8769
IVE -8770
▁sp -8771
▁ㅊㅣㄴㅎㅘ -8772
ㄷㅡㄹㅇㅣㄹ -8773
▁ㅇㅏㄴㅇㅑㅇㅅㅣ -8774
ㄴㅜㅁ -8775
▁ㅅㅣㅀㅇㅓ -8776
▁ㅇㅘㅇㄹㅐ -8777
▁ㅂㅏㄴㄹㅗㄴ -8778
▁ㅅㅏㅇㅅㅣㄱ -8779
ㅅㅓㄴㄱㅗㅇㅅㅏㄴㄷㅏㅇ -8780
ATO -8781
ㅈㅣㅈ -8782
▁ㄱㅣㅂ -8783
ㅂㅕㄴㅅㅜ -8784
ㅎㅕㄴㅈㅜ -8785
▁ㅊㅓㄴㄹㅣ -8786
ㄱㅕㄱㅈㅡㅇ -8787
ㅋㅡㄴㄹㅗㄹ -8788
▁ㅅㅣㄹㅁㅕㅇ -8789
▁ㅇㅏㄱㅁㅕㅇ -8790
▁ㅊㅣㄹㅅㅓㅇ -8791
▁ㅇㅜㄴㅈㅓㄴㅈㅏ -8792
ㄴㅖ -8793
▁ㄹㅝ -8794
▁ㅌㅐㅂ -8795
ㅈㅓㄴㄷㅗ -8796
▁ㄴㅡㅇㄱㅏ -8797
ㅎㅘㅇㅅㅐㄱ -8798
▁ㅎㅗㅇㅇㅣㄱ -8799
ㅎㅏㅇㅈㅓㄴ -8800
▁ㅁㅜㄴㄱㅘㄴ -8801
▁ㅅㅜㄱㄹㅕㄴ -8802
▁ㄱㅗㅇㅎㅏㄱㅈㅏ -8803
▁us -8804
ㅌㅔㄹㅅㅡ -8805
▁ㄱㅕㅇㅎㅘ -8806
ㅇㅏㄱㅅㅏㄴ -8807
▁ㄱㅕㅇㅈㅗㅇ -8808
▁ㅅㅏㄱㄱㅏㅁ -8809
▁ㅇㅏㄴㅅㅣㄱ -8810
▁ㅇㅣㄴㅅㅡㅇ -8811
▁ㅊㅣㄴㅎㅏㄴ -8812
PA -8813
▁ㅅㅖㄴ -8814
▁ㄴㅏㄹㄹㅕ -8815
▁ㄹㅗㄹㄹㅓ -8816
▁ㅅㅣㄹㅅㅏ -8817
▁ㅈㅏㅁㅂㅣ -8818
▁ㅌㅏㄹㅅㅜ -8819
▁ㅅㅣㄹㄹㅕㅆ -8820
▁ㅊㅏㄱㄱㅏㄱ -8821
▁ㅍㅜㄹㅂㅐㄱ -8822
▁ㄱㅏㅇㄹㅕㄱㅎㅣ -8823
▁ㅂㅓㅈ -8824
▁1874 -8825
ㅅㅓㄴㄷㅏ -8826
▁ㅈㅓㄴㅈㅗ -8827
▁ㅈㅔㄹㄹㅣ -8828
ㅈㅓㄱㅈㅓㄹ -8829
▁ㅈㅜㅇㄴㅏㅁ -8830
▁ㅈㅣㄱㄹㅕㄹ -8831
▁ㅎㅏㄴㅁㅣㄴ -8832
EEE -8833
▁KS -8834
ㅇㅓㅋ -8835
▁ㅂㅓㅇ -8836
▁ㅈㅜㅇㄱㅓ -8837
▁ㅂㅕㄴㅈㅡㅇ -8838
▁ㅈㅓㄹㅊㅜㅇ -8839
▁ㅋㅏㄹㄹㅠㅁ -8840
▁ㅂㅣㄹㅂㅏ -8841
▁ㅅㅗㅇㅇㅣ -8842
ㅇㅠㄱㄱㅏㅁ -8843
▁ㅇㅣㄴㅍㅡㄹㄹㅜ -8844
▁ㅈㅣㅂㄷㅏㄴㄱㅜㄴ -8845
▁ㅆㅓㄹ -8846
▁ㅇㅏㄴㅈㅜ -8847
ㅅㅏㅇㅎㅏㄱ -8848
▁ㄷㅓㄴㅈㅕㅆ -8849
▁ㅁㅕㅇㅅㅏㅇ -8850
▁ㄱㅘㄴㅅㅣㅁㅅㅏ -8851
ps -8852
▁204 -8853
▁This -8854
ㅇㅕㄹㄷㅐ -8855
ㅎㅕㅇㅈㅔ -8856
▁ㅇㅣㄹㅈㅜ -8857
▁ㄱㅓㄹㅇㅡㅁ -8858
▁ㅅㅗㄴㄲㅗㅂㅎㅣ -8859
▁ㅎㅏㅇㄱㅗㅇㅍㅕㄴ -8860
▁KO -8861
▁ㅇㅣㄹㅊㅏ -8862
▁ㅈㅓㅇㅇㅗ -8863
▁ㅇㅡㅂㅅㅓㅇ -8864
▁ㅈㅓㅇㅅㅡㅇ -8865
▁ㅈㅜㅇㅇㅣㄹ -8866
▁ㅋㅐㅁㅂㅔㄹ -8867
▁et -8868
▁ㄱㅗㄴㅅㅏㄹ -8869
▁ㄱㅣㅁㅇㅕㄴ -8870
▁ㅈㅣㅇㅈㅣㅂ -8871
▁ㄴㅏㄹㄹㅣ -8872
▁ㅂㅏㄷㅊㅣ -8873
▁ㅅㅏㄴㅈㅗ -8874
▁ㅋㅓㄴㅍㅓ -8875
▁ㅌㅏㄴㅅㅜ -8876
▁ㅇㅗㄹㄹㅣㄹ -8877
▁ㅎㅏㄱㄷㅏㅇ -8878
▁ㅇㅕㄹㅇㅕㄱㅎㅏㄱ -8879
ash -8880
ㄱㅝㄴㅂㅓㅂ -8881
▁ㅅㅓㅇㅎㅐㅇ -8882
15 -8883
▁^ -8884
▁ㅈㅔㄴㄷㅓ -8885
▁ㅍㅜㅁㅁㅗㄱ -8886
▁ㅎㅐㄱㅌㅏㄴㄷㅜ -8887
ㅇㅡㄱ -8888
ㅎㅚㅇ -8889
▁IEEE -8890
ㄱㅏㄱㄱㅏ -8891
ㄷㅗㄹㄹㅕ -8892
ㅇㅜㄹㄹㅗ -8893
▁ㅅㅓㄴㄱㅘ -8894
▁ㅇㅣㅇㅋㅏ -8895
▁ㅈㅓㅂㅁㅣ -8896
▁ㄱㅗㄹㅈㅓㄹ -8897
▁ㄱㅜㄴㅂㅗㄱ -8898
▁ㅂㅗㄴㅈㅗㄴ -8899
14 -8900
HL -8901
ㄹㄹㅣㅁ -8902
▁ㅂㅣㄹㄷㅡ -8903
▁ㅅㅓㄴㅊㅔ -8904
▁ㅇㅏㄴㅍㅏ -8905
▁ㅇㅑㅇㅅㅓ -8906
▁ㅎㅐㅇㅂㅗ -8907
▁ㅅㅏㄴㄴㅏㅁ -8908
GB -8909
▁Bab -8910
▁Best -8911
▁ㅈㅓㅂㄷㅜ -8912
ㅍㅕㅇㅅㅓㄴ -8913
▁ㅎㅕㅂㄱㅗㄱ -8914
ㅁㅂㅏ -8915
▁ㅈㅣㅂㅅㅏ -8916
▁ㅊㅜㄹㅅㅏ -8917
▁ㅅㅏㅇㄱㅏㅁ -8918
▁ㅇㅑㅇㅊㅓㄴ -8919
▁ㅈㅜㅇㄱㅓㄴ -8920
▁ㅁㅕㄱ -8921
ㅁㅔㄱㅅㅣ -8922
ㅅㅣㄴㅈㅓ -8923
▁ㅇㅏㄴㅌㅗㄴ -8924
▁ㅇㅣㄹㄱㅏㄴ -8925
▁ㅈㅓㅂㅈㅓㄴ -8926
▁ㅎㅘㄴㅅㅡㅇㅇㅕㄱ -8927
▁Hell -8928
▁ㄱㅕㅇㄴㅐ -8929
▁ㄹㅐㄴㄷㅓ -8930
▁ㅍㅣㄹㄹㅗ -8931
ㅅㅣㄴㅈㅓㅇ -8932
ㅇㅔㄴㄱㅜㄴ -8933
ㅇㅝㄴㄱㅡㅁ -8934
▁ㅁㅏㄱㄱㅏㅇ -8935
▁ㅅㅜㄱㅂㅏㄱ -8936
▁ㅈㅏㅁㅇㅣㅂ -8937
▁ㅈㅗㄱㅈㅏㅇ -8938
▁ㅊㅏㅁㅈㅓㄴㅎㅏ -8939
ict -8940
▁ㄱㅝ -8941
ㄴㅡㄴㅈㅓㅁ -8942
▁ㅋㅓㄴㅅㅓㄹㅌㅣㅇ -8943
au -8944
▁7000 -8945
▁ㄱㅕㅇㅇㅢ -8946
▁ㄱㅘㄴㅇㅏ -8947
▁ㅇㅝㄴㅅㅏ -8948
▁ㅂㅏㄴㄱㅗㅇ -8949
▁ㅅㅣㄹㅇㅡㄴ -8950
ㅇㅛㄴ -8951
▁ㅅㅏㄴㅊㅔ -8952
▁ㅅㅏㅁㄱㅓ -8953
▁ㅋㅏㄹㄷㅔ -8954
▁ㅁㅕㅇㅇㅘㅇ -8955
de -8956
anc -8957
▁se -8958
▁ㅋㅕ -8959
ㅈㅣㄴㅂㅗ -8960
▁ㅂㅗㄱㅂㅜ -8961
▁ㅇㅕㅁㄷㅜ -8962
ㅇㅘㄴㅇㅛㅇ -8963
▁ㅋㅗㄹㄹㅣㄴㅅㅡ -8964
VA -8965
me -8966
▁ㅋㅝㄹ -8967
ㅅㅓㄱㅁㅛ -8968
ㅈㅓㅇㄷㅐ -8969
▁ㅅㅗㅁㅆㅣ -8970
▁ㅇㅏㅇㄷㅡ -8971
▁ㅋㅟㄴㅅㅡ -8972
▁ㄷㅏㄴㅂㅏㄹ -8973
▁ㅈㅓㅇㅇㅕㄱ -8974
▁ㅌㅡㄱㄱㅗㅇ -8975
▁ㅋㅗㄹㄹㅓㅁㅂㅓ -8976
ose -8977
▁ㅈㅐㅁ -8978
▁1877 -8979
▁ㄱㅏㄹㄹㅔ -8980
▁ㅂㅏㄱㅈㅐ -8981
ㅁㅜㄹㅅㅓㄴ -8982
ㅅㅏㅁㅁㅜㄴ -8983
▁ㄱㅕㄹㅈㅓㄴ -8984
▁AF -8985
ㅇㅓㅂㅊㅔ -8986
▁ㅈㅣㄹㅌㅜ -8987
▁ㅍㅏㄴㄷㅗ -8988
ㅂㅐㄱㅁㅏㄴ -8989
▁ㄱㅓㄴㄹㅠㅇㅈㅔ -8990
ㄹㅖㄴ -8991
▁ㄸㅡㄹ -8992
ㅅㅏㅇㅈㅜ -8993
▁ㄱㅠㄴㅇㅣㄹ -8994
▁ㅌㅗㅇㅅㅗㄹ -8995
▁ㅅㅜㄴㅊㅓㄴㅅㅣ -8996
ody -8997
▁ㅅㅣㅅ -8998
▁ㅃㅏㄹㄹㅏ -8999
▁ㅎㅏㄴㄱㅕ -9000
ㅊㅘㄴㅅㅓㅇ -9001
▁ㄷㅏㅁㅇㅑㅇ -9002
▁ㅁㅜㄴㅁㅐㄱ -9003
▁ㅊㅜㄱㅂㅗㄱ -9004
▁ㅎㅐㅇㅅㅓㄴ -9005
▁ㅁㅐㅁ -9006
ㅋㅗㅂㅅㅡ -9007
▁ㅅㅣㄹㅎㅛ -9008
▁ㅈㅏㄴㅇㅕ -9009
▁ㅂㅕㅇㄷㅏㄴ -9010
▁ㅊㅐㄱㅇㅣㅁㅈㅣ -9011
▁ㄲㅡㅁ -9012
ㄱㅕㄱㄷㅐ -9013
▁ㅁㅏㅇㅊㅣ -9014
▁ㅅㅜㄱㅁㅕㅇ -9015
ail -9016
▁SO -9017
ㄷㅜㅂ -9018
ㄹㅗㄹㄹㅣ -9019
▁ㅁㅏㄱㅇㅏ -9020
▁ㅂㅜㄹㅋㅙ -9021
▁ㅇㅏㅍㄷㅟ -9022
▁ㅇㅏㄴㅍㅏㄲ -9023
▁ㅈㅣㄴㅊㅓㄴ -9024
▁ㅌㅡㄱㅁㅕㅇ -9025
▁ㅊㅜㄹㅈㅏㅇㅅㅗ -9026
▁ㅁㅗㅂㅅㅣ -9027
▁ㅎㅚㄱㄱㅣ -9028
▁ㅂㅏㄹㅈㅏㄱ -9029
▁ㅅㅏㄴㅅㅜㄹ -9030
▁ㅅㅣㄴㅂㅕㅇ -9031
▁ㅇㅏㄴㅅㅣㅁ -9032
▁ㄴㅏㄴㅈㅐㅇㅇㅣ -9033
▁ㅎㅑㅇㅅㅣㄴㄹㅛ -9034
▁SR -9035
ㄴㅣㄴㄱㅡ -9036
▁ㅇㅘㅇㅁㅕㅇ -9037
net -9038
▁FF -9039
▁as -9040
reak -9041
▁ㄹㅏㅅ -9042
▁ㅅㅑㅅ -9043
ㅇㅘㄴㄷㅏ -9044
▁ㅅㅏㄴㅈㅐ -9045
▁ㅇㅑㅇㄱㅡㄱ -9046
▁ㅇㅠㄹㅂㅓㅂ -9047
59 -9048
TF -9049
uck -9050
▁ad -9051
ㅋㅐㄴ -9052
▁ㅇㅝㅁ -9053
ㅅㅣㄱㅅㅡ -9054
ㅇㅏㅅㄱㅣ -9055
▁ㄱㅏㅇㅈㅘ -9056
▁ㅁㅏㅈㅂㅐ -9057
▁ㅂㅕㅇㄹㅣ -9058
▁ㅈㅣㄴㅇㅟ -9059
▁ㅇㅘㄴㅈㅏㅇ -9060
ㅋㅣㄹㄹㅔ -9061
▁ㅇㅏㄴㄱㅣ -9062
▁ㅎㅘㄹㄱㅣ -9063
▁ㅁㅕㄴㄷㅏㅁ -9064
▁ㅂㅏㅇㅎㅏㄱ -9065
▁ㅇㅕㄹㅇㅏㄱ -9066
ㅅㅠㄹ -9067
▁209 -9068
▁1859 -9069
ㄱㅘㄴㅅㅏ -9070
▁ㅇㅏㄱㄷㅏㅇ -9071
▁ㅈㅏㄴㅎㅗㄱ -9072
▁ㅎㅏㄴㅂㅗㄱ -9073
▁ㄱㅗㄷㅇㅣ -9074
▁ㅁㅕㅇㄹㅠㄴ -9075
▁ㅂㅗㄱㅅㅗㄱ -9076
▁ㅂㅏㄺㅎㅕㅆㅇㅡ -9077
▁ㅂㅣㄴㅅㅔㄴㅌㅡ -9078
oo -9079
ㅍㅏㄱ -9080
ㄱㅗㅇㅈㅏ -9081
ㅂㅣㄴㅅㅡ -9082
▁ㅇㅡㄴㅍㅖ -9083
▁ㅍㅗㄹㄹㅗ -9084
▁ㅊㅣㅁㅂㅓㅁ -9085
▁Her -9086
▁ㅈㅏㅇㅈㅣ -9087
▁ㅂㅕㄴㅎㅕㄱ -9088
▁ㅇㅣㄴㅅㅓㅇ -9089
▁CIA -9090
ㅅㅣㄱㅈㅏ -9091
ㅎㅕㄹㄱㅜ -9092
▁ㅇㅣㄴㄱㅖ -9093
▁ㅁㅜㄴㅁㅜㄹ -9094
▁ㅅㅜㄴㅅㅣㄱ -9095
▁ㅊㅜㄹㄱㅕㄱ -9096
13 -9097
▁cc -9098
▁ㅅㅡㄹㄹㅓ -9099
▁ㅇㅐㄹㄹㅏ -9100
▁ㅂㅏㄱㅇㅛㅇ -9101
▁ㅂㅏㄱㅊㅏㄴ -9102
▁ㅍㅔㅇㄱㅟㄴ -9103
▁ㅇㅏㄹㄹㅔㄱㅅㅏㄴㄷㅔ -9104
▁Super -9105
▁ㅂㅐㄱㅇㅜㄴ -9106
▁ㅅㅓㄴㄷㅏㄴ -9107
▁ㅅㅡㅇㄹㅠㄹ -9108
▁ㅇㅝㄴㅁㅜㄴ -9109
▁ㅈㅜㄹㄱㅗㄷ -9110
▁ㅍㅏㄴㅁㅕㅇ -9111
▁Sun -9112
▁1700 -9113
▁ICBM -9114
ㄹㅣㄴㅌㅓ -9115
ㅇㅕㄴㅈㅜ -9116
▁ㅁㅗㄹㅅㅜ -9117
▁ㅁㅣㄴㅇㅢ -9118
▁ㅇㅓㄹㄹㅏ -9119
▁ㅈㅏㅇㄱㅕㅇ -9120
▁my -9121
ㅇㅜㄹㅇㅓ -9122
▁ㅂㅐㄹㅂㅡ -9123
▁ㄱㅗㄱㅅㅣㄱ -9124
▁ㅃㅏㄹㄱㅏㅇ -9125
▁ㄱㅑ -9126
▁206 -9127
ㅅㅏㄴㄱㅣ -9128
ㅈㅓㅇㄴㅏㄴ -9129
▁ㅎㅏㅁㅈㅏㅇ -9130
▁ㄱㅓㄴㄱㅜㄱㅎㅜㄴㅈㅏㅇ -9131
▁AE -9132
ㄹㅡㅂ -9133
ㅊㅏㅁㅊㅏㄴ -9134
▁ㄱㅏㅁㅊㅜㄱ -9135
▁ㄷㅗㅇㄱㅜㄴ -9136
▁ㅊㅜㄹㅍㅏㄴㅁㅜㄹ -9137
▁310 -9138
▁518 -9139
ㅅㅣㄹㅈㅜ -9140
▁ㅂㅔㄹㄹㅗ -9141
▁ㅈㅓㄴㅅㅓ -9142
▁ㅎㅑㅇㅅㅜ -9143
ㅇㅜㄴㅎㅕㅇ -9144
▁ㅈㅓㅇㅊㅓㅇ -9145
▁ㅊㅓㄴㅅㅏㅇ -9146
▁ㅂㅗㄴㅎㅚ -9147
▁ㅁㅣㄴㅇㅝㄴ -9148
▁ㅂㅜㄹㄹㅣㄹ -9149
▁ㅅㅗㄴㅁㅗㄱ -9150
▁ㅇㅣㄹㅅㅏㅁ -9151
▁ㅍㅕㅇㅂㅏㅇ -9152
TR -9153
▁ㅈㅟㄹ -9154
▁ㅋㅜㅁ -9155
▁Star -9156
ㅈㅓㅇㅈㅔ -9157
▁ㄹㅔㄴㄷㅓ -9158
▁ㅅㅏㄴㅌㅜ -9159
▁ㅇㅕㄹㅅㅔ -9160
▁ㅅㅏㄴㅇㅣㄴ -9161
▁ㅇㅘㅇㄷㅏㅇ -9162
▁ㅈㅓㅇㅇㅓㄴ -9163
▁340 -9164
▁ㅌㅏㅆ -9165
ㄱㅘㅇㅅㅏ -9166
ㅂㅓㅁㅈㅚ -9167
ㅇㅝㄴㄱㅜ -9168
▁ㅅㅔㄴㅌㅏ -9169
▁ㅅㅗㄱㅊㅗ -9170
▁ㅉㅏㄱㅅㅜ -9171
▁ㅎㅗㄹㅅㅜ -9172
▁ㅈㅏㅇㅈㅓㅇ -9173
▁ㅈㅓㄴㅂㅗㅇ -9174
OK -9175
▁you -9176
▁ㅅㅏㄴㄹㅣ -9177
▁ㅅㅔㄱㅅㅕㄴ -9178
▁ㅋㅗㄹㄹㅗㄴ -9179
▁ㅎㅗㄴㅎㅏㅂㅁㅜㄹ -9180
vel -9181
▁Kn -9182
▁ㅂㅓㅂㄱㅠ -9183
▁ㅇㅓㅁㅈㅣ -9184
▁ㅅㅏㄴㅁㅜㄴ -9185
▁ㅅㅜㄴㅊㅏㄹ -9186
▁ㅈㅓㅇㅅㅣㄹ -9187
▁"| -9188
ㅂㅏㅇㅅㅡ -9189
ㅂㅜㄴㅈㅏ -9190
▁print -9191
▁ㅎㅏㄹㄱㅜ -9192
ㅅㅓㅇㄴㅕㄴ -9193
▁ㄱㅕㄹㅁㅏㄹ -9194
▁ㄱㅘㄴㄱㅜㄴ -9195
▁ㅂㅏㄹㄱㅘㅇ -9196
▁ㅂㅜㄱㅇㅣㄴ -9197
▁ㅇㅡㅁㅅㅣㄱㅈㅓㅁ -9198
▁ㅁㅏㄴㅈㅏㅇㅇㅣㄹㅊㅣ -9199
ㄹㅜㅅ -9200
▁625 -9201
▁App -9202
▁des -9203
ㅋㅗㄹㄹㅗ -9204
▁ㅂㅗㄹㄷㅡ -9205
▁ㅅㅓㅇㅈㅗ -9206
▁ㅎㅔㄹㅅㅡ -9207
▁ㅅㅗㄱㄱㅜㄱ -9208
▁ㅌㅔㅁㅍㅡㄹ -9209
ㄷㅡㄹㄹㅐㄴㄷㅡ -9210
EA -9211
ㄸㅡㅁ -9212
ㅂㅣㄱ -9213
ㅅㅓㄴㄱㅛ -9214
▁ㅎㅏㄴㅎㅐ -9215
ㅂㅣㄹㄹㅗㄴ -9216
ㅅㅓㅇㅁㅕㄴ -9217
▁public -9218
▁ㄱㅕㄱㅈㅓㄴ -9219
▁ㄱㅕㅇㅇㅝㄴ -9220
▁ㄴㅗㄴㅈㅡㅇ -9221
▁ㅅㅗㅇㅈㅣㄴㅇㅜ -9222
▁ㅊㅓㅇㅁㅜㄴㅎㅚ -9223
▁ㄸㅏㅁ -9224
ㄹㅣㅅㅈㅣ -9225
▁ㅈㅓㄴㅂㅓㅁ -9226
▁ㅎㅘㄱㅊㅜㅇ -9227
▁ㅅㅜㄴㅅㅣㄱㄱㅏㄴ -9228
▁IF -9229
▁ON -9230
▁ㅂㅏㄹㅈㅣㄴ -9231
▁ㄱㅣㄹㄱㅓ -9232
▁ㄱㅣㅁㅈㅜ -9233
ㅇㅗㄹㄹㅕㅆ -9234
▁ㄱㅗㅇㅂㅕㅇ -9235
▁ㅂㅏㄴㅇㅣㅂ -9236
▁ㅂㅜㄱㅊㅡㄱ -9237
▁ㅊㅗㅇㄱㅏㅁ -9238
▁ㅅㅣㄹㄹㅣㄴㄷㅓ -9239
▁ㅇㅏㄹㄹㅔㄱㅅㅣ -9240
▁Soul -9241
▁ㅁㅏㅌㄱㅕ -9242
▁ㅇㅣㅁㅅㅣㄹ -9243
▁ㅈㅣㅂㅈㅓㄱ -9244
▁ㅋㅓㄹㄹㅣㅇ -9245
▁1879 -9246
ㄹㅗㅂㅅㅡ -9247
▁ㄱㅝㄴㅌㅜ -9248
▁ㄱㅡㄴㅅㅔ -9249
▁ㅇㅟㄴㅌㅓ -9250
▁ㄱㅡㄴㄱㅏㄴ -9251
▁ㅎㅡㄴㄷㅡㄹㄹㅣ -9252
ute -9253
▁Mi -9254
▁po -9255
ㅇㅡㄱㄱㅗ -9256
ㅈㅏㄴㅌㅣㄴ -9257
▁ㅂㅕㄴㅈㅣㄹ -9258
▁ㅅㅓㄱㄱㅝㄴ -9259
▁Tw -9260
▁ㄲㅘㅇ -9261
ㅅㅠㄹㄹㅣ -9262
ㅇㅣㄱㅅㅜ -9263
▁ㅂㅐㄱㅈㅣ -9264
▁ㅇㅜㄹㄹㅜ -9265
▁Christ -9266
▁ㅂㅏㄹㅍㅏㄴ -9267
▁ㅅㅏㅇㅅㅓㄹ -9268
▁ㅇㅣㅂㅊㅏㄹ -9269
ㅅㅗㄱㅊㅓㄹㄷㅗ -9270
▁ㅈㅓㅇㅊㅏㄱㅈㅣ -9271
HC -9272
▁HP -9273
ㅍㅓㅁ -9274
ㅂㅡㄴㅅㅡ -9275
▁ㄱㅣㅁㄷㅗ -9276
▁ㄴㅏㅇㅂㅣ -9277
▁ㅂㅏㄹㅌㅓ -9278
▁ㅅㅣㄹㅂㅔ -9279
▁ㅇㅏㄹㅁㅏ -9280
▁ㅇㅏㄹㅈㅏ -9281
▁ㅋㅏㄴㅌㅡ -9282
ㅂㅗㅇㅇㅏㅁ -9283
▁Record -9284
▁ㄱㅣㅁㄷㅓㄱ -9285
▁ㅊㅜㄱㅈㅓㄴ -9286
▁ㅎㅏㄴㄱㅜㄱㄱㅜㄴ -9287
gh -9288
ㅃㅐ -9289
ㅂㅜㄴㅌㅜ -9290
▁ㄱㅘㄴㅇㅟ -9291
▁ㄱㅜㅇㅈㅜ -9292
▁ㅍㅣㄹㄱㅣ -9293
▁ㅇㅕㅇㅈㅗㅇ -9294
▁ㅇㅝㄴㅈㅓㅁ -9295
▁ㅇㅝㄴㅈㅗㅇㄱㅗㅇㅅㅣㄴ -9296
ㄷㅣㅅ -9297
▁1812 -9298
ㄱㅓㄴㅂㅜ -9299
▁ㅅㅣㄹㅂㅣ -9300
▁ㅇㅕㅇㄷㅗ -9301
▁ㅈㅓㅁㅌㅗ -9302
ㄱㅕㄹㅎㅏㅂ -9303
▁ㄱㅡㅁㅊㅓㄴ -9304
▁ㅂㅓㅂㅅㅏㅇ -9305
▁ㅈㅏㅇㄱㅏㅇ -9306
▁ㅇㅕㄴㅂㅏㅇㄱㅜㄴ -9307
▁ㅌㅐㅁ -9308
ㅊㅓㄱㅈㅏ -9309
▁ㄹㅗㄱㅎㅣ -9310
▁ㅊㅓㄹㄱㅣ -9311
▁ㄱㅣㅁㅎㅏㄱ -9312
▁ㄸㅓㄹㅊㅕㅆ -9313
▁ㅂㅕㄴㅅㅓㅇ -9314
▁ㅋㅡㄹㄹㅓㄱ -9315
ogle -9316
▁ㅆㅜㅇ -9317
▁ㅍㅔㄱ -9318
ㅇㄱㅡㄹㄹㅣ -9319
▁ㅇㅏㄴㅁㅕㄴ -9320
▁ㅅㅓㅇㅍㅗㄱㄹㅕㄱ -9321
▁YG -9322
▁ㄸㅡㄴ -9323
ㄹㅔㄴㅊㅡ -9324
▁ㄱㅏㅇㄱㅜㄱ -9325
▁ㄷㅏㄴㅁㅏㄹㄱㅣ -9326
▁ㅊㅗㅇㅇㅕㅇㅅㅏ -9327
ull -9328
ㅁㅕㅆ -9329
ㅅㄷㅐ -9330
ㅎㅏㄹㅇㅏ -9331
▁ㅇㅏㄴㄱㅕ -9332
16 -9333
ㅎㅝㄴ -9334
▁ㅅㅣㄴㅇㅣㄱ -9335
▁ㅅㅣㅁㅈㅓㅇ -9336
▁Gu -9337
▁PA -9338
ㄸㅜㅇ -9339
▁John -9340
ㄷㅏㅅㄱㅏ -9341
ㅁㅏㅇㄱㅏ -9342
ㅈㅜㅇㅈㅜ -9343
▁ㄱㅘㅇㅅㅣ -9344
▁ㅁㅏㄴㄹㅠ -9345
▁ㅎㅘㄴㅊㅗ -9346
▁ㄱㅕㄹㅈㅏㅇ -9347
▁ㅇㅝㄴㅁㅏㄴ -9348
▁420 -9349
▁ㅅㅗㄴㅅㅜ -9350
▁ㅇㅏㄴㄷㅏ -9351
▁ㅇㅣㄱㅎㅣ -9352
ㄷㅗㅇㅂㅕㄴ -9353
ㅂㅏㄴㅈㅓㅇ -9354
ㅅㅣㅁㅇㅝㄴ -9355
▁ㄷㅏㅅㅋㅓㅁ -9356
▁ㅇㅓㄱㅇㅜㄹ -9357
▁ㅎㅘㄴㅅㅏㄴ -9358
▁ㅇㅝㄴㅈㅓㅇㄷㅐ -9359
▁ㅊㅓㄴㅁㅜㄴㄷㅏㄴㅇㅟ -9360
▁Per -9361
▁ㅋㅜㅇ -9362
▁ㄱㅜㄴㄱㅣ -9363
▁ㄱㅜㄴㅍㅗ -9364
▁ㅍㅜㄹㅇㅣ -9365
ㅁㅣㄴㅈㅓㅇ -9366
ㅅㅐㅇㅅㅏㄴ -9367
▁ㅅㅏㄴㅈㅓㅇ -9368
▁ㅅㅏㅇㅎㅘㄴ -9369
▁ㅇㅣㄹㅁㅕㄴ -9370
▁Win -9371
ㄹㅣㅇㅋㅡ -9372
▁ㄱㅜㄴㅁㅏ -9373
ㅇㅕㄴㅁㅐㅇ -9374
ㅌㅏㄴㅇㅗㄹ -9375
▁ㅎㅏㅂㅂㅕㅇㅈㅡㅇ -9376
VID -9377
ual -9378
▁Str -9379
▁ㅈㅣㅍ -9380
▁ㅇㅡㄴㅈㅣ -9381
ㅅㅏㄴㅇㅕㄱ -9382
▁ㅇㅑㅇㅇㅝㄴ -9383
iel -9384
ㅇㅓㅇ -9385
ㄹㅡㄹㄹㅜ -9386
▁ㄱㅣㅁㅇㅜ -9387
▁ㅁㅟㄹㄹㅓ -9388
▁ㅅㅏㄴㅅㅏ -9389
▁ㅈㅏㅇㅇㅣ -9390
ㅍㅕㅇㄷㅗㅇ -9391
▁ㅅㅓㅇㅎㅕㄴ -9392
25 -9393
ㄴㅐㅇ -9394
▁ㄱㅗㅇㄱㅛ -9395
▁ㄱㅣㅁㅅㅣ -9396
▁ㅇㅑㅇㄱㅜ -9397
▁ㅌㅜㄹㄹㅜ -9398
▁ㅎㅣㄹㅅㅡ -9399
▁ㅁㅏㅈㅁㅜㄹ -9400
▁ㅁㅗㄱㄷㅗㅇ -9401
▁ㅌㅗㅇㄱㅏㅁ -9402
▁256 -9403
▁ㅇㅐㅅ -9404
▁ㄷㅗㅇㅁㅐㄱ -9405
▁ㅂㅓㅁㄹㅏㅁ -9406
▁ㄹㅡㅁ -9407
▁ㄱㅘㄴㄱㅐ -9408
▁ㅍㅕㅇㅎㅏ -9409
ㅅㅐㅇㅊㅜㅇ -9410
▁ㅈㅓㄱㅂㅓㅂ -9411
ㄱㅝ -9412
▁208 -9413
ㄷㅔㄹㄹㅏ -9414
ㄹㅣㄴㅅㅔ -9415
ㅇㅣㄴㅌㅓ -9416
▁ㄱㅓㄴㄴㅔ -9417
▁ㄱㅗㅇㅅㅓㄱ -9418
ㅅㅣㄴㅈㅓㅇㅂㅕㄴ -9419
UN -9420
▁HS -9421
ㄴㅜㄴㄷㅏ -9422
▁ㅇㅣㄹㅂㅗ -9423
▁ㅋㅣㄹㄹㅓ -9424
▁ㅎㅕㄴㅅㅜ -9425
ㅂㅡㄹㄹㅣㄱ -9426
ㅍㅡㄹㄹㅔㄱ -9427
▁ㅈㅜㅇㅇㅏㅇㅇㅣㄹㅂㅗ -9428
ㅅㅓㅅㅉㅐ -9429
ㅇㅣㄴㅈㅡ -9430
▁ㅅㅏㄹㄹㅔ -9431
▁ㅈㅏㅁㅈㅏ -9432
ㅂㅕㅇㅇㅗㄱ -9433
▁ㅇㅣㄴㅊㅓㄱ -9434
ㅅㅛㅂ -9435
▁ㄴㅓㄼㅎㅣ -9436
▁ㅅㅓㄴㅂㅕㄹ -9437
ㄷㅏㅅ -9438
▁ㄱㅡㄱㅎㅚ -9439
▁ㄷㅏㅁㅅㅜ -9440
▁ㅊㅓㄴㅈㅏ -9441
ㄱㅡㄱㅈㅏㅇ -9442
▁ㅂㅏㄴㅈㅓㅇ -9443
▁KD -9444
▁mu -9445
▁ㅆㅓㅁ -9446
ㅎㅏㄱㅍㅏ -9447
▁ㅎㅏㄴㅎㅏ -9448
ㄴㅕㄴㄷㅏㄴ -9449
ㄷㅓㄱㄱㅜㅇ -9450
ㄷㅗㅇㅅㅣㄱ -9451
▁ㄷㅏㄹㄹㅕㄱ -9452
▁ㅂㅏㄱㄱㅕㅇ -9453
▁ㅈㅏㅂㅎㅣㄴ -9454
▁ㄱㅜㄱㅂㅏㅇㄱㅜㄴ -9455
▁Mr -9456
▁CoA -9457
▁ㄱㅓㄹㅅㅡ -9458
▁ㄱㅜㄴㄷㅗ -9459
▁ㅁㅜㄴㅇㅓ -9460
▁ㄴㅏㅁㄱㅕㅇ -9461
▁ㅂㅏㅇㅌㅏㄴ -9462
▁ㅇㅛㅇㅁㅐㅇ -9463
▁ㅈㅓㅇㅁㅐㄱ -9464
▁ㅇㅑㅇㅅㅏㄴㅅㅣ -9465
▁nm -9466
▁ㅁㅑ -9467
ㅇㅕㄴㅎㅘ -9468
ㅇㅜㄹㅇㅣ -9469
▁ㄴㅗㅎㅊㅣ -9470
▁ㅅㅏㅇㄷㅗㅇ -9471
▁ㅇㅑㅇㅈㅓㅇ -9472
ll -9473
▁Kore -9474
ㅇㅕㅇㅎㅗ -9475
ㄴㅡㅇㄹㅕㄱ -9476
▁ㅈㅗㅇㅅㅣㄹ -9477
▁ㅌㅗㅇㅊㅏㄹ -9478
▁ㅊㅜㄴㅊㅓㄴㅅㅣ -9479
ㅇㅣㅇㄱㅡㄹㄹㅐㄴㄷㅡ -9480
▁ER -9481
▁ㅋㅏㄹㄹㅔ -9482
ㄱㅣㄹㅈㅜㄴ -9483
▁ㅎㅏㅇㅁㅜㄴ -9484
ㄷㅗㅇㅂㅕㄴㅅㅗㄱㄱㅣ -9485
▁ㅉㅏㄴ -9486
▁ㄷㅗㅇㄷㅜ -9487
▁ㅁㅔㄹㄹㅣ -9488
▁ㅇㅘㅇㄴㅕ -9489
ㅎㅘㅇㄹㅕㅇ -9490
▁ㄴㅗㅇㅎㅕㅂ -9491
▁ㅅㅓㅇㅎㅕㅇ -9492
▁ㅊㅓㅇㅇㅣㄹ -9493
17 -9494
▁DO -9495
ㄴㅣㄴㅈㅜ -9496
▁ㄱㅏㄴㅈㅣ -9497
▁ㅇㅣㄴㄷㅓ -9498
▁ㅊㅜㄴㄱㅖ -9499
▁Intern -9500
▁ㄷㅗㅇㄱㅡㅂ -9501
▁ㅂㅕㄴㄹㅗㄴ -9502
▁ㅊㅗㅇㄱㅜㄱ -9503
▁ㅊㅜㅇㄷㅗㅇ -9504
▁ㅇㅑㅇㅍㅕㅇㄱㅜㄴ -9505
▁ㅇㅕㅇㅁㅜㄴㅎㅏㄱ -9506
ㄸㅓㄹㅇㅓ -9507
ㅂㅏㄹㄹㅣ -9508
▁ㄱㅏㅇㄱㅏ -9509
▁ㄷㅏㄴㅅㅜ -9510
▁ㅅㅐㄹㄹㅓ -9511
▁ㅈㅓㄱㅅㅣ -9512
ㄴㅏㅁㄷㅗㅇ -9513
▁ㅂㅗㅇㅂㅜㄴ -9514
▁ㅇㅣㄴㅅㅏㅁ -9515
ㄱㅜㅅ -9516
lect -9517
ㅂㅏㅇㄷㅗ -9518
▁ㄴㅜㄹㄹㅓ -9519
▁ㅅㅏㅇㅇㅣ -9520
▁ㅅㅔㄹㅈㅜ -9521
▁ㅅㅣㄱㅇㅣ -9522
▁ㅈㅓㅂㅅㅣ -9523
ㅁㅏㅇㄹㅠㄹ -9524
▁ㄷㅏㅇㅅㅏㅇ -9525
▁ㄸㅏㄱㄸㅏㄱ -9526
▁ㅁㅜㄴㄱㅓㄴ -9527
▁ㅅㅏㅇㅊㅡㅇ -9528
ox -9529
▁ㅎㅑㅇㄹㅗ -9530
▁ㅎㅔㄹㄹㅗ -9531
ㅇㅕㄴㅅㅏㅇ -9532
▁ㄱㅕㅇㅎㅏㅂ -9533
▁ㅂㅜㄹㅁㅜㄴ -9534
▁ㅂㅣㅊㄲㅏㄹ -9535
▁Fl -9536
▁370 -9537
▁ㅆㅗㄴ -9538
▁ㅇㅕㄹㄱㅓ -9539
▁ㄱㅠㄴㄷㅡㅇ -9540
▁ㅇㅑㅇㄴㅕㅁ -9541
▁ㅈㅏㅇㅅㅡㅇ -9542
▁ㅊㅣㄹㄱㅗㄱ -9543
▁ㅂㅜㅌㅈㅏㅂㅎㅕ -9544
▁ㅇㅓㅁㅊㅓㅇㄴㅏ -9545
ames -9546
▁ㅋㅐㅇ -9547
▁ㄴㅓㄼㅎㅕ -9548
▁ㅅㅓㅇㄴㅐ -9549
▁ㅇㅕㄴㅎㅏ -9550
▁ㅂㅏㄴㄴㅏㅂ -9551
▁ㄴㅏㅁㅂㅜㄱㅈㅗ -9552
▁440 -9553
ㄴㅗㅍㅇㅣ -9554
▁ㄱㅕㄹㅇㅕ -9555
▁ㄱㅣㄹㅂㅓ -9556
▁ㅁㅏㄴㅅㅜ -9557
▁ㅇㅣㄹㅅㅜ -9558
▁ㅋㅏㅂㅋㅏ -9559
▁ㅍㅔㄹㄹㅔ -9560
ㅂㅗㄴㅂㅓㅂ -9561
▁ㄴㅗㅇㄷㅏㅁ -9562
▁ㅁㅣㄴㅅㅓㄴ -9563
▁ㅂㅏㄴㄷㅏㄹ -9564
▁ㅂㅜㄹㅂㅗㄱ -9565
▁ㅎㅏㅇㄱㅗㅇㅇㅜ -9566
▁ㅍㅟ -9567
▁ㅌㅜㅁ -9568
ature -9569
▁2500 -9570
▁NATO -9571
ㄷㅗㅇㅅㅏ -9572
ㅇㅣㄹㅊㅔ -9573
ㅎㅘㅇㅈㅔ -9574
▁ㄱㅡㅁㄱㅣ -9575
▁ㅂㅏㄹㄹㅜ -9576
▁ㅅㅓㅇㅈㅏ -9577
ㅇㅜㄴㅌㅣㄴ -9578
▁ㄱㅗㅇㄱㅕㅇ -9579
ty -9580
ㄷㅏㅎ -9581
ㅂㅓㄱ -9582
ㅇㅛㅁ -9583
▁ㅇㅏㄴㅅㅣ -9584
ㅂㅓㅁㅅㅓㄱ -9585
▁ㅍㅜㅅㅅㅏㄹ -9586
▁ㅎㅏㅇㅅㅐㅇㅈㅔ -9587
ㅅㅣㄱㅊㅜㄱㄱㅜ -9588
▁ㅇㅘㅇㄷㅏㅇㅍㅏ -9589
ove -9590
▁MD -9591
▁ㄹㅕㄹ -9592
ㅂㅏㄹㅌㅡ -9593
▁ㅂㅗㄴㄱㅓ -9594
ㄴㅏㅁㅅㅓㄴ -9595
ㅅㅜㄹㅍㅜㅁ -9596
▁ㅇㅕㄹㄹㅏㅁ -9597
▁ㅇㅘㅇㄹㅡㅇ -9598
▁ㅈㅓㅂㄱㅡㄴㅅㅓㅇ -9599
▁Get -9600
▁1400 -9601
▁ㄷㅗㅇㅊㅔ -9602
ㅈㅓㄴㄹㅕㄱ -9603
ㅎㅏㅂㅇㅝㄴ -9604
▁ㅇㅏㅇㅅㅏㅇ -9605
▁ㅊㅓㅇㅈㅓㅇ -9606
▁Mag -9607
▁Back -9608
▁ㄱㅏㅇㅇㅠ -9609
▁ㅇㅕㄴㅇㅓ -9610
▁ㅇㅡㄹㅅㅜ -9611
▁ㅊㅓㅇㄱㅛ -9612
▁ㅍㅜㅇㅇㅛ -9613
▁ㅎㅔㄴㄷㅡ -9614
ㅊㅜㄱㄱㅜㄱ -9615
▁ㅈㅏㅂㅎㅕㅆ -9616
▁ㅈㅣㄴㅇㅝㄴ -9617
▁ㄱㅏㅇㄹㅡㅇㅅㅣ -9618
▁ㅇㅏㄹㅋㅏㄹㄹㅣ -9619
ㄷㅙ -9620
▁NM -9621
▁747 -9622
▁Hot -9623
▁ㅁㅓㄴㄹㅗ -9624
▁ㅅㅡㅇㅁㅏ -9625
ㅊㅓㅇㅈㅏㅇ -9626
▁ㅂㅏㄹㅇㅕㄹ -9627
▁ㅇㅡㅇㄹㅕㄱ -9628
▁ㅈㅡㅇㅊㅜㄱ -9629
24 -9630
▁MIT -9631
ㄴㅕㅁㅅㅏ -9632
ㄷㅜㄴㅈㅣ -9633
▁ㄱㅘㄴㅈㅓ -9634
▁ㅇㅗㅁㄴㅣ -9635
ㄱㅡㄱㄷㅏㄴ -9636
ㅅㅡㅇㅎㅜㄴ -9637
ㅇㅣㄴㄷㅏㄴ -9638
▁ㅈㅓㄴㄱㅗㄱ -9639
▁ㄱㅘㅇㅎㅏㅂㅅㅓㅇ -9640
ㅂㅓㅂㅂㅜ -9641
ㅂㅗㄴㄱㅏ -9642
▁ㄱㅜㄴㅇㅟ -9643
▁ㅅㅓㄱㅈㅐ -9644
▁ㄱㅜㄱㅁㅜㄴ -9645
▁ㅇㅑㄱㅍㅜㅁ -9646
▁ㅅㅣㄴㅇㅏㄴㄱㅜㄴ -9647
▁ㅇㅔㅂ -9648
ㅍㅔㄴㅅㅓ -9649
▁1801 -9650
▁Baby -9651
▁ㅋㅗㅁㅂㅣ -9652
▁ㅈㅓㄱㅎㅣㄴ -9653
▁ㅈㅣㄴㅅㅓㅇ -9654
BN -9655
▁CA -9656
▁DA -9657
▁ㄴㅖ -9658
ology -9659
▁ㄱㅏㄷㅎㅕ -9660
▁ㅍㅜㅇㄱㅣ -9661
▁ㄱㅡㅁㄱㅘㄴ -9662
▁ㅁㅐㅇㄹㅕㄹ -9663
▁ㅈㅓㄴㅇㅕㄹ -9664
▁ㅇㅏㅂㄷㅜㄹㄹㅏ -9665
inal -9666
▁225 -9667
▁ㅋㅣㅂ -9668
▁class -9669
▁ㅊㅓㄴㅌㅐ -9670
ㅇㅑㅇㄱㅘㅇ -9671
▁System -9672
▁ㄱㅘㄴㅇㅝㄴ -9673
▁ㅁㅕㅇㄷㅗㅇ -9674
▁ㅇㅛㅇㅇㅕㄱ -9675
▁ㄱㅣㅁㅈㅗㅇㅈㅣㄱ -9676
▁ㄴㅏㅁㅎㅏㄴㅅㅏㄴㅅㅓㅇ -9677
▁NA -9678
▁Res -9679
▁1789 -9680
ㄴㅗㄹㄷㅡ -9681
ㅁㅕㅇㅅㅔ -9682
▁ㄱㅜㅇㅅㅜ -9683
▁ㅇㅘㅇㅈㅘ -9684
▁ㅅㅣㄴㄱㅜㅇ -9685
▁ㅅㅣㄴㅊㅓㄴ -9686
▁ㅇㅗㄴㅈㅓㄴ -9687
▁ㅈㅓㄴㄷㅗㅇ -9688
▁ㅋㅐㅂㅌㅣㄴ -9689
ㅅㅓㅇㅈㅣㄹㅊㅔ -9690
app -9691
let -9692
▁207 -9693
▁365 -9694
ㄱㅗㄴㅈㅡ -9695
ㅍㅐㄱㅅㅡ -9696
▁ㅂㅓㄱㅅㅡ -9697
ㄹㅣㅁㄷㅗㅇ -9698
▁ㅇㅝㄴㄱㅗㄱ -9699
▁ㅈㅏㅇㄹㅗㄴ -9700
▁ㅈㅓㅂㅁㅗㄱ -9701
▁ㄱㅗㅇㅅㅓㅇㅈㅓㄴ -9702
ors -9703
ㄹㅗㄱㅅㅣ -9704
ㅅㅓㄴㅅㅏ -9705
ㅅㅏㄴㅇㅡㅂ -9706
▁ㅌㅏㄴㄱㅘㅇ -9707
▁ㅎㅏㅂㅈㅏㅇ -9708
▁ㅎㅏㅇㅈㅓㄴ -9709
▁ㅇㅕㅇㅈㅏㅇㄹㅠ -9710
ㄲㅣㄴㄷㅏ -9711
ㄷㅡㄴㅂㅓ -9712
ㅁㅏㅇㅊㅕ -9713
▁ㅇㅝㄹㄱㅕㅇ -9714
▁ㅊㅓㄹㄱㅡㄴ -9715
▁ㄷㅗㅇㅂㅜㄱㅂㅜ -9716
▁ㅂㅏㅇㅁㅜㄴㄱㅐㄱ -9717
▁ㅎㅕㄹㅇㅐㄱㅎㅕㅇ -9718
▁ㅅㅐㅇㅁㅜㄹㅎㅏㄱㅈㅏ -9719
YP -9720
ㅌㅗㅇㅅㅜ -9721
▁ㅅㅐㅇㄱㅏ -9722
▁ㅇㅑㄱㅅㅜ -9723
ㅂㅐㄱㅅㅐㄱ -9724
▁ㄴㅡㅇㅅㅜㄱ -9725
▁ㅈㅡㄹㄱㅕㅆ -9726
▁Cent -9727
▁ㅎㅘㅇㅇㅟ -9728
ㄹㅐㄴㅅㅣㅅ -9729
ㅍㅜㅁㄱㅜㄴ -9730
▁ㄱㅏㅁㄷㅏㅇ -9731
▁ㅇㅕㅇㅅㅓㅇ -9732
▁ㅂㅜㄺㅇㅡㄴㅅㅐㄱ -9733
ART -9734
▁Cr -9735
▁SW -9736
▁GPS -9737
▁IEC -9738
ㄹㅏㄱㅂㅜ -9739
▁ㅂㅣㄹㄹㅔ -9740
▁ㅇㅏㄱㅇㅓ -9741
▁ㅋㅐㄴㅌㅓ -9742
▁ㄱㅜㄱㅅㅏㄴ -9743
▁ㅇㅏㄴㄹㅏㄱ -9744
▁Ke -9745
ㅍㅏㅂ -9746
▁type -9747
▁ㄷㅗㅇㅍㅡ -9748
▁ㅁㅔㄴㅌㅗ -9749
▁ㅂㅕㄴㅈㅗ -9750
▁ㅇㅕㄱㄷㅗㅇ -9751
▁ㅈㅜㄱㅇㅣㄹ -9752
▁ㅈㅣㄴㅅㅣㅁ -9753
▁ㅈㅓㄴㅊㅓㄹㅇㅕㄱ -9754
FS -9755
za -9756
▁'- -9757
▁ㄷㅔㄱ -9758
ㅂㅏㄱㅇㅣ -9759
▁ㅋㅡㄹㄹㅜ -9760
▁ㄱㅗㅇㅎㅜㄴ -9761
▁ㄷㅗㄹㄹㅕㅆ -9762
▁ㅂㅜㄱㅅㅗㅇ -9763
▁ㅅㅓㄲㅇㅣㄴ -9764
▁ㅅㅣㄴㅇㅣㄱㅎㅢ -9765
GO -9766
enn -9767
▁ㄷㅓㄱㅅㅜ -9768
ㅌㅣㄹㄹㅔㄴ -9769
▁ㅂㅕㄴㅊㅓㄴ -9770
▁ㅇㅘㄴㅅㅏㄴ -9771
▁ㅈㅓㄴㄱㅡㄱ -9772
▁ㅈㅓㄴㄷㅗㅇㄱㅣ -9773
▁BO -9774
ㄷㅓㄱㄱㅜ -9775
▁ㅈㅏㄴㅊㅣ -9776
▁ㅊㅏㄴㄷㅡ -9777
▁ㅋㅐㄴㄷㅣ -9778
▁Google -9779
▁ㄱㅣㅁㅈㅏㅇ -9780
▁ㅁㅏㅈㄷㅏㅎ -9781
▁ㅂㅜㄹㄴㅡㅇ -9782
▁ㅇㅜㄴㅅㅓㄱ -9783
▁ㅈㅜㅇㅅㅣㄴ -9784
▁ㅎㅕㄴㄱㅘㄴ -9785
▁ㅂㅏㅇㅂㅓㅂㄹㅗㄴ -9786
▁ㅇㅏㅇㅅㅏㅇㅂㅡㄹ -9787
▁911 -9788
ㄷㅗㅇㄷㅐ -9789
ㅈㅓㄴㄹㅣ -9790
▁ㅅㅓㅇㅈㅔ -9791
▁ㅂㅏㄴㅎㅑㅇ -9792
▁ㅌㅏㄴㅅㅓㅇ -9793
▁ㅅㅏㅇㅎㅚ -9794
▁ㄴㅗㄱㅁㅏㄹ -9795
▁ㅂㅕㄴㅎㅏㅁ -9796
▁ㅅㅓㄱㄷㅡㅇ -9797
▁ㅆㅏㅇㅇㅛㅇ -9798
MP -9799
RNA -9800
▁Dr -9801
▁SG -9802
▁1815 -9803
▁Amer -9804
▁ㅂㅓㅂㅎㅘ -9805
▁ㅈㅏㄱㅈㅏ -9806
▁ㅈㅓㅇㅇㅜ -9807
ㅂㅜㄹㅁㅕㅇ -9808
ㅍㅕㅇㅊㅓㄴ -9809
▁ㅅㅣㄴㅇㅏㄴ -9810
▁ㅇㅑㅇㄷㅗㅇ -9811
▁ㄷㅗㅇㅇㅣㄹㅅㅣ -9812
▁ㅅㅐㅇㅅㅏㄴㅈㅏ -9813
▁ㅈㅓㄴㅁㅏㅇㄷㅐ -9814
▁ㄸㅡㄷ -9815
ㅈㅏㅁㅂㅣ -9816
ㅊㅗㄴㄷㅗㅇ -9817
▁ㄴㅗㄴㅍㅕㅇ -9818
▁ㄴㅗㅎㅇㅕㅆ -9819
▁ㄷㅏㅁㅇㅣㅁ -9820
▁ㅇㅕㅅㅂㅗㄹ -9821
▁ㅈㅓㅇㅈㅜㅇ -9822
ㅂㅓㅂㅇㅝㄴㅈㅏㅇ -9823
▁OK -9824
ㅇㅏㅍ -9825
▁Mac -9826
ㄱㅡㄱㅎㅣ -9827
ㄷㅜㄹㄹㅓ -9828
▁ㅂㅏㄴㅈㅏ -9829
▁ㅇㅏㄹㅂㅣ -9830
▁ㅇㅑㅇㅇㅟ -9831
▁ㅇㅔㅁㅁㅏ -9832
▁ㅎㅏㄴㄹㅏ -9833
▁ㅎㅠㅇㄴㅐ -9834
ux -9835
ina -9836
ㄲㅓㅂ -9837
ange -9838
▁ㅈㅏㅇㅅㅓ -9839
ㄱㅕㅇㅊㅏㄹ -9840
ㄹㅣㅇㅌㅓㄴ -9841
▁ㄱㅣㅁㅇㅡㄴ -9842
▁ㄷㅏㅁㅈㅏㅇ -9843
▁ㅅㅡㅇㄴㅏㄱ -9844
▁ㅎㅐㅇㅇㅜㄴ -9845
▁ㄱㅜㄴㅅㅏㄴㅅㅣ -9846
▁FS -9847
▁ㅆㅙ -9848
ㅁㅔㅅ -9849
▁Tra -9850
ㄷㅏㅇㄹㅠ -9851
▁ㄱㅏㄹㅂㅣ -9852
▁ㄱㅏㅇㅌㅏ -9853
▁ㄱㅗㄴㄷㅗ -9854
▁ㅅㅡㅂㄷㅗ -9855
▁ㅇㅗㅂㅌㅣ -9856
▁ㅊㅏㅇㅆㅣ -9857
▁ㅊㅣㅁㅅㅜ -9858
▁ㅈㅡㄱㅎㅡㅇ -9859
▁ㅊㅜㄹㅈㅓㅇ -9860
▁ㅅㅓㅇㅂㅜㄱㄱㅜ -9861
ㄴㅛㄹ -9862
ater -9863
▁ㅂㅏㄱㅌㅐ -9864
▁ㅋㅏㅁㅍㅗ -9865
▁ㅅㅡㅇㅅㅓㄴ -9866
▁ㅎㅡㄱㅅㅐㄱ -9867
▁Int -9868
ㅇㅝㄹㄷㅡ -9869
ㅈㅔㄹㄹㅣ -9870
ㅌㅓㄴㅅㅡ -9871
▁ㅂㅗㄴㅊㅗ -9872
▁ㅈㅣㄴㄱㅜ -9873
▁ㅌㅏㄹㅍㅣ -9874
▁ㅁㅕㅇㅈㅏㅇ -9875
▁ㅅㅣㄹㅅㅏㅇ -9876
▁ㅇㅠㄴㄱㅘㄱ -9877
▁ㅇㅣㄴㅅㅏㄴㅎㅘ -9878
▁ㅍㅡㄹㄹㅏㅇㄷㅡ -9879
ons -9880
▁ㄴㅏㅁㅍㅗ -9881
ㄷㅔㄹㄹㅣㅇ -9882
▁ㅇㅣㅂㅎㅕㅆ -9883
▁ㅈㅓㅇㅈㅣㄱ -9884
▁ㅈㅣㄱㅎㅏㄹㅅㅣ -9885
▁ㄱㅓㄴㄴㅓㄹㅁㅗㄱ -9886
▁ㅂㅑ -9887
ㅅㅠㅇ -9888
▁WHO -9889
▁1858 -9890
▁ㅁㅕㄴㅎㅏ -9891
▁ㅈㅓㅇㄱㅘ -9892
▁ㅈㅣㄱㄹㅠ -9893
▁ㅊㅣㄴㅎㅣ -9894
ㄱㅡㅁㅅㅗㄱ -9895
▁ㄱㅕㅇㅅㅏㄴ -9896
▁ㅈㅣㄱㄱㅏㄱ -9897
▁ㅎㅡㅂㅇㅣㅂ -9898
▁ㅎㅕㄱㅁㅕㅇㄱㅏ -9899
ㄱㅐㅇㅇㅣ -9900
ㅈㅡㅇㄱㅣ -9901
▁ㅁㅕㅇㅈㅜ -9902
▁ㅇㅟㄴㅅㅡ -9903
▁ㅈㅡㅇㅈㅣㄱ -9904
▁ㅊㅗㅇㅅㅐㅇㅅㅏㄴ -9905
yle -9906
▁Dis -9907
ㄹㅏㄹㄷㅡ -9908
ㄹㅑㅇㄱㅣ -9909
ㅅㅏㄹㅂㅏ -9910
▁ㅈㅡㅇㄹㅠ -9911
▁ㅊㅓㄴㅈㅓㄱ -9912
▁ㅂㅜㄴㅎㅗㅇㅅㅐㄱ -9913
ㅊㅞ -9914
▁Way -9915
▁ㅇㅏㅁㅊㅗ -9916
▁ㅈㅏㄱㅇㅏ -9917
▁ㅎㅘㅇㅎㅏ -9918
ㅈㅣㄹㄹㅑㅇ -9919
▁ㅂㅐㄹㄹㅓㄴ -9920
▁ㅂㅕㄴㅎㅐㅆ -9921
▁ㅇㅟㅅㅁㅕㄴ -9922
▁ㄷㅗㄱㄹㅣㅂㅅㅓㄴㅇㅓㄴ -9923
ㅋㅗㅂ -9924
▁MHz -9925
▁Not -9926
▁War -9927
ㅇㅑㄱㅅㅓ -9928
ㅌㅏㄹㄹㅗ -9929
▁ㅁㅗㄱㅎㅘ -9930
ㅎㅜㄴㄹㅕㄴ -9931
▁ㅇㅏㄴㄱㅓㄴ -9932
▁ㅊㅜㄹㅂㅕㅇ -9933
▁ㅌㅗㅇㅋㅣㅇ -9934
▁ㄴㅗㅇㅁㅣㄴㄱㅜㄴ -9935
TN -9936
ㄷㅝ -9937
ions -9938
▁ㅅㅓㄹㄱㅘ -9939
▁ㅇㅏㄴㅈㅐ -9940
▁ㅇㅣㅁㅎㅐ -9941
▁ㅌㅐㄱㅎㅏ -9942
▁ㄱㅠㄴㅇㅕㄹ -9943
▁ㄴㅏㅁㄱㅜㅇ -9944
▁ㅂㅗㅇㅎㅓㄴ -9945
▁ㅊㅐㄱㅈㅓㅇ -9946
▁ㅊㅓㅅㄴㅏㄹ -9947
▁ㅊㅜㄴㅎㅑㅇ -9948
▁ㅇㅣㄱㅅㅏㄴㅅㅣ -9949
▁ㅇㅣㄹㅈㅣㄴㅎㅚ -9950
att -9951
▁kW -9952
▁ㅇㅛㄴ -9953
▁High -9954
ㄱㅡㄱㄱㅣ -9955
ㅂㅏㄴㅂㅜ -9956
▁ㄱㅜㅇㄴㅐ -9957
▁ㄴㅡㅇㅎㅏ -9958
▁ㅎㅏㄱㄷㅗ -9959
▁ㄱㅣㅍㅅㅜㄱ -9960
▁ㅂㅔㄹㅂㅔㅅ -9961
▁ㅈㅓㅇㅁㅗㅇㅈㅜ -9962
▁ㅂㅜㄹㅂㅓㅂㅎㅐㅇㅇㅟ -9963
▁MPEG -9964
ㄹㅔㄴㅊㅗ -9965
ㅈㅓㅇㄱㅠ -9966
▁ㄱㅏㅇㄱㅜ -9967
▁ㄱㅗㅇㅂㅗ -9968
ㄷㅡㄱㅈㅓㅁ -9969
ㅅㅣㄹㅎㅓㅁ -9970
▁ㄱㅘㅇㄷㅗㅇ -9971
▁ㅌㅏㄴㄹㅕㄱ -9972
ret -9973
▁PH -9974
▁238 -9975
▁USA -9976
▁1300 -9977
ㄹㅣㅇㅅㅡ -9978
ㅎㅐㅇㅎㅣ -9979
▁ㄱㅏㅇㅈㅏ -9980
▁ㅊㅏㅇㅅㅔ -9981
ㄱㅗㅇㅇㅝㄴ -9982
▁ㄱㅣㅁㅅㅓㄱ -9983
▁ㅎㅕㅇㄱㅘㅇ -9984
▁TBC -9985
▁ㅋㅔㅅ -9986
ㅇㅜㄴㅌㅓ -9987
▁ㅂㅕㄴㅈㅜ -9988
▁ㅅㅓㄴㄷㅔ -9989
▁ㅅㅔㄹㄹㅓ -9990
ㄹㅓㅁㅍㅔㅅ -9991
▁ㄱㅕㄱㅊㅣㅁ -9992
▁ㄱㅜㄴㄹㅣㅁ -9993
▁ㄱㅣㅂㅅㅡㄴ -9994
▁ㄲㅡㅁㅉㅣㄱ -9995
▁ㅈㅓㄴㅈㅣㅂ -9996
▁ㅈㅗㅇㄷㅏㄴ -9997
▁ㅍㅕㅇㅅㅏㅇㅅㅣ -9998
26 -9999
▁ㄱㅕㅇㄱㅜ -10000
▁ㄱㅗㅇㅈㅣ -10001
▁ㄱㅡㅁㄹㅣ -10002
▁ㅅㅏㅇㅌㅜ -10003
▁ㅇㅑㅇㅊㅣ -10004
ㅅㅡㄹㄹㅗㄴ -10005
ㅇㅡㅁㅅㅗㄱ -10006
▁ㄷㅗㅇㄹㅠㄹ -10007
▁ㅈㅏㅇㅈㅜㄴ -10008
▁ㅈㅓㅇㅇㅣㄹ -10009
ㅂㅓㅂㅇㅕㄴㅎㅘ -10010
▁ㅍㅕㅇㅌㅐㄱㅅㅣ -10011
▁Of -10012
▁ㄷㅜㄱ -10013
▁What -10014
ㄷㅏㄹㄹㅕ -10015
ㄷㅓㄴㅅㅡ -10016
ㅋㅓㄴㄷㅡ -10017
ㅅㅓㅇㄷㅗㅇ -10018
▁ㄷㅓㄴㅈㅓㄴ -10019
▁ㅁㅕㄴㅇㅡㄴ -10020
▁ㅈㅓㅇㄱㅗㅇ -10021
▁ㅎㅗㅇㅊㅓㄴ -10022
▁ㅇㅣㄴㅁㅜㄴㅎㅏㄱ -10023
UI -10024
▁1820 -10025
▁ㅅㅐㅇㅍㅗ -10026
▁ㅇㅣㄹㄹㅏ -10027
▁ㅎㅐㄹㄹㅣ -10028
▁ㄱㅜㄴㄹㅑㅇ -10029
▁ㅂㅜㄹㄱㅣㄹ -10030
▁ㅎㅐㅇㅎㅏㄴ -10031
▁ㅎㅏㄴㅈㅓㅇㅍㅏㄴ -10032
IO -10033
ㅊㅠ -10034
ley -10035
▁NL -10036
▁time -10037
▁ㄱㅣㅁㅅㅔ -10038
▁ㅁㅣㄴㄱㅏ -10039
▁ㅇㅓㄹㅅㅡ -10040
▁ㅎㅘㄴㄱㅣ -10041
▁ㄱㅘㅇㅌㅐㄱ -10042
▁ㄷㅓㅇㄱㅜㄹ -10043
▁ㅈㅓㅇㅎㅕㄴ -10044
▁ㅂㅏㄹㄹㅔㄴㅌㅣ -10045
▁ㅎㅔㄹㅅㅣㅇㅋㅣ -10046
▁ㅅㅏㄴㅇㅓㅂㄷㅏㄴㅈㅣ -10047
ㄹㅏㅅ -10048
ㄹㅐㄴㅈㅣ -10049
ㅇㅛㅇㅎㅣ -10050
▁COVID -10051
▁ㄷㅗㅇㅌㅣ -10052
▁ㅂㅏㄹㄷㅔ -10053
▁ㄷㅏㅇㅈㅏㅇ -10054
▁ㅎㅏㅂㅊㅓㄴㄱㅜㄴ -10055
ger -10056
▁BB -10057
▁With -10058
ㄱㅏㄴㅈㅜ -10059
▁ㄴㅏㅁㅌㅐ -10060
▁ㄷㅏㄹㅁㅏ -10061
▁ㅂㅏㄴㅇㅑ -10062
▁ㅎㅏㄴㄱㅏ -10063
▁ㄱㅕㄱㅅㅏㅇ -10064
▁ㅇㅝㄴㅅㅜㄹ -10065
▁ㅊㅜㄹㅎㅏㅇ -10066
▁ㅋㅔㄹㅂㅣㄴ -10067
▁MR -10068
ㅆㅏㄹ -10069
▁ㅃㅜㅁ -10070
▁Blue -10071
▁ㄱㅏㅂㅇㅗ -10072
▁ㅇㅏㄱㅇㅢ -10073
▁ㅇㅣㄴㄴㅗ -10074
▁ㅈㅓㅇㅇㅕ -10075
▁ㅍㅏㄴㄷㅏ -10076
▁ㅎㅣㅁㅆㅡ -10077
ㄱㅏㄱㅅㅓㄴ -10078
▁ㅈㅏㅇㅌㅐㄱ -10079
▁ㅎㅗㅂㅋㅣㄴㅅㅡ -10080
ye -10081
▁480 -10082
ㅎㅏㅇㅎㅐ -10083
ㅅㅏㅁㅊㅗㄴ -10084
▁ㅁㅏㄴㅁㅜㄹ -10085
▁ㅅㅐㅇㅈㅏㅇ -10086
▁ㅇㅝㄴㅅㅐㅇ -10087
enc -10088
▁EN -10089
▁290 -10090
▁ㅋㅗㅅ -10091
▁1814 -10092
ㄹㅗㄹㄹㅜ -10093
▁ㅅㅓㅇㅂㅜ -10094
▁ㅇㅠㅇㄱㅣ -10095
ㄷㅏㄹㅇㅡㅁ -10096
ㅇㅑㄱㅈㅓㅁ -10097
▁ㄱㅏㅇㅎㅐㅆ -10098
▁ㅅㅜㄹㅈㅣㅂ -10099
▁ㅊㅓㅇㅈㅜㅇ -10100
▁ㄱㅡㅂㅅㅗㄱㄷㅗ -10101
▁ㅂㅜㄱㅂㅏㄴㄱㅜ -10102
▁ㅊㅓㄴㅇㅕㄴㄱㅏ -10103
▁ㄱㅜㄱㅁㅜㄴㅎㅏㄱ -10104
ㅁㅜㄴㄱㅗ -10105
▁ㄱㅗㄹㅅㅜ -10106
▁ㅁㅗㄴㅌㅐ -10107
▁ㅂㅜㄹㄱㅓ -10108
▁ㅅㅓㄴㅅㅓ -10109
▁ㅇㅕㄱㅁㅜ -10110
▁ㅇㅕㅇㅈㅐ -10111
▁ㅌㅡㄱㅇㅟ -10112
▁ㅍㅐㄹㄹㅣ -10113
▁ㅍㅜㅇㅅㅜ -10114
▁ㄱㅕㄹㄹㅕㄹ -10115
▁ㄷㅡㄱㅅㅣㄹ -10116
▁ㅁㅕㅇㅈㅜㅇ -10117
▁ㅂㅏㄱㄷㅗㅇ -10118
▁ㅇㅛㅇㅈㅓㅂ -10119
▁ㅎㅏㅂㅅㅏㄴ -10120
▁ㄴㅏㅁㅂㅏㄴㄱㅜ -10121
▁COM -10122
▁ㅅㅣㄴㅇㅣ -10123
▁ㅇㅞㄹㅅㅡ -10124
▁ㅊㅗㅇㅅㅜ -10125
▁ㅎㅏㄴㄲㅓ -10126
▁ㅇㅡㅁㅇㅕㄱ -10127
▁ㅋㅗㄴㅅㅔㅂ -10128
▁MLB -10129
▁1795 -10130
ㅇㅔㄹㄹㅔ -10131
ㅊㅜㄹㅅㅗ -10132
▁ㄹㅗㄹㅍㅡㄹㄹㅔ -10133
▁ㅊㅏㅇㅇㅓㅂㅈㅏ -10134
▁ㅌㅗㅇㅅㅣㄴㅂㅜ -10135
28 -10136
ㅅㅣㄴㄷㅗ -10137
ㅇㅑㅇㅈㅣ -10138
ㅇㅜㄹㅊㅓㄹ -10139
ㅌㅏㅁㅈㅓㅇ -10140
▁ㄱㅜㄴㄹㅏㄱ -10141
▁ㅎㅔㄹㄹㅔㄴ -10142
▁ㅇㅕㄴㅅㅡㅂㅅㅐㅇ -10143
ㅈㅓㄴㅈㅜ -10144
ING -10145
▁Di -10146
ㅋㅜㄴ -10147
▁850 -10148
▁Art -10149
▁1846 -10150
ㅇㅛㅇㄱㅣ -10151
▁ㅂㅏㄹㅊㅞ -10152
▁ㅍㅗㄱㅈㅜ -10153
▁ㅂㅕㄴㅎㅏㄴ -10154
OVE -10155
der -10156
▁ㄷㅗㅅㅌㅗ -10157
▁ㅈㅏㅇㅊㅏ -10158
▁ㅊㅏㅇㄷㅓㄱㄱㅜㅇ -10159
alk -10160
ㄷㅗㄱㅈㅏ -10161
ㅂㅏㄴㅌㅡ -10162
▁ㄱㅡㅂㅅㅏ -10163
▁ㅅㅡㄹㅍㅓ -10164
▁ㅇㅕㅇㅇㅟ -10165
ㅎㅏㄱㅅㅏㄹ -10166
▁ㅅㅏㅇㅈㅏㄱ -10167
▁ㅅㅜㅇㅅㅣㄹ -10168
▁ㅈㅗㄴㅅㅏㅇ -10169
ㄹㅓㅂㅇㅕㄴㅎㅏㅂ -10170
▁ㅅㅏㄴㄷㅜㅇㅅㅓㅇ -10171
ump -10172
ough -10173
▁214 -10174
▁737 -10175
ㅃㅏㄹㄹㅣ -10176
ㅅㅓㅆㅇㅡ -10177
▁ㄷㅏㄴㅅㅏ -10178
▁ㅂㅓㅅㄱㅕ -10179
ㅅㅡㅇㅋㅓㅂ -10180
▁ㄹㅐㄴㄷㅓㅁ -10181
▁ㅅㅣㄴㄱㅘㄴ -10182
▁ㅊㅗㅇㅅㅏㄹ -10183
▁ㅊㅜㅇㄹㅕㄹㅇㅘㅇ -10184
23 -10185
ㄴㅏㅈ -10186
ㄹㅗㄴㅎㅚ -10187
ㅂㅗㄹㄹㅏ -10188
ㅇㅣㄴㅈㅏ -10189
▁ㅇㅓㄹㅌㅓ -10190
ㄱㅓㄴㅈㅓㄱ -10191
ㅈㅓㄱㅂㅜㄴ -10192
ㅊㅜㄹㅇㅐㄱ -10193
▁ㄱㅗㅇㄷㅓㄱ -10194
▁ㅅㅗㄹㅈㅣㄱ -10195
▁ㅊㅗㄴㅇㅡㄴ -10196
▁'. -10197
ㅌㅠㄴ -10198
▁ㅆㅏㅎㅇㅕ -10199
▁ㅍㅐㄴㅇㅏ -10200
▁ㅇㅣㅂㅊㅜㄹㄹㅕㄱ -10201
▁ㅈㅜㅇㅅㅣㅁㅎㅐㄱ -10202
▁BR -10203
ㅋㅏㄴㅅㅗ -10204
▁ㄹㅐㄴㄷㅣ -10205
▁ㅁㅣㄹㅅㅡ -10206
▁ㅅㅣㄴㄱㅜ -10207
▁ㅅㅣㄹㅋㅡ -10208
ㅂㅏㄴㅈㅓㄴ -10209
ㅇㅜㄹㅇㅕㅆ -10210
▁ㅂㅏㄱㅇㅣㄴ -10211
▁ㅂㅗㄴㄷㅏㅇ -10212
ㅈㅣㄱㅎㅏㄹㅅㅣ -10213
▁ㅎㅏㄱㅅㅐㅇㅎㅚ -10214
▁ㅎㅕㄱㅁㅕㅇㄱㅜㄴ -10215
▁"' -10216
▁Vf -10217
ㄸㅏㄴ -10218
▁ㅇㅑㄹ -10219
▁ㅅㅗㄴㅊㅐㄱ -10220
▁ㅇㅏㄹㄹㅔㄴ -10221
▁ㄱㅗㅇㅎㅐ -10222
▁ㄱㅘㅇㅅㅓ -10223
▁ㅇㅕㄱㅁㅗ -10224
▁ㅋㅣㄹㄹㅣ -10225
▁ㄱㅏㄴㅇㅕㅁ -10226
▁ㄴㅏㅂㅍㅜㅁ -10227
▁ㅁㅔㄹㄹㅗㄴ -10228
▁Rev -10229
ㄹㅓㅆㅇㅡ -10230
ㅎㅐㅇㄷㅐ -10231
▁ㄱㅏㄴㄷㅣ -10232
▁ㄱㅜㄴㅂㅣ -10233
▁ㅅㅏㄹㅍㅣ -10234
▁ㅇㅣㄴㄷㅐ -10235
▁ㅈㅏㅇㅈㅗ -10236
▁ㅍㅔㄴㅅㅡ -10237
▁ㅎㅗㄴㅁㅏ -10238
▁ㅈㅣㄱㅎㅏㅁ -10239
▁ㅎㅐㄱㅍㅗㄱㅌㅏㄴ -10240
▁ME -10241
ㅎㅓㅁㅈㅏ -10242
▁ㄱㅏㅁㄱㅣ -10243
▁ㄱㅕㄱㅎㅘ -10244
▁ㄷㅡㅇㄷㅐ -10245
▁ㅊㅓㅁㅂㅜ -10246
▁ㅍㅐㄱㅌㅗ -10247
ㅇㅝㄴㅎㅕㅇ -10248
▁ㄱㅕㄹㅅㅣㄹ -10249
▁ㅂㅜㄴㄷㅏㅁ -10250
▁ㅇㅑㄱㅎㅏㄱ -10251
▁ㅇㅑㅇㅂㅜㄴ -10252
▁ㅈㅗㅇㅊㅣㄴ -10253
ㄱㅏㄱㅊㅗㅇㄹㅣ -10254
▁ㄱㅘㄴㅊㅏㄹㅈㅏ -10255
▁ㅈㅓㅇㅎㅘㄱㄷㅗ -10256
▁ㅇㅝㄴㅈㅓㅇㄱㅜㄴ -10257
HD -10258
ㅇㅑㄱㅅㅡ -10259
ㅍㅐㅇㅇㅣ -10260
▁ㅇㅟㄴㄷㅡ -10261
ㄱㅐㄱㅅㅓㄴ -10262
▁ㄷㅏㅇㅁㅕㅇ -10263
▁ㅅㅜㄴㅈㅓㅇ -10264
▁ㅊㅓㄴㅈㅓㅇ -10265
▁ㅊㅓㅇㅎㅐㅆ -10266
▁ㅈㅓㄱㅈㅓㄹㅎㅣ -10267
▁ㅅㅓㄴㅇㅓㄴㅁㅜㄴ -10268
▁ㅈㅘㅇ -10269
▁ㄱㅜㄱㄱㅘ -10270
▁ㄱㅜㄷㅇㅣ -10271
ㅈㅣㄴㅅㅣㄹ -10272
▁ㅁㅏㄹㄹㅣㄴ -10273
▁ㅁㅏㅅㅇㅣㅆ -10274
▁ㅇㅝㄹㅂㅜㄱ -10275
▁ㅈㅏㅇㅎㅏㅇ -10276
que -10277
atch -10278
▁Min -10279
▁ㅂㅜㄴㄷㅐ -10280
▁ㅅㅏㄴㄷㅗㅇ -10281
▁ㅇㅣㄴㅅㅣㄴ -10282
▁ㅊㅗㅇㅇㅐㄱ -10283
▁ㅎㅕㄴㅊㅜㅇ -10284
▁ㅂㅜㄱㄱㅡㄱㅎㅐ -10285
▁ED -10286
ㄷㅏㄹㄹㅜ -10287
ㅈㅏㅇㄱㅗ -10288
ㅌㅏㅇㅅㅜ -10289
▁ㄱㅕㄹㅌㅜ -10290
▁ㄹㅗㄹㄹㅣ -10291
▁ㅇㅕㄴㅇㅠ -10292
ㅁㅜㄹㄹㅗㄴ -10293
▁ㅂㅏㄱㅅㅡㅇ -10294
▁ㅈㅓㄴㄹㅏㄴ -10295
▁Mic -10296
▁ㄱㅕㄹㄷㅏㄴ -10297
ㅁㅏㅌ -10298
▁ㄱㅠㄹ -10299
ㅂㅗㄱㅈㅣ -10300
ㅎㅐㅇㅇㅓ -10301
▁ㅅㅗㄹㅌㅡ -10302
▁ㅎㅏㄴㅅㅓ -10303
ㅇㅑㄱㄱㅡㅁ -10304
▁ㄱㅏㄱㄱㅘㅇ -10305
▁ㄷㅗㄱㅅㅣㄹ -10306
▁ㅂㅓㅁㅇㅛㅇ -10307
▁ㅇㅠㄱㅂㅏㄱ -10308
▁ㅇㅠㄹㄹㅕㅇ -10309
▁ㄱㅓㄴㄱㅜㄱㄷㅐ -10310
ery -10311
▁TG -10312
cess -10313
▁1851 -10314
ㅂㅐㄴㅅㅡ -10315
▁ㄱㅜㄱㅈㅣ -10316
▁ㅁㅏㅇㄹㅜ -10317
▁ㅂㅏㄱㄱㅣ -10318
▁ㅌㅡㄱㅎㅖ -10319
▁ㅍㅏㄹㅈㅏ -10320
▁ㅅㅓㅇㅁㅕㅇㅅㅓ -10321
▁301 -10322
▁LCD -10323
▁ㅊㅗㅁ -10324
ㅂㅗㅇㅅㅏ -10325
ㅅㅓㅇㄹㅣ -10326
▁ㅂㅏㅇㅈㅗ -10327
▁ㅂㅜㄱㅎㅐ -10328
▁ㅅㅓㄴㅈㅣ -10329
▁ㅎㅏㅁㅇㅢ -10330
▁ㄱㅏㄴㅈㅏㅇ -10331
▁ㄱㅏㅂㄱㅏㄱ -10332
▁ㅈㅓㅇㅂㅕㅇ -10333
▁RA -10334
▁1854 -10335
▁1856 -10336
ㄹㅐㅇㅍㅣ -10337
▁ㅇㅐㄹㅍㅡ -10338
▁ㅇㅕㅇㅎㅐ -10339
▁ㄴㅗㄴㅅㅓㄹ -10340
▁ㅂㅡㄹㄹㅏㅇ -10341
▁ㅇㅗㄹㄹㅐㅇㅍㅣ -10342
▁ㅅㅣㄱㅁㅜㄹㅇㅝㄴ -10343
86 -10344
▁XML -10345
▁ㄷㅗㄱㅅㅗ -10346
▁ㅇㅣㅁㅂㅔ -10347
▁ㅈㅓㅇㅅㅣ -10348
▁ㅊㅓㄴㄱㅜ -10349
▁ㅊㅜㅇㄱㅗ -10350
ㄴㅕㅁㅅㅣㄱ -10351
▁ㅂㅗㄹㄹㅠㅁ -10352
▁ㅇㅡㅁㄱㅕㅇ -10353
▁ㅊㅓㄹㅇㅝㄴ -10354
▁ㅎㅕㄴㄹㅕㅇ -10355
▁ㄱㅏㅂㅅㅣㄴㅈㅓㅇㅂㅕㄴ -10356
▁CL -10357
▁1793 -10358
ㅎㅡㅇㅅㅏ -10359
▁ㅌㅡㅁㅌㅏ -10360
▁ㅍㅗㄴㅌㅡ -10361
▁ㅍㅣㅇㄱㅖ -10362
▁ㄷㅓㄴㅈㅣㄴ -10363
▁ㅅㅣㄴㅈㅏㄱ -10364
▁ㅇㅕㄹㄹㅕㅆㅇㅡ -10365
▁IA -10366
▁ㅁㅝㄴ -10367
▁1849 -10368
▁Free -10369
▁ㄴㅏㄱㅌㅐ -10370
▁ㅅㅣㄹㄹㅏ -10371
▁ㅇㅝㄴㅈㅔ -10372
▁ㅅㅓㅇㄱㅏㄴ -10373
▁ㅎㅏㄱㄱㅡㅂ -10374
▁ㅇㅏㄴㅈㅜㅇㄱㅡㄴ -10375
▁211 -10376
▁223 -10377
▁ㄲㅣㄴ -10378
▁1839 -10379
ㄷㅡㄹㄹㅓ -10380
▁ㅅㅓㄹㅅㅏ -10381
▁ㅇㅓㄱㅈㅣ -10382
▁ㅌㅡㄹㄹㅣ -10383
▁ㄴㅏㄱㅇㅕㅂ -10384
▁ㅂㅗㄴㅈㅣㄴ -10385
▁ㅇㅓㄴㅈㅔㄴ -10386
▁ㅎㅐㄴㄷㅡㄹ -10387
▁ㅇㅕㅇㅅㅏㄴㅎㅚ -10388
▁ㅈㅜㅇㅇㅏㅇㅈㅓㅇㅂㅗ -10389
ont -10390
▁UR -10391
▁ne -10392
▁430 -10393
ㅅㅗㄴㅈㅏ -10394
▁ㄱㅘㄴㄷㅐ -10395
▁ㅇㅠㄱㅇㅏ -10396
ㅇㅣㄴㅇㅕㄱ -10397
▁ㅂㅗㄴㄴㅡㅇ -10398
▁ㅅㅓㅇㅊㅏㄴ -10399
▁ㅅㅣㅁㄱㅡㄴ -10400
▁ㅎㅕㄴㅊㅓㅇ -10401
ㅇㅛㅇㄷㅗㄹㅇㅣ -10402
▁ㅇㅓㅇㄷㅓㅇㅇㅣ -10403
ㄱㅗㅈ -10404
▁Beat -10405
ㄹㅓㅇㅇㅣ -10406
ㅅㅓㄹㅈㅏ -10407
▁ㄱㅜㄴㅁㅜ -10408
▁ㅁㅕㅇㅈㅣ -10409
▁ㅇㅣㄴㅍㅣ -10410
▁ㅈㅣㄹㄹㅔ -10411
▁ㅍㅓㄴㅊㅣ -10412
ㅇㅕㄹㅅㅓㅇ -10413
ㅇㅠㄱㅅㅣㄴ -10414
▁ㅁㅏㄴㄱㅜㄱ -10415
▁ㅈㅓㅇㄱㅏㅇ -10416
▁ㅈㅡㅇㅇㅝㄴ -10417
▁ㄴㅗㅇㅈㅏㄱㅁㅜㄹ -10418
27 -10419
29 -10420
▁FR -10421
▁ㅇㅟㅁ -10422
ㄹㅕㄱㅈㅏ -10423
▁ㅋㅐㅇㄱㅓ -10424
▁ㄱㅗㅇㅍㅕㅇ -10425
▁ㅁㅗㅁㅈㅣㅂ -10426
▁ㅂㅏㄱㅈㅜㄴ -10427
▁ㅅㅗㄴㅅㅟㅂ -10428
▁ㅇㅕㄹㅂㅏㄴ -10429
▁ㅇㅜㅇㅈㅣㄴ -10430
▁ㅎㅏㄱㅊㅏㅇ -10431
▁ㅎㅗㄴㄷㅗㄴ -10432
▁ㅎㅙ -10433
▁ㄷㅗㅊ -10434
▁ㅊㅜㄹㄹㅜ -10435
▁ㅌㅐㄱㅈㅣ -10436
▁ㅇㅕㄴㅇㅣㅁ -10437
▁ㅇㅡㅁㅇㅑㅇ -10438
▁ㅊㅓㅇㄱㅜㄴ -10439
ㅅㅓㅇㄴㅕㄴㅈㅏ -10440
▁ㅇㅓㅍ -10441
▁1855 -10442
ㄹㅔㄴㅊㅣ -10443
▁ㄷㅏㅁㅎㅘ -10444
▁ㄷㅡㄹㄹㅓ -10445
▁ㅅㅣㄹㅊㅐㄱ -10446
▁ㅇㅠㄴㅇㅕㅇ -10447
▁ㅇㅜㅁㅈㅣㄱㅇㅕ -10448
ma -10449
▁ㄹㅔㅇ -10450
ㅈㅜㄴㅇㅓ -10451
▁begin -10452
▁ㄴㅏㅁㄹㅗ -10453
▁ㅈㅜㄴㅎㅏ -10454
▁ㅇㅣㄴㅊㅜㄹ -10455
▁ㅊㅏㄱㅎㅏㄴ -10456
▁ㅊㅏㄴㅌㅏㄹ -10457
▁ㅈㅣㄴㅈㅓㅇㅎㅏㄴ -10458
▁MW -10459
ㅂㅓㅅ -10460
▁419 -10461
▁Med -10462
ㅇㅑㅇㅅㅜ -10463
▁ㄱㅓㄹㅊㅣ -10464
▁ㄷㅗㅇㄱㅗ -10465
ㅅㅣㄴㄱㅏㅁ -10466
ㅈㅏㅇㄱㅏㄱ -10467
▁ㅂㅓㅈㄲㅗㅊ -10468
▁ㅅㅣㅁㅅㅡㄴ -10469
▁ㅇㅗㄱㅅㅏㅇ -10470
▁ㅈㅣㄴㅇㅏㄴ -10471
▁ㅌㅣㅁㅈㅏㅇ -10472
▁ㅎㅏㄹㅇㅑㅇ -10473
▁Top -10474
ㅎㅡㅇㅅㅣ -10475
▁ㄱㅕㄴㅈㅣ -10476
▁ㅂㅏㄴㄹㅕ -10477
▁ㅂㅗㄴㄷㅣ -10478
▁ㅅㅓㄴㅎㅚ -10479
ㅂㅜㄱㅉㅗㄱ -10480
ㅇㅏㅅㄱㅕㅆ -10481
▁ㅁㅏㄴㅇㅕㄴ -10482
▁ㅂㅗㅇㅈㅏㄱ -10483
▁ㄹㅓㄹ -10484
▁ㅂㅔㄴㅍㅣ -10485
▁ㅅㅗㄴㅂㅏ -10486
▁ㅈㅓㄱㅈㅐ -10487
▁ㅌㅡㄱㄹㅖ -10488
ㅅㅏㅇㅎㅕㄴ -10489
ㅈㅓㄴㅈㅐㅇ -10490
▁ㄱㅜㄴㅈㅣㅂ -10491
▁ㅁㅣㄴㄱㅝㄴ -10492
▁ㅇㅠㄹㄱㅗㄱ -10493
▁ㄴㅓㄱ -10494
▁void -10495
ㅌㅐㄴㅍㅓ -10496
ㅎㅏㄴㄷㅗ -10497
▁10000 -10498
▁ㅅㅏㅇㅊㅔ -10499
▁ㅅㅣㄹㅌㅐ -10500
▁ㅈㅗㅇㅈㅜ -10501
▁ㅎㅟㄹㅊㅔ -10502
▁ㅂㅕㄴㅂㅏㅇ -10503
▁ㅈㅓㄴㅇㅐㄱ -10504
▁ㅈㅗㅇㅌㅐㄱ -10505
▁ㅂㅕㅇㅇㅝㄴㅊㅔ -10506
▁HK -10507
▁ㄲㅏㅇ -10508
ㄹㅏㄹㄹㅏ -10509
▁ㅁㅏㄴㄹㅣ -10510
▁ㅅㅏㄴㅂㅜ -10511
▁ㄱㅕㄹㅈㅣㅂ -10512
▁ㄱㅣㅁㅁㅜㄴ -10513
▁ㄴㅏㄱㄹㅏㅇ -10514
▁ㄷㅏㅇㅂㅜㄴ -10515
ㅁㅟ -10516
aff -10517
day -10518
▁Po -10519
▁set -10520
ㅇㅕㄴㅇㅢ -10521
▁ㄱㅕㅇㅊㅣ -10522
▁ㄱㅗㅇㄴㅕ -10523
▁ㅇㅓㄱㄹㅠ -10524
▁ㅂㅜㄱㅅㅏㅇ -10525
▁ㅅㅏㄹㄹㅣㅁ -10526
▁ㅈㅏㅇㅌㅐㄱㅅㅏㅇ -10527
▁KC -10528
ㅅㅗㅁ -10529
▁1857 -10530
ㄹㅏㄴㄷㅔ -10531
ㅅㅏㄹㄹㅣ -10532
ㅈㅏㅇㅅㅓㅇ -10533
▁ㅁㅜㄴㅅㅓㅇ -10534
▁ㅂㅜㄴㅇㅑㅇ -10535
▁ㅅㅡㅇㅈㅓㄴ -10536
▁ㅊㅣㄴㅁㅗㄱ -10537
▁ㅍㅕㅇㄴㅕㄴ -10538
▁ㅎㅐㄱㅅㅣㄹㅎㅓㅁ -10539
ㄸㅡㄴ -10540
irst -10541
ㄲㅜㄴㄷㅏ -10542
ㅅㅗㅇㄱㅣ -10543
▁ㄴㅏㄱㅌㅏ -10544
▁ㅂㅜㄴㅅㅙ -10545
▁ㅊㅏㅁㅂㅐ -10546
▁ㅂㅕㄱㅁㅕㄴ -10547
▁ㅈㅏㅇㄹㅕㅇ -10548
ㅍㅕㅇㅊㅓㄴㄱㅜㄱ -10549
ㄹㅏㅁㅅㅡ -10550
ㅇㅕㅇㅅㅜ -10551
ㅈㅏㄱㅅㅗ -10552
▁ㅎㅓㄹㄹㅣ -10553
▁ㄱㅕㄴㅅㅡㅂ -10554
▁ㄷㅓㅅㅅㅔㅁ -10555
▁ㅅㅓㄱㅅㅏㅇ -10556
▁ㅇㅕㄹㅍㅜㅇ -10557
ㅇㅣㄹㅅㅣㄴㅂㅗ -10558
ㅎㅏㄱㅅㅐㅇㅎㅚ -10559
▁ㄱㅏㅁㅇㅕㅁㅈㅏ -10560
▁ㄱㅗㅇㅈㅣㄱㅈㅏ -10561
BT -10562
▁Bro -10563
▁ㄱㅓㄹㄹㅗ -10564
▁ㅁㅗㄱㄷㅗ -10565
▁ㅇㅑㄱㅈㅔ -10566
ㄱㅘㅇㅅㅓㄴ -10567
ㅈㅣㄴㅂㅓㅂ -10568
▁ㄸㅏㅇㅋㅗㅇ -10569
aut -10570
▁End -10571
ㅂㅗㄹㅌㅡ -10572
▁ㅁㅏㄴㄱㅣ -10573
ㅇㅜㄴㅈㅓㄴ -10574
▁ㄷㅗㄱㄱㅏㅁ -10575
▁ㅅㅏㄴㅂㅜㄹ -10576
▁ㅊㅏㄱㅇㅏㄴ -10577
▁ㅌㅗㄹㅋㅣㄴ -10578
▁ㄴㅗㄴㅅㅏㄴㅅㅣ -10579
ㅅㅓㅇㅇㅐ -10580
ㅇㅣㄴㅅㅜ -10581
ㅊㅏㄹㄱㅣ -10582
▁ㄱㅕㅇㅅㅜ -10583
▁ㄱㅜㄻㅈㅜ -10584
▁ㄹㅣㄴㄷㅡ -10585
▁ㅊㅓㅇㅎㅘ -10586
▁ㅍㅜㄹㅇㅓ -10587
▁ㅎㅕㅇㅁㅜ -10588
▁ㄷㅓㅁㅂㅜㄹ -10589
▁ㅇㅕㄹㅁㅏㅇ -10590
▁ㅎㅏㅁㅇㅏㄴ -10591
▁ㄷㅗㅇㅂㅜㄱㅉㅗㄱ -10592
▁DL -10593
▁TN -10594
▁Big -10595
▁FBI -10596
▁NAD -10597
ㅇㅔㄴㄴㅏ -10598
▁ㄱㅝㄴㅎㅏ -10599
▁ㅁㅏㄹㅅㅗ -10600
▁ㅂㅔㄴㅈㅓ -10601
▁ㅈㅏㅇㄱㅜ -10602
▁ㅎㅘㅇㅂㅗ -10603
▁ㄱㅓㄹㅁㅏㅈ -10604
▁YM -10605
▁239 -10606
▁ㅈㅟㄴ -10607
▁ㄱㅕㅇㅇㅣ -10608
▁ㅅㅣㄴㄱㅛ -10609
▁ㅅㅣㄹㄹㅗ -10610
▁ㅇㅔㄹㅍㅡ -10611
▁ㅇㅣㄴㅌㅡ -10612
▁ㅇㅣㅈㅎㅕ -10613
▁ㅋㅓㄴㄷㅣ -10614
ㄴㅏㅁㄱㅜㄴ -10615
▁ㄴㅡㄹㄹㅕㅆ -10616
▁ㅁㅣㅌㅁㅕㄴ -10617
▁ㅎㅐㄱㅅㅏㄴ -10618
▁ㅇㅓㄴㅈㅔㄴㄱㅏ -10619
▁ㅈㅡㅇㅁㅕㅇㅅㅓ -10620
ㄷㅗㄱㄹㅣㅂㄷㅏㅇ -10621
▁ㅎㅏㄴㄱㅜㄱㄷㅗㄱㄹㅣㅂㄷㅏㅇ -10622
▁SI -10623
▁215 -10624
▁Will -10625
ㅇㅕㄴㄹㅛ -10626
ㅋㅓㄴㅌㅡ -10627
▁ㅂㅏㄹㅎㅘ -10628
▁ㅂㅗㄴㄱㅣ -10629
▁ㅊㅗㅇㅊㅔ -10630
▁ㄱㅕㅇㅁㅕㄹ -10631
▁ㄱㅕㅇㅅㅐㄱ -10632
▁ㄱㅜㄹㅇㅛㄱ -10633
▁ㅂㅏㄱㄱㅕㄱ -10634
▁ㄲㅗㅊㅂㅏㄷㅊㅣㅁ -10635
▁FN -10636
ㄷㅗㄷ -10637
▁ㄸㅜㅇ -10638
▁ㅅㅐㅇㅅㅏ -10639
▁ㅈㅓㅇㄱㅜ -10640
▁ㅎㅜㅁㅊㅕ -10641
▁ㅂㅏㅂㅅㅏㅇ -10642
▁ㅇㅓㄴㅇㅑㄱ -10643
▁ㅇㅛㄱㅅㅓㄹ -10644
▁ㅊㅜㄹㅅㅐㅇㅈㅣ -10645
its -10646
▁JP -10647
▁do -10648
ㅈㅓㄴㅅㅣ -10649
▁ㅇㅕㄴㅈㅘ -10650
▁ㅇㅘㄹㄹㅏ -10651
▁ㅋㅗㄴㅌㅡ -10652
ㅇㅘㅇㄱㅜㄱ -10653
▁ㄱㅗㄹㅁㅗㄱ -10654
▁ㄱㅣㅁㅎㅏㄴ -10655
▁ㅂㅏㅇㅎㅏㄴ -10656
▁ㅈㅜㅇㅊㅓㅂ -10657
▁ㅈㅣㄱㄱㅝㄴ -10658
BL -10659
vis -10660
ㅅㅐㅇㅇㅏ -10661
▁ㄱㅝㄴㅅㅔ -10662
▁ㅅㅏㅇㅅㅣ -10663
▁ㅅㅔㄴㅅㅡ -10664
ㄴㅏㅁㅉㅗㄱ -10665
▁ㄱㅕㄹㅌㅏㄱ -10666
▁ㅇㅏㅂㅅㅗㅇ -10667
▁ㅇㅝㄴㅅㅓㅇ -10668
▁ㄱㅜㄱㅁㅣㄴㅈㅜ -10669
▁ㅇㅏㄴㅊㅓㄹㅅㅜ -10670
▁ㄱㅣㅁㅈㅗㅇㅍㅣㄹ -10671
▁PP -10672
▁RE -10673
ㅂㅡㄹㄹㅔ -10674
ㅎㅏㅇㅈㅔ -10675
▁ㅅㅗㄱㅆㅣ -10676
▁ㅊㅗㄹㄹㅏ -10677
▁ㅋㅐㄴㅂㅓ -10678
▁ㅈㅗㄴㅇㅓㅁ -10679
▁ㅅㅏㅇㅅㅗㄱㅇㅣㄴ -10680
▁ㅅㅜㅅ -10681
▁ㅋㅡㅁ -10682
ement -10683
▁Rain -10684
ㅈㅣㄴㄱㅣ -10685
▁ㅇㅛㅇㅈㅏ -10686
▁ㅇㅣㅂㅈㅓㄱ -10687
▁ㅈㅏㅁㅂㅗㄱ -10688
▁ㅈㅓㅇㅊㅓㄹ -10689
HS -10690
ㄱㅜㅂ -10691
ㅈㅐㄱ -10692
ㅎㅠㅇ -10693
▁ㅋㅔㅁ -10694
▁1776 -10695
ㄴㅏㄴㅎㅐ -10696
ㅅㅏㄹㄹㅏ -10697
ㅅㅓㅁㅇㅠ -10698
ㅇㅕㄴㄷㅐ -10699
▁ㅍㅣㄴㄷㅏ -10700
ㅇㅝㄴㅂㅕㅇ -10701
▁ㄸㅏㄹㄹㅣㄴ -10702
▁ㅅㅏㄴㅌㅏㄴ -10703
▁ㅍㅣㄱㅅㅕㄴ -10704
ㅈㅡㄹㄹㅐㄴㄷㅡ -10705
▁510 -10706
ㄷㅡㄴㅈㅣ -10707
▁ㄱㅏㄴㅅㅗ -10708
▁ㅇㅣㅍㅈㅏ -10709
▁ㅈㅣㅇㅎㅜ -10710
ㅂㅗㅇㅅㅏㄴ -10711
ㅇㅣㄴㅈㅓㄹ -10712
▁ㄱㅏㅁㅌㅏㄴ -10713
▁ㄷㅗㄹㅍㅣㄴ -10714
▁ㅂㅕㄴㅈㅏㅇ -10715
▁ㅂㅜㄴㅈㅏㅇ -10716
▁ㅇㅕㄱㅎㅐㅇ -10717
▁ㅇㅕㄴㅊㅓㄴ -10718
ㄷㅡㄹㅇㅣㄴㄷㅏ -10719
▁ㅅㅓㅇㄷㅗㅇㄱㅜ -10720
▁ㅇㅔㄹㅅㅏㄹㅂㅏ -10721
▁ㅇㅣㄹㄱㅏㄴㅈㅣ -10722
▁ㅎㅘㅇㄱㅏㄹㅅㅐㄱ -10723
▁ㅋㅟㄴㅈㅡㄹㄹㅐㄴㄷㅡ -10724
▁NK -10725
▁WH -10726
▁es -10727
▁ㅍㅚ -10728
▁Pop -10729
ㅍㅗㄴㄴㅔ -10730
▁ㅁㅜㄴㄱㅛ -10731
▁ㅂㅜㄹㅍㅕㅇ -10732
▁ㅇㅞㄹㄹㅣㅇ -10733
br -10734
oss -10735
▁Des -10736
▁LIVE -10737
ㅇㅜㄴㅌㅏ -10738
▁ㅈㅜㄴㅇㅟ -10739
▁ㅋㅏㄹㄹㅗ -10740
▁ㅍㅡㄹㄹㅚ -10741
ㅊㅓㄴㄴㅕㄴ -10742
▁ㄱㅕㄴㅎㅝㄴ -10743
▁ㄷㅗㄱㄹㅣㅂㄱㅜㄱ -10744
▁BMW -10745
ㅈㅣㄴㅎㅗ -10746
▁ㄱㅡㅁㅎㅘ -10747
▁ㄸㅢㄴㄷㅏ -10748
▁ㅂㅏㄹㅈㅜ -10749
ㅅㅠㄹㄹㅣㄴ -10750
ㅇㅝㄴㄷㅗㅇ -10751
▁ㄱㅡㅁㄱㅘㅇ -10752
▁ㄷㅏㅁㄹㅗㄴ -10753
▁ㅅㅡㅂㅅㅓㅇ -10754
▁ㅆㅏㅇㅂㅏㅇㅇㅜㄹ -10755
▁ㅎㅐㅇㅈㅓㅇㄱㅘㄴ -10756
ㅎㅓㄹ -10757
▁ㄱㅜㄱㅊㅐ -10758
▁ㄱㅡㅂㄱㅣ -10759
▁ㅅㅑㄹㄹㅓ -10760
▁ㅇㅝㄴㄱㅏ -10761
ㅁㅏㄱㅇㅕㅁ -10762
ㅅㅣㄱㅅㅓㅇ -10763
▁ㄷㅗㅇㅂㅗㄱ -10764
▁ㅅㅣㄴㅁㅕㅇ -10765
▁ㅅㅣㄹㅅㅡㅂ -10766
▁ㅇㅜㅇㅈㅏㅇ -10767
▁ㅈㅓㅇㅇㅑㄱ -10768
▁ㅊㅣㄴㅈㅓㄹ -10769
▁ㄷㅗㅇㅁㅕㅇㅇㅣ -10770
oup -10771
ㅉㅐㅆ -10772
▁ㄲㅗㅁ -10773
▁ㅁㅜㄴㅈㅣ -10774
ㅂㅏㅇㅅㅣㄱ -10775
▁ㅂㅏㄴㅇㅣㄹ -10776
▁ㅇㅣㄹㄹㅏㅁ -10777
▁ㅌㅏㄴㅎㅘㄴ -10778
▁ㅎㅑㅇㅎㅏㄴㄷㅏ -10779
▁ㅅㅐㅁㅍㅡㄹㄹㅣㅇ -10780
▁ㅁㅣㄴㅅㅗㄱㅁㅜㄴㅎㅘ -10781
▁OC -10782
ouse -10783
▁233 -10784
▁del -10785
▁1792 -10786
▁ㅈㅏㅇㅂㅗ -10787
▁ㅉㅣㄹㄹㅓ -10788
▁ㅍㅏㄹㄹㅕ -10789
ㄱㅕㅇㄱㅜㅇ -10790
ㅇㅓㄹㅂㅣㄴ -10791
▁ㄴㅏㄴㄱㅏㄴ -10792
▁ㅅㅣㅁㅅㅣㄴ -10793
▁ㅈㅓㅇㄴㅕㄴ -10794
▁ㅋㅗㄴㅇㅝㄹ -10795
▁ㅇㅡㄴㅎㅐㅇㄴㅏ -10796
▁ㅎㅕㄴㄱㅡㅂㅅㅣ -10797
ㅇㅡㅁㄷㅐ -10798
▁ㅅㅏㄹㅂㅏ -10799
▁ㅅㅏㅇㅍㅣ -10800
▁ㅎㅏㅇㅁㅗ -10801
▁ㅁㅕㅇㅈㅓㄹ -10802
▁ㅂㅏㄹㅅㅗㅇ -10803
▁ㅎㅗㅇㅂㅐㄱ -10804
▁FX -10805
▁LOVE -10806
▁ㄷㅏㅇㄱㅣ -10807
▁ㅇㅗㄹㅃㅐ -10808
▁ㅇㅡㅁㅅㅗ -10809
▁ㅎㅏㄴㅁㅏ -10810
ㅈㅓㅇㅅㅜㄱ -10811
ㅈㅜㄴㅇㅛㅇ -10812
ㅈㅡㅇㄱㅝㄴ -10813
▁ㄱㅏㄱㅂㅕㄹ -10814
▁ㅅㅓㅁㄱㅕㅆ -10815
▁ㅈㅜㅇㅅㅐㅇㄷㅐ -10816
WS -10817
▁CT -10818
▁DFB -10819
▁1791 -10820
▁ㄱㅏㅈㄱㅏ -10821
▁ㅁㅏㅅㅂㅗ -10822
ㅁㅣㅇㅇㅓㅁ -10823
ㅅㅏㅇㅎㅜㄴ -10824
ㅎㅘㄹㅅㅓㅇ -10825
▁ㅂㅏㄴㅇㅕㄹ -10826
▁ㅅㅡㄹㅍㅡㄴ -10827
▁ㅅㅣㄴㅅㅜㄱ -10828
▁ㅇㅡㅁㄹㅏㄴ -10829
be -10830
▁NX -10831
ㄷㅓㅇ -10832
▁1852 -10833
ㅍㅗㄹㅌㅡ -10834
▁ㅂㅓㄴㅅㅡ -10835
▁ㅅㅣㄹㄷㅡ -10836
▁ㅈㅗㄱㅈㅔ -10837
▁ㅈㅣㄴㅎㅏ -10838
▁ㅋㅗㄴㄷㅗ -10839
▁ㄱㅜㄱㅁㅜㄹ -10840
▁ㅅㅐㄱㅇㅣㄴ -10841
▁ㅇㅑㅇㄹㅕㄱ -10842
▁ㅎㅕㄴㅁㅕㅇ -10843
▁ㄷㅗㅇㅂㅜㄱㅇㅏ -10844
ㅎㅐㄱㅅㅐㅇㅁㅜㄹ -10845
▁mg -10846
▁TOP -10847
▁Show -10848
▁ㅁㅏㄴㄷㅜ -10849
▁ㅅㅣㄴㅈㅐ -10850
▁ㅅㅣㄹㅂㅏ -10851
▁ㄴㅏㅊㅅㅓㄴ -10852
▁ㅇㅑㄱㄱㅜㄱ -10853
▁ㅈㅓㄹㅁㅕㄹ -10854
▁ㅎㅏㄴㅂㅏㅇ -10855
▁ㅁㅗㄱㄱㅓㄹㅇㅣ -10856
▁ㅂㅏㄴㄱㅗㅇㅈㅜ -10857
aj -10858
▁EF -10859
▁RD -10860
ㅇㅏㄶ -10861
▁ㄷㅓㅂ -10862
▁ㅁㅣㅁ -10863
ㄷㅏㅁㅎㅚ -10864
ㄷㅡㄴㄱㅏ -10865
▁ㄱㅏㄴㅍㅏ -10866
▁ㅂㅏㄴㄱㅏ -10867
▁ㅅㅣㄴㄴㅏ -10868
▁ㅇㅡㄴㅅㅏ -10869
▁ㅋㅏㄴㅌㅏ -10870
▁ㅎㅗㄹㄷㅡ -10871
ㅂㅜㄱㄷㅏㄴ -10872
ㅍㅏㄴㅈㅏㅇ -10873
▁ㅈㅐㅇㅈㅓㅁ -10874
▁Net -10875
▁Red -10876
▁ㅃㅐㄱ -10877
ㅌㅗㄴㅅㅡ -10878
▁ㄷㅡㄹㅇㅡ -10879
▁ㅇㅏㄴㅎㅜ -10880
▁ㅈㅓㅇㅍㅏ -10881
▁ㅌㅏㄹㄹㅏ -10882
▁ㅍㅜㅁㄱㅖ -10883
ㅊㅏㄹㅇㅡㅁ -10884
ㅍㅏㄹㄹㅔㄴ -10885
▁ㅈㅓㄴㄱㅏㄹ -10886
▁ㄱㅗㄴㅅㅏㄹㄹㅔ -10887
▁ㅊㅗㅇㅎㅏㄱㅅㅐㅇㅎㅚ -10888
▁ㄲㅘ -10889
▁1847 -10890
▁Over -10891
▁ㅂㅏㅇㄱㅘ -10892
▁ㅅㅣㄱㄹㅛ -10893
ㄷㅗㅇㅁㅐㄱ -10894
▁ㅅㅔㄹㄹㅜㄹ -10895
▁ㅇㅏㄱㅇㅕㄱ -10896
▁ㅇㅠㄴㅅㅓㄱ -10897
ㄷㅔㄱ -10898
▁Eng -10899
▁fun -10900
▁ㅈㅡㅂ -10901
▁1853 -10902
▁ㅅㅓㄴㄷㅓ -10903
▁ㅍㅕㄴㅎㅏ -10904
▁ㄱㅘㅇㄱㅕㅇ -10905
▁ㄲㅏㅁㅉㅏㄱ -10906
▁ㅇㅣㅅㄷㅏㄹ -10907
▁ㅌㅗㅇㅎㅏㅂㅈㅣㄴㅂㅗ -10908
ech -10909
▁ㄱㅓㄹㅈㅡ -10910
▁ㅂㅜㄱㅈㅔ -10911
▁ㅂㅜㄴㄱㅐ -10912
▁ㅅㅏㄴㄷㅡ -10913
▁ㅅㅓㅇㅊㅐ -10914
▁ㅅㅓㅇㅊㅜ -10915
▁ㅇㅓㄹㄹㅣ -10916
▁ㅈㅏㅇㅌㅓ -10917
▁ㅋㅗㄱㅅㅡ -10918
▁ㅎㅏㅂㅊㅔ -10919
ㅈㅓㅇㄱㅝㄴ -10920
▁ㄱㅡㄴㅇㅕㄴ -10921
▁ㅂㅏㄱㅈㅜㅇ -10922
▁ㅇㅕㅇㅇㅕㄴ -10923
▁UK -10924
▁ㄸㅗㅇ -10925
▁ㅇㅕㅌ -10926
▁ㅇㅏㄴㄱㅜ -10927
▁ㅌㅏㄴㅎㅘ -10928
ㅅㅜㄴㄱㅜㄴ -10929
▁ㅅㅣㄹㅎㅘㅇ -10930
▁ㅇㅕㄴㅈㅏㄱ -10931
▁ㅎㅕㄴㅅㅐㅇ -10932
▁JS -10933
▁231 -10934
▁ㄸㅜㄱ -10935
ㄷㅏㄹㄹㅔ -10936
ㄹㅐㄴㅅㅓ -10937
ㅈㅓㄴㅎㅏ -10938
▁Light -10939
▁ㄱㅘㄴㅅㅏ -10940
▁ㄱㅜㄷㅇㅓ -10941
▁ㅁㅏㄴㄷㅏ -10942
▁ㅅㅣㄹㅎㅘ -10943
▁ㅇㅑㅇㅂㅜ -10944
▁ㅇㅕㅇㅇㅏ -10945
▁ㅈㅣㄱㅈㅔ -10946
ㄴㅏㅁㄷㅏㄴ -10947
ㅂㅐㄱㅅㅏㄴ -10948
▁ㄱㅡㅂㅅㅡㅂ -10949
▁ㅂㅜㄱㄷㅏㄴ -10950
▁ㅁㅕㅇㄹㅠㄴㄷㅏㅇ -10951
▁TA -10952
▁221 -10953
▁Bar -10954
ㄱㅏㅁㅈㅏ -10955
ㅈㅓㄱㅎㅘ -10956
ㄱㅗㄱㅅㅓㄴ -10957
ㄴㅔㄴㅌㅓㄹ -10958
▁ㅇㅔㅁㅂㅡㄹ -10959
▁ㅎㅐㄱㅇㅕㄴㄹㅛ -10960
▁ㄷㅡㅇㄹㅗㄱㄱㅡㅁ -10961
red -10962
▁ro -10963
▁ㄱㅘㄴㅅㅓ -10964
▁ㄲㅡㄶㅇㅓ -10965
▁ㅂㅗㄹㄹㅏ -10966
▁ㅈㅏㅇㅌㅏ -10967
▁ㅅㅓㄴㅅㅡㅇ -10968
▁ㅊㅗㄴㄹㅏㄱ -10969
▁ㅊㅗㅇㅇㅏㄹ -10970
▁MX -10971
echn -10972
▁212 -10973
▁228 -10974
▁Har -10975
▁ㄱㅏㄹㄹㅜ -10976
▁ㅁㅣㄹㄹㅗ -10977
▁ㅇㅣㄱㅈㅜ -10978
ㅇㅛㅇㅅㅓㅇ -10979
ㅈㅓㄴㄱㅜㄴ -10980
ㅍㅔㄴㅅㅕㄴ -10981
▁ㄴㅡㅇㅌㅗㅇ -10982
▁ㅁㅕㅇㅍㅜㅁ -10983
▁ㅅㅜㄱㅅㅓㅇ -10984
▁ㅅㅣㄱㄴㅕㄴ -10985
▁ㅊㅏㅇㅇㅏㄴ -10986
▁ㅁㅗㄱㄱㅕㄱㅈㅏ -10987
▁CV -10988
▁ㅃㅐㅅ -10989
▁1844 -10990
▁ㅇㅏㄴㅅㅔ -10991
▁ㅇㅝㄴㅎㅘ -10992
▁ㄱㅘㄴㅇㅏㄱㄱㅜ -10993
▁ㅇㅗㅇㅈㅣㄴㄱㅜㄴ -10994
▁ac -10995
▁LTE -10996
▁1100 -10997
▁ㄲㅡㄶㅇㅣ -10998
▁ㅂㅏㅇㅅㅜ -10999
▁ㅂㅜㄱㄹㅗ -11000
▁ㅇㅐㄱㅅㅜ -11001
▁ㅇㅕㄴㅅㅏ -11002
▁ㅌㅔㅁㅍㅗ -11003
ㄲㅓㅂㅈㅣㄹ -11004
▁ㅂㅗㅇㅅㅏㄴ -11005
▁ㅅㅡㄹㄹㅗㅅ -11006
ㄷㅓㄹㄹㅐㄴㄷㅡ -11007
▁ㅁㅗㄱㅍㅏㄴㅂㅗㄴ -11008
99 -11009
ㅈㅡㅂ -11010
ason -11011
ㅇㅗㅇㅈㅜ -11012
ㅌㅔㄴㅅㅠ -11013
▁ㅂㅣㄹㅁㅣ -11014
▁ㅅㅏㅁㅂㅜ -11015
▁ㅅㅓㅇㅎㅗ -11016
▁ㄴㅏㅇㄷㅗㄱ -11017
▁ㅁㅏㄴㄱㅕㅇ -11018
▁ㅇㅡㄴㄷㅜㄴ -11019
▁ㅈㅏㅇㅇㅕㅇ -11020
▁ㄱㅝㄴㄹㅕㄱㅈㅏ -11021
07 -11022
iet -11023
ㅂㅗㄴㄷㅏ -11024
ㅌㅐㄱㅈㅣ -11025
▁ㄱㅏㅇㅇㅏ -11026
▁ㅅㅐㅇㅈㅔ -11027
▁ㅎㅕㄴㄴㅐ -11028
▁ㅇㅕㄴㅇㅣㄹ -11029
▁ㅇㅐㅇㄱㅡㄹㄹㅗ -11030
▁ㅍㅕㅇㅊㅏㅇㄱㅜㄴ -11031
IE -11032
▁ㅎㅏㄴㄷㅗ -11033
ㅁㅗㄱㅁㅣㄴ -11034
ㅅㅣㄹㄹㅗㄴ -11035
▁ㄷㅏㄹㄹㅕㅆ -11036
▁ㅂㅜㄱㅁㅕㄴ -11037
▁ㅆㅜㄴㅇㅝㄴ -11038
▁ㅇㅣㄴㅅㅠㄹㄹㅣㄴ -11039
08 -11040
ㅆㅓㄴ -11041
▁Hello -11042
▁ㅌㅡㅁㅅㅐ -11043
ㅈㅏㅇㅅㅣㄱ -11044
▁ㄱㅏㅂㅅㅏㅇ -11045
▁ㅁㅣㄹㅌㅓㄴ -11046
▁ㅅㅏㅇㄱㅝㄴ -11047
▁ㅅㅣㄴㅇㅕㅇ -11048
▁ㅇㅏㄹㄹㅗㄴ -11049
▁ㅇㅓㅁㅈㅓㅇ -11050
▁ㅇㅣㅂㅇㅏㄴ -11051
▁ㅊㅓㄴㅁㅕㅇ -11052
▁ㅌㅏㄴㅇㅝㄴ -11053
▁ㅎㅕㄹㅊㅓㅇ -11054
▁ㅈㅡㅇㅅㅗㄴㅈㅏ -11055
way -11056
▁Sec -11057
▁Sound -11058
▁ㅇㅝㄴㄱㅣ -11059
ㄹㅡㅁㅊㅓㄹ -11060
ㅁㅏㅇㅇㅣㄴ -11061
▁ㅅㅏㄹㅅㅏㅇ -11062
▁ㅈㅜㄹㅇㅕㅆ -11063
▁ㄱㅏㅂㄱㅏㄱㄹㅠ -11064
▁ㅈㅓㄴㄴㅕㄴㄷㅗ -11065
IDS -11066
▁el -11067
ㅌㅡㅁ -11068
▁Road -11069
ㅂㅐㄱㅈㅔ -11070
▁ㄱㅠㄴㄹㅠ -11071
▁ㄱㅣㅁㅎㅗ -11072
▁ㅂㅏㄴㄷㅣ -11073
▁ㅅㅏㅇㄷㅗ -11074
▁ㅋㅏㄹㅊㅗ -11075
▁ㅎㅣㄹㄹㅓ -11076
ㅈㅗㄹㅈㅜㅇ -11077
▁ㅍㅏㄹㄱㅏㄱ -11078
▁ㅈㅓㅇㅊㅏㄹㄱㅣ -11079
▁ㅈㅜㅇㅎㅏㄱㅅㅐㅇ -11080
ator -11081
▁Like -11082
▁ㅂㅜㄱㅂㅔ -11083
▁ㅊㅜㅁㅊㅜ -11084
▁ㅊㅣㄴㅎㅏ -11085
ㄷㅏㅇㄷㅗㅇ -11086
▁ㄱㅏㄴㅍㅕㄴ -11087
▁ㅋㅡㄹㄹㅗㄴ -11088
▁ㅎㅏㄴㅊㅏㅁ -11089
▁ㅎㅏㅂㅂㅏㅇ -11090
▁ㅎㅜㄴㅈㅗㄱ -11091
▁ㅇㅡㅁㅇㅏㄱㅎㅚ -11092
▁ㅇㅕㄴㅊㅓㄴㄱㅜㄴ -11093
▁Pa -11094
ㄱㅡㅇ -11095
▁757 -11096
ㅂㅏㄹㄱㅗ -11097
▁ㅇㅕㅅㅂㅗ -11098
▁ㅇㅣㄱㅅㅏ -11099
▁ㅈㅓㄴㅊㅓ -11100
ㅎㅘㄹㅈㅓㄹ -11101
▁ㅅㅓㄹㅂㅓㅂ -11102
▁ㅈㅡㄹㄱㅓㅂ -11103
▁ㅎㅏㄱㅈㅓㅁ -11104
04 -11105
▁ㅅㅣㄴㅇㅖ -11106
▁ㅎㅏㅇㅈㅓ -11107
ㅅㅡㅇㄹㅏㅁ -11108
ㅇㅘㄴㅅㅓㅇ -11109
▁ㄱㅜㄱㅁㅕㄴ -11110
ㅈㅜㅇㄱㅜㄱㅎㅐ -11111
▁ㅁㅣㄹㅇㅑㅇㅅㅣ -11112
▁ㅂㅏㄹㅁㅕㅇㄱㅏ -11113
vent -11114
▁ㄹㅗㄹㅅㅡ -11115
▁ㅇㅏㄹㅋㅏ -11116
▁ㅇㅏㅇㅋㅏ -11117
▁ㅈㅣㄴㄱㅘ -11118
ㅈㅗㄱㅇㅝㄴ -11119
▁ㅍㅣㄱㅇㅓㅂ -11120
▁ㅂㅕㄴㅅㅗㄱㄱㅣ -11121
ana -11122
▁HE -11123
▁1837 -11124
ㄴㅕㅆㅇㅡ -11125
ㄹㅣㄹㄹㅣ -11126
ㅇㅔㄴㅌㅡ -11127
ㅈㅓㅇㅈㅜ -11128
▁ㄷㅏㄴㅎㅗ -11129
▁ㅂㅐㅁㅍㅏ -11130
▁ㅅㅐㄱㅈㅗ -11131
▁ㄱㅓㄴㅇㅏㄴ -11132
▁ㅅㅏㅇㅅㅓㄱ -11133
▁ㅈㅓㅂㅊㅏㄱ -11134
▁ㅈㅓㅁㅅㅓㅇㄱㅏ -11135
ㅁㅣㄴㅈㅓㅇㅇㅡㅁ -11136
▁ㄱㅏㄴㅎㅐㅇㅁㅜㄹ -11137
▁Af -11138
ㅋㅐㅅ -11139
ital -11140
▁RPG -11141
▁wid -11142
ㅅㅈㅣㅂ -11143
ㅇㅣㄴㅎㅚ -11144
ㅈㅔㄴㅎㅏ -11145
▁ㅎㅑㅇㄹㅣ -11146
▁ㅎㅗㅇㄷㅐ -11147
ㅈㅓㅇㅅㅣㄴ -11148
▁ㄱㅏㅇㅁㅜㄹ -11149
▁ㅂㅏㅇㅈㅓㄴ -11150
▁ㅅㅜㄴㅊㅏㅇ -11151
▁ㅎㅏㄴㅇㅗㄱ -11152
▁ㅂㅏㄱㄱㅕㄱㅍㅗ -11153
yl -11154
ㅑㅁ -11155
ner -11156
ric -11157
▁Sum -11158
▁ㅈㅓㄹㅌㅓ -11159
▁ㅊㅓㄱㅅㅜ -11160
▁ㅍㅏㄹㄹㅗ -11161
ㄱㅕㄴㅇㅣㄴ -11162
ㅅㅐㄱㅅㅡㄴ -11163
ㅅㅜㄹㅇㅝㄴ -11164
▁ㅁㅏㅇㅅㅏㅇ -11165
▁ㅈㅓㅇㄹㅑㅇ -11166
▁ㅊㅐㄱㅍㅏㄴ -11167
▁ㅊㅓㄱㅌㅏㄴ -11168
▁ㅇㅜㄹㄹㅡㅇㄷㅗ -11169
▁007 -11170
▁217 -11171
▁226 -11172
▁ㅈㅔㅁ -11173
▁1794 -11174
ㅌㅗㅇㅈㅔ -11175
▁ㅁㅜㄴㅂㅜ -11176
▁ㅂㅏㄱㅈㅔ -11177
▁ㅈㅜㅇㅈㅜ -11178
▁ㅊㅜㄹㅅㅗ -11179
▁ㅅㅗㅇㄱㅡㅁ -11180
▁ㅎㅡㅂㅎㅕㄹ -11181
▁ㅍㅡㄹㄹㅐㄴㅌㅡ -11182
ven -11183
▁OF -11184
ㅅㅖㄴ -11185
▁ㅌㅣㅂ -11186
ㄹㅏㅇㅈㅜ -11187
▁ㅃㅗㅂㅇㅏ -11188
▁ㅇㅓㅂㅅㅗ -11189
▁ㅇㅛㄱㄱㅖ -11190
▁ㅇㅣㅁㅇㅓㅂ -11191
▁ㅎㅜㄴㅁㅣㄴㅈㅓㅇㅇㅡㅁ -11192
HT -11193
▁IB -11194
ㅉㅏㅇ -11195
▁SQL -11196
▁ㄷㅔㄴㅂㅓ -11197
▁ㅂㅓㅇㅋㅓ -11198
▁ㅅㅓㅂㅆㅣ -11199
ㅇㅑㅇㅅㅓㅇ -11200
ㅇㅣㅁㅅㅣㄱ -11201
▁ㅁㅏㅇㅁㅏㄱ -11202
▁EV -11203
port -11204
▁LCK -11205
▁Sci -11206
▁Mnet -11207
ㅇㅑㅇㄷㅐ -11208
▁ㅆㅓㄴㄷㅓ -11209
▁ㅊㅏㄱㅇㅗ -11210
ㄹㅣㄴㅅㅓㅇ -11211
▁ㄱㅏㅂㅍㅏㄴ -11212
▁ㄱㅘㅇㅈㅗㅇ -11213
▁ㄱㅣㅁㅇㅡㅇ -11214
▁ㄷㅏㄴㅍㅏㄴ -11215
▁ㅂㅏㄴㅁㅣㄴ -11216
▁ㅅㅐㅇㅇㅝㄴ -11217
▁ㅇㅝㄴㅍㅏㄴ -11218
▁ㅇㅝㄹㄱㅡㅂ -11219
▁ㅇㅠㄴㅂㅗㅇ -11220
▁ㅈㅓㄱㅅㅓㅇ -11221
▁ㅈㅣㅂㅎㅕㄴ -11222
▁ㅊㅣㄴㅎㅕㅇ -11223
▁ㅎㅗㄱㄷㅗㄱ -11224
▁ㄷㅗㅇㅇㅣㄴㄷㅗ -11225
▁ㅇㅝㄴㅎㅏㄴㄷㅏ -11226
▁ㅌㅡㄱㄱㅗㅇㄷㅐ -11227
▁ㄱㅜㄴㄷㅏㄴㅈㅏㅇ -11228
ㄹㅔㅇ -11229
▁ㅈㅡㄴ -11230
ㄷㅏㄹㄹㅏ -11231
▁ㄱㅗㅇㅎㅚ -11232
▁ㅅㅜㄱㅇㅢ -11233
▁ㅎㅏㄴㄹㅠ -11234
ㅌㅏㄴㅌㅣㄴ -11235
▁ㅅㅣㄴㅎㅕㄴ -11236
▁ㅇㅐㄱㅈㅓㅇ -11237
▁ㅇㅣㄹㅈㅣㄱ -11238
▁ㅈㅣㅂㅎㅏㅂㄹㅗㄴ -11239
▁ㅇㅜㅁㅈㅣㄱㅇㅣㄴㄷㅏ -11240
orce -11241
▁315 -11242
▁ㅇㅡㄿ -11243
ution -11244
▁ㄴㅏㄴㅅㅏ -11245
▁ㅁㅣㄹㅇㅝ -11246
▁ㅇㅑㅇㅈㅐ -11247
▁ㅇㅕㅇㅅㅔ -11248
▁ㅊㅏㄴㄱㅏ -11249
▁ㅍㅕㄴㅁㅗ -11250
ㅈㅣㄴㅇㅕㅇ -11251
▁ㄱㅜㄴㅎㅕㄴ -11252
▁ㄷㅗㅇㅈㅗㄱ -11253
▁ㅅㅗㅇㅈㅓㅇ -11254
▁ㅇㅏㅁㅂㅕㄱ -11255
▁ㅊㅣㄴㅅㅜㄱ -11256
▁ㅂㅓㄹㅇㅕㅆㅇㅡ -11257
▁ㄷㅗㅇㅅㅣㄱㅁㅜㄹ -11258
▁ㄱㅕㅇㅎㅑㅇㅅㅣㄴㅁㅜㄴ -11259
ism -11260
ㅊㅡㄹ -11261
▁ㅋㅟㄹ -11262
ㄹㅕㅇㅅㅣ -11263
ㅈㅔㄴㄷㅓ -11264
▁ㅂㅏㄴㄱㅜ -11265
▁ㅎㅓㄴㅈㅔ -11266
ㅅㅓㅂㄷㅏㄴㅊㅔ -11267
▁ㅎㅘㄴㄱㅕㅇㅂㅜ -11268
ㅈㅗㅇㅅㅣㄹㄹㅗㄱ -11269
▁ㅈㅓㅇㅊㅏㄱㅁㅣㄴ -11270
bum -11271
▁720 -11272
▁CCTV -11273
ㄹㅐㄱㅌㅣ -11274
▁ㅅㅓㅇㄴㅕ -11275
▁ㅅㅡㄹㄹㅔ -11276
▁ㅇㅏㄹㅌㅏ -11277
▁ㅋㅓㄴㅅㅗ -11278
▁ㄱㅘㄴㄱㅗㅇ -11279
▁ㄱㅣㄹㅁㅗㄱ -11280
▁ㅂㅜㄹㅎㅘㅇ -11281
▁ㅎㅏㅁㅍㅕㅇ -11282
▁ㅇㅝㄴㅌㅗㅇㅎㅕㅇ -11283
▁ROM -11284
▁min -11285
▁1836 -11286
ㄱㅏㅇㄷㅐ -11287
ㅊㅓㄱㅊㅜ -11288
ㅍㅔㄴㅅㅡ -11289
▁ㄹㅏㅁㅂㅗ -11290
▁ㅁㅔㅁㅍㅣ -11291
▁ㅁㅜㄴㅁㅛ -11292
▁ㅇㅠㄴㅎㅚ -11293
▁ㅈㅓㅁㅎㅏ -11294
▁ㅈㅜㅇㅅㅏ -11295
▁ㅋㅜㄹㄹㅣ -11296
ㄹㅜㅇㅈㅏㅇ -11297
▁ㄴㅏㄱㄴㅗㅇ -11298
▁ㅅㅏㄴㄱㅏㄴ -11299
▁ㅇㅡㅁㅅㅐㄱ -11300
▁ㅊㅓㅇㄹㅕㅁ -11301
▁ㅁㅏㄴㄷㅡㄴㄷㅏ -11302
▁ㅋㅗㄴㅅㅔㅂㅌㅡ -11303
uk -11304
▁520 -11305
ㅇㅕㅇㅎㅘ -11306
▁ㄷㅗㄱㄹㅕ -11307
ㅂㅕㅇㅇㅝㄴ -11308
ㅈㅔㄹㄹㅏㄴ -11309
ㅌㅣㅇㄱㅔㄴ -11310
ㅎㅐㅇㄷㅏㄴ -11311
▁ㅅㅓㅇㅊㅜㅇ -11312
▁ㅈㅓㅂㄱㅕㅇ -11313
▁ㅇㅟㄴㄴㅏㄴㅅㅓㅇ -11314
▁XX -11315
▁ㅃㅡ -11316
▁610 -11317
▁ㅅㅔㄱ -11318
▁ㅇㅜㅂ -11319
▁Stud -11320
ㄹㅏㄴㅅㅡ -11321
▁ㄹㅓㄱㅋㅣ -11322
▁ㅇㅗㄱㄱㅐ -11323
▁ㅊㅓㄹㅈㅔ -11324
ㅅㅐㅇㅁㅕㅇ -11325
▁ㄱㅡㅁㅅㅏㅇ -11326
▁ㅁㅏㄴㅊㅏㄴ -11327
▁ㅅㅣㄴㄱㅏㄴ -11328
▁ㅈㅓㄴㄱㅘㅇ -11329
▁ㅈㅓㅇㅅㅜㄴ -11330
▁ㅎㅏㅂㅈㅓㄴ -11331
ㄱㅜㄱㅁㅣㄴㄷㅏㅇ -11332
▁ㅁㅕㅇㅌㅏㅁㅈㅓㅇ -11333
▁KR -11334
ㅉㅓㄱ -11335
▁ㄲㅗㅇ -11336
ㅂㅗㄹㄹㅜ -11337
▁ㅅㅓㄴㅁㅜ -11338
ㅁㅜㄴㅈㅓㅁ -11339
▁ㄱㅜㅇㄱㅡㅁ -11340
▁ㄴㅏㄱㅇㅣㄴ -11341
▁ㅁㅏㄴㅅㅓㄱ -11342
▁ㅁㅗㄹㅇㅣㅂ -11343
▁ㅅㅓㅁㅁㅕㄹ -11344
▁ㅈㅓㅁㅅㅣㅁ -11345
▁ㅈㅣㅇㅂㅕㅇㅈㅔ -11346
▁ㅎㅕㄴㅇㅏㄱㄱㅣ -11347
ony -11348
ㄷㅗㅇㅅㅗ -11349
ㄹㅏㄴㄷㅗ -11350
ㅍㅣㄹㄱㅏ -11351
▁ㄴㅏㅁㅅㅜ -11352
▁ㅆㅏㅇㄱㅖ -11353
▁ㅇㅡㅂㄴㅐ -11354
▁ㅊㅗㅇㅈㅣ -11355
▁ㅍㅕㄴㅅㅜ -11356
▁ㅅㅡㅇㅌㅏㅂ -11357
▁ㅇㅣㅇㄱㅡㄹㄹㅣ -11358
IST -11359
ㄱㅏㄱㅎㅘ -11360
ㄱㅜㄱㅅㅜ -11361
ㅁㅏㅇㅅㅡ -11362
▁ㅇㅏㅇㅈㅜ -11363
▁ㅇㅕㄴㅁㅏ -11364
▁ㅇㅛㅇㅁㅐ -11365
▁ㄱㅓㄹㄹㅣㄹ -11366
▁ㄱㅣㅁㅁㅏㄴ -11367
▁ㅇㅏㅁㅅㅜㄹ -11368
▁ㄴㅗㅇㄱㅕㅇㅈㅣ -11369
▁ㅇㅏㅍㅈㅏㅇㅅㅓ -11370
▁OP -11371
▁RO -11372
▁222 -11373
ㅈㅏㄱㅂㅣ -11374
▁ㅇㅣㄹㄹㅠ -11375
▁ㅎㅏㄹㅅㅜ -11376
▁ㄱㅏㅁㅁㅕㅇ -11377
▁ㄴㅏㄱㅎㅑㅇ -11378
▁ㄴㅏㅁㅈㅣㅅ -11379
▁ㅁㅔㄴㄷㅔㄹ -11380
▁ㅂㅕㅇㅇㅕㅇ -11381
▁ㅅㅓㄴㄷㅓㄱ -11382
▁ㅇㅕㄹㄱㅘㅇ -11383
▁ㅇㅛㄱㅅㅣㅁ -11384
▁ㅇㅝㄴㅁㅏㅇ -11385
▁ㅊㅏㅁㅂㅗㅇ -11386
▁ㄱㅕㅇㅈㅏㄱㅈㅣ -11387
▁390 -11388
▁2030 -11389
ㅅㅓㄴㅈㅗ -11390
▁ㄴㅐㄴㅅㅣ -11391
▁ㅇㅕㄴㅈㅏㅇㅅㅓㄴ -11392
oney -11393
▁232 -11394
▁Play -11395
▁ㅁㅜㅇㅊㅕ -11396
▁ㅇㅔㅁㅍㅏ -11397
▁ㄱㅏㅇㅇㅏㅂ -11398
▁ㅂㅐㄱㄱㅜㄱ -11399
▁ㅅㅗㅇㅂㅕㅇ -11400
ㄱㅝㄹㅅㅓㄴㄱㅓ -11401
YS -11402
▁width -11403
▁ㄷㅏㄹㅅㅓ -11404
▁ㅁㅏㄹㄹㅓ -11405
▁ㅅㅜㄱㄱㅗ -11406
ㅁㅣㄹㅇㅝㄴ -11407
▁ㅅㅓㅇㄴㅕㄴ -11408
▁ㅇㅞㄹㄹㅣㅇㅌㅓㄴ -11409
▁no -11410
▁Boy -11411
▁ㅎㅜㄱ -11412
▁align -11413
▁ㄱㅜㄱㄱㅗ -11414
▁ㄸㅏㄹㄱㅣ -11415
▁ㅂㅏㄱㅅㅔ -11416
▁ㅈㅓㅇㅎㅢ -11417
▁ㅈㅗㄴㅎㅗ -11418
ㅇㅕㅇㅂㅗㄱ -11419
▁ㄱㅘㄴㅂㅏㅇ -11420
▁ㄴㅏㄹㄹㅕㅆ -11421
▁ㅅㅑㄹㄹㅓㅅ -11422
▁ㅊㅓㅇㅈㅣㄴ -11423
▁ㅊㅓㅇㅌㅏㄱ -11424
▁ㅇㅏㄴㅅㅓㅇㅅㅣ -11425
05 -11426
ㄸㅔ -11427
▁ㅈㅔㅅ -11428
▁1806 -11429
▁Sing -11430
ㅌㅔㅁㅈㅡ -11431
▁ㄱㅏㅁㅎㅣ -11432
▁ㄷㅏㄺㄱㅗ -11433
▁ㅈㅗㅇㄱㅘ -11434
▁ㅍㅕㄴㅊㅏ -11435
▁ㄷㅗㄴㄴㅕㅇ -11436
▁ㅁㅏㄴㄴㅡㅇ -11437
▁ㅅㅣㅁㅊㅡㅇ -11438
▁ㄱㅘㄴㄷㅗㅇㄱㅜㄴ -11439
▁ㅋㅏㄱ -11440
ㄱㅜㄱㄱㅏ -11441
ㅈㅣㅂㄱㅏ -11442
▁ㅁㅣㄴㅈㅏ -11443
▁ㅇㅏㄴㅌㅡ -11444
▁ㅇㅣㄴㅎㅚ -11445
▁ㅋㅔㄹㄹㅓ -11446
▁ㅍㅕㄴㄷㅗ -11447
▁ㅂㅏㅇㄹㅏㅇ -11448
▁ㅊㅜㄹㄱㅡㄴ -11449
▁ㅋㅐㅂㅅㅠㄹ -11450
▁ㅎㅏㄴㅅㅏㄴ -11451
▁ㅇㅣㅁㅍㅐㄱㅌㅡ -11452
09 -11453
▁ㄸㅟㄴ -11454
▁1842 -11455
▁that -11456
ㄹㅛㅇㅅㅏ -11457
▁ㄴㅏㄴㅈㅏ -11458
▁ㅇㅑㅇㅇㅏ -11459
▁ㅇㅘㄴㅌㅜ -11460
▁ㅇㅣㅁㅅㅏ -11461
▁ㅋㅗㅇㅋㅜ -11462
ㅍㅡㄹㄹㅣㅇ -11463
▁ㅁㅕㅇㅇㅡㄴ -11464
▁ㅂㅏㄴㅈㅡㅇ -11465
▁ㅌㅏㄹㅅㅓㄴ -11466
▁ㅁㅜㄴㅎㅏㄱㄱㅏ -11467
▁ㄱㅏㄱㅇㅜㄴㄷㅗㅇ -11468
ㅅㅑㄹ -11469
▁not -11470
▁Colle -11471
▁ㅇㅏㄹㅌㅗ -11472
▁ㅇㅕㅁㄹㅛ -11473
▁ㄷㅗㄱㅅㅣㄴ -11474
▁ㅇㅜㄹㅇㅡㅁ -11475
▁ㅍㅏㄴㅂㅕㄹ -11476
▁ㅍㅣㄹㅅㅏㄹ -11477
▁ㅇㅣㄹㅂㅗㄴㄱㅜㄱㅇㅠ -11478
ush -11479
▁MT -11480
▁ㄴㅗㄱㅅㅡ -11481
▁ㄷㅗㅇㄱㅘ -11482
▁ㄹㅐㅇㅋㅓ -11483
▁ㅁㅗㅅㅈㅣ -11484
▁ㅇㅕㅍㄱㅜ -11485
▁ㅈㅓㅇㅌㅐ -11486
ㅇㅕㄴㅈㅏㅇ -11487
▁ㅁㅜㄴㅎㅏㄱㅅㅏ -11488
▁ㅂㅗㄱㅈㅏㅂㄷㅗ -11489
▁ㅂㅕㄴㅈㅡㅇㅂㅓㅂ -11490
af -11491
ㅋㅝㄴ -11492
▁ㄷㅣㅁ -11493
ㅍㅗㄱㅅㅡ -11494
ㅎㅐㅁㅍㅡ -11495
▁ㄱㅣㅁㄴㅏ -11496
▁ㄹㅓㅆㅇㅡ -11497
▁ㅅㅏㄴㄷㅗ -11498
ㅅㅏㅇㄱㅜㄴ -11499
ㅌㅓㄹㄹㅣㅇ -11500
▁ㅂㅕㅇㅇㅣㄴ -11501
▁ㅇㅏㅍㄷㅏㅇ -11502
▁ㅈㅣㄴㅇㅑㅇ -11503
▁ㅉㅏㄱㅈㅣㅅ -11504
▁ㅊㅗㄱㅎㅏㄴ -11505
UM -11506
sc -11507
▁King -11508
▁That -11509
▁this -11510
ㅈㅜㄴㅎㅗ -11511
▁ㅁㅜㄹㅇㅢ -11512
▁ㅂㅔㄴㅈㅏ -11513
▁ㅈㅓㅇㅌㅗ -11514
▁ㅊㅓㄹㄹㅗ -11515
ㅁㅜㅅㅇㅣㅍ -11516
▁ㄱㅜㄱㅁㅕㅇ -11517
▁ㄷㅏㄴㅅㅓㅇ -11518
▁ㅊㅣㅁㅈㅓㄴ -11519
▁216 -11520
ㄱㅡㅂㅅㅜ -11521
ㄷㅏㄴㅈㅗ -11522
ㅇㅣㅁㅅㅜ -11523
ㄹㅗㄹㄹㅣㅇ -11524
▁ㄱㅗㅇㅅㅐㅇ -11525
▁ㅈㅓㄹㅇㅕㄴ -11526
▁ㅅㅓㅇㅂㅓㅁㅈㅚ -11527
▁ㅅㅜㄹㅌㅏㄴㄱㅜㄱ -11528
KA -11529
UT -11530
▁we -11531
ㅁㅡㄹ -11532
▁950 -11533
▁Rem -11534
ㅇㅛㅇㅈㅜ -11535
▁ㅅㅔㄹㅍㅡ -11536
▁ㅅㅗㄱㅇㅣ -11537
▁ㅅㅡㅂㄱㅣ -11538
▁ㅅㅣㄴㄷㅣ -11539
▁ㅇㅑㅇㅅㅣ -11540
▁ㅇㅟㄴㅈㅓ -11541
▁ㅈㅐㅇㅊㅟ -11542
▁ㅍㅓㄹㅅㅡ -11543
▁ㅎㅗㅇㅈㅜ -11544
▁ㅅㅓㄴㅍㅜㅇ -11545
▁ㅇㅕㄱㅅㅡㅂ -11546
ㅅㅣㅇㅌㅓㄴㅈㅜ -11547
ㅌㅡㄹㄹㅐㄴㅌㅣㄱ -11548
▁ㄷㅏㄹㅅㅓㅇㄱㅜㄴ -11549
form -11550
▁1796 -11551
ㄹㅡㄴㅎㅏ -11552
ㄹㅣㅁㅍㅏ -11553
ㅅㅓㅇㅇㅣ -11554
lement -11555
▁Great -11556
▁ㅂㅜㄹㄷㅗ -11557
▁ㅊㅣㄴㄷㅏ -11558
▁ㅍㅗㄱㅇㅜ -11559
ㅇㅑㅇㅅㅣㄱ -11560
ㅊㅗㅇㄱㅘㄴ -11561
▁ㅅㅐㅇㅅㅏㄴㅈㅣ -11562
▁ㅊㅓㄹㅇㅝㄴㄱㅜㄴ -11563
▁ㄱㅏㄱㅇㅜㄴㄷㅗㅇㄹㅑㅇ -11564
WA -11565
ㄱㅠㄹ -11566
raph -11567
▁660 -11568
▁ㄹㅣㄴㅅㅡ -11569
▁ㅁㅣㄹㄱㅛ -11570
▁ㅂㅏㅇㄱㅖ -11571
▁ㅊㅓㅇㄷㅜ -11572
▁ㅍㅜㅇㅌㅗ -11573
▁ㄴㅓㄼㅎㅕㅆ -11574
▁ㄹㅣㄴㅌㅓㄴ -11575
▁ㅁㅜㄹㅂㅕㅇ -11576
▁ㅇㅕㄹㄷㅡㅇ -11577
▁ㅈㅓㅇㅅㅓㄹ -11578
▁ㅈㅡㅇㅅㅏㄴ -11579
▁ㅌㅡㄹㄹㅣㅁ -11580
ㅋㅓㄹㄹㅓㅁㅂㅣ -11581
▁ㅇㅓㅁㅁㅣㄹㅎㅣ -11582
▁ㅊㅣㅇㅎㅏㄴㄷㅏ -11583
▁ㅋㅏㅅ -11584
ㅂㅡㄹㄹㅓ -11585
ㅌㅗㄹㄹㅗ -11586
▁ㄱㅗㄹㅈㅏ -11587
▁ㄱㅡㄱㅈㅘ -11588
▁ㅅㅐㄱㄱㅖ -11589
▁ㅈㅏㅇㅁㅏ -11590
▁ㅎㅏㄱㅈㅔ -11591
ㄹㅏㅂㅇㅣㄴ -11592
ㅇㅑㅇㄷㅗㅇ -11593
▁ㄴㅐㅇㅂㅏㅇ -11594
▁ㅇㅕㄴㅅㅓㅇ -11595
▁ㅈㅓㄴㅍㅗㄱ -11596
▁ㄱㅕㅇㅇㅕㅇㅈㅣㄴ -11597
▁ㅊㅓㄱㅌㅏㄴㅂㅕㅇ -11598
ㄱㅙ -11599
▁pH -11600
▁key -11601
▁1790 -11602
▁1832 -11603
ㅁㅣㄴㅌㅔ -11604
▁ㄱㅜㄱㅈㅏ -11605
▁ㄱㅣㅁㅎㅖ -11606
▁ㅅㅓㄹㄱㅏ -11607
▁ㅈㅓㄴㅅㅗ -11608
▁ㅈㅗㄹㄹㅏ -11609
ㅂㅜㄹㅌㅐㅇ -11610
▁ㄱㅕㅇㄱㅏㅁ -11611
▁ㄱㅗㅇㅁㅜㄹ -11612
▁ㅁㅕㅇㅊㅏㅇ -11613
▁ㅂㅣㄴㅇㅑㄱ -11614
▁ㅅㅓㅇㅈㅣㄱ -11615
▁ㅇㅣㄴㅈㅏㅇ -11616
▁ㅈㅓㄴㄱㅕㅇ -11617
iew -11618
▁GD -11619
▁UI -11620
ㄴㅟㄴ -11621
▁815 -11622
▁1798 -11623
▁1810 -11624
ㄱㅜㄱㄷㅐ -11625
ㅈㅏㅇㅅㅜ -11626
▁score -11627
▁ㄱㅏㄹㅁㅐ -11628
▁ㄹㅣㄴㅊㅣ -11629
▁ㅇㅔㅅㅈㅣ -11630
▁ㅇㅠㄴㅈㅣ -11631
▁ㅌㅡㄹㅇㅓ -11632
▁ㅎㅔㄱㅌㅏ -11633
ㅈㅓㄴㄷㅗㅇ -11634
▁ㅁㅐㄴㅌㅡㄹ -11635
▁ㅁㅕㅇㅁㅐㄱ -11636
▁ㅅㅏㅁㄴㅏㅁ -11637
▁ㅅㅓㅇㅊㅡㅇ -11638
▁ㅅㅣㄴㅂㅣㅇ -11639
▁ㅈㅏㄴㄷㅏㅇ -11640
▁ㅈㅏㅇㅇㅓㅁ -11641
▁ㅈㅓㄴㄹㅑㅇ -11642
▁ㅈㅓㄴㅎㅘㅇ -11643
▁ㄱㅡㄴㅂㅗㄴㅈㅜ -11644
▁ㄱㅏㅇㅈㅣㄴㄱㅜㄴ -11645
ㄴㅐㅂ -11646
tain -11647
ㅊㅗㄴㅂㅓ -11648
▁20120 -11649
▁ㄴㅏㅁㅁㅜㄴ -11650
▁ㅅㅓㅇㄱㅡㅂ -11651
▁ㅅㅗㄱㅎㅕㄴ -11652
▁ㅇㅣㄴㅎㅕㄴ -11653
▁ㅊㅓㅇㅍㅜㅇ -11654
▁ㅊㅣㄴㅍㅣㄹ -11655
▁ㅋㅏㄹㅂㅣㄴ -11656
▁Project -11657
ady -11658
ize -11659
▁264 -11660
▁460 -11661
▁EOS -11662
▁Run -11663
▁Inst -11664
ㄴㅔㄹㄹㅏ -11665
ㅌㅔㄱㅅㅡ -11666
▁ㄱㅣㅁㅂㅗ -11667
▁ㄹㅣㄱㅅㅡ -11668
▁ㅁㅜㄱㅅㅣ -11669
▁ㅅㅓㄱㅎㅗ -11670
▁ㅇㅏㅍㅂㅜ -11671
▁ㅈㅓㅇㄴㅏ -11672
▁ㅈㅡㅇㅅㅓ -11673
▁ㅌㅗㅇㅅㅏ -11674
▁ㅎㅐㅁㅍㅡ -11675
▁ㅎㅔㄹㄹㅏ -11676
▁ㄷㅏㄴㄹㅕㄴ -11677
▁ㅅㅓㅇㅇㅘㅇ -11678
▁ㅊㅜㅇㅅㅣㄹㅎㅣ -11679
▁ㄱㅏㅁㄷㅗㄱㅅㅏㅇ -11680
▁ㅈㅣㅂㅎㅕㄴㅈㅓㄴ -11681
elf -11682
lex -11683
▁GL -11684
ㄱㅓㄱ -11685
ript -11686
▁234 -11687
ㅋㅓㄹㄹㅓ -11688
▁ㄱㅏㅁㄹㅗ -11689
▁ㅂㅗㄴㄸㅏ -11690
▁ㅅㅣㄴㄷㅔ -11691
▁ㅇㅕㅇㅎㅏ -11692
▁ㅇㅝㄴㅇㅖ -11693
▁ㅍㅔㄴㅌㅣ -11694
▁ㅍㅠㄹㄹㅣ -11695
ㅇㅏㅁㅁㅕㄴ -11696
▁ㄷㅗㅇㅇㅡㅁ -11697
▁ㅇㅑㅇㅅㅗㄴ -11698
▁ㅈㅏㄱㅇㅣㄴ -11699
▁ㅍㅏㄴㄱㅏㄱ -11700
rop -11701
▁PK -11702
ㅃㅐㄱ -11703
▁Are -11704
▁ㄹㅕㅆ -11705
ㅇㅣㄴㄱㅘ -11706
ㅇㅣㄴㄷㅓ -11707
▁ㄱㅡㄴㅎㅐ -11708
▁ㄷㅏㄹㄹㅐ -11709
▁ㅅㅓㅇㅎㅢ -11710
▁ㅅㅗㄱㅈㅚ -11711
▁ㅇㅝㄴㅊㅜ -11712
▁ㅊㅓㄹㄱㅛ -11713
▁ㅎㅏㄱㅂㅣ -11714
▁ㅂㅜㄹㅅㅜㄴ -11715
▁ㅂㅜㄹㅍㅔㄴ -11716
▁ㅅㅜㅁㅈㅕㅆ -11717
▁ㅇㅏㄹㅎㅕㄴ -11718
▁ㅍㅣㄹㅈㅓㄱ -11719
▁ㅎㅓㄴㅈㅗㅇ -11720
▁ㅍㅕㄴㅈㅣㅂㄱㅣ -11721
ane -11722
ene -11723
▁nt -11724
▁val -11725
ㄱㅝㄴㄷㅗ -11726
ㄹㅓㄱㅅㅡ -11727
ㅁㅣㄹㄹㅏ -11728
ㅂㅏㄹㄹㅏ -11729
▁ㅂㅏㄱㅈㅜ -11730
ㅇㅣㅂㅅㅏㅇ -11731
▁ㄴㅔㄱㅅㅡㄴ -11732
▁ㅃㅐㄱㅃㅐㄱ -11733
▁ㅇㅕㄴㅅㅓㄴ -11734
▁ㅇㅕㄹㅈㅜㅇ -11735
▁ㄴㅏㅁㅇㅝㄴㅅㅣ -11736
▁ㅅㅐㅇㄱㅣㅁㅅㅐ -11737
SI -11738
ott -11739
rag -11740
▁EL -11741
ㄱㅚㅇ -11742
▁410 -11743
▁Met -11744
▁ㅇㅕㄼ -11745
ㅋㅏㄹㄹㅔ -11746
▁Every -11747
▁ㄱㅣㅁㅅㅗ -11748
▁ㅈㅓㅇㅎㅚ -11749
ㄹㅣㄱㅅㅡㄴ -11750
▁ㄱㅏㄴㅌㅗㅇ -11751
▁ㅅㅏㅇㅇㅗㄴ -11752
▁ㅊㅗㅇㅎㅏㅂ -11753
▁ㅊㅜㄹㅈㅣㄴ -11754
▁ㄱㅣㅁㅊㅓㄴㅅㅣ -11755
▁ㅅㅣㄴㅇㅣㄴㅇㅘㅇ -11756
▁FL -11757
▁up -11758
ㅆㅓㅂ -11759
▁640 -11760
▁NHL -11761
▁Sub -11762
▁ㅃㅑㅁ -11763
ㄷㅗㅇㅂㅜ -11764
ㅍㅔㄹㅌㅡ -11765
▁ㅂㅏㄴㅇㅠ -11766
▁ㅅㅓㅇㅅㅣ -11767
▁School -11768
▁ㄷㅡㄹㅇㅕㅆ -11769
▁ㅅㅓㄴㅂㅓㅂ -11770
▁ㅅㅣㄴㄴㅕㄴ -11771
▁ㅇㅔㅂㅅㅣㄹㄹㅗㄴ -11772
pm -11773
▁Bad -11774
ㅈㅏㅇㅇㅓ -11775
▁ㅁㅏㄱㅎㅕ -11776
▁ㅇㅕㄴㄴㅏ -11777
▁ㄱㅘㅇㅅㅓㄱ -11778
▁ㄷㅗㅇㅁㅕㄴ -11779
▁ㅅㅏㄹㄱㅠㄴ -11780
▁ㅅㅣㄴㅊㅏㅇ -11781
▁ㅇㅔㄹㅌㅡㄴ -11782
▁ㅇㅕㅇㅇㅣㄹ -11783
▁ㅇㅜㄹㅈㅣㄴ -11784
▁ㅈㅗㅇㅇㅣㄹ -11785
▁ㅈㅣㄹㅅㅏㄴ -11786
▁ㅌㅏㅁㅇㅛㄱ -11787
▁ㅍㅏㄴㄱㅝㄴ -11788
▁ㅎㅗㄱㅍㅕㅇ -11789
▁ㄱㅏㅇㄷㅗㅇㄱㅜ -11790
▁ㅂㅓㅂㅎㅏㄱㅈㅏ -11791
▁ㅌㅗㅇㅇㅕㅇㅅㅣ -11792
▁ㄷㅏㅁㅇㅑㅇㄱㅜㄴ -11793
ney -11794
ㅍㅓㄱ -11795
▁EMI -11796
ㄹㅓㄴㅊㅡ -11797
▁ㅁㅕㅇㅎㅚ -11798
▁ㅅㅣㄴㅍㅏ -11799
▁ㄱㅏㄴㄱㅏㄴ -11800
▁ㄱㅜㄱㅍㅏㄴ -11801
▁ㅎㅗㄴㅇㅛㅇ -11802
▁ㅇㅗㄴㅈㅓㄴㅎㅣ -11803
▁ㅈㅓㅇㅁㅏㄹㄹㅗ -11804
ㄱㅕㅂ -11805
atic -11806
▁Cor -11807
▁Rad -11808
▁1831 -11809
ㅈㅜㅇㅁㅣ -11810
▁ㅁㅏㄴㄱㅘ -11811
▁ㅇㅏㄹㅂㅡ -11812
▁ㄴㅐㅇㅈㅓㅇ -11813
▁ㅂㅓㅂㄷㅏㅇ -11814
▁ㅂㅜㄱㅈㅣㄴ -11815
▁ㅅㅓㄱㅁㅜㄹ -11816
▁ㅅㅓㄴㅇㅘㅇ -11817
▁ㅅㅣㄹㄱㅕㄱ -11818
▁ㅅㅣㅁㅂㅗㄹ -11819
▁ㅂㅜㄱㅈㅜㅇㅁㅣ -11820
▁ㅆㅔ -11821
ㅂㅜㅅ -11822
ㅇㅇㅏ -11823
▁GPU -11824
ㄹㅡㄹㅁㅏ -11825
▁ㅁㅗㅇㅋㅔ -11826
▁ㅂㅏㅇㅂㅣ -11827
▁ㅊㅜㄹㅈㅔ -11828
ㅁㅣㄴㅌㅓㄴ -11829
▁ㄷㅗㄹㅂㅏㅇ -11830
▁ㅂㅏㅇㅎㅕㅇ -11831
▁ㅇㅏㄴㅅㅏㅇ -11832
▁ㅇㅣㄴㅅㅗㄹ -11833
▁ㅂㅜㄹㅁㅕㅇㅇㅖ -11834
▁ㅇㅏㄹㄹㅗㄴㅅㅗ -11835
▁ㄱㅏㅁㅇㅕㅁㅂㅕㅇ -11836
▁ㅁㅕㅇㅁㅕㅇㅂㅓㅂ -11837
▁ㅊㅏㅁㅈㅓㅇㄱㅝㄴ -11838
uth -11839
ㄲㅟㄹ -11840
▁255 -11841
ㄴㅗㅇㅅㅏ -11842
▁ㄴㅜㄴㅂㅜ -11843
▁ㄷㅏㄴㅂㅏ -11844
▁ㅂㅏㅁㅎㅏ -11845
▁ㅈㅓㅂㄷㅐ -11846
▁ㅊㅣㅇㄷㅏ -11847
▁ㅋㅓㅁㅍㅗ -11848
ㅇㅏㅅㄱㅣㄴ -11849
▁ㅂㅡㄹㄹㅜㅁ -11850
▁ㅈㅏㅇㅎㅕㄴ -11851
▁ㅋㅡㄹㄹㅏㄱ -11852
▁ㄷㅏㄹㅍㅐㅇㅇㅣ -11853
▁ㅂㅏㄹㅎㅐㅇㅇㅣㄴ -11854
▁DP -11855
▁Web -11856
ㄴㅣㄴㅈㅣ -11857
▁20100 -11858
▁ㄹㅐㅇㅅㅡ -11859
▁ㅂㅓㄴㅅㅏ -11860
▁ㅂㅣㅈㅇㅓ -11861
▁ㅇㅣㄹㄱㅐ -11862
▁ㅈㅏㅇㅂㅜ -11863
▁ㄱㅣㅁㅂㅗㅇ -11864
▁ㅁㅕㄴㅈㅓㅂ -11865
▁ㅈㅣㅂㅇㅑㄱ -11866
▁ㅈㅣㄴㅎㅡㅇㅇㅘㅇ -11867
▁ㅅㅏㅇㄹㅠㄱㅈㅏㄱㅈㅓㄴ -11868
ama -11869
▁219 -11870
▁UAE -11871
ㄷㅜㄴㄷㅏ -11872
ㅅㅓㄱㅅㅜ -11873
ㅇㅛㅇㄱㅏ -11874
▁ㄱㅡㅁㅇㅗ -11875
▁ㄱㅏㄱㅇㅣㄴ -11876
▁ㄱㅡㄱㅅㅓㅇ -11877
▁ㄴㅏㄴㅂㅏㅇ -11878
▁ㅅㅏㅇㅎㅑㅇ -11879
▁ㅈㅓㅇㅈㅏㅇ -11880
▁ㅈㅜㅇㅎㅡㅇ -11881
EX -11882
▁UF -11883
▁Mod -11884
▁ㅇㅑㅁ -11885
▁ㅈㅗㅁㅊㅓ -11886
▁ㅊㅏㅁㅅㅐ -11887
ㅊㅏㄱㅁㅣㄴ -11888
▁ㅁㅣㄹㅊㅏㄱ -11889
▁ㅅㅣㄹㅁㅜㄹ -11890
▁ㅇㅑㄱㅈㅓㅇ -11891
▁ㅇㅕㅆㅇㅓㅆ -11892
▁ㅇㅣㄴㅌㅓㄴ -11893
▁ㅈㅣㄴㅂㅗㅇ -11894
▁ㅅㅗㅇㄱㅘㅇㅅㅏ -11895
▁ㅅㅣㄴㅅㅜㄱㅈㅜ -11896
▁ㄷㅗㄱㄹㅣㅂㄷㅏㅇ -11897
ins -11898
▁RCA -11899
▁ㄱㅡㅂㅇㅠ -11900
▁ㄱㅣㅁㅂㅜ -11901
▁ㄹㅣㄴㄴㅔ -11902
▁ㅂㅗㄱㄱㅗ -11903
▁ㅂㅗㄴㄷㅡ -11904
▁ㅇㅜㄹㅌㅏ -11905
▁ㅇㅝㄴㅈㅣ -11906
▁ㅇㅣㅁㅈㅣ -11907
▁ㅎㅗㅅㅅㅡ -11908
ㅂㅜㄱㄷㅗㅇ -11909
▁ㄴㅐㅇㄷㅗㅇ -11910
▁ㅅㅏㄴㄱㅜㄴ -11911
▁ㅇㅕㄴㄱㅗㄹ -11912
eng -11913
▁ㅋㅟㄱ -11914
ㅅㅏㄹㅍㅣ -11915
ㅎㅏㅁㄷㅐ -11916
▁ㅅㅓㄴㅎㅘ -11917
▁ㅇㅏㄹㄷㅔ -11918
▁ㅇㅝㄴㅂㅜ -11919
▁ㅈㅣㄹㄹㅣ -11920
▁ㅎㅏㄴㄴㅣ -11921
ㄱㅘㅇㅅㅓㄱ -11922
▁ㅇㅠㄴㅈㅗㅇ -11923
▁ㅈㅓㅇㅅㅏㄴ -11924
▁ㅊㅓㄹㄱㅝㄴ -11925
▁ㅁㅕㅇㅂㅐㄱㅎㅣ -11926
▁ㄱㅘㄴㄱㅘㅇㅇㅓㅂ -11927
▁ㅇㅕㅇㄷㅗㅇㄱㅜㄴ -11928
▁ㅅㅗㄴㄲㅗㅂㅎㅣㄴㄷㅏ -11929
▁MY -11930
▁am -11931
▁213 -11932
▁ㅅㅟㅁ -11933
▁1841 -11934
ㄲㅡㄹㅇㅓ -11935
ㅍㅏㄹㄹㅗ -11936
▁ㄱㅜㅇㅈㅣ -11937
▁ㅁㅝㄴㄱㅏ -11938
▁ㅇㅕㄴㅊㅔ -11939
▁ㅇㅝㄴㅊㅣ -11940
▁ㅍㅏㄴㄱㅛ -11941
▁ㅅㅏㄹㄹㅗㅇ -11942
▁ㅇㅏㅁㅂㅏㄴ -11943
▁ㅇㅛㅇㅁㅜㄴ -11944
▁ㅇㅝㄴㄱㅠㄴ -11945
▁ㅌㅏㄱㅂㅏㄹ -11946
▁ㄲㅡㄶㅇㅣㅁㅇㅓㅄ -11947
▁ㅍㅕㅇㅇㅑㅇㅈㅣㄱㅎㅏㄹㅅㅣ -11948
▁UP -11949
ㅂㅠㅁ -11950
ㅈㅔㅅ -11951
▁ARM -11952
▁Rob -11953
▁ㅅㅐㅅ -11954
▁1843 -11955
▁HTTP -11956
ㅅㅏㄹㄹㅗ -11957
▁ㅇㅏㅇㅋㅗ -11958
ㄷㅓㄱㅁㅕㄴ -11959
▁ㄱㅕㄹㅅㅗㄱ -11960
▁ㅅㅡㅇㅊㅓㄴ -11961
▁ㅈㅓㄴㅎㅚㅇ -11962
▁ㅊㅜㄱㅇㅑㄱ -11963
▁... -11964
▁1809 -11965
ㅎㅕㄱㅈㅜ -11966
▁ㄸㅓㄹㅊㅣ -11967
▁ㅇㅏㄹㅂㅓ -11968
▁ㅇㅑㅇㅅㅏ -11969
▁ㅇㅣㄹㄹㅖ -11970
▁ㅈㅓㅇㄷㅐ -11971
ㅇㅣㄴㅇㅣㄴ -11972
▁ㅂㅏㄴㅈㅏㅇ -11973
▁ㅈㅏㅇㅈㅣㄱ -11974
▁ㅊㅜㅇㅈㅓㄹ -11975
▁ㅋㅡㄹㄹㅣㅂ -11976
▁ㅇㅡㄴㅍㅕㅇㄱㅜ -11977
▁ㅈㅏㄱㅇㅛㅇㅅㅗ -11978
▁ㅎㅏㅂㅂㅓㅂㅎㅘ -11979
▁ㅅㅓㄴㅂㅏㄹㅈㅓㄴ -11980
▁Je -11981
▁VV -11982
▁WK -11983
ㅋㅏㅇ -11984
▁YTN -11985
▁ㄸㅟㄹ -11986
ㄷㅡㄴㄷㅏ -11987
ㄹㅗㄹㅌㅓ -11988
ㅂㅏㅇㅇㅟ -11989
ㅇㅜㄹㅇㅕ -11990
▁ㅈㅡㅇㅇㅕ -11991
▁ㅎㅓㅁㅍㅡ -11992
▁ㅂㅓㄴㅂㅓㄴ -11993
▁ㅂㅗㄴㅈㅓㅁ -11994
▁ㅂㅜㄹㅁㅕㄹ -11995
▁ㅎㅘㅇㄱㅜㅇ -11996
▁ㅇㅏㅍㅈㅏㅇㅅㅓㅆ -11997
▁ㅎㅏㅁㅇㅑㅇㄱㅜㄴ -11998
03 -11999
na -12000
▁Im -12001
ㄱㅔㄴㅅㅠ -12002
ㅎㅏㄹㅁㅓ -12003
▁ㅂㅐㄱㅁㅏ -12004
▁ㅅㅔㄹㄹㅏ -12005
▁ㅌㅐㅇㅎㅘ -12006
▁ㅎㅗㄴㅅㅠ -12007
▁ㄴㅗㅎㅊㅕㅆ -12008
▁ㅁㅐㄹㅋㅓㅁ -12009
▁ㅅㅏㄴㅎㅏㄱ -12010
▁ㅊㅗㅇㅅㅏㅇ -12011
▁ㅎㅗㅇㅁㅕㅇ -12012
ㅂㅓㅂㅇㅕㄴㅅㅜ -12013
▁ㅂㅓㄴㅇㅕㄱㄱㅏ -12014
▁ㅈㅓㅇㅇㅡㅂㅅㅣ -12015
ㅍㅟ -12016
ams -12017
erm -12018
ㄱㅗㄱㅅㅏ -12019
ㄴㅏㄴㄷㅡ -12020
▁ㅅㅐㅇㅂㅜ -12021
▁ㅇㅑㅇㅈㅔ -12022
▁ㅂㅏㅁㅈㅜㅇ -12023
▁ㅅㅏㄴㅇㅑㅇ -12024
▁ㅅㅓㄱㅎㅏㄱ -12025
▁ㅇㅝㄴㅃㅜㄹ -12026
▁ㅈㅓㅇㄹㅏㅇ -12027
ㅅㅐㅇㅁㅜㄹㅎㅏㄱ -12028
▁ㅊㅗㅇㄷㅗㅇㅇㅝㄴ -12029
oph -12030
▁ㄱㅟㄴ -12031
▁1821 -12032
ㅈㅜㄴㅅㅣ -12033
▁ㅇㅣㅂㄱㅛ -12034
▁ㅈㅏㄹㅊㅡ -12035
▁ㅊㅜㄹㅌㅚ -12036
▁ㄱㅏㄴㅎㅓㄹ -12037
▁ㄲㅏㄹㄲㅡㅁ -12038
▁ㅂㅜㄴㅅㅣㄹ -12039
▁ㅅㅣㄴㅊㅗㄴ -12040
▁ㅎㅘㄴㅅㅐㅇ -12041
▁ㄷㅗㄱㄹㅣㅂㅅㅓㅇ -12042
▁ㅇㅡㅁㅅㅣㄱㅁㅜㄹ -12043
06 -12044
▁Mc -12045
▁BSD -12046
ations -12047
▁ㄷㅗㅇㅌㅐ -12048
▁ㅁㅣㅌㅂㅜ -12049
▁ㅂㅐㄱㅅㅡ -12050
▁ㅅㅜㄴㅅㅏ -12051
▁ㅅㅣㄴㄷㅡ -12052
▁ㅈㅗㄹㄹㅣ -12053
▁ㅊㅏㅁㅎㅗ -12054
ㄴㅏㄴㅁㅣㄴ -12055
ㅁㅜㄹㅈㅣㄹ -12056
▁ㄷㅗㅇㄱㅕㄹ -12057
▁ㅂㅏㅇㅎㅘㅇ -12058
▁ㅅㅓㄴㅅㅏㄴ -12059
▁ㅂㅏㅇㅁㅜㄴㅈㅏ -12060
▁ㅈㅓㅇㅂㅏㄴㄷㅐ -12061
▁ㄱㅡㅁㅅㅏㄴㄱㅜㄴ -12062
▁ㅇㅡㅁㅅㅓㅇㄱㅜㄴ -12063
▁ㅊㅏㅇㄴㅕㅇㄱㅜㄴ -12064
xy -12065
▁ㅆㅘ -12066
▁ㄱㅣㅇ -12067
ㅁㅣㅇㄱㅗ -12068
ㅊㅜㄴㄱㅣ -12069
▁ㅁㅕㅇㄱㅣ -12070
▁ㅅㅏㅁㄱㅏ -12071
▁ㅅㅏㅇㄴㅏ -12072
ㅇㅏㄴㅁㅕㄴ -12073
▁ㄱㅘㅇㅇㅝㄴ -12074
▁ㄱㅣㄹㅉㅜㄱ -12075
▁ㅅㅓㄴㅂㅏㅇ -12076
▁ㅈㅡㅇㄱㅝㄴㄱㅓ -12077
air -12078
▁ㅍㅏㅌ -12079
▁1623 -12080
▁1783 -12081
▁ㅌㅔㄴㅌㅡ -12082
ㄹㅜㄴㄱㅜㅇ -12083
ㅇㅕㅇㅎㅑㅇ -12084
▁ㄱㅕㄴㄷㅣㄹ -12085
▁ㄱㅘㄴㅊㅓㄹ -12086
▁ㄷㅏㄹㅇㅣㄴ -12087
▁ㅇㅡㄴㅅㅏㅇ -12088
▁ㅎㅘㅇㅅㅓㅇ -12089
▁ㅇㅓㅁㄱㅕㄱㅎㅣ -12090
▁ㅇㅑㅇㅂㅏㅇㅎㅑㅇ -12091
▁ver -12092
ㄷㄴㅏㄹ -12093
▁1835 -12094
▁Down -12095
ㅁㅏㅇㅈㅜ -12096
▁ㄱㅡㅂㅂㅜ -12097
▁ㄱㅣㅁㅎㅛ -12098
▁ㄷㅏㅇㄷㅗ -12099
▁ㅁㅣㄹㅋㅡ -12100
▁ㅅㅡㅇㅅㅗ -12101
▁ㅊㅡㄱㄷㅗ -12102
▁ㄱㅡㄴㅊㅣㄴ -12103
▁ㅇㅔㄹㄹㅔㄴ -12104
▁ㅇㅝㄴㅅㅜㄴ -12105
▁ㅊㅗㅇㄱㅘㄴ -12106
▁ㅉㅜ -12107
▁OVA -12108
▁ㅁㅔㅇ -12109
▁1803 -12110
▁1819 -12111
▁ㄷㅣㄹㄹㅔ -12112
▁ㅆㅡㄹㅁㅗ -12113
ㄱㅜㄱㅈㅏㅇ -12114
ㄱㅝㄴㄹㅕㄱ -12115
▁ㅁㅏㅈㅅㅓㅆ -12116
▁ㅊㅓㅇㅊㅓㄴ -12117
▁ㅎㅕㄱㅁㅕㅇㄷㅏㅇ -12118
▁International -12119
▁OR -12120
▁ㅇㅞㅁ -12121
▁1799 -12122
▁ㄱㅏㄱㅇㅗ -12123
▁ㄱㅕㄴㄱㅘ -12124
▁ㅇㅗㄹㄱㅏ -12125
▁ㅇㅝㄴㄷㅐ -12126
▁ㅈㅣㅂㄷㅐ -12127
▁ㅎㅏㅇㄱㅓ -12128
▁ㅎㅐㄱㅁㅣ -12129
▁ㅎㅕㅇㅇㅣ -12130
▁ㅎㅘㅇㅎㅘ -12131
ㅅㅣㄴㄱㅕㅇ -12132
▁ㅁㅗㄹㅅㅏㄹ -12133
▁ㅂㅓㄴㅂㅗㄱ -12134
▁ㅆㅏㅇㅂㅏㅇ -12135
▁ㅇㅕㄴㅍㅣㄹ -12136
▁ㅈㅏㅇㄹㅕㄱ -12137
▁ㅊㅗㅇㄹㅕㄱ -12138
▁EA -12139
▁RF -12140
ㄹㅚㅁ -12141
▁Off -12142
▁ㄱㅏㄱㄱㅖ -12143
▁ㄴㅏㅁㅋㅗ -12144
▁ㅁㅏㅈㅇㅏ -12145
▁ㅁㅔㅅㄷㅙ -12146
▁ㅈㅓㅇㅁㅣ -12147
▁ㅎㅢㄴㄱㅐ -12148
▁ㅇㅣㄹㄱㅘㅇ -12149
▁ㄱㅕㅇㅅㅜㄴㅇㅘㅇ -12150
▁ㅇㅕㅇㅇㅏㅁㄱㅜㄴ -12151
ㅈㅛ -12152
ㄴㅜㄹㅍㅡ -12153
ㄷㅓㄱㄹㅣ -12154
ㅂㅡㄹㄹㅏ -12155
▁ㄷㅏㄴㄱㅏ -12156
▁ㅎㅘㅇㅈㅜ -12157
ㅈㅓㄱㄷㅏㄴ -12158
▁ㄱㅜㄴㅇㅘㅇ -12159
▁ㄱㅝㄴㅅㅓㄴ -12160
▁ㅁㅣㄴㅈㅣㄴ -12161
▁ㅈㅣㄴㄷㅗㅇㅅㅜ -12162
▁ㅂㅓㄴㅇㅕㄱㅂㅗㄴ -12163
▁ㅊㅣㄴㄷㅗㅇㅅㅐㅇ -12164
NS -12165
▁GE -12166
▁Sk -12167
▁227 -12168
▁275 -12169
▁Inc -12170
▁She -12171
▁ㅇㅝㅇ -12172
▁1813 -12173
▁1845 -12174
ㄹㅐㄴㄷㅗ -12175
ㅎㅓㄴㄷㅐ -12176
▁Korea -12177
▁ㅅㅐㅇㅎㅜ -12178
▁ㅇㅕㄴㄹㅖ -12179
▁ㅊㅓㅇㅈㅗ -12180
▁ㅌㅗㅇㄱㅏ -12181
ㅂㅗㄱㅇㅡㅁ -12182
ㅊㅓㅇㅈㅓㅇ -12183
▁ㄱㅕㄹㅂㅓㄴ -12184
▁ㄴㅏㅁㅊㅡㄱ -12185
▁ㄴㅗㅇㅇㅏㄱ -12186
▁ㅅㅣㄴㅂㅕㄴ -12187
▁ㅇㅓㅂㅈㅗㅇ -12188
▁ㅈㅐㅇㅌㅏㄹ -12189
▁ㅊㅓㅇㄴㅕㄴㄷㅏㄴ -12190
du -12191
ava -12192
▁VR -12193
atur -12194
▁316 -12195
ㄹㅐㄴㅈㅡ -12196
ㅃㅜㄹㅅㅗ -12197
ㅇㅣㄴㄱㅣ -12198
▁ㄱㅡㅁㅎㅏ -12199
▁ㄷㅓㄴㅅㅡ -12200
▁ㅅㅔㄱㅌㅓ -12201
▁ㅅㅣㄴㅂㅗ -12202
▁ㅋㅏㄴㅌㅗ -12203
▁ㅌㅡㄱㅍㅏ -12204
▁ㅎㅓㄴㅌㅡ -12205
ㅈㅓㅇㅍㅏㄴ -12206
ㅌㅗㅇㄹㅑㅇ -12207
▁ㅅㅐㄱㅅㅡㄴ -12208
▁ㅇㅜㄹㄹㅣㅁ -12209
▁ㅈㅜㅇㅁㅜㄴ -12210
▁ㄱㅕㅌㄷㅡㄹㅇㅕ -12211
▁ㅈㅜㅇㅎㅏㅂㅎㅛ -12212
▁ㅎㅜㄴㄹㅕㄴㅅㅗ -12213
▁Ste -12214
▁are -12215
▁1804 -12216
ㄷㅣㄴㄱㅏ -12217
▁ㅁㅜㅇㅊㅣ -12218
▁ㅅㅏㅇㄱㅓ -12219
▁ㅈㅏㅇㅇㅠ -12220
▁ㅊㅗㅇㅅㅓ -12221
ㅅㅡㄹㄹㅏㄴ -12222
▁ㅁㅣㄹㅈㅓㅇ -12223
▁ㅂㅏㄹㄷㅏㄴ -12224
▁ㅅㅜㄴㄱㅜㄱ -12225
▁ㅊㅣㅁㅊㅏㄱ -12226
▁ㄱㅘㅇㅁㅕㅇㅅㅣ -12227
eet -12228
▁Bel -12229
▁POS -12230
ㄱㅜㄴㄱㅣ -12231
▁Award -12232
▁Micro -12233
▁ㄱㅜㅇㄴㅕ -12234
▁ㅃㅗㅂㅎㅣ -12235
▁ㅅㅣㄴㅌㅗ -12236
▁ㅇㅟㅇㅅㅡ -12237
▁ㅇㅡㅇㄱㅗ -12238
▁ㅎㅡㄱㅅㅏ -12239
ㅊㅗㄴㅁㅕㄴ -12240
▁ㄷㅗㅇㄱㅘㄴ -12241
▁ㅇㅗㄴㅇㅑㅇ -12242
▁ㅇㅘㄴㅊㅜㅇ -12243
▁ㅈㅓㅇㅇㅠㄱ -12244
▁ㅎㅏㅁㅇㅣㄴ -12245
▁ㅎㅐㅇㅂㅓㅂ -12246
▁ㅎㅕㄴㅇㅏㄴ -12247
ㅇㅣㄴㅈㅓㄹㅅㅡ -12248
▁ㄷㅓㄱㅇㅑㅇㄱㅜ -12249
45 -12250
▁ㅊㅞ -12251
▁Act -12252
▁1802 -12253
▁2023 -12254
▁comp -12255
▁ㅊㅏㅇㅅㅏ -12256
▁ㅎㅏㄴㅅㅜ -12257
ㄷㅗㅇㄱㅜㄱ -12258
ㅈㅜㄴㄱㅕㅇ -12259
▁ㄱㅏㄴㅊㅓㅇ -12260
▁ㄴㅏㅁㅁㅕㅇ -12261
▁ㅅㅏㄴㅎㅕㄴ -12262
▁ㅇㅑㅇㄱㅗㅇ -12263
▁ㅇㅘㅇㅈㅓㄴ -12264
▁ㅎㅏㄴㅈㅣㄴ -12265
riv -12266
aster -12267
ㅋㅔㄹㄹㅔ -12268
ㅌㅏㄴㅌㅡ -12269
▁ㄱㅓㄴㅈㅣ -12270
▁ㅁㅣㄹㅅㅜ -12271
▁ㅅㅓㅇㅇㅠ -12272
ㅅㅓㅇㄹㅛㅇ -12273
▁ㅈㅓㄴㄱㅜㄴ -12274
▁ㅊㅓㅇㅇㅑㅇ -12275
▁ㅈㅓㅇㅎㅏㄴㄷㅏ -12276
ues -12277
▁Che -12278
▁par -12279
▁ㅃㅐㄴ -12280
▁ㅋㅘㄴ -12281
▁1824 -12282
▁Power -12283
▁ㅂㅓㅂㅈㅜ -12284
▁ㅅㅓㄴㅈㅜ -12285
▁ㅇㅣㅂㅅㅗ -12286
▁ㅎㅗㄴㅈㅐ -12287
ㄹㅡㄴㅅㅐㄱ -12288
ㅊㅓㄴㅇㅡㅂ -12289
ㅎㅏㄱㅅㅣㄱ -12290
▁ㄱㅏㄴㅊㅓㄱ -12291
▁ㄱㅡㄴㅅㅣㅁ -12292
▁ㅅㅓㄴㅂㅜㄴ -12293
▁ha -12294
▁ㅆㅗㄹ -12295
ittle -12296
▁1805 -12297
▁ㄱㅐㄱㅅㅏ -12298
▁ㅁㅏㄴㅎㅗ -12299
▁ㅌㅏㅂㅂㅣ -12300
▁ㅎㅗㅇㅁㅜ -12301
ㄱㅕㄱㅈㅓㄴ -12302
ㅍㅡㄹㄹㅣㅅ -12303
ㅎㅕㄹㅂㅕㅇ -12304
▁ㄱㅡㅁㄷㅏㅇ -12305
▁ㅁㅜㄴㄷㅏㅂ -12306
▁ㅇㅔㅇㄱㅔㄹ -12307
▁ㅇㅡㄴㅅㅐㄱ -12308
▁ㅇㅣㅂㅅㅓㄴ -12309
▁ㅈㅣㄴㅍㅗㄱ -12310
▁ㅎㅙㅅㅂㅜㄹ -12311
▁ㅇㅝㄴㄷㅗㅇㄹㅕㄱ -12312
▁ㅊㅜㄹㅇㅕㄴㅈㅣㄴ -12313
▁ㅎㅗㅇㅅㅓㅇㄱㅜㄴ -12314
▁ㅅㅣㄴㅇㅑㄱㅅㅓㅇㄱㅕㅇ -12315
MI -12316
▁DX -12317
ates -12318
▁218 -12319
ㅍㅕㅇㄷㅐ -12320
▁ㄱㅡㅁㅈㅜ -12321
▁ㅂㅕㄴㅇㅢ -12322
ㅅㅜㄹㄹㅕㄱ -12323
▁ㄱㅕㅁㅅㅗㄴ -12324
▁ㄷㅗㄱㄷㅏㄴ -12325
▁ㅇㅘㅇㅁㅏㅇ -12326
▁ㅇㅠㄴㅅㅏㅇ -12327
▁ㅇㅣㄴㅁㅐㄱ -12328
▁ㄷㅏㅇㄱㅏㄴㅈㅣ -12329
▁ㅅㅐㅇㅁㅜㄹㅊㅔ -12330
▁OEC -12331
▁all -12332
irect -12333
▁Just -12334
▁ㄱㅓㅌㅁㅗ -12335
▁ㄴㅓㅁㄴㅏ -12336
▁ㅁㅏㄴㄴㅔ -12337
▁ㅂㅔㄴㅌㅜ -12338
▁ㅎㅐㅇㅈㅜ -12339
▁ㅂㅏㄴㅌㅏㄱ -12340
▁ㅈㅓㅇㅇㅜㄴ -12341
▁ㅌㅡㄱㅅㅏㄴ -12342
▁ㅁㅏㅈㅁㅜㄹㄹㅕ -12343
▁ㅁㅜㄴㅇㅣㄴㅅㅓㄱ -12344
▁ㅈㅓㄴㅅㅏㄴㅁㅏㅇ -12345
▁512 -12346
▁ㄷㅐㄱ -12347
▁YMCA -12348
ㅇㅏㄴㅅㅡ -12349
ㅎㅐㄱㅎㅘ -12350
▁ㄲㅗㄱㄷㅜ -12351
▁ㄹㅏㄹㅍㅡ -12352
▁ㅊㅏㄴㅅㅡ -12353
▁ㅌㅏㄹㅂㅏ -12354
▁ㄷㅗㄹㅈㅣㄴ -12355
▁ㅈㅓㄴㄹㅠㄴ -12356
▁ㄷㅗㅇㅂㅏㄴㅈㅏ -12357
▁ㅇㅗㄹㄹㅣㄴㄷㅏ -12358
ㅂㅕㅌ -12359
▁Ang -12360
▁ㅎㅔㅁ -12361
▁Game -12362
ㄴㅏㄹㄷㅜ -12363
▁ㄱㅏㄱㅅㅓ -12364
▁ㄱㅏㄴㅆㅜ -12365
▁ㄷㅏㅇㅂㅜ -12366
▁ㅁㅏㄱㅂㅏ -12367
▁ㅂㅏㄱㅊㅏ -12368
▁ㅂㅜㄹㅇㅢ -12369
▁ㅅㅣㄴㄷㅏ -12370
▁ㅎㅏㅁㅍㅗ -12371
ㄷㅗㅇㅈㅣㄴ -12372
ㅁㅏㄴㄱㅡㅁ -12373
ㅁㅜㄴㅇㅘㅇ -12374
▁ㄴㅓㄼㅈㅓㄱ -12375
▁ㅂㅐㄱㄱㅡㅁ -12376
▁ㅅㅓㅇㅅㅏㅇ -12377
▁ㅇㅗㄱㅈㅜㅇ -12378
▁ㅎㅕㄹㅇㅕㄴ -12379
ARD -12380
ㅂㅗㅁ -12381
▁305 -12382
▁501 -12383
▁Ind -12384
▁ㄲㅓㅂ -12385
▁1775 -12386
ㄹㅐㅅㅂㅜ -12387
▁ㅂㅓㄹㄹㅣ -12388
▁ㅂㅗㄴㄱㅏ -12389
▁ㅅㅓㄴㄷㅏ -12390
▁ㅅㅡㅇㅍㅐ -12391
▁ㅇㅠㄱㄹㅠ -12392
▁ㅈㅓㄹㄱㅐ -12393
ㅎㅐㅇㅇㅝㄴ -12394
▁ㄷㅏㄴㄴㅕㅁ -12395
▁ㄷㅗㄹㅍㅜㅇ -12396
▁ㅈㅏㅂㅇㅡㅁ -12397
▁ㅊㅏㄴㅂㅏㄴ -12398
▁ㅊㅗㅇㅅㅣㄴ -12399
▁ㄷㅗㅇㅈㅏㄱㄱㅜ -12400
▁ㅎㅏㅁㅇㅏㄴㄱㅜㄴ -12401
▁ㅋㅗㅁㅍㅡㄹㄹㅔㄱㅅㅡ -12402
▁ㄱㅕㅁㅂㅣ -12403
▁ㄷㅏㄴㅌㅔ -12404
▁ㅂㅓㅁㅎㅏ -12405
▁ㅅㅏㅇㅇㅏ -12406
▁ㅅㅜㄴㅊㅣ -12407
▁ㅇㅜㄹㄹㅏ -12408
▁ㅇㅡㅇㅁㅗ -12409
▁ㅈㅜㅇㄹㅠ -12410
ㄹㅗㅁㅇㅞㄹ -12411
▁ㅅㅣㅁㅎㅕㄹ -12412
▁ㅇㅏㄹㄹㅣㄴ -12413
▁ㅇㅗㄻㄱㅣㄹ -12414
▁ㅈㅜㅇㅊㅏㅇ -12415
▁ㅎㅏㄴㄴㅜㄴ -12416
ㄴㅏㅁㅅㅣ -12417
ㄹㅗㅇㅋㅡ -12418
ㅇㅕㄹㅅㅡ -12419
▁ㄱㅜㄴㅅㅗ -12420
▁ㄱㅣㅁㅈㅘ -12421
▁ㅈㅏㄱㅎㅘ -12422
▁ㅅㅗㅇㅈㅜㄴ -12423
▁ㅅㅣㄴㄱㅔㄴ -12424
▁ㅈㅏㅇㅊㅜㅇ -12425
▁ㅇㅞㅁㅂㅡㄹㄹㅣ -12426
▁ㅈㅓㄴㅈㅐㅇㅌㅓ -12427
▁303 -12428
▁CNN -12429
ㄹㅣㄴㅌㅗ -12430
ㅅㅐㅁㅍㅡ -12431
▁ㄹㅗㄱㅅㅡ -12432
▁ㅇㅡㅁㅅㅜ -12433
▁ㅈㅓㅇㄷㅏ -12434
ㄹㅡㅁㅇㅓㅄ -12435
▁ㄱㅏㅇㅍㅏㄴ -12436
▁ㄷㅗㅇㅊㅓㄴ -12437
▁ㅁㅜㄴㄱㅗㅇ -12438
▁ㅂㅗㄱㄱㅓㄴ -12439
▁ㅅㅐㅇㄴㅕㄴ -12440
▁ㅇㅕㄱㅂㅓㅂ -12441
▁ㅇㅕㅇㅊㅏㅇ -12442
▁ㅈㅏㅇㅂㅗㄴ -12443
TO -12444
ape -12445
▁Em -12446
▁TF -12447
▁325 -12448
▁ㅁㅔㄱ -12449
▁1392 -12450
▁1808 -12451
ㄹㅜㄴㄷㅣ -12452
ㄹㅜㄹㄹㅜ -12453
▁ㄱㅣㄴㄲㅗ -12454
▁ㄷㅏㅁㅇㅏ -12455
▁ㄷㅗㅇㅇㅜ -12456
▁ㅈㅏㅇㅁㅗ -12457
▁ㄱㅏㅁㅅㅗㄱ -12458
▁ㄱㅜㄹㄱㅗㄱ -12459
▁ㄱㅡㅁㅍㅜㅁ -12460
▁ㄱㅣㅁㅇㅣㄱ -12461
▁ㅇㅖㄹㅊㅣㄴ -12462
▁ㅇㅡㅁㄱㅡㄱ -12463
ㄴㅗㄹㄹㅜㄹㄹㅜ -12464
▁ㅎㅏㄱㄴㅕㄴㄷㅗ -12465
▁Bu -12466
▁Who -12467
▁ㄸㅐㄴ -12468
▁ㅍㅣㅂ -12469
ㅅㅂㅣㅊ -12470
ㄱㅕㅇㅈㅔ -12471
ㄹㅗㅂㅎㅣ -12472
▁ㄱㅗㅇㅈㅔ -12473
▁ㄲㅡㅌㅁㅏ -12474
▁ㅁㅏㄴㅈㅣ -12475
▁ㅂㅗㄹㄱㅏ -12476
▁ㅅㅏㄴㄴㅗ -12477
ㅁㅏㄴㄱㅏㅇ -12478
ㅈㅗㄱㄱㅘㄴ -12479
▁ㄱㅏㅁㅇㅕㅇ -12480
▁ㄱㅕㅇㅈㅣㄱ -12481
▁ㅂㅜㄴㄹㅣㅂ -12482
▁ㅈㅏㅇㅂㅏㅇ -12483
▁ㅈㅡㅇㅅㅓㄹ -12484
▁Records -12485
▁401 -12486
▁Tim -12487
▁OECD -12488
ㅅㅔㄹㄷㅗ -12489
▁ㄱㅜㅇㅇㅖ -12490
▁ㄷㅗㅇㅈㅜ -12491
▁ㅇㅛㅇㄷㅜ -12492
▁ㅇㅝㄴㄱㅓ -12493
▁ㅌㅣㄹㄹㅣ -12494
ㅈㅓㄱㅁㅜㄹ -12495
ㅈㅓㅇㅊㅐㄱ -12496
▁ㄹㅗㄱㅁㅐㄴ -12497
▁ㅁㅏㄴㄹㅕㄱ -12498
▁ㅂㅕㅇㅈㅏㅇ -12499
▁ㅅㅓㅇㄱㅕㄹ -12500
▁ㅇㅓㄺㅎㅣㄴ -12501
▁ㅇㅕㅇㅎㅡㅇ -12502
▁ㅇㅡㅁㄱㅏㄱ -12503
▁ㅈㅣㅇㅇㅕㄱㅎㅕㅇ -12504
CO -12505
DR -12506
ㄹㅍㅡ -12507
▁Ass -12508
▁How -12509
▁1807 -12510
▁9000 -12511
ㄷㅓㄱㅅㅏ -12512
ㅋㅗㄴㅌㅣ -12513
ㅎㅕㄴㄹㅣ -12514
▁ㄹㅐㄴㅅㅡ -12515
▁ㅂㅏㄱㅎㅢ -12516
▁ㅇㅕㅇㅈㅔ -12517
▁ㅎㅘㅇㅁㅜ -12518
▁ㅂㅏㄱㅊㅓㄹ -12519
▁ㅂㅗㅇㅅㅡㅇ -12520
▁ㅅㅓㄱㅊㅜㄱ -12521
▁ㅈㅓㄴㅂㅓㅂ -12522
▁ㅎㅘㄹㄹㅕㄱ -12523
▁ㅇㅠㄴㅅㅓㄴㄷㅗ -12524
▁ㄱㅘㄴㄹㅏㅁㄱㅐㄱ -12525
▁ㅈㅜㅇㅇㅏㅇㄷㅏㅇ -12526
▁ㅎㅏㅂㅈㅜㅇㄱㅜㄱ -12527
▁TP -12528
ㅊㅣㅅ -12529
ㅋㅟㄴ -12530
▁Dav -12531
▁FTA -12532
▁RFC -12533
▁Mark -12534
ㄴㅏㄴㅎㅣ -12535
ㄷㅡㅂㅈㅔ -12536
ㅌㅠㄴㅈㅡ -12537
▁ㄱㅕㄹㅂㅜ -12538
▁ㅁㅣㄴㄷㅏ -12539
▁ㅅㅏㅇㅂㅗ -12540
▁ㅇㅣㄴㅂㅓ -12541
▁ㅇㅣㄴㅇㅓ -12542
▁ㅉㅏㄱㅅㅏ -12543
▁ㅊㅔㄹㄹㅣ -12544
ㅂㅓㄹㄹㅣㄴ -12545
ㅇㅣㅁㄱㅘㄴ -12546
▁ㄴㅏㄴㅇㅣㅂ -12547
▁ㅁㅕㅇㄱㅗㄱ -12548
▁ㅌㅏㄴㅌㅏㄴ -12549
ㅅㅗㅅ -12550
ster -12551
▁Fire -12552
ㄹㅣㄴㅇㅏ -12553
ㅂㅗㅇㄱㅜ -12554
▁ㄱㅗㅇㄱㅜ -12555
▁ㅁㅏㄹㅂㅓ -12556
▁ㅅㅏㄴㅅㅔ -12557
▁ㅇㅐㅇㅁㅜ -12558
▁ㅇㅠㄱㅈㅗ -12559
▁ㅇㅣㄴㅎㅘ -12560
ㄹㅜㅅㅂㅏㅁ -12561
▁ㅁㅣㄴㅂㅕㅇ -12562
▁ㅂㅏㄴㅇㅝㄹ -12563
▁ㅈㅓㄴㄱㅏㄱ -12564
▁ㅈㅓㅇㅅㅓㄱ -12565
▁ㅈㅓㄴㅇㅣㅁㅈㅏ -12566
▁ㅁㅗㅇㄱㅗㄹㅈㅗㄱ -12567
▁ㅇㅕㅇㅇㅕㄴㅂㅏㅇ -12568
ㄷㅕ -12569
ari -12570
▁KAI -12571
▁Pre -12572
▁Tri -12573
▁1834 -12574
ㅅㅔㄹㄹㅏ -12575
ㅇㅜㄹㄱㅣ -12576
▁ㅂㅗㅁㅂㅏ -12577
▁ㅂㅜㄴㅌㅜ -12578
▁ㅊㅣㄴㄱㅛ -12579
ㄴㄷㅡㄹㄹㅓ -12580
▁ㄱㅕㅁㅎㅐㅆ -12581
▁ㄴㅗㅍㅇㅣㄹ -12582
▁ㄷㅏㄴㅍㅜㅇ -12583
▁ㅁㅣㄴㅅㅐㅇ -12584
▁ㅅㅓㅇㅊㅏㄹ -12585
▁ㅇㅣㄴㅂㅏㅇ -12586
▁ㅅㅐㅇㅅㅏㄴㄹㅕㄱ -12587
▁ㅍㅗㄱㅂㅏㄹㅁㅜㄹ -12588
▁224 -12589
▁777 -12590
▁net -12591
▁ㄱㅐㄴ -12592
ㅅㅡㅇㅎㅢ -12593
▁ㄲㅓㅂㄷㅔ -12594
▁ㄴㅏㄴㅂㅜ -12595
▁ㅆㅏㅎㅇㅣ -12596
▁ㅈㅓㄴㅌㅐ -12597
▁ㅈㅗㅇㅈㅣ -12598
▁ㅈㅣㄴㅇㅔ -12599
▁ㅎㅘㅇㅈㅗ -12600
ㅅㅓㄴㅈㅗㄱ -12601
▁ㄱㅕㄹㅈㅓㅁ -12602
▁ㄱㅣㅁㅅㅜㄴ -12603
▁ㄱㅣㅁㅌㅐㄱ -12604
▁ㄷㅗㄹㄱㅝㄹ -12605
▁ㄷㅟㅅㄴㅏㄹ -12606
▁ㅅㅓㄱㄱㅜㄹ -12607
▁ㅊㅜㅇㅈㅓㅇ -12608
▁ㅅㅣㄴㅅㅐㅇㅇㅏ -12609
▁ㅅㅣㄹㅈㅗㅇㅈㅏ -12610
▁ㅈㅜㅇㄹㅏㅇㅈㅏㅇ -12611
▁ㅎㅗㅇㅊㅓㄴㄱㅜㄴ -12612
▁DE -12613
▁di -12614
ther -12615
▁244 -12616
▁ㄲㅜㅀ -12617
▁ㅅㅛㄹ -12618
▁20200 -12619
▁Dance -12620
▁ㄴㅏㄴㅂㅏ -12621
▁ㅂㅏㄴㅅㅣ -12622
▁ㅈㅗㅇㅈㅗ -12623
▁ㅍㅗㄴㅌㅣ -12624
▁ㅎㅐㅇㅊㅏ -12625
▁ㅅㅜㄴㅈㅓㄹ -12626
▁ㅇㅑㅇㄷㅏㅇ -12627
▁ㅈㅜㅇㄱㅜㄱㅅㅣㄱ -12628
▁ㄴㅘ -12629
▁940 -12630
▁Air -12631
▁Und -12632
▁Real -12633
ㅇㅡㅁㅍㅏ -12634
ㅌㅔㄹㄹㅣ -12635
ㅍㅔㄹㄹㅣ -12636
ㅎㅐㅆㅇㅡ -12637
▁ㅅㅐㄴㅌㅏ -12638
▁ㅊㅗㅇㅍㅏ -12639
▁ㅎㅗㅇㅈㅗ -12640
▁ㄱㅝㄴㅇㅕㅇ -12641
▁ㅂㅏㅇㅁㅗㄱ -12642
▁ㅂㅐㄱㅂㅓㅁ -12643
▁ㅈㅓㅇㅇㅕㄴ -12644
▁ㅈㅣㄴㅇㅘㅇ -12645
ㄱㅓㄴㅂㅗㄱㅈㅣ -12646
ㅇㅔㄴㄴㅏㄹㄹㅔ -12647
▁ㅇㅕㅆㅇㅡㅁㅇㅔ -12648
▁ㄱㅜㄱㄱㅕㅇㅅㅓㄴ -12649
▁ㅎㅐㅇㅈㅣㄴㄱㅗㄱ -12650
▁gr -12651
ㄴㅐㅁ -12652
ited -12653
ring -12654
▁999 -12655
▁Cal -12656
▁Hol -12657
▁ㅆㅣㅂ -12658
▁1597 -12659
ㅈㅏㅇㅇㅣ -12660
▁ㄷㅏㅇㄱㅜ -12661
▁ㄹㅏㄱㅅㅡ -12662
▁ㅇㅗㄴㄱㅔ -12663
▁ㅈㅏㅇㄷㅗ -12664
ㅇㅣㅁㄴㅔㅅ -12665
▁ㅅㅗㄱㅂㅏㄱ -12666
▁ㅈㅏㅂㅈㅗㅇ -12667
▁ㅌㅡㄱㅈㅣㄴ -12668
▁ㅈㅓㅁㄹㅕㅇㅈㅣ -12669
▁IL -12670
▁imp -12671
▁ㅅㅞㄹ -12672
▁ㄱㅜㄴㄴㅐ -12673
▁ㅅㅐㄴㄷㅓ -12674
▁ㅈㅣㅂㅅㅣ -12675
ㄹㅏㅇㅋㅔㄴ -12676
▁ㄱㅏㅇㅁㅣㄴ -12677
▁ㄴㅏㅁㅁㅏㄴ -12678
▁ㅁㅜㄴㄹㅏㄴ -12679
▁ㅁㅣㄴㅊㅓㅂ -12680
▁ㅅㅗㅇㅇㅕㅇ -12681
▁ㅈㅓㄴㄹㅕㅇ -12682
▁ㅈㅜㅇㄱㅜㄴ -12683
▁ㅈㅣㄴㅍㅕㅇ -12684
▁ㅂㅏㄹㅅㅏㅇㅈㅣ -12685
▁ㅅㅏㅇㄹㅗㄱㅅㅜ -12686
▁ㅇㅗㄹㄹㅐㄴㄷㅗ -12687
▁ㅇㅘㄴㅅㅓㅇㄷㅗ -12688
▁253 -12689
▁Fre -12690
▁ㅂㅗㅂ -12691
Force -12692
ㄱㅏㄱㅅㅏ -12693
ㄹㅜㅁㅍㅜ -12694
▁ㄴㅗㅇㄴㅗ -12695
▁ㅅㅑㄹㄹㅗ -12696
▁ㅅㅗㄱㄱㅣ -12697
▁ㅈㅓㄴㅊㅣ -12698
ㅉㅐㅆㄷㅡㄴ -12699
▁ㅁㅜㄲㅇㅡㅁ -12700
▁ㅇㅕㄱㄱㅏㄴ -12701
▁ㅈㅜㅇㄴㅕㄴ -12702
ATA -12703
▁263 -12704
▁ㄲㅗㄴ -12705
ㄱㅓㄴㅈㅜ -12706
ㄱㅓㄴㅊㅜㄱ -12707
▁ㄱㅏㅇㅂㅏㄱ -12708
▁ㅊㅏㄴㅅㅗㅇ -12709
▁ㅍㅜㄹㅂㅏㅌ -12710
▁ㅇㅡㅁㅇㅏㄱㅅㅏㅇ -12711
▁ㅍㅐㄴㅋㅡㄹㄹㅓㅂ -12712
OCA -12713
ook -12714
ㅂㅏㄲ -12715
ning -12716
▁237 -12717
▁321 -12718
▁org -12719
▁ㅉㅣㅁ -12720
▁AIDS -12721
ㅈㅣㄴㄱㅏ -12722
▁ㄱㅣㄹㄱㅏ -12723
▁ㅍㅏㄴㅁㅜ -12724
ㄱㅗㅂㄱㅡㄴ -12725
ㅁㅜㄴㅇㅝㄴ -12726
ㅈㅗㄴㅅㅣㅁ -12727
ㅈㅜㅇㅅㅓㅇ -12728
▁ㄱㅕㄱㄷㅗㄹ -12729
▁ㄱㅜㄴㅇㅕㄱ -12730
▁ㄴㅏㅂㅂㅜㄱ -12731
▁ㄷㅡㄹㅍㅏㄴ -12732
▁ㅁㅗㄱㅊㅜㄱ -12733
▁ㅂㅏㄱㅁㅕㅇ -12734
▁ㅂㅏㄹㅁㅜㄴ -12735
▁ㅂㅗㄹㄹㅣㅇ -12736
▁ㅇㅡㅇㅊㅜㄱ -12737
▁ㅈㅣㄴㅂㅓㅂ -12738
▁ㄴㅜㄴㄷㅗㅇㅈㅏ -12739
▁ㄱㅗㅇㅇㅑㅇㅇㅘㅇ -12740
bs -12741
▁;" -12742
▁MK -12743
ated -12744
▁265 -12745
▁UTC -12746
ㅁㅗㄱㄱㅜ -12747
ㅌㅔㅁㅂㅔ -12748
▁ㅁㅏㅇㅎㅏ -12749
▁ㅁㅜㄴㄹㅣ -12750
▁ㅂㅗㄹㄹㅔ -12751
▁ㅂㅜㄹㅎㅓ -12752
▁ㅇㅐㄴㅌㅡ -12753
▁ㅇㅝㄴㅎㅗ -12754
▁ㅈㅓㅇㅎㅖ -12755
▁ㅍㅔㄹㄹㅏ -12756
▁ㅁㅜㄴㅎㅏㅇ -12757
▁ㅇㅟㅁㅂㅡㄹ -12758
▁ㅍㅕㄴㅍㅕㅇ -12759
▁ㅍㅜㅇㅅㅏㄴ -12760
ㄹㅗㄹㄹㅣㅇㄱㅓ -12761
▁ㄱㅗㅇㄱㅕㄱㄹㅕㄱ -12762
▁ㅅㅓㄹㄷㅡㄱㄹㅕㄱ -12763
GE -12764
zy -12765
oud -12766
▁Ig -12767
▁Si -12768
ㄴㅔㅁ -12769
▁DMB -12770
▁ㄲㅐㅆ -12771
▁ㅋㅕㄹ -12772
▁ㅎㅣㅇ -12773
other -12774
▁Jour -12775
ㄴㅣㅇㄱㅜ -12776
ㅂㅏㄹㅇㅠ -12777
▁ㄱㅘㄴㅂㅜ -12778
▁ㄷㅓㅇㅊㅣ -12779
▁ㅅㅏㄴㅎㅜ -12780
▁ㅅㅏㅁㅁㅐ -12781
▁ㅅㅏㅁㅇㅟ -12782
▁ㅈㅏㅇㅎㅘ -12783
ㄷㅐㅅㄱㅏㅄ -12784
ㅅㅏㄴㅎㅏㅇ -12785
▁ㅅㅣㄱㅇㅡㅂ -12786
▁ㅇㅑㅇㅌㅓㄹ -12787
▁ㅇㅛㅇㅂㅓㅂ -12788
▁ㅍㅏㄴㄷㅗㄱ -12789
▁ㄷㅡㄱㅈㅓㅁㅈㅏ -12790
▁ㅊㅜㄹㅂㅏㄹㅈㅓㅁ -12791
▁ㅎㅐㅇㅂㅏㅇㅂㅜㄹㅁㅕㅇ -12792
▁KF -12793
▁Pol -12794
▁ㅍㅕㅆ -12795
▁ㅇㅣㅂㅎㅚ -12796
▁ㅎㅡㄱㅈㅏ -12797
ㅂㅜㄴㅂㅕㄹ -12798
ㅌㅡㄷㄴㅏㄹ -12799
▁ㄴㅗㄹㄹㅏㅂ -12800
▁ㅈㅜㅇㄱㅕㅇ -12801
▁ㅎㅗㅇㅂㅐㄱㄱㅏ -12802
▁ㄷㅏㄴㅇㅑㅇㄱㅜㄴ -12803
▁ㅇㅟㅁㅂㅡㄹㄷㅓㄴ -12804
▁245 -12805
▁530 -12806
ㄴㅐㅂㅅㅡ -12807
▁Again -12808
▁ㅁㅕㄴㅎㅘ -12809
▁ㅅㅗㄴㅇㅗ -12810
▁ㅇㅗㄱㄱㅗ -12811
▁ㅈㅣㄱㄱㅜ -12812
▁ㅋㅓㄴㅂㅓ -12813
▁ㅋㅣㅂㅊㅏ -12814
ㅅㅓㄱㅂㅏㅇ -12815
ㅇㅡㅁㄱㅗㄱ -12816
▁ㅅㅏㄹㄹㅣㄴ -12817
▁ㅅㅓㅇㅇㅕㄱ -12818
▁ㅈㅓㄴㅇㅕㅇ -12819
▁ㅎㅐㅅㅂㅕㅌ -12820
▁ㅎㅔㄹㅁㅔㅅ -12821
▁ㅂㅗㄱㅅㅜㅇㅇㅏ -12822
▁ㅅㅣㄴㅇㅏㅇㄱㅗ -12823
ㅇㅑㄱㅅㅓㅇㄱㅕㅇ -12824
MC -12825
mas -12826
▁540 -12827
▁ㅌㅓㅁ -12828
▁left -12829
ㅈㅓㄱㅇㅡ -12830
▁ㄷㅗㅇㄹㅣ -12831
▁ㅂㅣㅅㄷㅐ -12832
▁ㅅㅔㄱㅅㅣ -12833
▁ㅇㅝㄹㄱㅖ -12834
▁ㅊㅣㄴㅎㅐ -12835
▁ㄱㅏㅇㅌㅏㄹ -12836
▁ㄱㅡㄴㅎㅕㄴ -12837
▁ㅁㅕㅇㅅㅡㅇ -12838
▁ㅇㅑㅇㄱㅏㄱ -12839
▁ㅈㅏㅁㄷㅡㄹ -12840
▁ㅈㅗㅇㅇㅛㅇ -12841
▁ㅂㅏㄱㅇㅝㄴㅅㅜㄴ -12842
▁LD -12843
▁OG -12844
ㄴㅓㄱ -12845
▁Now -12846
▁def -12847
ㄹㅔㄴㅌㅣ -12848
▁ㄱㅡㅂㅎㅏ -12849
▁ㄹㅏㄹㄹㅣ -12850
▁ㅅㅜㄴㅎㅘ -12851
▁ㅇㅏㄴㅅㅗ -12852
▁ㅈㅣㄹㅇㅢ -12853
▁ㅋㅓㄹㄹㅣ -12854
▁ㅌㅡㄱㅂㅗ -12855
▁ㅎㅐㅇㅋㅡ -12856
ㅈㅏㅇㄹㅑㅇ -12857
▁ㄱㅜㄹㄸㅜㄱ -12858
▁ㄴㅜㄴㅇㅏㅍ -12859
▁ㄸㅏㄱㅈㅓㅇ -12860
▁ㅇㅡㅇㅈㅣㅂ -12861
▁ㅇㅣㅂㅅㅓㄱ -12862
▁ㅈㅜㅇㅎㅏㄱ -12863
▁ㅎㅏㄱㄱㅘㄴ -12864
▁ㅇㅕㄴㄲㅗㅊㅁㅜ -12865
ME -12866
ㅌㅖㄴ -12867
▁out -12868
▁ㅅㅔㅂ -12869
ㅈㅓㅇㅎㅢ -12870
▁ㄱㅘㅇㄱㅛ -12871
▁ㅂㅏㄹㅂㅜ -12872
▁ㅇㅡㄹㅁㅣ -12873
▁ㅊㅓㅇㅎㅐ -12874
▁ㅎㅣㄱㅅㅡ -12875
▁ㅈㅣㄴㄴㅏㅁ -12876
▁ㅊㅗㅇㅁㅕㅇ -12877
▁ㄱㅘㄴㄱㅗㅇㅅㅓ -12878
▁ㅈㅓㅇㅅㅓㄴㄱㅜㄴ -12879
lt -12880
▁OH -12881
▁386 -12882
ㅌㅐㄴㄷㅏ -12883
▁ㄴㅣㅅㅋㅗ -12884
▁ㅂㅏㄴㅌㅜ -12885
▁ㅅㅏㄴㅊㅗ -12886
▁ㅅㅡㅇㅎㅘ -12887
▁ㅅㅣㄴㅅㅜ -12888
▁ㅉㅣㅈㅇㅓ -12889
▁ㅊㅓㄹㅅㅐ -12890
▁ㅍㅓㄴㅈㅏ -12891
▁ㅍㅜㅇㅁㅣ -12892
▁ㅍㅜㅇㅎㅘ -12893
ㄷㅗㅇㅎㅏㄴ -12894
▁ㄴㅗㄹㄹㅏㄴ -12895
▁ㅅㅗㄱㅁㅕㅇ -12896
▁ㅇㅑㅇㅇㅘㅇ -12897
▁ㅈㅓㅇㅇㅕㄹ -12898
▁ㅍㅐㄴㅌㅓㅁ -12899
▁ㄱㅗㅇㅎㅏㄱㅂㅜ -12900
▁ㅊㅣㄹㄱㅗㄱㄱㅜㄴ -12901
any -12902
▁-. -12903
▁311 -12904
▁Mer -12905
▁mod -12906
▁1833 -12907
▁City -12908
▁Type -12909
▁ㄱㅣㅁㅎㅘ -12910
▁ㅂㅕㅇㅂㅜ -12911
▁ㅅㅡㄹㄹㅐ -12912
▁ㅇㅠㄱㅅㅏ -12913
▁ㅊㅐㄱㅈㅏ -12914
▁ㅍㅣㄹㅈㅡ -12915
▁ㄷㅏㄴㄹㅏㄱ -12916
▁ㅅㅣㄱㅅㅐㅇ -12917
▁ㅇㅕㄴㅎㅕㄱ -12918
▁ㅇㅣㄹㅅㅣㄴ -12919
▁ㅈㅓㄴㅇㅓㅂ -12920
▁ㅎㅐㅇㅎㅐㅆ -12921
▁ㅅㅓㅇㅎㅐㅇㅇㅟ -12922
ek -12923
▁Fri -12924
▁ㅅㅖㅇ -12925
▁1787 -12926
▁Home -12927
▁ㄱㅏㄹㄱㅗ -12928
▁ㄲㅗㅊㄱㅏ -12929
▁ㄷㅓㅇㅅㅑ -12930
▁ㅂㅓㅂㄷㅐ -12931
▁ㅂㅕㄴㅌㅐ -12932
▁ㅂㅜㄴㄱㅜ -12933
▁ㅅㅏㅇㅅㅙ -12934
▁ㅎㅏㅂㅎㅐ -12935
ㅌㅗㅇㄱㅏㅁ -12936
▁ㄴㅏㅁㅈㅣㄴ -12937
▁ㅂㅗㅇㅊㅓㄴ -12938
▁ㅇㅔㄹㄹㅏㅁ -12939
▁ㅇㅣㅁㅂㅏㄱ -12940
▁ㅊㅐㄱㅅㅏㅇ -12941
▁ㅋㅐㅂㅋㅗㅁ -12942
▁ㅎㅏㄱㅅㅣㄱ -12943
▁ㅅㅏㄴㅊㅓㅇㄱㅜㄴ -12944
▁ㅇㅕㄹㄹㅣㄴㅈㅣㅂㅎㅏㅂ -12945
ㅆㅡㄴ -12946
ield -12947
▁1816 -12948
▁2600 -12949
ㄱㅗㅇㅍㅗ -12950
ㅌㅐㄴㄷㅓ -12951
▁ㄱㅏㄹㄷㅐ -12952
▁ㅇㅑㄱㅇㅓ -12953
▁ㅇㅣㅁㅊㅏ -12954
▁ㅇㅣㅇㅇㅓ -12955
▁ㅎㅐㅇㅌㅐ -12956
▁ㄱㅏㅁㅎㅕㅇ -12957
▁ㅅㅓㅇㅅㅣㅁ -12958
▁ㅅㅓㅇㅎㅗㄴ -12959
▁ㅇㅡㄴㅊㅗㅇ -12960
▁ㅍㅕㅇㅅㅏㄴ -12961
▁ㅎㅓㄴㅌㅣㅇ -12962
▁ㅂㅐㄹㄹㅓㄴㅅㅡ -12963
▁ㅂㅏㄱㅈㅜㅇㅇㅑㅇ -12964
▁ㅈㅓㅇㅇㅑㄱㅇㅛㅇ -12965
▁ㄸㅏㄱㅈㅓㅇㅂㅓㄹㄹㅔ -12966
▁AEK -12967
▁ㅊㅐㄴ -12968
ㅅㅓㅇㅅㅏ -12969
▁ㅇㅝㄴㅍㅣ -12970
▁ㅈㅏㅇㅈㅜ -12971
▁ㅈㅣㄴㅁㅜ -12972
▁ㅋㅏㄴㄴㅏ -12973
▁ㅂㅜㅌㅇㅣㄴㄷㅏ -12974
▁ㅇㅕㅇㅊㅓㄴㅅㅣ -12975
▁ㅈㅓㄱㄱㅏㄹㅅㅐㄱ -12976
gy -12977
▁Hz -12978
ㄸㅗㅇ -12979
▁Ber -12980
▁ㅃㅗㅇ -12981
▁1818 -12982
ㄷㅗㄴㄴㅏ -12983
ㅇㅣㄴㅎㅏ -12984
ㅈㅓㄹㅈㅔ -12985
▁ㅈㅣㅂㅁㅜ -12986
▁ㅍㅏㄴㅎㅘ -12987
ㅂㅕㅇㅊㅓㄹ -12988
ㅇㅕㄴㅅㅓㄱ -12989
ㅎㅚㄱㅇㅏㄴ -12990
▁ㄴㅜㄴㄱㅣㄹ -12991
▁ㄷㅏㅇㅅㅏㄴ -12992
▁ㅁㅏㄹㄱㅏㄹ -12993
▁ㅂㅜㄹㅂㅏㄹ -12994
▁ㅂㅣㅇㅍㅏㄴ -12995
▁ㅅㅣㄱㄷㅏㄴ -12996
▁ㅅㅣㄹㄹㅣㅇ -12997
▁ㅊㅣㄴㄱㅡㄴ -12998
▁ㅍㅜㄹㄹㅓㅁ -12999
▁ㄷㅗㅇㅇㅣㄴㅈㅣ -13000
▁ㅇㅝㄴㅈㅏㄱㅈㅏ -13001
▁ㄱㅣㅁㅇㅝㄴㅂㅗㅇ -13002
inc -13003
vil -13004
▁BJ -13005
▁PV -13006
▁UD -13007
▁Wr -13008
▁262 -13009
▁ㅈㅏㅅ -13010
ㄱㅗㅁㅈㅏ -13011
ㄷㅔㄴㅇㅓ -13012
ㅇㅜㄴㅈㅣ -13013
ㅋㅓㅁㅍㅠ -13014
ㅌㅣㄹㄷㅏ -13015
▁ㅂㅏㅇㅍㅏ -13016
▁ㅂㅕㄴㅈㅔ -13017
▁ㅎㅜㅁㅊㅣ -13018
ㅅㅓㅇㅇㅣㄴ -13019
▁ㄱㅏㄴㅌㅐㄱ -13020
▁ㅁㅕㅇㅈㅏㄱ -13021
▁ㅂㅏㄱㅇㅡㄴ -13022
▁ㅈㅓㅇㅎㅏㄹ -13023
▁ㄱㅕㄹㄹㅗㄴㅈㅣ -13024
▁ㅈㅜㅇㄱㅕㄴㅅㅜ -13025
ㅌㅗㅇㄹㅕㅇㄹㅕㅇ -13026
▁ㅁㅕㅇㅁㅗㄱㅅㅏㅇ -13027
▁ㅈㅓㄴㅎㅘㄴㅈㅓㅁ -13028
▁ㅈㅣㄴㅇㅏㄴㄱㅜㄴ -13029
▁ㅌㅡㄱㅅㅏㄴㅁㅜㄹ -13030
yp -13031
lin -13032
▁HR -13033
work -13034
▁Die -13035
▁Ver -13036
▁Vis -13037
▁ㄴㅜㅁ -13038
ㄷㅠㄹㄹㅓ -13039
ㅂㅏㄴㅅㅡ -13040
ㅅㅔㄴㅌㅣ -13041
ㅍㅔㄹㄹㅏ -13042
▁Techn -13043
▁ㅇㅏㄴㅅㅏ -13044
▁ㅈㅣㄴㅈㅓ -13045
ㄱㅘㄴㅊㅏㄹ -13046
ㅇㅓㅁㄹㅕㅇ -13047
ㅍㅗㄹㄹㅗㄴ -13048
▁ㄱㅘㄴㅇㅣㅂ -13049
▁ㅂㅏㄴㄴㅕㄴ -13050
▁ㅂㅕㅇㅊㅏㅁ -13051
▁ㅅㅣㅁㅂㅗㄱ -13052
▁ㅍㅕㅇㅇㅗㄴ -13053
▁ㅎㅏㄴㅎㅏㄱ -13054
▁ㅅㅐㅇㄱㅕㅆㅇㅡ -13055
▁ㅍㅕㅇㅇㅑㅇㅅㅓㅇ -13056
ㅍㅣㅅ -13057
▁560 -13058
▁680 -13059
▁ㅃㅓㄹ -13060
ㅇㅝㄹㅈㅜ -13061
ㅊㅜㅇㅅㅏ -13062
▁ㄹㅓㄴㅌㅏ -13063
▁ㅁㅕㄴㅊㅣ -13064
▁ㅇㅓㅁㅎㅗ -13065
▁ㅎㅏㅂㅅㅔ -13066
▁ㅎㅡㄹㄹㅕ -13067
ㅈㅓㄴㅊㅜㄱ -13068
ㅈㅣㄴㄹㅕㄱ -13069
▁ㅅㅓㅇㅇㅏㄴ -13070
▁ㅌㅏㄹㅇㅗㄱ -13071
▁ㅍㅜㅇㅅㅓㄴ -13072
▁ㅊㅓㅇㄹㅑㅇㄹㅣ -13073
▁NO -13074
▁ㅉㅓ -13075
apan -13076
ling -13077
▁ㅅㅚㄴ -13078
ouble -13079
ㄱㅏㄴㄷㅡ -13080
ㄱㅏㅇㄷㅗ -13081
ㅅㅓㅇㅂㅜ -13082
▁ㄱㅏㄱㅎㅏ -13083
▁ㅁㅗㅇㅋㅣ -13084
▁ㅂㅏㄹㅊㅏ -13085
▁ㅈㅣㄴㅈㅏ -13086
▁ㅍㅜㅁㄹㅠ -13087
▁Summer -13088
▁ㄴㅏㄱㅇㅝㄴ -13089
▁ㄴㅜㄴㅆㅓㅂ -13090
▁ㄷㅏㄹㅂㅣㅊ -13091
▁ㅁㅏㄹㅇㅕㅂ -13092
▁ㅂㅏㅇㅈㅣㄱ -13093
▁ㅂㅣㄹㄹㅓㅁ -13094
▁ㅇㅝㄴㄱㅘㅇ -13095
▁ㅊㅣㅂㅅㅔㅅ -13096
▁ㅍㅜㅇㄹㅕㄱ -13097
▁Nt -13098
ㄸㅏㅇㅎㅣ -13099
ㄹㅓㅂㅌㅡ -13100
ㅇㅏㄴㄷㅔ -13101
▁ㄱㅕㅇㅋㅙ -13102
▁ㄷㅗㅇㄱㅡ -13103
▁ㅇㅔㄴㅅㅣ -13104
▁ㅇㅝㄴㄹㅠ -13105
▁ㅍㅕㄴㄷㅐ -13106
▁ㅎㅘㄴㅎㅗ -13107
ㄱㅗㅇㄱㅕㄱ -13108
▁ㄱㅕㄱㅂㅜㄴ -13109
▁ㅇㅕㄱㅇㅣㄴ -13110
▁ㅇㅣㄴㅇㅘㅇ -13111
▁ㅍㅐㄴㄷㅓㅁ -13112
▁ㅍㅐㄹㅋㅓㄴ -13113
▁ㅎㅏㅇㅂㅓㅂ -13114
▁ㄱㅏㄴㄷㅏㅁㅎㅚ -13115
▁ㅇㅘㄴㅂㅕㄱㅎㅣ -13116
▁ㄷㅏㅇㅂㅜㄴㄱㅏㄴ -13117
▁ㅂㅜㄹㅁㅕㅇㅎㅘㄱ -13118
▁ㅂㅜㄹㅇㅏㄴㄱㅏㅁ -13119
▁ㅇㅕㅇㄱㅘㅇㄱㅜㄴ -13120
raw -13121
▁Fun -13122
▁MLS -13123
▁Moon -13124
ㄱㅏㄴㅍㅛ -13125
ㄱㅕㄹㅅㅏ -13126
ㅁㅔㄴㅌㅗ -13127
ㅇㅜㄴㅅㅏ -13128
▁ㄱㅣㅁㅁㅣ -13129
▁ㅅㅣㅁㄷㅗ -13130
▁ㅈㅣㅂㄱㅔ -13131
ㅈㅏㄱㅈㅓㅁ -13132
▁ㄱㅕㅇㅇㅘㅇ -13133
▁ㅂㅏㄱㅎㅕㄴ -13134
▁ㅂㅐㄱㄹㅕㄴ -13135
▁ㅅㅕㄹㄹㅗㄱ -13136
▁ㅅㅡㅂㅈㅏㄱ -13137
▁ㅍㅕㅇㄷㅏㄴ -13138
▁ㅎㅘㄴㄱㅏㄱ -13139
▁ㅁㅜㄴㅎㅏㄱㅂㅜ -13140
▁ㅈㅣㄱㅅㅓㄴㅈㅔ -13141
▁ㄱㅕㅇㄷㅓㄱㅇㅘㅇ -13142
▁ㄱㅡㄱㄹㅏㄱㅈㅓㄴ -13143
▁ㄷㅗㅇㅇㅕㄱㅎㅏㄱ -13144
▁ㅅㅓㅇㅈㅏㅇㄹㅠㄹ -13145
▁Mk -13146
ㅋㅏㅁ -13147
itch -13148
▁Soc -13149
▁ㄱㅡㄺ -13150
▁ㅉㅜㄱ -13151
ㄷㅔㄹㅂㅔ -13152
ㅁㅐㄴㄷㅡ -13153
▁ㄱㅡㄹㅆㅡ -13154
▁ㄴㅣㄹㅅㅡ -13155
▁ㄷㅏㄴㄷㅏ -13156
▁ㅁㅣㅌㅂㅏ -13157
▁ㅇㅏㄴㅈㅣ -13158
▁ㅇㅝㄴㅊㅗ -13159
ㄱㅡㄱㅇㅣㄴ -13160
ㅎㅐㅇㄹㅕㅇ -13161
▁ㅂㅐㄱㅎㅏㅂ -13162
▁ㅂㅗㄴㅈㅓㄱ -13163
▁ㅇㅠㄱㅇㅏㄴ -13164
▁ㅈㅏㅇㄱㅗㅇ -13165
▁ㅊㅓㄹㄱㅏㅂ -13166
▁ㅎㅏㄴㅅㅏㅇ -13167
▁ㅎㅗㅇㅈㅜㄴ -13168
UL -13169
we -13170
▁Sn -13171
ㄸㅗㄱ -13172
ㅂㅏㄹㄷㅣ -13173
▁Enter -13174
▁ㄴㅏㅆㅇㅡ -13175
▁ㅂㅓㄴㄱㅏ -13176
▁ㅂㅓㅂㅅㅏ -13177
▁ㅅㅣㄹㅁㅏ -13178
▁ㅎㅏㄱㅁㅜ -13179
▁ㅅㅣㄴㅊㅜㄴ -13180
▁ㅇㅣㄱㅎㅕㅆ -13181
▁ㅊㅓㄴㅅㅓㅇ -13182
▁ㅋㅡㄹㄹㅐㄴ -13183
▁ㄱㅘㅇㅅㅏㄴㄱㅜ -13184
▁ㅎㅏㄱㅅㅜㄹㅇㅝㄴ -13185
▁KM -13186
ㄲㅘㅇ -13187
▁1778 -13188
▁1780 -13189
ㄱㅏㄴㄱㅗ -13190
▁ㄴㅏㄴㅎㅐ -13191
▁ㅁㅜㄴㅇㅢ -13192
▁ㅅㅏㄴㄱㅐ -13193
▁ㅇㅕㅇㄱㅏ -13194
▁ㅎㅗㄴㅅㅜ -13195
ㄹㅠㄱㄱㅜㄴ -13196
ㅇㅘㅇㅅㅓㅇ -13197
ㅇㅜㄹㄹㅣㅁ -13198
ㅈㅣㄴㄷㅗㅇ -13199
▁ㄱㅡㅂㅅㅣㄱ -13200
▁ㅂㅣㅇㅅㅏㅇ -13201
▁ㅇㅜㄴㅁㅜㄴ -13202
▁ㅎㅏㅇㄷㅡㅇㅅㅣㄱ -13203
ival -13204
▁1453 -13205
▁Team -13206
▁poem -13207
ㄹㅣㅁㄹㅣ -13208
ㅅㅣㄴㄷㅏ -13209
▁First -13210
▁ㅁㅗㅇㄱㅜ -13211
▁ㅎㅏㄴㅇㅜ -13212
ㅇㅛㅇㄱㅜㄴ -13213
ㅈㅏㄱㄴㅗㅇ -13214
▁ㄴㅜㄴㄱㅡㅁ -13215
▁ㅇㅝㄴㄱㅕㅇ -13216
▁ㅈㅣㄴㅅㅏㄴ -13217
▁ㅊㅓㄴㅇㅓㄱ -13218
▁ㄱㅘㅇㅇㅑㅇㅅㅣ -13219
▁ㅎㅏㄴㄱㅜㄱㅈㅓㄴㄹㅕㄱ -13220
reet -13221
ress -13222
▁ㄲㅘㄱ -13223
▁1763 -13224
▁1817 -13225
▁1825 -13226
ㄴㅑㅇㄱㅐ -13227
ㅅㅏㅇㅂㅜ -13228
ㅉㅣㄹㄹㅓ -13229
▁Stage -13230
▁ㄱㅏㅇㅌㅐ -13231
▁ㄱㅣㄹㄹㅣ -13232
▁ㄲㅏㄹㄹㅕ -13233
▁ㅇㅕㄴㅈㅔ -13234
▁ㅇㅝㄴㅇㅓ -13235
ㄹㅗㄱㅁㅜㄹ -13236
▁ㄱㅡㅁㅈㅓㅇ -13237
▁ㅂㅏㄴㅅㅗㅇ -13238
▁ㅅㅣㄴㅅㅣㄱ -13239
▁ㅋㅡㄹㄹㅐㅂ -13240
▁ㅎㅏㄴㅇㅣㄹ -13241
▁ㄱㅏㅇㄱㅕㅇㅍㅏ -13242
▁ㄱㅏㅇㅇㅕㄴㅎㅚ -13243
▁ㅁㅗㅇㄱㅗㄹㅇㅓ -13244
▁ㅈㅜㅇㅇㅏㅇㅇㅠ -13245
ㄹㅏㅎ -13246
▁333 -13247
▁Sil -13248
▁SEED -13249
ㅂㅕㄴㅅㅏ -13250
ㅊㅏㄹㅅㅏ -13251
▁ㄱㅣㅁㅅㅏ -13252
▁ㅇㅑㅇㄱㅣ -13253
▁ㅈㅓㅁㅈㅏ -13254
ㄱㅗㄱㅈㅓㄹ -13255
ㄷㅗㄱㅅㅓㅇ -13256
ㅌㅡㄹㄹㅣㄴ -13257
▁ㄱㅣㅁㄴㅏㅁ -13258
▁ㄲㅡㅌㄴㅐㄴ -13259
▁ㄷㅗㄱㅎㅏㄱ -13260
▁ㅂㅏㄴㅉㅏㄱ -13261
▁ㅂㅣㄴㅎㅕㄹ -13262
▁ㅇㅑㅇㅁㅕㅇ -13263
▁ㅇㅘㄴㄱㅏㅇ -13264
▁ㅇㅣㅁㅇㅕㅇ -13265
▁ㅈㅏㅇㄷㅗㅇ -13266
▁ㅈㅘㅇㅈㅗㄱ -13267
▁ㅎㅡㅇㄱㅜㄱ -13268
ㅇㅕㅁㅂㅏㄱㅈㅟ -13269
▁ㄱㅘㄴㅊㅡㄱㅈㅏ -13270
▁ㅂㅓㅂㅅㅏㅇㅈㅗㅇ -13271
▁ㅅㅓㄴㅇㅣㄴㅈㅏㅇ -13272
▁ㅅㅣㄴㄱㅕㅇㅁㅏㅇ -13273
ope -13274
▁ed -13275
▁Cre -13276
▁ㅌㅜㄱ -13277
ㅊㅗㅇㅈㅐ -13278
▁Album -13279
▁ㅁㅐㄱㄱㅡ -13280
▁ㅂㅗㄹㅅㅡ -13281
▁ㅅㅓㅁㄴㅔ -13282
▁ㅅㅣㅁㅊㅟ -13283
▁ㅈㅗㅇㅇㅟ -13284
▁ㅋㅗㅂㅌㅡ -13285
▁ㅎㅚㅇㅍㅗ -13286
ㅈㅜㅇㅇㅏㅇ -13287
▁Little -13288
▁ㄱㅏㄴㄱㅡㄱ -13289
▁ㅂㅓㅁㅈㅗㅇ -13290
▁ㅇㅏㄱㅎㅏㄴ -13291
▁ㅇㅏㄹㄹㅣㅁ -13292
▁ㅇㅛㅇㄷㅏㅁ -13293
▁ㅇㅜㄹㅊㅏㅇ -13294
▁ㅇㅣㄴㅁㅗㄱ -13295
▁ㅋㅏㄹㄴㅏㄹ -13296
▁ㅌㅗㅇㅎㅏㄱ -13297
▁ㄱㅘㄴㅂㅏㄱㅈㅟ -13298
▁ㄱㅡㅁㅈㅓㅇㄱㅜ -13299
▁ㅎㅜㄴㄹㅕㄴㅈㅏㅇ -13300
ely -13301
ino -13302
ican -13303
▁ㄴㅔㅂ -13304
▁Happ -13305
ㄱㅏㄱㄱㅣ -13306
ㄹㅡㅂㅆㅡ -13307
ㅇㅏㄴㅌㅏ -13308
▁ㄱㅗㄱㅅㅏ -13309
▁ㄹㅏㅁㄷㅏ -13310
▁ㅁㅐㅇㅈㅏ -13311
▁ㅂㅗㅇㅌㅗ -13312
▁ㅇㅕㄹㄴㅕ -13313
▁ㅈㅓㄴㅊㅗ -13314
▁ㅎㅏㄹㄹㅔ -13315
ㄹㅛㅇㅅㅏㄴ -13316
ㅂㅏㅇㄱㅘㅇ -13317
ㅇㅣㄹㅈㅓㅁ -13318
▁ㅈㅓㅇㅁㅗㅇ -13319
▁ㅈㅓㅇㅇㅐㄱ -13320
▁ㅎㅡㄱㅇㅕㄴ -13321
▁ㅈㅣㅂㅈㅓㄱㅎㅚ -13322
▁ㄱㅣㅁㅎㅗㅇㅈㅣㅂ -13323
▁ㅅㅏㅇㅅㅏㅇㄹㅕㄱ -13324
ha -13325
ris -13326
▁AW -13327
▁313 -13328
▁Dig -13329
▁Pet -13330
ㄹㅓㄴㄷㅡ -13331
▁ㅅㅣㄱㅅㅜ -13332
▁ㅇㅑㅇㅌㅐ -13333
▁ㅇㅝㄴㄱㅜ -13334
ㅈㅏㅇㅇㅏㅁ -13335
▁ㄱㅐㅅㅂㅓㄹ -13336
▁ㄱㅘㄴㄹㅣㅂ -13337
▁ㄱㅣㅁㅊㅓㄹ -13338
▁ㅎㅡㄴㄷㅡㄹㄹㅣㅁ -13339
oom -13340
ㄴㅡㅁ -13341
ㅊㅔㄹㄹㅣ -13342
▁ㄱㅜㄴㅇㅢ -13343
▁ㅁㅜㄴㅎㅗ -13344
▁ㅍㅗㄹㄷㅡ -13345
ㅅㅣㄴㅎㅕㅇ -13346
▁ㄱㅓㅁㅇㅕㄱ -13347
▁ㄴㅗㄱㅎㅜㄴ -13348
▁ㄷㅗㅇㄱㅜㅇ -13349
▁ㅁㅏㄱㅁㅏㄹ -13350
▁ㅅㅏㅇㅈㅓㄴ -13351
▁ㅅㅜㄴㅇㅡㅇ -13352
▁ㅇㅕㄹㅎㅕㄹ -13353
▁ㅇㅕㅂㄹㅗㄱ -13354
▁ㅇㅣㅂㅂㅏㅇ -13355
▁ㅈㅡㄱㅅㅓㄱ -13356
▁ㅊㅏㅁㄱㅘㄴ -13357
▁ㅈㅓㄱㅎㅕㄹㄱㅜ -13358
▁ㅈㅓㅇㅅㅏㅇㅂㅜ -13359
▁ㅂㅐㄱㅎㅕㄹㅂㅕㅇ -13360
▁ㅅㅐㅇㅅㅏㄴㅁㅜㄹ -13361
ike -13362
ves -13363
▁1593 -13364
ㄹㅔㄴㅂㅜ -13365
ㅇㅑㄱㅈㅏ -13366
ㅇㅣㅁㅅㅐ -13367
▁ㅁㅣㄴㅋㅗ -13368
▁ㅅㅣㄹㄹㅔ -13369
▁ㅈㅜㄴㅇㅣ -13370
▁ㄱㅗㄱㅅㅓㅇ -13371
▁ㄷㅗㅇㅅㅓㄴ -13372
▁ㅁㅏㄴㅎㅐㅇ -13373
▁ㅅㅓㄴㅈㅓㄱ -13374
▁ㅅㅓㅇㄱㅜㄴ -13375
▁ㅇㅣㅂㅎㅣㄴ -13376
▁ㅈㅓㄴㄷㅡㅇ -13377
▁ㅎㅏㅇㄷㅡㅇ -13378
▁ㄱㅣㅁㅈㅓㅇㅎㅢ -13379
▁ㅁㅜㄹㅂㅕㅇㅈㅏ -13380
▁ㅅㅗㄱㅇㅣㅁㅅㅜ -13381
▁ㅂㅏㄴㅎㅕㄱㅁㅕㅇ -13382
▁ㅅㅗㅇㅈㅜㄴㄱㅣㄹ -13383
ts -13384
▁var -13385
▁1788 -13386
▁2024 -13387
ㅁㅜㅅㄱㅏ -13388
ㅂㅕㄹㅊㅗ -13389
ㅈㅓㄴㅅㅓ -13390
▁Never -13391
▁ㄱㅓㄴㄷㅡ -13392
▁ㄱㅜㄹㄹㅣ -13393
▁ㄴㅏㅁㄷㅗ -13394
▁ㅇㅟㅅㅅㅜ -13395
▁ㅇㅑㅇㄱㅘㅇ -13396
▁ㅇㅕㄱㅈㅓㄱ -13397
▁ㄱㅜㄱㅁㅣㄴㄷㅐ -13398
▁ㅎㅗㅇㅈㅜㄴㅍㅛ -13399
PG -13400
ze -13401
get -13402
ird -13403
ler -13404
ㅇㅗㅁ -13405
▁ㅎㅗㅌ -13406
ㅎㅏㄱㅎㅚ -13407
▁ㅁㅏㅇㄹㅏ -13408
▁ㅇㅘㄴㅍㅐ -13409
▁ㅊㅏㅁㅇㅡ -13410
ㅅㅐㄱㅂㅣㅊ -13411
ㅅㅓㅇㅂㅜㄴ -13412
▁ㄴㅏㄱㄱㅘㄴ -13413
▁ㄷㅗㅇㄱㅏㅇ -13414
▁ㅇㅑㅇㅈㅣㄹ -13415
▁ㅇㅕㅇㄱㅗㅇ -13416
▁ㅈㅓㄴㄱㅡㄴ -13417
▁ㅊㅗㅇㅌㅏㄴ -13418
▁function -13419
▁ㄱㅘㄴㅊㅡㄱㅅㅗ -13420
▁ㅂㅏㅇㅌㅏㄴㅅㅗ -13421
yr -13422
ESA -13423
▁MI -13424
▁VL -13425
▁323 -13426
▁SAR -13427
▁main -13428
ㄷㅣㅈㅎㅕ -13429
▁ㄴㅓㅁㅊㅕ -13430
▁ㅇㅑㅇㅎㅘ -13431
▁ㅎㅘㄹㅎㅘ -13432
▁ㄱㅡㅁㅂㅏㄹ -13433
▁ㄲㅡㄴㅈㅣㄹ -13434
▁ㅅㅏㅇㅎㅏㄱ -13435
▁ㅇㅕㄱㄱㅘㄴ -13436
▁ㅎㅐㅇㄱㅏㄱ -13437
▁ㄱㅕㅇㅅㅏㄴㅅㅣ -13438
RA -13439
ECT -13440
err -13441
▁OL -13442
ㅋㅝㄴㅅㅡ -13443
ㅌㅓㄹㄹㅜ -13444
▁ㄱㅗㅇㅇㅟ -13445
▁ㅁㅏㄱㅅㅏ -13446
▁ㅂㅕㅇㅅㅔ -13447
▁ㅅㅔㄹㄹㅣ -13448
▁ㅇㅑㄱㅊㅔ -13449
▁ㅊㅣㄴㅇㅏ -13450
▁ㅍㅏㄴㅇㅢ -13451
▁ㅍㅓㅁㅇㅞ -13452
▁ㅎㅘㅇㅌㅗ -13453
▁ㅎㅜㄴㄱㅜ -13454
ㅅㅏㅇㄱㅡㅂ -13455
▁ㄱㅜㄹㅊㅏㄱ -13456
▁ㅅㅣㄴㄱㅕㄱ -13457
▁ㅅㅣㅁㄱㅕㅇ -13458
▁ㅇㅓㅁㅈㅜㅇ -13459
▁ㅇㅕㄴㄱㅕㅇ -13460
▁ㅈㅣㅇㅂㅏㄹ -13461
▁ㅍㅕㄴㄱㅘㅇ -13462
▁ㅍㅕㄴㄴㅕㄴ -13463
▁ㄴㅏㅁㄷㅗㅇㄱㅜ -13464
▁ㅋㅗㄴㅋㅡㄹㄹㅏ -13465
▁ㅇㅏㄱㅇㅕㅇㅎㅑㅇ -13466
yc -13467
▁If -13468
▁860 -13469
▁MBN -13470
▁PSP -13471
▁Tom -13472
ㅇㅓㅂㅂㅣ -13473
ㅋㅔㄴㅈㅣ -13474
▁right -13475
▁ㄱㅘㅇㄱㅐ -13476
▁ㄴㅏㅂㅅㅔ -13477
▁ㄴㅗㄱㅈㅗ -13478
▁ㄷㅏㄴㅂㅜ -13479
▁ㅅㅗㅇㅅㅜ -13480
▁ㅇㅛㅇㅁㅗ -13481
▁ㅌㅗㅇㅅㅜ -13482
ㅂㅜㄴㅂㅓㅂ -13483
ㅅㅓㅇㅈㅏㅇ -13484
ㅇㅜㄹㅇㅕㄱ -13485
▁ㄱㅗㅇㄹㅗㄴ -13486
▁ㅁㅏㅈㅁㅓㄱ -13487
▁ㅂㅏㄱㅅㅜㄴ -13488
▁ㅈㅓㄴㅍㅕㄴ -13489
▁ㅈㅓㅇㅈㅜㄴ -13490
▁ㅌㅣㅁㅇㅝㄴ -13491
▁ㅍㅕㅇㅇㅕㅇ -13492
▁ㅈㅣㅂㅎㅏㅂㅊㅔ -13493
ㅃㅣ -13494
umb -13495
▁MG -13496
ㄷㅐㅇ -13497
ㅂㅌㅣ -13498
uman -13499
▁229 -13500
▁960 -13501
▁1838 -13502
▁Plan -13503
ㅅㅏㅇㄱㅜ -13504
▁ㅇㅑㄱㅊㅗ -13505
▁ㅇㅞㅂㅅㅡ -13506
▁ㅈㅡㅇㅂㅗ -13507
▁ㅌㅓㅇㅅㅡ -13508
▁ㅎㅘㅇㄱㅣ -13509
ㄹㅗㅂㅎㅣㅁ -13510
ㅇㅕㄹㅇㅡㅁ -13511
▁ㅅㅓㅇㅅㅣㄴ -13512
▁ㅅㅣㄴㅈㅡㅇ -13513
▁ㅇㅘㅇㅅㅏㅇ -13514
▁ㅈㅣㄴㄷㅏㄹ -13515
▁ㅊㅜㄹㅁㅗㄹ -13516
▁ㅎㅏㄱㅅㅏㅇ -13517
▁ㅅㅣㄴㄱㅏㄴㅎㅚ -13518
▁ㅈㅣㄴㅎㅐㅇㅎㅏㄹ -13519
uro -13520
▁Pla -13521
▁Sky -13522
ㄱㅜㄴㅈㅜ -13523
ㅅㅏㅇㄱㅣ -13524
ㅅㅓㄴㅇㅓ -13525
ㅇㅏㄴㄷㅐ -13526
ㅌㅗㅂㅅㅡ -13527
ㅎㅏㄴㄴㅏ -13528
▁ㄷㅗㄹㅇㅣ -13529
▁ㅂㅓㅂㅇㅢ -13530
▁ㅊㅏㅁㄴㅏ -13531
ㄱㅣㄹㄷㅗㅇ -13532
▁ㄱㅜㄱㄱㅝㄴ -13533
▁ㄱㅜㅇㅍㅣㅂ -13534
▁ㄴㅏㅁㅁㅕㄴ -13535
▁ㅁㅜㄱㅅㅏㄹ -13536
▁ㅈㅓㅂㄱㅕㄴ -13537
▁ㅋㅡㅁㅈㅣㄱ -13538
▁ㅌㅏㅁㅎㅓㅁㄷㅐ -13539
▁ㄴㅏㅁㅂㅜㄱㅎㅏㄴ -13540
▁ㄱㅜㄱㅁㅣㄴㅈㅓㅇㅂㅜ -13541
AND -13542
▁1636 -13543
▁1797 -13544
▁Hist -13545
ㅊㅜㄴㅊㅜ -13546
▁ㄱㅏㅇㄱㅣ -13547
▁ㄷㅏㄴㅊㅜ -13548
▁ㅇㅣㄴㄴㅐ -13549
ㄱㅘㄴㄱㅘㅇ -13550
ㅌㅡㄹㄹㅏㄴ -13551
▁ㅂㅐㄱㅅㅓㄱ -13552
▁ㅇㅏㄱㅁㅗㅇ -13553
▁ㅇㅏㄹㄹㅏㄴ -13554
▁ㅈㅓㅂㅎㅏㄹ -13555
▁ㄹㅗㄱㅍㅔㄹㄹㅓ -13556
▁ㅇㅑㅇㅅㅓㅇㅅㅗ -13557
▁ㅈㅏㅇㄷㅓㄱㅅㅜ -13558
▁ㅈㅣㄴㅊㅓㄴㄱㅜㄴ -13559
ars -13560
ㅂㅣㅁ -13561
▁353 -13562
▁POP -13563
▁SUV -13564
▁1828 -13565
▁ㄴㅔㄹㄹㅣ -13566
▁ㅂㅜㅅㄷㅏ -13567
▁ㅂㅣㅇㄱㅡ -13568
▁ㅇㅏㅁㅅㅏ -13569
▁ㅇㅛㅇㅎㅗ -13570
ㄱㅡㅂㅍㅜㅁ -13571
ㅂㅏㅇㅇㅝㄴ -13572
ㅂㅏㅇㅇㅣㄴ -13573
▁ㅁㅜㄹㄹㅑㅇ -13574
▁ㅂㅕㄴㅁㅕㅇ -13575
▁ㅇㅕㄱㄱㅕㅇ -13576
▁ㅇㅝㄴㄷㅏㅇ -13577
▁ㅇㅣㅁㅅㅓㅇ -13578
▁ㅈㅏㅇㅁㅏㄱ -13579
▁ㅎㅏㅂㄱㅕㄱㅈㅏ -13580
▁ㅅㅜㄴㅎㅘㄴㅅㅓㄴ -13581
▁ㅈㅓㄴㅂㅗㅇㅈㅜㄴ -13582
ACK -13583
▁Ap -13584
ㅌㅐㅂ -13585
▁266 -13586
▁306 -13587
▁TCP -13588
▁ㅂㅏㄴㅈㅔ -13589
▁ㅅㅏㄹㅍㅗ -13590
▁ㅇㅡㅁㄱㅖ -13591
▁ㅈㅏㄴㅈㅐ -13592
▁ㄱㅘㅇㄹㅡㅇ -13593
▁ㅁㅏㅇㅅㅓㄹ -13594
▁ㅁㅗㄹㄹㅕㅆ -13595
▁ㅂㅏㅇㅈㅣㄴ -13596
▁ㅅㅣㅁㅎㅐㅆ -13597
▁ㅇㅏㄱㅇㅛㅇ -13598
▁ㅈㅗㅇㅂㅕㄹ -13599
▁ㄱㅗㅇㅈㅏㄱㅇㅝㄴ -13600
▁ㅈㅏㅇㅎㅡㅇㄱㅜㄴ -13601
▁980 -13602
▁GHz -13603
▁RAM -13604
▁app -13605
▁ㅌㅓㅅ -13606
▁Conc -13607
▁part -13608
ㅇㅏㄹㄷㅔ -13609
▁ㅁㅏㅇㅌㅗ -13610
▁ㅉㅗㅊㄱㅣ -13611
ㄱㅕㅇㅅㅓㄱ -13612
ㅇㅑㅇㅇㅣㄴ -13613
ㅊㅏㄱㄹㅠㄱ -13614
ㅊㅣㅁㅂㅏㄴ -13615
▁ㄱㅓㅁㄷㅏㄴ -13616
▁ㄱㅕㅇㄷㅏㅇ -13617
▁ㄱㅘㄴㅇㅣㄴ -13618
▁ㅁㅏㄹㄸㅜㄱ -13619
▁ㅇㅕㅁㅈㅓㄴ -13620
▁ㅅㅡㄹㄹㅓㅁㅍㅡ -13621
ㅂㅐㄱㅅㅏㄴㅁㅐㄱ -13622
▁ㅎㅏㄴㄱㅜㄱㅇㅣㄹㅂㅗ -13623
▁ㅎㅏㄴㄱㅜㄱㅇㅡㄴㅎㅐㅇ -13624
▁Sa -13625
▁fe -13626
▁ph -13627
▁so -13628
▁810 -13629
▁der -13630
ㄱㅓㄴㅅㅡ -13631
ㅁㅔㄹㄹㅗ -13632
ㅅㅡㅇㅎㅗ -13633
ㅊㅜㄴㄷㅏ -13634
▁Gener -13635
▁ㄴㅏㄴㅅㅗ -13636
▁ㅂㅗㄴㄷㅐ -13637
▁ㅈㅓㄴㅇㅜ -13638
▁ㅍㅣㄴㅊㅣ -13639
▁ㅁㅕㅇㄹㅏㅇ -13640
▁ㅅㅓㄱㅈㅏㅇ -13641
▁ㅇㅏㄱㅎㅐㅇ -13642
▁ㅇㅝㄹㄷㅡㅇ -13643
▁ㅈㅣㄴㅈㅜㅇ -13644
▁ㅎㅏㄴㅌㅏㄴ -13645
▁ㅂㅓㄹㅇㅣㄴㄷㅏ -13646
▁ㅈㅏㅇㅅㅣㄴㄱㅜ -13647
▁Da -13648
ㄴㅜㅅ -13649
ㅈㅓㅅ -13650
▁STX -13651
▁bes -13652
▁1777 -13653
▁8859 -13654
▁Gold -13655
ㅇㅘㅇㄷㅗ -13656
ㅇㅛㄴㅅㅔ -13657
▁ㄷㅚㄹㅈㅣ -13658
▁ㄹㅜㄴㄷㅡ -13659
▁ㅁㅐㄱㄹㅏ -13660
▁ㅂㅜㄴㄱㅏ -13661
▁ㅌㅏㅁㄹㅏ -13662
▁ㄴㅏㄱㅈㅓㅁ -13663
▁ㅂㅏㄴㅊㅣㄱ -13664
▁ㅅㅓㄱㅅㅣㄹ -13665
▁ㅅㅓㅂㄷㅗㅇ -13666
▁ㅈㅏㅇㅁㅕㅇ -13667
▁ㅈㅜㄴㅇㅛㅇ -13668
▁ㅈㅣㄹㄱㅏㅁ -13669
▁ㅈㅓㄴㅇㅛㅇㄷㅗ -13670
▁ㄱㅏㅂㅅㅏㅇㅅㅓㄴ -13671
▁ㅊㅜㅇㅅㅓㄴㅇㅘㅇ -13672
▁__ -13673
▁px -13674
▁.." -13675
▁249 -13676
▁257 -13677
▁May -13678
▁ㅆㅣㅇ -13679
ㅇㅔㄴㄷㅡ -13680
▁ㄴㅏㅁㅅㅏ -13681
▁ㅅㅏㅁㄷㅗ -13682
▁ㅍㅕㅇㅅㅣ -13683
▁ㄱㅗㅇㅂㅓㅁ -13684
▁ㄴㅗㅇㅅㅣㅁ -13685
▁ㅅㅗㄱㄱㅗㄱ -13686
▁ㅅㅗㄴㅈㅏㅂ -13687
▁ㅇㅏㄴㄱㅜㄱ -13688
▁ㅇㅗㄴㅁㅗㅁ -13689
▁ㅈㅓㅇㄹㅡㅇ -13690
▁ㅈㅣㄱㅇㅕㄱ -13691
ㅎㅏㄴㅊㅜㄱㄱㅜ -13692
▁ㅅㅏㅁㅅㅓㅇㄱㅡ -13693
▁ㅈㅓㄴㄹㅏㅁㅎㅚ -13694
▁ㅈㅓㅇㅅㅣㄴㅂㅕㅇ -13695
ero -13696
ific -13697
ㄱㅏㄱㅅㅣ -13698
ㅂㅏㄹㄹㅔ -13699
ㅅㅓㅇㅊㅔ -13700
ㅇㅜㄴㅅㅠ -13701
ㅎㅘㄴㅈㅏ -13702
▁ㄷㅟㅅㅂㅜ -13703
▁ㅁㅏㅁㄹㅜ -13704
▁ㅅㅣㅂㅅㅣ -13705
ㅈㅓㄴㅅㅓㄹ -13706
▁ㅅㅏㅇㅅㅏㄴ -13707
▁ㅅㅗㄱㅇㅗㅅ -13708
▁ㅇㅗㄱㅅㅏㄴ -13709
▁ㅇㅣㄴㄷㅔㄱㅅㅡ -13710
▁DT -13711
▁MO -13712
▁TE -13713
▁Vo -13714
▁ㅋㅑ -13715
▁273 -13716
▁Nor -13717
ㄹㄹㅔㅅ -13718
itude -13719
umber -13720
ㄹㅡㅇㅈㅣ -13721
ㅎㅏㄴㄷㅐ -13722
▁ㅂㅓㄹㅆㅓ -13723
▁ㅂㅜㄱㅈㅜ -13724
▁ㅂㅣㄴㅅㅡ -13725
▁ㅅㅏㅁㅂㅗ -13726
ㅅㅜㄹㅇㅣㄴ -13727
ㅇㅕㄱㅍㅗㄱ -13728
▁ㅆㅏㅎㅇㅣㄴ -13729
▁ㄱㅡㄴㅇㅕㄴㅈㅗㅇ -13730
▁ㅈㅜㅇㅇㅏㅇㄷㅗㅇ -13731
ㅍㅓㄴㄷㅡㄹㄹㅐㄴㄷㅡ -13732
▁ㅅㅓㄱㅂㅜㄹㅇㅣㅂㅅㅏㅇ -13733
ren -13734
▁880 -13735
▁OFC -13736
▁ㄴㅜㅂ -13737
▁ㄹㅓㅂ -13738
ㄱㅏㄹㄹㅗ -13739
ㄷㅡㄱㅅㅔ -13740
ㄹㅗㄱㅅㅡ -13741
ㅈㅓㅇㅅㅓ -13742
▁ㄱㅘㅇㅇㅜ -13743
▁ㄹㅣㅂㅅㅡ -13744
▁ㅂㅓㅂㅊㅣ -13745
▁ㅇㅏㄴㅁㅏ -13746
▁ㅍㅐㄱㅌㅓ -13747
ㅁㅏㄴㅈㅗㄱ -13748
ㅂㅗㄴㄱㅡㅁ -13749
ㅅㅓㄴㅁㅜㄴ -13750
ㅋㅔㄹㄹㅏㄴ -13751
▁ㄱㅗㅇㅅㅓㅇ -13752
▁ㅁㅏㄴㅇㅣㄴ -13753
▁ㅅㅜㅁㅈㅣㄴ -13754
▁ㅇㅕㄴㅈㅓㅂ -13755
▁ㅈㅜㅇㄴㅏㅁㅂㅜ -13756
▁ㅇㅑㅇㅇㅑㅇㄱㅜㄴ -13757
▁ㅇㅕㄴㅁㅕㄴㅈㅓㄱ -13758
▁ㅇㅠㄴㅇㅝㄴㅎㅕㅇ -13759
▁KP -13760
▁ㄲㅝ -13761
ㄷㅔㅁ -13762
ross -13763
▁ㄹㅕㅁ -13764
▁ㅈㅏㅂㅅㅡ -13765
▁ㅊㅓㄴㅎㅗ -13766
ㄷㅓㄱㄷㅗㅇ -13767
▁ㄱㅕㅇㅎㅏㄱ -13768
▁ㅇㅏㅂㅅㅡㅇ -13769
▁ㅈㅓㅇㄱㅘㅇ -13770
ㅋㅗㄴㅅㅣㄴㅈㅜ -13771
▁ㅂㅡㄹㄹㅗㄱㅊㅔ -13772
ㅇㅘㄹ -13773
▁404 -13774
▁ㅊㅏㅅ -13775
ㅅㅔㄹㄹㅣ -13776
▁ㅋㅕㄹㄹㅔ -13777
▁ㅋㅗㄹㅌㅡ -13778
ㅁㅣㅇㅌㅓㄴ -13779
ㅈㅓㄴㅇㅕㄱ -13780
olution -13781
▁ㅂㅜㄹㅇㅕㄴ -13782
▁ㅇㅓㄴㅇㅑㅇ -13783
▁ㅎㅘㄴㄱㅗㅇ -13784
▁ㅂㅏㄹㅇㅝㄴㅁㅜㄴ -13785
▁ㅇㅕㅇㅇㅑㅇㅂㅜㄴ -13786
▁ㅊㅗㅇㄱㅏㅁㄷㅗㄱ -13787
▁RX -13788
▁Rh -13789
▁SNK -13790
▁Vir -13791
▁1784 -13792
ㄷㅡㅇㄱㅣ -13793
ㅅㅏㄴㅈㅗ -13794
ㅈㅏㅂㅎㅕ -13795
▁Japan -13796
▁ㄱㅐㄹㄹㅣ -13797
▁ㄱㅡㄴㅅㅗ -13798
▁ㅁㅕㄴㄷㅗ -13799
▁ㅁㅗㄴㅌㅣ -13800
▁ㅂㅏㅇㅇㅏ -13801
▁ㅂㅕㄴㅇㅟ -13802
▁ㅂㅗㄹㅊㅡ -13803
▁ㅇㅑㄱㅈㅐ -13804
▁ㅎㅕㄴㅈㅏ -13805
ㄹㅕㅇㅌㅏㅂ -13806
▁ㄱㅡㄴㅈㅓㄹ -13807
▁ㄱㅡㅁㅂㅏㅇ -13808
▁ㄱㅣㅁㅅㅣㄴ -13809
▁ㅂㅜㄱㅁㅜㄴ -13810
ㅂㅏㅇㅂㅗㄴㅂㅜ -13811
▁ㅈㅏㅇㅂㅗㄴㅇㅣㄴ -13812
▁ㄱㅜㄱㅁㅣㄴㅇㅡㄴㅎㅐㅇ -13813
els -13814
ㅅㅣㅅ -13815
▁236 -13816
▁620 -13817
▁Fla -13818
▁res -13819
ㅌㅔㄴㄷㅣ -13820
▁ㄱㅓㄴㄱㅣ -13821
▁ㄱㅜㅇㄷㅗ -13822
▁ㅈㅣㄴㅅㅣ -13823
ㅇㅣㄴㅇㅝㄴ -13824
▁ㄴㅏㅁㄱㅏㅇ -13825
▁ㅂㅜㄴㅂㅜㄴ -13826
▁ㅈㅓㅇㅊㅗㄴ -13827
▁ㅋㅐㄹㅂㅣㄴ -13828
▁ㅎㅣㄹㅌㅡㄴ -13829
▁ㄱㅗㅇㄱㅕㄱㅈㅏ -13830
▁ㄴㅏㅁㄱㅕㅆㅇㅡ -13831
▁ㅅㅏㅁㅊㅓㄱㅅㅣ -13832
▁ㅅㅔㄹㄹㅜㄹㄹㅗ -13833
▁ㅇㅗㄴㄱㅓㄴㅍㅏ -13834
ㅎㅕㄱㅁㅕㅇㄷㅏㅇ -13835
era -13836
ius -13837
▁CW -13838
less -13839
▁But -13840
▁ISIL -13841
▁TOUR -13842
ㄱㅡㅂㅅㅏ -13843
ㄹㅣㄴㅎㅘ -13844
▁Class -13845
▁ㄱㅔㄴㅌㅏ -13846
▁ㄱㅗㅇㅂㅣ -13847
▁ㅁㅕㅇㄹㅛ -13848
▁ㅂㅗㄹㄱㅓ -13849
▁ㅅㅓㄱㅈㅘ -13850
▁ㅅㅗㅇㅅㅏ -13851
▁ㅇㅣㄴㅍㅗ -13852
▁ㅍㅔㄴㅌㅏ -13853
▁ㅍㅗㄹㄷㅓ -13854
ㄱㅓㅁㅊㅏㄹ -13855
ㄷㅜㄴㄱㅜㄴ -13856
▁ㄱㅜㄴㄱㅗㅇ -13857
▁ㅂㅜㄱㅊㅓㅇ -13858
▁ㅅㅣㄴㄹㅕㅇ -13859
▁ㅇㅝㄴㅇㅏㄴ -13860
▁ㅅㅓㄴㄷㅓㄹㄹㅐㄴㄷㅡ -13861
▁Km -13862
▁OM -13863
▁570 -13864
▁Aut -13865
▁Long -13866
ㄴㅗㄹㅈㅡ -13867
ㄷㅐㅂㅌㅓ -13868
ㅁㅜㄴㅇㅖ -13869
▁ㅅㅓㅇㅎㅏ -13870
▁ㅇㅏㄴㄹㅛ -13871
▁ㅇㅣㅁㅈㅐ -13872
▁ㅈㅣㄹㅈㅜ -13873
ㅅㅣㅁㄹㅠㄹ -13874
ㅇㅜㄹㅈㅏㅁ -13875
ㅈㅏㅇㄱㅘㄴ -13876
ㅎㅏㅇㅅㅓㅇ -13877
▁ㄱㅏㄷㅎㅣㄴ -13878
▁ㄱㅗㄱㄹㅠㄹ -13879
▁ㄷㅡㅇㅅㅣㄱ -13880
▁ㅂㅏㅇㅅㅏㄴ -13881
▁ㅅㅏㄴㅂㅏㄹ -13882
▁ㅇㅡㄴㄴㅣㄱ -13883
▁ㅈㅓㅇㅊㅏㅇ -13884
▁ㅊㅓㄴㄱㅗㅇ -13885
▁ㅊㅓㄴㅈㅣㄴ -13886
▁ㅊㅣㅁㅅㅣㄹ -13887
▁ㅎㅘㅇㄱㅡㅁㄱㅣ -13888
▁ㅅㅏㅇㅈㅣㅇㅁㅜㄹ -13889
ful -13890
▁Pi -13891
▁630 -13892
▁ESP -13893
▁GUI -13894
▁Ret -13895
▁Char -13896
▁More -13897
ㅇㅘㅇㅅㅣ -13898
ㅎㅏㄴㅎㅣ -13899
ㅎㅕㄴㅇㅜ -13900
▁ㄱㅓㅁㄱㅛ -13901
▁ㄱㅕㅇㅅㅓ -13902
▁ㄱㅡㅁㄱㅘ -13903
▁ㄴㅏㅁㅊㅗ -13904
▁ㅍㅔㅂㅌㅏ -13905
ㄱㅏㅇㅇㅝㄴ -13906
ㅅㅗㄱㅊㅓㄹ -13907
ㅅㅣㅂㅁㅏㄴ -13908
▁ㅂㅏㄱㅁㅜㄴ -13909
▁ㅂㅜㄹㅅㅓㄴ -13910
▁ㅅㅗㄱㅊㅜㄹ -13911
▁ㅇㅕㄴㅎㅏㅂㅊㅔ -13912
ㄲㅗㄱ -13913
ople -13914
▁ㅆㅜㄱ -13915
▁ㅇㅟㄱ -13916
▁Year -13917
ㄴㅣㄹㄲㅏ -13918
ㅊㅓㄴㅎㅜ -13919
▁ㄱㅕㅇㄹㅣ -13920
▁ㅂㅜㄱㅋㅣ -13921
▁ㅇㅡㄴㅎㅘ -13922
▁ㅎㅏㅁㅈㅐ -13923
▁ㄷㅓㄱㅎㅡㅇ -13924
▁ㅂㅏㄱㅂㅕㅇ -13925
▁ㅇㅛㅇㄱㅗㄹ -13926
▁ㅇㅣㄹㅇㅑㄱ -13927
▁ㅌㅐㄱㅎㅐㅆ -13928
GS -13929
to -13930
▁Sl -13931
▁304 -13932
▁Bra -13933
▁God -13934
▁Beaut -13935
▁ㄲㅡㅀㅇㅕ -13936
▁ㄴㅏㅁㅇㅣ -13937
▁ㅂㅏㄴㅁㅣ -13938
▁ㅇㅑㅇㅎㅐ -13939
▁ㅇㅛㅇㅈㅜ -13940
▁ㅇㅣㅁㅇㅗ -13941
ㅅㅏㄴㅇㅕㅁ -13942
ㅇㅓㄴㄱㅜㄴ -13943
ㅈㅓㅇㅎㅏㄱ -13944
ㅈㅓㅇㅎㅕㄴ -13945
▁ㄷㅏㅇㅁㅕㄴ -13946
▁ㅂㅗㄴㅂㅏㄷ -13947
▁ㅇㅣㄴㄷㅗㅇ -13948
▁ㅈㅏㅇㅅㅓㄱ -13949
▁ㄱㅗㅇㅁㅜㄴㅅㅓ -13950
▁ㄱㅘㄴㅅㅡㅂㅂㅓㅂ -13951
ㅋㅔㄹㄹㅏㄴㅈㅔㄹㄹㅗ -13952
ㄸㅗ -13953
▁BP -13954
ㄲㅡㅌ -13955
line -13956
ative -13957
ㅇㅜㄴㅅㅡ -13958
▁ㄴㅗㅇㅅㅜ -13959
▁ㅅㅏㄴㄷㅐ -13960
▁ㅇㅣㅇㅌㅐ -13961
ㅇㅡㄴㄱㅜㄴ -13962
ㅊㅜㄹㅇㅣㅂ -13963
▁ㄱㅏㄴㅈㅓㄹ -13964
▁ㄴㅏㄴㅍㅗㄱ -13965
▁ㅅㅓㄹㄴㅏㄹ -13966
▁ㅊㅓㅇㅂㅐㄱ -13967
▁GeForce -13968
▁ㅅㅔㄹㅌㅣㄱㅅㅡ -13969
▁ㅅㅣㄴㅈㅜㅇㄷㅗ -13970
▁ㅇㅑㅇㅊㅓㄴㄱㅜ -13971
▁ㄴㅏㅁㅎㅏㄱㅅㅐㅇ -13972
▁ㅇㅣㄹㅂㅏㄴㅈㅣㄱ -13973
▁ㅈㅣㄴㅎㅐㄱㅅㅐㅇㅁㅜㄹ -13974
ㅁㅐㅂ -13975
ㅅㅔㄱ -13976
▁Bus -13977
iness -13978
ㅁㅔㄹㄹㅣ -13979
ㅁㅜㄴㅈㅔ -13980
▁Group -13981
▁White -13982
▁ㄴㅗㄱㅈㅣ -13983
▁ㅁㅐㄱㅅㅣ -13984
▁ㅁㅣㄴㅌㅡ -13985
▁ㅅㅓㅇㅌㅗ -13986
▁ㅇㅐㄱㅈㅏ -13987
▁ㅈㅏㅂㅇㅣ -13988
▁ㅊㅏㄹㄴㅏ -13989
▁ㅋㅗㅇㅋㅗ -13990
▁ㅎㅜㄹㄹㅣ -13991
ㅁㅏㄴㅅㅣㄱ -13992
ㅂㅏㅇㅁㅕㄴ -13993
ㅂㅡㄴㅅㅡㄴ -13994
ㅇㅝㄴㄹㅗㄴ -13995
ㅈㅣㅇㄱㅡㅁ -13996
▁ㄱㅏㄱㅁㅏㄱ -13997
▁ㄱㅕㅇㅈㅏㅇ -13998
▁ㄴㅓㅁㄱㅣㄴ -13999
▁ㅁㅕㅇㅁㅏㅇ -14000
▁ㅅㅏㅇㄱㅜㄴ -14001
▁ㅇㅏㄹㅋㅗㄹ -14002
▁ㅈㅏㅇㅇㅕㄴ -14003
▁ㅈㅓㅂㅇㅕㅇ -14004
▁ㅇㅕㄴㅂㅏㅇㅈㅜ -14005
▁ㅇㅗㅇㅈㅓㅇㅈㅔ -14006
ㅂㅗㄱㄷㅗㅇㅅㅐㅇ -14007
AV -14008
▁AH -14009
ㅅㅓㄲ -14010
▁470 -14011
▁ㄸㅓㅆ -14012
ㅁㄷㅗㄹ -14013
ㅁㅕㅇㅌㅏ -14014
ㅂㅜㄱㅇㅣ -14015
ㅊㅔㄹㄹㅗ -14016
▁Sweet -14017
▁ㄹㅣㅇㅅㅡ -14018
▁ㅂㅔㄴㅌㅡ -14019
▁ㅂㅜㄴㅁㅛ -14020
▁ㅅㅜㅁㅈㅣ -14021
▁ㅇㅏㄱㅅㅏ -14022
▁ㅇㅝㄴㅅㅔ -14023
▁ㅈㅓㅇㅎㅗ -14024
▁ㅊㅓㅇㄷㅐ -14025
ㅁㅜㄴㅈㅏㅇ -14026
ㅇㅣㄴㅅㅓㄱ -14027
▁ㄱㅡㅂㄱㅏㅁ -14028
▁ㅊㅡㄱㅅㅣㄹ -14029
▁ㅍㅜㅇㅅㅓㅇ -14030
▁ㅅㅓㄱㅂㅜㄹㅈㅘ -14031
▁ㅈㅜㅇㅅㅣㅁㄱㅏ -14032
▁ㅊㅜㅇㅅㅓㅇㅅㅣㅁ -14033
ㅊㅓㄴㄴㅕㄴㅁㅣㄴㅈㅜ -14034
ㅁㅜㅇ -14035
▁1826 -14036
▁Dark -14037
▁ㄱㅣㅁㅇㅣ -14038
▁ㄴㅏㄴㅅㅣ -14039
▁ㄴㅔㄱㅅㅓ -14040
▁ㄹㅐㄹㄹㅣ -14041
▁ㄹㅣㅇㄱㅗ -14042
▁ㅁㅕㄹㅊㅣ -14043
▁ㅋㅝㄹㄹㅣ -14044
▁ㅎㅔㄱㅅㅏ -14045
▁ㅎㅔㄹㅁㅜ -14046
▁ㅎㅡㄱㄱㅣ -14047
ㅅㅗㅇㅅㅓㄴ -14048
ㅈㅗㅇㅎㅏㅂ -14049
▁ㅂㅣㅅㅁㅜㄹ -14050
▁ㅅㅓㅇㅌㅏㄴ -14051
▁ㅅㅜㄴㅇㅕㄹ -14052
▁ㅇㅣㅂㄱㅜㅇ -14053
▁ㅊㅓㄴㅇㅣㄴ -14054
▁ㅅㅡㅇㅁㅜㄴㅇㅝㄴ -14055
▁ㅇㅡㄴㅇㅓㄴㄱㅜㄴ -14056
▁ㅈㅓㄴㅌㅗㅇㅁㅜㄴㅎㅘ -14057
fr -14058
BSD -14059
ㅂㅐㅅ -14060
ㅋㅏㅂ -14061
ㅍㅏㅅ -14062
▁ㅇㅛㄹ -14063
ㅇㅐㅇㅋㅏ -14064
ㅈㅗㅇㄱㅛ -14065
▁ㄴㅏㄹㄹㅗ -14066
▁ㅅㅏㅁㅈㅣ -14067
▁ㅅㅜㄴㅁㅜ -14068
▁ㅇㅏㄴㅅㅜ -14069
▁ㅇㅛㅇㅎㅘ -14070
▁ㅈㅓㄹㄱㅣ -14071
▁ㅊㅏㄴㅁㅣ -14072
▁ㅊㅜㄹㅎㅏ -14073
▁ㅊㅣㄱㅅㅓ -14074
ㄸㅓㄱㅇㅣㅍ -14075
ㅅㅡㅇㅎㅘㄴ -14076
▁ㅂㅕㅇㅅㅓㄹ -14077
▁ㅅㅓㄴㄱㅜㄴ -14078
▁ㅅㅓㄴㅊㅏㄱ -14079
▁ㅇㅕㄱㅂㅕㅇ -14080
▁ㅎㅏㅁㅊㅜㄱ -14081
▁ㅎㅕㅂㅇㅕㄴ -14082
▁ㄷㅗㅇㅇㅡㅁㅇㅣ -14083
▁ㅇㅕㅇㄴㅏㅁㄷㅐ -14084
▁ㅇㅜㄴㅈㅓㄴㅅㅏ -14085
▁ㅍㅣㄹㅅㅏㄹㄱㅣ -14086
▁ㅇㅔㅁㅂㅡㄹㄹㅓㅁ -14087
erv -14088
▁KL -14089
▁ㅉㅏㄹ -14090
ㅂㅆㅏㄹ -14091
▁IDOL -14092
ㅁㅗㄹㄹㅔ -14093
▁Stand -14094
▁ㄱㅜㄹㄷㅡ -14095
▁ㅁㅏㄹㅌㅜ -14096
▁ㅂㅏㄱㅎㅕ -14097
▁ㅂㅗㄱㄷㅗ -14098
▁ㅇㅣㄴㄷㅜ -14099
ㅈㅓㅇㅎㅘㄴ -14100
ㅎㅡㅇㄷㅗㅇ -14101
▁Direct -14102
▁ㄱㅏㄴㅇㅓㄴ -14103
▁ㄱㅗㅇㅇㅕㄱ -14104
▁ㅅㅣㄴㄹㅏㅇ -14105
▁ㅇㅛㅇㄴㅏㅂ -14106
▁ㅇㅠㅇㅅㅓㅇ -14107
▁ㅈㅓㅂㅎㅐㅆ -14108
▁ㄱㅘㅇㅈㅣㄴㄱㅜ -14109
▁ㅂㅗㅂㅅㅡㄹㄹㅔ -14110
▁ㅎㅕㄴㅊㅜㅇㅇㅝㄴ -14111
▁ㅎㅗㅇㄱㅓㄴㅈㅓㄱ -14112
CE -14113
ml -14114
▁Tu -14115
▁nd -14116
▁415 -14117
▁710 -14118
▁Cry -14119
▁SHO -14120
ㅈㅏㅇㄱㅣ -14121
▁Elect -14122
▁ㄴㅏㄹㅈㅗ -14123
▁ㅈㅣㄴㅂㅜ -14124
▁ㅊㅣㅇㅎㅐ -14125
ㅈㅣㄴㅎㅡㅇ -14126
▁ㅎㅏㅇㅇㅏㅁ -14127
▁ㅎㅕㄹㅈㅓㄴ -14128
▁ㅇㅕㅇㅇㅝㄹㄱㅜㄴ -14129
bc -14130
ㄱㅣㅇ -14131
ㅋㅏㅅ -14132
▁MGM -14133
▁UFC -14134
▁Fall -14135
▁Roll -14136
ㄹㅏㅆㅇㅡ -14137
▁Staff -14138
▁ㄴㅣㄱㄴㅔ -14139
▁ㄹㅏㄴㄷㅏ -14140
▁ㅇㅏㅂㄹㅠ -14141
▁ㅇㅣㅁㅍㅔ -14142
ㄱㅗㄴㅂㅗㄹ -14143
ㅍㅗㄱㄹㅕㄱ -14144
▁ㅂㅐㄱㄴㅏㅁ -14145
▁ㅂㅓㄴㅈㅣㄴ -14146
▁ㅅㅗㄱㅇㅣㄴ -14147
▁ㅈㅏㄱㅇㅡㄴ -14148
▁ㅈㅏㅁㄱㅡㅁ -14149
▁ㅈㅜㅇㅈㅣㄴ -14150
▁ㅎㅔㄹㄹㅡㅁ -14151
▁ㅂㅏㄺㅎㅣㄴㄷㅏ -14152
▁ㅈㅜㅇㅅㅣㅁㅈㅜ -14153
ㅅㅜㄴㅇㅑㅇㅎㅏㅁ -14154
▁ㅁㅜㄹㅂㅏㅇㅇㅜㄹ -14155
▁ㅊㅜㄹㅇㅣㅂㄱㅜㄱ -14156
▁ㅋㅡㄹㄹㅐㅂㅌㅡㄴ -14157
▁243 -14158
▁345 -14159
▁NCA -14160
▁STER -14161
ㅂㅏㄴㅌㅔ -14162
ㅇㅣㄹㅇㅣ -14163
ㅎㅘㄴㄱㅣ -14164
▁Girls -14165
▁ㄱㅏㅂㄱㅘ -14166
▁ㄱㅕㄱㄴㅗ -14167
▁ㅂㅜㄱㄷㅜ -14168
▁ㅈㅐㅇㅇㅣ -14169
ㅊㅓㄴㅇㅕㄱ -14170
▁ㄱㅏㅁㄱㅠㄹ -14171
▁ㄷㅏㄴㅊㅗㅇ -14172
▁ㅂㅏㅇㅇㅕㄱ -14173
▁ㅇㅕㄹㅂㅕㅇ -14174
▁ㅈㅗㅇㅂㅏㄴ -14175
▁ㅈㅣㄴㅈㅗㅇ -14176
▁ㅎㅏㅇㅂㅕㄴ -14177
▁ㄱㅗㅁㅍㅏㅇㅇㅣ -14178
▁ㅅㅣㄹㄹㅕㄱㅈㅏ -14179
▁ㅇㅡㄴㅁㅣㄹㅎㅣ -14180
▁ㅇㅜㄹㅈㅣㄴㄱㅜㄴ -14181
▁ㅎㅏㄴㄹㅣㅁㅇㅝㄴ -14182
nal -14183
▁Fi -14184
▁NGO -14185
▁ㅅㅗㅌ -14186
▁Miss -14187
ㅂㅏㅇㄱㅏ -14188
ㅇㅜㄱㄷㅓ -14189
▁ㄱㅘㅇㄱㅣ -14190
▁ㅁㅜㄹㅇㅓ -14191
▁ㅂㅏㅇㅈㅐ -14192
▁ㅅㅏㄴㅈㅏ -14193
▁ㅇㅕㅇㄴㅐ -14194
▁ㅇㅞㄴㄷㅣ -14195
▁ㅈㅏㄴㄱㅣ -14196
ㄱㅜㄱㅅㅣㄱ -14197
▁ㅂㅏㅇㄱㅘㅇ -14198
▁ㄱㅏㅁㄷㅗㄱㄱㅘㄴ -14199
▁ㄱㅘㄴㅈㅜㅇㅅㅓㄱ -14200
▁ㅇㅣㅁㅅㅣㄹㄱㅜㄴ -14201
▁ㅈㅗㄹㅇㅓㅂㅅㅣㄱ -14202
▁ㅊㅓㅇㅅㅗㅇㄱㅜㄴ -14203
89 -14204
▁mac -14205
▁1811 -14206
▁ㄱㅏㄴㅇㅣ -14207
▁ㄷㅗㄴㄷㅏ -14208
▁ㄷㅟㅅㄷㅏ -14209
▁ㅂㅕㄹㅅㅣ -14210
▁ㅋㅐㄹㄹㅓ -14211
▁ㅌㅓㄹㅇㅓ -14212
▁ㅁㅜㄹㅅㅏㄴ -14213
▁ㅂㅗㅇㅅㅣㄴ -14214
▁ㅅㅓㅇㅎㅘㅇ -14215
▁ㅅㅗㄴㄱㅕㄴ -14216
▁ㅅㅗㅇㄱㅏㅇ -14217
▁ㅅㅜㄴㅂㅏㅇ -14218
▁ㅍㅡㄹㄹㅗㅅ -14219
▁ㅍㅡㄹㄹㅔㄱㅅㅡ -14220
▁ㅎㅗㄹㄹㅐㄴㄷㅡ -14221
▁ㅂㅕㄴㄱㅕㅇㅂㅐㄱ -14222
▁ㅂㅜㄹㅅㅣㄴㅇㅣㅁ -14223
▁ㅂㅜㅌㅈㅏㅂㅎㅕㅆ -14224
▁ㅈㅏㅇㅅㅓㅇㄱㅜㄴ -14225
ka -14226
mb -14227
▁LL -14228
▁UH -14229
▁Us -14230
▁ㅎㅑ -14231
▁286 -14232
▁Comm -14233
ㅁㅏㄹㄹㅕ -14234
ㅂㅔㄴㄴㅏ -14235
ㅅㅏㅇㅈㅐ -14236
ㅈㅓㄴㅅㅏ -14237
▁ㅁㅗㄹㄷㅣ -14238
▁ㅂㅓㄴㅎㅘ -14239
▁ㅅㅣㄹㅇㅚ -14240
▁ㅇㅓㄺㅁㅐ -14241
▁ㅇㅝㄴㅇㅚ -14242
▁ㅈㅣㅇㅅㅣ -14243
ㄴㅔㄴㅌㅏㄹ -14244
ㄹㅐㄴㅈㅐㄱ -14245
▁ㄱㅏㄹㅁㅏㅇ -14246
▁ㅂㅜㄹㅇㅜㄴ -14247
▁ㅊㅏㅇㅂㅓㅂ -14248
▁ㅊㅓㅁㅌㅏㅂ -14249
▁ㅌㅏㄴㅊㅏㅇ -14250
▁ㅍㅏㄹㄷㅏㄹ -14251
▁ㅎㅐㅇㅅㅏㅇ -14252
ㅅㅔㅁㅂㅡㄹㄹㅣ -14253
▁ㄱㅗㅇㄱㅕㄱㄱㅣ -14254
▁ㅋㅓㄴㅅㅔㅂㅌㅡ -14255
ㄹㅐㄴㅈㅐㄱㅅㅕㄴ -14256
▁ㅈㅓㄴㅂㅏㄴㅈㅓㄴ -14257
led -14258
▁QS -14259
ㅁㅏㅁ -14260
ㅆㅏㄱ -14261
▁247 -14262
▁DDR -14263
▁Mem -14264
▁UFO -14265
▁1620 -14266
▁1680 -14267
ㄹㅡㄴㅈㅜ -14268
ㅁㅕㅇㄷㅗ -14269
ㅁㅣㄹㄹㅗ -14270
ㅌㅐㄴㅍㅗ -14271
▁ㅂㅗㄴㄱㅘ -14272
▁ㅅㅏㅇㅂㅣ -14273
▁ㅅㅣㄴㅇㅑ -14274
▁ㅇㅑㅇㅁㅗ -14275
▁ㅇㅣㄴㅂㅜ -14276
▁ㅍㅐㄴㅌㅓ -14277
ㅅㅗㄱㄹㅕㄱ -14278
ㅅㅡㅇㅁㅣㄴ -14279
ㅋㅗㅇㄱㅏㅇ -14280
▁ㄱㅓㅁㅈㅣㄴ -14281
▁ㄱㅜㄱㅎㅏㄱ -14282
▁ㄷㅗㅇㅈㅣㄹ -14283
▁ㅂㅏㄱㅊㅏㅇ -14284
▁ㅂㅏㄴㅅㅡㅇ -14285
▁ㅂㅓㄹㅁㅗㄱ -14286
▁ㅂㅜㄴㅁㅏㄹ -14287
▁ㅅㅡㅂㅎㅏㄴ -14288
▁ㅇㅐㄱㅁㅕㄴ -14289
▁ㅇㅛㅇㅇㅠㅇ -14290
▁ㅈㅓㄱㄹㅣㅂ -14291
▁ㅈㅜㄱㅇㅣㄴㄷㅏ -14292
▁ㅌㅗㅇㅇㅣㄹㅂㅜ -14293
▁ㅍㅕㄹㅊㅕㅆㅇㅡ -14294
ㅇㅣㅁㅂㅓㄹㄹㅣㄴ -14295
▁Ca -14296
▁Er -14297
aven -14298
▁mark -14299
▁ㅇㅝㄹㅅㅡ -14300
▁ㅈㅏㅇㅎㅗ -14301
▁ㅎㅑㅇㅇㅠ -14302
ㅇㅣㄴㅅㅓㅇ -14303
▁ㄴㅡㅇㄹㅠㄹ -14304
▁ㅁㅗㄱㄹㅕㄴ -14305
▁ㅅㅓㄴㄹㅑㅇ -14306
▁ㅇㅏㄴㅎㅕㄴ -14307
▁ㅈㅣㄱㅎㅏㄹ -14308
▁ㅈㅣㅇㅇㅛㅇ -14309
ㅎㅐㅇㅅㅓㅇㄷㅐ -14310
▁ㅂㅜㄴㅊㅓㅇㅅㅏ -14311
ㄱㅓㅁㅊㅏㄹㅊㅓㅇ -14312
ㄸㅓㄱㅇㅣㅍㅅㅣㄱㅁㅜㄹ -14313
fin -14314
▁jp -14315
ible -14316
illa -14317
▁map -14318
▁ㅅㅟㄴ -14319
lease -14320
ㅇㅔㄹㄹㅣ -14321
▁ㅁㅕㄴㅅㅔ -14322
▁ㅂㅓㅂㅊㅔ -14323
▁ㅂㅜㄹㅇㅜ -14324
▁ㅅㅣㄴㅊㅐ -14325
▁ㅇㅘㄴㄱㅜ -14326
▁ㄷㅡㅇㄱㅏㄱ -14327
▁ㅇㅐㄴㅈㅔㄹ -14328
▁ㅇㅑㅇㅂㅗㅇ -14329
▁ㅇㅕㄱㅇㅝㄴ -14330
▁ㅇㅕㄴㅂㅕㄴ -14331
▁ㅈㅓㅇㄱㅏㄱ -14332
▁ㅈㅓㅇㅍㅕㅇ -14333
▁ㅋㅣㅇㄷㅓㅁ -14334
▁ㅌㅡㄱㄱㅓㅁ -14335
▁ㅇㅗㄹㄹㅣㅁㅍㅜ -14336
▁ㅈㅓㅇㅂㅗㄱㅈㅏ -14337
▁ㅎㅘㄱㅈㅏㅇㅈㅏ -14338
▁Christmas -14339
▁ㄱㅣㄴㅈㅏㅇㄱㅏㅁ -14340
83 -14341
85 -14342
asy -14343
▁Lee -14344
▁Mat -14345
▁TNA -14346
▁pop -14347
▁char -14348
ㄷㅣㅈㅎㅣ -14349
▁Young -14350
▁ㄱㅡㄹㄹㅔ -14351
▁ㄷㅏㄴㅍㅏ -14352
▁ㅎㅏㄹㄲㅏ -14353
ㄷㅗㅇㅂㅓㅂ -14354
ㅇㅡㅁㅇㅏㄱ -14355
▁ㅂㅐㄱㅇㅑㅇ -14356
▁ㅇㅑㅇㅇㅏㄴ -14357
▁ㅎㅡㅇㅇㅓㅂ -14358
▁ㅊㅏㅁㅅㅓㄱㅈㅏ -14359
▁ㅍㅕㅇㅅㅣㄴㄷㅗ -14360
▁302 -14361
▁ㅅㅛㅂ -14362
ㄱㅜㄴㅌㅡ -14363
ㅂㅐㄴㄷㅡ -14364
ㅅㅣㄹㅎㅣ -14365
ㅇㅏㄴㅌㅗ -14366
ㅎㅏㄱㄱㅣ -14367
▁style -14368
▁ㅁㅗㄱㅊㅗ -14369
▁ㅂㅗㄴㅇㅟ -14370
▁ㅂㅜㄹㄱㅣ -14371
▁ㅇㅣㅍㄱㅕ -14372
▁ㅊㅣㄹㄹㅣ -14373
▁ㅌㅗㄹㄹㅔ -14374
▁ㅎㅣㅁㄹㅓ -14375
ㄱㅜㄱㅅㅣㅁ -14376
ㄴㅜㅅㅅㅔㅁ -14377
ㅇㅏㄴㄱㅜㄱ -14378
▁ㄷㅏㄴㅎㅕㅇ -14379
▁ㄷㅔㄴㅂㅜㄴ -14380
▁ㅅㅏㅁㅅㅐㄱ -14381
▁ㅈㅗㅇㅅㅓㅇ -14382
▁ㅍㅡㄹㄹㅣㄴ -14383
▁ㅌㅗㅇㅎㅐㅇㄹㅛ -14384
▁ㄱㅕㅇㅇㅕㅇㄴㅏㄴ -14385
▁ㅇㅗㄱㅊㅓㄴㄱㅜㄴ -14386
▁ㅇㅡㅁㅇㅏㄱㅇㅣㄴ -14387
▁ㅇㅣㅁㅈㅣㄴㄱㅏㅇ -14388
gg -14389
bit -14390
▁CI -14391
▁JO -14392
soft -14393
▁URL -14394
▁dis -14395
▁ㄲㅏㄱ -14396
▁1822 -14397
▁LGBT -14398
▁Inter -14399
▁Story -14400
▁ㄷㅗㅇㅈㅔ -14401
▁ㅁㅏㄴㄹㅜ -14402
▁ㅂㅏㄷㅊㅕ -14403
▁ㅇㅏㄹㅋㅔ -14404
ㅇㅝㄹㄷㅗㅇ -14405
▁ㄱㅏㅇㄹㅗㄴ -14406
▁ㄱㅜㄷㄱㅓㄴ -14407
▁ㅁㅏㄱㄹㅗㄴ -14408
▁ㅂㅕㅇㅇㅑㄱ -14409
▁ㅅㅏㅇㄹㅑㅇ -14410
▁ㅇㅓㄴㅎㅐㅇ -14411
▁ㅇㅣㄹㅊㅜㄱ -14412
▁ㅈㅓㅇㅁㅣㄴ -14413
▁ㅍㅗㄱㅅㅓㄹ -14414
▁ㅌㅗㅇㅈㅓㅇㄷㅐ -14415
▁ㅅㅣㄱㅁㅜㄹㅎㅏㄱ -14416
▁ㅌㅡㄱㅂㅕㄹㅅㅏㅇ -14417
sy -14418
▁HM -14419
▁1660 -14420
▁1770 -14421
ㄱㅕㅇㅅㅏ -14422
ㄷㅔㅇㅇㅣ -14423
ㅅㅏㅇㄷㅡ -14424
ㅈㅔㄹㄹㅏ -14425
ㅎㅡㅇㄱㅜ -14426
▁Under -14427
▁ㄱㅔㄴㄹㅗ -14428
▁ㄲㅡㄶㄱㅣ -14429
▁ㅇㅘㅇㅅㅏ -14430
▁ㅈㅓㄹㅈㅣ -14431
ㄱㅕㅇㅇㅝㄴ -14432
▁ㄷㅏㄴㅇㅓㄴ -14433
▁ㅅㅏㄴㄱㅜㄱ -14434
▁ㅇㅓㅇㄸㅜㅇ -14435
▁ㅇㅕㅁㅇㅝㄴ -14436
▁ㅇㅗㅅㄱㅏㅁ -14437
▁ㅇㅣㄹㅇㅣㄴ -14438
▁ㅈㅜㅇㅇㅣㅁ -14439
▁ㅎㅗㅇㅇㅕㅇ -14440
▁ㅊㅗㅇㅇㅣㄴㄱㅜ -14441
▁ㄱㅗㅇㅅㅗㄴㅊㅏㄴ -14442
▁ㅅㅐㅇㅂㅏㅇㅅㅗㅇ -14443
VF -14444
li -14445
▁Na -14446
ents -14447
oman -14448
▁Sur -14449
▁TTC -14450
▁ㅊㅡㄹ -14451
▁1018 -14452
▁1610 -14453
ㄱㅕㄴㄷㅐ -14454
ㄱㅣㄴㅅㅡ -14455
ㄹㅓㅇㅋㅡ -14456
ㄹㅡㄱㅅㅏ -14457
ㅅㅏㄴㅅㅗ -14458
▁ㅁㅐㄱㅂㅔ -14459
▁ㅅㅗㅅㅇㅏ -14460
▁ㅅㅣㅁㅈㅐ -14461
▁ㅇㅣㅂㅎㅕ -14462
▁ㅎㅏㄴㅅㅣ -14463
▁ㅎㅘㄴㅅㅜ -14464
▁ㅅㅏㅇㅂㅗㅇ -14465
▁ㅅㅣㄴㅅㅣㅁ -14466
▁ㅇㅕㅇㅇㅏㄴ -14467
▁ㅎㅏㄴㄱㅕㄹ -14468
▁ㅎㅏㅂㅎㅏㄴ -14469
▁ㄴㅡㅇㄹㅕㄱㅈㅏ -14470
▁ㅇㅕㅇㅇㅑㅇㅅㅗ -14471
▁ㅇㅣㄴㅊㅓㄴㅅㅣ -14472
▁ㅈㅣㄴㄷㅏㄹㄹㅐ -14473
▁ㅂㅜㄴㄷㅏㅇㅅㅓㄴ -14474
▁285 -14475
▁307 -14476
▁add -14477
▁BEST -14478
ㅂㅜㄴㄹㅣ -14479
ㅇㅣㄴㅎㅗ -14480
ㅈㅓㄴㅍㅏ -14481
ㅌㅏㅇㅅㅡ -14482
▁color -14483
▁ㄹㅐㅁㅈㅣ -14484
▁ㅇㅏㄱㅌㅣ -14485
▁ㅇㅏㄹㅅㅡ -14486
▁ㅇㅔㄱㅅㅗ -14487
▁ㅋㅗㅁㅍㅡ -14488
ㅁㅜㄹㄱㅘㄴ -14489
ㅅㅗㄱㅅㅓㄴ -14490
ㅊㅜㄱㅇㅣㄹ -14491
▁ㄴㅗㅇㅅㅏㅇ -14492
▁ㅇㅕㄴㅁㅕㅇ -14493
▁ㅇㅣㅂㄱㅓㄴ -14494
▁ㅈㅣㄴㄱㅘㄴ -14495
▁ㄱㅣㅁㅈㅗㅇㅅㅓ -14496
▁ㅈㅜㅇㄴㅏㅁㅁㅣ -14497
▁ㅎㅚㅇㅅㅓㅇㄱㅜㄴ -14498
ald -14499
und -14500
gram -14501
▁251 -14502
▁ㅈㅓㅅ -14503
▁1519 -14504
ㄴㅏㅁㅇㅓ -14505
▁ㅇㅡㅁㅍㅏ -14506
ㅁㅣㄴㄱㅘㄴ -14507
ㅎㅘㄴㄱㅜㄱ -14508
▁Season -14509
▁ㄲㅗㅂㅎㅕㅆ -14510
▁ㅅㅐㅇㄱㅏㅇ -14511
▁ㅈㅗㅇㅇㅣㄴ -14512
▁ㅊㅏㅁㄷㅚㄴ -14513
▁ㅊㅓㅇㄷㅏㅁ -14514
▁ㄷㅏㅇㅈㅣㄴㅅㅣ -14515
▁ㅂㅜㄴㄷㅏㅇㄱㅜ -14516
▁ㅇㅠㄴㅂㅗㅇㄱㅣㄹ -14517
lus -14518
ㅅㅗㅌ -14519
▁LNG -14520
▁ㄷㅔㅁ -14521
▁ㅈㅔㅇ -14522
▁ㅍㅔㅁ -14523
▁1604 -14524
▁chem -14525
ㅈㅣㄴㅅㅜ -14526
▁ㅈㅣㄹㅌㅏ -14527
▁ㅌㅗㅇㅉㅐ -14528
ㅇㅛㅇㅂㅓㅂ -14529
ㅈㅏㄱㄱㅗㄱ -14530
ㅋㅣㄱㅇㅡㄹ -14531
ㅎㅏㄴㅅㅏㅇ -14532
▁ㄱㅏㅇㅈㅓㅇ -14533
▁ㄷㅏㅇㄱㅡㄴ -14534
▁ㅁㅓㄹㄹㅣㄴ -14535
▁ㅇㅝㄴㅎㅘㄴ -14536
▁ㅇㅣㄹㅈㅓㄹ -14537
▁ㅌㅏㄹㅇㅕㅇ -14538
▁ㅂㅜㄹㄱㅜㄱㅅㅏ -14539
▁ㅋㅡㄴㄱㅗㅁㅈㅏ -14540
by -14541
ms -14542
ㅆㅗ -14543
ISC -14544
oon -14545
ㅇㅘㄱ -14546
▁246 -14547
▁Son -14548
▁ㅅㅜㅊ -14549
▁ㅍㅕㅁ -14550
▁1829 -14551
ㅁㅏㄴㄷㅏ -14552
ㅂㅜㄴㅂㅣ -14553
ㅅㅏㄴㅅㅏ -14554
ㅅㅓㅇㄷㅐ -14555
ㅅㅓㅇㅇㅜ -14556
ㅇㅜㄹㄹㅕ -14557
ㅇㅝㄴㄹㅣ -14558
▁ㄱㅓㅁㅅㅗ -14559
▁ㄹㅜㄹㄹㅏ -14560
▁ㅅㅓㄱㅈㅜ -14561
▁ㅇㅕㄴㅇㅢ -14562
▁ㅊㅜㅇㅎㅛ -14563
▁ㅋㅔㄴㅌㅏ -14564
▁ㅍㅏㄴㅅㅣ -14565
ㅅㅡㅇㄷㅏㄹ -14566
ㅇㅣㄱㅎㅕㄴ -14567
ㅊㅐㄱㄱㅏㅁ -14568
▁ㄴㅏㅁㅇㅕㄴ -14569
▁ㄷㅓㅍㅇㅣㄴ -14570
▁ㄸㅗㄱㄸㅗㄱ -14571
▁ㅅㅜㄴㅈㅣㄴ -14572
▁ㅅㅣㄴㄱㅘㅇ -14573
▁ㅆㅏㅇㄱㅡㄱ -14574
▁ㅇㅑㄱㄱㅘㄴ -14575
▁ㅇㅛㅇㄱㅏㅇ -14576
▁ㅈㅏㅇㅎㅏㄴ -14577
▁ㅂㅏㄴㅇㅕㄱㅈㅏ -14578
▁ㅂㅜㄴㅅㅓㄱㄱㅏ -14579
▁ㅇㅡㄴㅅㅣㄴㅊㅓ -14580
▁ㅇㅣㄴㅌㅔㄹㄹㅣ -14581
▁ㅌㅗㅇㄱㅏㅁㅂㅜ -14582
ㅇㅕㄴㅎㅘㄴㄱㅕㅇ -14583
ㅎㅏㄱㅇㅝㄴㅅㅐㅇ -14584
▁288 -14585
▁403 -14586
▁PCI -14587
▁PHP -14588
▁per -14589
▁Spec -14590
ㅅㅏㅇㅎㅏ -14591
▁ㄴㅡㅇㅎㅣ -14592
▁ㅅㅏㅇㅈㅘ -14593
▁ㅇㅘㄴㅊㅣ -14594
▁ㅈㅓㅇㅁㅛ -14595
▁ㅌㅐㅇㄱㅗ -14596
▁ㅎㅐㅁㅂㅓ -14597
ㄱㅏㅇㅈㅓㄴ -14598
ㅂㅏㄹㅈㅓㅁ -14599
▁ㅁㅜㄴㅁㅐㅇ -14600
▁ㅁㅜㄹㅇㅡㅁ -14601
▁ㅂㅓㄴㅇㅏㄴ -14602
▁ㅅㅓㄴㅎㅏㄴ -14603
▁ㅇㅕㅇㅇㅣㄴ -14604
▁ㅈㅜㅇㅈㅓㅇ -14605
▁ㅎㅕㄹㄷㅏㅇ -14606
▁American -14607
▁ㅈㅜㅇㅅㅓㄴㄱㅓ -14608
▁ㅎㅏㄴㄱㅜㄱㅇㅖ -14609
ㅅㅜㄹㅈㅗㅇㅎㅏㅂ -14610
▁ㄱㅗㅇㄱㅡㅂㅇㅝㄴ -14611
▁ㅂㅡㄹㄹㅐㄱㅂㅓㄴ -14612
▁ㅇㅏㄹㄹㅔㄱㅅㅏㅇㄷㅡ -14613
ㅅㅜㄹㅈㅗㅇㅎㅏㅂㅎㅏㄱㄱㅛ -14614
DC -14615
mun -14616
▁*/ -14617
▁1827 -14618
ㅅㅏㄴㅈㅣ -14619
ㅌㅐㄱㄱㅏ -14620
▁ㄱㅗㅂㅎㅏ -14621
▁ㄱㅘㅇㅇㅢ -14622
▁ㄴㅗㅇㄱㅣ -14623
▁ㅂㅏㄱㄴㅗ -14624
▁ㅂㅏㄴㅅㅡ -14625
▁ㅂㅔㄹㄹㅓ -14626
▁ㅂㅜㄹㅍㅗ -14627
▁ㅅㅏㅇㄹㅣ -14628
▁ㅅㅓㅇㅂㅣ -14629
▁ㅅㅣㄴㅇㅗ -14630
▁ㅊㅓㄴㅂㅜ -14631
▁ㅎㅏㄴㄷㅜ -14632
ㅇㅣㄹㄹㅣㅇ -14633
ㅎㅕㅇㅁㅜㄹ -14634
▁ㅅㅓㄴㄱㅜㄱ -14635
▁ㅎㅕㅂㅊㅏㄴ -14636
▁ㄲㅡㅀㄴㅡㄴㅈㅓㅁ -14637
▁ㅇㅘㄴㅈㅓㄴㅇㅕㄹ -14638
▁ㅎㅘㄱㅈㅏㅇㅍㅐㄱ -14639
ki -14640
yo -14641
▁580 -14642
▁ㄲㅏㄴ -14643
▁Kiss -14644
▁Last -14645
ㅇㅞㄹㅅㅡ -14646
ㅊㅗㅇㅂㅜ -14647
ㅎㅕㄱㄱㅏ -14648
ㅎㅕㅇㅅㅜ -14649
▁Child -14650
▁ㅁㅔㄴㄷㅔ -14651
▁ㅂㅏㄴㅂㅜ -14652
▁ㅅㅣㄹㄱㅣ -14653
▁ㅇㅔㄴㄷㅗ -14654
ㄱㅘㄴㅈㅏㅇ -14655
ㅌㅗㅇㅅㅣㄴ -14656
▁ㄱㅗㅇㅁㅜㄴ -14657
▁ㄱㅜㄴㅇㅏㄱ -14658
▁ㅁㅜㄱㅇㅣㄴ -14659
▁ㅂㅗㄹㅌㅓㄴ -14660
▁ㅅㅏㅇㅅㅜㄹ -14661
▁ㅇㅝㄹㅅㅓㅇ -14662
▁ㅈㅜㅇㅌㅓㄱ -14663
▁ㅌㅏㅁㅈㅣㄴ -14664
▁ㅁㅗㄱㅈㅓㄱㅇㅓ -14665
▁ㅂㅐㄱㅎㅕㄹㄱㅜ -14666
▁ㅊㅓㅇㅇㅑㅇㄱㅜㄴ -14667
100 -14668
ㅅㅜㅍ -14669
ends -14670
▁242 -14671
▁ㄴㅓㅅ -14672
▁ㅈㅕㄴ -14673
▁3500 -14674
ㄱㅓㄹㅅㅡ -14675
ㅂㅔㄱㅈㅜ -14676
ㅂㅡㄹㅋㅏ -14677
ㅊㅜㄹㅁㅏ -14678
▁ㄱㅜㄱㅈㅗ -14679
▁ㄷㅗㄱㅂㅗ -14680
▁ㄹㅗㄴㄷㅗ -14681
▁ㅂㅣㄱㅅㅡ -14682
▁ㅊㅐㅁㅂㅓ -14683
▁ㅍㅜㅇㅈㅗ -14684
▁ㅍㅣㅇㄱㅓ -14685
ㅂㅏㄴㅇㅡㅇ -14686
ㅇㅣㄴㅅㅓㄴ -14687
ㅈㅓㄱㅎㅏㅂ -14688
ㅈㅡㅇㅇㅣㄴ -14689
ㅊㅏㅇㄷㅗㅇ -14690
▁ㄷㅗㅇㅈㅜㅇ -14691
▁ㅂㅗㅇㄱㅡㅂ -14692
▁ㅎㅏㄴㅇㅕㅇ -14693
▁ㅂㅓㅂㄹㅠㄹㄱㅏ -14694
▁ㅅㅓㅇㅇㅏㄱㄱㅏ -14695
▁ㅇㅣㄹㅇㅣㄹㅇㅣ -14696
▁ㅈㅜㅇㅎㅏㅂㅊㅔ -14697
▁ㅎㅘㄹㅇㅕㅂㅅㅜ -14698
▁ㅎㅡㅇㄷㅓㄱㄱㅜ -14699
UE -14700
▁-" -14701
ㅁㅜㄷ -14702
▁930 -14703
▁GSL -14704
▁1598 -14705
ㅁㅏㄴㅎㅣ -14706
ㅅㅐㄱㄱㅖ -14707
ㅅㅡㅁㄷㅗ -14708
ㅇㅔㄱㅅㅡ -14709
▁ㄴㅏㄴㄹㅠ -14710
▁ㄴㅏㅇㅌㅡ -14711
▁ㅁㅓㅁㅊㅝ -14712
▁ㅈㅓㄴㄱㅏ -14713
▁ㅊㅏㅁㅈㅣ -14714
▁ㅊㅓㅇㅅㅓ -14715
▁ㅍㅏㄴㅈㅏ -14716
▁ㅍㅏㅅㅋㅐ -14717
▁ㅍㅜㄹㅌㅏ -14718
ㅇㅑㅇㅁㅕㄴ -14719
▁ㄱㅏㄱㅊㅣㄱ -14720
▁ㄱㅏㅇㅅㅓㄴ -14721
▁ㄱㅓㄴㅂㅏㄴ -14722
▁ㄱㅓㅁㅅㅜㄹ -14723
▁ㄱㅕㄱㄴㅏㅂ -14724
▁ㄱㅕㅇㄱㅗㅇ -14725
▁ㄱㅗㅇㅈㅣㄴ -14726
▁ㅁㅕㅇㅅㅣㄴ -14727
▁ㅂㅗㅇㅎㅐㅇ -14728
▁ㅋㅗㄹㄹㅗㅁ -14729
▁ㅌㅗㅇㄷㅏㄹ -14730
▁ㅎㅘㄱㅈㅡㅇ -14731
▁ㅇㅏㄴㄷㅏㄹㄹㅜ -14732
▁ㅇㅜㅁㅈㅣㄱㅇㅕㅆ -14733
▁ㄴㅏㅁㅈㅜㅇㄱㅜㄱㅎㅐ -14734
ex -14735
SQL -14736
▁CB -14737
▁HC -14738
▁gl -14739
▁274 -14740
▁Val -14741
ATION -14742
▁1823 -14743
ㄱㅡㅂㅈㅏ -14744
ㅂㅔㄴㅌㅗ -14745
ㅍㅗㄹㄷㅡ -14746
▁Party -14747
▁ㄱㅡㅁㅅㅜ -14748
▁ㅂㅔㄴㄷㅓ -14749
▁ㅂㅗㅇㅌㅜ -14750
▁ㅇㅕㄱㅅㅜ -14751
▁ㅇㅕㄴㅂㅗ -14752
▁ㅇㅡㄴㅇㅠ -14753
▁ㅊㅓㅁㅈㅣ -14754
ㅇㅑㅇㅍㅜㅇ -14755
▁ㄱㅓㄴㅇㅝㄴ -14756
▁ㅁㅜㄷㅎㅣㄴ -14757
▁ㅂㅜㄴㅅㅣㄴ -14758
▁ㅇㅏㄱㅅㅓㅇ -14759
▁ㅈㅓㄴㅅㅐㅇ -14760
▁ㅈㅓㅁㅁㅏㄱ -14761
▁ㅈㅣㄹㅊㅐㄱ -14762
▁ㅊㅓㄴㄷㅗㅇ -14763
▁ㅋㅣㄹㄹㅣㅇ -14764
▁ㅍㅏㄴㅁㅜㄴㅈㅓㅁ -14765
ㄷㅚㄹ -14766
ㅊㅗㅁ -14767
iano -14768
ould -14769
▁312 -14770
ㅇㅌㅓㄴ -14771
▁2025 -14772
▁long -14773
ㅁㅏㄴㄷㅗ -14774
ㅅㅣㄹㅂㅏ -14775
▁ㄱㅕㅇㅈㅗ -14776
▁ㄷㅏㄴㅅㅣ -14777
▁ㄹㅣㅇㄴㅔ -14778
▁ㅁㅗㄱㄱㅘ -14779
▁ㅇㅡㅁㅍㅛ -14780
▁ㅎㅗㅇㄱㅏ -14781
ㄹㅐㄴㅁㅏㄴ -14782
ㅈㅕㅆㅇㅓㅆ -14783
ㅊㅜㅇㅎㅓㄴ -14784
▁ㄱㅗㄷㅈㅏㅇ -14785
▁ㄱㅜㄴㅈㅏㅇ -14786
▁ㄱㅡㅂㅎㅏㄴ -14787
▁ㄷㅏㅂㅅㅡㅂ -14788
▁ㅇㅏㄹㄹㅐㅇ -14789
▁ㅇㅑㅇㅈㅜㄴ -14790
▁ㅈㅏㅇㅍㅏㄴ -14791
▁ㅊㅓㄴㄷㅜㅇ -14792
▁ㄱㅏㅇㅂㅜㄱㄱㅜ -14793
▁ㅁㅜㄴㄱㅕㅇㅅㅣ -14794
▁ㅅㅏㅇㄷㅏㅇㄱㅜ -14795
▁ㅊㅜㄱㅈㅓㄴㄱㅣ -14796
▁ㅅㅓㅇㅈㅓㄴㅎㅘㄴ -14797
▁ㅈㅏㅇㅂㅏㅇㅎㅕㅇ -14798
96 -14799
WC -14800
ada -14801
ㅃㅜㅁ -14802
iter -14803
rown -14804
▁346 -14805
▁EXO -14806
▁temp -14807
ㄴㅏㅁㄱㅗ -14808
ㅇㅡㄴㅎㅏ -14809
ㅋㅓㅅㅈㅜ -14810
▁ㅁㅗㄴㅌㅏ -14811
▁ㅂㅔㄴㅈㅗ -14812
▁ㅅㅐㄹㄹㅣ -14813
▁ㅅㅣㄱㅊㅗ -14814
▁ㅇㅗㅇㄱㅣ -14815
▁ㅈㅓㄱㅇㅟ -14816
▁ㅎㅔㄴㄷㅓ -14817
▁ㄱㅏㅈㅊㅝㅆ -14818
▁ㅂㅏㅅㅈㅜㄹ -14819
▁ㅂㅏㅇㅂㅕㄱ -14820
▁ㅂㅕㄴㅎㅏㄹ -14821
▁ㅅㅗㄴㅌㅗㅂ -14822
▁ㅅㅡㄹㄹㅣㅂ -14823
▁ㅅㅣㄱㅇㅛㄱ -14824
▁ㅈㅓㄱㄱㅜㄱ -14825
▁ㅇㅏㅁㅅㅏㄹㅈㅏ -14826
▁ㄱㅗㄱㅅㅓㅇㄱㅜㄴ -14827
▁ㅅㅏㅇㅎㅐㅇㅅㅓㄴ -14828
46 -14829
ㅉㅜ -14830
▁615 -14831
▁Cap -14832
▁ㅊㅜㅂ -14833
▁ㅋㅝㄴ -14834
▁1689 -14835
ㅁㅗㄴㅌㅔ -14836
ㅂㅐㅇㅋㅡ -14837
▁ㄱㅏㅁㅂㅣ -14838
▁ㅁㅕㅇㄷㅐ -14839
▁ㅂㅐㄱㄱㅣ -14840
▁ㅅㅏㄴㄹㅗ -14841
▁ㅇㅑㄱㅅㅗ -14842
▁ㅇㅔㄹㅂㅔ -14843
▁ㅈㅗㅇㅅㅗ -14844
ㄷㅣㅇㅌㅓㄴ -14845
ㄹㅠㄱㅅㅓㅇ -14846
ㅇㅣㄹㄷㅗㅇ -14847
▁ㄱㅡㄴㅅㅣㄴ -14848
▁ㄱㅣㅁㅊㅐㄱ -14849
▁ㅅㅖㅇㄱㅔㄴ -14850
▁ㅈㅏㅇㅅㅗㄴ -14851
▁ㅋㅓㄹㄹㅓㅁ -14852
▁ㅌㅗㅇㅅㅓㄹ -14853
▁ㅎㅕㅇㅍㅕㅇ -14854
ㄹㅣㅇㅍㅣㄹㄷㅡ -14855
▁ㄱㅏㄴㅅㅓㄴㄷㅗ -14856
▁ㄱㅗㅇㅂㅐㄱㄱㅣ -14857
▁ㅇㅕㅇㄹㅏㄱㅈㅔ -14858
ㅅㅏㅁㄱㅏㄱㅎㅕㅇ -14859
▁ㄱㅕㅇㅈㅓㄴㅅㅓㄴ -14860
▁ㄴㅏㅁㅂㅜㄱㄱㅜㄱ -14861
▁ㅁㅏㅈㅊㅜㅁㅂㅓㅂ -14862
rib -14863
ㅂㅗㄲ -14864
▁252 -14865
▁OBS -14866
▁ㄹㅓㅅ -14867
▁1774 -14868
▁Core -14869
ㄷㅡㅁㅇㅣ -14870
ㄹㅐㄱㅅㅡ -14871
ㄹㅣㄹㄹㅗ -14872
ㅂㅏㄱㅎㅐ -14873
ㅅㅏㄴㅈㅐ -14874
▁Radio -14875
▁ㅁㅏㅇㅈㅜ -14876
▁ㅁㅕㅇㄱㅘ -14877
▁ㅁㅣㄹㅍㅖ -14878
▁ㅂㅏㄱㄷㅐ -14879
▁ㅇㅑㅇㄱㅗ -14880
▁ㅇㅕㄴㄱㅐ -14881
▁ㅇㅣㄹㄲㅐ -14882
▁ㅌㅐㄱㅂㅐ -14883
▁ㅌㅡㄱㅁㅜ -14884
▁ㄱㅏㅇㅈㅣㄱ -14885
▁ㅁㅏㄹㅅㅏㄹ -14886
▁ㅃㅗㅂㅎㅣㄴ -14887
▁ㅅㅓㄱㄱㅘㄴ -14888
▁ㅊㅗㅁㅊㅗㅁ -14889
▁ㅍㅕㅇㅈㅓㅁ -14890
▁ㅎㅏㄴㅇㅑㅇㄷㅐ -14891
ㅍㅡㄹㄹㅔㄱㅌㅣㄱ -14892
▁ㅁㅜㄴㅎㅏㄱㄱㅘㄴ -14893
▁ㅈㅓㄴㅇㅛㅇㅅㅓㄴ -14894
▁ㅅㅣㅁㅍㅡㄹㄹㅔㄱㅌㅣㄱ -14895
lad -14896
▁IG -14897
▁GTX -14898
▁Som -14899
▁ㅁㅠㄹ -14900
erson -14901
▁1080 -14902
▁1617 -14903
▁will -14904
▁ㄱㅘㅇㄱㅜ -14905
▁ㄷㅏㄷㅎㅕ -14906
▁ㄷㅔㄱㅅㅡ -14907
▁ㄹㅗㄱㄱㅘ -14908
▁ㅁㅗㅁㅅㅗ -14909
▁ㅂㅗㄴㄸㅓ -14910
▁ㅋㅏㅁㅊㅏ -14911
▁ㅎㅜㄹㄹㅏ -14912
▁ㅎㅡㄱㅎㅐ -14913
ㅇㅛㅇㅇㅐㄱ -14914
▁ㄱㅏㅇㅅㅏㄴ -14915
▁ㄱㅕㄹㅂㅏㅇ -14916
▁ㄴㅏㅂㄷㅡㄱ -14917
▁ㅁㅗㄱㄱㅗㅇ -14918
▁ㅂㅓㄹㅈㅣㅂ -14919
▁ㅅㅓㅇㄱㅡㅁ -14920
▁ㅅㅣㄴㅎㅗㄴ -14921
▁ㅇㅑㅇㄹㅣㅂ -14922
▁ㅇㅕㅇㅂㅕㄴ -14923
▁ㅊㅓㄴㅇㅣㄹ -14924
▁ㅎㅏㅁㅍㅕㅇㄱㅜㄴ -14925
▁GA -14926
ㄴㅡㄱ -14927
izza -14928
▁NCAA -14929
ㄱㅡㄹㄹㅗ -14930
ㅂㅏㅇㄷㅐ -14931
▁ㄱㅏㅁㅂㅏ -14932
▁ㅁㅏㄴㅎㅏ -14933
▁ㅇㅝㄴㅎㅚ -14934
▁ㅊㅓㄹㅈㅗ -14935
▁ㅎㅏㄴㄱㅣ -14936
ㅂㅏㅇㅅㅓㄴ -14937
ㅎㅗㅇㅈㅏㅇ -14938
▁ㅅㅣㅂㅇㅠㄱ -14939
▁ㅇㅕㄴㅇㅝㄴ -14940
▁ㅈㅓㅇㅇㅠㄴ -14941
▁National -14942
▁ㅇㅕㄱㅈㅓㄴㅅㅡㅇ -14943
▁ㅇㅕㄴㄱㅡㅁㅅㅜㄹ -14944
oul -14945
▁Oh -14946
ㅂㅏㄼ -14947
▁276 -14948
▁670 -14949
▁1413 -14950
▁1624 -14951
ㄱㅡㅁㅈㅏ -14952
ㄷㅗㅇㅎㅐ -14953
ㅍㅓㄹㅅㅡ -14954
▁ㅁㅏㄹㅊㅗ -14955
▁ㅅㅓㅇㅁㅜ -14956
▁ㅇㅏㄹㅌㅡ -14957
ㅈㅣㅂㄷㅏㄴ -14958
ㅍㅜㅁㅈㅣㄹ -14959
▁ㄱㅓㅁㅁㅜㄴ -14960
▁ㄴㅏㅁㅈㅜㅇ -14961
▁ㅇㅚㄴㅂㅏㄹ -14962
▁ㅈㅡㅇㄷㅡㄱ -14963
▁ㅎㅐㅇㅈㅏㅇ -14964
▁ㅎㅜㄹㄹㅣㄴ -14965
▁ㅅㅏㅁㅂㅕㄹㅊㅗ -14966
▁ㅎㅜㄴㄹㅕㄴㄱㅣ -14967
▁== -14968
▁FP -14969
▁RB -14970
▁ㅂㅛ -14971
arth -14972
▁295 -14973
▁910 -14974
▁cle -14975
▁1750 -14976
▁Come -14977
ㄴㅣㅇㅅㅡ -14978
ㅇㅣㄹㄹㅔ -14979
▁David -14980
▁ㄱㅏㄱㄹㅠ -14981
▁ㅅㅓㅇㅌㅓ -14982
▁ㅇㅣㅁㅆㅣ -14983
▁ㅈㅓㅇㅇㅟ -14984
▁ㅎㅏㄴㅇㅢ -14985
▁ㅎㅐㅇㅇㅢ -14986
▁ㅂㅜㄴㄷㅗㅇ -14987
▁ㅇㅏㅇㅎㅔㄹ -14988
▁ㅇㅑㅇㅂㅗㄱ -14989
▁ㅇㅕㅁㅂㅜㄴ -14990
▁ㅇㅘㄴㅂㅗㅇ -14991
▁ㅎㅏㄴㄱㅜㄱㅅㅏ -14992
▁ㅁㅗㄱㅇㅛㄱㅌㅏㅇ -14993
LD -14994
110 -14995
ube -14996
▁Kh -14997
ㅍㅏㅁ -14998
iful -14999
▁PSV -15000
▁ㄸㅓㄴ -15001
ㄱㅗㅂㅁㅣ -15002
ㄱㅜㄱㅈㅏ -15003
ㄷㅗㅇㅎㅘ -15004
ㅅㅡㄴㅅㅡ -15005
ㅋㅏㄹㄹㅗ -15006
ㅍㅔㄱㅌㅓ -15007
▁There -15008
▁ㅃㅗㅂㅎㅕ -15009
▁ㅅㅏㄴㅁㅗ -15010
▁ㅌㅗㅁㅍㅡ -15011
ㅅㅏㅁㄱㅜㄱ -15012
ㅇㅠㄱㅂㅓㅂ -15013
ㅇㅠㅅㄱㅏㅄ -15014
ㅈㅗㅇㅅㅓㄱ -15015
ㅎㅐㅇㅈㅓㅇ -15016
▁ㄱㅘㅇㅊㅓㄴ -15017
▁ㄱㅝㄴㅅㅣㄴ -15018
▁ㄷㅏㄴㅁㅏㅅ -15019
▁ㅁㅜㄹㅁㅏㅇ -15020
▁ㅂㅓㅂㅁㅕㅇ -15021
▁ㅊㅏㅇㄱㅡㄱ -15022
▁ㅊㅜㄹㅇㅝㄴ -15023
▁ㅍㅗㄱㄹㅏㄱ -15024
▁ㅂㅏㄹㅇㅝㄴㅈㅣ -15025
▁ㅂㅣㄴㅂㅓㄴㅎㅣ -15026
▁ㅅㅣㄱㅁㅣㄴㅈㅜ -15027
ㅁㅏㅇㅇㅝㄴㄱㅕㅇ -15028
ㅂㅏㅇㅈㅓㄴㅅㅓㄴ -15029
▁ㅈㅜㅇㄹㅣㅂㄱㅜㄱ -15030
KO -15031
LO -15032
con -15033
fer -15034
ters -15035
▁248 -15036
▁0000 -15037
▁1758 -15038
▁News -15039
▁Park -15040
ㅎㅏㄴㄴㅔ -15041
▁ㄱㅗㅇㅎㅓ -15042
▁ㄱㅘㄴㅂㅗ -15043
▁ㄱㅜㅂㅎㅣ -15044
▁ㄱㅣㅁㅁㅜ -15045
▁ㅁㅏㄴㅌㅗ -15046
▁ㅁㅏㅇㄱㅗ -15047
▁ㅁㅕㄴㅅㅏ -15048
▁ㅅㅐㄱㄷㅏ -15049
▁ㅇㅓㄺㅎㅕ -15050
▁ㅈㅓㄴㅍㅐ -15051
▁ㅎㅣㄹㄷㅔ -15052
ㅇㅏㄴㄱㅕㅇ -15053
ㅇㅣㅂㄱㅜㄱ -15054
ㅈㅏㅇㄱㅜㄱ -15055
ㅎㅏㄴㅁㅏㄹ -15056
▁ㄱㅜㄴㅊㅜㄱ -15057
▁ㅁㅏㅈㅅㅓㄴ -15058
▁ㅁㅜㄴㅇㅣㄱ -15059
▁ㅂㅐㄱㅅㅏㅇ -15060
▁ㅅㅏㄴㄱㅗㄹ -15061
▁ㅇㅑㅇㄱㅗㄴ -15062
▁ㅎㅗㄹㄹㅡㅁ -15063
▁ㅅㅣㄹㅇㅓㅂㅈㅏ -15064
▁ㅅㅣㄹㅈㅡㅇㅈㅜ -15065
▁ㅇㅡㅇㅇㅝㄴㄱㅏ -15066
▁ㅊㅗㅇㅁㅕㄴㅈㅓㄱ -15067
▁ㅅㅣㄴㅊㅜㄴㅁㅜㄴㅇㅖ -15068
ENT -15069
obal -15070
▁279 -15071
▁299 -15072
▁324 -15073
▁KNN -15074
▁MiG -15075
▁Que -15076
▁maj -15077
▁und -15078
▁ㄹㅠㅇ -15079
ember -15080
▁PROD -15081
▁cent -15082
ㅁㅏㄱㅇㅣ -15083
ㅅㅣㅂㄹㅣ -15084
ㅎㅏㄴㄷㅡ -15085
▁ㄱㅏㅇㄱㅖ -15086
▁ㅅㅣㄹㄹㅜ -15087
▁ㅊㅏㅁㅎㅚ -15088
▁ㅎㅏㄹㄹㅏ -15089
ㄱㅗㅇㅇㅕㄴ -15090
ㄴㅐㄴㅅㅕㄹ -15091
ㅅㅣㄴㄷㅗㅇ -15092
ㅇㅓㅂㅈㅏㅇ -15093
ㅇㅣㄹㄱㅏㅇ -15094
▁ㄸㅡㅅㅂㅏㄲ -15095
▁ㅁㅏㄱㅅㅣㅁ -15096
▁ㅁㅕㄴㅊㅐㄱ -15097
▁ㅂㅏㄴㅇㅝㄴ -15098
▁ㅂㅏㄴㅊㅜㄹ -15099
▁ㅂㅕㄴㅈㅓㄹ -15100
▁ㅂㅕㅇㅅㅏㅇ -15101
▁ㅈㅏㄱㅂㅕㄹ -15102
▁ㅊㅓㅇㅎㅗㄴ -15103
▁ㅌㅏㄹㅂㅜㄱ -15104
▁ㄱㅕㅇㅈㅓㄴㅊㅏ -15105
▁ㅅㅏㅇㅊㅡㅇㅂㅜ -15106
▁ㅇㅝㄹㄱㅏㄴㅈㅣ -15107
▁ㅎㅐㅆㅇㅓㅆㅇㅡ -15108
▁NR -15109
ㅍㅜㅅ -15110
▁254 -15111
▁269 -15112
▁308 -15113
▁581 -15114
▁JYP -15115
earch -15116
▁text -15117
ㄱㅡㄹㄹㅔ -15118
ㄱㅡㅁㄱㅏ -15119
ㅅㅗㄱㅎㅘ -15120
▁ㄱㅏㅇㅈㅜ -15121
▁ㄴㅏㄱㅎㅜ -15122
▁ㅍㅗㄹㅅㅡ -15123
▁ㅎㅕㄴㅅㅔ -15124
ㅋㅣㅇㅇㅓㅁ -15125
ㅎㅏㄱㄷㅗㅇ -15126
▁ㄱㅕㅁㅎㅏㄴ -15127
▁ㄲㅜㄹㅂㅓㄹ -15128
▁ㅂㅐㄱㅅㅓㄴ -15129
▁ㅅㅣㅁㅊㅓㅇ -15130
▁ㅇㅘㄴㅅㅡㅇ -15131
▁ㅍㅓㄴㄷㅣㅇ -15132
▁ㅍㅜㅇㄴㅕㄴ -15133
▁ㅎㅏㄱㅅㅏㄴ -15134
▁ㅋㅓㅁㅍㅐㄱㅌㅡ -15135
▁ㅎㅕㅂㄹㅕㄱㅈㅏ -15136
▁ㅎㅐㅇㄹㅕㄹㅅㅣㄱ -15137
▁;- -15138
▁GC -15139
ache -15140
▁ㄸㅡㅁ -15141
▁ㄹㅜㅂ -15142
press -15143
▁Take -15144
ㄷㅣㄱㅌㅡ -15145
ㅂㅏㄹㄹㅜ -15146
ㅂㅓㄱㅈㅣ -15147
ㅅㅏㄴㅎㅐ -15148
▁IDOLM -15149
▁ㅃㅏㄹㅊㅣ -15150
ㅇㅛㅇㅁㅜㄹ -15151
▁ㅁㅜㄴㅅㅓㄴ -15152
▁ㅈㅓㄴㅇㅕㄴ -15153
▁ㅍㅜㅇㅁㅜㄹ -15154
▁ㅅㅓㄴㅈㅓㄴㄱㅘㄴ -15155
SS -15156
VB -15157
INE -15158
ift -15159
▁Hy -15160
ruct -15161
▁241 -15162
▁TBN -15163
▁Mach -15164
▁over -15165
ㅂㅔㄱㅅㅡ -15166
▁ㅂㅓㅁㅍㅓ -15167
▁ㅅㅕㄹㄹㅣ -15168
ㄹㅡㄴㅍㅏㄹ -15169
▁ㅅㅑㄹㄹㅗㅅ -15170
▁ㅈㅏㅇㅁㅜㄴ -15171
▁ㅈㅜㄹㅇㅣㄴ -15172
ㅍㅕㅇㅈㅏㅇㅅㅏ -15173
▁ㅅㅓㅇㅅㅏㅁㅁㅜㄴ -15174
▁ㅊㅗㅇㅇㅕㄴㅈㅏㅇ -15175
▁ㅇㅣㅂㅎㅓㄴㄱㅜㄴㅈㅜ -15176
▁JA -15177
ㄸㅡㄱ -15178
▁293 -15179
▁318 -15180
▁1506 -15181
ㄷㅣㅇㄱㅓ -15182
▁Trans -15183
▁ㄴㅗㄱㅇㅏ -15184
▁ㅅㅏㄱㄱㅘ -15185
▁ㅅㅣㄴㅅㅡ -15186
▁ㅇㅕㄱㄴㅐ -15187
▁ㅇㅕㄴㅈㅣ -15188
▁ㅇㅝㄴㅈㅚ -15189
ㅇㅓㄴㅈㅏㅇ -15190
ㅎㅐㅇㄱㅐㄱ -15191
▁ㄷㅗㅇㄷㅏㄴ -15192
▁ㅁㅗㄹㄹㅣㄴ -15193
▁ㅂㅏㅇㅁㅏㅇ -15194
▁ㅂㅗㅇㅅㅓㄴ -15195
▁ㅇㅏㄹㅅㅓㄴ -15196
▁ㅇㅜㅇㅂㅕㄴ -15197
ㄹㅏㄴㅅㅣㄹㅂㅏ -15198
ㅁㅓㄴㅇㅞㄹㅅㅡ -15199
▁ㅅㅐㅇㅎㅘㄹㅂㅣ -15200
▁ㅅㅏㄹㅇㅣㄴㅂㅓㅁ -15201
UB -15202
▁JK -15203
ㅎㅔㅁ -15204
▁Del -15205
▁ITV -15206
▁1603 -15207
▁1786 -15208
▁Songs -15209
▁ㄴㅏㅁㅇㅜ -15210
▁ㄷㅗㅇㅊㅗ -15211
▁ㅁㅡㄹㄹㅏ -15212
▁ㅅㅏㄹㄹㅗ -15213
▁ㅅㅣㄴㅌㅐ -15214
▁ㅈㅏㅇㅇㅓ -15215
▁ㅉㅣㄱㅎㅕ -15216
▁ㅌㅏㄱㅈㅏ -15217
▁ㅍㅐㄴㄷㅓ -15218
ㅅㅡㅇㅇㅕㅂ -15219
ㅎㅕㄴㅅㅏㅇ -15220
▁ㄱㅕㅇㄹㅕㄴ -15221
▁ㄱㅝㄴㅅㅗㄱ -15222
▁ㄷㅟㅅㅅㅏㄴ -15223
▁ㅅㅏㅇㅇㅘㅇ -15224
▁ㅅㅜㄴㄱㅕㅇ -15225
▁ㅇㅝㄴㄷㅏㅁ -15226
▁ㅇㅠㄱㅅㅣㄴ -15227
▁ㅈㅣㄹㅅㅣㄱ -15228
▁ㅎㅕㄹㅈㅡㅇ -15229
▁ㅅㅣㄴㅈㅓㅇㅂㅜ -15230
▁ㅌㅏㄹㅂㅜㄱㅈㅏ -15231
▁ㄷㅗㅇㄱㅡㅂㅅㅐㅇ -15232
▁ㅇㅕㅇㅅㅏㅇㅁㅜㄹ -15233
ERT -15234
▁LE -15235
▁TW -15236
▁BGM -15237
▁Lin -15238
▁ㄷㅐㅇ -15239
▁ㅁㅔㅁ -15240
▁ㅆㅏㅁ -15241
▁1614 -15242
ㄱㅕㅆㅇㅡ -15243
ㄷㅏㅇㅅㅓ -15244
ㅇㅕㅇㅎㅢ -15245
ㅍㅐㄴㅈㅣ -15246
▁ㄴㅗㄱㅊㅏ -15247
▁ㅅㅣㄹㄹㅓ -15248
▁ㅅㅣㄹㅅㅔ -15249
▁ㅇㅠㄱㄹㅗ -15250
▁ㅋㅓㄹㅌㅡ -15251
▁ㅎㅕㅂㅅㅣ -15252
▁ㄱㅕㄹㅈㅓㄹ -15253
▁ㄱㅜㄱㅇㅡㄹ -15254
▁ㅂㅐㄱㄱㅜㄴ -15255
▁ㅅㅐㅇㄷㅗㅇ -15256
▁ㅅㅓㄱㅇㅕㅇ -15257
▁ㅈㅓㄴㄹㅣㅂ -15258
▁ㅌㅗㅇㅍㅜㅇ -15259
▁ㅎㅏㄴㅅㅣㄱ -15260
▁ㅅㅣㄴㅊㅓㄴㅈㅣ -15261
▁ㅋㅏㄹㅂㅐㅇㅈㅜ -15262
▁ㅎㅓㄴㅂㅕㅇㄷㅐ -15263
ㅂㅜㄴㅈㅣㅂㅎㅏㅂ -15264
▁ㄱㅣㅁㅅㅓㅇㄱㅡㄴ -15265
▁ㄱㅣㅁㅈㅏㅇㅅㅐㅇ -15266
▁ㅅㅏㅂㅇㅣㅂㄱㅗㄱ -15267
31 -15268
ㅍㅐㅁ -15269
ider -15270
▁490 -15271
▁CSS -15272
▁Ext -15273
▁JAP -15274
▁TNT -15275
▁1718 -15276
▁Club -15277
▁Work -15278
ㅈㅏㅇㄱㅛ -15279
▁ㄱㅝㄴㅈㅔ -15280
▁ㅁㅏㄴㅎㅚ -15281
▁ㅇㅏㅍㄷㅏ -15282
▁ㅇㅘㅇㄷㅐ -15283
▁ㅇㅜㄴㅌㅡ -15284
▁ㅊㅣㄴㅂㅜ -15285
▁ㅇㅏㅁㅁㅜㄱ -15286
▁ㅊㅜㅇㅁㅏㄴ -15287
▁ㅌㅏㄹㄹㅣㄴ -15288
▁ㅌㅡㄱㅈㅣㄹ -15289
ㅂㅓㄹㄹㅐㄴㄷㅡ -15290
▁ㅅㅣㄱㅂㅕㄹㅈㅏ -15291
▁ㅊㅣㅁㅍㅐㄴㅈㅣ -15292
pl -15293
121 -15294
▁LM -15295
ㅈㅣㅍ -15296
▁272 -15297
▁HBO -15298
▁USD -15299
▁1050 -15300
▁1618 -15301
▁1785 -15302
▁Boys -15303
▁cont -15304
ㅅㅣㄱㅈㅜ -15305
ㅎㅏㄴㅊㅔ -15306
▁ㄱㅏㅁㄷㅗ -15307
▁ㄹㅐㄹㅍㅡ -15308
▁ㄹㅣㄴㅈㅣ -15309
▁ㅂㅐㄱㅎㅗ -15310
▁ㅂㅜㄹㄱㅡ -15311
▁ㅇㅓㄹㅌㅣ -15312
▁ㅇㅜㄴㅈㅜ -15313
▁ㅈㅏㅇㄴㅐ -15314
▁ㅍㅕㄴㅇㅣ -15315
▁ㅎㅘㅇㅇㅜ -15316
ㅅㅜㄱㅇㅘㅇ -15317
ㅇㅕㄴㅂㅓㅂ -15318
▁PRODUC -15319
▁ㄱㅘㄴㅈㅏㄱ -15320
▁ㅁㅏㅈㅇㅡㄴ -15321
▁ㅁㅜㄴㄷㅗㅇ -15322
▁ㅅㅜㄱㅈㅓㄱ -15323
▁ㅇㅕㅇㄹㅡㅇ -15324
▁ㅈㅣㄴㅊㅓㄱ -15325
▁ㅈㅓㄱㄷㅏㅇㅎㅣ -15326
▁ㅌㅗㅇㅎㅏㄴㄷㅏ -15327
▁ㅊㅜㅇㅅㅜㄱㅇㅘㅇ -15328
▁ㅌㅗㅇㅊㅏㄹㄹㅕㄱ -15329
▁ㅌㅗㅇㄱㅡㄴㅇㅕㄹㅊㅏ -15330
▁TT -15331
ㄲㅜㅂ -15332
▁335 -15333
▁405 -15334
▁421 -15335
▁VfL -15336
▁rem -15337
ㅐㅇㅇㅣ -15338
bject -15339
cript -15340
▁1650 -15341
ㄴㅡㄴㄷㅔ -15342
ㅇㅗㄹㄹㅕ -15343
ㅇㅛㅇㅎㅐ -15344
▁ㄴㅡㅈㅊㅜ -15345
▁ㅁㅕㄹㅅㅣ -15346
▁ㅅㅣㄴㅇㅏ -15347
▁ㅇㅣㄹㄹㅗ -15348
▁ㅈㅓㅇㄱㅏ -15349
▁ㅈㅓㅇㅆㅣ -15350
▁ㅋㅔㄴㅈㅣ -15351
ㅁㅏㅇㅊㅣㄴ -15352
▁ㄱㅗㅇㄴㅏㅂ -15353
▁ㄱㅗㅇㅇㅓㄴ -15354
▁ㅁㅏㄴㅇㅡㄹ -15355
▁ㅂㅕㅇㅇㅛㅇ -15356
▁ㅂㅜㄹㄱㅗㅇ -15357
▁ㅅㅓㄴㅁㅏㅇ -15358
▁ㅅㅓㅇㄱㅘㄴ -15359
▁ㅇㅣㅁㅊㅓㄴ -15360
▁ㄱㅗㅇㄷㅗㅇㅁㅛ -15361
▁ㅈㅏㅇㅎㅏㄱㅅㅐㅇ -15362
▁ㅊㅓㄹㄱㅘㅇㅅㅓㄱ -15363
HA -15364
uss -15365
▁UM -15366
ious -15367
▁351 -15368
▁525 -15369
▁Mot -15370
▁Band -15371
ㄹㅏㅇㅅㅣ -15372
ㅇㅑㅇㄹㅣ -15373
ㅇㅡㅁㄱㅣ -15374
ㅊㅗㅇㅅㅏ -15375
▁ㄱㅡㅁㅅㅔ -15376
▁ㄴㅗㄱㅇㅕ -15377
▁ㄴㅗㄴㅇㅓ -15378
▁ㄷㅏㅂㅅㅏ -15379
▁ㄷㅔㄹㄹㅗ -15380
▁ㅁㅜㅁㅂㅏ -15381
▁ㅅㅓㄹㅍㅏ -15382
▁ㅅㅠㄹㅊㅡ -15383
▁ㅅㅣㄴㅅㅓ -15384
▁ㅇㅏㄱㅅㅜ -15385
▁ㅇㅕㄴㄱㅏ -15386
▁ㅊㅓㅁㅅㅏ -15387
▁ㅎㅕㅂㅅㅗ -15388
▁ㅎㅗㄴㄹㅖ -15389
ㅎㅕㄴㅅㅣㄱ -15390
▁ㅂㅓㄹㅇㅣㄹ -15391
▁ㅅㅏㄴㅊㅓㄴ -15392
▁ㅅㅔㄹㅌㅣㄱ -15393
▁ㅅㅜㄴㄱㅕㄹ -15394
▁ㅅㅣㄴㅇㅣㄹ -15395
▁ㅇㅣㄱㄹㅛㅇ -15396
▁ㅈㅏㄱㅍㅜㅇ -15397
▁ㅊㅡㄱㅅㅓㄴ -15398
▁ㅍㅐㄴㅌㅐㄱ -15399
▁ㄷㅗㄱㄹㅣㅂㅅㅣㄴㅁㅜㄴ -15400
35 -15401
ㅁㅔㅇ -15402
ㅌㅐㅁ -15403
▁730 -15404
▁ㄱㅚㅇ -15405
ㄱㅜㄴㅅㅏ -15406
▁ㄱㅕㅇㅁㅣ -15407
▁ㄱㅜㄹㅈㅣ -15408
▁ㅂㅏㄱㄱㅠ -15409
▁ㅇㅣㄱㅎㅕ -15410
▁ㅋㅜㄹㄹㅏ -15411
▁ㅎㅡㄴㅊㅣ -15412
▁ㅎㅣㄴㄷㅣ -15413
ㅅㅡㄹㄹㅣㄴ -15414
ㅅㅣㄹㄹㅣㄴ -15415
ㅇㅣㅁㄷㅏㅇ -15416
▁ㄱㅣㅁㅈㅜㅇ -15417
▁ㄴㅏㅁㅈㅓㅇ -15418
▁ㅂㅏㅇㅍㅕㄴ -15419
▁ㅂㅗㄲㅇㅡㅁ -15420
▁ㅅㅏㄴㅈㅓㄴ -15421
▁ㅅㅏㅇㅎㅕㅇ -15422
▁ㅅㅣㄹㅎㅕㅇ -15423
▁ㅈㅣㄴㄱㅕㅇ -15424
▁Microsoft -15425
▁ㄱㅓㄴㅊㅜㄱㅎㅏㄱ -15426
▁ㄴㅗㄱㄴㅡㄴㅈㅓㅁ -15427
▁ㅍㅕㄴㅈㅣㅂㅇㅣㄴ -15428
ets -15429
mus -15430
ving -15431
▁GPL -15432
▁Mad -15433
▁WOR -15434
▁jpg -15435
▁ㅃㅗㅁ -15436
▁ㅅㅗㅂ -15437
ㄷㅏㅁㅅㅡ -15438
ㅂㅣㄴㅊㅣ -15439
ㅇㅕㅇㄱㅜ -15440
▁ㄹㅏㅂㅂㅣ -15441
▁ㅂㅗㅇㅈㅣ -15442
▁ㅇㅣㄹㄹㅜ -15443
▁ㅇㅣㅁㅈㅏ -15444
▁ㅌㅔㄹㅇㅏ -15445
▁ㅎㅗㄹㅌㅡ -15446
ㅇㅕㄹㅇㅘㅇ -15447
▁ㅇㅕㅇㅌㅗㅇ -15448
▁ㅈㅓㅂㅈㅓㅁ -15449
▁ㅎㅘㅇㅈㅣㄴ -15450
▁ㅅㅣㄴㅅㅗㄱㅎㅣ -15451
▁ㅈㅣㅂㅎㅐㅇㅂㅜ -15452
▁ㅊㅜㄹㅅㅣㄴㅈㅏ -15453
▁ㅅㅜㄴㅊㅏㅇㄱㅜㄴ -15454
ga -15455
▁BA -15456
▁870 -15457
▁Fly -15458
▁ㄹㅖㄴ -15459
▁Want -15460
ㅂㅓㄴㅌㅡ -15461
ㅂㅓㅂㅅㅗ -15462
ㅎㅏㄴㅎㅚ -15463
▁major -15464
▁ㄱㅕㄴㄷㅕ -15465
▁ㄷㅏㄱㅊㅣ -15466
▁ㅈㅏㅇㅈㅐ -15467
▁ㅊㅓㅇㅇㅓ -15468
▁ㅍㅏㄹㅁㅏ -15469
▁ㅍㅐㄱㅅㅡ -15470
▁ㅎㅐㅁㅅㅡ -15471
ㄷㅗㄷㅇㅜㅁ -15472
ㅇㅓㅂㄷㅏㄴ -15473
ㅈㅜㅇㄹㅕㄱ -15474
▁ㄱㅘㄴㄷㅡㅇ -15475
▁ㄱㅡㅁㅇㅡㄴ -15476
▁ㄴㅏㅁㅇㅏㄴ -15477
▁ㅁㅜㄴㅇㅘㅇ -15478
▁ㅈㅜㅇㅈㅡㅇ -15479
ㅇㅣㄴㄹㅏㄴㅌㅡ -15480
▁ㅂㅏㄷㅊㅣㅁㄷㅐ -15481
▁ㅁㅏㅈㅇㅡㄴㅍㅕㄴ -15482
▁ㅇㅚㄴㅅㅗㄴㅈㅏㅂㅇㅣ -15483
48 -15484
put -15485
ray -15486
sch -15487
▁Mind -15488
ㄱㅕㄱㄱㅣ -15489
ㄹㅏㅇㅊㅐ -15490
ㅂㅡㄹㅇㅠ -15491
ㅅㅔㄴㅌㅔ -15492
ㅈㅏㅇㅊㅣ -15493
▁ㄹㅗㄹㄹㅏ -15494
▁ㅁㅗㄱㅅㅜ -15495
▁ㅅㅓㄱㅂㅣ -15496
▁ㅅㅗㄱㅇㅕ -15497
▁ㅈㅏㅇㄱㅏ -15498
▁ㅈㅓㅇㅇㅣ -15499
▁ㅊㅏㅇㄱㅏ -15500
▁ㅍㅔㅂㅅㅣ -15501
ㅈㅓㅇㅁㅣㄴ -15502
▁ㄱㅏㄱㄱㅡㅂ -15503
▁ㄱㅜㄱㅇㅝㄴ -15504
▁ㄴㅏㅁㅊㅣㅁ -15505
▁ㅂㅏㅁㄴㅏㅈ -15506
▁ㅅㅏㅇㄴㅑㅇ -15507
▁ㅅㅏㅇㅂㅗㄱ -15508
▁ㅌㅗㅇㄱㅗㄱ -15509
▁ㅎㅘㅇㄱㅜㄱ -15510
▁ㄷㅓㄱㅎㅡㅇㄷㅐ -15511
▁ㄷㅗㄹㅍㅣㄴㅅㅡ -15512
▁ㅈㅏㄱㅇㅛㅇㄱㅣ -15513
▁ㅎㅡㅂㅎㅕㄹㄱㅟ -15514
ti -15515
▁BN -15516
▁258 -15517
▁Cat -15518
▁Dec -15519
▁Kid -15520
▁Say -15521
[...]
