[UNK]	0
[CLS]	1
[SEP]	2
[PAD]	3
[MASK]	4
!	5
"	6
#	7
$	8
%	9
&	10
'	11
(	12
)	13
*	14
+	15
,	16
-	17
.	18
/	19
0	20
1	21
2	22
3	23
4	24
5	25
6	26
7	27
8	28
9	29
:	30
;	31
<	32
=	33
>	34
?	35
@	36
A	37
B	38
C	39
D	40
E	41
F	42
G	43
H	44
I	45
J	46
K	47
L	48
M	49
N	50
O	51
P	52
Q	53
R	54
S	55
T	56
U	57
V	58
W	59
X	60
Y	61
Z	62
[	63
\	64
]	65
^	66
_	67
`	68
a	69
b	70
c	71
d	72
e	73
f	74
g	75
h	76
i	77
j	78
k	79
l	80
m	81
n	82
o	83
p	84
q	85
r	86
s	87
t	88
u	89
v	90
w	91
x	92
y	93
z	94
{	95
|	96
}	97
~	98
	99
ᄀ	100
ᄁ	101
ᄂ	102
ᄃ	103
ᄄ	104
ᄅ	105
ᄆ	106
ᄇ	107
ᄈ	108
ᄉ	109
ᄊ	110
ᄋ	111
ᄌ	112
ᄍ	113
ᄎ	114
ᄏ	115
ᄐ	116
ᄑ	117
ᄒ	118
ᅡ	119
ᅢ	120
ᅣ	121
ᅤ	122
ᅥ	123
ᅦ	124
ᅧ	125
ᅨ	126
ᅩ	127
ᅪ	128
ᅫ	129
ᅬ	130
ᅭ	131
ᅮ	132
ᅯ	133
ᅰ	134
ᅱ	135
ᅲ	136
ᅳ	137
ᅴ	138
ᅵ	139
ᆨ	140
ᆩ	141
ᆪ	142
ᆫ	143
ᆬ	144
ᆭ	145
ᆮ	146
ᆯ	147
ᆰ	148
ᆱ	149
ᆲ	150
ᆳ	151
ᆴ	152
ᆵ	153
ᆶ	154
ᆷ	155
ᆸ	156
ᆹ	157
ᆺ	158
ᆻ	159
ᆼ	160
ᆽ	161
ᆾ	162
ᆿ	163
ᇀ	164
ᇁ	165
ᇂ	166
⫸	167
⭧	168
ㄱ	169
ㄲ	170
ㄳ	171
ㄴ	172
ㄵ	173
ㄶ	174
ㄷ	175
ㄸ	176
ㄹ	177
ㄺ	178
ㄻ	179
ㄼ	180
ㄽ	181
ㄾ	182
ㄿ	183
ㅀ	184
ㅁ	185
ㅂ	186
ㅃ	187
ㅄ	188
ㅅ	189
ㅆ	190
ㅇ	191
ㅈ	192
ㅉ	193
ㅊ	194
ㅋ	195
ㅌ	196
ㅍ	197
ㅎ	198
ㅏ	199
ㅐ	200
ㅑ	201
ㅒ	202
ㅓ	203
ㅔ	204
ㅕ	205
ㅖ	206
ㅗ	207
ㅘ	208
ㅙ	209
ㅚ	210
ㅛ	211
ㅜ	212
ㅝ	213
ㅞ	214
ㅟ	215
ㅠ	216
ㅡ	217
ㅢ	218
ㅣ	219
가	220
간	221
감	222
갑	223
갓	224
갔	225
강	226
같	227
개	228
거	229
건	230
걸	231
것	232
겄	233
게	234
겐	235
겟	236
겠	237
겨	238
곈	239
고	240
곡	241
곤	242
곰	243
곳	244
공	245
과	246
관	247
괴	248
교	249
구	250
군	251
굽	252
규	253
그	254
근	255
금	256
긋	257
긔	258
기	259
긴	260
길	261
까	262
깐	263
깝	264
깨	265
꺼	266
껀	267
껄	268
께	269
껭	270
껴	271
꼐	272
꼬	273
꾸	274
꿔	275
끄	276
끔	277
끼	278
나	279
난	280
남	281
내	282
냐	283
냔	284
냥	285
냬	286
냰	287
너	288
넌	289
네	290
넨	291
녀	292
녕	293
녜	294
노	295
논	296
놋	297
농	298
뇌	299
뇨	300
누	301
눈	302
느	303
는	304
늘	305
늠	306
능	307
늬	308
늰	309
니	310
닌	311
닛	312
닝	313
다	314
단	315
달	316
담	317
답	318
닷	319
당	320
대	321
댄	322
댑	323
댔	324
댜	325
더	326
던	327
덜	328
덧	329
덩	330
데	331
덴	332
뎁	333
뎌	334
도	335
돗	336
동	337
돠	338
되	339
두	340
둔	341
둥	342
뒈	343
드	344
득	345
든	346
들	347
듯	348
등	349
듸	350
디	351
딘	352
딩	353
따	354
떼	355
라	356
락	357
란	358
랄	359
람	360
랍	361
랏	362
랑	363
래	364
랜	365
랠	366
랩	367
랬	368
랴	369
랸	370
러	371
런	372
럴	373
럼	374
레	375
려	376
련	377
렴	378
렵	379
렷	380
렸	381
례	382
로	383
록	384
롤	385
롯	386
롱	387
롸	388
뢰	389
료	390
루	391
룩	392
류	393
르	394
른	395
를	396
리	397
린	398
릴	399
릿	400
링	401
마	402
만	403
많	404
말	405
망	406
매	407
맨	408
맹	409
먀	410
머	411
먼	412
멍	413
메	414
멘	415
며	416
면	417
모	418
목	419
몬	420
무	421
문	422
뭇	423
므	424
믄	425
미	426
민	427
바	428
밖	429
배	430
백	431
밲	432
버	433
벼	434
보	435
부	436
분	437
비	438
빈	439
뿐	440
사	441
살	442
삼	443
삽	444
상	445
새	446
샤	447
샨	448
샬	449
샴	450
샷	451
서	452
선	453
성	454
세	455
셔	456
션	457
셧	458
셨	459
셰	460
소	461
손	462
솝	463
송	464
쇠	465
쇼	466
숌	467
수	468
쉐	469
쉬	470
슈	471
스	472
슨	473
슴	474
습	475
시	476
신	477
실	478
심	479
십	480
싸	481
써	482
쎄	483
쏘	484
쏜	485
쑤	486
씨	487
씩	488
아	489
악	490
안	491
압	492
앗	493
았	494
앙	495
애	496
앱	497
앳	498
앴	499
야	500
약	501
얀	502
얄	503
얌	504
얏	505
얐	506
양	507
얘	508
얫	509
어	510
억	511
언	512
얼	513
엄	514
없	515
엇	516
었	517
엉	518
엊	519
에	520
엣	521
여	522
연	523
염	524
엿	525
였	526
영	527
예	528
옛	529
오	530
옥	531
온	532
올	533
옵	534
옷	535
와	536
완	537
왇	538
외	539
요	540
욘	541
욜	542
욤	543
욧	544
용	545
우	546
운	547
울	548
움	549
워	550
원	551
웓	552
월	553
웨	554
웬	555
웰	556
위	557
유	558
윤	559
윰	560
으	561
은	562
을	563
음	564
읍	565
응	566
의	567
이	568
인	569
일	570
잇	571
있	572
잉	573
자	574
작	575
잔	576
잖	577
잘	578
잡	579
장	580
재	581
쟈	582
쟛	583
쟤	584
저	585
정	586
제	587
젠	588
져	589
조	590
좁	591
좋	592
죠	593
죵	594
주	595
쥬	596
즈	597
즉	598
지	599
직	600
진	601
징	602
쩌	603
찌	604
차	605
처	606
치	607
침	608
카	609
캉	610
캤	611
커	612
케	613
코	614
쿠	615
큼	616
키	617
타	618
터	619
텀	620
텅	621
테	622
텨	623
투	624
튼	625
티	626
파	627
프	628
피	629
하	630
한	631
허	632
헌	633
혀	634
히	635
##u	636
##l	637
##b	638
##a	639
##h	640
##e	641
##p	642
##s	643
##ᅡ	644
##ᆫ	645
##ᄉ	646
##ᅥ	647
##ᆼ	648
##ᄀ	649
##ᅮ	650
##ᆨ	651
##ᅦ	652
##ᄃ	653
##ᅳ	654
##ᆯ	655
##ᄅ	656
##ᅵ	657
##ᄆ	658
##ᅢ	659
##ᄏ	660
##ᄋ	661
##n	662
##k	663
##y	664
##3	665
##5	666
##6	667
##f	668
##r	669
##ᄂ	670
##ᄐ	671
##t	672
##o	673
##i	674
##d	675
##j	676
##w	677
##ᄎ	678
##ᅣ	679
##x	680
##ᄒ	681
##ᅴ	682
##ᅩ	683
##A	684
##S	685
##T	686
##E	687
##N	688
##I	689
##G	690
##g	691
##m	692
##U	693
##K	694
##O	695
##P	696
##9	697
##8	698
##0	699
##2	700
##ᅭ	701
##X	702
##C	703
##R	704
##ᅪ	705
##ᅧ	706
##ᆷ	707
##ᄑ	708
##ᄌ	709
##4	710
##c	711
##Z	712
##L	713
##H	714
##ᄇ	715
##ᅱ	716
##1	717
##ᅨ	718
##ᆾ	719
##M	720
##ᆶ	721
##B	722
##Y	723
##D	724
##ᅯ	725
##v	726
##ᆿ	727
##ᇀ	728
##Q	729
##ᅲ	730
##ᄄ	731
##7	732
##ㅚ	733
##ㅎ	734
##ᆸ	735
##ᆲ	736
##z	737
##ᅬ	738
##@	739
###	740
##$	741
##%	742
##ᆺ	743
##ᆱ	744
##ᄁ	745
##ᅰ	746
##q	747
##V	748
##F	749
##ㅇ	750
##W	751
##ᆮ	752
##ㅍ	753
##ㄹ	754
##!	755
##?	756
##ᄊ	757
##,	758
##.	759
##ᆩ	760
##ᅫ	761
##ᆽ	762
##ᆰ	763
##ㅘ	764
##ㅁ	765
##ㅙ	766
##ㅄ	767
##ᆹ	768
##ᇁ	769
##ㅜ	770
##ㄲ	771
##ㄿ	772
##ㅠ	773
##ㅈ	774
##'	775
##"	776
##ᇂ	777
##ᆻ	778
##으	779
##난	780
##ᄍ	781
##ㅗ	782
##ㄳ	783
##ㅅ	784
##ㅌ	785
##/	786
##ᄈ	787
##]	788
##}	789
##ㄻ	790
##J	791
##ᆵ	792
##ㄷ	793
##ᅤ	794
##ㄱ	795
##ㅆ	796
##ᆭ	797
##ㅏ	798
##>	799
##션	800
##디	801
##ㅣ	802
##ㄾ	803
##ᆴ	804
##ㄽ	805
##ㅢ	806
##ㅋ	807
##대	808
##루	809
##ᆳ	810
##ᆬ	811
##드	812
##키	813
##ㅒ	814
##ㄺ	815
##ㅞ	816
##다	817
##느	818
##니	819
##을	820
##런	821
##지	822
##ㄵ	823
##)	824
##+	825
##까	826
##요	827
##\	828
##ㅕ	829
##:	830
##ㄴ	831
##ㅓ	832
##ㅟ	833
##_	834
##문	835
##ㅛ	836
##ㅊ	837
##ㅝ	838
##는	839
##데	840
##유	841
##그	842
##래	843
##=	844
##젠	845
##도	846
##ㅔ	847
##ㅖ	848
##ㅡ	849
##-	850
##;	851
##려	852
##ㅑ	853
##ㅂ	854
##[	855
##더	856
##구	857
##만	858
##리	859
##라	860
##던	861
##~	862
##{	863
##ㄼ	864
##걸	865
##^	866
##침	867
##댜	868
##*	869
##거	870
##이	871
##야	872
##네	873
##둥	874
##ㄶ	875
##치	876
##면	877
##샷	878
##고	879
##나	880
##먼	881
##ᆪ	882
##러	883
##ㅀ	884
##ㅐ	885
##었	886
##기	887
##에	888
##단	889
##예	890
##<	891
##서	892
##교	893
##&	894
##어	895
##싸	896
##(	897
##쉐	898
##마	899
##사	900
##오	901
##냐	902
##깐	903
##당	904
##께	905
##ㅉ	906
##쩌	907
##소	908
##메	909
##였	910
##`	911
##수	912
##와	913
##주	914
##랬	915
##죠	916
##시	917
##쉬	918
##덜	919
##올	920
##ㅃ	921
##쟤	922
##아	923
##능	924
##든	925
##가	926
##은	927
##겨	928
##세	929
##농	930
##뇨	931
##습	932
##담	933
##|	934
##랍	935
##잖	936
##히	937
##게	938
##누	939
##답	940
##넌	941
##로	942
##자	943
##노	944
##끼	945
##댄	946
##동	947
##진	948
##며	949
##랑	950
##개	951
##벼	952
##엿	953
##온	954
##선	955
##ㄸ	956
##엣	957
##렷	958
##건	959
##감	960
##군	961
##얄	962
##스	963
##눈	964
##과	965
##저	966
##여	967
##매	968
##징	969
##따	970
##얌	971
##즉	972
##료	973
##연	974
##옵	975
##웨	976
##갑	977
##깨	978
##랴	979
##외	980
##길	981
##랄	982
##뎌	983
##직	984
##보	985
##란	986
##두	987
##록	988
##믄	989
##쇼	990
##꼬	991
##부	992
##터	993
##셔	994
##처	995
##럼	996
##람	997
##제	998
##락	999
##말	1000
##딩	1001
##먀	1002
##달	1003
##윤	1004
##쇠	1005
##들	1006
##듯	1007
##엉	1008
##삼	1009
##논	1010
##삽	1011
##슈	1012
##강	1013
##새	1014
##잉	1015
##레	1016
##덴	1017
##우	1018
##앴	1019
##린	1020
##읍	1021
##뎁	1022
##샬	1023
##잔	1024
##애	1025
##잇	1026
##등	1027
##욜	1028
##셰	1029
##응	1030
##꺼	1031
##티	1032
##슴	1033
##재	1034
##슨	1035
##빈	1036
##죵	1037
##십	1038
##넨	1039
##랠	1040
##른	1041
##바	1042
##손	1043
##심	1044
##음	1045
##뢰	1046
##셨	1047
##긴	1048
##얀	1049
##늘	1050
##영	1051
##근	1052
##껄	1053
##므	1054
##샤	1055
##덧	1056
##렵	1057
##한	1058
##카	1059
##혀	1060
##겐	1061
##용	1062
##움	1063
##실	1064
##억	1065
##곰	1066
##염	1067
##울	1068
##쟛	1069
##끄	1070
##렴	1071
##쥬	1072
##류	1073
##얘	1074
##댑	1075
##피	1076
##씨	1077
##녀	1078
##쿠	1079
##꾸	1080
##정	1081
##르	1082
##롱	1083
##뿐	1084
##규	1085
##써	1086
##욤	1087
##았	1088
##랏	1089
##련	1090
##의	1091
##껭	1092
##언	1093
##곈	1094
##작	1095
##냥	1096
##간	1097
##너	1098
##관	1099
##숌	1100
##인	1101
##텨	1102
##둔	1103
##랜	1104
##파	1105
##하	1106
##곤	1107
##냬	1108
##룩	1109
##엇	1110
##쑤	1111
##월	1112
##듸	1113
##댔	1114
##원	1115
##링	1116
##냔	1117
##늰	1118
##남	1119
##릴	1120
##밲	1121
##케	1122
##것	1123
##왇	1124
##망	1125
##윰	1126
##져	1127
##내	1128
##송	1129
##신	1130
##쏜	1131
##놋	1132
##튼	1133
##되	1134
##비	1135
##껴	1136
##큼	1137
##뭇	1138
##앱	1139
##상	1140
##돠	1141
##잡	1142
##웰	1143
##옷	1144
##찌	1145
##쟈	1146
##캉	1147
##테	1148
##무	1149
##롤	1150
##있	1151
##안	1152
##꼐	1153
##일	1154
##커	1155
##녕	1156
##롸	1157
##겟	1158
##밖	1159
##럴	1160
##프	1161
##겠	1162
##덩	1163
##머	1164
##악	1165
##례	1166
##겄	1167
##앙	1168
##냰	1169
##옥	1170
##앗	1171
##랸	1172
##닷	1173
##곳	1174
##떼	1175
##멍	1176
##미	1177
##압	1178
##웓	1179
##모	1180
##끔	1181
##잘	1182
##엊	1183
##웬	1184
##갔	1185
##운	1186
##뇌	1187
##좁	1188
##쎄	1189
##위	1190
##돗	1191
##갓	1192
##깝	1193
##옛	1194
##솝	1195
##맨	1196
##투	1197
##엄	1198
##분	1199
##많	1200
##씩	1201
##닛	1202
##닌	1203
##없	1204
##롯	1205
##굽	1206
##워	1207
##허	1208
##버	1209
##텀	1210
##욧	1211
##곡	1212
##뒈	1213
##양	1214
##민	1215
##장	1216
##득	1217
##얏	1218
##를	1219
##욘	1220
##성	1221
##늬	1222
##공	1223
##랩	1224
##닝	1225
##캤	1226
##	1227
##얫	1228
##샨	1229
##얼	1230
##완	1231
##헌	1232
##렸	1233
##앳	1234
##멘	1235
##즈	1236
##텅	1237
##껀	1238
##늠	1239
##딘	1240
##몬	1241
##배	1242
##녜	1243
##꿔	1244
##셧	1245
##코	1246
##목	1247
##릿	1248
##타	1249
##샴	1250
##쏘	1251
##백	1252
##얐	1253
##조	1254
##차	1255
##괴	1256
##긔	1257
##금	1258
##긋	1259
##살	1260
##같	1261
##좋	1262
##맹	1263
##약	1264
이	1265
하	1266
⭧ᆫ	1267
⫸에	1268
##ᅡᆼ	1269
##이	1270
⭧다	1271
##ᅡᆫ	1272
⫸의	1273
##ᅥᆫ	1274
⫸을	1275
##리	1276
⫸이	1277
⭧는	1278
##ᅩᆼ	1279
##ᅧᆫ	1280
##ᅧᆼ	1281
##ᅥᆼ	1282
##ᅳᆯ	1283
##ᅡᆯ	1284
##ᅮᆫ	1285
⫸를	1286
⫸는	1287
시	1288
##시	1289
##지	1290
⫸가	1291
##ᅡᆨ	1292
##스	1293
⭧고	1294
##ᅩᆨ	1295
⭧아	1296
아	1297
⭧어	1298
되	1299
그	1300
있	1301
지	1302
##ᅮᆯ	1303
가	1304
⭧었	1305
주	1306
##하	1307
##ᅧᆨ	1308
거	1309
⫸에서	1310
사	1311
⫸은	1312
##ᅥᆨ	1313
⫸로	1314
⫸으	1315
⫸으로	1316
⭧ᆫ다	1317
##기	1318
##ᅩᆫ	1319
⭧았	1320
⫸도	1321
##ᅳᆼ	1322
⭧ᆯ	1323
##어	1324
들	1325
어	1326
대	1327
수	1328
##르	1329
나	1330
기	1331
##ᅢᆼ	1332
⭧지	1333
마	1334
보	1335
##ᅮᆨ	1336
##드	1337
##가	1338
것	1339
##라	1340
##로	1341
자	1342
##ᅥᆯ	1343
##나	1344
일	1345
모	1346
##ᅯᆫ	1347
다	1348
##ᅦ이	1349
전	1350
⭧기	1351
##ᅥᆷ	1352
##트	1353
##우	1354
##사	1355
적	1356
⭧라	1357
오	1358
##장	1359
##치	1360
##도	1361
##ᅧᆯ	1362
바	1363
##자	1364
⫸과	1365
년	1366
##대	1367
⭧게	1368
⭧면	1369
스	1370
##요	1371
##니	1372
##ᅪᆫ	1373
미	1374
⭧은	1375
정	1376
⫸와	1377
##러	1378
##그	1379
##미	1380
조	1381
상	1382
유	1383
20	1384
부	1385
##수	1386
##인	1387
##정	1388
화	1389
##오	1390
##ᅣᆼ	1391
##아	1392
공	1393
비	1394
##주	1395
때	1396
##상	1397
##전	1398
##ᅢᆨ	1399
##히	1400
위	1401
중	1402
인	1403
경	1404
##화	1405
제	1406
⭧으	1407
##국	1408
고	1409
##용	1410
차	1411
도	1412
##력	1413
##제	1414
한	1415
##키	1416
##ᅯᆯ	1417
소	1418
무	1419
##구	1420
##성	1421
노	1422
##신	1423
없	1424
##고	1425
등	1426
##문	1427
성	1428
##부	1429
세	1430
##ᅳᆷ	1431
⭧지만	1432
여	1433
##래	1434
##ᅥᆸ	1435
않	1436
##원	1437
월	1438
##격	1439
만	1440
##동	1441
⫸에게	1442
##ᅳᆨ	1443
개	1444
##마	1445
##터	1446
⭧며	1447
타	1448
##타	1449
구	1450
⭧던	1451
내	1452
리	1453
201	1454
동	1455
피	1456
##간	1457
장	1458
방	1459
선	1460
연	1461
##비	1462
##거	1463
##다	1464
⫸ᆫ	1465
후	1466
##즈	1467
##유	1468
##ᅦᆯ	1469
영	1470
드	1471
##ᅦᆫ	1472
카	1473
⭧을	1474
말	1475
치	1476
우	1477
신	1478
발	1479
당	1480
##체	1481
요	1482
안	1483
생	1484
버	1485
##소	1486
##야	1487
##작	1488
##ᅪᆼ	1489
⫸만	1490
##크	1491
⭧는데	1492
##무	1493
##명	1494
##ᅵᆷ	1495
서	1496
##계	1497
의	1498
##ᆯ리	1499
추	1500
크	1501
파	1502
원	1503
##서	1504
포	1505
##일	1506
회	1507
때문	1508
명	1509
##재	1510
19	1511
강	1512
⫸까	1513
⫸까지	1514
##보	1515
해	1516
⭧아서	1517
##식	1518
##위	1519
##들	1520
##티	1521
##의	1522
최	1523
##만	1524
##00	1525
문	1526
##당	1527
##후	1528
##루	1529
아니	1530
매	1531
배	1532
##카	1533
##프	1534
데	1535
더	1536
실	1537
같	1538
##음	1539
번	1540
관	1541
##선	1542
##교	1543
받	1544
##물	1545
불	1546
⭧라는	1547
##행	1548
호	1549
진	1550
코	1551
##실	1552
단	1553
##능	1554
결	1555
##내	1556
##학	1557
##역	1558
##회	1559
##단	1560
라	1561
프	1562
반	1563
초	1564
패	1565
많	1566
##ᅡᆯ리	1567
##공	1568
특	1569
⭧자	1570
나오	1571
##디	1572
##한	1573
⭧다고	1574
##람	1575
로	1576
역	1577
작	1578
##모	1579
##속	1580
##토	1581
야	1582
⭧으며	1583
##피	1584
계	1585
##버	1586
⭧면서	1587
##반	1588
보이	1589
쓰	1590
##려	1591
##점	1592
##과	1593
분	1594
레	1595
##레	1596
##분	1597
남	1598
##조	1599
##산	1600
국	1601
⭧라고	1602
그리	1603
그러	1604
##생	1605
경우	1606
10	1607
##ᅳᆫ	1608
⭧여	1609
두	1610
##각	1611
다르	1612
처	1613
##차	1614
##두	1615
사용	1616
⭧어서	1617
현	1618
출	1619
##본	1620
##레이	1621
에	1622
##부터	1623
⭧다는	1624
물	1625
##진	1626
공격	1627
##연	1628
##중	1629
저	1630
##류	1631
이후	1632
##호	1633
##관	1634
캐	1635
예	1636
##태	1637
자신	1638
교	1639
따	1640
##면	1641
##안	1642
알	1643
못	1644
학	1645
감	1646
통	1647
점	1648
재	1649
또	1650
⭧였	1651
애	1652
##군	1653
편	1654
##민	1655
##세	1656
좋	1657
##영	1658
##런	1659
사람	1660
##코	1661
##노	1662
트	1663
##름	1664
디	1665
##바	1666
키	1667
##해	1668
입	1669
##급	1670
위하	1671
##저	1672
##금	1673
##경	1674
정도	1675
대하	1676
##방	1677
##법	1678
##ᅮᆷ	1679
##발	1680
##적	1681
메	1682
##브	1683
##종	1684
속	1685
너	1686
⫸부터	1687
형	1688
함	1689
설	1690
과	1691
##업	1692
##습	1693
##통	1694
##스트	1695
⫸나	1696
김	1697
##포	1698
군	1699
##록	1700
참	1701
가능	1702
플	1703
게이	1704
⭧ᄆ	1705
##승	1706
##양	1707
외	1708
평	1709
본	1710
토	1711
##론	1712
시키	1713
##술	1714
##매	1715
다른	1716
종	1717
##준	1718
##료	1719
##파	1720
권	1721
승	1722
12	1723
##건	1724
##직	1725
##녀	1726
⭧으나	1727
죽	1728
⫸이나	1729
가지	1730
##심	1731
팀	1732
⫸ᆯ	1733
200	1734
뒤	1735
등장	1736
직	1737
##션	1738
##투	1739
⭧는다	1740
##입	1741
아이	1742
⫸보	1743
11	1744
⫸보다	1745
히	1746
##표	1747
그리고	1748
용	1749
판	1750
버리	1751
##어지	1752
확	1753
하나	1754
게임	1755
체	1756
행	1757
경기	1758
변	1759
심	1760
운	1761
돌	1762
##운	1763
..	1764
맞	1765
만들	1766
##개	1767
##판	1768
못하	1769
박	1770
끄	1771
##여	1772
살	1773
##약	1774
채	1775
##족	1776
##테	1777
잘	1778
##er	1779
##데	1780
##석	1781
사실	1782
달	1783
간	1784
활	1785
투	1786
##랑	1787
##설	1788
집	1789
##령	1790
시간	1791
##황	1792
##형	1793
##량	1794
##너	1795
목	1796
양	1797
##련	1798
필	1799
약	1800
건	1801
##출	1802
사이	1803
##릭	1804
각	1805
네	1806
##합	1807
높	1808
##츠	1809
##향	1810
모드	1811
##께	1812
테	1813
##청	1814
시작	1815
⭧니	1816
##란	1817
표	1818
루	1819
##추	1820
##품	1821
##현	1822
일본	1823
새	1824
##복	1825
이상	1826
##망	1827
모습	1828
이름	1829
왕	1830
##것	1831
##더	1832
태	1833
##니다	1834
언	1835
함께	1836
##절	1837
존	1838
순	1839
##거나	1840
열	1841
##외	1842
##언	1843
##게	1844
따르	1845
상대	1846
⭧다가	1847
⭧려	1848
독	1849
베	1850
증	1851
한국	1852
##어나	1853
##지만	1854
문제	1855
15	1856
##울	1857
프로	1858
##환	1859
##머	1860
병	1861
천	1862
총	1863
손	1864
##ᅳᆯ리	1865
잡	1866
브	1867
##in	1868
⭧으면	1869
효	1870
⭧거나	1871
하지만	1872
터	1873
##네	1874
##임	1875
##스터	1876
능	1877
생각	1878
음	1879
##ᅵᆨ	1880
별	1881
힘	1882
##독	1883
완	1884
##즌	1885
다시	1886
끝	1887
⭧겠	1888
##송	1889
막	1890
또한	1891
##병	1892
항	1893
##목	1894
폭	1895
##천	1896
스키	1897
가장	1898
##립	1899
복	1900
들어	1901
근	1902
##ᆯ라	1903
광	1904
##배	1905
##험	1906
식	1907
날	1908
캐릭	1909
당시	1910
##대로	1911
시즌	1912
플레이	1913
##럽	1914
삼	1915
티	1916
⭧ᆫ데	1917
듯	1918
누	1919
⭧아야	1920
먹	1921
##막	1922
싸	1923
⫸처	1924
⫸처럼	1925
캐릭터	1926
당하	1927
##락	1928
및	1929
18	1930
검	1931
##on	1932
능력	1933
산	1934
빠	1935
⭧ᆫ지	1936
##년	1937
모두	1938
상황	1939
백	1940
충	1941
##색	1942
상태	1943
니	1944
그렇	1945
민	1946
##결	1947
⭧아도	1948
임	1949
블	1950
레이	1951
길	1952
##쪽	1953
느	1954
##ᅧᆸ	1955
모든	1956
##감	1957
##퍼	1958
##근	1959
추가	1960
금	1961
결국	1962
##벨	1963
머	1964
앞	1965
라이	1966
세계	1967
##악	1968
##ᆫ드	1969
커	1970
##질	1971
선수	1972
##an	1973
##초	1974
##담	1975
16	1976
##or	1977
카드	1978
친	1979
스킬	1980
##미지	1981
곡	1982
##탄	1983
업	1984
현재	1985
##등	1986
얼	1987
합	1988
##케	1989
##살	1990
##쿠	1991
슈	1992
쿠	1993
넘	1994
##편	1995
악	1996
##말	1997
많이	1998
##쟁	1999
##남	2000
⭧ᆫ다는	2001
통하	2002
전투	2003
쉬	2004
효과	2005
다음	2006
30	2007
다만	2008
급	2009
##메	2010
그러나	2011
눈	2012
존재	2013
##함	2014
지역	2015
##라이	2016
13	2017
미국	2018
⭧ᄇ	2019
취	2020
여기	2021
시리	2022
첫	2023
##에	2024
허	2025
##택	2026
##항	2027
청	2028
##접	2029
14	2030
199	2031
⭧서	2032
매우	2033
엔	2034
##예	2035
법	2036
황	2037
##ar	2038
창	2039
##냥	2040
이러	2041
바ᄁ	2042
페	2043
클	2044
이ᄇ	2045
달리	2046
##ᅥᆯ어지	2047
북	2048
절	2049
17	2050
##견	2051
극	2052
##존	2053
대학	2054
얻	2055
⭧ㅓ	2056
그런	2057
##강	2058
골	2059
##처	2060
##글	2061
상당	2062
뜨	2063
⭧ᄇ니다	2064
레벨	2065
##패	2066
기록	2067
##범	2068
##he	2069
시리즈	2070
찾	2071
째	2072
스타	2073
게	2074
괴	2075
##at	2076
이유	2077
인하	2078
⭧야	2079
##집	2080
철	2081
기술	2082
##움	2083
##ᅮᆼ	2084
물론	2085
무기	2086
엄	2087
##득	2088
##므로	2089
어ᄄ	2090
그래	2091
이용	2092
의하	2093
여러	2094
##왕	2095
올리	2096
처음	2097
##규	2098
⭧다면	2099
놓	2100
난	2101
자체	2102
⭧시	2103
부르	2104
팬	2105
방송	2106
곳	2107
100	2108
이것	2109
##와	2110
이런	2111
은	2112
##별	2113
필요	2114
영화	2115
줄	2116
##템	2117
워	2118
실제	2119
환	2120
##커	2121
##워	2122
##널	2123
해당	2124
25	2125
들어가	2126
모르	2127
마법	2128
주인	2129
##곡	2130
귀	2131
##ᅧᆾ	2132
##열	2133
일반	2134
탈	2135
⭧ᆫ다고	2136
⫸마	2137
⫸서	2138
돌아	2139
⭧어야	2140
규	2141
거의	2142
꼬	2143
##끼	2144
##라고	2145
##거리	2146
역시	2147
바로	2148
##은	2149
##느	2150
리그	2151
학교	2152
혼	2153
범	2154
나가	2155
잠	2156
사건	2157
##틀	2158
##으	2159
스ᄐ	2160
##en	2161
같이	2162
특히	2163
##달	2164
관련	2165
유니	2166
기본	2167
2017	2168
붙	2169
##착	2170
##박	2171
부분	2172
와	2173
즉	2174
위치	2175
피해	2176
##야기	2177
⭧도	2178
진행	2179
류	2180
##롭	2181
##ou	2182
겨	2183
아무	2184
방어	2185
격	2186
2018	2187
면	2188
탄	2189
##칭	2190
이야기	2191
##부분	2192
축	2193
대표	2194
글	2195
##창	2196
담	2197
마지	2198
국가	2199
좀	2200
⭧는지	2201
없이	2202
가ᄁ	2203
##례	2204
⭧음	2205
제작	2206
⭧냐	2207
##권	2208
##찰	2209
메이	2210
활동	2211
인간	2212
##난	2213
싶	2214
동안	2215
##육	2216
밝	2217
작품	2218
알리	2219
걸	2220
증가	2221
##때	2222
##변	2223
둘	2224
웨	2225
##괴	2226
풀	2227
대부분	2228
준	2229
래	2230
쉽	2231
뿐	2232
##al	2233
비스	2234
##페	2235
접	2236
마지막	2237
본인	2238
##ᆨ스	2239
##찬	2240
몸	2241
자기	2242
씨	2243
엘	2244
2019	2245
##ᆯ러	2246
일부	2247
##혼	2248
지나	2249
계속	2250
⭧ᆫ가	2251
##활	2252
##렵	2253
##시아	2254
떨어지	2255
21	2256
암	2257
생기	2258
서울	2259
##ᇂ게	2260
몬	2261
우리	2262
##극	2263
몇	2264
내용	2265
##es	2266
샤	2267
##광	2268
러	2269
주인공	2270
벌	2271
##률	2272
넣	2273
2016	2274
덕	2275
감독	2276
##희	2277
참고	2278
속도	2279
관계	2280
50	2281
##철	2282
##애	2283
##순	2284
흐	2285
##월	2286
맡	2287
팔	2288
##린	2289
헤	2290
##전히	2291
중국	2292
##없	2293
대신	2294
수준	2295
이전	2296
그냥	2297
타이	2298
쪽	2299
⭧어도	2300
⭧습	2301
까	2302
비슷	2303
어느	2304
⭧으니	2305
나이	2306
##징	2307
오르	2308
전쟁	2309
##리스	2310
비하	2311
지금	2312
##블	2313
##베	2314
강하	2315
⭧라면	2316
희	2317
##턴	2318
##날	2319
##응	2320
만나	2321
성공	2322
22	2323
스토	2324
질	2325
낮	2326
##ᅦ이스	2327
기준	2328
홍	2329
뛰	2330
짜	2331
도시	2332
##ᅦ인	2333
밝히	2334
인물	2335
##탈	2336
##돌	2337
논	2338
⭧습니다	2339
멀	2340
떠	2341
울	2342
##불	2343
슬	2344
이루	2345
배우	2346
협	2347
⭧도록	2348
##벌	2349
⫸라고	2350
198	2351
상당히	2352
공격력	2353
그녀	2354
자리	2355
대한	2356
24	2357
##율	2358
##ᅦᆫ트	2359
최대	2360
기사	2361
올라	2362
##랴	2363
##민국	2364
결과	2365
⭧더	2366
홈	2367
지원	2368
##ᆷ버	2369
그대로	2370
평가	2371
시절	2372
밀	2373
##증	2374
너무	2375
##슨	2376
빠르	2377
육	2378
##온	2379
뉴	2380
##플	2381
##략	2382
보스	2383
제외	2384
##it	2385
⭧므로	2386
죽이	2387
몰	2388
##할	2389
연구	2390
##림	2391
##버지	2392
의미	2393
온	2394
##씨	2395
망	2396
나타	2397
⭧ㅏ	2398
##ᅦ이지	2399
실제로	2400
##축	2401
##백	2402
측	2403
소속	2404
##북	2405
##라지	2406
이미	2407
⫸로서	2408
봉	2409
##귀	2410
승리	2411
직접	2412
전체	2413
2015	2414
##책	2415
영상	2416
대한민국	2417
보내	2418
향	2419
23	2420
##큼	2421
어렵	2422
원래	2423
유닛	2424
퍼	2425
체력	2426
여자	2427
##을	2428
##ᆯ로	2429
⫸마다	2430
##굴	2431
언급	2432
그것	2433
##리아	2434
##획	2435
##념	2436
묘	2437
개발	2438
데미지	2439
멤버	2440
##ing	2441
유저	2442
갖	2443
##st	2444
##le	2445
갈	2446
##학교	2447
머리	2448
##ic	2449
츠	2450
휴	2451
이동	2452
##가지	2453
##앙	2454
마음	2455
설정	2456
40	2457
싸우	2458
정보	2459
책	2460
⭧ᆫ다면	2461
맨	2462
씩	2463
방법	2464
컨	2465
문서	2466
선택	2467
애니	2468
차이	2469
님	2470
##re	2471
깨	2472
과거	2473
##늘	2474
가까	2475
##ᆷ피	2476
##운드	2477
던	2478
몬스터	2479
듣	2480
센	2481
쇼	2482
왜	2483
##평	2484
##슬	2485
⭧나	2486
출연	2487
성우	2488
불리	2489
송	2490
##몬	2491
친구	2492
포함	2493
파이	2494
⭧란	2495
##욱	2496
돈	2497
침	2498
##dd	2499
빼	2500
석	2501
##닝	2502
농	2503
##ᅦ이션	2504
갑	2505
뜻	2506
뭐	2507
⫸다	2508
압	2509
탑	2510
##짜	2511
대상	2512
##누	2513
설명	2514
거리	2515
엄청	2516
##는	2517
프리	2518
혹	2519
어ᄍ	2520
사회	2521
소리	2522
##총	2523
바람	2524
플레이어	2525
장면	2526
##딩	2527
힘들	2528
우승	2529
최고	2530
여성	2531
##봉	2532
버전	2533
사랑	2534
바뀌	2535
##델	2536
아버지	2537
즈	2538
##웅	2539
##침	2540
마이	2541
동시	2542
칼	2543
공식	2544
##팅	2545
유명	2546
시대	2547
스럽	2548
2014	2549
##켓	2550
답	2551
발생	2552
영향	2553
사망	2554
주로	2555
어떠	2556
꽤	2557
대회	2558
프랑	2559
##주의	2560
남자	2561
궁	2562
층	2563
색	2564
결정	2565
조금	2566
⭧려고	2567
발매	2568
26	2569
주장	2570
##랜드	2571
출신	2572
아이템	2573
⭧러	2574
##ff	2575
초반	2576
000	2577
역사	2578
걸리	2579
섬	2580
빠지	2581
인터	2582
일어나	2583
학생	2584
나라	2585
전부	2586
버스	2587
공개	2588
28	2589
푸	2590
##쉬	2591
운영	2592
서로	2593
유지	2594
콘	2595
오래	2596
스토리	2597
##밀	2598
##el	2599
27	2600
##ᅦ일	2601
대사	2602
구성	2603
##염	2604
##갑	2605
파괴	2606
제대로	2607
##am	2608
정부	2609
방식	2610
만큼	2611
음악	2612
쏘	2613
강화	2614
자주	2615
31	2616
중요	2617
아직	2618
후반	2619
이때	2620
##쁘	2621
월드	2622
나타나	2623
또는	2624
노래	2625
##컬	2626
the	2627
정치	2628
과정	2629
형태	2630
밖	2631
최종	2632
새롭	2633
다니	2634
독일	2635
시스	2636
르	2637
역할	2638
휘	2639
최초	2640
억	2641
대전	2642
##벽	2643
딜	2644
##랙	2645
좌	2646
끼	2647
착	2648
뽀	2649
찍	2650
##필	2651
마리	2652
쓰이	2653
이벤트	2654
누구	2655
##om	2656
##머니	2657
강력	2658
아래	2659
정말	2660
변경	2661
회복	2662
##얼	2663
##곤	2664
##클	2665
##먹	2666
##확	2667
기존	2668
##우스	2669
싱	2670
##맨	2671
바이	2672
볼	2673
##다가	2674
그런데	2675
##잡	2676
영국	2677
보통	2678
비교	2679
드래	2680
소환	2681
잔	2682
느끼	2683
정신	2684
##아가	2685
##객	2686
폐	2687
마찬	2688
마찬가지	2689
이기	2690
##la	2691
⭧든	2692
어떤	2693
조선	2694
당연	2695
##측	2696
##프트	2697
특성	2698
인기	2699
##is	2700
엄청나	2701
성능	2702
늘	2703
링	2704
확률	2705
속성	2706
##뜨	2707
마을	2708
⭧듯	2709
##번	2710
##라도	2711
먼	2712
행동	2713
움	2714
##이도	2715
##훈	2716
바꾸	2717
⭧라도	2718
앨	2719
2013	2720
슈퍼	2721
오히	2722
노선	2723
⫸대	2724
다이	2725
⫸대로	2726
윤	2727
모양	2728
##덕	2729
이제	2730
오히려	2731
풍	2732
데이	2733
올	2734
드라	2735
##풍	2736
가깝	2737
자유	2738
아들	2739
교육	2740
197	2741
발견	2742
차량	2743
##억	2744
라인	2745
##퇴	2746
##휘	2747
짓	2748
29	2749
사라지	2750
끌	2751
##너지	2752
게다가	2753
술	2754
32	2755
하이	2756
부족	2757
특수	2758
프랑스	2759
##et	2760
이번	2761
00	2762
대학교	2763
확인	2764
성격	2765
끝나	2766
문화	2767
유일	2768
활약	2769
차지	2770
##렌	2771
##손	2772
흑	2773
수록	2774
##ol	2775
2012	2776
장비	2777
관리	2778
케	2779
##ion	2780
##혀	2781
아예	2782
##답	2783
영웅	2784
응	2785
모델	2786
일단	2787
입장	2788
구하	2789
녹	2790
액	2791
내리	2792
생산	2793
맞추	2794
스트	2795
따라	2796
시스템	2797
빛	2798
이렇게	2799
제국	2800
##지어	2801
흔	2802
맵	2803
훈	2804
숨	2805
##폭	2806
고등	2807
뽑	2808
어리	2809
##웨	2810
##숙	2811
돌아오	2812
에피	2813
##ᆫ스	2814
들어오	2815
먼저	2816
심지어	2817
득	2818
경찰	2819
반대	2820
##디오	2821
계획	2822
주변	2823
거기	2824
##레이드	2825
운동	2826
2010	2827
앨범	2828
자동	2829
⭧어요	2830
##골	2831
획	2832
완전히	2833
조건	2834
##ᅢᆼ크	2835
드러	2836
##램	2837
우주	2838
기간	2839
사진	2840
##엇	2841
##새	2842
##레스	2843
애니ᄆ	2844
난이도	2845
부대	2846
##옥	2847
적용	2848
발동	2849
개인	2850
기능	2851
##ow	2852
지구	2853
##럼	2854
뮤	2855
건물	2856
스ᄑ	2857
60	2858
감소	2859
위원	2860
잃	2861
##nd	2862
km	2863
##멸	2864
##20	2865
축구	2866
자세	2867
##통령	2868
##il	2869
떠나	2870
##ig	2871
어디	2872
그루	2873
##든	2874
중심	2875
⫸으로서	2876
##ed	2877
실패	2878
##ᆨ트	2879
견	2880
##ᅦ이트	2881
지키	2882
그래서	2883
##져	2884
##곳	2885
세트	2886
혹은	2887
중앙	2888
선거	2889
##롯	2890
⭧라며	2891
현대	2892
35	2893
##튼	2894
회사	2895
덕분	2896
##ᆼ장	2897
돌아가	2898
클리	2899
초기	2900
##뢰	2901
##ᅩᆾ	2902
전혀	2903
얼굴	2904
작가	2905
시기	2906
듀	2907
표현	2908
국내	2909
##탁	2910
원작	2911
##충	2912
민주	2913
대통령	2914
패배	2915
##웃	2916
물리	2917
처리	2918
오브	2919
순간	2920
TV	2921
하루	2922
동일	2923
날리	2924
##뷔	2925
모으	2926
지속	2927
프로그	2928
드라마	2929
반응	2930
지방	2931
##익	2932
무엇	2933
얼마	2934
열리	2935
##균	2936
##버스	2937
##먼	2938
도움	2939
⭧더라도	2940
인정	2941
##엘	2942
참여	2943
기관	2944
맥	2945
애니메이션	2946
출시	2947
##니아	2948
칸	2949
명칭	2950
##ac	2951
판매	2952
담당	2953
데뷔	2954
##as	2955
##나마	2956
##없이	2957
꾸	2958
퇴	2959
##BS	2960
정확	2961
##압	2962
크로	2963
요구	2964
획득	2965
196	2966
땅	2967
##룡	2968
굉장	2969
생활	2970
그렇게	2971
of	2972
⫸루	2973
시점	2974
헌	2975
컴	2976
2011	2977
설치	2978
##밖에	2979
작중	2980
넘어	2981
다양	2982
⫸밖에	2983
발표	2984
##슈	2985
후보	2986
그룹	2987
상승	2988
##아내	2989
진출	2990
선발	2991
아군	2992
구조	2993
기억	2994
롭	2995
항목	2996
Lv	2997
영어	2998
만화	2999
가격	3000
움직	3001
습	3002
탐	3003
단계	3004
족	3005
벨	3006
##소드	3007
그림	3008
##럭	3009
밤	3010
특별	3011
##들이	3012
올라가	3013
마스터	3014
실력	3015
##ve	3016
그나마	3017
##놓	3018
핵	3019
##링	3020
세이	3021
⭧으므로	3022
##죄	3023
량	3024
##싸	3025
드래곤	3026
아마	3027
##리카	3028
⭧다며	3029
턴	3030
세우	3031
이거	3032
찌	3033
01	3034
##욕	3035
야구	3036
빌	3037
헬	3038
킹	3039
##채	3040
⭧았었	3041
덱	3042
졸	3043
시장	3044
맛	3045
수비	3046
낙	3047
The	3048
미치	3049
가족	3050
##비스	3051
아주	3052
범위	3053
##탕	3054
##찮	3055
사고	3056
특징	3057
밀리	3058
연기	3059
##넷	3060
⭧려는	3061
##소리	3062
경제	3063
시청	3064
방향	3065
대체	3066
딸	3067
패치	3068
경험	3069
##뜨리	3070
계약	3071
⫸한	3072
퀘	3073
고려	3074
아르	3075
##ot	3076
남기	3077
⫸한테	3078
⫸조	3079
⫸조차	3080
숙	3081
확실	3082
참가	3083
국제	3084
딱	3085
지니	3086
디자	3087
에피소드	3088
500	3089
발사	3090
세대	3091
어머니	3092
폭발	3093
묘사	3094
⫸로부터	3095
##스크	3096
##덤	3097
주의	3098
프로그램	3099
##이드	3100
고등학교	3101
80	3102
던지	3103
믿	3104
활용	3105
2000	3106
트리	3107
굴	3108
어떻게	3109
피하	3110
상위	3111
결혼	3112
무시	3113
⭧라서	3114
⭧ㅕ	3115
##으키	3116
비판	3117
목적	3118
##효	3119
더욱	3120
준비	3121
##못	3122
중간	3123
나무	3124
##밍	3125
심하	3126
각각	3127
##ad	3128
쿨	3129
보호	3130
37	3131
브라	3132
러시아	3133
45	3134
이ᄁ	3135
오리	3136
펼	3137
묻	3138
챔피	3139
버프	3140
##맹	3141
라운드	3142
굉장히	3143
이미지	3144
패턴	3145
빈	3146
국민	3147
##궁	3148
히로	3149
이르	3150
##혹	3151
이어지	3152
위험	3153
진짜	3154
옆	3155
##인트	3156
참조	3157
내려	3158
꿈	3159
##검	3160
대미지	3161
생명	3162
조직	3163
조사	3164
죄	3165
단순	3166
혼자	3167
싸움	3168
과학	3169
여담	3170
크리스	3171
약하	3172
##ᅦ임	3173
이루어지	3174
꺼	3175
전하	3176
나쁘	3177
스피	3178
타입	3179
다루	3180
##뷰	3181
흡	3182
소모	3183
세력	3184
스ᄏ	3185
현실	3186
⭧ᆯ지	3187
파워	3188
St	3189
안타	3190
시도	3191
##씬	3192
염	3193
제공	3194
욕	3195
주요	3196
구간	3197
흥	3198
율	3199
194	3200
유리	3201
불구	3202
거치	3203
할	3204
가리	3205
전문	3206
지하	3207
유럽	3208
일으키	3209
연속	3210
웃	3211
##칙	3212
부산	3213
세기	3214
##머지	3215
나머지	3216
순위	3217
논란	3218
돕	3219
조합	3220
한정	3221
포인트	3222
괘	3223
익	3224
사실상	3225
약간	3226
##아오	3227
케이	3228
##갈	3229
론	3230
##틴	3231
아프	3232
노리	3233
동료	3234
##id	3235
70	3236
클래	3237
뛰어나	3238
오프	3239
분위	3240
성장	3241
훨	3242
09	3243
##섭	3244
##ay	3245
무장	3246
여전히	3247
바라	3248
디자인	3249
⫸랑	3250
즐	3251
분위기	3252
당연히	3253
취급	3254
항공	3255
출전	3256
##스로	3257
90	3258
이해	3259
⭧으면서	3260
학년	3261
얘	3262
일정	3263
규모	3264
등급	3265
##혁	3266
싫	3267
훨씬	3268
FC	3269
##ER	3270
지도	3271
투수	3272
소설	3273
징	3274
##나라	3275
한편	3276
예정	3277
운행	3278
블랙	3279
성적	3280
##협	3281
인구	3282
린	3283
읽	3284
부상	3285
쌍	3286
기대	3287
자연	3288
엔딩	3289
기타	3290
그래도	3291
⭧구	3292
마치	3293
##닥	3294
삼성	3295
##러지	3296
벽	3297
폴	3298
계열	3299
mm	3300
똑	3301
02	3302
해결	3303
2009	3304
03	3305
괜	3306
사업	3307
가져	3308
##ch	3309
스테이지	3310
향하	3311
센터	3312
##킹	3313
가스	3314
##완	3315
어두	3316
##혜	3317
방면	3318
연결	3319
미션	3320
300	3321
콤	3322
옥	3323
##ᆫ쪽	3324
방영	3325
플래	3326
최근	3327
##빈	3328
의견	3329
튀	3330
##낌	3331
⭧기에	3332
연합	3333
수정	3334
##짝	3335
짧	3336
##us	3337
48	3338
변화	3339
도망	3340
종류	3341
##ir	3342
⭧자면	3343
⭧ᆯ까	3344
그거	3345
곧	3346
표기	3347
잘못	3348
⫸야	3349
률	3350
칭	3351
전용	3352
태어나	3353
배치	3354
##받	3355
05	3356
털	3357
퀘스트	3358
195	3359
추정	3360
33	3361
for	3362
터지	3363
##스타	3364
2008	3365
⫸고	3366
탓	3367
발전	3368
##다리	3369
벗	3370
##척	3371
소녀	3372
##혈	3373
36	3374
##엄	3375
##폰	3376
08	3377
대화	3378
변하	3379
거대	3380
정상	3381
직업	3382
##참	3383
끊	3384
안정	3385
척	3386
07	3387
움직이	3388
##ur	3389
도중	3390
⭧네	3391
언제	3392
죽음	3393
엔진	3394
충분	3395
올라오	3396
스스로	3397
큐	3398
종료	3399
##렉	3400
작전	3401
넘어가	3402
##티브	3403
##ᅡᆯ리아	3404
##파이	3405
스카	3406
수상	3407
챔피언	3408
펼치	3409
세상	3410
품	3411
나중	3412
##둥	3413
붙이	3414
십	3415
##텐	3416
##같	3417
독립	3418
일행	3419
비행	3420
요소	3421
나누	3422
##샤	3423
캠	3424
느낌	3425
속하	3426
##볼	3427
##취	3428
수도	3429
당신	3430
HP	3431
굳	3432
벌어지	3433
벌이	3434
로보	3435
##액	3436
보상	3437
에너지	3438
##륙	3439
##ᆩ이	3440
지내	3441
방어력	3442
달성	3443
비롯	3444
전설	3445
팩	3446
녀	3447
##..	3448
무리	3449
공연	3450
##od	3451
미사	3452
##센	3453
만드	3454
06	3455
력	3456
동물	3457
⫸만큼	3458
솔	3459
배틀	3460
##BC	3461
부활	3462
특정	3463
관하	3464
장착	3465
훈련	3466
절대	3467
빅	3468
th	3469
삭	3470
졸업	3471
철도	3472
전기	3473
지지	3474
렌	3475
##자기	3476
##im	3477
기업	3478
##암	3479
위기	3480
포켓	3481
##길	3482
넓	3483
지휘	3484
행정	3485
다리	3486
싱글	3487
번역	3488
런	3489
번호	3490
근접	3491
##란드	3492
틀	3493
더불	3494
돌리	3495
제목	3496
점수	3497
건설	3498
빨	3499
04	3500
만약	3501
관심	3502
아이돌	3503
미래	3504
##어들	3505
황제	3506
##른	3507
내부	3508
남성	3509
##렬	3510
스코	3511
반면	3512
따라서	3513
득점	3514
##un	3515
충격	3516
##ut	3517
신경	3518
##겁	3519
SK	3520
시험	3521
전차	3522
##뉴	3523
요리	3524
군사	3525
가르	3526
목소리	3527
거두	3528
스페	3529
목표	3530
홈런	3531
소재	3532
인사	3533
덤	3534
뚜	3535
전사	3536
2007	3537
##데이트	3538
업데이트	3539
바르	3540
정체	3541
멸	3542
you	3543
공간	3544
##지션	3545
똑같	3546
가끔	3547
저지	3548
무대	3549
##튜	3550
카이	3551
픽	3552
어찌	3553
시설	3554
놀	3555
사이트	3556
타격	3557
셈	3558
##즘	3559
로마	3560
오늘	3561
34	3562
뒷	3563
꽃	3564
##인물	3565
##컵	3566
##흥	3567
배경	3568
##트리	3569
링크	3570
록	3571
지정	3572
⫸다가	3573
장소	3574
각성	3575
전작	3576
찬	3577
서비스	3578
공중	3579
마르	3580
빙	3581
최소	3582
##큐	3583
항상	3584
부여	3585
##다니	3586
##ro	3587
냉	3588
교체	3589
그만	3590
파티	3591
전국	3592
##닉	3593
맹	3594
분노	3595
⭧느	3596
베이	3597
##너스	3598
##폐	3599
생존	3600
작곡	3601
북한	3602
얘기	3603
넘기	3604
등장인물	3605
정식	3606
켄	3607
⭧으려	3608
예상	3609
스포	3610
엘리	3611
⫸마저	3612
자랑	3613
의원	3614
##알	3615
혀	3616
⫸으로써	3617
작업	3618
높이	3619
##붙	3620
도로	3621
잉	3622
포켓몬	3623
사냥	3624
##디어	3625
##쇄	3626
크리	3627
분류	3628
종족	3629
늘어나	3630
랜	3631
이끌	3632
##트로	3633
##엽	3634
##층	3635
인도	3636
악마	3637
##ag	3638
벤	3639
##igh	3640
소개	3641
야마	3642
드리	3643
38	3644
올림피	3645
아키	3646
쌓	3647
겸	3648
##ver	3649
단체	3650
혈	3651
애초	3652
제한	3653
인터뷰	3654
괜찮	3655
⫸ᆯ로	3656
가수	3657
홀	3658
필드	3659
##ec	3660
결승	3661
##동안	3662
cm	3663
판정	3664
롯	3665
⭧듯이	3666
기계	3667
이어	3668
클리어	3669
75	3670
연출	3671
목록	3672
각종	3673
외국	3674
하늘	3675
컵	3676
이외	3677
타카	3678
명령	3679
##ᅪᆯ	3680
정하	3681
##ent	3682
2006	3683
제일	3684
초등	3685
기체	3686
병력	3687
지상	3688
깊	3689
카운	3690
재미	3691
로봇	3692
개념	3693
스타일	3694
아카	3695
##보이	3696
트위	3697
가운	3698
55	3699
놀라	3700
##드리	3701
전반	3702
확정	3703
##이트	3704
기동	3705
in	3706
##콘	3707
교통	3708
옛	3709
바다	3710
살리	3711
정작	3712
##쓰	3713
##촌	3714
193	3715
##허	3716
페이	3717
건담	3718
레어	3719
비용	3720
퀴	3721
옷	3722
##탈리아	3723
별로	3724
파일	3725
##ak	3726
##스티	3727
화력	3728
##흐	3729
##빠	3730
장갑	3731
옵	3732
올림픽	3733
수행	3734
⫸뿐	3735
##리오	3736
몽	3737
⭧니까	3738
군대	3739
드러나	3740
사항	3741
가운데	3742
갖추	3743
표시	3744
크기	3745
##뮤	3746
##까	3747
따로	3748
인식	3749
시티	3750
행위	3751
사격	3752
수치	3753
경쟁	3754
라이브	3755
료	3756
##던	3757
2020	3758
사거리	3759
납	3760
##텔	3761
##겨	3762
to	3763
##um	3764
⭧오	3765
##최	3766
누르	3767
##쉽	3768
기반	3769
변신	3770
갑자기	3771
저항	3772
감정	3773
',	3774
##쿄	3775
##러스	3776
나름	3777
포지션	3778
비밀	3779
##짓	3780
잇	3781
##젝트	3782
##꾸	3783
진화	3784
이탈리아	3785
완전	3786
평균	3787
왕국	3788
단점	3789
뇌	3790
보유	3791
집중	3792
인천	3793
스티	3794
코미	3795
란	3796
교수	3797
##셉	3798
근처	3799
통합	3800
기회	3801
병원	3802
vs	3803
폰	3804
직전	3805
에이	3806
던전	3807
노력	3808
특이	3809
임무	3810
띄	3811
##라인	3812
##아들이	3813
의식	3814
자원	3815
전자	3816
어쩌	3817
⭧냐고	3818
느리	3819
국회	3820
설립	3821
탈출	3822
스태	3823
##친	3824
놈	3825
코스	3826
##화국	3827
정의	3828
쯤	3829
##윤	3830
오버	3831
압도	3832
##ST	3833
혁	3834
레인	3835
이닝	3836
옮	3837
월드컵	3838
부모	3839
촬	3840
단어	3841
다크	3842
때리	3843
부정	3844
환경	3845
##em	3846
##앗	3847
고양	3848
마시	3849
현상	3850
##ub	3851
정리	3852
사례	3853
잠시	3854
떨	3855
사정	3856
##비아	3857
판단	3858
효율	3859
시전	3860
제품	3861
이쪽	3862
콜	3863
아파	3864
쥬	3865
펜	3866
밑	3867
극장	3868
⭧더니	3869
치명	3870
스위	3871
본래	3872
##르트	3873
##리어	3874
##낙	3875
나서	3876
주제	3877
무슨	3878
촬영	3879
##000	3880
삭제	3881
붕	3882
상관	3883
사무	3884
의외	3885
주문	3886
위원회	3887
아스	3888
전력	3889
가문	3890
⭧ㅏㅆ	3891
겪	3892
##븐	3893
동생	3894
고속	3895
컬	3896
##어로	3897
원인	3898
주민	3899
대구	3900
##묘	3901
여행	3902
물건	3903
옮기	3904
지배	3905
제거	3906
발언	3907
강제	3908
키우	3909
##헌	3910
소련	3911
연습	3912
곤	3913
치료	3914
병사	3915
포기	3916
골드	3917
위력	3918
요시	3919
파트	3920
도전	3921
##무리	3922
전개	3923
2005	3924
기다리	3925
이하	3926
노트	3927
역대	3928
책임	3929
새로	3930
해군	3931
##째	3932
중학교	3933
기념	3934
##요일	3935
도입	3936
정책	3937
점프	3938
앞서	3939
완성	3940
웹	3941
복귀	3942
##싱	3943
실험	3944
##ight	3945
화면	3946
42	3947
##야마	3948
루트	3949
⭧려면	3950
유사	3951
고정	3952
공주	3953
도쿄	3954
살인	3955
의사	3956
모이	3957
음식	3958
41	3959
##학생	3960
레드	3961
칠	3962
별명	3963
차원	3964
직후	3965
선생	3966
끝내	3967
이적	3968
뿌	3969
히어로	3970
불가	3971
다수	3972
셋	3973
버티	3974
사기	3975
중반	3976
나이트	3977
##좌	3978
텔	3979
39	3980
받아들이	3981
잡히	3982
##섯	3983
티어	3984
전략	3985
숨기	3986
히트	3987
어둠	3988
밴드	3989
⫸에게서	3990
분명	3991
마나	3992
붉	3993
공동	3994
엑	3995
도착	3996
2004	3997
무려	3998
미니	3999
쫓	4000
꼭	4001
##모토	4002
션	4003
빌리	4004
##특	4005
접근	4006
가치	4007
언어	4008
녀석	4009
짐	4010
##로스	4011
제도	4012
일러	4013
EX	4014
LG	4015
⭧은데	4016
정당	4017
⫸으로부터	4018
텐	4019
회피	4020
추천	4021
타임	4022
조종	4023
⭧ㅓㅆ	4024
정규	4025
사상	4026
시민	4027
대기	4028
반드	4029
로드	4030
##젤	4031
예전	4032
##ce	4033
살아	4034
확장	4035
아파트	4036
신체	4037
빨리	4038
##숨	4039
##그레이드	4040
업그레이드	4041
##루스	4042
쥐	4043
마사	4044
구매	4045
##AR	4046
줄이	4047
연장	4048
멘	4049
롯데	4050
리더	4051
자료	4052
##셀	4053
##퓨	4054
랭크	4055
이곳	4056
반드시	4057
폭탄	4058
##os	4059
투표	4060
탈락	4061
꾼	4062
타이틀	4063
인터넷	4064
##끄	4065
##밥	4066
부탁	4067
장치	4068
닥	4069
학원	4070
단지	4071
완벽	4072
라이트	4073
미사일	4074
종교	4075
멜	4076
44	4077
##찍	4078
우선	4079
##ri	4080
일러스트	4081
소유	4082
형식	4083
닌	4084
해외	4085
고대	4086
낫	4087
##시마	4088
##AN	4089
구역	4090
장점	4091
사령	4092
셰	4093
최강	4094
힐	4095
심각	4096
산업	4097
##듀	4098
아내	4099
##ula	4100
Ch	4101
금지	4102
늦	4103
하드	4104
아라	4105
##ON	4106
수마	4107
##역시	4108
⭧죠	4109
##벤	4110
앙	4111
추측	4112
버그	4113
실시	4114
탱	4115
No	4116
위키	4117
마무리	4118
##ap	4119
43	4120
99	4121
⫸이라고	4122
⭧곤	4123
대장	4124
##홍	4125
##몇	4126
클럽	4127
몇몇	4128
공포	4129
가사	4130
##나이	4131
##ᆨ정	4132
노동	4133
##and	4134
2002	4135
연재	4136
가드	4137
이사	4138
구분	4139
복수	4140
취하	4141
st	4142
검사	4143
범죄	4144
톤	4145
합류	4146
점점	4147
달러	4148
즐기	4149
서버	4150
다소	4151
로스	4152
조정	4153
##아하	4154
요청	4155
행사	4156
##이치	4157
차례	4158
##수록	4159
form	4160
덜	4161
옵션	4162
##탑	4163
떡	4164
재료	4165
보병	4166
그야	4167
밥	4168
조작	4169
선정	4170
선언	4171
수많	4172
마법사	4173
전통	4174
택	4175
교회	4176
잭	4177
입히	4178
타자	4179
걱정	4180
프로젝트	4181
롤	4182
브레이	4183
kg	4184
##쳐	4185
그리스	4186
종종	4187
개그	4188
47	4189
스포츠	4190
⭧자마	4191
46	4192
##빙	4193
데이터	4194
51	4195
191	4196
##첩	4197
좋아하	4198
컴퓨	4199
개월	4200
암살	4201
부하	4202
##듬	4203
광고	4204
형제	4205
열차	4206
##르크	4207
formula	4208
트레이	4209
채우	4210
템	4211
성향	4212
뉴스	4213
##말로	4214
대중	4215
##털	4216
개최	4217
##ᆯ린	4218
평범	4219
##십	4220
폼	4221
⭧자마자	4222
##덴	4223
KBS	4224
아쉽	4225
으	4226
##조건	4227
포스	4228
숲	4229
그야말로	4230
##롱	4231
실점	4232
모자	4233
한계	4234
스페인	4235
구단	4236
고르	4237
##걸	4238
##죽	4239
채널	4240
##맞	4241
뻔	4242
대결	4243
설계	4244
##ter	4245
코드	4246
거부	4247
통신	4248
언론	4249
아무리	4250
보조	4251
##아보	4252
워낙	4253
생물	4254
다행	4255
##맥	4256
비중	4257
종합	4258
⭧고자	4259
전화	4260
행성	4261
기지	4262
컴퓨터	4263
민족	4264
and	4265
##셜	4266
맺	4267
한글	4268
무한	4269
디스	4270
투입	4271
개봉	4272
해석	4273
값	4274
무조건	4275
##트라	4276
캡	4277
##아지	4278
본격	4279
영혼	4280
정확히	4281
연주	4282
⭧냐는	4283
굳이	4284
운용	4285
##ul	4286
MA	4287
평소	4288
실수	4289
회장	4290
원정	4291
광주	4292
##IN	4293
지적	4294
##ᆯ리스	4295
박사	4296
소년	4297
##ᆸ히	4298
##타임	4299
##ᆺ자	4300
지명	4301
와중	4302
##무라	4303
##ᅳᆯ린	4304
인상	4305
1000	4306
위협	4307
미드	4308
##버리	4309
2003	4310
닉	4311
줄어들	4312
멋	4313
젊	4314
##ᅳᆯ링	4315
회의	4316
상징	4317
충분히	4318
##꽃	4319
##op	4320
등록	4321
##몽	4322
##ᆺ수	4323
⭧는가	4324
사태	4325
집단	4326
대형	4327
가정	4328
대응	4329
대비	4330
쓸	4331
보너스	4332
터미	4333
아웃	4334
자동차	4335
소비	4336
엠	4337
##ck	4338
전원	4339
공사	4340
보컬	4341
대로	4342
데스	4343
체제	4344
카메	4345
페르	4346
시청자	4347
%,	4348
다운	4349
뚫	4350
태양	4351
특유	4352
희생	4353
150	4354
조각	4355
먹이	4356
개조	4357
가면	4358
무사	4359
65	4360
##FA	4361
혐	4362
샷	4363
군단	4364
##ation	4365
빵	4366
편성	4367
뿌리	4368
도망치	4369
봉인	4370
##로드	4371
깔	4372
리어	4373
여름	4374
##되	4375
MBC	4376
마력	4377
흉	4378
##니스	4379
SP	4380
긴	4381
통과	4382
일종	4383
네이	4384
##ᆫ만	4385
기자	4386
떠오	4387
##ra	4388
##려가	4389
192	4390
##라스	4391
잊	4392
육군	4393
##콩	4394
##ᆯ링	4395
##펜	4396
혜	4397
##자리	4398
발음	4399
장군	4400
공항	4401
##돈	4402
스크	4403
죠	4404
생성	4405
벗어나	4406
얼마나	4407
##의원	4408
##꼬	4409
##ᅦ이크	4410
시나	4411
분리	4412
방문	4413
##스케	4414
64	4415
##리트	4416
오리지	4417
##있	4418
##셔	4419
II	4420
가하	4421
⫸로써	4422
드러내	4423
고양이	4424
하야	4425
촉	4426
##꺼	4427
장르	4428
보다	4429
동맹	4430
빼앗	4431
장기	4432
간단	4433
##톤	4434
함정	4435
⭧을지	4436
##줄	4437
반복	4438
##칸	4439
⭧ㅏ서	4440
서술	4441
##튜브	4442
튜	4443
소식	4444
앉	4445
의도	4446
##려오	4447
##넘	4448
사쿠	4449
분야	4450
디지	4451
전환	4452
근데	4453
갤러	4454
52	4455
불과	4456
##깨	4457
합치	4458
유튜브	4459
랭	4460
바닥	4461
영입	4462
안전	4463
경기도	4464
그때	4465
치르	4466
괴물	4467
저격	4468
마크	4469
제안	4470
##텐츠	4471
흡수	4472
점령	4473
##찌	4474
You	4475
##ᅧ보	4476
의지	4477
밸	4478
##시스	4479
⭧는다는	4480
예선	4481
윈	4482
초대	4483
루이	4484
필살	4485
최후	4486
##니티	4487
따지	4488
400	4489
개선	4490
공략	4491
유도	4492
##빌	4493
화염	4494
##남도	4495
##엔	4496
##빛	4497
##오스	4498
숫자	4499
독자	4500
오토	4501
전술	4502
##art	4503
코치	4504
그저	4505
블루	4506
미리	4507
방해	4508
##나가	4509
##님	4510
주력	4511
원하	4512
액션	4513
확보	4514
외모	4515
인원	4516
가져오	4517
평화	4518
매일	4519
##풀	4520
진입	4521
터미널	4522
이론	4523
##런스	4524
규정	4525
관통	4526
VS	4527
클래스	4528
수사	4529
비트	4530
라디오	4531
찾아오	4532
장난	4533
##랗	4534
49	4535
들리	4536
이치	4537
투자	4538
승부	4539
컨셉	4540
눈물	4541
체육	4542
목숨	4543
형성	4544
지나가	4545
적극	4546
패러	4547
⭧느냐	4548
인류	4549
##드로	4550
방패	4551
AP	4552
56	4553
상자	4554
##핑	4555
음반	4556
몹	4557
모험	4558
시내	4559
사과	4560
아름	4561
서브	4562
겹	4563
왼쪽	4564
부수	4565
적절	4566
흐르	4567
한국어	4568
계기	4569
보도	4570
에스	4571
2001	4572
함대	4573
구축	4574
트래	4575
떼	4576
##동생	4577
거짓	4578
저지르	4579
##팔	4580
살아남	4581
##릿	4582
의심	4583
⭧ᆫ지라	4584
약점	4585
챙	4586
쳐	4587
예술	4588
공화국	4589
들이	4590
역전	4591
궤	4592
인형	4593
##퀴	4594
기원	4595
53	4596
오리지널	4597
54	4598
비디오	4599
##페이지	4600
작성	4601
완료	4602
##모리	4603
...	4604
자라	4605
데리	4606
공부	4607
##논	4608
은퇴	4609
수리	4610
솔로	4611
코어	4612
회전	4613
쓰러지	4614
##라이더	4615
단순히	4616
풀리	4617
대단	4618
질문	4619
In	4620
걸치	4621
PC	4622
편집	4623
황금	4624
닮	4625
끌어	4626
민주당	4627
마침	4628
뮤직	4629
훌	4630
##래프트	4631
날개	4632
프레이	4633
##바이	4634
핑	4635
##시브	4636
홈페이지	4637
덩	4638
착용	4639
필수	4640
트랙	4641
상대방	4642
멈	4643
보수	4644
꾸준	4645
85	4646
해제	4647
##옷	4648
##삼	4649
##토리	4650
엄마	4651
아프리카	4652
드라이	4653
경상	4654
##ia	4655
사단	4656
습격	4657
장관	4658
편하	4659
1990	4660
현장	4661
사장	4662
코스트	4663
비난	4664
포르	4665
희망	4666
걷	4667
원거리	4668
##ill	4669
##깐	4670
청소	4671
수원	4672
##ie	4673
재판	4674
선보이	4675
분석	4676
하위	4677
##레이션	4678
명중	4679
테러	4680
아시아	4681
퓨	4682
진정	4683
더블	4684
앤	4685
무력	4686
오스	4687
선물	4688
##RA	4689
카페	4690
##냐	4691
##나다	4692
인지	4693
성인	4694
수호	4695
ST	4696
삶	4697
##덜	4698
모티브	4699
트로	4700
##IA	4701
##몰	4702
비고	4703
스파이	4704
에이스	4705
콩	4706
확실히	4707
아름답	4708
행복	4709
경계	4710
부리	4711
저주	4712
감안	4713
카즈	4714
중단	4715
태도	4716
가슴	4717
190	4718
##ik	4719
임명	4720
남편	4721
공원	4722
기획	4723
꼴	4724
##를	4725
쿄	4726
지식	4727
관광	4728
표정	4729
허용	4730
승강	4731
스마	4732
쿨타임	4733
장애	4734
무섭	4735
##텀	4736
수단	4737
지나치	4738
오른쪽	4739
셀	4740
탑재	4741
바탕	4742
본선	4743
멈추	4744
딱히	4745
인민	4746
제시	4747
친하	4748
소프트	4749
상처	4750
주도	4751
##무원	4752
당장	4753
59	4754
망하	4755
롱	4756
##연히	4757
처치	4758
##녕	4759
##북도	4760
의문	4761
영역	4762
유래	4763
기점	4764
테마	4765
소울	4766
테크	4767
고통	4768
이스	4769
리스	4770
보급	4771
유우	4772
##ab	4773
컷	4774
직원	4775
불명	4776
날아가	4777
비싸	4778
돌파	4779
갈리	4780
기어	4781
멀티	4782
베이스	4783
위주	4784
작용	4785
고유	4786
주목	4787
제압	4788
대답	4789
챙기	4790
120	4791
58	4792
##워드	4793
##뉘	4794
나카	4795
잠깐	4796
##마스	4797
##랄	4798
주연	4799
⭧아요	4800
⭧을까	4801
카운터	4802
여부	4803
##울리	4804
제기	4805
순서	4806
베르	4807
측면	4808
꺼내	4809
체계	4810
도서	4811
##춘	4812
##est	4813
탯	4814
57	4815
업무	4816
박스	4817
우수	4818
진영	4819
부인	4820
텍	4821
##th	4822
MP	4823
멀리	4824
퍼지	4825
문명	4826
그레이	4827
##픽	4828
카메라	4829
패스	4830
횟수	4831
드립	4832
후속	4833
멸망	4834
통일	4835
온라인	4836
##all	4837
공장	4838
텔레	4839
버튼	4840
낳	4841
시나리오	4842
⫸아	4843
케이스	4844
⭧어라	4845
##푸	4846
지점	4847
거주	4848
갱	4849
귀족	4850
나뉘	4851
##ea	4852
브랜드	4853
66	4854
가ᄇ	4855
95	4856
코너	4857
문자	4858
넥	4859
당선	4860
##쇠	4861
내려가	4862
엉	4863
##뇌	4864
겨우	4865
협력	4866
특기	4867
차별	4868
계산	4869
소수	4870
펀	4871
지옥	4872
##ᆸ터	4873
후지	4874
셔	4875
댓	4876
눈치	4877
약속	4878
듀얼	4879
널	4880
삼국	4881
최악	4882
마츠	4883
##럴	4884
건너	4885
춤	4886
뉴욕	4887
달라지	4888
랍	4889
에어	4890
Sh	4891
시체	4892
연계	4893
##잔	4894
⭧ᆯ수록	4895
딜러	4896
⫸에다	4897
조지	4898
은행	4899
##붙이	4900
다가	4901
뱀	4902
⭧건	4903
##머리	4904
크로스	4905
락	4906
Lo	4907
##ct	4908
테이	4909
늘리	4910
살해	4911
가볍	4912
ddd	4913
나타내	4914
유키	4915
on	4916
개편	4917
상하	4918
그라	4919
오후	4920
가져가	4921
1999	4922
프레	4923
##다르	4924
융	4925
Re	4926
붕괴	4927
배신	4928
제로	4929
틈	4930
가로	4931
대놓	4932
자격	4933
미스	4934
미야	4935
혁명	4936
자치	4937
게시	4938
매치	4939
군주	4940
부담	4941
110	4942
##ddd	4943
dddddd	4944
Sp	4945
자이	4946
컨트로	4947
게이지	4948
1998	4949
##AL	4950
해금	4951
겨울	4952
국회의원	4953
어울리	4954
견제	4955
증거	4956
##핀	4957
레이저	4958
외부	4959
최대한	4960
군인	4961
장전	4962
⭧ㅓ서	4963
교사	4964
필살기	4965
##릉	4966
##AT	4967
62	4968
출발	4969
진실	4970
⭧리	4971
제조	4972
자살	4973
핵심	4974
##PS	4975
정권	4976
##워하	4977
균	4978
어린	4979
대원	4980
웨이	4981
##륭	4982
여왕	4983
전장	4984
드물	4985
궁극	4986
미군	4987
##OR	4988
중화	4989
연방	4990
용병	4991
펠	4992
##니어	4993
마왕	4994
스프	4995
섭	4996
로켓	4997
귀엽	4998
니코	4999
아침	5000
댄스	5001
옹	5002
##VE	5003
거절	5004
충전	5005
##아리	5006
##라리	5007
룰	5008
한화	5009
타이밍	5010
출생	5011
쓰러	5012
브리	5013
봄	5014
가르치	5015
유용	5016
공산	5017
체인	5018
SS	5019
일본어	5020
##달리	5021
기분	5022
SBS	5023
미나	5024
이성	5025
##터리	5026
커뮤	5027
조준	5028
만족	5029
충돌	5030
고급	5031
도구	5032
단위	5033
취소	5034
블로	5035
##ᆨ시	5036
애매	5037
교환	5038
⭧는다고	5039
스피드	5040
부진	5041
넷	5042
⭧고서	5043
거래	5044
##ate	5045
스킨	5046
⭧쿠	5047
##사카	5048
수학	5049
흔히	5050
##ess	5051
피해자	5052
##컨	5053
극장판	5054
토스	5055
Th	5056
카르	5057
##ell	5058
61	5059
반란	5060
제주	5061
##광역시	5062
발휘	5063
세계관	5064
##킨	5065
얼음	5066
##ard	5067
무게	5068
##읍	5069
76	5070
플라	5071
오스트	5072
끼리	5073
어떻	5074
장수	5075
파악	5076
후반부	5077
##멘	5078
하트	5079
##ang	5080
단독	5081
##래도	5082
아무래도	5083
겹치	5084
인생	5085
모션	5086
레전	5087
홍콩	5088
막히	5089
패시브	5090
공통	5091
##아나	5092
##쇼	5093
##IC	5094
스파	5095
근무	5096
판타	5097
자르	5098
##ue	5099
신화	5100
비록	5101
삽	5102
격투	5103
아머	5104
한자	5105
헤드	5106
##ant	5107
##ack	5108
순수	5109
몰리	5110
##ers	5111
따위	5112
Al	5113
NP	5114
77	5115
##두르	5116
구입	5117
정령	5118
파이터	5119
##ine	5120
88	5121
공군	5122
1997	5123
##다수	5124
운전	5125
72	5126
등등	5127
혼란	5128
아메	5129
쿼	5130
계급	5131
자식	5132
가입	5133
수입	5134
##하라	5135
스코어	5136
닥터	5137
##심히	5138
빔	5139
내주	5140
회수	5141
##어내	5142
권력	5143
⭧자고	5144
경력	5145
본부	5146
핀	5147
채용	5148
지시	5149
##세이	5150
공작	5151
근거	5152
마이크	5153
커버	5154
탄생	5155
생일	5156
밸런스	5157
해방	5158
비율	5159
엑스	5160
필리	5161
누리	5162
피아	5163
##흑	5164
외치	5165
쪼	5166
기절	5167
남부	5168
우려	5169
##촉	5170
건강	5171
지하철	5172
언니	5173
##웨이	5174
용도	5175
꾸준히	5176
##가락	5177
프라	5178
병기	5179
갓	5180
표준	5181
갤러리	5182
BG	5183
⭧ㅕ서	5184
##헨	5185
타워	5186
실질	5187
돌격	5188
지대	5189
##ok	5190
##OS	5191
납치	5192
증명	5193
좁	5194
협회	5195
반영	5196
홍보	5197
지급	5198
##피아	5199
무너지	5200
##둑	5201
스테	5202
아사	5203
대공	5204
강조	5205
입학	5206
##밀리	5207
be	5208
오오	5209
업체	5210
##멀	5211
불안	5212
##렛	5213
랜덤	5214
373	5215
FI	5216
윙	5217
유형	5218
왕자	5219
외교	5220
요원	5221
##디션	5222
경영	5223
or	5224
덴	5225
온가	5226
##유키	5227
대륙	5228
감염	5229
경향	5230
쏟	5231
98	5232
fff	5233
온갖	5234
훌륭	5235
광역	5236
감사	5237
CD	5238
gt	5239
연대	5240
##솔	5241
노르	5242
⭧아라	5243
마녀	5244
실행	5245
맡기	5246
장식	5247
트라	5248
문학	5249
##ive	5250
패러디	5251
페이스	5252
젠	5253
울트라	5254
기독	5255
서포	5256
덮	5257
찌르	5258
물질	5259
600	5260
원수	5261
주어지	5262
없애	5263
스펙	5264
내놓	5265
입단	5266
재생	5267
##오리	5268
가까이	5269
##크래프트	5270
##젠	5271
스페셜	5272
화살	5273
추진	5274
주년	5275
어차	5276
찾아가	5277
집안	5278
고민	5279
내내	5280
설득	5281
대다수	5282
계승	5283
1996	5284
선배	5285
승강장	5286
살짝	5287
사카	5288
어차피	5289
부문	5290
폐지	5291
##ast	5292
캐나다	5293
##고기	5294
PS	5295
고기	5296
##AS	5297
영원	5298
정지	5299
대놓고	5300
와이	5301
이슬	5302
##들리	5303
신문	5304
##피스	5305
##어리	5306
베트	5307
1995	5308
밟	5309
보물	5310
낭	5311
적당	5312
##메달	5313
킥	5314
아나	5315
오류	5316
신뢰	5317
사전	5318
##바로	5319
아리	5320
파라	5321
##멍	5322
이렇	5323
연예	5324
지우	5325
작사	5326
즉시	5327
⭧ㅓ야	5328
기기	5329
흘리	5330
##즈키	5331
##uby	5332
",	5333
전선	5334
당황	5335
##ED	5336
미소	5337
내려오	5338
##렐	5339
함선	5340
괴롭	5341
##tt	5342
##휴	5343
아야	5344
##다지	5345
68	5346
뒤집	5347
페이지	5348
##ee	5349
폭풍	5350
브라질	5351
등판	5352
은근	5353
쇠	5354
모리	5355
lt	5356
800	5357
소문	5358
짝	5359
탑승	5360
명예	5361
헤이	5362
오픈	5363
열심히	5364
상품	5365
화장	5366
입수	5367
레전드	5368
오프닝	5369
⭧군	5370
##렘	5371
별도	5372
갑옷	5373
경유	5374
심리	5375
러브	5376
시행	5377
파리	5378
경기장	5379
령	5380
단일	5381
63	5382
말리	5383
메탈	5384
의회	5385
##렴	5386
1980	5387
변호	5388
##팩	5389
라스	5390
통제	5391
마련	5392
늑	5393
##아먹	5394
랩	5395
##카와	5396
틱	5397
공유	5398
댓글	5399
반격	5400
##ong	5401
##AM	5402
ruby	5403
운명	5404
가면라이더	5405
정류	5406
푸르	5407
응원	5408
##세우	5409
크루	5410
캔	5411
레오	5412
후쿠	5413
한때	5414
커뮤니티	5415
신청	5416
쓰레	5417
트위터	5418
격파	5419
라이벌	5420
사령관	5421
랜드	5422
##ort	5423
김성	5424
주전	5425
갤	5426
고전	5427
기독교	5428
출판	5429
공기	5430
##납	5431
습득	5432
이승	5433
##웨어	5434
컨트롤	5435
중계	5436
깃	5437
편의	5438
퀄	5439
##ith	5440
하수	5441
수업	5442
심장	5443
오해	5444
처하	5445
불만	5446
신고	5447
마인	5448
마주	5449
두산	5450
울산	5451
71	5452
##if	5453
74	5454
관객	5455
전라	5456
외국인	5457
##ᆮ히	5458
카나	5459
정말로	5460
보정	5461
주위	5462
##ly	5463
##로우	5464
스트라이	5465
##나무	5466
##fff	5467
건축	5468
##아버지	5469
출장	5470
....	5471
용어	5472
MV	5473
##ld	5474
그곳	5475
전달	5476
닿	5477
73	5478
여론	5479
67	5480
메이저	5481
아트	5482
ffffff	5483
민간	5484
사운드	5485
짜리	5486
절반	5487
조치	5488
묵	5489
가리키	5490
##티컬	5491
고치	5492
지형	5493
가토	5494
갈등	5495
여신	5496
##딘	5497
##도우	5498
붙잡	5499
임시	5500
무적	5501
##학자	5502
재능	5503
챠	5504
가득	5505
##드라	5506
요새	5507
전함	5508
아오	5509
전공	5510
##겨나	5511
둥	5512
압박	5513
NC	5514
##랜	5515
##ain	5516
리버	5517
별개	5518
엔터	5519
초월	5520
##ist	5521
96	5522
카라	5523
알렉	5524
쌓이	5525
종점	5526
연구소	5527
오로	5528
네이버	5529
##묵	5530
##쥐	5531
스튜	5532
니시	5533
##타인	5534
1994	5535
##ind	5536
북쪽	5537
전형	5538
추적	5539
팝	5540
메가	5541
TH	5542
그다지	5543
메타	5544
시각	5545
##돌리	5546
180	5547
탁	5548
컨텐츠	5549
안드로	5550
남쪽	5551
제하	5552
지ᄏ	5553
무르	5554
가이	5555
늑대	5556
보장	5557
발매되	5558
써	5559
AC	5560
돌진	5561
시야	5562
소멸	5563
##서트	5564
판타지	5565
81	5566
AT	5567
##ᆷ프	5568
결승전	5569
전시	5570
널리	5571
클라	5572
타점	5573
다행히	5574
파이어	5575
일부러	5576
무지	5577
⫸하	5578
##럿	5579
##per	5580
##렁	5581
동기	5582
불꽃	5583
그만큼	5584
##가와	5585
따오	5586
동네	5587
환자	5588
##듀서	5589
프로듀서	5590
##ps	5591
강원	5592
##지컬	5593
##EN	5594
서부	5595
쉐	5596
여동생	5597
문제점	5598
흔하	5599
적히	5600
화려	5601
화이트	5602
##츠키	5603
쓰러뜨리	5604
그림자	5605
선호	5606
왕조	5607
동원	5608
이마	5609
폭력	5610
##놈	5611
상향	5612
아티	5613
우스	5614
지켜보	5615
파이널	5616
회원	5617
대만	5618
##깝	5619
뛰어	5620
본명	5621
치명타	5622
신라	5623
유비	5624
유로	5625
북부	5626
맞서	5627
물러	5628
##EC	5629
소드	5630
⭧자는	5631
##툰	5632
릭	5633
78	5634
##식간	5635
91	5636
##ᆯ릭	5637
맘	5638
##OL	5639
##콤	5640
##스탄	5641
수요	5642
순식간	5643
연상	5644
무난	5645
종이	5646
곰	5647
##ew	5648
도서관	5649
##ᅫ지	5650
##어스	5651
신세	5652
테스트	5653
향상	5654
아시	5655
전역	5656
메시	5657
매력	5658
클로	5659
학과	5660
차트	5661
전적	5662
##더스	5663
틀리	5664
변형	5665
##캐	5666
최상	5667
헨	5668
전방	5669
부품	5670
##팡	5671
지르	5672
84	5673
CP	5674
체포	5675
영토	5676
성과	5677
일상	5678
수집	5679
크리티컬	5680
암흑	5681
전투력	5682
시드	5683
게이트	5684
##사키	5685
코믹스	5686
아우	5687
키스	5688
팅	5689
영업	5690
##LC	5691
킬	5692
##ᆷ치	5693
마술	5694
##따	5695
me	5696
인수	5697
토모	5698
##ry	5699
수용	5700
조절	5701
저런	5702
파견	5703
드디어	5704
오랜	5705
폭격	5706
복잡	5707
학살	5708
유전	5709
복장	5710
##려움	5711
오빠	5712
82	5713
바라보	5714
대우	5715
떡밥	5716
##lo	5717
입력	5718
구현	5719
편지	5720
##껏	5721
##융	5722
개통	5723
생명력	5724
호환	5725
현지	5726
97	5727
추락	5728
키리	5729
신인	5730
사자	5731
천사	5732
도달	5733
아무런	5734
고향	5735
콜라	5736
동부	5737
닌자	5738
사토	5739
##덜란드	5740
네덜란드	5741
청년	5742
86	5743
##찾	5744
창작	5745
반지	5746
아가	5747
경비	5748
점차	5749
밴	5750
작동	5751
맞이	5752
콘서트	5753
연관	5754
프레임	5755
교황	5756
엘프	5757
##일랜드	5758
##브리	5759
한국인	5760
쓰레기	5761
수송	5762
출현	5763
노예	5764
그치	5765
스톤	5766
기초	5767
바이오	5768
##레나	5769
낚	5770
짱	5771
모바	5772
덧	5773
추격	5774
⭧단	5775
해설	5776
it	5777
해체	5778
69	5779
객	5780
##퍼스	5781
##시피	5782
⭧다시피	5783
몰래	5784
달하	5785
토리	5786
##어버리	5787
조용	5788
구도	5789
충청	5790
묶	5791
의상	5792
##노스	5793
심판	5794
간격	5795
공급	5796
녹음	5797
나루	5798
##오카	5799
is	5800
주먹	5801
아무것	5802
##히로	5803
식물	5804
막장	5805
시위	5806
조성	5807
NPC	5808
##ᆷ새	5809
프리미	5810
전투기	5811
조조	5812
사쿠라	5813
##오프	5814
##IT	5815
제자	5816
퀸	5817
연사	5818
둘러	5819
##둥이	5820
돌아다니	5821
수술	5822
무효	5823
썰	5824
스마트	5825
연애	5826
검색	5827
슬롯	5828
⭧잖	5829
실드	5830
만든	5831
마스	5832
감시	5833
##타로	5834
스카이	5835
레스	5836
US	5837
그래픽	5838
일제	5839
블록	5840
꼬리	5841
법원	5842
##스트라	5843
동쪽	5844
##특별	5845
찰	5846
마리오	5847
⫸께	5848
경험치	5849
구체	5850
MS	5851
고교	5852
룬	5853
옛날	5854
놓치	5855
까다	5856
알아	5857
An	5858
통상	5859
총기	5860
김정	5861
뼈	5862
##보내	5863
범인	5864
##ᅦ이터	5865
룡	5866
탱크	5867
##티나	5868
구속	5869
긍	5870
베트남	5871
라이더	5872
##글랜드	5873
##모로	5874
진지	5875
##ust	5876
켈	5877
마리아	5878
신분	5879
대립	5880
신규	5881
장교	5882
은하	5883
연락	5884
카미	5885
어깨	5886
국립	5887
예외	5888
쿠키	5889
앵	5890
250	5891
##주시	5892
KT	5893
토크	5894
강의	5895
##어도	5896
##칠	5897
인근	5898
춘	5899
입구	5900
지도자	5901
신성	5902
뷰	5903
다섯	5904
차단	5905
규칙	5906
글자	5907
##50	5908
##니까	5909
되찾	5910
불편	5911
대대	5912
##뜩	5913
메카	5914
디아	5915
마도	5916
평타	5917
프린	5918
창조	5919
요정	5920
언제나	5921
바보	5922
박살	5923
코인	5924
안습	5925
총선	5926
##ᆼ이	5927
유희	5928
모바일	5929
동작	5930
##헤	5931
##도로	5932
토론	5933
후기	5934
##비전	5935
##홀	5936
여러모로	5937
에드	5938
환상	5939
아크	5940
189	5941
거짓말	5942
##디아	5943
노출	5944
기여	5945
의료	5946
##파이어	5947
권총	5948
세월	5949
소총	5950
접하	5951
이래	5952
##자키	5953
이리	5954
이득	5955
농구	5956
어택	5957
일원	5958
자이언	5959
무료	5960
신호	5961
블레이드	5962
202	5963
서쪽	5964
가시	5965
##영상	5966
이날	5967
1992	5968
##버트	5969
부위	5970
##크스	5971
굽	5972
출처	5973
정복	5974
개혁	5975
음성	5976
미술	5977
폭주	5978
그르	5979
극단	5980
잠수	5981
고생	5982
##깔	5983
띄우	5984
92	5985
##옹	5986
헌터	5987
##BO	5988
##ore	5989
##ᅢᆼ이	5990
##저히	5991
간부	5992
겉	5993
Ar	5994
##ᆯ레	5995
참전	5996
반발	5997
전직	5998
교전	5999
고용	6000
투어	6001
대체로	6002
양산	6003
일자	6004
플로	6005
보석	6006
고문	6007
폴란드	6008
대량	6009
연도	6010
상점	6011
83	6012
렙	6013
글로	6014
라이프	6015
제법	6016
호평	6017
상상	6018
##리티	6019
제어	6020
사마	6021
동영상	6022
길이	6023
수영	6024
마루	6025
정류장	6026
승격	6027
전대	6028
Te	6029
##보드	6030
출력	6031
⭧랄	6032
겐	6033
사양	6034
합격	6035
89	6036
기습	6037
⭧잖아	6038
휘두르	6039
터치	6040
##FF	6041
101	6042
제이	6043
93	6044
1993	6045
공학	6046
##룩	6047
잉글랜드	6048
반하	6049
지휘관	6050
북미	6051
De	6052
MAX	6053
제작진	6054
태우	6055
기병	6056
윌리	6057
촌	6058
득표	6059
⫸하고	6060
중대	6061
94	6062
요괴	6063
앱	6064
합성	6065
미디어	6066
⫸이랑	6067
깎	6068
다이아	6069
머신	6070
환승	6071
인증	6072
##륜	6073
##다이	6074
⫸링	6075
법률	6076
com	6077
79	6078
끼치	6079
적어도	6080
탄약	6081
조심	6082
가량	6083
박근	6084
##일드	6085
런던	6086
실리	6087
회차	6088
구출	6089
매니	6090
요즘	6091
탱커	6092
##FC	6093
파일럿	6094
의혹	6095
##ᆨ시코	6096
원소	6097
띠	6098
re	6099
활성	6100
사이드	6101
동방	6102
샘	6103
유령	6104
포탑	6105
하수인	6106
노멀	6107
삼진	6108
침공	6109
⭧다면서	6110
분기	6111
##덩	6112
87	6113
디지털	6114
마이클	6115
의무	6116
믹	6117
이재	6118
##란색	6119
톱	6120
개정	6121
서양	6122
멋지	6123
알파	6124
가톨릭	6125
묘지	6126
인공	6127
##ᆫ지	6128
칼리	6129
##우드	6130
홀로	6131
볼넷	6132
훔치	6133
이슬람	6134
똑같이	6135
네임	6136
첨	6137
가속	6138
결성	6139
##one	6140
예비	6141
메인	6142
대략	6143
스웨	6144
학자	6145
On	6146
가게	6147
이자	6148
히데	6149
블러	6150
패널	6151
##쩡	6152
경고	6153
이시	6154
레인저	6155
계정	6156
⫸란	6157
##폼	6158
##se	6159
축제	6160
##ip	6161
쾌	6162
헌법	6163
소화	6164
전면	6165
이내	6166
캐스	6167
아일랜드	6168
##둔	6169
##AC	6170
부부	6171
AI	6172
DJ	6173
특화	6174
겁	6175
##RE	6176
익숙	6177
용사	6178
상호	6179
나아가	6180
횡	6181
⫸같	6182
⫸같이	6183
미츠	6184
⭧었었	6185
갤럭	6186
##ere	6187
##먼트	6188
문장	6189
루시	6190
바이러스	6191
메모리	6192
도망가	6193
어지	6194
워치	6195
블리	6196
근육	6197
대항	6198
불법	6199
넘치	6200
##PG	6201
##닫	6202
어째	6203
슈트	6204
BGM	6205
MC	6206
슛	6207
핸드	6208
플레이오프	6209
베스트	6210
어둡	6211
오가	6212
SN	6213
자매	6214
유행	6215
묻히	6216
한방	6217
개체	6218
##ity	6219
켜	6220
도발	6221
⭧냐며	6222
타케	6223
어린이	6224
##붕	6225
들어서	6226
##ath	6227
⭧드	6228
김영	6229
##녁	6230
핫	6231
##창기	6232
고지	6233
보안	6234
쿠로	6235
육성	6236
##넣	6237
##조리	6238
예측	6239
빛나	6240
예고	6241
신기	6242
이즈	6243
소닉	6244
빗	6245
제임	6246
자금	6247
갤럭시	6248
총리	6249
⭧으니까	6250
##컷	6251
검찰	6252
##ᆯ리아	6253
취임	6254
멕시코	6255
형사	6256
FIFA	6257
터키	6258
정면	6259
⭧려다	6260
결론	6261
사제	6262
길드	6263
##end	6264
리스트	6265
국방	6266
웬만	6267
차리	6268
스톰	6269
고백	6270
1991	6271
대리	6272
##끄럽	6273
루타	6274
캐리	6275
파크	6276
구멍	6277
식사	6278
움직임	6279
불러	6280
마구	6281
일시	6282
아기	6283
##ᆸ스	6284
레이스	6285
리치	6286
세이브	6287
스미	6288
호텔	6289
곧바로	6290
##컴	6291
상업	6292
앞두	6293
이명	6294
감옥	6295
여유	6296
!!	6297
##펙트	6298
저장	6299
번개	6300
절망	6301
제임스	6302
찾아보	6303
개방	6304
부서	6305
진심	6306
원자	6307
##끔	6308
##워크	6309
투구	6310
사이즈	6311
구원	6312
##라이트	6313
대가	6314
유대	6315
볼트	6316
초창기	6317
플랫	6318
세르	6319
THE	6320
700	6321
타마	6322
FA	6323
##고리	6324
피부	6325
너무나	6326
바위	6327
배차	6328
##요시	6329
박정	6330
듯이	6331
청소년	6332
오랫	6333
팀원	6334
흥행	6335
강철	6336
⭧ㅕㅆ	6337
럭	6338
바치	6339
카타	6340
리ᄆ	6341
콜로	6342
착각	6343
좌우	6344
##특별시	6345
전철	6346
여지	6347
1988	6348
##구리	6349
파트너	6350
발달	6351
세포	6352
리메이크	6353
MVP	6354
소형	6355
##페인	6356
아끼	6357
처벌	6358
그동안	6359
서울특별시	6360
떠오르	6361
현역	6362
다스	6363
레이드	6364
##로나	6365
신설	6366
둔	6367
긍정	6368
아빠	6369
##쾌	6370
주식	6371
융합	6372
##레이터	6373
##데스	6374
##네스	6375
훗	6376
주간	6377
망치	6378
외계	6379
분량	6380
차라리	6381
프라이	6382
정착	6383
Ro	6384
위장	6385
물러나	6386
잦	6387
미카	6388
##OT	6389
인정받	6390
돼지	6391
반사	6392
챕터	6393
합의	6394
##디언	6395
식민	6396
##멜	6397
랭킹	6398
내성	6399
⭧거	6400
##성기	6401
봇	6402
목격	6403
인연	6404
누적	6405
커지	6406
협박	6407
전문가	6408
내장	6409
장악	6410
단장	6411
게스트	6412
의뢰	6413
화학	6414
빌드	6415
알레	6416
보고	6417
CC	6418
방지	6419
⫸에서부터	6420
카스	6421
포스트	6422
##ᆨ터	6423
곁	6424
야스	6425
브레이크	6426
섞	6427
잡지	6428
박근혜	6429
Wh	6430
해병	6431
영향력	6432
공지	6433
논리	6434
방출	6435
안드로이드	6436
동의	6437
태그	6438
쟈	6439
국왕	6440
사우	6441
방사	6442
⭧는다면	6443
AK	6444
##삭	6445
시즈	6446
깨지	6447
타이거	6448
먹히	6449
조약	6450
포트	6451
뭉	6452
각자	6453
그대	6454
꺾	6455
몰아	6456
떠올리	6457
요코	6458
배트	6459
한번	6460
룸	6461
괴롭히	6462
관할	6463
저녁	6464
지능	6465
펴	6466
##ect	6467
DLC	6468
골든	6469
하필	6470
국군	6471
칭하	6472
htt	6473
⭧라면서	6474
대폭	6475
Se	6476
1970	6477
##롤	6478
흠	6479
의존	6480
최소한	6481
양쪽	6482
놀이	6483
멍	6484
⭧으려고	6485
호주	6486
손가락	6487
토르	6488
Le	6489
악역	6490
마침내	6491
##든지	6492
스턴	6493
동화	6494
연맹	6495
과목	6496
변호사	6497
대지	6498
⭧어다	6499
실버	6500
공무원	6501
유치	6502
'.	6503
##릭스	6504
삐	6505
후속작	6506
막차	6507
기구	6508
수련	6509
수수	6510
본작	6511
그럼	6512
무역	6513
소지	6514
섞이	6515
He	6516
면역	6517
보관	6518
소원	6519
오랫동안	6520
무덤	6521
PD	6522
빡	6523
##톱	6524
##age	6525
오사카	6526
웹툰	6527
주말	6528
역임	6529
오카	6530
##IS	6531
귀신	6532
육체	6533
연인	6534
스리	6535
이지	6536
기원전	6537
al	6538
혐의	6539
스튜디오	6540
썩	6541
내구	6542
명중률	6543
확대	6544
재산	6545
카오스	6546
접촉	6547
⫸레	6548
호감	6549
어쨌	6550
불교	6551
노부	6552
다가오	6553
적대	6554
델	6555
##구치	6556
네트	6557
왼	6558
kt	6559
##잡이	6560
대처	6561
윌	6562
샌	6563
깜	6564
메리	6565
명성	6566
팔리	6567
써먹	6568
강남	6569
태평	6570
계단	6571
올해	6572
전후	6573
비행기	6574
Go	6575
연료	6576
예능	6577
정비	6578
Me	6579
출마	6580
통치	6581
씌	6582
간혹	6583
슈팅	6584
험	6585
테일	6586
오늘날	6587
딘	6588
합체	6589
트레이드	6590
피스	6591
화제	6592
로즈	6593
컬러	6594
모모	6595
예쁘	6596
정치인	6597
마키	6598
부장	6599
정원	6600
섀	6601
퀄리티	6602
흐름	6603
개성	6604
츄	6605
⭧ᆫ다며	6606
소장	6607
리드	6608
시마	6609
안내	6610
놀랍	6611
학부	6612
오전	6613
게시판	6614
소스	6615
뺏	6616
GT	6617
놓이	6618
준수	6619
휴대	6620
접속	6621
저그	6622
수익	6623
권리	6624
1989	6625
떨어	6626
KIA	6627
권한	6628
빚	6629
특집	6630
패하	6631
연극	6632
하우스	6633
##og	6634
외형	6635
금융	6636
##ake	6637
##ide	6638
##ᆷ없	6639
##어나오	6640
박물	6641
크라	6642
선전	6643
김태	6644
오른	6645
새벽	6646
##오르	6647
허리	6648
고마	6649
상당수	6650
윌리엄	6651
톰	6652
##OM	6653
Be	6654
피격	6655
이집	6656
My	6657
초간	6658
이집트	6659
주기	6660
WW	6661
무렵	6662
따라가	6663
공공	6664
##미야	6665
뻐	6666
##흡	6667
##바라	6668
담기	6669
##ᅦ인트	6670
환영	6671
편곡	6672
페이즈	6673
일기	6674
130	6675
최다	6676
둘째	6677
시계	6678
금속	6679
포르투	6680
갇히	6681
꼽히	6682
##윈	6683
알아보	6684
##려주	6685
나치	6686
넉	6687
AR	6688
메르	6689
##ss	6690
고구	6691
원칙	6692
결합	6693
SC	6694
##ark	6695
##넬	6696
누나	6697
림	6698
##ime	6699
숭	6700
깨닫	6701
연타	6702
##ire	6703
알렉산	6704
할아버지	6705
치우	6706
SM	6707
편입	6708
식당	6709
리얼	6710
##지마	6711
유물	6712
굴리	6713
개입	6714
한동안	6715
문재	6716
캠퍼스	6717
흘	6718
기도	6719
인조	6720
매직	6721
##세스	6722
뜬	6723
어른	6724
렛	6725
웅	6726
지진	6727
주사	6728
거인	6729
188	6730
전신	6731
⭧으러	6732
소중	6733
아니면	6734
극복	6735
wh	6736
116	6737
블로그	6738
전진	6739
시선	6740
성립	6741
영문	6742
##듭	6743
my	6744
Su	6745
##ES	6746
정찰	6747
##티아	6748
사도	6749
은근히	6750
회상	6751
헤비	6752
정글	6753
딩	6754
아바	6755
그로	6756
기사단	6757
SD	6758
협상	6759
⭧ㅓ도	6760
캐스팅	6761
메뉴	6762
첼	6763
궤도	6764
뜯	6765
스웨덴	6766
##ID	6767
##그마	6768
시내버스	6769
팬덤	6770
##셰	6771
Tr	6772
음원	6773
부디	6774
유이	6775
⭧는지라	6776
대개	6777
작곡가	6778
손해	6779
데모	6780
##ite	6781
익히	6782
대충	6783
튀어나오	6784
##던가	6785
독특	6786
재단	6787
수십	6788
동굴	6789
##다랗	6790
우위	6791
##칼	6792
더더	6793
별다르	6794
##아시아	6795
안티	6796
복무	6797
무겁	6798
보라	6799
고수	6800
민주주의	6801
용기	6802
##부르크	6803
식량	6804
털리	6805
트럭	6806
160	6807
젤	6808
교차	6809
리아	6810
종목	6811
이익	6812
해안	6813
##회사	6814
처형	6815
##맨드	6816
##ound	6817
조언	6818
아이스	6819
일찍	6820
뱅	6821
멀쩡	6822
SR	6823
클래식	6824
과제	6825
이끄	6826
리듬	6827
세이버	6828
위상	6829
##iv	6830
원본	6831
더더욱	6832
##가시	6833
HD	6834
''	6835
커맨드	6836
펀치	6837
신비	6838
커스	6839
##라드	6840
김민	6841
빼앗기	6842
타인	6843
박물관	6844
까다롭	6845
플라이	6846
##미니	6847
##베르	6848
힙	6849
신부	6850
##리그	6851
⭧든지	6852
##가미	6853
##iz	6854
##OP	6855
삼국지	6856
##쳐지	6857
훗날	6858
##ge	6859
##마디	6860
증언	6861
해적	6862
머무	6863
천재	6864
날짜	6865
허나	6866
절대로	6867
갈수	6868
적군	6869
IC	6870
자국	6871
꽂	6872
마비	6873
일격	6874
살아가	6875
신앙	6876
위원장	6877
구사	6878
##가리	6879
##OW	6880
갈수록	6881
⭧구나	6882
##스턴	6883
노인	6884
재미있	6885
바리	6886
각본	6887
무릎	6888
코우	6889
중독	6890
하얗	6891
##큐어	6892
기적	6893
재정	6894
죄다	6895
킨	6896
세종	6897
주포	6898
집행	6899
양성	6900
스승	6901
멘탈	6902
철학	6903
⫸요	6904
하락	6905
우라	6906
참석	6907
마이너	6908
지위	6909
##바르	6910
캠페인	6911
과연	6912
비례	6913
고리	6914
정수	6915
개시	6916
호수	6917
예산	6918
결코	6919
모자라	6920
국적	6921
적응	6922
패션	6923
호위	6924
교류	6925
관중	6926
작화	6927
크리스마스	6928
한참	6929
##리스트	6930
탄창	6931
깡	6932
매체	6933
##팀	6934
이브	6935
이중	6936
##덩이	6937
##스키	6938
##LL	6939
열쇠	6940
##프레	6941
안경	6942
히메	6943
##ome	6944
활발	6945
시아	6946
데이비	6947
경기력	6948
Gr	6949
##갛	6950
##쩍	6951
펫	6952
내세우	6953
원주	6954
선출	6955
투명	6956
십자	6957
드레	6958
##테르	6959
툴	6960
해상	6961
바퀴	6962
with	6963
냥	6964
우연히	6965
김종	6966
루수	6967
체크	6968
##BA	6969
희귀	6970
##지로	6971
명단	6972
비추	6973
녹색	6974
##UN	6975
충성	6976
화성	6977
진보	6978
곽	6979
미안	6980
스타크래프트	6981
왈	6982
데려오	6983
##슬리	6984
새기	6985
이영	6986
칭찬	6987
개수	6988
사막	6989
개막	6990
렉	6991
첫차	6992
주일	6993
로그	6994
##아웃	6995
결말	6996
IS	6997
위대	6998
행적	6999
헝	7000
전성기	7001
##겐	7002
##몬드	7003
##든가	7004
모래	7005
제정	7006
당일	7007
의대	7008
기르	7009
인지도	7010
흔적	7011
1987	7012
상급	7013
기종	7014
챌린	7015
흔들리	7016
후방	7017
업적	7018
오스트리아	7019
de	7020
미터	7021
강점	7022
BE	7023
px	7024
임대	7025
상성	7026
140	7027
농담	7028
어지간	7029
김동	7030
포로	7031
웃음	7032
사유	7033
계통	7034
⭧겟	7035
##핵	7036
대수	7037
⭧느라	7038
도우	7039
##MA	7040
Pr	7041
버스터	7042
재현	7043
대학원	7044
취미	7045
면적	7046
무작	7047
매년	7048
##ord	7049
스프링	7050
어쨌든	7051
Love	7052
비상	7053
오직	7054
토끼	7055
어려움	7056
체육관	7057
클릭	7058
⭧더라	7059
해리	7060
심사	7061
##ud	7062
일반인	7063
포항	7064
펑	7065
고스트	7066
피니	7067
개량	7068
사후	7069
신장	7070
거점	7071
프리큐어	7072
생존자	7073
헛	7074
유적	7075
이정	7076
##값	7077
남북	7078
어마	7079
강도	7080
기아	7081
자책	7082
과장	7083
새끼	7084
ch	7085
본체	7086
모조리	7087
##양함	7088
자본	7089
자극	7090
괴수	7091
⭧으시	7092
##려나	7093
예수	7094
⭧에	7095
이주	7096
##코드	7097
가을	7098
##mp	7099
부지	7100
사라	7101
##케이	7102
파츠	7103
##사자	7104
화물	7105
##데미	7106
울리	7107
카트	7108
##10	7109
부작	7110
로우	7111
맥스	7112
저작	7113
전멸	7114
돋	7115
스탠	7116
##일러	7117
##ame	7118
##나미	7119
람	7120
기용	7121
소위	7122
UE	7123
어스	7124
선고	7125
##ance	7126
아메리카	7127
캡틴	7128
시달리	7129
연금	7130
추구	7131
기울	7132
아티스트	7133
SKT	7134
##ax	7135
##카드	7136
미라	7137
구리	7138
인격	7139
흥미	7140
에리	7141
자세히	7142
an	7143
##치기	7144
가짜	7145
출입	7146
행하	7147
판매량	7148
##ᆼ기	7149
JR	7150
공세	7151
##ure	7152
아카데미	7153
뮈	7154
유나이	7155
유니폼	7156
불타	7157
##ix	7158
기ᄈ	7159
900	7160
일치	7161
차기	7162
GS	7163
승점	7164
채택	7165
포격	7166
브루	7167
##뜻	7168
공룡	7169
일방	7170
단편	7171
유나이티	7172
취향	7173
아미	7174
##ick	7175
소송	7176
##mer	7177
스마트폰	7178
도주	7179
포드	7180
덧붙이	7181
탈퇴	7182
코코	7183
부자	7184
일본인	7185
##ice	7186
막대	7187
사형	7188
스트리	7189
며	7190
연패	7191
할머니	7192
기량	7193
잘리	7194
색깔	7195
타율	7196
칩	7197
피아노	7198
##ᅡᇀ	7199
바깥	7200
귀찮	7201
##our	7202
제작자	7203
한마디	7204
##긋	7205
Bo	7206
유통	7207
건조	7208
노벨	7209
코리아	7210
상실	7211
아즈	7212
타선	7213
화장실	7214
드라이브	7215
⭧런	7216
구경	7217
후계	7218
생겨나	7219
영구	7220
치유	7221
집어	7222
##이즈	7223
을	7224
라이온	7225
마린	7226
몽골	7227
측정	7228
EP	7229
닭	7230
식민지	7231
##아다니	7232
내지	7233
비주	7234
미루	7235
요금	7236
햄	7237
##시로	7238
##맛	7239
자전	7240
보존	7241
1986	7242
거듭	7243
로고	7244
##시타	7245
날아오	7246
##공화국	7247
##랭크	7248
선택지	7249
무라	7250
트레	7251
쌍둥이	7252
어드	7253
클레	7254
초코	7255
잠재	7256
1960	7257
아이콘	7258
OST	7259
##가스	7260
상인	7261
무방	7262
커피	7263
레디	7264
##켄	7265
찢	7266
빨갛	7267
사신	7268
##랑이	7269
쵸	7270
훼	7271
강요	7272
##코토	7273
레이더	7274
메시지	7275
인민공화국	7276
KO	7277
##{{	7278
Un	7279
간신	7280
언스	7281
초보	7282
이민	7283
##고속	7284
이슈	7285
통산	7286
팽	7287
가요	7288
동력	7289
가상	7290
릴	7291
박히	7292
Ex	7293
##얄	7294
포수	7295
가루	7296
신사	7297
도끼	7298
넥센	7299
조연	7300
색상	7301
등지	7302
피터	7303
다치	7304
데드	7305
##AD	7306
캐논	7307
명확	7308
오타	7309
##듈	7310
몰락	7311
##멘트	7312
연승	7313
##qu	7314
주택	7315
화재	7316
사원	7317
여객	7318
루카	7319
교장	7320
네트워크	7321
그러니	7322
주소	7323
조이	7324
타락	7325
곡명	7326
귀환	7327
##oc	7328
냄새	7329
안타깝	7330
{{{	7331
외전	7332
즐겁	7333
콜라보	7334
구르	7335
##반도	7336
유희왕	7337
모토	7338
나포	7339
터뜨리	7340
제갈	7341
실망	7342
판결	7343
##80	7344
##시스트	7345
남녀	7346
아서	7347
칭호	7348
##카리	7349
GB	7350
대선	7351
찾아내	7352
담배	7353
경로	7354
##ᆫ색	7355
수장	7356
둘러싸	7357
UEFA	7358
항공기	7359
펄	7360
이터	7361
스페이스	7362
광역시	7363
핏	7364
⭧슈	7365
위반	7366
레알	7367
깔끔	7368
매니저	7369
비치	7370
포르투갈	7371
DS	7372
고구려	7373
타수	7374
연합군	7375
186	7376
##own	7377
sh	7378
##ys	7379
베네	7380
반동	7381
##나카	7382
아마도	7383
라인업	7384
순환	7385
CPU	7386
##노우	7387
혐오	7388
교실	7389
영주	7390
##스틱	7391
##럼프	7392
그만두	7393
소라	7394
항복	7395
법인	7396
⭧ᄇ시	7397
백성	7398
이탈	7399
너희	7400
관찰	7401
복지	7402
뿔	7403
타운	7404
잠수함	7405
##ber	7406
미스터	7407
단단	7408
힌	7409
비서	7410
주역	7411
주자	7412
##블리	7413
적합	7414
캠프	7415
스터	7416
배터리	7417
쟁	7418
낚시	7419
매장	7420
수류	7421
시노	7422
거미	7423
익스	7424
We	7425
스와	7426
##프리	7427
관람	7428
붓	7429
AM	7430
커다랗	7431
예시	7432
유효	7433
강원도	7434
벼	7435
커리어	7436
드래프트	7437
##괄	7438
##섬	7439
싱크	7440
##저스	7441
흘러	7442
히어로즈	7443
105	7444
끊기	7445
공성	7446
카츠	7447
공업	7448
##av	7449
아쿠	7450
##OC	7451
트라이	7452
흑인	7453
하단	7454
인치	7455
고도	7456
유학	7457
벌레	7458
##쌍	7459
이스라	7460
승객	7461
고개	7462
##old	7463
##데이	7464
예언	7465
용량	7466
##정부	7467
김재	7468
동성	7469
.."	7470
고작	7471
본사	7472
##땅	7473
상단	7474
승률	7475
국경	7476
##일보	7477
추억	7478
소프트웨어	7479
CF	7480
면모	7481
천만	7482
마약	7483
포위	7484
튕기	7485
휴식	7486
서구	7487
티켓	7488
##랭	7489
꾸미	7490
관측	7491
LI	7492
철수	7493
수출	7494
일대	7495
그러니까	7496
첩	7497
##orld	7498
웬	7499
도적	7500
곤란	7501
중립	7502
자폭	7503
카운트	7504
생략	7505
스텔	7506
개국	7507
표지	7508
적당히	7509
##로디	7510
수류탄	7511
터널	7512
상술	7513
립	7514
##곱	7515
턱	7516
변환	7517
음모	7518
오크	7519
조별	7520
클랜	7521
인디	7522
마드리	7523
기생	7524
좌석	7525
허가	7526
합병	7527
다름없	7528
추종	7529
##위대	7530
형상	7531
윗	7532
고맙	7533
소대	7534
대인	7535
곱	7536
사이버	7537
실전	7538
##늬	7539
치루	7540
정기	7541
후술	7542
아랍	7543
문구	7544
김대	7545
내전	7546
마드리드	7547
통계	7548
1984	7549
디스크	7550
더럽	7551
보험	7552
인종	7553
차이점	7554
메달	7555
마디	7556
펌	7557
##머스	7558
##김	7559
##ont	7560
1985	7561
글로벌	7562
연예인	7563
최신	7564
근본	7565
복구	7566
엿	7567
##려들	7568
지경	7569
언더	7570
액티브	7571
입지	7572
사명	7573
베리	7574
187	7575
서포터	7576
증오	7577
SH	7578
지뢰	7579
후손	7580
함수	7581
이스라엘	7582
스트라이크	7583
후배	7584
아시안	7585
용서	7586
에르	7587
구석	7588
성남	7589
3000	7590
똥	7591
사정거리	7592
위성	7593
일족	7594
타로	7595
시너지	7596
꼽	7597
크리스탈	7598
떨어뜨리	7599
AD	7600
##ies	7601
허락	7602
LC	7603
기숙	7604
고위	7605
스틸	7606
DF	7607
급격	7608
자막	7609
그랜드	7610
즉위	7611
모노	7612
끈	7613
휩	7614
리타	7615
숙련	7616
논의	7617
하차	7618
전주	7619
부각	7620
텔레비전	7621
공방	7622
lo	7623
KBO	7624
행보	7625
어뢰	7626
미묘	7627
경주	7628
굿	7629
이수	7630
##팩트	7631
토벌	7632
들키	7633
오라	7634
쓸모	7635
모니	7636
감각	7637
발행	7638
해피	7639
데려가	7640
아츠	7641
언덕	7642
##타이	7643
서식	7644
It	7645
왕위	7646
##lay	7647
연령	7648
특전	7649
⭧네요	7650
XX	7651
준우	7652
##말리	7653
중첩	7654
태평양	7655
부딪	7656
뻗	7657
취약	7658
가만	7659
뜬금	7660
구글	7661
후원	7662
일레	7663
오랜만	7664
제약	7665
쿼터	7666
블러드	7667
루나	7668
##어마	7669
노동자	7670
무척	7671
침략	7672
파르	7673
저렴	7674
정화	7675
간신히	7676
##자드	7677
총알	7678
기관총	7679
##OD	7680
노스	7681
침입	7682
##하면	7683
눈치채	7684
릿	7685
##쓸	7686
세븐	7687
MF	7688
루비	7689
드롭	7690
간접	7691
일본군	7692
생년	7693
오마	7694
##US	7695
아르헨	7696
방어구	7697
히나	7698
제트	7699
워커	7700
흡혈	7701
분쟁	7702
씹	7703
법정	7704
입대	7705
알아내	7706
헬기	7707
학습	7708
혹시	7709
균형	7710
전이	7711
드럼	7712
놀리	7713
맛있	7714
가동	7715
찍히	7716
아테	7717
CV	7718
사귀	7719
읍	7720
진압	7721
강자	7722
카카	7723
산하	7724
WWE	7725
우르	7726
.....	7727
##PM	7728
아르헨티나	7729
릴리	7730
##ann	7731
잡아먹	7732
곳곳	7733
찬스	7734
공용	7735
텍스트	7736
소방	7737
평생	7738
##라이언	7739
양자	7740
머무르	7741
여우	7742
분열	7743
NE	7744
트랜스	7745
아이언	7746
SE	7747
어마어마	7748
네오	7749
주차	7750
모시	7751
자이언츠	7752
##40	7753
관점	7754
중세	7755
구슬	7756
신전	7757
동인	7758
약화	7759
악당	7760
금방	7761
정차	7762
아포	7763
##블린	7764
나리	7765
125	7766
##pe	7767
##첨	7768
깨어나	7769
저러	7770
이토	7771
잡아내	7772
거울	7773
##30	7774
##뚱	7775
애정	7776
부적	7777
페널	7778
결심	7779
지리	7780
경상북도	7781
딜링	7782
반전	7783
제작사	7784
다지	7785
격추	7786
옳	7787
내보내	7788
제출	7789
상기	7790
##네임	7791
성당	7792
앨리스	7793
##sh	7794
⭧라기	7795
연고	7796
보호막	7797
your	7798
이혼	7799
되돌리	7800
##플레이	7801
통화	7802
크림	7803
스팀	7804
이란	7805
⭧던지	7806
토너	7807
##NA	7808
호흡	7809
표면	7810
폐쇄	7811
##배우	7812
뎀	7813
사령부	7814
아저	7815
금액	7816
##마크	7817
결전	7818
큐브	7819
구축함	7820
엘리트	7821
미즈	7822
아저씨	7823
코르	7824
간주	7825
히토	7826
악화	7827
저택	7828
보완	7829
뮤지컬	7830
##픔	7831
창원	7832
구름	7833
이식	7834
인권	7835
얻어	7836
⭧요	7837
스캐	7838
뽑히	7839
충실	7840
##VD	7841
채팅	7842
스크린	7843
헤어지	7844
썬	7845
불사	7846
CJ	7847
김현	7848
선거구	7849
착하	7850
AS	7851
용인	7852
상관없	7853
라면	7854
##츄	7855
##눈	7856
참모	7857
전파	7858
플레	7859
초록	7860
게리	7861
열매	7862
주둔	7863
지불	7864
DE	7865
세인트	7866
발리	7867
인용	7868
하루카	7869
유력	7870
##은행	7871
암시	7872
대왕	7873
천안	7874
##ng	7875
##키아	7876
##io	7877
긴장	7878
정예	7879
교과	7880
분해	7881
물리치	7882
##천시	7883
묘하	7884
해치	7885
##올리	7886
흩	7887
빠져	7888
토니	7889
프란	7890
딴	7891
동양	7892
유발	7893
문재인	7894
서서	7895
보건	7896
존재감	7897
성별	7898
공정	7899
##뛰	7900
##셋	7901
경남	7902
체결	7903
시인	7904
남아	7905
배포	7906
학력	7907
상세	7908
지라	7909
얀	7910
소유자	7911
낮추	7912
##ᆫ가	7913
엮이	7914
수석	7915
커플	7916
##거지	7917
##죠	7918
우에	7919
후계자	7920
;&	7921
악기	7922
언젠가	7923
답변	7924
드라이버	7925
마주치	7926
걸어	7927
시라	7928
짜증	7929
상영	7930
##oo	7931
##라기	7932
토너먼트	7933
원리	7934
수호자	7935
안기	7936
재밌	7937
도둑	7938
전승	7939
도라	7940
로이	7941
엑스트라	7942
로리	7943
악명	7944
행운	7945
호기	7946
로버트	7947
개설	7948
##ᆯ드	7949
170	7950
이듬	7951
도박	7952
Pro	7953
구미	7954
##즐	7955
본관	7956
천하	7957
뜨겁	7958
업로드	7959
##ᆯ라이	7960
잔뜩	7961
미쿠	7962
기인	7963
선두	7964
은신	7965
견디	7966
##ᅪᆨ	7967
기숙사	7968
##싱턴	7969
##월일	7970
##ave	7971
씬	7972
뱀파이어	7973
양식	7974
실종	7975
쏟아지	7976
교도	7977
중량	7978
지팡	7979
##포트	7980
요인	7981
테라	7982
백인	7983
##걸이	7984
⭧에요	7985
쭉	7986
탐험	7987
##LE	7988
정황	7989
부임	7990
임신	7991
⫸에다가	7992
난입	7993
중력	7994
아동	7995
처분	7996
대책	7997
임금	7998
비아	7999
동점	8000
LV	8001
관리자	8002
캐스터	8003
미키	8004
디지몬	8005
애플	8006
심심	8007
##번트	8008
건드리	8009
만남	8010
끔	8011
방송국	8012
that	8013
논문	8014
야생	8015
칼날	8016
UP	8017
항의	8018
관계자	8019
헨리	8020
생년월일	8021
해명	8022
백작	8023
시카	8024
##센트	8025
유독	8026
탄환	8027
분명히	8028
베타	8029
##우마	8030
호칭	8031
##슬링	8032
복합	8033
도루	8034
서번트	8035
카와	8036
닫	8037
금메달	8038
말투	8039
윈도우	8040
##ION	8041
동명	8042
생명체	8043
이라	8044
진주	8045
##베이	8046
문단	8047
##ream	8048
와일드	8049
할인	8050
법칙	8051
##스럽	8052
브레	8053
##엣	8054
수백	8055
가방	8056
패키	8057
다이아몬드	8058
⭧려던	8059
발렌	8060
ED	8061
1500	8062
단축	8063
자녀	8064
뿜	8065
절차	8066
정통	8067
잃어버리	8068
EN	8069
⭧다니	8070
해골	8071
분신	8072
외계인	8073
무관	8074
브로	8075
영광	8076
루이스	8077
기상	8078
운동장	8079
하향	8080
⭧래	8081
지치	8082
온도	8083
이드	8084
시합	8085
조리	8086
라틴	8087
이듬해	8088
주술	8089
분대	8090
닛	8091
인력	8092
프로필	8093
리뷰	8094
##ond	8095
딜레이	8096
창고	8097
1982	8098
치즈	8099
->	8100
보드	8101
##갈리	8102
부스터	8103
##펴보	8104
살펴보	8105
이온	8106
니스	8107
끔찍	8108
##어하	8109
광장	8110
로얄	8111
기름	8112
플래시	8113
##게임	8114
##iss	8115
Com	8116
5000	8117
왠지	8118
막내	8119
사살	8120
의학	8121
기둥	8122
헐	8123
창설	8124
뛰어넘	8125
전동	8126
⭧소	8127
레지	8128
건국	8129
성질	8130
전북	8131
울프	8132
밍	8133
셜	8134
한쪽	8135
가라	8136
유인	8137
미네	8138
공허	8139
샌드	8140
체험	8141
블라	8142
레딧	8143
장인	8144
부드	8145
##에르	8146
부사	8147
퇴장	8148
그린	8149
그렇지만	8150
물고기	8151
유격	8152
렐	8153
존경	8154
집착	8155
민첩	8156
두르	8157
##태우	8158
##이어	8159
우정	8160
##운서	8161
삽입	8162
디젤	8163
웨스트	8164
##군다	8165
아나운서	8166
##탐	8167
걸맞	8168
상식	8169
참가자	8170
아키라	8171
승자	8172
1950	8173
럼	8174
##도르	8175
공산당	8176
크레	8177
##IP	8178
##11	8179
깔리	8180
창단	8181
요약	8182
휘말리	8183
엔젤	8184
시상	8185
감지	8186
시원	8187
##카이	8188
작년	8189
진학	8190
시공	8191
모터	8192
솜	8193
조기	8194
증상	8195
그램	8196
전제	8197
마블	8198
독재	8199
##올	8200
수면	8201
감추	8202
1983	8203
하츠	8204
의장	8205
불펜	8206
##60	8207
학기	8208
##펠	8209
출구	8210
##ian	8211
복제	8212
??	8213
by	8214
##비치	8215
##소녀	8216
부드럽	8217
오디션	8218
he	8219
싫어하	8220
나츠	8221
유산	8222
##커스	8223
⫸께서	8224
힐러	8225
비전	8226
덩치	8227
철저	8228
선제	8229
발굴	8230
가공	8231
BL	8232
하이퍼	8233
헤어	8234
단원	8235
스위스	8236
투스	8237
유전자	8238
##ᆺ갈리	8239
스폰	8240
&#	8241
반박	8242
##유럽	8243
go	8244
그럭	8245
트럼프	8246
맷	8247
##그리	8248
여주	8249
항구	8250
탕	8251
타석	8252
리스크	8253
코트	8254
미만	8255
##세대	8256
돌입	8257
##저럭	8258
웃기	8259
안녕	8260
갑작	8261
##팬	8262
중형	8263
스쿨	8264
##티스	8265
사인	8266
콘텐츠	8267
스위치	8268
펼쳐지	8269
꼼	8270
비주얼	8271
꿀	8272
다카	8273
그럭저럭	8274
싹	8275
사법	8276
주니어	8277
##쟁이	8278
노바	8279
기운	8280
##Hz	8281
통로	8282
준우승	8283
배정	8284
##TV	8285
돔	8286
수명	8287
마스크	8288
사용자	8289
대거	8290
어필	8291
출격	8292
휘하	8293
기재	8294
상륙	8295
라이플	8296
논쟁	8297
웨이브	8298
##크라	8299
눕	8300
정교	8301
이펙트	8302
본진	8303
단행	8304
대조	8305
자전거	8306
##투스	8307
가죽	8308
배트맨	8309
보충	8310
폴리	8311
토마	8312
팟	8313
##ory	8314
신도	8315
##베스	8316
깨달	8317
트리플	8318
처지	8319
훈장	8320
호소	8321
##TE	8322
##우리	8323
시리아	8324
회담	8325
식품	8326
스트레스	8327
격차	8328
속이	8329
국장	8330
축복	8331
빅토	8332
인질	8333
백제	8334
##ace	8335
##rom	8336
코미디	8337
시트	8338
Co	8339
##늄	8340
##세서	8341
실책	8342
##틀러	8343
스펠	8344
근대	8345
완결	8346
위안	8347
Bl	8348
옹호	8349
학문	8350
파편	8351
##카이도	8352
태국	8353
케인	8354
평양	8355
##누스	8356
지사	8357
공화	8358
유기	8359
싸이	8360
마우스	8361
;&#	8362
경전	8363
공립	8364
갈아	8365
워싱턴	8366
카를	8367
팬텀	8368
오키	8369
부근	8370
시크	8371
적중	8372
DVD	8373
##필더	8374
승인	8375
미드필더	8376
Br	8377
원문	8378
##필드	8379
##틱	8380
토지	8381
침묵	8382
소음	8383
피우	8384
##레인	8385
슬로	8386
마케	8387
메이드	8388
디즈	8389
##부로	8390
소요	8391
기갑	8392
기동성	8393
##끈	8394
경직	8395
그레	8396
플래그	8397
이글	8398
뱅크	8399
Or	8400
##게이	8401
루스	8402
##무시	8403
히라	8404
##메이	8405
중국어	8406
세부	8407
##뚝	8408
커녕	8409
##oth	8410
두들	8411
와타	8412
근거리	8413
치킨	8414
축하	8415
배출	8416
##ows	8417
내각	8418
막판	8419
##시오	8420
결투	8421
경상남도	8422
신나	8423
보이스	8424
##산시	8425
복선	8426
시신	8427
오염	8428
솔직	8429
파동	8430
방위	8431
##MP	8432
연습생	8433
마감	8434
부실	8435
동계	8436
남매	8437
리카	8438
수능	8439
내일	8440
삼각	8441
간단히	8442
차체	8443
과학자	8444
급하	8445
후퇴	8446
동급	8447
##잠	8448
테츠	8449
기후	8450
고객	8451
임기	8452
날카	8453
##TS	8454
줍	8455
밀어	8456
센스	8457
넘버	8458
##빵	8459
슬라이	8460
우세	8461
##먼스	8462
헝가리	8463
무작위	8464
수급	8465
망가지	8466
왜곡	8467
무인	8468
상담	8469
학위	8470
손상	8471
롬	8472
##화점	8473
##신교	8474
국정	8475
랄	8476
노조	8477
한반도	8478
괜히	8479
지향	8480
규격	8481
스케	8482
##IG	8483
영지	8484
장거리	8485
바쁘	8486
리오	8487
야수	8488
안개	8489
##곽	8490
##셔널	8491
CG	8492
약탈	8493
램	8494
마법소녀	8495
일당	8496
##다보	8497
딕	8498
중시	8499
철거	8500
기세	8501
하마	8502
질리	8503
##주교	8504
무사히	8505
##그나	8506
##경기	8507
##aw	8508
##ᆫ들	8509
끼우	8510
선행	8511
185	8512
##하마	8513
요한	8514
유성	8515
날카롭	8516
##텐도	8517
닌텐도	8518
패키지	8519
스즈	8520
##에이	8521
최상위	8522
##딱	8523
멜로디	8524
장탄	8525
킬러	8526
과도	8527
##포르	8528
##크로	8529
미나미	8530
야구장	8531
##몸	8532
간간	8533
신발	8534
대포	8535
엔드	8536
##군다나	8537
양상	8538
록맨	8539
성전	8540
##ale	8541
SNS	8542
출루	8543
즈음	8544
프리미엄	8545
지칭	8546
타쿠	8547
그날	8548
골키	8549
변수	8550
개발자	8551
PV	8552
스트리트	8553
핑크	8554
##아키	8555
주류	8556
##ike	8557
대치	8558
독일군	8559
개별	8560
뭉치	8561
페이스북	8562
후자	8563
에서	8564
벙	8565
##하시	8566
무산	8567
##틀랜드	8568
##ᆯ로그	8569
특별히	8570
더군다나	8571
틴	8572
여러분	8573
영원히	8574
임팩트	8575
장사	8576
사키	8577
##밋	8578
전망	8579
초인	8580
1945	8581
입주	8582
Cl	8583
챌린지	8584
물체	8585
집권	8586
##아이	8587
##겹	8588
업계	8589
바디	8590
농업	8591
For	8592
무시무시	8593
군수	8594
부착	8595
원조	8596
데이비드	8597
흰색	8598
동남	8599
##야수	8600
암살자	8601
첼시	8602
매번	8603
RPG	8604
틸	8605
⫸라	8606
나미	8607
왜냐	8608
청주	8609
⭧우	8610
만주	8611
계시	8612
##OU	8613
중복	8614
브라운	8615
시비	8616
##자와	8617
Dr	8618
질병	8619
##지만	8620
손실	8621
야마토	8622
최적	8623
악몽	8624
##바닥	8625
서서히	8626
필리핀	8627
##ep	8628
선조	8629
피트	8630
취득	8631
##irl	8632
##man	8633
##우치	8634
폭행	8635
동아리	8636
오이	8637
##ach	8638
##ile	8639
175	8640
동경	8641
수비력	8642
1981	8643
##닌	8644
슬프	8645
Sc	8646
인방	8647
BB	8648
호랑이	8649
##여객	8650
골키퍼	8651
OP	8652
벨트	8653
부동	8654
해양	8655
올스타	8656
서클	8657
여인	8658
구별	8659
102	8660
##공항	8661
잠입	8662
사리	8663
헤르	8664
117	8665
어이	8666
지팡이	8667
꿰	8668
나르	8669
진격	8670
인피	8671
파생	8672
##12	8673
고장	8674
Team	8675
106	8676
며칠	8677
배역	8678
끌려가	8679
잎	8680
교토	8681
룩	8682
##VA	8683
LA	8684
몫	8685
해킹	8686
물량	8687
##철도	8688
트루	8689
##ink	8690
플러스	8691
Sk	8692
선임	8693
일람	8694
제독	8695
상한	8696
퍼포	8697
의외로	8698
사회주의	8699
굵	8700
##둘	8701
Mo	8702
체인지	8703
퍼포먼스	8704
⭧ᆯ게	8705
감싸	8706
페널티	8707
직장	8708
GP	8709
비비	8710
합계	8711
권위	8712
중장	8713
가만히	8714
국당	8715
기호	8716
##데드	8717
레코드	8718
모로	8719
공수	8720
청와	8721
DD	8722
##륨	8723
마물	8724
무술	8725
115	8726
⭧ᄇ시오	8727
응용	8728
##어놓	8729
리프	8730
메이커	8731
⭧로	8732
김경	8733
해내	8734
세팅	8735
사립	8736
⭧여야	8737
데이트	8738
코난	8739
팡	8740
원형	8741
제네	8742
이웃	8743
평점	8744
이종	8745
약물	8746
가디언	8747
기동전	8748
주행	8749
귀국	8750
언데드	8751
신입	8752
최우	8753
연산	8754
##ial	8755
FM	8756
##승부	8757
나비	8758
풋	8759
청와대	8760
건네	8761
밀도	8762
투쟁	8763
##토스	8764
개장	8765
##런트	8766
##킥	8767
##ish	8768
엘리자	8769
장로	8770
국어	8771
당대	8772
에릭	8773
SU	8774
파란색	8775
1979	8776
서기	8777
마다	8778
캄	8779
⭧냐면	8780
##므	8781
후임	8782
여전	8783
에디	8784
긴급	8785
집합	8786
UN	8787
이와	8788
만만	8789
웰	8790
배달	8791
징역	8792
챔피언십	8793
억지로	8794
스파이더	8795
프로토	8796
##슴	8797
포즈	8798
오스만	8799
트릭	8800
선사	8801
⭧옵	8802
합리	8803
쇼핑	8804
##앉	8805
개신교	8806
분포	8807
권장	8808
뽑아내	8809
히가시	8810
장신	8811
김상	8812
기장	8813
행방	8814
랑	8815
추방	8816
##ower	8817
택시	8818
저하	8819
천연	8820
다가가	8821
공백	8822
회색	8823
감동	8824
##네시아	8825
##튬	8826
안양	8827
전무	8828
해산	8829
일화	8830
댄	8831
궁금	8832
프리미어	8833
연구원	8834
독점	8835
증폭	8836
신자	8837
수동	8838
즉사	8839
모스크	8840
확산	8841
##II	8842
명의	8843
##더러	8844
관여	8845
야간	8846
주관	8847
⫸더러	8848
Bla	8849
면허	8850
교단	8851
여학생	8852
공인	8853
방치	8854
재회	8855
임의	8856
모집	8857
폐기	8858
##하르트	8859
듀오	8860
빌딩	8861
유미	8862
##오루	8863
아틀	8864
대단히	8865
조상	8866
혼돈	8867
잠들	8868
라이너	8869
만일	8870
명백	8871
김진	8872
##GE	8873
전남	8874
썬더	8875
코멘트	8876
감상	8877
아레나	8878
캘리	8879
바둑	8880
##블로	8881
성경	8882
렌즈	8883
쌀	8884
##운동	8885
버섯	8886
##ᅡᆯ린	8887
사무소	8888
택하	8889
CH	8890
매출	8891
도마	8892
##뇨	8893
##늦	8894
분당	8895
we	8896
캐치	8897
고블린	8898
자비	8899
피닉스	8900
끊임	8901
발목	8902
토시	8903
돌연	8904
BS	8905
##IM	8906
출간	8907
조명	8908
타이거즈	8909
처참	8910
Ne	8911
추리	8912
##!!	8913
불량	8914
Star	8915
##콜	8916
오메	8917
장미	8918
부서지	8919
광산	8920
닐	8921
깜짝	8922
##ᆺ이	8923
광선	8924
박지	8925
뒤지	8926
##프리카	8927
승무원	8928
김기	8929
##ᆻ다	8930
전라남도	8931
구성원	8932
포켓몬스터	8933
비웃	8934
무스	8935
##벌레	8936
스테이	8937
상관없이	8938
복원	8939
뚫리	8940
PR	8941
해머	8942
우월	8943
고소	8944
실장	8945
ID	8946
우주선	8947
##벳	8948
고로	8949
질투	8950
목사	8951
쿠라	8952
스타디	8953
되게	8954
통틀	8955
##언스	8956
하인	8957
평일	8958
만지	8959
계수	8960
간호	8961
기쁘	8962
지연	8963
난사	8964
와카	8965
##번에	8966
##히코	8967
배급	8968
##쿠라	8969
드루	8970
Wind	8971
미국인	8972
버드	8973
수색	8974
⭧ᆫ데다	8975
화산	8976
##드레	8977
350	8978
라이온즈	8979
세리	8980
유출	8981
벌리	8982
협정	8983
닝	8984
##99	8985
유언	8986
##벅	8987
파이트	8988
수립	8989
탐정	8990
엄격	8991
시외	8992
스탠드	8993
조롱	8994
up	8995
풍부	8996
##전자	8997
붐	8998
우유	8999
짤	9000
운수	9001
##나오	9002
서포트	9003
LP	9004
재학	9005
파멸	9006
심의	9007
##첼	9008
DC	9009
골렘	9010
한두	9011
우익	9012
##리코	9013
##카락	9014
국무	9015
산맥	9016
War	9017
##잘	9018
##래시	9019
머리카락	9020
오니	9021
메이플	9022
fe	9023
체감	9024
And	9025
정발	9026
뤼	9027
시바	9028
의자	9029
호시	9030
젤리	9031
⫸이란	9032
검술	9033
온천	9034
##체스터	9035
도저히	9036
##ass	9037
텟	9038
당사자	9039
청구	9040
치열	9041
##ᆺ지	9042
나기	9043
모험가	9044
센트	9045
말ᄊ	9046
합동	9047
육상	9048
토미	9049
##타카	9050
포장	9051
국제공항	9052
뒤늦	9053
사이코	9054
##ms	9055
반부	9056
##me	9057
키타	9058
루크	9059
360	9060
스텝	9061
Man	9062
##릇	9063
레일	9064
소용	9065
실내	9066
이라크	9067
오로지	9068
다운로드	9069
본토	9070
##춤	9071
112	9072
마코토	9073
축소	9074
기력	9075
권유	9076
특급	9077
로빈	9078
조용히	9079
극도	9080
에픽	9081
아쉬	9082
규제	9083
디즈니	9084
승진	9085
배수	9086
##gh	9087
바스	9088
따뜻	9089
⭧티	9090
우치	9091
##CG	9092
낙하	9093
##렐라	9094
비명	9095
루머	9096
마냥	9097
시사	9098
##가드	9099
108	9100
##뮬	9101
All	9102
라라	9103
묶이	9104
거스	9105
자꾸	9106
러시	9107
AKB	9108
나노	9109
티아	9110
##틀리	9111
##tle	9112
하계	9113
##pp	9114
⫸두	9115
##ble	9116
##amp	9117
충청남도	9118
반감	9119
톨	9120
범죄자	9121
지인	9122
바르셀	9123
루피	9124
오락	9125
파울	9126
출범	9127
바르셀로나	9128
##를린	9129
세라	9130
##ᆯ러스	9131
비유	9132
우즈	9133
페리	9134
##ft	9135
지목	9136
여섯	9137
수직	9138
베이징	9139
알라	9140
안쪽	9141
뮌	9142
##농	9143
토큰	9144
중지	9145
단종	9146
오우	9147
##궐	9148
일요일	9149
프렌	9150
103	9151
수월	9152
경북	9153
세금	9154
탐지	9155
폭파	9156
황후	9157
능력자	9158
전당	9159
##슬라	9160
붙잡히	9161
협의	9162
바니	9163
꼬이	9164
리즈	9165
어시스트	9166
##yle	9167
스타디움	9168
서머	9169
##70	9170
⫸니	9171
우드	9172
미르	9173
실은	9174
이글스	9175
여파	9176
##ous	9177
중순	9178
물품	9179
직선	9180
막아내	9181
##려받	9182
실현	9183
배제	9184
조우	9185
##사이	9186
모임	9187
##now	9188
##튀	9189
##atch	9190
베테	9191
##sp	9192
신학	9193
슬리	9194
넘어지	9195
리버풀	9196
카구	9197
##페라	9198
기리	9199
불행	9200
분산	9201
##졸	9202
부딪히	9203
당당	9204
조커	9205
One	9206
넘어서	9207
타르	9208
아가씨	9209
Mar	9210
모듈	9211
##orm	9212
수염	9213
미미	9214
생전	9215
손자	9216
드림	9217
김해	9218
평론	9219
얻어맞	9220
캐시	9221
토키	9222
유의	9223
신용	9224
New	9225
To	9226
##뚜	9227
ON	9228
명문	9229
퍼부	9230
거북	9231
기묘	9232
나스	9233
드론	9234
추세	9235
바론	9236
여고	9237
조르	9238
무승부	9239
ex	9240
체중	9241
막상	9242
낙선	9243
##스티벌	9244
나루토	9245
##도리	9246
진상	9247
페스티벌	9248
수비수	9249
IN	9250
경악	9251
##란히	9252
##플레	9253
살아나	9254
토요일	9255
BR	9256
⭧던가	9257
맥주	9258
##민주	9259
천문	9260
까이	9261
Part	9262
스미스	9263
수습	9264
엽	9265
태풍	9266
가난	9267
더빙	9268
채보	9269
KR	9270
기수	9271
두렵	9272
마카	9273
연봉	9274
함락	9275
김용	9276
Gam	9277
할로	9278
⭧노	9279
##쿨	9280
강등	9281
엑시	9282
비극	9283
센서	9284
강사	9285
##저리	9286
SF	9287
주최	9288
후회	9289
패전	9290
힙합	9291
이나	9292
홋	9293
##ING	9294
대성	9295
극히	9296
##슬러	9297
집어넣	9298
잠실	9299
리온	9300
비틀	9301
산탄	9302
고속도로	9303
CS	9304
좌절	9305
적자	9306
⭧ᆫ다거나	9307
엄밀	9308
국판	9309
듀스	9310
명목	9311
까마	9312
배려	9313
동반	9314
배드	9315
팁	9316
타일	9317
둠	9318
엎	9319
끓	9320
훼손	9321
꽉	9322
인접	9323
유망	9324
대시	9325
노가	9326
실시간	9327
개척	9328
코마	9329
##ment	9330
철권	9331
리가	9332
기부	9333
PP	9334
##방송	9335
에반	9336
알바	9337
사무실	9338
##ae	9339
빨간	9340
반짝	9341
케이블	9342
야쿠	9343
⫸나마	9344
늙	9345
##64	9346
주체	9347
하여	9348
128	9349
뻥	9350
원시	9351
스티븐	9352
압력	9353
모스	9354
상반	9355
고증	9356
장탄수	9357
캣	9358
쇼크	9359
도리	9360
샤이	9361
젖	9362
스테이션	9363
##불명	9364
유재	9365
스핀	9366
⭧나요	9367
혜택	9368
투척	9369
도장	9370
신속	9371
포탄	9372
닉네임	9373
##테이	9374
꼬마	9375
##버그	9376
바지	9377
인자	9378
##ase	9379
혈액	9380
쳐들	9381
호남	9382
중화민국	9383
##사기	9384
코믹	9385
농장	9386
마땅	9387
아이러	9388
각지	9389
##ree	9390
장성	9391
다투	9392
이타	9393
되돌	9394
재개	9395
##사리	9396
조카	9397
역습	9398
주교	9399
걸즈	9400
고시	9401
음료	9402
유니크	9403
휴가	9404
벤치	9405
히틀러	9406
반도	9407
##앤	9408
##밭	9409
암호	9410
시로	9411
구조물	9412
달려가	9413
짙	9414
구장	9415
날씨	9416
##어트	9417
샷건	9418
##구장	9419
때려	9420
변동	9421
번지	9422
총장	9423
En	9424
캘리포	9425
네티	9426
##킷	9427
제이스	9428
쿤	9429
확장팩	9430
퍼즐	9431
얽	9432
제갈량	9433
##노리	9434
그라운드	9435
에로	9436
시상식	9437
하프	9438
짐작	9439
믹스	9440
1978	9441
질서	9442
1973	9443
⭧ᄇ니까	9444
근원	9445
챔	9446
레온	9447
JT	9448
함부로	9449
##브라	9450
트로피	9451
해병대	9452
동해	9453
##ᅥ하	9454
기뻐하	9455
어쩌면	9456
184	9457
사퇴	9458
로맨	9459
거론	9460
오브젝트	9461
##az	9462
튼	9463
여의	9464
##bo	9465
대행	9466
캘리포니아	9467
보라색	9468
슬라	9469
제치	9470
소니	9471
찬성	9472
라즈	9473
첫째	9474
갈색	9475
짐승	9476
AN	9477
상사	9478
가담	9479
깊이	9480
베기	9481
##놀	9482
##러그	9483
각오	9484
인재	9485
##앞	9486
사로	9487
World	9488
##ason	9489
양손	9490
구동	9491
##AY	9492
111	9493
##케이션	9494
그랑	9495
샵	9496
쿠데	9497
220	9498
여럿	9499
안심	9500
호불	9501
##iki	9502
호불호	9503
퇴각	9504
무용	9505
백화점	9506
껍	9507
최저	9508
##베리	9509
혁신	9510
거칠	9511
사야	9512
공감	9513
갚	9514
183	9515
강림	9516
메트로	9517
키보드	9518
정반	9519
##돌이	9520
결제	9521
지수	9522
##키스탄	9523
킷	9524
감수	9525
시그	9526
JP	9527
##저기	9528
오더	9529
포스터	9530
##느리	9531
사이클	9532
돌보	9533
동서	9534
프린세스	9535
말기	9536
⭧레	9537
트레이너	9538
진급	9539
마계	9540
전날	9541
계층	9542
베어스	9543
리미	9544
고무	9545
할리	9546
네티즌	9547
알렉스	9548
원더	9549
동아	9550
카리	9551
##ear	9552
So	9553
중동	9554
경호	9555
빨간색	9556
대령	9557
⭧거든	9558
특별시	9559
동행	9560
산타	9561
흡사	9562
##hen	9563
후반기	9564
하하	9565
라크	9566
빠져나가	9567
장례	9568
셔틀	9569
노란색	9570
여기저기	9571
중부	9572
장난감	9573
마오	9574
240	9575
평하	9576
흔들	9577
사관	9578
막강	9579
타이탄	9580
패밀리	9581
리처	9582
##MS	9583
뜬금없이	9584
신선	9585
당기	9586
sp	9587
수지	9588
세뇌	9589
핀란드	9590
피로	9591
학생회	9592
가두	9593
##키스	9594
##are	9595
휠	9596
포획	9597
드레스	9598
밀어내	9599
견해	9600
⭧려다가	9601
FW	9602
베를린	9603
탐색	9604
두들기	9605
차갑	9606
##빨	9607
보좌	9608
인과	9609
유혹	9610
GO	9611
깎이	9612
매주	9613
선수단	9614
날뛰	9615
양반	9616
⭧ᆯ려	9617
교복	9618
유입	9619
봉쇄	9620
국도	9621
페어	9622
영감	9623
우호	9624
강렬	9625
원곡	9626
스코틀랜드	9627
연쇄	9628
뮌헨	9629
상주	9630
입자	9631
##직자	9632
케이드	9633
선진	9634
##차기	9635
##우트	9636
1974	9637
돋보이	9638
방송사	9639
무공	9640
문화재	9641
프랑스어	9642
생체	9643
끌리	9644
재건	9645
tv	9646
##클리	9647
클론	9648
우측	9649
박쥐	9650
소재지	9651
트라우마	9652
마일	9653
비기	9654
도어	9655
역명	9656
점유	9657
운송	9658
토대	9659
##이너	9660
⫸마냥	9661
콤비	9662
##루미	9663
방탄	9664
요미	9665
경찰서	9666
아이러니	9667
드로우	9668
##케이드	9669
위로	9670
왕실	9671
결계	9672
김준	9673
아베	9674
서바이	9675
잭슨	9676
후미	9677
흙	9678
박살나	9679
약자	9680
와인	9681
신중	9682
공격수	9683
무실	9684
결혼식	9685
세로	9686
비스트	9687
##ᆺ불	9688
http	9689
부시	9690
수여	9691
##하나	9692
침대	9693
지부	9694
1972	9695
연금술	9696
복사	9697
##90	9698
##ven	9699
윈드	9700
래퍼	9701
트윈스	9702
##ife	9703
포터	9704
##아치	9705
관료	9706
화폐	9707
제물	9708
기스	9709
도덕	9710
전락	9711
집회	9712
통칭	9713
바나	9714
https	9715
##싸움	9716
쇄	9717
로이드	9718
완공	9719
튼튼	9720
트랩	9721
첸	9722
토하	9723
##기에	9724
##ade	9725
허무	9726
⭧마	9727
장판	9728
프라임	9729
순양함	9730
엔지	9731
리안	9732
밀려나	9733
##AP	9734
Wi	9735
취업	9736
##베이터	9737
홀리	9738
역량	9739
스즈키	9740
선장	9741
소금	9742
##박스	9743
콘솔	9744
폭스	9745
탐사	9746
##렉션	9747
세자	9748
덴마크	9749
영양	9750
출혈	9751
강경	9752
우회	9753
쓸데	9754
##껍	9755
빈도	9756
탭	9757
나아지	9758
##act	9759
##데레	9760
도감	9761
MB	9762
##웰	9763
글씨	9764
~!	9765
도트	9766
홀드	9767
##ai	9768
대타	9769
일곱	9770
##ank	9771
아바타	9772
##깨비	9773
##gin	9774
연설	9775
이순	9776
억제	9777
여단	9778
간섭	9779
%/	9780
관통력	9781
상무	9782
공대	9783
낭비	9784
do	9785
단행본	9786
⫸이라	9787
##aby	9788
히든	9789
루프	9790
부작용	9791
노무	9792
메이지	9793
오노	9794
모형	9795
신데	9796
창문	9797
104	9798
영화제	9799
청나라	9800
⭧라니	9801
##ᆫ바	9802
하스	9803
승차	9804
##out	9805
전동차	9806
인도네시아	9807
책임지	9808
소통	9809
마라	9810
법무	9811
Fate	9812
no	9813
트레일러	9814
##흔	9815
전격	9816
침투	9817
성씨	9818
##토니	9819
술사	9820
손꼬	9821
재직	9822
태클	9823
오지	9824
페미니	9825
워크래프트	9826
넘어오	9827
디시	9828
당초	9829
매니아	9830
한창	9831
⫸든	9832
다큐	9833
1975	9834
커스텀	9835
쿠데타	9836
⭧되	9837
마피아	9838
##lect	9839
시카고	9840
신데렐라	9841
실상	9842
히로시	9843
LIVE	9844
간간히	9845
부재	9846
##지르	9847
형편	9848
백업	9849
제재	9850
파밍	9851
123	9852
설령	9853
손오	9854
출산	9855
성실	9856
##므로	9857
손쉽	9858
깃발	9859
끊임없이	9860
##ET	9861
범용	9862
##에른	9863
공산주의	9864
장애물	9865
스나이	9866
⭧을수록	9867
경연	9868
강간	9869
김일	9870
스트라이커	9871
딸리	9872
##oll	9873
제니	9874
NH	9875
우승자	9876
끌어들이	9877
워크	9878
전향	9879
소득	9880
스타리그	9881
시호	9882
검증	9883
조종사	9884
##UM	9885
##모스	9886
토요	9887
중점	9888
Up	9889
이른바	9890
품질	9891
왕비	9892
OS	9893
노르웨이	9894
여타	9895
카자	9896
1976	9897
라스트	9898
are	9899
클린	9900
근접전	9901
소나	9902
말레이	9903
변이	9904
항해	9905
외곽	9906
III	9907
##ork	9908
렉스	9909
##ᆯ릿	9910
##천군	9911
다스리	9912
스피릿	9913
이스트	9914
파도	9915
성분	9916
강릉	9917
최선	9918
원주민	9919
정석	9920
마산	9921
사악	9922
##더라	9923
사사	9924
크라이	9925
대접	9926
혈통	9927
섀도우	9928
##추어	9929
모니터	9930
그러므로	9931
발명	9932
따라오	9933
판사	9934
유료	9935
##바야	9936
Do	9937
단기	9938
겔	9939
##ary	9940
이어받	9941
하급	9942
마트	9943
구상	9944
큰	9945
특공	9946
선박	9947
리코	9948
리모	9949
카더라	9950
Oh	9951
제왕	9952
공통점	9953
왜냐하면	9954
검열	9955
광물	9956
##way	9957
하반	9958
티스	9959
전생	9960
##렇	9961
왼손	9962
끌어올리	9963
뉘	9964
##루션	9965
동전	9966
입문	9967
##페이	9968
119	9969
드로	9970
##와라	9971
브라이언	9972
키라	9973
유연	9974
##바지	9975
트리거	9976
벨기에	9977
포도	9978
천천	9979
##톡	9980
중상	9981
맞붙	9982
명분	9983
탄핵	9984
올드	9985
##ey	9986
쯔	9987
##ich	9988
명사	9989
공헌	9990
고종	9991
장남	9992
전송	9993
원장	9994
사로잡	9995
##께끼	9996
135	9997
수수께끼	9998
급행	9999
소모량	10000
중심지	10001
단검	10002
109	10003
##슈타인	10004
##모함	10005
초콜릿	10006
엘레	10007
중고	10008
김수	10009
박정희	10010
미지	10011
바이에른	10012
초상	10013
우울	10014
코스튬	10015
중기	10016
지선	10017
##저우	10018
##타입	10019
ES	10020
중위	10021
트롤	10022
확신	10023
대변	10024
##플링	10025
올바르	10026
Mk	10027
공단	10028
##헬	10029
입증	10030
⭧으려는	10031
베테랑	10032
일체	10033
한나라	10034
모스크바	10035
잔인	10036
##으로	10037
##능력	10038
##키리	10039
크레이	10040
한나라당	10041
관우	10042
벅	10043
엘리베이터	10044
검토	10045
오페라	10046
시모	10047
저자	10048
수인	10049
마틴	10050
Ad	10051
잉여	10052
예약	10053
시온	10054
단발	10055
조국	10056
부패	10057
질주	10058
친절	10059
불태우	10060
손오공	10061
대법	10062
아이디어	10063
lv	10064
땅볼	10065
부유	10066
메일	10067
대동	10068
##샷	10069
히스	10070
긁	10071
꿈꾸	10072
자네	10073
##벤처	10074
교리	10075
all	10076
##동자	10077
Day	10078
어드벤처	10079
씌우	10080
존스	10081
강호	10082
앤드	10083
발판	10084
보스턴	10085
아스카	10086
성배	10087
터스	10088
유망주	10089
천황	10090
콘스탄	10091
AFC	10092
##어드	10093
케빈	10094
시외버스	10095
곡인	10096
스태프	10097
부속	10098
도쿠	10099
퀵	10100
이병	10101
##다운	10102
천천히	10103
nd	10104
체코	10105
버스트	10106
렘	10107
압축	10108
##하루	10109
충족	10110
학사	10111
##pt	10112
⭧고는	10113
182	10114
##orn	10115
과자	10116
카카오	10117
흩어지	10118
이현	10119
메리트	10120
비리	10121
니혼	10122
고스	10123
카시	10124
굴욕	10125
구독	10126
##라미	10127
무제	10128
도깨비	10129
에이지	10130
그릇	10131
##스카	10132
갑작스럽	10133
쓰리	10134
넬	10135
프로게이	10136
프로게이머	10137
분할	10138
동정	10139
손님	10140
오메가	10141
강전	10142
화상	10143
군부	10144
자제	10145
연수	10146
나폴레	10147
##르타	10148
루마	10149
토마스	10150
친분	10151
##넌	10152
시게	10153
어색	10154
후일	10155
대박	10156
지붕	10157
위엄	10158
민중	10159
싱가	10160
싱가포르	10161
항공모함	10162
디자이너	10163
기하	10164
평등	10165
##가루	10166
기차	10167
121	10168
홋카이도	10169
치카	10170
미궁	10171
레이디	10172
이모	10173
나폴레옹	10174
마운	10175
지력	10176
##레일리아	10177
고고	10178
삼성전자	10179
라그나	10180
##스레	10181
1971	10182
땡	10183
일관	10184
머니	10185
Windows	10186
까지	10187
##의자	10188
##네마	10189
왕복	10190
얇	10191
레이블	10192
박살내	10193
와이번	10194
달아나	10195
FF	10196
이오	10197
동구	10198
테이블	10199
폭격기	10200
스택	10201
너머	10202
발레	10203
머물	10204
145	10205
사촌	10206
극대	10207
107	10208
블레이	10209
맹세	10210
디펜	10211
플랜	10212
망명	10213
##테이션	10214
##네이	10215
우루	10216
톡	10217
="	10218
이경	10219
현금	10220
RA	10221
기울이	10222
열정	10223
찰스	10224
이틀	10225
엑시즈	10226
광기	10227
합작	10228
1977	10229
진에	10230
점검	10231
강점기	10232
대전차	10233
##ah	10234
김포	10235
엔트리	10236
퍼스트	10237
##EM	10238
터트리	10239
그립	10240
하이라이트	10241
카리스	10242
여포	10243
질량	10244
유탄	10245
창립	10246
쫓겨나	10247
DP	10248
변태	10249
종결	10250
썸	10251
##사스	10252
원숭이	10253
⭧으라고	10254
후드	10255
촉수	10256
하사	10257
##군가	10258
작위	10259
마타	10260
ML	10261
고집	10262
사체	10263
##렷	10264
AA	10265
##very	10266
신동	10267
자율	10268
리퍼	10269
##uck	10270
화해	10271
저기	10272
마술사	10273
일가	10274
보고서	10275
리틀	10276
재배	10277
존중	10278
조화	10279
누군가	10280
츠카	10281
본질	10282
그레이트	10283
독일어	10284
표절	10285
##막지	10286
사족	10287
무지막지	10288
챔프	10289
춥	10290
총합	10291
오렌	10292
외우	10293
원전	10294
ne	10295
⭧여서	10296
천장	10297
잊히	10298
선교	10299
이대로	10300
IT	10301
공신	10302
에버	10303
평행	10304
엔지니어	10305
보르	10306
앗	10307
이이	10308
br	10309
석유	10310
부스	10311
⭧쥬	10312
쳐들어	10313
중거리	10314
자존	10315
감탄	10316
브라더스	10317
임진	10318
전라북도	10319
피카	10320
##ph	10321
Sw	10322
DPS	10323
호크	10324
젬	10325
자책점	10326
면하	10327
BPM	10328
게이머	10329
JTBC	10330
소집	10331
정사	10332
지분	10333
농민	10334
##아들	10335
진단	10336
물자	10337
210	10338
지오	10339
스포일러	10340
##끗	10341
메카닉	10342
카마	10343
봉사	10344
노무현	10345
연간	10346
해소	10347
178	10348
인칭	10349
##ero	10350
꺼리	10351
몸통	10352
란스	10353
스가	10354
1969	10355
마그	10356
떨치	10357
과일	10358
##자치	10359
113	10360
니아	10361
스티브	10362
유가	10363
관장	10364
리처드	10365
".	10366
대위	10367
유격수	10368
라마	10369
교과서	10370
파랗	10371
무실점	10372
##플리	10373
쿠스	10374
교차로	10375
##ool	10376
타구	10377
사수	10378
서적	10379
동속	10380
검정	10381
노가다	10382
165	10383
##바나	10384
오스트레일리아	10385
파스	10386
광명	10387
브레이커	10388
마유	10389
김지	10390
1968	10391
하치	10392
맨체스터	10393
동대	10394
솟	10395
1963	10396
냉정	10397
데빌	10398
주식회사	10399
임하	10400
철저히	10401
##ical	10402
러스	10403
총독	10404
토트	10405
쨩	10406
불쌍	10407
빙판	10408
명시	10409
출판사	10410
시골	10411
손꼽히	10412
NBA	10413
부원	10414
프랜	10415
힘입	10416
입사	10417
필름	10418
주축	10419
장타	10420
다니엘	10421
##urn	10422
부산광역시	10423
아깝	10424
가구	10425
착륙	10426
##퍼드	10427
백만	10428
겜	10429
##ype	10430
Ph	10431
병역	10432
블리자드	10433
탄압	10434
실체	10435
슬픔	10436
##ARD	10437
부천	10438
Con	10439
2021	10440
말씀	10441
에드워드	10442
윤리	10443
모순	10444
##구미	10445
##anc	10446
주사위	10447
호의	10448
##센스	10449
##지아	10450
스노우	10451
매각	10452
##ᆺ속	10453
고아	10454
광경	10455
##우라	10456
지장	10457
유치원	10458
터보	10459
미오	10460
매드	10461
불능	10462
프론	10463
마인드	10464
닦	10465
스폰서	10466
목걸이	10467
{{{#	10468
⭧은지	10469
섹	10470
어벤	10471
부스트	10472
라이언	10473
##은색	10474
김유	10475
155	10476
서열	10477
레이어	10478
완화	10479
겸하	10480
지혜	10481
용산	10482
Cr	10483
마당	10484
파운드	10485
변장	10486
##ung	10487
참사	10488
평론가	10489
엄연히	10490
줄기	10491
유니버스	10492
날아다니	10493
⫸이라도	10494
내버리	10495
물어	10496
멍청	10497
OVA	10498
사우스	10499
수천	10500
김승	10501
울트라맨	10502
답답	10503
명명	10504
##멧	10505
우타	10506
문양	10507
나나	10508
하나하나	10509
보편	10510
개명	10511
122	10512
Qu	10513
서류	10514
트윗	10515
상금	10516
납득	10517
##켈	10518
아아	10519
미러	10520
초청	10521
워프	10522
##항공	10523
배구	10524
모델링	10525
씨앗	10526
외국어	10527
평상	10528
##테일	10529
시뮬	10530
디오	10531
Station	10532
181	10533
레인지	10534
프로그래	10535
##업자	10536
압권	10537
TVA	10538
이노	10539
치안	10540
열혈	10541
가설	10542
144	10543
중구	10544
정문	10545
친척	10546
난무	10547
어나	10548
진동	10549
취재	10550
닥치	10551
집계	10552
디바	10553
중원	10554
에미	10555
엘리자베스	10556
박수	10557
##소년	10558
본능	10559
수위	10560
##시피	10561
LO	10562
발키리	10563
향후	10564
##ww	10565
앓	10566
절친	10567
좌익	10568
KOF	10569
재앙	10570
철갑	10571
마케팅	10572
자산	10573
서명	10574
주석	10575
리나	10576
헷갈리	10577
성명	10578
오죽	10579
카지	10580
우연	10581
녹화	10582
고등학생	10583
##끼리	10584
이케	10585
로크	10586
##iver	10587
도심	10588
케이크	10589
애칭	10590
무늬	10591
초능력	10592
##부지	10593
비우	10594
소생	10595
작정	10596
고사	10597
어나더	10598
at	10599
패자	10600
##잉	10601
행진	10602
서방	10603
강민	10604
쫒	10605
쿵	10606
매트	10607
국토	10608
햇	10609
사연	10610
사직	10611
페스	10612
시조	10613
덤비	10614
##DD	10615
신하	10616
테스	10617
곤충	10618
어이없	10619
브래	10620
152	10621
일리	10622
서울대	10623
시어	10624
드래곤볼	10625
유아	10626
용암	10627
골프	10628
가이드	10629
love	10630
결의	10631
아리아	10632
##쥬	10633
일렉트	10634
로프	10635
타츠	10636
아마추어	10637
경부	10638
실용	10639
액체	10640
학대	10641
실사	10642
##폭탄	10643
##ens	10644
경사	10645
산소	10646
국방부	10647
정성	10648
발발	10649
멋대로	10650
##겔	10651
자사	10652
쿠니	10653
카레	10654
표적	10655
츠바	10656
전지	10657
##마리	10658
as	10659
워터	10660
편리	10661
벙커	10662
좌측	10663
유엔	10664
##ost	10665
##밤	10666
스카우트	10667
아스트	10668
민간인	10669
도색	10670
##이동	10671
TR	10672
이태	10673
##드러지	10674
자칭	10675
리플	10676
침몰	10677
114	10678
엄밀히	10679
##ᆺ말	10680
워즈	10681
##마르	10682
주머니	10683
사투	10684
일커	10685
마음대로	10686
스케일	10687
##워즈	10688
##ence	10689
1930	10690
일컫	10691
다케	10692
##흉	10693
라이즈	10694
wiki	10695
몰살	10696
거지	10697
마하	10698
##리칸	10699
아지	10700
박성	10701
롤러	10702
인성	10703
만점	10704
미성	10705
##려워하	10706
IM	10707
##nt	10708
변명	10709
의정부	10710
이대	10711
직책	10712
때로	10713
##띠	10714
##마루	10715
자아	10716
개교	10717
초록색	10718
망토	10719
알아채	10720
##변이	10721
돌연변이	10722
from	10723
초점	10724
항모	10725
##ise	10726
옥상	10727
⭧습니까	10728
각도	10729
코토	10730
각인	10731
법사	10732
웜	10733
##int	10734
리본	10735
##시스코	10736
이진	10737
기질	10738
포크	10739
모음	10740
텍사스	10741
이누	10742
1920	10743
개구리	10744
원피스	10745
템플	10746
마모	10747
아자	10748
신지	10749
스컬	10750
179	10751
##타운	10752
방학	10753
##뱅	10754
만능	10755
이념	10756
정밀	10757
유스	10758
고의	10759
달려들	10760
!"	10761
발급	10762
##탱	10763
##AK	10764
통째	10765
풍기	10766
죄책	10767
등극	10768
학급	10769
Super	10770
⭧션	10771
이원	10772
포탈	10773
매달리	10774
에디션	10775
MG	10776
##이나	10777
##하여	10778
비키	10779
Fr	10780
격려	10781
1940	10782
이명박	10783
BJ	10784
can	10785
이어서	10786
##oy	10787
지로	10788
##지능	10789
용자	10790
인공지능	10791
동성애	10792
조항	10793
아담	10794
방심	10795
##리나	10796
포병	10797
슈퍼맨	10798
미인	10799
혼인	10800
정신력	10801
##툼	10802
이빨	10803
www	10804
##ign	10805
발탁	10806
##떨어지	10807
적절히	10808
CM	10809
선동	10810
오렌지	10811
엉망	10812
관직	10813
종영	10814
인벤	10815
연전	10816
##ans	10817
극한	10818
협동	10819
스타트	10820
바쿠	10821
연이	10822
177	10823
북아	10824
마찰	10825
안동	10826
기소	10827
어설	10828
대역	10829
멧	10830
제사	10831
⭧으라	10832
들여	10833
남동생	10834
죄책감	10835
소비자	10836
##과이	10837
튜버	10838
추후	10839
네이션	10840
리사	10841
호러	10842
##ug	10843
포착	10844
최순	10845
Dream	10846
##베트	10847
헬멧	10848
풍선	10849
펌프	10850
##팽	10851
정반대	10852
트릴	10853
부러지	10854
갯	10855
⭧다거나	10856
##바이트	10857
장벽	10858
##바야시	10859
아케이드	10860
공속	10861
감당	10862
덮치	10863
124	10864
은폐	10865
뚜렷	10866
##전차	10867
블럭	10868
##이치로	10869
억울	10870
1967	10871
##야스	10872
금강	10873
선로	10874
너스	10875
저서	10876
유진	10877
갱신	10878
고가	10879
원로	10880
반경	10881
127	10882
다시금	10883
아이디	10884
##글링	10885
마에	10886
USB	10887
흘러가	10888
킴	10889
그해	10890
아무튼	10891
오른손	10892
교역	10893
협조	10894
페어리	10895
뛰어들	10896
정점	10897
용이	10898
씻	10899
오다	10900
도약	10901
예의	10902
##룬	10903
##써	10904
##짱	10905
아사히	10906
부동산	10907
아쿠아	10908
신곡	10909
해운	10910
this	10911
##IR	10912
내기	10913
다비	10914
유카	10915
##나베	10916
##뒤	10917
페르시아	10918
펭	10919
1200	10920
퍽	10921
중국인	10922
시오	10923
##vel	10924
분홍	10925
트윈	10926
대차	10927
쉴드	10928
타치	10929
450	10930
잔혹	10931
시타	10932
고발	10933
맞히	10934
카운티	10935
부채	10936
연동	10937
왕족	10938
##이크	10939
기본기	10940
사나	10941
녹이	10942
피오	10943
##코트	10944
##철수	10945
욕설	10946
독립운동	10947
##질랜드	10948
컴백	10949
##지사	10950
ERA	10951
##ode	10952
민감	10953
뉴질랜드	10954
출동	10955
교도소	10956
초과	10957
크래프트	10958
누스	10959
절벽	10960
선원	10961
##uk	10962
##VER	10963
옴	10964
##셈	10965
카테	10966
##젤레스	10967
수신	10968
지역구	10969
##빡	10970
비단	10971
##쭉	10972
호드	10973
시크릿	10974
수감	10975
무도	10976
후쿠오카	10977
사방	10978
베스	10979
프레스	10980
어ᄊ	10981
침착	10982
사무라이	10983
서리	10984
Fl	10985
발각	10986
방침	10987
스토어	10988
밭	10989
감자	10990
덩어리	10991
Pl	10992
후유	10993
##렉터	10994
회관	10995
청춘	10996
우마	10997
대세	10998
팔라	10999
뺏기	11000
##말로	11001
툰	11002
물려받	11003
젼	11004
보강	11005
Ver	11006
스로	11007
이소	11008
대피	11009
##역사	11010
##나기	11011
제의	11012
CE	11013
##생활	11014
얹	11015
그러면	11016
쿠마	11017
구형	11018
급격히	11019
키미	11020
스케이	11021
⭧게끔	11022
EC	11023
종전	11024
철도역	11025
진에어	11026
디스플레이	11027
⫸게	11028
EXP	11029
##텍	11030
연소	11031
카리스마	11032
재즈	11033
##공사	11034
style	11035
내외	11036
애완	11037
함장	11038
구로	11039
이윤	11040
측근	11041
얽히	11042
##민주당	11043
발전소	11044
히카	11045
방사능	11046
도르	11047
##헤이	11048
로렌	11049
꾀	11050
스쿼	11051
코스프레	11052
코노	11053
애인	11054
가마	11055
실존	11056
선포	11057
아울	11058
레나	11059
유재석	11060
##ier	11061
에도	11062
마야	11063
게르	11064
신한	11065
궁합	11066
가위	11067
퇴치	11068
반성	11069
판도	11070
아랫	11071
강대	11072
현자	11073
카쿠	11074
리바	11075
##다드	11076
격렬	11077
기법	11078
분자	11079
워리어	11080
아비	11081
Sch	11082
가오	11083
예방	11084
잔류	11085
##페이스	11086
나인	11087
김구	11088
Girl	11089
당국	11090
Season	11091
두드러지	11092
사물	11093
##뱃	11094
인문	11095
⭧군요	11096
1962	11097
##ash	11098
징계	11099
IP	11100
오퍼	11101
러쉬	11102
미아	11103
박자	11104
문신	11105
##속기	11106
왕가	11107
ar	11108
자이언트	11109
근로	11110
La	11111
이놈	11112
DM	11113
시시	11114
모욕	11115
전담	11116
화기	11117
약혼	11118
강타	11119
NO	11120
반역	11121
162	11122
이카	11123
흡혈귀	11124
카피	11125
유동	11126
이단	11127
정조	11128
흑마	11129
tr	11130
사치	11131
중견	11132
118	11133
종로	11134
흥분	11135
왕후	11136
⭧리라	11137
친애	11138
지루	11139
비오	11140
화석	11141
WC	11142
시종	11143
점심	11144
쿠바	11145
퀴즈	11146
불러오	11147
고립	11148
피자	11149
제주도	11150
벗기	11151
노아	11152
기동력	11153
분배	11154
##reat	11155
1966	11156
##IX	11157
쿠리	11158
아처	11159
유우키	11160
잠기	11161
브론	11162
돌려주	11163
이용자	11164
명나라	11165
로스트	11166
위쪽	11167
부가	11168
레이싱	11169
루리	11170
단백	11171
##ib	11172
황당	11173
타이어	11174
박진	11175
경성	11176
계곡	11177
벌써	11178
이행	11179
##꿈	11180
김치	11181
314	11182
##돌프	11183
자존심	11184
학술	11185
##렙	11186
##치아	11187
##뱀	11188
생김새	11189
제노	11190
##슐	11191
스나이퍼	11192
한하	11193
태생	11194
탈환	11195
##usic	11196
월간	11197
Max	11198
##사랑	11199
중소	11200
피지컬	11201
##탐정	11202
우두	11203
관문	11204
실적	11205
모나	11206
한양	11207
망설	11208
##딸	11209
750	11210
입시	11211
##방울	11212
1964	11213
##폴	11214
바시	11215
스모	11216
건지	11217
금요일	11218
대검	11219
노랗	11220
뚱	11221
고인	11222
##시고	11223
골치	11224
그간	11225
안무	11226
적시타	11227
불길	11228
##수리	11229
Vol	11230
TS	11231
뱅가드	11232
##리얼	11233
숙소	11234
유고	11235
DNA	11236
그쪽	11237
여태	11238
정전	11239
카네	11240
토트넘	11241
라미	11242
내셔널	11243
얼티	11244
급속	11245
스파이더맨	11246
능가	11247
Ed	11248
아오이	11249
천상	11250
##}}	11251
--	11252
궁전	11253
시범	11254
중재	11255
요격	11256
##ose	11257
ld	11258
할로윈	11259
통솔	11260
오케	11261
레아	11262
남동	11263
모종	11264
성사	11265
스피어	11266
대학생	11267
코파	11268
중도	11269
##서스	11270
나이프	11271
사슬	11272
탈취	11273
진술	11274
스타즈	11275
갈라지	11276
에밀리	11277
로키	11278
⫸이야	11279
AV	11280
존슨	11281
부끄럽	11282
에메	11283
까마귀	11284
직위	11285
한꺼	11286
치이	11287
섬기	11288
한꺼번에	11289
소소	11290
입원	11291
##시대	11292
두려워하	11293
##닛	11294
괴인	11295
과시	11296
나이츠	11297
##보기	11298
황태	11299
##프라	11300
amp	11301
욕망	11302
계절	11303
불참	11304
청하	11305
Col	11306
거세	11307
혼합	11308
##킬	11309
##부키	11310
##te	11311
야당	11312
so	11313
생태	11314
기껏	11315
##미터	11316
학년도	11317
아리스	11318
항공사	11319
GM	11320
비자	11321
저글링	11322
점멸	11323
HE	11324
건너가	11325
##사르	11326
질환	11327
미정	11328
⫸든지	11329
마기	11330
극심	11331
뷔	11332
다녀	11333
##ail	11334
오만	11335
##msys	11336
모빌	11337
페르소	11338
우지	11339
##ition	11340
ldmsys	11341
원판	11342
간판	11343
그란	11344
천국	11345
충청북도	11346
스탭	11347
일지	11348
스탈린	11349
히드라	11350
이별	11351
닷	11352
도대	11353
토라	11354
필사	11355
테르	11356
알렉산드	11357
얼리	11358
과금	11359
##구니	11360
욱	11361
rd	11362
Night	11363
각국	11364
잼	11365
욕심	11366
BC	11367
차장	11368
마르코	11369
상냥	11370
토우	11371
나들	11372
강인	11373
not	11374
조립	11375
레버	11376
시안	11377
회로	11378
##당초	11379
앨런	11380
미녀	11381
련	11382
고추	11383
헤라	11384
나들목	11385
리버스	11386
##워프	11387
##IL	11388
달려오	11389
이사장	11390
지크	11391
김주	11392
뻘	11393
수라	11394
아케	11395
단자	11396
스매	11397
승패	11398
지지율	11399
테리	11400
요코하마	11401
암컷	11402
인텔	11403
공국	11404
##당기	11405
##히토	11406
##ild	11407
##무지	11408
##러브	11409
하여금	11410
얌	11411
168	11412
##틈	11413
일일	11414
김광	11415
페르소나	11416
오토바이	11417
Let	11418
수소	11419
툭	11420
##티노	11421
리프트	11422
물약	11423
도미	11424
마쓰	11425
깨끗	11426
⭧ᆯ래	11427
병행	11428
희생자	11429
디아블로	11430
고이	11431
오사	11432
키요	11433
학회	11434
하지	11435
피난	11436
단백질	11437
굶	11438
상부	11439
난민	11440
스크롤	11441
##ody	11442
돌려	11443
바텀	11444
로비	11445
만렙	11446
테니스	11447
갸	11448
등재	11449
목욕	11450
##깃	11451
사탕	11452
빙결	11453
Black	11454
들르	11455
어원	11456
펑크	11457
159	11458
일환	11459
어서	11460
코끼리	11461
밀리언	11462
신작	11463
보로	11464
무녀	11465
스윙	11466
이승만	11467
##세지	11468
미노	11469
얄	11470
도배	11471
퍼펙트	11472
BD	11473
칼라	11474
평택	11475
무신	11476
춤추	11477
말레이시아	11478
라인하르트	11479
##바리	11480
부처	11481
아마존	11482
일어	11483
⭧ㅔ	11484
인쇄	11485
내밀	11486
리자	11487
여주인	11488
해변	11489
##진호	11490
##클린	11491
해역	11492
오즈	11493
파고	11494
호리	11495
아인	11496
신생	11497
화신	11498
금발	11499
무지개	11500
부친	11501
환생	11502
##톨	11503
둥지	11504
덥	11505
콰	11506
##빗	11507
삿	11508
마도카	11509
가해	11510
##딴	11511
직행	11512
1948	11513
mar	11514
##ough	11515
응답	11516
해전	11517
발사기	11518
아메리칸	11519
국기	11520
진흥	11521
엉덩이	11522
⭧머	11523
맑	11524
삼키	11525
AF	11526
대니	11527
늪	11528
MM	11529
챔스	11530
절단	11531
1944	11532
미소녀	11533
세례	11534
아무렇	11535
도대체	11536
모의	11537
무능	11538
스트로	11539
1965	11540
성벽	11541
OG	11542
부제	11543
히사	11544
##33	11545
##모습	11546
명장	11547
두껍	11548
맛보	11549
쿠르	11550
유머	11551
중공	11552
일조	11553
로스앤	11554
로스앤젤레스	11555
퓨전	11556
스텔스	11557
섬멸	11558
노부나가	11559
충남	11560
석사	11561
방언	11562
프랑크	11563
회계	11564
간지	11565
불상	11566
스쿼드	11567
노릇	11568
아카네	11569
##멘터리	11570
주저	11571
RE	11572
섭취	11573
아슬	11574
울음	11575
와이번스	11576
수중	11577
식스	11578
수아	11579
약체	11580
필라	11581
4000	11582
눈앞	11583
Op	11584
##gr	11585
데몬	11586
일명	11587
대국	11588
조수	11589
안토니	11590
벨라	11591
좌파	11592
전임	11593
##타리	11594
##스크림	11595
빅토리아	11596
카일	11597
사임	11598
고래	11599
동상	11600
집필	11601
객관	11602
출석	11603
##aster	11604
접수	11605
⭧ㅔ요	11606
빌보드	11607
공교	11608
외야수	11609
##app	11610
마을버스	11611
그리스도	11612
메디	11613
##orts	11614
평상시	11615
목포	11616
확립	11617
두루	11618
비평	11619
인피니티	11620
선회	11621
사이토	11622
대안	11623
##성군	11624
그리핀	11625
⭧까	11626
뾰	11627
대승	11628
연세대	11629
유메	11630
##uc	11631
보살	11632
뺘	11633
쿄코	11634
베이비	11635
사천	11636
교향	11637
에코	11638
##벼	11639
드워프	11640
애용	11641
혼혈	11642
1946	11643
걸어가	11644
##고속도로	11645
##은이	11646
십자군	11647
아수	11648
신관	11649
아니하	11650
워드	11651
공동체	11652
성지	11653
이계	11654
주공	11655
PK	11656
다큐멘터리	11657
주입	11658
##ᅩᆯ	11659
##시티	11660
어제	11661
루미	11662
장본	11663
해고	11664
꺼지	11665
알렉산더	11666
무자	11667
옐로	11668
서울시	11669
최상급	11670
보우	11671
컨디션	11672
츤	11673
그랑프리	11674
동북	11675
위시	11676
휴게	11677
스카웃	11678
김대중	11679
##CE	11680
이무	11681
주파	11682
제발	11683
스기	11684
##ject	11685
en	11686
편의점	11687
스타워즈	11688
껍질	11689
평판	11690
라비	11691
프랭크	11692
교대	11693
##OO	11694
EXT	11695
⭧샤	11696
⭧몬	11697
탄소	11698
침해	11699
..?	11700
카토	11701
블라디	11702
득표율	11703
비로	11704
가령	11705
##ari	11706
단련	11707
줄리	11708
폭로	11709
math	11710
낯	11711
믿음	11712
아유	11713
카게	11714
자력	11715
컴뱃	11716
전도	11717
##그라	11718
놔	11719
방안	11720
댐	11721
면제	11722
수컷	11723
사지	11724
퍼시	11725
##긋나	11726
민폐	11727
집사	11728
le	11729
휴대폰	11730
AL	11731
흑막	11732
진도	11733
테이프	11734
CR	11735
독백	11736
정답	11737
아쉬움	11738
크롬	11739
라우	11740
히로시마	11741
솔저	11742
정서	11743
숙청	11744
섬광	11745
아르바이트	11746
EZ	11747
두려움	11748
유즈	11749
대면	11750
소마	11751
막부	11752
려	11753
성대	11754
뻔하	11755
##프란	11756
리부	11757
타우	11758
##각형	11759
와타나베	11760
구호	11761
달콤	11762
원한	11763
라가	11764
밈	11765
큐어	11766
경제학	11767
항성	11768
원자력	11769
##iel	11770
감성	11771
우미	11772
떠돌	11773
팜	11774
단서	11775
강동	11776
지각	11777
냉장	11778
남학생	11779
공명	11780
##퍼니	11781
관광객	11782
151	11783
홈경기	11784
##미르	11785
둥글	11786
찬양	11787
하와	11788
사르	11789
보복	11790
격퇴	11791
138	11792
Gu	11793
신념	11794
스틱	11795
배리	11796
신조	11797
⭧으려면	11798
SA	11799
⭧던지라	11800
가해자	11801
장본인	11802
쑤	11803
티저	11804
광복	11805
남양	11806
개업	11807
320	11808
케리	11809
하도	11810
172	11811
⫸치	11812
GSL	11813
눈동자	11814
은메달	11815
적이	11816
##애나	11817
점하	11818
타카하시	11819
권하	11820
정우	11821
휴먼	11822
벡터	11823
수성	11824
##오피스	11825
상시	11826
남한	11827
가이아	11828
##TA	11829
김병	11830
천주교	11831
ATK	11832
살아오	11833
어기	11834
##ats	11835
순천	11836
##도전	11837
##ye	11838
지면	11839
의의	11840
강아지	11841
어벤져	11842
단역	11843
보직	11844
우기	11845
EU	11846
##eah	11847
불화	11848
동아시아	11849
개막전	11850
사와	11851
아드	11852
자루	11853
주한	11854
315	11855
시네마	11856
1961	11857
##총장	11858
##부인	11859
##바람	11860
컬렉션	11861
풍경	11862
GD	11863
서바이벌	11864
일각	11865
천지	11866
배후	11867
테레	11868
걸음	11869
##중간	11870
얼티밋	11871
투고	11872
##운수	11873
고난	11874
트이	11875
TOP	11876
Mag	11877
오공	11878
158	11879
코레	11880
⭧케	11881
##디스	11882
균열	11883
동사	11884
대교	11885
찔리	11886
내정	11887
그리하여	11888
라이드	11889
샹	11890
CL	11891
노비	11892
표기법	11893
상원	11894
도스	11895
재질	11896
탁월	11897
다녀오	11898
깃털	11899
흑역사	11900
카사	11901
손잡이	11902
가왕	11903
악행	11904
캡슐	11905
무한도전	11906
통보	11907
##이센	11908
마미	11909
스톡	11910
시련	11911
추모	11912
로맨스	11913
AB	11914
민병	11915
NT	11916
##쑤	11917
물리학	11918
##꿉	11919
여수	11920
ver	11921
리믹스	11922
수확	11923
로제	11924
흉내	11925
스파크	11926
동메달	11927
카이저	11928
내면	11929
일산	11930
스칼	11931
숭배	11932
루마니아	11933
UC	11934
##oh	11935
⫸치고	11936
##eth	11937
이순신	11938
매그	11939
충고	11940
표식	11941
##ron	11942
동이	11943
박스오피스	11944
소꿉	11945
쿠사	11946
슬라이드	11947
제대	11948
##성이	11949
독보	11950
결과물	11951
병살	11952
금고	11953
##ings	11954
아이즈	11955
##룸	11956
그레이드	11957
주차장	11958
마저	11959
이호	11960
김일성	11961
패트	11962
청사	11963
유마	11964
구제	11965
##내리	11966
##메리카	11967
제인	11968
사범	11969
신상	11970
어판	11971
이세	11972
볶	11973
건립	11974
레이지	11975
176	11976
공로	11977
도요	11978
컴퍼니	11979
방정	11980
크라운	11981
다저스	11982
딥	11983
삽질	11984
will	11985
간파	11986
운반	11987
지미	11988
Is	11989
ME	11990
재수	11991
예고편	11992
##트론	11993
보가	11994
##짤	11995
##떡	11996
직무	11997
##느님	11998
병과	11999
계략	12000
저항력	12001
테란	12002
호응	12003
타리	12004
발톱	12005
##inal	12006
궁수	12007
군데	12008
심정	12009
##==	12010
126	12011
차림	12012
김윤	12013
신임	12014
1949	12015
오로치	12016
정의당	12017
마수	12018
안드레	12019
주의자	12020
Am	12021
과격	12022
대명	12023
완벽히	12024
하느님	12025
자작	12026
기온	12027
폴아웃	12028
승려	12029
자카	12030
상어	12031
친일	12032
우두머리	12033
이점	12034
10000	12035
겟	12036
몸매	12037
어그	12038
보루	12039
Don	12040
테오	12041
문법	12042
팍	12043
감금	12044
타스	12045
서원	12046
갈기	12047
##ult	12048
겨루	12049
크로우	12050
라이트닝	12051
무선	12052
바이킹	12053
응급	12054
코로나	12055
리리	12056
테크노	12057
154	12058
사망자	12059
like	12060
레시피	12061
LE	12062
패왕	12063
세르비아	12064
총사	12065
쫓기	12066
흉악	12067
WH	12068
방울	12069
스치	12070
맷집	12071
{{{-	12072
KB	12073
뒤쪽	12074
풀려나	12075
Time	12076
리볼	12077
132	12078
##총리	12079
##MAN	12080
클레이	12081
주황	12082
전법	12083
##핏	12084
총선거	12085
법안	12086
유해	12087
드루이드	12088
무비	12089
도사	12090
웨폰	12091
거꾸	12092
김성근	12093
표하	12094
짬	12095
습하	12096
레슬링	12097
센트럴	12098
아테나	12099
new	12100
##넛	12101
##덕션	12102
성폭	12103
##빨리	12104
성직자	12105
강서	12106
##13	12107
멸종	12108
응시	12109
##저래	12110
지배자	12111
##마치	12112
이즈미	12113
빗나가	12114
강습	12115
천체	12116
저승	12117
이래저래	12118
반기	12119
218	12120
완성도	12121
이용객	12122
테크닉	12123
이리저리	12124
르노	12125
Mi	12126
피드	12127
##겸	12128
장신구	12129
##GA	12130
니트	12131
코디	12132
로열	12133
떨구	12134
국민당	12135
난리	12136
##ov	12137
취지	12138
##oul	12139
슌	12140
퉁	12141
급식	12142
충격파	12143
트론	12144
##18	12145
상의	12146
라이징	12147
##낭	12148
##곰	12149
손목	12150
선봉	12151
리츠	12152
##조합	12153
엠블	12154
이영호	12155
탐구	12156
유신	12157
키노	12158
당나라	12159
짝사랑	12160
더미	12161
지터	12162
##ob	12163
제너	12164
핑계	12165
보트	12166
⫸우	12167
태조	12168
전염	12169
##나르	12170
리우스	12171
야망	12172
미남	12173
과언	12174
블랙홀	12175
유능	12176
후반전	12177
어드배	12178
고조	12179
##ould	12180
##ᆼ가	12181
하우	12182
이쿠	12183
##전사	12184
통틀어	12185
⭧으리	12186
156	12187
##보우	12188
마가	12189
..!	12190
iOS	12191
무궁	12192
Ser	12193
마마	12194
##친구	12195
카제	12196
one	12197
164	12198
스크래	12199
##alk	12200
코프	12201
버거	12202
진하	12203
##처럼	12204
엮	12205
##tern	12206
##yn	12207
재벌	12208
숙련도	12209
139	12210
나란히	12211
배율	12212
##던지	12213
필두	12214
렀다	12215
샤를	12216
##활약	12217
놔두	12218
얼라이	12219
⭧ᆫ가요	12220
유카리	12221
⫸이나마	12222
##15	12223
능하	12224
몰려오	12225
모에	12226
긋	12227
시간대	12228
이인	12229
미세	12230
##up	12231
구청	12232
153	12233
조던	12234
매기	12235
네크로	12236
하츠네	12237
아호	12238
먼지	12239
벚	12240
교정	12241
저격수	12242
Gaming	12243
플리	12244
하나님	12245
##레이크	12246
##reak	12247
무슬리	12248
반장	12249
콜롬	12250
감기	12251
공격기	12252
거꾸로	12253
커플링	12254
무슬림	12255
양심	12256
합법	12257
초등학생	12258
나열	12259
김두	12260
이광	12261
##고사	12262
##der	12263
##able	12264
GK	12265
오키나	12266
하드웨어	12267
유라	12268
##제스	12269
접전	12270
⭧ᆫ듯	12271
리터	12272
전두	12273
청장	12274
엉뚱	12275
하비	12276
성숙	12277
세미	12278
후면	12279
누이	12280
지성	12281
상공	12282
오바	12283
최하	12284
148	12285
디비전	12286
가히	12287
신주	12288
Car	12289
맞먹	12290
##ions	12291
허브	12292
##로그	12293
인천광역시	12294
##사고	12295
연달	12296
탄막	12297
범하	12298
실업	12299
셋째	12300
니콜라	12301
##엘라	12302
스케줄	12303
표창	12304
동등	12305
Your	12306
얼라이언스	12307
마티	12308
타키	12309
단의	12310
벌금	12311
주유	12312
⫸롤	12313
##문화	12314
167	12315
##널드	12316
⭧ᆫ단	12317
볼드	12318
고우	12319
장시	12320
김선	12321
냉장고	12322
스마일	12323
쟁이	12324
대등	12325
맞대	12326
203	12327
동지	12328
북서	12329
봉하	12330
##바스	12331
배열	12332
달인	12333
지표	12334
몰아넣	12335
애드	12336
쫓아내	12337
황혼	12338
프로덕션	12339
##쿠스	12340
어긋나	12341
애국	12342
##타니	12343
데미	12344
SSR	12345
창작물	12346
##백과	12347
##주의자	12348
##PA	12349
사료	12350
무색	12351
1958	12352
브라우	12353
가나	12354
1941	12355
음향	12356
174	12357
이니	12358
오역	12359
주술사	12360
야마모토	12361
승급	12362
##왜	12363
아수라	12364
영화배우	12365
##ull	12366
휴스턴	12367
도모	12368
##타르	12369
공모	12370
무죄	12371
갈구	12372
꾸리	12373
사야카	12374
##프란시스코	12375
샌프란시스코	12376
전례	12377
라틴어	12378
##재기	12379
##뼈	12380
종말	12381
여주인공	12382
se	12383
유타	12384
타당	12385
노하	12386
동년	12387
시끄럽	12388
##뱉	12389
Min	12390
설탕	12391
법학	12392
깨우	12393
버블	12394
번식	12395
##ᅰ어	12396
처녀	12397
앞세우	12398
무안	12399
RO	12400
##셉트	12401
시뮬레이션	12402
142	12403
자키	12404
##니코	12405
밀라	12406
통행	12407
지지자	12408
바이크	12409
##상가	12410
LTE	12411
광범	12412
레이븐	12413
##차리	12414
굳히	12415
영등	12416
##껑	12417
문헌	12418
사내	12419
헤드샷	12420
빈약	12421
인명	12422
염색	12423
스페인어	12424
쳐들어오	12425
카인	12426
주가	12427
순간이동	12428
##무네	12429
163	12430
혼동	12431
원화	12432
런처	12433
과감	12434
박탈	12435
파이프	12436
가라앉	12437
한층	12438
##기업	12439
배상	12440
수령	12441
차일드	12442
맹활약	12443
토비	12444
레인보우	12445
생각나	12446
득실	12447
##넨	12448
이오리	12449
프로이센	12450
##ube	12451
##ECT	12452
일련	12453
러너	12454
비즈	12455
마스코트	12456
꼴찌	12457
1954	12458
우편	12459
염두	12460
BGA	12461
레바	12462
리볼버	12463
##아티아	12464
제자리	12465
졸업식	12466
네스	12467
크로아티아	12468
강수	12469
월요일	12470
제리	12471
진로	12472
안보	12473
##ll	12474
전학	12475
##크리	12476
have	12477
플레임	12478
후쿠시마	12479
사가	12480
pr	12481
태권	12482
회견	12483
##보라	12484
맥락	12485
##뤼	12486
제지	12487
단식	12488
찰나	12489
설마	12490
황실	12491
out	12492
레슨	12493
절정	12494
음력	12495
밀레	12496
오리온	12497
수하	12498
##퉁	12499
기관포	12500
페미니즘	12501
대목	12502
연막	12503
능숙	12504
른	12505
발현	12506
대외	12507
득표수	12508
크리스토	12509
장례식	12510
상속	12511
약칭	12512
이만	12513
##스티스	12514
##ICE	12515
##립트	12516
##랄드	12517
내ᄈ	12518
스캔	12519
초상화	12520
환호	12521
카렌	12522
단총	12523
연고지	12524
사소	12525
안제	12526
NM	12527
제프	12528
복음	12529
토론토	12530
미트	12531
대군	12532
파우	12533
143	12534
밀어붙이	12535
137	12536
공고	12537
대법원	12538
호스	12539
죄수	12540
⭧디	12541
부호	12542
##물리	12543
앞면	12544
당원	12545
한강	12546
무너	12547
무너뜨리	12548
소우	12549
따내	12550
시흥	12551
너클	12552
릴리스	12553
방벽	12554
공짜	12555
쳐다보	12556
##베르트	12557
투사	12558
창당	12559
313	12560
현직	12561
노골	12562
격하	12563
혹평	12564
Sum	12565
무단	12566
솔직히	12567
망설이	12568
평창	12569
⭧다지만	12570
내뱉	12571
한정판	12572
##귄	12573
소꿉친구	12574
사당	12575
박종	12576
펙	12577
양국	12578
빙의	12579
북동	12580
##바루	12581
차분	12582
왓	12583
HS	12584
인체	12585
외관	12586
ALL	12587
플라스틱	12588
오비	12589
경찰청	12590
꿇	12591
가미	12592
자포	12593
테일즈	12594
트러	12595
두뇌	12596
무식	12597
CN	12598
IV	12599
추출	12600
랜서	12601
설비	12602
이력	12603
##구나	12604
치마	12605
##소수	12606
베어	12607
1943	12608
십자가	12609
230	12610
이준	12611
전반기	12612
앵커	12613
반란군	12614
알아차리	12615
스트레이	12616
오딘	12617
바티	12618
아테네	12619
태자	12620
뮤지션	12621
##대사	12622
델타	12623
북구	12624
##박이	12625
순찰	12626
키드	12627
맹독	12628
남미	12629
난투	12630
오케스트라	12631
프로스트	12632
기술력	12633
푼	12634
##ᅨᆫ	12635
우산	12636
157	12637
관계없이	12638
해상도	12639
몰아내	12640
##모어	12641
강탈	12642
오쿠	12643
극악	12644
133	12645
숙주	12646
⭧ᆯ까요	12647
##FL	12648
기이	12649
슬슬	12650
공자	12651
브레스	12652
거스르	12653
갈리아	12654
바비	12655
미시	12656
un	12657
출제	12658
146	12659
팬티	12660
129	12661
극우	12662
뚝	12663
잔해	12664
윈터	12665
확고	12666
구독자	12667
세키	12668
##더슨	12669
000000	12670
플레이버	12671
1942	12672
광범위	12673
별칭	12674
지극	12675
##곧	12676
청룡	12677
화약	12678
##STER	12679
비참	12680
173	12681
시에	12682
나카무라	12683
카오루	12684
BO	12685
##트랙	12686
워너	12687
##결승	12688
종사	12689
미쓰	12690
박명	12691
섹스	12692
발하	12693
달래	12694
힌트	12695
키즈	12696
경선	12697
##드리히	12698
채찍	12699
여장	12700
리뉴	12701
리셋	12702
##천사	12703
기쁨	12704
클리셰	12705
원년	12706
진구	12707
폐허	12708
margin	12709
실바	12710
##맷	12711
수영복	12712
know	12713
서치	12714
카테고리	12715
오디오	12716
라시	12717
연안	12718
멘붕	12719
전수	12720
해태	12721
##무게	12722
호출	12723
텔레포트	12724
몸무게	12725
후대	12726
칠레	12727
폴리스	12728
팀장	12729
##MAX	12730
끓이	12731
set	12732
##무이	12733
방화	12734
##DX	12735
나락	12736
생물학	12737
청원	12738
##날두	12739
OF	12740
호날두	12741
통증	12742
기행	12743
공습	12744
공천	12745
136	12746
Play	12747
체스	12748
생애	12749
BT	12750
사나이	12751
팩션	12752
미하	12753
##던지	12754
파랑	12755
시초	12756
##ica	12757
정교회	12758
CB	12759
##믹	12760
##che	12761
##소총	12762
Of	12763
서장	12764
애쉬	12765
태종	12766
##ock	12767
히카루	12768
번갈	12769
포니	12770
바그	12771
##생기	12772
얼터	12773
As	12774
la	12775
##풀이	12776
개판	12777
미모	12778
우크라	12779
크리스티	12780
망상	12781
##YP	12782
증기	12783
제조사	12784
메세지	12785
빈번	12786
저조	12787
Red	12788
아노	12789
##회장	12790
럭키	12791
Type	12792
BM	12793
하의	12794
##제국	12795
양대	12796
##14	12797
불문	12798
##산역	12799
오른팔	12800
애쓰	12801
브루스	12802
일러스트레이터	12803
잠그	12804
조력	12805
심화	12806
므	12807
복도	12808
클라우드	12809
149	12810
⭧다만	12811
버터	12812
대패	12813
정준	12814
바인	12815
혼다	12816
라이센스	12817
우파	12818
박영	12819
친정	12820
산탄총	12821
##에몽	12822
##전설	12823
치바	12824
교육청	12825
유선	12826
바나나	12827
때려잡	12828
트랜스포	12829
넓히	12830
샤오	12831
BA	12832
포맷	12833
오키나와	12834
##ict	12835
미끼	12836
범주	12837
##17	12838
##스틴	12839
라파	12840
스ᄂ	12841
심야	12842
134	12843
율리	12844
1900	12845
슬라임	12846
마니	12847
1956	12848
미숙	12849
인터페이스	12850
맞물리	12851
경지	12852
해독	12853
##지않	12854
가의	12855
스나	12856
로라	12857
TP	12858
입국	12859
냉동	12860
지주	12861
가혹	12862
진리	12863
목재	12864
DI	12865
##ᆺ대	12866
##ster	12867
레슬러	12868
신세계	12869
책상	12870
공손	12871
퍼센트	12872
##ange	12873
나사	12874
##ater	12875
대사관	12876
EV	12877
개미	12878
부흥	12879
운항	12880
가로막	12881
거느리	12882
밧	12883
깡패	12884
뫼	12885
진짜로	12886
##티넘	12887
김천	12888
플래티넘	12889
슈가	12890
비꼬	12891
왕관	12892
High	12893
태미	12894
슬램	12895
사일	12896
##ons	12897
캇	12898
##권자	12899
##모니	12900
##뿔	12901
무수	12902
##메라	12903
로그인	12904
##ᅣᆯ	12905
자부	12906
열세	12907
파손	12908
심히	12909
파괴력	12910
트레이닝	12911
⭧이	12912
장갑차	12913
##살리	12914
pro	12915
중후	12916
제이슨	12917
앞뒤	12918
##레슬링	12919
오세	12920
땀	12921
분쇄	12922
달라	12923
교양	12924
스매시	12925
불쾌	12926
초래	12927
개개	12928
자켓	12929
무명	12930
feat	12931
진형	12932
요우	12933
입법	12934
TE	12935
찰리	12936
원망	12937
프로그래밍	12938
NEW	12939
미들	12940
수시로	12941
섹시	12942
외면	12943
프로레슬링	12944
페이크	12945
재림	12946
슬러그	12947
축구단	12948
##나리	12949
##왜란	12950
악곡	12951
임진왜란	12952
##ple	12953
보디	12954
증인	12955
중급	12956
열기	12957
랜스	12958
트리스	12959
싱어	12960
인트	12961
경질	12962
칙	12963
방정식	12964
퇴역	12965
쇼트	12966
사천왕	12967
전두환	12968
##넉	12969
지난	12970
스바루	12971
##콕	12972
시집	12973
주고	12974
모어	12975
##교통	12976
%.	12977
뒷면	12978
콕	12979
싣	12980
연말	12981
##니스트	12982
147	12983
스팅	12984
공과	12985
골목	12986
##툴	12987
비로소	12988
Light	12989
##차례	12990
아래쪽	12991
패스트	12992
닫히	12993
미식	12994
박해	12995
호프	12996
자회사	12997
퓨처	12998
상대식	12999
심상	13000
클러	13001
AE	13002
안철수	13003
생선	13004
앰	13005
꽁	13006
##주군	13007
##무늬	13008
폐선	13009
##이스	13010
280	13011
##탈리	13012
세일러	13013
배우자	13014
실로	13015
##세서리	13016
최정	13017
엄폐	13018
2500	13019
소령	13020
제우스	13021
헐크	13022
##바다	13023
하지메	13024
저스티스	13025
드리블	13026
오프라인	13027
⭧드라	13028
MO	13029
수용소	13030
선인	13031
##티지	13032
GHz	13033
##카미	13034
철갑탄	13035
세츠	13036
옌	13037
##텍스	13038
착지	13039
직통	13040
##지오	13041
메구미	13042
Gen	13043
아랑	13044
웨일	13045
관절	13046
222	13047
차관	13048
마켓	13049
토막	13050
##to	13051
CO	13052
의아	13053
##에트	13054
격리	13055
테일러	13056
히나타	13057
##구역	13058
편견	13059
##토랑	13060
##니즘	13061
##의회	13062
실천	13063
레스토랑	13064
가브리	13065
넥스	13066
굴러	13067
따라잡	13068
~"	13069
보잉	13070
강세	13071
수상자	13072
1939	13073
음색	13074
불리우	13075
##더기	13076
배속	13077
레프	13078
김연	13079
##CC	13080
개그맨	13081
was	13082
라임	13083
What	13084
제단	13085
소행	13086
로브	13087
메테	13088
면접	13089
꼼수	13090
템포	13091
감행	13092
레규	13093
프로세서	13094
배신자	13095
푹	13096
용의자	13097
##산동	13098
복용	13099
거르	13100
##고래	13101
Kor	13102
166	13103
미호	13104
로지	13105
증권	13106
하시	13107
고음	13108
원종	13109
연기력	13110
1959	13111
##컨드	13112
물어보	13113
⭧지요	13114
반론	13115
도쿠가와	13116
지문	13117
##ics	13118
1936	13119
타고	13120
야전	13121
프랜차	13122
⭧바	13123
명탐정	13124
세컨드	13125
동조	13126
섬유	13127
소설가	13128
롤링	13129
일삼	13130
냉기	13131
두목	13132
##사관	13133
신칸	13134
준공	13135
술집	13136
하후	13137
탈당	13138
우물	13139
재임	13140
##ACK	13141
화소	13142
Heart	13143
##투아	13144
산화	13145
러닝	13146
미도리	13147
공영	13148
Tw	13149
종착	13150
펭귄	13151
조교	13152
소노	13153
스콧	13154
프랜차이즈	13155
##les	13156
플로리	13157
케리건	13158
미수	13159
내역	13160
역학	13161
LOVE	13162
필터	13163
웨인	13164
oh	13165
1955	13166
GPU	13167
삼촌	13168
미스터리	13169
##ex	13170
##사와	13171
기피	13172
뱃	13173
병종	13174
##BM	13175
이아	13176
트랜스포머	13177
##데르	13178
모함	13179
##어붙	13180
어벤져스	13181
퍼붓	13182
랙	13183
아이스크림	13184
체격	13185
하카	13186
낡	13187
투신	13188
NHK	13189
AG	13190
##쫓	13191
##커녕	13192
투성이	13193
에그	13194
반환	13195
아이폰	13196
찌질	13197
전광	13198
성기	13199
위키백과	13200
어린아이	13201
Mr	13202
파문	13203
##니스탄	13204
신칸센	13205
책략	13206
동문	13207
루키	13208
콘셉트	13209
토가	13210
채취	13211
사모	13212
기술자	13213
Blo	13214
동호	13215
재활	13216
둘러싸이	13217
PL	13218
하이브리	13219
경보	13220
호무	13221
속편	13222
영등포	13223
참으로	13224
이방	13225
시가	13226
그제	13227
야마다	13228
⭧락	13229
물가	13230
하이브리드	13231
##lass	13232
전열	13233
더구나	13234
가르침	13235
##플렉스	13236
솔라	13237
##레드	13238
장학	13239
##16	13240
인구수	13241
특훈	13242
##테스	13243
부도	13244
응하	13245
냉각	13246
봉기	13247
레귤러	13248
자질	13249
반군	13250
FPS	13251
주되	13252
틀어	13253
MK	13254
플루	13255
##AND	13256
깃들	13257
다면	13258
부당	13259
##무실	13260
##두리	13261
준결승	13262
장편	13263
방호	13264
TO	13265
스트리밍	13266
최대치	13267
쫓아가	13268
방송인	13269
좌표	13270
서민	13271
마의	13272
##아슬	13273
아슬아슬	13274
말년	13275
Par	13276
보행	13277
정형	13278
##전트	13279
소사	13280
져	13281
##며	13282
메우	13283
##nder	13284
##플러스	13285
##규모	13286
패드	13287
인사이드	13288
스크립트	13289
모던	13290
로테이션	13291
1952	13292
쐐	13293
상행	13294
라바	13295
time	13296
포식	13297
뢰	13298
뇌물	13299
적립	13300
수량	13301
가와	13302
소매	13303
악하	13304
전반전	13305
공존	13306
범행	13307
ll	13308
330	13309
되살리	13310
수도원	13311
내뿜	13312
##교육	13313
##튠	13314
##더링	13315
하반기	13316
엣지	13317
##좀	13318
캐슬	13319
270	13320
사슴	13321
핸	13322
캔디	13323
카즈야	13324
##ors	13325
Fe	13326
##볼루션	13327
교통사고	13328
륙	13329
패닉	13330
얼어붙	13331
노래방	13332
도청	13333
##ME	13334
도호	13335
더하	13336
##란트	13337
접어들	13338
표본	13339
단과	13340
죠죠	13341
신수	13342
쥰	13343
김도	13344
LED	13345
카니	13346
정계	13347
페니	13348
불가리아	13349
경과	13350
오타쿠	13351
속력	13352
유대인	13353
서해	13354
몹시	13355
스텔라	13356
담임	13357
직속	13358
중년	13359
어미	13360
뱉	13361
끝장	13362
스윕	13363
카우	13364
태극	13365
여배우	13366
순정	13367
뚜껑	13368
매지	13369
입양	13370
에메랄드	13371
발라드	13372
멋있	13373
탈리	13374
교섭	13375
테러리스트	13376
구마	13377
함성	13378
파키스탄	13379
⫸거나	13380
출고	13381
1947	13382
GTA	13383
파격	13384
동로	13385
원고	13386
##단지	13387
저거	13388
필립	13389
춘천	13390
#!	13391
솜씨	13392
##대기	13393
225	13394
평안	13395
모양새	13396
Good	13397
우체	13398
얕	13399
두근	13400
전속	13401
르네	13402
거품	13403
심문	13404
박상	13405
맴	13406
방공	13407
직격	13408
소시	13409
상쇄	13410
스퀘어	13411
짤리	13412
영동	13413
우상	13414
곡선	13415
재빨리	13416
저희	13417
무고	13418
발간	13419
현존	13420
세스	13421
Per	13422
##뿌	13423
유지비	13424
적색	13425
현황	13426
이에	13427
서두르	13428
⭧ᆯ라	13429
따돌리	13430
다이노스	13431
프리드리히	13432
사투리	13433
핸드폰	13434
쓰러트리	13435
멜론	13436
##수수	13437
바닷	13438
영남	13439
로저	13440
자각	13441
##려보	13442
순교	13443
광대	13444
##딕	13445
쥬얼	13446
배리어	13447
호구	13448
단말	13449
자칫	13450
산악	13451
하행	13452
##글라스	13453
오락실	13454
##무기	13455
시가지	13456
스파이크	13457
프랑스군	13458
카를로스	13459
마초	13460
베일	13461
월등	13462
신흥	13463
그랜	13464
갈라	13465
벚꽃	13466
어워드	13467
##ᆺ집	13468
앤디	13469
SL	13470
##파리	13471
am	13472
##HT	13473
라프	13474
사탄	13475
텀	13476
넉넉	13477
성서	13478
털어놓	13479
석상	13480
발렌타인	13481
쎄	13482
신병	13483
적재	13484
레즈	13485
260	13486
스내	13487
급히	13488
마신	13489
##eep	13490
보리	13491
우천	13492
1800	13493
격전	13494
래스터	13495
쏠	13496
유나	13497
메이트	13498
바닐라	13499
요미우리	13500
유니콘	13501
미유키	13502
##윽	13503
MSL	13504
##뚫	13505
타이완	13506
더욱이	13507
하리	13508
선우	13509
구절	13510
부관	13511
1919	13512
리바운드	13513
홀딩	13514
본의	13515
줌	13516
호투	13517
실력자	13518
브이	13519
휩싸	13520
IIDX	13521
몰아붙이	13522
고산	13523
하라	13524
새우	13525
부사관	13526
공약	13527
추궁	13528
중학생	13529
호르	13530
불신	13531
아홉	13532
##ott	13533
받치	13534
##ᆯ리언	13535
원내	13536
즉각	13537
프로모	13538
심연	13539
질풍	13540
비타	13541
간호사	13542
야만	13543
기함	13544
상용	13545
차용	13546
핸들	13547
미티	13548
Kn	13549
쳐내	13550
ab	13551
정정	13552
상장	13553
신정	13554
일례	13555
유니온	13556
0900	13557
퐁	13558
남작	13559
군림	13560
소실	13561
징크스	13562
Li	13563
로스터	13564
⭧ㅓㅆ었	13565
눈빛	13566
이례	13567
시부	13568
꿰뚫	13569
증발	13570
호박	13571
카이사르	13572
부류	13573
텅	13574
냅	13575
선형	13576
페이트	13577
유방	13578
장원	13579
운석	13580
EBS	13581
단정	13582
##메다	13583
적성	13584
고분	13585
다중	13586
wid	13587
헬리코	13588
유정	13589
포워드	13590
프로토타입	13591
Wii	13592
클라이	13593
##문트	13594
에바	13595
⭧ᆯ려고	13596
츤데레	13597
##수아	13598
타고나	13599
도시락	13600
##메스	13601
최우수	13602
프롤로그	13603
소리치	13604
This	13605
근력	13606
안성	13607
호그	13608
⭧ㅏ야	13609
드레드	13610
머스	13611
훈훈	13612
미로	13613
여관	13614
설화	13615
성비	13616
⭧ᆯ지라도	13617
하와이	13618
악령	13619
조준경	13620
##산물	13621
축적	13622
픽셀	13623
##IV	13624
길거리	13625
헬리콥터	13626
구타	13627
##자동	13628
유무	13629
양보	13630
지름	13631
유승	13632
회귀	13633
⭧더라면	13634
Baby	13635
##25	13636
##IK	13637
소규모	13638
본가	13639
카디	13640
페인	13641
후루	13642
망원	13643
남서	13644
##anna	13645
허위	13646
격투기	13647
기관차	13648
##두사	13649
##파크	13650
루루	13651
자본주의	13652
프린스	13653
깽	13654
교훈	13655
트러블	13656
실정	13657
진수	13658
제보	13659
페르난	13660
전산	13661
농사	13662
켈리	13663
정재	13664
습관	13665
HARD	13666
Sm	13667
바오	13668
불평	13669
존대	13670
일레븐	13671
럴	13672
ONE	13673
스토커	13674
탄탄	13675
엘리스	13676
동요	13677
떄	13678
충북	13679
서정	13680
유코	13681
히데요시	13682
루터	13683
킹덤	13684
1953	13685
대중교통	13686
스콜	13687
에필로그	13688
레이트	13689
서태	13690
자문	13691
게임즈	13692
밀집	13693
대진	13694
중성	13695
샤워	13696
##포드	13697
##델피아	13698
필라델피아	13699
GN	13700
민정	13701
##넘기	13702
1938	13703
리키	13704
심리학	13705
##other	13706
총괄	13707
관념	13708
원작자	13709
Rock	13710
송출	13711
격침	13712
##행위	13713
첫날	13714
169	13715
프렌즈	13716
us	13717
회화	13718
단속	13719
줄어드	13720
##19	13721
박용	13722
청산	13723
석방	13724
##바키아	13725
빌라	13726
##세포	13727
미팅	13728
책정	13729
독서	13730
뽐	13731
리부트	13732
550	13733
야외	13734
브레인	13735
우가	13736
만료	13737
구두	13738
만루	13739
자격증	13740
##똑	13741
##로니	13742
##앙스	13743
총회	13744
장풍	13745
width	13746
선대	13747
고토	13748
말미	13749
양측	13750
파벌	13751
수수료	13752
##팍	13753
수평	13754
##icro	13755
Live	13756
밀어주	13757
##케인	13758
고든	13759
수복	13760
요시다	13761
일품	13762
리조	13763
김원	13764
생산량	13765
병장	13766
노트북	13767
Ac	13768
특이점	13769
온몸	13770
술탄	13771
뉘앙스	13772
보증	13773
##ins	13774
죄송	13775
내수	13776
황태자	13777
여권	13778
엇	13779
히카리	13780
멀리서	13781
유유	13782
비토	13783
리우	13784
할리우드	13785
##oss	13786
##ᆷ마	13787
미니언	13788
##ru	13789
DB	13790
크래	13791
희대	13792
결사	13793
연금술사	13794
킬로	13795
동래	13796
##잎	13797
그리드	13798
대마	13799
좁히	13800
미라이	13801
결함	13802
페이커	13803
여당	13804
니카	13805
가창	13806
##하이	13807
왕좌	13808
독수리	13809
장동	13810
펠리	13811
완구	13812
의석	13813
교내	13814
혜성	13815
##받침	13816
하부	13817
성수	13818
헥	13819
유배	13820
협약	13821
##노스케	13822
요하	13823
윌슨	13824
쇠퇴	13825
cc	13826
살피	13827
##그루	13828
교시	13829
은혜	13830
후안	13831
홈즈	13832
OK	13833
연의	13834
호세	13835
캐스트	13836
##gain	13837
##ction	13838
Blue	13839
##턱	13840
브릿	13841
정체불명	13842
경쟁자	13843
잊어버리	13844
Dark	13845
⭧움	13846
##EL	13847
버릇	13848
누명	13849
재위	13850
1957	13851
배송	13852
도라에몽	13853
사안	13854
제작비	13855
고성	13856
체형	13857
달ᄀ	13858
KTX	13859
원활	13860
가축	13861
갈아타	13862
초교	13863
우루과이	13864
##플리케이션	13865
아르카	13866
오리진	13867
텍스	13868
무사시	13869
저술	13870
메모	13871
서대	13872
##0000	13873
짚	13874
""	13875
전세	13876
자크	13877
켄지	13878
방과	13879
글리	13880
게시물	13881
토마토	13882
편안	13883
셰프	13884
진행자	13885
천마	13886
강팀	13887
주거	13888
마테	13889
마차	13890
로컬	13891
Champ	13892
자발	13893
말소	13894
환수	13895
더비	13896
##툭	13897
말아먹	13898
소비에트	13899
예배	13900
##토르	13901
속박	13902
수강	13903
특허	13904
포대	13905
원흉	13906
격기	13907
경순	13908
##na	13909
발차기	13910
분기점	13911
RC	13912
편찬	13913
⭧라구	13914
빠뜨리	13915
Im	13916
주파수	13917
실루	13918
유비트	13919
분장	13920
Sun	13921
##ood	13922
첨단	13923
##agon	13924
쫓아오	13925
오시	13926
브론즈	13927
##UT	13928
유로파	13929
진군	13930
진정하	13931
##자재	13932
트로이	13933
게릴라	13934
타다	13935
넥서스	13936
바이올린	13937
++	13938
##어쓰	13939
친목	13940
OCG	13941
모친	13942
돌아보	13943
닉스	13944
Can	13945
직결	13946
일일이	13947
장제스	13948
스케이팅	13949
포럼	13950
리액	13951
아까	13952
랩터	13953
Bat	13954
해적단	13955
선곡	13956
깨알	13957
상가	13958
##스티니	13959
수녀	13960
라트	13961
MHz	13962
back	13963
타카시	13964
환사	13965
슬퍼	13966
자손	13967
니나	13968
요리사	13969
##ky	13970
북극	13971
연루	13972
코즈	13973
##버드	13974
##페르	13975
DR	13976
유영	13977
205	13978
##토리얼	13979
쓸데없이	13980
##훼	13981
탯이	13982
프랭	13983
재무	13984
센티	13985
클립	13986
##ᆯ리티	13987
매달	13988
찢어지	13989
경감	13990
미성년	13991
통수	13992
용감	13993
키트	13994
기획사	13995
정동	13996
본성	13997
튜토리얼	13998
커트	13999
이창	14000
##놀이	14001
주고받	14002
##통수	14003
달라붙	14004
na	14005
박재	14006
미즈키	14007
열람	14008
열악	14009
무제한	14010
기성	14011
피에	14012
##코스	14013
수식	14014
불어	14015
디렉터	14016
후지와라	14017
데스티니	14018
##꼴	14019
Summer	14020
대출	14021
금색	14022
RP	14023
단선	14024
권능	14025
모범	14026
니코니코	14027
##일으키	14028
요시노	14029
##ty	14030
불러일으키	14031
플레어	14032
김명	14033
##irst	14034
셰이	14035
분홍색	14036
야마구치	14037
##사벽	14038
넘사벽	14039
배기	14040
오클	14041
매수	14042
명곡	14043
##DS	14044
민영	14045
야심	14046
농촌	14047
당주	14048
살상	14049
연하	14050
브레이브	14051
빅토르	14052
##기지	14053
자판	14054
산책	14055
저것	14056
도검	14057
##ady	14058
목동	14059
양키스	14060
##무소	14061
##land	14062
Korea	14063
밀치	14064
흠좀	14065
흠좀무	14066
대대로	14067
Music	14068
탄도	14069
원천	14070
헌신	14071
##소스	14072
제스	14073
피치	14074
중추	14075
항아리	14076
창세	14077
동족	14078
하워드	14079
##박히	14080
비시	14081
스파르타	14082
##듣	14083
그래프	14084
서초	14085
아울러	14086
오디	14087
남발	14088
자처	14089
레이첼	14090
레이너	14091
##저드	14092
휴게소	14093
함재기	14094
발광	14095
소극	14096
BEMAN	14097
타나카	14098
세레	14099
루이지	14100
##균관	14101
병합	14102
급기	14103
줄줄	14104
1914	14105
행렬	14106
어느새	14107
라드	14108
아제	14109
개칭	14110
토이	14111
노동당	14112
코지	14113
계란	14114
프리즘	14115
도마뱀	14116
무진	14117
귀하	14118
안산	14119
합하	14120
카타르	14121
기괴	14122
슈터	14123
필연	14124
빼내	14125
베이스볼	14126
험하	14127
강행	14128
반대편	14129
잠재력	14130
셸	14131
합당	14132
임원	14133
##누르	14134
BEMANI	14135
장안	14136
파산	14137
실무	14138
##현우	14139
악의	14140
만행	14141
화내	14142
엿보	14143
##OID	14144
감전	14145
토로	14146
루팡	14147
나레이션	14148
Fire	14149
##석민	14150
무상	14151
다이스케	14152
설상가	14153
리턴	14154
윌리엄스	14155
프로모션	14156
설상가상	14157
제휴	14158
##스트림	14159
피에르	14160
블래	14161
##현진	14162
금호	14163
##마당	14164
인어	14165
성모	14166
재난	14167
OB	14168
now	14169
쪼개	14170
학점	14171
쩔	14172
교관	14173
솔리	14174
김형	14175
댄서	14176
##숍	14177
성균관	14178
밀란	14179
유난	14180
650	14181
야기	14182
하원	14183
살인마	14184
##셸	14185
음악가	14186
힐링	14187
정벌	14188
펜듈	14189
펜듈럼	14190
창업	14191
조직원	14192
##킨스	14193
211	14194
주심	14195
실습	14196
손톱	14197
##곡동	14198
목적지	14199
마운트	14200
화합	14201
대각	14202
문고	14203
북방	14204
입체	14205
이질	14206
위탁	14207
복면	14208
아타	14209
고자	14210
총격	14211
후궁	14212
##프스	14213
슬퍼하	14214
악어	14215
시코	14216
##니시	14217
차선	14218
포토	14219
##ium	14220
지온	14221
광속	14222
청동	14223
호기심	14224
여정	14225
평원	14226
달걀	14227
휩싸이	14228
보구	14229
미스트	14230
정립	14231
폭동	14232
늦추	14233
쐐기	14234
세션	14235
농락	14236
##테이너	14237
후예	14238
귀중	14239
듀크	14240
치사	14241
##쉐	14242
GG	14243
점사	14244
Life	14245
CA	14246
서독	14247
뒤통수	14248
미끄	14249
진나라	14250
##혁명	14251
계열사	14252
가성	14253
육지	14254
사다	14255
3164	14256
##즈카	14257
##ush	14258
냉전	14259
해수	14260
STR	14261
고령	14262
재판소	14263
로코	14264
##메어	14265
양호	14266
빈틈	14267
##기사	14268
한발	14269
소동	14270
반항	14271
실명	14272
문어	14273
성도	14274
박찬	14275
퓨리	14276
Ma	14277
분화	14278
피카츄	14279
##ount	14280
##ᆯ럿	14281
스냅	14282
마요	14283
어설프	14284
가급	14285
모닝	14286
스캔들	14287
까닭	14288
But	14289
숙이	14290
세탁	14291
리엘	14292
염려	14293
별점	14294
1951	14295
동탁	14296
호노	14297
Just	14298
똑똑	14299
어퍼	14300
##크리트	14301
로저스	14302
증가량	14303
풍속	14304
204	14305
##멋	14306
뭔	14307
자수	14308
총재	14309
숀	14310
한탄	14311
돌이	14312
진성	14313
투니	14314
월급	14315
내륙	14316
동체	14317
준하	14318
대상자	14319
##로프	14320
쓸어버리	14321
네이트	14322
진료	14323
스킵	14324
아토	14325
선제골	14326
연회	14327
##따르	14328
불로	14329
##ᅥᆫ지	14330
DX	14331
##CH	14332
코리	14333
나이트메어	14334
고속도	14335
지극히	14336
창시	14337
##궤	14338
네코	14339
대공포	14340
사로잡히	14341
시몬	14342
플로리다	14343
선방	14344
Ste	14345
##때로	14346
끌어내	14347
이복	14348
우아	14349
day	14350
캐리어	14351
레기	14352
##년기	14353
향기	14354
##르기	14355
한숨	14356
Sy	14357
##ger	14358
프로리그	14359
사면	14360
박경	14361
##퍼런스	14362
FFF	14363
하타	14364
##코프	14365
pt	14366
남극	14367
감히	14368
개개인	14369
##덮	14370
야드	14371
Dance	14372
##주리	14373
에스파	14374
사찰	14375
강연	14376
마운드	14377
드릴	14378
박명수	14379
스완	14380
일본식	14381
공익	14382
개연	14383
해임	14384
행방불명	14385
끼어들	14386
츠바사	14387
파장	14388
출근	14389
##저것	14390
이것저것	14391
할당	14392
현상금	14393
FB	14394
상표	14395
한도	14396
발칸	14397
Gold	14398
여친	14399
홍성	14400
석탄	14401
나폴리	14402
CON	14403
##엉	14404
훅	14405
지상파	14406
실루엣	14407
국산	14408
노블	14409
호로	14410
Grand	14411
주황색	14412
적료	14413
네놈	14414
이노우	14415
스퍼	14416
##블릿	14417
피츠	14418
테루	14419
##아라	14420
지휘자	14421
##그룹	14422
Pre	14423
오의	14424
회고	14425
페루	14426
저상	14427
Ev	14428
민법	14429
##티콘	14430
기복	14431
음주	14432
1600	14433
콘티	14434
광전사	14435
VOC	14436
구단주	14437
효소	14438
##ne	14439
암울	14440
##ally	14441
HK	14442
아프가	14443
채집	14444
##ution	14445
서지	14446
이속	14447
망가	14448
괄	14449
시간표	14450
LCK	14451
따라다니	14452
예언자	14453
##미스	14454
성체	14455
슬로우	14456
대주	14457
아르메	14458
기타리스트	14459
##준표	14460
괴상	14461
차후	14462
괴력	14463
아줌마	14464
##눅	14465
난감	14466
##pr	14467
지중	14468
화자	14469
영진	14470
번트	14471
일식	14472
대표작	14473
피고	14474
관동	14475
스네이크	14476
가브리엘	14477
##징어	14478
신대	14479
매너	14480
##빼	14481
전교	14482
접점	14483
구급	14484
파수	14485
파업	14486
열등	14487
수락	14488
반짝이	14489
get	14490
통신사	14491
##도스	14492
##힐	14493
세일	14494
##보그	14495
카이토	14496
부여받	14497
사우루스	14498
화나	14499
##마침	14500
논하	14501
##클럽	14502
샘플	14503
아델	14504
외롭	14505
다짐	14506
##미즈	14507
내걸	14508
TW	14509
Over	14510
대본	14511
##레스트	14512
##얼거리	14513
케이지	14514
목요일	14515
코다	14516
군복	14517
이변	14518
콘크리트	14519
꽂히	14520
부평	14521
교직	14522
투하	14523
셉	14524
램프	14525
1937	14526
카르마	14527
나고	14528
##사이드	14529
매스	14530
리마	14531
##ator	14532
ARM	14533
추기	14534
포효	14535
호쿠	14536
경찰관	14537
정확도	14538
##펄	14539
아틀레	14540
정세	14541
정자	14542
신축	14543
때마침	14544
딸기	14545
##라노	14546
beat	14547
##장난	14548
잖	14549
해치우	14550
출루율	14551
미사키	14552
출연진	14553
소피아	14554
고질	14555
전리	14556
박치기	14557
합창	14558
러셀	14559
일어서	14560
한스	14561
젝	14562
아이유	14563
쫄	14564
매출액	14565
무궁화	14566
UF	14567
##체스	14568
변질	14569
외래	14570
금화	14571
차종	14572
일진	14573
샐러	14574
##베르토	14575
리에	14576
선구	14577
뷰티	14578
홍진호	14579
DJMAX	14580
모리스	14581
서인	14582
행정부	14583
##봇	14584
예지	14585
회오리	14586
##air	14587
각기	14588
자진	14589
연발	14590
클레어	14591
Sec	14592
코바야시	14593
비장	14594
어리석	14595
남아프리카	14596
퇴출	14597
등교	14598
tvN	14599
##얀	14600
픽업	14601
대부	14602
챌린저	14603
처절	14604
시치	14605
크루즈	14606
대쉬	14607
##르드	14608
일절	14609
최영	14610
##네이터	14611
개인전	14612
베네치아	14613
코카	14614
백신	14615
세세	14616
파인	14617
##토시	14618
출중	14619
여진	14620
아카리	14621
##엎	14622
교향곡	14623
⭧ᆫ들	14624
아프가니스탄	14625
##나드	14626
BBC	14627
부과	14628
동창	14629
Out	14630
지침	14631
조영	14632
커비	14633
영리	14634
사극	14635
접근성	14636
⭧느니	14637
고릴라	14638
한성	14639
마누	14640
태수	14641
테이크	14642
우습	14643
신원	14644
##히트	14645
만세	14646
쾨	14647
뺨	14648
##inc	14649
광부	14650
점거	14651
간선	14652
##스톤	14653
##로이드	14654
상류	14655
헤매	14656
회심	14657
간략	14658
그려	14659
경매	14660
뽐내	14661
수험	14662
경희	14663
코요	14664
딱딱	14665
검은색	14666
이은	14667
소서	14668
##닐	14669
##축구	14670
콜드	14671
##장이	14672
##포스	14673
영조	14674
완수	14675
##ᆫ든	14676
밋	14677
부대원	14678
스피커	14679
컨트롤러	14680
케이트	14681
풍자	14682
##츠카	14683
달빛	14684
##펑	14685
상체	14686
리티	14687
양주	14688
El	14689
Dis	14690
but	14691
책임자	14692
Win	14693
체이	14694
가소	14695
전년	14696
##흙	14697
미판	14698
사이보그	14699
##꿈치	14700
사스케	14701
강판	14702
유난히	14703
##동원	14704
상하이	14705
수요일	14706
저렇게	14707
VOCAL	14708
조형	14709
##러리	14710
군함	14711
베이더	14712
에티	14713
총열	14714
빅뱅	14715
은밀	14716
리브	14717
캐서	14718
##...	14719
뒤덮	14720
이용해	14721
리플렉	14722
용맹	14723
천공	14724
후문	14725
⭧ᆫ다던가	14726
계좌	14727
##바시	14728
콜롬비아	14729
##휴일	14730
총사령	14731
연구실	14732
소수자	14733
##ART	14734
##베이스	14735
백색	14736
촉진	14737
천둥	14738
카구라	14739
미술관	14740
UI	14741
오피	14742
소감	14743
잔디	14744
##use	14745
평민	14746
벵	14747
바우	14748
고속버스	14749
전류	14750
sc	14751
케로	14752
정크	14753
6000	14754
몬테	14755
##앵	14756
런닝	14757
##수스	14758
미코토	14759
##터스	14760
못지않	14761
자신감	14762
조제	14763
여더	14764
Mon	14765
예명	14766
스플리	14767
혹사	14768
노려보	14769
기밀	14770
웨어	14771
HG	14772
워낙에	14773
제다이	14774
김두한	14775
영장	14776
쿠시	14777
##쩌	14778
##ring	14779
성형	14780
안면	14781
민원	14782
앙리	14783
중견수	14784
판권	14785
##XT	14786
man	14787
차남	14788
비즈니스	14789
~~	14790
코시	14791
##LS	14792
매칭	14793
레이나	14794
Af	14795
조류	14796
역과	14797
##칼리	14798
오인	14799
이동하	14800
퓨어	14801
되살	14802
레몬	14803
권고	14804
장기간	14805
비요	14806
카가미	14807
힘쓰	14808
##ᆯ렛	14809
우와	14810
Power	14811
막아	14812
태블릿	14813
임관	14814
샤프	14815
학계	14816
다툼	14817
대문	14818
타니	14819
함포	14820
사출	14821
##여지	14822
##ina	14823
##대교	14824
튜닝	14825
Res	14826
철회	14827
정렬	14828
매개	14829
스님	14830
##관총	14831
체리	14832
집결	14833
우체국	14834
내야수	14835
아폴로	14836
뽕	14837
정거	14838
소절	14839
형편없	14840
망령	14841
380	14842
퀄컴	14843
매진	14844
발전기	14845
기합	14846
오피스	14847
At	14848
호전	14849
도피	14850
섀도	14851
리전	14852
무효화	14853
##소문	14854
건전	14855
OPS	14856
베인	14857
}}}	14858
바주	14859
피스트	14860
혈액형	14861
지자	14862
퇴사	14863
경쟁력	14864
여덟	14865
노엘	14866
글래	14867
256	14868
제라	14869
키무라	14870
입술	14871
추첨	14872
나고야	14873
직구	14874
똘	14875
SCP	14876
캐서린	14877
NG	14878
웨이트	14879
욕구	14880
유서	14881
전전	14882
이성계	14883
조달	14884
Fem	14885
강성	14886
금성	14887
국사	14888
##범죄	14889
당첨	14890
저리	14891
자취	14892
베니	14893
때때로	14894
동갑	14895
카지노	14896
##하하	14897
공휴일	14898
동참	14899
속공	14900
농협	14901
섬세	14902
볼리	14903
아카이	14904
존속	14905
립스	14906
볼륨	14907
##맥스	14908
⫸이야말로	14909
맏	14910
페가	14911
타치바나	14912
##ᅢ신	14913
야시	14914
총탄	14915
김영삼	14916
어쌔신	14917
증후	14918
##ittle	14919
무빙	14920
타국	14921
영미	14922
쑥	14923
적발	14924
sm	14925
경량	14926
##베리아	14927
##아르	14928
초고	14929
유포	14930
김택	14931
Fi	14932
서사	14933
MR	14934
옵티	14935
오징어	14936
직역	14937
제르	14938
무소	14939
색채	14940
##긴	14941
성역	14942
아르메니아	14943
MX	14944
##심장	14945
악용	14946
채소	14947
명대사	14948
궤적	14949
가호	14950
##라이어	14951
방어선	14952
집중력	14953
여사	14954
##카스	14955
샴	14956
##베르크	14957
내구력	14958
애시	14959
공성전	14960
부추	14961
건재	14962
화가	14963
지그	14964
허공	14965
가급적	14966
코이	14967
대인배	14968
Sing	14969
##흘	14970
카노	14971
조력자	14972
조그마	14973
낙인	14974
거제	14975
본국	14976
1910	14977
##삐	14978
##부시	14979
FL	14980
##숨에	14981
단숨에	14982
노기	14983
⭧거니	14984
마에다	14985
아부	14986
장병	14987
저널	14988
페더	14989
##ERO	14990
츠나	14991
SG	14992
카즈마	14993
##싹	14994
##de	14995
패미	14996
광탈	14997
##be	14998
피드백	14999
넥슨	15000
gr	15001
궁지	15002
횡단	15003
고안	15004
러시아어	15005
젊은이	15006
부식	15007
##ello	15008
⭧데	15009
이우	15010
베토	15011
갈래	15012
괴리	15013
공방전	15014
리트	15015
재고	15016
정거장	15017
사육	15018
타나	15019
MT	15020
가명	15021
태세	15022
##reen	15023
SV	15024
⭧유	15025
쿠루	15026
서진	15027
##ual	15028
윈스	15029
피라미	15030
김정은	15031
억지	15032
피처	15033
창의	15034
승천	15035
IG	15036
적진	15037
생산력	15038
족장	15039
견인	15040
##대부	15041
세조	15042
예장	15043
근성	15044
로사	15045
무전	15046
일렉트로	15047
증세	15048
튀기	15049
##라비아	15050
레닌	15051
막바지	15052
##첸	15053
기미	15054
복싱	15055
절규	15056
##코어	15057
정명	15058
줄거리	15059
돌격소총	15060
뒤이	15061
통용	15062
군사력	15063
소용돌이	15064
하임	15065
노이즈	15066
휴전	15067
##ᆺ잎	15068
주재	15069
MLB	15070
##바퀴	15071
동인지	15072
데우스	15073
Pv	15074
모방	15075
포지	15076
꺾이	15077
디펜스	15078
후후	15079
Rem	15080
⭧다기	15081
⭧라지만	15082
돌아서	15083
맥도	15084
건축물	15085
서킷	15086
표방	15087
허구	15088
에우	15089
카오리	15090
Ep	15091
가뜩	15092
친선	15093
추적자	15094
역병	15095
##ational	15096
##프레스	15097
원격	15098
999	15099
연예계	15100
대파	15101
타시	15102
군기	15103
돌려보내	15104
어인	15105
##스트로	15106
수군	15107
##riend	15108
##af	15109
발상	15110
아이작	15111
히토미	15112
##ars	15113
카바	15114
파이브	15115
##bs	15116
신주쿠	15117
두부	15118
설계도	15119
루카스	15120
소진	15121
결장	15122
출몰	15123
Vo	15124
깊숙	15125
카에	15126
둘러보	15127
##IE	15128
가뜩이나	15129
초당	15130
슈퍼스타	15131
정은	15132
베드	15133
홍준표	15134
##해군	15135
양파	15136
모호	15137
스타팅	15138
이선	15139
발악	15140
급기야	15141
숏	15142
##ivers	15143
주방	15144
##퇴근	15145
수비진	15146
증후군	15147
노드	15148
네모	15149
폭포	15150
흐리	15151
자유자재	15152
길들이	15153
인벤토리	15154
조폭	15155
VOCALOID	15156
양현	15157
IDOL	15158
그려지	15159
리쿠	15160
악랄	15161
꽝	15162
##ᆷ없이	15163
초선	15164
오로라	15165
판서	15166
럼블	15167
포트리스	15168
박격	15169
고양시	15170
Leg	15171
King	15172
트렌	15173
수원시	15174
상임	15175
블래스트	15176
##에이터	15177
중전차	15178
애교	15179
고원	15180
연호	15181
김희	15182
풋볼	15183
베가	15184
부럽	15185
##회의	15186
미야자키	15187
마이어	15188
병단	15189
실황	15190
깽판	15191
HT	15192
##클레스	15193
핵무기	15194
스위트	15195
YOU	15196
BF	15197
강변	15198
자유주의	15199
벽돌	15200
just	15201
시스터	15202
히노	15203
이치고	15204
무림	15205
아몬	15206
##쏠	15207
태그팀	15208
에이전트	15209
제시카	15210
상회	15211
엄지	15212
##외선	15213
물들	15214
표출	15215
징징	15216
쏠쏠	15217
분경	15218
응원가	15219
코타로	15220
추기경	15221
콘테	15222
억압	15223
##SS	15224
일자리	15225
School	15226
##MC	15227
지령	15228
신시	15229
왠만	15230
운운	15231
⭧람	15232
Miss	15233
선도	15234
김창	15235
CEO	15236
키사	15237
랜턴	15238
1935	15239
팔찌	15240
##atic	15241
수다	15242
간행	15243
##질기	15244
밉	15245
인맥	15246
UFC	15247
진가	15248
Rec	15249
삼거리	15250
GR	15251
대제	15252
끈질기	15253
##일본	15254
바루	15255
##니클	15256
유토	15257
what	15258
사사키	15259
배분	15260
수고	15261
옥타	15262
고베	15263
재사	15264
경유지	15265
???	15266
스티커	15267
##토미	15268
극소수	15269
뒷받침	15270
밀접	15271
1918	15272
치명상	15273
##ern	15274
소피	15275
티베트	15276
마르크스	15277
다단	15278
자바	15279
포고	15280
##itch	15281
코스타	15282
블루스	15283
조지아	15284
벅스	15285
당분	15286
알고리	15287
데카	15288
이노우에	15289
##ts	15290
장타율	15291
빨강	15292
STER	15293
별자리	15294
1934	15295
운동가	15296
반갑	15297
레스터	15298
본디	15299
Che	15300
허리케인	15301
쿠파	15302
131	15303
창병	15304
아이언맨	15305
되살아나	15306
하르	15307
스타크	15308
파파	15309
ADV	15310
'''	15311
기마	15312
일보	15313
국력	15314
손아	15315
임상	15316
아의	15317
##연합	15318
##사전	15319
여고생	15320
플래닛	15321
어드밴스	15322
평면	15323
게임기	15324
천도	15325
##셔츠	15326
라자	15327
고폭탄	15328
##카즈	15329
End	15330
퍼시픽	15331
프론트	15332
유하	15333
방금	15334
자주포	15335
천적	15336
##날드	15337
시중	15338
로만	15339
VR	15340
##rain	15341
Ge	15342
Di	15343
피겨	15344
##큘라	15345
##그레	15346
위나라	15347
함경	15348
도리어	15349
인내	15350
독성	15351
어우	15352
라오	15353
Air	15354
쇼군	15355
뵈	15356
##tr	15357
단골	15358
마이너스	15359
편대	15360
세간	15361
디에	15362
불러들이	15363
남구	15364
과부	15365
##투르	15366
방황	15367
##서야	15368
##루살	15369
군산	15370
새로이	15371
대명사	15372
무성	15373
입성	15374
메라	15375
고어	15376
##루살렘	15377
넓이	15378
노조미	15379
도도	15380
명령어	15381
성문	15382
알고리즘	15383
헬스	15384
##oot	15385
Mod	15386
한심	15387
줄곧	15388
마사키	15389
올라서	15390
강유	15391
##노미야	15392
글러브	15393
사부	15394
군벌	15395
if	15396
전편	15397
종일	15398
마이트	15399
야쿠자	15400
##긍	15401
그리스어	15402
단조	15403
교주	15404
인프라	15405
걸작	15406
멀쩡히	15407
뒤집히	15408
이과	15409
자민	15410
표명	15411
예술가	15412
실험실	15413
바흐	15414
안나	15415
정인	15416
경신	15417
##재판	15418
무언	15419
흡연	15420
교란	15421
##어먹	15422
##의사	15423
초사	15424
드라큘라	15425
서드	15426
취직	15427
위즈	15428
포털	15429
##ren	15430
마커	15431
피리	15432
굴복	15433
피코	15434
에일리언	15435
정유	15436
이화	15437
박주	15438
착수	15439
남용	15440
##웬	15441
관악	15442
시립	15443
우크	15444
송도	15445
솔로몬	15446
col	15447
담당자	15448
요건	15449
광신	15450
욕하	15451
##같이	15452
체질	15453
금전	15454
작별	15455
##라이나	15456
단절	15457
타케시	15458
메스	15459
샤크	15460
덫	15461
첨가	15462
##UE	15463
악장	15464
상반기	15465
EMP	15466
아이리스	15467
우크라이나	15468
지망	15469
##려드	15470
카스미	15471
##55	15472
예비군	15473
부풀	15474
집정	15475
예루살렘	15476
해운대	15477
여의도	15478
저격총	15479
PVP	15480
직관	15481
천계	15482
디디	15483
왕궁	15484
시드니	15485
스플	15486
레지스	15487
관제	15488
이치로	15489
리베	15490
학번	15491
##UR	15492
옵티머스	15493
원호	15494
휴일	15495
제후	15496
성추	15497
##데아	15498
초원	15499
추이	15500
로딩	15501
토오루	15502
광석	15503
미성년자	15504
만류	15505
##rist	15506
night	15507
주범	15508
사교	15509
비늘	15510
매사	15511
진흙	15512
손녀	15513
킹스	15514
##그램	15515
타노스	15516
도미니	15517
##ony	15518
##ma	15519
청색	15520
카린	15521
##무스	15522
Sound	15523
##답시고	15524
토착	15525
사쿠라이	15526
POP	15527
##쿠로	15528
⭧느냐는	15529
애틀	15530
Hy	15531
지기	15532
염소	15533
키워드	15534
회복력	15535
화요일	15536
총대	15537
##중국	15538
양도	15539
제식	15540
뛰쳐	15541
##사우	15542
문과	15543
정중	15544
연희	15545
광저우	15546
하세	15547
불멸	15548
메꾸	15549
컨테이너	15550
백합	15551
무작정	15552
부치	15553
##세데스	15554
김전	15555
메르세데스	15556
##iew	15557
요동	15558
고독	15559
괴담	15560
아역	15561
프런트	15562
거주지	15563
DO	15564
유소년	15565
출퇴근	15566
상수	15567
리노	15568
군중	15569
블라디미르	15570
진작	15571
연구자	15572
팔라딘	15573
작아지	15574
don	15575
한모	15576
##ope	15577
벼슬	15578
해커	15579
행태	15580
좌익수	15581
유교	15582
##데기	15583
양면	15584
##시계	15585
조운	15586
MASTER	15587
##글리	15588
빼돌리	15589
노숙	15590
대칭	15591
오너	15592
현명	15593
요르	15594
아산	15595
성채	15596
모터스	15597
바주카	15598
애틀랜	15599
잉크	15600
##수엘라	15601
법무부	15602
인테르	15603
우시	15604
신디	15605
발트	15606
민족주의	15607
시한	15608
MD	15609
눈ᄊ	15610
고려대	15611
EM	15612
ㅋㅋ	15613
나날	15614
퍼스	15615
유수	15616
징병	15617
##ana	15618
유목	15619
손바닥	15620
미끄러지	15621
반다이	15622
아야카	15623
게리온	15624
후유증	15625
빌헬	15626
배지	15627
툼	15628
##리히	15629
먹방	15630
##atale	15631
기와	15632
##어찌	15633
드라군	15634
선비	15635
골리	15636
카무이	15637
과실	15638
제멋	15639
교육부	15640
조장	15641
커리	15642
데이비스	15643
스코프	15644
##던트	15645
프레데	15646
##메인	15647
하야토	15648
⭧으리라	15649
굳어지	15650
Femme	15651
##oon	15652
베토벤	15653
하이드	15654
청량	15655
로망	15656
사업자	15657
콜로니	15658
효력	15659
그닥	15660
기한	15661
SO	15662
Cat	15663
사에	15664
시그마	15665
칼럼	15666
way	15667
황족	15668
##패스	15669
액셀	15670
명작	15671
이마트	15672
##ox	15673
카로	15674
해리스	15675
농어	15676
BAS	15677
이안	15678
의거	15679
애프	15680
빈사	15681
어찌어찌	15682
레이터	15683
무어	15684
##ield	15685
대용	15686
재팬	15687
언행	15688
마도사	15689
브라더	15690
금기	15691
들려오	15692
일부분	15693
득점자	15694
경인	15695
박준	15696
사우디아	15697
##천동	15698
얼핏	15699
bl	15700
내려지	15701
피어	15702
학업	15703
텔레콤	15704
섭외	15705
가치관	15706
##22	15707
애당초	15708
티코	15709
베르크	15710
파고들	15711
다나카	15712
베네수엘라	15713
역설	15714
##먹이	15715
EA	15716
미토	15717
1100	15718
##노이	15719
수산	15720
매복	15721
##티어	15722
##안군	15723
소심	15724
##지원	15725
펄스	15726
쟁탈	15727
##무장	15728
1932	15729
타협	15730
##야샤	15731
극찬	15732
이누야샤	15733
WE	15734
생사	15735
흑백	15736
경장	15737
알코	15738
각색	15739
한몫	15740
보태	15741
성주	15742
카탈	15743
즐거	15744
##의정	15745
활주	15746
친밀	15747
##olog	15748
##아스	15749
알프레	15750
트림	15751
1931	15752
그놈	15753
피라미드	15754
광학	15755
1933	15756
XP	15757
수준급	15758
민국	15759
링컨	15760
해인	15761
초토	15762
선체	15763
아루	15764
택배	15765
미지수	15766
대잠	15767
보답	15768
총통	15769
폴더	15770
겉보기	15771
친위대	15772
이윽	15773
사바	15774
이윽고	15775
증원	15776
껄	15777
재혼	15778
스루	15779
확연히	15780
패기	15781
되돌아가	15782
양념	15783
창원시	15784
아그	15785
일쑤	15786
##언정	15787
브릿지	15788
조율	15789
중앙선	15790
광주광역시	15791
강적	15792
##변속기	15793
##Fatale	15794
전리품	15795
조선일보	15796
설레	15797
##맨더	15798
FemmeFatale	15799
아멜	15800
With	15801
반말	15802
병살타	15803
Hard	15804
자연스레	15805
Run	15806
⭧다던가	15807
스테이트	15808
사위	15809
대두	15810
효과음	15811
위화	15812
카도	15813
외출	15814
빅터	15815
안토니오	15816
다정	15817
마모루	15818
건의	15819
시력	15820
미타	15821
바하	15822
##퀄	15823
피곤	15824
참패	15825
##돼지	15826
XXX	15827
자잘	15828
쾌속	15829
지중해	15830
다인	15831
김전일	15832
부회장	15833
마징가	15834
추석	15835
두께	15836
임용	15837
복종	15838
CT	15839
가든	15840
칭송	15841
##구나	15842
##AA	15843
##제이	15844
연비	15845
후타	15846
탈옥	15847
번영	15848
##쿠버	15849
낯설	15850
엇갈리	15851
##블랜드	15852
수작	15853
무찌	15854
성폭행	15855
미디	15856
토머스	15857
340	15858
부화	15859
클리블랜드	15860
Not	15861
정장	15862
겨누	15863
중령	15864
커브	15865
전념	15866
폭발물	15867
탤	15868
봉황	15869
이스터	15870
App	15871
카가	15872
직감	15873
신이치	15874
진공	15875
셜록	15876
가솔린	15877
안테	15878
승기	15879
넵	15880
손흥	15881
##elf	15882
Rev	15883
슈타인	15884
가산	15885
여건	15886
##암동	15887
입맛	15888
##테리	15889
추대	15890
니콜	15891
##ouse	15892
도전자	15893
RS	15894
설득력	15895
말장난	15896
살라	15897
프랑켄	15898
1928	15899
##선거	15900
제정신	15901
214	15902
캡콤	15903
세나	15904
##사의	15905
기병대	15906
CCTV	15907
식신	15908
스폰지	15909
동봉	15910
송구	15911
흑화	15912
압살	15913
RG	15914
충주	15915
환원	15916
무찌르	15917
도널드	15918
호대	15919
토탈	15920
⭧랍	15921
성공회	15922
셀프	15923
dis	15924
씁	15925
부츠	15926
명인	15927
채무	15928
##저트	15929
술법	15930
키퍼	15931
악세	15932
난전	15933
Da	15934
바늘	15935
치중	15936
꼭두	15937
미셸	15938
환각	15939
체조	15940
게재	15941
손흥민	15942
사용법	15943
##발리	15944
무의	15945
든든	15946
쓸모없	15947
##그라드	15948
들이대	15949
박격포	15950
외무	15951
듀엣	15952
아지트	15953
서문	15954
송이	15955
쇼핑몰	15956
##75	15957
VIP	15958
가출	15959
뾰족	15960
##텁	15961
##무니	15962
장래	15963
시동	15964
쓸데없	15965
의병	15966
페로	15967
접시	15968
안도	15969
서식지	15970
순진	15971
육식	15972
충성심	15973
키리토	15974
마포	15975
경위	15976
##투수	15977
SHOW	15978
피신	15979
좀처럼	15980
미라클	15981
유감	15982
##거진	15983
쇼코	15984
재사용	15985
종자	15986
재해	15987
바이스	15988
협곡	15989
반칙	15990
스왑	15991
분사	15992
고장나	15993
마작	15994
삼각형	15995
메테오	15996
서면	15997
광양	15998
도호쿠	15999
##니치	16000
안치	16001
완전체	16002
공채	16003
위생	16004
선발투수	16005
##마사	16006
아종	16007
변종	16008
⫸라든가	16009
카세	16010
아즈사	16011
##득점	16012
상권	16013
선진국	16014
진과	16015
릉	16016
걸어오	16017
사우디아라비아	16018
UM	16019
트린	16020
시궁	16021
계보	16022
육박	16023
Elect	16024
하코	16025
노이	16026
임창	16027
아치	16028
관습	16029
오스카	16030
마음껏	16031
꾀하	16032
사각	16033
서북	16034
기만	16035
물려주	16036
샨	16037
윈스턴	16038
시구	16039
허세	16040
RAW	16041
어처	16042
북유럽	16043
온화	16044
시위대	16045
리포트	16046
초식	16047
##방향	16048
빌미	16049
혼종	16050
불가사의	16051
폭사	16052
co	16053
##ORE	16054
미츠루	16055
Ke	16056
141	16057
She	16058
학창	16059
310	16060
##컨대	16061
대강	16062
동국	16063
뒤틀리	16064
만회	16065
사마의	16066
순조	16067
호노카	16068
체가	16069
8000	16070
데이브	16071
제비	16072
모라	16073
잠복	16074
스플래시	16075
##투표	16076
결별	16077
격돌	16078
프레디	16079
작살	16080
액세서리	16081
##we	16082
저번	16083
##ecial	16084
##쿤	16085
최전	16086
석궁	16087
버지	16088
홈구장	16089
도르트	16090
##로이	16091
동물원	16092
에리카	16093
연주자	16094
현행	16095
백미	16096
제구	16097
향수	16098
입학식	16099
늘어지	16100
철학자	16101
사과문	16102
패트릭	16103
대여	16104
조세	16105
Get	16106
낙원	16107
입당	16108
김혜	16109
협의회	16110
사다리	16111
존댓말	16112
앞쪽	16113
발산	16114
##아아	16115
만두	16116
퍼뜨리	16117
수법	16118
정적	16119
뮬	16120
##조각	16121
탄종	16122
풀백	16123
##라이즈	16124
대관	16125
단테	16126
##요환	16127
홍대	16128
틀어지	16129
가물	16130
본문	16131
##asy	16132
제이크	16133
호스트	16134
##ane	16135
아벨	16136
포르노	16137
기요	16138
⭧라거나	16139
이ᄆ	16140
##66	16141
수렴	16142
승부차기	16143
콜라보레이션	16144
불사조	16145
레고	16146
앨리	16147
##ᆺ거리	16148
넘쳐	16149
샌디	16150
평정	16151
##its	16152
DT	16153
##레트	16154
Ang	16155
스크래치	16156
애플리케이션	16157
world	16158
샬	16159
상정	16160
##슬로	16161
##미아	16162
블레이즈	16163
사설	16164
오미	16165
치아	16166
##28	16167
비석	16168
임요환	16169
##네트	16170
수레	16171
정제	16172
와우	16173
어처구니	16174
비정	16175
구자	16176
오리콘	16177
시엘	16178
##치오	16179
무자비	16180
콧	16181
1924	16182
정류소	16183
##미사	16184
열풍	16185
까먹	16186
타라	16187
김인	16188
유죄	16189
왼팔	16190
##히사	16191
최면	16192
white	16193
크로니클	16194
당당히	16195
듀티	16196
엑소	16197
480	16198
스튜어트	16199
대담	16200
김세	16201
속삭	16202
송병	16203
설사	16204
학파	16205
벡	16206
식별	16207
소인	16208
베라	16209
##짜기	16210
캉	16211
기각	16212
##먼드	16213
순교자	16214
차세대	16215
제이드	16216
강당	16217
볼텍스	16218
거물	16219
분수	16220
##EX	16221
양동	16222
재선	16223
⭧느냐고	16224
촉구	16225
안장	16226
##ze	16227
밸리	16228
손수	16229
SW	16230
영분	16231
알루미	16232
앞장	16233
침체	16234
007	16235
##용차	16236
원동	16237
가까스로	16238
밀라노	16239
박병	16240
수배	16241
더스트	16242
0000	16243
Cy	16244
로드리	16245
다이브	16246
한조	16247
대전광역시	16248
추산	16249
프리즈	16250
시애	16251
부합	16252
하드코어	16253
아픔	16254
부추기	16255
영락	16256
헤딩	16257
네메	16258
⭧ᆫ다면서	16259
되돌아오	16260
선공	16261
⭧자니	16262
탐욕	16263
열받	16264
대변인	16265
니키	16266
스칼렛	16267
##무진	16268
우익수	16269
콘스탄티노	16270
su	16271
노브	16272
##ness	16273
망원경	16274
난동	16275
720	16276
주주	16277
사이퍼	16278
가네	16279
기총	16280
착공	16281
플랫폼	16282
어비스	16283
전태	16284
##포로	16285
에덴	16286
타지	16287
Song	16288
##지대	16289
목성	16290
흘러나오	16291
Big	16292
다이어트	16293
Comm	16294
시저	16295
호조	16296
휩쓸	16297
발렌시아	16298
국무총리	16299
##24	16300
자위대	16301
비약	16302
편제	16303
합방	16304
Back	16305
선명	16306
##인간	16307
처단	16308
클로즈	16309
동포	16310
베른	16311
##appy	16312
주작	16313
데이빗	16314
도르트문트	16315
420	16316
팔꿈치	16317
강남구	16318
정무	16319
신민	16320
예리	16321
Arm	16322
류현진	16323
##매매	16324
마더	16325
##도니아	16326
선교사	16327
##즈마	16328
시애틀	16329
의미심장	16330
디트로	16331
디트로이트	16332
서점	16333
폿	16334
⭧꼬	16335
교구	16336
광화	16337
검찰청	16338
빌헬름	16339
유한	16340
레트	16341
커먼	16342
승계	16343
품종	16344
황자	16345
화수	16346
애리	16347
삽화	16348
바바	16349
방대	16350
⭧여도	16351
망자	16352
익스프레스	16353
##ny	16354
유쾌	16355
출입구	16356
화장품	16357
이산	16358
격노	16359
동대문	16360
코이치	16361
대한항공	16362
오버로드	16363
매거진	16364
조선인	16365
자라나	16366
리젠	16367
##벨트	16368
##제리	16369
항로	16370
목표물	16371
##ke	16372
교감	16373
##평가	16374
랫	16375
히로유키	16376
특권	16377
창출	16378
Order	16379
유명세	16380
##제품	16381
늘어놓	16382
두텁	16383
##RAM	16384
##sc	16385
괴로	16386
##슬라비아	16387
유고슬라비아	16388
##바ᄁ	16389
적정	16390
##부대	16391
##마이	16392
1929	16393
##드래	16394
떠들	16395
⭧으라는	16396
대각선	16397
##모자	16398
룽	16399
1911	16400
부두	16401
##틱스	16402
브란	16403
빡빡	16404
민병대	16405
와이드	16406
포화	16407
역기	16408
카야	16409
로마자	16410
후일담	16411
알루미늄	16412
대장군	16413
Skill	16414
리액션	16415
기라	16416
젤다	16417
스케치	16418
미련	16419
나우	16420
단신	16421
전복	16422
##쓸리	16423
꼭대기	16424
서재	16425
정현	16426
프리스트	16427
송파	16428
휩쓸리	16429
방랑	16430
야하	16431
커네	16432
인디언	16433
con	16434
주군	16435
>,	16436
##35	16437
이따	16438
김준호	16439
대머리	16440
법령	16441
국수	16442
KS	16443
플러그	16444
배척	16445
유추	16446
선천	16447
벌칙	16448
집정관	16449
독재자	16450
서커스	16451
농부	16452
##chor	16453
스탠다드	16454
웨일스	16455
주성	16456
매입	16457
씁쓸	16458
TB	16459
어도	16460
나주	16461
##평군	16462
케네	16463
리조트	16464
태연	16465
가가	16466
사이오	16467
퇴근	16468
안드로메다	16469
##공격	16470
산지	16471
첩보	16472
허영	16473
클락	16474
오드	16475
인즈	16476
차출	16477
UR	16478
가제	16479
발효	16480
겸임	16481
1925	16482
시즈카	16483
아론	16484
문의	16485
열전	16486
지아	16487
Every	16488
페인트	16489
사토시	16490
자택	16491
브뤼	16492
과반	16493
행선	16494
좀비	16495
##let	16496
토네이	16497
토네이도	16498
세균	16499
버금	16500
노후	16501
새해	16502
수분	16503
일직	16504
토의	16505
졸개	16506
무협	16507
정규군	16508
김정일	16509
연기자	16510
즘	16511
##느니	16512
##실히	16513
당분간	16514
⭧그	16515
오재	16516
보유자	16517
PSP	16518
cl	16519
듬	16520
조비	16521
투르	16522
서경	16523
윤종	16524
크루세이	16525
분교	16526
국정원	16527
조회	16528
디테일	16529
입상	16530
병영	16531
##푸스	16532
##러미	16533
장단	16534
난폭	16535
##UC	16536
모티	16537
경이	16538
내년	16539
태고	16540
##예프	16541
캬	16542
##AG	16543
##니트	16544
양아치	16545
운전자	16546
짤방	16547
영화판	16548
석화	16549
리히	16550
That	16551
구이	16552
가즈	16553
비행선	16554
##빠르	16555
사상자	16556
나나미	16557
위조	16558
알코올	16559
어휘	16560
속옷	16561
총사령관	16562
##각시	16563
상대편	16564
수반	16565
마늘	16566
왕녀	16567
난해	16568
1917	16569
성추행	16570
커터	16571
##자카	16572
성취	16573
느긋	16574
qu	16575
208	16576
##파니	16577
화랑	16578
해협	16579
빡세	16580
이에야스	16581
활주로	16582
간식	16583
내려놓	16584
동거	16585
##눅스	16586
가차	16587
단거리	16588
##렉트	16589
##양군	16590
지독	16591
전염병	16592
치타	16593
생리	16594
##패드	16595
추월	16596
##작전	16597
##타자	16598
합산	16599
##페스트	16600
노랑	16601
심포	16602
헌데	16603
공병	16604
괴도	16605
상경	16606
##픈	16607
갈고리	16608
펜스	16609
선발전	16610
프랭클린	16611
##폴리스	16612
te	16613
지체	16614
온전히	16615
라운	16616
춘추	16617
마장	16618
자석	16619
TCG	16620
인민군	16621
신종	16622
##비우스	16623
시노부	16624
비숍	16625
샤아	16626
복권	16627
홍수	16628
스펙트	16629
자부심	16630
에프	16631
단말기	16632
개화	16633
박세	16634
숙종	16635
거슬리	16636
##그러지	16637
212	16638
켄타	16639
##괘	16640
⫸서부터	16641
츠카사	16642
리눅스	16643
공직	16644
출세	16645
역전승	16646
해저	16647
마그마	16648
원산	16649
비욘	16650
##정역	16651
심플	16652
##원수	16653
##애미	16654
세이부	16655
##나가와	16656
관광지	16657
유행어	16658
##bps	16659
Des	16660
올라타	16661
마이애미	16662
최진	16663
이어인	16664
동남아시아	16665
이관	16666
대적	16667
교재	16668
제멋대로	16669
Har	16670
##운전	16671
체이스	16672
위임	16673
프리스	16674
##바위	16675
##ert	16676
갑판	16677
교원	16678
비밀리	16679
콩고	16680
초급	16681
잔당	16682
토요타	16683
##ious	16684
##정동	16685
불운	16686
낭만	16687
볼프	16688
나츠미	16689
##끝	16690
FX	16691
등산	16692
영기	16693
171	16694
##옌	16695
##ient	16696
라이터	16697
NL	16698
Top	16699
앞마당	16700
끊이	16701
게이밍	16702
왕따	16703
타쿠미	16704
구세	16705
항쟁	16706
235	16707
튜너	16708
자아내	16709
모건	16710
##부리	16711
요일	16712
##단체	16713
올리버	16714
침식	16715
##net	16716
판본	16717
연방군	16718
채굴	16719
능동	16720
##모사	16721
크롤	16722
스펙터	16723
GL	16724
파열	16725
자의	16726
영창	16727
개종	16728
850	16729
유체	16730
Tri	16731
누마	16732
##위치	16733
심부	16734
법조	16735
의리	16736
##비히	16737
EXH	16738
##유산	16739
크리스토퍼	16740
중얼거리	16741
야채	16742
##노기	16743
##ret	16744
서스	16745
사절	16746
255	16747
이제동	16748
1927	16749
조슈	16750
FR	16751
조인	16752
농도	16753
##ideo	16754
눌	16755
후작	16756
NS	16757
..'	16758
패거리	16759
다이너	16760
악보	16761
리오스	16762
##라이언트	16763
어중간	16764
일선	16765
직계	16766
키메라	16767
##르바	16768
##라이터	16769
푸드	16770
쏠리	16771
마츠모토	16772
정진	16773
근래	16774
가변	16775
사비	16776
플레이트	16777
##튀기	16778
들려주	16779
장녀	16780
레이크	16781
일찍이	16782
비대	16783
백악	16784
법정동	16785
클라이언트	16786
##넓	16787
구치	16788
래스	16789
##pl	16790
뻥튀기	16791
주임	16792
RF	16793
한가	16794
해밀	16795
줄리아	16796
##ᆷ비	16797
푸른	16798
알아듣	16799
마드	16800
##호도	16801
##olution	16802
떨어트리	16803
##둘기	16804
신한은행	16805
Amer	16806
골대	16807
헌병	16808
⭧는군	16809
공전	16810
중산	16811
와일드카드	16812
미완	16813
내심	16814
랏	16815
매트릭스	16816
어로	16817
쉘	16818
어지간히	16819
햇빛	16820
바트	16821
왕건	16822
##토록	16823
Em	16824
초동	16825
용품	16826
206	16827
스플릿	16828
##주곡	16829
카멜	16830
투기	16831
트리오	16832
연평	16833
특출	16834
유니버	16835
이의	16836
상고	16837
이승엽	16838
애틀랜타	16839
와이어	16840
부메	16841
안중	16842
PO	16843
텐션	16844
유세	16845
DEF	16846
##IST	16847
모기	16848
##자스	16849
인신	16850
드레이크	16851
##겨지	16852
LCD	16853
작렬	16854
off	16855
삿포로	16856
럽	16857
##나들	16858
##co	16859
경호원	16860
##노프	16861
##버릇	16862
소량	16863
##ERS	16864
각본가	16865
유민	16866
버디	16867
⭧앗	16868
오아	16869
정직	16870
인스	16871
가메	16872
##비언	16873
리바이	16874
사역	16875
성남시	16876
알파벳	16877
##인드	16878
중공업	16879
구애	16880
벨벳	16881
이지스	16882
##러기	16883
주스	16884
우로	16885
##교도	16886
켄이치	16887
333	16888
거듭나	16889
게르만	16890
장학금	16891
피크	16892
쭈	16893
Act	16894
소이	16895
프라이즈	16896
기통	16897
##니지	16898
요지	16899
진해	16900
UFO	16901
부메랑	16902
요크	16903
프레드	16904
원제	16905
가쿠	16906
정경	16907
후려	16908
드리프트	16909
치부	16910
데뷔작	16911
209	16912
두드리	16913
이신	16914
카터	16915
메아리	16916
버니	16917
청주시	16918
##ful	16919
##밟	16920
엘런	16921
##mania	16922
ve	16923
판도라	16924
절묘	16925
과다	16926
부딪치	16927
290	16928
Pe	16929
지바	16930
kn	16931
기겁	16932
LS	16933
케르	16934
우메	16935
메소	16936
줄줄이	16937
꼭두각시	16938
남원	16939
자드	16940
작물	16941
무난히	16942
튜브	16943
KG	16944
코지마	16945
저렇	16946
##틀링	16947
여리	16948
리투아	16949
햄버	16950
토템	16951
암석	16952
리투아니아	16953
⭧면은	16954
동선	16955
##피어	16956
이트	16957
정종	16958
소아	16959
소음기	16960
##ner	16961
##ham	16962
##고쿠	16963
뇌격	16964
TD	16965
형법	16966
##사우루스	16967
관대	16968
특공대	16969
팔레스	16970
토와	16971
주름	16972
츠루	16973
인기투표	16974
Bar	16975
Fre	16976
215	16977
받침	16978
진전	16979
고모	16980
파드	16981
선풍	16982
마고	16983
##어들이	16984
친근	16985
오바마	16986
가창력	16987
트레이서	16988
데프	16989
##힘	16990
성녀	16991
외야	16992
단단히	16993
##캐슬	16994
세단	16995
치밀	16996
Ext	16997
소중히	16998
##조선	16999
비틀즈	17000
루즈	17001
런닝맨	17002
브로드	17003
##럭스	17004
AMD	17005
시정	17006
이민자	17007
⭧사	17008
##슘	17009
시궁창	17010
가로지르	17011
God	17012
자연수	17013
데일리	17014
Str	17015
1926	17016
생계	17017
통역	17018
##서리	17019
데스크	17020
희미	17021
송곳	17022
나루호도	17023
되려	17024
레미	17025
다이묘	17026
항우	17027
뉴캐슬	17028
독립운동가	17029
나시	17030
##숭	17031
##곡리	17032
##ning	17033
동산	17034
GDP	17035
괴멸	17036
나가사키	17037
브라우저	17038
때우	17039
Hot	17040
팩토리	17041
Bea	17042
재상	17043
가중	17044
Ab	17045
경관	17046
##캐스트	17047
밀러	17048
##ERT	17049
STAR	17050
오마주	17051
규명	17052
RAM	17053
anchor	17054
덩크	17055
위화감	17056
우투	17057
어린애	17058
음양	17059
##ump	17060
아우구	17061
샤이닝	17062
가세	17063
클라우	17064
나츠키	17065
Char	17066
노사	17067
항소	17068
전폭	17069
성종	17070
자정	17071
보전	17072
고스란히	17073
김제	17074
러블리	17075
버금가	17076
'-	17077
케네디	17078
⭧ᆯ지도	17079
##ward	17080
레비	17081
심심찮	17082
마카오	17083
Met	17084
Rain	17085
심슨	17086
시발	17087
##day	17088
점포	17089
Sil	17090
소셜	17091
초중	17092
every	17093
주시	17094
대의	17095
서남	17096
중소기업	17097
마천	17098
공시	17099
최성	17100
헛소리	17101
⭧ᆯ게요	17102
알맞	17103
##ATION	17104
위인	17105
인장	17106
갭	17107
데이즈	17108
FN	17109
##여행	17110
금하	17111
경상도	17112
무심	17113
⭧랄까	17114
탄수	17115
평지	17116
오일	17117
최적화	17118
동유럽	17119
간장	17120
산호	17121
박민	17122
투여	17123
**	17124
뮤즈	17125
만화가	17126
해결책	17127
수리검	17128
시르	17129
영재	17130
체류	17131
want	17132
아이리	17133
이시다	17134
성령	17135
##상스	17136
로페	17137
이목	17138
재화	17139
FE	17140
이분	17141
White	17142
##88	17143
비하인드	17144
Inf	17145
옥스	17146
헤라클레스	17147
찬사	17148
랜디	17149
최우선	17150
신촌	17151
1400	17152
헌납	17153
yout	17154
세무	17155
팔레스타인	17156
채권	17157
셔츠	17158
경의	17159
미얀	17160
인피니트	17161
##하늘	17162
기판	17163
로버	17164
대리인	17165
수주	17166
문호	17167
##매니아	17168
⭧ᄇ시다	17169
카자흐	17170
제각	17171
발도	17172
십상	17173
##내기	17174
바사	17175
수료	17176
유우야	17177
이송	17178
계승자	17179
사생활	17180
젯	17181
코나미	17182
KD	17183
명품	17184
북두	17185
루드	17186
충동	17187
성동	17188
바람직	17189
선하	17190
군단장	17191
수영장	17192
안테나	17193
조승	17194
세토	17195
현수	17196
역관	17197
앤더슨	17198
퀑	17199
김태균	17200
제레	17201
down	17202
최재	17203
긴장감	17204
more	17205
탬	17206
포이	17207
멸자	17208
과잉	17209
황무지	17210
오덕	17211
May	17212
##트니	17213
빈스	17214
불분	17215
버지니아	17216
길목	17217
애리조	17218
##대표	17219
건너편	17220
정연	17221
207	17222
마케도니아	17223
그물	17224
키바	17225
감속	17226
스트레이트	17227
이치카	17228
Pop	17229
잔여	17230
한인	17231
찾아다니	17232
IDOLM	17233
다이렉트	17234
주부	17235
도보	17236
개틀링	17237
권역	17238
##살이	17239
오퍼레이터	17240
발령	17241
로로	17242
여행자	17243
근로자	17244
Master	17245
저스틴	17246
청문	17247
주권	17248
장막	17249
내무	17250
##소통	17251
흑룡	17252
배럴	17253
터무니	17254
대한제국	17255
##대군	17256
##레즈	17257
이가	17258
의류	17259
휘둘	17260
##켜	17261
의사소통	17262
하렘	17263
##son	17264
지자체	17265
한결	17266
창세기	17267
하데스	17268
편집자	17269
영국인	17270
##드래곤	17271
코로	17272
투항	17273
##뮤직	17274
##au	17275
부녀	17276
분과	17277
서울역	17278
유부	17279
##ANC	17280
체로	17281
PA	17282
외교관	17283
자음	17284
우사	17285
##oud	17286
과하	17287
농어촌	17288
⭧냐면서	17289
병맛	17290
박기	17291
머들	17292
심리전	17293
##ves	17294
아르테	17295
익명	17296
사단장	17297
##지리아	17298
단연	17299
감도	17300
나이지리아	17301
⭧대	17302
포유	17303
##피탈	17304
몸체	17305
앞장서	17306
Game	17307
대입	17308
초연	17309
숙명	17310
나기사	17311
공석	17312
##밖	17313
불분명	17314
##엠	17315
이범	17316
⫸이라든가	17317
에니	17318
무언가	17319
지갑	17320
##실록	17321
멀린	17322
노동조합	17323
랄프	17324
멧돼지	17325
무법	17326
여객철도	17327
OR	17328
사병	17329
##밑	17330
촛불	17331
플라워	17332
로자	17333
스펙트럼	17334
⭧는데도	17335
충실히	17336
수년	17337
##뚤	17338
수뇌	17339
##마츠	17340
안식	17341
분전	17342
161	17343
경희대	17344
미분	17345
they	17346
며느리	17347
끝판	17348
감시자	17349
##지물	17350
1922	17351
사카모토	17352
##ift	17353
티탄	17354
송라이터	17355
행동력	17356
몰아치	17357
뛰어다니	17358
##리온	17359
여대	17360
체급	17361
란트	17362
보단	17363
만화책	17364
재빠르	17365
리비아	17366
엠파이어	17367
##ship	17368
즉석	17369
전용기	17370
명확히	17371
서유럽	17372
호타	17373
전과	17374
스패	17375
##ape	17376
애프터	17377
COM	17378
동독	17379
너구리	17380
쿠미	17381
##블랑	17382
유시	17383
제품군	17384
##부짖	17385
성검	17386
울부짖	17387
중심부	17388
Are	17389
##갱	17390
##도사	17391
##돔	17392
경시	17393
한중	17394
카에데	17395
신령	17396
##감치	17397
GAM	17398
그토록	17399
기공	17400
오반	17401
공적	17402
##찌감치	17403
피고인	17404
조로	17405
치세	17406
체르	17407
브랜	17408
미하일	17409
##떼	17410
들통	17411
경합	17412
리언	17413
1923	17414
열렬	17415
지출	17416
체내	17417
세츠나	17418
무로	17419
TN	17420
행각	17421
WAR	17422
기생충	17423
국물	17424
절약	17425
역전패	17426
간편	17427
터리	17428
1921	17429
기린	17430
자재	17431
고갈	17432
##현동	17433
TG	17434
외래어	17435
스노	17436
김택용	17437
##lock	17438
좌석버스	17439
레베	17440
불가피	17441
카트라이더	17442
사시	17443
차마	17444
반자동	17445
메커	17446
산출	17447
##꿀	17448
요양	17449
몸집	17450
트레인	17451
Bu	17452
맞춤	17453
가야	17454
무네	17455
Bra	17456
##또	17457
520	17458
나데	17459
후하	17460
천리	17461
only	17462
시세	17463
카프	17464
로미	17465
언론사	17466
마오쩌	17467
마오쩌둥	17468
##ien	17469
##고스	17470
뿜어내	17471
마우	17472
크러	17473
멱	17474
시프트	17475
익스트림	17476
천문학	17477
Yeah	17478
부설	17479
명하	17480
버즈	17481
경전철	17482
##관계	17483
마비노기	17484
애덤	17485
DA	17486
의약	17487
단번에	17488
##less	17489
필기	17490
준장	17491
쿼드	17492
⭧ㅏ요	17493
이장	17494
비둘기	17495
##ize	17496
특색	17497
news	17498
학부모	17499
소망	17500
체하	17501
짓밟	17502
크림슨	17503
##산면	17504
개드	17505
말라	17506
폐하	17507
도타	17508
순순	17509
##뿌리	17510
##zy	17511
음식점	17512
루시퍼	17513
민지	17514
Cont	17515
##LD	17516
마취	17517
완패	17518
절감	17519
##니케이션	17520
메이크	17521
솔리드	17522
피니시	17523
리시	17524
헤더	17525
성급	17526
피버	17527
커뮤니케이션	17528
오스틴	17529
pl	17530
티나	17531
터미네이터	17532
신공	17533
걸스	17534
하얀색	17535
등용	17536
프란츠	17537
제네시스	17538
##EE	17539
##형제	17540
캐로	17541
탤런트	17542
밴시	17543
예하	17544
산산	17545
Hea	17546
창간	17547
서약	17548
친화	17549
케어	17550
트레버	17551
제명	17552
치소	17553
인분	17554
나지	17555
##45	17556
월터	17557
르네상스	17558
항속	17559
장대	17560
활기	17561
##led	17562
유스케	17563
##고루	17564
##omb	17565
일갈	17566
⭧누	17567
섹터	17568
강령	17569
전투원	17570
자치구	17571
아세	17572
당근	17573
포괄	17574
⭧자며	17575
극동	17576
궁정	17577
##준호	17578
비범	17579
붙여지	17580
콘테스트	17581
일생	17582
영화관	17583
남아공	17584
##렁이	17585
##마트	17586
구스타	17587
설문	17588
무패	17589
급여	17590
붉은색	17591
종로구	17592
운임	17593
##똥	17594
간첩	17595
구비	17596
치키	17597
급제	17598
위태	17599
독설	17600
포진	17601
독도	17602
##기어	17603
댈러스	17604
단간	17605
출생지	17606
재차	17607
##ited	17608
Project	17609
교직원	17610
##HD	17611
##법인	17612
그지	17613
락스	17614
팀킬	17615
헤지	17616
온게임	17617
온게임넷	17618
##마드	17619
와타루	17620
7000	17621
세련	17622
리포	17623
⫸마는	17624
배고	17625
##람쥐	17626
민속	17627
##문화재	17628
노마	17629
복부	17630
Joh	17631
회자	17632
##조작	17633
다이스	17634
##ALL	17635
Off	17636
자위	17637
온전	17638
Battle	17639
불허	17640
이상민	17641
TEC	17642
응징	17643
생포	17644
힘겹	17645
붕대	17646
1912	17647
척하	17648
읊	17649
TF	17650
노스케	17651
불안감	17652
플라잉	17653
정선	17654
선상	17655
팰	17656
이유로	17657
스릴러	17658
다트	17659
우동	17660
메츠	17661
계약자	17662
순순히	17663
##ita	17664
승부조작	17665
유다	17666
빼놓	17667
다이빙	17668
눈부시	17669
⭧ᆫ대	17670
발자	17671
회유	17672
이어폰	17673
##준혁	17674
JC	17675
##소타	17676
선별	17677
Open	17678
##ORM	17679
톡톡	17680
성유	17681
##ton	17682
원상	17683
반죽	17684
태후	17685
DDR	17686
~'	17687
정국	17688
협공	17689
스몰	17690
조나	17691
성품	17692
빵빵	17693
##29	17694
순차	17695
천연가스	17696
wiz	17697
칸나	17698
Sky	17699
돌풍	17700
지못	17701
지못미	17702
패미컴	17703
##낮	17704
Moon	17705
나뭇잎	17706
브룩	17707
전투복	17708
조니	17709
브리핑	17710
##장구	17711
##레오	17712
휘둘리	17713
케미	17714
헤일	17715
아란	17716
번거	17717
##플러	17718
......	17719
조부	17720
##웹	17721
221	17722
##ENT	17723
날아오르	17724
BASIC	17725
이석	17726
모데	17727
스켈	17728
연장전	17729
노원	17730
기염	17731
관건	17732
알비	17733
미네소타	17734
소주	17735
##선스	17736
일직선	17737
⫸여	17738
777	17739
##메르	17740
[...]
