▁. -0
▁이 -1
▁1 -2
▁있 -3
에서 -4
으로 -5
▁그 -6
▁2 -7
▁사 -8
▁아 -9
▁하 -10
▁수 -11
▁대 -12
▁가 -13
▁시 -14
▁한 -15
▁보 -16
▁전 -17
▁기 -18
▁다 -19
▁것 -20
▁자 -21
▁나 -22
▁마 -23
▁지 -24
하는 -25
▁정 -26
지만 -27
▁모 -28
▁일 -29
▁있다 -30
▁20 -31
▁상 -32
▁스 -33
▁3 -34
▁때 -35
▁공 -36
이다 -37
▁유 -38
▁- -39
▁제 -40
었다 -41
▁경 -42
▁주 -43
▁없 -44
▁인 -45
▁중 -46
▁부 -47
▁오 -48
▁않 -49
에게 -50
▁무 -51
▁소 -52
▁등 -53
▁어 -54
했다 -55
▁비 -56
한다 -57
▁위 -58
하고 -59
▁되 -60
▁여 -61
▁해 -62
▁201 -63
▁미 -64
▁4 -65
▁바 -66
▁만 -67
이라 -68
▁고 -69
▁조 -70
▁있는 -71
▁방 -72
▁내 -73
▁5 -74
▁성 -75
▁말 -76
▁거 -77
▁도 -78
▁영 -79
▁동 -80
▁안 -81
▁연 -82
▁개 -83
▁신 -84
▁' -85
▁선 -86
▁장 -87
▁후 -88
▁생 -89
▁발 -90
▁때문 -91
▁카 -92
▁구 -93
▁최 -94
까지 -95
00 -96
▁적 -97
▁세 -98
레이 -99
▁한다 -100
들이 -101
▁의 -102
는데 -103
▁게 -104
면서 -105
하게 -106
▁불 -107
▁타 -108
된다 -109
▁강 -110
에는 -111
▁실 -112
▁많 -113
▁서 -114
▁더 -115
▁진 -116
▁문 -117
▁파 -118
▁당 -119
▁우 -120
▁특 -121
▁결 -122
▁원 -123
▁라 -124
▁6 -125
▁S -126
▁! -127
▁알 -128
▁같 -129
에서는 -130
▁노 -131
하다 -132
▁포 -133
▁관 -134
▁경우 -135
▁때문에 -136
▁반 -137
▁작 -138
▁: -139
▁19 -140
▁들 -141
▁" -142
▁리 -143
적으로 -144
▁단 -145
▁아니 -146
▁역 -147
▁추 -148
으며 -149
▁7 -150
리고 -151
▁프 -152
▁사용 -153
▁공격 -154
▁받 -155
▁남 -156
▁자신 -157
▁못 -158
▁출 -159
▁차 -160
▁0 -161
▁피 -162
적인 -163
▁8 -164
▁이후 -165
▁물 -166
▁배 -167
해서 -168
▁좋 -169
▁데 -170
▁본 -171
▁에 -172
▁현 -173
▁버 -174
스트 -175
부터 -176
▁10 -177
▁따 -178
▁매 -179
다는 -180
▁초 -181
▁M -182
하기 -183
대로 -184
▁사람 -185
▁드 -186
▁코 -187
▁A -188
▁.. -189
▁레 -190
▁9 -191
▁또 -192
▁달 -193
▁계 -194
다고 -195
▁감 -196
▁크 -197
하면 -198
▁재 -199
하여 -200
▁입 -201
▁패 -202
▁건 -203
▁국 -204
▁두 -205
▁김 -206
라는 -207
▁통 -208
▁정도 -209
▁함 -210
▁예 -211
▁저 -212
▁요 -213
였다 -214
▁참 -215
이나 -216
▁설 -217
▁분 -218
▁된다 -219
▁등장 -220
라고 -221
▁다른 -222
▁C -223
▁명 -224
▁편 -225
▁점 -226
▁로 -227
들은 -228
들을 -229
▁메 -230
▁평 -231
▁T -232
▁죽 -233
▁화 -234
▁하지만 -235
▁교 -236
▁할 -237
▁플 -238
er -239
▁캐 -240
▁? -241
▁쓰 -242
지는 -243
에도 -244
▁올 -245
▁돌 -246
▁... -247
▁B -248
▁그리고 -249
▁걸 -250
▁잘 -251
기도 -252
으나 -253
리는 -254
▁아이 -255
기를 -256
들의 -257
▁가능 -258
▁속 -259
▁외 -260
▁200 -261
▁맞 -262
in -263
하지 -264
▁것이 -265
▁호 -266
기에 -267
▁처 -268
되었다 -269
▁사실 -270
▁확 -271
▁직 -272
▁게임 -273
▁들어 -274
▁하는 -275
는다 -276
니다 -277
▁애 -278
▁D -279
▁과 -280
▁회 -281
▁심 -282
▁종 -283
하며 -284
▁살 -285
▁L -286
▁변 -287
▁하나 -288
다가 -289
▁필 -290
▁치 -291
▁같은 -292
▁뒤 -293
▁모습 -294
스터 -295
▁트 -296
▁12 -297
▁승 -298
▁학 -299
▁높 -300
거나 -301
되어 -302
▁대한 -303
보다 -304
▁체 -305
▁박 -306
▁이름 -307
▁운 -308
▁그러 -309
▁행 -310
▁목 -311
이트 -312
▁토 -313
an -314
▁P -315
▁약 -316
▁F -317
▁날 -318
on -319
▁시작 -320
▁언 -321
▁나오 -322
리를 -323
▁없다 -324
▁번 -325
▁활 -326
▁함께 -327
▁일본 -328
▁한국 -329
▁/ -330
▁생각 -331
▁각 -332
았다 -333
▁힘 -334
기가 -335
▁문제 -336
▁했 -337
▁간 -338
어서 -339
▁이상 -340
▁11 -341
▁존 -342
▁히 -343
▁양 -344
능력 -345
이라는 -346
▁디 -347
▁순 -348
이라고 -349
▁만들 -350
릭터 -351
▁표 -352
▁G -353
▁팀 -354
▁손 -355
▁투 -356
▁것을 -357
▁위해 -358
▁증 -359
▁끝 -360
▁효 -361
▁했다 -362
되는 -363
▁잡 -364
▁캐릭터 -365
▁키 -366
▁완 -367
▁클 -368
에서도 -369
▁E -370
▁H -371
▁베 -372
▁야 -373
리가 -374
▁막 -375
▁집 -376
이지 -377
▁다시 -378
처럼 -379
▁없는 -380
▁추가 -381
▁또한 -382
라이 -383
으면 -384
▁상대 -385
▁군 -386
▁볼 -387
▁가장 -388
▁총 -389
▁독 -390
▁열 -391
▁있었 -392
▁플레이 -393
▁프로 -394
or -395
▁난 -396
▁근 -397
▁되었다 -398
▁너 -399
▁따라 -400
▁상황 -401
▁사이 -402
▁N -403
▁판 -404
▁폭 -405
▁용 -406
지고 -407
▁당시 -408
ar -409
▁R -410
th -411
▁모두 -412
▁+ -413
▁별 -414
▁결국 -415
▁15 -416
▁시간 -417
▁형 -418
▁새 -419
기는 -420
▁스킬 -421
▁K -422
▁I -423
학교 -424
미지 -425
▁음 -426
▁것이다 -427
▁# -428
▁테 -429
▁모든 -430
▁항 -431
▁다만 -432
▁루 -433
▁네 -434
▁빠 -435
▁능력 -436
▁보여 -437
▁상태 -438
▁친 -439
▁왕 -440
▁태 -441
▁브 -442
▁많이 -443
▁그런 -444
▁블 -445
▁보면 -446
▁앞 -447
이고 -448
▁복 -449
.1 -450
▁먹 -451
▁카드 -452
리즈 -453
▁채 -454
▁넘 -455
▁듯 -456
이며 -457
리스 -458
▁충 -459
▁광 -460
▁눈 -461
▁및 -462
▁자신의 -463
자가 -464
▁얼 -465
력이 -466
▁시즌 -467
▁전투 -468
▁삼 -469
▁것은 -470
이는 -471
▁효과 -472
.0 -473
▁것으로 -474
력을 -475
▁커 -476
이었 -477
▁하고 -478
▁존재 -479
▁페 -480
▁누 -481
▁악 -482
▁현재 -483
▁준 -484
▁검 -485
▁있었다 -486
▁매우 -487
en -488
▁합 -489
▁그래 -490
하면서 -491
at -492
▁임 -493
▁병 -494
▁나온 -495
▁큰 -496
▁천 -497
리아 -498
▁O -499
스를 -500
스의 -501
▁싸 -502
▁상당 -503
▁줄 -504
▁물론 -505
▁그러나 -506
성이 -507
▁금 -508
▁첫 -509
므로 -510
스가 -511
▁얻 -512
▁느 -513
▁W -514
20 -515
인다 -516
▁취 -517
st -518
▁찾 -519
되었 -520
하였다 -521
▁그렇 -522
가는 -523
▁18 -524
▁엄 -525
▁경기 -526
▁아니라 -527
▁많은 -528
▁실제 -529
▁시리즈 -530
들에게 -531
▁된 -532
-1 -533
▁자체 -534
▁이런 -535
▁아닌 -536
▁백 -537
▁와 -538
가지 -539
▁이유 -540
인데 -541
000 -542
ou -543
▁16 -544
▁선수 -545
인이 -546
▁길 -547
▁식 -548
인지 -549
al -550
▁업 -551
▁이용 -552
▁극 -553
▁세계 -554
▁돌아 -555
▁떨 -556
▁바로 -557
▁산 -558
▁마법 -559
▁갈 -560
▁관련 -561
▁팬 -562
▁황 -563
▁필요 -564
▁밀 -565
▁처음 -566
▁허 -567
▁절 -568
▁기본 -569
▁일반 -570
▁주인 -571
▁슈 -572
▁역시 -573
▁13 -574
▁피해 -575
▁다음 -576
진다 -577
▁라이 -578
▁벌 -579
▁모습을 -580
▁않는 -581
하자 -582
▁머 -583
▁거의 -584
▁온 -585
이었다 -586
들과 -587
▁30 -588
거리 -589
▁[ -590
린다 -591
졌다 -592
▁엔 -593
▁민 -594
▁해당 -595
▁은 -596
▁2017 -597
▁기술 -598
▁아무 -599
▁잠 -600
▁14 -601
사를 -602
지를 -603
부분 -604
▁199 -605
▁몰 -606
▁기록 -607
▁여러 -608
시키 -609
에선 -610
▁이야 -611
▁되어 -612
이지만 -613
▁V -614
▁탈 -615
▁창 -616
▁U -617
▁특히 -618
▁2018 -619
▁좀 -620
라도 -621
▁미국 -622
사가 -623
도가 -624
▁곳 -625
▁붙 -626
▁둘 -627
▁레이 -628
▁않고 -629
▁혼 -630
어나 -631
▁골 -632
▁참고 -633
▁있으며 -634
이스 -635
▁떨어 -636
지막 -637
▁좋은 -638
▁방어 -639
re -640
▁쿠 -641
▁같이 -642
▁진행 -643
▁17 -644
기로 -645
상을 -646
▁있는데 -647
▁터 -648
▁즉 -649
▁곡 -650
▁수도 -651
▁청 -652
▁스타 -653
하지만 -654
▁북 -655
아서 -656
해야 -657
le -658
▁2019 -659
▁지역 -660
했던 -661
주는 -662
▁레벨 -663
▁귀 -664
이가 -665
▁철 -666
▁주인공 -667
▁싶 -668
▁마지막 -669
▁증가 -670
▁방송 -671
▁탄 -672
▁않는다 -673
▁그냥 -674
▁사건 -675
▁밝 -676
▁범 -677
▁부분 -678
▁제작 -679
장을 -680
으니 -681
.2 -682
▁달리 -683
▁환 -684
▁인간 -685
▁권 -686
▁작품 -687
로는 -688
▁케 -689
▁월 -690
▁계속 -691
▁대부분 -692
▁영화 -693
▁보고 -694
▁개요 -695
▁몸 -696
▁내용 -697
▁되는 -698
▁있을 -699
시간 -700
시아 -701
▁2016 -702
▁통해 -703
10 -704
전히 -705
▁엘 -706
▁뿐 -707
▁올라 -708
▁몇 -709
▁풀 -710
▁정도로 -711
성을 -712
▁담 -713
▁비슷 -714
▁않은 -715
▁떠 -716
▁어느 -717
르는 -718
습니다 -719
▁하다 -720
▁헤 -721
▁있어 -722
▁수준 -723
▁상당히 -724
▁만들어 -725
▁100 -726
▁접 -727
▁몬 -728
▁보인다 -729
어가 -730
▁가지고 -731
it -732
했고 -733
▁25 -734
▁지금 -735
▁워 -736
▁않았 -737
▁낮 -738
▁이전 -739
▁대신 -740
드를 -741
▁인물 -742
▁일부 -743
렸다 -744
▁있고 -745
▁맡 -746
▁너무 -747
▁이동 -748
▁덕 -749
▁것도 -750
▁좋아 -751
있는 -752
▁성공 -753
▁격 -754
드는 -755
▁인해 -756
▁m -757
▁암 -758
마다 -759
▁최대 -760
▁~ -761
지가 -762
ing -763
▁-2 -764
▁그대로 -765
▁될 -766
ic -767
▁위치 -768
▁문서 -769
리에 -770
주의 -771
▁서울 -772
▁제외 -773
수가 -774
▁th -775
정을 -776
▁여기 -777
인의 -778
▁높은 -779
트를 -780
들도 -781
밖에 -782
되고 -783
▁이를 -784
자를 -785
▁타이 -786
▁중국 -787
▁기준 -788
▁이미 -789
시에 -790
려고 -791
▁애니 -792
이션 -793
▁뛰 -794
▁그녀 -795
▁대해 -796
리어 -797
멤버 -798
▁팔 -799
장이 -800
▁없이 -801
▁활동 -802
자의 -803
▁언급 -804
.5 -805
도록 -806
▁울 -807
▁몬스터 -808
▁유닛 -809
▁질 -810
▁홍 -811
스는 -812
▁많다 -813
▁감독 -814
▁유저 -815
▁원래 -816
▁법 -817
▁X -818
▁직접 -819
▁국가 -820
년에 -821
▁결과 -822
▁논 -823
▁글 -824
▁경우가 -825
▁2015 -826
이드 -827
is -828
▁괴 -829
▁던 -830
▁면 -831
▁홈 -832
▁쓸 -833
와의 -834
▁나오는 -835
▁대표 -836
사의 -837
▁축 -838
▁있지만 -839
스로 -840
▁." -841
지도 -842
▁설명 -843
르게 -844
▁멤버 -845
▁전체 -846
▁성우 -847
리의 -848
▁슬 -849
▁J -850
▁니 -851
수를 -852
▁자신이 -853
도로 -854
▁스토 -855
▁선택 -856
▁마음 -857
왔다 -858
▁의미 -859
▁평가 -860
am -861
▁시절 -862
▁과거 -863
▁이어 -864
▁무기 -865
▁소속 -866
하는데 -867
▁엄청 -868
로운 -869
▁티 -870
▁받아 -871
▁50 -872
▁이는 -873
he -874
▁넣 -875
치는 -876
▁자기 -877
하였 -878
었고 -879
▁설정 -880
▁s -881
▁망 -882
▁나타 -883
도를 -884
위를 -885
▁늘 -886
없이 -887
▁데미지 -888
리지 -889
준다 -890
om -891
▁w -892
전을 -893
▁러 -894
스타 -895
▁컨 -896
중에 -897
▁관계 -898
▁꽤 -899
▁< -900
▁불가 -901
▁장면 -902
▁아이템 -903
번째 -904
▁있던 -905
▁21 -906
운드 -907
▁쉽 -908
▁육 -909
▁실제로 -910
▁등의 -911
랜드 -912
▁공격력 -913
이자 -914
▁영상 -915
▁묘 -916
50 -917
▁퍼 -918
▁출연 -919
▁먼 -920
▁찾아 -921
자는 -922
▁초반 -923
▁지원 -924
▁조금 -925
▁나온다 -926
있다 -927
▁, -928
하던 -929
es -930
▁참고로 -931
▁갖 -932
▁이것 -933
▁최고 -934
▁방법 -935
▁그의 -936
나는 -937
▁소환 -938
▁깨 -939
▁크게 -940
el -941
▁말을 -942
어로 -943
▁발매 -944
이기 -945
▁쪽 -946
만큼 -947
▁정보 -948
과는 -949
치가 -950
▁희 -951
점을 -952
대를 -953
▁혹 -954
▁전부 -955
▁아니다 -956
▁동안 -957
▁만든 -958
▁제대로 -959
▁198 -960
▁이에 -961
▁칼 -962
▁알려 -963
▁향 -964
▁돈 -965
▁갑 -966
대의 -967
▁이벤 -968
▁22 -969
이어 -970
dd -971
나가 -972
▁유명 -973
트가 -974
치를 -975
▁t -976
▁있다는 -977
▁사라 -978
▁압 -979
▁놀 -980
인을 -981
▁공식 -982
▁이때 -983
▁아버 -984
화를 -985
기의 -986
30 -987
as -988
▁하지 -989
드가 -990
▁전쟁 -991
▁24 -992
▁정말 -993
▁보여주 -994
▁2014 -995
▁자주 -996
▁기타 -997
▁b -998
이를 -999
국의 -1000
▁급 -1001
▁뉴 -1002
▁최종 -1003
▁사랑 -1004
▁듣 -1005
▁당연 -1006
▁그런데 -1007
▁아직 -1008
▁o -1009
▁운영 -1010
-0 -1011
▁이렇 -1012
▁라고 -1013
ch -1014
되지 -1015
▁친구 -1016
로서 -1017
▁침 -1018
▁찍 -1019
하기도 -1020
어난 -1021
▁적이 -1022
와는 -1023
▁학교 -1024
▁파괴 -1025
▁해도 -1026
▁사망 -1027
▁the -1028
정이 -1029
머니 -1030
에서의 -1031
▁가능하다 -1032
▁출신 -1033
이크 -1034
▁강력 -1035
드의 -1036
▁강화 -1037
▁바람 -1038
▁빨 -1039
ff -1040
▁개발 -1041
▁규 -1042
ol -1043
원이 -1044
▁인터 -1045
▁비해 -1046
▁탑 -1047
▁그것 -1048
같은 -1049
▁멀 -1050
히려 -1051
▁마찬 -1052
했을 -1053
▁봉 -1054
▁놓 -1055
▁책 -1056
▁프리 -1057
전에 -1058
▁학생 -1059
▁마찬가지 -1060
이터 -1061
▁궁 -1062
▁영향 -1063
▁발생 -1064
ion -1065
▁오히려 -1066
등학교 -1067
▁왜 -1068
▁있어서 -1069
▁끌 -1070
▁드래 -1071
▁노래 -1072
▁앨 -1073
▁비교 -1074
▁의해 -1075
▁위한 -1076
전에서 -1077
▁서로 -1078
▁주로 -1079
▁회복 -1080
▁우승 -1081
▁기존 -1082
▁포함 -1083
▁게다가 -1084
지어 -1085
▁빌 -1086
어도 -1087
▁딜 -1088
▁좋다 -1089
으로는 -1090
▁슈퍼 -1091
과의 -1092
▁성능 -1093
이도 -1094
▁빼 -1095
▁협 -1096
▁리그 -1097
▁사람이 -1098
▁뜻 -1099
격을 -1100
▁살아 -1101
▁특수 -1102
는지 -1103
했지만 -1104
▁23 -1105
▁보통 -1106
▁가진 -1107
▁역할 -1108
▁어떤 -1109
▁정신 -1110
▁때문이다 -1111
일에 -1112
▁않았다 -1113
▁아예 -1114
▁공개 -1115
▁40 -1116
▁중요 -1117
▁일단 -1118
▁알고 -1119
명이 -1120
▁후반 -1121
▁여성 -1122
▁잔 -1123
▁봐 -1124
▁변경 -1125
식을 -1126
▁착 -1127
▁이번 -1128
명을 -1129
▁확률 -1130
▁그래서 -1131
분에 -1132
▁연구 -1133
였던 -1134
동안 -1135
▁지나 -1136
▁하면 -1137
▁플레이어 -1138
상이 -1139
▁사실상 -1140
▁노선 -1141
리오 -1142
리그 -1143
하려 -1144
나마 -1145
-2 -1146
▁송 -1147
ig -1148
ow -1149
il -1150
경기 -1151
▁하며 -1152
▁작중 -1153
▁써 -1154
▁측 -1155
▁유지 -1156
et -1157
▁배우 -1158
11 -1159
▁f -1160
▁이루 -1161
다면 -1162
ac -1163
▁본인 -1164
화에서 -1165
점이 -1166
▁스테 -1167
▁승리 -1168
▁발동 -1169
▁되고 -1170
하거나 -1171
자로 -1172
▁심지어 -1173
▁농 -1174
▁이렇게 -1175
트로 -1176
▁그래도 -1177
▁이러 -1178
ed -1179
▁최초 -1180
▁영웅 -1181
▁까 -1182
▁기사 -1183
라마 -1184
,000 -1185
자인 -1186
▁보스 -1187
▁대한민 -1188
었던 -1189
▁행동 -1190
▁도시 -1191
오는 -1192
▁뽑 -1193
▁힘들 -1194
▁그렇게 -1195
▁숨 -1196
▁d -1197
▁유일 -1198
▁수록 -1199
▁가까 -1200
리카 -1201
년대 -1202
▁들어가 -1203
물을 -1204
▁2013 -1205
▁어려 -1206
▁부족 -1207
프트 -1208
했다고 -1209
▁버전 -1210
▁결정 -1211
▁없어 -1212
▁여자 -1213
▁비슷한 -1214
수의 -1215
▁모양 -1216
르면 -1217
▁체력 -1218
▁& -1219
▁먼저 -1220
간다 -1221
▁있다고 -1222
음을 -1223
▁형태 -1224
보면 -1225
ht -1226
메이션 -1227
▁여담 -1228
라의 -1229
르고 -1230
▁흑 -1231
니까 -1232
▁Y -1233
서는 -1234
▁어떻 -1235
▁원작 -1236
스템 -1237
버스 -1238
드로 -1239
▁바뀌 -1240
▁장비 -1241
시켜 -1242
▁주변 -1243
▁센 -1244
이기도 -1245
▁성격 -1246
▁k -1247
▁흔 -1248
▁아래 -1249
▁완전히 -1250
▁드러 -1251
▁이야기 -1252
ve -1253
ay -1254
▁한번 -1255
▁자세 -1256
▁굉 -1257
▁폐 -1258
명의 -1259
▁활약 -1260
▁솔 -1261
▁획 -1262
▁쇼 -1263
▁확인 -1264
▁전혀 -1265
▁동시에 -1266
▁스트 -1267
▁26 -1268
▁일이 -1269
대가 -1270
사는 -1271
▁특징 -1272
ad -1273
▁내려 -1274
인물 -1275
▁어떻게 -1276
.3 -1277
▁등을 -1278
▁특성 -1279
id -1280
스와 -1281
▁잃 -1282
른다 -1283
▁같다 -1284
더라도 -1285
▁c -1286
▁프랑 -1287
▁사진 -1288
지의 -1289
▁움 -1290
원을 -1291
화가 -1292
▁적용 -1293
▁만큼 -1294
▁28 -1295
▁굉장 -1296
임을 -1297
▁휴 -1298
▁패배 -1299
▁샤 -1300
내는 -1301
▁얼굴 -1302
▁좌 -1303
▁불가능 -1304
▁드래곤 -1305
▁월드 -1306
▁윤 -1307
▁독일 -1308
▁만나 -1309
▁음악 -1310
▁되었 -1311
▁27 -1312
▁빛 -1313
디오 -1314
▁이제 -1315
▁섬 -1316
▁애니메이션 -1317
▁2012 -1318
▁링 -1319
▁이벤트 -1320
어버 -1321
▁우리 -1322
라가 -1323
▁!! -1324
▁뭐 -1325
간에 -1326
▁않아 -1327
▁전에 -1328
▁감소 -1329
▁방식 -1330
▁맵 -1331
▁자유 -1332
and -1333
▁얼마 -1334
▁그나마 -1335
상으로 -1336
▁실패 -1337
▁차량 -1338
▁31 -1339
▁때는 -1340
▁명칭 -1341
▁아군 -1342
▁혹은 -1343
▁항목 -1344
▁오브 -1345
적이 -1346
▁액 -1347
▁싱 -1348
▁힘을 -1349
▁모델 -1350
▁에피 -1351
니아 -1352
▁Lv -1353
▁새로운 -1354
▁획득 -1355
보다는 -1356
▁1, -1357
▁시스템 -1358
▁콘 -1359
▁지속 -1360
▁국내 -1361
시킨 -1362
레벨 -1363
지로 -1364
40 -1365
▁녹 -1366
해도 -1367
구를 -1368
▁발견 -1369
▁덕분에 -1370
▁기억 -1371
▁남자 -1372
▁나가 -1373
▁위해서 -1374
▁응 -1375
▁of -1376
▁쓰는 -1377
▁동일 -1378
▁역사 -1379
▁구성 -1380
▁사회 -1381
▁하루 -1382
▁상승 -1383
▁쉬 -1384
▁챔 -1385
라면 -1386
▁참조 -1387
▁주장 -1388
▁차지 -1389
ro -1390
▁반응 -1391
▁색 -1392
조차 -1393
▁속성 -1394
▁마을 -1395
▁-1 -1396
▁에피소 -1397
▁v -1398
▁상위 -1399
un -1400
▁자신을 -1401
▁딸 -1402
▁라는 -1403
▁생산 -1404
▁경우도 -1405
▁소개 -1406
▁콜 -1407
▁빈 -1408
합니다 -1409
스크 -1410
▁문제가 -1411
▁스토리 -1412
▁정확 -1413
▁움직 -1414
▁아마 -1415
▁가져 -1416
했는데 -1417
한테 -1418
▁출시 -1419
▁그리 -1420
▁l -1421
▁이러한 -1422
한다는 -1423
BS -1424
▁입장 -1425
▁하는데 -1426
우는 -1427
▁도움 -1428
▁없었다 -1429
▁또는 -1430
그램 -1431
겠지만 -1432
▁가격 -1433
▁했지만 -1434
▁공격을 -1435
▁자체가 -1436
어를 -1437
정도 -1438
▁앨범 -1439
▁순간 -1440
us -1441
▁휘 -1442
▁수비 -1443
▁!" -1444
▁등장하는 -1445
개의 -1446
▁있기 -1447
▁딱 -1448
▁선발 -1449
났다 -1450
▁받고 -1451
갔다 -1452
▁긴 -1453
▁담당 -1454
▁견 -1455
대한 -1456
체를 -1457
▁그림 -1458
▁p -1459
▁굉장히 -1460
▁해서 -1461
ER -1462
▁넘어 -1463
▁쓴 -1464
이의 -1465
▁2010 -1466
으므로 -1467
▁풍 -1468
이었던 -1469
대에 -1470
▁자동 -1471
▁조건 -1472
우스 -1473
▁다이 -1474
▁훈 -1475
▁편이다 -1476
▁정치 -1477
원의 -1478
장의 -1479
▁하이 -1480
▁대체 -1481
▁밝혀 -1482
▁가면 -1483
▁강력한 -1484
했으며 -1485
레이드 -1486
▁마이 -1487
▁익 -1488
▁시점 -1489
치고 -1490
▁표현 -1491
▁않다 -1492
▁바이 -1493
▁진짜 -1494
▁가능한 -1495
▁a -1496
지지 -1497
대학교 -1498
▁드라마 -1499
아가 -1500
▁확실 -1501
▁없고 -1502
트의 -1503
제가 -1504
▁있게 -1505
회의 -1506
60 -1507
▁y -1508
했다는 -1509
▁판매 -1510
▁어디 -1511
▁사용하는 -1512
▁경찰 -1513
리티 -1514
▁시간이 -1515
▁졸 -1516
▁개인 -1517
▁스페 -1518
▁기능 -1519
군의 -1520
▁답 -1521
스러 -1522
▁받은 -1523
이라면 -1524
▁어렵 -1525
▁29 -1526
▁클리어 -1527
▁물리 -1528
▁데뷔 -1529
▁다르 -1530
▁주의 -1531
▁무시 -1532
▁마스터 -1533
▁땅 -1534
▁퇴 -1535
▁마찬가지로 -1536
▁St -1537
▁피해를 -1538
.4 -1539
▁맨 -1540
▁아주 -1541
▁웃 -1542
▁요구 -1543
▁겨 -1544
▁나와 -1545
mm -1546
▁펼 -1547
▁믿 -1548
▁맥 -1549
▁당연히 -1550
▁인정 -1551
▁대사 -1552
▁패턴 -1553
▁경험 -1554
통령 -1555
▁퀘 -1556
▁폭발 -1557
12 -1558
▁60 -1559
▁상대로 -1560
부의 -1561
▁말이 -1562
피언 -1563
▁엄청난 -1564
▁못하고 -1565
▁계획 -1566
상의 -1567
▁등이 -1568
지에 -1569
가가 -1570
▁우주 -1571
▁득 -1572
▁197 -1573
▁사람들이 -1574
▁더욱 -1575
▁따라서 -1576
▁못한 -1577
전이 -1578
▁진출 -1579
문을 -1580
▁가지 -1581
▁헬 -1582
▁위험 -1583
▁습 -1584
▁영어 -1585
까지는 -1586
치로 -1587
▁묻 -1588
▁꿈 -1589
문에 -1590
수로 -1591
수는 -1592
▁이미지 -1593
▁뮤 -1594
▁2011 -1595
▁츠 -1596
▁밤 -1597
▁한정 -1598
.7 -1599
놓고 -1600
▁이름을 -1601
▁가능성이 -1602
려서 -1603
▁쓰러 -1604
▁푸 -1605
▁The -1606
▁대한민국 -1607
▁가족 -1608
▁단순 -1609
어진 -1610
▁히로 -1611
▁여기서 -1612
게임 -1613
티브 -1614
▁석 -1615
▁사용할 -1616
▁시청 -1617
▁쿨 -1618
▁훨 -1619
▁논란 -1620
▁옆 -1621
▁영국 -1622
라운드 -1623
▁알아 -1624
▁준비 -1625
▁괜 -1626
▁하자 -1627
▁분위 -1628
▁쉽게 -1629
시즌 -1630
▁혼자 -1631
▁싫 -1632
▁어머니 -1633
▁약간 -1634
량이 -1635
▁참여 -1636
▁파워 -1637
했으나 -1638
없는 -1639
ot -1640
으면서 -1641
▁엑 -1642
▁얘 -1643
▁대학 -1644
▁가는 -1645
▁대미지 -1646
▁건물 -1647
▁낙 -1648
들에 -1649
▁짓 -1650
▁n -1651
▁나왔 -1652
▁적을 -1653
15 -1654
리기 -1655
▁활용 -1656
▁현실 -1657
▁속도 -1658
▁비판 -1659
ir -1660
감을 -1661
▁어린 -1662
▁발사 -1663
▁컴 -1664
▁동료 -1665
▁대해서 -1666
▁챔피언 -1667
나라 -1668
▁훨씬 -1669
▁불구 -1670
▁똑 -1671
▁현대 -1672
▁메이 -1673
겠다 -1674
▁여전히 -1675
만한 -1676
▁나머 -1677
▁대회 -1678
▁보내 -1679
▁대통령 -1680
▁소모 -1681
▁초기 -1682
적을 -1683
▁조합 -1684
▁수가 -1685
19 -1686
▁다양 -1687
해주 -1688
히는 -1689
▁크리스 -1690
▁핵 -1691
▁듀 -1692
▁남아 -1693
제를 -1694
im -1695
▁잡아 -1696
▁블랙 -1697
▁주요 -1698
타를 -1699
▁술 -1700
▁폴 -1701
.8 -1702
▁숙 -1703
▁따르면 -1704
▁라인 -1705
▁버스 -1706
▁주는 -1707
▁방영 -1708
▁제한 -1709
▁퀘스트 -1710
▁있었던 -1711
▁싸움 -1712
▁흡 -1713
라인 -1714
.6 -1715
지션 -1716
부를 -1717
▁받는 -1718
으로서 -1719
▁HP -1720
▁나이 -1721
체가 -1722
▁강한 -1723
▁잘못 -1724
▁취급 -1725
인트 -1726
▁도망 -1727
▁아르 -1728
▁타입 -1729
▁읽 -1730
선을 -1731
▁크로 -1732
계를 -1733
▁그는 -1734
▁결혼 -1735
수록 -1736
▁꾸 -1737
▁중심 -1738
▁문제는 -1739
▁덱 -1740
▁헌 -1741
난다 -1742
▁탐 -1743
▁전용 -1744
▁각각 -1745
▁고려 -1746
▁홀 -1747
리로 -1748
▁미션 -1749
프를 -1750
▁사고 -1751
▁죄 -1752
겠다고 -1753
▁대전 -1754
이즈 -1755
▁보는 -1756
개를 -1757
▁불구하고 -1758
▁후에 -1759
시키는 -1760
ag -1761
▁모드 -1762
▁류 -1763
▁등장인물 -1764
도의 -1765
듯이 -1766
이면 -1767
▁직업 -1768
▁등장한다 -1769
되면서 -1770
부에 -1771
▁중앙 -1772
학년 -1773
권을 -1774
장에 -1775
리와 -1776
▁방면 -1777
▁맛 -1778
▁삼성 -1779
▁난이도 -1780
▁않을 -1781
자기 -1782
나게 -1783
▁후보 -1784
▁해결 -1785
▁내가 -1786
▁굴 -1787
▁즐 -1788
세대 -1789
▁h -1790
▁지하 -1791
▁웨 -1792
▁이해 -1793
▁부산 -1794
져서 -1795
▁엔딩 -1796
▁지구 -1797
식이 -1798
▁의견 -1799
▁범위 -1800
▁욕 -1801
▁설치 -1802
▁끼 -1803
▁들고 -1804
만에 -1805
사로 -1806
▁참가 -1807
▁느낌 -1808
랭크 -1809
입니다 -1810
나이 -1811
▁일으 -1812
보니 -1813
▁짧 -1814
한다고 -1815
37 -1816
▁벨 -1817
▁방향 -1818
32 -1819
▁끊 -1820
▁이유는 -1821
▁조선 -1822
▁발표 -1823
▁처리 -1824
▁포켓 -1825
▁흥 -1826
▁일행 -1827
▁벗 -1828
▁과정 -1829
▁부활 -1830
▁꼬 -1831
▁링크 -1832
▁아이돌 -1833
심을 -1834
▁장착 -1835
▁일정 -1836
학생 -1837
▁메인 -1838
ub -1839
▁탓 -1840
하나 -1841
▁되면 -1842
데이트 -1843
키는 -1844
장은 -1845
▁TV -1846
▁충분 -1847
▁2000 -1848
▁기간 -1849
기고 -1850
▁구조 -1851
대는 -1852
력은 -1853
▁나무 -1854
▁갤 -1855
▁최근 -1856
타로 -1857
ent -1858
제로 -1859
만이 -1860
▁굳 -1861
공격 -1862
신이 -1863
▁보호 -1864
라서 -1865
▁번째 -1866
▁스테이지 -1867
▁배틀 -1868
▁특별 -1869
▁근접 -1870
초에 -1871
od -1872
▁보이는 -1873
▁그를 -1874
▁나는 -1875
.9 -1876
됐다 -1877
장으로 -1878
ST -1879
▁제국 -1880
▁여담으로 -1881
말로 -1882
되며 -1883
▁에피소드 -1884
레스 -1885
▁Z -1886
▁g -1887
ur -1888
▁받았 -1889
▁경우는 -1890
ver -1891
위로 -1892
▁업데이트 -1893
▁쳐 -1894
장에서 -1895
▁러시아 -1896
▁절대 -1897
▁배경 -1898
▁나왔다 -1899
▁브라 -1900
▁유니 -1901
▁FC -1902
▁다니 -1903
하다는 -1904
▁오래 -1905
▁밴 -1906
▁제공 -1907
▁것에 -1908
▁낮은 -1909
▁작은 -1910
▁타고 -1911
▁벽 -1912
ak -1913
▁곧 -1914
조건 -1915
▁교육 -1916
▁기준으로 -1917
라를 -1918
▁스스로 -1919
가를 -1920
▁프로그램 -1921
▁80 -1922
BC -1923
▁생존 -1924
▁오른 -1925
▁제목 -1926
▁세이 -1927
▁하기 -1928
▁덤 -1929
▁운행 -1930
▁스피 -1931
▁가끔 -1932
부가 -1933
▁목소 -1934
▁SK -1935
▁계약 -1936
가의 -1937
▁되지 -1938
▁그가 -1939
▁종료 -1940
▁번역 -1941
이란 -1942
신을 -1943
▁아버지 -1944
▁추정 -1945
로를 -1946
18 -1947
▁종족 -1948
cm -1949
▁포켓몬 -1950
같이 -1951
카이 -1952
▁달성 -1953
마저 -1954
▁you -1955
▁역할을 -1956
▁수정 -1957
리면 -1958
▁높다 -1959
사와 -1960
▁이유로 -1961
▁검은 -1962
▁예정 -1963
▁분노 -1964
▁선거 -1965
▁틀 -1966
▁종류 -1967
유의 -1968
일을 -1969
만을 -1970
다니 -1971
으로도 -1972
냐고 -1973
▁찬 -1974
군이 -1975
▁전설 -1976
▁하면서 -1977
▁시도 -1978
구가 -1979
▁영향을 -1980
▁더불 -1981
ec -1982
▁괜찮 -1983
에게는 -1984
되었고 -1985
▁중에 -1986
16 -1987
냈다 -1988
당한 -1989
▁에너 -1990
▁만약 -1991
▁얻을 -1992
▁전작 -1993
시로 -1994
▁만화 -1995
▁빅 -1996
▁생활 -1997
인은 -1998
▁시전 -1999
▁염 -2000
▁유리 -2001
이로 -2002
▁셈 -2003
▁자연 -2004
▁뒷 -2005
▁연속 -2006
▁한편 -2007
▁밖에 -2008
▁대상 -2009
지기 -2010
▁아니고 -2011
하다가 -2012
▁구간 -2013
▁랜 -2014
▁좋지 -2015
▁없음 -2016
▁반면 -2017
자와 -2018
겼다 -2019
▁싸우 -2020
▁?" -2021
▁프랑스 -2022
전의 -2023
▁능력을 -2024
지게 -2025
▁.... -2026
신의 -2027
트는 -2028
▁자랑 -2029
▁생긴 -2030
일이 -2031
▁거기 -2032
려는 -2033
▁나머지 -2034
▁각성 -2035
업을 -2036
▁해야 -2037
▁씨 -2038
▁35 -2039
위원 -2040
리며 -2041
▁최소 -2042
80 -2043
였고 -2044
▁일을 -2045
어들 -2046
비가 -2047
▁무엇 -2048
▁꺼 -2049
이라도 -2050
점으로 -2051
하다고 -2052
▁정작 -2053
25 -2054
▁연결 -2055
▁타카 -2056
▁계열 -2057
▁항상 -2058
ut -2059
▁일러 -2060
▁정도의 -2061
자들이 -2062
▁바람에 -2063
▁중요한 -2064
▁대부분의 -2065
▁이루어 -2066
▁더불어 -2067
▁포지션 -2068
마의 -2069
▁등급 -2070
기와 -2071
함을 -2072
▁70 -2073
▁인터뷰 -2074
▁90 -2075
정한 -2076
▁축구 -2077
시를 -2078
▁다르게 -2079
단의 -2080
▁국민 -2081
외로 -2082
▁미사 -2083
낸다 -2084
▁신경 -2085
비아 -2086
▁자세한 -2087
▁전문 -2088
여서 -2089
▁현재는 -2090
▁상황에서 -2091
대학 -2092
▁연출 -2093
어야 -2094
▁흐 -2095
▁비행 -2096
▁자리 -2097
▁누구 -2098
주고 -2099
명은 -2100
리게 -2101
▁제외한 -2102
▁표기 -2103
소를 -2104
▁위에 -2105
▁칸 -2106
시의 -2107
▁수상 -2108
▁스파 -2109
▁하였다 -2110
▁칭 -2111
▁끝나 -2112
▁싱글 -2113
력으로 -2114
▁빠른 -2115
▁관리 -2116
시가 -2117
▁콤 -2118
▁나름 -2119
▁모습이 -2120
▁엔진 -2121
들로 -2122
버린 -2123
치기 -2124
14 -2125
▁2009 -2126
▁목표 -2127
▁이상의 -2128
▁옵 -2129
카와 -2130
,# -2131
디어 -2132
스럽 -2133
▁있다면 -2134
었지만 -2135
▁넓 -2136
▁사람은 -2137
▁소설 -2138
▁별로 -2139
▁소녀 -2140
▁비롯 -2141
▁삭 -2142
▁말한다 -2143
▁성장 -2144
▁냉 -2145
로가 -2146
▁소재 -2147
▁비밀 -2148
▁정식 -2149
▁보이 -2150
▁미래 -2151
더니 -2152
성은 -2153
다운 -2154
▁흘 -2155
▁사실을 -2156
▁모르 -2157
페이지 -2158
▁따로 -2159
▁각종 -2160
▁있으니 -2161
nd -2162
▁다크 -2163
야마 -2164
▁유럽 -2165
▁이걸 -2166
▁탱 -2167
▁깔 -2168
미가 -2169
▁일어나 -2170
스티 -2171
▁다양한 -2172
▁제일 -2173
▁유명한 -2174
▁적은 -2175
▁* -2176
하라 -2177
▁클래 -2178
의를 -2179
▁벌어 -2180
▁이게 -2181
▁갑자기 -2182
▁달려 -2183
▁못하는 -2184
▁32 -2185
ight -2186
▁이쪽 -2187
▁전반 -2188
▁애초에 -2189
스러운 -2190
▁만드는 -2191
도는 -2192
동을 -2193
▁불러 -2194
회를 -2195
▁케이 -2196
었다고 -2197
비를 -2198
▁쌓 -2199
▁vs -2200
▁없을 -2201
었는데 -2202
세를 -2203
ON -2204
야말로 -2205
▁출전 -2206
▁않게 -2207
▁두고 -2208
시마 -2209
▁묘사 -2210
▁본인이 -2211
▁치명 -2212
48 -2213
▁사냥 -2214
em -2215
스에 -2216
▁야구 -2217
▁부르 -2218
▁to -2219
▁파티 -2220
▁식으로 -2221
▁공중 -2222
▁지휘 -2223
▁하늘 -2224
▁압도 -2225
▁결승 -2226
▁전차 -2227
고는 -2228
물이 -2229
타임 -2230
▁나서 -2231
▁엘리 -2232
▁일러스트 -2233
AN -2234
▁게임을 -2235
▁최강 -2236
▁왼 -2237
▁나올 -2238
▁북한 -2239
▁작곡 -2240
▁받았다 -2241
음에도 -2242
▁예상 -2243
수한 -2244
▁것과 -2245
월에 -2246
▁아키 -2247
지면 -2248
▁특이 -2249
호가 -2250
▁이름이 -2251
▁효과를 -2252
▁이탈 -2253
▁] -2254
ra -2255
▁상황이 -2256
AR -2257
▁혈 -2258
프로 -2259
▁항공 -2260
17 -2261
▁롤 -2262
나의 -2263
크로 -2264
▁머리 -2265
ri -2266
위에 -2267
관이 -2268
마자 -2269
▁맹 -2270
▁반대 -2271
종의 -2272
▁징 -2273
▁보기 -2274
버렸다 -2275
▁목록 -2276
▁이외 -2277
▁있으면 -2278
해진 -2279
▁언제 -2280
▁무슨 -2281
▁생명 -2282
▁공연 -2283
▁하여 -2284
:00 -2285
▁부여 -2286
▁조직 -2287
혔다 -2288
um -2289
▁지켜 -2290
되기 -2291
▁확정 -2292
내고 -2293
상에 -2294
:0 -2295
▁훈련 -2296
▁기다 -2297
▁졸업 -2298
▁보니 -2299
▁뭔 -2300
선이 -2301
▁앤 -2302
▁보유 -2303
-3 -2304
▁기동 -2305
▁남성 -2306
주를 -2307
13 -2308
계의 -2309
마가 -2310
방송 -2311
단을 -2312
▁2008 -2313
▁건담 -2314
▁오늘 -2315
▁민주 -2316
▁못했다 -2317
▁문화 -2318
▁아니면 -2319
▁기대 -2320
▁쌍 -2321
▁물건 -2322
부터는 -2323
사에 -2324
▁경우에는 -2325
▁사용자가 -2326
모토 -2327
▁탈출 -2328
▁턴 -2329
▁뒤에 -2330
▁-3 -2331
▁연기 -2332
▁옷 -2333
율이 -2334
▁특정 -2335
▁롯 -2336
▁in -2337
▁억 -2338
▁꽃 -2339
▁없다는 -2340
▁납 -2341
▁순위 -2342
os -2343
트라 -2344
▁이용해 -2345
▁안에 -2346
운데 -2347
비스 -2348
원은 -2349
▁좋아하는 -2350
▁변신 -2351
부로 -2352
▁힐 -2353
▁필요한 -2354
▁뜨 -2355
▁아카 -2356
▁역대 -2357
시켰 -2358
▁파이 -2359
원으로 -2360
▁교체 -2361
▁린 -2362
▁안정 -2363
이니 -2364
버린다 -2365
▁짜 -2366
▁회피 -2367
▁집중 -2368
▁최고의 -2369
녀석 -2370
세요 -2371
로우 -2372
▁사례 -2373
▁잠시 -2374
▁털 -2375
고를 -2376
▁준다 -2377
▁업그 -2378
▁없다고 -2379
▁트리 -2380
', -2381
▁돼 -2382
▁옥 -2383
▁EX -2384
▁등으로 -2385
▁빠르게 -2386
호를 -2387
▁있으나 -2388
▁이끌 -2389
▁차이가 -2390
▁나타나 -2391
▁무려 -2392
▁No -2393
▁하게 -2394
▁죽은 -2395
▁듣고 -2396
바람 -2397
행을 -2398
▁나중에 -2399
▁근처 -2400
▁날아 -2401
▁기관 -2402
▁달라 -2403
▁196 -2404
시는 -2405
▁존재한다 -2406
냐는 -2407
보는 -2408
▁부모 -2409
▁켄 -2410
▁이후로 -2411
▁유튜 -2412
▁대기 -2413
▁기본적으로 -2414
촬영 -2415
스케 -2416
▁이야기를 -2417
았던 -2418
▁쏘 -2419
▁어둠 -2420
▁스포 -2421
▁이건 -2422
▁빠져 -2423
▁품 -2424
▁타격 -2425
▁수는 -2426
▁추천 -2427
▁고양 -2428
드시 -2429
▁지방 -2430
ce -2431
▁등장한 -2432
▁깊 -2433
▁사이트 -2434
▁본래 -2435
▁인천 -2436
프가 -2437
▁말에 -2438
타가 -2439
▁임무 -2440
▁가까운 -2441
▁지난 -2442
▁연습 -2443
▁( -2444
속도 -2445
▁멸 -2446
▁여기에 -2447
▁소리 -2448
▁경제 -2449
▁저지 -2450
▁카운 -2451
계가 -2452
서를 -2453
▁45 -2454
▁전국 -2455
▁발언 -2456
▁싫어 -2457
ul -2458
▁일본의 -2459
▁분류 -2460
▁했으나 -2461
▁옛 -2462
▁그룹 -2463
감이 -2464
단이 -2465
파트 -2466
▁e -2467
▁위의 -2468
성의 -2469
고등학교 -2470
▁명령 -2471
▁남은 -2472
학과 -2473
▁평균 -2474
45 -2475
▁포기 -2476
인으로 -2477
어의 -2478
▁라이브 -2479
▁부탁 -2480
▁때마다 -2481
▁경쟁 -2482
▁배치 -2483
/2 -2484
▁밑 -2485
IN -2486
▁띄 -2487
▁이름은 -2488
▁오버 -2489
▁제거 -2490
부는 -2491
▁킹 -2492
▁칠 -2493
▁겪 -2494
▁돌아가 -2495
▁봐도 -2496
▁건설 -2497
지라 -2498
었을 -2499
▁갖고 -2500
▁투수 -2501
▁디자인 -2502
▁삭제 -2503
▁상태에서 -2504
▁새로 -2505
▁사용한다 -2506
세트 -2507
▁죽음 -2508
▁500 -2509
▁예를 -2510
▁마나 -2511
▁자체는 -2512
▁효과가 -2513
▁외국 -2514
▁꼭 -2515
스테 -2516
▁무장 -2517
▁국제 -2518
all -2519
km -2520
▁보아 -2521
▁쫓 -2522
▁Q -2523
미를 -2524
▁분명 -2525
심이 -2526
▁조종 -2527
▁2, -2528
▁완벽 -2529
▁했던 -2530
▁중에서 -2531
▁장소 -2532
ap -2533
▁을 -2534
▁Ch -2535
▁상관 -2536
▁비용 -2537
▁미니 -2538
▁완전 -2539
▁쓰고 -2540
▁충격 -2541
▁2020 -2542
▁개념 -2543
▁고정 -2544
▁것이라고 -2545
즈의 -2546
▁알게 -2547
▁아들 -2548
▁상당한 -2549
▁블루 -2550
량을 -2551
진이 -2552
▁홈페이지 -2553
▁왔 -2554
▁반드시 -2555
▁롯데 -2556
▁없지만 -2557
▁의외로 -2558
▁부정 -2559
▁캠 -2560
만의 -2561
▁LG -2562
들어 -2563
▁받을 -2564
로의 -2565
세가 -2566
▁장갑 -2567
▁히어로 -2568
▁2007 -2569
터를 -2570
▁운동 -2571
것도 -2572
▁탈락 -2573
온다 -2574
단계 -2575
▁중간 -2576
▁바꾸 -2577
▁방어력 -2578
▁붉 -2579
▁없어서 -2580
하였고 -2581
▁촬영 -2582
▁아프 -2583
▁구매 -2584
▁독립 -2585
시브 -2586
▁유일하게 -2587
라며 -2588
▁마무 -2589
였으나 -2590
▁그야말로 -2591
▁듯하다 -2592
치의 -2593
▁카드를 -2594
토리 -2595
▁요소 -2596
▁직후 -2597
년부터 -2598
▁지도 -2599
▁를 -2600
▁생각해 -2601
▁보상 -2602
▁연재 -2603
▁사람을 -2604
일러 -2605
▁해외 -2606
▁과학 -2607
▁리더 -2608
에만 -2609
▁보여준다 -2610
화의 -2611
▁뇌 -2612
▁밖 -2613
▁벤 -2614
▁동생 -2615
▁이하 -2616
▁녀석 -2617
▁그녀의 -2618
우가 -2619
스코 -2620
▁느끼 -2621
▁픽 -2622
▁다행 -2623
▁x -2624
▁늦 -2625
▁일어 -2626
▁시험 -2627
▁반대로 -2628
▁심각 -2629
▁큐 -2630
▁떡 -2631
▁옮 -2632
▁했는데 -2633
▁앞에 -2634
▁워낙 -2635
▁제외하면 -2636
90 -2637
op -2638
점은 -2639
▁유일한 -2640
크를 -2641
▁있었고 -2642
▁걱 -2643
▁추측 -2644
▁튀 -2645
롭게 -2646
ik -2647
▁많아 -2648
▁정상 -2649
▁무조건 -2650
▁한글 -2651
탄을 -2652
▁복귀 -2653
▁평범 -2654
35 -2655
위가 -2656
▁점을 -2657
▁점점 -2658
▁뛰어난 -2659
▁살해 -2660
세기 -2661
▁도착 -2662
▁되는데 -2663
문이 -2664
▁대구 -2665
지면서 -2666
▁상태로 -2667
▁타이틀 -2668
▁저항 -2669
▁올려 -2670
너스 -2671
▁지지 -2672
되면 -2673
▁다소 -2674
▁정규 -2675
▁악마 -2676
▁시작했다 -2677
키가 -2678
무라 -2679
▁그걸 -2680
▁나라 -2681
▁완성 -2682
▁개그 -2683
▁상세 -2684
▁버그 -2685
▁아무리 -2686
한다면 -2687
라이더 -2688
▁과정에서 -2689
인가 -2690
▁굳이 -2691
▁시간을 -2692
▁가르 -2693
러스 -2694
▁데미지를 -2695
받은 -2696
▁에이 -2697
▁도중 -2698
▁제품 -2699
▁웹 -2700
▁화면 -2701
▁접근 -2702
▁2006 -2703
▁베이 -2704
로드 -2705
로그 -2706
▁기체 -2707
▁뿌 -2708
▁빨리 -2709
70 -2710
▁우선 -2711
// -2712
제의 -2713
역을 -2714
▁트위 -2715
▁않으면 -2716
▁높아 -2717
으로써 -2718
선의 -2719
▁레드 -2720
▁한다는 -2721
▁겸 -2722
▁시리즈의 -2723
▁킬 -2724
▁성우는 -2725
원에 -2726
겠다는 -2727
▁있었는데 -2728
▁오프 -2729
ter -2730
플레이 -2731
▁자리를 -2732
▁전사 -2733
▁도와 -2734
주가 -2735
▁주고 -2736
차가 -2737
▁도전 -2738
▁끝에 -2739
키의 -2740
▁패치 -2741
보고 -2742
▁MA -2743
ation -2744
르크 -2745
개로 -2746
▁유사 -2747
▁카이 -2748
▁맞추 -2749
▁최후 -2750
▁기계 -2751
▁동물 -2752
ea -2753
▁영혼 -2754
터가 -2755
▁평소 -2756
진을 -2757
▁이적 -2758
▁옵션 -2759
많은 -2760
▁공포 -2761
▁기반 -2762
시킬 -2763
▁판단 -2764
세계 -2765
▁암살 -2766
▁스크 -2767
술을 -2768
수도 -2769
기사 -2770
▁적의 -2771
▁연합 -2772
IC -2773
니티 -2774
군을 -2775
▁빙 -2776
▁짐 -2777
▁전략 -2778
분이 -2779
▁멘 -2780
▁신체 -2781
1, -2782
받는 -2783
▁지상 -2784
▁처음으로 -2785
▁수행 -2786
▁명중 -2787
▁300 -2788
ack -2789
▁스코 -2790
▁월드컵 -2791
였지만 -2792
▁비중 -2793
▁다루 -2794
▁프레 -2795
▁33 -2796
라스 -2797
▁곤 -2798
▁탓에 -2799
▁경기를 -2800
▁멋 -2801
년에는 -2802
▁척 -2803
▁진화 -2804
▁합류 -2805
세이 -2806
▁생각하면 -2807
▁닥 -2808
모가 -2809
▁무한 -2810
역시 -2811
▁놈 -2812
보를 -2813
▁몇몇 -2814
▁발전 -2815
ia -2816
▁종종 -2817
▁이곳 -2818
▁사기 -2819
▁파일 -2820
주로 -2821
장판 -2822
▁십 -2823
▁바다 -2824
▁36 -2825
▁세트 -2826
▁야마 -2827
▁and -2828
▁충분히 -2829
▁로봇 -2830
군은 -2831
▁부하 -2832
▁오리지 -2833
▁아스 -2834
▁밸 -2835
보다도 -2836
▁마사 -2837
▁거기에 -2838
▁어려운 -2839
▁대화 -2840
▁홈런 -2841
▁인터넷 -2842
두고 -2843
요일 -2844
▁되었고 -2845
▁요시 -2846
적이다 -2847
▁화염 -2848
이므로 -2849
이닝 -2850
▁작가 -2851
용으로 -2852
래도 -2853
▁네이 -2854
▁소련 -2855
▁가서 -2856
▁행정 -2857
아버 -2858
되었으며 -2859
▁회사 -2860
▁정리 -2861
▁지배 -2862
▁확률로 -2863
▁듯한 -2864
▁도입 -2865
▁유튜브 -2866
▁특유의 -2867
▁끌어 -2868
▁이로 -2869
oc -2870
▁근데 -2871
▁것처럼 -2872
▁본격 -2873
▁도쿄 -2874
▁떠나 -2875
▁치료 -2876
대표 -2877
▁공략 -2878
리온 -2879
▁팩 -2880
▁체력이 -2881
려면 -2882
▁사격 -2883
kg -2884
스킬 -2885
▁지키 -2886
%, -2887
드와 -2888
▁능 -2889
▁본인의 -2890
간의 -2891
▁주민 -2892
▁잊 -2893
▁SP -2894
▁텐 -2895
▁팀의 -2896
▁성향 -2897
레인 -2898
대전 -2899
문의 -2900
▁맞춰 -2901
▁록 -2902
▁손을 -2903
차를 -2904
▁돈을 -2905
▁조작 -2906
▁수많은 -2907
▁장면이 -2908
▁얼마나 -2909
개가 -2910
ill -2911
▁사이에 -2912
드에 -2913
RA -2914
▁시나 -2915
▁대결 -2916
방을 -2917
이와 -2918
▁아내 -2919
▁나이트 -2920
▁오오 -2921
에게서 -2922
▁군사 -2923
쳤다 -2924
▁있었지만 -2925
카가 -2926
▁실험 -2927
▁VS -2928
▁비고 -2929
/0 -2930
▁운용 -2931
▁플래 -2932
▁인한 -2933
지와 -2934
▁투입 -2935
▁댄 -2936
▁좀비 -2937
시킨다 -2938
▁보조 -2939
▁않지만 -2940
▁필살 -2941
▁희생 -2942
art -2943
▁이탈리아 -2944
▁말하는 -2945
▁무리 -2946
▁사쿠 -2947
▁상징 -2948
▁나오지 -2949
▁셀 -2950
이야 -2951
▁100% -2952
어요 -2953
ie -2954
동생 -2955
▁멜 -2956
▁뚫 -2957
▁란 -2958
▁난이 -2959
텐츠 -2960
▁그린 -2961
▁능력이 -2962
▁패러 -2963
▁적에게 -2964
력과 -2965
▁재료 -2966
▁다운 -2967
▁점이 -2968
▁붉은 -2969
▁받는다 -2970
형을 -2971
▁잉 -2972
ab -2973
▁힘든 -2974
▁중반 -2975
▁뻔 -2976
일차 -2977
▁외에도 -2978
▁프로젝 -2979
지며 -2980
▁전기 -2981
▁능력치 -2982
▁KBS -2983
적으로는 -2984
화된 -2985
▁몽 -2986
▁하드 -2987
▁카메 -2988
▁시설 -2989
▁장르 -2990
▁낫 -2991
▁그럼 -2992
▁그저 -2993
▁가깝 -2994
▁불리 -2995
▁위협 -2996
했기 -2997
▁코스 -2998
▁입고 -2999
때문에 -3000
:2 -3001
아이 -3002
TV -3003
하자면 -3004
▁2005 -3005
보자 -3006
▁정부 -3007
▁점프 -3008
▁간단 -3009
▁소유 -3010
시오 -3011
AL -3012
▁갔 -3013
▁환경 -3014
uby -3015
쪽으로 -3016
▁런 -3017
질을 -3018
▁선생 -3019
▁모르는 -3020
▁다르다 -3021
▁생성 -3022
▁주문 -3023
▁대형 -3024
▁보다 -3025
식으로 -3026
▁스타일 -3027
▁포인트 -3028
▁38 -3029
▁때도 -3030
든지 -3031
리자 -3032
▁개봉 -3033
판을 -3034
▁사람들은 -3035
▁꽤나 -3036
▁범죄 -3037
▁가수 -3038
금을 -3039
▁데려 -3040
상은 -3041
▁널 -3042
▁지금은 -3043
크가 -3044
▁빼앗 -3045
▁맞는 -3046
▁컬 -3047
▁대중 -3048
래프트 -3049
미의 -3050
▁조사 -3051
▁안전 -3052
▁던전 -3053
tp -3054
▁개조 -3055
▁통합 -3056
2, -3057
▁요청 -3058
▁종교 -3059
▁숫 -3060
미널 -3061
▁컨셉 -3062
▁붙어 -3063
▁엠 -3064
ruby -3065
▁장난 -3066
모로 -3067
도에 -3068
다른 -3069
▁서브 -3070
▁뛰어 -3071
하니 -3072
▁얻어 -3073
▁서술 -3074
▁섞 -3075
▁잭 -3076
승을 -3077
시키고 -3078
나와 -3079
호선 -3080
▁아니지만 -3081
▁저격 -3082
하려고 -3083
▁살인 -3084
믹스 -3085
▁1000 -3086
▁내용은 -3087
▁마치 -3088
▁표시 -3089
▁몸을 -3090
▁오리지널 -3091
▁닌 -3092
레이션 -3093
▁젊 -3094
▁있습니다 -3095
▁있지 -3096
기관 -3097
▁했고 -3098
▁가운데 -3099
▁앞에서 -3100
http -3101
모를 -3102
▁캡 -3103
▁흉 -3104
▁2004 -3105
▁아는 -3106
▁먹고 -3107
▁경기에서 -3108
▁서버 -3109
소녀 -3110
:// -3111
▁원거리 -3112
▁붕 -3113
티어 -3114
력의 -3115
왕의 -3116
지에서 -3117
▁펜 -3118
▁반복 -3119
▁대단 -3120
▁오랜 -3121
▁윈 -3122
▁기념 -3123
트리 -3124
음이 -3125
▁34 -3126
▁살아남 -3127
러가 -3128
버리는 -3129
▁목숨 -3130
▁대응 -3131
치게 -3132
▁올라가 -3133
▁의하면 -3134
▁특성상 -3135
▁걱정 -3136
▁기존의 -3137
구의 -3138
~2 -3139
▁이름으로 -3140
▁든 -3141
▁날려 -3142
교육 -3143
▁후속 -3144
▁지정 -3145
▁막아 -3146
선수 -3147
▁찌 -3148
▁영입 -3149
리안 -3150
EN -3151
바이 -3152
▁바라 -3153
로도 -3154
ate -3155
이라서 -3156
림픽 -3157
▁인기 -3158
▁아쉬 -3159
▁말았다 -3160
▁관통 -3161
▁챙 -3162
▁뜬 -3163
▁프로듀 -3164
▁모티브 -3165
시티 -3166
답게 -3167
▁숲 -3168
▁바닥 -3169
▁모험 -3170
▁모습으로 -3171
이상 -3172
▁브레이 -3173
해진다 -3174
▁앉 -3175
▁195 -3176
▁진입 -3177
▁나쁘 -3178
▁정체 -3179
인과 -3180
▁불안 -3181
▁사무 -3182
AT -3183
▁변화 -3184
▁공간 -3185
▁You -3186
▁소년 -3187
▁성적 -3188
힌다 -3189
▁앞서 -3190
만으로 -3191
▁관한 -3192
▁닮 -3193
▁거부 -3194
▁사는 -3195
아의 -3196
▁무사 -3197
▁득점 -3198
▁죠 -3199
▁비롯한 -3200
▁사태 -3201
▁봤 -3202
▁마무리 -3203
▁관련된 -3204
▁37 -3205
▁불과 -3206
▁맞아 -3207
▁레어 -3208
▁이기 -3209
▁되면서 -3210
dddd -3211
dddddd -3212
마를 -3213
카드 -3214
정으로 -3215
▁단순히 -3216
한데 -3217
잖아 -3218
르트 -3219
▁거짓 -3220
▁맺 -3221
▁내에서 -3222
관을 -3223
▁시기 -3224
이었고 -3225
▁착용 -3226
개월 -3227
▁인도 -3228
졌고 -3229
:5 -3230
▁수호 -3231
▁마음을 -3232
그룹 -3233
원에서 -3234
방에 -3235
워서 -3236
▁그때 -3237
▁더블 -3238
▁누군 -3239
▁하나로 -3240
회가 -3241
up -3242
▁무너 -3243
라우 -3244
정의 -3245
▁손에 -3246
▁MBC -3247
▁딱히 -3248
▁어느정도 -3249
▁꾸준 -3250
▁감안 -3251
정에 -3252
움을 -3253
▁죽을 -3254
▁셋 -3255
▁윌 -3256
▁오토 -3257
▁둔 -3258
▁미드 -3259
▁점은 -3260
▁적절 -3261
▁멈 -3262
▁있었으나 -3263
전쟁 -3264
하도록 -3265
▁AP -3266
▁2002 -3267
역으로 -3268
▁확실히 -3269
▁보였다 -3270
▁최초로 -3271
▁때까지 -3272
▁차이 -3273
▁상황을 -3274
임이 -3275
위는 -3276
▁공동 -3277
▁언론 -3278
먼트 -3279
▁유우 -3280
▁부분이 -3281
▁미리 -3282
었으나 -3283
▁마리 -3284
▁카즈 -3285
▁In -3286
▁채널 -3287
▁디지 -3288
▁쥬 -3289
▁컴퓨 -3290
스럽게 -3291
▁상대가 -3292
▁= -3293
크의 -3294
트롤 -3295
▁트랙 -3296
▁기업 -3297
▁쿨타임 -3298
▁km -3299
▁확장 -3300
▁해금 -3301
실을 -3302
▁방패 -3303
▁위치한 -3304
ue -3305
▁제압 -3306
5% -3307
▁골드 -3308
▁택 -3309
▁부대 -3310
▁이와 -3311
▁요리 -3312
우고 -3313
▁보병 -3314
▁돌려 -3315
▁투표 -3316
▁오르 -3317
▁파트 -3318
▁스킬을 -3319
광역시 -3320
로부터 -3321
하므로 -3322
▁앞으로 -3323
▁잇 -3324
▁해석 -3325
즈가 -3326
▁갤러 -3327
▁인사 -3328
▁썼 -3329
▁작업 -3330
▁자신은 -3331
▁황금 -3332
카의 -3333
▁+1 -3334
▁보컬 -3335
에게도 -3336
▁캐릭터가 -3337
▁훌 -3338
▁겹 -3339
었다는 -3340
놓은 -3341
▁부르는 -3342
.10 -3343
란드 -3344
OR -3345
▁정의 -3346
았고 -3347
▁구분 -3348
▁인식 -3349
마트 -3350
부에서 -3351
자에 -3352
차전 -3353
시피 -3354
▁웬 -3355
▁밥 -3356
▁업그레이드 -3357
▁지닌 -3358
자들은 -3359
▁150 -3360
ard -3361
▁데이터 -3362
▁st -3363
률이 -3364
자들의 -3365
연히 -3366
니스 -3367
경을 -3368
PS -3369
나를 -3370
▁방해 -3371
▁패시브 -3372
속성 -3373
▁선언 -3374
해졌다 -3375
▁스카 -3376
▁선보 -3377
▁적극 -3378
법을 -3379
▁받지 -3380
▁잠깐 -3381
▁거대한 -3382
였는데 -3383
▁는 -3384
▁사과 -3385
▁대답 -3386
▁이유가 -3387
▁PC -3388
약을 -3389
▁인기가 -3390
▁본인은 -3391
▁마침 -3392
▁교통 -3393
▁버프 -3394
▁나오고 -3395
ang -3396
▁카오 -3397
복을 -3398
구나 -3399
어는 -3400
악의 -3401
▁넥 -3402
▁사업 -3403
▁상처 -3404
크래프트 -3405
▁밝혔다 -3406
▁데이 -3407
▁시나리오 -3408
▁일은 -3409
▁설립 -3410
▁시대 -3411
:1 -3412
고속 -3413
▁어찌 -3414
▁년 -3415
고가 -3416
▁사람의 -3417
▁아름 -3418
화에서는 -3419
▁완료 -3420
을때 -3421
▁전통 -3422
▁대표적인 -3423
쪽에 -3424
▁추가로 -3425
특별 -3426
지자 -3427
정은 -3428
스토 -3429
시대 -3430
▁됐 -3431
▁Sh -3432
▁마르 -3433
형이 -3434
▁1. -3435
▁덜 -3436
▁엄청나게 -3437
센터 -3438
▁그려 -3439
▁듀얼 -3440
▁그레이 -3441
ast -3442
성도 -3443
▁등에 -3444
코가 -3445
▁수밖에 -3446
▁맞고 -3447
주차 -3448
▁앙 -3449
IA -3450
▁눈에 -3451
▁대놓고 -3452
도우 -3453
▁통과 -3454
루가 -3455
코의 -3456
-4 -3457
이에 -3458
인들이 -3459
성에 -3460
▁봉인 -3461
리면서 -3462
친다 -3463
▁랭크 -3464
지역 -3465
▁비난 -3466
▁.' -3467
▁48 -3468
민주 -3469
▁전개 -3470
▁클럽 -3471
▁고통 -3472
▁대비 -3473
구에 -3474
oo -3475
▁초반에 -3476
▁그만 -3477
전으로 -3478
▁광주 -3479
▁만다 -3480
▁불명 -3481
▁이후에 -3482
▁2. -3483
24 -3484
무를 -3485
까지도 -3486
▁못한다 -3487
▁말고 -3488
이었으나 -3489
▁재미 -3490
▁평범한 -3491
▁렌 -3492
▁라이트 -3493
▁가게 -3494
▁몰아 -3495
▁여름 -3496
키를 -3497
하려는 -3498
안을 -3499
▁개최 -3500
▁점령 -3501
구는 -3502
36 -3503
▁스위 -3504
▁밸런 -3505
줬다 -3506
▁로마 -3507
▁II -3508
▁팀이 -3509
▁노력 -3510
▁탑재 -3511
▁삼국 -3512
▁멀티 -3513
쳐서 -3514
▁시작한다 -3515
▁느껴 -3516
▁묶 -3517
타는 -3518
▁병사 -3519
모리 -3520
가와 -3521
명으로 -3522
▁Re -3523
ant -3524
▁거야 -3525
▁단계 -3526
▁궁극 -3527
스에서 -3528
르의 -3529
▁커뮤 -3530
▁점에서 -3531
if -3532
▁시민 -3533
▁본편 -3534
▁철도 -3535
▁2003 -3536
▁겨우 -3537
▁스탯 -3538
▁소울 -3539
VE -3540
ers -3541
제에 -3542
▁원정 -3543
▁MP -3544
▁가슴 -3545
호의 -3546
▁물어 -3547
성과 -3548
분을 -3549
▁대해서는 -3550
▁안습 -3551
진의 -3552
▁좁 -3553
▁은퇴 -3554
▁논란이 -3555
▁없기 -3556
▁문제를 -3557
▁꼽 -3558
론을 -3559
▁초대 -3560
▁어렵다 -3561
▁뭔가 -3562
조의 -3563
▁일반적인 -3564
▁50% -3565
르기 -3566
▁도로 -3567
▁액션 -3568
에서만 -3569
▁다름 -3570
▁도움을 -3571
▁최대한 -3572
▁추가바람 -3573
▁희망 -3574
▁걸어 -3575
▁바꿔 -3576
▁먹는 -3577
ell -3578
▁잡고 -3579
▁안타 -3580
▁예전 -3581
▁콤보 -3582
▁아나 -3583
일부터 -3584
▁솔로 -3585
라와 -3586
▁거리 -3587
▁필요가 -3588
▁비교적 -3589
▁한국의 -3590
▁코스트 -3591
▁꼴 -3592
▁경기도 -3593
프레 -3594
바로 -3595
리스트 -3596
임에도 -3597
방의 -3598
▁고대 -3599
▁지니 -3600
소년 -3601
단에 -3602
▁확보 -3603
운동 -3604
회에서 -3605
▁속도가 -3606
▁얘기 -3607
▁때의 -3608
히고 -3609
▁애매 -3610
▁용병 -3611
ine -3612
▁미국의 -3613
▁코너 -3614
▁인류 -3615
▁연장 -3616
▁만한 -3617
▁쿄 -3618
▁타임 -3619
▁전환 -3620
▁걸로 -3621
PC -3622
▁승리를 -3623
체의 -3624
차로 -3625
▁BG -3626
▁금지 -3627
도시 -3628
트와 -3629
▁엉 -3630
효과 -3631
.12 -3632
전사 -3633
▁원래는 -3634
사카 -3635
▁밀어 -3636
루스 -3637
▁그에 -3638
사항 -3639
나다 -3640
▁지옥 -3641
화에 -3642
▁Sp -3643
▁필수 -3644
▁끝까지 -3645
▁자신에게 -3646
▁구축 -3647
▁39 -3648
▁어울 -3649
토가 -3650
▁기술을 -3651
시한 -3652
해를 -3653
▁쥐 -3654
▁당장 -3655
▁처치 -3656
AM -3657
▁유키 -3658
신은 -3659
▁보이지 -3660
▁다음과 -3661
▁힘이 -3662
장과 -3663
500 -3664
▁대공 -3665
▁스킨 -3666
▁드라이 -3667
▁42 -3668
▁크다 -3669
▁멸망 -3670
▁태양 -3671
▁눈을 -3672
▁남편 -3673
▁극장판 -3674
▁힘들다 -3675
르가 -3676
▁끝내 -3677
one -3678
▁되기 -3679
상태 -3680
▁최초의 -3681
▁타이밍 -3682
▁아무래도 -3683
▁10% -3684
373 -3685
즈를 -3686
▁트레이 -3687
▁정보를 -3688
▁에너지 -3689
▁컨트롤 -3690
▁등록 -3691
▁흡수 -3692
ove -3693
▁3, -3694
▁레이저 -3695
▁광역 -3696
▁고속 -3697
▁이용한 -3698
▁멀리 -3699
▁혐 -3700
▁바뀐 -3701
석을 -3702
▁실력 -3703
▁게시 -3704
▁레전 -3705
▁한다고 -3706
▁모자 -3707
▁뮤직 -3708
▁모아 -3709
▁194 -3710
▁뱀 -3711
▁샌 -3712
이치 -3713
/3 -3714
▁이야기가 -3715
▁이들은 -3716
▁왕국 -3717
▁상대의 -3718
하게도 -3719
로스 -3720
▁무기를 -3721
▁게임의 -3722
호는 -3723
▁끝난 -3724
리트 -3725
▁직전 -3726
▁소비 -3727
발을 -3728
▁거두 -3729
미야 -3730
▁지적 -3731
▁허용 -3732
▁폭탄 -3733
▁알렉 -3734
회에 -3735
▁생기 -3736
ED -3737
▁유용 -3738
▁작성 -3739
▁조준 -3740
었으며 -3741
▁전술 -3742
ee -3743
역이 -3744
▁히트 -3745
▁뒤로 -3746
▁해군 -3747
▁촉 -3748
가로 -3749
달라고 -3750
▁바뀌었다 -3751
▁스포츠 -3752
▁방문 -3753
미는 -3754
▁되며 -3755
락을 -3756
자리 -3757
▁편집 -3758
사이 -3759
▁짧은 -3760
▁..... -3761
▁덩 -3762
▁부른다 -3763
피아 -3764
AS -3765
▁만들어진 -3766
▁일본어 -3767
목을 -3768
▁스케 -3769
드리 -3770
99 -3771
▁넘어가 -3772
▁거대 -3773
▁알려져 -3774
터의 -3775
▁설계 -3776
▁조각 -3777
▁기절 -3778
▁누가 -3779
ort -3780
▁하나의 -3781
렸고 -3782
게도 -3783
▁소리를 -3784
▁데스 -3785
받고 -3786
▁미친 -3787
아웃 -3788
▁습격 -3789
▁진영 -3790
▁필드 -3791
프의 -3792
자들 -3793
보기 -3794
석이 -3795
▁삶 -3796
심히 -3797
▁추가된 -3798
▁효율 -3799
▁약속 -3800
▁중심으로 -3801
▁자료 -3802
▁상대를 -3803
▁유도 -3804
동이 -3805
▁ST -3806
▁테마 -3807
▁깎 -3808
▁그게 -3809
▁평가를 -3810
▁재생 -3811
▁갱 -3812
▁도움이 -3813
▁나누 -3814
▁수준의 -3815
OS -3816
▁싶어 -3817
▁뿐이다 -3818
▁댓 -3819
▁분리 -3820
/32 -3821
시스 -3822
마스 -3823
▁퓨 -3824
▁수치 -3825
▁99 -3826
▁집에 -3827
▁메가 -3828
ct -3829
▁고등학교 -3830
-10 -3831
마을 -3832
ive -3833
공을 -3834
▁선정 -3835
▁자기가 -3836
▁사용한 -3837
포를 -3838
▁이전에 -3839
▁페르 -3840
▁장기 -3841
와서 -3842
▁보여주는 -3843
▁괴물 -3844
▁부담 -3845
▁떨어진 -3846
함이 -3847
▁죽이 -3848
▁틈 -3849
▁여행 -3850
인지라 -3851
ffff -3852
▁발휘 -3853
질이 -3854
▁스펙 -3855
▁부상 -3856
▁아웃 -3857
▁길을 -3858
▁Bl -3859
▁스탠 -3860
주시 -3861
제는 -3862
▁국회의 -3863
▁목적 -3864
ong -3865
▁아프리카 -3866
▁등등 -3867
▁?? -3868
서가 -3869
▁마법사 -3870
▁보급 -3871
▁떨어지는 -3872
▁패러디 -3873
▁측면 -3874
판이 -3875
▁곳에 -3876
사키 -3877
▁간다 -3878
100 -3879
마법 -3880
▁공격력이 -3881
▁하나를 -3882
▁제외하고 -3883
것이 -3884
▁중이다 -3885
▁랜덤 -3886
차피 -3887
▁위에서 -3888
▁무게 -3889
라리 -3890
38 -3891
던가 -3892
▁가면라이더 -3893
▁두산 -3894
▁SS -3895
▁로드 -3896
▁라디오 -3897
▁유래 -3898
ffffff -3899
3, -3900
▁싶은 -3901
▁아야 -3902
▁정당 -3903
▁55 -3904
▁사령 -3905
▁행복 -3906
ind -3907
▁게임이 -3908
▁핸 -3909
▁원하는 -3910
ip -3911
▁공통 -3912
▁연계 -3913
▁둘러 -3914
▁출생 -3915
▁그리스 -3916
▁그렇다고 -3917
▁사실은 -3918
▁Al -3919
▁춤 -3920
▁오프닝 -3921
▁Th -3922
▁탑승 -3923
▁미사일 -3924
▁개선 -3925
▁아오 -3926
▁상황에 -3927
▁떨어져 -3928
품을 -3929
▁음식 -3930
ist -3931
▁뿐만 -3932
▁젊은 -3933
이었지만 -3934
▁디자 -3935
▁07 -3936
▁중에서도 -3937
세의 -3938
▁덴 -3939
▁쉬운 -3940
위의 -3941
▁팀을 -3942
EC -3943
▁44 -3944
느냐 -3945
▁문제로 -3946
▁해주 -3947
▁판타 -3948
▁에이스 -3949
할때 -3950
▁그럴 -3951
끼리 -3952
▁포함한 -3953
▁승강 -3954
생활 -3955
▁살짝 -3956
▁강제 -3957
▁내용을 -3958
▁처음에는 -3959
권이 -3960
▁생겨 -3961
▁온갖 -3962
▁못해 -3963
기술 -3964
론이 -3965
▁정책 -3966
▁거절 -3967
▁01 -3968
.11 -3969
자에게 -3970
교통 -3971
규모 -3972
▁이후에는 -3973
▁SBS -3974
파이어 -3975
트에 -3976
AC -3977
▁카페 -3978
사건 -3979
▁단점 -3980
▁드랍 -3981
▁모른다 -3982
소가 -3983
디션 -3984
▁늘어나 -3985
▁서포 -3986
▁상태가 -3987
▁둘이 -3988
▁꾸준히 -3989
안타 -3990
▁은근 -3991
▁구입 -3992
마리 -3993
▁75 -3994
우의 -3995
▁처음부터 -3996
▁사항 -3997
▁대한민국의 -3998
▁바탕 -3999
▁콩 -4000
LC -4001
▁한국어 -4002
▁머리를 -4003
▁고유 -4004
있던 -4005
으로부터 -4006
▁이상한 -4007
▁종합 -4008
▁에어 -4009
▁어쩔 -4010
▁배신 -4011
▁왼쪽 -4012
하러 -4013
▁광고 -4014
▁그녀를 -4015
▁무서 -4016
▁혜 -4017
비의 -4018
나무 -4019
▁줄어들 -4020
▁상대적으로 -4021
오의 -4022
▁2001 -4023
▁삽 -4024
▁없게 -4025
▁이것이 -4026
량의 -4027
▁무대 -4028
골을 -4029
가능 -4030
산을 -4031
▁차례 -4032
▁로켓 -4033
▁be -4034
▁없으며 -4035
이던 -4036
▁하나가 -4037
▁테러 -4038
ne -4039
▁일어난 -4040
하의 -4041
렀다 -4042
▁쏟 -4043
▁래 -4044
▁120 -4045
랐다 -4046
▁릴 -4047
▁점수 -4048
▁플레이어가 -4049
타의 -4050
▁센터 -4051
▁숨겨 -4052
▁내부 -4053
▁02 -4054
▁자살 -4055
언을 -4056
▁어째 -4057
먹는 -4058
전은 -4059
▁단독 -4060
▁08 -4061
▁때부터 -4062
▁사정 -4063
▁해제 -4064
34 -4065
▁열린 -4066
▁형태로 -4067
▁당황 -4068
▁말도 -4069
디아 -4070
긴다 -4071
▁습득 -4072
▁함정 -4073
님이 -4074
▁돌격 -4075
▁화살 -4076
▁한화 -4077
어져 -4078
▁커버 -4079
▁시내 -4080
▁겁 -4081
▁게이 -4082
까지의 -4083
▁료 -4084
39 -4085
조가 -4086
▁데미지가 -4087
▁고민 -4088
▁말해 -4089
드라 -4090
▁말했다 -4091
하긴 -4092
▁미나 -4093
▁나카 -4094
▁의심 -4095
권에서 -4096
무기 -4097
▁내구 -4098
▁서비스 -4099
토의 -4100
즈키 -4101
▁횟 -4102
▁어차피 -4103
▁인생 -4104
치지 -4105
FF -4106
▁혁 -4107
▁가정 -4108
사에서 -4109
거리가 -4110
▁울트라 -4111
▁흔히 -4112
▁http -4113
▁모션 -4114
▁나쁜 -4115
이라며 -4116
▁온라인 -4117
▁한계 -4118
▁사거리 -4119
▁생물 -4120
▁훌륭 -4121
▁활동을 -4122
향이 -4123
▁약한 -4124
▁PS -4125
▁확률이 -4126
▁주연 -4127
▁캔 -4128
▁공화 -4129
▁중간에 -4130
정보 -4131
▁당선 -4132
오가 -4133
▁사이에서 -4134
웠다 -4135
▁사건이 -4136
▁동맹 -4137
▁뒤집 -4138
▁열심히 -4139
▁06 -4140
▁두번째 -4141
▁오는 -4142
▁밀려 -4143
▁47 -4144
ly -4145
▁않으며 -4146
▁따른 -4147
▁연주 -4148
▁인구 -4149
▁그다 -4150
▁수원 -4151
▁대다 -4152
격이 -4153
▁향해 -4154
ith -4155
▁아침 -4156
▁받아들 -4157
▁플라 -4158
▁인기를 -4159
지마 -4160
▁오후 -4161
▁때려 -4162
였다고 -4163
▁버티 -4164
▁들어오 -4165
ain -4166
▁탄생 -4167
패를 -4168
▁와중에 -4169
▁입수 -4170
▁파악 -4171
▁돌파 -4172
▁있으므로 -4173
-5 -4174
▁위로 -4175
▁이사 -4176
▁시점에서 -4177
▁스페셜 -4178
상에서 -4179
▁3. -4180
▁명의 -4181
▁증거 -4182
기만 -4183
ry -4184
▁박살 -4185
▁1990 -4186
▁불리는 -4187
▁했다고 -4188
았지만 -4189
리나 -4190
▁MV -4191
되는데 -4192
▁초월 -4193
▁개편 -4194
적이고 -4195
ld -4196
▁정말로 -4197
시장 -4198
▁정글 -4199
▁비록 -4200
22 -4201
▁눈치 -4202
▁댓글 -4203
▁단체 -4204
▁아이템을 -4205
년이 -4206
▁내용이 -4207
선거 -4208
IT -4209
▁속에서 -4210
▁버튼 -4211
com -4212
▁정령 -4213
▁납치 -4214
일의 -4215
▁우려 -4216
▁본선 -4217
▁아시아 -4218
▁하위 -4219
▁카드가 -4220
▁밟 -4221
▁장점 -4222
다이 -4223
▁않아서 -4224
▁기획 -4225
▁실질 -4226
▁무력 -4227
▁봄 -4228
▁세력 -4229
▁않기 -4230
자마자 -4231
▁사람들 -4232
▁해설 -4233
64 -4234
▁핵심 -4235
▁격투 -4236
▁09 -4237
▁역전 -4238
▁궤 -4239
▁만들었다 -4240
등급 -4241
▁20% -4242
구로 -4243
OL -4244
▁마츠 -4245
▁핑 -4246
니가 -4247
▁클로 -4248
▁라이벌 -4249
▁채용 -4250
▁중단 -4251
하기에 -4252
▁자이 -4253
▁겨울 -4254
▁룰 -4255
피스 -4256
▁시작한 -4257
만원 -4258
▁존재하는 -4259
▁포르 -4260
족의 -4261
▁설득 -4262
▁디스 -4263
▁경유 -4264
▁나오는데 -4265
▁마녀 -4266
▁하수 -4267
▁육군 -4268
▁찰 -4269
▁네이버 -4270
▁활약을 -4271
철도 -4272
▁자원 -4273
▁레인 -4274
▁덕에 -4275
▁외모 -4276
▁공격이 -4277
량은 -4278
식의 -4279
▁발음 -4280
일은 -4281
▁시티 -4282
▁얼음 -4283
▁대장 -4284
▁커뮤니티 -4285
권의 -4286
시켰다 -4287
▁올림픽 -4288
▁파이터 -4289
▁그것도 -4290
▁쓴다 -4291
▁들어가는 -4292
▁당시에는 -4293
▁03 -4294
▁북미 -4295
▁반영 -4296
루를 -4297
▁혼란 -4298
▁00 -4299
FA -4300
토를 -4301
수와 -4302
▁일종의 -4303
▁셰 -4304
▁입은 -4305
ore -4306
▁갓 -4307
리티컬 -4308
▁옆에 -4309
▁필요하다 -4310
스카 -4311
▁쓰지 -4312
▁지명 -4313
▁뽑아 -4314
물로 -4315
▁내내 -4316
▁출처 -4317
▁김성 -4318
▁행적 -4319
▁주력 -4320
▁즉시 -4321
▁다행히 -4322
▁책임 -4323
자들을 -4324
▁마지막으로 -4325
▁출발 -4326
▁위키 -4327
관계 -4328
▁하다가 -4329
▁제로 -4330
▁선배 -4331
▁여러가지 -4332
였으며 -4333
되었는데 -4334
루의 -4335
▁거주 -4336
▁46 -4337
▁안되는 -4338
▁암흑 -4339
▁템 -4340
▁#373 -4341
▁아사 -4342
▁하기도 -4343
▁아라 -4344
▁쓰러뜨 -4345
▁패치로 -4346
었기 -4347
▁떼 -4348
▁보여준 -4349
▁사람도 -4350
▁늘어 -4351
리다 -4352
▁사람들을 -4353
웨이 -4354
▁정도는 -4355
▁작전 -4356
▁때문인지 -4357
▁카운터 -4358
▁컨텐츠 -4359
았다고 -4360
HE -4361
▁낳 -4362
▁제조 -4363
▁가사 -4364
방이 -4365
▁있도록 -4366
▁그다지 -4367
▁수리 -4368
▁일부러 -4369
ss -4370
기인 -4371
▁핀 -4372
됩니다 -4373
▁그만큼 -4374
▁계산 -4375
▁갑옷 -4376
▁지급 -4377
면서도 -4378
아파트 -4379
▁않았고 -4380
▁스프 -4381
▁붙잡 -4382
▁아티 -4383
end -4384
스포 -4385
주면 -4386
성으로 -4387
▁무난 -4388
▁그것을 -4389
▁황제 -4390
▁놓고 -4391
▁만족 -4392
▁떡밥 -4393
았는데 -4394
▁낚 -4395
등을 -4396
▁쓰레 -4397
▁홍콩 -4398
▁게이지 -4399
▁컴퓨터 -4400
▁만난 -4401
▁융 -4402
▁나의 -4403
하기로 -4404
▁이름의 -4405
▁보너스 -4406
년도 -4407
▁비하면 -4408
▁흰 -4409
시리즈 -4410
▁들어간 -4411
▁돌진 -4412
▁순식 -4413
▁얻은 -4414
▁{ -4415
▁만들고 -4416
▁분야 -4417
▁스트라이 -4418
▁메탈 -4419
말을 -4420
▁가득 -4421
남도 -4422
▁부터 -4423
▁트레 -4424
▁NC -4425
▁의한 -4426
되기도 -4427
▁me -4428
▁크리티컬 -4429
▁케이스 -4430
판에서는 -4431
해주는 -4432
▁전자 -4433
▁폰 -4434
▁겐 -4435
년의 -4436
받아 -4437
▁공주 -4438
▁사용하면 -4439
시와 -4440
▁400 -4441
▁노트 -4442
점에서 -4443
▁신뢰 -4444
▁세계관 -4445
판에 -4446
▁하던 -4447
▁카나 -4448
▁시야 -4449
▁04 -4450
▁구단 -4451
▁동일한 -4452
▁해적 -4453
▁국가대표 -4454
보단 -4455
▁아무도 -4456
스에게 -4457
지컬 -4458
▁재능 -4459
▁방식으로 -4460
버리고 -4461
술사 -4462
년까지 -4463
▁롱 -4464
▁오른쪽 -4465
았을 -4466
▁난이도가 -4467
사용 -4468
▁붕괴 -4469
▁사실이 -4470
▁있긴 -4471
▁교환 -4472
▁에서 -4473
▁주인공이 -4474
▁관광 -4475
▁충돌 -4476
▁NPC -4477
▁의도 -4478
~3 -4479
▁or -4480
▁미야 -4481
▁텍 -4482
중학교 -4483
▁순식간에 -4484
화로 -4485
당의 -4486
▁고급 -4487
유키 -4488
▁추가되었다 -4489
▁CP -4490
▁추정된다 -4491
▁어쨌 -4492
▁트위터 -4493
▁나루 -4494
지원 -4495
▁05 -4496
오프 -4497
▁말한 -4498
만은 -4499
해져 -4500
▁생각하는 -4501
시간이 -4502
▁떠올 -4503
스트로 -4504
과학 -4505
수에 -4506
▁페이 -4507
21 -4508
▁외에 -4509
▁그런지 -4510
▁늑 -4511
▁아케 -4512
27 -4513
▁걸려 -4514
RE -4515
▁얼굴을 -4516
주년 -4517
▁그동안 -4518
로서의 -4519
▁i -4520
▁절반 -4521
28 -4522
▁드디어 -4523
▁싸우는 -4524
왕이 -4525
▁마주 -4526
▁드립 -4527
▁랭 -4528
▁응원 -4529
ust -4530
우를 -4531
▁건너 -4532
se -4533
오카 -4534
▁1999 -4535
▁안드로 -4536
▁적도 -4537
▁불꽃 -4538
등장 -4539
▁치고 -4540
▁빔 -4541
▁이것은 -4542
▁데리고 -4543
▁것이라는 -4544
조를 -4545
▁의미가 -4546
비는 -4547
▁오로 -4548
▁격파 -4549
▁닿 -4550
해지는 -4551
▁들어서 -4552
▁스페인 -4553
▁it -4554
▁와서 -4555
대와 -4556
▁르 -4557
▁베이스 -4558
▁반란 -4559
운다 -4560
▁받게 -4561
▁거쳐 -4562
▁인간의 -4563
▁보여주었다 -4564
▁부분은 -4565
▁파이널 -4566
은행 -4567
▁없었던 -4568
▁캐릭터의 -4569
▁뛰어나 -4570
▁1998 -4571
▁이쪽은 -4572
▁많았다 -4573
▁!!! -4574
▁속에 -4575
▁노동 -4576
▁제안 -4577
33 -4578
▁폭풍 -4579
▁알려진 -4580
▁그녀가 -4581
악한 -4582
▁노멀 -4583
▁딜러 -4584
▁계속해서 -4585
▁오리 -4586
들이다 -4587
▁못할 -4588
▁행동을 -4589
▁가로 -4590
라기 -4591
▁쓰면 -4592
▁감염 -4593
▁클리 -4594
▁근거 -4595
▁바르 -4596
리언 -4597
-12 -4598
▁걷 -4599
도와 -4600
▁프로토 -4601
▁몹 -4602
당이 -4603
▁귀족 -4604
▁서울특별 -4605
▁아닐 -4606
니어 -4607
▁테크 -4608
▁동아 -4609
▁그렇지 -4610
▁압박 -4611
▁| -4612
▁지하철 -4613
▁채로 -4614
▁연예 -4615
▁소멸 -4616
판의 -4617
▁벗어나 -4618
▁많고 -4619
▁여동생 -4620
▁실제로는 -4621
▁브랜드 -4622
▁한때 -4623
▁쏟아 -4624
▁퀄 -4625
스팅 -4626
▁역으로 -4627
▁on -4628
▁전체적으로 -4629
▁최악의 -4630
:4 -4631
국이 -4632
▁이승 -4633
▁랩 -4634
하지는 -4635
▁강조 -4636
▁노래를 -4637
▁덮 -4638
▁홍보 -4639
▁텔 -4640
▁수입 -4641
▁아무런 -4642
▁체육 -4643
원들이 -4644
▁단일 -4645
▁re -4646
메달 -4647
보스 -4648
▁64 -4649
▁그녀는 -4650
머리 -4651
▁사상 -4652
년간 -4653
급의 -4654
▁국적 -4655
▁신의 -4656
▁내에 -4657
▁맡은 -4658
널티 -4659
▁첫번째 -4660
▁깃 -4661
▁몰래 -4662
▁들이 -4663
▁러브 -4664
▁토모 -4665
▁아무것도 -4666
▁유희 -4667
▁가까이 -4668
형의 -4669
선으로 -4670
이긴 -4671
▁형제 -4672
증을 -4673
▁폼 -4674
▁여러모로 -4675
▁프로젝트 -4676
군에 -4677
▁is -4678
▁AT -4679
▁관객 -4680
전에서는 -4681
이었는데 -4682
▁입학 -4683
▁집안 -4684
▁출현 -4685
▁뉴욕 -4686
▁상향 -4687
▁파이어 -4688
▁견제 -4689
▁SN -4690
▁되돌 -4691
스턴 -4692
▁흔들 -4693
▁공을 -4694
사인 -4695
▁젠 -4696
▁넣어 -4697
▁이들이 -4698
▁부족한 -4699
색이 -4700
▁돌아오 -4701
▁빨간 -4702
▁대로 -4703
점에 -4704
▁수준으로 -4705
하시 -4706
▁생겼다 -4707
▁화려 -4708
▁크리 -4709
▁괜찮은 -4710
내며 -4711
▁충전 -4712
26 -4713
75 -4714
▁주어 -4715
▁제시 -4716
▁선호 -4717
▁영문 -4718
▁연사 -4719
▁달러 -4720
오를 -4721
▁BGM -4722
▁for -4723
체는 -4724
기에서 -4725
▁조용 -4726
것을 -4727
▁CD -4728
▁가문 -4729
▁다니는 -4730
거리는 -4731
▁만든다 -4732
est -4733
▁당한 -4734
▁신규 -4735
▁마지막에 -4736
▁성능이 -4737
가에 -4738
으려 -4739
▁49 -4740
줘야 -4741
▁오픈 -4742
문화 -4743
▁언니 -4744
▁됐다 -4745
▁예선 -4746
▁영원 -4747
▁An -4748
▁창작 -4749
영상 -4750
▁놀라 -4751
▁의식 -4752
▁자리에 -4753
진은 -4754
▁거기다 -4755
사람 -4756
▁기록했다 -4757
별로 -4758
:30 -4759
▁되자 -4760
▁접기 -4761
했다가 -4762
▁가입 -4763
▁닉 -4764
▁눈이 -4765
가락 -4766
▁죽는 -4767
▁방송을 -4768
▁실행 -4769
▁마이크 -4770
일로 -4771
없다 -4772
▁취소 -4773
▁살고 -4774
▁끔 -4775
▁명예 -4776
카를 -4777
기에는 -4778
판은 -4779
▁가드 -4780
▁바탕으로 -4781
og -4782
실이 -4783
▁카르 -4784
▁유저들이 -4785
▁작사 -4786
력에 -4787
▁후쿠 -4788
▁갖추 -4789
▁정확히 -4790
▁경계 -4791
▁크레 -4792
치에 -4793
▁했을 -4794
▁혼자서 -4795
▁곳에서 -4796
▁조정 -4797
까지만 -4798
▁모습은 -4799
버리 -4800
▁1997 -4801
▁네가 -4802
▁대륙 -4803
▁보이고 -4804
▁지금까지 -4805
▁붙여 -4806
대에서 -4807
타이 -4808
디언 -4809
▁메이저 -4810
▁경상 -4811
각을 -4812
▁쓰이는 -4813
즈는 -4814
.01 -4815
▁의견이 -4816
되었던 -4817
▁어그 -4818
▁루트 -4819
▁전원 -4820
▁회전 -4821
▁이후로는 -4822
▁화이트 -4823
▁마련 -4824
▁복수 -4825
류가 -4826
▁쪽이 -4827
면을 -4828
▁65 -4829
▁위해서는 -4830
▁얻는 -4831
▁효과는 -4832
▁아메 -4833
타입 -4834
▁리버 -4835
▁추락 -4836
하였으며 -4837
▁프로필 -4838
▁올리 -4839
주인 -4840
▁MAX -4841
스트를 -4842
▁댄스 -4843
PG -4844
▁목숨을 -4845
▁최상 -4846
▁그곳 -4847
▁캐릭터를 -4848
▁기어 -4849
age -4850
▁신인 -4851
▁제법 -4852
▁언제나 -4853
스트라 -4854
▁보수 -4855
▁하나인 -4856
병을 -4857
▁번호 -4858
▁펼치기 -4859
▁주도 -4860
▁미츠 -4861
▁단지 -4862
▁훔 -4863
크는 -4864
▁거래 -4865
▁닥터 -4866
▁고양이 -4867
▁죽여 -4868
▁한자 -4869
기간 -4870
렸을 -4871
▁30% -4872
▁심각한 -4873
▁본인도 -4874
들에게는 -4875
▁공유 -4876
서관 -4877
중한 -4878
▁그들의 -4879
▁쪽으로 -4880
▁주먹 -4881
거운 -4882
▁규모 -4883
▁짝 -4884
▁뉴스 -4885
▁짤 -4886
▁어디까지 -4887
▁다가 -4888
▁비슷하게 -4889
▁보자 -4890
.25 -4891
▁연애 -4892
▁아직도 -4893
▁형성 -4894
▁무적 -4895
▁1.5 -4896
▁이스 -4897
▁보이며 -4898
▁본격적으로 -4899
서의 -4900
▁울산 -4901
out -4902
▁묵 -4903
방어 -4904
권에 -4905
▁여겨 -4906
히로 -4907
▁불편 -4908
▁타케 -4909
▁Ar -4910
▁되찾 -4911
▁영상을 -4912
▁귀여 -4913
ity -4914
▁아머 -4915
▁두려 -4916
▁물러 -4917
터리 -4918
▁후에는 -4919
▁말할 -4920
실에 -4921
▁예고 -4922
▁옛날 -4923
-11 -4924
200 -4925
▁스폰 -4926
한국 -4927
▁맡았다 -4928
▁못하게 -4929
▁대폭 -4930
▁마음에 -4931
북도 -4932
▁글로 -4933
▁먹을 -4934
▁방법이 -4935
브를 -4936
▁조심 -4937
▁고생 -4938
연구 -4939
▁크루 -4940
▁메카 -4941
▁MS -4942
위원회 -4943
▁이득 -4944
▁이거 -4945
저히 -4946
ere -4947
단으로 -4948
▁문을 -4949
▁어쩌 -4950
▁마도 -4951
우리 -4952
▁푸른 -4953
자키 -4954
번호 -4955
▁부진 -4956
▁쿠로 -4957
}} -4958
▁갤럭 -4959
▁무효 -4960
▁후지 -4961
시고 -4962
BO -4963
▁이래 -4964
▁r -4965
▁노출 -4966
▁베르 -4967
PM -4968
▁팀은 -4969
물의 -4970
▁체력을 -4971
마저도 -4972
ide -4973
▁피아 -4974
▁가이 -4975
▁파일럿 -4976
▁안된다 -4977
▁제주 -4978
▁편이 -4979
▁엄마 -4980
냐며 -4981
▁Te -4982
▁마리오 -4983
▁꺾 -4984
▁실시 -4985
▁모바 -4986
ome -4987
▁몸에 -4988
▁사건을 -4989
장인 -4990
공항 -4991
▁제이 -4992
▁수요 -4993
▁자체를 -4994
전투 -4995
▁풀어 -4996
할수 -4997
▁선수가 -4998
▁오빠 -4999
▁기회를 -5000
▁만에 -5001
▁당시의 -5002
▁덧 -5003
▁몸이 -5004
▁거라고 -5005
▁브라질 -5006
▁종점 -5007
기지 -5008
▁생각을 -5009
▁라며 -5010
▁없애 -5011
▁있어야 -5012
▁입장에서는 -5013
▁KT -5014
▁희귀 -5015
▁더빙 -5016
▁등판 -5017
▁유령 -5018
▁스킬이 -5019
▁자신과 -5020
▁이슬 -5021
▁샷 -5022
▁서울특별시 -5023
▁반격 -5024
초등학교 -5025
▁성능을 -5026
메이 -5027
▁똑같이 -5028
▁생겼 -5029
▁맘 -5030
▁시키 -5031
▁우리가 -5032
.02 -5033
▁전함 -5034
▁계급 -5035
시안 -5036
▁기습 -5037
▁맞이 -5038
선에 -5039
▁증명 -5040
▁연도 -5041
▁정류 -5042
▁꺼내 -5043
▁것이라 -5044
당하고 -5045
정부 -5046
▁판타지 -5047
▁스마트 -5048
▁건강 -5049
▁타워 -5050
▁테이 -5051
▁샘 -5052
▁계승 -5053
▁이들의 -5054
▁긍 -5055
용이 -5056
▁생일 -5057
▁구출 -5058
▁레전드 -5059
▁도달 -5060
코는 -5061
▁어둠의 -5062
▁화장 -5063
인에게 -5064
65 -5065
▁권총 -5066
▁구현 -5067
▁방향으로 -5068
▁사이가 -5069
▁국회의원 -5070
▁편성 -5071
▁사운드 -5072
▁똑같은 -5073
력도 -5074
▁익숙 -5075
▁헤드 -5076
▁대학교 -5077
▁해체 -5078
▁조금씩 -5079
▁통한 -5080
▁43 -5081
역에서 -5082
▁커맨 -5083
부대 -5084
워드 -5085
▁추적 -5086
▁빠진 -5087
29 -5088
▁요즘 -5089
라이트 -5090
▁공항 -5091
FC -5092
되자 -5093
IS -5094
▁1996 -5095
▁통해서 -5096
▁것이었다 -5097
▁투자 -5098
▁어지 -5099
▁사토 -5100
▁크로스 -5101
▁위기에 -5102
▁장애 -5103
▁저주 -5104
MA -5105
▁1995 -5106
▁신청 -5107
해보 -5108
▁Ne -5109
▁클래스 -5110
▁감독이 -5111
▁자이언 -5112
▁그래픽 -5113
▁비중이 -5114
사랑 -5115
▁선물 -5116
▁언어 -5117
치와 -5118
▁무료 -5119
▁한마 -5120
▁산업 -5121
▁요새 -5122
px -5123
▁대미지를 -5124
▁US -5125
▁스파이 -5126
▁동네 -5127
▁중인 -5128
▁인지 -5129
▁인형 -5130
드립 -5131
▁기점 -5132
▁들은 -5133
▁민간 -5134
대회 -5135
▁등장했다 -5136
▁불가능하다 -5137
▁집어 -5138
▁사진을 -5139
▁호평 -5140
.03 -5141
▁진정한 -5142
▁던져 -5143
무원 -5144
▁엑스 -5145
하였으나 -5146
▁전투를 -5147
▁해방 -5148
▁프리미 -5149
▁살려 -5150
4, -5151
▁경기가 -5152
▁190 -5153
▁포인 -5154
▁수록곡 -5155
▁흘러 -5156
▁최후의 -5157
▁180 -5158
▁반응을 -5159
▁옹 -5160
링을 -5161
▁겉 -5162
▁때가 -5163
▁말은 -5164
▁에스 -5165
▁순서 -5166
▁한데 -5167
▁행사 -5168
▁학살 -5169
연합 -5170
▁인상 -5171
작을 -5172
▁4, -5173
▁주목 -5174
▁이날 -5175
▁복잡 -5176
▁시행 -5177
▁다이아 -5178
▁다수 -5179
▁요괴 -5180
ood -5181
체로 -5182
▁페이스 -5183
야의 -5184
▁AI -5185
▁나나 -5186
▁다리 -5187
▁알파 -5188
연이 -5189
▁분석 -5190
하이 -5191
▁동원 -5192
공의 -5193
민이 -5194
▁매일 -5195
▁어드 -5196
▁눌 -5197
▁걸린 -5198
▁이재 -5199
▁적어도 -5200
레나 -5201
▁특기 -5202
▁때에는 -5203
▁나를 -5204
메이크 -5205
▁전직 -5206
주지 -5207
-20 -5208
지는데 -5209
▁코드 -5210
▁왔다 -5211
+1 -5212
▁아우 -5213
▁락 -5214
▁방법을 -5215
제한 -5216
▁값 -5217
프는 -5218
ire -5219
▁밴드 -5220
▁달아 -5221
▁말이다 -5222
▁어깨 -5223
츠키 -5224
▁포탑 -5225
▁플레 -5226
▁낭 -5227
든가 -5228
짜리 -5229
▁근무 -5230
▁된다는 -5231
화는 -5232
▁돌아온 -5233
더라 -5234
▁넓은 -5235
▁.) -5236
▁팬들이 -5237
▁파란 -5238
▁음반 -5239
▁델 -5240
▁전달 -5241
▁주지 -5242
▁제기 -5243
▁그랬 -5244
▁의사 -5245
▁어떻게든 -5246
▁별명 -5247
시설 -5248
▁우승을 -5249
are -5250
▁깊은 -5251
▁부분을 -5252
▁왠 -5253
▁폭주 -5254
▁쓰인다 -5255
▁라이더 -5256
▁구해 -5257
▁드물 -5258
작의 -5259
전차 -5260
베르 -5261
▁팬들은 -5262
▁뒤를 -5263
▁크고 -5264
▁성인 -5265
▁젤 -5266
▁성별 -5267
▁작동 -5268
OT -5269
▁DLC -5270
▁헤어 -5271
▁오해 -5272
▁아쉽 -5273
▁탱커 -5274
선은 -5275
▁개의 -5276
조리 -5277
러운 -5278
고의 -5279
▁대체로 -5280
▁이후의 -5281
▁평가가 -5282
▁현재의 -5283
▁관심을 -5284
▁이들 -5285
▁통일 -5286
▁판정 -5287
▁단어 -5288
▁작중에서 -5289
▁유명하다 -5290
▁너무나 -5291
▁곳이 -5292
▁이라는 -5293
▁무언 -5294
단은 -5295
▁공격에 -5296
▁균 -5297
▁검색 -5298
당하는 -5299
▁저그 -5300
▁가깝다 -5301
▁하니 -5302
▁MC -5303
▁학원 -5304
▁해당하는 -5305
▁양산 -5306
▁수집 -5307
▁...... -5308
▁여유 -5309
▁치명타 -5310
▁없으니 -5311
해졌 -5312
▁교수 -5313
▁내는 -5314
▁운전 -5315
▁고전 -5316
마루 -5317
▁플레이를 -5318
브리 -5319
카는 -5320
▁소리가 -5321
▁있었다고 -5322
▁하거나 -5323
되었으나 -5324
▁전투에서 -5325
▁붙은 -5326
장한 -5327
▁유형 -5328
▁이후에도 -5329
▁Wh -5330
번에 -5331
보가 -5332
라노 -5333
▁표준 -5334
▁MVP -5335
▁그럼에도 -5336
▁무엇보다 -5337
▁절망 -5338
▁기억을 -5339
▁일반적으로 -5340
▁괴롭 -5341
로로 -5342
미와 -5343
▁AC -5344
▁블러 -5345
▁않아도 -5346
▁외교 -5347
류를 -5348
디로 -5349
군과 -5350
▁히로인 -5351
▁여왕 -5352
데스 -5353
▁연상 -5354
▁58 -5355
▁팝 -5356
▁이시 -5357
▁하필 -5358
▁곰 -5359
▁중계 -5360
▁넘는 -5361
▁위치를 -5362
▁강철 -5363
▁리메이크 -5364
▁추격 -5365
▁엮 -5366
/4 -5367
중인 -5368
▁보여주고 -5369
▁글을 -5370
지않 -5371
▁레오 -5372
▁정도가 -5373
일까지 -5374
당히 -5375
다니는 -5376
▁하더라도 -5377
▁동방 -5378
았으나 -5379
▁공산 -5380
▁모으 -5381
▁매니 -5382
리아의 -5383
경이 -5384
▁그것이 -5385
구역 -5386
▁튜 -5387
▁소닉 -5388
▁Le -5389
▁용의 -5390
▁도중에 -5391
▁모리 -5392
라이언 -5393
▁낮아 -5394
▁프린 -5395
▁블록 -5396
▁마법을 -5397
▁변형 -5398
▁콘서 -5399
▁임명 -5400
▁이뤄 -5401
our -5402
▁캐릭터로 -5403
▁차라리 -5404
UN -5405
실에서 -5406
시절 -5407
▁까지 -5408
▁안에서 -5409
▁맡고 -5410
▁스카이 -5411
▁셔 -5412
▁전면 -5413
▁모두가 -5414
▁진지 -5415
▁박근 -5416
시코 -5417
아를 -5418
▁사람들의 -5419
▁변호 -5420
▁없으면 -5421
▁줄어 -5422
▁마인 -5423
▁챕 -5424
▁변경되었다 -5425
▁제국의 -5426
▁퀸 -5427
스키 -5428
▁막을 -5429
▁족 -5430
▁몰려 -5431
▁초창 -5432
ake -5433
▁되지만 -5434
▁66 -5435
니의 -5436
▁압도적인 -5437
내기 -5438
▁통신 -5439
▁자동차 -5440
▁잡는 -5441
인간 -5442
▁빵 -5443
▁맞다 -5444
▁막장 -5445
▁고백 -5446
▁페이지 -5447
병이 -5448
친구 -5449
▁쉽다 -5450
▁비슷하다 -5451
▁능력은 -5452
동차 -5453
▁펀 -5454
OM -5455
~4 -5456
▁공부 -5457
ure -5458
▁하야 -5459
▁중화 -5460
홈런 -5461
▁나와서 -5462
프리 -5463
OW -5464
으론 -5465
▁보물 -5466
▁스튜 -5467
▁달린 -5468
▁갈아 -5469
어리 -5470
▁쇠 -5471
▁56 -5472
겠지 -5473
▁참전 -5474
▁그에게 -5475
레이터 -5476
▁고향 -5477
▁경험치 -5478
ass -5479
▁최강의 -5480
▁득표 -5481
▁) -5482
ect -5483
▁의뢰 -5484
▁느낌이 -5485
▁곧바로 -5486
31 -5487
.05 -5488
▁협력 -5489
▁거리가 -5490
쟁이 -5491
qu -5492
관의 -5493
▁1980 -5494
스톤 -5495
다보니 -5496
▁THE -5497
영이 -5498
▁그와 -5499
▁빗 -5500
▁세월 -5501
▁개통 -5502
▁콜라 -5503
▁대립 -5504
▁빠르 -5505
▁마크 -5506
▁AK -5507
▁없는데 -5508
▁잦 -5509
▁전형 -5510
▁곡을 -5511
ite -5512
▁지나치게 -5513
▁사양 -5514
▁등에서 -5515
▁예외 -5516
▁끝나고 -5517
에다 -5518
님의 -5519
▁착각 -5520
▁섹 -5521
▁일도 -5522
▁행성 -5523
ark -5524
▁어쨌든 -5525
▁1994 -5526
oy -5527
▁슬롯 -5528
▁준우 -5529
▁편의 -5530
▁넘겨 -5531
▁이내 -5532
트남 -5533
하면서도 -5534
모드 -5535
▁빡 -5536
▁섭 -5537
테인 -5538
▁위험한 -5539
▁막기 -5540
일드 -5541
▁근육 -5542
했었다 -5543
▁극단 -5544
▁않았지만 -5545
▁파라 -5546
했는지 -5547
버려 -5548
▁으 -5549
▁주변에 -5550
▁예능 -5551
▁아바 -5552
▁신성 -5553
미니 -5554
▁노예 -5555
편에서 -5556
▁특별한 -5557
▁수학 -5558
둥이 -5559
▁대상으로 -5560
▁강원 -5561
▁가고 -5562
▁보도 -5563
▁이것을 -5564
▁탁 -5565
▁근처에 -5566
라에 -5567
▁길이 -5568
▁심한 -5569
.08 -5570
▁많아서 -5571
ID -5572
의가 -5573
▁낸 -5574
▁화력 -5575
▁아버지가 -5576
▁커플 -5577
▁지니고 -5578
▁튀어나 -5579
ES -5580
티드 -5581
av -5582
▁잠수 -5583
▁추진 -5584
▁정확히는 -5585
▁차별 -5586
▁통상 -5587
▁곳으로 -5588
마는 -5589
▁이르 -5590
▁De -5591
전자 -5592
▁생각하고 -5593
▁파트너 -5594
▁서서 -5595
▁있기에 -5596
▁김영 -5597
▁스피드 -5598
색으로 -5599
AD -5600
▁[[ -5601
하는게 -5602
▁Se -5603
▁아니었다 -5604
▁없었고 -5605
▁j -5606
▁의혹 -5607
끄는 -5608
ime -5609
▁어디까지나 -5610
▁잡을 -5611
스탄 -5612
▁의원 -5613
▁며 -5614
로봇 -5615
평가 -5616
▁중학교 -5617
가고 -5618
▁세계의 -5619
▁피격 -5620
▁이성 -5621
하기는 -5622
▁흥행 -5623
5, -5624
이게 -5625
▁명이 -5626
▁집단 -5627
▁모바일 -5628
했습니다 -5629
▁뼈 -5630
였다는 -5631
▁않았던 -5632
iz -5633
관은 -5634
▁헌터 -5635
▁하나는 -5636
▁돕 -5637
▁관계를 -5638
▁신고 -5639
▁대략 -5640
-8 -5641
▁마왕 -5642
▁써서 -5643
▁협박 -5644
▁둥 -5645
ound -5646
▁적극적으로 -5647
▁체포 -5648
▁관계가 -5649
파이 -5650
율을 -5651
▁이용하여 -5652
▁멕 -5653
▁탄약 -5654
▁성격이 -5655
▁신기 -5656
▁옮겨 -5657
ob -5658
▁외계 -5659
▁싸울 -5660
▁차단 -5661
▁간혹 -5662
▁실버 -5663
▁밖으로 -5664
한의 -5665
▁버려 -5666
▁생각보다 -5667
미네 -5668
으려고 -5669
대장 -5670
책을 -5671
▁컷 -5672
작이 -5673
▁디버 -5674
만큼은 -5675
▁분위기 -5676
▁마이클 -5677
파를 -5678
업이 -5679
소리 -5680
▁말아 -5681
야구 -5682
▁수영 -5683
▁지속적으로 -5684
있고 -5685
▁썩 -5686
▁아니냐는 -5687
▁외부 -5688
▁목격 -5689
▁뺏 -5690
▁대사를 -5691
노가 -5692
▁전까지 -5693
ge -5694
더스 -5695
▁이라고 -5696
ok -5697
▁실력을 -5698
▁똑같 -5699
OP -5700
▁타이거 -5701
리얼 -5702
▁되어서 -5703
▁말하면 -5704
▁날짜 -5705
▁춘 -5706
식은 -5707
마이 -5708
▁총을 -5709
▁이지 -5710
▁장수 -5711
▁FI -5712
당한다 -5713
▁곁 -5714
노우 -5715
▁전력 -5716
▁조절 -5717
▁단순한 -5718
담을 -5719
디가 -5720
▁가리 -5721
직을 -5722
▁나름대로 -5723
▁대부분이 -5724
▁오스 -5725
▁은근히 -5726
▁폐지 -5727
▁김태 -5728
▁다들 -5729
화되어 -5730
번의 -5731
▁베어 -5732
▁57 -5733
▁쓰기 -5734
▁대화를 -5735
하라고 -5736
▁외에는 -5737
▁가볍 -5738
국을 -5739
▁깜 -5740
▁쾌 -5741
▁파견 -5742
▁버리고 -5743
다시 -5744
자고 -5745
▁트로 -5746
▁코어 -5747
▁계획을 -5748
98 -5749
▁중에서는 -5750
▁불법 -5751
▁시켜 -5752
항공 -5753
▁소화 -5754
▁끌고 -5755
▁설정이 -5756
iv -5757
▁합쳐 -5758
▁힘으로 -5759
데다 -5760
BA -5761
소의 -5762
▁맞지 -5763
▁마구 -5764
▁까다 -5765
▁쫓아 -5766
들과는 -5767
▁41 -5768
린이 -5769
▁He -5770
▁홀로 -5771
▁경영 -5772
▁열차 -5773
▁생각이 -5774
전대 -5775
▁스코어 -5776
▁한동안 -5777
▁지역의 -5778
▁들어간다 -5779
.09 -5780
▁수송 -5781
▁이다 -5782
종이 -5783
당을 -5784
▁Me -5785
ock -5786
▁기원 -5787
소에 -5788
▁독자 -5789
▁나뉘 -5790
환이 -5791
단지 -5792
민의 -5793
격으로 -5794
.07 -5795
▁자가 -5796
동의 -5797
▁평화 -5798
~20 -5799
▁77 -5800
▁미스 -5801
▁고용 -5802
▁넉 -5803
지방 -5804
▁앵 -5805
▁팬덤 -5806
▁목적으로 -5807
▁흠 -5808
편의 -5809
23 -5810
▁당신 -5811
▁와이 -5812
▁핫 -5813
▁2017-0 -5814
▁더더 -5815
▁시장 -5816
▁보이지만 -5817
계에 -5818
▁합격 -5819
▁대처 -5820
▁인근 -5821
실한 -5822
당해 -5823
동에 -5824
▁넌 -5825
오고 -5826
LL -5827
ath -5828
▁테란 -5829
▁외국인 -5830
▁수사 -5831
-7 -5832
▁기초 -5833
▁펼쳐 -5834
연의 -5835
▁끌려 -5836
름을 -5837
▁장식 -5838
▁인공 -5839
▁정확한 -5840
▁무작 -5841
▁기능을 -5842
▁몬스터를 -5843
▁보낸 -5844
▁필살기 -5845
치며 -5846
▁my -5847
▁승부 -5848
▁멀쩡 -5849
▁입력 -5850
▁구속 -5851
오리 -5852
▁웹툰 -5853
현이 -5854
초간 -5855
▁날개 -5856
▁막차 -5857
▁기록을 -5858
▁태어 -5859
▁4. -5860
▁54 -5861
▁감시 -5862
▁대만 -5863
어버린 -5864
형으로 -5865
인지는 -5866
▁이중 -5867
과도 -5868
▁시각 -5869
되었지만 -5870
▁스톰 -5871
표를 -5872
▁상황이다 -5873
심으로 -5874
.04 -5875
▁오랫 -5876
▁기능이 -5877
▁맞은 -5878
▁DJ -5879
▁편곡 -5880
▁정도다 -5881
▁88 -5882
▁정면 -5883
▁자매 -5884
▁아빠 -5885
발이 -5886
티아 -5887
▁룬 -5888
▁더더욱 -5889
씨가 -5890
재를 -5891
론의 -5892
▁지능 -5893
▁600 -5894
▁관계로 -5895
▁무기로 -5896
▁보일 -5897
구치 -5898
색을 -5899
▁사장 -5900
▁AR -5901
▁보며 -5902
▁존재하지 -5903
▁다섯 -5904
학을 -5905
▁강제로 -5906
▁kt -5907
▁기반으로 -5908
네가 -5909
▁갇 -5910
▁FA -5911
▁갤러리 -5912
▁전화 -5913
▁코믹스 -5914
▁블로그 -5915
▁낼 -5916
▁수련 -5917
▁적대 -5918
▁죄다 -5919
▁것만 -5920
▁이들을 -5921
▁KIA -5922
▁작품의 -5923
조차도 -5924
▁플랫 -5925
▁잃은 -5926
▁원본 -5927
6, -5928
▁긍정 -5929
▁즈 -5930
▁멍 -5931
테이 -5932
▁아리 -5933
▁같지만 -5934
▁이길 -5935
▁어떠 -5936
▁캐나다 -5937
▁Cl -5938
▁태그 -5939
▁순수 -5940
▁대충 -5941
▁CC -5942
▁허나 -5943
▁것이고 -5944
부와 -5945
ax -5946
ess -5947
▁가속 -5948
▁팬들의 -5949
▁누적 -5950
하려면 -5951
▁중에는 -5952
▁데미 -5953
▁아가 -5954
▁일시 -5955
▁상품 -5956
▁사용해 -5957
▁마음이 -5958
▁자신도 -5959
▁말로 -5960
▁비해서 -5961
▁썬 -5962
▁마이너 -5963
▁예측 -5964
▁보라 -5965
95 -5966
▁수용 -5967
▁특이한 -5968
▁안드로이드 -5969
▁기술이 -5970
▁아름다운 -5971
▁남겨 -5972
pe -5973
▁피해량 -5974
감독 -5975
▁감옥 -5976
▁?' -5977
의로 -5978
▁주말 -5979
▁현지 -5980
경찰 -5981
▁바보 -5982
▁레벨이 -5983
▁{{ -5984
▁안내 -5985
▁대규모 -5986
▁보인 -5987
▁알겠지만 -5988
▁박정 -5989
▁쏴 -5990
영화 -5991
이었다고 -5992
▁박근혜 -5993
ance -5994
▁나타난 -5995
등이 -5996
▁he -5997
사고 -5998
▁그로 -5999
▁소총 -6000
▁지금도 -6001
▁SD -6002
▁펠 -6003
함에 -6004
▁김민 -6005
그래 -6006
▁자신들의 -6007
▁없던 -6008
▁{{{ -6009
▁현상 -6010
츠의 -6011
선에서 -6012
인인 -6013
▁다루는 -6014
▁달고 -6015
▁했다는 -6016
▁유행 -6017
▁않는다는 -6018
.06 -6019
▁키리 -6020
▁wh -6021
▁융합 -6022
비트 -6023
배를 -6024
▁예비 -6025
▁52 -6026
▁이리 -6027
당했다 -6028
되지만 -6029
체에 -6030
묘한 -6031
▁이치 -6032
▁건축 -6033
▁GT -6034
▁프로듀서 -6035
uc -6036
료를 -6037
▁많은데 -6038
ick -6039
▁드러나 -6040
▁절대로 -6041
일에는 -6042
▁죽인 -6043
▁아닌가 -6044
▁주기 -6045
▁형태의 -6046
▁그건 -6047
▁뭘 -6048
ord -6049
ph -6050
ix -6051
▁강하다 -6052
이기에 -6053
▁깨닫 -6054
▁쉴 -6055
▁250 -6056
▁땐 -6057
▁써먹 -6058
민주당 -6059
▁피를 -6060
▁프라 -6061
▁반응이 -6062
▁죽음의 -6063
▁대원 -6064
▁구멍 -6065
▁으로 -6066
▁내의 -6067
▁것인지 -6068
▁쿠키 -6069
▁기자 -6070
▁모른 -6071
린의 -6072
▁소프트 -6073
▁한참 -6074
▁점차 -6075
국가 -6076
▁경비 -6077
▁쓰레기 -6078
▁부상을 -6079
▁게임에서 -6080
▁섀 -6081
▁뱅 -6082
았다는 -6083
▁감사 -6084
▁영업 -6085
안이 -6086
▁없었 -6087
▁관중 -6088
▁갤럭시 -6089
▁방에 -6090
▁베스트 -6091
▁MF -6092
소한 -6093
▁텔레 -6094
▁소형 -6095
타와 -6096
야가 -6097
▁있어도 -6098
버렸 -6099
▁Be -6100
▁활성 -6101
함과 -6102
파의 -6103
▁밸런스 -6104
0000 -6105
▁훌륭한 -6106
▁네덜 -6107
▁성공했다 -6108
슬러 -6109
▁대상이 -6110
▁프리큐 -6111
관리 -6112
▁Tr -6113
▁퀄리티 -6114
▁공급 -6115
▁하얀 -6116
▁있다가 -6117
▁했으며 -6118
▁공개된 -6119
▁예술 -6120
팀이 -6121
▁히데 -6122
▁자랑한다 -6123
▁실력이 -6124
▁세계를 -6125
▁액티브 -6126
메가 -6127
▁어지간 -6128
▁어른 -6129
▁어릴 -6130
▁강남 -6131
▁뜯 -6132
▁내놓 -6133
ame -6134
주기 -6135
▁모양이다 -6136
▁군단 -6137
▁인간이 -6138
르를 -6139
역에 -6140
▁옷을 -6141
▁싫어하는 -6142
독교 -6143
▁WW -6144
뿐만 -6145
▁59 -6146
판에서 -6147
▁SC -6148
▁컵 -6149
▁한다면 -6150
▁카와 -6151
▁85 -6152
▁버프를 -6153
▁첫차 -6154
터테인 -6155
▁죽일 -6156
▁매직 -6157
▁아일 -6158
▁곡명 -6159
▁평이 -6160
na -6161
▁스태 -6162
동으로 -6163
▁같아 -6164
트맨 -6165
▁최다 -6166
▁이상으로 -6167
67 -6168
▁와타 -6169
▁삼국지 -6170
▁과연 -6171
▁선생님 -6172
▁전쟁을 -6173
▁웨이 -6174
▁세워 -6175
▁챕터 -6176
▁닫 -6177
▁들어갈 -6178
▁부품 -6179
▁창조 -6180
▁짓을 -6181
▁골든 -6182
▁SR -6183
▁하트 -6184
슈타 -6185
▁나쁘지 -6186
▁유저가 -6187
▁다를 -6188
▁업무 -6189
르지 -6190
▁관심이 -6191
▁도발 -6192
▁공격하는 -6193
▁저녁 -6194
연을 -6195
▁박스 -6196
막을 -6197
▁지금의 -6198
▁카드의 -6199
▁꽂 -6200
▁감정 -6201
▁그렇다 -6202
▁만났 -6203
느라 -6204
▁디아 -6205
형은 -6206
인에 -6207
▁나아 -6208
산이 -6209
▁카미 -6210
▁전에는 -6211
니와 -6212
▁장면을 -6213
▁DF -6214
▁환영 -6215
▁죽음을 -6216
▁들을 -6217
마스터 -6218
▁다룬 -6219
이트를 -6220
해준다 -6221
▁오랫동안 -6222
OC -6223
▁나눠 -6224
▁카타 -6225
▁있었으며 -6226
있어 -6227
▁My -6228
▁간의 -6229
ud -6230
▁밝혀졌다 -6231
▁우리는 -6232
량으로 -6233
투를 -6234
▁어두 -6235
▁접속 -6236
▁이어지는 -6237
▁뚜 -6238
코를 -6239
▁검사 -6240
▁포스트 -6241
림을 -6242
▁작용 -6243
▁난다 -6244
▁전멸 -6245
인들은 -6246
▁with -6247
▁어마 -6248
US -6249
톨릭 -6250
노의 -6251
▁성적을 -6252
코와 -6253
▁메타 -6254
▁모여 -6255
위키 -6256
▁훗 -6257
▁정지 -6258
▁스티 -6259
▁지어 -6260
▁트윈 -6261
▁불린다 -6262
▁별다른 -6263
되었을 -6264
/10 -6265
거야 -6266
법이 -6267
▁전성 -6268
▁싸움을 -6269
▁시기에 -6270
▁받아들이 -6271
다의 -6272
▁분위기가 -6273
▁윙 -6274
으러 -6275
▁가능하며 -6276
,8 -6277
회사 -6278
▁분위기를 -6279
버트 -6280
▁동시 -6281
베이 -6282
기업 -6283
▁리듬 -6284
▁기본적인 -6285
관으로 -6286
▁재사용 -6287
버스터 -6288
▁레어도 -6289
▁갈수록 -6290
당에 -6291
▁사용하지 -6292
신으로 -6293
▁열쇠 -6294
▁대항 -6295
▁맞게 -6296
통을 -6297
▁경력 -6298
▁등은 -6299
▁서비 -6300
▁장교 -6301
▁떨어진다 -6302
였기 -6303
챌린 -6304
되어서 -6305
가며 -6306
▁+2 -6307
▁보게 -6308
하에 -6309
▁전방 -6310
▁되었다고 -6311
▁싶다 -6312
토는 -6313
▁결코 -6314
", -6315
47 -6316
68 -6317
▁태어난 -6318
▁멈추 -6319
▁슈팅 -6320
▁사용하고 -6321
원과 -6322
▁이즈 -6323
번이 -6324
▁아쉬운 -6325
▁잡혀 -6326
▁이영 -6327
금이 -6328
과를 -6329
▁OST -6330
▁마침내 -6331
▁안티 -6332
▁작가가 -6333
▁신장 -6334
▁랭킹 -6335
▁아니라고 -6336
▁헨 -6337
역의 -6338
▁이제는 -6339
▁뭉 -6340
▁시즈 -6341
▁이전의 -6342
▁감독의 -6343
데이 -6344
▁봐야 -6345
▁미카 -6346
졌지만 -6347
▁주전 -6348
▁오스트 -6349
▁메뉴 -6350
세로 -6351
▁비디오 -6352
▁한타 -6353
▁모모 -6354
▁귀찮 -6355
▁주소 -6356
▁이슬람 -6357
▁크기 -6358
▁의존 -6359
▁캠페 -6360
▁사라진 -6361
▁출장 -6362
▁모조리 -6363
▁치는 -6364
▁SM -6365
▁비싸 -6366
▁처벌 -6367
실로 -6368
▁사람들도 -6369
▁휘두 -6370
▁조지 -6371
▁당해 -6372
공이 -6373
▁합성 -6374
▁강하게 -6375
▁캐스팅 -6376
▁올린 -6377
▁기분 -6378
▁조성 -6379
▁해병 -6380
▁극복 -6381
▁민족 -6382
상한 -6383
▁SKT -6384
세에 -6385
▁95 -6386
▁나가는 -6387
▁빚 -6388
old -6389
▁비트 -6390
▁적혀 -6391
▁그라 -6392
▁할아버 -6393
당할 -6394
▁증가한다 -6395
EM -6396
▁부수 -6397
▁Pl -6398
▁68 -6399
실점 -6400
▁김동 -6401
▁일상 -6402
▁회수 -6403
▁입단 -6404
번을 -6405
▁새벽 -6406
▁니시 -6407
▁과거의 -6408
▁김정 -6409
▁주인공의 -6410
▁후속작 -6411
심한 -6412
▁불가능한 -6413
▁높이 -6414
▁좌우 -6415
▁아니라는 -6416
▁보장 -6417
에겐 -6418
▁저장 -6419
▁칭찬 -6420
▁대표적으로 -6421
▁녹음 -6422
▁방법은 -6423
▁대사가 -6424
▁넷 -6425
주자 -6426
▁목소리 -6427
▁JR -6428
▁베트남 -6429
▁서양 -6430
▁이글 -6431
권은 -6432
▁문재 -6433
▁뒤에서 -6434
▁스타크래프트 -6435
▁캡틴 -6436
▁죽어 -6437
▁임시 -6438
▁네오 -6439
▁셈이다 -6440
▁이정 -6441
▁한명 -6442
▁경향이 -6443
▁잃고 -6444
퍼스 -6445
▁공군 -6446
▁찍어 -6447
▁로그 -6448
▁자동으로 -6449
▁보너 -6450
▁마리아 -6451
▁아티스트 -6452
▁찾는 -6453
▁가능성도 -6454
▁헛 -6455
▁험 -6456
▁부른 -6457
▁좋을 -6458
▁감안하면 -6459
▁무덤 -6460
츠가 -6461
▁앱 -6462
▁위주로 -6463
▁98 -6464
▁킥 -6465
봐야 -6466
▁!' -6467
양이 -6468
▁말자 -6469
▁적응 -6470
▁약점 -6471
▁보석 -6472
회말 -6473
가시 -6474
장갑 -6475
▁1992 -6476
▁찾아가 -6477
재가 -6478
모델 -6479
▁??? -6480
되었다고 -6481
▁우연히 -6482
인들의 -6483
▁데다가 -6484
▁유로 -6485
세는 -6486
▁점이다 -6487
▁빛의 -6488
▁가야 -6489
▁어택 -6490
▁1993 -6491
▁제임 -6492
▁정찰 -6493
▁지나가 -6494
대사 -6495
▁넣고 -6496
▁수십 -6497
줘서 -6498
▁향상 -6499
▁찔 -6500
▁믿고 -6501
기까지 -6502
▁이론 -6503
▁아크 -6504
▁인수 -6505
▁보여주며 -6506
▁HD -6507
급으로 -6508
탄이 -6509
▁일으키 -6510
소에서 -6511
▁꿈을 -6512
▁목소리가 -6513
▁끈 -6514
▁환승 -6515
▁챌린 -6516
▁시청자 -6517
▁횡 -6518
▁디지털 -6519
▁사람들에게 -6520
▁입을 -6521
own -6522
▁출판 -6523
졌을 -6524
졌다고 -6525
▁한국에서 -6526
▁직원 -6527
▁접촉 -6528
환을 -6529
▁심하게 -6530
▁불을 -6531
▁좋게 -6532
▁들어온 -6533
▁만나게 -6534
물에 -6535
▁잡기 -6536
▁방출 -6537
▁무방 -6538
▁무릎 -6539
▁생활을 -6540
▁컬러 -6541
▁보지 -6542
해의 -6543
▁부서 -6544
▁시절의 -6545
▁의미로 -6546
▁한정으로 -6547
▁전형적인 -6548
▁메시 -6549
▁관심 -6550
▁병력 -6551
.18 -6552
▁별개로 -6553
▁캐릭터는 -6554
▁신설 -6555
▁내장 -6556
▁사랑을 -6557
▁터치 -6558
▁미디어 -6559
▁자식 -6560
▁유닛을 -6561
년을 -6562
▁몰라도 -6563
▁은하 -6564
트에서 -6565
▁110 -6566
▁눌러 -6567
sh -6568
ng -6569
네임 -6570
것으로 -6571
▁사이의 -6572
▁있는지 -6573
▁사건의 -6574
per -6575
리우 -6576
▁마력 -6577
▁크라 -6578
속도가 -6579
▁물고 -6580
▁테스트 -6581
나카 -6582
▁전진 -6583
▁정체를 -6584
▁Pro -6585
▁렉 -6586
▁둘째 -6587
것은 -6588
▁수수 -6589
받을 -6590
네요 -6591
▁KO -6592
▁가상 -6593
▁규칙 -6594
▁세상을 -6595
면에 -6596
▁고스트 -6597
등의 -6598
▁0.5 -6599
▁어째서 -6600
▁드는 -6601
▁뜬금 -6602
팀의 -6603
▁김종 -6604
▁여신 -6605
▁$ -6606
▁유니폼 -6607
토와 -6608
▁지역에 -6609
▁씹 -6610
▁엘프 -6611
▁상급 -6612
받았다 -6613
▁기여 -6614
▁박사 -6615
▁5, -6616
▁아파트 -6617
▁준우승 -6618
▁개방 -6619
보드 -6620
▁잉글 -6621
링이 -6622
▁인원 -6623
▁늑대 -6624
▁얼굴이 -6625
▁채워 -6626
▁냄 -6627
▁'' -6628
▁이외에도 -6629
▁노부 -6630
▁전후 -6631
▁사쿠라 -6632
▁효과로 -6633
▁욕을 -6634
▁소드 -6635
.15 -6636
▁완벽한 -6637
▁스트리 -6638
하기가 -6639
▁곽 -6640
▁약간의 -6641
파가 -6642
▁시그 -6643
브라 -6644
▁스웨 -6645
▁인터뷰에서 -6646
▁죽고 -6647
▁경기는 -6648
▁선수들이 -6649
노스 -6650
▁라운드 -6651
▁그렇지만 -6652
회는 -6653
마에 -6654
▁손으로 -6655
▁충청 -6656
▁바깥 -6657
▁브루 -6658
▁심리 -6659
▁에드 -6660
▁다수의 -6661
▁호텔 -6662
▁내세 -6663
령을 -6664
▁죽는다 -6665
사업 -6666
▁수준이다 -6667
닌다 -6668
▁코미 -6669
▁깔끔 -6670
분의 -6671
▁이라 -6672
커가 -6673
▁그림자 -6674
▁PD -6675
▁51 -6676
▁자세히 -6677
▁정신을 -6678
▁올리는 -6679
▁헤이 -6680
바라 -6681
때는 -6682
LE -6683
▁스미 -6684
빌리티 -6685
▁적절한 -6686
▁GS -6687
▁버린다 -6688
▁가라 -6689
ace -6690
▁명중률 -6691
▁이외의 -6692
.20 -6693
개발 -6694
방향 -6695
즈마 -6696
색의 -6697
▁위하여 -6698
▁있었기 -6699
▁국방 -6700
▁있었을 -6701
▁의지 -6702
▁헤비 -6703
▁소수 -6704
▁되었는데 -6705
▁제갈 -6706
▁브리 -6707
▁승격 -6708
계에서 -6709
▁마시 -6710
였을 -6711
▁드라 -6712
▁통제 -6713
▁힘들어 -6714
▁잡은 -6715
▁배우는 -6716
▁Ex -6717
▁높고 -6718
▁모르고 -6719
▁신이 -6720
크와 -6721
▁매치 -6722
트릭 -6723
즈와 -6724
▁챙겨 -6725
▁정복 -6726
ice -6727
▁합체 -6728
▁물을 -6729
검을 -6730
계열 -6731
▁이명 -6732
설을 -6733
iki -6734
▁플랫폼 -6735
▁세이버 -6736
월부터 -6737
▁숨겨진 -6738
시키기 -6739
▁무시하고 -6740
▁티어 -6741
▁기독교 -6742
▁천재 -6743
▁객 -6744
▁이닝 -6745
▁고교 -6746
▁아쿠 -6747
▁차원 -6748
▁특집 -6749
현의 -6750
▁돈이 -6751
▁넥센 -6752
▁노란 -6753
▁미안 -6754
▁비주 -6755
▁시달 -6756
▁다음날 -6757
▁이것도 -6758
▁가짜 -6759
/1 -6760
▁독특 -6761
▁카라 -6762
▁눈물을 -6763
로나 -6764
▁제어 -6765
▁지형 -6766
▁요코 -6767
▁취임 -6768
▁가격이 -6769
▁이루어진 -6770
▁구사 -6771
OD -6772
▁나오기 -6773
망을 -6774
▁아이콘 -6775
▁정착 -6776
▁자리에서 -6777
유를 -6778
겠습니다 -6779
▁비싼 -6780
▁훗날 -6781
▁스마트폰 -6782
▁네임 -6783
ont -6784
▁그러니까 -6785
▁갔다 -6786
▁시너 -6787
피를 -6788
▁이끌고 -6789
▁하락 -6790
▁재현 -6791
▁맞으면 -6792
▁일방 -6793
▁기병 -6794
▁폭격 -6795
▁어려워 -6796
▁버렸다 -6797
▁일본에서 -6798
▁층 -6799
▁킨 -6800
▁등장하지 -6801
드레 -6802
히지 -6803
아는 -6804
▁과거에 -6805
▁자폭 -6806
▁캐논 -6807
▁모래 -6808
▁되었으며 -6809
▁작가의 -6810
▁덤으로 -6811
▁스턴 -6812
▁후술 -6813
▁Love -6814
란다 -6815
유닛 -6816
▁튕 -6817
▁우수 -6818
▁것일 -6819
▁일으킨 -6820
받는다 -6821
46 -6822
츠를 -6823
▁대개 -6824
▁일찍 -6825
▁탄창 -6826
▁학생들이 -6827
▁하나도 -6828
▁명령을 -6829
▁닌자 -6830
▁이용해서 -6831
▁당하는 -6832
ll -6833
쪽의 -6834
▁고등 -6835
ave -6836
▁가톨릭 -6837
계로 -6838
▁주포 -6839
▁할머니 -6840
먹고 -6841
▁잠재 -6842
ov -6843
렸던 -6844
▁윌리 -6845
▁동굴 -6846
▁의료 -6847
▁볼넷 -6848
▁날아가 -6849
▁스틸 -6850
▁지내 -6851
▁발매된 -6852
▁쏠 -6853
했다면 -6854
▁좋고 -6855
▁드림 -6856
시험 -6857
▁EP -6858
~5 -6859
▁나이가 -6860
▁퀘스트를 -6861
▁내리 -6862
▁간신 -6863
▁커리어 -6864
▁빛을 -6865
▁장군 -6866
로와 -6867
한을 -6868
IG -6869
▁김재 -6870
버전 -6871
▁업그레이 -6872
▁전철 -6873
▁각본 -6874
▁성능은 -6875
구리 -6876
▁말하며 -6877
산업 -6878
▁된다고 -6879
맨의 -6880
비에 -6881
해지고 -6882
▁의무 -6883
론은 -6884
▁수익 -6885
▁개입 -6886
하가 -6887
포인트 -6888
그라 -6889
적의 -6890
▁들려 -6891
▁이펙 -6892
▁카메라 -6893
약한 -6894
다란 -6895
▁플레이어의 -6896
▁경우에 -6897
▁중국의 -6898
▁찢 -6899
▁장전 -6900
웨어 -6901
인이다 -6902
버릴 -6903
▁계약을 -6904
▁갈라 -6905
▁핸드 -6906
▁집에서 -6907
orld -6908
겠어 -6909
▁포스 -6910
졌는데 -6911
▁플로 -6912
▁라이온 -6913
▁내보 -6914
-6 -6915
▁수류 -6916
▁공작 -6917
▁자는 -6918
▁공격할 -6919
ies -6920
▁터뜨 -6921
터미널 -6922
▁언급한 -6923
▁트랜 -6924
▁등과 -6925
관에 -6926
랑이 -6927
▁간부 -6928
도르 -6929
▁타락 -6930
▁메르 -6931
▁화를 -6932
증이 -6933
비로 -6934
식에 -6935
▁머리가 -6936
주며 -6937
레인저 -6938
▁게임에 -6939
▁빠져나 -6940
▁일명 -6941
▁적당히 -6942
▁IS -6943
욕을 -6944
▁덧붙 -6945
▁상술 -6946
▁함선 -6947
▁67 -6948
▁코코 -6949
▁고작 -6950
기록 -6951
키와 -6952
▁이나 -6953
들만 -6954
▁카오스 -6955
▁둘은 -6956
▁1988 -6957
비디오 -6958
▁블레이 -6959
▁패션 -6960
▁농구 -6961
실의 -6962
▁초반에는 -6963
크라 -6964
▁이번에는 -6965
▁구체 -6966
워치 -6967
▁도구 -6968
▁충격을 -6969
▁CV -6970
▁말하자면 -6971
▁환상 -6972
▁그들을 -6973
용을 -6974
어마 -6975
치면 -6976
티나 -6977
사거리 -6978
▁인하여 -6979
아리 -6980
마와 -6981
▁너의 -6982
▁찾기 -6983
조는 -6984
▁컸 -6985
▁사냥꾼 -6986
▁왕의 -6987
▁도끼 -6988
▁저런 -6989
▁78 -6990
▁돋 -6991
▁켈 -6992
▁침공 -6993
▁규정 -6994
▁디지몬 -6995
▁여담이지만 -6996
▁코치 -6997
▁sh -6998
▁확인할 -6999
▁깡 -7000
곡을 -7001
▁켜 -7002
▁아버지의 -7003
▁첨 -7004
MP -7005
병원 -7006
▁사용하여 -7007
▁식의 -7008
▁추억 -7009
▁런던 -7010
▁단점이 -7011
니를 -7012
▁스승 -7013
▁..." -7014
그리 -7015
▁신경쓰 -7016
▁처럼 -7017
나서 -7018
▁이상을 -7019
▁걸고 -7020
화한 -7021
여객 -7022
레어 -7023
▁SNS -7024
▁보안 -7025
시타 -7026
▁이란 -7027
령이 -7028
렬한 -7029
종을 -7030
▁싸워 -7031
▁1991 -7032
장전 -7033
▁아이스 -7034
하라는 -7035
▁전부터 -7036
으로만 -7037
▁단단 -7038
▁외의 -7039
석은 -7040
▁니코 -7041
▁개막 -7042
▁이식 -7043
▁연락 -7044
II -7045
기나 -7046
▁밝혀진 -7047
▁아마도 -7048
▁썰 -7049
▁클래식 -7050
▁않도록 -7051
▁결과적으로 -7052
▁발언을 -7053
▁2: -7054
▁혈액 -7055
영의 -7056
▁어빌리티 -7057
▁드리 -7058
▁치유 -7059
▁오지 -7060
다나 -7061
▁가문의 -7062
커의 -7063
▁역을 -7064
▁야스 -7065
▁공격력을 -7066
▁않았을 -7067
▁CPU -7068
▁이미지가 -7069
▁몰락 -7070
▁빨라 -7071
▁사카 -7072
▁올라온 -7073
▁중독 -7074
우와 -7075
▁전의 -7076
][ -7077
▁상상 -7078
자도 -7079
▁어떠한 -7080
사령 -7081
▁맞서 -7082
▁트라이 -7083
▁육성 -7084
▁곳은 -7085
▁안나 -7086
▁연관 -7087
▁스톤 -7088
▁죽이고 -7089
ber -7090
▁전체를 -7091
▁5. -7092
▁웅 -7093
음악 -7094
▁오직 -7095
▁그러자 -7096
▁위치에 -7097
900 -7098
▁군대 -7099
▁만날 -7100
▁Un -7101
▁반발 -7102
▁내지 -7103
97 -7104
▁느린 -7105
▁방사 -7106
▁병력을 -7107
재로 -7108
▁SH -7109
▁율 -7110
화와 -7111
지구 -7112
▁76 -7113
▁없다면 -7114
▁말하고 -7115
▁검찰 -7116
▁800 -7117
▁마술 -7118
+11 -7119
사이드 -7120
▁물론이고 -7121
▁지원을 -7122
▁코멘 -7123
▁들어갔 -7124
▁공성 -7125
주민 -7126
▁걸쳐 -7127
▁나오며 -7128
이든 -7129
쿠라 -7130
▁?! -7131
▁콜라보 -7132
▁앉아 -7133
▁임무를 -7134
▁떨어뜨 -7135
로워 -7136
여자 -7137
▁색깔 -7138
▁남긴 -7139
▁결과를 -7140
커를 -7141
ION -7142
나라의 -7143
▁마다 -7144
▁프라이 -7145
▁언젠 -7146
▁자체의 -7147
배가 -7148
▁130 -7149
▁카드는 -7150
▁숙련 -7151
▁흡혈 -7152
▁your -7153
▁거리를 -7154
▁총알 -7155
비와 -7156
▁있었다는 -7157
▁아이언 -7158
페이 -7159
▁세종 -7160
▁생명력 -7161
/5 -7162
▁만들기 -7163
돌이 -7164
▁오전 -7165
▁찍은 -7166
▁태어나 -7167
있게 -7168
▁알리 -7169
로서는 -7170
졌으며 -7171
▁어마어마 -7172
드에서 -7173
▁그러다가 -7174
▁남녀 -7175
구려 -7176
▁97 -7177
공학 -7178
▁꿀 -7179
▁클랜 -7180
▁영구 -7181
▁루시 -7182
양함 -7183
▁첼 -7184
▁램 -7185
러를 -7186
건을 -7187
▁위장 -7188
▁패턴이 -7189
▁나중 -7190
방에서 -7191
▁5% -7192
▁횟수 -7193
▁느낄 -7194
▁출신의 -7195
▁미스터 -7196
소로 -7197
io -7198
▁비례 -7199
지지만 -7200
▁범위가 -7201
▁오카 -7202
▁그들이 -7203
▁그들은 -7204
▁타자 -7205
▁상자 -7206
▁역사상 -7207
▁당연한 -7208
▁진짜로 -7209
▁생년 -7210
▁멘탈 -7211
▁바꾼 -7212
▁벌어진 -7213
▁일람 -7214
▁의문 -7215
▁아이를 -7216
▁가볍게 -7217
벌레 -7218
▁합니다 -7219
▁크리스탈 -7220
▁가만 -7221
집을 -7222
▁낫다 -7223
▁주었다 -7224
▁de -7225
▁플레이오프 -7226
pt -7227
▁토끼 -7228
▁프리큐어 -7229
▁똥 -7230
▁히카 -7231
▁패스 -7232
끄러 -7233
▁보관 -7234
▁가끔씩 -7235
▁나오면 -7236
▁이겨 -7237
▁널리 -7238
▁카트 -7239
EX -7240
▁검을 -7241
▁회의 -7242
▁오사카 -7243
▁도주 -7244
중앙 -7245
▁보유하고 -7246
▁왕자 -7247
▁소식을 -7248
▁망가 -7249
▁호주 -7250
▁요정 -7251
▁은행 -7252
▁생략 -7253
▁거기서 -7254
한이 -7255
워크 -7256
언이 -7257
▁구원 -7258
▁해주는 -7259
▁틀어 -7260
▁강요 -7261
하더라도 -7262
▁청소년 -7263
러의 -7264
석에 -7265
anch -7266
▁레이더 -7267
타자 -7268
9, -7269
▁멤버들이 -7270
aw -7271
▁호위 -7272
질로 -7273
▁판정이 -7274
▁금속 -7275
▁눈물 -7276
▁리가 -7277
▁다음에 -7278
▁회차 -7279
▁해상 -7280
▁방법으로 -7281
▁아케이드 -7282
▁총기 -7283
96 -7284
ream -7285
▁주제에 -7286
▁챔피언스 -7287
▁관람 -7288
▁나면 -7289
▁전공 -7290
▁팬들 -7291
▁인물이 -7292
▁애플 -7293
▁전라 -7294
▁부각 -7295
▁톰 -7296
▁농담 -7297
▁효율이 -7298
포가 -7299
▁들면 -7300
▁CF -7301
▁편입 -7302
▁간신히 -7303
교를 -7304
-15 -7305
부르크 -7306
▁72 -7307
▁잡지 -7308
▁코우 -7309
▁후계 -7310
▁신분 -7311
▁점수를 -7312
▁알바 -7313
ory -7314
▁저렴 -7315
이면서 -7316
▁+10 -7317
▁경고 -7318
리지만 -7319
▁포항 -7320
der -7321
▁위력 -7322
▁게이트 -7323
▁군주 -7324
▁무척 -7325
▁활발 -7326
▁민첩 -7327
으로서의 -7328
호와 -7329
▁유효 -7330
▁해피 -7331
▁기믹 -7332
▁의상 -7333
사무 -7334
까진 -7335
▁무지 -7336
▁한쪽 -7337
미나 -7338
명한 -7339
▁스튜디오 -7340
▁결성 -7341
겠다며 -7342
▁거다 -7343
▁25% -7344
▁타겟 -7345
▁최신 -7346
▁배차 -7347
리스의 -7348
▁유저들은 -7349
안에 -7350
▁딴 -7351
▁이전에는 -7352
▁매니저 -7353
미터 -7354
▁LV -7355
년만에 -7356
하겠다고 -7357
▁실망 -7358
▁가스 -7359
▁버린 -7360
블린 -7361
▁서부 -7362
▁삐 -7363
▁받으며 -7364
▁메리 -7365
▁사막 -7366
▁53 -7367
▁열어 -7368
▁기용 -7369
천시 -7370
는게 -7371
▁수도권 -7372
▁스프링 -7373
iss -7374
쿼터 -7375
투스 -7376
▁취급을 -7377
류의 -7378
향을 -7379
▁행위 -7380
▁감독은 -7381
▁일이다 -7382
▁무기는 -7383
▁유닛이 -7384
▁성공한다 -7385
▁문명 -7386
전과 -7387
▁데몬 -7388
세스 -7389
파로 -7390
희가 -7391
▁편이라 -7392
▁160 -7393
▁마법소녀 -7394
▁한글판 -7395
▁사마 -7396
▁직전에 -7397
▁헐 -7398
▁이은 -7399
자치 -7400
▁성남 -7401
▁손가락 -7402
▁길드 -7403
보이 -7404
▁느낀 -7405
▁공개되었다 -7406
▁법률 -7407
후반 -7408
▁자리잡 -7409
해가 -7410
중이다 -7411
국에 -7412
▁집을 -7413
▁포르투 -7414
오와 -7415
직한 -7416
루는 -7417
타카 -7418
이동 -7419
하고자 -7420
▁금방 -7421
▁생년월 -7422
▁데드 -7423
▁이민 -7424
공원 -7425
▁거듭 -7426
▁삼진 -7427
부장 -7428
▁김현 -7429
▁초중 -7430
ET -7431
석의 -7432
▁떠오 -7433
▁어린이 -7434
▁무기가 -7435
필드 -7436
▁평타 -7437
▁수업 -7438
자면 -7439
▁것이며 -7440
공화 -7441
▁혹시 -7442
▁주사 -7443
사우 -7444
▁휴대 -7445
공사 -7446
들보다 -7447
ian -7448
▁보여줬다 -7449
▁아즈 -7450
된다는 -7451
▁한번에 -7452
▁모를 -7453
▁하나씩 -7454
하자마자 -7455
▁쉐 -7456
▁마키 -7457
▁유통 -7458
44 -7459
▁위원 -7460
▁거짓말 -7461
주었다 -7462
리는데 -7463
탄의 -7464
▁연방 -7465
▁사용이 -7466
▁잔뜩 -7467
디를 -7468
▁또다시 -7469
▁15% -7470
▁기숙 -7471
▁저질 -7472
▁곤란 -7473
▁비공 -7474
▁지뢰 -7475
▁죽이는 -7476
▁부딪 -7477
▁BPM -7478
▁나타난다 -7479
ile -7480
러니 -7481
았으며 -7482
▁스플 -7483
▁왈 -7484
▁닭 -7485
▁대미지가 -7486
되었다는 -7487
▁자극 -7488
▁격추 -7489
▁홈런을 -7490
▁국립 -7491
▁We -7492
▁용도로 -7493
ost -7494
군으로 -7495
ww -7496
man -7497
사이트 -7498
▁개시 -7499
▁재밌 -7500
▁남아있 -7501
IP -7502
▁늘어난 -7503
▁공격한다 -7504
▁방송에서 -7505
▁PV -7506
국어 -7507
▁로스 -7508
▁가을 -7509
▁움직이는 -7510
맨이 -7511
▁정치적 -7512
▁나도 -7513
망이 -7514
▁유사한 -7515
▁뮤직비디오 -7516
▁군인 -7517
▁정도였다 -7518
▁완벽하게 -7519
▁하차 -7520
▁that -7521
▁당하고 -7522
▁140 -7523
생을 -7524
▁언더 -7525
▁트럼 -7526
▁생각해보면 -7527
▁가시 -7528
적은 -7529
▁바이오 -7530
▁지팡 -7531
▁코믹 -7532
▁휩 -7533
으니까 -7534
버그 -7535
박을 -7536
▁몰랐 -7537
▁이끄는 -7538
▁유치 -7539
▁알아서 -7540
수사 -7541
▁미쿠 -7542
ther -7543
:10 -7544
▁마코 -7545
단과 -7546
▁라인업 -7547
▁소지 -7548
▁이집 -7549
안의 -7550
▁먹어 -7551
단체 -7552
▁아들이 -7553
▁무렵 -7554
▁난입 -7555
나이트 -7556
▁96 -7557
루타 -7558
▁리얼 -7559
▁형식 -7560
▁이용하는 -7561
▁알렉산 -7562
함으로써 -7563
법은 -7564
▁드레 -7565
▁크리스마스 -7566
지기도 -7567
▁사전 -7568
유럽 -7569
▁슛 -7570
이었으며 -7571
▁적어 -7572
우기 -7573
▁멜로 -7574
▁시스템을 -7575
보로 -7576
타운 -7577
년생 -7578
▁토론 -7579
▁장악 -7580
▁구하기 -7581
▁공허 -7582
졌던 -7583
▁무서운 -7584
▁아일랜드 -7585
▁스팀 -7586
내지 -7587
포로 -7588
전설 -7589
경에 -7590
해서는 -7591
▁단편 -7592
해질 -7593
듯한 -7594
▁메달 -7595
▁1:1 -7596
움이 -7597
▁청년 -7598
▁칼날 -7599
커스 -7600
▁지휘관 -7601
▁피해가 -7602
▁플레이어를 -7603
아와 -7604
www -7605
▁인증 -7606
▁중립 -7607
▁결과는 -7608
rom -7609
▁마그 -7610
션을 -7611
▁악역 -7612
고속도로 -7613
▁무관 -7614
터테인먼트 -7615
게이 -7616
▁미치 -7617
▁기뻐 -7618
▁쉽지 -7619
▁잘못된 -7620
▁귀환 -7621
▁Com -7622
▁유나이 -7623
패로 -7624
▁기울 -7625
▁CJ -7626
요시 -7627
▁전시 -7628
▁탈퇴 -7629
능력을 -7630
고로 -7631
스트가 -7632
내가 -7633
인도 -7634
▁1989 -7635
▁mm -7636
▁물려 -7637
바의 -7638
▁멋진 -7639
▁잉글랜드 -7640
▁투구 -7641
졌다는 -7642
어와 -7643
회차 -7644
▁기관총 -7645
우며 -7646
▁시노 -7647
▁유저들의 -7648
백을 -7649
▁쭉 -7650
▁윌리엄 -7651
▁질문 -7652
▁연료 -7653
▁게임은 -7654
번은 -7655
▁예로 -7656
차례 -7657
▁들어가면 -7658
▁살펴 -7659
▁들여 -7660
▁추종 -7661
▁스킬은 -7662
▁페이즈 -7663
▁유대 -7664
Hz -7665
▁행운 -7666
▁화려한 -7667
▁당시에 -7668
▁추구 -7669
▁둘의 -7670
▁출마 -7671
바닥 -7672
.17 -7673
로만 -7674
▁레알 -7675
▁천사 -7676
anchor -7677
300 -7678
▁회장 -7679
;& -7680
▁수준이 -7681
▁페널티 -7682
성능 -7683
:20 -7684
▁명을 -7685
▁주간 -7686
▁블레이드 -7687
이었기 -7688
▁처형 -7689
들과의 -7690
▁빼고 -7691
▁적합 -7692
▁유독 -7693
▁먹은 -7694
▁2.0 -7695
▁뿔 -7696
▁유희왕 -7697
▁It -7698
▁조별 -7699
▁엿 -7700
▁반사 -7701
▁나츠 -7702
플렉 -7703
▁넣는 -7704
IVE -7705
▁명확 -7706
▁저작 -7707
인데다 -7708
▁실드 -7709
▁문재인 -7710
▁전반적으로 -7711
스트의 -7712
.00 -7713
▁친구가 -7714
▁새끼 -7715
▁노리 -7716
▁어딘 -7717
▁부상으로 -7718
▁심판 -7719
▁휘말 -7720
▁아니라면 -7721
▁찾을 -7722
▁정황 -7723
▁냄새 -7724
▁설정을 -7725
경의 -7726
▁비상 -7727
저씨 -7728
▁매력 -7729
▁그러다 -7730
▁블러드 -7731
▁상업 -7732
가미 -7733
▁교황 -7734
▁미술 -7735
]] -7736
▁되기도 -7737
▁출연한 -7738
야만 -7739
▁죽지 -7740
▁멕시코 -7741
▁갖춘 -7742
▁타쿠 -7743
▁묘사가 -7744
▁그랜드 -7745
▁주인공은 -7746
프와 -7747
▁늦게 -7748
▁이른 -7749
▁커다란 -7750
▁1~2 -7751
훈련 -7752
▁전설의 -7753
▁내고 -7754
▁히나 -7755
디의 -7756
▁곳곳 -7757
▁미라 -7758
▁식민 -7759
니는 -7760
몬드 -7761
▁참석 -7762
▁WWE -7763
▁구글 -7764
▁넣은 -7765
▁답이 -7766
VD -7767
거를 -7768
▁김대 -7769
바나 -7770
통이 -7771
▁거울 -7772
▁공화국 -7773
▁동일하다 -7774
▁귀여운 -7775
▁문서를 -7776
▁이어서 -7777
▁현역 -7778
▁조건을 -7779
▁세상 -7780
▁공룡 -7781
일본 -7782
지인 -7783
통신 -7784
▁키워 -7785
학자 -7786
▁곳을 -7787
▁감정을 -7788
저럭 -7789
▁브레이크 -7790
▁지역을 -7791
▁발달 -7792
▁업데이트로 -7793
▁초록 -7794
▁채팅 -7795
▁생년월일 -7796
▁스페이스 -7797
▁고위 -7798
▁&# -7799
▁왠지 -7800
▁집으로 -7801
▁통산 -7802
▁후반에 -7803
▁작품이 -7804
▁경기에 -7805
▁1970 -7806
▁ED -7807
▁아틀 -7808
▁현재까지 -7809
▁이젠 -7810
▁끔찍 -7811
▁주변의 -7812
▁그럭 -7813
▁심지어는 -7814
▁숨어 -7815
▁요약 -7816
SP -7817
▁카카 -7818
와도 -7819
▁존재를 -7820
.16 -7821
▁드롭 -7822
▁사용되는 -7823
▁선전 -7824
시하는 -7825
▁확실한 -7826
▁언급이 -7827
나고 -7828
▁대우 -7829
▁사랑하는 -7830
왔던 -7831
▁동부 -7832
▁에너지를 -7833
되게 -7834
▁블라 -7835
▁터키 -7836
OU -7837
▁걸맞 -7838
▁시간에 -7839
체육 -7840
.5% -7841
네의 -7842
ky -7843
▁메모리 -7844
▁챔피언십 -7845
▁공식적으로 -7846
▁서번 -7847
IM -7848
▁부를 -7849
▁속도를 -7850
생의 -7851
▁개량 -7852
▁시절에 -7853
▁이미지를 -7854
▁시청률 -7855
▁당일 -7856
▁톱 -7857
렸다고 -7858
▁곡이 -7859
▁전체적인 -7860
▁출입 -7861
▁오마 -7862
▁AD -7863
▁생긴다 -7864
드래 -7865
▁재판 -7866
▁상관없이 -7867
명에 -7868
▁그럭저럭 -7869
▁결말 -7870
▁초기에는 -7871
▁제가 -7872
님을 -7873
▁글로벌 -7874
VA -7875
▁보다는 -7876
가서 -7877
▁후배 -7878
▁신화 -7879
▁장비를 -7880
▁시작으로 -7881
▁준수한 -7882
▁최소한 -7883
각이 -7884
▁뛰어넘 -7885
▁과정을 -7886
▁사라진다 -7887
▁당신의 -7888
▁차가 -7889
▁어뢰 -7890
▁사우 -7891
▁점도 -7892
다를 -7893
리케 -7894
▁해골 -7895
▁존재가 -7896
렇게 -7897
▁티켓 -7898
▁기운 -7899
▁않는다고 -7900
▁원칙 -7901
무장 -7902
▁나아가 -7903
▁우리나라 -7904
▁보여줬 -7905
소속 -7906
▁양쪽 -7907
/20 -7908
▁왕이 -7909
▁일제 -7910
▁2~3 -7911
▁간접 -7912
▁비판을 -7913
생이 -7914
제국 -7915
▁영상이 -7916
▁답변 -7917
▁부러 -7918
▁어필 -7919
▁원딜 -7920
▁장면은 -7921
▁낮다 -7922
들인 -7923
▁본다 -7924
▁그것은 -7925
▁플레이어는 -7926
▁건지 -7927
▁펑 -7928
▁빌드 -7929
▁성립 -7930
▁작품을 -7931
ale -7932
▁정수 -7933
▁자연스럽게 -7934
교의 -7935
▁차를 -7936
▁마비 -7937
orm -7938
인데도 -7939
는가 -7940
▁목을 -7941
▁권장 -7942
▁특성을 -7943
ys -7944
;&# -7945
▁뜻을 -7946
▁한국에서는 -7947
시에는 -7948
▁급격 -7949
거리를 -7950
났고 -7951
▁토벌 -7952
▁면에서 -7953
▁조연 -7954
▁체인 -7955
▁배트맨 -7956
버를 -7957
▁관할 -7958
▁뻗 -7959
물은 -7960
하를 -7961
▁피할 -7962
-16 -7963
UM -7964
▁사후 -7965
▁공격으로 -7966
▁초등학교 -7967
▁AM -7968
▁상호 -7969
▁물건을 -7970
던지 -7971
▁옳 -7972
▁사람에게 -7973
하진 -7974
▁책을 -7975
▁가르쳐 -7976
▁가벼 -7977
두는 -7978
▁음성 -7979
▁원인 -7980
▁불펜 -7981
▁집착 -7982
▁화가 -7983
코어 -7984
브가 -7985
▁브로 -7986
▁연금 -7987
▁부분에 -7988
▁소위 -7989
▁체크 -7990
▁세븐 -7991
조로 -7992
▁흩 -7993
▁동작 -7994
▁대단한 -7995
▁아니며 -7996
▁트롤 -7997
▁따온 -7998
도에서 -7999
해보면 -8000
경우 -8001
az -8002
▁민주당 -8003
TE -8004
차량 -8005
▁신앙 -8006
▁지역에서 -8007
▁얻고 -8008
▁오랜만에 -8009
▁아트 -8010
국제 -8011
▁피아노 -8012
▁되었을 -8013
▁못했고 -8014
▁톤 -8015
▁스웨덴 -8016
▁처음에 -8017
▁당했다 -8018
닉스 -8019
▁데다 -8020
▁단축 -8021
기기 -8022
▁지식 -8023
▁호칭 -8024
arg -8025
▁승객 -8026
▁상영 -8027
다리 -8028
sp -8029
▁돌입 -8030
블로 -8031
▁라이프 -8032
인한 -8033
▁연속으로 -8034
▁죽기 -8035
▁연극 -8036
▁대인 -8037
되던 -8038
▁건드 -8039
▁의견을 -8040
위해 -8041
▁장탄 -8042
▁파리 -8043
▁위대한 -8044
▁공격은 -8045
▁노르 -8046
▁사살 -8047
▁커녕 -8048
▁이상이 -8049
▁중의 -8050
94 -8051
▁끝날 -8052
터는 -8053
정과 -8054
▁대표팀 -8055
▁펫 -8056
발로 -8057
▁제임스 -8058
▁사망한 -8059
▁오류 -8060
▁기록하며 -8061
산의 -8062
▁번개 -8063
▁부스터 -8064
▁1987 -8065
든다 -8066
▁앞두고 -8067
급이 -8068
▁분명히 -8069
▁애매한 -8070
▁목표로 -8071
▁완결 -8072
▁전해 -8073
구와 -8074
▁생기는 -8075
캐릭터 -8076
▁세대 -8077
누리 -8078
보병 -8079
▁자막 -8080
▁우수한 -8081
지나 -8082
▁비교하면 -8083
▁계기로 -8084
▁즉사 -8085
▁62 -8086
▁팬텀 -8087
▁사유 -8088
▁영국의 -8089
▁것인데 -8090
▁전투에 -8091
편에 -8092
▁엑스트라 -8093
▁이유를 -8094
양을 -8095
박스 -8096
▁때에 -8097
▁Gr -8098
▁아나운 -8099
▁윗 -8100
▁보완 -8101
▁무시무 -8102
▁타마 -8103
▁시즌을 -8104
▁아파 -8105
▁두들 -8106
▁유카 -8107
▁적중 -8108
▁체중 -8109
▁성공한 -8110
▁너프 -8111
▁고수 -8112
▁로얄 -8113
▁확실하게 -8114
▁칼을 -8115
▁바퀴 -8116
ows -8117
▁위치해 -8118
▁노려 -8119
▁사라졌다 -8120
▁다음으로 -8121
▁미군 -8122
▁스텔 -8123
▁타는 -8124
감한 -8125
ish -8126
▁가려 -8127
▁사용하기 -8128
되어있다 -8129
▁체계 -8130
GE -8131
▁뜻하는 -8132
클럽 -8133
▁세계에서 -8134
▁내야 -8135
리에게 -8136
▁상대에게 -8137
▁맛이 -8138
▁시드 -8139
▁시작하는 -8140
▁마라 -8141
▁에그 -8142
▁하나만 -8143
▁리뷰 -8144
▁시체 -8145
일보 -8146
약이 -8147
▁경우엔 -8148
족이 -8149
후의 -8150
▁LC -8151
▁전문가 -8152
85 -8153
모의 -8154
▁괜히 -8155
브의 -8156
리라 -8157
▁태평 -8158
ade -8159
선과 -8160
▁마법의 -8161
▁상대는 -8162
▁뿜 -8163
yle -8164
:40 -8165
▁곡이다 -8166
데미 -8167
▁등장하며 -8168
▁BL -8169
▁면이 -8170
▁숭 -8171
▁많지만 -8172
배우 -8173
▁의견도 -8174
▁승강장 -8175
▁실수로 -8176
웠던 -8177
▁나무위키 -8178
▁필리 -8179
했기에 -8180
▁클라 -8181
▁6, -8182
▁얻게 -8183
ug -8184
율은 -8185
▁인물로 -8186
▁묻자 -8187
▁적다 -8188
▁더군 -8189
▁고문 -8190
▁머물 -8191
▁3000 -8192
▁신비 -8193
발의 -8194
▁매년 -8195
▁듣는 -8196
▁KBO -8197
▁네덜란드 -8198
복이 -8199
▁두려워 -8200
린을 -8201
▁상처를 -8202
▁AS -8203
▁꼼 -8204
▁느낌을 -8205
크스 -8206
▁밝히 -8207
▁시스템이 -8208
▁시내버스 -8209
▁기사가 -8210
회초 -8211
▁용사 -8212
▁전투가 -8213
▁발라 -8214
▁이자 -8215
▁평을 -8216
▁현장 -8217
tle -8218
▁머리에 -8219
▁팀원 -8220
서에 -8221
것이다 -8222
▁심심 -8223
▁호감 -8224
▁팽 -8225
▁그렇고 -8226
▁와일드 -8227
▁전작의 -8228
▁캐리 -8229
ex -8230
진과 -8231
ps -8232
ook -8233
▁싶다면 -8234
▁의미를 -8235
▁RPG -8236
▁후에도 -8237
월드 -8238
우지 -8239
아야 -8240
▁101 -8241
▁도둑 -8242
▁뜻이다 -8243
사관 -8244
습을 -8245
▁입장에서 -8246
▁전쟁이 -8247
▁일일 -8248
시즈 -8249
▁진보 -8250
▁근본 -8251
▁버그가 -8252
▁누르면 -8253
ike -8254
▁이벤트가 -8255
▁페이스북 -8256
소총 -8257
▁버스터 -8258
act -8259
▁샌드 -8260
ower -8261
위권 -8262
▁시라 -8263
더러 -8264
▁이수 -8265
정도로 -8266
르며 -8267
▁매달 -8268
▁비주얼 -8269
▁교전 -8270
irl -8271
▁FIFA -8272
▁승점 -8273
▁아츠 -8274
▁한국인 -8275
▁자전 -8276
▁Team -8277
66 -8278
▁사이버 -8279
ink -8280
▁익스 -8281
▁신문 -8282
▁일행이 -8283
▁Or -8284
나가는 -8285
▁예정이다 -8286
▁나선 -8287
레가 -8288
▁당신이 -8289
▁언데 -8290
▁언덕 -8291
시다 -8292
▁캘 -8293
코드 -8294
▁by -8295
▁발렌 -8296
▁앨리스 -8297
사회 -8298
받지 -8299
▁취미 -8300
▁프레임 -8301
▁OP -8302
▁오라 -8303
▁https -8304
▁기록한 -8305
▁드럼 -8306
▁거지 -8307
▁엘리트 -8308
▁Fl -8309
ash -8310
▁포트 -8311
대상 -8312
▁저택 -8313
▁스즈 -8314
▁라이플 -8315
▁본명 -8316
▁쪽은 -8317
▁트레이드 -8318
디움 -8319
▁더군다나 -8320
▁나은 -8321
▁유이 -8322
▁40% -8323
7, -8324
▁제작한 -8325
편이 -8326
atch -8327
영웅 -8328
▁빼면 -8329
pl -8330
바가 -8331
강에 -8332
▁최종보스 -8333
급을 -8334
▁인간을 -8335
▁선두 -8336
▁심장 -8337
▁바닥에 -8338
▁요소가 -8339
달라는 -8340
▁인물이다 -8341
▁지속시간 -8342
▁턱 -8343
에서부터 -8344
고에 -8345
▁싹 -8346
▁실점 -8347
▁사자 -8348
십시오 -8349
▁활성화 -8350
▁깨달 -8351
▁사이드 -8352
▁상기 -8353
림이 -8354
▁클레 -8355
나기 -8356
▁부가 -8357
▁ch -8358
▁회원 -8359
▁진심으로 -8360
▁하이퍼 -8361
▁이벤트를 -8362
▁기지 -8363
▁기가 -8364
▁시절에는 -8365
▁어이 -8366
있는데 -8367
더의 -8368
▁대지 -8369
▁몬스터가 -8370
▁간간 -8371
▁높게 -8372
▁채택 -8373
▁히어로즈 -8374
▁좁은 -8375
▁개정 -8376
▁햄 -8377
▁들었다 -8378
▁모습도 -8379
▁지불 -8380
저스 -8381
▁위력을 -8382
▁전주 -8383
무가 -8384
▁토너 -8385
▁뱀파이어 -8386
▁삽입 -8387
▁에반 -8388
가면 -8389
▁나간 -8390
소는 -8391
역사 -8392
▁자격 -8393
▁조조 -8394
▁된다면 -8395
▁굿 -8396
손으로 -8397
▁올라오 -8398
ial -8399
라엘 -8400
▁게스트 -8401
▁중첩 -8402
▁진실 -8403
인치 -8404
▁사라져 -8405
▁이슈 -8406
▁남부 -8407
판으로 -8408
▁근거리 -8409
▁다리를 -8410
▁문자 -8411
▁철저 -8412
▁침묵 -8413
▁악몽 -8414
▁많지 -8415
머가 -8416
▁가지게 -8417
▁카더라 -8418
▁카를 -8419
로써 -8420
▁오래된 -8421
▁떠난 -8422
역은 -8423
▁임팩 -8424
▁가격은 -8425
ms -8426
▁아끼 -8427
▁가치가 -8428
▁올렸다 -8429
▁플레이가 -8430
▁FW -8431
인듯 -8432
는지는 -8433
▁녹색 -8434
▁가동 -8435
TS -8436
슬링 -8437
▁편이지만 -8438
▁학력 -8439
▁플래그 -8440
▁다스 -8441
▁1: -8442
▁맷 -8443
▁무사히 -8444
▁말라고 -8445
▁유력 -8446
이랑 -8447
▁이종 -8448
▁웬만한 -8449
▁이끌어 -8450
▁사건으로 -8451
▁의미한다 -8452
▁서포터 -8453
▁퍼포 -8454
▁피가 -8455
▁시절부터 -8456
▁넣을 -8457
▁아기 -8458
▁사야 -8459
▁상점 -8460
▁디젤 -8461
합이 -8462
▁올스타 -8463
▁스킬로 -8464
▁일격 -8465
▁Dr -8466
▁폐쇄 -8467
▁영광 -8468
▁발생한다 -8469
ae -8470
▁펄 -8471
어버리는 -8472
▁증언 -8473
▁아테 -8474
▁침략 -8475
▁코난 -8476
▁실종 -8477
▁정도이다 -8478
▁노리고 -8479
주일 -8480
상황 -8481
속에 -8482
▁럭 -8483
▁뒤집어 -8484
리거나 -8485
▁무력화 -8486
▁얘기를 -8487
▁아메리카 -8488
▁와중 -8489
ft -8490
▁발생한 -8491
비드 -8492
▁카츠 -8493
행이 -8494
▁독특한 -8495
▁트럭 -8496
▁얻기 -8497
▁장면에서 -8498
▁영어판 -8499
▁너희 -8500
▁키가 -8501
▁반해 -8502
▁결과가 -8503
▁펌 -8504
▁있음을 -8505
▁Sc -8506
▁교사 -8507
제와 -8508
▁스토리가 -8509
▁뮤지컬 -8510
▁오늘날 -8511
▁안녕 -8512
▁노리는 -8513
▁무라 -8514
▁일으켜 -8515
▁방지 -8516
루수 -8517
▁매번 -8518
학원 -8519
▁갑작 -8520
▁발을 -8521
▁세르 -8522
▁소재로 -8523
차는 -8524
▁음원 -8525
▁걸리는 -8526
단에서 -8527
▁정예 -8528
▁어머니가 -8529
▁시원 -8530
▁설정상 -8531
치면서 -8532
55 -8533
서로 -8534
▁교장 -8535
인들을 -8536
▁아래에 -8537
▁공공 -8538
▁동의 -8539
더가 -8540
▁61 -8541
▁포켓몬스터 -8542
▁전체가 -8543
▁팬들에게 -8544
▁속도로 -8545
▁팀에 -8546
▁빌려 -8547
▁이혼 -8548
▁부분에서 -8549
▁불이 -8550
92 -8551
▁1.2 -8552
▁넘어서 -8553
곡으로 -8554
▁비하 -8555
▁슬라이 -8556
▁전까지는 -8557
▁건조 -8558
타수 -8559
▁닮은 -8560
▁용서 -8561
▁바뀐다 -8562
당은 -8563
▁있듯이 -8564
▁들어올 -8565
너가 -8566
▁불렀 -8567
▁사령관 -8568
▁날카 -8569
▁간단히 -8570
▁속으로 -8571
▁대거 -8572
▁기종 -8573
▁콘서트 -8574
하길 -8575
▁그러한 -8576
▁몽골 -8577
▁인스타 -8578
▁위기 -8579
▁만남 -8580
▁올릴 -8581
.14 -8582
▁술을 -8583
설이 -8584
▁록맨 -8585
키퍼 -8586
ING -8587
▁가만히 -8588
▁1986 -8589
저의 -8590
연속 -8591
▁밑에 -8592
▁영원히 -8593
▁루카 -8594
▁칩 -8595
▁호흡 -8596
▁코토 -8597
종합 -8598
티스 -8599
ble -8600
▁미네 -8601
▁취향 -8602
▁압도적으로 -8603
▁트리플 -8604
▁le -8605
▁밝힌 -8606
고한 -8607
▁어두운 -8608
▁진실을 -8609
▁아래의 -8610
▁문학 -8611
▁기록이 -8612
사기 -8613
▁식물 -8614
▁파생 -8615
문은 -8616
▁재장전 -8617
나간 -8618
번으로 -8619
▁불렀다 -8620
▁비웃 -8621
▁업로드 -8622
▁1500 -8623
란의 -8624
▁74 -8625
▁원인이 -8626
▁수능 -8627
▁2.5 -8628
고도 -8629
▁도서관 -8630
▁구경 -8631
:50 -8632
▁소속팀 -8633
▁상대방 -8634
▁베네 -8635
▁고기 -8636
▁한두 -8637
▁!? -8638
▁스토리를 -8639
▁아이러니 -8640
▁이루어져 -8641
속이 -8642
라이브 -8643
▁마블 -8644
▁사례가 -8645
▁끊어 -8646
▁유의 -8647
스레 -8648
살을 -8649
서야 -8650
▁포르투갈 -8651
▁형사 -8652
▁남북 -8653
▁부드 -8654
시스트 -8655
▁어드벤 -8656
째로 -8657
▁생각할 -8658
▁퀴 -8659
기어 -8660
하마 -8661
▁차기 -8662
▁출격 -8663
▁타격을 -8664
▁CG -8665
-19 -8666
▁억지로 -8667
▁최근에는 -8668
▁했었다 -8669
걸로 -8670
▁엔젤 -8671
▁써야 -8672
▁세이브 -8673
루와 -8674
인들 -8675
데다가 -8676
▁수술 -8677
▁지시 -8678
▁초창기 -8679
▁보정 -8680
▁사용된다 -8681
▁탐험 -8682
▁해준다 -8683
▁거미 -8684
▁메이플 -8685
▁대대 -8686
▁잠입 -8687
▁몬스터의 -8688
▁한마디로 -8689
▁전신 -8690
▁침입 -8691
▁탱크 -8692
▁주차 -8693
▁숫자 -8694
▁우리의 -8695
▁구슬 -8696
▁타츠 -8697
▁자랑하는 -8698
▁치명적인 -8699
슨이 -8700
▁프리미엄 -8701
▁위반 -8702
▁마약 -8703
▁유발 -8704
진에 -8705
▁정식으로 -8706
▁받아들여 -8707
▁수를 -8708
▁은신 -8709
▁영화를 -8710
스테이지 -8711
▁혁명 -8712
되거나 -8713
▁아르헨 -8714
팅을 -8715
▁유격 -8716
▁오디션 -8717
▁시리즈에 -8718
▁오타 -8719
▁87 -8720
▁미즈 -8721
▁인피 -8722
▁외전 -8723
▁버튼을 -8724
득점 -8725
▁이주 -8726
▁쟈 -8727
▁전체의 -8728
▁63 -8729
▁카구 -8730
▁명칭은 -8731
▁경험이 -8732
▁가치 -8733
▁키스 -8734
법에 -8735
▁길어 -8736
일과 -8737
▁ID -8738
▁장점이 -8739
히트 -8740
▁그랑 -8741
▁발생하는 -8742
건이 -8743
▁구할 -8744
▁단행 -8745
▁인디 -8746
▁김경 -8747
▁스킬의 -8748
▁동기 -8749
▁전장 -8750
이거나 -8751
▁보내는 -8752
신교 -8753
▁후반부 -8754
~6 -8755
▁버리는 -8756
▁새롭게 -8757
아키 -8758
섰다 -8759
▁제외하고는 -8760
관광 -8761
▁적군 -8762
▁포격 -8763
-17 -8764
▁카드로 -8765
▁일원 -8766
▁적지 -8767
▁방어력이 -8768
▁일로 -8769
▁귀엽 -8770
▁슈퍼로봇 -8771
▁정확하게 -8772
▁오버워치 -8773
조사 -8774
▁골을 -8775
▁같다고 -8776
▁예언 -8777
▁해킹 -8778
▁쌍둥이 -8779
▁쏜 -8780
▁승률 -8781
▁공지 -8782
▁귀신 -8783
▁시계 -8784
▁시간은 -8785
▁동영상 -8786
▁퍼포먼 -8787
▁마드리 -8788
ous -8789
▁좋아한다 -8790
▁에픽 -8791
▁출시된 -8792
▁개업 -8793
▁자치 -8794
▁유리한 -8795
▁위기를 -8796
▁태도를 -8797
▁네트 -8798
왕을 -8799
보이는 -8800
▁중요하다 -8801
결을 -8802
▁최하 -8803
▁언급된 -8804
▁기아 -8805
▁빅토 -8806
▁주인공을 -8807
▁듯이 -8808
해주고 -8809
▁공기 -8810
▁특히나 -8811
." -8812
월에는 -8813
▁능력으로 -8814
집이 -8815
이었다는 -8816
동은 -8817
▁둘을 -8818
▁없으므로 -8819
▁궁금 -8820
▁중형 -8821
마츠 -8822
▁기회가 -8823
레인지 -8824
▁화성 -8825
범위 -8826
포의 -8827
▁캐스터 -8828
▁과목 -8829
▁동양 -8830
▁처참 -8831
▁이하의 -8832
▁쓸데 -8833
▁동성 -8834
▁아랍 -8835
▁양의 -8836
▁동화 -8837
▁이긴 -8838
▁주둔 -8839
▁왜냐 -8840
▁파는 -8841
▁천안 -8842
숙한 -8843
▁3: -8844
바야 -8845
▁안좋 -8846
AY -8847
는데도 -8848
▁레이드 -8849
▁너는 -8850
▁War -8851
▁위력이 -8852
▁사거리가 -8853
▁막내 -8854
▁있겠지만 -8855
군요 -8856
▁폴란드 -8857
▁나오기도 -8858
했듯이 -8859
타이어 -8860
▁투어 -8861
▁느려 -8862
▁하향 -8863
봤자 -8864
▁음악을 -8865
▁고구려 -8866
데레 -8867
▁않았다고 -8868
▁유나이티드 -8869
▁나타나는 -8870
▁대치 -8871
▁캔슬 -8872
곡이 -8873
▁초반부터 -8874
▁구성되어 -8875
마크 -8876
AP -8877
now -8878
▁일치 -8879
름이 -8880
▁그러던 -8881
▁나왔던 -8882
▁전북 -8883
저가 -8884
▁없으나 -8885
▁적들을 -8886
야는 -8887
▁캠페인 -8888
▁요구하는 -8889
▁브레 -8890
idth -8891
순위 -8892
전기 -8893
▁목소리를 -8894
▁꿰 -8895
▁인게임 -8896
▁신입 -8897
▁좋다고 -8898
▁느끼고 -8899
▁첩 -8900
▁튼 -8901
▁폭력 -8902
▁작곡가 -8903
테르 -8904
▁별도의 -8905
타점 -8906
▁반박 -8907
▁fe -8908
▁700 -8909
▁대다수 -8910
MS -8911
▁기술로 -8912
디는 -8913
더를 -8914
▁제도 -8915
▁정차 -8916
엔딩 -8917
▁혼돈 -8918
▁측에서 -8919
▁84 -8920
▁좋아서 -8921
▁수백 -8922
▁팔을 -8923
노트 -8924
▁And -8925
음에 -8926
주에 -8927
▁일행을 -8928
▁금메달 -8929
▁SE -8930
▁음식을 -8931
체인 -8932
싸움 -8933
▁수치가 -8934
▁관련이 -8935
산시 -8936
▁데에 -8937
▁대하여 -8938
정상 -8939
▁지키는 -8940
▁곳이다 -8941
번과 -8942
▁손오 -8943
▁쏘는 -8944
▁아저씨 -8945
▁보면서 -8946
▁주장하는 -8947
▁실수 -8948
▁기회 -8949
▁창원 -8950
▁처음엔 -8951
▁교회 -8952
▁프렌 -8953
▁커피 -8954
▁히토 -8955
▁입장을 -8956
준이 -8957
가리 -8958
추어 -8959
▁또다른 -8960
환의 -8961
▁사용자 -8962
▁세부 -8963
족을 -8964
▁사태가 -8965
▁Wind -8966
▁딜을 -8967
▁무의 -8968
▁현상이 -8969
▁ㅣ -8970
▁선제 -8971
▁더이상 -8972
▁XX -8973
amp -8974
▁발매일 -8975
▁아미 -8976
▁일어나는 -8977
▁쟁 -8978
경기에서 -8979
축구 -8980
온의 -8981
▁끝난다 -8982
▁이동속도 -8983
스런 -8984
카라 -8985
▁깜짝 -8986
▁부문 -8987
-18 -8988
▁구축함 -8989
하고는 -8990
냈고 -8991
장비 -8992
▁상의 -8993
▁코리아 -8994
▁훼 -8995
▁배포 -8996
혀서 -8997
▁콜로 -8998
~19 -8999
▁돌아가는 -9000
방으로 -9001
▁하나이다 -9002
열을 -9003
▁사귀 -9004
▁그레 -9005
포트 -9006
▁감지 -9007
과정 -9008
▁보이는데 -9009
▁지나지 -9010
▁역시나 -9011
▁사제 -9012
▁하츠 -9013
▁씌 -9014
셔널 -9015
▁정통 -9016
▁김상 -9017
▁요원 -9018
▁친한 -9019
가스 -9020
▁아군의 -9021
▁루이 -9022
먹은 -9023
▁Go -9024
▁난이도는 -9025
▁테라 -9026
▁삶을 -9027
능력이 -9028
▁여학생 -9029
ree -9030
77 -9031
배로 -9032
민은 -9033
▁임대 -9034
버가 -9035
▁수출 -9036
▁토르 -9037
▁조금만 -9038
STER -9039
▁법정 -9040
공간 -9041
국은 -9042
▁가챠 -9043
▁치면 -9044
기능 -9045
▁7, -9046
▁}} -9047
▁용인 -9048
침을 -9049
▁연타 -9050
▁가디언 -9051
▁주인공인 -9052
면에서 -9053
▁마린 -9054
니시 -9055
▁당할 -9056
▁여기는 -9057
oll -9058
▁니콜 -9059
▁돌아와 -9060
▁배를 -9061
▁블래 -9062
▁출력 -9063
▁투척 -9064
▁모니 -9065
▁대상을 -9066
▁여지가 -9067
매를 -9068
희의 -9069
▁파멸 -9070
▁we -9071
▁막는 -9072
▁고마 -9073
▁들어오는 -9074
▁출연했다 -9075
스러워 -9076
병의 -9077
▁스파이더 -9078
품이 -9079
▁도저히 -9080
▁5000 -9081
▁무승 -9082
▁집행 -9083
▁차이는 -9084
▁후보로 -9085
▁자신들이 -9086
네스 -9087
▁나오면서 -9088
▁혐오 -9089
▁대단히 -9090
있으며 -9091
▁너를 -9092
▁대통령이 -9093
공격을 -9094
▁확대 -9095
▁패널 -9096
▁개설 -9097
▁제한이 -9098
▁그날 -9099
층에 -9100
▁69 -9101
▁김진 -9102
키지 -9103
▁방치 -9104
▁터져 -9105
켰다 -9106
▁보충 -9107
야를 -9108
▁그래서인지 -9109
▁재활 -9110
▁전역 -9111
▁그러면 -9112
▁Su -9113
▁벌레 -9114
▁Star -9115
일리 -9116
▁질문에 -9117
늦게 -9118
▁남기고 -9119
▁이득을 -9120
▁얻는다 -9121
명과 -9122
▁영향으로 -9123
▁기동전사 -9124
▁곡의 -9125
▁라그 -9126
▁강의 -9127
▁Man -9128
▁가지는 -9129
▁달라고 -9130
렐라 -9131
▁도적 -9132
▁모티브는 -9133
400 -9134
있었다 -9135
▁상태를 -9136
▁사고를 -9137
▁토마 -9138
코스트 -9139
DS -9140
면이 -9141
▁많기 -9142
▁받아서 -9143
에요 -9144
절한 -9145
▁금액 -9146
▁별의 -9147
▁보호막 -9148
▁기존에 -9149
▁중복 -9150
본다 -9151
▁서서히 -9152
ah -9153
▁종목 -9154
▁병원 -9155
▁부모님 -9156
▁가해 -9157
▁잘라 -9158
▁기점으로 -9159
▁오키 -9160
▁후퇴 -9161
▁운영하는 -9162
▁독일의 -9163
▁up -9164
▁조롱 -9165
▁부르며 -9166
▁170 -9167
▁커스 -9168
▁놓은 -9169
▁아지 -9170
▁기원전 -9171
▁증가합니다 -9172
▁올랐다 -9173
럽게 -9174
▁대부분은 -9175
▁합의 -9176
▁종류의 -9177
▁오스트리아 -9178
▁놔 -9179
▁Br -9180
▁1985 -9181
부터가 -9182
▁사도 -9183
▁신호 -9184
▁나머지는 -9185
▁선행 -9186
▁선수를 -9187
▁얻어맞 -9188
▁소속사 -9189
▁나고 -9190
▁읽어 -9191
▁프레이 -9192
ond -9193
▁시로 -9194
▁딜레이 -9195
▁헝 -9196
감에 -9197
열이 -9198
▁포위 -9199
연한 -9200
전한 -9201
▁특수한 -9202
씨는 -9203
▁경남 -9204
▁사이코 -9205
▁스트라이크 -9206
중간 -9207
▁등장하는데 -9208
▁+3 -9209
▁세운 -9210
▁닌텐 -9211
릭스 -9212
▁나갈 -9213
▁둠 -9214
갔고 -9215
유가 -9216
▁유닛의 -9217
▁86 -9218
▁읽는 -9219
▁한국에 -9220
▁면역 -9221
▁넘게 -9222
▁시에 -9223
▁자꾸 -9224
▁간단한 -9225
있을 -9226
ment -9227
ai -9228
▁본작 -9229
CG -9230
▁바꿀 -9231
ase -9232
▁클릭 -9233
▁과거에는 -9234
▁머리카 -9235
구에서 -9236
령의 -9237
▁과도 -9238
리도 -9239
▁사정거리 -9240
▁문제점 -9241
▁향한 -9242
▁정부의 -9243
영을 -9244
▁거는 -9245
▁최우 -9246
자동차 -9247
▁조건이 -9248
▁받기 -9249
▁수월 -9250
▁원작의 -9251
▁성우가 -9252
.19 -9253
▁세뇌 -9254
▁끊임 -9255
▁김기 -9256
주와 -9257
▁밀리 -9258
▁강등 -9259
영은 -9260
▁부착 -9261
▁마냥 -9262
▁맞을 -9263
▁당신은 -9264
▁화력이 -9265
▁ne -9266
▁땅에 -9267
하였는데 -9268
▁일에 -9269
▁가죽 -9270
동과 -9271
▁말투 -9272
먹을 -9273
▁야생 -9274
시키면 -9275
▁1,2 -9276
▁조용히 -9277
▁줬 -9278
▁어디서 -9279
▁화학 -9280
▁빛나는 -9281
▁곡은 -9282
▁대성 -9283
GB -9284
ool -9285
▁유인 -9286
▁파르 -9287
▁정체는 -9288
데미지 -9289
▁드래프트 -9290
▁함대 -9291
▁이상은 -9292
소나 -9293
▁전투기 -9294
▁직접적으로 -9295
▁미드필 -9296
확률 -9297
▁별명이 -9298
함으로 -9299
▁충성 -9300
▁막상 -9301
▁날리는 -9302
▁크기가 -9303
▁다녀 -9304
▁몰라 -9305
▁땅을 -9306
▁약탈 -9307
▁발동할 -9308
▁패턴을 -9309
▁불사 -9310
▁피해자 -9311
▁줄여 -9312
▁영역 -9313
▁무인 -9314
온이 -9315
▁그외 -9316
호환 -9317
▁소요 -9318
▁자라 -9319
▁어벤 -9320
▁형식으로 -9321
▁기재 -9322
▁끄 -9323
▁올라가는 -9324
▁LA -9325
▁온다 -9326
▁중국어 -9327
▁스펠 -9328
▁정발 -9329
▁반짝 -9330
▁배달 -9331
▁악의 -9332
▁새누리 -9333
▁이스라엘 -9334
▁다녔 -9335
슨의 -9336
▁배경으로 -9337
▁풀려 -9338
▁유전 -9339
▁나지 -9340
▁사신 -9341
▁마스크 -9342
▁악당 -9343
경제 -9344
거든 -9345
▁들어가서 -9346
▁벙 -9347
▁노선이 -9348
▁제독 -9349
폭탄 -9350
현은 -9351
▁전무 -9352
▁일어났 -9353
하세요 -9354
마치 -9355
▁옹호 -9356
▁힌 -9357
▁텍스트 -9358
▁아시안 -9359
▁출루 -9360
▁소식이 -9361
▁굵 -9362
세한 -9363
▁포함되어 -9364
▁못하면 -9365
▁배정 -9366
▁지칭 -9367
터널 -9368
▁재정 -9369
아아 -9370
▁신도 -9371
▁Gam -9372
▁방식을 -9373
▁가능성은 -9374
▁105 -9375
▁1984 -9376
▁대리 -9377
▁\ -9378
▁솜 -9379
▁조우 -9380
▁돌연 -9381
▁무산 -9382
▁지키기 -9383
▁포기하고 -9384
▁시리즈를 -9385
▁쓰여 -9386
▁해리 -9387
▁불만을 -9388
▁신데 -9389
▁각자 -9390
노는 -9391
▁경기장 -9392
▁얻었다 -9393
▁수면 -9394
▁저지른 -9395
▁긴급 -9396
▁부인 -9397
▁연기를 -9398
구간 -9399
▁두드 -9400
▁사용했다 -9401
▁골키퍼 -9402
▁벼 -9403
▁몫 -9404
▁뜬금없이 -9405
▁안양 -9406
길을 -9407
UP -9408
▁Fe -9409
킨다 -9410
▁사용시 -9411
되므로 -9412
이라이트 -9413
▁기기 -9414
너의 -9415
▁모노 -9416
▁가기 -9417
▁에르 -9418
▁아버지를 -9419
▁공용 -9420
▁남자가 -9421
▁되었지만 -9422
▁속의 -9423
예술 -9424
▁운이 -9425
way -9426
▁GP -9427
렸는데 -9428
▁시작된 -9429
▁생애 -9430
훈이 -9431
▁이용할 -9432
년대에 -9433
▁휠 -9434
42 -9435
차별 -9436
▁건물을 -9437
▁장거리 -9438
▁못해서 -9439
▁남아있는 -9440
교회 -9441
▁쯤 -9442
▁나폴 -9443
▁제정 -9444
림의 -9445
▁골렘 -9446
▁an -9447
▁양성 -9448
▁회상 -9449
워즈 -9450
스도 -9451
조에 -9452
▁돌아다니 -9453
▁속한다 -9454
▁유재 -9455
▁능력치가 -9456
▁자이언츠 -9457
▁번에 -9458
▁갖추고 -9459
▁배차간 -9460
디에 -9461
국에서 -9462
▁거라 -9463
▁시상 -9464
▁도루 -9465
베이터 -9466
▁호평을 -9467
ary -9468
▁토큰 -9469
▁제출 -9470
고지 -9471
▁한방에 -9472
▁결정적인 -9473
동물 -9474
▁확장팩 -9475
▁대선 -9476
▁철거 -9477
▁작업을 -9478
▁여론 -9479
▁축하 -9480
▁스크린 -9481
거라 -9482
▁아이가 -9483
렸지만 -9484
문학 -9485
▁작화 -9486
▁에릭 -9487
▁신라 -9488
▁시크 -9489
▁명백 -9490
▁키타 -9491
▁통틀 -9492
▁AKB -9493
▁학생회 -9494
▁되살 -9495
▁국왕 -9496
병으로 -9497
▁화력을 -9498
▁로빈 -9499
▁축제 -9500
▁미래를 -9501
▁내성 -9502
▁보통은 -9503
▁솔직 -9504
▁편에 -9505
▁후손 -9506
합을 -9507
▁테일 -9508
8, -9509
▁허락 -9510
▁서구 -9511
▁6. -9512
▁걸린다 -9513
회복 -9514
리스가 -9515
▁조리 -9516
▁집어넣 -9517
▁사형 -9518
▁전화를 -9519
▁만들어서 -9520
▁며칠 -9521
▁제자 -9522
▁코인 -9523
▁자체도 -9524
파크 -9525
▁증폭 -9526
카이도 -9527
▁아카데미 -9528
▁따지면 -9529
▁되므로 -9530
▁털어 -9531
ason -9532
▁아이템이 -9533
▁않았다는 -9534
▁오로지 -9535
▁때문이라고 -9536
미에 -9537
가드 -9538
aby -9539
▁특별히 -9540
러는 -9541
▁인연 -9542
싱턴 -9543
센트 -9544
mer -9545
▁내게 -9546
중에서 -9547
▁해안 -9548
▁교과 -9549
▁두들겨 -9550
▁진압 -9551
NA -9552
▁이토 -9553
▁프란 -9554
▁82 -9555
지니 -9556
택을 -9557
▁BS -9558
▁불의 -9559
▁싶다고 -9560
▁쓰러트 -9561
나요 -9562
브로 -9563
▁쪼 -9564
▁짱 -9565
-14 -9566
▁호불 -9567
▁CH -9568
▁담긴 -9569
▁금융 -9570
▁전승 -9571
우면 -9572
실점으로 -9573
▁상태였다 -9574
용의 -9575
봐도 -9576
피가 -9577
DD -9578
▁세계에 -9579
건의 -9580
AK -9581
경은 -9582
계획 -9583
대원 -9584
▁모티브로 -9585
▁북부 -9586
▁것보다 -9587
▁뒤늦게 -9588
▁죽게 -9589
▁아서 -9590
▁경우에도 -9591
▁오크 -9592
잡이 -9593
었는지 -9594
타니 -9595
▁선수는 -9596
함은 -9597
▁예전에 -9598
판과 -9599
▁코스튬 -9600
대기 -9601
례를 -9602
까요 -9603
반이 -9604
저런 -9605
카운 -9606
oon -9607
▁버전이 -9608
로이드 -9609
▁부임 -9610
▁쉬워 -9611
▁이걸로 -9612
▁청소 -9613
▁Sup -9614
▁아닌데 -9615
변이 -9616
▁소속의 -9617
▁청와 -9618
▁매체 -9619
▁화물 -9620
▁커맨드 -9621
건지 -9622
▁성격을 -9623
포르 -9624
▁실존 -9625
▁Part -9626
▁피에 -9627
마냥 -9628
▁개별 -9629
▁아래로 -9630
▁All -9631
익을 -9632
▁IN -9633
▁지경 -9634
라에게 -9635
▁영토 -9636
▁세상에 -9637
▁학교에 -9638
▁트레일러 -9639
▁연습생 -9640
기게 -9641
편을 -9642
▁선택할 -9643
▁DVD -9644
▁툴 -9645
▁트라우 -9646
▁리버풀 -9647
▁PP -9648
▁마케 -9649
비전 -9650
▁인지도 -9651
션이 -9652
▁바위 -9653
▁끝으로 -9654
▁사실이다 -9655
사단 -9656
▁DE -9657
▁당사 -9658
▁장치 -9659
▁스나이 -9660
▁엎 -9661
▁사건에 -9662
▁시간의 -9663
라딘 -9664
▁포수 -9665
하지도 -9666
▁오브젝 -9667
▁복구 -9668
왔고 -9669
▁En -9670
▁포스터 -9671
▁스트리트 -9672
KR -9673
▁평생 -9674
▁안타를 -9675
▁볼트 -9676
▁투명 -9677
▁뷰 -9678
▁어쩌면 -9679
▁갈등 -9680
에이 -9681
▁리치 -9682
▁나왔는데 -9683
▁PR -9684
▁벽을 -9685
▁스포일러 -9686
들처럼 -9687
지거나 -9688
/6 -9689
▁나노 -9690
▁데미지는 -9691
▁자유롭게 -9692
▁히든 -9693
린은 -9694
▁완전한 -9695
▁취약 -9696
▁중후반 -9697
리기도 -9698
란이 -9699
▁실은 -9700
▁원더 -9701
렸다는 -9702
▁막고 -9703
▁좋지만 -9704
~10 -9705
▁우월 -9706
▁UN -9707
▁마신 -9708
▁마루 -9709
포스 -9710
▁번도 -9711
▁자녀 -9712
ox -9713
▁늘려 -9714
▁NE -9715
▁터미널 -9716
ach -9717
▁호환 -9718
▁메이드 -9719
상과 -9720
▁변화가 -9721
▁차트 -9722
▁너무나도 -9723
정치 -9724
▁특징이다 -9725
▁시리즈에서 -9726
오로 -9727
▁국가의 -9728
피해 -9729
▁콘텐츠 -9730
.30 -9731
▁여기서는 -9732
▁지나면 -9733
▁부정적인 -9734
▁BR -9735
▁미국에서 -9736
▁루나 -9737
달아 -9738
▁영화의 -9739
▁주의해야 -9740
매치 -9741
-01 -9742
▁박지 -9743
▁임신 -9744
사도 -9745
▁정화 -9746
▁되어버렸다 -9747
▁무섭 -9748
된다고 -9749
고리 -9750
▁UE -9751
▁거친 -9752
▁사이즈 -9753
▁수류탄 -9754
▁3.5 -9755
▁싱크로 -9756
조직 -9757
▁UP -9758
▁손님 -9759
자라는 -9760
▁무시무시한 -9761
세서 -9762
▁Fate -9763
▁준비를 -9764
▁힙 -9765
후에 -9766
달러 -9767
백이 -9768
반의 -9769
▁코르 -9770
▁퇴장 -9771
ple -9772
▁주역 -9773
▁함부로 -9774
▁존경 -9775
리한 -9776
.13 -9777
▁성을 -9778
▁쓸만한 -9779
▁자유한국 -9780
▁지은 -9781
▁나라의 -9782
▁초보 -9783
110 -9784
▁낸다 -9785
▁1960 -9786
▁정부가 -9787
▁먹으면 -9788
▁여기저 -9789
▁정비 -9790
강에서 -9791
▁유망 -9792
▁구간이 -9793
▁말로는 -9794
▁고블린 -9795
그러 -9796
라고도 -9797
우주 -9798
78 -9799
▁엄밀 -9800
▁할수 -9801
즈니 -9802
▁오염 -9803
▁훈련을 -9804
▁지워 -9805
▁차이를 -9806
목록 -9807
▁만일 -9808
▁공장 -9809
▁크림 -9810
▁모습에 -9811
▁잇는 -9812
▁뚫고 -9813
▁가리지 -9814
▁재회 -9815
▁누군가 -9816
▁입장에선 -9817
▁경악 -9818
▁방식이 -9819
▁도박 -9820
▁나치 -9821
▁73 -9822
티즌 -9823
▁바가 -9824
▁부적 -9825
연장 -9826
▁토너먼트 -9827
▁왕국의 -9828
머스 -9829
▁듣는다 -9830
▁식당 -9831
▁람 -9832
▁산탄 -9833
▁어렸을 -9834
▁군대를 -9835
▁소중한 -9836
te -9837
▁결승전 -9838
마일 -9839
래시 -9840
테일 -9841
▁71 -9842
▁책임을 -9843
▁길게 -9844
▁뜯어 -9845
▁반지 -9846
▁연령 -9847
▁종이 -9848
▁생길 -9849
▁아버지는 -9850
하곤 -9851
▁머신 -9852
▁지녔 -9853
▁Pr -9854
있지 -9855
키아 -9856
▁치열 -9857
▁추정되는 -9858
형태 -9859
▁소방 -9860
나로 -9861
▁맡게 -9862
▁한나라 -9863
▁되었다는 -9864
▁지는 -9865
▁슬라 -9866
▁복수를 -9867
▁창단 -9868
국으로 -9869
이라고도 -9870
▁상태이상 -9871
▁각각의 -9872
▁유지하고 -9873
▁항복 -9874
▁체험 -9875
▁레지 -9876
▁One -9877
▁On -9878
ank -9879
▁기상 -9880
하겠다는 -9881
▁개혁 -9882
▁정보가 -9883
도리 -9884
▁야쿠 -9885
▁당한다 -9886
▁아니기 -9887
▁파크 -9888
▁외야 -9889
▁하려고 -9890
▁작전을 -9891
▁이야기는 -9892
▁츠바 -9893
▁중순 -9894
종은 -9895
티를 -9896
-9 -9897
히코 -9898
▁대회에서 -9899
▁사라지고 -9900
▁더해 -9901
▁아인 -9902
▁구미 -9903
▁주식 -9904
나미 -9905
시키며 -9906
▁바에 -9907
▁동영 -9908
▁퍼즐 -9909
▁다닌다 -9910
▁서클 -9911
전문 -9912
▁카자 -9913
▁LP -9914
▁따뜻 -9915
▁토요 -9916
▁TVA -9917
▁For -9918
.24 -9919
▁리스 -9920
▁여럿 -9921
▁관찰 -9922
씨의 -9923
▁즉위 -9924
▁초콜 -9925
▁모로 -9926
▁후기 -9927
▁넘어가는 -9928
▁+5 -9929
지능 -9930
CE -9931
▁입주 -9932
▁방탄 -9933
범죄 -9934
▁공사 -9935
▁죽었다 -9936
▁되어있다 -9937
▁나이에 -9938
▁폭탄을 -9939
▁94 -9940
▁저는 -9941
▁시대의 -9942
▁고객 -9943
▁맡아 -9944
▁같은데 -9945
▁폭파 -9946
▁기사를 -9947
▁수록된 -9948
▁그림을 -9949
▁일방적으로 -9950
▁대조 -9951
▁세인트 -9952
▁백성 -9953
▁국민의 -9954
▁되도록 -9955
lect -9956
ife -9957
▁81 -9958
권에서는 -9959
▁사용하며 -9960
▁않다는 -9961
▁들어갔다 -9962
소설 -9963
▁피터 -9964
ARD -9965
▁결론 -9966
▁하이라이트 -9967
관에서 -9968
▁125 -9969
▁가까워 -9970
일자 -9971
-09 -9972
▁교도 -9973
리아가 -9974
란히 -9975
▁쪽에 -9976
▁호소 -9977
▁width -9978
▁서머 -9979
▁끌어올 -9980
▁한방 -9981
▁짜증 -9982
▁넘버 -9983
▁더불어민주당 -9984
내면서 -9985
버튼 -9986
크리 -9987
르와 -9988
▁만나는 -9989
▁이유도 -9990
로에 -9991
배치 -9992
▁버전은 -9993
.0% -9994
▁삼아 -9995
▁결합 -9996
▁늙 -9997
▁도움으로 -9998
▁치킨 -9999
▁맞는다 -10000
▁옆에서 -10001
자들에게 -10002
▁발굴 -10003
▁개체 -10004
▁유래는 -10005
▁79 -10006
▁재개 -10007
▁실책 -10008
▁장신 -10009
▁랜드 -10010
▁곱 -10011
▁트루 -10012
▁비율 -10013
▁만만 -10014
▁토오 -10015
▁줘 -10016
사한 -10017
가게 -10018
▁동인 -10019
▁모토 -10020
▁눈치채 -10021
▁배려 -10022
번이나 -10023
▁워크래프트 -10024
▁변환 -10025
투수 -10026
▁전원이 -10027
▁위치가 -10028
▁체인지 -10029
국민 -10030
▁어리 -10031
우라 -10032
▁있겠다 -10033
히게 -10034
해준 -10035
노를 -10036
▁싶으면 -10037
▁주의할 -10038
작으로 -10039
란을 -10040
▁브라운 -10041
병기 -10042
▁제작진 -10043
▁구성된 -10044
바를 -10045
▁간호 -10046
▁정상적인 -10047
▁복잡한 -10048
▁막강 -10049
계약 -10050
▁New -10051
▁넘치는 -10052
▁기분이 -10053
▁표정을 -10054
▁투사 -10055
▁네티즌 -10056
/12 -10057
▁튕겨 -10058
▁시작했고 -10059
▁전세계 -10060
▁대신에 -10061
▁메모 -10062
▁범용 -10063
▁안정적인 -10064
▁얼티 -10065
▁안으로 -10066
군에서 -10067
▁역사를 -10068
▁그러니 -10069
▁드라이브 -10070
창을 -10071
시켜서 -10072
▁온천 -10073
▁강원도 -10074
▁언젠가 -10075
▁등장할 -10076
▁CS -10077
▁진학 -10078
▁상대할 -10079
이었을 -10080
았기 -10081
▁서바이 -10082
▁제트 -10083
드래곤 -10084
▁지역은 -10085
개씩 -10086
▁계통 -10087
▁출신지 -10088
살이 -10089
▁상반 -10090
질의 -10091
▁상황은 -10092
표가 -10093
▁용이 -10094
▁정류장 -10095
▁발매되었다 -10096
▁상실 -10097
▁올랐 -10098
▁열리는 -10099
▁벗어 -10100
등한 -10101
ens -10102
▁이누 -10103
▁0.3 -10104
되었기 -10105
▁인종 -10106
~8 -10107
▁만화가 -10108
▁이웃 -10109
▁돼지 -10110
-08 -10111
석에서 -10112
▁89 -10113
▁공방 -10114
▁참여한 -10115
▁질투 -10116
▁DC -10117
▁서로의 -10118
씨를 -10119
프라 -10120
▁결투 -10121
▁92 -10122
▁났 -10123
-07 -10124
▁세력이 -10125
▁새겨 -10126
▁World -10127
▁극히 -10128
▁둘다 -10129
▁뒤에는 -10130
▁시카 -10131
▁날이 -10132
▁오락 -10133
▁무소속 -10134
▁빛이 -10135
▁작품은 -10136
▁끝났 -10137
룡의 -10138
▁보유한 -10139
진으로 -10140
▁이니 -10141
▁줍 -10142
▁이모 -10143
▁무기의 -10144
저항 -10145
▁적용된다 -10146
▁남겼다 -10147
히면 -10148
▁스카우 -10149
▁곡으로 -10150
▁보존 -10151
▁학과 -10152
▁남을 -10153
▁JT -10154
▁김준 -10155
▁빠르고 -10156
오스 -10157
▁인터뷰를 -10158
▁엘리자 -10159
추는 -10160
▁허무 -10161
▁주제 -10162
▁진행하는 -10163
600 -10164
▁간주 -10165
▁누구도 -10166
ype -10167
▁Mk -10168
테랑 -10169
▁배드 -10170
▁아군이 -10171
▁소문이 -10172
▁사용된 -10173
▁생각한 -10174
▁디스크 -10175
▁싶지 -10176
스피 -10177
▁간간히 -10178
▁벽에 -10179
우스의 -10180
▁기다리고 -10181
▁야간 -10182
▁가자 -10183
▁차지했다 -10184
▁세번째 -10185
▁올드 -10186
▁용어 -10187
▁썼다 -10188
▁받으면 -10189
처리 -10190
▁필요는 -10191
▁재등장 -10192
▁화제가 -10193
▁자본 -10194
▁방어구 -10195
be -10196
▁야수 -10197
▁Mar -10198
▁GB -10199
▁체감 -10200
▁파울 -10201
▁우라 -10202
아시아 -10203
▁여행을 -10204
▁거둔 -10205
▁느꼈 -10206
▁유출 -10207
▁평가는 -10208
런트 -10209
▁합계 -10210
▁철권 -10211
▁공연을 -10212
▁나오게 -10213
▁동남 -10214
스티벌 -10215
▁노가 -10216
▁식량 -10217
속을 -10218
▁드라이버 -10219
▁일본판 -10220
▁입는 -10221
서울 -10222
▁주장을 -10223
▁커스텀 -10224
ork -10225
▁다이아몬드 -10226
▁노벨 -10227
▁올라간다 -10228
▁얽 -10229
▁앞의 -10230
▁성적이 -10231
▁외형 -10232
소리를 -10233
▁서로를 -10234
▁무리가 -10235
층의 -10236
▁기다려 -10237
▁기대를 -10238
신과 -10239
해줄 -10240
▁스캔 -10241
밀리 -10242
▁얀 -10243
▁실시간 -10244
▁일렉 -10245
▁불교 -10246
▁이세 -10247
테이션 -10248
벽을 -10249
▁드로우 -10250
▁타율 -10251
▁미드필더 -10252
민을 -10253
we -10254
▁이런저런 -10255
▁로즈 -10256
▁인구가 -10257
▁LIVE -10258
▁휘둘 -10259
▁많으며 -10260
▁누나 -10261
▁실질적인 -10262
-02 -10263
▁잠수함 -10264
▁패널티 -10265
▁토우 -10266
▁슬레이 -10267
▁내린 -10268
해요 -10269
▁사진이 -10270
▁선고 -10271
위대 -10272
▁유혹 -10273
▁복제 -10274
▁포스트시즌 -10275
▁상대방의 -10276
▁왜곡 -10277
▁모양의 -10278
▁그녀에게 -10279
렉션 -10280
▁설령 -10281
uk -10282
▁AN -10283
▁비극 -10284
▁포획 -10285
서도 -10286
▁스키 -10287
▁끓 -10288
▁1,000 -10289
▁말라 -10290
▁사립 -10291
▁못했던 -10292
▁DPS -10293
▁쌓아 -10294
▁배급 -10295
▁성향이 -10296
만으로도 -10297
강화 -10298
▁1982 -10299
저를 -10300
▁슈퍼로봇대전 -10301
▁엄격 -10302
▁튼튼 -10303
▁느끼는 -10304
▁생각한다 -10305
▁모에 -10306
텐데 -10307
들로부터 -10308
▁개신교 -10309
▁올리고 -10310
▁{{{# -10311
▁부르고 -10312
▁싶을 -10313
▁히가시 -10314
▁지목 -10315
페이스 -10316
▁% -10317
▁일부를 -10318
▁우호 -10319
분으로 -10320
볼을 -10321
▁영혼을 -10322
▁직접적인 -10323
▁증오 -10324
인데다가 -10325
타리 -10326
igh -10327
▁낙선 -10328
▁미루 -10329
▁나오지만 -10330
▁전날 -10331
▁반응은 -10332
very -10333
▁계기가 -10334
▁역임 -10335
▁전력을 -10336
▁연인 -10337
준의 -10338
▁끝나는 -10339
▁하늘을 -10340
▁편이고 -10341
권으로 -10342
▁일기 -10343
▁개발한 -10344
입구 -10345
▁아니라서 -10346
▁이번엔 -10347
▁설명은 -10348
보의 -10349
박이 -10350
ung -10351
▁보냈 -10352
▁플래시 -10353
▁혈액형 -10354
▁데빌 -10355
,0 -10356
▁에리 -10357
케이 -10358
▁파츠 -10359
건설 -10360
비용 -10361
▁전락 -10362
들이나 -10363
▁바른 -10364
▁배가 -10365
▁자의 -10366
네는 -10367
▁콘솔 -10368
▁이어진 -10369
▁선수들의 -10370
88 -10371
▁모드를 -10372
▁게이머 -10373
▁경직 -10374
▁디자인이 -10375
했으니 -10376
▁Oh -10377
▁중세 -10378
▁lv -10379
▁나중에는 -10380
체스터 -10381
▁달리는 -10382
▁분당 -10383
본부 -10384
탐정 -10385
▁본명은 -10386
몬의 -10387
▁봇 -10388
▁at -10389
▁딜링 -10390
게이트 -10391
▁커서 -10392
▁한반 -10393
▁항의 -10394
▁들어와 -10395
▁만들어낸 -10396
어스 -10397
계는 -10398
▁리타이어 -10399
▁안심 -10400
▁치즈 -10401
▁선택한 -10402
▁명목 -10403
▁버섯 -10404
선생 -10405
▁후의 -10406
▁찍는 -10407
▁보이기도 -10408
▁전적 -10409
▁비유 -10410
▁헌법 -10411
▁마감 -10412
라미 -10413
▁연봉 -10414
▁설명을 -10415
▁발키 -10416
▁부작 -10417
불가 -10418
.22 -10419
▁있거나 -10420
아도 -10421
▁대량 -10422
▁DD -10423
▁쓸만 -10424
▁불량 -10425
▁기억이 -10426
▁un -10427
▁싸움이 -10428
▁경북 -10429
▁와카 -10430
▁한창 -10431
Lv -10432
▁옐 -10433
호로 -10434
▁칼리 -10435
▁위엄 -10436
▁결심 -10437
베리 -10438
▁형태를 -10439
▁초중반 -10440
▁사나 -10441
께끼 -10442
적으로도 -10443
▁제네 -10444
▁style -10445
▁진정 -10446
토스 -10447
하기를 -10448
▁충실 -10449
▁사망한다 -10450
▁상한 -10451
▁가벼운 -10452
▁즐겨 -10453
▁정도를 -10454
▁단행본 -10455
카미 -10456
▁신경을 -10457
▁론 -10458
▁모듈 -10459
양의 -10460
▁배출 -10461
▁거기다가 -10462
기며 -10463
▁이대 -10464
▁KOF -10465
노와 -10466
▁상륙 -10467
들에겐 -10468
▁라틴 -10469
▁OVA -10470
▁가능하지만 -10471
▁흔한 -10472
버스터미널 -10473
문으로 -10474
▁강해 -10475
ero -10476
▁히비 -10477
▁가요 -10478
▁삼각 -10479
▁없습니다 -10480
▁사고가 -10481
지사 -10482
▁있기도 -10483
▁휴식 -10484
▁어렵지 -10485
▁에디 -10486
시청 -10487
실은 -10488
어지는 -10489
월의 -10490
▁보구 -10491
▁유물 -10492
▁지키고 -10493
▁상황이었다 -10494
투표 -10495
러브 -10496
▁유니크 -10497
ich -10498
▁수염 -10499
협회 -10500
▁are -10501
▁헷 -10502
▁이로써 -10503
▁사가 -10504
스포츠 -10505
▁시작된다 -10506
▁상태에 -10507
▁1983 -10508
▁드루 -10509
으라고 -10510
▁냈 -10511
▁감싸 -10512
▁꽉 -10513
아니 -10514
▁중량 -10515
터로 -10516
▁우에 -10517
▁무지막 -10518
집에 -10519
▁품고 -10520
너는 -10521
▁BB -10522
▁긴장 -10523
운드를 -10524
▁거론 -10525
▁도착한 -10526
▁도시철도 -10527
▁편에서 -10528
▁춤을 -10529
▁웨스트 -10530
The -10531
▁엔드 -10532
편에서는 -10533
IR -10534
▁can -10535
보지 -10536
▁UEFA -10537
▁신선 -10538
▁관여 -10539
76 -10540
격의 -10541
▁주면 -10542
▁가졌다 -10543
▁세력을 -10544
▁담당하는 -10545
▁악마의 -10546
▁무술 -10547
메라 -10548
▁약점을 -10549
▁개를 -10550
▁약화 -10551
▁SF -10552
▁바르셀 -10553
생명 -10554
▁난이도를 -10555
▁던지는 -10556
▁권력 -10557
▁우측 -10558
▁호시 -10559
다며 -10560
▁갚 -10561
▁밝은 -10562
▁편지를 -10563
▁어색 -10564
▁쿨타임이 -10565
▁물에 -10566
▁볼수 -10567
▁손이 -10568
파는 -10569
▁Wi -10570
▁메구 -10571
▁등번호 -10572
▁찾아온 -10573
구청 -10574
▁수직 -10575
ven -10576
▁올라왔다 -10577
였기에 -10578
차원 -10579
▁힐러 -10580
공으로 -10581
▁상태의 -10582
느니 -10583
▁믿을 -10584
▁시키는 -10585
JP -10586
리던 -10587
▁188 -10588
▁쓰게 -10589
▁찍고 -10590
▁천천 -10591
저리 -10592
▁좌절 -10593
▁걸그룹 -10594
천의 -10595
법으로 -10596
산에 -10597
스토리 -10598
▁동일하게 -10599
거지 -10600
▁정신이 -10601
역과 -10602
▁무지막지 -10603
▁모르게 -10604
▁킬러 -10605
▁가능성을 -10606
rd -10607
▁거인 -10608
후가 -10609
▁이번에도 -10610
▁하나다 -10611
▁가질 -10612
▁스텝 -10613
▁파밍 -10614
▁무효화 -10615
▁하쿠 -10616
들에게도 -10617
▁길고 -10618
▁쓰인 -10619
▁하라 -10620
▁쫓겨 -10621
보우 -10622
▁83 -10623
▁비틀 -10624
▁짙 -10625
▁있기는 -10626
▁Day -10627
▁워싱턴 -10628
▁틈을 -10629
회전 -10630
▁뽀 -10631
▁사회적 -10632
▁가능하고 -10633
두면 -10634
▁조회 -10635
목이 -10636
▁폐기 -10637
▁건국 -10638
▁제노 -10639
▁1% -10640
미로 -10641
▁일어날 -10642
프에 -10643
▁세팅 -10644
▁썬더 -10645
▁짐승 -10646
능한 -10647
운의 -10648
▁마카 -10649
오버 -10650
▁매출 -10651
.28 -10652
백과 -10653
▁끝이 -10654
argin -10655
▁낙하 -10656
▁할인 -10657
▁아동 -10658
▁후반부에 -10659
▁미키 -10660
▁시즌에 -10661
▁배터리 -10662
▁상태이다 -10663
심의 -10664
▁설명이 -10665
▁어지간한 -10666
▁기사단 -10667
▁정기 -10668
▁인용 -10669
오지 -10670
▁아니더라도 -10671
▁움직임을 -10672
▁아레나 -10673
산으로 -10674
쪽에서 -10675
▁정도면 -10676
▁빌런 -10677
▁분열 -10678
▁Ad -10679
▁멤버들 -10680
▁실전 -10681
orn -10682
▁본격적인 -10683
블리 -10684
▁심사 -10685
▁원소 -10686
▁전남 -10687
anc -10688
▁보내고 -10689
▁기도 -10690
▁미묘 -10691
▁키라 -10692
▁인스타그램 -10693
킹을 -10694
퍼가 -10695
▁우르 -10696
▁80% -10697
정하고 -10698
화점 -10699
▁대사는 -10700
▁no -10701
▁통치 -10702
재판 -10703
▁캐릭 -10704
일지도 -10705
어버린다 -10706
▁샬 -10707
감과 -10708
▁있음 -10709
-06 -10710
미사 -10711
▁신속 -10712
▁맞춘 -10713
니코 -10714
▁트릭 -10715
▁노선을 -10716
▁살아있는 -10717
IX -10718
bl -10719
▁통칭 -10720
▁어나 -10721
▁창설 -10722
로소 -10723
▁어울리는 -10724
▁안의 -10725
관과 -10726
▁십자 -10727
▁캐릭터들이 -10728
▁크레이 -10729
▁시리즈가 -10730
클래 -10731
▁계열의 -10732
▁대전차 -10733
▁모두를 -10734
▁호불호가 -10735
▁긁 -10736
▁한가 -10737
▁코멘트 -10738
▁Windows -10739
▁다운로드 -10740
▁테니 -10741
▁공격해 -10742
▁시작할 -10743
▁축복 -10744
▁불행 -10745
주면서 -10746
▁아니야 -10747
▁프로듀스 -10748
▁사로 -10749
▁실질적으로 -10750
시간에 -10751
▁먹는다 -10752
내에 -10753
▁없다며 -10754
▁피의 -10755
▁Station -10756
▁크레딧 -10757
마귀 -10758
▁all -10759
턴에 -10760
▁히메 -10761
지다 -10762
디스 -10763
▁평점 -10764
▁낚시 -10765
▁상식 -10766
▁디펜 -10767
▁의해서 -10768
▁카스 -10769
ep -10770
가면서 -10771
▁GO -10772
론가 -10773
게이머 -10774
감은 -10775
.26 -10776
▁끝나면 -10777
께서 -10778
플러 -10779
▁-> -10780
▁DP -10781
미노 -10782
상으로는 -10783
놓는 -10784
▁조언 -10785
▁엔진을 -10786
▁베타 -10787
▁175 -10788
▁많을 -10789
▁양손 -10790
▁수수께끼 -10791
▁사랑의 -10792
▁해명 -10793
▁살아남은 -10794
▁도망치 -10795
▁심해 -10796
인칭 -10797
▁행위를 -10798
▁국가대표팀 -10799
▁의식을 -10800
▁플레이어에게 -10801
ise -10802
▁않는다면 -10803
▁불태 -10804
▁후원 -10805
▁대마 -10806
▁하에 -10807
▁손꼽 -10808
천만 -10809
CC -10810
▁편하다 -10811
기준 -10812
▁물이 -10813
신도 -10814
▁스쿨 -10815
▁호남 -10816
▁Up -10817
무의 -10818
▁할로 -10819
.1% -10820
▁잉여 -10821
▁해머 -10822
▁별도로 -10823
바퀴 -10824
▁메카닉 -10825
▁여부 -10826
▁아들을 -10827
▁남는 -10828
▁그대 -10829
▁주니어 -10830
▁단종 -10831
▁줄거리 -10832
초의 -10833
강의 -10834
링크 -10835
▁불쌍 -10836
▁소음 -10837
▁밤에 -10838
▁똑같다 -10839
SS -10840
▁것과는 -10841
▁클라우 -10842
▁변태 -10843
▁우익 -10844
▁즐기는 -10845
현을 -10846
▁잡아먹 -10847
▁모자라 -10848
▁짐작 -10849
각성 -10850
▁8, -10851
▁분기 -10852
▁순으로 -10853
초로 -10854
여행 -10855
ical -10856
▁젖 -10857
▁정체가 -10858
가요 -10859
▁일자 -10860
▁어드벤처 -10861
▁시대에 -10862
▁한일 -10863
쉽게 -10864
노스케 -10865
▁섀도우 -10866
▁어마어마한 -10867
▁엘리자베 -10868
시기 -10869
▁방향을 -10870
▁이병 -10871
▁철수 -10872
▁실수를 -10873
▁여자가 -10874
▁최대의 -10875
oh -10876
내서 -10877
▁끼고 -10878
▁특이하게도 -10879
▁지도자 -10880
▁우위를 -10881
▁예시 -10882
뮤직 -10883
▁900 -10884
▁로버트 -10885
▁항목을 -10886
▁미노 -10887
▁것입니다 -10888
▁봤을 -10889
41 -10890
▁후회 -10891
▁구독 -10892
▁소용 -10893
파워 -10894
▁천연 -10895
바시 -10896
사에게 -10897
▁서포트 -10898
리아를 -10899
▁안타까 -10900
▁파고 -10901
외의 -10902
▁차지하는 -10903
했듯 -10904
▁것이기 -10905
▁베테랑 -10906
▁하반 -10907
졌으나 -10908
▁아까 -10909
▁위주의 -10910
공업 -10911
티가 -10912
▁스피릿 -10913
▁순수한 -10914
▁엑시즈 -10915
▁최적 -10916
▁겹쳐 -10917
▁극장 -10918
▁덱에서 -10919
▁기술은 -10920
턴간 -10921
라이즈 -10922
나베 -10923
체와 -10924
▁감정이 -10925
▁베이징 -10926
왕은 -10927
▁디시 -10928
▁등극 -10929
▁누군가가 -10930
▁수습 -10931
▁선사 -10932
▁오면 -10933
▁오기 -10934
▁자금 -10935
▁관측 -10936
▁리드 -10937
▁유적 -10938
▁나빠 -10939
▁Ph -10940
▁일본에서는 -10941
페르 -10942
▁거북 -10943
▁동반 -10944
▁구역 -10945
▁끊임없이 -10946
▁간지 -10947
▁맞붙 -10948
으면서도 -10949
▁플라이 -10950
▁싸움에서 -10951
▁연쇄 -10952
으려는 -10953
▁레벨을 -10954
/8 -10955
▁상성 -10956
▁여의 -10957
▁고쳐 -10958
▁최근에 -10959
▁병기 -10960
▁발로 -10961
▁됩니다 -10962
▁대접 -10963
▁소송 -10964
▁안경 -10965
▁프로그램을 -10966
드컵 -10967
▁바꾸는 -10968
▁기록은 -10969
바르 -10970
▁일행은 -10971
-05 -10972
▁도깨 -10973
▁스타리그 -10974
뉴얼 -10975
군에게 -10976
▁편이며 -10977
▁차이로 -10978
▁블리자 -10979
▁7. -10980
있지만 -10981
▁천천히 -10982
▁쓸모 -10983
▁끔살 -10984
▁계획이 -10985
희는 -10986
▁원자 -10987
▁공무원 -10988
타마 -10989
▁물질 -10990
▁큐브 -10991
▁차량이 -10992
▁독재 -10993
▁폭행 -10994
▁쳐들어 -10995
▁릭 -10996
▁사이에서는 -10997
▁수색 -10998
▁드릴 -10999
▁지고 -11000
▁결정적으로 -11001
▁시체를 -11002
▁가난 -11003
추가 -11004
▁BE -11005
▁기갑 -11006
▁병과 -11007
▁코노 -11008
▁속하는 -11009
작은 -11010
▁페미니 -11011
▁팔아 -11012
▁전투력 -11013
차에 -11014
이라기 -11015
▁돌아왔다 -11016
▁프리미어 -11017
▁획득할 -11018
부키 -11019
▁go -11020
▁일시적으로 -11021
▁엇 -11022
▁학교에서 -11023
들고 -11024
위와 -11025
매가 -11026
math -11027
▁깔아 -11028
▁퍼져 -11029
▁트리거 -11030
위인 -11031
통합 -11032
▁있었기에 -11033
▁do -11034
아트 -11035
▁간에 -11036
▁잠실 -11037
▁주제가 -11038
품으로 -11039
▁레이스 -11040
▁출신으로 -11041
▁스트레 -11042
▁아베 -11043
▁핑크 -11044
▁동경 -11045
권과 -11046
강을 -11047
▁윈도우 -11048
층이 -11049
▁ML -11050
▁멍청 -11051
▁답답 -11052
▁보건 -11053
▁오우 -11054
▁리스트 -11055
▁정치인 -11056
▁초콜릿 -11057
내어 -11058
▁al -11059
▁모은 -11060
▁기생 -11061
▁그거 -11062
당하게 -11063
평을 -11064
▁추방 -11065
▁라이온즈 -11066
▁정반 -11067
▁3~4 -11068
▁뜬다 -11069
▁여타 -11070
▁태클 -11071
▁선출 -11072
▁성격은 -11073
자나 -11074
▁호의 -11075
▁이순 -11076
네시아 -11077
▁얼굴에 -11078
▁시종 -11079
▁할때 -11080
VER -11081
▁사이클 -11082
▁김해 -11083
+0 -11084
▁동급 -11085
▁쌀 -11086
▁차고 -11087
▁받았고 -11088
보며 -11089
▁만드 -11090
달라 -11091
▁주최 -11092
▁신데렐라 -11093
▁바이올 -11094
▁죽으면 -11095
▁내리는 -11096
▁패배를 -11097
▁부분이다 -11098
▁엄연히 -11099
▁글이 -11100
▁생방송 -11101
▁마음대로 -11102
▁사천 -11103
▁김용 -11104
▁kg -11105
▁억제 -11106
▁헤르 -11107
▁유용한 -11108
▁드문 -11109
▁이대로 -11110
▁정규시즌 -11111
▁막대한 -11112
너를 -11113
▁포인트를 -11114
▁하시 -11115
터와 -11116
미한 -11117
▁트위치 -11118
▁듣기 -11119
지수 -11120
레를 -11121
▁싼 -11122
▁어그로를 -11123
▁경상북도 -11124
▁구름 -11125
▁웃는 -11126
▁대해서도 -11127
▁박성 -11128
프리카 -11129
박한 -11130
길이 -11131
곡은 -11132
▁무역 -11133
▁국회 -11134
▁인가 -11135
교가 -11136
걸이 -11137
▁헷갈 -11138
▁디바 -11139
▁닛 -11140
▁유성 -11141
▁특성이 -11142
▁여전 -11143
혹한 -11144
▁빠르다 -11145
▁스티븐 -11146
▁스쿼 -11147
▁적고 -11148
▁원작에서는 -11149
차게 -11150
▁모델이 -11151
▁케빈 -11152
▁드러난다 -11153
치아 -11154
▁수요가 -11155
▁이전부터 -11156
▁선임 -11157
▁마음의 -11158
▁있을까 -11159
▁국정 -11160
문제 -11161
▁차량을 -11162
▁60% -11163
자책 -11164
작전 -11165
▁충분한 -11166
▁뉘 -11167
반을 -11168
▁방어력을 -11169
▁취득 -11170
▁오죽 -11171
중의 -11172
ign -11173
▁괴수 -11174
토니 -11175
▁엘레 -11176
▁무난하게 -11177
700 -11178
화에선 -11179
어버리고 -11180
쉬를 -11181
▁자존 -11182
마로 -11183
릴라 -11184
▁부숴 -11185
있다는 -11186
앨범 -11187
대화 -11188
▁움직임 -11189
▁이럴 -11190
▁잡으면 -11191
▁유료 -11192
▁후방 -11193
▁추천한다 -11194
▁보상으로 -11195
▁않으므로 -11196
▁주장이 -11197
▁때와 -11198
▁에이지 -11199
▁일본에 -11200
ence -11201
▁요리를 -11202
▁피부 -11203
▁싸우게 -11204
▁끝났다 -11205
방울 -11206
▁슬로 -11207
▁잊지 -11208
▁선수로 -11209
▁정해진 -11210
▁분해 -11211
▁프랑스의 -11212
▁인지도가 -11213
▁적으로 -11214
▁와이번 -11215
소드 -11216
히메 -11217
줄이 -11218
천사 -11219
▁진에 -11220
▁기둥 -11221
▁의미는 -11222
▁이때는 -11223
▁일부는 -11224
=" -11225
▁풍부 -11226
▁파란색 -11227
▁언데드 -11228
테니 -11229
▁동해 -11230
검사 -11231
▁비가 -11232
▁촌 -11233
▁경호 -11234
시스템 -11235
▁날뛰 -11236
49 -11237
▁love -11238
▁비율이 -11239
▁로이 -11240
▁모집 -11241
▁초당 -11242
아라 -11243
하루 -11244
▁기묘한 -11245
▁가져다 -11246
보인다 -11247
▁일어판 -11248
▁공수 -11249
▁알레 -11250
안은 -11251
▁93 -11252
장치 -11253
▁오다 -11254
▁초등 -11255
▁신사 -11256
▁미나미 -11257
복지 -11258
▁왕조 -11259
▁훔쳐 -11260
▁왜냐하면 -11261
항목 -11262
장애 -11263
▁일본은 -11264
무는 -11265
▁기본으로 -11266
▁채보 -11267
▁크라이 -11268
.4% -11269
▁일단은 -11270
▁담은 -11271
ans -11272
▁든다 -11273
▁납득 -11274
있어서 -11275
▁적당한 -11276
▁데이터를 -11277
▁차지하고 -11278
▁브랜 -11279
▁울트라맨 -11280
▁뮌 -11281
스틱 -11282
▁사사 -11283
▁공격속도 -11284
야와 -11285
▁개성 -11286
▁시마 -11287
▁스트리머 -11288
커는 -11289
▁유비 -11290
▁뻥 -11291
▁케이블 -11292
▁부산광역시 -11293
▁퇴각 -11294
리드 -11295
▁가진다 -11296
▁보이스 -11297
▁하루카 -11298
▁신부 -11299
하하 -11300
▁셔틀 -11301
▁이현 -11302
▁독점 -11303
▁않았으나 -11304
72 -11305
▁바뀌는 -11306
▁강경 -11307
+2 -11308
▁백인 -11309
▁김승 -11310
어에 -11311
주의자 -11312
서와 -11313
속으로 -11314
ye -11315
▁뜻한다 -11316
▁찾아볼 -11317
▁wiki -11318
▁신형 -11319
▁되려 -11320
과대학 -11321
삼진 -11322
만화 -11323
-13 -11324
▁하수인 -11325
▁거라는 -11326
브레이 -11327
▁손쉽게 -11328
▁sp -11329
까봐 -11330
했어요 -11331
▁웃음 -11332
▁중장 -11333
▁하프 -11334
▁쵸 -11335
▁부부 -11336
▁경우를 -11337
▁미정 -11338
-03 -11339
▁하급 -11340
면의 -11341
▁멤버들의 -11342
▁수의 -11343
▁특훈 -11344
▁대동 -11345
▁부동 -11346
▁역습 -11347
▁가량 -11348
▁열고 -11349
▁Ver -11350
▁주된 -11351
네마 -11352
내에서 -11353
▁뭐가 -11354
▁규모가 -11355
거라고 -11356
▁움직일 -11357
.2% -11358
▁총합 -11359
▁서번트 -11360
▁So -11361
▁아닐까 -11362
▁꼬마 -11363
▁시점에서는 -11364
▁변해 -11365
▁평일 -11366
▁1.3 -11367
ier -11368
▁스즈키 -11369
▁듣게 -11370
▁연대 -11371
액션 -11372
석으로 -11373
터스 -11374
▁서식 -11375
▁출시되었다 -11376
▁1981 -11377
▁앰 -11378
금은 -11379
▁소문 -11380
▁구별 -11381
▁턴에 -11382
▁김유 -11383
정당 -11384
조합 -11385
들끼리 -11386
▁선수의 -11387
습니까 -11388
▁감수 -11389
▁115 -11390
▁페스티벌 -11391
▁햇 -11392
▁합병 -11393
▁지점 -11394
▁딸을 -11395
▁개념이 -11396
▁아니었 -11397
▁미션을 -11398
▁밀리는 -11399
▁올라갈 -11400
▁건네 -11401
▁애칭 -11402
▁매드 -11403
▁편으로 -11404
urn -11405
▁출간 -11406
바야시 -11407
▁특화 -11408
▁기적 -11409
▁영웅이 -11410
▁말하자 -11411
▁반동 -11412
▁하려 -11413
기면 -11414
▁에피소드에서 -11415
딜을 -11416
▁도와주 -11417
▁열혈 -11418
▁특급 -11419
▁멋대로 -11420
▁풋 -11421
▁키요 -11422
▁응용 -11423
▁법칙 -11424
▁쳤 -11425
소와 -11426
▁전투의 -11427
▁아처 -11428
▁사서 -11429
▁하스 -11430
▁없었지만 -11431
▁소라 -11432
▁펀치 -11433
▁스매 -11434
정책 -11435
▁특전 -11436
▁편하게 -11437
▁알았 -11438
네를 -11439
▁롤드컵 -11440
▁인식이 -11441
▁편인데 -11442
▁후임 -11443
▁생각은 -11444
▁무서워 -11445
▁북한의 -11446
대체 -11447
▁뿌리 -11448
oun -11449
버리면 -11450
▁모드로 -11451
▁중거리 -11452
▁입대 -11453
▁개교 -11454
▁JTBC -11455
▁측정 -11456
▁이겼 -11457
▁않을까 -11458
▁생김 -11459
▁이곳에 -11460
레의 -11461
▁레일 -11462
▁하마 -11463
▁신발 -11464
▁골라 -11465
▁회색 -11466
▁업체 -11467
▁모습과 -11468
▁어설 -11469
▁마치고 -11470
아나 -11471
슬라 -11472
▁드래곤볼 -11473
장도 -11474
▁너머 -11475
태를 -11476
▁탭 -11477
▁학부 -11478
▁실제로도 -11479
▁아스날 -11480
▁발행 -11481
비행 -11482
▁EN -11483
▁안타깝 -11484
eah -11485
▁잦은 -11486
▁강도 -11487
▁굉장한 -11488
aster -11489
▁작년 -11490
▁최저 -11491
▁나갔 -11492
▁노무 -11493
▁찾고 -11494
▁한번도 -11495
▁돌아다 -11496
▁성적은 -11497
▁스핀 -11498
▁신용 -11499
▁쓰던 -11500
▁히틀 -11501
▁인벤 -11502
▁철저히 -11503
비치 -11504
▁주류 -11505
속의 -11506
.27 -11507
▁야마토 -11508
▁지향 -11509
▁MG -11510
▁세라 -11511
▁청주 -11512
리에이션 -11513
▁시작하면 -11514
▁버틸 -11515
대문 -11516
카페 -11517
▁묘하게 -11518
▁명문 -11519
랍니다 -11520
▁권유 -11521
▁붐 -11522
▁출혈 -11523
▁하단 -11524
▁분노를 -11525
▁오메가 -11526
폰을 -11527
▁공격력의 -11528
▁말이야 -11529
줄을 -11530
IL -11531
거다 -11532
▁에어로 -11533
▁사용해서 -11534
▁상징하는 -11535
▁북쪽 -11536
▁+4 -11537
롭다 -11538
퍼를 -11539
ail -11540
가에서 -11541
▁이해가 -11542
▁옵션이 -11543
▁ON -11544
▁ex -11545
▁나이는 -11546
▁팁 -11547
▁승부를 -11548
▁머리카락 -11549
모습 -11550
▁고무 -11551
▁캐치 -11552
▁배제 -11553
▁유입 -11554
▁흙 -11555
▁우울 -11556
▁Cr -11557
▁예쁘 -11558
▁쫒 -11559
▁트라 -11560
▁여성의 -11561
팀을 -11562
▁감독을 -11563
절을 -11564
▁사법 -11565
▁평상 -11566
풍을 -11567
▁텐데 -11568
시간을 -11569
▁잊혀 -11570
▁맥스 -11571
▁버전으로 -11572
▁시위 -11573
▁합동 -11574
▁데이트 -11575
▁그중 -11576
▁쫄 -11577
,5 -11578
▁승자 -11579
▁내용의 -11580
▁연출이 -11581
▁뽑을 -11582
훈의 -11583
보호 -11584
▁마을을 -11585
▁승리로 -11586
하다면 -11587
▁인격 -11588
▁일대 -11589
.21 -11590
▁360 -11591
▁상하 -11592
▁한계가 -11593
▁흑인 -11594
.29 -11595
자이다 -11596
▁사건은 -11597
▁이집트 -11598
▁태어났다 -11599
▁자전거 -11600
▁싸운 -11601
▁닌텐도 -11602
▁출범 -11603
▁재미있는 -11604
▁주문을 -11605
▁감상 -11606
▁토리 -11607
▁프라임 -11608
츠는 -11609
▁쇼핑 -11610
▁여러분 -11611
▁적게 -11612
▁끔찍한 -11613
▁주며 -11614
▁매주 -11615
▁동행 -11616
▁사로잡 -11617
▁깎아 -11618
▁확정되었다 -11619
MAX -11620
▁떨어지고 -11621
▁카리스 -11622
▁사람으로 -11623
▁벌인 -11624
▁Sk -11625
▁강림 -11626
▁클린 -11627
▁아무튼 -11628
▁숫자가 -11629
▁어머니의 -11630
▁> -11631
▁네임드 -11632
▁모델은 -11633
지대 -11634
▁로맨 -11635
▁절친 -11636
인드 -11637
▁토트 -11638
▁그러면서 -11639
▁왕복 -11640
▁인접 -11641
철이 -11642
▁노바 -11643
▁시뮬 -11644
▁EXP -11645
▁형태가 -11646
▁에로 -11647
법인 -11648
▁선회 -11649
▁극도로 -11650
▁as -11651
▁이상하게 -11652
▁황제의 -11653
냐면 -11654
▁죄책 -11655
▁연구를 -11656
▁프린세스 -11657
▁조합을 -11658
▁이기고 -11659
루미 -11660
▁개척 -11661
▁이해할 -11662
▁프로게이머 -11663
▁무대를 -11664
녀가 -11665
츠카 -11666
▁남쪽 -11667
▁공중에서 -11668
uck -11669
▁전망 -11670
▁추측이 -11671
부인 -11672
▁Con -11673
▁정상적으로 -11674
▁분쟁 -11675
초가 -11676
카르 -11677
▁태평양 -11678
▁식사 -11679
▁검술 -11680
▁따르는 -11681
▁대통령의 -11682
▁토요일 -11683
▁여성이 -11684
▁아버지와 -11685
장난 -11686
int -11687
▁사고로 -11688
.6% -11689
▁변화를 -11690
▁Super -11691
▁돌아간다 -11692
▁터트 -11693
▁멤버가 -11694
▁이오 -11695
▁모습이다 -11696
로마 -11697
자이 -11698
▁영주 -11699
▁복무 -11700
▁공격력은 -11701
▁통째로 -11702
▁반전 -11703
▁자국 -11704
열차 -11705
▁고통을 -11706
사리 -11707
▁이노 -11708
.23 -11709
▁버서 -11710
▁조기 -11711
매니아 -11712
▁강간 -11713
▁버텨 -11714
▁진주 -11715
.8% -11716
▁이그 -11717
했음에도 -11718
▁배운 -11719
전공 -11720
▁여섯 -11721
린다는 -11722
▁과거를 -11723
▁놀라운 -11724
슨은 -11725
▁수동 -11726
▁블로 -11727
▁아스트 -11728
풍의 -11729
▁얘기가 -11730
▁하였고 -11731
iver -11732
▁엘리베이터 -11733
킵니다 -11734
▁침투 -11735
세와 -11736
▁전파 -11737
▁의문을 -11738
▁벌어지는 -11739
▁주위 -11740
AB -11741
▁실패한 -11742
고기 -11743
▁패턴은 -11744
해온 -11745
▁굴러 -11746
▁부유 -11747
ode -11748
틀랜드 -11749
▁샐 -11750
▁ERA -11751
가루 -11752
▁만능 -11753
▁전쟁의 -11754
학의 -11755
▁나간다 -11756
oug -11757
▁타이밍에 -11758
▁지연 -11759
▁플러 -11760
91 -11761
버려서 -11762
▁이벤트로 -11763
교사 -11764
▁피로 -11765
▁보라색 -11766
▁밝혀진다 -11767
▁정부는 -11768
펙트 -11769
▁밝혔 -11770
▁봉쇄 -11771
모함 -11772
▁갖게 -11773
▁맞춰서 -11774
필살 -11775
▁고증 -11776
▁깨닫고 -11777
▁주자 -11778
▁바뀌어 -11779
▁사무라이 -11780
기병 -11781
ose -11782
▁챌린지 -11783
▁편은 -11784
▁뮌헨 -11785
▁먹었다 -11786
▁에디션 -11787
즈에 -11788
ari -11789
▁난사 -11790
▁1979 -11791
▁슬픔 -11792
▁this -11793
▁퀵 -11794
기자 -11795
▁은폐 -11796
▁흰색 -11797
하겠지만 -11798
▁모델로 -11799
▁적시 -11800
▁91 -11801
피안타 -11802
▁트래 -11803
▁사항은 -11804
▁닉네임 -11805
▁팰 -11806
▁친애 -11807
▁신나게 -11808
▁홋 -11809
트랙 -11810
▁제작사 -11811
▁표현을 -11812
▁해치 -11813
▁단어를 -11814
▁그레이트 -11815
▁말과 -11816
▁개인의 -11817
▁장관 -11818
MB -11819
▁Dream -11820
▁즐거 -11821
▁기술의 -11822
▁제목은 -11823
면으로 -11824
▁새누리당 -11825
했을때 -11826
▁지나가는 -11827
족으로 -11828
▁나라를 -11829
▁바이러 -11830
▁돌고 -11831
▁않았기 -11832
▁어그로 -11833
▁무난한 -11834
.7% -11835
▁호수 -11836
버렸고 -11837
▁스타디움 -11838
곡의 -11839
초를 -11840
▁이름도 -11841
▁제공하는 -11842
▁존재로 -11843
▁이쯤 -11844
▁1950 -11845
▁목적을 -11846
▁고난 -11847
▁가성 -11848
▁경주 -11849
아머 -11850
▁데모 -11851
▁사와 -11852
▁수단 -11853
식과 -11854
▁프로레 -11855
▁도시를 -11856
▁분산 -11857
▁떨어졌다 -11858
관계를 -11859
▁서비스를 -11860
▁8. -11861
▁리오 -11862
네이 -11863
▁후일 -11864
▁사단 -11865
▁사퇴 -11866
▁않으나 -11867
▁바나 -11868
▁보스가 -11869
구장 -11870
▁함락 -11871
▁일요일 -11872
▁리틀 -11873
▁않습니다 -11874
▁다이스 -11875
▁루이스 -11876
▁점과 -11877
▁스컬 -11878
▁원조 -11879
도도 -11880
▁무쌍 -11881
▁흐름 -11882
▁잡몹 -11883
▁적절히 -11884
▁유용하다 -11885
▁되니 -11886
▁피카 -11887
▁가공 -11888
▁대가로 -11889
▁쪽에서 -11890
▁저글 -11891
▁미궁 -11892
▁위안 -11893
오면 -11894
▁계정 -11895
해볼 -11896
▁몰살 -11897
▁프론 -11898
▁레인저 -11899
딜이 -11900
▁올바 -11901
▁선거에서 -11902
▁성과 -11903
▁코스프레 -11904
▁부근 -11905
▁안습한 -11906
▁@ -11907
▁백업 -11908
오기 -11909
▁네크로 -11910
▁차량은 -11911
▁이룬 -11912
▁드러났다 -11913
▁라스트 -11914
▁싸우고 -11915
▁면모를 -11916
▁최악 -11917
▁극단적인 -11918
MC -11919
▁착한 -11920
▁체결 -11921
▁GK -11922
▁브라이언 -11923
▁LO -11924
▁있겠 -11925
▁질문을 -11926
공개 -11927
▁어나더 -11928
▁대면 -11929
▁않으니 -11930
▁좌측 -11931
▁원숭 -11932
배의 -11933
▁이브 -11934
오피스 -11935
▁개업일 -11936
▁구간은 -11937
골드 -11938
▁비용이 -11939
▁할로윈 -11940
▁시작해서 -11941
▁음모 -11942
온을 -11943
▁꼬리 -11944
속에서 -11945
들까지 -11946
▁제안을 -11947
맨을 -11948
팀은 -11949
▁변한 -11950
생활을 -11951
▁없었다고 -11952
▁운명 -11953
▁유산 -11954
▁노래가 -11955
음으로 -11956
▁이후로도 -11957
▁여우 -11958
▁나누어 -11959
조각 -11960
▁장성 -11961
자라고 -11962
▁만나고 -11963
▁속한 -11964
▁올해의 -11965
▁방법도 -11966
레일 -11967
▁표절 -11968
▁이외에 -11969
▁스노우 -11970
학적 -11971
▁사람과 -11972
▁깨끗 -11973
주의를 -11974
▁108 -11975
모스 -11976
▁노스 -11977
▁마오 -11978
▁To -11979
▁있다며 -11980
행정 -11981
▁김포 -11982
▁잘하는 -11983
▁시작되었다 -11984
▁나왔을 -11985
▁어려울 -11986
▁전체에 -11987
▁것인가 -11988
▁언급된다 -11989
▁슌 -11990
▁떠난다 -11991
하늘 -11992
▁복원 -11993
▁영어로 -11994
▁다이어 -11995
▁TR -11996
▁체제 -11997
▁주목을 -11998
▁사용가능 -11999
▁높아서 -12000
▁파편 -12001
▁아이들을 -12002
▁잃어버린 -12003
▁프로리그 -12004
▁무거운 -12005
담이 -12006
▁스텟 -12007
▁스티브 -12008
▁싱가 -12009
활동 -12010
▁불타는 -12011
▁이른바 -12012
하르 -12013
▁용암 -12014
▁동점 -12015
▁샷건 -12016
▁메이저리그 -12017
▁츄 -12018
▁점유 -12019
▁같다는 -12020
▁이곳에서 -12021
▁것들이 -12022
▁조차 -12023
오자 -12024
▁동쪽 -12025
▁확산 -12026
▁아니게 -12027
▁불참 -12028
▁소장 -12029
▁논의 -12030
▁부위 -12031
▁헬멧 -12032
경기를 -12033
▁닮았다 -12034
ey -12035
▁죽이려 -12036
▁일반인 -12037
타인 -12038
▁빙의 -12039
▁굽 -12040
▁문이 -12041
▁축소 -12042
▁돌아갈 -12043
▁가능할 -12044
▁벌이는 -12045
▁시크릿 -12046
▁코미디 -12047
▁조별리그 -12048
▁어려움 -12049
▁일부가 -12050
▁마피아 -12051
퍼의 -12052
▁피지컬 -12053
▁않았으며 -12054
▁얇 -12055
▁놀랍 -12056
▁아들인 -12057
▁시게 -12058
▁초인 -12059
▁from -12060
▁평양 -12061
▁속성이 -12062
▁멘붕 -12063
▁일하는 -12064
ats -12065
▁활동하고 -12066
▁끼워 -12067
▁닦 -12068
▁작품이다 -12069
파괴 -12070
▁등도 -12071
▁싶다는 -12072
▁포함해 -12073
▁보스를 -12074
▁디즈니 -12075
▁표지 -12076
▁긍정적인 -12077
▁곳곳에 -12078
▁하므로 -12079
▁때문이었다 -12080
▁고소 -12081
▁노조 -12082
▁이기는 -12083
내려 -12084
이한 -12085
▁압권 -12086
▁퍼스트 -12087
▁냈다 -12088
올림픽 -12089
미에게 -12090
▁문제에 -12091
▁테츠 -12092
▁고등학생 -12093
62 -12094
티의 -12095
▁진행된다 -12096
련의 -12097
▁필리핀 -12098
DX -12099
▁동아리 -12100
▁존재하며 -12101
.9% -12102
ube -12103
▁던진 -12104
▁붙인 -12105
▁지리 -12106
하듯 -12107
▁까는 -12108
▁하우스 -12109
▁뽑는 -12110
74 -12111
▁...! -12112
▁마유 -12113
▁비스 -12114
▁누구나 -12115
금으로 -12116
버의 -12117
▁아직까지 -12118
▁문제의 -12119
▁힘입 -12120
▁옴 -12121
주세요 -12122
▁매그 -12123
▁보드 -12124
▁내에서는 -12125
▁세계로 -12126
▁들지 -12127
▁분노한 -12128
포는 -12129
▁고속도로 -12130
리스를 -12131
▁조언을 -12132
000000 -12133
▁첫째 -12134
주교 -12135
▁뜻이 -12136
▁포탈 -12137
졌기 -12138
▁자칭 -12139
▁여러번 -12140
▁떨어질 -12141
▁뿌려 -12142
▁타이거즈 -12143
수리 -12144
▁극중 -12145
▁억울 -12146
히기 -12147
처를 -12148
▁흡혈귀 -12149
▁없어도 -12150
▁350 -12151
▁랄 -12152
번째로 -12153
▁뜻으로 -12154
▁토니 -12155
▁가능하게 -12156
▁이경 -12157
▁됨 -12158
▁써도 -12159
▁에피소드가 -12160
▁라스 -12161
▁하나하나 -12162
리아는 -12163
▁EZ -12164
▁힘의 -12165
ition -12166
▁좌석 -12167
▁아이디 -12168
▁제작된 -12169
▁발표했다 -12170
당초 -12171
▁타이탄 -12172
▁들어가지 -12173
▁애쉬 -12174
▁없지 -12175
▁할지 -12176
▁묘사된다 -12177
▁유메 -12178
▁경험을 -12179
▁궁극기 -12180
▁말씀 -12181
▁방을 -12182
▁다큐 -12183
▁복합 -12184
패스 -12185
▁ld -12186
령으로 -12187
▁갇혀 -12188
usic -12189
▁둘러싸 -12190
▁특징이 -12191
▁미쳐 -12192
▁자원을 -12193
▁드워 -12194
▁않나 -12195
▁상태다 -12196
▁Qu -12197
▁RA -12198
▁디자인을 -12199
▁불리한 -12200
▁이어져 -12201
▁하였으나 -12202
해야한다 -12203
▁변호사 -12204
례로 -12205
▁고려하면 -12206
▁일관 -12207
▁하필이면 -12208
▁그러므로 -12209
CD -12210
글을 -12211
▁카네 -12212
▁치고는 -12213
▁생체 -12214
▁실사 -12215
▁내용이다 -12216
▁인공지능 -12217
▁박물 -12218
▁정원 -12219
뿐이다 -12220
▁혀 -12221
▁단위로 -12222
msys -12223
상가 -12224
▁담아 -12225
▁영향이 -12226
▁입문 -12227
▁진행된 -12228
없어 -12229
채로 -12230
나도 -12231
▁원수 -12232
▁저렇게 -12233
▁진지하게 -12234
▁뜨는 -12235
▁다시금 -12236
▁ldmsys -12237
▁기숙사 -12238
상승 -12239
▁pl -12240
▁게임으로 -12241
▁의지를 -12242
▁단발 -12243
▁까다로운 -12244
▁ATK -12245
▁믹스 -12246
주인공 -12247
▁필드에 -12248
▁전격 -12249
▁지원하는 -12250
▁김지 -12251
로이 -12252
▁시골 -12253
▁이놈 -12254
69 -12255
노동 -12256
▁달하는 -12257
▁패배한 -12258
▁칼로 -12259
▁씨앗 -12260
▁즐길 -12261
▁디자이 -12262
orts -12263
에게만 -12264
▁간단하게 -12265
▁데이비드 -12266
몬이 -12267
▁여기저기 -12268
▁이어진다 -12269
감으로 -12270
▁엄밀히 -12271
▁판정을 -12272
▁김수 -12273
▁약을 -12274
▁능력도 -12275
▁DS -12276
▁피규 -12277
▁나뉜 -12278
▁표정 -12279
▁병력이 -12280
▁대변 -12281
▁떴 -12282
▁때에도 -12283
▁멤버로 -12284
▁룩 -12285
▁NO -12286
▁클론 -12287
▁중고 -12288
리우스 -12289
▁카테 -12290
용은 -12291
▁10, -12292
▁결국은 -12293
▁기름 -12294
히토 -12295
▁높을 -12296
▁않았는데 -12297
예요 -12298
우치 -12299
쿠가 -12300
▁소중 -12301
▁힙합 -12302
▁게이지가 -12303
관련 -12304
▁미소 -12305
▁활동하는 -12306
▁생김새 -12307
▁오렌 -12308
모는 -12309
▁원시 -12310
▁뿐더러 -12311
▁조금이라도 -12312
영과 -12313
해야만 -12314
▁이렇다 -12315
▁점수가 -12316
▁측은 -12317
▁경상남도 -12318
▁나타내는 -12319
▁185 -12320
▁샀 -12321
▁승차 -12322
시키지 -12323
▁마을에 -12324
EL -12325
률을 -12326
▁보좌 -12327
▁신지 -12328
▁매장 -12329
▁인민 -12330
▁츤 -12331
▁방송에 -12332
질적인 -12333
포인 -12334
▁충족 -12335
▁이태 -12336
▁NBA -12337
▁Vol -12338
▁오니 -12339
▁돌아왔 -12340
리스타 -12341
이다보니 -12342
▁감탄 -12343
▁때만 -12344
▁적들이 -12345
▁주인공과 -12346
리스는 -12347
▁죄를 -12348
▁했기 -12349
▁지역이 -12350
▁섬의 -12351
▁마물 -12352
▁아나운서 -12353
▁부천 -12354
▁성격으로 -12355
▁로고 -12356
▁주축 -12357
▁진행되는 -12358
▁사실에 -12359
▁그릇 -12360
▁실현 -12361
▁시작해 -12362
▁흥미 -12363
▁USB -12364
▁루비 -12365
▁애완 -12366
▁시에는 -12367
재의 -12368
▁설이 -12369
▁입지 -12370
▁진급 -12371
▁탐정 -12372
▁그렇기에 -12373
▁9, -12374
▁엉덩 -12375
▁대표하는 -12376
▁이케 -12377
▁인물은 -12378
진화 -12379
▁마스 -12380
▁봐서 -12381
▁탓인지 -12382
▁네트워크 -12383
엘의 -12384
▁땡 -12385
▁그후 -12386
▁형편 -12387
margin -12388
등장인물 -12389
▁말해서 -12390
▁에메 -12391
▁Pre -12392
아닌 -12393
▁Sch -12394
▁기껏 -12395
▁128 -12396
▁실력은 -12397
▁어째서인지 -12398
▁III -12399
gr -12400
▁시바 -12401
▁좀더 -12402
▁220 -12403
▁이마 -12404
▁선보였다 -12405
▁키를 -12406
▁Season -12407
▁격려 -12408
대고 -12409
▁집권 -12410
▁추측된다 -12411
▁샤를 -12412
랄한 -12413
▁예산 -12414
▁무자 -12415
혼의 -12416
▁판결 -12417
공화국 -12418
▁발견한 -12419
▁시간대 -12420
▁회사의 -12421
▁분홍 -12422
▁일종 -12423
▁반면에 -12424
▁벨기에 -12425
▁탕 -12426
▁BJ -12427
▁우루 -12428
했어 -12429
▁깨어나 -12430
▁마을의 -12431
▁트윗 -12432
▁서쪽 -12433
▁뜨거운 -12434
able -12435
▁카게 -12436
▁곁에 -12437
▁본작의 -12438
▁바람의 -12439
▁시즌이 -12440
▁쿼 -12441
:45 -12442
▁입힌다 -12443
▁중견 -12444
▁2:0 -12445
▁것이나 -12446
자동 -12447
두로 -12448
▁IT -12449
▁70% -12450
▁실패했다 -12451
개는 -12452
▁타이틀을 -12453
▁스트라이커 -12454
▁논리 -12455
▁행동이 -12456
▁알려졌다 -12457
▁입증 -12458
보컬 -12459
▁웰 -12460
▁김주 -12461
▁부르기도 -12462
천년 -12463
▁터널 -12464
▁탐색 -12465
누스 -12466
▁뽑기 -12467
▁발음이 -12468
▁바텀 -12469
▁비난을 -12470
나에게 -12471
▁바라는 -12472
▁저주를 -12473
독한 -12474
▁섞여 -12475
▁미성 -12476
▁덱을 -12477
▁무엇보다도 -12478
▁깐 -12479
대교 -12480
▁한국시리즈 -12481
▁바둑 -12482
▁아포 -12483
▁유저들 -12484
해하는 -12485
▁엔딩을 -12486
▁박진 -12487
63 -12488
▁뱃 -12489
▁핏 -12490
▁색이 -12491
▁쿠데 -12492
▁아이들이 -12493
ear -12494
▁주행 -12495
드라마 -12496
▁유기 -12497
▁아가씨 -12498
▁베를 -12499
▁성과를 -12500
▁벌써 -12501
▁일어났다 -12502
▁브래 -12503
▁건물이 -12504
▁넘쳐 -12505
개나 -12506
▁밑에서 -12507
청을 -12508
▁무작위 -12509
▁내부에 -12510
▁비전 -12511
리츠 -12512
▁여객 -12513
라라 -12514
▁평행 -12515
▁발견하고 -12516
▁퍽 -12517
무쌍 -12518
▁교류 -12519
점의 -12520
▁배경이 -12521
▁}}} -12522
▁단기 -12523
미래 -12524
었다가 -12525
이크를 -12526
하르트 -12527
▁없기에 -12528
▁역사가 -12529
차전에서 -12530
▁인해서 -12531
▁자체에 -12532
▁사촌 -12533
▁밖에서 -12534
▁카지 -12535
▁카카오 -12536
▁피해량이 -12537
▁주술 -12538
▁경기에서는 -12539
▁이별 -12540
도전 -12541
병과 -12542
▁교토 -12543
▁업적 -12544
▁우스 -12545
▁빠지는 -12546
▁강민 -12547
▁과장 -12548
▁알지 -12549
▁깔끔하게 -12550
▁문장 -12551
▁심각하게 -12552
▁만렙 -12553
▁씬 -12554
결승 -12555
▁초상 -12556
▁역의 -12557
▁내에서도 -12558
▁학생들은 -12559
▁수상한 -12560
▁학교를 -12561
▁불멸 -12562
▁우치 -12563
▁위해선 -12564
43 -12565
▁괜찮아 -12566
▁안정적으로 -12567
▁통솔 -12568
크라이나 -12569
▁침착 -12570
▁시리아 -12571
▁Ed -12572
▁피스 -12573
▁오스만 -12574
▁번의 -12575
▁양이 -12576
소리가 -12577
▁Night -12578
야한다 -12579
▁이름에 -12580
▁상태이 -12581
▁오고 -12582
▁다가가 -12583
▁세월호 -12584
막이 -12585
▁믿는 -12586
▁신동 -12587
▁우린 -12588
▁자제 -12589
방법 -12590
▁손해 -12591
버드 -12592
▁대결을 -12593
▁저작권 -12594
▁날린다 -12595
▁씻 -12596
▁대가 -12597
▁육체 -12598
▁주관 -12599
▁이쪽도 -12600
본을 -12601
▁모르지만 -12602
▁발사한다 -12603
체제 -12604
▁이윤 -12605
app -12606
▁하루에 -12607
▁최상위 -12608
▁240 -12609
▁날카로운 -12610
▁학습 -12611
서스 -12612
▁제라 -12613
▁보스턴 -12614
▁이가 -12615
학년도 -12616
▁관계는 -12617
산역 -12618
▁남동생 -12619
▁받기도 -12620
그를 -12621
사나 -12622
▁상대로는 -12623
▁고개를 -12624
iel -12625
▁테이블 -12626
▁Ap -12627
▁대기시간 -12628
▁...? -12629
▁작품에 -12630
▁약속을 -12631
보라 -12632
▁마틴 -12633
타에 -12634
▁리볼 -12635
▁한꺼 -12636
파와 -12637
:15 -12638
하고도 -12639
▁후보가 -12640
▁AA -12641
▁가져온 -12642
▁조치 -12643
루션 -12644
월까지 -12645
▁초기에 -12646
조선 -12647
▁일본이 -12648
▁그렇기 -12649
▁박스오피스 -12650
▁IM -12651
▁이원 -12652
▁걸즈 -12653
포드 -12654
때마다 -12655
▁NH -12656
▁차원에서 -12657
▁아자 -12658
▁딘 -12659
그레 -12660
밀한 -12661
▁수장 -12662
▁껍 -12663
▁탄핵 -12664
▁분신 -12665
▁랜덤으로 -12666
▁아시 -12667
▁조합이 -12668
▁스스로를 -12669
당과 -12670
스틴 -12671
▁되돌아 -12672
71 -12673
.3% -12674
▁Fr -12675
▁애용 -12676
▁문제다 -12677
▁워리어 -12678
▁타이밍을 -12679
▁영화가 -12680
ib -12681
도라 -12682
건담 -12683
▁종결 -12684
vel -12685
▁위와 -12686
▁교육을 -12687
▁묻는 -12688
▁바꿨 -12689
▁섞어 -12690
▁수석 -12691
인방 -12692
▁Girl -12693
▁일행과 -12694
▁올라간 -12695
카나 -12696
▁열매 -12697
몬스터 -12698
▁알려지지 -12699
▁상냥 -12700
▁대시 -12701
창이 -12702
히며 -12703
▁대미 -12704
채널 -12705
▁왼손 -12706
▁강릉 -12707
▁주인공에게 -12708
▁여태 -12709
ull -12710
▁수급 -12711
거래 -12712
법원 -12713
▁개수 -12714
▁살인사건 -12715
▁담배 -12716
▁앗 -12717
▁광명 -12718
▁승무원 -12719
리포 -12720
▁경력이 -12721
병은 -12722
▁모스크 -12723
▁대다수의 -12724
▁방사능 -12725
치고는 -12726
▁비행기 -12727
▁생각하지 -12728
▁의미하는 -12729
▁가루 -12730
▁아르바 -12731
▁검은색 -12732
▁앓 -12733
▁다닐 -12734
질은 -12735
▁넉백 -12736
엘이 -12737
▁소재지 -12738
▁초기화 -12739
▁민폐 -12740
▁주택 -12741
▁레이블 -12742
하여야 -12743
▁결혼을 -12744
▁라인을 -12745
▁쓰러진 -12746
▁한꺼번에 -12747
하였지만 -12748
▁솟 -12749
▁원작과 -12750
▁CM -12751
런스 -12752
사격 -12753
▁일곱 -12754
▁땅볼 -12755
▁존중 -12756
▁띠 -12757
▁간섭 -12758
▁육상 -12759
▁페어 -12760
자유 -12761
▁시합 -12762
▁살던 -12763
▁OG -12764
이었기에 -12765
풍이 -12766
▁망설 -12767
▁해당한다 -12768
61 -12769
▁전향 -12770
▁TS -12771
▁피하기 -12772
▁단검 -12773
▁공격의 -12774
노선 -12775
▁뻔한 -12776
에른 -12777
이나마 -12778
값을 -12779
▁보낼 -12780
카드를 -12781
▁시외 -12782
▁좋다는 -12783
▁플랜 -12784
▁해산 -12785
▁올라와 -12786
▁짧게 -12787
▁감독으로 -12788
▁조건으로 -12789
▁남매 -12790
▁상무 -12791
▁폴아웃 -12792
▁연맹 -12793
▁요한 -12794
▁선수들을 -12795
▁않는데 -12796
▁아수 -12797
ult -12798
▁아냐 -12799
▁일본인 -12800
▁not -12801
▁빙결 -12802
▁(20 -12803
▁아르헨티나 -12804
▁구동 -12805
▁고로 -12806
▁공인 -12807
▁우두 -12808
킬을 -12809
메이트 -12810
▁보험 -12811
료가 -12812
▁La -12813
▁웬만 -12814
▁고르 -12815
쪽이 -12816
▁상하이 -12817
▁유니콘 -12818
민과 -12819
▁인상을 -12820
thing -12821
되지는 -12822
▁탈취 -12823
▁일으키는 -12824
▁헥 -12825
겁게 -12826
▁모르겠지만 -12827
▁미래의 -12828
▁충격적인 -12829
▁이틀 -12830
▁지혜 -12831
▁전반적인 -12832
리즘 -12833
▁선발로 -12834
▁비교해 -12835
치킨 -12836
ject -12837
▁고지 -12838
▁높여 -12839
▁장례 -12840
▁친척 -12841
▁2% -12842
ron -12843
▁장착한 -12844
▁님 -12845
▁교차 -12846
▁허리 -12847
▁아군을 -12848
불명 -12849
▁마땅 -12850
▁일족 -12851
▁판매량 -12852
▁OS -12853
GA -12854
▁랑 -12855
▁인피니티 -12856
▁말레이 -12857
변을 -12858
었어 -12859
▁국내에서 -12860
▁등장하고 -12861
분은 -12862
-04 -12863
등으로 -12864
▁광산 -12865
▁검열 -12866
▁능가 -12867
▁최종적으로 -12868
▁이쿠 -12869
▁토트넘 -12870
돌아 -12871
지므로 -12872
▁모종의 -12873
▁순서대로 -12874
▁요소를 -12875
▁내부의 -12876
▁우크라이나 -12877
빨리 -12878
쾌한 -12879
▁프롤 -12880
▁보여주지 -12881
▁붙는 -12882
▁심의 -12883
▁영상에서 -12884
▁극한 -12885
▁오를 -12886
▁인사를 -12887
▁어머니는 -12888
동에서 -12889
▁갖춰 -12890
플라 -12891
▁통하지 -12892
▁발각 -12893
▁마드리드 -12894
▁유틸 -12895
시아의 -12896
▁화산 -12897
시킵니다 -12898
들에서 -12899
▁도트 -12900
▁사업을 -12901
▁시작하고 -12902
▁등재 -12903
사냥 -12904
▁때를 -12905
병에 -12906
▁로보 -12907
▁약혼 -12908
▁드물게 -12909
▁입구 -12910
▁흡사 -12911
▁감이 -12912
▁달라진다 -12913
net -12914
태가 -12915
▁전송 -12916
/11 -12917
co -12918
▁벡 -12919
적이며 -12920
코에게 -12921
가기 -12922
▁안겨 -12923
▁번째로 -12924
▁싸운다 -12925
▁태워 -12926
환으로 -12927
키스탄 -12928
▁얼어 -12929
▁츠키 -12930
▁남게 -12931
딩을 -12932
▁프랜 -12933
▁싸웠 -12934
▁장미 -12935
▁거두었다 -12936
▁쏘아 -12937
선수권 -12938
▁전쟁에서 -12939
▁대상의 -12940
▁스탠드 -12941
▁보여줄 -12942
▁특화된 -12943
▁묶어 -12944
실과 -12945
▁틀린 -12946
▁AV -12947
▁딸이 -12948
▁모순 -12949
▁전성기 -12950
▁타치 -12951
▁그곳에서 -12952
▁몸으로 -12953
▁녹아 -12954
페라 -12955
▁높지 -12956
무스 -12957
▁앞선 -12958
▁방식의 -12959
▁뒤의 -12960
▁따라서는 -12961
▁신중 -12962
▁프로토스 -12963
▁드립을 -12964
▁스탈 -12965
▁연예인 -12966
▁슈트 -12967
▁보상을 -12968
▁유미 -12969
▁외곽 -12970
▁취업 -12971
▁힘입어 -12972
▁남아있다 -12973
CS -12974
▁젬 -12975
▁중력 -12976
년은 -12977
▁영문명 -12978
▁통계 -12979
▁아슬 -12980
▁늘어난다 -12981
플러스 -12982
▁압축 -12983
리니 -12984
▁사이로 -12985
▁소환할 -12986
▁9. -12987
▁마우스 -12988
▁무언가 -12989
▁사투 -12990
▁무언가를 -12991
▁개장 -12992
▁김광 -12993
▁종점행 -12994
▁재건 -12995
▁미만 -12996
으신 -12997
▁정권 -12998
to -12999
심은 -13000
▁그렇다면 -13001
▁여기에서 -13002
▁신세 -13003
국과 -13004
▁묻는다 -13005
▁스카웃 -13006
▁시상식 -13007
OO -13008
▁측의 -13009
▁받았다고 -13010
테크 -13011
▁오이 -13012
있다고 -13013
총을 -13014
색은 -13015
니카 -13016
▁Op -13017
▁않다고 -13018
CH -13019
▁상담 -13020
▁침몰 -13021
작인 -13022
▁Gre -13023
▁경찰이 -13024
▁지역으로 -13025
▁재앙 -13026
▁부패 -13027
▁감동 -13028
ild -13029
93 -13030
▁불어 -13031
시에서 -13032
▁주인이 -13033
▁단독으로 -13034
▁플레이할 -13035
▁달의 -13036
▁없었기 -13037
▁악명 -13038
▁별명을 -13039
▁불타 -13040
▁해양 -13041
분간 -13042
파티 -13043
▁경연 -13044
▁선수들 -13045
삼거리 -13046
▁거짓말을 -13047
▁배울 -13048
▁2017-12 -13049
▁상주 -13050
▁포함된 -13051
▁눈앞 -13052
▁우정 -13053
▁펭 -13054
린과 -13055
▁모나 -13056
▁그리핀 -13057
▁이전까지 -13058
▁캐시 -13059
▁실패하고 -13060
▁엔터테인먼트 -13061
▁권력을 -13062
▁얹 -13063
근이 -13064
▁이천 -13065
▁명칭이 -13066
만큼의 -13067
▁휩쓸 -13068
▁본능 -13069
▁등장해 -13070
▁배차간격 -13071
사우루스 -13072
~7 -13073
▁평소에는 -13074
▁갖다 -13075
▁가담 -13076
노미야 -13077
▁강호 -13078
▁순간에 -13079
연승 -13080
inal -13081
▁활용할 -13082
망의 -13083
어택 -13084
▁미국이 -13085
▁기점행 -13086
▁트레이너 -13087
▁유튜버 -13088
▁정도만 -13089
▁능력치는 -13090
저는 -13091
다보면 -13092
이치로 -13093
▁라이언 -13094
열의 -13095
▁놓여 -13096
▁-4 -13097
▁못지 -13098
▁게임이다 -13099
▁버릴 -13100
▁시리즈는 -13101
▁유닛은 -13102
▁Col -13103
▁지속적인 -13104
▁가능하다는 -13105
▁아픈 -13106
▁점멸 -13107
▁마력을 -13108
▁되어야 -13109
받게 -13110
▁장남 -13111
▁후미 -13112
스와의 -13113
▁마산 -13114
▁직전까지 -13115
두를 -13116
그가 -13117
▁게시판 -13118
▁밀어붙 -13119
▁보스로 -13120
츠와 -13121
▁LE -13122
▁지지를 -13123
만도 -13124
해라 -13125
▁않았다면 -13126
▁자유한국당 -13127
▁Mi -13128
▁준수 -13129
▁남자의 -13130
니즘 -13131
두의 -13132
▁낮고 -13133
▁강아 -13134
▁비롯해 -13135
▁캄 -13136
레오 -13137
저래 -13138
▁아마존 -13139
▁덕분 -13140
▁황제가 -13141
▁공포의 -13142
▁z -13143
▁찍을 -13144
▁키우 -13145
▁사라지는 -13146
분한 -13147
철의 -13148
모노 -13149
▁구울 -13150
▁리그에서 -13151
▁이야기도 -13152
▁사람이다 -13153
▁소유자 -13154
▁브론 -13155
심에 -13156
차의 -13157
슬롯 -13158
▁나왔고 -13159
▁속성을 -13160
▁EXT -13161
▁울프 -13162
▁단어가 -13163
▁바이에른 -13164
▁카운트 -13165
▁불만이 -13166
▁현재도 -13167
▁중지 -13168
▁AFC -13169
▁추가된다 -13170
▁남학생 -13171
▁맨체스터 -13172
▁화재 -13173
▁한국은 -13174
▁찔러 -13175
▁몰고 -13176
▁위성 -13177
▁Mag -13178
▁1978 -13179
▁부탁을 -13180
리타 -13181
▁피어 -13182
▁할아버지 -13183
▁디버프 -13184
▁보냈다 -13185
니아의 -13186
▁미소녀 -13187
적이지 -13188
페이즈 -13189
▁!!" -13190
▁눈동 -13191
▁저렴한 -13192
▁있음에도 -13193
▁캐릭터들의 -13194
▁한국판 -13195
음은 -13196
▁쓰리 -13197
▁엽 -13198
▁성향을 -13199
▁운송 -13200
▁안개 -13201
▁지구의 -13202
▁갯 -13203
▁리처 -13204
도서관 -13205
▁인챈 -13206
무로 -13207
▁카가 -13208
▁목적은 -13209
▁터지는 -13210
▁쿨다운 -13211
▁이빨 -13212
▁자를 -13213
때도 -13214
▁고맙 -13215
으려면 -13216
민족 -13217
운이 -13218
▁저하 -13219
▁전략을 -13220
▁숨을 -13221
▁장본 -13222
▁트리비아 -13223
▁툭 -13224
▁시작부터 -13225
마나 -13226
▁호러 -13227
월호 -13228
연맹 -13229
▁본토 -13230
me -13231
▁팡 -13232
▁아유 -13233
▁식민지 -13234
▁예고편 -13235
▁일어난다 -13236
▁GSL -13237
▁레시피 -13238
▁대상에게 -13239
운동장 -13240
▁토키 -13241
▁향후 -13242
▁4: -13243
▁노말 -13244
▁유언 -13245
▁무엇을 -13246
sc -13247
파일 -13248
▁등장은 -13249
▁모아서 -13250
형인 -13251
▁밀고 -13252
reak -13253
▁목적이 -13254
레옹 -13255
▁안고 -13256
▁구간을 -13257
▁90% -13258
트론 -13259
▁영원한 -13260
코스 -13261
렸으나 -13262
▁레이싱 -13263
▁BGA -13264
▁방식은 -13265
/7 -13266
우스가 -13267
▁터진 -13268
▁공부를 -13269
결과 -13270
▁변한다 -13271
▁모두에게 -13272
디와 -13273
▁실용 -13274
▁귀국 -13275
▁밀리언 -13276
▁산하 -13277
▁얼티밋 -13278
▁닐 -13279
플로 -13280
▁본래는 -13281
되서 -13282
▁전당 -13283
▁페어리 -13284
▁니가 -13285
▁동계 -13286
58 -13287
맥스 -13288
▁복장 -13289
하더니 -13290
▁전과 -13291
출을 -13292
▁공이 -13293
▁그란 -13294
▁둘이서 -13295
▁국도 -13296
량과 -13297
yn -13298
▁갔다가 -13299
▁헨리 -13300
▁철도역 -13301
▁얄 -13302
마도 -13303
▁모험가 -13304
성한 -13305
▁피닉스 -13306
▁대해선 -13307
동시 -13308
▁PK -13309
▁이름만 -13310
하기까지 -13311
▁규격 -13312
▁비공식 -13313
ME -13314
▁위상 -13315
공에 -13316
▁토크 -13317
▁슬퍼 -13318
▁우회 -13319
▁굶 -13320
▁단위 -13321
▁목표를 -13322
▁학생들의 -13323
▁모두의 -13324
제작 -13325
현과 -13326
▁에일 -13327
들한테 -13328
▁사망했다 -13329
XX -13330
oot -13331
▁지구를 -13332
출연 -13333
▁업그레이드를 -13334
텍스 -13335
해져서 -13336
▁소환한다 -13337
쿠의 -13338
다시피 -13339
▁드러난 -13340
▁막강한 -13341
▁너도 -13342
▁급격히 -13343
▁어드밴 -13344
▁통틀어 -13345
▁입는다 -13346
공주 -13347
▁용도 -13348
▁없어진 -13349
▁썸 -13350
▁배역 -13351
▁화살을 -13352
▁에밀 -13353
▁올해 -13354
▁이진 -13355
▁3% -13356
▁되었던 -13357
▁주장했다 -13358
▁철갑 -13359
▁생명의 -13360
방식 -13361
▁어렵게 -13362
들어가 -13363
▁합리 -13364
▁멤버들은 -13365
▁블럭 -13366
▁참모 -13367
▁이용객 -13368
리칸 -13369
▁CL -13370
▁센트 -13371
환은 -13372
▁ver -13373
프레임 -13374
▁고성능 -13375
탄은 -13376
할만한 -13377
해버렸다 -13378
▁많다는 -13379
층을 -13380
▁학교의 -13381
▁와타나베 -13382
ings -13383
▁비스트 -13384
▁웨이브 -13385
맨은 -13386
▁섬광 -13387
모션 -13388
▁약하다 -13389
▁영양 -13390
▁가이드 -13391
▁전쟁에 -13392
▁대부분이다 -13393
▁보자면 -13394
▁영향력을 -13395
▁이세계 -13396
▁적힌 -13397
플라이 -13398
▁210 -13399
▁별개의 -13400
▁무방하다 -13401
▁모양이 -13402
▁세레 -13403
대신 -13404
▁아비 -13405
범이 -13406
▁자책 -13407
▁속해 -13408
▁강하고 -13409
▁버전의 -13410
뉴스 -13411
▁홍진 -13412
▁노린 -13413
▁산타 -13414
▁비판이 -13415
▁엠블 -13416
▁팀에서 -13417
▁평소에 -13418
녀의 -13419
▁이래저래 -13420
▁전담 -13421
▁하긴 -13422
왔다고 -13423
구조 -13424
▁면도 -13425
▁아랫 -13426
▁원래대로 -13427
▁뿐이지 -13428
▁도서 -13429
▁주저 -13430
우에게 -13431
▁1200 -13432
▁둘러보기 -13433
▁공간을 -13434
▁플라스 -13435
▁인도네시아 -13436
▁추세 -13437
▁시의 -13438
▁노선은 -13439
▁컨디션 -13440
▁라이트닝 -13441
시내 -13442
▁1945 -13443
▁상대하기 -13444
형과 -13445
▁피오 -13446
▁쓰기도 -13447
▁표정이 -13448
▁기부 -13449
▁토시 -13450
▁공격적인 -13451
▁믿지 -13452
▁아키라 -13453
▁악화 -13454
▁Black -13455
바는 -13456
편으로 -13457
▁팀으로 -13458
▁발견된 -13459
패턴 -13460
▁AL -13461
▁소꿉 -13462
▁두드러 -13463
▁탔 -13464
▁전동차 -13465
▁뚱 -13466
▁시범 -13467
▁도대체 -13468
▁샤오 -13469
▁조사를 -13470
▁모인 -13471
집에서 -13472
▁미사일을 -13473
▁will -13474
렸으며 -13475
▁도덕 -13476
▁0% -13477
▁도우 -13478
▁오노 -13479
▁정답 -13480
▁포장 -13481
▁노력을 -13482
▁아쉽게도 -13483
▁정석 -13484
▁내렸다 -13485
량에 -13486
▁장난감 -13487
▁두는 -13488
▁했다가 -13489
▁즈음 -13490
▁마친 -13491
▁멈춰 -13492
▁뚜렷 -13493
▁몸통 -13494
▁모드가 -13495
cc -13496
▁맡는 -13497
▁수호자 -13498
▁냉장 -13499
▁패자 -13500
▁전작과 -13501
인민 -13502
▁제발 -13503
▁신경쓰지 -13504
▁중소 -13505
▁반란을 -13506
▁비서 -13507
▁티저 -13508
▁소원을 -13509
피의 -13510
▁여기까지 -13511
▁아래와 -13512
▁이동할 -13513
▁여자를 -13514
▁제치고 -13515
▁신을 -13516
▁+20 -13517
▁마족 -13518
▁미러 -13519
▁표현이 -13520
▁기록하고 -13521
▁차이나 -13522
▁특징을 -13523
▁이도 -13524
▁부실 -13525
▁like -13526
▁감옥에 -13527
▁받아야 -13528
이에게 -13529
어버렸다 -13530
▁그도 -13531
▁어머니를 -13532
▁도감 -13533
급은 -13534
▁상대하는 -13535
▁전대 -13536
거의 -13537
▁버스트 -13538
▁자료를 -13539
하신 -13540
▁모션이 -13541
▁부담이 -13542
▁벗겨 -13543
▁도시의 -13544
.75 -13545
▁면허 -13546
▁짓는 -13547
▁뛰어들 -13548
▁상황에서도 -13549
▁오죽하면 -13550
▁궤도 -13551
되었다가 -13552
등록 -13553
ECT -13554
▁들어보면 -13555
▁바랍니다 -13556
코인 -13557
초부터 -13558
제도 -13559
▁후술할 -13560
볼넷 -13561
안전 -13562
▁나폴레옹 -13563
미디어 -13564
▁작품에서 -13565
▁점에 -13566
▁돌아올 -13567
돼서 -13568
▁거점 -13569
▁세계대전 -13570
▁독보 -13571
버스가 -13572
▁공격력과 -13573
▁오른손 -13574
▁보여주면서 -13575
▁노인 -13576
▁창을 -13577
▁여론이 -13578
▁국경 -13579
▁친다 -13580
▁간파 -13581
▁이르는 -13582
▁컴뱃 -13583
▁인간과 -13584
토에게 -13585
▁규모의 -13586
워하는 -13587
바다 -13588
▁아아 -13589
BL -13590
▁복사 -13591
▁어벤져 -13592
▁룸 -13593
요한 -13594
▁트랩 -13595
훈은 -13596
▁총선 -13597
▁츠쿠 -13598
▁-10 -13599
라운드에서 -13600
▁다리가 -13601
▁실내 -13602
▁장타 -13603
▁노란색 -13604
▁쓰이지 -13605
▁상승한다 -13606
▁캣 -13607
▁필요로 -13608
애를 -13609
▁주의하자 -13610
▁얌 -13611
oul -13612
▁밀레 -13613
▁좌익 -13614
BT -13615
▁소규모 -13616
▁파동 -13617
▁전력이 -13618
▁운동을 -13619
구분 -13620
▁막혀 -13621
▁뺨 -13622
수에게 -13623
전선 -13624
▁CR -13625
▁본다면 -13626
▁덧붙여 -13627
▁배리어 -13628
▁공업 -13629
무지 -13630
▁따위 -13631
ould -13632
▁맵을 -13633
▁음료 -13634
FL -13635
▁돔 -13636
▁포착 -13637
▁페르소나 -13638
▁야구장 -13639
▁이리저리 -13640
키스 -13641
▁진행할 -13642
들여 -13643
▁단장 -13644
▁꿈꾸 -13645
▁모음 -13646
▁지루 -13647
▁노릇 -13648
▁계단 -13649
▁대피 -13650
▁녀석이 -13651
▁약점이 -13652
▁보너스를 -13653
▁마찰 -13654
중이 -13655
▁속도는 -13656
▁고대의 -13657
▁발사하는 -13658
법의 -13659
▁오르는 -13660
리시 -13661
오게 -13662
ody -13663
▁확인되었다 -13664
▁껴 -13665
▁것이지 -13666
IK -13667
링은 -13668
▁법무 -13669
▁TOP -13670
▁그렇듯 -13671
▁메디 -13672
▁세우 -13673
▁1973 -13674
▁Gl -13675
▁문제도 -13676
▁오게 -13677
▁tr -13678
▁MM -13679
▁낯 -13680
▁오퍼 -13681
ater -13682
▁1.6 -13683
73 -13684
▁순환 -13685
량도 -13686
▁앞으로도 -13687
▁재능을 -13688
▁와중에도 -13689
▁홋카이도 -13690
터에 -13691
파에 -13692
▁Gaming -13693
▁입에 -13694
▁아쿠아 -13695
▁주무 -13696
▁교복 -13697
레븐 -13698
▁철저하게 -13699
석과 -13700
었습니다 -13701
▁대기업 -13702
ott -13703
▁tv -13704
▁자아 -13705
되어야 -13706
▁so -13707
▁권한 -13708
▁목소리로 -13709
▁타카하시 -13710
▁발레 -13711
▁완공 -13712
좋게 -13713
▁국어 -13714
▁보이기 -13715
▁왓 -13716
▁가령 -13717
카게 -13718
▁말고도 -13719
▁완벽히 -13720
▁고사 -13721
▁1.8 -13722
동맹 -13723
▁천하 -13724
▁싶어서 -13725
▁설정은 -13726
▁방영된 -13727
ws -13728
▁남지 -13729
▁들어가게 -13730
▁않자 -13731
▁다르지만 -13732
ions -13733
ster -13734
▁카사 -13735
▁벌어졌다 -13736
▁사다 -13737
▁경기력을 -13738
▁나타났다 -13739
각의 -13740
애니 -13741
▁폭로 -13742
▁살게 -13743
▁드러내 -13744
견을 -13745
▁절벽 -13746
▁팬이 -13747
▁맞았다 -13748
▁첼시 -13749
▁Let -13750
함의 -13751
쓰고 -13752
▁이듬 -13753
▁믹 -13754
▁이라크 -13755
르도 -13756
AND -13757
▁수준은 -13758
▁모의 -13759
▁김일 -13760
▁1.0 -13761
▁스바 -13762
이다가 -13763
▁환생 -13764
▁제왕 -13765
▁있어서는 -13766
▁플레이버 -13767
▁초능력 -13768
국인 -13769
▁계략 -13770
▁마스코 -13771
▁레벨업 -13772
▁공감 -13773
▁쳐서 -13774
비한 -13775
▁보낸다 -13776
▁나뉜다 -13777
▁감추 -13778
리스크 -13779
▁금강 -13780
▁아마추어 -13781
▁늪 -13782
운수 -13783
▁곤충 -13784
▁시대를 -13785
쓰는 -13786
▁바론 -13787
▁리자 -13788
▁김병 -13789
▁루머 -13790
▁착륙 -13791
▁따르 -13792
▁사정이 -13793
▁학생이 -13794
▁이동하는 -13795
▁늘어났다 -13796
▁영웅의 -13797
회로 -13798
▁원주민 -13799
▁운영을 -13800
▁Gu -13801
▁대포 -13802
▁트럼프 -13803
▁사악한 -13804
▁도망가 -13805
▁읽고 -13806
▁트랜스포 -13807
▁행방 -13808
▁상대방을 -13809
▁겪은 -13810
절이 -13811
기다 -13812
▁iOS -13813
▁공원 -13814
▁유학 -13815
▁추리 -13816
▁만나서 -13817
▁하나에 -13818
▁못했지만 -13819
말이 -13820
실점을 -13821
더는 -13822
리코 -13823
▁아사히 -13824
▁나기 -13825
▁모빌 -13826
▁정황상 -13827
센스 -13828
▁주변을 -13829
▁능력과 -13830
▁에미 -13831
▁미국은 -13832
▁하츠네 -13833
▁투기 -13834
▁힘은 -13835
▁법을 -13836
▁오류가 -13837
조한 -13838
▁초고 -13839
▁성공적으로 -13840
▁국가가 -13841
▁떡밥이 -13842
▁대쉬 -13843
▁달콤 -13844
▁안젤 -13845
▁공중에 -13846
▁헤드샷 -13847
▁유지하는 -13848
▁케리 -13849
▁Do -13850
었기에 -13851
이후 -13852
▁내며 -13853
▁직선 -13854
보에 -13855
6% -13856
-21 -13857
희를 -13858
▁0.4 -13859
alk -13860
▁At -13861
▁혼혈 -13862
자료 -13863
mmer -13864
▁선진 -13865
사이어 -13866
▁작가는 -13867
계와 -13868
립스 -13869
▁시가 -13870
▁지켜보 -13871
▁능력치를 -13872
▁중화민 -13873
▁짝사랑 -13874
견이 -13875
그의 -13876
▁불리며 -13877
념을 -13878
만명 -13879
▁빌리 -13880
▁박아 -13881
▁로스트 -13882
▁사용되었다 -13883
▁로우 -13884
▁없었을 -13885
▁다루고 -13886
▁com -13887
의의 -13888
▁그루 -13889
▁답게 -13890
▁작고 -13891
▁테크닉 -13892
조와 -13893
▁나눈 -13894
▁움직이지 -13895
▁밈 -13896
간이 -13897
cl -13898
▁짬 -13899
할지 -13900
▁쉽고 -13901
▁판다 -13902
▁길다 -13903
▁수비력 -13904
▁부자 -13905
▁암시 -13906
니혼 -13907
▁무료로 -13908
ICE -13909
▁김윤 -13910
▁드론 -13911
오면서 -13912
모어 -13913
▁의사를 -13914
▁눈으로 -13915
▁특징은 -13916
전에서도 -13917
▁아이들 -13918
헤이 -13919
▁딜이 -13920
▁예약 -13921
▁Min -13922
▁포텐 -13923
되었습니다 -13924
▁덤벼 -13925
▁원문 -13926
▁빨간색 -13927
시민 -13928
▁FM -13929
▁베지 -13930
▁인간은 -13931
드에게 -13932
▁상위권 -13933
▁상대방이 -13934
▁해소 -13935
▁덱에 -13936
▁저승 -13937
형에 -13938
▁이타 -13939
서버 -13940
▁공헌 -13941
▁마지 -13942
▁트로피 -13943
▁2017-11 -13944
▁방에서 -13945
▁무제한 -13946
소모 -13947
혁이 -13948
▁재수 -13949
▁보편 -13950
▁운수사 -13951
▁우유 -13952
▁하나같이 -13953
▁벤치 -13954
한정 -13955
▁원작에서 -13956
▁특이사항 -13957
해선 -13958
▁가히 -13959
▁맡겨 -13960
▁나비 -13961
▁토미 -13962
▁종류가 -13963
▁쳐다 -13964
▁칭호 -13965
행위 -13966
~1 -13967
▁버프가 -13968
▁비판하는 -13969
▁필요할 -13970
▁뭐야 -13971
▁장탄수 -13972
▁워커 -13973
시스코 -13974
▁반도 -13975
볼트 -13976
▁스테이 -13977
▁적용되는 -13978
▁중동 -13979
▁피니 -13980
▁큐어 -13981
마력 -13982
▁무대에 -13983
▁소속으로 -13984
지던 -13985
▁전인 -13986
▁출동 -13987
ty -13988
▁시공 -13989
▁있어요 -13990
▁친애도 -13991
▁have -13992
▁실린 -13993
▁통하여 -13994
▁모양으로 -13995
가족 -13996
▁두꺼 -13997
▁단점은 -13998
▁지원한다 -13999
▁종영 -14000
▁알려준다 -14001
▁서바이벌 -14002
▁경부 -14003
▁가져가 -14004
▁기관단 -14005
▁정책을 -14006
▁노는 -14007
▁다카 -14008
▁강렬한 -14009
▁시험을 -14010
▁방식이다 -14011
▁쳐도 -14012
▁수감 -14013
▁비밀을 -14014
활약 -14015
▁선택을 -14016
지옥 -14017
님은 -14018
▁대책 -14019
▁듣지 -14020
▁콘스탄 -14021
▁얼마든지 -14022
신에 -14023
▁축구선수 -14024
▁논쟁 -14025
관계가 -14026
▁항공기 -14027
▁주인공으로 -14028
차기 -14029
ann -14030
▁섬멸 -14031
▁부대를 -14032
▁예전에는 -14033
▁Co -14034
3% -14035
▁기간이 -14036
▁당연하지만 -14037
군주 -14038
UR -14039
▁예쁜 -14040
▁사우스 -14041
▁조커 -14042
YP -14043
▁고아 -14044
▁가면을 -14045
▁발생했다 -14046
▁운수사명 -14047
▁국내에서는 -14048
▁이루어졌다 -14049
올라 -14050
▁만주 -14051
▁병살 -14052
▁개가 -14053
▁엉뚱 -14054
▁후유 -14055
따라 -14056
▁주황 -14057
▁아이템은 -14058
학부 -14059
▁돌아온다 -14060
▁조종하는 -14061
▁캐릭터인 -14062
즈카 -14063
▁워프 -14064
▁구조를 -14065
▁백작 -14066
▁이소 -14067
▁주입 -14068
▁아버지인 -14069
롭게도 -14070
코치 -14071
▁초과 -14072
▁상술한 -14073
고와 -14074
타워 -14075
▁부분도 -14076
▁보러 -14077
▁1.4 -14078
▁초청 -14079
▁이듬해 -14080
▁누르고 -14081
▁이글스 -14082
▁극초 -14083
▁맞추는 -14084
▁작중에서는 -14085
류는 -14086
▁치러 -14087
련을 -14088
▁RE -14089
▁올라오는 -14090
ㅋㅋ -14091
▁연구소 -14092
▁레이븐 -14093
▁부스트 -14094
▁불과하다 -14095
▁눈의 -14096
▁토대로 -14097
▁포지션을 -14098
▁자율 -14099
▁조명 -14100
▁작아 -14101
레이트 -14102
▁겟 -14103
▁충청남도 -14104
▁위험이 -14105
▁최정 -14106
▁마법으로 -14107
편은 -14108
▁실려 -14109
▁희망을 -14110
eng -14111
▁두번 -14112
▁인류의 -14113
▁찬성 -14114
▁터보 -14115
▁해준 -14116
▁에서는 -14117
▁앤드 -14118
▁바리에이션 -14119
▁너와 -14120
▁상단 -14121
05 -14122
▁아담 -14123
▁유저의 -14124
▁트러 -14125
▁힘에 -14126
▁손상 -14127
▁타운 -14128
▁되어버린 -14129
▁디스플레이 -14130
▁그들 -14131
▁가족을 -14132
▁러시아의 -14133
▁양반 -14134
하니까 -14135
풀이 -14136
▁직행 -14137
▁잡는다 -14138
▁청춘 -14139
▁카렌 -14140
▁만들어졌다 -14141
연패 -14142
▁따라잡 -14143
▁설치되어 -14144
▁여유가 -14145
▁신한 -14146
학기 -14147
▁플라즈마 -14148
▁아그 -14149
▁초에 -14150
▁미코 -14151
쳤고 -14152
프란 -14153
▁메이지 -14154
▁유망주 -14155
뱅크 -14156
▁먹지 -14157
▁클리셰 -14158
환경 -14159
▁언급을 -14160
차지 -14161
▁만나면 -14162
▁바이러스 -14163
▁엉망 -14164
▁쪽을 -14165
▁나뉘어 -14166
▁재미를 -14167
▁찾아서 -14168
▁선호하는 -14169
▁비비 -14170
▁어서 -14171
▁걸리면 -14172
거가 -14173
▁기술이다 -14174
agon -14175
▁나왔지만 -14176
▁대수 -14177
▁1974 -14178
▁올린다 -14179
▁사키 -14180
▁의도적으로 -14181
▁아니냐 -14182
▁운영하고 -14183
▁이때부터 -14184
▁짠 -14185
▁레온 -14186
▁포로 -14187
▁하늘의 -14188
▁현황 -14189
▁태도 -14190
▁조카 -14191
▁외계인 -14192
▁수립 -14193
▁유우키 -14194
▁스태프 -14195
▁-- -14196
▁고립 -14197
조작 -14198
▁과정이 -14199
▁선수들은 -14200
▁구형 -14201
▁그려진 -14202
▁인천광역시 -14203
▁순간이동 -14204
▁평택 -14205
▁발목을 -14206
▁모른다는 -14207
▁루크 -14208
▁이름과 -14209
▁죽이지 -14210
~" -14211
▁잡힌 -14212
▁NT -14213
때까지 -14214
▁사이를 -14215
구니 -14216
▁백제 -14217
증가 -14218
ins -14219
▁읍 -14220
▁흉내 -14221
층은 -14222
▁모터 -14223
▁이명박 -14224
▁Time -14225
스나 -14226
▁다시는 -14227
.. -14228
▁꿰뚫 -14229
~15 -14230
▁김두 -14231
▁비추 -14232
게이지 -14233
▁know -14234
▁중대 -14235
▁터라 -14236
▁받았던 -14237
▁치료를 -14238
순환 -14239
▁고집 -14240
▁것들을 -14241
▁공간이 -14242
음의 -14243
▁밤의 -14244
▁이벤트에서 -14245
▁과언이 -14246
▁Play -14247
▁콤보를 -14248
▁많았던 -14249
▁서울대학교 -14250
▁몰아넣 -14251
▁남의 -14252
▁승진 -14253
건은 -14254
▁IIDX -14255
▁과격 -14256
▁그리는 -14257
엔터테인먼트 -14258
▁마일 -14259
▁세컨 -14260
리버 -14261
▁RO -14262
▁매각 -14263
미즈 -14264
▁[[]] -14265
택이 -14266
▁특정한 -14267
4% -14268
ator -14269
▁깃털 -14270
▁철학 -14271
▁스카우트 -14272
꾸로 -14273
두가 -14274
티콘 -14275
▁내지는 -14276
▁타입의 -14277
▁모르겠 -14278
▁신생 -14279
▁날아가는 -14280
▁잘생 -14281
▁공짜 -14282
▁도쿠 -14283
ange -14284
▁여자친구 -14285
회장 -14286
▁두뇌 -14287
▁갈리는 -14288
전도 -14289
▁바꾸고 -14290
저우 -14291
▁공대 -14292
있기 -14293
▁시사 -14294
▁가치를 -14295
▁올려주는 -14296
▁스탭 -14297
▁맹독 -14298
우스를 -14299
▁당대 -14300
나리 -14301
▁상당수 -14302
▁줄여서 -14303
▁태국 -14304
▁현실의 -14305
▁내뱉 -14306
▁활동이 -14307
▁소수의 -14308
▁특수능력 -14309
▁3.0 -14310
불을 -14311
▁반쯤 -14312
에다가 -14313
▁넣는다 -14314
▁경험치를 -14315
바위 -14316
▁강동 -14317
▁삭제되었다 -14318
상자 -14319
▁도약 -14320
▁Type -14321
▁bl -14322
▁관계없이 -14323
▁초등학생 -14324
79 -14325
IGH -14326
즈로 -14327
▁상인 -14328
시까지 -14329
ict -14330
▁돼서 -14331
▁창의 -14332
▁버스를 -14333
▁Is -14334
▁각자의 -14335
▁이용하면 -14336
오르 -14337
▁길에 -14338
-30 -14339
▁리버스 -14340
▁0.8 -14341
▁입히는 -14342
▁요금 -14343
▁가사를 -14344
블을 -14345
대수 -14346
▁달인 -14347
년동안 -14348
▁어렵고 -14349
▁꾀 -14350
▁탱킹 -14351
▁한나라당 -14352
▁탄압 -14353
▁ALL -14354
▁호랑이 -14355
▁돌리는 -14356
▁말고는 -14357
▁하인 -14358
▁방송이 -14359
▁1975 -14360
▁탐사 -14361
하자는 -14362
▁활약으로 -14363
▁기록하였다 -14364
▁군수 -14365
권도 -14366
▁Ser -14367
와이 -14368
▁질주 -14369
▁요즘은 -14370
▁스윙 -14371
▁꺾고 -14372
오르는 -14373
▁소프트웨어 -14374
▁키우는 -14375
▁박명 -14376
▁시카고 -14377
▁다행히도 -14378
▁바르셀로나 -14379
▁마찬가지다 -14380
▁라면 -14381
▁먹여 -14382
▁효과도 -14383
▁조상 -14384
▁하도 -14385
▁가리키는 -14386
▁무시할 -14387
▁쓰이고 -14388
▁바쿠 -14389
▁산다 -14390
▁그나마도 -14391
자다 -14392
▁HE -14393
▁명은 -14394
▁들어가기 -14395
UT -14396
▁공교 -14397
▁병역 -14398
▁근처에서 -14399
했으면 -14400
층에서 -14401
후보 -14402
▁약칭 -14403
▁유동 -14404
▁깊이 -14405
중국 -14406
▁연락을 -14407
▁흐르는 -14408
셨다 -14409
▁펴 -14410
▁발생할 -14411
미르 -14412
▁알기 -14413
기면서 -14414
.31 -14415
▁요격 -14416
▁병행 -14417
▁화해 -14418
DP -14419
▁소니 -14420
▁넘어갈 -14421
▁있는게 -14422
▁해줄 -14423
▁래퍼 -14424
▁월간 -14425
▁다국어 -14426
▁멀어 -14427
▁김선 -14428
▁출산 -14429
▁못하며 -14430
반에 -14431
▁성배 -14432
▁조던 -14433
액을 -14434
▁태어났 -14435
▁목이 -14436
▁벗어난 -14437
▁감각 -14438
즈에서 -14439
▁스코틀랜드 -14440
▁슬슬 -14441
▁방송사 -14442
▁만루 -14443
▁팬들도 -14444
▁pro -14445
▁나서는 -14446
▁대학생 -14447
이사 -14448
▁탁월 -14449
▁선동 -14450
▁지진 -14451
▁화폐 -14452
▁갈색 -14453
▁차체 -14454
요리 -14455
▁관리를 -14456
산동 -14457
포와 -14458
~30 -14459
▁이외에는 -14460
▁한국과 -14461
▁징역 -14462
▁인정하고 -14463
St -14464
▁최연 -14465
▁고장 -14466
▁대구광역시 -14467
▁대부분을 -14468
▁앨범을 -14469
▁띄워 -14470
▁112 -14471
▁전라남도 -14472
▁사에 -14473
▁포인트가 -14474
▁Am -14475
▁민병 -14476
▁나에게 -14477
▁업무를 -14478
▁되었으나 -14479
천을 -14480
피는 -14481
▁캡슐 -14482
▁자기를 -14483
▁등장하여 -14484
클릭 -14485
▁Im -14486
▁두루 -14487
▁메세 -14488
▁측면에서 -14489
▁담당하고 -14490
▁2017-10 -14491
열에 -14492
재는 -14493
▁정도에 -14494
분기 -14495
노리 -14496
▁마저 -14497
▁때려잡 -14498
▁정신적 -14499
▁유저는 -14500
대결 -14501
▁쥐어 -14502
▁진행한다 -14503
ACK -14504
▁삼고 -14505
▁당신을 -14506
▁행복한 -14507
티넘 -14508
▁Max -14509
속도를 -14510
▁선을 -14511
▁급행 -14512
호에게 -14513
▁주머니 -14514
▁정해 -14515
▁플레이하는 -14516
▁마코토 -14517
▁사원 -14518
▁임진 -14519
▁줌 -14520
▁총리 -14521
▁흑막 -14522
▁패치를 -14523
▁아름다 -14524
▁안전하게 -14525
▁통하는 -14526
돌파 -14527
▁그보다 -14528
▁작품으로 -14529
▁명시 -14530
af -14531
▁맑 -14532
▁현대의 -14533
:05 -14534
▁못하다 -14535
▁병원에 -14536
▁뛰어나다 -14537
▁필사 -14538
▁일어나지 -14539
위치 -14540
▁무시하는 -14541
금의 -14542
▁로리 -14543
▁지킬 -14544
▁바닷 -14545
하겠다 -14546
▁말하지 -14547
▁자리가 -14548
밴드 -14549
▁마운 -14550
▁추후 -14551
▁전수 -14552
▁여긴 -14553
▁이처럼 -14554
▁2:1 -14555
령은 -14556
화하는 -14557
▁걸릴 -14558
▁인생을 -14559
▁어스 -14560
글라 -14561
▁선봉 -14562
▁호크 -14563
▁불안한 -14564
▁두개 -14565
▁전생 -14566
▁맵이 -14567
▁공격시 -14568
▁리즈 -14569
천군 -14570
▁도깨비 -14571
장면 -14572
▁세계가 -14573
▁타이틀곡 -14574
▁고스 -14575
▁복선 -14576
▁충격과 -14577
▁맛을 -14578
▁상시 -14579
▁일베 -14580
▁무기에 -14581
▁호감도 -14582
▁찾으러 -14583
▁프랭크 -14584
▁모드에서 -14585
▁톨 -14586
▁미국과 -14587
▁낭비 -14588
▁SSR -14589
공은 -14590
▁스위스 -14591
▁초록색 -14592
▁대검 -14593
▁컴백 -14594
파이트 -14595
▁+15 -14596
▁155 -14597
▁리부 -14598
▁달성했다 -14599
▁스테이터 -14600
▁비정상 -14601
▁잡았다 -14602
▁인권 -14603
왔는데 -14604
▁체력과 -14605
▁프롤로그 -14606
▁얼라이언 -14607
혁명 -14608
▁잘만 -14609
그래도 -14610
▁하는게 -14611
▁시작하였다 -14612
▁퇴치 -14613
▁간접적으로 -14614
▁남자는 -14615
▁방패를 -14616
▁이후부터 -14617
▁붙어있는 -14618
▁인조 -14619
문에서 -14620
▁one -14621
▁짧아 -14622
▁히로시 -14623
인조 -14624
▁지을 -14625
▁능력에 -14626
▁EV -14627
▁레이디 -14628
▁부속 -14629
시대의 -14630
▁한양 -14631
르드 -14632
▁GM -14633
▁불가사의 -14634
▁연결되어 -14635
오니 -14636
▁앨런 -14637
스테이션 -14638
▁놈이 -14639
▁동력 -14640
▁해당되는 -14641
▁스나이퍼 -14642
▁챠 -14643
▁10000 -14644
▁드래곤의 -14645
▁상황이라 -14646
▁청와대 -14647
들리 -14648
▁지우 -14649
ics -14650
▁보루 -14651
▁부채 -14652
▁지나친 -14653
▁떨어져서 -14654
▁성격의 -14655
▁갱신 -14656
▁입원 -14657
▁생명을 -14658
▁민주주의 -14659
한지 -14660
슈타인 -14661
▁캐릭터이다 -14662
▁정성 -14663
▁중구 -14664
활동을 -14665
하임 -14666
▁거꾸로 -14667
▁조약 -14668
▁한대 -14669
▁제작진이 -14670
▁것에서 -14671
해버린다 -14672
▁제목으로 -14673
배차 -14674
:55 -14675
▁수여 -14676
▁4000 -14677
불명의 -14678
▁않던 -14679
▁Car -14680
▁원피스 -14681
네이션 -14682
전에는 -14683
실험 -14684
▁키미 -14685
되니 -14686
▁유탄 -14687
,000,000 -14688
▁스콜 -14689
▁만난다 -14690
▁클리어하면 -14691
▁크래 -14692
자들과 -14693
▁생각에 -14694
ica -14695
▁고고 -14696
▁고마워 -14697
▁솔직히 -14698
▁차원의 -14699
▁드루이드 -14700
▁슬픈 -14701
▁명칭을 -14702
▁바닥을 -14703
▁오케 -14704
자이자 -14705
▁섭취 -14706
▁퍼펙트 -14707
▁오딘 -14708
차이즈 -14709
▁맵의 -14710
▁시킨 -14711
▁다니엘 -14712
▁자체적으로 -14713
쿠스 -14714
층으로 -14715
▁그마저도 -14716
무게 -14717
배틀 -14718
▁리셋 -14719
▁건가 -14720
▁스마일 -14721
▁유니버 -14722
▁남한 -14723
머리를 -14724
▁고우 -14725
▁항해 -14726
대륙 -14727
▁야마모토 -14728
고생 -14729
▁한달 -14730
▁상자를 -14731
▁비중을 -14732
▁일리 -14733
▁ME -14734
▁싸이 -14735
▁전개가 -14736
▁웃음을 -14737
▁찾아와 -14738
전부터 -14739
▁유닛으로 -14740
▁허가 -14741
▁벚 -14742
▁수치를 -14743
도어 -14744
▁방위 -14745
▁친구를 -14746
▁한계를 -14747
장군 -14748
하우스 -14749
▁도배 -14750
▁여파로 -14751
▁제니 -14752
▁베어스 -14753
▁의정부 -14754
래의 -14755
▁니코니코 -14756
▁리플렉 -14757
▁우세 -14758
▁베이비 -14759
▁오른팔 -14760
▁0.00 -14761
▁차지한 -14762
▁정준 -14763
▁본체 -14764
▁원래의 -14765
▁여캐 -14766
신도시 -14767
▁내버려 -14768
▁멀리서 -14769
AA -14770
▁AB -14771
800 -14772
▁역이 -14773
▁리뉴얼 -14774
▁에레 -14775
▁시선을 -14776
▁짓고 -14777
▁스타워즈 -14778
▁바뀌고 -14779
▁언급되는 -14780
▁김도 -14781
▁죠죠 -14782
사다 -14783
▁수확 -14784
▁자켓 -14785
성에서 -14786
▁일본군 -14787
▁오렌지 -14788
▁근원 -14789
▁알아차 -14790
▁밥을 -14791
우드 -14792
▁LTE -14793
수인 -14794
어버릴 -14795
녀를 -14796
▁자신들을 -14797
▁성의 -14798
▁느끼게 -14799
▁힘들고 -14800
▁이단 -14801
▁줍니다 -14802
▁걷어 -14803
▁많다고 -14804
▁사과를 -14805
8% -14806
연은 -14807
▁수비를 -14808
사라 -14809
▁없어졌다 -14810
wh -14811
률은 -14812
▁쪽의 -14813
▁450 -14814
▁1976 -14815
▁feat -14816
▁어찌보면 -14817
▁떠났다 -14818
▁인원이 -14819
▁사랑에 -14820
훈을 -14821
그마 -14822
▁킷 -14823
▁지내는 -14824
▁앞세 -14825
▁피난 -14826
리에서 -14827
▁창작물 -14828
▁격퇴 -14829
그라운드 -14830
01 -14831
▁저스티 -14832
▁황태 -14833
록을 -14834
▁TP -14835
▁곳도 -14836
▁않겠 -14837
▁탐지 -14838
제품 -14839
▁자고 -14840
▁1/3 -14841
룡이 -14842
▁주니 -14843
▁노골 -14844
▁심히 -14845
▁근처의 -14846
▁호날 -14847
▁맡는다 -14848
▁맡았던 -14849
▁높지만 -14850
▁팬들을 -14851
경기에 -14852
▁소환하는 -14853
▁진격 -14854
▁이카 -14855
▁플러스 -14856
▁WH -14857
코로 -14858
▁강탈 -14859
리프 -14860
▁빨아 -14861
▁점검 -14862
▁때문인 -14863
▁유즈 -14864
마리를 -14865
▁몰아붙 -14866
▁무지개 -14867
년식 -14868
▁방심 -14869
▁수인 -14870
화되었다 -14871
▁정교 -14872
▁시작하면서 -14873
됨에 -14874
▁OF -14875
▁무용 -14876
▁out -14877
▁상관없 -14878
▁협동 -14879
~200 -14880
전까지 -14881
▁사치 -14882
미션 -14883
▁당시엔 -14884
▁국제공항 -14885
▁소원 -14886
eep -14887
▁별명은 -14888
▁마지막까지 -14889
86 -14890
사구 -14891
▁헬리 -14892
▁테오 -14893
▁프로그래 -14894
레타 -14895
▁소집 -14896
▁하하 -14897
▁135 -14898
▁농업 -14899
▁당초 -14900
▁무작정 -14901
▁-5 -14902
▁운행하는 -14903
▁일컫 -14904
▁나라가 -14905
▁일러스트레이터 -14906
▁미남 -14907
▁#1 -14908
▁꼴찌 -14909
▁수업을 -14910
일때 -14911
▁언급했다 -14912
▁얻지 -14913
▁1972 -14914
▁데려가 -14915
▁보스의 -14916
▁Sun -14917
▁시기가 -14918
초마다 -14919
▁빈틈 -14920
▁태양의 -14921
항을 -14922
▁보강 -14923
▁물의 -14924
▁피하는 -14925
게요 -14926
▁유사하다 -14927
▁맞물 -14928
▁연습을 -14929
▁마케팅 -14930
▁Don -14931
▁친구인 -14932
▁갖는 -14933
▁너클 -14934
▁바닐 -14935
▁향한다 -14936
▁군의 -14937
▁미끼 -14938
▁카피 -14939
례가 -14940
▁캠프 -14941
▁노부나가 -14942
두에 -14943
▁크롬 -14944
BE -14945
▁박종 -14946
▁못한다는 -14947
▁발매한 -14948
▁중국에서 -14949
▁띄는 -14950
락의 -14951
:35 -14952
▁극대화 -14953
82 -14954
▁가깝게 -14955
▁내려가 -14956
▁급속 -14957
▁GTA -14958
▁써먹을 -14959
▁쳤다 -14960
▁프로야구 -14961
▁친절 -14962
▁메트로 -14963
▁검정 -14964
안으로 -14965
▁않음 -14966
▁유연 -14967
▁호응 -14968
▁싱가포르 -14969
▁심하다 -14970
▁영혼이 -14971
▁이어가 -14972
▁제너 -14973
▁재산 -14974
▁오늘도 -14975
▁채찍 -14976
▁김성근 -14977
▁의아 -14978
▁무너뜨 -14979
▁사슬 -14980
▁재발 -14981
▁기지를 -14982
use -14983
▁스타일의 -14984
▁객관 -14985
▁기를 -14986
▁아폴 -14987
▁하이드 -14988
▁이루는 -14989
전용 -14990
골로 -14991
bo -14992
문과 -14993
▁소속된 -14994
▁어디에 -14995
테오 -14996
아슬 -14997
▁호감을 -14998
수준 -14999
▁글자 -15000
모와 -15001
▁시리즈와 -15002
▁준결승 -15003
▁인물들이 -15004
▁!!!! -15005
놀이 -15006
▁일각 -15007
▁조립 -15008
▁다짐 -15009
▁운명을 -15010
▁지식을 -15011
▁수술을 -15012
▁모욕 -15013
▁속성의 -15014
여야 -15015
▁발탁 -15016
▁남양 -15017
마법사 -15018
파인 -15019
▁스칼 -15020
우로 -15021
처가 -15022
▁과시 -15023
▁놀랍게도 -15024
▁알렉스 -15025
▁미라이 -15026
▁뽑은 -15027
해보자 -15028
▁행정구역 -15029
▁날린 -15030
주공 -15031
▁강서 -15032
▁도는 -15033
▁오더 -15034
▁가라앉 -15035
▁떼어 -15036
▁사직 -15037
▁장인 -15038
라면서 -15039
▁1977 -15040
▁원곡 -15041
▁주어진 -15042
▁마을에서 -15043
▁대량으로 -15044
▁공교롭게도 -15045
▁유격수 -15046
▁진지한 -15047
▁was -15048
▁나란히 -15049
루트 -15050
▁묻혀 -15051
▁돌아오는 -15052
▁비참 -15053
▁무색 -15054
▁안하고 -15055
개와 -15056
▁쓰러져 -15057
▁놀러 -15058
▁인텔 -15059
TA -15060
주기도 -15061
필로그 -15062
▁회사가 -15063
▁히로시마 -15064
맨과 -15065
물과 -15066
▁괴로워 -15067
▁트랜스포머 -15068
▁윈드 -15069
▁났다 -15070
▁저기 -15071
▁물고기 -15072
▁다른데 -15073
▁적용되지 -15074
이는데 -15075
▁발표한 -15076
▁물품 -15077
▁리본 -15078
▁원인은 -15079
▁여기고 -15080
▁오늘은 -15081
▁Ste -15082
▁붙어서 -15083
les -15084
효과를 -15085
▁특공 -15086
▁있을지 -15087
중을 -15088
▁직책 -15089
▁다투 -15090
▁주제로 -15091
▁섬에 -15092
▁점심 -15093
▁보이게 -15094
▁문서의 -15095
▁오가 -15096
▁이광 -15097
였다면 -15098
▁차이점 -15099
▁소노 -15100
▁스토리는 -15101
▁이름인 -15102
에의 -15103
▁걸맞게 -15104
▁전장에 -15105
▁체육관 -15106
▁어레인지 -15107
▁어긋 -15108
▁최종보 -15109
84 -15110
놨다 -15111
▁자이언트 -15112
미아 -15113
패가 -15114
명에게 -15115
왕과 -15116
▁다름아닌 -15117
▁유니버스 -15118
▁디렉 -15119
▁리바 -15120
스럽다 -15121
▁사전에 -15122
▁강력하다 -15123
▁건다 -15124
▁플레임 -15125
▁연동 -15126
된다면 -15127
사이즈 -15128
▁망치 -15129
▁일꾼 -15130
▁소생 -15131
▁총선거 -15132
▁판매하는 -15133
▁진행되었다 -15134
▁타다 -15135
▁혐의로 -15136
내면 -15137
▁폐허 -15138
▁확신 -15139
▁블랙홀 -15140
▁수록되었다 -15141
▁전제 -15142
▁멀쩡한 -15143
▁머릿 -15144
▁부끄러 -15145
▁필드의 -15146
▁집계 -15147
판에선 -15148
▁브레이브 -15149
▁IP -15150
▁가로막 -15151
상태가 -15152
▁양자 -15153
측의 -15154
▁SA -15155
▁최전 -15156
▁설치된 -15157
▁동맹을 -15158
▁효율을 -15159
▁응급 -15160
▁사람들과 -15161
▁찬양 -15162
캠퍼스 -15163
▁NEW -15164
음과 -15165
▁기호 -15166
▁맞추면 -15167
대구 -15168
술이 -15169
테의 -15170
형제 -15171
▁순천 -15172
▁High -15173
▁먹기 -15174
▁안산 -15175
▁이방 -15176
▁Of -15177
재료 -15178
정지 -15179
▁본진 -15180
▁역이다 -15181
▁성씨 -15182
:25 -15183
▁본관 -15184
▁텍사 -15185
리아와 -15186
▁논란을 -15187
▁동료가 -15188
▁쿵 -15189
사무소 -15190
▁Your -15191
▁정신나간 -15192
▁방송국 -15193
▁배수 -15194
▁트랜스 -15195
리치 -15196
벌을 -15197
▁마술사 -15198
▁각인 -15199
▁깨고 -15200
▁문서에 -15201
▁줄어든 -15202
▁벅 -15203
▁감금 -15204
▁지붕 -15205
당에서 -15206
▁폴리 -15207
▁어시스트 -15208
▁해보 -15209
▁에메랄 -15210
▁도전과 -15211
▁사용을 -15212
▁패키지 -15213
▁용산 -15214
▁하후 -15215
간을 -15216
▁지시를 -15217
▁캘리포 -15218
▁디자이너 -15219
▁존재하는데 -15220
▁중에선 -15221
▁거뒀 -15222
▁진행했다 -15223
▁설마 -15224
▁몇번 -15225
세계의 -15226
rain -15227
▁내용으로 -15228
▁표정으로 -15229
▁것이니 -15230
▁향하는 -15231
▁성폭 -15232
▁기다리는 -15233
▁데스티 -15234
▁붙었다 -15235
▁스텔스 -15236
▁검토 -15237
▁적재 -15238
▁변하지 -15239
▁성사 -15240
▁145 -15241
▁서기 -15242
▁읽을 -15243
▁Sw -15244
▁번이나 -15245
▁연산 -15246
▁설명하는 -15247
▁부탁한다 -15248
▁중학생 -15249
운을 -15250
▁히라 -15251
▁깨어난 -15252
▁화장실 -15253
▁군단의 -15254
▁샘플 -15255
▁차에 -15256
▁영화에서 -15257
▁국무 -15258
▁시오 -15259
글이 -15260
사들이 -15261
▁영화는 -15262
▁지팡이 -15263
▁위치하고 -15264
89 -15265
회관 -15266
▁oh -15267
▁바람을 -15268
해방 -15269
무늬 -15270
▁딥 -15271
▁나타났 -15272
▁장비가 -15273
▁야만 -15274
▁매니아 -15275
▁SU -15276
▁검증 -15277
▁밝혀지지 -15278
미트 -15279
▁실험을 -15280
▁숨기고 -15281
르면서 -15282
less -15283
▁증가하고 -15284
▁유비트 -15285
못해 -15286
▁내린다 -15287
▁문서로 -15288
하기에는 -15289
▁기관단총 -15290
칭을 -15291
▁개명 -15292
▁더러운 -15293
▁스파르 -15294
루에 -15295
▁정밀 -15296
토리얼 -15297
▁말려 -15298
▁발명 -15299
▁하치 -15300
커로 -15301
▁역할이 -15302
파라 -15303
▁범위를 -15304
LS -15305
▁에필로그 -15306
질에 -15307
▁히사 -15308
ress -15309
IO -15310
박물 -15311
▁지오 -15312
▁아슬아슬 -15313
▁가사가 -15314
▁들어서는 -15315
▁4.5 -15316
네와 -15317
▁아이의 -15318
탕을 -15319
카에게 -15320
▁결제 -15321
귤러 -15322
▁역할은 -15323
▁페미니즘 -15324
▁동정 -15325
▁맞출 -15326
▁훼손 -15327
순양함 -15328
행성 -15329
해버린 -15330
▁근대 -15331
▁섞인 -15332
▁최상급 -15333
▁쉴드 -15334
▁아타 -15335
▁손해를 -15336
▁소금 -15337
▁중급 -15338
린다고 -15339
▁다큐멘 -15340
▁이번에 -15341
▁봐서는 -15342
▁소통 -15343
▁선물을 -15344
장에게 -15345
▁탄환 -15346
진흥 -15347
▁가오 -15348
▁로렌 -15349
▁노무현 -15350
▁고인 -15351
▁이름이다 -15352
▁고의 -15353
▁폭스 -15354
▁마계 -15355
▁줄어든다 -15356
7% -15357
▁아내가 -15358
▁오른다 -15359
온은 -15360
▁보여주기도 -15361
▁재료를 -15362
che -15363
▁골프 -15364
▁휘하 -15365
▁위력은 -15366
▁스쿠 -15367
검은 -15368
▁단점을 -15369
▁공정 -15370
-23 -15371
▁스네 -15372
▁연간 -15373
▁대미지는 -15374
▁변이 -15375
▁입사 -15376
▁165 -15377
▁받았지만 -15378
▁주거 -15379
▁생각해서 -15380
▁톡 -15381
▁오리온 -15382
▁읽는다 -15383
▁제약 -15384
▁행보를 -15385
우타 -15386
커녕 -15387
▁보였고 -15388
▁실상은 -15389
놓았다 -15390
▁걸려서 -15391
▁임기 -15392
▁팔레 -15393
▁글래 -15394
▁세웠다 -15395
▁뺀 -15396
▁암호 -15397
▁대통령은 -15398
▁잔류 -15399
▁좋은데 -15400
▁게임에서는 -15401
▁원로 -15402
적으론 -15403
▁내기 -15404
▁손잡 -15405
▁치바 -15406
▁테마곡 -15407
BB -15408
▁날개를 -15409
하겠 -15410
▁인재 -15411
▁크지 -15412
▁Par -15413
▁시어 -15414
귀를 -15415
나지 -15416
▁의혹이 -15417
▁일주일 -15418
▁과제 -15419
하느라 -15420
몬을 -15421
불능 -15422
let -15423
리다가 -15424
▁102 -15425
▁차량의 -15426
▁비슷하지만 -15427
여도 -15428
ANI -15429
▁두근 -15430
▁컬렉션 -15431
해주면 -15432
▁103 -15433
▁세일러 -15434
기념 -15435
▁마하 -15436
갤러 -15437
플레 -15438
작에 -15439
▁미소를 -15440
▁겪고 -15441
▁난무 -15442
▁실로 -15443
▁뜻은 -15444
▁학생들을 -15445
▁Light -15446
▁시킬 -15447
▁만났을 -15448
▁HARD -15449
▁내부에서 -15450
▁부친 -15451
▁연달아 -15452
▁1971 -15453
▁주력으로 -15454
▁담겨 -15455
▁드래곤을 -15456
▁숙청 -15457
개에 -15458
버스를 -15459
마에게 -15460
▁받으면서 -15461
▁영혼의 -15462
▁흠좀 -15463
▁쓸데없이 -15464
▁출석 -15465
▁늘어나고 -15466
▁쯔 -15467
▁세우고 -15468
▁종로 -15469
▁산맥 -15470
▁시점에 -15471
▁견디 -15472
덕션 -15473
▁주워 -15474
라시 -15475
▁#000000 -15476
▁GPU -15477
▁패스를 -15478
▁제작자 -15479
업체 -15480
▁사태를 -15481
▁성장한 -15482
▁졸업식 -15483
yout -15484
▁대체적으로 -15485
살인 -15486
▁분대 -15487
▁안드레 -15488
▁베를린 -15489
내의 -15490
▁무궁 -15491
50% -15492
orea -15493
▁로테이션 -15494
▁발급 -15495
테츠 -15496
ert -15497
▁뛰는 -15498
▁쇼크 -15499
▁출신인 -15500
▁방어를 -15501
▁입히고 -15502
▁세상의 -15503
▁포터 -15504
▁공격수 -15505
eF -15506
▁Gen -15507
▁금요일 -15508
▁우주의 -15509
▁탈환 -15510
▁Red -15511
직원 -15512
▁알수 -15513
▁유머 -15514
▁끝을 -15515
▁차로 -15516
▁통화 -15517
▁추가되어 -15518
금지 -15519
▁아울 -15520
▁콘셉 -15521
▁얼어붙 -15522
▁연관이 -15523
▁키노 -15524
land -15525
▁그간 -15526
▁참가한 -15527
교도 -15528
▁마모 -15529
org -15530
▁진행이 -15531
기동 -15532
▁수신 -15533
▁원주 -15534
니버스 -15535
▁이른다 -15536
▁이루고 -15537
▁디자인은 -15538
oss -15539
▁과도한 -15540
▁서울시 -15541
▁바이킹 -15542
마니아 -15543
콤보 -15544
-22 -15545
▁하러 -15546
▁해변 -15547
▁치열한 -15548
▁화면이 -15549
삼아 -15550
▁모양새 -15551
▁이쪽이 -15552
▁볼드 -15553
▁우즈 -15554
▁보였으나 -15555
▁출제 -15556
▁식품 -15557
▁선박 -15558
▁레인보우 -15559
▁맞추기 -15560
▁공식적인 -15561
▁번갈 -15562
▁트릴 -15563
▁출신이다 -15564
▁투쟁 -15565
▁영화에 -15566
▁흠좀무 -15567
▁불릴 -15568
▁확률은 -15569
▁트레이닝 -15570
규가 -15571
▁구하는 -15572
▁근거로 -15573
▁살펴보면 -15574
▁기준으로는 -15575
어에서 -15576
▁가족이 -15577
중심 -15578
▁중부 -15579
ring -15580
▁정보는 -15581
▁유럽의 -15582
▁어렵다는 -15583
anna -15584
▁방법이다 -15585
▁산탄총 -15586
▁구매할 -15587
▁시청자들이 -15588
▁시네마 -15589
▁루키 -15590
수용 -15591
팩트 -15592
▁재학 -15593
▁때리는 -15594
진한 -15595
▁+10% -15596
▁표면 -15597
▁한층 -15598
https -15599
BD -15600
집의 -15601
▁퍼부 -15602
프스 -15603
▁싫어한다 -15604
▁존재감이 -15605
▁다룰 -15606
에가 -15607
▁beat -15608
▁편을 -15609
스트림 -15610
▁미루어 -15611
▁소련의 -15612
▁좋아하고 -15613
▁배터 -15614
▁실패로 -15615
▁갑옷을 -15616
▁아이스크 -15617
▁날씨 -15618
▁순찰 -15619
▁내뿜 -15620
크로스 -15621
▁Ro -15622
▁기쁨 -15623
▁기후 -15624
▁이의 -15625
▁_ -15626
▁로열 -15627
ideo -15628
▁캐릭터에 -15629
왔을 -15630
ough -15631
▁겁니다 -15632
▁업데이트가 -15633
▁안될 -15634
▁BO -15635
▁가위 -15636
▁나서서 -15637
▁너에게 -15638
하였다고 -15639
▁FPS -15640
▁스킬이다 -15641
짓을 -15642
▁상점에서 -15643
백으로 -15644
▁디아블로 -15645
▁자세를 -15646
▁광고를 -15647
▁CE -15648
▁컸다 -15649
▁훈훈 -15650
머신 -15651
-25 -15652
▁오세 -15653
▁한손 -15654
이라고는 -15655
작품 -15656
▁공격형 -15657
▁성실 -15658
그대로 -15659
▁집필 -15660
▁이후엔 -15661
▁뱉 -15662
arm -15663
▁신하 -15664
▁발발 -15665
▁협상 -15666
소수 -15667
▁츤데레 -15668
▁시뮬레이션 -15669
▁스기 -15670
▁사진은 -15671
▁다이스케 -15672
▁공무 -15673
▁내구도 -15674
▁바란다 -15675
▁전임 -15676
▁경기의 -15677
▁거리에 -15678
▁아이템으로 -15679
▁1/2 -15680
▁안철 -15681
▁드레이 -15682
▁진출을 -15683
▁드러나는 -15684
마르 -15685
▁맥주 -15686
라니 -15687
▁편지 -15688
▁바바 -15689
▁게이지를 -15690
▁정우 -15691
자였던 -15692
▁진행을 -15693
▁득표수 -15694
▁패배하고 -15695
▁주위에 -15696
▁문제점이 -15697
명이다 -15698
▁폐선 -15699
▁절단 -15700
▁강화된 -15701
▁폼이 -15702
회까지 -15703
▁노선으로 -15704
링의 -15705
▁la -15706
▁역할로 -15707
▁클라이 -15708
위까지 -15709
▁마을버스 -15710
려나 -15711
▁넣었다 -15712
▁자작 -15713
9% -15714
▁미녀 -15715
▁설정으로 -15716
▁구리 -15717
▁스위치 -15718
유저 -15719
▁존재할 -15720
▁넬 -15721
랑은 -15722
듯하다 -15723
▁변하는 -15724
ush -15725
▁지극 -15726
▁인정하는 -15727
부턴 -15728
송이 -15729
찮게 -15730
베르크 -15731
▁앞뒤 -15732
요원 -15733
카타 -15734
▁후타 -15735
▁상위호환 -15736
▁시즌에는 -15737
▁후쿠오카 -15738
▁말하지만 -15739
▁관광객 -15740
▁필요도 -15741
▁0.6 -15742
UC -15743
▁영상은 -15744
▁움직임이 -15745
댄다 -15746
▁무식 -15747
▁책략 -15748
염을 -15749
적도 -15750
▁키보드 -15751
▁체력은 -15752
▁궁합이 -15753
쿠로 -15754
~12 -15755
▁스톡 -15756
▁앞을 -15757
자리를 -15758
attle -15759
▁일조 -15760
▁전체에게 -15761
▁밑으로 -15762
▁후반기 -15763
▁스토리의 -15764
▁혈통 -15765
▁기력 -15766
▁넉넉 -15767
▁미식 -15768
▁부지 -15769
▁명으로 -15770
▁야마다 -15771
▁영등 -15772
▁행동에 -15773
+0900 -15774
▁미친듯이 -15775
▁이전에도 -15776
▁내밀 -15777
▁전광 -15778
▁펌프 -15779
▁몬스터는 -15780
▁목욕 -15781
유는 -15782
▁부분의 -15783
▁찍었다 -15784
▁시작하여 -15785
▁아무렇 -15786
▁죽음에 -15787
▁마지막에는 -15788
준은 -15789
▁페이크 -15790
문서 -15791
었으니 -15792
▁쥰 -15793
▁우투 -15794
▁아오이 -15795
이서 -15796
▁나르 -15797
▁현상을 -15798
▁콧 -15799
▁MK -15800
▁깨알 -15801
가수 -15802
▁마요 -15803
▁재벌 -15804
▁바라보는 -15805
▁엣 -15806
▁냅 -15807
▁성장을 -15808
▁발톱 -15809
자로서 -15810
▁득표율 -15811
미스 -15812
▁서울대 -15813
▁휴스턴 -15814
감도 -15815
▁이르러 -15816
▁막판 -15817
▁냥 -15818
▁내일 -15819
▁수시로 -15820
▁안경을 -15821
▁오자 -15822
▁남자를 -15823
한게 -15824
가이 -15825
▁더구나 -15826
▁선포 -15827
▁스크롤 -15828
▁신전 -15829
▁패전 -15830
년부터는 -15831
83 -15832
▁연고 -15833
▁맺고 -15834
▁줄어들었다 -15835
▁버전을 -15836
▁멤버들과 -15837
검의 -15838
▁재단 -15839
▁뉴질 -15840
▁분쇄 -15841
▁경찰에 -15842
▁나루토 -15843
광역 -15844
▁1969 -15845
▁후쿠시마 -15846
▁깔려 -15847
▁리퍼 -15848
▁증가하는 -15849
▁자칫 -15850
▁최우수 -15851
▁붙는다 -15852
무리 -15853
바스 -15854
슨을 -15855
▁찾지 -15856
▁후면 -15857
▁대학원 -15858
▁넣으면 -15859
ONE -15860
▁어울리지 -15861
▁트윈스 -15862
▁오의 -15863
▁의원이 -15864
▁화면에 -15865
▁행동은 -15866
▁강습 -15867
국제공항 -15868
▁그려져 -15869
▁빠지고 -15870
▁경향 -15871
▁흐름을 -15872
▁모른다고 -15873
미츠 -15874
▁미묘한 -15875
▁의문의 -15876
▁동성애 -15877
▁파티를 -15878
▁사이토 -15879
▁공손 -15880
▁수단이 -15881
▁늘어나는 -15882
▁명성 -15883
▁취재 -15884
▁시모 -15885
▁부재 -15886
▁들어온다 -15887
/16 -15888
▁눈빛 -15889
▁엘더 -15890
▁해독 -15891
빈이 -15892
▁Heart -15893
OID -15894
▁택시 -15895
▁오시 -15896
▁특이하게 -15897
▁메딕 -15898
▁달라진 -15899
▁아리아 -15900
▁지옥의 -15901
▁되게 -15902
▁뒤이어 -15903
▁신곡 -15904
▁프레데 -15905
▁것이지만 -15906
나면 -15907
임은 -15908
▁최순 -15909
생물 -15910
air -15911
▁그만두 -15912
년과 -15913
ret -15914
▁하여금 -15915
▁Tw -15916
▁리믹스 -15917
▁하지메 -15918
▁맹세 -15919
▁오비 -15920
▁time -15921
▁적과 -15922
▁원래부터 -15923
▁뚝 -15924
▁최소한의 -15925
아스 -15926
답지 -15927
▁해병대 -15928
▁일으켰 -15929
▁대명 -15930
▁돌아간 -15931
▁수비수 -15932
▁다름없는 -15933
▁무도 -15934
▁캐릭터들 -15935
▁미칠 -15936
호도 -15937
증으로 -15938
/+ -15939
▁필두로 -15940
▁뿐이었다 -15941
거는 -15942
▁성직 -15943
▁보았다 -15944
▁양아 -15945
▁불길 -15946
▁까마귀 -15947
롭고 -15948
▁Mr -15949
▁번씩 -15950
▁멀티플레이 -15951
더라면 -15952
▁김연 -15953
▁떠나는 -15954
▁옵션을 -15955
희와 -15956
▁화염방 -15957
▁방으로 -15958
▁지선 -15959
▁옆으로 -15960
레드 -15961
값이 -15962
락이 -15963
▁조치를 -15964
▁해운 -15965
▁걸면 -15966
▁따져 -15967
부지 -15968
▁안보 -15969
▁초반의 -15970
▁열쇠를 -15971
▁이하로 -15972
웠고 -15973
편성 -15974
▁내리고 -15975
▁카에 -15976
▁가득한 -15977
려야 -15978
▁종사 -15979
▁나뭇 -15980
▁필라 -15981
고에서 -15982
▁성기사 -15983
판매 -15984
▁뻘 -15985
▁셜 -15986
▁김천 -15987
▁사정을 -15988
토르 -15989
ady -15990
▁엄폐 -15991
▁창립 -15992
▁괜찮다 -15993
▁씨가 -15994
▁사람이라면 -15995
▁함재 -15996
▁희대의 -15997
▁챔피언스리그 -15998
▁명단 -15999
▁유아 -16000
▁대니 -16001
▁만만치 -16002
▁정글러 -16003
▁날에 -16004
초교 -16005
▁대중교통 -16006
▁장제 -16007
리라는 -16008
지니어 -16009
wiki -16010
▁여부를 -16011
클레 -16012
볼루션 -16013
▁유저들에게 -16014
▁직통 -16015
효율 -16016
▁편리 -16017
호에 -16018
▁단련 -16019
시켜야 -16020
▁냉동 -16021
▁#2 -16022
▁부대가 -16023
▁갸 -16024
▁풀고 -16025
▁공격과 -16026
▁타점 -16027
▁LOVE -16028
▁상쇄 -16029
▁색상 -16030
▁BEM -16031
▁신비한 -16032
▁지구에 -16033
▁막판에 -16034
▁낳은 -16035
▁식사를 -16036
▁AF -16037
▁Fire -16038
▁명탐정 -16039
iew -16040
▁늦은 -16041
▁묘지로 -16042
▁오해를 -16043
브는 -16044
▁바람이 -16045
▁게르 -16046
▁분할 -16047
kr -16048
▁크리스티 -16049
▁튜토리얼 -16050
려던 -16051
▁수천 -16052
▁부활한 -16053
선지 -16054
▁하스스톤 -16055
▁여기서도 -16056
우스는 -16057
▁유지할 -16058
OK -16059
▁믿어 -16060
▁본의 -16061
▁한해 -16062
림으로 -16063
▁안전한 -16064
▁올라갔다 -16065
▁순위가 -16066
▁혼다 -16067
▁캘리포니아 -16068
▁머무 -16069
▁한가지 -16070
▁쓸모가 -16071
▁수준을 -16072
▁외야수 -16073
▁플래티넘 -16074
▁원형 -16075
▁중에도 -16076
▁삿 -16077
▁아바타 -16078
보그 -16079
▁거칠 -16080
▁암컷 -16081
▁팔이 -16082
▁헤라 -16083
▁타르 -16084
▁팝픈 -16085
▁퓨처 -16086
▁로스터 -16087
▁사인 -16088
icro -16089
▁Per -16090
▁조합으로 -16091
▁참여했다 -16092
화도 -16093
▁그레이드 -16094
수원 -16095
란한 -16096
▁인질로 -16097
▁마에 -16098
였으니 -16099
ution -16100
▁높기 -16101
▁빼앗아 -16102
▁콤비 -16103
▁정해져 -16104
쪽은 -16105
▁급하게 -16106
▁생각하며 -16107
▁사회주의 -16108
▁위치는 -16109
▁소우 -16110
▁측에서는 -16111
년으로 -16112
que -16113
발에 -16114
▁홀드 -16115
갔지만 -16116
높은 -16117
▁사용하게 -16118
▁젤리 -16119
ru -16120
레는 -16121
▁러닝 -16122
함으로서 -16123
▁주의를 -16124
▁캐릭터와 -16125
▁않거나 -16126
치도 -16127
▁하이브리 -16128
▁수중 -16129
▁재능이 -16130
▁하려는 -16131
IV -16132
▁DJMAX -16133
▁확인하고 -16134
▁빈번 -16135
▁가슴에 -16136
▁빌딩 -16137
▁트렌 -16138
▁119 -16139
▁걸어서 -16140
▁만화를 -16141
▁립 -16142
일까 -16143
가인 -16144
▁순정 -16145
▁315 -16146
▁빠지게 -16147
▁가나 -16148
▁브라더 -16149
▁나이를 -16150
▁담고 -16151
▁중반에 -16152
▁팟 -16153
창에 -16154
▁관리자 -16155
▁바뀌면서 -16156
▁Kn -16157
▁쿠니 -16158
▁토마스 -16159
▁급식 -16160
▁드워프 -16161
▁죽이면 -16162
▁롬 -16163
기계 -16164
▁1963 -16165
▁비아 -16166
▁조력 -16167
▁플라스틱 -16168
▁생기고 -16169
▁츠카 -16170
▁재빨리 -16171
내는데 -16172
▁활용하는 -16173
▁구성원 -16174
▁이동속도가 -16175
87 -16176
▁문의 -16177
▁레스토 -16178
▁마기 -16179
▁어느날 -16180
▁꿈의 -16181
▁극단적으로 -16182
▁IV -16183
▁적에 -16184
랑을 -16185
▁뉘앙 -16186
▁꿇 -16187
▁여수 -16188
▁750 -16189
▁모드의 -16190
▁미하 -16191
▁관리하는 -16192
▁빠진다 -16193
▁음향 -16194
공학과 -16195
▁아군에게 -16196
▁펭귄 -16197
▁떨어지면 -16198
▁별을 -16199
신문 -16200
스파 -16201
티노 -16202
▁조선의 -16203
▁버블 -16204
ium -16205
▁갈등이 -16206
▁나인 -16207
▁복장을 -16208
▁활약이 -16209
▁적립 -16210
하와 -16211
▁대의 -16212
▁땀 -16213
▁아님 -16214
▁물건이 -16215
▁보였지만 -16216
▁소스 -16217
루타를 -16218
▁테러리스트 -16219
▁BEMANI -16220
▁위함 -16221
헤드 -16222
▁횟수가 -16223
격인 -16224
▁한국이 -16225
▁이익 -16226
▁너프를 -16227
▁게스트로 -16228
▁존재하고 -16229
▁혼돈의 -16230
▁구로 -16231
▁모던 -16232
▁오바 -16233
▁정리한 -16234
▁코이 -16235
▁노래는 -16236
▁암살자 -16237
느냐에 -16238
듈럼 -16239
▁진출에 -16240
▁귀가 -16241
▁전두 -16242
▁분량 -16243
▁반대하는 -16244
스퍼 -16245
하다며 -16246
▁Baby -16247
▁마법이 -16248
▁낡 -16249
▁미션에서 -16250
연대 -16251
욱이 -16252
▁사각 -16253
스트는 -16254
▁엔트리 -16255
▁원흉 -16256
▁넘사 -16257
▁클러 -16258
▁타키 -16259
▁상태에서는 -16260
▁배워 -16261
▁요미 -16262
▁등장으로 -16263
▁인정하지 -16264
기획 -16265
▁아레 -16266
▁박상 -16267
▁올림 -16268
방은 -16269
▁뒤에도 -16270
▁지원이 -16271
▁ES -16272
▁내용에 -16273
▁브라우 -16274
/15 -16275
▁BM -16276
▁캐롤 -16277
클래스 -16278
▁느껴지는 -16279
▁Champ -16280
▁휴게 -16281
▁모으는 -16282
▁이준 -16283
▁가도 -16284
시키면서 -16285
니클 -16286
▁북아 -16287
▁등장이 -16288
▁처리하는 -16289
tern -16290
셔서 -16291
▁같아서 -16292
▁루트를 -16293
▁주기도 -16294
▁운영기관 -16295
▁엄마가 -16296
▁스트리밍 -16297
▁홍성 -16298
▁미국에 -16299
▁넘어간 -16300
▁인연이 -16301
리라고 -16302
적이라 -16303
▁물어보 -16304
▁일삼 -16305
▁마나를 -16306
▁따뜻한 -16307
▁바다에 -16308
▁STR -16309
군단 -16310
▁나을 -16311
▁템플 -16312
노래 -16313
▁뮤탈 -16314
▁사람에 -16315
▁놀란 -16316
▁보스전 -16317
▁파괴하는 -16318
▁소녀의 -16319
▁패스트 -16320
▁프로토타입 -16321
강이 -16322
▁본부 -16323
▁가격을 -16324
▁착지 -16325
▁탄탄 -16326
▁적극적인 -16327
▁프랜차이즈 -16328
전철 -16329
▁수컷 -16330
▁인문 -16331
▁중앙에 -16332
▁Em -16333
▁워터 -16334
▁쓰였다 -16335
▁항목에 -16336
야스 -16337
▁박수 -16338
▁찰나 -16339
▁호기 -16340
▁면적 -16341
▁무늬 -16342
▁일품 -16343
지에게 -16344
itch -16345
▁돌연변이 -16346
▁버려진 -16347
▁현실을 -16348
▁조이 -16349
▁평창 -16350
▁볶 -16351
▁가능해 -16352
▁친목 -16353
술의 -16354
▁개념을 -16355
▁평균자책 -16356
시나 -16357
▁지속시간이 -16358
▁다름없 -16359
빌딩 -16360
▁교실 -16361
▁충남 -16362
▁푼 -16363
▁마가 -16364
▁포션 -16365
▁전지 -16366
▁사랑이 -16367
당시 -16368
▁5.0 -16369
▁미미 -16370
▁파격 -16371
▁1968 -16372
▁별이 -16373
▁프랑스어 -16374
gain -16375
▁파일을 -16376
▁예상된다 -16377
▁나레이션 -16378
▁cl -16379
▁용자 -16380
▁응답 -16381
▁부대의 -16382
▁Dark -16383
▁자부 -16384
▁해군의 -16385
IE -16386
주택 -16387
▁벚꽃 -16388
▁오만 -16389
▁해주고 -16390
시도 -16391
▁CO -16392
▁합작 -16393
▁IC -16394
▁제공한다 -16395
▁항공모함 -16396
달이 -16397
▁메이커 -16398
▁달러를 -16399
림은 -16400
▁광경을 -16401
▁개인적인 -16402
▁사용해야 -16403
▁패닉 -16404
▁군대가 -16405
▁예수 -16406
▁한글명 -16407
▁추궁 -16408
▁나고야 -16409
▁현장에서 -16410
▁막지 -16411
▁배구 -16412
▁현직 -16413
▁길로 -16414
▁무녀 -16415
받기 -16416
▁역관광 -16417
▁중시 -16418
▁부장 -16419
▁설정에 -16420
▁Li -16421
▁킹덤 -16422
ors -16423
▁Sm -16424
▁학사 -16425
▁그녀와 -16426
▁끝내기 -16427
▁박용 -16428
▁아카이 -16429
▁승급 -16430
▁은메달 -16431
백의 -16432
▁수준에 -16433
▁나카무라 -16434
▁반성 -16435
▁모자를 -16436
▁없거나 -16437
▁투고 -16438
테가 -16439
▁대외 -16440
▁불만 -16441
▁가능하기 -16442
▁박쥐 -16443
메다 -16444
▁범인 -16445
▁나가서 -16446
▁후보에 -16447
▁리스크 -16448
▁불평 -16449
▁오브젝트 -16450
▁5.5 -16451
▁그랜 -16452
▁시야를 -16453
++ -16454
▁갈등을 -16455
▁열린다 -16456
▁시트 -16457
▁휴대폰 -16458
티는 -16459
쉬가 -16460
▁풀린 -16461
루에서 -16462
힙니다 -16463
회와 -16464
▁나열 -16465
▁연막 -16466
▁포드 -16467
▁now -16468
▁우천 -16469
▁블래스터 -16470
워커 -16471
▁장면도 -16472
아르 -16473
▁공립 -16474
▁해가 -16475
인만큼 -16476
▁박혀 -16477
▁챔프 -16478
▁일일이 -16479
▁뽐 -16480
제일 -16481
밥을 -16482
▁예의 -16483
끄럽 -16484
▁자신보다 -16485
▁추모 -16486
▁외치는 -16487
▁남았다 -16488
▁역사적 -16489
▁현금 -16490
▁포지션은 -16491
광이 -16492
▁소득 -16493
irst -16494
선다 -16495
▁계절 -16496
▁넘사벽 -16497
▁순양함 -16498
▁EU -16499
▁쐐 -16500
▁묘사를 -16501
▁떠났 -16502
당으로 -16503
▁어느새 -16504
▁붓 -16505
달의 -16506
▁리프 -16507
▁돌아가기 -16508
▁이때문에 -16509
▁감소한다 -16510
▁군림 -16511
▁절대적인 -16512
▁스탯이 -16513
▁그리하여 -16514
▁se -16515
팀으로 -16516
▁바로는 -16517
▁불편한 -16518
▁발이 -16519
▁온몸 -16520
▁1.7 -16521
▁벌어진다 -16522
▁am -16523
▁목포 -16524
▁사수 -16525
▁팀명 -16526
▁좋았다 -16527
▁안무 -16528
▁해태 -16529
답시고 -16530
,7 -16531
이팅 -16532
하려던 -16533
▁기능은 -16534
▁누워 -16535
▁윈터 -16536
▁팩션 -16537
다니며 -16538
먹는다 -16539
▁SCP -16540
▁개발된 -16541
▁대답을 -16542
▁NP -16543
▁MO -16544
스크롤 -16545
▁자원이 -16546
▁일행에게 -16547
▁승리한 -16548
▁쿤 -16549
줘도 -16550
▁변동 -16551
▁일본을 -16552
▁스타일을 -16553
▁요구한다 -16554
적이었다 -16555
▁안돼 -16556
▁당선되었다 -16557
경과 -16558
▁호노 -16559
▁1~3 -16560
▁돈으로 -16561
▁참으로 -16562
▁장치를 -16563
red -16564
▁장동 -16565
▁OK -16566
▁건데 -16567
▁구한 -16568
▁구체적인 -16569
▁면접 -16570
▁활용한 -16571
캐슬 -16572
▁다케 -16573
▁대회에 -16574
▁모델을 -16575
▁오쿠 -16576
▁문단 -16577
▁자비 -16578
▁가면서 -16579
▁뮤지션 -16580
▁양대 -16581
▁유튜브에 -16582
▁붙이는 -16583
▁소환한 -16584
▁Good -16585
▁생략한다 -16586
OCAL -16587
▁휴먼 -16588
▁후루 -16589
▁우려가 -16590
▁하느 -16591
▁들어있는 -16592
AE -16593
▁ADV -16594
▁오프라인 -16595
▁카메라를 -16596
▁등장했던 -16597
▁민간인 -16598
▁사소한 -16599
▁치며 -16600
교차로 -16601
▁제품을 -16602
▁피카츄 -16603
▁실루 -16604
▁꽁 -16605
▁성향의 -16606
카제 -16607
▁돌을 -16608
끄러운 -16609
론과 -16610
▁111 -16611
▁공허의 -16612
시테 -16613
▁의하여 -16614
파이터 -16615
▁MSL -16616
▁말그대로 -16617
▁엔진이 -16618
▁홀리 -16619
▁시대가 -16620
▁마징 -16621
▁대하는 -16622
▁마이크로 -16623
▁시리즈에서는 -16624
▁처리할 -16625
▁지냈 -16626
▁득점을 -16627
▁EC -16628
▁1.1 -16629
▁미성년 -16630
▁싸움에 -16631
▁면에서는 -16632
▁Sl -16633
▁3164 -16634
▁빠져나가 -16635
▁군용 -16636
▁짧고 -16637
▁괴물이 -16638
▁재활용 -16639
▁아메리칸 -16640
프란시스코 -16641
▁낀 -16642
▁그림이 -16643
▁AG -16644
▁벙커 -16645
년에도 -16646
▁가브리 -16647
▁몹시 -16648
▁재배 -16649
대대 -16650
▁구도 -16651
▁필립 -16652
▁내면 -16653
▁쿠루 -16654
▁것이므로 -16655
려다 -16656
▁의미의 -16657
웠다고 -16658
▁저글링 -16659
류로 -16660
▁꼽힌다 -16661
▁펜듈럼 -16662
▁시흥 -16663
루로 -16664
▁신은 -16665
▁기괴 -16666
▁동북 -16667
▁121 -16668
▁시도를 -16669
▁하기에 -16670
▁져 -16671
그린 -16672
▁이때의 -16673
▁내셔널 -16674
▁조각을 -16675
▁제목이 -16676
▁El -16677
하기만 -16678
▁입지가 -16679
+110 -16680
▁포기하지 -16681
취를 -16682
대학원 -16683
▁나이트메 -16684
▁맵에서 -16685
다와 -16686
▁유승 -16687
▁사용하던 -16688
저것 -16689
▁있는가 -16690
다드 -16691
업자 -16692
▁연출을 -16693
▁조직의 -16694
▁끝나지 -16695
▁노릴 -16696
▁쥐고 -16697
▁2500 -16698
▁경의 -16699
봉을 -16700
말고 -16701
▁보쿠 -16702
▁뛰어넘는 -16703
▁동명의 -16704
오던 -16705
▁약물 -16706
공과 -16707
vol -16708
▁박찬 -16709
▁참가자 -16710
니에 -16711
대왕 -16712
▁권능 -16713
▁직장 -16714
▁테레 -16715
▁격침 -16716
▁몸무게 -16717
▁달라붙 -16718
술로 -16719
▁버릇 -16720
▁전투력이 -16721
▁분노의 -16722
▁심야 -16723
bs -16724
▁따돌 -16725
▁맞지만 -16726
▁영웅을 -16727
▁의뢰를 -16728
극을 -16729
▁As -16730
▁총평 -16731
▁LED -16732
▁생겨서 -16733
▁삼촌 -16734
책으로 -16735
▁녀석은 -16736
▁박재 -16737
▁Dis -16738
▁따위는 -16739
심과 -16740
▁전염 -16741
▁이어졌다 -16742
▁합친 -16743
▁레벨은 -16744
▁신입생 -16745
바와 -16746
▁면제 -16747
▁장로 -16748
▁있나 -16749
▁관통력 -16750
▁웜 -16751
테스 -16752
▁덕후 -16753
충전 -16754
▁럭키 -16755
▁단단한 -16756
포에 -16757
▁무죄 -16758
어지고 -16759
▁0.9 -16760
▁뉴질랜드 -16761
한데다 -16762
▁크로노 -16763
▁무리하게 -16764
일수록 -16765
화부터 -16766
▁전차를 -16767
▁국토 -16768
▁대신해 -16769
▁전적이 -16770
▁죽이기 -16771
▁공격하면 -16772
았는지 -16773
▁1967 -16774
▁넘어간다 -16775
▁뒤통 -16776
▁이들에게 -16777
▁극우 -16778
▁테일즈 -16779
개조 -16780
이름 -16781
▁동메달 -16782
▁유리하다 -16783
▁잠을 -16784
▁일레븐 -16785
▁카토 -16786
▁줄을 -16787
▁휩싸 -16788
▁서태 -16789
되나 -16790
▁남기 -16791
▁전선 -16792
시엔 -16793
▁레이첼 -16794
ART -16795
▁장사 -16796
▁바디 -16797
▁104 -16798
▁스스로의 -16799
▁따라가 -16800
▁친구들과 -16801
▁무지막지한 -16802
노벨 -16803
▁못했다고 -16804
하트 -16805
▁첫날 -16806
▁없었다는 -16807
혜를 -16808
▁김구 -16809
▁연말 -16810
▁킴 -16811
정류 -16812
▁구상 -16813
▁나타나서 -16814
▁친일 -16815
▁구성이 -16816
▁임팩트 -16817
▁넘기는 -16818
▁마시고 -16819
▁back -16820
▁루리 -16821
▁일하고 -16822
▁재료로 -16823
▁낮아서 -16824
뿐인 -16825
▁면을 -16826
▁데미지도 -16827
▁중상 -16828
▁체코 -16829
▁시간도 -16830
▁급히 -16831
▁노트북 -16832
▁독일어 -16833
▁전라북도 -16834
황을 -16835
라에몽 -16836
▁허무하게 -16837
GO -16838
▁제국이 -16839
▁업그레이드가 -16840
▁멧 -16841
▁카이사 -16842
▁브레이커 -16843
▁소꿉친구 -16844
사진 -16845
▁운명의 -16846
타케 -16847
news -16848
테라 -16849
ERO -16850
ina -16851
▁애정 -16852
천이 -16853
하자고 -16854
▁심어 -16855
▁입성 -16856
순이 -16857
▁빠뜨 -16858
▁측이 -16859
▁티아 -16860
▁자기도 -16861
▁그들에게 -16862
ally -16863
▁퀄리티가 -16864
▁라면서 -16865
== -16866
III -16867
▁말만 -16868
▁외면 -16869
▁옵티 -16870
▁블라디 -16871
▁미치는 -16872
▁외모가 -16873
2% -16874
▁인명 -16875
port -16876
▁권한을 -16877
▁모임 -16878
벌이 -16879
대도 -16880
▁퓨전 -16881
▁기체가 -16882
채를 -16883
▁피트 -16884
▁주어지는 -16885
부작 -16886
▁패밀리 -16887
더링 -16888
▁씩 -16889
▁0.2 -16890
▁보고는 -16891
▁자르 -16892
▁성공하면 -16893
란트 -16894
▁박탈 -16895
▁전에서 -16896
▁명중률이 -16897
▁생각했다 -16898
ons -16899
록의 -16900
▁치하 -16901
였다가 -16902
▁브론즈 -16903
▁높다는 -16904
▁볼을 -16905
▁파랑 -16906
가락을 -16907
거리며 -16908
▁에너지가 -16909
메탈 -16910
▁달려들 -16911
▁아스카 -16912
▁친구들이 -16913
청이 -16914
때부터 -16915
▁캐릭터들은 -16916
요가 -16917
ars -16918
팀에 -16919
▁설상가 -16920
기보다는 -16921
▁DM -16922
▁일례로 -16923
것에 -16924
▁죄송 -16925
▁비로소 -16926
▁이들도 -16927
▁미국으로 -16928
▁방공 -16929
리스와 -16930
키로 -16931
▁찬스를 -16932
▁죽이려고 -16933
▁없다시피 -16934
▁쉬는 -16935
▁이호 -16936
▁총독 -16937
▁의심을 -16938
▁헝가리 -16939
▁안토니 -16940
▁쇄 -16941
▁레슬링 -16942
▁없이도 -16943
골이 -16944
▁적용된 -16945
▁마마 -16946
▁관료 -16947
렌의 -16948
빵을 -16949
▁푹 -16950
▁냉정 -16951
▁심상 -16952
:59 -16953
▁가던 -16954
▁주를 -16955
▁하행 -16956
▁위험에 -16957
▁아래에서 -16958
▁포탄 -16959
홈런을 -16960
▁케이크 -16961
▁승리했다 -16962
▁않더라도 -16963
▁샌프란시스코 -16964
▁한숨 -16965
▁마시는 -16966
▁봉사 -16967
▁사마의 -16968
▁다음은 -16969
▁슬라임 -16970
▁회피율 -16971
▁Dance -16972
▁리베 -16973
▁123 -16974
치오 -16975
▁녹화 -16976
▁스타일이 -16977
▁Summer -16978
역이다 -16979
▁현실은 -16980
▁생태 -16981
종으로 -16982
▁PL -16983
▁비꼬 -16984
아이템 -16985
▁말하길 -16986
▁아이템의 -16987
▁가창 -16988
▁놀이 -16989
해버리는 -16990
▁공존 -16991
▁흥분 -16992
수수 -16993
▁역사에 -16994
▁벨트 -16995
일지 -16996
▁수성 -16997
▁스틱 -16998
▁장소에 -16999
란은 -17000
▁하라고 -17001
▁sm -17002
▁익숙한 -17003
▁정면으로 -17004
▁동년 -17005
▁도리어 -17006
우먼 -17007
▁웨폰 -17008
▁이창 -17009
▁아이폰 -17010
▁낮지만 -17011
▁리처드 -17012
텔레 -17013
▁동료로 -17014
▁에이전 -17015
▁What -17016
▁패배했다 -17017
▁Bo -17018
▁개구리 -17019
-> -17020
▁김원 -17021
테스트 -17022
▁아깝 -17023
▁가하는 -17024
▁이례 -17025
호쿠 -17026
▁엔터 -17027
▁좀비가 -17028
마침 -17029
벽이 -17030
▁혼란을 -17031
▁페르시아 -17032
▁감행 -17033
▁시작하자마자 -17034
▁네놈 -17035
▁내놓은 -17036
만으로는 -17037
▁애니메이션에서는 -17038
/24 -17039
▁이인 -17040
▁신세가 -17041
▁캠퍼스 -17042
찬을 -17043
▁소속되어 -17044
▁십자가 -17045
▁무신 -17046
▁일정한 -17047
▁이행 -17048
▁파손 -17049
▁찾은 -17050
사령관 -17051
살의 -17052
▁아이러니하게도 -17053
▁맴 -17054
▁있듯 -17055
▁레벨에 -17056
▁상을 -17057
▁평범하게 -17058
에서나 -17059
▁아니므로 -17060
▁4~5 -17061
▁유용하게 -17062
▁이것저것 -17063
조정 -17064
▁없었으나 -17065
블루 -17066
해지 -17067
▁유난 -17068
▁동아시아 -17069
산은 -17070
▁들린다 -17071
▁씹어 -17072
▁추구하는 -17073
▁But -17074
~9 -17075
▁방울 -17076
▁장소를 -17077
전함 -17078
▁메갈 -17079
▁못했다는 -17080
▁하사 -17081
▁나오자 -17082
▁업데이트를 -17083
혼을 -17084
-24 -17085
▁올바른 -17086
▁히드라 -17087
▁국내에 -17088
▁지낸 -17089
겨서 -17090
▁대표적 -17091
▁인쇄 -17092
▁끄는 -17093
▁공통적으로 -17094
오는데 -17095
▁Wii -17096
▁깽 -17097
▁차용 -17098
▁모니터 -17099
▁VOCAL -17100
▁강해서 -17101
▁en -17102
▁조건은 -17103
▁동서 -17104
▁박영 -17105
▁치안 -17106
▁호랑 -17107
▁결정을 -17108
▁소소한 -17109
▁터렛 -17110
▁버티고 -17111
▁독자적인 -17112
▁고래 -17113
▁상행 -17114
▁재밌는 -17115
▁강타 -17116
▁난민 -17117
▁얼굴로 -17118
▁분이 -17119
▁코요 -17120
혁의 -17121
▁골목 -17122
81 -17123
▁왕을 -17124
▁상당수가 -17125
마리가 -17126
려도 -17127
▁고발 -17128
▁앨범의 -17129
▁장갑을 -17130
▁댈 -17131
▁감자 -17132
▁끌어들 -17133
▁다니며 -17134
▁입었다 -17135
▁나섰 -17136
▁실루엣 -17137
클린 -17138
▁포도 -17139
▁아랑 -17140
사실 -17141
▁혼합 -17142
▁프로덕션 -17143
글로 -17144
파리 -17145
▁암울 -17146
▁요청을 -17147
▁소나 -17148
▁들자면 -17149
▁무기와 -17150
▁주먹을 -17151
▁Over -17152
▁퇴역 -17153
▁구해주 -17154
▁Korea -17155
▁합법 -17156
▁상성이 -17157
한테는 -17158
▁로그인 -17159
▁재임 -17160
vs -17161
공단 -17162
▁추출 -17163
▁얕 -17164
▁댓글을 -17165
샤의 -17166
▁레슬 -17167
▁입힙니다 -17168
▁1-2 -17169
▁음악이 -17170
금융 -17171
토록 -17172
▁법적 -17173
▁본래의 -17174
▁노선이다 -17175
▁말소 -17176
▁Blue -17177
▁잃게 -17178
효과가 -17179
▁시간동안 -17180
▁주세요 -17181
▁정형 -17182
▁포효 -17183
▁합쳐서 -17184
▁집이 -17185
당하기 -17186
시켜주는 -17187
▁맵에 -17188
▁클레이 -17189
▁무슬 -17190
▁주민들이 -17191
겼고 -17192
▁카무 -17193
▁패왕 -17194
▁스파이크 -17195
족은 -17196
▁이렇듯 -17197
▁자유를 -17198
▁고기를 -17199
▁모스크바 -17200
자리에서 -17201
▁잎 -17202
▁비춰 -17203
▁재위 -17204
▁해결할 -17205
▁전통적인 -17206
▁우타 -17207
▁진행한 -17208
오오 -17209
▁뒤틀 -17210
▁''' -17211
▁농락 -17212
▁유벤 -17213
▁증발 -17214
▁훈장 -17215
▁말라는 -17216
▁부모가 -17217
▁중재 -17218
▁공포를 -17219
▁들어가고 -17220
▁돌이 -17221
▁동구 -17222
▁HK -17223
▁빌보드 -17224
▁우미 -17225
▁등지에서 -17226
▁주파 -17227
참모 -17228
ana -17229
▁드립이 -17230
▁마음은 -17231
하다보니 -17232
▁못하지만 -17233
▁요코하마 -17234
▁일본어로 -17235
▁쓰일 -17236
▁3:0 -17237
▁초반부 -17238
▁에드워드 -17239
▁차가운 -17240
▁잔인 -17241
▁DR -17242
▁결과로 -17243
▁보스는 -17244
▁정체불명의 -17245
▁작품인 -17246
▁적합한 -17247
▁세력의 -17248
▁물러나 -17249
▁헬리콥 -17250
▁성전 -17251
▁DNA -17252
▁EBS -17253
▁고든 -17254
▁넣어서 -17255
▁따왔다 -17256
▁그릴 -17257
▁지냈다 -17258
▁이츠 -17259
돌프 -17260
코프 -17261
▁스켈 -17262
▁끼어 -17263
스타일 -17264
▁영남 -17265
▁12, -17266
▁스미스 -17267
▁화소 -17268
▁세츠 -17269
명도 -17270
▁뚜껑 -17271
이라면서 -17272
궁의 -17273
▁리나 -17274
UE -17275
▁밖의 -17276
▁바꿔서 -17277
▁것만으로도 -17278
운영 -17279
▁교역 -17280
▁비치 -17281
▁성이 -17282
▁동생인 -17283
▁민주화 -17284
▁잡아서 -17285
▁웃으며 -17286
▁개연 -17287
▁한신 -17288
▁개발이 -17289
▁세상에서 -17290
업에 -17291
▁권위 -17292
▁물약 -17293
▁왕좌 -17294
▁비중은 -17295
▁추가되는 -17296
tr -17297
▁가능성 -17298
▁자신만의 -17299
후를 -17300
▁뒤로는 -17301
▁대차 -17302
▁때나 -17303
▁마타 -17304
▁영등포 -17305
▁중간중간 -17306
▁연기가 -17307
슨과 -17308
왔지만 -17309
▁이어나 -17310
▁정재 -17311
▁파티원 -17312
▁레코 -17313
▁역대급 -17314
▁결전 -17315
▁일산 -17316
나가와 -17317
▁공백 -17318
▁주시 -17319
때문 -17320
▁개개 -17321
▁오아 -17322
▁남는다 -17323
▁느낌으로 -17324
▁센트럴 -17325
▁쌓여 -17326
▁아름답 -17327
▁럼 -17328
자원 -17329
생으로 -17330
▁KTX -17331
▁카밀 -17332
▁주장한다 -17333
키에게 -17334
▁레버 -17335
▁세로 -17336
▁준공 -17337
▁이펙트 -17338
▁부드러운 -17339
▁항구 -17340
▁그곳에 -17341
지휘 -17342
▁무비 -17343
▁아루 -17344
▁1966 -17345
▁취한 -17346
▁그룹의 -17347
▁전속 -17348
일으 -17349
▁도마 -17350
▁청구 -17351
이에요 -17352
▁대회를 -17353
▁했는지 -17354
▁했으니 -17355
▁스토리에서 -17356
▁스크립 -17357
▁아직은 -17358
TC -17359
▁나락 -17360
▁기준이 -17361
▁느낌의 -17362
▁메시지를 -17363
년전 -17364
요의 -17365
▁가방 -17366
▁노블 -17367
좋은 -17368
네트 -17369
▁듀오 -17370
▁뿜어 -17371
그는 -17372
▁개그맨 -17373
▁불안정 -17374
▁학교가 -17375
블레이드 -17376
▁도라에몽 -17377
아래 -17378
카스 -17379
▁구하러 -17380
결정 -17381
▁뛰쳐 -17382
▁로저 -17383
▁차는 -17384
▁한국을 -17385
▁힘과 -17386
▁제지 -17387
먹기 -17388
▁유유 -17389
소프트 -17390
▁더욱이 -17391
▁안성 -17392
▁적들의 -17393
미네이터 -17394
해머 -17395
▁Rock -17396
▁도시에 -17397
▁입장이 -17398
▁베이스로 -17399
▁한강 -17400
비어 -17401
함대 -17402
▁TE -17403
▁콜롬 -17404
▁아드 -17405
바지 -17406
▁용량 -17407
공연 -17408
▁압박을 -17409
블릿 -17410
▁펼쳤다 -17411
▁광주광역시 -17412
▁신정 -17413
▁표현한 -17414
격투 -17415
▁근로 -17416
▁원인을 -17417
이센 -17418
▁다해 -17419
▁불문 -17420
▁인테 -17421
시켰고 -17422
▁진출했다 -17423
▁짚 -17424
▁광물 -17425
▁서치 -17426
▁서지 -17427
▁나이로 -17428
▁오디오 -17429
카즈 -17430
▁떠날 -17431
디스크 -17432
▁크리에 -17433
▁형상 -17434
▁떡밥을 -17435
▁말하면서 -17436
엘은 -17437
▁세포 -17438
▁양도 -17439
▁지크 -17440
▁지못 -17441
편이다 -17442
▁샐러 -17443
▁들으면 -17444
▁하는지 -17445
▁어플 -17446
▁돌격소총 -17447
AF -17448
▁로컬 -17449
▁솔저 -17450
▁좋아한다고 -17451
무기를 -17452
▁부동산 -17453
▁똑똑 -17454
왔다는 -17455
▁타일 -17456
는다는 -17457
▁별칭 -17458
▁찰스 -17459
▁워낙에 -17460
▁궤적 -17461
였는지 -17462
▁선원 -17463
▁어디로 -17464
▁프로레슬링 -17465
타임을 -17466
▁강철의 -17467
▁위협적인 -17468
복무 -17469
▁환자 -17470
▁네덜란 -17471
▁미치지 -17472
▁페르난 -17473
▁경제적 -17474
▁두가지 -17475
▁무리한 -17476
▁살아가는 -17477
▁패치가 -17478
역까지 -17479
▁포함하여 -17480
▁but -17481
▁기대할 -17482
▁생명체 -17483
▁잘못을 -17484
EB -17485
▁이전까지는 -17486
다르 -17487
▁유저들도 -17488
등하게 -17489
HD -17490
림과 -17491
백화점 -17492
집니다 -17493
▁걸친 -17494
▁퓨어 -17495
▁내릴 -17496
▁제약이 -17497
▁오늘의 -17498
적이지만 -17499
▁답을 -17500
▁흑역사 -17501
▁시스템의 -17502
▁여는 -17503
▁마법사의 -17504
▁취급하는 -17505
어졌다 -17506
▁손톱 -17507
▁안도 -17508
▁해고 -17509
▁보정을 -17510
▁지력 -17511
▁셋째 -17512
▁꽂아 -17513
▁딸인 -17514
▁친하게 -17515
등에 -17516
▁무엇인지 -17517
위원장 -17518
대인 -17519
▁Ep -17520
▁각오 -17521
▁월요일 -17522
렸다가 -17523
▁쿼터 -17524
▁키보 -17525
▁전작인 -17526
▁Just -17527
asy -17528
시부터 -17529
메리카 -17530
▁텅 -17531
시드 -17532
▁루팡 -17533
▁사스케 -17534
▁뜨고 -17535
▁에인 -17536
▁김명 -17537
▁오키나와 -17538
▁유스 -17539
▁유전자 -17540
▁거냐 -17541
▁지방의 -17542
▁시체가 -17543
▁포스를 -17544
▁버티는 -17545
▁적어서 -17546
▁Pv -17547
▁발동하는 -17548
▁전투력을 -17549
▁해당된다 -17550
▁본사 -17551
▁숲의 -17552
▁의외의 -17553
▁청룡 -17554
▁응시 -17555
제이 -17556
이닝을 -17557
▁담당한다 -17558
브레 -17559
▁자란 -17560
▁관리가 -17561
▁의미에서 -17562
그로 -17563
학이 -17564
▁원숭이 -17565
▁직결 -17566
▁109 -17567
▁비용을 -17568
▁발악 -17569
림에 -17570
▁인간으로 -17571
▁초코 -17572
▁엔지니어 -17573
▁다이너 -17574
▁라인전 -17575
▁잃어버 -17576
명인 -17577
▁친분이 -17578
▁연구가 -17579
▁올라가면 -17580
내야 -17581
히면서 -17582
▁개발자 -17583
▁경질 -17584
▁뛰고 -17585
▁나갔다 -17586
▁교체되었다 -17587
▁사육 -17588
▁명명 -17589
▁자유로운 -17590
드립을 -17591
▁ARM -17592
▁지정된 -17593
▁끝장 -17594
▁사격을 -17595
▁힘들게 -17596
▁플레이어블 -17597
▁소재를 -17598
▁부사 -17599
주쿠 -17600
▁공산주의 -17601
▁만들면 -17602
▁속도도 -17603
▁지못미 -17604
▁캐릭터다 -17605
신다 -17606
▁사회의 -17607
인해 -17608
▁직후에 -17609
▁스윕 -17610
베이스 -17611
▁있을지도 -17612
▁대다수가 -17613
▁코트 -17614
▁대결에서 -17615
▁뛴 -17616
복은 -17617
리그에서 -17618
aj -17619
aid -17620
▁어쌔 -17621
▁원활 -17622
▁디스코 -17623
작가 -17624
▁내비 -17625
▁야외 -17626
▁출구 -17627
상태로 -17628
▁스파이더맨 -17629
▁골로 -17630
▁국군 -17631
▁미들 -17632
▁게임인 -17633
▁최후를 -17634
▁컨셉을 -17635
▁김치 -17636
▁발칸 -17637
▁겔 -17638
▁콰 -17639
년도에 -17640
▁블리자드 -17641
▁당하며 -17642
▁화면을 -17643
데르 -17644
▁만들지 -17645
▁한반도 -17646
멘탈 -17647
빈의 -17648
▁안타깝게도 -17649
TER -17650
주게 -17651
▁신흥 -17652
요를 -17653
▁알을 -17654
▁돌아갔다 -17655
▁주기적으로 -17656
왕국 -17657
식에서 -17658
▁스킬에 -17659
▁위를 -17660
▁day -17661
▁높으며 -17662
▁말레이시아 -17663
소울 -17664
▁그랑프리 -17665
▁아줌 -17666
▁자처 -17667
▁한발 -17668
▁계획은 -17669
▁째 -17670
▁GN -17671
▁늙은 -17672
▁get -17673
▁도망쳐 -17674
새를 -17675
▁가급 -17676
▁내로 -17677
ield -17678
▁파티에 -17679
/14 -17680
언정 -17681
▁호출 -17682
▁만하다 -17683
▁슬로우 -17684
싸움을 -17685
▁정한 -17686
▁못했을 -17687
▁Comm -17688
▁통행 -17689
▁냄새가 -17690
▁오페라 -17691
▁무대에서 -17692
▁정사 -17693
니엄 -17694
▁MX -17695
▁이념 -17696
▁Mon -17697
▁홍준 -17698
했음을 -17699
▁상태라 -17700
▁엑셀 -17701
멋대로 -17702
▁106 -17703
▁배우가 -17704
▁성공을 -17705
▁HS -17706
▁최약 -17707
▁있었는지 -17708
▁달래 -17709
▁문서가 -17710
▁보상이 -17711
▁재직 -17712
▁받았을 -17713
▁기념으로 -17714
▁포병 -17715
▁오타쿠 -17716
▁보기는 -17717
▁일절 -17718
/100 -17719
▁Can -17720
▁초필살 -17721
▁LCK -17722
▁광탈 -17723
▁부리는 -17724
riend -17725
ck -17726
▁0.7 -17727
▁구조가 -17728
▁하려면 -17729
▁무장을 -17730
공격력 -17731
▁흥미를 -17732
▁박경 -17733
히어로 -17734
▁공격한 -17735
▁소모량 -17736
됐고 -17737
▁즐거운 -17738
인원 -17739
▁소식 -17740
노우에 -17741
▁당시에도 -17742
▁눕 -17743
ction -17744
▁회복한다 -17745
킥을 -17746
▁인력 -17747
▁영상에 -17748
크루 -17749
▁베리 -17750
제에서 -17751
▁길이가 -17752
▁파괴할 -17753
▁VOCALOID -17754
▁묻고 -17755
▁임금 -17756
▁표를 -17757
▁나가고 -17758
▁프레스 -17759
하네 -17760
day -17761
▁스냅 -17762
시간은 -17763
ittle -17764
▁중도 -17765
▁때마침 -17766
요소 -17767
▁도심 -17768
▁퍼붓 -17769
▁나무를 -17770
▁필름 -17771
칸센 -17772
atic -17773
토시 -17774
▁멸종 -17775
▁코디 -17776
▁회사에서 -17777
▁원내 -17778
▁샹 -17779
▁접수 -17780
▁떠오르는 -17781
▁선택하면 -17782
▁+0 -17783
▁나미 -17784
▁트와 -17785
▁울음 -17786
▁UI -17787
가능한 -17788
▁롤러 -17789
웨이트 -17790
▁죽어서 -17791
▁사용하는데 -17792
▁묘한 -17793
▁명성을 -17794
▁1962 -17795
▁추가적으로 -17796
해지기 -17797
▁현장에 -17798
토미 -17799
▁워크 -17800
▁입힐 -17801
▁리볼버 -17802
▁서방 -17803
▁전투는 -17804
▁일러스트가 -17805
▁인상적인 -17806
▁스테이지에서 -17807
▁저질렀 -17808
▁전해진다 -17809
▁Leg -17810
▁일어나고 -17811
▁UF -17812
하듯이 -17813
▁122 -17814
받던 -17815
▁능력의 -17816
축을 -17817
▁졌다 -17818
▁타우 -17819
▁성우인 -17820
▁남발 -17821
▁멜로디 -17822
▁프리즘 -17823
▁운행한다 -17824
▁1940 -17825
▁갔을 -17826
▁몸의 -17827
▁유난히 -17828
스타의 -17829
▁2.3 -17830
▁깊게 -17831
▁에코 -17832
▁영향력이 -17833
▁시청자들의 -17834
인수 -17835
▁TW -17836
정도의 -17837
시키는데 -17838
▁대령 -17839
▁기사의 -17840
인사이드 -17841
▁기수 -17842
▁기록하면서 -17843
▁겹치는 -17844
랑의 -17845
▁알려주는 -17846
나라는 -17847
▁아수라 -17848
▁디버프를 -17849
말의 -17850
▁아델 -17851
▁일행의 -17852
▁운반 -17853
▁수만 -17854
▁미묘하게 -17855
▁이미지는 -17856
▁단원 -17857
▁그닥 -17858
▁Hard -17859
진에게 -17860
▁FL -17861
▁테일러 -17862
▁어머니와 -17863
▁시부 -17864
▁자리는 -17865
▁예정이라고 -17866
차대전 -17867
▁말까지 -17868
동네 -17869
▁주유 -17870
▁데뷔한 -17871
▁애니메이션의 -17872
▁외로 -17873
폴리스 -17874
▁편안 -17875
▁보우 -17876
▁가능한데 -17877
▁정하는 -17878
▁쏘면 -17879
▁채취 -17880
▁고가 -17881
▁BD -17882
▁바티 -17883
▁파수 -17884
안타를 -17885
▁한타에서 -17886
▁사출 -17887
▁This -17888
▁자기는 -17889
▁민중 -17890
▁언급한다 -17891
▁변경된 -17892
부족 -17893
▁공학 -17894
other -17895
▁대목 -17896
▁길거리 -17897
▁감염된 -17898
▁연사력 -17899
레스트 -17900
▁107 -17901
▁타나카 -17902
▁적절하게 -17903
▁베니 -17904
▁왕위 -17905
▁순간이 -17906
▁상황에서는 -17907
뜩이나 -17908
▁밸런스가 -17909
▁마스코트 -17910
버리기 -17911
▁다르지 -17912
▁치우 -17913
모에 -17914
부문 -17915
▁동호 -17916
▁퀄컴 -17917
분해 -17918
▁Sec -17919
▁마디로 -17920
▁발표된 -17921
▁쿠라 -17922
▁지극히 -17923
▁느껴진다 -17924
번타자 -17925
▁덴마크 -17926
02 -17927
이냐 -17928
지점 -17929
▁델타 -17930
▁원망 -17931
▁이과 -17932
▁MB -17933
▁구멍이 -17934
▁여자친 -17935
▁세키 -17936
▁걸까 -17937
▁연결된 -17938
▁열차가 -17939
▁추종자 -17940
업으로 -17941
▁장소로 -17942
오며 -17943
▁주도권을 -17944
▁우는 -17945
▁일격을 -17946
▁장점을 -17947
▁벨라 -17948
▁꽃을 -17949
▁펜타 -17950
▁스테이지를 -17951
▁발현 -17952
▁피안타 -17953
▁결승전에서 -17954
▁부족으로 -17955
▁런닝 -17956
▁생존자 -17957
신인 -17958
▁신상 -17959
▁흑역 -17960
▁박사가 -17961
어찌 -17962
주는데 -17963
▁인형을 -17964
▁담임 -17965
▁Power -17966
▁PVP -17967
▁아니니 -17968
▁결국에는 -17969
▁목걸 -17970
▁출근 -17971
▁파워를 -17972
▁늘었다 -17973
▁관장 -17974
▁맛있는 -17975
▁수치는 -17976
▁just -17977
▁도와주는 -17978
▁사관 -17979
▁뿐이고 -17980
▁받았으며 -17981
엔진 -17982
▁클립 -17983
▁모르겠다 -17984
▁퉁 -17985
▁츠루 -17986
▁많았고 -17987
,4 -17988
▁파도 -17989
하였던 -17990
▁Sing -17991
▁가뜩이나 -17992
▁결국엔 -17993
강점 -17994
성인 -17995
▁비단 -17996
▁쏠쏠 -17997
▁빠졌다 -17998
▁꼴이 -17999
▁처한 -18000
▁삼성전자 -18001
퇴근 -18002
▁연설 -18003
▁못지않 -18004
몬과 -18005
▁편한 -18006
지방선거 -18007
▁벌인다 -18008
▁서열 -18009
▁쓰며 -18010
▁여성을 -18011
감의 -18012
젤레스 -18013
▁한마디 -18014
▁Live -18015
가메 -18016
▁심장을 -18017
▁찌질 -18018
▁중이던 -18019
▁HG -18020
▁퀘스트가 -18021
▁상기한 -18022
비도 -18023
▁계획에 -18024
▁관계에 -18025
▁성대 -18026
▁이이 -18027
▁자유의 -18028
▁fl -18029
▁이블 -18030
더스트 -18031
/30 -18032
▁과일 -18033
▁동갑 -18034
▁Af -18035
▁기피 -18036
▁후예 -18037
IGHT -18038
▁사면 -18039
베리아 -18040
▁빼고는 -18041
▁우루과 -18042
▁연상시키는 -18043
구성 -18044
창의 -18045
▁의학 -18046
▁부담을 -18047
inn -18048
체육관 -18049
▁이동이 -18050
▁지내고 -18051
▁컴퍼 -18052
▁덩치가 -18053
▁1930 -18054
▁천지 -18055
▁도망치는 -18056
▁전설적인 -18057
▁퍼포먼스 -18058
생산 -18059
▁애틀 -18060
▁외모를 -18061
측에서 -18062
▁대량의 -18063
▁레스 -18064
▁것들 -18065
▁박준 -18066
▁모으고 -18067
▁확률을 -18068
본이 -18069
▁124 -18070
▁거두며 -18071
▁발키리 -18072
▁설명할 -18073
▁차원이 -18074
▁시너지를 -18075
▁이루어지지 -18076
▁승인 -18077
ount -18078
청의 -18079
▁비자 -18080
▁신세계 -18081
▁죽인다 -18082
▁!) -18083
▁당첨 -18084
▁다이나 -18085
▁what -18086
▁최초수록 -18087
▁습격을 -18088
▁스폰서 -18089
▁따지자 -18090
▁시설을 -18091
▁피드 -18092
▁Life -18093
돼지 -18094
발사 -18095
▁후려 -18096
▁BC -18097
▁않은데 -18098
세력 -18099
▁75% -18100
NG -18101
화학 -18102
▁이익을 -18103
▁높이는 -18104
▁시즌의 -18105
▁아포칼 -18106
▁자유자 -18107
▁하이브리드 -18108
의회 -18109
▁의지가 -18110
돈을 -18111
▁신조 -18112
춘다 -18113
▁5: -18114
▁스트레스 -18115
▁시점이 -18116
법과 -18117
방송을 -18118
▁미끄러 -18119
▁예전부터 -18120
숨에 -18121
▁신칸센 -18122
현실 -18123
BM -18124
▁수험 -18125
▁마디 -18126
▁악기 -18127
프터 -18128
놓으면 -18129
▁쏟아져 -18130
▁이겼다 -18131
▁왔을 -18132
▁다닌 -18133
▁목에 -18134
▁부진한 -18135
▁가의 -18136
▁아멜 -18137
감하게 -18138
▁가슴을 -18139
▁어딘가 -18140
타고 -18141
▁해에 -18142
목적 -18143
▁피치 -18144
▁Out -18145
▁우리를 -18146
▁터질 -18147
▁Res -18148
버섯 -18149
▁이마저도 -18150
▁대진 -18151
▁국가를 -18152
▁공격하고 -18153
▁등장하였다 -18154
▁내정 -18155
▁카니 -18156
▁가능했다 -18157
쿠리 -18158
▁끼어들 -18159
▁받았는데 -18160
▁출몰 -18161
▁인물의 -18162
▁용기 -18163
▁포커 -18164
폭이 -18165
▁돌려보 -18166
▁시너지 -18167
▁우츠 -18168
왔으며 -18169
▁무한도전 -18170
그런 -18171
▁대고 -18172
▁장을 -18173
▁활동한 -18174
▁선조 -18175
▁들리는 -18176
▁관해 -18177
▁천년 -18178
▁프랑크 -18179
▁컨셉으로 -18180
▁달빛 -18181
▁이내에 -18182
널드 -18183
▁출고 -18184
▁night -18185
버거 -18186
▁격리 -18187
ony -18188
▁와이번스 -18189
▁바주 -18190
▁친구들 -18191
▁포켓몬이 -18192
▁굵은 -18193
▁멤버는 -18194
개혁 -18195
▁버서커 -18196
▁삭제된 -18197
▁수록되어 -18198
케이션 -18199
▁남편이 -18200
▁주어진다 -18201
▁보직 -18202
이트가 -18203
▁초보자 -18204
▁전국동시 -18205
▁깰 -18206
▁드리블 -18207
▁사용되고 -18208
▁스토리에 -18209
AG -18210
▁이끌었다 -18211
▁하수인을 -18212
슈트 -18213
▁변속 -18214
▁2.4 -18215
▁인물을 -18216
▁완화 -18217
▁카탈 -18218
▁태생 -18219
▁포맷 -18220
▁위치로 -18221
▁명백한 -18222
▁위협을 -18223
▁회사를 -18224
▁연세 -18225
▁휴가 -18226
▁무기인 -18227
▁사실이지만 -18228
▁김택 -18229
▁시간과 -18230
▁문제점을 -18231
▁영어를 -18232
▁돌아다니는 -18233
▁팜 -18234
▁살기 -18235
▁스완 -18236
▁1800 -18237
▁Music -18238
소환 -18239
▁단체로 -18240
▁망했어요 -18241
▁쉽지만 -18242
▁싸우다가 -18243
▁멜론 -18244
▁드라큘 -18245
▁확립 -18246
▁인트로 -18247
고교 -18248
▁방호 -18249
▁불륜 -18250
▁세컨드 -18251
▁GG -18252
▁무선 -18253
▁비정 -18254
▁여자는 -18255
▁무실점으로 -18256
▁안동 -18257
에너 -18258
▁텍사스 -18259
▁액셀 -18260
▁낮게 -18261
▁대상은 -18262
▁마에다 -18263
철은 -18264
패의 -18265
▁불쾌 -18266
▁합류한 -18267
▁변장 -18268
▁후로 -18269
군사 -18270
▁안다 -18271
▁넘긴 -18272
▁애매하다 -18273
▁손아 -18274
▁단숨에 -18275
▁전국동시지방선거 -18276
▁킬을 -18277
나오는 -18278
▁스타트 -18279
▁손목 -18280
▁플루 -18281
▁중국이 -18282
▁학생들 -18283
▁무빙 -18284
건물 -18285
▁리코 -18286
▁리부트 -18287
▁프로그램이 -18288
▁공모 -18289
▁끝내고 -18290
치다 -18291
▁복지 -18292
▁주는데 -18293
▁시스템은 -18294
▁필드를 -18295
▁즉각 -18296
▁안그래도 -18297
▁공개한 -18298
▁맞추어 -18299
극장 -18300
피로 -18301
먹었다 -18302
맥을 -18303
▁굴욕 -18304
▁매운 -18305
ane -18306
▁드물다 -18307
반은 -18308
통에 -18309
▁넘은 -18310
▁tvN -18311
▁보잉 -18312
▁유영 -18313
진다는 -18314
▁배우고 -18315
▁이누야 -18316
Gr -18317
▁짙은 -18318
차고 -18319
팅이 -18320
▁UFC -18321
.50 -18322
▁법한 -18323
▁카우 -18324
▁협조 -18325
▁석유 -18326
▁찌르 -18327
▁엘리자베스 -18328
이건 -18329
▁2/3 -18330
▁운영체제 -18331
테루 -18332
▁가격에 -18333
▁리츠 -18334
▁사일 -18335
잖아요 -18336
카쿠 -18337
▁능숙 -18338
▁일체 -18339
▁건물에 -18340
▁한정판 -18341
▁숭배 -18342
▁쌓인 -18343
링으로 -18344
▁독립운동 -18345
르바 -18346
려다가 -18347
▁영상의 -18348
▁순간적으로 -18349
ship -18350
오토 -18351
▁단말 -18352
ual -18353
▁받았으나 -18354
▁토네 -18355
▁대왕 -18356
있으면 -18357
▁건재 -18358
▁나누는 -18359
▁보복 -18360
▁태극 -18361
▁좁아 -18362
▁형이 -18363
▁일러스트를 -18364
▁밝힌다 -18365
ENT -18366
▁MR -18367
▁화상 -18368
▁좋아하지 -18369
경험 -18370
바리 -18371
▁아쉽게 -18372
▁입양 -18373
아에게 -18374
▁시장에서 -18375
▁언급하는 -18376
▁EMP -18377
▁수정되었다 -18378
▁열람 -18379
▁멀쩡히 -18380
▁덱이 -18381
▁리카 -18382
▁이기지 -18383
▁// -18384
▁렌즈 -18385
▁부려 -18386
▁던지고 -18387
▁시장에 -18388
연과 -18389
▁뒤덮 -18390
▁채집 -18391
클리 -18392
▁처참한 -18393
▁지날 -18394
기로는 -18395
▁라이너 -18396
쉬의 -18397
▁맨시티 -18398
▁시절을 -18399
선도 -18400
▁반영한 -18401
▁프랭 -18402
▁크로아 -18403
▁휘말려 -18404
탄과 -18405
방위 -18406
▁자격이 -18407
▁왕족 -18408
▁내주고 -18409
▁예정이었으나 -18410
▁감히 -18411
▁줬다 -18412
▁어벤져스 -18413
▁트위터에 -18414
해에 -18415
▁포니 -18416
▁현실적으로 -18417
▁세기 -18418
▁필연 -18419
절로 -18420
▁네코 -18421
03 -18422
▁스커 -18423
▁볼륨 -18424
▁제프 -18425
당하지 -18426
▁불러일으 -18427
▁없었는데 -18428
▁한편으로는 -18429
▁메일 -18430
▁센티 -18431
▁질병 -18432
애가 -18433
▁삼는 -18434
▁타서 -18435
▁1964 -18436
▁지위를 -18437
▁현재까지도 -18438
▁롤링 -18439
▁키쿠 -18440
▁동탁 -18441
▁전개를 -18442
▁알고보니 -18443
▁콤보가 -18444
▁진행하고 -18445
ern -18446
▁교수가 -18447
▁테니스 -18448
▁갈고 -18449
▁스모 -18450
▁탄을 -18451
▁개봉한 -18452
▁독백 -18453
서비스 -18454
투아 -18455
▁스킵 -18456
▁놀고 -18457
▁비어 -18458
▁질풍 -18459
▁기록하는 -18460
▁딱딱 -18461
▁1965 -18462
▁빅토리아 -18463
▁않겠다고 -18464
▁코마 -18465
▁같고 -18466
▁멘탈이 -18467
▁코바야시 -18468
년차 -18469
▁돌릴 -18470
▁인간형 -18471
▁유저들을 -18472
▁림 -18473
▁징징 -18474
▁레슨 -18475
▁뭔가를 -18476
▁세상이 -18477
▁총으로 -18478
▁비명 -18479
▁Gold -18480
▁Mod -18481
클로 -18482
▁떠돌 -18483
▁320 -18484
월이 -18485
▁일당 -18486
▁도요 -18487
▁신작 -18488
▁원을 -18489
▁장점은 -18490
▁우두머리 -18491
▁이해하지 -18492
▁말의 -18493
▁전에도 -18494
ecial -18495
특별자치 -18496
,6 -18497
52 -18498
▁키즈 -18499
▁표창 -18500
행으로 -18501
▁담배를 -18502
▁동료를 -18503
▁대역 -18504
▁아니냐고 -18505
▁고유의 -18506
▁입으로 -18507
▁에피소드를 -18508
▁제작에 -18509
부에서는 -18510
▁삶의 -18511
▁투수가 -18512
▁Miss -18513
구멍 -18514
▁무너져 -18515
▁팔라딘 -18516
▁이야기의 -18517
덩이 -18518
▁드레스 -18519
점과 -18520
▁VR -18521
▁레이저를 -18522
▁독을 -18523
▁애를 -18524
▁마나가 -18525
▁FB -18526
▁울고 -18527
▁팀과 -18528
▁Vo -18529
▁끈질 -18530
▁데스티니 -18531
▁되어버린다 -18532
▁거주하는 -18533
▁보기에는 -18534
▁흔적이 -18535
▁에일리언 -18536
▁단역 -18537
▁살이 -18538
▁선택지가 -18539
▁라비 -18540
▁버림 -18541
▁기체의 -18542
▁만나러 -18543
▁Lo -18544
▁타지 -18545
라이어 -18546
▁144 -18547
칸의 -18548
▁미국인 -18549
▁사망하고 -18550
▁넘기 -18551
류에 -18552
찬이 -18553
▁공속 -18554
▁1944 -18555
▁사슴 -18556
▁작정하고 -18557
▁에버 -18558
▁타노 -18559
▁230 -18560
▁생각으로 -18561
▁스킬인 -18562
쪽을 -18563
▁열정 -18564
▁End -18565
▁후지와 -18566
▁싶었지만 -18567
충이 -18568
▁벌이고 -18569
▁알렉산더 -18570
움의 -18571
▁슬러 -18572
▁먼치킨 -18573
/9 -18574
구도 -18575
▁아버지에게 -18576
▁있었다면 -18577
ALL -18578
▁웃긴 -18579
▁다니고 -18580
▁의사가 -18581
▁가다 -18582
▁뭐라고 -18583
▁엔딩에서 -18584
▁따른다 -18585
▁진출한 -18586
맞은 -18587
▁루미 -18588
야에게 -18589
▁만회 -18590
▁딜레이가 -18591
어진다 -18592
56 -18593
▁OPS -18594
▁휘둘러 -18595
▁대한항공 -18596
▁적들에게 -18597
▁유한 -18598
적이라는 -18599
▁쑥 -18600
십자 -18601
▁케이지 -18602
▁상금 -18603
▁안좋은 -18604
사자 -18605
▁Hy -18606
▁무공 -18607
▁책정 -18608
▁느리게 -18609
▁병사들이 -18610
▁설상가상으로 -18611
▁4.0 -18612
▁파이트 -18613
▁급기 -18614
▁수에 -18615
모니 -18616
▁김형 -18617
▁그렇듯이 -18618
▁절규 -18619
▁패키 -18620
회담 -18621
▁116 -18622
▁엉뚱한 -18623
▁주장은 -18624
▁이동한다 -18625
차와 -18626
▁뿐인 -18627
▁신과 -18628
▁따지고 -18629
▁박사의 -18630
계에서는 -18631
탈출 -18632
타로가 -18633
▁겪는 -18634
▁스네이크 -18635
렌이 -18636
▁장원 -18637
▁권리를 -18638
▁사기를 -18639
▁점으로 -18640
▁그립 -18641
▁가슴이 -18642
▁지구로 -18643
▁크립 -18644
▁충청북도 -18645
▁전폭 -18646
▁전술을 -18647
샤가 -18648
▁피닉 -18649
▁호박 -18650
▁불리고 -18651
샷을 -18652
▁세가 -18653
▁선택이 -18654
▁중국은 -18655
▁IDOL -18656
▁추가적인 -18657
드릭 -18658
▁묶여 -18659
▁바뀔 -18660
▁반지를 -18661
▁알리는 -18662
▁1920 -18663
론에 -18664
▁망명 -18665
▁형님 -18666
▁점프를 -18667
▁기소 -18668
▁다룬다 -18669
▁파악하고 -18670
인형 -18671
게리온 -18672
▁연금술 -18673
▁있으니까 -18674
▁교훈 -18675
▁이끈 -18676
▁Che -18677
▁저스티스 -18678
1% -18679
점도 -18680
▁코다 -18681
▁이상일 -18682
▁구분이 -18683
▁출연작 -18684
▁칭호를 -18685
▁함대를 -18686
atale -18687
▁마음으로 -18688
▁후반에는 -18689
▁용맹 -18690
득점을 -18691
▁거래를 -18692
교로 -18693
귀가 -18694
▁타치바나 -18695
elf -18696
▁학년 -18697
▁주사위 -18698
▁것임을 -18699
모자 -18700
장치를 -18701
▁승리의 -18702
▁루피 -18703
▁세르비아 -18704
▁어려움을 -18705
▁캐서 -18706
ision -18707
▁맨유 -18708
▁아니었고 -18709
▁저주받은 -18710
▁구석 -18711
▁뜻의 -18712
▁Sy -18713
▁불려 -18714
즈에게 -18715
▁완성된 -18716
▁내외 -18717
는다면 -18718
우니 -18719
▁서킷 -18720
▁1-1 -18721
▁엔딩이 -18722
▁수영복 -18723
▁스콧 -18724
▁상위항목 -18725
▁Femm -18726
▁DX -18727
▁갈린다 -18728
황제 -18729
▁바꾸어 -18730
▁바다의 -18731
▁소환된 -18732
▁스펙이 -18733
황이 -18734
▁세금 -18735
▁천둥 -18736
▁스크래 -18737
▁포켓몬을 -18738
소스 -18739
수아 -18740
아이돌 -18741
▁한가운데 -18742
▁포함해서 -18743
나온 -18744
▁앉아서 -18745
▁우월한 -18746
▁지도를 -18747
▁방과 -18748
▁쥬얼 -18749
이드의 -18750
▁놓는 -18751
▁미유 -18752
▁상처가 -18753
번대 -18754
▁소서 -18755
라인을 -18756
▁트러블 -18757
▁Rem -18758
ham -18759
▁사쿠라이 -18760
▁School -18761
▁내전 -18762
▁런처 -18763
게임을 -18764
▁set -18765
▁김전 -18766
▁자각 -18767
▁이력 -18768
▁춘천 -18769
▁한몫 -18770
▁어찌어찌 -18771
드립니다 -18772
들아 -18773
▁주장도 -18774
결에 -18775
세인 -18776
▁테리 -18777
▁대타로 -18778
▁로제 -18779
▁애국 -18780
▁구입할 -18781
▁등장하면서 -18782
▁씁 -18783
▁넓게 -18784
▁주면서 -18785
▁부족하다 -18786
▁6% -18787
▁대격 -18788
▁공격도 -18789
▁크라운 -18790
▁미오 -18791
▁샤워 -18792
명이나 -18793
▁대대로 -18794
▁분량이 -18795
.99 -18796
▁발광 -18797
▁웃고 -18798
▁잠들 -18799
▁평론가 -18800
▁체력의 -18801
▁don -18802
▁높다고 -18803
▁슬라이드 -18804
시노 -18805
연방 -18806
IST -18807
▁버스가 -18808
▁원정에서 -18809
▁2,000 -18810
책임 -18811
▁에도 -18812
데가 -18813
리조 -18814
▁똘 -18815
자체 -18816
▁피해는 -18817
패치 -18818
▁퀴즈 -18819
▁망한 -18820
▁죽었다고 -18821
해한다 -18822
▁맞으며 -18823
▁위주 -18824
터에서 -18825
▁레코드 -18826
▁행적을 -18827
공격이 -18828
▁타격이 -18829
▁모닝 -18830
▁미도리 -18831
여름 -18832
▁일제강점 -18833
▁이후부터는 -18834
▁양보 -18835
▁초래 -18836
▁내각 -18837
▁붉은색 -18838
▁조영 -18839
트레이 -18840
▁바이크 -18841
▁127 -18842
▁왔다고 -18843
▁측근 -18844
▁그렇게까지 -18845
▁간판 -18846
▁ro -18847
▁우연 -18848
▁호전 -18849
트에게 -18850
▁소녀가 -18851
▁이해하기 -18852
▁집합 -18853
갑을 -18854
▁문화를 -18855
▁배치되어 -18856
▁내려오는 -18857
팀인 -18858
▁YOU -18859
▁놓치지 -18860
▁여자의 -18861
▁공지사항 -18862
▁한복 -18863
ouse -18864
감소 -18865
▁밑의 -18866
▁높으신 -18867
송을 -18868
▁TH -18869
▁기억해 -18870
▁오재 -18871
▁운운 -18872
번호를 -18873
▁하드코어 -18874
▁에어로시티 -18875
▁꼽히는 -18876
▁보너스가 -18877
▁평화를 -18878
mania -18879
ational -18880
▁BT -18881
▁MLB -18882
▁만들었다고 -18883
▁돕는 -18884
▁모친 -18885
▁반감 -18886
▁GR -18887
row -18888
▁플레이스테이션 -18889
▁욕설 -18890
▁되거나 -18891
▁모델인 -18892
▁로스앤 -18893
FM -18894
▁헬기 -18895
캐스트 -18896
▁King -18897
▁불리기도 -18898
▁변신한 -18899
킹이 -18900
▁상관이 -18901
[...]
