[PAD]	0
[UNK]	0
[BOS]	0
[EOS]	0
[CLS]	0
[SEP]	0
[MASK]	0
▁이	-0
▁1	-1
으로	-2
에서	-3
▁있	-4
▁2	-5
▁대	-6
▁그	-7
▁사	-8
이다	-9
▁지	-10
었다	-11
▁수	-12
▁시	-13
▁가	-14
▁20	-15
▁기	-16
▁전	-17
▁아	-18
▁하	-19
▁19	-20
▁있다	-21
▁다	-22
▁제	-23
했다	-24
하였	-25
▁일	-26
▁한	-27
▁정	-28
▁중	-29
▁주	-30
▁자	-31
하는	-32
▁것	-33
▁경	-34
▁인	-35
▁공	-36
▁유	-37
되었다	-38
▁위	-39
▁보	-40
하고	-41
▁부	-42
▁등	-43
하였다	-44
▁조	-45
▁3	-46
▁미	-47
하여	-48
▁선	-49
▁동	-50
▁나	-51
▁마	-52
▁모	-53
▁연	-54
▁개	-55
▁영	-56
▁의	-57
▁오	-58
으며	-59
▁소	-60
▁발	-61
▁구	-62
▁201	-63
▁고	-64
에는	-65
한다	-66
▁세	-67
▁스	-68
▁국	-69
▁비	-70
▁도	-71
▁상	-72
▁서	-73
▁후	-74
▁여	-75
▁관	-76
▁200	-77
▁성	-78
▁때	-79
▁해	-80
▁프	-81
▁신	-82
▁대한	-83
▁역	-84
▁4	-85
▁있는	-86
부터	-87
▁방	-88
▁"	-89
▁바	-90
▁5	-91
▁생	-92
지만	-93
▁만	-94
▁않	-95
▁또	-96
되어	-97
▁무	-98
▁장	-99
▁통	-100
▁교	-101
▁남	-102
▁내	-103
까지	-104
▁현	-105
▁문	-106
에게	-107
▁같	-108
▁출	-109
▁결	-110
학교	-111
▁포	-112
▁우	-113
▁거	-114
적인	-115
국의	-116
▁진	-117
적으로	-118
▁원	-119
▁최	-120
된다	-121
▁불	-122
이라	-123
▁어	-124
▁작	-125
▁노	-126
▁알	-127
▁강	-128
▁당	-129
▁반	-130
▁파	-131
▁6	-132
▁분	-133
▁계	-134
▁리	-135
▁10	-136
▁따	-137
▁배	-138
들이	-139
▁받	-140
▁말	-141
▁없	-142
면서	-143
▁사용	-144
▁실	-145
년에	-146
▁두	-147
되었	-148
들은	-149
▁에	-150
▁명	-151
▁단	-152
▁예	-153
▁'	-154
▁이후	-155
에서는	-156
▁7	-157
▁함	-158
▁안	-159
하기	-160
▁재	-161
▁8	-162
▁차	-163
▁로	-164
▁특	-165
▁설	-166
하게	-167
▁한다	-168
▁데	-169
▁일본	-170
▁요	-171
▁초	-172
았다	-173
▁종	-174
▁다음	-175
▁카	-176
였다	-177
▁군	-178
▁라	-179
▁독	-180
▁대한민	-181
00	-182
▁활	-183
으나	-184
▁추	-185
▁9	-186
▁199	-187
리아	-188
▁김	-189
▁감	-190
▁그는	-191
▁및	-192
▁많	-193
▁태	-194
스트	-195
▁더	-196
▁타	-197
▁되었다	-198
▁음	-199
▁입	-200
▁건	-201
▁행	-202
▁운	-203
▁매	-204
▁참	-205
▁형	-206
는데	-207
▁지역	-208
▁다른	-209
▁평	-210
주의	-211
▁과	-212
▁양	-213
▁같은	-214
▁산	-215
▁코	-216
▁올	-217
▁그리	-218
▁18	-219
▁미국	-220
▁위해	-221
▁프로	-222
▁크	-223
▁피	-224
이며	-225
레이	-226
▁12	-227
▁적	-228
or	-229
들의	-230
▁열	-231
▁왕	-232
▁베	-233
▁호	-234
▁본	-235
▁목	-236
▁승	-237
▁시작	-238
▁북	-239
들을	-240
들어	-241
▁때문	-242
▁번	-243
▁화	-244
▁총	-245
라는	-246
▁회	-247
기도	-248
되는	-249
▁외	-250
▁임	-251
▁따라	-252
▁변	-253
▁또한	-254
▁각	-255
▁그러	-256
하며	-257
▁함께	-258
▁사람	-259
▁S	-260
▁표	-261
▁속	-262
▁처	-263
▁11	-264
▁달	-265
▁물	-266
▁자신	-267
시아	-268
la	-269
▁선수	-270
▁민	-271
라고	-272
▁경우	-273
▁약	-274
▁학	-275
▁직	-276
이나	-277
▁새	-278
▁게	-279
▁드	-280
▁간	-281
▁영화	-282
▁현재	-283
▁집	-284
▁한국	-285
하지	-286
▁그의	-287
▁세계	-288
▁메	-289
▁기록	-290
▁저	-291
▁A	-292
▁이름	-293
기에	-294
▁f	-295
▁198	-296
하다	-297
▁사이	-298
▁가장	-299
▁당시	-300
▁국가	-301
▁항	-302
▁존	-303
▁위치	-304
▁하나	-305
기를	-306
▁체	-307
되고	-308
▁레	-309
에도	-310
▁점	-311
▁때문에	-312
스의	-313
▁확	-314
▁박	-315
▁것을	-316
▁그러나	-317
▁F	-318
▁토	-319
▁M	-320
스는	-321
리는	-322
()	-323
▁C	-324
▁브	-325
▁뒤	-326
▁청	-327
▁조선	-328
▁것으로	-329
▁했다	-330
▁축	-331
▁복	-332
▁활동	-333
mu	-334
▁for	-335
▁투	-336
▁있으며	-337
▁있었다	-338
▁필	-339
▁천	-340
▁광	-341
▁의해	-342
mula	-343
이라고	-344
▁것이	-345
일에	-346
▁formula	-347
지는	-348
▁된다	-349
▁야	-350
▁디	-351
▁삼	-352
▁못	-353
▁역사	-354
▁법	-355
▁그리고	-356
▁합	-357
▁통해	-358
▁또는	-359
▁증	-360
▁철	-361
졌다	-362
▁프랑	-363
▁T	-364
▁판	-365
▁치	-366
▁금	-367
▁창	-368
▁근	-369
▁대한민국	-370
했고	-371
▁언	-372
▁버	-373
▁15	-374
▁편	-375
등학교	-376
▁살	-377
▁첫	-378
▁많은	-379
리를	-380
▁플	-381
▁트	-382
▁심	-383
▁것이다	-384
▁경기	-385
▁197	-386
랜드	-387
▁돌	-388
▁애	-389
▁충	-390
▁들어	-391
▁페	-392
▁황	-393
▁16	-394
▁아니	-395
이라는	-396
하면서	-397
▁높	-398
▁쓰	-399
하였고	-400
▁다음과	-401
▁네	-402
▁하는	-403
▁은	-404
▁할	-405
▁가지	-406
▁완	-407
는다	-408
▁대한민국의	-409
▁클	-410
▁서울	-411
▁다시	-412
▁대해	-413
▁루	-414
▁있었	-415
▁백	-416
이었다	-417
▁포함	-418
▁뜻	-419
▁여러	-420
▁사회	-421
▁시즌	-422
▁17	-423
대로	-424
▁병	-425
이는	-426
▁196	-427
사를	-428
상을	-429
▁연구	-430
▁용	-431
▁순	-432
▁되	-433
로서	-434
er	-435
▁패	-436
▁팀	-437
20	-438
▁K	-439
▁독일	-440
▁죽	-441
개의	-442
▁큰	-443
이고	-444
▁권	-445
▁D	-446
▁B	-447
되었고	-448
▁모두	-449
in	-450
▁히	-451
라이	-452
보다	-453
장을	-454
▁하였다	-455
성을	-456
▁I	-457
위를	-458
▁모든	-459
▁채	-460
회의	-461
▁중국	-462
지를	-463
▁규	-464
▁취	-465
▁아이	-466
▁친	-467
▁194	-468
▁전쟁	-469
▁배우	-470
니아	-471
▁일부	-472
▁알려	-473
▁처음	-474
▁정부	-475
▁축구	-476
▁감독	-477
▁식	-478
▁논	-479
대의	-480
▁테	-481
자가	-482
▁제작	-483
▁이루	-484
이었	-485
▁정치	-486
▁대표	-487
▁구성	-488
▁위한	-489
▁등이	-490
▁도시	-491
▁뉴	-492
▁-	-493
▁이용	-494
리에	-495
▁14	-496
년부터	-497
도의	-498
lt	-499
▁허	-500
▁손	-501
▁등의	-502
했으며	-503
▁월	-504
▁자신의	-505
▁존재	-506
▁영국	-507
도로	-508
▁끝	-509
▁리그	-510
▁작품	-511
▁문제	-512
년에는	-513
gt	-514
력을	-515
▁있어	-516
▁이상	-517
▁이어	-518
났다	-519
부분	-520
▁P	-521
▁길	-522
▁환	-523
▁러	-524
거나	-525
▁프랑스	-526
▁일반	-527
이자	-528
▁즉	-529
▁것은	-530
▁동안	-531
▁캐	-532
리스	-533
▁개발	-534
나라	-535
on	-536
▁13	-537
km	-538
▁온	-539
▁인구	-540
▁L	-541
기의	-542
▁국제	-543
시에	-544
▁앞	-545
▁나타	-546
▁195	-547
▁가능	-548
▁&	-549
▁준	-550
▁이러	-551
▁사건	-552
▁맡	-553
▁걸	-554
▁같다	-555
▁게임	-556
년대	-557
▁이러한	-558
통령	-559
▁미국의	-560
▁새로	-561
▁접	-562
로는	-563
▁맞	-564
▁중심	-565
▁발견	-566
▁주장	-567
▁협	-568
기는	-569
▁농	-570
▁향	-571
▁밀	-572
▁곳	-573
군의	-574
▁갖	-575
▁이는	-576
▁검	-577
들과	-578
▁발표	-579
▁줄	-580
위원	-581
▁방송	-582
▁하지만	-583
▁별	-584
도록	-585
▁전투	-586
▁태어	-587
▁문화	-588
자의	-589
▁영향	-590
▁등을	-591
다는	-592
림픽	-593
리가	-594
리카	-595
▁U	-596
▁볼	-597
▁대회	-598
되었으며	-599
000	-600
하면	-601
▁G	-602
시키	-603
▁사망	-604
▁음악	-605
서는	-606
로부터	-607
▁N	-608
▁의미	-609
▁2010	-610
▁잘	-611
기가	-612
▁키	-613
▁폭	-614
▁되어	-615
▁귀	-616
▁대부분	-617
▁육	-618
이트	-619
리그	-620
▁번째	-621
▁지방	-622
an	-623
다고	-624
월에	-625
▁대통령	-626
▁결과	-627
스를	-628
▁이를	-629
▁관계	-630
정을	-631
▁밝	-632
▁담	-633
에서도	-634
▁홍	-635
▁섬	-636
▁공격	-637
▁대학	-638
▁막	-639
▁관련	-640
인의	-641
-1	-642
명의	-643
란드	-644
▁우승	-645
▁하고	-646
▁R	-647
사가	-648
자는	-649
▁참여	-650
년까지	-651
▁효	-652
▁진행	-653
▁경제	-654
하였으며	-655
▁극	-656
했던	-657
▁193	-658
성이	-659
▁석	-660
▁발생	-661
▁프로그	-662
▁30	-663
와의	-664
자를	-665
들에게	-666
▁얻	-667
세기	-668
▁H	-669
▁최초	-670
▁구조	-671
어진	-672
도를	-673
▁앨	-674
▁곡	-675
▁날	-676
리의	-677
▁와	-678
▁선거	-679
디오	-680
▁E	-681
▁특히	-682
▁블	-683
▁유럽	-684
▁면	-685
▁이에	-686
이스	-687
▁설립	-688
▁헤	-689
▁교육	-690
쪽으로	-691
▁올림픽	-692
▁절	-693
▁발매	-694
▁갈	-695
▁설치	-696
▁책	-697
▁암	-698
▁다양	-699
▁일어	-700
▁봉	-701
▁위치한	-702
자로	-703
대를	-704
▁글	-705
스터	-706
르는	-707
▁독립	-708
▁2008	-709
스가	-710
▁이전	-711
드는	-712
▁형태	-713
▁된	-714
▁[	-715
▁러시아	-716
▁그녀	-717
과의	-718
▁새로운	-719
▁폐	-720
렸다	-721
▁시간	-722
▁엔	-723
▁측	-724
▁참가	-725
▁자유	-726
▁생각	-727
▁만들어	-728
▁같이	-729
▁사실	-730
▁인해	-731
요한	-732
▁질	-733
▁커	-734
▁기술	-735
▁부분	-736
▁지원	-737
▁좋	-738
▁소속	-739
▁받았다	-740
▁2011	-741
▁범	-742
가지	-743
▁등장	-744
도는	-745
▁2012	-746
▁니	-747
번째	-748
사의	-749
▁받아	-750
▁중앙	-751
▁이것	-752
화국	-753
▁침	-754
▁이탈	-755
▁로마	-756
▁머	-757
식을	-758
▁슈	-759
en	-760
▁프로그램	-761
므로	-762
▁행정	-763
▁출신	-764
▁2009	-765
▁누	-766
▁2007	-767
▁골	-768
▁결정	-769
▁송	-770
▁탄	-771
▁주로	-772
▁음반	-773
▁있고	-774
▁탈	-775
▁W	-776
▁수도	-777
▁2014	-778
▁계속	-779
▁잡	-780
인이	-781
▁운영	-782
리즈	-783
라마	-784
▁지정	-785
부의	-786
▁성공	-787
프트	-788
▁상태	-789
▁데뷔	-790
▁벌	-791
▁타이	-792
▁기준	-793
전을	-794
사는	-795
▁난	-796
르크	-797
대학교	-798
학자	-799
에서의	-800
▁매우	-801
비아	-802
▁혼	-803
이션	-804
ar	-805
▁케	-806
▁있던	-807
▁,	-808
▁주요	-809
he	-810
명을	-811
▁2013	-812
다가	-813
▁생산	-814
▁않았다	-815
▁넘	-816
기로	-817
▁악	-818
▁아버	-819
으로서	-820
▁운동	-821
▁쿠	-822
▁급	-823
▁고려	-824
▁가지고	-825
▁몇	-826
▁이탈리아	-827
▁터	-828
▁생애	-829
▁0	-830
▁라이	-831
▁25	-832
대에	-833
▁아니라	-834
장이	-835
이지	-836
▁돌아	-837
▁찾	-838
▁윤	-839
스타	-840
도가	-841
▁싱	-842
▁차지	-843
▁191	-844
▁시절	-845
▁아들	-846
▁만들	-847
▁2018	-848
▁조직	-849
▁일본의	-850
하기도	-851
▁2015	-852
▁들	-853
▁여성	-854
처럼	-855
우스	-856
군은	-857
,000	-858
▁출연	-859
▁업	-860
왔다	-861
▁2016	-862
▁해당	-863
▁최고	-864
▁100	-865
▁결국	-866
▁계획	-867
했지만	-868
해서	-869
▁없는	-870
▁없다	-871
▁폴	-872
되지	-873
▁내용	-874
FA	-875
es	-876
▁스타	-877
▁한편	-878
▁팔	-879
대표	-880
▁데이	-881
▁방법	-882
권을	-883
▁따르	-884
명이	-885
▁전체	-886
하자	-887
원을	-888
▁2006	-889
화를	-890
▁이유	-891
▁떨	-892
수를	-893
원의	-894
수의	-895
사로	-896
간의	-897
▁개요	-898
▁아래	-899
▁않고	-900
운데	-901
장은	-902
인민	-903
스템	-904
냈다	-905
스크	-906
▁좌	-907
▁앨범	-908
▁192	-909
▁많이	-910
▁국민	-911
▁21	-912
▁2017	-913
▁가리	-914
▁제공	-915
일부터	-916
▁콘	-917
▁떠	-918
▁월드	-919
▁둘	-920
▁역할	-921
지의	-922
▁수상	-923
남도	-924
▁후보	-925
나는	-926
▁유명	-927
▁O	-928
스와	-929
▁다양한	-930
▁스페	-931
▁힘	-932
▁대학교	-933
▁남아	-934
초등학교	-935
▁빠	-936
선의	-937
at	-938
▁묘	-939
▁평가	-940
자인	-941
▁칼	-942
▁엘	-943
으로써	-944
▁마이	-945
▁인터	-946
음을	-947
장으로	-948
am	-949
▁가운데	-950
▁몸	-951
_1	-952
▁J	-953
▁헌	-954
▁출전	-955
▁정의	-956
▁하여	-957
▁정보	-958
어로	-959
▁잠	-960
대학	-961
▁과정	-962
지가	-963
진다	-964
▁거의	-965
부에	-966
▁빌	-967
민주	-968
▁컴	-969
▁드라마	-970
▁표현	-971
▁모습	-972
운동	-973
시의	-974
▁이루어	-975
스로	-976
▁생활	-977
▁바이	-978
지에	-979
▁마지	-980
전에	-981
성의	-982
가는	-983
였던	-984
▁특징	-985
▁열린	-986
했으나	-987
▁않는다	-988
하던	-989
al	-990
수가	-991
▁각각	-992
▁연결	-993
▁공식	-994
▁얼	-995
▁t	-996
인다	-997
위원회	-998
됐다	-999
원이	-1000
점을	-1001
▁격	-1002
리고	-1003
▁2019	-1004
원은	-1005
머니	-1006
▁24	-1007
▁졸	-1008
하려	-1009
▁레이	-1010
▁시리즈	-1011
▁진출	-1012
▁능	-1013
사에	-1014
▁영향을	-1015
▁이미	-1016
▁따르면	-1017
▁필요	-1018
으로부터	-1019
▁시스템	-1020
▁높은	-1021
▁기능	-1022
제로	-1023
▁따라서	-1024
▁마지막	-1025
니다	-1026
어를	-1027
이가	-1028
▁이름을	-1029
▁몰	-1030
▁2005	-1031
▁임명	-1032
▁알려져	-1033
▁녹	-1034
▁공개	-1035
▁붙	-1036
텔레	-1037
력이	-1038
이드	-1039
ic	-1040
어는	-1041
▁작은	-1042
▁23	-1043
▁직접	-1044
제를	-1045
▁보고	-1046
▁인정	-1047
21	-1048
문화	-1049
▁이야	-1050
▁자연	-1051
으로는	-1052
상의	-1053
▁민주	-1054
시켰	-1055
▁대전	-1056
었고	-1057
▁인도	-1058
▁쇼	-1059
▁경상	-1060
치는	-1061
▁개최	-1062
▁센	-1063
▁지구	-1064
BS	-1065
인은	-1066
▁2000	-1067
▁인물	-1068
▁상황	-1069
▁뛰	-1070
▁추가	-1071
▁풍	-1072
▁시대	-1073
▁22	-1074
▁항공	-1075
▁퍼	-1076
군이	-1077
대한	-1078
해야	-1079
▁프리	-1080
▁대신	-1081
▁브라	-1082
▁분류	-1083
▁울	-1084
▁2004	-1085
▁유지	-1086
▁오스트	-1087
지고	-1088
▁먹	-1089
▁눈	-1090
▁활약	-1091
▁않은	-1092
비전	-1093
▁그룹	-1094
▁그리스	-1095
▁밴	-1096
▁아르	-1097
▁보여	-1098
▁발전	-1099
▁.	-1100
수는	-1101
르트	-1102
▁티	-1103
▁핵	-1104
위에	-1105
▁응	-1106
▁FC	-1107
들에	-1108
인을	-1109
▁제국	-1110
▁홈	-1111
▁그가	-1112
선을	-1113
▁되는	-1114
갔다	-1115
▁관한	-1116
▁목록	-1117
▁기타	-1118
▁초기	-1119
▁압	-1120
수로	-1121
is	-1122
▁그것	-1123
트로	-1124
▁학교	-1125
it	-1126
▁결혼	-1127
인민공	-1128
▁졸업	-1129
▁여자	-1130
▁노래	-1131
▁모델	-1132
▁있는데	-1133
▁후에	-1134
부를	-1135
레스	-1136
▁건물	-1137
▁이론	-1138
▁사업	-1139
▁변경	-1140
▁정도	-1141
부는	-1142
▁서로	-1143
▁크게	-1144
북도	-1145
세의	-1146
▁방식	-1147
▁비롯	-1148
10	-1149
전에서	-1150
▁않았	-1151
▁부산	-1152
▁중요한	-1153
있다	-1154
대는	-1155
re	-1156
▁기업	-1157
▁플레이	-1158
▁역시	-1159
▁철도	-1160
▁희	-1161
▁말한다	-1162
▁형성	-1163
지로	-1164
▁기원	-1165
▁28	-1166
ou	-1167
▁건설	-1168
▁V	-1169
▁나라	-1170
계를	-1171
▁워	-1172
▁26	-1173
▁비판	-1174
▁공동	-1175
▁낮	-1176
▁2020	-1177
]]	-1178
▁현대	-1179
프리카	-1180
▁190	-1181
▁관리	-1182
문을	-1183
▁뿐	-1184
일까지	-1185
치를	-1186
대가	-1187
킨다	-1188
▁태어났다	-1189
전히	-1190
원으로	-1191
리오	-1192
▁군사	-1193
주는	-1194
▁요구	-1195
▁일으	-1196
▁27	-1197
제가	-1198
▁[[	-1199
운드	-1200
▁중화	-1201
▁거쳐	-1202
▁뜻은	-1203
▁텔레	-1204
▁연합	-1205
장의	-1206
▁하였	-1207
제의	-1208
광역	-1209
▁지금	-1210
▁가진	-1211
▁색	-1212
회를	-1213
▁노동	-1214
▁야구	-1215
▁시작했다	-1216
▁반대	-1217
스탄	-1218
임을	-1219
군을	-1220
▁지도	-1221
▁딸	-1222
되면서	-1223
▁기본	-1224
▁실시	-1225
▁콜	-1226
상이	-1227
▁놓	-1228
나다	-1229
▁느	-1230
성은	-1231
▁클럽	-1232
▁경기도	-1233
▁개인	-1234
le	-1235
▁배우이다	-1236
▁사이에	-1237
▁싱글	-1238
▁않는	-1239
▁원래	-1240
특별	-1241
▁만든	-1242
▁동시에	-1243
▁전통	-1244
▁푸	-1245
▁이르	-1246
▁어떤	-1247
▁긴	-1248
▁혹	-1249
과는	-1250
키는	-1251
▁계약	-1252
▁2002	-1253
▁학생	-1254
▁국가대표	-1255
▁웨	-1256
▁맥	-1257
이의	-1258
▁휴	-1259
▁사랑	-1260
트는	-1261
▁잉	-1262
▁민족	-1263
른다	-1264
장에	-1265
▁지하	-1266
▁운행	-1267
▁자동	-1268
▁상대	-1269
거리	-1270
▁역할을	-1271
상으로	-1272
▁판매	-1273
▁종교	-1274
이었던	-1275
▁승강	-1276
▁지역의	-1277
자와	-1278
▁빈	-1279
하였으나	-1280
▁망	-1281
▁아닌	-1282
▁샤	-1283
▁서비	-1284
▁2003	-1285
19	-1286
▁벨	-1287
▁~	-1288
단의	-1289
▁겸	-1290
▁소련	-1291
▁기간	-1292
▁인간	-1293
관은	-1294
▁있다고	-1295
▁싸	-1296
정한	-1297
▁위하여	-1298
드의	-1299
하는데	-1300
▁기반	-1301
체의	-1302
▁이동	-1303
학적	-1304
▁다이	-1305
▁정책	-1306
▁견	-1307
▁혁	-1308
되며	-1309
▁전국	-1310
드로	-1311
▁명칭	-1312
▁최초의	-1313
서를	-1314
군에	-1315
▁수행	-1316
."	-1317
▁처음으로	-1318
이를	-1319
소를	-1320
▁교황	-1321
명은	-1322
▁퇴	-1323
▁그래	-1324
▁도쿄	-1325
있는	-1326
▁애니	-1327
▁도입	-1328
▁50	-1329
▁공간	-1330
▁월드컵	-1331
▁특별	-1332
▁여기	-1333
▁의한	-1334
▁전문	-1335
▁엄	-1336
이기도	-1337
구의	-1338
▁슬	-1339
오는	-1340
▁29	-1341
장에서	-1342
트의	-1343
▁언어	-1344
독교	-1345
명이다	-1346
▁이때	-1347
트를	-1348
▁보통	-1349
피언	-1350
호를	-1351
▁이적	-1352
▁경력	-1353
▁있을	-1354
▁궁	-1355
린다	-1356
▁산업	-1357
가와	-1358
▁지나	-1359
▁전라	-1360
물을	-1361
▁개의	-1362
▁기존	-1363
격을	-1364
▁훈	-1365
▁기준으로	-1366
▁출시	-1367
했는데	-1368
시마	-1369
호는	-1370
▁31	-1371
역이다	-1372
▁가족	-1373
체를	-1374
▁제외	-1375
▁달리	-1376
▁마을	-1377
▁이끌	-1378
50	-1379
▁넓	-1380
혔다	-1381
카이	-1382
▁텔레비전	-1383
▁옮	-1384
▁비슷	-1385
▁탑	-1386
회는	-1387
스코	-1388
▁공연	-1389
▁주변	-1390
고등학교	-1391
▁국내	-1392
▁하며	-1393
연구	-1394
▁탐	-1395
▁경찰	-1396
▁과거	-1397
▁바로	-1398
무를	-1399
세는	-1400
중에	-1401
▁경기에서	-1402
도에	-1403
▁되고	-1404
▁기관	-1405
▁될	-1406
리와	-1407
학과	-1408
스에	-1409
▁연방	-1410
▁어머니	-1411
▁지배	-1412
▁역임	-1413
▁영화이다	-1414
적을	-1415
▁일반적으로	-1416
호로	-1417
BC	-1418
▁뮤	-1419
드를	-1420
▁소설	-1421
▁유일	-1422
▁비교	-1423
사와	-1424
▁변화	-1425
리로	-1426
▁FI	-1427
▁c	-1428
의를	-1429
▁가수	-1430
▁설명	-1431
▁윌	-1432
▁모양	-1433
▁태양	-1434
▁아버지	-1435
▁옥	-1436
광역시	-1437
동안	-1438
▁뉴욕	-1439
▁피해	-1440
▁증가	-1441
▁지휘	-1442
▁컴퓨	-1443
▁적용	-1444
마다	-1445
▁노선	-1446
▁있다는	-1447
방송	-1448
위로	-1449
▁혹은	-1450
▁작업	-1451
▁건축	-1452
하지만	-1453
시간	-1454
st	-1455
▁챔	-1456
▁환경	-1457
제는	-1458
▁받은	-1459
르게	-1460
시켰다	-1461
▁보내	-1462
▁이것은	-1463
년의	-1464
▁기독교	-1465
기관	-1466
▁작곡	-1467
▁선정	-1468
리지	-1469
▁너	-1470
상은	-1471
▁중심으로	-1472
▁풀	-1473
▁그를	-1474
▁행동	-1475
▁추정	-1476
▁확인	-1477
▁1990	-1478
.5	-1479
▁사고	-1480
▁동일	-1481
▁먼	-1482
▁흔	-1483
▁규모	-1484
▁캐나다	-1485
-2	-1486
▁받았	-1487
▁지지	-1488
메이션	-1489
▁착	-1490
당의	-1491
▁통합	-1492
▁2001	-1493
▁자기	-1494
어가	-1495
쪽에	-1496
▁분야	-1497
▁어린	-1498
▁숙	-1499
▁낙	-1500
▁종류	-1501
▁밖	-1502
경기	-1503
▁곧	-1504
정에	-1505
▁염	-1506
단을	-1507
쳤다	-1508
인으로	-1509
▁차량	-1510
▁때문이다	-1511
▁없이	-1512
인민공화국	-1513
체가	-1514
어의	-1515
조의	-1516
▁앤	-1517
크로	-1518
▁개념	-1519
▁찾아	-1520
▁획	-1521
▁챔피언	-1522
mm	-1523
▁가까	-1524
드리	-1525
야마	-1526
▁득	-1527
▁받고	-1528
▁갑	-1529
▁우주	-1530
▁떨어	-1531
▁실패	-1532
기와	-1533
적은	-1534
.1	-1535
▁최대	-1536
부가	-1537
종의	-1538
▁TV	-1539
▁기념	-1540
하거나	-1541
▁오늘	-1542
▁40	-1543
▁담당	-1544
▁멤	-1545
▁컴퓨터	-1546
관을	-1547
▁보호	-1548
▁방향	-1549
단은	-1550
▁되었고	-1551
▁충청	-1552
▁189	-1553
▁어느	-1554
▁자신이	-1555
원에	-1556
▁대부분의	-1557
▁부르	-1558
성과	-1559
▁활동을	-1560
▁이런	-1561
이로	-1562
▁몽	-1563
▁FIFA	-1564
▁이와	-1565
▁수록	-1566
30	-1567
▁윈	-1568
▁는	-1569
▁방영	-1570
▁속하는	-1571
▁올라	-1572
▁국가대표팀	-1573
▁상당	-1574
▁스페인	-1575
▁열차	-1576
▁두고	-1577
▁대체	-1578
▁이상의	-1579
나무	-1580
▁늘	-1581
했다고	-1582
계의	-1583
▁베이	-1584
스카	-1585
▁애니메이션	-1586
▁반응	-1587
▁지정되었다	-1588
메리카	-1589
▁흑	-1590
▁데이터	-1591
교육	-1592
et	-1593
트리	-1594
▁있지만	-1595
el	-1596
글랜드	-1597
▁과학	-1598
움을	-1599
자들은	-1600
성에	-1601
▁/	-1602
▁그녀는	-1603
치가	-1604
▁기원전	-1605
일에는	-1606
▁넣	-1607
▁멤버	-1608
▁연주	-1609
일을	-1610
▁최종	-1611
▁1,	-1612
▁교통	-1613
ion	-1614
▁선출	-1615
면에	-1616
포츠	-1617
적이	-1618
세가	-1619
트남	-1620
▁위원	-1621
▁최근	-1622
▁걸쳐	-1623
▁도로	-1624
▁조지	-1625
시켜	-1626
▁없었다	-1627
렇게	-1628
▁부족	-1629
▁인천	-1630
▁나가	-1631
▁인구는	-1632
인이다	-1633
호선	-1634
▁런	-1635
▁선택	-1636
▁대하여	-1637
▁잔	-1638
▁결승	-1639
▁솔	-1640
▁:	-1641
심을	-1642
▁다음을	-1643
가의	-1644
▁더욱	-1645
▁옛	-1646
▁형식	-1647
동에	-1648
▁있어서	-1649
▁논란	-1650
▁관할	-1651
▁있었던	-1652
ing	-1653
겼다	-1654
▁등에	-1655
▁흐	-1656
▁공산	-1657
중학교	-1658
▁땅	-1659
▁효과	-1660
▁마르	-1661
세를	-1662
▁조사	-1663
▁예정	-1664
▁대구	-1665
▁수는	-1666
▁자료	-1667
학을	-1668
▁입단	-1669
했을	-1670
▁뛰어	-1671
으면	-1672
▁서울특별	-1673
▁동물	-1674
▁사상	-1675
시는	-1676
역을	-1677
▁크리스	-1678
▁1999	-1679
▁아시아	-1680
▁언급	-1681
렀다	-1682
▁칸	-1683
▁최초로	-1684
화가	-1685
▁조건	-1686
▁시민	-1687
ol	-1688
▁선언	-1689
널리	-1690
▁불가	-1691
▁등으로	-1692
▁1998	-1693
▁메이	-1694
▁하다	-1695
프로	-1696
▁잉글랜드	-1697
▁평균	-1698
▁획득	-1699
한다는	-1700
구에	-1701
om	-1702
▁하나이다	-1703
▁국립	-1704
▁내려	-1705
▁에너	-1706
▁시설	-1707
시키는	-1708
▁정당	-1709
▁이름은	-1710
▁북한	-1711
스턴	-1712
▁물리	-1713
▁맺	-1714
▁가리킨다	-1715
▁1980	-1716
▁칭	-1717
정은	-1718
amp	-1719
▁것이라고	-1720
회에서	-1721
법을	-1722
이에	-1723
▁우리	-1724
▁보인다	-1725
▁지역에	-1726
▁구간	-1727
▁지속	-1728
소가	-1729
12	-1730
▁배경	-1731
▁어려	-1732
▁명령	-1733
이어	-1734
학의	-1735
▁흥	-1736
구하고	-1737
전은	-1738
▁후반	-1739
▁유래	-1740
▁연속	-1741
스에서	-1742
▁그들의	-1743
▁전기	-1744
▁좋은	-1745
▁선발	-1746
▁을	-1747
▁예술	-1748
▁국회의	-1749
▁점령	-1750
▁유사	-1751
▁컨	-1752
▁이해	-1753
구를	-1754
자들이	-1755
하도록	-1756
▁X	-1757
▁고대	-1758
▁예를	-1759
라의	-1760
명으로	-1761
.0	-1762
난다	-1763
▁표준	-1764
▁대중	-1765
정부	-1766
덜란드	-1767
상에	-1768
▁정규	-1769
개월	-1770
▁출판	-1771
▁거주	-1772
▁목표	-1773
▁소비	-1774
정이	-1775
소는	-1776
함으로써	-1777
▁전에	-1778
▁이들은	-1779
▁자리	-1780
▁있게	-1781
진을	-1782
▁익	-1783
▁징	-1784
▁m	-1785
▁팬	-1786
▁겨	-1787
▁은퇴	-1788
체는	-1789
▁소유	-1790
▁덴	-1791
되었으나	-1792
시대	-1793
만이	-1794
라도	-1795
일랜드	-1796
만을	-1797
▁잃	-1798
▁주민	-1799
▁움	-1800
▁개봉	-1801
▁왜	-1802
모토	-1803
스티	-1804
▁구역	-1805
▁정신	-1806
비를	-1807
레일	-1808
▁덕	-1809
▁돈	-1810
▁이유로	-1811
스키	-1812
내는	-1813
▁명의	-1814
▁전자	-1815
년간	-1816
▁실험	-1817
▁작가	-1818
바이	-1819
▁쌍	-1820
▁세포	-1821
관이	-1822
▁포르	-1823
▁페르	-1824
▁밝혔다	-1825
▁분석	-1826
▁네덜란드	-1827
▁영국의	-1828
.2	-1829
버스	-1830
선거	-1831
메달	-1832
원에서	-1833
지와	-1834
▁이름으로	-1835
나이	-1836
▁모습을	-1837
▁베트남	-1838
▁휘	-1839
▁알렉	-1840
▁웹	-1841
▁밤	-1842
▁1997	-1843
과에	-1844
▁구분	-1845
전의	-1846
단이	-1847
소의	-1848
지방	-1849
▁선수이다	-1850
웠다	-1851
▁사무	-1852
▁제품	-1853
회가	-1854
베르	-1855
▁제한	-1856
▁액	-1857
▁성장	-1858
▁강화	-1859
었으며	-1860
▁말했다	-1861
▁조약	-1862
이지만	-1863
60	-1864
▁불구하고	-1865
▁남자	-1866
▁승리	-1867
▁홀	-1868
▁치료	-1869
정의	-1870
로의	-1871
▁o	-1872
랐다	-1873
라스	-1874
이란	-1875
지역	-1876
▁Y	-1877
▁드러	-1878
러스	-1879
▁깊	-1880
▁서울특별시	-1881
인데	-1882
▁씨	-1883
민주주의	-1884
▁믿	-1885
골을	-1886
▁설계	-1887
단에	-1888
▁맡았다	-1889
▁아프리카	-1890
회에	-1891
▁사이의	-1892
▁오늘날	-1893
▁거두	-1894
▁찬	-1895
▁하나의	-1896
▁1996	-1897
▁소프트	-1898
금을	-1899
스테	-1900
▁헌법	-1901
베이	-1902
▁분리	-1903
▁현재는	-1904
▁육군	-1905
되기	-1906
▁하계	-1907
▁사용하는	-1908
▁1995	-1909
▁서식	-1910
▁헬	-1911
당은	-1912
▁포함한	-1913
▁알려진	-1914
드가	-1915
▁폴란드	-1916
▁끌	-1917
월에는	-1918
▁크로	-1919
▁정확	-1920
▁언론	-1921
직을	-1922
▁마음	-1923
cm	-1924
-0	-1925
▁핀	-1926
▁하지	-1927
▁아직	-1928
부르크	-1929
ac	-1930
▁실제	-1931
구는	-1932
들로	-1933
▁이곳	-1934
▁공화국	-1935
▁그런	-1936
▁프로젝	-1937
▁경험	-1938
형을	-1939
▁하이	-1940
▁방문	-1941
▁의미한다	-1942
쪽으로는	-1943
우는	-1944
▁그들은	-1945
▁분포	-1946
부로	-1947
▁가문	-1948
▁결합	-1949
▁아마	-1950
전이	-1951
▁통과	-1952
▁이듬	-1953
시코	-1954
▁그림	-1955
자리	-1956
▁쓴	-1957
▁제조	-1958
아의	-1959
으므로	-1960
지지	-1961
산을	-1962
월부터	-1963
▁부여	-1964
▁것에	-1965
치고	-1966
어서	-1967
계에	-1968
▁이사	-1969
11	-1970
▁널리	-1971
▁광주	-1972
▁비행	-1973
_2	-1974
▁괴	-1975
▁런던	-1976
▁단체	-1977
▁하나로	-1978
▁제안	-1979
▁비해	-1980
▁발달	-1981
식은	-1982
▁지상	-1983
▁기여	-1984
▁스포츠	-1985
▁공립	-1986
▁맨	-1987
▁수준	-1988
40	-1989
▁세워	-1990
▁주의	-1991
▁완전히	-1992
▁이듬해	-1993
▁꽃	-1994
▁복귀	-1995
장과	-1996
인과	-1997
▁중에	-1998
▁공항	-1999
▁물질	-2000
사카	-2001
트가	-2002
▁UE	-2003
▁요시	-2004
가를	-2005
▁여겨	-2006
르의	-2007
로를	-2008
▁예선	-2009
주를	-2010
▁중요	-2011
▁인터넷	-2012
▁우승을	-2013
▁의하여	-2014
▁차례	-2015
배우	-2016
톨릭	-2017
▁the	-2018
▁못했다	-2019
루스	-2020
▁위에	-2021
식이	-2022
▁펼	-2023
▁움직	-2024
▁UEFA	-2025
하의	-2026
▁불리	-2027
관으로	-2028
지에서	-2029
▁고등학교	-2030
▁요청	-2031
▁멀	-2032
▁1970	-2033
▁슈퍼	-2034
▁멸	-2035
르고	-2036
▁배치	-2037
스토	-2038
TV	-2039
▁때까지	-2040
▁프랑스의	-2041
▁외국	-2042
들도	-2043
▁1994	-2044
▁독일의	-2045
사업	-2046
구가	-2047
▁188	-2048
▁현재의	-2049
감을	-2050
사에서	-2051
▁제주	-2052
▁더불	-2053
de	-2054
▁자주	-2055
▁등과	-2056
위가	-2057
▁식민	-2058
▁확장	-2059
▁사람이	-2060
국은	-2061
▁전해	-2062
▁나온	-2063
▁통일	-2064
점이	-2065
▁정도로	-2066
신을	-2067
▁나머	-2068
▁유전	-2069
15	-2070
il	-2071
▁이로	-2072
도와	-2073
라인	-2074
▁경쟁	-2075
▁접근	-2076
▁더불어	-2077
▁바탕	-2078
위의	-2079
웨어	-2080
▁영토	-2081
▁파괴	-2082
▁칠	-2083
▁빛	-2084
▁몬	-2085
▁있도록	-2086
위는	-2087
▁연기	-2088
▁마찬	-2089
▁비롯한	-2090
▁개혁	-2091
▁해석	-2092
▁브라질	-2093
▁마찬가지	-2094
▁아시	-2095
▁사라	-2096
▁KBS	-2097
▁갖고	-2098
▁추진	-2099
▁오래	-2100
조는	-2101
▁깨	-2102
카와	-2103
▁주연	-2104
▁오스트리아	-2105
▁삼성	-2106
문에	-2107
▁쉽	-2108
▁불교	-2109
▁선수로	-2110
▁스스로	-2111
물의	-2112
▁사람들이	-2113
경을	-2114
동을	-2115
▁밴드	-2116
▁않아	-2117
ro	-2118
▁록	-2119
▁혈	-2120
▁정식	-2121
▁습	-2122
▁나오	-2123
었던	-2124
▁감독의	-2125
as	-2126
▁1992	-2127
▁촉	-2128
아가	-2129
▁품	-2130
선이	-2131
화국의	-2132
▁이들	-2133
시를	-2134
▁강원	-2135
▁달러	-2136
규모	-2137
▁패배	-2138
▁수용	-2139
▁km	-2140
▁프레	-2141
▁지난	-2142
▁오른	-2143
디어	-2144
▁필리	-2145
시즌	-2146
▁과정에서	-2147
▁가르	-2148
▁p	-2149
▁소재	-2150
▁유명한	-2151
로나	-2152
▁디자인	-2153
▁주인	-2154
▁스웨	-2155
▁특정	-2156
▁법률	-2157
▁스테	-2158
▁짧	-2159
▁빅	-2160
습니다	-2161
▁만나	-2162
▁작용	-2163
릭터	-2164
▁밝혀	-2165
▁앙	-2166
철도	-2167
받았다	-2168
일의	-2169
▁60	-2170
▁자치	-2171
▁그대로	-2172
▁선수권	-2173
▁존재한다	-2174
소년	-2175
주에	-2176
▁바뀌	-2177
18	-2178
부에서	-2179
크의	-2180
군과	-2181
센터	-2182
▁폐지	-2183
▁잇	-2184
▁기초	-2185
▁of	-2186
▁술	-2187
▁스트	-2188
ig	-2189
▁윌리	-2190
▁외교	-2191
▁제국의	-2192
레일리아	-2193
▁초등학교	-2194
ve	-2195
되기도	-2196
▁스위	-2197
▁강력	-2198
기술	-2199
국이	-2200
지게	-2201
선은	-2202
▁회사	-2203
멕시코	-2204
▁1960	-2205
▁b	-2206
▁경우가	-2207
행을	-2208
▁십	-2209
▁일어나	-2210
선에	-2211
▁알고	-2212
▁초대	-2213
▁s	-2214
형의	-2215
없이	-2216
▁되었	-2217
▁해결	-2218
▁목적으로	-2219
▁아카	-2220
▁기록했다	-2221
▁많다	-2222
▁가톨릭	-2223
▁것이었다	-2224
▁가져	-2225
식의	-2226
▁먼저	-2227
▁자동차	-2228
▁이외	-2229
▁관측	-2230
▁단순	-2231
▁라디오	-2232
류의	-2233
▁1991	-2234
많은	-2235
▁엔진	-2236
▁캐릭터	-2237
력은	-2238
고를	-2239
▁제시	-2240
▁스웨덴	-2241
▁삶	-2242
▁거부	-2243
디아	-2244
▁유니	-2245
▁근처	-2246
속도로	-2247
▁부정	-2248
▁노르	-2249
16	-2250
크는	-2251
웨이	-2252
하라	-2253
니는	-2254
▁상호	-2255
▁결성	-2256
▁그린	-2257
이기	-2258
▁캠	-2259
▁일제	-2260
졌고	-2261
▁그녀의	-2262
부와	-2263
▁1993	-2264
▁친구	-2265
▁경영	-2266
주로	-2267
▁들어가	-2268
프는	-2269
▁제작된	-2270
량이	-2271
▁이야기	-2272
인트	-2273
▁생성	-2274
▁조선민주주의	-2275
▁집합	-2276
▁여름	-2277
▁도착	-2278
▁반란	-2279
▁미국에서	-2280
종이다	-2281
▁보다	-2282
자에	-2283
▁가능하다	-2284
하이	-2285
▁지진	-2286
한다고	-2287
자이다	-2288
▁불리는	-2289
▁위험	-2290
▁상대로	-2291
▁있으나	-2292
아시아	-2293
하였는데	-2294
13	-2295
리에서	-2296
지션	-2297
▁70	-2298
▁다카	-2299
▁아무	-2300
▁벤	-2301
화의	-2302
▁놀	-2303
수한	-2304
▁겪	-2305
▁구성되어	-2306
▁성립	-2307
▁지역에서	-2308
▁투표	-2309
▁해안	-2310
▁비슷한	-2311
▁수많은	-2312
▁교수	-2313
▁임시	-2314
▁여기서	-2315
▁동맹	-2316
▁않다	-2317
▁이주	-2318
▁한국의	-2319
▁영어	-2320
▁소개	-2321
하다가	-2322
▁통치	-2323
▁디지	-2324
▁파견	-2325
했다는	-2326
트워	-2327
▁상징	-2328
▁다만	-2329
▁팀의	-2330
▁엘리	-2331
▁궤	-2332
▁오스트레일리아	-2333
▁출생	-2334
왕의	-2335
간다	-2336
▁연극	-2337
하기로	-2338
▁살아	-2339
▁조각	-2340
량을	-2341
▁훈련	-2342
만의	-2343
▁시도	-2344
▁에서	-2345
▁의원	-2346
▁준비	-2347
▁황제	-2348
성으로	-2349
▁때는	-2350
▁윈도	-2351
▁의하면	-2352
▁활용	-2353
정보	-2354
▁다르	-2355
▁것과	-2356
▁재판	-2357
▁시행	-2358
▁만에	-2359
과학	-2360
▁공작	-2361
▁주도	-2362
▁교회	-2363
▁문학	-2364
▁아일랜드	-2365
▁뇌	-2366
▁근거	-2367
▁캘	-2368
대와	-2369
▁야마	-2370
",	-2371
▁바꾸	-2372
▁중간	-2373
▁사용한다	-2374
▁지냈다	-2375
▁곤	-2376
▁카를	-2377
▁마찬가지로	-2378
▁스튜	-2379
평양	-2380
▁대응	-2381
▁에이	-2382
함을	-2383
14	-2384
년을	-2385
▁승강장	-2386
어나	-2387
▁나무	-2388
▁오브	-2389
▁바르	-2390
ed	-2391
▁발행	-2392
▁윌리엄	-2393
80	-2394
▁흡	-2395
▁기후	-2396
촬영	-2397
▁시기	-2398
▁방어	-2399
▁붕	-2400
조를	-2401
▁따른	-2402
▁떨어진	-2403
70	-2404
트에서	-2405
▁지역을	-2406
▁1988	-2407
▁보유	-2408
▁시험	-2409
▁대표적인	-2410
▁르	-2411
관의	-2412
화된	-2413
▁처리	-2414
▁지하철	-2415
교회	-2416
낸다	-2417
▁형태로	-2418
업을	-2419
▁로스	-2420
▁이렇게	-2421
▁히로	-2422
▁체포	-2423
▁바다	-2424
▁끝에	-2425
▁번역	-2426
▁시작하였다	-2427
시가	-2428
▁멕시코	-2429
▁미사	-2430
▁중단	-2431
▁등록	-2432
▁지리	-2433
▁대해서	-2434
▁비디오	-2435
▁벽	-2436
인들이	-2437
▁1.	-2438
▁꾸	-2439
▁숨	-2440
였고	-2441
았고	-2442
나가	-2443
▁회의	-2444
▁이루어진	-2445
버트	-2446
▁일을	-2447
NA	-2448
▁서비스	-2449
▁북쪽	-2450
▁타이틀	-2451
▁사용된다	-2452
▁가정	-2453
▁이스	-2454
▁몇몇	-2455
▁센터	-2456
▁규정	-2457
연합	-2458
▁있었고	-2459
일은	-2460
▁유로	-2461
▁남쪽	-2462
점으로	-2463
▁좋아	-2464
▁관련된	-2465
가이다	-2466
▁안정	-2467
▁혁명	-2468
▁귀족	-2469
▁The	-2470
▁이집	-2471
면을	-2472
▁베르	-2473
▁젊	-2474
▁사용할	-2475
▁직후	-2476
▁위해서	-2477
▁있기	-2478
▁중에서	-2479
소에	-2480
▁체결	-2481
티아	-2482
사회	-2483
▁묘사	-2484
크라	-2485
▁여객	-2486
▁를	-2487
▁디지털	-2488
▁당선	-2489
주시	-2490
▁파이	-2491
▁사진	-2492
▁알렉산	-2493
▁80	-2494
▁제기	-2495
안을	-2496
량은	-2497
가로	-2498
▁해외	-2499
으면서	-2500
▁1950	-2501
_3	-2502
▁지적	-2503
us	-2504
작용	-2505
▁낳	-2506
치의	-2507
▁즉위	-2508
로가	-2509
▁계열	-2510
▁1989	-2511
▁다루	-2512
▁중국의	-2513
▁혐	-2514
▁정부는	-2515
▁2021	-2516
어졌다	-2517
▁억	-2518
od	-2519
임스	-2520
▁남부	-2521
▁종합	-2522
▁금지	-2523
▁보존	-2524
워드	-2525
▁얼마	-2526
▁나머지	-2527
',	-2528
▁살해	-2529
▁이슬	-2530
생활	-2531
당이	-2532
▁내각	-2533
▁관광	-2534
▁뮤직	-2535
▁대사	-2536
▁유대	-2537
▁하루	-2538
▁적이	-2539
▁그렇	-2540
ch	-2541
▁동생	-2542
▁개통	-2543
오카	-2544
▁계승	-2545
▁지명	-2546
물이	-2547
▁대륙	-2548
리포	-2549
회사	-2550
▁달성	-2551
▁이름이	-2552
▁홍콩	-2553
▁둔	-2554
▁가능한	-2555
비는	-2556
▁떠나	-2557
▁값	-2558
국을	-2559
▁촬영	-2560
▁류	-2561
▁나타나	-2562
▁부른다	-2563
권의	-2564
니스	-2565
나라의	-2566
▁포르투	-2567
▁펜	-2568
라우	-2569
▁종료	-2570
▁발사	-2571
▁못한	-2572
단으로	-2573
▁있지	-2574
▁완성	-2575
산의	-2576
였으며	-2577
17	-2578
and	-2579
공항	-2580
미터	-2581
▁간의	-2582
▁취임	-2583
▁링	-2584
피아	-2585
러운	-2586
▁표시	-2587
▁조성	-2588
계가	-2589
수이다	-2590
해졌다	-2591
▁정치적	-2592
자들의	-2593
치로	-2594
▁곳에	-2595
▁주인공	-2596
소로	-2597
▁쌓	-2598
▁사망하였다	-2599
▁밑	-2600
▁스코	-2601
▁폰	-2602
▁강한	-2603
▁보수	-2604
▁사후	-2605
학생	-2606
▁대해서는	-2607
와는	-2608
▁싶	-2609
▁유일한	-2610
-3	-2611
주교	-2612
▁의견	-2613
▁승격	-2614
▁년	-2615
▁안전	-2616
론을	-2617
하에	-2618
▁본래	-2619
▁전환	-2620
▁꼬	-2621
ent	-2622
관리	-2623
인지	-2624
▁충돌	-2625
▁멜	-2626
▁못하고	-2627
되자	-2628
▁1945	-2629
시킨	-2630
서로	-2631
당을	-2632
력의	-2633
▁완전	-2634
조가	-2635
두고	-2636
▁경기를	-2637
▁수비	-2638
▁옮겨	-2639
시키고	-2640
▁일어난	-2641
▁남북	-2642
▁인민	-2643
▁물론	-2644
▁전달	-2645
▁합류	-2646
▁낮은	-2647
롭게	-2648
▁벗	-2649
▁종목	-2650
▁근무	-2651
▁안에	-2652
▁주목	-2653
▁굴	-2654
나의	-2655
▁경상남도	-2656
세에	-2657
▁죄	-2658
▁천황	-2659
▁경상북도	-2660
▁관계를	-2661
▁것도	-2662
▁표기	-2663
▁32	-2664
계는	-2665
▁후쿠	-2666
▁전략	-2667
▁미술	-2668
시로	-2669
▁인근	-2670
▁케이	-2671
▁중의	-2672
▁필요한	-2673
구역	-2674
▁동쪽	-2675
▁평화	-2676
ra	-2677
▁이래	-2678
▁아내	-2679
관에	-2680
내고	-2681
▁만들었다	-2682
▁문제를	-2683
▁제거	-2684
려고	-2685
력으로	-2686
▁미래	-2687
▁문제가	-2688
▁인식	-2689
되었던	-2690
문화재	-2691
▁영역	-2692
▁해군	-2693
로로	-2694
승을	-2695
▁명예	-2696
미널	-2697
족의	-2698
▁스토	-2699
▁사이에서	-2700
▁반면	-2701
▁오후	-2702
상과	-2703
.3	-2704
▁제도	-2705
▁빨	-2706
요일	-2707
먼트	-2708
▁델	-2709
▁186	-2710
▁썼	-2711
▁참여하였다	-2712
▁각종	-2713
▁중화인민공화국	-2714
▁주는	-2715
48	-2716
▁비밀	-2717
비가	-2718
전쟁	-2719
▁녹음	-2720
▁즐	-2721
신의	-2722
즈의	-2723
▁생물	-2724
종이	-2725
량의	-2726
▁헨	-2727
▁보여주	-2728
▁왼	-2729
▁네트워	-2730
▁읽	-2731
▁부모	-2732
▁나누	-2733
ot	-2734
인들은	-2735
대회	-2736
▁베네	-2737
▁MBC	-2738
▁듣	-2739
분을	-2740
월까지	-2741
▁=	-2742
석을	-2743
산으로	-2744
▁통하여	-2745
▁납	-2746
원과	-2747
▁상업	-2748
은행	-2749
▁이루어져	-2750
▁친일	-2751
▁가까운	-2752
헝가	-2753
전으로	-2754
그룹	-2755
▁a	-2756
단체	-2757
준다	-2758
화는	-2759
메달을	-2760
▁말을	-2761
▁수가	-2762
▁이슬람	-2763
▁셀	-2764
과를	-2765
▁집중	-2766
▁이용하여	-2767
▁성격	-2768
▁최고의	-2769
▁경우에는	-2770
▁오사카	-2771
▁포지션	-2772
▁오르	-2773
▁가입	-2774
▁강조	-2775
파의	-2776
▁위의	-2777
프가	-2778
▁샌	-2779
▁주었다	-2780
분에	-2781
▁위치하고	-2782
메이	-2783
▁공급	-2784
▁빼	-2785
▁d	-2786
un	-2787
▁너무	-2788
적으로는	-2789
▁마이크로	-2790
..	-2791
▁카운	-2792
▁위치해	-2793
▁정착	-2794
25	-2795
▁전시	-2796
ow	-2797
▁아우	-2798
주가	-2799
▁뒤에	-2800
▁둘러	-2801
▁기록을	-2802
▁기획	-2803
만에	-2804
▁실제로	-2805
▁국회의원	-2806
상에서	-2807
▁보이	-2808
리어	-2809
▁아니다	-2810
로스	-2811
▁전투에서	-2812
권이	-2813
▁전반	-2814
▁만들어진	-2815
▁내부	-2816
▁오스	-2817
▁저항	-2818
▁맹	-2819
지도	-2820
해를	-2821
▁에드	-2822
▁187	-2823
동차	-2824
▁사실을	-2825
문이	-2826
▁북부	-2827
▁연장	-2828
▁인한	-2829
기업	-2830
가가	-2831
▁출신의	-2832
▁마련	-2833
▁만약	-2834
▁기존의	-2835
▁사람은	-2836
▁제목	-2837
▁최소	-2838
▁아키	-2839
년대에	-2840
▁문서	-2841
▁건너	-2842
▁바탕으로	-2843
▁정리	-2844
드와	-2845
▁옆	-2846
▁되었으며	-2847
▁던	-2848
▁사회적	-2849
▁인디	-2850
▁젊은	-2851
ct	-2852
슨은	-2853
▁사회주의	-2854
▁여전히	-2855
▁계산	-2856
▁의사	-2857
▁허용	-2858
점에서	-2859
▁레코	-2860
▁가는	-2861
적이고	-2862
▁정부의	-2863
▁서쪽	-2864
년과	-2865
▁마리아	-2866
▁감소	-2867
▁실행	-2868
▁전개	-2869
▁그해	-2870
고로	-2871
▁구조를	-2872
▁갖추	-2873
▁끼	-2874
▁혜	-2875
▁넘어	-2876
▁프로듀	-2877
▁35	-2878
▁건강	-2879
화에	-2880
산업	-2881
▁왔다	-2882
▁신라	-2883
2,	-2884
▁사용하여	-2885
▁블랙	-2886
▁확대	-2887
▁작성	-2888
▁교체	-2889
▁몽골	-2890
▁이번	-2891
리스트	-2892
교의	-2893
▁에스	-2894
▁1987	-2895
▁일반적인	-2896
▁윈도우	-2897
문학	-2898
▁대회에서	-2899
사이	-2900
▁재직	-2901
질을	-2902
▁적극	-2903
▁이후에	-2904
라노	-2905
▁올랐다	-2906
▁게이	-2907
호가	-2908
▁영화배우	-2909
▁유엔	-2910
▁입학	-2911
▁바람	-2912
FC	-2913
▁사례	-2914
▁무렵	-2915
▁국방	-2916
▁뿐만	-2917
했기	-2918
▁자체	-2919
▁객	-2920
세포	-2921
▁사람을	-2922
▁무역	-2923
▁기능을	-2924
▁유형	-2925
▁그려	-2926
▁하기	-2927
▁시대의	-2928
산은	-2929
br	-2930
▁포르투갈	-2931
트라	-2932
▁사령	-2933
▁받아들	-2934
▁부문	-2935
▁위협	-2936
▁편집	-2937
자에게	-2938
졌으며	-2939
▁국왕	-2940
▁신문	-2941
▁뒷	-2942
계에서	-2943
▁불러	-2944
▁만드는	-2945
▁불린다	-2946
▁관찰	-2947
▁피아	-2948
▁아나	-2949
▁시기에	-2950
▁n	-2951
보다는	-2952
▁전라남도	-2953
▁범죄	-2954
▁겨울	-2955
▁찰	-2956
▁보도	-2957
▁채널	-2958
시오	-2959
▁터키	-2960
▁생활을	-2961
리포니아	-2962
사건	-2963
▁1986	-2964
▁나중에	-2965
▁붕괴	-2966
▁옹	-2967
래프트	-2968
▁1984	-2969
라운드	-2970
▁노력	-2971
▁채택	-2972
▁전차	-2973
▁2,	-2974
▁성우	-2975
▁제임스	-2976
기고	-2977
▁유리	-2978
▁출발	-2979
▁구단	-2980
실을	-2981
▁자본	-2982
의로	-2983
▁울산	-2984
트에	-2985
▁점차	-2986
▁동계	-2987
.4	-2988
되었는데	-2989
개발	-2990
▁제외한	-2991
선에서	-2992
▁동료	-2993
▁만화	-2994
▁일이	-2995
오프	-2996
이던	-2997
▁춘	-2998
▁여행	-2999
▁충분	-3000
▁제정	-3001
물로	-3002
장이다	-3003
로운	-3004
도시	-3005
▁라이브	-3006
났으며	-3007
▁항상	-3008
▁판단	-3009
▁사용되는	-3010
▁감염	-3011
르타	-3012
▁그래서	-3013
해의	-3014
티브	-3015
▁이란	-3016
im	-3017
▁컬	-3018
ad	-3019
▁St	-3020
▁해체	-3021
군으로	-3022
▁죽음	-3023
▁집단	-3024
▁확보	-3025
ur	-3026
▁원자	-3027
▁냉	-3028
데미	-3029
▁측정	-3030
케이	-3031
▁합병	-3032
▁외에도	-3033
24	-3034
사령	-3035
▁민간	-3036
▁요리	-3037
▁장기	-3038
▁루이	-3039
▁사람들은	-3040
라엘	-3041
선수	-3042
영화	-3043
로서의	-3044
▁흰	-3045
밖에	-3046
일러	-3047
▁스튜디오	-3048
▁장애	-3049
▁계약을	-3050
▁데이비	-3051
▁블루	-3052
▁마쓰	-3053
▁고구	-3054
▁보면	-3055
테인	-3056
설을	-3057
▁신경	-3058
▁필리핀	-3059
종은	-3060
세이	-3061
id	-3062
모리	-3063
▁구축	-3064
세기에	-3065
▁득점	-3066
▁척	-3067
▁에피	-3068
일본	-3069
았으며	-3070
당에	-3071
▁남편	-3072
▁봄	-3073
▁동부	-3074
자치	-3075
▁쉽게	-3076
면의	-3077
▁증거	-3078
▁끊	-3079
▁500	-3080
▁시작되었다	-3081
▁책임	-3082
시대의	-3083
라고도	-3084
끄는	-3085
세대	-3086
▁매년	-3087
90	-3088
▁마사	-3089
니어	-3090
▁핀란드	-3091
▁엑	-3092
계로	-3093
▁다섯	-3094
국에	-3095
▁세르	-3096
▁발표했다	-3097
▁캘리포니아	-3098
▁쇠	-3099
신이	-3100
▁간주	-3101
▁종종	-3102
▁1985	-3103
정으로	-3104
▁부근	-3105
ut	-3106
레이션	-3107
▁덴마	-3108
▁등은	-3109
▁이승	-3110
대에서	-3111
▁있었지만	-3112
▁뒤를	-3113
경제	-3114
▁공공	-3115
▁경향	-3116
하다고	-3117
▁수학	-3118
▁전사	-3119
리기	-3120
라비아	-3121
▁수립	-3122
이라고도	-3123
▁침공	-3124
▁탑재	-3125
▁해방	-3126
▁90	-3127
▁관심을	-3128
즈는	-3129
▁초반	-3130
23	-3131
하려는	-3132
▁in	-3133
▁파리	-3134
▁증명	-3135
▁남성	-3136
▁자리를	-3137
▁태평양	-3138
▁꿈	-3139
▁주장했다	-3140
▁강력한	-3141
▁모스크	-3142
▁변호	-3143
▁면적은	-3144
▁밖에	-3145
▁그곳	-3146
▁강원도	-3147
티는	-3148
▁서부	-3149
여자	-3150
초등학교는	-3151
▁태풍	-3152
▁균	-3153
력과	-3154
▁정보를	-3155
키아	-3156
▁인간의	-3157
▁수입	-3158
▁공격을	-3159
um	-3160
▁승리를	-3161
▁높이	-3162
▁농업	-3163
까지의	-3164
▁이스라엘	-3165
▁잭	-3166
▁하자	-3167
▁인수	-3168
▁텍	-3169
▁비용	-3170
▁화학	-3171
▁등에서	-3172
▁자신을	-3173
▁소프트웨어	-3174
▁방식으로	-3175
▁아름	-3176
다이	-3177
민족	-3178
▁검은	-3179
▁헝가	-3180
▁역대	-3181
.7	-3182
법에	-3183
항공	-3184
▁나폴	-3185
▁얼굴	-3186
ir	-3187
서에	-3188
.6	-3189
인에	-3190
▁한다고	-3191
▁콩	-3192
▁경우도	-3193
네시아	-3194
▁사용한	-3195
▁쪽	-3196
개를	-3197
셔널	-3198
▁어떻	-3199
당한	-3200
법원	-3201
틀랜드	-3202
씨는	-3203
▁회복	-3204
로도	-3205
약을	-3206
▁LG	-3207
▁메이저	-3208
▁아랍	-3209
법은	-3210
▁정상	-3211
제에	-3212
▁떨어져	-3213
▁남동	-3214
▁없어	-3215
▁특수	-3216
드에서	-3217
되었지만	-3218
▁왔	-3219
▁외부	-3220
▁대규모	-3221
ver	-3222
▁연맹	-3223
▁회원	-3224
▁평양	-3225
포르	-3226
자들을	-3227
▁털	-3228
류를	-3229
▁한다는	-3230
▁시장	-3231
신은	-3232
▁시청	-3233
▁트리	-3234
소에서	-3235
시와	-3236
▁세운	-3237
면에서	-3238
▁아시안	-3239
▁알아	-3240
▁불과	-3241
트와	-3242
에게는	-3243
▁고전	-3244
▁주연으로	-3245
려는	-3246
▁잠시	-3247
티나	-3248
▁마리	-3249
▁귀국	-3250
▁나카	-3251
▁흘	-3252
데스	-3253
▁당시의	-3254
▁중화민	-3255
▁가리키는	-3256
▁좀	-3257
▁족	-3258
▁본선	-3259
사키	-3260
▁삼국	-3261
▁하게	-3262
▁대형	-3263
▁갖춘	-3264
▁플로	-3265
식으로	-3266
▁인하여	-3267
▁둥	-3268
법의	-3269
싱턴	-3270
▁원칙	-3271
▁중학교	-3272
력에	-3273
후의	-3274
서관	-3275
▁1982	-3276
▁파일	-3277
수와	-3278
었는데	-3279
받아	-3280
▁선의	-3281
▁이끄는	-3282
붉은	-3283
▁길이	-3284
▁수정	-3285
▁대상	-3286
▁짓	-3287
▁임명되었다	-3288
대전	-3289
박쥐	-3290
▁조선민주주의인민공화국	-3291
▁45	-3292
▁받는	-3293
▁목적	-3294
▁기계	-3295
▁개편	-3296
▁내에서	-3297
▁힘을	-3298
▁만족	-3299
▁본관은	-3300
형은	-3301
까지는	-3302
▁하면서	-3303
▁폭발	-3304
▁어떻게	-3305
어와	-3306
▁의해서	-3307
▁셰	-3308
▁숲	-3309
바르	-3310
▁사람의	-3311
▁쉬	-3312
▁일종이다	-3313
구로	-3314
명한	-3315
▁복잡	-3316
라가	-3317
▁충청남도	-3318
▁섭	-3319
▁토론	-3320
다운	-3321
▁고양	-3322
하고자	-3323
타이	-3324
차를	-3325
▁비교적	-3326
▁시내	-3327
▁인사	-3328
년이	-3329
마스	-3330
정책	-3331
▁팀은	-3332
▁과정을	-3333
▁기억	-3334
▁태어난	-3335
점에	-3336
▁근대	-3337
22	-3338
▁라틴	-3339
▁말이다	-3340
▁가격	-3341
터테인	-3342
▁잎	-3343
▁글로	-3344
.8	-3345
면은	-3346
무원	-3347
▁네트워크	-3348
동의	-3349
▁행사	-3350
▁뛰어난	-3351
CA	-3352
▁대립	-3353
▁나뉘	-3354
▁롤	-3355
▁편성	-3356
▁은행	-3357
▁카메	-3358
▁편입	-3359
▁통한	-3360
▁않을	-3361
▁보이는	-3362
▁에너지	-3363
유럽	-3364
▁조정	-3365
▁설립된	-3366
▁인기를	-3367
권은	-3368
▁신설	-3369
▁이것이	-3370
▁전역	-3371
었으나	-3372
▁속에	-3373
▁죽은	-3374
형이	-3375
일보	-3376
▁개선	-3377
▁버스	-3378
ay	-3379
▁도움을	-3380
▁쓰인다	-3381
▁발매되었다	-3382
드에	-3383
▁단백	-3384
▁홈런	-3385
▁저장	-3386
▁식물	-3387
인들의	-3388
▁1983	-3389
▁포지션은	-3390
▁본격	-3391
▁문화재	-3392
▁시대에	-3393
▁세이	-3394
▁오리	-3395
▁유도	-3396
▁박물	-3397
▁마드리	-3398
경의	-3399
품을	-3400
▁구체	-3401
▁암살	-3402
▁대상으로	-3403
▁고구려	-3404
▁이전에	-3405
▁후손	-3406
▁재정	-3407
이었고	-3408
▁우선	-3409
▁통신	-3410
료를	-3411
브리	-3412
공업	-3413
▁띠	-3414
▁캄	-3415
프의	-3416
▁참석	-3417
경에	-3418
▁탄생	-3419
▁지역은	-3420
프리	-3421
▁구성된	-3422
동은	-3423
▁사실상	-3424
도에서	-3425
▁카이	-3426
종으로	-3427
▁때에는	-3428
▁시의	-3429
▁불가능	-3430
를린	-3431
▁속에서	-3432
분의	-3433
▁애플	-3434
▁창설	-3435
▁있었으며	-3436
▁스피	-3437
어도	-3438
▁설치되어	-3439
점은	-3440
▁듀	-3441
▁핵심	-3442
도르	-3443
▁아카데미	-3444
▁열대	-3445
em	-3446
에르	-3447
하나	-3448
▁앞두고	-3449
▁전혀	-3450
라크	-3451
▁클래	-3452
경찰	-3453
겠다고	-3454
▁형태의	-3455
▁스파	-3456
▁중반	-3457
세계	-3458
kg	-3459
▁아르헨	-3460
▁짧은	-3461
료로	-3462
수에	-3463
▁사는	-3464
▁설정	-3465
권에	-3466
▁고향	-3467
조선	-3468
▁잘못	-3469
▁사용되었다	-3470
▁공유	-3471
▁내용을	-3472
▁업무	-3473
▁나오는	-3474
▁외에	-3475
문의	-3476
서의	-3477
▁심리	-3478
45	-3479
▁발견된다	-3480
▁펠	-3481
주에서	-3482
▁브랜드	-3483
음악	-3484
지기	-3485
▁했지만	-3486
▁1972	-3487
▁300	-3488
▁w	-3489
▁다음은	-3490
▁현실	-3491
▁부인	-3492
▁협력	-3493
룬다	-3494
었지만	-3495
용으로	-3496
▁답	-3497
학년	-3498
▁수출	-3499
▁짐	-3500
같은	-3501
축구	-3502
▁비난	-3503
예술	-3504
▁조금	-3505
▁아주	-3506
시킬	-3507
▁확정	-3508
추어	-3509
▁II	-3510
▁1920	-3511
미디	-3512
▁뉴스	-3513
▁수여	-3514
씨의	-3515
▁뿌	-3516
▁역사상	-3517
함에	-3518
▁등장하는	-3519
차례	-3520
적이다	-3521
▁린	-3522
▁있었으나	-3523
자이	-3524
▁나서	-3525
스리그	-3526
▁묻	-3527
▁비율	-3528
받은	-3529
▁보급	-3530
하려고	-3531
▁모스크바	-3532
▁권한	-3533
협회	-3534
▁흔히	-3535
▁물러	-3536
▁플랫	-3537
▁1979	-3538
지면서	-3539
▁추정된다	-3540
번의	-3541
서가	-3542
▁줄거리	-3543
▁공부	-3544
주와	-3545
▁갈등	-3546
체에	-3547
▁숫	-3548
▁베이징	-3549
유의	-3550
▁때에	-3551
▁33	-3552
버그	-3553
▁시티	-3554
▁워싱턴	-3555
▁요한	-3556
200	-3557
▁그것은	-3558
▁버전	-3559
다른	-3560
▁단일	-3561
▁장착	-3562
▁개봉한	-3563
크라이나	-3564
▁유명하다	-3565
▁기사	-3566
▁에피소	-3567
▁뜻이	-3568
▁옷	-3569
▁다니	-3570
▁시각	-3571
▁위치한다	-3572
지원	-3573
호의	-3574
▁노예	-3575
▁나이	-3576
▁프란	-3577
▁했고	-3578
▁동일한	-3579
▁전후	-3580
▁항복	-3581
▁태어나	-3582
테르	-3583
▁예상	-3584
▁자는	-3585
▁초등학교이다	-3586
▁로버트	-3587
BO	-3588
▁문자	-3589
▁선고	-3590
▁오히	-3591
▁그에	-3592
▁고정	-3593
▁하는데	-3594
▁경기에	-3595
이었으나	-3596
▁왕국	-3597
▁붉은	-3598
리케	-3599
▁심각	-3600
체로	-3601
▁맛	-3602
▁1930	-3603
▁훨	-3604
▁정도의	-3605
▁박사	-3606
문은	-3607
os	-3608
.9	-3609
▁36	-3610
▁조합	-3611
비의	-3612
시설	-3613
▁출마	-3614
미는	-3615
▁브리	-3616
▁하였고	-3617
▁현재까지	-3618
▁나는	-3619
▁되면서	-3620
▁되지	-3621
▁오픈	-3622
▁개정	-3623
▁광고	-3624
▁180	-3625
물은	-3626
▁세계에서	-3627
간에	-3628
▁금융	-3629
의의	-3630
▁하늘	-3631
▁훨씬	-3632
▁적은	-3633
▁투자	-3634
로드	-3635
어져	-3636
터는	-3637
▁신앙	-3638
가에	-3639
▁1981	-3640
▁북서	-3641
▁가로	-3642
▁세웠다	-3643
▁오랜	-3644
았던	-3645
▁투입	-3646
니의	-3647
▁있었는데	-3648
▁낭	-3649
▁수원	-3650
무라	-3651
▁발생한	-3652
▁1973	-3653
▁무장	-3654
▁정복	-3655
▁형제	-3656
기에는	-3657
▁계급	-3658
▁함수	-3659
체육	-3660
해진	-3661
보드	-3662
슈타	-3663
▁머리	-3664
▁얻었다	-3665
▁튀	-3666
색을	-3667
교통	-3668
구와	-3669
▁타고	-3670
스럽	-3671
▁멸망	-3672
▁모리	-3673
하마	-3674
하다는	-3675
▁기반으로	-3676
▁북아	-3677
▁길이는	-3678
▁했으나	-3679
▁율	-3680
▁정부가	-3681
보는	-3682
소프트	-3683
▁보였다	-3684
▁프로그램이다	-3685
▁판결	-3686
▁내에	-3687
▁가능성이	-3688
▁차지했다	-3689
▁추측	-3690
보를	-3691
▁한때	-3692
▁이중	-3693
▁국가의	-3694
35	-3695
어들	-3696
▁제작에	-3697
▁솔로	-3698
▁덮	-3699
▁원작	-3700
동이	-3701
▁논쟁	-3702
생의	-3703
중앙	-3704
▁마이클	-3705
▁이끌고	-3706
▁작전	-3707
▁전설	-3708
▁이탈리아의	-3709
▁헤이	-3710
▁맡고	-3711
▁반복	-3712
[]	-3713
▁무기	-3714
▁창립	-3715
▁교토	-3716
▁없고	-3717
▁우크라이나	-3718
조에	-3719
27	-3720
▁넓은	-3721
▁대항	-3722
역으로	-3723
▁욕	-3724
▁CD	-3725
▁세우	-3726
▁첨	-3727
▁구별	-3728
26	-3729
아버	-3730
▁관심	-3731
▁롯	-3732
일이	-3733
▁주교	-3734
▁철학	-3735
▁원정	-3736
다면	-3737
▁1940	-3738
▁저지	-3739
▁시즌을	-3740
경기에	-3741
▁오히려	-3742
▁절대	-3743
▁그에게	-3744
▁힐	-3745
나이티	-3746
▁1974	-3747
▁아메리카	-3748
OS	-3749
령을	-3750
비치	-3751
▁공포	-3752
▁결과를	-3753
▁요새	-3754
▁천문	-3755
▁듯	-3756
▁도움	-3757
▁러시아의	-3758
▁마침	-3759
안에	-3760
인민공화국의	-3761
op	-3762
▁점에서	-3763
▁의료	-3764
▁만큼	-3765
▁방출	-3766
▁찍	-3767
▁확실	-3768
▁니콜	-3769
제국	-3770
▁뜻을	-3771
자기	-3772
▁시간이	-3773
▁오토	-3774
▁앞서	-3775
▁융	-3776
타를	-3777
언을	-3778
▁서양	-3779
산이	-3780
▁SBS	-3781
▁제출	-3782
▁거절	-3783
▁인공	-3784
만은	-3785
음에도	-3786
▁청소년	-3787
당했다	-3788
▁전쟁이	-3789
_4	-3790
▁철도역이다	-3791
▁e	-3792
▁지닌	-3793
▁스크	-3794
소와	-3795
▁세종	-3796
▁스코틀랜드	-3797
▁킹	-3798
역은	-3799
▁활발	-3800
일로	-3801
▁38	-3802
국민	-3803
리노	-3804
▁1948	-3805
▁청년	-3806
▁일본에서	-3807
▁하드	-3808
나와	-3809
▁뽑	-3810
▁전용	-3811
ce	-3812
▁인터뷰	-3813
마이	-3814
▁계획을	-3815
▁됐다	-3816
▁단백질	-3817
▁원주	-3818
▁1968	-3819
판을	-3820
받고	-3821
▁나와	-3822
▁베를린	-3823
석은	-3824
▁시작한	-3825
▁생겨	-3826
▁아침	-3827
▁1976	-3828
▁플랫폼	-3829
▁세인트	-3830
▁식민지	-3831
시티	-3832
화로	-3833
▁살고	-3834
▁머물	-3835
▁이후에는	-3836
28	-3837
차로	-3838
화와	-3839
리우	-3840
키스탄	-3841
▁유나이티	-3842
쿠라	-3843
마의	-3844
▁이민	-3845
▁오전	-3846
▁했으며	-3847
▁숭	-3848
▁산맥	-3849
▁투수	-3850
플레이	-3851
리게	-3852
우리	-3853
▁건립	-3854
▁어렵	-3855
▁거대한	-3856
면이	-3857
▁통제	-3858
▁삭	-3859
▁북동	-3860
▁지원을	-3861
ag	-3862
▁끝나	-3863
▁팀을	-3864
▁185	-3865
▁래	-3866
▁부활	-3867
▁보는	-3868
▁1975	-3869
▁차이가	-3870
네스	-3871
으로도	-3872
▁타이완	-3873
사인	-3874
▁은하	-3875
▁팀이	-3876
저우	-3877
▁주식	-3878
▁점을	-3879
이었으며	-3880
▁공산주의	-3881
국가	-3882
▁발표한	-3883
▁대표팀	-3884
▁장악	-3885
리아의	-3886
재를	-3887
진은	-3888
▁고등	-3889
더라도	-3890
세와	-3891
▁강제	-3892
▁사용하고	-3893
년에서	-3894
▁전쟁을	-3895
병을	-3896
프레	-3897
경은	-3898
당과	-3899
▁합의	-3900
▁성질	-3901
ter	-3902
▁이다	-3903
▁기자	-3904
▁에어	-3905
▁뜻한다	-3906
앤젤	-3907
▁비록	-3908
▁1978	-3909
▁육상	-3910
ST	-3911
▁삼각	-3912
▁약간	-3913
국에서	-3914
▁온라인	-3915
술을	-3916
▁1971	-3917
산에	-3918
스러운	-3919
▁대비	-3920
▁음력	-3921
29	-3922
로그	-3923
익을	-3924
▁양성	-3925
▁통해서	-3926
▁트레이	-3927
▁운용	-3928
▁금속	-3929
▁1963	-3930
이와	-3931
▁미디어	-3932
리트	-3933
▁레드	-3934
안의	-3935
리즘	-3936
▁도달	-3937
▁상당히	-3938
▁아파	-3939
▁컵	-3940
▁붙여	-3941
에트	-3942
만큼	-3943
▁건국	-3944
▁플라	-3945
▁이르는	-3946
법이	-3947
치에	-3948
▁이른	-3949
▁없다고	-3950
▁포함되어	-3951
단과	-3952
▁이야기를	-3953
노동	-3954
▁겐	-3955
▁취급	-3956
시스	-3957
의회	-3958
▁병사	-3959
▁오래된	-3960
▁반영	-3961
▁신인	-3962
지며	-3963
게임	-3964
nd	-3965
▁자격	-3966
렸고	-3967
▁그것을	-3968
야구	-3969
▁지낸	-3970
▁랭	-3971
▁응용	-3972
▁되면	-3973
자들	-3974
▁이제	-3975
▁각본	-3976
▁미드	-3977
▁취득	-3978
▁청나라	-3979
▁로스앤젤	-3980
▁지식	-3981
▁이유는	-3982
▁출입	-3983
류가	-3984
▁규칙	-3985
▁위해서는	-3986
▁해당하는	-3987
▁벨기에	-3988
▁하나님	-3989
형으로	-3990
▁약속	-3991
▁공화	-3992
▁Z	-3993
500	-3994
▁통계	-3995
▁트랙	-3996
분이	-3997
▁미나	-3998
에게서	-3999
▁소수	-4000
증을	-4001
▁일으켰	-4002
수록	-4003
▁1969	-4004
▁건조	-4005
▁갤	-4006
▁남서	-4007
▁주어	-4008
라를	-4009
▁의회	-4010
▁150	-4011
▁혼란	-4012
▁강의	-4013
▁시간을	-4014
세로	-4015
▁거래	-4016
메리	-4017
47	-4018
▁플레이오프	-4019
국제	-4020
지인	-4021
▁처음에는	-4022
▁체계	-4023
▁아테	-4024
▁웨스트	-4025
지이다	-4026
▁사망했다	-4027
연맹	-4028
▁행성	-4029
▁그런데	-4030
개가	-4031
▁생명	-4032
▁주고	-4033
▁대공	-4034
▁보냈다	-4035
▁무엇	-4036
▁슬로	-4037
▁댄	-4038
▁보조	-4039
론의	-4040
▁미니	-4041
▁높아	-4042
교를	-4043
▁그레	-4044
▁반발	-4045
히는	-4046
였으나	-4047
▁독자	-4048
▁방법을	-4049
▁1946	-4050
▁경계	-4051
▁전라북도	-4052
▁호텔	-4053
▁보아	-4054
▁이용한	-4055
▁부임	-4056
▁한번	-4057
▁올리	-4058
▁400	-4059
드시	-4060
▁백작	-4061
▁해서	-4062
ri	-4063
전문	-4064
▁코로나	-4065
지자	-4066
크를	-4067
▁동의	-4068
▁말레이	-4069
▁간단	-4070
▁동남	-4071
영은	-4072
왕이	-4073
선으로	-4074
러는	-4075
▁스티	-4076
마르	-4077
▁대성	-4078
기에서	-4079
▁v	-4080
▁코미디	-4081
▁트로	-4082
▁프로젝트	-4083
▁개시	-4084
▁역을	-4085
▁관할한다	-4086
▁잇는	-4087
누스	-4088
음이	-4089
▁얻어	-4090
▁프리미	-4091
▁거리	-4092
▁넘는	-4093
▁속한다	-4094
아이	-4095
▁포기	-4096
석이	-4097
▁대략	-4098
▁경주	-4099
▁경성	-4100
▁빠른	-4101
▁두었다	-4102
▁모여	-4103
▁상륙	-4104
▁수사	-4105
생을	-4106
▁SK	-4107
▁사건을	-4108
▁작품을	-4109
스케	-4110
조사	-4111
니아의	-4112
▁하면	-4113
▁이용해	-4114
데이	-4115
마트	-4116
▁1964	-4117
▁벡	-4118
▁명이	-4119
고는	-4120
기압	-4121
▁영입	-4122
_5	-4123
▁롯데	-4124
▁공식적으로	-4125
▁부상	-4126
▁분쟁	-4127
▁장식	-4128
▁좁	-4129
▁렌	-4130
▁자이	-4131
▁받지	-4132
▁써	-4133
▁국도	-4134
▁대수	-4135
▁흡수	-4136
▁베이스	-4137
조합	-4138
▁때부터	-4139
분류	-4140
▁포위	-4141
▁이것을	-4142
▁켄	-4143
리나	-4144
▁노부	-4145
▁고용	-4146
▁의존	-4147
▁후에는	-4148
▁만주	-4149
▁방향으로	-4150
▁발표하였다	-4151
▁엔터테인	-4152
▁알게	-4153
▁문헌	-4154
▁부터	-4155
▁후지	-4156
머스	-4157
타는	-4158
▁번째로	-4159
미가	-4160
▁한반	-4161
▁히데	-4162
차원	-4163
▁활동하였다	-4164
▁인도네시아	-4165
▁준우	-4166
모를	-4167
▁논의	-4168
▁시작하여	-4169
▁공통	-4170
시킨다	-4171
▁도망	-4172
통신	-4173
▁그러한	-4174
▁34	-4175
▁경기는	-4176
▁법칙	-4177
미의	-4178
▁김영	-4179
▁박정	-4180
▁사태	-4181
▁전주	-4182
▁고속	-4183
라와	-4184
▁탈락	-4185
▁도중	-4186
▁and	-4187
▁프로세	-4188
번째로	-4189
시에서	-4190
▁쫓	-4191
▁곳에서	-4192
▁않았고	-4193
▁불법	-4194
▁수상했다	-4195
전과	-4196
▁In	-4197
▁이집트	-4198
▁수송	-4199
▁브루	-4200
▁기대	-4201
▁종류의	-4202
▁하나는	-4203
▁것처럼	-4204
▁중세	-4205
▁시작으로	-4206
▁전공	-4207
▁자살	-4208
▁유사한	-4209
국으로	-4210
▁챔피언스리그	-4211
th	-4212
▁명명	-4213
▁이들의	-4214
▁요소	-4215
oc	-4216
▁카르	-4217
igh	-4218
▁수집	-4219
36	-4220
마을	-4221
▁선보	-4222
▁집행	-4223
▁탈출	-4224
▁전철	-4225
베르크	-4226
▁참전	-4227
▁국제공항	-4228
박물	-4229
▁라인	-4230
▁자녀	-4231
▁콘서	-4232
▁1977	-4233
▁총리	-4234
▁기록하였다	-4235
▁보장	-4236
▁보컬	-4237
▁빠져	-4238
티노	-4239
▁출연하였고	-4240
뿐만	-4241
▁총독	-4242
▁논란이	-4243
37	-4244
▁역임했다	-4245
율을	-4246
▁진입	-4247
▁기록한	-4248
▁이뤄	-4249
▁생긴	-4250
▁성적	-4251
▁1949	-4252
미를	-4253
▁하위	-4254
▁개최된	-4255
고속도로	-4256
▁학문	-4257
명에	-4258
▁피아노	-4259
ation	-4260
아는	-4261
▁그레이	-4262
▁해에	-4263
▁아들이	-4264
페이	-4265
동으로	-4266
▁검찰	-4267
식에	-4268
▁때의	-4269
바라	-4270
▁승인	-4271
▁앞에	-4272
▁제이	-4273
▁강점	-4274
▁데이비드	-4275
▁벼	-4276
▁특별한	-4277
▁성인	-4278
▁출신으로	-4279
종을	-4280
▁선수가	-4281
▁각각의	-4282
행위	-4283
▁받게	-4284
▁일정	-4285
▁주둔	-4286
▁보낸	-4287
▁채용	-4288
▁헨리	-4289
차가	-4290
▁신성	-4291
▁탁	-4292
▁이전의	-4293
▁꼭	-4294
▁g	-4295
▁FA	-4296
▁예측	-4297
▁1962	-4298
▁공을	-4299
제와	-4300
▁국무	-4301
▁지니	-4302
▁합격	-4303
▁했던	-4304
▁피해를	-4305
▁기술을	-4306
▁도시로	-4307
파는	-4308
학에서	-4309
▁요코	-4310
물이다	-4311
진의	-4312
▁진압	-4313
▁활동했다	-4314
▁대학교에서	-4315
▁가을	-4316
▁킬	-4317
터를	-4318
▁장관	-4319
라이언	-4320
되면	-4321
▁창조	-4322
▁방사	-4323
▁진화	-4324
▁사운드	-4325
르가	-4326
▁37	-4327
▁등급	-4328
ER	-4329
▁마케	-4330
▁저작	-4331
미야	-4332
▁선교	-4333
▁임진	-4334
▁소녀	-4335
▁다르다	-4336
▁맡아	-4337
▁군대를	-4338
하였지만	-4339
▁지키	-4340
경이	-4341
▁1967	-4342
▁태어났으며	-4343
▁운동을	-4344
▁중이다	-4345
론은	-4346
▁달라	-4347
▁쥐	-4348
▁i	-4349
해도	-4350
▁어떠	-4351
▁공개된	-4352
▁차트	-4353
▁말았다	-4354
▁관료	-4355
▁생존	-4356
공화국	-4357
▁소비에트	-4358
▁소장	-4359
▁빠르게	-4360
▁사건이	-4361
▁상승	-4362
▁후속	-4363
▁동원	-4364
▁리더	-4365
▁열렸다	-4366
▁출간	-4367
▁발매된	-4368
▁에도	-4369
▁천연	-4370
98	-4371
▁갈라	-4372
통을	-4373
▁사용되고	-4374
▁챔피언십	-4375
▁아사	-4376
▁셋	-4377
없는	-4378
▁대기	-4379
▁시카	-4380
▁지붕	-4381
▁까	-4382
▁층	-4383
적의	-4384
▁콘스탄	-4385
▁서버	-4386
▁잡아	-4387
들이다	-4388
▁제대로	-4389
▁것이며	-4390
▁라고	-4391
▁돌아가	-4392
▁깊은	-4393
▁저서	-4394
▁반드시	-4395
▁진보	-4396
▁오페	-4397
리히	-4398
에만	-4399
▁변환	-4400
▁서비스를	-4401
▁엠	-4402
▁복합	-4403
▁구속	-4404
▁승진	-4405
패를	-4406
▁장군	-4407
▁왕국의	-4408
▁지어	-4409
안은	-4410
▁연출	-4411
▁선거에서	-4412
▁가서	-4413
▁소년	-4414
▁합성	-4415
조판	-4416
구에서	-4417
▁최다	-4418
-20	-4419
▁공군	-4420
▁나치	-4421
▁능력을	-4422
▁운전	-4423
공사	-4424
▁스미	-4425
▁전파	-4426
▁목표로	-4427
현의	-4428
▁US	-4429
▁동작	-4430
▁모아	-4431
▁아미	-4432
▁주관	-4433
▁다수의	-4434
▁좌우	-4435
▁여기에	-4436
▁아들로	-4437
▁내의	-4438
▁발견된	-4439
드라	-4440
프를	-4441
▁연재	-4442
리우스	-4443
▁해양	-4444
실은	-4445
▁톰	-4446
기간	-4447
▁늦	-4448
▁농민	-4449
▁배출	-4450
▁둘째	-4451
▁위반	-4452
바로	-4453
▁평가를	-4454
ap	-4455
명과	-4456
▁끝난	-4457
▁지급	-4458
차전	-4459
▁남은	-4460
▁맞이	-4461
▁사법	-4462
▁마지막으로	-4463
▁창단	-4464
▁PC	-4465
기까지	-4466
학은	-4467
▁독특	-4468
▁조별	-4469
▁왼쪽	-4470
▁파라	-4471
%,	-4472
38	-4473
곡을	-4474
▁이성	-4475
▁꺾	-4476
퍼드	-4477
ON	-4478
▁역사적	-4479
▁독립운동	-4480
▁세력	-4481
▁알려졌다	-4482
▁존재하는	-4483
▁성능	-4484
▁정책을	-4485
터리	-4486
▁차이	-4487
브라	-4488
▁양자	-4489
▁엄청	-4490
조로	-4491
▁포도	-4492
▁변경되었다	-4493
▁불안	-4494
▁썼다	-4495
주의를	-4496
▁틀	-4497
▁차별	-4498
▁현역	-4499
▁경우는	-4500
▁특이	-4501
타르	-4502
▁목소	-4503
▁지도자	-4504
▁나타내는	-4505
▁치러	-4506
▁라는	-4507
▁가졌다	-4508
▁그와	-4509
▁이시	-4510
겠다는	-4511
었다고	-4512
▁이후의	-4513
방을	-4514
▁파악	-4515
▁작품은	-4516
▁이후로	-4517
▁1966	-4518
상태	-4519
▁Q	-4520
면으로	-4521
▁받았고	-4522
▁군주	-4523
▁쓰는	-4524
▁의혹	-4525
46	-4526
95	-4527
▁학습	-4528
평가	-4529
질랜드	-4530
▁형태를	-4531
▁방영된	-4532
▁레오	-4533
▁지냈	-4534
▁트랜	-4535
장인	-4536
▁우려	-4537
부인	-4538
▁국회	-4539
토리	-4540
▁KBO	-4541
▁음식	-4542
▁일부는	-4543
관계	-4544
기념	-4545
▁인기	-4546
▁향상	-4547
▁어떠한	-4548
▁조작	-4549
디션	-4550
▁지방의	-4551
▁검사	-4552
선과	-4553
▁개신	-4554
▁1965	-4555
▁국경	-4556
▁베스트	-4557
▁덧	-4558
▁체코	-4559
▁들어서	-4560
▁신뢰	-4561
▁되자	-4562
레오	-4563
루는	-4564
▁횡	-4565
▁해산	-4566
▁않으며	-4567
리다	-4568
▁한국에서	-4569
입니다	-4570
▁자신들의	-4571
계획	-4572
▁일찍	-4573
주의의	-4574
▁미군	-4575
텐츠	-4576
▁흉	-4577
조직	-4578
▁미야	-4579
▁교환	-4580
▁시즌에	-4581
▁풍부	-4582
▁제외하고	-4583
▁정확한	-4584
요시	-4585
린은	-4586
세한	-4587
▁연구를	-4588
▁켈	-4589
▁반도	-4590
항을	-4591
▁많아	-4592
▁받을	-4593
▁분열	-4594
▁민주당	-4595
▁대부분은	-4596
▁시에	-4597
▁빼앗	-4598
▁계기로	-4599
▁그들이	-4600
▁닥	-4601
▁택	-4602
▁보안	-4603
들목	-4604
▁개발한	-4605
▁로스앤젤레스	-4606
섰다	-4607
▁세르비아	-4608
▁연관	-4609
▁효율	-4610
표를	-4611
▁스페인의	-4612
▁없다는	-4613
▁상품	-4614
▁오른쪽	-4615
으니	-4616
▁생태	-4617
▁전통적인	-4618
▁분할	-4619
▁제어	-4620
크가	-4621
▁실질	-4622
▁하였으나	-4623
▁글을	-4624
▁것이라	-4625
▁학위를	-4626
▁수영	-4627
사단	-4628
으로서의	-4629
▁희망	-4630
▁헤르	-4631
▁You	-4632
▁리처	-4633
ice	-4634
▁조절	-4635
▁노벨	-4636
락을	-4637
게는	-4638
▁늘어	-4639
75	-4640
▁로켓	-4641
▁점점	-4642
▁55	-4643
▁무덤	-4644
▁1000	-4645
투스	-4646
▁예비	-4647
토의	-4648
▁하였으며	-4649
▁홋	-4650
▁갖는	-4651
▁급제	-4652
▁김일	-4653
▁코드	-4654
▁아버지는	-4655
공원	-4656
▁한정	-4657
▁작품이다	-4658
▁팝	-4659
▁1961	-4660
32	-4661
났고	-4662
▁완공	-4663
▁이룬다	-4664
건을	-4665
▁이하	-4666
시험	-4667
복을	-4668
일과	-4669
되었을	-4670
▁3,	-4671
자료	-4672
▁오스만	-4673
est	-4674
▁대통령이	-4675
겠다	-4676
▁동성	-4677
▁인접	-4678
▁뉴질랜드	-4679
▁묶	-4680
▁삽	-4681
▁니시	-4682
▁테이	-4683
▁회전	-4684
▁보관	-4685
▁지금의	-4686
ak	-4687
고의	-4688
민주당	-4689
▁통산	-4690
▁사우	-4691
▁활성	-4692
산화	-4693
▁받는다	-4694
▁되며	-4695
치아	-4696
▁학술	-4697
▁명확	-4698
마는	-4699
▁연대	-4700
AR	-4701
▁릴	-4702
▁마침내	-4703
류는	-4704
현은	-4705
▁마이크로소프트	-4706
비스	-4707
사무	-4708
▁것이라는	-4709
▁아라	-4710
▁테러	-4711
이므로	-4712
▁둘러싸	-4713
해가	-4714
▁동아	-4715
▁페이	-4716
인도	-4717
신으로	-4718
▁바라	-4719
▁페르시아	-4720
온은	-4721
▁올려	-4722
▁프로그램을	-4723
▁장치	-4724
진이	-4725
▁스탠	-4726
▁감독이	-4727
산시	-4728
▁올랐	-4729
▁출범	-4730
▁위성	-4731
▁포함하고	-4732
▁2.	-4733
▁의미를	-4734
소송	-4735
재판	-4736
▁스위스	-4737
▁샤를	-4738
▁주장하였다	-4739
개혁	-4740
▁기록이	-4741
사관	-4742
토니	-4743
▁예수	-4744
▁사립	-4745
-4	-4746
▁단독	-4747
▁신청	-4748
▁지내	-4749
▁부산광역시	-4750
책을	-4751
▁스프	-4752
천시	-4753
▁성을	-4754
▁처형	-4755
▁김정	-4756
▁나이로	-4757
ia	-4758
▁황금	-4759
▁감독을	-4760
▁터미널	-4761
▁완료	-4762
화되어	-4763
코는	-4764
▁훗	-4765
▁나뉜	-4766
뮤니	-4767
▁갔다	-4768
▁사단	-4769
▁이루어졌다	-4770
▁교육을	-4771
▁의무	-4772
▁반대로	-4773
사우	-4774
▁새겨	-4775
왕은	-4776
▁경제적	-4777
▁메시	-4778
92	-4779
▁재배	-4780
시리즈	-4781
▁1919	-4782
▁마치	-4783
art	-4784
▁빅토	-4785
▁이름의	-4786
오스	-4787
▁포함한다	-4788
▁질병	-4789
한국	-4790
▁간행	-4791
▁있음을	-4792
▁느끼	-4793
▁항성	-4794
연히	-4795
▁문제로	-4796
임이	-4797
▁함락	-4798
그라	-4799
▁프로듀서	-4800
31	-4801
▁형사	-4802
방의	-4803
▁성향	-4804
▁쓸	-4805
▁일치	-4806
▁하나인	-4807
▁도쿠	-4808
▁모양의	-4809
씨가	-4810
▁가스	-4811
▁주전	-4812
▁말에	-4813
▁관계가	-4814
▁1944	-4815
▁그렇게	-4816
▁조선의	-4817
▁개막	-4818
▁캔	-4819
▁구현	-4820
▁시리아	-4821
▁영화는	-4822
▁취소	-4823
ie	-4824
보살	-4825
▁스카	-4826
지컬	-4827
▁지은	-4828
▁후기	-4829
레인	-4830
하였던	-4831
▁나왔다	-4832
▁메인	-4833
▁인종	-4834
▁충청북도	-4835
▁아스	-4836
▁작업을	-4837
하였다고	-4838
▁나타난다	-4839
▁대개	-4840
들로부터	-4841
▁적절	-4842
름을	-4843
▁역이다	-4844
로마	-4845
▁발굴	-4846
부터는	-4847
▁75	-4848
▁유행	-4849
니가	-4850
▁프라	-4851
▁어린이	-4852
▁인지	-4853
▁흘러	-4854
등을	-4855
차는	-4856
▁방법으로	-4857
34	-4858
판이	-4859
▁포함하여	-4860
96	-4861
▁연산	-4862
스포	-4863
▁48	-4864
령이	-4865
▁향해	-4866
▁IS	-4867
▁불렀다	-4868
▁크고	-4869
행정	-4870
드레	-4871
▁시위	-4872
▁거두었다	-4873
▁직업	-4874
올림픽	-4875
▁꼽	-4876
▁공업	-4877
▁소송	-4878
▁오랫	-4879
▁1941	-4880
▁역은	-4881
▁네이	-4882
▁활동하고	-4883
▁가나	-4884
▁영상	-4885
개로	-4886
▁알파	-4887
▁퀸	-4888
▁창원	-4889
▁덴마크	-4890
터의	-4891
천군	-4892
▁마크	-4893
▁훌	-4894
이센	-4895
고기	-4896
▁안드로	-4897
시키기	-4898
▁출장	-4899
▁제공한다	-4900
터가	-4901
▁없으며	-4902
▁후보로	-4903
▁추천	-4904
사이트	-4905
▁근본	-4906
▁제작한	-4907
▁당시에는	-4908
▁훗날	-4909
og	-4910
▁잉글랜드의	-4911
우주	-4912
원이다	-4913
▁중인	-4914
무부	-4915
▁목록이다	-4916
▁쳐	-4917
각을	-4918
▁극장	-4919
▁그때	-4920
▁감독으로	-4921
등의	-4922
▁부대	-4923
▁개입	-4924
했었다	-4925
▁주택	-4926
들에서	-4927
▁뜻으로	-4928
▁부르는	-4929
▁선정되었다	-4930
▁상당한	-4931
▁순위	-4932
▁오랫동안	-4933
에이	-4934
▁소속으로	-4935
▁코파	-4936
▁누구	-4937
메리칸	-4938
▁고속도로	-4939
▁만들어졌다	-4940
▁샘	-4941
교는	-4942
▁사람들의	-4943
▁쓰고	-4944
▁망명	-4945
▁분위	-4946
▁역으로	-4947
▁음악을	-4948
▁규모의	-4949
▁고문	-4950
▁등장인	-4951
색의	-4952
▁용어	-4953
▁합쳐	-4954
▁지상역이다	-4955
▁지금까지	-4956
▁k	-4957
▁DNA	-4958
▁예정이다	-4959
▁편찬	-4960
카이도	-4961
▁띄	-4962
무늬	-4963
▁세계의	-4964
▁사유	-4965
ly	-4966
▁무너	-4967
▁플래	-4968
BA	-4969
체스터	-4970
▁혐의로	-4971
▁골든	-4972
▁텍사	-4973
▁1958	-4974
▁당초	-4975
▁속한	-4976
▁주지	-4977
▁희생	-4978
▁번의	-4979
거운	-4980
-5	-4981
▁시작된	-4982
▁보병	-4983
▁저술	-4984
▁호는	-4985
주었다	-4986
ne	-4987
▁찰스	-4988
▁해리	-4989
▁프리미어	-4990
▁혼합	-4991
▁쓰이는	-4992
화되었다	-4993
▁1947	-4994
;/	-4995
64	-4996
▁명을	-4997
레옹	-4998
여서	-4999
▁행위	-5000
▁빙	-5001
▁기둥	-5002
▁와이	-5003
▁아이돌	-5004
▁출시되었다	-5005
▁1956	-5006
▁프로그래	-5007
▁경우에	-5008
▁발발	-5009
네이	-5010
▁내용은	-5011
▁미사일	-5012
▁|	-5013
▁뜻하는	-5014
▁밀도는	-5015
▁발견되었다	-5016
▁아르헨티나	-5017
▁실현	-5018
왜란	-5019
동맹	-5020
카는	-5021
▁입장을	-5022
였지만	-5023
▁승객	-5024
IA	-5025
리그의	-5026
▁시작한다	-5027
▁프린	-5028
99	-5029
▁처벌	-5030
▁안동	-5031
▁언제	-5032
▁접촉	-5033
▁다다	-5034
양을	-5035
쿠스	-5036
▁이르러	-5037
▁Ch	-5038
기록	-5039
▁공헌	-5040
▁화재	-5041
▁중화민국	-5042
▁유기	-5043
▁국민의	-5044
▁등장한다	-5045
▁침략	-5046
▁픽	-5047
미니	-5048
비로	-5049
▁왕조	-5050
▁최우	-5051
▁계통	-5052
▁죽었다	-5053
▁무시	-5054
▁펼쳐	-5055
▁마르크	-5056
자들에게	-5057
성군	-5058
화한	-5059
▁마무	-5060
▁방정	-5061
▁가지는	-5062
론이	-5063
고가	-5064
▁졸업하고	-5065
르기	-5066
▁고유	-5067
▁침입	-5068
▁아티	-5069
자로서	-5070
▁자극	-5071
▁콤	-5072
정과	-5073
▁Re	-5074
▁안에서	-5075
▁높이는	-5076
▁화물	-5077
▁임대	-5078
ab	-5079
▁골을	-5080
▁크로아	-5081
슨의	-5082
중의	-5083
▁확립	-5084
동과	-5085
▁가치	-5086
▁바깥	-5087
▁사임	-5088
▁일부를	-5089
총독	-5090
▁l	-5091
▁신호	-5092
▁일어났다	-5093
▁지켜	-5094
AT	-5095
▁뚜	-5096
▁확률	-5097
▁지시	-5098
▁상위	-5099
인들을	-5100
▁철수	-5101
루가	-5102
▁변화를	-5103
▁받아들여	-5104
▁사냥	-5105
이었지만	-5106
치게	-5107
▁길을	-5108
▁제일	-5109
▁인권	-5110
▁1939	-5111
▁AFC	-5112
IV	-5113
▁임진왜란	-5114
▁올렸다	-5115
영의	-5116
체와	-5117
로와	-5118
▁나폴레옹	-5119
내에	-5120
▁단편	-5121
76	-5122
▁도와	-5123
▁성적을	-5124
식과	-5125
▁섞	-5126
▁논리	-5127
▁새롭게	-5128
▁긍	-5129
해져	-5130
▁정기	-5131
▁주최	-5132
▁독특한	-5133
▁스마트	-5134
▁대한민국에서는	-5135
▁+	-5136
▁거듭	-5137
▁나들목	-5138
되었다가	-5139
39	-5140
▁기울	-5141
▁심각한	-5142
▁유일하게	-5143
▁이들을	-5144
▁다운	-5145
▁조종	-5146
▁h	-5147
트릭	-5148
▁곡을	-5149
▁정지	-5150
85	-5151
가타	-5152
▁특성	-5153
▁앉	-5154
고등	-5155
석의	-5156
ist	-5157
▁가담	-5158
se	-5159
라며	-5160
함과	-5161
▁변형	-5162
▁기회를	-5163
▁진행되었다	-5164
▁이기	-5165
▁주어진	-5166
목록	-5167
▁뜨	-5168
▁군의	-5169
▁진주	-5170
▁가치가	-5171
▁루이스	-5172
▁일본에	-5173
▁묵	-5174
격한	-5175
▁다스	-5176
▁얻은	-5177
▁부분을	-5178
▁작곡가	-5179
▁촌	-5180
파를	-5181
▁단계	-5182
타운	-5183
▁단위	-5184
▁임금	-5185
▁대리	-5186
▁인구가	-5187
안이	-5188
ight	-5189
▁사용된	-5190
▁캐나다의	-5191
1,	-5192
▁도요	-5193
▁분명	-5194
▁구글	-5195
▁저녁	-5196
▁상황에서	-5197
▁갔	-5198
시장	-5199
▁후원	-5200
디는	-5201
▁않게	-5202
▁받았으며	-5203
86	-5204
▁잡지	-5205
▁1954	-5206
▁후계	-5207
▁멀리	-5208
▁공연을	-5209
▁곡은	-5210
▁대표하는	-5211
베르트	-5212
▁개설	-5213
스럽게	-5214
▁로드	-5215
▁총선	-5216
▁어려운	-5217
▁지역으로	-5218
▁놓고	-5219
▁부상을	-5220
실의	-5221
▁부하	-5222
디움	-5223
역의	-5224
▁코르	-5225
야의	-5226
▁지위를	-5227
▁제공하는	-5228
▁닛	-5229
층의	-5230
▁광복	-5231
에른	-5232
정치	-5233
▁매일	-5234
▁드라이	-5235
▁한국어	-5236
▁정치인이다	-5237
▁소방	-5238
▁상태로	-5239
▁미드필	-5240
스트로	-5241
AS	-5242
▁상대적으로	-5243
▁전형	-5244
▁금메달을	-5245
▁닌	-5246
학에	-5247
▁체제	-5248
▁가문의	-5249
▁등판	-5250
▁어디	-5251
▁타임	-5252
▁브라운	-5253
▁1952	-5254
▁인쇄	-5255
▁노출	-5256
프랑	-5257
론에	-5258
▁to	-5259
▁정비	-5260
보고	-5261
우의	-5262
▁교향	-5263
▁다케	-5264
▁노래를	-5265
▁중에는	-5266
티오	-5267
▁이루고	-5268
▁아테네	-5269
▁곽	-5270
▁군이다	-5271
양의	-5272
▁어깨	-5273
▁영웅	-5274
▁카드	-5275
▁유럽의	-5276
▁해당한다	-5277
연을	-5278
▁보았다	-5279
례를	-5280
관과	-5281
▁무한	-5282
▁인디언	-5283
지어	-5284
▁으로	-5285
▁행동을	-5286
▁재건	-5287
▁앞에서	-5288
▁명칭은	-5289
함이	-5290
▁선생	-5291
되는데	-5292
▁내셔널	-5293
▁다르게	-5294
▁편이다	-5295
-19	-5296
구이다	-5297
▁헝가리	-5298
아르	-5299
▁정차	-5300
▁포켓	-5301
▁한글	-5302
강의	-5303
생물	-5304
▁폐쇄	-5305
▁활약을	-5306
▁사람들을	-5307
▁따로	-5308
▁내렸다	-5309
▁벌어	-5310
▁유형문화재	-5311
자키	-5312
카가	-5313
▁알바	-5314
▁절반	-5315
▁준다	-5316
▁시카고	-5317
▁도모	-5318
▁자리잡	-5319
▁학살	-5320
▁나타내	-5321
자유	-5322
▁나아가	-5323
슬러	-5324
▁장교	-5325
주의적	-5326
▁공사	-5327
▁녹색	-5328
▁득표	-5329
▁리버	-5330
▁바뀌었다	-5331
▁하에	-5332
▁그래픽	-5333
하지는	-5334
▁돕	-5335
구치	-5336
▁미드필더	-5337
▁시인	-5338
▁특정한	-5339
속에	-5340
▁천주교	-5341
▁시상	-5342
▁이혼	-5343
▁설립되었다	-5344
▁상하이	-5345
▁일으키	-5346
▁시나	-5347
▁현상	-5348
▁커뮤니	-5349
▁연결하는	-5350
▁가와	-5351
65	-5352
츠는	-5353
혁명	-5354
▁만들고	-5355
VD	-5356
베스	-5357
▁피터	-5358
...	-5359
▁조선시대	-5360
법으로	-5361
▁다수	-5362
▁연구에	-5363
▁해야	-5364
▁앵	-5365
▁장남	-5366
▁평안	-5367
▁싱가	-5368
▁노스	-5369
▁법정	-5370
▁원소	-5371
▁사업을	-5372
타의	-5373
▁포항	-5374
▁나뉜다	-5375
포를	-5376
▁효과를	-5377
▁보유하고	-5378
어야	-5379
▁들고	-5380
▁서울대학교	-5381
▁타이거	-5382
족이	-5383
▁개조	-5384
▁추구	-5385
데르	-5386
▁크기	-5387
▁탈퇴	-5388
루를	-5389
▁투쟁	-5390
▁여객철도	-5391
▁영업	-5392
;,	-5393
▁팽	-5394
▁랜	-5395
▁상을	-5396
▁다소	-5397
▁유한	-5398
▁한나라	-5399
되었다고	-5400
▁박정희	-5401
▁홍보	-5402
▁김대	-5403
파가	-5404
▁관여	-5405
▁듣고	-5406
▁개신교	-5407
▁소련의	-5408
▁프로이센	-5409
▁원인	-5410
▁1959	-5411
미르	-5412
▁아름다운	-5413
▁맡은	-5414
▁설치된	-5415
▁돼	-5416
▁데뷔하였다	-5417
히고	-5418
▁반란을	-5419
94	-5420
▁바이에른	-5421
▁단지	-5422
▁뮤지컬	-5423
▁동해	-5424
▁설득	-5425
▁블라	-5426
▁초기의	-5427
▁다음의	-5428
▁프랑크	-5429
▁행렬	-5430
▁경남	-5431
▁전직	-5432
▁대회에	-5433
▁두려	-5434
▁일시	-5435
▁자이언	-5436
▁더블	-5437
▁관련이	-5438
▁프로토	-5439
▁주장한다	-5440
▁뮌	-5441
었기	-5442
▁중부	-5443
▁선수단	-5444
한의	-5445
ove	-5446
▁떠났다	-5447
▁사망한	-5448
▁돈을	-5449
동생	-5450
▁분노	-5451
▁시드	-5452
▁전력	-5453
▁64	-5454
▁선전	-5455
▁통상	-5456
▁해상	-5457
▁발생하는	-5458
하므로	-5459
▁필요가	-5460
▁엄청난	-5461
▁대부분이	-5462
▁단어	-5463
▁참여했다	-5464
▁군인	-5465
▁파트	-5466
▁레알	-5467
▁존재하지	-5468
▁시스템을	-5469
별로	-5470
역이	-5471
▁세력을	-5472
▁그로	-5473
▁도시의	-5474
if	-5475
▁앤드	-5476
▁라이트	-5477
▁테스트	-5478
▁시리즈의	-5479
속의	-5480
ess	-5481
▁소멸	-5482
▁연예	-5483
▁가진다	-5484
키가	-5485
▁나고	-5486
▁160	-5487
▁의심	-5488
레나	-5489
▁미국과	-5490
33	-5491
▁겹	-5492
▁몰아	-5493
▁기다	-5494
페르	-5495
▁자전	-5496
▁나누어	-5497
점의	-5498
피스	-5499
▁작품으로	-5500
▁여겨진다	-5501
▁춤	-5502
주고	-5503
련의	-5504
카의	-5505
▁궤도	-5506
▁사실이	-5507
▁데에	-5508
▁징역	-5509
▁올림픽에	-5510
▁1942	-5511
강에	-5512
▁에르	-5513
▁부친	-5514
▁적합	-5515
제도	-5516
에서만	-5517
공의	-5518
비에	-5519
치지	-5520
키의	-5521
▁투어	-5522
색으로	-5523
▁공화국의	-5524
▁돌아와	-5525
▁한일	-5526
▁오직	-5527
lu	-5528
▁지금은	-5529
▁참가했다	-5530
▁의도	-5531
▁벗어나	-5532
▁신학	-5533
100	-5534
▁김성	-5535
▁운영하고	-5536
▁가이	-5537
▁주간	-5538
▁나타낸다	-5539
▁에드워드	-5540
▁성공을	-5541
▁비상	-5542
▁전까지	-5543
▁루마	-5544
대장	-5545
리며	-5546
▁리처드	-5547
▁깃	-5548
▁NH	-5549
▁스케	-5550
▁세상을	-5551
▁역사를	-5552
▁대통령은	-5553
▁1943	-5554
▁해도	-5555
▁곳으로	-5556
▁벌어진	-5557
▁오프	-5558
▁120	-5559
▁대통령의	-5560
▁맞아	-5561
가시	-5562
코스	-5563
▁발탁	-5564
자동차	-5565
▁음반은	-5566
▁첼	-5567
▁루트	-5568
오의	-5569
타로	-5570
▁재개	-5571
루의	-5572
시스코	-5573
▁내용이	-5574
▁프리드리	-5575
족은	-5576
▁발언	-5577
▁수요	-5578
▁파르	-5579
보호	-5580
▁긍정	-5581
▁말레이시아	-5582
마를	-5583
▁비례	-5584
▁완전한	-5585
▁웅	-5586
▁스키	-5587
▁속의	-5588
물에	-5589
▁집권	-5590
문제	-5591
리언	-5592
▁가게	-5593
▁신체	-5594
▁도전	-5595
▁기록은	-5596
범위	-5597
후에	-5598
ine	-5599
▁일컫	-5600
▁필요하다	-5601
▁살인	-5602
▁이로써	-5603
우가	-5604
▁정권	-5605
▁화이트	-5606
▁정교	-5607
▁1953	-5608
리안	-5609
▁프랭	-5610
▁논문	-5611
바일	-5612
부대	-5613
▁나타나는	-5614
▁바닥	-5615
▁못하는	-5616
▁못하였다	-5617
공산	-5618
▁메달	-5619
▁밥	-5620
즈가	-5621
▁갖추고	-5622
▁전부	-5623
▁파워	-5624
▁1955	-5625
▁시사	-5626
78	-5627
▁승려	-5628
▁화성	-5629
▁창작	-5630
▁나타났다	-5631
격으로	-5632
▁출연하였다	-5633
EC	-5634
다의	-5635
▁인용	-5636
▁임무	-5637
▁병합	-5638
▁선박	-5639
▁잠수	-5640
▁않지만	-5641
담을	-5642
▁자리에	-5643
▁전면	-5644
▁높다	-5645
▁1936	-5646
▁있었다고	-5647
망을	-5648
▁외국인	-5649
▁굳	-5650
▁있었기	-5651
▁특징이다	-5652
토는	-5653
▁일어나는	-5654
▁명단	-5655
▁39	-5656
등이	-5657
▁1910	-5658
었을	-5659
라에	-5660
▁연고	-5661
▁천안	-5662
듯이	-5663
니스탄	-5664
▁힌	-5665
▁정체	-5666
▁음반이다	-5667
▁민법	-5668
소설	-5669
▁빌보드	-5670
▁포스트	-5671
▁여섯	-5672
▁주장을	-5673
▁석유	-5674
▁크리	-5675
▁패션	-5676
▁사마	-5677
▁남아프리카	-5678
▁무게	-5679
▁쓰여	-5680
▁점이	-5681
▁쿠데	-5682
▁이른다	-5683
직에	-5684
▁대장	-5685
▁대체로	-5686
▁동안에	-5687
판은	-5688
▁이끌었다	-5689
▁지지를	-5690
▁AT	-5691
▁텍사스	-5692
▁이름이다	-5693
거래	-5694
서와	-5695
▁디스	-5696
틀러	-5697
▁보여준다	-5698
_6	-5699
왕을	-5700
pe	-5701
▁메이지	-5702
▁세부	-5703
▁왕이	-5704
▁SS	-5705
▁문을	-5706
▁원주민	-5707
▁눈에	-5708
▁전쟁의	-5709
▁알고리즘	-5710
▁즈	-5711
▁개칭	-5712
감독	-5713
남도의	-5714
독립	-5715
파로	-5716
▁구입	-5717
▁끌어	-5718
ive	-5719
▁동방	-5720
▁즉시	-5721
▁조선총독	-5722
퍼스	-5723
과정	-5724
▁분해	-5725
▁일정한	-5726
▁본질	-5727
▁종사	-5728
▁Th	-5729
▁액션	-5730
▁사용하였다	-5731
▁얻을	-5732
▁환승	-5733
▁전쟁에	-5734
▁구매	-5735
▁참가한	-5736
▁속해	-5737
▁닫	-5738
▁65	-5739
▁남쪽으로	-5740
▁이후에도	-5741
그램	-5742
▁조지아	-5743
▁카운티	-5744
▁김종	-5745
▁도덕	-5746
▁스티븐	-5747
▁책임을	-5748
위와	-5749
▁가슴	-5750
▁로마의	-5751
▁부분이	-5752
▁사우스	-5753
▁노르웨이	-5754
▁큐	-5755
▁세계적으로	-5756
▁태국	-5757
되어야	-5758
▁남겼다	-5759
="	-5760
▁츠	-5761
종합	-5762
▁바르셀	-5763
▁임의의	-5764
▁1957	-5765
행성	-5766
관에서	-5767
▁가수이다	-5768
▁느낌	-5769
▁1900	-5770
▁선임	-5771
▁위로	-5772
장애	-5773
▁사건은	-5774
▁부진	-5775
▁되는데	-5776
▁순간	-5777
▁티베	-5778
▁대의	-5779
코의	-5780
중을	-5781
▁보건	-5782
▁복원	-5783
평균	-5784
▁권력	-5785
▁핑	-5786
▁탐사	-5787
▁초에	-5788
▁기소	-5789
▁사용했다	-5790
▁기록하며	-5791
▁다리	-5792
학자이다	-5793
산과	-5794
▁넓이는	-5795
▁전쟁에서	-5796
▁개체	-5797
▁명나라	-5798
▁수상하였다	-5799
▁작동	-5800
만으로	-5801
전투	-5802
▁연습	-5803
▁짜	-5804
가인	-5805
▁능력	-5806
▁호소	-5807
▁아들인	-5808
▁말하는	-5809
인에게	-5810
▁명령을	-5811
중학교는	-5812
▁1914	-5813
▁영화배우이다	-5814
▁에피소드	-5815
학자들은	-5816
느냐	-5817
역에서	-5818
▁동북	-5819
▁빚	-5820
▁지속적으로	-5821
▁게다가	-5822
년도	-5823
▁양의	-5824
▁상황을	-5825
▁글로벌	-5826
본부	-5827
▁전동차	-5828
▁다음날	-5829
▁무사	-5830
▁표면	-5831
여래	-5832
처를	-5833
▁지니고	-5834
▁도시이다	-5835
▁이전에는	-5836
BM	-5837
영을	-5838
호에	-5839
▁바둑	-5840
▁터널	-5841
▁일부가	-5842
▁동양	-5843
▁전남	-5844
레는	-5845
실이	-5846
▁방식을	-5847
▁밀려	-5848
▁왕의	-5849
▁비롯하여	-5850
목을	-5851
백만	-5852
▁이상이	-5853
▁멘	-5854
▁그것이	-5855
▁이들이	-5856
▁드래프트	-5857
▁수리	-5858
과대학	-5859
▁어머니는	-5860
▁벡터	-5861
미술	-5862
IN	-5863
▁수의	-5864
년부터는	-5865
사이다	-5866
▁곳이다	-5867
공을	-5868
▁연간	-5869
89	-5870
▁똑	-5871
평을	-5872
▁측면	-5873
▁IC	-5874
▁전북	-5875
▁보스	-5876
▁파크	-5877
▁만든다	-5878
▁공중	-5879
▁알레	-5880
▁롱	-5881
받는	-5882
▁미쓰	-5883
▁복무	-5884
린의	-5885
▁유효	-5886
활동을	-5887
▁강릉	-5888
▁로봇	-5889
▁달려	-5890
▁사항	-5891
▁의식	-5892
▁선출되었다	-5893
너스	-5894
▁돌려	-5895
▁권력을	-5896
▁나온다	-5897
▁후쿠오카	-5898
▁화려	-5899
▁농구	-5900
더스	-5901
학교를	-5902
▁1938	-5903
▁기록되어	-5904
▁유치	-5905
▁유학	-5906
▁장수	-5907
▁토론토	-5908
▁분야에서	-5909
▁브레	-5910
마가	-5911
하시	-5912
▁만한	-5913
▁암컷	-5914
▁방해	-5915
▁상속	-5916
▁완벽	-5917
▁추기	-5918
▁의학	-5919
만한	-5920
▁섬의	-5921
계약	-5922
▁추가로	-5923
▁방지	-5924
▁여러가지	-5925
▁부분은	-5926
▁세웠	-5927
▁전송	-5928
클리	-5929
▁강등	-5930
▁불렸다	-5931
▁북쪽으로	-5932
▁운영하는	-5933
청은	-5934
▁47	-5935
질이	-5936
튜브	-5937
▁문제에	-5938
▁자금	-5939
▁힙	-5940
▁미국은	-5941
▁올스타	-5942
▁없을	-5943
▁포켓몬	-5944
▁공주	-5945
▁남아있	-5946
▁책을	-5947
▁이르렀다	-5948
▁사퇴	-5949
▁수석	-5950
▁성경	-5951
▁않으면	-5952
▁번호는	-5953
▁올림픽에서	-5954
44	-5955
▁밝혀졌다	-5956
▁싸움	-5957
▁재학	-5958
▁지구의	-5959
동물	-5960
▁갑자기	-5961
크래프트	-5962
▁만다	-5963
▁크다	-5964
▁위치를	-5965
슬링	-5966
▁서구	-5967
▁상태에서	-5968
환으로	-5969
▁참고	-5970
▁AP	-5971
▁출전하여	-5972
결승	-5973
질의	-5974
감이	-5975
▁복잡한	-5976
중한	-5977
▁맞서	-5978
▁여성의	-5979
▁초기에	-5980
▁46	-5981
니즘	-5982
즈를	-5983
호와	-5984
▁싸우	-5985
사람	-5986
츠의	-5987
▁서술	-5988
▁차지하고	-5989
▁들어갔다	-5990
▁개별	-5991
▁장비	-5992
97	-5993
▁검토	-5994
▁청주	-5995
▁토지	-5996
▁그리하여	-5997
▁물을	-5998
▁비트	-5999
▁사용자	-6000
▁1951	-6001
▁내세	-6002
▁마무리	-6003
▁협회	-6004
▁디스크	-6005
베리아	-6006
▁아래와	-6007
▁1918	-6008
타마	-6009
▁44	-6010
이치	-6011
▁대한민국에서	-6012
▁드래	-6013
▁크레	-6014
했다가	-6015
▁선포	-6016
우를	-6017
지마	-6018
▁스트리	-6019
▁확산	-6020
▁게임을	-6021
ID	-6022
▁히트	-6023
▁프리드리히	-6024
▁해발	-6025
▁화산	-6026
▁받아들이	-6027
▁포트	-6028
다란	-6029
달러	-6030
▁대량	-6031
▁커버	-6032
▁1932	-6033
장관	-6034
펙트	-6035
▁이른바	-6036
▁폴리	-6037
▁향토	-6038
all	-6039
▁화합	-6040
▁뮌헨	-6041
▁후임	-6042
▁유배	-6043
▁윗	-6044
▁1937	-6045
사전	-6046
▁내놓	-6047
중인	-6048
되지만	-6049
분으로	-6050
▁최우수	-6051
▁HD	-6052
▁이명	-6053
▁이루는	-6054
▁되돌	-6055
▁아이디	-6056
▁꾸준	-6057
▁십자	-6058
▁근처에	-6059
모가	-6060
▁직원	-6061
▁소식을	-6062
▁유나이티드	-6063
ore	-6064
▁한자	-6065
▁란	-6066
▁장소	-6067
어버	-6068
포로	-6069
▁발간	-6070
▁조카	-6071
▁광범위	-6072
▁말이	-6073
▁히로시마	-6074
▁암호	-6075
▁입단하였다	-6076
our	-6077
▁주기	-6078
씨를	-6079
▁성남	-6080
▁아메리칸	-6081
월의	-6082
▁보물	-6083
▁접한다	-6084
노스	-6085
▁그곳에서	-6086
ub	-6087
▁나왔	-6088
렸으며	-6089
▁문제는	-6090
▁따서	-6091
▁덧붙	-6092
▁이웃	-6093
▁코치	-6094
▁입장	-6095
▁고위	-6096
열을	-6097
▁없게	-6098
폴리스	-6099
▁이라크	-6100
특별자치	-6101
▁형식으로	-6102
▁아오	-6103
▁직전	-6104
강을	-6105
주의자	-6106
▁재임	-6107
▁당시에	-6108
▁연결되어	-6109
에선	-6110
▁1935	-6111
▁달하는	-6112
는지	-6113
▁개방	-6114
발을	-6115
양이	-6116
▁스프링	-6117
비시	-6118
▁신화	-6119
▁자원	-6120
▁핫	-6121
▁추방	-6122
▁일으켜	-6123
▁격파	-6124
▁클레	-6125
▁순환	-6126
기지	-6127
집을	-6128
▁배포	-6129
▁일은	-6130
너는	-6131
▁전투를	-6132
군에서	-6133
▁갖는다	-6134
▁DVD	-6135
▁상실	-6136
▁경기장	-6137
공간	-6138
천만	-6139
▁방법은	-6140
▁엘리자	-6141
렬한	-6142
▁사전	-6143
▁조건을	-6144
쥐는	-6145
파와	-6146
▁텐	-6147
▁개념을	-6148
조건	-6149
▁왕조의	-6150
▁영국에서	-6151
▁넷	-6152
▁언덕	-6153
▁오페라	-6154
조차	-6155
▁기병	-6156
▁폭탄	-6157
▁아버지의	-6158
▁필수	-6159
▁항의	-6160
비히	-6161
87	-6162
▁곱	-6163
▁이온	-6164
3,	-6165
형에	-6166
▁현지	-6167
▁끝내	-6168
▁상관	-6169
스트라	-6170
▁교류	-6171
▁단순한	-6172
▁카라	-6173
아나	-6174
▁유고	-6175
율이	-6176
▁화장	-6177
▁회장	-6178
▁탄핵	-6179
▁위에서	-6180
법인	-6181
▁대상이	-6182
관광	-6183
하여야	-6184
▁사랑을	-6185
▁하기도	-6186
가락	-6187
▁태양의	-6188
▁겉	-6189
▁양쪽	-6190
친다	-6191
제르	-6192
▁칼리	-6193
▁쌀	-6194
▁역임하였다	-6195
파이	-6196
▁개국	-6197
▁탄압	-6198
▁모바일	-6199
▁참여한	-6200
바는	-6201
▁하여금	-6202
됨에	-6203
▁사건으로	-6204
▁분기	-6205
름이	-6206
슬라	-6207
▁체육	-6208
로에	-6209
▁입고	-6210
▁지향	-6211
▁개인의	-6212
▁계속해서	-6213
▁수소	-6214
▁전문가	-6215
보이	-6216
ell	-6217
▁프라이	-6218
▁후인	-6219
▁인도의	-6220
IC	-6221
아서	-6222
았으나	-6223
▁사람들에게	-6224
목에	-6225
이닝	-6226
▁거짓	-6227
▁내가	-6228
▁보편	-6229
▁갈색	-6230
▁베어	-6231
▁무대	-6232
▁충분히	-6233
▁골드	-6234
▁성직	-6235
▁신도	-6236
▁서쪽으로	-6237
하기를	-6238
되게	-6239
비디오	-6240
▁권리를	-6241
▁덜	-6242
▁사회의	-6243
본을	-6244
▁미리	-6245
▁독립을	-6246
연의	-6247
▁특징을	-6248
▁중학교이다	-6249
신문	-6250
▁1933	-6251
▁연료	-6252
▁가까이	-6253
▁클라	-6254
▁업무를	-6255
▁했는데	-6256
▁산화	-6257
▁열차가	-6258
▁그들을	-6259
▁쾌	-6260
▁크루	-6261
▁바르셀로나	-6262
▁흑인	-6263
▁동쪽으로	-6264
연대	-6265
야는	-6266
▁고객	-6267
▁최대의	-6268
▁수십	-6269
▁나라의	-6270
▁대표로	-6271
스팅	-6272
▁CP	-6273
▁1928	-6274
▁42	-6275
▁인천광역시	-6276
서양	-6277
▁조선민주주의인민공화국의	-6278
나카	-6279
▁가설	-6280
▁결의	-6281
▁분자	-6282
▁우수	-6283
▁위상	-6284
▁좋지	-6285
▁우리는	-6286
▁본격적으로	-6287
▁알리	-6288
▁명칭을	-6289
▁반응을	-6290
민의	-6291
이상	-6292
▁몸을	-6293
▁오카	-6294
▁오키	-6295
▁위키	-6296
▁재능	-6297
역에	-6298
▁가상	-6299
▁포함하는	-6300
-10	-6301
비트	-6302
qu	-6303
▁도서관	-6304
AM	-6305
▁마틴	-6306
▁억제	-6307
▁준우승	-6308
령의	-6309
▁웨일	-6310
되거나	-6311
▁걸친	-6312
▁밝은	-6313
▁별도의	-6314
▁1924	-6315
▁앞으로	-6316
▁부동	-6317
목으로	-6318
베리	-6319
코프	-6320
▁마음을	-6321
▁북아메리카	-6322
▁돌아온	-6323
▁사건의	-6324
▁아래에	-6325
가능	-6326
신인	-6327
테이	-6328
▁개척	-6329
▁삶을	-6330
우스는	-6331
▁의미하는	-6332
▁멈	-6333
▁오다	-6334
▁행복	-6335
모는	-6336
▁손을	-6337
▁기상	-6338
▁작사	-6339
▁스탈	-6340
▁제도를	-6341
ul	-6342
마에	-6343
▁출신이다	-6344
즈니	-6345
▁예산	-6346
▁이어지는	-6347
▁웃	-6348
▁재생	-6349
▁단순히	-6350
투아	-6351
▁로렌	-6352
방향	-6353
속은	-6354
▁이재	-6355
▁위원회	-6356
▁상태를	-6357
▁낸	-6358
▁교회의	-6359
계와	-6360
▁스타디움	-6361
ain	-6362
▁차단	-6363
ill	-6364
키퍼	-6365
▁검색	-6366
▁고종	-6367
리브	-6368
▁지불	-6369
▁마드리드	-6370
클레	-6371
▁4,	-6372
▁멀티	-6373
▁가깝	-6374
▁상주	-6375
▁노선을	-6376
AN	-6377
▁입법	-6378
▁한성	-6379
43	-6380
기인	-6381
차의	-6382
▁엑스	-6383
▁중추	-6384
▁상대식	-6385
▁임무를	-6386
안전	-6387
▁입력	-6388
▁영화의	-6389
▁포함된다	-6390
▁영구	-6391
▁56	-6392
▁수컷	-6393
▁일으켰다	-6394
실로	-6395
▁콘텐츠	-6396
▁넣어	-6397
▁기본적으로	-6398
▁뻗	-6399
▁토착	-6400
▁보이지	-6401
▁발음	-6402
▁비잔	-6403
▁출연했다	-6404
-6	-6405
▁집에	-6406
환경	-6407
▁보험	-6408
▁해설	-6409
당으로	-6410
였는데	-6411
주의는	-6412
▁백제	-6413
93	-6414
미아	-6415
▁수술	-6416
시스템	-6417
▁영화제	-6418
▁원인이	-6419
프란	-6420
▁모토	-6421
88	-6422
와이	-6423
재로	-6424
▁서서	-6425
▁유통	-6426
국과	-6427
▁자라	-6428
▁인기가	-6429
조참	-6430
▁강남	-6431
▁하인	-6432
▁함경	-6433
로서는	-6434
슬로	-6435
▁이벤	-6436
▁가난	-6437
▁그렇다면	-6438
군에게	-6439
▁사람들	-6440
The	-6441
▁칠레	-6442
▁있으므로	-6443
▁Be	-6444
노는	-6445
▁정부에	-6446
▁도서	-6447
▁링크	-6448
▁맨체스터	-6449
▁아동	-6450
▁보스턴	-6451
▁Al	-6452
▁풋	-6453
해에	-6454
▁실천	-6455
▁양산	-6456
▁아틀	-6457
▁이상을	-6458
▁프로그래밍	-6459
하를	-6460
▁드물	-6461
▁사찰	-6462
▁역에서	-6463
▁구멍	-6464
▁경향이	-6465
▁세계대전	-6466
▁경기가	-6467
같이	-6468
층에	-6469
▁비판을	-6470
▁예방	-6471
▁콜롬	-6472
▁보여주는	-6473
▁며	-6474
▁되기	-6475
▁하나가	-6476
환을	-6477
드리아	-6478
ers	-6479
41	-6480
구조	-6481
▁성공했다	-6482
▁팔레	-6483
▁짝	-6484
▁노동자	-6485
ard	-6486
▁놓여	-6487
▁철거	-6488
▁일련의	-6489
▁신의	-6490
▁장르	-6491
▁지중	-6492
▁박물관	-6493
▁용인	-6494
프라	-6495
▁대부분을	-6496
▁그녀가	-6497
▁거느	-6498
▁게임의	-6499
▁파키스탄	-6500
▁3.	-6501
end	-6502
▁메모리	-6503
▁식품	-6504
▁아버지가	-6505
▁골키퍼	-6506
▁조선시대의	-6507
▁꼬리	-6508
▁결승전	-6509
▁리그의	-6510
석탑	-6511
▁뛰고	-6512
▁블록	-6513
▁자랑	-6514
▁상호작용	-6515
▁이외에도	-6516
▁바이러스	-6517
브로	-6518
▁이즈	-6519
OR	-6520
미사	-6521
42	-6522
크스	-6523
▁일상	-6524
▁덩	-6525
▁상하	-6526
▁원시	-6527
▁초청	-6528
바의	-6529
▁공장	-6530
하기에	-6531
▁크로아티아	-6532
나르	-6533
▁1934	-6534
▁열매	-6535
▁카운티는	-6536
다시	-6537
▁그라	-6538
▁복음	-6539
▁안토니	-6540
▁틈	-6541
▁개찰	-6542
▁남녀	-6543
▁대다	-6544
▁대대	-6545
중이다	-6546
▁나뉘어	-6547
▁웹사이트	-6548
침을	-6549
▁공산당	-6550
법과	-6551
지면	-6552
▁고급	-6553
▁병원	-6554
▁현존	-6555
▁이외의	-6556
보험	-6557
▁최근에는	-6558
로지	-6559
▁마주	-6560
▁모터	-6561
▁속도	-6562
▁벼슬	-6563
▁주력	-6564
▁구성원	-6565
▁주장하는	-6566
▁청구	-6567
▁편의	-6568
▁호주	-6569
용의	-6570
▁대법	-6571
▁소프트웨	-6572
▁매장	-6573
▁대동	-6574
▁이익	-6575
▁시작했고	-6576
용을	-6577
유를	-6578
프가니스탄	-6579
리학	-6580
▁인구의	-6581
크와	-6582
공신	-6583
▁사막	-6584
▁타격	-6585
▁개량	-6586
▁전화	-6587
▁미국으로	-6588
▁그러므로	-6589
인가	-6590
타카	-6591
▁핸	-6592
▁기도	-6593
▁마감	-6594
▁이적하였다	-6595
유가	-6596
▁{	-6597
힌다	-6598
성에서	-6599
▁위대한	-6600
▁안내	-6601
▁일종의	-6602
우라	-6603
▁줄어들	-6604
▁De	-6605
▁본다	-6606
▁질량	-6607
▁요코하마	-6608
▁톱	-6609
▁소득	-6610
▁구성된다	-6611
스피	-6612
▁말로	-6613
▁명으로	-6614
름은	-6615
하라는	-6616
▁\	-6617
▁수호	-6618
▁배경으로	-6619
타가	-6620
▁싱어	-6621
▁오버	-6622
치오	-6623
▁사가	-6624
▁진격	-6625
▁젠	-6626
▁주된	-6627
▁올해의	-6628
리티	-6629
▁신고	-6630
▁입은	-6631
▁이용할	-6632
▁죽음을	-6633
▁탓	-6634
▁가속	-6635
▁남극	-6636
▁변호사	-6637
▁권리	-6638
릭스	-6639
중이	-6640
보로	-6641
▁우리가	-6642
▁아티스트	-6643
대문	-6644
▁강요	-6645
▁교차	-6646
▁북미	-6647
님의	-6648
▁특별히	-6649
▁비공	-6650
▁혈액	-6651
▁자매	-6652
▁집필	-6653
발전	-6654
▁대화	-6655
▁펑	-6656
프와	-6657
▁주에	-6658
▁아리	-6659
▁이념	-6660
문이다	-6661
▁정치인	-6662
브레	-6663
▁MS	-6664
▁가마	-6665
▁오는	-6666
▁감시	-6667
IS	-6668
▁혼자	-6669
▁그리스의	-6670
▁진학	-6671
▁열리는	-6672
▁영양	-6673
절을	-6674
▁포함되었다	-6675
▁이어서	-6676
사지	-6677
판에	-6678
왕후	-6679
▁보냈	-6680
▁적극적으로	-6681
통합	-6682
▁준결승	-6683
▁엔터테인먼트	-6684
▁랑	-6685
▁주제	-6686
원숭	-6687
전자	-6688
▁경북	-6689
▁홋카이도	-6690
▁Me	-6691
지니아	-6692
체인	-6693
▁뚜렷	-6694
슨이	-6695
▁수도권	-6696
▁수를	-6697
▁작품의	-6698
▁백성	-6699
▁대학의	-6700
▁셔	-6701
▁매주	-6702
▁선호	-6703
▁힙합	-6704
▁대학교의	-6705
▁닉	-6706
▁할아버	-6707
▁드라마이다	-6708
▁x	-6709
▁영토를	-6710
년경	-6711
▁들면	-6712
운동을	-6713
▁소속의	-6714
▁새끼	-6715
▁홈런을	-6716
▁알렉산더	-6717
▁OS	-6718
▁도쿠가와	-6719
▁소집	-6720
▁아마추어	-6721
55	-6722
▁WW	-6723
▁대원	-6724
치와	-6725
희는	-6726
▁가치를	-6727
49	-6728
니와	-6729
활동	-6730
비와	-6731
하에서	-6732
▁토너	-6733
▁위치에	-6734
_7	-6735
▁원래는	-6736
▁정식으로	-6737
▁쓰러	-6738
▁일원	-6739
▁화가	-6740
모의	-6741
천의	-6742
▁사도	-6743
▁다큐	-6744
▁담고	-6745
▁부속	-6746
▁끝으로	-6747
▁싱가포르	-6748
보통	-6749
▁43	-6750
▁우에	-6751
▁행정구역	-6752
심이	-6753
▁크라	-6754
▁클리	-6755
령으로	-6756
▁갖게	-6757
▁소리	-6758
보다도	-6759
▁공개되었다	-6760
필드	-6761
▁1931	-6762
▁유력	-6763
▁후퇴	-6764
등급	-6765
▁동서	-6766
치기	-6767
드르	-6768
▁까지	-6769
ang	-6770
▁멸종	-6771
무네	-6772
플로	-6773
▁일단	-6774
식에서	-6775
▁만들기	-6776
▁콘스탄티노	-6777
▁소화	-6778
▁구사	-6779
행이	-6780
현을	-6781
훈련	-6782
▁사건에	-6783
▁초기에는	-6784
마뱀	-6785
함은	-6786
▁발레	-6787
민은	-6788
▁국정	-6789
▁자가	-6790
▁영향으로	-6791
일리	-6792
대신	-6793
▁군대	-6794
▁물려	-6795
▁정통	-6796
향을	-6797
기이다	-6798
에서부터	-6799
▁축소	-6800
▁훌륭	-6801
배를	-6802
▁지칭	-6803
▁의정부	-6804
▁부담	-6805
사랑	-6806
의가	-6807
▁부드	-6808
▁타워	-6809
▁필립	-6810
카르	-6811
▁집을	-6812
▁나고야	-6813
▁목숨	-6814
-7	-6815
작으로	-6816
▁인상	-6817
▁첫째	-6818
점과	-6819
▁개명	-6820
주의와	-6821
▁강하게	-6822
▁커다란	-6823
▁주재	-6824
▁시가	-6825
▁약탈	-6826
▁데이터를	-6827
라면	-6828
▁보기	-6829
▁부르기도	-6830
로써	-6831
▁근육	-6832
대부	-6833
▁재료	-6834
▁하느	-6835
드라마	-6836
자이자	-6837
그래	-6838
▁방송을	-6839
▁유전자	-6840
▁행정구	-6841
란색	-6842
율은	-6843
폴리	-6844
▁영화를	-6845
결을	-6846
곡은	-6847
모델	-6848
다이라	-6849
오로	-6850
▁기반을	-6851
▁1921	-6852
▁1929	-6853
▁아프가니스탄	-6854
▁정수	-6855
근혜	-6856
▁강을	-6857
▁메탈	-6858
관계를	-6859
비행	-6860
▁집안	-6861
▁발표된	-6862
고리	-6863
▁농촌	-6864
▁필라	-6865
▁루마니아	-6866
면과	-6867
▁600	-6868
▁김해	-6869
▁멜로	-6870
▁딜	-6871
▁새벽	-6872
▁중성	-6873
▁부르고	-6874
▁대변	-6875
▁연안	-6876
▁또다른	-6877
▁살아남	-6878
ew	-6879
▁r	-6880
물과	-6881
▁센트	-6882
▁시조	-6883
▁당나라	-6884
▁붙어	-6885
▁혼인	-6886
▁이론을	-6887
▁코너	-6888
▁감독은	-6889
▁공원	-6890
▁심지어	-6891
▁넥	-6892
▁몬테	-6893
▁보르	-6894
▁불가리아	-6895
권과	-6896
▁명시	-6897
▁방언	-6898
▁1925	-6899
▁문재	-6900
▁연평균	-6901
▁공기	-6902
버드	-6903
▁발휘	-6904
편의	-6905
▁사다	-6906
▁산하	-6907
▁르네	-6908
▁열었다	-6909
▁유적	-6910
▁이끌어	-6911
▁웨이	-6912
▁폭력	-6913
▁막기	-6914
▁메트로	-6915
▁상황에	-6916
한다면	-6917
▁처음에	-6918
▁늑	-6919
▁승부	-6920
▁수준의	-6921
▁게르	-6922
▁정확히	-6923
▁실내	-6924
▁쏘	-6925
▁어두	-6926
▁퀘	-6927
▁잠재	-6928
▁행위를	-6929
ity	-6930
▁빅토리아	-6931
▁용어는	-6932
▁1923	-6933
▁동반	-6934
▁맺고	-6935
▁번주	-6936
▁스웨덴의	-6937
문과	-6938
▁치렀다	-6939
건의	-6940
살이	-6941
▁상태가	-6942
카드	-6943
▁관객	-6944
▁대칭	-6945
▁오이	-6946
▁후에도	-6947
청년	-6948
▁곤충	-6949
▁많았다	-6950
▁남아메리카	-6951
령은	-6952
▁서명	-6953
▁세월	-6954
▁나타난	-6955
포스	-6956
▁발전을	-6957
▁뮤직비디오	-6958
▁일본은	-6959
졌던	-6960
주군	-6961
▁반대하는	-6962
▁발표되었다	-6963
체이다	-6964
토미	-6965
▁몸무	-6966
▁카자	-6967
▁사이트	-6968
▁증언	-6969
▁발매한	-6970
▁성과	-6971
▁요금	-6972
베이스	-6973
았는데	-6974
대사	-6975
대상	-6976
▁오케	-6977
▁콘서트	-6978
▁인터뷰에서	-6979
국인	-6980
▁종이	-6981
라이터	-6982
▁적도	-6983
▁그만	-6984
▁소스	-6985
▁옵	-6986
수도	-6987
▁미국인	-6988
▁게임이다	-6989
▁가끔	-6990
▁독재	-6991
▁재산	-6992
-8	-6993
▁제후	-6994
▁허락	-6995
호선의	-6996
▁군사를	-6997
▁미국에	-6998
▁트라	-6999
▁그럼	-7000
▁영원	-7001
▁파울	-7002
▁트럼	-7003
▁가고	-7004
▁시모	-7005
▁레인	-7006
▁유발	-7007
▁스크린	-7008
▁람	-7009
▁바이러	-7010
▁교사	-7011
▁마그	-7012
▁전형적인	-7013
교도	-7014
▁민중	-7015
▁해협	-7016
▁170	-7017
▁세리에	-7018
경기에서	-7019
te	-7020
트랙	-7021
▁압도	-7022
임은	-7023
▁본선에	-7024
위원회는	-7025
▁대선	-7026
▁하던	-7027
즈와	-7028
▁감정	-7029
▁호흡	-7030
▁닮	-7031
▁랩	-7032
▁리그에서	-7033
67	-7034
▁주변의	-7035
▁유대인	-7036
▁관해	-7037
았지만	-7038
리코	-7039
▁개장	-7040
▁보이고	-7041
AC	-7042
▁기여했다	-7043
▁말라	-7044
▁쇠퇴	-7045
▁800	-7046
▁그려져	-7047
▁이미지	-7048
▁관계에	-7049
티스	-7050
▁서울시	-7051
▁올라가	-7052
▁섹	-7053
이면	-7054
▁선조	-7055
▁회사의	-7056
밀한	-7057
▁비틀	-7058
▁사람이다	-7059
▁플로리다	-7060
▁동굴	-7061
청의	-7062
▁소요	-7063
▁않기	-7064
층석탑	-7065
년까지는	-7066
▁판타	-7067
▁맺었다	-7068
자나	-7069
▁마법	-7070
▁발렌	-7071
▁이은	-7072
▁촉진	-7073
▁동경	-7074
실에서	-7075
▁라이온	-7076
▁세계를	-7077
odice	-7078
▁참가하였다	-7079
▁착용	-7080
▁영향력을	-7081
▁철저	-7082
당에서	-7083
▁방송된	-7084
합니다	-7085
적이며	-7086
▁1,000	-7087
▁구원	-7088
▁전체를	-7089
머리	-7090
▁목포	-7091
▁레지	-7092
시스트	-7093
▁뼈	-7094
대원	-7095
▁갤럭	-7096
▁극복	-7097
▁북극	-7098
▁안양	-7099
ED	-7100
▁특허	-7101
▁안드로이드	-7102
▁주목을	-7103
어에서	-7104
나마	-7105
▁파생	-7106
론과	-7107
세기의	-7108
▁황제의	-7109
▁땅을	-7110
▁몸길	-7111
▁부탁	-7112
▁창당	-7113
▁콜로	-7114
각형	-7115
케이팅	-7116
▁동성애	-7117
▁허가	-7118
단에서	-7119
보기	-7120
▁음성	-7121
까지도	-7122
▁기하	-7123
말로	-7124
▁좁은	-7125
▁클라우	-7126
부장	-7127
▁관계는	-7128
올린	-7129
▁41	-7130
▁되기도	-7131
▁의견을	-7132
소수	-7133
오고	-7134
▁EP	-7135
91	-7136
도니아	-7137
▁토마스	-7138
▁추산으로	-7139
▁콜롬비아	-7140
해는	-7141
하면서도	-7142
▁데뷔했다	-7143
▁가시	-7144
아웃	-7145
▁감옥	-7146
▁도메	-7147
보의	-7148
▁영혼	-7149
니에	-7150
▁서방	-7151
주년	-7152
ip	-7153
기능	-7154
시대에	-7155
▁다이묘	-7156
▁지었다	-7157
▁후보가	-7158
▁않았지만	-7159
차에	-7160
상이다	-7161
▁경유	-7162
▁순서	-7163
졌으나	-7164
▁체험	-7165
우스의	-7166
▁역사가	-7167
▁법적	-7168
류에	-7169
▁말해	-7170
▁나이에	-7171
▁일곱	-7172
▁)	-7173
▁구성하는	-7174
.'	-7175
토가	-7176
▁클로	-7177
▁소규모	-7178
▁고안	-7179
▁영광	-7180
스트는	-7181
▁성과를	-7182
▁소형	-7183
▁운송	-7184
▁1922	-7185
족을	-7186
▁유용	-7187
▁건물은	-7188
타와	-7189
▁무릎	-7190
▁발생하였다	-7191
갔고	-7192
▁적응	-7193
▁되었는데	-7194
이게	-7195
토를	-7196
티움	-7197
ong	-7198
문으로	-7199
▁도쿄도	-7200
▁1912	-7201
▁삽입	-7202
▁AC	-7203
▁입사	-7204
OM	-7205
나를	-7206
▁스톤	-7207
▁시게	-7208
▁원하는	-7209
▁일으킨	-7210
▁스트라이	-7211
▁차트에서	-7212
됐고	-7213
▁운항	-7214
▁모습이	-7215
▁론	-7216
현이	-7217
▁와서	-7218
▁받으며	-7219
▁잡고	-7220
석으로	-7221
▁지나지	-7222
68	-7223
▁든	-7224
▁현대의	-7225
▁현상을	-7226
▁남겨	-7227
▁고고	-7228
▁명칭으로	-7229
▁기부	-7230
▁성격을	-7231
▁KT	-7232
▁이어졌다	-7233
▁손에	-7234
▁꺼	-7235
신과	-7236
쳤고	-7237
▁수직	-7238
ld	-7239
▁단행	-7240
되던	-7241
중국	-7242
▁무산	-7243
▁중에서도	-7244
▁압축	-7245
위원회가	-7246
▁에너지를	-7247
▁원년	-7248
▁운동에	-7249
도서	-7250
꼬리	-7251
턴은	-7252
영이	-7253
▁힘들	-7254
▁없지만	-7255
본은	-7256
▁노무	-7257
총리	-7258
▁감사	-7259
▁러브	-7260
받침	-7261
사이드	-7262
고에	-7263
디스	-7264
▁넘겨	-7265
▁교수로	-7266
▁했	-7267
▁세력이	-7268
▁끈	-7269
훼손	-7270
▁SM	-7271
▁그들	-7272
나게	-7273
▁담은	-7274
▁접속	-7275
▁추락	-7276
▁비롯해	-7277
▁상태에	-7278
래의	-7279
북도의	-7280
▁한반도	-7281
▁발명	-7282
▁전한	-7283
▁죽자	-7284
▁획득했다	-7285
▁과도	-7286
▁토벌	-7287
▁불렀	-7288
광역시의	-7289
마저	-7290
어에	-7291
▁다루는	-7292
▁부상으로	-7293
▁블라디	-7294
▁설립한	-7295
보병	-7296
오가	-7297
▁Se	-7298
계열	-7299
정도	-7300
▁대회는	-7301
▁폐지되었다	-7302
판의	-7303
▁매니	-7304
▁이날	-7305
였다고	-7306
▁포함된	-7307
▁부유	-7308
▁전술	-7309
▁MV	-7310
▁익스	-7311
▁거리에	-7312
▁박근혜	-7313
▁정도이다	-7314
ss	-7315
up	-7316
DP	-7317
▁히어로	-7318
▁탑승	-7319
▁1908	-7320
▁규슈	-7321
▁그녀를	-7322
▁도움이	-7323
▁모음	-7324
▁야스	-7325
▁자체가	-7326
▁SC	-7327
▁공무원	-7328
당하고	-7329
ction	-7330
▁이었다	-7331
▁Sh	-7332
▁화폐	-7333
▁1906	-7334
분은	-7335
▁공정	-7336
내의	-7337
률을	-7338
게이	-7339
▁적어도	-7340
▁반면에	-7341
▁대해서도	-7342
ind	-7343
▁de	-7344
▁선형	-7345
▁지원하는	-7346
카스	-7347
▁유아	-7348
▁전망	-7349
▁구로	-7350
페이지	-7351
클린	-7352
▁그랜드	-7353
▁페이스	-7354
▁생기	-7355
▁레이블	-7356
▁삼았다	-7357
▁스토리	-7358
▁동아시아	-7359
토벤	-7360
센트	-7361
▁모노	-7362
▁1917	-7363
프스	-7364
호쿠	-7365
▁수백	-7366
러리	-7367
즈키	-7368
▁석방	-7369
▁시절에	-7370
역과	-7371
▁세워진	-7372
▁심장	-7373
▁윤치	-7374
▁이정	-7375
▁이행	-7376
건설	-7377
애나	-7378
▁동일본	-7379
▁codice	-7380
스컵	-7381
▁역의	-7382
▁석사	-7383
▁뜻이다	-7384
프란시스코	-7385
ES	-7386
▁망원	-7387
▁없었고	-7388
▁기본적인	-7389
▁뱀	-7390
우고	-7391
▁5,	-7392
▁결승전에서	-7393
투표	-7394
▁당사	-7395
재는	-7396
▁싫	-7397
▁곳은	-7398
▁심사	-7399
▁라운드	-7400
률이	-7401
▁st	-7402
▁거리를	-7403
터와	-7404
▁모험	-7405
▁아무런	-7406
▁하우스	-7407
란다	-7408
▁고리	-7409
▁예외	-7410
니스트	-7411
▁아르메	-7412
오리	-7413
▁앨범을	-7414
▁의미가	-7415
▁1927	-7416
▁우라	-7417
▁지대	-7418
럼비아	-7419
▁등장인물	-7420
▁수반	-7421
▁JR	-7422
▁건담	-7423
▁플루	-7424
▁서기	-7425
▁먹는다	-7426
▁오리지	-7427
▁데려	-7428
▁코스	-7429
▁밀라노	-7430
▁금강	-7431
▁포유	-7432
▁국가가	-7433
데스리가	-7434
▁차지하였다	-7435
바다	-7436
▁빌딩	-7437
▁주요한	-7438
▁앨런	-7439
▁이세	-7440
▁다큐멘	-7441
▁아이스	-7442
▁1907	-7443
▁이르기까지	-7444
령에	-7445
ame	-7446
▁빨간	-7447
av	-7448
성도	-7449
▁경전	-7450
▁장례	-7451
▁주거	-7452
▁주니어	-7453
▁독점	-7454
▁수감	-7455
노의	-7456
이라며	-7457
▁수밖에	-7458
▁아울	-7459
▁주변에	-7460
▁지역이	-7461
▁57	-7462
▁사양	-7463
널드	-7464
▁사로	-7465
바키아	-7466
▁실업	-7467
산에서	-7468
▁퓨	-7469
▁히틀러	-7470
▁뷰	-7471
▁겨우	-7472
▁이종	-7473
▁중시	-7474
▁토머스	-7475
건은	-7476
▁그리스도	-7477
▁띤	-7478
▁툴	-7479
기구	-7480
▁상의	-7481
▁일본인	-7482
▁1926	-7483
▁테마	-7484
스티벌	-7485
▁140	-7486
항은	-7487
▁남양	-7488
▁맞춰	-7489
치며	-7490
▁문화적	-7491
▁천체	-7492
▁꾸준히	-7493
리케이션	-7494
▁패러	-7495
▁유튜브	-7496
용은	-7497
▁재즈	-7498
▁자신은	-7499
AP	-7500
▁인증	-7501
자였던	-7502
▁전작	-7503
되었다는	-7504
▁책은	-7505
▁그랑	-7506
나라는	-7507
▁인물로	-7508
▁중국에서	-7509
스톤	-7510
▁단선	-7511
▁메리	-7512
▁무관	-7513
이라면	-7514
▁연구는	-7515
▁등도	-7516
▁기능이	-7517
▁테오	-7518
▁모양으로	-7519
류와	-7520
▁기동	-7521
▁파티	-7522
▁있어야	-7523
조와	-7524
▁휴대	-7525
지구	-7526
▁비정	-7527
▁마치고	-7528
▁유입	-7529
▁이글	-7530
자들과	-7531
▁파트너	-7532
▁수록되어	-7533
83	-7534
▁예로	-7535
주의에	-7536
▁이어져	-7537
▁이하의	-7538
▁95	-7539
▁급격	-7540
▁맞추	-7541
▁돌아왔다	-7542
▁찬성	-7543
레이드	-7544
-15	-7545
▁보이며	-7546
▁살았다	-7547
▁들여	-7548
▁리드	-7549
▁배열	-7550
에게도	-7551
▁라이벌	-7552
▁섬에	-7553
슬라비아	-7554
▁창간	-7555
▁공간을	-7556
▁권한을	-7557
▁발생한다	-7558
▁사촌	-7559
▁크기가	-7560
인인	-7561
▁실수	-7562
▁밸	-7563
유산	-7564
▁계층	-7565
▁사람으로	-7566
년만에	-7567
▁차지한다	-7568
연구소	-7569
페이스	-7570
▁상무	-7571
▁트윈	-7572
▁첩	-7573
▁본명은	-7574
류로	-7575
집합	-7576
▁베토벤	-7577
▁대구광역시	-7578
히로	-7579
▁문신	-7580
▁사형	-7581
▁리눅	-7582
▁종로	-7583
▁크로스	-7584
ok	-7585
ry	-7586
▁고통	-7587
돌프	-7588
▁도중에	-7589
▁에스파	-7590
탄을	-7591
▁가쓰	-7592
▁라이프	-7593
교가	-7594
파에	-7595
▁유키	-7596
▁곧바로	-7597
▁소리를	-7598
▁모듈	-7599
▁BBC	-7600
▁차지하는	-7601
▁걷	-7602
ith	-7603
▁변화가	-7604
리시	-7605
트롤	-7606
▁감각	-7607
▁남해	-7608
▁유니버	-7609
▁실제로는	-7610
마쓰	-7611
보에	-7612
우에	-7613
▁1/	-7614
▁졸업했다	-7615
▁중동	-7616
▁리이다	-7617
실에	-7618
▁조기	-7619
▁탐험	-7620
▁상황이	-7621
끼리	-7622
▁가야	-7623
▁계곡	-7624
▁메르	-7625
생활을	-7626
▁명성을	-7627
▁종교적	-7628
이었는데	-7629
▁영국과	-7630
ob	-7631
▁퀴	-7632
▁거대	-7633
▁삭제	-7634
▁1905	-7635
▁거둔	-7636
졌는데	-7637
▁관하여	-7638
▁샌프란시스코	-7639
▁역사는	-7640
▁오늘날의	-7641
오와	-7642
▁무리	-7643
▁브레이	-7644
타나	-7645
▁평론	-7646
▁하사	-7647
▁크기는	-7648
칭은	-7649
▁싱어송	-7650
▁없었던	-7651
월드	-7652
학회	-7653
마리	-7654
▁성의	-7655
▁아웃	-7656
환은	-7657
▁마라	-7658
▁셋째	-7659
▁갱	-7660
ant	-7661
▁있다가	-7662
위에서	-7663
하르트	-7664
▁옮겼다	-7665
▁전해진다	-7666
보가	-7667
▁세우고	-7668
▁졸업한	-7669
ff	-7670
황후	-7671
▁면역	-7672
▁황태	-7673
▁음반을	-7674
▁전투는	-7675
▁실시된	-7676
카미	-7677
식이다	-7678
▁추대	-7679
▁못하게	-7680
ik	-7681
루살	-7682
▁SN	-7683
▁테크	-7684
▁대학에서	-7685
▁놀라	-7686
▁호남	-7687
든지	-7688
▁정부를	-7689
▁병력을	-7690
지방법원	-7691
▁re	-7692
▁납치	-7693
▁트위	-7694
▁참가하여	-7695
▁무인	-7696
▁플레	-7697
▁쿼	-7698
▁박쥐	-7699
노미야	-7700
해지고	-7701
▁들었다	-7702
▁한국인	-7703
병으로	-7704
ck	-7705
메르	-7706
▁광역	-7707
▁닌텐	-7708
▁에릭	-7709
▁덕분에	-7710
▁내는	-7711
▁결과로	-7712
▁NHK	-7713
▁긴급	-7714
▁지표	-7715
81	-7716
앨범	-7717
▁부처	-7718
▁교향곡	-7719
▁아래의	-7720
PS	-7721
▁사이를	-7722
심의	-7723
▁매각	-7724
▁크기의	-7725
족과	-7726
▁되찾	-7727
▁별로	-7728
▁외계	-7729
▁합동	-7730
▁레코드	-7731
▁지역에서는	-7732
▁이수	-7733
▁흰색	-7734
르바	-7735
▁예전	-7736
▁방위	-7737
▁합리	-7738
졌지만	-7739
실한	-7740
▁An	-7741
▁사과	-7742
▁락	-7743
▁54	-7744
▁웰	-7745
▁학사	-7746
▁바람에	-7747
▁비로	-7748
▁얻게	-7749
▁중지	-7750
▁초상	-7751
▁입단했다	-7752
▁모래	-7753
▁섬식	-7754
▁코믹	-7755
▁등장한	-7756
▁대한제국	-7757
▁동영	-7758
개국	-7759
온의	-7760
편을	-7761
▁두드	-7762
▁이용하는	-7763
▁순수	-7764
▁사용하지	-7765
one	-7766
▁결심	-7767
▁축제	-7768
루살렘	-7769
피를	-7770
▁돌파	-7771
▁살펴	-7772
▁레벨	-7773
▁만난	-7774
▁먹는	-7775
▁불리며	-7776
▁중립	-7777
리크	-7778
▁서북	-7779
▁최상	-7780
클럽	-7781
▁동시	-7782
▁크림	-7783
▁도시를	-7784
▁브라질의	-7785
▁아케	-7786
▁직무	-7787
고등학교는	-7788
▁초래	-7789
▁타입	-7790
병원	-7791
플러	-7792
▁마카	-7793
▁향년	-7794
▁카메라	-7795
▁풍부한	-7796
▁오리지널	-7797
연은	-7798
▁사제	-7799
구리	-7800
데이트	-7801
▁크리스토	-7802
청이	-7803
▁오염	-7804
▁Love	-7805
▁뚫	-7806
▁걸려	-7807
▁제네	-7808
▁빗	-7809
복지	-7810
▁때마다	-7811
▁대승	-7812
▁배급	-7813
▁주말	-7814
사상	-7815
▁붙잡	-7816
▁왕립	-7817
▁회색	-7818
▁그럼에도	-7819
률은	-7820
▁거친	-7821
▁드래곤	-7822
루미	-7823
▁브로	-7824
▁효과가	-7825
▁대만	-7826
▁시달	-7827
화하는	-7828
▁대단	-7829
▁죽고	-7830
▁딱	-7831
▁칙	-7832
졌을	-7833
▁곳을	-7834
▁마시	-7835
▁적절한	-7836
▁펄	-7837
우옌	-7838
▁고가	-7839
▁삼아	-7840
▁110	-7841
▁갤럭시	-7842
▁싱어송라이터	-7843
▁마스터	-7844
장군	-7845
▁역전	-7846
▁이지	-7847
진흥	-7848
▁모로	-7849
▁유인	-7850
학과를	-7851
▁개발을	-7852
▁브라이언	-7853
iv	-7854
▁대회이다	-7855
IT	-7856
챌린	-7857
▁유물	-7858
▁베네치아	-7859
▁딴	-7860
▁요미	-7861
▁의거	-7862
▁입증	-7863
펙트럼	-7864
▁방법이	-7865
▁생각을	-7866
▁획득하였다	-7867
▁시를	-7868
▁카페	-7869
▁버지니아	-7870
▁아들이다	-7871
슬림	-7872
▁오디션	-7873
목은	-7874
▁간섭	-7875
▁추적	-7876
▁작전을	-7877
▁정권을	-7878
▁하다가	-7879
▁되었다고	-7880
▁세계적인	-7881
기획	-7882
소리	-7883
▁습격	-7884
▁사이클	-7885
하겠다고	-7886
▁레닌	-7887
▁참모	-7888
▁뤼	-7889
▁강수	-7890
▁옛날	-7891
▁명단에	-7892
▁필요로	-7893
나고	-7894
ate	-7895
▁약간의	-7896
▁밴드의	-7897
마루	-7898
▁나의	-7899
▁나이트	-7900
▁1904	-7901
▁때문이었다	-7902
▁법무	-7903
▁빵	-7904
팀이	-7905
▁가사	-7906
▁인류	-7907
▁집에서	-7908
▁게시	-7909
▁연락	-7910
▁참조	-7911
▁프랑스는	-7912
도서관	-7913
▁문화를	-7914
▁리듬	-7915
▁해병	-7916
▁일어난다	-7917
▁유닛	-7918
긴다	-7919
▁올린	-7920
▁공룡	-7921
▁색깔	-7922
급의	-7923
▁모임	-7924
▁전승	-7925
▁중화인민공화국의	-7926
▁흙	-7927
▁수록곡	-7928
▁특성을	-7929
▁않았던	-7930
▁자전거	-7931
▁제공하고	-7932
그로	-7933
등에	-7934
▁85	-7935
▁세계에	-7936
▁봉해졌다	-7937
단계	-7938
▁지질	-7939
▁한화	-7940
▁음악가	-7941
▁의미로	-7942
▁다음으로	-7943
지기도	-7944
▁두려워	-7945
전에서는	-7946
들인	-7947
▁것이고	-7948
▁마쓰다이라	-7949
이즈	-7950
자였다	-7951
▁스페셜	-7952
우치	-7953
▁규모가	-7954
300	-7955
▁유성	-7956
▁폭격	-7957
클라	-7958
▁밖으로	-7959
▁사진을	-7960
▁혁신	-7961
ET	-7962
_10	-7963
▁않았으며	-7964
▁49	-7965
▁진출에	-7966
방에	-7967
습을	-7968
▁클래식	-7969
66	-7970
보면	-7971
테스	-7972
▁지바	-7973
▁Go	-7974
▁분산	-7975
▁방향을	-7976
▁시간에	-7977
▁물이	-7978
▁램	-7979
모니	-7980
▁자세	-7981
▁탄소	-7982
▁입었다	-7983
▁캡	-7984
사고	-7985
ord	-7986
▁대지	-7987
▁외무	-7988
▁WWE	-7989
▁문화의	-7990
▁행정구역이다	-7991
▁운반	-7992
▁못한다	-7993
▁크리스티	-7994
▁유고슬라비아	-7995
▁일대	-7996
▁대회를	-7997
▁코리아	-7998
▁가능성을	-7999
▁유럽에서	-8000
▁벨라	-8001
▁연설	-8002
▁관심이	-8003
▁국경을	-8004
음은	-8005
▁가미	-8006
▁입대	-8007
▁미분	-8008
▁밀접	-8009
▁인텔	-8010
▁타원	-8011
▁근로	-8012
자이너	-8013
▁레이다	-8014
▁공식적인	-8015
바이러스	-8016
▁스마트폰	-8017
▁상영	-8018
▁전의	-8019
▁홀로	-8020
▁모습으로	-8021
공학	-8022
파크	-8023
▁원자력	-8024
▁접하고	-8025
▁뒤로	-8026
▁스승	-8027
▁계기가	-8028
▁모델로	-8029
▁진단	-8030
▁퍼져	-8031
▁프랜	-8032
▁명칭이	-8033
▁길이가	-8034
▁총선에서	-8035
재의	-8036
하였을	-8037
▁부분에	-8038
▁아나운	-8039
▁예루살렘	-8040
브를	-8041
▁본토	-8042
▁도시는	-8043
▁활동에	-8044
▁기용	-8045
▁압박	-8046
▁아우구	-8047
▁전체적으로	-8048
▁읍	-8049
연한	-8050
▁굽	-8051
▁가득	-8052
▁변신	-8053
▁과거에	-8054
전한	-8055
▁엔진을	-8056
▁설치되었다	-8057
▁눈을	-8058
▁커뮤니티	-8059
▁수익	-8060
스포츠	-8061
▁미국이	-8062
▁미치는	-8063
▁이루어진다	-8064
하라고	-8065
형과	-8066
▁친선	-8067
▁아직도	-8068
82	-8069
▁130	-8070
ast	-8071
▁극단	-8072
▁과학적	-8073
▁프리미어리그	-8074
시절	-8075
▁기구	-8076
면서도	-8077
론적	-8078
글로	-8079
작가	-8080
▁지원한다	-8081
▁신분	-8082
부사	-8083
화학	-8084
회로	-8085
▁동기	-8086
▁청동	-8087
▁자유를	-8088
더는	-8089
▁고립	-8090
▁냈다	-8091
▁장갑	-8092
체에서	-8093
고한	-8094
준은	-8095
▁막을	-8096
▁옹호	-8097
속으로	-8098
▁들어간	-8099
▁자료를	-8100
민이	-8101
▁모순	-8102
닉스	-8103
▁은퇴한	-8104
초의	-8105
▁내용의	-8106
둥이	-8107
▁소위	-8108
▁전원	-8109
▁공동으로	-8110
▁지정되어	-8111
▁비스	-8112
▁구상	-8113
▁범주	-8114
▁모르	-8115
▁우익	-8116
▁랭킹	-8117
▁서식지	-8118
▁탱	-8119
▁다녔	-8120
▁뿐이다	-8121
등한	-8122
년으로	-8123
▁못했고	-8124
민족행위	-8125
84	-8126
▁고교	-8127
▁산악	-8128
ort	-8129
▁현급	-8130
권으로	-8131
된다는	-8132
직에서	-8133
환의	-8134
▁호르	-8135
▁말하며	-8136
▁활동한	-8137
▁다룬	-8138
▁선두	-8139
▁아비	-8140
제품	-8141
▁앱	-8142
▁가요	-8143
▁동맹을	-8144
런스	-8145
로미터	-8146
▁이야기가	-8147
고자	-8148
바나	-8149
▁날개	-8150
▁작품이	-8151
▁서식한다	-8152
▁깊이	-8153
▁아베	-8154
▁전염	-8155
▁피렌	-8156
▁벌였다	-8157
▁운동의	-8158
▁이명박	-8159
▁우루	-8160
▁계획은	-8161
▁관련하여	-8162
▁!	-8163
간을	-8164
▁가공	-8165
의에	-8166
▁지내고	-8167
▁돔	-8168
▁개성	-8169
▁조약을	-8170
▁스펙트럼	-8171
▁일환으로	-8172
▁벗어	-8173
▁보살	-8174
▁51	-8175
▁말은	-8176
▁MVP	-8177
▁업데이트	-8178
린이	-8179
▁보인	-8180
나라를	-8181
조판서	-8182
액을	-8183
▁연계	-8184
▁유지하고	-8185
방이	-8186
▁부통령	-8187
▁아니고	-8188
▁무슬림	-8189
▁존재를	-8190
▁가해	-8191
▁지연	-8192
▁고시	-8193
▁점성	-8194
▁경험을	-8195
다니	-8196
▁전향	-8197
▁흐르는	-8198
반의	-8199
▁가라	-8200
▁간에	-8201
▁브라우	-8202
▁형성된	-8203
▁비잔티움	-8204
▁영주	-8205
경으로	-8206
▁했다고	-8207
▁입문	-8208
▁센트럴	-8209
▁찾는	-8210
▁하노	-8211
▁분포한다	-8212
▁이적했다	-8213
▁두번째	-8214
▁심한	-8215
▁포맷	-8216
뱅크	-8217
▁챌린	-8218
들과의	-8219
랑이	-8220
▁52	-8221
▁밝히	-8222
▁애국	-8223
▁출현	-8224
▁기타리스트	-8225
▁역이	-8226
롤라	-8227
▁미네	-8228
▁임신	-8229
▁정류	-8230
아프리카	-8231
미와	-8232
작을	-8233
▁분야의	-8234
▁성공적으로	-8235
▁케이블	-8236
▁티베트	-8237
▁타이틀을	-8238
전기	-8239
계올림픽	-8240
석에	-8241
음의	-8242
▁사격	-8243
▁활동이	-8244
▁베이스볼	-8245
▁동치	-8246
▁대학원	-8247
▁시호는	-8248
▁이곳에	-8249
▁당선되었다	-8250
77	-8251
▁반사	-8252
▁책봉	-8253
▁애플리케이션	-8254
병이	-8255
▁시대에는	-8256
아를	-8257
▁지방에	-8258
▁험	-8259
하가	-8260
판으로	-8261
▁발생했다	-8262
▁왕위	-8263
▁HIV	-8264
본이	-8265
타임	-8266
▁원로	-8267
커스	-8268
▁퍼시	-8269
▁스타크래프트	-8270
조약	-8271
▁전두	-8272
▁합계	-8273
▁미얀	-8274
▁재발	-8275
▁당해	-8276
▁쓴다	-8277
▁엘리자베스	-8278
▁튜	-8279
작은	-8280
▁점은	-8281
▁패턴	-8282
▁이곳에서	-8283
▁서쪽으로는	-8284
중은	-8285
▁아울러	-8286
▁DJ	-8287
▁인간이	-8288
▁호환	-8289
▁스타일	-8290
▁첫번째	-8291
▁마르크스	-8292
▁고등학교이다	-8293
61	-8294
▁AS	-8295
▁미시	-8296
▁기록하고	-8297
금은	-8298
▁측은	-8299
되었기	-8300
▁UN	-8301
▁문화재자료	-8302
▁네덜란드의	-8303
▁메가	-8304
▁목숨을	-8305
ure	-8306
▁빨리	-8307
▁결과는	-8308
▁1896	-8309
▁페이지	-8310
▁남쪽으로는	-8311
▁무선	-8312
▁양식	-8313
▁자바	-8314
▁계획이	-8315
▁남한	-8316
▁낱	-8317
▁아니었다	-8318
의원	-8319
토스	-8320
▁내륙	-8321
▁승차	-8322
▁료	-8323
▁김동	-8324
▁좌익	-8325
현악	-8326
함으로	-8327
▁구간은	-8328
▁제도의	-8329
통일	-8330
▁별도로	-8331
▁댄스	-8332
네는	-8333
ock	-8334
▁수천	-8335
▁올림	-8336
▁이치	-8337
▁시스템은	-8338
▁동쪽으로는	-8339
▁내지	-8340
▁데뷔전을	-8341
▁되었으나	-8342
년은	-8343
업이	-8344
▁결과가	-8345
▁서일본	-8346
▁오스트레일리아의	-8347
으려	-8348
Pa	-8349
▁짙	-8350
▁국토	-8351
▁우수한	-8352
▁SF	-8353
▁성벽	-8354
미디어	-8355
▁175	-8356
▁결과적으로	-8357
▁설이	-8358
▁확인할	-8359
식물	-8360
출을	-8361
▁없기	-8362
▁관광객	-8363
금융	-8364
▁어드	-8365
▁차이를	-8366
말을	-8367
▁보좌	-8368
▁아트	-8369
▁옆에	-8370
▁정벌	-8371
▁우승에	-8372
▁후기의	-8373
글라	-8374
▁해제	-8375
▁루트비히	-8376
가루	-8377
▁발효	-8378
▁간단한	-8379
▁모양을	-8380
실록	-8381
▁당의	-8382
▁일로	-8383
▁과학자	-8384
디의	-8385
마자	-8386
▁선거에	-8387
▁스카이	-8388
▁아들을	-8389
▁이라는	-8390
.&	-8391
▁My	-8392
▁피난	-8393
재가	-8394
▁빌헬	-8395
▁신장	-8396
▁진술	-8397
▁250	-8398
석과	-8399
▁연애	-8400
▁자이언츠	-8401
▁스틸	-8402
▁야기	-8403
▁항구	-8404
유로	-8405
▁대조	-8406
▁배정	-8407
▁우리의	-8408
션을	-8409
수아	-8410
▁일본이	-8411
▁학교를	-8412
백과	-8413
유키	-8414
▁He	-8415
▁밀양	-8416
산군	-8417
음에	-8418
▁예능	-8419
▁막대한	-8420
좌상	-8421
▁거기	-8422
▁잃고	-8423
▁전임	-8424
박물관	-8425
▁이외에	-8426
▁결정했다	-8427
▁결정을	-8428
▁들어와	-8429
▁사령관	-8430
▁막아	-8431
소송법	-8432
▁고성	-8433
▁낳았다	-8434
왔고	-8435
▁준공	-8436
▁이승만	-8437
▁전체의	-8438
▁가면	-8439
▁발족	-8440
▁선제	-8441
▁바티	-8442
▁배제	-8443
▁추가되었다	-8444
칸센	-8445
▁이스트	-8446
▁항공기	-8447
▁쏟	-8448
팩트	-8449
▁나선	-8450
▁디젤	-8451
▁메디	-8452
▁이토	-8453
▁폐기	-8454
ML	-8455
▁잊	-8456
▁협상	-8457
▁등이다	-8458
▁활약하였다	-8459
▁얼마나	-8460
수산	-8461
▁정원	-8462
변을	-8463
▁모집	-8464
▁재단	-8465
▁이익을	-8466
▁성균	-8467
▁구마	-8468
▁로빈	-8469
▁데리고	-8470
▁리그에	-8471
▁대우	-8472
▁어릴	-8473
▁요구하는	-8474
악의	-8475
피는	-8476
▁위기에	-8477
부문	-8478
▁주파	-8479
▁쿠바	-8480
▁국가에서	-8481
▁경력을	-8482
▁당했다	-8483
▁버리고	-8484
▁시마	-8485
▁이오	-8486
▁현의	-8487
▁노선이	-8488
곡이	-8489
▁마천	-8490
▁어항	-8491
▁재위	-8492
▁톨	-8493
발의	-8494
▁간다	-8495
▁리가	-8496
▁그동안	-8497
스테이션	-8498
▁용산	-8499
▁나라를	-8500
▁가질	-8501
▁현황	-8502
▁구간이	-8503
▁일본어	-8504
▁지어진	-8505
안군	-8506
▁호수	-8507
▁쪽으로	-8508
인들에게	-8509
지대	-8510
트르	-8511
▁간접	-8512
▁무료	-8513
▁적색	-8514
▁후의	-8515
반을	-8516
지사	-8517
▁아가	-8518
▁초창	-8519
▁최신	-8520
리타	-8521
▁장편	-8522
▁경계를	-8523
▁지방도	-8524
▁디자이너	-8525
▁하나님의	-8526
토시	-8527
▁이자	-8528
▁된다는	-8529
디에	-8530
시켰고	-8531
과도	-8532
먼은	-8533
▁미하	-8534
버스터	-8535
▁필라델	-8536
▁탕	-8537
▁자손	-8538
▁훈련을	-8539
▁독자적인	-8540
▁월간	-8541
▁황후	-8542
터로	-8543
▁떠난	-8544
▁고베	-8545
▁모니	-8546
▁여왕	-8547
▁적대	-8548
▁타운	-8549
▁주장이	-8550
▁북쪽으로는	-8551
▁브래	-8552
▁열차는	-8553
그리	-8554
용이	-8555
▁북한의	-8556
▁신사	-8557
▁빛을	-8558
▁사카	-8559
▁감독이다	-8560
▁ST	-8561
74	-8562
▁휩	-8563
▁기재	-8564
▁찾을	-8565
▁미카	-8566
편이	-8567
▁몰락	-8568
▁말하고	-8569
니까	-8570
▁많고	-8571
▁청와	-8572
▁타율	-8573
▁지역과	-8574
▁최근에	-8575
▁스콧	-8576
▁쿨	-8577
▁서독	-8578
▁푸른	-8579
▁돌아오	-8580
▁소속되어	-8581
▁출전했다	-8582
청을	-8583
현에	-8584
▁담당하는	-8585
▁통화	-8586
경기를	-8587
▁이복	-8588
▁항해	-8589
▁시드니	-8590
문관	-8591
▁순천	-8592
▁적을	-8593
▁힘이	-8594
▁앨범은	-8595
바야	-8596
▁지역이다	-8597
▁두산	-8598
▁조용	-8599
▁콩고	-8600
▁한양	-8601
▁아르메니아	-8602
▁백인	-8603
▁열어	-8604
▁능력이	-8605
블로	-8606
▁영감을	-8607
▁천황의	-8608
▁직접적인	-8609
▁일렉	-8610
OC	-8611
안으로	-8612
▁히가시	-8613
ime	-8614
▁있으면	-8615
▁초점을	-8616
▁싱글이다	-8617
▁일원으로	-8618
▁깔	-8619
▁마산	-8620
▁충격	-8621
▁주제로	-8622
유는	-8623
저는	-8624
편에	-8625
르와	-8626
바시	-8627
라미	-8628
림을	-8629
업에	-8630
우드	-8631
장한	-8632
▁AM	-8633
▁달아	-8634
▁노르웨	-8635
▁않도록	-8636
▁충분한	-8637
▁흩	-8638
▁꺾고	-8639
▁야생	-8640
▁아니며	-8641
▁편지를	-8642
▁자리에서	-8643
▁개최되었다	-8644
▁끝났다	-8645
▁원래의	-8646
연이	-8647
하러	-8648
회와	-8649
됐으며	-8650
▁이론은	-8651
▁테일러	-8652
▁수단	-8653
금이	-8654
대학원	-8655
아와	-8656
▁급진	-8657
▁개념은	-8658
▁군대가	-8659
▁인근에	-8660
▁값을	-8661
▁여의	-8662
▁전성	-8663
▁언어로	-8664
세스	-8665
인조	-8666
▁연루	-8667
된다고	-8668
▁동남아시아	-8669
중심	-8670
▁원형	-8671
▁마리오	-8672
▁응우옌	-8673
ue	-8674
공이	-8675
▁뒤인	-8676
▁발라	-8677
▁네이션	-8678
▁곁	-8679
▁오렌	-8680
▁게임은	-8681
후보	-8682
▁서브	-8683
▁힌두	-8684
▁비평가	-8685
규칙	-8686
진과	-8687
▁예언	-8688
▁그룹의	-8689
▁인물이다	-8690
ack	-8691
목의	-8692
투쟁	-8693
io	-8694
▁군대는	-8695
▁얇	-8696
코가	-8697
▁*	-8698
▁곳곳	-8699
▁믹	-8700
▁하천	-8701
▁전투가	-8702
▁우리나라	-8703
▁문재인	-8704
▁중심지	-8705
▁최종적으로	-8706
62	-8707
MS	-8708
▁Un	-8709
▁못해	-8710
▁근거로	-8711
▁두드러	-8712
▁정도가	-8713
▁대로	-8714
▁법학	-8715
▁발전에	-8716
▁곰	-8717
▁대외	-8718
▁온도	-8719
▁사용을	-8720
밀리	-8721
▁소나	-8722
▁중이던	-8723
63	-8724
범죄	-8725
▁없애	-8726
▁해적	-8727
▁여동생	-8728
▁조선총독부	-8729
주인	-8730
▁교과	-8731
▁모델이다	-8732
▁왕실	-8733
▁있습니다	-8734
해진다	-8735
▁700	-8736
▁자격을	-8737
성한	-8738
▁코치로	-8739
▁달의	-8740
뉴스	-8741
▁메모	-8742
▁어워드	-8743
ge	-8744
▁젤	-8745
리자	-8746
▁마케팅	-8747
▁나열	-8748
▁비극	-8749
등록	-8750
오르	-8751
▁보여주었다	-8752
커는	-8753
▁사적	-8754
▁상태이다	-8755
▁당한	-8756
▁적의	-8757
▁계열의	-8758
▁이원	-8759
▁디즈니	-8760
▁겸임	-8761
▁동지	-8762
▁사용해	-8763
▁플라스	-8764
▁덴마크의	-8765
ib	-8766
▁대결	-8767
▁착수	-8768
▁페루	-8769
▁좋아하는	-8770
군사	-8771
▁제휴	-8772
▁사로잡	-8773
▁주식회사	-8774
▁쟁	-8775
다리	-8776
란의	-8777
▁때도	-8778
▁서남	-8779
▁국가를	-8780
건이	-8781
▁주니	-8782
▁않는다는	-8783
시타	-8784
▁비즈	-8785
▁아파트	-8786
▁프로토콜	-8787
▁현존하는	-8788
스틴	-8789
▁말할	-8790
▁전투에	-8791
▁본격적인	-8792
공동	-8793
나미	-8794
▁신칸센	-8795
▁4.	-8796
번호	-8797
▁트레	-8798
▁군을	-8799
▁여론	-8800
▁중력	-8801
▁지배를	-8802
▁활성화	-8803
▁슐	-8804
▁폼	-8805
▁머무	-8806
▁인조	-8807
▁착륙	-8808
▁목적은	-8809
소한	-8810
▁1911	-8811
조정	-8812
경과	-8813
▁53	-8814
▁삶의	-8815
▁불리기도	-8816
▁굉	-8817
▁후한	-8818
▁친척	-8819
▁있다면	-8820
▁하나를	-8821
▁한국에서는	-8822
즈카	-8823
▁보잉	-8824
▁잘못된	-8825
▁화려한	-8826
▁결혼을	-8827
▁대답	-8828
▁주어졌다	-8829
▁복수	-8830
져서	-8831
▁경고	-8832
▁임상	-8833
▁제국이	-8834
▁y	-8835
▁구름	-8836
▁지목	-8837
▁일본군	-8838
▁번뇌	-8839
▁종전	-8840
스테르	-8841
▁일본에서는	-8842
교회의	-8843
명인	-8844
산맥	-8845
역사	-8846
차별	-8847
프에	-8848
▁포인	-8849
▁달러를	-8850
▁불만을	-8851
▁시기의	-8852
▁지지하는	-8853
▁대신에	-8854
▁젖	-8855
도사	-8856
받지	-8857
어스	-8858
패로	-8859
▁머리를	-8860
온다	-8861
▁목격	-8862
▁이순	-8863
▁충남	-8864
▁한강	-8865
▁후반에	-8866
▁사람에게	-8867
▁인생	-8868
▁취약	-8869
▁다음이	-8870
행은	-8871
▁여덟	-8872
▁오세	-8873
▁방식의	-8874
▁연구가	-8875
적이었다	-8876
그는	-8877
▁공략	-8878
▁박영	-8879
▁요소를	-8880
▁하와이	-8881
금의	-8882
란을	-8883
증이	-8884
▁사장	-8885
▁졸업하였다	-8886
분야	-8887
▁남긴	-8888
▁에우	-8889
▁가지게	-8890
▁윙	-8891
▁약한	-8892
69	-8893
선수권	-8894
▁물리학	-8895
고속	-8896
시피	-8897
있고	-8898
▁무늬	-8899
▁부흥	-8900
▁와카	-8901
▁다이아	-8902
▁특수한	-8903
▁주립	-8904
▁타카	-8905
▁생각했다	-8906
색이	-8907
톤의	-8908
▁기술이	-8909
즈에	-8910
▁내내	-8911
▁시간은	-8912
▁남아있다	-8913
▁말한	-8914
교로	-8915
▁귀환	-8916
▁구조의	-8917
▁민주주의	-8918
렸던	-8919
▁내장	-8920
▁한신	-8921
▁언어를	-8922
▁발견했다	-8923
팀인	-8924
▁PS	-8925
디아라비아	-8926
▁역사적으로	-8927
▁카자흐	-8928
▁관점에서	-8929
▁시스템의	-8930
▁엔터테인먼	-8931
검찰	-8932
▁원산	-8933
▁내부의	-8934
▁포함해	-8935
▁애틀	-8936
▁해군의	-8937
▁후보에	-8938
보통학교	-8939
▁선진	-8940
▁아서	-8941
▁풋볼	-8942
▁빌리	-8943
▁산타	-8944
▁조치	-8945
▁게재	-8946
년대부터	-8947
위원회의	-8948
▁사용자가	-8949
▁시작했으며	-8950
민당	-8951
제이	-8952
▁미스	-8953
▁제약	-8954
▁충족	-8955
성이다	-8956
iz	-8957
수엘	-8958
▁마친	-8959
▁음반의	-8960
▁구체적인	-8961
▁말하였다	-8962
▁실패했다	-8963
ph	-8964
관찰	-8965
수사	-8966
서이다	-8967
▁훌륭한	-8968
▁다큐멘터리	-8969
▁샬	-8970
쪽의	-8971
▁다가	-8972
▁응답	-8973
▁가능하게	-8974
▁컸	-8975
▁태조	-8976
▁항일	-8977
▁이처럼	-8978
▁지중해	-8979
▁판타지	-8980
과로	-8981
▁거슬러	-8982
▁서서히	-8983
▁반환	-8984
▁술탄	-8985
동에서	-8986
▁전쟁은	-8987
▁전통적으로	-8988
▁비가	-8989
▁악화	-8990
서에서	-8991
▁승리로	-8992
▁맡았으며	-8993
▁바꾸었다	-8994
▁닐	-8995
켰다	-8996
▁구미	-8997
▁주문	-8998
▁북쪽에	-8999
▁제국은	-9000
▁방면	-9001
▁평생	-9002
▁기업의	-9003
이사	-9004
▁실용	-9005
곡으로	-9006
▁프레임	-9007
72	-9008
렀고	-9009
온이	-9010
▁밖의	-9011
▁의원이	-9012
▁페스티벌	-9013
▁맞는	-9014
▁포크	-9015
▁강점기	-9016
▁수록된	-9017
▁바이올린	-9018
▁사이에는	-9019
▁프로그램의	-9020
▁기생	-9021
▁굵	-9022
▁58	-9023
▁때때	-9024
▁복구	-9025
시즌을	-9026
▁바가	-9027
▁법원	-9028
▁피에르	-9029
▁프로그램은	-9030
▁칩	-9031
견을	-9032
▁맞게	-9033
▁현상이	-9034
▁섭취	-9035
EN	-9036
▁옐	-9037
터에	-9038
▁IP	-9039
▁디아	-9040
▁재무	-9041
병의	-9042
▁규제	-9043
▁목조	-9044
▁무력	-9045
태평양	-9046
니를	-9047
저스	-9048
▁가즈	-9049
▁로맨	-9050
▁손상	-9051
▁측근	-9052
▁커피	-9053
ud	-9054
▁88	-9055
▁융합	-9056
▁일찍이	-9057
▁리얼	-9058
▁서경	-9059
포는	-9060
▁오디오	-9061
▁퇴각	-9062
▁뒤에는	-9063
▁무려	-9064
▁착공	-9065
직한	-9066
▁주와	-9067
▁시작해	-9068
▁조사를	-9069
▁치료를	-9070
백을	-9071
티에	-9072
플라	-9073
▁해임	-9074
진에	-9075
▁목적을	-9076
▁시대를	-9077
▁165	-9078
사추	-9079
였기	-9080
▁일부로	-9081
▁조치를	-9082
▁시집	-9083
▁친일반	-9084
▁마케도니아	-9085
색은	-9086
씨와	-9087
▁중계	-9088
하니	-9089
자이며	-9090
중에서	-9091
▁르네상	-9092
▁형태가	-9093
▁마찰	-9094
▁이영	-9095
▁성공적인	-9096
▁유년	-9097
▁자식	-9098
▁디비전	-9099
▁하버드	-9100
71	-9101
▁꾀	-9102
겼고	-9103
물질	-9104
▁현장	-9105
론에서	-9106
테쓰	-9107
▁베타	-9108
▁무대에	-9109
▁어두운	-9110
▁1500	-9111
▁마음작용	-9112
:00	-9113
▁민속	-9114
▁방식은	-9115
▁위치하며	-9116
개는	-9117
르를	-9118
▁막부	-9119
▁사우디아라비아	-9120
▁레전	-9121
▁대서양	-9122
▁활약하고	-9123
포트	-9124
▁교섭	-9125
▁토마	-9126
▁늘어나	-9127
▁아리스	-9128
분교	-9129
▁최후	-9130
▁합법	-9131
▁또다시	-9132
▁무신	-9133
▁박탈	-9134
▁중앙에	-9135
▁굿	-9136
▁햄	-9137
우와	-9138
▁99	-9139
▁희극	-9140
▁어렵다	-9141
▁유소년	-9142
작품	-9143
▁곳이	-9144
기관이다	-9145
▁위기	-9146
▁일관	-9147
▁명예의	-9148
▁정의할	-9149
버러	-9150
▁연혁	-9151
원의원	-9152
▁다루고	-9153
▁가능하며	-9154
누리	-9155
▁끝이	-9156
▁집계	-9157
▁대주교	-9158
▁본선의	-9159
▁부정적인	-9160
▁병력	-9161
▁스파이	-9162
▁이르고	-9163
▁체제를	-9164
▁항공모	-9165
네의	-9166
▁저택	-9167
▁피부	-9168
▁연구하는	-9169
레의	-9170
▁김태	-9171
▁성은	-9172
▁트럭	-9173
4,	-9174
▁떼	-9175
천을	-9176
▁개원	-9177
▁김용	-9178
▁유니폼	-9179
age	-9180
▁무라	-9181
▁정찰	-9182
▁ISO	-9183
▁목록은	-9184
▁1909	-9185
소스	-9186
슨과	-9187
▁사상을	-9188
라이트	-9189
▁미스터	-9190
▁제조업	-9191
브는	-9192
양군	-9193
▁드림	-9194
케이션	-9195
▁따르는	-9196
미에	-9197
▁추모	-9198
내에서	-9199
▁철학자	-9200
▁샹	-9201
▁MC	-9202
▁단층	-9203
▁피고	-9204
차전에서	-9205
▁규정하고	-9206
▁도로이다	-9207
팀은	-9208
▁쿠르	-9209
▁피에	-9210
▁자유롭게	-9211
반응	-9212
측의	-9213
▁영화로	-9214
▁토대로	-9215
▁한동안	-9216
열이	-9217
▁82	-9218
▁공용	-9219
▁이슈	-9220
▁채로	-9221
▁때때로	-9222
▁속도를	-9223
가스	-9224
▁반지	-9225
세츠	-9226
▁부패	-9227
▁펴	-9228
렸을	-9229
▁의장	-9230
▁한국방송	-9231
모로	-9232
제프	-9233
▁세로	-9234
▁알라	-9235
▁성질을	-9236
▁연고로	-9237
오를	-9238
로동	-9239
초에	-9240
▁끊임	-9241
▁비공식	-9242
AD	-9243
▁주한	-9244
▁선수이자	-9245
▁방영되었다	-9246
▁동화	-9247
▁털이	-9248
▁사용이	-9249
▁약물	-9250
▁군사적	-9251
▁프랑스에서	-9252
▁죽을	-9253
▁노선은	-9254
형태	-9255
▁보상	-9256
▁펜실	-9257
▁라틴어	-9258
▁진정한	-9259
▁회의에서	-9260
▁중구	-9261
▁최저	-9262
있으며	-9263
▁물리적	-9264
79	-9265
▁바그	-9266
▁운동이	-9267
철은	-9268
▁기호	-9269
▁전당	-9270
▁김영삼	-9271
▁조직의	-9272
▁템	-9273
▁들은	-9274
▁출력	-9275
▁남쪽에	-9276
orld	-9277
▁곡으로	-9278
▁기록에	-9279
▁여수	-9280
▁오고	-9281
▁면에서	-9282
▁받기도	-9283
▁카이사	-9284
▁동메달을	-9285
두는	-9286
▁각기	-9287
▁고조	-9288
▁공무	-9289
▁무효	-9290
▁사육	-9291
▁신라의	-9292
▁스테이지	-9293
▁얀	-9294
▁차남	-9295
▁향한	-9296
트리올	-9297
▁개발된	-9298
▁관계로	-9299
인명	-9300
카를	-9301
▁이마	-9302
▁속도로	-9303
▁근접	-9304
▁바위	-9305
▁상임	-9306
▁오가	-9307
▁버전은	-9308
▁세균	-9309
▁수치	-9310
해방	-9311
▁갑작	-9312
▁부품	-9313
▁이리	-9314
▁없으나	-9315
▁금메달	-9316
▁보여주고	-9317
▁제목으로	-9318
▁파리에서	-9319
II	-9320
▁고도	-9321
▁훼손	-9322
▁CPU	-9323
원군	-9324
▁과거의	-9325
▁포인트	-9326
▁친일반민족행위	-9327
▁선을	-9328
▁안티	-9329
▁재편	-9330
▁학부	-9331
▁구조는	-9332
생산	-9333
▁무용	-9334
▁외의	-9335
▁진도	-9336
▁흐름	-9337
투아니아	-9338
종과	-9339
타케	-9340
▁실험을	-9341
▁주에서	-9342
▁아르헨티	-9343
▁필라델피아	-9344
▁흔들	-9345
▁득점을	-9346
▁빌헬름	-9347
▁사고로	-9348
년대에는	-9349
▁발견되는	-9350
란이	-9351
사령부	-9352
▁캘리포니아주	-9353
몬드	-9354
코드	-9355
▁내외	-9356
▁포괄	-9357
여객	-9358
홈런	-9359
▁리메이	-9360
작전	-9361
츠키	-9362
-21	-9363
▁MP	-9364
▁도심	-9365
▁동구	-9366
공은	-9367
츠와	-9368
▁윤리	-9369
▁화면	-9370
▁근처의	-9371
▁미나미	-9372
▁플레이어	-9373
▁동독	-9374
▁흥행	-9375
▁구체적으로	-9376
▁복사	-9377
▁양도	-9378
▁장면	-9379
▁땅에	-9380
▁부른	-9381
▁보내는	-9382
▁선언했다	-9383
▁팩	-9384
int	-9385
▁달러의	-9386
한을	-9387
금으로	-9388
▁광범위한	-9389
▁수신	-9390
▁얻는	-9391
▁사실은	-9392
▁은메달을	-9393
▁찾아가	-9394
▁연방의	-9395
님이	-9396
열의	-9397
▁석조	-9398
▁원리	-9399
▁그림을	-9400
▁에스토	-9401
▁사용하며	-9402
▁오스트리아의	-9403
▁몸무게는	-9404
▁둘은	-9405
▁점유	-9406
▁때로는	-9407
▁세워졌다	-9408
메라	-9409
우며	-9410
▁우즈	-9411
아메리카	-9412
과이	-9413
▁건의	-9414
▁맡게	-9415
▁추증	-9416
▁룩	-9417
▁공전	-9418
▁위안	-9419
▁주축	-9420
▁Pro	-9421
▁럭	-9422
▁롬	-9423
▁반박	-9424
▁안타	-9425
▁왕으로	-9426
▁꿈을	-9427
▁부착	-9428
▁캠페	-9429
▁형식을	-9430
▁황제가	-9431
▁껍	-9432
▁공학	-9433
▁보충	-9434
▁역과	-9435
▁카탈	-9436
▁대폭	-9437
▁별의	-9438
세에게	-9439
▁거기에	-9440
▁한국에	-9441
▁후보를	-9442
▁사용하기	-9443
심한	-9444
아키	-9445
자원	-9446
▁심판	-9447
▁학자	-9448
▁기온은	-9449
▁제주특별자치	-9450
디가	-9451
았을	-9452
연속	-9453
▁의지	-9454
▁임명되어	-9455
▁살던	-9456
▁특급	-9457
상으로는	-9458
수수	-9459
▁길고	-9460
라이더	-9461
▁대전광역시	-9462
음으로	-9463
치면서	-9464
▁작품에	-9465
▁중심의	-9466
▁에스파냐	-9467
숙한	-9468
▁군은	-9469
▁진영	-9470
▁침해	-9471
주년을	-9472
▁원자로	-9473
버는	-9474
해주	-9475
▁무죄	-9476
▁보니	-9477
간이	-9478
▁Ar	-9479
▁뿌리	-9480
▁자발	-9481
형이다	-9482
▁소재로	-9483
▁발매했다	-9484
▁모시	-9485
▁사르	-9486
▁사직	-9487
받는다	-9488
▁둘러싼	-9489
▁1915	-9490
▁몬트리올	-9491
oy	-9492
▁IT	-9493
▁급속	-9494
네스코	-9495
▁부르며	-9496
▁회사는	-9497
▁일본으로	-9498
▁낮아	-9499
▁법을	-9500
▁얻기	-9501
▁의원은	-9502
▁출시된	-9503
▁트라이	-9504
▁거주하는	-9505
강점	-9506
▁모드	-9507
▁세대	-9508
브리지	-9509
스트의	-9510
▁왕위를	-9511
▁68	-9512
▁팽창	-9513
▁영국은	-9514
sp	-9515
▁얘	-9516
▁석탄	-9517
▁스릴	-9518
▁침몰	-9519
▁케네	-9520
내셔널	-9521
▁아니면	-9522
▁알려지지	-9523
누엘	-9524
▁공의	-9525
▁라트	-9526
생으로	-9527
ov	-9528
시민	-9529
▁나가사키	-9530
▁학생들이	-9531
곡의	-9532
불교	-9533
▁안의	-9534
her	-9535
▁신흥	-9536
▁좋다	-9537
▁창업	-9538
▁건너가	-9539
내기	-9540
▁빛의	-9541
▁캄보	-9542
▁후지와	-9543
사항	-9544
▁강이	-9545
▁관통	-9546
▁도구	-9547
▁성공한	-9548
▁싫어	-9549
▁창시	-9550
▁노래는	-9551
▁특징은	-9552
▁폴란드의	-9553
▁이인	-9554
▁서울에서	-9555
란은	-9556
▁중순	-9557
▁부천	-9558
▁다니엘	-9559
▁알바니아	-9560
란트	-9561
▁급행	-9562
바흐	-9563
▁곡의	-9564
▁시로	-9565
▁특유의	-9566
▁돌아갔다	-9567
▁실종	-9568
▁캠퍼	-9569
▁형식의	-9570
▁DS	-9571
▁분광	-9572
▁이바	-9573
▁풀려	-9574
▁민주화	-9575
▁베네수엘	-9576
OP	-9577
주일	-9578
자리에	-9579
▁전한다	-9580
▁3000	-9581
▁이듬해인	-9582
▁기요	-9583
▁사기	-9584
▁멤버로	-9585
▁서머	-9586
▁시그	-9587
▁5000	-9588
GC	-9589
▁펀	-9590
▁따뜻	-9591
▁양키	-9592
이었다고	-9593
매치	-9594
▁개업	-9595
▁과학기술	-9596
예프	-9597
터스	-9598
훈은	-9599
▁과정은	-9600
▁리버풀	-9601
▁진출하였다	-9602
▁소닉	-9603
리아는	-9604
▁출토	-9605
▁발생할	-9606
▁정부와	-9607
▁1913	-9608
▁오키나와	-9609
▁감지	-9610
▁수수	-9611
▁보스니아	-9612
▁사료	-9613
▁지각	-9614
▁그러자	-9615
▁아이를	-9616
▁전부터	-9617
▁시작하는	-9618
▁안드레	-9619
▁토너먼트	-9620
▁자율	-9621
▁향을	-9622
▁노력을	-9623
▁전세계	-9624
▁운행하는	-9625
▁이나	-9626
▁끝나고	-9627
▁이광	-9628
▁짓고	-9629
▁클린	-9630
스러	-9631
~19	-9632
▁사천	-9633
▁정확하게	-9634
목이	-9635
▁장의	-9636
▁스파르타	-9637
런트	-9638
▁성씨	-9639
어진다	-9640
▁의견이	-9641
▁된다고	-9642
▁셈	-9643
미로	-9644
설이	-9645
▁명문	-9646
거는	-9647
▁김재	-9648
▁삼고	-9649
▁시라	-9650
▁평행	-9651
중에는	-9652
▁링컨	-9653
▁스리	-9654
▁유신	-9655
▁일조	-9656
▁하얀	-9657
▁특이한	-9658
▁비슷하다	-9659
▁차례로	-9660
▁신용	-9661
카라	-9662
▁배를	-9663
▁요르	-9664
▁1.5	-9665
▁네이버	-9666
▁언제나	-9667
▁들어가는	-9668
▁인정받아	-9669
▁작고	-9670
▁줄어	-9671
격이	-9672
스파	-9673
▁김진	-9674
스에게	-9675
▁프랑스와	-9676
▁하인리히	-9677
능력	-9678
위대	-9679
-11	-9680
▁강경	-9681
▁번호	-9682
▁유출	-9683
▁하야	-9684
▁파운드	-9685
▁분데스리가	-9686
▁안산	-9687
▁에디	-9688
▁필름	-9689
학위를	-9690
▁재산을	-9691
IM	-9692
경영	-9693
▁개관	-9694
▁물에	-9695
▁창건	-9696
▁독일에서	-9697
▁연속으로	-9698
▁일제강점	-9699
▁삿	-9700
▁톈	-9701
ome	-9702
▁72	-9703
▁아폴	-9704
▁의병	-9705
▁1895	-9706
▁아틀레	-9707
▁생각된다	-9708
73	-9709
함의	-9710
▁비즈니스	-9711
처리	-9712
▁기체	-9713
▁풀어	-9714
▁건물을	-9715
▁발견한	-9716
▁컨트롤	-9717
자연	-9718
▁66	-9719
▁리눅스	-9720
▁홈페이지	-9721
?"	-9722
▁세미	-9723
▁경우를	-9724
▁캐스팅	-9725
▁닥터	-9726
▁배틀	-9727
▁하였는데	-9728
ee	-9729
~3	-9730
▁닿	-9731
티의	-9732
▁고분	-9733
▁잃은	-9734
량으로	-9735
▁밴드는	-9736
▁이미지를	-9737
▁등재	-9738
▁조직을	-9739
사추세츠	-9740
▁설립하였다	-9741
▁섬을	-9742
▁쓰인	-9743
▁제외하고는	-9744
희의	-9745
▁관직	-9746
▁증권	-9747
번뇌	-9748
번을	-9749
풍을	-9750
▁생기는	-9751
▁점이다	-9752
▁집으로	-9753
▁판결을	-9754
▁지냈으며	-9755
너의	-9756
400	-9757
▁조반	-9758
▁모델을	-9759
▁분리되어	-9760
▁PD	-9761
▁명백	-9762
▁일으키는	-9763
▁지속적인	-9764
▁텔	-9765
▁교외	-9766
▁전쟁으로	-9767
진으로	-9768
▁걱	-9769
▁에버	-9770
▁레이저	-9771
▁정교회	-9772
▁죽이고	-9773
하였다는	-9774
▁왕족	-9775
박스	-9776
▁달린	-9777
▁소속이다	-9778
▁헐	-9779
이라도	-9780
▁영역을	-9781
▁시작되어	-9782
pp	-9783
레를	-9784
▁못할	-9785
▁중독	-9786
▁함유	-9787
▁기록하여	-9788
▁제작되었다	-9789
ian	-9790
▁라스	-9791
▁형법	-9792
하우스	-9793
▁누르고	-9794
▁원작으로	-9795
▁다중	-9796
▁부과	-9797
▁역임한	-9798
▁정책에	-9799
▁트레이드	-9800
-17	-9801
▁당대	-9802
▁며칠	-9803
▁라이선	-9804
▁어려움을	-9805
생이	-9806
티모	-9807
▁""	-9808
▁방송국	-9809
▁않았기	-9810
▁디스플레이	-9811
▁밝혔	-9812
▁이틀	-9813
▁이화	-9814
▁호세	-9815
▁운행을	-9816
▁일했다	-9817
▁허리케	-9818
소방	-9819
▁객관	-9820
▁낙선	-9821
▁다녀	-9822
▁남부의	-9823
▁시즌에는	-9824
▁이반	-9825
▁페어	-9826
▁모두가	-9827
▁시기는	-9828
▁지금도	-9829
▁하거나	-9830
법인이다	-9831
스부르크	-9832
인들	-9833
▁우연히	-9834
▁분류된다	-9835
초를	-9836
어이다	-9837
제국의	-9838
▁사용될	-9839
지붕	-9840
▁서해	-9841
아리	-9842
트니	-9843
-12	-9844
▁평등	-9845
▁행적	-9846
▁아이슬	-9847
▁거리가	-9848
▁그렇지	-9849
층은	-9850
▁도호쿠	-9851
있던	-9852
▁알코	-9853
▁제갈	-9854
▁죄를	-9855
▁중심이	-9856
실과	-9857
치료	-9858
▁약화	-9859
학교에	-9860
▁전에는	-9861
▁컬럼비아	-9862
▁바꿔	-9863
▁좌파	-9864
▁꽤	-9865
속을	-9866
▁59	-9867
▁번식	-9868
▁친정	-9869
▁형태는	-9870
▁팔레스타	-9871
기준	-9872
▁신비	-9873
▁선거를	-9874
▁진출했다	-9875
▁평소	-9876
▁화살	-9877
가에서	-9878
점이다	-9879
▁독일은	-9880
,8	-9881
▁대처	-9882
▁두루	-9883
▁갓	-9884
OV	-9885
무기	-9886
▁날짜	-9887
▁용이	-9888
▁스핀	-9889
으로의	-9890
▁총선거	-9891
러가	-9892
민을	-9893
▁느낀	-9894
▁관현악	-9895
지나	-9896
▁영남	-9897
▁촉구	-9898
리면서	-9899
▁고무	-9900
▁교구	-9901
▁지명을	-9902
스카야	-9903
▁건물이	-9904
:1	-9905
손은	-9906
▁써서	-9907
▁몰려	-9908
▁백악	-9909
▁분배	-9910
▁외곽	-9911
▁뉴욕에서	-9912
▁on	-9913
▁식별	-9914
▁안장	-9915
▁액체	-9916
▁아이템	-9917
▁유네스코	-9918
▁동물의	-9919
▁의사를	-9920
▁성립한다	-9921
▁프로야구	-9922
▁잦	-9923
르노	-9924
왕에	-9925
책임	-9926
▁수평	-9927
▁알제	-9928
롤라이나	-9929
▁무소	-9930
▁지폐	-9931
▁팀에	-9932
▁포로	-9933
기기	-9934
보도	-9935
양은	-9936
ire	-9937
▁관습	-9938
▁리스	-9939
▁체계를	-9940
▁확인되었다	-9941
▁싶어	-9942
정부의	-9943
▁지방에서	-9944
예를	-9945
▁이력	-9946
▁해인	-9947
▁소수의	-9948
선언	-9949
타니	-9950
▁77	-9951
▁가벼	-9952
▁추상	-9953
▁목표를	-9954
▁식으로	-9955
▁영향력	-9956
▁주제가	-9957
▁친일인명	-9958
▁수렴	-9959
시까지	-9960
▁마이너	-9961
▁일어날	-9962
주곡	-9963
▁GT	-9964
▁Con	-9965
▁차지한	-9966
▁이루었다	-9967
에너	-9968
ace	-9969
▁고지	-9970
▁스쿨	-9971
▁광주광역시	-9972
주식	-9973
▁중기의	-9974
▁긍정적인	-9975
▁멕시코의	-9976
▁원내	-9977
▁할당	-9978
▁들어오	-9979
▁출전해	-9980
▁차기	-9981
화하고	-9982
▁145	-9983
▁투르크	-9984
▁비례대표	-9985
고도	-9986
▁미토	-9987
▁신하	-9988
▁후안	-9989
▁여기에는	-9990
▁상원	-9991
▁분야에	-9992
▁CE	-9993
▁김포	-9994
▁회담	-9995
▁스릴러	-9996
자본	-9997
▁검증	-9998
마사	-9999
바이잔	-10000
▁위협을	-10001
마치	-10002
수인	-10003
자도	-10004
▁멈추	-10005
▁불을	-10006
▁자신에게	-10007
▁엉	-10008
▁트랜스	-10009
▁시나리오	-10010
▁시작된다	-10011
범한	-10012
▁상세	-10013
▁염색	-10014
▁장난	-10015
▁쫓겨	-10016
▁155	-10017
▁고려의	-10018
,0	-10019
ber	-10020
▁바실	-10021
▁일에	-10022
▁퍼시픽	-10023
▁대통령을	-10024
▁리메이크	-10025
파일	-10026
마와	-10027
▁아벨	-10028
▁애덤	-10029
▁스티브	-10030
▁설립했다	-10031
▁치열	-10032
▁나이지	-10033
러의	-10034
▁아즈	-10035
▁외야	-10036
▁출연한	-10037
▁조건으로	-10038
▁내고	-10039
▁대니	-10040
▁마오	-10041
▁미치	-10042
▁만화가	-10043
사우루스	-10044
시노	-10045
▁영동	-10046
▁과정에	-10047
▁라이언	-10048
▁에티오	-10049
식품	-10050
-16	-10051
▁내야	-10052
▁호칭	-10053
▁맡았고	-10054
▁교도	-10055
▁숙종	-10056
소이다	-10057
▁하드웨어	-10058
도비	-10059
전사	-10060
환이	-10061
▁동래	-10062
▁루스	-10063
▁기념물	-10064
▁나갔다	-10065
▁활동은	-10066
▁고발	-10067
▁관람	-10068
▁쉬운	-10069
▁모델은	-10070
제르바이잔	-10071
▁듯한	-10072
▁비단	-10073
자리를	-10074
▁맞추어	-10075
라리	-10076
▁전세	-10077
▁거주하고	-10078
OL	-10079
권도	-10080
▁내보	-10081
▁바닷	-10082
▁준우승을	-10083
분석	-10084
▁소총	-10085
▁향후	-10086
▁주를	-10087
▁되었을	-10088
▁전신	-10089
▁제수	-10090
슈타인	-10091
▁사회에	-10092
▁언더	-10093
▁입체	-10094
▁국가대표팀의	-10095
행의	-10096
ust	-10097
▁총괄	-10098
▁한계	-10099
화하여	-10100
▁부문에	-10101
▁아래로	-10102
▁일어났	-10103
▁식량	-10104
▁속도가	-10105
▁했다는	-10106
▁한국전쟁	-10107
실험	-10108
▁공직	-10109
▁비서	-10110
결합	-10111
투를	-10112
▁NC	-10113
▁광산	-10114
▁봉사	-10115
▁요크	-10116
▁후일	-10117
▁공사가	-10118
▁수행하는	-10119
▁있어서는	-10120
▁것인	-10121
▁수업	-10122
▁전례	-10123
단이다	-10124
▁스튜어	-10125
▁스피드	-10126
비나	-10127
올로	-10128
▁구리	-10129
▁기갑	-10130
▁메타	-10131
년간의	-10132
▁국가에	-10133
▁엘리베이	-10134
▁미국에서는	-10135
▁아이슬란드	-10136
▁밟	-10137
받을	-10138
천은	-10139
▁건물의	-10140
!"	-10141
▁붓	-10142
▁김상	-10143
▁복지	-10144
▁신생	-10145
▁편리	-10146
▁다음에	-10147
▁레전드	-10148
AL	-10149
SS	-10150
▁종결	-10151
▁속으로	-10152
▁닭	-10153
▁키프로	-10154
▁어울	-10155
▁대회의	-10156
▁영화에	-10157
▁상징하는	-10158
▁공채	-10159
▁종의	-10160
▁여행을	-10161
▁되었지만	-10162
사태	-10163
▁부를	-10164
자스	-10165
▁게오	-10166
▁둥근	-10167
학자인	-10168
▁칼리지	-10169
▁자본주의	-10170
공립	-10171
일드	-10172
ite	-10173
▁탓에	-10174
▁가난한	-10175
▁진행된	-10176
시내	-10177
▁조항	-10178
▁중도	-10179
유적	-10180
▁매출	-10181
▁엔지	-10182
▁이노	-10183
▁나아	-10184
▁바뀐	-10185
▁장로	-10186
호선은	-10187
▁화제가	-10188
▁비슷하게	-10189
pt	-10190
르지	-10191
▁간부	-10192
▁돌연	-10193
▁시는	-10194
▁만났다	-10195
▁왕비	-10196
IP	-10197
포의	-10198
▁기지	-10199
하였기	-10200
▁선교사	-10201
▁행성의	-10202
돌이	-10203
▁열고	-10204
▁리비아	-10205
▁무거운	-10206
▁쌓아	-10207
▁아세	-10208
▁개혁을	-10209
해와	-10210
▁쇼핑	-10211
▁마이크	-10212
▁남아있는	-10213
▁급격히	-10214
▁진나라	-10215
산성	-10216
▁계절	-10217
▁내린	-10218
▁단종	-10219
▁볼리	-10220
▁NBA	-10221
▁은퇴를	-10222
▁지나치게	-10223
▁후쿠시마	-10224
야가	-10225
▁끌려	-10226
▁범위	-10227
.25	-10228
▁()	-10229
▁전인	-10230
▁교수는	-10231
하겠다는	-10232
▁움직이는	-10233
질은	-10234
▁이곳은	-10235
목적	-10236
▁로열	-10237
▁버튼	-10238
▁작센	-10239
▁통근	-10240
바닥	-10241
▁FM	-10242
▁걸어	-10243
▁격퇴	-10244
▁강제로	-10245
▁글리	-10246
▁신속	-10247
▁찾기	-10248
▁오렌지	-10249
▁훔	-10250
그레	-10251
우주연	-10252
▁기록된	-10253
▁시즌의	-10254
▁제품을	-10255
▁재활	-10256
▁공화당	-10257
▁어려움	-10258
▁지어졌다	-10259
▁측면에서	-10260
▁김대중	-10261
▁실시간	-10262
▁애틀랜	-10263
십자	-10264
▁조상	-10265
편으로	-10266
▁자신과	-10267
▁조문이다	-10268
▁63	-10269
▁누군	-10270
▁폐위	-10271
▁사랑의	-10272
▁숨겨	-10273
▁승강장은	-10274
고쿠	-10275
▁극히	-10276
타리오	-10277
▁개발에	-10278
노프	-10279
학이	-10280
▁김수	-10281
▁들이	-10282
▁어휘	-10283
▁공간의	-10284
▁공동체	-10285
▁보한다	-10286
▁1916	-10287
600	-10288
▁군수	-10289
▁드럼	-10290
▁라우	-10291
각이	-10292
푸르트	-10293
▁대학을	-10294
▁받았으나	-10295
미국	-10296
▁||	-10297
▁결과에	-10298
▁구조로	-10299
▁지점에	-10300
▁도움으로	-10301
▁있었다는	-10302
▁끓	-10303
서울	-10304
▁동년	-10305
▁손자	-10306
▁십자가	-10307
▁소환	-10308
▁실린	-10309
▁해운	-10310
이었기	-10311
▁참여하여	-10312
결정	-10313
▁관중	-10314
▁병행	-10315
▁마음이	-10316
▁설치류의	-10317
▁뿔	-10318
▁거론	-10319
▁뜻의	-10320
클랜드	-10321
하였다가	-10322
▁않았으나	-10323
석기	-10324
▁중소	-10325
▁노무현	-10326
▁앓	-10327
망이	-10328
▁김기	-10329
베르토	-10330
▁소유하고	-10331
질로	-10332
크리	-10333
▁받기	-10334
▁토니	-10335
▁대법원	-10336
▁꼴	-10337
레아	-10338
빈은	-10339
▁휠	-10340
▁시칠	-10341
▁전선	-10342
▁증기	-10343
▁치러진	-10344
▁선수들이	-10345
▁참가하는	-10346
▁진동	-10347
▁이상으로	-10348
▁남원	-10349
▁미주	-10350
▁성모	-10351
▁전념	-10352
▁지혜	-10353
▁채권	-10354
로니	-10355
하려면	-10356
TC	-10357
▁봐	-10358
일간	-10359
해왔다	-10360
▁선거구	-10361
▁활발한	-10362
▁매카	-10363
▁인물을	-10364
▁아버지와	-10365
음과	-10366
~20	-10367
▁신념	-10368
▁일도	-10369
▁줄기	-10370
▁부장	-10371
▁선구	-10372
▁왕자	-10373
▁첨가	-10374
원들이	-10375
▁할리우	-10376
▁참가하고	-10377
▁좌절	-10378
▁나섰다	-10379
▁나이가	-10380
▁일시적으로	-10381
▁깨달	-10382
▁성당	-10383
▁의뢰	-10384
▁해밀	-10385
래스카	-10386
▁작곡한	-10387
▁전자기	-10388
포가	-10389
▁Wh	-10390
▁매개	-10391
▁옷을	-10392
▁작위를	-10393
▁시절부터	-10394
for	-10395
▁리치	-10396
▁막내	-10397
▁것에서	-10398
▁기간에	-10399
▁니콜라	-10400
▁페르난	-10401
▁매사추세츠	-10402
운트	-10403
스트를	-10404
▁전체가	-10405
▁실려	-10406
▁전제	-10407
▁정렬	-10408
고래	-10409
해군	-10410
▁신규	-10411
▁오하이	-10412
▁페르디	-10413
길을	-10414
턴의	-10415
▁곡이다	-10416
산면	-10417
▁평택	-10418
철도의	-10419
▁IBM	-10420
▁나타낼	-10421
HE	-10422
▁로즈	-10423
때문에	-10424
기관으로	-10425
▁성공하였다	-10426
▁권위	-10427
▁손해	-10428
▁주석	-10429
일에서	-10430
▁정이다	-10431
문제연구	-10432
전도	-10433
▁문법	-10434
▁오빠	-10435
▁전진	-10436
▁직선	-10437
▁힘입	-10438
톨레	-10439
▁노비	-10440
▁닛폰	-10441
▁모방	-10442
▁에이스	-10443
▁히데요	-10444
▁강과	-10445
▁끝까지	-10446
▁활약했다	-10447
▁진짜	-10448
원들은	-10449
▁찌	-10450
감에	-10451
ies	-10452
▁날아	-10453
▁교수가	-10454
_8	-10455
하우	-10456
▁Te	-10457
▁장려	-10458
▁치명	-10459
▁평창	-10460
▁드러나	-10461
▁휴스턴	-10462
▁아니지만	-10463
야를	-10464
대한민	-10465
▁생각하는	-10466
자책	-10467
▁군에	-10468
▁눈이	-10469
해지는	-10470
▁사헌	-10471
▁구조가	-10472
▁차가	-10473
▁시설이	-10474
▁주장하고	-10475
대교	-10476
▁서사	-10477
▁좌표	-10478
▁해주	-10479
▁학교에서	-10480
▁개화	-10481
터미널	-10482
▁소설을	-10483
▁중요하다	-10484
ark	-10485
▁진정	-10486
▁th	-10487
▁군단	-10488
▁나라에서	-10489
▁플레이스테이션	-10490
동시	-10491
▁오오	-10492
▁넣었다	-10493
▁새겨져	-10494
▁아마도	-10495
▁낼	-10496
▁보전	-10497
▁영의	-10498
▁주소	-10499
▁레논	-10500
▁먹고	-10501
▁영상을	-10502
▁실질적인	-10503
▁우승하였다	-10504
▁딸을	-10505
시부터	-10506
▁동명의	-10507
▁비오	-10508
▁현저	-10509
▁쓰이고	-10510
_9	-10511
셰비	-10512
▁소실	-10513
▁한미	-10514
▁라트비아	-10515
쟁이	-10516
▁It	-10517
▁아인	-10518
▁임기	-10519
▁춘천	-10520
▁관리하고	-10521
▁곡이	-10522
▁유격	-10523
▁통칭	-10524
류이다	-10525
▁코무네	-10526
▁방법이다	-10527
▁스케이팅	-10528
▁아제르바이잔	-10529
▁거행	-10530
▁피어	-10531
▁여성이	-10532
림이	-10533
바스	-10534
주쿠	-10535
▁우울	-10536
▁계획에	-10537
▁공사를	-10538
▁그레고	-10539
▁별다른	-10540
▁결혼했다	-10541
서도	-10542
안타	-10543
▁매달	-10544
▁발원	-10545
▁교육과	-10546
▁활약한	-10547
란히	-10548
▁헤드	-10549
▁등장했다	-10550
▁SP	-10551
▁인플	-10552
▁대학에	-10553
▁울산광역시	-10554
무스	-10555
인치	-10556
청에	-10557
▁목사	-10558
▁조금씩	-10559
회담	-10560
▁충격을	-10561
▁계몽	-10562
▁말기	-10563
▁왜냐	-10564
▁잭슨	-10565
▁부대를	-10566
▁성균관	-10567
▁생각하고	-10568
▁요소가	-10569
▁맞지	-10570
▁한쪽	-10571
▁정부로부터	-10572
채를	-10573
▁놓은	-10574
▁다리를	-10575
각은	-10576
보안	-10577
▁경비	-10578
▁관장	-10579
▁그중	-10580
▁검은색	-10581
▁부분적으로	-10582
극장	-10583
약품	-10584
풍의	-10585
▁시흥	-10586
▁존중	-10587
▁해를	-10588
학적으로	-10589
,7	-10590
▁개그	-10591
▁소니	-10592
▁교차로	-10593
일체	-10594
▁안쪽	-10595
▁정면	-10596
왔으며	-10597
FM	-10598
▁운동은	-10599
▁일요일	-10600
▁조선인	-10601
▁인정하지	-10602
▁중심기압	-10603
회장	-10604
▁다항	-10605
▁주차	-10606
▁아사히	-10607
▁일컫는	-10608
▁프랭크	-10609
강전	-10610
▁회고	-10611
▁국방부	-10612
▁알렸다	-10613
MA	-10614
▁옌	-10615
정당	-10616
▁LP	-10617
▁물고	-10618
스와의	-10619
▁음악의	-10620
버스터미널	-10621
▁쇼와	-10622
▁유언	-10623
▁게이트	-10624
고등학교를	-10625
▁데이터베이스	-10626
사리	-10627
▁비평	-10628
구성	-10629
헤이	-10630
▁문장	-10631
▁배구	-10632
▁연구소	-10633
▁의회는	-10634
▁담당하고	-10635
,5	-10636
▁나쁜	-10637
▁충주	-10638
▁경기에서는	-10639
ft	-10640
봉을	-10641
▁Co	-10642
▁구릉	-10643
▁바른	-10644
▁총재	-10645
▁하락	-10646
▁문서는	-10647
▁양식을	-10648
통이	-10649
▁이진	-10650
▁협의	-10651
년동안	-10652
▁만나게	-10653
브의	-10654
소득	-10655
층이	-10656
inc	-10657
ran	-10658
▁사토	-10659
▁평면	-10660
▁바꾸어	-10661
▁별칭	-10662
▁부적	-10663
▁탈환	-10664
마르크	-10665
당하였다	-10666
▁학자들은	-10667
작의	-10668
▁굉장	-10669
▁나눌	-10670
▁섬은	-10671
▁부동산	-10672
▁승인을	-10673
▁정리한	-10674
▁98	-10675
▁보완	-10676
시에는	-10677
▁군대의	-10678
▁새누리	-10679
▁이에야	-10680
▁펜실베이	-10681
▁참고로	-10682
▁연호	-10683
렸으나	-10684
▁경제학	-10685
니시	-10686
▁만의	-10687
포구	-10688
▁경험이	-10689
▁요미우리	-10690
nt	-10691
방은	-10692
▁장학	-10693
쥐과에	-10694
▁햇	-10695
번에	-10696
번은	-10697
▁상상	-10698
▁환원	-10699
▁사이가	-10700
▁최후의	-10701
▁시켜	-10702
▁2.0	-10703
▁서쪽에	-10704
▁둘러싸고	-10705
▁앨범이다	-10706
▁일어나자	-10707
▁진행된다	-10708
▁솟	-10709
리라	-10710
▁경부	-10711
▁상반	-10712
▁육성	-10713
▁트루	-10714
▁불교의	-10715
리그에서	-10716
▁탤	-10717
짜리	-10718
▁야간	-10719
▁부대는	-10720
링은	-10721
▁본사는	-10722
▁칭호를	-10723
CD	-10724
▁명에	-10725
▁쓰였다	-10726
▁개발되었다	-10727
카타	-10728
ile	-10729
려서	-10730
여성	-10731
▁거리는	-10732
▁마쳤다	-10733
▁대웅	-10734
▁역설	-10735
▁데뷔를	-10736
▁진출을	-10737
▁출산	-10738
▁세계대	-10739
▁멋	-10740
▁공인	-10741
▁길게	-10742
▁선수를	-10743
▁않았다고	-10744
▁단위로	-10745
▁영어로	-10746
▁정신적	-10747
▁준비를	-10748
▁회사를	-10749
▁성우이다	-10750
▁보지	-10751
▁이끈	-10752
▁투구	-10753
체제	-10754
▁권고	-10755
▁딘	-10756
만원	-10757
화에서	-10758
▁귀중한	-10759
▁규모는	-10760
▁대상을	-10761
▁움직임	-10762
▁잃어버	-10763
▁요구했다	-10764
▁쥬	-10765
▁슬라	-10766
▁억압	-10767
▁코어	-10768
프랑스	-10769
▁부족한	-10770
▁얻는다	-10771
▁관할하는	-10772
▁여기에서	-10773
▁모으	-10774
▁코트	-10775
▁건물로	-10776
▁결정적인	-10777
▁이집트의	-10778
▁kg	-10779
증으로	-10780
▁사회를	-10781
▁인물이	-10782
시안	-10783
차와	-10784
▁몸에	-10785
▁부부	-10786
▁로스앤젤레스에서	-10787
말라	-10788
▁mm	-10789
▁아부	-10790
▁덧붙여	-10791
▁천문학	-10792
됨으로써	-10793
미쓰	-10794
벤처	-10795
전선	-10796
▁두어	-10797
▁라파	-10798
달라고	-10799
▁시절에는	-10800
년이다	-10801
▁우라늄	-10802
▁최근의	-10803
xt	-10804
▁그날	-10805
되지는	-10806
▁비용을	-10807
▁지정된	-10808
▁프랑스어	-10809
냈고	-10810
위안	-10811
ide	-10812
▁관념	-10813
▁전압	-10814
▁물고기	-10815
▁시점에서	-10816
놓은	-10817
▁시초	-10818
주기	-10819
통의	-10820
▁음식을	-10821
가고	-10822
▁AK	-10823
▁만남	-10824
▁색을	-10825
▁아예	-10826
도마뱀	-10827
▁거제	-10828
▁대관	-10829
▁유죄	-10830
▁제사	-10831
▁시내버스	-10832
려면	-10833
커니즘	-10834
▁생겼다	-10835
▁저명한	-10836
▁댐	-10837
나우	-10838
다지	-10839
척의	-10840
츠가	-10841
▁깨닫	-10842
▁오라	-10843
▁존재하며	-10844
보건	-10845
서야	-10846
▁산소	-10847
인들과	-10848
▁배웠다	-10849
▁펼쳤다	-10850
▁중에서는	-10851
▁왕은	-10852
▁이긴	-10853
게이머	-10854
▁용어를	-10855
▁왓	-10856
박한	-10857
▁송시	-10858
▁고양이	-10859
▁동쪽에	-10860
▁조선인민	-10861
감과	-10862
▁서식하는	-10863
▁갇	-10864
▁섬유	-10865
▁주류	-10866
▁초등	-10867
권에서	-10868
▁닌텐도	-10869
▁시스템이	-10870
▁카자흐스탄	-10871
라트	-10872
▁//	-10873
▁cm	-10874
▁담긴	-10875
▁초연	-10876
▁2,000	-10877
▁낭만	-10878
ment	-10879
▁가짜	-10880
공산당	-10881
지역의	-10882
▁국가는	-10883
아일랜드	-10884
▁있으면서	-10885
▁엽	-10886
▁구동	-10887
▁연결된	-10888
각의	-10889
▁민사	-10890
▁통행	-10891
▁기술의	-10892
▁웨일스	-10893
▁사라졌다	-10894
▁시작하였고	-10895
▁야당	-10896
▁이라	-10897
▁충북	-10898
▁국가로	-10899
▁일본을	-10900
▁중간에	-10901
▁비판했다	-10902
▁구는	-10903
▁추출	-10904
▁추정되는	-10905
▁턱	-10906
나스	-10907
제한	-10908
▁연세	-10909
▁밑에서	-10910
▁잠수함	-10911
▁미노	-10912
가이자	-10913
▁신호를	-10914
▁활동하는	-10915
미노	-10916
작이	-10917
▁62	-10918
▁높고	-10919
▁얻고	-10920
▁각본을	-10921
▁겪었다	-10922
▁승리한	-10923
▁아미노	-10924
▁앨범의	-10925
▁제외하면	-10926
루와	-10927
모와	-10928
▁김경	-10929
▁리틀	-10930
▁시계	-10931
▁해변	-10932
▁하나였다	-10933
▁하더라도	-10934
녀를	-10935
▁카롤	-10936
▁기점으로	-10937
▁셸	-10938
▁감정을	-10939
▁시설을	-10940
▁이산화	-10941
▁사무실은	-10942
▁거느리고	-10943
▁AR	-10944
▁기습	-10945
▁성별	-10946
▁조명	-10947
거리는	-10948
베트남	-10949
▁초반에	-10950
▁변경하였다	-10951
리야	-10952
시즘	-10953
창을	-10954
▁RNA	-10955
▁기리기	-10956
▁동아일보	-10957
▁지적했다	-10958
▁놓았다	-10959
놓고	-10960
▁갈아	-10961
▁총대	-10962
강에서	-10963
▁CON	-10964
▁않는다고	-10965
▁난징	-10966
▁느껴	-10967
열대	-10968
▁상수	-10969
▁아는	-10970
▁쫓아	-10971
▁플랑	-10972
▁사이드	-10973
▁하나이며	-10974
▁대한민국에	-10975
▁빠진	-10976
이면서	-10977
▁생각해	-10978
▁선보였다	-10979
▁왜냐하면	-10980
▁발매하였다	-10981
구르	-10982
채널	-10983
▁기름	-10984
▁디오	-10985
▁사건이다	-10986
▁고수	-10987
▁사원	-10988
▁팀인	-10989
▁호평을	-10990
리조	-10991
▁띠고	-10992
▁부호	-10993
▁연령	-10994
▁자금을	-10995
▁펜실베이니아	-10996
▁추격	-10997
▁학위	-10998
▁도착한	-10999
▁엔진은	-11000
▁참여하는	-11001
▁프랑수아	-11002
▁아일랜드의	-11003
루션	-11004
년대의	-11005
▁굉장히	-11006
▁시즌이	-11007
강은	-11008
▁컬러	-11009
▁태종	-11010
대회에서	-11011
▁도주	-11012
즈에서	-11013
▁자체는	-11014
▁단단	-11015
▁모형	-11016
이거나	-11017
▁마을의	-11018
▁최상위	-11019
▁순회	-11020
▁채무	-11021
▁신한	-11022
▁조달	-11023
▁인터페이스	-11024
▁초과	-11025
▁투옥	-11026
▁KIA	-11027
▁지식을	-11028
▁문화체육	-11029
▁난이	-11030
▁이윤	-11031
▁협약	-11032
▁이야기는	-11033
▁고려대학교	-11034
▁블라디미르	-11035
▁이루어지고	-11036
릴라	-11037
▁몰래	-11038
ound	-11039
▁125	-11040
▁차원에서	-11041
▁더글	-11042
▁서정	-11043
▁안보	-11044
▁태도를	-11045
▁선수이며	-11046
디나	-11047
찬을	-11048
▁부수	-11049
▁업그	-11050
▁종은	-11051
▁인접한	-11052
▁찾아볼	-11053
네가	-11054
▁결론	-11055
▁지방을	-11056
▁담겨	-11057
▁수동	-11058
▁기능은	-11059
▁중국과	-11060
▁특징이	-11061
▁오하이오	-11062
르며	-11063
열은	-11064
연구원	-11065
▁힘입어	-11066
▁생각한다	-11067
▁월드컵에서	-11068
업은	-11069
▁사이버	-11070
디언	-11071
택을	-11072
현과	-11073
▁변수	-11074
▁위임	-11075
▁봤	-11076
법제	-11077
▁쇼군	-11078
▁신이	-11079
▁파스	-11080
▁생산하는	-11081
국장	-11082
▁최적	-11083
▁테이블	-11084
멘트	-11085
위원장	-11086
▁밀접한	-11087
▁이론의	-11088
▁림	-11089
▁옴	-11090
▁내전	-11091
▁밑에	-11092
▁분화	-11093
▁기반의	-11094
▁시장을	-11095
▁종으로	-11096
▁평균자책	-11097
▁봉쇄	-11098
▁정사	-11099
▁토요	-11100
▁통틀	-11101
시키며	-11102
▁마을을	-11103
▁생각할	-11104
▁무승	-11105
갔으며	-11106
▁와중에	-11107
▁사망하고	-11108
▁돋	-11109
▁파이어	-11110
박사	-11111
철의	-11112
▁위탁	-11113
▁논문을	-11114
▁대신하여	-11115
내어	-11116
만명	-11117
▁청원	-11118
방에서	-11119
▁법조	-11120
거리를	-11121
▁이벤트	-11122
▁조선일보	-11123
▁넬	-11124
▁수술을	-11125
▁순수한	-11126
▁자세한	-11127
프로그램	-11128
▁온타리오	-11129
구나	-11130
외선	-11131
▁내리	-11132
위원으로	-11133
▁경과	-11134
▁설탕	-11135
▁소셜	-11136
▁최하	-11137
▁민족문제연구	-11138
층을	-11139
rom	-11140
가들은	-11141
▁아름다	-11142
▁업적을	-11143
▁전투기	-11144
▁주장한	-11145
▁자리잡고	-11146
▁뉘	-11147
부르	-11148
평화	-11149
▁마약	-11150
▁매입	-11151
왕으로	-11152
▁105	-11153
▁것보다	-11154
▁의식을	-11155
▁경사	-11156
▁나눠	-11157
iver	-11158
▁의미의	-11159
▁이래로	-11160
▁최대한	-11161
▁환경을	-11162
ory	-11163
▁67	-11164
▁사사	-11165
▁테레	-11166
▁여름에	-11167
▁장치를	-11168
▁경상남도의	-11169
림의	-11170
크에	-11171
▁조르	-11172
▁취재	-11173
국사	-11174
터널	-11175
효소	-11176
▁구제	-11177
▁베니	-11178
▁산다	-11179
▁시점	-11180
▁전도	-11181
▁위기를	-11182
▁조건이	-11183
벌레	-11184
▁대피	-11185
▁띤다	-11186
▁패키	-11187
TS	-11188
▁두개	-11189
▁잎은	-11190
▁카스	-11191
▁후궁	-11192
▁이어진	-11193
가족	-11194
도어	-11195
▁Le	-11196
▁밤에	-11197
▁시호를	-11198
지방선거	-11199
▁횟	-11200
▁기아	-11201
▁마루	-11202
▁마하	-11203
▁이의	-11204
▁진군	-11205
▁학교에	-11206
▁기록하는	-11207
~5	-11208
다르	-11209
왕조	-11210
are	-11211
버리	-11212
▁붙은	-11213
▁사람과	-11214
▁입자	-11215
▁출처	-11216
▁뜨거운	-11217
▁코스타	-11218
▁대회에서는	-11219
▁정한	-11220
▁탐지	-11221
▁북부의	-11222
▁관리하는	-11223
▁결코	-11224
▁올바	-11225
▁공로로	-11226
▁카를로	-11227
▁프로게이머	-11228
님을	-11229
▁조선로동	-11230
▁팜	-11231
▁재현	-11232
▁왕위에	-11233
▁배치되어	-11234
준의	-11235
▁일컬	-11236
나갔다	-11237
방으로	-11238
▁시장에	-11239
▁드문	-11240
▁레바	-11241
▁명성	-11242
▁시골	-11243
▁런던에서	-11244
▁표명	-11245
라기	-11246
차량	-11247
참모	-11248
▁국소	-11249
▁아담	-11250
▁앞면	-11251
▁예배	-11252
▁힘든	-11253
▁바이오	-11254
▁편입되었다	-11255
▁쉐	-11256
계승	-11257
도리	-11258
증은	-11259
플렉	-11260
해양	-11261
▁시뮬	-11262
▁진급	-11263
▁철도의	-11264
▁설명했다	-11265
교에	-11266
▁갈릴	-11267
▁앉아	-11268
▁칼라	-11269
▁하마	-11270
▁한스	-11271
▁그쳤다	-11272
▁소관의	-11273
씨로	-11274
▁대책	-11275
▁신임	-11276
▁싱글로	-11277
▁캠퍼스	-11278
▁지형	-11279
▁도미니	-11280
▁되돌아	-11281
▁문제의	-11282
▁대한민국은	-11283
파르	-11284
▁팔라	-11285
▁회계	-11286
선이다	-11287
▁위험한	-11288
▁자연스럽게	-11289
▁로저	-11290
▁스톡	-11291
▁도시가	-11292
▁무기를	-11293
▁장관을	-11294
▁통일신	-11295
▁문화방송	-11296
▁화석	-11297
▁먹이를	-11298
▁제주도	-11299
▁크리스토퍼	-11300
▁$	-11301
▁이식	-11302
▁국내외	-11303
만여	-11304
포드	-11305
▁가축	-11306
▁그랜	-11307
▁발을	-11308
▁요약	-11309
▁지점	-11310
▁회사가	-11311
▁근처에서	-11312
▁대통령에	-11313
▁사이타마	-11314
▁신설되었다	-11315
천이	-11316
▁성취	-11317
▁카타	-11318
정에서	-11319
항으로	-11320
▁일본과	-11321
▁체포되어	-11322
▁직접적으로	-11323
▁킨	-11324
▁1894	-11325
로우	-11326
병은	-11327
▁모친	-11328
▁신약	-11329
▁폭스	-11330
▁바티칸	-11331
▁엄격한	-11332
▁의회의	-11333
▁자체를	-11334
▁것으로서	-11335
▁베트남의	-11336
▁개교	-11337
▁넣고	-11338
▁범유	-11339
▁애비	-11340
원숭이	-11341
▁슬로베	-11342
▁부문에서	-11343
▁부딪	-11344
쳤으며	-11345
▁복제	-11346
▁가수로	-11347
▁불이	-11348
▁장성	-11349
▁외교관	-11350
▁황해도	-11351
무역	-11352
▁이내	-11353
▁독립된	-11354
▁오프닝	-11355
▁잃었다	-11356
▁전통을	-11357
▁엿	-11358
▁선사	-11359
▁임용	-11360
본으로	-11361
신에	-11362
종인	-11363
▁문명	-11364
▁프로레	-11365
▁리투아니아	-11366
▁프랑크푸르트	-11367
▁Sp	-11368
▁네오	-11369
▁안성	-11370
▁이후로는	-11371
▁땄	-11372
▁떠올	-11373
▁미즈	-11374
▁순교	-11375
누스는	-11376
▁경찰은	-11377
▁물질을	-11378
▁실패하였다	-11379
▁희귀	-11380
▁실패로	-11381
▁자신도	-11382
▁달성했다	-11383
▁비유	-11384
▁이가	-11385
▁통영	-11386
▁지휘관	-11387
▁자동으로	-11388
▁도입되었다	-11389
마일	-11390
액은	-11391
▁보일	-11392
▁사자	-11393
▁시키	-11394
▁앙리	-11395
▁영문	-11396
▁지능	-11397
▁내부에	-11398
▁모르는	-11399
기사	-11400
▁구출	-11401
▁인격	-11402
▁즉각	-11403
▁우주의	-11404
방울	-11405
지휘	-11406
집이	-11407
칼라	-11408
황을	-11409
man	-11410
▁마츠	-11411
▁성주	-11412
자들에	-11413
▁만나는	-11414
▁시즌은	-11415
▁궁극	-11416
▁밀어	-11417
▁상태였다	-11418
▁그리스도의	-11419
omp	-11420
▁서재	-11421
▁인문	-11422
▁진흥	-11423
▁측의	-11424
가지의	-11425
▁스미스	-11426
▁유래한	-11427
▁이후부터	-11428
▁지구에서	-11429
대책	-11430
족에	-11431
▁숭배	-11432
▁것인데	-11433
▁들어온	-11434
했습니다	-11435
▁이어진다	-11436
적에	-11437
▁세션	-11438
▁재혼	-11439
▁제트	-11440
▁제프	-11441
▁루이지	-11442
▁소속된	-11443
▁알코올	-11444
▁경로	-11445
▁제안을	-11446
▁할머니	-11447
▁디비시	-11448
▁제국을	-11449
▁친일인명사전	-11450
연방	-11451
왕과	-11452
스트리	-11453
어지는	-11454
▁개발이	-11455
▁부작용	-11456
▁제사를	-11457
▁출전하였다	-11458
▁시즈	-11459
▁이케	-11460
▁지고	-11461
▁말씀	-11462
▁모델이	-11463
▁방식이	-11464
▁다양하다	-11465
캐롤라이나	-11466
▁복귀하였다	-11467
사나	-11468
열차	-11469
▁78	-11470
▁오바	-11471
▁짙은	-11472
▁호위	-11473
풍으로	-11474
▁디자인을	-11475
TA	-11476
▁영조	-11477
▁유산	-11478
▁가지며	-11479
▁업체	-11480
▁협박	-11481
크에서	-11482
▁구간을	-11483
▁그러던	-11484
▁받침	-11485
▁수습	-11486
▁태평	-11487
ng	-11488
-18	-11489
▁허브	-11490
절한	-11491
정원	-11492
▁간호	-11493
▁교황의	-11494
변이	-11495
순위	-11496
▁제압	-11497
야만	-11498
▁가죽	-11499
▁믿고	-11500
▁양주	-11501
▁분명히	-11502
▁섬으로	-11503
위원회를	-11504
▁참여하고	-11505
▁톤	-11506
액의	-11507
▁초월	-11508
▁춘추	-11509
▁캠프	-11510
프라이	-11511
▁크리스마스	-11512
로이	-11513
소녀	-11514
▁빈곤	-11515
▁제노	-11516
▁기록했고	-11517
▁포르투갈의	-11518
스런	-11519
애를	-11520
▁강도	-11521
▁야쿠	-11522
▁에밀	-11523
▁다룬다	-11524
▁직전에	-11525
▁함으로써	-11526
▁불어	-11527
▁시외	-11528
▁축하	-11529
▁질량은	-11530
아파	-11531
함마	-11532
훈장	-11533
희가	-11534
▁고쳐	-11535
▁골프	-11536
▁제독	-11537
적이지	-11538
▁설명한다	-11539
결과	-11540
ert	-11541
ial	-11542
▁랜드	-11543
▁리우	-11544
▁상용	-11545
▁어긋	-11546
▁응원	-11547
군이다	-11548
작이다	-11549
▁블로그	-11550
▁프레스	-11551
▁아시안컵	-11552
글리	-11553
▁이룬	-11554
▁이름인	-11555
▁출전한	-11556
▁스스로를	-11557
~4	-11558
▁is	-11559
▁조리	-11560
▁장군의	-11561
학교에서	-11562
▁CF	-11563
▁민족주의	-11564
▁맥스	-11565
▁2.5	-11566
▁있었을	-11567
사업을	-11568
▁비로소	-11569
▁월드컵에	-11570
▁캄보디아	-11571
욕을	-11572
총장	-11573
▁그냥	-11574
▁석가	-11575
▁적고	-11576
▁주장은	-11577
▁선언하였다	-11578
반은	-11579
▁냉각	-11580
▁요청을	-11581
ign	-11582
▁역에	-11583
임에도	-11584
▁토요일	-11585
▁프로그램이	-11586
서원	-11587
▁세상에	-11588
▁이유를	-11589
▁환경에	-11590
▁대거	-11591
▁부의	-11592
▁연쇄	-11593
▁이경	-11594
▁구스타	-11595
▁전체에	-11596
▁1890	-11597
▁어머니의	-11598
▁일컫는다	-11599
▁#	-11600
▁반해	-11601
▁가마쿠라	-11602
월과	-11603
lic	-11604
▁고백	-11605
▁선이	-11606
▁주가	-11607
루미늄	-11608
▁김일성	-11609
▁버전의	-11610
▁아니라고	-11611
~2	-11612
▁발트	-11613
▁엄격	-11614
▁승부차	-11615
레타	-11616
라에서	-11617
▁규모로	-11618
▁다음해	-11619
풍속	-11620
▁61	-11621
레스는	-11622
▁언어의	-11623
▁여부를	-11624
▁그리스어	-11625
▁고체	-11626
▁불평	-11627
▁컨셉	-11628
▁삼국지	-11629
▁자유주의	-11630
법칙	-11631
선생	-11632
▁뒤집	-11633
먼드	-11634
▁전속	-11635
▁증후	-11636
등으로	-11637
▁사고가	-11638
▁냄	-11639
코르	-11640
푸스	-11641
▁하우	-11642
▁북쪽의	-11643
▁비난을	-11644
신도	-11645
까지만	-11646
▁프톨레	-11647
▁가나가와	-11648
▁존재했던	-11649
코쿠	-11650
▁76	-11651
▁가도	-11652
▁스폰	-11653
▁속도는	-11654
▁임시정부	-11655
퍼는	-11656
▁감독과	-11657
급을	-11658
▁블랙홀	-11659
▁황제로	-11660
▁그룹이다	-11661
▁부사	-11662
▁아홉	-11663
▁일리노	-11664
▁장거리	-11665
▁줄여서	-11666
▁사회에서	-11667
▁특징으로	-11668
▁프로리그	-11669
ond	-11670
▁CR	-11671
▁미루	-11672
▁이남	-11673
운동에	-11674
▁나오지	-11675
▁변화에	-11676
▁요구를	-11677
▁중국에	-11678
▁브라우저	-11679
운영	-11680
정리	-11681
▁공모	-11682
▁로이	-11683
▁입원	-11684
▁합창	-11685
▁말기의	-11686
▁베네딕	-11687
▁어머니가	-11688
▁프로듀싱	-11689
판과	-11690
▁누가	-11691
▁롤링	-11692
▁버려	-11693
▁사모	-11694
▁트래	-11695
▁부유한	-11696
▁수도인	-11697
▁1898	-11698
▁경우에도	-11699
▁지정하여	-11700
수용	-11701
▁마스	-11702
▁기록해	-11703
▁김현	-11704
▁노리	-11705
▁움직임을	-11706
▁지방자치	-11707
▁불확	-11708
▁했을	-11709
▁본인의	-11710
▁96	-11711
▁동명	-11712
▁불편	-11713
▁성분	-11714
▁오노	-11715
렸는데	-11716
▁거기서	-11717
▁일이다	-11718
▁HT	-11719
▁경신	-11720
▁도는	-11721
▁배우로	-11722
예정	-11723
박쥐는	-11724
▁소행성	-11725
▁등지에서	-11726
▁계속되었다	-11727
act	-11728
▁la	-11729
▁상처	-11730
▁쏟아	-11731
▁인근의	-11732
▁오를	-11733
▁증손	-11734
▁관련한	-11735
▁노란색	-11736
▁넣은	-11737
▁평일	-11738
▁피츠	-11739
▁차이는	-11740
▁일종으로	-11741
국어	-11742
미스	-11743
신경	-11744
▁에미	-11745
▁헤라	-11746
▁프로젝트를	-11747
슬리	-11748
즈로	-11749
ass	-11750
▁아랫	-11751
▁천도	-11752
▁게르만	-11753
▁뉴저	-11754
▁일러	-11755
▁느낌을	-11756
▁되었다가	-11757
▁에스토니아	-11758
▁문화체육관광	-11759
더니	-11760
어요	-11761
행에	-11762
▁난민	-11763
▁악기	-11764
▁옥스	-11765
▁카트	-11766
일이다	-11767
▁뛰어나	-11768
▁불리게	-11769
고와	-11770
금지	-11771
현으로	-11772
▁추기경	-11773
▁투표를	-11774
▁향하는	-11775
▁World	-11776
▁중단되었다	-11777
▁콘스탄티노폴리스	-11778
폭력	-11779
]],	-11780
▁낱말	-11781
▁바퀴	-11782
▁실전	-11783
라이어	-11784
▁오리콘	-11785
▁표현을	-11786
▁적극적인	-11787
▁시와	-11788
나라에	-11789
행으로	-11790
▁원인은	-11791
과학기술	-11792
▁가톨릭교회	-11793
▁깎	-11794
강이	-11795
▁선물	-11796
▁소매	-11797
매매	-11798
▁공민	-11799
▁나눈	-11800
▁제곱	-11801
▁기간을	-11802
▁주민들이	-11803
덕션	-11804
재단	-11805
▁우편	-11806
▁공격에	-11807
▁적합한	-11808
▁피해가	-11809
▁승격되었다	-11810
함수	-11811
▁북부에	-11812
▁역사와	-11813
▁획득한	-11814
▁노트	-11815
▁봉건	-11816
▁존속	-11817
▁직면	-11818
암으로	-11819
▁101	-11820
▁덤	-11821
냐는	-11822
악한	-11823
▁SE	-11824
▁규격	-11825
▁편곡	-11826
기독교	-11827
회의에서	-11828
▁펌	-11829
집에	-11830
▁샘플	-11831
▁중기	-11832
▁우즈베	-11833
▁과거에는	-11834
▁물러났다	-11835
팀의	-11836
▁책의	-11837
서비스	-11838
▁뭉	-11839
강과	-11840
방위	-11841
보르	-11842
▁be	-11843
▁부분의	-11844
▁중의원	-11845
▁테니스	-11846
▁더불어민주당	-11847
자르	-11848
▁폭넓	-11849
불교의	-11850
▁미얀마	-11851
▁유지하는	-11852
▁마우	-11853
▁원수	-11854
▁처녀	-11855
▁가리키	-11856
▁관리를	-11857
▁어려워	-11858
▁제도가	-11859
▁기업이다	-11860
▁의미에서	-11861
▁창의	-11862
겼으며	-11863
▁정도였다	-11864
지능	-11865
▁자문	-11866
바이트	-11867
▁10%	-11868
▁타이틀곡	-11869
▁말의	-11870
▁쓰기	-11871
▁제자	-11872
▁터뜨	-11873
lo	-11874
링을	-11875
▁섬에서	-11876
▁중추원	-11877
▁방식이다	-11878
▁카를로스	-11879
DS	-11880
였을	-11881
측은	-11882
토르	-11883
하임	-11884
▁거울	-11885
▁물건	-11886
▁2-1	-11887
▁연기를	-11888
▁회의를	-11889
▁아버지를	-11890
▁됐	-11891
▁쇄	-11892
평군	-11893
▁난다	-11894
▁아기	-11895
▁기술은	-11896
▁정신을	-11897
▁종류가	-11898
근은	-11899
루에	-11900
▁가량	-11901
▁라마	-11902
▁상트	-11903
▁그래프	-11904
▁체코슬로	-11905
▁헌법재판	-11906
▁맏	-11907
감한	-11908
측에	-11909
▁딸인	-11910
▁약력	-11911
▁토르	-11912
▁관직을	-11913
▁나가는	-11914
▁민족의	-11915
▁보호를	-11916
국제공항	-11917
Hz	-11918
림은	-11919
▁구할	-11920
▁성장을	-11921
▁시기를	-11922
▁대학교에	-11923
널티	-11924
발이	-11925
사기	-11926
▁초록	-11927
있었다	-11928
▁속하며	-11929
▁최악의	-11930
▁해상에서	-11931
지리	-11932
▁봉안	-11933
▁시트	-11934
과정을	-11935
▁팀으로	-11936
테르부르크	-11937
느러	-11938
▁데스	-11939
▁나폴리	-11940
▁문과에	-11941
▁크레이	-11942
▁인터내셔널	-11943
▁맑	-11944
께서	-11945
▁브뤼	-11946
▁신선	-11947
▁플러	-11948
▁런던의	-11949
▁성격이	-11950
▁우승한	-11951
▁카리브	-11952
▁환경에서	-11953
수리	-11954
일으	-11955
▁숫자	-11956
▁정밀	-11957
▁커널	-11958
▁아래는	-11959
▁지휘하는	-11960
▁에티오피아	-11961
교수	-11962
천여	-11963
▁바꾼	-11964
▁왕국을	-11965
가르	-11966
언어	-11967
▁등극	-11968
▁방패	-11969
▁서초	-11970
▁존경	-11971
▁흥선	-11972
▁존재가	-11973
블리	-11974
파인	-11975
▁빌려	-11976
▁옹립	-11977
▁기독교의	-11978
▁결정되었다	-11979
▁공익	-11980
▁교역	-11981
▁두는	-11982
▁붙인	-11983
▁왕복	-11984
▁적혀	-11985
검찰청	-11986
▁선정한	-11987
키와	-11988
▁감행	-11989
▁네팔	-11990
▁맥도	-11991
▁협상을	-11992
동시지방선거	-11993
두를	-11994
▁부서	-11995
▁용의	-11996
사령관	-11997
▁선거는	-11998
▁이름에서	-11999
감은	-12000
▁법인	-12001
▁용도로	-12002
▁신탁	-12003
이어서	-12004
▁노동조합	-12005
▁시리즈를	-12006
▁노르웨이의	-12007
▁않으나	-12008
▁인정하고	-12009
▁신중	-12010
▁오쿠	-12011
▁결성된	-12012
▁수상한	-12013
LS	-12014
▁고령	-12015
▁위장	-12016
▁채워	-12017
▁메시지를	-12018
▁방송되었다	-12019
술의	-12020
▁기사를	-12021
▁기록하면서	-12022
반이	-12023
버린	-12024
천사	-12025
태후	-12026
표는	-12027
▁김규	-12028
▁합작	-12029
▁흔한	-12030
상규	-12031
주얼	-12032
▁부가	-12033
문에서	-12034
화이다	-12035
▁얹	-12036
거를	-12037
군단	-12038
▁디자	-12039
▁기자회	-12040
▁터키의	-12041
생명	-12042
▁단기	-12043
▁사범	-12044
▁갈등을	-12045
▁많으며	-12046
▁안에는	-12047
▁줄무늬	-12048
▁날에	-12049
▁뻗어	-12050
▁그룹은	-12051
▁차량은	-12052
셈부르크	-12053
▁진행되고	-12054
네시	-12055
래스	-12056
▁독일이	-12057
▁이유가	-12058
▁확실히	-12059
▁형성한다	-12060
▁프톨레마이	-12061
라톱	-12062
병에	-12063
▁디렉	-12064
▁이차	-12065
▁정무	-12066
▁마천루	-12067
▁사생활	-12068
전문학교	-12069
▁시베리아	-12070
▁옳	-12071
값을	-12072
대륙	-12073
▁자선	-12074
▁컴퍼	-12075
▁페리	-12076
▁미국을	-12077
▁부분으로	-12078
대왕	-12079
▁밀집	-12080
▁해소	-12081
▁독일어	-12082
▁평범한	-12083
▁1899	-12084
▁중앙위원회	-12085
IG	-12086
타우	-12087
▁고민	-12088
▁광장	-12089
▁김씨	-12090
▁쇼트	-12091
▁펠리	-12092
▁전라도	-12093
▁한국시리즈	-12094
협력	-12095
urn	-12096
▁극동	-12097
▁래퍼	-12098
▁만일	-12099
▁암시	-12100
▁필사	-12101
▁몬스터	-12102
▁파이널	-12103
대학교에서	-12104
ich	-12105
▁리뷰	-12106
▁박스	-12107
▁아크	-12108
▁유교	-12109
▁지주	-12110
▁최연	-12111
▁케냐	-12112
지는데	-12113
▁밴드이다	-12114
▁We	-12115
▁아야	-12116
▁일명	-12117
▁척추	-12118
▁카디	-12119
▁피신	-12120
▁항소	-12121
▁남쪽의	-12122
▁일하는	-12123
▁중국어	-12124
LE	-12125
코와	-12126
ens	-12127
▁EC	-12128
▁SU	-12129
▁무상	-12130
▁축출	-12131
▁말기에	-12132
▁불러일으	-12133
노가	-12134
▁비자	-12135
▁3.1	-12136
▁시위를	-12137
▁알루미늄	-12138
▁크리스티안	-12139
ype	-12140
▁승계	-12141
▁시범	-12142
▁급제하여	-12143
▁벌어졌다	-12144
▁정치인으로	-12145
가요	-12146
나오	-12147
▁플랜	-12148
감으로	-12149
▁주민들은	-12150
_11	-12151
▁당일	-12152
▁총칭	-12153
▁주식회	-12154
▁차량을	-12155
▁학교의	-12156
▁끊임없이	-12157
▁상류	-12158
▁소금	-12159
▁자택	-12160
파이어	-12161
▁지구와	-12162
▁설명하는	-12163
OU	-12164
허가	-12165
▁견해	-12166
▁나주	-12167
▁미디	-12168
▁사면	-12169
▁술을	-12170
▁축적	-12171
▁남부에	-12172
▁뒷받침	-12173
▁물질의	-12174
▁본사를	-12175
▁자유로운	-12176
량과	-12177
▁상장	-12178
▁이준	-12179
▁호의	-12180
스키는	-12181
▁스탈린	-12182
▁행사를	-12183
로부터의	-12184
시나	-12185
▁왕세	-12186
▁비판이	-12187
▁패배를	-12188
▁다운로드	-12189
▁자격으로	-12190
▁강연	-12191
▁양국	-12192
▁홈구	-12193
▁가지가	-12194
▁보유한	-12195
▁올랐고	-12196
▁제목의	-12197
▁존재하고	-12198
▁양호	-12199
▁개념이	-12200
▁레바논	-12201
▁이론에	-12202
인간	-12203
위인	-12204
▁목을	-12205
▁오타	-12206
▁정서	-12207
▁자회사	-12208
열에	-12209
▁던져	-12210
▁조언	-12211
궁의	-12212
인한	-12213
지아	-12214
▁중산	-12215
▁원더	-12216
▁케임	-12217
-200	-12218
▁시리즈는	-12219
▁딸로	-12220
▁국제적인	-12221
▁한나라당	-12222
▁심의	-12223
▁연금	-12224
▁교육의	-12225
▁차량이	-12226
▁그들에게	-12227
▁독립적인	-12228
장치	-12229
풍이	-12230
▁낸다	-12231
▁누르	-12232
▁느꼈	-12233
▁수면	-12234
하자는	-12235
▁광저우	-12236
▁시즌이다	-12237
도바	-12238
스카르	-12239
▁클래스	-12240
▁닦	-12241
▁가까워	-12242
▁성공회	-12243
▁완벽한	-12244
▁구마모토	-12245
▁추측된다	-12246
▁핀란드의	-12247
돌을	-12248
▁세속	-12249
▁중공	-12250
▁카나	-12251
▁베드로	-12252
▁페널티	-12253
▁르네상스	-12254
▁결혼하였다	-12255
근의	-12256
달아	-12257
▁해수	-12258
▁버전이	-12259
줬다	-12260
ary	-12261
▁유동	-12262
▁하트	-12263
▁버렸다	-12264
▁별명을	-12265
▁정부에서	-12266
운을	-12267
티코	-12268
▁그루	-12269
▁꽃은	-12270
▁여신	-12271
▁퀘벡	-12272
▁바오로	-12273
▁나머지는	-12274
다드	-12275
▁동문	-12276
▁산란	-12277
▁싶은	-12278
▁어원	-12279
▁자오	-12280
▁미시간	-12281
▁시장에서	-12282
연료	-12283
▁기각	-12284
▁성서	-12285
▁DC	-12286
▁일방	-12287
▁카우	-12288
버렸다	-12289
▁머물렀다	-12290
▁광둥	-12291
▁웹툰	-12292
영화제	-12293
▁1902	-12294
▁고구려의	-12295
▁선거구이다	-12296
검사	-12297
푸아	-12298
▁그래미	-12299
▁철도가	-12300
▁00	-12301
▁따온	-12302
▁리만	-12303
▁민영	-12304
▁중대	-12305
▁수학자	-12306
▁위치는	-12307
이후	-12308
잡이	-12309
ree	-12310
▁CJ	-12311
▁GS	-12312
▁대교	-12313
▁직결	-12314
▁청춘	-12315
▁서유럽	-12316
▁회장을	-12317
▁중화민국의	-12318
레가	-12319
폭탄	-12320
▁교전	-12321
▁잡았다	-12322
▁IM	-12323
▁발현	-12324
▁이천	-12325
▁자를	-12326
도이다	-12327
▁유로파	-12328
▁5,000	-12329
산물	-12330
▁나올	-12331
▁담배	-12332
▁압둘	-12333
▁침투	-12334
▁달한다	-12335
▁독일과	-12336
▁오피스	-12337
기나	-12338
▁마인	-12339
▁별은	-12340
▁정해	-12341
▁제니	-12342
▁목표는	-12343
▁삼각형	-12344
▁있기도	-12345
▁장군이	-12346
▁니콜라이	-12347
갈색	-12348
아들	-12349
▁물어	-12350
▁중일	-12351
▁New	-12352
▁통틀어	-12353
무는	-12354
▁69	-12355
▁밝히고	-12356
▁아무도	-12357
▁연구의	-12358
▁육군의	-12359
▁타격을	-12360
▁강수량은	-12361
▁들어간다	-12362
분해	-12363
▁리오	-12364
▁어른	-12365
▁우호	-12366
▁가벼운	-12367
▁리그를	-12368
▁메소	-12369
▁바빌	-12370
▁분당	-12371
▁삼촌	-12372
▁스캔	-12373
▁존스	-12374
▁쓰시마	-12375
▁총대주교	-12376
▁얽	-12377
협의	-12378
▁얻지	-12379
▁레슬링	-12380
위해	-12381
▁소말	-12382
▁양이	-12383
▁입성	-12384
동이다	-12385
어지고	-12386
▁마음에	-12387
▁역사에	-12388
▁이용한다	-12389
▁벌인	-12390
▁것들이	-12391
영과	-12392
피의	-12393
▁가족은	-12394
▁지냈고	-12395
▁처음부터	-12396
요의	-12397
▁정조	-12398
▁주체	-12399
▁문자를	-12400
▁장면을	-12401
▁떨어지는	-12402
▁아래에서	-12403
▁3,000	-12404
▁시리즈에서	-12405
투자	-12406
out	-12407
▁만성	-12408
▁종속	-12409
▁출신인	-12410
대학교의	-12411
▁일리노이	-12412
▁백색	-12413
▁쓰지	-12414
▁역사의	-12415
▁구분된다	-12416
▁몫	-12417
무장	-12418
▁모나	-12419
▁드러머	-12420
▁일대를	-12421
▁헝가리의	-12422
!!	-12423
▁틸	-12424
학원	-12425
net	-12426
루이스	-12427
▁브로드	-12428
▁아라비아	-12429
▁아시카가	-12430
▁페르디난	-12431
▁고등학교를	-12432
▁몸이	-12433
▁케빈	-12434
▁대표적	-12435
▁아이치	-12436
대손	-12437
▁갈수록	-12438
▁단어는	-12439
▁설치한	-12440
▁종로구	-12441
▁알려지게	-12442
hPa	-12443
▁완화	-12444
▁뚜렷한	-12445
▁승강장이	-12446
▁캉	-12447
미트	-12448
▁JT	-12449
▁수확	-12450
으려고	-12451
▁선수들을	-12452
▁아리스토	-12453
▁타이베이	-12454
▁형태이다	-12455
설은	-12456
트륨	-12457
▁vs	-12458
▁먹을	-12459
▁문예	-12460
▁따른다	-12461
▁일으킬	-12462
▁중요성을	-12463
▁제주특별자치도	-12464
▁교리	-12465
▁주사	-12466
▁촉매	-12467
▁추산	-12468
▁있는지	-12469
▁출시한	-12470
▁팀에서	-12471
▁태극	-12472
▁포획	-12473
교육을	-12474
▁아레나	-12475
▁자치구	-12476
▁추가적인	-12477
:0	-12478
에다	-12479
웠고	-12480
하로	-12481
▁둥글	-12482
▁부지	-12483
▁사절	-12484
▁연꽃	-12485
▁유저	-12486
운동의	-12487
▁역임하고	-12488
▁데뷔하였고	-12489
미즈	-12490
칸의	-12491
▁대치	-12492
▁협주곡	-12493
▁엔지니어	-12494
▁역사적인	-12495
두로	-12496
반도	-12497
키를	-12498
ach	-12499
▁노태	-12500
▁농림	-12501
▁수련	-12502
▁가족의	-12503
▁사슬	-12504
▁특집	-12505
▁것임을	-12506
▁예술가	-12507
세기부터	-12508
▁맵	-12509
본의	-12510
산리	-12511
_15	-12512
▁빛이	-12513
▁쓰촨	-12514
▁그다지	-12515
▁얼굴을	-12516
▁루터	-12517
▁마일	-12518
▁본부	-12519
▁니가타	-12520
▁이라고	-12521
엔터테인	-12522
▁시칠리아	-12523
OD	-12524
리얼	-12525
시게	-12526
황제	-12527
▁동국	-12528
▁워터	-12529
▁존슨	-12530
▁135	-12531
▁나가노	-12532
▁선수는	-12533
▁조약에	-12534
▁전국동시지방선거	-12535
그러	-12536
붙이	-12537
커의	-12538
▁대합	-12539
▁우르	-12540
▁캔자스	-12541
▁피하기	-12542
▁알려져있다	-12543
사유	-12544
통제	-12545
▁마야	-12546
▁바나	-12547
▁손꼽	-12548
▁표방	-12549
▁견해를	-12550
▁남기고	-12551
▁프랑스에	-12552
▁결정하였다	-12553
▁잡은	-12554
주의가	-12555
▁왈	-12556
품이	-12557
▁국군	-12558
▁꼭짓	-12559
▁헤비	-12560
법이다	-12561
▁구단의	-12562
기계	-12563
▁지위	-12564
▁360	-12565
▁경찰에	-12566
▁기초를	-12567
골로	-12568
▁놀이	-12569
▁러셀	-12570
▁생략	-12571
▁여진	-12572
▁없었기	-12573
▁프로그램에	-12574
ey	-12575
전차	-12576
히메	-12577
▁사망하자	-12578
길이	-12579
판매	-12580
▁때인	-12581
렸다고	-12582
해주는	-12583
▁비율은	-12584
▁음악에	-12585
▁차량의	-12586
문자	-12587
불을	-12588
▁오비	-12589
▁우드	-12590
주머니	-12591
▁간단히	-12592
▁스트리트	-12593
▁플라스틱	-12594
반에	-12595
▁도미	-12596
▁만세	-12597
▁중재	-12598
▁메커니즘	-12599
제작	-12600
▁달이	-12601
브리엘	-12602
▁용어로	-12603
▁주도로	-12604
▁안토니오	-12605
▁전체적인	-12606
▁Am	-12607
▁Sc	-12608
▁이관	-12609
내며	-12610
대구	-12611
▁곳의	-12612
▁비율이	-12613
▁수도원	-12614
▁시절의	-12615
▁정해진	-12616
드릭	-12617
▁날카	-12618
▁병역	-12619
▁즐겨	-12620
▁패한	-12621
▁피겨	-12622
▁효소	-12623
▁더욱이	-12624
▁텍스트	-12625
▁한국은	-12626
▁문화가	-12627
▁발언을	-12628
▁사고를	-12629
▁연결된다	-12630
▁나이지리아	-12631
▁아르헨티나의	-12632
종교	-12633
▁단축	-12634
▁변동	-12635
▁북구	-12636
▁수에	-12637
▁초신	-12638
▁게이지	-12639
▁일대에	-12640
▁정도를	-12641
▁룩셈부르크	-12642
단위	-12643
무가	-12644
▁Su	-12645
▁김지	-12646
▁사살	-12647
나가는	-12648
▁밖에도	-12649
기니	-12650
요는	-12651
▁협동	-12652
해온	-12653
ase	-12654
▁모서	-12655
▁적지	-12656
▁호조	-12657
▁무료로	-12658
▁뮤지션	-12659
▁계획이다	-12660
,9	-12661
▁국기	-12662
협의회	-12663
▁1-0	-12664
▁전역에	-12665
▁1901	-12666
우지	-12667
추는	-12668
홀름	-12669
▁대명	-12670
▁시바	-12671
▁50%	-12672
▁바이킹	-12673
▁한성부	-12674
▁브란	-12675
▁재미	-12676
글라데	-12677
들과는	-12678
▁고통을	-12679
▁자신들이	-12680
량에	-12681
봉은	-12682
쿠버	-12683
▁에콰	-12684
자라고	-12685
▁군대에	-12686
▁손가락	-12687
▁언급한	-12688
▁언어는	-12689
▁와이번	-12690
▁강점기의	-12691
▁발렌시아	-12692
▁발견하였다	-12693
공격	-12694
세트	-12695
오나	-12696
위성	-12697
인권	-12698
클로	-12699
.5%	-12700
▁아열대	-12701
▁일본국	-12702
▁재능을	-12703
▁전력을	-12704
SP	-12705
▁균형	-12706
▁대안	-12707
▁입각	-12708
▁드물게	-12709
▁내용으로	-12710
년하	-12711
설에	-12712
▁Op	-12713
▁북방	-12714
▁철회	-12715
▁병으로	-12716
▁정보가	-12717
▁주장하며	-12718
▁김창	-12719
▁개인이	-12720
▁총리가	-12721
두에	-12722
마로	-12723
이시	-12724
▁안나	-12725
하자면	-12726
▁Man	-12727
▁각국의	-12728
▁과정이	-12729
▁매니저	-12730
▁가져왔다	-12731
▁솜	-12732
봉사	-12733
▁중복	-12734
▁하남	-12735
▁할아버지	-12736
▁회사이다	-12737
생은	-12738
한은	-12739
▁포병	-12740
▁공부를	-12741
▁올리고	-12742
주택	-12743
▁소지	-12744
공무원	-12745
▁사례가	-12746
▁에디션	-12747
▁쿠데타	-12748
▁맞은	-12749
▁배신	-12750
▁선종	-12751
▁캐서	-12752
시키지	-12753
층으로	-12754
▁취하고	-12755
▁결정하는	-12756
▁CC	-12757
▁성사	-12758
▁기존에	-12759
▁예수의	-12760
▁현재에	-12761
▁진행하고	-12762
런은	-12763
준비	-12764
츠를	-12765
ect	-12766
ost	-12767
▁국영	-12768
▁무성	-12769
정책을	-12770
▁대회가	-12771
▁손으로	-12772
▁즉위한	-12773
▁1884	-12774
▁사랑하는	-12775
▁대통령으로	-12776
사용	-12777
아스	-12778
▁금성	-12779
▁담아	-12780
▁대가	-12781
▁맥락	-12782
▁왕을	-12783
▁이소	-12784
▁삿포로	-12785
▁개발하고	-12786
인구	-12787
▁고래	-12788
▁밝힌	-12789
▁당연히	-12790
▁되지만	-12791
▁밴드를	-12792
▁안으로	-12793
▁태양을	-12794
▁프로레슬링	-12795
".	-12796
▁자의	-12797
▁하동	-12798
▁정치가	-12799
▁포켓몬스터	-12800
▁벵	-12801
ont	-12802
▁On	-12803
▁고창	-12804
▁불상	-12805
▁산출	-12806
▁죽이	-12807
▁무대를	-12808
▁살았던	-12809
▁전했다	-12810
▁결혼하여	-12811
▁도시철도	-12812
▁알렉산드로	-12813
팀을	-12814
▁군이	-12815
▁북위	-12816
▁지녔	-12817
▁도카이	-12818
▁유학을	-12819
리사	-12820
정신	-12821
▁규범	-12822
▁주행	-12823
▁한인	-12824
▁무함마	-12825
▁목소리를	-12826
것도	-12827
이야	-12828
▁군산	-12829
▁아나키	-12830
▁왕국은	-12831
개와	-12832
▁핸드	-12833
▁지키는	-12834
▁차이로	-12835
▁프란츠	-12836
▁이스라엘의	-12837
▁중앙아시아	-12838
따라	-12839
작곡	-12840
▁발칸	-12841
▁오지	-12842
sc	-12843
▁부설	-12844
▁산림	-12845
▁기회가	-12846
▁물러나	-12847
▁이루며	-12848
변에	-12849
▁각자	-12850
▁수성	-12851
▁신축	-12852
▁영등	-12853
▁중종	-12854
▁방문한	-12855
▁김홍	-12856
▁분비	-12857
▁정말	-12858
▁콜린	-12859
▁환상	-12860
▁제국에	-12861
▁아버지인	-12862
▁조선로동당	-12863
보수	-12864
한테	-12865
ath	-12866
▁클라이	-12867
▁평가된다	-12868
▁슬로바키아	-12869
▁세상	-12870
레이터	-12871
양으로	-12872
▁이란의	-12873
▁파일을	-12874
▁올림픽의	-12875
▁북아프리카	-12876
▁알렉산드르	-12877
머는	-12878
▁높게	-12879
▁브랜	-12880
▁어려서	-12881
▁운행한다	-12882
역학	-12883
품의	-12884
화물	-12885
com	-12886
▁기저	-12887
▁응시	-12888
▁공간이	-12889
▁들어갈	-12890
▁투어를	-12891
▁유사하다	-12892
푸르	-12893
▁개종	-12894
▁유래된	-12895
▁차례의	-12896
▁미시시피	-12897
▁전역에서	-12898
▁포스트시즌	-12899
▁까닭	-12900
▁함수의	-12901
▁후보는	-12902
만과	-12903
▁기숙	-12904
▁미들	-12905
▁보헤	-12906
▁시종	-12907
▁파나	-12908
▁소송을	-12909
것을	-12910
시청	-12911
연수	-12912
▁두께	-12913
▁진공	-12914
▁부근에	-12915
▁서울의	-12916
▁가고시마	-12917
▁시즌에서	-12918
루아	-12919
신학	-12920
▁괴롭	-12921
▁년에	-12922
▁하시	-12923
자라는	-12924
▁각본가	-12925
▁산하에	-12926
▁드라이버	-12927
▁아케이드	-12928
빌딩	-12929
운의	-12930
집은	-12931
▁다크	-12932
cc	-12933
▁콰	-12934
▁가계	-12935
▁퇴임	-12936
▁폭로	-12937
▁실질적으로	-12938
▁다비	-12939
▁발급	-12940
▁실망	-12941
▁때에도	-12942
▁파리의	-12943
▁1903	-12944
MP	-12945
심은	-12946
전시	-12947
▁맞붙	-12948
▁무궁	-12949
▁세금	-12950
프레스	-12951
▁국제적	-12952
▁블루스	-12953
▁점령한	-12954
▁방글라데	-12955
▁생식	-12956
▁상태의	-12957
▁조정에	-12958
aw	-12959
디를	-12960
증의	-12961
▁비타	-12962
▁의석	-12963
▁일체	-12964
▁잡혀	-12965
▁점에	-12966
▁기초로	-12967
▁저작권	-12968
▁존재할	-12969
▁트리플	-12970
▁이루어지는	-12971
순환	-12972
▁감안	-12973
▁권장	-12974
▁해남	-12975
▁경상도	-12976
▁문서를	-12977
▁클라이언	-12978
융합	-12979
▁자국	-12980
▁한층	-12981
▁사람도	-12982
▁해결하기	-12983
OW	-12984
법에서	-12985
▁바르샤	-12986
▁근무했다	-12987
▁붐	-12988
기게	-12989
모에	-12990
▁극대	-12991
▁모은	-12992
▁원을	-12993
▁다이어	-12994
▁동생인	-12995
▁차지하며	-12996
▁지정되었다가	-12997
▁가옥	-12998
▁그후	-12999
▁글루	-13000
▁점프	-13001
▁게임이	-13002
다를	-13003
온을	-13004
주지	-13005
▁물의	-13006
▁싸워	-13007
루에서	-13008
▁대학생	-13009
▁표현하는	-13010
-9	-13011
더의	-13012
▁쓰레	-13013
았다고	-13014
▁경기의	-13015
▁마르코	-13016
▁전두환	-13017
▁몸길이는	-13018
▁눌	-13019
▁86	-13020
▁불꽃	-13021
▁생리	-13022
▁승무원	-13023
▁실시한	-13024
▁쳐들어	-13025
트로이트	-13026
▁스위스의	-13027
믹스	-13028
주간	-13029
▁아소	-13030
▁같은해	-13031
▁리더십	-13032
▁음악적	-13033
▁스타리그	-13034
벽을	-13035
쪽은	-13036
▁결선	-13037
▁모용	-13038
▁세례	-13039
▁알을	-13040
▁연상	-13041
▁체류	-13042
▁하라	-13043
▁야마토	-13044
▁정의한다	-13045
▁제안했다	-13046
▁랴	-13047
네마	-13048
친구	-13049
하키	-13050
행동	-13051
▁거북	-13052
▁온천	-13053
위기	-13054
조한	-13055
스터는	-13056
▁뉴욕의	-13057
RA	-13058
히토	-13059
▁그릇	-13060
▁배상	-13061
▁압력을	-13062
▁작용을	-13063
▁진행되는	-13064
▁더해	-13065
▁넘어가	-13066
▁주어졌다고	-13067
▁선배	-13068
▁성능을	-13069
▁실패한	-13070
▁받았지만	-13071
▁지나면서	-13072
으로부터의	-13073
슬레	-13074
▁Pr	-13075
▁꼭대	-13076
▁지장	-13077
▁하원	-13078
나무는	-13079
책으로	-13080
▁기준을	-13081
▁나타낸	-13082
▁대가로	-13083
▁대전이	-13084
▁불리고	-13085
▁새겨진	-13086
▁청와대	-13087
▁부분에서	-13088
▁프랑스가	-13089
바둑	-13090
서구	-13091
▁라오	-13092
▁서포	-13093
▁슈팅	-13094
▁엔딩	-13095
▁인상을	-13096
▁결정된다	-13097
보와	-13098
양함	-13099
▁김제	-13100
▁무의	-13101
▁무지	-13102
▁설도	-13103
▁비밀리에	-13104
빈의	-13105
집의	-13106
▁신부	-13107
▁음악은	-13108
▁제도는	-13109
▁조지프	-13110
▁표면에	-13111
▁프란체	-13112
▁위치하는	-13113
▁사단법인이다	-13114
▁렉	-13115
▁GP	-13116
▁가오	-13117
▁걱정	-13118
▁아타	-13119
▁증상	-13120
▁사쿠라	-13121
▁전하는	-13122
▁그레이트	-13123
▁보호하기	-13124
▁개가	-13125
▁지옥	-13126
ream	-13127
▁아미타	-13128
▁담당했다	-13129
▁떨어졌다	-13130
▁복귀했다	-13131
▁이때부터	-13132
들여	-13133
▁피트	-13134
면에는	-13135
▁제네바	-13136
▁조선에	-13137
▁중반에	-13138
▁이북	-13139
▁칸의	-13140
▁해의	-13141
사들이	-13142
▁벼슬을	-13143
▁온도가	-13144
▁죽였다	-13145
▁드러났다	-13146
▁AN	-13147
▁구의	-13148
▁국장	-13149
▁왜곡	-13150
▁소설가	-13151
▁해명	-13152
▁범위를	-13153
▁주어진다	-13154
▁킴	-13155
그의	-13156
브스	-13157
산동	-13158
항의	-13159
▁73	-13160
▁대두	-13161
▁민병	-13162
테이션	-13163
▁생산을	-13164
▁소비자	-13165
▁초창기	-13166
▁그렇지만	-13167
▁볼리비아	-13168
수소	-13169
▁건륭	-13170
▁동행	-13171
▁포장	-13172
심에서	-13173
▁건축물	-13174
▁고유의	-13175
▁기하여	-13176
▁변화는	-13177
▁세력의	-13178
우기	-13179
팀에	-13180
▁97	-13181
▁이병	-13182
▁확실한	-13183
▁디트로이트	-13184
억원	-13185
▁연고지로	-13186
하루	-13187
▁시노	-13188
▁일생	-13189
▁결론을	-13190
▁도요토미	-13191
▁콜로라도	-13192
▁걸린	-13193
▁등용	-13194
▁절차	-13195
▁편에	-13196
▁횡단	-13197
▁경기로	-13198
▁무조건	-13199
▁수비수	-13200
발사	-13201
▁품고	-13202
협회는	-13203
▁도널드	-13204
▁자료가	-13205
▁1897	-13206
무로	-13207
▁서적	-13208
▁안치	-13209
행위를	-13210
lude	-13211
▁그려진	-13212
▁극장판	-13213
페테르부르크	-13214
탄의	-13215
▁감리	-13216
▁돌입	-13217
▁로버	-13218
▁공격수	-13219
▁없어서	-13220
▁코드를	-13221
▁그레고리오	-13222
▁쌓은	-13223
▁일화	-13224
▁피로	-13225
는지는	-13226
▁정권의	-13227
▁1800	-13228
순은	-13229
업의	-13230
테크	-13231
▁잔류	-13232
▁노선의	-13233
적으로도	-13234
▁설치하고	-13235
;&	-13236
세르	-13237
황이	-13238
▁시공	-13239
▁씨의	-13240
▁판례	-13241
▁주목할	-13242
ii	-13243
너가	-13244
당해	-13245
대대	-13246
받게	-13247
브르	-13248
▁Ne	-13249
▁공손	-13250
▁이데	-13251
왕후의	-13252
▁센다이	-13253
▁의미는	-13254
▁학문을	-13255
들에게는	-13256
▁수준으로	-13257
▁평가했다	-13258
▁스코틀랜드의	-13259
▁산의	-13260
▁저렴	-13261
▁원인을	-13262
▁카스티	-13263
▁위원회의	-13264
▁이루어지지	-13265
US	-13266
돌은	-13267
테면	-13268
▁74	-13269
▁유연	-13270
▁포드	-13271
전이다	-13272
회의원	-13273
▁미네소	-13274
▁페이스북	-13275
▁뱅	-13276
나서	-13277
여우	-13278
킨스	-13279
화점	-13280
▁막시	-13281
▁성숙	-13282
▁죽어	-13283
그라드	-13284
▁게임에	-13285
▁생방송	-13286
▁포로로	-13287
▁대통령과	-13288
▁불가능한	-13289
▁예선에서	-13290
GA	-13291
▁ID	-13292
▁선과	-13293
▁쪽은	-13294
▁키워	-13295
레스의	-13296
루스의	-13297
▁다니는	-13298
▁도입된	-13299
▁암호화	-13300
▁위험을	-13301
▁정치를	-13302
▁제작을	-13303
▁필리프	-13304
▁기슭	-13305
▁사간	-13306
▁석탑	-13307
▁얼음	-13308
▁영산	-13309
▁탐색	-13310
▁1860	-13311
▁연세대학교	-13312
에의	-13313
왔던	-13314
▁주오	-13315
▁관련해	-13316
▁단어를	-13317
▁6,	-13318
▁강희	-13319
▁창녕	-13320
▁퇴역	-13321
▁협정	-13322
▁새로이	-13323
▁영향이	-13324
▁전반에	-13325
▁혁명의	-13326
▁학생들의	-13327
▁형성하고	-13328
관련	-13329
메드	-13330
올라	-13331
▁기어	-13332
자에서	-13333
▁만족시키는	-13334
CAF	-13335
ake	-13336
▁루시	-13337
선수단	-13338
▁900	-13339
▁건축물이다	-13340
주자	-13341
▁기증	-13342
▁슈트	-13343
▁안테	-13344
▁오로	-13345
▁지수	-13346
▁코코	-13347
▁호출	-13348
▁증거가	-13349
▁거뒀	-13350
▁단절	-13351
▁동위	-13352
▁무슨	-13353
▁주위	-13354
▁테르	-13355
루스는	-13356
월에서	-13357
▁운영을	-13358
▁깨끗	-13359
▁남구	-13360
▁서민	-13361
아야	-13362
운이	-13363
타워	-13364
▁고기	-13365
▁스태	-13366
▁산업의	-13367
▁작가의	-13368
▁종교개혁	-13369
▁효과적으로	-13370
▁번에	-13371
▁사정	-13372
▁질환	-13373
▁이곳을	-13374
▁건설되었다	-13375
GB	-13376
▁법의	-13377
▁어둠	-13378
▁칼뱅	-13379
▁키스	-13380
▁호응	-13381
▁말하면	-13382
▁크기를	-13383
▁하에서	-13384
▁입장에서	-13385
▁87	-13386
▁견제	-13387
▁패럴	-13388
레이크	-13389
▁국립공	-13390
▁영화가	-13391
TP	-13392
▁쿤	-13393
주어	-13394
▁검출	-13395
▁판정	-13396
▁이를테면	-13397
▁함부르크	-13398
학부	-13399
▁81	-13400
▁CS	-13401
▁과일	-13402
▁이장	-13403
▁언급했다	-13404
▁때문이라고	-13405
iss	-13406
▁끝날	-13407
▁수축	-13408
▁규정에	-13409
▁개인적인	-13410
▁흥선대원	-13411
▁비판하였다	-13412
▁문화체육관광부	-13413
국립	-13414
단지	-13415
직의	-13416
쿠니	-13417
▁급성	-13418
▁세라	-13419
▁동안의	-13420
▁최소한	-13421
▁이탈리아에서	-13422
링턴	-13423
애틀	-13424
타스	-13425
타입	-13426
▁리베	-13427
▁나란히	-13428
▁본인이	-13429
▁서울대	-13430
▁알프레	-13431
체고	-13432
해튼	-13433
▁구약	-13434
▁무실	-13435
계약을	-13436
호선과	-13437
▁유형의	-13438
▁기록으로	-13439
old	-13440
▁신조	-13441
▁헬리	-13442
▁스페이스	-13443
▁시대부터	-13444
계급	-13445
교와	-13446
한이	-13447
▁임관	-13448
▁치른	-13449
▁미쳤다	-13450
▁백제의	-13451
▁조사에	-13452
▁대한민국과	-13453
▁도입하였다	-13454
co	-13455
▁스노	-13456
▁온대	-13457
▁지름	-13458
▁20%	-13459
▁경제의	-13460
▁공격하여	-13461
sh	-13462
칼리	-13463
표가	-13464
▁보성	-13465
▁크롬	-13466
▁있거나	-13467
▁해마다	-13468
막을	-13469
혹한	-13470
▁유라	-13471
▁이산	-13472
▁조립	-13473
▁필드	-13474
▁환영	-13475
▁효고	-13476
위원을	-13477
▁더이상	-13478
▁대표적으로	-13479
근이	-13480
발은	-13481
▁낳은	-13482
▁아닐	-13483
▁전지	-13484
▁송나라	-13485
▁대학교를	-13486
▁예정이었으나	-13487
▁강동	-13488
▁강은	-13489
▁공과	-13490
기록을	-13491
차이나	-13492
▁선생의	-13493
▁의원을	-13494
▁제치고	-13495
독일	-13496
랑을	-13497
체계	-13498
▁꽃이	-13499
▁선도	-13500
▁영지	-13501
▁조화	-13502
▁문화와	-13503
▁미래의	-13504
▁작업에	-13505
내지	-13506
발로	-13507
▁본거	-13508
▁자크	-13509
▁리스트	-13510
▁쌍둥이	-13511
▁이내에	-13512
▁고려시대	-13513
▁나중에는	-13514
▁설립되었으며	-13515
EM	-13516
준이	-13517
▁가환	-13518
품으로	-13519
▁뉴저지	-13520
▁요새를	-13521
시켰으며	-13522
▁대학교는	-13523
▁킥	-13524
메다	-13525
인터	-13526
▁충실	-13527
▁사업에	-13528
▁연합군	-13529
▁장비를	-13530
▁정치에	-13531
▁가동	-13532
▁간토	-13533
▁김민	-13534
▁김병	-13535
▁미친	-13536
▁현금	-13537
▁회수	-13538
▁아름답	-13539
▁주장에	-13540
▁프로덕션	-13541
가수	-13542
전략	-13543
통은	-13544
▁불명	-13545
▁유권	-13546
▁NGC	-13547
▁되었던	-13548
▁룰	-13549
암은	-13550
▁볼로	-13551
▁함대	-13552
▁데뷔한	-13553
▁중대한	-13554
▁삼층석탑	-13555
▁천연기념	-13556
▁간신	-13557
▁낙동	-13558
▁니코	-13559
▁달걀	-13560
▁말미	-13561
게이트	-13562
▁보다는	-13563
▁이용객	-13564
분과	-13565
▁위헌	-13566
렸지만	-13567
하이드	-13568
▁격렬한	-13569
▁기업인	-13570
▁지역구	-13571
▁진행했다	-13572
미한	-13573
ere	-13574
▁7,	-13575
▁나섰	-13576
▁실버	-13577
▁청소	-13578
▁평정	-13579
▁설명할	-13580
▁1880	-13581
▁빔	-13582
병과	-13583
▁고사	-13584
▁알지	-13585
▁충성	-13586
▁퍼포	-13587
▁지나는	-13588
▁꿀	-13589
캐슬	-13590
ick	-13591
▁가볍	-13592
▁맺은	-13593
▁모양이	-13594
▁사이토	-13595
▁아마존	-13596
▁영국에	-13597
▁드라이브	-13598
▁점령하고	-13599
▁통일신라	-13600
▁포기하고	-13601
노에	-13602
야에	-13603
집단	-13604
▁내무	-13605
▁보드	-13606
▁비치	-13607
▁아바	-13608
▁경계로	-13609
▁도시에	-13610
▁접하며	-13611
▁수료	-13612
▁실력	-13613
▁튀니	-13614
브리아	-13615
천으로	-13616
▁수행할	-13617
▁러시아는	-13618
기자	-13619
own	-13620
▁각색	-13621
▁창출	-13622
▁화강	-13623
▁히타	-13624
호선이	-13625
▁주제를	-13626
▁올라간다	-13627
▁상트페테르부르크	-13628
락이	-13629
변의	-13630
▁수색	-13631
▁위와	-13632
▁건설을	-13633
▁뒤에도	-13634
▁진출한	-13635
▁출신이며	-13636
년하계올림픽	-13637
에미	-13638
▁여운	-13639
▁이태	-13640
▁짐작	-13641
터에서	-13642
▁내려가	-13643
▁물건을	-13644
▁넓게	-13645
▁진지	-13646
되므로	-13647
웨이트	-13648
학교의	-13649
▁수익을	-13650
▁푸에르	-13651
GM	-13652
▁BS	-13653
▁공습	-13654
▁덮여	-13655
▁종족	-13656
끄러운	-13657
지역에	-13658
▁목록에	-13659
▁볼셰비	-13660
▁산하의	-13661
▁장군은	-13662
-14	-13663
▁탄도	-13664
▁설치하여	-13665
▁취임하였다	-13666
▁커뮤니케이션	-13667
▁겁	-13668
▁엮	-13669
▁반공	-13670
▁중장	-13671
판에서	-13672
▁경찰의	-13673
▁방사성	-13674
▁스리랑	-13675
▁듀얼	-13676
들보다	-13677
▁딸이다	-13678
▁위원장	-13679
되어있다	-13680
▁해당된다	-13681
린을	-13682
▁값이	-13683
▁권총	-13684
▁성종	-13685
▁CEO	-13686
▁뒤이어	-13687
▁섬이다	-13688
▁친일파	-13689
▁게임에서	-13690
▁시작하면서	-13691
공주	-13692
보니	-13693
컨대	-13694
▁배가	-13695
▁부채	-13696
▁영유	-13697
▁이닝	-13698
테스트	-13699
▁30%	-13700
▁스즈키	-13701
▁중점을	-13702
▁태국의	-13703
▁대응하는	-13704
▁..	-13705
▁빈번	-13706
▁추첨	-13707
▁패널	-13708
▁아스널	-13709
▁그로부터	-13710
▁단계에서	-13711
▁후임으로	-13712
티가	-13713
티시	-13714
▁마블	-13715
▁카카	-13716
거리가	-13717
▁국왕의	-13718
▁비용이	-13719
ix	-13720
▁남게	-13721
▁보게	-13722
▁헌정	-13723
사단은	-13724
▁교회를	-13725
▁마을에	-13726
▁웨스턴	-13727
▁재판을	-13728
▁2022	-13729
▁씌	-13730
났을	-13731
부상	-13732
브루	-13733
직은	-13734
▁면적	-13735
▁적다	-13736
▁탁월	-13737
▁프레데	-13738
▁보도했다	-13739
거진	-13740
항에	-13741
▁고인	-13742
▁병을	-13743
▁신정	-13744
사회의	-13745
▁투수가	-13746
▁휘하의	-13747
▁도시에서	-13748
살의	-13749
할때	-13750
히데	-13751
▁동참	-13752
▁입을	-13753
▁칭찬	-13754
▁결정한다	-13755
로프	-13756
았기	-13757
운다	-13758
초는	-13759
훈을	-13760
▁온갖	-13761
▁허위	-13762
▁경향을	-13763
▁고향인	-13764
▁행동에	-13765
대학교는	-13766
▁정치적인	-13767
평론	-13768
▁79	-13769
▁LA	-13770
▁가려	-13771
▁광양	-13772
▁두꺼	-13773
▁하차	-13774
▁크라이	-13775
▁환자의	-13776
▁받았다고	-13777
▁승강장을	-13778
▁드래프트에서	-13779
테는	-13780
▁들을	-13781
▁로그	-13782
▁벌금	-13783
▁사관	-13784
▁치안	-13785
▁투르	-13786
기관의	-13787
마스터	-13788
▁조직이	-13789
▁Tr	-13790
▁감마	-13791
▁유러	-13792
▁장흥	-13793
▁GDP	-13794
▁지도를	-13795
▁공개했다	-13796
▁시스템에	-13797
St	-13798
▁CN	-13799
▁없었	-13800
▁편지	-13801
▁하부	-13802
명에서	-13803
하기는	-13804
▁어드벤처	-13805
▁구성되었다	-13806
▁넘게	-13807
▁이고	-13808
우스가	-13809
▁끌었다	-13810
유지	-13811
▁아산	-13812
▁정립	-13813
키아의	-13814
▁위원회는	-13815
날레	-13816
상업	-13817
▁기회	-13818
▁이규	-13819
▁아키텍	-13820
▁알리는	-13821
▁열린다	-13822
▁질량이	-13823
▁부드러운	-13824
++	-13825
스페	-13826
▁구와	-13827
▁땄다	-13828
▁조조	-13829
▁진을	-13830
직으로	-13831
▁III	-13832
▁기간은	-13833
▁데스크	-13834
▁동영상	-13835
▁강에	-13836
▁갱신	-13837
▁숙청	-13838
▁열심	-13839
▁유벤	-13840
▁자아	-13841
되도록	-13842
크리트	-13843
▁가브리엘	-13844
▁독립운동가	-13845
나리	-13846
▁문인	-13847
▁발병	-13848
▁여우	-13849
▁현악	-13850
안에서	-13851
▁버전을	-13852
▁보내고	-13853
공연	-13854
철이	-13855
하와	-13856
▁어뢰	-13857
▁유가	-13858
▁집결	-13859
▁제기되었다	-13860
▁플레이어는	-13861
편성	-13862
▁가네	-13863
▁세네	-13864
▁판사	-13865
▁붙여진	-13866
▁지구를	-13867
▁되어있다	-13868
말에	-13869
양성	-13870
▁아돌프	-13871
▁마을에서	-13872
▁일렉트로	-13873
▁학생들은	-13874
▁시작하였으며	-13875
건축	-13876
국적	-13877
코타	-13878
▁시립	-13879
▁워너	-13880
▁원의	-13881
업으로	-13882
학적인	-13883
▁똑같은	-13884
▁부대가	-13885
▁파란색	-13886
▁평화를	-13887
간은	-13888
점인	-13889
▁84	-13890
러시아	-13891
▁다녔다	-13892
OT	-13893
호텔	-13894
ork	-13895
▁Is	-13896
▁라그	-13897
▁없던	-13898
▁조세	-13899
▁컴백	-13900
년대와	-13901
▁메달을	-13902
▁명이다	-13903
▁인증을	-13904
피가	-13905
▁잘라	-13906
▁콜라	-13907
ence	-13908
▁시대가	-13909
▁개념이다	-13910
루냐	-13911
커가	-13912
히트	-13913
▁소모	-13914
▁수장	-13915
▁프렌	-13916
▁가지의	-13917
▁다케다	-13918
▁예이다	-13919
▁미사일을	-13920
▁분위기를	-13921
FF	-13922
MC	-13923
벨라	-13924
유도	-13925
전국	-13926
▁화순	-13927
도르프	-13928
▁보여준	-13929
▁헌법에	-13930
▁개념으로	-13931
▁실시하고	-13932
토와	-13933
▁길에	-13934
▁냄새	-13935
▁마녀	-13936
▁매매	-13937
▁사랑에	-13938
▁인간을	-13939
▁하이드	-13940
▁의미하며	-13941
▁허리케인	-13942
▁임명되었고	-13943
▁팰	-13944
복은	-13945
형사	-13946
▁메릴	-13947
▁성이	-13948
▁인명	-13949
▁세워져	-13950
▁생물학적	-13951
▁발각	-13952
▁유진	-13953
▁한해	-13954
받았고	-13955
▁애비뉴	-13956
▁둘러싸여	-13957
▁불가능하다	-13958
.11	-13959
▁마닐	-13960
▁예시	-13961
▁중서	-13962
당하는	-13963
▁아니라는	-13964
▁등장하였다	-13965
림과	-13966
이한	-13967
▁제퍼	-13968
수에서	-13969
▁세이부	-13970
▁자기의	-13971
▁허가를	-13972
▁그러다가	-13973
▁나타내고	-13974
▁델라	-13975
▁세비	-13976
▁태백	-13977
▁기여를	-13978
▁음반으로	-13979
▁조별리그	-13980
▁적용되었다	-13981
규는	-13982
진보	-13983
취를	-13984
▁경연	-13985
▁배후	-13986
▁앞장	-13987
▁오류	-13988
▁비하여	-13989
▁비행기	-13990
▁선출된	-13991
명이었다	-13992
▁71	-13993
▁No	-13994
▁SD	-13995
▁국어	-13996
▁윤보	-13997
▁전격	-13998
여명의	-13999
▁저기압	-14000
▁미네소타	-14001
▁쾰	-14002
플레	-14003
▁비영	-14004
▁뽑아	-14005
▁암흑	-14006
▁이빨	-14007
▁것인지	-14008
▁계약이	-14009
▁대표는	-14010
▁모티브	-14011
▁가정에서	-14012
▁되었다는	-14013
▁최대풍속	-14014
광을	-14015
피에	-14016
▁과의	-14017
▁진실	-14018
했음을	-14019
▁위험이	-14020
▁전투의	-14021
▁정권이	-14022
▁회사인	-14023
▁우승했다	-14024
▁작가이다	-14025
▁향토문화	-14026
니치	-14027
벌을	-14028
▁소리가	-14029
▁스테이	-14030
▁작업이	-14031
▁각지에서	-14032
▁선수로서	-14033
▁스튜디오에서	-14034
ear	-14035
▁관악	-14036
▁다마	-14037
▁생체	-14038
▁형상	-14039
주이다	-14040
▁외에는	-14041
▁클레멘	-14042
▁이적하여	-14043
노르	-14044
맥스	-14045
운은	-14046
▁자생	-14047
▁측에	-14048
▁대도시	-14049
▁마다가	-14050
▁마오쩌	-14051
▁상황은	-14052
▁청주시	-14053
▁여우주연	-14054
▁김옥	-14055
▁돌을	-14056
▁지미	-14057
▁카사	-14058
▁공항은	-14059
▁시애틀	-14060
▁일제의	-14061
▁토지를	-14062
▁밭	-14063
지오	-14064
▁나를	-14065
▁사바	-14066
▁용병	-14067
번으로	-14068
▁마르틴	-14069
집행	-14070
창의	-14071
▁견인	-14072
▁점수를	-14073
▁사용하면	-14074
형제	-14075
▁정유	-14076
현에서	-14077
▁궤도를	-14078
▁미술관	-14079
▁자세히	-14080
업과	-14081
▁내정	-14082
▁다테	-14083
▁믿는	-14084
▁유의	-14085
▁입헌	-14086
▁퇴적	-14087
▁모습은	-14088
▁반도체	-14089
▁성리	-14090
▁350	-14091
▁건축가	-14092
▁김정은	-14093
▁애리조	-14094
▁연구와	-14095
▁활발히	-14096
▁합류했다	-14097
▁팔레스타인	-14098
나에	-14099
망의	-14100
염을	-14101
현대	-14102
▁들려	-14103
▁이방	-14104
▁하비	-14105
▁국가와	-14106
▁사전에	-14107
▁흔적이	-14108
효과	-14109
_12	-14110
▁세조	-14111
▁장미	-14112
▁별개의	-14113
▁연구에서	-14114
au	-14115
절이	-14116
▁마가	-14117
▁워크	-14118
▁황해	-14119
▁교수를	-14120
▁아폴로	-14121
▁임명된	-14122
▁잡아먹	-14123
▁트로이	-14124
▁표현한	-14125
▁1870	-14126
▁섀	-14127
▁곡선	-14128
▁원조	-14129
▁키는	-14130
클레오	-14131
▁기관총	-14132
▁기업이	-14133
▁선수들	-14134
▁시험을	-14135
▁거부하고	-14136
▁시뮬레이션	-14137
▁낫	-14138
▁박지	-14139
▁이타	-14140
▁헬륨	-14141
바야시	-14142
▁동일하다	-14143
▁오클랜드	-14144
CC	-14145
형인	-14146
▁나은	-14147
▁천재	-14148
▁폭행	-14149
▁휴전	-14150
것으로	-14151
▁서식지는	-14152
마크	-14153
물리	-14154
▁미셸	-14155
▁불태	-14156
▁해고	-14157
▁엔진이	-14158
▁주머니	-14159
▁양반	-14160
▁꼽힌다	-14161
▁누구나	-14162
▁치열한	-14163
▁사용되며	-14164
ox	-14165
▁뷔	-14166
당인	-14167
irl	-14168
▁가열	-14169
▁굵은	-14170
▁권유	-14171
▁모인	-14172
▁종착	-14173
▁직장	-14174
▁차용	-14175
▁프로젝트의	-14176
▁뾰	-14177
▁난을	-14178
▁때가	-14179
▁숨어	-14180
사무소	-14181
▁실력을	-14182
▁투수로	-14183
▁1885	-14184
모스	-14185
부리	-14186
▁지평	-14187
▁맨해튼	-14188
▁이르렀	-14189
▁종교의	-14190
▁현재도	-14191
거의	-14192
▁개를	-14193
▁경찰이	-14194
▁어렸을	-14195
▁주위에	-14196
▁공격으로	-14197
▁연합군의	-14198
▁출판되었다	-14199
include	-14200
▁별이	-14201
▁상인	-14202
▁앤더	-14203
▁제의	-14204
▁표지	-14205
▁회로	-14206
▁나라는	-14207
▁시간의	-14208
▁지구에	-14209
▁콤팩트	-14210
▁디비시온	-14211
선수권대회	-14212
▁명사	-14213
▁분출	-14214
▁학원	-14215
▁일어나고	-14216
▁합스부르크	-14217
▁으	-14218
있게	-14219
창은	-14220
-13	-14221
▁양을	-14222
▁연수	-14223
▁조광	-14224
▁파동	-14225
lass	-14226
▁NAS	-14227
▁사거리	-14228
▁형성되어	-14229
콜라	-14230
트루	-14231
▁상해	-14232
▁회피	-14233
▁히라	-14234
▁홍콩의	-14235
▁야마구치	-14236
▁다이아몬드	-14237
▁케임브리지	-14238
편은	-14239
▁동인	-14240
▁전날	-14241
▁투명	-14242
조에서	-14243
▁가문은	-14244
▁말까지	-14245
▁세력은	-14246
▁시청률	-14247
▁역까지	-14248
▁절차를	-14249
▁인터페이	-14250
▁릭	-14251
중추	-14252
출판	-14253
▁89	-14254
▁김구	-14255
▁연못	-14256
▁취임했다	-14257
복의	-14258
▁몸의	-14259
▁샌드	-14260
▁것입니다	-14261
▁방송되는	-14262
▁벨기에의	-14263
▁북아일랜드	-14264
러드	-14265
태를	-14266
▁가구	-14267
▁광명	-14268
▁세기	-14269
위이다	-14270
▁센고쿠	-14271
▁가자	-14272
▁수녀	-14273
▁체인	-14274
▁통용	-14275
▁피를	-14276
▁확신	-14277
석에서	-14278
▁주위를	-14279
▁연결되는	-14280
▁곤란	-14281
▁미터	-14282
▁상담	-14283
▁줄여	-14284
▁문제와	-14285
▁빨간색	-14286
▁오로지	-14287
▁집안의	-14288
▁올랐으며	-14289
▁우즈베키스탄	-14290
▁앰	-14291
니오	-14292
▁이룩	-14293
▁나오고	-14294
▁비주얼	-14295
▁이상한	-14296
▁간주된다	-14297
▁발생하여	-14298
MI	-14299
령과	-14300
▁갑옷	-14301
▁고소	-14302
▁빌라	-14303
▁서원	-14304
▁차원	-14305
▁황족	-14306
▁기반한	-14307
▁인류의	-14308
▁전략을	-14309
▁통합하여	-14310
능한	-14311
▁감싸	-14312
▁누적	-14313
▁돌출	-14314
▁드레	-14315
▁밀리	-14316
▁오크	-14317
▁가지로	-14318
▁요시노	-14319
▁카르타	-14320
▁케네디	-14321
▁선수단은	-14322
▁최고인민	-14323
▁딕	-14324
▁살려	-14325
▁음료	-14326
▁체크	-14327
▁가족과	-14328
▁무대로	-14329
▁붙었다	-14330
▁인디애나	-14331
롭고	-14332
요를	-14333
루시아	-14334
해졌고	-14335
▁스카우	-14336
▁컨트리	-14337
▁진행하는	-14338
▁방송되었던	-14339
▁프로젝트는	-14340
군다	-14341
록을	-14342
번이	-14343
▁들어올	-14344
▁로마에	-14345
▁길이의	-14346
▁올바른	-14347
▁회원국	-14348
▁기본으로	-14349
감의	-14350
처는	-14351
▁둔다	-14352
▁80%	-14353
▁공격해	-14354
▁구단은	-14355
▁스포르	-14356
▁1871	-14357
▁세종특별자치	-14358
랑은	-14359
러브	-14360
▁교양	-14361
▁돌격	-14362
▁박헌	-14363
▁부도	-14364
▁스텔	-14365
▁조병	-14366
▁즈음	-14367
▁터치	-14368
팀으로	-14369
▁가사를	-14370
▁여성을	-14371
▁일대의	-14372
▁창원시	-14373
도스	-14374
케는	-14375
▁매체	-14376
▁기간이	-14377
▁경기도의	-14378
▁엇	-14379
▁상표	-14380
▁음원	-14381
▁자칭	-14382
▁장을	-14383
▁총장	-14384
▁환자	-14385
▁가격이	-14386
▁구단이	-14387
▁시장의	-14388
▁열매는	-14389
▁작성한	-14390
▁태권도	-14391
▁시즌부터	-14392
비오	-14393
포와	-14394
관계가	-14395
▁USS	-14396
▁불규칙	-14397
▁이해할	-14398
▁카드를	-14399
▁퍼포먼	-14400
위원회에	-14401
▁은퇴했다	-14402
▁경기장이다	-14403
col	-14404
▁미라	-14405
▁보라	-14406
▁봉기	-14407
▁이건	-14408
▁기술적	-14409
▁반도의	-14410
▁선발로	-14411
박쥐과에	-14412
▁사용되지	-14413
▁정의된다	-14414
▁학생들을	-14415
RE	-14416
▁썬	-14417
암의	-14418
▁닫힌	-14419
▁데카	-14420
▁박람	-14421
▁상응	-14422
▁손실	-14423
공으로	-14424
▁관직에	-14425
▁마스크	-14426
▁바꾸는	-14427
▁로마에서	-14428
▁인정하는	-14429
▁IN	-14430
▁궁궐	-14431
▁기기	-14432
▁삼척	-14433
▁실존	-14434
▁직할	-14435
케라톱	-14436
▁103	-14437
▁소련은	-14438
▁자란다	-14439
▁중국은	-14440
▁해군은	-14441
▁GN	-14442
▁데모	-14443
▁목성	-14444
▁베른	-14445
▁양육	-14446
▁치세	-14447
속에서	-14448
▁방법에	-14449
▁본래의	-14450
어리	-14451
▁늑대	-14452
▁혁명을	-14453
▁대대적인	-14454
▁부근에서	-14455
▁유러피언	-14456
▁해체되었다	-14457
직할	-14458
▁대북	-14459
▁추종	-14460
▁도마뱀	-14461
▁접근할	-14462
▁평론가	-14463
▁아리스토텔레	-14464
▁간선	-14465
▁맞고	-14466
▁혐의	-14467
들었다	-14468
▁부드럽	-14469
덴부르크	-14470
▁공격했다	-14471
LA	-14472
▁노인	-14473
▁만료	-14474
▁사리	-14475
▁아날	-14476
▁약혼	-14477
▁소문이	-14478
▁위주로	-14479
▁평안남도	-14480
▁기록되었다	-14481
개에	-14482
러를	-14483
히코	-14484
700	-14485
▁끌고	-14486
▁부재	-14487
▁터보	-14488
▁묘사한	-14489
▁사건과	-14490
▁슬라브	-14491
▁올리는	-14492
▁장소로	-14493
▁클라우드	-14494
▁면허	-14495
▁초빙	-14496
▁토끼	-14497
▁함양	-14498
▁안전한	-14499
▁자랐다	-14500
▁장애인	-14501
▁킬로미터	-14502
▁j	-14503
아래	-14504
야와	-14505
▁대행	-14506
▁동점	-14507
▁발의	-14508
▁현행	-14509
▁갈등이	-14510
▁극심한	-14511
▁높이가	-14512
▁뛰었다	-14513
▁리그인	-14514
▁물질이	-14515
ivers	-14516
▁수단으로	-14517
토모	-14518
▁가을에	-14519
▁도왔다	-14520
▁받으면서	-14521
▁당원	-14522
▁스칸	-14523
▁All	-14524
▁중국인	-14525
▁플라이	-14526
▁오사카부	-14527
▁노란	-14528
▁원격	-14529
▁저널	-14530
▁처분	-14531
개월간	-14532
▁수학적	-14533
▁안티오	-14534
▁게임으로	-14535
▁병원에서	-14536
MB	-14537
▁강진	-14538
▁돌로	-14539
▁치고	-14540
▁펜싱	-14541
▁CBS	-14542
▁가져온	-14543
▁건설된	-14544
▁인간은	-14545
▁사람들과	-14546
▁일이었다	-14547
▁더불어민주	-14548
▁낚	-14549
▁태자	-14550
▁해저	-14551
▁논란을	-14552
▁따뜻한	-14553
▁수도를	-14554
▁흐름을	-14555
액이	-14556
▁가솔	-14557
▁동조	-14558
▁선비	-14559
▁연소	-14560
▁호프	-14561
이었을	-14562
▁EBS	-14563
▁그곳에	-14564
▁동유럽	-14565
▁모니터	-14566
▁제시한	-14567
▁코치를	-14568
학자이자	-14569
▁알래스카	-14570
▁주자	-14571
▁타당	-14572
타이드	-14573
▁균형을	-14574
▁제한된	-14575
메가	-14576
▁경에	-14577
▁델타	-14578
▁업적	-14579
▁사카이	-14580
▁스테파	-14581
▁자유형	-14582
CACAF	-14583
약한	-14584
요리	-14585
▁년간	-14586
▁상경	-14587
▁올드	-14588
론으로	-14589
▁싸우는	-14590
▁제도에	-14591
▁종목은	-14592
▁플래시	-14593
▁with	-14594
▁노래이다	-14595
▁역사에서	-14596
az	-14597
민과	-14598
▁공표	-14599
▁회화	-14600
블랜드	-14601
▁5.1	-14602
▁마라톤	-14603
,6	-14604
세다	-14605
티넘	-14606
▁않자	-14607
티아의	-14608
▁One	-14609
▁통치를	-14610
▁프로그램으로	-14611
▁맘	-14612
▁헥	-14613
▁구해	-14614
▁차를	-14615
만명의	-14616
▁독일에	-14617
▁정책은	-14618
▁한국과	-14619
주의적인	-14620
▁유래했다	-14621
▁필요성을	-14622
▁뻔	-14623
네르	-14624
▁취항	-14625
누스의	-14626
▁바꾸고	-14627
▁붙였다	-14628
▁완성된	-14629
▁형성하는	-14630
▁활동하다가	-14631
▁얕	-14632
제학	-14633
▁경작	-14634
▁부시	-14635
▁불린	-14636
▁막부의	-14637
▁의무를	-14638
▁나타나고	-14639
ife	-14640
▁요인	-14641
▁작아	-14642
▁전래	-14643
년에도	-14644
▁대신해	-14645
감염	-14646
채는	-14647
▁삼중	-14648
▁Mus	-14649
▁나라가	-14650
▁민간인	-14651
▁음반에	-14652
▁지난날	-14653
▁살아있는	-14654
▁항공모함	-14655
들리	-14656
▁가맹	-14657
▁제너	-14658
▁팀과	-14659
회의를	-14660
▁철학적	-14661
▁옥스퍼드	-14662
▁오케스트라	-14663
▁웬	-14664
나로	-14665
법상	-14666
채가	-14667
▁고산	-14668
▁은거	-14669
▁카시	-14670
▁그룹을	-14671
▁동쪽의	-14672
▁실패하고	-14673
▁사용하기도	-14674
▁슬로베니아	-14675
궁을	-14676
숙은	-14677
안과	-14678
야스	-14679
어족	-14680
카리	-14681
화할	-14682
▁다를	-14683
▁서산	-14684
아버지	-14685
자리의	-14686
▁심리학	-14687
▁인테르	-14688
▁트럼프	-14689
▁현상은	-14690
▁이전까지	-14691
▁%	-14692
공무	-14693
전인	-14694
파리	-14695
▁공수	-14696
▁소통	-14697
▁방문하여	-14698
▁클럽이다	-14699
▁미션	-14700
▁복소	-14701
▁복용	-14702
▁선로	-14703
▁풍자	-14704
경찰서	-14705
▁사태가	-14706
▁죽음의	-14707
▁남북으로	-14708
▁10,000	-14709
람쥐	-14710
▁가늘	-14711
▁공신	-14712
▁평을	-14713
▁하치	-14714
제도를	-14715
▁브리튼	-14716
▁소나타	-14717
▁손해배	-14718
▁전쟁과	-14719
▁하느님	-14720
▁고려하여	-14721
▁연기했다	-14722
▁은퇴하였다	-14723
▁싣	-14724
난성	-14725
삼존	-14726
초로	-14727
lat	-14728
▁어쩔	-14729
▁옵션	-14730
▁포착	-14731
▁박쥐의	-14732
▁동일하게	-14733
▁운영되고	-14734
보리	-14735
청구	-14736
_13	-14737
ild	-14738
▁kt	-14739
▁단식	-14740
▁반경	-14741
▁사서	-14742
▁종을	-14743
▁진해	-14744
▁분리된	-14745
▁책이다	-14746
기갑	-14747
상도	-14748
.2%	-14749
▁배려	-14750
▁순조	-14751
▁충전	-14752
대통령	-14753
▁가족을	-14754
▁순위를	-14755
▁생겨났다	-14756
▁용어이다	-14757
▁평안북도	-14758
EG	-14759
난을	-14760
▁부각	-14761
▁예하	-14762
밀하게	-14763
심으로	-14764
▁분석을	-14765
▁순으로	-14766
▁위에는	-14767
▁의혹이	-14768
▁애틀랜타	-14769
Co	-14770
FL	-14771
▁감금	-14772
▁방침	-14773
▁읽고	-14774
▁최성	-14775
▁파산	-14776
부에는	-14777
▁THE	-14778
▁사라진	-14779
▁관할했다	-14780
년동	-14781
▁기단	-14782
▁대마	-14783
▁불참	-14784
▁앞의	-14785
▁두개골	-14786
▁의혹을	-14787
▁자체의	-14788
▁스트라이커	-14789
▁맺어	-14790
▁명목	-14791
▁무척	-14792
▁요하	-14793
▁타협	-14794
▁결정에	-14795
▁시기에는	-14796
▁요청했다	-14797
▁추구하는	-14798
조각	-14799
▁Ex	-14800
▁레온	-14801
▁배속	-14802
▁뾰족	-14803
▁MTV	-14804
▁파이터	-14805
▁성적으로	-14806
▁오아	-14807
▁지쿠	-14808
▁후세	-14809
▁구간의	-14810
▁그룹이	-14811
▁레스토	-14812
▁십자군	-14813
▁와일드	-14814
▁디자인은	-14815
▁애리조나	-14816
▁오늘날에는	-14817
놀이	-14818
▁83	-14819
▁청산	-14820
▁키가	-14821
▁표본	-14822
▁소련이	-14823
▁오르는	-14824
▁전통적	-14825
▁조성된	-14826
▁지원하고	-14827
노를	-14828
망에	-14829
사르	-14830
트레	-14831
▁이븐	-14832
▁하반	-14833
▁선택할	-14834
▁원나라	-14835
▁도착했다	-14836
여자고등학교	-14837
▁흠	-14838
루수	-14839
▁의결	-14840
스트가	-14841
ical	-14842
▁되던	-14843
▁성에	-14844
▁자산	-14845
▁법무부	-14846
▁1600	-14847
▁증가하고	-14848
▁개봉되었다	-14849
▁샐	-14850
는가	-14851
승의	-14852
시한	-14853
업체	-14854
작인	-14855
▁결별	-14856
▁세자	-14857
▁협조	-14858
▁모두를	-14859
▁연합의	-14860
▁이전부터	-14861
렉션	-14862
▁긴테쓰	-14863
▁성으로	-14864
▁기여하였다	-14865
린과	-14866
▁겪고	-14867
▁우정	-14868
교에서	-14869
연으로	-14870
▁가깝다	-14871
▁국민당	-14872
▁물체의	-14873
▁않아서	-14874
▁축구단	-14875
▁도쿄에서	-14876
~6	-14877
풀이	-14878
▁Ad	-14879
▁바우	-14880
▁흥미	-14881
▁미치지	-14882
▁''	-14883
▁농장	-14884
▁음향	-14885
▁전함	-14886
▁조류	-14887
▁내리는	-14888
▁싸움을	-14889
":	-14890
▁퐁	-14891
장로	-14892
lay	-14893
▁93	-14894
▁독창	-14895
▁품질	-14896
리스는	-14897
▁말부터	-14898
▁서울특별시의	-14899
나시	-14900
태는	-14901
▁EU	-14902
▁공방	-14903
▁늦게	-14904
▁미만	-14905
▁생산된	-14906
▁쓰여진	-14907
킬로미터	-14908
▁가르쳤다	-14909
▁시리즈에	-14910
▁출연하여	-14911
▁체포되었다	-14912
질러	-14913
▁동학	-14914
▁티켓	-14915
▁고대의	-14916
▁미주리	-14917
▁열대폭	-14918
정상	-14919
▁거창	-14920
▁날이	-14921
▁내어	-14922
▁압력	-14923
▁전동	-14924
▁히사	-14925
▁머리에	-14926
▁방향에	-14927
세기에는	-14928
▁수행한다	-14929
▁클리블랜드	-14930
리마	-14931
티드	-14932
▁긴장	-14933
▁방화	-14934
▁약칭	-14935
▁트렌	-14936
▁패전	-14937
▁2-0	-14938
▁무렵에	-14939
▁유지하기	-14940
사한	-14941
▁김원	-14942
▁번성	-14943
▁아쿠	-14944
▁연인	-14945
▁쾰른	-14946
▁개인적	-14947
▁서재필	-14948
▁서쪽의	-14949
▁판매를	-14950
▁노선이다	-14951
▁샀	-14952
▁92	-14953
▁백두	-14954
▁시어	-14955
▁식당	-14956
▁신형	-14957
▁한중	-14958
▁확진	-14959
차례의	-14960
▁갈리아	-14961
▁찐	-14962
리던	-14963
▁맞대	-14964
▁청룡	-14965
▁115	-14966
▁공간은	-14967
▁하도록	-14968
계에서는	-14969
▁기념하여	-14970
▁체코슬로바키아	-14971
츠크	-14972
▁대패	-14973
▁신동	-14974
▁유타	-14975
▁제인	-14976
▁차체	-14977
▁탐구	-14978
▁남쪽은	-14979
▁못하여	-14980
▁아이폰	-14981
▁젊은이	-14982
▁변경했다	-14983
▁아무것도	-14984
▁오케스트	-14985
법률	-14986
종에	-14987
▁경질	-14988
▁고든	-14989
▁넷째	-14990
▁타구	-14991
▁합친	-14992
▁밴쿠버	-14993
▁성향의	-14994
▁하워드	-14995
▁공이	-14996
▁살라	-14997
▁의문	-14998
▁이현	-14999
▁중퇴	-15000
▁타케	-15001
정부는	-15002
▁서울에	-15003
▁신화의	-15004
▁에서는	-15005
▁전기의	-15006
▁조정의	-15007
▁총리는	-15008
▁발견되지	-15009
▁선수들은	-15010
~10	-15011
▁5.	-15012
▁비엔	-15013
▁피의	-15014
▁해가	-15015
▁방면으로	-15016
▁상관없이	-15017
▁야마가타	-15018
시킴	-15019
ica	-15020
▁남미	-15021
▁리보	-15022
▁명은	-15023
▁부총	-15024
▁원숭	-15025
▁짧고	-15026
▁솔로몬	-15027
▁내용이다	-15028
리니	-15029
▁몽고	-15030
▁방콕	-15031
▁헬레	-15032
각형의	-15033
지었다	-15034
쪽에는	-15035
▁왔으며	-15036
▁제국과	-15037
▁중심에	-15038
▁1200	-15039
▁늘어났다	-15040
▁필리핀의	-15041
▁이씨	-15042
▁태그	-15043
해야만	-15044
▁서쪽은	-15045
▁위키백과	-15046
▁수여받았다	-15047
▁국가대표팀에	-15048
/0	-15049
더를	-15050
절의	-15051
▁나루	-15052
▁안도	-15053
▁취업	-15054
▁여파로	-15055
▁주연을	-15056
▁지진이	-15057
개국에서	-15058
▁아이디얼	-15059
▁연극배우	-15060
더가	-15061
▁안드	-15062
▁예는	-15063
▁우회	-15064
▁코카	-15065
라디오	-15066
학교는	-15067
▁동대문	-15068
▁마누엘	-15069
▁생각이	-15070
▁세포의	-15071
▁앨범에	-15072
▁하루에	-15073
▁인공지능	-15074
리온	-15075
묘한	-15076
쉽게	-15077
che	-15078
ish	-15079
▁다툼	-15080
▁데서	-15081
▁요동	-15082
▁우측	-15083
▁전이	-15084
▁정선	-15085
▁즐길	-15086
▁승리에	-15087
▁싸웠다	-15088
▁열차의	-15089
▁유럽과	-15090
▁중국을	-15091
▁클럽의	-15092
박물관에	-15093
▁건물이다	-15094
▁전국적으로	-15095
ll	-15096
쿠르	-15097
하늘	-15098
▁나비	-15099
▁석회	-15100
연대는	-15101
▁저널리	-15102
▁한편으로	-15103
▁효과적인	-15104
무의	-15105
배가	-15106
추진	-15107
▁리바	-15108
▁좌석	-15109
▁증대	-15110
▁춤을	-15111
▁영국이	-15112
▁증상이	-15113
▁협력을	-15114
▁거부했다	-15115
oh	-15116
▁al	-15117
▁아유	-15118
▁왼손	-15119
▁용암	-15120
▁유식	-15121
예정자	-15122
▁달러에	-15123
▁했었다	-15124
▁대한항공	-15125
▁선수들의	-15126
▁냈	-15127
간지	-15128
-23	-15129
▁김유	-15130
▁파기	-15131
▁파손	-15132
티미터	-15133
▁내용에	-15134
▁되도록	-15135
▁않았다는	-15136
▁대각	-15137
▁인산	-15138
▁100%	-15139
▁압도적인	-15140
시인	-15141
▁고토	-15142
▁일일	-15143
▁죽인	-15144
▁투항	-15145
대회를	-15146
▁간신히	-15147
▁알파벳	-15148
▁일하고	-15149
▁제출한	-15150
▁표현할	-15151
▁관계없이	-15152
▁바르샤바	-15153
▁수록되었다	-15154
농업	-15155
독한	-15156
▁갤러	-15157
비치는	-15158
상규명	-15159
▁앨범인	-15160
▁내에서는	-15161
ax	-15162
심과	-15163
▁계수	-15164
▁국적	-15165
▁목판	-15166
▁바흐	-15167
▁온건	-15168
▁경쟁을	-15169
▁나라에	-15170
▁받아야	-15171
▁제목은	-15172
▁CONCACAF	-15173
▁맷	-15174
▁노면	-15175
▁혼성	-15176
승으로	-15177
▁권위를	-15178
▁영화제에서	-15179
제곱	-15180
▁모셔	-15181
▁박종	-15182
▁이렇	-15183
▁쾌속	-15184
탈리아	-15185
▁구하는	-15186
▁발견하고	-15187
밴드	-15188
타고	-15189
하르	-15190
▁과반	-15191
▁셀레	-15192
▁에게	-15193
▁한명	-15194
▁무리를	-15195
▁정도에	-15196
▁지역인	-15197
▁내부에서	-15198
▁이용된다	-15199
▁업그레이드	-15200
▁최고인민회의	-15201
일자	-15202
800	-15203
▁것일	-15204
▁미륵	-15205
▁반격	-15206
▁시정	-15207
▁소나무	-15208
▁심하게	-15209
▁단독으로	-15210
▁원인으로	-15211
▁하였지만	-15212
▁선수단이다	-15213
▁떡	-15214
▁다름	-15215
▁시몬	-15216
▁이송	-15217
▁입양	-15218
▁제임	-15219
▁투여	-15220
▁언론에	-15221
▁조약이	-15222
▁지리적	-15223
▁케이스	-15224
▁설명하고	-15225
▁아랍에미	-15226
▁주관하는	-15227
밀히	-15228
▁경희	-15229
▁궁전	-15230
▁입지	-15231
▁도입한	-15232
▁죽음에	-15233
년대까지	-15234
위한	-15235
▁글자	-15236
▁로얄	-15237
▁경제는	-15238
▁도덕적	-15239
▁강조했다	-15240
준을	-15241
▁산지	-15242
▁주입	-15243
▁헌신	-15244
년도에	-15245
당하여	-15246
세였다	-15247
▁바다에	-15248
▁시도를	-15249
▁명명되었다	-15250
럴드	-15251
서스	-15252
트넘	-15253
평의	-15254
▁조국	-15255
▁낳는다	-15256
▁당대의	-15257
▁떨어뜨	-15258
▁영지를	-15259
▁홍문관	-15260
RT	-15261
디와	-15262
▁SL	-15263
▁벌여	-15264
▁유혹	-15265
▁휩쓸	-15266
▁가르침	-15267
▁극장에서	-15268
▁종료되었다	-15269
7,	-15270
ah	-15271
▁정의는	-15272
▁지키기	-15273
▁표현이	-15274
▁헬리콥	-15275
▁혼란을	-15276
▁효과는	-15277
▁하느님의	-15278
▁네이션스컵	-15279
EL	-15280
나기	-15281
라니	-15282
원자	-15283
틴은	-15284
▁겹쳐	-15285
▁기수	-15286
▁최진	-15287
능력을	-15288
스키의	-15289
▁남성의	-15290
▁대화를	-15291
▁독일인	-15292
▁무궁화	-15293
▁에스페	-15294
▁코무네다	-15295
터키	-15296
황의	-15297
▁궁정	-15298
▁인원	-15299
▁절단	-15300
경기장	-15301
음보살	-15302
▁Mar	-15303
6,	-15304
ru	-15305
축을	-15306
해석	-15307
▁것의	-15308
▁얇은	-15309
▁전복	-15310
▁보고서	-15311
▁제정된	-15312
▁챌린지	-15313
▁담당한다	-15314
▁작품에서	-15315
▁임명하였다	-15316
인당	-15317
토로	-15318
▁리옹	-15319
▁문경	-15320
▁씨앗	-15321
고에서	-15322
▁전당에	-15323
▁에너지가	-15324
결혼	-15325
졌기	-15326
.4%	-15327
▁몰수	-15328
▁사쿠	-15329
▁염기	-15330
▁하르	-15331
▁논쟁이	-15332
▁전국의	-15333
▁토스카	-15334
▁1889	-15335
▁형성되었다	-15336
▁격투	-15337
▁시부	-15338
▁...	-15339
▁90%	-15340
▁똑같이	-15341
▁목성의	-15342
▁수도로	-15343
▁열차를	-15344
▁정의를	-15345
▁판매하는	-15346
IL	-15347
미타	-15348
하겐	-15349
.6%	-15350
▁마셜	-15351
▁미키	-15352
▁축조	-15353
▁프론	-15354
치에서	-15355
▁동쪽은	-15356
▁인접해	-15357
▁주도한	-15358
▁지키고	-15359
▁스톡홀름	-15360
▁진행하였다	-15361
▁강풍	-15362
▁고쿠	-15363
▁이득	-15364
▁토크	-15365
▁프롤	-15366
▁행진	-15367
▁겉보기	-15368
▁그렸다	-15369
▁열심히	-15370
▁함경남도	-15371
▁후지와라노	-15372
락은	-15373
부아	-15374
척을	-15375
▁헬싱	-15376
▁힘썼	-15377
▁선수의	-15378
▁세금을	-15379
▁시에서	-15380
▁참여할	-15381
▁수록예정자	-15382
데라	-15383
스퍼	-15384
조부	-15385
▁노조	-15386
▁대부	-15387
▁메뉴	-15388
하기가	-15389
only	-15390
▁대대로	-15391
▁조직은	-15392
▁정기적으로	-15393
ous	-15394
▁나노	-15395
▁렌즈	-15396
▁바꿨	-15397
▁봄에	-15398
▁차출	-15399
▁첨단	-15400
▁초고	-15401
▁칼럼	-15402
▁화를	-15403
▁뉴캐슬	-15404
▁대기업	-15405
▁역할은	-15406
▁체계는	-15407
▁한계를	-15408
pr	-15409
미래	-15410
아트	-15411
▁다투	-15412
▁부에	-15413
▁선원	-15414
▁윌슨	-15415
▁파인	-15416
▁구역은	-15417
▁레이싱	-15418
▁미하일	-15419
▁사상은	-15420
▁상처를	-15421
▁조반니	-15422
▁혐의를	-15423
셨다	-15424
창한	-15425
포에	-15426
▁개항	-15427
▁드라	-15428
▁점수	-15429
▁정동	-15430
되어서	-15431
▁몽골의	-15432
▁시간대	-15433
▁의사소	-15434
▁사용되기도	-15435
성인	-15436
월호	-15437
읍에	-15438
▁김광	-15439
▁대영	-15440
▁막는	-15441
▁바에	-15442
▁동등한	-15443
대한민국	-15444
지스	-15445
정부가	-15446
청에서	-15447
▁리그로	-15448
▁마이애	-15449
▁댓	-15450
토록	-15451
▁광학	-15452
▁구형	-15453
▁생일	-15454
▁장제	-15455
▁제대	-15456
▁조형	-15457
▁항목	-15458
▁프레이	-15459
▁힘으로	-15460
▁천문학자	-15461
▁활동하던	-15462
▁활동하며	-15463
▁박사학위를	-15464
PC	-15465
증권	-15466
▁개헌	-15467
▁내걸	-15468
에너지	-15469
▁AKB	-15470
▁규정을	-15471
▁대표가	-15472
▁도로를	-15473
▁아키타	-15474
▁이름과	-15475
▁자유의	-15476
▁토리노	-15477
▁헌법을	-15478
▁협정을	-15479
위원회에서	-15480
술은	-15481
▁Sy	-15482
▁경의	-15483
▁국유	-15484
▁드는	-15485
당이다	-15486
▁발표하고	-15487
▁아빠	-15488
우스와	-15489
▁가상의	-15490
▁다양체	-15491
▁클레이	-15492
▁노선으로	-15493
▁활발하게	-15494
▁돌고	-15495
▁어찌	-15496
▁인과	-15497
▁OST	-15498
▁당하고	-15499
▁다양하게	-15500
▁선임되었다	-15501
미나	-15502
복음	-15503
▁치즈	-15504
▁테무	-15505
로이드	-15506
▁황제는	-15507
여단	-15508
카쓰	-15509
합을	-15510
▁그저	-15511
▁김명	-15512
▁천거	-15513
▁펑크	-15514
났지만	-15515
▁가리지	-15516
▁게릴라	-15517
▁반응이	-15518
▁서울로	-15519
▁시작할	-15520
▁유리한	-15521
▁패트릭	-15522
▁화학적	-15523
▁헤르체고	-15524
▁딸이	-15525
▁소울	-15526
▁검사를	-15527
▁노래가	-15528
▁레드삭	-15529
▁사항을	-15530
▁음악과	-15531
▁장르의	-15532
▁장면이	-15533
▁축구를	-15534
▁JTBC	-15535
▁프리메라	-15536
방정	-15537
웠던	-15538
정권	-15539
▁EX	-15540
▁세븐	-15541
▁아프	-15542
▁일괄	-15543
▁출가	-15544
▁그보다	-15545
▁반응은	-15546
▁복소수	-15547
▁패럴림픽	-15548
스기	-15549
▁동네	-15550
▁발해	-15551
▁수령	-15552
▁이겨	-15553
▁호를	-15554
▁영역에	-15555
▁우려가	-15556
▁자메이	-15557
▁출판된	-15558
▁한국을	-15559
받았으며	-15560
알라	-15561
조리	-15562
▁공천	-15563
▁저하	-15564
▁추서	-15565
▁내각의	-15566
▁서대문	-15567
▁아이가	-15568
▁국무총리	-15569
▁전반적인	-15570
런의	-15571
사범	-15572
▁ch	-15573
▁공백	-15574
▁관점	-15575
▁수필	-15576
▁타자	-15577
지지만	-15578
ance	-15579
▁천황이	-15580
▁만들었고	-15581
▁스크린도	-15582
네티	-15583
-09	-15584
row	-15585
▁복장	-15586
▁선행	-15587
▁짓는	-15588
▁불안정	-15589
▁친구인	-15590
▁컴퓨팅	-15591
▁그녀에게	-15592
▁아날로그	-15593
▁점령했다	-15594
▁주민들의	-15595
▁고원	-15596
▁보석	-15597
▁선은	-15598
▁세트	-15599
▁아데	-15600
▁처럼	-15601
▁ATP	-15602
▁그래도	-15603
▁명확한	-15604
▁소피아	-15605
▁약속을	-15606
공화국의	-15607
▁국립공원	-15608
버의	-15609
_14	-15610
▁벽돌	-15611
▁이언	-15612
하게도	-15613
▁과도한	-15614
▁교통의	-15615
▁모시고	-15616
▁그룹으로	-15617
경비	-15618
어인	-15619
▁건조한	-15620
▁앤드루	-15621
▁지휘를	-15622
▁지도자로	-15623
거가	-15624
복합	-15625
▁때려	-15626
▁방치	-15627
▁보증	-15628
▁슬픔	-15629
▁이완	-15630
▁잠정	-15631
▁저격	-15632
▁중형	-15633
났는데	-15634
▁영업을	-15635
▁총리를	-15636
▁페트로	-15637
▁하나다	-15638
▁플래티넘	-15639
▁베네수엘라	-15640
스레	-15641
▁장사	-15642
▁차로	-15643
갔다가	-15644
디자인	-15645
▁각지의	-15646
▁제품의	-15647
▁간격으로	-15648
▁보존되어	-15649
ern	-15650
▁음모	-15651
▁입주	-15652
▁정성	-15653
▁정작	-15654
▁카즈	-15655
개국이	-15656
공사의	-15657
▁교회는	-15658
▁일반화	-15659
후가	-15660
▁갖지	-15661
▁기고	-15662
▁모호	-15663
▁연봉	-15664
▁재일	-15665
▁침묵	-15666
▁페니	-15667
가능한	-15668
운동장	-15669
해지자	-15670
span	-15671
▁난카이	-15672
▁노르망	-15673
▁왕실의	-15674
수지	-15675
▁부합	-15676
▁싸이	-15677
틀러는	-15678
▁달라고	-15679
▁마리의	-15680
▁생긴다	-15681
▁1848	-15682
현실	-15683
▁격추	-15684
▁코시	-15685
▁키르	-15686
▁휴식	-15687
리그에	-15688
▁것이나	-15689
▁언론인	-15690
▁함수는	-15691
▁공격하는	-15692
▁운행하고	-15693
세요	-15694
.1%	-15695
▁AV	-15696
▁우아	-15697
▁혼다	-15698
▁강남구	-15699
▁부모의	-15700
▁비영리	-15701
▁빅토르	-15702
▁식물의	-15703
▁전신인	-15704
▁함수를	-15705
▁스타일을	-15706
▁출발하여	-15707
▁사운드트랙	-15708
코딩	-15709
▁NT	-15710
▁먹이	-15711
▁드디어	-15712
▁라파엘	-15713
▁북한이	-15714
▁유지할	-15715
▁전략적	-15716
▁호르몬	-15717
▁캐나다에서	-15718
컴퓨	-15719
▁모색	-15720
▁모자	-15721
▁형인	-15722
▁면이다	-15723
▁목적이	-15724
▁북쪽은	-15725
▁상업적	-15726
▁세인트루이스	-15727
락의	-15728
orn	-15729
▁SH	-15730
▁파란	-15731
▁바뀌어	-15732
▁신학자	-15733
▁양식의	-15734
▁엘리트	-15735
▁해병대	-15736
과정에서	-15737
▁설립하여	-15738
▁프로세서	-15739
공파	-15740
재산	-15741
천년	-15742
▁공존	-15743
▁노이	-15744
▁다윈	-15745
▁모의	-15746
▁무작	-15747
▁산둥	-15748
▁매카트	-15749
▁작전에	-15750
▁1,500	-15751
극을	-15752
미네	-15753
▁요충	-15754
▁집회	-15755
▁회상	-15756
버스는	-15757
▁노래로	-15758
▁단체의	-15759
▁요제프	-15760
▁포스터	-15761
▁고려시대의	-15762
벨트	-15763
▁랴오	-15764
▁카테	-15765
▁칸은	-15766
제에서	-15767
▁모리스	-15768
▁병원에	-15769
▁작성된	-15770
▁관해서는	-15771
▁그랑프리	-15772
비용	-15773
ows	-15774
▁루카	-15775
▁발령	-15776
▁브룩	-15777
▁산이	-15778
▁이양	-15779
그룹의	-15780
▁독일군	-15781
▁명확히	-15782
▁무소속	-15783
▁콘크리트	-15784
▁앗	-15785
기둥	-15786
부지	-15787
철학	-15788
▁가산	-15789
▁점과	-15790
▁집어	-15791
▁코소	-15792
저기압	-15793
▁대사관	-15794
▁생겨난	-15795
▁수용할	-15796
▁강조하는	-15797
▁시즌에서는	-15798
▁홉	-15799
▁고아	-15800
▁돼지	-15801
▁승점	-15802
▁평평	-15803
▁핑크	-15804
▁아나톨	-15805
▁참가할	-15806
교사	-15807
니라	-15808
니코	-15809
.3%	-15810
▁인재	-15811
시간이	-15812
▁주위의	-15813
▁프로모	-15814
▁개발했다	-15815
onlyinclude	-15816
바퀴	-15817
비서	-15818
에스	-15819
▁상공	-15820
▁앙골	-15821
▁찬양	-15822
위까지	-15823
▁경로를	-15824
▁대전의	-15825
▁사망자가	-15826
▁작용하는	-15827
▁프란체스코	-15828
▁늙	-15829
련된	-15830
▁PR	-15831
▁김형	-15832
▁매킨	-15833
▁바꿀	-15834
▁배수	-15835
▁스포	-15836
▁철폐	-15837
테이너	-15838
▁일본군의	-15839
▁개통되었다	-15840
▁소프트웨어를	-15841
▁쿡	-15842
치히	-15843
▁포스	-15844
테리아	-15845
▁마르티	-15846
▁청동기	-15847
▁발견되어	-15848
▁에콰도르	-15849
▁자료이다	-15850
▁청나라의	-15851
▁데뷔하였으며	-15852
물인	-15853
버른	-15854
ook	-15855
▁MB	-15856
▁느린	-15857
▁수양	-15858
▁이모	-15859
▁현종	-15860
▁호크	-15861
▁희곡	-15862
▁대단히	-15863
▁모로코	-15864
▁방안을	-15865
대학교를	-15866
▁기간동안	-15867
▁대체되었다	-15868
.7%	-15869
▁대왕	-15870
▁듣지	-15871
▁묶어	-15872
▁도로가	-15873
▁의지를	-15874
▁받아들였다	-15875
oll	-15876
▁섬과	-15877
▁씨가	-15878
▁마을이	-15879
▁암컷은	-15880
▁한국철도	-15881
키타	-15882
호르	-15883
▁강대	-15884
▁명인	-15885
▁별세	-15886
▁찍은	-15887
▁헤어	-15888
▁미군의	-15889
▁부대의	-15890
▁유닉스	-15891
▁마오쩌둥	-15892
▁실시되었다	-15893
▁한편으로는	-15894
바브	-15895
초가	-15896
.8%	-15897
▁WH	-15898
▁매력	-15899
▁입국	-15900
▁적어	-15901
olog	-15902
▁놀라운	-15903
▁시작하고	-15904
▁여겨졌다	-15905
▁이용해서	-15906
▁알렉산드리아	-15907
공작	-15908
공화	-15909
등과	-15910
라드	-15911
자고	-15912
▁막스	-15913
▁상급	-15914
▁성명	-15915
▁줄리	-15916
▁보낸다	-15917
▁프란치	-15918
▁버전으로	-15919
▁출전하지	-15920
▁프랜시스	-15921
▁z	-15922
아과	-15923
절에	-15924
▁국한	-15925
▁상행	-15926
▁포터	-15927
당한다	-15928
조참판	-15929
▁여겼다	-15930
두의	-15931
복이	-15932
▁간략	-15933
▁병이	-15934
▁중엽	-15935
순위로	-15936
▁기관차	-15937
▁득표율	-15938
▁입학하여	-15939
▁증가했다	-15940
/3	-15941
금과	-15942
노리	-15943
디지	-15944
몽골	-15945
부산	-15946
케의	-15947
ann	-15948
▁무안	-15949
대학의	-15950
▁마르세	-15951
▁아리아	-15952
▁연이어	-15953
▁원칙을	-15954
▁전화를	-15955
▁붙여졌다	-15956
▁사용되어	-15957
▁서비스가	-15958
▁의회에서	-15959
▁일어나지	-15960
가게	-15961
료는	-15962
▁감수	-15963
▁기해	-15964
▁블레	-15965
▁비전	-15966
▁220	-15967
▁느끼고	-15968
▁단어가	-15969
▁왕가의	-15970
▁정책의	-15971
▁Ph	-15972
▁떠오	-15973
▁끼쳤다	-15974
▁서로의	-15975
▁아이언	-15976
▁장소에	-15977
▁경상북도의	-15978
▁전전	-15979
▁정읍	-15980
가지가	-15981
▁따왔다	-15982
▁분야를	-15983
▁사이로	-15984
▁음반이	-15985
▁의문을	-15986
▁처분을	-15987
▁투수이다	-15988
▁아이스하키	-15989
▁값은	-15990
▁서귀	-15991
▁선천	-15992
▁자란	-15993
▁지출	-15994
▁최강	-15995
▁출석	-15996
관계에	-15997
▁않아도	-15998
▁앨리스	-15999
▁충청도	-16000
▁후기에	-16001
▁흐르고	-16002
▁부족으로	-16003
▁스튜어트	-16004
되나	-16005
충은	-16006
▁마애	-16007
▁전무	-16008
각으로	-16009
▁가져다	-16010
▁미야기	-16011
▁시에는	-16012
▁전자의	-16013
▁직위를	-16014
세기까지	-16015
섬의	-16016
▁우의	-16017
▁질문	-16018
▁체조	-16019
▁항쟁	-16020
▁고양시	-16021
▁부인은	-16022
▁손실을	-16023
▁카탈루냐	-16024
▁대한민국을	-16025
균은	-16026
▁un	-16027
▁베리	-16028
▁클러	-16029
▁학과	-16030
▁금요일	-16031
▁않다고	-16032
▁클럽인	-16033
▁정치적으로	-16034
사도	-16035
속도	-16036
욱은	-16037
원인	-16038
▁기인	-16039
▁면이	-16040
▁면제	-16041
▁산성	-16042
▁선동	-16043
▁입구	-16044
▁전담	-16045
▁좌측	-16046
▁생성된	-16047
▁어렵게	-16048
▁에어로	-16049
▁설치하였다	-16050
것이	-16051
워서	-16052
▁동정	-16053
▁전수	-16054
▁접한	-16055
▁제천	-16056
▁천천	-16057
▁컴파	-16058
▁트란	-16059
만원을	-16060
우리는	-16061
▁ABC	-16062
▁대표를	-16063
▁새끼를	-16064
소비	-16065
▁극우	-16066
▁김천	-16067
▁서임	-16068
▁고문을	-16069
▁정하고	-16070
▁협회의	-16071
▁NASA	-16072
▁쉴	-16073
독을	-16074
방법	-16075
시카	-16076
▁습윤	-16077
▁죽게	-16078
▁허드	-16079
▁넘어서	-16080
▁예컨대	-16081
▁공산당의	-16082
▁유목	-16083
▁3.5	-16084
▁API	-16085
▁영향력이	-16086
▁토착종이다	-16087
EE	-16088
년제	-16089
색과	-16090
_16	-16091
▁금호	-16092
▁살게	-16093
▁콘솔	-16094
▁도시인	-16095
▁소유한	-16096
▁유학생	-16097
▁부르고뉴	-16098
▁지원하기	-16099
불이	-16100
예가	-16101
▁경복	-16102
▁류큐	-16103
▁성곽	-16104
▁포수	-16105
화하기	-16106
▁가로지	-16107
▁논쟁을	-16108
배의	-16109
▁강간	-16110
▁국외	-16111
▁의령	-16112
▁주조	-16113
▁직통	-16114
▁쪽에	-16115
▁규모를	-16116
▁시장이	-16117
▁국내에서	-16118
▁댈	-16119
왕국	-16120
▁간이	-16121
▁실재	-16122
▁심지	-16123
▁대니얼	-16124
▁피라미	-16125
▁1883	-16126
▁에스페란	-16127
보장	-16128
손의	-16129
▁가신	-16130
▁동력	-16131
▁카지	-16132
▁쿠빌	-16133
레이트	-16134
▁노래의	-16135
▁안정된	-16136
▁인간과	-16137
▁정하는	-16138
▁동치이다	-16139
▁채취	-16140
▁도메인	-16141
▁모른다	-16142
▁방정식	-16143
▁자원을	-16144
▁증거를	-16145
▁해안에	-16146
▁수행했다	-16147
▁여겨지고	-16148
▁딥	-16149
▁AD	-16150
▁Gr	-16151
▁번영	-16152
▁스와	-16153
▁원통	-16154
▁타르	-16155
▁타지	-16156
▁곳곳에	-16157
▁믿었다	-16158
▁안정적인	-16159
▁캐릭터를	-16160
▁군부	-16161
▁도래	-16162
▁사쓰	-16163
▁장이	-16164
정이다	-16165
▁1.0	-16166
▁70%	-16167
▁비롯된	-16168
▁영국령	-16169
▁오일러	-16170
격은	-16171
노와	-16172
록은	-16173
좌를	-16174
ref	-16175
▁낙하	-16176
▁백신	-16177
▁유해	-16178
▁접수	-16179
오스트	-16180
▁가솔린	-16181
▁내리고	-16182
▁무대에서	-16183
▁중심지로	-16184
끄러	-16185
망은	-16186
월을	-16187
키스	-16188
▁반전	-16189
▁반포	-16190
▁구하기	-16191
▁되어야	-16192
▁소재의	-16193
▁선수였다	-16194
▁죠	-16195
견이	-16196
공단	-16197
지정	-16198
ink	-16199
▁관동	-16200
▁대역	-16201
▁분지	-16202
▁악의	-16203
▁옮긴	-16204
슬레틱	-16205
▁기법을	-16206
▁남자가	-16207
▁유력한	-16208
▁의석을	-16209
▁행하는	-16210
▁시즈오카	-16211
▁전까지는	-16212
▁정상적인	-16213
▁코스타리카	-16214
▁형사소송법	-16215
대성	-16216
바리	-16217
크레	-16218
▁농어	-16219
▁다듬	-16220
▁맞춘	-16221
▁보리	-16222
▁솟아	-16223
제이다	-16224
▁거두며	-16225
▁공로를	-16226
▁새누리당	-16227
▁성장하였다	-16228
▁창설되었다	-16229
▁깜	-16230
▁튼	-16231
▁김인	-16232
▁은혜	-16233
▁일차	-16234
▁하키	-16235
헝가리	-16236
▁미래통합	-16237
나비	-16238
배에	-16239
저의	-16240
▁간첩	-16241
▁사의	-16242
▁유료	-16243
▁일기	-16244
▁혼동	-16245
▁방사능	-16246
▁카메룬	-16247
▁표현은	-16248
▁있어서의	-16249
▁만들어진다	-16250
▁아프리카의	-16251
내가	-16252
방과	-16253
▁구이	-16254
▁로페	-16255
▁야외	-16256
▁유비	-16257
▁조인	-16258
▁하프	-16259
▁목소리	-16260
▁케이프	-16261
▁사용자의	-16262
▁이번에는	-16263
창이	-16264
▁공감	-16265
▁열을	-16266
그리스	-16267
는다는	-16268
▁견해가	-16269
▁파일럿	-16270
▁해밀턴	-16271
▁프랑스령	-16272
▁경인	-16273
▁극락	-16274
▁미소	-16275
▁옥타	-16276
▁규칙을	-16277
▁대중의	-16278
▁원리를	-16279
▁퍼스트	-16280
▁오카야마	-16281
▁스트라이크	-16282
다와	-16283
됐던	-16284
설의	-16285
테의	-16286
▁폭파	-16287
퍼런스	-16288
▁1-2	-16289
▁남동생	-16290
▁생명을	-16291
▁활동의	-16292
적이라고	-16293
▁만들어져	-16294
▁영화에서	-16295
▁쑤	-16296
세손	-16297
현재	-16298
▁당주	-16299
▁많지	-16300
▁비늘	-16301
▁세레	-16302
▁자결	-16303
▁종군	-16304
부분에	-16305
운동이	-16306
▁공으로	-16307
▁글로브	-16308
▁양자로	-16309
OK	-16310
TE	-16311
바가	-16312
순의	-16313
암아	-16314
전달	-16315
▁자서	-16316
▁첼시	-16317
▁경제를	-16318
▁문화에	-16319
▁해당되는	-16320
▁프로그램인	-16321
탄은	-16322
품은	-16323
▁대륙의	-16324
▁바다의	-16325
▁여지가	-16326
▁숀	-16327
문서	-16328
여행	-16329
▁니혼	-16330
▁언니	-16331
▁죽기	-16332
▁페레	-16333
▁그것의	-16334
▁시코쿠	-16335
▁보호하는	-16336
▁영역에서	-16337
▁경기장으로	-16338
▁독립적으로	-16339
통상	-16340
▁BM	-16341
▁폭풍	-16342
년경에	-16343
▁수업을	-16344
▁왕국이	-16345
▁정상에	-16346
▁피해자	-16347
▁프로듀서이다	-16348
8,	-16349
광이	-16350
바오	-16351
▁냉전	-16352
▁수락	-16353
▁별자리	-16354
들이었다	-16355
▁올림피아	-16356
여자중학교	-16357
▁독자적으로	-16358
▁괄	-16359
부작	-16360
이론	-16361
티를	-16362
▁글꼴	-16363
▁기와	-16364
▁모범	-16365
▁미토콘	-16366
▁친구가	-16367
▁정당이다	-16368
▁전반적으로	-16369
메트	-16370
출력	-16371
les	-16372
▁CM	-16373
▁누이	-16374
▁컸다	-16375
▁허리	-16376
사들은	-16377
집으로	-16378
▁뉴욕주	-16379
▁보내어	-16380
▁이론이	-16381
▁치렀고	-16382
▁따라서는	-16383
안보	-16384
▁오락	-16385
▁구조와	-16386
▁구축함	-16387
▁멜버른	-16388
▁배터리	-16389
▁월요일	-16390
▁조직에	-16391
▁최연소	-16392
▁물리치고	-16393
▁싼	-16394
님은	-16395
랑의	-16396
조치	-16397
▁고흥	-16398
▁보강	-16399
▁생겼	-16400
▁역도	-16401
▁칼로	-16402
▁용인시	-16403
▁정보는	-16404
▁1882	-16405
▁못했지만	-16406
▁찔	-16407
궁에	-16408
전대	-16409
▁OB	-16410
▁고다	-16411
▁노바	-16412
▁느낄	-16413
▁부평	-16414
▁불분	-16415
▁에레	-16416
▁우치	-16417
▁우한	-16418
▁장안	-16419
▁커리	-16420
익스피	-16421
층에서	-16422
▁마음의	-16423
▁샌디에	-16424
▁밝혀지지	-16425
등은	-16426
히지	-16427
▁매수	-16428
▁실무	-16429
▁예고	-16430
▁우파	-16431
▁집정	-16432
단했다	-16433
민스터	-16434
▁발전소	-16435
▁성향을	-16436
▁이사회	-16437
▁지배하는	-16438
▁키프로스	-16439
▁룸	-16440
유예	-16441
▁재외	-16442
▁40%	-16443
▁기록과	-16444
▁받았던	-16445
▁이기고	-16446
▁통과하는	-16447
oo	-16448
지던	-16449
▁군정	-16450
나에서	-16451
▁너무나	-16452
▁스트레	-16453
극의	-16454
말의	-16455
승지	-16456
▁보은	-16457
▁아메	-16458
▁차관	-16459
내었다	-16460
▁여배우	-16461
▁패배한	-16462
▁발전하였다	-16463
청과	-16464
포시	-16465
▁드리	-16466
▁조로	-16467
▁해왕	-16468
르트의	-16469
▁SNS	-16470
▁달리는	-16471
▁목록을	-16472
▁쓰기도	-16473
▁종류는	-16474
▁지구가	-16475
▁Your	-16476
▁일으킨다	-16477
▁차지했고	-16478
▁국회의원을	-16479
9,	-16480
▁모른	-16481
▁송신	-16482
▁승무	-16483
▁평의	-16484
▁피핀	-16485
일체유	-16486
▁못했던	-16487
▁행성이	-16488
스테르담	-16489
▁유지했다	-16490
▁개발하였다	-16491
▁여객철도의	-16492
▁피아니스트	-16493
기며	-16494
▁GO	-16495
▁가의	-16496
▁강철	-16497
▁김준	-16498
▁사탕	-16499
▁추억	-16500
▁켈트	-16501
▁파병	-16502
펜하겐	-16503
▁남았다	-16504
▁단계를	-16505
▁산업은	-16506
▁수준을	-16507
▁은메달	-16508
▁지닌다	-16509
▁탈락했다	-16510
▁가나가와현	-16511
▁쟈	-16512
▁En	-16513
▁성전	-16514
▁수로	-16515
▁정전	-16516
▁중합	-16517
▁해부	-16518
▁메시지	-16519
▁방식에	-16520
▁어느날	-16521
▁미드필더로	-16522
것은	-16523
마귀	-16524
먼의	-16525
시다	-16526
.9%	-16527
▁도네	-16528
▁와인	-16529
▁지류	-16530
▁Sou	-16531
▁감옥에	-16532
▁루돌프	-16533
▁수사를	-16534
▁카이로	-16535
▁결승전에	-16536
▁의미이다	-16537
▁전해지는	-16538
세력	-16539
▁공고	-16540
▁러일	-16541
▁연동	-16542
▁장인	-16543
▁단계에	-16544
▁지상파	-16545
▁체제로	-16546
▁진출한다	-16547
남부	-16548
스콘	-16549
옆면	-16550
후는	-16551
▁검거	-16552
▁금산	-16553
▁루키	-16554
▁새긴	-16555
▁앞선	-16556
▁잠깐	-16557
▁정인	-16558
족으로	-16559
▁북유럽	-16560
▁생전에	-16561
▁실시하는	-16562
▁플레이어가	-16563
▁므	-16564
▁가중	-16565
▁꿈꾸	-16566
▁소극	-16567
▁스퀘	-16568
▁연립	-16569
▁레오폴	-16570
▁옮겨졌다	-16571
▁컴퓨터를	-16572
AI	-16573
타도	-16574
▁91	-16575
▁고이	-16576
▁더비	-16577
▁영장	-16578
▁포럼	-16579
▁int	-16580
▁가족이	-16581
▁급속히	-16582
▁자유당	-16583
▁진행을	-16584
▁활동과	-16585
▁그레고리	-16586
▁들어가게	-16587
ec	-16588
름의	-16589
매김	-16590
모어	-16591
▁가타	-16592
▁로비	-16593
▁지극	-16594
역까지	-16595
▁기준이	-16596
▁문학의	-16597
권에서는	-16598
▁후계자로	-16599
고속도로의	-16600
길에	-16601
당할	-16602
불의	-16603
▁겪은	-16604
▁고딕	-16605
▁교정	-16606
▁장덕	-16607
▁정자	-16608
클리드	-16609
▁미야자키	-16610
BL	-16611
세키	-16612
▁그외	-16613
▁소외	-16614
▁오해	-16615
▁포토	-16616
▁히메	-16617
선거구	-16618
좌상은	-16619
▁몬테네	-16620
▁선언을	-16621
▁예전에	-16622
▁위치가	-16623
▁설일체유	-16624
▁역임했으며	-16625
길은	-16626
와도	-16627
죄로	-16628
▁마린	-16629
▁송도	-16630
▁밖에서	-16631
▁단체이다	-16632
▁적용된다	-16633
▁효율적으로	-16634
공과	-16635
비언	-16636
아마	-16637
▁FK	-16638
▁공성	-16639
▁관세	-16640
▁잃게	-16641
▁작다	-16642
▁조슈	-16643
▁원정을	-16644
▁하나로서	-16645
▁주인공으로	-16646
▁활동했으며	-16647
경쟁	-16648
자금	-16649
표의	-16650
▁단원	-16651
▁서스	-16652
▁적분	-16653
데이터	-16654
번이나	-16655
▁10,	-16656
▁사상의	-16657
▁아라곤	-16658
▁체제의	-16659
▁Live	-16660
▁확정되었다	-16661
EX	-16662
▁첸	-16663
박이	-16664
▁놓인	-16665
▁블로	-16666
▁가이드	-16667
▁공군의	-16668
▁측에서	-16669
▁Wind	-16670
▁담당하였다	-16671
지거나	-16672
▁증상을	-16673
▁대항하는	-16674
▁대항하여	-16675
▁벨라루스	-16676
▁겔	-16677
우로	-16678
처의	-16679
통치	-16680
파울	-16681
▁파는	-16682
▁피오	-16683
▁동메달	-16684
▁명령에	-16685
▁본질적	-16686
했음에도	-16687
변호	-16688
지않	-16689
통과	-16690
프턴	-16691
▁키보	-16692
▁화엄	-16693
▁신화에	-16694
▁질문에	-16695
▁클럽은	-16696
도서관은	-16697
▁여겨지는	-16698
▁산호	-16699
드리게	-16700
들처럼	-16701
▁자기가	-16702
▁전하고	-16703
▁쿠데타를	-16704
근을	-16705
료가	-16706
테른	-16707
▁나갈	-16708
▁교회가	-16709
▁단계로	-16710
▁생활에	-16711
▁외국어	-16712
▁용어가	-16713
▁작업은	-16714
▁학생이	-16715
▁말미암아	-16716
토프	-16717
▁김윤	-16718
▁미세	-16719
▁위촉	-16720
▁조셉	-16721
▁근거가	-16722
▁신앙을	-16723
▁예선에	-16724
▁저항을	-16725
▁판정을	-16726
진상규명	-16727
▁결합하여	-16728
그마	-16729
▁보복	-16730
▁오기	-16731
▁탄자	-16732
궐선거	-16733
페스트	-16734
▁자료는	-16735
▁카타르	-16736
▁학교는	-16737
▁프랑스로	-16738
▁프랑스를	-16739
▁아프리카계	-16740
▁괌	-16741
디로	-16742
훈이	-16743
▁1:	-16744
▁문하	-16745
▁사인	-16746
▁신입	-16747
▁이이	-16748
직하고	-16749
▁For	-16750
▁LED	-16751
▁이스탄	-16752
▁헤이안	-16753
강전에서	-16754
▁1868	-16755
▁관련되어	-16756
▁나타나지	-16757
▁비판하는	-16758
▁홍콩에서	-16759
▁요구하였다	-16760
곡리	-16761
수단	-16762
줄기	-16763
▁넥센	-16764
▁에른	-16765
▁자작	-16766
▁피할	-16767
웨스트	-16768
▁산티아	-16769
▁영원히	-16770
▁자라는	-16771
▁주민의	-16772
▁일제강점기	-16773
▁닷	-16774
당시	-16775
막이	-16776
선형	-16777
양과	-16778
유와	-16779
히게	-16780
▁돕는	-16781
▁바오	-16782
▁조이	-16783
▁초콜	-16784
▁픽처	-16785
슬라프	-16786
월드컵	-16787
▁구성은	-16788
▁느끼는	-16789
▁볼티모	-16790
▁빠졌다	-16791
▁세르게	-16792
▁세우는	-16793
▁불과하다	-16794
▁서울중앙	-16795
달의	-16796
승은	-16797
증에	-16798
▁비대	-16799
▁안토	-16800
▁좀더	-16801
▁지자	-16802
▁강화를	-16803
▁기타를	-16804
▁차례에	-16805
디나비아	-16806
▁기념하기	-16807
▁설립되어	-16808
루로	-16809
▁악마	-16810
▁풍속	-16811
▁본부를	-16812
지역에서	-16813
산초등학교	-16814
분열	-16815
▁서열	-16816
▁대학은	-16817
▁흐른다	-16818
▁흥미를	-16819
▁것이므로	-16820
시브	-16821
▁산을	-16822
▁표를	-16823
▁해태	-16824
▁3.0	-16825
▁거리의	-16826
▁모르고	-16827
▁지시를	-16828
▁흩어져	-16829
절로	-16830
▁8,	-16831
▁과테	-16832
▁염려	-16833
칸옆면	-16834
▁곡들은	-16835
▁당국은	-16836
▁등에게	-16837
▁연맹이	-16838
▁이바지	-16839
▁참석한	-16840
▁프리스	-16841
▁황제를	-16842
▁실시했다	-16843
▁할리우드	-16844
▁현장에서	-16845
~8	-16846
정지	-16847
▁공약	-16848
▁준수	-16849
▁치는	-16850
하겠다	-16851
▁뿌리를	-16852
▁시이다	-16853
퍼레이션	-16854
▁메릴랜드	-16855
▁아이들을	-16856
▁시작되었고	-16857
.)	-16858
▁랄	-16859
▁헛	-16860
미치	-16861
코를	-16862
▁04	-16863
가지로	-16864
▁도야마	-16865
▁은하의	-16866
▁음악이	-16867
▁이론과	-16868
▁적었다	-16869
▁아직까지	-16870
▁예전에는	-16871
▁광범위하게	-16872
▁챙	-16873
ung	-16874
▁계단	-16875
▁문과	-16876
▁불행	-16877
▁징병	-16878
▁현직	-16879
▁휘말	-16880
바이러	-16881
색이다	-16882
▁교회에	-16883
▁혁명이	-16884
▁찢	-16885
누마	-16886
동성	-16887
증과	-16888
▁게리	-16889
▁공휴	-16890
▁낮다	-16891
▁럭비	-16892
▁가격은	-16893
▁국적을	-16894
▁온도는	-16895
▁요시다	-16896
▁유럽에	-16897
▁프랜차	-16898
▁패하였다	-16899
노부	-16900
도상	-16901
례로	-16902
▁닮은	-16903
▁차츰	-16904
▁카프	-16905
▁캐시	-16906
▁호쿠	-16907
센터는	-16908
▁계획의	-16909
▁동로마	-16910
▁등판해	-16911
▁발달한	-16912
▁가르침을	-16913
▁프랭클린	-16914
▁스크린도어가	-16915
저를	-16916
_21	-16917
▁모차	-16918
▁은신	-16919
▁전미	-16920
▁포식	-16921
르트는	-16922
▁다나카	-16923
▁바탕에	-16924
▁박사는	-16925
▁법칙을	-16926
▁유니언	-16927
▁장소를	-16928
▁발표하여	-16929
용과	-16930
▁연한	-16931
▁이누	-16932
▁중수	-16933
▁각자의	-16934
▁영어를	-16935
▁이론적	-16936
▁공개적으로	-16937
바위	-16938
양에	-16939
▁누나	-16940
▁송출	-16941
▁엄마	-16942
▁잦은	-16943
▁공격은	-16944
▁교육에	-16945
▁그만큼	-16946
▁다목적	-16947
▁사랑과	-16948
▁정당이	-16949
▁찬사를	-16950
▁투자를	-16951
고등법원	-16952
▁더글러스	-16953
▁후반부터	-16954
▁아틀레티코	-16955
AE	-16956
광은	-16957
딘은	-16958
▁박성	-16959
▁통보	-16960
조사를	-16961
학과에	-16962
▁게이오	-16963
▁맡기도	-16964
▁의원의	-16965
▁제이슨	-16966
▁철학을	-16967
▁Part	-16968
▁설립하고	-16969
▁어머니와	-16970
▁유니버설	-16971
▁컴퓨터의	-16972
▁코펜하겐	-16973
레니	-16974
▁상법	-16975
▁이코	-16976
▁토미	-16977
▁pro	-16978
▁부근의	-16979
▁종래의	-16980
▁국가대표로	-16981
군인	-16982
마케	-16983
토크	-16984
▁상연	-16985
▁아다	-16986
▁타는	-16987
번호는	-16988
▁가공의	-16989
▁보이게	-16990
▁보이스	-16991
▁사형을	-16992
▁안타를	-16993
▁의약품	-16994
▁작품인	-16995
▁주었고	-16996
▁철저히	-16997
▁비교하여	-16998
▁애슬레틱	-16999
▁히어로즈	-17000
~1	-17001
▁법에	-17002
▁본관	-17003
▁세바	-17004
▁전락	-17005
▁털은	-17006
▁회귀	-17007
▁시간과	-17008
▁오리온	-17009
▁자녀를	-17010
▁책에서	-17011
▁파푸아	-17012
▁항복을	-17013
▁배우이자	-17014
▁영국으로	-17015
CS	-17016
▁맬	-17017
▁콕	-17018
브가	-17019
있어	-17020
천면	-17021
_20	-17022
▁말리	-17023
▁문화는	-17024
▁오세아	-17025
▁자료에	-17026
▁직책을	-17027
▁크리에	-17028
▁스타일의	-17029
▁경기장에서	-17030
개미	-17031
라나	-17032
박을	-17033
_17	-17034
gin	-17035
▁Br	-17036
▁백과	-17037
▁송파	-17038
▁연희	-17039
▁공장을	-17040
▁나이는	-17041
▁다리가	-17042
▁비타민	-17043
▁서양의	-17044
▁어머니를	-17045
▁우루과이	-17046
▁이동하는	-17047
▁분리되었다	-17048
심에	-17049
-08	-17050
▁실리	-17051
▁아와	-17052
▁지오	-17053
▁택시	-17054
▁예로는	-17055
▁주지사	-17056
▁테네시	-17057
▁브루클린	-17058
▁없었으며	-17059
▁우크라이나의	-17060
▁멍	-17061
나파	-17062
사자	-17063
송의	-17064
순이	-17065
▁불변	-17066
▁외래	-17067
▁적게	-17068
▁나타날	-17069
▁불확실	-17070
▁사실에	-17071
▁언론의	-17072
▁주파수	-17073
▁형식은	-17074
음으로써	-17075
▁완벽하게	-17076
▁쿠웨이트	-17077
▁언급하였다	-17078
.,	-17079
▁재상	-17080
▁폭이	-17081
가들이	-17082
시켜야	-17083
▁IOC	-17084
▁비교해	-17085
▁이르게	-17086
▁러시아와	-17087
군주	-17088
청소년	-17089
▁한다면	-17090
DA	-17091
고지	-17092
녀의	-17093
보스	-17094
▁동등	-17095
였다는	-17096
▁가라앉	-17097
▁공간에	-17098
▁서로를	-17099
▁선거인	-17100
▁속이다	-17101
커를	-17102
▁김승	-17103
▁무술	-17104
▁보령	-17105
▁신기	-17106
▁압록	-17107
▁원활	-17108
▁칭송	-17109
▁하코	-17110
▁합천	-17111
▁홍수	-17112
분부터	-17113
화되고	-17114
▁걸쳐서	-17115
▁맡았던	-17116
▁언어가	-17117
▁중요하게	-17118
가며	-17119
샤오	-17120
쉬는	-17121
주아	-17122
카에	-17123
ood	-17124
▁총을	-17125
▁하니	-17126
▁후배	-17127
타나베	-17128
▁강의를	-17129
▁교사로	-17130
▁공장에서	-17131
▁촛	-17132
티넨	-17133
회원	-17134
▁커플	-17135
▁하행	-17136
▁급격한	-17137
▁다카라	-17138
▁라오스	-17139
▁무역을	-17140
▁비중이	-17141
▁연주를	-17142
▁제한을	-17143
하더라도	-17144
▁세습	-17145
▁위그	-17146
▁인자	-17147
▁정이	-17148
▁했기	-17149
이트는	-17150
▁단체인	-17151
▁일반적	-17152
▁피렌체	-17153
▁훈장을	-17154
▁근본적인	-17155
▁나카무라	-17156
▁의과대학	-17157
▁맛을	-17158
▁씨는	-17159
▁여인	-17160
▁정몽	-17161
미사일	-17162
▁몇몇의	-17163
▁병력이	-17164
▁행동이	-17165
▁사회민주	-17166
▁현대자동차	-17167
▁인도네시아의	-17168
러와	-17169
상황	-17170
코로	-17171
회관	-17172
▁군용	-17173
▁맡는	-17174
▁안녕	-17175
▁요격	-17176
▁경력이	-17177
▁브뤼셀	-17178
▁상원의	-17179
▁시신은	-17180
▁않다는	-17181
▁의회에	-17182
▁작사가	-17183
▁존재로	-17184
▁줄리아	-17185
▁코드는	-17186
▁인기있는	-17187
▁치명적인	-17188
개씩	-17189
번지	-17190
▁다발	-17191
▁달고	-17192
▁말과	-17193
▁자회	-17194
▁해역	-17195
▁나트륨	-17196
▁전역을	-17197
이었다는	-17198
▁일본군은	-17199
PG	-17200
▁널	-17201
천과	-17202
lan	-17203
▁넣는	-17204
▁높여	-17205
▁이메	-17206
▁로스쿨	-17207
▁모았다	-17208
▁파견하여	-17209
▁이탈리아는	-17210
▁프란시스코	-17211
캠퍼	-17212
▁경호	-17213
▁해피	-17214
▁혐오	-17215
▁결혼한	-17216
▁달했다	-17217
▁시절을	-17218
▁천천히	-17219
어사	-17220
▁격려	-17221
▁봉화	-17222
▁부다	-17223
▁잡는	-17224
▁페로	-17225
▁감염된	-17226
▁상에서	-17227
▁장점이	-17228
▁지방은	-17229
▁회사에	-17230
▁1893	-17231
▁반감	-17232
▁온다	-17233
▁자책	-17234
▁그밖에	-17235
▁느끼게	-17236
▁밝혀진	-17237
▁심리적	-17238
▁요구에	-17239
▁체제가	-17240
▁게오르크	-17241
▁라이선스	-17242
▁슛	-17243
▁기법	-17244
▁기뻐	-17245
▁월터	-17246
▁파고	-17247
▁그리는	-17248
▁사망자	-17249
▁서바이	-17250
▁성명을	-17251
▁중심을	-17252
▁지위에	-17253
▁투표에서	-17254
IR	-17255
내려	-17256
살에	-17257
성장	-17258
심리	-17259
컵을	-17260
하되	-17261
▁대출	-17262
▁상록	-17263
▁점거	-17264
갔으나	-17265
겠지만	-17266
▁지역에는	-17267
▁푸에르토리	-17268
▁김선	-17269
▁도둑	-17270
▁입수	-17271
▁조롱	-17272
▁지침	-17273
▁계통의	-17274
▁왕조가	-17275
시키는데	-17276
▁들어왔다	-17277
대리	-17278
리쿠	-17279
수입	-17280
재와	-17281
축제	-17282
▁과장	-17283
▁무언	-17284
▁파우	-17285
▁한큐	-17286
▁함흥	-17287
▁해독	-17288
▁시신을	-17289
▁현대에	-17290
▁아오모리	-17291
▁준우승에	-17292
▁코로나바이러스	-17293
▁갚	-17294
▁퉁	-17295
니티	-17296
▁설문	-17297
▁클루	-17298
▁공격이	-17299
▁구성을	-17300
▁알제리	-17301
▁문서이다	-17302
▁공개하였다	-17303
▁암스테르담	-17304
▁스칸디나비아	-17305
ai	-17306
니언	-17307
링겐	-17308
마니	-17309
▁관제	-17310
▁재선	-17311
▁전구	-17312
로스의	-17313
미술관	-17314
으려는	-17315
▁함대를	-17316
▁대중교통	-17317
▁방지하기	-17318
▁인도차이나	-17319
다오	-17320
선택	-17321
티즌	-17322
▁답변	-17323
▁면을	-17324
▁몸은	-17325
▁재팬	-17326
▁집착	-17327
▁사이먼	-17328
▁알렉스	-17329
▁학문적	-17330
▁귀국하여	-17331
▁기관이다	-17332
▁들어오는	-17333
▁전적으로	-17334
▁노스캐롤라이나	-17335
감사	-17336
승이	-17337
피크	-17338
▁규탄	-17339
▁나미	-17340
▁오산	-17341
▁워드	-17342
▁읽는	-17343
▁포털	-17344
▁450	-17345
▁따르고	-17346
▁포함되지	-17347
▁히틀러는	-17348
▁설계되었다	-17349
51	-17350
피오	-17351
_18	-17352
▁그릴	-17353
▁노후	-17354
▁리에	-17355
▁무서	-17356
▁여부	-17357
▁제로	-17358
▁가리는	-17359
▁요청에	-17360
▁장기간	-17361
▁책으로	-17362
▁공화국이	-17363
▁독일군의	-17364
▁살아남은	-17365
▁스페인어	-17366
▁앨범으로	-17367
we	-17368
화문	-17369
▁대포	-17370
▁부당	-17371
▁사영	-17372
▁자카	-17373
▁헌액	-17374
▁1-1	-17375
▁것과는	-17376
▁침공을	-17377
▁받았는데	-17378
▁효율적인	-17379
▁유래하였다	-17380
▁팡	-17381
검은	-17382
분한	-17383
청장	-17384
▁고추	-17385
▁인력	-17386
▁청계	-17387
▁강하다	-17388
▁중성자	-17389
▁질량을	-17390
▁거리에서	-17391
▁분포하고	-17392
▁승리했다	-17393
▁유아기를	-17394
ool	-17395
▁94	-17396
▁농경	-17397
▁영천	-17398
▁우세	-17399
문화의	-17400
▁Day	-17401
▁가문이	-17402
▁무엇이	-17403
▁조선후	-17404
▁문신이다	-17405
▁미쓰비시	-17406
▁활용하여	-17407
▁향토문화유산	-17408
▁나일	-17409
▁신원	-17410
▁알폰	-17411
명이며	-17412
▁도르트	-17413
▁작가가	-17414
▁공간으로	-17415
▁스페인은	-17416
로워	-17417
르다	-17418
▁at	-17419
▁양측	-17420
▁육체	-17421
나라가	-17422
▁경주시	-17423
▁계속된	-17424
▁증거는	-17425
▁캐서린	-17426
▁성씨이다	-17427
▁전달하는	-17428
▁진행한다	-17429
▁선고받았다	-17430
변속	-17431
플래	-17432
훈의	-17433
▁리조	-17434
▁수목	-17435
▁숨을	-17436
▁증폭	-17437
▁광고를	-17438
▁기관의	-17439
▁당선된	-17440
▁로마로	-17441
▁비중을	-17442
▁운행이	-17443
▁지내는	-17444
▁핵융합	-17445
공장	-17446
나드	-17447
득점	-17448
질에	-17449
▁설비	-17450
전에는	-17451
▁끌어들	-17452
▁먹이는	-17453
▁미래에	-17454
▁반란이	-17455
▁안되는	-17456
▁패했다	-17457
시키면서	-17458
▁계속되는	-17459
▁수행하고	-17460
▁스테이션	-17461
▁지칭하는	-17462
강한	-17463
남자	-17464
아라	-17465
▁났다	-17466
▁모빌	-17467
▁별을	-17468
▁산시	-17469
▁엔터	-17470
▁병사를	-17471
▁둘러싸인	-17472
▁입단하여	-17473
/4	-17474
▁거인	-17475
▁글렌	-17476
▁도출	-17477
▁도피	-17478
▁보낼	-17479
▁불완	-17480
▁암석	-17481
▁재난	-17482
개이다	-17483
놓았다	-17484
전까지	-17485
▁Sch	-17486
▁미루어	-17487
▁세네갈	-17488
▁제정되었다	-17489
년동계올림픽	-17490
맨의	-17491
임의	-17492
▁스킴	-17493
억원을	-17494
한국당	-17495
▁것들을	-17496
▁과정의	-17497
▁맞았다	-17498
▁멤버가	-17499
▁사무를	-17500
▁평가가	-17501
ublic	-17502
▁매끄러운	-17503
▁콘서트를	-17504
▁활동으로	-17505
사적	-17506
서비	-17507
아카	-17508
율과	-17509
▁더빙	-17510
되다가	-17511
전부터	-17512
협회의	-17513
▁기관이	-17514
▁키예프	-17515
▁사용하게	-17516
▁시설관리	-17517
▁아시아의	-17518
▁어항이다	-17519
▁요하네스	-17520
▁프로세스	-17521
사라	-17522
옥은	-17523
활성	-17524
▁수복	-17525
▁원천	-17526
▁대사헌	-17527
▁위구르	-17528
▁목소리가	-17529
▁플랫폼을	-17530
▁시리즈이다	-17531
EP	-17532
NG	-17533
▁뢰	-17534
모르	-17535
서인	-17536
언론	-17537
합성	-17538
▁모하	-17539
▁상기	-17540
▁에반	-17541
▁직책	-17542
이트를	-17543
▁만난다	-17544
▁미래를	-17545
▁원소의	-17546
▁지붕은	-17547
▁케플러	-17548
▁펠리페	-17549
▁셰익스피	-17550
▁미토콘드리아	-17551
두가	-17552
비노	-17553
워즈	-17554
▁산요	-17555
▁이회	-17556
▁찰리	-17557
▁천왕	-17558
▁고유한	-17559
▁접근을	-17560
▁총리로	-17561
▁클라크	-17562
▁항성의	-17563
그라운드	-17564
▁것이지만	-17565
▁대규모의	-17566
▁현대적인	-17567
▁국제적으로	-17568
모노	-17569
짐에	-17570
-50	-17571
▁관상	-17572
▁기쁨	-17573
▁목회	-17574
▁스텝	-17575
▁어업	-17576
▁찾고	-17577
▁축성	-17578
대학을	-17579
▁검찰은	-17580
▁소식이	-17581
▁주도는	-17582
▁명확하게	-17583
▁채택되었다	-17584
네를	-17585
녀가	-17586
쾌한	-17587
▁싶다	-17588
▁영암	-17589
▁오디	-17590
▁황도	-17591
달라는	-17592
▁모델의	-17593
▁세상의	-17594
▁신주쿠	-17595
▁전원이	-17596
▁공항으로	-17597
▁발견되며	-17598
▁성장했다	-17599
▁움직임이	-17600
▁주인공이	-17601
▁기성	-17602
▁매직	-17603
▁메카	-17604
▁오대	-17605
▁재차	-17606
▁팔아	-17607
▁비율을	-17608
▁순서로	-17609
▁연설을	-17610
▁전투로	-17611
▁철저한	-17612
방향으로	-17613
▁6.25	-17614
▁명령했다	-17615
개인	-17616
손이	-17617
타인	-17618
표로	-17619
▁기니	-17620
▁달에	-17621
▁맛이	-17622
▁맞춤	-17623
▁볼프	-17624
▁앤서	-17625
▁위를	-17626
▁이범	-17627
▁전산	-17628
▁지는	-17629
▁산스크	-17630
▁자세를	-17631
▁동안에는	-17632
▁보이지만	-17633
▁이해하는	-17634
▁추정하고	-17635
▁쪼	-17636
섬은	-17637
요가	-17638
질환	-17639
패의	-17640
▁저자	-17641
▁현을	-17642
▁과학의	-17643
▁장관이	-17644
▁잃어버린	-17645
만년	-17646
맥을	-17647
약이	-17648
▁DF	-17649
▁돕기	-17650
▁사슴	-17651
▁승용	-17652
▁유희	-17653
▁폐렴	-17654
국이다	-17655
▁반정부	-17656
▁여성은	-17657
▁집단의	-17658
사관학교	-17659
▁1888	-17660
▁데스크톱	-17661
▁소말리아	-17662
▁일대에서	-17663
루엔	-17664
호대	-17665
▁결핵	-17666
▁나우	-17667
▁너머	-17668
▁탈취	-17669
▁퍼즐	-17670
▁평민	-17671
강으로	-17672
기관이	-17673
분까지	-17674
투스는	-17675
▁GNU	-17676
▁그림은	-17677
▁생각한	-17678
▁성격의	-17679
▁아브라	-17680
사회주의	-17681
▁이용되고	-17682
공개	-17683
ade	-17684
▁당진	-17685
▁레일	-17686
▁버마	-17687
▁본인	-17688
▁쳤다	-17689
▁인정을	-17690
▁팬들의	-17691
▁추정되며	-17692
▁클럽에서	-17693
디드	-17694
몬트	-17695
해로	-17696
▁구한	-17697
▁밀란	-17698
▁복권	-17699
▁성악	-17700
▁얘기	-17701
▁에마	-17702
▁내무부	-17703
▁별명이	-17704
▁부르게	-17705
▁성적이	-17706
▁예선을	-17707
▁Girl	-17708
▁심지어는	-17709
▁야마모토	-17710
▁없으므로	-17711
▁이론에서	-17712
▁제작했다	-17713
▁승강장으로	-17714
원수	-17715
절은	-17716
함대	-17717
ave	-17718
연합회	-17719
▁사회가	-17720
▁수요가	-17721
▁토너먼	-17722
▁자리하고	-17723
▁증가하는	-17724
▁회장으로	-17725
바람	-17726
인칭	-17727
▁SA	-17728
▁동사	-17729
▁때를	-17730
▁용도	-17731
▁용서	-17732
▁일리	-17733
▁자제	-17734
당했고	-17735
프로세	-17736
▁3-1	-17737
▁브루스	-17738
▁파나마	-17739
▁뿐이었다	-17740
▁측정하는	-17741
▁유래되었다	-17742
가미	-17743
그가	-17744
든다	-17745
봉의	-17746
비안	-17747
자문	-17748
▁일요	-17749
방송을	-17750
▁사업이	-17751
▁없었지만	-17752
▁프린스턴	-17753
키에	-17754
▁각국	-17755
▁바와	-17756
▁원반	-17757
▁충렬	-17758
▁머리가	-17759
▁중앙의	-17760
▁연합군은	-17761
▁장소에서	-17762
▁체결했다	-17763
▁콘테스트	-17764
▁필수적인	-17765
▁대한민국민	-17766
"&	-17767
뮤얼	-17768
소시	-17769
움이	-17770
정류	-17771
해질	-17772
per	-17773
▁신민	-17774
▁재래	-17775
▁청송	-17776
▁2~3	-17777
▁상태는	-17778
▁아들의	-17779
▁음반인	-17780
▁작전은	-17781
▁회장이	-17782
▁from	-17783
▁필요하다고	-17784
▁핼	-17785
네오	-17786
사다	-17787
워크	-17788
하신	-17789
▁도스	-17790
▁인가	-17791
세포의	-17792
자리는	-17793
▁USB	-17794
▁관료로	-17795
▁토트넘	-17796
▁행위는	-17797
▁지나가는	-17798
기일	-17799
다양	-17800
대군	-17801
▁BC	-17802
▁산에	-17803
▁코호	-17804
르타뉴	-17805
시켜서	-17806
▁기술과	-17807
▁높았다	-17808
▁상소를	-17809
▁쌓았다	-17810
▁정보의	-17811
▁Univers	-17812
위치	-17813
▁왕과	-17814
▁음운	-17815
▁취한	-17816
▁극도로	-17817
▁밀도가	-17818
▁숫자는	-17819
▁참여를	-17820
▁체결된	-17821
▁미나모토	-17822
▁벌어지는	-17823
▁네트워크를	-17824
오브	-17825
하길	-17826
▁바울	-17827
▁배달	-17828
▁임원	-17829
▁측이	-17830
지라도	-17831
▁간사이	-17832
▁방송이	-17833
▁역할로	-17834
▁자연의	-17835
▁거점으로	-17836
▁도입했다	-17837
동원	-17838
▁고장	-17839
▁길다	-17840
▁병자	-17841
▁어우	-17842
▁정제	-17843
▁진한	-17844
로스는	-17845
▁진출할	-17846
▁1892	-17847
▁굶	-17848
행과	-17849
ble	-17850
▁공명	-17851
▁남하	-17852
▁변광	-17853
▁섭정	-17854
▁후예	-17855
두었다	-17856
▁구조에	-17857
▁기원은	-17858
▁의회가	-17859
▁지점에서	-17860
▁활약으로	-17861
▁줄어들었다	-17862
▁친일반민족행위진상규명	-17863
머가	-17864
문트	-17865
▁간혹	-17866
▁국보	-17867
▁급증	-17868
▁넓고	-17869
▁디에	-17870
▁쏘아	-17871
▁북서부	-17872
▁주계열	-17873
▁추가된	-17874
▁하늘을	-17875
▁반대하였다	-17876
▁프랑스군은	-17877
제일	-17878
▁늦은	-17879
▁딸과	-17880
▁아치	-17881
▁두개의	-17882
▁생산이	-17883
▁시위가	-17884
▁튀르크	-17885
달마	-17886
땃쥐	-17887
비르	-17888
시경	-17889
통에	-17890
▁CH	-17891
▁So	-17892
▁공적	-17893
▁농부	-17894
▁당내	-17895
▁온라	-17896
▁하급	-17897
▁홍성	-17898
land	-17899
▁나무를	-17900
▁대전차	-17901
▁오이타	-17902
방식	-17903
좌의	-17904
택은	-17905
호마	-17906
▁리차	-17907
▁미성	-17908
▁번갈	-17909
▁자진	-17910
▁커서	-17911
▁화랑	-17912
쳤으나	-17913
▁가깝게	-17914
▁대사를	-17915
▁부정적	-17916
▁아카이	-17917
▁정의에	-17918
▁측면을	-17919
문인	-17920
예수	-17921
▁능동	-17922
▁모금	-17923
▁배운	-17924
▁정려	-17925
▁정적	-17926
▁치환	-17927
▁카바	-17928
▁연주자	-17929
▁지나간다	-17930
▁예정이었다	-17931
▁강행	-17932
▁다저	-17933
▁당황	-17934
▁색이	-17935
▁생생	-17936
▁시직	-17937
▁240	-17938
▁이해를	-17939
▁장치가	-17940
▁가와사키	-17941
▁장남으로	-17942
신앙	-17943
폐합	-17944
표준	-17945
EST	-17946
▁굴절	-17947
▁양평	-17948
▁청색	-17949
▁그룹에	-17950
▁시대는	-17951
▁전기를	-17952
▁에른스트	-17953
▁아카데미상	-17954
▁국가대표팀에서	-17955
▁물과	-17956
▁사신	-17957
▁온난	-17958
▁조현	-17959
▁테라	-17960
라에몽	-17961
리스가	-17962
차전은	-17963
▁0.0	-17964
▁데이빗	-17965
▁바다를	-17966
▁성남시	-17967
▁안전을	-17968
▁차세대	-17969
▁행동은	-17970
▁1886	-17971
▁국가보안	-17972
▁기록이다	-17973
▁생각하자	-17974
▁경제적으로	-17975
▁산스크리트	-17976
▁대한민국에는	-17977
▁틴	-17978
직이	-17979
층과	-17980
▁과연	-17981
▁배에	-17982
▁불필	-17983
▁주권	-17984
▁도로는	-17985
거리에서	-17986
▁1876	-17987
▁Tour	-17988
▁라이브러	-17989
▁모습이다	-17990
▁분류한다	-17991
▁에너지의	-17992
구스	-17993
오자	-17994
▁나간	-17995
▁리튬	-17996
▁소행	-17997
▁신진	-17998
▁익산	-17999
▁증진	-18000
▁후진	-18001
▁되므로	-18002
▁제안한	-18003
▁가르치는	-18004
▁브르타뉴	-18005
▁제작하였다	-18006
▁프란치스코	-18007
5,	-18008
달라	-18009
료의	-18010
슨을	-18011
.19	-18012
▁거점	-18013
▁나뭇	-18014
▁노보	-18015
▁법은	-18016
▁같다고	-18017
▁이름에	-18018
▁가능성도	-18019
▁국가들은	-18020
▁이용하고	-18021
▁마다가스카르	-18022
▁씻	-18023
▁결핍	-18024
▁보며	-18025
▁1,0	-18026
▁TBS	-18027
▁마카오	-18028
▁북동부	-18029
▁성매매	-18030
▁줄이기	-18031
▁니콜라스	-18032
▁익스플로	-18033
심사	-18034
▁만드	-18035
▁머신	-18036
▁신종	-18037
▁카툰	-18038
▁콜레	-18039
▁화해	-18040
테스는	-18041
▁일주일	-18042
▁채널을	-18043
▁국회에서	-18044
▁무시하고	-18045
▁포유류의	-18046
▁싱어송라이터이다	-18047
처가	-18048
▁공예	-18049
▁서인	-18050
▁성폭	-18051
▁접해	-18052
▁타락	-18053
학으로	-18054
▁나누는	-18055
▁머리카	-18056
▁서부의	-18057
▁취임한	-18058
▁적용되는	-18059
▁함경북도	-18060
▁가면라이더	-18061
▁전라남도의	-18062
루이	-18063
립트	-18064
정사	-18065
▁몰두	-18066
▁손잡	-18067
▁수교	-18068
▁위생	-18069
▁이별	-18070
▁중위	-18071
▁피치	-18072
▁브래드	-18073
▁아이콘	-18074
▁우간다	-18075
▁원소는	-18076
▁종교는	-18077
▁책임이	-18078
잉글랜드	-18079
▁1861	-18080
▁1866	-18081
▁전해지고	-18082
▁중소기업	-18083
렌은	-18084
히드	-18085
▁미에	-18086
▁순차	-18087
▁옥천	-18088
▁우두	-18089
▁인형	-18090
▁천사	-18091
▁청도	-18092
났으나	-18093
▁두각을	-18094
▁손상을	-18095
▁패밀리	-18096
대학으로	-18097
ition	-18098
▁아나운서	-18099
▁율리우스	-18100
▁개편되었다	-18101
▁판매되었다	-18102
대수	-18103
목과	-18104
제철	-18105
투르	-18106
▁급히	-18107
▁뉴턴	-18108
▁대덕	-18109
▁조영	-18110
▁걸리는	-18111
▁길이를	-18112
▁앵글로	-18113
▁제한이	-18114
▁향상을	-18115
▁대비하여	-18116
▁분류하고	-18117
▁지명되었다	-18118
▁충청남도의	-18119
매를	-18120
▁이항	-18121
▁호랑	-18122
로니아	-18123
▁0.5	-18124
▁공세를	-18125
▁떠난다	-18126
▁밴드가	-18127
▁작가로	-18128
▁초콜릿	-18129
▁타인의	-18130
▁탁월한	-18131
궤도	-18132
분간	-18133
일인	-18134
▁갖춰	-18135
▁대접	-18136
▁여주	-18137
세이다	-18138
▁가지지	-18139
▁것이기	-18140
▁기여한	-18141
▁리베르	-18142
▁수원시	-18143
▁시기가	-18144
▁외부의	-18145
▁이사를	-18146
▁자격이	-18147
▁종이다	-18148
▁주제에	-18149
▁포유류	-18150
스케이팅	-18151
▁사용하던	-18152
▁서비스는	-18153
▁조약으로	-18154
▁민족문제연구소의	-18155
▁쉽다	-18156
▁시속	-18157
▁쪽이	-18158
▁Blu	-18159
▁결합을	-18160
▁죽음으로	-18161
▁룬	-18162
맨스	-18163
하리	-18164
▁ML	-18165
▁갈래	-18166
▁고마	-18167
▁구호	-18168
대회에	-18169
▁거쳤다	-18170
▁기억을	-18171
▁룽	-18172
데자	-18173
제인	-18174
▁비어	-18175
▁선봉	-18176
세에서	-18177
▁Col	-18178
▁교류를	-18179
▁뛰어넘	-18180
▁번째는	-18181
▁소유의	-18182
▁가르시아	-18183
▁국가대표팀은	-18184
마라	-18185
▁부등	-18186
▁수중	-18187
▁파벌	-18188
▁방사선	-18189
▁사후에	-18190
▁존재했다	-18191
리드	-18192
수염	-18193
월이	-18194
▁말고	-18195
▁상소	-18196
▁인적	-18197
▁조에	-18198
▁캄파	-18199
라이드	-18200
lack	-18201
stem	-18202
▁가문을	-18203
▁자료로	-18204
▁콘스탄티	-18205
▁감자	-18206
▁날은	-18207
▁샤이	-18208
▁절벽	-18209
▁중등	-18210
▁한가	-18211
▁1.2	-18212
▁연맹의	-18213
▁원칙에	-18214
▁출전을	-18215
▁올스타전	-18216
▁아이디어를	-18217
약의	-18218
▁남인	-18219
▁발동	-18220
▁아흐	-18221
▁정주	-18222
시간은	-18223
▁"20	-18224
▁이같은	-18225
▁점성술	-18226
▁지원이	-18227
▁효고현	-18228
▁구성하고	-18229
▁받아들이지	-18230
질과	-18231
ons	-18232
▁번도	-18233
▁입는	-18234
▁하와	-18235
▁단체가	-18236
▁단체는	-18237
▁새뮤얼	-18238
▁있듯이	-18239
▁늪	-18240
늦게	-18241
코토	-18242
탄이	-18243
항이	-18244
▁양대	-18245
▁예멘	-18246
▁자코	-18247
▁정경	-18248
▁즐거	-18249
▁형용	-18250
▁등지에	-18251
▁태생의	-18252
▁하노버	-18253
민주연합	-18254
▁1850	-18255
▁취득하였다	-18256
주사	-18257
확인	-18258
▁거칠	-18259
▁에두	-18260
▁읽을	-18261
▁팔작	-18262
▁한겨	-18263
기면서	-18264
▁아들은	-18265
▁행복한	-18266
법원에서	-18267
▁공화국은	-18268
▁덧붙였다	-18269
▁도미니카	-18270
▁도카이도	-18271
▁이산화탄	-18272
▁파괴되었다	-18273
ep	-18274
▁단말	-18275
▁상이	-18276
마리의	-18277
▁거뒀다	-18278
▁것인가	-18279
▁비정상	-18280
▁예술의	-18281
▁위치로	-18282
▁인물은	-18283
▁천황은	-18284
▁하겠다	-18285
ational	-18286
발생	-18287
▁극한	-18288
▁나지	-18289
▁남산	-18290
▁보자	-18291
▁주세	-18292
▁포격	-18293
▁허블	-18294
웠으며	-18295
▁108	-18296
▁에이전	-18297
▁올리브	-18298
▁1864	-18299
▁살펴보면	-18300
▁타이거즈	-18301
여자대학교	-18302
▁몹	-18303
▁군벌	-18304
▁도사	-18305
▁섞여	-18306
▁시오	-18307
▁자민	-18308
▁조회	-18309
▁종신	-18310
▁청량	-18311
▁칭기	-18312
미트리	-18313
코리아	-18314
▁남편이	-18315
▁예정인	-18316
▁운동과	-18317
▁적외선	-18318
▁표기한다	-18319
라르	-18320
면적	-18321
음반	-18322
포타	-18323
.12	-18324
▁동전	-18325
▁부러	-18326
▁셰이	-18327
▁수산	-18328
▁좌의	-18329
▁한달	-18330
▁레인저	-18331
▁성적은	-18332
▁세월호	-18333
▁하이퍼	-18334
▁핵무기	-18335
▁거치면서	-18336
▁인도에서	-18337
▁하이브리	-18338
▁취소되었다	-18339
ION	-18340
▁민정	-18341
▁박상	-18342
▁시크	-18343
▁헌병	-18344
지역을	-18345
▁교황은	-18346
▁버스를	-18347
▁사람에	-18348
▁설계를	-18349
▁오스틴	-18350
▁집합을	-18351
지역으로	-18352
▁이베리아	-18353
▁한국독립	-18354
기동	-18355
살을	-18356
학술	-18357
▁Ro	-18358
▁복선	-18359
▁사와	-18360
▁세분	-18361
▁신을	-18362
▁후작	-18363
살이풀	-18364
▁가능성	-18365
▁로베르	-18366
▁엔진의	-18367
▁지분을	-18368
▁보호하고	-18369
BI	-18370
▁`	-18371
거스	-18372
마켓	-18373
▁귀속	-18374
▁독서	-18375
▁띄는	-18376
▁빅뱅	-18377
▁이창	-18378
▁조계	-18379
자리가	-18380
▁남동쪽	-18381
▁성에서	-18382
▁소재한	-18383
▁적당한	-18384
▁투쟁을	-18385
▁포로가	-18386
▁확인된	-18387
되었음을	-18388
▁엑스박스	-18389
움의	-18390
척이	-18391
칭을	-18392
_19	-18393
▁pr	-18394
▁감상	-18395
▁남작	-18396
▁당뇨	-18397
▁민감	-18398
▁부파	-18399
▁쌍대	-18400
ject	-18401
▁1,2	-18402
▁노선에	-18403
▁믿는다	-18404
▁조약은	-18405
▁아이치현	-18406
▁운행되고	-18407
▁종목이다	-18408
▁한국프로	-18409
께끼	-18410
전용	-18411
헤드	-18412
▁DD	-18413
▁공자	-18414
▁다우	-18415
▁뚫고	-18416
▁미식	-18417
▁노동당	-18418
▁부부는	-18419
▁않았을	-18420
▁이동할	-18421
▁조화를	-18422
▁없었다고	-18423
뮬러	-18424
배로	-18425
백의	-18426
있지	-18427
처분	-18428
태가	-18429
▁개미	-18430
▁다쓰	-18431
▁물체	-18432
▁불균	-18433
▁예일	-18434
단에는	-18435
카에서	-18436
▁마운트	-18437
▁본인은	-18438
▁아내가	-18439
▁오클라	-18440
▁위스콘	-18441
▁인해서	-18442
▁국민들의	-18443
▁대다수의	-18444
▁소설이다	-18445
▁임명했다	-18446
▁정보통신	-18447
▁중앙정보	-18448
RI	-18449
기아	-18450
▁내며	-18451
▁대도	-18452
▁명종	-18453
▁열려	-18454
스터의	-18455
▁배치된	-18456
▁여자가	-18457
▁자유와	-18458
▁정도는	-18459
▁종류로	-18460
▁1887	-18461
gr	-18462
||	-18463
▁거룩	-18464
▁고트	-18465
▁도리	-18466
▁도이	-18467
▁만날	-18468
▁신천	-18469
▁알맞	-18470
▁채굴	-18471
시간에	-18472
▁부모는	-18473
▁사업은	-18474
▁수페르	-18475
▁제공할	-18476
▁초부터	-18477
▁남베트남	-18478
▁보고서를	-18479
▁스트레스	-18480
▁윌리엄스	-18481
▁주변에서	-18482
▁Inter	-18483
▁인정받았다	-18484
▁현재까지도	-18485
gh	-18486
기하	-18487
탑을	-18488
▁성운	-18489
▁지부	-18490
나가의	-18491
디아의	-18492
▁건강한	-18493
▁네티즌	-18494
▁마스코	-18495
▁발전과	-18496
▁버린다	-18497
▁볼로냐	-18498
▁직후에	-18499
체육대회	-18500
▁제시하였다	-18501
▁증가하였다	-18502
▁애니메이션이다	-18503
남은	-18504
시기	-18505
카쿠	-18506
ike	-18507
▁Ge	-18508
▁마키	-18509
▁분수	-18510
▁우월	-18511
▁울릉	-18512
▁참수	-18513
▁3-0	-18514
▁60%	-18515
▁동서로	-18516
▁솔루션	-18517
▁스트리밍	-18518
▁이어지고	-18519
기통	-18520
아노	-18521
움과	-18522
지부	-18523
▁거세	-18524
▁말도	-18525
▁뱅크	-18526
▁파주	-18527
▁미카엘	-18528
▁이제는	-18529
▁이주한	-18530
▁카카오	-18531
▁못하도록	-18532
▁진출하여	-18533
▁쿠빌라이	-18534
▁꽂	-18535
광의	-18536
바와	-18537
언스	-18538
▁식사	-18539
▁캐리	-18540
데스는	-18541
▁빠져나	-18542
▁연맹은	-18543
▁이뤄진	-18544
▁저지대	-18545
▁페미니	-18546
▁연루되어	-18547
▁컨테이너	-18548
▁공헌하였다	-18549
공관	-18550
장사	-18551
▁감찰	-18552
▁도루	-18553
▁이봉	-18554
▁캐논	-18555
▁톈진	-18556
지느러	-18557
▁공헌을	-18558
▁남자의	-18559
▁없으면	-18560
▁요르단	-18561
▁브리티시	-18562
▁테스트를	-18563
오던	-18564
외교	-18565
택이	-18566
▁날로	-18567
▁시우	-18568
▁신상	-18569
▁자립	-18570
▁제재	-18571
▁코리	-18572
▁다시금	-18573
▁비스타	-18574
▁산맥의	-18575
▁아무리	-18576
데자네이	-18577
▁Rock	-18578
▁교회에서	-18579
▁기념하는	-18580
▁레스토랑	-18581
▁증권거래	-18582
QL	-18583
년엔	-18584
플리	-18585
▁Do	-18586
▁광물	-18587
▁마요	-18588
▁정재	-18589
▁퇴장	-18590
▁128	-18591
▁Wii	-18592
▁신학적	-18593
▁자국의	-18594
▁항공사	-18595
▁국민투표	-18596
▁달라진다	-18597
▁주전으로	-18598
▁크리에이	-18599
FI	-18600
남에	-18601
인산	-18602
초와	-18603
헌법	-18604
▁끼고	-18605
▁최장	-18606
▁풍경	-18607
▁기대를	-18608
▁이사벨	-18609
▁전자는	-18610
▁피츠버그	-18611
▁무산되었다	-18612
▁일반적이다	-18613
▁시작되었으며	-18614
▁립	-18615
▁쿄	-18616
개소	-18617
명도	-18618
조작	-18619
▁발기	-18620
▁번창	-18621
▁베풀	-18622
▁산청	-18623
▁애완	-18624
▁요절	-18625
▁추존	-18626
▁글자를	-18627
▁대체할	-18628
▁법원은	-18629
▁영원한	-18630
▁인물의	-18631
▁조사한	-18632
▁클린턴	-18633
▁고향으로	-18634
▁주변에는	-18635
고등보통학교	-18636
▁SV	-18637
▁가토	-18638
▁마술	-18639
▁우지	-18640
▁위함	-18641
▁유역	-18642
▁주먹	-18643
▁혼혈	-18644
▁대의원	-18645
▁로맨틱	-18646
▁왕조를	-18647
▁지나면	-18648
▁거절하였다	-18649
▁끄	-18650
합의	-18651
▁네모	-18652
▁무솔	-18653
▁성북	-18654
▁아레	-18655
▁주주	-18656
▁중원	-18657
베스트	-18658
▁공격할	-18659
▁동부에	-18660
▁범유행	-18661
▁상파울	-18662
▁존재는	-18663
▁화제를	-18664
▁사이에서는	-18665
서기	-18666
▁긴키	-18667
▁석불	-18668
▁어리	-18669
▁편안	-18670
정부를	-18671
▁기초한	-18672
▁설계된	-18673
▁1881	-18674
노미	-18675
배치	-18676
▁객체	-18677
▁맥아	-18678
▁예가	-18679
▁일식	-18680
▁카네	-18681
프에서	-18682
▁군대와	-18683
▁끝나는	-18684
▁데이브	-18685
▁유명하며	-18686
▁유클리드	-18687
▁합류하여	-18688
▁쾨	-18689
언은	-18690
▁막대	-18691
▁목재	-18692
▁평탄	-18693
▁한림	-18694
단체의	-18695
제도의	-18696
형문화재	-18697
▁러시아에서	-18698
▁시설관리자는	-18699
데일	-18700
바를	-18701
유전	-18702
ics	-18703
▁문무	-18704
▁묻혀	-18705
▁미칠	-18706
▁앞세	-18707
▁이브	-18708
▁직사	-18709
년마다	-18710
사에게	-18711
상태가	-18712
▁떠나는	-18713
▁무엇을	-18714
▁시민의	-18715
▁아이의	-18716
▁정당의	-18717
▁정의된	-18718
▁홈경기	-18719
▁향토유적	-18720
▁완성되었다	-18721
▁초등학교다	-18722
티와	-18723
▁살짝	-18724
▁상점	-18725
▁실각	-18726
▁친족	-18727
레스트	-18728
보이는	-18729
▁논의가	-18730
▁마르셀	-18731
▁중요시	-18732
여래좌상	-18733
▁1872	-18734
▁이야기의	-18735
군도	-18736
녀로	-18737
▁고생	-18738
▁과잉	-18739
▁비는	-18740
▁상고	-18741
▁일간	-18742
▁임의	-18743
▁틈을	-18744
민들이	-18745
부리그	-18746
왔으나	-18747
▁스칼라	-18748
▁차트에	-18749
▁혜택을	-18750
~7	-18751
▁아쉬	-18752
▁안고	-18753
▁열릴	-18754
▁게스트	-18755
▁내린다	-18756
▁1830	-18757
▁날카로운	-18758
▁영국에서는	-18759
기상	-18760
원칙	-18761
▁단장	-18762
▁불화	-18763
▁참의	-18764
캠퍼스	-18765
▁iOS	-18766
▁경전철	-18767
▁종목에서	-18768
▁배치되었다	-18769
강도	-18770
후이	-18771
▁tv	-18772
▁국악	-18773
▁습득	-18774
▁치렀	-18775
▁호족	-18776
대서양	-18777
▁그러다	-18778
▁바람이	-18779
▁사명을	-18780
▁연안에	-18781
▁우루과	-18782
▁Comp	-18783
▁HTML	-18784
▁데뷔골을	-18785
▁이들에게	-18786
빌리	-18787
투로	-18788
▁삼림	-18789
▁신은	-18790
▁우체	-18791
▁절망	-18792
▁죽여	-18793
▁코린	-18794
▁하타	-18795
▁남편의	-18796
▁라이너	-18797
▁문자로	-18798
▁없음을	-18799
▁탤런트	-18800
▁Time	-18801
[...]
