[PAD]	0
[UNK]	0
[BOS]	0
[EOS]	0
[CLS]	0
[SEP]	0
[MASK]	0
▁ᄋ	-0
▁ᄀ	-1
▁ᄃ	-2
▁ᄒ	-3
▁이	-4
▁ᄌ	-5
▁ᄉ	-6
▁ᄂ	-7
ᅳᆫ	-8
ᅳᆯ	-9
ᅡᆫ	-10
▁ᄇ	-11
▁다	-12
▁.	-13
▁에	-14
▁ᄆ	-15
▁ᄅ	-16
▁의	-17
▁는	-18
▁하	-19
ᅧᆫ	-20
ᅥᆫ	-21
ᅡᆼ	-22
▁,	-23
▁을	-24
ᅩᆼ	-25
서	-26
ᅳᄅ	-27
ᅵᆫ	-28
▁ᄎ	-29
▁가	-30
ᅧᆼ	-31
ᅮᆫ	-32
▁은	-33
▁어	-34
이	-35
▁고	-36
▁ᄑ	-37
▁1	-38
▁여	-39
ᅥᆼ	-40
▁를	-41
▁되	-42
▁한	-43
리	-44
ᅩᆨ	-45
ᅮᆨ	-46
▁아	-47
▁지	-48
ᅳ로	-49
스	-50
ᅡᆨ	-51
▁ᄐ	-52
지	-53
▁년	-54
▁로	-55
▁해	-56
시	-57
ᅡᆯ	-58
▁기	-59
▁시	-60
▁으로	-61
▁과	-62
▁2	-63
▁에서	-64
ᅮᆯ	-65
▁있	-66
▁대	-67
다	-68
▁사	-69
▁ᄏ	-70
▁주	-71
ᅩᆫ	-72
▁인	-73
ᅳᆼ	-74
▁도	-75
▁었	-76
ᅥᆨ	-77
▁일	-78
ᅯᆫ	-79
나	-80
▁와	-81
어	-82
기	-83
해	-84
▁ᄄ	-85
▁그	-86
국	-87
사	-88
▁거	-89
▁들	-90
ᅧᆨ	-91
▁수	-92
라	-93
▁나	-94
▁자	-95
▁했	-96
도	-97
ᅳᆷ	-98
▁전	-99
자	-100
가	-101
▁였	-102
▁적	-103
고	-104
▁20	-105
ᅯᆯ	-106
ᅥᆯ	-107
▁부	-108
아	-109
하	-110
화	-111
▁마	-112
부	-113
▁월	-114
한	-115
장	-116
▁제	-117
주	-118
▁19	-119
요	-120
치	-121
ᅥᆷ	-122
▁라	-123
▁미	-124
ᅣᆼ	-125
정	-126
드	-127
대	-128
인	-129
▁위	-130
ᅢᆼ	-131
▁정	-132
로	-133
▁보	-134
르	-135
▁중	-136
수	-137
▁화	-138
▁유	-139
▁세	-140
ᅧᆯ	-141
구	-142
▁바	-143
트	-144
▁오	-145
원	-146
▁된	-147
▁공	-148
▁조	-149
▁게	-150
성	-151
ᅢᆨ	-152
전	-153
▁모	-154
우	-155
▁경	-156
상	-157
제	-158
ᅥᆸ	-159
▁개	-160
과	-161
터	-162
▁것	-163
동	-164
▁3	-165
▁"	-166
학	-167
니	-168
▁한다	-169
▁비	-170
ᆯᄅ	-171
회	-172
용	-173
▁선	-174
ᅳᄆ	-175
▁등	-176
▁ᄁ	-177
▁성	-178
▁만	-179
▁구	-180
▁스	-181
▁차	-182
▁소	-183
교	-184
▁연	-185
▁동	-186
는	-187
ᅦ이	-188
▁서	-189
▁상	-190
▁며	-191
ᅳᆨ	-192
▁그ᄅ	-193
▁영	-194
▁국	-195
▁발	-196
선	-197
▁면	-198
ᅳ며	-199
문	-200
계	-201
마	-202
▁노	-203
의	-204
비	-205
산	-206
▁201	-207
신	-208
유	-209
▁'	-210
야	-211
ᅧᆻ	-212
민	-213
▁4	-214
역	-215
▁후	-216
타	-217
미	-218
데	-219
▁관	-220
만	-221
진	-222
▁명	-223
▁신	-224
소	-225
ᆯ리	-226
▁리	-227
▁이ᄅ	-228
▁5	-229
일	-230
▁때	-231
식	-232
▁200	-233
체	-234
음	-235
▁장	-236
▁-	-237
재	-238
▁포	-239
▁우	-240
▁할	-241
오	-242
▁던	-243
게	-244
명	-245
▁방	-246
간	-247
▁요	-248
위	-249
▁교	-250
▁무	-251
▁내	-252
▁대한	-253
군	-254
조	-255
작	-256
▁문	-257
단	-258
카	-259
▁역	-260
키	-261
후	-262
▁ᄊ	-263
관	-264
ᅢᆫ	-265
▁당	-266
행	-267
▁호	-268
공	-269
▁원	-270
ᅡ지	-271
▁통	-272
▁진	-273
ᅦᆫ	-274
ᅳᆯᄅ	-275
▁계	-276
▁현	-277
거	-278
보	-279
▁남	-280
▁군	-281
ᅳ리	-282
무	-283
그	-284
크	-285
▁피	-286
▁분	-287
본	-288
물	-289
▁6	-290
▁또	-291
력	-292
당	-293
토	-294
▁않	-295
▁야	-296
▁학	-297
운	-298
▁생	-299
▁파	-300
업	-301
록	-302
티	-303
▁았	-304
히	-305
안	-306
▁까지	-307
▁같	-308
▁작	-309
▁추	-310
▁타	-311
▁강	-312
▁출	-313
▁결	-314
여	-315
▁회	-316
▁불	-317
▁처	-318
▁에게	-319
▁받	-320
▁함	-321
반	-322
와	-323
▁으며	-324
른	-325
▁단	-326
▁번	-327
속	-328
▁7	-329
양	-330
ᅵᆷ	-331
▁예	-332
▁최	-333
▁10	-334
▁8	-335
▁반	-336
디	-337
▁된다	-338
▁배	-339
피	-340
호	-341
류	-342
▁카	-343
▁두	-344
방	-345
립	-346
포	-347
임	-348
▁안	-349
내	-350
▁코	-351
면	-352
▁초	-353
▁지만	-354
표	-355
▁형	-356
▁따	-357
생	-358
경	-359
프	-360
▁재	-361
모	-362
▁말	-363
▁부터	-364
통	-365
▁없	-366
분	-367
코	-368
격	-369
세	-370
▁사용	-371
들	-372
래	-373
▁실	-374
바	-375
영	-376
▁9	-377
종	-378
▁미국	-379
▁데	-380
▁종	-381
연	-382
▁라고	-383
▁음	-384
각	-385
려	-386
러	-387
▁이후	-388
▁라는	-389
▁설	-390
법	-391
▁더	-392
합	-393
적	-394
▁특	-395
버	-396
▁산	-397
▁매	-398
▁면서	-399
▁ᄍ	-400
차	-401
두	-402
▁일본	-403
발	-404
즈	-405
ᅮᆷ	-406
파	-407
노	-408
▁운	-409
▁는데	-410
▁권	-411
▁감	-412
▁베	-413
으며	-414
령	-415
▁독	-416
▁활	-417
직	-418
▁행	-419
람	-420
▁왕	-421
ᅳ라	-422
▁건	-423
▁치	-424
▁태	-425
민국	-426
ᅳ나	-427
▁김	-428
승	-429
▁간	-430
▁지역	-431
▁입	-432
설	-433
▁199	-434
▁다음	-435
▁민	-436
▁양	-437
▁평	-438
료	-439
▁많	-440
▁12	-441
점	-442
테	-443
태	-444
▁대한민국	-445
실	-446
▁18	-447
▁참	-448
족	-449
▁및	-450
▁경기	-451
▁토	-452
중	-453
▁본	-454
▁승	-455
▁메	-456
▁다른	-457
녀	-458
▁프로	-459
▁목	-460
▁대학	-461
술	-462
▁임	-463
▁다고	-464
에	-465
00	-466
▁;	-467
출	-468
▁속	-469
▁총	-470
▁외	-471
▁애	-472
▁그리	-473
▁레	-474
형	-475
쪽	-476
심	-477
▁위해	-478
▁그러	-479
▁북	-480
▁프ᄅ	-481
or	-482
건	-483
약	-484
▁ᄈ	-485
▁테	-486
독	-487
▁S	-488
네	-489
▁체	-490
남	-491
현	-492
석	-493
▁집	-494
ᆯ라	-495
▁11	-496
▁저	-497
▁법	-498
향	-499
난	-500
▁때문	-501
▁시작	-502
▁각	-503
등	-504
▁천	-505
▁물	-506
▁변	-507
금	-508
▁표	-509
입	-510
능	-511
울	-512
▁직	-513
천	-514
▁버	-515
품	-516
께	-517
▁따라	-518
루	-519
▁&	-520
▁사람	-521
▁디	-522
▁A	-523
▁함께	-524
▁또한	-525
▁새	-526
▁투	-527
워	-528
송	-529
▁팀	-530
판	-531
▁점	-532
▁박	-533
▁선수	-534
▁항	-535
져	-536
▁청	-537
▁)	-538
▁한국	-539
란	-540
▁알	-541
▁사이	-542
▁영화	-543
▁세계	-544
쟁	-545
준	-546
la	-547
▁광	-548
든	-549
매	-550
련	-551
▁약	-552
▁시ᄌ	-553
급	-554
▁자신	-555
▁C	-556
투	-557
▁루	-558
개	-559
▁네	-560
▁판	-561
▁M	-562
언	-563
함	-564
청	-565
▁f	-566
▁경우	-567
▁용	-568
ᅢᆫ드	-569
베	-570
▁뒤	-571
▁T	-572
▁축	-573
▁현재	-574
▁F	-575
ᅧᆸ	-576
▁복	-577
▁기록	-578
▁니	-579
▁하나	-580
▁국가	-581
시아	-582
망	-583
▁존	-584
▁이름	-585
▁198	-586
▁편	-587
초	-588
질	-589
량	-590
▁가장	-591
▁위치	-592
악	-593
▁삼	-594
ᆯ레	-595
▁당시	-596
▁_	-597
▁확	-598
▁다는	-599
▁키	-600
브	-601
항	-602
레	-603
▁학교	-604
▁채	-605
▁조선	-606
▁가지	-607
▁활동	-608
결	-609
▁합	-610
▁(	-611
▁철	-612
▁이나	-613
▁리그	-614
리아	-615
▁규	-616
스트	-617
▁15	-618
▁살	-619
년	-620
병	-621
주의	-622
ᆯ려	-623
▁그러나	-624
▁for	-625
메	-626
스ᄐ	-627
ᅳᆺ	-628
ᅮᆼ	-629
강	-630
▁히	-631
▁금	-632
너	-633
mu	-634
배	-635
졌	-636
▁캐	-637
▁페	-638
▁증	-639
▁째	-640
▁언	-641
션	-642
▁백	-643
mula	-644
▁formula	-645
편	-646
▁창	-647
▁심	-648
견	-649
▁의해	-650
▁열	-651
저	-652
▁16	-653
론	-654
▁식	-655
목	-656
복	-657
▁대표	-658
▁근	-659
▁연구	-660
▁병	-661
색	-662
▁또는	-663
별	-664
▁못	-665
▁프랑	-666
부터	-667
▁통해	-668
▁러	-669
▁/	-670
근	-671
▁그리고	-672
▁황	-673
달	-674
▁m	-675
쿠	-676
환	-677
▁사회	-678
▁아이	-679
으나	-680
황	-681
▁0	-682
육	-683
▁D	-684
▁패	-685
린	-686
▁크	-687
험	-688
▁17	-689
▁충	-690
▁시즌	-691
페	-692
▁순	-693
츠	-694
권	-695
▁아니	-696
▁첫	-697
▁197	-698
북	-699
▁쓰	-700
머	-701
▁B	-702
어나	-703
▁]	-704
▁[	-705
▁씨	-706
▁완	-707
▁보다	-708
온	-709
외	-710
케	-711
▁만들	-712
▁다시	-713
▁높	-714
▁중국	-715
▁협	-716
규	-717
할	-718
왕	-719
▁서울	-720
▁I	-721
▁K	-722
학교	-723
▁정부	-724
▁:	-725
▁영국	-726
ᅳ래	-727
ᆷ피	-728
▁시대	-729
▁돌	-730
탈	-731
▁프랑스	-732
더	-733
▁는다	-734
곡	-735
▁여러	-736
▁k	-737
▁끄	-738
▁뜻	-739
▁대해	-740
▁포함	-741
찰	-742
범	-743
▁도시	-744
▁196	-745
▁14	-746
집	-747
▁필	-748
▁전쟁	-749
쳐	-750
했	-751
▁독일	-752
광	-753
▁으나	-754
▁친	-755
▁다가	-756
er	-757
▁로서	-758
▁큰	-759
▁~	-760
▁대회	-761
▁죽	-762
퍼	-763
▁문화	-764
것	-765
겨	-766
▁시ᄏ	-767
▁축구	-768
▁티	-769
▁너	-770
▁13	-771
▁g	-772
▁취	-773
례	-774
▁달	-775
▁P	-776
▁뉴	-777
▁별	-778
▁온	-779
▁위원	-780
▁가능	-781
in	-782
▁엔	-783
▁이러	-784
▁모두	-785
▁동안	-786
▁길	-787
▁모든	-788
▁정치	-789
▁준	-790
▁이상	-791
앙	-792
▁올리	-793
▁손	-794
▁허	-795
▁감독	-796
▁곡	-797
▁194	-798
극	-799
▁일부	-800
▁환	-801
열	-802
▁방송	-803
▁l	-804
▁석	-805
존	-806
▁대학교	-807
▁개발	-808
▁알려	-809
습	-810
▁문제	-811
▁처음	-812
ᆯ로	-813
▁L	-814
▁지방	-815
축	-816
▁위한	-817
▁제작	-818
ᆯ러	-819
은	-820
▁이루	-821
예	-822
▁구성	-823
▁배우	-824
ᆯ린	-825
▁검	-826
▁%	-827
▁국제	-828
락	-829
▁였으며	-830
랑	-831
▁논	-832
▁농	-833
▁플ᄅ	-834
▁시키	-835
평	-836
▁될	-837
널	-838
감	-839
ᆼᄀ	-840
▁사건	-841
▁스ᄐ	-842
칭	-843
▁세기	-844
▁시간	-845
▁헤	-846
▁날	-847
▁끝	-848
▁이용	-849
▁일반	-850
▁새로	-851
철	-852
ᅳᆯ리	-853
▁G	-854
▁슈	-855
▁골	-856
▁존재	-857
▁게임	-858
념	-859
절	-860
▁향	-861
추	-862
▁작품	-863
처	-864
▁쿠	-865
웨	-866
▁돼	-867
▁역사	-868
▁정도	-869
▁운동	-870
▁섬	-871
▁폭	-872
▁급	-873
▁N	-874
살	-875
▁gt	-876
▁인구	-877
▁주장	-878
▁곳	-879
▁겨	-880
니아	-881
ᅳᆯ라	-882
on	-883
▁드	-884
▁즉	-885
▁195	-886
▁앞	-887
▁관계	-888
▁km	-889
▁효	-890
▁교육	-891
▁려	-892
▁음악	-893
획	-894
▁접	-895
▁거나	-896
▁귀	-897
▁나타	-898
▁육	-899
▁맡	-900
슨	-901
▁중심	-902
▁lt	-903
▁U	-904
날	-905
▁터	-906
택	-907
▁브ᄅ	-908
▁웨	-909
막	-910
▁R	-911
▁커	-912
▁30	-913
럽	-914
▁극	-915
봉	-916
▁했으며	-917
책	-918
▁맞	-919
변	-920
창	-921
▁선거	-922
부분	-923
▁발견	-924
▁절	-925
▁H	-926
▁경제	-927
▁전투	-928
▁담	-929
통령	-930
화국	-931
▁봉	-932
증	-933
▁E	-934
▁발표	-935
ᅳᆯ로	-936
▁누	-937
▁홍	-938
▁갖	-939
▁기술	-940
름	-941
착	-942
▁민주	-943
▁측	-944
▁줄	-945
▁암	-946
▁막	-947
▁아들	-948
ᆷ픽	-949
▁도록	-950
▁잘	-951
▁우승	-952
▁책	-953
그래	-954
징	-955
▁2010	-956
활	-957
▁로부터	-958
▁라이	-959
커	-960
움	-961
▁들어	-962
▁대부분	-963
▁케	-964
▁올림픽	-965
▁공격	-966
▁대통령	-967
an	-968
▁사망	-969
▁머	-970
▁영향	-971
▁볼	-972
접	-973
000	-974
▁송	-975
▁결과	-976
▁밝	-977
써	-978
▁지원	-979
애	-980
▁자유	-981
▁193	-982
순	-983
으	-984
▁탄	-985
▁잡	-986
▁프로그래	-987
▁의미	-988
▁과정	-989
▁센	-990
▁발생	-991
▁클ᄅ	-992
▁참여	-993
ᆨ스	-994
혼	-995
▁관련	-996
▁중앙	-997
▁유럽	-998
을	-999
▁c	-1000
▁류	-1001
▁업	-1002
▁진행	-1003
▁최초	-1004
▁트	-1005
20	-1006
▁25	-1007
▁범	-1008
▁얻	-1009
득	-1010
▁부분	-1011
럼	-1012
▁고등	-1013
ᅳ러	-1014
▁독립	-1015
▁특히	-1016
▁난	-1017
▁설립	-1018
ᅵᆫ다	-1019
▁다양	-1020
▁구조	-1021
백	-1022
▁제국	-1023
▁초등	-1024
지만	-1025
▁됐	-1026
▁결정	-1027
▁설치	-1028
▁걸	-1029
ᅥᆯ어	-1030
버지	-1031
▁레이	-1032
▁발매	-1033
▁좌	-1034
▁형태	-1035
▁폐	-1036
▁탈	-1037
불	-1038
나라	-1039
담	-1040
▁상태	-1041
▁소속	-1042
▁W	-1043
응	-1044
▁2008	-1045
▁악	-1046
▁어서	-1047
▁러시아	-1048
▁같이	-1049
▁이전	-1050
탄	-1051
▁21	-1052
▁스타	-1053
월	-1054
벌	-1055
ᅦ이션	-1056
스테	-1057
▁그녀	-1058
▁침	-1059
디오	-1060
▁하지만	-1061
패	-1062
우스	-1063
▁사실	-1064
▁타이	-1065
▁새로운	-1066
였	-1067
▁인해	-1068
▁좋	-1069
▁로마	-1070
▁프로그램	-1071
▁주로	-1072
▁나라	-1073
▁여성	-1074
▁팔	-1075
ᅳ레	-1076
▁인민	-1077
▁으로서	-1078
▁데이	-1079
▁꼬	-1080
박	-1081
▁2012	-1082
▁2011	-1083
▁출신	-1084
▁르	-1085
▁드라	-1086
▁참가	-1087
▁보이	-1088
▁혼	-1089
▁필요	-1090
냈	-1091
▁생각	-1092
▁이탈	-1093
▁기준	-1094
▁관리	-1095
▁바ᄁ	-1096
en	-1097
어났	-1098
▁앨	-1099
▁100	-1100
▁운영	-1101
돌	-1102
손	-1103
▁이것	-1104
▁위원회	-1105
▁여자	-1106
▁조직	-1107
▁2009	-1108
▁2007	-1109
▁윤	-1110
▁t	-1111
▁2014	-1112
▁란	-1113
▁중요	-1114
▁기관	-1115
▁이어	-1116
▁생산	-1117
▁계획	-1118
▁행정	-1119
▁바이	-1120
뷔	-1121
▁질	-1122
▁등장	-1123
▁쇼	-1124
닌	-1125
▁음반	-1126
▁정보	-1127
덕	-1128
▁지정	-1129
희	-1130
슈	-1131
▁상대	-1132
▁a	-1133
퇴	-1134
▁어ᄄ	-1135
▁계속	-1136
▁성공	-1137
▁콘	-1138
▁희	-1139
▁헌	-1140
찬	-1141
▁매우	-1142
▁데뷔	-1143
▁2013	-1144
▁O	-1145
쓰	-1146
▁자리	-1147
프리	-1148
ᅮᆸ	-1149
▁밀	-1150
he	-1151
▁해당	-1152
스터	-1153
맹	-1154
▁국민	-1155
▁으ᄆ	-1156
▁철도	-1157
▁해서	-1158
때	-1159
▁넘	-1160
▁고려	-1161
▁아버지	-1162
▁대전	-1163
▁칼	-1164
▁시리	-1165
▁과학	-1166
▁이탈리아	-1167
프트	-1168
▁주요	-1169
▁뿐	-1170
객	-1171
▁몇	-1172
균	-1173
▁묘	-1174
혀	-1175
▁아래	-1176
▁191	-1177
▁따르	-1178
▁발전	-1179
▁사업	-1180
▁샤	-1181
친	-1182
▁24	-1183
▁23	-1184
측	-1185
▁찾	-1186
남도	-1187
ar	-1188
▁2015	-1189
▁000	-1190
진다	-1191
▁2018	-1192
▁이유	-1193
▁억	-1194
▁차지	-1195
▁마이	-1196
림	-1197
▁방법	-1198
▁처럼	-1199
▁트ᄅ	-1200
▁2016	-1201
턴	-1202
르크	-1203
누	-1204
▁월드	-1205
델	-1206
▁앨범	-1207
▁능	-1208
▁그룹	-1209
▁인도	-1210
▁스페	-1211
▁최고	-1212
침	-1213
늘	-1214
▁싸	-1215
▁워	-1216
▁돌아	-1217
▁출연	-1218
▁시리즈	-1219
▁J	-1220
es	-1221
▁푸	-1222
▁22	-1223
▁전체	-1224
▁블ᄅ	-1225
▁생활	-1226
▁느	-1227
▁2006	-1228
갈	-1229
익	-1230
▁결국	-1231
▁고등학교	-1232
랴	-1233
▁둘	-1234
▁회사	-1235
▁졌	-1236
▁192	-1237
FA	-1238
▁그리스	-1239
▁올라	-1240
▁후보	-1241
▁퍼	-1242
비아	-1243
▁내용	-1244
어난	-1245
▁한편	-1246
▁층	-1247
▁프리	-1248
▁제공	-1249
▁격	-1250
▁였으나	-1251
까	-1252
▁떠	-1253
▁2017	-1254
▁연합	-1255
▁방식	-1256
암	-1257
율	-1258
▁우리	-1259
최	-1260
▁풍	-1261
운데	-1262
▁인터	-1263
▁공식	-1264
▁항공	-1265
▁많이	-1266
략	-1267
▁의원	-1268
▁힘	-1269
▁컴	-1270
말	-1271
▁인간	-1272
▁시스테	-1273
▁드라마	-1274
▁시기	-1275
렸	-1276
▁가운데	-1277
▁못하	-1278
▁몸	-1279
▁이ᄁ	-1280
▁역할	-1281
▁잠	-1282
▁휴	-1283
▁시스템	-1284
한다	-1285
▁출전	-1286
▁군사	-1287
▁초기	-1288
▁유명	-1289
▁조사	-1290
왔	-1291
▁글	-1292
▁거의	-1293
▁기업	-1294
▁제도	-1295
▁s	-1296
▁민족	-1297
며	-1298
▁반대	-1299
▁지구	-1300
▁먼	-1301
▁색	-1302
ᅳᆯ랜드	-1303
비스	-1304
▁교회	-1305
▁수상	-1306
▁나이	-1307
헌	-1308
▁으로써	-1309
▁분류	-1310
▁대신	-1311
▁갈	-1312
인다	-1313
▁울	-1314
귀	-1315
▁유지	-1316
▁표현	-1317
압	-1318
▁평가	-1319
▁!	-1320
▁26	-1321
칙	-1322
▁언어	-1323
▁으로부터	-1324
at	-1325
▁특별	-1326
▁떨어	-1327
▁녹	-1328
▁해야	-1329
▁이루어	-1330
▁대상	-1331
▁기능	-1332
▁규모	-1333
염	-1334
▁홈	-1335
▁동시	-1336
▁현대	-1337
▁응	-1338
났	-1339
▁28	-1340
▁공개	-1341
▁이르	-1342
▁따라서	-1343
▁연결	-1344
▁마지	-1345
휘	-1346
▁베이	-1347
틀	-1348
▁모습	-1349
▁열린	-1350
▁자연	-1351
▁얼	-1352
야기	-1353
▁2019	-1354
▁각각	-1355
▁이미	-1356
▁27	-1357
▁가리	-1358
▁여기	-1359
▁노동	-1360
▁칸	-1361
▁쉬	-1362
▁뛰	-1363
▁놓	-1364
▁개인	-1365
▁이론	-1366
▁붙	-1367
밀	-1368
▁단체	-1369
▁승리	-1370
▁지도	-1371
북도	-1372
풍	-1373
▁인정	-1374
▁밖	-1375
▁진출	-1376
골	-1377
▁2005	-1378
번	-1379
▁V	-1380
▁임명	-1381
▁졸	-1382
▁크리	-1383
▁핵	-1384
▁2000	-1385
▁시켰	-1386
▁불리	-1387
▁알려져	-1388
▁수도	-1389
▁목록	-1390
▁마지막	-1391
▁긴	-1392
쳤	-1393
머니	-1394
총	-1395
▁경상	-1396
▁시절	-1397
센	-1398
▁정의	-1399
▁아르	-1400
▁비로	-1401
갔	-1402
▁시장	-1403
▁목적	-1404
▁전문	-1405
ic	-1406
▁족	-1407
▁빠	-1408
필	-1409
al	-1410
▁오스ᄐ	-1411
▁기간	-1412
▁눈	-1413
▁벌	-1414
▁정책	-1415
낸	-1416
▁이야기	-1417
▁산업	-1418
▁왔	-1419
욕	-1420
▁먹	-1421
▁직접	-1422
▁야구	-1423
컵	-1424
▁상황	-1425
▁서로	-1426
▁습	-1427
흥	-1428
▁빈	-1429
겼	-1430
▁기원	-1431
▁플레이	-1432
▁혁	-1433
▁압	-1434
▁메이	-1435
▁계약	-1436
▁했으나	-1437
BS	-1438
▁추가	-1439
▁2004	-1440
▁개최	-1441
▁건설	-1442
▁공동	-1443
혁	-1444
니다	-1445
▁건물	-1446
웠	-1447
▁FC	-1448
▁공간	-1449
▁스ᄏ	-1450
ᆨ터	-1451
▁50	-1452
▁망	-1453
▁활약	-1454
곳	-1455
충	-1456
▁경찰	-1457
▁형성	-1458
▁태어났	-1459
층	-1460
▁올	-1461
▁결혼	-1462
▁스페인	-1463
▁31	-1464
▁노래	-1465
▁부산	-1466
▁비스	-1467
ᅳᆯ러	-1468
▁29	-1469
▁모델	-1470
▁b	-1471
▁졸업	-1472
▁훈	-1473
▁거리	-1474
▁자동	-1475
▁관한	-1476
학자	-1477
던	-1478
먼	-1479
륙	-1480
▁그래	-1481
▁보여	-1482
혔	-1483
률	-1484
▁TV	-1485
란드	-1486
ᆯ렸	-1487
▁변경	-1488
▁텔레	-1489
is	-1490
ᅥᆯ리	-1491
▁교수	-1492
ᆼ글	-1493
▁사상	-1494
▁변화	-1495
▁국회	-1496
it	-1497
re	-1498
엄	-1499
런	-1500
▁인물	-1501
▁공화국	-1502
▁마을	-1503
▁의하	-1504
▁으면	-1505
▁부르	-1506
드리	-1507
▁완전	-1508
엘	-1509
스크	-1510
▁그것	-1511
▁190	-1512
ᅳᆸ	-1513
▁노선	-1514
▁빌	-1515
비전	-1516
▁비롯	-1517
▁사랑	-1518
느	-1519
▁인민공	-1520
▁2020	-1521
▁낮	-1522
▁인민공화국	-1523
▁중학교	-1524
ou	-1525
▁역시	-1526
블	-1527
▁다이	-1528
▁맥	-1529
▁보통	-1530
▁학생	-1531
▁최대	-1532
▁서비스	-1533
▁실제	-1534
▁속하	-1535
▁딸	-1536
▁탑	-1537
▁보호	-1538
스티	-1539
▁지금	-1540
프리카	-1541
▁견	-1542
▁요구	-1543
쿄	-1544
스타	-1545
▁전국	-1546
▁의회	-1547
▁소설	-1548
▁달리	-1549
굴	-1550
대로	-1551
▁우주	-1552
▁일으	-1553
▁중화	-1554
▁궁	-1555
▁지하	-1556
▁겸	-1557
▁실시	-1558
▁나오	-1559
역시	-1560
▁거쳐	-1561
▁지지	-1562
▁혹	-1563
빈	-1564
▁기본	-1565
슬	-1566
▁가수	-1567
▁황제	-1568
▁옥	-1569
확	-1570
▁퇴	-1571
▁싱글	-1572
▁밴드	-1573
▁없이	-1574
▁판매	-1575
▁론	-1576
▁원래	-1577
▁겠	-1578
ᆯ랜드	-1579
▁전통	-1580
▁자기	-1581
운드	-1582
▁기반	-1583
▁만든	-1584
▁2002	-1585
▁경기도	-1586
▁비판	-1587
ᆯ란	-1588
메리	-1589
▁가진	-1590
▁차이	-1591
스탄	-1592
▁엄	-1593
ᅱᆫ	-1594
궁	-1595
▁어떤	-1596
▁한다는	-1597
ᅳ라이	-1598
▁종교	-1599
▁탐	-1600
ᇂ게	-1601
렌	-1602
욱	-1603
▁40	-1604
틴	-1605
▁지나	-1606
▁위하	-1607
탕	-1608
▁자료	-1609
▁세력	-1610
▁어려	-1611
죄	-1612
▁2003	-1613
▁수행	-1614
▁소련	-1615
▁기타	-1616
르트	-1617
▁못했	-1618
▁모양	-1619
▁센터	-1620
▁환경	-1621
▁뮤	-1622
▁가까	-1623
ᆯ리아	-1624
▁운행	-1625
▁전기	-1626
▁회의	-1627
▁도쿄	-1628
▁시설	-1629
옥	-1630
▁아닌	-1631
▁승강	-1632
촌	-1633
▁전자	-1634
▁특징	-1635
▁휘	-1636
▁월드컵	-1637
▁부대	-1638
▁컵	-1639
▁명칭	-1640
나다	-1641
▁기념	-1642
le	-1643
▁공연	-1644
길	-1645
▁텔레비전	-1646
▁분야	-1647
▁도로	-1648
ᅳ레이	-1649
▁교황	-1650
mp	-1651
▁이동	-1652
▁예술	-1653
▁구역	-1654
퓨	-1655
새	-1656
▁기독	-1657
▁남자	-1658
▁설명	-1659
▁염	-1660
▁동물	-1661
씨	-1662
▁연방	-1663
▁작업	-1664
▁도입	-1665
▁풀	-1666
특	-1667
▁통합	-1668
▁전라	-1669
완	-1670
▁애니	-1671
숙	-1672
▁십	-1673
▁선정	-1674
잡	-1675
▁대해서	-1676
▁숙	-1677
▁행동	-1678
▁소프트	-1679
▁남쪽	-1680
엔	-1681
▁득	-1682
▁넓	-1683
▁의한	-1684
▁북쪽	-1685
▁=	-1686
▁작용	-1687
탁	-1688
▁출시	-1689
▁가족	-1690
▁바로	-1691
▁군대	-1692
춘	-1693
▁방향	-1694
▁능력	-1695
너지	-1696
▁보내	-1697
▁확인	-1698
▁증가	-1699
뉴	-1700
▁차량	-1701
▁짜	-1702
효	-1703
▁기존	-1704
▁교통	-1705
▁나가	-1706
의원	-1707
▁지휘	-1708
▁문학	-1709
▁제외	-1710
긴	-1711
▁옮	-1712
협	-1713
▁작가	-1714
▁착	-1715
▁클럽	-1716
▁사고	-1717
▁비슷	-1718
▁므로	-1719
▁행위	-1720
▁나ᄂ	-1721
▁기독교	-1722
▁이때	-1723
▁어머니	-1724
▁형식	-1725
▁승강장	-1726
이드	-1727
▁래	-1728
▁국내	-1729
▁역임	-1730
훈	-1731
▁피해	-1732
▁작곡	-1733
▁태양	-1734
▁혁명	-1735
▁런	-1736
▁마다	-1737
▁케이	-1738
쥐	-1739
▁컴퓨	-1740
▁사무	-1741
▁캐나다	-1742
▁열차	-1743
▁효과	-1744
렬	-1745
▁낙	-1746
▁몽	-1747
▁지배	-1748
▁유일	-1749
▁왕국	-1750
듬	-1751
▁FI	-1752
벽	-1753
▁과거	-1754
덴	-1755
▁이적	-1756
▁이끌	-1757
벨	-1758
넷	-1759
BC	-1760
▁알레	-1761
ᆷ버	-1762
▁높이	-1763
▁협회	-1764
▁앤	-1765
▁혹은	-1766
▁한다고	-1767
▁남부	-1768
▁갑	-1769
몬	-1770
▁추정	-1771
▁흥	-1772
▁뉴욕	-1773
자리	-1774
팅	-1775
▁마리	-1776
▁흔	-1777
▁잔	-1778
트ᄅ	-1779
▁비교	-1780
▁스포	-1781
▁담당	-1782
▁이사	-1783
▁육군	-1784
끼	-1785
이트	-1786
▁공산	-1787
▁동일	-1788
▁주변	-1789
▁2001	-1790
▁동쪽	-1791
▁1990	-1792
▁획	-1793
▁시민	-1794
싱	-1795
▁조지	-1796
▁정당	-1797
▁윈	-1798
▁X	-1799
▁장관	-1800
▁돈	-1801
▁인기	-1802
▁p	-1803
▁데이터	-1804
▁구간	-1805
▁건축	-1806
켓	-1807
▁덴	-1808
▁예정	-1809
▁세포	-1810
▁대사	-1811
▁챔피	-1812
▁공사	-1813
▁즈	-1814
▁어린	-1815
▁컴퓨터	-1816
▁맨	-1817
받	-1818
▁쪽	-1819
▁적용	-1820
▁사단	-1821
▁시켜	-1822
트리	-1823
▁서쪽	-1824
▁189	-1825
▁개념	-1826
▁성장	-1827
▁마르	-1828
▁크기	-1829
▁괴	-1830
▁스ᄆ	-1831
▁품	-1832
▁버스	-1833
▁에너지	-1834
렀	-1835
▁오늘	-1836
▁충청	-1837
▁차례	-1838
▁마음	-1839
▁상당	-1840
▁곧	-1841
채	-1842
▁록	-1843
둥	-1844
▁징	-1845
▁움	-1846
▁트리	-1847
▁오래	-1848
▁흑	-1849
▁액	-1850
▁대하	-1851
▁애니ᄆ	-1852
▁넣	-1853
▁칭	-1854
좌	-1855
▁땅	-1856
▁다르	-1857
▁물리	-1858
털	-1859
▁조건	-1860
▁작전	-1861
액	-1862
▁크로	-1863
▁민주주의	-1864
▁머리	-1865
▁디자	-1866
▁자체	-1867
컬	-1868
▁아라	-1869
맥	-1870
▁d	-1871
취	-1872
괴	-1873
▁실패	-1874
▁어느	-1875
거리	-1876
카이	-1877
닝	-1878
냐	-1879
른다	-1880
셔	-1881
▁연기	-1882
▁덕	-1883
▁반응	-1884
글	-1885
▁FIFA	-1886
▁버전	-1887
▁컨	-1888
▁방영	-1889
▁종류	-1890
▁페르	-1891
▁이런	-1892
▁국립	-1893
▁선언	-1894
▁수록	-1895
▁하이	-1896
▁특정	-1897
ᆨ트	-1898
스코	-1899
▁쌍	-1900
▁연주	-1901
el	-1902
▁공항	-1903
▁부족	-1904
▁쥐	-1905
▁필리	-1906
▁연속	-1907
et	-1908
가지	-1909
▁대구	-1910
▁루이	-1911
▁선택	-1912
▁대체	-1913
▁해군	-1914
▁고대	-1915
▁곤	-1916
▁벨	-1917
▁지냈	-1918
▁규정	-1919
즘	-1920
▁북부	-1921
▁조약	-1922
▁멤버	-1923
▁내부	-1924
▁체제	-1925
▁속도	-1926
▁애니메이션	-1927
▁기원전	-1928
▁잉ᄀ	-1929
▁선출	-1930
▁아시아	-1931
핀	-1932
▁결승	-1933
▁자치	-1934
▁연대	-1935
▁헌법	-1936
▁몬	-1937
▁왜	-1938
▁위해서	-1939
▁명령	-1940
ion	-1941
▁옛	-1942
웨어	-1943
▁벤	-1944
스토	-1945
딩	-1946
칸	-1947
▁이라	-1948
▁포르	-1949
▁인천	-1950
▁정신	-1951
▁영어	-1952
▁가치	-1953
▁걸쳐	-1954
▁인지	-1955
버스	-1956
▁는지	-1957
▁링	-1958
ing	-1959
▁유니	-1960
▁단계	-1961
▁밝혔	-1962
▁설계	-1963
▁찬	-1964
▁친구	-1965
▁파이	-1966
▁보인다	-1967
▁최종	-1968
▁달러	-1969
▁나무	-1970
▁개혁	-1971
▁물질	-1972
▁비행	-1973
▁최근	-1974
디어	-1975
▁척	-1976
▁에이	-1977
▁밤	-1978
▁일어나	-1979
트남	-1980
시마	-1981
▁출판	-1982
▁브라	-1983
▁분석	-1984
▁1999	-1985
▁지명	-1986
▁평균	-1987
▁팬	-1988
ᅳᆯ린	-1989
ol	-1990
볼	-1991
▁의사	-1992
▁써	-1993
▁표준	-1994
▁강화	-1995
덜	-1996
▁체계	-1997
트로	-1998
ᅳ루	-1999
메리카	-2000
째	-2001
▁1998	-2002
▁cm	-2003
▁술	-2004
21	-2005
▁배치	-2006
▁잉글랜드	-2007
▁Y	-2008
▁함수	-2009
▁o	-2010
▁치료	-2011
▁더욱	-2012
▁소비	-2013
폐	-2014
▁부문	-2015
▁하계	-2016
▁베르	-2017
▁획득	-2018
▁내려	-2019
▁씩	-2020
척	-2021
▁파리	-2022
▁법원	-2023
▁개월	-2024
ᅦ이스	-2025
▁언급	-2026
▁집단	-2027
룡	-2028
흐	-2029
▁공원	-2030
텐	-2031
▁북한	-2032
▁핀	-2033
▁관심	-2034
▁분리	-2035
▁유사	-2036
▁1980	-2037
▁몰	-2038
튼	-2039
▁60	-2040
▁관할	-2041
▁공립	-2042
▁입단	-2043
▁스코	-2044
▁현상	-2045
▁소유	-2046
▁부상	-2047
▁지속	-2048
▁확장	-2049
▁맺	-2050
▁제품	-2051
▁35	-2052
쇄	-2053
▁처리	-2054
▁조정	-2055
▁실험	-2056
▁선발	-2057
▁스포츠	-2058
를	-2059
▁로스	-2060
릉	-2061
▁문자	-2062
▁당하	-2063
▁싱	-2064
▁챔피언	-2065
▁대중	-2066
▁엔진	-2067
▁mm	-2068
▁꽃	-2069
▁장군	-2070
폰	-2071
▁목표	-2072
▁도움	-2073
▁요시	-2074
▁거주	-2075
▁주도	-2076
▁정규	-2077
▁요소	-2078
▁고자	-2079
▁어야	-2080
▁가문	-2081
▁원자	-2082
▁통일	-2083
▁자동차	-2084
▁재판	-2085
▁시도	-2086
섯	-2087
▁구단	-2088
▁외국	-2089
린다	-2090
▁앙	-2091
▁이해	-2092
샤	-2093
▁점령	-2094
▁n	-2095
혜	-2096
▁주인	-2097
▁편성	-2098
아들	-2099
광역시	-2100
▁엘	-2101
ᆯ란드	-2102
▁기사	-2103
▁들어가	-2104
▁시험	-2105
▁네덜	-2106
벤	-2107
▁네덜란드	-2108
▁후반	-2109
클	-2110
▁일종	-2111
▁주민	-2112
▁학자	-2113
▁비해	-2114
▁웹	-2115
▁고속	-2116
▁스티	-2117
▁통신	-2118
▁결합	-2119
▁잃	-2120
▁예선	-2121
▁사령	-2122
▁행사	-2123
om	-2124
▁길이	-2125
▁개봉	-2126
킨	-2127
▁혈	-2128
▁투표	-2129
▁려고	-2130
▁다면	-2131
▁불교	-2132
야마	-2133
▁동맹	-2134
▁인데	-2135
▁안정	-2136
나무	-2137
푸	-2138
▁아프리카	-2139
플	-2140
▁장치	-2141
얼	-2142
되	-2143
▁1997	-2144
읍	-2145
▁본선	-2146
▁책임	-2147
▁수준	-2148
젝트	-2149
ᆨ시	-2150
▁문서	-2151
▁제한	-2152
▁깊	-2153
묘	-2154
▁디자인	-2155
▁언론	-2156
▁광주	-2157
▁바다	-2158
텔	-2159
▁베트남	-2160
▁셰	-2161
▁요리	-2162
▁촉	-2163
▁사진	-2164
▁나타나	-2165
▁바르	-2166
▁방문	-2167
메달	-2168
st	-2169
▁준비	-2170
▁신문	-2171
꼬	-2172
▁불구	-2173
▁빛	-2174
▁통치	-2175
스턴	-2176
▁만나	-2177
▁The	-2178
▁1996	-2179
▁듯	-2180
▁갔	-2181
▁1995	-2182
▁구분	-2183
▁유전	-2184
▁아우	-2185
▁그림	-2186
▁제조	-2187
▁정확	-2188
▁캠	-2189
▁가정	-2190
▁폴란드	-2191
▁통과	-2192
▁정권	-2193
▁용어	-2194
▁amp	-2195
▁비디오	-2196
▁정리	-2197
▁브리	-2198
▁값	-2199
▁성적	-2200
▁32	-2201
었	-2202
허	-2203
▁올랐	-2204
▁부여	-2205
▁사라	-2206
▁경험	-2207
▁알려진	-2208
ᆯ릭	-2209
특별	-2210
▁70	-2211
▁대로	-2212
▁부인	-2213
▁드러	-2214
▁오늘날	-2215
▁평화	-2216
▁일제	-2217
▁스위	-2218
▁믿	-2219
▁왕조	-2220
▁아마	-2221
▁프로젝트	-2222
뢰	-2223
▁원인	-2224
▁은퇴	-2225
▁런던	-2226
스로	-2227
▁가토	-2228
ᅵᆨ	-2229
▁거두	-2230
ᅳᆯ레	-2231
▁나타내	-2232
▁아직	-2233
▁병원	-2234
▁추진	-2235
▁이곳	-2236
▁쓴	-2237
▁멸	-2238
▁종합	-2239
▁쉽	-2240
십	-2241
▁슈퍼	-2242
▁율	-2243
▁폐지	-2244
▁500	-2245
▁인터넷	-2246
웨이	-2247
▁신라	-2248
▁널리	-2249
▁방어	-2250
▁캐리	-2251
▁이듬	-2252
▁노르	-2253
▁려는	-2254
▁the	-2255
▁미사	-2256
갑	-2257
▁해석	-2258
▁면적	-2259
▁영역	-2260
▁어떠	-2261
▁주연	-2262
▁경쟁	-2263
am	-2264
멘	-2265
▁제주	-2266
▁훈련	-2267
▁가스	-2268
▁깨	-2269
▁총리	-2270
러스	-2271
▁유래	-2272
▁번호	-2273
▁보도	-2274
▁세워	-2275
▁만화	-2276
▁경영	-2277
▁80	-2278
▁익	-2279
▁오르	-2280
▁서부	-2281
ᅳ리아	-2282
▁도서	-2283
▁자주	-2284
▁파괴	-2285
▁기여	-2286
▁야마	-2287
▁188	-2288
▁경기장	-2289
▁스토	-2290
▁입장	-2291
▁그런	-2292
▁궤	-2293
▁제안	-2294
▁미술	-2295
▁노력	-2296
▁이듬해	-2297
▁회장	-2298
▁발달	-2299
▁주제	-2300
▁국회의원	-2301
▁UE	-2302
▁연맹	-2303
▁여겨	-2304
▁부정	-2305
▁생물	-2306
il	-2307
▁프레	-2308
▁동부	-2309
▁경계	-2310
▁+	-2311
▁나온	-2312
▁식민	-2313
▁1994	-2314
▁남성	-2315
▁완전히	-2316
▁행성	-2317
▁폰	-2318
▁가르	-2319
▁투수	-2320
▁UEFA	-2321
▁잇	-2322
▁1970	-2323
▁법률	-2324
▁소재	-2325
▁요청	-2326
▁플래	-2327
▁정상	-2328
ᅳ르	-2329
▁등록	-2330
큐	-2331
▁무기	-2332
▁늘	-2333
콩	-2334
ac	-2335
님	-2336
큼	-2337
▁삼성	-2338
▁오리	-2339
▁연구소	-2340
헨	-2341
▁금지	-2342
▁수용	-2343
▁엘리	-2344
▁아서	-2345
▁끼	-2346
▁발사	-2347
▁펼	-2348
▁라디오	-2349
▁클라	-2350
▁아시	-2351
▁박물	-2352
▁지진	-2353
▁움직	-2354
▁강원	-2355
▁전해	-2356
▁지난	-2357
▁표기	-2358
▁KBS	-2359
▁바뀌	-2360
▁무대	-2361
▁일어난	-2362
▁인식	-2363
▁바탕	-2364
▁츠	-2365
▁지대	-2366
▁조각	-2367
▁민주당	-2368
▁영토	-2369
▁뇌	-2370
머지	-2371
▁나머지	-2372
윤	-2373
▁접근	-2374
▁서식	-2375
▁정식	-2376
밍	-2377
▁반면	-2378
▁아일랜드	-2379
▁다리	-2380
▁외교	-2381
멸	-2382
▁스키	-2383
▁철학	-2384
레이	-2385
▁윌리	-2386
▁오른	-2387
▁업무	-2388
▁스스로	-2389
▁인사	-2390
▁벽	-2391
▁1992	-2392
▁결성	-2393
▁마찬	-2394
▁마찬가지	-2395
▁펜	-2396
▁든	-2397
요일	-2398
▁뉴스	-2399
인트	-2400
▁아카	-2401
▁거부	-2402
▁받아들	-2403
ro	-2404
헤	-2405
둔	-2406
▁45	-2407
▁은행	-2408
▁혀	-2409
▁짧	-2410
ᅡ질	-2411
▁상호	-2412
▁스웨	-2413
▁박사	-2414
▁당했	-2415
▁공작	-2416
▁다수	-2417
▁알렉	-2418
▁가톨릭	-2419
▁소리	-2420
▁기초	-2421
ed	-2422
▁수학	-2423
▁복귀	-2424
▁of	-2425
▁찾아	-2426
▁36	-2427
▁임시	-2428
▁프	-2429
▁더불	-2430
▁박물관	-2431
▁논란	-2432
▁유로	-2433
▁의식	-2434
▁장애	-2435
▁성격	-2436
킨다	-2437
▁주의	-2438
▁수마	-2439
▁득점	-2440
▁보수	-2441
라이	-2442
▁지도자	-2443
▁로써	-2444
▁장소	-2445
▁초대	-2446
▁집합	-2447
▁카드	-2448
▁린	-2449
임스	-2450
워드	-2451
▁검사	-2452
▁여행	-2453
▁둔	-2454
▁해결	-2455
▁그대로	-2456
듀	-2457
▁실제로	-2458
▁밝혀	-2459
▁여름	-2460
▁표시	-2461
킹	-2462
ig	-2463
혹	-2464
▁기구	-2465
▁화학	-2466
▁차원	-2467
융	-2468
▁브라질	-2469
▁1960	-2470
▁식물	-2471
나이	-2472
▁관측	-2473
▁묘사	-2474
▁그린	-2475
▁쓰이	-2476
▁1991	-2477
▁계열	-2478
▁꾸	-2479
▁총선	-2480
▁연극	-2481
탑	-2482
▁이외	-2483
▁히로	-2484
▁홀	-2485
▁강력	-2486
잔	-2487
▁패배	-2488
▁플라	-2489
▁스웨덴	-2490
▁하루	-2491
폭	-2492
뮤	-2493
베이	-2494
▁제시	-2495
▁단순	-2496
▁안전	-2497
▁개국	-2498
▁차트	-2499
▁습니다	-2500
▁빅	-2501
▁디지	-2502
▁폴	-2503
▁1993	-2504
▁브	-2505
▁활용	-2506
▁무역	-2507
▁회원	-2508
▁소프트웨어	-2509
▁흐	-2510
ᅳ레일리아	-2511
ᆨ시코	-2512
▁근처	-2513
부르크	-2514
▁오스트리아	-2515
▁기계	-2516
배우	-2517
▁권력	-2518
▁33	-2519
젠	-2520
▁형제	-2521
▁조성	-2522
▁분포	-2523
리스	-2524
▁반란	-2525
▁중간	-2526
홍	-2527
▁여객	-2528
특별시	-2529
▁중단	-2530
▁흡	-2531
▁스튜	-2532
▁발행	-2533
od	-2534
없	-2535
▁굴	-2536
▁서울특별시	-2537
▁먼저	-2538
▁세대	-2539
▁윈도	-2540
▁위험	-2541
▁시행	-2542
웅	-2543
▁지적	-2544
▁가져	-2545
▁에스	-2546
▁량	-2547
▁지하철	-2548
섭	-2549
▁일정	-2550
삼	-2551
▁아무	-2552
▁도착	-2553
사카	-2554
▁단어	-2555
▁사이트	-2556
▁카이	-2557
▁무려	-2558
▁캐릭터	-2559
▁만큼	-2560
▁협력	-2561
▁186	-2562
▁기자	-2563
주시	-2564
▁다만	-2565
곤	-2566
▁해안	-2567
ve	-2568
워크	-2569
▁렌	-2570
as	-2571
드로	-2572
▁",	-2573
▁혜	-2574
▁경상남도	-2575
▁순위	-2576
▁코드	-2577
지션	-2578
▁오브	-2579
스카	-2580
▁파견	-2581
▁죽음	-2582
덤	-2583
니스	-2584
▁오스트레일리아	-2585
▁수많	-2586
▁전시	-2587
▁태평	-2588
버트	-2589
▁연장	-2590
▁내각	-2591
▁생성	-2592
콘	-2593
▁죄	-2594
▁후기	-2595
▁통하	-2596
▁다카	-2597
억	-2598
소년	-2599
▁세상	-2600
▁번역	-2601
▁경상북도	-2602
▁본부	-2603
▁공장	-2604
▁떠나	-2605
▁투자	-2606
▁윌리엄	-2607
ᅪᆯ	-2608
▁끌	-2609
▁네트	-2610
▁지상	-2611
▁삶	-2612
▁근거	-2613
▁유형	-2614
▁감소	-2615
▁옹	-2616
▁겪	-2617
▁뮤직	-2618
▁관광	-2619
▁페이	-2620
알	-2621
▁보유	-2622
▁벌어	-2623
난다	-2624
리오	-2625
▁1988	-2626
▁귀족	-2627
▁보존	-2628
▁양식	-2629
▁파일	-2630
▁혐	-2631
▁동생	-2632
▁확대	-2633
▁제기	-2634
▁균	-2635
간다	-2636
▁칠	-2637
▁바꾸	-2638
싸	-2639
무원	-2640
▁세웠	-2641
▁187	-2642
▁상징	-2643
▁원소	-2644
ᆯ량	-2645
▁촌	-2646
▁아키	-2647
▁까	-2648
▁극장	-2649
▁유리	-2650
▁지식	-2651
▁?	-2652
▁춘	-2653
▁촬	-2654
모토	-2655
▁위기	-2656
▁달성	-2657
▁숨	-2658
▁멕시코	-2659
▁유대	-2660
켜	-2661
▁상업	-2662
▁근무	-2663
▁영상	-2664
▁디지털	-2665
▁학위	-2666
▁듀	-2667
▁성립	-2668
▁완성	-2669
▁전략	-2670
▁주어	-2671
링	-2672
▁테이	-2673
▁단위	-2674
▁대응	-2675
▁34	-2676
혈	-2677
▁발매되	-2678
▁수사	-2679
▁옆	-2680
▁h	-2681
맨	-2682
▁당선	-2683
▁계승	-2684
id	-2685
▁촬영	-2686
▁스리	-2687
▁님	-2688
ᆯ런	-2689
▁38	-2690
▁수비	-2691
▁특수	-2692
▁이집	-2693
▁코치	-2694
▁체포	-2695
▁종목	-2696
▁체결	-2697
▁이집트	-2698
회사	-2699
▁마사	-2700
▁식민지	-2701
몇	-2702
▁몇몇	-2703
가와	-2704
힌	-2705
▁나중	-2706
▁전달	-2707
▁세이	-2708
몽	-2709
▁그렇	-2710
▁알렉산	-2711
▁따른	-2712
가리	-2713
아시아	-2714
▁90	-2715
▁국왕	-2716
▁이렇게	-2717
모리	-2718
▁승격	-2719
▁권리	-2720
▁2021	-2721
▁보였	-2722
▁생명	-2723
▁톤	-2724
▁1989	-2725
▁개통	-2726
▁이란	-2727
▁아내	-2728
ec	-2729
▁시티	-2730
▁헨	-2731
▁도서관	-2732
▁다니	-2733
▁시내	-2734
▁동계	-2735
▁바ᄃ	-2736
▁시청	-2737
▁으므로	-2738
▁맹	-2739
▁이주	-2740
▁직후	-2741
▁주식	-2742
▁대륙	-2743
▁률	-2744
▁이ᄉ	-2745
▁48	-2746
us	-2747
▁문화재	-2748
▁다루	-2749
▁홍콩	-2750
▁측정	-2751
▁타이틀	-2752
▁채널	-2753
▁게이	-2754
▁소수	-2755
▁이른	-2756
▁정치인	-2757
▁관찰	-2758
and	-2759
▁미군	-2760
▁마이크	-2761
▁젊	-2762
▁판단	-2763
▁밑	-2764
▁부른다	-2765
칠	-2766
▁낳	-2767
ᆯ리스	-2768
▁설정	-2769
▁가리킨다	-2770
▁세르	-2771
▁미사일	-2772
▁이슬	-2773
▁라인	-2774
▁포르투	-2775
▁전환	-2776
NA	-2777
ᅢᆼ크	-2778
▁이라고	-2779
코드	-2780
▁싶	-2781
▁코미	-2782
▁특성	-2783
▁본관	-2784
▁신경	-2785
▁후쿠	-2786
▁납	-2787
▁종료	-2788
▁1950	-2789
▁',	-2790
▁|	-2791
▁빼	-2792
▁져	-2793
▁제정	-2794
▁취임	-2795
뷰	-2796
▁기획	-2797
▁은하	-2798
▁개정	-2799
▁자본	-2800
▁미래	-2801
▁얼마	-2802
▁e	-2803
▁지위	-2804
▁가리키	-2805
▁300	-2806
▁쌓	-2807
▁결승전	-2808
▁전라남도	-2809
▁MBC	-2810
▁시위	-2811
▁출생	-2812
▁전차	-2813
풀	-2814
ad	-2815
▁주인공	-2816
▁의견	-2817
▁즐	-2818
▁빨	-2819
디아	-2820
▁청년	-2821
▁헤이	-2822
▁사회주의	-2823
▁계산	-2824
▁녹음	-2825
▁찰	-2826
▁교체	-2827
▁천황	-2828
▁제임스	-2829
▁헝	-2830
▁범죄	-2831
▁음식	-2832
▁이래	-2833
▁플로	-2834
▁소개	-2835
▁만드	-2836
▁충돌	-2837
▁수정	-2838
교회	-2839
▁주목	-2840
▁바이러스	-2841
▁해외	-2842
▁예수	-2843
▁1945	-2844
▁장기	-2845
▁카운	-2846
ent	-2847
▁즉위	-2848
▁델	-2849
▁나누	-2850
▁비용	-2851
▁소장	-2852
▁본래	-2853
▁못한	-2854
▁네트워크	-2855
참	-2856
▁궤도	-2857
▁강한	-2858
▁건강	-2859
▁자격	-2860
▁남북	-2861
▁벗	-2862
▁합류	-2863
▁낸	-2864
▁옮겨	-2865
▁느ᄁ	-2866
리학	-2867
▁체육	-2868
▁공부	-2869
슬리	-2870
▁개선	-2871
▁떨어진	-2872
▁공급	-2873
티아	-2874
▁배경	-2875
전히	-2876
▁부모	-2877
올	-2878
▁인근	-2879
▁보냈	-2880
도로	-2881
50	-2882
▁베네	-2883
▁지내	-2884
▁에드	-2885
▁제거	-2886
▁계기	-2887
옹	-2888
▁성우	-2889
▁공군	-2890
▁작성	-2891
▁명예	-2892
▁원정	-2893
▁왼	-2894
ᆯ레스	-2895
▁오스	-2896
▁감염	-2897
▁각종	-2898
▁가입	-2899
▁읽	-2900
▁국경	-2901
▁포지션	-2902
▁명단	-2903
▁거대	-2904
▁전사	-2905
▁홈런	-2906
▁입학	-2907
▁천문	-2908
▁군인	-2909
븐	-2910
▁으면서	-2911
베르	-2912
▁자원	-2913
ᅦ이트	-2914
▁신학	-2915
▁오후	-2916
▁피아	-2917
▁가격	-2918
▁쇠	-2919
▁집중	-2920
루스	-2921
▁썼	-2922
니어	-2923
▁신호	-2924
▁듣	-2925
릴	-2926
▁물론	-2927
▁기후	-2928
▁울산	-2929
ᅯᆻ	-2930
스키	-2931
▁질량	-2932
▁랑	-2933
▁객	-2934
▁최소	-2935
▁이슬람	-2936
▁준다	-2937
▁St	-2938
▁터미	-2939
▁이루어져	-2940
▁농업	-2941
▁저항	-2942
▁병력	-2943
▁만약	-2944
▁소송	-2945
▁인수	-2946
▁통제	-2947
▁실행	-2948
▁가까운	-2949
▁측면	-2950
ot	-2951
▁x	-2952
펜	-2953
▁블랙	-2954
▁강조	-2955
ᅳ러운	-2956
▁지부	-2957
▁터키	-2958
▁콩	-2959
▁강원도	-2960
핵	-2961
▁학문	-2962
▁마치	-2963
▁잎	-2964
▁태평양	-2965
▁알리	-2966
픈	-2967
▁겨울	-2968
▁정착	-2969
ᅮᆫ다	-2970
겐	-2971
▁마리아	-2972
▁병사	-2973
▁약간	-2974
▁건너	-2975
un	-2976
▁증명	-2977
▁미디어	-2978
▁꼬리	-2979
▁in	-2980
붙	-2981
ow	-2982
철도	-2983
▁변호	-2984
▁슬	-2985
▁터미널	-2986
▁무장	-2987
▁외부	-2988
▁37	-2989
▁캘리	-2990
답	-2991
▁기회	-2992
▁텍	-2993
▁너무	-2994
▁편집	-2995
▁국방	-2996
쇼	-2997
▁제목	-2998
엽	-2999
동안	-3000
▁광고	-3001
▁둘러	-3002
▁밀도	-3003
▁짓	-3004
못	-3005
톤	-3006
▁몽골	-3007
아가	-3008
▁환자	-3009
▁지점	-3010
▁해방	-3011
▁노동자	-3012
▁비트	-3013
▁니코	-3014
▁표면	-3015
▁컬	-3016
▁가졌	-3017
컷	-3018
오카	-3019
▁윈도우	-3020
▁유도	-3021
▁냉	-3022
▁무렵	-3023
▁1987	-3024
쉬	-3025
▁라운드	-3026
▁블루	-3027
▁나왔	-3028
▁이번	-3029
ᅳ린	-3030
▁성과	-3031
▁도중	-3032
▁인한	-3033
▁금융	-3034
ᅳ럽	-3035
▁그해	-3036
▁충청남도	-3037
▁모리	-3038
▁바람	-3039
▁영화배우	-3040
▁겐	-3041
▁합병	-3042
▁허용	-3043
▁학년	-3044
▁인디	-3045
바이	-3046
▁마련	-3047
▁카르	-3048
소리	-3049
▁스테	-3050
▁w	-3051
▁재직	-3052
▁오사카	-3053
▁전반	-3054
라도	-3055
▁흰	-3056
▁숲	-3057
▁혐의	-3058
▁충분	-3059
▁선수단	-3060
ᆼ괴	-3061
▁갖추	-3062
냥	-3063
▁전력	-3064
▁등급	-3065
▁포르투갈	-3066
▁보고	-3067
▁여전히	-3068
▁민간	-3069
▁꺼	-3070
▁킹	-3071
▁령	-3072
▁양성	-3073
마크	-3074
▁대수	-3075
▁양자	-3076
▁41	-3077
▁붕괴	-3078
▁1986	-3079
▁전역	-3080
ur	-3081
▁뒷	-3082
▁1984	-3083
라인	-3084
▁공주	-3085
▁재산	-3086
▁고전	-3087
▁그려	-3088
▁스튜디오	-3089
▁시킨	-3090
▁스파	-3091
▁캘리포	-3092
▁에피	-3093
촉	-3094
▁51	-3095
▁헝가리	-3096
▁이하	-3097
▁털	-3098
▁엔터	-3099
오스	-3100
▁공공	-3101
▁봄	-3102
셜	-3103
▁불린다	-3104
▁멀	-3105
▁짐	-3106
켰	-3107
▁재정	-3108
브리	-3109
▁자라	-3110
▁계급	-3111
▁동료	-3112
▁현실	-3113
▁군주	-3114
닉	-3115
▁위원장	-3116
▁승인	-3117
▁온도	-3118
▁튀	-3119
▁상하	-3120
▁전선	-3121
▁인하	-3122
▁캘리포니아	-3123
▁구축	-3124
▁강제	-3125
▁유엔	-3126
▁전하	-3127
▁적극	-3128
▁경력	-3129
▁위협	-3130
▁위성	-3131
▁핀란드	-3132
ᆯ름	-3133
▁대대	-3134
▁고구	-3135
▁클래	-3136
▁임무	-3137
▁조치	-3138
▁다섯	-3139
▁업체	-3140
▁대학원	-3141
▁범위	-3142
▁수입	-3143
▁근대	-3144
짜	-3145
▁논문	-3146
▁불러	-3147
▁출발	-3148
▁항상	-3149
▁성인	-3150
▁이미지	-3151
▁필리핀	-3152
▁드래	-3153
▁토론	-3154
▁꿈	-3155
▁후지	-3156
▁교사	-3157
▁미치	-3158
▁아시안	-3159
▁공산당	-3160
ch	-3161
▁잡지	-3162
▁채택	-3163
▁거래	-3164
어들	-3165
▁남아	-3166
▁원칙	-3167
마스	-3168
▁수단	-3169
▁강의	-3170
▁점차	-3171
▁답	-3172
뇌	-3173
▁전개	-3174
▁섭	-3175
▁39	-3176
▁잭	-3177
▁첨	-3178
ᆯ루	-3179
▁확보	-3180
▁스피	-3181
▁남편	-3182
주교	-3183
고리	-3184
▁아주	-3185
▁수립	-3186
▁회복	-3187
▁개편	-3188
▁400	-3189
▁띠	-3190
▁증거	-3191
▁일으키	-3192
▁매년	-3193
짓	-3194
▁기지	-3195
▁공업	-3196
▁카메	-3197
▁선생	-3198
▁그래서	-3199
낸다	-3200
▁얼굴	-3201
▁일원	-3202
섬	-3203
▁이스라	-3204
▁장비	-3205
▁만족	-3206
▁1985	-3207
▁스위스	-3208
▁나카	-3209
▁사례	-3210
▁64	-3211
▁붉	-3212
▁폭발	-3213
▁시인	-3214
▁됨	-3215
▁간주	-3216
▁기대	-3217
▁모스크	-3218
▁의료	-3219
▁경주	-3220
데미	-3221
ay	-3222
▁종종	-3223
티나	-3224
▁항성	-3225
ir	-3226
▁대기	-3227
▁이스라엘	-3228
▁합의	-3229
▁이승	-3230
▁II	-3231
트라	-3232
▁욕	-3233
▁냈	-3234
▁대형	-3235
▁종이	-3236
ut	-3237
▁규칙	-3238
▁아름	-3239
▁군단	-3240
▁끊	-3241
▁장면	-3242
셀	-3243
다이	-3244
▁비밀	-3245
▁분자	-3246
▁토지	-3247
▁수원	-3248
▁열렸	-3249
▁부근	-3250
um	-3251
▁맛	-3252
백질	-3253
▁불가	-3254
▁롭	-3255
▁탑재	-3256
논	-3257
▁레코드	-3258
▁해체	-3259
▁나포	-3260
▁불렀	-3261
고기	-3262
▁br	-3263
▁아랍	-3264
▁강점	-3265
▁진화	-3266
▁아카데미	-3267
▁낭	-3268
▁43	-3269
▁귀국	-3270
▁지키	-3271
키아	-3272
▁뚜	-3273
▁조합	-3274
▁라면	-3275
▁그곳	-3276
▁라며	-3277
우드	-3278
▁대장	-3279
▁박쥐	-3280
im	-3281
피아	-3282
▁가로	-3283
ᅳ려	-3284
▁이제	-3285
▁경향	-3286
▁평양	-3287
▁아메리카	-3288
랜	-3289
▁확실	-3290
▁서양	-3291
▁저지	-3292
▁신화	-3293
▁고양	-3294
▁기억	-3295
▁에게서	-3296
▁태어난	-3297
▁일어났	-3298
▁청소년	-3299
▁세우	-3300
▁해도	-3301
▁장식	-3302
▁투어	-3303
▁카운티	-3304
▁아나	-3305
▁42	-3306
▁버리	-3307
레스	-3308
▁샌	-3309
핑	-3310
▁향상	-3311
▁남동	-3312
▁떨어져	-3313
▁바라	-3314
빌	-3315
▁의학	-3316
▁고구려	-3317
▁스카	-3318
▁청나라	-3319
▁냐	-3320
▁메이저	-3321
▁무어	-3322
▁침공	-3323
▁융	-3324
▁좀	-3325
▁캄	-3326
▁트로	-3327
▁사후	-3328
▁트레이	-3329
▁보장	-3330
▁켄	-3331
▁세운	-3332
ver	-3333
요시	-3334
▁콜	-3335
딘	-3336
▁아야	-3337
▁폼	-3338
▁가사	-3339
▁모아	-3340
메이	-3341
보드	-3342
픽	-3343
▁1982	-3344
▁열리	-3345
▁마쓰	-3346
▁신설	-3347
▁뽀	-3348
▁갖춘	-3349
▁55	-3350
▁철도역	-3351
▁나뉘	-3352
▁단백질	-3353
▁보병	-3354
▁소년	-3355
▁나치	-3356
▁빠르	-3357
▁라틴	-3358
▁잠시	-3359
에르	-3360
▁편입	-3361
▁중화민국	-3362
빙	-3363
▁만주	-3364
▁숭	-3365
▁고문	-3366
▁이끄	-3367
네시아	-3368
▁독자	-3369
▁선고	-3370
▁자금	-3371
▁단지	-3372
▁불과	-3373
검	-3374
앤	-3375
▁광역시	-3376
▁우선	-3377
컨	-3378
▁살해	-3379
늄	-3380
▁우수	-3381
▁알려졌	-3382
▁i	-3383
네스	-3384
▁덴마크	-3385
▁쓰인다	-3386
▁1983	-3387
▁함대	-3388
▁세종	-3389
▁확정	-3390
틀랜드	-3391
▁재단	-3392
▁모르	-3393
▁의장	-3394
▁삭	-3395
▁데이비	-3396
▁44	-3397
▁온라인	-3398
▁드리	-3399
ᆯ링	-3400
▁창설	-3401
▁비율	-3402
▁복잡	-3403
▁감정	-3404
▁신앙	-3405
▁미야	-3406
▁차별	-3407
▁왕위	-3408
▁의해서	-3409
FC	-3410
▁LG	-3411
▁고향	-3412
▁전설	-3413
▁지시	-3414
▁공유	-3415
▁법인	-3416
▁넘어	-3417
셔널	-3418
▁성당	-3419
하라	-3420
▁선거구	-3421
▁뛰어난	-3422
▁이루어진	-3423
▁47	-3424
▁전화	-3425
▁육상	-3426
▁예상	-3427
▁반도	-3428
섰	-3429
▁구체	-3430
▁삼국	-3431
▁솔로	-3432
▁아미	-3433
▁동의	-3434
숭	-3435
▁헬	-3436
▁역대	-3437
▁브랜드	-3438
▁아파	-3439
▁콜로	-3440
▁태풍	-3441
▁나와	-3442
누스	-3443
▁하늘	-3444
▁이루어지	-3445
▁저장	-3446
▁보급	-3447
▁텐	-3448
싱턴	-3449
셰	-3450
운동	-3451
▁노예	-3452
ᅳ마	-3453
▁고정	-3454
▁후손	-3455
▁참석	-3456
▁오픈	-3457
▁75	-3458
▁검찰	-3459
의회	-3460
▁스타일	-3461
▁아리	-3462
▁시킬	-3463
▁강점기	-3464
▁판결	-3465
▁유학	-3466
▁했었	-3467
▁달라	-3468
늬	-3469
▁뿌	-3470
▁태어나	-3471
▁Z	-3472
▁184	-3473
▁핵심	-3474
휴	-3475
▁올렸	-3476
▁산맥	-3477
▁통한	-3478
문화	-3479
▁댄	-3480
▁보안	-3481
▁대립	-3482
▁어린이	-3483
▁마드리	-3484
원군	-3485
▁180	-3486
▁수출	-3487
▁브레	-3488
▁드ᄆ	-3489
▁연고	-3490
▁힐	-3491
▁앞두	-3492
▁집행	-3493
▁1972	-3494
▁숫	-3495
▁자세	-3496
▁협상	-3497
▁베이스	-3498
▁본격	-3499
ᅦ임	-3500
각형	-3501
▁암살	-3502
▁옷	-3503
▁초반	-3504
▁로버트	-3505
▁마드리드	-3506
▁회전	-3507
▁베ᄅ	-3508
▁대비	-3509
▁중반	-3510
▁사전	-3511
▁대항	-3512
▁탄생	-3513
▁플랫	-3514
▁법칙	-3515
곱	-3516
▁순서	-3517
▁이성	-3518
▁으	-3519
▁사우	-3520
▁쪼	-3521
▁주교	-3522
없이	-3523
소드	-3524
▁아르헨	-3525
▁브루	-3526
▁전용	-3527
▁공학	-3528
▁시킨다	-3529
반도	-3530
▁말기	-3531
▁권한	-3532
돈	-3533
▁46	-3534
▁유적	-3535
▁공기	-3536
CA	-3537
▁1920	-3538
▁단일	-3539
씬	-3540
▁중심지	-3541
▁수여	-3542
▁요한	-3543
▁글로	-3544
▁슬로	-3545
ᅳ리트	-3546
▁아르헨티나	-3547
▁1979	-3548
▁그라	-3549
▁전라북도	-3550
▁의무	-3551
▁프란	-3552
해졌	-3553
▁별도	-3554
▁흔히	-3555
▁조금	-3556
▁시각	-3557
▁솔	-3558
▁효소	-3559
▁칼리	-3560
▁직원	-3561
오프	-3562
▁공포	-3563
▁틀	-3564
▁묻	-3565
▁마크	-3566
▁우ᄏ	-3567
▁보조	-3568
▁코로	-3569
▁운전	-3570
▁덮	-3571
▁인상	-3572
윈	-3573
▁CD	-3574
▁전혀	-3575
▁이익	-3576
▁워싱턴	-3577
▁파크	-3578
▁원주	-3579
▁kg	-3580
▁사항	-3581
ra	-3582
▁롯	-3583
▁협정	-3584
▁관료	-3585
▁비난	-3586
▁통계	-3587
▁방면	-3588
▁상품	-3589
▁전후	-3590
▁잘못	-3591
▁In	-3592
퍼드	-3593
▁헨리	-3594
▁변호사	-3595
▁금메달	-3596
▁1930	-3597
정부	-3598
▁1981	-3599
▁1973	-3600
▁물러	-3601
▁인권	-3602
사키	-3603
▁작곡가	-3604
▁클	-3605
▁놀	-3606
▁창조	-3607
퍼스	-3608
▁브로	-3609
꽃	-3610
10	-3611
▁아침	-3612
▁레드	-3613
▁저서	-3614
▁쏘	-3615
▁현장	-3616
▁그레	-3617
▁호텔	-3618
▁150	-3619
▁셋	-3620
▁오토	-3621
플ᄅ	-3622
▁생기	-3623
▁항복	-3624
▁무리	-3625
▁v	-3626
▁메리	-3627
▁소식	-3628
카와	-3629
▁장착	-3630
▁인류	-3631
▁투입	-3632
찍	-3633
▁절대	-3634
무라	-3635
os	-3636
▁정복	-3637
줄	-3638
▁중부	-3639
칼	-3640
▁중세	-3641
▁산하	-3642
▁오른쪽	-3643
▁교토	-3644
▁공무원	-3645
▁오랜	-3646
▁심각	-3647
▁건국	-3648
괄	-3649
▁훨	-3650
▁파라	-3651
▁강하	-3652
▁요새	-3653
▁서기	-3654
▁에선	-3655
▁돌아가	-3656
▁교류	-3657
▁건조	-3658
▁김정	-3659
▁플레이어	-3660
▁공화	-3661
▁마이클	-3662
▁택	-3663
앗	-3664
▁왼쪽	-3665
▁유전자	-3666
▁둥	-3667
▁한때	-3668
▁창립	-3669
▁본인	-3670
▁훨씬	-3671
▁금속	-3672
▁원작	-3673
▁앞서	-3674
▁1974	-3675
30	-3676
BO	-3677
▁제이	-3678
▁인정받	-3679
▁성경	-3680
em	-3681
▁태국	-3682
▁공산주의	-3683
▁실ᄅ	-3684
▁셀	-3685
▁1940	-3686
▁베이징	-3687
▁갈등	-3688
▁크리스	-3689
▁방출	-3690
▁주위	-3691
▁추측	-3692
▁185	-3693
▁멘	-3694
ter	-3695
▁성질	-3696
▁노르웨이	-3697
▁논의	-3698
▁복합	-3699
녕	-3700
▁제자	-3701
▁프라	-3702
▁고유	-3703
▁북서	-3704
▁에피소드	-3705
▁랭	-3706
▁형사	-3707
▁군수	-3708
▁흐ᄅ	-3709
▁어떻게	-3710
▁연합군	-3711
▁탁	-3712
▁읍	-3713
▁미니	-3714
▁지니	-3715
▁라이브	-3716
▁전철	-3717
렴	-3718
▁출마	-3719
▁운용	-3720
▁로드	-3721
▁모스크바	-3722
드라	-3723
▁노부	-3724
▁오히	-3725
▁엠	-3726
▁예산	-3727
▁찍	-3728
▁노스	-3729
▁라도	-3730
이언	-3731
▁멸망	-3732
▁해양	-3733
▁플레이오프	-3734
▁SBS	-3735
일보	-3736
▁에어	-3737
▁폴리	-3738
▁합성	-3739
▁사령관	-3740
▁효율	-3741
▁각본	-3742
▁스코틀랜드	-3743
테르	-3744
▁연산	-3745
▁숫자	-3746
▁사태	-3747
▁구별	-3748
▁정비	-3749
▁반복	-3750
▁주기	-3751
▁인가	-3752
롱	-3753
▁집안	-3754
▁투쟁	-3755
▁1948	-3756
▁입자	-3757
듀서	-3758
▁프로듀서	-3759
▁논쟁	-3760
▁1968	-3761
▁메시	-3762
▁뽑	-3763
플리	-3764
▁진다	-3765
▁이어지	-3766
▁인조	-3767
▁54	-3768
캐	-3769
▁1976	-3770
팔	-3771
▁불렸	-3772
걸	-3773
터리	-3774
▁인종	-3775
▁인공	-3776
▁사법	-3777
▁제출	-3778
▁흡수	-3779
▁출장	-3780
ᆷ프	-3781
▁내렸	-3782
▁오전	-3783
▁붙여	-3784
▁베를린	-3785
도르	-3786
▁거절	-3787
▁우스	-3788
젤	-3789
▁아스	-3790
▁출입	-3791
▁경성	-3792
▁포위	-3793
▁연관	-3794
▁원리	-3795
▁목사	-3796
▁중대	-3797
▁북동	-3798
ᅳ레스	-3799
깨	-3800
▁국도	-3801
▁수송	-3802
▁1975	-3803
어스	-3804
▁건립	-3805
▁다ᄅ	-3806
▁소녀	-3807
▁음력	-3808
▁아름다	-3809
▁생겨	-3810
▁신체	-3811
▁시점	-3812
▁하드	-3813
▁전공	-3814
▁주전	-3815
▁활발	-3816
op	-3817
▁마침	-3818
▁이민	-3819
▁웨스트	-3820
▁취급	-3821
▁사령부	-3822
▁개시	-3823
▁클리	-3824
▁트랙	-3825
▁머물	-3826
▁셔	-3827
▁명성	-3828
첩	-3829
웃	-3830
▁영화제	-3831
나이티	-3832
▁이기	-3833
▁인터뷰	-3834
다리	-3835
ag	-3836
▁들어갔	-3837
데스	-3838
▁1978	-3839
▁유나이티	-3840
▁포기	-3841
▁56	-3842
▁에리	-3843
▁1971	-3844
▁축제	-3845
▁취득	-3846
튜	-3847
▁오히려	-3848
▁잉	-3849
▁고용	-3850
▁활성	-3851
▁플	-3852
▁국장	-3853
▁주택	-3854
▁소스	-3855
▁분쟁	-3856
▁신성	-3857
▁해상	-3858
▁총독	-3859
▁내리	-3860
쿠라	-3861
▁통해서	-3862
▁고리	-3863
▁1963	-3864
▁속한다	-3865
▁한자	-3866
▁미드	-3867
놓	-3868
▁벼	-3869
▁장악	-3870
▁안타	-3871
▁동원	-3872
산시	-3873
리스트	-3874
▁52	-3875
▁일치	-3876
▁여객철도	-3877
▁코미디	-3878
▁농민	-3879
▁포도	-3880
▁어렵	-3881
▁북아	-3882
▁죽이	-3883
▁하위	-3884
▁교차	-3885
▁견해	-3886
▁진보	-3887
▁비록	-3888
서트	-3889
▁유물	-3890
▁전부	-3891
▁65	-3892
▁히데	-3893
▁빙	-3894
키스탄	-3895
▁49	-3896
▁료	-3897
▁학습	-3898
▁밖에	-3899
▁랜	-3900
▁미나	-3901
▁후원	-3902
이어	-3903
▁구속	-3904
▁지낸	-3905
▁닌	-3906
페이	-3907
▁직전	-3908
노스	-3909
▁부활	-3910
▁타이완	-3911
▁한국어	-3912
▁연료	-3913
▁주관	-3914
ce	-3915
▁정체	-3916
▁디스	-3917
▁관직	-3918
▁천체	-3919
▁불법	-3920
에트	-3921
▁Q	-3922
▁179	-3923
▁아테	-3924
기에	-3925
▁폭력	-3926
▁시리아	-3927
▁본사	-3928
▁1969	-3929
▁다운	-3930
젤레스	-3931
▁00	-3932
▁해졌	-3933
▁수술	-3934
ᆯ래	-3935
▁코스	-3936
▁항공기	-3937
▁고종	-3938
▁명명	-3939
▁관점	-3940
▁편지	-3941
▁혼란	-3942
▁도달	-3943
▁윌	-3944
▁스미	-3945
▁아사	-3946
▁더라도	-3947
▁갈라	-3948
▁철수	-3949
▁대리	-3950
▁수집	-3951
▁직업	-3952
▁약속	-3953
▁데이비드	-3954
▁제어	-3955
▁장교	-3956
▁일으켰	-3957
▁떠났	-3958
▁넷	-3959
▁상당히	-3960
▁테러	-3961
▁임금	-3962
공항	-3963
OS	-3964
다가	-3965
▁불상	-3966
▁논리	-3967
▁팝	-3968
▁백제	-3969
▁보험	-3970
▁성능	-3971
▁느끼	-3972
▁반영	-3973
▁여부	-3974
▁프로세	-3975
▁1946	-3976
▁주간	-3977
자기	-3978
▁영업	-3979
▁선교	-3980
▁연재	-3981
머스	-3982
▁소방	-3983
빠	-3984
▁학술	-3985
▁주식회사	-3986
▁부임	-3987
▁보관	-3988
▁도구	-3989
▁취하	-3990
▁백작	-3991
▁53	-3992
▁니시	-3993
▁일대	-3994
▁접하	-3995
▁화물	-3996
▁프리미	-3997
▁그리스도	-3998
프ᄅ	-3999
▁의존	-4000
농	-4001
▁예비	-4002
슬라	-4003
▁해산	-4004
▁하나님	-4005
▁좁	-4006
▁코로나	-4007
미터	-4008
▁충청북도	-4009
oc	-4010
▁큐	-4011
▁정지	-4012
▁웨이	-4013
▁허가	-4014
▁방사	-4015
▁전파	-4016
▁콘서트	-4017
▁간단	-4018
▁1964	-4019
▁하우스	-4020
▁스마	-4021
▁헤르	-4022
▁교환	-4023
▁심리	-4024
▁정원	-4025
준다	-4026
▁대략	-4027
▁개체	-4028
▁제일	-4029
▁상륙	-4030
▁대화	-4031
▁십자	-4032
▁화성	-4033
▁재료	-4034
▁뜨	-4035
▁박정	-4036
▁자살	-4037
▁무엇	-4038
▁락	-4039
▁미터	-4040
▁서버	-4041
▁보스	-4042
▁US	-4043
몰	-4044
▁포로	-4045
▁학부	-4046
▁베스트	-4047
▁보건	-4048
▁전문가	-4049
▁and	-4050
▁지붕	-4051
▁벨기에	-4052
▁빠른	-4053
ri	-4054
▁국제공항	-4055
▁다며	-4056
▁진입	-4057
▁모여	-4058
▁살인	-4059
▁항구	-4060
▁영향력	-4061
▁시호	-4062
▁핑	-4063
▁로운	-4064
▁공통	-4065
병대	-4066
▁반발	-4067
▁인도네시아	-4068
▁58	-4069
시스	-4070
▁에도	-4071
▁학원	-4072
▁신분	-4073
▁쳐	-4074
▁꼭	-4075
▁승진	-4076
▁렀	-4077
▁가을	-4078
▁김영	-4079
하마	-4080
▁학회	-4081
▁알아	-4082
▁고도	-4083
▁피아노	-4084
▁식품	-4085
▁1000	-4086
▁부장	-4087
▁외국인	-4088
▁거기	-4089
▁상승	-4090
▁계통	-4091
▁변환	-4092
▁PC	-4093
▁사장	-4094
▁응용	-4095
▁질병	-4096
▁1977	-4097
▁진압	-4098
▁창단	-4099
▁소비에트	-4100
▁99	-4101
▁요코	-4102
▁사운드	-4103
럴	-4104
▁채용	-4105
▁민법	-4106
▁루이스	-4107
▁참전	-4108
▁횡	-4109
▁트랜	-4110
▁영입	-4111
저우	-4112
▁임의	-4113
▁주년	-4114
▁마케	-4115
▁구성원	-4116
▁당한	-4117
▁임대	-4118
▁작사	-4119
▁메모리	-4120
천군	-4121
토리	-4122
▁기도	-4123
아버지	-4124
▁장수	-4125
▁공동체	-4126
▁트라	-4127
▁통상	-4128
▁해리	-4129
▁그런데	-4130
▁복무	-4131
▁도망	-4132
▁오페	-4133
▁호수	-4134
문화재	-4135
▁합격	-4136
▁화면	-4137
페이스	-4138
▁로스앤	-4139
▁로스앤젤레스	-4140
▁망명	-4141
▁리더	-4142
▁현역	-4143
▁문헌	-4144
포르	-4145
성군	-4146
igh	-4147
▁친일	-4148
▁퀴	-4149
▁말레이	-4150
▁롯데	-4151
▁라이트	-4152
▁방송국	-4153
▁문장	-4154
▁1949	-4155
▁수영	-4156
▁지리	-4157
▁판서	-4158
정식	-4159
▁모드	-4160
▁쫓	-4161
▁캠퍼스	-4162
▁부부	-4163
▁탄소	-4164
▁흐르	-4165
춰	-4166
▁탈출	-4167
▁감사	-4168
▁선조	-4169
▁동남	-4170
▁SK	-4171
▁학과	-4172
▁한반도	-4173
▁의도	-4174
▁88	-4175
▁이치	-4176
▁조작	-4177
▁블	-4178
▁젠	-4179
ation	-4180
▁수소	-4181
▁1962	-4182
▁태어났으며	-4183
▁FA	-4184
▁변형	-4185
▁탈락	-4186
▁띄	-4187
▁저작	-4188
▁전동	-4189
죽	-4190
▁코파	-4191
▁엑스	-4192
▁시카	-4193
▁스러운	-4194
▁레오	-4195
▁스토리	-4196
세이	-4197
▁멜	-4198
▁신청	-4199
▁고지	-4200
▁62	-4201
▁톰	-4202
▁배출	-4203
▁발언	-4204
▁상원	-4205
▁연출	-4206
▁1967	-4207
▁기호	-4208
▁r	-4209
▁자녀	-4210
카이도	-4211
▁이중	-4212
▁로켓	-4213
▁위반	-4214
▁서원	-4215
▁주둔	-4216
▁세인트	-4217
▁파트	-4218
▁절차	-4219
▁이뤄	-4220
▁화재	-4221
▁반드	-4222
▁정기	-4223
▁..	-4224
▁흉	-4225
천시	-4226
▁증상	-4227
바라	-4228
▁신인	-4229
▁남서	-4230
▁조절	-4231
▁출간	-4232
▁57	-4233
▁빠져	-4234
▁보낸	-4235
▁예측	-4236
▁막부	-4237
▁처형	-4238
▁광장	-4239
▁청구	-4240
▁수리	-4241
크로	-4242
▁이시	-4243
▁실수	-4244
▁동작	-4245
▁블라	-4246
▁분열	-4247
▁국무	-4248
▁누구	-4249
납	-4250
▁You	-4251
▁어두	-4252
▁루트	-4253
▁황금	-4254
타르	-4255
▁왕자	-4256
▁Ch	-4257
▁리스	-4258
▁선전	-4259
▁연안	-4260
▁이승만	-4261
▁기하	-4262
▁달하	-4263
에이	-4264
▁앵	-4265
▁요인	-4266
▁롱	-4267
▁위상	-4268
▁카메라	-4269
▁장르	-4270
▁농구	-4271
▁메인	-4272
▁동성	-4273
바르	-4274
▁찌	-4275
▁샘	-4276
▁취소	-4277
▁개조	-4278
▁방지	-4279
▁기법	-4280
▁콘스탄	-4281
▁남겼	-4282
▁생존	-4283
▁오스만	-4284
▁카라	-4285
▁전주	-4286
▁기체	-4287
▁등지	-4288
▁서구	-4289
▁오이	-4290
▁스럽	-4291
▁천연	-4292
▁현지	-4293
▁임진	-4294
▁흑인	-4295
▁히트	-4296
▁선보	-4297
수록	-4298
▁무덤	-4299
▁여단	-4300
▁진주	-4301
▁터널	-4302
▁좌우	-4303
▁코르	-4304
비치	-4305
ᅱᆫ다	-4306
▁181	-4307
▁뿌리	-4308
▁치렀	-4309
▁특이	-4310
이치	-4311
▁콤	-4312
▁보컬	-4313
▁일본군	-4314
▁늦	-4315
▁포트	-4316
방송	-4317
▁바둑	-4318
▁반드시	-4319
▁희망	-4320
▁지급	-4321
▁톱	-4322
▁동아	-4323
▁공정	-4324
▁글자	-4325
nd	-4326
▁66	-4327
▁나타났	-4328
▁방정식	-4329
▁나갔	-4330
타인	-4331
▁도전	-4332
▁둘째	-4333
▁이룬다	-4334
▁미국인	-4335
▁1966	-4336
▁튜	-4337
▁치러	-4338
▁전면	-4339
▁KBO	-4340
▁는가	-4341
▁이온	-4342
퀴	-4343
륜	-4344
ᆸ스	-4345
프로	-4346
▁리처	-4347
▁독특	-4348
▁압력	-4349
▁경로	-4350
▁나들	-4351
▁일식	-4352
▁녹색	-4353
▁전형	-4354
▁1965	-4355
▁매일	-4356
▁68	-4357
듭	-4358
▁싸움	-4359
랄	-4360
▁독립운동	-4361
ᆯ론	-4362
▁물체	-4363
티브	-4364
▁법정	-4365
▁픽	-4366
더스	-4367
▁분명	-4368
▁에르	-4369
▁맞이	-4370
▁살아	-4371
▁제대로	-4372
▁분해	-4373
▁부사	-4374
▁%,	-4375
▁먹이	-4376
▁183	-4377
▁여야	-4378
▁클레	-4379
콜	-4380
▁우려	-4381
▁파악	-4382
▁둘러싸	-4383
▁유기	-4384
ST	-4385
▁체코	-4386
▁끝나	-4387
사스	-4388
▁람	-4389
▁밝히	-4390
▁입니다	-4391
▁밥	-4392
▁61	-4393
▁꺾	-4394
▁퀸	-4395
▁간행	-4396
▁신뢰	-4397
▁타임	-4398
▁화산	-4399
▁목소리	-4400
▁된다는	-4401
▁삽	-4402
▁덧	-4403
틀러	-4404
▁개신	-4405
▁홋	-4406
▁나들목	-4407
로스	-4408
▁바이오	-4409
▁나타난다	-4410
▁찰스	-4411
▁묶	-4412
치아	-4413
▁손자	-4414
▁엄청	-4415
홀	-4416
▁범주	-4417
▁사립	-4418
질랜드	-4419
▁로보	-4420
▁노벨	-4421
▁일찍	-4422
▁내전	-4423
▁완료	-4424
▁갈색	-4425
▁분할	-4426
▁동기	-4427
▁유행	-4428
▁클로	-4429
▁뉴질랜드	-4430
베스	-4431
▁타격	-4432
ER	-4433
▁웅	-4434
▁묵	-4435
▁별명	-4436
ice	-4437
▁처벌	-4438
▁실질	-4439
▁1961	-4440
륭	-4441
▁뤼	-4442
art	-4443
▁풍부	-4444
▁대개	-4445
▁올려	-4446
▁캔	-4447
▁순환	-4448
렉	-4449
▁성향	-4450
▁김일	-4451
찌	-4452
▁800	-4453
▁구하	-4454
▁싸우	-4455
▁리가	-4456
▁방해	-4457
▁아동	-4458
▁복지	-4459
▁평등	-4460
▁끝난	-4461
▁IS	-4462
▁어도	-4463
▁흘러	-4464
▁추구	-4465
▁벡터	-4466
▁아파트	-4467
▁600	-4468
▁시조	-4469
▁분기	-4470
▁가상	-4471
ON	-4472
▁마시	-4473
▁봐	-4474
▁완공	-4475
▁시드	-4476
▁비평	-4477
▁모형	-4478
▁움직임	-4479
▁86	-4480
▁아티	-4481
▁가시	-4482
▁창원	-4483
▁기둥	-4484
▁파르	-4485
▁최다	-4486
▁네이	-4487
▁구현	-4488
▁집권	-4489
▁중기	-4490
▁사냥	-4491
끔	-4492
▁희생	-4493
est	-4494
▁날개	-4495
▁프린	-4496
ia	-4497
데이	-4498
▁120	-4499
텐츠	-4500
▁빼앗	-4501
▁사마	-4502
▁전원	-4503
▁re	-4504
▁부진	-4505
▁지닌	-4506
▁향해	-4507
빛	-4508
▁무게	-4509
▁마르크	-4510
▁판사	-4511
▁사임	-4512
▁향하	-4513
▁한정	-4514
▁이자	-4515
▁물리학	-4516
▁확산	-4517
▁닛	-4518
▁점점	-4519
▁알파	-4520
▁호주	-4521
▁마침내	-4522
▁명확	-4523
▁레인	-4524
▁버렸	-4525
▁션	-4526
▁훗	-4527
▁일본인	-4528
은행	-4529
▁넓이	-4530
▁출범	-4531
ap	-4532
▁가나	-4533
▁대공	-4534
유럽	-4535
▁마법	-4536
▁우라	-4537
▁오페라	-4538
▁부하	-4539
▁상위	-4540
밀리	-4541
▁아프	-4542
▁모토	-4543
프라	-4544
TV	-4545
▁맞추	-4546
투스	-4547
▁편찬	-4548
▁한계	-4549
▁사형	-4550
▁명나라	-4551
▁새겨	-4552
▁대법	-4553
▁근본	-4554
▁98	-4555
ak	-4556
▁충격	-4557
▁사원	-4558
▁단독	-4559
▁인접	-4560
▁1944	-4561
▁1919	-4562
▁통산	-4563
ᅳ미	-4564
▁인증	-4565
▁의지	-4566
▁조종	-4567
▁교향	-4568
▁고속도로	-4569
케이션	-4570
▁발굴	-4571
▁당초	-4572
▁쓸	-4573
디션	-4574
▁도쿠	-4575
▁악화	-4576
시오	-4577
▁포인트	-4578
▁연구원	-4579
▁도와	-4580
▁유치	-4581
▁서명	-4582
▁영웅	-4583
▁추천	-4584
▁적절	-4585
▁문명	-4586
녁	-4587
▁모임	-4588
▁동서	-4589
▁63	-4590
▁연간	-4591
▁곽	-4592
▁저술	-4593
▁의혹	-4594
▁났	-4595
▁분위	-4596
▁의심	-4597
AR	-4598
▁녀	-4599
▁1941	-4600
▁함락	-4601
넘	-4602
▁훌	-4603
▁가이	-4604
▁각지	-4605
▁포항	-4606
▁프리미어	-4607
▁광복	-4608
ᆯ라이	-4609
▁으려	-4610
▁95	-4611
▁기기	-4612
▁기온	-4613
▁새롭	-4614
▁탐사	-4615
우리	-4616
▁된다고	-4617
▁경전	-4618
▁변수	-4619
▁행렬	-4620
▁사실상	-4621
▁홍보	-4622
▁자극	-4623
숭이	-4624
▁골든	-4625
▁무시	-4626
▁성분	-4627
▁공로	-4628
ct	-4629
사자	-4630
▁추산	-4631
▁뮤지	-4632
▁세르비아	-4633
▁바위	-4634
▁59	-4635
▁학살	-4636
▁시카고	-4637
대부	-4638
▁개막	-4639
▁개입	-4640
▁드라이	-4641
▁가진다	-4642
▁순수	-4643
▁회담	-4644
▁DNA	-4645
▁74	-4646
▁178	-4647
▁자전	-4648
▁나아가	-4649
▁접촉	-4650
▁Lo	-4651
▁오랫	-4652
▁올해	-4653
학생	-4654
▁사정	-4655
▁악기	-4656
▁징역	-4657
컴	-4658
▁순간	-4659
▁꼽	-4660
▁IC	-4661
▁정하	-4662
▁등판	-4663
▁임기	-4664
▁예전	-4665
▁진정	-4666
스ᄅ	-4667
ᆯ렌	-4668
타이	-4669
▁공헌	-4670
녔	-4671
▁구원	-4672
민주	-4673
▁팽	-4674
▁특별시	-4675
왜	-4676
▁매장	-4677
▁그때	-4678
▁1958	-4679
연히	-4680
▁혼합	-4681
▁떨어지	-4682
▁방위	-4683
▁루스	-4684
▁입법	-4685
무부	-4686
▁스마트	-4687
▁실현	-4688
▁독일군	-4689
뇨	-4690
▁to	-4691
▁보고서	-4692
▁;/	-4693
▁수석	-4694
▁페르시아	-4695
▁백성	-4696
▁피터	-4697
▁한국인	-4698
▁양쪽	-4699
▁훗날	-4700
솔	-4701
▁오랫동안	-4702
▁82	-4703
▁1947	-4704
▁감시	-4705
▁내셔널	-4706
▁줄기	-4707
ul	-4708
▁시사	-4709
▁합쳐	-4710
▁출력	-4711
▁여론	-4712
▁무르	-4713
▁언제	-4714
셉	-4715
▁심사	-4716
▁1956	-4717
▁제사	-4718
▁동해	-4719
▁리처드	-4720
▁원형	-4721
▁160	-4722
▁커뮤	-4723
▁76	-4724
▁텍사스	-4725
▁춤	-4726
▁태도	-4727
▁단편	-4728
▁멀리	-4729
▁SS	-4730
▁개신교	-4731
닥	-4732
▁승객	-4733
▁경남	-4734
▁에드워드	-4735
먹	-4736
▁다케	-4737
▁72	-4738
▁대량	-4739
▁균형	-4740
▁영지	-4741
▁이닝	-4742
클리	-4743
▁프라이	-4744
▁와이	-4745
▁신부	-4746
▁저녁	-4747
거운	-4748
▁조별	-4749
▁안동	-4750
▁작위	-4751
▁가와	-4752
▁득표	-4753
▁침략	-4754
▁동명	-4755
ie	-4756
▁이라크	-4757
▁여왕	-4758
▁속한	-4759
▁입력	-4760
▁에서부터	-4761
▁교구	-4762
▁왕실	-4763
▁무사	-4764
▁안토	-4765
흡	-4766
▁커뮤니	-4767
둘	-4768
▁발발	-4769
▁재건	-4770
▁축구단	-4771
▁77	-4772
▁아이돌	-4773
▁한다면	-4774
▁흐름	-4775
▁잠수	-4776
▁랜드	-4777
▁바까	-4778
▁바깥	-4779
▁타자	-4780
▁프랑크	-4781
▁복원	-4782
▁1939	-4783
▁펼쳐	-4784
▁67	-4785
▁참고	-4786
▁뷰	-4787
▁대선	-4788
크스	-4789
메리칸	-4790
▁승부	-4791
▁도요	-4792
▁권위	-4793
▁분위기	-4794
▁Th	-4795
▁앉	-4796
▁섞	-4797
▁리버	-4798
▁폭탄	-4799
▁과학자	-4800
▁포켓	-4801
ud	-4802
버그	-4803
▁롤	-4804
▁점수	-4805
▁석유	-4806
▁시상	-4807
따	-4808
▁어깨	-4809
▁타워	-4810
▁확률	-4811
콤	-4812
▁마무	-4813
ly	-4814
로드	-4815
▁AFC	-4816
▁고기	-4817
▁어디	-4818
▁사자	-4819
▁한글	-4820
▁확립	-4821
▁쌀	-4822
▁일상	-4823
og	-4824
ᅥᆷ프	-4825
▁빌리	-4826
▁받아들여	-4827
▁병합	-4828
▁하야	-4829
▁정해	-4830
▁정수	-4831
▁주최	-4832
▁밝혀졌	-4833
th	-4834
▁테스트	-4835
▁시마	-4836
▁글ᄅ	-4837
▁복수	-4838
▁부지	-4839
▁침입	-4840
▁빅토	-4841
▁크루	-4842
멍	-4843
▁긍	-4844
▁보물	-4845
▁자식	-4846
셈	-4847
▁신자	-4848
▁복음	-4849
▁대왕	-4850
바로	-4851
▁비상	-4852
ist	-4853
▁일시	-4854
▁암호	-4855
▁가공	-4856
▁겹	-4857
▁재배	-4858
▁대성	-4859
긴다	-4860
▁민중	-4861
▁85	-4862
▁동양	-4863
를로	-4864
▁1954	-4865
▁기울	-4866
▁인쇄	-4867
▁국기	-4868
▁브라운	-4869
마니아	-4870
▁수익	-4871
▁곱	-4872
▁가량	-4873
ᅮᆨ스	-4874
▁깃	-4875
▁턴	-4876
▁당국	-4877
▁도모	-4878
▁벌였	-4879
ight	-4880
▁구글	-4881
▁지형	-4882
▁나폴레	-4883
▁밴	-4884
▁기소	-4885
▁세리	-4886
▁연예	-4887
▁움직이	-4888
▁평안	-4889
▁사제	-4890
왜란	-4891
▁훈장	-4892
▁지켜	-4893
▁계층	-4894
▁공중	-4895
▁나폴레옹	-4896
▁임진왜란	-4897
▁창작	-4898
AS	-4899
▁힌	-4900
▁파워	-4901
▁신고	-4902
▁1952	-4903
▁빌보드	-4904
▁후계	-4905
▁산화	-4906
▁혁신	-4907
▁기에	-4908
에른	-4909
▁돌아왔	-4910
▁가담	-4911
▁조조	-4912
▁다소	-4913
이센	-4914
▁거듭	-4915
▁폐쇄	-4916
▁발음	-4917
▁참모	-4918
▁안드로	-4919
▁급제	-4920
▁본질	-4921
ᅲᆷ	-4922
▁스타디	-4923
▁가설	-4924
▁아름다운	-4925
▁누르	-4926
▁73	-4927
▁노출	-4928
▁심지	-4929
▁아테네	-4930
스케	-4931
▁오카	-4932
세포	-4933
▁*	-4934
▁전신	-4935
클레	-4936
▁끝내	-4937
▁타운	-4938
▁력	-4939
▁나뉜다	-4940
▁도마	-4941
▁대지	-4942
▁라스	-4943
▁비서	-4944
▁보살	-4945
▁동방	-4946
틱	-4947
▁나타낸다	-4948
▁96	-4949
▁어려운	-4950
▁벗어나	-4951
▁바닥	-4952
AT	-4953
▁돕	-4954
▁평론	-4955
▁박정희	-4956
▁후속	-4957
▁기리	-4958
▁Al	-4959
▁청주	-4960
▁탈퇴	-4961
▁무한	-4962
▁81	-4963
▁실력	-4964
▁고통	-4965
▁78	-4966
아티아	-4967
▁크로아티아	-4968
조합	-4969
▁따로	-4970
▁듯이	-4971
자치	-4972
▁뮤지컬	-4973
필더	-4974
▁마무리	-4975
▁로봇	-4976
▁수도원	-4977
▁전투기	-4978
▁미드필더	-4979
▁행복	-4980
▁장남	-4981
▁절반	-4982
▁상관	-4983
▁총회	-4984
먼트	-4985
▁재학	-4986
▁202	-4987
그라	-4988
▁중력	-4989
▁좋아	-4990
▁개설	-4991
▁보르	-4992
▁화이트	-4993
▁그렇게	-4994
▁옮겼	-4995
▁상역	-4996
마르	-4997
일스	-4998
▁두려	-4999
▁전남	-5000
▁이혼	-5001
▁문신	-5002
ess	-5003
▁NH	-5004
▁화장	-5005
▁유한	-5006
▁빌딩	-5007
▁들어오	-5008
▁인용	-5009
▁1959	-5010
▁손상	-5011
▁가까이	-5012
▁나온다	-5013
▁Li	-5014
▁천안	-5015
▁177	-5016
▁산소	-5017
▁여섯	-5018
▁크라	-5019
체스터	-5020
▁데스	-5021
▁보상	-5022
ᅳᆯ란	-5023
▁전직	-5024
▁덜	-5025
▁그만	-5026
▁진단	-5027
▁DV	-5028
▁생물학	-5029
▁사무소	-5030
▁심장	-5031
▁AT	-5032
BA	-5033
▁질환	-5034
▁하인	-5035
▁71	-5036
▁지사	-5037
▁윗	-5038
의정	-5039
▁스케이	-5040
▁백만	-5041
▁뮌	-5042
▁비례	-5043
▁레알	-5044
아내	-5045
▁91	-5046
인물	-5047
▁도덕	-5048
▁황후	-5049
▁작동	-5050
나가	-5051
▁화합	-5052
▁당나라	-5053
▁김성	-5054
꺼	-5055
▁주력	-5056
▁피부	-5057
▁포스트	-5058
▁바이에른	-5059
▁지향	-5060
▁패션	-5061
▁인생	-5062
▁김대	-5063
▁관여	-5064
▁국정	-5065
▁디아	-5066
▁사우스	-5067
▁액션	-5068
드리히	-5069
▁승려	-5070
▁국군	-5071
▁콘스탄티	-5072
▁위키	-5073
▁하원	-5074
▁약물	-5075
▁교리	-5076
▁메시지	-5077
▁여겨진다	-5078
▁불만	-5079
▁신사	-5080
ᅨᆫ	-5081
▁피하	-5082
▁좌상	-5083
▁디스크	-5084
▁벌이	-5085
▁가마	-5086
▁피해자	-5087
▁는다는	-5088
▁1942	-5089
셀로	-5090
▁스탠	-5091
▁모바	-5092
▁아트	-5093
스트라	-5094
리히	-5095
▁혼인	-5096
▁사유	-5097
ub	-5098
ᅳᆯ려	-5099
▁유통	-5100
▁가슴	-5101
꾸	-5102
미야	-5103
▁st	-5104
이스	-5105
▁호소	-5106
▁기상	-5107
▁조카	-5108
▁선박	-5109
▁글로벌	-5110
▁께	-5111
가락	-5112
▁상실	-5113
하여	-5114
직자	-5115
▁검토	-5116
▁역학	-5117
▁티베	-5118
▁\	-5119
▁페이지	-5120
▁결론	-5121
▁총장	-5122
▁이마	-5123
▁구매	-5124
▁적합	-5125
▁홋카이도	-5126
▁부산광역시	-5127
▁서식지	-5128
가니	-5129
▁87	-5130
▁본다	-5131
▁애플	-5132
▁159	-5133
▁연습	-5134
코스	-5135
친다	-5136
▁1943	-5137
프링	-5138
▁규제	-5139
▁부담	-5140
▁김일성	-5141
▁1955	-5142
▁이어졌	-5143
▁개방	-5144
▁원년	-5145
▁스타디움	-5146
▁아웃	-5147
▁왕비	-5148
▁매체	-5149
▁비치	-5150
▁프로이센	-5151
▁왕후	-5152
▁오직	-5153
IV	-5154
▁통화	-5155
▁가요	-5156
▁모터	-5157
▁크레	-5158
▁이른다	-5159
▁소득	-5160
▁드래프트	-5161
▁1953	-5162
▁부친	-5163
▁설득	-5164
▁싱가	-5165
▁일커	-5166
▁AP	-5167
▁결의	-5168
▁싱가포르	-5169
▁유형문화재	-5170
IA	-5171
▁일컫	-5172
▁말레이시아	-5173
▁올라가	-5174
리노	-5175
▁선임	-5176
▁무료	-5177
▁골드	-5178
ab	-5179
▁수요	-5180
▁심판	-5181
▁1936	-5182
▁84	-5183
▁일기	-5184
▁발탁	-5185
▁심지어	-5186
▁주석	-5187
미니	-5188
▁일본어	-5189
▁예방	-5190
▁쿠데	-5191
▁분노	-5192
▁돌아와	-5193
▁정차	-5194
▁태조	-5195
▁테크	-5196
▁개성	-5197
머리	-5198
▁레스	-5199
▁처분	-5200
▁위대	-5201
▁엄청난	-5202
▁필드	-5203
▁이와	-5204
▁억제	-5205
너스	-5206
▁퓨	-5207
▁사무실	-5208
▁루마니아	-5209
▁음악가	-5210
▁700	-5211
▁사도	-5212
▁이명	-5213
▁일체	-5214
▁졌으며	-5215
▁힙	-5216
유산	-5217
▁스테이	-5218
▁모바일	-5219
▁자이언	-5220
▁세자	-5221
▁소멸	-5222
▁잭슨	-5223
▁사격	-5224
▁맞서	-5225
▁;,	-5226
▁였을	-5227
▁전동차	-5228
▁후쿠오카	-5229
▁여우	-5230
▁인원	-5231
라스	-5232
▁궁전	-5233
▁쾌	-5234
▁리드	-5235
▁폭격	-5236
▁Re	-5237
▁트레	-5238
주군	-5239
▁미쓰	-5240
ine	-5241
▁1910	-5242
▁어려움	-5243
▁기동	-5244
▁개칭	-5245
▁카페	-5246
▁천주교	-5247
▁생긴	-5248
▁긍정	-5249
▁전북	-5250
▁쿠데타	-5251
▁웃	-5252
▁조지아	-5253
▁허리	-5254
▁스티븐	-5255
▁알고리	-5256
구리	-5257
▁전당	-5258
▁쓰여	-5259
▁창당	-5260
란색	-5261
▁프리드리히	-5262
옌	-5263
▁진영	-5264
르타	-5265
▁1957	-5266
▁강릉	-5267
▁남아프리카	-5268
▁닫	-5269
▁속해	-5270
▁요금	-5271
▁학사	-5272
▁김종	-5273
▁시나	-5274
▁즉시	-5275
슬러	-5276
▁본명	-5277
▁굳	-5278
▁아메리칸	-5279
싼	-5280
드리아	-5281
독부	-5282
▁유고	-5283
해서	-5284
ew	-5285
브라	-5286
▁챔피언십	-5287
▁구입	-5288
▁히틀러	-5289
▁오프	-5290
드레	-5291
▁막대	-5292
▁타인	-5293
▁97	-5294
▁딘	-5295
▁알바	-5296
▁대체로	-5297
▁깊이	-5298
▁놀라	-5299
ᆯ트	-5300
▁조상	-5301
▁모자	-5302
▁메이지	-5303
오르	-5304
▁전송	-5305
▁원주민	-5306
▁베리	-5307
▁휴대	-5308
▁자는	-5309
▁음성	-5310
▁크로스	-5311
▁알고리즘	-5312
▁1914	-5313
▁불안	-5314
히로	-5315
▁대책	-5316
베르트	-5317
▁크리스티	-5318
▁생태	-5319
▁수호	-5320
▁발명	-5321
▁="	-5322
▁스미스	-5323
▁69	-5324
▁필수	-5325
▁콘텐츠	-5326
미르	-5327
▁연설	-5328
▁테마	-5329
▁토론토	-5330
▁보여준다	-5331
ue	-5332
▁추방	-5333
▁검색	-5334
▁야스	-5335
▁주소	-5336
▁동북	-5337
▁상속	-5338
▁포켓몬	-5339
▁타이거	-5340
▁게르	-5341
시스코	-5342
▁초점	-5343
리어	-5344
▁자국	-5345
▁광범	-5346
구치	-5347
▁포스	-5348
▁진격	-5349
▁밀리	-5350
▁독재	-5351
▁1900	-5352
▁대우	-5353
웰	-5354
▁92	-5355
▁뻐	-5356
▁덩	-5357
원경	-5358
▁팔레	-5359
▁인디언	-5360
▁신도	-5361
▁천만	-5362
피스	-5363
▁사기	-5364
▁신장	-5365
▁미술관	-5366
▁랄	-5367
▁1938	-5368
EC	-5369
▁펑	-5370
▁세트	-5371
▁라우	-5372
▁코리아	-5373
▁주니어	-5374
▁세부	-5375
▁느낌	-5376
▁사과	-5377
▁핫	-5378
▁수업	-5379
폼	-5380
▁부동	-5381
▁해발	-5382
ᅳ래프트	-5383
▁불가리아	-5384
▁업적	-5385
▁배포	-5386
▁그래픽	-5387
깔	-5388
▁부위	-5389
▁101	-5390
▁이내	-5391
▁후임	-5392
▁렀다	-5393
▁석사	-5394
▁원수	-5395
▁최우	-5396
▁빚	-5397
▁급격	-5398
▁연락	-5399
▁서술	-5400
▁유효	-5401
▁조차	-5402
▁HD	-5403
▁재즈	-5404
▁01	-5405
▁누리	-5406
▁브라이	-5407
▁선형	-5408
뱀	-5409
자키	-5410
▁라이프	-5411
비히	-5412
지사	-5413
▁영양	-5414
▁DVD	-5415
총리	-5416
▁스프링	-5417
▁닉	-5418
▁오키	-5419
▁연평	-5420
▁바르셀로	-5421
▁똑	-5422
▁바르셀로나	-5423
곽	-5424
▁핸	-5425
▁조선총	-5426
▁저자	-5427
▁라틴어	-5428
▁상인	-5429
▁언덕	-5430
▁조선총독부	-5431
▁윙	-5432
▁풋	-5433
BM	-5434
▁시내버스	-5435
▁마스터	-5436
▁1918	-5437
▁화려	-5438
▁려면	-5439
▁암컷	-5440
▁달려	-5441
▁퀘	-5442
▁밀려	-5443
산화	-5444
▁{	-5445
▁등장인물	-5446
▁고시	-5447
▁완벽	-5448
뜨리	-5449
▁전술	-5450
▁오가	-5451
▁1951	-5452
▁상주	-5453
놀	-5454
▁개량	-5455
▁on	-5456
▁1932	-5457
▁각국	-5458
▁미리	-5459
▁메달	-5460
▁소형	-5461
▁화석	-5462
▁유산	-5463
▁설치류	-5464
▁운항	-5465
▁물건	-5466
▁고급	-5467
▁와서	-5468
▁게다가	-5469
▁돌려	-5470
▁소비자	-5471
팩	-5472
제국	-5473
다란	-5474
▁반사	-5475
▁계곡	-5476
▁남기	-5477
▁일련	-5478
▁정교회	-5479
▁국적	-5480
▁접한다	-5481
▁백인	-5482
숨	-5483
▁상수	-5484
▁블록	-5485
▁미시	-5486
▁스탈	-5487
▁노리	-5488
▁추기	-5489
▁실천	-5490
▁짝	-5491
▁1937	-5492
▁방언	-5493
▁분교	-5494
▁아이스	-5495
▁늑	-5496
▁대만	-5497
ect	-5498
▁질문	-5499
▁환승	-5500
▁언스	-5501
▁만났	-5502
▁발간	-5503
▁고위	-5504
▁집회	-5505
▁사퇴	-5506
▁마틴	-5507
▁킬로	-5508
▁손실	-5509
▁우크라	-5510
블리	-5511
▁생겼	-5512
▁용인	-5513
▁당해	-5514
▁89	-5515
무늬	-5516
▁영주	-5517
▁다다	-5518
▁줄어들	-5519
▁첩	-5520
▁성남	-5521
▁벌어진	-5522
▁흰색	-5523
▁고양이	-5524
▁올스타	-5525
사전	-5526
▁타율	-5527
▁파티	-5528
▁경비	-5529
▁선포	-5530
▁1935	-5531
▁내세	-5532
▁오버	-5533
▁고객	-5534
▁182	-5535
여금	-5536
▁모음	-5537
하이	-5538
▁진학	-5539
▁칭호	-5540
토스	-5541
▁차단	-5542
▁엘리자	-5543
▁개별	-5544
▁싱어	-5545
▁마르크스	-5546
▁커버	-5547
▁광범위	-5548
▁화제	-5549
가시	-5550
▁Be	-5551
민주당	-5552
필드	-5553
▁실업	-5554
▁주체	-5555
▁변하	-5556
▁사찰	-5557
▁중추	-5558
어도	-5559
▁로렌	-5560
▁후계자	-5561
▁경제학	-5562
▁비행기	-5563
▁닥터	-5564
▁감각	-5565
▁이웃	-5566
▁갑자기	-5567
▁프랑스군	-5568
▁데리	-5569
▁마루	-5570
▁격파	-5571
▁느냐	-5572
▁재개	-5573
▁93	-5574
▁의문	-5575
동생	-5576
▁트레이드	-5577
바키아	-5578
▁간다	-5579
▁남녀	-5580
▁추기경	-5581
으ᄆ	-5582
▁수치	-5583
▁걸리	-5584
▁뮌헨	-5585
▁겉	-5586
▁항공사	-5587
▁찬성	-5588
▁구상	-5589
넌	-5590
▁체험	-5591
▁거짓	-5592
▁OS	-5593
▁회로	-5594
▁곡선	-5595
▁쿼	-5596
▁면역	-5597
▁공신	-5598
▁산지	-5599
▁목성	-5600
▁수백	-5601
▁받아들이	-5602
ore	-5603
▁탄압	-5604
▁잠수함	-5605
스틱	-5606
▁기부	-5607
▁반지	-5608
▁당원	-5609
▁쿨	-5610
▁줄이	-5611
▁카리	-5612
▁시모	-5613
▁뼈	-5614
▁항의	-5615
센트	-5616
▁분화	-5617
▁덧붙	-5618
▁양산	-5619
▁FM	-5620
▁자산	-5621
▁일으켜	-5622
IN	-5623
▁내놓	-5624
▁클래식	-5625
▁허락	-5626
▁촉진	-5627
▁최후	-5628
슈타인	-5629
▁탕	-5630
▁아오	-5631
▁마주	-5632
▁구멍	-5633
▁증언	-5634
▁94	-5635
▁1933	-5636
▁꾸준	-5637
▁소화	-5638
▁법학	-5639
▁립	-5640
▁물고기	-5641
▁랩	-5642
▁이념	-5643
케이	-5644
▁지수	-5645
▁티베트	-5646
▁질서	-5647
▁거치	-5648
▁쓰였	-5649
▁영원	-5650
▁조기	-5651
▁아티스트	-5652
▁스카이	-5653
▁CP	-5654
▁개척	-5655
▁가속	-5656
▁1928	-5657
our	-5658
▁상대식	-5659
▁툴	-5660
▁자본주의	-5661
▁슬라	-5662
▁유배	-5663
▁보편	-5664
▁태종	-5665
▁플레	-5666
▁화폐	-5667
▁소문	-5668
도사	-5669
▁습격	-5670
▁고조	-5671
▁동경	-5672
▁수십	-5673
넬	-5674
ell	-5675
▁동화	-5676
▁합니다	-5677
▁팩	-5678
▁1924	-5679
어날	-5680
▁대법원	-5681
다수	-5682
공사	-5683
김	-5684
▁발레	-5685
▁메트로	-5686
▁칠레	-5687
▁극단	-5688
▁경사	-5689
▁강남	-5690
툰	-5691
▁소위	-5692
▁개명	-5693
▁사양	-5694
▁원시	-5695
▁시신	-5696
▁혼자	-5697
▁운송	-5698
▁79	-5699
▁군부	-5700
▁스트리	-5701
▁이스트	-5702
▁탄핵	-5703
▁프랑스어	-5704
▁선호	-5705
▁축소	-5706
▁조항	-5707
▁소집	-5708
▁영구	-5709
▁프로그래밍	-5710
▁용도	-5711
▁전적	-5712
▁누스	-5713
▁개장	-5714
▁힘들	-5715
end	-5716
벤트	-5717
▁가ᄇ	-5718
▁정면	-5719
▁치르	-5720
▁주일	-5721
▁지불	-5722
그ᄅ	-5723
▁회색	-5724
▁110	-5725
▁국토	-5726
▁멀티	-5727
▁사막	-5728
▁콜롬	-5729
▁09	-5730
▁대칭	-5731
저스	-5732
▁돌아오	-5733
▁간부	-5734
▁익스	-5735
▁펀	-5736
▁아이디어	-5737
▁입대	-5738
▁동굴	-5739
▁멈	-5740
▁열매	-5741
▁끈	-5742
▁충분히	-5743
▁04	-5744
슬링	-5745
▁틴	-5746
▁하여금	-5747
▁댄스	-5748
사이	-5749
▁재능	-5750
▁토착	-5751
▁동인	-5752
▁전망	-5753
▁이행	-5754
▁틈	-5755
▁정류	-5756
ain	-5757
▁종사	-5758
▁의정부	-5759
▁김해	-5760
▁플로리	-5761
ill	-5762
▁옵	-5763
▁안티	-5764
▁파키스탄	-5765
▁세월	-5766
▁실내	-5767
쿠스	-5768
▁원자력	-5769
▁개찰	-5770
▁가깝	-5771
▁프로토	-5772
삭	-5773
▁하와	-5774
▁돌아온	-5775
▁08	-5776
▁토대	-5777
▁걸친	-5778
▁토마스	-5779
▁레지	-5780
베리아	-5781
▁당신	-5782
▁170	-5783
▁구름	-5784
▁직무	-5785
▁형상	-5786
ers	-5787
▁우에	-5788
▁Co	-5789
▁고교	-5790
▁액체	-5791
▁합동	-5792
ID	-5793
▁수컷	-5794
플레이	-5795
▁매치	-5796
▁총재	-5797
▁정통	-5798
잎	-5799
▁뻗	-5800
▁세로	-5801
▁페리	-5802
▁대승	-5803
▁지중	-5804
▁베네치아	-5805
▁드ᄅ	-5806
▁초상	-5807
겔	-5808
▁83	-5809
▁재생	-5810
▁다큐	-5811
므로	-5812
▁쟁	-5813
▁법안	-5814
▁이스	-5815
▁가난	-5816
▁메탈	-5817
▁빠지	-5818
▁단순히	-5819
▁스톤	-5820
ard	-5821
▁벼슬	-5822
▁올린	-5823
▁흔적	-5824
티스	-5825
▁해제	-5826
▁밀라	-5827
▁힙합	-5828
▁유아	-5829
▁약화	-5830
▁장로	-5831
▁세워졌	-5832
▁그리하여	-5833
▁지표	-5834
▁노트	-5835
▁평면	-5836
▁이재	-5837
▁부속	-5838
▁안쪽	-5839
고속	-5840
▁자랑	-5841
▁주문	-5842
▁이른바	-5843
과이	-5844
▁으니	-5845
▁경북	-5846
데르	-5847
▁룸	-5848
▁드물	-5849
▁오류	-5850
▁당대	-5851
값	-5852
▁놀이	-5853
▁진실	-5854
▁판정	-5855
▁아프가니	-5856
즈니	-5857
▁무용	-5858
▁스크린	-5859
같	-5860
와라	-5861
▁안토니	-5862
▁국방부	-5863
▁할아버지	-5864
▁경찰서	-5865
▁선로	-5866
▁놓여	-5867
▁함경	-5868
▁배열	-5869
▁호흡	-5870
▁못한다	-5871
▁이벤트	-5872
네이	-5873
프레	-5874
▁빵	-5875
▁미르	-5876
▁부서	-5877
▁아비	-5878
▁요코하마	-5879
▁1934	-5880
▁벨라	-5881
▁엄격	-5882
▁중동	-5883
▁블로	-5884
AN	-5885
▁넥	-5886
스팅	-5887
▁성서	-5888
▁MS	-5889
▁포드	-5890
▁사이드	-5891
▁De	-5892
▁혈액	-5893
▁강도	-5894
▁서방	-5895
▁편의	-5896
▁그레이	-5897
리그	-5898
▁경고	-5899
▁판타	-5900
▁행하	-5901
▁떼	-5902
▁주재	-5903
▁아인	-5904
▁농장	-5905
▁무력	-5906
▁메르	-5907
▁글리	-5908
유키	-5909
▁마감	-5910
▁러브	-5911
뱅	-5912
▁자매	-5913
▁철거	-5914
묵	-5915
게이	-5916
아르	-5917
▁동구	-5918
▁입구	-5919
▁장례	-5920
▁보스턴	-5921
▁구사	-5922
▁골키	-5923
▁추적	-5924
어로	-5925
▁유키	-5926
▁한성	-5927
▁Me	-5928
▁구로	-5929
▁전제	-5930
▁남극	-5931
▁동메달	-5932
▁은메달	-5933
▁대가	-5934
▁대사관	-5935
▁코어	-5936
▁130	-5937
▁대원	-5938
▁존스	-5939
▁인민군	-5940
ᆯ락	-5941
▁광산	-5942
▁레닌	-5943
▁손해	-5944
▁중지	-5945
▁토머스	-5946
▁아프가니스탄	-5947
▁대동	-5948
▁일단	-5949
▁접속	-5950
▁뱀	-5951
▁사카	-5952
▁현존	-5953
▁사망자	-5954
롤	-5955
▁늑대	-5956
▁주자	-5957
▁정확히	-5958
▁얀	-5959
제르	-5960
▁리아	-5961
▁양국	-5962
▁탓	-5963
드ᄅ	-5964
세대	-5965
▁히어로	-5966
▁노동당	-5967
▁도쿠가와	-5968
ne	-5969
▁북미	-5970
▁분산	-5971
야스	-5972
▁정조	-5973
▁140	-5974
▁근육	-5975
▁거ᄂ	-5976
▁본토	-5977
▁강요	-5978
▁골키퍼	-5979
▁Sh	-5980
▁킨	-5981
▁비잔	-5982
▁갈리	-5983
▁테르	-5984
▁알렉산더	-5985
▁모로	-5986
▁동지	-5987
▁거점	-5988
▁엉	-5989
▁시계	-5990
▁봉기	-5991
▁칼리지	-5992
틸	-5993
▁매주	-5994
▁카를로	-5995
▁복사	-5996
▁중계	-5997
▁아기	-5998
▁항해	-5999
▁선물	-6000
짝	-6001
▁부처	-6002
에도	-6003
▁모노	-6004
▁나섰	-6005
▁봉해졌	-6006
힌다	-6007
▁th	-6008
안군	-6009
▁새끼	-6010
▁쿠바	-6011
OR	-6012
렷	-6013
무르	-6014
▁구리	-6015
▁돔	-6016
공업	-6017
▁곤충	-6018
▁아ᄐ	-6019
▁발전소	-6020
▁주어졌	-6021
▁중성	-6022
위대	-6023
베르크	-6024
▁마저	-6025
▁김구	-6026
▁철학자	-6027
▁투스	-6028
▁게리	-6029
▁재판소	-6030
우치	-6031
돌프	-6032
▁부호	-6033
▁초청	-6034
▁화합물	-6035
▁갤ᄅ	-6036
▁로맨	-6037
▁맨체스터	-6038
▁안내	-6039
▁식량	-6040
▁1931	-6041
▁cod	-6042
코프	-6043
▁꾼	-6044
▁타카	-6045
▁강등	-6046
▁체육관	-6047
▁위안	-6048
▁특별히	-6049
▁나선	-6050
크래프트	-6051
▁멸종	-6052
ᅥᆨ시	-6053
▁토너	-6054
▁쥬	-6055
드르	-6056
▁훼	-6057
베리	-6058
▁존슨	-6059
딕	-6060
▁랴	-6061
▁스탈린	-6062
▁계수	-6063
▁대다수	-6064
▁재임	-6065
▁간격	-6066
▁금강	-6067
렘	-6068
▁새벽	-6069
▁그리스어	-6070
all	-6071
▁생애	-6072
▁닐	-6073
▁페이스	-6074
▁ST	-6075
▁일곱	-6076
▁부ᄃ	-6077
▁목포	-6078
트니	-6079
▁햄	-6080
▁더블	-6081
▁클래스	-6082
▁버지	-6083
▁세금	-6084
▁독점	-6085
▁오염	-6086
ᅪᆫ	-6087
▁야당	-6088
▁농촌	-6089
▁히로시마	-6090
AM	-6091
▁증권	-6092
마이	-6093
▁그래프	-6094
▁종전	-6095
테스	-6096
▁An	-6097
▁휘하	-6098
▁스펙	-6099
▁타원	-6100
켄	-6101
▁관계자	-6102
▁르네	-6103
▁유력	-6104
▁파울	-6105
▁해협	-6106
▁하사	-6107
▁명시	-6108
▁연호	-6109
▁석방	-6110
▁기병	-6111
▁미카	-6112
쇠	-6113
키스	-6114
▁176	-6115
▁지칭	-6116
▁진동	-6117
▁코너	-6118
▁공룡	-6119
▁숙종	-6120
▁이정	-6121
▁교향곡	-6122
▁무늬	-6123
▁하버	-6124
▁조문	-6125
▁뚜렷	-6126
ang	-6127
▁1921	-6128
▁부품	-6129
▁원조	-6130
▁홀로	-6131
크리트	-6132
▁기생	-6133
▁배웠	-6134
▁특허	-6135
성기	-6136
▁1929	-6137
▁캠프	-6138
▁필라	-6139
▁소요	-6140
▁타점	-6141
수량	-6142
▁펄	-6143
▁미스	-6144
▁펼쳤	-6145
▁y	-6146
▁닮	-6147
▁교도	-6148
▁05	-6149
▁250	-6150
▁가구	-6151
▁감옥	-6152
팀	-6153
▁도메	-6154
널드	-6155
▁운동가	-6156
▁사신	-6157
▁유발	-6158
▁좌파	-6159
▁장점	-6160
▁그러므로	-6161
▁비중	-6162
▁역전	-6163
▁토너먼트	-6164
여서	-6165
둥이	-6166
▁관객	-6167
▁스테이션	-6168
나르	-6169
▁번지	-6170
▁오케	-6171
▁집필	-6172
▁자유주의	-6173
▁대변	-6174
▁수비수	-6175
▁트래	-6176
▁연평균	-6177
▁물려	-6178
▁착용	-6179
▁니콜라	-6180
투아	-6181
▁훌륭	-6182
ss	-6183
▁지휘관	-6184
▁인터페이스	-6185
느님	-6186
▁고고	-6187
▁갤럭시	-6188
ᆯ록	-6189
▁트랜스	-6190
▁입사	-6191
▁부작	-6192
▁일환	-6193
▁동성애	-6194
ᅳ라이나	-6195
▁하느님	-6196
▁빗	-6197
▁1923	-6198
▁1925	-6199
▁도호	-6200
▁수반	-6201
▁심리학	-6202
▁이어서	-6203
▁라트	-6204
▁과일	-6205
▁강전	-6206
▁유대인	-6207
▁단장	-6208
▁스트라이	-6209
▁삼각	-6210
무게	-6211
▁리ᄂ	-6212
▁윤리	-6213
▁몸무게	-6214
▁자이언츠	-6215
미아	-6216
▁목숨	-6217
▁합리	-6218
▁펠리	-6219
▁공국	-6220
▁전한	-6221
▁텔	-6222
▁사관	-6223
▁플로리다	-6224
▁곰	-6225
▁커다란	-6226
▁추대	-6227
즈키	-6228
▁칙	-6229
▁후퇴	-6230
ity	-6231
▁디오	-6232
베이스	-6233
▁성명	-6234
타카	-6235
산물	-6236
▁단선	-6237
▁매니	-6238
시스트	-6239
▁지질	-6240
▁07	-6241
▁롬	-6242
▁관리자	-6243
▁북아메리카	-6244
▁첫째	-6245
▁발렌	-6246
▁압축	-6247
▁연상	-6248
사르	-6249
▁유비	-6250
▁기갑	-6251
▁대결	-6252
▁미분	-6253
룬	-6254
▁남아메리카	-6255
▁협약	-6256
▁캘리포니아주	-6257
가스	-6258
▁첸	-6259
▁북서쪽	-6260
롭	-6261
▁공세	-6262
▁동반	-6263
▁쯤	-6264
▁조화	-6265
▁사당	-6266
▁장갑	-6267
▁웨일스	-6268
▁리어	-6269
▁가끔	-6270
▁불화	-6271
▁AC	-6272
클린	-6273
ᆺ수	-6274
▁약탈	-6275
▁건담	-6276
▁박근	-6277
▁틱	-6278
▁잠재	-6279
▁대한제국	-6280
▁SC	-6281
▁할리	-6282
▁연계	-6283
▁북극	-6284
▁딱	-6285
▁나이트	-6286
▁유성	-6287
▁폭풍	-6288
▁덕분	-6289
▁풍속	-6290
대문	-6291
▁섬유	-6292
▁사거리	-6293
▁임신	-6294
▁요원	-6295
낙	-6296
▁페루	-6297
▁추락	-6298
▁codice	-6299
▁극복	-6300
▁그려져	-6301
▁평론가	-6302
▁시게	-6303
▁는다고	-6304
▁성직자	-6305
▁고분	-6306
▁박스	-6307
▁살아남	-6308
추어	-6309
▁엑	-6310
▁모험	-6311
▁필름	-6312
▁하와이	-6313
보이	-6314
▁갱	-6315
▁향토	-6316
▁영감	-6317
▁원장	-6318
▁프로세서	-6319
▁다이묘	-6320
▁진흥	-6321
▁기관차	-6322
붕	-6323
템	-6324
▁민속	-6325
▁161	-6326
▁모시	-6327
▁비즈	-6328
▁서인	-6329
▁수직	-6330
▁중립	-6331
▁이수	-6332
궐	-6333
▁의석	-6334
행성	-6335
▁삼각형	-6336
▁험	-6337
ff	-6338
▁종로	-6339
▁도마뱀	-6340
▁EP	-6341
▁김대중	-6342
맞	-6343
▁톨	-6344
▁명사	-6345
▁문재	-6346
▁타입	-6347
▁빅토리아	-6348
▁마라	-6349
▁이조	-6350
▁망원경	-6351
▁로즈	-6352
▁청동	-6353
▁저널	-6354
▁삭제	-6355
▁영광	-6356
▁윤치	-6357
▁리스트	-6358
그ᄆ	-6359
▁de	-6360
▁복구	-6361
다는	-6362
일본	-6363
▁준우	-6364
▁문인	-6365
▁성씨	-6366
▁175	-6367
▁똑같	-6368
▁그랜드	-6369
▁일자	-6370
▁선교사	-6371
▁슬ᄅ	-6372
▁카자	-6373
▁근로	-6374
▁레벨	-6375
애나	-6376
▁화가	-6377
▁레이블	-6378
▁유가	-6379
▁버지니아	-6380
▁엽	-6381
▁1922	-6382
▁규슈	-6383
▁시에	-6384
▁그럼	-6385
▁중구	-6386
▁인천광역시	-6387
▁쉐	-6388
▁죠	-6389
▁리치	-6390
▁키스	-6391
▁발휘	-6392
▁빨간	-6393
▁변신	-6394
▁My	-6395
▁교차로	-6396
▁1912	-6397
▁아과	-6398
▁진술	-6399
쁜	-6400
▁제약	-6401
▁영혼	-6402
▁플러	-6403
스타인	-6404
레나	-6405
▁자치구	-6406
▁돌아갔	-6407
오리	-6408
▁모래	-6409
▁드러나	-6410
▁바오	-6411
▁가톨릭교회	-6412
▁표지	-6413
▁달린	-6414
▁수장	-6415
▁루트비히	-6416
▁카를	-6417
▁황태	-6418
▁교과	-6419
▁서적	-6420
▁직선	-6421
프란	-6422
▁비하	-6423
▁글씨	-6424
▁문법	-6425
▁164	-6426
▁라마	-6427
양군	-6428
▁중시	-6429
▁평생	-6430
▁프레임	-6431
▁무너	-6432
▁부유	-6433
▁결심	-6434
▁동일본	-6435
▁무릎	-6436
▁여인	-6437
▁센트ᄅ	-6438
▁투구	-6439
▁포유	-6440
▁돌파	-6441
▁유역	-6442
▁최상	-6443
▁네이션	-6444
이너	-6445
▁리눅스	-6446
▁사토	-6447
다니	-6448
▁아베	-6449
▁캡	-6450
▁노비	-6451
▁사르	-6452
▁목조	-6453
▁엘리자베스	-6454
ong	-6455
▁발라	-6456
▁우드	-6457
▁주류	-6458
▁수상자	-6459
▁공격수	-6460
▁Go	-6461
▁피트	-6462
▁고안	-6463
▁스와	-6464
▁코트	-6465
▁압도	-6466
▁""	-6467
즈미	-6468
▁유용	-6469
▁토벌	-6470
▁Love	-6471
▁고서	-6472
up	-6473
클ᄅ	-6474
야수	-6475
▁주사	-6476
메니아	-6477
킷	-6478
▁굽	-6479
▁구미	-6480
▁지연	-6481
▁파트너	-6482
▁넘겨	-6483
▁설비	-6484
▁소설가	-6485
▁06	-6486
▁KT	-6487
▁부탁	-6488
▁블라디	-6489
▁무인	-6490
▁왕가	-6491
▁1908	-6492
▁마카	-6493
▁우루	-6494
▁경유	-6495
▁각자	-6496
▁음모	-6497
▁건축물	-6498
▁나서	-6499
▁영조	-6500
▁랭킹	-6501
▁다양체	-6502
▁토르	-6503
▁직위	-6504
▁1906	-6505
▁모니	-6506
라이터	-6507
▁봉사	-6508
▁장사	-6509
보살	-6510
▁고르	-6511
▁보통학교	-6512
▁베타	-6513
▁퍼시	-6514
슬로	-6515
멘터리	-6516
▁아르메니아	-6517
▁연령	-6518
▁히가시	-6519
▁박근혜	-6520
카스	-6521
▁지역구	-6522
▁남동쪽	-6523
▁뱅크	-6524
▁사촌	-6525
▁아마추어	-6526
▁국민당	-6527
첨	-6528
▁스케이팅	-6529
타운	-6530
▁패턴	-6531
ip	-6532
▁돼지	-6533
▁무라	-6534
▁웰	-6535
멘트	-6536
▁무산	-6537
▁쓰러	-6538
▁모듀	-6539
▁납치	-6540
▁지중해	-6541
ᅳ메	-6542
▁어워드	-6543
▁연소	-6544
▁이날	-6545
▁태자	-6546
▁들어서	-6547
▁JR	-6548
▁크림	-6549
▁이리	-6550
IS	-6551
니즘	-6552
▁드로	-6553
▁행해	-6554
▁인력	-6555
ld	-6556
▁SM	-6557
▁도어	-6558
▁철저	-6559
도니아	-6560
▁정자	-6561
▁앨런	-6562
▁03	-6563
크리	-6564
▁1927	-6565
▁옮기	-6566
▁채권	-6567
▁통로	-6568
▁MV	-6569
▁자책	-6570
▁1917	-6571
▁시아	-6572
▁석조	-6573
▁북동쪽	-6574
▁간섭	-6575
▁삽입	-6576
런스	-6577
▁커피	-6578
▁사라지	-6579
OM	-6580
▁굿	-6581
▁이토	-6582
▁준우승	-6583
▁안양	-6584
ant	-6585
▁BBC	-6586
▁럭	-6587
▁대조	-6588
▁상처	-6589
▁침해	-6590
▁전향	-6591
▁호르	-6592
▁세워진	-6593
사관	-6594
▁이종	-6595
▁인자	-6596
▁다큐멘터리	-6597
스틴	-6598
▁1907	-6599
▁에스파	-6600
▁산악	-6601
▁탐험	-6602
▁교역	-6603
▁배급	-6604
▁외계	-6605
▁명문	-6606
▁창간	-6607
▁우크라이나	-6608
지마	-6609
▁남겨	-6610
▁대행	-6611
▁적응	-6612
영상	-6613
▁적어도	-6614
▁과도	-6615
▁조명	-6616
▁시상식	-6617
▁지름	-6618
부사	-6619
▁전작	-6620
▁송라이터	-6621
▁1926	-6622
▁문하	-6623
▁매각	-6624
▁제주도	-6625
▁밀라노	-6626
▁노무	-6627
▁흙	-6628
▁유인	-6629
▁육성	-6630
av	-6631
▁가해	-6632
▁노인	-6633
▁전승	-6634
▁보좌	-6635
▁투르	-6636
▁자전거	-6637
▁과장	-6638
▁대교	-6639
▁시트	-6640
▁의병	-6641
▁싫	-6642
다이라	-6643
▁패러	-6644
▁항목	-6645
생물	-6646
▁표본	-6647
▁들여	-6648
▁몬테	-6649
▁산타	-6650
▁시집	-6651
▁우익	-6652
톱	-6653
▁묘지	-6654
▁세조	-6655
▁He	-6656
▁오로	-6657
펴	-6658
▁무선	-6659
▁디즈니	-6660
▁출현	-6661
ED	-6662
▁||	-6663
▁아가	-6664
▁해설	-6665
▁동아시아	-6666
▁연고지	-6667
▁수지	-6668
찾	-6669
▁호조	-6670
▁자문	-6671
▁왕립	-6672
▁정서	-6673
▁일어난다	-6674
ind	-6675
▁NHK	-6676
▁SN	-6677
▁포크	-6678
▁동사	-6679
▁쇠퇴	-6680
▁체인	-6681
▁파운드	-6682
se	-6683
▁PD	-6684
▁168	-6685
▁바시	-6686
▁별로	-6687
▁상하이	-6688
▁옹호	-6689
▁종족	-6690
▁협의회	-6691
▁기종	-6692
▁색상	-6693
▁폐기	-6694
페이지	-6695
▁상영	-6696
텐도	-6697
▁닌텐도	-6698
▁문화유산	-6699
▁비전	-6700
▁레이다	-6701
ame	-6702
텍	-6703
▁단행	-6704
▁탑승	-6705
▁내장	-6706
▁맞춰	-6707
▁비틀	-6708
▁유입	-6709
▁오리지	-6710
ᆯ레이	-6711
▁진지	-6712
▁합계	-6713
AC	-6714
▁마니	-6715
▁배상	-6716
▁수감	-6717
▁하천	-6718
▁크리스토	-6719
▁166	-6720
▁베토	-6721
▁콩고	-6722
▁독일어	-6723
▁데이터베이스	-6724
▁우르	-6725
▁사료	-6726
▁시외	-6727
▁역과	-6728
▁1905	-6729
무네	-6730
▁기름	-6731
▁때로	-6732
▁제후	-6733
▁아울	-6734
▁정사	-6735
▁칭하	-6736
레이션	-6737
튜브	-6738
세스	-6739
▁Sp	-6740
나카	-6741
스리	-6742
▁162	-6743
ᆼ장	-6744
▁이어져	-6745
▁정류장	-6746
▁151	-6747
낭	-6748
▁딴	-6749
▁이루어진다	-6750
▁에릭	-6751
몬드	-6752
▁참조	-6753
ry	-6754
▁기하학	-6755
▁낼	-6756
▁진도	-6757
▁유튜브	-6758
▁알라	-6759
▁관중	-6760
▁홈페이지	-6761
▁유신	-6762
▁소니	-6763
▁비단	-6764
▁지바	-6765
브스	-6766
▁걷	-6767
▁주말	-6768
▁드러내	-6769
▁부동산	-6770
ith	-6771
▁158	-6772
▁그로	-6773
▁데려	-6774
▁히라	-6775
▁수명	-6776
▁노조	-6777
▁자바	-6778
▁엄마	-6779
▁드래곤	-6780
▁비평가	-6781
▁최우수	-6782
ES	-6783
엘라	-6784
▁구마	-6785
▁증기	-6786
▁예외	-6787
▁트럭	-6788
ort	-6789
▁도리	-6790
▁스파이	-6791
총장	-6792
▁호남	-6793
▁뷔	-6794
▁주파	-6795
▁원산	-6796
▁02	-6797
▁없애	-6798
▁품질	-6799
▁아무런	-6800
▁남서쪽	-6801
▁가르치	-6802
티움	-6803
▁스승	-6804
▁좌익	-6805
글라	-6806
페인	-6807
▁기아	-6808
▁관하	-6809
▁상소	-6810
▁민족주의	-6811
▁특급	-6812
▁커뮤니티	-6813
▁전해진다	-6814
▁꾸준히	-6815
ok	-6816
▁색깔	-6817
▁여서	-6818
▁베이스볼	-6819
▁광역	-6820
▁주거	-6821
어트	-6822
▁가미	-6823
▁동치	-6824
▁릭	-6825
▁기단	-6826
▁푸른	-6827
▁플루	-6828
▁스페셜	-6829
▁원로	-6830
▁해진	-6831
▁라이온	-6832
▁림	-6833
▁수천	-6834
▁향년	-6835
▁마스	-6836
▁안보	-6837
▁야생	-6838
▁급속	-6839
▁반환	-6840
▁나폴리	-6841
▁기념물	-6842
▁모집	-6843
▁문과	-6844
▁리듬	-6845
▁조선인	-6846
▁요미	-6847
▁입문	-6848
슬란	-6849
스티벌	-6850
▁목격	-6851
▁늘어나	-6852
슬라비아	-6853
▁유고슬라비아	-6854
벳	-6855
다른	-6856
테이	-6857
▁셋째	-6858
프란시스코	-6859
▁수수	-6860
▁펼치	-6861
▁앱	-6862
▁옛날	-6863
▁괘	-6864
▁겨우	-6865
▁이오	-6866
▁페스티벌	-6867
▁샌프란시스코	-6868
▁스피드	-6869
▁라이벌	-6870
▁묘소	-6871
▁토니	-6872
▁그쳤	-6873
▁선제	-6874
▁베토벤	-6875
▁기점	-6876
▁도심	-6877
▁선진	-6878
▁디자이너	-6879
▁흥미	-6880
▁안드로이드	-6881
▁와카	-6882
▁석탑	-6883
스톤	-6884
해군	-6885
▁대안	-6886
▁유닛	-6887
▁재무	-6888
▁콜롬비아	-6889
▁뚫	-6890
▁버그	-6891
▁신비	-6892
▁심하	-6893
▁점성	-6894
▁오리지널	-6895
▁쿠르	-6896
▁트위	-6897
▁레이스	-6898
▁렌즈	-6899
▁무관	-6900
▁운반	-6901
▁브라이언	-6902
▁련	-6903
▁카스	-6904
▁악장	-6905
▁단층	-6906
▁동영상	-6907
▁사직	-6908
▁마쓰다이라	-6909
▁곧바로	-6910
▁케이블	-6911
조선	-6912
▁프랜	-6913
▁1904	-6914
▁기요	-6915
▁주의자	-6916
▁Un	-6917
▁연주자	-6918
▁출판사	-6919
▁마케도니아	-6920
플리케이션	-6921
▁부자	-6922
▁연금	-6923
▁운명	-6924
▁칩	-6925
▁주한	-6926
▁적색	-6927
▁관장	-6928
▁급행	-6929
▁떨	-6930
▁개수	-6931
▁쓴다	-6932
▁일으킨	-6933
▁기용	-6934
▁미만	-6935
맷	-6936
▁서경	-6937
▁다녔	-6938
으므로	-6939
▁계단	-6940
▁동전	-6941
ord	-6942
▁거친	-6943
▁출산	-6944
▁거둔	-6945
▁상무	-6946
▁협의	-6947
▁일행	-6948
폴	-6949
▁걸려	-6950
▁서북	-6951
▁154	-6952
트럼	-6953
▁되찾	-6954
▁복제	-6955
▁받침	-6956
▁왕족	-6957
▁165	-6958
▁판타지	-6959
▁에티	-6960
▁내륙	-6961
▁정교	-6962
마치	-6963
▁의거	-6964
▁인치	-6965
▁방안	-6966
▁센트럴	-6967
▁평소	-6968
▁룩	-6969
▁자사	-6970
▁직장	-6971
ob	-6972
qu	-6973
▁뢰	-6974
▁무신	-6975
▁지휘자	-6976
▁Se	-6977
프스	-6978
루살	-6979
▁사로	-6980
▁오디션	-6981
쾌	-6982
▁부패	-6983
그리	-6984
브러	-6985
회의	-6986
플러	-6987
▁오타	-6988
▁말라	-6989
▁도메인	-6990
▁드림	-6991
▁파생	-6992
▁실점	-6993
▁줬	-6994
▁분배	-6995
루살렘	-6996
▁십자군	-6997
▁Wh	-6998
모니	-6999
▁낸다	-7000
랜드	-7001
우옌	-7002
▁수면	-7003
▁입증	-7004
ate	-7005
▁옌	-7006
▁기재	-7007
▁시달	-7008
▁폭스	-7009
▁긴급	-7010
▁파나	-7011
▁163	-7012
▁예언	-7013
▁예술가	-7014
▁여동생	-7015
▁붙잡	-7016
▁SF	-7017
▁156	-7018
▁연애	-7019
▁타마	-7020
▁교전	-7021
▁호환	-7022
▁비즈니스	-7023
▁스테이지	-7024
▁링크	-7025
▁신임	-7026
▁권고	-7027
▁신하	-7028
▁용기	-7029
▁리투아	-7030
▁리투아니아	-7031
▁스펙트럼	-7032
▁살펴	-7033
▁용산	-7034
▁가게	-7035
▁배제	-7036
▁아포	-7037
▁마일	-7038
▁스쿨	-7039
▁그랑	-7040
트르	-7041
▁아호	-7042
▁합작	-7043
▁한나라	-7044
▁좌석	-7045
▁초래	-7046
문학	-7047
▁나타난	-7048
PS	-7049
▁한나라당	-7050
콥	-7051
▁167	-7052
▁가하	-7053
▁사면	-7054
▁콘스탄티노	-7055
▁어항	-7056
켈	-7057
터스	-7058
▁사범	-7059
▁펴	-7060
▁아도	-7061
▁단종	-7062
디스	-7063
▁항일	-7064
▁예루살렘	-7065
▁여신	-7066
▁바비	-7067
▁부시	-7068
라비아	-7069
▁DJ	-7070
파이	-7071
▁900	-7072
▁스마트폰	-7073
슬림	-7074
▁회원국	-7075
길이	-7076
▁신용	-7077
ᅥᆸ질	-7078
▁사리	-7079
▁조류	-7080
▁퍼져	-7081
▁혜성	-7082
▁자회사	-7083
▁상임	-7084
▁한양	-7085
IC	-7086
▁진상	-7087
▁AM	-7088
▁분지	-7089
▁당사자	-7090
▁무슬림	-7091
▁주립	-7092
▁장편	-7093
▁그럼에도	-7094
▁정계	-7095
▁두려워	-7096
▁모순	-7097
▁선사	-7098
▁착륙	-7099
▁부리	-7100
▁포맷	-7101
▁충남	-7102
경기	-7103
▁템	-7104
▁피렌	-7105
▁끼리	-7106
▁만난	-7107
▁머물렀	-7108
▁챌린	-7109
▁139	-7110
▁가득	-7111
▁번식	-7112
▁일요일	-7113
킨스	-7114
▁지장	-7115
▁팅	-7116
▁샹	-7117
▁AS	-7118
아지	-7119
▁오다	-7120
교육	-7121
▁브라우	-7122
▁게시	-7123
▁낱	-7124
▁전염	-7125
▁미네	-7126
잡이	-7127
▁니스	-7128
뜻	-7129
럼비아	-7130
▁뛰어나	-7131
▁좋아하	-7132
▁애국	-7133
▁농도	-7134
▁지주	-7135
식물	-7136
▁미얀	-7137
▁싸웠	-7138
▁최신	-7139
▁요크	-7140
▁이지	-7141
▁발효	-7142
▁번주	-7143
▁친정	-7144
▁WW	-7145
▁킬로미터	-7146
▁바이올린	-7147
▁고립	-7148
▁마쳤	-7149
▁성종	-7150
▁하드웨어	-7151
ET	-7152
ast	-7153
▁부수	-7154
▁용량	-7155
▁145	-7156
▁밀접	-7157
▁개발자	-7158
▁몸길이	-7159
어리	-7160
예프	-7161
▁얼음	-7162
▁주머니	-7163
팽	-7164
▁미나미	-7165
부인	-7166
▁UN	-7167
▁진나라	-7168
커스	-7169
▁구장	-7170
▁스트리트	-7171
▁시라	-7172
▁우지	-7173
▁압박	-7174
▁시체	-7175
▁식사	-7176
▁훼손	-7177
▁응우옌	-7178
뼈	-7179
▁예능	-7180
▁차관	-7181
▁서울시	-7182
▁대령	-7183
▁조국	-7184
▁벌어지	-7185
▁중국어	-7186
▁임상	-7187
▁기타리스트	-7188
DP	-7189
슘	-7190
토미	-7191
▁브래	-7192
▁바티	-7193
▁교섭	-7194
▁전이	-7195
▁사인	-7196
▁쇼군	-7197
▁융합	-7198
▁피렌체	-7199
▁부통령	-7200
▁관광객	-7201
▁알바니아	-7202
▁고개	-7203
▁여더	-7204
▁하트	-7205
▁발족	-7206
그마	-7207
▁기압	-7208
▁마리오	-7209
▁월간	-7210
▁디비전	-7211
수아	-7212
▁공과	-7213
if	-7214
▁쿠스	-7215
▁오케스트라	-7216
데이트	-7217
▁대단	-7218
▁주어진	-7219
▁선보였	-7220
▁기ᄈ	-7221
▁DS	-7222
ᆸ니다	-7223
▁아세	-7224
▁업데이트	-7225
▁성공회	-7226
드러	-7227
▁해인	-7228
ack	-7229
▁댐	-7230
▁사사	-7231
▁전지	-7232
▁자란	-7233
▁강연	-7234
▁행정부	-7235
ᆯ륨	-7236
▁스콧	-7237
▁전류	-7238
▁투명	-7239
▁정벌	-7240
▁1896	-7241
▁노무현	-7242
▁첼	-7243
▁소나	-7244
▁붕	-7245
▁과제	-7246
▁학파	-7247
▁사라졌	-7248
ure	-7249
▁배정	-7250
▁비잔티움	-7251
▁애플리케이션	-7252
▁부도	-7253
▁선두	-7254
▁전임	-7255
▁이명박	-7256
들리	-7257
▁자마	-7258
▁부흥	-7259
▁쾨	-7260
▁공용	-7261
▁심한	-7262
▁보전	-7263
▁파동	-7264
▁IP	-7265
▁공전	-7266
▁HIV	-7267
▁하노	-7268
▁던지	-7269
즌	-7270
▁사바	-7271
▁제네	-7272
▁친선	-7273
▁테일러	-7274
▁수학자	-7275
▁귀환	-7276
ive	-7277
▁잊	-7278
▁카로	-7279
▁여덟	-7280
즈카	-7281
▁마케팅	-7282
▁MVP	-7283
▁알렸	-7284
IT	-7285
▁와중	-7286
나와	-7287
▁측근	-7288
잉	-7289
▁중독	-7290
▁빨리	-7291
▁착수	-7292
▁다이아	-7293
▁서일본	-7294
아리	-7295
▁위주	-7296
▁마운	-7297
▁간접	-7298
▁벌어졌	-7299
▁중도	-7300
iv	-7301
▁붓	-7302
▁이에	-7303
▁규명	-7304
▁시스	-7305
▁로빈	-7306
▁소송법	-7307
올라	-7308
▁스타크래프트	-7309
▁깔	-7310
▁시드니	-7311
ock	-7312
▁야기	-7313
▁오렌	-7314
▁김동	-7315
▁충성	-7316
▁피에르	-7317
닐	-7318
▁메디	-7319
▁연수	-7320
▁게이트	-7321
옷	-7322
▁짙	-7323
▁이이	-7324
악기	-7325
▁마산	-7326
▁형법	-7327
케인	-7328
운서	-7329
▁5000	-7330
▁돌리	-7331
▁152	-7332
▁규격	-7333
▁관찰사	-7334
▁157	-7335
▁참판	-7336
▁들어간	-7337
▁서브	-7338
ᆯ레이션	-7339
균관	-7340
▁밀양	-7341
▁정찰	-7342
▁아나운서	-7343
▁성벽	-7344
▁174	-7345
▁수산	-7346
▁차체	-7347
▁테오	-7348
▁권유	-7349
▁경선	-7350
ck	-7351
▁관습	-7352
▁미하	-7353
▁서열	-7354
▁젖	-7355
▁다룬	-7356
▁점유	-7357
▁붙이	-7358
▁완화	-7359
▁Ar	-7360
▁거인	-7361
▁출구	-7362
노리	-7363
▁수신	-7364
▁금성	-7365
▁복소	-7366
▁프로세스	-7367
▁신칸	-7368
▁장성	-7369
▁요미우리	-7370
▁룬	-7371
▁트윈	-7372
▁번뇌	-7373
▁좌표	-7374
▁맥스	-7375
▁백신	-7376
ᅥᆼ이	-7377
▁제의	-7378
▁쇼핑	-7379
▁익스ᄑ	-7380
가루	-7381
▁준공	-7382
▁루수	-7383
▁메가	-7384
▁사명	-7385
▁피난	-7386
▁한강	-7387
원숭이	-7388
▁들어와	-7389
주곡	-7390
▁꼴	-7391
▁이노	-7392
▁지각	-7393
▁석탄	-7394
▁하버드	-7395
▁전문학교	-7396
타리	-7397
▁켈	-7398
결승	-7399
▁책봉	-7400
▁노동조합	-7401
▁j	-7402
▁달아	-7403
▁조용	-7404
▁아울러	-7405
▁구동	-7406
▁고사	-7407
▁미스터	-7408
▁세례	-7409
▁행진	-7410
밥	-7411
▁한화	-7412
산군	-7413
▁검증	-7414
꼴	-7415
전자	-7416
▁실용	-7417
▁장인	-7418
▁존경	-7419
▁전장	-7420
▁할당	-7421
자와	-7422
로운	-7423
외선	-7424
▁어릴	-7425
▁자손	-7426
▁찾아가	-7427
카드	-7428
▁염색	-7429
▁곁	-7430
▁리오	-7431
▁관현	-7432
▁카시	-7433
▁146	-7434
▁이슈	-7435
콕	-7436
▁담배	-7437
트랙	-7438
▁니아	-7439
▁빌헤	-7440
▁성균관	-7441
▁보드	-7442
▁취약	-7443
▁브레이	-7444
▁105	-7445
▁스케	-7446
▁저기	-7447
▁국어	-7448
12	-7449
츠키	-7450
▁카나	-7451
▁여수	-7452
▁제휴	-7453
▁해전	-7454
▁MP	-7455
▁뿔	-7456
▁푼	-7457
ᆯ러스	-7458
▁자면	-7459
▁신칸센	-7460
▁구제	-7461
▁여의	-7462
▁신전	-7463
▁125	-7464
▁가질	-7465
▁소총	-7466
▁남인	-7467
▁인과	-7468
▁통행	-7469
하르트	-7470
▁변동	-7471
▁1911	-7472
▁재미	-7473
▁승차	-7474
▁이순	-7475
▁박영	-7476
▁착공	-7477
▁식당	-7478
ime	-7479
▁프로토콜	-7480
수수	-7481
니스트	-7482
▁여래	-7483
▁소금	-7484
▁전진	-7485
▁우즈	-7486
▁디젤	-7487
고속도로	-7488
▁강사	-7489
▁소관	-7490
혁명	-7491
▁나열	-7492
▁급진	-7493
▁얼마나	-7494
악단	-7495
▁회수	-7496
▁남양	-7497
▁소닉	-7498
▁해임	-7499
▁1500	-7500
▁연루	-7501
▁윌슨	-7502
▁디비	-7503
▁퇴각	-7504
▁호평	-7505
▁물러나	-7506
▁노드	-7507
▁이복	-7508
▁창업	-7509
▁동남아시아	-7510
▁몰락	-7511
▁상상	-7512
▁청와	-7513
▁패전	-7514
▁소재지	-7515
▁루터	-7516
▁인텔	-7517
▁시외버스	-7518
▁3000	-7519
▁유출	-7520
▁비아	-7521
▁상류	-7522
one	-7523
▁청사	-7524
▁원나라	-7525
▁외무	-7526
▁서독	-7527
팩트	-7528
▁사지	-7529
▁자율	-7530
▁하마	-7531
▁김용	-7532
▁흥행	-7533
▁판매량	-7534
▁천문학	-7535
▁Le	-7536
▁민국	-7537
▁연구자	-7538
▁청와대	-7539
▁153	-7540
▁ISO	-7541
▁로고	-7542
▁전두	-7543
ᆯ로지	-7544
▁우정	-7545
▁증후	-7546
▁항공모	-7547
▁쇄	-7548
▁흩	-7549
▁가라	-7550
▁트루	-7551
▁마천	-7552
▁무효	-7553
▁동위	-7554
▁PS	-7555
▁얇	-7556
대군	-7557
서양	-7558
▁배구	-7559
▁성전	-7560
그로	-7561
▁오ᄏ	-7562
▁킬	-7563
▁석가	-7564
▁저택	-7565
▁순천	-7566
▁술탄	-7567
▁됐으며	-7568
넨	-7569
▁강수량	-7570
▁응답	-7571
▁마찰	-7572
▁비극	-7573
▁자책점	-7574
▁Pro	-7575
▁악마	-7576
▁희극	-7577
된	-7578
▁쏟	-7579
▁고베	-7580
▁적대	-7581
▁일렉	-7582
▁충족	-7583
ML	-7584
제프	-7585
▁매출	-7586
▁관념	-7587
▁과목	-7588
▁조언	-7589
▁믿음	-7590
▁토리	-7591
문관	-7592
▁고원	-7593
▁샤를	-7594
▁유언	-7595
▁헤드	-7596
▁마오	-7597
▁매사	-7598
▁지분	-7599
▁단원	-7600
기니	-7601
▁개업	-7602
▁각본가	-7603
▁기장	-7604
▁문제점	-7605
▁출입구	-7606
일드	-7607
▁매개	-7608
▁공자	-7609
▁곳곳	-7610
▁나미	-7611
▁소지	-7612
▁조르	-7613
▁중점	-7614
AP	-7615
▁지목	-7616
델피아	-7617
▁필라델피아	-7618
▁예배	-7619
▁카자흐	-7620
▁휩	-7621
▁우주선	-7622
▁편곡	-7623
쩌	-7624
▁하우	-7625
▁연인	-7626
▁환원	-7627
▁103	-7628
▁바그	-7629
▁시립	-7630
▁보잉	-7631
▁천사	-7632
▁따위	-7633
▁성모	-7634
▁굵	-7635
▁취재	-7636
▁겸임	-7637
▁선원	-7638
▁나고	-7639
▁내내	-7640
▁중장	-7641
어져	-7642
블로	-7643
▁자고	-7644
▁미얀마	-7645
▁빌헬름	-7646
▁트라이	-7647
▁환상	-7648
▁155	-7649
▁해역	-7650
▁제트	-7651
▁비틀즈	-7652
▁포장	-7653
▁지지자	-7654
토시	-7655
▁사가	-7656
▁앞면	-7657
▁주파수	-7658
▁오렌지	-7659
▁정치가	-7660
▁시치	-7661
▁여진	-7662
▁힌두	-7663
▁유해	-7664
▁허브	-7665
▁특유	-7666
te	-7667
▁닭	-7668
▁나리	-7669
▁증후군	-7670
OC	-7671
▁삿	-7672
▁MC	-7673
▁서서	-7674
동물	-7675
▁최적	-7676
▁친척	-7677
▁주권	-7678
▁독립운동가	-7679
▁공인	-7680
▁탱	-7681
▁회계	-7682
▁진리	-7683
▁폴리스	-7684
▁눈물	-7685
▁협동	-7686
▁별자리	-7687
노프	-7688
▁근접	-7689
▁두드러	-7690
▁떨어졌	-7691
▁말리	-7692
▁못해	-7693
▁얘	-7694
▁인형	-7695
▁북동부	-7696
▁마그	-7697
▁포수	-7698
▁우편	-7699
▁한데	-7700
▁법령	-7701
▁중종	-7702
▁회견	-7703
▁밭	-7704
산면	-7705
▁이원	-7706
▁사로잡	-7707
▁와인	-7708
▁클린	-7709
▁참가자	-7710
ᅡᆼ크	-7711
▁108	-7712
▁떠난	-7713
▁성주	-7714
▁항공모함	-7715
▁고무	-7716
▁Bo	-7717
시온	-7718
받침	-7719
▁보충	-7720
▁Con	-7721
▁후자	-7722
▁버튼	-7723
닫	-7724
▁페어	-7725
▁셈	-7726
▁법무	-7727
트릭	-7728
▁개찰구	-7729
▁토크	-7730
▁평행	-7731
힐	-7732
▁공략	-7733
▁오디오	-7734
짐	-7735
▁바리	-7736
▁생일	-7737
라미	-7738
▁봤	-7739
▁위장	-7740
산리	-7741
▁회화	-7742
▁별개	-7743
▁하얀	-7744
포스	-7745
▁일관	-7746
▁토요일	-7747
모어	-7748
▁저기압	-7749
▁모으	-7750
▁게재	-7751
▁짜리	-7752
▁상자	-7753
▁영동	-7754
ᆯ러리	-7755
▁나고야	-7756
▁민영	-7757
브로	-7758
▁각기	-7759
io	-7760
슴	-7761
▁입상	-7762
▁콜라	-7763
▁거슬러	-7764
▁갓	-7765
▁유격	-7766
ber	-7767
▁추모	-7768
▁룰	-7769
▁반격	-7770
▁문재인	-7771
▁즐기	-7772
▁약한	-7773
▁드라이브	-7774
소스	-7775
▁두루	-7776
▁동등	-7777
팡	-7778
▁서해	-7779
▁레전	-7780
▁이인	-7781
▁상부	-7782
▁승무원	-7783
팬	-7784
▁IT	-7785
▁세균	-7786
▁컨트로	-7787
▁해운	-7788
▁콰	-7789
때로	-7790
▁감지	-7791
▁유교	-7792
▁외곽	-7793
▁민사	-7794
▁앙리	-7795
▁사우디아	-7796
▁일찍이	-7797
퍼니	-7798
베이터	-7799
▁교장	-7800
▁합법	-7801
▁퍼시픽	-7802
▁내지	-7803
▁고체	-7804
▁사물	-7805
▁전례	-7806
▁1909	-7807
▁아바	-7808
▁아군	-7809
▁화살	-7810
▁야간	-7811
▁향교	-7812
가타	-7813
▁크ᄅ	-7814
스트리	-7815
▁크리스마스	-7816
▁두산	-7817
▁매력	-7818
폴리스	-7819
▁어두운	-7820
▁튼	-7821
▁기스	-7822
▁호세	-7823
▁준결승	-7824
드루	-7825
▁128	-7826
▁에디	-7827
▁박탈	-7828
▁상장	-7829
▁꾀	-7830
▁실종	-7831
▁이영	-7832
▁격렬	-7833
▁이사장	-7834
▁보스니아	-7835
▁건의	-7836
▁자발	-7837
▁때때로	-7838
▁생명체	-7839
▁교단	-7840
▁149	-7841
▁인격	-7842
▁패스	-7843
람회	-7844
▁시청자	-7845
▁#	-7846
툼	-7847
▁안장	-7848
▁톈	-7849
▁사다	-7850
▁대답	-7851
▁외국어	-7852
▁하인리히	-7853
▁상대방	-7854
▁이슬람교	-7855
상스	-7856
▁미소	-7857
▁건축가	-7858
▁복장	-7859
age	-7860
▁102	-7861
항공	-7862
▁마친	-7863
▁일족	-7864
▁옴	-7865
백과	-7866
집합	-7867
▁모듈	-7868
▁적자	-7869
▁금액	-7870
▁베르크	-7871
▁트럼프	-7872
▁후안	-7873
▁컸	-7874
▁연도	-7875
▁대주교	-7876
▁발원	-7877
▁가르침	-7878
▁사용자	-7879
▁텍스트	-7880
▁고가	-7881
▁에이스	-7882
▁히데요시	-7883
▁기금	-7884
▁실리	-7885
▁스태	-7886
▁호칭	-7887
화점	-7888
▁여주	-7889
▁발해	-7890
▁점프	-7891
▁아미타	-7892
▁양상	-7893
▁홍수	-7894
iz	-7895
륨	-7896
▁널	-7897
▁원자로	-7898
▁$	-7899
다드	-7900
구장	-7901
▁대군	-7902
▁명의	-7903
▁계절	-7904
▁플리	-7905
▁궁정	-7906
▁포도주	-7907
▁가쓰	-7908
▁차남	-7909
▁수성	-7910
▁Bl	-7911
▁제작자	-7912
▁부착	-7913
춤	-7914
카르	-7915
ge	-7916
ᅳ렸	-7917
▁다중	-7918
▁콜레	-7919
▁주지사	-7920
▁치세	-7921
▁전대	-7922
▁발현	-7923
▁안드레	-7924
▁물러났	-7925
▁시오	-7926
▁집계	-7927
▁캠페인	-7928
▁레이저	-7929
▁서서히	-7930
▁자유당	-7931
▁사우디아라비아	-7932
▁블루스	-7933
▁도라	-7934
▁운동장	-7935
▁전도	-7936
▁정밀	-7937
▁에스파냐	-7938
▁추격	-7939
▁전함	-7940
붙이	-7941
▁걸린	-7942
▁네이버	-7943
▁중국인	-7944
▁넬	-7945
▁고래	-7946
▁대외	-7947
▁충주	-7948
▁CPU	-7949
창기	-7950
ᅥᆨ정	-7951
▁메타	-7952
▁채무	-7953
▁최저	-7954
▁조반	-7955
▁대니	-7956
▁볼리	-7957
▁태생	-7958
▁남긴	-7959
▁탐지	-7960
ᆺ지	-7961
우라	-7962
▁왜성	-7963
▁포괄	-7964
▁둥근	-7965
플레	-7966
힘	-7967
▁프랭크	-7968
sp	-7969
▁127	-7970
▁세미	-7971
▁직책	-7972
▁물자	-7973
▁그랑프리	-7974
AD	-7975
▁골프	-7976
▁중재	-7977
▁노란색	-7978
▁로프	-7979
▁토마	-7980
수엘라	-7981
▁긴장	-7982
▁르네상스	-7983
사기	-7984
▁가즈	-7985
▁조리	-7986
▁섭취	-7987
▁아우구	-7988
▁레전드	-7989
▁147	-7990
▁역명	-7991
▁향후	-7992
겁	-7993
노부	-7994
차례	-7995
먼드	-7996
▁경부	-7997
▁제곱	-7998
▁기다리	-7999
▁룽	-8000
▁고발	-8001
▁수평	-8002
▁1915	-8003
▁기수	-8004
▁남한	-8005
▁엘리베이터	-8006
▁사이버	-8007
▁팽창	-8008
▁문양	-8009
▁단기	-8010
▁송나라	-8011
▁위키백과	-8012
▁뉘	-8013
▁스터	-8014
▁에우	-8015
▁상세	-8016
▁추증	-8017
▁지나치	-8018
▁유소년	-8019
▁로맨스	-8020
▁손가락	-8021
orld	-8022
보기	-8023
프로스	-8024
▁수군	-8025
▁분광	-8026
서리	-8027
언스	-8028
▁패하	-8029
▁동당	-8030
▁아미노	-8031
▁1913	-8032
▁라파	-8033
▁청장	-8034
▁부천	-8035
▁황해	-8036
▁존중	-8037
포트	-8038
▁에미	-8039
▁캄보	-8040
▁단점	-8041
▁속성	-8042
▁최소한	-8043
▁베네수엘라	-8044
▁171	-8045
▁광년	-8046
▁죽였	-8047
올리	-8048
▁알코	-8049
▁건너가	-8050
ik	-8051
▁케네	-8052
▁테니스	-8053
빨	-8054
▁필립	-8055
▁초연	-8056
▁난민	-8057
▁향한	-8058
▁김영삼	-8059
창군	-8060
▁후일	-8061
기지	-8062
자치도	-8063
▁둘레	-8064
▁제주특별	-8065
▁태수	-8066
▁강과	-8067
▁강경	-8068
▁천문학자	-8069
마사	-8070
생활	-8071
▁다스리	-8072
명사전	-8073
렛	-8074
▁보리	-8075
▁자마자	-8076
▁창건	-8077
▁마하	-8078
▁사절	-8079
▁입체	-8080
▁갑작	-8081
▁문학상	-8082
닌다	-8083
▁북구	-8084
▁원하	-8085
밭	-8086
▁윌리엄스	-8087
▁명목	-8088
▁마비	-8089
▁대역	-8090
▁센서	-8091
▁끊임	-8092
▁전한다	-8093
▁굉장	-8094
▁타르	-8095
▁장미	-8096
▁동독	-8097
▁신흥	-8098
▁딩	-8099
▁전두환	-8100
시티	-8101
▁al	-8102
행위	-8103
▁출토	-8104
▁거느리	-8105
▁개미	-8106
▁초창기	-8107
▁오키나와	-8108
첸	-8109
▁피고	-8110
▁북방	-8111
▁릴	-8112
▁토스	-8113
포구	-8114
▁1895	-8115
평군	-8116
▁동래	-8117
▁심의	-8118
▁창시	-8119
▁끌어	-8120
▁숭배	-8121
▁엔지	-8122
▁옥스	-8123
▁남원	-8124
▁동년	-8125
▁리메이	-8126
▁원반	-8127
▁캐스팅	-8128
탱	-8129
▁주축	-8130
▁디스플레이	-8131
박쥐	-8132
벌레	-8133
▁광부	-8134
▁수렴	-8135
▁GT	-8136
▁대포	-8137
▁따뜻	-8138
▁병조	-8139
▁통칭	-8140
▁부과	-8141
▁팔레스타인	-8142
▁SP	-8143
▁꽤	-8144
▁서사	-8145
▁방침	-8146
▁넨	-8147
▁상당수	-8148
EN	-8149
틀ᄅ	-8150
▁취지	-8151
▁테스	-8152
▁김재	-8153
▁추상	-8154
▁아사히	-8155
▁되돌	-8156
▁만세	-8157
▁나가사키	-8158
▁141	-8159
▁169	-8160
▁어드	-8161
▁머신	-8162
▁컬러	-8163
▁총선거	-8164
MS	-8165
▁무죄	-8166
▁가르쳤	-8167
쿨	-8168
▁닿	-8169
▁법제	-8170
▁협조	-8171
▁온천	-8172
▁이어받	-8173
▁다운로드	-8174
▁팜	-8175
▁유수	-8176
네스코	-8177
▁김수	-8178
▁리메이크	-8179
▁Tr	-8180
▁무제	-8181
▁버려	-8182
▁음원	-8183
▁침몰	-8184
아이	-8185
▁카탈	-8186
▁비문	-8187
▁언론인	-8188
▁수령	-8189
▁이민자	-8190
▁풋볼	-8191
▁135	-8192
▁병역	-8193
▁스파르타	-8194
자스	-8195
▁김태	-8196
▁버린	-8197
▁촉구	-8198
▁북서부	-8199
공신	-8200
▁진군	-8201
▁가져왔	-8202
글스	-8203
▁미쳤	-8204
▁도호쿠	-8205
▁스크리	-8206
무기	-8207
▁언제나	-8208
▁개관	-8209
▁배틀	-8210
▁나주	-8211
▁이틀	-8212
▁문화방송	-8213
▁양주	-8214
ep	-8215
▁주차	-8216
▁국사	-8217
▁144	-8218
▁난다	-8219
글러	-8220
ust	-8221
▁총괄	-8222
▁테레	-8223
▁귀중	-8224
▁인재	-8225
▁낙선	-8226
▁턱	-8227
▁섭정	-8228
어지	-8229
ᆯ럼	-8230
▁다녀	-8231
▁동력	-8232
▁111	-8233
▁탈환	-8234
석기	-8235
▁후세	-8236
▁계몽	-8237
▁원고	-8238
▁유연	-8239
▁지냈으며	-8240
int	-8241
▁하부	-8242
▁소실	-8243
▁자기장	-8244
▁부른	-8245
▁이진	-8246
▁수용소	-8247
▁풀려	-8248
▁객관	-8249
▁김진	-8250
그라드	-8251
▁시공	-8252
▁수동	-8253
앵	-8254
▁스핀	-8255
▁초상화	-8256
▁해병대	-8257
▁어업	-8258
▁영리	-8259
셸	-8260
▁기습	-8261
▁한동안	-8262
▁산다	-8263
▁대처	-8264
▁신중	-8265
▁식별	-8266
▁아레나	-8267
▁종결	-8268
▁후대	-8269
▁컴퍼니	-8270
▁링컨	-8271
▁공채	-8272
▁평야	-8273
▁청원	-8274
▁스릴러	-8275
▁폐위	-8276
▁김포	-8277
▁정전	-8278
▁서머	-8279
▁아종	-8280
▁스트로	-8281
▁119	-8282
▁첨가	-8283
GC	-8284
▁도스	-8285
▁차기	-8286
▁멈추	-8287
▁신세	-8288
▁자랐	-8289
▁저명	-8290
▁둘러싼	-8291
▁컬럼비아	-8292
▁CO	-8293
져서	-8294
브레	-8295
▁천도	-8296
▁서울대	-8297
▁모스	-8298
▁십자가	-8299
ᆸ트	-8300
ᅥᆫ트	-8301
선거	-8302
▁언더	-8303
▁친일인	-8304
▁TH	-8305
▁요르	-8306
▁고백	-8307
▁든지	-8308
▁별칭	-8309
▁호랑	-8310
▁평일	-8311
▁함유	-8312
▁멜로	-8313
트리올	-8314
▁몬트리올	-8315
잠	-8316
▁It	-8317
시로	-8318
▁172	-8319
말라	-8320
▁캄보디아	-8321
키지	-8322
▁실린	-8323
▁풍경	-8324
▁캉	-8325
▁스티브	-8326
▁중순	-8327
▁유네스코	-8328
릭	-8329
▁매카	-8330
▁날짜	-8331
▁묘역	-8332
Pa	-8333
▁룡	-8334
▁조달	-8335
▁효력	-8336
▁리버풀	-8337
ᆷ새	-8338
▁106	-8339
▁껍질	-8340
▁유니버	-8341
▁지나가	-8342
▁신학교	-8343
▁어스	-8344
▁제수	-8345
▁북위	-8346
ib	-8347
▁편리	-8348
▁연세대	-8349
ude	-8350
▁휴식	-8351
ome	-8352
▁이광	-8353
▁내외	-8354
▁대위	-8355
▁오빠	-8356
▁에스토	-8357
푸스	-8358
▁후지와라	-8359
▁고인	-8360
▁그렸	-8361
▁선구	-8362
▁미주	-8363
▁간호	-8364
▁애덤	-8365
▁제갈	-8366
▁인산	-8367
▁장안	-8368
▁카리브	-8369
▁중소	-8370
▁번영	-8371
▁CE	-8372
▁불편	-8373
▁여겼	-8374
▁케네디	-8375
▁대제	-8376
▁에다	-8377
▁드럼	-8378
▁정무	-8379
▁프랑수아	-8380
크라	-8381
▁에버	-8382
▁지폐	-8383
▁공모	-8384
▁율리	-8385
▁관람	-8386
▁낱말	-8387
▁삼진	-8388
▁이글스	-8389
▁등재	-8390
▁바퀴	-8391
▁해수	-8392
▁선종	-8393
▁정말	-8394
ian	-8395
▁소환	-8396
▁중량	-8397
▁충실	-8398
▁전성기	-8399
▁총사	-8400
▁관통	-8401
▁아틀레	-8402
▁루시	-8403
▁신기	-8404
▁콘크리트	-8405
▁가벼	-8406
▁교양	-8407
▁정렬	-8408
▁유니폼	-8409
치오	-8410
▁총대	-8411
슬란드	-8412
▁펠	-8413
▁바치	-8414
▁대웅	-8415
▁스페이스	-8416
세츠	-8417
선스	-8418
▁몰리	-8419
룩	-8420
▁전압	-8421
▁충북	-8422
▁We	-8423
▁셰이	-8424
▁호모	-8425
▁파업	-8426
▁아이템	-8427
ere	-8428
▁방패	-8429
▁휴전	-8430
▁우라늄	-8431
▁WWE	-8432
▁까다	-8433
▁쇼트	-8434
▁마인	-8435
내셔널	-8436
▁매사추	-8437
▁우연히	-8438
▁중추원	-8439
▁인터내셔널	-8440
▁신학자	-8441
헤이	-8442
▁지혜	-8443
▁헬리	-8444
▁반박	-8445
▁매사추세츠	-8446
▁무상	-8447
▁초과	-8448
▁엔지니어	-8449
▁아이슬란드	-8450
ᆼ이	-8451
▁왓	-8452
▁교원	-8453
▁쓰인	-8454
▁앤드	-8455
▁바꿔	-8456
▁걱정	-8457
▁미토	-8458
▁승점	-8459
ire	-8460
▁부채	-8461
▁해변	-8462
▁증진	-8463
▁오비	-8464
▁헤라	-8465
▁발트	-8466
유행	-8467
▁써서	-8468
▁원내	-8469
▁며칠	-8470
▁소통	-8471
▁의상	-8472
▁에스토니아	-8473
▁위임	-8474
▁자이	-8475
▁김상	-8476
ment	-8477
▁생전	-8478
바지	-8479
▁상서	-8480
▁몰려	-8481
▁표명	-8482
▁넘어가	-8483
▁스페인어	-8484
▁구이	-8485
▁황태자	-8486
pe	-8487
긋	-8488
▁우울	-8489
ace	-8490
▁보완	-8491
▁공단	-8492
▁당일	-8493
▁돌연	-8494
이즈	-8495
▁단식	-8496
▁파이어	-8497
▁라이선스	-8498
▁도왔	-8499
▁서남	-8500
▁평범	-8501
▁외교관	-8502
실록	-8503
▁명백	-8504
멜	-8505
▁살리	-8506
트루	-8507
▁도루	-8508
▁연패	-8509
▁통근	-8510
▁버린다	-8511
ᆸ시	-8512
주의자	-8513
▁청하	-8514
▁암석	-8515
▁평택	-8516
▁공의회	-8517
콰	-8518
▁일화	-8519
▁쫓겨	-8520
▁세계관	-8521
▁교외	-8522
▁호위	-8523
석탑	-8524
▁열대	-8525
궤	-8526
ide	-8527
ᅳ만	-8528
▁잦	-8529
▁그루	-8530
▁훔	-8531
▁공직	-8532
▁불명	-8533
▁실전	-8534
층석탑	-8535
▁책임자	-8536
▁한성부	-8537
▁고수	-8538
▁로열	-8539
▁블리	-8540
▁레바	-8541
▁오사	-8542
▁바라보	-8543
▁모방	-8544
▁가로지	-8545
▁퍼센트	-8546
▁일어날	-8547
▁대전광역시	-8548
▁장려	-8549
▁HT	-8550
▁고민	-8551
▁시흥	-8552
태우	-8553
▁도주	-8554
▁좌절	-8555
▁역설	-8556
온다	-8557
▁입지	-8558
▁양도	-8559
▁페르난	-8560
▁들어왔	-8561
보내	-8562
▁오노	-8563
▁겸하	-8564
▁누군	-8565
▁진짜	-8566
픔	-8567
▁고령	-8568
▁피에	-8569
▁배신	-8570
▁마이너	-8571
▁네이션스	-8572
폴리	-8573
▁스러	-8574
▁업계	-8575
▁일조	-8576
▁마약	-8577
▁장난	-8578
▁물리학자	-8579
▁148	-8580
▁IBM	-8581
▁기어	-8582
▁베드	-8583
▁치열	-8584
▁닛폰	-8585
▁영장	-8586
▁사회학	-8587
마쓰	-8588
▁성운	-8589
▁영남	-8590
바다	-8591
바이잔	-8592
▁신속	-8593
▁친왕	-8594
▁무거운	-8595
제리	-8596
포드	-8597
▁다항	-8598
얀	-8599
▁닝	-8600
오피아	-8601
▁할리우드	-8602
▁에티오피아	-8603
바야	-8604
▁소유자	-8605
▁허리케인	-8606
눈	-8607
니치	-8608
▁136	-8609
▁파장	-8610
▁중심부	-8611
IM	-8612
▁끓	-8613
▁서재	-8614
지리아	-8615
▁나이지리아	-8616
▁TO	-8617
▁께서	-8618
▁사슬	-8619
▁줄리	-8620
▁전라도	-8621
람쥐	-8622
▁육지	-8623
▁현금	-8624
▁슬로바키아	-8625
둑	-8626
▁스모	-8627
▁인연	-8628
시피	-8629
브러리	-8630
▁명제	-8631
▁시선	-8632
▁포격	-8633
▁시나리오	-8634
▁쿤	-8635
▁추출	-8636
▁리비아	-8637
▁신생	-8638
▁아제르	-8639
▁아제르바이잔	-8640
닉스	-8641
▁1916	-8642
▁순회	-8643
▁합창	-8644
▁실시간	-8645
위원	-8646
▁격투	-8647
▁산림	-8648
▁브라우저	-8649
어진	-8650
▁조연	-8651
▁배터리	-8652
▁노부나가	-8653
▁어울	-8654
겸	-8655
▁NBA	-8656
▁오세	-8657
cl	-8658
▁기인	-8659
▁쉬운	-8660
▁DC	-8661
▁약칭	-8662
▁특집	-8663
▁협주곡	-8664
▁밟	-8665
▁나비	-8666
▁부재	-8667
▁막내	-8668
▁즈음	-8669
▁김기	-8670
▁서정	-8671
▁동상	-8672
▁작센	-8673
▁원숭이	-8674
▁의뢰	-8675
▁봉쇄	-8676
중국	-8677
▁안성	-8678
아키	-8679
▁여지	-8680
▁나쁜	-8681
▁숨겨	-8682
▁상담	-8683
▁스튜어트	-8684
▁시초	-8685
▁바닷	-8686
▁위탁	-8687
타로	-8688
▁구릉	-8689
▁패키지	-8690
▁한스	-8691
▁쌍둥이	-8692
▁지류	-8693
▁극동	-8694
▁평원	-8695
▁이사회	-8696
▁해밀	-8697
▁페르디	-8698
▁호기	-8699
▁지능	-8700
▁병행	-8701
▁138	-8702
▁내려가	-8703
▁데이비스	-8704
기스	-8705
ᆯ런트	-8706
▁탱크	-8707
▁입당	-8708
▁탈당	-8709
▁la	-8710
ᆯ루션	-8711
▁의약	-8712
▁라이언	-8713
▁결혼식	-8714
▁구조물	-8715
▁어요	-8716
▁추세	-8717
▁후쿠시마	-8718
▁국무총리	-8719
▁라이브러리	-8720
▁뛰어	-8721
의자	-8722
▁솜	-8723
▁거제	-8724
▁해소	-8725
여래	-8726
▁앓	-8727
▁히스	-8728
▁가동	-8729
▁객체	-8730
▁부적	-8731
타나	-8732
▁솟	-8733
▁실려	-8734
▁중위	-8735
▁분당	-8736
▁나타낼	-8737
▁햇	-8738
▁경연	-8739
▁치러진	-8740
▁라트비아	-8741
▁미즈	-8742
▁면허	-8743
▁지선	-8744
▁결선	-8745
▁전념	-8746
▁구호	-8747
▁빠졌	-8748
▁복선	-8749
▁워드	-8750
▁포터	-8751
▁고성	-8752
▁반감	-8753
▁360	-8754
▁젤	-8755
▁창고	-8756
▁리우스	-8757
곡리	-8758
▁첼시	-8759
▁토성	-8760
▁격퇴	-8761
▁레논	-8762
▁하락	-8763
▁아마도	-8764
▁브란	-8765
▁최상위	-8766
▁낭만	-8767
▁아부	-8768
▁코프	-8769
▁급격히	-8770
▁중성자	-8771
▁항소	-8772
▁현종	-8773
▁릉	-8774
▁구도	-8775
▁세션	-8776
▁다비	-8777
▁되게	-8778
▁치즈	-8779
▁내린	-8780
▁보일	-8781
▁사헌	-8782
▁붙였	-8783
▁영의정	-8784
▁104	-8785
▁저하	-8786
▁어휘	-8787
▁이를	-8788
▁En	-8789
▁이세	-8790
▁실장	-8791
▁백화점	-8792
▁우루과이	-8793
▁재위	-8794
ark	-8795
촨	-8796
▁거ᄃ	-8797
▁박해	-8798
▁유동	-8799
▁새겨져	-8800
▁춘천	-8801
▁여겨졌	-8802
▁가면	-8803
▁거행	-8804
▁그램	-8805
▁상공	-8806
▁테이블	-8807
▁도미	-8808
▁드레	-8809
틀랜	-8810
▁수습	-8811
▁칼라	-8812
▁한지	-8813
▁애틀랜	-8814
하면	-8815
▁냉각	-8816
▁코무네	-8817
▁시칠리아	-8818
하시	-8819
▁거론	-8820
▁깨달	-8821
▁춘추	-8822
▁반도체	-8823
▁뭉	-8824
▁회고	-8825
▁개원	-8826
▁백색	-8827
▁늘리	-8828
▁송시	-8829
▁엘레	-8830
▁주행	-8831
▁택시	-8832
▁한쪽	-8833
▁모니터	-8834
▁비시	-8835
대신	-8836
▁감리	-8837
▁도장	-8838
▁다니엘	-8839
▁카이사르	-8840
데시	-8841
▁리라	-8842
▁바흐	-8843
▁혈통	-8844
어버	-8845
▁스톡	-8846
▁치명	-8847
▁109	-8848
▁hPa	-8849
▁끌려	-8850
▁주가	-8851
▁목판	-8852
▁고치	-8853
▁카미	-8854
▁행적	-8855
은색	-8856
도바	-8857
ᆯ렀	-8858
▁고소	-8859
▁미라	-8860
▁주름	-8861
▁차종	-8862
승지	-8863
▁임용	-8864
▁사헌부	-8865
▁명령어	-8866
▁Pr	-8867
그레	-8868
▁틸	-8869
▁얘기	-8870
▁성체	-8871
▁신규	-8872
▁장학	-8873
▁123	-8874
양함	-8875
▁극히	-8876
▁차장	-8877
▁생식	-8878
▁이케	-8879
▁탐구	-8880
회장	-8881
▁바나	-8882
▁파스	-8883
▁민회	-8884
더슨	-8885
고쿠	-8886
▁우세	-8887
▁제로	-8888
▁대표작	-8889
베르토	-8890
실베이	-8891
실베이니아	-8892
▁펜실베이니아	-8893
▁공수	-8894
▁바른	-8895
▁잔류	-8896
▁해적	-8897
▁게르만	-8898
▁모른다	-8899
▁교황청	-8900
▁방송사	-8901
▁도르	-8902
▁부디	-8903
▁일러	-8904
▁신탁	-8905
도리	-8906
▁매달	-8907
▁횟수	-8908
▁종로구	-8909
▁분기점	-8910
▁잡아	-8911
▁성숙	-8912
▁너비	-8913
그레이	-8914
렐	-8915
바시	-8916
▁143	-8917
▁보인	-8918
▁아홉	-8919
▁제독	-8920
▁하워드	-8921
▁AK	-8922
▁AR	-8923
▁신한	-8924
▁정점	-8925
넓	-8926
푸르트	-8927
▁그날	-8928
▁LP	-8929
타고	-8930
▁전했	-8931
▁정한	-8932
▁다발	-8933
▁알루	-8934
▁축하	-8935
▁대학생	-8936
▁말ᄊ	-8937
▁시즈	-8938
▁매입	-8939
▁CS	-8940
▁루프	-8941
▁col	-8942
▁히메	-8943
▁팔라	-8944
▁광물	-8945
▁NC	-8946
▁리우	-8947
▁산란	-8948
▁통증	-8949
▁타이거즈	-8950
AL	-8951
▁소매	-8952
▁순교	-8953
▁휴스턴	-8954
▁오바	-8955
▁재현	-8956
▁청춘	-8957
▁환영	-8958
▁경관	-8959
▁사모	-8960
▁수련	-8961
▁아담	-8962
▁상점	-8963
▁터치	-8964
▁분비	-8965
▁신조	-8966
▁신주	-8967
▁최악	-8968
▁후방	-8969
▁연합회	-8970
법인	-8971
스카르	-8972
▁나눌	-8973
▁할지	-8974
▁적당	-8975
▁호랑이	-8976
브ᄅ	-8977
▁CC	-8978
▁고장	-8979
▁출처	-8980
▁카자흐스탄	-8981
시타	-8982
토모	-8983
산동	-8984
▁박람회	-8985
▁눌	-8986
▁주역	-8987
▁상단	-8988
▁남동부	-8989
ile	-8990
▁비리	-8991
▁성취	-8992
▁폭동	-8993
은이	-8994
▁부르크	-8995
▁유로파	-8996
▁팡	-8997
▁모이	-8998
▁시바	-8999
▁이화	-9000
▁염기	-9001
▁롤링	-9002
셋	-9003
▁펑크	-9004
▁덧붙여	-9005
▁관구	-9006
▁적분	-9007
▁토모	-9008
▁가짜	-9009
▁나스	-9010
▁리틀	-9011
▁스트레스	-9012
▁돋	-9013
▁요하	-9014
▁견제	-9015
▁억압	-9016
▁통영	-9017
▁별다른	-9018
▁아데	-9019
▁근교	-9020
▁목재	-9021
▁이식	-9022
▁플랜	-9023
▁래퍼	-9024
▁처녀	-9025
ᅳ모	-9026
차기	-9027
▁아크	-9028
▁우위	-9029
▁이즈	-9030
▁축적	-9031
▁왈	-9032
▁이소	-9033
▁태양계	-9034
▁동아일보	-9035
▁블라디미르	-9036
▁비자	-9037
▁벌금	-9038
▁Op	-9039
▁공산주의자	-9040
▁CON	-9041
▁덤	-9042
▁부당	-9043
▁설탕	-9044
▁성사	-9045
▁한인	-9046
▁힘입	-9047
▁응원	-9048
▁관해서	-9049
xt	-9050
로그	-9051
살이	-9052
▁마야	-9053
▁부설	-9054
ies	-9055
라리	-9056
▁카타	-9057
▁음료	-9058
▁열정	-9059
▁존속	-9060
▁차이점	-9061
비나	-9062
▁닷	-9063
브리지	-9064
▁릴리	-9065
▁상용	-9066
▁경상도	-9067
ᅳᆯ라스	-9068
▁드문	-9069
▁후한	-9070
▁라오스	-9071
핍	-9072
▁조세	-9073
▁국소	-9074
▁왜냐	-9075
▁암시	-9076
▁육체	-9077
▁김경	-9078
▁동점	-9079
▁충전	-9080
스부르크	-9081
▁야구장	-9082
▁슈트	-9083
▁가군	-9084
엣	-9085
▁사육	-9086
▁자민	-9087
▁알코올	-9088
▁RNA	-9089
▁법조	-9090
▁키프로스	-9091
▁다이아몬드	-9092
▁삼층석탑	-9093
▁is	-9094
▁로이	-9095
▁보석	-9096
▁어원	-9097
▁현저	-9098
▁상반	-9099
고래	-9100
▁오해	-9101
▁여당	-9102
▁운하	-9103
▁뜨거운	-9104
▁친일파	-9105
▁띤다	-9106
▁빌라	-9107
▁옆면	-9108
▁블로그	-9109
▁휠	-9110
▁루이지	-9111
▁못할	-9112
▁성단	-9113
▁아랍어	-9114
▁중의원	-9115
▁우유	-9116
▁이타	-9117
▁히사	-9118
▁브라더스	-9119
▁생산량	-9120
▁107	-9121
▁시골	-9122
▁소나타	-9123
▁경찰청	-9124
▁엿	-9125
▁자아	-9126
▁관해	-9127
▁이에야스	-9128
▁대웅전	-9129
졸	-9130
▁기적	-9131
▁공관	-9132
▁우승자	-9133
ft	-9134
▁광학	-9135
▁속했	-9136
▁황실	-9137
ᅣᆯ	-9138
ite	-9139
즐	-9140
▁112	-9141
기업	-9142
▁후사	-9143
▁모았	-9144
▁공익	-9145
▁야쿠	-9146
▁구축함	-9147
▁시베리아	-9148
▁누나	-9149
▁누이	-9150
▁가죽	-9151
▁언니	-9152
▁사업자	-9153
▁이산화	-9154
▁치아	-9155
▁탐사선	-9156
▁Te	-9157
▁베스	-9158
▁당주	-9159
▁동국	-9160
▁반경	-9161
▁그동안	-9162
▁126	-9163
▁흠	-9164
▁장거리	-9165
▁킥	-9166
▁만남	-9167
▁이어진다	-9168
갈색	-9169
▁맥주	-9170
▁수법	-9171
▁단단	-9172
▁신념	-9173
▁케이스	-9174
▁무지	-9175
▁원했	-9176
▁폭행	-9177
▁조선일보	-9178
▁거북	-9179
▁라이너	-9180
▁이순신	-9181
▁헤비	-9182
▁베어스	-9183
첼	-9184
▁송시열	-9185
▁티스	-9186
▁공습	-9187
▁달했	-9188
꼽	-9189
▁연쇄	-9190
▁늘어났	-9191
▁동문	-9192
▁트위터	-9193
▁뫼	-9194
▁퐁	-9195
▁데모	-9196
▁신민	-9197
▁누군가	-9198
▁조종사	-9199
▁줄무늬	-9200
수리	-9201
▁쳤	-9202
▁노바	-9203
▁마누	-9204
▁이윤	-9205
▁117	-9206
▁해명	-9207
▁도마뱀붙이	-9208
▁누가	-9209
▁천장	-9210
▁다룬다	-9211
▁트윈스	-9212
▁창원시	-9213
▁SE	-9214
▁유죄	-9215
▁규범	-9216
▁인플ᄅ	-9217
▁할머니	-9218
블ᄅ	-9219
거진	-9220
돌리	-9221
▁부제	-9222
▁비유	-9223
▁교정	-9224
▁상사	-9225
▁범인	-9226
▁플러스	-9227
▁사우루스	-9228
▁비르	-9229
▁내려오	-9230
▁신선	-9231
▁고속도	-9232
▁com	-9233
▁소셜	-9234
벡	-9235
▁카를로스	-9236
▁피스	-9237
▁품종	-9238
▁평의회	-9239
▁멋	-9240
▁주이	-9241
▁주주	-9242
▁사쿠라	-9243
▁그만두	-9244
▁양키스	-9245
ath	-9246
▁나르	-9247
▁아예	-9248
▁증대	-9249
▁삼성전자	-9250
▁킴	-9251
의장	-9252
▁강서	-9253
▁이경	-9254
▁필터	-9255
▁받아들였	-9256
▁아카데미상	-9257
▁137	-9258
권자	-9259
▁교과서	-9260
▁121	-9261
▁인체	-9262
▁핸드	-9263
▁입원	-9264
▁생겨났	-9265
OL	-9266
조부	-9267
▁후궁	-9268
▁맥락	-9269
▁살아가	-9270
▁화장실	-9271
▁빨간색	-9272
▁구출	-9273
▁담겨	-9274
▁포럼	-9275
▁담긴	-9276
▁350	-9277
▁시어	-9278
▁제니	-9279
게이머	-9280
▁빠진	-9281
▁요동	-9282
▁이긴	-9283
▁확신	-9284
▁프로게이머	-9285
지붕	-9286
▁화해	-9287
ond	-9288
▁근원	-9289
▁전자기	-9290
았	-9291
▁갇	-9292
▁느껴	-9293
▁프랭	-9294
▁왕복	-9295
▁173	-9296
▁땃	-9297
▁여파	-9298
▁워터	-9299
▁신약	-9300
▁키우	-9301
▁왜곡	-9302
▁곡인	-9303
▁인문	-9304
ound	-9305
▁113	-9306
▁실체	-9307
▁탐색	-9308
ory	-9309
▁1894	-9310
▁날씨	-9311
▁태권	-9312
▁굉장히	-9313
펄	-9314
나미	-9315
▁드러났	-9316
▁일반인	-9317
▁CF	-9318
▁대의원	-9319
▁희생자	-9320
▁찾아볼	-9321
▁클라우드	-9322
▁크리스토퍼	-9323
▁경보	-9324
▁소원	-9325
▁바오로	-9326
▁테이프	-9327
▁제프	-9328
베니아	-9329
▁깨닫	-9330
▁방화	-9331
▁진급	-9332
▁가마쿠라	-9333
ov	-9334
▁개교	-9335
▁제재	-9336
▁지미	-9337
▁피오	-9338
▁가축	-9339
▁필리프	-9340
▁둥지	-9341
▁빌려	-9342
▁나눠	-9343
▁빈곤	-9344
▁통틀	-9345
▁협박	-9346
▁제대	-9347
▁거울	-9348
▁물려받	-9349
▁가장자리	-9350
▁왜냐하면	-9351
다지	-9352
▁마디	-9353
▁허위	-9354
▁몰아	-9355
▁법무부	-9356
큰	-9357
대기	-9358
▁대폭	-9359
▁지평	-9360
▁왔으며	-9361
▁슬로베니아	-9362
수소	-9363
▁겔	-9364
▁거쳤	-9365
라트	-9366
▁레온	-9367
▁미션	-9368
▁성별	-9369
▁물리치	-9370
▁핵무기	-9371
man	-9372
나스	-9373
▁몰래	-9374
▁이브	-9375
연합	-9376
▁적도	-9377
▁뒷면	-9378
끼리	-9379
▁리얼	-9380
그레이드	-9381
▁연합국	-9382
나리	-9383
▁캐시	-9384
▁문구	-9385
▁일가	-9386
▁코스타	-9387
▁몬스터	-9388
▁알제리	-9389
▁총독부	-9390
▁z	-9391
▁문예	-9392
▁스틸	-9393
iver	-9394
▁땄	-9395
▁공민	-9396
▁하동	-9397
▁업그레이드	-9398
▁be	-9399
▁브로드	-9400
▁기다	-9401
▁진공	-9402
아프리카	-9403
▁자연수	-9404
ᆺ불	-9405
▁맘	-9406
ᅳ레기	-9407
▁몰라	-9408
니시	-9409
▁일방	-9410
▁바티칸	-9411
▁".	-9412
마루	-9413
▁제인	-9414
퍼런스	-9415
▁일컬	-9416
단체	-9417
▁우호	-9418
▁승계	-9419
▁투옥	-9420
▁게스트	-9421
▁관음	-9422
▁마이크로	-9423
▁워크	-9424
▁주어지	-9425
▁먼지	-9426
▁농림	-9427
▁용병	-9428
▁시뮤	-9429
▁계정	-9430
▁횡단	-9431
뚝	-9432
규모	-9433
▁결함	-9434
대원군	-9435
▁On	-9436
박스	-9437
번스	-9438
▁다크	-9439
▁성도	-9440
▁포병	-9441
▁탤런트	-9442
킥	-9443
▁대피	-9444
▁수색	-9445
▁게이지	-9446
▁궁극	-9447
▁신시	-9448
▁믹	-9449
▁상표	-9450
▁양측	-9451
▁자오	-9452
▁을지	-9453
▁철회	-9454
▁최강	-9455
▁근로자	-9456
▁124	-9457
▁바우	-9458
▁World	-9459
▁뮈	-9460
▁카카	-9461
▁상해	-9462
▁치안	-9463
▁야마토	-9464
▁혈관	-9465
▁수용체	-9466
▁서민	-9467
▁극심	-9468
▁남서부	-9469
▁윤치호	-9470
MA	-9471
▁붐	-9472
▁판본	-9473
▁독일인	-9474
▁륙	-9475
▁맵	-9476
▁초록	-9477
▁군정	-9478
▁힘든	-9479
승부	-9480
▁가루	-9481
▁구해	-9482
▁해고	-9483
▁유년	-9484
▁붙인	-9485
놈	-9486
줄기	-9487
▁땃쥐	-9488
▁고고학	-9489
▁영산	-9490
▁멜로디	-9491
mer	-9492
▁만일	-9493
ich	-9494
셰비	-9495
▁1890	-9496
▁딕	-9497
▁요건	-9498
▁성문	-9499
▁CR	-9500
▁SU	-9501
▁스캔	-9502
▁양호	-9503
▁공백	-9504
▁김정일	-9505
▁New	-9506
▁뒤집	-9507
▁브리지	-9508
축구	-9509
▁러시	-9510
▁미루	-9511
▁내정	-9512
▁세속	-9513
▁기업인	-9514
▁데르	-9515
▁오라	-9516
▁쟈	-9517
▁114	-9518
▁미노	-9519
▁구절	-9520
▁모친	-9521
▁풍자	-9522
▁베니	-9523
▁커뮤니케이션	-9524
▁프랑크푸르트	-9525
뿔	-9526
▁벨리	-9527
▁도미니	-9528
▁칭찬	-9529
▁피츠	-9530
▁레일	-9531
▁보증	-9532
▁아랫	-9533
▁학계	-9534
▁원전	-9535
▁서초	-9536
▁공방	-9537
▁국내외	-9538
▁증손	-9539
▁자비	-9540
▁따른다	-9541
쑤	-9542
▁로우	-9543
▁대명	-9544
▁선비	-9545
▁일생	-9546
▁조부	-9547
▁구스타	-9548
타리오	-9549
▁자음	-9550
▁항쟁	-9551
펠	-9552
▁LC	-9553
ᆯ럿	-9554
▁욕구	-9555
▁팔리	-9556
▁오리콘	-9557
▁섀	-9558
▁그대	-9559
▁유저	-9560
▁크레이	-9561
쌍	-9562
▁발리	-9563
▁정주	-9564
▁김현	-9565
ial	-9566
▁고쳐	-9567
▁개종	-9568
▁김규	-9569
▁일리노	-9570
▁플라이	-9571
▁드라이버	-9572
▁램	-9573
▁우파	-9574
▁학명	-9575
▁곤란	-9576
▁라이온즈	-9577
있	-9578
▁Sc	-9579
▁그랜	-9580
▁자선	-9581
▁줄여서	-9582
▁118	-9583
▁그냥	-9584
▁최대한	-9585
▁일리노이	-9586
▁EC	-9587
▁슨	-9588
▁흔하	-9589
▁소규모	-9590
▁오프닝	-9591
▁디비시온	-9592
▁안토니오	-9593
ign	-9594
▁악단	-9595
▁종착	-9596
▁즉각	-9597
▁평정	-9598
▁기질	-9599
▁히어로즈	-9600
▁맑	-9601
▁체스	-9602
▁체조	-9603
▁스칼	-9604
▁프로덕	-9605
▁플래시	-9606
▁극장판	-9607
IP	-9608
▁서자	-9609
▁초월	-9610
▁파란색	-9611
▁들어간다	-9612
▁구와	-9613
▁배후	-9614
▁도청	-9615
▁돌격	-9616
▁어미	-9617
▁부딪	-9618
▁검찰청	-9619
▁과반	-9620
hn	-9621
하루	-9622
▁자택	-9623
톨레	-9624
▁예시	-9625
▁어긋	-9626
▁타당	-9627
▁시위대	-9628
▁들어온	-9629
황후	-9630
▁더니	-9631
▁관세	-9632
▁아벨	-9633
▁옵션	-9634
▁반지름	-9635
▁방사선	-9636
▁1898	-9637
스트ᄅ	-9638
▁미세	-9639
▁결코	-9640
▁만료	-9641
▁요정	-9642
▁우즈베	-9643
▁시정	-9644
▁파이널	-9645
저지	-9646
스테르	-9647
▁파인	-9648
▁냉전	-9649
▁미하일	-9650
▁깎	-9651
▁아즈	-9652
▁커널	-9653
▁봉안	-9654
▁크리스티안	-9655
▁경신	-9656
▁쿄	-9657
▁렉	-9658
▁미키	-9659
▁주부	-9660
▁감자	-9661
▁재상	-9662
▁SD	-9663
▁대부	-9664
▁남구	-9665
▁진사	-9666
버리	-9667
기념	-9668
함마	-9669
▁서진	-9670
▁이남	-9671
▁제압	-9672
▁블랙홀	-9673
▁심해	-9674
▁이준	-9675
▁모로코	-9676
▁괴물	-9677
▁용이	-9678
▁정세	-9679
▁지침	-9680
▁외야수	-9681
▁하르	-9682
▁희귀	-9683
▁트로이	-9684
▁레바논	-9685
▁웨스턴	-9686
▁챌린지	-9687
보르	-9688
▁115	-9689
▁케냐	-9690
▁알루미	-9691
▁범유행	-9692
▁로그	-9693
▁침투	-9694
▁태극	-9695
▁인명	-9696
▁카우	-9697
▁은데	-9698
▁GP	-9699
▁센티	-9700
▁나루	-9701
▁JT	-9702
히코	-9703
▁퍼지	-9704
▁순조	-9705
▁헬기	-9706
▁빔	-9707
▁지인	-9708
▁징계	-9709
▁뉴저지	-9710
▁계열사	-9711
▁통치자	-9712
▁경찰관	-9713
▁사위	-9714
▁조이	-9715
▁하비	-9716
▁극작	-9717
▁성리학	-9718
▁사상자	-9719
▁달한다	-9720
rom	-9721
▁맏	-9722
▁말씀	-9723
▁GS	-9724
▁129	-9725
▁그치	-9726
▁남미	-9727
▁선도	-9728
▁매니저	-9729
▁축출	-9730
지아	-9731
ᆯ리티	-9732
▁필사	-9733
▁캔자스	-9734
▁광해군	-9735
▁꿀	-9736
▁어렸	-9737
▁우측	-9738
▁분명히	-9739
▁무성	-9740
▁시가지	-9741
▁카스티	-9742
탐	-9743
▁코카	-9744
▁이끈	-9745
▁다스	-9746
▁아이디	-9747
▁소모	-9748
▁쾌속	-9749
▁마운트	-9750
▁승부차기	-9751
▁릿	-9752
▁비주	-9753
▁날아	-9754
▁본국	-9755
▁바스	-9756
▁반해	-9757
▁변이	-9758
▁가옥	-9759
▁나올	-9760
▁헐	-9761
▁대거	-9762
▁브뤼	-9763
블린	-9764
▁III	-9765
▁왕세	-9766
▁컷	-9767
▁글루	-9768
▁믹스	-9769
▁재혼	-9770
▁살펴보	-9771
방송공사	-9772
▁러셀	-9773
▁이어진	-9774
▁유라	-9775
▁취업	-9776
▁켈리	-9777
교도	-9778
벨트	-9779
조건	-9780
틀리	-9781
▁외모	-9782
▁기증	-9783
▁뉴턴	-9784
▁봉건	-9785
▁세이브	-9786
▁황족	-9787
▁호출	-9788
▁젊은이	-9789
▁첨단	-9790
▁의약품	-9791
▁키르	-9792
▁밝기	-9793
▁정변	-9794
ph	-9795
▁카디	-9796
▁맥도	-9797
▁승자	-9798
▁연승	-9799
▁Ne	-9800
▁지우	-9801
▁연이	-9802
▁원로원	-9803
▁예하	-9804
▁혜택	-9805
▁닦	-9806
천리	-9807
▁부피	-9808
▁아메	-9809
▁핑크	-9810
▁벽돌	-9811
▁학업	-9812
▁한족	-9813
▁퇴임	-9814
▁였음	-9815
▁조지프	-9816
▁폭넓	-9817
▁흔한	-9818
▁벨라루스	-9819
TS	-9820
▁`	-9821
▁오오	-9822
▁척추	-9823
▁숙청	-9824
▁어려워	-9825
▁월요일	-9826
▁쯔	-9827
리카	-9828
▁1899	-9829
▁가드	-9830
▁통보	-9831
▁중산	-9832
▁개막전	-9833
▁천문대	-9834
urn	-9835
얄	-9836
▁폭포	-9837
▁동정	-9838
▁발급	-9839
▁전년	-9840
개미	-9841
데오	-9842
▁142	-9843
ᅳ러미	-9844
▁내주	-9845
▁로비	-9846
▁매매	-9847
마이오스	-9848
바닥	-9849
▁리뷰	-9850
▁구할	-9851
▁웹툰	-9852
▁아폴로	-9853
▁레슬링	-9854
롤라이	-9855
▁밀집	-9856
▁비로소	-9857
▁컨셉	-9858
▁공감	-9859
▁퉁	-9860
▁정려	-9861
글러스	-9862
▁세이부	-9863
▁총사령	-9864
ction	-9865
쟁이	-9866
함수	-9867
▁무명	-9868
▁생체	-9869
▁회관	-9870
▁장례식	-9871
사리	-9872
▁축물	-9873
▁체코슬로	-9874
▁체코슬로바키아	-9875
▁프로덕션	-9876
▁토끼	-9877
▁힘써	-9878
▁총칭	-9879
▁무승부	-9880
▁청주시	-9881
▁더글러스	-9882
▁말미	-9883
▁브리튼	-9884
롤라이나	-9885
▁온타리오	-9886
▁CJ	-9887
치기	-9888
코딩	-9889
▁배수	-9890
▁이태	-9891
▁각도	-9892
▁관제	-9893
▁옹립	-9894
포로	-9895
▁무소	-9896
▁예조	-9897
▁기각	-9898
▁소생	-9899
▁적혀	-9900
테르부르크	-9901
브르	-9902
화물	-9903
▁워너	-9904
진군	-9905
▁마르티	-9906
▁임원	-9907
▁종속	-9908
▁이드	-9909
▁공조	-9910
▁뇌물	-9911
▁케임	-9912
▁토양	-9913
▁중형	-9914
▁연예인	-9915
▁광주광역시	-9916
▁ch	-9917
타니	-9918
▁어른	-9919
▁스즈키	-9920
▁대서양	-9921
▁우체	-9922
▁학기	-9923
▁콜린	-9924
▁닥	-9925
▁가야	-9926
▁부여받	-9927
▁뱅	-9928
▁하프	-9929
▁끼쳤	-9930
▁그레고	-9931
▁답변	-9932
ens	-9933
▁웬	-9934
▁콕	-9935
▁토미	-9936
▁케빈	-9937
▁발병	-9938
▁부의장	-9939
▁금요일	-9940
▁끌어들	-9941
▁알루미늄	-9942
▁ID	-9943
▁예고	-9944
▁둔다	-9945
▁설화	-9946
▁공천	-9947
▁룩셈	-9948
▁양반	-9949
▁구경	-9950
▁혼동	-9951
▁사이클	-9952
▁룩셈부르크	-9953
쓰마	-9954
먼스	-9955
▁사본	-9956
▁응시	-9957
▁도카이	-9958
pp	-9959
▁Man	-9960
▁벵	-9961
▁시코	-9962
▁체크	-9963
▁화력	-9964
▁아이오	-9965
▁직면	-9966
▁플라스틱	-9967
▁옳	-9968
▁대변인	-9969
▁광둥	-9970
미사	-9971
▁1902	-9972
함마드	-9973
▁전속	-9974
▁키보드	-9975
▁타임스	-9976
▁지옥	-9977
▁파산	-9978
▁극한	-9979
▁창출	-9980
▁연산자	-9981
lan	-9982
우트	-9983
▁커지	-9984
▁천재	-9985
▁만성	-9986
ᆺ값	-9987
▁얹	-9988
▁피겨	-9989
▁유방	-9990
▁재선	-9991
▁명종	-9992
럴드	-9993
▁하차	-9994
▁대손	-9995
▁프란츠	-9996
▁럼	-9997
▁헥	-9998
느러미	-9999
셰비키	-10000
▁화상	-10001
▁지로	-10002
▁독서	-10003
▁대성당	-10004
▁플랫폼	-10005
넣	-10006
▁코시	-10007
▁왼손	-10008
▁채소	-10009
▁거래소	-10010
▁남작	-10011
▁중공	-10012
▁블레이	-10013
타주	-10014
▁로라	-10015
▁세비	-10016
▁저주	-10017
▁시범	-10018
▁잘라	-10019
▁난징	-10020
▁아리아	-10021
▁셨	-10022
▁썬	-10023
파이어	-10024
▁병기	-10025
▁연꽃	-10026
▁스타리그	-10027
▁대치	-10028
▁불타	-10029
▁교통국	-10030
▁IM	-10031
▁기차	-10032
▁비석	-10033
▁수분	-10034
▁기사단	-10035
lic	-10036
▁발기	-10037
▁서신	-10038
▁힌두교	-10039
▁뒷받침	-10040
딸	-10041
▁따온	-10042
▁공적	-10043
꿈	-10044
▁''	-10045
▁체류	-10046
▁화자	-10047
▁동네	-10048
▁중복	-10049
▁기술자	-10050
▁대합	-10051
▁탄도	-10052
▁원종	-10053
덩이	-10054
▁채워	-10055
▁던져	-10056
▁실버	-10057
▁국영	-10058
▁그래미	-10059
▁신원	-10060
▁가벼운	-10061
▁바깥쪽	-10062
샤바	-10063
시즘	-10064
▁개소	-10065
▁느리	-10066
▁의자	-10067
▁잃어버	-10068
▁토착종	-10069
▁BS	-10070
▁기니	-10071
▁종래	-10072
▁가환	-10073
▁위쪽	-10074
▁소나무	-10075
▁실망	-10076
▁비행장	-10077
두리	-10078
국사	-10079
▁운수	-10080
▁걸렸	-10081
▁성폭	-10082
▁확실히	-10083
▁익스프레스	-10084
TC	-10085
▁고이	-10086
▁감마	-10087
▁그릇	-10088
▁군중	-10089
▁매ᄁ	-10090
▁캐서	-10091
▁촉매	-10092
TA	-10093
ary	-10094
포터	-10095
▁대패	-10096
▁보위	-10097
▁유진	-10098
▁포획	-10099
▁강변	-10100
튬	-10101
▁마녀	-10102
▁버드	-10103
▁영등	-10104
▁페르디난	-10105
트레	-10106
▁시가	-10107
▁피신	-10108
▁깃발	-10109
▁동학	-10110
▁아돌프	-10111
▁해밀턴	-10112
▁이관	-10113
▁생생	-10114
▁타지	-10115
▁영문	-10116
▁달ᄀ	-10117
▁소시	-10118
▁사슴	-10119
▁표적	-10120
▁간선	-10121
▁나노	-10122
▁유체	-10123
▁주조	-10124
▁정성	-10125
니까	-10126
▁가신	-10127
▁사간	-10128
▁아산	-10129
▁원천	-10130
▁블레	-10131
▁습지	-10132
▁하단	-10133
▁사이토	-10134
▁압둘	-10135
▁모나	-10136
▁테크노	-10137
▁포켓몬스터	-10138
▁김지	-10139
▁화강	-10140
▁강동	-10141
▁둥글	-10142
▁오피스	-10143
▁프톨레	-10144
▁호르몬	-10145
▁프톨레마이오스	-10146
▁지출	-10147
▁고양시	-10148
▁코믹스	-10149
▁다항식	-10150
▁매카트니	-10151
ach	-10152
▁부를	-10153
▁설교	-10154
▁단축	-10155
▁머무르	-10156
▁물품	-10157
구르	-10158
▁복용	-10159
▁생략	-10160
▁외관	-10161
▁스위치	-10162
▁함정	-10163
out	-10164
▁캘	-10165
▁1901	-10166
▁자크	-10167
▁희곡	-10168
▁정적	-10169
▁러시아어	-10170
▁지식인	-10171
ᆯ력	-10172
▁스폰	-10173
▁감행	-10174
▁광명	-10175
ert	-10176
▁No	-10177
▁안테	-10178
▁약자	-10179
▁드러머	-10180
▁이용자	-10181
▁경성부	-10182
▁밍	-10183
▁가까워	-10184
▁단절	-10185
▁보이스	-10186
▁본문	-10187
▁현은	-10188
아스	-10189
▁고아	-10190
짓점	-10191
▁광대	-10192
▁열도	-10193
▁참의	-10194
▁코끼리	-10195
▁몫	-10196
그룹	-10197
▁네스	-10198
▁하치	-10199
스트로	-10200
▁축조	-10201
▁꼭짓점	-10202
▁직결	-10203
▁컴백	-10204
▁울산광역시	-10205
▁호리	-10206
▁공리	-10207
▁동행	-10208
▁부회장	-10209
▁초신	-10210
▁어려서	-10211
▁례	-10212
▁어류	-10213
▁단의	-10214
▁염증	-10215
▁몰아내	-10216
LE	-10217
나우	-10218
▁쓰촨	-10219
▁선행	-10220
▁쌓았	-10221
▁폭격기	-10222
▁얽	-10223
▁코코	-10224
▁수확	-10225
▁퀘벡	-10226
▁알렉산드르	-10227
LS	-10228
▁체르	-10229
▁선배	-10230
▁제네바	-10231
▁부작용	-10232
▁MB	-10233
▁갈수록	-10234
모스	-10235
▁델라	-10236
▁서류	-10237
▁오크	-10238
▁슬리	-10239
▁권총	-10240
▁일으킬	-10241
▁대구광역시	-10242
디나	-10243
자르	-10244
카가	-10245
▁다마	-10246
▁의의	-10247
▁간토	-10248
▁고산	-10249
▁입성	-10250
IG	-10251
ys	-10252
▁이현	-10253
▁가역	-10254
▁나갈	-10255
▁체중	-10256
▁갱신	-10257
▁임관	-10258
▁정문	-10259
▁마력	-10260
▁}	-10261
▁134	-10262
▁들이	-10263
▁등기	-10264
▁자작	-10265
▁푸에르	-10266
ug	-10267
▁서문	-10268
▁광저우	-10269
▁삿포로	-10270
▁고추	-10271
▁리프	-10272
▁채우	-10273
흑	-10274
▁동이	-10275
▁요르단	-10276
▁당한다	-10277
▁제국주의	-10278
▁오쿠	-10279
노미야	-10280
▁성지	-10281
▁역량	-10282
▁간단히	-10283
▁토기	-10284
▁마스크	-10285
▁셸	-10286
▁두께	-10287
▁기숙	-10288
▁미륵	-10289
▁수축	-10290
▁이건	-10291
▁흐른	-10292
▁바이킹	-10293
ase	-10294
무스	-10295
▁조립	-10296
▁헬레	-10297
▁김창	-10298
▁독성	-10299
▁무함마드	-10300
정리	-10301
▁느꼈	-10302
▁스님	-10303
▁즐겨	-10304
▁사회당	-10305
▁아라비아	-10306
▁낫	-10307
▁노보	-10308
▁분수	-10309
▁블러	-10310
▁여운	-10311
베트남	-10312
▁모서리	-10313
▁손꼽	-10314
▁파이터	-10315
▁끊임없이	-10316
▁패했	-10317
▁상금	-10318
▁THE	-10319
▁1903	-10320
▁레즈	-10321
▁쥐과	-10322
▁무궁	-10323
▁연기자	-10324
▁케임브리지	-10325
▁김제	-10326
▁면제	-10327
▁이단	-10328
▁형조	-10329
▁엔딩	-10330
▁영국인	-10331
카타	-10332
트륨	-10333
▁차르	-10334
▁혐오	-10335
▁일산	-10336
▁헌신	-10337
▁신도비	-10338
▁점성술	-10339
파르	-10340
▁직경	-10341
타임	-10342
▁매수	-10343
▁부가	-10344
▁공명	-10345
▁트로피	-10346
▁알렉산드로	-10347
ᅰ어	-10348
▁조수	-10349
▁불꽃	-10350
▁서유럽	-10351
▁염색체	-10352
▁보헤	-10353
▁극대	-10354
▁섹스	-10355
▁패한	-10356
▁정동	-10357
▁이성계	-10358
▁옥스퍼드	-10359
▁All	-10360
▁1884	-10361
▁누적	-10362
▁크롬	-10363
레슬링	-10364
▁언어학	-10365
▁장기간	-10366
ke	-10367
대장	-10368
▁경과	-10369
▁남매	-10370
▁아시카가	-10371
▁일렉트로	-10372
▁AN	-10373
리나	-10374
처스	-10375
▁KIA	-10376
▁One	-10377
▁견디	-10378
▁민감	-10379
▁표기법	-10380
텍처	-10381
▁나란	-10382
▁원료	-10383
▁천하	-10384
▁그다지	-10385
▁아키텍처	-10386
▁EX	-10387
▁기르	-10388
▁미시시피	-10389
맛	-10390
▁공예	-10391
▁보복	-10392
▁주된	-10393
▁입국	-10394
▁Gr	-10395
미리	-10396
▁토시	-10397
▁사업가	-10398
▁홈구장	-10399
앉	-10400
▁보트	-10401
▁이겼	-10402
▁페널	-10403
끗	-10404
카미	-10405
▁토요	-10406
▁표방	-10407
▁검열	-10408
▁원본	-10409
▁청산	-10410
▁개화	-10411
▁명하	-10412
▁쓰레기	-10413
▁정립	-10414
▁관광지	-10415
▁잡혀	-10416
▁연봉	-10417
▁앤드루	-10418
▁아인슈타인	-10419
▁시네	-10420
▁차가	-10421
▁퇴역	-10422
▁쓰시마	-10423
▁특권	-10424
▁정해진	-10425
▁프로레슬링	-10426
▁마키	-10427
▁비뉴	-10428
▁날카	-10429
▁모은	-10430
▁색채	-10431
▁어둠	-10432
▁발렌시아	-10433
▁렘	-10434
▁제리	-10435
▁괴롭	-10436
▁따왔	-10437
▁셀레	-10438
▁올림	-10439
▁만주국	-10440
▁비타	-10441
▁히타	-10442
▁삼촌	-10443
▁입각	-10444
▁중령	-10445
▁복합체	-10446
▁콤팩트	-10447
▁울프	-10448
▁이병	-10449
▁정선	-10450
일으	-10451
▁교대	-10452
▁제치	-10453
▁태그	-10454
▁하리	-10455
▁동조	-10456
▁소말	-10457
▁불러일으	-10458
▁에콰	-10459
▁한테	-10460
▁강간	-10461
▁조반니	-10462
▁프란체	-10463
▁도요토미	-10464
▁에콰도르	-10465
▁박지	-10466
▁좌측	-10467
▁해남	-10468
이언트	-10469
▁전방	-10470
▁꼭대기	-10471
▁삼국지	-10472
▁야마구치	-10473
▁대문	-10474
피어	-10475
▁도널드	-10476
▁니콜라이	-10477
▁클라이언트	-10478
▁1800	-10479
▁로저	-10480
▁구형	-10481
▁용서	-10482
▁개인전	-10483
▁전염병	-10484
ree	-10485
마리	-10486
▁어뢰	-10487
▁유부	-10488
▁공고	-10489
▁패널	-10490
▁검출	-10491
▁무너지	-10492
▁흥선	-10493
글라데시	-10494
▁소행성	-10495
▁방글라데시	-10496
흘	-10497
▁Cl	-10498
펜하	-10499
▁마우	-10500
▁글래	-10501
▁소방서	-10502
▁패밀리	-10503
▁질소	-10504
▁들어갈	-10505
▁구스	-10506
▁대두	-10507
▁리만	-10508
▁정유	-10509
가와현	-10510
클레스	-10511
▁군함	-10512
▁달걀	-10513
▁선동	-10514
▁히로시	-10515
▁갈리아	-10516
▁복소수	-10517
▁돌보	-10518
▁슈팅	-10519
▁아리스토	-10520
간지	-10521
아웃	-10522
▁마르틴	-10523
히토	-10524
▁학대	-10525
▁가오	-10526
▁루타	-10527
▁갈래	-10528
▁선우	-10529
▁불신	-10530
▁뮤지션	-10531
▁IN	-10532
불교	-10533
▁경인	-10534
▁기념관	-10535
▁LA	-10536
▁뒤쪽	-10537
▁실무	-10538
▁염소	-10539
▁자형	-10540
▁코믹	-10541
▁단면	-10542
▁분출	-10543
▁방사성	-10544
그램	-10545
▁우치	-10546
▁철폐	-10547
고스	-10548
▁with	-10549
▁산출	-10550
▁스토어	-10551
▁장벽	-10552
▁팟	-10553
번뇌	-10554
▁불린	-10555
▁함선	-10556
방울	-10557
▁도선	-10558
▁실재	-10559
▁회상	-10560
▁기슭	-10561
▁발칸	-10562
▁오사카부	-10563
▁알렉산드리아	-10564
▁쑤	-10565
▁메커	-10566
▁농부	-10567
▁권장	-10568
▁드레스	-10569
▁기념비	-10570
11	-10571
act	-10572
▁세바	-10573
▁우물	-10574
▁곡물	-10575
▁궁중	-10576
▁헌정	-10577
▁비밀리	-10578
▁충청도	-10579
▁리조	-10580
▁세라	-10581
▁퇴적	-10582
▁뉴욕주	-10583
▁되돌아	-10584
▁그레이트	-10585
▁올라간다	-10586
▁당수	-10587
▁군산	-10588
▁김홍	-10589
▁창녕	-10590
▁현감	-10591
ass	-10592
하키	-10593
▁교량	-10594
▁수목	-10595
▁지녔	-10596
▁벌인	-10597
▁트리플	-10598
▁남동생	-10599
▁세키	-10600
산맥	-10601
▁울리	-10602
▁슬라브	-10603
▁북아프리카	-10604
▁준주	-10605
▁활주	-10606
▁경작	-10607
▁상경	-10608
▁소수자	-10609
▁전시회	-10610
▁Ad	-10611
가르	-10612
곡동	-10613
▁원더	-10614
▁관절	-10615
▁마르코	-10616
▁반공	-10617
▁기관총	-10618
pt	-10619
▁엇	-10620
▁러스	-10621
▁우회	-10622
▁지도부	-10623
구역	-10624
▁모모	-10625
▁부스	-10626
▁소자	-10627
▁살라	-10628
▁전구	-10629
▁인질	-10630
ᆯ른	-10631
▁가려	-10632
▁상응	-10633
▁전복	-10634
▁카사	-10635
▁취항	-10636
▁발령	-10637
▁분량	-10638
▁바실리	-10639
다고	-10640
개골	-10641
▁기분	-10642
▁가브리	-10643
▁새겨진	-10644
데리	-10645
▁116	-10646
▁효고	-10647
▁보성	-10648
▁세인	-10649
▁총대주교	-10650
▁메라	-10651
▁상가	-10652
▁거주지	-10653
▁견인	-10654
▁후작	-10655
▁교도소	-10656
▁다케다	-10657
▁데스크	-10658
▁신축	-10659
▁리더십	-10660
▁중앙아시아	-10661
▁강대	-10662
▁델타	-10663
▁이북	-10664
▁추첨	-10665
▁볼리비아	-10666
▁찐	-10667
▁1897	-10668
▁파병	-10669
땅	-10670
▁GO	-10671
부리	-10672
▁냄새	-10673
기념물	-10674
▁와일드	-10675
▁CN	-10676
ream	-10677
쿠버	-10678
▁브랜	-10679
▁이룬	-10680
▁전위	-10681
▁에디션	-10682
▁캐서린	-10683
▁륜	-10684
▁가산	-10685
▁조형	-10686
▁각색	-10687
▁주어진다	-10688
▁Br	-10689
▁220	-10690
역학	-10691
▁프론	-10692
▁교육청	-10693
▁노이	-10694
▁회피	-10695
사이드	-10696
▁까닭	-10697
▁막스	-10698
▁등용	-10699
▁반군	-10700
▁더욱이	-10701
▁버클리	-10702
▁터보	-10703
▁돌기	-10704
▁요약	-10705
▁부드러운	-10706
레인	-10707
▁모리스	-10708
▁안경	-10709
▁평창	-10710
▁스크립트	-10711
▁아미노산	-10712
▁1860	-10713
▁기저	-10714
▁서리	-10715
▁타케	-10716
▁절단	-10717
▁피고인	-10718
사우	-10719
▁휴가	-10720
▁밀란	-10721
▁포스터	-10722
▁당연히	-10723
▁취미	-10724
▁겐지	-10725
▁공황	-10726
▁마카오	-10727
▁맞붙	-10728
▁상법	-10729
▁일부분	-10730
▁자카	-10731
▁타우	-10732
▁하키	-10733
▁태백	-10734
▁석불	-10735
▁방송인	-10736
▁르노	-10737
▁장자	-10738
▁감안	-10739
▁싸워	-10740
▁쥐속	-10741
▁카타르	-10742
▁Ex	-10743
벤처	-10744
사업	-10745
▁사카이	-10746
▁메커니즘	-10747
▁어드벤처	-10748
▁Is	-10749
▁깨끗	-10750
▁물가	-10751
▁샌디	-10752
▁민간인	-10753
▁페이스북	-10754
▁뇨	-10755
파리	-10756
▁가열	-10757
▁그려진	-10758
▁가계	-10759
▁무로	-10760
▁정화	-10761
▁배우자	-10762
▁컨트리	-10763
▁스트라이크	-10764
도스	-10765
속기	-10766
▁마가	-10767
▁마애	-10768
▁다름	-10769
듐	-10770
▁가의	-10771
▁수료	-10772
▁이주하	-10773
▁알프레	-10774
쉽	-10775
▁패ᄅ	-10776
▁리히	-10777
▁시야	-10778
▁유닉스	-10779
캐롤라이나	-10780
▁일파	-10781
▁전산	-10782
▁진전	-10783
▁해진다	-10784
▁네오	-10785
▁의결	-10786
▁2022	-10787
▁루비	-10788
▁티코	-10789
▁모티브	-10790
▁음향	-10791
▁생겨나	-10792
▁연대기	-10793
텀	-10794
▁122	-10795
반구	-10796
▁라오	-10797
케이드	-10798
▁강희	-10799
▁대출	-10800
▁마당	-10801
▁사살	-10802
▁침체	-10803
▁건륭	-10804
▁낙동	-10805
▁바르샤바	-10806
▁경제학자	-10807
푸아	-10808
▁상고	-10809
▁콘테	-10810
▁공손	-10811
▁안산	-10812
▁확진	-10813
▁강남구	-10814
▁씌	-10815
▁온가	-10816
▁화순	-10817
▁동형	-10818
▁중공업	-10819
페르	-10820
벨라	-10821
▁아소	-10822
▁쿠니	-10823
▁모용	-10824
▁이반	-10825
▁미네소	-10826
▁북경	-10827
▁NGC	-10828
▁데카	-10829
▁선대	-10830
▁종파	-10831
▁어리	-10832
▁윤보	-10833
▁스퀘어	-10834
▁으려고	-10835
▁con	-10836
ᅳᆯ렸	-10837
▁농사	-10838
▁소행	-10839
▁입주	-10840
▁일자리	-10841
▁흥선대원군	-10842
콥터	-10843
▁급수	-10844
▁대관	-10845
▁효종	-10846
▁거짓말	-10847
▁구약	-10848
▁막시	-10849
▁시킴	-10850
▁저렴	-10851
▁클라크	-10852
토르	-10853
▁고토	-10854
▁민정	-10855
▁종점	-10856
▁마라톤	-10857
▁페널티	-10858
▁떡	-10859
▁장제	-10860
▁노태우	-10861
▁솔루션	-10862
▁;&	-10863
▁스ᄑ	-10864
▁호쿠	-10865
▁폭로	-10866
▁군청	-10867
▁짐작	-10868
▁청색	-10869
푸르	-10870
▁넘기	-10871
▁마블	-10872
▁봉해	-10873
▁접수	-10874
▁반전	-10875
▁천연기념물	-10876
▁마츠	-10877
▁피치	-10878
▁석회	-10879
▁체력	-10880
▁아마존	-10881
▁옥수수	-10882
트페	-10883
▁세네	-10884
▁파지	-10885
▁거처	-10886
▁사적	-10887
▁샌드	-10888
▁수중	-10889
▁상트페	-10890
▁설립자	-10891
▁아름답	-10892
▁엮	-10893
▁예명	-10894
▁가져오	-10895
▁BM	-10896
▁줘	-10897
▁앨리	-10898
▁용암	-10899
닛	-10900
기구	-10901
랑카	-10902
▁가가	-10903
▁추론	-10904
렉터	-10905
바른	-10906
▁야시	-10907
▁안치	-10908
▁프렌	-10909
▁중원	-10910
▁한층	-10911
▁공용어	-10912
▁1880	-10913
▁애리	-10914
▁무슨	-10915
▁빈도	-10916
▁함양	-10917
산성	-10918
▁벽화	-10919
▁일리	-10920
▁밝힌	-10921
▁그리스인	-10922
▁셜	-10923
▁싸이	-10924
▁이빨	-10925
▁갑옷	-10926
▁시켰으며	-10927
ii	-10928
▁133	-10929
▁거뒀	-10930
▁심화	-10931
▁이언	-10932
▁갤러리	-10933
▁진행자	-10934
▁법정동	-10935
네시	-10936
▁도사	-10937
▁스노	-10938
▁창의	-10939
▁집결	-10940
▁두개골	-10941
▁제작사	-10942
▁후반기	-10943
▁붙여진	-10944
ake	-10945
iss	-10946
own	-10947
▁유정	-10948
▁강철	-10949
▁일괄	-10950
▁극작가	-10951
즈마	-10952
▁버마	-10953
▁아나키	-10954
▁입양	-10955
▁전격	-10956
▁옮겨졌	-10957
니지	-10958
퍼슨	-10959
▁타협	-10960
▁번성	-10961
▁장원	-10962
▁장흥	-10963
▁펜싱	-10964
바야시	-10965
▁밀러	-10966
▁소령	-10967
▁진해	-10968
츠크	-10969
▁CBS	-10970
▁랍	-10971
▁니카	-10972
▁몽고	-10973
▁간신	-10974
▁정경	-10975
▁드미	-10976
자치시	-10977
▁헬륨	-10978
▁게릴라	-10979
▁패럴리	-10980
▁특별자치시	-10981
clude	-10982
▁무술	-10983
▁보강	-10984
▁이장	-10985
▁디트로	-10986
▁신동	-10987
▁왕정	-10988
▁키예프	-10989
▁파라과이	-10990
▁디트로이트	-10991
▁슬래	-10992
▁함부르크	-10993
로니	-10994
▁덮여	-10995
▁심야	-10996
▁올드	-10997
▁새로이	-10998
▁어로	-10999
▁다를	-11000
▁자생	-11001
▁이동하	-11002
▁Mus	-11003
▁수녀	-11004
▁시비	-11005
▁기성	-11006
▁농어	-11007
▁온대	-11008
▁실적	-11009
▁연못	-11010
▁크라이	-11011
▁나간다	-11012
▁인테르	-11013
▁초코	-11014
▁조인	-11015
▁쳐들	-11016
▁겉보기	-11017
▁나란히	-11018
▁가네	-11019
▁두꺼	-11020
▁다툼	-11021
▁약하	-11022
▁유령	-11023
▁자결	-11024
▁찰리	-11025
▁올림피	-11026
▁였으므로	-11027
어졌	-11028
▁호응	-11029
▁열린다	-11030
▁스리랑카	-11031
곰	-11032
▁이규	-11033
▁연동	-11034
▁뻔	-11035
▁청소	-11036
타마	-11037
▁따랐	-11038
▁신정	-11039
▁미생물	-11040
▁++	-11041
▁니콜	-11042
▁적군	-11043
▁평민	-11044
▁아래쪽	-11045
사관학교	-11046
HO	-11047
낼	-11048
▁아치	-11049
▁그림자	-11050
▁그레고리	-11051
▁그렇지만	-11052
▁애틀랜타	-11053
▁공약	-11054
▁문경	-11055
▁유대교	-11056
old	-11057
타케	-11058
▁도우	-11059
▁오락	-11060
▁위나라	-11061
▁합당	-11062
▁대성전	-11063
ᅪᆼ	-11064
▁GDP	-11065
위성	-11066
▁수심	-11067
▁진료	-11068
지리	-11069
▁더비	-11070
▁광양	-11071
UR	-11072
▁파우	-11073
▁빛나	-11074
▁제왕	-11075
▁지켰	-11076
▁무궁화	-11077
▁생긴다	-11078
흔	-11079
▁애칭	-11080
▁돌입	-11081
▁복권	-11082
▁종말	-11083
▁과실	-11084
▁지청	-11085
▁준결승전	-11086
▁유스	-11087
▁재해	-11088
▁추종	-11089
▁극락	-11090
▁등극	-11091
▁탁월	-11092
▁특색	-11093
▁베네딕	-11094
▁포도당	-11095
▁지방산	-11096
▁인디애나	-11097
▁넌	-11098
▁듀오	-11099
▁스로	-11100
▁조계	-11101
▁숙주	-11102
▁마다가	-11103
▁개항	-11104
▁진수	-11105
▁교육부	-11106
▁사무총장	-11107
▁132	-11108
▁이모	-11109
▁우상	-11110
▁경쟁력	-11111
▁시뮬레이션	-11112
Hz	-11113
따라	-11114
▁격자	-11115
▁살려	-11116
▁미주리	-11117
▁선장	-11118
미즈	-11119
▁위생	-11120
▁치른	-11121
ork	-11122
▁뾰	-11123
미스	-11124
멘스	-11125
▁결핍	-11126
▁정인	-11127
▁출석	-11128
버러	-11129
▁벡	-11130
원장	-11131
▁국유	-11132
▁수년	-11133
▁엘리트	-11134
▁패럴림픽	-11135
▁ES	-11136
▁or	-11137
▁pro	-11138
▁딜	-11139
▁리모	-11140
▁자르	-11141
▁재난	-11142
▁조병	-11143
▁반역	-11144
▁홍문관	-11145
▁확고	-11146
▁인프라	-11147
GA	-11148
▁NE	-11149
▁툰	-11150
▁주화	-11151
▁국수	-11152
▁극도	-11153
▁벨트	-11154
▁마르세	-11155
▁열심	-11156
▁그레고리오	-11157
ix	-11158
lo	-11159
거래	-11160
메르	-11161
▁감싸	-11162
▁마우스	-11163
▁글로브	-11164
▁붙여졌	-11165
리즘	-11166
▁원격	-11167
()	-11168
▁CEO	-11169
천사	-11170
▁카레	-11171
▁격차	-11172
▁닫힌	-11173
▁세워져	-11174
▁프랭클린	-11175
▁피로	-11176
▁마린	-11177
▁속편	-11178
▁대지진	-11179
ick	-11180
해튼	-11181
▁동요	-11182
▁을까	-11183
▁호족	-11184
▁김옥	-11185
CAF	-11186
세기	-11187
▁보로	-11188
▁초원	-11189
▁감동	-11190
메다	-11191
▁결제	-11192
▁빈번	-11193
▁둘러싸여	-11194
▁삼국사기	-11195
루냐	-11196
▁총무	-11197
▁타석	-11198
▁김민	-11199
▁요제프	-11200
▁낚	-11201
▁명분	-11202
▁우체국	-11203
▁Ro	-11204
▁리미	-11205
▁가볍	-11206
▁들려	-11207
▁복음서	-11208
▁스트라이커	-11209
ence	-11210
▁요법	-11211
▁현직	-11212
▁후속작	-11213
뜨렸	-11214
▁대국	-11215
▁황도	-11216
위원회	-11217
▁농산물	-11218
▁청자	-11219
▁상연	-11220
▁앞장	-11221
▁현황	-11222
▁보헤미아	-11223
▁kt	-11224
▁무스	-11225
▁워치	-11226
▁페로	-11227
헌영	-11228
▁베른	-11229
▁시종	-11230
▁된다면	-11231
▁동성애자	-11232
▁La	-11233
나오	-11234
으니	-11235
피언	-11236
▁미셸	-11237
▁온갖	-11238
▁단행본	-11239
▁PR	-11240
할시	-11241
▁시노	-11242
▁초고	-11243
변이	-11244
▁보라	-11245
▁호프	-11246
▁대각	-11247
▁세손	-11248
▁총기	-11249
▁신상	-11250
▁돌연변이	-11251
▁DM	-11252
▁To	-11253
다르	-11254
▁스ᄅ	-11255
▁카지	-11256
홀름	-11257
▁공파	-11258
▁속주	-11259
▁아닐	-11260
▁후진	-11261
▁창시자	-11262
테면	-11263
▁로리	-11264
▁왜구	-11265
▁카바	-11266
▁발각	-11267
▁현행	-11268
▁앨리스	-11269
▁이를테면	-11270
▁평안북도	-11271
뛰	-11272
운다	-11273
▁의과	-11274
브리아	-11275
▁듀얼	-11276
▁자세히	-11277
▁다람쥐	-11278
▁USS	-11279
▁숀	-11280
▁루크	-11281
▁해부	-11282
▁단과	-11283
▁이븐	-11284
▁만년	-11285
▁정관	-11286
▁지지율	-11287
▁활주로	-11288
▁짱	-11289
▁제너	-11290
ection	-11291
▁상기	-11292
▁무조건	-11293
▁Ph	-11294
▁공표	-11295
▁이득	-11296
▁볼셰비키	-11297
▁1885	-11298
▁하고	-11299
▁경시	-11300
▁재질	-11301
▁중앙부	-11302
▁청동기	-11303
▁타이베이	-11304
▁알래	-11305
▁테일	-11306
▁관동	-11307
▁말년	-11308
▁암흑	-11309
▁비주얼	-11310
▁통틀어	-11311
▁프랜시스	-11312
▁우즈베키스탄	-11313
▁Mar	-11314
▁NAS	-11315
▁1870	-11316
▁로페	-11317
▁주지	-11318
▁소울	-11319
▁앙고	-11320
▁저격	-11321
▁칼뱅	-11322
제이	-11323
▁장대	-11324
▁모터스	-11325
▁매거진	-11326
▁450	-11327
▁only	-11328
▁표창	-11329
▁합스부르크	-11330
미트	-11331
지오	-11332
▁아쿠	-11333
▁우아	-11334
▁대본	-11335
▁애리조	-11336
EM	-11337
랭	-11338
▁un	-11339
▁른	-11340
▁모인	-11341
▁서장	-11342
▁앞쪽	-11343
▁평안남도	-11344
파크	-11345
▁휴게	-11346
▁맹세	-11347
▁배속	-11348
▁국악	-11349
▁돌출	-11350
십자	-11351
▁카터	-11352
▁생계	-11353
▁세븐	-11354
▁수염	-11355
▁신종	-11356
▁꼽힌다	-11357
ear	-11358
▁낙하	-11359
▁감금	-11360
▁복식	-11361
▁아니하	-11362
▁로렌스	-11363
▁제조업	-11364
▁아이스하키	-11365
ild	-11366
lass	-11367
▁1871	-11368
▁동참	-11369
▁오클랜드	-11370
ance	-11371
▁호의	-11372
▁낮추	-11373
▁느낀	-11374
▁알래스카	-11375
▁1600	-11376
▁유러	-11377
▁파문	-11378
▁불행	-11379
▁소피아	-11380
▁빅토르	-11381
▁앤더슨	-11382
▁양성자	-11383
▁댓	-11384
▁아빠	-11385
▁봉수	-11386
▁입수	-11387
▁투항	-11388
▁중생	-11389
▁기병대	-11390
▁수원시	-11391
슬ᄅ	-11392
지기	-11393
▁카프	-11394
라이어	-11395
▁맷	-11396
▁시국	-11397
▁정국	-11398
▁파나마	-11399
▁프레이	-11400
▁예정자	-11401
▁유러피언	-11402
▁슛	-11403
공산	-11404
▁미들	-11405
▁아스널	-11406
테쓰	-11407
▁중서	-11408
▁내성	-11409
▁케이프	-11410
▁디렉터	-11411
▁센고쿠	-11412
▁올바른	-11413
▁윤보선	-11414
아나	-11415
지스	-11416
▁샬	-11417
▁1200	-11418
▁역도	-11419
▁성령	-11420
▁자란다	-11421
▁마다가스카르	-11422
ᆷ비	-11423
체고	-11424
ᅥᆨ스	-11425
▁계시	-11426
▁위스	-11427
체고비나	-11428
▁구니	-11429
▁요지	-11430
▁비늘	-11431
▁김병	-11432
▁양육	-11433
▁장단	-11434
▁청룡	-11435
▁대장군	-11436
▁일으킨다	-11437
▁SL	-11438
ᆨ션	-11439
▁앗	-11440
스텔	-11441
▁매직	-11442
▁흉노	-11443
코토	-11444
티시	-11445
▁맞대	-11446
▁하이드	-11447
▁GN	-11448
▁카니	-11449
▁해저	-11450
타이드	-11451
▁전날	-11452
ᅳ먼	-11453
▁리비	-11454
▁수다	-11455
▁유료	-11456
▁지오	-11457
▁내무부	-11458
▁탑신	-11459
▁vs	-11460
▁포고	-11461
▁서산	-11462
▁참사	-11463
▁240	-11464
▁루카	-11465
▁시애	-11466
▁화랑	-11467
▁중상	-11468
▁마닐라	-11469
▁클레이	-11470
▁마르크스주의	-11471
▁내면	-11472
▁생선	-11473
▁구마모토	-11474
▁부원군	-11475
▁잡아먹	-11476
▁편집자	-11477
삭스	-11478
▁줄여	-11479
▁출가	-11480
▁재외	-11481
▁김규식	-11482
▁맨해튼	-11483
▁AD	-11484
▁테라	-11485
천면	-11486
▁함자	-11487
▁해리슨	-11488
▁헛	-11489
▁교실	-11490
▁난이	-11491
▁알렉스	-11492
ans	-11493
irl	-11494
▁지쿠	-11495
▁케라	-11496
▁밸	-11497
▁자칭	-11498
▁조광	-11499
▁김정은	-11500
ᆼ궐	-11501
ivers	-11502
▁오로지	-11503
▁전단	-11504
관리	-11505
▁벤치	-11506
▁지성	-11507
▁경질	-11508
▁투르크	-11509
▁흔들	-11510
▁반란군	-11511
▁EBS	-11512
▁즘	-11513
▁부조	-11514
▁이완	-11515
▁능선	-11516
▁헬리콥터	-11517
OV	-11518
▁리터	-11519
include	-11520
▁친분	-11521
▁시애틀	-11522
▁기상청	-11523
▁오른손	-11524
▁동물원	-11525
▁박헌영	-11526
틱스	-11527
▁국보	-11528
▁글러	-11529
▁송도	-11530
▁다나카	-11531
ype	-11532
▁경희	-11533
▁이양	-11534
▁줄어	-11535
▁궁궐	-11536
▁활발히	-11537
▁쿡	-11538
ᅥᆯ링	-11539
▁고마	-11540
▁초빙	-11541
▁부드럽	-11542
▁역사가	-11543
잘	-11544
▁Sy	-11545
▁리바	-11546
▁휩ᄊ	-11547
▁끝났	-11548
▁남산	-11549
▁올랐으며	-11550
▁므	-11551
▁멍	-11552
▁모데	-11553
▁코리	-11554
▁관문	-11555
▁대대로	-11556
▁리조트	-11557
▁창문	-11558
▁대사헌	-11559
▁공민왕	-11560
▁오미	-11561
▁바디	-11562
▁이방	-11563
▁관행	-11564
▁":	-11565
드슨	-11566
▁다투	-11567
▁구청	-11568
▁레이크	-11569
▁서재필	-11570
▁성남시	-11571
ish	-11572
▁리보	-11573
▁카테	-11574
일랜드	-11575
▁선보이	-11576
▁시달리	-11577
▁재활	-11578
▁증인	-11579
▁왕세자	-11580
바나	-11581
▁고쿠	-11582
▁조례	-11583
테리아	-11584
▁감수	-11585
▁남해	-11586
▁제동	-11587
▁티켓	-11588
▁상급	-11589
▁크리스ᄐ	-11590
▁득표율	-11591
▁실험실	-11592
▁CM	-11593
▁무척	-11594
▁뾰족	-11595
▁시중	-11596
▁자치체	-11597
▁페트로	-11598
▁대합실	-11599
▁사각형	-11600
▁신문사	-11601
▁프로리그	-11602
히트	-11603
▁테리	-11604
▁수인	-11605
▁정제	-11606
▁화엄	-11607
▁몸통	-11608
▁반성	-11609
▁징병	-11610
▁프라하	-11611
▁하노이	-11612
▁루돌프	-11613
▁러시아인	-11614
▁NT	-11615
▁효자	-11616
▁원심	-11617
▁미군정	-11618
GM	-11619
무소	-11620
쩌둥	-11621
▁드루	-11622
▁려던	-11623
▁온다	-11624
▁총통	-11625
▁마오쩌둥	-11626
▁광도	-11627
▁분과	-11628
▁줄거리	-11629
▁동대문	-11630
▁모호	-11631
▁섬세	-11632
▁통역	-11633
▁@	-11634
▁ex	-11635
▁해리스	-11636
▁넘어갔	-11637
▁얕	-11638
▁화기	-11639
▁차용	-11640
▁허정	-11641
텔레스	-11642
▁통용	-11643
▁나우	-11644
▁시합	-11645
oun	-11646
▁개헌	-11647
▁민요	-11648
▁퇴장	-11649
▁안녕	-11650
▁솔로몬	-11651
어사	-11652
▁어ᄍ	-11653
원수	-11654
▁가늘	-11655
▁산호	-11656
▁카피	-11657
▁수양	-11658
▁괄	-11659
▁로버	-11660
▁남용	-11661
AF	-11662
▁sc	-11663
나드	-11664
▁시부	-11665
▁부각	-11666
▁주임	-11667
▁강풍	-11668
▁네이션스컵	-11669
셨	-11670
▁각성	-11671
▁아키라	-11672
▁약혼	-11673
▁칼럼	-11674
▁긴테쓰	-11675
OD	-11676
▁겁	-11677
▁메카	-11678
▁독도	-11679
▁씨앗	-11680
▁김원	-11681
▁로드리	-11682
▁연한	-11683
▁푸르	-11684
▁반하	-11685
▁어군	-11686
▁내야수	-11687
▁요시다	-11688
fe	-11689
▁뵈	-11690
▁수교	-11691
등식	-11692
▁문고	-11693
▁이룩	-11694
▁총애	-11695
▁하반	-11696
▁브루스	-11697
▁아키타	-11698
▁제퍼슨	-11699
▁분류군	-11700
▁예선전	-11701
▁아리스토텔레스	-11702
are	-11703
▁가소	-11704
▁메뉴	-11705
▁파도	-11706
▁천왕	-11707
▁클린턴	-11708
▁함경남도	-11709
들여	-11710
▁당내	-11711
▁검정	-11712
▁농경	-11713
▁칙령	-11714
▁올림피아	-11715
사상	-11716
▁배려	-11717
▁해져	-11718
정원	-11719
▁볼로	-11720
▁케인	-11721
▁스톡홀름	-11722
ical	-11723
▁독창	-11724
▁평형	-11725
▁비타민	-11726
▁아무것	-11727
으로	-11728
▁싣	-11729
▁바트	-11730
▁스가	-11731
▁경호	-11732
▁관청	-11733
▁동유럽	-11734
▁총사령관	-11735
TP	-11736
▁냐는	-11737
▁성실	-11738
▁내려졌	-11739
lat	-11740
라노	-11741
▁퍼스	-11742
▁보행	-11743
▁전래	-11744
▁포착	-11745
▁서대문	-11746
EG	-11747
▁MTV	-11748
컨대	-11749
▁볼프	-11750
▁Jo	-11751
창호	-11752
▁자치주	-11753
▁학설	-11754
▁뉴클레	-11755
▁친위대	-11756
돔	-11757
▁모의	-11758
▁페니	-11759
스토랑	-11760
▁알프스	-11761
▁레스토랑	-11762
▁개개	-11763
▁마차	-11764
▁하류	-11765
▁타스	-11766
▁제물	-11767
▁주입	-11768
▁는다면	-11769
▁선거법	-11770
▁컴퓨팅	-11771
▁묘비	-11772
통일	-11773
▁수필	-11774
▁바이트	-11775
▁마천루	-11776
▁보낸다	-11777
▁어려웠	-11778
암동	-11779
▁럭비	-11780
▁색소	-11781
▁펠로	-11782
▁일당	-11783
▁CH	-11784
▁구내	-11785
▁자제	-11786
▁메일	-11787
▁신발	-11788
▁퍼스트	-11789
▁도교	-11790
▁모어	-11791
▁처하	-11792
▁마셜	-11793
▁유혹	-11794
▁나타냈	-11795
IR	-11796
들이	-11797
▁모셔	-11798
▁원통	-11799
▁AV	-11800
문트	-11801
▁와라	-11802
▁전무	-11803
▁황소	-11804
▁개구리	-11805
▁만장	-11806
▁대원군	-11807
메스	-11808
▁ABC	-11809
군다	-11810
▁퍼포	-11811
▁수복	-11812
▁찬사	-11813
턱	-11814
▁마켓	-11815
▁웨인	-11816
▁욕망	-11817
▁유치원	-11818
▁브레이크	-11819
▁콘테스트	-11820
▁연극배우	-11821
▁매리	-11822
▁추이	-11823
▁포토	-11824
▁근사	-11825
▁분파	-11826
▁성화	-11827
▁천거	-11828
▁상행	-11829
▁쓰여진	-11830
▁퍼포먼스	-11831
▁헤르체고비나	-11832
▁북아일랜드	-11833
▁DD	-11834
▁장시	-11835
▁삼존	-11836
▁화강암	-11837
깐	-11838
대교	-11839
바흐	-11840
▁210	-11841
▁라서	-11842
▁리사	-11843
▁치과	-11844
신문	-11845
▁고든	-11846
▁소음	-11847
▁시몬	-11848
▁약사	-11849
▁포식	-11850
▁다저스	-11851
▁엄밀	-11852
▁용인시	-11853
▁pr	-11854
▁ATP	-11855
▁라자	-11856
▁방콕	-11857
▁불변	-11858
▁천국	-11859
▁피라미	-11860
▁합친	-11861
▁헬싱	-11862
▁오리온	-11863
▁케플러	-11864
▁알파벳	-11865
▁멧	-11866
글리	-11867
▁박종	-11868
▁실존	-11869
▁투자자	-11870
놀이	-11871
환경	-11872
▁마술	-11873
▁정거	-11874
▁스테파	-11875
▁톈진	-11876
▁지닌다	-11877
▁Ma	-11878
ᆯ리니	-11879
▁브르	-11880
▁파손	-11881
▁유아기	-11882
▁스폰서	-11883
▁주차장	-11884
▁올라갔	-11885
▁경전철	-11886
▁뉴클레오	-11887
▁넷째	-11888
▁벤처	-11889
▁강령	-11890
▁갑작ᄉ	-11891
티넘	-11892
▁비토	-11893
▁백두	-11894
▁튀르크	-11895
▁프린스	-11896
▁정부군	-11897
▁플래티넘	-11898
▁야전	-11899
▁폭파	-11900
▁목요일	-11901
▁피아니스트	-11902
▁Fr	-11903
▁엥	-11904
▁실권	-11905
▁특전	-11906
FL	-11907
▁he	-11908
매매	-11909
▁올ᄅ	-11910
▁센트	-11911
▁이렇	-11912
덴부르크	-11913
▁와이번스	-11914
ey	-11915
쁘	-11916
웬	-11917
▁마에	-11918
▁야드	-11919
▁봉화	-11920
▁선구자	-11921
▁유권자	-11922
▁플라톤	-11923
EL	-11924
카리	-11925
▁다테	-11926
▁도둑	-11927
▁리본	-11928
▁영유	-11929
▁아나토	-11930
▁경영자	-11931
60	-11932
ica	-11933
▁1889	-11934
▁스칸	-11935
▁슬하	-11936
▁중퇴	-11937
▁토스카	-11938
▁노론	-11939
▁이점	-11940
▁예수회	-11941
▁향했	-11942
▁나트륨	-11943
▁보수당	-11944
▁적외선	-11945
▁채취	-11946
난성	-11947
▁어쩔	-11948
▁차출	-11949
▁실정	-11950
▁전담	-11951
▁절망	-11952
▁쾰른	-11953
수스	-11954
▁구실	-11955
▁김유	-11956
▁밸리	-11957
▁국공	-11958
▁패트릭	-11959
▁샀	-11960
▁구두	-11961
▁사쿠	-11962
레이터	-11963
천동	-11964
▁마누엘	-11965
▁사방	-11966
▁신지	-11967
▁우림	-11968
▁연산군	-11969
면체	-11970
▁가맹	-11971
▁별세	-11972
▁선천	-11973
▁찬양	-11974
충류	-11975
▁메소	-11976
▁이의	-11977
▁주계	-11978
▁가락	-11979
▁퇴직	-11980
▁결별	-11981
▁스트라	-11982
▁때려	-11983
▁제노	-11984
▁하시	-11985
▁무실	-11986
▁아날	-11987
▁영정	-11988
▁스카우트	-11989
▁츄	-11990
▁CONCA	-11991
▁갈아	-11992
▁송신	-11993
▁즐길	-11994
사고	-11995
▁오디	-11996
▁호대	-11997
▁방치	-11998
▁본작	-11999
▁칸국	-12000
▁나타낸	-12001
▁위그	-12002
▁넘치	-12003
▁준수	-12004
▁실록	-12005
▁왕권	-12006
▁아름다움	-12007
▁베트	-12008
▁져서	-12009
▁소중	-12010
▁유선	-12011
▁중수	-12012
▁밴쿠버	-12013
▁아이폰	-12014
▁CONCACAF	-12015
테이너	-12016
▁국당	-12017
▁침묵	-12018
▁동시대	-12019
공산당	-12020
▁Live	-12021
▁의류	-12022
▁추리	-12023
▁펌프	-12024
▁본성	-12025
▁방어선	-12026
▁초신성	-12027
▁기세	-12028
▁투여	-12029
▁니혼	-12030
▁반포	-12031
▁요충	-12032
▁이송	-12033
▁산성	-12034
▁기관지	-12035
▁안테나	-12036
▁미수	-12037
위안	-12038
▁여권	-12039
▁화약	-12040
▁메이커	-12041
▁삼림	-12042
▁센티미터	-12043
▁So	-12044
▁JTBC	-12045
▁라리	-12046
▁어는	-12047
▁종자	-12048
▁그래도	-12049
▁메디치	-12050
▁정읍	-12051
▁정형	-12052
▁이뤄졌	-12053
▁For	-12054
▁소극	-12055
▁스텝	-12056
▁중합	-12057
▁엔트리	-12058
▁사서	-12059
▁동로	-12060
▁영예	-12061
▁의령	-12062
▁홀리	-12063
▁직통	-12064
▁유격수	-12065
▁딥	-12066
들러	-12067
소통	-12068
▁비야	-12069
▁호크	-12070
렉션	-12071
▁감찰	-12072
▁미야자키	-12073
bo	-12074
칼리	-12075
▁코네	-12076
▁겹쳐	-12077
▁벌여	-12078
▁슬픔	-12079
▁카카오	-12080
▁가져온	-12081
sh	-12082
▁오바마	-12083
▁종식	-12084
휴일	-12085
▁유목	-12086
▁불량	-12087
▁정종	-12088
▁가나가와현	-12089
▁고쳤	-12090
▁고속버스	-12091
▁가도	-12092
▁모금	-12093
▁무형	-12094
▁바꿨	-12095
▁은거	-12096
▁켈트	-12097
▁공존	-12098
▁연말	-12099
▁의사소통	-12100
▁카탈루냐	-12101
▁여유	-12102
▁트릭	-12103
밤	-12104
▁노면	-12105
▁취했	-12106
▁김형	-12107
▁당연	-12108
▁시네마	-12109
▁전전	-12110
▁힘썼	-12111
블랜드	-12112
EE	-12113
찮	-12114
하이오	-12115
▁대영	-12116
▁습윤	-12117
▁오하이오	-12118
▁백과	-12119
▁원군	-12120
▁형질	-12121
▁나카무라	-12122
▁자유민주당	-12123
IL	-12124
tern	-12125
▁Sou	-12126
▁피지	-12127
바이트	-12128
▁다윈	-12129
▁비엔	-12130
▁요격	-12131
▁치환	-12132
▁프란체스코	-12133
▁기와	-12134
▁이겨	-12135
▁죽인	-12136
▁타이거스	-12137
▁소말리아	-12138
▁int	-12139
▁러서	-12140
▁격리	-12141
▁리옹	-12142
▁사라진	-12143
▁찾아내	-12144
▁클리블랜드	-12145
▁GB	-12146
부로	-12147
▁지자	-12148
▁쿠퍼	-12149
▁김준	-12150
▁후지와라노	-12151
가미	-12152
▁끼치	-12153
▁베어	-12154
도르프	-12155
▁판례	-12156
▁강렬	-12157
▁미야기	-12158
▁연정	-12159
▁평평	-12160
대표	-12161
▁기이	-12162
▁처지	-12163
에미리	-12164
▁강해	-12165
▁서임	-12166
▁한미	-12167
▁작물	-12168
▁늙	-12169
▁불참	-12170
▁송출	-12171
에미리트	-12172
▁말미암	-12173
▁피라미드	-12174
▁아랍에미리트	-12175
ost	-12176
▁렐	-12177
▁모하	-12178
▁금산	-12179
▁열강	-12180
▁임정	-12181
▁레이싱	-12182
▁유니버설	-12183
부르	-12184
▁Com	-12185
캐슬	-12186
▁Time	-12187
▁대북	-12188
▁추력	-12189
▁틀리	-12190
▁감성	-12191
▁두려움	-12192
▁클라이	-12193
ood	-12194
▁AKB	-12195
▁사탕	-12196
▁징수	-12197
▁절정	-12198
▁로마인	-12199
▁발라드	-12200
▁똑같이	-12201
span	-12202
▁Col	-12203
▁여고	-12204
▁트렌	-12205
▁건전	-12206
▁여배우	-12207
▁생존자	-12208
대사	-12209
▁거미	-12210
▁후배	-12211
▁고딕	-12212
▁왕건	-12213
▁타이어	-12214
▁수락	-12215
▁감상	-12216
▁뛰어났	-12217
▁onlyinclude	-12218
클라	-12219
▁Part	-12220
▁리베	-12221
▁성곽	-12222
▁이즈미	-12223
▁TR	-12224
▁아케	-12225
▁나인	-12226
▁비준	-12227
▁사설	-12228
▁애정	-12229
▁리프트	-12230
자루	-12231
에몽	-12232
▁무네	-12233
▁에프	-12234
▁자서	-12235
ᅳ레이크	-12236
▁뉴캐슬	-12237
▁검은색	-12238
row	-12239
▁격추	-12240
▁극우	-12241
▁반기	-12242
▁샘플	-12243
▁집정	-12244
▁장학금	-12245
▁프랑스인	-12246
▁워커	-12247
▁커스	-12248
현동	-12249
▁하행	-12250
▁잠정	-12251
▁토리노	-12252
▁항만	-12253
▁부총리	-12254
▁열심히	-12255
▁EU	-12256
거스	-12257
망디	-12258
▁라르	-12259
▁바지	-12260
▁수로	-12261
네그로	-12262
▁댄서	-12263
▁볼트	-12264
▁교통부	-12265
▁공휴일	-12266
▁카스티야	-12267
▁낙동강	-12268
▁싼	-12269
지능	-12270
▁나아	-12271
▁카즈	-12272
▁라이더	-12273
▁한림	-12274
▁인공지능	-12275
▁해피	-12276
▁삼중	-12277
▁튀니지	-12278
▁대승불교	-12279
lay	-12280
펑	-12281
▁"&	-12282
▁매킨	-12283
▁올레	-12284
▁유식	-12285
▁간첩	-12286
▁1848	-12287
▁해태	-12288
▁우한	-12289
▁재팬	-12290
▁레이더	-12291
▁마이어	-12292
▁컨트롤	-12293
▁호스	-12294
정동	-12295
▁로얄	-12296
▁사역	-12297
▁남군	-12298
▁문집	-12299
애미	-12300
▁무과	-12301
마르크	-12302
▁레이트	-12303
▁마이애미	-12304
▁일본국	-12305
▁예약	-12306
▁진로	-12307
▁김명	-12308
▁음절	-12309
uc	-12310
ows	-12311
olog	-12312
▁더러	-12313
▁카토	-12314
▁모색	-12315
▁무안	-12316
▁오만	-12317
▁해독	-12318
ous	-12319
의사	-12320
클로	-12321
▁다치	-12322
▁랴오	-12323
▁유희	-12324
▁추억	-12325
프랑크	-12326
▁다이어	-12327
▁여의도	-12328
▁그저	-12329
▁모라	-12330
▁유의	-12331
▁파란	-12332
프라인	-12333
▁절벽	-12334
▁기숙사	-12335
스령	-12336
▁도피	-12337
파니아	-12338
▁공소	-12339
▁순종	-12340
▁종군	-12341
▁정거장	-12342
▁프랑스령	-12343
뒤	-12344
파일	-12345
풀이	-12346
▁비추	-12347
▁공대	-12348
▁마땅	-12349
해살이	-12350
▁클라우	-12351
▁광복군	-12352
▁병자	-12353
▁비정	-12354
▁한중	-12355
▁법원장	-12356
▁EM	-12357
▁API	-12358
▁서태	-12359
▁치카	-12360
▁토트	-12361
▁보령	-12362
▁제명	-12363
▁클러	-12364
▁김광	-12365
▁시코쿠	-12366
▁시멘트	-12367
▁정의당	-12368
지부	-12369
란토	-12370
화문	-12371
▁우루스	-12372
▁어긋나	-12373
▁국제법	-12374
▁줄기세포	-12375
로프	-12376
▁도래	-12377
▁로키	-12378
▁목회	-12379
▁부평	-12380
▁사민	-12381
▁포털	-12382
▁맞춘	-12383
▁에이즈	-12384
▁깜	-12385
▁류큐	-12386
▁어찌	-12387
▁다스ᄅ	-12388
▁악보	-12389
▁재일	-12390
▁천주	-12391
▁인칭	-12392
▁그랜트	-12393
▁Bla	-12394
▁여사	-12395
▁쿠비	-12396
▁꼽히	-12397
▁전보	-12398
▁굴절	-12399
▁정치학	-12400
OP	-12401
▁무찌	-12402
▁제위	-12403
▁정작	-12404
▁마법사	-12405
▁at	-12406
워서	-12407
▁챙	-12408
▁거란	-12409
▁경복	-12410
▁산둥	-12411
▁지상파	-12412
▁카메룬	-12413
az	-12414
눌	-12415
▁내걸	-12416
▁익숙	-12417
▁황색	-12418
▁졌으나	-12419
▁관현악단	-12420
말로	-12421
ᅳ모토	-12422
▁교의	-12423
▁금호	-12424
▁느린	-12425
▁모건	-12426
▁글꼴	-12427
▁드디어	-12428
▁저지대	-12429
▁고인돌	-12430
젤로	-12431
▁가쿠	-12432
메이카	-12433
▁명소	-12434
▁하노버	-12435
▁자메이카	-12436
▁비대	-12437
페스트	-12438
▁선명	-12439
▁종양	-12440
▁대니얼	-12441
ann	-12442
▁131	-12443
디언	-12444
▁리카	-12445
▁시그	-12446
▁걸어	-12447
▁미친	-12448
▁특화	-12449
▁합치	-12450
▁대나무	-12451
▁문단	-12452
▁지배자	-12453
▁탄약	-12454
▁커서	-12455
▁케르	-12456
▁귀신	-12457
▁급여	-12458
▁모욕	-12459
▁바뀐	-12460
▁항체	-12461
▁공성	-12462
▁국한	-12463
▁u	-12464
서스	-12465
▁녕	-12466
▁홉	-12467
▁Your	-12468
▁하코	-12469
▁업자	-12470
▁안방	-12471
▁양심	-12472
▁안개	-12473
▁총격	-12474
▁드러냈	-12475
▁제이슨	-12476
▁놀라운	-12477
orn	-12478
▁NASA	-12479
▁고로	-12480
▁숙부	-12481
▁안나	-12482
▁적료	-12483
▁BC	-12484
▁곶	-12485
▁다우	-12486
▁대마	-12487
▁워즈	-12488
▁사림	-12489
▁김인	-12490
▁SNS	-12491
▁캅	-12492
▁바꿀	-12493
▁대리인	-12494
▁누렸	-12495
▁위너스	-12496
▁접한	-12497
▁명확히	-12498
ᅳᆯ루	-12499
▁OST	-12500
▁욱	-12501
▁지석	-12502
▁탄자	-12503
▁동산	-12504
▁용액	-12505
▁이뤄지	-12506
▁제우스	-12507
▁줄리아	-12508
▁1883	-12509
▁유우	-12510
▁가혹	-12511
▁방대	-12512
▁쌍대	-12513
▁아이즈	-12514
▁텍사스주	-12515
히사	-12516
▁계주	-12517
▁기해	-12518
른스트	-12519
▁공영	-12520
▁단결	-12521
▁간신히	-12522
▁ref	-12523
▁사수	-12524
▁연희	-12525
▁남방	-12526
▁연립	-12527
플라	-12528
추부사	-12529
▁시켜서	-12530
▁에스페	-12531
▁고분군	-12532
▁보수주의	-12533
80	-12534
시노	-12535
▁유공	-12536
▁재편	-12537
▁판소리	-12538
워하	-12539
▁가우	-12540
▁서귀	-12541
▁수식	-12542
▁하남	-12543
▁혼다	-12544
▁신곡	-12545
▁레드삭스	-12546
스기	-12547
▁삽화	-12548
▁점포	-12549
▁바그너	-12550
▁설문	-12551
▁훙	-12552
▁거세	-12553
▁니키	-12554
▁동진	-12555
▁응급	-12556
▁팔렸	-12557
▁프로그래머	-12558
▁코소	-12559
▁피리	-12560
▁병마	-12561
▁간략	-12562
▁관상	-12563
▁선봉	-12564
▁속력	-12565
▁패러디	-12566
▁형벌	-12567
ern	-12568
▁대좌	-12569
▁라바	-12570
▁야외	-12571
▁얼ᄅ	-12572
▁뛰어들	-12573
▁에이전	-12574
▁방사능	-12575
▁야마가타	-12576
▁tv	-12577
▁든다	-12578
▁우산	-12579
테이션	-12580
▁골격	-12581
▁온난	-12582
▁중엽	-12583
▁토마토	-12584
▁한신	-12585
▁해상도	-12586
▁영화상	-12587
▁Wind	-12588
▁메스	-12589
▁모세	-12590
▁파비	-12591
▁산요	-12592
▁쿠빌라이	-12593
맥스	-12594
▁쓰루	-12595
▁검거	-12596
▁무작	-12597
▁부상자	-12598
유예	-12599
▁기전	-12600
▁모범	-12601
▁자명	-12602
▁함량	-12603
▁만화가	-12604
▁지법	-12605
▁시켜야	-12606
▁쳐들어	-12607
스테르담	-12608
▁어시스트	-12609
▁부다	-12610
▁바쳤	-12611
▁평지	-12612
▁열전	-12613
▁정보원	-12614
▁해안선	-12615
▁1882	-12616
▁이바	-12617
▁녹화	-12618
▁다듬	-12619
▁식스	-12620
▁요절	-12621
▁위구르	-12622
▁파일럿	-12623
▁거성	-12624
▁고흥	-12625
▁도박	-12626
▁북군	-12627
▁RP	-12628
▁Day	-12629
센스	-12630
▁개그	-12631
▁간사	-12632
▁봉인	-12633
▁스칼라	-12634
▁연구회	-12635
▁이용객	-12636
▁교향악단	-12637
거지	-12638
ᅢᆼ이	-12639
버른	-12640
▁스루	-12641
▁내보내	-12642
▁성동	-12643
▁원산지	-12644
▁그라운드	-12645
40	-12646
CC	-12647
ink	-12648
햄	-12649
▁FK	-12650
▁봇	-12651
▁섰	-12652
제품	-12653
▁이류	-12654
합성	-12655
▁담보	-12656
▁덮개	-12657
▁부합	-12658
▁달라지	-12659
▁슈퍼컵	-12660
엠	-12661
▁가타	-12662
▁도키	-12663
▁리즈	-12664
▁이터	-12665
▁카마	-12666
▁평판	-12667
▁대단히	-12668
▁Ge	-12669
▁RS	-12670
관계	-12671
▁너머	-12672
▁월터	-12673
▁단군	-12674
▁노르망디	-12675
드릭	-12676
▁타리	-12677
▁사영	-12678
▁아목	-12679
나마	-12680
▁고노	-12681
▁도네	-12682
▁리마	-12683
▁우시	-12684
▁유서	-12685
▁공무	-12686
▁세습	-12687
▁항우	-12688
▁가져다	-12689
▁아이언	-12690
▁GM	-12691
포시	-12692
교통	-12693
▁가고	-12694
▁최진	-12695
▁단체전	-12696
▁조교	-12697
▁밀레	-12698
▁유생	-12699
▁은혜	-12700
▁관악	-12701
▁올리브	-12702
▁통신사	-12703
▁가중	-12704
▁체인지	-12705
▁시즈오카	-12706
II	-12707
▁Sch	-12708
즐리	-12709
▁제천	-12710
▁맞춤	-12711
▁묻혔	-12712
▁절감	-12713
▁편견	-12714
▁미스터리	-12715
서니	-12716
에고	-12717
▁몰타	-12718
▁관목	-12719
▁딜런	-12720
▁상록	-12721
▁해운대	-12722
▁브루클린	-12723
▁뒤이	-12724
▁헤로	-12725
오르크	-12726
▁내일	-12727
▁부왕	-12728
▁송파	-12729
▁데니스	-12730
▁친족	-12731
▁지붕돌	-12732
▁잃어버린	-12733
▁중소기업	-12734
워스	-12735
ᆯ룰	-12736
돌이	-12737
▁루키	-12738
▁새우	-12739
▁카세	-12740
▁경위	-12741
▁관례	-12742
▁정월	-12743
▁직속	-12744
▁파푸아	-12745
▁항원	-12746
▁아날로그	-12747
ᆯ릿	-12748
▁약해	-12749
▁강당	-12750
▁제갈량	-12751
여객	-12752
▁상어	-12753
▁최선	-12754
▁타락	-12755
▁휴게소	-12756
▁new	-12757
▁산시	-12758
▁최영	-12759
▁달랐	-12760
▁콘솔	-12761
▁미토콘	-12762
▁공화정	-12763
▁노벨상	-12764
▁달아났	-12765
▁미토콘드리아	-12766
▁기량	-12767
▁수열	-12768
▁씨족	-12769
▁정은	-12770
▁수위	-12771
▁받들	-12772
▁호스트	-12773
▁사업소	-12774
▁군데	-12775
▁지극	-12776
▁대표자	-12777
▁비서관	-12778
▁필립스	-12779
▁쩐	-12780
▁세요	-12781
▁꿈꾸	-12782
▁낚시	-12783
▁양보	-12784
▁단속	-12785
▁발상	-12786
▁진한	-12787
▁테네시	-12788
▁협업	-12789
▁떨어진다	-12790
▁SA	-12791
▁라기	-12792
▁소외	-12793
▁자수	-12794
▁재래	-12795
▁고생	-12796
▁국외	-12797
▁파벌	-12798
▁학력	-12799
▁대법관	-12800
▁330	-12801
▁사비	-12802
▁외치	-12803
▁위로	-12804
▁산스	-12805
▁요양	-12806
▁조셉	-12807
▁왕궁	-12808
▁정정	-12809
▁치러졌	-12810
본부	-12811
▁라미	-12812
▁카트	-12813
융합	-12814
▁빙하	-12815
클리드	-12816
▁권역	-12817
▁유클리드	-12818
뚜	-12819
엇	-12820
어내	-12821
치히	-12822
▁쉴	-12823
▁과테	-12824
▁노라	-12825
▁티아	-12826
▁배달	-12827
▁주선	-12828
▁번창	-12829
▁베이커	-12830
▁실증	-12831
▁경주시	-12832
▁멜버른	-12833
▁생겨난	-12834
▁과테말라	-12835
▁컨테이너	-12836
빗	-12837
▁라디	-12838
▁어파	-12839
▁외래	-12840
네이루	-12841
▁시안	-12842
▁주창	-12843
▁안티오	-12844
▁예컨대	-12845
▁사이타마	-12846
OT	-12847
▁제단	-12848
▁넬슨	-12849
▁아브라	-12850
▁연장전	-12851
딱	-12852
바리	-12853
▁배리	-12854
▁타수	-12855
▁급증	-12856
▁단말	-12857
▁단정	-12858
▁영덕	-12859
▁산티아	-12860
▁앙골라	-12861
▁핵융합	-12862
▁관계없이	-12863
팡이	-12864
▁나간	-12865
▁엔드	-12866
▁피핀	-12867
▁주계열	-12868
▁위조	-12869
▁태후	-12870
▁서면	-12871
▁스타트	-12872
▁걸쳐서	-12873
▁전반기	-12874
▁메릴랜드	-12875
US	-12876
도라	-12877
▁1868	-12878
▁4000	-12879
티모어	-12880
▁동적	-12881
▁북유럽	-12882
▁Or	-12883
▁샨	-12884
▁Girl	-12885
▁보루	-12886
▁영원히	-12887
▁선진국	-12888
▁컨트롤러	-12889
용차	-12890
▁고의	-12891
▁사치	-12892
▁조슈	-12893
▁국교	-12894
▁엔리	-12895
▁할인	-12896
▁colspan	-12897
▁알아보	-12898
▁몬테네그로	-12899
▁지르	-12900
▁회귀	-12901
▁배분	-12902
▁종영	-12903
▁OB	-12904
우에	-12905
▁까마	-12906
▁버터	-12907
▁부파	-12908
▁느낄	-12909
▁성원	-12910
▁만난다	-12911
▁가브리엘	-12912
에스	-12913
▁대도	-12914
▁바니	-12915
▁놓인	-12916
▁충렬	-12917
▁신주쿠	-12918
▁기념일	-12919
▁스캔들	-12920
▁헤어	-12921
▁후예	-12922
▁결사	-12923
▁랭크	-12924
▁새긴	-12925
▁영암	-12926
▁독수리	-12927
▁흐른다	-12928
▁노사	-12929
▁아유	-12930
▁세련	-12931
▁청도	-12932
oll	-12933
나갔	-12934
▁남하	-12935
▁맡기	-12936
▁천수	-12937
▁부르주	-12938
▁잠깐	-12939
▁요충지	-12940
쭉	-12941
▁end	-12942
▁오아	-12943
▁추서	-12944
플링	-12945
▁항로	-12946
▁신입	-12947
▁콜럼	-12948
스탄불	-12949
▁효고현	-12950
▁김옥균	-12951
▁이스탄불	-12952
췄	-12953
▁부교	-12954
▁발동	-12955
▁식용	-12956
▁이바지	-12957
▁일각	-12958
펜하겐	-12959
▁코펜하겐	-12960
▁냥	-12961
▁띤	-12962
▁타로	-12963
▁우왕	-12964
▁족보	-12965
▁차선	-12966
▁표정	-12967
▁비해서	-12968
▁영월	-12969
▁수요일	-12970
▁프랜차	-12971
껏	-12972
▁320	-12973
▁보름	-12974
▁앵글	-12975
▁오일러	-12976
▁중공군	-12977
데라	-12978
▁여도	-12979
▁농지	-12980
▁대청	-12981
▁염려	-12982
▁떠오르	-12983
▁정령	-12984
▁커리어	-12985
▁어울리	-12986
▁폐기물	-12987
▁프란시스코	-12988
▁괌	-12989
▁가무	-12990
▁고트	-12991
▁해치	-12992
웨이트	-12993
▁규탄	-12994
▁오스틴	-12995
gin	-12996
릿	-12997
▁by	-12998
히드	-12999
▁슌	-13000
▁샤프	-13001
▁동포	-13002
▁로마자	-13003
▁성산	-13004
▁옮긴	-13005
협회	-13006
▁나빠	-13007
▁소아	-13008
▁양수	-13009
▁위촉	-13010
▁초안	-13011
▁카툰	-13012
▁히브리	-13013
▁베르나르	-13014
▁야마모토	-13015
호란	-13016
▁하의	-13017
▁바꾼	-13018
▁사학	-13019
▁군벌	-13020
▁법관	-13021
▁상국	-13022
▁종신	-13023
▁파시즘	-13024
▁군사력	-13025
ᆷ스	-13026
라기	-13027
▁외과	-13028
▁자재	-13029
토리코	-13030
▁사천	-13031
▁장덕	-13032
▁대상자	-13033
▁아케이드	-13034
니파	-13035
▁키워	-13036
▁이항	-13037
▁내세우	-13038
▁형편	-13039
▁헤이안	-13040
▁프랜차이즈	-13041
▁사운드트랙	-13042
바오	-13043
계승	-13044
▁카네	-13045
▁대덕	-13046
▁전수	-13047
▁축산	-13048
▁사이먼	-13049
▁게오르크	-13050
▁암스테르담	-13051
amp	-13052
▁치하	-13053
▁외형	-13054
▁어웨이	-13055
▁은신	-13056
▁준장	-13057
▁급속히	-13058
▁사회민주당	-13059
공주	-13060
▁러일	-13061
▁사안	-13062
▁문종	-13063
▁증폭	-13064
▁라인업	-13065
▁코스타리카	-13066
흙	-13067
꼬리	-13068
▁저조	-13069
▁타일	-13070
▁범행	-13071
▁앞선	-13072
▁자서전	-13073
▁요하네스	-13074
▁산티아고	-13075
RT	-13076
란다	-13077
▁마요	-13078
▁교직	-13079
▁우월	-13080
디나비아	-13081
▁시트콤	-13082
▁니콜라스	-13083
▁스칸디나비아	-13084
▁DF	-13085
내리	-13086
다운	-13087
▁절제	-13088
▁장병	-13089
▁브뤼셀	-13090
▁서해안	-13091
▁우의정	-13092
▁흩어져	-13093
▁푸에르토리코	-13094
걸이	-13095
▁대인	-13096
▁청계	-13097
▁컨설	-13098
▁헌장	-13099
▁에른스트	-13100
북구	-13101
▁노아	-13102
▁노후	-13103
▁수려	-13104
▁도상	-13105
▁접어들	-13106
▁천안시	-13107
▁조영	-13108
▁성악	-13109
▁쿠웨이트	-13110
이크	-13111
셀러	-13112
▁내무	-13113
▁무서	-13114
▁호아	-13115
▁전세	-13116
▁너무나	-13117
▁영천	-13118
▁정반	-13119
▁직행	-13120
▁위안부	-13121
▁유학자	-13122
깃	-13123
▁203	-13124
▁찢	-13125
▁1893	-13126
▁프루	-13127
▁게끔	-13128
▁고온	-13129
▁램프	-13130
▁리튬	-13131
▁위함	-13132
▁정몽	-13133
▁좌의정	-13134
▁법조인	-13135
▁루이지애나	-13136
OW	-13137
▁Fe	-13138
▁거지	-13139
▁리코	-13140
▁아디	-13141
▁끝날	-13142
▁복종	-13143
▁았었	-13144
▁텔레콤	-13145
gr	-13146
▁le	-13147
▁네티	-13148
▁로크	-13149
▁에마	-13150
▁피드	-13151
▁하구	-13152
▁내분	-13153
▁주성	-13154
▁퍼즐	-13155
▁피할	-13156
▁압록	-13157
▁축전	-13158
▁출동	-13159
▁포르노	-13160
▁나타날	-13161
▁발전기	-13162
▁복음주의	-13163
게스	-13164
▁옐	-13165
▁기뻐	-13166
▁조제	-13167
▁불어	-13168
▁결핵	-13169
▁무실점	-13170
LA	-13171
▁늪	-13172
▁마테	-13173
▁슈테	-13174
▁피우	-13175
▁관우	-13176
▁천마	-13177
▁폐렴	-13178
▁해왕	-13179
▁서사시	-13180
▁장로교	-13181
▁프란치	-13182
▁탄자니아	-13183
▁배드	-13184
▁치유	-13185
▁김치	-13186
▁위력	-13187
▁이황	-13188
▁함경북도	-13189
ung	-13190
츰	-13191
▁니케	-13192
▁에로	-13193
▁하타	-13194
▁순차	-13195
▁양대	-13196
▁측량	-13197
▁교육자	-13198
▁가고시마	-13199
▁Mo	-13200
▁렛	-13201
▁부어	-13202
▁서주	-13203
▁출자	-13204
▁공안	-13205
▁금동	-13206
▁능동	-13207
▁접종	-13208
▁칭송	-13209
▁학장	-13210
▁리믹스	-13211
▁해안가	-13212
▁펠릭스	-13213
▁LED	-13214
▁생리	-13215
▁심포	-13216
▁척도	-13217
▁김윤	-13218
▁비스타	-13219
▁함흥	-13220
▁가솔린	-13221
▁이탈리아어	-13222
봐	-13223
▁놈	-13224
▁스투	-13225
▁후유	-13226
▁분사	-13227
▁정재	-13228
▁증오	-13229
▁한큐	-13230
▁도자기	-13231
▁유적지	-13232
▁NP	-13233
▁톡	-13234
▁빨라	-13235
▁동향	-13236
▁로베르	-13237
▁부르고	-13238
▁습관	-13239
▁윗부분	-13240
▁IOC	-13241
▁안무	-13242
▁충무	-13243
▁헌터	-13244
▁국철	-13245
▁김선	-13246
▁도야마	-13247
▁선인	-13248
▁아라곤	-13249
▁여성주의	-13250
les	-13251
▁Rock	-13252
▁레프	-13253
▁조니	-13254
▁노랑	-13255
▁온화	-13256
▁바이어	-13257
▁전학	-13258
▁칼슘	-13259
▁불계승	-13260
▁후쿠오카현	-13261
상시	-13262
화학	-13263
▁Comp	-13264
▁꾀하	-13265
▁키리	-13266
▁각료	-13267
▁객차	-13268
▁문무	-13269
▁금전	-13270
▁백악	-13271
▁불경	-13272
▁었었	-13273
▁Univers	-13274
퍼레이션	-13275
▁화장품	-13276
▁마타	-13277
▁페더	-13278
트리스	-13279
▁스턴	-13280
▁전미	-13281
▁분단	-13282
▁정했	-13283
▁도로는	-13284
▁버러	-13285
▁무언	-13286
▁버섯	-13287
▁우연	-13288
▁김승	-13289
▁김천	-13290
▁박성	-13291
▁천천	-13292
▁발사체	-13293
▁결과물	-13294
▁국정원	-13295
▁우두	-13296
▁주세	-13297
▁그란	-13298
▁켄트	-13299
▁흡사	-13300
▁강행	-13301
▁노미야	-13302
▁스포르	-13303
▁떠난다	-13304
▁TBS	-13305
▁배양	-13306
▁잔인	-13307
▁짐승	-13308
▁한문	-13309
▁플랑크	-13310
eth	-13311
나기	-13312
게임	-13313
▁이아	-13314
▁앤디	-13315
▁한번	-13316
▁민병대	-13317
▁컬렉션	-13318
▁교부	-13319
▁아드	-13320
▁이회	-13321
▁장녀	-13322
▁흘리	-13323
▁공양	-13324
▁서초구	-13325
▁픽처스	-13326
▁초콜릿	-13327
▁에스페란토	-13328
▁Rec	-13329
▁세레	-13330
▁미성	-13331
▁월트	-13332
▁첼로	-13333
▁휴양	-13334
▁전락	-13335
▁집착	-13336
▁현판	-13337
▁천천히	-13338
oth	-13339
▁Am	-13340
▁from	-13341
▁오하	-13342
드라마	-13343
▁림프	-13344
▁심부	-13345
▁간직	-13346
▁프레스	-13347
▁가라앉	-13348
▁인공위성	-13349
▁Sup	-13350
ublic	-13351
▁비지	-13352
▁취한	-13353
▁베르타	-13354
▁편향	-13355
▁돌아다니	-13356
▁280	-13357
▁라카	-13358
폭탄	-13359
▁수량	-13360
▁시속	-13361
▁유족	-13362
▁점거	-13363
▁탈취	-13364
▁합하	-13365
▁긴밀	-13366
▁당할	-13367
▁박상	-13368
▁톰슨	-13369
▁우울증	-13370
▁라즈	-13371
▁모차	-13372
▁대종	-13373
▁바울	-13374
▁명인	-13375
▁도카이도	-13376
▁레인저스	-13377
▁매끄러운	-13378
▁230	-13379
▁라라	-13380
▁이우	-13381
▁불사	-13382
▁원활	-13383
▁동맹국	-13384
▁소사	-13385
▁스킴	-13386
ᆨ스피어	-13387
▁게오르	-13388
▁데이브	-13389
▁데일리	-13390
▁보여준	-13391
▁소대	-13392
▁높여	-13393
▁당뇨	-13394
▁파편	-13395
▁강진	-13396
▁관성	-13397
▁점검	-13398
▁가와사키	-13399
▁플로리다주	-13400
aw	-13401
▁IV	-13402
▁GNU	-13403
▁차츰	-13404
▁스탠리	-13405
▁지바현	-13406
▁부르고뉴	-13407
▁셰익스피어	-13408
▁구독	-13409
▁왔으나	-13410
▁AB	-13411
▁유영	-13412
▁케이크	-13413
▁강화도	-13414
▁녹색당	-13415
▁Do	-13416
▁시우	-13417
▁구한	-13418
▁대진	-13419
▁애인	-13420
▁밝혀진	-13421
▁중앙은행	-13422
국적	-13423
▁귀속	-13424
▁연회	-13425
▁사상가	-13426
▁철저히	-13427
▁가르시아	-13428
▁마르세유	-13429
▁1888	-13430
▁페오	-13431
▁격려	-13432
▁톱니	-13433
▁청량	-13434
뇽	-13435
▁갚	-13436
▁네모	-13437
▁피사	-13438
▁가했	-13439
▁고집	-13440
▁하이퍼	-13441
▁그만큼	-13442
▁참모총장	-13443
빵	-13444
▁ar	-13445
▁노프	-13446
▁마티	-13447
▁머무	-13448
▁기쁨	-13449
▁산수	-13450
▁고려대	-13451
▁끝냈	-13452
▁수나라	-13453
▁운임	-13454
▁이바라	-13455
▁둘러싸인	-13456
AI	-13457
태평	-13458
▁명부	-13459
▁향기	-13460
▁청송	-13461
▁글래스	-13462
▁기업가	-13463
▁순양함	-13464
▁달라진다	-13465
▁Su	-13466
▁Sw	-13467
▁라가	-13468
▁겹치	-13469
▁백자	-13470
▁자진	-13471
▁하급	-13472
▁닉슨	-13473
▁다스렸	-13474
▁미친다	-13475
쉐	-13476
▁대차	-13477
▁사커	-13478
▁사키	-13479
▁도출	-13480
▁배역	-13481
▁황산	-13482
▁들어섰	-13483
▁1892	-13484
▁가부	-13485
▁구치	-13486
▁숨기	-13487
▁그래피	-13488
▁로이드	-13489
▁세비야	-13490
▁용품	-13491
▁울릉	-13492
▁이메이	-13493
▁문자열	-13494
▁상관없이	-13495
라이더	-13496
▁골라	-13497
▁무단	-13498
▁이범	-13499
▁폴라	-13500
파일러	-13501
▁다이빙	-13502
▁미나모토	-13503
▁동맹군	-13504
▁노스캐롤라이나	-13505
업자	-13506
▁과시	-13507
▁서스	-13508
▁아와	-13509
▁자코	-13510
독립	-13511
▁동종	-13512
▁쇠고기	-13513
▁내린다	-13514
▁허드슨	-13515
▁경계선	-13516
끄러	-13517
▁Car	-13518
▁다라	-13519
▁미아	-13520
▁코사	-13521
▁보낼	-13522
▁반동	-13523
▁입헌	-13524
▁대명사	-13525
▁데스크톱	-13526
마디	-13527
▁리차	-13528
▁계량	-13529
▁구금	-13530
▁미식	-13531
▁시문	-13532
▁펠트	-13533
▁낙양	-13534
▁산청	-13535
▁심문	-13536
▁프로모	-13537
▁스테판	-13538
▁절도사	-13539
유사	-13540
▁레디	-13541
▁사귀	-13542
▁조개	-13543
▁큐브	-13544
▁대접	-13545
▁완도	-13546
▁발목	-13547
▁서바이	-13548
▁심상	-13549
▁로스쿨	-13550
▁소학교	-13551
▁로빈슨	-13552
▁프레임워크	-13553
티에	-13554
▁아츠	-13555
▁특사	-13556
▁공법	-13557
▁막판	-13558
▁대공국	-13559
▁IR	-13560
보리	-13561
미디어	-13562
홍색	-13563
▁날려	-13564
▁주심	-13565
▁상정	-13566
▁펠리페	-13567
▁산스크리트	-13568
▁wh	-13569
암리	-13570
연수	-13571
광성	-13572
▁견고	-13573
▁스런	-13574
▁제철	-13575
▁해병	-13576
▁흥분	-13577
▁국제선	-13578
▁가면라이더	-13579
▁데미	-13580
▁카야	-13581
▁수차례	-13582
▁조선왕	-13583
▁박테리아	-13584
띠	-13585
▁갯	-13586
▁대주	-13587
▁새뮤	-13588
▁유포	-13589
▁사변	-13590
▁제창	-13591
▁앤서니	-13592
▁CG	-13593
를레	-13594
슬레	-13595
자동	-13596
▁1866	-13597
▁선양	-13598
▁케이트	-13599
▁애덤스	-13600
▁평안도	-13601
둘기	-13602
▁1876	-13603
▁데드	-13604
▁일진	-13605
▁더블린	-13606
▁북조선	-13607
AE	-13608
▁어의	-13609
▁토이	-13610
▁생모	-13611
▁이봉	-13612
▁직계	-13613
▁하임	-13614
▁농축	-13615
▁미미	-13616
▁유무	-13617
▁손녀	-13618
▁서기관	-13619
▁세네갈	-13620
▁모던	-13621
▁중고	-13622
▁다카라	-13623
▁웃음	-13624
▁지켜보	-13625
▁대전차	-13626
▁올리버	-13627
▁전주시	-13628
▁공방전	-13629
▁페르난도	-13630
▁co	-13631
▁슐	-13632
▁공시	-13633
▁나뭇	-13634
▁자립	-13635
▁조롱	-13636
민스터	-13637
▁축성	-13638
▁지리학	-13639
ah	-13640
▁Gre	-13641
▁USB	-13642
▁핏	-13643
네임	-13644
▁1886	-13645
▁으리	-13646
▁붕어	-13647
▁휘말	-13648
▁강성	-13649
▁물결	-13650
▁웨스트민스터	-13651
타뉴	-13652
▁라드	-13653
▁원유	-13654
▁이산	-13655
▁임계	-13656
▁주먹	-13657
▁초전	-13658
▁간혹	-13659
▁높였	-13660
▁도르트	-13661
▁브래드	-13662
▁드미트리	-13663
▁러시아군	-13664
▁베이시스트	-13665
EST	-13666
▁위계	-13667
▁파커	-13668
직경	-13669
▁긴키	-13670
▁순례	-13671
▁접해	-13672
▁복싱	-13673
▁조나라	-13674
▁풍습	-13675
▁합천	-13676
▁덩어리	-13677
▁볼로냐	-13678
▁성매매	-13679
▁후원자	-13680
▁논리학	-13681
▁시직경	-13682
넛	-13683
너드	-13684
▁260	-13685
▁씻	-13686
▁펫	-13687
▁서예	-13688
▁재차	-13689
▁통폐	-13690
▁군관	-13691
▁전권	-13692
▁차세대	-13693
▁교구장	-13694
▁구스타프	-13695
▁활동가	-13696
▁관현악	-13697
▁알렉산드로스	-13698
몸	-13699
로쿠	-13700
▁에바	-13701
▁고려사	-13702
▁알폰	-13703
▁음운	-13704
▁베네딕토	-13705
▁소동	-13706
▁재발	-13707
▁채색	-13708
▁다면서	-13709
▁스탠드	-13710
▁벗어난	-13711
로이	-13712
ᅡᆼ스	-13713
▁270	-13714
▁굶	-13715
카락	-13716
▁배기	-13717
▁파파	-13718
▁두각	-13719
▁장래	-13720
▁레이디	-13721
▁프린스턴	-13722
ron	-13723
▁조소	-13724
▁납부	-13725
▁포탄	-13726
▁온건	-13727
▁정진	-13728
▁스테인	-13729
▁사단장	-13730
▁생리학	-13731
펙트	-13732
▁유다	-13733
분열	-13734
▁거룩	-13735
▁침례	-13736
▁퍼졌	-13737
▁현과	-13738
▁이어주	-13739
▁금나라	-13740
▁브르타뉴	-13741
▁지나간다	-13742
왕후	-13743
▁위패	-13744
▁재앙	-13745
▁펀드	-13746
▁번갈	-13747
▁파이프	-13748
▁삼각주	-13749
▁취해	-13750
▁코호	-13751
▁코소보	-13752
▁보좌관	-13753
▁화요일	-13754
▁보살상	-13755
▁우에스기	-13756
▁경영학	-13757
▁인플레이션	-13758
사태	-13759
▁1887	-13760
▁죄수	-13761
▁터지	-13762
▁반주	-13763
▁깃털	-13764
▁신진	-13765
▁부분군	-13766
▁축구팀	-13767
▁머리카락	-13768
▁겟	-13769
▁도제	-13770
▁저우	-13771
▁발의	-13772
▁자궁	-13773
▁게시판	-13774
▁사간원	-13775
land	-13776
▁마나	-13777
▁아자	-13778
▁간사이	-13779
▁새뮤얼	-13780
▁브리티시	-13781
▁통폐합	-13782
▁it	-13783
우회	-13784
지로	-13785
▁부러	-13786
▁애초	-13787
▁페레	-13788
▁수력	-13789
▁엘라	-13790
ble	-13791
▁ML	-13792
쓰기	-13793
▁부류	-13794
▁퇴위	-13795
▁도약	-13796
▁맥아	-13797
▁본체	-13798
▁사쓰마	-13799
▁원상	-13800
▁단거리	-13801
▁KB	-13802
▁Up	-13803
▁미케	-13804
▁으라	-13805
▁동창	-13806
ave	-13807
늦	-13808
톡	-13809
코타	-13810
▁꽂	-13811
▁돗	-13812
▁Dream	-13813
▁거칠	-13814
▁고창	-13815
▁부양	-13816
▁인제	-13817
▁출혈	-13818
▁장제스	-13819
▁Tour	-13820
▁도하	-13821
▁직사	-13822
▁댓글	-13823
▁근거지	-13824
밋	-13825
티노	-13826
▁수하	-13827
▁제르	-13828
▁경무	-13829
▁송환	-13830
▁얼룩	-13831
▁행방	-13832
▁가로지르	-13833
▁마르쿠스	-13834
▁SV	-13835
ᆯ레타	-13836
▁Life	-13837
▁레트	-13838
▁에보	-13839
▁도성	-13840
▁제프리	-13841
▁유전학	-13842
19	-13843
네트	-13844
제비	-13845
▁이니	-13846
▁소용	-13847
▁지면	-13848
▁악곡	-13849
▁독립군	-13850
▁재단법인	-13851
▁쵸	-13852
코르	-13853
▁너스	-13854
▁갖춰	-13855
▁면모	-13856
▁모닝	-13857
▁승단	-13858
▁형용	-13859
▁용의자	-13860
헤드	-13861
▁에두	-13862
▁오대	-13863
▁유타	-13864
▁대금	-13865
▁필하	-13866
▁주니치	-13867
▁강서구	-13868
▁도미니카	-13869
▁백악기	-13870
▁볼티모어	-13871
▁소라	-13872
▁안ᄃ	-13873
▁세분	-13874
▁민영화	-13875
▁1861	-13876
▁1864	-13877
▁리노	-13878
▁페라	-13879
▁박수	-13880
▁성기	-13881
▁열려	-13882
ᆯ리우스	-13883
▁베이비	-13884
▁데이빗	-13885
▁황해도	-13886
▁사절단	-13887
짜기	-13888
▁조현	-13889
▁불분	-13890
▁약점	-13891
▁편안	-13892
DA	-13893
꿈치	-13894
▁구르	-13895
▁구문	-13896
▁배운	-13897
▁벌레	-13898
▁당황	-13899
▁산물	-13900
▁좌표계	-13901
▁카운트	-13902
▁SH	-13903
▁Wii	-13904
▁박자	-13905
▁오산	-13906
▁즐거	-13907
▁서포터	-13908
▁홀딩	-13909
▁마을버스	-13910
▁스트리밍	-13911
ition	-13912
그맨	-13913
하임	-13914
▁가두	-13915
▁교지	-13916
▁수이	-13917
▁타구	-13918
플린	-13919
▁가닥	-13920
▁해결책	-13921
ult	-13922
퐁	-13923
▁뭐	-13924
▁줌	-13925
▁무수	-13926
▁유머	-13927
▁이호	-13928
콘신	-13929
▁유능	-13930
▁추존	-13931
▁모나코	-13932
▁환관	-13933
▁후세인	-13934
▁위스콘신	-13935
▁라니	-13936
▁로브	-13937
▁오지	-13938
▁피크	-13939
▁암모	-13940
▁허블	-13941
ational	-13942
▁광선	-13943
▁홍성	-13944
▁컨텐츠	-13945
▁행정동	-13946
▁클레멘스	-13947
▁RT	-13948
▁TC	-13949
▁잔디	-13950
▁중개	-13951
▁발톱	-13952
▁평탄	-13953
▁프랑코	-13954
orm	-13955
▁구례	-13956
▁여타	-13957
▁쿼크	-13958
바도르	-13959
▁단조	-13960
▁스트ᄅ	-13961
▁어떻	-13962
▁요금소	-13963
▁장애물	-13964
▁덧붙였	-13965
▁if	-13966
브웨	-13967
▁아토	-13968
▁배척	-13969
▁특기	-13970
▁참의원	-13971
▁공연장	-13972
▁생성물	-13973
▁남베트남	-13974
열차	-13975
▁1881	-13976
▁라시	-13977
▁포화	-13978
▁놓이	-13979
▁모국	-13980
▁부름	-13981
▁워킹	-13982
▁입시	-13983
▁짐바	-13984
▁습득	-13985
▁완결	-13986
▁홈경기	-13987
▁석가모니	-13988
▁마구	-13989
▁시시	-13990
▁차수	-13991
▁증세	-13992
▁사나이	-13993
▁장전	-13994
▁신세계	-13995
룸	-13996
▁렙	-13997
▁푸아	-13998
▁물류	-13999
▁슬램	-14000
▁왕관	-14001
▁죽임	-14002
▁en	-14003
▁비비	-14004
ᆷ프턴	-14005
▁몰랐	-14006
▁바로크	-14007
▁실각	-14008
▁크리에이	-14009
▁컴파일러	-14010
EP	-14011
디슨	-14012
▁카와	-14013
▁익명	-14014
▁당선자	-14015
두르	-14016
뛰기	-14017
슈타	-14018
호마	-14019
▁1850	-14020
▁내포	-14021
▁뷰티	-14022
▁세무	-14023
▁오메	-14024
▁히토	-14025
▁복위	-14026
▁섞여	-14027
▁옐로	-14028
▁자판	-14029
▁정예	-14030
▁삼척	-14031
ᆯ류	-14032
▁치우	-14033
▁Music	-14034
▁기밀	-14035
▁천지	-14036
▁파직	-14037
▁대교구	-14038
▁백업	-14039
▁양현	-14040
▁도라에몽	-14041
▁음악원	-14042
▁다카라즈카	-14043
느리	-14044
니오	-14045
드류	-14046
▁무자	-14047
▁샤이	-14048
▁위시	-14049
▁과잉	-14050
▁관내	-14051
▁멜라	-14052
▁토목	-14053
▁카이로	-14054
▁알아내	-14055
▁으려는	-14056
▁모차르트	-14057
▁역사학	-14058
쪼	-14059
▁AG	-14060
▁XP	-14061
동자	-14062
예술	-14063
화경	-14064
▁아타	-14065
▁요괴	-14066
▁동차	-14067
▁모신	-14068
▁재결	-14069
▁프로페	-14070
▁괘불	-14071
▁급히	-14072
▁양조	-14073
▁방공	-14074
▁페미니	-14075
▁토트넘	-14076
▁유니버스	-14077
▁프리미엄	-14078
윅	-14079
다오	-14080
▁iOS	-14081
▁맬	-14082
▁계보	-14083
▁리에	-14084
▁오우	-14085
▁티모	-14086
▁승하	-14087
▁에반	-14088
▁이력	-14089
▁코난	-14090
▁객원	-14091
▁만날	-14092
▁촛불	-14093
▁판관	-14094
▁달아나	-14095
▁루스벨트	-14096
▁집정관	-14097
▁1830	-14098
▁과연	-14099
▁솔라	-14100
▁에밀	-14101
▁미네소타	-14102
▁카르타고	-14103
ject	-14104
스레	-14105
▁홈즈	-14106
▁팔작	-14107
아메리카	-14108
▁사내	-14109
▁쿠로	-14110
▁근래	-14111
▁도산	-14112
▁미상	-14113
▁보너스	-14114
▁아무리	-14115
▁무작위	-14116
▁야구단	-14117
▁화성시	-14118
▁재판관	-14119
▁헤라클레스	-14120
▁되도	-14121
▁구획	-14122
▁다행	-14123
▁민물	-14124
▁아카이	-14125
달마	-14126
평리	-14127
▁스기	-14128
▁아다	-14129
▁전리	-14130
▁가해자	-14131
▁몸돌	-14132
▁외무부	-14133
ᅳᆯ라호마	-14134
▁네티즌	-14135
▁오클라호마	-14136
몬트	-14137
▁Open	-14138
▁나름	-14139
▁전과	-14140
▁해냈	-14141
▁경건	-14142
▁로맨틱	-14143
▁세르게이	-14144
▁Ed	-14145
▁an	-14146
▁경도	-14147
▁러닝	-14148
▁켄터	-14149
▁엘런	-14150
▁익산	-14151
▁잠실	-14152
▁여학생	-14153
▁장난감	-14154
▁DR	-14155
▁te	-14156
▁나마	-14157
▁루나	-14158
▁처해	-14159
▁모란	-14160
▁몰두	-14161
▁남송	-14162
▁철강	-14163
라이어티	-14164
▁압록강	-14165
▁버라이어티	-14166
▁BL	-14167
림사	-14168
▁1872	-14169
▁파주	-14170
▁매진	-14171
▁공판	-14172
▁갔으며	-14173
▁농어촌	-14174
▁두려워하	-14175
▁이시카와	-14176
▁불분명	-14177
쿼	-14178
ION	-14179
ton	-14180
께끼	-14181
▁싹	-14182
타입	-14183
▁강세	-14184
▁당진	-14185
▁목욕	-14186
▁혼혈	-14187
▁모멘트	-14188
▁수수께끼	-14189
쯔	-14190
▁750	-14191
▁교동	-14192
▁군세	-14193
▁아편	-14194
▁파열	-14195
▁라치오	-14196
▁왕성	-14197
▁반대파	-14198
▁개정안	-14199
▁관련자	-14200
철수	-14201
▁고모	-14202
▁이누	-14203
▁메틸	-14204
▁세간	-14205
▁용사	-14206
▁응하	-14207
▁침대	-14208
▁패권	-14209
▁현미	-14210
▁황자	-14211
▁닛산	-14212
▁승상	-14213
▁뛰어넘	-14214
더지	-14215
▁레비	-14216
▁김희	-14217
▁부전	-14218
▁허목	-14219
▁말단	-14220
▁끝난다	-14221
▁대중교통	-14222
ics	-14223
▁레아	-14224
▁예의	-14225
▁트러	-14226
▁눈치	-14227
▁외환	-14228
▁뽑혔	-14229
▁감리교	-14230
▁피닉스	-14231
▁하얀색	-14232
▁집행유예	-14233
바인	-14234
▁꼬마	-14235
▁란스	-14236
▁발자	-14237
▁브렌	-14238
▁별장	-14239
▁햇빛	-14240
▁대표단	-14241
▁세군다	-14242
▁이메일	-14243
▁인해서	-14244
▁노동력	-14245
덕왕	-14246
▁가든	-14247
▁남조	-14248
▁반죽	-14249
▁상한	-14250
▁순항	-14251
▁유라시아	-14252
▁트레이닝	-14253
ru	-14254
데자	-14255
▁Don	-14256
▁푹	-14257
▁태우	-14258
레스트	-14259
▁나눈	-14260
▁도봉	-14261
▁여건	-14262
▁옹주	-14263
▁호크스	-14264
▁롬바르	-14265
ier	-14266
뮌	-14267
▁HTML	-14268
▁쿠라	-14269
▁종묘	-14270
▁경량	-14271
▁까마귀	-14272
▁다비드	-14273
▁라이스	-14274
▁탄산	-14275
▁흑백	-14276
▁초록색	-14277
▁"-	-14278
▁Ab	-14279
워즈	-14280
쿠니	-14281
▁사나	-14282
▁묻혀	-14283
▁스윙	-14284
▁시원	-14285
▁옥타	-14286
▁트란	-14287
▁신봉	-14288
▁양면	-14289
▁정황	-14290
▁밀가루	-14291
▁파충류	-14292
▁도르트문트	-14293
▁꿰	-14294
ᆯ렬	-14295
▁쑨	-14296
▁1865	-14297
▁지아	-14298
▁치소	-14299
▁덴쇼	-14300
▁뒤늦	-14301
▁조경	-14302
▁발산	-14303
▁블랑	-14304
▁알맞	-14305
▁중랑	-14306
▁화학자	-14307
▁청년회	-14308
단위	-14309
▁1863	-14310
▁삭스	-14311
▁콘티	-14312
▁변종	-14313
▁열릴	-14314
ᆯ루스	-14315
▁배트	-14316
▁Night	-14317
▁배향	-14318
▁이별	-14319
▁재벌	-14320
슬라프	-14321
▁곱셈	-14322
▁코스트	-14323
▁시간대	-14324
▁유니언	-14325
▁무솔리니	-14326
▁부다페스트	-14327
ode	-14328
랙	-14329
▁교제	-14330
▁캐피	-14331
▁경매	-14332
▁음주	-14333
▁관용	-14334
▁납작	-14335
▁복역	-14336
▁센다이	-14337
▁바람직	-14338
▁박영효	-14339
▁아이디얼	-14340
▁대한항공	-14341
▁Sm	-14342
나파	-14343
▁과다	-14344
▁마트	-14345
클럽	-14346
▁금고	-14347
▁어촌	-14348
▁이은	-14349
▁접합	-14350
▁우간다	-14351
▁탐험가	-14352
▁공군기지	-14353
▁ret	-14354
글로	-14355
▁피셔	-14356
들였	-14357
▁가독	-14358
▁전교	-14359
▁단국	-14360
▁탐정	-14361
▁헌납	-14362
태평양	-14363
▁격투기	-14364
▁아이콘	-14365
▁오스트리	-14366
▁오카야마	-14367
▁닌자	-14368
▁베일	-14369
▁장쑤	-14370
▁복직	-14371
▁클릭	-14372
▁리우데자	-14373
▁전해졌	-14374
▁안드레아	-14375
▁작품상	-14376
▁리우데자네이루	-14377
TE	-14378
▁베풀	-14379
▁보정	-14380
▁오일	-14381
▁완비	-14382
▁인테	-14383
▁봉황	-14384
▁주나라	-14385
▁철종	-14386
▁켄터키	-14387
▁세인트루	-14388
▁리트	-14389
▁어우	-14390
▁태아	-14391
▁야망	-14392
▁종업	-14393
QL	-14394
ool	-14395
▁주고	-14396
▁경마	-14397
▁진흙	-14398
▁범죄자	-14399
▁앤드류	-14400
른베르크	-14401
▁경복궁	-14402
▁받침돌	-14403
▁세계유산	-14404
▁승정원	-14405
▁날카로운	-14406
브루	-14407
번에	-14408
▁1891	-14409
▁도이	-14410
▁버크	-14411
▁의례	-14412
▁조시	-14413
▁투하	-14414
▁발포	-14415
▁승지	-14416
▁곡면	-14417
▁만점	-14418
▁프레드	-14419
▁유전체	-14420
▁재판부	-14421
▁조선소	-14422
▁고성군	-14423
▁발기인	-14424
▁짐바브웨	-14425
▁AL	-14426
미쓰	-14427
타스	-14428
▁두어	-14429
친왕	-14430
ᆯ린다	-14431
▁애완	-14432
▁말린	-14433
▁원동	-14434
▁개체군	-14435
▁자유형	-14436
▁합창단	-14437
▁부에	-14438
▁샤르	-14439
브리드	-14440
▁늘려	-14441
▁생도	-14442
▁픽셀	-14443
▁여진족	-14444
UC	-14445
ai	-14446
▁거꾸	-14447
▁기고	-14448
▁배아	-14449
▁슈고	-14450
▁피카	-14451
훈장	-14452
▁처방	-14453
▁계승자	-14454
▁몰도바	-14455
▁부르주아	-14456
ise	-14457
▁매립	-14458
▁섬기	-14459
▁조심	-14460
▁등등	-14461
▁맡겼	-14462
▁다시금	-14463
▁타임즈	-14464
▁낭만주의	-14465
▁베스트셀러	-14466
▁온타리오주	-14467
▁코마	-14468
▁포대	-14469
▁미인	-14470
▁노르드	-14471
▁혈압	-14472
▁도망치	-14473
▁해석학	-14474
뤄	-14475
stem	-14476
▁도도	-14477
▁여대	-14478
▁여호	-14479
▁모빌	-14480
▁커플	-14481
▁편제	-14482
▁반점	-14483
▁친밀	-14484
▁테무르	-14485
▁교통사고	-14486
▁--	-14487
▁1873	-14488
▁로니	-14489
▁카슈	-14490
▁후미	-14491
부아르	-14492
▁넥센	-14493
▁선율	-14494
▁다국적	-14495
▁였음을	-14496
▁팔작지붕	-14497
▁MA	-14498
▁메츠	-14499
▁경지	-14500
▁상파	-14501
▁하이브리드	-14502
▁마모	-14503
로이드	-14504
▁단자	-14505
▁죽여	-14506
▁해킹	-14507
▁현무	-14508
▁빅뱅	-14509
▁수시로	-14510
▁이뤄진	-14511
쫓	-14512
▁Can	-14513
▁감추	-14514
▁의용	-14515
▁조공	-14516
▁법전	-14517
▁작년	-14518
▁제너럴	-14519
▁항아리	-14520
▁안산시	-14521
hem	-14522
▁삐	-14523
ower	-14524
무제	-14525
▁쇼크	-14526
▁해시	-14527
▁Black	-14528
▁대목	-14529
▁요즘	-14530
▁일지	-14531
▁자켓	-14532
▁등단	-14533
플렉스	-14534
▁기획사	-14535
▁릴레이	-14536
▁포항시	-14537
훼	-14538
▁이례	-14539
▁비싼	-14540
▁잡히	-14541
▁살짝	-14542
▁직관	-14543
▁필연	-14544
▁section	-14545
▁라파엘	-14546
▁챌린저	-14547
세다	-14548
매김	-14549
ᅳ메르	-14550
▁서위	-14551
▁토유	-14552
▁피어	-14553
▁고난	-14554
▁시진	-14555
▁시티즌	-14556
합중국	-14557
70	-14558
▁NS	-14559
▁리키	-14560
▁체내	-14561
▁페스	-14562
▁어선	-14563
▁텍스	-14564
▁파랑	-14565
▁프로테	-14566
▁아비달마	-14567
NG	-14568
레반	-14569
▁리자	-14570
▁키즈	-14571
▁구강	-14572
▁기통	-14573
▁버펄	-14574
▁진이	-14575
▁코린	-14576
▁콜리	-14577
▁양궁	-14578
▁와이드	-14579
▁평했	-14580
▁합금	-14581
▁무언가	-14582
▁계좌	-14583
▁교서	-14584
▁양양	-14585
▁청문	-14586
▁qu	-14587
스텐	-14588
▁리브	-14589
▁광배	-14590
▁구슬	-14591
▁미칠	-14592
▁외상	-14593
▁페인	-14594
▁난이도	-14595
▁안타까	-14596
▁보안법	-14597
▁Good	-14598
▁수주	-14599
▁이트	-14600
스코트	-14601
▁노란	-14602
데올로	-14603
▁박진	-14604
▁산책	-14605
▁이바라키	-14606
▁이데올로	-14607
▁q	-14608
▁Let	-14609
▁에치	-14610
▁신대	-14611
▁최장	-14612
▁취향	-14613
몰로지	-14614
▁스테이트	-14615
▁자리매김	-14616
▁코호몰로지	-14617
▁대의	-14618
▁파기	-14619
킨슨	-14620
▁네임	-14621
선거구	-14622
▁충당	-14623
▁구시	-14624
▁아뢰	-14625
▁조어	-14626
▁캐논	-14627
▁현도	-14628
▁휩싸	-14629
▁가리켜	-14630
▁열렬	-14631
▁아오모리	-14632
▁이노우에	-14633
▁공통점	-14634
▁백악관	-14635
▁페르디난트	-14636
▁AI	-14637
▁MM	-14638
큐어	-14639
▁미츠	-14640
타나베	-14641
▁광자	-14642
▁당과	-14643
▁부실	-14644
▁앞세	-14645
▁이강	-14646
▁필두	-14647
▁다마스	-14648
▁따라가	-14649
▁왓슨	-14650
▁PM	-14651
ings	-14652
▁705	-14653
▁머니	-14654
동맹	-14655
▁국호	-14656
▁길러	-14657
▁연화	-14658
▁조준	-14659
▁지경	-14660
▁코뮌	-14661
▁굴복	-14662
▁촉발	-14663
▁한창	-14664
▁두꺼운	-14665
ank	-14666
▁El	-14667
▁샴	-14668
▁씬	-14669
▁매스	-14670
▁베라	-14671
▁유태	-14672
▁재고	-14673
▁병과	-14674
▁성가	-14675
▁착취	-14676
▁산신	-14677
▁적발	-14678
▁피츠버그	-14679
해살이풀	-14680
▁변광성	-14681
▁과격	-14682
▁인위	-14683
▁간판	-14684
▁거꾸로	-14685
▁당당	-14686
▁문정	-14687
▁튼튼	-14688
▁슬로건	-14689
흠	-14690
▁550	-14691
▁괜	-14692
단지	-14693
▁부추	-14694
▁오름	-14695
▁볼넷	-14696
▁용감	-14697
▁용산구	-14698
▁미합중국	-14699
샘	-14700
▁650	-14701
▁샵	-14702
정사	-14703
▁토로	-14704
▁그릴	-14705
▁활자	-14706
▁김성수	-14707
떡	-14708
거나	-14709
▁1867	-14710
▁수퍼	-14711
올랐	-14712
▁계엄	-14713
▁걸작	-14714
▁흡연	-14715
▁하반기	-14716
▁발가락	-14717
▁삼국유사	-14718
▁이데올로기	-14719
▁AU	-14720
컬리	-14721
▁1862	-14722
▁우마	-14723
▁신의	-14724
▁을사	-14725
▁무로마치	-14726
▁야쿠르트	-14727
쿠르	-14728
티야	-14729
▁사하	-14730
▁하라	-14731
▁기운	-14732
▁소작	-14733
▁반항	-14734
▁진언	-14735
▁진원	-14736
▁경희대	-14737
▁증조부	-14738
▁사이타마현	-14739
DS	-14740
▁루즈	-14741
▁앵커	-14742
▁야심	-14743
▁조장	-14744
▁분경	-14745
▁정명	-14746
▁증발	-14747
▁엑스포	-14748
▁자외선	-14749
▁반정부	-14750
▁손잡이	-14751
녹	-14752
상어	-14753
▁무도	-14754
▁캐로	-14755
북면	-14756
▁새겼	-14757
▁터빈	-14758
▁투신	-14759
▁가이드	-14760
▁경은	-14761
▁사보이	-14762
▁앞둔	-14763
▁원한	-14764
▁입술	-14765
포타	-14766
▁내재	-14767
▁불로	-14768
▁옥시	-14769
▁위법	-14770
▁참수	-14771
▁광업	-14772
▁송진	-14773
▁증강	-14774
▁아닌가	-14775
▁앨버트	-14776
▁알폰소	-14777
라토	-14778
진구	-14779
크림	-14780
테인	-14781
▁조서	-14782
성경	-14783
▁채굴	-14784
▁지자체	-14785
▁트로트	-14786
니티	-14787
리쿠	-14788
▁패해	-14789
▁국부	-14790
▁모반	-14791
▁번개	-14792
▁북대	-14793
▁성수	-14794
▁이선	-14795
절도사	-14796
▁타이탄	-14797
▁두드러지	-14798
▁종업원	-14799
lar	-14800
높	-14801
▁-&	-14802
▁Ac	-14803
▁챈	-14804
센터	-14805
으면	-14806
▁레버	-14807
▁푸드	-14808
두라스	-14809
방군	-14810
▁예종	-14811
▁꽃잎	-14812
▁농성	-14813
▁북벌	-14814
포타미아	-14815
▁갈라지	-14816
▁레인저	-14817
▁온두라스	-14818
▁조선왕조	-14819
▁메소포타미아	-14820
벼	-14821
뮬러	-14822
▁코모	-14823
▁버진	-14824
▁승용차	-14825
인구	-14826
▁6000	-14827
▁마레	-14828
▁부두	-14829
▁비싸	-14830
곡면	-14831
▁시역	-14832
▁용해	-14833
▁전멸	-14834
▁헌병	-14835
▁컴파일	-14836
▁일본식	-14837
▁협동조합	-14838
▁캣	-14839
▁스레	-14840
▁제라	-14841
▁차오	-14842
▁조석	-14843
▁황폐	-14844
▁양군	-14845
▁치료제	-14846
▁국민회	-14847
▁연출가	-14848
▁공식전	-14849
ky	-14850
tr	-14851
▁LS	-14852
위치	-14853
▁아지	-14854
▁대강	-14855
▁페드로	-14856
▁숨겨진	-14857
▁감염증	-14858
▁편집장	-14859
▁프란치스코	-14860
▁유구	-14861
▁캐치	-14862
▁극찬	-14863
▁출입문	-14864
▁국민학교	-14865
ta	-14866
노르	-14867
▁앰	-14868
▁무고	-14869
▁이끼	-14870
▁주저	-14871
할린	-14872
▁열쇠	-14873
▁장신	-14874
▁갈라져	-14875
rist	-14876
퉁이	-14877
▁체하	-14878
세우스	-14879
▁동자	-14880
▁직교	-14881
▁토록	-14882
▁부여군	-14883
▁다이노스	-14884
펀	-14885
▁UC	-14886
▁802	-14887
▁뱃	-14888
▁히노	-14889
ᅳᆯ로러	-14890
▁킹스	-14891
▁동탁	-14892
▁타타르	-14893
▁기원후	-14894
▁노르만	-14895
▁사무국	-14896
▁파블로	-14897
▁이성질	-14898
▁프로모션	-14899
▁익스플로러	-14900
▁Qu	-14901
▁1878	-14902
▁구아	-14903
▁기묘	-14904
▁어째	-14905
▁나탈	-14906
▁들리	-14907
▁서한	-14908
▁건널	-14909
▁대리석	-14910
▁언론사	-14911
▁홀딩스	-14912
▁움직일	-14913
▁신한은행	-14914
▁HMS	-14915
▁Ser	-14916
▁세토	-14917
뉴기니	-14918
▁괄호	-14919
▁대담	-14920
▁완수	-14921
▁커졌	-14922
▁컴피	-14923
▁제조사	-14924
▁충신	-14925
▁백과사전	-14926
ee	-14927
렁	-14928
▁MSL	-14929
▁나사	-14930
▁바쿠	-14931
▁타도	-14932
▁통지	-14933
▁하중	-14934
▁연행	-14935
▁일리노이주	-14936
보냈	-14937
▁매슈	-14938
▁애기	-14939
▁이야	-14940
▁독주	-14941
▁그나마	-14942
▁사대부	-14943
▁스코어	-14944
▁웨이브	-14945
▁플러그	-14946
ᅳ무	-14947
고르	-14948
▁썩	-14949
▁구부	-14950
▁오피	-14951
▁늘어	-14952
▁유림	-14953
▁차림	-14954
▁간결	-14955
▁뉴기니	-14956
▁일설	-14957
▁잔존	-14958
▁증식	-14959
▁크루즈	-14960
▁필명	-14961
▁스케이트	-14962
▁tr	-14963
▁사교	-14964
▁오즈	-14965
▁세단	-14966
▁옥천	-14967
▁미카엘	-14968
▁포뮬러	-14969
che	-14970
▁And	-14971
▁팻	-14972
▁과자	-14973
▁라다	-14974
▁보직	-14975
▁마그네	-14976
▁심정	-14977
▁플루토	-14978
▁신기록	-14979
▁라이프치히	-14980
크레	-14981
▁개기	-14982
활약	-14983
▁당파	-14984
▁지탱	-14985
▁급성	-14986
▁작중	-14987
▁절약	-14988
▁취리히	-14989
▁페르미	-14990
▁업로드	-14991
누마	-14992
▁팍	-14993
▁꾸며	-14994
▁스에	-14995
▁후드	-14996
벤션	-14997
▁병단	-14998
▁연달	-14999
▁와세다	-15000
▁폼페이	-15001
▁입법부	-15002
▁프라이즈	-15003
랍	-15004
셔주	-15005
렌스	-15006
▁1869	-15007
▁시르	-15008
▁조비	-15009
▁군자	-15010
▁봉하	-15011
▁스톰	-15012
▁위헌	-15013
▁유망	-15014
▁줄일	-15015
▁플라스	-15016
▁맹활약	-15017
▁Ag	-15018
▁킷	-15019
다발	-15020
▁오트	-15021
▁신해	-15022
▁영사	-15023
▁정박	-15024
▁중용	-15025
▁충칭	-15026
▁액세스	-15027
▁행해졌	-15028
▁글로브상	-15029
퉁	-15030
▁아ᄒ	-15031
산부	-15032
▁소피	-15033
▁가극	-15034
▁다량	-15035
▁다목	-15036
▁부군	-15037
▁포천	-15038
▁형주	-15039
▁완만	-15040
▁연주회	-15041
▁와타나베	-15042
▁율리우스	-15043
▁일러스트	-15044
▁핵분열	-15045
껑	-15046
내티	-15047
▁궐	-15048
트린	-15049
▁구루	-15050
▁고찰	-15051
▁취할	-15052
▁패킷	-15053
▁가르쳐	-15054
▁국인	-15055
▁상선	-15056
▁캐스트	-15057
▁봉우리	-15058
▁안동시	-15059
▁신시내티	-15060
사화	-15061
▁IMF	-15062
▁낡	-15063
ᆯ로스	-15064
▁서지	-15065
▁키로	-15066
라이트	-15067
▁지린	-15068
▁던졌	-15069
▁엇갈	-15070
▁이브스	-15071
▁행군	-15072
▁추후	-15073
▁토라	-15074
시아드	-15075
▁포탑	-15076
▁마포구	-15077
▁생길	-15078
▁육식	-15079
▁청각	-15080
ᆯ레타리아	-15081
▁프롤레타리아	-15082
ae	-15083
시게	-15084
▁자부	-15085
▁임하	-15086
▁무사히	-15087
▁프리츠	-15088
▁인코딩	-15089
▁유니버시아드	-15090
▁AA	-15091
▁1592	-15092
▁몸체	-15093
▁잉크	-15094
▁국력	-15095
▁쿠르드	-15096
▁해부학	-15097
▁부등식	-15098
▁친선경기	-15099
조리	-15100
▁논하	-15101
▁처한	-15102
▁적정	-15103
▁저지른	-15104
▁주고받	-15105
▁지하역	-15106
▁방위군	-15107
▁미나모토노	-15108
▁고등학생	-15109
뜨려	-15110
▁마ᄊ	-15111
▁꾸미	-15112
▁오보	-15113
▁강호	-15114
▁변모	-15115
▁처장	-15116
▁객실	-15117
▁직물	-15118
▁항생	-15119
▁자릿수	-15120
▁경쟁자	-15121
▁기동전	-15122
▁특별법	-15123
▁명성황후	-15124
밴	-15125
암사	-15126
▁사부	-15127
▁린다	-15128
▁부관	-15129
▁저축	-15130
▁글렌	-15131
▁아이젠	-15132
▁선제골	-15133
샨	-15134
크루	-15135
일치	-15136
▁비요	-15137
▁사드	-15138
▁수레	-15139
▁회유	-15140
▁서점	-15141
▁면직	-15142
▁수비대	-15143
OU	-15144
튀	-15145
▁팰	-15146
정보	-15147
▁로시	-15148
▁서거	-15149
▁수당	-15150
▁스텔	-15151
▁자행	-15152
▁잔해	-15153
▁팔린	-15154
▁횡령	-15155
▁장로회	-15156
▁프라임	-15157
▁마스코트	-15158
▁비스마르크	-15159
▁크리스티나	-15160
▁코퍼레이션	-15161
ount	-15162
▁Song	-15163
▁겨루	-15164
▁해지	-15165
▁떠날	-15166
▁무색	-15167
▁참패	-15168
▁콜드	-15169
▁표절	-15170
▁표출	-15171
▁근방	-15172
▁축일	-15173
▁생화학	-15174
▁운동량	-15175
▁컴필레이션	-15176
ata	-15177
▁아어	-15178
▁에겐	-15179
▁용수	-15180
▁목동	-15181
▁베르나	-15182
▁성품	-15183
▁레지스터	-15184
▁여우원숭이	-15185
▁RC	-15186
▁me	-15187
구스	-15188
시브	-15189
▁Mon	-15190
▁아브	-15191
▁오자	-15192
▁벵골	-15193
▁점진	-15194
▁접전	-15195
▁골짜기	-15196
▁영유권	-15197
▁원자핵	-15198
▁키르기스	-15199
▁힐베르트	-15200
pr	-15201
티컷	-15202
▁매도	-15203
▁보류	-15204
▁위즈	-15205
블릿	-15206
▁고을	-15207
▁return	-15208
▁외교부	-15209
▁여객기	-15210
▁변한다	-15211
▁코네티컷	-15212
덮	-15213
네르	-15214
▁1840	-15215
▁모티	-15216
▁위도	-15217
▁자처	-15218
▁코이	-15219
▁그물	-15220
▁내림	-15221
▁브룩	-15222
▁심소	-15223
▁지문	-15224
▁단역	-15225
▁빈민	-15226
▁스파이더	-15227
▁로드리게스	-15228
per	-15229
▁볶	-15230
대전	-15231
▁대타	-15232
▁디나	-15233
▁치사	-15234
▁논산	-15235
▁오스카	-15236
▁파시스트	-15237
▁KN	-15238
▁랙	-15239
▁이목	-15240
▁일어	-15241
▁다가오	-15242
▁며느리	-15243
▁박원	-15244
▁일선	-15245
▁밝혀져	-15246
▁에이전트	-15247
곧	-15248
효소	-15249
히메	-15250
▁고제	-15251
▁꺼내	-15252
▁피처	-15253
가르트	-15254
▁강우	-15255
▁그럴	-15256
▁네이트	-15257
▁병풍	-15258
▁연예계	-15259
▁퍼블리	-15260
▁필사본	-15261
▁매킨토시	-15262
▁종착역	-15263
▁Pe	-15264
▁ab	-15265
▁밋	-15266
▁무비	-15267
▁버티	-15268
▁토키	-15269
▁국화	-15270
▁빅터	-15271
▁금색	-15272
▁손님	-15273
▁입출	-15274
▁칭했	-15275
▁Windows	-15276
▁인지도	-15277
▁사이언스	-15278
ade	-15279
헬	-15280
▁오시	-15281
▁저해	-15282
▁귀인	-15283
▁길드	-15284
▁불려	-15285
▁탁구	-15286
▁패스트	-15287
▁에밀리	-15288
▁정해져	-15289
▁와카야마	-15290
▁제작진	-15291
▁창립자	-15292
90	-15293
▁가비	-15294
▁루도	-15295
▁여포	-15296
▁유자	-15297
▁하수	-15298
▁Heart	-15299
▁닉스	-15300
▁유골	-15301
구나	-15302
프만	-15303
▁고국	-15304
▁수도회	-15305
▁어도비	-15306
▁현악	-15307
▁스트림	-15308
▁목적지	-15309
▁516	-15310
▁루피	-15311
▁어사	-15312
▁처치	-15313
▁쿼터	-15314
▁튜브	-15315
▁영수	-15316
▁출세	-15317
[...]
