[PAD]	0
[UNK]	0
[BOS]	0
[EOS]	0
[CLS]	0
[SEP]	0
[MASK]	0
▁▃	-0
▁ㅇ	-1
▁ㄱ	-2
▁ㄷ	-3
▁ㅇㅣ	-4
▁ㅎ	-5
▁ㅈ	-6
▁ㅅ	-7
▁ㄴ	-8
ㅡㄴ	-9
▁ㅎㅏ	-10
ㅡㄹ	-11
▁ㅁ	-12
⊸⊸	-13
▁⊸⊸	-14
▁ㅂ	-15
▁ㄹ	-16
▁.	-17
▁ㄷㅏ	-18
▁ㅇㅏ	-19
▁ㅇㅔ	-20
▁ㄴㅡㄴ	-21
▁ㅇㅓ	-22
▁ㄱㅏ	-23
ㅇㅣ	-24
ㅏㄴ	-25
▁ㅇㅢ	-26
ㅏㅇ	-27
ㅓㄴ	-28
ㅕㄴ	-29
▁ㅇㅡㄹ	-30
ㅅㅓ	-31
▁ㅊ	-32
ㄹㅣ	-33
▁ㄱㅗ	-34
▁,	-35
ㄹㅗ	-36
▁ㅈㅣ	-37
▁ㅍ	-38
ㅈㅣ	-39
ㅕㅇ	-40
▁ㄷㅗ	-41
ㄷㅏ	-42
ㅜㄴ	-43
▁ㅅㅣ	-44
▁ㄹㅡㄹ	-45
▁ㅇㅡㄴ	-46
▁ㅌ	-47
▁ㅇㅡ	-48
ㅅㅣ	-49
▁ㄱㅣ	-50
ㅓㅇ	-51
▁ㅋ	-52
ㅅㅡ	-53
ㅏㄹ	-54
▁ㄹㅗ	-55
ㅎㅏ	-56
ㅗㅇ	-57
▁ㄱㅓ	-58
▁ㅇㅣㅆ	-59
ㅜㄹ	-60
▁ㄷㅚ	-61
▁ㄱㅡ	-62
▁1	-63
ㅕㄱ	-64
▁ㅅㅏ	-65
▁ㅈㅜ	-66
▁ㅇㅓㅆ	-67
▁ㅂㅗ	-68
ㅏㄱ	-69
ㄴㄷㅏ	-70
▁2	-71
ㅗㄱ	-72
ㄱㅣ	-73
▁ㄴㅏ	-74
▁ㄸ	-75
ㄴㅏ	-76
ㅇㅓ	-77
ㅡㅇ	-78
ㅓㄱ	-79
▁ㅇㅏㅆ	-80
▁ㅁㅏ	-81
▁ㄷㅡㄹ	-82
ㄱㅏ	-83
▁ㄱㅘ	-84
▁ㄷㅐ	-85
▁ㅈㅏ	-86
ㄱㅗ	-87
▁ㅅㅜ	-88
▁ㄹㅏ	-89
ㄹㅏ	-90
ㅐㅇ	-91
▁ㄱㅔ	-92
▁ㄱㅓㅅ	-93
ㄷㅗ	-94
▁ㅁㅗ	-95
ㅜㄱ	-96
ㄹㅡ	-97
ㅓㅁ	-98
ㄴㅣ	-99
▁ㅇㅘ	-100
ㄷㅡ	-101
ㅗㄴ	-102
ㅇㅜ	-103
▁ㅇㅣㄹ	-104
▁ㅈㅓㄴ	-105
ㅓㄹ	-106
ㅝㄴ	-107
ㅌㅡ	-108
ㅅㅏ	-109
▁ㅇㅕ	-110
▁ㅁㅕㄴ	-111
ㅈㅏㅇ	-112
▁ㅇㅗ	-113
ㅁㅏㄴ	-114
ㅇㅛ	-115
▁ㅂㅜ	-116
▁ㅅㅡ	-117
▁ㅈㅓㄱ	-118
▁ㄲ	-119
▁ㅂㅏ	-120
▁-	-121
ㅊㅣ	-122
▁ㅁㅏㄴ	-123
ㄷㅐ	-124
ㅈㅏ	-125
ㅇㅣㄴ	-126
ㄹㅓ	-127
▁ㅈㅓㅇ	-128
▁ㅁㅣ	-129
▁ㅎㅘ	-130
ㅇㅗ	-131
▁ㅅㅏㅇ	-132
▁ㅈㅗ	-133
ㅁㅣ	-134
▁ㄸㅐ	-135
ㅕㄹ	-136
▁ㅇㅠ	-137
▁'	-138
ㅎㅘ	-139
ㅌㅓ	-140
▁3	-141
ㄴㅡㄴ	-142
▁ㄴㅕㄴ	-143
ㅎㅣ	-144
▁ㅂㅣ	-145
ㅑㅇ	-146
ㅅㅜ	-147
ㄷㅔ	-148
ㅈㅓㅇ	-149
ㅇㅏ	-150
ㅈㅓㄴ	-151
ㄱㅡ	-152
ㅅㅏㅇ	-153
ㅐㄱ	-154
ㅈㅜ	-155
▁ㄱㅗㅇ	-156
▁ㅇㅣㄴ	-157
▁20	-158
▁ㅈㅔ	-159
▁ㅈㅜㅇ	-160
▁ㅎㅏㄴ	-161
▁ㄱㅕㅇ	-162
ㄱㅔ	-163
▁ㅇㅟ	-164
ㄹㅕㄱ	-165
▁ㅆ	-166
▁ㅊㅏ	-167
ㅋㅣ	-168
ㅇㅛㅇ	-169
▁ㅅㅗ	-170
▁ㅁㅜ	-171
ㅈㅔ	-172
▁ㅇㅓㅄ	-173
ㄱㅜㄱ	-174
▁ㄴㅗ	-175
▁:	-176
▁ㄷㅡㅇ	-177
ㅁㅜㄴ	-178
ㅁㅕㄴ	-179
ㅅㅣㄴ	-180
▁ㅅㅔ	-181
ㅂㅜ	-182
▁ㅅㅓㅇ	-183
ㄹㅐ	-184
ㄹㄹㅣ	-185
ㅇㅑ	-186
ㄱㅜ	-187
ㅁㅏ	-188
ㅅㅓㅇ	-189
ㄹㅔ	-190
▁ㅇㅏㄶ	-191
▁ㄱㅐ	-192
ㄱㅕㄱ	-193
ㅡㄱ	-194
▁ㄷㅓㄴ	-195
ㄱㅘ	-196
▁ㅁㅕ	-197
ㅝㄹ	-198
▁ㅌㅏ	-199
ㅌㅏ	-200
▁ㅅㅓ	-201
▁4	-202
ㄷㅗㅇ	-203
▁ㄷㅡ	-204
▁ㄱㅜ	-205
▁ㄹㅣ	-206
ㅓㅂ	-207
▁"	-208
ㅡㅁ	-209
▁ㄴㅐ	-210
ㅇㅝㄴ	-211
▁5	-212
ㄱㅓ	-213
▁ㅈㅏㅇ	-214
ㄱㅏㄴ	-215
▁ㅋㅏ	-216
▁ㄷㅗㅇ	-217
▁ㅂㅏㅇ	-218
▁ㅍㅣ	-219
▁ㅇㅝㄹ	-220
▁ㄹㅔ	-221
▁ㅇㅕㄴ	-222
▁ㅇㅛ	-223
▁ㅅㅣㄴ	-224
ㅂㅣ	-225
▁ㅊㅣ	-226
▁ㅂㅓ	-227
▁ㅎㅜ	-228
ㅇㅠ	-229
▁ㅇㅜ	-230
▁201	-231
▁ㅁㅏㄹ	-232
ㅇㅣㄹ	-233
ㅊㅔ	-234
▁ㄲㅏ	-235
▁/	-236
▁ㅅㅓㄴ	-237
▁ㅇㅕㅇ	-238
▁ㅇㅏㄴ	-239
▁ㅃ	-240
▁ㄷㅏㅇ	-241
▁ㅅㅐㅇ	-242
▁ㅂㅏㄹ	-243
▁ㄷㅓ	-244
ㅈㅏㄱ	-245
▁ㅇㅑ	-246
▁ㄴㅡㄴㄷㅔ	-247
ㅋㅡ	-248
ㅅㅗ	-249
▁ㄷㅔ	-250
▁0	-251
ㅁㅕㅇ	-252
▁ㅍㅏ	-253
ㅁㅜ	-254
▁ㅋㅡ	-255
ㅈㅡ	-256
▁ㅇㅝㄴ	-257
ㄱㅖ	-258
▁ㅍㅗ	-259
ㅣㅁ	-260
ㅋㅏ	-261
ㄷㅡㄹ	-262
▁ㅊㅓ	-263
ㅈㅐ	-264
▁ㅊㅜ	-265
ㅂㅗ	-266
▁ㄱㅏㅇ	-267
ㅅㅣㄱ	-268
▁ㅎㅐ	-269
▁ㅉ	-270
ㅌㅣ	-271
▁ㅊㅚ	-272
▁ㅁㅐ	-273
▁ㅂㅐ	-274
▁ㅋㅗ	-275
▁ㄱㅏㅌ	-276
ㄹㅜ	-277
▁ㅁㅕㅇ	-278
ㅁㅜㄹ	-279
▁ㅅㅣㄹ	-280
ㅇㅣㅁ	-281
▁ㅁㅜㄴ	-282
ㅅㅣㄹ	-283
ㄴㅡㅇ	-284
ㅁㅕ	-285
ㅎㅜ	-286
ㄷㅏㅇ	-287
▁ㄷㅏㄴ	-288
ㅇㅟ	-289
▁ㅂㅓㄴ	-290
▁ㅁㅏㄶ	-291
ㅇㅢ	-292
▁6	-293
▁ㅎㅚ	-294
▁ㅂㅜㄹ	-295
ㄹㅏㅁ	-296
ㅍㅡ	-297
▁ㅎㅗ	-298
▁ㅈㅏㄱ	-299
▁ㅌㅡㄱ	-300
▁ㄱㅘㄴ	-301
ㅎㅐㅇ	-302
ㅇㅕㄱ	-303
▁ㅍㅐ	-304
▁ㅇㅕㄱ	-305
▁ㅁㅔ	-306
ㅌㅗ	-307
ㅁㅗ	-308
ㅅㅓㄴ	-309
▁ㅆㅡ	-310
ㅇㅡㅁ	-311
▁ㅂㅏㄷ	-312
ㄷㅣ	-313
▁10	-314
▁ㄱㅕㅇㅇㅜ	-315
▁ㅍㅡ	-316
ㄷㅏㄴ	-317
ㄹㅕ	-318
▁ㅈㅣㄴ	-319
▁ㅂㅏㄴ	-320
▁ㄱㅕㄹ	-321
ㅍㅣ	-322
ㅊㅏ	-323
ㄴㅐ	-324
ㄱㅗㅇ	-325
▁ㅊㅗ	-326
ㅂㅓ	-327
▁S	-328
ㄱㅛ	-329
▁7	-330
ㅅㅔ	-331
ㅂㅜㄴ	-332
▁ㄱㅖ	-333
ㅅㅗㄱ	-334
ㅂㅏㄴ	-335
▁ㅁㅕㄴㅅㅓ	-336
▁ㄴㅣ	-337
▁19	-338
ㅈㅗ	-339
▁!	-340
▁8	-341
▁ㅋㅐ	-342
ㅂㅗㄴ	-343
ㅎㅏㄴ	-344
ㅈㅓㅁ	-345
ㅌㅔ	-346
ㅎㅏㄱ	-347
▁ㄴㅏㅁ	-348
ㅅㅐㅇ	-349
ㅈㅜㅇ	-350
▁ㅂㅜㄴ	-351
▁ㅁㅜㄹ	-352
ㄱㅏㄱ	-353
▁ㄷㅜ	-354
▁ㅍㅕㄴ	-355
ㅎㅚ	-356
ㅇㅕㄴ	-357
▁ㅇㅐ	-358
▁ㅎㅕㄴ	-359
ㄹㅗㄱ	-360
▁ㅊㅜㄹ	-361
ㄷㅜ	-362
▁ㅈㅓ	-363
ㅅㅏㄴ	-364
ㄹㅓㄴ	-365
▁ㄱㅜㄱ	-366
ㅈㅓ	-367
ㅔㄹ	-368
ㅌㅐ	-369
▁9	-370
▁ㄱㅗㅇㄱㅕㄱ	-371
▁ㅈㅓㅇㄷㅗ	-372
▁ㅁㅗㅅ	-373
▁ㅇㅏㄹ	-374
ㄹㅠ	-375
▁ㅋㅣ	-376
▁ㄸㅏ	-377
ㅈㅣㄴ	-378
▁ㅈㅗㅎ	-379
▁ㅇㅖ	-380
ㅋㅗ	-381
ㄹㅡㅁ	-382
ㄴㅗ	-383
▁ㅈㅓㅁ	-384
▁A	-385
ㅎㅗ	-386
ㄱㅘㄴ	-387
ㄹㅡㄴ	-388
▁M	-389
ㄱㅡㅂ	-390
ㅜㅁ	-391
▁ㅈㅐ	-392
▁ㅌㅡ	-393
▁ㄷㅡㅇㅈㅏㅇ	-394
ㄱㅜㄴ	-395
▁ㄱㅏㅁ	-396
▁ㄷㅣ	-397
ㅂㅏ	-398
ㅇㅕㅇ	-399
▁ㅎㅏㄱ	-400
▁ㄱㅛ	-401
▁ㅌㅗㅇ	-402
▁ㅊㅏㅁ	-403
ㅇㅏㄴ	-404
ㄱㅡㅁ	-405
ㅂㅡ	-406
▁ㄸㅗ	-407
ㅈㅗㅇ	-408
ㅂㅓㅂ	-409
ㄱㅕㅇ	-410
▁ㅎㅕㅇ	-411
▁ㅇㅣㅂ	-412
▁ㅅㅓㄹ	-413
ㅈㅓㄱ	-414
ㅂㅏㄹ	-415
▁ㅇㅚ	-416
ㅁㅐ	-417
ㅅㅡㅂ	-418
▁ㅅㅗㄱ	-419
ㅅㅜㄹ	-420
ㅌㅗㅇ	-421
ㅂㅏㅇ	-422
▁ㅍㅡㄹ	-423
▁ㅂㅗㄴ	-424
▁ㅌㅗ	-425
▁T	-426
▁ㄴㅓ	-427
▁ㄱㅜㄴ	-428
ㄹㅗㄴ	-429
▁C	-430
▁ㅎㅏㅁ	-431
ㅔㄴ	-432
ㅍㅗ	-433
ㅎㅐ	-434
▁ㄴㅔ	-435
▁200	-436
▁ㅍㅏㄴ	-437
ㅅㅕㄴ	-438
▁ㅎㅣ	-439
▁ㅍㅕㅇ	-440
▁ㅈㅜㄱ	-441
ㅈㅜㄴ	-442
▁ᄆ	-443
▁ㄱㅝㄴ	-444
▁D	-445
ㅇㅘ	-446
ㅇㅑㅇ	-447
▁ㅈㅗㅇ	-448
ㅇㅓㅂ	-449
▁B	-450
ㅍㅏ	-451
▁..	-452
ㅁㅣㄴ	-453
▁ㅇㅛㅇ	-454
▁ㅅㅏㄹ	-455
▁ㄱㅣㅁ	-456
ㅅㅡㅇ	-457
▁ㅇㅡㅁ	-458
ㄴㅕ	-459
ㄹㅛ	-460
▁%	-461
▁ㄴㅡㄴㄷㅏ	-462
▁~	-463
ㅌㅜ	-464
ㄱㅓㄴ	-465
▁ㅊㅔ	-466
ㅈㅣㄱ	-467
ㅇㅣㅂ	-468
▁ㄷㅡㅅ	-469
▁ㅈㅣㄱ	-470
▁ㅅㅣㅁ	-471
▁ㄷㅟ	-472
ㅍㅏㄴ	-473
▁ㄹㅜ	-474
▁ㅈㅏㄹ	-475
ㄹㅣㄱ	-476
▁ㅌㅔ	-477
ㅅㅣㅁ	-478
▁ㅁㅏㄴㄷㅡㄹ	-479
▁ㅁㅏㅈ	-480
ㄱㅐ	-481
ㄹㅓㅎ	-482
▁ㅂㅕㄴ	-483
▁ㅅㅡㅇ	-484
▁ㄷㅗㄹ	-485
▁ㅂㅔ	-486
▁ㅇㅜㄴ	-487
ㄹㅕㄴ	-488
▁+	-489
▁ㄱㅓㄴ	-490
ㅍㅜㅁ	-491
▁ㅎㅐㅇ	-492
ㅊㅡ	-493
▁ㅎㅘㄱ	-494
▁?	-495
ㅈㅗㄱ	-496
▁ㅁㅗㅅㅎㅏ	-497
er	-498
▁ㄲㅡ	-499
ㄹㅏㅇ	-500
ㅇㅜㄴ	-501
ㄹㅑㅇ	-502
▁12	-503
ㅅㅓㄹ	-504
▁ㅇㅣㄹㅂㅗㄴ	-505
ㅎㅕㅇ	-506
ㄱㅓㅅ	-507
▁P	-508
▁ㄷㅏㄹ	-509
ㅁㅔ	-510
▁ㅌㅣㅁ	-511
▁ㄱㅏㄴ	-512
ㅇㅔ	-513
ㄷㅓ	-514
ㄹㅓㅁ	-515
ㅇㅑㄱ	-516
▁ㅍㅣㄹ	-517
00	-518
ㅍㅛ	-519
ㄴㅓ	-520
▁ㅌㅜ	-521
ㄷㅡㄴ	-522
▁ㅂㅏㄱ	-523
ㄴㅈㅣ	-524
ㅇㅚ	-525
▁ㄴㅗㅍ	-526
▁ㅇㅑㄱ	-527
ㅎㅑㅇ	-528
▁L	-529
▁ㅁㅗㄱ	-530
ㅎㅘㅇ	-531
ㅇㅕ	-532
▁ㅊㅐ	-533
▁ㅇㅕㅆ	-534
▁ㅈㅣㅂ	-535
ㅈㅓㄹ	-536
▁ㄴㅏㄹ	-537
ㅅㅓㄱ	-538
▁ㅈㅗㄴ	-539
▁ㅍㅛ	-540
▁ㅎㅘㄹ	-541
▁ㅇㅓㄴ	-542
ㄴㅔ	-543
▁ㄴㅡㅇ	-544
▁ㅎㅏㄴㄱㅜㄱ	-545
▁ㅇㅑㅇ	-546
▁F	-547
ㅁㅏㅇ	-548
ㅊㅜ	-549
ㄲㅏ	-550
▁ㄱㅏㄱ	-551
ㄹㅕㅇ	-552
ㄹㅏㄴ	-553
▁G	-554
ㄹㅣㄱㅌㅓ	-555
▁ㄹㅕ	-556
ㅂㅗㄱ	-557
ㄲㅔ	-558
▁ㅅㅏㅇㄷㅐ	-559
in	-560
ㅎㅕㄴ	-561
ㅊㅜㄹ	-562
▁ㅁㅜㄴㅈㅔ	-563
ㅁㅓ	-564
ㅊㅓㅇ	-565
▁ㅂㅕㄹ	-566
▁11	-567
▁ㅇㅘㅇ	-568
ㅁㅗㄱ	-569
ㅇㅓㄴ	-570
▁E	-571
ㄹㄹㅏ	-572
ㅎㅏㅂ	-573
▁ㅎㅏㅁㄲㅔ	-574
▁ㅎㅣㅁ	-575
▁ㅅㅐ	-576
▁ㅂㅕㅇ	-577
▁ㅅㅐㅇㄱㅏㄱ	-578
▁ㅊㅓㄴ	-579
▁ㅌㅓ	-580
ㄴㄷㅔ	-581
▁ㅅㅜㄴ	-582
▁ㅎㅏㅇ	-583
▁ㄴㅡ	-584
▁ㅈㅏㅂ	-585
▁ㅅㅗㄴ	-586
ㅋㅔ	-587
▁ㅌㅐ	-588
▁ㅍㅔ	-589
▁ㄱㅕㅇㄱㅣ	-590
ㅎㅘㄴ	-591
ㅡㄹㄹㅣ	-592
▁ㅂㅡ	-593
▁ㅇㅘㄴ	-594
ㅂㅕㅇ	-595
▁ㄷㅗㄱ	-596
▁ㅌㅣ	-597
ㅇㅜㄹ	-598
▁ㄴㅡㅇㄹㅕㄱ	-599
▁ㅎㅛ	-600
▁ㄷㅏㅇㅅㅣ	-601
▁ㄷㅡㄹㅇㅓ	-602
▁ㅁㅏㄱ	-603
▁K	-604
▁ㅅㅣㄱ	-605
▁ㅍㅗㄱ	-606
▁ㄱㅔㅆ	-607
▁ㅁㅓㄱ	-608
▁ㅍㅡㄹㄹㅔ	-609
on	-610
ㄷㅏㅁ	-611
▁ㅆㅏ	-612
▁ㄱㅡㄴ	-613
▁ㅋㅜ	-614
▁ㄲㅡㅌ	-615
▁ㅂㅗㄱ	-616
ㅂㄴㅣ	-617
an	-618
▁ㄷㅏㅇㅎㅏ	-619
▁ㅂㅡㄹ	-620
ㅈㅡㄴ	-621
▁ㅈㅡㅇ	-622
ㄷㅗㄱ	-623
▁15	-624
ㅂㅐ	-625
ㅍㅔ	-626
▁ㅅㅠ	-627
▁ㅅㅏㅁ	-628
▁H	-629
ㅁㅏㄹ	-630
ㅎㅓㅁ	-631
▁ㄱㅘㅇ	-632
▁ㅊㅗㅇ	-633
▁ㄱㅓㅁ	-634
▁R	-635
ㅁㅏㄱ	-636
ㄹㅓㅂ	-637
ㄹㅏㄱ	-638
ㅍㅓ	-639
▁ㅃㅏ	-640
▁ㅋㅓ	-641
▁ㄴㅜ	-642
▁ㅁㅓ	-643
ㅊㅓㄴ	-644
ㅂㅔㄹ	-645
▁I	-646
ㅅㅗㅇ	-647
▁ㅆㅣ	-648
ㄴㄷㅡ	-649
▁ㅅㅏㅇㅌㅐ	-650
▁N	-651
ㄴㅅㅡ	-652
ㅅㅐㄱ	-653
ㅋㅜ	-654
▁ㅁㅏㄶㅇㅣ	-655
▁ㄱㅕㄹㄱㅜㄱ	-656
▁ㅇㅏㄱ	-657
▁ㅅㅏㅇㅎㅘㅇ	-658
▁m	-659
ㅅㅏㄹ	-660
▁ㄱㅗㄱ	-661
▁ㅇㅓㄹ	-662
▁ㅇㅕㄹ	-663
ㄴㅕㄴ	-664
▁ㅂㅐㄱ	-665
▁ㄱㅣㄹ	-666
▁ㅊㅜㅇ	-667
ㄹㅣㅂ	-668
ㄱㅏㅁ	-669
ㄴㅑㅇ	-670
▁ㄹㅓ	-671
or	-672
▁t	-673
▁ㄴㅓㅁ	-674
ㅊㅗ	-675
▁ㅈㅗㄴㅈㅐ	-676
ㅋㅣㄹ	-677
ㅌㅏㄴ	-678
▁ㄱㅡㅁ	-679
▁ㅊㅣㄴ	-680
▁ㄱㅡㅂ	-681
ㅇㅏㄱ	-682
▁ㅇㅓㅂ	-683
ㄱㅕㄹ	-684
ㅈㅣㄹ	-685
▁ㅈㅓㄴㅌㅜ	-686
▁ㅁㅜㄹㄹㅗㄴ	-687
ㄱㅡㄴ	-688
▁ㅅㅟ	-689
▁ㅇㅏㅍ	-690
ㅓㄹㅇㅓ	-691
▁ㄴㅜㄴ	-692
▁ㅅㅏㅇㄷㅏㅇ	-693
ㅕㅂ	-694
ㅉㅗㄱ	-695
ㅍㅕㄴ	-696
▁ㅅㅏㄴ	-697
▁#	-698
▁ㅎㅕㄴㅈㅐ	-699
▁ㅇㅣㅁ	-700
▁O	-701
ㅈㅐㅇ	-702
▁ㄱㅚ	-703
ar	-704
ㅈㅓㅂ	-705
▁ㅁㅣㅊ	-706
▁ㄱㅡㄱ	-707
▁ㄷㅏㄹㄹㅣ	-708
▁ㅊㅟ	-709
▁ㅇㅔㄴ	-710
ㅎㅏㅁ	-711
ㅇㅖ	-712
▁ㅎㅏㅂ	-713
▁ㅅㅣㄹㅈㅔ	-714
▁ㅅㅓㄴㅅㅜ	-715
ㄷㅡㅇ	-716
▁ㅍㅐㄴ	-717
▁ㅈㅓㄹ	-718
▁ㅇㅓㅁ	-719
▁W	-720
ㄴㅏㅁ	-721
ㄱㅅㅡ	-722
▁ㅎㅓ	-723
▁ㅋㅔ	-724
ㅌㅐㄱ	-725
▁ㅃㅜㄴ	-726
▁ㅋㅡㄹ	-727
ㅜㅇ	-728
ㄱㅏㅇ	-729
▁16	-730
at	-731
ㄹㅣㅁ	-732
ㅎㅏㅇ	-733
▁ㅁㅣㄴ	-734
ㅊㅓ	-735
▁30	-736
▁ㅊㅏㅇ	-737
ㅌㅔㅁ	-738
▁ㄱㅘㄴㄹㅕㄴ	-739
▁ㅇㅝ	-740
▁ㄴㅏㄴ	-741
he	-742
▁ㅌㅗㅇㅎㅏ	-743
ㅇㅘㅇ	-744
▁ㅊㅓㄹ	-745
ㅈㅗㄴ	-746
▁ㄸㅡ	-747
ㅂㅓㅁ	-748
▁ㄴㅗㅎ	-749
▁ㅎㅘㅇ	-750
ㄱㅡㄹ	-751
▁18	-752
▁ㅈㅜㄹ	-753
ㅍㅐ	-754
▁13	-755
▁ㅊㅏㅈ	-756
▁ㅇㅕㄱㅅㅣ	-757
ㅇㅝ	-758
ㄹㄹㅗ	-759
▁ㅇㅓㄷ	-760
▁ㅎㅘㄴ	-761
▁ㅊㅓㅅ	-762
▁ㅇㅣㄴㅎㅏ	-763
▁ㄱㅏㅌㅇㅣ	-764
▁ㅇㅣㄹㅂㅏㄴ	-765
▁ㅊㅏㅁㄱㅗ	-766
▁ㄹㅏㄴ	-767
▁ㅈㅏㄱㅍㅜㅁ	-768
ㅇㅜㅁ	-769
ㅋㅓ	-770
ㄴㅡ	-771
ㅌㅏㄹ	-772
ㄴㅓㄹ	-773
▁ㅂㅜㄱ	-774
ㅊㅣㅇ	-775
ㅈㅣㅂ	-776
▁ㅊㅓㅇ	-777
▁ㅂㅜㅌ	-778
▁ㄲㅗ	-779
▁ㄱㅗㅅ	-780
▁199	-781
▁ㄱㅟ	-782
▁c	-783
ㄲㅣ	-784
ㅇㅕㄹ	-785
▁14	-786
▁s	-787
ㅇㅡㄴ	-788
▁ㅎㅔ	-789
▁100	-790
ㄱㅕㄴ	-791
▁ㅌㅏㄹ	-792
ㅋㅡㅁ	-793
en	-794
▁ㄱㅗㄹ	-795
ㅂㅕㄹ	-796
▁ㄱㅕㄱ	-797
ㄱㅗㄱ	-798
▁ㅌㅡㄱㅎㅣ	-799
ㅌㅡㄹ	-800
▁ㅇㅣㄴㄱㅏㄴ	-801
▁ㅈㅗㅁ	-802
▁ㄹㅠ	-803
ㄱㅠ	-804
▁ㅍㅣㄹㅇㅛ	-805
▁ㄷㅗㄹㅇㅏ	-806
▁ㅇㅕㅇㅎㅘ	-807
▁V	-808
ㄴㄱㅏ	-809
▁ㅈㅏㅁ	-810
ㅇㅣㄴㄱㅗㅇ	-811
▁ㅉㅣ	-812
▁ㅎㅗㄴ	-813
▁ㅇㅗㄹㄹㅣ	-814
ㄷㅡㄱ	-815
▁ㅂㅓㅂ	-816
▁ㄴㅡㄴㅈㅣ	-817
▁ㅍㅏㄹ	-818
ㅇㅡ	-819
▁ㅂㅏㅇㅅㅗㅇ	-820
▁ㄹㅐ	-821
▁ㅂㅏㄲ	-822
▁ㅈㅡㄱ	-823
▁ㅌㅏㄴ	-824
ㅅㅡㅅ	-825
▁ㅇㅣㄴㅁㅜㄹ	-826
▁ㅂㅓㅁ	-827
▁ㅉㅐ	-828
▁ㄷㅓㄱ	-829
ㅂㅏㄱ	-830
▁ㄸㅓㄹㅇㅓ	-831
▁ㅇㅓㅄㅇㅣ	-832
▁ㅇㅞ	-833
▁ㅅㅐㅇㄱㅣ	-834
ㄱㅚ	-835
▁17	-836
▁25	-837
ㅎㅏㄱㄱㅛ	-838
▁ㅅㅑ	-839
ㅈㅣㅇ	-840
al	-841
▁ㅅㅟㅂ	-842
▁k	-843
ㄹㅓㅎㄱㅔ	-844
ㅎㅗㄴ	-845
▁ㄱㅡㄹ	-846
▁ㄷㅜㄹ	-847
ㅊㅏㅇ	-848
▁ㄱㅠ	-849
▁U	-850
▁ㄱㅕ	-851
▁ㄷㅏㅁ	-852
▁ㅂㅗㄴㅇㅣㄴ	-853
ㅊㅏㄱ	-854
ㄸㅐ	-855
ㅂㅔ	-856
▁ㄱㅓㄹ	-857
▁ㅂㅏㅇㅇㅓ	-858
▁ㅁㅗㅁ	-859
▁ㅁㅕㅊ	-860
▁00	-861
▁ㄴㅑ	-862
▁ㅍㅜㄹ	-863
▁ㅅㅣㅍ	-864
ㄴㅏㄴ	-865
▁ㅉㅗㄱ	-866
▁ㅇㅣㄹㅂㅜ	-867
ㄹㅣㄴ	-868
▁X	-869
ㅇㅓㅄ	-870
ㄹㅖ	-871
ㄹㅗㅂ	-872
ㅊㅏㄴ	-873
▁ㅁㅏㄴㅋㅡㅁ	-874
ㅎㅘㄹ	-875
ㅊㅓㄹ	-876
▁ㅅㅓㅇㅇㅜ	-877
▁ㅅㅏㅇㄷㅏㅇㅎㅣ	-878
ㅂㅡㄹ	-879
▁ㅇㅏㅁ	-880
ㅂㅕㄴ	-881
ㄹㅕㅂ	-882
▁ㅈㅣㄴㅎㅐㅇ	-883
ou	-884
▁ㅎㅏㄱㄱㅛ	-885
ㅈㅓㄴㅎㅣ	-886
ㄱㅝㄴ	-887
ㅂㅓㄴ	-888
ㅌㅓㄴ	-889
▁ㄱㅘㄴㄱㅖ	-890
▁ㄱㅏㅇㅎㅏ	-891
es	-892
ㄷㅏㄹ	-893
▁ㅁㅏㅌ	-894
▁ㅅㅓㄹㅈㅓㅇ	-895
▁ㄱㅜㄱㄱㅏ	-896
ㅇㅐ	-897
▁ㄴㅓㅎ	-898
▁ㅅㅗㄱㄷㅗ	-899
▁ㅉㅏ	-900
▁ㅂㅏㄺ	-901
▁ㅂㅓㄹ	-902
▁ㅇㅏㄹㄹㅣ	-903
ㅎㅢ	-904
▁ㅈㅜㄴ	-905
▁ㅈㅓㅂ	-906
▁ㅎㅡ	-907
▁ㅁㅗㄴㅅㅡ	-908
ㅍㅡㄹ	-909
ㄱㅡㄱ	-910
▁ㅇㅜㄹ	-911
▁ㅊㅡ	-912
▁2015	-913
ㅇㅝㄹ	-914
▁ㅊㅜㄱ	-915
ㅅㅜㄴ	-916
ㅇㅗㄴ	-917
ㅇㅠㄱ	-918
▁ㅎㅘㄹㄷㅗㅇ	-919
it	-920
▁ㅈㅓㄴㅈㅐㅇ	-921
▁ㅁㅡ	-922
▁ㅇㅝㄴㄹㅐ	-923
ㄴㅏㄹ	-924
▁ㅅㅡㄹ	-925
ㅁㅗㄴ	-926
ㄱㅘㅇ	-927
▁]	-928
ㅅㅡㄴ	-929
▁ㄴㅏㅈ	-930
ㅆㅣ	-931
ㄲㅜ	-932
▁ㅈㅜㄱㅇㅣ	-933
▁ㄱㅏㅁㄷㅗㄱ	-934
ㄹㅠㄹ	-935
ㅊㅏㄹ	-936
▁ㅁㅓㄹ	-937
ㄹㅑ	-938
▁ㄷㅗㅇㅇㅏㄴ	-939
▁ㄸㅟ	-940
ㄹㄹㅓ	-941
▁ㄱㅗㅇㄱㅕㄱㄹㅕㄱ	-942
▁ㅁㅏㄴㄴㅏ	-943
▁J	-944
▁ㅁㅜㄴㅅㅓ	-945
▁ㅎㅗㅁ	-946
▁ㅎㅢ	-947
▁50	-948
▁ㅁㅛ	-949
ㅂㅓㄹ	-950
ㅁㅂㅓ	-951
ㄹㅑㄱ	-952
▁ㅈㅡㅇㄱㅏ	-953
ㄷㅗㄹ	-954
▁ㅁㅏㅇ	-955
▁ㅇㅠㄱ	-956
ㅇㅡㅇ	-957
▁ㅇㅗㄹㄹㅏ	-958
▁ㅍㅕㅇㄱㅏ	-959
▁ㅇㅓㄴㄱㅡㅂ	-960
▁ㅁㅗㄹ	-961
▁ㅈㅣㄹ	-962
ㄴㅣㅅ	-963
ㅂㅜㄹ	-964
▁ㅁㅐㄴ	-965
▁[	-966
▁ㅇㅗㄴ	-967
▁ㄸㅓ	-968
is	-969
▁ㅈㅜㅇㄱㅜㄱ	-970
▁ㅈㅣㄱㅈㅓㅂ	-971
ㅈㅡㅇ	-972
▁&	-973
▁ㅎㅗㅇ	-974
ㄷㅣㅇ	-975
▁ㅅㅓㅇㄱㅗㅇ	-976
ㅂㅔㄴ	-977
▁ㅈㅏㅇㅁㅕㄴ	-978
ㅇㅠㄹ	-979
re	-980
▁2016	-981
▁ㅂㅏㄺㅎㅣ	-982
▁2014	-983
▁ㅍㅓ	-984
ㄱㅜㄹ	-985
▁ㅈㅓㅇㅂㅗ	-986
le	-987
▁ㄲㅙ	-988
▁ㅋㅏㄹ	-989
ㅉㅣ	-990
▁ㅇㅓㅁㅊㅓㅇ	-991
▁ㅁㅣㄹ	-992
▁ㅂㅗㅇ	-993
▁ㅁㅝ	-994
▁ㄴㅗㄴ	-995
▁ㅊㅜㄹㅇㅕㄴ	-996
ㄲㅟ	-997
ㅎㅏㄹ	-998
ㅋㅔㅅ	-999
▁ㅁㅔㅁㅂㅓ	-1000
ㄱㅟ	-1001
▁21	-1002
▁ㅎㅠ	-1003
▁ㅅㅓㄹㅁㅕㅇ	-1004
▁d	-1005
ㅂㅐㄱ	-1006
ic	-1007
▁ㅃㅐ	-1008
ㄲㅏㅂ	-1009
▁ㅆㅣㄱ	-1010
▁ㅈㅡ	-1011
▁ㅎㅣㅁㄷㅡㄹ	-1012
▁ㄴㅠ	-1013
ㄴㅕㅁ	-1014
ㅇㅡㄹ	-1015
▁ㅅㅛ	-1016
▁ㄷㅗㄴ	-1017
▁ㅈㅓㄴㅊㅔ	-1018
ㅉㅏ	-1019
▁ㄲㅐ	-1020
as	-1021
▁ㄷㅡㄷ	-1022
▁ㄱㅕㄹㄱㅘ	-1023
▁ㅇㅕㅇㅅㅏㅇ	-1024
▁ㅇㅙ	-1025
▁ㄷㅡㄴ	-1026
▁ㅎㅗㄱ	-1027
▁ㄴㅣㅁ	-1028
ㅊㅜㄱ	-1029
▁22	-1030
▁ㅇㅕㄱㅅㅏ	-1031
▁ㄹㅣㅇ	-1032
▁198	-1033
ㅎㅚㄱ	-1034
▁ㅊㅣㄴㄱㅜ	-1035
ㄴㅣㅇ	-1036
▁ㅊㅡㄱ	-1037
▁ㅂㅏㅇㅂㅓㅂ	-1038
▁ㅂㅜㄹㄹㅣ	-1039
▁w	-1040
▁ㅋㅓㄴ	-1041
▁ㅅㅓㄴㅌㅐㄱ	-1042
▁ㅎㅕㅂ	-1043
▁<	-1044
ㅊㅗㅇ	-1045
▁ㄱㅏㅈ	-1046
▁ㄴㅏㅁㅈㅏ	-1047
ㄱㅗㄴ	-1048
ㅅㅡㄹ	-1049
▁ㄱㅗㅇㅅㅣㄱ	-1050
▁24	-1051
ㄹㅓㄴㄷㅔ	-1052
ㅊㅐㄱ	-1053
▁ㅂㅏㄹㅁㅐ	-1054
ㅁㅐㄴ	-1055
▁ㄷㅏㅇㅇㅕㄴ	-1056
▁ㅈㅓㄴㅂㅜ	-1057
▁ㅅㅡㅂㄴㅣ	-1058
▁ㄱㅏㅂ	-1059
▁2017	-1060
▁ㄷㅏㅂ	-1061
▁2013	-1062
ing	-1063
▁ㅇㅣㄴㄱㅣ	-1064
▁ㅌㅏㅂ	-1065
▁40	-1066
▁ㄱㅏㄹ	-1067
ㅇㅜㄱ	-1068
▁ㅊㅐㄱ	-1069
ㅁㅓㄱ	-1070
▁2018	-1071
ㅍㅕㅇ	-1072
ㅂㅜㄱ	-1073
▁ㅅㅗㅇ	-1074
▁ㅇㅏㅂ	-1075
▁ㅎㅏㅇㅁㅗㄱ	-1076
ㄱㅏㅂ	-1077
▁ㅅㅐㄱ	-1078
▁ㄱㅓㄹㄹㅣ	-1079
▁ㅇㅣㄴㅌㅓ	-1080
▁ㅇㅔㄹ	-1081
▁ㅊㅣㅁ	-1082
ㅌㅣㅇ	-1083
▁ㅊㅜㄹㅅㅣㄴ	-1084
▁ㅆㅗ	-1085
ㄸㅓ	-1086
▁ㅎㅑㅇ	-1087
▁ㅇㅓㅁㅊㅓㅇㄴㅏ	-1088
ㅍㅣㄹ	-1089
ㄴㅜ	-1090
ㅇㅜㅇ	-1091
▁ㅅㅡㅇㄹㅣ	-1092
ㅅㅟ	-1093
▁a	-1094
▁ㅈㅏㄱㅈㅜㅇ	-1095
▁ㅈㅓㅇㅁㅏㄹ	-1096
▁ㄲㅣ	-1097
▁ㄴㅗㅇ	-1098
▁ㅇㅣㄹㅇㅓ	-1099
▁b	-1100
▁f	-1101
ㄹㅐㄱ	-1102
ㅊㅏㄴㄱㅏ	-1103
ㄴㅡㄹ	-1104
▁ㄸㅡㅅ	-1105
▁ㅇㅕㄴㄱㅜ	-1106
ㅇㅓㄹ	-1107
ㅇㅜㄴㄷㅡ	-1108
▁ㅇㅕㅇㅎㅑㅇ	-1109
▁ㅉㅣㄱ	-1110
▁ㅅㅓㅇㄱㅕㄱ	-1111
▁ㅂㅏㅇㅅㅣㄱ	-1112
▁23	-1113
▁ㅅㅓㅇㄴㅡㅇ	-1114
▁ㄷㅗㅇㅅㅣ	-1115
ㅃㅡ	-1116
ㅇㅏㅇ	-1117
ㅋㅓㄹ	-1118
ㄷㅔㄹ	-1119
ㅊㅣㅁ	-1120
▁ㅎㅕㅇㅌㅐ	-1121
ㅂㅗㅇ	-1122
▁ㅍㅜ	-1123
ㄹㅐㄴㄷㅡ	-1124
ㅇㅓㅆ	-1125
▁ㅊㅏㄱ	-1126
ㅡㄹㅇㅓ	-1127
▁ㅈㅓㅇㅅㅣㄴ	-1128
ㅎㅘㄱ	-1129
om	-1130
▁ㅅㅔㄴ	-1131
▁ㅅㅗㄱㅅㅓㅇ	-1132
▁ㅎㅟ	-1133
▁2012	-1134
▁ㄱㅜㅇ	-1135
ㅁㅣㄹ	-1136
ㅇㅕㅁ	-1137
▁ㅇㅣㄹㄷㅏㄴ	-1138
▁ㅁㅏㄴㅎㅘ	-1139
ㅈㅏㅂ	-1140
▁h	-1141
▁ㄱㅏㅇㄹㅕㄱ	-1142
▁o	-1143
▁ㅋㅗㄴ	-1144
▁ㅇㅕㄱㅎㅏㄹ	-1145
▁ㅇㅝㄹㄷㅡ	-1146
▁ㅇㅝㄴㅈㅏㄱ	-1147
▁ㅌㅡㄱㅅㅜ	-1148
▁ㅌㅡㄱㅅㅓㅇ	-1149
▁ㅂㅏㄹㅅㅐㅇ	-1150
ㅁㅕㄴㅅㅓ	-1151
▁ㅎㅏㄱㅅㅐㅇ	-1152
ㅋㅡㄹ	-1153
▁ㅅㅣㅁㅈㅣ	-1154
▁ㅇㅜㄴㅇㅕㅇ	-1155
▁ㅃㅗ	-1156
▁ㅅㅜㄹ	-1157
ㄱㅐㄱ	-1158
el	-1159
▁ㅂㅕㄴㄱㅕㅇ	-1160
▁ㅈㅏㄴ	-1161
▁ㄹㅡ	-1162
am	-1163
▁ㅇㅐㄱ	-1164
ㅂㅕㄱ	-1165
ㅍㅜㅇ	-1166
ㄸㅓㄴ	-1167
▁ㅇㅜㅁ	-1168
▁ㅇㅡㅁㅇㅏㄱ	-1169
ion	-1170
▁ㅅㅓㅁ	-1171
ㅂㅔㄴㅌㅡ	-1172
▁ㅂㅗㄹ	-1173
▁ㅈㅘ	-1174
▁p	-1175
▁ㅍㅜㅇ	-1176
ㅁㅍㅣ	-1177
▁ㅊㅏㅁㅈㅗ	-1178
▁ㅊㅡㅇ	-1179
▁ㅅㅓㄱ	-1180
▁ㅈㅣㅅ	-1181
▁ㅈㅜㅇㅇㅛ	-1182
▁ㅍㅖ	-1183
ㄸㅡ	-1184
▁ㅎㅡㄱ	-1185
ㄷㅓㄱ	-1186
▁ㅇㅓㄱ	-1187
▁ㅁㅕㅇㅊㅣㅇ	-1188
ㅎㅕ	-1189
▁ㅃㅏㄹ	-1190
▁ㅅㅣㅇ	-1191
▁ㄱㅕㄹㅈㅓㅇ	-1192
▁ㄱㅏㅇㅎㅘ	-1193
▁ㄷㅓㄱㅂㅜㄴ	-1194
▁ㅇㅕㅇㅇㅓ	-1195
▁ㄴㅏㄴㅇㅣ	-1196
▁2019	-1197
▁ㅈㅏㅇㅂㅣ	-1198
▁ㅁㅓㄴ	-1199
▁ㄱㅜㄱㄴㅐ	-1200
ㄸㅓㅎ	-1201
ㅇㅓㄱ	-1202
ㅍㅗㄱ	-1203
▁the	-1204
▁ㅈㅏㄱㄱㅏ	-1205
▁ㅇㅗㄹ	-1206
▁n	-1207
▁ㅎㅡㄴ	-1208
▁ㅎㅐㅇㄷㅗㅇ	-1209
ㅎㅜㄴ	-1210
▁ㅎㅘㄱㄹㅠㄹ	-1211
ㅁㅣㄴㄱㅜㄱ	-1212
▁26	-1213
▁ㄷㅗㄱㅇㅣㄹ	-1214
▁ㅁㅏㅈㅊㅜ	-1215
▁ㄴㅓㅁㅇㅓ	-1216
ㅎㅟ	-1217
▁ㅂㅏㄹㄷㅗㅇ	-1218
▁ㅇㅘㄴㅈㅓㄴㅎㅣ	-1219
▁ㅌㅡㄱㅈㅣㅇ	-1220
ac	-1221
ㄹㅐㅁ	-1222
▁2010	-1223
ol	-1224
▁28	-1225
▁ㅎㅜㄴ	-1226
▁ㄱㅚㅇ	-1227
▁ㅇㅐㄹ	-1228
▁ㅎㅘㄹㅇㅑㄱ	-1229
▁ㅎㅕㄴㄷㅐ	-1230
▁ㅊㅏㅈㅇㅏ	-1231
▁27	-1232
ㅌㅚ	-1233
ㅊㅡㄱ	-1234
▁ㄲㅡㅌㄴㅏ	-1235
▁ㄷㅣㄹ	-1236
ㅅㅜㄱ	-1237
▁ㄱㅗㄴ	-1238
▁ㅈㅓㄴㅎㅕ	-1239
▁ㅎㅗㄱㅇㅡㄴ	-1240
ㅁㅡ	-1241
▁TV	-1242
ㅅㅗㄴ	-1243
▁ㅅㅜㅁ	-1244
ㄹㅛㅇ	-1245
▁ㅃㅗㅂ	-1246
▁ㅇㅓㄹㄱㅜㄹ	-1247
ㅇㅗㄱ	-1248
▁ㅂㅣㅊ	-1249
▁2011	-1250
▁ㅈㅛ	-1251
▁ㅁㅐㅂ	-1252
▁ㄴㅗㄱ	-1253
▁ㄴㅏㄹㄹㅣ	-1254
ㅅㅐ	-1255
▁ㅇㅕㅇㄱㅜㄱ	-1256
▁ㅇㅕㅇㅇㅜㅇ	-1257
ㅎㅏㄴㅁㅣㄴㄱㅜㄱ	-1258
ㅐㅇㅋㅡ	-1259
▁ㅇㅣㅂㅈㅏㅇ	-1260
▁ㅈㅓㅇㅊㅣ	-1261
▁ㄱㅚㅇㅈㅏㅇ	-1262
ㄷㅓㄴ	-1263
▁ㅇㅡㅇ	-1264
▁ㄷㅓㄴㅈㅣ	-1265
▁ㄱㅗㅇㄱㅐ	-1266
ㅌㅡㄴ	-1267
▁ㅈㅓㅇㅎㅘㄱ	-1268
ㅇㅣㄴㅁㅜㄹ	-1269
▁ㅁㅠ	-1270
ㄲㅡㅁ	-1271
▁000	-1272
ㅇㅓㅅ	-1273
ㄷㅏㅂ	-1274
▁ㅁㅓㄴㅈㅓ	-1275
et	-1276
▁ㄷㅠ	-1277
▁ㄷㅏㅁㄷㅏㅇ	-1278
▁=	-1279
▁ㅎㅘㄱㅇㅣㄴ	-1280
ㅇㅣㄴㅌㅡ	-1281
ㅇㅓㅄㅇㅣ	-1282
▁ㅇㅣㅀ	-1283
▁ㄷㅡㅇㅈㅏㅇㅇㅣㄴㅁㅜㄹ	-1284
ㅁㅕㄹ	-1285
▁ㄷㅗㅇㅇㅣㄹ	-1286
ㄱㅌㅡ	-1287
il	-1288
ㄹㅐㄴ	-1289
ig	-1290
▁ㅇㅕㄴㄱㅣ	-1291
ㅇㅜㅅ	-1292
ㅊㅜㅇ	-1293
ed	-1294
▁ㅂㅏㄲㅇㅔ	-1295
ㄹㅓㄱ	-1296
▁Y	-1297
▁ㅇㅔㄴㄷㅣㅇ	-1298
▁ㅇㅓㄹㅁㅏ	-1299
▁ㅂㅏㄴㄷㅐ	-1300
▁ㅇㅠㄴ	-1301
▁ㅍㅏㄴㅁㅐ	-1302
ㄴㅗㅎ	-1303
▁ㄱㅘㄴㄹㅣ	-1304
▁ㅅㅐㅇㅅㅏㄴ	-1305
ㅁㅓㄴ	-1306
▁ㄱㅕㄴ	-1307
ow	-1308
ㄱㅗㄹ	-1309
▁ㅁㅐㄱ	-1310
▁ㄸㅏㄹ	-1311
▁ㄸㅏㄱ	-1312
ㅗㅊ	-1313
▁ㅅㅡㅂ	-1314
us	-1315
▁ㅇㅐㄹㅂㅓㅁ	-1316
▁ㅅㅣㄹㄹㅕㄱ	-1317
▁km	-1318
▁ㄱㅓㄴㅁㅜㄹ	-1319
▁ㅁㅏㅅ	-1320
▁ㅋㅓㅁ	-1321
▁ㅂㅏㅇㅁㅕㄴ	-1322
▁of	-1323
▁60	-1324
▁ㅈㅓㄱㅇㅛㅇ	-1325
▁ㅇㅏㅆㅇㅓㅆ	-1326
BS	-1327
▁ㅅㅣㄹㅍㅐ	-1328
ㅆㅓ	-1329
ㄹㅚ	-1330
▁29	-1331
▁ㅋㅞ	-1332
▁ㄲㅜ	-1333
▁ㅈㅓㅇㅂㅜ	-1334
ㄹㅗㅅ	-1335
▁ㄹㅏㅇ	-1336
ㅇㅞ	-1337
▁ㅅㅜㄴㄱㅏㄴ	-1338
ㅆㅏ	-1339
▁ㅈㅗㄱ	-1340
ㅊㅏㄶ	-1341
▁ㅊㅜㄹㅅㅣ	-1342
▁ㄱㅕㅇㅊㅏㄹ	-1343
▁ㅈㅓㄹㄷㅐ	-1344
▁ㅋㅡㄹㄹㅣ	-1345
▁ㅂㅏㄴㅇㅡㅇ	-1346
▁ㅇㅣㄴㅈㅓㅇ	-1347
▁Z	-1348
▁ㅅㅣㅁㅎㅏ	-1349
▁ㄷㅏㅇㅇㅕㄴㅎㅣ	-1350
▁ㅈㅣㄴㅉㅏ	-1351
ㄱㅏㄹ	-1352
▁ㅁㅜㄴㅎㅘ	-1353
▁ㄱㅓㄴㄷㅏㅁ	-1354
▁ㅂㅏㄹㄱㅕㄴ	-1355
ㅇㅔㄹ	-1356
ㅌㅏㄱ	-1357
ㄹㅏㅇㅅㅡ	-1358
▁ㅅㅐㅇㅎㅘㄹ	-1359
▁ㅇㅜㅁㅈㅣㄱ	-1360
▁ㅌㅚ	-1361
▁ㄸㅏㅇ	-1362
▁ㅋㅏㄴ	-1363
ㄱㅗㅅ	-1364
▁197	-1365
▁ㄱㅚㅇㅈㅏㅇㅎㅣ	-1366
ㅁㅗㅅ	-1367
▁ㅂㅔㄹ	-1368
▁31	-1369
▁ㅎㅏㄴㅌㅔ	-1370
▁ㅎㅘㄱㅅㅣㄹ	-1371
▁The	-1372
▁35	-1373
▁ㅎㅏㄴㅈㅓㅇ	-1374
▁ㅋㅣㅇ	-1375
▁ㄹㅗㅂ	-1376
▁v	-1377
ㄴㅔㅅ	-1378
ㅈㅕ	-1379
▁ㄷㅡㅅㅇㅣ	-1380
▁ㅎㅓㄴ	-1381
ㄹㅈㅣ	-1382
▁ㄷㅏㄴㄱㅖ	-1383
ad	-1384
ㅍㅗㄴ	-1385
▁ㅎㅕㄴㅅㅣㄹ	-1386
▁ㅈㅜㅇㄱㅏㄴ	-1387
ㄱㅠㄴ	-1388
▁ㅍㅗㄱㅂㅏㄹ	-1389
ㅇㅣㄱ	-1390
ㄹㅜㅂ	-1391
ㅅㅣㄹㅅㅏㅇ	-1392
ㄱㅓㅁ	-1393
▁ㅇㅑㄱㅎㅏ	-1394
ㅆㅣㄴ	-1395
▁ㄱㅜㄹ	-1396
ㅅㅠ	-1397
▁ㅂㅏㄹㅅㅏ	-1398
▁ㄱㅕㄹㅎㅗㄴ	-1399
▁r	-1400
ㄷㅓㅁ	-1401
ㄷㅡㄹㅇㅣ	-1402
▁ㅁㅣㄹㄹㅣ	-1403
▁ㅅㅏㅇㅅㅡㅇ	-1404
▁ㅋㅗㅁ	-1405
▁ㅇㅑㄱㄱㅏㄴ	-1406
▁ㅂㅏㅇㅎㅑㅇ	-1407
▁ㅎㅡㅂ	-1408
▁ㄷㅏㄴㅅㅜㄴ	-1409
▁ㅇㅜㄴㅎㅐㅇ	-1410
▁St	-1411
▁ㅂㅡㄹㄹㅐㄱ	-1412
▁ㅅㅏㅇㅇㅟ	-1413
ER	-1414
▁ㅎㅝㄹ	-1415
▁ㅎㅔㄹ	-1416
▁ㅌㅡㄱㅂㅕㄹ	-1417
▁2000	-1418
▁80	-1419
ㅌㅏㅇ	-1420
ㅊㅐ	-1421
ㅈㅚ	-1422
ㅇㅏㅂ	-1423
ㄹㅔㄴ	-1424
▁ㄷㅔㄱ	-1425
▁ㅋㅜㄹ	-1426
▁37	-1427
▁ㅈㅜㅇㅅㅣㅁ	-1428
▁ㅂㅓㅁㅇㅟ	-1429
▁ㅇㅣㄺ	-1430
▁ㄱㅕㅇㅎㅓㅁ	-1431
id	-1432
▁ㄱㅏㅁㅅㅗ	-1433
ot	-1434
and	-1435
▁ㄴㅏㅁㄱㅣ	-1436
▁ㅅㅣㅀ	-1437
▁ㅈㅚ	-1438
ㅂㅗㅅ	-1439
ㄸㅓㅎㄱㅔ	-1440
▁ㅇㅜㄴㄷㅗㅇ	-1441
▁ㄷㅗㅇㄹㅛ	-1442
▁ㅎㅝㄹㅆㅣㄴ	-1443
ㅇㅛㄱ	-1444
▁ㅆㅏㅇ	-1445
ay	-1446
ㅎㅗㄱ	-1447
▁ㅌㅏㅁ	-1448
▁ㅂㅣㄹ	-1449
▁ㅎㅏㄹ	-1450
▁ㅎㅘㄹㅇㅛㅇ	-1451
▁ㅂㅜㄴㅇㅟ	-1452
▁500	-1453
▁ㄴㅏㄱ	-1454
▁ㄸㅗㄱ	-1455
▁ㅁㅜㄹㄹㅣ	-1456
▁ㅎㅗㄴㅈㅏ	-1457
▁ㅁㅣㄷ	-1458
▁ㅅㅜㄱ	-1459
ㄲㅣㅁ	-1460
ve	-1461
▁ㄱㅙ	-1462
▁ㅇㅛㄱ	-1463
▁ㅈㅜㅇㅇㅏㅇ	-1464
ch	-1465
▁ㅂㅏㅇㅇㅕㅇ	-1466
▁ㅈㅓㄴㅇㅛㅇ	-1467
▁ㅌㅏㅅ	-1468
▁ㅎㅐㄱ	-1469
▁ㅇㅕㅁ	-1470
ㄱㅜㅇ	-1471
▁ㅂㅏㅁ	-1472
ㅌㅠ	-1473
▁ㅇㅕㅍ	-1474
▁ㅋㅔㄴ	-1475
▁ㅁㅗㄱㅈㅓㄱ	-1476
un	-1477
ㅂㅠ	-1478
▁ㅂㅣㄴ	-1479
▁ㅇㅜㅅ	-1480
▁ㅅㅓㄹㅊㅣ	-1481
▁ㅂㅜㄹㄱㅜ	-1482
▁ㅈㅣㄴㅊㅜㄹ	-1483
▁ㅇㅒ	-1484
▁ㅎㅏㅇㄱㅗㅇ	-1485
▁ㅂㅓㄴㅇㅕㄱ	-1486
dd	-1487
▁l	-1488
ㄱㅌㅓ	-1489
20	-1490
▁ㄲㅜㅁ	-1491
▁ㅎㅡㅇ	-1492
▁ㅅㅏㄹㅇㅏ	-1493
▁ㅊㅜㄱㄱㅜ	-1494
ㅋㅔㅅㅁㅗㄴ	-1495
▁ㅈㅠ	-1496
▁ㅈㅗㅇㅈㅗㄱ	-1497
▁ㄹㅓㄴ	-1498
▁ㅅㅓㄴㅂㅏㄹ	-1499
▁90	-1500
▁ㅋㅠ	-1501
▁ㅇㅣㄱ	-1502
ㅅㅓㅂ	-1503
ㅋㅠ	-1504
ㄱㅏㅌ	-1505
▁ㄱㅙㄴ	-1506
▁ㅁㅜㄷ	-1507
▁mm	-1508
▁ㅎㅚㄱ	-1509
ㄷㅡㅇㅎㅏㄱㄱㅛ	-1510
▁ㅈㅡㄹ	-1511
▁ㅈㅓㄴㅊㅏ	-1512
▁ㄴㅕ	-1513
▁ㄱㅏㄱㄱㅏㄱ	-1514
ㅂㅟ	-1515
ㅎㅕㄹ	-1516
▁ㄹㅗㄴ	-1517
▁ㅂㅜㅌㅇㅣ	-1518
ㅎㅛ	-1519
▁ㄲㅓ	-1520
▁ㄹㅛ	-1521
ㅋㅣㅇ	-1522
ㄹㅣㅇ	-1523
▁ㅇㅣㄹㅇㅡ	-1524
▁ㄲㅡㄹ	-1525
▁ㅂㅕㄴㅎㅏ	-1526
▁ㅇㅕㄹㄹㅣ	-1527
▁ㄷㅡㄱ	-1528
▁ㅌㅟ	-1529
▁g	-1530
▁ㅊㅏㅁㅇㅕ	-1531
▁ㅌㅓㄴ	-1532
ㅇㅣㄹㄹㅓ	-1533
▁70	-1534
▁ㅈㅏㄹㅁㅗㅅ	-1535
ㅌㅣㄴ	-1536
▁ㄹㅣㄴ	-1537
ro	-1538
▁ㄴㅡㄹㅇㅓ	-1539
▁ㅅㅓㅇㅈㅏㅇ	-1540
ㅉㅏㄱ	-1541
ㄹㄹㅔ	-1542
ㄷㅏㄱ	-1543
ㅁㅣㅇ	-1544
▁ㅇㅗㅂ	-1545
▁01	-1546
▁ㅍㅗㄹ	-1547
▁ㅅㅓㅇㅈㅓㄱ	-1548
▁ㅊㅓㄹㄷㅗ	-1549
ㅉㅐ	-1550
▁2009	-1551
▁ㅈㅓㄴㅁㅜㄴ	-1552
▁ㅉㅏㄼ	-1553
▁ㅈㅗㄹ	-1554
▁ㅈㅓㄴㅅㅓㄹ	-1555
▁ㄷㅗㅂ	-1556
▁ㄱㅜㄷ	-1557
ㄲㅇㅣ	-1558
▁ㅊㅐㅁㅍㅣ	-1559
ㅊㅏㅁ	-1560
▁ㅅㅐㅇㅁㅕㅇ	-1561
▁ㅂㅓㄹㅇㅓ	-1562
▁ㅊㅓㄱ	-1563
▁ㄴㅗㄴㄹㅏㄴ	-1564
▁ㅊㅣㅇ	-1565
▁ㅁㅏㄴㄷㅡ	-1566
▁45	-1567
▁ㅇㅔㄹㄹㅣ	-1568
▁ㅂㅏㄹㅍㅛ	-1569
▁ㅈㅓㄴㅈㅏㄱ	-1570
▁ㅂㅓㅅ	-1571
ㄴㅑ	-1572
ㅇㅓㅁ	-1573
▁ㅅㅏㅁㅅㅓㅇ	-1574
▁ㄹㅑㅇ	-1575
▁ㅍㅕㄹ	-1576
ㅎㅕㅂ	-1577
▁ㅊㅜㅇㄱㅕㄱ	-1578
▁ㅈㅜㄴㅂㅣ	-1579
ㅂㅏㄷ	-1580
▁ㅈㅣㅇ	-1581
▁ㅅㅔㅁ	-1582
▁ㅎㅜㄴㄹㅕㄴ	-1583
▁ㅇㅠㄹ	-1584
▁ㅎㅏㄱㄴㅕㄴ	-1585
▁...	-1586
▁ㅍㅐㄱ	-1587
ㅇㅐㄱ	-1588
ㅊㅣㄱ	-1589
▁ㄹㅠㄹ	-1590
▁ㄸㅗㄱㄱㅏㅌ	-1591
ir	-1592
▁ㅇㅔㄴㅈㅣㄴ	-1593
▁ㅇㅗㄱ	-1594
▁ㅇㅣㄹㅈㅓㅇ	-1595
ㅌㅗㅇㄹㅕㅇ	-1596
▁ㅇㅣㄹㅎㅐㅇ	-1597
▁ㅈㅗㅇㄹㅠ	-1598
ㅂㅗㄹ	-1599
ㄴㅣㄱ	-1600
▁ㅈㅣㄱㅇㅓㅂ	-1601
▁300	-1602
▁ㅈㅓㅇㅅㅏㅇ	-1603
▁ㅇㅓㄴㅈㅔ	-1604
▁ㅇㅜㅁㅈㅣㄱㅇㅣ	-1605
▁ㅂㅕㄱ	-1606
▁ㄹㅔㄴ	-1607
▁ㅅㅏㄱ	-1608
▁32	-1609
ter	-1610
▁ㅎㅕㄹ	-1611
▁ㄱㅕㅇㅈㅔ	-1612
ㅊㅓㄱ	-1613
▁ㅂㅕㄴㅎㅘ	-1614
▁ㅍㅡㄹㄹㅐ	-1615
▁ㄷㅓㅁ	-1616
▁ㅈㅜㄱㅇㅡㅁ	-1617
ㄹㄲㅏ	-1618
ㅁㅐㅇ	-1619
▁ㄱㅗㅇㅈㅜㅇ	-1620
▁ㅈㅓㅇㅊㅔ	-1621
▁ㅂㅓㄹㅇㅣ	-1622
▁ㄲㅡㄶ	-1623
▁ㅂㅓㄴㅎㅗ	-1624
▁ㅁㅗㄱㅅㅗ	-1625
▁ㅈㅏㅇㅊㅏㄱ	-1626
▁ㅇㅕㄴㅅㅗㄱ	-1627
▁ㄹㅗㄱ	-1628
im	-1629
▁ㅂㅣㅇ	-1630
▁ㅇㅏㄴㅌㅏ	-1631
▁ㅈㅓㄴㅅㅏ	-1632
▁ㄴㅏㄹㅇㅏ	-1633
▁ㅍㅜㅁ	-1634
▁ㄹㅣㅇㅋㅡ	-1635
▁ㅈㅏㄱㅈㅓㄴ	-1636
▁196	-1637
▁ㅈㅓㄴㄱㅣ	-1638
▁ㄱㅡㄴㅈㅓㅂ	-1639
▁)	-1640
▁ㅅㅣㅂ	-1641
▁ㅇㅕㄴㅊㅜㄹ	-1642
▁ㅈㅓㄴㅎㅏ	-1643
▁48	-1644
▁ㅎㅚㄱㄷㅡㄱ	-1645
▁ㄹㅕㄱ	-1646
▁ㅇㅏㄱㅁㅏ	-1647
▁ㅊㅜㅇㅂㅜㄴ	-1648
▁ㅈㅓㅇㅈㅏㄱ	-1649
▁ㅂㅕㄹㄹㅗ	-1650
ㅅㅔㄴ	-1651
▁ㄷㅡㅇㄱㅡㅂ	-1652
ㅇㅘㄴ	-1653
ㅅㅑ	-1654
ㄹㅠㄱ	-1655
▁ㄱㅡㄱㅈㅏㅇ	-1656
▁ㄴㅗㄹ	-1657
▁ㅊㅏㅁㄱㅏ	-1658
ub	-1659
▁ㅅㅣㄴㄱㅕㅇ	-1660
▁ㄴㅏㅁㅅㅓㅇ	-1661
▁ㅈㅓㅇㅅㅣㄱ	-1662
▁ㄱㅜㄱㅈㅔ	-1663
▁ㄹㅗㅅ	-1664
ㅂㅣㄴ	-1665
▁ㄷㅓㄴㅈㅓㄴ	-1666
▁ㄷㅗㅇㅁㅜㄹ	-1667
▁2008	-1668
▁ㄴㅐㅇ	-1669
ag	-1670
▁ㅌㅓㄹ	-1671
▁ㄷㅏㅇㅅㅣㄴ	-1672
BC	-1673
▁cm	-1674
▁ㄷㅟㅅ	-1675
ㄹㅗㄹ	-1676
▁y	-1677
▁ㅅㅔㄴㅌㅓ	-1678
ㄷㅜㅇ	-1679
▁ㅍㅏㄴㅈㅓㅇ	-1680
▁36	-1681
▁ㅁㅕㄹ	-1682
▁ㄱㅏㄱㅈㅗㅇ	-1683
▁ㅇㅕㄴㅎㅏㅂ	-1684
▁ㅋㅐㅁ	-1685
▁ㅇㅕㄴㄱㅕㄹ	-1686
▁ㅂㅏㄴㅁㅕㄴ	-1687
▁ㅂㅕㄴㅅㅣㄴ	-1688
▁ㄷㅗㄹㄹㅣ	-1689
▁ㅍㅣㄹㄷㅡ	-1690
▁33	-1691
▁ㄷㅏㄴㅇㅓ	-1692
ㅊㅟ	-1693
▁ㅌㅡㄱㅈㅓㅇ	-1694
▁ㅈㅗㅇㄹㅛ	-1695
▁ㅂㅣㄱ	-1696
ㅌㅗㄴ	-1697
▁Lv	-1698
▁ㅎㅏㅇㅅㅏㅇ	-1699
▁*	-1700
▁ㄹㅐㄴ	-1701
ㄱㅓㅂ	-1702
▁ㅅㅗㄹ	-1703
ㅁㅏㄹㄹㅗ	-1704
▁x	-1705
▁ㄱㅘㄴㅅㅣㅁ	-1706
▁ㅋㅡㄹㄹㅐ	-1707
▁ㅇㅏㄴㅈㅓㅇ	-1708
▁ㅁㅐㅇ	-1709
ㄴㅏㄱ	-1710
▁ㅁㅣㄴㅈㅜ	-1711
▁ㅁㅏㄴㅇㅑㄱ	-1712
ㅉㅓ	-1713
▁ㅅㅕㄴ	-1714
▁ㄱㅗㅇㅇㅕㄴ	-1715
▁ㄱㅗㄷ	-1716
ㄲㅡ	-1717
▁ㄸㅜ	-1718
ㅋㅗㄴ	-1719
▁e	-1720
▁ㅈㅏㅇㄱㅏㅂ	-1721
▁ㅎㅘㅇㅈㅔ	-1722
▁ㄷㅏㄴㅈㅓㅁ	-1723
▁05	-1724
ur	-1725
▁ㅁㅗㄴ	-1726
▁ㅇㅓㅂㄷㅔ	-1727
▁ㅂㅜㄴㄴㅗ	-1728
▁ㄴㅗㅁ	-1729
▁ㄱㅏㄱㅅㅓㅇ	-1730
▁ㅂㅜㄱㅎㅏㄴ	-1731
od	-1732
▁ㅂㅕㄹㅁㅕㅇ	-1733
ㅁㅠ	-1734
▁ㅁㅜㄹㄱㅓㄴ	-1735
os	-1736
▁ㅂㅔㄴ	-1737
ㅂㅜㅌ	-1738
▁02	-1739
▁ㅅㅓㄴㄱㅓ	-1740
ㄱㅣㄹ	-1741
ㅇㅏㄹ	-1742
▁ㅈㅓㅁㅅㅜ	-1743
ㅎㅕㄱ	-1744
▁ㅌㅡㄱㅇㅣ	-1745
ㅇㅕㅂ	-1746
▁ㅇㅣㄹㄹㅓ	-1747
▁ㅉㅡㅁ	-1748
▁ㄴㅓㄼ	-1749
▁ㅂㅏㄹㅈㅓㄴ	-1750
▁th	-1751
ㅎㅏㄱㅅㅐㅇ	-1752
ㄹㅕㄹ	-1753
▁03	-1754
▁ㄱㅙㄴㅊㅏㄶ	-1755
▁ㅎㅑㅇㅎㅏ	-1756
▁ㅇㅗㅅ	-1757
ㅌㅔㄴ	-1758
▁ㅍㅕㄹㅊㅣ	-1759
ST	-1760
▁ㄴㅓㅁㄱㅣ	-1761
ㅈㅡㅁ	-1762
ㄷㅗㅇㅇㅏㄴ	-1763
ㅃㅏ	-1764
▁ㅎㅏㄴㅍㅕㄴ	-1765
ㅂㅡㄴ	-1766
ㅋㅛ	-1767
▁ㄷㅏㄹㅅㅓㅇ	-1768
▁ㅁㅗㄱㄹㅗㄱ	-1769
ㅅㅔㅂ	-1770
▁SK	-1771
ㄴㅠ	-1772
ㅍㅖ	-1773
▁EX	-1774
▁ㅇㅘㄴㅈㅓㄴ	-1775
▁ㄴㅣㄴ	-1776
▁ㅅㅣㅇㄱㅡㄹ	-1777
▁ㄱㅜㄴㅅㅏ	-1778
▁ㅇㅏㄹㅇㅏ	-1779
ㅂㅏㅂ	-1780
ㅌㅔㄹ	-1781
▁ㄸㅢ	-1782
ㅘㄹ	-1783
▁ㅇㅣㄴㄱㅜ	-1784
▁ㅅㅏㄱㅈㅔ	-1785
▁ㅅㅜㄴㅇㅟ	-1786
ㅎㅖ	-1787
▁',	-1788
ㅋㅣㄴ	-1789
▁ㄲㅏㄹ	-1790
▁ㅈㅓㅁㅍㅡ	-1791
▁ㅅㅏㄹㄹㅣ	-1792
um	-1793
▁ㅎㅗㅁㄹㅓㄴ	-1794
ㅅㅙ	-1795
▁ㅋㅟ	-1796
▁ㅎㅏㄱㅇㅝㄴ	-1797
ff	-1798
▁ㅂㅜㄴㄹㅠ	-1799
▁ㄱㅜㄱㅁㅣㄴ	-1800
▁2007	-1801
igh	-1802
▁ㅇㅣㄴㅅㅣㄱ	-1803
▁ㅇㅕㄱㄷㅐ	-1804
▁ㅅㅏㅇㄱㅘㄴ	-1805
▁ㄴㅏㅂ	-1806
▁ㅈㅓㄴㄱㅜㄱ	-1807
ㅇㅠㄴ	-1808
▁ㅅㅐㅇㅈㅗㄴ	-1809
ㄷㅗㅇㅊㅏ	-1810
ut	-1811
▁ㅈㅣㄱㅈㅓㄴ	-1812
▁ㅈㅏㅇㅅㅗ	-1813
ent	-1814
▁ㅇㅖㅅ	-1815
▁ㄲㅗㅊ	-1816
▁34	-1817
▁ㅂㅗㄴㄹㅐ	-1818
▁ㅎㅕ	-1819
ㅇㅏㅁ	-1820
▁ㅇㅕㄴㅈㅐ	-1821
▁ㅇㅚㄴ	-1822
▁09	-1823
ㅎㅓ	-1824
▁ㅁㅗㅇ	-1825
▁HP	-1826
▁04	-1827
▁ㅊㅜㄹㅈㅓㄴ	-1828
▁ㅈㅏㄱㄱㅗㄱ	-1829
ㅊㅣㄴ	-1830
▁ㅍㅔㄴ	-1831
▁ㅆㅏㅎ	-1832
ㄷㅜㅁ	-1833
▁ㄴㅚ	-1834
▁ㅁㅗㄱㅍㅛ	-1835
ak	-1836
▁ㅌㅡㄹ	-1837
50	-1838
▁07	-1839
▁ㅈㅣㄴㅎㅘ	-1840
▁ㅇㅣㅅ	-1841
ver	-1842
ㅁㅛ	-1843
▁08	-1844
▁06	-1845
AR	-1846
▁ㄱㅏㅁㅈㅓㅇ	-1847
▁ㄴㅗㄹㄹㅏ	-1848
▁ㅈㅓㄴㅈㅏ	-1849
▁ㅇㅣㅇ	-1850
▁ㅋㅓㄹ	-1851
▁ㅎㅗㄹ	-1852
▁ㄱㅣㅍ	-1853
▁ㅅㅗㄱㅎㅏ	-1854
ec	-1855
ㄹㅣㅅ	-1856
▁ㅂㅜㅇ	-1857
▁ㅍㅗㄴ	-1858
▁ㅁㅕㅇㄹㅕㅇ	-1859
▁ㅇㅡㄴㄷㅔ	-1860
▁ㅌㅗㄴ	-1861
▁ㄱㅗㅇㄱㅏㄴ	-1862
▁ㄷㅗㄱㄹㅣㅂ	-1863
▁ㄱㅏㅂㅈㅏ	-1864
▁ㄸㅓㄱ	-1865
ㅇㅏㅅ	-1866
▁ㅇㅏㅂㄷㅗ	-1867
▁ㅈㅓㄴㄱㅐ	-1868
▁ㅌㅔㄴ	-1869
ㅅㅟㅂ	-1870
ㄱㅕ	-1871
▁ㅂㅕㅇㅇㅝㄴ	-1872
▁ㄱㅜㄴㄷㅐ	-1873
▁ㅇㅞㅂ	-1874
▁ㅇㅣㄴㅅㅏ	-1875
▁ㄱㅕㅁ	-1876
AN	-1877
▁ㅈㅏㄱㅇㅓㅂ	-1878
▁ㄱㅓㄴㅅㅓㄹ	-1879
▁Q	-1880
▁ㅈㅗㄹㅇㅓㅂ	-1881
▁ㄹㅗㅅㄷㅔ	-1882
▁ㅈㅜㅇㅂㅏㄴ	-1883
ㅈㅣㅅ	-1884
▁ㅌㅏㄹㅊㅜㄹ	-1885
▁ㅁㅔㄴ	-1886
ㄲㅡㄹ	-1887
ㅊㅗㄴ	-1888
ㅋㅓㅂ	-1889
▁ㅈㅓㅇㅎㅏ	-1890
▁2006	-1891
▁ㅂㅏㄹㅇㅡㅁ	-1892
▁ㅅㅏㄹㅇㅣㄴ	-1893
▁ㅇㅣㄴㅊㅓㄴ	-1894
▁ㅍㅣㄱ	-1895
ㅈㅔㄱㅌㅡ	-1896
▁ㅁㅣㅌ	-1897
ㄹㅔㄱ	-1898
ㅂㅓㅂㅅㅏ	-1899
▁ㄴㅗㅍㅇㅣ	-1900
▁ㄴㅏㅅ	-1901
▁194	-1902
▁ㅎㅕㄴㅅㅏㅇ	-1903
▁38	-1904
ㅎㅡㅇ	-1905
▁ㅇㅝㄴㅇㅣㄴ	-1906
▁ㄷㅗㅇㅅㅐㅇ	-1907
▁ㅍㅣㄹㅅㅏㄹ	-1908
▁ㅎㅏㄴㄱㅡㄹ	-1909
▁ㅎㅘㄱㅈㅓㅇ	-1910
▁ㅃㅜ	-1911
ㄹㄹㅣㅇ	-1912
▁ㅊㅏㄴ	-1913
▁ㅈㅏㅇㅈㅓㅁ	-1914
▁ㅍㅡㄹㄹㅏ	-1915
▁ㅅㅜㅁㄱㅣ	-1916
ㅊㅡㅇ	-1917
▁ㄱㅏㅇㅈㅔ	-1918
▁ㄱㅕㄲ	-1919
▁kg	-1920
▁ㅇㅔㄱㅅㅡ	-1921
▁ㅇㅣㅁㅁㅜ	-1922
▁ㅎㅐㅇㅇㅟ	-1923
▁ㄱㅘㄴㅎㅏ	-1924
▁ㅂㅕㅇㅅㅏ	-1925
▁ㄱㅡㄴㄷㅔ	-1926
▁ㄱㅗㅇㅈㅜ	-1927
▁ㄱㅏㅈㅊㅜ	-1928
▁ㅊㅘㄹ	-1929
▁ㅈㅣㅁ	-1930
▁ㅈㅓㅇㅎㅘㄱㅎㅣ	-1931
▁ㅈㅓㄴㄹㅕㄱ	-1932
▁ㅇㅡㅁㅅㅣㄱ	-1933
▁ㅂㅜㄺ	-1934
▁ㄱㅕㄹㅅㅡㅇ	-1935
▁ㅂㅣㄹㄹㅣ	-1936
▁ㅅㅣㄴㅊㅔ	-1937
▁ㅎㅗㅁㅍㅔ	-1938
▁ㅂㅕㅇㄹㅕㄱ	-1939
ㅌㅏㄹㄹㅣ	-1940
▁ㅂㅏㄷㅇㅏ	-1941
▁ㅈㅜㄹㅇㅓ	-1942
▁ㅇㅘㄴㅅㅓㅇ	-1943
▁ㄱㅕㅇㅈㅐㅇ	-1944
▁ㅅㅔㅅ	-1945
▁ㄱㅡㄴㅊㅓ	-1946
▁ㄹㅗㄹ	-1947
▁ㅈㅓㄴㅂㅏㄴ	-1948
▁ㄲㅗㄱ	-1949
▁ㄷㅓㄹ	-1950
▁ㅈㅏㅁㅅㅣ	-1951
▁in	-1952
▁ㅍㅕㅇㅂㅓㅁ	-1953
▁>	-1954
ㅅㅡㅁ	-1955
▁ㅍㅕㅇㄱㅠㄴ	-1956
▁ㄹㅐㅇㅋㅡ	-1957
▁ㅋㅐㅂ	-1958
ㅅㅜㅁ	-1959
▁ㅎㅐㅇㅈㅓㅇ	-1960
▁ㅇㅣㄴㄷㅗ	-1961
▁ㅈㅣㅂㅈㅜㅇ	-1962
▁ㅊㅘㄹㅇㅕㅇ	-1963
▁ㄱㅘㅇㄱㅗ	-1964
▁FC	-1965
▁ㅌㅐㄱ	-1966
▁ㄲㅜㄴ	-1967
▁ㅇㅗㄻ	-1968
ㅁㅔㄴ	-1969
▁ㅈㅗㅇㅈㅗㅇ	-1970
▁LG	-1971
▁ㅋㅛ	-1972
▁ㅅㅓㄴㅅㅐㅇ	-1973
▁ㅈㅏㅂㅎㅣ	-1974
▁you	-1975
▁ㅂㅐㄴㄷㅡ	-1976
ㅁㅕㅊ	-1977
▁ㅂㅏㄴㄷㅡ	-1978
▁ㅁㅕㅊㅁㅕㅊ	-1979
▁ㅍㅗㄱㅌㅏㄴ	-1980
▁ㅇㅗㅂㅅㅕㄴ	-1981
▁ㅈㅜㄹㅇㅣ	-1982
em	-1983
▁ㄴㅡㄹ	-1984
▁ㅎㅘㄴㄱㅕㅇ	-1985
▁ㅂㅜㄴㅁㅕㅇ	-1986
▁ㄷㅏㄴㅊㅔ	-1987
▁ㅂㅗㅇㅇㅣㄴ	-1988
▁ㅉㅗㅊ	-1989
ㄹㅏㄴㄷㅡ	-1990
▁ㅋㅝ	-1991
ㅍㅣㄱ	-1992
▁ㅈㅗㅎㅇㅏ	-1993
ㄱㅓㄹ	-1994
ON	-1995
▁ㄱㅜㄷㅇㅣ	-1996
▁ㅈㅗㅇㄱㅛ	-1997
▁ㅅㅣㄹㅎㅓㅁ	-1998
▁ㅈㅡㄹㄱㅣ	-1999
▁ㅂㅗㄱㅅㅜ	-2000
▁ㄱㅗㅇㅍㅗ	-2001
ㅡㄹㄹㅣㅇ	-2002
ㅈㅔㄹ	-2003
▁ㄱㅗㄹㄷㅡ	-2004
▁ㅂㅏㄹㅇㅓㄴ	-2005
▁ㅇㅘㄴㅂㅕㄱ	-2006
▁ㅎㅏㅁㅈㅓㅇ	-2007
ㅅㅣㅇ	-2008
▁ㅍㅏㄴㄷㅏㄴ	-2009
▁ㅈㅐㄱ	-2010
▁ㅈㅣㄱㅎㅜ	-2011
▁ㅂㅡㄹㄹㅔ	-2012
▁ㅋㅓㅂ	-2013
▁ㅇㅜㄴㅇㅛㅇ	-2014
▁ㅅㅑㅅ	-2015
▁MA	-2016
▁ㅇㅓㅂㄱㅡ	-2017
ㅂㅣㅇ	-2018
▁ㄷㅏㄴㅈㅣ	-2019
▁ㅇㅣㄹㅂㅗㄴㅇㅓ	-2020
▁ㅌㅗㅇㅎㅏㅂ	-2021
▁ㅇㅕㄴㅈㅏㅇ	-2022
ight	-2023
▁to	-2024
ㅉㅣㄱ	-2025
▁2005	-2026
ation	-2027
▁ㅅㅖ	-2028
▁ㅅㅓㅇㅎㅑㅇ	-2029
▁ㅃㅏㄹㄹㅣ	-2030
▁ㅃㅓㄴ	-2031
▁ㅇㅘㅇㄱㅜㄱ	-2032
ㅎㅡ	-2033
▁ㅇㅗㄻㄱㅣ	-2034
▁ㅌㅡㄱㅇㅠ	-2035
▁ㅂㅗㄴㄱㅕㄱ	-2036
ㅍㅠ	-2037
▁ㅇㅏㅇ	-2038
▁ㅇㅕㄹㅊㅏ	-2039
▁55	-2040
ㅁㅏㅈ	-2041
▁ㅅㅣㅁㄱㅏㄱ	-2042
▁ㅇㅏㅁㅅㅏㄹ	-2043
▁ㅈㅓㅁㅈㅓㅁ	-2044
▁vs	-2045
▁ㅂㅏㅂ	-2046
▁ㅋㅗㄹ	-2047
▁ㅎㅘㄱㅈㅏㅇ	-2048
▁ㅎㅏㄴㄱㅖ	-2049
▁II	-2050
ㅇㅜㄴㄷㅔ	-2051
▁ㄱㅡㅁㅈㅣ	-2052
▁ㅈㅓㄴㄹㅑㄱ	-2053
▁ㄲㅡㅌㄴㅐ	-2054
ㅊㅓㅂ	-2055
▁ㅇㅏㅍㅅㅓ	-2056
▁ㄱㅜㄴㄷㅏㄴ	-2057
▁ㅃㅏㅇ	-2058
▁75	-2059
▁ㅈㅓㅇㄹㅣ	-2060
▁ㅌㅔㅁ	-2061
ㅈㅜㄱ	-2062
▁ㄴㅡㅈ	-2063
ce	-2064
▁ㅅㅏㅁㄱㅜㄱ	-2065
▁ㅁㅓㅅ	-2066
▁ㅊㅣㄹ	-2067
▁Ch	-2068
▁ㅇㅓㄴㅇㅓ	-2069
▁ㅂㅗㄱㄱㅟ	-2070
▁ㄱㅘㅇㅇㅕㄱ	-2071
▁ㅎㅕㅇㅈㅔ	-2072
ㅁㅣㄱㅅㅡ	-2073
▁99	-2074
ㅁㅏㄶ	-2075
▁2004	-2076
IN	-2077
▁ㅈㅏㅇㅊㅣ	-2078
▁ㅈㅓㅂㄱㅡㄴ	-2079
▁ㄷㅡㄱㅈㅓㅁ	-2080
▁ㅅㅏㅇㅈㅣㅇ	-2081
ㅊㅕ	-2082
▁ㄱㅐㄹㄹㅓ	-2083
▁ㅈㅏㅇㄹㅡ	-2084
▁ㅂㅜㄹㄱㅏ	-2085
ap	-2086
▁ㅇㅡㄹㅈㅣ	-2087
▁ㅂㅓㅁㅈㅚ	-2088
ㅅㅕㄹ	-2089
▁ㅂㅐㄹ	-2090
▁ㅎㅕㅇㅅㅣㄱ	-2091
▁ㅈㅓㄻ	-2092
▁ㅇㅞㄴ	-2093
▁ㅊㅐㄱㅇㅣㅁ	-2094
▁42	-2095
ㅅㅈㅏ	-2096
▁ㅇㅣㄴㅅㅏㅇ	-2097
▁KBS	-2098
ㅂㅎㅣ	-2099
▁ㄱㅡㄱㅈㅏㅇㅍㅏㄴ	-2100
▁ㄴㅡㄴㄱㅏ	-2101
▁ㅇㅕㅇㅎㅗㄴ	-2102
ㅅㅓㅅ	-2103
▁ㅍㅕㅇㅅㅗ	-2104
ㄱㅈㅓㅇ	-2105
▁ㅎㅠㅇ	-2106
▁ㅂㅜㄹㅁㅕㅇ	-2107
▁ㅂㅡㄹㄹㅜ	-2108
▁39	-2109
▁ㅅㅐㅇㅁㅜㄹ	-2110
▁ㅈㅓㅇㅇㅢ	-2111
ㅇㅣㅆ	-2112
ul	-2113
▁ㅎㅕㄱ	-2114
ㅎㅗㅇ	-2115
▁ㄱㅏㄴㄷㅏㄴ	-2116
000	-2117
▁MBC	-2118
ㅈㅘ	-2119
▁ㅇㅣㅂㅎㅣ	-2120
▁_	-2121
▁ㅌㅏㄹㄹㅏㄱ	-2122
▁ㅋㅓㅁㅍㅠ	-2123
▁ㅇㅣㄹㅈㅗㅇ	-2124
ㄱㅅㅣ	-2125
▁ㅍㅣㄹㅅㅏㄹㄱㅣ	-2126
▁1000	-2127
▁ㄷㅏㄹㄹㅓ	-2128
ㄷㅚ	-2129
ㅌㅡㄱ	-2130
▁ㅁㅓㄱㅇㅣ	-2131
▁2002	-2132
▁ㅍㅗㅁ	-2133
▁41	-2134
ㅂㅣㄹ	-2135
ㄹㅓㄴㅅㅡ	-2136
▁ㅌㅗㅇㅅㅣㄴ	-2137
ㅏㅅㅓ	-2138
ㅇㅗㄹㄹㅣ	-2139
ㅇㅑㅇㅇㅣ	-2140
▁PC	-2141
▁ㄷㅏㄹㄹㅏ	-2142
▁ㅇㅣㄴㄹㅠ	-2143
ㄲㅗ	-2144
▁ㅁㅏㅇㅎㅏ	-2145
▁ㅎㅏㄴㄱㅜㄱㅇㅓ	-2146
▁ㅎㅐㅇㅅㅓㅇ	-2147
ㅌㅓㄹ	-2148
▁ㅈㅟ	-2149
▁ㄱㅓㄱㅈㅓㅇ	-2150
ri	-2151
ㅁㅐㄱ	-2152
ㅍㅏㄹ	-2153
▁ㅇㅐㄱㅅㅕㄴ	-2154
▁ㅎㅣㄹ	-2155
▁ㅈㅓㄴㅎㅘ	-2156
ㄲㅏㄴ	-2157
▁ㄷㅏㄻ	-2158
▁ㄱㅗㅇㅎㅘ	-2159
▁ㅇㅣㅈ	-2160
ㄴㅗㄴ	-2161
▁ㄸㅜㅀ	-2162
ㄲㅗㅊ	-2163
▁ㅇㅠㄱㄱㅜㄴ	-2164
▁ㅎㅐㅇㅅㅏ	-2165
▁ㄱㅗㅇㄹㅑㄱ	-2166
▁ㄹㅏㄱ	-2167
ㅁㅗㅇ	-2168
▁44	-2169
▁ㅊㅜㅇㅂㅜㄴㅎㅣ	-2170
ㄷㅠ	-2171
▁ㅈㅏㅇㄴㅏㄴ	-2172
ㅌㅏㅂ	-2173
▁ㅂㅏㄱㅅㅏ	-2174
▁ㅈㅓㄴㅌㅗㅇ	-2175
ㄷㅗㅇㅅㅐㅇ	-2176
ㄷㅗㄴ	-2177
▁ㅈㅓㄴㅇㅝㄴ	-2178
▁ㅋㅓㄴㅅㅔㅂ	-2179
▁ㅇㅕㄴㅈㅜ	-2180
▁ㄹㅏㄹ	-2181
ㄲㅓ	-2182
▁ㅂㅣㅁ	-2183
ㅍㅔㄴ	-2184
ㅈㅜㄹ	-2185
nd	-2186
▁ㅋㅡㄹㄹㅓㅂ	-2187
AL	-2188
ㅁㅏㅇㅊㅣ	-2189
▁ㅎㅏㅂㅊㅣ	-2190
▁ㄱㅓㅁㅅㅏ	-2191
▁43	-2192
▁ㄷㅓㅇ	-2193
▁ㄱㅏㅄ	-2194
▁ㅅㅏㅇㅅㅔ	-2195
▁ㄴㅏㄹㄱㅐ	-2196
▁ㅇㅜㄹㅌㅡ	-2197
ㄹㅗㅇ	-2198
▁ㄴㅜㄴㅁㅜㄹ	-2199
▁ㅎㅏㅂㄹㅠ	-2200
▁ㅆㅡㄹ	-2201
▁ㅇㅔㅁ	-2202
all	-2203
▁BG	-2204
ㅅㅣㅂ	-2205
ㅊㅚ	-2206
ㅁㅓㄹ	-2207
▁ㅈㅓㅇㄱㅠ	-2208
▁ㅋㅡㄹㄹㅏ	-2209
▁ㅎㅡㅂㅅㅜ	-2210
ㅇㅗㅅ	-2211
▁ㄱㅕㅂ	-2212
▁ㅈㅣㅂㄷㅏㄴ	-2213
▁ㅅㅜㅅㅈㅏ	-2214
▁ㅁㅗㄱㅅㅜㅁ	-2215
ㅆㅡ	-2216
ㅇㅕㄴㅎㅣ	-2217
ia	-2218
▁ㄸㅔ	-2219
▁ㄷㅏㄴㅅㅜㄴㅎㅣ	-2220
RA	-2221
uby	-2222
▁ㅈㅏㅇㄱㅜㄴ	-2223
ㅋㅟ	-2224
▁ㄸㅏㄱㅎㅣ	-2225
ack	-2226
▁ST	-2227
st	-2228
▁2003	-2229
tt	-2230
▁ㄱㅏㄹㄹㅣ	-2231
ㅋㅏㄴ	-2232
▁ㄱㅕㄱㅌㅜ	-2233
▁ㅂㅓㅅㅇㅓ	-2234
▁ㅁㅐㅈ	-2235
▁ㅈㅓㄱㅈㅓㄹ	-2236
▁ㅅㅣㄹㅅㅜ	-2237
▁51	-2238
ㄴㅕㅇ	-2239
▁ㅇㅕㄴㅅㅡㅂ	-2240
▁ㅂㅜㄹㄱㅘ	-2241
▁ㅌㅠ	-2242
▁ㅌㅔㄹ	-2243
▁ㅍㅕㄴㅎㅏ	-2244
▁ruby	-2245
▁ㄱㅗㅇㅎㅏㅇ	-2246
▁ㅈㅗㅇㅎㅏㅂ	-2247
▁ㄷㅗㄱㅈㅏ	-2248
ㅍㅣㅇ	-2249
▁ㅈㅓㄴㅅㅜㄹ	-2250
▁ㅎㅏㅁㄷㅐ	-2251
oc	-2252
ㅎㅓㄴ	-2253
ㄷㅡㅁ	-2254
▁ㅌㅐㅇ	-2255
▁ㅅㅜㅍ	-2256
▁150	-2257
▁ㅈㅏㅇㄱㅣ	-2258
▁ㄷㅡㄹㄹㅣ	-2259
▁ㅂㅜㄴㄹㅣ	-2260
▁195	-2261
▁ㄱㅗㅇㄷㅗㅇ	-2262
▁ㅇㅗㄹㄹㅣㅁㅍㅣ	-2263
▁ㅁㅗㅂ	-2264
ㄲㅐ	-2265
▁ㅋㅓㅅ	-2266
ㅋㅐ	-2267
▁ㅍㅜㄹㄹㅣ	-2268
▁VS	-2269
▁47	-2270
ㄴㅣㅁ	-2271
▁ㄱㅘㅇㅈㅜ	-2272
art	-2273
▁ㅇㅏㄵ	-2274
▁SP	-2275
▁ㄷㅏㄱㅌㅓ	-2276
▁ㅇㅑㄱㅈㅓㅁ	-2277
▁ㅂㅏㄴㅂㅗㄱ	-2278
▁ㄱㅡㄴㄱㅓ	-2279
ㅁㅕㄴㄹㅏ	-2280
▁ㅅㅓㅇㅇㅣㄴ	-2281
▁46	-2282
▁ㅊㅏㄱㅇㅛㅇ	-2283
▁st	-2284
▁ㄱㅏㅁㅇㅏㄴ	-2285
▁ㅅㅓㄹㄱㅖ	-2286
ㄷㅔㄴ	-2287
▁ㅍㅓㄴ	-2288
▁ㅇㅗㄴㄹㅏ	-2289
ra	-2290
▁PS	-2291
▁ㅊㅣㄴㅎㅏ	-2292
▁ㅂㅕㅇㄱㅣ	-2293
▁ㅎㅏㄴㅈㅏ	-2294
▁ㅍㅣㄹㅅㅜ	-2295
ㅌㅣㄱ	-2296
▁ㅈㅜㅇㅎㅏㄱㄱㅛ	-2297
▁ㄷㅡㄹㅇㅣ	-2298
ㄱㅜㄱㅇㅣㄴ	-2299
▁64	-2300
▁ㅍㅕㄴㅅㅓㅇ	-2301
▁ㄲㅗㄹ	-2302
▁ㅇㅣㄴㅈㅣ	-2303
▁ㅎㅘㄱㅅㅣㄹㅎㅣ	-2304
ㅅㅕ	-2305
▁ㅈㅓㄴㅎㅘㄴ	-2306
▁ㅎㅜㄹ	-2307
▁MP	-2308
ㄴㅓㅁ	-2309
▁ㅍㅠ	-2310
▁ㄱㅞ	-2311
▁ㅍㅏㄴㅌㅏ	-2312
▁ㅂㅏㅇㅍㅐ	-2313
▁and	-2314
▁ㅇㅝㄴㄱㅓ	-2315
▁ㅌㅡㄱㄱㅣ	-2316
▁ㅅㅡㅇㄱㅏㅇ	-2317
▁ㄷㅡㅇㄹㅗㄱ	-2318
▁ㄱㅗㅇㅅㅏ	-2319
▁No	-2320
▁i	-2321
▁or	-2322
▁ㄱㅘㄴㅌㅗㅇ	-2323
▁ㅅㅏㄴㅇㅓㅂ	-2324
ㅇㅣㄴㅈㅣ	-2325
▁ㄴㅔㄱ	-2326
▁ㅇㅏㄴㅅㅡㅂ	-2327
▁ㅊㅕ	-2328
▁ㅍㅣㅇ	-2329
▁ㄹㅐㅇ	-2330
ㄹㅏㅎ	-2331
▁ㅇㅣㄴㅇㅝㄴ	-2332
▁In	-2333
ㅁㅗㄹ	-2334
▁ㅅㅕ	-2335
▁ㅅㅓㄴㅇㅓㄴ	-2336
▁ㄷㅡㅇㄷㅡㅇ	-2337
▁ㅇㅡㄴㅌㅚ	-2338
▁ㅇㅗㄹㄹㅣㅁㅍㅣㄱ	-2339
▁ㅇㅣㄴㅎㅕㅇ	-2340
ㅇㅜㄴㅌㅓ	-2341
▁ㅈㅣㄴㅈㅓㅇ	-2342
▁ㅈㅓㅇㅊㅐㄱ	-2343
▁ㅂㅏㅇㅎㅐ	-2344
ㅊㅣㄹ	-2345
ㅅㅏㅁ	-2346
▁ㅅㅡㅇㅂㅜ	-2347
op	-2348
▁ㅂㅡㄹㄹㅗ	-2349
ㅌㅓㅁ	-2350
▁ㅈㅏㅁㄲㅏㄴ	-2351
▁373	-2352
▁ㅊㅗㄱ	-2353
▁ㄱㅘㄴㄱㅘㅇ	-2354
▁ㅇㅕㄴㄱㅖ	-2355
ㅍㅣㄴ	-2356
▁ㅇㅐㄴ	-2357
▁ㅌㅗㅇㄱㅘ	-2358
PC	-2359
AT	-2360
ㅇㅜㄹㄹㅣ	-2361
▁ㄴㅣㄱ	-2362
▁ㅅㅡㅂㄱㅕㄱ	-2363
ㅇㅔㄴ	-2364
▁ㄱㅜㄱㅎㅚ	-2365
▁ㅎㅡㄴㅎㅣ	-2366
▁ㅇㅝㄴㅈㅓㅇ	-2367
▁ㅇㅟㄴ	-2368
▁dd	-2369
ie	-2370
▁ㅅㅣㄹㅅㅣ	-2371
▁ㅅㅓㄴㅈㅓㅇ	-2372
ㅂㅏㄴㅂㅜ	-2373
▁ㅇㅝㄴㅎㅏ	-2374
▁ㅇㅓㄴㄹㅗㄴ	-2375
▁ㄱㅓㄷ	-2376
est	-2377
▁ㅅㅣㄹㅈㅓㅁ	-2378
▁ㅅㅏㅇㅊㅓ	-2379
ㄹㅏㄹ	-2380
▁ㅂㅐㅁ	-2381
▁ㅇㅓㅇ	-2382
▁ㅁㅕㅇㅈㅜㅇ	-2383
▁ㅎㅖ	-2384
▁ㅇㅏㄴㅈㅓㄴ	-2385
▁ㄲㅡㄹㅇㅓ	-2386
ㅂㅣㅊ	-2387
OR	-2388
▁ㅇㅏㄴㄷㅡ	-2389
▁ㄷㅏㅇㅈㅏㅇ	-2390
▁ㅎㅕㅁ	-2391
▁ㄱㅗㅇㅂㅜ	-2392
▁400	-2393
ill	-2394
▁ㅁㅕㄹㅁㅏㅇ	-2395
▁ㅇㅓㅁㅁㅏ	-2396
▁ㄸㅓㄹ	-2397
dddd	-2398
▁dddddd	-2399
▁ㅇㅕㄱㅈㅓㄴ	-2400
ㅡㄹㄹㅣㄴ	-2401
▁ㅇㅚㄴㅉㅗㄱ	-2402
▁2001	-2403
▁ㄱㅗㅇㄱㅜㄴ	-2404
▁CD	-2405
ㅂㅕㅂ	-2406
ㅅㅅㅜ	-2407
▁ㅂㅐㄹㄹㅓㄴㅅㅡ	-2408
▁⊸	-2409
▁ㅈㅓㄱㄱㅡㄱ	-2410
IA	-2411
▁ㅅㅓㄹㄹㅣㅂ	-2412
▁ㄹㅏㅂ	-2413
▁ㅈㅣㄴㅇㅣㅂ	-2414
▁ㄱㅣㄴ	-2415
▁ㄷㅗㅇㅁㅐㅇ	-2416
ik	-2417
▁ㅇㅕㅇㅇㅣㅂ	-2418
▁ㅋㅓㄴㅌㅡ	-2419
▁ㅅㅏㅂ	-2420
▁ㄱㅏㅅ	-2421
ㄹㅓㄹ	-2422
▁ㅌㅏㅂㅈㅐ	-2423
ㅍㅜㄹ	-2424
▁ㄹㅜㄹ	-2425
▁ㅎㅐㅇㅈㅓㄱ	-2426
▁ㅅㅗㄹㄹㅗ	-2427
▁ㅎㅘㅇㄱㅡㅁ	-2428
OS	-2429
▁52	-2430
▁ㅈㅓㅇㄷㅏㅇ	-2431
▁ㅂㅗㄴㅅㅓㄴ	-2432
▁ㅋㅗㅇ	-2433
▁Re	-2434
▁ㅇㅡㄴㄱㅡㄴ	-2435
▁ㅁㅓㄹㅌㅣ	-2436
▁ㄱㅕㅇㄹㅕㄱ	-2437
▁193	-2438
ate	-2439
ㅂㅌㅓ	-2440
▁ㅋㅣㄱ	-2441
ㄹㅅㅜ	-2442
ㅇㅣㄴㅈㅓ	-2443
ㄹㅣㄹ	-2444
▁ㅈㅏㅂㅇㅏ	-2445
▁ㅊㅓㅇㅅㅗ	-2446
▁ㅈㅣㄹㅁㅜㄴ	-2447
ㄹㅡㅁㄷㅏㅂ	-2448
▁ㅅㅓㄴㅂㅗ	-2449
ㅓㅅㅓ	-2450
▁%,	-2451
▁ㅂㅏㅇㅁㅜㄴ	-2452
th	-2453
▁ㅈㅜㅇㄷㅏㄴ	-2454
▁ㅂㅜㄴㅇㅑ	-2455
ㅁㅏㄴㅋㅡㅁ	-2456
▁Sh	-2457
▁ㄴㅏㅁㅍㅕㄴ	-2458
▁ㄹㅗㅇ	-2459
▁65	-2460
▁ㅇㅛㅇㅂㅕㅇ	-2461
▁ㄴㅜㄴㅊㅣ	-2462
▁ㅊㅐㅇ	-2463
ㅊㅓㅇㅈㅏ	-2464
▁ㅈㅣㄴㅇㅕㅇ	-2465
IC	-2466
▁ㅁㅣㄴㅈㅗㄱ	-2467
▁ㅌㅐㅅ	-2468
▁1990	-2469
▁ㄱㅜㄴㅇㅣㄴ	-2470
ㅎㅏㄱㅈㅏ	-2471
▁ㅁㅏㄱㅈㅏㅇ	-2472
ttp	-2473
ㅎㅡㄱ	-2474
▁http	-2475
▁ㅁㅓㅁ	-2476
▁ㅇㅠㅇ	-2477
▁ㄱㅕㅂㅊㅣ	-2478
▁ㅍㅕㄴㅈㅣㅂ	-2479
ㅂㅜㅌㅇㅣ	-2480
▁ㄱㅗㅇㅌㅗㅇ	-2481
▁ㄷㅗㄹㅍㅏ	-2482
ㅅㅚ	-2483
▁ㄱㅕㅇㅇㅠ	-2484
▁ㅈㅏㅇㅈㅓㄴ	-2485
ㄴㅗㅎㄱㅗ	-2486
ㄴㅚ	-2487
ㅊㅜㄴ	-2488
PS	-2489
▁56	-2490
▁ㅅㅓㄴㅁㅜㄹ	-2491
▁ㄴㅣㄴㅈㅏ	-2492
▁ㅇㅡㄴㅎㅐㅇ	-2493
▁ㅅㅣㄴㅎㅘ	-2494
▁ㅅㅡㅇㄱㅏㅇㅈㅏㅇ	-2495
▁ㅇㅡㄹㄲㅏ	-2496
▁ㄹㅛㅇ	-2497
▁Sp	-2498
ㅍㅡㄴ	-2499
▁ㅎㅘㄱㅂㅗ	-2500
ㄹㅠㅇ	-2501
▁ㅇㅗㄴㄱㅏ	-2502
▁ㄷㅏㄴㅇㅟ	-2503
ED	-2504
▁ㄴㅏㅎ	-2505
ㅋㅏㄹ	-2506
ㄹㅡㄴㅉㅗㄱ	-2507
▁ㅈㅣㄴㅅㅣㄹ	-2508
▁ㅅㅏㄹㅎㅐ	-2509
▁ㅇㅗㄴㄱㅏㅈ	-2510
▁ㅊㅏㅇㅈㅏㄱ	-2511
ㅋㅗㅇ	-2512
▁ㄱㅕㄴㅈㅔ	-2513
▁ㅈㅓㄴㅈㅏㅇ	-2514
▁ㅇㅛㅇㄷㅗ	-2515
▁ㅇㅕㄴㅇㅖ	-2516
▁ㅈㅏㅇㅇㅐ	-2517
▁54	-2518
▁49	-2519
▁ㅈㅓㅇㄹㅕㅇ	-2520
▁2020	-2521
▁ㄴㅡㄹㄹㅣ	-2522
▁ㅈㅓㅇㄹㅠ	-2523
ㅍㅐㄱ	-2524
▁ㅅㅜㄴㅅㅓ	-2525
▁ㅎㅐㅇㅂㅗㄱ	-2526
▁ㄸㅓㄱㅂㅏㅂ	-2527
▁ㅇㅣㄴㅅㅐㅇ	-2528
▁53	-2529
AS	-2530
▁ㅈㅏㄱㅅㅓㅇ	-2531
▁ㅁㅓㄹㄹㅣ	-2532
▁ㄱㅓㄴㄴㅓ	-2533
▁120	-2534
▁You	-2535
ab	-2536
ess	-2537
EN	-2538
▁ㅍㅕㅇㅎㅘ	-2539
▁ㅅㅐㅇㅅㅓㅇ	-2540
▁ㅇㅓㄹㅇㅡㅁ	-2541
▁ㅁㅓㅁㅊㅜ	-2542
ㅅㅗㄱㄷㅗ	-2543
ㄷㅏㄹㄹㅣ	-2544
▁ㅂㅏㄹㅎㅟ	-2545
▁SBS	-2546
▁ㅅㅜㄴㅅㅜ	-2547
▁ㅎㅚㅅㅅㅜ	-2548
▁ㅂㅜㅇㄱㅚ	-2549
▁ㄴㅓㄹ	-2550
▁ㅌㅏㄴㅅㅐㅇ	-2551
▁ㄱㅕㅇㄱㅖ	-2552
▁ㅌㅏㅂㅅㅡㅇ	-2553
▁ㅋㅜㄹㅌㅏ	-2554
▁ㄴㅔㅅ	-2555
▁ㄴㅏㅂㅊㅣ	-2556
▁ㅈㅓㄴㄷㅐ	-2557
▁ㅇㅘㄴㄹㅛ	-2558
▁Bl	-2559
▁ㅂㅏㄱㅅㅡ	-2560
▁ㅅㅏㅇㅈㅏ	-2561
ㄴㅟ	-2562
▁ㅅㅡㅂㄷㅡㄱ	-2563
▁ㅅㅐㅇㅇㅣㄹ	-2564
▁ㄱㅜㅇㄱㅡㄱ	-2565
▁ㅅㅣㄹㅈㅣㄹ	-2566
ㄹㅐㅅ	-2567
ㅈㅓㄴㅈㅏ	-2568
▁ㄱㅐㅇ	-2569
▁85	-2570
▁ㅎㅕㄴㅈㅏㅇ	-2571
▁ㅇㅕㅇㅇㅕㄱ	-2572
▁ㄷㅗㅇㅂㅏㅇ	-2573
▁ㅇㅝㄴㅅㅜ	-2574
▁ㅇㅓㅂㅊㅔ	-2575
▁ㅌㅡㅁ	-2576
ㄹㅡㄹ	-2577
▁ㅅㅏㄹㅉㅏㄱ	-2578
ㅇㅣㄹㄹㅣ	-2579
eat	-2580
▁ㅎㅏㄴㅎㅘ	-2581
▁ㄱㅗㅇㅇㅝㄴ	-2582
▁ㅇㅘㅇㅈㅏ	-2583
▁ㅊㅜㅁ	-2584
ct	-2585
ㅈㅜㄴㅎㅣ	-2586
▁ㄷㅗㅇㄴㅔ	-2587
ㄹㅡㅅ	-2588
ard	-2589
▁ㅅㅓㄴㅂㅐ	-2590
ㅇㅝㄴㅎㅚ	-2591
ㅅㅗㄹ	-2592
ㅍㅡㄹㄹㅔ	-2593
▁ㅊㅐㅇㄱㅣ	-2594
▁ㅊㅓㄴㅅㅏ	-2595
▁ㅉㅗ	-2596
▁ㅁㅏㄱㅎㅣ	-2597
▁ㅁㅜㄴㅈㅏ	-2598
▁ㅂㅏㄴㅇㅕㅇ	-2599
▁ㄱㅏㅂㅇㅗㅅ	-2600
▁ㅈㅏㅇㅅㅜ	-2601
▁ㅁㅜㄴㅁㅕㅇ	-2602
▁ㅈㅓㅁㄹㅕㅇ	-2603
▁ㅎㅜㄹㄹㅠㅇ	-2604
ㅈㅓㄴㄷㅡ	-2605
▁ㄱㅕㅇㅎㅑㅇ	-2606
▁ㄷㅗㄹㄱㅕㄱ	-2607
▁ㅇㅟㅇ	-2608
▁ㅍㅕㄴㅇㅢ	-2609
up	-2610
▁ㅌㅗㅇㅇㅣㄹ	-2611
▁ㅊㅡㄱㅁㅕㄴ	-2612
ㄷㅓㄹ	-2613
▁ㅆㅓ	-2614
▁ㅁㅗㄹㄹㅣ	-2615
▁57	-2616
▁ㅍㅗㄱㅍㅜㅇ	-2617
▁ㅇㅡㅇㅇㅝㄴ	-2618
▁ㅉㅏㅇ	-2619
ㅋㅓㄴ	-2620
▁ㅅㅏㅇㅍㅜㅁ	-2621
ㅁㅣㄹㄹㅣ	-2622
▁ㅈㅓㅇㅁㅏㄹㄹㅗ	-2623
▁ㄱㅐㄹ	-2624
▁ㅊㅜㄹㅊㅓ	-2625
▁ㅉㅏㄱ	-2626
ㄴㅗㅁ	-2627
▁ㅅㅣㄴㅅㅔ	-2628
▁ㅎㅗㅇㅂㅗ	-2629
▁ㅋㅐㄴ	-2630
▁ㅅㅏㄻ	-2631
▁ㅎㅏㄴㄸㅐ	-2632
▁ㅇㅑㄱㅅㅗㄱ	-2633
▁66	-2634
ㅌㅣㅁ	-2635
▁ㄱㅗㅇㅈㅏㅇ	-2636
ㅌㅗㅁ	-2637
▁DJ	-2638
▁ㅈㅣㅂㅇㅏㄴ	-2639
▁ㄱㅓㄹㅊㅣ	-2640
ㅇㅣㄹㄹㅓㅅ	-2641
ine	-2642
▁ㅊㅜㄹㅂㅏㄹ	-2643
▁ㄱㅜㄴㅈㅜ	-2644
ant	-2645
▁ㅂㅗㄴㅁㅕㅇ	-2646
▁ㅍㅏㅂ	-2647
▁ㅋㅡㄹㄹㅗ	-2648
▁AT	-2649
▁ㄱㅗㅇㄱㅣ	-2650
ㅎㅔ	-2651
ist	-2652
ㅅㅛ	-2653
▁ㅇㅓㅂㅁㅜ	-2654
ㅅㅣㅁㅎㅣ	-2655
OL	-2656
EC	-2657
▁ㅇㅓㅄㅇㅐ	-2658
▁AC	-2659
▁ㅎㅘㄴㅅㅡㅇ	-2660
▁ㅎㅡㄴㅎㅏ	-2661
▁1999	-2662
▁ㄷㅏㄴㄷㅗㄱ	-2663
▁ㅇㅛㅇㅇㅓ	-2664
ㅕㅅㅓ	-2665
ㅍㅜ	-2666
▁ㄷㅔㄴ	-2667
ㅌㅔㄴㅊㅡ	-2668
▁BGM	-2669
▁ㄹㅐㄴㄷㅓㅁ	-2670
▁76	-2671
▁58	-2672
▁ㅈㅣㄱㅇㅝㄴ	-2673
ㅈㅏㄴ	-2674
▁ㄷㅐㅅ	-2675
▁ㅎㅕㅂㄹㅕㄱ	-2676
▁TH	-2677
ㅎㅠ	-2678
▁re	-2679
▁MS	-2680
▁95	-2681
▁ㅇㅕㅇㅇㅝㄴ	-2682
ue	-2683
LC	-2684
▁ㅈㅓㄱㄷㅏㅇ	-2685
▁ㅊㅜㅇㅈㅓㄴ	-2686
▁NPC	-2687
▁ㅁㅗㄹㅇㅏ	-2688
ㄹㅕㅇㄱㅘㄴ	-2689
▁77	-2690
ip	-2691
▁ㅊㅜㅇㄷㅗㄹ	-2692
▁ㄷㅏㄹㄹㅕ	-2693
ㅌㅜㄴ	-2694
▁ㅇㅓㄴㄴㅣ	-2695
▁ㅈㅓㄴㅎㅏㅁ	-2696
ㄹㅕㅁ	-2697
▁ㅇㅕㄴㅅㅏㅇ	-2698
▁ㅁㅏㄹㄹㅣ	-2699
ㅁㅓㅇ	-2700
▁com	-2701
▁ㅆㅗㄷ	-2702
▁AP	-2703
▁ㄷㅗㅇㅇㅏ	-2704
▁72	-2705
ㅍㅔㄱ	-2706
▁ㅅㅣㄹㅎㅐㅇ	-2707
▁ㅈㅗㅂ	-2708
▁ㄱㅕㄱㅍㅏ	-2709
▁ㅎㅓㄴㅌㅓ	-2710
ㅅㅔㄹ	-2711
▁ㅎㅗㄴㄹㅏㄴ	-2712
ㄹㅡㅇ	-2713
ore	-2714
ㅎㅐㅇㅎㅣ	-2715
▁Al	-2716
▁ㄱㅡㄴㅁㅜ	-2717
ㅇㅟㄴ	-2718
ㅋㅗㅁ	-2719
▁CP	-2720
▁ㅁㅜㄱ	-2721
ind	-2722
▁ㅇㅜㄴㅁㅕㅇ	-2723
▁62	-2724
▁ㄱㅓㄴㄱㅏㅇ	-2725
AM	-2726
▁ㅈㅏㄶ	-2727
▁ㅅㅏㅇㅎㅏ	-2728
ㄹㅓㅇ	-2729
▁ㅇㅏㅁㅎㅡㄱ	-2730
▁ㅅㅚ	-2731
▁ㅂㅗㄱㅈㅏㅇ	-2732
▁ㅅㅞ	-2733
▁ㅈㅓㄴㅎㅕㅇ	-2734
▁88	-2735
▁ㅂㅕㄴㅎㅕㅇ	-2736
▁ㄷㅐㄴㅅㅡ	-2737
ang	-2738
one	-2739
▁1998	-2740
ㅂㅅㅡ	-2741
▁98	-2742
▁ㅇㅕㄴㅇㅐ	-2743
▁ㅂㅜㄴㅅㅓㄱ	-2744
▁ㅎㅡㄹㄹㅣ	-2745
▁ㅅㅓㄹㄷㅡㄱ	-2746
▁ㅂㅕㄹㄱㅐ	-2747
▁Th	-2748
▁ㅅㅣㅁㅈㅏㅇ	-2749
▁ㅇㅕㄴㅅㅏ	-2750
▁ㅈㅑ	-2751
▁ㄷㅡㄴㅈㅣ	-2752
▁ㅂㅏㄼ	-2753
▁ㅁㅏㅌㄱㅣ	-2754
ㅋㅕ	-2755
▁ㅅㅏㅁㄱㅜㄱㅈㅣ	-2756
▁ㅂㅗㄴㅂㅜ	-2757
PG	-2758
▁ㅂㅜㄹㄲㅗㅊ	-2759
IT	-2760
▁ㄱㅔㅅ	-2761
ㅓㅇㅑ	-2762
▁ㅅㅏㅇㅎㅑㅇ	-2763
▁ㅇㅕㄴㅂㅏㅇ	-2764
▁ㄴㅡㄱ	-2765
ell	-2766
▁ㅅㅓㅂ	-2767
▁ㅌㅡㄹㄹㅣ	-2768
▁ㄴㅏㄲ	-2769
▁ㅅㅣㄹㄷㅡ	-2770
▁ㅂㅏㄱㅅㅏㄹ	-2771
▁ㅂㅏㄴㄹㅏㄴ	-2772
▁ㅎㅐㄱㅅㅣㅁ	-2773
▁ㅇㅔㄹㅍㅡ	-2774
▁ㅇㅕㄹㅅㅣㅁㅎㅣ	-2775
ㅁㅅㅐ	-2776
▁ㅁㅏㄴㅈㅗㄱ	-2777
▁ㅎㅕㅇㅅㅓㅇ	-2778
▁ㅇㅖㅅㄴㅏㄹ	-2779
▁'.	-2780
▁ㅂㅕㄹㄷㅗ	-2781
▁ㅈㅡㅇㄱㅓ	-2782
▁ㅇㅔㄱ	-2783
ㅅㅗㄱㅈㅏㄱ	-2784
▁ㅅㅣㄴㄹㅚ	-2785
▁ㅈㅓㄴㄱㅗㅇ	-2786
▁ㅎㅏㅂㅊㅔ	-2787
▁ㅈㅏㅇㄱㅛ	-2788
▁ㄱㅓㅁㅅㅐㄱ	-2789
▁ㄱㅏㅇㅈㅗ	-2790
▁800	-2791
▁ㄷㅗㅇㅇㅕㅇ	-2792
▁59	-2793
▁ㅈㅓㄱㅎㅣ	-2794
ㅈㅔㄴ	-2795
▁ㅂㅡㄹㄹㅓ	-2796
ㄷㅗㄹㄹㅣ	-2797
▁ㅎㅏㅁㅅㅓㄴ	-2798
if	-2799
▁ㅇㅣㅂㄹㅕㄱ	-2800
▁....	-2801
▁ㅂㅜㅌㅈㅏㅂ	-2802
▁ㅊㅏㄹ	-2803
▁ㄷㅗㅇㅇㅕㅇㅅㅏㅇ	-2804
▁600	-2805
▁ㅊㅗㅇㄱㅣ	-2806
▁ㅈㅓㄴㅊㅓㄹ	-2807
▁ㄹㅐㄴㄷㅡ	-2808
▁SS	-2809
▁ㅎㅏㄱㄱㅘ	-2810
ㄹㅔㅁ	-2811
ort	-2812
▁ㅈㅓㄱㅇㅓ	-2813
▁ㅈㅓㄹㅂㅏㄴ	-2814
ㅉㅓㅇ	-2815
▁ㅍㅗㄱㅈㅜ	-2816
▁ㄱㅗㅁ	-2817
▁ㅇㅜㄴㅈㅓㄴ	-2818
▁!!	-2819
ㅍㅏㅇ	-2820
ㅍㅔㄱㅌㅡ	-2821
▁61	-2822
▁ㅁㅣㄴㄱㅏㄴ	-2823
▁ㄴㅏㅇ	-2824
▁ㅊㅑ	-2825
▁ㄹㅣㄱ	-2826
▁ㅌㅣㄱ	-2827
ㄷㅜㄱ	-2828
▁ㄱㅏㄴㅂㅜ	-2829
ㅊㅗㄱ	-2830
▁ㄷㅓㅍ	-2831
▁ㅇㅗㅇ	-2832
ㄷㅡㄹㄹㅣ	-2833
▁ㄱㅝㄴㄹㅕㄱ	-2834
▁ㅎㅘㄴㅅㅏㅇ	-2835
ld	-2836
▁ㅁㅕㅇㅇㅖ	-2837
ok	-2838
ive	-2839
▁1997	-2840
▁ㅅㅣㄹㄹㅣ	-2841
ㄹㄹㅣㄱ	-2842
▁ㅈㅓㅇㄱㅝㄴ	-2843
ㄸㅏ	-2844
▁ㅅㅓㄴㅎㅗ	-2845
▁ㅅㅣㅁㄹㅣ	-2846
▁ㅅㅡㄹㄹㅏ	-2847
▁ㅈㅏㄱㅅㅏ	-2848
ㄷㅣㄴ	-2849
▁ㄴㅡㄱㄷㅐ	-2850
▁ㅎㅏㄴㄱㅜㄱㅇㅣㄴ	-2851
FA	-2852
ㄴㅏㅂ	-2853
▁ㅇㅣㄹㅅㅏㅇ	-2854
▁ㅇㅑㅇㅅㅏㄴ	-2855
▁ㅂㅏㄴㅈㅣ	-2856
ㅈㅓㄴㅊㅏ	-2857
ㅇㅡㅂ	-2858
▁ㅂㅗㅁ	-2859
▁ㅇㅕㅇㅇㅓㅂ	-2860
▁ㄹㅐㅂ	-2861
ers	-2862
▁ㅈㅣㄴㅈㅣ	-2863
▁ㄷㅓㅅ	-2864
ㄷㅎㅣ	-2865
▁ㄱㅝㄴㅊㅗㅇ	-2866
▁ㅈㅏㄱㅇㅛㅇ	-2867
▁ㄱㅠㄴ	-2868
▁ㄷㅏㅎ	-2869
ㅊㅏㅇㄱㅣ	-2870
▁ㅅㅣㄴㅈㅏㅇ	-2871
ㅅㅜㄹㅅㅏ	-2872
▁191	-2873
▁ㄱㅗㅇㅇㅠ	-2874
▁ㅍㅣㄴ	-2875
ㄷㅜㅇㅇㅣ	-2876
ㅁㅊㅣ	-2877
▁ㅁㅣㄱ	-2878
▁ㅇㅕㄴㄷㅗ	-2879
▁ㅋㅙ	-2880
ㅁㅣㄱ	-2881
ove	-2882
VE	-2883
▁ㅎㅕㄴㅈㅣ	-2884
ㅈㅏㄱㅈㅣㄴ	-2885
▁ㅂㅜㄹㅁㅏㄴ	-2886
▁ㅅㅔㄹ	-2887
▁An	-2888
▁ㅊㅜㄹㅎㅕㄴ	-2889
▁ㅍㅣㄹㄹㅣ	-2890
▁ㄷㅏㅇㅎㅘㅇ	-2891
▁ㄱㅣㅁㅅㅓㅇ	-2892
▁ㅈㅓㅇㅈㅣ	-2893
ain	-2894
▁ㄱㅣㅅ	-2895
▁ㅈㅜㅇㄱㅖ	-2896
▁ㄷㅗㅇㅇㅝㄴ	-2897
ㅁㅍㅡ	-2898
▁ㅈㅓㄴㅈㅣㄱ	-2899
▁ㅌㅐㅇㅋㅡ	-2900
▁ㅋㅗㄹㄹㅏ	-2901
ㅅㅣㄱㄱㅏㄴ	-2902
▁ㅇㅕㄴㄷㅐ	-2903
▁ㅎㅏㄱㅅㅏㄹ	-2904
▁ㅅㅜㄴㅅㅣㄱㄱㅏㄴ	-2905
▁ㅈㅓㄴㅈㅓㄱ	-2906
▁ㄱㅕㅇㅇㅕㅇ	-2907
▁ㄱㅡㄴㅇㅠㄱ	-2908
▁ㅈㅡㅇㅁㅕㅇ	-2909
▁ㅁㅜㄲ	-2910
▁ㅌㅔㄹㄹㅔ	-2911
▁ㅊㅜㄹㅍㅏㄴ	-2912
ㅁㅐㄴㄷㅡ	-2913
▁Se	-2914
▁ㅊㅜㄹㅅㅐㅇ	-2915
▁ㅎㅕㄱㅁㅕㅇ	-2916
▁KO	-2917
▁ㄱㅜㄱㅈㅓㄱ	-2918
▁ㅌㅗㅇㅈㅔ	-2919
ㄹㅣㅁㅈㅏ	-2920
▁74	-2921
▁ㅂㅜㄹㅍㅕㄴ	-2922
▁ㄹㅜㄴ	-2923
▁ㅈㅡㄱㅅㅣ	-2924
▁ㅂㅗㄹㅌㅡ	-2925
ong	-2926
▁ㅂㅡㄹㄹㅣ	-2927
▁ㄹㅕㅇ	-2928
▁ㅋㅟㄴ	-2929
▁63	-2930
ㄲㅓㅅ	-2931
ㅐㅇㅇㅣ	-2932
▁NC	-2933
▁ㄱㅓㅌ	-2934
▁ㅈㅗㅇㅈㅓㅁ	-2935
▁an	-2936
ith	-2937
▁1980	-2938
▁ㅇㅣㄴㅅㅜ	-2939
ㄱㅘㅇㅇㅕㄱ	-2940
▁ㅇㅏㄹㅍㅏ	-2941
▁ㄱㅕㅇㅂㅣ	-2942
▁ㄷㅜㄹㄹㅓ	-2943
▁ㅇㅕㄴㄱㅘㄴ	-2944
▁ㄱㅗㅇㅈㅏㄱ	-2945
▁ㄷㅡㅇㅍㅏㄴ	-2946
▁ㅆㅏㅎㅇㅣ	-2947
▁ㄷㅗㅇㄱㅣ	-2948
MA	-2949
▁ㅈㅏㅇㅅㅣㄱ	-2950
▁ㄷㅗㅇㅈㅏㄱ	-2951
▁71	-2952
ㄸㅡㄱ	-2953
ㅋㅓㅁ	-2954
▁ㅈㅓㄴㅅㅓㄴ	-2955
▁ㅈㅏㅇㄱㅘㄴ	-2956
▁96	-2957
▁ㄴㅗㅇㄱㅜ	-2958
▁",	-2959
▁68	-2960
▁ㅈㅏㄱㄷㅗㅇ	-2961
▁ㅅㅏㅇㅅㅏㅇ	-2962
▁MAX	-2963
▁ㅅㅣㄴㄱㅗ	-2964
▁ㅈㅏㅁㅅㅜ	-2965
▁1996	-2966
▁ㅂㅗㄱㅈㅏㅂ	-2967
▁ㅂㅏㄴㄱㅕㄱ	-2968
ㄹㅠㄴ	-2969
ㅊㅏㅈ	-2970
▁ㅍㅗㄱㄱㅕㄱ	-2971
▁ㅊㅜㄹㅈㅏㅇ	-2972
▁ㅌㅏㄱ	-2973
▁ㅂㅜㄴㄱㅣ	-2974
▁ㅊㅏㅁㅈㅓㄴ	-2975
▁ㄹㅔㅂ	-2976
▁ㅁㅜㄷㅎㅣ	-2977
▁ㄱㅏㄴㄱㅕㄱ	-2978
▁ㄱㅡㄹㅈㅏ	-2979
ㅁㅜㄱ	-2980
ㅍㅔㄹ	-2981
▁ㅇㅏㄱㅇㅕㄱ	-2982
ast	-2983
▁ㅂㅜㄹㅇㅏㄴ	-2984
ㅂㅕㅇㄷㅐ	-2985
ㅋㅜㄹ	-2986
▁ㅁㅗㄹㄹㅐ	-2987
▁AK	-2988
▁ㄱㅏㄹㄷㅡㅇ	-2989
▁ㅈㅓㄴㅂㅏㅇ	-2990
ㅎㅔㄴ	-2991
▁ㅇㅞㄴㅁㅏㄴ	-2992
RE	-2993
end	-2994
▁DLC	-2995
▁97	-2996
▁ㅁㅔㄹ	-2997
ㄱㅘㅇㅇㅕㄱㅅㅣ	-2998
▁ㅇㅣㄹㅈㅏ	-2999
▁ㄱㅕㅇㅎㅓㅁㅊㅣ	-3000
ㅍㅗㅁ	-3001
▁ㄴㅓㄹㄹㅣ	-3002
▁ㅈㅔㄴ	-3003
og	-3004
▁ㄱㅏㅇㅊㅓㄹ	-3005
ㄲㅏㄹ	-3006
▁ㅎㅡㅇㅎㅐㅇ	-3007
▁ㄱㅏㄴㅎㅗㄱ	-3008
ㄴㅓㅎ	-3009
▁ㅁㅜㄹㅈㅣㄹ	-3010
▁73	-3011
▁ㅅㅣㄴㅁㅜㄴ	-3012
ew	-3013
▁ㅂㅏㄴㅎㅏ	-3014
▁ㅅㅣㄴㅂㅜㄴ	-3015
▁ㅇㅡㄴㄱㅡㄴㅎㅣ	-3016
▁ㄸㅗㄱㄱㅏㅌㅇㅣ	-3017
▁ㅁㅏㅈㅅㅓ	-3018
ㅁㅕㅇㅌㅏ	-3019
▁ㅍㅗㄱㄹㅕㄱ	-3020
▁ㅋㅝㄹㄹㅣ	-3021
▁ㄴㅏㅁㅂㅜ	-3022
▁ㄷㅗㄹㅈㅣㄴ	-3023
▁ㄷㅙ	-3024
▁ㅍㅕㅇㅌㅏ	-3025
▁ㅊㅏㄱㄱㅏㄱ	-3026
▁ㅈㅓㄴㅅㅣ	-3027
▁ㅎㅏㄴㅂㅏㅇ	-3028
▁ㅈㅗㅇㅇㅣ	-3029
▁ㅈㅓㄹㅁㅏㅇ	-3030
▁ff	-3031
▁ㅌㅣㅇ	-3032
▁ㅇㅣㅂㅎㅏㄱ	-3033
▁ㅎㅘㄴㅈㅏ	-3034
▁ㄱㅡㄱㄷㅏㄴ	-3035
▁ㅁㅜㄴㅈㅏㅇ	-3036
▁1995	-3037
ㄹㅔㅅ	-3038
▁ㅌㅗㅇㅅㅏㅇ	-3039
▁ㅇㅣㄱㅅㅜㄱ	-3040
▁ㅂㅓㅁㅇㅣㄴ	-3041
▁ㅊㅠ	-3042
▁67	-3043
▁THE	-3044
▁ㄷㅏㅇㅅㅓㄴ	-3045
▁US	-3046
▁;	-3047
▁He	-3048
▁ㅌㅏㄴㅇㅑㄱ	-3049
▁KT	-3050
▁ㅎㅐㄴㄷㅡ	-3051
▁ㅇㅏㅂㅂㅏㄱ	-3052
▁ㅆㅓㄹ	-3053
▁ㅊㅜㄹㄹㅕㄱ	-3054
▁ㅃㅣ	-3055
▁ㅁㅓㅅㅈㅣ	-3056
▁ㄲㅔ	-3057
▁78	-3058
▁ㅇㅡㄴㅎㅏ	-3059
▁ㅇㅓㅆㅇㅓㅆ	-3060
▁ㅈㅜㅇㄷㅐ	-3061
▁ㅇㅠㅇㅎㅏㅂ	-3062
▁ㅃㅕ	-3063
ㅌㅗㅂ	-3064
av	-3065
▁81	-3066
▁ㅊㅏㅇㅈㅗ	-3067
▁ㄱㅏㅁㅅㅏ	-3068
ㄷㅡㄴㄱㅏ	-3069
▁ㅎㅡㅁ	-3070
▁ㄱㅗㅇㅅㅏㄴ	-3071
▁ㅂㅓㄴㄱㅐ	-3072
▁}	-3073
▁ㅅㅒ	-3074
▁ㅂㅜㄱㅁㅣ	-3075
▁ㄱㅐㄹㄹㅓㄱ	-3076
▁JR	-3077
▁ㄱㅏㅁㅇㅕㅁ	-3078
▁ㅇㅡㅁㅅㅓㅇ	-3079
▁ㄱㅐㄱ	-3080
▁ㅇㅔㄴㅌㅓ	-3081
▁ㄷㅐㅅㄱㅡㄹ	-3082
▁ㅁㅏㄴㄷㅡㄴ	-3083
ㅇㅠㅇ	-3084
ly	-3085
▁ㅋㅡㄹㄹㅔ	-3086
▁ㅇㅣㄴㅈㅡㅇ	-3087
▁ㄱㅣㅁㅈㅓㅇ	-3088
PM	-3089
▁ㅇㅣㅂㅅㅜ	-3090
ㅉㅐㅆ	-3091
▁ㄲㅏㄲ	-3092
▁ㄷㅜㄴ	-3093
▁ㅇㅛㅇㅅㅏ	-3094
▁ㄴㅓㅁㅊㅣ	-3095
▁ㅇㅐㅇ	-3096
se	-3097
▁ㅂㅠ	-3098
ㄷㅓㅇ	-3099
▁ㄷㅜㅇ	-3100
ㅅㅓㅇㄱㅣ	-3101
▁ㅅㅣㄴㅊㅓㅇ	-3102
▁ㅈㅜㅇㅎㅘ	-3103
▁ㅈㅓㄴㅇㅕㄱ	-3104
▁192	-3105
▁ㅊㅓㄹㅈㅓ	-3106
▁91	-3107
▁ㅅㅐㅁ	-3108
▁ㅋㅗㄴㅅㅓ	-3109
▁ㅁㅏㅈㅇㅣ	-3110
▁ㄷㅣㄹㄹㅓ	-3111
▁ㅅㅣㄴㅅㅓㅇ	-3112
▁ㅍㅡㄹㄹㅗ	-3113
▁ㅇㅞㅂㅌㅜㄴ	-3114
▁ㄱㅐㄹㄹㅓㄱㅅㅣ	-3115
ㅇㅣㅇ	-3116
ㄷㅓㄴㄱㅏ	-3117
▁ㄱㅕㄹㅁㅏㄹ	-3118
▁ㅇㅣㄱㅅㅡ	-3119
▁ㅇㅡㅁㅂㅏㄴ	-3120
▁SD	-3121
▁ㅍㅔㄹ	-3122
▁HD	-3123
▁180	-3124
OT	-3125
▁ㄱㅜㅂ	-3126
▁ㄴㅗㄱㅇㅡㅁ	-3127
▁ㅋㅣㄹ	-3128
▁ㄱㅗㅇㅎㅏㄱ	-3129
▁j	-3130
▁ㄷㅗㅇㅎㅘ	-3131
ㅈㅣㅅㅁㅏㄹ	-3132
▁250	-3133
IS	-3134
ㅎㅐㅇㄱㅣ	-3135
▁ㅁㅣㄹㅇㅓ	-3136
ㄹㅜㄱ	-3137
▁ㅌㅡㄱㅎㅘ	-3138
▁Le	-3139
▁84	-3140
▁ㅎㅑㅇㅅㅏㅇ	-3141
AC	-3142
▁ㅅㅣㄴㅇㅣㄴ	-3143
▁Ar	-3144
▁ㅎㅕㅂㅎㅚ	-3145
▁1994	-3146
▁ㅍㅕㄴㅈㅣ	-3147
ㅌㅗㄹㄹㅣㄱ	-3148
▁ㅅㅣㄴㄱㅣ	-3149
▁ㄷㅏㄴㅇㅣㄹ	-3150
▁ㅅㅏㅇㄷㅏㅇㅅㅜ	-3151
▁ㅁㅓㄹㅉㅓㅇ	-3152
▁ㅇㅠㄱㅊㅔ	-3153
▁De	-3154
ㄹㅏㄴㅅㅐㄱ	-3155
▁ㅎㅔㄴ	-3156
▁ㅇㅜㄹㅅㅏㄴ	-3157
▁ㅎㅜㅁㅊㅣ	-3158
▁ㄱㅘㄴㄱㅐㄱ	-3159
▁ㅅㅣㄹㅂㅓ	-3160
▁69	-3161
BO	-3162
▁ㄹㅣㄹㄹㅣ	-3163
▁ㅇㅣㄹㅇㅝㄴ	-3164
▁ㅅㅏㅇㅈㅓㅁ	-3165
ㅇㅇㅣ	-3166
▁ㅎㅜㅅ	-3167
▁ㅈㅏㄱㅎㅘ	-3168
▁ㅃㅏㄱ	-3169
▁ㅎㅕㄴㅇㅕㄱ	-3170
▁ㅍㅓㄴㅊㅣ	-3171
▁ㅉㅏㄹ	-3172
▁ㅇㅐㅂ	-3173
▁ㅁㅏㅁ	-3174
▁ㄱㅕㅇㅅㅏㅇ	-3175
▁82	-3176
▁ㅇㅣㅂㄱㅜ	-3177
▁ㅁㅜㄴㅎㅏㄱ	-3178
ㅁㅏㅇㄱㅏ	-3179
▁ㅈㅓㅁㅊㅏ	-3180
ㄹㄹㅣㄴ	-3181
▁MV	-3182
▁ㅈㅓㅇㅂㅗㄱ	-3183
ry	-3184
▁is	-3185
▁ㅅㅣㄴㄱㅠ	-3186
▁SN	-3187
▁86	-3188
▁ㅍㅏㄹㄹㅣ	-3189
▁ㅎㅗㅇㅋㅗㅇ	-3190
▁ㄷㅏㄹㅎㅏ	-3191
▁ㄱㅡㅇ	-3192
▁{	-3193
▁ㅈㅏㅂㅈㅣ	-3194
▁ㄱㅗㅇㄱㅡㅂ	-3195
▁ㅅㅠㅅ	-3196
▁ㄱㅕㄹㄹㅗㄴ	-3197
▁ㅅㅡㄹㄹㅗㅅ	-3198
▁ㅎㅚㅇ	-3199
▁ㅆㅓㄱ	-3200
▁ㅇㅣㅁㅅㅣ	-3201
▁190	-3202
▁ㅎㅗㄹㄹㅗ	-3203
FC	-3204
▁ㅁㅓㄱㅎㅣ	-3205
▁ㄹㅏㅁ	-3206
▁ㄱㅣㄹㄷㅡ	-3207
▁ㅈㅏㄶㅇㅏ	-3208
ㅂㅅㅣ	-3209
ㄷㅏㄷ	-3210
▁ㄱㅓㅂ	-3211
▁ㅊㅓㅇㄴㅕㄴ	-3212
▁ㅇㅕㄴㅌㅏ	-3213
▁ㄴㅗㅎㅊㅣ	-3214
▁ㅈㅓㄴㄷㅏㄹ	-3215
▁MC	-3216
▁ㅅㅣㅁㅍㅏㄴ	-3217
ㄹㅣㄴㅇㅣ	-3218
▁ㅇㅏㄴㄱㅕㅇ	-3219
▁ㅌㅡㄱㅈㅣㅂ	-3220
ㄷㅗㄱㄱㅛ	-3221
▁for	-3222
▁ㅋㅓㄹㄹㅓ	-3223
▁ㄱㅜㄱㅇㅓ	-3224
▁ㅇㅣㄴㄱㅗㅇ	-3225
ㅅㅡㄹㄹㅏㅁ	-3226
ㅈㅏㅂㅇㅣ	-3227
▁ㅇㅕㄴㅇㅣㄴ	-3228
▁ㅎㅏㅂㅅㅓㅇ	-3229
▁ㄱㅜㄱㄱㅜㄴ	-3230
ㅋㅙ	-3231
▁ㅂㅗㄴㅈㅏㄱ	-3232
▁ㅍㅡㄹㄹㅓ	-3233
ity	-3234
▁ㅇㅠㄱㅅㅓㅇ	-3235
▁ㅁㅕㅇㅈㅜㅇㄹㅠㄹ	-3236
▁ㅅㅗㄴㄱㅏ	-3237
▁ㅈㅓㄴㅁㅕㄴ	-3238
ㅇㅗㅇ	-3239
▁ㅌㅓㄹㄹㅣ	-3240
▁ㄸㅡㄷ	-3241
▁ㅅㅓㄲㅇㅣ	-3242
▁ㅅㅓㅇㄱㅘ	-3243
▁ㅋㅐㅁㅍㅓ	-3244
▁ㅇㅣㄱㅎㅣ	-3245
▁ㅇㅣㄴㄱㅡㄴ	-3246
ㅇㅑㅎ	-3247
▁ㄱㅏㅇㅇㅢ	-3248
▁ㅅㅣㄴㄹㅏ	-3249
▁GS	-3250
▁ㄱㅔㄴ	-3251
▁PD	-3252
ㅋㅗㄹ	-3253
▁ㅂㅏㅇㅅㅏ	-3254
▁ㄱㅕㄹㅅㅡㅇㅈㅓㄴ	-3255
▁ㄱㅏㅇㄴㅏㅁ	-3256
▁ㅈㅣㄴㅅㅣㅁ	-3257
▁ㅁㅜㅇ	-3258
▁ㅂㅜㄹㄹㅓ	-3259
▁ㅂㅏㄴㅂㅏㄹ	-3260
▁''	-3261
▁ㅇㅣㅂㄷㅏㄴ	-3262
▁ㅎㅏㄴㅂㅓㄴ	-3263
▁ㅁㅏㅇㅊㅣ	-3264
▁be	-3265
ㅈㅛ	-3266
▁ㅇㅕㅇㅁㅜㄴ	-3267
▁ㅊㅣㅇㅎㅏ	-3268
ㄹㅗㅂㅎㅣ	-3269
▁ㅎㅏㅅ	-3270
ㄷㅜㅂ	-3271
▁ㅂㅡㄹㄹㅗㄱ	-3272
▁ㅊㅣㅁㄱㅗㅇ	-3273
ㅎㅗㄹ	-3274
▁ㄹㅓㄱ	-3275
▁92	-3276
▁ㅅㅓㄲ	-3277
▁ㅇㅣㄹㅂㅏㄴㅇㅣㄴ	-3278
▁ㅁㅜㄹㄹㅓ	-3279
ㅅㅏㄱ	-3280
▁ㄹㅔㅅ	-3281
▁ㅎㅏㄴㅁㅏ	-3282
▁FI	-3283
▁ㅂㅏㄴㅅㅏ	-3284
▁ㅍㅕ	-3285
ㄷㅜㄴ	-3286
▁110	-3287
ㅁㅓㄴㅌㅡ	-3288
▁ㄱㅏㅁㅅㅣ	-3289
▁ㅅㅣㄱㅁㅜㄹ	-3290
▁AI	-3291
▁ㅂㅜㄴㄹㅑㅇ	-3292
▁ㅎㅏㄴㄷㅗㅇㅇㅏㄴ	-3293
ㄴㅏㅁㄷㅗ	-3294
▁ㅇㅕㅇㅌㅗ	-3295
▁ㅅㅣㅇㅋㅡ	-3296
▁ㅊㅓㅁ	-3297
▁ㅇㅏㄹㄹㅔㄱ	-3298
▁79	-3299
▁ㅎㅓㅁ	-3300
▁ㅎㅏㄹㅇㅏ	-3301
▁ㄴㅗㄹㅇㅣ	-3302
▁ㅈㅓㅇㅁㅕㄴ	-3303
▁ㅊㅓㄴㅈㅐ	-3304
▁ㅂㅐㄴ	-3305
▁ㅅㅣㄱㅅㅏ	-3306
▁ㅇㅜㅇ	-3307
ㅇㅣㅁㅅㅡ	-3308
▁ㅇㅘㅇㅈㅗ	-3309
▁ㅈㅏㅈ	-3310
▁ㅈㅔㄹ	-3311
▁ㄱㅜㄹㄹㅣ	-3312
▁94	-3313
▁ㄷㅗㅇㅂㅜ	-3314
ㄱㅘㄴㅊㅗㅇ	-3315
▁ㅊㅐㅂㅌㅓ	-3316
▁ㅋㅣㄴ	-3317
▁ㅂㅕㄴㅎㅗ	-3318
ㅂㅏㄴㄱㅣ	-3319
▁ㅊㅛ	-3320
▁ㄱㅣㅁㅇㅕㅇ	-3321
▁ㄱㅜㄱㅂㅏㅇ	-3322
▁ㄴㅗㅇㄷㅏㅁ	-3323
ㄷㅗㅇㅈㅏ	-3324
▁ㅇㅏㄴㅌㅣ	-3325
▁ㅋㅗㄹㄹㅗ	-3326
▁93	-3327
▁ㅇㅕㄴㄹㅏㄱ	-3328
▁ffff	-3329
ㅇㅣㄹㄹㅐㄴㄷㅡ	-3330
▁ㅇㅏㄴㄴㅐ	-3331
ass	-3332
▁83	-3333
ㅋㅔㄴ	-3334
ㅓㄷㅗ	-3335
ㅉㅐㅆㄷㅡㄴ	-3336
▁ㅈㅓㄴㅅㅓㅇㄱㅣ	-3337
ㅈㅓㅇㄱㅓ	-3338
▁ㄱㅡㄹㄹㅗ	-3339
▁ㅈㅓㄴㅅㅣㄴ	-3340
▁ㅁㅓㅇ	-3341
OM	-3342
▁ㅇㅜㅁㅈㅣㄱㅇㅣㅁ	-3343
▁ㅇㅐㄹㄹㅣ	-3344
▁ㅎㅏㅂㄱㅕㄱ	-3345
her	-3346
▁ㅎㅏㄴㅊㅏㅁ	-3347
▁ㄲㅗㅂㅎㅣ	-3348
ㄴㅣㄱㅅㅡ	-3349
ㅅㅏㅇㅈㅏ	-3350
▁IC	-3351
▁ㅆㅢ	-3352
ㅋㅓㅅ	-3353
▁ㅊㅜㄴ	-3354
▁ffffff	-3355
ㅁㅏㅅ	-3356
▁ㅅㅣㄴㅎㅗ	-3357
▁SC	-3358
▁ㅇㅣㅁㅁㅕㅇ	-3359
▁ㅁㅏㅇㄱㅏ	-3360
age	-3361
▁ㄱㅏㅁㅇㅗㄱ	-3362
▁AR	-3363
▁ㅇㅑㅇㅉㅗㄱ	-3364
▁ㅇㅣㄴㅈㅓㅇㅂㅏㄷ	-3365
▁ㅇㅝㄴㅂㅗㄴ	-3366
▁ㅇㅟㄹㄹㅣ	-3367
▁ㅎㅕㅂㅂㅏㄱ	-3368
▁89	-3369
▁ㄲㅏㅇ	-3370
▁700	-3371
▁ㅇㅣㄹㅈㅔ	-3372
▁ㅋㅓㄴㅌㅔㄴㅊㅡ	-3373
ide	-3374
▁OST	-3375
▁ㅂㅐㅇ	-3376
▁ㅂㅣㅅ	-3377
▁ㅂㅗㅅ	-3378
▁ㅅㅏㅇㅇㅓㅂ	-3379
▁ㅇㅘㄹ	-3380
UN	-3381
▁ㅊㅗㄴ	-3382
▁ㄱㅗㅇㅈㅣ	-3383
▁ㄹㅐㅇㅋㅣㅇ	-3384
▁ㅁㅗㄱㄱㅕㄱ	-3385
▁GB	-3386
▁ㅎㅜㅅㄴㅏㄹ	-3387
▁ㅂㅜㄹㅂㅓㅂ	-3388
▁ㅅㅏㅁㅈㅣㄴ	-3389
ㅆㅏㅇ	-3390
▁ㅅㅏㅇㄱㅡㅂ	-3391
▁ㄹㅣㅁ	-3392
ID	-3393
▁ㄹㅔㄱ	-3394
▁87	-3395
ark	-3396
▁Tr	-3397
▁ㄴㅗㄹㄹㅏㅂ	-3398
ㅂㅜㅇ	-3399
▁ㄸㅡㄴ	-3400
ㄹㅐㅅㄷㅗㅇㅇㅏㄴ	-3401
▁ㄱㅏㄹㅅㅜ	-3402
▁ㅈㅓㅂㅅㅗㄱ	-3403
▁ㅈㅓㅂㅎㅏ	-3404
▁ㅊㅜㄱㅈㅔ	-3405
▁ㅇㅏㄹㄹㅔ	-3406
▁ㅁㅔㄴㅌㅏㄹ	-3407
▁ㅈㅣㅂㅇㅓ	-3408
▁ㅅㅏㅇㅅㅓㅇ	-3409
▁FA	-3410
▁ㅅㅓㅇㅂㅕㄹ	-3411
▁ㅇㅣㄹㄱㅕㄱ	-3412
▁ㄷㅣㅇ	-3413
▁ㅂㅜㄱㅂㅜ	-3414
ㅉㅓㄱ	-3415
▁ㅂㅗㄱㅁㅜ	-3416
VA	-3417
▁ㅋㅕ	-3418
▁ㅍㅔㅅ	-3419
ㅌㅣㄹ	-3420
▁ㅅㅡㅇㄱㅕㄱ	-3421
EM	-3422
ax	-3423
ep	-3424
▁ㅇㅣㄹㄱㅣ	-3425
▁ㅃㅐㅅ	-3426
ㄹㅣㄱㅅㅡ	-3427
▁ㅈㅓㄱㄷㅐ	-3428
▁ㄱㅗㅇㅁㅜ	-3429
▁ㅂㅕㄹㄷㅏ	-3430
▁ㅁㅕㅇㅅㅓㅇ	-3431
▁GT	-3432
▁KIA	-3433
▁DS	-3434
▁on	-3435
▁On	-3436
▁ㅍㅕㄴㅇㅣㅂ	-3437
▁ㅈㅓㄴㅎㅜ	-3438
▁ㅂㅏㄱㅈㅓㅇ	-3439
▁ㅇㅣㄹㅅㅣ	-3440
▁ㅂㅣㅊㄴㅏ	-3441
▁ㅉㅗㅊㅇㅏ	-3442
▁ㄹㅣㅅ	-3443
ood	-3444
ire	-3445
ㅂㅜㄱㄷㅗ	-3446
▁ㄱㅓㄴㅊㅜㄱ	-3447
ge	-3448
▁ㅎㅕㅇㅅㅏ	-3449
ㄷㅓㄹㄹㅏㄴㄷㅡ	-3450
ust	-3451
▁ㄹㅜㅁ	-3452
ob	-3453
ㄴㄷㅡㄹ	-3454
ES	-3455
▁ㄷㅏㄴㅈㅏㅇ	-3456
▁ㄱㅏㄱㅈㅏ	-3457
ock	-3458
ect	-3459
▁ㄷㅏㄱ	-3460
▁ㅈㅓㅇㅂㅣ	-3461
▁CC	-3462
▁ㅎㅘㄴㅇㅕㅇ	-3463
▁ㄱㅣㅁㅌㅐ	-3464
▁ㅈㅓㅇㅊㅏㄹ	-3465
▁ㅂㅏㅇㅈㅣ	-3466
▁ㅍㅐㄴㄷㅓㅁ	-3467
ㅈㅣㅁ	-3468
▁ㄱㅕㅇㄱㅗ	-3469
▁1992	-3470
▁ㅌㅗㅁ	-3471
▁ㄱㅗㄹㄷㅡㄴ	-3472
▁ㄱㅏㄷㅎㅣ	-3473
▁WW	-3474
▁ㄷㅣㄴ	-3475
▁ㄹㅗㄱㅁㅐㄴ	-3476
▁ㅇㅐㄱㅌㅣ	-3477
▁ㅇㅣㄹㄹㅔ	-3478
▁ㅅㅐㅇㄹㅑㄱ	-3479
▁ㅇㅕㄴㄱㅡㅁ	-3480
▁ㅍㅡㄹㄹㅐㅅ	-3481
▁ㄲㅏㅁ	-3482
AD	-3483
▁ㅎㅕㄹㅇㅐㄱ	-3484
▁it	-3485
▁ㅂㅣㅈ	-3486
▁ㄲㅗㅈ	-3487
▁ㅇㅣㄹㄹㅏㅁ	-3488
ㅇㅣㄹㄷㅡ	-3489
▁ㅇㅕㄴㄹㅛ	-3490
▁ㅇㅝㄴㅅㅗ	-3491
▁ㄱㅡㅇㅈㅓㅇ	-3492
▁ㅂㅣㄹㄷㅡ	-3493
▁ㄱㅕㅌ	-3494
ㅇㅏㅅㄱㅣ	-3495
▁ㅎㅏㄱㅂㅜ	-3496
▁ㅋㅐㅁㅍㅔ	-3497
▁ㄱㅕㄹㅋㅗ	-3498
▁ㅁㅐㄱㅅㅡ	-3499
▁ㄷㅏㄴㅍㅕㄴ	-3500
▁ㅈㅓㄴㅁㅕㄹ	-3501
▁ㅌㅏㄴㅊㅏㅇ	-3502
▁Be	-3503
ㅁㅔㄹ	-3504
ㄹㅐㄴㅅㅡ	-3505
mer	-3506
▁ㅇㅣㄴㅇㅕㄴ	-3507
▁ㅇㅕㅇㅎㅑㅇㄹㅕㄱ	-3508
▁ㄱㅏㅇㅇㅝㄴ	-3509
▁1993	-3510
ㄹㅗㅁ	-3511
▁ㅌㅡㄱㅈㅓㄴ	-3512
▁130	-3513
▁ㄸㅗㅇ	-3514
▁ㄱㅕㄹㅅㅓㅇ	-3515
▁ㅅㅣㄱㄷㅏㅇ	-3516
ㅇㅜㄴㅌㅡ	-3517
▁ㅇㅟㄹ	-3518
ㅈㅏㄱㅈㅏ	-3519
▁ㅇㅣㄴㄱㅕㄱ	-3520
▁ㅅㅐㅇㅁㅕㅇㄹㅕㄱ	-3521
▁ㅋㅐㅂㅌㅣㄴ	-3522
▁ㄱㅗㄷㅂㅏ	-3523
▁ㅃㅓ	-3524
ㅁㅔㄴㅌㅡ	-3525
▁ㅇㅏㄱㄷㅏㅇ	-3526
▁ㄷㅗㄱㅌㅡㄱ	-3527
▁CPU	-3528
ㄷㅗㅇㅈㅓㄴ	-3529
▁ㅇㅙㄴㅈㅣ	-3530
▁ㅌㅔㄱ	-3531
▁me	-3532
▁|	-3533
▁ㅎㅓㅅ	-3534
▁ㅈㅜㄴㅅㅜ	-3535
ㄹㅡㅍ	-3536
ㅁㅏㄹㄹㅣ	-3537
▁ㅇㅛㅇㄱㅣ	-3538
▁ㅅㅣㄴㅅㅓㄹ	-3539
ㄷㅏㄴㅎㅣ	-3540
are	-3541
ㄴㅕㄱ	-3542
▁ㄱㅣㄹㅇㅣ	-3543
▁Te	-3544
▁ㅈㅏㄹㄹㅣ	-3545
ㅇㄱㅣ	-3546
▁ㅈㅓㄴㅈㅣㄴ	-3547
▁EN	-3548
▁ㄷㅗㄹㄹㅕ	-3549
▁ㅈㅓㄴㅁㅜㄴㄱㅏ	-3550
▁ㅇㅓㄱㅈㅣ	-3551
ㅊㅣㅁㄴㅐ	-3552
▁ㅇㅣㄴㅈㅗ	-3553
▁ㅊㅣㅂ	-3554
▁ㅍㅕㄴㄱㅗㄱ	-3555
ㅌㅏㅁ	-3556
ㅅㅖ	-3557
▁AM	-3558
ance	-3559
ㄷㅓㅇㅇㅣ	-3560
iv	-3561
▁SM	-3562
▁ㄷㅓㅅㅂㅜㅌㅇㅣ	-3563
▁Me	-3564
▁ㅈㅓㅂㅊㅗㄱ	-3565
CG	-3566
▁ㅂㅜㄹㅌㅏ	-3567
▁IS	-3568
▁ㅇㅣㄴㄷㅣ	-3569
▁ㅅㅣㄹㅈㅓㄴ	-3570
▁ㅎㅏㄱㅈㅏ	-3571
▁@	-3572
▁ㅌㅜㄹ	-3573
▁ㄱㅡㄱㅂㅗㄱ	-3574
▁ㅎㅡㄹ	-3575
▁ㅁㅔㄱㅅㅣ	-3576
▁ㄱㅕㄹㅈㅓㄴ	-3577
▁ㅎㅘㄹㅅㅓㅇ	-3578
▁ㄱㅜㄱㄹㅣㅂ	-3579
▁ch	-3580
▁ㅊㅜㅇㅅㅓㅇ	-3581
▁ㅈㅜㅇㄷㅗㄱ	-3582
▁1988	-3583
▁ㅌㅐㅇㅋㅓ	-3584
▁ㅇㅘㄴㄱㅕㄹ	-3585
▁101	-3586
▁ㅇㅝㄴㅈㅜ	-3587
VD	-3588
▁ㄱㅡㅁㅅㅗㄱ	-3589
ㅌㅡㄱㅂㅕㄹ	-3590
▁ㅅㅣㄴㅂㅜ	-3591
▁ㅂㅗㄴㅊㅔ	-3592
▁ㅈㅓㅇㅊㅏ	-3593
▁ㅂㅜㄱㅉㅗㄱ	-3594
▁ㄴㅗㄴㄹㅣ	-3595
▁ㅅㅜㅇ	-3596
ound	-3597
▁ㅂㅏㄱㅎㅣ	-3598
qu	-3599
▁ㅂㅡㄹㄹㅏ	-3600
▁ㅇㅡㅁㅇㅝㄴ	-3601
▁.....	-3602
▁My	-3603
iz	-3604
▁ㅆㅏㅇㄷㅜㅇㅇㅣ	-3605
our	-3606
▁ㅌㅗㅂ	-3607
▁ㄴㅐㅁㅅㅐ	-3608
▁ㅍㅗㄹㄹㅣ	-3609
▁ㄷㅏㄺ	-3610
▁SR	-3611
ㅍㅐㄱㅌㅡ	-3612
ㅈㅏㄱㅅㅏ	-3613
▁ㅁㅗㄹㄹㅏㄱ	-3614
ord	-3615
▁ㄲㅓㄲ	-3616
▁ㅇㅓㅂㅈㅓㄱ	-3617
▁ㄴㅏㅁㅉㅗㄱ	-3618
US	-3619
▁.."	-3620
▁ㄷㅏㅁㅂㅐ	-3621
▁ㅅㅣㄴㅂㅣ	-3622
ㅁㅏㄴㄷㅜ	-3623
LL	-3624
▁ㅋㅏㄹㄹㅣ	-3625
▁ㄷㅗㅇㄱㅜㄹ	-3626
▁ㅇㅡㅁㅁㅗ	-3627
▁ㄲㅗㅂ	-3628
▁ㅂㅏㄹㄷㅏㄹ	-3629
▁ㅈㅓㄴㄹㅏ	-3630
ime	-3631
ㅁㅗㄴㄷㅡ	-3632
▁ㅇㅣㄹㅈㅗㄱ	-3633
▁ㄷㅜㄹㅉㅐ	-3634
▁ㄷㅗㅇㄹㅕㄱ	-3635
ㄹㅏㅂ	-3636
ix	-3637
▁ㄱㅡㅁㅇㅠㅇ	-3638
▁ㅅㅐㄱㄲㅏㄹ	-3639
ㄷㅡㅂ	-3640
▁ㄸㅡㄴㄱㅡㅁ	-3641
▁ㅆㅣㅂ	-3642
▁Cl	-3643
▁ㅍㅓㄹ	-3644
▁ㅇㅕㄴㄹㅕㅇ	-3645
▁Com	-3646
▁ㅈㅓㅇㅂㅏㄹ	-3647
▁ㅈㅡㅇㅇㅗ	-3648
ㅇㅑㅇㅎㅏㅁ	-3649
ㄱㅏㅎ	-3650
ㄷㅡㅇㅎㅏㄱㅅㅐㅇ	-3651
ㄹㅏㅇㅇㅣ	-3652
▁ㅇㅕㄹㅅㅚ	-3653
▁ㄱㅗㅇㄹㅛㅇ	-3654
▁ㅊㅣㅇㅎㅗ	-3655
pe	-3656
▁ㄸㅣ	-3657
ㅈㅟ	-3658
▁ㅇㅕㄲㅇㅣ	-3659
▁ㄴㅔㄱㅅㅔㄴ	-3660
▁ㅇㅣㄴㅁㅣㄴ	-3661
ㄷㅡㄴㅈㅣ	-3662
▁ㄱㅏㄱㅂㅗㄴ	-3663
▁ㄴㅏㄲㅅㅣ	-3664
▁ㅇㅣㄹㅂㅗㄴㅇㅣㄴ	-3665
▁ㅂㅓㄹㄹㅔ	-3666
▁ㅇㅣㄴㅊㅣ	-3667
▁ㅂㅏㄹㄹㅣ	-3668
▁ㅇㅜㅅㅇㅡㅁ	-3669
▁ㅎㅏㄹㅁㅓ	-3670
▁XX	-3671
▁ㄴㅑㅇ	-3672
▁ㅂㅗㄹㄴㅔㅅ	-3673
▁ㅉㅣㅈ	-3674
▁ㅆㅓㄴ	-3675
▁ㅎㅡㅂㅎㅕㄹ	-3676
▁ㄱㅘㄱ	-3677
ㄹㅡㅁㅇㅓㅄ	-3678
▁ㄱㅘㅇㅇㅕㄱㅅㅣ	-3679
▁ㄴㅗㄱㅅㅐㄱ	-3680
▁ㄴㅓㄱ	-3681
▁ㄱㅏㅇㄷㅗ	-3682
▁ㅂㅏㅇㅊㅜㄹ	-3683
▁ㅋㅔㄹ	-3684
▁ㄱㅕㄱㅊㅜ	-3685
▁ㅅㅣㅁㅅㅣㅁ	-3686
▁ㅍㅣㅅ	-3687
uc	-3688
ite	-3689
▁ㅈㅓㅇㄱㅡㄹ	-3690
▁ㅊㅓㄴㅎㅏ	-3691
▁ㅅㅓㄴㅈㅓㄴ	-3692
▁1991	-3693
▁ㄷㅏㅁㄱㅣ	-3694
▁SE	-3695
▁ㅁㅏㄱㅊㅏ	-3696
▁CV	-3697
▁ㅅㅣㄴㅅㅏ	-3698
▁ㅅㅡㅇㄱㅐㄱ	-3699
▁ㅇㅝㄴㅈㅏ	-3700
▁ㅈㅏㄱㄱㅗㄱㄱㅏ	-3701
▁ㄲㅘ	-3702
▁ㅈㅏㅇㅇㅏㄱ	-3703
▁ㅎㅐㅇㅂㅗ	-3704
ㄷㅣㅅ	-3705
ㄱㅡㅅ	-3706
ㅈㅏㅇㅅㅣㄹ	-3707
ㅈㅣㅂㅌㅡ	-3708
▁ㅈㅜㅇㄱㅜㄱㅇㅓ	-3709
OW	-3710
▁ㅌㅔㄱㅅㅡ	-3711
OP	-3712
▁ㅅㅣㅂㅈㅏ	-3713
▁ㄷㅗㄷ	-3714
▁BPM	-3715
ㅈㅓㅇㅂㅜ	-3716
▁ㅂㅐㅁㅍㅏ	-3717
▁ㅌㅟㅇㄱㅣ	-3718
▁ㅅㅐㅇㄱㅕ	-3719
▁ㅍㅓㅁ	-3720
ㄴㅔㄹ	-3721
▁ㅇㅗㄹㅎㅐ	-3722
▁AD	-3723
▁ㅍㅗㄹㄹㅏㄴㄷㅡ	-3724
ure	-3725
▁SH	-3726
▁ㅇㅣㄹㅉㅣㄱ	-3727
▁ㅅㅏㅇㅅㅜㄹ	-3728
▁ㅎㅡㅇㅁㅣ	-3729
▁ㅈㅓㄱㄷㅏㅇㅎㅣ	-3730
▁ㅂㅏㄴㄷㅗㅇ	-3731
▁160	-3732
ㄱㅏㄴㅎㅣ	-3733
▁ㅈㅓㄱㅇㅡㅇ	-3734
▁1970	-3735
▁ㅁㅕㄴㅁㅗ	-3736
▁ㄱㅗㅇㅅㅓㅇ	-3737
▁ㄷㅣㄹㄹㅔ	-3738
▁140	-3739
ㅇㅑㄹ	-3740
▁MVP	-3741
▁ㅊㅗㅇㅇㅏㄹ	-3742
ㅎㅡㅂ	-3743
▁ㅎㅘㄹㅂㅏㄹ	-3744
ㄹㅐㅂ	-3745
▁ㄲㅏㄹㄲㅡㅁ	-3746
▁ㅎㅔㄹㄱㅣ	-3747
▁ㅇㅔㄴㅈㅔㄹ	-3748
▁ㅇㅕㅅ	-3749
▁ㅅㅡㄹㄹㅗ	-3750
▁ㅈㅓㅇㅇㅝㄴ	-3751
▁ㄱㅗㄴㄹㅏㄴ	-3752
▁ㅇㅏㄱㅁㅕㅇ	-3753
▁ㅎㅏㅇㄱㅗㅇㄱㅣ	-3754
▁ㅅㅏㅇㄱㅘㄴㅇㅓㅄ	-3755
ㅋㅔㅅㅁㅗㄴㅅㅡ	-3756
▁ㅈㅓㅇㅊㅏㄱ	-3757
▁$	-3758
▁ㄱㅏㄴㅅㅣㄴ	-3759
OD	-3760
▁ㅃㅜㄹ	-3761
▁ㅍㅐㄴㅌㅓㅁ	-3762
▁ㅅㅣㄱㄹㅑㅇ	-3763
▁900	-3764
▁ㅍㅓㅇ	-3765
▁ㅆㅡㄹㅁㅗ	-3766
▁ㅅㅡㅇㅈㅓㅁ	-3767
▁ㅇㅝㄴㅊㅣㄱ	-3768
▁ㅋㅡㄹㄹㅣㄱ	-3769
▁Pr	-3770
ake	-3771
▁KR	-3772
ㄸㅜㅇ	-3773
▁Wh	-3774
▁ㅎㅏㄹㅇㅣㄴ	-3775
▁ㅌㅣㅁㅇㅝㄴ	-3776
▁ㅇㅓㄴㄷㅓ	-3777
ㄷㅗㅇㅅㅓㅇ	-3778
ㅃㅏㄹ	-3779
▁ㅆㅣㄴ	-3780
▁Pl	-3781
▁ㄷㅗㅇㅉㅗㄱ	-3782
▁ㅇㅣㄹㅂㅏㅇ	-3783
▁ㅊㅓㅂ	-3784
▁Ex	-3785
ㄲㅏㅌ	-3786
▁ㅌㅏㄹㅌㅚ	-3787
▁ㄷㅏㄴㅎㅐㅇ	-3788
ㅇㅣㄴㄷㅡ	-3789
ㄱㅡㄹㄹㅐㄴㄷㅡ	-3790
▁ㄷㅡㅇㅈㅣ	-3791
▁ㅁㅕㄴㅇㅕㄱ	-3792
ION	-3793
▁1989	-3794
▁ㄷㅗㅇㅇㅢ	-3795
▁DVD	-3796
▁ㅌㅓㄱ	-3797
ㄸㅏㅇ	-3798
▁ㅌㅗㅇㅅㅏㄴ	-3799
▁Un	-3800
▁ㄴㅏㅁㄴㅕ	-3801
▁Pro	-3802
▁ㄱㅕㄹㅎㅏㅂ	-3803
▁ㅊㅣㅇㅊㅏㄴ	-3804
▁ㅎㅡㄴㅈㅓㄱ	-3805
▁ㅇㅛㅇㄹㅑㅇ	-3806
▁ㅈㅏㅁㅈㅐ	-3807
▁ㅁㅜㄴㄱㅜ	-3808
▁ㅇㅏㅍㄷㅜ	-3809
▁ㅊㅜㄹㄱㅜ	-3810
▁ㅊㅏㅁㅁㅗ	-3811
▁ㅅㅏㅇㄱㅣ	-3812
▁ㅆㅗㄷㅇㅏ	-3813
▁ㅃㅏㄹㄱㅏㅎ	-3814
▁ㄲㅡㄶㄱㅣ	-3815
▁ㅂㅜㄹㄱㅛ	-3816
▁ㅇㅕㅇㄱㅜ	-3817
▁ㄱㅜㄱㅇㅘㅇ	-3818
▁ㅅㅣㄱㅁㅣㄴ	-3819
▁ㄴㅗㅎㅇㅣ	-3820
▁ㅁㅏㄱㄷㅐ	-3821
▁ㅊㅓㄹㄱㅝㄴ	-3822
ㄹㅓㄱㅈㅓ	-3823
▁ㄹㅓㄴㄷㅓㄴ	-3824
▁ㅈㅡㅇㅇㅓㄴ	-3825
ㅅㄱㅏㄹ	-3826
▁ㅁㅣㄴㅊㅓㅂ	-3827
ㅅㅡㄹㄹㅣ	-3828
▁ㅂㅜㄴㄷㅐ	-3829
ㅌㅡㄱㅂㅕㄹㅅㅣ	-3830
▁ㄱㅣㅁㄷㅗㅇ	-3831
oy	-3832
▁NE	-3833
ㅌㅗㄱ	-3834
▁ㅊㅜㅇㅅㅣㄹ	-3835
ㄸㅡㅅ	-3836
▁ㅅㅗㄴㅎㅐ	-3837
ㄱㅣㅁ	-3838
Hz	-3839
▁ㄸㅏㄴ	-3840
▁ㄱㅗㄱㅁㅕㅇ	-3841
▁with	-3842
ㅍㅏㅇㅇㅣ	-3843
▁ㄱㅏㅇㅈㅏ	-3844
ㅌㅡㄹㄹㅓ	-3845
▁Gr	-3846
▁ㅁㅏㄹㅌㅜ	-3847
▁ㅊㅔㄹ	-3848
ㅊㅠ	-3849
▁ㅅㅏㅇㅅㅣㄹ	-3850
▁ㅋㅡㄹㄹㅐㄴ	-3851
▁ㄱㅘㄴㅈㅜㅇ	-3852
▁ㅈㅗㅇㅁㅗㄱ	-3853
▁ㅎㅕㅇㅅㅏㅇ	-3854
▁ㅅㅣㄴㅇㅏㅇ	-3855
ㄱㅕㄱㅅㅜ	-3856
ㅇㅜㄹㅌㅡㄱㅂㅕㄹㅅㅣ	-3857
ud	-3858
▁ㅅㅔㄴㅌㅡ	-3859
▁ㅅㅜㄱㄹㅕㄴ	-3860
▁ㅁㅣㄱㅅㅡ	-3861
▁ㅉㅣㄱㅎㅣ	-3862
▁ㅇㅛㅇㅅㅓ	-3863
▁ㅇㅣㅂㄷㅐ	-3864
▁ㅈㅜㅇㄹㅑㅇ	-3865
▁ㅇㅓㄷㅇㅓ	-3866
▁ㅂㅗㄴㅅㅏ	-3867
▁ㅎㅣㅂ	-3868
IG	-3869
▁ㅈㅓㄱㄱㅜㄴ	-3870
▁ㅇㅜㄹㄹㅣ	-3871
▁ㅁㅔㄹㄹㅗ	-3872
▁ㅂㅏㅇㅇㅟ	-3873
▁ㄴㅗㄹㄹㅣ	-3874
ㄴㅜㄴ	-3875
▁ㄱㅗㅇㅂㅏㅇ	-3876
▁ㅎㅡㄱㅇㅣㄴ	-3877
▁ㅇㅜㅅㄱㅣ	-3878
▁ㄱㅏㄴㅈㅓㅂ	-3879
▁ㅅㅓㅇㄹㅣㅂ	-3880
BA	-3881
▁ㅅㅐㄱㅅㅏㅇ	-3882
ows	-3883
▁ㄷㅗㅇㄱㅡㅂ	-3884
orld	-3885
ㄱㅏㅄ	-3886
▁ㅅㅜㄴㅎㅘㄴ	-3887
▁RPG	-3888
OC	-3889
▁ㅇㅔㄱㅅㅣ	-3890
▁ㅇㅣㅇㄱㅡㄹㄹㅐㄴㄷㅡ	-3891
ㄹㅕㅇㅂㅜ	-3892
▁he	-3893
▁ㅋㅏㄹㄴㅏㄹ	-3894
ㄴㅡㄹㄴㅏㄹ	-3895
▁ㄷㅓㅇㅊㅣ	-3896
ㅇㅡㄴㅎㅐㅇ	-3897
ㅎㅏㄱㅇㅝㄴ	-3898
▁BL	-3899
▁ㄱㅗㅇㄱㅗㅇ	-3900
ㅌㅐㄴㄷㅡ	-3901
▁ㅅㅐㄴ	-3902
▁ㅅㅏㅇㅇㅣㄴ	-3903
▁ㅇㅣㄹㅊㅣ	-3904
▁ㅇㅣㅂㅈㅣ	-3905
▁ㅇㅣㄹㄷㅐ	-3906
▁ㅅㅣㅁㅅㅏ	-3907
▁ㅍㅐㅇ	-3908
ㄴㅅㅐㄱ	-3909
▁ㅂㅓㅂㄹㅠㄹ	-3910
ㅂㅡㄹㄹㅣ	-3911
▁BS	-3912
▁ㅈㅓㄴㅈㅜ	-3913
ㅆㅡㄹ	-3914
▁ㅊㅗㅇㄹㅣ	-3915
▁ㅊㅏㄱㅎㅏ	-3916
aw	-3917
▁ㅇㅣㅁㅍㅐㄱㅌㅡ	-3918
▁ㅇㅗㅀ	-3919
▁ㅂㅜㄴㅅㅣㄴ	-3920
▁War	-3921
▁105	-3922
ㄱㅔㄴ	-3923
▁ㅂㅜㅅ	-3924
▁ㅇㅟㅅ	-3925
▁ㅎㅕㅁㅇㅗ	-3926
▁ㄱㅜㄱㅍㅏㄴ	-3927
▁ㄱㅏㅇㅇㅛ	-3928
▁ㅊㅓㄴㅁㅏㄴ	-3929
▁ㅇㅣㄹㅂㅗㄴㄱㅜㄴ	-3930
▁ㅇㅕㄴㄱㅡㄱ	-3931
ave	-3932
▁KOF	-3933
▁ㄷㅗㅇㅅㅓㅇ	-3934
▁ㅉㅜㄱ	-3935
ace	-3936
▁ㅇㅕㄹㅁㅐ	-3937
ㅈㅐㅇㅇㅣ	-3938
▁ㄱㅡㅁㅂㅏㅇ	-3939
▁ㅅㅣㅀㅇㅓ	-3940
ㅇㅠㄱㄱㅘㄴ	-3941
▁ㄷㅏㄴㅊㅜㄱ	-3942
ㅅㅡㅇㅈㅏ	-3943
▁ㄹㅏㄴㅅㅡ	-3944
▁Love	-3945
ame	-3946
▁ㅅㅣㄹㅁㅏㅇ	-3947
▁ㅂㅗㄱㅅㅓㄴ	-3948
▁ㄱㅓㄴㅈㅗ	-3949
▁ㅅㅣㄴㄴㅏ	-3950
ㅈㅓㄴㄱㅓ	-3951
▁OVA	-3952
▁ㅅㅓㅇㄴㅏㅁ	-3953
ㄷㅣㅈ	-3954
▁ED	-3955
▁ㅇㅕㅇㅈㅜ	-3956
▁LV	-3957
▁ㅎㅡㄴㄷㅡㄹㄹㅣ	-3958
▁ㅇㅏㄱㄱㅣ	-3959
ㄹㅓㅎㅈㅣ	-3960
▁ㅎㅡㄹㄹㅓ	-3961
80	-3962
ㅅㅜㄱㅅㅏ	-3963
▁ㅅㅓㄴㅌㅐㄱㅈㅣ	-3964
▁ㅅㅔㄴㅅㅡ	-3965
▁ㄴㅓㅁㅂㅓ	-3966
▁EP	-3967
▁DD	-3968
▁ㅇㅕㄴㅎㅏㅂㄱㅜㄴ	-3969
ㅅㅡㄹㄹㅣㅇ	-3970
▁ㅂㅐㄱㅅㅓㅇ	-3971
▁ㅃㅜㅁ	-3972
▁ㄱㅝㄴㅎㅏㄴ	-3973
▁ㅁㅏㅅㅇㅣㅆ	-3974
chor	-3975
ㅋㅣㅅ	-3976
▁ㅂㅏㄴㅈㅓㄴ	-3977
▁ㅅㅏㅇㄷㅏㄴ	-3978
▁ㅁㅗㅇㄱㅗㄹ	-3979
▁ㄱㅜㅅ	-3980
▁ㅂㅜㄹㅅㅏ	-3981
ㄹㅐㅇㅋㅡ	-3982
▁ㅇㅜㄹㅍㅡ	-3983
▁ㄱㅓㄴㄷㅡ	-3984
▁ㅂㅐㄱㅇㅣㄴ	-3985
▁ㄴㅏㄴㅇㅣㅂ	-3986
▁ㅊㅣㅁㄹㅑㄱ	-3987
▁ㅂㅗㄱㅈㅣ	-3988
▁ㅅㅡㅇㄹㅠㄹ	-3989
▁ㅈㅓㅇㅅㅜ	-3990
▁ㄲㅡㄴ	-3991
▁ㄱㅣㅁㅈㅗㅇ	-3992
▁ㅇㅝㄴㅁㅜㄴ	-3993
ies	-3994
▁ㅊㅜㄹㅇㅣㅂ	-3995
▁ㄷㅡㄹㅋㅣ	-3996
ㅇㅓㄴㅊㅡ	-3997
▁ㅎㅓㄹ	-3998
ice	-3999
▁ㄱㅏㄴㅅㅣㄴㅎㅣ	-4000
▁ㅇㅑㅇㅅㅓㅇ	-4001
▁ㄱㅣㅁㅁㅣㄴ	-4002
▁ㅈㅣㅂㅎㅐㅇ	-4003
▁ㅇㅏㅁㅅㅣ	-4004
ㅇㅣㄴㅇㅓㅂ	-4005
▁CG	-4006
ㅍㅐㄴ	-4007
▁ㅎㅏㅂㅇㅢ	-4008
▁ㅍㅕㅇㅅㅐㅇ	-4009
▁ㄷㅔㅁ	-4010
▁ㅁㅏㄱㅇㅏ	-4011
▁ㅊㅗㅇㅅㅓㄴ	-4012
▁ㄷㅗㅇㅇㅑㅇ	-4013
▁ㅅㅐㅇㅈㅗㄴㅈㅏ	-4014
▁ㄱㅓㄹㅁㅏㅈ	-4015
ㅂㅓㅂㅅㅗ	-4016
▁ㅎㅐㅁ	-4017
ㅅㅣㄴㄱㅛ	-4018
▁ㄷㅗㅇㅁㅕㅇ	-4019
own	-4020
▁1987	-4021
▁ㅈㅡㄹㄱㅓㅂ	-4022
▁ㅂㅗㄱㄱㅜ	-4023
ㄷㅠㄹ	-4024
ㅅㄱㅏㄹㄹㅣ	-4025
▁sh	-4026
▁ㅆㅓㄴㄷㅓ	-4027
▁ㄱㅓㄹㅇㅓ	-4028
▁ㅇㅣㄹㅎㅘ	-4029
▁ㄱㅙㄴㅎㅣ	-4030
ㅇㅓㄴㅌㅡ	-4031
ㅊㅜㄱㅎㅏㅁ	-4032
▁ㅁㅕㅇㅎㅘㄱ	-4033
▁ㅈㅣㅂㅊㅏㄱ	-4034
▁ㅈㅏㄴㄸㅡㄱ	-4035
▁ㅅㅣㄹㅈㅗㄴ	-4036
▁202	-4037
ㅁㅣㅆ	-4038
▁ㅅㅏㅇㅅㅣㄱ	-4039
▁anchor	-4040
ㄹㅓㅅ	-4041
IM	-4042
▁??	-4043
▁ㅇㅡㅂ	-4044
ㄷㅓㄴㅈㅣ	-4045
ㅃㅏㅇ	-4046
▁ㄷㅏㅇㅇㅣㄹ	-4047
▁ㅇㅣㅁㅅㅣㄴ	-4048
per	-4049
▁ㅎㅟㅂ	-4050
▁ㅈㅏㅇㄱㅓ	-4051
▁ㄷㅣㄱ	-4052
man	-4053
▁ㅇㅓㄴㄷㅔ	-4054
▁ㅅㅏㅂㅇㅣㅂ	-4055
▁ㅈㅗㄴㄱㅕㅇ	-4056
▁ㅈㅓㅇㅌㅗㅇ	-4057
ㄱㅜㄴㄷㅏ	-4058
▁ㄱㅏㄹㅇㅏ	-4059
▁Wind	-4060
▁de	-4061
▁3000	-4062
▁ㄱㅡㄴㅂㅗㄴ	-4063
▁ㅌㅗㅇㄱㅖ	-4064
▁ㅌㅏㄴㅎㅘㄴ	-4065
▁ㅈㅓㅇㅎㅘ	-4066
▁ㅁㅕㄴㅎㅓ	-4067
▁ㅇㅣㄴㅈㅗㅇ	-4068
▁ㅎㅘㄱㄷㅐ	-4069
▁ㅇㅓㄴㅅㅡ	-4070
ㅅㅔㅅ	-4071
▁ㄱㅏㄴㄷㅏㄴㅎㅣ	-4072
▁ㄲㅡㅁ	-4073
▁ㄴㅡㅇㄹㅕㄱㅈㅏ	-4074
▁ㄲㅏㄹㄹㅣ	-4075
▁ㅎㅕㅂㅅㅏㅇ	-4076
▁WWE	-4077
old	-4078
▁ㅅㅏㅇㅎㅗ	-4079
▁ㅊㅓㄴㅇㅏㄴ	-4080
▁ㄱㅡㅁㅇㅐㄱ	-4081
▁ㄱㅕㅇㅈㅣㄱ	-4082
ere	-4083
▁ㅂㅕㄴㅎㅘㄴ	-4084
▁ㅂㅣㄱㅌㅗ	-4085
▁ㅈㅓㄴㅇㅣ	-4086
ath	-4087
▁ㅃㅗㅂㅎㅣ	-4088
▁ㅇㅏㄹㄹㅔㄱㅅㅏㄴ	-4089
▁TVA	-4090
▁We	-4091
▁ㅎㅣㄴ	-4092
▁ㅊㅜㅇㅊㅓㅇ	-4093
ㅇㅔㅅ	-4094
▁ㅇㅣㅀㅇㅓ	-4095
▁ㅈㅓㄱㅎㅏㅂ	-4096
TE	-4097
▁ㄱㅡㅂㄱㅕㄱ	-4098
▁ㅂㅏㄱㅁㅜㄹ	-4099
▁ㅎㅏㅇㅂㅗㄱ	-4100
ㄹㄷㅡ	-4101
ㅇㅣㄹㅈㅡ	-4102
▁ㄲㅗㅁ	-4103
▁ㅈㅜㅇㅊㅓㅂ	-4104
▁ㅎㅏㄴㅉㅗㄱ	-4105
▁ㅈㅣㄴㅂㅗ	-4106
▁ㅇㅔㄴㄷㅡ	-4107
▁ㅎㅗㄱㅅㅣ	-4108
ㄹㅐㄴㅁㅏㄴ	-4109
ㅌㅔㅂ	-4110
▁ㄱㅏㅇㅈㅓㅁ	-4111
▁ㅃㅓㄷ	-4112
▁ㅅㅡㅇㅁㅜ	-4113
▁ID	-4114
ick	-4115
ㅁㅗㅁ	-4116
ber	-4117
ㅍㅡㄹㄹㅓ	-4118
▁ㅈㅏㅇㅌㅏㄴ	-4119
▁ㅎㅞ	-4120
▁ㅋㅣㄹㄹㅓ	-4121
10	-4122
▁ㄴㅏㄹㅉㅏ	-4123
ㅇㅜㄴㅅㅓ	-4124
▁ㅅㅐㅇㅁㅕㅇㅊㅔ	-4125
▁ㅎㅐㅇㅎㅏ	-4126
ㄸㅟ	-4127
▁ㅈㅐㅇ	-4128
ㅅㅈㅣㅂ	-4129
▁ㅇㅝㄴㅈㅗ	-4130
▁PV	-4131
▁ㄱㅓㅁㅅㅜㄹ	-4132
▁1986	-4133
▁ㄹㅣㅂ	-4134
▁ㄱㅕㅇㅈㅜ	-4135
GE	-4136
▁KBO	-4137
ov	-4138
ㄸㅏㄱ	-4139
ㅌㅐㄴ	-4140
ory	-4141
▁ㅇㅟㄴㄷㅗ	-4142
▁ㅇㅓㅂㄱㅖ	-4143
ㅊㅓㅁ	-4144
▁AS	-4145
▁ㄱㅝㄴㄹㅣ	-4146
▁my	-4147
▁ㅁㅏㄴㄴㅏㅁ	-4148
▁ㄱㅗㅅㄱㅗㅅ	-4149
ond	-4150
ㄱㅓㄹㅇㅣ	-4151
▁ㄲㅡㅁㅉㅣㄱ	-4152
▁ㅅㅣㄹㅈㅗㅇ	-4153
ㅌㅔㄴㄷㅗ	-4154
▁ㄴㅏㅈㅊㅜ	-4155
▁ㄴㅣㄴㅌㅔㄴㄷㅗ	-4156
▁ㅇㅓㄴㅈㅔㄴㄱㅏ	-4157
▁ㅈㅜㅇㄹㅣㅂ	-4158
ㄹㅔㄹㄹㅏ	-4159
▁ㅈㅓㅇㄱㅣ	-4160
▁AKB	-4161
▁ㅇㅣㄴㅍㅣ	-4162
▁ㅈㅓㄴㅍㅏ	-4163
ㄱㅘㄹ	-4164
▁".	-4165
▁ㄱㅘㄴㅎㅏㄹ	-4166
▁ㅂㅐㄱㅎㅘ	-4167
▁ㅊㅓㄹㅅㅜ	-4168
▁ㅂㅜㄴㄷㅏㅇ	-4169
▁ㅅㅓㅇㅈㅓㄴ	-4170
▁ㄱㅗㅂ	-4171
▁ㄱㅕㄴㄷㅣ	-4172
▁ㅇㅑㄱㅎㅘ	-4173
ㅇㅛㅇㅈㅏ	-4174
▁En	-4175
▁ㄷㅏㄴㅎㅐㅇㅂㅗㄴ	-4176
▁ㅎㅕㄹㅇㅐㄱㅎㅕㅇ	-4177
▁ㅇㅝㄴㄹㅣ	-4178
▁ㅂㅜㄴㅁㅕㅇㅎㅣ	-4179
▁ㅈㅜㅇㅎㅕㅇ	-4180
▁ㅇㅛㅇㅇㅣㄴ	-4181
ㅂㅡㄹㄹㅣㄴ	-4182
ream	-4183
▁ㄱㅕㄹㅌㅜ	-4184
▁ㄱㅏㅁㄱㅏㄱ	-4185
ㅇㅓㄴㅅㅡ	-4186
ah	-4187
▁ㅆㅏㄱ	-4188
ㄲㅡㄴ	-4189
ㅍㅡㅁ	-4190
▁ㅁㅜㄴㄷㅏㄴ	-4191
▁ㅎㅏㄱㄹㅕㄱ	-4192
out	-4193
▁ㅊㅡㄱㅈㅓㅇ	-4194
ㅅㅔㄴㅌㅡ	-4195
ㅁㅏㅂ	-4196
▁ㅈㅜㅇㅅㅔ	-4197
▁wh	-4198
▁ㅊㅓㅅㅊㅏ	-4199
▁ㅂㅕ	-4200
▁->	-4201
▁Dr	-4202
▁ㅊㅓㄹㅎㅏㄱ	-4203
▁ㅌㅗㅇㅊㅣ	-4204
▁ㄲㅡㄹㄹㅕ	-4205
▁ㅂㅏㄱㅁㅜㄹㄱㅘㄴ	-4206
▁ㅈㅜㅂ	-4207
ost	-4208
▁ㅁㅏㄱㄴㅐ	-4209
▁ㅇㅓㅁㅁㅣㄹ	-4210
▁ㅂㅗㄱㅈㅔ	-4211
▁ㅎㅏㅁㅂㅜ	-4212
▁ㅂㅔㄹㅌㅡ	-4213
▁ㅈㅣㄴㅈㅜ	-4214
▁ㄷㅗㄱㅈㅐ	-4215
▁GP	-4216
▁ㅇㅛㅇㅈㅏ	-4217
▁ㅇㅕㄴㅍㅐ	-4218
▁ㅅㅗㄱㅇㅣ	-4219
▁ㅂㅓㅂㅇㅝㄴ	-4220
▁ㅇㅓㄴㄷㅓㄱ	-4221
▁ㅂㅏㅇㅅㅗㅇㄱㅜㄱ	-4222
UM	-4223
TS	-4224
▁ㅅㅓㄴㅎㅐㅇ	-4225
▁ㅇㅣㄴㅈㅣㄹ	-4226
ㅂㅏㄴㄷㅗ	-4227
ㄸㅜㄱ	-4228
▁ㅇㅕㄴㄱㅗ	-4229
LE	-4230
▁ㅈㅜㄴㅇㅜ	-4231
▁ㅋㅐㅁㅍㅡ	-4232
▁ㅊㅏㅇㅇㅝㄴ	-4233
ㅈㅡㄹ	-4234
▁ㄲㅜㄹ	-4235
▁ㅅㅕㄹ	-4236
▁ㄱㅏㄹㄹㅏ	-4237
▁ㄱㅣㅁㄷㅐ	-4238
60	-4239
▁For	-4240
▁ㅎㅓㄴㅂㅓㅂ	-4241
▁ㅁㅕㄴㅈㅓㄱ	-4242
▁ㅇㅣㄴㅇㅛㅇ	-4243
▁ㅈㅜㅇㅂㅗㄱ	-4244
▁ㅎㅕㅁㅇㅢ	-4245
▁ㄱㅕㄹㅅㅣㅁ	-4246
▁189	-4247
▁ㄷㅗㄹㅇㅣㅂ	-4248
▁DC	-4249
▁FIFA	-4250
ile	-4251
▁1500	-4252
▁ㄹㅗㅁ	-4253
▁ㅇㅡㄴㅈㅣ	-4254
ㅂㅏㄹㅈㅏ	-4255
▁ㅂㅜㄹㄹㅑㅇ	-4256
▁ㄹㅓㅁ	-4257
IP	-4258
▁ㄴㅏㅁㅇㅏ	-4259
▁ㅇㅣㄴㅂㅏㅇ	-4260
▁kt	-4261
▁ㅁㅟ	-4262
▁\	-4263
▁ㄷㅣㄹㄹㅣㅇ	-4264
▁ㅇㅕㄴㅁㅐㅇ	-4265
▁ㄱㅜㄺ	-4266
▁ㄴㅏㅁㅁㅐ	-4267
▁1985	-4268
▁ㅍㅕㅇㅇㅣㄹ	-4269
▁ㅈㅜㅇㅅㅣ	-4270
ㅂㅡㄹㄹㅗ	-4271
ㅅㅓㅁ	-4272
ㄹㅐㅇ	-4273
▁ㅂㅏㄴㅂㅜ	-4274
▁ㅂㅓㅂㅈㅓㅇ	-4275
▁ㅇㅏㄴㄱㅣ	-4276
▁CJ	-4277
ㅍㅕㅇㅇㅑㅇ	-4278
▁ㄷㅏㄴㅇㅝㄴ	-4279
ont	-4280
ㅍㅣㄹㄷㅡ	-4281
▁ㄱㅏㅁㅊㅜ	-4282
ㅍㅕ	-4283
▁ㅁㅜㄹㄹㅕ	-4284
▁ㅅㅣㄴㄷㅗ	-4285
▁ㅊㅓㅇㅈㅜ	-4286
ㅈㅏㄹ	-4287
▁ㄷㅡㄱㅍㅛ	-4288
▁ㅌㅐㄱㅅㅣ	-4289
ome	-4290
▁ㄲㅞ	-4291
ㄱㅗㄴㅂㅗㄹ	-4292
ㅇㅝㄴㅈㅏㅇ	-4293
ㅋㅡㄴ	-4294
▁ㅈㅏㅁㅇㅣㅂ	-4295
▁ㅅㅐㅇㄴㅕㄴ	-4296
▁ㅈㅏㅇㅁㅣ	-4297
▁ㅅㅣㄹㅇㅡㄴ	-4298
▁1984	-4299
▁ㅎㅡㅌ	-4300
ㅆㄷㅏ	-4301
▁It	-4302
▁ㅇㅕㄴㅅㅡㅇ	-4303
▁ㅈㅜㅇㅈㅏㅇ	-4304
▁ㅂㅓㅂㅊㅣㄱ	-4305
▁ㅎㅐㅇㅂㅏㅇ	-4306
ㅈㅗㄹ	-4307
ㄴㅢ	-4308
▁ㅇㅏㄴㄴㅕㅇ	-4309
▁ㄱㅘㄴㄹㅏㅁ	-4310
▁ㅌㅡㄴ	-4311
▁ㄴㅣㅅ	-4312
▁ㅇㅕㄱㅁㅕㅇ	-4313
▁PR	-4314
▁ㄱㅗㅇㅅㅜ	-4315
▁Star	-4316
▁ㄴㅜㅂ	-4317
▁ㄱㅗㅇㅇㅣㄴ	-4318
▁ㅅㅣㄱㅍㅜㅁ	-4319
▁ㅇㅏㄱㅎㅘ	-4320
▁ㅎㅓㅇ	-4321
ㄷㅗㅇㄹㅕㄱ	-4322
▁ㅎㅏㄱㄱㅣ	-4323
ㅅㅏㄴㅇㅕㄱ	-4324
▁ㅈㅣㄹㄹㅣ	-4325
▁ㅇㅔㄹㄹㅔ	-4326
▁ㄹㅣㄹ	-4327
ㄹㅓㄴㅌㅡ	-4328
io	-4329
▁ㅌㅏㅁㅈㅓㅇ	-4330
▁ㅇㅏㄴㄱㅐ	-4331
▁ㅈㅜㅇㄹㅕㄱ	-4332
▁ㅋㅡㄹㄹㅗㄴ	-4333
▁ㄷㅏㅇㄷㅐ	-4334
▁ㄱㅘㄴㅈㅓㅁ	-4335
▁ㄱㅣㅁㅈㅐ	-4336
▁ㅎㅘㄱㅈㅏㅇㅍㅐㄱ	-4337
ㅇㅓㅂㅈㅏ	-4338
▁ㅅㅏㄹㅍㅕ	-4339
▁ㅊㅏㅁㅅㅓㄱ	-4340
▁ㅇㅣㄹㄷㅏㅇ	-4341
ㅎㅔㄴㅌㅣ	-4342
▁ㄷㅏㅂㅂㅕㄴ	-4343
▁EZ	-4344
ㅅㅡㄹㄹㅓ	-4345
▁5000	-4346
▁ㅁㅕㅇㅇㅢ	-4347
az	-4348
▁ㅁㅏㄴㅁㅏㄴ	-4349
▁ww	-4350
▁ㅇㅕㅇㅇㅝㄴㅎㅣ	-4351
ㅇㅟㅅ	-4352
▁ㅅㅣㄱㅁㅣㄴㅈㅣ	-4353
▁ㅂㅓㅂㅇㅣㄴ	-4354
▁ㅂㅜㄴㅈㅐㅇ	-4355
▁ㅎㅏㅂㅂㅕㅇ	-4356
▁DE	-4357
▁ㄱㅣㅁㅎㅕㄴ	-4358
▁ㄴㅏㅁㅂㅜㄱ	-4359
ㅈㅏㅁ	-4360
▁Station	-4361
▁ㅇㅏㅁㅅㅏㄹㅈㅏ	-4362
▁ㅂㅏㄱㄱㅡㄴ	-4363
▁ㄱㅗㅇㅇㅓㅂ	-4364
▁106	-4365
▁ㄱㅡㅂㅎㅐㅇ	-4366
▁ㅂㅏㄹㄹㅔㄴ	-4367
▁ㅈㅣㄴㅇㅏㅂ	-4368
▁ㅃㅗㅂㅇㅏ	-4369
▁ㅋㅘ	-4370
▁ㄱㅣㅁㄱㅕㅇ	-4371
▁ㄷㅏㄴㅈㅗㅇ	-4372
▁ㅅㅗㄹㅈㅣㄱ	-4373
ㅅㅓㅇㅇㅝㄴ	-4374
▁ㅇㅟㄴㄷㅡ	-4375
▁ㅈㅣㄹㅌㅜ	-4376
ㅇㅗㄴㅈㅡ	-4377
▁ㅌㅗㅇㅌㅡㄹ	-4378
ian	-4379
▁ㄱㅠㄴㅎㅕㅇ	-4380
▁ㅅㅣㄴㅈㅓㄴ	-4381
▁www	-4382
▁ㄷㅗㅁ	-4383
▁ㄱㅕㅇㄹㅗ	-4384
ㅌㅟ	-4385
▁ㅈㅏㅇㅇㅣㄴ	-4386
▁Fl	-4387
▁ㅇㅡㄴㅅㅣㄴ	-4388
▁ㅊㅣㅁㅇㅣㅂ	-4389
▁ㄹㅐㅁ	-4390
▁ㅇㅜㄴㄷㅗㅇㅈㅏㅇ	-4391
▁ㅅㅣㄴㅇㅛㅇ	-4392
▁ㄱㅏㅁㅈㅣ	-4393
ㄹㅣㄴㅅㅔ	-4394
▁170	-4395
▁FM	-4396
ade	-4397
▁Sc	-4398
ㅅㅏㅇㅅㅣㄱ	-4399
▁Or	-4400
30	-4401
▁ㄱㅏㄴㅎㅗ	-4402
▁AN	-4403
▁ㅊㅏㅇㄱㅗ	-4404
▁ㄷㅓㄴㄱㅏ	-4405
▁ㅂㅕㄴㅌㅐ	-4406
ㅍㅡㄹㄹㅣ	-4407
▁ㄷㅔㄹ	-4408
▁ㅇㅑㅇㅈㅏ	-4409
▁ㄷㅗㄱㅇㅣㄹㄱㅜㄴ	-4410
ㅌㅠㅁ	-4411
▁ㅊㅏㅇㄷㅏㄴ	-4412
▁ㅅㅓㄴㄱㅗ	-4413
▁ㄱㅗㅇㅎㅓ	-4414
▁ㄱㅏㅁㄷㅗㅇ	-4415
▁SNS	-4416
▁Fate	-4417
▁ㅂㅣㅇㅍㅏㄴ	-4418
▁ㅆㅡㄹㄷㅔ	-4419
ㄱㅡㄹㅅㅡ	-4420
▁ㄱㅏㅁㅅㅏㅇ	-4421
▁ㅈㅓㅇㅎㅘㅇ	-4422
ㄱㅗㅂ	-4423
▁ㅎㅏㄴㄷㅜ	-4424
▁Go	-4425
▁ㅅㅣㄴㅂㅏㄹ	-4426
▁ㅈㅓㄴㅅㅡㅇ	-4427
▁ㄱㅓㄹㅈㅡ	-4428
▁ㅇㅑㅇㅂㅏㄴ	-4429
▁ㄴㅏㄴㅅㅏ	-4430
▁ㅌㅗㅇㅎㅘ	-4431
▁ㅍㅏㅇ	-4432
ason	-4433
▁ㅈㅣㄴㅎㅏㄱ	-4434
ㅎㅓㅁㄱㅏ	-4435
▁ㄷㅏㄷ	-4436
▁ㅎㅏㄱㅅㅡㅂ	-4437
▁ㄴㅗㄴㅈㅐㅇ	-4438
▁ㅇㅕㅇㄱㅘㅇ	-4439
ㅇㅗㄹ	-4440
▁ㄱㅕㄱㅊㅏ	-4441
▁ㅈㅓㄴㅁㅜ	-4442
▁ㅈㅓㄴㅈㅔ	-4443
▁ㅇㅝㄴㅍㅣ	-4444
▁ㅅㅏㄴㅎㅏ	-4445
▁Br	-4446
ㅂㅓㄹㄹㅔ	-4447
▁ㅂㅗㄴㅈㅣㄴ	-4448
▁ㅅㅡㄹㄹㅓ	-4449
ㄱㅕㅂ	-4450
▁ㄱㅡㅂㅎㅏ	-4451
ㅍㅡㄹㄹㅣㅇ	-4452
▁1960	-4453
▁ㅅㅡㄹㅍㅡ	-4454
▁ㄱㅘㅇㅅㅓㄴ	-4455
▁ㅅㅐㄴㄷㅡ	-4456
ㅈㅗㅇㅅㅏ	-4457
▁ㅇㅣㅇㅇㅕ	-4458
▁ㅊㅓㄴㅇㅕㄴ	-4459
▁ㅌㅡㄱㅂㅕㄹㅎㅣ	-4460
▁ㄷㅗㅇㅇㅣㄴ	-4461
▁ㅁㅏㄱㅍㅏㄴ	-4462
ㅁㅣㅅ	-4463
▁ㄱㅣㄴㅈㅏㅇ	-4464
ㅅㅏㄴㅅㅣ	-4465
ㅂㅓㄴㅇㅔ	-4466
40	-4467
▁ㅇㅣㄴㄹㅕㄱ	-4468
▁ㅅㅓㅇㄷㅏㅇ	-4469
▁ㅎㅐㅇㅇㅜㄴ	-4470
▁JP	-4471
sh	-4472
▁ㅎㅏㅇㅇㅢ	-4473
▁ㅁㅜㅇㅊㅣ	-4474
▁ㅂㅓㅇ	-4475
▁BR	-4476
▁ㅂㅗㄱㅎㅏㅂ	-4477
▁CF	-4478
ㄴㅡㅇㄹㅕㄱ	-4479
▁ㅂㅏㄹㄱㅜㄹ	-4480
▁ㅍㅏㅅ	-4481
ㅂㅜㄹㅁㅕㅇ	-4482
▁ㅅㅓㅇㅈㅣㄹ	-4483
▁ㅊㅜㄹㄱㅏㄴ	-4484
▁CH	-4485
▁ㅁㅏㄴㅈㅣ	-4486
ㅇㅣㄹㅂㅗ	-4487
▁ㅅㅗㄴㅇㅗ	-4488
tle	-4489
▁ㄹㅜㄱ	-4490
ㄷㅗㄹㅇㅏ	-4491
▁ㄱㅏㅂㅈㅏㄱ	-4492
▁ㅅㅣㄴㅈㅏ	-4493
▁ㅇㅞㄹ	-4494
▁ㅇㅘㅇㅇㅟ	-4495
ug	-4496
▁ㅂㅏㄱㅅㅏㄹㄴㅏ	-4497
▁ㅂㅜㄴㅇㅕㄹ	-4498
▁Windows	-4499
▁ㅋㅗㅁㅂㅣ	-4500
▁ㅁㅗㄹㄹㅕ	-4501
▁ㅅㅏㅇㄱㅘㄴㅇㅓㅄㅇㅣ	-4502
ㄸㅜ	-4503
▁ㅈㅣㄱㅈㅏㅇ	-4504
▁SF	-4505
▁LC	-4506
▁125	-4507
▁ㅈㅓㅇㅇㅖ	-4508
ㅇㅝㄹㅇㅣㄹ	-4509
▁ㅋㅐㅅ	-4510
▁https	-4511
▁ㅇㅗㄹㅅㅡ	-4512
▁ㅎㅡㅂㅅㅏ	-4513
▁ㄸㅜㅀㄹㅣ	-4514
▁ㅊㅜㄹㄱㅕㄱ	-4515
▁ㅇㅝㄴㄱㅗㄱ	-4516
ㄹㅔㄹ	-4517
▁ㅅㅣㅁㅇㅢ	-4518
▁ㅊㅏㅇㅈㅏㄱㅁㅜㄹ	-4519
▁ㅌㅗㄹ	-4520
▁ㅈㅜㅇㄱㅗ	-4521
▁ㅂㅐㄱㅈㅔ	-4522
▁ㄱㅕㅇㄴㅏㅁ	-4523
ach	-4524
▁ㄹㅔㄹ	-4525
▁ㅍㅣㅇㅋㅡ	-4526
ㅁㅏㄴㅎㅣ	-4527
ower	-4528
▁ㅅㅐㅇㄴㅕㄴㅇㅝㄹㅇㅣㄹ	-4529
▁ㅈㅏㅇㄹㅗ	-4530
▁ㅇㅝㄴㄷㅓ	-4531
▁ㅌㅗㅇㄹㅗ	-4532
▁ㄱㅕㄹㅈㅔ	-4533
▁ㅅㅣㄴㅈㅣ	-4534
▁360	-4535
ㅂㅓㄱ	-4536
▁ㅅㅡㄹㄹㅣ	-4537
ㅅㅏㅇㅇㅟ	-4538
▁ㅈㅏㅇㅌㅏㄴㅅㅜ	-4539
▁ㅁㅜㄹㄱㅗ	-4540
▁ㅍㅏㄴㄱㅕㄹ	-4541
▁ㅈㅓㄴㄷㅗㅇㅊㅏ	-4542
▁BE	-4543
▁ㅈㅣㄴㄱㅡㅂ	-4544
▁ㅍㅡㄹㄹㅣ	-4545
▁ㄴㅡㄺ	-4546
ㄹㅣㄹㄹㅏ	-4547
▁ㄱㅡㄱㅎㅣ	-4548
▁ㅇㅣㅁㄱㅡㅁ	-4549
▁ㅈㅡㅇㅅㅏㅇ	-4550
▁ㄴㅏㄹㅋㅏ	-4551
▁ㅁㅐㄱㅈㅜ	-4552
▁ㄸㅡㄴㄱㅡㅁㅇㅓㅄㅇㅣ	-4553
▁OP	-4554
▁ㅂㅐㅅ	-4555
▁ㅅㅗㄴㅅㅏㅇ	-4556
iss	-4557
▁ㅁㅏㄱㅅㅏㅇ	-4558
ㅅㅇㅣ	-4559
▁ㅁㅗㄳ	-4560
ㅇㅟㅇ	-4561
▁ㅊㅓㄹㄱㅓ	-4562
ARD	-4563
▁ㄹㅔㄴㅈㅡ	-4564
ㅌㅡㄹㄹㅣ	-4565
▁ㅅㅏㅇㄷㅏㅁ	-4566
▁Wi	-4567
▁ㅎㅢㄴㅅㅐㄱ	-4568
ash	-4569
ㅂㅔㅅ	-4570
▁ㅈㅡㄱㅅㅏ	-4571
▁ㅇㅓㄹㄹㅏ	-4572
▁ㅋㅗㄴㅅㅗㄹ	-4573
▁ㅁㅜㄹㄹㅑㅇ	-4574
▁ㅁㅏㄴㅇㅣㄹ	-4575
▁ㅇㅏㄱㅁㅗㅇ	-4576
ㄷㅜㄹ	-4577
▁ㅇㅕㄱㅅㅡㅂ	-4578
▁ㄱㅜㄱㄱㅕㅇ	-4579
▁ㅂㅏㄹㅎㅐㅇ	-4580
▁ㄱㅡㄱㄷㅗ	-4581
ㅊㅓㄴㅅㅣ	-4582
▁ㄱㅏㄴㅈㅜ	-4583
ial	-4584
OU	-4585
ook	-4586
▁UN	-4587
▁wik	-4588
▁ㅁㅜㄹㅊㅔ	-4589
▁ㄷㅗㅇㄱㅕㅇ	-4590
ㄱㅏㄹㄹㅑㅇ	-4591
▁ㅊㅡㄴ	-4592
ㅋㅔㄹ	-4593
ㄷㅡㄹㄱㅣ	-4594
▁ㅊㅜㄱㅂㅗㄱ	-4595
▁ㄱㅘㅇㅈㅏㅇ	-4596
▁LA	-4597
▁ㅅㅣㄴㄷㅔ	-4598
ann	-4599
▁ㅅㅣㄹㅅㅏ	-4600
▁ㅇㅑㄱㅁㅜㄹ	-4601
▁ㅁㅣㄹㄹㅕ	-4602
▁ㅇㅕㄹㅎㅕㄹ	-4603
▁ㅅㅡㅇㅊㅏ	-4604
▁ㅂㅜㄹㅍㅔㄴ	-4605
▁ㅈㅏㅁㅅㅣㄹ	-4606
▁ㅌㅗㅇㅊㅣㅇ	-4607
▁ㅎㅗㄴㄷㅗㄴ	-4608
ㅈㅠ	-4609
▁ㅊㅏㅇㅅㅓㄹ	-4610
ㄷㅗㄹㅇㅣ	-4611
ㄱㅣㅅ	-4612
▁ㄷㅗㅇㄴㅏㅁ	-4613
ss	-4614
▁ㄱㅗㅇㅈㅓㅇ	-4615
▁ㅂㅐㄱㅈㅏㄱ	-4616
▁ㅂㅜㅌㅈㅏㅂㅎㅣ	-4617
▁ㅅㅏㅇㅅㅏ	-4618
▁ㅈㅡㄱㅇㅟ	-4619
▁ㅎㅔㄴㄹㅣ	-4620
▁ㅅㅡㅇㅈㅏ	-4621
▁ㄷㅏㅇㄷㅏㅇ	-4622
▁ㅇㅕㄴㅂㅗㅇ	-4623
▁ㅇㅏㅅ	-4624
▁ㄴㅏㄴㅁㅜ	-4625
▁1982	-4626
▁ㅌㅐㄱㅎㅏ	-4627
▁ㅈㅜㄹㄹㅣ	-4628
ㄱㅜㄱㅇㅓ	-4629
▁ㅅㅣㄹㅅㅏㅇ	-4630
▁ㅍㅜㅅ	-4631
▁ㅇㅑㅇㅅㅗㄴ	-4632
▁ㅅㅑㅅㄱㅓㄴ	-4633
▁ㅈㅓㄴㅂㅜㄱ	-4634
ㅇㅏㄵ	-4635
ㅂㅜㄹㅎㅗ	-4636
▁ㅅㅣㄴㅇㅣㅂ	-4637
ky	-4638
▁ㅅㅏㅇㄹㅠㄱ	-4639
▁ㄱㅏㅁㅆㅏ	-4640
irl	-4641
▁ㅈㅏㅇㅅㅏ	-4642
▁ㅈㅏㅁㄷㅡㄹ	-4643
▁ㅅㅓㅇㅆㅣ	-4644
▁ㄷㅐㄴ	-4645
MP	-4646
▁ㅈㅏㅇㅅㅣㄴ	-4647
▁ㅍㅗㄱㅍㅏ	-4648
▁ㅂㅗㄱㅇㅝㄴ	-4649
ps	-4650
ㅊㅓㄹㄷㅗ	-4651
▁ㄴㅏㄱㅎㅏ	-4652
▁your	-4653
▁ㅇㅡㅇㅇㅛㅇ	-4654
ㅂㅣㅅ	-4655
▁ㅇㅕㅂ	-4656
▁ㅇㅓㄺ	-4657
ㅂㅐㅅ	-4658
ㄴㅡㅈ	-4659
▁ㅁㅕㅇㅁㅗㄱ	-4660
ㅇㅜㄴㄹㅗ	-4661
▁ㅇㅣㅁㄷㅐ	-4662
▁ㄱㅡㄴㅇㅝㄴ	-4663
ib	-4664
▁ㅂㅗㄴㅌㅗ	-4665
▁ㅈㅣㅁㅈㅏㄱ	-4666
▁that	-4667
ㅁㅓㄴㅅㅡ	-4668
▁ㅅㅓㄴㅈㅗ	-4669
▁ㅅㅏㅇㅇㅕㅇ	-4670
ㅁㅠㄹㄹㅔ	-4671
▁ㅇㅣㄴㅈㅏ	-4672
▁ㅌㅡㄱㄱㅡㅂ	-4673
▁1983	-4674
ish	-4675
▁ㅁㅣㅇ	-4676
▁ㅊㅜㄹㄹㅜ	-4677
▁ㅍㅕㄹㅊㅕ	-4678
▁ㅇㅑㄱㅈㅏ	-4679
rom	-4680
70	-4681
ㅂㅗㄴㄱㅣ	-4682
▁ㄷㅏㄴㄷㅏㄴ	-4683
TV	-4684
▁ㄱㅣㅁㅅㅏㅇ	-4685
▁ㄸㅏㄹㄹㅣ	-4686
▁ㅂㅐㅇㅋㅡ	-4687
▁ㄱㅏㄴㄱㅏㄴㅎㅣ	-4688
▁ㄱㅜㅇㄱㅡㅁ	-4689
▁ㅇㅗㄹㄷㅡ	-4690
▁ㅅㅗㅁ	-4691
▁ㅂㅣㄹㄷㅣㅇ	-4692
▁ㅌㅣㄴ	-4693
▁MB	-4694
▁ㄱㅕㅇㅇㅏㄱ	-4695
▁ㅊㅔㄹㅅㅣ	-4696
▁ㅌㅏㅇ	-4697
ㅊㅜㅁ	-4698
▁Mk	-4699
▁ㅌㅔㅅ	-4700
▁ㄷㅗㄱㅇㅣㄹㅇㅓ	-4701
▁ㅆㅏㄹ	-4702
▁ㄱㅕㄹㄱㅖ	-4703
▁GO	-4704
ㅈㅏㄱㅇㅛㅇ	-4705
▁le	-4706
ㄷㅡㄹㅇㅓ	-4707
▁ㅇㅣㄹㅇㅛ	-4708
▁ㅇㅓㅁㄱㅕㄱ	-4709
ㅇㅛㅇㄱㅐㄱ	-4710
▁ㅅㅓㄴㅅㅏ	-4711
▁ㅊㅜㄱㅎㅏ	-4712
▁ㅈㅓㅇㄱㅛ	-4713
▁ㅎㅏㄴㅂㅏㄴㄷㅗ	-4714
▁ㅇㅝㄴㅈㅓㄴ	-4715
▁ㄱㅡㅁㅁㅔ	-4716
▁ㅍㅗㄹㅇㅏ	-4717
▁ㅇㅓㅁㅁㅣㄹㅎㅣ	-4718
ㅌㅏㅁㅈㅓㅇ	-4719
orm	-4720
▁{{	-4721
ㅅㅔㄴㅅㅡ	-4722
▁ㅈㅓㅇㅂㅏㄴ	-4723
▁ㅇㅓㅂㄹㅗ	-4724
▁ㄱㅏㅇㄹㅕㄹ	-4725
▁Ne	-4726
▁ㅎㅔㄹㄹㅣ	-4727
▁ㅁㅏㄱㄱㅏㅇ	-4728
ㅅㄱㅏ	-4729
▁ㅈㅓㄴㄱㅕㄱ	-4730
▁ㅈㅓㄱㅈㅏ	-4731
▁ㄱㅜㄹㅇㅛㄱ	-4732
▁ㅎㅣㄹㄹㅓ	-4733
▁ㄴㅣㅇ	-4734
ㅌㅗㄹ	-4735
▁ㄲㅘㄱ	-4736
▁ON	-4737
▁ㅈㅏㅇㅅㅓㅇ	-4738
▁ㅂㅏㄴㅂㅏㄱ	-4739
▁ㅃㅓㅇ	-4740
▁ㄱㅓㄴㄴㅔ	-4741
▁ㅇㅡㅁㄹㅛ	-4742
▁ㅅㅏㅁㄱㅏㄱ	-4743
▁{{{	-4744
▁ㄷㅏㄴㄱㅓㅁ	-4745
▁ㅎㅗㄹㄹㅣ	-4746
▁ㄲㅏㅁㅉㅏㄱ	-4747
ㅇㅕㄱㅅㅏ	-4748
▁ㄱㅗㅇㄷㅐ	-4749
ㄱㅗㅇㅎㅏㅇ	-4750
▁ㅁㅕㅇㅅㅏ	-4751
▁ㄱㅡㄴㅈㅓㅂㅈㅓㄴ	-4752
ㄹㅓㅁㅍㅡ	-4753
▁ㄱㅏㅂㅈㅏㄱㅅㅡ	-4754
▁ㅅㅐㅇㅈㅓㄴ	-4755
ㅃㅓ	-4756
▁ㅂㅏㅇㅊㅣ	-4757
▁ㄷㅜㅁ	-4758
▁ㅎㅜㄴㅈㅏㅇ	-4759
ㅇㅟㄴㅅㅡ	-4760
▁ㅈㅓㄴㄹㅏㄱ	-4761
▁ㄱㅗㅇㅂㅐㄱ	-4762
▁ㄲㅡㄶㅇㅣㅁ	-4763
▁ㅇㅚㄴㅅㅗㄴ	-4764
▁PP	-4765
amp	-4766
▁ㄱㅓㅁㅊㅏㄹ	-4767
▁ㄱㅣㅁㅎㅐ	-4768
▁ㅅㅏㄴㅌㅏㄴ	-4769
▁ㄱㅝㄴㅇㅟ	-4770
▁ㄱㅏㅍ	-4771
ㅅㅔㄹㄹㅗ	-4772
▁CS	-4773
▁ㅇㅜㄴㅅㅜ	-4774
▁ㄱㅘㄴㅇㅜ	-4775
▁ㅈㅣㄴㄱㅕㄱ	-4776
▁ㄱㅝㄴㅈㅏㅇ	-4777
▁ㅅㅗㄴㅅㅣㄹ	-4778
▁ㅂㅏㄹㅁㅗㄱ	-4779
ㅅㄷㅐ	-4780
ㄴㅠㅁ	-4781
▁ㅅㅗㄴㄲㅗ	-4782
ype	-4783
ㅂㅔㄴㅊㅓ	-4784
ft	-4785
▁350	-4786
▁ㄴㅗㄴㅇㅢ	-4787
ㄴㅓㄹㅌㅣ	-4788
▁ㅇㅑㅇㅅㅏㅇ	-4789
ㅅㅏㅇㅅㅣ	-4790
▁ㄱㅡㄺ	-4791
▁ㄲㅏㄲㅇㅣ	-4792
▁ㅁㅜㄲㅇㅣ	-4793
ㅈㅓㄴㅅㅓㄹ	-4794
▁ㅌㅣㅂ	-4795
▁ㅂㅜㄹㅆㅏㅇ	-4796
▁ㅎㅏㄱㅅㅐㅇㅎㅚ	-4797
ㅁㅏㄱㅈㅣ	-4798
▁ㅌㅣㄹ	-4799
▁ㄱㅏㅇㅇㅝㄴㄷㅗ	-4800
▁ㄱㅗㅇㅌㅗㅇㅈㅓㅁ	-4801
▁TR	-4802
▁ㅅㅓㅇㄱㅕㅇ	-4803
▁ㅇㅓㅍ	-4804
▁Mar	-4805
▁ㄱㅗㅇㅅㅔ	-4806
▁ㅅㅑㅂ	-4807
▁ㅂㅏㄴㄱㅏㅁ	-4808
▁ㅇㅑㄱㅌㅏㄹ	-4809
▁ㄱㅕㅇㅂㅜ	-4810
▁ㅎㅏㄴㅊㅏㅇ	-4811
ㄹㅏㄴㅎㅣ	-4812
▁ㅈㅜㅇㅈㅣ	-4813
ous	-4814
▁by	-4815
▁ㅉㅑㅇ	-4816
▁ㅁㅕㅇㅂㅐㄱ	-4817
▁ㅎㅔㅅㄱㅏㄹㄹㅣ	-4818
▁ㅅㅣㄹㅊㅐㄱ	-4819
▁ㄱㅡㄴㄷㅐ	-4820
▁ㅂㅓㅁㅇㅛㅇ	-4821
▁ㅈㅣㄱㅅㅓㄴ	-4822
▁ㅅㅜㄹㅅㅏ	-4823
ㅈㅣㄴㅎㅗ	-4824
▁ㅈㅜㅇㄷㅗㅇ	-4825
▁ㄱㅓㄴㄱㅜㄱ	-4826
▁ㄷㅏㅇㅅㅏ	-4827
ㅇㅛㅇㅎㅣ	-4828
▁ㅇㅣㄴㅊㅣㅇ	-4829
▁ex	-4830
▁ㅇㅗㅇㅎㅗ	-4831
▁ㅎㅏㅇㄱㅗㅇㅁㅗ	-4832
▁we	-4833
▁Sup	-4834
ㅋㅗㄹㄹㅣ	-4835
▁ㅂㅏㄱㅅㅏㄹㄴㅐ	-4836
▁ㄴㅣㄹ	-4837
▁ML	-4838
▁ㄱㅗㄹㄹㅔㅁ	-4839
▁ㅂㅜㄹㅎㅐㅇ	-4840
▁ㅇㅗㄴㄷㅗ	-4841
▁ㅂㅜㄴㅎㅐ	-4842
ㅇㅏㅍ	-4843
FF	-4844
▁ㅅㅣㄴㅅㅓㄴ	-4845
▁bl	-4846
ㄱㅘㄱ	-4847
ㄷㅣㅈㅎㅣ	-4848
▁ㅈㅜㄹㄱㅓ	-4849
ㄱㅕㅇㄱㅣ	-4850
▁ㅅㅓㅇㅂㅐ	-4851
▁ㅍㅕㅇㅇㅑㅇ	-4852
▁ㅈㅓㄱㅈㅜㅇ	-4853
▁ㅇㅝㄴㅎㅕㅇ	-4854
▁ㅈㅣㄹㅂㅕㅇ	-4855
▁UE	-4856
!!	-4857
▁ㅈㅡㅇㅍㅗㄱ	-4858
▁ㅋㅣㅅ	-4859
▁ㅇㅏㅂㄱㅝㄴ	-4860
▁GSL	-4861
▁ㅋㅓㅁㅂㅐㅅ	-4862
ㅍㅗㄴㅅㅓ	-4863
▁ㅎㅏㅇㄱㅜ	-4864
▁ㅁㅜㄹㅍㅜㅁ	-4865
▁ㅊㅜㄹㅁㅏ	-4866
▁ㄱㅣㅁㄱㅣ	-4867
▁ㅍㅗㄱㅎㅐㅇ	-4868
ㅋㅣㄱ	-4869
▁ㅁㅕㅇㅁㅜㄴ	-4870
▁ㅈㅣㅂㄱㅝㄴ	-4871
▁ㄱㅕㅇㅈㅓㄴ	-4872
▁ㄷㅗㅇㅎㅐㅇ	-4873
ㄹㄹㅕ	-4874
▁ㄷㅗㄱㅈㅓㅁ	-4875
▁ㅂㅕㄴㅇㅣ	-4876
ING	-4877
ey	-4878
▁ㅅㅓㄴㅈㅣㄴ	-4879
▁ㅈㅏㅇㄴㅏㄴㄱㅏㅁ	-4880
▁ㅅㅓㄴㅈㅔ	-4881
▁ㅂㅜㅁ	-4882
▁102	-4883
▁ㅋㅜㄴ	-4884
▁ㅎㅏㅂㄹㅣ	-4885
▁ㅇㅏㄴㅇㅑㅇ	-4886
ㅅㅣㅇㅌㅓㄴ	-4887
AK	-4888
▁ㅎㅕㄹㅌㅗㅇ	-4889
▁ㄴㅏㄹㄸㅟ	-4890
▁ㄱㅏㅁㅅㅜ	-4891
▁ㅅㅏㅇㅎㅏㄴ	-4892
▁ㅎㅏㅂㄷㅗㅇ	-4893
▁World	-4894
ET	-4895
▁ㄱㅓㅁㅇㅕㄹ	-4896
ㄴㅛ	-4897
▁!"	-4898
▁ㅈㅕㄴ	-4899
ㅎㅏㄴㄷㅗ	-4900
▁ㅈㅜㅇㅅㅜㄴ	-4901
▁ㅊㅏㄴㅅㅡ	-4902
▁ㄱㅗㅇㅇㅛㅇ	-4903
▁ㅇㅏㄹㄹㅏ	-4904
▁ㅇㅏㄹㅂㅏ	-4905
▁ㅎㅏㄴㄴㅏ	-4906
▁III	-4907
▁ㄷㅗㅇㄷㅐ	-4908
▁ㅊㅜㄱㅅㅗ	-4909
▁LP	-4910
▁ㅃㅏㄹㄱㅏㄴ	-4911
ㄹㅠㅁ	-4912
▁ㄸㅐㅇ	-4913
ㅈㅓㄴㅅㅏ	-4914
▁ㅌㅡㄹㅇㅓ	-4915
▁ㅇㅣㅈㅎㅣ	-4916
der	-4917
▁ㅈㅓㅈ	-4918
ㅋㅗㄹㄹㅏ	-4919
ㄹㅡㄹㄹㅗ	-4920
▁ㄱㅘㄴㅊㅏㄹ	-4921
▁ㅇㅔㄴㅈㅣ	-4922
▁ㅎㅡㅂㅎㅕㄹㄱㅟ	-4923
oll	-4924
▁ㅎㅕㅇㅍㅕㄴ	-4925
▁ㅈㅣㄴㅅㅏㅇ	-4926
▁ㅇㅓㅁㅇㅕㄴㅎㅣ	-4927
▁se	-4928
▁ㅈㅏㄴㅇㅣㄴ	-4929
▁ㅌㅡㄱㅂㅕㄹㅅㅣ	-4930
▁New	-4931
▁ㅇㅣㄹㄹㅣ	-4932
ink	-4933
▁al	-4934
▁All	-4935
▁ㅅㅔㄱ	-4936
▁ㅇㅣㄴㄱㅝㄴ	-4937
▁ㄱㅕㄹㅎㅗㄴㅅㅣㄱ	-4938
▁ㅁㅕㅇㄷㅏㄴ	-4939
▁ㄱㅏㄱㅇㅗ	-4940
▁ㅂㅏㄱㄱㅡㄴㅎㅖ	-4941
▁ㅊㅣㄴㅈㅓㄹ	-4942
▁ㄴㅗㄴㅁㅜㄴ	-4943
▁ㄷㅗㅇㅎㅐ	-4944
▁ㄱㅏㅇㄱㅏㄴ	-4945
▁ㅅㅓㄴㄷㅜ	-4946
▁IN	-4947
▁ㄷㅗㅇㅅㅓ	-4948
▁SKT	-4949
▁ㅂㅓㄴㅈㅣ	-4950
▁ㅅㅗㄴㅈㅏ	-4951
▁ㅂㅐㅇㄱㅏ	-4952
▁ㅍㅕㅇㅎㅏ	-4953
▁Season	-4954
▁ㅇㅕㅇㅈㅣ	-4955
▁ㄲㅡㅀ	-4956
▁ㄱㅣㄴㄱㅡㅂ	-4957
MS	-4958
▁ㅈㅣㅇㅇㅕㄱ	-4959
▁ㅈㅓㄴㅁㅏㅇ	-4960
▁ㄱㅘㅇㅁㅕㅇ	-4961
ㅇㅣㄴㅂㅗ	-4962
▁ㅍㅕㅇㅎㅐㅇ	-4963
▁un	-4964
ㅌㅐㅂ	-4965
▁ㅅㅓㄹㄹㅕㅇ	-4966
▁111	-4967
▁ㅌㅡㄱㄱㅗㅇ	-4968
▁ㄱㅝㄴㅇㅠ	-4969
▁DP	-4970
▁ㅂㅏㄱㅈㅣ	-4971
▁ㅈㅗㄴㅅㅡ	-4972
▁ㅅㅔㄴㅅㅓ	-4973
▁OG	-4974
▁MF	-4975
▁ㅍㅗㄱㅅㅡ	-4976
▁ㅇㅕㄱㅇㅣㅁ	-4977
▁ㅊㅣㅁㅁㅜㄱ	-4978
▁ㅂㅣㄴㄷㅗ	-4979
▁ㅈㅓㄴㅅㅐㅇ	-4980
▁ㅎㅟㄹ	-4981
▁ㅇㅝㅁ	-4982
▁ㅇㅝㄴㅍㅏㄴ	-4983
▁108	-4984
▁ㅈㅓㅇㅅㅏ	-4985
▁ㄱㅜㄱㅁㅜ	-4986
ㅅㅠㄹ	-4987
▁ㅈㅓㄹㅊㅏ	-4988
▁ㄱㅏㅇㄹㅣㅁ	-4989
▁115	-4990
▁ㄱㅘㄴㅇㅕ	-4991
▁ㄱㅘㄴㅌㅗㅇㄹㅕㄱ	-4992
DX	-4993
IX	-4994
▁ㅈㅣㅌ	-4995
▁ㄹㅔㄱㅅㅡ	-4996
▁ㄲㅓㅂ	-4997
▁ㄷㅏㅇㄱㅣ	-4998
▁ㅈㅣㅁㅅㅡㅇ	-4999
▁ㄷㅗㄹㅂㅗ	-5000
▁ㅎㅏㄹㄹㅣ	-5001
▁ㅊㅗㄱㅅㅜ	-5002
▁lv	-5003
▁DF	-5004
▁ㄱㅏㄴㅈㅣ	-5005
▁ㄱㅏㅇㅎㅗ	-5006
▁ㅊㅓㄹㄱㅏㅂ	-5007
▁ㅅㅐㅇㅇㅐ	-5008
▁ㅃㅏㄹㄱㅏㄴㅅㅐㄱ	-5009
ㅅㅡㅇㅂㅜ	-5010
▁ㅈㅏㅇㅌㅏ	-5011
35	-5012
NA	-5013
▁BGA	-5014
▁And	-5015
ㄴㅓㄴ	-5016
ㅂㅏㅌ	-5017
▁ㄷㅗㅇㅂㅏㄴ	-5018
▁ㄴㅏㄹㅆㅣ	-5019
▁ㄱㅣㅁㅇㅛㅇ	-5020
▁ㅇㅡㄹㅅㅜ	-5021
▁ㅇㅣㄴㄱㅘ	-5022
▁ㄱㅘㄴㅊㅡㄱ	-5023
▁ㅌㅡㄴㅌㅡㄴ	-5024
▁ㅂㅓㄹㄹㅣ	-5025
▁ㅍㅜㅇㅂㅜ	-5026
▁NM	-5027
▁px	-5028
▁ㅂㅜㄹㄴㅡㅇ	-5029
ai	-5030
ㄲㅓㅂ	-5031
▁ㄷㅗㄷㅂㅗ	-5032
▁SU	-5033
ㅈㅜㅁ	-5034
▁ㄷㅗㅇㅈㅓㅁ	-5035
▁ㅅㅗㄴㄲㅗㅂㅎㅣ	-5036
▁ㄷㅗㅇㅅㅗㄱ	-5037
▁ㄱㅣㅁㅍㅗ	-5038
▁ㅊㅣㅁㄷㅐ	-5039
▁ㅂㅏㅇㅅㅗㅇㅅㅏ	-5040
MAX	-5041
▁ㅎㅡㄱㅇㅕㄱㅅㅏ	-5042
▁ㅌㅏㅁㅎㅓㅁ	-5043
▁To	-5044
▁ㅇㅕㄱㄹㅑㅇ	-5045
ank	-5046
▁ㅊㅜㄹㅍㅏㄴㅅㅏ	-5047
▁ㄷㅏㄴㅂㅏㄹ	-5048
ㅍㅗㄱㅌㅏㄴ	-5049
▁ㅎㅕㄴㄱㅡㅁ	-5050
ㅎㅏㅇㄱㅗㅇ	-5051
▁ㅎㅏㄱㅁㅜㄴ	-5052
▁ㅈㅓㄴㄷㅏㅇ	-5053
▁ㅂㅜㄴㅅㅏㄴ	-5054
▁ㅅㅓㄴㅈㅏㅇ	-5055
▁ㅂㅐㄱㅇㅓㅂ	-5056
▁ㄱㅗㄱㅇㅣㄴ	-5057
ㅇㅜㄴㅅㅜ	-5058
ㅊㅐㄱㅈㅓㅁ	-5059
▁ㅅㅜㄴㅇㅑㅇㅎㅏㅁ	-5060
ㅁㅔㅅ	-5061
▁ㄷㅔㄴㅁㅏ	-5062
▁ㅊㅐㅁ	-5063
▁ㄱㅘㅇㅅㅏㄴ	-5064
▁1981	-5065
▁ㄱㅏㅇㄷㅡㅇ	-5066
▁OS	-5067
▁ㅁㅏㄹㅆ	-5068
▁ㄴㅟ	-5069
ary	-5070
▁ㅇㅕㄴㅅㅏㄴ	-5071
▁ㅊㅣㄴㅂㅜㄴ	-5072
ㅍㅣㄹㄷㅓ	-5073
ㅅㅡㄹㄹㅏ	-5074
ero	-5075
▁ㅈㅏㄱㄴㅕㄴ	-5076
▁ㅅㅣㄴㅅㅗㄱ	-5077
▁ㅇㅕㅇㅇㅑㅇ	-5078
▁ㅈㅓㄹㅊㅣㄴ	-5079
▁ㅍㅡㄹㄹㅐㄴ	-5080
▁ㅊㅜㄹㅅㅏㄴ	-5081
▁ㅅㅓㅇㅅㅣㄹ	-5082
▁188	-5083
▁z	-5084
▁ㄱㅗㄹㅋㅣ	-5085
▁IM	-5086
▁ㅈㅜㅇㅅㅏㅇ	-5087
▁Cr	-5088
▁ㅍㅜㅇㄱㅣ	-5089
▁ㅅㅐㅇㅊㅔ	-5090
▁ㅂㅕㄴㅈㅏㅇ	-5091
▁ㅇㅣㄴㅈㅐ	-5092
▁ㅇㅏㄴㅅㅣㅁ	-5093
pl	-5094
▁ㅌㅗㅇㅉㅐ	-5095
▁ㅇㅘㅇㅂㅗㄱ	-5096
ㅎㅐㄱ	-5097
▁Vol	-5098
▁1979	-5099
▁ㄱㅜㄱㅈㅏㅇ	-5100
ㅉㅏㅇ	-5101
▁ㅂㅔㄴㅊㅣ	-5102
ㄹㅔㄴㅈㅣ	-5103
▁ㅇㅕㄴㅅㅙ	-5104
ng	-5105
▁EXT	-5106
ㅍㅗㄹ	-5107
▁ㅇㅣㄹㄱㅏ	-5108
ich	-5109
ㅇㅞㄹ	-5110
▁ㅈㅗㅇㅇㅕㅇ	-5111
ife	-5112
▁ㄴㅐㅇㅈㅓㅇ	-5113
▁ㄱㅗㅇㄷㅏㄴ	-5114
▁ㅇㅔㅅ	-5115
▁ㄱㅏㅇㅅㅏ	-5116
▁Bo	-5117
ㅎㅡㄴ	-5118
▁ㅈㅓㅇㅅㅓㄱ	-5119
▁ㅂㅏㄹㄱㅡㅂ	-5120
▁ㅈㅏㅇㅍㅏㄴ	-5121
AY	-5122
▁ㅅㅐㅇㄱㅣㅁㅅㅐ	-5123
▁ㅎㅏㄹㄹㅗ	-5124
▁ㄴㅏㅇㅂㅣ	-5125
ㄹㅗㄱㅅㅐㄱ	-5126
▁ㅊㅐㄱㅇㅣㅁㅈㅣ	-5127
aster	-5128
ㅌㅔㄹㅅㅡ	-5129
▁ㄷㅓㅁㅂㅣ	-5130
ons	-5131
▁ㄱㅗㅇㄱㅏㅁ	-5132
▁en	-5133
▁ㅍㅜㅁㅈㅣㄹ	-5134
▁ㄷㅏㅅ	-5135
ree	-5136
▁ㅇㅏㄴㅉㅗㄱ	-5137
▁ㅇㅝㄴㅅㅜㅇㅇㅣ	-5138
▁ㅈㅓㄴㄴㅏㅁ	-5139
▁ㅎㅏㅇㅎㅐ	-5140
▁128	-5141
▁Day	-5142
ㅎㅠㅇ	-5143
▁Ad	-5144
▁ㅈㅏㅇㄹㅖ	-5145
▁ㅎㅣㅂㅎㅏㅂ	-5146
▁ㄷㅗㅇㅈㅓㄴ	-5147
▁1950	-5148
ㄴㅗㄹ	-5149
▁ㅇㅣㅁㄱㅣ	-5150
▁ㄱㅣㅁㅈㅜㄴ	-5151
▁ㄹㅔㅁ	-5152
▁ㅂㅕㅇㅇㅕㄱ	-5153
▁ㅁㅏㄴㅈㅜ	-5154
▁ㄷㅏㄱㅊㅣ	-5155
ans	-5156
▁ㄱㅏㄱㅈㅣ	-5157
▁ㅇㅏㄹㄹㅔㄱㅅㅡ	-5158
ㅈㅗㅁ	-5159
▁ㅎㅗㄹㄷㅡ	-5160
▁ㅋㅜㅇ	-5161
▁ㅈㅓㅇㅅㅣㄴㄹㅕㄱ	-5162
▁ㄱㅡㅁㅂㅏㄹ	-5163
▁ㅈㅣㄱㅌㅗㅇ	-5164
▁ㅇㅣㅂㅈㅜ	-5165
▁ㅅㅙ	-5166
ㄸㅓㄱ	-5167
▁ㅁㅏㄴㄴㅡㅇ	-5168
ㄹㄹㅣㄴㅈㅣ	-5169
▁ㅇㅝㄴㅅㅣ	-5170
▁UEFA	-5171
▁ㅎㅘㄱㅅㅏㄴ	-5172
▁ㅁㅗㅁㅌㅗㅇ	-5173
▁sp	-5174
act	-5175
ㅇㅡㅁㄷㅐ	-5176
▁ㅌㅏㅁㅈㅣ	-5177
▁ㄷㅏㄴㄱㅣ	-5178
▁ㅁㅗㄹㅅㅏㄹ	-5179
ㄱㅡㄹㄹㅏ	-5180
ㄸㅓㄹㅇㅓ	-5181
▁ㄱㅏㄹㅅㅐㄱ	-5182
▁ㅎㅏㅁㅈㅏㅇ	-5183
▁IIDX	-5184
▁ㅈㅔㄹㄹㅣ	-5185
ㅊㅣㅅ	-5186
▁ㅂㅗㅇㅅㅙ	-5187
▁ㅇㅑㅇㅅㅣㄱ	-5188
IVE	-5189
▁ㅅㅓㄴㅇㅣㅁ	-5190
ase	-5191
▁ㄴㅣㄱㄴㅔ	-5192
▁ㅅㅣㄹㅊㅔ	-5193
▁ㅁㅗㄱㅅㅏ	-5194
▁ㅂㅜㄹㅌㅐ	-5195
▁ㅁㅜㄴㅈㅐ	-5196
▁ㅅㅗㄴㅅㅟㅂ	-5197
▁ㅅㅏㄴㅁㅐㄱ	-5198
▁ㅅㅣㄹㅎㅕㄴ	-5199
▁ㅎㅡㄴㄷㅡㄹ	-5200
uk	-5201
ple	-5202
▁ㄴㅗㅇㅈㅏㅇ	-5203
▁ㅎㅔㄹㅁㅔㅅ	-5204
▁ㅊㅜㄹㅂㅓㅁ	-5205
▁ㅂㅕㄴㄷㅗㅇ	-5206
ear	-5207
▁ㅋㅐㅂㅅㅠㄹ	-5208
▁ㄷㅗㅇㅈㅓㅇ	-5209
▁ㅍㅓㅁㅍㅡ	-5210
▁ㅁㅓㅇㅊㅓㅇ	-5211
ㅅㅑㅅ	-5212
▁ㅂㅏㅇㅌㅏㄴ	-5213
▁ㅂㅏㄹㄹㅔ	-5214
ㄷㅏㅇㅊㅗ	-5215
▁ㅂㅏㄴㅉㅏㄱ	-5216
▁ㅊㅜㅂ	-5217
▁ㅁㅓㅅㄷㅐ	-5218
▁ㅈㅓㅇㅂㅏㄴㄷㅐ	-5219
▁ㅇㅑㄼ	-5220
▁--	-5221
▁ㅇㅜㄴㅅㅗㅇ	-5222
▁ㅈㅗㅇㄱㅕㄹ	-5223
▁ㅋㅏㅁ	-5224
▁ㅉㅗㅊㄱㅕ	-5225
ㄹㅡㄴㅅㅗㄴ	-5226
▁ㄱㅔㅁ	-5227
12	-5228
ㅋㅡㄹㄹㅣ	-5229
ment	-5230
▁ㅅㅣㄹㄴㅐ	-5231
▁ㅁㅏㅈㅂㅜㅌ	-5232
ction	-5233
▁ㅈㅔㅁ	-5234
▁ㅌㅏㅁㅅㅐㄱ	-5235
▁ㅁㅏㅇㅌㅗ	-5236
▁ㅊㅓㅅㅉㅐ	-5237
▁ㅇㅣㄹㄹㅔㄱㅌㅡ	-5238
▁ㄲㅡㄹㄹㅣ	-5239
ㄸㅣ	-5240
▁WC	-5241
▁ㅋㅗㄴㅌㅔㄴㅊㅡ	-5242
ㄴㅏㄴㅎㅣ	-5243
▁ㅊㅡㄴㄷㅔ	-5244
▁ㅂㅗㄱㅅㅏ	-5245
▁ㄹㅟ	-5246
▁ㅌㅗㅇㅅㅗㄹ	-5247
ㅋㅗㄹㄹㅣㅅ	-5248
▁ㄱㅕㅇㅎㅗ	-5249
▁ㄱㅘㅇㄱㅣ	-5250
▁ㅇㅐㄱㅅㅔ	-5251
▁ㅇㅓㅇㅁㅏㅇ	-5252
▁ㅇㅏㅂㅊㅜㄱ	-5253
▁ㅇㅣㅁㅇㅢ	-5254
▁ㅊㅐㄹㄹㅣㄴㅈㅣ	-5255
▁ㄴㅡㅇㄱㅏ	-5256
▁ㅁㅣㄹㄷㅗ	-5257
▁ㅇㅣㅂㅁㅜㄴ	-5258
▁Part	-5259
▁ㄱㅣㅅㅂㅏㄹ	-5260
▁ㅅㅡㅂㅎㅏ	-5261
▁at	-5262
▁ㅇㅗㄹㅂㅏ	-5263
▁ㅈㅓㄴㅎㅑㅇ	-5264
▁ㅂㅏㄱㅈㅏ	-5265
90	-5266
oon	-5267
ㅁㅏㅇㅈㅜ	-5268
ㅌㅡㄹㄹㅐㄴㄷㅡ	-5269
ㄴㅣㄴ	-5270
ool	-5271
▁ㅋㅡㄹㄹㅣㄴ	-5272
ㅅㅣㄴㅈㅏ	-5273
▁ㅊㅣㅁㅌㅜ	-5274
▁ㅈㅜㅇㅇㅟ	-5275
ㄴㅗㅇ	-5276
ode	-5277
▁ㄲㅡㄶㅇㅣㅁㅇㅓㅄㅇㅣ	-5278
▁ㅍㅓㄱ	-5279
ㄱㅜㄴㄱㅏ	-5280
▁ㅎㅡㄱㅁㅏㄱ	-5281
▁ㄱㅘㄴㅈㅏㅇ	-5282
▁One	-5283
▁ㅃㅓㄹ	-5284
▁ㅌㅐㅂ	-5285
▁ㅇㅕㅇㄱㅏㅁ	-5286
▁ㅅㅏㅇㅈㅜ	-5287
▁ㅇㅔㄴㅌㅡ	-5288
ㅊㅐㄱㄱㅏㅁ	-5289
▁ㅁㅕㅇㄷㅐ	-5290
ㅍㅗㄹㄹㅔ	-5291
▁ㅅㅓㄴㄹㅗ	-5292
▁ㄸㅓㄹㅊㅣ	-5293
ㄹㅏㄱㅅㅣㄹ	-5294
▁ㅅㅣㄴㅈㅏㄱ	-5295
▁ㅋㅗㄴㅅㅡ	-5296
IR	-5297
VER	-5298
▁175	-5299
▁ㄱㅏㅁㅈㅏ	-5300
▁ㅍㅗㄱㄱㅕㄱㄱㅣ	-5301
ㅅㅁㅏㄹ	-5302
▁tv	-5303
▁ㅂㅏㅇㅎㅏㄱ	-5304
▁ㅇㅏㅂㄹㅕㄱ	-5305
▁Ap	-5306
▁ㄱㅣㅁㅇㅠ	-5307
▁ㄱㅏㄴㅍㅏㄴ	-5308
▁FF	-5309
ㄹㅡㄴㅂㅏ	-5310
▁ㄱㅣㅁㅈㅣㄴ	-5311
▁ㅁㅣㄴㄱㅏㄴㅇㅣㄴ	-5312
▁LO	-5313
▁ㅁㅕㅇㅂㅜㄴ	-5314
▁ㅈㅓㅇㅁㅜㄴ	-5315
▁DM	-5316
▁ㄱㅏㄴㅅㅓㅂ	-5317
▁ㅅㅏㅂㅈㅣㄹ	-5318
▁220	-5319
▁ㅍㅏㄴㄷㅗ	-5320
▁ㄱㅑ	-5321
ㅂㅓㄴㅌㅡ	-5322
▁GD	-5323
▁ㄷㅏㄹㅇㅏ	-5324
▁ㅈㅏㄴㅎㅗㄱ	-5325
ㄱㅝㄹ	-5326
▁Sw	-5327
▁ㄱㅜㄴㅂㅜ	-5328
ㅇㅕㅇㅎㅗ	-5329
▁ㅍㅔㄹㄹㅣ	-5330
▁ㄱㅣㅁㅊㅣ	-5331
ㄲㅡㅅ	-5332
▁ㅁㅗㄱㄱㅓㄹㅇㅣ	-5333
▁240	-5334
ㅊㅔㄹ	-5335
▁103	-5336
▁ㅁㅣㄹㄹㅔ	-5337
ㄲㅜㅂ	-5338
ㅇㅝㄴㄱㅜㄴ	-5339
▁ㅊㅣㄴㅊㅓㄱ	-5340
▁ㄱㅜㄴㅅㅜ	-5341
▁ㅁㅣㄴㅍㅖ	-5342
▁ㅈㅏㄱㅈㅓㅇ	-5343
▁AV	-5344
▁AA	-5345
▁ㅎㅏㅁㄹㅏㄱ	-5346
▁ㅋㅡㄴ	-5347
▁ㄱㅡㄹㅆㅣ	-5348
▁ㅁㅏㄴㅈㅓㅁ	-5349
▁ㅂㅏㄴㅇㅕㄱ	-5350
▁NT	-5351
▁ㅂㅗㅇㅅㅏ	-5352
▁ㅇㅕㄴㅅㅜ	-5353
bs	-5354
ㄹㅔㅂ	-5355
ㅇㅣㅅ	-5356
ㄹㅏㄴㅅㅣ	-5357
▁ㅊㅗㅇㅎㅏㅂ	-5358
▁ㅇㅑㄹ	-5359
▁ㅎㅕㄴㅈㅏ	-5360
AP	-5361
▁ㄴㅔㄹ	-5362
▁ㅅㅔㄹㄹㅔ	-5363
ㅈㅗㅁㅁㅜ	-5364
▁ㅎㅡㅁㅈㅗㅁㅁㅜ	-5365
ㄷㅔㄹㄹㅣㅇ	-5366
▁ㄷㅓㅇㅇㅓ	-5367
▁ㄱㅣㅁㅇㅣㄹ	-5368
ㅉㅏㄹ	-5369
▁ㅁㅜㄹㅈㅏ	-5370
▁ㄱㅘㅇㄱㅕㅇ	-5371
▁ㅎㅏㄱㄷㅐ	-5372
▁ㅅㅣㄹㅈㅓㄱ	-5373
ㅉㅜㄱ	-5374
▁ㄱㅣㅁㅅㅜ	-5375
▁ㅊㅜㄹㅎㅕㄹ	-5376
▁ㅈㅜㅇㄱㅓ	-5377
ㅇㅡㄹㅂㅓ	-5378
yle	-5379
▁ㅅㅏㅁㅅㅓㅇㅈㅓㄴㅈㅏ	-5380
▁ㅊㅏㄱㄹㅠㄱ	-5381
ㅅㅏㅇㄱㅡㅂ	-5382
▁ㅊㅓㄴㄱㅜㄱ	-5383
▁ㅅㅟㄹㄷㅡ	-5384
▁ㅎㅗㄴㅎㅕㄹ	-5385
▁ㅇㅣㅂㅅㅣ	-5386
▁ㄷㅏㄲ	-5387
▁ㄹㅓㄴㅊㅓ	-5388
▁ㄸㅜㅇ	-5389
▁ㅅㅡㅇㅈㅣㄴ	-5390
▁ㅇㅓㄺㅎㅣ	-5391
▁nd	-5392
ㅈㅣㄱㅇㅝㄴ	-5393
▁ㅂㅗㄴㄱㅘㄴ	-5394
▁ㅅㅣㄴㅈㅜㅇ	-5395
▁ㄱㅏㅁㅌㅏㄴ	-5396
▁ㅎㅏㅇㅁㅗ	-5397
▁ㅎㅏㅂㅈㅏㄱ	-5398
▁Up	-5399
ㄹㅡㄹㄹㅣㄴ	-5400
▁ㅅㅡㄹㅍㅡㅁ	-5401
▁ㅎㅘㅇㄷㅏㅇ	-5402
ike	-5403
▁ㅋㅏㄹㄹㅏ	-5404
▁ㅊㅣㅁㅁㅗㄹ	-5405
▁NH	-5406
▁ES	-5407
atch	-5408
▁ㄱㅓㅁㅈㅓㅇ	-5409
▁ㅇㅘㅇㅂㅣ	-5410
▁ㅅㅣㄴㅇㅣ	-5411
▁ㅅㅣㄴㅎㅏ	-5412
▁ㅂㅏㄱㅅㅜ	-5413
orn	-5414
▁ㅅㅓㅇㅂㅜㄴ	-5415
▁Man	-5416
▁1945	-5417
II	-5418
ㅇㅡㄴㅅㅐㄱ	-5419
▁CM	-5420
▁ㅅㅣㄴㄷㅗㅇ	-5421
hen	-5422
▁ㄴㅏㅂㄷㅡㄱ	-5423
ㄱㅡㄹㄹㅣㅇ	-5424
▁ㅇㅘㄴㄱㅗㅇ	-5425
ence	-5426
ㅇㅣㅁㅈㅡ	-5427
▁ㅋㅔㄴㅈㅣ	-5428
▁ㅉㅡ	-5429
▁112	-5430
▁ㅊㅔㄴ	-5431
ㅊㅣㄴㄱㅜ	-5432
▁ㅈㅜㅇㅂㅜ	-5433
▁ㅌㅗㄱ	-5434
▁ㅅㅣㄹㅇㅛㅇ	-5435
ㅊㅓㄴㅇㅘㅇ	-5436
▁ㄱㅣㅍㅇㅣ	-5437
▁ㄱㅏㅇㄱㅕㅇ	-5438
▁ㄱㅕㅇㅊㅏㄹㅅㅓ	-5439
▁ㅊㅏㅇㅁㅜㄴ	-5440
▁ㅎㅓㅇㄱㅏ	-5441
▁NO	-5442
▁ㄷㅡㄹㅇㅕ	-5443
now	-5444
▁ㅉㅏㅁ	-5445
▁Ed	-5446
▁ㅇㅗㄴㅊㅓㄴ	-5447
ㅇㅣㄴㅎㅏ	-5448
▁ㄷㅗㄹㅇㅕㄴ	-5449
ens	-5450
▁ㅈㅓㄱㅈㅓㄹㅎㅣ	-5451
iver	-5452
▁ㅈㅓㄴㄷㅏㅁ	-5453
▁ㄷㅏㄴㅇㅕㄱ	-5454
▁ㅈㅣㄱㅊㅐㄱ	-5455
ㅇㅣㄴㅂㅐ	-5456
▁ㅁㅏㄴㄹㅔㅂ	-5457
▁ㅇㅏㅀ	-5458
▁ㅍㅕㄴㄹㅣ	-5459
▁ㄱㅏㅇㄷㅐ	-5460
▁ㄱㅡㄱㄷㅐ	-5461
▁ㅈㅓㄴㅈㅣ	-5462
▁ㄱㅗㅇㅅㅗㄱ	-5463
ph	-5464
ㅆㅇㅓㅆ	-5465
ㄸㅏㄴ	-5466
▁ㄷㅡㅇㄱㅡㄱ	-5467
▁ㅉㅗㅈ	-5468
▁ㅅㅏㄴㅌㅏ	-5469
▁ㄷㅏㄹㅇㅣㄴ	-5470
▁So	-5471
ㅋㅓㄷ	-5472
▁ㅊㅏㅁㅅㅏ	-5473
▁ㅇㅣㄹㅋㅓㄷ	-5474
ㅍㅗㄹㄹㅣ	-5475
ㅅㅋㅏ	-5476
ㅁㅣㄴㅈㅜ	-5477
▁ㅎㅏㅁㅅㅜ	-5478
▁ㄸㅡㄷㅇㅓ	-5479
▁ㅍㅏㄹㄹㅏ	-5480
▁ㄱㅏㄱㄷㅗ	-5481
▁ㅈㅣㄹㅅㅓ	-5482
▁ㅇㅓㄹㅌㅣ	-5483
▁ㅁㅜㄹㅇㅓ	-5484
▁Mag	-5485
▁ㅅㅣㅇㄱㅏ	-5486
▁ㅇㅏㅁㅎㅗ	-5487
▁ㅂㅓㄱ	-5488
▁ㅁㅗㅁㅁㅐ	-5489
▁ㄱㅗㄴㅊㅜㅇ	-5490
▁ㄱㅓㅁㅈㅡㅇ	-5491
▁1978	-5492
▁ㅈㅓㄴㄴㅏㄹ	-5493
▁ㄴㅏㅁㄷㅗㅇㅅㅐㅇ	-5494
▁ㅎㅘㅇㅎㅜ	-5495
▁ㅎㅡㄺ	-5496
▁ㄱㅜㄱㄷㅗ	-5497
▁ㅍㅕㅇㅅㅏㅇㅅㅣ	-5498
▁ㅊㅐㅁㅍㅡ	-5499
▁ㅈㅐㄱㅅㅡㄴ	-5500
pt	-5501
ition	-5502
▁ㅎㅣㅁㅇㅣㅂ	-5503
ㅂㅏㅁ	-5504
ork	-5505
▁OCG	-5506
▁ㅅㅡㅇㅇㅣㄴ	-5507
▁Super	-5508
ail	-5509
▁DJMAX	-5510
▁ㅅㅏㅇㅁㅜ	-5511
▁EC	-5512
▁ㅊㅓㄴㅈㅏㅇ	-5513
ㅋㅞ	-5514
▁ㅍㅔㅇ	-5515
▁ㅂㅏㄹㅁㅕㅇ	-5516
▁up	-5517
▁ㄲㅜㅁㄲㅜ	-5518
▁ㅁㅕㅇㅈㅏㅇ	-5519
▁ㅊㅜㄹㄷㅗㅇ	-5520
▁ㅂㅏㄹㅍㅏㄴ	-5521
▁ㅊㅓㅇㅊㅜㄴ	-5522
▁ㅇㅕㄴㄷㅗㅇ	-5523
▁NBA	-5524
▁ㅂㅗㄴㄴㅡㅇ	-5525
▁RE	-5526
▁pl	-5527
▁ㄹㅕㄴ	-5528
▁ㅈㅗㄴㅈㅜㅇ	-5529
▁ㅁㅕㄴㅎㅏ	-5530
▁ㄱㅗㅇㅅㅏㄴㄷㅏㅇ	-5531
▁Fr	-5532
ㄱㅠㄹㄹㅓ	-5533
▁ㅇㅑㄱㅎㅗㄴ	-5534
▁Ph	-5535
▁ㅎㅡㅌㅇㅓ	-5536
▁ㅅㅏㅇㄴㅑㅇ	-5537
ㅌㅔㄱ	-5538
ㅎㅔㄹ	-5539
▁ㅅㅣㄴㄱㅗㄱ	-5540
▁ㅇㅕㄹㅈㅓㅇ	-5541
▁ㅎㅏㄴㅈㅓㅇㅍㅏㄴ	-5542
ㄴㄷㅡㅅ	-5543
▁ㅅㅓㄴㅊㅜㄹ	-5544
▁ㅍㅕㅇㄹㅗㄴ	-5545
▁ㅆㅣㅅ	-5546
ㅅㅏㅇㄷㅗ	-5547
▁ㅊㅓㄴㅈㅣ	-5548
▁ㅊㅓㄴㅊㅓㄴ	-5549
inal	-5550
▁ㅇㅘㅇㅅㅣㄹ	-5551
▁ㅅㅣㄴㅎㅏㄴ	-5552
▁ㅇㅝㄴㄹㅗ	-5553
99	-5554
ㅃㅏㄱ	-5555
▁ㅁㅐㅇㅅㅔ	-5556
ㅇㅜㄴㄷㅗㅇ	-5557
▁ㅈㅓㄴㅂㅓㅂ	-5558
▁ㄷㅓㅍㅊㅣ	-5559
▁ㅇㅣㅂㅈㅏ	-5560
▁ㅎㅏㄴㅎㅏ	-5561
ㅂㅏㄱㅅㅡ	-5562
▁ㅅㅓㄴㄷㅗㅇ	-5563
▁ㅇㅣㄴㅈㅓㅂ	-5564
▁ㅇㅣㄹㄱㅗㅂ	-5565
ㅇㅜㄹㄷㅐ	-5566
▁ㅁㅏㄹㄱㅣ	-5567
ㄱㅏㄴㄷㅐ	-5568
usic	-5569
▁ㅇㅣㄹㅊㅔ	-5570
▁USB	-5571
ㅈㅗㄴㅅㅣㅁ	-5572
▁ㅇㅣㄹㅁㅕㅇ	-5573
▁ㅅㅡㄹㄹㅐ	-5574
▁ㅎㅕㄱㅅㅣㄴ	-5575
ㅂㅗㄹㄹㅜ	-5576
▁ㅎㅏㄴㄲㅓ	-5577
ble	-5578
ㄲㅜㅁ	-5579
▁ㅂㅡㄹㄹㅓㄱ	-5580
ㄲㅜㅂㅊㅣㄴㄱㅜ	-5581
▁ㅂㅓㅅㄱㅣ	-5582
▁ㄴㅗㅇㅇㅓㅂ	-5583
▁ㅇㅣㄹㅇㅣㄹ	-5584
ㄷㅓㄱㅅㅕㄴ	-5585
▁ㄱㅕㅁㅎㅏ	-5586
▁RA	-5587
▁ㅈㅓㅁㅇㅠ	-5588
ㅂㅏㅇㅅㅗㅇ	-5589
▁Qu	-5590
▁ㅁㅕㄴㅈㅔ	-5591
▁ㅈㅏㅇㄴㅏㅁ	-5592
▁IT	-5593
▁ㅇㅛㅇㅇㅣ	-5594
▁ㅍㅐㄴㅌㅣ	-5595
▁ㅂㅕㄴㅁㅕㅇ	-5596
▁are	-5597
▁BD	-5598
▁ㅋㅟㄱ	-5599
▁GM	-5600
▁Dream	-5601
te	-5602
▁ㄱㅗㅇㅅㅣㄴ	-5603
ㅅㅐㅇㅈㅏ	-5604
▁ㅍㅓㅇㅋㅡ	-5605
▁ㄱㅏㅇㅁㅣㄴ	-5606
▁ㅈㅓㅁㄱㅓㅁ	-5607
▁ㄱㅕㄴㅎㅐ	-5608
▁ㅎㅏㄱㄴㅕㄴㄷㅗ	-5609
▁123	-5610
▁ㅃㅐㅅㄱㅣ	-5611
▁TP	-5612
ㅅㅐㅇㅎㅘㄹ	-5613
▁ㅁㅣㄴㄱㅏㅁ	-5614
▁ㅍㅣㄹㄹㅡㅁ	-5615
▁ㄷㅡㄹㄹㅕ	-5616
▁ㅂㅕㄴㅅㅜ	-5617
▁ㄱㅔㄹ	-5618
▁ㅇㅣㄴㅁㅜㄴ	-5619
▁ㅇㅣㄹㅈㅣ	-5620
▁ㅊㅓㄴㅊㅓㄴㅎㅣ	-5621
ㅂㅕ	-5622
▁ㄱㅓㄴㅈㅣ	-5623
ㅈㅣㄱㅈㅏ	-5624
ㅇㅜㄹㅇㅣ	-5625
▁ㅅㅓㄴㅂㅏㄱ	-5626
▁ㅈㅓㄴㅅㅗㅇ	-5627
▁ㅇㅓㅇㄷㅓㅇㅇㅣ	-5628
▁ㅎㅏㄱㅅㅏ	-5629
▁104	-5630
▁ㅂㅏㄱㅈㅓㅇㅎㅢ	-5631
▁ㅌㅜㄱ	-5632
▁ㄷㅏㅂㄷㅏㅂ	-5633
▁ㅈㅓㅇㅈㅓㅁ	-5634
▁ㅈㅏㅇㅂㅕㄱ	-5635
▁ㄱㅗㄹㅍㅡ	-5636
▁ㅍㅜㅇㅅㅓㄴ	-5637
▁ㅎㅘㄴㅅㅐㅇ	-5638
▁ㅈㅏㅇㅂㅗㄴ	-5639
▁ㅈㅏㄱㅇㅟ	-5640
▁ㅊㅣㄴㅇㅐ	-5641
▁ㄱㅏㅁㄷㅏㅇ	-5642
ㅋㅡㄹㄹㅔ	-5643
▁ㄱㅡㄱㅎㅏㄴ	-5644
▁ㅅㅗㄴㄴㅣㅁ	-5645
▁ㅂㅐㄱㅁㅏㄴ	-5646
ㅇㅣㄴㅇㅓ	-5647
▁ㅎㅕㅂㅈㅓㅇ	-5648
▁ㅅㅓㅁㄱㅘㅇ	-5649
▁ㄷㅡㄹㄹㅡ	-5650
▁ㄴㅗㄱㅎㅘ	-5651
ㅅㅜㄴㅅㅣㄴ	-5652
▁ㅇㅓㄵ	-5653
▁ㄱㅜㅇㅎㅏㅂ	-5654
IK	-5655
▁ㄹㅗㄹㄹㅓ	-5656
▁ㄱㅕㅇㅂㅜㄱ	-5657
▁135	-5658
ㅍㅡㄹㄹㅔㄱ	-5659
▁ㅎㅠㅇㅇㅏㄱ	-5660
▁ㅇㅣㄴㅁㅕㅇ	-5661
▁SA	-5662
▁ㅁㅟㄴ	-5663
ㄷㅗㅇㅅㅏㄴ	-5664
▁ㄱㅣㅁㅅㅡㅇ	-5665
▁ㅈㅓㅇㅁㅣㄹ	-5666
▁1973	-5667
▁ㅂㅏㄱㅅㅓㅇ	-5668
▁ㅂㅜㄴㅎㅗㅇ	-5669
ㅍㅔㄱㅌㅓ	-5670
anc	-5671
▁ㅇㅣㄴㅂㅔㄴ	-5672
▁ㅅㅗㅅ	-5673
▁ㅇㅏㄹㄹㅔㄱㅅㅏㄴㄷㅡ	-5674
ㄸㅏㄹ	-5675
▁ㅈㅏㅇㅂㅗㄴㅇㅣㄴ	-5676
ㅈㅏㅇㄱㅗ	-5677
ㅈㅏㄱㅇㅟ	-5678
▁ㅇㅝㄴㅎㅘ	-5679
ㅌㅐㅇ	-5680
▁ㅅㅣㄴㄱㅘㄴ	-5681
▁wiki	-5682
▁ㅇㅗㄱㅅㅏㅇ	-5683
ㅌㅜㅁ	-5684
▁109	-5685
▁ㅋㅐㄹㄹㅣ	-5686
PER	-5687
▁ㄱㅘㅇㅁㅜㄹ	-5688
▁ㅈㅓㄹㄷㅏㄴ	-5689
▁ㅇㅛㄱㅅㅓㄹ	-5690
▁ㅎㅘㄱㅅㅣㄴ	-5691
ㅈㅏㅇㄱㅜㄴ	-5692
▁ㄷㅗㅇㄱㅜ	-5693
▁ㅇㅣㄹㄱㅘㄴ	-5694
▁go	-5695
▁ㅇㅣㅁㅎㅏ	-5696
▁ㅌㅏㄹㅊㅟ	-5697
▁ㅇㅔㄹㄷㅓ	-5698
▁ㅇㅣㅁㅈㅣㄴ	-5699
▁ㄱㅗㅇㅎㅓㄴ	-5700
▁ㅁㅜㄴㅇㅑㅇ	-5701
▁AB	-5702
▁ㅇㅗㅁ	-5703
ise	-5704
ㄷㅟ	-5705
ㄹㅕㅅ	-5706
▁ㄱㅕㄱㄹㅕ	-5707
uck	-5708
▁ㅁㅔㄴㅂㅜㅇ	-5709
▁155	-5710
▁ㅃㅑ	-5711
▁ㅋㅣㅁ	-5712
▁ㅈㅣㄹㅈㅜ	-5713
▁ㄱㅏㅇㄹㅡㅇ	-5714
▁Ver	-5715
ㅌㅗㅇㅅㅜ	-5716
▁ㅂㅏㄱㅁㅕㅇ	-5717
IL	-5718
▁ㅇㅣㅂㅈㅡㅇ	-5719
▁ㅇㅕㄴㅅㅓㄹ	-5720
▁ㅇㅕㄴㅅㅔ	-5721
▁ㅈㅣㄱㅎㅐㅇ	-5722
▁ㄴㅗㄱㅇㅣ	-5723
▁ㄷㅏㅇㅊㅗ	-5724
▁ㄴㅘ	-5725
ㅅㅗㄱㄱㅣ	-5726
▁ㄱㅗㅇㄱㅕㄱㅅㅜ	-5727
ㅍㅣㅅ	-5728
▁ㅋㅗㄹㄹㅔ	-5729
▁ㄱㅏㅇㅈㅓㄴ	-5730
ㅁㅗㅅㅁㅣ	-5731
▁ㅁㅏㅅㅂㅗ	-5732
▁UP	-5733
▁ㅁㅕㅇㅌㅏㅁㅈㅓㅇ	-5734
ㅌㅔㄱㅅㅡ	-5735
▁ㅈㅣㅂㄱㅖ	-5736
▁ㅅㅗㄹㅈㅓ	-5737
▁ㅅㅓㄴㅎㅚ	-5738
▁185	-5739
▁ㅇㅓㄱㅇㅜㄹ	-5740
▁ㅅㅏㅇㄱㅡㅁ	-5741
ung	-5742
▁ㅁㅏㅈㅁㅓㄱ	-5743
▁ㅇㅣㄹㅅㅏㄴ	-5744
▁ㅋㅣㅇㄷㅓㅁ	-5745
ㅇㅓㄴㅅㅣㅂ	-5746
▁ㅌㅜㄴ	-5747
▁Mi	-5748
▁ㅅㅣㄴㅈㅜ	-5749
ㅌㅡㅁ	-5750
▁ㅇㅑㅁ	-5751
▁ㄱㅜㄱㅌㅗ	-5752
▁ㄷㅗㅇㅇㅣ	-5753
▁ㅈㅓㅇㅅㅓㅇ	-5754
▁ㅁㅔㅅ	-5755
ㄱㅗㅇㅅㅏ	-5756
ㄹㅔㄱㅅㅕㄴ	-5757
▁tr	-5758
ㄹㄱㅔ	-5759
ㅁㅂㅣ	-5760
0000	-5761
▁ㅅㅠㄴ	-5762
▁ㅂㅏㄴㄱㅕㅇ	-5763
▁ㅇㅘㄴㄱㅜ	-5764
ㅎㅏㅇㄹㅕㄱ	-5765
ㅂㅓㄴㅅㅡ	-5766
▁ㄱㅏㄹㄱㅜ	-5767
▁ㅅㅓㄱㅇㅠ	-5768
▁ㅇㅝㄴㅎㅏㄴ	-5769
▁ㅊㅜㅇㅈㅗㄱ	-5770
▁ㅈㅠㄴ	-5771
oun	-5772
vel	-5773
ㅊㅓㄴㅅㅏ	-5774
▁ㄱㅐㅇㅅㅣㄴ	-5775
ㅂㅐㅇ	-5776
▁ㅇㅐㄴㄷㅡ	-5777
▁ㅁㅣㄴㄱㅜㄱ	-5778
▁ㅂㅓㅇㅋㅓ	-5779
▁iOS	-5780
▁HE	-5781
▁1974	-5782
▁ㅇㅣㄴㄱㅗㅇㅈㅣ	-5783
▁ㅌㅏㄴㅇㅏㅂ	-5784
▁ㅅㅜㄴㅊㅓㄴ	-5785
▁ㄷㅏㄴㅈㅏ	-5786
▁as	-5787
▁ㅂㅏㄹㅈㅓㄴㅅㅗ	-5788
ㅌㅜㅇ	-5789
▁ㄷㅓㅂ	-5790
▁ㅎㅡㅇㅂㅜㄴ	-5791
▁JT	-5792
▁ㅁㅗㄱㅇㅛㄱ	-5793
▁ㅇㅓㄱㅈㅔ	-5794
▁MM	-5795
11	-5796
▁ㄱㅗㅇㄱㅛ	-5797
oo	-5798
▁ㅇㅠㄱㅅㅏㅇ	-5799
way	-5800
▁ㅈㅜㅇㄱㅣ	-5801
▁ㄱㅜㄱㅂㅏㅇㅂㅜ	-5802
urn	-5803
▁ㅂㅏㅇㅇㅓㄴ	-5804
ㅇㅑㄴ	-5805
▁ㅈㅜㅇㄱㅜ	-5806
▁ㅈㅣㄴㄷㅗㅇ	-5807
▁all	-5808
ㅂㅐㄱㄱㅘ	-5809
▁ㅂㅜㄹㅇㅓ	-5810
ㅗㄹ	-5811
▁ㅎㅠㅇㄴㅐ	-5812
ㅂㅏㅇㅇㅜㄹ	-5813
▁AL	-5814
▁Team	-5815
▁107	-5816
ME	-5817
▁DI	-5818
▁ㅍㅕㅇㅍㅏㄴ	-5819
▁ㄱㅏㅇㄷㅗㅇ	-5820
TA	-5821
▁ㅊㅏㅇㅅㅔ	-5822
▁ㅊㅏㄴㅇㅑㅇ	-5823
▁ㅇㅑㅇㅇㅏ	-5824
▁ㄱㅏㅇㅇㅣㄴ	-5825
▁ㄷㅗㅇㅅㅓㅇㅇㅐ	-5826
▁ㄲㅚ	-5827
▁ㅈㅓㅇㅈㅓㄴ	-5828
▁1200	-5829
▁ㅊㅗㅇㅈㅏㅇ	-5830
▁ㅂㅏㄴㄷㅗ	-5831
▁ㅎㅏㄱㅇㅟ	-5832
▁no	-5833
▁CR	-5834
▁ㅅㅗㄴㅈㅏㅂㅇㅣ	-5835
▁ㅃㅛ	-5836
▁Black	-5837
gh	-5838
ㅅㅏㄴㅁㅜㄹ	-5839
▁ㅊㅓㄴㅈㅜ	-5840
▁ㄱㅘㄴㅁㅜㄴ	-5841
▁ㅁㅏㄹㄹㅔ	-5842
▁ㅂㅏㅇㅅㅣㅁ	-5843
▁ㅇㅣㄴㅌㅔ	-5844
▁ㄱㅜㄻ	-5845
ㅇㅝㄴㅅㅣ	-5846
▁ㅊㅏㅁㅇㅡ	-5847
▁186	-5848
▁ㅈㅜㅇㅈㅓㅁ	-5849
▁ㅂㅏㄹㅋㅣ	-5850
▁ㅇㅘㄴㅅㅓㅇㄷㅗ	-5851
▁ㅂㅕㅇㄱㅘ	-5852
▁116	-5853
ㅅㅏㅇㄱㅏ	-5854
▁ㄸㅓㄹㄱㅜ	-5855
▁ㅈㅜㅇㄱㅕㄴ	-5856
▁ㅁㅕㅇㅅㅣ	-5857
▁DPS	-5858
▁ㄱㅡㅂㄱㅕㄱㅎㅣ	-5859
▁Col	-5860
▁ㅎㅐㅅ	-5861
▁ㅊㅏㄹㅅㅡ	-5862
▁119	-5863
▁CL	-5864
▁ㅇㅔㅁㅂㅡㄹ	-5865
ㄴㄷㅏㄹ	-5866
▁do	-5867
ale	-5868
▁ㅇㅏㄴㅌㅗ	-5869
▁ㄴㅏㄴㄹㅣ	-5870
▁MG	-5871
▁Night	-5872
▁ㄱㅜㄱㅈㅓㅇ	-5873
▁ㅊㅓㄴㅅㅏㅇ	-5874
▁ㄱㅏㅇㅌㅏ	-5875
▁ㅇㅜㄹㅇㅡㅁ	-5876
▁ㄱㅏㄹㄱㅣ	-5877
▁ㅈㅓㄱㅅㅣ	-5878
▁ㅎㅏㅇㄱㅗㅇㅅㅏ	-5879
▁BB	-5880
ㅁㅔㄴㅌㅓ	-5881
▁ㅅㅓㅇㅈㅣ	-5882
▁ㅉㅏㄱㅅㅏ	-5883
ㅅㅜㄹㄹㅕㄱ	-5884
ier	-5885
▁ㅇㅘㄴㅎㅘ	-5886
ㅍㅐㅇ	-5887
▁(	-5888
▁Type	-5889
▁ㅈㅐㅁ	-5890
▁1975	-5891
ject	-5892
▁MO	-5893
▁ㄱㅏㄱㅇㅣㄴ	-5894
▁HS	-5895
▁ㅇㅓㄹㄹㅣ	-5896
▁ㅇㅣㄴㅅㅡ	-5897
▁LTE	-5898
ㅈㅜㄴㄱㅕㅇ	-5899
▁ㅅㅓㅁㄱㅣ	-5900
▁ㄷㅏㄴㄹㅕㄴ	-5901
▁ㄱㅐㅅ	-5902
▁ㄱㅡㅁㅇㅛ	-5903
▁ㅁㅐㅅㅈㅣㅂ	-5904
ult	-5905
ㅈㅣㅇㄱㅏ	-5906
▁not	-5907
▁ㄴㅜㄴㄷㅗㅇㅈㅏ	-5908
▁ㅎㅕㅂㅇㅢ	-5909
▁ㅊㅣㅁㅊㅏㄱ	-5910
▁ㅆㅓㅁ	-5911
▁ㅅㅣㅁㅎㅣ	-5912
▁ㄱㅕㅇㅅㅏㅇㅂㅜㄱㄷㅗ	-5913
▁Girl	-5914
▁ㅇㅣㅂㅅㅏ	-5915
▁ㅁㅟㄴㅎㅔㄴ	-5916
▁ㅂㅏㄹㄱㅏㄱ	-5917
ㄱㅘㄴㅍㅗ	-5918
▁ㅂㅔㄹㄱㅣ	-5919
▁ㄱㅕㅇㅅㅏ	-5920
ㅋㅗㅅ	-5921
▁ERA	-5922
▁ㅈㅗㅇㅅㅏ	-5923
ㄷㅏㄺ	-5924
ㄱㅕㄱㅈㅓㄴ	-5925
▁ㅇㅣㅍ	-5926
▁ㅇㅑㄴ	-5927
▁beat	-5928
▁ㄱㅣㅁㄷㅜ	-5929
▁ㅇㅖㄹㄹㅗ	-5930
▁ㅈㅗㅇㅊㅏㄱ	-5931
ㅌㅠㄴ	-5932
DD	-5933
▁ㄷㅗㄱㅂㅗ	-5934
▁ㄱㅣㅁㅂㅕㅇ	-5935
▁ㅇㅝㄴㅈㅏㄱㅈㅏ	-5936
ㅌㅜㄹ	-5937
▁187	-5938
▁math	-5939
▁ㅇㅑㅇㄷㅐ	-5940
▁ㄱㅗㅇㄱㅕㄱㄱㅣ	-5941
▁ㅍㅏㄱ	-5942
▁ㅇㅛㅇㅅㅏㄴ	-5943
ose	-5944
ㄷㅡㅁㅎㅐ	-5945
▁ㅅㅓㅇㄷㅐ	-5946
ㅋㅝ	-5947
▁ㅇㅓㅅ	-5948
▁750	-5949
▁ㅁㅏㅈㅎㅣ	-5950
▁ㅇㅑㄱㅊㅣㅇ	-5951
▁ㅇㅣㄴㅌㅡ	-5952
ㄹㅜㅁ	-5953
▁ㅅㅜㄱㅊㅓㅇ	-5954
ㄴㅡㄴㄷㅔ	-5955
▁ㄷㅗㅇㅅㅏ	-5956
▁ㄱㅘㄴㄹㅛ	-5957
▁ㅈㅏㅇㄱㅏㅂㅊㅏ	-5958
▁122	-5959
▁ㅊㅜㄹㄱㅗ	-5960
▁ㅉㅣㄹㄹㅣ	-5961
▁ㅎㅗㅅㅋㅏ	-5962
▁ㅂㅜㄴㅎㅏㄹ	-5963
▁113	-5964
▁ㅂㅜㄹㄱㅣㄹ	-5965
▁Con	-5966
▁Max	-5967
▁ㅈㅜㅇㅅㅗ	-5968
▁ㅎㅑㅇㅎㅜ	-5969
▁ㅈㅗㅇㅈㅓㄴ	-5970
▁Gam	-5971
▁ㅈㅜㅇㅇㅝㄴ	-5972
▁ㅅㅣㄴㅈㅗ	-5973
ㄹㅜㄴ	-5974
▁Do	-5975
▁ㅈㅣㅂㅅㅏ	-5976
▁ㅈㅗㅇㄹㅗ	-5977
▁ㅍㅕㅇㅌㅐㄱ	-5978
ㄷㅡㄹㅁㅗㄱ	-5979
ㅁㅏㅇㅈㅏ	-5980
▁144	-5981
▁ne	-5982
▁ㅊㅓㅇㄹㅛㅇ	-5983
▁ㅈㅓㄱㅇㅣ	-5984
▁ㄴㅏㅁㅎㅏㄴ	-5985
▁ㄱㅡㄱㅇㅏㄱ	-5986
▁ㅇㅕㅇㄷㅡㅇ	-5987
▁ㅎㅗㄴㄷㅗㅇ	-5988
able	-5989
▁ㅇㅏㄱㅎㅐㅇ	-5990
▁ㄷㅔㄹㅌㅏ	-5991
▁ㅇㅓㅇㄸㅜㅇ	-5992
▁ㄱㅝㄴㅎㅏ	-5993
▁ㅎㅗㅇㅈㅣㄴㅎㅗ	-5994
▁ㅎㅏㅂㄱㅖ	-5995
▁ㄱㅡㅁㄱㅏㅇ	-5996
▁ㅅㅣㄴㅅㅐㅇ	-5997
ox	-5998
▁1977	-5999
▁450	-6000
ㅌㅔㄹㄹㅏ	-6001
very	-6002
▁1976	-6003
▁ㄱㅣㅁㅅㅓㅇㄱㅡㄴ	-6004
ㅅㅣㄹㅈㅓㅁ	-6005
▁Op	-6006
ron	-6007
▁ㅇㅗㅂㅌㅣ	-6008
FL	-6009
▁ㅌㅏㅁㅅㅏ	-6010
▁ㅅㅣㄱㅅㅡ	-6011
▁ㅈㅜㅇㄱㅗㅇ	-6012
ign	-6013
int	-6014
▁ㄱㅏㄴㅍㅏ	-6015
▁ㅂㅏㄴㅅㅓㅇ	-6016
ㅈㅜㅇㄱㅏㄴ	-6017
▁OF	-6018
▁ㅂㅏㄴㄷㅏ	-6019
▁ㅇㅛㄱㅁㅏㅇ	-6020
▁ㄲㅏㅇㅍㅐ	-6021
▁ㅎㅏㄴㅇㅑㅇ	-6022
▁ㅊㅜㅇㄱㅕㄱㅍㅏ	-6023
GA	-6024
▁~"	-6025
ㅅㅏㄴㄱㅘㅇㅇㅕㄱㅅㅣ	-6026
▁ㅅㅜㄴㅈㅓㅇ	-6027
▁ㅅㅏㅁㅋㅣ	-6028
▁ㅅㅣㅁㅈㅓㅇ	-6029
▁ㅇㅡㄴㅍㅖ	-6030
▁EV	-6031
ㅂㅏㄴㅅㅣㄴ	-6032
ㅈㅣㄴㅇㅕㅇ	-6033
▁TS	-6034
▁320	-6035
▁FPS	-6036
▁ㅊㅏㄴㅅㅓㅇ	-6037
ㅅㅣㄱㅎㅚ	-6038
▁ㅇㅘㅇㅈㅗㄱ	-6039
▁ㅋㅏㅅ	-6040
PA	-6041
ㄹㅣㄴㅅㅡ	-6042
▁ㅅㅏㅇㅎㅐㅇ	-6043
▁ㅊㅐㅁㅅㅡ	-6044
▁ㅂㅏㄹㅊㅏ	-6045
▁ㄴㅐㅇㄷㅗㅇ	-6046
ㅇㅏㄶ	-6047
▁ㄱㅕㄱㄹㅕㄹ	-6048
▁ㅂㅏㄴㅈㅏㅇ	-6049
▁ㅈㅏㅇㅍㅜㅇ	-6050
▁ㅇㅏㄱㅅㅔ	-6051
ㅇㅝㄴㅈㅓㄴ	-6052
ㄴㅣㄹ	-6053
▁ㅉㅏㄹㄹㅣ	-6054
▁ㅅㅏㄴㅅㅗ	-6055
▁ㅎㅗㄴㄷㅏ	-6056
▁ㅇㅛㅇㅇㅏㅁ	-6057
▁145	-6058
▁ㅇㅐㄹㄹㅓㄴ	-6059
▁ㅅㅜㄱㄹㅕㄴㄷㅗ	-6060
ㅇㅡㄴㅇㅣ	-6061
▁ㅂㅔㄹㄹㅏ	-6062
ㅅㅐㅇㄱㅣ	-6063
EL	-6064
▁ㄴㅏㅁㅎㅏㄱㅅㅐㅇ	-6065
▁4000	-6066
▁ㅈㅣㄱㅇㅟ	-6067
▁ㄱㅗㅇㅅㅏㄴㅈㅜ	-6068
▁ㄱㅡㄴㄹㅗ	-6069
▁ㄲㅐㅇ	-6070
▁ㅈㅣㄹㅍㅜㅇ	-6071
▁ㅃㅓㄴㅎㅏ	-6072
▁{{{#	-6073
▁ㅇㅑㅇㅋㅣ	-6074
▁ㄱㅡㄱㅅㅣㅁ	-6075
▁ㅈㅓㅇㅎㅕㅇ	-6076
▁ㄷㅗㅇㄴㅏㅁㅇㅏ	-6077
▁ㅇㅏㅍㅁㅕㄴ	-6078
▁ㄷㅗㅇㄱㅖ	-6079
▁ㄱㅜㄱㄱㅣ	-6080
▁ㅈㅣㅂㅍㅣㄹ	-6081
▁ㅂㅏㄹㄹㅏ	-6082
▁ㅍㅣㄹㅅㅏ	-6083
▁ㅇㅕㄴㄱㅏㄴ	-6084
▁ㅈㅜㅇㄴㅕㄴ	-6085
▁ㄷㅗㅇㅇㅣㄴㅈㅣ	-6086
▁ㅁㅏㅇㅅㅓㄹ	-6087
ㅂㅗㄹㅂㅓ	-6088
▁ㄴㅜㄴㅇㅏㅍ	-6089
▁ㅂㅣㄴㅇㅑㄱ	-6090
▁ㄴㅓㅁㅅㅏ	-6091
▁ㅅㅣㄴㅎㅏㄱ	-6092
▁ㅂㅕㅇㅎㅐㅇ	-6093
▁ㅌㅗㅇㅌㅡㄹㅇㅓ	-6094
▁ㄷㅏㅇㄴㅏ	-6095
▁ㄱㅡㅅ	-6096
▁ㅇㅠㄹㄹㅣ	-6097
ild	-6098
ㅊㅓㄴㄱㅜㄴ	-6099
▁BT	-6100
▁ㅂㅜㄹㅊㅏㅁ	-6101
ㅎㅕㄴㅇㅜ	-6102
ㄱㅗㅁ	-6103
iel	-6104
▁ㅇㅕㄴㅈㅓㄴ	-6105
ㅌㅏㄹㄹㅣㄴ	-6106
▁ㅇㅜㄱ	-6107
▁ㅅㅓㅇㅅㅏ	-6108
▁La	-6109
▁ㅇㅣㄴㅅㅓㅇ	-6110
▁ㅈㅜㅇㅅㅣㅁㅈㅣ	-6111
▁152	-6112
ㄹㅡㄴㅍㅏㄹ	-6113
▁ㄱㅣㅁㄱㅘㅇ	-6114
▁ㅁㅏㅇㅅㅏㅇ	-6115
15	-6116
▁ㅇㅘㅇㄱㅏ	-6117
▁ㅅㅏㅇㅂㅜ	-6118
▁ㅇㅣㅂㅇㅝㄴ	-6119
▁ㄷㅣㅂ	-6120
▁ㅇㅝㄹㄱㅏㄴ	-6121
▁ㅊㅜㅇㄱㅗ	-6122
▁ㄷㅗㅇㅅㅏㅇ	-6123
▁Am	-6124
▁ㄱㅜㄴㄷㅔ	-6125
ANC	-6126
ㅈㅣㅈ	-6127
▁BC	-6128
▁ㄱㅗㅇㅁㅕㅇ	-6129
▁PSP	-6130
▁ㅅㅣㄴㅋㅏㄴ	-6131
ㅂㅔㄴㅈㅕ	-6132
▁ㅂㅣㅇㅇㅢ	-6133
ㄹㅔㄴㄷㅡ	-6134
▁Gre	-6135
▁1972	-6136
▁ㅈㅣㄴㄷㅏㄴ	-6137
▁ㅁㅏㄹㄴㅕㄴ	-6138
▁ㅈㅓㄹㅈㅓㅇ	-6139
▁ㅁㅏㅇㅁㅕㅇ	-6140
▁ㅁㅏㄹㅆㅡㅁ	-6141
ㅂㅜㅅ	-6142
▁ㅅㅗㄱㅍㅕㄴ	-6143
▁ㅍㅕㅇㅈㅓㅁ	-6144
▁210	-6145
▁ㅅㅡㅇㅍㅐ	-6146
▁ㅅㅣㄴㅋㅏㄴㅅㅔㄴ	-6147
▁ㄷㅗㄱㅂㅐㄱ	-6148
▁ㅈㅜㅇㄱㅜㄱㅇㅣㄴ	-6149
▁ㅈㅓㄴㅅㅜ	-6150
ㅇㅐㄴ	-6151
▁ㅈㅓㄹㅂㅕㄱ	-6152
ㅅㅔㅁ	-6153
ㅍㅡㄹㄹㅔㄱㅅㅡ	-6154
ㅇㅣㄱㅅㅜ	-6155
▁ㅇㅕㄲ	-6156
ㅍㅡㄴㅁㅠ	-6157
▁ㅊㅜㅁㅊㅜ	-6158
▁ㅍㅏㅂㅍㅡㄴㅁㅠ	-6159
ae	-6160
▁ㄴㅏㅁㅇㅑㅇ	-6161
▁ㅎㅐㅇㅈㅣㄴ	-6162
▁feat	-6163
▁MSL	-6164
▁ㅈㅓㅁㅅㅣㅁ	-6165
▁ㅈㅗㄴㅅㅡㄴ	-6166
▁ㅈㅓㅇㅈㅗ	-6167
ㄷㅗㄹㅍㅡ	-6168
▁ㅅㅣㄹㄹㅗ	-6169
▁~!	-6170
▁ㅊㅓㄹㄱㅏㅂㅌㅏㄴ	-6171
ㅅㅂㅜㄹ	-6172
▁ㅎㅜㄴㅎㅜㄴ	-6173
▁ㄱㅏㅁㄱㅣ	-6174
▁ㄱㅣㅁㅈㅓㄴ	-6175
▁ㄹㅣㅂㅅㅡ	-6176
▁ㅎㅘㅇㅎㅗㄴ	-6177
▁ㄷㅏㄴㅊㅗㅇ	-6178
▁ㄹㅐㄴㅅㅓ	-6179
ㄱㅟㄴ	-6180
▁ㅇㅣㄴㅊㅔ	-6181
▁ㄱㅏㅇㅌㅏㄹ	-6182
ㄹㅏㄹㄷㅡ	-6183
▁ㅎㅓㄹㅋㅡ	-6184
▁ㅍㅏㅁ	-6185
▁ㅇㅣㄹㅍㅜㅁ	-6186
ㅅㅓㅇㅇㅣ	-6187
▁ㅅㅗㄴㅁㅗㄱ	-6188
▁ㅋㅓㄹㄹㅔㄱㅅㅕㄴ	-6189
▁ㄷㅡㅇㅈㅐ	-6190
▁ㅇㅣㄹㄹㅖ	-6191
▁165	-6192
ANI	-6193
▁ㅈㅏㅁㄱㅣ	-6194
▁ㄱㅗㅇㅉㅏ	-6195
▁ㄷㅗㅇㅎㅗ	-6196
AND	-6197
▁ㅂㅜㄹㅁㅜㄴ	-6198
ㅇㅣㄹㄹㅏ	-6199
ㄲㅓㅇ	-6200
ㄴㅣㄹㄹㅏ	-6201
▁ㅇㅏㄱㅎㅏ	-6202
▁ㅇㅛㄱㅅㅣㅁ	-6203
▁GHz	-6204
ㄱㅡㅅㄴㅏ	-6205
▁ㅍㅏㄴㄱㅝㄴ	-6206
▁ㄱㅣㅁㅈㅓㄴㅇㅣㄹ	-6207
▁ㄹㅓㄱㅋㅣ	-6208
ㅌㅣㄴㅇㅓ	-6209
▁ㅇㅣㄹㄱㅏㄱ	-6210
▁ㅂㅕㅇㅈㅏㅇ	-6211
aby	-6212
▁}}	-6213
▁Wii	-6214
▁ㄴㅡㅇㅎㅏ	-6215
▁ㅇㅐㄱㅊㅔ	-6216
gin	-6217
ㄹㅔㄱㅌㅓ	-6218
▁ㅇㅡㅁㅎㅑㅇ	-6219
▁ㅅㅐㅇㄱㅏㄱㄴㅏ	-6220
▁ㅋㅔㄴㅌㅏ	-6221
▁ㄱㅣㅁㅈㅣ	-6222
▁ㅇㅕㄴㄱㅡㅁㅅㅜㄹㅅㅏ	-6223
▁ㅎㅕㅂㅈㅗ	-6224
▁Time	-6225
▁ㅈㅓㄱㄹㅣㅂ	-6226
▁ㄱㅓㅁㅌㅗ	-6227
▁ㅂㅏㅇㄱㅗㅇ	-6228
▁ㅅㅏㅇㅇㅢ	-6229
ㅂㅐㅌ	-6230
▁ㅈㅗㄴㄷㅐ	-6231
▁ㅂㅓㄹㅆㅓ	-6232
▁ㅅㅓㅂㅊㅟ	-6233
ㅂㅏㄱㅇㅣ	-6234
▁ㅇㅏㄹㅍㅡ	-6235
▁ㅇㅣㄹㅈㅗ	-6236
▁ㄲㅗㅁㅅㅜ	-6237
ㅋㅐㄴ	-6238
▁ㅉㅗㅊㄱㅣ	-6239
▁ㅌㅜㅇ	-6240
▁from	-6241
▁BJ	-6242
▁ㅇㅏㄴㄷㅗㅇ	-6243
▁ㅂㅕㄹㅊㅣㅇ	-6244
ull	-6245
▁ㄲㅓㅂㅈㅣㄹ	-6246
▁ㅁㅐㅇㄷㅗㄱ	-6247
ical	-6248
▁ㅁㅜㄹㅇㅑㄱ	-6249
▁ㅅㅣㅁㅇㅑ	-6250
▁ㅇㅘㄴㅂㅕㄱㅎㅣ	-6251
ㅁㅏㅎ	-6252
▁DR	-6253
▁ㅌㅏㄹㅎㅘㄴ	-6254
▁ㅅㅓㄹㅁㅏ	-6255
▁MHz	-6256
ㅋㅓㄴㄷㅡ	-6257
STER	-6258
ㅍㅣㄹㄹㅗ	-6259
▁BEM	-6260
▁ㅇㅕㄴㅅㅗ	-6261
▁ㅇㅕㅁㄷㅜ	-6262
▁ㅅㅜㅇㅂㅐ	-6263
▁1969	-6264
▁ㄱㅕㄱㅎㅏ	-6265
▁ㅍㅣㄴㄹㅏㄴㄷㅡ	-6266
▁ㅌㅔㄱㅅㅏ	-6267
▁ㅈㅜㅇㄱㅡㅂ	-6268
▁rd	-6269
▁ㅂㅗㄹㄷㅡ	-6270
ㅆㅐ	-6271
▁ㅅㅗㄹㅈㅣㄱㅎㅣ	-6272
▁ㅇㅡㅇㅇㅝㄴㄱㅏ	-6273
ㄷㅏㅇㄱㅣ	-6274
▁..?	-6275
▁ㅇㅕㄴㅇㅣ	-6276
..	-6277
▁ㅇㅏㄴㅈㅔ	-6278
ㅅㅏㅇㅎㅘ	-6279
▁ㅅㅡㄹㄹㅐㅁ	-6280
▁ㅁㅏㄺ	-6281
▁CN	-6282
ㅇㅜㄹㅅㅣ	-6283
oul	-6284
▁ㄱㅕㅇㅈㅣ	-6285
▁HARD	-6286
▁ㅁㅗㄱㄷㅗㅇ	-6287
▁ㅂㅏㅌ	-6288
▁10000	-6289
▁ㅂㅓㅂㅅㅏ	-6290
▁ㄱㅜㄴㅇㅛ	-6291
▁ㄹㅐㄴㅅㅡ	-6292
ㅅㅓㄹㄱㅏ	-6293
▁ㄱㅏㄱㄱㅜㄱ	-6294
▁ㅈㅓㅇㅇㅜ	-6295
▁ㅁㅣㄴㅈㅜㅇ	-6296
▁ATK	-6297
▁ㅈㅜㄹㄱㅣ	-6298
▁ㄱㅣㅁㄱㅜ	-6299
▁Gu	-6300
▁ㅈㅓㄴㄷㅗ	-6301
▁ㅂㅗㄴㅈㅣㄹ	-6302
▁ㅇㅏㅁㅋㅓㅅ	-6303
▁GN	-6304
▁1971	-6305
▁ㅈㅐㅇㅇㅣ	-6306
ㅁㅜㄹㄹㅣ	-6307
▁ㅇㅡㅇㄱㅡㅂ	-6308
▁ㄴㅐㅇㅈㅏㅇㄱㅗ	-6309
▁ㅌㅏㄴㅁㅏㄱ	-6310
ㅋㅠㄹㄹㅏ	-6311
idth	-6312
▁ㅇㅣㄹㅎㅘㄴ	-6313
▁ㅊㅓㅇㄱㅜ	-6314
▁UC	-6315
▁Gl	-6316
ㅆㅜ	-6317
▁BM	-6318
tern	-6319
ㅎㅐㅇㅈㅏ	-6320
▁KTX	-6321
▁NEW	-6322
▁ㅈㅓㄴㅎㅏㄱ	-6323
▁ㅊㅗㅇㅅㅏ	-6324
▁TCG	-6325
▁ㅋㅐㄴㄷㅣ	-6326
ㄹㅐㄴㅊㅏ	-6327
▁ㅇㅕㅅㅂㅗ	-6328
▁ㅍㅏㄹㄹㅔ	-6329
▁ㅇㅘㅇㅎㅜ	-6330
▁ㅈㅏㅇㄷㅗㅇ	-6331
▁ㅇㅔㅅㅈㅣ	-6332
▁ㅊㅡㄱㄱㅡㄴ	-6333
▁BEMANI	-6334
▁Ro	-6335
▁cl	-6336
▁ㅂㅕㄹㅈㅏ	-6337
▁ㅈㅓㅂㅅㅜ	-6338
▁ㅈㅕ	-6339
▁ㅎㅕㄴㅎㅘㅇ	-6340
ㄹㅗㄹㄹㅗ	-6341
▁ㄴㅏㅁㅁㅣ	-6342
▁ㅍㅣㅇㄱㅖ	-6343
▁ㄱㅏㅇㅅㅡㅂ	-6344
gr	-6345
▁new	-6346
▁ㅅㅔㄱㅅㅡ	-6347
▁ㅈㅣㄴㅎㅏ	-6348
▁ㅈㅓㅇㅈㅜㄴ	-6349
▁ㅋㅔㄴㅇㅣ	-6350
▁ㄱㅏㅁㄱㅡㅁ	-6351
ㄹㅣㄴㅇㅏ	-6352
▁ㄱㅗㅇㄱㅜㄱ	-6353
▁ㅋㅝㄹ	-6354
▁DX	-6355
▁ㅇㅟㄴㅌㅓ	-6356
CH	-6357
ough	-6358
▁Co	-6359
▁ㅂㅗㄴㅇㅢ	-6360
ㅅㅣㄴㄱㅏㅁ	-6361
▁JTBC	-6362
app	-6363
▁KB	-6364
▁ㄱㅏㅇㅈㅓㅁㄱㅣ	-6365
▁ㅂㅣㅇㄱㅕㄹ	-6366
▁ㅂㅓㅈ	-6367
▁width	-6368
▁ㅎㅘㄴㅎㅗ	-6369
▁ㄱㅕㄱㄱㅣ	-6370
▁ㅈㅏㅇㅅㅣ	-6371
▁ㅂㅏㄱㅁㅕㅇㅅㅜ	-6372
▁Sk	-6373
▁Mr	-6374
▁Ser	-6375
▁ㅊㅓㅇㄴㅏ	-6376
ㄱㅣㄴ	-6377
ㅊㅗㅇㅈㅏㅇ	-6378
▁AFC	-6379
▁ㅇㅕㅇㄷㅡㅇㅍㅗ	-6380
eel	-6381
▁ㄱㅘㄴㄱㅘㅇㄱㅐㄱ	-6382
▁can	-6383
ㅍㅏㄱ	-6384
▁ㅅㅓㄴㅇㅣㄴ	-6385
ㅌㅜㄱ	-6386
▁ㅈㅏㄴㄹㅠ	-6387
▁ㅂㅗㄴㄱㅏ	-6388
▁ㄱㅕㅇㅅㅏㅇㄴㅏㅁㄷㅗ	-6389
ㅊㅓㄹㅅㅜ	-6390
13	-6391
▁ㄷㅏㄴㅇㅢ	-6392
▁ㅇㅠㄴㄹㅣ	-6393
▁ㄴㅡㅇㅅㅜㄱ	-6394
ㅃㅜ	-6395
ㄴㄷㅏㄴ	-6396
ㅍㅔㄴㅅㅡ	-6397
▁ㅍㅕㅇㄹㅗㄴㄱㅏ	-6398
ㅁㅐㄱㅅㅡ	-6399
▁ㅇㅣㄹㅂㅗㄴㅅㅣㄱ	-6400
▁ㄱㅏㅇㅇㅏ	-6401
▁ㅁㅜㄴㅂㅓㅂ	-6402
▁ㅁㅜㄴㄱㅗ	-6403
▁ㅇㅡㅁㅅㅐㄱ	-6404
UR	-6405
▁Dark	-6406
▁ㅋㅓㅁㅍㅓ	-6407
▁IV	-6408
▁ㅎㅕㅂㄷㅗㅇ	-6409
▁ㅇㅑㄱㅊㅔ	-6410
▁ㅅㅓㄴㅇㅝㄴ	-6411
▁ㄱㅜㅇㅅㅜ	-6412
▁ㅅㅣㄴㅅㅏㅇ	-6413
▁Sch	-6414
▁Car	-6415
▁ㅌㅏㄱㅇㅝㄹ	-6416
▁ㅍㅔㅇㄱㅟㄴ	-6417
▁LE	-6418
me	-6419
ll	-6420
▁ㅈㅗㅇㅁㅏㄹ	-6421
▁114	-6422
▁Heart	-6423
▁ㅂㅏㄹㅂㅏㄹ	-6424
▁ㅅㅑㅇ	-6425
▁ㅁㅕㄹㅈㅗㅇ	-6426
▁ㅁㅕㅇㄴㅏ	-6427
▁ㅅㅏㅇㅇㅓ	-6428
▁ㅈㅣㄹㅎㅘㄴ	-6429
▁ㅅㅜㄹㅈㅣㅂ	-6430
▁ㄷㅐㅁ	-6431
▁ㄴㅡㅍ	-6432
ㅇㅏㅇㅅㅡ	-6433
▁ㅂㅜㄴㅍㅗ	-6434
▁ㅊㅓㄴㅁㅜㄴ	-6435
▁ㅅㅐㅇㅌㅐ	-6436
▁ㅅㅡㄹㅅㅡㄹ	-6437
ERO	-6438
▁ㅈㅔㄱ	-6439
▁ㄸㅜㄱ	-6440
▁ㅈㅜㅇㅎㅜ	-6441
▁}}}	-6442
▁ㅅㅗㄹㄹㅣ	-6443
▁ㅂㅏㅇㅊㅣㅁ	-6444
ㅂㅐㅁ	-6445
▁ㅂㅟ	-6446
ye	-6447
ㅅㅏㄴㄷㅗㅇ	-6448
▁ㅁㅏㅈㅁㅜㄹㄹㅣ	-6449
▁ㅁㅓㅅㅇㅣㅆ	-6450
ㄱㅔㄹ	-6451
ㅋㅗㅂㅌㅓ	-6452
▁ㅈㅓㄴㄷㅜ	-6453
ㄷㅗㅇㄱㅣ	-6454
▁ㄱㅣㅁㅈㅜ	-6455
ution	-6456
▁ㄱㅐㄱㄱㅘㄴ	-6457
▁ㅈㅜㅇㄷㅗ	-6458
▁ㅎㅘㄴㅅㅜ	-6459
▁ㅂㅏㅇㅇㅜㄹ	-6460
▁ㄴㅏㅊ	-6461
▁IP	-6462
▁this	-6463
▁ㄱㅗㄹㅊㅣ	-6464
▁ㅊㅓㅇㅅㅏ	-6465
▁ㅁㅗㄱㅍㅗ	-6466
▁ㅅㅜㄴㄱㅏㄴㅇㅣ	-6467
▁Em	-6468
▁ㄱㅡㄴㅅㅓㅇ	-6469
▁Is	-6470
▁ㅈㅏㅁㅈㅏ	-6471
▁ㅇㅣㅈㅇㅓ	-6472
▁ㄱㅘㄴㅈㅓㄹ	-6473
▁ㅅㅜㄱㅈㅜ	-6474
▁ㅈㅓㅂㅇㅓ	-6475
▁ㅎㅘㅇㅌㅐ	-6476
▁Bat	-6477
▁ㅅㅓㄴㄱㅛ	-6478
▁ㅋㅓㄴㄷㅣ	-6479
▁ㅋㅗㄱ	-6480
▁ㅊㅓㄴㅁㅏ	-6481
ings	-6482
oh	-6483
▁ㅍㅣㄹㄷㅜ	-6484
▁ㅁㅕㅇㄱㅗㄱ	-6485
▁ㅅㅓㅇㅅㅜㄱ	-6486
▁ㅆㅜ	-6487
▁ㅂㅣㅅㄴㅏ	-6488
▁ㅅㅗㅁㅆㅣ	-6489
▁ㄷㅏㄴㅁㅏㄹ	-6490
▁ㄷㅟㅅㅁㅕㄴ	-6491
▁AF	-6492
▁UM	-6493
▁ㄷㅗㅇㅊㅔ	-6494
▁ㅈㅓㅇㄷㅏㅂ	-6495
▁ㄱㅕㄱㅌㅚ	-6496
▁ㄲㅡㅌㅈㅏㅇ	-6497
▁ㅍㅜㄹㄹㅕ	-6498
▁ㄴㅏㄱㅅㅓㄴ	-6499
▁ㅊㅏㅇㄹㅣㅂ	-6500
ㅍㅜㄴ	-6501
▁ㅇㅝㄹㄷㅡㅇ	-6502
▁ㅂㅏㄴㄱㅣ	-6503
▁ㅈㅣㅂㅎㅏㅂ	-6504
▁ㅂㅏㄹㅌㅗㅂ	-6505
▁ㅇㅣㄴㅍㅡㄹㄹㅔ	-6506
ee	-6507
▁ㅂㅏㅅ	-6508
ㅇㅝㄴㅈㅏ	-6509
ㅈㅓㄴㅌㅡ	-6510
reak	-6511
ㅅㅏㄹㄹㅣ	-6512
▁ㅂㅏㄱㅈㅟ	-6513
▁ㄱㅜㄹㄹㅓ	-6514
▁ㅇㅑㅇㅅㅣㅁ	-6515
▁CE	-6516
▁ㅅㅐㅇㅅㅓㄴ	-6517
▁ㅇㅝㄴㅈㅏㅇ	-6518
ㄴㅏㄱㅇㅔ	-6519
▁ㄱㅜㅇㅈㅓㄴ	-6520
ㅇㅑㅇㅅㅣ	-6521
▁ㅍㅜㅇㄱㅕㅇ	-6522
▁ㅅㅣㄴㄴㅕㅁ	-6523
ㄱㅗㅇㅍㅗ	-6524
▁ㅎㅡㄱㅁㅏ	-6525
▁ㅅㅓㅇㅁㅕㅇ	-6526
▁ㄱㅜㄱㅅㅏㄴ	-6527
▁ㅈㅓㅁㅁㅕㄹ	-6528
ㄴㅔㄴ	-6529
▁ㅂㅣㄴㅂㅓㄴ	-6530
▁ㄲㅗㄹㅉㅣ	-6531
▁ㅈㅣㄱㄱㅕㄱ	-6532
▁ㅇㅡㅇㅅㅣ	-6533
OK	-6534
▁ㅅㅣㄹㅈㅏㅇ	-6535
▁ㄷㅗㄱㅅㅜ	-6536
▁ㄱㅘㄴㅈㅣㄱ	-6537
icro	-6538
ㅇㅑㅇㅅㅐ	-6539
▁ㅈㅣㄱㅅㅗㄱ	-6540
▁ㄱㅣㅅㅌㅓㄹ	-6541
▁ㅅㅔㄱㅅㅣ	-6542
ict	-6543
▁ㅍㅕㄴㄱㅕㄴ	-6544
▁ㄱㅏㄴㅅㅓㄴ	-6545
▁1968	-6546
▁ㅁㅕㅇㅁㅕㅇ	-6547
▁ㅈㅣㅇㄱㅖ	-6548
▁ㅂㅗㄱㅇㅛㅇ	-6549
▁Light	-6550
▁ㅅㅓㄴㅂㅗㅇ	-6551
▁ㄱㅏㅇㅅㅓ	-6552
▁ㅇㅕㄴㅇㅢ	-6553
▁ㄴㅐㅂ	-6554
▁ㄱㅜㄷㅎㅣ	-6555
▁ㅍㅕㅇㄷㅡㅇ	-6556
▁ㅅㅏㅇㅈㅏㅇ	-6557
▁ㅋㅓㅁㅂㅐㄱ	-6558
ㄷㅏㅅ	-6559
▁ADV	-6560
▁ㅈㅓㄴㅇㅕㅁ	-6561
▁ㅈㅓㅁㅎㅏ	-6562
▁ㄷㅗㅇㄷㅡㅇ	-6563
ㅃㅜㅁ	-6564
mania	-6565
▁ver	-6566
▁ㅊㅜㄹㅈㅔ	-6567
▁ㄹㅐㄱ	-6568
▁ㅅㅣㄴㅂㅕㅇ	-6569
ㅇㅓㄴㅈㅏ	-6570
ㅇㅕㅇㅂㅗㄱ	-6571
▁ㅅㅓㅁㅁㅕㄹ	-6572
▁ㅂㅏㄴㄹㅏㄴㄱㅜㄴ	-6573
▁ㅅㅜㄱㅅㅗ	-6574
▁ㄱㅗㅇㅇㅕㅇ	-6575
ㅌㅓㄴㅌㅡ	-6576
▁ㄱㅜㄴㄹㅣㅁ	-6577
▁UFC	-6578
ors	-6579
▁ㅁㅗㅁㅁㅜ	-6580
▁ㅇㅣㄴㅅㅙ	-6581
▁ㄹㅏㅅ	-6582
▁ㅎㅐㄴ	-6583
▁ㅅㅣㄴㅅㅜ	-6584
▁Im	-6585
▁ㅇㅣㄴㅌㅔㄹ	-6586
▁ㅈㅜㅇㅎㅏㄱㅅㅐㅇ	-6587
▁Kore	-6588
ㅈㅏㄱㅂㅣ	-6589
▁ㅇㅡㅇㄷㅏㅂ	-6590
▁ㅈㅓㅇㅅㅓ	-6591
▁203	-6592
▁ㅉㅣㅈㅇㅓ	-6593
ECT	-6594
▁SL	-6595
▁ㅅㅣㄷ	-6596
▁ㅈㅣㄴㄷㅗ	-6597
▁ㄱㅓㄹㅇㅡㅁ	-6598
▁ㅂㅜㄴㅂㅐ	-6599
▁~~	-6600
▁ㅉㅏㄹㅂㅏㅇ	-6601
▁ㅎㅗㄴㅇㅣㄴ	-6602
ㄹㅕㄱㅈㅏ	-6603
▁ㅁㅗㅂㅅㅣ	-6604
▁ㅅㅓㅇㅂㅣ	-6605
ㅃㅏㄹㄹㅣ	-6606
▁Sy	-6607
▁ㄹㅚ	-6608
ㄱㅗㄷ	-6609
▁ㅇㅕㄴㅎㅚ	-6610
ㅁㅐㅅ	-6611
▁ㅅㅏㅇㅅㅣ	-6612
▁ㅈㅓㄴㄱㅘㅇ	-6613
▁Ev	-6614
▁EBS	-6615
▁ㅅㅗㄴㅌㅗㅂ	-6616
▁ㅂㅏㄹㄹㅔㄴㅌㅏ	-6617
▁ㄷㅏㄴㅅㅓ	-6618
▁ㄱㅕㄱㅊㅣㅁ	-6619
ㄱㅗㅇㅎㅘ	-6620
ㅁㅐㄴㄷㅓ	-6621
▁ㅎㅗㅁㅈㅡ	-6622
ACK	-6623
ㅓㄴㅈㅣ	-6624
ㅈㅜㅁㅁㅏ	-6625
▁ㅂㅡㄹㄹㅐㄱㅎㅗㄹ	-6626
ㅈㅓㅇㅇㅕㄱ	-6627
▁ㅁㅐㄱㄹㅏㄱ	-6628
▁ㅇㅛㅇㅇㅢ	-6629
▁ㅁㅣㄷㅇㅡㅁ	-6630
▁ㅂㅏㄴㄹㅗㄴ	-6631
▁ㄱㅕㄹㅇㅢ	-6632
▁ㄱㅕㅇㅂㅗ	-6633
▁ㅇㅙㄴ	-6634
ㅎㅘㄹㅇㅑㄱ	-6635
▁AE	-6636
▁pro	-6637
▁ㄱㅡㄱㅅㅗ	-6638
▁PK	-6639
▁ㄲㅜㅀ	-6640
▁127	-6641
▁ㅅㅏㄴㅌㅏㄴㅊㅗㅇ	-6642
ㅈㅏㅇㄴㅏㄴ	-6643
▁will	-6644
▁ㅎㅘㄱㄱㅗ	-6645
ㄷㅠㄹㄹㅓㅁ	-6646
▁ㅍㅔㄴㄷㅠㄹㄹㅓㅁ	-6647
▁BO	-6648
▁max	-6649
▁ㅅㅓㅇㅇㅕㄱ	-6650
▁ㅁㅏㄹㅇㅏ	-6651
ㄹㅏㅇㅋㅡ	-6652
▁ㅇㅐㅇㅋㅓ	-6653
▁ㅎㅏㄴㅊㅡㅇ	-6654
▁ㅈㅣㄱㅇㅕㄱ	-6655
▁Su	-6656
▁ㅁㅐㅅ	-6657
▁ㅇㅏㅍㄷㅟ	-6658
▁117	-6659
▁126	-6660
▁ㅁㅐㄴㅊㅔ	-6661
ㅂㅐㄴㅅㅡ	-6662
▁ㅋㅐㅂㅋㅗㅁ	-6663
ㅁㅏㄱㅈㅓㄴ	-6664
14	-6665
▁ㄱㅡㄱㅇㅜ	-6666
▁ㅇㅝㄹㅇㅛ	-6667
▁ㅇㅏㄱㄹㅕㅇ	-6668
TC	-6669
▁ㅎㅗㅁㄱㅕㅇㄱㅣ	-6670
ㄹㅗㄹㄹㅓ	-6671
ㄷㅏㄴㅈㅣ	-6672
▁ㅅㅔㄴㅌㅣ	-6673
▁ar	-6674
▁184	-6675
ㄱㅓㅅㅈㅓ	-6676
▁ㄹㅐㄴㅌㅓㄴ	-6677
▁ㅁㅜㄴㅅㅣㄴ	-6678
▁ㅂㅏㅇㅎㅗ	-6679
ics	-6680
ㅇㅛㅇㅅㅗ	-6681
▁ㄷㅗㅇㄱㅓ	-6682
ㅁㅐㄴㅅㅡ	-6683
▁ㅎㅏㅂㅂㅓㅂ	-6684
ㅌㅗㅇㅅㅏ	-6685
ㄹㅏㅇㅍㅡ	-6686
▁LED	-6687
▁ㄱㅣㄹㄱㅓ	-6688
▁ㅌㅗㅇㅅㅜ	-6689
▁ㅂㅏㄹㅎㅏ	-6690
▁ㅎㅐㅇㅂㅏㅇㅂㅜㄹㅁㅕㅇ	-6691
▁As	-6692
▁ㅂㅏㅇㅎㅘ	-6693
▁ㅅㅏㅇㅅㅙ	-6694
ㄴㅓㄱ	-6695
▁ㅎㅏㄴㄱㅏㅇ	-6696
▁ㅎㅐㄴㄷㅡㄹ	-6697
▁ㅎㅘㄴㅅㅏ	-6698
▁ㅇㅜㄴㅅㅓㄱ	-6699
▁ㅇㅝㄴㅎㅠㅇ	-6700
▁ㅁㅚ	-6701
▁ㅂㅏㄹㅌㅏㄱ	-6702
▁Let	-6703
▁ㅂㅜㄹㅋㅙ	-6704
▁ㅈㅓㄱㅅㅓㅇ	-6705
▁ㅅㅣㄹㅂㅏ	-6706
ex	-6707
▁us	-6708
▁ㅅㅓㅇㅅㅜ	-6709
▁ㄱㅏㅇㅅㅔ	-6710
▁ㄲㅡㅀㅇㅣ	-6711
▁ㅂㅜㄱㅇㅏ	-6712
▁ㅌㅡㄱㅎㅜㄴ	-6713
▁ㅂㅓㄹㄱㅡㅁ	-6714
▁ㅂㅜㄹㅎㅘ	-6715
▁ㅂㅏㄱㅊㅣ	-6716
af	-6717
ㅎㅕㄴㅈㅣㄴ	-6718
▁Of	-6719
▁ㄷㅜㅇㄱㅡㄹ	-6720
▁178	-6721
ammer	-6722
ㅁㅕㅇㅅㅏ	-6723
▁ㄸㅏㅁ	-6724
▁GTA	-6725
▁ㄲㅗㅇ	-6726
▁Your	-6727
▁ㄱㅣㅁㄷㅗ	-6728
▁ㅈㅓㄴㄹㅖ	-6729
▁ㄴㅏㄴㄱㅏㅁ	-6730
▁ㄱㅗㅇㅈㅗㄴ	-6731
▁ㄴㅗㅇㅁㅣㄴ	-6732
▁ㄹㅓㄹ	-6733
▁183	-6734
ㅇㅝㄴㅇㅕㄱ	-6735
▁ㅌㅓㄹㅇㅓ	-6736
▁ㅅㅣㅁㅎㅘ	-6737
▁ㄹㅗㄹㄹㅣㅇ	-6738
ㄸㅜㅀ	-6739
IGH	-6740
▁WH	-6741
▁ㅂㅣㄹㅂㅗ	-6742
▁ㅇㅑㅇㅈㅜ	-6743
▁ㅇㅣㄹㅅㅏㅁ	-6744
▁ㄱㅗㅇㅁㅗ	-6745
▁ㅂㅏㄹㅎㅕㄴ	-6746
ㄷㅡㄷ	-6747
▁ㄱㅏㅁㅅㅓㅇ	-6748
▁ㅁㅕㄴㅈㅓㅂ	-6749
▁ㅅㅣㄹㄹㅜ	-6750
▁1967	-6751
ㅇㅜㄴㄷㅐ	-6752
▁ㅈㅣㄱㄱㅕㄹ	-6753
▁ㅂㅜㄱㄷㅜ	-6754
ㅈㅣㄹㄹㅐㄴㄷㅡ	-6755
▁MX	-6756
▁GPU	-6757
▁182	-6758
▁ㅎㅣㄴㅌㅡ	-6759
▁ㅎㅗㄱㅍㅕㅇ	-6760
▁Rock	-6761
▁HG	-6762
▁Red	-6763
▁ㅊㅣㄴㅇㅟ	-6764
che	-6765
▁ㄴㅏㄴㅁㅣㄴ	-6766
▁ㄷㅗㅇㅂㅜㄱ	-6767
ody	-6768
▁LIVE	-6769
▁ㄷㅏㄴㅅㅣㄱ	-6770
▁ㅇㅏㄴㅁㅜ	-6771
▁ㅊㅣㄴㅁㅗㄱ	-6772
ㅍㅜㄹㅇㅣ	-6773
▁ㄱㅗㅇㅎㅠ	-6774
▁ㅈㅣㄴㄹㅗ	-6775
ㅅㅣㄴㄱㅣ	-6776
▁ㅅㅓㄹㅎㅘ	-6777
ㅃㅕ	-6778
▁ㅆㅔ	-6779
ㅂㅏㄱㅎㅣ	-6780
▁ㄱㅣㅅㄷㅡㄹ	-6781
other	-6782
ica	-6783
▁ㅎㅗㄴㅎㅏㅂ	-6784
▁ㅁㅐㅇㅎㅘㄹㅇㅑㄱ	-6785
▁ㅈㅏㅇㅅㅣㄴㄱㅜ	-6786
ㅌㅡㄹㄹㅏ	-6787
▁Tw	-6788
▁FW	-6789
▁ㅂㅐㅌ	-6790
▁ㅇㅣㄴㅇㅓ	-6791
▁ㅈㅜㅇㅇㅏㅇㅅㅓㄴ	-6792
▁ㅆㅡㄹㅇㅓ	-6793
▁168	-6794
▁ㅊㅏㄱㅈㅣ	-6795
▁ㄷㅜㅇㅈㅣ	-6796
▁ㄱㅣㅁㅇㅠㄴ	-6797
▁ㅇㅕㅇㅁㅣ	-6798
▁ㄲㅐㅇㅍㅏㄴ	-6799
ㅅㅔㅂㅌㅡ	-6800
▁ㅈㅓㄱㅈㅐ	-6801
ㅅㅗㄱㅂㅓ	-6802
▁ㅅㅏㅅ	-6803
▁ㅅㅗㄹㄹㅏ	-6804
▁ㅍㅗㄱㄹㅗ	-6805
▁Min	-6806
▁ㅍㅜㄹㅇㅓ	-6807
▁have	-6808
▁ㅇㅕㄴㄷㅏㄹ	-6809
▁..!	-6810
▁ㅈㅡㅇㅂㅏㄹ	-6811
▁ㅂㅗㄲ	-6812
ㄱㅕㄱㅈㅡㅇ	-6813
▁Don	-6814
▁ㅊㅗㅇㅅㅓㄴㄱㅓ	-6815
16	-6816
▁ㅅㅣㄹㄹㅕㄱㅈㅏ	-6817
▁ㄱㅗㅇㄱㅗ	-6818
▁Sun	-6819
▁ㅅㅓㄴㅍㅗ	-6820
▁ㅇㅏㅁㅇㅜㄹ	-6821
▁ㄱㅣㅁㅇㅣㄹㅅㅓㅇ	-6822
▁ㅂㅓㄴㄱㅏㄹ	-6823
ㅈㅓㄱㅈㅏ	-6824
▁ㅊㅗㅇㄷㅗㄱ	-6825
▁ㅍㅡㄹㄹㅜ	-6826
▁ㄷㅗㅇㄴㅕㄴ	-6827
▁ㅆㅗㄹ	-6828
▁ㅅㅏㅇㄱㅗㅇ	-6829
ㅃㅡㅁ	-6830
ㄱㅜㅇㅎㅘ	-6831
oth	-6832
▁ㅎㅓㅁㅎㅏ	-6833
▁ㅈㅜㄹㅈㅜㄹ	-6834
▁ㅅㅓㄹㅌㅏㅇ	-6835
▁ㅅㅗㄱㄹㅕㄱ	-6836
▁ㅅㅓㅇㅈㅣㄱㅈㅏ	-6837
▁ㅇㅝㄴㅁㅏㅇ	-6838
ㅅㅡㄹㄹㅣㅁ	-6839
ins	-6840
▁ㅁㅓㄴㅈㅣ	-6841
▁BAS	-6842
▁ㅁㅕㅇㅈㅏㄱ	-6843
▁ㅊㅣㅁㅎㅐ	-6844
▁ㄷㅏㅁㅇㅣㅁ	-6845
▁ㅅㅣㄴㄴㅗ	-6846
ㅇㅕㄹㅅㅏ	-6847
▁ㅈㅏㄴㅎㅐ	-6848
▁1963	-6849
▁DNA	-6850
ㄹㅏㅇㅋㅔㄴ	-6851
▁ㅁㅏㅇㅅㅓㄹㅇㅣ	-6852
▁ㅁㅝㄴ	-6853
▁330	-6854
LS	-6855
▁ㄴㅏㅁㅂㅏㄹ	-6856
▁ㄱㅗㅇㅅㅗㄴ	-6857
ㅅㅓㅇㄱㅜㄴ	-6858
▁ㄴㅐㅇㄱㅣ	-6859
▁ㄱㅣㅁㅇㅕㄴ	-6860
ㅈㅓㅇㅅㅣㄴ	-6861
▁ㅈㅣㄴㅈㅓㅇㅎㅏ	-6862
▁ㅇㅐㄴㄷㅣ	-6863
▁ㅇㅕㄴㅁㅏㄹ	-6864
agon	-6865
▁ㅅㅣㅁㅅㅏㅇ	-6866
▁ㅇㅣㄹㅇㅣㄹㅇㅣ	-6867
▁ㅅㅓㅇㄱㅣ	-6868
▁ㄸㅏㅇㅂㅗㄹ	-6869
▁ㄱㅜㄴㅂㅗㄱ	-6870
▁ㄴㅗㅇㅎㅕㅂ	-6871
▁ㅇㅣㅁㅇㅛ	-6872
▁beatmania	-6873
▁ㅇㅕㄴㅁㅏㄱ	-6874
ㅅㅜㄹㅈㅏ	-6875
▁ㅌㅓㅁ	-6876
ㅈㅓㄱㄷㅏㄴ	-6877
▁Rev	-6878
▁STER	-6879
▁ㅁㅐㄱㅅㅣ	-6880
▁ㄷㅏㄹㅋㅗㅁ	-6881
▁ㅂㅏㄱㅈㅗㅇ	-6882
▁162	-6883
▁ㄱㅡㅁㄱㅗ	-6884
▁ㅎㅘㄱㄹㅣㅂ	-6885
▁Per	-6886
▁am	-6887
▁Sum	-6888
ㅇㅣㅁㄱㅣ	-6889
▁ㅇㅗㄴㅁㅗㅁ	-6890
ㄱㅜㄱㅈㅜ	-6891
ㅇㅣㄹㄷㅏㅁ	-6892
▁ㅁㅣㅁ	-6893
▁ㅇㅕㅁㅅㅐㄱ	-6894
▁Gen	-6895
▁SCP	-6896
▁ㅈㅏㅇㅍㅕㄴ	-6897
ㄴㄷㅏㅁ	-6898
▁ㄴㅔㅂ	-6899
ㅅㅓㄱㅂㅓ	-6900
▁ㄴㅓㄱㄴㅓㄱ	-6901
▁ㄱㅘㅇㅈㅓㄴㅅㅏ	-6902
▁ㄷㅏㄹㄹㅐ	-6903
▁ㅂㅕㅇㅈㅗㅇ	-6904
ㄷㅣㄱ	-6905
▁ㄷㅗㅇㅈㅗㄱ	-6906
▁ㄹㅡㄴ	-6907
17	-6908
▁ㅈㅓㅂㅈㅓㅁ	-6909
▁one	-6910
ㅎㅐㅇㅇㅓ	-6911
▁ㅇㅘㅅ	-6912
▁ㅁㅜㄹㄱㅏ	-6913
▁Sl	-6914
▁TEC	-6915
▁ㅂㅡㄹㄹㅐ	-6916
▁158	-6917
ㅃㅐ	-6918
▁2500	-6919
▁ㅂㅗㄹㅌㅔㄱㅅㅡ	-6920
ㅅㅡㄹㅇㅏ	-6921
ㅍㅡㄹㄹㅐ	-6922
▁ㅈㅜㅇㅈㅓㄴㅊㅏ	-6923
▁ㅉㅗㄹ	-6924
ater	-6925
ㄱㅡㄹㄹㅓ	-6926
▁ㄴㅐㅇㅈㅓㄴ	-6927
▁ㅍㅗㅇ	-6928
▁ㅍㅜㄴ	-6929
▁love	-6930
▁ㄱㅕㅇㅊㅏㄹㅊㅓㅇ	-6931
ium	-6932
▁TOP	-6933
▁ㄷㅏㄴㄱㅘ	-6934
▁ㅅㅏㅇㅇㅛㅇ	-6935
▁ㅇㅏㄱㄱㅗㄱ	-6936
ㅈㅓㅇㅅㅣㄱ	-6937
▁ㅈㅣㄴㅅㅜ	-6938
▁ㅅㅣㄴㄷㅐ	-6939
▁ㅌㅏㄹㄹㅣ	-6940
▁ㅊㅏㄹㄹㅣ	-6941
▁ㅂㅓㅁㅎㅏ	-6942
GB	-6943
▁ㄱㅡㄴㅇㅟ	-6944
▁ㅌㅗㅇㅂㅗ	-6945
ions	-6946
▁ㅊㅓㅇㅎㅏ	-6947
▁MK	-6948
ㄹㅏㄴㅌㅡ	-6949
ㅊㅓㄴㅇㅕㄱ	-6950
▁ㅊㅐㄱㅅㅏㅇ	-6951
ㅂㅕㄴㅇㅣ	-6952
ㅈㅜㅇㄱㅛ	-6953
▁ㄷㅏㄴㅌㅔ	-6954
▁ㅁㅗㅅㅈㅣ	-6955
▁ㄷㅗㄹㅇㅕㄴㅂㅕㄴㅇㅣ	-6956
▁ㅅㅣㄹㅇㅓㅂ	-6957
▁LOVE	-6958
▁ㄷㅗㅇㅂㅗㅇ	-6959
ㅊㅘㄹ	-6960
ㅇㅔㄹㄹㅏ	-6961
▁ㅂㅜㄹㅍㅕㅇ	-6962
▁ㅅㅔㅅㅉㅐ	-6963
▁ㄹㅠㄱ	-6964
▁ㅌㅗㅇㅅㅣㄴㅅㅏ	-6965
▁132	-6966
▁ㅈㅜㄴㅎㅏ	-6967
▁ㅍㅐㄱㅅㅕㄴ	-6968
▁ㅇㅜㄴㅂㅏㄴ	-6969
ould	-6970
ㄱㅜㅇㅊㅏㅇ	-6971
▁ㅂㅗㄴㄷㅣ	-6972
▁ㅈㅣㄴㄱㅜ	-6973
▁ㅎㅓㅅㅅㅗ	-6974
▁ㄱㅘㄴㄷㅗㅇ	-6975
▁ㄱㅗㄹㅁㅗㄱ	-6976
▁ㅈㅜㅇㅈㅐ	-6977
▁ㅅㅜㄴㅊㅏㄹ	-6978
▁ㅅㅓㅇㅎㅕㅇ	-6979
▁ㅁㅏㄴㅎㅐㅇ	-6980
▁ㅌㅗㅇㅎㅐㅇ	-6981
▁UF	-6982
▁OB	-6983
ㅇㅗㄹㄹㅣㄴ	-6984
ange	-6985
▁ㅇㅕㄹㅇㅏㄱ	-6986
▁1966	-6987
▁ㅈㅗㄹㄱㅐ	-6988
▁ㅂㅜㄹㄹㅗ	-6989
▁ㅂㅣㄴㅌㅡㅁ	-6990
▁ㅌㅡㄱㅊㅘㄹ	-6991
▁Oh	-6992
▁High	-6993
▁ㅎㅏㄴㄷㅗ	-6994
port	-6995
ㄴㅓㅁㄱㅣ	-6996
▁ㅈㅣㅇㅈㅣㅇ	-6997
SS	-6998
ㄱㅡㄱㅎㅣ	-6999
▁ㅊㅜㄹㅇㅕㄴㅈㅣㄴ	-7000
▁IDOL	-7001
▁ㅈㅓㅇㅁㅕㅇ	-7002
▁ㄴㅏㄺ	-7003
▁ㅈㅡㅇㄱㅝㄴ	-7004
▁ㅁㅏㄱㅂㅜ	-7005
▁ㅈㅣㄴㄹㅣ	-7006
▁ㅅㅐㄹㄹㅓ	-7007
▁ㅊㅜㅇㄴㅏㅁ	-7008
▁ㅇㅓㄹㅌㅓ	-7009
▁ㅂㅓㅂㅁㅜ	-7010
ㅁㅕㅇㅂㅏㄱ	-7011
▁ㅈㅓㄴㅇㅣㅁ	-7012
ott	-7013
▁159	-7014
▁ㅈㅜㅁ	-7015
▁ㄱㅡㄹㄹㅏ	-7016
▁ㄷㅏㅇㄱㅜㄱ	-7017
▁ㅌㅏㅁㄱㅜ	-7018
▁ㅎㅘㅇㅁㅜ	-7019
les	-7020
ㄹㅗㄴㅌㅡ	-7021
▁ㅎㅏㄱㅈㅓㅁ	-7022
▁133	-7023
ㅍㅗㄹㄹㅗ	-7024
▁EU	-7025
ㄴㅏㅇ	-7026
▁ㅅㅓㄱㅅㅏㅇ	-7027
UT	-7028
ㅃㅜㄹ	-7029
▁ㄷㅗㅇㄹㅐ	-7030
▁ㅂㅓㅈㄲㅗㅊ	-7031
▁124	-7032
▁ㅈㅓㄴㅅㅗㄱ	-7033
▁ㅁㅏㄹㅈㅏㅇㄴㅏㄴ	-7034
▁ㅇㅕㄴㅂㅏㅇㄱㅜㄴ	-7035
▁ㄴㅗㅇㅅㅏ	-7036
▁ㅅㅛㅅ	-7037
ㅈㅏㅂㅎㅣ	-7038
▁ㅇㅣㄴㅊㅓㄴㄱㅘㅇㅇㅕㄱㅅㅣ	-7039
▁ㄴㅗㅇㄹㅏㄱ	-7040
▁DT	-7041
▁ㅍㅜㄱ	-7042
▁ㅍㅣㄹㅌㅓ	-7043
▁ㅅㅡㅂㄱㅘㄴ	-7044
▁HK	-7045
▁Par	-7046
▁ㅊㅜㄹㅈㅜㅇ	-7047
▁ㅅㅡㄹㅍㅓ	-7048
▁ㅅㅣㄹㅈㅓㅇ	-7049
▁ㅎㅘㅇㅅㅣㄹ	-7050
▁br	-7051
▁was	-7052
▁ㅅㅡㄹㄹㅔ	-7053
▁ㄷㅏㄴㅅㅗㄱ	-7054
▁ㅇㅕㅇㄷㅗㅇ	-7055
▁ㅋㅡㄹㄹㅓ	-7056
▁FX	-7057
▁ㅌㅗㅇㅇㅛㅇ	-7058
ator	-7059
ㄹㄹㅐ	-7060
ㅔㅇㅛ	-7061
IE	-7062
▁ㄱㅕㄹㅅㅏ	-7063
▁Ang	-7064
▁ㄱㅡㅂㄱㅣ	-7065
ㅋㅐㄴㄷㅡㄹ	-7066
ㅋㅡㄹㄹㅣㄴ	-7067
▁ㄱㅕㅇㅇㅕㄴ	-7068
▁ㅅㅓㅇㄱㅏ	-7069
▁BW	-7070
ㅉㅗㅊ	-7071
▁ㅅㅣㄴㅇㅣㅁ	-7072
ㅅㅏㅇㅁㅣㄴ	-7073
▁ㅍㅣㄱㅅㅔㄹ	-7074
▁1944	-7075
ㅅㅓㄹㅍㅡ	-7076
▁Arm	-7077
▁156	-7078
DS	-7079
▁ㄷㅗㅇㅌㅏㄱ	-7080
▁ㅊㅏㄹㄴㅏ	-7081
▁ㅂㅗㄱㅇㅡㅁ	-7082
▁Master	-7083
▁280	-7084
ㅇㅜㄹㅇㅕㄱ	-7085
▁ㄷㅏㄴㄱㅗㄹ	-7086
▁ㅅㅣㄴㅎㅡㅇ	-7087
▁El	-7088
▁ㅈㅓㅇㄹㅣㅂ	-7089
▁ㄷㅗㄱㄹㅣㅂㅇㅜㄴㄷㅗㅇ	-7090
▁ㅎㅏㅁㅈㅐ	-7091
▁ㅌㅗㅇㅈㅡㅇ	-7092
▁ㅇㅣㅁㄱㅘㄴ	-7093
▁ㅂㅔㄱㅌㅓ	-7094
▁ㅈㅏㅇㅎㅏㄱ	-7095
▁ㄷㅗㅇㄱㅏㅂ	-7096
18	-7097
▁ㅃㅗㅁ	-7098
▁ㅈㅣㅇㅋㅡ	-7099
▁ㅊㅜㄹㅌㅚ	-7100
▁ㅂㅗㄱㅅㅣㅇ	-7101
▁ㅅㅡㅇㄱㅡㅂ	-7102
▁PL	-7103
▁ㄸㅏㄱㄸㅏㄱ	-7104
▁1962	-7105
▁ㅅㅜㄹㅂㅓㅂ	-7106
▁118	-7107
▁ㅅㅡㅇㄹㅕ	-7108
ㅅㅓㅇㄴㅕㄴ	-7109
▁ㅎㅏㅁㅍㅗ	-7110
▁ㅃㅏㄹㅇㅏ	-7111
ㅇㅣㄹㅅㅡ	-7112
▁ARM	-7113
ㄸㅡㄱㅇㅣ	-7114
▁ㄹㅐㅂㅌㅓ	-7115
▁ㅅㅏㅁㅊㅗㄴ	-7116
▁ㅁㅓㄹㅉㅓㅇㅎㅣ	-7117
▁ㄴㅣㄱㅅㅡ	-7118
▁ㅍㅏㄴㅅㅏ	-7119
▁ㅈㅓㅂㄱㅡㄴㅅㅓㅇ	-7120
▁ㅅㅑㅁ	-7121
▁ㄱㅡㄴㄹㅕㄱ	-7122
▁ㅇㅕㄹㄷㅡㅇ	-7123
▁ㅊㅐㄱㅈㅓㅇ	-7124
ㅏㅇㅑ	-7125
▁ㅌㅏㄴㅅㅗ	-7126
ㄸㅗㄱ	-7127
▁ㅅㅣㄴㅅㅣ	-7128
▁ㅂㅏㄹㅋㅏㄴ	-7129
▁ㅅㅏㅇㄱㅏ	-7130
▁ㅊㅓㅇㅇㅘ	-7131
▁ㄷㅏㅇㅈㅜ	-7132
▁230	-7133
▁ㅇㅕㄴㅂㅏㄹ	-7134
ㅍㅕㅇㄱㅏ	-7135
ㅎㅘㅇㅅㅐㄱ	-7136
19	-7137
▁ㄷㅡㄴㄱㅏ	-7138
▁OK	-7139
ㄱㅏㄴㅍㅛ	-7140
ㅋㅏㄹㄹㅣ	-7141
▁ㅇㅓㅁㅍㅖ	-7142
▁ㅇㅡㅁㅈㅜ	-7143
▁ㄱㅡㅁㅅㅐㄱ	-7144
ㄴㅓㅅ	-7145
ㅇㅓㅍ	-7146
ㅅㅓㅇㄱㅖ	-7147
▁ㅊㅓㄴㄷㅜㅇ	-7148
lect	-7149
ㄱㅕㅁ	-7150
▁Sec	-7151
▁ㄱㅗㅇㅅㅡㅂ	-7152
▁ㅎㅏㄱㄱㅡㅂ	-7153
▁138	-7154
ㅈㅏㅇㅇㅣ	-7155
▁ㄷㅏㄴㅈㅓㅇ	-7156
▁ㅂㅏㅇㅇㅏㄴ	-7157
▁ㅂㅣㄱㅂㅐㅇ	-7158
▁RP	-7159
▁ㅅㅔㅂ	-7160
▁ㄱㅜㄴㄱㅣ	-7161
alk	-7162
▁ㅅㅣㄴㅈㅓㅇ	-7163
▁148	-7164
▁ㅎㅏㄴㅁㅗ	-7165
▁Fire	-7166
ㄹㅔㄴㅅㅡ	-7167
▁ㅎㅗㄱㅅㅏ	-7168
▁ㅅㅓㅇㅍㅗㄱ	-7169
▁ㅎㅏㄴㅂㅏㄹ	-7170
▁ㄱㅕㄱㅈㅓㄴ	-7171
▁ㅇㅣㄹㅈㅓㄹ	-7172
▁ㅎㅏㄱㅂㅓㄴ	-7173
▁ㅂㅜㄴㅈㅏㅇ	-7174
▁style	-7175
ICE	-7176
▁ㄹㅑ	-7177
ㅈㅔㄹㄹㅔ	-7178
ㅅㅣㅁㅈㅏㅇ	-7179
▁ㅌㅏㄴㅌㅏㄴ	-7180
▁ㅇㅏㄱㅇㅓ	-7181
▁ㄷㅗㅇㅁㅜㄴ	-7182
▁ㅅㅓㄴㅇㅜ	-7183
▁ㅇㅏㄹㅂㅔ	-7184
▁ㅎㅏㅇㅇㅏ	-7185
▁ㄴㅓㄼㅎㅣ	-7186
olution	-7187
▁ㅇㅣㄴㅁㅐㄱ	-7188
▁CA	-7189
▁ㅂㅏㄱㅊㅏㄴ	-7190
▁ㅅㅣㅁㅅㅡㄴ	-7191
▁ㅊㅜㄹㄱㅡㄴ	-7192
▁DO	-7193
▁ㅂㅏㅇㅅㅗㅇㅇㅣㄴ	-7194
▁pr	-7195
▁ㄱㅘㅇㄷㅐ	-7196
ony	-7197
▁1940	-7198
▁ㅇㅣㅂㅇㅑㅇ	-7199
▁ㅍㅣㄹㄹㅣㅂ	-7200
ㅇㅣㄴㄱㅏㄴ	-7201
▁ㅎㅏㄴㅁㅗㄳ	-7202
▁ㄱㅘㅇㅂㅗㄱ	-7203
▁ㅇㅓㄹㅍㅣㅅ	-7204
▁ㅈㅣㅂㅎㅚ	-7205
land	-7206
ㄷㅏㄴㅈㅜ	-7207
ㅇㅜㄱㅇㅣ	-7208
▁sm	-7209
▁ㅈㅣㄹㄹㅑㅇ	-7210
▁ㅈㅓㄴㅅㅔ	-7211
ert	-7212
▁ㅎㅕㅇㅍㅕㄴㅇㅓㅄ	-7213
▁ㅇㅝㄹㄱㅡㅂ	-7214
▁550	-7215
▁ㅂㅜㄴㅎㅗㅇㅅㅐㄱ	-7216
▁ㅌㅐㅅㅇㅣ	-7217
▁ㄱㅏㅁㅎㅐㅇ	-7218
▁so	-7219
▁ㄱㅗㅇㅅㅓㅇㅈㅓㄴ	-7220
▁ㅃㅗㅇ	-7221
▁kr	-7222
ㄱㅞ	-7223
▁ㅈㅓㅇㅈㅐ	-7224
▁ㄹㅓㄴㄴㅣㅇ	-7225
▁ㅅㅣㄹㅎㅘㅇ	-7226
▁ㅇㅝㄴㅎㅗ	-7227
▁Li	-7228
▁BRV	-7229
▁172	-7230
▁ㅋㅗㄹㄷㅡ	-7231
▁ㅎㅡㄱㅎㅘ	-7232
▁007	-7233
ㅈㅣㅇㅇㅓ	-7234
▁ㅇㅏㄴㅅㅏㄴ	-7235
▁ㅂㅏㄱㅇㅕㅇ	-7236
▁ㅍㅣㄹㄹㅏ	-7237
▁ㄷㅗㅇㅇㅛ	-7238
▁ㅇㅏㅍㅅㅔ	-7239
▁""	-7240
▁ㄱㅗㅇㅂㅏㅇㅈㅓㄴ	-7241
ㅎㅞ	-7242
▁ㅂㅜㄱㄱㅜ	-7243
▁ㅂㅓㄴㅅㅣㄱ	-7244
ㅇㅙ	-7245
▁ㅈㅓㄹㄱㅠ	-7246
▁ㅈㅏㅇㅂㅕㅇ	-7247
▁ㅎㅕㄴㅅㅏㅇㄱㅡㅁ	-7248
ㅋㅏㄹㄹㅔㅅ	-7249
▁ㄲㅗㅈㅎㅣ	-7250
▁ㅂㅏㄴㅁㅏㄹ	-7251
▁Dis	-7252
▁270	-7253
▁ㄱㅓㄴㅈㅐ	-7254
▁ㄱㅣㅁㅌㅐㄱ	-7255
▁ㅈㅗㄴㄷㅐㅅㅁㅏㄹ	-7256
▁Rem	-7257
▁Blue	-7258
▁ㅈㅓㄴㅍㅕㄴ	-7259
▁ㅂㅗㄹㄹㅠㅁ	-7260
▁ㅅㅖㄹ	-7261
▁ㅂㅏㄱㅌㅏㄹ	-7262
▁MLB	-7263
ㄴㅕㄴㄱㅣ	-7264
▁ㄴㅐㅇㄱㅏㄱ	-7265
ㅂㅏㅇㅎㅑㅇ	-7266
pr	-7267
ㄴㅐㅂ	-7268
ㄴㅓㄹㄷㅡ	-7269
▁ㅁㅜㄴㅇㅓ	-7270
▁ㅇㅏㄹㄹㅔㄱㅅㅏㄴㄷㅓ	-7271
▁ㅎㅟㅂㅆㅏ	-7272
ty	-7273
▁ㅂㅐㄱㅎㅏㅂ	-7274
▁ㅁㅣㅅ	-7275
ㅌㅣㄹㄹㅓ	-7276
▁ㅎㅣㄹㄹㅣㅇ	-7277
▁ㄱㅜㄷㅇㅓ	-7278
▁ㄸㅏㄹㄱㅣ	-7279
▁Champ	-7280
▁Power	-7281
▁ㅉㅓㄹ	-7282
ㄷㅗㅇㅎㅏ	-7283
▁ㄱㅘㅇㅌㅏㄹ	-7284
▁GG	-7285
ㅂㅕㄴㅇㅣㄴ	-7286
▁FL	-7287
▁1964	-7288
▁Good	-7289
▁ㅇㅣㅂㄱㅜㄱ	-7290
▁ㅊㅗㅇㅇㅕㄹ	-7291
▁ㅅㅣㄹㅅㅡㅂ	-7292
ㄷㅏㄴㅈㅏㅇ	-7293
▁153	-7294
▁ㄱㅣㅁㅅㅓㄴ	-7295
▁ㅇㅐㅁ	-7296
▁ㅂㅗㄱㄷㅗ	-7297
▁na	-7298
OID	-7299
▁mar	-7300
▁ㅈㅏㅇㅇㅏㄴ	-7301
▁ㅈㅣㄱㄱㅜ	-7302
▁ㄱㅘㅇㅅㅗㄱ	-7303
▁ㅅㅓㅇㅂㅕㄱ	-7304
▁ㄷㅗㅇㅈㅗ	-7305
▁ㅎㅡㅂㅇㅕㄴ	-7306
▁ㄱㅜㄱㄷㅏㅇ	-7307
▁ㅅㅏㄹㅅㅏㅇ	-7308
▁ㄴㅔㄱㅅㅓ	-7309
ㅋㅝㄹ	-7310
▁ㅂㅗㄴㅅㅓㅇ	-7311
▁EM	-7312
▁ㅇㅑㅌ	-7313
▁ㄴㅏㅁㅈㅏㄱ	-7314
▁Fi	-7315
▁MT	-7316
▁ㅅㅓㅇㄷㅗ	-7317
▁ㅈㅣㅍ	-7318
▁177	-7319
ㄴㅏㄹㄷㅡ	-7320
▁ㄱㅕㅇㅈㅣㄹ	-7321
ㄹㅣㅂㅌㅡ	-7322
▁ㅇㅜㄴㅎㅏㅇ	-7323
▁ㅆㅜㄱ	-7324
▁ㅂㅏㄹㅇㅏㄱ	-7325
ART	-7326
ㄲㅜㅁㅊㅣ	-7327
▁ㅇㅕㄹㅍㅜㅇ	-7328
▁ㅂㅏㄷㅊㅣ	-7329
▁ㅅㅓㅇㅁㅗ	-7330
▁ㅇㅓㄹㅇㅓ	-7331
▁ㅂㅜㄴㅅㅙ	-7332
▁ㅁㅏㅈㄷㅐ	-7333
▁ㅅㅓㅇㅅㅓ	-7334
▁ㅌㅓㅇ	-7335
ㅎㅐㅇㅅㅏ	-7336
▁ㅋㅗㄴㅅㅔㅂㅌㅡ	-7337
▁1930	-7338
ㅅㅏㅇㅍㅏ	-7339
▁ㅇㅝㄴㅈㅔ	-7340
▁STR	-7341
▁ㅅㅓㄹㅅㅏㅇㄱㅏ	-7342
▁???	-7343
▁ㄱㅡㅁㅎㅗ	-7344
▁ㄴㅔㄱㅅㅡㄴ	-7345
▁Sm	-7346
▁ㅈㅓㄴㅂㅏㄴㄱㅣ	-7347
▁ㅊㅜㅇㅊㅓㅇㄴㅏㅁㄷㅗ	-7348
ㄹㅣㅅㅈㅣ	-7349
ㅇㅓㄴㅁㅐㄴ	-7350
▁1965	-7351
ㄱㅏㄱㅎㅕㅇ	-7352
▁Play	-7353
ㅌㅏㄹㄱㅣ	-7354
▁XY	-7355
▁ㅇㅘㅇㄱㅘㄴ	-7356
ㅈㅓㅇㄱㅘㄴ	-7357
▁ㄷㅏㅇㅊㅓㅁ	-7358
ㅌㅐㄴㄷㅏ	-7359
▁ㅇㅏㄱㄹㅏㄹ	-7360
▁ㄱㅏㅇㅅㅜ	-7361
▁ㅇㅕㅇㄴㅏㅁ	-7362
▁ㅎㅓㄴㄷㅔ	-7363
▁ㅇㅕㄴㅂㅣ	-7364
▁ㅁㅣㄹㅈㅣㅂ	-7365
▁ㅈㅓㅂㅈㅓㄴ	-7366
▁ㅊㅓㄴㄱㅗㅇ	-7367
▁ㄱㅏㄴㄹㅑㄱ	-7368
▁ㅍㅏㄹㅉㅣ	-7369
▁ㅈㅓㄴㅇㅕㄹ	-7370
▁ㅍㅜㅇㅈㅏ	-7371
▁ㅌㅔㅁㅍㅡㄹ	-7372
▁ㅅㅛㄴ	-7373
▁ㅇㅕㄹㅅㅔ	-7374
▁ME	-7375
▁ㄸㅒ	-7376
▁ㄱㅕㅇㄱㅘ	-7377
▁Dance	-7378
▁ㅌㅏㄴㄷㅗ	-7379
▁ㄱㅕㄹㅎㅏㅁ	-7380
▁ㅊㅏㅇㅅㅣ	-7381
▁ㅎㅜㄱ	-7382
▁ㅇㅕㄴㅎㅏ	-7383
▁ㄱㅣㅁㅇㅝㄴ	-7384
▁ㅇㅏㄱㅇㅛㅇ	-7385
▁ㅎㅏㄴㅌㅏㄴ	-7386
tr	-7387
ㅋㅡㄹㄹㅓㅂ	-7388
▁ㄸㅗㄱㄸㅗㄱ	-7389
▁cc	-7390
▁ㅎㅏㄱㅅㅜㄹ	-7391
ERS	-7392
▁ㅂㅗㄱㅁㅕㄴ	-7393
▁ㅈㅣㄴㅎㅐㅇㅈㅏ	-7394
ㅅㅏㄹㅇㅏ	-7395
▁%.	-7396
ㅅㅓㄴㄷㅗ	-7397
25	-7398
▁SO	-7399
▁260	-7400
ㅈㅜㄴㄱㅡㅂ	-7401
▁ㄱㅕㅇㅅㅓㅇ	-7402
ㅊㅜㄱㄱㅜ	-7403
▁ㅂㅏㄹㄱㅘㅇ	-7404
ㄹㅗㄴㅌㅣ	-7405
▁ㅂㅕㅇㅁㅏㅅ	-7406
▁ㅇㅏㄴㅁㅕㄴ	-7407
▁ALL	-7408
ㅈㅜㅇㅎㅣ	-7409
▁ㄱㅡㅂㅅㅣㄱ	-7410
▁137	-7411
▁ㄱㅠㄴㅇㅕㄹ	-7412
▁ㅈㅓㅇㅎㅘㄱㄷㅗ	-7413
▁Over	-7414
ㅅㅣㄹㄹㅣ	-7415
▁ㅂㅏㄴㅈㅏ	-7416
▁ㅅㅏㅇㄱㅝㄴ	-7417
ㅇㅣㄴㅈㅓㄴ	-7418
▁ㅂㅏㄴㅎㅏㅇ	-7419
air	-7420
▁WCS	-7421
ㄴㅗㄹㅇㅣ	-7422
▁ㄱㅡㄹㄹㅓ	-7423
▁ㄱㅗㅇㄹㅗ	-7424
▁ㅁㅏㄹㅁㅣ	-7425
▁Str	-7426
ㅇㅗㄹㄹㅔ	-7427
ㅇㅣㅂㄱㅜ	-7428
▁ㅈㅓㄴㅍㅗㄱ	-7429
▁ㄱㅕㅇㅈㅐㅇㅈㅏ	-7430
▁ㅇㅕㄹㅈㅓㄴ	-7431
▁ㅍㅣㄹㅇㅕㄴ	-7432
▁Ac	-7433
▁ㅇㅏㄴㅅㅓㅇ	-7434
▁FB	-7435
▁ㅅㅓㄹㅂㅣ	-7436
ㅅㅡㅇㅇㅕㅂ	-7437
▁ㅅㅕㄹㄹㅗㄱ	-7438
▁ㅇㅝㄴㄱㅗ	-7439
ㅇㅛㅇㅂㅓㅂ	-7440
▁Music	-7441
ㅍㅡㄹㄹㅏ	-7442
▁ㅊㅓㅇㄹㅑㅇ	-7443
▁ㅇㅕㄹㄹㅏㅁ	-7444
ㄹㅡㄱ	-7445
▁650	-7446
ㅇㅛㅇㅎㅐ	-7447
▁ㄱㅡㅁㄱㅗㄱ	-7448
▁ㅇㅗㄴㄱㅔ	-7449
ㅇㅣㅁㄴㅔㅅ	-7450
▁ㄹㅓㅆㄷㅏ	-7451
▁ㅅㅓㄴㄷㅐ	-7452
▁ㅅㅣㅁㅁㅜㄴ	-7453
▁ㅈㅓㄱㅅㅐㄱ	-7454
▁Ep	-7455
▁154	-7456
▁ㅅㅏㅇㅍㅛ	-7457
▁ㅅㅗㅇㄷㅗ	-7458
▁ㅋㅏㄹㄹㅗ	-7459
▁Ke	-7460
ㅌㅣㄱㅅㅡ	-7461
ittle	-7462
▁ㅇㅣㄹㅂㅗ	-7463
▁ㅇㅑㄴㄷㅔ	-7464
ㅅㅡㅇㅁㅏㄴ	-7465
▁ㅇㅝㄴㅎㅘㄹ	-7466
▁157	-7467
▁Kn	-7468
oot	-7469
▁BA	-7470
ENT	-7471
▁ㅍㅗㄹㄷㅓ	-7472
ㅁㅕㅇㅅㅏㅇ	-7473
ern	-7474
▁164	-7475
▁ㄷㅏㄷㅎㅣ	-7476
▁ㅇㅣㅁㅇㅝㄴ	-7477
▁ㅂㅏㄴㄱㅜㄴ	-7478
▁ㄱㅏㅁㅎㅣ	-7479
▁ㅂㅕㅇㄷㅏㄴ	-7480
▁ㅇㅔㄱㅅㅗ	-7481
▁ㄴㅔㅂㅌㅠㄴ	-7482
▁ㅇㅡㄴㅎㅗㄴ	-7483
ㅌㅓㄱ	-7484
▁ㅂㅏㄱㅈㅐ	-7485
▁DDR	-7486
ㅇㅣㄹㄹㅗ	-7487
▁129	-7488
ㅎㅑㅇㄱㅗㄱ	-7489
▁ㄷㅏㄴㄱㅏㄴ	-7490
▁ㅂㅏㄱㄱㅕㅇ	-7491
▁CO	-7492
▁ㅍㅕㄴㄷㅐ	-7493
ㅎㅗㅇㅊㅓㄹ	-7494
▁ㅇㅛㅇㄱㅏㅁ	-7495
▁ㅊㅏㅇㅇㅓㅂ	-7496
▁ㄱㅕㅇㅁㅐ	-7497
ㅋㅗㄱ	-7498
▁179	-7499
ㅅㅜㅇ	-7500
▁ㅈㅡㅇㄱㅣ	-7501
▁ㄱㅡㅁㅅㅓ	-7502
▁ㄷㅓㅇㅋㅡ	-7503
▁225	-7504
▁ㅇㅣㄹㄹㅕㄴ	-7505
▁ㅈㅓㅁㅅㅏ	-7506
▁ㅁㅐㄱㄷㅗ	-7507
▁ㅅㅏㅂㅎㅘ	-7508
BM	-7509
▁ㄱㅓㄴㅈㅓㄴ	-7510
▁Pv	-7511
▁ㅈㅓㅇㅈㅓㅇ	-7512
▁ㅇㅏㄱㅇㅢ	-7513
▁Comm	-7514
▁ㄱㅗㅇㄱㅘ	-7515
▁ㅇㅜㄴㅇㅜㄴ	-7516
▁ㄷㅗㅇㅊㅏㅇ	-7517
AG	-7518
▁ㅂㅜㄱㅇㅠ	-7519
▁Pre	-7520
ㅇㅣㄹㅇㅡ	-7521
▁ㄱㅜㄴㅎㅏㅁ	-7522
▁ㄷㅗㄹㅇㅣ	-7523
hammer	-7524
▁ㅇㅕㅁㄹㅕ	-7525
▁ㅇㅘㄴㅈㅓㄴㅊㅔ	-7526
ㅆㅗㄹ	-7527
▁ㄱㅘㄹ	-7528
▁ㄱㅏㅁㅈㅓㄴ	-7529
oss	-7530
▁ㅆㅗㄹㅆㅗㄹ	-7531
▁ㅊㅜㄹㅅㅓㄱ	-7532
▁ㅇㅡㄴㅎㅖ	-7533
▁out	-7534
▁ㅅㅗㅇㅊㅜㄹ	-7535
▁Korea	-7536
ㅅㅏㅇㅂㅓ	-7537
▁ㅊㅓㄴㅈㅓㄱ	-7538
▁ㅊㅜㄱㅈㅓㄱ	-7539
▁ㅊㅓㄴㄱㅖ	-7540
▁ㅋㅣㄹㄹㅗ	-7541
ㄱㅡㅂㅈㅓㄱ	-7542
▁End	-7543
ㅈㅏㅇㅍㅜㅁ	-7544
▁NHK	-7545
▁ㅈㅡㅇㅅㅔ	-7546
ield	-7547
▁Leg	-7548
▁ㄱㅕㅇㄹㅑㅇ	-7549
▁ㄱㅘㄴㄴㅕㅁ	-7550
▁ㅇㅕㄹㅂㅏㄷ	-7551
▁ㅆㅙ	-7552
▁EXH	-7553
▁GDP	-7554
▁ㄴㅜㄴㅂㅣㅊ	-7555
▁'''	-7556
▁ㅎㅗㅇㅅㅓㅇ	-7557
eng	-7558
▁256	-7559
ㅍㅓㄹ	-7560
▁ㅇㅕㅇㅈㅣㄴ	-7561
▁VOC	-7562
▁ㅅㅐㄴㅍㅡ	-7563
▁ㅋㅗㄴㅌㅣ	-7564
▁ㅂㅕㅇㅅㅏㄹ	-7565
▁Gold	-7566
▁BASIC	-7567
edia	-7568
▁ㅁㅣㄹㄹㅏ	-7569
▁ㅂㅏㅇㅎㅘㅇ	-7570
ㅅㅓㄱㅁㅣㄴ	-7571
▁ㄱㅐㅂ	-7572
ㄱㅕㄱㅊㅗㅇ	-7573
▁ㅁㅗㄱㅈㅓㄱㅈㅣ	-7574
▁ㄱㅡㅂㅎㅣ	-7575
▁ㅇㅑㅇㄱㅜㄱ	-7576
▁ㅇㅕㄴㄱㅡㅁㅅㅜㄹ	-7577
▁ㅇㅕㄱㄱㅘ	-7578
▁ㄷㅗㄹㄱㅕㄱㅅㅗ	-7579
▁Life	-7580
▁ㅇㅝㄴㅈㅗㅇ	-7581
▁ㅇㅕㄹㄱㅣ	-7582
▁yout	-7583
▁134	-7584
yn	-7585
ㅍㅓㅇ	-7586
▁1800	-7587
▁ㅅㅐㅇㅅㅏ	-7588
▁ㄱㅜㅇㅈㅣ	-7589
▁}{	-7590
▁EMP	-7591
ㄱㅘㄴㅊㅏ	-7592
▁ㄱㅗㅇㄹㅣㅂ	-7593
▁man	-7594
▁ㅅㅐㅇㅁㅜㄹㅎㅏㄱ	-7595
▁ㅁㅣㄴㅇㅝㄴ	-7596
▁ㅊㅣㄹㄹㅔ	-7597
▁JC	-7598
▁139	-7599
▁ㄱㅕㅇㄱㅏㅁ	-7600
▁ㄱㅣㅁㅎㅕㅇ	-7601
ㅇㅟㅂ	-7602
▁ㅅㅐㅇㅅㅏㄴㄹㅑㅇ	-7603
▁ㅇㅑㅇㅂㅗ	-7604
▁ㅅㅓㅁㅇㅠ	-7605
▁ㅈㅓㅇㅈㅏㅇ	-7606
ㅁㅜㄴㅅㅓ	-7607
▁ㄱㅡㅁㅎㅘ	-7608
ek	-7609
▁ㅊㅓㅁㄷㅏㄴ	-7610
inc	-7611
▁163	-7612
▁ㅎㅏㅂㅎㅏ	-7613
ㅍㅕㅇㄱㅠㄴ	-7614
▁ㅅㅣㄹㅁㅕㅇ	-7615
▁ㅇㅣㄹㅆㅜ	-7616
▁ㅇㅣㅂㅊㅔ	-7617
▁ㅋㅣㅇㅅㅡ	-7618
ㅅㅞ	-7619
▁136	-7620
▁ㅎㅚㅇㄷㅏㄴ	-7621
▁ㅅㅏㄴㅇㅏㄱ	-7622
▁142	-7623
▁IDOLM	-7624
▁ㄲㅓㄹ	-7625
▁ㅊㅜㄴㅊㅓㄴ	-7626
▁ㅁㅏㄴㄹㅛ	-7627
▁ㄷㅏㄴㅂㅐㄱ	-7628
▁ㅈㅓㄴㅇㅛㅇㄱㅣ	-7629
▁ㅌㅣㅁㅈㅏㅇ	-7630
▁176	-7631
IST	-7632
▁ㄷㅗㄱㅅㅓ	-7633
▁ㅅㅣㄴㄷㅣ	-7634
▁173	-7635
▁ㅂㅏㄹㄱㅏㄴ	-7636
▁ㅇㅚㄴㅍㅏㄹ	-7637
▁Summer	-7638
▁>,	-7639
▁ㅎㅔㄱ	-7640
▁ㄷㅗㅇㅈㅣ	-7641
▁ㅊㅣㄴㅈㅓㅇ	-7642
▁ㅁㅣㄹㄹㅏㄴ	-7643
▁ㅅㅗㄱㅇㅗㅅ	-7644
▁ㅈㅜㅇㅅㅓㅇ	-7645
▁ㅊㅜㅇㄱㅗㅇ	-7646
▁ㅂㅣㄹㄹㅏ	-7647
ㅅㅣㄴㅎㅕㅇ	-7648
▁167	-7649
▁ㅈㅓㄱㅂㅏㄹ	-7650
▁ㅌㅏㄴㅎㅐㄱ	-7651
▁ㅃㅑㅁ	-7652
▁ㄱㅡㄹㄹㅐ	-7653
▁ㄱㅓㄹㅅㅡ	-7654
ㅂㅔㄹㄹㅣ	-7655
ㅌㅡㄹㄹㅣㅇ	-7656
ㅈㅜㅇㄱㅜㄱ	-7657
▁TO	-7658
ㅁㅏㅌ	-7659
▁ㅈㅣㄴㅇㅔ	-7660
▁co	-7661
▁XXX	-7662
ㄷㅗㅇㅇㅝㄴ	-7663
▁RC	-7664
▁ㅍㅏㄹㅇㅏ	-7665
▁ㅂㅏㄹㅅㅏㅇ	-7666
▁ㅇㅡㅇㅎㅏ	-7667
▁ㅇㅣㅁㅈㅣㄴㅇㅙ	-7668
▁OR	-7669
irst	-7670
ㅇㅜㄴㅌㅣ	-7671
▁ㅇㅕㄴㅅㅡㅂㅅㅐㅇ	-7672
ㅅㅣㄴㅈㅓㄴ	-7673
ㅁㅜㄴㅈㅏ	-7674
▁ㄷㅏㅇㄷㅏㅇㅎㅣ	-7675
▁ㅌㅜㅁ	-7676
ㅇㅛㅇㄷㅗㄹㅇㅣ	-7677
ㅎㅐㅇㅇㅟ	-7678
▁ㄴㅗㄴㅎㅏ	-7679
ㅁㅓㅅㄷㅐ	-7680
▁ㅌㅣㅁㅋㅣㄹ	-7681
▁NL	-7682
▁ㄷㅗㅇㄹㅗ	-7683
▁ㅇㅑㅇㅎㅗ	-7684
▁ㄱㅡㅁㄱㅣ	-7685
▁ㅈㅣㄱㅁㅜ	-7686
▁ㅍㅗㄱㅅㅏ	-7687
▁ㅊㅜㄹㅁㅗㄹ	-7688
gain	-7689
▁ㄱㅓㅁㅇㅡㄴㅅㅐㄱ	-7690
▁MR	-7691
ㅆㅏㄱ	-7692
▁ㅁㅣㄹㅊㅣ	-7693
▁ㅌㅐㄱㅂㅐ	-7694
▁ㅎㅏㄱㄱㅖ	-7695
▁ㅎㅗㄹㄷㅣㅇ	-7696
▁ㅅㅣㅁㅅㅣㅁㅊㅏㄶ	-7697
▁149	-7698
ual	-7699
ㅇㅓㄹㄱㅓ	-7700
ㅇㅓㅁㅅㅡ	-7701
▁ㄱㅗㄱㅅㅓㄴ	-7702
▁LCD	-7703
▁ㄱㅣㅁㅁㅕㅇ	-7704
▁XP	-7705
ㅅㅜㅁㅇㅔ	-7706
▁ㅂㅜㄹㅁㅕㄹ	-7707
▁ㄷㅏㄴㅅㅜㅁㅇㅔ	-7708
▁VOCAL	-7709
ㅇㅞㄴ	-7710
▁ㅅㅏㅇㅅㅗㄱ	-7711
ㅈㅏㅇㄴㅏ	-7712
▁Win	-7713
▁ㅁㅏㅇㄹㅕㅇ	-7714
▁999	-7715
▁143	-7716
▁King	-7717
▁ㅇㅔㄹㅅㅗ	-7718
▁ㅇㅝㄴㅊㅓㄴ	-7719
aj	-7720
▁SG	-7721
ㅅㅓㅇㄴㅕㄴㅈㅏ	-7722
▁ㅊㅓㄴㅇㅕㄴㄱㅏ	-7723
ㅇㅓㅇ	-7724
▁ㅊㅓㄴㅎㅘㅇ	-7725
▁ㄱㅕㅇㅇㅣㄴ	-7726
▁ㅇㅑㅇㅊㅡㄱ	-7727
▁ㅅㅗㄴㅂㅏ	-7728
▁ㅍㅔㄱ	-7729
▁Can	-7730
▁ㄱㅏㅇㅈㅓㄱ	-7731
ㄱㅏㅌㅇㅣ	-7732
▁ㅁㅐㅁ	-7733
▁ㅁㅏㄹㅅㅗ	-7734
▁ㄷㅏㄴㅅㅓㄴ	-7735
ㄱㅕㄹㅅㅡㅇ	-7736
▁ㄴㅡㅈㅊㅜ	-7737
▁380	-7738
ㄷㅓㅍ	-7739
▁......	-7740
▁ㅊㅜㅇㅂㅜㄱ	-7741
▁SW	-7742
ㅈㅏㄱㅈㅓㅇ	-7743
▁1961	-7744
▁ONE	-7745
▁Out	-7746
▁ㅅㅏㄴㅊㅐㄱ	-7747
▁UFO	-7748
▁ㅅㅓㄴㄱㅗㄱ	-7749
▁This	-7750
▁ㅁㅣㄴㅇㅕㅇ	-7751
▁ㄱㅜㄱㄹㅕㄱ	-7752
ㄲㅐㅇ	-7753
▁Cy	-7754
▁ㅈㅏㄱㅅㅏㄹ	-7755
▁u	-7756
▁Int	-7757
▁What	-7758
▁ㄴㅏㅁㄷㅗㅇ	-7759
ㅎㅐㅇㅅㅓㄴ	-7760
▁ㅈㅓㅇㅂㅓㄹ	-7761
▁ㅎㅐㅇㅅㅓㄴ	-7762
▁UI	-7763
ㅇㅕㄱㄱㅜ	-7764
▁ㅅㅜㄴㅈㅣㄴ	-7765
▁Da	-7766
ㄹㅔㄴㅈㅡ	-7767
▁ㅈㅓㄱㅈㅣㄴ	-7768
▁6000	-7769
▁MD	-7770
▁ㅂㅏㄱㄱㅕㄱ	-7771
▁ㄱㅕㅇㅈㅓㄴㅊㅓㄹ	-7772
ube	-7773
ㅅㅜㄹㄱㅏ	-7774
▁ㅁㅗㄱㅈㅐ	-7775
▁ㅅㅐㅁㅍㅡㄹ	-7776
ㅈㅜㄴㅎㅕㄱ	-7777
YP	-7778
▁ㅅㅐㄱㅊㅐ	-7779
▁ㅈㅜㅇㅅㅏ	-7780
▁ㄴㅜㄴㅆ	-7781
▁ㄱㅗㅇㅇㅣㄱ	-7782
▁ㅎㅘㄱㅇㅕㄴㅎㅣ	-7783
▁AG	-7784
ㅇㅜㄹㄹㅓ	-7785
▁FR	-7786
ㅅㅇㅣㅍ	-7787
▁Vo	-7788
▁ㅂㅏㅇㄱㅘ	-7789
▁ㅅㅗㄴㄴㅕ	-7790
▁ㄱㅏㅇㅂㅕㄴ	-7791
▁ㅎㅏㄴㅅㅡ	-7792
▁ㅂㅜㄴㅅㅏ	-7793
ATION	-7794
▁ㅅㅓㄴㅍㅜㅇ	-7795
▁ㅃㅗㅁㄴㅐ	-7796
▁ㄱㅘㅇㅂㅓㅁ	-7797
▁ㅍㅕㄴㅇㅏㄴ	-7798
▁Hard	-7799
ady	-7800
▁Live	-7801
▁ㄷㅐㄴㅅㅓ	-7802
ㅁㅕㅇㅅㅔ	-7803
▁ㅂㅜㄴㅈㅏ	-7804
▁ㅈㅓㄻㅇㅡㄴㅇㅣ	-7805
▁tvN	-7806
▁ㅈㅏㄱㅇㅏ	-7807
▁ㅎㅔㄹㅅㅡ	-7808
ㅊㅏㅇㄹㅕㄱ	-7809
▁ㅈㅜㅇㄹㅕㅇ	-7810
▁ㄷㅏㄴㅁㅏㄹㄱㅣ	-7811
ㅎㅗㅂ	-7812
▁ㅇㅕㅇㅂㅜㄴ	-7813
▁ㄸㅗㄹ	-7814
ㅇㅣㅍ	-7815
▁MASTER	-7816
▁121	-7817
▁ㄱㅏㅇㅇㅠ	-7818
▁ㅂㅜㄱㅂㅏㅇ	-7819
▁NS	-7820
riend	-7821
▁ㅂㅐㄱㅁㅣ	-7822
ㅇㅓㄴㅈㅓㅇ	-7823
▁ㅊㅓㅅㄴㅏㄹ	-7824
▁ㅊㅣㄴㅇㅣㄹ	-7825
▁ㅃㅏㄱㅅㅔ	-7826
▁ㄹㅐㅁㅍㅡ	-7827
▁ㄱㅕㅇㅅㅜㄴ	-7828
▁ㅊㅜㅇㄱㅗㅇㄲㅐㅇ	-7829
▁ㅁㅔㄹㄹㅗㄴ	-7830
▁ㅈㅏㅁㄱㅡ	-7831
▁ㅋㅏㄴㄴㅏ	-7832
▁ㅎㅕㄴㅁㅕㅇ	-7833
▁SEED	-7834
▁ㅂㅐㄱㅅㅣㄴ	-7835
▁ㅆㅡㅂ	-7836
▁ㅂㅗㄴㄷㅡ	-7837
let	-7838
ush	-7839
ㅇㅘㅂ	-7840
▁ㅊㅓㅇㅅㅐㄱ	-7841
▁ㅇㅣㅂㅁㅏㅅ	-7842
▁ㅎㅏㄴㅅㅣㅁ	-7843
▁ㅁㅠㄹ	-7844
▁ㅎㅘㄴㄱㅏㄱ	-7845
▁ㅈㅓㄴㄱㅛ	-7846
▁ㅂㅗㅇㅎㅘㅇ	-7847
IV	-7848
eet	-7849
▁174	-7850
ㅇㅕㄴㅅㅡ	-7851
ㄷㅓㄴㅌㅡ	-7852
▁ㄱㅕㄴㅇㅣㄴ	-7853
▁ㄱㅘㅇㅂㅓㅁㅇㅟ	-7854
▁Act	-7855
▁ㅇㅣㅂㅅㅜㄹ	-7856
▁ㅊㅏㅇㅂㅕㅇ	-7857
▁ㅅㅓㄹㄹㅔ	-7858
ㅂㅏㄴㅈㅓㄴ	-7859
▁ㅊㅣㄱ	-7860
iew	-7861
▁ㄷㅡㅇㄱㅛ	-7862
▁ㅅㅣㄴㄱㅗㅇ	-7863
▁ㅈㅣㅇㅂㅕㅇ	-7864
▁ㅈㅏㅇㄷㅗㅇㅁㅣㄴ	-7865
▁ㅁㅣㅂ	-7866
▁ㅍㅓㄹㅅㅡ	-7867
▁ㅎㅡㄱㄹㅛㅇ	-7868
RAM	-7869
▁ㄱㅗㅇㄷㅗㅇㅊㅔ	-7870
ㅅㅛㅂ	-7871
▁ㅊㅗㅇㄱㅘㄹ	-7872
▁ㅃㅏㄹㄱㅏㅇ	-7873
▁ㅍㅏㄴㅂㅗㄴ	-7874
ㄹㅟ	-7875
ㅅㅡㅇㅎㅕㄴ	-7876
▁ㅂㅓㅁㅎㅐㅇ	-7877
▁ㅈㅗㄴㅅㅗㄱ	-7878
▁ㄱㅜㄱㅅㅏ	-7879
▁ㄴㅓㅁㅊㅕ	-7880
▁ㅈㅜㄴㅈㅏㅇ	-7881
ㅇㅞㅂ	-7882
ㅇㅡㄱ	-7883
▁ㅅㅜㄱㅇㅣ	-7884
▁ㅇㅘㅇㅈㅘ	-7885
ational	-7886
ㅇㅓㄹㄹㅣ	-7887
▁ㅂㅐㄱㅅㅐㄱ	-7888
▁ㅇㅙㄴㅁㅏㄴ	-7889
▁ㅇㅛㅇㅁㅐㅇ	-7890
rain	-7891
ㄱㅅㅕㄴ	-7892
ㅁㅜㄴㅌㅡ	-7893
UC	-7894
▁205	-7895
ORE	-7896
▁ㅇㅕㅇㅊㅏㅇ	-7897
▁ㅇㅝㄴㄱㅕㄱ	-7898
▁ㅎㅏㅂㅊㅏㅇ	-7899
▁TD	-7900
▁ㅈㅓㅇㄱㅓ	-7901
▁ㄱㅏㅇㅅㅓㅇ	-7902
▁ㅂㅕㄴㅈㅣㄹ	-7903
ane	-7904
▁ㄱㅝㄴㄴㅡㅇ	-7905
▁ㅊㅜㅇㅅㅓㅇㅅㅣㅁ	-7906
▁VOCALOID	-7907
▁ㅅㅏㄹㅇㅣㄴㅁㅏ	-7908
▁Air	-7909
▁ㅇㅗㅁㄴㅣ	-7910
ㅈㅣㅂㅎㅣ	-7911
▁ㅈㅣㄴㄹㅛ	-7912
ㅇㅜㄴㅈㅓㄴ	-7913
▁ㅂㅗㄴㅁㅜㄴ	-7914
▁ㅅㅗㄱㄱㅗㅇ	-7915
▁ㅇㅠㄱㅂㅏㄱ	-7916
bps	-7917
▁ㅇㅛㄱㅎㅏ	-7918
▁ㅈㅓㅁㄱㅓ	-7919
▁ㅈㅓㄴㄴㅕㄴ	-7920
▁ㄱㅗㄹㄹㅣ	-7921
▁ㄱㅘㄴㅈㅔ	-7922
▁ㅇㅕㄴㅎㅢ	-7923
▁ㅎㅡㄱㅂㅐㄱ	-7924
▁ㄷㅏㄴㅂㅐㄱㅈㅣㄹ	-7925
▁ㅎㅐㄱㅁㅜ	-7926
▁ㄱㅜㄴㅅㅏㄴ	-7927
▁ㅍㅕㅇㅁㅣㄴ	-7928
UE	-7929
▁ㅍㅏㄴㄱㅘ	-7930
ㄹㄹㅓㅅ	-7931
▁ㅅㅣㄴㅅㅡ	-7932
▁ㅇㅡㄴㅁㅣㄹ	-7933
▁time	-7934
▁CB	-7935
▁ㅅㅓㄹㄷㅡㄱㄹㅕㄱ	-7936
▁ㅇㅘㄴㅅㅜ	-7937
▁ㄱㅏㅇㅍㅏㄴ	-7938
ita	-7939
▁ㄱㅘㄴㅇㅏㄱ	-7940
▁ㅂㅗㄴㄱㅜㄱ	-7941
▁Warhammer	-7942
▁ㄲㅓㄲㅇㅣ	-7943
ㅎㅚㄱㅅㅏ	-7944
▁ㅈㅓㄴㅈㅓㄴ	-7945
▁ㅅㅣㅁㅍㅗ	-7946
▁1943	-7947
▁sc	-7948
▁ㅇㅘㅇㄸㅏ	-7949
▁ㅇㅣㅁㅍㅔ	-7950
▁ㅈㅓㅇㄱㅖ	-7951
▁ㅎㅏㄱㅊㅏㅇ	-7952
▁1942	-7953
▁ㅈㅣㄴㄱㅏ	-7954
▁ㅊㅓㅁㄱㅏ	-7955
▁ㅎㅕㄴㅈㅣㄱ	-7956
▁ㅎㅕㄴㅈㅗㄴ	-7957
▁ㄴㅏㄱㅇㅣㄴ	-7958
▁ㅅㅓㅇㄴㅕ	-7959
▁ㅌㅡㄱㄱㅗㅇㄷㅐ	-7960
▁TG	-7961
ㅌㅜㄱㅌㅟ	-7962
▁ㅊㅓㅇㅅㅏㄴ	-7963
▁ㅊㅐㄱㄹㅑㄱ	-7964
here	-7965
▁ㄷㅏㄴㅈㅗ	-7966
▁ㅎㅔㄹㄹㅔ	-7967
▁ㅇㅣㄴㅂㅔㄴㅌㅗ	-7968
▁OPS	-7969
▁ㄱㅓㄹㅈㅏㄱ	-7970
ㅇㅛㅇㅊㅏ	-7971
▁ㄴㅔㄱㅅㅡ	-7972
▁ㅇㅕㄱㅎㅏㄱ	-7973
▁ㄱㅕㄱㄹㅣ	-7974
▁ㅅㅓㅇㅊㅔ	-7975
▁ㅂㅐㄱㄹㅛㅇ	-7976
▁ㄱㅏㅂㅌㅜㄱㅌㅟ	-7977
ness	-7978
▁ㅅㅓㄴㅎㅕㅇ	-7979
▁..'	-7980
ㅅㅏㅇㅅㅏ	-7981
▁ㄱㅕㅇㅇㅢ	-7982
▁ㅇㅣㄴㄴㅐ	-7983
▁ㅎㅓㄴㅅㅣㄴ	-7984
▁ll	-7985
▁Cat	-7986
▁ㅈㅣㄴㅈㅏㄱ	-7987
ㄹㅣㄴㅇㅐ	-7988
▁ㅁㅏㄱㅂㅏ	-7989
▁ㅅㅏㄹㅍㅣ	-7990
ㄸㅜㄹ	-7991
ㅅㅖㄹ	-7992
▁ㅂㅓㄴㅌㅡ	-7993
▁la	-7994
▁ㅅㅗㅇㅇㅣ	-7995
▁ㅅㅞㄹ	-7996
▁Hell	-7997
ㅎㅡㄺ	-7998
▁ㅈㅣㄴㄱㅗㅇ	-7999
ㅇㅐㄴㅈㅔㄹㄹㅔ	-8000
ne	-8001
▁ㄱㅏㄱㅅㅐㄱ	-8002
▁ㅈㅏㅇㅇㅝㄴ	-8003
▁ㅅㅗㄱㅂㅏㄱ	-8004
▁BF	-8005
▁ㅈㅣㅂㅈㅓㅇㄱㅘㄴ	-8006
▁ㅈㅜㄴㅇㅣ	-8007
ㅈㅓㅇㅎㅜㄴ	-8008
ㅂㅓㅁㅈㅚ	-8009
▁ㄷㅏㄴㄷㅏ	-8010
▁ㅎㅘㄹㅈㅜ	-8011
▁ㅇㅕㄱㅈㅓㄴㅈㅐ	-8012
▁Sound	-8013
▁At	-8014
▁ㅋㅝㄹㅋㅓㅁ	-8015
▁ㄷㅏㄴㅅㅣㄴ	-8016
▁ㅈㅡㄱㄱㅏㄱ	-8017
▁ㅅㅏㅁㄱㅓ	-8018
▁ㄱㅕㅇㅈㅏㅇ	-8019
ㅍㅣㅇㅋㅡ	-8020
▁ㅇㅓㄴㄹㅏㄱ	-8021
▁ㅂㅏㄱㅎㅐ	-8022
ㅈㅣㅂㅇㅓ	-8023
ret	-8024
▁ㅁㅗㄱㅇㅛ	-8025
▁ㅅㅓㄱㅅㅏ	-8026
▁ㅇㅏㄹㄹㅜ	-8027
▁ㅅㅗㅇㅂㅕㅇ	-8028
▁Res	-8029
itch	-8030
▁ㅅㅏㅇㅎㅚ	-8031
ㅈㅣㄹㄱㅣ	-8032
▁ㅈㅜㄴㄱㅕㄹㅅㅡㅇ	-8033
▁ㅇㅡㄴㅁㅔ	-8034
EX	-8035
ㅇㅡㅁㄱㅣ	-8036
▁SKE	-8037
▁ㄲㅡㄴㅈㅣㄹㄱㅣ	-8038
▁ㄲㅡㅌㅍㅏㄴ	-8039
ㅌㅡㄹㅍㅣㄹㄷㅡ	-8040
▁ㅎㅏㄴㅅㅜㅁ	-8041
▁ㅅㅓㄴㅈㅣㄴㄱㅜㄱ	-8042
▁1920	-8043
eth	-8044
▁ㄷㅏㄹㅂㅣㅊ	-8045
▁ㄹㅏㄹㄲㅏ	-8046
▁ㄴㅏㄴㅍㅗㄱ	-8047
ㅈㅏㄱㅈㅓㄴ	-8048
▁GX	-8049
▁id	-8050
▁ㄱㅣㅍㅅㅜㄱ	-8051
▁q	-8052
▁ㅂㅗㄹㅍㅡ	-8053
ㅂㅏㄷㅊㅣㅁ	-8054
▁GR	-8055
ㄹㅓㄱㅅㅡ	-8056
▁night	-8057
▁EA	-8058
▁ㅇㅓㅁㅈㅣ	-8059
▁ㅇㅠㄱㅈㅣ	-8060
ㅂㅗㄴㅈㅜ	-8061
▁ㅇㅣㅇㅋㅡ	-8062
▁ㅅㅓㄴㄱㅜ	-8063
▁ㅊㅏㅇㅇㅝㄴㅅㅣ	-8064
▁ㅅㅣㄹㅁㅜ	-8065
na	-8066
ㅊㅗㅇㄹㅣ	-8067
▁ㅈㅜㄴㄱㅗㅇ	-8068
IGHT	-8069
▁Rec	-8070
ㅋㅣㄴㅅㅡ	-8071
▁ㅅㅣㄴㅊㅜㄱ	-8072
▁Hy	-8073
▁ㅁㅝㅅ	-8074
▁ㄱㅏㅇㅎㅐㅇ	-8075
▁ㅅㅓㅇㄱㅓㅁ	-8076
ㅃㅣ	-8077
▁ㄱㅕㄱㄷㅗㄹ	-8078
▁ㅅㅓㄹㅅㅏ	-8079
▁ㅈㅓㅇㅈㅏ	-8080
▁1946	-8081
▁org	-8082
▁ㅋㅗㄴㅋㅡ	-8083
ㄱㅑ	-8084
▁ㅎㅗㅇㄷㅐ	-8085
eath	-8086
ㅍㅣㅇㅁㅗㄹ	-8087
▁ㄴㅡㅇㅇㅛㄱ	-8088
▁147	-8089
▁ㅅㅓㅁㅅㅔ	-8090
▁ㅈㅣㄴㄴㅏ	-8091
▁ㅂㅜㄹㅅㅣㄴ	-8092
▁ㄹㅐㄴㄷㅣ	-8093
ㅇㅣㄴㄷㅓ	-8094
▁ㅂㅏㄱㅇㅛㅇ	-8095
▁ㅈㅏㄴㄷㅏㅇ	-8096
ㅇㅣㄴㄱㅣ	-8097
OO	-8098
▁ㅂㅏㄱㅅㅏㅇ	-8099
▁GK	-8100
▁Big	-8101
▁ㅈㅗㄱㅈㅏㅇ	-8102
▁ㅇㅔㅁㅍㅏ	-8103
▁ㅇㅟㄹㅅㅡㄴ	-8104
▁ㅍㅗㄱㅂㅏㄹㅁㅜㄹ	-8105
▁ㅁㅏㄴㅅㅔ	-8106
▁`	-8107
▁Heav	-8108
ㅇㅝㄴㅅㅜ	-8109
▁ㅍㅗㄱㅍㅗ	-8110
▁ㅂㅕㅇㅅㅣㄴ	-8111
▁ㅁㅜㄴㅎㅓㄴ	-8112
▁Des	-8113
▁ㅅㅏㅇㅂㅏㄴㄱㅣ	-8114
▁146	-8115
▁ㅊㅓㄴㄹㅣ	-8116
▁ㅋㅔㄹㄹㅣ	-8117
▁ㄱㅗㅇㅂㅕㅇ	-8118
▁ㅈㅡㅇㅎㅜ	-8119
▁ㅂㅗㅇㄱㅣ	-8120
ㅂㅡㄹㄹㅣㅅ	-8121
ㅂㅏㅇㅅㅏ	-8122
▁ㄱㅕㅇㅅㅣ	-8123
▁ㄷㅏㅇㅂㅜㄴ	-8124
▁like	-8125
▁ㅅㅓㅂㅇㅚ	-8126
▁ㅃㅏㄱㅃㅏㄱ	-8127
▁ㅅㅑㄴ	-8128
▁ㅁㅏㄴㄷㅜ	-8129
▁ㅊㅣㅇㅅㅗㅇ	-8130
▁ㄱㅓㅌㅂㅗ	-8131
▁ㄴㅏㄴㅎㅐ	-8132
▁Battle	-8133
▁ㅂㅓㅂㅎㅏㄱ	-8134
▁ㅇㅕㅁㅅㅗ	-8135
▁ㅁㅣㄴㅈㅗㄱㅈㅜ	-8136
ORM	-8137
▁ㄲㅗㄱㄷㅜ	-8138
ㅅㅓㄹㅌㅡ	-8139
asy	-8140
ㄱㅐㅇ	-8141
▁ㄱㅘㄴㄷㅐ	-8142
▁ㄷㅏㄴㄱㅓ	-8143
▁ㅂㅏㄴㅊㅣㄱ	-8144
▁ㅃㅓㅇㅌㅟ	-8145
▁ㄱㅣㅁㅊㅏㅇ	-8146
ny	-8147
▁ㅎㅐㅇㅌㅐ	-8148
ven	-8149
▁ㄴㅏㅁㅇㅑㅇㅈㅜ	-8150
▁ㅂㅏㄴㅎㅘㄴ	-8151
ALL	-8152
▁ㅇㅐㄱㅅㅔㄹ	-8153
▁ㅇㅑㅇㄴㅕㅁ	-8154
▁ㅇㅑㅇㅁㅕㄴ	-8155
▁Mod	-8156
▁ㄴㅏㅁㄱㅡㄱ	-8157
▁ㅅㅣㅁㅇㅕㄴ	-8158
▁222	-8159
▁fl	-8160
▁ㄷㅗㅇㅁㅔ	-8161
ㄹㄹㅣㄴㅈㅓ	-8162
▁ㅅㅓㅇㄱㅠㄴ	-8163
ㅅㅋㅗ	-8164
▁news	-8165
▁ㄴㅏㄹㄹㅏ	-8166
▁Che	-8167
▁ㅆㅡㅂㅆㅡㄹ	-8168
arm	-8169
ㅎㅏㄴㅎㅏㅇㄱㅗㅇ	-8170
ㄴㅜㄱ	-8171
▁ㅅㅓㅇㄱㅠㄴㄱㅘㄴ	-8172
▁ㅇㅕㄱㄱㅘㄴ	-8173
▁ㅇㅓㄴㅎㅐㅇ	-8174
▁ㅋㅗㄹㄹㅗㅁㅂㅣ	-8175
ㄱㅡㅁㄱㅏ	-8176
▁ㅇㅏㄴㅂㅗ	-8177
▁ㅈㅡㅁ	-8178
▁ㅂㅔㄴㅌㅡ	-8179
▁1941	-8180
▁204	-8181
▁ㅂㅏㄱㄱㅕㄱㅍㅗ	-8182
▁ㅇㅏㅇㄹㅣ	-8183
▁ㄷㅏㅁㄷㅏㅇㅈㅏ	-8184
ㄲㅜㄹ	-8185
▁ㅇㅛㅇㅎㅗ	-8186
▁ㄱㅓㅁㄷㅗ	-8187
▁ㅂㅐㄹㄹㅣ	-8188
▁ㅊㅜㅇㅈㅜ	-8189
▁ㅁㅏㄴㄹㅜ	-8190
▁ㅍㅣㄱㅅㅣ	-8191
ㅂㅡㄹㄹㅜ	-8192
▁ㅂㅏㄹㄷㅗ	-8193
▁ㅈㅏㄱㅂㅕㄹ	-8194
▁ㅊㅜㄹㅅㅔ	-8195
ouse	-8196
▁ㄲㅘㅇ	-8197
▁ㅈㅗㅇㅇㅣㄹ	-8198
ㅁㅓㄱㅇㅣ	-8199
▁ㅎㅏㄱㅎㅚ	-8200
▁166	-8201
▁ㅂㅣㄱㅌㅓ	-8202
ㄱㅡㅇ	-8203
▁1600	-8204
▁ㅌㅔㅁㅍㅗ	-8205
▁ㅅㅏㄹㄹㅏ	-8206
▁but	-8207
▁Sing	-8208
▁ㅂㅐㄱㅅㅜ	-8209
ㅇㅣㄴㅅㅡ	-8210
▁ㅈㅓㄱㄹㅛ	-8211
▁ㅈㅏㄱㄹㅕㄹ	-8212
ㅇㅕㅇㅅㅜ	-8213
▁ㅅㅣㅇㅇㅓ	-8214
▁ㄱㅣㅁㅈㅓㅇㅇㅣㄹ	-8215
ru	-8216
▁ㅋㅓㄴㅌㅔ	-8217
▁ㅋㅔㄴㅅㅣ	-8218
▁ㅈㅜㄹㄱㅗㄷ	-8219
ㄹㅣㅁㅅㅡㄴ	-8220
▁ㅇㅘㅇㄱㅜㅇ	-8221
▁ㅇㅔㅁㅂㅡㄹㄹㅔㅁ	-8222
▁ㅅㅐㅇㅁㅗㄹ	-8223
▁ㅊㅗㅇㅌㅗㅇ	-8224
▁ㅌㅡㄹㄹㅣㅁ	-8225
▁SSR	-8226
ㅌㅐㄴㅅㅡ	-8227
▁ㅈㅓㄴㄹㅠ	-8228
▁ㄱㅘㅇㅅㅣㄴ	-8229
ㅈㅓㅇㅅㅏ	-8230
▁RAM	-8231
▁ㄱㅏㄱㄱㅣ	-8232
▁ㅅㅔㄹㅍㅡ	-8233
▁ㅇㅐㄴㄷㅓ	-8234
▁ㅂㅐㄴㅅㅣ	-8235
ㅋㅜㄴ	-8236
ㄷㅙ	-8237
▁1958	-8238
▁ㅎㅑㅇㄱㅣ	-8239
▁ㅍㅏㄹㄲㅜㅁㅊㅣ	-8240
ㅈㅓㄴㄱㅣ	-8241
▁ㅅㅣㄹㅂㅣ	-8242
▁ㄱㅜㄱㅁㅜㄹ	-8243
▁1954	-8244
▁ㅃㅏㅇㅃㅏㅇ	-8245
▁ㅋㅡㄹㄹㅏㄱ	-8246
ㅌㅓㅂ	-8247
▁ㅇㅛㄱㄱㅜ	-8248
▁ㅉㅗㅈㅇㅏ	-8249
▁ㄷㅓㄱㅌㅐㄱ	-8250
▁Edition	-8251
ㄲㅗㄹ	-8252
▁ㅅㅏㄴㅎㅘ	-8253
▁ㅈㅓㅇㅈㅗㅇ	-8254
▁ㅋㅗㅅ	-8255
▁ㅈㅣㄴㅎㅡㅇ	-8256
▁ㅇㅏㄹㅋㅗ	-8257
▁ㅁㅜㄹㄷㅡㄹ	-8258
ari	-8259
▁ㅂㅓㅂㅇㅏㄴ	-8260
ㅇㅕㄹㅊㅏ	-8261
▁ㄴㅏㄴㄷㅗㅇ	-8262
ㅈㅓㅇㅎㅗ	-8263
ount	-8264
ㄹㅣㅅㅅㅜ	-8265
ina	-8266
▁ㅈㅏㅇㄹㅐ	-8267
▁ㅇㅏㄴㄴㅏ	-8268
▁ㄷㅗㅇㅁㅕㅇㅇㅣ	-8269
▁ㅍㅗㄱㄷㅗㅇ	-8270
ㄹㅓㅁㅁㅐ	-8271
ㅇㅕㅇㅈㅏㅇ	-8272
▁ㅈㅗㄹㅈㅣ	-8273
ㄱㅗㄱㄷㅗㅇ	-8274
▁ㅇㅘㅇㄱㅓㄴ	-8275
ㄸㅗ	-8276
▁DB	-8277
▁ㄴㅏㄱㅇㅝㄴ	-8278
▁ㅂㅏㄱㅈㅜㄴ	-8279
▁ㅂㅜㄱㄱㅡㄱ	-8280
▁ㅇㅣㄴㅁㅣㄴㄱㅗㅇㅎㅘ	-8281
▁ㅇㅕㄱㅂㅕㅇ	-8282
▁ㅇㅣㅅㅅㅔ	-8283
▁ㅈㅗㅈ	-8284
ivers	-8285
cl	-8286
ㄹㅣㄴㅌㅡ	-8287
▁ㅁㅕㅇㅇㅘㅇ	-8288
▁know	-8289
ㄷㅣㅈㅊㅣ	-8290
▁ㄱㅏㄹㄹㅐ	-8291
▁ㅂㅏㅇㅂㅕㄱ	-8292
▁ㅇㅕㄴㄹㅜ	-8293
▁ㄱㅣㅁㅌㅐㄱㅇㅛㅇ	-8294
▁if	-8295
▁ㅉㅓ	-8296
ㅌㅐㄴㄷㅣㅇ	-8297
▁ㅈㅣㄴㅅㅜㄹ	-8298
▁Song	-8299
▁ㅅㅡㅇㄱㅣ	-8300
▁ㅋㅗㄴㅌㅔ	-8301
▁ㅈㅜㄹㅈㅜㄹㅇㅣ	-8302
▁ㅇㅏㅁㅅㅡ	-8303
▁ㄱㅏㅇㅌㅣㅁ	-8304
▁ㅁㅔㄱ	-8305
▁ㅈㅗㅂㅎㅣ	-8306
▁KD	-8307
▁ㅅㅗㄴㅇㅏ	-8308
ㄱㅗㅇㅈㅜ	-8309
▁ㅌㅏㄹㅇㅗㄱ	-8310
▁ㄷㅡㅁ	-8311
ㄹㅏㄴㅊㅡ	-8312
HN	-8313
▁XC	-8314
▁ㅊㅓㄴㄷㅗ	-8315
▁ㅇㅐㄱㅌㅡ	-8316
▁ㅋㅡㄹㄹㅣㅂ	-8317
▁ㅍㅕㅇㅊㅏㅇ	-8318
ㅇㅠㄱㅂㅜ	-8319
▁ㅂㅕㄴㅈㅗㅇ	-8320
▁1948	-8321
▁SV	-8322
▁ㄴㅏㄴㅌㅜ	-8323
ㅅㅗㄹㄹㅣㄴ	-8324
▁ㅌㅡㄱㅎㅓ	-8325
▁But	-8326
▁8000	-8327
▁Magic	-8328
▁ㄱㅣㅁㅈㅓㅇㅇㅡㄴ	-8329
▁ㅇㅣㄹㅈㅣㄱ	-8330
▁ㄱㅣㅁㅇㅕㅇㅅㅏㅁ	-8331
use	-8332
▁im	-8333
▁ㅅㅓㅇㅇㅝㄴ	-8334
▁Run	-8335
ㅋㅗㄹㄹㅗ	-8336
ㅋㅣㅂ	-8337
▁ㅅㅓㅇㅊㅐ	-8338
▁1949	-8339
ㅁㅓㅁ	-8340
▁090	-8341
▁ㄷㅏㄴㅇㅕㄴ	-8342
ㅌㅣㄹㄹㅣ	-8343
▁ㅎㅏㄴㄱㅏ	-8344
ters	-8345
ㄱㅕㄱㄷㅐ	-8346
ㅅㅡㅇㅎㅘㄴ	-8347
▁340	-8348
▁ㅇㅝㄴㅇㅓ	-8349
▁ㅇㅗㄱㅌㅏ	-8350
▁ㄷㅡㅇㅅㅏㄴ	-8351
▁ㅎㅏㄹㄷㅏㅇ	-8352
OUR	-8353
▁ㅂㅏㅇㄷㅐ	-8354
ㅂㅕㅇㅎㅗ	-8355
ㄱㅏㄱㅅㅓㄴ	-8356
▁ㅅㅣㄴㅇㅝㄴ	-8357
▁ㄷㅗㅇㄱㅡㅂㅅㅐㅇ	-8358
▁ㅇㅕㅇㄹㅏㄱ	-8359
ㅂㅏㅇㅅㅣㄱ	-8360
ㅇㅡㅁㄲㅓㅅ	-8361
▁ㅇㅡㅁㅇㅑㅇ	-8362
ars	-8363
▁ㅍㅕㅇㅇㅏㄴ	-8364
▁ㅎㅐㅁㅂㅓ	-8365
▁ㄷㅏㄴㅈㅓㄹ	-8366
▁Ab	-8367
▁ㅈㅣㄱㄱㅘㄴ	-8368
▁ㅋㅏㄹㄹㅓㅁ	-8369
erm	-8370
▁ㅅㅡㅇㅎㅏ	-8371
▁BBC	-8372
ke	-8373
su	-8374
▁ㅂㅔㅇ	-8375
▁ㅎㅏㄴㅈㅗ	-8376
▁333	-8377
▁ㅇㅗㄴㅎㅘ	-8378
ㅊㅓㄴㄷㅗㅇ	-8379
▁ㅍㅕㅇㅇㅝㄴ	-8380
▁ㅊㅓㄹㅂㅕㄱ	-8381
▁ㅂㅣㄴㅅㅏ	-8382
▁ㅇㅣㄴㅈㅡ	-8383
ㅆㅡㄹㄹㅣ	-8384
▁ㅂㅏㄹㅌㅡ	-8385
ㅎㅡㄹ	-8386
ㅎㅣㄹ	-8387
▁day	-8388
▁ㅎㅟㅂㅆㅡㄹㄹㅣ	-8389
▁NG	-8390
▁1900	-8391
▁ㄴㅛ	-8392
ㅇㅕㅁㅂㅏㅇㅅㅏ	-8393
ㄹㅗㄴㅌㅗ	-8394
ㅂㅔㄹㅌㅡ	-8395
▁ㅇㅏㄴㅌㅔ	-8396
▁ㅈㅣㄴㅎㅕㅇ	-8397
▁ㅊㅗㅇㅌㅏㄴ	-8398
▁ㅅㅣㄴㅊㅗㄴ	-8399
ㅋㅓㄴㄷㅐ	-8400
▁ㅉㅏㄱㅌㅜㅇ	-8401
▁~'	-8402
▁ㅈㅣㄴㅎㅡㄺ	-8403
▁ㅈㅔㄹㄷㅏ	-8404
▁ㄱㅕㄹㅂㅕㄹ	-8405
▁ㄷㅡㄹㅌㅗㅇ	-8406
▁Not	-8407
▁ㅇㅕㄴㅇㅏㄴ	-8408
▁ㅈㅣㄱㄱㅏㅁ	-8409
▁ㄹㅓㄴㄴㅣㅇㅁㅐㄴ	-8410
▁HOT	-8411
▁ㄱㅡㄴㄹㅐ	-8412
▁ㄱㅜㄹㅂㅗㄱ	-8413
▁ㅌㅏㄹㄱㅓㅅ	-8414
UL	-8415
▁ㅂㅚ	-8416
▁ㅉㅏㅇㄱㅜ	-8417
▁ㅇㅝㄴㅅㅏ	-8418
ㅂㅗㄱㄹㅕㄱ	-8419
▁ㅈㅏㄴㅈㅐ	-8420
▁ㅇㅛㅇㅍㅜㅁ	-8421
▁ㅅㅓㄱㅎㅘ	-8422
ㅇㅔㅁ	-8423
}}	-8424
ㄹㅏㄴㅌㅣ	-8425
▁ㅇㅜㄴㅇㅣㅁ	-8426
▁Grand	-8427
▁ㅅㅓㄴㅊㅔ	-8428
▁ㄱㅏㄴㅍㅕㄴ	-8429
▁Boy	-8430
▁ㅈㅗㅇㅈㅏ	-8431
▁ㅂㅏㄱㅈㅣㄴ	-8432
▁ㅍㅕㄴㅈㅔ	-8433
▁ㄷㅗㅇㅊㅏㅁ	-8434
▁ㅈㅓㄴㅅㅏㄴ	-8435
▁ㅈㅣㅂㄱㅕㄹ	-8436
XT	-8437
▁Tri	-8438
▁ㅌㅏㄴㄷㅜ	-8439
ecial	-8440
▁ㄹㅓㅁㅂㅡㄹ	-8441
▁ㅁㅗㅇㄸㅏㅇ	-8442
ㄱㅏㄱㅅㅣ	-8443
ㄴㅕㅁㅇㅣㄹ	-8444
▁ㅅㅜㄹㅌㅏㄴ	-8445
▁ㅁㅕㅇㅈㅏㅇㅁㅕㄴ	-8446
▁ㅈㅓㅇㅅㅣㄴㄱㅣ	-8447
ㅋㅘ	-8448
▁720	-8449
▁ㅈㅓㄴㅇㅜ	-8450
▁'-	-8451
▁ㄷㅗㅇㅇㅠ	-8452
ship	-8453
▁ㅂㅗㄱㅈㅗㅇ	-8454
▁ㅊㅣㄴㄱㅡㄴ	-8455
▁Dragon	-8456
▁ㄱㅏㄹㄱㅗ	-8457
▁ㅅㅏㅇㅇㅝㄴ	-8458
▁ㅎㅑㅇㅅㅜ	-8459
▁ㄷㅡㄱㅅㅣㄹ	-8460
▁ㅂㅏㄱㅊㅏ	-8461
ana	-8462
▁ㅅㅗㅇㅍㅏ	-8463
▁ㄷㅗㅇㅍㅗ	-8464
▁Baby	-8465
ㅂㅏㄹㄹㅣ	-8466
▁ㄱㅗㅇㅈㅏ	-8467
▁ㅂㅣㄹㅁㅣ	-8468
▁ㅎㅏㅇㅇㅜ	-8469
▁ㅁㅕㅇㅇㅣㄴ	-8470
▁ㅅㅣㄴㄹㅕㅇ	-8471
▁ㄱㅡㄱㅊㅏㄴ	-8472
▁ㅇㅏㄴㅈㅜㅇ	-8473
▁GAM	-8474
▁ㅎㅕㅂㅇㅑㄱ	-8475
rop	-8476
▁ㅈㅣㄱㄱㅖ	-8477
▁ㅂㅕㄱㄷㅗㄹ	-8478
▁ㅅㅣㄴㅎㅏㄴㅇㅡㄴㅎㅐㅇ	-8479
▁ㅇㅏㄴㄷㅗ	-8480
▁GL	-8481
▁RAW	-8482
▁God	-8483
▁ㅇㅕㅇㄹㅣ	-8484
▁ㅇㅑㅇㅂㅏㅇㅎㅑㅇ	-8485
▁ㅇㅣㄹㅍㅕㅇㄱㅠㄴ	-8486
▁MAN	-8487
▁ㅋㅗㄴㄷㅗ	-8488
▁WAR	-8489
ㄴㅏㄹㄷㅜ	-8490
▁ㅂㅓㅁㅈㅜ	-8491
ㅈㅓㅇㄷㅗㅇ	-8492
▁ㅇㅝㄴㄴㅕㄴ	-8493
▁Beat	-8494
ㄷㅔㄱㅅㅡ	-8495
▁ㅁㅏㄴㄹㅠ	-8496
▁ㅈㅓㅁㅍㅗ	-8497
▁ㄱㅕㅇㅈㅓㄴㅊㅏ	-8498
▁ㅂㅏㅇㄹㅏㅇ	-8499
elf	-8500
▁ㅂㅕㅇㅇㅕㅇ	-8501
▁ㅈㅣㄴㄱㅜㄴ	-8502
▁ㅎㅐㅇㄱㅏㄱ	-8503
▁ㅅㅗㄴㅅㅜ	-8504
ys	-8505
▁ㄷㅗㄱㄷㅗ	-8506
▁ㅈㅓㄹㅁㅛ	-8507
ㅈㅗㅇㅅㅓㄱ	-8508
▁ㅅㅓㄴㅊㅓㄴ	-8509
▁ㅊㅓㄴㅊㅔ	-8510
▁ab	-8511
ㅇㅠㄱㅊㅓㅇ	-8512
ift	-8513
▁ㄱㅜㄱㅅㅜ	-8514
▁151	-8515
▁ㅍㅜㅁㅈㅗㅇ	-8516
ally	-8517
▁ㅎㅔㄹㄹㅗ	-8518
omb	-8519
▁RO	-8520
▁ㅁㅜㄴㅇㅢ	-8521
▁ㅈㅣㄴㄱㅘ	-8522
▁ㅌㅡㄱㅊㅜㄹ	-8523
▁SNK	-8524
▁ㅇㅝㄹㅌㅓ	-8525
▁1959	-8526
▁ㄱㅜㄴㄷㅏㄴㅈㅏㅇ	-8527
ring	-8528
ㅇㅣㄹㄱㅣ	-8529
▁ㅂㅏㄴㄱㅏㅂ	-8530
ㄷㅏㄴㅊㅔ	-8531
▁ㅈㅓㅇㅋㅡ	-8532
▁ㅎㅗㅁㄱㅜ	-8533
▁ㅇㅘㅇㄴㅕ	-8534
▁ㅇㅏㄴㅊㅓㄹㅅㅜ	-8535
▁ㅈㅏㄴㄷㅣ	-8536
▁ㅈㅡㄹㄱㅓ	-8537
ren	-8538
ㄹㅔㄱㅌㅡ	-8539
▁ㅅㅏㅁㄱㅜㄱㅅㅏ	-8540
▁TF	-8541
▁ㅅㅏㅇㄹㅠ	-8542
▁ㅇㅗㄱㅅㅜ	-8543
▁ㅇㅑㅇㄷㅗㅇ	-8544
45	-8545
▁ㅆㅐㅇ	-8546
ㅇㅓㄴㄱㅏ	-8547
ㅍㅗㄴㅈㅣ	-8548
▁ㅇㅠㄱㅅㅣㄱ	-8549
▁ㄹㅏㄹㅍㅡ	-8550
▁ㅇㅏㄹㅁㅗㅁ	-8551
▁CEO	-8552
▁ㅊㅏㅁㅅㅜ	-8553
▁ㅅㅓㄱㄱㅜㅇ	-8554
▁ㅇㅞㄴㄹㅣ	-8555
▁ㄹㅡㄹㄹㅡ	-8556
▁AMD	-8557
▁ㄱㅣㅁㅎㅖ	-8558
▁ㅎㅕㄴㅎㅐㅇ	-8559
▁ㅁㅕㅇㄹㅕㅇㅇㅓ	-8560
ㅈㅜㄴㅎㅗ	-8561
▁ㅇㅣㅁㅍㅡ	-8562
ㅇㅕㅇㅇㅜㅇ	-8563
▁ㅁㅏㄷ	-8564
▁ㅇㅏㄹㅂㅣ	-8565
▁001	-8566
▁ㅁㅣㄴㅈㅓㅇ	-8567
▁ㄱㅣㄹㄷㅡㄹㅇㅣ	-8568
▁ㅍㅐㄹ	-8569
▁ㅁㅗㄴㅌㅔ	-8570
▁ㅈㅓㄴㄱㅗ	-8571
ㅂㅣㄱ	-8572
ㄱㅗㅇㄱㅕㄱ	-8573
▁ㅊㅣㄴㅁㅣㄹ	-8574
▁ㄷㅟㅅㅂㅏㄷㅊㅣㅁ	-8575
▁ㅂㅏㅇㅈㅓㅇㅅㅣㄱ	-8576
▁Es	-8577
olog	-8578
▁ㅂㅏㄹㅅㅏㄴ	-8579
▁ㅎㅏㄴㄱㅜㄱㄱㅜㄴ	-8580
▁ㄷㅗㅇㅁㅜㄹㅇㅝㄴ	-8581
▁ㅌㅐㄹ	-8582
▁ㅅㅗㅇㄱㅗㅅ	-8583
▁'~	-8584
▁Cont	-8585
▁ㅅㅏㅇㅈㅓㅇ	-8586
▁ㅅㅓㄴㄱㅡㄹㄹㅏ	-8587
▁POP	-8588
▁ㄱㅣㅁㅎㅢ	-8589
▁ㅊㅣㄹㅎㅡㄱ	-8590
▁qu	-8591
▁ㅋㅑ	-8592
▁ㄱㅏㅂㅍㅏㄴ	-8593
▁ㅅㅣㄹㅎㅓㅁㅅㅣㄹ	-8594
ㅁㅣㄴㅅㅜ	-8595
▁ㅈㅜㅇㄱㅗㅇㅇㅓㅂ	-8596
▁ㅈㅔㅅ	-8597
▁Bar	-8598
▁1955	-8599
▁ㅇㅣㄹㅅㅓㄴ	-8600
▁ㅉㅏㄹㅁㅏㄱ	-8601
▁ㄱㅗㅇㅈㅜㅇㅈㅓㄴ	-8602
▁ㅅㅓㄴㅎㅏ	-8603
▁169	-8604
AA	-8605
▁ㅊㅐㄱㅇㅣㅁㅈㅏ	-8606
▁KC	-8607
▁Lo	-8608
▁000000	-8609
▁ㅇㅛㄱㅁㅓㄱ	-8610
▁ㅈㅗㅁㅂㅣ	-8611
▁ㅍㅔㄴㅅㅡ	-8612
▁PO	-8613
ㅌㅏㅇㅅㅡ	-8614
▁world	-8615
▁ㄱㅘㄴㅇㅛㅇ	-8616
▁ㅅㅓㅇㄱㅗㅇㅎㅚ	-8617
IF	-8618
▁ㅍㅗㄱㄱㅜㄴ	-8619
▁ㄱㅕㅇㅎㅢ	-8620
▁ㅊㅜㅇㅅㅣㄹㅎㅣ	-8621
▁ㄱㅕㅇㅈㅐㅇㄹㅕㄱ	-8622
▁ㅅㅏㅂㅇㅣㅂㄱㅗㄱ	-8623
▁1956	-8624
▁ㅇㅏㄱㅂㅗ	-8625
REME	-8626
▁ㅊㅡㅅㅋㅗ	-8627
▁Inf	-8628
▁ㅇㅏㄱㅈㅏㅇ	-8629
▁ㅈㅐㅂ	-8630
▁ㄱㅗㅇㅇㅑㄱ	-8631
▁ㄱㅡㅁㅈㅓㄴ	-8632
▁With	-8633
▁ㅊㅏㅁㅍㅐ	-8634
▁Angel	-8635
▁ㅎㅘㅇㅈㅗㄱ	-8636
ㅁㅜㅅ	-8637
ㄹㅏㅂㅇㅓ	-8638
▁ㄲㅡㄶㅇㅣ	-8639
▁ㄷㅗㅇㅁㅐㅇㄱㅜㄴ	-8640
LD	-8641
▁WOR	-8642
▁ㅃㅜㅁㅇㅓ	-8643
row	-8644
▁ㄴㅜㄹ	-8645
▁ㄹㅏㄴㅌㅡ	-8646
▁ㅁㅏㄴㅇㅏㄱ	-8647
ㄱㅡㄹㄹㅣ	-8648
▁ㅅㅡㄹㅉㅓㄱ	-8649
▁ㅁㅔㄹㄹㅣ	-8650
▁ㅈㅏㅇㄴㅕ	-8651
▁ㅈㅐㅇㅌㅏㄹ	-8652
ㄱㅙ	-8653
ㅌㅏㄴㅌㅣ	-8654
▁Gaming	-8655
▁="	-8656
▁ㄱㅘㅇㅎㅘ	-8657
▁ㄴㅡㄴㄱㅜ	-8658
▁ㄱㅕㄱㅂㅕㄴ	-8659
ited	-8660
▁ㄱㅡㄹㄹㅣ	-8661
▁ㅅㅣㅁㅍㅡㄹ	-8662
appy	-8663
▁ㅈㅓㅇㄷㅐ	-8664
▁ㅇㅓㅂㅈㅗㅇ	-8665
▁ㅊㅐㄹㄹㅣㄴㅈㅓ	-8666
▁micro	-8667
ㅎㅕㄱㅁㅕㅇ	-8668
▁ㅌㅏㄴㅅㅜ	-8669
III	-8670
ㅂㅏㄼ	-8671
▁ㄱㅕㅇㅇㅟ	-8672
▁ㄷㅓㅊ	-8673
▁ㅈㅗㄹㅇㅓㅂㅅㅣㄱ	-8674
▁ㅌㅗㅇㅎㅏㄱ	-8675
ㄲㅡㅌ	-8676
▁PVP	-8677
ㅂㅕㅇㄱㅣ	-8678
▁ㅊㅓㅇㅈㅏㅇ	-8679
ful	-8680
ㄸㅗㅇ	-8681
ㅅㅜㄹㄱㅘㄴ	-8682
▁ㅌㅔㅁㅍㅡㄹㄹㅓ	-8683
▁ㄱㅕㅇㅊㅏㄹㄱㅘㄴ	-8684
▁She	-8685
▁ㅇㅏㅇㅈㅠ	-8686
▁ㄱㅣㅁㅈㅜㄴㅎㅗ	-8687
▁ㅇㅖㄴ	-8688
▁ㄴㅏㄴㅈㅓㄴ	-8689
ious	-8690
▁ㅇㅑㅇㅍㅏ	-8691
▁ㅅㅓㄴㅂㅏㅇ	-8692
▁310	-8693
ㅇㅜㅅㅇㅡㅁ	-8694
▁ㅇㅡㅁㄹㅏㄴ	-8695
▁ㅇㅣㄹㅈㅣㄴ	-8696
▁ㅇㅜㄴㅈㅓㄴㅈㅏ	-8697
▁ㅇㅣㅁㅊㅏㅇ	-8698
ㅂㅡㄹㄹㅔ	-8699
▁ㄹㅐㅅ	-8700
▁ㅇㅕㅁㄷㅗㅇ	-8701
▁ㅇㅑㅁㅈㅓㄴ	-8702
ㅎㅕㅇㅈㅔ	-8703
▁ㄴㅗㄱㅇㅏ	-8704
▁ㅅㅓㅇㅊㅜ	-8705
▁Ste	-8706
▁COM	-8707
▁ㅊㅜㅇㅊㅓㅇㅂㅜㄱㄷㅗ	-8708
atic	-8709
ㅈㅓㅇㅎㅕㄴ	-8710
▁con	-8711
▁ㅅㅔㄱㅌㅓ	-8712
▁ㅊㅓㅂㅂㅗ	-8713
ㄱㅑㄹ	-8714
ㄷㅜㄹㄱㅣ	-8715
▁ㅂㅣㄹㅎㅔㄹ	-8716
▁ㅁㅕㄹㅈㅏ	-8717
▁131	-8718
▁ㅂㅐㄱㅈㅣ	-8719
▁ㅇㅣㄴㅍㅡ	-8720
▁XBO	-8721
▁STAR	-8722
ㅋㅓㄹㅌㅡ	-8723
ㅇㅕㄴㅎㅏㅂ	-8724
▁ㅁㅕㅇㅍㅜㅁ	-8725
ㄱㅝㄴㅈㅏ	-8726
▁ㅁㅕㅇㅇㅡㄴ	-8727
▁ㄷㅜㄴㅎㅘ	-8728
▁ㅍㅣㄱㅇㅓㅂ	-8729
▁ㅆㅏㅁ	-8730
▁ㅆㅏㅇㅇㅛㅇ	-8731
▁White	-8732
▁ㅅㅓㄴㅇㅕㄱ	-8733
aut	-8734
▁ㅊㅗㅇㄷㅐ	-8735
▁ㅂㅓㅂㅈㅓㅇㄷㅗㅇ	-8736
▁DA	-8737
▁ㅈㅓㅇㅇㅡㄴ	-8738
▁ㄱㅓㄴㄹㅣㅂ	-8739
ㅋㅏㅁ	-8740
▁ㅇㅣㄹㄹㅜ	-8741
ara	-8742
▁ㄹㅏㄴㄷㅏ	-8743
▁255	-8744
▁ㄷㅡㄴㄷㅡㄴ	-8745
▁ㅋㅏㄹㅈㅣㄹ	-8746
ㅈㅏㅇㄱㅜ	-8747
day	-8748
ㅇㅣㄴㅈㅡ	-8749
▁ㅂㅓㄴㄱㅓ	-8750
▁ㄱㅕㄹㅈㅏㅇ	-8751
▁ㅁㅏㄱㄹㅗㄴ	-8752
▁ㅅㅓㅇㅁㅜㄴ	-8753
▁ㅇㅏㄱㅈㅣㄹ	-8754
▁ㅈㅓㄴㄱㅏㄹ	-8755
▁EXTREME	-8756
INE	-8757
▁ㅊㅏㅇㅇㅢ	-8758
▁Sky	-8759
▁VR	-8760
▁ㄱㅣㅁㅇㅣㄴ	-8761
HD	-8762
bl	-8763
▁ER	-8764
▁Pe	-8765
▁RX	-8766
▁ㅇㅏㄹㅂㅓ	-8767
ㄷㅡㅂㄴㅏ	-8768
▁ㅂㅏㄴㅉㅏㄱㅇㅣ	-8769
ㅍㅏㄴㄱㅣ	-8770
ㅇㅐㅇ	-8771
ㅅㅣㄹㅎㅣ	-8772
▁Project	-8773
ㄸㅔ	-8774
▁NAT	-8775
ㅍㅜㅁㄱㅜㄴ	-8776
▁ㅂㅗㄹㅇㅣㄹ	-8777
▁ㅈㅓㄴㅌㅐ	-8778
▁ㅇㅣㅂㅅㅓㅇ	-8779
▁ㄸㅜㅇㄸㅜㅇ	-8780
▁ㅇㅑㅇㅎㅕㄴ	-8781
▁ㅇㅏㅁㅎㅡㄱㄱㅣ	-8782
▁ㄱㅕㄱㄴㅗ	-8783
▁ㄹㅣㄱㅅㅡ	-8784
▁ㅇㅡㄴㄱㅏ	-8785
▁ㅌㅏㅁㅇㅛㄱ	-8786
▁ㄱㅘㅇㅎㅏㄱ	-8787
▁ㅂㅜㄹㅇㅜㄴ	-8788
▁ㅅㅡㅇㅊㅓㄴ	-8789
▁ㅇㅓㄱㅇㅑㅇ	-8790
▁ㅎㅟㅂㅆㅡㄹ	-8791
▁FE	-8792
▁ㅎㅕㄴㅈㅓ	-8793
▁ㅎㅜㄴㄹㅕㄴㅅㅗ	-8794
▁ㄹㅕㅁ	-8795
▁ㅅㅓㄴㄷㅗ	-8796
▁ㅍㅣㄹㄱㅣ	-8797
ㅅㅐㅇㅇㅑㅇ	-8798
75	-8799
▁ㅈㅣㄴㅎㅐ	-8800
ㅈㅗㅇㅇㅣㄹ	-8801
▁ㄹㅡㅇ	-8802
▁1952	-8803
▁ㅇㅜㄹㅂㅜ	-8804
ㄹㅏㅁㅈㅣㄱ	-8805
ㅋㅣㅁ	-8806
▁ㄱㅏㄴㅅㅣㄱ	-8807
▁ㄷㅏㄴㅂㅓㄴㅇㅔ	-8808
▁Get	-8809
▁ㅍㅕㅇㅈㅓㅇ	-8810
▁ㅂㅗㅇㅎㅏ	-8811
▁ㅇㅣㅁㅈㅐ	-8812
▁ㅈㅏㅇㄷㅏㄴ	-8813
▁420	-8814
▁ㅇㅕㄴㅅㅓㅇ	-8815
▁ㅋㅓㅅㅇㅣㄴ	-8816
▁ㄱㅗㄹㄱㅗ	-8817
▁ㅇㅣㄴㅅㅣㄴ	-8818
▁TW	-8819
ㅇㅐㄱㅅㅕㄴ	-8820
▁ㄱㅡㅁㅅㅓㅇ	-8821
ㅇㅛㄴ	-8822
ㅂㅓㄱㅈㅣ	-8823
▁Just	-8824
▁ㄱㅏㅇㄱㅡㅂ	-8825
▁ㅅㅣㄱㅇㅣㄴ	-8826
▁ㅅㅣㄹㅊㅓㄴ	-8827
▁Gun	-8828
ㅋㅗㄹㅍㅣ	-8829
▁ㅅㅓㅇㅅㅣ	-8830
▁ㅎㅘㄹㅇㅑㄱㅅㅏㅇ	-8831
▁141	-8832
▁ㄱㅝㄴㅇㅕㄱ	-8833
▁ㅊㅣㅁㅊㅔ	-8834
▁ㄴㅗㅇㅊㅗㄴ	-8835
▁ㅊㅣㅁㅅㅣㄱ	-8836
ㅋㅐㅅ	-8837
▁ㅋㅚ	-8838
▁ㄴㅏㅁㅇㅛㅇ	-8839
▁ㅈㅓㄴㅇㅕㅁㅂㅕㅇ	-8840
▁ㅇㅏㅍㅉㅗㄱ	-8841
▁FN	-8842
▁RR	-8843
▁850	-8844
▁ㄱㅏㅇㄴㅏㅁㄱㅜ	-8845
▁ㅇㅕㄴㅎㅗ	-8846
MC	-8847
▁ㅈㅏㄹㅅㅐㅇㄱㅣ	-8848
▁ㅈㅓㅇㅈㅜㅇ	-8849
▁IF	-8850
▁ㅎㅏㅇㅅㅗㄱ	-8851
ㅇㅓㅂㄱㅏ	-8852
reat	-8853
▁ㅍㅜㅅㅂㅗㄹ	-8854
▁CT	-8855
ㅆㅓㄹ	-8856
ㄱㅕㄱㄱㅣ	-8857
▁ㅂㅏㄱㅈㅜ	-8858
▁ㅇㅏㅂㅅㅏㄹ	-8859
▁NAS	-8860
▁ㅈㅓㄴㄱㅘ	-8861
▁ㅇㅗㅂㅅㅡ	-8862
▁ㅅㅏㄴㅅㅏㄴ	-8863
▁ㄱㅜㄱㅁㅣㄴㄷㅏㅇ	-8864
▁ㅅㅡㅁ	-8865
▁ㅎㅠㅇㅌㅓ	-8866
▁ㅅㅗㄴㅊㅐㄱ	-8867
▁ㄱㅓㅌㅁㅗ	-8868
uch	-8869
▁PRO	-8870
▁VIP	-8871
▁ㅇㅣㄹㅈㅣㄱㅅㅓㄴ	-8872
▁ㄹㅓㅂ	-8873
▁ㅊㅗㅇㅈㅐ	-8874
▁ㅍㅗㄴㅌㅡ	-8875
▁ㅁㅣㄴㅂㅕㅇㄷㅐ	-8876
▁ㅅㅓㅇㅍㅗㄱㅎㅐㅇ	-8877
▁PT	-8878
▁ㅌㅏㄹㅌㅏㄹ	-8879
▁ㅎㅏㄱㅇㅓㅂ	-8880
▁ㅎㅕㅂㄱㅗㄱ	-8881
▁ㅈㅜㅇㄱㅕㄴㅅㅜ	-8882
ger	-8883
▁ㅇㅠㅅ	-8884
▁ㅂㅜㄹㅂㅜㄴ	-8885
▁ㅎㅕㄴㅈㅣㄹ	-8886
ㅌㅡㄹㅈㅡ	-8887
ㅅㅡㅇㅁㅣㄴ	-8888
▁ㄷㅓㅇㄷㅏㄹ	-8889
▁ㅁㅣㄹㄹㅓ	-8890
▁ㅇㅜㄹㅂㅓ	-8891
▁ㅈㅓㅂㅅㅣ	-8892
▁ㄱㅘㄴㄱㅘㅇㅈㅣ	-8893
▁ㅎㅏㄴㅅㅓㅇ	-8894
▁ㅇㅡㅁㅅㅣㄱㅈㅓㅁ	-8895
▁RS	-8896
ric	-8897
▁Game	-8898
▁ㄷㅗㅇㅅㅏㄴ	-8899
▁1939	-8900
▁ㅁㅣㄹㅈㅓㅂ	-8901
▁ㄷㅏㅇㅂㅜㄴㄱㅏㄴ	-8902
▁ㅈㅗㅁㅊㅓ	-8903
▁ㅂㅏㄹㅈㅓㄴㄱㅣ	-8904
▁ㅂㅜㄹㅂㅜㄴㅁㅕㅇ	-8905
▁ㅁㅐㄴㄴㅏㄹ	-8906
▁ㅅㅣㅂㅅㅏㅇ	-8907
▁OO	-8908
▁ㅋㅓㄹㅌㅡ	-8909
ㅅㅐㅇㅁㅜㄹ	-8910
ㅅㅡㄹㅉㅓㄱ	-8911
▁ㅊㅓㅇㄹㅑㅇㄹㅣ	-8912
ㄴㅏㄹㄹㅗ	-8913
▁ㅎㅡㅇㅎㅏ	-8914
bsp	-8915
▁ㅎㅏㅇㄹㅗ	-8916
▁ㅅㅜㄴㅅㅜㄴ	-8917
ㄷㅜㄹㄹㅣ	-8918
▁ㄱㅝㄴㄱㅗ	-8919
▁ㄷㅜㄴㄱㅣ	-8920
▁ㅎㅏㅇㅈㅐㅇ	-8921
aka	-8922
▁ㅎㅐㅇㄱㅜㄴ	-8923
▁TECHN	-8924
▁ㅊㅓㅇㅊㅟ	-8925
▁ㅇㅣㅁㅇㅛㅇ	-8926
▁ㄱㅕㅇㅇㅣ	-8927
▁ㅂㅗㄱㅂㅜ	-8928
▁ㅅㅡㄹㄹㅣㅂ	-8929
▁ㅈㅜㅇㅇㅓㄹㄱㅓ	-8930
▁Last	-8931
▁back	-8932
ㅈㅓㄴㅎㅏㅁ	-8933
▁School	-8934
▁ㅅㅓㅇㄹㅕㅇ	-8935
▁ㅋㅏㅇ	-8936
▁ㅍㅣㄹㅈㅓㄱ	-8937
ㅋㅡㄹㄹㅣㅂㅅㅡ	-8938
▁ㅈㅓㄴㅂㅏㄴㅈㅓㄴ	-8939
▁PvP	-8940
▁ㅇㅕㄱㅅㅓㄹ	-8941
ㅇㅣㄹㄹㅓㄴㅌㅡ	-8942
▁520	-8943
▁ㅅㅗㅇㄱㅜ	-8944
▁ㅇㅔㄹㄹㅓㄴ	-8945
▁ㅆㅗㄹㄹㅣ	-8946
▁ㅁㅗㅁㅈㅣㅂ	-8947
ㅋㅡㄹㄹㅐㄴㄷㅡ	-8948
▁nbsp	-8949
ㅁㅏㄴㄷㅏ	-8950
▁ㅎㅘㄴㅈㅏㅇ	-8951
ㅅㅏㅇㅎㅕㄴ	-8952
▁ㄷㅏㄹㄱㅑㄹ	-8953
▁ㅎㅑ	-8954
▁off	-8955
▁Back	-8956
ㅈㅓㄴㅅㅓㄴ	-8957
less	-8958
▁Side	-8959
▁ㅇㅕㄹㄹㅕㄹ	-8960
▁ㅈㅣㅅㅂㅏㄼ	-8961
▁ㄷㅏㄴㄷㅏㄴㅎㅣ	-8962
▁ㄹㅏㅂㅅㅣ	-8963
▁ㅂㅜㅇㄷㅐ	-8964
ㄹㅗㄴㅈㅡ	-8965
▁ㅅㅓㅇㅍㅜㅁ	-8966
co	-8967
▁777	-8968
▁ㄷㅓㅁㅂㅕ	-8969
▁ㅈㅡㄱㅅㅓㄱ	-8970
▁ㅈㅓㅇㄹㅕㄹ	-8971
ㄱㅐㅅ	-8972
▁ㄴㅜㄴㅆㅓㅂ	-8973
▁Ass	-8974
▁Sil	-8975
ㅇㅣㅂㅂㅜ	-8976
▁Ge	-8977
ㅇㅝㄴㅈㅣ	-8978
ㄷㅗㅇㅂㅕㄴ	-8979
▁ㄴㅏㅁㅈㅣㅅ	-8980
▁ㄴㅏㄴㅈㅐㅇㅇㅣ	-8981
ㄴㅓㄴㅌㅡ	-8982
▁ㅇㅕㅇㅈㅗ	-8983
ㄷㅗㅇㅂㅕㄴㅅㅗㄱㄱㅣ	-8984
▁ㅂㅜㄺㅇㅡㄴㅅㅐㄱ	-8985
IME	-8986
▁naver	-8987
▁ㅈㅣㄴㅅㅓㅇ	-8988
ㅅㅓㄴㅅㅗ	-8989
▁Zero	-8990
▁ㅇㅏㄱㅍㅕㅇ	-8991
▁ㅇㅓㅅㄱㅏㄹㄹㅣ	-8992
▁ㅇㅏㅍㅁㅏ	-8993
ㅇㅏㅁㄷㅗㅇ	-8994
▁ㅎㅐㅅㅂㅣㅊ	-8995
▁ㄱㅏㄴㅅㅏ	-8996
▁ㄱㅘㄴㅅㅡㅂ	-8997
▁ㅂㅐㄱㅂㅕㅇ	-8998
▁ㅅㅜㄴㅅㅜㄴㅎㅣ	-8999
▁jp	-9000
ㄷㅔㄹㅍㅣ	-9001
ㅅㅣㄱㅊㅜㄱㄱㅜ	-9002
▁ㄴㅜㅂㅎㅣ	-9003
▁ㅈㅓㅇㅅㅣ	-9004
▁ㅈㅡㅇㅇㅝㄴ	-9005
▁ㅎㅏㅁㄱㅕㅇ	-9006
▁ㅊㅣㄴㅇㅏ	-9007
▁ㅁㅏㄹㅅㅏㄹ	-9008
▁DIO	-9009
▁ㅂㅜㄴㅎㅘ	-9010
▁ㅍㅐㄱㅌㅗ	-9011
ㅍㅡㄹㄹㅣㅅ	-9012
ㅎㅏㅇㅎㅐ	-9013
▁ㅂㅜㄹㅎㅓ	-9014
ㅈㅣㅍ	-9015
▁ㅅㅐㄴㄷㅣ	-9016
▁ㅍㅏㄴㄷㅏ	-9017
▁480	-9018
▁ㅍㅡㄹㄹㅐㄴㅌㅡ	-9019
▁ㄴㅏㅁㄱㅜ	-9020
▁ㅁㅗㅁㅊㅔ	-9021
▁ㅅㅓㄴㅅㅏㅇ	-9022
▁212	-9023
ㄱㅏㄱㄱㅏㄱ	-9024
▁ㅈㅏㅁㅂㅗㄱ	-9025
▁ㅌㅡㄱㄱㅝㄴ	-9026
bo	-9027
▁Chr	-9028
▁ㄷㅡㄷㅂㅗ	-9029
ㄴㅡㄹㅅㅐㄱ	-9030
▁ㄴㅗㅇㅂㅜ	-9031
▁ㅊㅜㅇㄷㅗㅇ	-9032
▁ㅇㅣㄹㄱㅐ	-9033
ㅈㅜㄴㅅㅓㄱ	-9034
▁Di	-9035
ㄹㅜㅅ	-9036
ㅇㅑㄱㅈㅏ	-9037
▁ㅈㅏㅇㅁㅏㄱ	-9038
UST	-9039
▁CIA	-9040
▁ㅈㅣㅂㅈㅜㅇㄹㅕㄱ	-9041
▁ㅅㅗㄱㅅㅏ	-9042
▁ㅂㅓㄹㅊㅣㄱ	-9043
▁ㄱㅗㅇㅊㅐ	-9044
ORA	-9045
▁ㅈㅏㅂㅎㅕ	-9046
▁ㅂㅐㄹㅂㅡ	-9047
ㅎㅕㄴㄷㅗㅇ	-9048
▁margin	-9049
ㅂㅏㅇㄷㅗ	-9050
▁ㅋㅓㄴㅂㅓ	-9051
▁ㅇㅗㄴㅈㅓㄴㅎㅣ	-9052
▁ㅃㅐㄱ	-9053
ㅅㅐㅇㅊㅜㅇ	-9054
ㅇㅜㄴㅌㅣㄴ	-9055
▁ㅅㅓㄴㅁㅕㅇ	-9056
▁ㅇㅏㄱㅇㅣㄴ	-9057
▁ㅈㅏㅇㅎㅏㄱㄱㅡㅁ	-9058
▁ㅌㅗㅇㅅㅗㄹㄹㅕㄱ	-9059
ely	-9060
▁ㅅㅏㅇㄱㅗ	-9061
▁ㄱㅕㅇㅅㅣㄴ	-9062
ideo	-9063
▁Amer	-9064
▁ㅇㅐㄱㅅㅡ	-9065
▁ㅈㅓㅇㅅㅔ	-9066
▁ㅁㅜㄱㅈㅣㄱ	-9067
▁ㅇㅛㅇㅇㅘㅇ	-9068
▁ㅎㅕㅇㅂㅓㄹ	-9069
▁xx	-9070
▁ㅂㅗㄱㄱㅝㄴ	-9071
▁ㅈㅓㅇㅇㅠㄴ	-9072
▁Moon	-9073
▁Blood	-9074
▁ㄱㅓㅂㅈㅐㅇㅇㅣ	-9075
ㅍㅏㄹㄹㅗ	-9076
▁ㅇㅣㄹㄱㅏㄹ	-9077
ㅈㅓㄴㅈㅐㅇ	-9078
▁ㅅㅔㄹㄹㅔㄱ	-9079
▁ㅎㅕㄴㅁㅜ	-9080
▁ㅎㅣㅁㅆㅡ	-9081
▁ㅅㅣㄴㅂㅣㅇ	-9082
▁ㅇㅏㅁㄱㅣ	-9083
▁ㄱㅜㄻㅈㅜ	-9084
▁ㅊㅓㄹㅎㅚ	-9085
ㅇㅏㄴㄱㅜㄴ	-9086
▁ㅅㅓㅇㅈㅜ	-9087
▁ㄱㅏㅇㅇㅕㄴ	-9088
▁ㄹㅗㄹㄹㅣ	-9089
ㅖㄴ	-9090
ㅁㅐㅇㅇㅣ	-9091
▁ㅈㅗㄹㄹㅣ	-9092
▁ㅎㅏㄴㅂㅗㄱ	-9093
CE	-9094
▁Open	-9095
ㄴㅏㄴㄷㅗ	-9096
▁ㅂㅓㄱㅅㅡ	-9097
▁ㅇㅕㅇㄱㅜㄱㅇㅣㄴ	-9098
▁ㅂㅑ	-9099
▁ㅁㅕㄴㅇㅡㄴ	-9100
▁ㅂㅏㅇㄱㅡㅁ	-9101
ㅍㅔㅅ	-9102
▁290	-9103
▁ㅎㅐㅇㅅㅔ	-9104
ㅈㅡㄹㄹㅣ	-9105
▁ㅇㅑㅇㄷㅗ	-9106
▁ㅈㅓㅇㅈㅓㄱ	-9107
▁ㅎㅘㄴㅂㅜㄹ	-9108
▁ㄱㅡㅂㅅㅏㅇ	-9109
▁ㅇㅝㄴㅅㅏㅇ	-9110
▁ㅅㅏㅅㅍㅗ	-9111
▁ㄱㅕㄹㅂㅓㄴ	-9112
▁ㅈㅓㄹㅍㅏㄴ	-9113
▁ㅇㅡㄿ	-9114
ㄱㅏㅁㅊㅣ	-9115
▁ㅈㅣㄴㄱㅣ	-9116
▁ㅂㅏㄴㄴㅏㅂ	-9117
▁FBI	-9118
au	-9119
ㅅㅓㄹㅈㅏ	-9120
ㅌㅜㄹㄹㅜ	-9121
ㄹㅏㅇㅋㅔㄴㅅㅠ	-9122
▁ㅇㅞㄴㄷㅣ	-9123
ㅁㅜㅅㅇㅣㅍ	-9124
▁WE	-9125
▁ㅇㅣㄹㅉㅣ	-9126
▁ㅎㅘㄴㅇㅝㄴ	-9127
▁ㅈㅣㄻ	-9128
▁Final	-9129
▁ㄱㅘㅇㅅㅓㄱ	-9130
▁Art	-9131
▁ㅍㅐㄴㅋㅡㄹㄹㅓㅂ	-9132
ㅈㅏㅇㅊㅣ	-9133
▁Soul	-9134
▁ㄱㅓㅁㄱㅣ	-9135
▁ㅂㅐㄱㄷㅜ	-9136
▁NCR	-9137
▁ㅊㅓㄹㅌㅚ	-9138
DER	-9139
▁XBOX	-9140
▁ㅂㅏㄴㄷㅏㄹ	-9141
▁ㅈㅡㅇㅊㅏ	-9142
ㄲㅗㅂ	-9143
▁Yes	-9144
▁Mix	-9145
▁NFL	-9146
▁ㄴㅡㅇㄷㅗㅇ	-9147
IKA	-9148
ning	-9149
▁Du	-9150
▁1400	-9151
ism	-9152
▁ㄲㅡㄶㅇㅓ	-9153
▁ㅂㅕㄴㅎㅏㅁ	-9154
▁ㅈㅓㅇㅁㅗㅇ	-9155
▁ㅃㅡ	-9156
ward	-9157
▁ㅂㅜㅌㅇㅕ	-9158
▁pt	-9159
▁ㅂㅣㄴㅅㅔㄴㅌㅡ	-9160
ㅈㅜㄴㅇㅓ	-9161
32	-9162
▁ㅊㅣㄴㅎㅘ	-9163
▁ㅊㅓㄹㅈㅏ	-9164
ㅇㅓㅂㅅㅗ	-9165
▁ㅂㅗㄴㄱㅓ	-9166
▁ㅁㅏㅇㅇㅝㄴ	-9167
▁ㅌㅔㄴㅅㅕㄴ	-9168
▁LS	-9169
▁MIX	-9170
▁ㅈㅡㅇㅇㅣㄴ	-9171
85	-9172
▁ㅂㅏㄱㄱㅣ	-9173
▁ㄴㅓㅁㄴㅏ	-9174
▁ㅆㅡㄹㅆㅡㄹ	-9175
▁ㅇㅡㅇㅈㅣㅇ	-9176
▁ㅇㅣㅁㅅㅏㅇ	-9177
▁ㅌㅏㄹㄷㅏㅇ	-9178
▁ㅅㅗㅇㅂㅕㅇㄱㅜ	-9179
ㅇㅗㄹㄹㅏ	-9180
▁ㅅㅐㅇㄹㅣ	-9181
▁Met	-9182
▁ㄹㅗㄹㅅㅡ	-9183
stem	-9184
▁ㄱㅕㅁㅂㅣ	-9185
▁ㅎㅘㄴㅇㅠㄹ	-9186
to	-9187
eah	-9188
▁ㅌㅔㅂ	-9189
▁ㅈㅜㅇㅊㅜ	-9190
▁ㅈㅜㅇㅅㅏㄴ	-9191
ㅈㅓㄴㄷㅐ	-9192
▁ㄱㅏㅁㄷㅗ	-9193
ㄸㅡㄷ	-9194
▁CCTV	-9195
▁ㄱㅡㅁㅎㅏ	-9196
led	-9197
▁ㅈㅓㄱㅈㅓㅇ	-9198
▁ATM	-9199
▁ㅇㅕㅂㄱㅣ	-9200
▁Track	-9201
▁ㅎㅏㅂㄱㅡㅁ	-9202
▁ㅅㅓㅇㄴㅏㅁㅅㅣ	-9203
ㅅㅣㄴㅈㅓㄴㅅㅐㅇ	-9204
ㅈㅓㄱㅎㅘ	-9205
ㅌㅡㄹㄹㅔ	-9206
▁ㅅㅓㄴㄱㅗㅇ	-9207
▁ㅅㅣㄹㅌㅏㄴ	-9208
▁ㅌㅗㅇㄱㅡㄴ	-9209
▁KS	-9210
▁ㄴㅏㅊㅅㅓㄹ	-9211
▁EXP	-9212
▁Core	-9213
▁ㄸㅡㄴㄱㅡㅁㅇㅓㅄ	-9214
▁ㅊㅜㅇㅁㅜ	-9215
▁ㅍㅔㄹㅌㅡ	-9216
ㅘㄱ	-9217
ㅇㅘㄴㅅㅓㅇ	-9218
ㅈㅏㅇㅈㅏㅇㅇㅣ	-9219
▁1953	-9220
▁ㅂㅔㄴㅊㅡ	-9221
▁ㄱㅓㅁㅅㅐㄱㅇㅓ	-9222
▁ㅂㅗㄹㄹㅣ	-9223
▁ㅊㅓㄱㅎㅏ	-9224
▁ㅇㅣㄹㅅㅐㅇ	-9225
ㄷㅗㅇㄷㅐ	-9226
▁ㄱㅏㄴㅈㅏㅇ	-9227
▁ㅈㅓㅇㅁㅕㅇㅎㅜㄴ	-9228
▁APC	-9229
▁ㅅㅓㅇㄷㅗㅇ	-9230
▁ㅉㅜ	-9231
ision	-9232
▁ㅅㅣㄴㄱㅓㅁ	-9233
▁TB	-9234
▁te	-9235
▁ㄱㅗㄹㅅㅜ	-9236
▁ㅁㅏㄴㅎㅚ	-9237
▁ㄱㅣㄴㅈㅏㅇㄱㅏㅁ	-9238
▁ㅎㅗㄴㄴㅏ	-9239
ute	-9240
▁ㄱㅏㅇㄹㅕㅇ	-9241
▁ㅇㅑㅇㅍㅕㅇ	-9242
ata	-9243
▁Eng	-9244
▁ㅍㅕㄴㄷㅗ	-9245
ump	-9246
▁ㅅㅣㄴㅇㅑ	-9247
▁ㅈㅓㅇㅈㅣㄱ	-9248
▁ㅈㅓㅇㄱㅕㅇ	-9249
▁ㅇㅕㅇㅇㅜㅇㅈㅓㄴㅅㅓㄹ	-9250
▁ㅎㅗㅇㅅㅜ	-9251
▁ㅁㅏㅈㅊㅜㅁ	-9252
▁ㅊㅏㄱㄱㅗㅇ	-9253
HC	-9254
▁ㅈㅓㅇㅅㅓㄹ	-9255
▁ㅊㅜㄴㅊㅜ	-9256
ㄹㅡㄴㅅㅐㄱ	-9257
▁ㅎㅏㄴㄴㅣ	-9258
▁ㅇㅔㄱㅅㅔㄹ	-9259
▁{{{-	-9260
ㅅㅔㅂㅌㅣ	-9261
▁ㅅㅓㄴㅂㅣ	-9262
ㄱㅝㄴㄷㅗ	-9263
▁ADVANC	-9264
▁ㄱㅡㅂㅅㅗㄱ	-9265
▁ㄱㅣㄹㅁㅗㄱ	-9266
▁ㅇㅘㄴㄱㅡㅂ	-9267
▁ㅂㅜㄴㄷㅏㅇㅅㅓㄴ	-9268
▁Top	-9269
ㄹㅓㅇㅇㅣ	-9270
▁ㅊㅗㅇㄱㅜ	-9271
ㅁㅜㅇ	-9272
▁way	-9273
▁ㅂㅣㄹㅎㅔㄹㄹㅡㅁ	-9274
▁ㅎㅏㄴㄱㅕㄹ	-9275
ㅅㅡㅇㅇㅜ	-9276
▁ㅅㅣㄴㄷㅡ	-9277
ㅇㅕㅇㅎㅑㅇ	-9278
▁ㄱㅠㄹ	-9279
▁ㄲㅗㅁㅉㅏㄱ	-9280
▁Off	-9281
▁ㅂㅔㄱ	-9282
ㅂㅏㅇㅈㅣ	-9283
▁ㅂㅜㄴㄱㅘ	-9284
▁ㅇㅔㄴㄷㅗ	-9285
▁ㅇㅘㄴㅈㅜ	-9286
▁ㅍㅕㅇㅈㅣ	-9287
▁ㄲㅓㅁ	-9288
▁ㄷㅗㅇㄱㅜㄱ	-9289
▁ve	-9290
▁7000	-9291
ㅇㅅㅡ	-9292
▁Ext	-9293
▁ㅇㅏㄹㅁㅏㅈ	-9294
▁ㅈㅓㄹㅇㅑㄱ	-9295
ㅇㅛㅇㅁㅜㄹ	-9296
▁ㅇㅣㄹㅈㅓㅇㄹㅑㅇ	-9297
▁TE	-9298
oney	-9299
ㄹㅓㅂㅎㅣ	-9300
▁ㅇㅣㄴㅅㅡㅇ	-9301
▁ㅆㅐ	-9302
▁ㄹㅜㅇ	-9303
▁ㄴㅏㅁㅅㅏㄴ	-9304
▁ㄴㅏㅂㅍㅜㅁ	-9305
▁ㅂㅏㄹㄹㅔㄴㅅㅣ	-9306
▁ㄱㅡㄴㅊㅣㄴ	-9307
BY	-9308
ㅇㅛㄱㅈㅏㅇ	-9309
▁ㅈㅓㅇㄷㅗㅇ	-9310
▁Mark	-9311
▁ㅇㅕㄹㄱㅘㅇ	-9312
▁ㅁㅔㅅㄷㅙ	-9313
▁ㅂㅣㄴㅅㅡ	-9314
▁ㅅㅣㄴㅌㅏ	-9315
▁Little	-9316
▁ㅅㅓㄴㅂㅏㄹㅌㅜ	-9317
▁Cap	-9318
▁ㅅㅐㅇㄱㅖ	-9319
▁ㅇㅝㄹㄷㅡㅇㅎㅣ	-9320
▁ㅇㅕㄱㅁㅏ	-9321
▁209	-9322
▁^	-9323
▁Special	-9324
▁1957	-9325
▁ㅅㅏㅇㅂㅕㅇ	-9326
▁ㄹㅏㄱㅅㅡ	-9327
▁ㅇㅏㅍㅈㅏㅇ	-9328
▁gr	-9329
▁ㅌㅗㄱㅌㅗㄱ	-9330
▁ㅈㅜㅇㅅㅜㄴㅇㅑㅇㅎㅏㅁ	-9331
ㄴㅡㅁ	-9332
▁ㅌㅡㅁㅅㅐ	-9333
▁ㄴㅐㅇㅎㅗㄱ	-9334
▁ㅇㅡㅁㅇㅏㄱㄱㅏ	-9335
▁ph	-9336
▁ㅌㅡㄱㅊㅜㄹㄴㅏ	-9337
▁now	-9338
▁ㄴㅡㄴㄱㅜㄴ	-9339
▁ㄱㅡㅂㅅㅏㅇㅅㅡㅇ	-9340
▁ZZ	-9341
▁ㅇㅡㅁㄹㅕㄱ	-9342
▁1947	-9343
ㄱㅏㄴㅇㅣ	-9344
▁ㅅㅣㅁㅂㅗㄱ	-9345
▁ㄱㅗㅇㄱㅕㄱㄷㅐ	-9346
▁That	-9347
red	-9348
▁ㅌㅗㅇㅇㅕㄱ	-9349
ocal	-9350
▁ㅂㅜㄹㅂㅏㄹ	-9351
ross	-9352
ㅅㅣㄴㄹㅛ	-9353
▁ㅅㅣㅁㅂㅜ	-9354
▁ㅈㅜㅇㄹㅗㄴ	-9355
▁ㅊㅓㄴㅈㅣㄴ	-9356
▁BP	-9357
ㅃㅗㅇ	-9358
ㅇㅝㄹㄷㅡ	-9359
GN	-9360
ㅇㅑㄴㅅㅐㄱ	-9361
▁ㅍㅗㄹㄹㅏ	-9362
ㄱㅜㄱㅁㅣㄴ	-9363
▁ㅆㅏㅇㄱㅓㅁ	-9364
▁ㅅㅑㄹ	-9365
▁ㅈㅣㄻㅇㅓ	-9366
▁ac	-9367
ㅋㅡㄹㄹㅗㄴ	-9368
ㅎㅕㄴㅁㅣㄴ	-9369
ㄷㅏㄹㅂㅜ	-9370
▁ㅂㅏㄱㅌㅐ	-9371
ㅈㅜㅇㅎㅐ	-9372
▁ㅈㅓㄴㄴㅕㅁ	-9373
ㄹㅡㄹㅌㅔ	-9374
▁ㄱㅗㅇㅅㅣ	-9375
ㄴㄷㅐ	-9376
▁ㅋㅔㅅ	-9377
ㄱㅘㅇㅅㅜ	-9378
▁ㅁㅏㄴㄴㅕㄴ	-9379
▁ㅈㅓㄹㄱㅏㅁ	-9380
▁ㅎㅏㅂㄷㅏㅇ	-9381
ㅍㅗㄹㅌㅡ	-9382
▁ㅅㅓㄱㅌㅏㄴ	-9383
▁net	-9384
ㅅㅓㅇㅈㅜ	-9385
ㅉㅓㄴㅈㅣ	-9386
ㅍㅏㅂ	-9387
▁ㅇㅓㄱㅇㅏㅂ	-9388
ㅅㅗㅅ	-9389
▁MOV	-9390
▁RPM	-9391
▁Comp	-9392
▁ㅅㅡㅇㄱㅖ	-9393
▁ㅊㅜㄹㅇㅣㅂㄱㅜ	-9394
▁ㅇㅏㄱㅇㅕㅇㅎㅑㅇ	-9395
ner	-9396
▁Free	-9397
▁ㅈㅏㅇㅈㅔ	-9398
ㄱㅘㄴㅎㅏㄱㄱㅛ	-9399
ㄱㅘㄴㄱㅖ	-9400
aid	-9401
▁ㄱㅜㄴㅈㅜㅇ	-9402
▁em	-9403
▁TT	-9404
▁ㄱㅘㅇㄱㅛ	-9405
▁ㄴㅏㅇㅁㅏㄴ	-9406
▁ㄱㅏㄴㅊㅓㅂ	-9407
ㅇㅏㄱㄱㅣ	-9408
ㄷㅡㄱㅈㅓㅁ	-9409
▁ㅇㅔㄹㄷㅏ	-9410
▁ㅇㅣㄱㅁㅕㅇ	-9411
▁ㄱㅕㅇㅅㅏㅇㄷㅗ	-9412
ㄱㅕㄹㅊㅐㄱ	-9413
ㅁㅜㄹㅅㅓㄴ	-9414
ㅂㅓㅂㅇㅝㄴ	-9415
OCK	-9416
▁UR	-9417
▁ㅅㅓㄴㅂㅏㄹㅈㅓㄴ	-9418
▁Every	-9419
▁ㅅㅓㄱㅂㅏㅇ	-9420
▁ㅅㅜㄱㅁㅕㅇ	-9421
▁Rob	-9422
▁get	-9423
▁ㅂㅏㄱㅅㅔ	-9424
▁ㅇㅝㄴㅅㅏㄴ	-9425
24	-9426
▁Bad	-9427
▁ㄷㅗㄱㅅㅓㄹ	-9428
ㅈㅜㄴㅍㅛ	-9429
▁ㅈㅏㅇㄷㅐ	-9430
▁ㅎㅏㄱㅍㅏ	-9431
▁ㅉㅣㅁ	-9432
ㅁㅠㄹㄹㅓ	-9433
▁ㄱㅡㅂㅇㅕ	-9434
▁ㅂㅏㅇㅁㅏㅇ	-9435
▁ㅍㅕㅇㅈㅜㄴ	-9436
ㄴㄷㅏㅂㅅㅣ	-9437
▁ㅁㅔㄴㅌㅗ	-9438
ㅇㅛㅇㄹㅑㅇ	-9439
ASS	-9440
▁BMW	-9441
▁ㅋㅏㄴㅈㅏ	-9442
ㄱㅕㄹㅅㅏ	-9443
▁what	-9444
▁ADVANCED	-9445
▁1914	-9446
▁ㄱㅣㄴㅌㅗ	-9447
▁ㅅㅣㄴㄱㅕㄱ	-9448
ㅅㅗㅇㄱㅣ	-9449
▁ㄴㅗㅇㅇㅓ	-9450
▁ㅈㅗㄱㅂㅗ	-9451
lection	-9452
▁ㄹㅏㅇㄱㅡ	-9453
▁ㅈㅓㄹㄷㅗ	-9454
ㅇㅡㄱㄱㅗ	-9455
▁ㄱㅡㄱㅅㅓㅇ	-9456
▁ㅊㅓㄴㅇㅘㅇ	-9457
ird	-9458
ㅅㅓㄴㅅㅡ	-9459
▁ㅁㅏㄴㅇㅜ	-9460
ㅇㅡㅁㅅㅗㄱ	-9461
▁ㅇㅝㄴㅅㅓㅇ	-9462
ㅇㅣㄴㅊㅏ	-9463
▁ㅅㅣㄹㄱㅏㅁ	-9464
▁ㅇㅐㄱㅅㅜ	-9465
▁ㅁㅏㅇㄱㅏㄱ	-9466
ㄴㅜㄱㅅㅡ	-9467
▁ㅊㅓㅁㅂㅜ	-9468
▁ㅅㅡㅇㅅㅡㅇ	-9469
▁ㅈㅓㅇㅈㅜㄴㅎㅏ	-9470
ton	-9471
▁ap	-9472
▁mA	-9473
▁ㅇㅣㅂㅅㅗ	-9474
its	-9475
▁!!!	-9476
▁ㅍㅕㄴㅇㅐ	-9477
ㄹㅗㄹㄹㅣㅇ	-9478
▁ㅅㅣㅁㅇㅕㅇ	-9479
▁ㅎㅠㅇㄱㅣ	-9480
▁ㄱㅕㅇㅇㅕㅇㅎㅏㄱ	-9481
▁ㄱㅓㄴㅇㅢ	-9482
▁ㅅㅐㅇㅍㅗ	-9483
▁ㅂㅏㄱㅂㅕㅇㅎㅗ	-9484
ㅇㅣㄴㅅㅓㅇ	-9485
ㅈㅓㄴㄱㅘㅇㅇㅕㄱㅅㅣ	-9486
ㅌㅡㄹㄹㅐㄴ	-9487
▁Rain	-9488
▁ㅇㅗㄹㅇㅣㄴ	-9489
▁ㄲㅕ	-9490
▁540	-9491
▁1100	-9492
▁ㄱㅡㄴㅇㅠㄱㅈㅣㄹ	-9493
▁512	-9494
ㅁㅏㄴㄷㅗ	-9495
▁ㅎㅏㄴㅈㅜㅇ	-9496
▁Af	-9497
▁ㄱㅓㄷㅇㅓ	-9498
▁ㅌㅜㄱㅎㅏ	-9499
▁ㅇㅓㅁㅇㅕㄴ	-9500
▁May	-9501
▁Order	-9502
▁ㄱㅡㄴㅎㅘㅇ	-9503
▁ㅎㅘㅇㅅㅗ	-9504
▁ㅂㅜㄱㅅㅓ	-9505
▁ㅇㅕㅇㅈㅐ	-9506
▁don	-9507
▁ㅁㅜㄴㄱㅘㄴ	-9508
▁ㅅㅣㄱㅅㅣㄴ	-9509
▁ㅈㅏㅇㅁㅣㄴ	-9510
▁ㅇㅛㄴ	-9511
▁ㄱㅗㄱㅅㅏ	-9512
▁ㅇㅏㄴㅅㅣㄱ	-9513
▁ㄱㅏㄱㅂㅗㄴㄱㅏ	-9514
▁ㅎㅗㅇㅈㅜㄴㅍㅛ	-9515
▁ㅈㅠㄹ	-9516
ㅍㅏㅅ	-9517
▁1938	-9518
ㅅㅗㅇㅅㅓㄴ	-9519
▁ㅁㅐㅇㅅㅜ	-9520
▁ㅂㅕㄹㄱㅓ	-9521
▁ㅈㅓㅇㅇㅠ	-9522
▁ㅁㅓㄹㄹㅣㄴ	-9523
▁ㅎㅏㅂㅅㅏㄴ	-9524
▁365	-9525
ㄱㅡㅁㅈㅔ	-9526
▁KA	-9527
vent	-9528
▁ㄹㅣㄴㄷㅏ	-9529
▁ㄷㅗㅇㅂㅏㅇㅅㅣㄴㄱㅣ	-9530
▁ㄷㅗㅇㄷㅗㄱ	-9531
ㅅㅏㄴㄱㅜㄴ	-9532
▁ㅈㅓㄴㅂㅗㄱ	-9533
▁ㄱㅗㅇㄱㅜ	-9534
▁ㅅㅗㅇㅅㅣㄴ	-9535
▁MiG	-9536
▁ㅂㅏㅁㅈㅜㅇ	-9537
tm	-9538
ㄲㅡㄹㄹㅣ	-9539
▁ㅁㅕㄴㄷㅗ	-9540
▁ㅈㅓㅇㅇㅐㄱ	-9541
▁HR	-9542
▁sw	-9543
▁1300	-9544
▁ㅂㅏㄴㅉㅗㄱ	-9545
▁ㅅㅜㄴㅅㅏㄱ	-9546
▁ㅎㅕㅂㄱㅗㅇ	-9547
▁Orig	-9548
ㅇㅛㅇㅅㅏ	-9549
▁ㅇㅣㄹㅍㅏ	-9550
▁ㅈㅓㄴㅈㅐㅇㅌㅓ	-9551
ㅅㅓㅇㅇㅐ	-9552
ura	-9553
▁ㄱㅕㅇㄷㅐ	-9554
ㅋㅔㅅㄷㅏㄴ	-9555
▁ㄷㅏㄹㄹㅏㅇ	-9556
ㅇㅕㅇㅇㅜㅇㅈㅓㄴㅅㅓㄹ	-9557
▁ㅈㅓㄴㅇㅟ	-9558
ㅋㅣㄹㄹㅔ	-9559
▁ㅁㅜㅇㄱㅐ	-9560
ㅏㄹㅏ	-9561
▁ㅊㅏㄴㅅㅏ	-9562
▁ㄱㅗㅇㅈㅓㄴ	-9563
▁ㄱㅡㅂㅅㅡㅂ	-9564
▁ㅅㅣㄱㅂㅕㄹ	-9565
▁ㄱㅣㅁㅈㅗㅇㄱㅜㄱ	-9566
▁++	-9567
▁Po	-9568
ㅍㅏㄴㅅㅗ	-9569
▁ㅈㅓㅇㅈㅔ	-9570
▁NA	-9571
▁ㅎㅏㄴㄱㅜㄱㅅㅣㄱ	-9572
▁ㅎㅘㄴㅅㅏㄴ	-9573
▁ㅌㅔㅁㅍㅔ	-9574
▁png	-9575
ㄹㅗㄹㄹㅏ	-9576
ㅂㅡㄹㄹㅐㄴㄷㅡ	-9577
ㅂㅏㅇㅂㅣ	-9578
▁ㅅㅣㄴㅂㅗㅇ	-9579
▁ㅈㅓㅇㅎㅕㄴ	-9580
▁ㅊㅣㄹㄷㅡ	-9581
▁ㅅㅓㄴㅎㅜ	-9582
▁ㅅㅣㄴㅁㅣㄴ	-9583
▁206	-9584
▁ㅍㅗㅅ	-9585
▁ㅌㅏㄹㅈㅜ	-9586
ㅅㅏㅇㅇㅣㄹ	-9587
▁ㅊㅣㄴㅅㅓㄴ	-9588
▁ㅎㅓㅁㅇㅏㄱ	-9589
▁ㅂㅕㄴㅁㅗ	-9590
▁ㅇㅏㄱㅇㅕㄴ	-9591
▁ㅂㅏㄹㅎㅛ	-9592
▁ㅅㅔㄴㄱㅗ	-9593
▁ㅈㅣㄹㅈㅣㄹ	-9594
▁ㅅㅜㄴㅎㅏㅇ	-9595
ㅊㅜㄱㅈㅓㄴㅊㅏ	-9596
▁ㄱㅕㅇㅅㅓㄴ	-9597
▁ㅅㅗㄴㅂㅏㄹ	-9598
ㄸㅡㅁ	-9599
▁ㄱㅜㄴㅂㅓㄹ	-9600
▁Stri	-9601
▁ㅁㅏㄹㄹㅏ	-9602
ㅅㅏㅇㄱㅜㄴ	-9603
ㅅㅓㅇㅅㅣ	-9604
▁Are	-9605
ㅅㅓㄱㄱㅣ	-9606
▁ㄱㅓㄴㄷㅐ	-9607
ape	-9608
▁ㅁㅕㅇㅎㅘㄱㅎㅣ	-9609
▁ㅇㅣㄹㄹㅏ	-9610
▁ㅂㅕㄴㅅㅗㄱ	-9611
ster	-9612
▁ㅁㅜㄴㅍㅏ	-9613
▁ㅅㅐㅇㅅㅏㄴㄹㅕㄱ	-9614
▁TBS	-9615
orts	-9616
▁ㄷㅗㄱㅅㅓㅇ	-9617
ize	-9618
▁ㅁㅜㄴㄱㅘ	-9619
▁ㅅㅜㅅ	-9620
▁ㅅㅣㄴㅇㅑㄱ	-9621
▁Best	-9622
ㅆㅜㄱ	-9623
ㅇㅣㄹㄱㅓㄴ	-9624
ㅇㅣㄹㅂㅗㄴ	-9625
son	-9626
ㄲㅗㅁ	-9627
anna	-9628
▁ㅂㅗㅁㅂㅓ	-9629
▁Pack	-9630
▁ㅈㅓㄴㅎㅘㅇ	-9631
▁ㅎㅏㅇㅅㅓㅇ	-9632
▁ㅁㅗㅅㅅㅐㅇㄱㅣ	-9633
▁ㅂㅕㅇㅎㅏㅂ	-9634
▁ㅍㅏㄴㅁㅕㅇ	-9635
▁ㄱㅘㅇㅂㅜ	-9636
▁ㅇㅏㄱㄷㅏㄴ	-9637
▁ㅇㅑㅇㅈㅣ	-9638
▁ㅂㅔㄹㅂㅔㅅ	-9639
ILL	-9640
▁pe	-9641
▁ㅂㅏㄴㅈㅜ	-9642
▁ㅇㅕㄴㅎㅘ	-9643
▁ㅋㅓㄹㅊㅕ	-9644
▁ㅋㅡㄴㅇㅣㄹ	-9645
▁ㅁㅜㄴㅈㅣ	-9646
▁ㄱㅕㄱㄴㅏㅂ	-9647
xt	-9648
▁ㅇㅓㅂㅅㅗ	-9649
ㅅㅏㅇㄱㅡㅁ	-9650
▁ㅈㅏㅇㄷㅏㅁ	-9651
▁ㄱㅗㅇㅅㅓㄱ	-9652
▁ㅇㅕㄱㅈㅓㄴㅅㅡㅇ	-9653
▁ㅁㅣㄴㅈㅣ	-9654
▁ㅍㅕㅇㅇㅣ	-9655
ㄴㅑㅇㅌㅓ	-9656
▁ㅉㅗㄱㅈㅣ	-9657
▁ㄴㅏㄴㅈㅏㅇ	-9658
ㅅㅣㄹㄹㅗㄱ	-9659
▁ㅊㅓㄴㅈㅏ	-9660
▁ㄴㅐㅂㄷㅏ	-9661
ㅈㅗㅇㅇㅣㄹㄱㅘㄴ	-9662
▁they	-9663
▁ㅅㅏㅇㅊㅔ	-9664
▁ㄹㅣㅇㅋㅓㄴ	-9665
AKA	-9666
ㅅㅣㄱㅇㅓ	-9667
▁ㅇㅓㅂㅈㅏ	-9668
ㅇㅜㄹㅈㅡㅇ	-9669
▁ㅅㅏㅇㄱㅕㅇ	-9670
▁ㅈㅡㅇㄱㅏㅇ	-9671
▁ㅍㅣㄱㅅㅕㄴ	-9672
▁ㅊㅏㅇㄷㅏㅇ	-9673
▁his	-9674
▁ㅇㅣㅂㅈㅓㅁ	-9675
▁ㅎㅡㄱㅂㅏㄹ	-9676
▁ㄲㅜㄱ	-9677
ㅋㅔㄹㄹㅔ	-9678
▁ㅈㅣㄴㅈㅓㄴ	-9679
▁GA	-9680
▁PA	-9681
▁ㄱㅡㄹㅆ	-9682
▁ㅇㅕㄹㅎㅘ	-9683
▁ㅇㅣㄹㅋㅓㄹ	-9684
▁tw	-9685
ㄱㅡㅂㅍㅜㅁ	-9686
▁ㅇㅑㅇㅇㅑㅇ	-9687
ㄷㅓㄼ	-9688
▁ㄹㅣㄴㅊㅣ	-9689
▁ㅅㅜㄴㄹㅖ	-9690
▁ㅎㅢㄴ	-9691
▁ㅇㅡㄴㄱㅡㄴㅅㅡㄹㅉㅓㄱ	-9692
▁Mir	-9693
ㅁㅜㄴㅎㅘ	-9694
▁PH	-9695
▁ㅁㅕㅇㅂㅐㄱㅎㅣ	-9696
ㄹㅏㅇㅈㅓㄴㅅㅓㄹ	-9697
▁ㅎㅘㅇㅈㅏ	-9698
▁ㅈㅏㅇㅂㅏㄹ	-9699
▁Mbps	-9700
▁9000	-9701
▁ㅁㅐㅇㅈㅏㅇ	-9702
ㄹㅐㄴㅌㅡ	-9703
▁ㅇㅗㄹㄹㅔ	-9704
▁kn	-9705
ama	-9706
▁IMF	-9707
▁ㄱㅗㄴㄷㅗ	-9708
▁ㅁㅏㅇㅈㅏ	-9709
▁ㅈㅓㄱㄱㅣ	-9710
▁ㅃㅐㅇ	-9711
oud	-9712
▁ㅇㅘㅇㅅㅓㅇ	-9713
28	-9714
▁mAh	-9715
▁ㅊㅏㄱㅊㅟ	-9716
▁ㄱㅗㅇㅈㅓㄱ	-9717
▁ㅈㅓㅇㅇㅣㄴ	-9718
▁Joh	-9719
▁ㅊㅏㄱㅇㅏㄴ	-9720
ma	-9721
OSS	-9722
▁FO	-9723
▁ㄱㅣㄹㅌㅣ	-9724
▁ㅇㅠㄴㅇㅕㅇ	-9725
▁ㅁㅣㄴㅌㅡ	-9726
▁ㅇㅏㅁㅅㅓㄱ	-9727
ze	-9728
▁NORM	-9729
▁ㄷㅗㅇㅌㅏㄴ	-9730
▁ㅇㅗㄱㅅㅡ	-9731
▁ㅍㅕㄴㅈㅣㅂㅈㅏ	-9732
ㅁㅓㄴㄷㅡ	-9733
▁370	-9734
▁ㄱㅜㄹㄹㅣㅁ	-9735
▁ㄱㅗㄷㅇㅣ	-9736
▁ㅇㅝㄴㅇㅏㄴ	-9737
▁ㄴㅗㄹㄹㅓ	-9738
ㄷㅗㅇㄷㅏㅇ	-9739
▁#,	-9740
▁ㅂㅡㄹㄹㅏㅇ	-9741
hy	-9742
zy	-9743
ㅁㅣㅌ	-9744
▁ㅅㅐㄱㄱㅣ	-9745
▁ㅍㅡㄹㄹㅗㅅ	-9746
▁ㅅㅓㅇㅊㅟ	-9747
▁ㅅㅜㄱㅈㅣ	-9748
▁ㄱㅡㅂㅈㅡㅇ	-9749
▁171	-9750
▁ㅈㅣㅅㄱㅓ	-9751
END	-9752
ㅊㅔㄴ	-9753
▁ㄱㅘㅇㅎㅐ	-9754
▁ㅍㅡㄹㄹㅐㅅㅍㅗㅁ	-9755
IDE	-9756
▁First	-9757
▁ㅎㅏㄴㄴㅜㄴ	-9758
▁ㅈㅐㅇㅌㅏㄹㅈㅓㄴ	-9759
▁ㄸㅐㅁ	-9760
▁ㅍㅏㄴㄴㅔㄹ	-9761
▁ㅇㅡㄴㅇㅓ	-9762
ㄴㅏㅈ	-9763
▁NORMAL	-9764
▁ㅎㅏㄱㄱㅜㄴ	-9765
▁1951	-9766
▁ㅈㅓㄱㄱㅘ	-9767
▁ㅇㅏㅁㅁㅜㄱ	-9768
▁ㅇㅏㅍㅁㅓ	-9769
▁ㅇㅓㄴㄸㅡㅅ	-9770
▁ㄱㅡㅂㅅㅗㄱㄷㅗ	-9771
ㄴㅓㄼ	-9772
▁ㅂㅔㄹㄹㅣ	-9773
err	-9774
▁ㅁㅏㄹㅂㅓ	-9775
▁ㅈㅏㄱㅁㅜㄹ	-9776
ㅅㅓㄴㅂㅓ	-9777
ㅎㅐㅇㅅㅓㅇ	-9778
▁ㅅㅓㄹㅁㅜㄴ	-9779
▁ㄴㅏㄴㄷㅔ	-9780
▁ㄱㅐㅇㄷㅏㄴ	-9781
▁ㅌㅐㄹㄹㅓㄴㅌㅡ	-9782
▁ㅅㅗㅇㅈㅣ	-9783
▁ㅍㅕㅇㅅㅣ	-9784
▁ㄴㅏㅁㅋㅗ	-9785
▁ㅅㅓㄴㄷㅓ	-9786
ㅅㅡㅇㅎㅜㄴ	-9787
▁ㅇㅡㄴㅅㅐㄱ	-9788
▁ㅇㅝㄱㅅㅡ	-9789
▁ㅂㅓㄴㅇㅕㅇ	-9790
ㅁㅣㄴㅈㅏ	-9791
▁ㅍㅏㄹㄷㅏ	-9792
▁ㅂㅓㄴㅂㅓㄴ	-9793
▁Perf	-9794
▁ㄱㅣㄹㄹㅐ	-9795
▁ㅍㅕㅇㅇㅢ	-9796
▁ㅅㅜㄴㅈㅓㄴㅎㅣ	-9797
ume	-9798
▁ㅂㅜㄹㄱㅗㅁ	-9799
▁ㅎㅏㄴㅈㅗㄱ	-9800
▁ㄷㅗㄱㄷㅏㄴ	-9801
▁ㅌㅡㄹㄹㅣㅁㅇㅓㅄ	-9802
▁ㅇㅟㄴㅅㅡ	-9803
▁ㅊㅓㅇㅇㅝㄴ	-9804
▁161	-9805
▁ㅎㅣㅅ	-9806
▁City	-9807
▁ㅂㅏㅇㄱㅘㄴ	-9808
▁NMB	-9809
▁Down	-9810
ㅈㅗㅇㄷㅏㅇ	-9811
▁181	-9812
▁Char	-9813
ㅈㅗㄴㄷㅗ	-9814
ㅅㅓㅇㅎㅜㄴ	-9815
▁ㅍㅕㅇㅁㅕㄴ	-9816
▁ㄷㅗㅇㄱㅕㄹ	-9817
▁ㅋㅝㅇ	-9818
▁ㅎㅘㄹㄱㅣ	-9819
▁ㅅㅓㅇㄱㅡㅂ	-9820
yes	-9821
▁ㄱㅣㅂ	-9822
▁ㄲㅓㄹㄲㅡ	-9823
▁ㄴㅏㄱㅅㅓ	-9824
▁ㅅㅣㄴㅊㅏ	-9825
▁ㄱㅗㅇㅊㅓㄴ	-9826
23	-9827
▁Mem	-9828
▁ㅂㅓㅅㄱㅕ	-9829
ㄱㅗㅇㄱㅏㄴ	-9830
ㅅㅠㅁ	-9831
ㄴㅓㄹㅅㅡ	-9832
▁ㅌㅡㄱㅅㅐㄱ	-9833
▁215	-9834
ㅅㅡㄹㄹㅗ	-9835
▁ㅉㅏㅂ	-9836
ㅅㅏㅇㅅㅡ	-9837
ㅈㅓㄴㅇㅕㄱ	-9838
▁ㅁㅏㄴㅈㅏㅇ	-9839
net	-9840
▁DEF	-9841
ㄱㅐㄱㄱㅣ	-9842
ㅅㅓㄴㅅㅣ	-9843
▁"..	-9844
▁ㅈㅐㅅ	-9845
ㄲㅓㅅㅎㅐ	-9846
ㄱㅗㄱㅈㅓㄹ	-9847
ㅅㅏㄹㅇㅣ	-9848
▁ㅇㅣㄴㅈㅔ	-9849
ㅌㅡㄹㄹㅏㄴㅌㅣ	-9850
▁Hot	-9851
▁ㅁㅏㄱㅁㅏㄹ	-9852
▁ㅎㅡㄱㅅㅐㄱ	-9853
UG	-9854
ga	-9855
▁ㄱㅏㄱㅂㅕㄹ	-9856
▁HT	-9857
▁235	-9858
▁MAD	-9859
▁ㅂㅏㅇㅇㅏ	-9860
▁ㅊㅗㅇㅎㅚ	-9861
▁ㄱㅘㄴㅎㅕㄴ	-9862
▁NP	-9863
ㅈㅜㄴㄱㅣ	-9864
▁Happy	-9865
▁ㅅㅓㄴㅂㅕㄹ	-9866
▁ㅊㅜㄹㅅㅐㅇㅈㅣ	-9867
▁#!	-9868
▁ㅈㅡㄴ	-9869
▁ㅅㅜㄱㅈㅓㄱ	-9870
▁ㅇㅜㄴㄷㅗㅇㄱㅏ	-9871
▁wiz	-9872
▁Miss	-9873
▁ㄲㅗㄱㄷㅐ	-9874
▁ㅍㅣㄹㅅㅡㅇ	-9875
▁just	-9876
▁ㅅㅓㅇㅎㅢ	-9877
▁ㅂㅐㄱㅁㅏ	-9878
▁ㅂㅜㄴㅅㅜ	-9879
▁ㅇㅏㄹㅈㅔ	-9880
▁275	-9881
▁RED	-9882
▁ㅈㅏㄴㅅㅗ	-9883
▁Und	-9884
▁ㅈㅜㅇㅇㅢ	-9885
▁Ret	-9886
ㄱㅕㄱㅌㅐ	-9887
▁ㅍㅜㄹㅂㅐㄱ	-9888
83	-9889
▁dis	-9890
▁ㄷㅗㄹㅍㅜㅇ	-9891
▁ㅎㅐㅇㄷㅗㅇㄹㅕㄱ	-9892
▁SHD	-9893
▁ㅎㅕㅇㅂㅓㅂ	-9894
ㅂㅏㅇㄱㅜㄴ	-9895
▁AGE	-9896
ㅈㅓㄱㅈㅣ	-9897
▁Class	-9898
▁ㅂㅐㄱㅅㅡ	-9899
▁ㅇㅏㄴㅌㅗㄴ	-9900
▁207	-9901
ㅅㅏㄴㄷㅐ	-9902
▁Stage	-9903
▁Break	-9904
▁ㅎㅣㅁㄱㅕㅂ	-9905
▁ㅈㅓㅇㅅㅣㄴㅂㅕㅇ	-9906
▁Dec	-9907
26	-9908
ㅋㅡㄹㄹㅏ	-9909
ㄷㅏㄱㅊㅣ	-9910
▁ㄷㅏㄴㅌㅏ	-9911
▁ㄱㅕㅇㅅㅜㄴㅇㅑㅇㅎㅏㅁ	-9912
awn	-9913
ㅁㅣㄴㅇㅜ	-9914
▁ㄴㅗㅇㄷㅗ	-9915
▁ㄷㅗㅇㄱㅡ	-9916
▁ㅍㅜㅇㅅㅗㄱ	-9917
▁MUS	-9918
IAL	-9919
▁ㄹㅣㄴㅇㅣ	-9920
▁ㅎㅕㄴㅅㅔ	-9921
ius	-9922
▁747	-9923
▁ㅅㅓㄹㄱㅛ	-9924
▁ㅅㅜㄴㅈㅗ	-9925
▁ㅁㅕㅇㅅㅣㅁ	-9926
ㅎㅘㅇㅎㅜ	-9927
▁ㅈㅓㅇㅊㅏㄹㄱㅣ	-9928
▁ㄲㅏㄴ	-9929
▁ㅊㅏㄱㅅㅜ	-9930
▁ㄱㅏㄱㄱㅘㅇ	-9931
▁ㅇㅏㅍㅈㅏㅇㅅㅓ	-9932
▁ㄱㅗㄹㄱㅕㄱ	-9933
▁STA	-9934
▁ㅉㅏㅁㅃㅗㅇ	-9935
▁Elect	-9936
▁ㅎㅐㅇㅈㅓㅇㅂㅜ	-9937
▁ㅂㅏㅇㅇㅕㅇㅇㅣㄹ	-9938
que	-9939
▁ㅅㅓㄷ	-9940
▁ㅂㅜㄹㅇㅏㄴㄱㅏㅁ	-9941
▁ㄷㅏㄴㄷㅗ	-9942
▁ㅊㅔㅅ	-9943
▁ㅇㅕㄱㄱㅣ	-9944
▁ㅈㅓㄴㄱㅗㄱ	-9945
▁ㅇㅕㅌ	-9946
▁ㅎㅕㅇㅈㅜ	-9947
▁ㅇㅗㄴㅈㅓㄴ	-9948
27	-9949
UD	-9950
▁ㅇㅑㄱㅅㅏ	-9951
▁ㄱㅣㅁㅊㅓㄴ	-9952
▁ㅂㅕㄴㅅㅗㄱㄱㅣ	-9953
▁ㅋㅗㅂ	-9954
▁1936	-9955
▁ㅂㅏㄱㅎㅏ	-9956
▁ㄱㅡㄴㅂㅏㅇ	-9957
▁ㅎㅙ	-9958
ㄴㅏㄹㄹㅣ	-9959
▁ㅅㅣㄹㅋㅓㅅ	-9960
▁oh	-9961
▁ㅁㅕㄱ	-9962
▁ㄱㅗㄹㅉㅏ	-9963
▁ㄹㅏㅁㅂㅗ	-9964
▁ㅇㅑㅇㅈㅐ	-9965
att	-9966
▁ㅋㅏㄱ	-9967
▁over	-9968
▁ㅂㅏㄺㅎㅕ	-9969
▁ㅇㅐㅁㅍㅡ	-9970
▁ㄴㅏㅁㅊㅣㄴ	-9971
▁ㅈㅓㄴㅂㅓㅁ	-9972
▁ㅈㅓㅇㅅㅓㄴ	-9973
▁ㅈㅣㄴㅂㅓㅁ	-9974
▁ㅌㅗㅇㅊㅏㄹ	-9975
ole	-9976
▁ㄷㅏㅇㄱㅡㄴ	-9977
▁211	-9978
ㅆㅓㄹㅌㅡ	-9979
95	-9980
IO	-9981
ㅇㅣㄴㄹㅣ	-9982
▁ㅁㅗㄴㅌㅡ	-9983
▁ㄷㅡㅇㅇㅛㅇ	-9984
▁Legend	-9985
▁ㅋㅗㅇㄱㅗ	-9986
▁ㅎㅏㄴㅍㅏㄴ	-9987
▁ㅇㅣㄴㅍㅏ	-9988
▁ㅎㅗㅇㅊㅏ	-9989
ㅅㅓㅇㄱㅗㅇ	-9990
ㅂㅏㄲ	-9991
▁our	-9992
▁ㅇㅡㄴㅂㅣㅊ	-9993
▁ㅈㅓㄴㄱㅘㅇㅍㅏㄴ	-9994
▁ㄹㅓㅅ	-9995
ㅁㅏㄴㅎㅘ	-9996
▁ㅁㅜㄹㄹㅠ	-9997
▁EXTRA	-9998
▁ㅊㅓㄹㄱㅜ	-9999
ㅅㅓㄴㅇㅣㄴ	-10000
com	-10001
▁ㅅㅗㄱㅅㅏㄱ	-10002
ONE	-10003
▁EXPER	-10004
▁ㄷㅗㅇㅎㅏ	-10005
▁ㅂㅗㄱㅅㅣㄱ	-10006
▁ㅈㅓㄴㄱㅕㅇ	-10007
▁every	-10008
▁ㄴㅔㄹㅅㅡㄴ	-10009
ㅏㅇㅛ	-10010
ㄱㅡㄴㄷㅜ	-10011
▁ㅇㅕㅇㅅㅏ	-10012
▁TRA	-10013
ㅈㅏㅅㅈㅣㅂ	-10014
▁ㅂㅜㄹㄹㅠㄴ	-10015
▁GAME	-10016
ㅇㅣㄴㅊㅡ	-10017
▁ㄹㅖ	-10018
▁440	-10019
▁MOD	-10020
▁ㅅㅜㄴㅊㅏ	-10021
▁ㅇㅡㅁㅍㅏ	-10022
▁Rad	-10023
▁ㄱㅡㅁㅈㅓㅇ	-10024
▁ㄷㅏㅇㅇㅝㄴ	-10025
▁ㅊㅓㅇㄷㅗㅇ	-10026
▁Ry	-10027
▁Cor	-10028
ㄷㅗㄱㅅㅡ	-10029
▁950	-10030
▁Dest	-10031
▁ㅇㅕㄱㅈㅓㄴㅍㅐ	-10032
▁htm	-10033
▁ㅊㅓㄱㅊㅜ	-10034
▁ㅅㅏㅇㅂㅏㄴㅅㅣㄴ	-10035
▁ㄱㅏㄱㅈㅜ	-10036
▁ㅁㅏㄹㄸㅜㄱ	-10037
get	-10038
ㄱㅗㄴㅈㅡ	-10039
▁ㅍㅏㄴㄱㅛ	-10040
▁ㄱㅕㅁㅇㅣㅁ	-10041
▁ㄱㅗㄹㄷㅐ	-10042
▁ㅈㅣㄴㅈㅜㅇ	-10043
▁ㄱㅏㅂㅈㅜ	-10044
▁ㄱㅡㄱㄷㅗㅇ	-10045
▁ㅅㅓㅇㅂㅓㅁㅈㅚ	-10046
▁ㄴㅏㄴㅈㅏㅇㅍㅏㄴ	-10047
▁ㅂㅜㄹㄹㅑㅇㅂㅐ	-10048
▁ㅌㅗㅇㅍㅖ	-10049
▁ㄲㅏㅁㅃㅏㄱ	-10050
▁2021	-10051
▁ㅂㅜㄱㄷㅗㅇ	-10052
arth	-10053
▁ㅌㅏㄴㅈㅗㅇ	-10054
ㅌㅡㄹㄹㅐㄴㅌㅏ	-10055
▁ㅂㅗㄴㄸㅡ	-10056
▁ㄷㅗㅇㄸㅓㄹㅇㅓ	-10057
▁Aut	-10058
▁ㅅㅣㄹㅁㅜㄹ	-10059
▁Fre	-10060
▁Level	-10061
ㅅㅓㅇㅎㅑㅇ	-10062
▁ㅇㅕㄱㅈㅓㄱ	-10063
ㅂㅏㄹㄹㅕㄱ	-10064
▁TECHNIKA	-10065
INAL	-10066
▁ㅁㅣㅌㅂㅏ	-10067
▁ㅂㅜㄴㅍㅏ	-10068
▁ㅇㅏㄱㅅㅜ	-10069
▁ㅅㅏㅇㅇㅣㅁ	-10070
▁ㅇㅏㄹㅌㅡ	-10071
▁ㅇㅐㅇㄱㅡㄹ	-10072
▁ㅌㅗㅇㅈㅏㅇ	-10073
▁ㅌㅏㅂㅅㅡㅇㅈㅏ	-10074
▁ㄷㅗㅇㅅㅓㄴ	-10075
▁down	-10076
▁Fly	-10077
▁Tech	-10078
▁EXPERT	-10079
▁more	-10080
OTH	-10081
ㅁㅔㄴㅅㅕㄴ	-10082
▁ㅎㅏㅇㄱㅗㅇㄷㅐ	-10083
TER	-10084
▁=,	-10085
▁Port	-10086
▁ㅁㅗㄴㄷㅡ	-10087
▁214	-10088
▁Mac	-10089
▁ㅇㅑㅅ	-10090
▁ㄲㅡㅌㅇㅓㅄㅇㅣ	-10091
▁ㄷㅏㄴㅅㅜ	-10092
▁ㄱㅕㄹㄷㅏㄴ	-10093
▁ㅇㅓㄹㄹㅜㄱ	-10094
▁ㅇㅣㅂㅅㅓㄱ	-10095
▁ㅅㅏㄴㅌㅗ	-10096
▁ㅌㅔㄴㅌㅡ	-10097
▁ㅍㅏㄴㄷㅏㄴㄹㅕㄱ	-10098
▁ㅅㅣㄴㅈㅗㅇ	-10099
▁ㄷㅗㄱㅅㅗ	-10100
▁ㅈㅣㅂㄱㅔ	-10101
▁**	-10102
▁ㅂㅔㅅ	-10103
ㅇㅣㅁㅅㅜ	-10104
ㅃㅓㄴ	-10105
▁ㅂㅜㄹㄱㅓ	-10106
▁ㅋㅓㄹㅊㅓ	-10107
▁ㅂㅏㄹㅂㅕㅇ	-10108
▁ㅇㅏㄴㅈㅏㅇ	-10109
ㄷㅡㅅ	-10110
▁Pol	-10111
ㅅㅓㄴㄱㅓ	-10112
▁ㅇㅏㅍㅂㅜ	-10113
▁ㅇㅗㄴㄱㅓㄴ	-10114
ano	-10115
▁Ul	-10116
▁ㄱㅘㅇㅈㅓ	-10117
▁ㄴㅡㄴㅋㅓ	-10118
▁ㅁㅏㄴㄷㅏㅁ	-10119
ya	-10120
▁ㄱㅕㅇㅁㅕㄹ	-10121
ㅅㅓㅇㅇㅓ	-10122
ㅈㅓㅇㅇㅜ	-10123
▁ㅅㅐㅇㅁㅗㄹㄴㅕㄴ	-10124
▁ㅂㅏㄴㅇㅕㄹ	-10125
▁ㄱㅕㄴㅅㅡㅂ	-10126
▁ㄱㅏㅁㅁㅏ	-10127
▁ㅇㅕㄱㄷㅗ	-10128
▁Hol	-10129
▁ㅎㅏㄴㄹㅠ	-10130
▁ㄱㅗㅇㅇㅏㄴ	-10131
▁ㅊㅣㄴㅅㅜㄱ	-10132
▁ㅈㅓㅇㅅㅣㄴㅈㅜㄹ	-10133
▁NATO	-10134
enc	-10135
ㅋㅏㅇ	-10136
ㅌㅡㄱㄱㅣ	-10137
ㅎㅜㄴㄹㅕㄴ	-10138
▁ㄷㅏㄴㅊㅜㄱㅋㅣ	-10139
▁ㄱㅜㄱㅈㅣ	-10140
▁ㅇㅝㄴㄱㅏ	-10141
ORPG	-10142
▁ㄷㅔㄴㅇㅗ	-10143
▁ㅅㅣㄱㄱㅜ	-10144
▁ㅂㅡㄹㄹㅣㅇ	-10145
▁ㅈㅣㄱㅈㅗㅇ	-10146
▁ㅂㅏㄹㄹㅕㅇ	-10147
▁ㅂㅜㄴㅅㅣㄹ	-10148
ated	-10149
▁ESP	-10150
▁EXO	-10151
ㅋㅓㄹㄹㅣ	-10152
▁ㄴㅜㄴㅂㅗ	-10153
▁ㅅㅗㄴㄷㅐ	-10154
▁ㅁㅕㅇㅈㅓㄹ	-10155
65	-10156
▁RGB	-10157
ouble	-10158
▁ㅎㅘㅇㅅㅐㄱ	-10159
▁ㅅㅏㅇㅂㅏㄴ	-10160
▁ㅅㅓㄴㄷㅏㄴ	-10161
ㅃㅗ	-10162
ㅇㅑㄱㅅㅓ	-10163
▁ㅍㅐㄴㄷㅓ	-10164
▁ㅁㅐㄴㅅㅗㄴ	-10165
▁ㅎㅏㄴㅅㅣㄴ	-10166
ㄷㅔㄴㅌㅣ	-10167
ㄹㅏㅁㅈㅟ	-10168
uro	-10169
▁TN	-10170
▁301	-10171
▁ㄷㅏㅅㅋㅓㅁ	-10172
▁ㅇㅕㄴㅁㅜ	-10173
▁ㅍㅕㅁ	-10174
▁Line	-10175
▁ㅅㅜㄴㅎㅘ	-10176
ague	-10177
▁Hey	-10178
▁ㅋㅝㄴ	-10179
▁ㅈㅣㅇㅈㅣㅂ	-10180
▁good	-10181
▁ㅁㅜㄹㅇㅡㅁ	-10182
▁ㅂㅣㅇㄱㅡㄹ	-10183
▁ㅅㅡㅇㅇㅛㅇㅊㅏ	-10184
ther	-10185
▁ㅈㅜㅇㅇㅏㅇㅇㅏ	-10186
▁ㅂㅣㅅㄷㅐ	-10187
▁ㅍㅜㅇㅁㅣ	-10188
ㄷㅗㅇㅁㅜㄹ	-10189
▁ㅇㅣㄹㅁㅕㄴ	-10190
GM	-10191
▁WHIP	-10192
ㅅㅏㄱㅅㅡ	-10193
▁ㄱㅘㅇㅇㅑㅇ	-10194
▁ㅁㅕㅇㅇㅓㄴ	-10195
▁ㅈㅐㄱㅅㅡ	-10196
ㄷㅗㅇㅇㅕㄱ	-10197
ㅂㅜㄴㅌㅜ	-10198
ITAD	-10199
▁410	-10200
▁ㄴㅏㅁㅎㅐ	-10201
▁ㅇㅔㄹㄹㅏ	-10202
▁ㄱㅕㅌㄷㅡㄹㅇㅣ	-10203
irect	-10204
ㅂㅜㄱㅇㅣ	-10205
▁white	-10206
▁ㄱㅏㅁㅅㅗㄱ	-10207
▁ㄱㅗㄹㄷㅡㄴㄱㅡㄹㄹㅓ	-10208
▁Val	-10209
▁ㄱㅗㄹㅈㅓㄹ	-10210
ㅍㅔㄹㄹㅓ	-10211
▁ㅊㅏㅇㅂㅓㅂ	-10212
▁ㅎㅏㅂㅅㅜㄱ	-10213
ㅊㅜㅇㄹㅠ	-10214
▁ㄷㅗㄱㅅㅏㄹ	-10215
▁ㅁㅗㄹㅇㅣㅂ	-10216
ㄷㅏㅇㅇㅕㄱ	-10217
▁ㅎㅏㄴㅈㅣ	-10218
▁ㅇㅑㄱㅍㅜㅁ	-10219
▁ㅇㅑㅇㅁㅏㄹ	-10220
▁ㅇㅠㄱㅅㅣㄴ	-10221
▁ㅊㅜㄹㅇㅕㄴㅈㅏ	-10222
▁ㄴㅓㅅ	-10223
ㄹㅐㄴㅅㅓ	-10224
ㅅㅏㄴㄷㅡ	-10225
▁ㅂㅏㄹㅈㅏ	-10226
ㅅㅐㅇㅅㅓㅇ	-10227
▁watch	-10228
▁ㄴㅏㄱㅇㅑㅇ	-10229
▁ㅎㅕㅁㅎㅏㄴ	-10230
▁208	-10231
▁Fall	-10232
ㄷㅗㄱㅈㅏ	-10233
▁ㅅㅏㄴㅎㅗ	-10234
be	-10235
we	-10236
ESS	-10237
▁!!"	-10238
▁ㅂㅗㄲㅇㅡㅁ	-10239
▁ㄱㅕㅇㄱㅘㄴ	-10240
▁Show	-10241
ㅅㅓㄹㅁㅜㄹ	-10242
▁ㅈㅓㅇㅍㅜㅁ	-10243
▁ㅊㅓㅂㅈㅏ	-10244
▁ㅇㅕㄹㅍㅗㄱ	-10245
▁ㅇㅣㄴㅂㅜㄴ	-10246
ㅅㅏㄹㄹㅔㅁ	-10247
▁ㅅㅓㄴㄷㅗㅇㅇㅕㄹ	-10248
▁ㄸㅡㅁ	-10249
▁ㅍㅣㅇㄱㅓ	-10250
ㅎㅘㅇㅊㅓㅇ	-10251
▁ㅂㅜㄴㅈㅓㄴ	-10252
▁ㅅㅓㄴㄹㅑㅇ	-10253
▁Pop	-10254
ㅁㅍㅣㅇ	-10255
UND	-10256
▁Ant	-10257
▁ㅇㅕㄱㅅㅔ	-10258
▁ㅊㅗㅇㅇㅐ	-10259
▁ㅌㅏㄴㅍㅣ	-10260
▁Spring	-10261
ㅅㅓㄹㅅㅜ	-10262
▁AW	-10263
▁765	-10264
▁GITAD	-10265
ㅇㅛㅇㅈㅣ	-10266
▁ㅈㅏㄹㄴㅏ	-10267
▁ㅇㅣㄹㅂㅕㅇ	-10268
▁ㅎㅚㅇㄹㅕㅇ	-10269
ㅂㅐㄴ	-10270
line	-10271
▁ㅇㅏㄹㄱㅗ	-10272
▁ㅎㅕㄹㅇㅏㅂ	-10273
▁ㄱㅓㄴㅁㅏㄴ	-10274
▁ㄱㅕㅇㅇㅡㅁ	-10275
▁ㄹㅔㄹㄹㅡㅁ	-10276
▁ㅅㅜㄴㅂㅏㄹㄹㅕㄱ	-10277
▁Cal	-10278
▁ㄱㅣㄹㄹㅣ	-10279
ㅅㅓㅇㅁㅣㄴ	-10280
▁ㅇㅕㄱㅈㅏㅇ	-10281
▁ㅊㅗㅇㄱㅕㄱ	-10282
▁ㅎㅏㄴㄱㅜㄱㅅㅏ	-10283
▁ㄸㅡㄷㄱㅣ	-10284
▁ㅇㅘㄴㄹㅕㄱ	-10285
48	-10286
▁ㄸㅓㄹㄹㅣ	-10287
▁ㅍㅜㅇㅅㅡㅂ	-10288
67	-10289
▁010	-10290
▁CGV	-10291
▁ㅇㅕㄱㅎㅐㅇ	-10292
▁ㅇㅕㅇㅈㅏㅇ	-10293
ck	-10294
ㅂㅜㄹㄹㅣ	-10295
▁ㅎㅓㄴㅌㅡ	-10296
▁ㄱㅘㄴㅈㅓㄴ	-10297
▁ㅎㅗㅇㄹㅕㄴ	-10298
▁ㅌㅡㄱㅊㅘㄹㅁㅜㄹ	-10299
▁Ind	-10300
▁ㄱㅕㅇㅇㅝㄴ	-10301
▁ㅇㅣㄱㅅㅏㄴ	-10302
▁ㅈㅏㄴㅈㅗㄴ	-10303
▁ㅊㅗㄱㅈㅣㄴ	-10304
▁ㅎㅏㄴㅇㅓㅄㅇㅣ	-10305
▁ㅇㅗㄹㄹㅕ	-10306
▁ㅍㅜㄹㅇㅣ	-10307
▁ㅂㅏㄴㅈㅜㄱ	-10308
▁Girls	-10309
▁ㅅㅓㄴㅈㅣ	-10310
▁ㅇㅘㅇㅈㅓㅇ	-10311
▁ㅊㅓㄹㅎㅏㄱㅈㅏ	-10312
ipedia	-10313
▁ㅈㅓㄴㅁㅕㄴㅈㅓㄴ	-10314
▁EL	-10315
ㅆㅏㄹ	-10316
ㄷㅗㅇㅈㅗ	-10317
ㅍㅕㅇㄱㅜ	-10318
▁ㅁㅗㅇㅋㅣ	-10319
▁ㅇㅓㅁㅎㅏ	-10320
▁ㅍㅔㄹㄹㅔ	-10321
TH	-10322
▁ㄱㅘㄹㅎㅗ	-10323
▁ㅈㅓㄴㄹㅣ	-10324
▁Dead	-10325
▁ㅇㅓㅍㄷㅡ	-10326
▁ㅂㅏㄴㅅㅣㄴ	-10327
▁Kill	-10328
▁ㅅㅓㄴㅅㅑ	-10329
▁ㅇㅏㄴㅊㅣ	-10330
▁ㅇㅘㅇㅅㅔ	-10331
ㅈㅓㅇㅉㅓㅇ	-10332
▁ㅌㅏㄴㅅㅏㄴ	-10333
▁AO	-10334
▁ㅇㅏㄵㅎㅣ	-10335
▁ㅋㅓㄴㅍㅓ	-10336
▁ㅎㅗㄴㅈㅏㅂ	-10337
tor	-10338
und	-10339
ㄴㅗㅍ	-10340
▁ABC	-10341
▁ㅁㅏㄱㅅㅡ	-10342
▁ㅂㅜㄴㅂㅣ	-10343
ㄴㄷㅓ	-10344
ㅊㅠㄴ	-10345
▁ㅅㅓㅇㅇㅢ	-10346
▁ㄱㅘㄴㄱㅓㄴ	-10347
▁ㅈㅓㅇㄱㅘㄴ	-10348
ault	-10349
▁Way	-10350
▁ㅎㅕㄹㄱㅘㄴ	-10351
▁ㅅㅏㅇㅅㅜ	-10352
▁ㅃㅓㄴㅃㅓㄴ	-10353
▁ㅇㅠㄴㅈㅗㅇ	-10354
▁ㅊㅗㅇㄱㅓㅁ	-10355
▁ㄷㅗㄹㄱㅗ	-10356
▁ㅈㅓㄱㄷㅗ	-10357
▁ㄷㅗㄹㅂㅕㄴ	-10358
▁ㄷㅗㅇㄱㅏㅇ	-10359
▁ㅅㅡㅇㅅㅡㅇㅈㅏㅇㄱㅜ	-10360
▁Club	-10361
▁ㅇㅘㄴㅌㅜ	-10362
▁ㅋㅔㄹㅌㅡ	-10363
▁ㅅㅓㅁㄸㅡㄱ	-10364
▁ㅅㅜㄱㅂㅏㄱ	-10365
▁ㅎㅐㅇㄹㅕㄹ	-10366
gy	-10367
▁ㅋㅘㄴ	-10368
▁ㅂㅕㄴㄱㅣ	-10369
▁ㄱㅡㅂㄱㅏㅁ	-10370
▁ㅈㅣㄴㅎㅐㅇㅎㅏ	-10371
▁How	-10372
ㅈㅣㄴㅇㅜ	-10373
▁ㄴㅣㅅㅅㅏㄴ	-10374
▁ㄱㅗㅇㅇㅕㄴㅈㅏㅇ	-10375
▁ㅇㅘㅇㅊㅏㅇ	-10376
▁HKT	-10377
▁ㅎㅘㄴㅅㅜㄹ	-10378
▁ㅎㅘㄴㅅㅏㅇㅎㅑㅇ	-10379
▁ㅎㅘㅇㅍㅖ	-10380
▁ㅋㅓㅁㅍㅡㄹㄹㅔㄱㅅㅡ	-10381
ㅂㅏㄱㄲㅗ	-10382
▁ㅂㅜㄴㄱㅕㅇ	-10383
▁ㅇㅑㄱㅎㅗㄴㅈㅏ	-10384
▁Now	-10385
▁ㅇㅕㅇㄹㅕㅇ	-10386
▁sk	-10387
▁ㄷㅚㄴ	-10388
▁ㄷㅗㅇㅈㅏ	-10389
▁ㅅㅗㅇㄱㅗㅅㄴㅣ	-10390
ㅅㅣㅂㄹㅣ	-10391
ㅇㅜㄴㅅㅡ	-10392
▁ㄱㅓㄴㅊㅜㄱㅁㅜㄹ	-10393
▁GITADORA	-10394
▁ㅂㅐㄱㅂㅕㅇㅈㅓㄴ	-10395
ㄸㅓㄹ	-10396
ㄹㅣㅇㅋㅡ	-10397
▁ㅁㅏㅇㅅㅣㄴ	-10398
▁ㅂㅏㄱㅈㅣㄴㅇㅕㅇ	-10399
▁Sam	-10400
▁ㅊㅓㄴㅊㅏ	-10401
ㄹㅣㅅㅅㅗㄱ	-10402
▁WORLD	-10403
▁ㄱㅏㄴㄱㅘ	-10404
▁ㄴㅜㄴㅂㅜ	-10405
▁ㅇㅗㄹㄹㅣㅁ	-10406
▁MOVIE	-10407
▁ㅈㅗㅇㅍㅏ	-10408
▁ㅋㅔㄴㅅㅣㄴ	-10409
▁ㅌㅠㄴ	-10410
▁Med	-10411
ㅁㅐㅂ	-10412
▁Har	-10413
ㄷㅜㄴㅈㅣ	-10414
▁ㅁㅕㅇㄱㅖ	-10415
▁ㅈㅏㄴㅇㅕ	-10416
▁ㅋㅡㄹㄹㅓㄱ	-10417
▁ㅎㅑㅇㅅㅣㄴㄹㅛ	-10418
▁ㅍㅓㅁㅇㅞ	-10419
▁ㅁㅗㅇㅎㅘㄴ	-10420
ling	-10421
▁SPEC	-10422
ㄱㅓㄱ	-10423
ㅋㅓㄹㄹㅗ	-10424
▁ㄱㅕㅇㅅㅏㄴ	-10425
ㄹㅔㄴㅌㅡ	-10426
▁ㄸㅏㄱㅈㅣ	-10427
▁ㅁㅜㄱㅅㅣ	-10428
▁ㅅㅏㄴㅈㅓㄴ	-10429
▁ㅅㅣㄹㄹㅗㄱ	-10430
▁ㅍㅜㅇㅅㅣㄴ	-10431
▁-!	-10432
ㅁㅣㄴㅎㅗ	-10433
▁Sweet	-10434
▁ㅂㅗㄱㅅㅓ	-10435
ㅎㅐㅇㅈㅏㅇ	-10436
▁EXE	-10437
▁ㄱㅏㅇㄷㅏㅇ	-10438
▁Death	-10439
▁ㅇㅏㄴㅈㅔㄹㄹㅣ	-10440
▁ㄱㅣㅁㅇㅡㅇ	-10441
▁ㅊㅜㅇㅇㅝㄴ	-10442
▁Space	-10443
ayer	-10444
▁Friend	-10445
ㅇㅑㄱㄱㅡㅁ	-10446
AV	-10447
▁ㄴㅗㄹㄹㅣㅁ	-10448
▁ㅇㅠㄴㅅㅓㅇ	-10449
▁ㅎㅕㄹㅇㅕㄴ	-10450
ㅅㅓㄴㅇㅣㄹㅂㅗ	-10451
▁ㄴㅐㅇㅊㅓㄹ	-10452
▁ㅇㅛㅇㄴㅏㅂ	-10453
iny	-10454
▁Def	-10455
▁ㄷㅓㄹㅎㅏ	-10456
▁ㅇㅑㅇㅂㅜㄴ	-10457
▁ㅈㅡㅇㅅㅣㄱ	-10458
▁ㄷㅗㄱㄹㅣㅂㅇㅜㄴㄷㅗㅇㄱㅏ	-10459
▁ㅂㅏㅇㅈㅜ	-10460
▁ㅇㅓㄱㄴㅜ	-10461
ㅅㅣㄹㅅㅏㅇㅂㅜ	-10462
▁ㅁㅕㅇㅅㅣㄹㅅㅏㅇㅂㅜ	-10463
▁ㅅㅡㅇㄴㅏㄱ	-10464
ASY	-10465
▁ㅂㅏㄹㅎㅐ	-10466
▁ㅈㅏㄱㅈㅏ	-10467
▁ㅈㅏㅁㅅㅣㄱ	-10468
ortex	-10469
▁ㅎㅜㄹㅉㅓㄱ	-10470
▁ㅇㅝㄴㄷㅐ	-10471
▁XG	-10472
▁ㅅㅓㄹㄹㅣㅂㅈㅏ	-10473
▁ㅋㅜㄱ	-10474
▁ㄱㅏㅇㄱㅜㄱ	-10475
▁has	-10476
ㅈㅓㅇㄹㅣ	-10477
▁ㅅㅣㄴㄱㅛ	-10478
▁HY	-10479
ㅇㅕㄴㅅㅜ	-10480
▁ㅎㅡㄱㄱㅣ	-10481
▁ㄱㅝㄴㅂㅓㅂ	-10482
▁GPS	-10483
▁ISO	-10484
ㅍㅐㅇㅇㅣ	-10485
▁ㄴㅏㅁㅅㅓ	-10486
ople	-10487
ander	-10488
ㄱㅏㄴㅈㅣ	-10489
▁Story	-10490
▁AAA	-10491
▁ㅈㅓㅇㄱㅏ	-10492
▁ㄱㅕㅇㅎㅏㅂ	-10493
UK	-10494
▁XI	-10495
▁ㄷㅏㅀ	-10496
▁ㅋㅏㅂ	-10497
ㅂㅡㄹㄹㅏㅇ	-10498
▁ㅅㅏㄴㅅㅏㄴㅈㅗ	-10499
ㅊㅡㅁ	-10500
ㅇㅕㄴㅇㅢ	-10501
ㅅㅡㄹㄹㅏㄴㄷㅡ	-10502
▁Park	-10503
▁ㅍㅕㄴㅊㅏㄴ	-10504
ental	-10505
▁ㄱㅏㄹㅂㅣ	-10506
▁ㅁㅗㄱㅅㅓㅇ	-10507
▁ㄴㅗㄱㅅㅡ	-10508
▁Hi	-10509
▁ㅂㅗㅇㅈㅣ	-10510
ㅈㅓㄴㄹㅕㄱ	-10511
▁ㅅㅗㄱㅇㅣㅁㅅㅜ	-10512
▁Pass	-10513
ㅅㅗㅇㅇㅣ	-10514
▁ㄱㅗㄷㅈㅏㄹ	-10515
ㄴㅛㅇ	-10516
▁ㄱㅏㅇㅂㅜㄱ	-10517
▁ㅈㅜㅇㄴㅏㅁ	-10518
▁If	-10519
▁MY	-10520
▁ㅁㅗㅁㅆㅏ	-10521
ㅇㅠㄴㅇㅕㄹ	-10522
▁KE	-10523
▁ㅎㅣㄴㄷㅜ	-10524
▁Sur	-10525
▁1937	-10526
▁ㅇㅐㄴㅌㅡ	-10527
ㅍㅕㅇㅇㅕㄱ	-10528
▁ㅅㅣㅁㅂㅗㄹ	-10529
▁Inv	-10530
▁ㄱㅓㅁㄱㅓ	-10531
▁ㄱㅗㄷㅈㅏㅇ	-10532
uz	-10533
▁Cha	-10534
ㅅㅏㄴㅁㅕㄴ	-10535
ㄱㅣㅍ	-10536
▁ㅇㅓㄴㄹㅣ	-10537
▁ㅂㅏㄹㄹㅏㄹ	-10538
▁ㅍㅗㄱㅇㅓㄴ	-10539
▁ㅎㅘㅇㅊㅓㄴ	-10540
▁ㅇㅓㄴㄹㅗㄴㅅㅏ	-10541
ㅂㅓㄹㅇㅣ	-10542
▁ㅅㅐㅇㅅㅗ	-10543
ㅈㅓㅅ	-10544
▁ㅂㅕㄹㅈㅓㅁ	-10545
unk	-10546
▁"'	-10547
▁DL	-10548
▁min	-10549
▁ㅈㅏㅇㅎㅘ	-10550
▁ㅂㅓㄴㅉㅓㄱ	-10551
▁ㄹㅣㄴㅋㅗ	-10552
▁ㅊㅗㅇㅅㅜ	-10553
▁ㅍㅏㄴㅇㅣㄴ	-10554
▁ㅆㅗㄱ	-10555
▁ㅎㅣㅁㄴㅐ	-10556
▁ㄸㅗㄱㅂㅏ	-10557
▁ㅇㅏㄹㅁㅏ	-10558
▁ㅅㅐㅁㅍㅡㄹㄹㅣㅇ	-10559
▁223	-10560
▁ㅃㅛㅇ	-10561
▁ㅇㅏㄴㅈㅜ	-10562
▁ㅂㅏㄴㅇㅣㅂ	-10563
▁ㅍㅜㅁㅁㅗㄱ	-10564
▁EB	-10565
ㄲㅗㄱ	-10566
▁ㄷㅏㅁㄱㅡ	-10567
▁ㅅㅜㅁㄱㅕㄹ	-10568
▁1934	-10569
▁ㄱㅣㅁㅅㅣ	-10570
▁ㅂㅏㅅㅈㅜㄹ	-10571
▁ㅋㅐㅁㅍㅣㅇ	-10572
▁MMORPG	-10573
▁ㅎㅘㄹㅂㅏㄹㅎㅣ	-10574
ㅂㅏㅇㅇㅝㄴ	-10575
▁ㅂㅕㅇㅅㅏㄹㅌㅏ	-10576
ㄹㅐㅇㅋㅡㄹㄹㅣㄴ	-10577
ope	-10578
▁NASA	-10579
ㅇㅗㄹㄹㅔㅅ	-10580
▁ㅅㅣㄴㅌㅏㄱ	-10581
ords	-10582
ux	-10583
▁Tra	-10584
ㄸㅜㄹㅇㅓ	-10585
▁ㄱㅓㄴㄷㅏㄹ	-10586
▁bit	-10587
ㄹㅓㄹㄷㅡ	-10588
ㄷㅗㅇㄱㅏㅇ	-10589
ㅁㅜㄹㅅㅚ	-10590
▁ㅊㅏㅇㄱㅏㄴ	-10591
ㅎㅐㅇㄷㅏㄴ	-10592
▁ㅇㅣㄴㅅㅜㄹ	-10593
▁ㅇㅗㄹㄱㅏ	-10594
▁ㅇㅣㄴㅍㅔ	-10595
▁ㅎㅏㄴㅁㅜㄴ	-10596
ley	-10597
▁ㅅㅗㅅㅇㅏ	-10598
▁ㄱㅡㅁㅂㅣㅊ	-10599
▁ㅈㅜㅇㅅㅣㅁㅂㅜ	-10600
▁Never	-10601
▁ㅍㅓㅇㅍㅓㅇ	-10602
▁ㅈㅗㄱㅈㅗㄱ	-10603
▁ㅇㅔㅁㅂㅡㄹㄹㅓㅁ	-10604
▁John	-10605
ㅋㅏㅅ	-10606
ㄱㅣㅅㄱㅓ	-10607
▁ㄱㅜㄱㄱㅛ	-10608
▁ㅈㅏㅇㅁㅜㄴ	-10609
RAS	-10610
str	-10611
▁ㄷㅐㄱ	-10612
ㄹㅑㅇㄱㅣ	-10613
▁ㅇㅣㄴㄱㅖ	-10614
▁ㅂㅜㄴㅅㅣㄱ	-10615
▁ㅇㅕㅇㄷㅗ	-10616
▁ㅈㅣㄴㅍㅜㅇ	-10617
▁wikipedia	-10618
▁EPL	-10619
ㅂㅏㄱㅅㅏ	-10620
▁ㅌㅡㄱㄹㅖ	-10621
▁ㄱㅏㄴㅈㅣㄱ	-10622
▁ㄷㅡㄱㅈㅓㅁㅈㅏ	-10623
ubl	-10624
▁ㄷㅡㅇㄹㅗㄱㄱㅡㅁ	-10625
▁ㅇㅝㄴㅂㅏㄴ	-10626
▁Mer	-10627
▁ㅅㅣㄹㄱㅣ	-10628
▁ㅁㅕㅇㅁㅐㄱ	-10629
ㅅㅏㄴㄹㅣ	-10630
▁ㅂㅐㄱㄱㅘ	-10631
▁di	-10632
▁ㅇㅏㄴㄷㅐ	-10633
▁Bro	-10634
▁ㅅㅓㅇㅂㅜㄱ	-10635
ㅊㅏㄱㅁㅜㄹ	-10636
▁ㅎㅜㄴㄹㅕㄴㅂㅕㅇ	-10637
▁there	-10638
▁Set	-10639
▁ㄱㅡㅂㅅㅗ	-10640
▁ㅇㅕㅇㅅㅜ	-10641
▁ㅂㅏㅇㅌㅏㄴㅂㅗㄱ	-10642
ㄴㅐㅂㄷㅡ	-10643
ㄷㅡㄱㅎㅣ	-10644
▁Single	-10645
▁ㅇㅕㄴㅈㅏㅇㅅㅓㄴ	-10646
▁ㅂㅐㄱㅎㅗ	-10647
▁ㅃㅓㄱ	-10648
▁ㄱㅣㅁㅅㅔ	-10649
ㅅㅣㄴㄹㅗㄴ	-10650
▁ㄷㅓㅁㅂㅡㄹ	-10651
▁ㅎㅏㄴㅇㅣㄴ	-10652
▁ㄹㅡㅁ	-10653
ㄹㅣㄴㅌㅓ	-10654
▁ㄷㅡㄹㄹㅓ	-10655
▁ㅍㅐㄹㄹㅣ	-10656
▁ㅇㅕㄴㅎㅕㄱ	-10657
▁RT	-10658
tain	-10659
udio	-10660
▁ㅈㅏㅇㅂㅗ	-10661
▁ㅂㅏㄹㅇㅕㄹ	-10662
▁ㄱㅘㄴㅎㅕㄴㅇㅏㄱ	-10663
▁Cry	-10664
▁Will	-10665
▁ㅇㅣㄹㅎㅚ	-10666
▁ㅊㅓㄴㅁㅜㄴㅎㅏㄱ	-10667
▁Net	-10668
▁ㅇㅕㄴㅁㅏ	-10669
ㅊㅏㅇㅅㅣㄱ	-10670
▁ㅎㅗㅁㅍㅡㄹㄹㅓ	-10671
▁ㅌㅗㅂㄴㅣ	-10672
isode	-10673
▁ㅎㅏㄴㅋㅠ	-10674
ㄱㅓㄹㅇㅡㅁ	-10675
ㄱㅓㄹㅅㅡ	-10676
ㅂㅣㄹㄹㅏ	-10677
▁Party	-10678
▁ㅌㅏㄹㅇㅕㅇ	-10679
▁ㄱㅗㅇㅎㅘㅇ	-10680
▁ㄱㅡㅁㄷㅏㄴ	-10681
▁ㅇㅣㅂㅂㅓㅂ	-10682
▁ㅂㅓㄴㅇㅕㄱㅂㅗㄴ	-10683
▁ㅈㅓㄴㅈㅗ	-10684
▁ㅅㅓㅇㄹㅛㅇ	-10685
▁ㅌㅗㅁㅅㅡㄴ	-10686
▁life	-10687
ino	-10688
▁ㅈㅗㅇㅎㅚ	-10689
▁ㅂㅡㄹㄹㅜㅁ	-10690
▁ㄱㅒ	-10691
▁ㅇㅑㅇㅍㅏㄹ	-10692
▁ㅅㅏㅁㄱㅏㄱㅎㅕㅇ	-10693
▁ㅅㅏㄹㅍㅗ	-10694
▁ㅂㅏㄷㅊㅣㅁ	-10695
==	-10696
▁LOL	-10697
▁ㅇㅣㄴㄱㅏ	-10698
▁ㄱㅗㅇㅁㅣㄴ	-10699
▁ㅁㅏㄹㄹㅕ	-10700
▁SHOW	-10701
▁ㄷㅗㄹㄱㅣ	-10702
eed	-10703
▁ㄲㅏㄱ	-10704
▁ㅇㅏㄴㄱㅜ	-10705
▁ㄱㅏㅁㄱㅕㄱ	-10706
▁ㅅㅗㄱㅊㅜㄹ	-10707
▁fr	-10708
▁3500	-10709
ㅂㅏㅇㅅㅓ	-10710
▁ㅂㅜㄴㅎㅏ	-10711
▁ㅁㅗㄱㅇㅛㄱㅌㅏㅇ	-10712
▁ㄱㅜㄴㅅㅔ	-10713
▁ㅊㅗㄱㅎㅏㄴ	-10714
▁ㅇㅠㄴㅅㅓㄱㅁㅣㄴ	-10715
▁File	-10716
ㄴㅔㄹㄹㅣ	-10717
ㅇㅏㄴㅂㅜ	-10718
ㄱㅜㄱㅅㅣㄱ	-10719
raft	-10720
ement	-10721
▁ㅂㅜㄱㅂㅓㄹ	-10722
▁-.	-10723
▁ㅁㅏㅈㅇㅏ	-10724
▁WWF	-10725
▁music	-10726
▁ㅂㅏㄴㄹㅕ	-10727
▁ㄱㅝㄴㄹㅕㄱㅈㅏ	-10728
▁ㅎㅘㄴㅅㅡㅇㅇㅕㄱ	-10729
▁GU	-10730
ㄹㅜㄱㅅㅡ	-10731
▁ㅈㅣㅂㅇㅛ	-10732
▁ㅋㅐㅂㅊㅕ	-10733
ㄱㅗㄱㅇㅕㄱ	-10734
▁Gener	-10735
▁ㅃㅑㅁㅊㅣ	-10736
▁666	-10737
ㅈㅗㅇㅅㅜ	-10738
ㅎㅕㅇㅇㅜ	-10739
▁ㅇㅣㄺㅎㅣ	-10740
▁ㄱㅓㅁㅊㅜㄹ	-10741
▁ㄱㅜㅇㄱㅝㄹ	-10742
96	-10743
▁ㅅㅕㅅ	-10744
▁ㅅㅗㄱㅇㅏ	-10745
▁ㅌㅏㄱㄱㅜ	-10746
▁ㅎㅏㅅㅌㅗ	-10747
▁ㅅㅣㄴㅊㅓㄴ	-10748
▁ㅇㅕㅇㅇㅜㅇㅈㅓㄴ	-10749
▁ㅋㅓㅁㅍㅏ	-10750
▁ㅂㅏㄹㄷㅏㄴ	-10751
ㅅㅏㄴㅂㅜ	-10752
rol	-10753
▁ㄹㅣㄹㄹㅔ	-10754
▁ㅂㅗㄴㅈㅓㅁ	-10755
▁ㅂㅣㄴㅁㅣㄴ	-10756
▁ㅅㅓㅇㅁㅜㄹ	-10757
ELL	-10758
▁OT	-10759
▁390	-10760
ations	-10761
ㅅㅣㄹㅅㅣㄴ	-10762
ㅊㅜㄹㅇㅐㄱ	-10763
▁ㅁㅏㄴㅅㅓㅇ	-10764
▁ㅎㅏㅁㅅㅓㅇ	-10765
▁ㄸㅓㄱㅅㅣㄹㅅㅣㄴ	-10766
▁Hero	-10767
▁ㄱㅜㅇㅇㅖ	-10768
▁ㅅㅗㄱㅈㅜ	-10769
▁ㅇㅝㄴㄴㅏ	-10770
▁ㅌㅗㅇㅌㅗㅇ	-10771
▁ㅍㅏㄱㅍㅏㄱ	-10772
ㅁㅣㄹㅌㅓㄴ	-10773
▁ㅇㅣㄹㅅㅣㄱ	-10774
▁USA	-10775
▁ㅉㅏㄴ	-10776
▁hp	-10777
ball	-10778
▁ㅂㅣㅅㅈㅏ	-10779
▁ㅅㅏㅇㅊㅡㅇ	-10780
▁ㅎㅘㅇㄹㅛㅇ	-10781
ㄱㅐㅅㅅㅗ	-10782
ㅅㅏㅇㅈㅜ	-10783
▁ㄱㅕㄴㅈㅜ	-10784
▁ㅎㅐㅇㅋㅡ	-10785
▁ㅅㅗㄱㅊㅣㅇ	-10786
▁ㅅㅐㅇㅎㅘㄹㄱㅘㄴ	-10787
▁375	-10788
▁ㅍㅏㅌ	-10789
ㅁㅏㄱㅎㅣ	-10790
▁ㅁㅣㄹㅈㅣㅍ	-10791
▁ㅇㅕㄴㅇㅗㄱ	-10792
▁ㅅㅏㄴㅇㅛ	-10793
▁ㅅㅓㅇㅈㅗㅇ	-10794
▁ㅇㅣㄹㅈㅓㄴ	-10795
▁ㅈㅓㅁㅈㅏㅇ	-10796
▁GE	-10797
LY	-10798
▁Ma	-10799
▁ㄱㅜㄴㅇㅛㅇ	-10800
▁ㅇㅑㅇㅊㅓㄴ	-10801
▁ㅇㅝㄴㄴㅐ	-10802
▁ㅇㅡㅁㅇㅕㄱ	-10803
▁ㅍㅐㅇㅊㅏㅇ	-10804
ient	-10805
ㅇㅑㅇㄱㅖ	-10806
▁ㅎㅏㄴㅅㅜㄹ	-10807
▁ㅇㅝㄴㅈㅓㅇㄷㅐ	-10808
▁ㅈㅑㅇ	-10809
▁ㄲㅓㅂㄷㅔ	-10810
▁ㄱㅜㄴㅊㅓㅇ	-10811
▁ㄱㅝㄴㅅㅗㄱ	-10812
▁ㅈㅏㅁㅈㅓㅇ	-10813
▁ㅇㅘㄴㅍㅐ	-10814
▁ㅍㅕㄴㅊㅏ	-10815
▁ㅇㅣㄴㅁㅣㄴㄱㅜㄴ	-10816
ival	-10817
▁252	-10818
▁YG	-10819
▁802	-10820
▁ㄴㅏㄴㄷㅗ	-10821
▁ㅈㅣㄱㄱㅡㅂ	-10822
▁ㅇㅔㅁㅁㅏ	-10823
ㄷㅔㅁ	-10824
▁ㄹㅣㄴㅅㅡ	-10825
▁ㄱㅣㄹㄷㅗㅇ	-10826
▁ㅇㅡㄴㅅㅣㄴㅊㅓ	-10827
ㅅㅏㄹㅍㅣ	-10828
▁ㄲㅗㅁㄲㅗㅁ	-10829
ㅈㅓㄱㅈㅓㄹ	-10830
▁ㅂㅕㅇㅍㅜㅇ	-10831
▁ㅂㅗㄱㅍㅏㄴ	-10832
▁ㅎㅡㅂㅇㅣㅂ	-10833
oe	-10834
▁ㅊㅓㅇㅎㅗㄴ	-10835
▁ㄷㅗㄱㄱㅗ	-10836
▁ㅈㅜㅇㅍㅏ	-10837
▁ㅈㅓㅇㅂㅏㄱ	-10838
▁et	-10839
▁pop	-10840
▁Christ	-10841
▁ㅂㅓㄴㅎㅘ	-10842
▁ㄱㅏㄴㅈㅓㄹ	-10843
▁ㅅㅜㄱㅈㅔ	-10844
▁PM	-10845
▁BLACK	-10846
ㅈㅏㅇㅊㅏㅇ	-10847
▁ㅇㅏㅂㄷㅜㄹ	-10848
ㄷㅏㅅㄱㅏ	-10849
▁ㅇㅗㄴㄹㅣ	-10850
▁DAY	-10851
▁ㅈㅓㅂㄷㅜ	-10852
▁ㅅㅣㄱㅇㅛㅇ	-10853
▁ㅎㅏㅂㄱㅕㄱㅈㅏ	-10854
ㅂㅕㅇㅎㅓㄴ	-10855
▁ㅇㅣㄴㅌㅓㄴ	-10856
▁Tour	-10857
ㅕㅇㅑ	-10858
▁ㅇㅣㄱㅅㅏ	-10859
▁ㅇㅕㄴㅎㅏㅂㄱㅜㄱ	-10860
▁ㅇㅏㄴㅇㅕㅇ	-10861
▁Sou	-10862
▁ㄷㅏㄹㄱㅜ	-10863
▁ㅎㅓㄹㄹㅣ	-10864
▁ㅁㅏㄱㅅㅣ	-10865
ㅎㅏㅇㄱㅜㄴ	-10866
▁ㅈㅏㅇㅈㅏ	-10867
▁ㄷㅏㄹㄹㅕㄱ	-10868
ㅈㅔㅅ	-10869
▁ㅎㅗㄴㅇㅛㅇ	-10870
▁ㅈㅓㅇㅅㅏㅇㄱㅡㅂ	-10871
▁ㅂㅗㄹㄹㅣㅇ	-10872
vil	-10873
ㅈㅏㅇㅈㅏ	-10874
ㅌㅗㅇㅇㅣㄹ	-10875
▁216	-10876
▁DSP	-10877
ㅍㅏㄹㄱㅜ	-10878
▁ㄱㅘㄴㄴㅐ	-10879
▁ㅇㅏㄴㅈㅡ	-10880
▁YOU	-10881
ㅅㅣㄱㅈㅏ	-10882
▁ㄱㅣㅁㅈㅔ	-10883
▁ㅆㅘ	-10884
onder	-10885
ㅊㅓㄴㄹㅣ	-10886
▁ㄹㅣㅇㄱㅗ	-10887
▁ㅅㅣㅂㅈㅜㅇ	-10888
▁ㅇㅕㄴㅁㅗㅅ	-10889
▁ㅇㅣㄹㄱㅘㄹ	-10890
▁ㅍㅕㅇㅇㅗㄴ	-10891
ㄷㅓㅇㅇㅓ	-10892
▁ㄴㅜㄴㅇㅕ	-10893
▁ㅆㅡㄹㄹㅣ	-10894
▁ㅅㅣㄹㄱㅕㄱ	-10895
▁ㅇㅣㄹㅉㅣㄱㅇㅣ	-10896
▁ㅅㅣㅂㅈㅜㅇㅍㅏㄹㄱㅜ	-10897
▁ㅁㅣㄹㅅㅜ	-10898
▁Storm	-10899
ㅈㅏㄱㅁㅜㄹ	-10900
▁ㄱㅏㅁㅇㅕㅁㅈㅏ	-10901
ㅂㅏㅇㄱㅘㄴ	-10902
▁SPECIAL	-10903
press	-10904
▁ㅂㅏㄴㄴㅕㄴ	-10905
▁315	-10906
ㄴㅏㄴㄷㅔ	-10907
▁ㅇㅡㄹㅅㅣ	-10908
▁ㅈㅓㄹㅈㅔ	-10909
▁ㅂㅏㄹㅈㅣㄴ	-10910
▁ㅇㅜㅇㅈㅏㅇ	-10911
▁Sn	-10912
▁Hel	-10913
▁Take	-10914
▁ㅈㅓㅇㅈㅜ	-10915
▁ㅇㅕㄴㅈㅏㅇㅈㅏ	-10916
▁TA	-10917
▁ㅅㅔㅅㅅㅛ	-10918
ISS	-10919
▁SKY	-10920
ㅁㅐㄱㄷㅏ	-10921
▁ㅂㅏㄹㄱㅣ	-10922
ㅍㅗㄱㅍㅜㅇ	-10923
▁ㅂㅐㄱㅅㅓㄹ	-10924
ㄴㅕㅁㄱㅘㄴ	-10925
▁ㄱㅣㅁㄴㅏㅁ	-10926
▁ㅇㅡㄴㄷㅜㄴ	-10927
▁ㅊㅣㅂㅅㅔㅅ	-10928
▁ㄱㅣㅁㅇㅕㄴㅇㅏ	-10929
une	-10930
▁ㅋㅓㅂㅅㅡ	-10931
▁ㄷㅏㄹㄹㅔㄱ	-10932
▁ㅇㅣㅂㅊㅏㄹ	-10933
▁ㄱㅘㄴㅅㅔ	-10934
▁ㅊㅗㅇㅅㅣㄴ	-10935
▁ㅇㅕㅇㅊㅏ	-10936
▁ㄸㅏㅇㄱㅜㄹ	-10937
▁ㅂㅕㄴㅊㅣㄱ	-10938
▁ㅅㅣㄴㅎㅗㄴ	-10939
▁ㅅㅐㅇㅂㅏㅇㅅㅗㅇ	-10940
▁1935	-10941
▁ㅁㅜㄹㄱㅕㄹ	-10942
▁ㅇㅓㅁㅊㅣㄴ	-10943
▁ㅇㅣㄴㅅㅏㅁ	-10944
▁\]	-10945
ㄹㅡㅂ	-10946
ㄲㅜㄹㅁㅓㅇ	-10947
▁ㅅㅐㅇㅅㅣㄱ	-10948
▁ㄱㅣㅁㅎㅗ	-10949
▁ㅋㅡㄹㄹㅜ	-10950
▁ㅈㅓㅁㅊㅣ	-10951
▁ㅈㅓㅇㄱㅡㄴ	-10952
ㅈㅗㅇㅂㅕㅇㄱㅣ	-10953
osh	-10954
▁cont	-10955
▁Mon	-10956
▁ㅎㅝㄴ	-10957
▁ㅅㅣㄴㄹㅛㅇ	-10958
▁ㅅㅡㄹㄹㅓㅁㅍㅡ	-10959
ㅈㅏㄶ	-10960
▁305	-10961
▁sec	-10962
▁NV	-10963
ㅍㅏㄴㅈㅣ	-10964
▁ㄱㅗㅇㅍㅕㅇ	-10965
ㅅㅑㅂ	-10966
▁ㅅㅜㄹㅈㅏ	-10967
▁ㅂㅓㅂㄹㅕㅇ	-10968
▁ㅂㅗㅇㅅㅣㄴ	-10969
▁op	-10970
▁ㅂㅣㄴㄱㅗㄴ	-10971
▁ㄱㅗㅇㅇㅛㅇㅇㅓ	-10972
▁ㅂㅓㄴㅇㅕㄱㄱㅏ	-10973
▁555	-10974
ㅈㅓㅇㅁㅣㄴ	-10975
▁ㄱㅏㅇㄴㅏㅁㅇㅕㄱ	-10976
▁ㅇㅕㄴㅈㅏㅇㅈㅓㄴ	-10977
▁ㅂㅜㄴㅊㅜㄹ	-10978
▁ㅂㅜㄹㄱㅜㄹ	-10979
▁ㅎㅓㄴㄴㅏㅂ	-10980
ta	-10981
▁ㄱㅡㅁㅅㅔ	-10982
▁ㅈㅏㅇㅇㅣ	-10983
ㅁㅏㄴㅇㅣㄴ	-10984
▁ㅅㅏㄹㅇㅠㄱ	-10985
▁Key	-10986
▁KN	-10987
ㅈㅡㄱ	-10988
▁1911	-10989
▁girl	-10990
▁ㅇㅣㄴㅈㅏㅇ	-10991
▁1700	-10992
ㄹㅏㄴㄷㅏ	-10993
ense	-10994
work	-10995
▁ㄱㅝㄴㅌㅜ	-10996
▁ㅌㅗㅇㅇㅕㅇ	-10997
▁them	-10998
ㅇㅑㅇㄱㅜㄴ	-10999
ider	-11000
▁ACE	-11001
▁USS	-11002
▁ㄱㅜㄱㅇㅚ	-11003
▁ㄷㅡㅇㅉㅏㄱ	-11004
▁ㅇㅏㄹㄹㅔㄴ	-11005
▁ㅂㅏㅇㅎㅑㅇㅋㅣ	-11006
▁ㅅㅐㅅ	-11007
ㄱㅓㄴㅅㅓㄹ	-11008
▁ㅎㅗㄱㄷㅗㄱ	-11009
▁ㅇㅓㅄㅇㅡㅁ	-11010
▁Sol	-11011
▁ㄱㅡㅇㅈㅣ	-11012
▁MH	-11013
▁vol	-11014
▁ㄷㅔㄹㄹㅣ	-11015
▁ㅍㅏㄴㅂㅏㄱㅇㅣ	-11016
▁ㅆㅏㅇㅂㅏㅇㅇㅜㄹ	-11017
▁ㅅㅔㄹㄹㅓ	-11018
36	-11019
▁BMS	-11020
▁Que	-11021
ㅇㅗㄹㄹㅗ	-11022
▁ㅇㅡㅁㅈㅣㄹ	-11023
onic	-11024
ㅊㅗㅇㅅㅏ	-11025
ㄹㅏㅇㅋㅗ	-11026
▁ㄱㅕㅇㄹㅖ	-11027
▁ㅂㅏㅁㅅㅐ	-11028
ㄹㅜㅅㅂㅏㅁ	-11029
▁end	-11030
▁ㅁㅣㄹㅋㅡ	-11031
▁Cortex	-11032
▁ㄱㅡㅁㅊㅓㄴ	-11033
ㄴㅕㄴㄷㅏㄴ	-11034
ori	-11035
▁1919	-11036
▁Skill	-11037
ㄲㅏㅌㅉㅗㄱ	-11038
ㅇㅡㅁㅁㅓㄱ	-11039
▁ㅁㅏㄴㅇㅕㄴ	-11040
▁ㅅㅏㅇㅅㅡㅇㅅㅔ	-11041
▁ㅂㅐㄱㅂㅏㄹ	-11042
▁ㅅㅏㄹㅂㅓㄹ	-11043
▁ㅎㅕㄴㅈㅗㅇ	-11044
ㄴㅏㄹㄹㅔ	-11045
▁ㅅㅐㄴㄷㅓ	-11046
▁ㅁㅐㄴㅁㅗㅁ	-11047
▁ㅂㅗㄱㄱㅏㄱ	-11048
▁ㅅㅡㅇㅈㅗ	-11049
▁ㅅㅓㄴㅇㅠㄹ	-11050
▁ㅁㅣㄹㅈㅣㅍㅁㅗ	-11051
▁ㅎㅜㄴㄹㅕㄴㅈㅏㅇ	-11052
idd	-11053
▁ㅌㅏㄹㅂㅏ	-11054
ㅈㅗㅇㅂㅓㅁ	-11055
▁ㄱㅜㄴㅈㅏㅇ	-11056
BE	-11057
▁PG	-11058
▁html	-11059
▁Dem	-11060
▁ㅇㅔㄹㄹㅣㄱ	-11061
▁youtube	-11062
▁ㅅㅜㄱㅈㅗㅇ	-11063
▁ㅇㅔㄹㄹㅔㄴ	-11064
▁0000	-11065
▁ㅅㅣㄹㄹㅣㄴㄷㅓ	-11066
▁ㅁㅓㅇㅎㅏ	-11067
▁ㅅㅏㅇㅅㅓ	-11068
ㅅㅜㅍ	-11069
▁!!!!	-11070
ㅅㅡㅇㅎㅗ	-11071
▁ㄱㅝㄴㅅㅜ	-11072
▁ㅈㅗㄴㄱㅣ	-11073
▁ㄱㅕㄱㅂㅜㄴ	-11074
▁ㅇㅑㅇㄷㅓㄱ	-11075
orth	-11076
▁ㅎㅐㄱㅍㅗㄱㅌㅏㄴ	-11077
▁ㅅㅏㄹㅇㅣㄴㅂㅓㅁ	-11078
ami	-11079
ible	-11080
▁ㄷㅗㅅ	-11081
apan	-11082
▁say	-11083
ㅈㅣㅂㄱㅏ	-11084
▁MUSIC	-11085
▁JD	-11086
▁ㅌㅐㅁ	-11087
▁TRPG	-11088
ㅊㅜㄴㄱㅣ	-11089
▁ㅈㅓㅇㄱㅜㄱ	-11090
ㅅㅔㄴㅌㅓ	-11091
▁ㄴㅏㅁㄷㅏ	-11092
▁ㄷㅗㄱㅈㅜ	-11093
▁ㅁㅣㄹㄱㅏ	-11094
▁ㅈㅓㄴㄷㅗㅇ	-11095
▁Die	-11096
ㅇㅣㄴㅅㅣ	-11097
▁ㄱㅣㅁㅎㅏㄴ	-11098
▁ㄱㅜㅇㅈㅓㅇ	-11099
▁ㅁㅗㄱㅈㅏㅇ	-11100
▁ㅋㅡㅁ	-11101
▁Great	-11102
▁ㄷㅗㅇㅂㅐㄱ	-11103
▁ㅅㅗㄴㄱㅣㄹ	-11104
▁Univers	-11105
88	-11106
WAR	-11107
▁FS	-11108
ㅈㅓㄹㄹㅗ	-11109
▁ㄱㅕㄱㄴㅏㅂㄱㅗ	-11110
▁IEM	-11111
▁ㄷㅟㅅㄷㅏㅁ	-11112
▁ㅇㅕㄴㅍㅣㄹ	-11113
▁ㄱㅏㅁㅁㅕㅇ	-11114
▁ㅁㅗㅁㄱㅏㅄ	-11115
ㅂㅣㅁ	-11116
▁ㅂㅜㄹㅅㅣ	-11117
▁ㅂㅜㄹㅁㅕㅇㅇㅖ	-11118
ATE	-11119
▁want	-11120
▁ㅈㅣㄴㅁㅕㅇ	-11121
▁MI	-11122
▁XIII	-11123
▁ㅈㅣㄱㅈㅣㄴ	-11124
▁1910	-11125
▁ㅅㅣㄴㅈㅣㄴ	-11126
▁ㅁㅕㅇㅈㅣ	-11127
▁ㅂㅜㄴㄷㅏㄴ	-11128
▁ㅌㅏㄴㄹㅕㄱ	-11129
ㅇㅜㅅㅅㅏ	-11130
▁ㄴㅏㅁㄱㅜㅇ	-11131
▁ㅇㅏㄹㅌㅔ	-11132
▁ㅁㅐㅇㄹㅕㄹ	-11133
▁ㅎㅘㄹㄹㅕㄱ	-11134
▁ㄱㅕㄹㅈㅓㅇㅌㅏ	-11135
▁NR	-11136
▁ㅈㅏㅇㅈㅗ	-11137
▁ㄱㅝㄴㅎㅕㄱ	-11138
▁ㅎㅏㄴㅁㅣ	-11139
▁Winter	-11140
ㅅㅡㅇㄱㅣ	-11141
▁ㄱㅣㅁㅅㅣㄴ	-11142
▁ㅇㅕㄴㅅㅏㄴㄱㅜㄴ	-11143
▁Real	-11144
▁ㅇㅑㅇㅈㅓㅇ	-11145
▁ㅊㅗㅇㅍㅕㅇ	-11146
▁ㄱㅏㅇㄱㅣ	-11147
▁ㅈㅏㄴㅊㅣ	-11148
▁ㅈㅗㅇㅅㅗㄱ	-11149
▁Like	-11150
▁Shad	-11151
▁Apple	-11152
▁ㅍㅓㄴㅌㅡ	-11153
▁ㅁㅗㄹㄷㅜ	-11154
▁ㅇㅕㄴㄷㅜ	-11155
▁ㅁㅣㄴㅅㅣㅁ	-11156
▁ㅅㅣㄴㅌㅐ	-11157
▁ㅂㅜㄴㄷㅏㅁ	-11158
▁249	-11159
ㄱㅕㅇㅈㅣ	-11160
▁ㅂㅏㄴㅊㅏㄴ	-11161
▁ㅅㅣㄹㄹㅖ	-11162
▁ㅂㅏㄱㄷㅗㅇ	-11163
▁ㅇㅑㅇㅇㅠㄱ	-11164
▁ㅇㅕㅇㄹㅕㄱ	-11165
▁ARC	-11166
▁ㄴㅜㄹㄹㅣ	-11167
▁ㅅㅣㄴㅁㅏ	-11168
▁ㅁㅕㄱㅅㅏㄹ	-11169
▁ㅈㅓㄴㄱㅡㄴ	-11170
▁ㅈㅗㅇㅊㅏㄱㅇㅕㄱ	-11171
ude	-11172
▁Step	-11173
▁416	-11174
▁ㅅㅜㄴㄱㅛ	-11175
▁ㄱㅣㅁㅇㅡㄴ	-11176
▁ㄱㅘㅇㄷㅗㅇ	-11177
▁ㅎㅙㅅㅂㅜㄹ	-11178
ㅎㅝㄴ	-11179
▁430	-11180
ㅁㅣㅇㄱㅗ	-11181
▁ㅂㅣㅇㅎㅏ	-11182
▁ㅅㅣㄴㅎㅐ	-11183
▁stay	-11184
ㅎㅏㄴㅈㅔ	-11185
▁501	-11186
▁ㄱㅏㄺ	-11187
▁ㅇㅝㄴㅊㅔ	-11188
▁ㅂㅜㄴㅇㅑㅇ	-11189
▁ZERO	-11190
▁ㅈㅡㅇㅍㅛ	-11191
▁ㄱㅜㄺㅈㅣㄱ	-11192
▁ㅇㅡㄴㅇㅣㄴ	-11193
▁ㅊㅜㅇㅅㅣㄹㅎㅏ	-11194
▁ㅈㅒ	-11195
ames	-11196
▁Mad	-11197
uture	-11198
▁Trans	-11199
▁ㄴㅏㅁㄷㅐ	-11200
so	-11201
▁ㄹㅕㄹ	-11202
▁ㅅㅛㄹ	-11203
▁part	-11204
ㄱㅏㄹㅇㅓ	-11205
▁ㄱㅏㅁㅊㅏ	-11206
▁ㅁㅓㄱㅂㅏㅇ	-11207
▁Force	-11208
▁ㅂㅗㄴㅇㅓㅂ	-11209
▁ㅈㅓㄴㅇㅣㄹ	-11210
▁ㅊㅏㅇㅊㅜㄹ	-11211
▁Her	-11212
▁UTC	-11213
de	-11214
▁ㅎㅏㅁㅇㅠ	-11215
▁Champions	-11216
▁ㅇㅠㄱㅌㅏㄴ	-11217
ㄱㅡㅂㅅㅏ	-11218
ㅅㅣㄴㅈㅓ	-11219
▁ㄴㅜㄴㅁㅐ	-11220
▁ㅇㅕㄱㅇㅣ	-11221
▁Je	-11222
light	-11223
ㅇㅣㄴㅅㅠ	-11224
▁ㅎㅠㅇㄴㅗ	-11225
▁nm	-11226
▁Feel	-11227
ㅇㅣㄹㅂㅣ	-11228
▁ㅁㅕㅇㄹㅏㅇ	-11229
▁ㅂㅏㄹㅅㅓㅇ	-11230
▁ㅅㅗㄱㅈㅚ	-11231
▁ㅇㅡㅁㅈㅓㄹ	-11232
▁ㅈㅣㄱㅅㅓㄹ	-11233
▁ㄱㅕㄴㄱㅗ	-11234
▁ㅎㅔㄹㅅㅣㅇ	-11235
▁war	-11236
▁Road	-11237
ㄷㅏㄱㄴㅏ	-11238
▁ㅂㅕㄹㅂㅏㄴ	-11239
▁ㅅㅗㄴㄱㅕㄴ	-11240
▁ㅈㅣㅇㅂㅓㄹ	-11241
▁ㅂㅜㄹㅅㅏㅇㅅㅏ	-11242
ㅌㅐㄴㄹㅣ	-11243
▁ㅇㅏㅂㅅㅜ	-11244
▁ㅅㅣㅁㅎㅐ	-11245
bum	-11246
▁ㄴㅔㄱㅌㅏ	-11247
ㄱㅡㅂㅈㅏㅇ	-11248
▁ㅇㅕㅇㅈㅓㅇ	-11249
▁ㅅㅓㄹㄹㅣ	-11250
▁ㅅㅓㅇㄱㅖ	-11251
▁ㅁㅜㄴㅎㅗ	-11252
▁ㄱㅏㅁㅊㅏㄹ	-11253
▁ㅇㅏㅇㅅㅏㅇ	-11254
ㅇㅜㄱㄷㅓ	-11255
▁ㅂㅏㄹㅂㅓ	-11256
▁Av	-11257
▁ㅅㅣㄴㅇㅗ	-11258
▁ㅇㅣㄴㅇㅟ	-11259
▁Ag	-11260
▁Bu	-11261
▁325	-11262
▁2022	-11263
▁ㅂㅐㄱㅁㅗ	-11264
▁ㅁㅜㄱㅁㅜㄱ	-11265
▁ㅇㅛㅇㅅㅣㄴ	-11266
▁Gal	-11267
▁add	-11268
▁ㄱㅑㅇ	-11269
▁ㅍㅜㄹㅌㅏ	-11270
▁ㄴㅗㅇㅅㅓㅇ	-11271
▁ㅊㅜㅇㅅㅣㄴ	-11272
ㄹㅏㄴㄷㅗ	-11273
ㅇㅠㅇㅎㅏㅂ	-11274
ital	-11275
ㄱㅏㅇㄷㅐ	-11276
▁ㄱㅜㄴㅍㅗ	-11277
▁ㅅㅔㄴㄷㅏ	-11278
▁ㅎㅐㄱㅇㅠㅇㅎㅏㅂ	-11279
44	-11280
▁ㅂㅏㄹㅍㅗ	-11281
▁ㅈㅗㅇㅂㅏㄴ	-11282
▁ㅈㅓㅇㅈㅣㄴ	-11283
ㅂㅡㄹㄹㅓ	-11284
▁ㅅㅏㄴㄷㅡ	-11285
▁ㅅㅏㅁㅊㅗㅇㅅㅏ	-11286
ㅌㅗㅇㅂㅜ	-11287
▁ㅇㅠㄴㅎㅚ	-11288
▁VI	-11289
▁EASY	-11290
▁SDRAM	-11291
▁ㄱㅘㅇㄹㅏㄴ	-11292
▁ㅊㅗㄴㅈㅏㅇ	-11293
▁ㅅㅏㄱㅅㅡ	-11294
▁ㅅㅜㄱㅂㅜ	-11295
ㅈㅏㅇㅁㅕㄴ	-11296
▁ACT	-11297
▁Mal	-11298
▁ㅅㅓㅁㅁㅓ	-11299
▁ㅅㅓㅂㅈㅓㅇ	-11300
▁pack	-11301
ㅈㅓㄴㄷㅓ	-11302
▁ㅂㅏㄹㅈㅜ	-11303
▁ㅅㅏㅇㄱㅡㅂㅈㅏ	-11304
22	-11305
▁ㅋㅗㅁㅍㅡㄹㄹㅔㄱㅅㅡ	-11306
▁CON	-11307
▁ㅅㅗㄴㅅㅐㄱ	-11308
▁ㅈㅣㄹㄹㅓㅅ	-11309
▁ㅎㅐㄴㄷㅣ	-11310
ㅅㅓㄴㅇㅘㅇ	-11311
▁ㅅㅗㅇㄹㅏ	-11312
▁ㄱㅕㄹㅅㅗㄱ	-11313
▁ㅅㅓㅇㅂㅜㄹ	-11314
▁ㅇㅜㅇㅈㅣㄴ	-11315
ㅇㅓㄵ	-11316
▁ㅂㅏㄴㅂㅏㄴ	-11317
▁213	-11318
ㅁㅏㄴㅂㅕㄹ	-11319
▁ㅊㅗㅅㅂㅜㄹ	-11320
▁ㅊㅓㅇㄱㅏㄱ	-11321
▁ㄱㅓㄴㅂㅏㅇㅈㅣ	-11322
▁gu	-11323
▁ㅋㅗㄴㅌㅡ	-11324
ㅇㅝㄴㄱㅜㄱ	-11325
ㅌㅏㄹㄹㅗ	-11326
▁Knight	-11327
▁ㅇㅕㅇㅍㅏㄴ	-11328
ㅍㅜㅅ	-11329
▁ㅌㅗㅇㅈㅗ	-11330
▁ㅎㅘㅇㄴㅕ	-11331
ㅁㅜㄴㅈㅓㅁ	-11332
▁ㅊㅓㄴㄹㅛㅇ	-11333
DDR	-11334
▁Pa	-11335
▁640	-11336
▁ㅂㅏㅇㅈㅓㄴ	-11337
▁CU	-11338
ㅁㅜㅁ	-11339
ㅁㅏㄴㅇㅡㄴ	-11340
▁ㅁㅗㄱㄷㅗ	-11341
▁ㅇㅝㄴㅅㅓ	-11342
▁ㄱㅡㅁㅁㅜㄹ	-11343
▁ㅁㅏㅇㅇㅝㄴㄱㅕㅇ	-11344
lex	-11345
anger	-11346
ㅂㅐㅇㅇㅣ	-11347
▁ㅊㅓㅇㄹㅏ	-11348
▁ㄱㅜㄷㄱㅓㄴ	-11349
▁ㅈㅣㄱㅅㅏ	-11350
▁ㅇㅘㅅㅅㅡㄴ	-11351
▁ㅂㅓㄴㅇㅚ	-11352
▁ㅅㅏㅇㄷㅣ	-11353
▁ㅋㅗㄹㄹㅣ	-11354
▁ㅇㅕㅍㅈㅣㅂ	-11355
▁ㅇㅘㅇㄱㅝㄴ	-11356
▁ㅈㅣㄹㅊㅐㄱ	-11357
ㅅㅏㄴㅎㅘ	-11358
▁ㅅㅜㅁㅈㅣ	-11359
▁ㅈㅓㄱㅇㅢ	-11360
ㅎㅕㄴㅇㅕㄱ	-11361
▁ㅂㅓㄴㄷㅡㄹ	-11362
▁mg	-11363
▁ㅎㅗㅂ	-11364
ㄱㅜㅈ	-11365
elie	-11366
▁again	-11367
ㅈㅓㄱㅍㅏㄴ	-11368
▁ㅎㅓㄴㅂㅕㅇ	-11369
▁ㅈㅓㄱㅈㅏㄶ	-11370
ㄱㅗㅅㅈㅓ	-11371
▁ㅂㅗㄹㅌㅣ	-11372
▁ㅇㅗㄴㅇㅢ	-11373
▁ㅅㅣㄱㅋㅏㄹ	-11374
fl	-11375
▁ㅇㅑㅁㅈㅓㄴㅎㅣ	-11376
▁ㅇㅕㄴㅁㅏㄱㅌㅏㄴ	-11377
▁art	-11378
ㅅㅗㄱㅅㅓㄴ	-11379
ㅍㅔㄴㅅㅕㄴ	-11380
▁ㅂㅏㅇㅁㅏㅇㅇㅣ	-11381
▁ㅇㅕㄹㄷㅡㅇㄱㅏㅁ	-11382
▁HA	-11383
ㅋㅗㅂ	-11384
▁265	-11385
▁Doc	-11386
▁ㄴㅗㄴㅇㅚ	-11387
▁ㅈㅓㄱㅇㅚ	-11388
▁ㅂㅓㅂㅈㅗ	-11389
▁ㅍㅏㄴㅌㅔ	-11390
ㅅㅓㅇㄱㅜ	-11391
▁ㄴㅔㅅㅉㅐ	-11392
ㅈㅏㄱㅂㅓㅂ	-11393
▁228	-11394
▁Vita	-11395
▁Heaven	-11396
▁ㅇㅕㄱㅈㅓㅇ	-11397
▁002	-11398
▁ㅋㅏㄱㅌㅔ	-11399
▁Tom	-11400
▁Come	-11401
ㄱㅏㄴㅈㅔ	-11402
ㄹㅣㄹㄹㅓ	-11403
ㅎㅏㅁㅁㅏ	-11404
ㅎㅓㅁㅈㅏㅇ	-11405
▁ad	-11406
▁Luc	-11407
▁ㅌㅏㄹㅁㅗ	-11408
▁ㅌㅏㅁㅎㅓㅁㄷㅐ	-11409
ㅂㅓㅇ	-11410
ㅇㅜㄹㅇㅓ	-11411
hem	-11412
ㅅㅣㄱㅇㅣㄴ	-11413
▁ㅁㅕㅇㅅㅐㄱ	-11414
▁ㅅㅗㄴㅈㅏㅂ	-11415
WS	-11416
▁Days	-11417
▁ㅂㅏㄹㄷㅏㅇ	-11418
reet	-11419
ㅇㅠㄴㅅㅜ	-11420
▁ㄴㅐㅁㅂㅣ	-11421
▁ㅇㅕㅇㅌㅗㅇ	-11422
▁ㅍㅗㄱㅈㅜㄱ	-11423
▁ㄷㅗㅇㅁㅐㅇㄱㅜㄱ	-11424
OWN	-11425
▁only	-11426
▁LPDDR	-11427
▁ㅅㅣㄴㅎㅕㅇ	-11428
▁ㅂㅜㄹㄱㅣ	-11429
▁ㄱㅓㅁㅂㅓㅂ	-11430
▁System	-11431
▁ㅇㅣㅂㄷㅏㅇ	-11432
▁ㄷㅜㄴㄱㅏㅂ	-11433
▁ㅁㅣㄴㅁㅏㅇ	-11434
▁ㅎㅗㄴㅈㅗㅇ	-11435
▁ㅁㅐㅇㄷㅗㄱㅊㅜㅇ	-11436
▁heart	-11437
▁SSD	-11438
ㄱㅘㅇㅇㅣ	-11439
▁ㅅㅓㅇㅁㅐ	-11440
▁ㅎㅕㅂㅈㅜ	-11441
ㅈㅣㄴㅈㅏㅇ	-11442
icle	-11443
▁234	-11444
▁ㄷㅏㄴㄱㅕㄹ	-11445
▁Mil	-11446
▁Intern	-11447
▁ㄱㅕㅇㅂㅗㄱ	-11448
▁ㅍㅣㄹㅁㅕㅇ	-11449
▁ㄱㅘㅇㅁㅕㅇㅅㅣ	-11450
▁ㅍㅐㅅ	-11451
▁ㅈㅓㅇㅁㅜ	-11452
▁ㅂㅣㅇㄱㅡㄹㅂㅣㅇ	-11453
ㄲㅗㅇ	-11454
ㅁㅗㄱㅁㅣㄴ	-11455
▁ㅎㅘㄴㄱㅘㄴ	-11456
▁VF	-11457
▁ㄸㅏㄴㅈㅣ	-11458
▁ㅂㅣㅇㄱㅡㄹㅂㅣㅇㄱㅡㄹ	-11459
▁iP	-11460
▁ㅇㅐㅇㄱㅡ	-11461
▁ㅇㅣㄴㄷㅐ	-11462
▁ㅊㅏㅁㅊㅣ	-11463
▁ㅊㅣㄴㅂㅜ	-11464
▁ㄱㅡㄱㅁㅕㅇ	-11465
▁ㅇㅜㄹㄹㅡㅇ	-11466
ㅌㅐㄱㄱㅏ	-11467
▁ㅌㅡㅁㅌㅏ	-11468
▁ㅊㅓㄴㅇㅏㄴㅅㅣ	-11469
▁AH	-11470
▁GF	-11471
ㅍㅡㄹㄹㅣㄴ	-11472
St	-11473
▁ㄹㅐㄹㄹㅣ	-11474
▁ㄷㅏㅇㅈㅣㄴ	-11475
▁ㅇㅣㅂㅎㅏㄱㅅㅣㄱ	-11476
▁ㅍㅔㄹㄹㅣㄱㅅㅡ	-11477
ris	-11478
ㅈㅣㄹㄱㅏㅁ	-11479
▁ㄷㅗㄹㅂㅏㄹ	-11480
▁ㅈㅏㄴㅈㅏㄴ	-11481
▁ㅅㅏㅁㄱㅜㄱㅈㅓㄴ	-11482
▁per	-11483
▁STAND	-11484
▁ㅅㅜㄴㅈㅗㅇ	-11485
▁ㄱㅏㅇㅁㅣㄴㅎㅗ	-11486
ㅈㅣㄴㄱㅜ	-11487
ㄹㅏㄱㅅㅏ	-11488
▁ㅁㅣㄴㅅㅜ	-11489
▁ㅈㅏㅇㄹㅕ	-11490
▁TC	-11491
▁ㄱㅣㅁㅈㅏㅇ	-11492
▁her	-11493
ㅂㅣㄴㅅㅡㄴ	-11494
▁ㅈㅏㄱㅁㅕㅇ	-11495
▁ㄱㅗㄹㅍㅏㄴㅈㅣ	-11496
▁2400	-11497
▁ㄷㅟㅅㅂㅜ	-11498
ㅅㅓㅇㅈㅏㅇ	-11499
▁ㅍㅏㄹㅋㅗㅁ	-11500
▁red	-11501
▁ㅎㅕㄴㅅㅜ	-11502
▁ㄱㅜㄱㅎㅏㄴ	-11503
▁ㄱㅡㄹㄹㅔ	-11504
▁ㅅㅏㅇㄹㅗㄱ	-11505
▁ㅅㅣㄴㅊㅏㅇ	-11506
uss	-11507
▁ㄷㅏㄴㄱㅜㄴ	-11508
hn	-11509
▁Ult	-11510
ㅌㅡㄹㅂㅓ	-11511
ㄱㅏㄱㅅㅏㅇ	-11512
▁ㅍㅗㄱㄹㅏㄱ	-11513
alent	-11514
▁ㅈㅏㅇㄴㅏㄴㅊㅣ	-11515
▁ㅂㅏㅇㅅㅜ	-11516
▁ㅅㅣㄹㄱㅝㄴ	-11517
▁ㅈㅜㅇㅇㅛㅇ	-11518
ㅅㅡㄹㄹㅏㅁㄱㅛ	-11519
▁ㅅㅜㄷ	-11520
▁ㅅㅡㅇㄹㅛㅇ	-11521
▁ㅈㅓㄱㄱㅜㄱ	-11522
▁ㅊㅜㄹㄱㅜㄱ	-11523
ㅎㅣㅁ	-11524
▁ㅇㅏㄹㄹㅕ	-11525
▁ㅈㅓㅇㅇㅠㄴㅈㅗㅇ	-11526
ㄷㅏㅇㅅㅓㄴ	-11527
ㅂㅏㄹㅈㅓㅁ	-11528
39	-11529
ines	-11530
▁PTS	-11531
▁House	-11532
ler	-11533
▁ㄱㅘㄴㄹㅖ	-11534
▁ㅊㅓㄴㅅㅓㅇ	-11535
▁ㅊㅣㄹㄱㅗㄱ	-11536
ㅂㅐㄱㅎㅗ	-11537
▁ㅈㅓㅇㄱㅡㄴㅇㅜ	-11538
ANCE	-11539
ㅉㅏㄹㅇㅣ	-11540
ㅍㅔㄴㄷㅓ	-11541
▁ㄱㅣㅁㅇㅜ	-11542
▁ㅇㅐㄱㅌㅓ	-11543
▁ㄱㅏㄹㅁㅏㅇ	-11544
▁ㅅㅣㄴㅍㅏㄴ	-11545
▁ㄷㅗㅇㅇㅑㅇㅇㅣㄴ	-11546
ㅇㅣㄴㅎㅘ	-11547
▁ㅅㅓㅇㅈㅏ	-11548
▁ㅇㅛㅇㅇㅣㄴㅅㅣ	-11549
▁245	-11550
▁Champion	-11551
▁ㄱㅣㅁㅎㅕㄴㅅㅜ	-11552
▁ㄱㅏㄴㅅㅜ	-11553
▁ㅂㅣㅇㄱㅡ	-11554
▁ㅍㅕㅁㅎㅏ	-11555
▁ㅎㅘㅇㅈㅐ	-11556
▁ㅂㅕㄹㅈㅏㅇ	-11557
▁ㅇㅕㄹㅇㅕㄴ	-11558
▁ㅂㅏㄱㅊㅏㄴㅎㅗ	-11559
▁ㄱㅣㄹㄱㅏ	-11560
▁ㅁㅔㅇㅅㅡ	-11561
▁ㅅㅑㄹㄹㅗ	-11562
▁ㅈㅓㄴㅁㅜㄴㅈㅓㅁ	-11563
unt	-11564
ㅅㅠㄹㄹㅣ	-11565
▁ㅈㅓㄱㄴㅏ	-11566
▁ㅈㅣㅇㅍㅛ	-11567
enn	-11568
▁who	-11569
▁ㅁㅏㄱㅅㅏ	-11570
▁ㄱㅘㅇㅍㅗㄱ	-11571
ㅆㅓㄱ	-11572
ㅇㅟㄱ	-11573
ㄱㅕㅇㅁㅣㄴ	-11574
▁ㅁㅏㄹㅆㅓㅇ	-11575
▁ㅇㅓㄹㄹㅡㄴ	-11576
ㅇㅏㄹㄹㅏ	-11577
ㅎㅏㄱㅇㅕ	-11578
▁ㅎㅏㄴㅅㅜ	-11579
▁ㅇㅕㄱㅅㅜㄴ	-11580
▁ㄱㅏㄴㄱㅏㄴㅇㅣ	-11581
▁ㅂㅓㄴㅈㅏㄱ	-11582
▁ㄱㅓㅁㅌㅜ	-11583
▁ㅇㅕㅁㅈㅡㅇ	-11584
▁ㅎㅐㅇㅅㅓㄴㅈㅣ	-11585
ㄲㅓㄹ	-11586
▁ㅁㅏㅇㄴㅏ	-11587
ㅂㅔㄴㅈㅣ	-11588
ㅇㅛㅇㅎㅏㄴ	-11589
▁OC	-11590
▁ㅁㅕㅇㅎㅏ	-11591
ㅁㅣㄴㅈㅓㅇ	-11592
▁RB	-11593
ㅋㅟㄴ	-11594
▁221	-11595
ㅈㅏㅇㅇㅕㄱ	-11596
▁ㄱㅣㅁㄱㅏㅂ	-11597
▁ㅈㅗㅇㅇㅓㅂ	-11598
body	-11599
ology	-11600
▁ㅇㅣㄹㄱㅡ	-11601
ㅇㅏㄴㄱㅘㄴ	-11602
▁ㄱㅕㅇㅊㅜㄴ	-11603
oom	-11604
ㄹㅜㄹ	-11605
▁ㅅㅣㄹㅋㅡ	-11606
▁Direct	-11607
▁ㅅㅓㄹㄴㅏㄹ	-11608
▁ㅅㅣㄴㄴㅕㄴ	-11609
VEL	-11610
▁1933	-11611
ㅁㅏㄴㅅㅜ	-11612
ㅅㅏㄴㅅㅓㅇ	-11613
▁ㄹㅣㄴㄷㅡ	-11614
▁ㅁㅣㄹㅍㅖ	-11615
▁ㅅㅣㄴㅇㅢ	-11616
▁ㅇㅏㅂㅅㅡㅇ	-11617
▁ㅈㅓㅇㅎㅜㄴ	-11618
thing	-11619
▁ㅉㅏㄼㅇㅏ	-11620
ㄷㅏㄹㅇㅡㅁ	-11621
▁ㅈㅏㅁㅈㅓㄱ	-11622
▁ㅊㅜㅇㄷㅏㅇ	-11623
▁ㄴㅏㅌ	-11624
▁ㅇㅠㄴㅈㅣ	-11625
▁LB	-11626
▁SUV	-11627
▁Remix	-11628
▁ㅅㅏㅇㅂㅗㅇ	-11629
76	-11630
▁GOT	-11631
▁ㅇㅣㅂㅅㅏㅇ	-11632
▁ㅅㅣㄴㅂㅜㄴㄷㅏㅇㅅㅓㄴ	-11633
▁510	-11634
▁Del	-11635
ㄷㅗㅇㅅㅗ	-11636
▁ㅂㅕㄴㅈㅗ	-11637
▁ㅍㅔㄴㅌㅣ	-11638
▁HL	-11639
▁ㄸㅡㅅㅂㅏㄲ	-11640
21	-11641
ㄱㅜㄱㅅㅜ	-11642
▁ㅎㅘㅇㅎㅐ	-11643
▁ㅇㅕㅇㅇㅓㅂㅅㅗ	-11644
▁ㅎㅐㄴㄷㅡㄹㄹㅣㅇ	-11645
my	-11646
▁ed	-11647
▁ㅈㅣㄴㅇㅟ	-11648
▁ㄲㅏㅇㅌㅗㅇ	-11649
▁ㄷㅓㄴㄷㅔ	-11650
▁ㅈㅣㄴㅇㅣ	-11651
ㅅㅐㅇㅇㅏ	-11652
▁ㅎㅓㄴㅌㅣㅇ	-11653
▁233	-11654
▁303	-11655
ㅈㅣㄴㄱㅣ	-11656
▁ㄱㅡㄴㄱㅛ	-11657
▁ㄹㅜㄹㄹㅔㅅ	-11658
▁ㅅㅡㅇㅅㅓㄴ	-11659
▁ㄱㅏㄴㅅㅓㄴㅂㅓ	-11660
▁231	-11661
ㄷㅓㄱㅈㅣ	-11662
ㅇㅣㄴㅅㅓㄴ	-11663
▁ㄴㅜㄴㅇㅏㄹ	-11664
▁ㅇㅏㅍㄷㅏㅇㄱㅣ	-11665
ㅃㅜㄴ	-11666
▁Full	-11667
▁ㅇㅑㄱㅊㅗ	-11668
▁KV	-11669
▁des	-11670
▁ㅍㅔㄴㅌㅏ	-11671
RO	-11672
ㅊㅞ	-11673
ene	-11674
▁ㄱㅕㅇㅎㅘ	-11675
▁ㅇㅛㅇㅅㅣ	-11676
▁ㅅㅜㄴㅎㅏ	-11677
ㅊㅏㅇㅁㅣㄴ	-11678
▁ㄷㅔㅂ	-11679
▁Mach	-11680
ㄷㅡㄴㅇㅛ	-11681
▁ㅇㅏㄱㅈㅐ	-11682
ㅎㅡㅇㄱㅜㄴ	-11683
▁ㄴㅏㅁㅅㅐㄱ	-11684
ㅇㅇㅏ	-11685
▁ㅅㅣㅅ	-11686
▁1931	-11687
▁ㄷㅗㅇㅊㅏ	-11688
▁ㅂㅐㅅㅅㅗㄱ	-11689
du	-11690
▁JYP	-11691
ㄹㅣㅁㄷㅗㅇ	-11692
ㅊㅜㄹㄹㅕㄱ	-11693
▁ㅂㅏㄹㄱㅜㄴ	-11694
▁226	-11695
▁ㅁㅏㄴㅌㅏ	-11696
▁ㅅㅏㄴㄹㅣㅁ	-11697
▁ㅇㅣㅂㄱㅣㅁ	-11698
▁ㅌㅏㅁㅎㅓㅁㄱㅏ	-11699
▁ㅇㅑㅇㅂㅗㄱ	-11700
▁ㅇㅚㄴㅅㅗㄴㅈㅏㅂㅇㅣ	-11701
tus	-11702
▁KBL	-11703
▁Spir	-11704
ㅅㅣㅂㅈㅏ	-11705
ㄱㅗㅇㅇㅝㄴ	-11706
▁ㅇㅑㅇㄴㅏㄹ	-11707
▁GBA	-11708
▁ㅈㅏㅇㅈㅣ	-11709
▁ㅇㅝㄹㄱㅘㅇ	-11710
ㄷㅡㄹㄱㅕ	-11711
▁ㄷㅗㅇㄷㅜ	-11712
▁ㅁㅕㅇㅅㅜ	-11713
▁ㅊㅓㅇㄱㅖ	-11714
▁ㅅㅣㄴㅇㅣㄴㅇㅘㅇ	-11715
▁ㅋㅏㅁㅂㅗ	-11716
ㅉㅐㅆㄱㅓ	-11717
▁their	-11718
▁ㄷㅓㄹㄷㅓㄹ	-11719
▁ㅇㅕㄹㄷㅗ	-11720
ㅇㅏㄴㄱㅕㅇ	-11721
ㅅㅔㄹㄹㅓ	-11722
▁ㄷㅏㄴㅎㅗ	-11723
▁ㅌㅡㄱㅁㅜ	-11724
▁219	-11725
▁ㅂㅜㄴㅌㅜ	-11726
▁ㅎㅗㅇㅅㅓㄹ	-11727
ㅇㅣㄱㅅㅡ	-11728
▁ㅁㅏㅁㄷㅐ	-11729
ㅎㅏㅂㅈㅜㅇㄱㅜㄱ	-11730
▁217	-11731
▁SUPER	-11732
▁ㅇㅛㅇㅈㅓㅂ	-11733
▁ㅈㅜㄴㅁㅏㄹ	-11734
ARK	-11735
▁"...	-11736
▁ㄱㅡㅁㅅㅜ	-11737
ㅂㅜㄹㅂㅗㄱ	-11738
▁ㅂㅗㄱㅂㅜㄹㅂㅗㄱ	-11739
▁es	-11740
ㅍㅣㅂ	-11741
ㄴㅗㄹㄷㅡ	-11742
▁never	-11743
▁ㅇㅝㄴㄱㅜㄴ	-11744
▁ㅇㅣㄹㅅㅐㄱ	-11745
ㅁㅓㄱㅎㅣ	-11746
▁ㅂㅗㅇㅌㅜ	-11747
▁ㅅㅣㅁㄷㅗ	-11748
▁ㅊㅏㅁㅅㅣㄴ	-11749
ㄲㅝ	-11750
▁ㅅㅗㅇㅈㅓㅇ	-11751
▁ㅈㅣㄴㅎㅗㅇ	-11752
sp	-11753
▁da	-11754
▁ㅇㅜㄴㅎㅏ	-11755
▁ㅇㅝㄴㅇㅣ	-11756
ONG	-11757
▁Mat	-11758
ㅅㄱㅏㅁ	-11759
ㅎㅕㄴㅅㅏㅇ	-11760
▁ㅅㅣㄱㄱㅏㅁ	-11761
br	-11762
ㄷㅣㄹ	-11763
ㅆㅡㄹㅇㅣ	-11764
▁ㅈㅡㅇㄷㅐ	-11765
▁ㅂㅏㄴㅇㅕㄱㅈㅏ	-11766
▁ㄷㅗㅇㄹㅕㄱㅇㅝㄴ	-11767
ㅇㅛㅇㄱㅠ	-11768
▁ㅊㅗㅇㅊㅔ	-11769
▁ㅊㅓㄹㅍㅏㄴ	-11770
▁ㅇㅏㄴㅅㅏㄴㅅㅣ	-11771
▁ㅌㅗㄱㅌㅗㄱㅎㅣ	-11772
▁ㅇㅑㅂ	-11773
▁FINAL	-11774
▁ㅈㅣㄱㅎㅏㄹ	-11775
▁ㄱㅣㅁㄱㅘㅇㅎㅕㄴ	-11776
▁ㅈㅏㅇㅊㅏㅇ	-11777
▁ㅊㅣㅁㅂㅓㅁ	-11778
ㄱㅓㄴㅂㅜ	-11779
▁ㄷㅐㄹㄹㅓ	-11780
ㄴㅑㅇㄱㅏㅁ	-11781
▁ㅂㅏㄴㅇㅝㄹ	-11782
▁ㅍㅕㄴㅎㅑㅇ	-11783
▁ㅍㅗㄱㄴㅓㄼ	-11784
▁ㄱㅜㄴㅁㅜ	-11785
▁ㅎㅏㄴㄱㅣ	-11786
▁ㅂㅏㅇㅎㅏㄴ	-11787
box	-11788
ㅊㅏㅁㅎㅣ	-11789
▁ㄱㅣㅁㅎㅏ	-11790
▁ㅂㅏㄹㅈㅏㄱ	-11791
▁."	-11792
▁ㅇㅔㄹㅅㅏ	-11793
▁Secret	-11794
▁ㄹㅓㄱㅅㅡ	-11795
▁ㅂㅓㄴㅅㅓㅇ	-11796
SE	-11797
ㅈㅓㄱㅎㅏㅂ	-11798
▁ㅇㅣㄹㅅㅣㄴ	-11799
rew	-11800
ㅂㅐㄴㅌㅣ	-11801
▁ㅇㅝㄴㅌㅜ	-11802
▁ㅂㅓㄹㅈㅣㅂ	-11803
▁ㅅㅓㅇㅇㅛㄱ	-11804
▁ㅊㅓㄹㅈㅔ	-11805
▁ㅇㅣㄴㅇㅝㄴㅅㅜ	-11806
rive	-11807
ㄱㅗㄱㄹㅣ	-11808
▁ㅂㅜㄹㅍㅐ	-11809
▁ㅊㅓㄴㅅㅜ	-11810
▁here	-11811
▁ㅊㅗㄱㄱㅜ	-11812
▁ㅅㅖㄴ	-11813
▁ㅉㅣㅂ	-11814
ㅌㅗㅇㅋㅏ	-11815
▁ㅂㅜㄺㅎㅣ	-11816
▁ser	-11817
▁ㅂㅐㄱㅅㅏㅇ	-11818
▁ㅇㅠㄴㅈㅗㅇㅅㅣㄴ	-11819
▁Tem	-11820
ㅇㅑㄴㅁㅏ	-11821
▁ㅈㅏㅇㄹㅛ	-11822
▁ㅈㅜㅇㅈㅡㅇ	-11823
▁ㅅㅜㄴㅈㅓㅇㅁㅏㄴㅎㅘ	-11824
▁Att	-11825
ㅅㅡㅇㅎㅢ	-11826
▁ㄹㅐㅁㅈㅣ	-11827
▁ㅇㅓㅍㅇㅓ	-11828
ㅍㅡㄹㄹㅗ	-11829
▁ㄷㅏㄴㅊㅜ	-11830
▁ㅇㅕㄱㅅㅜ	-11831
▁ㅎㅗㄴㅅㅜ	-11832
▁see	-11833
ㄱㅡㄴㄱㅓ	-11834
ㄱㅕㄹㅎㅏㅂ	-11835
▁ㅇㅝㄹㅎㅘ	-11836
▁ㄷㅡㅇㅅㅣㄴ	-11837
▁ㅅㅓㄹㅇㅝㄴ	-11838
▁Inc	-11839
▁ㅂㅗㄴㅅㅣㅁ	-11840
▁ㅂㅜㄹㄹㅣㅅ	-11841
▁ㅂㅗㄱㅇㅡㅁㅅㅓ	-11842
ader	-11843
▁any	-11844
▁col	-11845
▁ㄴㅏㅁㅈㅜ	-11846
▁ㅈㅓㄴㄹㅠㄴ	-11847
▁ㅂㅗㄱㅅㅜㅇㅇㅏ	-11848
unch	-11849
▁ㅂㅕㅇㅂㅓㅂ	-11850
ets	-11851
orever	-11852
▁ㅅㅏㄴㅊㅜㄹ	-11853
▁ml	-11854
▁Old	-11855
▁Home	-11856
▁ㅊㅏㅁㅎㅗ	-11857
▁ㅊㅜㅇㅇㅣ	-11858
ㅇㅑㄱㅍㅜㅁ	-11859
▁EG	-11860
▁ㅇㅐㅅ	-11861
▁ㅅㅐㄱㅅㅗ	-11862
▁ㅇㅏㅁㅅㅏㄹㄷㅏㄴ	-11863
▁ㅁㅟㄹㄹㅓ	-11864
▁ㅇㅣㄴㄷㅓ	-11865
ㄷㅗㅁ	-11866
▁NTR	-11867
▁ㅋㅐㄴㅈㅏ	-11868
▁ㅁㅜㄹㅂㅏㅇㅇㅜㄹ	-11869
▁ㄹㅗㄴㄷㅗ	-11870
▁Japan	-11871
▁ㄴㅏㄴㅈㅣㅇ	-11872
▁ㅂㅐㅅㅈㅣ	-11873
▁ㅂㅗㄴㅈㅡ	-11874
irc	-11875
ause	-11876
ㅋㅜㄹㄹㅜ	-11877
▁ㄱㅏㅇㅈㅓㅇㅎㅗ	-11878
ily	-11879
▁JK	-11880
▁Sin	-11881
▁ㅋㅔㅁ	-11882
ㅊㅏㅇㅎㅗ	-11883
▁ㅁㅐㄴㅅㅓ	-11884
▁ㄷㅗㅇㅁㅕㄴ	-11885
▁1917	-11886
ㅅㅓㅇㅇㅜㄱ	-11887
▁ㅈㅏㅇㄱㅓㅁ	-11888
▁ㅊㅣㅁㄹㅑㄱㅈㅏ	-11889
▁PE	-11890
▁dr	-11891
▁ㄴㅏㄱㅌㅐ	-11892
▁ㅈㅓㄴㅁㅜㄴㅎㅏㄱㄱㅛ	-11893
▁GEN	-11894
▁ㅂㅜㅇㅇㅓ	-11895
▁ㅇㅗㅂㅈㅓ	-11896
ㅇㅛㅇㅇㅓㅄ	-11897
▁ㅈㅏㅇㄷㅏㄴㅈㅓㅁ	-11898
▁Green	-11899
▁ㄴㅜㄴㄱㅣㄹ	-11900
▁ㄷㅏㅇㅈㅣㄱ	-11901
▁ㅇㅕㄹㄱㅏㅇ	-11902
▁ㅈㅓㅁㅇㅝㄴ	-11903
▁GIR	-11904
▁ㄱㅡㄱㅎㅚ	-11905
▁ㅎㅐㅇㅈㅓㅇㄷㅗㅇ	-11906
ㅇㅕㅇㅎㅜㄴ	-11907
▁ㅅㅓㄴㄹㅏ	-11908
ㅅㅗㅌ	-11909
▁ㄷㅟㅅㅁㅗ	-11910
▁ㅇㅕㄴㅎㅠ	-11911
ㅈㅣㄴㅊㅏㅇ	-11912
▁Rep	-11913
▁ㅈㅓㄴㅍㅐ	-11914
▁ㅂㅓㄴㅇㅏㄴ	-11915
▁ㅈㅣㄴㅍㅜㅇㄱㅕㅇ	-11916
▁ㄹㅔㄴㅈㅣ	-11917
▁ㄴㅡㅇㅌㅗㅇ	-11918
▁ㅇㅑㄱㄱㅜㄱ	-11919
▁ㅎㅐㄱㅈㅓㄴㅈㅐㅇ	-11920
▁ㅇㅓㅇㅁㅏㅇㅈㅣㄴㅊㅏㅇ	-11921
▁306	-11922
ㅅㅏㄹㅍㅛ	-11923
▁ㅇㅏㄴㅍㅏ	-11924
▁ㅅㅣㄴㅂㅕㄴ	-11925
ands	-11926
▁ㄱㅐㄱㅊㅏ	-11927
▁ㅅㅣㄴㅂㅗ	-11928
▁ㅎㅟㄹㅊㅔ	-11929
▁ㅉㅏㄹㅉㅏㄹㅇㅣ	-11930
ㅍㅏㅁ	-11931
iful	-11932
▁ㄱㅣㅁㅅㅗ	-11933
▁ㅅㅜㅁㅌㅗㅇ	-11934
▁ㅇㅝㄴㄷㅗㅇㄹㅕㄱ	-11935
29	-11936
ury	-11937
▁MSX	-11938
▁ㅁㅜㄴㄱㅕㅇ	-11939
▁ㅅㅓㅇㅎㅐㅇ	-11940
▁218	-11941
ience	-11942
▁ㅊㅜㄱㅊㅜㄹ	-11943
ㅇㅣㅁㅅㅐ	-11944
▁ㄱㅓㄹㄹㅔ	-11945
▁ㅇㅛㅇㅁㅏ	-11946
▁ㄱㅜㄹㅈㅓㄹ	-11947
ODE	-11948
▁When	-11949
ㅇㅣㅂㅈㅏ	-11950
▁ㅈㅜㄹㅁㅜ	-11951
▁ㅇㅏㅇㅅㅏㅇㅂㅡㄹ	-11952
▁Plan	-11953
▁ㅇㅏㄴㅍㅏㄲ	-11954
▁ㅇㅏㅇㅋㅗ	-11955
ㅈㅓㅇㅍㅏㄴ	-11956
▁ㅈㅐㅇㅈㅐㅇ	-11957
▁ㄱㅕㅇㅋㅙ	-11958
▁ㄷㅡㅇㄷㅐ	-11959
▁ㅁㅏㄴㅎㅏ	-11960
▁ㅂㅏㅇㄱㅟ	-11961
▁ㅉㅜㄱㅉㅜㄱ	-11962
▁ㅈㅜㅇㄴㅏㅁㅁㅣ	-11963
▁ee	-11964
▁Arc	-11965
▁ㅎㅠㅇㅂㅜ	-11966
ㅅㅣㄱㅁㅜㄹ	-11967
ㅇㅝㄴㄱㅡㅁ	-11968
ㅌㅡㄹㄹㅣㄴ	-11969
▁Chap	-11970
▁ㅅㅏㄴㅊㅔ	-11971
▁ㅅㅗㄱㅇㅓ	-11972
▁blue	-11973
▁ㄱㅓㄴㄱㅘ	-11974
▁ㅇㅝㄴㄹㅛ	-11975
ㄷㅡㅇㅂㅕㅇ	-11976
ㄹㅡㅁㄱㅏㅄ	-11977
▁ㅇㅕㅇㅅㅏㅇㅁㅜㄹ	-11978
ember	-11979
▁PTSD	-11980
▁ㅁㅏㄴㅇㅣㄴ	-11981
ITE	-11982
▁009	-11983
ㄹㄹㅣㅁ	-11984
▁ㅇㅚㄴㅂㅏㄹ	-11985
▁ㅎㅏㅁㄹㅑㅇ	-11986
▁ㅇㅣㄹㅇㅣㄹㅎㅣ	-11987
▁ㅁㅕㄹㅅㅣ	-11988
▁ㅇㅣㄹㄹㅠ	-11989
▁ㄱㅕㄴㅎㅝㄴ	-11990
▁ㅁㅣㄷㄱㅣ	-11991
ㅁㅜㄷ	-11992
▁ㅍㅓㄴㄷㅡ	-11993
▁ㄱㅘㄴㄹㅏㅁㄱㅐㄱ	-11994
OLD	-11995
▁Long	-11996
▁ㅎㅘㄴㄱㅣ	-11997
ㅆㅗ	-11998
ㅇㅕㅇㅁㅜ	-11999
▁ㅈㅏㅇㅈㅏㄱ	-12000
▁ㅈㅜㅇㄹㅏㅇ	-12001
ㄴㅕㄴㅌㅏㅁㅈㅓㅇ	-12002
ㅅㅓㄲㅇㅣ	-12003
▁ㅂㅏㄹㄹㅗ	-12004
▁560	-12005
ㄱㅘㄴㄹㅣ	-12006
ㅋㅡㄹㄹㅗ	-12007
▁ㅅㅓㄱㄱㅏ	-12008
▁ㅈㅏㅁㅈㅏㅁ	-12009
▁ㅎㅏㅇㄹㅕㄹ	-12010
▁OM	-12011
▁right	-12012
▁ㅁㅜㄴㅇㅖ	-12013
▁ㅇㅠㄱㅇㅏ	-12014
▁ㅎㅏㅇㅅㅣ	-12015
ㅍㅕㅇㄷㅗㅇ	-12016
▁ㅅㅗㄴㅎㅡㅇ	-12017
▁003	-12018
▁ㅍㅣㅂ	-12019
▁2100	-12020
▁ㅌㅏㄹㄹㅔ	-12021
▁MED	-12022
▁ㅅㅓㄴㅈㅓㅁ	-12023
▁ㅅㅣㄴㄱㅔㄴ	-12024
▁<<	-12025
▁IR	-12026
acy	-12027
▁ㄴㅓㄳ	-12028
▁ㅎㅗㄴㄴㅐ	-12029
ㅇㅑㅇㅇㅣㄴ	-12030
▁ㄱㅏㅁㅊㅜㄱ	-12031
▁ㅅㅏㄹㄹㅣㅁ	-12032
iet	-12033
▁STAGE	-12034
▁ㄱㅡㅁㅅㅏ	-12035
▁ㅅㅏㅁㄱㅏ	-12036
▁ㄱㅓㅂㅁㅓㄱ	-12037
▁ㅅㅜㄴㅇㅑㅇ	-12038
▁ㅅㅣㄴㅁㅕㅇ	-12039
▁ㅂㅜㄱㅇㅟ	-12040
QU	-12041
ㅂㅏㄹㄹㅗㄴ	-12042
ㅂㅓㅂㅇㅣㄴ	-12043
ㅅㅓㄴㅈㅓㄴ	-12044
BL	-12045
▁308	-12046
▁ㄱㅜㅂㅎㅣ	-12047
▁ㄷㅏㄴㄹㅏㄱ	-12048
▁ㅁㅣㄴㅅㅗㄱ	-12049
ormal	-12050
▁ㅅㅣㄴㅌㅗㅇ	-12051
self	-12052
▁Micro	-12053
▁ㅅㅏㄴㅈㅣ	-12054
▁ㅎㅏㅇㅁㅜㄴ	-12055
▁264	-12056
ㅁㅜㄴㄱㅜ	-12057
▁Tim	-12058
ㅂㅣㄹㄹㅗㄴ	-12059
ㅅㅡㅇㅈㅜㄴ	-12060
▁ㅇㅛㅇㅈㅗㄱ	-12061
▁ㅋㅗㄹㄹㅔㄱㅅㅕㄴ	-12062
▁ㄱㅜㄱㅂㅗ	-12063
▁ㄱㅡㅁㅅㅏㅇ	-12064
▁ㅈㅏㅇㅈㅓㅇ	-12065
▁ㅈㅗㅇㅇㅓㄴ	-12066
▁she	-12067
ㅂㅜㄹㅅㅏ	-12068
▁ㄷㅏㅇㅂㅜ	-12069
▁ㅎㅏㄴㅂㅏ	-12070
▁ㅂㅣㅇㅂㅣㅇ	-12071
▁ㄱㅗㅇㅅㅗㄴㅊㅏㄴ	-12072
▁ㄲㅜㅇ	-12073
▁ㄷㅏㅁㅂㅗ	-12074
▁ㄹㅣㄴㄴㅔ	-12075
▁ㅁㅏㅇㅇㅓㄴ	-12076
▁Episode	-12077
ㅂㅔㄴㅈㅓ	-12078
▁ㅁㅜㄴㅎㅢ	-12079
▁ㅁㅕㅇㅅㅏㅇ	-12080
ㄸㅏㅇㅎㅣ	-12081
▁ㄷㅗㄱㅎㅏ	-12082
▁ㄹㅔㄴㄷㅓ	-12083
▁ㅁㅕㄴㅅㅔ	-12084
▁ㅅㅓㅇㅅㅗ	-12085
▁ㅅㅣㄴㅇㅡㅁ	-12086
ㄴㅕㅁㅂㅣ	-12087
▁ㅂㅗㄴㄱㅣ	-12088
▁ㅂㅏㄱㅇㅝㄴ	-12089
▁ㅈㅡㅇㅈㅣㄴ	-12090
▁ㅅㅗㄴㅎㅡㅇㅁㅣㄴ	-12091
▁UK	-12092
ㄹㅅㅔ	-12093
▁CBS	-12094
▁ㄱㅜㄴㄱㅏ	-12095
▁ㅂㅏㄹㅎㅘ	-12096
▁ㅅㅣㅁㄱㅕㅇ	-12097
▁ㅊㅣㄹㅅㅓㅇ	-12098
▁Sim	-12099
▁ㄱㅜㄴㅁㅏ	-12100
▁ㄸㅓㄱㅊㅣㄹ	-12101
aki	-12102
ㅂㅔㄱ	-12103
ㄱㅕㅇㄱㅠ	-12104
▁ㄱㅓㄹㅍㅡ	-12105
▁ZEX	-12106
▁Lost	-12107
ㄹㅣㅅㅅㅏ	-12108
▁ㄱㅏㅇㅎㅢ	-12109
▁ㄱㅏㅈㄱㅏ	-12110
▁ㅅㅏㄴㅇㅕㄱ	-12111
▁ㅊㅓㄹㅇㅣㄴ	-12112
ATA	-12113
▁ㄱㅏㅇㅈㅘ	-12114
▁ㅂㅕㅇㅈㅏ	-12115
▁ㅍㅕㄴㅂㅓㅂ	-12116
▁ㅇㅕㅇㄹㅏㄱㅇㅓㅄ	-12117
lo	-12118
▁285	-12119
▁str	-12120
▁Yeah	-12121
icon	-12122
ㅍㅔㄴㅅㅓ	-12123
▁ㅅㅐㅇㅁㅜㄹㅊㅔ	-12124
ㅅㅣㅁㅈㅏ	-12125
ㅎㅗㅁ	-12126
▁1928	-12127
▁ㅂㅏㄹㅌㅓ	-12128
▁ㅇㅗㄱㅌㅗ	-12129
▁ㄱㅓㄴㅂㅏㄴ	-12130
▁ㅂㅏㅇㅊㅓㅇ	-12131
▁ㅈㅓㄴㅇㅓㅂ	-12132
▁ㅈㅓㄹㅅㅣㄹ	-12133
▁ㅁㅗㄱㄱㅕㄱㅈㅏ	-12134
emy	-12135
ral	-12136
ㅂㅓㅂㅈㅏ	-12137
ㅈㅓㄱㄱㅓ	-12138
▁ㅈㅜㄴㅋㅗ	-12139
▁ㅇㅏㄹㄹㅔㄱㅅㅣ	-12140
▁FT	-12141
ㅁㅏㄹㄹㅏ	-12142
ㅂㅕㅇㄱㅠ	-12143
▁ㄴㅏㅁㅂㅏㅇ	-12144
▁ㅈㅓㄴㄱㅜㄱㄱㅜ	-12145
ents	-12146
▁1925	-12147
ㄱㅏㄴㄷㅏ	-12148
▁ㅆㅏㄱㅆㅡㄹㅇㅣ	-12149
▁ㅂㅕㄴㅎㅏㅁㅇㅓㅄ	-12150
pm	-12151
play	-12152
▁Cup	-12153
▁ㅈㅜㅇㅈㅗㅇ	-12154
▁ㅇㅑㅇㅈㅜㄴㅎㅕㄱ	-12155
▁Pan	-12156
▁ㅇㅓㅇㅌㅓ	-12157
▁ㅈㅣㄱㅁㅕㄴ	-12158
ㄲㅣㅁㅇㅓㅄㅇㅣ	-12159
ㄱㅏㅇㅎㅗ	-12160
▁227	-12161
▁737	-12162
▁Stand	-12163
▁Style	-12164
▁ㅇㅝㄹㅌㅡ	-12165
▁ㄷㅗㄱㅇㅣㄹㅇㅣㄴ	-12166
▁20000	-12167
▁ㄴㅏㄱㅌㅏ	-12168
▁ㄹㅕㅁㄱㅜ	-12169
▁ㅃㅏㄹㄹㅐ	-12170
▁ㄷㅏㄴㄱㅜㄱ	-12171
▁ㄷㅗㄱㅊㅏㅇ	-12172
esh	-12173
ㅈㅓㅇㅈㅣ	-12174
▁ㅇㅐㄱㅈㅏ	-12175
▁ㅈㅓㅇㅌㅐ	-12176
▁ㅎㅗㄹㅅㅜ	-12177
ㅋㅓㄱ	-12178
▁ㅇㅛㅇㅁㅗ	-12179
▁ㄱㅜㄹㄱㅗㄱ	-12180
▁ㄲㅗㅊㅇㅣㅍ	-12181
▁ㅅㅏㄴㅈㅓㄱ	-12182
▁ㅇㅣㄴㅇㅑㅇ	-12183
▁ㄱㅘㅇㅅㅣㄴㄷㅗ	-12184
ㅅㅏㅇㅇㅛㅇ	-12185
▁ㅂㅗㅇㄱㅓㄴ	-12186
▁ㅈㅗㅇㅅㅣㄱ	-12187
ㄱㅙㅇㅇㅣ	-12188
ㅈㅓㅇㄱㅠ	-12189
▁ㅈㅓㅇㄹㅜ	-12190
PGA	-12191
▁LCS	-12192
ㄹㅏㄱㅅㅔ	-12193
▁ㄱㅕㅇㅊㅏ	-12194
ㄸㅜㄱㄸㅜㄱ	-12195
▁ㅈㅏㄴㅅㅏㅇ	-12196
yo	-12197
▁ㅅㅓㄴㄷㅔ	-12198
▁ㄷㅏㄴㅁㅏㅅ	-12199
EP	-12200
▁Plus	-12201
▁ㅇㅑㅇㅅㅜ	-12202
▁ㅎㅣㅁㄷㅡ	-12203
▁ㄱㅘㄴㅈㅜㅇㅅㅓㄱ	-12204
▁Say	-12205
▁ㅅㅐㅇㅅㅐㅇ	-12206
▁ㅇㅛㅇㄷㅗㄴ	-12207
▁ㅊㅣㄴㅇㅣㄹㅍㅏ	-12208
ka	-12209
▁SFC	-12210
▁ㄷㅏㄴㅅㅣ	-12211
▁ㅈㅏㅇㅁㅏㄴ	-12212
▁ㅎㅕㄹㅈㅗㄱ	-12213
▁TFT	-12214
ㅈㅏㅇㅅㅜ	-12215
▁ㅅㅣㄹㅍㅡ	-12216
ㅊㅓㅇㅇㅕㄱ	-12217
reen	-12218
▁CI	-12219
▁SB	-12220
▁460	-12221
lease	-12222
ㅇㅓㅁㅊㅣ	-12223
▁ㅂㅏㄹㄱㅏ	-12224
ㄴㅏㅁㅅㅓㄴ	-12225
▁ㅎㅏㄱㄱㅘㄴ	-12226
▁ㅎㅑㅇㄴㅕㄴ	-12227
▁ㅇㅑㄱㅌㅏㄹㅈㅏ	-12228
▁ㅎㅕㅇㅇㅛㅇㅅㅏ	-12229
ㅆㅢ	-12230
▁ㅅㅜㄴㅇㅐ	-12231
▁ㅇㅑㅇㅈㅗ	-12232
▁Original	-12233
▁ㄱㅡㄱㄷㅏㄴㅈㅜ	-12234
URE	-12235
irth	-12236
▁ㅊㅗㅇㅈㅓㅁ	-12237
▁ㄷㅠㄴ	-12238
▁ㄷㅏㄴㄱㅏ	-12239
▁ㅅㅣㄴㅍㅏ	-12240
▁ㅎㅘㄹㄹㅗ	-12241
▁ㅅㅣㅁㄱㅣ	-12242
ㄴㅑㅇㄱㅐ	-12243
ㅇㅔㄴㄷㅡ	-12244
ㅈㅓㅇㄱㅣ	-12245
▁ㄱㅕㄹㅅㅓㄴ	-12246
▁ㅇㅕㄱㅇㅣㄴ	-12247
▁Cur	-12248
ㅅㅣㄱㅈㅣ	-12249
▁youtu	-12250
ㅎㅘㄴㄱㅕㅇ	-12251
▁ㅊㅜㄹㅈㅣㄴ	-12252
ㄴㅜㄹ	-12253
▁Pet	-12254
▁Vir	-12255
▁die	-12256
ㅅㅐㄱㄷㅐ	-12257
▁-'	-12258
▁IG	-12259
▁ㅎㅗㄱㅅㅓㅇ	-12260
▁ㄱㅣㅁㅈㅗㅇㅁㅣㄴ	-12261
▁ㅂㅜㄴㅂㅜㄴ	-12262
▁ㅅㅗㄱㅅㅗㄱ	-12263
▁ㅇㅡㄴㅊㅗㅇ	-12264
▁ㅅㅣㄴㅁㅜㄴㅅㅏ	-12265
▁262	-12266
▁Fun	-12267
▁SoC	-12268
▁ㅂㅐㄱㅈㅗ	-12269
▁ㅍㅏㄴㄹㅖ	-12270
▁ㅇㅏㄴㅈㅔㄹㄹㅏ	-12271
▁Bra	-12272
▁ㄱㅗㅇㅇㅑㅇ	-12273
▁ㅇㅕㅇㅇㅕㅇ	-12274
▁ㅇㅣㄹㅍㅏㄴ	-12275
▁ㅊㅣㄴㅈㅗㄱ	-12276
ㅓㅇㅛ	-12277
▁got	-12278
▁res	-12279
▁ㅇㅔㅇ	-12280
▁1918	-12281
ㄴㅗㄱ	-12282
ㅇㅣㄹㅊㅔ	-12283
▁ㅈㅓㅇㅁㅣㄴ	-12284
ㅉㅣㄹ	-12285
▁ㅋㅟㄹ	-12286
autiful	-12287
33	-12288
ㄹㅏㄱㄱㅏ	-12289
▁ㄱㅡㅁㅇㅕㄴ	-12290
▁ㄴㅏㄹㄹㅕㅂ	-12291
▁ㅇㅕㄴㄱㅕㄱ	-12292
ㅂㅏㅇㅇㅟ	-12293
▁ㄱㅣㅂㅅㅡㄴ	-12294
▁ㄴㅏㄴㄱㅘㄴ	-12295
▁ㅂㅐㄱㅅㅓㄱ	-12296
ANG	-12297
▁530	-12298
▁ㄷㅗㅇㄱㅟ	-12299
▁ㅇㅏㄹㄹㅗ	-12300
▁ㅊㅓㄴㅎㅗ	-12301
▁ㄴㅔㅅㅍㅡㄹ	-12302
▁ㄱㅣㅁㄱㅕㅇㅎㅜㄴ	-12303
▁ㄴㅔㅅㅍㅡㄹㄹㅣㄱㅅㅡ	-12304
▁ㅇㅕㅇㅅㅣㄱ	-12305
▁ㅎㅏㄴㅈㅣㄴ	-12306
▁Gh	-12307
▁660	-12308
▁ㅂㅏㅇㅌㅏㄴㅅㅗ	-12309
▁ㄱㅓㅁㅊㅏㄹㅊㅓㅇ	-12310
▁ㅅㅣㄹㅅㅔ	-12311
ㄹㅐㄴㄷㅡㄴ	-12312
▁ㅇㅝㄴㅌㅏㅂ	-12313
▁ㅈㅏㅇㄹㅕㄹ	-12314
▁GC	-12315
▁Oper	-12316
▁ㅂㅣㄴㅇㅠ	-12317
▁ㅅㅣㄴㅇㅖ	-12318
▁ㅊㅏㄹㅈㅣ	-12319
▁ㅅㅓㅇㅇㅏㄱ	-12320
▁ㅅㅣㄴㅂㅜㄴㅈㅡㅇ	-12321
ena	-12322
▁ㅅㅓㄷㅂㅜㄹㄹㅣ	-12323
▁Nat	-12324
▁ㅅㅔㄱㅅㅕㄴ	-12325
ㅁㄷㅗㄹ	-12326
▁}}}}	-12327
▁ㄷㅏㅇㄴㅛ	-12328
▁ㅍㅗㄱㅇㅕㅁ	-12329
▁Who	-12330
▁ㄷㅜㄴㅎㅏ	-12331
▁ㅂㅏㄴㅍㅗ	-12332
▁ㄴㅏㅁㅇㅣㄴ	-12333
▁}}}}}}	-12334
▁ㄸㅣㅇ	-12335
HA	-12336
▁ㄴㅏㄱㅅㅏ	-12337
▁ㅈㅓㄴㄷㅏㄴ	-12338
▁ㅅㅜㄴㅊㅓㄴㅅㅣ	-12339
▁ㄱㅕㅇㅊㅜㄴㅅㅓㄴ	-12340
▁Year	-12341
▁ㄲㅡㅌㅁㅏ	-12342
▁ㅌㅏㄹㅍㅣ	-12343
▁ㅅㅜㄴㅂㅓㄴ	-12344
▁2200	-12345
▁224	-12346
▁1929	-12347
▁ㄱㅏㄹㅁㅐ	-12348
ㄱㅣㅁㅇㅓㅄㅇㅣ	-12349
▁TK	-12350
▁ㅇㅛㅇㄹㅖ	-12351
▁ㄱㅓㄹㄹㅣㅁㄷㅗㄹ	-12352
ugh	-12353
ㅇㅡㅁㄱㅏ	-12354
▁ㅁㅜㄴㅁㅜ	-12355
▁ㅍㅏㅅㅋㅐ	-12356
ㄱㅗㅇㅈㅏ	-12357
▁There	-12358
▁ㄴㅓㄼㅇㅣ	-12359
▁ㅎㅕㄴㄹㅏㄴ	-12360
▁Another	-12361
▁ㄱㅗㄱㄱㅙㅇㅇㅣ	-12362
▁Ta	-12363
▁bo	-12364
▁311	-12365
▁ㅎㅗㄴㅁㅏ	-12366
▁ㅇㅏㄴㅂㅏㅇ	-12367
▁ㄲㅜㄹㄹㅣ	-12368
▁ㅎㅗㄱㅈㅏ	-12369
▁ㅁㅜㄹㄱㅣ	-12370
▁ㅅㅜㄷㄱㅏ	-12371
▁ㅇㅔㄹㅈㅏ	-12372
▁cr	-12373
▁INF	-12374
▁ㅇㅕㅁㄹㅏ	-12375
▁ㅈㅓㄴㅇㅏㅂ	-12376
▁005	-12377
▁1924	-12378
▁ㄱㅗㄹㅁㅓ	-12379
▁ㅁㅏㄴㅅㅜ	-12380
ㅅㅏㄴㅇㅓㅂ	-12381
▁ㄱㅐㅇㅅㅐㅇ	-12382
▁ㅅㅓㄴㅅㅣㄱ	-12383
▁ㅇㅏㄴㄷㅔ	-12384
▁ㅎㅏㅇㅅㅗ	-12385
▁ㅅㅓㅇㅇㅜㄴ	-12386
mon	-12387
roid	-12388
▁Gra	-12389
ㅇㅏㄴㅌㅏ	-12390
▁ㅁㅣㄴㅈㅏ	-12391
▁ㄱㅣㅁㅁㅜㄴ	-12392
▁ㅇㅐㄱㅈㅓㅇ	-12393
▁ㅇㅛㅇㅂㅓㅂ	-12394
▁ㅇㅣㄴㄱㅗㅇㅇㅟ	-12395
▁ㅅㅏㄴㅇㅓㅂㄷㅏㄴㅈㅣ	-12396
ㄴㅣㅇㄱㅜ	-12397
ㄷㅓㄱㅇㅣ	-12398
▁ㄱㅡㅂㅅㅜ	-12399
▁ㄲㅏㄹㅂㅗ	-12400
▁ㅎㅘㅇㄱㅜㅇ	-12401
ㄲㅜㄴ	-12402
▁DIS	-12403
▁ㄴㅗㅅ	-12404
ㅇㅏㅁㄹㅣ	-12405
▁ㅇㅡㅇㅁㅗ	-12406
▁ㅂㅏㅇㅌㅗㅇ	-12407
▁ㅂㅕㄴㄷㅓㄱ	-12408
ㅈㅏㅇㅁㅣ	-12409
▁ㅁㅗㄹㅇㅣ	-12410
▁ㅍㅜㅇㅅㅓㅇ	-12411
▁ㅊㅜㄹㅈㅏㅇㅅㅗ	-12412
▁ㅂㅏㄱㅎㅏㄴ	-12413
▁ㅈㅗㅇㅈㅏㅇ	-12414
▁ㅇㅏㄴㅁㅏ	-12415
▁ㅇㅣㄹㅊㅣㅁ	-12416
▁when	-12417
▁ㅎㅏㅇㅁㅏ	-12418
▁ㅇㅣㄴㅍㅕㄴ	-12419
84	-12420
ㅍㅓㄴ	-12421
▁ㄹㅔㅇ	-12422
▁ㄱㅡㄱㅎㅏ	-12423
▁ㅅㅓㅇㅅㅣㄴ	-12424
▁ㅇㅕㄴㅎㅏㅂㅎㅚ	-12425
▁ㄱㅜㄱㅈㅓㅇㅇㅝㄴ	-12426
lin	-12427
umber	-12428
ㅁㅐㄴㅌㅣㄱ	-12429
con	-12430
▁ㄷㅣㅁ	-12431
▁ㄱㅡㅂㅈㅣㄴ	-12432
ㅌㅓㄴㅈㅡ	-12433
▁ㅊㅜㄹㅅㅗ	-12434
▁ㅎㅐㅁㅅㅡ	-12435
▁ㄹㅐㄴㄷㅣㅇ	-12436
▁ㅅㅓㄴㅅㅜㄹ	-12437
▁ㅈㅏㅂㅈㅗㄹ	-12438
cess	-12439
▁make	-12440
▁ㅇㅕㅍㄱㅜ	-12441
▁ㅇㅡㄹㄹㅕ	-12442
ㅌㅏㄴㅂㅜㄹ	-12443
▁ㅁㅏㅅㅈㅣㅂ	-12444
▁ㄲㅡㅌㅈㅏㅇㄴㅐ	-12445
ㄱㅐㅇㅇㅓ	-12446
▁ㄷㅓㅍㅇㅣ	-12447
▁ㄷㅗㄱㅇㅡㅁ	-12448
ㅍㅡㄹㄱㅐㅇㅇㅓ	-12449
ouch	-12450
▁ㄱㅕㅇㅁㅏ	-12451
▁ㄱㅝㄴㅅㅓㄴ	-12452
▁ㅅㅑㄹㄹㅗㅅ	-12453
▁ㅉㅣㅇ	-12454
▁feel	-12455
▁Inter	-12456
▁ㅇㅗㄹㅃㅐ	-12457
▁ㅍㅏㄴㅊㅣ	-12458
▁ㅂㅏㄱㄹㅕㄱ	-12459
▁gl	-12460
ㄷㅔㄱ	-12461
▁Mel	-12462
▁ㅇㅓㄹㄸㅓㄹ	-12463
▁ㅎㅏㄾ	-12464
▁ㅇㅕㄱㅁㅜ	-12465
TO	-12466
WA	-12467
▁ㄷㅏㅇㄱㅜ	-12468
▁ㅅㅣㄹㅎㅘ	-12469
▁talent	-12470
▁004	-12471
▁ㅅㅗㅇㄴㅏ	-12472
▁ㄱㅜㄱㅇㅏㄱ	-12473
▁ㄷㅗㄹㅊㅜㄹ	-12474
▁ㅁㅜㄱㅇㅣㄴ	-12475
▁ㅅㅓㄴㅊㅏㄱ	-12476
▁ㅈㅡㅇㅈㅓㅇ	-12477
▁ㅇㅏㄴㅇㅑㅇㅅㅣ	-12478
ㅍㅜㄹㄹㅣ	-12479
ㅎㅏㄴㅎㅣ	-12480
▁ㅊㅐㄱㅂㅗㅇ	-12481
66	-12482
ㄱㅏㄹㅇㅣ	-12483
▁ㅈㅣㅇㅅㅜ	-12484
▁ㅍㅣㄱㅊㅓ	-12485
▁IBM	-12486
▁1927	-12487
ㅌㅔㄱㅊㅓ	-12488
▁Queen	-12489
▁ㅂㅣㄴㅌㅣ	-12490
ㅅㅏㅇㅈㅓㄴ	-12491
▁ㅌㅗㅇㄱㅗㄱ	-12492
▁ㄱㅗㅇㅂㅐㄱㄱㅣ	-12493
▁ㅈㅣㄱㅈㅏㅇㅇㅣㄴ	-12494
▁299	-12495
▁ㄹㅗㅂㅅㅡ	-12496
▁ㅅㅓㅇㄱㅛ	-12497
▁ㄱㅕㄱㅂㅏㄹ	-12498
▁ㅈㅏㅇㅎㅏㅂ	-12499
ㅇㅛㅇㅅㅜ	-12500
▁ㄱㅣㄹㅉㅜㄱ	-12501
▁ㅎㅕㄹㅈㅓㄴ	-12502
▁ㄱㅘㅇㄱㅐ	-12503
▁ㄱㅣㅁㅍㅜㅇ	-12504
▁ㅅㅗㄴㅈㅣㄹ	-12505
▁ㅈㅓㅇㅂㅗㄱㅈㅏ	-12506
▁ㄱㅣㅁㄱㅓㄴ	-12507
▁ㅊㅏㄴㄹㅏㄴ	-12508
ㅁㅜㄴㅋㅜㄹㄹㅜ	-12509
ied	-12510
▁ㄴㅠㅁ	-12511
▁ㅅㅜㅌ	-12512
▁ㅅㅜㄴㅇㅣ	-12513
▁ㅊㅗㅇㄱㅏㅁ	-12514
▁ㅈㅓㄴㄹㅑㅇ	-12515
▁ㄴㅏㅂㅂㅜ	-12516
▁ㄷㅔㄱㅅㅡ	-12517
▁ㅇㅡㅇㅇㅝㄴㄷㅏㄴ	-12518
ITY	-12519
ㄹㅔㄹㄹㅣ	-12520
▁ㄱㅣㅁㅂㅗ	-12521
▁ㅋㅗㄹㅌㅡ	-12522
ㄱㅡㅁㄲㅓㅅ	-12523
▁ㅇㅑㅇㅁㅣㄴ	-12524
ㅎㅡㅁ	-12525
▁TWICE	-12526
▁ㅂㅐㄱㅇㅑ	-12527
▁ㅇㅏㄱㄴㅕ	-12528
ㄴㅕㄴㅊㅡㅇ	-12529
▁ㅅㅠㄹ	-12530
rough	-12531
▁Fort	-12532
▁ㅇㅏㄱㄱㅟ	-12533
▁ㅍㅣㄹㅁㅕㄹ	-12534
▁%/	-12535
▁ㄱㅕㅇㄷㅗ	-12536
▁ㄱㅜㄴㅇㅢ	-12537
▁ㄴㅏㄴㄱㅏㄴ	-12538
▁ㄸㅏㅇㅋㅗㅇ	-12539
▁ㄲㅣㅁ	-12540
ates	-12541
▁Dawn	-12542
ㅇㅣㅁㅈㅏ	-12543
▁ㅇㅓㅁㅎㅗ	-12544
▁ㄴㅗㅎㅇㅏ	-12545
▁ㅇㅘㅇㄹㅣㅂ	-12546
ㅍㅗㄱㄹㅕㄱ	-12547
▁ㅅㅐㄱㄱㅏㅁ	-12548
▁ㅊㅓㅇㅅㅜㄴ	-12549
▁ㄱㅣㅁㅁㅣㄴㅊㅓㄹ	-12550
ㅅㅏㅇㅇㅜ	-12551
▁ㅂㅏㄴㅈㅡㅇ	-12552
▁ㅅㅜㄱㅅㅓㅇ	-12553
▁some	-12554
ㅂㅗㄹㄹㅗ	-12555
▁ㄷㅏㅁㄷㅏㅁ	-12556
▁Bur	-12557
▁ㅂㅏㄹㄷㅓ	-12558
▁ㅅㅓㄴㄴㅕ	-12559
▁ㅅㅗㄹㅌㅡ	-12560
▁ㅅㅣㄴㅈㅗㄱ	-12561
ㄱㅜㄴㅂㅜㄴㅌㅜ	-12562
▁EF	-12563
ㅈㅓㄱㅂㅜㄴ	-12564
ㅎㅘㄱㅇㅣㄴ	-12565
▁ㄷㅗㅇㅇㅡㅁ	-12566
ways	-12567
▁232	-12568
▁GTX	-12569
▁ㅅㅡㅇㅎㅘ	-12570
▁ㅇㅕㄱㅂㅜ	-12571
▁ㅍㅗㄱㅌㅜ	-12572
▁ㅈㅏㅇㅎㅏㅇ	-12573
??	-12574
▁1932	-12575
ㅌㅡㄹㄹㅗ	-12576
▁ㄷㅗㄱㅅㅏ	-12577
ㅎㅕㄴㅈㅜㄴ	-12578
▁STANDARD	-12579
▁ㅈㅜㅇㅇㅏㅇㅇㅣㄹㅂㅗ	-12580
ait	-12581
ITION	-12582
▁ㅁㅗㅇㅋㅡ	-12583
▁ㅊㅓㄱㄷㅗ	-12584
▁TL	-12585
▁PSY	-12586
▁ㅎㅏㄴㄹㅏ	-12587
▁ㅅㅜㄴㅇㅜㄱ	-12588
▁ㅇㅠㄱㅅㅗㄴ	-12589
ㄱㅕㄱㅈㅏ	-12590
ㅍㅣㄹㄹㅣ	-12591
▁ㅌㅡㄱㅂㅕㄹㅈㅏ	-12592
▁ㄲㅗㄴ	-12593
▁ㅅㅟㅁ	-12594
▁ㅇㅗㅅㅊㅏ	-12595
▁ㅌㅡㄱㅎㅖ	-12596
ㄷㅗㅇㅎㅏㄴ	-12597
▁ㅇㅏㄴㅅㅏㅇ	-12598
▁ㅇㅝㄴㅁㅏㄴ	-12599
▁ㅍㅐㅇㅍㅐㅇ	-12600
▁ㅇㅏㄹㄹㅐ	-12601
▁ㅈㅓㄴㅊㅓ	-12602
▁ㅊㅗㅇㅁㅜ	-12603
yr	-12604
▁Jack	-12605
▁ㄷㅗㄱㅅㅣㄹ	-12606
▁ㅁㅏㄴㅅㅣㄴ	-12607
▁ㅎㅏㅇㅈㅓㄴ	-12608
▁ㅅㅏㅇㅊㅡㅇㅂㅜ	-12609
▁ㅂㅏㄱㅅㅓㅇㅈㅜㄴ	-12610
▁980	-12611
▁GSM	-12612
▁ㅂㅐㄴㅋㅜ	-12613
▁ㅇㅕㅇㄷㅓㄱ	-12614
▁ㅂㅔㄹㄹㅗ	-12615
▁ㅇㅕㄴㅎㅐㅇ	-12616
▁ㅈㅣㄱㄹㅕㄹ	-12617
▁ㅋㅓㄹㄹㅓㅁ	-12618
▁ㅁㅣㄴㅇㅕㅇㅎㅘ	-12619
▁ㅈㅜㅇㄷㅗㄱㅈㅏ	-12620
▁ㅈㅗㅇㅇㅓㅂㅇㅝㄴ	-12621
▁1080	-12622
▁ㄴㅏㄲㅇㅣ	-12623
▁9999	-12624
ㅎㅡㅇㅅㅣ	-12625
▁ㅈㅓㄹㄱㅣ	-12626
▁ㅈㅜㅇㅂㅗ	-12627
▁ㄱㅗㅇㅂㅓㅁ	-12628
▁990	-12629
ㄴㅑㅇㅈㅓ	-12630
▁ㄹㅔㄱㅌㅓ	-12631
▁ㅈㅜㅇㅁㅜ	-12632
▁ㅇㅗㄴㅌㅗㅇ	-12633
▁ㅁㅗㅇㄷㅜㅇㅇㅣ	-12634
▁Ele	-12635
▁Again	-12636
IUM	-12637
▁ㅇㅘㄹㅊㅡ	-12638
▁ㅅㅜㄴㅎㅕㄹ	-12639
▁ㅋㅗㄹㄹㅣㄴ	-12640
▁ㅌㅐㄱㅌㅣㄱㅅㅡ	-12641
uff	-12642
....	-12643
▁357	-12644
ㅇㅕㄴㄱㅣ	-12645
▁ㅎㅕㄴㅎㅗㄱ	-12646
▁ㅊㅜㄹㅇㅣㅂㅁㅜㄴ	-12647
ㄱㅜㅂ	-12648
ㅍㅐㅁ	-12649
▁ㅍㅜㅇㅇㅛ	-12650
▁ㅌㅏㅁㅌㅏㄱ	-12651
ㅈㅐㄱ	-12652
REAM	-12653
▁ㄱㅡㅂㅈㅗ	-12654
▁ㄷㅓㄹㄹㅓㅇ	-12655
▁ㅅㅏㅇㅈㅏㄱ	-12656
▁ㅎㅏㅂㅅㅓㅇㅇㅓ	-12657
▁ㅂㅏㄹㅊㅞ	-12658
▁ㅇㅓㄴㄹㅗㄴㅇㅣㄴ	-12659
▁him	-12660
▁ㅇㅏㅁㄷㅡ	-12661
ender	-12662
▁Fant	-12663
▁ㅂㅗㄴㅇㅕㄴ	-12664
ㅅㅗㄱㅊㅓㄹㄷㅗ	-12665
ots	-12666
ㅂㅓㅅ	-12667
ㅇㅗㅁ	-12668
▁ㅇㅐㄴㅅㅓ	-12669
▁ㅈㅜㅇㅌㅚ	-12670
ㅅㅣㄱㄱㅏ	-12671
▁ㅁㅣㄴㅂㅓㅂ	-12672
▁ㅈㅓㄴㅇㅐㄱ	-12673
afe	-12674
▁ㅅㅏㅇㅅㅗ	-12675
▁ㅈㅣㄹㅌㅏ	-12676
ㅇㅕㄴㅅㅓㅇ	-12677
▁ㅅㅣㄴㅇㅕㅇ	-12678
ula	-12679
ㅌㅓㅇ	-12680
▁304	-12681
▁321	-12682
▁Kiss	-12683
ㄱㅏㅇㅎㅏ	-12684
▁ㅂㅏㄺㄱㅣ	-12685
ㅅㅜㄴㅎㅘㄴ	-12686
▁ㅈㅣㄹㅅㅐㄱ	-12687
▁XM	-12688
▁Snow	-12689
▁ㄱㅏㅇㅇㅏㅂ	-12690
▁ㄴㅗㄴㅅㅏㄴ	-12691
▁ㅅㅡㅂㅅㅓㅇ	-12692
ㅊㅣㄹㄹㅣ	-12693
▁ㅂㅜㄹㅇㅢ	-12694
▁ㅅㅡㄹㅎㅏ	-12695
▁ㅇㅣㄹㄱㅓ	-12696
ㅇㅣㄴㅈㅓㄹ	-12697
▁Wr	-12698
▁dj	-12699
▁San	-12700
OTHER	-12701
ㄷㅗㅇㅅㅏ	-12702
▁ㅉㅏㄱㅅㅜ	-12703
34	-12704
ㅎㅕㅁ	-12705
▁ㅇㅏㄹㅌㅏ	-12706
▁ㄱㅣㅁㅎㅏㄱ	-12707
▁ㅂㅏㄴㄱㅗㅇ	-12708
▁ㅇㅗㄱㅍㅕㄴ	-12709
▁ㅈㅏㅂㄷㅏㅁ	-12710
▁ㅈㅓㅇㅅㅡㅇ	-12711
▁ㅎㅏㄱㅅㅓㄹ	-12712
▁Cent	-12713
ㄷㅡㄹㄹㅔ	-12714
▁ㅍㅣㄹㄹㅗ	-12715
▁Lee	-12716
▁come	-12717
▁ㅈㅣㄴㅅㅓ	-12718
▁ㄱㅡㄴㅎㅕㄴ	-12719
za	-12720
arch	-12721
ㅅㅏㄹㅈㅏ	-12722
ㅌㅓㄱㄷㅐ	-12723
▁ㅂㅗㄹㄱㅓ	-12724
▁ㅇㅏㄱㅊㅟ	-12725
▁ㄱㅜㄱㄱㅗㅇ	-12726
▁ㅊㅐㄱㅇㅣㅁㄱㅏㅁ	-12727
▁KM	-12728
▁jub	-12729
▁ZEXAL	-12730
▁ㄱㅡㄴㅅㅗ	-12731
▁ㅎㅏㅁㄱㅛ	-12732
▁ㄱㅕㄹㅈㅓㅇㄹㅕㄱ	-12733
ories	-12734
▁about	-12735
▁ㅅㅏㄴㅅㅏ	-12736
▁ㅈㅓㅇㅅㅏㅇㅇㅣㄴ	-12737
▁ㄸㅡㅅㄷㅐ	-12738
▁ㄱㅡㅂㄱㅏㅇㅎㅏ	-12739
86	-12740
▁1926	-12741
ㅇㅣㄴㅇㅕㄱ	-12742
▁ㅊㅗㅇㅊㅣㅇ	-12743
▁ㅇㅜㄹㅅㅏㄴㄱㅘㅇㅇㅕㄱㅅㅣ	-12744
YS	-12745
go	-12746
▁ㅆㅣㅇ	-12747
▁ㅇㅛㅇㄱㅏ	-12748
▁ㅈㅓㅇㅇㅕㄴ	-12749
▁ㅊㅣㄴㅇㅘㅇ	-12750
▁880	-12751
▁ㅍㅣㄴㅊㅣ	-12752
▁ㄱㅕㅁㅅㅗㄴ	-12753
▁ㄷㅗㅇㄹㅠㄹ	-12754
▁ㅅㅏㄴㅁㅜㄹ	-12755
▁KG	-12756
ㄷㅗㅇㅅㅣㄱ	-12757
▁ㄱㅗㅇㅈㅣㄱ	-12758
▁ㄷㅜㄴㄱㅏㅁ	-12759
▁ㄱㅗㅇㅅㅣㄱㅈㅓㄴ	-12760
▁Mo	-12761
ㅇㅠㄱㄷㅐ	-12762
▁ㄱㅜㄴㅈㅏ	-12763
▁ㄱㅜㄱㅁㅜㄴ	-12764
▁ㅈㅡㅇㅊㅜㄱ	-12765
▁ㄱㅕㅇㅈㅓㄴㅅㅓㄴ	-12766
▁DOS	-12767
▁ㅈㅓㄹㄹㅗ	-12768
▁ㅈㅓㅇㅍㅏ	-12769
74	-12770
cape	-12771
ㄴㅜㅂ	-12772
▁HERO	-12773
▁ㅁㅜㄴㄷㅗ	-12774
▁ㅂㅣㄴㅈㅏ	-12775
▁ㅈㅏㅇㄷㅗ	-12776
▁ㅊㅜㅇㅊㅓㅇㄷㅗ	-12777
▁LM	-12778
▁302	-12779
▁580	-12780
▁MSM	-12781
ㅇㅝㄴㄱㅜ	-12782
▁ㅇㅞㄹㅅㅡ	-12783
▁ㅂㅏㅂㅈㅜㄹ	-12784
▁ㄷㅏㄹㅍㅐㅇㅇㅣ	-12785
ㅂㅡㄴㅅㅡ	-12786
▁ㅎㅘㅇㄱㅓㄴ	-12787
ㅎㅏㄹㅁㅓ	-12788
▁ㅎㅓㅁㄴㅏㄴ	-12789
▁TM	-12790
▁NEXT	-12791
▁ㄱㅔㄴㅈㅣ	-12792
▁ㅈㅏㅇㅌㅐ	-12793
▁ㅈㅜㅇㅈㅓㄴ	-12794
▁ㅌㅏㄴㅅㅣㄱ	-12795
▁ㅎㅏㅇㅁㅏㄴ	-12796
▁Ref	-12797
▁ㅁㅗㅁㅅㅗ	-12798
ㅎㅏㄱㅅㅏㄹ	-12799
▁236	-12800
▁BEST	-12801
▁let	-12802
▁ㄴㅏㄴㅂㅏ	-12803
▁had	-12804
ㄹㄹㅔㅅ	-12805
ㅇㅕㅇㅈㅣㄴ	-12806
▁ㄱㅣㅁㅂㅏㅂ	-12807
ㄱㅐㅇㅇㅣ	-12808
▁ㅍㅕㄴㅍㅏ	-12809
ㅍㅕㅇㄱㅜㄴ	-12810
▁ㄱㅣㅁㅅㅏㅇㅅㅜ	-12811
▁ㅂㅓㄴㅂㅓㄴㅎㅣ	-12812
ㄲㅜㅇ	-12813
▁470	-12814
▁911	-12815
ㅂㅗㄹㅌㅡ	-12816
▁ㅅㅓㅇㅈㅗ	-12817
▁ㅅㅓㄹㅁㅕㅇㅅㅓ	-12818
▁680	-12819
ㄹㅏㅇㅋㅏ	-12820
▁ㄷㅗㄱㅅㅣㄴ	-12821
▁ㅇㅣㄴㅊㅓㄱ	-12822
▁ㄴㅏㄱㄷㅗㅇㄱㅏㅇ	-12823
ki	-12824
REAK	-12825
ㄹㅑㅇㅈㅣㄴ	-12826
ㅅㅣㄱㅈㅏㅇ	-12827
▁ㅅㅣㄴㅊㅏㅁ	-12828
▁ㅈㅏㅇㅈㅣㄴ	-12829
ㅎㅐㅁ	-12830
ㅈㅓㄱㅇㅡ	-12831
▁ㄷㅟㅅㅁㅗㄱ	-12832
▁Chaos	-12833
▁ㄱㅏㅇㅅㅣ	-12834
▁Double	-12835
iant	-12836
▁ㄱㅏㄺㅇㅏ	-12837
▁ㅅㅣㄴㅈㅐ	-12838
▁WCW	-12839
▁ㅂㅗㅇㅎㅘ	-12840
▁ㅍㅗㄱㅇㅑㄱ	-12841
by	-12842
▁OZ	-12843
▁ㅎㅏㄱㄷㅗ	-12844
ㅁㅏㄴㄱㅏㄴ	-12845
▁ㅅㅓㄴㄷㅓㄱ	-12846
▁ㅎㅏㅂㅂㅗㄴ	-12847
▁ㅈㅣㅇㅂㅕㅇㅈㅔ	-12848
▁405	-12849
ㄱㅡㅂㅅㅜ	-12850
▁ㅈㅏㅇㅈㅐ	-12851
▁ㄱㅗㄱㅁㅜㄹ	-12852
▁ㅁㅜㄴㅎㅏㅇ	-12853
▁ㅈㅣㄴㅌㅗㅇ	-12854
▁Bet	-12855
▁Lord	-12856
ㄷㅏㅁㄱㅏㅁ	-12857
▁ㅁㅜㄴㅊㅔ	-12858
▁Reb	-12859
ㅅㅏㅇㅎㅜㄴ	-12860
▁Sports	-12861
alt	-12862
ㅎㅏㅇㅈㅓㄴ	-12863
▁ㄷㅗㅇㅎㅑㅇ	-12864
▁ㅎㅘㄴㅈㅓㄴ	-12865
▁ㅅㅣㄴㄱㅕㅇㅈㅓㄴ	-12866
▁ㅈㅣㄴㅅㅣ	-12867
ㅅㅓㄱㅈㅣㄴ	-12868
▁ㅇㅣㄹㅂㅗㄴㄷㅗ	-12869
▁ㅊㅏㄱㅇㅗ	-12870
ㅅㅡㄹㄹㅏㄴ	-12871
ㅊㅏㄹㄱㅜ	-12872
▁ㄱㅐㄹㄹㅣ	-12873
▁ㅂㅜㄹㅆㅣ	-12874
▁ㅇㅑㅇㅂㅜ	-12875
▁ㅊㅏㅁㅎㅗㄱ	-12876
▁Ill	-12877
▁ㄱㅜㅁ	-12878
▁ㅅㅕㄴㅌㅡ	-12879
▁ㅇㅡㅁㅊㅏ	-12880
▁ㄱㅗㅇㅁㅜㄴ	-12881
▁ㅍㅡㄹㄹㅣㅅ	-12882
▁ㅎㅏㄱㅁㅕㅇ	-12883
▁ㅋㅡㄹㄹㅣㄴㅌㅓㄴ	-12884
ㄹㅓㅇㅋㅡ	-12885
▁ㅋㅣㄹㄹㅣ	-12886
▁ㄱㅡㄴㅂㅗㄴㅈㅜ	-12887
▁Easy	-12888
▁ㅁㅕㅇㅈㅔ	-12889
▁ㅇㅏㅂㄱㅜ	-12890
▁ㅁㅏㄴㅁㅜㄹ	-12891
▁ㅂㅕㄴㅂㅏㅇ	-12892
▁625	-12893
ㅂㅓㅁㅅㅜ	-12894
▁ㅉㅣㅈㄱㅣ	-12895
ㅈㅏㅇㄱㅏㄴ	-12896
▁ㅈㅓㅂㅊㅏㄱ	-12897
▁ㅂㅏㄱㅅㅓㄱㅁㅣㄴ	-12898
ican	-12899
▁ㅁㅏㅈㅊㅜㅁㅂㅓㅂ	-12900
▁RF	-12901
▁Under	-12902
ㄱㅡㅂㅎㅣ	-12903
sy	-12904
ves	-12905
▁By	-12906
▁ATP	-12907
▁ㅇㅕㅁㅇㅝㄴ	-12908
ㅋㅏㅂ	-12909
▁ㅈㅓㄴㄹㅕㅇ	-12910
▁ㅈㅡㅇㅅㅓㄹ	-12911
▁ㄱㅘㅇㅇㅕㄱㅂㅓ	-12912
▁ㅇㅡㅁㅅㅣㄱㅁㅜㄹ	-12913
ney	-12914
▁IB	-12915
▁Nav	-12916
▁ㅁㅕㄴㄷㅏㅁ	-12917
▁ㅈㅏㅂㅇㅡㅁ	-12918
31	-12919
▁ㄷㅗㄱㄱㅏ	-12920
ㄷㅗㅇㅇㅜㄱ	-12921
▁ㅅㅓㄴㅇㅏㄱ	-12922
▁ㅂㅗㄴㄱㅗ	-12923
▁ㅌㅏㄴㅈㅏ	-12924
▁ㅁㅕㄹㅊㅣㅇ	-12925
ald	-12926
▁Fu	-12927
▁229	-12928
▁307	-12929
▁630	-12930
ㅇㅑㅇㄱㅜ	-12931
▁Album	-12932
▁ㄱㅗㅇㅇㅓㄴ	-12933
▁ㅍㅣㄹㅈㅜㅇ	-12934
▁401	-12935
▁rem	-12936
ㅎㅏㄹㅇㅏ	-12937
▁ㄱㅗㅇㅇㅢ	-12938
▁ㅁㅣㄴㅅㅏ	-12939
▁ㅇㅣㄹㅈㅜ	-12940
▁ㄴㅐㅇㅁㅕㄴ	-12941
▁ㅅㅣㄱㅍㅏㄴ	-12942
▁ㅈㅓㅇㅂㅕㄴ	-12943
▁ㅇㅡㅁㅇㅠ	-12944
▁ㅅㅗㄴㅅㅡㅇ	-12945
▁ㅅㅏㅇㄹㅠㄱㅈㅏㄱㅈㅓㄴ	-12946
▁ㅂㅏㄷㄷㅡㄹ	-12947
▁ㅅㅣㄹㅈㅡㅇ	-12948
▁ㅈㅗㅇㅇㅛㅇ	-12949
ㄹㅏㅅ	-12950
▁Prot	-12951
ㅅㅓㅇㅇㅣㄴ	-12952
ㅉㅏㄹㅇㅓㅄ	-12953
▁ㅈㅓㄴㅂㅏㄴㅂㅜ	-12954
▁ㅇㅑㄹㅉㅏㄹㅇㅓㅄ	-12955
▁238	-12956
▁VOL	-12957
▁ㅅㅏㅇㅇㅏ	-12958
▁ㅌㅐㅅㅇㅡㄴ	-12959
▁ㅈㅓㅇㅁㅣ	-12960
▁sl	-12961
▁MAR	-12962
▁ㅋㅜㅁ	-12963
▁ㅁㅏㄴㄹㅣ	-12964
ㅇㅛㅇㅍㅣㄹ	-12965
▁ㅇㅝㄴㅌㅗㅇ	-12966
BLE	-12967
ask	-12968
ㄷㅏㅅㅁㅜㄹ	-12969
▁ㅈㅣㄹㅅㅣㄱ	-12970
▁ㄱㅓㄴㅊㅜㄱㄱㅏ	-12971
▁ㄴㅗㄹㄹㅐ	-12972
▁ㄱㅡㄴㄱㅏㄴ	-12973
▁ㅅㅡㅇㅁㅏ	-12974
▁ㅅㅓㄹㅈㅣㄴ	-12975
ㅅㅓㄴㅇㅘㅇㅈㅗ	-12976
▁ㄱㅘㅇㅇㅕㄱㅊㅓㄹㄷㅗ	-12977
▁sup	-12978
▁ma	-12979
▁ㅇㅕㄹㄷㅐ	-12980
▁ㅇㅡㅁㅍㅛ	-12981
ㅊㅓㄴㄴㅕㄴ	-12982
▁League	-12983
▁jubeat	-12984
ㅋㅐㅂ	-12985
▁272	-12986
▁ㄲㅜㅅ	-12987
▁015	-12988
▁long	-12989
▁ㅇㅏㅍㅂㅏ	-12990
▁ㅇㅑㅇㅊㅣ	-12991
▁Lov	-12992
▁ㄱㅡㅁㅈㅜ	-12993
▁ㅅㅔㄴㅌㅓㅁ	-12994
▁ㅈㅓㄱㅊㅜㄹ	-12995
▁ㅈㅓㅇㅈㅗㅇㅎㅕㄴ	-12996
▁239	-12997
▁More	-12998
▁ㅎㅚㅇㅍㅗ	-12999
▁er	-13000
▁Ice	-13001
ㄱㅡㅂㅊㅏ	-13002
▁ㅇㅕㄱㄷㅗㅇ	-13003
▁Call	-13004
ㄱㅕㅇㅇㅜ	-13005
▁ㅅㅗㄱㅅㅜ	-13006
▁ㅁㅜㄴㅅㅏㄴ	-13007
▁ㅇㅔㄹㅌㅡㄴ	-13008
▁ㅇㅡㄴㅇㅝㄹ	-13009
▁ㅇㅛㅇㅇㅕㄱ	-13010
▁266	-13011
▁ㄱㅗㅇㅍㅛ	-13012
▁ㅅㅗㄱㅁㅏ	-13013
▁ㅇㅕㄱㅈㅏ	-13014
ㅅㅣㄴㅁㅜㄴ	-13015
ㅇㅏㅂㄱㅏㅁ	-13016
▁ㅂㅐㄱㅇㅏㄱ	-13017
▁ㅂㅗㄴㅈㅓㄴ	-13018
▁ㅇㅏㄴㅊㅏㄱ	-13019
▁ㄹㅜㄹㄹㅜ	-13020
▁ㅅㅗㄱㅊㅗ	-13021
▁END	-13022
▁Mor	-13023
▁mod	-13024
ㅇㅐㅇㄱㅡㄹ	-13025
▁ㄱㅘㄴㅅㅓㅇ	-13026
▁ㅊㅗㅇㅅㅏㄹ	-13027
▁Squ	-13028
▁TUN	-13029
ㅇㅜㄴㄷㅓ	-13030
▁ㅈㅓㄴㅅㅗ	-13031
▁ㅎㅚㄱㄱㅣ	-13032
▁ㄴㅗㄴㅅㅜㄹ	-13033
▁1905	-13034
▁ㅅㅜㄴㅎㅚ	-13035
ㅅㅣㄴㅈㅏㄱ	-13036
▁ㄱㅘㄴㅎㅐㅇ	-13037
▁ㅂㅏㅇㄷㅗㄱ	-13038
ih	-13039
ㄹㅜㅇ	-13040
▁ㅂㅗㄴㄷㅐ	-13041
ㅂㅕㅇㅇㅝㄴ	-13042
ㅎㅕㄴㅅㅜ	-13043
▁ㅈㅓㅇㅈㅓㄴㅅㅣㄱ	-13044
▁PX	-13045
▁ㅁㅕㅇㅎㅏㅁ	-13046
umb	-13047
ㅈㅡㅂ	-13048
▁246	-13049
ㄹㅓㄹㅆㅏ	-13050
ㅂㅔㄹㄹㅏ	-13051
ㅂㅗㄲㅇㅣ	-13052
▁ㅂㅜㄹㄱㅗ	-13053
▁ㅈㅣㄴㅈㅓ	-13054
▁ㅇㅐㄱㅅㅔㄹㄹㅓ	-13055
ㅍㅗㅇ	-13056
▁ㅌㅓㅅ	-13057
ison	-13058
▁ㄹㅜㅅ	-13059
ㄱㅡㄹㄱㅓ	-13060
ㅈㅣㄴㅂㅗ	-13061
▁ㄱㅏㄴㄱㅕㄹ	-13062
▁ㅇㅕㄴㅈㅜㅇ	-13063
▁ㅈㅣㄱㅎㅏㅁ	-13064
▁ㅎㅗㄴㅈㅏㅅㅁㅏㄹ	-13065
▁242	-13066
ㅁㅣㄹㄹㅏ	-13067
▁ㅇㅕㄴㅅㅣㄴ	-13068
▁After	-13069
▁ㅁㅏㄴㅈㅐ	-13070
ㄱㅕㅇㅊㅏㄹ	-13071
▁ㅅㅣㅁㅅㅏㅇㅈㅓㅇ	-13072
ㅅㅅㅗㄱ	-13073
▁1923	-13074
▁From	-13075
▁ㄱㅗㅇㅇㅖ	-13076
▁ㄷㅏㄹㅁㅏ	-13077
▁ㄱㅏㅇㅈㅣㄴ	-13078
▁ㅅㅏㅇㅅㅡㅂ	-13079
oup	-13080
▁"~	-13081
ㅂㅗㄴㅂㅜ	-13082
▁ㄲㅜㅅㄲㅜ	-13083
▁ㅇㅑㅇㅎㅕㄴㅈㅗㅇ	-13084
▁425	-13085
ㅎㅕㅇㅅㅜ	-13086
ㅈㅓㄴㅂㅏㅇ	-13087
ㅈㅗㅇㅇㅝㄴ	-13088
▁Street	-13089
▁ㅂㅗㄱㄹㅑㅇ	-13090
▁ㅌㅏㄹㄹㅏㄱㅈㅏ	-13091
ien	-13092
ㄹㅏㅁㅎㅚ	-13093
ㅌㅐㅁㅍㅡ	-13094
▁ㄱㅏㅇㄱㅏ	-13095
▁Som	-13096
ㄹㅣㅁㅅㅏ	-13097
▁ㅈㅏㅅㄷㅐ	-13098
ㅅㅏㅇㅊㅓㄴ	-13099
▁ㄱㅜㄱㅁㅕㅇ	-13100
▁ㅁㅓㄱㅇㅣㅅㄱㅏㅁ	-13101
IZ	-13102
ㅁㅔㄹㄹㅗ	-13103
▁ㅍㅏㅂㅋㅗㄴ	-13104
ㅎㅏㄱㅅㅐㅇㅎㅚ	-13105
▁ㅎㅡㅌㅃㅜ	-13106
▁ㄱㅜㄱㅊㅓㄹ	-13107
▁ㄷㅏㄹㄷㅏㄹ	-13108
▁ㅇㅓㄹㄸㅓㄹㄱㅕㄹ	-13109
▁CHA	-13110
▁ㅁㅏㄹㄷㅏ	-13111
▁ㅆㅣㅂㅎㅣ	-13112
▁ㅊㅓㅇㅈㅏ	-13113
▁244	-13114
▁power	-13115
▁ㅅㅡㅇㅈㅓㄴ	-13116
▁VP	-13117
▁ㅍㅕㅇㅇㅑ	-13118
37	-13119
IAC	-13120
orce	-13121
▁ㅁㅜㅅ	-13122
▁ㅇㅕㄴㅇㅑㄱ	-13123
▁ㅇㅡㄴㅂㅏㄹ	-13124
▁ㅎㅘㅇㅅㅏㄴ	-13125
ㄴㅗㅂㅅㅣ	-13126
▁ㅇㅔㄴㄹㅣ	-13127
▁ㅇㅏㄹㅍㅗㄴ	-13128
▁EE	-13129
ㄷㅏㅎ	-13130
▁ㅂㅏㄹㄲㅡㄴ	-13131
▁ㅊㅜㄹㅎㅏㅇ	-13132
▁ㄱㅗㅇㄱㅕㄱㅈㅣㄴ	-13133
ji	-13134
ANT	-13135
▁ㄷㅣㄷ	-13136
ㅇㅣㄴㅎㅚ	-13137
▁ㅊㅓㅇㅂㅜ	-13138
▁ㅅㅑㄹㄹㅓㅅ	-13139
▁ㅈㅓㅇㅅㅏㄴ	-13140
▁ㅎㅕㄱㅁㅕㅇㄱㅜㄴ	-13141
▁WR	-13142
▁ㅇㅟㄱ	-13143
▁ㅎㅗㄴㄹㅕㅇ	-13144
▁ㅈㅑㄴ	-13145
ㅁㅏㅇㄷㅣ	-13146
ㅅㅏㅇㅇㅓ	-13147
▁ㅅㅡㅇㅅㅜ	-13148
▁ㅅㅣㅁㅊㅟ	-13149
▁ㄴㅗㄱㅅㅡㄹ	-13150
▁ㅂㅏㅇㅋㅗㄱ	-13151
wn	-13152
ㄱㅡㄱㄱㅣ	-13153
▁ㅅㅏㅇㅈㅓㅁㄱㅏ	-13154
▁ㅊㅗㅇㅎㅏㄱㅅㅐㅇㅎㅚ	-13155
▁ㅇㅑㅇㅇㅢ	-13156
ㄹㅡㅁㄱㅣㄹ	-13157
▁ㅂㅏㄹㅈㅗㄱ	-13158
▁ㅍㅕㄴㅈㅣㅂㅈㅏㅇ	-13159
ㅈㅓㅇㅇㅝㄴ	-13160
▁ㄱㅜㅇㅈㅜㅇ	-13161
▁ㅇㅝㄴㅋㅣㄹ	-13162
▁Ho	-13163
ㅋㅜㅇ	-13164
▁ㄴㅏㄴㅌㅏ	-13165
▁ㅍㅗㅁㅍㅔ	-13166
▁ㄱㅗㅇㅁㅜㄹ	-13167
▁ㅈㅏㅇㅇㅠㄴ	-13168
▁Earth	-13169
▁ㅅㅗㄹㄹㅜ	-13170
▁ㅈㅓㅇㅇㅗ	-13171
▁ㅎㅣㄹㄷㅔ	-13172
ㅎㅏㄴㅈㅓㅇ	-13173
▁mp	-13174
▁006	-13175
▁Shin	-13176
▁ㅇㅜㄹㅌㅏ	-13177
▁ㄱㅜㄱㅂㅏㅇㄱㅜㄴ	-13178
▁ㅇㅣㄹㅅㅜ	-13179
▁ㅈㅓㄴㅅㅓ	-13180
ㅎㅡㄴㄷㅡㄹ	-13181
▁ㄱㅣㅁㅎㅗㅇ	-13182
▁ㅅㅗㄱㄷㅏㅁ	-13183
ㅁㅝ	-13184
▁Roy	-13185
▁ㅂㅣㅈㅇㅓ	-13186
ㄱㅜㄱㅈㅓㄱ	-13187
▁ㅁㅏㄹㄷㅏㄴ	-13188
ㅘㅇ	-13189
ada	-13190
▁into	-13191
▁ㅈㅣㄹㄱㅣ	-13192
▁ㅊㅣㅇㄱㅣ	-13193
ㅈㅜㅇㅇㅣㄹ	-13194
ㅇㅣㄴㅈㅓㄹㅅㅡ	-13195
rap	-13196
▁251	-13197
ㅎㅕㄴㅎㅢ	-13198
▁ㄷㅗㄱㅅㅡ	-13199
▁ㅇㅕㄴㅅㅣ	-13200
▁ㅇㅣㄴㄷㅔㄱㅅㅡ	-13201
▁ㅈㅡㄹㅂㅣ	-13202
▁ㅇㅕㄴㅁㅕㅇ	-13203
▁ㅊㅞ	-13204
▁Ob	-13205
aker	-13206
▁288	-13207
▁ㅇㅡㄱ	-13208
ㅇㅣㄴㅌㅓ	-13209
▁ㅌㅐㄱㅈㅣ	-13210
ㅈㅜㄴㅈㅓㅁ	-13211
amb	-13212
ㄴㄷㅔㄹ	-13213
▁Band	-13214
ㅁㅏㅈㅊㅜㅁ	-13215
iki	-13216
ㄷㅓㅂ	-13217
▁ㄱㅜㅇㄴㅕ	-13218
▁ㅍㅕㄴㅎㅣ	-13219
ㄱㅣㄹㄷㅗㅇ	-13220
▁ㄱㅏㅇㅂㅐㄱㅎㅗ	-13221
▁ㅊㅡㄱㅈㅓㅇㄱㅣ	-13222
▁ㅁㅕㅇㄷㅗㅇ	-13223
▁RTS	-13224
▁ㅂㅕㄱㅎㅘ	-13225
ㄷㅏㅇㄷㅏㅇ	-13226
ㅇㅜㅅㅈㅣㅂ	-13227
▁ㅍㅜㅇㅇㅜㄴ	-13228
ava	-13229
▁ㅅㅏㄴㅈㅐ	-13230
▁ㅈㅓㄴㄴㅚ	-13231
▁Shadow	-13232
▁ㄱㅜㄱㅇㅕㅇ	-13233
▁ㄴㅣㅅㅍㅗㄴ	-13234
▁ㅊㅏㄱㅌㅏㄴ	-13235
zer	-13236
uman	-13237
▁ㅊㅓㅇㅁㅜㄴ	-13238
▁ㄱㅗㅇㅁㅣㄴㅇㅘㅇ	-13239
▁ㅁㅐㅇㅈㅜ	-13240
▁ㅅㅣㄴㅇㅏ	-13241
ㅈㅏㄱㄱㅗㄱ	-13242
▁ㅇㅑㅇㅍㅏㄴ	-13243
▁ㅈㅓㅇㄹㅑㄱ	-13244
▁ㅍㅏㄴㄱㅜㄱ	-13245
▁STX	-13246
▁Cross	-13247
▁Hello	-13248
▁class	-13249
▁ㅎㅡㅁㅈㅣㅂ	-13250
mas	-13251
▁RK	-13252
ㄹㅔㄴㅊㅣ	-13253
▁ㅁㅣㄹㅋㅣ	-13254
ㅈㅣㄴㄹㅕㄱ	-13255
▁ㅇㅣㅁㅈㅗㅇ	-13256
▁ㅋㅓㅁㅍㅐㄱㅌㅡ	-13257
▁ㅎㅏㄴㅇㅑㅇㄷㅐ	-13258
URN	-13259
ㄹㅡㅂㅆㅡ	-13260
▁ㅁㅕㄴㅎㅚ	-13261
▁ㅂㅏㄹㅁㅕㅇㅍㅜㅁ	-13262
ㄴㅏㅁㄱㅗ	-13263
▁ㄱㅓㅁㄱㅐㄱ	-13264
▁ㅍㅣㄹㄹㅣㅂㅅㅡ	-13265
▁ㅈㅏㅇㅁㅣㄴㅊㅓㄹ	-13266
▁Er	-13267
▁ㅇㅏㄴㅈㅣ	-13268
▁Hor	-13269
ㄱㅡㄴㅊㅏ	-13270
ㄷㅡㄱㅇㅣ	-13271
▁ㅅㅐㅇㄷㅗ	-13272
▁ㅎㅘㄴㅁㅏ	-13273
▁;;	-13274
▁WA	-13275
▁ㅅㅓㅇㅎㅘ	-13276
ㄱㅐㄱㅅㅓㄴ	-13277
▁ㄱㅗㄹㅊㅣㅅ	-13278
▁ㅈㅓㄱㅈㅏㅇ	-13279
▁PPV	-13280
▁Mind	-13281
▁ㄴㅏㄱㅎㅜ	-13282
▁ㅁㅣㄴㅅㅡ	-13283
▁ㅂㅜㄴㄱㅐ	-13284
▁ㅅㅏㅇㅅㅓㄴ	-13285
▁ㅅㅣㄴㅊㅓㄴㅈㅣ	-13286
ㅈㅗㅇㅇㅜㄱ	-13287
▁ㅂㅕㅇㅅㅣㄹ	-13288
▁FOR	-13289
▁ㄷㅟㅅㅇㅣ	-13290
▁ㅅㅓㅇㅇㅠ	-13291
ㄴㅏㄴㅁㅣㄴ	-13292
▁254	-13293
▁ㄴㅏㅁㅈㅏㅇ	-13294
▁ㅇㅏㄹㅋㅗㄹ	-13295
▁295	-13296
▁Sub	-13297
ㄹㅣㄹㄹㅣ	-13298
▁ㅇㅏㄴㅈㅐ	-13299
▁ㅎㅏㅂㅅㅡ	-13300
▁ㅊㅏㅇㅇㅓㅂㅈㅜ	-13301
▁ㅇㅣㅁㅊㅏㅇㅇㅛㅇ	-13302
▁ㄲㅗㅊㅁㅣ	-13303
▁ㅇㅝㄹㄹㅣ	-13304
ㄹㅡㄴㅂㅏㄹ	-13305
▁Doctor	-13306
▁ㄱㅓㅁㅁㅜㄴ	-13307
▁ㅅㅓㅇㄷㅏㄴ	-13308
ks	-13309
▁RM	-13310
▁Games	-13311
erson	-13312
▁ㅂㅕㅇㅁㅜ	-13313
▁ㅈㅏㅈㅇㅏ	-13314
▁ㅎㅗㅇㅁㅕㅇ	-13315
▁ㅎㅣㅁㄲㅓㅅ	-13316
oro	-13317
▁Fro	-13318
ㄴㅏㅁㄷㅗㅇ	-13319
▁ㅁㅜㄴㅅㅓㅇ	-13320
▁ㅂㅏㄹㅇㅏㅁ	-13321
▁ㅅㅡㅇㅅㅏㄴ	-13322
▁ㅇㅠㄱㅈㅓㄴ	-13323
▁ㅈㅓㅇㅇㅕㄹ	-13324
ㅁㅔㄹㄹㅣ	-13325
ㅅㅏㄴㄱㅣ	-13326
▁ㄱㅏㄴㅇㅣ	-13327
▁ㄷㅏㄴㅇㅓㄴ	-13328
▁ㅂㅓㄴㅂㅗㄱ	-13329
▁ㅇㅕㅇㅈㅗㅇ	-13330
▁ㅎㅓㄴㅎㅕㄹ	-13331
▁ㄱㅗㅇㅎㅏㄱㅂㅜ	-13332
▁ㅂㅐㄱㅇㅏㄱㄱㅘㄴ	-13333
gg	-13334
OWER	-13335
▁346	-13336
ㅂㅏㄴㅅㅡ	-13337
▁Techn	-13338
▁ㄱㅣㅁㅂㅗㅇ	-13339
▁ㅁㅣㄹㅊㅏㄱ	-13340
▁760	-13341
ㅌㅗㅇㄱㅜㄱ	-13342
▁ㅈㅓㄻㅇㅡㅁ	-13343
▁ㅈㅗㅇㅍㅕㄴ	-13344
▁LR	-13345
ㅇㅣㄹㅊㅣ	-13346
▁ㄱㅡㅁㄴㅏ	-13347
▁ㅈㅏㅂㅅㅡ	-13348
▁ㅊㅏㅇㄴㅕ	-13349
▁ㅈㅓㄴㄱㅝㄴ	-13350
▁ㄱㅕㄹㅍㅏㄴ	-13351
▁ㅂㅓㄹㅂㅓㄹ	-13352
ㄹㅏㄴㅊㅔ	-13353
▁ㅅㅐㄱㄷㅏ	-13354
▁ㅈㅣㅂㅅㅣ	-13355
▁ㅅㅣㄱㄷㅏㄴ	-13356
▁ㅇㅕㅇㅇㅕㄴ	-13357
▁ㅎㅘㅇㄱㅡㅁㄱㅣ	-13358
enge	-13359
▁ㅇㅣㅇㅋㅏ	-13360
▁ㅈㅡㅇㄹㅠ	-13361
▁Second	-13362
▁ㅅㅏㅇㄷㅗㅇ	-13363
▁ㅇㅕㄹㅈㅜㅇ	-13364
▁ㅊㅣㄴㄸㅏㄹ	-13365
▁ㄱㅘㄴㄹㅕㄴㅈㅏ	-13366
▁ㄷㅗㅊ	-13367
ㅇㅣㄹㅁㅜ	-13368
ㅈㅓㅇㄱㅜ	-13369
▁ㅇㅏㅇㄱㅗ	-13370
▁ㅌㅡㄱㄱㅏㅇ	-13371
▁International	-13372
els	-13373
▁ㄴㅕㅇ	-13374
▁ㅅㅜㄱㄷㅏㄹ	-13375
▁ㅈㅓㄱㅂㅕㄱ	-13376
ility	-13377
▁ㄱㅣㅁㄱㅠ	-13378
▁ㅁㅣㅅㅁㅣㅅ	-13379
ㅈㅜㅂ	-13380
ㅁㅕㅇㄷㅗ	-13381
▁ㅇㅡㄴㅋㅓ	-13382
▁ㄱㅓㅁㄷㅏㄴ	-13383
▁ㅈㅓㄹㅁㅕㄹ	-13384
ㅊㅣㅁㅇㅓㅄㅇㅣ	-13385
▁ㄱㅏㅇㄱㅕㅇㅍㅏ	-13386
▁ㅅㅡㅂㅈㅣ	-13387
▁ㅇㅣㄴㅋㅗ	-13388
▁ㅅㅣㄹㅁㅏ	-13389
▁ㅋㅣㄹㄹㅣㅇ	-13390
▁ㅍㅣㅅㅈㅜㄹ	-13391
▁ㅊㅣㄴㄷㅗㅇㅅㅐㅇ	-13392
▁were	-13393
▁ㅎㅘㅇㅂㅗ	-13394
89	-13395
ico	-13396
ㅌㅣㄹㄷㅏ	-13397
▁ㄱㅗㅇㅅㅏㅇ	-13398
▁ㅎㅗㅇㅇㅣㄱ	-13399
▁ㅂㅓㄴㅇㅕㄱㅈㅏ	-13400
▁ㅈㅏㄱㅅㅓㅇㅈㅏ	-13401
▁ㅅㅣㄴㅇㅏㅇㅅㅣㅁ	-13402
ato	-13403
▁NDS	-13404
ather	-13405
ㅊㅐㅇㅇㅣ	-13406
▁ㄴㅏㅁㅍㅗ	-13407
▁Normal	-13408
▁ㄱㅓㄴㄷㅡㄹ	-13409
▁LT	-13410
▁ㅅㅗㄱㄱㅣ	-13411
▁ㅇㅛㅇㄷㅜ	-13412
▁ㅂㅜㄹㅂㅣㅊ	-13413
▁ㅅㅣㄴㄹㅣㅁ	-13414
▁ㅊㅜㄱㅇㅑㄱ	-13415
ㅊㅓㄴㅎㅏ	-13416
ㅇㅏㅁㅇㅕㄱ	-13417
▁ㄷㅣㄹㄹㅓㄴ	-13418
▁ㅅㅏㅇㅇㅓㅂㅈㅣ	-13419
ASH	-13420
MIX	-13421
any	-13422
▁ㅂㅏㄱㅎㅢ	-13423
ㅈㅓㅇㅇㅏㄴ	-13424
▁ㅌㅡㄱㅂㅕㄹㅂㅓㅂ	-13425
OB	-13426
als	-13427
▁707	-13428
▁ㄱㅡㅂㅅㅏ	-13429
▁ㅂㅜㄹㄷㅗ	-13430
▁ㅂㅏㄱㅊㅓㄹ	-13431
ㅇㅣㄴㄱㅜ	-13432
▁ㅅㅜㅌㅎㅏ	-13433
▁ㅍㅐㄱㅌㅓ	-13434
▁ㅍㅣㄹㅎㅏ	-13435
ㅂㅜㄴㅂㅕㄹ	-13436
▁ㄱㅕㄹㅈㅓㅁ	-13437
▁237	-13438
▁Tur	-13439
▁Radio	-13440
▁ㄱㅡㅂㅂㅜ	-13441
▁ㄷㅏㅇㅍㅏ	-13442
▁ㅅㅣㄱㅇㅛㄱ	-13443
▁ㅇㅑㅇㄱㅜㅇ	-13444
▁ㄷㅗㅇㄱㅏㅂㄴㅐ	-13445
▁OFF	-13446
▁ㅋㅐㅇ	-13447
ㄷㅗㄱㅅㅓㅇ	-13448
▁ㄱㅡㄹㄹㅔㄴ	-13449
PR	-13450
ker	-13451
▁Ball	-13452
▁ㅃㅓㄷㅊㅣ	-13453
▁ㄴㅓㄹㄴㅓㄹ	-13454
▁345	-13455
ㄷㅗㅇㅎㅘ	-13456
▁Speed	-13457
▁ㅎㅔㄱㅌㅗ	-13458
▁ㄴㅗㄱㅌㅓㄴ	-13459
▁Dig	-13460
▁NLB	-13461
▁ㄱㅡㄱㅊㅣ	-13462
▁ㅂㅏㄹㅂㅣ	-13463
▁ㅊㅏㅇㄱㅜ	-13464
▁ㅍㅗㄹㄴㅏ	-13465
ㅁㅏㄹㄴㅕㄴ	-13466
▁ㅈㅏㄱㅍㅜㅁㅅㅏㅇ	-13467
YO	-13468
▁ㄱㅏㅇㄱㅜ	-13469
▁ㅇㅏㄴㅆㅡ	-13470
▁ㅇㅓㅍㅊㅣ	-13471
▁ㅊㅜㅇㅁㅏㄴ	-13472
▁They	-13473
▁ㅅㅓㄱㅍㅏㄴ	-13474
▁ㅇㅜㄱㅇㅣㄹㄱㅣ	-13475
ㅌㅏㄹㄹㅜ	-13476
▁ㄱㅏㅆㄷㅏ	-13477
ㅁㅜㄴㅇㅕㄱ	-13478
▁ㅈㅓㄴㄱㅡㄴㄷㅐ	-13479
ㅇㅕㄴㅈㅐ	-13480
ㅎㅏㄴㄷㅐ	-13481
▁ㄴㅐㅂㄷㅜ	-13482
▁ㅈㅜㅇㅎㅏㄱ	-13483
bat	-13484
ㄴㅔㄱㅌㅡ	-13485
▁ㄱㅏㄱㄱㅐ	-13486
ㅅㅡㅇㄷㅏㄹ	-13487
▁ㅅㅣㅁㅅㅣㄴ	-13488
▁ㅈㅓㅇㄱㅗㅇ	-13489
▁ㅊㅓㅇㄷㅏㅁ	-13490
trl	-13491
ince	-13492
▁Pat	-13493
▁ㄷㅔㅅ	-13494
ㅅㅏㅇㅎㅏ	-13495
ㅇㅡㄹㄹㅣ	-13496
ㅍㅓㄴㅈㅣ	-13497
▁ㅎㅘㅇㅇㅑ	-13498
▁ㅌㅡㅁㅌㅡㅁ	-13499
bow	-13500
ㅇㅣㄴㄱㅘ	-13501
▁ㅂㅏㄴㅇㅑ	-13502
▁ㅂㅏㄼㅎㅣ	-13503
▁Collection	-13504
▁Anim	-13505
▁baby	-13506
▁ㄷㅗㅇㅂㅗㄱ	-13507
▁ㅈㅓㅁㅁㅏㄱ	-13508
▁ㄷㅗㄹㄱㅕㄱㄷㅐ	-13509
▁257	-13510
▁810	-13511
▁LCK	-13512
▁ㅇㅕㅇㅅㅐㅇ	-13513
▁050	-13514
▁Ann	-13515
▁Hon	-13516
▁Kar	-13517
▁ㅇㅘㄴㅊㅣ	-13518
ㅎㅕㄹㅈㅣㄹ	-13519
▁ㄷㅚㄴㅈㅏㅇ	-13520
▁po	-13521
▁840	-13522
▁ㅅㅞㄴ	-13523
▁ㄱㅏㅁㅎㅘ	-13524
ㄴㅜㄴㅁㅜㄹ	-13525
▁ㅇㅕㄴㅈㅓㅇ	-13526
▁ㄱㅣㅁㅈㅓㅇㅇㅜ	-13527
▁335	-13528
▁ㅃㅣㅇ	-13529
ㅇㅏㄴㄱㅏ	-13530
▁ㄱㅣㅁㅅㅏ	-13531
▁ㅂㅓㅁㅍㅓ	-13532
▁ㅇㅐㅇㅁㅜ	-13533
▁ㅈㅓㄴㄱㅜ	-13534
▁ㅈㅓㅂㄷㅐ	-13535
▁ㄱㅕㄹㅌㅏㄱ	-13536
▁ㅈㅗㅇㄱㅜㄴ	-13537
la	-13538
▁15000	-13539
▁HYPER	-13540
▁ㅇㅣㅇㄱㅡ	-13541
▁ㅇㅣㄹㅅㅓㄹ	-13542
▁VOD	-13543
▁ㄷㅓㅍㅇㅓ	-13544
▁ㅋㅔㄴㅌㅡ	-13545
ㅈㅓㅇㅎㅘㄴ	-13546
▁ㄷㅓㅇㄱㅜㄹ	-13547
▁ㄱㅓㄴㄱㅜㄱㄷㅐ	-13548
▁ㅇㅘㅇㅅㅣㅂㄹㅣ	-13549
ㅂㅜㄱㅈㅏ	-13550
ㅎㅕㅇㅊㅏ	-13551
▁ㅈㅔㄴㅌㅡ	-13552
▁ㅋㅓㄴㅅㅡ	-13553
▁ㄱㅏㅇㅂㅏㄱ	-13554
▁ㅂㅗㄴㅍㅏㄴ	-13555
▁ㄱㅣㅍㅅㅜㄱㅎㅣ	-13556
▁Ka	-13557
ㄱㅏㅇㅁㅣㄴ	-13558
▁MANIAC	-13559
▁ㅇㅏㅇㅅㅜㄱ	-13560
▁UB	-13561
▁ZX	-13562
▁Kim	-13563
▁ㅃㅣㄱ	-13564
ㅈㅗㅎ	-13565
▁2600	-13566
ㄹㅏㄴㅊㅣ	-13567
ㅍㅣㄹㄹㅔ	-13568
▁ㅂㅏㄹㄷㅡ	-13569
▁ㅎㅐㄱㅁㅣ	-13570
▁ㅅㅗㄱㄱㅜㄱ	-13571
▁ㅇㅠㄱㅌㅏㄴㅈㅓㄴ	-13572
fore	-13573
▁been	-13574
▁ㅇㅣㄹㄱㅜ	-13575
▁ㅇㅜㄹㄹㅣㅁ	-13576
ㄴㅗㄹㄹㅗ	-13577
▁would	-13578
▁ㅎㅏㅂㅊㅏㅁ	-13579
▁ㅎㅕㅇㄱㅘㅇ	-13580
▁ㅂㅏㅇㄷㅗㄱㅁㅕㄴ	-13581
leep	-13582
▁ㄱㅝㄹ	-13583
▁PART	-13584
ㄱㅡㅂㅈㅏ	-13585
ㅁㅜㅅㄱㅏ	-13586
▁ㄱㅡㄹㅆㅔ	-13587
▁ㄴㅏㅂㅈㅏㄱ	-13588
▁ㅈㅏㅇㅇㅕㅇ	-13589
▁ㄱㅣㅁㄱㅏㅂㅎㅘㄴ	-13590
▁ㅈㅓㄴㅎㅏㄱㅅㅐㅇ	-13591
▁008	-13592
ㅁㅜㄴㄴㅏ	-13593
▁ㅎㅕㅇㅊㅔ	-13594
▁ㅈㅓㅇㅊㅏㄹㅂㅕㅇ	-13595
LA	-13596
▁Work	-13597
va	-13598
itt	-13599
▁bet	-13600
▁ㅈㅣㅈ	-13601
ㅌㅔㄱㅌㅓ	-13602
▁ㄱㅜㄱㅎㅗ	-13603
▁ㅁㅜㄹㅇㅢ	-13604
▁ㅋㅗㅅㅅㅜ	-13605
▁ㄱㅜㄴㅈㅗㅇ	-13606
▁ㄴㅏㄱㅂㅓㅂ	-13607
▁ㅋㅏㄹㅈㅣㅂ	-13608
ㅋㅓㄹㄹㅔ	-13609
▁ㅁㅏㄹㅆㅏ	-13610
▁ㄷㅗㅇㅈㅣㄴ	-13611
▁ㄸㅓㄱㅂㅗㄲㅇㅣ	-13612
▁ㅅㅓㅇㅈㅏㅇㄱㅣ	-13613
▁ㅈㅓㄴㄱㅜㄱㅁㅜ	-13614
aint	-13615
▁243	-13616
▁ㅇㅝㅇ	-13617
▁ORAS	-13618
▁ㅊㅜㄹㄷㅗ	-13619
▁ㄷㅗㄱㅊㅣㅁ	-13620
▁ㅇㅕㄴㅅㅓㄴ	-13621
ㅋㅏㄹㄹㅏ	-13622
ㅁㅓㄱㅈㅣㄹ	-13623
▁ㄱㅕㅇㅈㅐㅇㅅㅏ	-13624
▁ㅁㅜㄱㅁㅜㄱㅎㅣ	-13625
▁Cra	-13626
▁ㅅㅡㄹㄱㅣ	-13627
▁ㅇㅕㄴㄱㅐ	-13628
▁ㅇㅗㅇㄹㅣㅂ	-13629
▁-.-	-13630
▁Wonder	-13631
▁ㄱㅏㄴㄷㅏㅁ	-13632
▁ㅈㅗㅇㅇㅑㅇ	-13633
ures	-13634
otion	-13635
▁ㅂㅗㅇㅇㅜ	-13636
▁ㅅㅏㄹㅅㅐㅇ	-13637
▁ㅅㅗㄱㄱㅗㄱ	-13638
▁ㅈㅓㅇㅍㅏㄴ	-13639
ㅉㅓㄹ	-13640
▁ㅍㅐㄴㅅㅓ	-13641
ㅂㅐㄱㅁㅏㄴ	-13642
ㅍㅗㄹㄹㅗㄴ	-13643
▁ㄱㅐㄱㅇㅝㄴ	-13644
▁ㅈㅏㄱㅇㅕㄹ	-13645
▁ㅈㅓㅂㅁㅗㄱ	-13646
uth	-13647
▁ㅁㅣㄹㅇㅝ	-13648
▁ㅂㅏㅂㄱㅏㅄ	-13649
▁ㅅㅓㅇㅊㅏㄴ	-13650
▁ㅌㅡㄱㄴㅡㅇ	-13651
▁ㅈㅜㅇㄱㅗㅇㄱㅜㄴ	-13652
▁VC	-13653
▁JAP	-13654
▁ㅈㅐㅇㅊㅟ	-13655
▁ㅌㅣㅁㅇㅝ	-13656
▁ㅍㅗㄹㄷㅡ	-13657
▁ㄱㅜㄴㄹㅑㅇ	-13658
▁Ki	-13659
▁Code	-13660
▁ㅊㅗㅇㄱㅕㄱㅈㅓㄴ	-13661
hed	-13662
vice	-13663
ㅅㅗㄴㅈㅏ	-13664
ㅍㅗㄱㅅㅡ	-13665
▁ㅇㅛㅇㄱㅘㅇ	-13666
▁Revolution	-13667
▁Pf	-13668
▁Bill	-13669
▁ㅂㅔㄴㅊㅕ	-13670
▁ㅇㅝㄴㅈㅓㅁ	-13671
ㅁㅏㅈㅊㅜ	-13672
▁ㅈㅏㅇㅁㅏ	-13673
▁ㅌㅏㄹㅇㅢ	-13674
▁ㅎㅏㄹㅋㅟ	-13675
▁Fil	-13676
▁ㅅㅏㄴㅌㅣ	-13677
▁ㅈㅓㅁㅍㅓ	-13678
ㅁㅐㅇㅈㅓㅁ	-13679
ㅇㅣㅂㅁㅜㄴ	-13680
▁ㅇㅘㅇㅇㅘㅇ	-13681
ㄷㅗㅇㄱㅜㄱ	-13682
ㅅㅓㄴㅈㅗㄱ	-13683
▁ㅇㅣㄴㄱㅓㄴ	-13684
ㅅㅓㅇㄷㅗㅇ	-13685
▁ㄹㅏㅁㄷㅏ	-13686
▁ㅋㅣㄹㄹㅏ	-13687
▁WCG	-13688
elieve	-13689
▁ㄹㅓㄱㅅㅕ	-13690
▁ㅂㅏㄱㅅㅗ	-13691
▁ㅅㅓㅇㅎㅗ	-13692
▁ㅈㅣㄹㅅㅗ	-13693
▁ㅁㅕㅇㅁㅗㄱㅅㅏㅇ	-13694
▁ㄲㅣㅁㅅㅐ	-13695
▁ㅅㅣㄹㄱㅏㄱ	-13696
▁>>	-13697
▁ㅅㅗㅇㄱㅡㅁ	-13698
▁ㅇㅓㅁㅊㅣㄴㅇㅏ	-13699
ellow	-13700
ㅈㅜㄹㄱㅣ	-13701
▁ㅂㅐㄴㄷㅣ	-13702
▁ㅁㅗㄱㅁㅏ	-13703
▁ㅇㅔㄹㅅㅣ	-13704
▁ㅅㅗㅇㅇㅡㄴ	-13705
▁MAG	-13706
▁play	-13707
▁ㅂㅜㄹㅎㅜ	-13708
▁ㅍㅔㄴㄷㅓ	-13709
▁ㅈㅓㄴㄹㅐ	-13710
▁ㅇㅏㄱㄷㅗㅇ	-13711
▁ㅉㅓㄹㅉㅓㄹ	-13712
▁ㅅㅓㅇㅈㅓㄴㅅㅏ	-13713
▁.?	-13714
▁GST	-13715
▁Why	-13716
ㅌㅗㄹㄹㅣ	-13717
▁ㅇㅡㄴㄴㅣㄱ	-13718
ㅋㅠㄹ	-13719
▁Ber	-13720
▁VII	-13721
▁need	-13722
▁ㄷㅗㄹㄹㅣㅁ	-13723
▁ㅇㅘㄴㅎㅐㅇ	-13724
▁Championship	-13725
▁Only	-13726
▁ㅂㅏㄴㅁㅣ	-13727
▁ㅃㅓㄴㅎㅣ	-13728
▁ㅅㅏㅇㄷㅗ	-13729
▁ㅇㅡㅇㅅㅜ	-13730
▁Mov	-13731
ㅁㅜㄹㅁㅕ	-13732
▁ㄱㅜㄱㅂㅜ	-13733
▁ㅅㅗㄱㄴㅐ	-13734
▁ㅋㅓㅂㄹㅏ	-13735
▁ㄱㅡㅁㄱㅘㄴ	-13736
ㅅㅣㄴㅅㅜ	-13737
ㅇㅓㅇㅇㅣ	-13738
ㅇㅠㄱㅎㅏㄱ	-13739
▁286	-13740
▁ㅂㅜㄴㄱㅛ	-13741
▁ㅁㅏㄹㅂㅓㄹ	-13742
▁ㅇㅝㄴㅌㅏㄱ	-13743
ㅅㅗㅂ	-13744
istory	-13745
ㅂㅏㄴㅉㅏㄱ	-13746
ㅌㅡㄱㅂㅕㄹㅈㅏ	-13747
OSH	-13748
add	-13749
▁Id	-13750
▁ㄱㅣㄹㅂㅓ	-13751
▁ㅂㅏㄴㅉㅏㄱㅂㅏㄴㅉㅏㄱ	-13752
APP	-13753
▁1912	-13754
▁ㅇㅓㄺㅁㅐ	-13755
ㄱㅗㄹㅁㅗㄱ	-13756
ㄱㅘㄴㅅㅣㄱ	-13757
▁ㄷㅏㅇㅎㅗㄱ	-13758
ㅊㅜㄹㅅㅗ	-13759
▁ㅎㅣㅁㅊㅏ	-13760
ㄱㅡㅁㅅㅗㄱ	-13761
▁ㄱㅐㄱㅅㅣㄹ	-13762
▁ㅇㅣㄴㅁㅣㄴㅎㅐ	-13763
▁-,	-13764
▁ㅂㅜㅇㄱㅏ	-13765
▁ㅇㅣㅇㅇㅓ	-13766
▁ㅎㅡㄱㅌㅐ	-13767
▁ㅅㅜㄴㅇㅑㅇㅈㅓㄴㅎㅏㅁ	-13768
▁ㅊㅏㅂ	-13769
ㅍㅣㄴㅅㅡ	-13770
▁ㅇㅘㅇㄹㅐ	-13771
▁ㄱㅏㅇㅅㅓㄴ	-13772
▁ㅂㅓㅂㄱㅠ	-13773
▁ㅇㅕㄴㅇㅓ	-13774
▁Series	-13775
▁ㅂㅜㄱㄱㅕㅇ	-13776
▁ㅂㅓㄴㅇㅕㄱㄱㅣ	-13777
▁UD	-13778
▁247	-13779
▁355	-13780
ㄱㅡㅁㅅㅗ	-13781
ㅎㅏㅁㅅㅜ	-13782
▁ㅈㅡㄱㅎㅡㅇ	-13783
TN	-13784
ㅇㅡㅁㅍㅏ	-13785
ㅈㅓㅇㄱㅛ	-13786
▁ㅅㅟㅂㅅㅏ	-13787
oph	-13788
▁Mid	-13789
▁SMG	-13790
ㅅㅗㄱㅈㅓㅇ	-13791
▁Future	-13792
▁ㅂㅕㅇㅇㅑㄱ	-13793
▁ㅎㅏㄴㅇㅣㄹ	-13794
▁ㅈㅓㅇㅁㅗㅇㅈㅜ	-13795
ues	-13796
▁490	-13797
▁CAN	-13798
▁Silver	-13799
▁ㅂㅕㄴㅂㅕㄴ	-13800
▁IE	-13801
▁ㅂㅜㄹㅅㅡ	-13802
▁ㅎㅏㄴㄱㅕ	-13803
▁Vers	-13804
▁think	-13805
▁ㅅㅣㄱㅇㅣ	-13806
▁ㅇㅕㄴㄱㅏ	-13807
▁ㄱㅏㅇㅁㅜㄹ	-13808
▁BH	-13809
▁ㅊㅣㅁㅅㅜ	-13810
▁ㄱㅕㅇㅊㅏㄹㅊㅏ	-13811
▁ind	-13812
▁2800	-13813
▁ㅂㅏㄱㅂㅗ	-13814
▁241	-13815
▁ㅁㅓㅇㅊㅓㅇㅇㅣ	-13816
▁ㅎㅐㅇㅈㅣㄴㄱㅗㄱ	-13817
ister	-13818
▁ㄱㅡㄺㅇㅓ	-13819
▁ㅇㅡㄴㅇㅢ	-13820
ㄴㅏㄴㅂㅏㅇ	-13821
▁~.	-13822
▁TER	-13823
▁pre	-13824
▁ㅇㅖㄹ	-13825
usion	-13826
▁ㅂㅏㄱㅈㅔ	-13827
▁ㅇㅔㄴㅌㅜ	-13828
▁ㅎㅘㄱㅇㅕㄴ	-13829
INK	-13830
olf	-13831
▁263	-13832
▁PER	-13833
▁ㄱㅟㄴ	-13834
▁ㅈㅜㅇㅅㅜ	-13835
ㄱㅝㄴㄹㅕㄱ	-13836
▁Bas	-13837
▁Bus	-13838
ALLEN	-13839
▁ㄴㅐㅇㅅㅗ	-13840
▁ㄷㅗㅇㅌㅣ	-13841
▁ㅅㅏㄴㄷㅗ	-13842
▁ㅅㅣㄹㅈㅐ	-13843
▁ㅊㅓㄹㅎㅕㄹ	-13844
por	-13845
▁277	-13846
▁780	-13847
ㄷㅗㅇㅈㅣㄴ	-13848
ㅁㅓㄱㅂㅏㅂ	-13849
▁ㅁㅣㄹㅇㅑㅇ	-13850
▁Chapter	-13851
▁DN	-13852
▁ㅂㅕㄱㅁㅕㄴ	-13853
▁ㅎㅐㅁㅌㅡㄴ	-13854
▁ㅁㅐㄱㅇㅏ	-13855
▁ㅋㅏㄴㅌㅏ	-13856
ㄱㅓㄴㅊㅏㅇ	-13857
▁ㄱㅕㅇㅍㅜㅁ	-13858
▁ㅊㅏㄱㅅㅣㄹ	-13859
ashi	-13860
▁take	-13861
▁ㅇㅕㄴㅇㅠ	-13862
▁ㅂㅏㄴㅎㅑㅇ	-13863
DR	-13864
▁ㅊㅏㅁㅎㅚ	-13865
ㅂㅐㄱㅅㅏㄴ	-13866
ha	-13867
▁ㅅㅓㅁㄱㅘㅇㅌㅏㄴ	-13868
bit	-13869
read	-13870
▁jpg	-13871
▁ㄱㅏㄱㅎㅏ	-13872
▁ㅂㅕㅇㅇㅏ	-13873
▁ㅈㅓㅅㄱㅏ	-13874
▁ㅍㅣㄱㅅㅡ	-13875
ㅇㅕㄴㅅㅏㅇ	-13876
▁ㅁㅜㄲㅇㅡㅁ	-13877
▁ㅇㅑㅇㄹㅕㄱ	-13878
▁ㅊㅓㄱㅌㅏㄴ	-13879
pc	-13880
▁Mc	-13881
▁ㄲㅗㄴㄷㅐ	-13882
▁ㄹㅔㄱㅅㅓ	-13883
▁ㅎㅓㅅㄷㅚ	-13884
▁ㄱㅘㅇㄴㅕㄴ	-13885
▁ㅇㅕㄴㅍㅕㅇ	-13886
▁402	-13887
ㄴㅓㄹㄹㅣ	-13888
ㅅㅓㄱㅎㅢ	-13889
ㅊㅏㅁㅅㅏ	-13890
▁ㅅㅡㅂㄱㅣ	-13891
▁ㅈㅏㅂㄷㅏ	-13892
▁ㅍㅔㄴㄹㅣ	-13893
ㅈㅓㅇㅁㅜㄴ	-13894
▁ㅂㅏㅇㅈㅣㄴ	-13895
▁XL	-13896
▁ㄹㅓㅆ	-13897
▁1922	-13898
▁Burn	-13899
▁ㄹㅐㄴㄷㅓ	-13900
▁ㅇㅛㅇㅈㅣ	-13901
▁ㄷㅏㅁㅈㅏㅇ	-13902
▁Rom	-13903
iness	-13904
▁ㅂㅐㄱㄱㅟ	-13905
▁ㄱㅗㅇㅅㅐㅇ	-13906
▁ㅍㅏㄴㅂㅕㄹ	-13907
▁ㅍㅔㄴㅅㅣㅇ	-13908
▁University	-13909
▁ㅁㅜㄹㄱㅓ	-13910
▁ㅅㅛㄹㄷㅓ	-13911
▁ㅈㅣㄱㄹㅠ	-13912
▁ㅇㅣㄹㄱㅏㄴ	-13913
▁ㅈㅓㅇㅇㅛㅇ	-13914
▁570	-13915
▁Hal	-13916
▁ㅎㅏㄴㄷㅔ	-13917
ㄱㅝㄹㅅㅓㄴㄱㅓ	-13918
▁ㅍㅗㄱㅍㅜㅇㅇㅜ	-13919
64	-13920
▁Hom	-13921
ㅂㅓㅂㅂㅜ	-13922
ㅅㅣㅁㅋㅗ	-13923
▁ㅁㅏㄱㄹㅛ	-13924
▁ㅂㅕㄴㄱㅜㄱ	-13925
▁ㅈㅣㄴㅇㅓㄴ	-13926
ㅅㅐㅁ	-13927
▁940	-13928
▁view	-13929
ㅎㅕㄴㅈㅜ	-13930
▁ㄱㅔㄴㅌㅏ	-13931
ㅇㅜㄹㄹㅔㅅ	-13932
▁ㅂㅓㅁㄹㅏㅁ	-13933
▁ㅅㅏㅇㅈㅓㄴ	-13934
▁ㅇㅕㄹㄹㅑㅇ	-13935
▁ㅎㅘㅇㅊㅜㅇ	-13936
▁258	-13937
ㅈㅜㅇㄹㅕㄱ	-13938
▁ㅎㅕㄴㄱㅘㄴ	-13939
▁ㅍㅕㄴㅈㅣㅂㅂㅜ	-13940
▁ㄱㅡㄱㄹㅕㄹ	-13941
▁ㄸㅡㄴㄱㅗㅇ	-13942
▁ㅅㅓㅇㅅㅏㄴ	-13943
▁ㅈㅜㅇㄱㅏㄴㅈㅜㅇㄱㅏㄴ	-13944
▁god	-13945
▁ㄷㅡㄹㄸㅡ	-13946
ken	-13947
▁ㅁㅕㅇㄱㅜㄴ	-13948
ㄴㅗㅍㅇㅣ	-13949
▁JAPAN	-13950
▁ㅂㅏㅇㄱㅖ	-13951
▁NFC	-13952
▁ㅁㅏㄴㄷㅏ	-13953
▁ㅍㅔㄹㄹㅏ	-13954
ㄱㅗㅇㅎㅏㄱ	-13955
▁ㄴㅏㄱㅈㅓㅁ	-13956
▁ㅁㅐㅇㅁㅗㄱ	-13957
▁Ur	-13958
ㅃㅜㄱ	-13959
ㄹㅗㄱㅅㅡ	-13960
ㅂㅏㄴㅅㅜ	-13961
▁ㄱㅜㄱㄱㅘ	-13962
▁ㅅㅗㄱㅂㅗ	-13963
ㅈㅓㄴㄷㅡㅇ	-13964
▁ㅈㅓㅇㅊㅏㄴ	-13965
▁ㅇㅜㄴㄷㅗㅇㅎㅚ	-13966
▁920	-13967
▁Roll	-13968
▁ㅃㅏㅇㅈㅣㅂ	-13969
▁~?	-13970
▁253	-13971
ㄷㅏㄴㅂㅓㅂㅇㅣㄴ	-13972
ㅅㅑㄹ	-13973
ㅊㅓㄴㅎㅜ	-13974
▁ㄱㅏㅁㄹㅣ	-13975
▁ㄷㅡㅇㄱㅣ	-13976
ㄴㅓㄹㅁㅗㄱ	-13977
▁ㅁㅕㅇㅂㅏㄴ	-13978
▁ㅇㅕㄴㅈㅏㄱ	-13979
▁ㄱㅓㄴㄴㅓㄹㅁㅗㄱ	-13980
ima	-13981
▁DG	-13982
enter	-13983
▁ㄱㅡㅂㅇㅠ	-13984
▁ㅂㅣㅇㅈㅏ	-13985
▁ㅎㅣㄹㄷㅏ	-13986
▁ㅇㅝㄴㄷㅏㄴ	-13987
▁ㅇㅕㄹㄹㅏㅁㅅㅣㄹ	-13988
▁Az	-13989
▁GDI	-13990
▁ㅋㅛㄴ	-13991
▁Dist	-13992
▁ㅇㅏㄱㄷㅓㄱ	-13993
▁ㅈㅜㅇㅁㅜㄴ	-13994
▁ㅎㅓㄱ	-13995
▁Head	-13996
▁ㄱㅕㄹㅇㅕ	-13997
▁ㄷㅗㄱㄱㅣ	-13998
▁ㅌㅏㄹㄹㅗ	-13999
▁ㅎㅏㅂㅅㅔ	-14000
▁ㅎㅘㄱㅊㅜㅇ	-14001
▁ㄷㅗㅇㅇㅣㄹㅅㅣ	-14002
▁ㅇㅝㄴㅅㅏㄴㅈㅣ	-14003
▁Intel	-14004
▁ㅇㅐㄹㅂㅓ	-14005
ery	-14006
▁ㄱㅣㅁㅁㅣ	-14007
▁259	-14008
▁820	-14009
▁Euro	-14010
▁ㅈㅓㄴㅇㅢ	-14011
▁ㅍㅏㄴㄱㅡㅁ	-14012
▁ㅈㅓㅇㅊㅏㄱㅈㅣ	-14013
▁ㅇㅞㄴㅁㅏㄴㅋㅡㅁ	-14014
▁287	-14015
▁than	-14016
▁ㄱㅗㅇㅅㅗ	-14017
▁ㄷㅗㅇㄱㅜㄴ	-14018
▁ㅇㅣㄹㅈㅏㅇ	-14019
▁248	-14020
▁279	-14021
▁Mob	-14022
▁Gate	-14023
▁ㅅㅜㄴㅇㅜ	-14024
▁710	-14025
▁FFFF	-14026
▁left	-14027
▁ㄷㅓㅍㄱㅐ	-14028
▁ㅌㅗㅇㅊㅏㄹㄹㅕㄱ	-14029
onna	-14030
▁ㄱㅏㄴㅅㅗ	-14031
▁ㅇㅕㅇㅇㅕㄴㅂㅏㅇ	-14032
▁Jr	-14033
ㅊㅗㄴㅂㅓ	-14034
▁ㅇㅘㅇㄷㅗ	-14035
▁ㅈㅔㄴㄷㅓ	-14036
▁VT	-14037
ㄷㅔㄹㄹㅣ	-14038
▁ㅈㅓㅇㅁㅗ	-14039
ㄱㅡㄱㅅㅏㅇ	-14040
▁ㅍㅏㄹㅋㅗㄴ	-14041
itter	-14042
▁AVGN	-14043
ㅂㅜㄴㅎㅣ	-14044
ething	-14045
▁ㅅㅓㄴㅁㅣ	-14046
▁ㅈㅓㄴㄱㅜㄴ	-14047
roy	-14048
▁icon	-14049
ㄱㅜㄱㄱㅏ	-14050
▁ㅍㅗㄱㄹㅚ	-14051
ㄱㅗㅇㅇㅓㅂ	-14052
ㅇㅠㄱㅂㅗㄱ	-14053
▁ㅊㅣㅅ	-14054
ㅅㅏㅇㄱㅣ	-14055
▁ㅁㅣㄴㄱㅏ	-14056
▁ㅇㅠㄱㅅㅏ	-14057
▁ㅂㅜㄴㄱㅘㅇ	-14058
▁ㅋㅡㄹㄹㅗㄱ	-14059
▁ㅊㅓㅇㅁㅜㄴㅎㅚ	-14060
▁338	-14061
▁ㅎㅏㄹㅂㅐ	-14062
▁ㅅㅣㄴㅇㅏㄴ	-14063
▁WIN	-14064
ㄹㅔㄱㅅㅡ	-14065
▁SideM	-14066
▁ㅂㅏㄱㄷㅐ	-14067
▁ㅇㅡㄹㄹㅐ	-14068
▁ㅊㅜㄹㅍㅜㅁ	-14069
▁313	-14070
ublic	-14071
▁Round	-14072
▁ㅁㅕㅇㅅㅗ	-14073
▁ㅂㅗㄴㄱㅛ	-14074
ㅊㅗㄴㅇㅕㄱ	-14075
▁ㅎㅔㄹㄹㅡㅁ	-14076
ㅈㅣㅁㅇㅓㅄㅇㅣ	-14077
ULT	-14078
ㅅㅡㄹㄹㅔ	-14079
▁ㄱㅏㄴㄷㅏ	-14080
▁ㅅㅣㅁㅅㅣ	-14081
▁ㅋㅜㄹㄹㅓ	-14082
▁ㅈㅣㅂㄴㅕㅁ	-14083
▁ㅊㅜㄴㅊㅓㄴㅅㅣ	-14084
▁Ha	-14085
▁Rel	-14086
▁Bell	-14087
▁CDMA	-14088
ㄱㅓㄹㄹㅣ	-14089
ㄱㅘㄴㅅㅏ	-14090
▁ㅅㅣㄱㅌㅏㄱ	-14091
▁el	-14092
ific	-14093
▁MAP	-14094
▁ㄱㅣㅇ	-14095
ㅁㅗㄴㅌㅡ	-14096
▁ㄱㅏㅇㅈㅐ	-14097
▁ㄹㅔㅅㅊㅡ	-14098
▁ㅇㅣㅂㄱㅏㄱ	-14099
CO	-14100
ror	-14101
▁Reg	-14102
▁under	-14103
▁ㄴㅏㅁㅈㅗ	-14104
▁ㅁㅜㄴㅎㅏ	-14105
▁ㅇㅡㄴㅎㅘ	-14106
▁FG	-14107
▁ㄷㅐㄴㄷㅣ	-14108
▁ㅋㅔㄴㄱㅗ	-14109
▁ㅎㅗㅇㅅㅣ	-14110
ㅇㅑㅇㅅㅣㄱ	-14111
▁ㅇㅏㅍㄴㅏㄹ	-14112
▁ㅎㅏㄴㄲㅓㅅ	-14113
▁BLUE	-14114
▁GOLD	-14115
▁ㅇㅏㄹㅌㅗ	-14116
▁ㅂㅏㅂㅅㅏㅇ	-14117
▁ㅇㅓㄴㄷㅗㅇ	-14118
pha	-14119
▁Gar	-14120
▁ㅅㅏㄱㄱㅏㅁ	-14121
▁ㅈㅓㅇㄴㅕㄴ	-14122
AMP	-14123
▁Here	-14124
▁ㅅㅣㅁㅈㅡ	-14125
ㅇㅣㄹㄹㅣㅇ	-14126
ㄲㅓㄱ	-14127
ular	-14128
▁1921	-14129
▁ㄷㅡㄹㅁㅓㄱㅇㅣ	-14130
ㄴㅕㅁㅍㅜㅁ	-14131
▁ㄱㅗㄹㅇㅣㄴ	-14132
▁ㅍㅔㄴㄷㅓㄴㅌㅡ	-14133
▁011	-14134
ㅎㅐㅇㄷㅐ	-14135
▁ㅅㅏㄴㄷㅗㅇ	-14136
▁ㅂㅏㄱㅈㅓㅇㅎㅕㄴ	-14137
▁SNL	-14138
▁ㅂㅣㄹㄷㅓ	-14139
▁ㅇㅣㄴㄷㅓㄱ	-14140
▁ㅎㅏㅁㅈㅗㅇ	-14141
▁GSTL	-14142
▁ㄱㅡㅁㅈㅔ	-14143
▁ㅎㅓㄴㅈㅔ	-14144
ㄹㅓㅁㅍㅔㅅ	-14145
▁ㄷㅐㄴㅅㅣㅇ	-14146
▁Na	-14147
▁ㅇㅏㅇㅌㅜ	-14148
▁ㅌㅔㄴㄷㅓ	-14149
ㅊㅓㄴㅁㅕㄴ	-14150
▁ㅁㅜㄴㅈㅓㅇ	-14151
ats	-14152
▁ㅋㅣㅂ	-14153
▁PASS	-14154
▁ㅈㅗㄴㄴㅏ	-14155
ㅌㅗㅇㅎㅐㅇ	-14156
▁ㅁㅜㄹㅂㅕㅇ	-14157
▁ㅅㅓㄴㅇㅣㅂ	-14158
▁CHALLEN	-14159
▁970	-14160
▁MTV	-14161
▁ㄷㅓㄱㅇㅏ	-14162
▁ㅁㅗㄱㅈㅣㄹ	-14163
▁ㅂㅕㅇㄷㅡㄹ	-14164
▁ㅌㅐㅅㅇㅡㄹ	-14165
▁dream	-14166
▁ㅇㅛㅇㅂㅣ	-14167
ㄷㅗㅇㅎㅜㄴ	-14168
▁ㅇㅕㄱㄱㅗㅇ	-14169
ior	-14170
▁eee	-14171
ㅊㅜㅇㅈㅣ	-14172
▁ㄱㅓㅁㅅㅜ	-14173
▁ㄷㅡㅇㅂㅜ	-14174
▁ㅊㅏㄱㅅㅣ	-14175
▁ㄷㅡㅁㅃㅜㄱ	-14176
ㅂㅘ	-14177
awa	-14178
ㅌㅓㄴㅅㅡ	-14179
▁ㅇㅔㄴㅎㅏ	-14180
▁ㅇㅘㄴㅅㅡㅇ	-14181
ones	-14182
▁Mons	-14183
▁ㄱㅏㅄㅆㅏ	-14184
▁look	-14185
ㄱㅓㄴㅅㅗ	-14186
▁ㅅㅓㄴㅊㅟ	-14187
▁ㅇㅣㅅㄸㅏ	-14188
▁ㅎㅡㄴㄷㅡ	-14189
▁ㅅㅣㄴㅇㅛㅇㅋㅏ	-14190
▁Ko	-14191
inity	-14192
▁ㄷㅗㅇㅂㅜㄱㅇㅏ	-14193
▁ㅅㅗㄴㅅㅡㅇㄹㅏㄱ	-14194
}}}	-14195
▁pp	-14196
ㅋㅣㄴㅌㅗ	-14197
▁ㅂㅕㄹㅇㅢ	-14198
▁ㅊㅣㄴㅈㅏ	-14199
ㅇㅣㄹㅈㅓㅁ	-14200
ㅈㅓㅇㅈㅐ	-14201
▁ㄷㅏㄴㅍㅏ	-14202
▁ㅇㅠㄱㅅㅜ	-14203
ㅅㅓㅇㄴㅡㅇ	-14204
ㅊㅓㄴㅅㅓㄴ	-14205
▁ㅎㅏㅂㅈㅓㄴ	-14206
▁ㄱㅕㄹㅈㅓㅇㅊㅔ	-14207
po	-14208
▁MMA	-14209
ㄹㅓㅇㄱㅓ	-14210
▁ㅇㅗㄴㄱㅘ	-14211
▁ㅎㅏㄱㅂㅣ	-14212
▁ㅈㅗㅇㄱㅜㄱ	-14213
▁ㅇㅑㄱㅎㅗㄴㄴㅕ	-14214
▁ㅂㅏㅇㅊㅓㅇㄱㅐㄱ	-14215
▁ㅇㅜㄴㅈㅓㄴㅂㅕㅇ	-14216
▁Ins	-14217
ㄹㅐㄴㅅㅣ	-14218
▁ㄱㅡㄹㄹㅜ	-14219
ote	-14220
▁WS	-14221
VERS	-14222
ㄹㅐㄱㅌㅓ	-14223
▁ㄱㅝㄴㅅㅔ	-14224
▁ㄱㅕㄹㅈㅣㅂ	-14225
▁EDITION	-14226
TLE	-14227
▁KK	-14228
▁ㅇㅜㄹㅌㅣ	-14229
▁ㅈㅜㄴㅇㅟ	-14230
▁ㅋㅣㄴㅋㅣ	-14231
ㄴㅗㄹㄹㅣㅁ	-14232
▁ㅇㅏㄹㄹㅏㅁ	-14233
▁ㅇㅝㄴㅅㅑㅅ	-14234
▁ㅉㅏㅁㅂㅏㅂ	-14235
▁ㅎㅘㅇㅅㅓㄴ	-14236
▁ㅇㅛㅇㅅㅏㄴㅇㅕㄱ	-14237
▁blog	-14238
ㄹㅏㄹㄹㅏ	-14239
▁Sword	-14240
▁ㄷㅗㅇㅅㅜ	-14241
ㄷㅗㅇㅈㅜㄴ	-14242
▁ㄴㅏㅁㅇㅝㄴ	-14243
▁ㅂㅗㄴㅅㅐㄱ	-14244
▁ㅅㅣㄹㅅㅣㄴ	-14245
▁Android	-14246
ㅉㅡ	-14247
▁610	-14248
ㅂㅏㄹㅇㅠ	-14249
▁Young	-14250
▁ㄱㅕㅇㅂㅗㄱㄱㅜㅇ	-14251
▁ㅎㅗㅇㅅㅓㅇㅎㅡㄴ	-14252
▁ㄲㅗㅊㅍㅣ	-14253
▁ㅇㅏㅇㄷㅡ	-14254
▁ㅈㅓㅇㅅㅐㄱ	-14255
▁ㄲㅡㄶㅇㅣㅁㅇㅓㅄ	-14256
▁ㄱㅗㅇㅊㅏ	-14257
▁ㅅㅓㅇㅇㅘㅇ	-14258
▁ㅇㅠㅇㅌㅗㅇ	-14259
ㅋㅓㅇ	-14260
▁273	-14261
ought	-14262
ㅇㅕㅇㅁㅣㄴ	-14263
▁ㅇㅏㄹㄹㅗㄴ	-14264
hes	-14265
▁HDD	-14266
▁Imp	-14267
ㅇㅕㄴㅈㅜ	-14268
ㅎㅏㅁㄷㅐ	-14269
▁ㄱㅓㅂㄴㅏ	-14270
▁ㅇㅏㄱㅅㅜㄴㅎㅘㄴ	-14271
aze	-14272
▁ㄱㅗㄴㅈㅏㄹ	-14273
▁Dep	-14274
▁Eyes	-14275
▁Fight	-14276
▁ㄱㅜㄴㅇㅏㄱ	-14277
▁}}}}}}}}}	-14278
ora	-14279
▁HO	-14280
▁IL	-14281
ㄹㅣㄴㄴㅐ	-14282
ㅁㅔㄹㄹㅔ	-14283
ㅅㅡㅇㅊㅓㄹ	-14284
▁ㄱㅗㅇㄷㅓㄱ	-14285
▁ㄱㅡㅁㄱㅘㅇ	-14286
▁ㅊㅣㅁㅇㅣㅂㅈㅏ	-14287
ㅁㅕㄴㅊㅔ	-14288
ㅇㅣㄴㅇㅐ	-14289
▁ㄱㅣㅂㅅㅡ	-14290
▁ㅂㅓㄹㅋㅡ	-14291
HS	-14292
▁525	-14293
▁ㅅㅓㅇㄴㅏ	-14294
ㅊㅜㄱㄱㅜㄱ	-14295
▁ㅂㅓㄹㅈㅓㅁ	-14296
▁ㅅㅡㄹㄹㅣㅇ	-14297
▁386	-14298
▁ㅋㅚㄹ	-14299
ㅂㅏㅇㄷㅐ	-14300
▁ㅎㅡㄱㅈㅏ	-14301
▁ㅁㅏㅈㄷㅏㅎ	-14302
▁ㅊㅓㄴㅁㅕㅇ	-14303
▁ㅎㅏㄴㅅㅣㄱ	-14304
▁ㅊㅗㅇㄹㅕㄱ	-14305
▁ㅈㅜㅇㅇㅏㅇㅇㅕㄱ	-14306
ㅇㅛㅇㅈㅜ	-14307
▁ㅇㅕㅇㅎㅏ	-14308
▁ㅂㅜㄴㅌㅏㅇ	-14309
▁ㅅㅣㄴㄹㅏㅇ	-14310
▁ㅇㅣㅂㄷㅏㅁ	-14311
▁ㅍㅗㄱㅈㅏㅇ	-14312
▁Cre	-14313
ative	-14314
▁ㄷㅏㄹㅅㅓ	-14315
ㄹㅡㅁㄷㅏㄹ	-14316
ㅋㅠㄹㄹㅓㅁ	-14317
▁ㅅㅗㄴㅇㅣㄱ	-14318
▁AST	-14319
▁ㅂㅏㄹㅂㅏ	-14320
▁ㅇㅕㅁㅈㅏㅇ	-14321
▁ㅈㅓㅁㄹㅕㅇㅈㅣ	-14322
▁ㅇㅕㅇㅊㅓㄴ	-14323
▁ㅎㅓㄴㅈㅓㅇ	-14324
▁ㅇㅑㅌㅂㅗ	-14325
▁ㅈㅓㄱㅅㅜ	-14326
▁ㅋㅐㄴㅂㅓ	-14327
▁ㅎㅏㄴㅋㅏ	-14328
▁af	-14329
▁DEST	-14330
ㄹㅏㅁㅅㅡ	-14331
▁ㄱㅓㄹㅊㅜㄹ	-14332
ids	-14333
lear	-14334
ㅅㅣㄴㅅㅓㅇ	-14335
▁Engine	-14336
▁ㅇㅕㅁㄹㅕㄱ	-14337
AF	-14338
▁Dan	-14339
▁ㄱㅡㄹㄱㅟ	-14340
▁ㄴㅏㄱㅇㅗ	-14341
ㅊㅗㄴㄷㅗㅇ	-14342
INY	-14343
▁Ak	-14344
▁620	-14345
▁mag	-14346
▁ㅎㅠㅇㅍㅗㄱ	-14347
▁ㅌㅓㄱㅇㅓㅄㅇㅣ	-14348
▁730	-14349
ㅅㅓㅇㅎㅗ	-14350
▁ㅅㅗㄴㅈㅐ	-14351
▁GUN	-14352
ㅌㅡㄹㄱㅓ	-14353
▁ㅅㅣㄴㅌㅗ	-14354
▁ㅁㅐㅇㄱㅗㅇ	-14355
▁ㅂㅏㄹㅇㅕㄴㄱㅣ	-14356
▁ㅇㅕㅇㄴㅏㅁㄷㅐ	-14357
▁AIR	-14358
▁COL	-14359
▁Div	-14360
ㅌㅐㄱㄱㅡㄴ	-14361
ㅎㅕㄴㅈㅓㅇ	-14362
▁ㅁㅐㄴㅅㅕㄴ	-14363
▁276	-14364
▁ㅋㅘㅇ	-14365
▁ㄱㅏㅇㅌㅐ	-14366
▁ㄲㅗㄱㅈㅣ	-14367
▁ㅎㅘㅇㄷㅗ	-14368
ㅅㅡㅇㅇㅝㄴ	-14369
▁ㅈㅓㄴㅁㅏㅇㄷㅐ	-14370
55	-14371
mo	-14372
▁ㅁㅗㅇㄱㅗ	-14373
▁ㅇㅓㅅㅂㅣ	-14374
ㅅㅓㄱㅎㅕㄴ	-14375
▁ㅇㅏㄴㄷㅏㄹ	-14376
▁php	-14377
ㄷㅏㄱㄱㅓ	-14378
ㅇㅝㄹㅈㅜ	-14379
▁ㅅㅣㅂㅇㅣ	-14380
ㅂㅏㅇㅇㅣㄴ	-14381
▁NX	-14382
▁ㄱㅘㄴㅊㅓㄹ	-14383
▁ㅎㅗㄱㅎㅏㄴ	-14384
▁ㅌㅏㄹㅂㅜㄱㅈㅏ	-14385
▁ㅎㅕㅂㄹㅕㄱㅈㅏ	-14386
ja	-14387
OME	-14388
▁Enter	-14389
▁ㅇㅘㄴㅂㅗㅇ	-14390
▁ㄱㅣㅁㅇㅡㅇㅇㅛㅇ	-14391
ㅅㅡㅅㅂㅣ	-14392
▁ㄱㅓㅁㅈㅣㄴ	-14393
▁Network	-14394
arn	-14395
▁309	-14396
▁WBC	-14397
▁ㄷㅏㅅㅈㅣ	-14398
▁ㅇㅏㅇㅋㅡ	-14399
▁ㅇㅕㅇㅇㅖ	-14400
▁ㄱㅕㄹㅍㅣㅂ	-14401
▁America	-14402
▁SY	-14403
▁960	-14404
▁Two	-14405
ㄷㅓㄹㄱㅓ	-14406
▁ㅇㅓㄹㅂㅓ	-14407
▁ㅎㅕㄹㅌㅜ	-14408
▁ㄱㅗㄴㅈㅏㄹㄹㅔ	-14409
▁ㅎㅏㅂㅊㅏㅇㄷㅏㄴ	-14410
ollow	-14411
imited	-14412
▁ㅂㅐㄱㄱㅣ	-14413
▁ㅇㅡㄴㄱㅓ	-14414
▁ㄴㅏㄴㄹㅣㅂ	-14415
▁ㅅㅏㅇㅅㅣㅁ	-14416
▁ㅊㅗㅇㄷㅗㅇㅇㅝㄴ	-14417
▁ㄱㅜㄱㅁㅣㄴㅇㅡㄴㅎㅐㅇ	-14418
▁Ah	-14419
▁ㄴㅏㄴㅈㅗ	-14420
DMA	-14421
▁DU	-14422
▁ke	-14423
▁mac	-14424
ㄷㅔㅇㅇㅣ	-14425
ㅅㅓㄴㅎㅢ	-14426
▁ㄱㅜㅇㅅㅏ	-14427
▁ㅅㅏㅇㅇㅣ	-14428
▁ㄷㅓㄱㅅㅓㄴ	-14429
▁ㅊㅏㄴㅂㅏㅂ	-14430
▁ㅂㅓㄹㄱㅛ	-14431
▁ㅂㅜㄴㅈㅣ	-14432
▁ㄷㅓㅍㅂㅏㅂ	-14433
▁ㅇㅘㄴㅊㅜㅇ	-14434
▁Ju	-14435
▁267	-14436
▁CAT	-14437
▁ㄴㅏㅁㄷㅗ	-14438
▁ㅇㅠㄴㅅㅏㅇ	-14439
▁ㅈㅓㄴㄹㅏㄴ	-14440
ota	-14441
▁ㅂㅔㄴㄷㅓ	-14442
▁ㅂㅜㄱㅅㅡ	-14443
▁ㅅㅣㄹㅌㅐ	-14444
▁ㅈㅏㅇㅇㅠ	-14445
▁ㅍㅔㅂㅅㅣ	-14446
ㅇㅕㅁㅂㅕㅇ	-14447
▁ㅇㅣㄴㅍㅜㅁ	-14448
▁ㄱㅜㄱㅁㅣㄴㅎㅚ	-14449
▁ㄱㅣㅁㅂㅕㅇㅁㅏㄴ	-14450
▁ㅇㅣㄴㅁㅜㄴㅎㅏㄱ	-14451
YPE	-14452
uke	-14453
ㄹㅏㄱㅂㅜ	-14454
ㅁㅏㄱㅇㅣ	-14455
ㅅㅓㅇㄹㅛㅇ	-14456
ㅈㅏㄱㅈㅓㅁ	-14457
▁ㄱㅡㄱㅈㅣㄴ	-14458
▁ㅅㅣㄴㄱㅝㄴ	-14459
▁ㅋㅓㅁㅍㅣㄹㄹㅔ	-14460
38	-14461
▁ㅁㅏㅈㅇㅡㄴ	-14462
▁ㅈㅗㄴㅊㅣㅇ	-14463
ㄲㅏㄱ	-14464
▁518	-14465
▁Iron	-14466
▁ㄱㅗㄱㅇㅖ	-14467
ㅅㅐㅇㅁㅕㅇ	-14468
▁ㅂㅏㅇㄱㅡㄹㄹㅏ	-14469
AE	-14470
ㄱㅕㅇㅎㅘㄴ	-14471
▁ㅈㅏㅇㄱㅘㅇ	-14472
▁ㅇㅠㄱㄱㅜㄴㅅㅏ	-14473
▁ㄱㅏㅁㄷㅗㄱㄱㅘㄴ	-14474
▁ㄱㅣㅁㄷㅗㅇㅎㅕㄴ	-14475
▁?"	-14476
▁ㅇㅡㅂㄴㅐ	-14477
▁ㅊㅐㄱㅈㅏ	-14478
▁ㄱㅡㄹㄲㅗㄹ	-14479
▁ㄷㅗㅇㄱㅗㅇ	-14480
▁ㅇㅗㄱㅅㅕㄴ	-14481
▁ㅁㅏㄴㅅㅣㄴㅊㅏㅇ	-14482
▁Hz	-14483
▁MOON	-14484
▁ㄱㅏㄱㅅㅣ	-14485
▁ㄷㅏㄺㄱㅗ	-14486
▁ㅇㅝㄴㅊㅗ	-14487
▁ㅇㅣㄹㄱㅘ	-14488
▁ㄴㅏㅁㅁㅏㄴ	-14489
▁ㅂㅏㄹㅅㅗㅇ	-14490
▁set	-14491
▁ㄱㅕㄱㅅㅏㅇ	-14492
▁ㅋㅓㄹㄹㅓㅁㅂㅣ	-14493
▁ㄱㅗㅇㅈㅏㄱㅇㅝㄴ	-14494
▁ㅁㅏㅈㅇㅡㄴㅍㅕㄴ	-14495
▁ㅁㅏㄴㅈㅏㅇㅇㅣㄹㅊㅣ	-14496
▁268	-14497
▁TAKA	-14498
▁ㅈㅓㅁㅅㅓㅇ	-14499
ㄲㅜㅈ	-14500
▁324	-14501
▁sky	-14502
▁game	-14503
ㅇㅜㄴㅈㅣ	-14504
▁ㄸㅓㄱㅎㅏ	-14505
▁ㅎㅗㄹㄷㅓ	-14506
▁ㅈㅓㅇㅇㅡㅂ	-14507
▁ㅎㅐㅇㅍㅐ	-14508
▁ㄱㅗㅇㄹㅕㄱ	-14509
▁==	-14510
▁VV	-14511
▁ㄹㅔㄴㅌㅡ	-14512
▁ㅂㅓㄱㅊㅏ	-14513
ㅇㅠㄱㄱㅏㅁ	-14514
▁ㄲㅗㅇㄲㅗㅇ	-14515
▁ㅎㅕㅂㅇㅓㅂ	-14516
▁Lu	-14517
▁ㅁㅣㄴㅎㅗ	-14518
▁ㅈㅓㅂㅈㅣ	-14519
ㄴㅔㄴㅌㅏㄹ	-14520
▁ㅁㅏㄴㅊㅏㄴ	-14521
▁Ben	-14522
▁TAG	-14523
▁read	-14524
ㅎㅏㄴㅂㅜ	-14525
▁AJ	-14526
▁top	-14527
▁ㅁㅏㄴㅊㅣ	-14528
▁ㅅㅓㄴㄹㅖ	-14529
▁ㅇㅕㅇㅈㅏ	-14530
▁ㄷㅗㄱㅇㅑㄱ	-14531
▁ㅇㅑㅇㅅㅏㄴㅂㅏㄱ	-14532
▁Ray	-14533
▁ㅅㅜㅊ	-14534
▁ㅋㅐㄹ	-14535
▁3535	-14536
ㄱㅏㄹㄱㅣ	-14537
▁ㅂㅕㄹㅅㅔ	-14538
iter	-14539
▁ㅌㅐㅅㅇㅔ	-14540
ㅈㅜㅇㄱㅡㄴ	-14541
▁ㅅㅓㅇㅅㅣㅁ	-14542
▁!'	-14543
▁ㅉㅚ	-14544
ㄱㅔㅅ	-14545
▁ㄷㅣㅅ	-14546
▁Mnet	-14547
▁Wanna	-14548
▁ㄴㅗㄹㄹㅕ	-14549
▁ㅎㅑㅇㅌㅗ	-14550
▁ㅇㅘㅇㅈㅓㄴ	-14551
▁HAPP	-14552
▁ㅂㅓㄴㅅㅡ	-14553
▁ㅅㅏㄹㅇㅢ	-14554
▁ㅎㅕㄹㄱㅣ	-14555
▁ㄷㅗㄱㄹㅣㅂㄱㅜㄴ	-14556
▁ㅈㅏㅁㅅㅣㄹㅇㅕㄱ	-14557
▁|[	-14558
▁Dam	-14559
▁ㄱㅡㄱㅂㅣ	-14560
▁ㅋㅗㅁㅂㅏ	-14561
▁ㅊㅏㄴㅌㅏㄹ	-14562
▁ㅊㅜㄱㅈㅓㄴ	-14563
▁ㄱㅘㄴㅅㅣㅁㅅㅏ	-14564
▁BY	-14565
ㅇㅕㅎ	-14566
▁AIM	-14567
▁ㄱㅡㄱㅊㅔ	-14568
▁INT	-14569
▁ㄱㅕㅇㅊㅣ	-14570
▁ㅌㅐㄱㄱㅕㄴ	-14571
▁ㄷㅟㅅㄷㅏㅁㅎㅘ	-14572
▁ㅎㅏㄴㄱㅜㄱㅈㅓㄴㄹㅕㄱ	-14573
of	-14574
▁261	-14575
▁ANIM	-14576
ㅁㅗㄴㅈㅡ	-14577
▁ㅅㅏㅇㄱㅖ	-14578
▁ㅌㅏㅁㄴㅐ	-14579
▁OVER	-14580
▁ㄹㅜㅁㅁㅔ	-14581
▁ㅋㅜㅇㅍㅜ	-14582
ㅌㅏㄹㅊㅜㄹ	-14583
▁ㅇㅏㄴㅈㅓㄴㅈㅏㅇㅊㅣ	-14584
▁SI	-14585
▁MOM	-14586
▁True	-14587
▁ㅅㅓㄴㅇㅢ	-14588
▁ㅊㅜㄹㅈㅏ	-14589
▁ㅍㅣㅇㅋㅣ	-14590
▁FFFFFF	-14591
▁ㅇㅝㄴㄱㅠㄴ	-14592
▁ㅈㅓㅁㅊㅏㄱ	-14593
▁ㅌㅏㄹㅅㅓㄴ	-14594
▁ㄹㅗㄹㄹㅐㄴㄷㅡ	-14595
▁ㅈㅓㄴㅇㅠ	-14596
▁ㅎㅕㅂㅅㅗ	-14597
▁ㄱㅡㅂㅂㅏㄱ	-14598
▁ㅋㅐㅁㅂㅔㄹ	-14599
ㄹㅣㅇㅍㅣㄹㄷㅡ	-14600
ㅊㅓㄴㄴㅕㄴㅁㅣㄴㅈㅜ	-14601
ㄴㅡㅇㅅㅏ	-14602
▁light	-14603
▁ㅂㅡㄹㄹㅏㄱ	-14604
▁314	-14605
▁ㅇㅠㄴㅎㅢ	-14606
▁ㄱㅜㄴㄱㅜㄱㅈㅜ	-14607
▁ㅅㅣㄴㄱㅜㅇ	-14608
▁ㅈㅓㅇㅅㅣㄹ	-14609
▁ㅋㅚㄹㄹㅡㄴ	-14610
ㅉㅜ	-14611
▁787	-14612
▁ㅁㅜㄴㄹㅏ	-14613
▁ㅇㅣㅁㅅㅜ	-14614
ㄷㅗㅇㄸㅏㄹ	-14615
▁ㅂㅏㄴㅇㅣㄹ	-14616
▁ㅊㅏㅇㅊㅓㄴ	-14617
▁ㅊㅓㄴㅇㅣㄴ	-14618
▁ㅇㅜㅇㄷㅓㅇㅇㅣ	-14619
▁317	-14620
▁2300	-14621
▁ㄹㅓㄱㅂㅣ	-14622
▁ㅈㅣㅇㅈㅗ	-14623
▁ㄱㅗㄴㅂㅗㅇ	-14624
▁ㅅㅗㄴㄷㅡㅇ	-14625
▁ㅇㅕㅇㅇㅠ	-14626
ㅈㅣㄴㅈㅗㄱ	-14627
▁CIN	-14628
▁ㅈㅐㅂㅆㅏ	-14629
▁ㅎㅡㄱㅅㅏ	-14630
▁ㅅㅏㅇㄱㅡㄱ	-14631
▁ㅎㅘㅇㅇㅣㄴ	-14632
▁020	-14633
▁ㅇㅑㅇㅎㅐ	-14634
ㅁㅣㄴㅌㅓㄴ	-14635
▁ㅂㅕㄱㅇㅏㄴ	-14636
▁ㅅㅏㅁㅊㅓㄱ	-14637
▁ㅇㅑㄱㄱㅘㄴ	-14638
▁ㅈㅏㄱㅅㅔㄴ	-14639
▁ㅍㅡㄹㄹㅔㄱㅅㅡ	-14640
YY	-14641
ELLA	-14642
▁WOW	-14643
▁Cast	-14644
ㅅㅓㄱㄱㅜ	-14645
ㅇㅕㄱㄲㅜ	-14646
▁Video	-14647
▁ㅅㅏㄴㄱㅗ	-14648
▁people	-14649
▁ㅇㅣㅂㄱㅡㅁ	-14650
▁American	-14651
iko	-14652
▁ㄱㅕㄹㅂㅏㅇ	-14653
▁ㅅㅏㅁㅅㅓㅇㄱㅡ	-14654
▁ㅅㅓㄴㅍㅜㅇㄱㅣ	-14655
▁269	-14656
under	-14657
▁KL	-14658
▁QS	-14659
ㄹㅓㄴㅌㅣ	-14660
▁ㅈㅏㅇㄱㅜ	-14661
▁ㅌㅗㅇㅈㅣ	-14662
▁ㅇㅡㅁㅊㅣㅁ	-14663
▁ㅌㅏㄴㅅㅓㅇ	-14664
OG	-14665
▁284	-14666
▁ㅈㅏㅂㅇㅣ	-14667
▁ㅂㅏㄱㅇㅡㄴ	-14668
▁ㅅㅏㄴㄹㅏㄴ	-14669
▁ㅍㅜㅇㄹㅣㅁ	-14670
▁ㅎㅏㄴㅅㅏㅇ	-14671
▁ㄱㅗㄱㄷㅗ	-14672
▁ㄱㅣㅁㅁㅜ	-14673
▁ㅂㅐㄱㄷㅗ	-14674
▁ㅆㅜㄱㄷㅐ	-14675
▁ㅁㅜㄴㅇㅣㄴ	-14676
▁ㅅㅗㄱㅅㅔㅁ	-14677
▁ㅉㅏㅂㅉㅏㄹ	-14678
▁ㄱㅏㅇㄹㅕㄱㅎㅣ	-14679
▁ㅎㅘㅇㄱㅡㅁㅅㅐㄱ	-14680
▁ㅂㅜㄹㄲㅗㅊㄴㅗㄹㅇㅣ	-14681
▁ㅌㅗㅇㅎㅏㅂㅈㅣㄴㅂㅗ	-14682
ㄲㅘㅇ	-14683
▁BEAT	-14684
ㅁㅏㅈㅇㅣ	-14685
▁Award	-14686
▁ㄱㅏㄴㅎㅐㅇ	-14687
▁ㅈㅣㄴㅇㅕㄹ	-14688
umi	-14689
▁npc	-14690
▁Land	-14691
ㅍㅏㄹㅇㅣ	-14692
▁ㄴㅏㄱㄹㅚ	-14693
▁ㅂㅜㄹㅅㅏㅇ	-14694
▁ㅅㅓㄴㅅㅡㅇ	-14695
▁ㅅㅣㄴㅇㅝㄹ	-14696
▁ㄱㅗㅁㅍㅏㅇㅇㅣ	-14697
▁ㅅㅓㅇㅈㅓㄴㅎㅘㄴ	-14698
▁Glob	-14699
▁ㅁㅏㄴㅁㅜ	-14700
▁353535	-14701
▁ㅈㅏㅇㅅㅡㅇ	-14702
▁FD	-14703
▁AOS	-14704
▁Alt	-14705
▁Wel	-14706
▁EDGE	-14707
ㅇㅓㅂㅊㅔ	-14708
▁ㄷㅗㅇㄱㅗ	-14709
▁ㅁㅏㅇㅈㅓㅇ	-14710
▁ㅎㅏㄴㅅㅡㅇ	-14711
▁ㄷㅏㅇㅅㅓㄴㅈㅏ	-14712
▁CHALLENGE	-14713
▁ㅅㅗㅇㅇㅡㄴㅂㅓㅁ	-14714
▁Maj	-14715
▁tri	-14716
▁1907	-14717
ㅂㅏㄷㅇㅣ	-14718
▁Etern	-14719
▁ㅇㅣㄴㄷㅡ	-14720
▁ㄷㅗㅇㄱㅡㄹ	-14721
▁ㅋㅗㄹㄹㅓㅁ	-14722
▁312	-14723
▁ㅎㅏㄱㅂㅓㄹ	-14724
▁ㄱㅏㄱㅅㅓㅇㄱㅣ	-14725
ㅈㅣㄴㅇㅕ	-14726
ㅎㅏㄱㅂㅜ	-14727
▁ㅂㅔㄴㅈㅏ	-14728
▁ㅇㅑㅇㅎㅏㄱ	-14729
ㄴㅐㅇ	-14730
ives	-14731
▁inf	-14732
▁ㅂㅐㄹㄹㅠ	-14733
▁ㅇㅝㄹㄱㅣ	-14734
▁ㅈㅜㄱㅈㅓㄴ	-14735
▁ㅁㅜㄴㅅㅓㅇㅇㅝㄴ	-14736
▁Low	-14737
▁ass	-14738
ㅈㅜㄴㅇㅕㅇ	-14739
▁ㄷㅗㄴㄷㅗㄱ	-14740
▁ㅇㅛㅇㅅㅏㄴㄱㅜ	-14741
▁JS	-14742
▁ㄴㅏㄲㅇㅏ	-14743
▁ㅁㅐㄱㅋㅡ	-14744
▁ㅎㅏㄱㅈㅏㅇ	-14745
▁Fe	-14746
▁Circ	-14747
ECTION	-14748
▁ㅎㅏㅇㅊㅔ	-14749
ㅈㅗㅇㅎㅜㄴ	-14750
▁ㅍㅏㄴㄷㅗㄱ	-14751
▁ㅈㅏㅇㅇㅝㄴㅅㅏㅁ	-14752
▁ㅎㅘㅇㄱㅓㄴㅈㅓㄱ	-14753
ju	-14754
▁670	-14755
▁1908	-14756
ㅈㅜㄱㅇㅣ	-14757
ㅈㅏㄱㄱㅝㄴ	-14758
▁ㅅㅓㅇㄱㅘㄴ	-14759
▁ㅇㅓㅇㅅㅓㅇ	-14760
▁ㅈㅏㅇㄱㅏㅇ	-14761
▁Beautiful	-14762
▁ㄷㅗㄴㅋㅣ	-14763
▁ㅇㅣㅂㅂㅜ	-14764
ㅇㅣㄴㅇㅝㄴ	-14765
▁ㄱㅘㅇㅇㅏㄴ	-14766
▁ㅂㅐㄱㅈㅏㅇㅁㅣ	-14767
ML	-14768
aking	-14769
▁ㅊㅔㄹㄹㅗ	-14770
▁ㅇㅡㅁㅇㅑㅇㅅㅏ	-14771
▁UL	-14772
▁Lie	-14773
▁ㅅㅣㄹㄹㅕ	-14774
▁ㄱㅏㅈㅇㅡㄴ	-14775
▁ㅂㅗㄱㅇㅕㄱ	-14776
▁ㅅㅗㄴㅈㅓㄴㄷㅡㅇ	-14777
▁OME	-14778
▁List	-14779
▁Look	-14780
▁ㅁㅛㄹ	-14781
orrow	-14782
▁North	-14783
▁ㅌㅗㅇㄴㅏ	-14784
▁ㅇㅣㅂㅇㅏㄴ	-14785
▁CLG	-14786
▁ㄴㅡㄹㅇㅣ	-14787
▁ㅇㅕㅇㅇㅐ	-14788
▁ㅈㅏㅇㅎㅢ	-14789
▁ㅍㅗㄱㅇㅜ	-14790
ㅍㅕㅇㅅㅓㄴ	-14791
▁ㄴㅗㅇㄹㅣㅁ	-14792
▁ㅋㅡㄹㄹㅣㅇ	-14793
▁SIM	-14794
▁Hand	-14795
▁ㅂㅏㅇㄷㅗ	-14796
▁ㅇㅠㄴㅂㅗ	-14797
▁ㅈㅜㅇㄱㅐ	-14798
ㅅㅣㅂㅁㅏㄴ	-14799
ㅊㅓㄴㅁㅏㄴ	-14800
NER	-14801
▁Arch	-14802
▁Wild	-14803
▁ㅇㅝㄹㅎㅢ	-14804
▁NEO	-14805
▁Ryu	-14806
▁ㅅㅣㄴㅇㅜ	-14807
▁ㅇㅑㄱㅇㅓ	-14808
▁ㅎㅕㄴㅅㅣ	-14809
▁ㅇㅑㅇㄱㅡㄱ	-14810
▁ㅈㅓㄹㅁㅕㅇ	-14811
▁ㅅㅏㄹㅇㅣㄴㅈㅏ	-14812
ground	-14813
▁ㅁㅕㄴㅅㅏ	-14814
▁ㅈㅓㅁㅎㅗ	-14815
▁ㅁㅕㄴㅈㅓㄴ	-14816
▁Evolution	-14817
ㅅㄱㅏㅄ	-14818
▁ㄷㅏㄴㅍㅜㅇ	-14819
▁ㅌㅜㅇㅌㅜㅇ	-14820
ㄷㅓㄴㅅㅡ	-14821
ㅁㅏㄴㄱㅗ	-14822
▁ㅇㅗㄻㄱㅕ	-14823
▁ㄴㅏㄱㄹㅏㅇ	-14824
▁ㅂㅐㄱㄱㅡㅁ	-14825
▁UX	-14826
soft	-14827
▁294	-14828
▁boy	-14829
▁Ctrl	-14830
▁West	-14831
ㅇㅡㄹㅎㅗ	-14832
▁ㅅㅣㄹㄱㅘ	-14833
▁Strike	-14834
▁ㄹㅗㄹㅂㅐㄱ	-14835
▁ㅅㅡㄹㄹㅣㅁ	-14836
▁ㅂㅡㄹㄹㅗㄱㅂㅓ	-14837
ini	-14838
blem	-14839
ㄱㅏㅆㄷㅏ	-14840
ㅅㅓㅇㅅㅏ	-14841
▁ㅅㅐㄹㄹㅣ	-14842
▁ㅅㅓㅇㄹㅣ	-14843
▁ㅎㅗㄱㅇㅕ	-14844
▁ㅁㅕㄴㅁㅗㄱ	-14845
▁ㅂㅕㅇㄷㅗㅇ	-14846
▁ㅂㅜㄹㅅㅜㄴ	-14847
▁ㅇㅏㅁㅇㅑㄱ	-14848
▁ㅇㅠㄹㅂㅓㅂ	-14849
▁#.	-14850
▁KCC	-14851
ㅁㅜㄴㅇㅔ	-14852
ㅂㅏㄴㄱㅜ	-14853
▁ㅇㅘㅆㄷㅏ	-14854
▁ㅇㅏㄴㅁㅗㄱ	-14855
▁ㅍㅣㄴㅈㅏㄴ	-14856
▁ㅈㅣㅂㅎㅐㅇㅇㅠ	-14857
▁1001	-14858
▁ㅁㅣㄴㅇㅛ	-14859
ㄴㅏㄹㄹㅣㄴ	-14860
ㅈㅗㅇㅎㅘㄴ	-14861
▁ㅂㅗㄹㅍㅔㄴ	-14862
▁ㅇㅕㄱㄹㅣㄴ	-14863
ㄷㅏㅅㅇㅓㅄㅇㅣ	-14864
ㅊㅡㄴ	-14865
ㅈㅣㅂㄱㅣ	-14866
▁ㄷㅏㄴㄷㅜ	-14867
▁ㅅㅗㅇㅎㅕㄴ	-14868
▁ㅌㅓㄹㅌㅓㄹ	-14869
UB	-14870
ORY	-14871
hone	-14872
▁ITX	-14873
▁PRE	-14874
▁ㅁㅐㄱㄱㅣ	-14875
▁ㅂㅏㄴㅌㅜ	-14876
▁ㅇㅑㅇㅂㅐ	-14877
▁ㄷㅗㄱㅅㅣㄱ	-14878
▁ㄷㅜㅇㄷㅜㅇ	-14879
ㅅㅔㅁㅂㅜ	-14880
▁ㄹㅜㄱㅅㅔㅁㅂㅜ	-14881
▁ㅈㅜㅇㄱㅜㄱㅅㅣㄱ	-14882
▁ㅎㅏㅇㄱㅗㅇㅈㅓㄴ	-14883
uts	-14884
ㅁㅓㅎ	-14885
▁4500	-14886
▁Thank	-14887
▁ㄱㅘㄴㅅㅓ	-14888
▁ㄲㅏㄲㅇㅏ	-14889
▁ㅈㅗㅇㅂㅜㄱ	-14890
▁ㅈㅣㅂㅇㅏㄴㅇㅣㄹ	-14891
mar	-14892
ㅉㅣㅁ	-14893
▁323	-14894
ㅂㅜㄱㅅㅓㄴ	-14895
▁ㅅㅓㅇㄴㅕㄴ	-14896
▁ㅎㅗㅇㅂㅐㄱ	-14897
▁ㅅㅗㄱㅅㅏㄱㅇㅣ	-14898
py	-14899
ICK	-14900
▁ㅌㅖㄴ	-14901
▁ㄱㅗㅇㅎㅗㅁ	-14902
▁ㅎㅑㅇㅇㅕㄴ	-14903
▁ㅈㅡㅂ	-14904
▁ㅉㅘㄱ	-14905
▁BREAK	-14906
▁ㅅㅏㅁㅇㅑㅇ	-14907
▁318	-14908
▁356	-14909
ㅁㅕㄴㅈㅔ	-14910
▁ㅇㅟㅅㅂㅜ	-14911
▁ㅁㅗㅇㅅㅏㅇ	-14912
▁ㅇㅖㅅㅁㅏㄹ	-14913
▁ㄱㅗㅇㄱㅝㄴㄹㅕㄱ	-14914
▁ㅅㅓㅇㅍㅗㄱㄹㅕㄱ	-14915
▁HC	-14916
▁1915	-14917
ㅃㅜㄹㅅㅗ	-14918
▁Block	-14919
▁ㄴㅔㅅㅁㅏ	-14920
▁ㄹㅔㄹㄹㅣ	-14921
▁ㅇㅝㄴㄱㅣ	-14922
▁ㅍㅣㅅㅂㅣㅊ	-14923
▁ㅎㅕㄴㅊㅜㅇ	-14924
▁\"	-14925
ㅈㅔㄴㅌㅡ	-14926
▁ㅎㅏㄱㅇㅜ	-14927
▁ㅇㅕㄴㅈㅓㄱ	-14928
▁ㅇㅣㄹㅊㅜㄱ	-14929
ㄷㅗㅇㅁㅜㄹㅁㅜㄴ	-14930
TY	-14931
▁289	-14932
▁Disc	-14933
ㄷㅏㄱㄸㅡ	-14934
▁ㄱㅗㅇㅍㅏ	-14935
▁ㄱㅜㄴㅅㅗ	-14936
▁ㄷㅗㄹㄱㅐ	-14937
▁Attack	-14938
▁Ban	-14939
▁ㅅㅏㅁㅂㅗ	-14940
▁ㅅㅜㅁㅇㅓ	-14941
▁ㅍㅗㄹㄹㅗ	-14942
▁ㅇㅑㅇㅈㅣㄹ	-14943
▁ㅁㅏㅈㄷㅏㄱㄸㅡ	-14944
▁ㄱㅗㄹㅁㅗㄱㄱㅣㄹ	-14945
cal	-14946
▁TNA	-14947
▁sy	-14948
ㄷㅠㅁ	-14949
▁MBT	-14950
ㅈㅓㅇㅈㅔ	-14951
▁ㅇㅓㄹㅊㅜ	-14952
▁ㅅㅏㅇㅋㅡㅁ	-14953
ㅇㅓㅋ	-14954
▁319	-14955
▁XIV	-14956
▁kHz	-14957
▁ㅁㅔㄹㄹㅏ	-14958
▁ㅂㅏㅁㅎㅏ	-14959
▁ㅂㅣㄱㅅㅡ	-14960
▁ㅊㅏㅁㅅㅐ	-14961
▁ㅊㅗㄱㅁㅐ	-14962
▁ㅇㅐㄴㅌㅣㄱ	-14963
▁ㅇㅣㄹㅁㅏㄹ	-14964
▁ㅈㅓㄴㅁㅏㄹ	-14965
▁ㅊㅓㄴㅈㅓㅇ	-14966
▁ㅈㅡㅇㅁㅕㅇㅅㅓ	-14967
▁Pal	-14968
ㅅㅏㅁㅋㅣ	-14969
ㅈㅓㅇㅈㅏ	-14970
▁ㄱㅏㄹㅂㅏ	-14971
ㅌㅓㄹㄹㅣㅇ	-14972
▁ㄲㅡㄴㄲㅡㄴ	-14973
▁ㄲㅑ	-14974
▁ㅅㅏㄴㅂㅜ	-14975
▁ㅅㅐㅇㅅㅜ	-14976
▁ㅇㅏㄴㅇㅟ	-14977
▁ft	-14978
ㄹㅗㅂㅅㅡ	-14979
▁ㄱㅓㅁㅁㅜ	-14980
▁ㅇㅏㄴㄴㅗ	-14981
▁ㅇㅓㄵㅎㅣ	-14982
ㅇㅝㄴㅊㅏㄶ	-14983
▁ㄷㅗㄱㅎㅏㄱ	-14984
▁ㅎㅏㄱㅅㅏㄴ	-14985
▁Ru	-14986
▁DREAM	-14987
▁ㄷㅏㅇㄷㅗ	-14988
▁ㅂㅔㄴㅊㅓ	-14989
ㄴㄷㅡㄹㄹㅓ	-14990
▁ㅅㅓㅇㄷㅓㄱ	-14991
▁Portable	-14992
▁Dav	-14993
▁ㅊㅣㄴㅎㅣ	-14994
▁ㅅㅣㄱㅊㅜㅇ	-14995
ADA	-14996
▁Us	-14997
▁VO	-14998
▁GRE	-14999
▁ㄷㅓㅁㅍㅡ	-15000
▁ㅂㅗㅇㄱㅗ	-15001
▁ㅊㅗㄴㅅㅡ	-15002
ㅈㅓㄱㅅㅓㄴ	-15003
▁ㄱㅣㅁㅈㅓㅇㅎㅜㄴ	-15004
▁ㅅㅐㅇㄱㅏㄱㅇㅓㅄㅇㅣ	-15005
ㄲㅡㅀ	-15006
▁car	-15007
▁could	-15008
▁ㅍㅏㄹㄹㅗ	-15009
ㅇㅓㄴㅈㅏㅇ	-15010
▁ㅅㅣㄱㄱㅐㄱ	-15011
▁how	-15012
▁ㄴㅗㄱㅊㅏ	-15013
▁ㄷㅗㄱㅊㅏ	-15014
▁ㅅㅣㄹㅂㅔ	-15015
▁ㄱㅕㄹㅅㅏㄴ	-15016
▁ㄱㅣㅁㅅㅏㅇㅎㅕㄴ	-15017
**	-15018
▁star	-15019
▁ㄴㅗㅇㅅㅏㄴㅁㅜㄹ	-15020
▁bu	-15021
▁Cytus	-15022
▁Prime	-15023
▁Water	-15024
▁ㅇㅏㄹㅋㅏ	-15025
ㅇㅟㅇㅋㅡㄹ	-15026
▁ㄱㅡㄱㅅㅏㅇ	-15027
▁ㅍㅏㄹㄹㅏㅇ	-15028
VR	-15029
ev	-15030
▁ㅂㅓㅂㄷㅐ	-15031
▁ㄱㅘㄱㅈㅓㅇ	-15032
▁ㄷㅏㄴㅁㅕㄴ	-15033
▁ㄸㅏㄴㅍㅏㄴ	-15034
▁297	-15035
▁ㅁㅔㅁ	-15036
ㄷㅔㄹㄹㅏ	-15037
ㄹㅓㄴㅌㅏ	-15038
ㅇㅘㄴㅇㅛㅇ	-15039
▁ㅂㅐㄹㄹㅓㄴㅌㅏ	-15040
akao	-15041
▁316	-15042
▁Son	-15043
ㄹㅡㅁㅍㅛ	-15044
▁ㄱㅏㅇㅅㅣㄴ	-15045
▁ㅇㅣㅂㅈㅏㅇㄹㅛ	-15046
▁ZUN	-15047
▁ㄱㅜㄴㄷㅗ	-15048
ㅇㅛㅇㅅㅓㄱ	-15049
▁ㄱㅜㄴㄱㅘㄴ	-15050
▁ㅇㅕㄱㄱㅕㅂ	-15051
▁ep	-15052
▁Book	-15053
▁TYPE	-15054
ㄷㅗㅇㅎㅕㄴ	-15055
▁ㅇㅣㅁㅅㅓㅇ	-15056
▁ㅊㅓㄴㅊㅣㅇ	-15057
▁ah	-15058
▁ㅍㅏㄹㄸㅜㄱ	-15059
▁ㄹㅣㅇㅇㅓ	-15060
▁ㅅㅔㄹㅋㅏ	-15061
▁ㅇㅕㅇㅂㅜ	-15062
▁ㅍㅣㄹㅎㅣ	-15063
▁ㅅㅣㄹㅈㅗㅇㅈㅏ	-15064
▁Sal	-15065
▁ROCK	-15066
▁ㅅㅜㄹㄹㅐ	-15067
▁ㅇㅠㄱㄷㅗ	-15068
▁ㅊㅐㄱㅅㅏ	-15069
ㄱㅕㅂㅅㅏㄹ	-15070
▁ㄱㅏㅁㄹㅑㅇ	-15071
▁ㅂㅗㄱㅅㅗㄱ	-15072
▁ㅈㅏㅇㅇㅡㅁ	-15073
ese	-15074
▁870	-15075
▁away	-15076
ㄱㅗㅇㄱㅐ	-15077
ㅁㅓㄴㅈㅣ	-15078
▁ㄱㅡㅁㄱㅚ	-15079
▁ㅎㅏㄹㅇㅐ	-15080
▁ㅁㅏㄴㄴㅕㄴㅍㅣㄹ	-15081
▁ㅇㅠㄴㅅㅓㅇㅎㅘㄴ	-15082
▁SAS	-15083
▁ㅅㅕㅅㅇㅏ	-15084
▁ㅈㅜㄹㅊㅏㅇ	-15085
▁ㅁㅕㅇㅁㅜㄴㄱㅏ	-15086
▁Vi	-15087
▁Pur	-15088
▁ㄴㅔㄴ	-15089
▁ㅂㅏㄱㅇㅣㄴ	-15090
▁ㅂㅓㅁㅅㅏㅇ	-15091
▁ㅍㅕㅇㅍㅕㅇ	-15092
▁ㅂㅜㄹㅇㅜ	-15093
▁ㄷㅗㅇㅅㅣㅁ	-15094
▁ㅇㅡㅁㅈㅓㅇ	-15095
▁ㅇㅡㅁㅈㅣㄱ	-15096
▁ㅎㅔㄹㄹㅔㄴ	-15097
▁ㅅㅐㅇㅎㅘㄹㅂㅣ	-15098
▁404	-15099
▁TSM	-15100
▁ㅎㅟㄱ	-15101
▁miss	-15102
▁Heavy	-15103
ㅈㅣㄴㄱㅜㄴ	-15104
▁ㄱㅕㅇㅅㅏㄴㅅㅣ	-15105
ㅎㅓㄹ	-15106
▁ㄱㅘㅁ	-15107
▁Ever	-15108
▁ㅋㅏㄹㅂㅏ	-15109
ㅎㅏㅂㅁㅜㄹ	-15110
▁ㅅㅏㅁㄱㅕㅂㅅㅏㄹ	-15111
▁ㅅㅗㅇㅊㅏㅇㅅㅣㄱ	-15112
ISE	-15113
▁1916	-15114
▁ㄱㅘㅇㅎㅟ	-15115
▁ㅍㅡㄹㄹㅐㅇㅋㅡ	-15116
▁ㅇㅏㄴㅈㅜㅇㄱㅡㄴ	-15117
▁HM	-15118
▁Exper	-15119
▁ㄷㅏㅇㄱㅗ	-15120
▁ㅅㅏㄴㅇㅑㅇ	-15121
▁ㅈㅓㄴㅇㅣㅂ	-15122
sw	-15123
dom	-15124
▁Rh	-15125
acle	-15126
ㅇㅜㄴㅌㅏ	-15127
ㅇㅣㄹㄹㅔ	-15128
ㅌㅏㄴㄷㅜ	-15129
ㅎㅏㅇㅅㅣ	-15130
▁Guard	-15131
ㅅㅓㅇㄷㅏㅇ	-15132
▁ㄱㅗㄹㅁㅣㅌ	-15133
▁TJ	-15134
IDIA	-15135
▁278	-15136
▁ㄴㅏㅁㅌㅐ	-15137
▁ㄱㅓㅁㅅㅣㄴ	-15138
▁ㅈㅣㄴㅊㅓㄴ	-15139
▁ㅂㅏㄱㄹㅏㅁㅎㅚ	-15140
axy	-15141
▁SAM	-15142
ㅋㅗㄴㅅㅓ	-15143
▁ㅈㅏㅇㅇㅓ	-15144
▁ㄱㅗㄱㅅㅣㄱ	-15145
▁ㅅㅏㅇㄱㅜㄱ	-15146
▁ㄱㅏㅇㄷㅗㅇㄱㅜ	-15147
▁ㅎㅘㅇㄱㅡㅂㅎㅣ	-15148
ㄹㅐㄴㄷㅓ	-15149
ㅎㅕㅂㅎㅚ	-15150
onight	-15151
▁ㄴㅜㄴㄸㅡ	-15152
▁ㅇㅕㄴㅅㅣㅁ	-15153
▁ㅍㅓㄴㄷㅣㅇ	-15154
▁ㄱㅘㅇㅇㅕㄱㅈㅏ	-15155
▁ㅇㅗㄴㄱㅓㄴㅍㅏ	-15156
ㅌㅗㄹㄹㅔ	-15157
▁ㅁㅜㄴㅂㅜ	-15158
▁ㅅㅣㄴㄱㅖ	-15159
▁ㅈㅏㄴㄱㅣ	-15160
▁ㅊㅓㄱㅌㅏㄴㅂㅕㅇ	-15161
▁415	-15162
▁IOC	-15163
▁RES	-15164
▁ㅇㅕㅇㅈㅔ	-15165
ㅈㅜㄴㅎㅕㅇ	-15166
▁Forever	-15167
ㄷㅏㅁㅇㅓㅄㅇㅣ	-15168
oto	-15169
▁ㄱㅣㅁㅎㅛ	-15170
▁ㅇㅓㄴㅈㅓ	-15171
▁ㅈㅡㅇㅈㅗ	-15172
ㅊㅓㄹㅇㅕㄱ	-15173
ㅇㅕㄴㅊㅏㄶ	-15174
▁CINDER	-15175
min	-15176
▁~!!	-15177
▁ㅅㅣㄹㅍㅣ	-15178
▁ㅇㅣㅁㅍㅏ	-15179
▁ㅂㅜㅌㄷㅡㄹ	-15180
▁ㄱㅗㅇㄷㅗㄹㅇㅣ	-15181
▁act	-15182
▁ㄱㅐㅁ	-15183
▁name	-15184
ㄴㅏㄴㅎㅐ	-15185
ㅁㅜㄴㄱㅗ	-15186
▁GIRLS	-15187
▁ㄱㅏㄴㄷㅣ	-15188
▁ㅇㅕㄱㅎㅛ	-15189
▁ㅍㅗㄱㅅㅗ	-15190
▁ㅂㅏㄹㄱㅣㄹ	-15191
▁ㅅㅣㅁㅅㅓㅇ	-15192
ㅇㄱㅜㄹ	-15193
▁Blade	-15194
▁ㅂㅏㄴㅁㅗㄱ	-15195
▁CINDERELLA	-15196
ㅂㅔㄹㅅㅏㅇ	-15197
ㅇㅓㅂㅇㅣㄴ	-15198
▁ㄱㅕㅇㄱㅏㅇ	-15199
▁ㅎㅡㅇㄱㅜㄱ	-15200
▁KOO	-15201
▁ㄴㅏㅁㅇㅜ	-15202
▁ㄱㅡㅂㅈㅓㄴ	-15203
▁ㄱㅗㄹㅊㅣㅅㄱㅓ	-15204
▁ㅅㅣㄴㄱㅕㅇㅈㅣㄹ	-15205
ㅈㅓㅇㅅㅜ	-15206
▁ㄴㅏㄹㅈㅗ	-15207
▁ㅁㅕㅇㄷㅗ	-15208
▁ㅊㅓㄴㅂㅜ	-15209
ㅊㅜㅇㅈㅓㄴ	-15210
▁ㅍㅏㄹㄷㅏㄹ	-15211
▁ㅅㅏㅁㄱㅜㄱㅇㅠ	-15212
72	-15213
▁283	-15214
▁SOS	-15215
▁ㄱㅏㄴㅌㅗ	-15216
▁ㄱㅏㅁㅊㅗ	-15217
▁ㄱㅜㅇㄱㅣ	-15218
▁ㅈㅏㅂㄱㅣ	-15219
▁ㄱㅏㄴㄷㅏㄹ	-15220
▁ㄱㅕㄹㄹㅕㄹ	-15221
▁ㄱㅗㄹㄷㅗㅇ	-15222
▁ㅂㅏㄱㄱㅓㄴ	-15223
▁ㅅㅏㄹㅅㅏㄹ	-15224
▁ㅅㅣㅁㅊㅡㅇ	-15225
▁ㅊㅡㄴㅊㅡㄴ	-15226
▁ㅍㅗㄱㅈㅓㅇ	-15227
▁HQ	-15228
▁Jo	-15229
▁SEC	-15230
ㅂㅏㄷㅇㅏ	-15231
ㅂㅐㄱㄷㅗ	-15232
▁Armor	-15233
▁Princ	-15234
▁ㅂㅔㅇㄱㅓ	-15235
▁ㅅㅣㅁㅈㅐ	-15236
▁ㅎㅣㄹㄹㅣ	-15237
▁ㅊㅏㅁㅂㅐㄱㄷㅗ	-15238
▁399	-15239
▁Tok	-15240
▁~!"	-15241
▁Card	-15242
ㅇㅝㄴㄱㅗ	-15243
▁ㅁㅕㅇㄱㅘ	-15244
▁ㅁㅕㅇㅂㅜ	-15245
▁ㅍㅜㅇㅈㅗ	-15246
▁Ax	-15247
▁TBD	-15248
▁ㅁㅕㅇㄱㅏ	-15249
▁ㅇㅘㄴㅈㅏㅇ	-15250
▁ㅇㅝㅁㅎㅗㄹ	-15251
▁Ra	-15252
▁ㄲㅟ	-15253
ㄸㅐㅇ	-15254
▁DRA	-15255
▁che	-15256
▁ㄹㅜㄱㅅㅡ	-15257
▁ㅇㅕㄴㅈㅔ	-15258
ㅁㅏㄱㅅㅣㄱ	-15259
ㅁㅜㄹㅈㅣㄹ	-15260
▁ㅅㅣㄴㄹㅏㄹ	-15261
▁ㅇㅣㄴㅂㅓㅂ	-15262
▁ㅊㅜㄴㅎㅑㅇ	-15263
▁ㄱㅣㅁㄱㅕㅇㄹㅏㄴ	-15264
▁TI	-15265
RESS	-15266
▁ROM	-15267
▁ㄱㅘㄴㄷㅗ	-15268
▁ㅇㅗㄱㅈㅘ	-15269
▁ㄱㅣㅁㄷㅗㅇㅈㅜ	-15270
▁JA	-15271
▁Ve	-15272
▁ㄱㅗㄹㅈㅏ	-15273
ㅇㅘㄴㄱㅕㄴ	-15274
▁ㅅㅐㄱㅈㅓㄱ	-15275
▁ㅅㅡㄹㄹㅓㅁ	-15276
▁ㅇㅏㄱㅅㅓㅇ	-15277
▁ㅇㅏㄴㅈㅔㄹㄹㅗ	-15278
UMI	-15279
▁Py	-15280
▁ㄲㅏㅂ	-15281
▁Prim	-15282
▁ㅋㅏㄴㅌㅡ	-15283
▁ㄷㅏㄴㅉㅏㄱ	-15284
▁ㄷㅓㄴㅋㅓㄴ	-15285
▁ㅂㅜㄱㄷㅗㅇㅉㅗㄱ	-15286
cy	-15287
▁930	-15288
▁1909	-15289
ㅂㅓㄹㄹㅣ	-15290
▁ㅇㅑㄱㅅㅗ	-15291
▁ㅇㅕㄱㄱㅕㅇ	-15292
▁MLG	-15293
ection	-15294
▁ㅅㅗㄴㅍㅐ	-15295
▁ㄱㅡㅂㅈㅏㄱ	-15296
▁ㅇㅗㄴㄴㅏㄴ	-15297
▁ㅇㅡㅁㄷㅗㄱ	-15298
▁ㄱㅣㅁㅇㅣ	-15299
▁ㅈㅏㅇㅌㅓ	-15300
▁CNG	-15301
atter	-15302
ㄷㅓㅍㅇㅣ	-15303
ㅁㅔㄴㅅㅡ	-15304
ㅇㅛㅇㅅㅣㄹ	-15305
▁ㅇㅕㅇㅅㅏㄴ	-15306
▁ㅇㅝㄹㄴㅏㅁ	-15307
▁ㅇㅣㄴㅈㅡㄱ	-15308
▁ㅎㅗㅇㅁㅜㄴ	-15309
▁ㄱㅗㅇㅎㅏㅇㅊㅓㄹㄷㅗ	-15310
▁LD	-15311
over	-15312
▁est	-15313
▁ㅋㅟㄴㅅㅣ	-15314
▁ㄴㅏㄴㅂㅏㅇ	-15315
▁ㅇㅕㅇㅇㅝㄹ	-15316
▁du	-15317
▁ㅁㅕㅇㄱㅣ	-15318
▁ㅈㅜㅇㅇㅣㄹ	-15319
▁ㅈㅣㄱㄱㅕㅇ	-15320
▁274	-15321
▁und	-15322
ㄹㅔㄴㅊㅔ	-15323
ㅇㅘㄹㄷㅡ	-15324
▁Studio	-15325
▁ㄱㅡㄴㅈㅓㄹ	-15326
▁ㄱㅡㅁㄴㅏㅁ	-15327
▁ㅇㅕㄹㅁㅏㅇ	-15328
▁ㅎㅏㅂㅂㅏㅇ	-15329
▁RG	-15330
iger	-15331
▁Ris	-15332
▁1906	-15333
▁ㄱㅏㅇㅈㅣ	-15334
▁ㅇㅛㅇㅎㅏ	-15335
▁ㄱㅓㅁㅅㅣㅁ	-15336
apon	-15337
ㄱㅕㅇㄷㅏㄴ	-15338
▁ㄱㅕㅇㅇㅕㅇㅈㅣㄴ	-15339
▁ㄱㅗㅂㅎㅏ	-15340
▁ㄱㅜㄹㅎㅏ	-15341
▁ㅂㅣㄱㄹㅣ	-15342
▁ㅆㅏㅇㅅㅜ	-15343
▁ㅅㅏㄴㄱㅜㄴ	-15344
▁API	-15345
▁NPB	-15346
ㅅㅕㄴㅅㅡ	-15347
ㅍㅏㄹㅌㅡ	-15348
▁ㅊㅓㅇㅂㅏ	-15349
▁ㄷㅏㅂㅈㅏㅇ	-15350
▁ㅇㅕㄴㅅㅣㄱ	-15351
▁ㅅㅓㄴㄷㅓㄱㅇㅕ	-15352
▁LEG	-15353
▁rpm	-15354
▁ㅎㅔㅅ	-15355
▁Wave	-15356
ㅇㅝㄴㅇㅕ	-15357
▁ㄲㅡㅌㅈㅏ	-15358
▁ㅁㅏㅈㅉㅏㅇ	-15359
▁ㅈㅗㅇㄷㅏㄴ	-15360
▁Hall	-15361
▁ㅇㅐㅁㅂㅓ	-15362
▁ㅇㅠㄱㄱㅛ	-15363
▁ㅇㅣㄹㄲㅐ	-15364
▁ㄴㅔㄱㅌㅗㄴ	-15365
▁ㅅㅓㅇㄱㅜㄴ	-15366
▁ㄴㅖ	-15367
▁Coun	-15368
▁ㅁㅓㄱㄱㅓ	-15369
▁ㅇㅑㄱㅎㅏㄱ	-15370
▁ㅌㅜㄱㅌㅜㄱ	-15371
▁JO	-15372
▁KAC	-15373
ㄹㅏㅇㅅㅜ	-15374
ㅍㅔㄴㅅㅠ	-15375
▁ㅅㅏㅁㅁㅣ	-15376
ㅅㅗㅇㅇㅕㄱ	-15377
▁ㅅㅜㄴㄱㅕㄹ	-15378
▁ㅁㅜㄹㄷㅡㄹㅇㅣ	-15379
▁30000	-15380
▁ㅅㅏㄴㅍㅏ	-15381
▁ㅇㅝㄹㄱㅖ	-15382
▁ㅈㅓㅇㅎㅗ	-15383
ㄴㅏㄴㅁㅏㄴ	-15384
▁ㄲㅡㄴㅈㅓㄱ	-15385
ript	-15386
▁030	-15387
▁DARK	-15388
▁PRIME	-15389
▁ㄱㅘㄴㄷㅜ	-15390
▁ㅅㅗㄴㅂㅗ	-15391
ㅇㅑㅇㄱㅘㅇ	-15392
▁ㅇㅕㅇㄱㅓㄹ	-15393
▁ㅇㅣㄴㅁㅏㅇ	-15394
▁ㅊㅏㅁㄱㅡㄱ	-15395
▁ㅊㅓㄴㅈㅣㄴㄴㅏㄴㅁㅏㄴ	-15396
▁Kr	-15397
▁ㄹㅏㄴㅌㅣ	-15398
▁ㅁㅐㄱㅅㅣㅁ	-15399
▁ㅇㅡㄴㅇㅕㄴ	-15400
▁ㅊㅓㄴㅇㅓㄱ	-15401
▁ㅎㅗㄴㅅㅣㄴ	-15402
yp	-15403
▁OH	-15404
ㅋㅡㄹㅅㅡ	-15405
▁ㅈㅗㅇㄹㅐ	-15406
▁ㅍㅐㅇㅇㅣ	-15407
ㅇㅕㅇㅈㅜㄴ	-15408
▁ㅌㅗㅇㅅㅣㄴㅁㅏㅇ	-15409
...	-15410
▁FU	-15411
▁Fin	-15412
▁Chall	-15413
ㄷㅏㅇㄷㅗㅇ	-15414
▁ㅇㅣㄹㅁㅐㄱ	-15415
▁ㅎㅏㄴㄹㅣㅁ	-15416
92	-15417
come	-15418
▁271	-15419
ating	-15420
▁kill	-15421
▁ㄷㅗㄴㄱㅏ	-15422
▁ㅆㅓㄹㄹㅣ	-15423
ㄹㅓㅁㅌㅗㅇ	-15424
▁ㄱㅘㄴㄱㅗㅇ	-15425
NO	-15426
item	-15427
▁nhn	-15428
▁ㄹㅐㅂㅅㅗ	-15429
▁ㅋㅐㅅㅊㅡ	-15430
▁ㅍㅏㄴㅅㅓ	-15431
ㅇㅠㄴㅅㅓㄴ	-15432
▁ㄲㅏㄴㄲㅏㄴ	-15433
▁ㄷㅡㄹㄹㅏㄱ	-15434
▁Dom	-15435
▁MID	-15436
▁YTN	-15437
ㅌㅠㄴㅈㅡ	-15438
▁Honey	-15439
▁ㅁㅛㄹㄴㅣ	-15440
▁ㅇㅘㄴㅍㅏ	-15441
▁ㅊㅓㅇㄷㅗ	-15442
▁ㄱㅡㄱㅂㅗㄴ	-15443
▁ㅂㅕㅇㅇㅡㅁ	-15444
SC	-15445
▁did	-15446
▁Child	-15447
▁ㅅㅓㄴㅎㅘ	-15448
▁ㅇㅣㄴㅅㅔ	-15449
▁ㄱㅜㄴㅂㅓㄴ	-15450
▁ㄷㅡㄹㄲㅡㅀ	-15451
▁ㅈㅓㄱㅂㅏㄴ	-15452
▁ㅌㅏㅁㅂㅏㅇ	-15453
▁ㅂㅏㄱㅇㅛㅇㅌㅐㄱ	-15454
▁ㄱㅕㅂㅊㅕ	-15455
ㅈㅏㅇㅇㅣㄴ	-15456
ㅌㅗㅇㅍㅕㄴ	-15457
▁ㅁㅜㄴㅁㅐㄱ	-15458
▁ㅈㅣㄴㅅㅓㄴ	-15459
▁ㅊㅐㄱㅈㅏㅇ	-15460
▁General	-15461
ㅂㅡㄹㅂㅣ	-15462
▁ㄴㅣㅅㅌㅏ	-15463
▁ㅅㅏㄴㅁㅏ	-15464
ㅇㅝㄴㅅㅓㄱ	-15465
▁ㅆㅓㄹㄹㅓㅇ	-15466
▁ㅇㅛㅇㄱㅓㅁ	-15467
HO	-15468
▁384	-15469
▁3200	-15470
▁ㅅㅏㅁㅇㅟ	-15471
▁ㅅㅏㅇㅂㅣ	-15472
▁NVIDIA	-15473
▁Machine	-15474
▁ㄷㅗㄴㅂㅓㄹㅇㅣ	-15475
▁ㄷㅟㅅㄱㅗㄹㅁㅗㄱ	-15476
▁1913	-15477
ㄷㅗㅇㅅㅜ	-15478
ㄷㅗㅇㅎㅐ	-15479
ㄸㅐㅇㅇㅣ	-15480
ㄹㅐㄴㅈㅓ	-15481
ㅂㅏㅇㅊㅏ	-15482
▁ㅅㅣㄱㅅㅜ	-15483
▁ㅈㅏㅇㅁㅗ	-15484
▁ㄱㅏㅂㄱㅏㄱ	-15485
▁ㅂㅜㄹㅎㅏㅂ	-15486
▁ㅎㅕㄴㅅㅐㅇ	-15487
▁ㅇㅣㅁㅅㅏㄴㅂㅜ	-15488
▁ㄱㅣㅁㅅㅓㅇㅎㅕㄴ	-15489
▁ㅂㅏㄹㄱㅓㄹㅇㅡㅁ	-15490
▁740	-15491
▁TOUR	-15492
▁ㅂㅕㄹㅎㅗ	-15493
▁ㅂㅕㅇㅁㅏ	-15494
▁ㅇㅕㄴㅍㅛ	-15495
▁ㅎㅔㄴㄷㅡ	-15496
LR	-15497
alth	-15498
ㄷㅗㄴㄴㅏ	-15499
▁ㅂㅏㅇㄹㅏㅇㅈㅏ	-15500
▁ㅈㅏㄱㅇㅓㅂㅈㅏㅇ	-15501
▁ㅊㅘㄹㅇㅕㅇㅈㅏㅇ	-15502
▁1904	-15503
ㅅㅣㄱㄱㅣ	-15504
▁ㅊㅏㅁㅂㅐ	-15505
▁ㅁㅏㄴㅂㅏㄹ	-15506
▁its	-15507
▁ㅅㅓㄱㄱㅝㄴ	-15508
ㄴㅈㅣㄹ	-15509
▁Lady	-15510
ㅁㅗㄹㄹㅣ	-15511
▁ㅂㅜㄱㅎㅐ	-15512
▁ㅎㅗㄴㄱㅗ	-15513
ination	-15514
▁ㄱㅘㄴㅊㅓㅇ	-15515
▁Nod	-15516
▁exp	-15517
▁ㄱㅕㅇㅁㅜ	-15518
▁ㄴㅏㅁㅊㅗ	-15519
▁ㄷㅗㄹㅍㅡ	-15520
▁ㅁㅗㅁㄷㅏㅁ	-15521
▁ㄱㅏㄴㄷㅏㅁㅎㅚ	-15522
▁ㅉㅓㄹㅉㅓㄹㅁㅐ	-15523
ㅈㅗㅇㄱㅣ	-15524
▁ㅇㅏㄴㅅㅣ	-15525
ㄹㅕㅇㅅㅓㄴ	-15526
▁ㅁㅏㅅㅇㅓㅄ	-15527
▁ㅇㅏㅍㅂㅏㄹ	-15528
▁ㅈㅓㅇㅂㅕㅇ	-15529
▁ㄱㅏㄹㄹㅣㄹㄹㅔ	-15530
▁ㅇㅜㄴㅈㅓㄴㅅㅓㄱ	-15531
▁Vis	-15532
▁ㄱㅘㄴㄱㅜ	-15533
▁ㅈㅜㅇㅈㅜ	-15534
▁ㅊㅓㄹㅍㅖ	-15535
▁ㅁㅜㄴㅈㅗㅇ	-15536
▁ㅇㅣㄹㅅㅜㄴ	-15537
▁ㅌㅏㄹㅈㅣㄴ	-15538
▁Command	-15539
▁ㅊㅏㅇㄹㅣㅂㅈㅏ	-15540
▁ㅎㅐㅇㅈㅓㅇㅎㅏㄱ	-15541
▁Mom	-15542
ㅅㅣㄱㅈㅜ	-15543
▁ㅃㅐㅇㅅㅗ	-15544
▁ㅈㅣㅇㄱㅡ	-15545
▁ㄱㅏㄹㅈㅡㅇ	-15546
▁ㅇㅕㄴㄲㅗㅊ	-15547
▁ㅈㅓㅁㅊㅓㄹ	-15548
▁ㅊㅏㅁㄱㅕㄴ	-15549
▁ㄱㅗㅇㄱㅕㄱㅈㅏ	-15550
▁ㅍㅟ	-15551
▁mix	-15552
ㄱㅣㄹㅇㅣ	-15553
▁ㅅㅏㅁㅎㅘ	-15554
▁ㅎㅘㄴㅅㅣ	-15555
ㄱㅏㅂㅂㅕㅇ	-15556
▁iPhone	-15557
▁ㅌㅡㄱㅁㅕㅇ	-15558
ㅌㅗㅇㄹㅕㅇㄹㅕㅇ	-15559
▁ㅅㅏㅇㅅㅏㅇㄹㅕㄱ	-15560
▁298	-15561
▁331	-15562
▁BRT	-15563
anced	-15564
▁ㄱㅗㅇㅈㅔ	-15565
▁ㅇㅣㅂㅎㅚ	-15566
▁AX	-15567
ㅃㅐㄱ	-15568
▁385	-15569
ㄹㅏㅇㄷㅡ	-15570
▁ㅇㅕㅁㄱㅣ	-15571
ㅇㅜㄹㄹㅣㅇ	-15572
▁ㄱㅕㅇㄱㅏㅂ	-15573
▁ㅃㅐㄱㅃㅐㄱ	-15574
▁282	-15575
ports	-15576
ㅇㅡㅁㅆㅣ	-15577
▁ㅅㅠㄴㅅㅡ	-15578
ㄲㅓㅂㅈㅣㄹ	-15579
▁ㅇㅞㅂㅈㅣㄴ	-15580
emo	-15581
▁may	-15582
arden	-15583
▁Adren	-15584
ㅈㅓㅇㄴㅏㄴ	-15585
▁ㅋㅓㄴㅂㅔㄴ	-15586
▁ㅎㅏㅇㅂㅓㅂ	-15587
▁ㅇㅏㄹㄹㅔㄱㅅㅔ	-15588
▁ㅂㅗㅇㅈㅜㅇㄱㅡㄴ	-15589
▁ㅅㅗㄱㅅㅏㄱㅇㅣㅁ	-15590
ARS	-15591
▁wr	-15592
▁ㄱㅜㄴㅈㅓㅇ	-15593
▁big	-15594
▁ㅁㅏㄴㄷㅓㄱ	-15595
▁ㅅㅏㅁㄱㅜㄱㅈㅓㄴㅌㅜ	-15596
▁Sat	-15597
▁Vict	-15598
ㄱㅡㄹㄹㅜ	-15599
▁ㅎㅏㅅㄷㅗ	-15600
ㅇㅓㄱㄹㅕㄱ	-15601
▁ㄱㅣㅁㅁㅕㅇㅇㅜㄴ	-15602
▁Jump	-15603
ㅌㅔㄹㄹㅔ	-15604
ession	-15605
ㅈㅓㄴㄱㅜㄴ	-15606
cept	-15607
▁Dear	-15608
▁PACK	-15609
ㅍㅓㄹㅌㅡ	-15610
▁ㄱㅗㅇㅈㅗ	-15611
▁ㅎㅘㅇㅇㅟ	-15612
▁ㄴㅏㅁㅅㅗㅇ	-15613
▁ㅁㅕㅇㅁㅜㄹ	-15614
▁ㅈㅐㅅㅂㅣㅊ	-15615
▁ㅊㅏㅁㅅㅏㄹ	-15616
▁ㅌㅗㄹㅋㅣㄴ	-15617
ㄹㅓㅂㅇㅕㄴㅎㅏㅂ	-15618
▁ㅅㅏㅇㅍㅜㅁㄱㅝㄴ	-15619
▁435	-15620
▁ㅁㅗㄱㅊㅏ	-15621
▁ㅊㅓㅅㄴㅜㄴ	-15622
▁ㅈㅓㄱㅂㅜㄴ	-15623
▁Pt	-15624
ㅈㅔㄹㄹㅗ	-15625
▁ㄱㅡㅁㄹㅣ	-15626
▁ㅆㅏㅇㄷㅜ	-15627
▁ㅇㅑㅇㅅㅔ	-15628
▁ㅇㅔㄹㅂㅗ	-15629
▁ㅈㅓㅂㅎㅣ	-15630
▁ㅈㅓㅇㅍㅕㅇ	-15631
▁DESTINY	-15632
▁ㅇㅜㄹㄹㅡㅇㄷㅗ	-15633
▁Want	-15634
▁ㄱㅓㅁㅈㅣ	-15635
aven	-15636
▁CCC	-15637
▁Evil	-15638
ㅌㅣㅇㅇㅓ	-15639
ㅓㄹㅇㅓㅄ	-15640
▁ㅇㅝㄹㅎㅏ	-15641
▁ㅊㅏㄴㄷㅡ	-15642
▁ㅂㅜㄹㅂㅗㄱ	-15643
▁ㅇㅏㅍㄱㅣㄹ	-15644
▁ㅊㅓㄹㅇㅓㅄ	-15645
▁ㅎㅏㄴㅇㅕㅇ	-15646
▁WD	-15647
▁XT	-15648
akes	-15649
ㅈㅓㅇㅂㅗ	-15650
▁ㄱㅜㄱㅎㅘ	-15651
▁ㅌㅐㄱㅌㅡ	-15652
ㅇㅝㄴㅂㅕㅇ	-15653
▁ㄴㅏㅁㄱㅕㅇ	-15654
▁ㄴㅏㅁㄱㅜㄴ	-15655
▁ㅅㅏㅇㅎㅏㄴㅅㅓㄴ	-15656
uit	-15657
ifle	-15658
▁Far	-15659
▁Rap	-15660
▁ㄱㅘㅇㅈㅏ	-15661
▁ㅇㅣㄴㅂㅣ	-15662
▁ㅊㅏㅇㅂㅐㄱ	-15663
▁ㅅㅜㄴㄷㅐ	-15664
▁ㅊㅣㅁㄹㅖ	-15665
▁ㄱㅣㄴㅁㅣㄹ	-15666
▁ㅁㅕㅇㅎㅚ	-15667
▁ㅂㅏㄱㅅㅓ	-15668
▁ㅈㅏㅂㅎㅘ	-15669
▁ㅇㅝㄴㅅㅣㅁ	-15670
▁ㅈㅓㄴㅎㅕㄴ	-15671
▁ㅇㅏㄹㅇㅑㄱ	-15672
▁ㅇㅗㄱㅎㅘㅇ	-15673
▁ㅇㅛㅇㅁㅜㄴ	-15674
▁ㅈㅓㄴㄴㅡㅇ	-15675
▁ㅍㅜㅇㅈㅗㄱ	-15676
▁ㅎㅕㄴㅅㅣㄴ	-15677
▁ㅇㅑㅇㅅㅓㅇㅅㅗ	-15678
ㅋㅝㄴ	-15679
▁ㄷㅗㄱㄱㅘ	-15680
▁ㅂㅣㅅㅂㅏㄹ	-15681
▁ㅅㅐㄱㅇㅣㄴ	-15682
▁ㅁㅏㄴㅅㅣㄴㅊㅏㅇㅇㅣ	-15683
TRA	-15684
▁012	-15685
▁ㅅㅗㄹㄹㅓ	-15686
▁ㅅㅣㄱㄹㅛ	-15687
▁ㅇㅏㄹㄹㅗㄴㅅㅗ	-15688
94	-15689
ㄷㅐㅇ	-15690
▁MISS	-15691
▁ㄱㅡㅁㅅㅐ	-15692
▁ㄷㅏㅁㅇㅏ	-15693
▁ㅅㅣㄹㅎㅛ	-15694
▁ㅇㅣㄴㅂㅜ	-15695
ㅎㅘㄹㅅㅓㅇ	-15696
▁United	-15697
▁ㅎㅏㄱㅅㅣㄹ	-15698
▁Microsoft	-15699
▁OD	-15700
ears	-15701
▁Dog	-15702
▁ㅆㅐㅁ	-15703
▁Mill	-15704
▁Right	-15705
▁ㅁㅏㄴㅅㅏ	-15706
▁ㅋㅗㄴㄹㅏ	-15707
ㅈㅓㄴㅈㅏㅇ	-15708
▁ㅅㅏㄴㅇㅣㄴ	-15709
▁ㅈㅓㄴㄴㅕㄴㄷㅗ	-15710
UPA	-15711
aken	-15712
▁Pri	-15713
order	-15714
▁HAPPY	-15715
▁ㄱㅝㄴㅇㅗ	-15716
▁ㅇㅡㄴㅇㅠ	-15717
▁little	-15718
▁ㅇㅜㅁㅉㅏㄹ	-15719
[...]
