▁▃ -0
▁ㅇ -1
▁ㅇㅡ -2
▁ㄷ -3
▁. -4
▁ㄱ -5
▁ㅇㅔ -6
ㅡㄴ -7
▁ㄴ -8
▁ㅇㅡㄹ -9
▁ㅇㅢ -10
▁ㄷㅏ -11
▁ㄴㅡㄴ -12
▁ㄹ -13
▁이 -14
▁, -15
▁하 -16
▁ㅎ -17
▁ㅇㅣ -18
ㅏㄴ -19
▁ㅇㅡㄴ -20
ㅡㄹ -21
ㅅㅓ -22
▁1 -23
▁ㄹㅡㄹ -24
▁ㅇㅓ -25
▁ㄱㅗ -26
▁년 -27
▁ㅎㅏㄴ -28
▁ㅇㅡㄹㅗ -29
▁ㅇㅔㅅㅓ -30
▁2 -31
▁ㄱㅏ -32
▁있 -33
▁ㄹㅗ -34
▁되 -35
▁ㅇㅕ -36
▁대 -37
▁사 -38
▁ㅇㅓㅆ -39
▁ㅎㅐ -40
ㄷㅏ -41
ㅁㅕ -42
▁그 -43
ㅈㅣ -44
▁일 -45
▁시 -46
▁ㄱㅘ -47
▁지 -48
▁들 -49
▁수 -50
▁ㅎㅐㅆ -51
▁기 -52
▁전 -53
▁적 -54
▁ㅇㅕㅆ -55
▁ㅇㅘ -56
▁20 -57
▁아 -58
▁ㄷㅗ -59
▁ㅇㅣㄴ -60
▁가 -61
▁월 -62
▁제 -63
▁ㅁㅕ -64
▁19 -65
▁ㄷㅚ -66
▁정 -67
▁다 -68
▁주 -69
▁ㅂ -70
▁중 -71
▁자 -72
▁ㅈㅣ -73
ㅏㄹ -74
▁공 -75
▁ㄷㅚㄴ -76
▁경 -77
▁개 -78
▁인 -79
ㅎㅐ -80
ㅓㄴ -81
▁ㄱㅣ -82
▁것 -83
▁세 -84
▁유 -85
▁3 -86
▁" -87
▁조 -88
▁부 -89
▁등 -90
▁ㄱㅔ -91
▁선 -92
▁성 -93
▁스 -94
▁ㅎㅏㄴㄷㅏ -95
▁연 -96
▁미 -97
▁동 -98
▁보 -99
▁마 -100
▁위 -101
▁상 -102
▁ㅇㅏ -103
▁소 -104
▁오 -105
▁한 -106
▁영 -107
▁고 -108
▁구 -109
▁ㅁ -110
▁국 -111
▁모 -112
ㄱㅗ -113
▁도 -114
▁발 -115
▁비 -116
ㅎㅏㄴ -117
▁201 -118
▁' -119
ㅕㅆ -120
▁나 -121
▁여 -122
▁4 -123
▁서 -124
▁후 -125
▁ㅈ -126
▁명 -127
▁신 -128
▁ㅅ -129
▁ㄹㅏ -130
ㅣㄴ -131
▁프 -132
▁5 -133
▁관 -134
▁ㅁㅕㄴ -135
▁역 -136
▁때 -137
▁200 -138
▁장 -139
▁- -140
▁방 -141
▁의 -142
▁ㄷㅓㄴ -143
▁교 -144
ㅜㅌ -145
▁만 -146
▁문 -147
▁ㅎㅏㄹ -148
▁리 -149
▁해 -150
▁ㄲ -151
▁차 -152
ㅜㅌㅓ -153
▁바 -154
▁우 -155
▁무 -156
▁생 -157
▁계 -158
▁현 -159
▁원 -160
▁분 -161
▁군 -162
▁포 -163
▁노 -164
▁화 -165
▁6 -166
▁당 -167
ㅏㅈㅣ -168
▁ㅇㅡㅁㅕ -169
▁또 -170
▁않 -171
▁학 -172
▁남 -173
▁결 -174
▁작 -175
▁ㅇㅏㅆ -176
▁같 -177
▁ㄲㅏㅈㅣ -178
▁출 -179
ㄱㅔ -180
▁ㅇㅔㄱㅔ -181
▁내 -182
▁파 -183
ㅏㄴㅡㄴ -184
▁진 -185
ㅗㅇ -186
▁ㄷㅐ -187
▁강 -188
▁단 -189
▁최 -190
▁번 -191
▁어 -192
▁7 -193
ㅜㄴ -194
▁받 -195
▁반 -196
▁10 -197
▁8 -198
ㄹㄹ -199
▁ㄴㅏ -200
▁호 -201
▁ㄷㅚㄴㄷㅏ -202
▁회 -203
▁배 -204
ㅁㅏㄴ -205
▁초 -206
▁거 -207
▁데 -208
▁안 -209
▁형 -210
▁ㅈㅣㅁㅏㄴ -211
▁예 -212
▁카 -213
▁실 -214
▁재 -215
▁에 -216
▁말 -217
▁불 -218
▁ㅂㅜㅌㅓ -219
▁ㅇㅟ -220
▁ㄸ -221
▁없 -222
▁로 -223
▁두 -224
ㄷㅔ -225
▁사용 -226
▁종 -227
▁9 -228
ㅇㅡ -229
▁타 -230
▁미국 -231
▁라 -232
▁ㄹㅏㄱㅗ -233
▁특 -234
▁이후 -235
▁ㄹㅏㄴㅡㄴ -236
▁요 -237
▁과 -238
▁통 -239
▁설 -240
▁함 -241
▁ㅌ -242
▁ㅁㅏㄴ -243
▁ㅁㅕㄴㅅㅓ -244
▁일본 -245
▁코 -246
▁운 -247
▁산 -248
▁ㄴㅡㄴㄷㅔ -249
▁권 -250
▁활 -251
▁감 -252
▁독 -253
민국 -254
ㅇㅡㅁㅕ -255
▁레 -256
▁행 -257
▁대한 -258
▁ㅈㅏ -259
▁다음 -260
▁왕 -261
▁추 -262
▁김 -263
▁음 -264
▁베 -265
▁지역 -266
▁대한민국 -267
▁크 -268
▁양 -269
▁199 -270
▁민 -271
▁평 -272
▁더 -273
▁및 -274
ㅇㅓ -275
▁ㅂㅗ -276
ㄱㅏ -277
ㅓㄹ -278
▁많 -279
▁매 -280
▁입 -281
▁참 -282
▁피 -283
▁12 -284
▁경기 -285
▁ㄷㅐㅎㅏㄴ -286
▁간 -287
▁18 -288
ㅈㅣㄴ -289
▁승 -290
▁목 -291
▁ㄷㅏㄱㅗ -292
▁프로 -293
▁대학 -294
▁다른 -295
리아 -296
▁건 -297
▁; -298
00 -299
▁총 -300
스트 -301
▁그리 -302
ㅓㄴㅏ -303
▁ㅇㅟㅎㅐ -304
▁북 -305
▁S -306
▁집 -307
▁알 -308
▁) -309
or -310
▁법 -311
▁외 -312
▁11 -313
▁체 -314
▁때문 -315
▁각 -316
▁트 -317
▁시작 -318
▁천 -319
▁ㅇㅣㄹ -320
▁드 -321
▁표 -322
▁직 -323
▁임 -324
▁변 -325
ㄴㅡㄴ -326
▁ㅋ -327
▁토 -328
▁본 -329
▁사람 -330
▁& -331
▁A -332
▁( -333
▁그러 -334
▁팀 -335
▁선수 -336
▁물 -337
▁처 -338
▁메 -339
▁속 -340
▁함께 -341
▁또한 -342
▁점 -343
▁한국 -344
▁투 -345
▁박 -346
▁ㅊ -347
▁항 -348
▁청 -349
▁브 -350
▁세계 -351
▁ㄸㅏㄹ -352
▁영화 -353
▁저 -354
▁사이 -355
▁광 -356
▁게 -357
▁자신 -358
▁C -359
ㅈㅕ -360
ㄹㅕ -361
la -362
▁M -363
▁용 -364
▁판 -365
▁ㅇㅗ -366
▁국가 -367
▁약 -368
▁태 -369
▁ㅅㅣ -370
▁경우 -371
▁디 -372
▁달 -373
▁기록 -374
▁야 -375
▁T -376
▁복 -377
▁f -378
▁F -379
▁축 -380
▁현재 -381
▁하나 -382
시아 -383
▁이름 -384
▁존 -385
▁활동 -386
▁편 -387
▁198 -388
▁ㄷㅏㄴㅡㄴ -389
▁확 -390
▁당시 -391
▁위치 -392
▁삼 -393
▁가장 -394
▁네 -395
▁열 -396
ㅣㄴㄷㅏ -397
▁철 -398
▁테 -399
▁ㄸㅏㄹㅏ -400
▁ㅇㅏㄹ -401
주의 -402
▁_ -403
▁ㅈㅣㄴ -404
▁조선 -405
▁가지 -406
▁버 -407
▁학교 -408
▁리그 -409
▁필 -410
▁그러나 -411
▁15 -412
▁올 -413
▁ㅌㅗㅇ -414
▁ㅇㅣㄴㅏ -415
▁증 -416
▁플 -417
▁페 -418
▁금 -419
ㅈㅕㅆ -420
▁째 -421
▁뒤 -422
▁루 -423
▁for -424
▁대표 -425
▁백 -426
▁언 -427
▁창 -428
mu -429
▁ㅅㅓ -430
레이 -431
▁역사 -432
▁ㅇㅢㅎㅐ -433
▁식 -434
mula -435
▁연구 -436
▁치 -437
▁formula -438
ㅣㄹ -439
▁16 -440
▁근 -441
▁병 -442
▁프랑 -443
ㅇㅡㄴ -444
▁또는 -445
ㅂㅜㅌㅓ -446
▁심 -447
▁그리고 -448
▁/ -449
▁사회 -450
▁합 -451
▁ㅌㅗㅇㅎㅐ -452
ㅐㅇ -453
▁황 -454
▁규 -455
▁애 -456
▁D -457
▁시즌 -458
▁0 -459
ㅇㅡㄴㅏ -460
▁m -461
▁살 -462
ㅇㅑ -463
▁충 -464
▁17 -465
▁순 -466
ㅜㄹ -467
▁클 -468
▁[ -469
▁첫 -470
▁] -471
▁따 -472
▁B -473
▁197 -474
ㅗㄱ -475
랜드 -476
▁완 -477
▁히 -478
▁중국 -479
▁아니 -480
▁ㅆ -481
▁협 -482
▁다시 -483
▁ㅅㅣㅋ -484
▁ㄷㅗㄹ -485
▁시대 -486
▁정부 -487
▁프랑스 -488
▁: -489
▁서울 -490
▁패 -491
▁K -492
ㅇㅜㄴ -493
▁영국 -494
▁I -495
학교 -496
▁ㄷㅐㅎㅐ -497
▁ㅎㅏ -498
▁높 -499
▁k -500
▁은 -501
▁도시 -502
▁만들 -503
▁전쟁 -504
▁여러 -505
▁뜻 -506
▁포함 -507
▁채 -508
▁문화 -509
▁196 -510
▁독일 -511
▁14 -512
ㅎㅐㅆ -513
▁ㄹㅗㅅㅓ -514
▁아이 -515
▁~ -516
▁대회 -517
▁키 -518
er -519
▁ㅇㅡㄴㅏ -520
ㅐㄹ -521
▁ㄴㅡㄴㄷㅏ -522
▁축구 -523
▁면 -524
▁g -525
▁13 -526
▁P -527
▁뉴 -528
▁정치 -529
▁ㅂㅏ -530
▁ㄷㅏㄱㅏ -531
ㅊㅕ -532
▁가능 -533
▁위원 -534
▁ㅋㅡㄴ -535
▁곡 -536
▁모두 -537
in -538
▁별 -539
▁ㅂㅗㅇ -540
▁환 -541
▁모든 -542
▁동안 -543
ㅜㄹㄹ -544
▁감독 -545
▁문제 -546
▁이상 -547
▁방송 -548
▁ㅂㅗㄷㅏ -549
▁쓰 -550
▁구성 -551
▁손 -552
▁배우 -553
▁194 -554
▁친 -555
▁개발 -556
▁L -557
▁l -558
▁석 -559
▁일부 -560
▁논 -561
▁지방 -562
▁길 -563
▁사건 -564
▁처음 -565
▁제작 -566
▁대학교 -567
▁ㅁㅗ -568
▁허 -569
▁ㅇㅏㄹㄹㅕ -570
▁ㅇㅟㅎㅏㄴ -571
▁취 -572
▁죽 -573
▁검 -574
▁% -575
▁국제 -576
ㅇㅘ -577
ㅇㅏ -578
▁러 -579
▁작품 -580
▁농 -581
▁ㅍ -582
▁관계 -583
라이 -584
▁캐 -585
▁ㅇㅕㅆㅇㅡㅁㅕ -586
▁이용 -587
▁세기 -588
▁골 -589
▁ㄷㅚㄹ -590
▁시간 -591
▁니 -592
▁게임 -593
ㅓㅁ -594
ㅇㅝ -595
ㄱㅕ -596
▁새 -597
▁일반 -598
▁교육 -599
▁G -600
▁씨 -601
▁존재 -602
▁인구 -603
▁운동 -604
ㅓㄴㅏㅆ -605
▁폭 -606
▁정도 -607
▁N -608
▁주장 -609
▁급 -610
▁음악 -611
▁gt -612
▁즉 -613
▁곳 -614
▁효 -615
니아 -616
on -617
▁티 -618
▁km -619
▁경제 -620
▁195 -621
▁ㄷㅡㄹ -622
▁ㅎㅏㅁ -623
▁중심 -624
▁육 -625
리스 -626
▁ㄹㅕ -627
▁섬 -628
▁ㄱㅓㄴㅏ -629
▁lt -630
▁R -631
▁이러 -632
▁돌 -633
▁선거 -634
▁극 -635
▁U -636
▁전투 -637
▁ㄷㅙ -638
▁쿠 -639
▁30 -640
▁블 -641
▁절 -642
ㅐㅆ -643
▁ㅁㅏ -644
▁발견 -645
▁날 -646
▁민주 -647
▁ㅎㅐㅆㅇㅡㅁㅕ -648
통령 -649
이스 -650
▁귀 -651
▁기술 -652
▁H -653
화국 -654
부분 -655
▁E -656
▁측 -657
ㅐㄴ -658
▁홍 -659
▁발표 -660
▁글 -661
▁맡 -662
▁ㄱㅓ -663
ㅏㅆ -664
▁결과 -665
▁암 -666
▁구조 -667
▁올림 -668
▁밀 -669
▁영향 -670
▁ㅂㅗㄴ -671
▁ㄷㅗㄹㅗㄱ -672
▁시키 -673
▁막 -674
▁아들 -675
▁터 -676
▁엔 -677
▁사망 -678
▁책 -679
▁의미 -680
▁2010 -681
▁우승 -682
▁공격 -683
▁ㄹㅗㅂㅜㅌㅓ -684
▁ㅌㅐㅇ -685
▁대통령 -686
ㅇㅕ -687
▁과정 -688
▁대부분 -689
an -690
ㄷㅏㄴㅡㄴ -691
▁케 -692
▁관련 -693
▁올림픽 -694
▁슈 -695
▁라이 -696
▁질 -697
▁송 -698
000 -699
▁지원 -700
▁프로그 -701
▁앨 -702
리카 -703
▁잘 -704
▁업 -705
▁향 -706
▁ㅁㅗㅅ -707
▁접 -708
▁담 -709
▁발생 -710
▁ㅇㅗㄹㄹ -711
▁끝 -712
ㄷㅗ -713
▁참여 -714
ㅆㅓ -715
▁193 -716
▁헤 -717
▁유럽 -718
▁중앙 -719
▁준 -720
▁봉 -721
▁앞 -722
▁진행 -723
지만 -724
▁행정 -725
▁최초 -726
란드 -727
▁독립 -728
ㅇㅗ -729
20 -730
▁c -731
▁얻 -732
▁범 -733
ㅗㅇㅜㄴ -734
▁자유 -735
▁25 -736
▁결정 -737
▁W -738
▁부분 -739
▁설립 -740
▁특히 -741
▁제국 -742
▁형태 -743
▁고등 -744
▁ㄷㅙㅆ -745
▁다양 -746
▁ㅅㅔ -747
▁폐 -748
▁못 -749
ㅁㅕㄴ -750
▁악 -751
▁탄 -752
▁ㅇㅓㅅㅓ -753
▁상태 -754
▁하지만 -755
나라 -756
▁발매 -757
▁탈 -758
▁설치 -759
▁이전 -760
버지 -761
▁온 -762
▁러시아 -763
▁스타 -764
▁누 -765
▁2008 -766
▁소속 -767
▁좌 -768
▁사실 -769
▁초등 -770
▁침 -771
▁ㅇㅡㅁ -772
▁ㅅㅐㄹ -773
▁센 -774
▁잡 -775
▁21 -776
디오 -777
우스 -778
▁ㅅㅐㄹㅗㅇㅜㄴ -779
▁르 -780
ㅓㅆ -781
▁같이 -782
▁그녀 -783
▁로마 -784
▁줄 -785
▁ㅇㅡㄹㅗㅅㅓ -786
▁타이 -787
▁ㅇㅣㄴㅎㅐ -788
▁조직 -789
▁프로그램 -790
▁인민 -791
▁참가 -792
▁나라 -793
▁여성 -794
▁폴 -795
▁생각 -796
▁맞 -797
▁갖 -798
▁등장 -799
▁정보 -800
▁주로 -801
▁2011 -802
▁2012 -803
▁필요 -804
▁ㅃ -805
▁싱 -806
▁이탈 -807
▁주요 -808
▁혼 -809
▁관리 -810
▁운영 -811
▁ㅇㅕㄹㄹ -812
▁출신 -813
▁이것 -814
▁기준 -815
▁생산 -816
▁계획 -817
▁머 -818
▁좋 -819
en -820
▁2009 -821
▁100 -822
▁기관 -823
ㅓㄴㅏㄴ -824
▁중요 -825
▁위원회 -826
▁2014 -827
▁윤 -828
▁지정 -829
▁2007 -830
▁여자 -831
ㅇㅓㅈㅣㄴ -832
▁상대 -833
▁음반 -834
▁t -835
▁성공 -836
▁바이 -837
▁계속 -838
▁시절 -839
▁이루 -840
▁국민 -841
▁콘 -842
▁a -843
▁데이 -844
▁O -845
▁데뷔 -846
▁매우 -847
▁2013 -848
▁ㅎㅐㅅㅓ -849
▁철도 -850
▁갈 -851
▁레이 -852
▁과학 -853
▁대전 -854
리즈 -855
▁사업 -856
▁시스 -857
▁해당 -858
▁발전 -859
he -860
▁생활 -861
▁이탈리아 -862
▁방법 -863
프트 -864
▁칼 -865
▁팔 -866
▁고려 -867
▁ㅂㅜㄹㄹ -868
▁와 -869
르크 -870
▁아버지 -871
스터 -872
▁몇 -873
▁커 -874
▁자리 -875
▁191 -876
▁따르 -877
▁생애 -878
ㅡㄹㅗ -879
▁초기 -880
▁묘 -881
▁2015 -882
라마 -883
▁23 -884
▁2018 -885
▁24 -886
ar -887
▁월드 -888
▁내용 -889
이션 -890
레스 -891
▁ㅊㅓㄹ -892
▁ㅊㅓㄹㅓㅁ -893
▁헌 -894
▁앨범 -895
▁000 -896
▁출연 -897
▁차지 -898
▁2016 -899
▁억 -900
▁보이 -901
▁최고 -902
▁쇼 -903
▁인도 -904
▁후보 -905
▁그룹 -906
남도 -907
▁시리즈 -908
▁능 -909
▁ㅇㅑ -910
▁결국 -911
▁마이 -912
▁평가 -913
ㄺㅎ -914
▁J -915
es -916
▁엘 -917
▁아래 -918
▁22 -919
▁전체 -920
▁회사 -921
▁그리스 -922
ㅇㅗㄴ -923
▁이유 -924
▁방식 -925
이트 -926
▁2006 -927
FA -928
▁한편 -929
▁고등학교 -930
▁우리 -931
▁격 -932
▁인간 -933
▁ㅈㅕㅆ -934
비아 -935
▁수상 -936
▁192 -937
▁스페 -938
▁2017 -939
▁분류 -940
▁인터 -941
▁연합 -942
▁시기 -943
▁ㅌㅐㅇㅓㄴㅏㅆ -944
▁공식 -945
▁층 -946
▁풍 -947
▁개요 -948
▁항공 -949
▁제공 -950
▁ㅇㅕㅆㅇㅡㄴㅏ -951
▁드라마 -952
▁ㅂㅏㄺㅎ -953
▁역할 -954
▁의원 -955
▁컴 -956
▁시스템 -957
운데 -958
▁정의 -959
▁못하 -960
▁많이 -961
▁기업 -962
▁군사 -963
▁제도 -964
▁조사 -965
▁ㅂㅓㄹ -966
▁ㄱㅏㄹ -967
▁빌 -968
▁ㄹㅏㄴ -969
▁가운데 -970
▁얼 -971
▁워 -972
▁몸 -973
▁출전 -974
▁유명 -975
▁민족 -976
ㅏㄴㄷㅏ -977
▁기능 -978
ㄴㅎㅏㄴ -979
▁교회 -980
▁반대 -981
▁거의 -982
ㅇㅘㅆ -983
▁ㅂㅗㄹ -984
▁s -985
▁ㄷㅡㄹㅇㅓ -986
▁지구 -987
비스 -988
▁ㅇㅡㄹㅗㅆㅓ -989
▁텔 -990
▁현대 -991
▁언어 -992
▁표현 -993
▁ㄱㅓㄹ -994
▁색 -995
▁대신 -996
▁유지 -997
▁목록 -998
▁개인 -999
▁ㅎㅐㅇㅑ -1000
▁대상 -1001
▁ㅇㅡㄹㅗㅂㅜㅌㅓ -1002
▁잠 -1003
▁홈 -1004
▁특별 -1005
▁이론 -1006
▁동시 -1007
▁26 -1008
at -1009
▁자연 -1010
▁규모 -1011
▁! -1012
▁모습 -1013
▁응 -1014
야기 -1015
ㅌㅏㄴ -1016
▁프리 -1017
▁공개 -1018
▁노동 -1019
▁류 -1020
▁이미 -1021
▁이르 -1022
▁야구 -1023
▁지도 -1024
▁연결 -1025
▁ㄴㅏㅌㅏㄴ -1026
▁승리 -1027
▁ㅇㅏㄴ -1028
▁녹 -1029
ㅡㄴㄷㅏ -1030
ㄴㅣ -1031
▁28 -1032
▁마지 -1033
▁2019 -1034
ㅜㄴㄷㅏ -1035
▁특징 -1036
▁진출 -1037
▁27 -1038
▁단체 -1039
▁각각 -1040
▁정책 -1041
▁브라 -1042
▁인정 -1043
▁목적 -1044
▁여기 -1045
▁상황 -1046
▁졸 -1047
▁산업 -1048
▁인물 -1049
▁V -1050
▁웨 -1051
ㅇㅎㅏㄴ -1052
▁핵 -1053
▁시장 -1054
▁ㅅㅣㅋㅕㅆ -1055
▁2005 -1056
▁2000 -1057
▁마지막 -1058
▁기원 -1059
▁ㄱㅡㄹ -1060
▁플레이 -1061
▁울 -1062
▁수도 -1063
▁ㄱㅏㅈㅣㄴ -1064
ㅊㅕㅆ -1065
▁아르 -1066
▁임명 -1067
▁난 -1068
ㄱㅏㅆ -1069
▁족 -1070
▁전문 -1071
ㅂㄴㅣ -1072
▁이야기 -1073
▁기간 -1074
ㄷㅡㄹ -1075
북도 -1076
머니 -1077
▁희 -1078
▁구역 -1079
▁ㅇㅏㄹㄹㅕㅈㅕ -1080
▁직접 -1081
어지 -1082
al -1083
ic -1084
▁ㄴㅐ -1085
▁모델 -1086
▁ㅇㅘㅆ -1087
▁혁 -1088
스크 -1089
▁경상 -1090
▁힘 -1091
▁압 -1092
▁서로 -1093
▁계약 -1094
▁오스트 -1095
▁밴 -1096
ㄱㅕㅆ -1097
▁ㅎㅐㅆㅇㅡㄴㅏ -1098
▁불리 -1099
▁추가 -1100
▁ㅇㅕㄹㄹㅣㄴ -1101
▁건설 -1102
▁공동 -1103
▁먹 -1104
▁ㅇㅣㄹㅇ -1105
▁개최 -1106
▁FC -1107
▁콜 -1108
▁2004 -1109
BS -1110
▁눈 -1111
▁경찰 -1112
▁형성 -1113
▁공간 -1114
▁사상 -1115
▁결혼 -1116
▁샤 -1117
▁건물 -1118
ㅂㄴㅣㄷㅏ -1119
▁자동 -1120
▁노선 -1121
▁찾 -1122
▁변화 -1123
▁기타 -1124
▁푸 -1125
▁50 -1126
▁활약 -1127
▁ㄱㅘㄴㅎㅏㄴ -1128
▁스페인 -1129
▁훈 -1130
▁TV -1131
▁31 -1132
▁ㅂㅗㅇㅕ -1133
▁노래 -1134
▁변경 -1135
▁넘 -1136
▁부산 -1137
학자 -1138
▁국회 -1139
▁29 -1140
ㅇㅣㄴ -1141
▁그것 -1142
▁거리 -1143
▁교수 -1144
▁칸 -1145
▁ㅇㅡㅁㅕㄴ -1146
▁뿐 -1147
is -1148
▁졸업 -1149
▁ㄴㅏㄴ -1150
▁공화국 -1151
it -1152
▁의하 -1153
이드 -1154
▁완전 -1155
▁텔레 -1156
▁b -1157
▁벨 -1158
re -1159
이지 -1160
▁너 -1161
ㅇㅕㅆ -1162
▁마을 -1163
▁궁 -1164
▁ㄴㅣ -1165
▁망 -1166
▁인민공 -1167
▁퍼 -1168
▁경력 -1169
▁부르 -1170
▁인민공화국 -1171
▁ㅅㅔㅇㅝ -1172
▁클럽 -1173
▁사랑 -1174
▁ㄸㅓㄹ -1175
비전 -1176
▁휴 -1177
▁비롯 -1178
▁역시 -1179
ㄷㅡㄴ -1180
▁2020 -1181
▁190 -1182
▁비판 -1183
ㅇㅓㅈㅕ -1184
▁서비스 -1185
▁학생 -1186
▁둘 -1187
▁맥 -1188
ou -1189
▁ㅂㅣ -1190
▁볼 -1191
▁실제 -1192
어나 -1193
▁최대 -1194
▁소설 -1195
운드 -1196
▁보통 -1197
▁요구 -1198
▁슬 -1199
▁보호 -1200
▁잉 -1201
▁ㄱㅔㅆ -1202
▁지금 -1203
▁가수 -1204
▁중학교 -1205
프리카 -1206
대로 -1207
▁우주 -1208
▁론 -1209
▁기본 -1210
▁중화 -1211
▁의회 -1212
ㅎㅏㄴㄷㅏ -1213
▁탑 -1214
거리 -1215
▁전국 -1216
▁종교 -1217
▁낮 -1218
ㅇㅎㅐ -1219
▁나타 -1220
▁지지 -1221
▁속하 -1222
▁자기 -1223
르트 -1224
▁다이 -1225
▁지하 -1226
▁판매 -1227
▁ㅈㅓ -1228
▁없이 -1229
▁싱글 -1230
▁ㄱㅓㅊㅕ -1231
▁실시 -1232
▁전통 -1233
▁차이 -1234
▁시설 -1235
▁혹 -1236
▁황제 -1237
▁ㄱㅜ -1238
역시 -1239
▁퇴 -1240
▁밴드 -1241
▁기반 -1242
▁따라 -1243
▁나이 -1244
▁달리 -1245
▁ㅎㅏㄴㄷㅏㄴㅡㄴ -1246
▁옥 -1247
▁원래 -1248
▁견 -1249
ㅈㅏ -1250
▁ㅇㅗㄴ -1251
▁2002 -1252
▁탐 -1253
▁어떤 -1254
▁세력 -1255
▁운행 -1256
로스 -1257
▁명칭 -1258
▁환경 -1259
▁교통 -1260
▁위하 -1261
▁가족 -1262
▁자료 -1263
▁몰 -1264
▁설명 -1265
▁40 -1266
▁경기도 -1267
▁딸 -1268
▁소련 -1269
▁뮤 -1270
▁ㅁㅗㅅㅎㅐㅆ -1271
▁ㄷㅗㄹㅇㅏ -1272
스탄 -1273
▁ㅇㅣㄹㅜ -1274
▁월드컵 -1275
▁전기 -1276
▁센터 -1277
▁공연 -1278
▁2003 -1279
▁수행 -1280
▁회의 -1281
▁겸 -1282
▁ㅇㅏㄴㅣㄴ -1283
▁ㄴㅗ -1284
▁그래 -1285
▁애니 -1286
▁전자 -1287
ㄹㄹㅕ -1288
▁승강 -1289
러스 -1290
▁모양 -1291
▁부대 -1292
▁밖 -1293
▁도쿄 -1294
▁ㄷㅐㅎㅐㅅㅓ -1295
나다 -1296
▁컵 -1297
▁분야 -1298
▁기독 -1299
▁기념 -1300
▁예술 -1301
▁이동 -1302
▁교황 -1303
▁통합 -1304
▁나오 -1305
▁득 -1306
▁사고 -1307
mp -1308
▁도입 -1309
▁텔레비전 -1310
le -1311
▁작업 -1312
▁놓 -1313
▁행동 -1314
▁남자 -1315
▁동물 -1316
▁ㅈㅓㄴ -1317
▁연방 -1318
▁선정 -1319
▁염 -1320
▁차량 -1321
ㅊㅣㄴ -1322
▁ㅇㅢㅎㅏㄴ -1323
▁능력 -1324
▁따라서 -1325
▁소프트 -1326
▁작용 -1327
▁출시 -1328
▁바로 -1329
▁문학 -1330
▁= -1331
▁벌 -1332
▁할 -1333
▁군대 -1334
스타 -1335
▁ㄱㅓㄴ -1336
의원 -1337
ㄲㅏ -1338
너지 -1339
▁숙 -1340
▁증가 -1341
▁행위 -1342
▁기독교 -1343
▁형식 -1344
▁전라 -1345
▁방향 -1346
▁기존 -1347
▁도로 -1348
▁확인 -1349
▁지휘 -1350
▁작가 -1351
▁남쪽 -1352
▁효과 -1353
▁혁명 -1354
▁국내 -1355
▁과거 -1356
▁십 -1357
▁북쪽 -1358
▁작곡 -1359
▁이때 -1360
ㅣㅁ -1361
▁제외 -1362
▁ㅅㅏㄹ -1363
▁비슷 -1364
▁승강장 -1365
▁ㅁㅡㄹㅗ -1366
ㅇㅎㅐㅆ -1367
▁빈 -1368
▁FI -1369
▁챔 -1370
▁컴퓨 -1371
▁주변 -1372
▁윌 -1373
▁어머니 -1374
▁낙 -1375
▁왕국 -1376
▁캐나다 -1377
▁몽 -1378
▁종류 -1379
▁태양 -1380
▁열차 -1381
ㅡㅁ -1382
▁사무 -1383
▁유일 -1384
▁비교 -1385
▁정당 -1386
▁역임 -1387
▁ㅎㅏㄴㄷㅏㄱㅗ -1388
▁뉴욕 -1389
▁착 -1390
▁이적 -1391
▁ㅂㅜㄹ -1392
▁남부 -1393
리오 -1394
BC -1395
ㅜㅁ -1396
▁솔 -1397
▁높이 -1398
▁협회 -1399
▁적용 -1400
▁혹은 -1401
▁지배 -1402
▁스포 -1403
▁ㅆㅡ -1404
ㄱㅣㄴ -1405
▁흥 -1406
▁메이 -1407
▁공산 -1408
▁반응 -1409
▁성장 -1410
자리 -1411
▁추정 -1412
▁ㅅㅗㄱ -1413
▁챔피 -1414
▁담당 -1415
▁시민 -1416
▁건축 -1417
▁동일 -1418
▁흐 -1419
▁개념 -1420
▁이사 -1421
▁런 -1422
▁1990 -1423
▁육군 -1424
▁대사 -1425
▁장관 -1426
▁ㄷㅏㄹ -1427
▁즈 -1428
▁이끌 -1429
▁2001 -1430
▁인기 -1431
▁넓 -1432
▁획 -1433
▁홀 -1434
▁스트 -1435
▁ㅈㅜ -1436
▁X -1437
▁세포 -1438
▁베이 -1439
▁버스 -1440
▁ㅁㅗㅇ -1441
▁ㅅㅣㅋㅕ -1442
▁갑 -1443
▁윈 -1444
▁컴퓨터 -1445
▁동쪽 -1446
메이션 -1447
▁공사 -1448
▁징 -1449
ㄴㅏㄴ -1450
▁데이터 -1451
▁멤 -1452
▁오늘 -1453
▁구간 -1454
▁p -1455
▁쪽 -1456
▁품 -1457
▁디자 -1458
▁에너지 -1459
▁마음 -1460
▁곧 -1461
▁사단 -1462
▁상당 -1463
▁맨 -1464
▁예정 -1465
▁연기 -1466
▁크기 -1467
ㅣㅋ -1468
▁액 -1469
▁작전 -1470
▁돈 -1471
▁조건 -1472
▁조지 -1473
▁흑 -1474
▁대하 -1475
▁민주주의 -1476
▁189 -1477
▁마르 -1478
▁차례 -1479
▁실패 -1480
▁넣 -1481
▁록 -1482
▁서쪽 -1483
▁ㅁㅏㄴㄷㅡㄴ -1484
▁엄 -1485
▁버전 -1486
▁자체 -1487
ㄹㅣㄴ -1488
▁FIFA -1489
▁애니메이션 -1490
▁율 -1491
▁나가 -1492
▁어느 -1493
▁땅 -1494
▁잔 -1495
▁d -1496
▁충청 -1497
▁다르 -1498
▁컨 -1499
▁특정 -1500
▁선언 -1501
▁이런 -1502
ㅇㅡㅋ -1503
▁고대 -1504
▁피해 -1505
▁덕 -1506
드리 -1507
▁연주 -1508
▁체제 -1509
▁수록 -1510
▁ㅇㅟㅎㅐㅅㅓ -1511
카이 -1512
▁부족 -1513
▁연속 -1514
▁쌍 -1515
▁방영 -1516
버스 -1517
▁선택 -1518
▁페르 -1519
▁ㅁㅏㄷㅏ -1520
▁결승 -1521
▁규정 -1522
▁ㄱㅏㄹㅣㅋ -1523
▁내부 -1524
▁멤버 -1525
▁국립 -1526
el -1527
▁해군 -1528
▁공항 -1529
▁개혁 -1530
▁대체 -1531
▁ㄹㅓ -1532
et -1533
루스 -1534
▁아시아 -1535
▁정신 -1536
▁속도 -1537
▁조약 -1538
웨어 -1539
▁단계 -1540
▁대구 -1541
▁북부 -1542
가지 -1543
▁헌법 -1544
▁최종 -1545
▁명령 -1546
▁왜 -1547
▁풀 -1548
ion -1549
▁연대 -1550
글랜드 -1551
▁들어 -1552
▁기원전 -1553
▁포르 -1554
▁선출 -1555
▁ㅂㅏㄺㅎㅕㅆ -1556
▁영어 -1557
▁ㅈㅣㄴㅐㅆ -1558
▁분석 -1559
▁가치 -1560
▁ㄴㅡㄴㅈㅣ -1561
▁지명 -1562
▁자치 -1563
▁크리스 -1564
▁설계 -1565
▁인천 -1566
▁옛 -1567
트남 -1568
▁물질 -1569
▁치료 -1570
▁로스 -1571
▁출판 -1572
▁입단 -1573
▁물리 -1574
▁최근 -1575
▁친구 -1576
▁ㄱㅓㄹㅊㅕ -1577
ㅓㅇㅜㄴ -1578
▁체계 -1579
▁ㅇㅗㄻ -1580
ing -1581
▁의사 -1582
▁논란 -1583
▁소비 -1584
▁관할 -1585
▁이어 -1586
▁ㅇㅣㄹㅇㅡㅋ -1587
▁달러 -1588
▁강화 -1589
▁비행 -1590
ㅈㅣㄴㄷㅏ -1591
시마 -1592
▁척 -1593
▁ㅅㅐㅇ -1594
▁ㅇㅔㄴ -1595
▁더욱 -1596
ㅈㅊ -1597
▁밤 -1598
▁집단 -1599
▁평균 -1600
▁팬 -1601
▁북한 -1602
▁1999 -1603
▁대중 -1604
ol -1605
▁ㅂㅏㄲ -1606
메리카 -1607
▁스포츠 -1608
▁표준 -1609
▁걸 -1610
▁후반 -1611
라스 -1612
▁배치 -1613
▁술 -1614
21 -1615
▁엔진 -1616
▁법원 -1617
▁잉글랜드 -1618
▁제품 -1619
▁언급 -1620
▁부문 -1621
▁익 -1622
▁하이 -1623
▁ㅂㅗㅇㅣㄴㄷㅏ -1624
▁관심 -1625
▁현상 -1626
▁1998 -1627
▁Y -1628
▁실험 -1629
▁헬 -1630
▁챔피언 -1631
▁함수 -1632
▁머리 -1633
▁조정 -1634
▁o -1635
널리 -1636
▁벤 -1637
렇게 -1638
▁예선 -1639
▁개월 -1640
▁먼 -1641
▁확장 -1642
▁스테 -1643
스코 -1644
▁씩 -1645
▁획득 -1646
▁파리 -1647
▁공원 -1648
▁1980 -1649
▁선발 -1650
▁유사 -1651
▁쥐 -1652
▁요소 -1653
▁분리 -1654
▁처리 -1655
▁주도 -1656
ㅂㅎ -1657
▁부상 -1658
▁목표 -1659
▁지속 -1660
▁배경 -1661
디어 -1662
▁당하 -1663
▁재판 -1664
▁cm -1665
▁ㅊㅣㄹ -1666
▁통일 -1667
▁60 -1668
▁하계 -1669
리지 -1670
▁뛰 -1671
▁자동차 -1672
▁ㄱㅏㄹㅣㅋㅣㄴㄷㅏ -1673
▁베르 -1674
▁문자 -1675
▁주민 -1676
▁35 -1677
▁편성 -1678
▁흔 -1679
▁유래 -1680
▁소유 -1681
▁시도 -1682
▁이해 -1683
▁ㅈㅜㄹ -1684
▁ㅇㅓㅇㅑ -1685
▁정규 -1686
▁겨 -1687
▁마리 -1688
▁구단 -1689
▁외국 -1690
▁가리 -1691
▁맺 -1692
▁장군 -1693
▁도움 -1694
▁ㄱㅣㄴ -1695
▁링 -1696
▁칭 -1697
▁에스 -1698
▁지나 -1699
▁주인 -1700
▁거주 -1701
▁시험 -1702
▁점령 -1703
ㅇㅓㅈㅕㅆ -1704
▁공립 -1705
▁행사 -1706
ㅇㅔ -1707
▁기사 -1708
▁디자인 -1709
▁나무 -1710
▁요시 -1711
▁원자 -1712
▁통신 -1713
▁mm -1714
▁ㄹㅕㄱㅗ -1715
▁ㄱㅗㅈㅏ -1716
▁원인 -1717
▁꽃 -1718
▁네덜 -1719
▁네덜란드 -1720
▁파이 -1721
▁언론 -1722
▁ㅇㅣㅁ -1723
▁안정 -1724
▁학자 -1725
▁캠 -1726
▁결합 -1727
▁동맹 -1728
▁투표 -1729
▁n -1730
▁웹 -1731
▁준비 -1732
▁느 -1733
▁사령 -1734
▁수준 -1735
▁본선 -1736
▁혈 -1737
▁베트남 -1738
▁개봉 -1739
▁장치 -1740
▁고속 -1741
▁불교 -1742
▁일종 -1743
▁앤 -1744
▁아프리카 -1745
▁붙 -1746
▁용어 -1747
광역시 -1748
▁앙 -1749
om -1750
젝트 -1751
▁알렉 -1752
▁은퇴 -1753
▁불구 -1754
야마 -1755
▁성적 -1756
▁깊 -1757
▁1997 -1758
나무 -1759
▁촉 -1760
▁ㄷㅔ -1761
▁구분 -1762
일랜드 -1763
▁비디오 -1764
▁길이 -1765
▁제조 -1766
▁책임 -1767
▁아마 -1768
▁방문 -1769
▁문서 -1770
▁싸 -1771
▁사진 -1772
▁정권 -1773
▁유전 -1774
▁바르 -1775
ㅈㅣㄹ -1776
▁가정 -1777
ㅝㅆ -1778
▁광주 -1779
▁신문 -1780
▁휘 -1781
▁가문 -1782
st -1783
▁요리 -1784
▁해석 -1785
▁ㅂㅣㅎㅐ -1786
▁ㅇㅣㄴㄷㅔ -1787
▁ㄱㅏㅆ -1788
▁칠 -1789
▁경험 -1790
▁믿 -1791
▁ㄲㅡ -1792
▁폴란드 -1793
▁정리 -1794
▁ㄴㅐㄹ -1795
▁amp -1796
▁정확 -1797
▁그림 -1798
▁평화 -1799
▁일제 -1800
▁핀 -1801
▁The -1802
▁1996 -1803
▁왕조 -1804
▁1995 -1805
ㅇㅓㅆ -1806
▁오늘날 -1807
▁서식 -1808
▁32 -1809
메달 -1810
▁분포 -1811
▁추진 -1812
▁면적 -1813
▁ㅇㅗㄹㄹㅏㅆ -1814
▁밝 -1815
▁통과 -1816
▁프로젝트 -1817
▁찬 -1818
▁입장 -1819
▁방어 -1820
▁경영 -1821
▁부인 -1822
▁런던 -1823
▁슈퍼 -1824
▁ㄹㅕㄴㅡㄴ -1825
▁ㄷㅏㅁㅕㄴ -1826
▁종합 -1827
▁ㅁㅓㄴ -1828
스턴 -1829
▁덴 -1830
▁ㅇㅏㄹㄹㅕㅈㅣㄴ -1831
▁70 -1832
▁거두 -1833
▁아직 -1834
▁빛 -1835
▁부여 -1836
▁만화 -1837
▁경쟁 -1838
▁통치 -1839
▁멸 -1840
▁ㄴㅏㅁ -1841
▁ㅅㅡ -1842
▁쉽 -1843
스로 -1844
▁빠 -1845
인트 -1846
▁병원 -1847
▁인터넷 -1848
▁신라 -1849
▁몬 -1850
▁발달 -1851
▁경기장 -1852
▁영역 -1853
▁프레 -1854
▁주제 -1855
특별 -1856
▁이곳 -1857
▁폐지 -1858
▁노력 -1859
▁훈련 -1860
▁츠 -1861
▁부정 -1862
▁500 -1863
▁움 -1864
▁민주당 -1865
▁보도 -1866
웨이 -1867
▁습 -1868
▁그런 -1869
▁미사 -1870
▁널리 -1871
▁이듬 -1872
▁파괴 -1873
▁총리 -1874
레일 -1875
▁생물 -1876
am -1877
▁미술 -1878
▁ㅍㅕ -1879
▁제주 -1880
▁제안 -1881
▁서부 -1882
▁멀 -1883
▁국회의원 -1884
▁도서 -1885
▁the -1886
▁80 -1887
▁회장 -1888
▁복귀 -1889
ㅎㅏㄹ -1890
▁식민 -1891
▁철학 -1892
리트 -1893
▁오르 -1894
▁일어나 -1895
▁번호 -1896
라인 -1897
▁법률 -1898
▁빅 -1899
▁외교 -1900
▁야마 -1901
▁기여 -1902
▁정상 -1903
▁완전히 -1904
▁삼성 -1905
▁세대 -1906
▁궤 -1907
▁요청 -1908
▁188 -1909
▁주연 -1910
▁행성 -1911
ㄴㄷㅏ -1912
▁값 -1913
▁무기 -1914
▁동부 -1915
▁남성 -1916
▁ㄴㅏㅇㅗㄴ -1917
▁이듬해 -1918
▁라디오 -1919
▁소재 -1920
▁경계 -1921
▁UE -1922
▁1970 -1923
▁연맹 -1924
▁자주 -1925
▁인식 -1926
▁잃 -1927
il -1928
▁+ -1929
▁무대 -1930
▁투수 -1931
▁수용 -1932
▁ㅇㅕㄱㅕ -1933
▁금지 -1934
▁등록 -1935
▁ㅂㅜㅌ -1936
▁폰 -1937
▁1994 -1938
▁제한 -1939
▁UEFA -1940
톨릭 -1941
▁지진 -1942
▁업무 -1943
▁표기 -1944
ㅏㄱㅗ -1945
ac -1946
▁연구소 -1947
▁괴 -1948
▁접근 -1949
▁발사 -1950
▁영토 -1951
▁더불 -1952
▁노르 -1953
▁아시 -1954
▁박물 -1955
▁지도자 -1956
▁바탕 -1957
▁뇌 -1958
▁결성 -1959
▁성격 -1960
▁ㄹㅜ -1961
▁득점 -1962
머지 -1963
▁나머지 -1964
▁스스로 -1965
▁거부 -1966
▁KBS -1967
▁상호 -1968
▁지대 -1969
▁반면 -1970
ㄹㅗ -1971
▁뉴스 -1972
▁아일랜드 -1973
▁수학 -1974
▁ㅇㅣㄹㅇㅓㄴㅏㄴ -1975
▁린 -1976
▁강원 -1977
▁정식 -1978
▁조각 -1979
▁트리 -1980
▁오스 -1981
▁의식 -1982
▁보수 -1983
▁은행 -1984
▁펜 -1985
▁기초 -1986
▁주의 -1987
▁벽 -1988
▁필리 -1989
▁마찬 -1990
▁마찬가지 -1991
▁오래 -1992
ro -1993
▁1992 -1994
▁ㄷㅏㅇㅎㅐㅆ -1995
▁가톨릭 -1996
▁공작 -1997
▁캐릭 -1998
토리 -1999
▁임시 -2000
시코 -2001
▁다수 -2002
▁아카 -2003
▁스웨 -2004
▁45 -2005
▁박사 -2006
▁다리 -2007
▁화학 -2008
▁ㄱㅏㄲㅏ -2009
▁장애 -2010
요일 -2011
▁ㅈㅓㄴㅎㅐ -2012
▁패배 -2013
임스 -2014
▁검사 -2015
▁바다 -2016
▁해결 -2017
▁소리 -2018
▁죽음 -2019
▁장소 -2020
▁차트 -2021
ed -2022
▁36 -2023
▁브라질 -2024
워드 -2025
▁차원 -2026
모토 -2027
▁of -2028
▁그대로 -2029
▁이스 -2030
▁초대 -2031
▁박물관 -2032
▁ㅅㅡㄹ -2033
▁긴 -2034
▁활용 -2035
▁마이크 -2036
▁실제로 -2037
▁ㄹㅗㅆㅓ -2038
▁유니 -2039
▁총선 -2040
▁꼬 -2041
▁스위 -2042
▁카드 -2043
▁짧 -2044
▁유로 -2045
▁ㅅㅡㅂㄴㅣㄷㅏ -2046
▁캐릭터 -2047
▁관측 -2048
▁윌리 -2049
▁ㅋㅓ -2050
▁기구 -2051
▁계열 -2052
▁여행 -2053
▁순위 -2054
아가 -2055
▁식물 -2056
▁묘사 -2057
▁안전 -2058
▁ㅇㅗㄹㄹㅏ -2059
▁인사 -2060
▁강력 -2061
▁오브 -2062
▁바뀌 -2063
▁표시 -2064
▁제시 -2065
▁단순 -2066
▁집합 -2067
▁1960 -2068
▁에이 -2069
▁소프트웨어 -2070
▁지리 -2071
▁일정 -2072
▁ㄸㅟ -2073
ig -2074
▁무역 -2075
▁이외 -2076
로나 -2077
▁권력 -2078
▁여름 -2079
▁파일 -2080
▁멕 -2081
▁연극 -2082
▁스웨덴 -2083
▁회원 -2084
▁기계 -2085
▁1991 -2086
▁곤 -2087
▁디지 -2088
▁ㅊㅏ -2089
▁지적 -2090
부르크 -2091
▁쓰이 -2092
▁위험 -2093
트리 -2094
▁삶 -2095
▁오스트리아 -2096
▁반란 -2097
▁히로 -2098
레일리아 -2099
▁먼저 -2100
▁붕 -2101
▁ㄲㅡㅌ -2102
▁1993 -2103
▁조성 -2104
▁33 -2105
▁발행 -2106
▁아무 -2107
▁형제 -2108
▁보다 -2109
▁중간 -2110
▁잇 -2111
▁관광 -2112
▁기자 -2113
▁개국 -2114
▁ㅂㅏㄺㅎㅕ -2115
▁근처 -2116
▁흡 -2117
▁중단 -2118
▁협력 -2119
▁스코 -2120
▁시행 -2121
▁뮤직 -2122
▁기획 -2123
▁여객 -2124
▁ㄷㅡㄴ -2125
베이 -2126
ㅏㄹㅡㄴ -2127
트로 -2128
ㅐㄴㄷㅏ -2129
▁지하철 -2130
소년 -2131
▁도착 -2132
▁량 -2133
▁외부 -2134
▁스튜 -2135
▁투자 -2136
▁ㅁㅏㄴㄴ -2137
▁사이트 -2138
사카 -2139
▁소개 -2140
od -2141
배우 -2142
▁윈도 -2143
▁렌 -2144
▁번역 -2145
워크 -2146
나이 -2147
▁코드 -2148
▁단어 -2149
▁다만 -2150
▁ㅁㅣ -2151
▁전시 -2152
▁", -2153
▁나타나 -2154
버트 -2155
▁유형 -2156
▁연장 -2157
니스 -2158
▁186 -2159
ve -2160
▁해안 -2161
특별시 -2162
▁카이 -2163
▁하루 -2164
▁후기 -2165
▁성립 -2166
▁ㅊㅣ -2167
as -2168
▁확대 -2169
▁ㅈㅣㄴㅏㄴ -2170
▁혜 -2171
▁근거 -2172
▁세상 -2173
▁서울특별시 -2174
▁상징 -2175
▁죄 -2176
▁통하 -2177
▁파견 -2178
▁오스트레일리아 -2179
▁혐 -2180
ㅇㅣㄴㄷㅏ -2181
▁공장 -2182
▁본부 -2183
▁위기 -2184
▁보유 -2185
▁내각 -2186
무원 -2187
▁수많 -2188
▁기후 -2189
▁제기 -2190
▁겪 -2191
▁생성 -2192
주시 -2193
▁케이 -2194
▁ㅉ -2195
▁양식 -2196
▁감소 -2197
▁네트 -2198
▁다카 -2199
▁지식 -2200
▁옹 -2201
▁보존 -2202
▁? -2203
▁극장 -2204
▁태평 -2205
▁수사 -2206
지션 -2207
▁지상 -2208
▁균 -2209
▁전략 -2210
▁멜 -2211
▁촬 -2212
▁귀족 -2213
▁윌리엄 -2214
▁떠 -2215
▁유대 -2216
▁특수 -2217
▁나타내 -2218
▁경상남도 -2219
▁상업 -2220
▁ㄷㅜ -2221
▁멕시코 -2222
▁달성 -2223
▁특성 -2224
▁경상북도 -2225
▁h -2226
▁대응 -2227
▁1988 -2228
▁바꾸 -2229
▁출생 -2230
▁187 -2231
▁ㅋㅔ -2232
▁ㅆㅏ -2233
▁영상 -2234
▁ㅇㅣㄴㅈㅣ -2235
▁원소 -2236
▁ㄸㅓㄹㅇㅓㅈㅣㄴ -2237
▁완성 -2238
▁유리 -2239
▁캘 -2240
▁동생 -2241
▁디지털 -2242
▁단위 -2243
▁ㅅㅔㅇㅝㅆ -2244
▁미래 -2245
▁촬영 -2246
▁ㄸㅏㄹㅡㄴ -2247
▁님 -2248
▁당선 -2249
▁ㅁㅜ -2250
▁이렇게 -2251
▁이슬 -2252
▁계승 -2253
▁ㅂㅗㅇㅕㅆ -2254
▁굴 -2255
▁촌 -2256
▁학위 -2257
아시아 -2258
▁ㄴㅐㄹㅕ -2259
▁시티 -2260
▁체포 -2261
▁34 -2262
티아 -2263
▁근무 -2264
▁식민지 -2265
▁타이틀 -2266
ㄱㅏㄴ -2267
▁젊 -2268
가리 -2269
▁종목 -2270
회사 -2271
▁률 -2272
▁전달 -2273
▁그렇 -2274
▁자본 -2275
▁권리 -2276
▁생명 -2277
▁38 -2278
▁수비 -2279
id -2280
▁이집 -2281
▁이집트 -2282
▁ㅇㅓㄹㅕ -2283
▁올리 -2284
▁코치 -2285
▁체결 -2286
▁ㅇㅣㄹㅜㅇㅓㅈㅣㄴ -2287
▁시청 -2288
▁듀 -2289
▁옆 -2290
▁측정 -2291
▁설정 -2292
▁판단 -2293
▁ㅇㅓㄹㅣㄴ -2294
▁나중 -2295
▁직후 -2296
▁싶 -2297
▁90 -2298
▁ㅇㅏㅍ -2299
▁승격 -2300
▁마사 -2301
▁소수 -2302
▁몇몇 -2303
가와 -2304
▁정치인 -2305
▁ㅆㅡㄴ -2306
▁보내 -2307
▁2021 -2308
▁ㅇㅣㄹㅏㄱㅗ -2309
▁문화재 -2310
▁크로 -2311
▁알렉산 -2312
▁대륙 -2313
▁48 -2314
ㄹㅕㅆ -2315
▁라인 -2316
▁주식 -2317
▁맹 -2318
▁국왕 -2319
▁ㄷㅐㄹㅗ -2320
모리 -2321
▁전환 -2322
▁ㅇㅡㅁㅡㄹㅗ -2323
▁1989 -2324
▁채널 -2325
▁ㅁㅗㅅㅎㅏㄴ -2326
▁1950 -2327
▁아내 -2328
▁개정 -2329
▁스키 -2330
▁도서관 -2331
▁헨 -2332
▁관찰 -2333
▁이주 -2334
▁미군 -2335
ㄹㅏ -2336
▁깨 -2337
NA -2338
▁본관 -2339
us -2340
▁톤 -2341
▁의견 -2342
ec -2343
▁신경 -2344
▁개통 -2345
▁포르투 -2346
▁세르 -2347
▁다루 -2348
▁청년 -2349
▁녹음 -2350
▁지위 -2351
▁엘리 -2352
ㅇㅝㅆ -2353
▁시위 -2354
▁납 -2355
▁홍콩 -2356
▁결승전 -2357
▁낳 -2358
▁제정 -2359
▁텍 -2360
▁밑 -2361
▁해외 -2362
▁', -2363
▁은하 -2364
▁얼마 -2365
▁종료 -2366
▁취임 -2367
▁새로 -2368
▁ㅈㅜㄴ -2369
and -2370
▁ㅂㅜㄹㅡㄴㄷㅏ -2371
▁동계 -2372
▁미사일 -2373
▁ㄴㅡㄹ -2374
▁헝 -2375
▁범죄 -2376
▁즉위 -2377
▁주인공 -2378
▁계산 -2379
디아 -2380
▁ㄴㅓㅁ -2381
▁ㅇㅗㄹ -2382
▁사회주의 -2383
▁교체 -2384
▁음식 -2385
▁예수 -2386
▁ㅇㅏㅅㅓ -2387
스티 -2388
▁충돌 -2389
▁후쿠 -2390
▁아키 -2391
▁신학 -2392
▁300 -2393
코드 -2394
▁남북 -2395
ad -2396
▁천황 -2397
▁셀 -2398
▁장기 -2399
▁e -2400
교회 -2401
▁전차 -2402
▁발매되 -2403
▁개선 -2404
▁주목 -2405
▁비용 -2406
▁MBC -2407
▁ㄸㅟㅇ -2408
▁자격 -2409
▁수정 -2410
▁ㅈㅏㄹ -2411
▁사후 -2412
ㅓㅅ -2413
▁춘 -2414
▁제임스 -2415
▁바이러스 -2416
▁ㅃㅜㄴ -2417
▁ㄱㅏㅇㅎㅏㄴ -2418
▁원정 -2419
▁| -2420
▁건강 -2421
▁공급 -2422
▁스티 -2423
▁계기 -2424
▁1945 -2425
▁본래 -2426
▁소장 -2427
▁비밀 -2428
ent -2429
전히 -2430
▁ㅅㅏ -2431
▁가격 -2432
▁네트워크 -2433
▁ㅎㅑ -2434
스카 -2435
▁궤도 -2436
▁명단 -2437
▁전라남도 -2438
▁만드 -2439
▁공부 -2440
▁심리 -2441
▁컬 -2442
▁ㅈㅕ -2443
▁펠 -2444
▁ㅂㅗㄴㅐㅆ -2445
▁물론 -2446
▁부모 -2447
▁합류 -2448
▁라운드 -2449
▁제거 -2450
▁자원 -2451
▁늘 -2452
▁카운 -2453
▁농업 -2454
▁이래 -2455
▁홈런 -2456
▁명예 -2457
▁셰 -2458
▁객 -2459
▁체육 -2460
▁성우 -2461
▁집중 -2462
▁각종 -2463
▁거대 -2464
▁시내 -2465
50 -2466
▁감염 -2467
▁입학 -2468
▁에드 -2469
▁증명 -2470
▁오후 -2471
▁작성 -2472
▁ㅇㅡㅁㅕㄴㅅㅓ -2473
▁ㅅㅣㅋㅣㄴ -2474
▁가입 -2475
▁인근 -2476
▁듣 -2477
▁천문 -2478
▁ㅁㅏㅈ -2479
▁군인 -2480
▁전사 -2481
▁소송 -2482
▁ㅇㅗㄻㄱㅕ -2483
▁이슬람 -2484
▁국경 -2485
▁저항 -2486
▁베네 -2487
▁학문 -2488
▁공군 -2489
피아 -2490
▁측면 -2491
티나 -2492
▁미디어 -2493
▁통제 -2494
베르 -2495
▁가리키 -2496
▁강조 -2497
▁왼 -2498
▁피아 -2499
▁병력 -2500
▁끌 -2501
▁터미 -2502
▁인수 -2503
▁ㅆㅓㅆ -2504
▁신호 -2505
동안 -2506
니어 -2507
▁세이 -2508
▁울산 -2509
▁나누 -2510
▁블랙 -2511
▁이번 -2512
▁찰 -2513
▁터키 -2514
▁광고 -2515
▁플로 -2516
▁ㄱㅏㅈㅊ -2517
▁ㄷㅡ -2518
▁실행 -2519
▁St -2520
▁ㄱㅏㄲㅏㅇㅜㄴ -2521
▁움직 -2522
리포 -2523
▁너무 -2524
ㅇㅣ -2525
▁질량 -2526
▁해방 -2527
▁만약 -2528
ot -2529
▁콩 -2530
▁포지션 -2531
▁마치 -2532
▁엑 -2533
▁변호 -2534
▁기회 -2535
▁정착 -2536
▁병사 -2537
▁무장 -2538
ㄷㅇㅏ -2539
도로 -2540
▁ㅇㅣㄹㅜㅇㅓㅈㅕ -2541
▁냉 -2542
▁겨울 -2543
▁오른 -2544
▁터미널 -2545
▁최소 -2546
▁ㄱㅏㅈㅕ -2547
▁노동자 -2548
ㄱㅏㄴㄷㅏ -2549
▁읽 -2550
▁놀 -2551
▁비트 -2552
▁전반 -2553
▁제목 -2554
철도 -2555
ㅎㅕ -2556
▁금융 -2557
▁x -2558
un -2559
드로 -2560
▁약간 -2561
▁아우 -2562
▁몽골 -2563
▁강원도 -2564
▁태평양 -2565
▁유도 -2566
▁편집 -2567
▁37 -2568
ow -2569
▁국방 -2570
▁ㅍㅕㄹ -2571
▁마리아 -2572
▁바람 -2573
▁ㅁㅔ -2574
▁마쓰 -2575
▁ㄱㅏㅈㅕㅆ -2576
▁다니 -2577
▁in -2578
▁잎 -2579
▁고전 -2580
▁쇠 -2581
▁환자 -2582
▁사례 -2583
▁전개 -2584
▁들어가 -2585
▁ㄷㅏㄹㄹ -2586
▁ㅇㅣㄴㅎㅏㄴ -2587
▁혐의 -2588
스키 -2589
▁지점 -2590
▁재산 -2591
ㅂㅗ -2592
▁도중 -2593
▁허용 -2594
▁표면 -2595
▁ㄴㅏㅇㅘㅆ -2596
▁마련 -2597
▁근대 -2598
▁카르 -2599
오카 -2600
▁재정 -2601
▁합병 -2602
소리 -2603
▁충분 -2604
▁밀도 -2605
▁무렵 -2606
▁래 -2607
▁가스 -2608
▁인디 -2609
▁힐 -2610
▁학년 -2611
▁이하 -2612
▁전력 -2613
▁헝가리 -2614
▁만나 -2615
▁짓 -2616
▁1987 -2617
▁오사카 -2618
▁민간 -2619
▁윈도우 -2620
▁선수단 -2621
▁현실 -2622
▁가르 -2623
▁라이브 -2624
▁포르투갈 -2625
▁여전히 -2626
▁유엔 -2627
ra -2628
▁붕괴 -2629
▁등급 -2630
▁계급 -2631
▁모리 -2632
▁전역 -2633
▁뒷 -2634
▁샌 -2635
▁킹 -2636
▁그해 -2637
▁루이 -2638
▁양성 -2639
▁범위 -2640
▁w -2641
▁대수 -2642
▁41 -2643
▁갖추 -2644
▁령 -2645
▁숲 -2646
▁원칙 -2647
▁재직 -2648
마크 -2649
▁51 -2650
▁강제 -2651
▁조치 -2652
▁공공 -2653
▁털 -2654
ㅇㅛ -2655
▁엔터 -2656
ㅜㄹㄹㅓㅆ -2657
▁보고 -2658
▁꼬리 -2659
▁성질 -2660
▁적극 -2661
▁롤 -2662
▁위협 -2663
▁수입 -2664
▁충청남도 -2665
ㅇㅣㄹ -2666
▁동료 -2667
▁1986 -2668
▁공주 -2669
▁군주 -2670
▁임무 -2671
▁인하 -2672
▁온도 -2673
▁전선 -2674
▁이미지 -2675
▁ㅂㅜㄹㄹㅣㄴㄷㅏ -2676
▁영화배우 -2677
▁스튜디오 -2678
▁논문 -2679
▁1984 -2680
▁토론 -2681
▁대대 -2682
ㅇㅜㄹ -2683
▁캘리포 -2684
▁업체 -2685
▁위원장 -2686
▁승인 -2687
▁공업 -2688
▁지내 -2689
▁클라 -2690
▁대학원 -2691
▁봄 -2692
▁구축 -2693
▁양자 -2694
▁상하 -2695
▁거래 -2696
ㄱㅏㄹ -2697
▁오리 -2698
▁미치 -2699
▁위성 -2700
▁고구 -2701
▁수립 -2702
▁교사 -2703
▁출발 -2704
▁회복 -2705
▁점차 -2706
▁ㅂㅏㄷㅇㅏ -2707
▁수단 -2708
▁잭 -2709
▁ㅈㅜㄴㄷㅏ -2710
▁확보 -2711
▁섭 -2712
▁성인 -2713
▁항상 -2714
테르 -2715
▁신화 -2716
▁다섯 -2717
▁핀란드 -2718
▁역대 -2719
▁필리핀 -2720
▁캘리포니아 -2721
▁공산당 -2722
▁후지 -2723
▁아시안 -2724
▁증거 -2725
▁ㅂㅏㄷㅇㅏㄷㅡㄹ -2726
▁채택 -2727
▁스타일 -2728
ch -2729
▁드래 -2730
▁장비 -2731
▁규칙 -2732
마스 -2733
▁의료 -2734
▁강의 -2735
▁잡지 -2736
▁전하 -2737
▁ㄷㅓㄹ -2738
바이 -2739
ur -2740
▁그래서 -2741
▁시인 -2742
▁남아 -2743
▁첨 -2744
주교 -2745
▁합의 -2746
고리 -2747
▁ㅊㅏㅈ -2748
▁39 -2749
▁폭발 -2750
▁ㄹㅏㅁㅕ -2751
▁스파 -2752
▁나카 -2753
▁에피 -2754
▁기대 -2755
▁만족 -2756
▁이스라 -2757
▁부근 -2758
▁얼굴 -2759
▁모스크 -2760
▁답 -2761
▁ㄷㅚㅁ -2762
▁개편 -2763
ㄷㅏㄹ -2764
▁ㄷㅏㄴ -2765
▁꿈 -2766
▁스위스 -2767
▁선생 -2768
▁남편 -2769
▁ㄴㅐㅆ -2770
▁진화 -2771
▁400 -2772
▁일원 -2773
▁매년 -2774
▁이승 -2775
▁불가 -2776
▁장면 -2777
▁기지 -2778
▁경향 -2779
▁욕 -2780
▁대기 -2781
로드 -2782
▁1985 -2783
▁이스라엘 -2784
▁64 -2785
▁군단 -2786
▁대형 -2787
▁II -2788
▁ㅈㅔ -2789
▁토지 -2790
▁가사 -2791
▁ㅅㅐ -2792
▁해체 -2793
▁통계 -2794
▁분자 -2795
▁스리 -2796
▁끼 -2797
▁강점 -2798
▁태풍 -2799
▁아메리카 -2800
▁게이 -2801
▁종이 -2802
▁간주 -2803
▁롭 -2804
데미 -2805
▁아주 -2806
ut -2807
▁경주 -2808
▁종종 -2809
▁캄 -2810
▁어린 -2811
▁아나 -2812
ㅏㄷㅗ -2813
▁띠 -2814
▁귀국 -2815
▁붉 -2816
▁기억 -2817
백질 -2818
▁서양 -2819
우드 -2820
▁ㅅㅓㄴ -2821
▁조합 -2822
▁낭 -2823
▁항성 -2824
키아 -2825
레이드 -2826
▁아랍 -2827
▁알리 -2828
▁수원 -2829
▁꾸 -2830
▁성과 -2831
▁의학 -2832
▁ㅂㅜㄹㄹㅓㅆ -2833
▁버리 -2834
고기 -2835
▁청소년 -2836
▁이제 -2837
▁감정 -2838
▁확실 -2839
▁i -2840
▁폼 -2841
▁스피 -2842
▁ㄴㅡ -2843
▁쉬 -2844
▁클래 -2845
▁ㄱㅡㄹㅕ -2846
▁사항 -2847
▁좀 -2848
▁초반 -2849
▁ㅇㅔㄱㅔㅅㅓ -2850
▁레코드 -2851
▁보장 -2852
▁향상 -2853
▁43 -2854
um -2855
▁대장 -2856
▁삼국 -2857
▁ㅇㅕㄹㄹㅕㅆ -2858
▁투어 -2859
▁그곳 -2860
▁탑재 -2861
▁침공 -2862
▁장식 -2863
▁ㅇㅣㄹㅇㅓㄴㅏㅆ -2864
▁어떻 -2865
▁아카데미 -2866
▁짐 -2867
▁소년 -2868
▁고양 -2869
▁융 -2870
▁틀 -2871
▁카메 -2872
▁LG -2873
▁자금 -2874
▁ㅎㅐㄷㅗ -2875
▁세우 -2876
오프 -2877
▁메이저 -2878
▁만큼 -2879
▁랭 -2880
▁란 -2881
▁나폴 -2882
▁청나라 -2883
▁ㅈㅗ -2884
오스 -2885
▁평양 -2886
▁켄 -2887
▁불과 -2888
▁고구려 -2889
▁선고 -2890
보드 -2891
요시 -2892
▁42 -2893
▁ㅌㅐㅇㅓㄴㅏㄴ -2894
▁나치 -2895
▁중화민국 -2896
▁신앙 -2897
▁ㄸㅓㄹㅇㅓㅈㅕ -2898
▁남동 -2899
라비아 -2900
▁대립 -2901
▁ㅂㅗㄴㅐ -2902
▁보병 -2903
▁단백질 -2904
▁줄거리 -2905
라노 -2906
ir -2907
ver -2908
▁전설 -2909
▁라틴 -2910
ㅏㅈㅕ -2911
▁우선 -2912
▁독자 -2913
▁잠시 -2914
네스 -2915
▁ㄱㅡ -2916
▁확정 -2917
타인 -2918
▁고문 -2919
▁br -2920
▁숭 -2921
▁만주 -2922
틀랜드 -2923
▁빠르 -2924
▁박쥐 -2925
▁55 -2926
▁선거구 -2927
▁단지 -2928
▁스케 -2929
▁신설 -2930
▁1982 -2931
▁모르 -2932
▁맛 -2933
▁살해 -2934
운동 -2935
▁카운티 -2936
소드 -2937
네시아 -2938
▁차별 -2939
▁지시 -2940
▁우수 -2941
▁스카 -2942
▁복잡 -2943
▁이끄 -2944
▁구체 -2945
▁ㅅㅔㅇㅜㄴ -2946
▁판결 -2947
▁철도역 -2948
▁의장 -2949
▁ㅇㅢㅎㅐㅅㅓ -2950
▁탄생 -2951
▁ㄸㅏㄹㅏㅅㅓ -2952
▁육상 -2953
에르 -2954
▁비율 -2955
▁전화 -2956
▁검찰 -2957
▁예상 -2958
▁성당 -2959
▁창설 -2960
▁함대 -2961
im -2962
다이 -2963
▁광역시 -2964
▁온라인 -2965
FC -2966
▁삭 -2967
▁브랜드 -2968
▁편입 -2969
일러 -2970
▁법인 -2971
▁왕위 -2972
▁재단 -2973
▁44 -2974
▁ㅇㅏㄹㄹㅕㅈㅕㅆ -2975
▁마크 -2976
ㅅㅓㅆ -2977
▁솔로 -2978
▁덴마크 -2979
트라 -2980
누스 -2981
▁수출 -2982
▁저서 -2983
▁1983 -2984
▁ㄷㅏㅇㅎㅏㄴ -2985
▁브리 -2986
▁ㄸㅟㅇㅓㄴㅏㄴ -2987
▁공유 -2988
▁동의 -2989
하라 -2990
▁ㄴㅑ -2991
이크 -2992
▁킬 -2993
▁유학 -2994
▁세종 -2995
▁고향 -2996
▁강점기 -2997
▁ㄱㅏㅈㅊㅜㄴ -2998
▁보급 -2999
ㅇㅡㄹ -3000
▁반도 -3001
의회 -3002
▁47 -3003
▁나뉘 -3004
싱턴 -3005
▁ㄱㅡㄹㅣㄴ -3006
▁참석 -3007
▁ㅆㅡㅇㅣㄴㄷㅏ -3008
▁ㅁㅜㄹㄹ -3009
▁노예 -3010
▁핵심 -3011
▁전후 -3012
▁집행 -3013
▁ㅅㅣㅋㅣㄹ -3014
▁Z -3015
▁마드리 -3016
CA -3017
▁하늘 -3018
▁암살 -3019
▁애플 -3020
▁ㅌㅗㅇㅎㅏㄴ -3021
▁고정 -3022
▁협상 -3023
ay -3024
반도 -3025
▁이루어지 -3026
없이 -3027
▁마드리드 -3028
▁사전 -3029
▁ㄴㅏㅇㅘ -3030
▁법칙 -3031
▁본격 -3032
▁보안 -3033
▁ㅎㅏㅂ -3034
▁듯 -3035
▁저장 -3036
▁후손 -3037
▁ㄱㅓㄴㄴ -3038
▁이란 -3039
▁회전 -3040
▁ㅎㅐㅆㅇㅓㅆ -3041
▁롯 -3042
▁이성 -3043
비드 -3044
▁중반 -3045
▁사우 -3046
▁ㄴㅔ -3047
▁ㅇㅗㄹㄹㅕㅆ -3048
▁의무 -3049
▁헤이 -3050
▁오픈 -3051
▁아르헨 -3052
▁플랫 -3053
▁논리 -3054
▁주교 -3055
▁대비 -3056
▁관료 -3057
▁권한 -3058
▁카를 -3059
퍼스 -3060
▁자세 -3061
▁184 -3062
▁75 -3063
각형 -3064
▁전용 -3065
▁산맥 -3066
▁대항 -3067
레이션 -3068
▁ㅂㅜㄹㄹㅓ -3069
▁숫 -3070
▁순서 -3071
▁연고 -3072
▁까 -3073
▁사라 -3074
▁180 -3075
▁이익 -3076
▁상품 -3077
▁전혀 -3078
셔널 -3079
▁하위 -3080
▁v -3081
▁앞두 -3082
▁베를 -3083
▁공학 -3084
▁중세 -3085
▁유적 -3086
▁옷 -3087
▁베이스 -3088
▁1972 -3089
▁아르헨티나 -3090
▁ㄹㅣ -3091
▁플레이오프 -3092
▁지키 -3093
▁ㅊㅏㅈㅇㅏ -3094
▁단일 -3095
문화 -3096
▁어린이 -3097
▁시각 -3098
▁공기 -3099
원군 -3100
▁갈등 -3101
▁ㅈㅣㄴㅏ -3102
▁직원 -3103
리스트 -3104
▁인상 -3105
▁로버트 -3106
▁에피소드 -3107
▁말기 -3108
▁1920 -3109
▁ㄷㅜㄴ -3110
어들 -3111
▁아스 -3112
▁켈 -3113
▁46 -3114
▁프란 -3115
터리 -3116
▁의도 -3117
▁CD -3118
▁조금 -3119
ㅇㅏㄴ -3120
▁ㅇㅔㅅㅓㄴ -3121
▁보조 -3122
▁을 -3123
▁스크 -3124
▁중심지 -3125
▁운전 -3126
▁창조 -3127
▁떨 -3128
으키 -3129
▁ㅎㅡㄹ -3130
▁아파 -3131
▁공포 -3132
▁잘못 -3133
▁협정 -3134
▁아미 -3135
▁ㄹㅏㅁㅕㄴ -3136
▁ㅂㅜ -3137
▁흔히 -3138
▁변호사 -3139
▁공무원 -3140
▁요한 -3141
▁원리 -3142
▁워싱턴 -3143
▁인권 -3144
▁빨 -3145
▁효소 -3146
▁비난 -3147
▁수여 -3148
▁성경 -3149
▁글로 -3150
▁1979 -3151
▁원주 -3152
▁하드 -3153
리어 -3154
▁ㄷㅡㅅ -3155
▁별도 -3156
▁레드 -3157
▁텐 -3158
▁셋 -3159
▁정복 -3160
▁튀 -3161
ㅁㅏ -3162
▁In -3163
퍼드 -3164
▁전라북도 -3165
▁작곡가 -3166
ㅕㄴ -3167
▁투입 -3168
▁1930 -3169
▁엠 -3170
정부 -3171
▁ㄴㅡㄲ -3172
▁교류 -3173
▁파크 -3174
▁우크 -3175
▁장착 -3176
▁오히 -3177
▁소식 -3178
▁쌓 -3179
▁벡 -3180
▁논쟁 -3181
▁방면 -3182
▁kg -3183
▁드러 -3184
▁본인 -3185
사키 -3186
▁현장 -3187
▁빙 -3188
무라 -3189
▁건국 -3190
▁공화 -3191
▁논의 -3192
▁심각 -3193
▁ㅍㅓ -3194
▁어떻게 -3195
▁원작 -3196
▁호텔 -3197
▁항복 -3198
ㄹㄹㅕㅆ -3199
▁1981 -3200
▁플라 -3201
▁ㄴㅗㅎ -3202
▁ㅈㅓㅂ -3203
▁1973 -3204
▁150 -3205
▁강하 -3206
10 -3207
▁공산주의 -3208
▁아침 -3209
▁훨 -3210
▁중부 -3211
▁숨 -3212
▁교토 -3213
os -3214
▁출마 -3215
▁ㅈㅜㄱ -3216
▁건조 -3217
▁헨리 -3218
▁마이클 -3219
▁인류 -3220
▁금메달 -3221
▁노스 -3222
▁유전자 -3223
▁운용 -3224
▁무리 -3225
▁요새 -3226
▁세인트 -3227
▁사태 -3228
▁투쟁 -3229
▁훨씬 -3230
▁코미 -3231
▁에어 -3232
▁오토 -3233
▁창립 -3234
▁니콜 -3235
▁연합군 -3236
▁합성 -3237
▁연산 -3238
▁오랜 -3239
▁코스 -3240
▁로드 -3241
▁오른쪽 -3242
▁김정 -3243
▁예산 -3244
▁추측 -3245
▁멸망 -3246
▁절대 -3247
▁플레이어 -3248
▁산하 -3249
▁금속 -3250
▁방출 -3251
▁태국 -3252
▁1940 -3253
▁끊 -3254
▁릴 -3255
▁한때 -3256
▁인정받 -3257
30 -3258
▁인공 -3259
ter -3260
▁서기 -3261
▁왼쪽 -3262
em -3263
▁노르웨이 -3264
▁모스크바 -3265
▁구별 -3266
▁메시 -3267
▁복합 -3268
▁북서 -3269
▁ㅂㅣㄴ -3270
▁형사 -3271
▁베이징 -3272
▁1974 -3273
BO -3274
▁주위 -3275
일보 -3276
▁미니 -3277
▁트랙 -3278
▁사령관 -3279
▁스코틀랜드 -3280
▁효율 -3281
▁일으키 -3282
▁해양 -3283
▁각본 -3284
▁제자 -3285
시스 -3286
▁185 -3287
▁반복 -3288
▁오히려 -3289
▁인종 -3290
카와 -3291
▁전철 -3292
▁오전 -3293
▁블루 -3294
▁연관 -3295
▁정비 -3296
▁입자 -3297
▁사법 -3298
▁열리 -3299
▁ㅂㅐㅇ -3300
▁제출 -3301
▁해상 -3302
젤레스 -3303
▁출장 -3304
▁노부 -3305
▁숫자 -3306
▁댄 -3307
▁집안 -3308
▁델 -3309
▁주기 -3310
▁ㄴㅐㄹㅕㅆ -3311
▁신체 -3312
▁베를린 -3313
▁군수 -3314
▁보험 -3315
▁SBS -3316
▁웨스트 -3317
▁슬로 -3318
▁마침 -3319
▁분쟁 -3320
▁54 -3321
▁인터뷰 -3322
▁중대 -3323
머스 -3324
▁목사 -3325
▁포위 -3326
▁하나님 -3327
▁인조 -3328
나이티 -3329
▁흡수 -3330
라크 -3331
▁탁 -3332
듀서 -3333
▁프로듀서 -3334
▁유나이티 -3335
▁축제 -3336
ㄹㅓ -3337
▁디스 -3338
▁1948 -3339
▁이민 -3340
▁거절 -3341
▁수송 -3342
▁이어지 -3343
▁ㄹㅏㅇ -3344
▁소방 -3345
▁시점 -3346
▁ㅂㅜㄹㄹㅕㅆ -3347
▁포기 -3348
▁구속 -3349
▁취급 -3350
▁소녀 -3351
▁1968 -3352
▁자이 -3353
▁ㅅㅣㅋㅣㄴㄷㅏ -3354
▁활발 -3355
▁관점 -3356
도르 -3357
▁ㄷㅔㄹ -3358
▁1976 -3359
▁북동 -3360
▁개시 -3361
▁ㄸㅏ -3362
▁명성 -3363
다리 -3364
▁건립 -3365
▁보스 -3366
▁우스 -3367
▁전공 -3368
▁출입 -3369
▁파라 -3370
▁ㅂㅏㄲㅇㅔ -3371
▁고용 -3372
▁갤 -3373
▁견해 -3374
op -3375
▁지니 -3376
▁직업 -3377
▁사령부 -3378
▁가로 -3379
▁ㅂㅜㅌㅇㅕ -3380
▁진보 -3381
▁1975 -3382
▁프라 -3383
▁ㅌㅗㅇㅎㅐㅅㅓ -3384
▁경성 -3385
▁ㅈㅣㅋ -3386
▁한국어 -3387
데스 -3388
▁응용 -3389
▁활성 -3390
▁히데 -3391
▁부활 -3392
▁빼 -3393
▁ㄷㅡㄹㅇㅓㄱㅏㅆ -3394
서트 -3395
▁국도 -3396
▁주택 -3397
▁생기 -3398
▁성능 -3399
▁학습 -3400
▁신성 -3401
▁불법 -3402
▁읍 -3403
다가 -3404
▁동원 -3405
▁장악 -3406
▁주전 -3407
▁ㄹㅏㄷㅗ -3408
▁농민 -3409
▁어렵 -3410
▁ㄴㅐㄴ -3411
▁죽이 -3412
▁영화제 -3413
ㅡㅁㄷㅏ -3414
▁소스 -3415
▁ㅇㅏㄹㅡㅁㄷㅏ -3416
▁취득 -3417
▁여부 -3418
▁ㅅㅗㄱㅎㅏㄴㄷㅏ -3419
▁음력 -3420
▁정체 -3421
▁일치 -3422
▁비록 -3423
▁명명 -3424
▁56 -3425
▁직전 -3426
▁총독 -3427
ag -3428
▁고유 -3429
▁보컬 -3430
▁유물 -3431
▁후원 -3432
쿠라 -3433
▁전부 -3434
▁1978 -3435
▁폭력 -3436
▁1971 -3437
▁52 -3438
▁포도 -3439
▁ㄴㅏㄹ -3440
▁Q -3441
▁국장 -3442
▁이기 -3443
▁1963 -3444
▁미드 -3445
▁한자 -3446
리케 -3447
▁여객철도 -3448
▁대리 -3449
▁ㄷㅓㄹㅏㄷㅗ -3450
▁연료 -3451
▁혼란 -3452
에트 -3453
키스탄 -3454
▁천체 -3455
어스 -3456
▁항공기 -3457
▁선교 -3458
▁문헌 -3459
▁코미디 -3460
▁65 -3461
▁약속 -3462
▁편지 -3463
▁시리아 -3464
▁타이완 -3465
세이 -3466
▁49 -3467
▁그리스도 -3468
▁닌 -3469
▁교차 -3470
▁브레 -3471
▁상당히 -3472
▁ㅎㅐㅈㅕㅆ -3473
▁임금 -3474
▁ㅈㅣㄴㄷㅏ -3475
산시 -3476
▁수술 -3477
메리 -3478
ce -3479
자기 -3480
▁주관 -3481
▁도달 -3482
▁떠나 -3483
▁팝 -3484
▁관직 -3485
▁북아 -3486
▁로스앤 -3487
▁로스앤젤레스 -3488
▁백제 -3489
▁제어 -3490
▁본사 -3491
릭스 -3492
▁일대 -3493
▁미나 -3494
▁철수 -3495
▁반영 -3496
▁아테 -3497
▁화물 -3498
▁예비 -3499
기에 -3500
▁수집 -3501
▁취하 -3502
▁상륙 -3503
▁테러 -3504
▁넷 -3505
▁둥 -3506
▁무엇 -3507
▁1969 -3508
▁대화 -3509
▁ㅈㅣㄴㅐㄴ -3510
▁ㅇㅐㄴ -3511
▁도구 -3512
▁주간 -3513
▁스마 -3514
▁의존 -3515
노스 -3516
▁영업 -3517
▁ㅇㅣㄹㅇㅡㅋㅕㅆ -3518
▁고종 -3519
▁교환 -3520
▁179 -3521
▁ㄷㅏㅁㅕ -3522
▁캠퍼스 -3523
▁콘서트 -3524
▁00 -3525
▁학술 -3526
▁십자 -3527
▁계통 -3528
OS -3529
▁장교 -3530
▁전파 -3531
▁프로세 -3532
▁항구 -3533
▁증상 -3534
▁아사 -3535
▁그런데 -3536
ㅓㅈㅣㄴ -3537
▁내리 -3538
▁보관 -3539
▁해산 -3540
▁정지 -3541
▁데이비드 -3542
▁재료 -3543
▁ㅆㅡㄹ -3544
▁학부 -3545
▁롯데 -3546
▁정원 -3547
▁구성원 -3548
▁자살 -3549
▁ㄸㅓㄴㅏㅆ -3550
▁53 -3551
▁사운드 -3552
아내 -3553
▁전문가 -3554
▁프리미 -3555
▁톰 -3556
▁상승 -3557
▁모드 -3558
▁연재 -3559
▁하우스 -3560
▁개체 -3561
▁주식회사 -3562
▁.. -3563
▁코로나 -3564
▁스미 -3565
▁1946 -3566
▁방사 -3567
▁영향력 -3568
▁백작 -3569
▁SK -3570
▁판서 -3571
▁부임 -3572
▁박정 -3573
공항 -3574
▁핑 -3575
▁살인 -3576
▁반발 -3577
▁허가 -3578
oc -3579
▁ㄹㅗㅇㅜㄴ -3580
▁거기 -3581
▁발언 -3582
▁간단 -3583
▁영입 -3584
프리 -3585
▁김영 -3586
▁공통 -3587
▁진입 -3588
▁리스 -3589
▁헤르 -3590
▁ㄱㅓㄷ -3591
▁질병 -3592
▁ㅁㅓㅁ -3593
▁불상 -3594
▁겐 -3595
▁ㅍㅣ -3596
▁망명 -3597
▁제일 -3598
▁ㅃㅏㄹㅡㄴ -3599
이어 -3600
▁사유 -3601
▁위반 -3602
▁접하 -3603
▁ㄲㅡㅌㄴ -3604
▁파트 -3605
▁1964 -3606
▁신분 -3607
▁안타 -3608
▁외국인 -3609
병대 -3610
▁99 -3611
▁니시 -3612
▁브루 -3613
▁뿌 -3614
▁기도 -3615
미터 -3616
▁절차 -3617
▁화성 -3618
▁베스트 -3619
▁보건 -3620
▁한반도 -3621
▁리더 -3622
▁에도 -3623
▁US -3624
▁시호 -3625
▁참전 -3626
ㅓㅇ -3627
▁감사 -3628
▁인도네시아 -3629
▁사장 -3630
▁저작 -3631
▁학원 -3632
▁자녀 -3633
▁벨기에 -3634
ri -3635
▁미터 -3636
▁대략 -3637
▁서버 -3638
▁랜 -3639
▁포트 -3640
ㅈㅜㄴㄷㅏ -3641
▁변형 -3642
▁고리 -3643
ㅅㅡㄹ -3644
▁소비에트 -3645
▁그레 -3646
▁탈락 -3647
▁변환 -3648
▁창단 -3649
▁꼭 -3650
▁바라 -3651
▁시카 -3652
▁충청북도 -3653
▁페이 -3654
▁횡 -3655
▁조작 -3656
▁진압 -3657
▁트랜 -3658
▁58 -3659
▁폴리 -3660
▁피아노 -3661
▁스토 -3662
▁승진 -3663
▁마케 -3664
▁통상 -3665
▁ㄹㅔ -3666
▁가을 -3667
▁탈출 -3668
▁1000 -3669
▁부장 -3670
하마 -3671
정식 -3672
▁픽 -3673
▁PC -3674
▁and -3675
▁학회 -3676
▁스프 -3677
▁ㄱㅏㄴ -3678
▁채용 -3679
▁아라 -3680
▁국제공항 -3681
▁복무 -3682
▁루이스 -3683
ㅏㅈㅕㅆ -3684
▁식품 -3685
▁임대 -3686
▁청구 -3687
▁요인 -3688
▁주년 -3689
▁현역 -3690
▁신청 -3691
▁말레이 -3692
▁콤 -3693
▁ㅇㅏㅇㅑ -3694
▁공동체 -3695
▁문장 -3696
▁저지 -3697
▁지붕 -3698
▁요코 -3699
▁작사 -3700
▁기하 -3701
▁분열 -3702
▁ㅂㅏㄹ -3703
▁ㅇㅛ -3704
▁이중 -3705
▁라이트 -3706
▁고도 -3707
▁동남 -3708
▁ㅅㅡㄹㅓㅇㅜㄴ -3709
▁생태 -3710
▁방송국 -3711
▁찍 -3712
▁장수 -3713
▁트라 -3714
저우 -3715
ation -3716
아들 -3717
▁합격 -3718
▁기호 -3719
▁1977 -3720
▁큐 -3721
▁조절 -3722
▁벼 -3723
▁연출 -3724
▁트로 -3725
▁ㄱㅓㄴㄴㅓ -3726
▁예측 -3727
▁탄소 -3728
▁ㄷㅡㄹㅇㅓㄱㅏ -3729
▁FA -3730
▁화면 -3731
▁민법 -3732
▁수영 -3733
▁포로 -3734
▁학과 -3735
아버지 -3736
▁1949 -3737
천군 -3738
▁임의 -3739
▁신인 -3740
igh -3741
로그 -3742
▁엑스 -3743
▁지급 -3744
▁친일 -3745
▁막부 -3746
▁국무 -3747
▁택 -3748
▁흐르 -3749
크스 -3750
▁부부 -3751
카이도 -3752
▁기법 -3753
▁특이 -3754
▁위상 -3755
▁이치 -3756
▁장르 -3757
▁취소 -3758
▁카메라 -3759
▁88 -3760
려움 -3761
▁누구 -3762
▁오페 -3763
▁동작 -3764
▁메모리 -3765
▁상원 -3766
▁ㅇㅣㄹㅝ -3767
▁앵 -3768
▁62 -3769
성군 -3770
▁레스 -3771
▁1962 -3772
▁참고 -3773
▁전동 -3774
▁서식지 -3775
▁ㅂㅗㄴㅐㄴ -3776
▁수소 -3777
▁출간 -3778
▁실수 -3779
▁정기 -3780
▁황금 -3781
▁광장 -3782
▁배출 -3783
▁선전 -3784
▁수리 -3785
▁독립운동 -3786
▁스토리 -3787
드시 -3788
▁코파 -3789
문화재 -3790
▁레오 -3791
▁화재 -3792
타르 -3793
▁개조 -3794
▁선조 -3795
▁먹이 -3796
▁생존 -3797
▁처형 -3798
▁방지 -3799
▁1967 -3800
▁남서 -3801
▁ㅅㅣㅁ -3802
브리 -3803
▁Ch -3804
▁주둔 -3805
▁기체 -3806
▁이승만 -3807
▁스럽 -3808
ㅅㅓㄴ -3809
▁ㄴㅡㄴㄱㅏ -3810
▁57 -3811
▁흑인 -3812
▁도전 -3813
▁연안 -3814
▁왕자 -3815
▁좁 -3816
▁현지 -3817
▁어떠 -3818
▁호수 -3819
▁로켓 -3820
▁롱 -3821
▁서구 -3822
▁일본군 -3823
▁이시 -3824
▁임진 -3825
▁공정 -3826
▁흉 -3827
▁콘스탄 -3828
▁오스만 -3829
라드 -3830
에이 -3831
포르 -3832
▁경로 -3833
▁동성 -3834
▁서원 -3835
▁농구 -3836
▁ㄴㅜ -3837
▁루트 -3838
천시 -3839
▁달하 -3840
▁크리 -3841
▁고지 -3842
▁You -3843
바르 -3844
▁방정식 -3845
▁히트 -3846
▁ㄴㅏㄱㅏㅆ -3847
▁ㅆㅓ -3848
▁천연 -3849
▁ㅌㅐㅇㅓㄴㅏㅆㅇㅡㅁㅕ -3850
▁ㅇㅣㅂㄴㅣㄷㅏ -3851
▁제대로 -3852
▁희망 -3853
▁반드시 -3854
▁등지 -3855
▁의혹 -3856
▁싸움 -3857
▁여단 -3858
아오 -3859
▁동기 -3860
▁성향 -3861
▁ㄴㅏㅌㅏㄴㅏㅆ -3862
▁좌우 -3863
▁ㄴㅏㅁㄱㅕㅆ -3864
▁ㄷㅚㄴㄷㅏㄴㅡㄴ -3865
인물 -3866
먼트 -3867
▁분명 -3868
▁동아 -3869
▁무덤 -3870
▁전주 -3871
비치 -3872
▁진주 -3873
ㅟㄴㄷㅏ -3874
nd -3875
▁노벨 -3876
▁터널 -3877
▁톱 -3878
▁그레이 -3879
▁181 -3880
▁타임 -3881
▁스탠 -3882
▁미국인 -3883
▁시드 -3884
▁인지 -3885
▁압력 -3886
ㄱㅣㄹ -3887
더스 -3888
▁전면 -3889
▁파악 -3890
▁둘째 -3891
▁이온 -3892
▁한계 -3893
▁목소리 -3894
▁내전 -3895
▁법정 -3896
▁전형 -3897
▁신뢰 -3898
▁코르 -3899
▁짜 -3900
베스 -3901
▁유기 -3902
▁ㄷㅜㄹㄹㅓㅆ -3903
▁66 -3904
▁1966 -3905
라이언 -3906
▁독특 -3907
티브 -3908
▁녹색 -3909
▁ㅊㅣㄹㅓㅆ -3910
▁r -3911
바라 -3912
▁에르 -3913
ST -3914
▁개신 -3915
▁해리 -3916
▁처벌 -3917
▁ㅇㅣㄴㄱㅏ -3918
▁범주 -3919
▁글자 -3920
▁비평 -3921
▁물체 -3922
▁%, -3923
▁체코 -3924
▁유행 -3925
▁홋 -3926
ON -3927
▁삽 -3928
▁68 -3929
▁ㅁㅗㅇㅏ -3930
▁즐 -3931
▁아동 -3932
▁별명 -3933
▁아파트 -3934
ㄹㄹㅣㄴ -3935
▁ㅁㅗㅇㅕ -3936
▁복지 -3937
▁1965 -3938
▁순환 -3939
▁매일 -3940
▁뿌리 -3941
▁리처 -3942
▁61 -3943
▁부사 -3944
▁분할 -3945
▁오프 -3946
방송 -3947
▁ㅊㅟ -3948
▁추구 -3949
▁방해 -3950
▁돌아가 -3951
▁KBO -3952
▁아프 -3953
ㅇㅗㄹ -3954
▁모형 -3955
▁ㅁㅗㄹ -3956
▁밥 -3957
▁평등 -3958
▁퀸 -3959
▁ㅂㅘ -3960
▁분해 -3961
▁183 -3962
▁타격 -3963
▁실질 -3964
▁우려 -3965
▁클레 -3966
▁집권 -3967
▁바둑 -3968
▁구하 -3969
▁간행 -3970
치아 -3971
▁구현 -3972
▁알렉산드 -3973
▁ㅌㅏ -3974
질랜드 -3975
▁화산 -3976
이치 -3977
▁뉴질랜드 -3978
ㅏㅈㅣㄴ -3979
▁던 -3980
▁김일 -3981
▁마르크 -3982
▁광복 -3983
▁한정 -3984
ER -3985
▁싸우 -3986
르타 -3987
▁희생 -3988
▁부진 -3989
▁묵 -3990
▁일찍 -3991
▁찰스 -3992
피스 -3993
▁맞이 -3994
▁닥 -3995
▁풍부 -3996
▁뮤지 -3997
▁최다 -3998
▁첼 -3999
▁ㄲㅡㅌㄴㅏㄴ -4000
art -4001
유럽 -4002
ㅅㅔ -4003
▁나들 -4004
▁사립 -4005
▁플래 -4006
▁완료 -4007
▁웅 -4008
▁가상 -4009
텐츠 -4010
▁시조 -4011
▁마시 -4012
▁ㅂㅓㄹㅕㅆ -4013
▁ㅇㅣㄹㅜㄴㄷㅏ -4014
▁ㅈㅓㅇㅎㅐ -4015
▁일식 -4016
▁아리 -4017
▁1961 -4018
▁벡터 -4019
디션 -4020
▁800 -4021
▁86 -4022
▁파르 -4023
▁마침내 -4024
▁사원 -4025
▁테이 -4026
▁물리학 -4027
▁ㅁㅏㄴㄴㅏ -4028
▁마법 -4029
▁ㅈㅣㄴㅣㄴ -4030
▁대개 -4031
▁손자 -4032
▁통산 -4033
▁대법 -4034
▁사냥 -4035
▁분위 -4036
▁근본 -4037
▁악기 -4038
▁레인 -4039
▁의지 -4040
▁전원 -4041
▁ㅎㅑㅇㅎㅐ -4042
▁중기 -4043
▁점점 -4044
▁호주 -4045
▁확산 -4046
▁오페라 -4047
▁가까 -4048
▁캔 -4049
▁일본인 -4050
▁분기 -4051
▁600 -4052
▁120 -4053
투스 -4054
믹스 -4055
▁사형 -4056
▁올라 -4057
▁출범 -4058
▁나들목 -4059
▁부하 -4060
ice -4061
▁웨이 -4062
▁판사 -4063
▁향하 -4064
▁갈색 -4065
▁흰 -4066
▁알파 -4067
▁프린 -4068
사자 -4069
est -4070
▁회담 -4071
▁창원 -4072
▁가시 -4073
▁영웅 -4074
▁유치 -4075
▁충격 -4076
▁IS -4077
▁여론 -4078
▁완공 -4079
▁시카고 -4080
▁리가 -4081
▁기둥 -4082
▁명확 -4083
▁개입 -4084
▁샘 -4085
은행 -4086
▁교향 -4087
▁ㄴㅏㅌㅏㄴㅏㄴㄷㅏ -4088
▁저술 -4089
ia -4090
▁단독 -4091
▁훗 -4092
▁날개 -4093
▁카라 -4094
▁대공 -4095
▁무게 -4096
▁가나 -4097
▁맞추 -4098
▁사임 -4099
▁포인트 -4100
▁모토 -4101
▁인접 -4102
▁메리 -4103
▁악화 -4104
▁훌 -4105
▁발굴 -4106
▁이자 -4107
▁ㅇㅡㄹㅕ -4108
▁적절 -4109
리히 -4110
▁인증 -4111
▁편찬 -4112
▁ㅁㅏㅈㅊ -4113
▁늦 -4114
▁98 -4115
▁조별 -4116
▁사마 -4117
▁1919 -4118
▁닛 -4119
▁순간 -4120
▁홍보 -4121
▁제이 -4122
틀러 -4123
▁문명 -4124
사스 -4125
▁상위 -4126
▁꺾 -4127
▁무시 -4128
▁의심 -4129
▁ㄴㅏㅆ -4130
▁뚜 -4131
TV -4132
▁조종 -4133
▁ㅅㅐㅇㄱㅕ -4134
▁ㄷㅚㄴㄷㅏㄱㅗ -4135
ap -4136
▁re -4137
▁명나라 -4138
▁함락 -4139
▁탐사 -4140
AR -4141
▁기기 -4142
▁렀 -4143
▁등장인물 -4144
▁성분 -4145
▁끝나 -4146
▁당초 -4147
▁밝히 -4148
▁연간 -4149
▁도쿠 -4150
▁자극 -4151
▁서명 -4152
▁순수 -4153
▁징역 -4154
▁곽 -4155
▁접촉 -4156
▁득표 -4157
▁연구원 -4158
▁멘 -4159
▁각지 -4160
ak -4161
▁그때 -4162
▁새롭 -4163
▁1944 -4164
ㅁㅊ -4165
▁느끼 -4166
▁추천 -4167
▁임기 -4168
우리 -4169
▁모임 -4170
▁사정 -4171
▁ㄷㅏㅁ -4172
▁이닝 -4173
▁드라이 -4174
▁구원 -4175
민주 -4176
▁넓이 -4177
▁학살 -4178
▁입법 -4179
▁그라 -4180
버그 -4181
▁스마트 -4182
▁ㅃㅏㅈㅕ -4183
ㅓㄴㅏㄹ -4184
▁독일군 -4185
▁태도 -4186
▁올해 -4187
▁63 -4188
▁행렬 -4189
라이나 -4190
▁ㅇㅗㄹㄹㅕ -4191
▁95 -4192
일리 -4193
▁포항 -4194
▁ㅅㅣㄴ -4195
▁DNA -4196
▁고속도로 -4197
연히 -4198
▁링크 -4199
▁변수 -4200
▁사실상 -4201
▁골든 -4202
▁1941 -4203
▁뱅 -4204
▁팽 -4205
▁동서 -4206
▁세르비아 -4207
▁개막 -4208
▁프리미어 -4209
ㅂㅗㅇ -4210
▁루스 -4211
▁ㄱㅗㄴ -4212
▁아티 -4213
▁실현 -4214
▁ㄸㅓㄴㅏ -4215
▁심사 -4216
메이 -4217
▁74 -4218
▁정하 -4219
▁ㄷㅗㅇㅘ -4220
▁59 -4221
▁네이 -4222
▁등판 -4223
▁예전 -4224
학생 -4225
▁락 -4226
▁자전 -4227
러리 -4228
▁재배 -4229
▁한국인 -4230
▁경전 -4231
▁공헌 -4232
▁균형 -4233
ct -4234
▁벗 -4235
▁프로그래 -4236
▁혼합 -4237
▁바위 -4238
▁오랫 -4239
▁기온 -4240
▁확률 -4241
▁보고서 -4242
▁백성 -4243
▁Lo -4244
▁ㅌㅐㅇㅓㄴㅏ -4245
▁ㅅㅐㄱㅕ -4246
무부 -4247
▁언제 -4248
▁페르시아 -4249
▁ㅇㅕㅇㅑ -4250
▁공로 -4251
▁수석 -4252
▁감시 -4253
▁튜 -4254
▁커뮤 -4255
▁닉 -4256
▁178 -4257
▁매장 -4258
ㅎㅐㅈㅕㅆ -4259
▁방위 -4260
▁개신교 -4261
ㅎㅣㄴ -4262
ul -4263
▁앤드 -4264
▁ㅂㅓㅅ -4265
▁떨어지 -4266
▁대선 -4267
▁침략 -4268
▁긍 -4269
▁시사 -4270
숭이 -4271
▁출력 -4272
▁분위기 -4273
▁영지 -4274
▁ㅈㅡㄹ -4275
▁IC -4276
▁훗날 -4277
▁양쪽 -4278
▁급제 -4279
▁흐름 -4280
▁오랫동안 -4281
대부 -4282
코스 -4283
▁왕실 -4284
▁프라이 -4285
▁72 -4286
▁이라크 -4287
▁춤 -4288
▁단편 -4289
▁무사 -4290
▁미쓰 -4291
▁안드로 -4292
▁승부 -4293
▁대량 -4294
▁커뮤니 -4295
▁지형 -4296
▁특별시 -4297
▁추산 -4298
▁텍사스 -4299
▁ㅎㅏㄴㄷㅏㅁㅕㄴ -4300
▁82 -4301
▁재건 -4302
▁160 -4303
▁1947 -4304
▁랜드 -4305
이너 -4306
▁SS -4307
▁1958 -4308
▁76 -4309
▁원형 -4310
▁그래픽 -4311
▁에드워드 -4312
▁ㅎㅏㅂㅊㅕ -4313
ㅝㄴ -4314
▁권위 -4315
▁다케 -4316
▁뮤지컬 -4317
▁미야 -4318
▁피터 -4319
▁리처드 -4320
▁신부 -4321
▁안토 -4322
▁줄기 -4323
▁내려 -4324
▁ㅇㅓㄹㅕㅇㅜㄴ -4325
ㅇㅡㅁ -4326
▁복원 -4327
▁점수 -4328
ㄱㅓㅇㅜㄴ -4329
▁확립 -4330
▁ㄱㅕ -4331
▁1956 -4332
▁to -4333
▁마무 -4334
▁여왕 -4335
▁동명 -4336
▁발발 -4337
▁아이돌 -4338
▁프랑크 -4339
▁시상 -4340
ie -4341
▁석유 -4342
▁저녁 -4343
▁자라 -4344
▁타자 -4345
▁가와 -4346
▁ㅋㅡㄹ -4347
▁ㅇㅔㅅㅓㅂㅜㅌㅓ -4348
리노 -4349
▁멀리 -4350
▁일상 -4351
▁경남 -4352
▁제사 -4353
▁ㅍㅏㄹ -4354
▁ㅋㅣ -4355
▁승객 -4356
ㄱㅎㅏㄴ -4357
▁AFC -4358
▁77 -4359
▁비상 -4360
▁파워 -4361
▁복수 -4362
▁테스트 -4363
▁입력 -4364
▁침입 -4365
▁브라운 -4366
▁리버 -4367
▁도요 -4368
▁;/ -4369
▁보물 -4370
▁복음 -4371
▁작위 -4372
▁데스 -4373
▁ㅍㅐ -4374
▁교구 -4375
▁포켓 -4376
▁ㅅㅗㄱㅎㅏㄴ -4377
▁수익 -4378
▁과학자 -4379
▁개설 -4380
▁업적 -4381
▁1939 -4382
▁가설 -4383
ㄹㄹㅏ -4384
메리칸 -4385
▁타워 -4386
▁바깥 -4387
▁연예 -4388
▁Th -4389
▁기소 -4390
▁안동 -4391
▁창작 -4392
▁혁신 -4393
▁더블 -4394
▁잠수 -4395
▁정수 -4396
▁한글 -4397
▁민중 -4398
▁ㅂㅏㄷㅇㅏㄷㅡㄹㅇㅕ -4399
▁가공 -4400
▁67 -4401
▁암호 -4402
레옹 -4403
레나 -4404
▁본질 -4405
ud -4406
일스 -4407
▁계층 -4408
▁힌 -4409
▁사자 -4410
▁ㅂㅏㄺㅎㅕㅈㅕㅆ -4411
▁일시 -4412
▁나폴레옹 -4413
▁당국 -4414
▁와이 -4415
og -4416
▁어깨 -4417
▁폭탄 -4418
▁그렇게 -4419
▁소득 -4420
에른 -4421
▁시마 -4422
▁신고 -4423
▁자식 -4424
IA -4425
▁동양 -4426
왜란 -4427
▁ㅊㅓ -4428
▁임진왜란 -4429
▁심지 -4430
이센 -4431
▁평론 -4432
▁병합 -4433
▁85 -4434
ㅅㅜㄹ -4435
▁축구단 -4436
ist -4437
▁사제 -4438
▁움직이 -4439
▁다운 -4440
▁대왕 -4441
▁ㅂㅓㄹㅇㅕㅆ -4442
▁공중 -4443
▁신자 -4444
▁발음 -4445
보이 -4446
▁어디 -4447
▁빌보드 -4448
▁ㅊㅣㄴ -4449
▁부지 -4450
▁주최 -4451
ly -4452
▁빅토 -4453
▁후계 -4454
th -4455
▁후속 -4456
마니아 -4457
▁력 -4458
레인 -4459
▁인쇄 -4460
▁폐쇄 -4461
▁훈장 -4462
▁도모 -4463
▁우라 -4464
▁움직임 -4465
▁진단 -4466
▁ㄱㅏㅈㅣㄴㄷㅏ -4467
▁가량 -4468
▁자이언 -4469
▁1954 -4470
▁가담 -4471
▁보상 -4472
▁내셔널 -4473
▁고통 -4474
▁노출 -4475
▁국기 -4476
체스터 -4477
▁고기 -4478
▁구글 -4479
아티아 -4480
▁크로아티아 -4481
▁ㄷㅗㄹㅇㅏㅇㅘㅆ -4482
▁돕 -4483
▁산화 -4484
▁동방 -4485
▁쌀 -4486
▁ㅎㅣㅁ -4487
▁ㅇㅏㅍㅅㅓ -4488
▁총회 -4489
▁ㅇㅏㄹㅡㅁㄷㅏㅇㅜㄴ -4490
▁국정 -4491
▁실력 -4492
▁평안 -4493
ight -4494
▁참모 -4495
BA -4496
▁96 -4497
▁생물학 -4498
▁73 -4499
▁매체 -4500
▁1952 -4501
▁누르 -4502
▁대지 -4503
▁Al -4504
▁탱 -4505
▁박정희 -4506
▁비서 -4507
▁인용 -4508
▁전신 -4509
▁라스 -4510
▁람 -4511
조합 -4512
▁아트 -4513
▁가이 -4514
▁세리 -4515
▁DV -4516
▁결론 -4517
타이 -4518
▁오카 -4519
▁행복 -4520
▁뷰 -4521
▁포스트 -4522
▁다소 -4523
▁도덕 -4524
▁무한 -4525
▁상관 -4526
▁레알 -4527
▁아테네 -4528
▁교리 -4529
▁김대 -4530
▁로봇 -4531
▁타운 -4532
▁이혼 -4533
▁탈퇴 -4534
▁부담 -4535
▁역학 -4536
▁작동 -4537
▁조조 -4538
▁81 -4539
▁예방 -4540
▁피해자 -4541
▁수도원 -4542
▁ㅁㅏㄴㄷㅡㄹ -4543
마르 -4544
▁화이트 -4545
▁비례 -4546
▁* -4547
▁따로 -4548
▁심장 -4549
▁젠 -4550
▁뤼 -4551
▁78 -4552
▁대성 -4553
▁뮌 -4554
ㅂㅎㅕ -4555
▁최후 -4556
▁중력 -4557
▁환승 -4558
ㅂㅗㄹ -4559
▁뽑 -4560
▁수요 -4561
▁인생 -4562
▁절반 -4563
▁셔 -4564
너스 -4565
▁스타디 -4566
▁바이에른 -4567
바로 -4568
하여 -4569
▁화합 -4570
AS -4571
▁지향 -4572
▁타이거 -4573
▁묻 -4574
▁ㄱㅣㅇㅔ -4575
▁기상 -4576
▁재학 -4577
▁ㄴㅏㄴㅟㄴㄷㅏ -4578
▁ㄲㅣ -4579
AT -4580
▁끝내 -4581
▁ㅂㅔ -4582
▁규제 -4583
▁불만 -4584
시오 -4585
▁화장 -4586
▁장남 -4587
▁김성 -4588
▁포스 -4589
▁센트 -4590
▁손상 -4591
▁블라 -4592
터스 -4593
▁가까이 -4594
필더 -4595
▁질환 -4596
▁총장 -4597
토스 -4598
▁미드필더 -4599
▁전투기 -4600
▁개방 -4601
▁심판 -4602
▁유통 -4603
▁지사 -4604
ess -4605
▁전남 -4606
ㅁㅊㅓㅇ -4607
▁ㅇㅓㅁㅊㅓㅇ -4608
▁메달 -4609
▁천안 -4610
세포 -4611
▁액션 -4612
▁청주 -4613
▁하인 -4614
클리 -4615
▁ㄱㅘㄴ -4616
▁바닥 -4617
▁아웃 -4618
▁마무리 -4619
▁여섯 -4620
▁사무소 -4621
▁국군 -4622
▁그린 -4623
▁ㅇㅗㄻㄱㅕㅆ -4624
▁약물 -4625
▁ㄴㅡㄴㄷㅏㄴㅡㄴ -4626
▁91 -4627
▁ㅁㅐ -4628
▁주력 -4629
▁피부 -4630
▁ㄴㅏㅌㅏㄴㅐㄴㄷㅏ -4631
의정 -4632
▁메시지 -4633
▁골드 -4634
▁패션 -4635
▁71 -4636
▁검토 -4637
▁벌이 -4638
▁연습 -4639
▁콘스탄티 -4640
▁긍정 -4641
▁피하 -4642
▁보르 -4643
▁전직 -4644
▁1959 -4645
▁산소 -4646
▁모바 -4647
▁기리 -4648
▁빌딩 -4649
▁선박 -4650
▁202 -4651
▁AT -4652
▁진정 -4653
▁이명 -4654
▁가마 -4655
▁황후 -4656
▁처분 -4657
▁햄 -4658
▁Li -4659
스트라 -4660
▁상실 -4661
▁NH -4662
▁백만 -4663
▁유산 -4664
▁혼인 -4665
▁녀 -4666
직자 -4667
▁결의 -4668
▁통화 -4669
자치 -4670
▁당나라 -4671
▁사우스 -4672
▁신사 -4673
▁관여 -4674
▁ㅊㅕ -4675
▁호소 -4676
▁깃 -4677
▁;, -4678
▁글로벌 -4679
쿠스 -4680
▁세부 -4681
▁프로이센 -4682
▁인원 -4683
▁177 -4684
▁심지어 -4685
▁디아 -4686
▁분노 -4687
▁대책 -4688
▁소멸 -4689
▁말레이시아 -4690
▁윗 -4691
▁가요 -4692
▁설득 -4693
IV -4694
▁ㅇㅓㅁㅊㅓㅇㄴㅏㄴ -4695
▁ㅅㅏㄴ -4696
가락 -4697
▁문신 -4698
▁ㄴㅏㅇㅏ -4699
▁가슴 -4700
▁디스크 -4701
▁ㄷㅓ -4702
▁오직 -4703
▁하원 -4704
ㅊㅣㄹ -4705
▁위대 -4706
▁승려 -4707
▁동해 -4708
▁요금 -4709
▁1942 -4710
▁홋카이도 -4711
▁ㅅㅐㅇㄱㅣㄴ -4712
▁ㅇㅣㅇㅓㅈㅕㅆ -4713
나가 -4714
▁덜 -4715
ㄹㅣㄹ -4716
▁쿠데 -4717
▁조지아 -4718
▁창당 -4719
▁위키 -4720
▁구매 -4721
▁시나 -4722
▁왕비 -4723
▁퀴 -4724
▁김일성 -4725
▁상역 -4726
▁앉 -4727
▁적합 -4728
ub -4729
▁페이지 -4730
▁잭슨 -4731
▁크루 -4732
ㄱㅣㄴㄷㅏ -4733
드리히 -4734
▁곱 -4735
ㅏㅁ -4736
리학 -4737
▁87 -4738
▁개성 -4739
▁선임 -4740
▁억제 -4741
▁모바일 -4742
▁ㅇㅕㄱㅕㅈㅣㄴㄷㅏ -4743
▁쾌 -4744
▁비치 -4745
▁ㅅㅟ -4746
▁띄 -4747
▁AP -4748
▁ㄲㅡㄹ -4749
▁1943 -4750
미야 -4751
▁사격 -4752
▁음악가 -4753
▁일기 -4754
▁st -4755
▁사도 -4756
▁일컫 -4757
▁테크 -4758
▁불안 -4759
▁야스 -4760
▁일본어 -4761
▁조카 -4762
▁싱가 -4763
▁주석 -4764
▁ㄴㅏㅇㅗㄴㄷㅏ -4765
▁크로스 -4766
▁1955 -4767
▁싱가포르 -4768
▁쿠데타 -4769
▁ㄷㅗㄹㅇㅏㅇㅘ -4770
▁톨 -4771
▁필드 -4772
▁거듭 -4773
▁좌상 -4774
▁진영 -4775
▁전당 -4776
▁159 -4777
▁드래프트 -4778
▁프리드리히 -4779
▁ㅇㅕㅆㅇㅡㄹ -4780
▁일체 -4781
▁프랭 -4782
가니 -4783
▁700 -4784
▁어려움 -4785
▁알고리 -4786
▁무료 -4787
▁타인 -4788
▁84 -4789
▁카스 -4790
▁ㅅㅓㄴㅂㅗㅇ -4791
▁1953 -4792
ab -4793
▁원년 -4794
▁스타디움 -4795
ㅂㅎㅕㅆ -4796
▁ㅈㅜㅇㅓㅈㅣㄴ -4797
▁발탁 -4798
▁상속 -4799
▁챔피언십 -4800
▁ㅂㅓㄹㅇㅓㅈㅣㄴ -4801
미르 -4802
▁루마니아 -4803
▁힙 -4804
▁1936 -4805
▁부산광역시 -4806
▁ㅇㅣㄹㅡㄴㄷㅏ -4807
▁ㅇㅜㅁ -4808
▁유고 -4809
▁세자 -4810
▁본명 -4811
▁천주교 -4812
▁보살 -4813
▁테마 -4814
▁이와 -4815
▁티베 -4816
▁덮 -4817
▁김종 -4818
데이 -4819
▁Re -4820
▁기동 -4821
▁폭격 -4822
▁왕후 -4823
▁즉시 -4824
▁토론토 -4825
▁알고리즘 -4826
▁후쿠오카 -4827
유산 -4828
▁궁전 -4829
▁독재 -4830
▁여우 -4831
▁콘텐츠 -4832
▁ㄲㅔ -4833
▁막대 -4834
▁1910 -4835
▁사무실 -4836
▁깊이 -4837
▁ㅈㅕㅆㅇㅡㅁㅕ -4838
▁누리 -4839
아들이 -4840
▁발명 -4841
▁연설 -4842
▁\ -4843
▁용도 -4844
▁메이지 -4845
ine -4846
▁전동차 -4847
▁부동 -4848
▁ㅂㅓㅅㅇ -4849
▁딘 -4850
▁ㅂㅗㄴㄷㅏ -4851
▁각국 -4852
▁태조 -4853
▁대체로 -4854
▁리드 -4855
▁97 -4856
▁딜 -4857
▁사양 -4858
▁ㅆㅡㅇㅕ -4859
▁정차 -4860
▁검색 -4861
▁구입 -4862
▁전북 -4863
▁1900 -4864
▁스티븐 -4865
▁학사 -4866
구리 -4867
▁ㄱㅏㄹㅡ -4868
▁유형문화재 -4869
▁ㄷㅔㄴ -4870
▁원주민 -4871
▁음성 -4872
▁ㅇㅓㄷㅗ -4873
▁히틀러 -4874
리나 -4875
▁진격 -4876
원경 -4877
주군 -4878
▁오이 -4879
▁휴대 -4880
▁추방 -4881
시스코 -4882
▁느낌 -4883
▁수호 -4884
▁주소 -4885
▁대우 -4886
▁사기 -4887
▁남아프리카 -4888
▁1957 -4889
▁영양 -4890
▁아메리칸 -4891
▁ㅅㅗㄱㅎㅐ -4892
▁이즈 -4893
▁자국 -4894
▁전술 -4895
▁조상 -4896
ew -4897
▁DVD -4898
▁개칭 -4899
▁세트 -4900
▁ㄴㅓㅁㅇㅓ -4901
▁초점 -4902
▁포켓몬 -4903
▁신장 -4904
래프트 -4905
▁ㅌㅗ -4906
▁강릉 -4907
제국 -4908
베르트 -4909
▁필수 -4910
▁동북 -4911
▁최우 -4912
란색 -4913
▁수업 -4914
머리 -4915
미니 -4916
▁불가리아 -4917
▁전송 -4918
▁ㅂㅗㅇㅕㅈㅜㄴㄷㅏ -4919
▁알바 -4920
▁광범 -4921
▁코리아 -4922
▁스미스 -4923
▁이마 -4924
ㅎㅕㅆ -4925
▁인디언 -4926
ue -4927
▁핫 -4928
▁69 -4929
▁ㅂㅕ -4930
▁급격 -4931
▁1914 -4932
▁92 -4933
▁미리 -4934
▁완벽 -4935
▁덩 -4936
▁클로 -4937
▁섹 -4938
히로 -4939
▁넥 -4940
▁사과 -4941
구치 -4942
독부 -4943
▁노트 -4944
▁게다가 -4945
▁개량 -4946
EC -4947
▁유효 -4948
▁렀다 -4949
▁바르셀 -4950
▁오키 -4951
▁원수 -4952
▁바르셀로나 -4953
▁서술 -4954
리그 -4955
▁펑 -4956
▁도마 -4957
▁질문 -4958
▁천만 -4959
로지 -4960
▁WW -4961
▁라이프 -4962
지사 -4963
▁연락 -4964
▁늑 -4965
▁선형 -4966
▁ㅈㅏㄴㅡㄴ -4967
▁션 -4968
▁고급 -4969
▁미술관 -4970
▁에서 -4971
▁재즈 -4972
▁커버 -4973
▁림 -4974
▁신도 -4975
▁랑 -4976
▁만든 -4977
▁ㅎㅐㅇㅎㅐ -4978
▁똑 -4979
▁101 -4980
▁라틴어 -4981
▁스탈 -4982
▁마르크스 -4983
▁후임 -4984
총리 -4985
▁상인 -4986
▁소비자 -4987
▁1938 -4988
▁립 -4989
▁스프링 -4990
▁부위 -4991
▁이내 -4992
▁주니어 -4993
▁=" -4994
▁배포 -4995
▁물건 -4996
▁랩 -4997
▁ㅇㅘㅅㅓ -4998
자키 -4999
▁고시 -5000
▁화려 -5001
ㅊㅏ -5002
▁닥터 -5003
▁그만 -5004
▁손실 -5005
▁01 -5006
▁운항 -5007
▁저자 -5008
▁실천 -5009
▁주체 -5010
▁ㄷㅡㅅㅇㅣ -5011
▁ㄹㅕㅁㅕㄴ -5012
산화 -5013
▁HD -5014
▁부친 -5015
▁ㅍㅕㄹㅊㅕ -5016
▁윙 -5017
▁ㄱㅣㄹ -5018
▁빌리 -5019
오르 -5020
▁1918 -5021
▁ㄴㅡㄴㅑ -5022
▁언덕 -5023
▁석사 -5024
▁블록 -5025
▁알레 -5026
▁사퇴 -5027
▁상주 -5028
▁소형 -5029
▁안드 -5030
▁시내버스 -5031
▁언스 -5032
▁화석 -5033
▁마스터 -5034
▁의문 -5035
ㅂㅜㅌ -5036
▁백인 -5037
▁고위 -5038
▁연평 -5039
▁갑자기 -5040
▁이념 -5041
ㄸㅡㄹ -5042
▁암컷 -5043
▁일련 -5044
▁국적 -5045
비히 -5046
▁웰 -5047
▁ㅅㅜㅁ -5048
▁추기 -5049
▁상수 -5050
▁자본주의 -5051
여금 -5052
▁방언 -5053
▁집회 -5054
▁대만 -5055
▁개별 -5056
▁정교회 -5057
▁ㅁㅏㄴㄴㅏㅆ -5058
▁감각 -5059
▁게르 -5060
▁반사 -5061
▁미스 -5062
BM -5063
▁해발 -5064
ㄷㅏㄹㅏㄴ -5065
민주당 -5066
펙트 -5067
▁풋 -5068
▁경비 -5069
ㄱㅎㅕ -5070
ㄹㄹㅓ -5071
▁올스타 -5072
▁묶 -5073
▁고객 -5074
ㅢㄴ -5075
▁차단 -5076
▁매치 -5077
▁1951 -5078
▁ㄱㅘㄴㅎㅐ -5079
▁짝 -5080
▁영주 -5081
▁계곡 -5082
▁경제학 -5083
▁분화 -5084
▁탄압 -5085
▁화폐 -5086
▁선포 -5087
▁실업 -5088
필드 -5089
▁미시 -5090
총독부 -5091
▁조선총독부 -5092
▁on -5093
▁거짓 -5094
▁ㅅㅐㅇㄱㅕㅆ -5095
▁노리 -5096
▁1937 -5097
▁89 -5098
▁1932 -5099
▁용인 -5100
▁프랑스군 -5101
▁뮌헨 -5102
▁우크라 -5103
▁격파 -5104
▁받아들이 -5105
바키아 -5106
ㅜㄹㄹㅓ -5107
▁구상 -5108
▁당원 -5109
▁화제 -5110
▁재개 -5111
▁크라 -5112
▁마틴 -5113
▁엘리자 -5114
▁항공사 -5115
▁후계자 -5116
ㅊㅣㄴㄷㅏ -5117
▁93 -5118
▁변하 -5119
▁퀘 -5120
▁칭호 -5121
▁182 -5122
▁기부 -5123
▁이웃 -5124
▁이스트 -5125
▁ㅎㅏㅂㄴㅣㄷㅏ -5126
▁진학 -5127
▁체험 -5128
▁찬성 -5129
▁시트 -5130
무늬 -5131
▁싱어 -5132
▁클리 -5133
▁회로 -5134
▁추기경 -5135
▁첩 -5136
저스 -5137
브라 -5138
▁면역 -5139
▁1935 -5140
▁수치 -5141
▁질서 -5142
▁비행기 -5143
ect -5144
▁다스 -5145
▁고양이 -5146
▁곡선 -5147
▁비스 -5148
▁파티 -5149
▁흰색 -5150
ㅇㅜㅁ -5151
▁광범위 -5152
▁사찰 -5153
▁항의 -5154
▁내놓 -5155
▁트레이드 -5156
▁공신 -5157
▁자산 -5158
▁ㅈㅓㅂㅎㅏㄴㄷㅏ -5159
▁Be -5160
▁발간 -5161
어로 -5162
가시 -5163
▁겉 -5164
▁증언 -5165
▁ㅍㅜㄹ -5166
▁촉진 -5167
▁아티스트 -5168
▁세월 -5169
ㅅㅜㄹㅗㄱ -5170
▁클래식 -5171
▁꾸준 -5172
▁설치류 -5173
▁마루 -5174
사전 -5175
▁구멍 -5176
▁오버 -5177
▁타율 -5178
▁로렌 -5179
▁소화 -5180
▁극단 -5181
▁개척 -5182
동생 -5183
▁중추 -5184
▁가속 -5185
▁남기 -5186
▁법학 -5187
▁운송 -5188
▁히어로 -5189
▁ㄴㅡㄹㅇ -5190
▁반지 -5191
▁줄이 -5192
▁유배 -5193
▁습격 -5194
▁지수 -5195
▁쿨 -5196
▁쿼 -5197
▁보편 -5198
▁영원 -5199
▁남녀 -5200
하이 -5201
▁OS -5202
▁분교 -5203
▁전망 -5204
▁허락 -5205
▁전적 -5206
런스 -5207
▁성남 -5208
▁시모 -5209
ore -5210
▁수백 -5211
▁양산 -5212
▁94 -5213
▁소위 -5214
슈타인 -5215
▁축소 -5216
벤트 -5217
▁ㅁㅜㄴ -5218
▁탕 -5219
▁ㅇㅣㄹㅇㅡㅋㅕ -5220
▁탄핵 -5221
▁직무 -5222
▁대법원 -5223
다수 -5224
our -5225
▁목성 -5226
▁물고기 -5227
▁팩 -5228
센트 -5229
IN -5230
▁아오 -5231
▁툴 -5232
▁ㅈㅣㄹ -5233
추어 -5234
ell -5235
▁잠수함 -5236
▁강남 -5237
▁동화 -5238
▁쟁 -5239
▁원시 -5240
▁거치 -5241
▁약화 -5242
▁티베트 -5243
리우스 -5244
▁핸 -5245
▁프랑스어 -5246
▁1933 -5247
▁소집 -5248
▁CP -5249
ㄴㅏ -5250
른바 -5251
▁FM -5252
▁대칭 -5253
▁ㅈㅗㅊㅏ -5254
▁베리 -5255
▁그리하여 -5256
▁조항 -5257
▁충분히 -5258
도사 -5259
▁료 -5260
▁프로그래밍 -5261
슬링 -5262
▁무용 -5263
▁수십 -5264
▁이른바 -5265
▁하여금 -5266
▁멀티 -5267
▁익스 -5268
▁ㅊㅐㅇ -5269
▁선호 -5270
▁혼자 -5271
돼지 -5272
▁영구 -5273
▁오가 -5274
▁군부 -5275
▁콜로 -5276
▁ㅇㅓㄷ -5277
▁주일 -5278
▁돌아오 -5279
▁줄어들 -5280
▁고교 -5281
▁1928 -5282
닉스 -5283
프레 -5284
▁누스 -5285
▁정류 -5286
ers -5287
▁칠레 -5288
▁정통 -5289
ㅈㅣㄱ -5290
▁ㄷㅏㅇㅎㅐ -5291
▁ㅆㅡㅇㅕㅆ -5292
사이 -5293
▁간부 -5294
▁당신 -5295
▁이행 -5296
▁ㄷㅓㅅ -5297
공사 -5298
▁치르 -5299
▁개명 -5300
▁대로 -5301
▁시신 -5302
▁국토 -5303
▁댄스 -5304
ID -5305
▁실내 -5306
▁형상 -5307
▁동경 -5308
▁발레 -5309
▁판정 -5310
▁ㄷㅗㄹㅇㅏㅇㅗㄴ -5311
▁재능 -5312
▁펀 -5313
▁09 -5314
▁자매 -5315
▁해제 -5316
▁손해 -5317
▁메트로 -5318
▁79 -5319
▁브로 -5320
▁진실 -5321
▁콜롬 -5322
▁사이드 -5323
▁1924 -5324
▁부속 -5325
뜨리 -5326
▁액체 -5327
▁태종 -5328
▁04 -5329
▁지불 -5330
▁토마스 -5331
▁사막 -5332
ㄴㅐㅆ -5333
▁자이언츠 -5334
▁조기 -5335
드라 -5336
▁토대 -5337
▁펼 -5338
▁개장 -5339
▁뼈 -5340
▁이재 -5341
▁110 -5342
▁단순히 -5343
▁ㅇㅡㄴㅣ -5344
과이 -5345
▁웃 -5346
▁입대 -5347
▁ㅇㅣㅇㅓㅈㅣㄴ -5348
▁지중 -5349
end -5350
▁토너 -5351
▁강전 -5352
▁종사 -5353
▁합동 -5354
▁원자력 -5355
▁이벤트 -5356
코프 -5357
▁빼앗 -5358
▁열매 -5359
▁파키스탄 -5360
▁전제 -5361
▁정면 -5362
▁오류 -5363
▁08 -5364
▁ㄹㅣㅇ -5365
▁늑대 -5366
페이스 -5367
▁구름 -5368
▁170 -5369
▁아마추어 -5370
ill -5371
▁김해 -5372
▁지표 -5373
▁플로리 -5374
▁주문 -5375
▁프로토 -5376
▁대승 -5377
▁분산 -5378
▁ㄱㅓㄹㅊㅣㄴ -5379
▁경고 -5380
▁코너 -5381
▁퓨 -5382
▁유아 -5383
▁스카이 -5384
▁빚 -5385
▁러브 -5386
▁안티 -5387
▁상대식 -5388
▁서방 -5389
▁비잔 -5390
▁하와 -5391
▁의정부 -5392
▁Co -5393
▁가난 -5394
▁놀이 -5395
▁동굴 -5396
▁무력 -5397
▁토착 -5398
▁안토니 -5399
▁룸 -5400
▁틴 -5401
▁성서 -5402
▁재생 -5403
▁회색 -5404
▁양국 -5405
▁엄격 -5406
▁MS -5407
▁장점 -5408
▁투스 -5409
▁베네치아 -5410
▁로즈 -5411
ㅋㅡㅁ -5412
▁존스 -5413
▁총재 -5414
▁당대 -5415
▁보스턴 -5416
▁수컷 -5417
▁ㅈㅜㅇㅓㅈㅕㅆ -5418
▁법안 -5419
베리아 -5420
어도 -5421
ain -5422
▁ㄸㅓㄴㅏㄴ -5423
▁자랑 -5424
▁스크린 -5425
▁밀리 -5426
▁배열 -5427
▁호흡 -5428
성기 -5429
▁초상 -5430
테스 -5431
▁강도 -5432
▁중동 -5433
▁가깝 -5434
▁오케 -5435
▁들어오 -5436
티스 -5437
▁행적 -5438
▁흔적 -5439
▁세로 -5440
▁소문 -5441
▁일단 -5442
▁편의 -5443
AN -5444
▁{ -5445
ard -5446
▁봉기 -5447
▁스톤 -5448
▁ㅇㅜ -5449
▁평면 -5450
▁맨체스터 -5451
▁젤 -5452
▁우에 -5453
▁ㅎㅢㄴ -5454
공업 -5455
▁다큐 -5456
▁북미 -5457
▁인민군 -5458
▁83 -5459
야스 -5460
ㄴㅏㅆ -5461
▁힙합 -5462
▁De -5463
레오 -5464
▁토너먼트 -5465
▁쏘 -5466
조선 -5467
▁동지 -5468
▁대가 -5469
▁요코하마 -5470
▁메탈 -5471
▁주재 -5472
▁행하 -5473
▁중계 -5474
▁판타 -5475
▁메르 -5476
▁장로 -5477
▁빵 -5478
▁레닌 -5479
▁재임 -5480
▁야당 -5481
▁강요 -5482
▁스케이 -5483
데르 -5484
▁ㄷㅓㅅㅂㅜㅌ -5485
▁경북 -5486
▁페리 -5487
▁ㅅㅔㅇㅝㅈㅕㅆ -5488
▁추적 -5489
▁대원 -5490
▁쿠바 -5491
▁밸 -5492
▁선로 -5493
▁대사관 -5494
▁혈액 -5495
▁철거 -5496
▁1934 -5497
▁나이트 -5498
▁개찰 -5499
▁마감 -5500
▁국방부 -5501
▁ㅁㅏㄴㅋㅡㅁ -5502
▁살아 -5503
▁포드 -5504
▁한성 -5505
즈니 -5506
▁근육 -5507
▁안쪽 -5508
▁구사 -5509
▁주자 -5510
▁카리 -5511
제르 -5512
▁벼슬 -5513
▁ㄴㅏㅅㅓㅆ -5514
▁중지 -5515
▁풍속 -5516
▁농장 -5517
▁장례 -5518
▁발전소 -5519
▁입구 -5520
▁코어 -5521
▁르네 -5522
▁해설 -5523
▁관계자 -5524
▁할아버지 -5525
▁탓 -5526
세대 -5527
▁ㅅㅗ -5528
키퍼 -5529
▁뱀 -5530
▁글리 -5531
▁페이스 -5532
▁동구 -5533
▁본토 -5534
▁함경 -5535
▁경찰서 -5536
▁골키퍼 -5537
아르 -5538
▁스탈린 -5539
▁ㄴㅗㅎㅇㅕ -5540
베르크 -5541
▁안내 -5542
▁화합물 -5543
위대 -5544
ㅓㅈㅕㅆ -5545
▁접속 -5546
▁농촌 -5547
▁도쿠가와 -5548
▁노동당 -5549
▁아프가니 -5550
▁현존 -5551
▁닐 -5552
▁관객 -5553
▁철학자 -5554
▁흘 -5555
▁시계 -5556
유키 -5557
▁심리학 -5558
▁광산 -5559
▁역전 -5560
고속 -5561
크래프트 -5562
▁증권 -5563
▁리스트 -5564
▁사망자 -5565
▁오염 -5566
ㅎㅏㅁ -5567
므로 -5568
▁거점 -5569
ㄲㅡㄹ -5570
▁곤충 -5571
▁선물 -5572
▁130 -5573
ne -5574
▁Me -5575
▁모노 -5576
▁식량 -5577
▁항해 -5578
▁ㅇㅜㅁㅈㅣㄱ -5579
▁복사 -5580
▁대동 -5581
▁레지 -5582
▁ㅇㅝㄴ -5583
▁정조 -5584
▁정확히 -5585
▁부작 -5586
▁토머스 -5587
무르 -5588
▁사카 -5589
▁유키 -5590
▁조문 -5591
▁남극 -5592
▁계수 -5593
▁부호 -5594
우치 -5595
▁ㅎㅔ -5596
▁재판소 -5597
▁동메달 -5598
▁폭풍 -5599
▁독점 -5600
▁부처 -5601
▁드물 -5602
▁ㅁㅏㄹ -5603
▁Sh -5604
▁필립 -5605
▁종전 -5606
▁합리 -5607
▁140 -5608
▁그러므로 -5609
▁그리스어 -5610
▁훼 -5611
▁이정 -5612
레아 -5613
▁문재 -5614
▁중성 -5615
▁테르 -5616
▁알렉산더 -5617
▁대결 -5618
▁초청 -5619
▁대다수 -5620
▁비중 -5621
▁돔 -5622
▁세금 -5623
▁아프가니스탄 -5624
▁김구 -5625
레이크 -5626
▁ㅌㅏㄴ -5627
▁휘하 -5628
▁은메달 -5629
▁히로시마 -5630
▁ㅎㅟ -5631
▁클래스 -5632
▁특별히 -5633
▁윤리 -5634
▁WWE -5635
▁유대인 -5636
OR -5637
▁새끼 -5638
▁칼리지 -5639
▁아과 -5640
▁석방 -5641
사르 -5642
▁필라 -5643
▁교향곡 -5644
▁펄 -5645
▁자유주의 -5646
돌프 -5647
▁멸종 -5648
▁박근 -5649
▁원조 -5650
▁매주 -5651
▁파울 -5652
▁체육관 -5653
▁로맨 -5654
▁새벽 -5655
▁대한제국 -5656
▁ST -5657
▁부품 -5658
▁경사 -5659
ㅇㅔㄷㅗ -5660
▁구로 -5661
AM -5662
▁진동 -5663
▁ㄴㅏㅃ -5664
▁th -5665
▁성명 -5666
▁훌륭 -5667
▁위안 -5668
▁아비 -5669
▁유력 -5670
▁타카 -5671
▁그래프 -5672
▁ㄴㅗㅍ -5673
베리 -5674
▁미카 -5675
안군 -5676
▁ㅁㅣㄹㄹㅕ -5677
all -5678
▁1931 -5679
▁마그 -5680
▁ㅍㅕㄹㅊㅕㅆ -5681
▁아이스 -5682
▁ㅂㅗㅇㅎㅐㅈㅕㅆ -5683
▁간격 -5684
▁아틀 -5685
▁캠프 -5686
▁힘들 -5687
▁일곱 -5688
클린 -5689
▁금강 -5690
▁캡 -5691
사관 -5692
ㄷㅏㄴ -5693
▁트랜스 -5694
▁꾼 -5695
나르 -5696
느님 -5697
▁감옥 -5698
▁타점 -5699
▁기생 -5700
▁타원 -5701
▁존슨 -5702
▁하느님 -5703
▁ㄷㅏㄹㄹㅕ -5704
▁강등 -5705
▁코트 -5706
▁뚜렷 -5707
▁문법 -5708
▁An -5709
▁기병 -5710
ang -5711
▁연호 -5712
▁명시 -5713
▁특허 -5714
▁대변 -5715
▁첫째 -5716
ㅎㅇㅏ -5717
▁공세 -5718
▁스트라이 -5719
▁인터페이스 -5720
▁후퇴 -5721
▁지칭 -5722
▁ㄱㅏㄴㄷㅏ -5723
▁좌파 -5724
▁해협 -5725
▁250 -5726
▁도메 -5727
▁네이션 -5728
▁지휘관 -5729
▁버지 -5730
▁비즈 -5731
▁교도 -5732
▁뻗 -5733
▁단장 -5734
▁공룡 -5735
▁집필 -5736
▁1921 -5737
▁평론가 -5738
▁ㅋㅓㄷㅏㄹㅏㄴ -5739
ㅇㅣㅁ -5740
▁극복 -5741
▁목포 -5742
▁유발 -5743
▁고고 -5744
▁가구 -5745
▁사관 -5746
▁스테이션 -5747
게이 -5748
▁cod -5749
▁다다 -5750
▁마라 -5751
▁무늬 -5752
▁소요 -5753
▁킬로 -5754
▁176 -5755
▁갤럭 -5756
▁덕분 -5757
▁동반 -5758
▁닮 -5759
▁키스 -5760
▁박스 -5761
▁수반 -5762
생활 -5763
▁매니 -5764
시스트 -5765
▁동성애 -5766
▁ㅅㅠ -5767
▁협약 -5768
▁김대중 -5769
▁ㅂㅐㅇㅝㅆ -5770
밀리 -5771
▁목숨 -5772
▁칙 -5773
▁05 -5774
▁조화 -5775
▁1929 -5776
ss -5777
산물 -5778
▁숙종 -5779
▁하버 -5780
▁삼각 -5781
▁타입 -5782
▁ㅇㅗㄹㅡㄴ -5783
둥이 -5784
▁ㄷㅟ -5785
▁약탈 -5786
마이 -5787
▁건담 -5788
▁일환 -5789
▁착용 -5790
▁수비수 -5791
▁틱 -5792
▁바이올 -5793
널드 -5794
▁미분 -5795
▁구리 -5796
ㅇㅕㅅㅓ -5797
▁라트 -5798
▁원장 -5799
▁입사 -5800
▁지부 -5801
▁샤를 -5802
▁갤럭시 -5803
▁de -5804
▁성씨 -5805
▁연계 -5806
▁의석 -5807
▁y -5808
▁AC -5809
▁연상 -5810
▁영혼 -5811
▁운동가 -5812
미아 -5813
▁비하 -5814
▁롬 -5815
▁발렌 -5816
▁설비 -5817
▁근로 -5818
▁데리 -5819
▁중립 -5820
▁ㄸㅓ -5821
수량 -5822
▁발휘 -5823
베이스 -5824
▁1923 -5825
▁램 -5826
▁쯤 -5827
▁기갑 -5828
▁섬유 -5829
▁이수 -5830
▁ㄴㅡㄴㄷㅏㄱㅗ -5831
▁경유 -5832
▁공국 -5833
▁플로리다 -5834
▁07 -5835
▁빠지 -5836
▁1925 -5837
▁임신 -5838
▁망원경 -5839
페인 -5840
ity -5841
▁서적 -5842
▁도호 -5843
▁압축 -5844
▁불화 -5845
키스 -5846
투아 -5847
▁과일 -5848
▁추락 -5849
▁웨일스 -5850
▁성직자 -5851
▁안드로이드 -5852
▁옮 -5853
▁모험 -5854
▁영감 -5855
타카 -5856
▁첸 -5857
▁다이묘 -5858
▁SC -5859
▁레벨 -5860
▁진흥 -5861
▁박근혜 -5862
▁ㅋㅗ -5863
▁요원 -5864
▁남아메리카 -5865
▁트레이 -5866
▁변신 -5867
▁유가 -5868
▁동인 -5869
▁라이온 -5870
▁선교사 -5871
▁캘리포니아주 -5872
니즘 -5873
▁연평균 -5874
▁얀 -5875
▁살아남 -5876
▁고분 -5877
▁삭제 -5878
▁우드 -5879
▁채권 -5880
▁갱 -5881
▁장갑 -5882
▁관리자 -5883
▁지역구 -5884
▁모음 -5885
ㅜㅇㅜㄴ -5886
일본 -5887
▁가끔 -5888
▁제약 -5889
▁영광 -5890
▁번지 -5891
▁ㅎㅡㄴ -5892
무게 -5893
▁민속 -5894
▁몸무게 -5895
▁북서쪽 -5896
▁유비 -5897
▁유성 -5898
▁프로세서 -5899
▁악장 -5900
▁어원 -5901
▁ㅇㅕㅆㅇㅡㅁ -5902
▁똑같 -5903
▁페루 -5904
▁소설가 -5905
카스 -5906
▁교과 -5907
▁수직 -5908
▁진술 -5909
▁추대 -5910
▁딱 -5911
▁시게 -5912
▁161 -5913
▁그랜드 -5914
▁변동 -5915
▁하와이 -5916
ff -5917
▁일자 -5918
▁EP -5919
▁수명 -5920
▁돌파 -5921
▁명사 -5922
대문 -5923
▁필름 -5924
up -5925
느리 -5926
▁복구 -5927
▁모로 -5928
▁음모 -5929
▁카자 -5930
▁압도 -5931
▁주류 -5932
▁ㅁㅏㅈㅅㅓ -5933
▁어워드 -5934
▁잠재 -5935
프란 -5936
▁기관차 -5937
▁프레임 -5938
▁쫓 -5939
▁사당 -5940
▁결심 -5941
▁수상자 -5942
▁파트너 -5943
▁빅토리아 -5944
▁북극 -5945
▁청동 -5946
▁중시 -5947
▁ㅈㅣㅋㅕ -5948
▁ㄷㅗㄹㅇㅏㄱㅏㅆ -5949
▁곰 -5950
▁마주 -5951
행성 -5952
▁ㄲㅗ -5953
▁파생 -5954
▁단선 -5955
▁이조 -5956
▁레이블 -5957
▁수장 -5958
▁엽 -5959
▁서인 -5960
▁철저 -5961
▁KT -5962
▁쇠퇴 -5963
▁삼각형 -5964
▁가톨릭교회 -5965
스팅 -5966
▁175 -5967
▁사거리 -5968
▁어항 -5969
▁홀로 -5970
▁모시 -5971
▁도마뱀 -5972
▁종로 -5973
슬리 -5974
▁ㅁㅔㅇㅣㄴ -5975
▁틸 -5976
▁칼리 -5977
▁동일본 -5978
▁ㄱㅡㄹㅕㅈㅕ -5979
▁ㄴㅏㅇㅏㄱㅏ -5980
▁규슈 -5981
▁트럼 -5982
▁ㅇㅣㄹㅏㄴ -5983
▁바오 -5984
▁이날 -5985
▁부탁 -5986
▁피트 -5987
▁건축물 -5988
애나 -5989
▁최상 -5990
▁나폴리 -5991
ㅊㅣ -5992
즈키 -5993
▁북아메리카 -5994
▁도어 -5995
▁랭킹 -5996
▁평생 -5997
▁파운드 -5998
▁향토 -5999
▁황태 -6000
▁각자 -6001
▁크레 -6002
멘트 -6003
부사 -6004
▁리치 -6005
▁무릎 -6006
메니아 -6007
▁유역 -6008
ㅓㅈㅕ -6009
▁자치구 -6010
▁My -6011
▁여인 -6012
▁왕가 -6013
▁전승 -6014
▁노무 -6015
▁지연 -6016
▁엘리자베스 -6017
▁준우 -6018
▁투구 -6019
▁벨라 -6020
▁1922 -6021
▁고안 -6022
▁codice -6023
▁SM -6024
▁유용 -6025
▁ㅋㅜ -6026
▁화가 -6027
▁버지니아 -6028
▁부유 -6029
▁직선 -6030
▁ㅁㅗㅅㅎㅏㄴㄷㅏ -6031
▁나서 -6032
▁무인 -6033
▁ㄴㅓㅁㄱㅕ -6034
타운 -6035
▁아기 -6036
▁리아 -6037
▁부서 -6038
IS -6039
오리 -6040
▁중구 -6041
▁침해 -6042
▁노비 -6043
▁토벌 -6044
▁문인 -6045
▁1912 -6046
▁아르메니아 -6047
▁올라가 -6048
▁"" -6049
▁공격수 -6050
▁국민당 -6051
▁JR -6052
▁연령 -6053
▁단행 -6054
라이터 -6055
▁모니 -6056
▁모래 -6057
▁납치 -6058
▁직위 -6059
눅스 -6060
▁구미 -6061
▁패턴 -6062
▁건너 -6063
▁간섭 -6064
▁무산 -6065
▁인천광역시 -6066
ㅇㄱ -6067
▁봉사 -6068
▁색상 -6069
▁표지 -6070
▁다양체 -6071
ㅇㅎㅏㄹ -6072
▁루트비히 -6073
▁왈 -6074
▁적응 -6075
▁리눅스 -6076
▁지중해 -6077
▁MV -6078
▁관하 -6079
▁인력 -6080
▁포유 -6081
ㅁㅏㅇ -6082
▁모듈 -6083
▁스케이팅 -6084
▁베타 -6085
▁윤치 -6086
▁항목 -6087
▁드리 -6088
▁사토 -6089
▁수지 -6090
▁퍼시 -6091
▁164 -6092
▁탐험 -6093
▁동아시아 -6094
▁06 -6095
▁고르 -6096
▁상처 -6097
▁Go -6098
▁주사 -6099
▁Love -6100
ip -6101
▁출현 -6102
▁교차로 -6103
▁릭 -6104
▁며 -6105
▁교역 -6106
▁매각 -6107
▁이종 -6108
▁마카 -6109
▁하사 -6110
ant -6111
ong -6112
▁옵 -6113
양군 -6114
▁배상 -6115
▁삽입 -6116
▁연소 -6117
▁블라디 -6118
지마 -6119
▁글씨 -6120
▁영조 -6121
▁ㄴㅏㅁㄱㅕ -6122
▁토르 -6123
▁베토 -6124
▁상무 -6125
ED -6126
ld -6127
▁실점 -6128
▁ㅇㅗㄹㄹㅣㄴ -6129
▁뜨 -6130
▁전향 -6131
▁시상식 -6132
▁돼지 -6133
▁플레 -6134
▁부동산 -6135
▁헤드 -6136
▁1908 -6137
▁렉 -6138
▁호조 -6139
▁과도 -6140
▁커피 -6141
▁제주도 -6142
슬로 -6143
▁시아 -6144
▁연금 -6145
▁패러 -6146
▁장사 -6147
멘터리 -6148
▁굿 -6149
▁ㄷㅗㅁㅏㅇ -6150
▁자책 -6151
▁참조 -6152
▁ㅅㅔㄴ -6153
▁남동쪽 -6154
▁03 -6155
▁육성 -6156
▁조명 -6157
▁크림 -6158
▁태자 -6159
도니아 -6160
▁히가시 -6161
▁둔 -6162
▁1917 -6163
OM -6164
▁기종 -6165
▁사촌 -6166
▁옮기 -6167
▁에스파 -6168
▁1906 -6169
▁외계 -6170
▁SN -6171
▁목조 -6172
▁배급 -6173
▁체인 -6174
▁기하학 -6175
▁인자 -6176
야수 -6177
▁정서 -6178
▁밀라노 -6179
▁관중 -6180
▁명문 -6181
▁비전 -6182
몬드 -6183
▁종족 -6184
▁폐기 -6185
▁입문 -6186
▁호르 -6187
▁시외 -6188
▁ㄴㅏㅌㅏㄴㅏㄴ -6189
▁안양 -6190
▁전작 -6191
영상 -6192
이즈 -6193
보살 -6194
▁동사 -6195
▁통로 -6196
▁표본 -6197
▁우익 -6198
▁럭 -6199
▁옹호 -6200
▁적어도 -6201
▁유인 -6202
▁보통학교 -6203
ㄷㅏㄹㅡㄴ -6204
▁무선 -6205
▁이토 -6206
▁정자 -6207
▁몬테 -6208
▁사이클 -6209
▁1927 -6210
▁산타 -6211
▁앨런 -6212
av -6213
▁앱 -6214
다드 -6215
▁과장 -6216
▁의병 -6217
▁창간 -6218
▁송라이터 -6219
▁라우 -6220
▁자전거 -6221
▁대행 -6222
▁북동쪽 -6223
▁노인 -6224
▁보좌 -6225
▁스와 -6226
▁ㅅㅔㅇㅝㅈㅣㄴ -6227
▁선제 -6228
▁트윈 -6229
▁다큐멘터리 -6230
▁산악 -6231
▁준우승 -6232
▁기압 -6233
▁내장 -6234
▁모자 -6235
▁안보 -6236
▁유신 -6237
▁포크 -6238
플레이 -6239
▁1907 -6240
▁1926 -6241
티움 -6242
▁정류장 -6243
▁유닛 -6244
▁사라지 -6245
▁오리지 -6246
▁별로 -6247
▁디즈니 -6248
▁최우수 -6249
▁유입 -6250
▁ㅁㅏㅈㅓ -6251
▁슐 -6252
▁사신 -6253
▁협의회 -6254
▁흙 -6255
튜브 -6256
▁산지 -6257
▁예외 -6258
▁탑승 -6259
▁스페셜 -6260
▁ㄱㅏㅂ -6261
AC -6262
▁노조 -6263
▁비틀 -6264
▁ㅇㅣㄹㅇㅡㅋㅣㄴ -6265
▁수감 -6266
▁왕립 -6267
▁우크라이나 -6268
ㅏㅈㅣㄴㄷㅏ -6269
▁168 -6270
▁기아 -6271
▁석조 -6272
페이지 -6273
▁ㅁㅏㅈㅊㅝ -6274
▁BBC -6275
▁베토벤 -6276
▁묘지 -6277
▁드래곤 -6278
▁PD -6279
▁ㅎㅐㅈㅣㄴ -6280
▁자문 -6281
▁틈 -6282
▁때로 -6283
▁상영 -6284
▁호남 -6285
▁He -6286
▁아가 -6287
▁연고지 -6288
▁유튜브 -6289
스토 -6290
▁급속 -6291
▁하천 -6292
슬라 -6293
▁번식 -6294
▁스틸 -6295
▁시에 -6296
▁주거 -6297
▁상하이 -6298
▁ㅎㅑㅇㅎㅏㄴ -6299
▁광역 -6300
▁카페 -6301
런트 -6302
▁ㅃㅏㄹ -6303
다이라 -6304
▁독일어 -6305
ind -6306
▁Sp -6307
▁아무런 -6308
▁데이터베이스 -6309
▁에릭 -6310
▁라이벌 -6311
▁대교 -6312
▁진지 -6313
▁버그 -6314
▁할리 -6315
se -6316
▁대안 -6317
▁사료 -6318
▁색깔 -6319
▁점성 -6320
▁정사 -6321
▁합계 -6322
▁겨우 -6323
▁커뮤니티 -6324
무네 -6325
▁선진 -6326
로프 -6327
▁아울 -6328
▁지바 -6329
▁문하 -6330
▁제후 -6331
▁홈페이지 -6332
▁세조 -6333
▁자바 -6334
브스 -6335
▁ㅈㅝㅆ -6336
▁ㄱㅡㄹㅓㅁ -6337
▁ㅇㅠ -6338
ame -6339
▁룩 -6340
텐도 -6341
▁흥미 -6342
▁닌텐도 -6343
생물 -6344
▁좌익 -6345
▁NHK -6346
▁민족주의 -6347
▁지름 -6348
총장 -6349
▁원로 -6350
▁ㄴㅏㅌㅏㄴㅏ -6351
▁요미 -6352
▁ㄱㅏㄹㄹ -6353
프란시스코 -6354
세스 -6355
▁특급 -6356
라지 -6357
▁대조 -6358
▁방안 -6359
▁분배 -6360
▁수수 -6361
▁콩고 -6362
▁꾸준히 -6363
▁리듬 -6364
▁상세 -6365
▁증기 -6366
▁품질 -6367
▁166 -6368
▁162 -6369
▁샌프란시스코 -6370
▁레이스 -6371
▁1905 -6372
▁꼽 -6373
▁엄마 -6374
▁떼 -6375
▁문화유산 -6376
▁레이다 -6377
▁들어서 -6378
▁ㅇㅣㄹㅇㅓㄴㅏㄴㄷㅏ -6379
ort -6380
▁반환 -6381
▁와카 -6382
▁운명 -6383
▁원산 -6384
▁칭하 -6385
▁151 -6386
ry -6387
▁트럭 -6388
▁아크 -6389
▁주한 -6390
▁모집 -6391
▁스승 -6392
▁비평가 -6393
▁십자군 -6394
▁마일 -6395
▁가쓰 -6396
스티벌 -6397
▁진도 -6398
▁가르치 -6399
▁칩 -6400
▁굳 -6401
▁주의자 -6402
▁재무 -6403
▁ㅂㅓㄴ -6404
▁ㅇㅣㅇㅓㅈㅕ -6405
▁라마 -6406
▁역과 -6407
▁출산 -6408
▁현황 -6409
나카 -6410
▁페스티벌 -6411
ith -6412
▁02 -6413
▁조선인 -6414
다니 -6415
▁모터 -6416
▁신비 -6417
▁협의 -6418
▁셋째 -6419
▁리얼 -6420
스케 -6421
▁비단 -6422
▁펼치 -6423
ES -6424
▁일행 -6425
▁주말 -6426
▁유고슬 -6427
▁유고슬라비아 -6428
▁목격 -6429
▁주파 -6430
▁ㄱㅡㅊㅕㅆ -6431
▁이오 -6432
▁곧바로 -6433
▁스피드 -6434
▁굽 -6435
▁구마 -6436
▁도리 -6437
▁158 -6438
▁묘소 -6439
▁한나라 -6440
엘라 -6441
▁크리스토 -6442
▁렌즈 -6443
▁야생 -6444
▁정계 -6445
▁오리지널 -6446
▁가미 -6447
▁단층 -6448
▁배정 -6449
▁보전 -6450
▁플루 -6451
▁ㄱㅔㄴ -6452
▁소니 -6453
▁오디션 -6454
▁한나라당 -6455
▁|| -6456
어트 -6457
▁둘러 -6458
▁ㅈㅓㄴㅎㅐㅈㅣㄴㄷㅏ -6459
▁문과 -6460
▁한화 -6461
▁옛날 -6462
▁남서쪽 -6463
▁스테이지 -6464
▁템 -6465
▁상소 -6466
▁입증 -6467
▁수천 -6468
결승 -6469
프스 -6470
▁토니 -6471
▁직장 -6472
▁이리 -6473
▁동전 -6474
▁무관 -6475
▁미네 -6476
▁문제점 -6477
▁운반 -6478
▁복제 -6479
▁사면 -6480
▁기점 -6481
▁되찾 -6482
▁동영상 -6483
▁급행 -6484
▁도심 -6485
▁출판사 -6486
리케이션 -6487
▁브라이언 -6488
▁적색 -6489
▁디자이너 -6490
▁챌 -6491
▁마스 -6492
▁서북 -6493
▁기용 -6494
▁긴급 -6495
▁인텔 -6496
▁케이블 -6497
ok -6498
▁Un -6499
교육 -6500
▁동치 -6501
▁아서 -6502
▁인치 -6503
▁합작 -6504
▁ㄱㅓㅊㅣㄴ -6505
▁쿠르 -6506
회의 -6507
▁배제 -6508
▁지질 -6509
▁호환 -6510
▁지휘자 -6511
▁걷 -6512
▁베이스볼 -6513
▁예언 -6514
▁알라 -6515
▁폭스 -6516
▁프랜 -6517
▁ㅇㅕㅅㅓ -6518
▁연주자 -6519
▁판타지 -6520
▁마케도니아 -6521
▁번주 -6522
▁기념물 -6523
▁당사자 -6524
▁교전 -6525
▁우르 -6526
▁단종 -6527
해군 -6528
▁신임 -6529
▁향년 -6530
▁콜롬비아 -6531
러지 -6532
▁비즈니스 -6533
▁부패 -6534
▁사직 -6535
▁ㅆㅡㄴㄷㅏ -6536
▁ㅇㅣㄹㅜㅇㅓㅈㅣㄴㄷㅏ -6537
▁ㄱㅡㄹㅓㅁㅇㅔㄷㅗ -6538
▁회원국 -6539
▁초래 -6540
루살 -6541
▁예술가 -6542
▁모순 -6543
▁ㅁㅗㄴ -6544
▁ㅍㅣㅎㅐ -6545
▁겹 -6546
▁개수 -6547
▁오다 -6548
▁좌석 -6549
▁ㄴㅐㄴㄷㅏ -6550
▁가하 -6551
▁미만 -6552
▁정교 -6553
▁ㅇㅣㄹㅇㅓㄴㅏ -6554
루살렘 -6555
▁하드웨어 -6556
▁빗 -6557
▁기름 -6558
▁기재 -6559
▁용기 -6560
▁도메인 -6561
프라 -6562
▁선사 -6563
▁ㄹㅏㄱ -6564
qu -6565
▁수면 -6566
▁집계 -6567
▁가게 -6568
▁역명 -6569
▁오타 -6570
▁평소 -6571
▁포맷 -6572
▁165 -6573
▁마쓰다이라 -6574
▁AM -6575
▁관장 -6576
▁트레 -6577
▁파나 -6578
▁센트럴 -6579
▁ㅁㅜㄷ -6580
▁스펙트 -6581
▁콘스탄티노 -6582
▁서경 -6583
모니 -6584
▁154 -6585
▁내륙 -6586
▁자회사 -6587
▁1904 -6588
▁신용 -6589
▁ㅎㅡㄹㄹㅓ -6590
▁ㅁㅏㄴㄴㅏㄴ -6591
경기 -6592
▁의거 -6593
▁ㄷㅏㄴㅕㅆ -6594
ord -6595
▁석탑 -6596
▁항일 -6597
▁무신 -6598
▁왕족 -6599
▁과제 -6600
▁연애 -6601
▁넘어 -6602
▁스펙트럼 -6603
▁Wh -6604
▁심하 -6605
▁Se -6606
PS -6607
▁엉 -6608
▁걸리 -6609
▁이력 -6610
문학 -6611
▁임상 -6612
▁파동 -6613
▁신하 -6614
▁압박 -6615
▁자사 -6616
ob -6617
▁권고 -6618
▁여동생 -6619
▁이지 -6620
▁전염 -6621
▁여신 -6622
▁챌린 -6623
▁이명박 -6624
▁DJ -6625
▁용산 -6626
식물 -6627
▁장편 -6628
▁마케팅 -6629
▁예루살렘 -6630
▁계단 -6631
▁SF -6632
▁싫 -6633
▁사르 -6634
▁아인 -6635
▁ㄱㅓㄹㄹㅕ -6636
▁ㅅㅓㄴㅂㅗㅇㅕㅆ -6637
IC -6638
▁163 -6639
▁900 -6640
▁발효 -6641
▁167 -6642
▁혜성 -6643
▁스마트폰 -6644
아보 -6645
우옌 -6646
▁차관 -6647
가스 -6648
페이 -6649
ate -6650
▁무슬 -6651
▁이글 -6652
▁그랑 -6653
▁대단 -6654
▁스쿨 -6655
ㅗㅊ -6656
▁부수 -6657
▁훼손 -6658
▁바이올린 -6659
▁게시 -6660
▁비아 -6661
▁서브 -6662
▁사범 -6663
디스 -6664
▁조류 -6665
▁156 -6666
▁상임 -6667
▁받침 -6668
▁우루 -6669
▁노무현 -6670
▁크리스티 -6671
▁교섭 -6672
▁미얀 -6673
▁얼음 -6674
ㅂㅓㄹ -6675
▁팅 -6676
▁끼리 -6677
▁부흥 -6678
▁차체 -6679
▁식사 -6680
▁리투아 -6681
▁무슬림 -6682
▁리투아니아 -6683
▁행정부 -6684
▁비잔티움 -6685
아하 -6686
운서 -6687
▁디비전 -6688
▁쇼군 -6689
▁저기 -6690
▁진상 -6691
▁서울시 -6692
▁분지 -6693
▁아나운서 -6694
▁AS -6695
▁규격 -6696
▁예능 -6697
ㅟㄴ -6698
▁니스 -6699
▁부리 -6700
▁ㄱㅗㅅㅓ -6701
마치 -6702
▁조국 -6703
▁타마 -6704
▁밀접 -6705
▁비로 -6706
▁착륙 -6707
▁ㅁㅏㅊㅕㅆ -6708
▁피스 -6709
▁ㄷㅓㅍ -6710
▁샹 -6711
껍질 -6712
▁한양 -6713
▁성공회 -6714
▁간접 -6715
▁지주 -6716
랑이 -6717
커스 -6718
▁UN -6719
▁ㅁㅗㅅㅎㅐ -6720
▁정벌 -6721
▁ㅍㅓㅈㅕ -6722
▁고립 -6723
▁친정 -6724
▁애국 -6725
▁ㅁㅓㅁㅜㄹㄹㅓㅆ -6726
카르 -6727
▁도망 -6728
▁아베 -6729
▁우지 -6730
▁구장 -6731
▁바그 -6732
▁오케스트라 -6733
▁낱 -6734
▁하트 -6735
▁옌 -6736
▁월간 -6737
▁점유 -6738
ㄷㅚ -6739
▁무라 -6740
잡이 -6741
▁피렌 -6742
▁와중 -6743
▁융합 -6744
ET -6745
로디 -6746
▁출구 -6747
리크 -6748
▁충남 -6749
▁브라우 -6750
▁아이디 -6751
▁좋아하 -6752
▁주립 -6753
▁바티 -6754
▁뱅크 -6755
▁제네 -6756
▁학파 -6757
▁부통령 -6758
ast -6759
▁참판 -6760
▁선두 -6761
▁용량 -6762
킨스 -6763
▁페어 -6764
▁하노 -6765
▁거인 -6766
▁요크 -6767
▁일요일 -6768
▁스타크래프트 -6769
▁ㄷㅡㄹㅇㅓㄱㅏㄴ -6770
▁ㅆㅏㅇㅝㅆ -6771
▁몰락 -6772
럼비아 -6773
▁소나 -6774
▁농도 -6775
▁진나라 -6776
예프 -6777
▁김동 -6778
▁귀환 -6779
▁두산 -6780
▁맥스 -6781
▁굉 -6782
▁이에 -6783
▁최신 -6784
▁지장 -6785
▁벌어지 -6786
▁시체 -6787
▁쿠스 -6788
▁투명 -6789
▁개발자 -6790
들리 -6791
▁샬 -6792
▁공과 -6793
▁MVP -6794
▁야기 -6795
▁흥행 -6796
▁ㄷㅜㄹㄹㅓㅆㅏ -6797
▁발족 -6798
부인 -6799
▁강연 -6800
▁완화 -6801
▁위주 -6802
데이트 -6803
▁중국어 -6804
길이 -6805
▁사리 -6806
▁다이아 -6807
▁스트리트 -6808
▁알바니아 -6809
▁139 -6810
▁성종 -6811
▁마천 -6812
▁업데이트 -6813
▁애플리케이션 -6814
▁DS -6815
▁대령 -6816
▁충성 -6817
아지 -6818
▁전지 -6819
▁미나미 -6820
트롤 -6821
▁HIV -6822
▁부자 -6823
▁전이 -6824
▁ㄷㅏㄹㅜㄴ -6825
▁보드 -6826
▁145 -6827
▁마리오 -6828
if -6829
▁고조 -6830
▁공용 -6831
▁서열 -6832
▁물려 -6833
▁빨리 -6834
▁아세 -6835
▁응우옌 -6836
▁이슈 -6837
▁피렌체 -6838
▁디젤 -6839
▁측근 -6840
▁시드니 -6841
▁킬로미터 -6842
▁착수 -6843
AD -6844
▁경선 -6845
▁서일본 -6846
▁ㅅㅏㄹㅏㅈㅕㅆ -6847
▁기타리스트 -6848
▁ㅂㅓㄹㅇㅓㅈㅕㅆ -6849
주곡 -6850
레이터 -6851
트랙 -6852
▁검증 -6853
▁해인 -6854
▁게이트 -6855
▁주머니 -6856
▁준결승 -6857
랑크 -6858
ive -6859
▁관찰사 -6860
▁ㅅㅣㅁㅎㅏㄴ -6861
▁아이디어 -6862
▁가득 -6863
▁수산 -6864
▁히라 -6865
란트 -6866
▁사명 -6867
▁전두 -6868
▁중도 -6869
▁구동 -6870
수아 -6871
▁마산 -6872
▁형법 -6873
IT -6874
▁턴 -6875
▁사바 -6876
▁요미우리 -6877
▁넬 -6878
▁디오 -6879
▁부도 -6880
▁아종 -6881
▁해전 -6882
▁험 -6883
▁전류 -6884
악기 -6885
▁공전 -6886
▁규명 -6887
▁부시 -6888
▁테오 -6889
▁174 -6890
▁관광객 -6891
츠키 -6892
▁ㅇㅏㄹㄹㅕㅆ -6893
카드 -6894
▁전임 -6895
▁석탄 -6896
▁붓 -6897
▁몸길이 -6898
ack -6899
ure -6900
▁지각 -6901
리티 -6902
트니 -6903
▁권유 -6904
▁수학자 -6905
▁IP -6906
▁인과 -6907
▁연수 -6908
▁중독 -6909
▁소송법 -6910
▁관습 -6911
▁플라스 -6912
▁좌표 -6913
▁1896 -6914
토미 -6915
▁천문학 -6916
▁로빈 -6917
ㅅㅣㄴ -6918
▁자율 -6919
▁소재지 -6920
▁실용 -6921
루미 -6922
▁Ar -6923
▁노동조합 -6924
▁청와 -6925
▁판매량 -6926
▁스콧 -6927
▁우즈 -6928
▁피에르 -6929
▁마운 -6930
▁메디 -6931
▁여덟 -6932
▁정찰 -6933
▁책봉 -6934
▁사인 -6935
▁뷔 -6936
균관 -6937
아리 -6938
▁쇼핑 -6939
ㄹㄹㅏㅆ -6940
▁옐 -6941
▁신칸 -6942
▁세례 -6943
▁호평 -6944
▁존경 -6945
iv -6946
▁백신 -6947
▁오렌 -6948
▁통행 -6949
▁청와대 -6950
▁붙이 -6951
▁섞 -6952
ock -6953
▁성벽 -6954
▁수신 -6955
▁전장 -6956
▁친선 -6957
▁ㅋㅏㄴ -6958
▁저기압 -6959
▁5000 -6960
▁피난 -6961
▁ㅈㅏㅁㅕㄴ -6962
▁꼴 -6963
▁152 -6964
▁조용 -6965
▁ㄷㅡㄹㅇㅓㅇㅘ -6966
▁행진 -6967
▁프로세스 -6968
▁전진 -6969
ck -6970
▁닫 -6971
▁미하 -6972
사기 -6973
▁문재인 -6974
▁복소 -6975
▁회수 -6976
▁ㅉㅣ -6977
▁드러내 -6978
▁상상 -6979
▁염색 -6980
▁테일러 -6981
▁짙 -6982
▁악마 -6983
▁신전 -6984
▁157 -6985
▁시외버스 -6986
▁ㅇㅓㄹㅣㄹ -6987
▁련 -6988
▁구제 -6989
▁취약 -6990
▁폴리스 -6991
▁전문학교 -6992
▁비극 -6993
▁카시 -6994
문관 -6995
▁자손 -6996
▁연구자 -6997
가루 -6998
▁미스터 -6999
▁관념 -7000
혁명 -7001
▁과목 -7002
▁MP -7003
▁대외 -7004
▁지분 -7005
▁카나 -7006
▁ㄴㅜㄹ -7007
▁급진 -7008
▁킨 -7009
▁장성 -7010
▁유년 -7011
▁준공 -7012
▁한강 -7013
▁할당 -7014
ㅇㅓㄴ -7015
▁얼마나 -7016
▁금성 -7017
▁로고 -7018
▁동남아시아 -7019
▁빌헬 -7020
▁유출 -7021
▁루터 -7022
▁무효 -7023
▁밀양 -7024
▁창업 -7025
▁쇄 -7026
창기 -7027
▁관현 -7028
▁마찰 -7029
▁번뇌 -7030
▁식당 -7031
▁퇴각 -7032
▁파스 -7033
▁독립운동가 -7034
▁아울러 -7035
▁믿음 -7036
▁일화 -7037
▁적대 -7038
▁제휴 -7039
▁해임 -7040
▁뿔 -7041
외선 -7042
▁루수 -7043
▁고개 -7044
▁ㄴㅐㅅㅔ -7045
▁메가 -7046
▁ㄷㅗㄹㄹㅕ -7047
▁힌두 -7048
▁신칸센 -7049
▁ㅂㅣㄹ -7050
▁ㅂㅏㄴ -7051
▁히스 -7052
수수 -7053
▁가즈 -7054
▁국어 -7055
▁응답 -7056
▁승차 -7057
▁에티 -7058
12 -7059
전자 -7060
▁장인 -7061
▁하버드 -7062
포스 -7063
▁김용 -7064
▁j -7065
일드 -7066
▁서독 -7067
▁시집 -7068
메르 -7069
▁마오 -7070
▁ㄱㅏㅈㅣㄹ -7071
▁나미 -7072
▁상류 -7073
▁이순 -7074
니스트 -7075
붙이 -7076
▁ㅉㅗㅊ -7077
▁성균관 -7078
▁소금 -7079
▁희극 -7080
▁프로토콜 -7081
▁연루 -7082
▁105 -7083
▁쥬 -7084
산군 -7085
▁매출 -7086
델피아 -7087
▁필라델피아 -7088
▁PS -7089
▁동위 -7090
▁중점 -7091
▁소총 -7092
폴리스 -7093
▁외무 -7094
▁소닉 -7095
▁충족 -7096
▁패전 -7097
하르트 -7098
▁1500 -7099
▁3000 -7100
▁노드 -7101
▁성전 -7102
▁소지 -7103
▁ㄱㅓㅅㅡㄹ -7104
악단 -7105
▁ㅍㅏ -7106
▁저택 -7107
▁항공모 -7108
자와 -7109
▁박영 -7110
▁이노 -7111
▁125 -7112
▁MC -7113
▁와인 -7114
▁젖 -7115
▁우정 -7116
▁청사 -7117
ㅜㄹㄹㅕ -7118
▁1911 -7119
▁ㄷㅡㄹㅓㄴ -7120
▁매개 -7121
▁146 -7122
▁사사 -7123
▁오클 -7124
▁아즈 -7125
원숭이 -7126
▁남인 -7127
▁예배 -7128
▁Le -7129
▁추모 -7130
▁단점 -7131
▁성모 -7132
▁제트 -7133
▁ㄱㅜㄴ -7134
ㅇㅓㅈㅣㄹ -7135
▁조언 -7136
▁편곡 -7137
▁참가자 -7138
팩트 -7139
▁얇 -7140
▁서서 -7141
▁하마 -7142
ㄱㅜㄴ -7143
▁술탄 -7144
▁여수 -7145
▁주권 -7146
▁원나라 -7147
▁보잉 -7148
▁천사 -7149
▁ㅂㅘㅆ -7150
▁ㄴㅏㄱㅏ -7151
ㅂㅗㄴ -7152
one -7153
▁남양 -7154
▁민국 -7155
▁환원 -7156
ML -7157
▁강사 -7158
▁개원 -7159
▁증후 -7160
▁우주선 -7161
▁법령 -7162
▁Pro -7163
▁포장 -7164
▁153 -7165
▁단원 -7166
네이 -7167
▁반격 -7168
라트 -7169
▁착공 -7170
▁패스 -7171
▁초창기 -7172
▁회계 -7173
▁고무 -7174
▁회화 -7175
▁ㄷㅙㅆㅇㅡㅁㅕ -7176
▁곳곳 -7177
▁환상 -7178
▁ㅂㅕㄴ -7179
▁자책점 -7180
▁고원 -7181
▁윌슨 -7182
▁ㄱㅣㅇㅜㄹ -7183
▁회견 -7184
▁지지자 -7185
ime -7186
ㅂㅎㅣㄴ -7187
▁내내 -7188
▁나열 -7189
▁카자흐 -7190
AP -7191
▁유언 -7192
서양 -7193
▁배구 -7194
▁일렉 -7195
상스 -7196
▁찌 -7197
▁연인 -7198
▁조르 -7199
▁리메 -7200
▁별자리 -7201
고속도로 -7202
▁점프 -7203
▁카트 -7204
▁미얀마 -7205
▁친척 -7206
▁셈 -7207
▁앞서 -7208
▁이복 -7209
▁특유 -7210
▁빌헬름 -7211
▁여래 -7212
▁지목 -7213
▁103 -7214
▁닭 -7215
▁고베 -7216
▁근접 -7217
▁따위 -7218
▁후자 -7219
OC -7220
▁개업 -7221
▁소관 -7222
▁출입구 -7223
▁ㄸㅓㄹㅇㅓㅈㅕㅆ -7224
▁오키나 -7225
▁디비 -7226
▁인격 -7227
제프 -7228
토시 -7229
▁석가 -7230
▁순천 -7231
▁기장 -7232
▁이어서 -7233
▁양상 -7234
▁일관 -7235
▁민사 -7236
▁ㅊㅏㄴ -7237
▁대답 -7238
▁내지 -7239
▁클린 -7240
▁사지 -7241
▁공략 -7242
▁채무 -7243
▁유해 -7244
▁최적 -7245
▁오디오 -7246
▁북동부 -7247
▁비틀즈 -7248
▁정치가 -7249
▁룰 -7250
▁공인 -7251
▁진리 -7252
▁강수량 -7253
▁삿 -7254
노리 -7255
▁우편 -7256
▁인형 -7257
리언 -7258
▁위장 -7259
▁컨트롤 -7260
te -7261
즈카 -7262
▁이원 -7263
▁보충 -7264
▁실종 -7265
▁이이 -7266
▁이글스 -7267
▁제의 -7268
▁토크 -7269
▁협동 -7270
▁ㅇㅓㄴ -7271
▁나리 -7272
▁눈물 -7273
▁매력 -7274
▁중장 -7275
▁해역 -7276
동물 -7277
소스 -7278
▁허브 -7279
대군 -7280
▁공자 -7281
▁항공모함 -7282
▁취재 -7283
▁베르크 -7284
기니 -7285
▁매사 -7286
▁벗어나 -7287
어리 -7288
▁선원 -7289
▁주파수 -7290
Pa -7291
▁레전 -7292
▁증후군 -7293
▁사우디아 -7294
▁ISO -7295
▁으 -7296
▁게재 -7297
▁카타 -7298
▁155 -7299
▁ㅇㅣㄱ -7300
▁상자 -7301
▁토리 -7302
▁오렌지 -7303
▁ㅇㅑㄱㅎㅏㄴ -7304
▁별개 -7305
▁사가 -7306
▁ㄷㅚㄷㅗ -7307
▁머물 -7308
▁전례 -7309
▁굵 -7310
받침 -7311
▁미소 -7312
▁버튼 -7313
▁민영 -7314
▁유격 -7315
▁이영 -7316
▁아군 -7317
▁테스 -7318
▁시립 -7319
항공 -7320
▁각기 -7321
▁합법 -7322
▁트라이 -7323
▁겸임 -7324
▁호칭 -7325
▁르네상스 -7326
▁ㄱㅓㄷㅜㄴ -7327
▁사물 -7328
▁늘어나 -7329
▁승무원 -7330
▁각본가 -7331
마사 -7332
▁금액 -7333
▁법무 -7334
▁중종 -7335
io -7336
▁ㄸㅡ -7337
▁Con -7338
▁배틀 -7339
▁# -7340
▁스터 -7341
▁담배 -7342
▁유교 -7343
▁스파이 -7344
플러 -7345
▁Bo -7346
▁연도 -7347
▁즐기 -7348
▁둘러싸 -7349
▁ㅇㅠㅎㅏㄴ -7350
▁격렬 -7351
▁이인 -7352
▁평행 -7353
▁아리스 -7354
▁동등 -7355
▁성주 -7356
▁캐스팅 -7357
노프 -7358
▁108 -7359
▁히데요시 -7360
▁아바 -7361
▁나고 -7362
▁아케 -7363
▁모으 -7364
▁자발 -7365
▁사다 -7366
▁일족 -7367
▁캠페인 -7368
때로 -7369
시온 -7370
ber -7371
▁상장 -7372
▁생일 -7373
▁이바 -7374
▁밭 -7375
▁ㅋㅓㅆ -7376
▁포수 -7377
▁고체 -7378
ㅅㅣ -7379
▁세균 -7380
▁레이저 -7381
▁서해 -7382
▁에이스 -7383
▁이슬람교 -7384
▁끈 -7385
▁치세 -7386
▁전두환 -7387
▁ㄹㅏㄹ -7388
▁영동 -7389
▁나고야 -7390
▁일찍이 -7391
▁드라이브 -7392
pe -7393
▁IT -7394
▁앞면 -7395
▁콜라 -7396
▁해운 -7397
▁생명체 -7398
▁복장 -7399
▁에디 -7400
▁퍼시픽 -7401
▁감지 -7402
▁서서히 -7403
▁고발 -7404
▁던지 -7405
▁ㅇㅓㄷㅜㅇㅜㄴ -7406
▁화살 -7407
▁토요일 -7408
▁ㄱㅓㅅㅡㄹㄹㅓ -7409
▁브래 -7410
시티 -7411
퍼니 -7412
▁만세 -7413
▁때때로 -7414
▁상대방 -7415
▁시청자 -7416
모어 -7417
▁궁정 -7418
▁외곽 -7419
▁하우 -7420
라이트 -7421
▁사우디아라비아 -7422
▁메타 -7423
▁야간 -7424
▁골프 -7425
▁연혁 -7426
▁호세 -7427
▁교단 -7428
▁추격 -7429
▁가계 -7430
▁교장 -7431
▁1909 -7432
▁향후 -7433
▁ㅁㅏㅌ -7434
▁이사장 -7435
▁트럼프 -7436
▁최저 -7437
가타 -7438
▁박탈 -7439
▁ㅎㅏㄴㄷㅔ -7440
▁멈 -7441
▁어드 -7442
▁홍수 -7443
▁ㅈㅏㄱㅗ -7444
▁크리스마스 -7445
ge -7446
▁건의 -7447
▁메인 -7448
▁상부 -7449
▁입상 -7450
▁트위 -7451
▁아우구 -7452
▁태어나 -7453
ㅂㅎㅣㄴㄷㅏ -7454
베이터 -7455
▁하인리히 -7456
▁무려 -7457
▁ㄷㅡㄹㅇㅕ -7458
러미 -7459
화점 -7460
▁기금 -7461
▁김영삼 -7462
행위 -7463
▁댐 -7464
▁방침 -7465
▁속성 -7466
▁가르침 -7467
▁ㅈㅏㅁㅏ -7468
▁ㅂㅓㄹㅣㄴ -7469
구장 -7470
▁김태 -7471
▁개찰구 -7472
▁일생 -7473
▁외국어 -7474
▁유니폼 -7475
산리 -7476
▁긴장 -7477
▁초연 -7478
칠리아 -7479
산면 -7480
▁발현 -7481
▁ㅁㅏㅊㅣㄴ -7482
▁ㅇㅣㄹㅡㄴ -7483
▁앙리 -7484
▁중재 -7485
▁전도 -7486
▁시라 -7487
▁단기 -7488
집합 -7489
▁명의 -7490
▁수성 -7491
▁128 -7492
▁레전드 -7493
▁다중 -7494
▁톈 -7495
▁건축가 -7496
▁개관 -7497
▁물자 -7498
▁네이버 -7499
람회 -7500
▁리오 -7501
▁슬라 -7502
▁피고 -7503
▁지나가 -7504
▁ㄴㅏㅁㄱㅣㄴ -7505
▁사이버 -7506
▁하이드 -7507
라미 -7508
▁부착 -7509
▁트루 -7510
▁102 -7511
▁149 -7512
▁ㅈㅏㅁㅏㅈㅏ -7513
▁얘 -7514
▁대주교 -7515
▁송나라 -7516
▁포도주 -7517
▁보스니아 -7518
▁남한 -7519
▁전대 -7520
▁제작자 -7521
▁Bl -7522
▁세미 -7523
▁텍스트 -7524
▁GT -7525
▁정밀 -7526
▁캄보 -7527
▁아미노 -7528
▁운동장 -7529
▁섭취 -7530
▁안장 -7531
▁팽창 -7532
▁유소년 -7533
▁주지사 -7534
▁여진 -7535
▁취지 -7536
▁고가 -7537
▁존중 -7538
▁짜리 -7539
▁셸 -7540
▁가라 -7541
▁직책 -7542
▁굉장 -7543
▁에스파냐 -7544
▁기수 -7545
▁예시 -7546
▁대군 -7547
▁발원 -7548
▁기다리 -7549
▁자유당 -7550
▁ㅍㅜㄹㅡㄴ -7551
▁ㄱㅏㅁ -7552
▁컬러 -7553
▁ㅎㅓㄴ -7554
트릭 -7555
▁숭배 -7556
▁포괄 -7557
▁계절 -7558
▁여주 -7559
▁토스 -7560
▁지나치 -7561
▁조리 -7562
▁중국인 -7563
iz -7564
▁ㅁㅜㄹㄹㅓㄴㅏㅆ -7565
▁강경 -7566
▁객관 -7567
▁향교 -7568
▁원자로 -7569
▁키프 -7570
▁입체 -7571
▁후안 -7572
DP -7573
▁딩 -7574
▁쉐 -7575
▁시오 -7576
먼드 -7577
▁오키나와 -7578
▁고래 -7579
▁문양 -7580
▁팔레스 -7581
우라 -7582
▁계몽 -7583
▁촉구 -7584
▁차남 -7585
▁갓 -7586
나리 -7587
▁고사 -7588
▁낙선 -7589
orld -7590
백과 -7591
▁병역 -7592
▁사절 -7593
▁탐지 -7594
▁블루스 -7595
age -7596
▁동독 -7597
▁수평 -7598
▁통칭 -7599
▁최소한 -7600
▁여의 -7601
▁태생 -7602
▁룽 -7603
▁서사 -7604
▁턱 -7605
서리 -7606
▁토마 -7607
▁가져 -7608
▁음원 -7609
▁청장 -7610
▁스릴 -7611
▁추상 -7612
▁CPU -7613
▁손가락 -7614
▁로프 -7615
▁경과 -7616
▁센서 -7617
▁에우 -7618
▁디스플레이 -7619
▁$ -7620
▁대니 -7621
▁볼리 -7622
▁패하 -7623
ㅜㅁㅕ -7624
▁북방 -7625
ㅈㅜㄴ -7626
수엘라 -7627
▁머신 -7628
▁원하 -7629
▁정말 -7630
▁그랑프리 -7631
▁리메이크 -7632
▁겔 -7633
▁프랭크 -7634
▁조반 -7635
▁아미타 -7636
▁ㅎㅡ -7637
▁진군 -7638
차례 -7639
▁무죄 -7640
▁ㅁㅣㄹ -7641
▁수군 -7642
▁시그 -7643
▁심의 -7644
▁침몰 -7645
▁147 -7646
▁충주 -7647
▁효력 -7648
노부 -7649
▁마하 -7650
▁명목 -7651
▁어업 -7652
▁팜 -7653
석기 -7654
▁엘리베이터 -7655
▁난민 -7656
▁전함 -7657
▁ㄷㅜㅇㄱ -7658
▁마비 -7659
▁왜성 -7660
ㄲㅇㅕ -7661
▁김진 -7662
▁저명 -7663
▁협조 -7664
▁127 -7665
▁171 -7666
▁제곱 -7667
▁종결 -7668
▁알코 -7669
▁hPa -7670
워하 -7671
▁김재 -7672
▁ㅈㅜㄱㅇㅕㅆ -7673
ik -7674
▁경부 -7675
▁원고 -7676
▁후일 -7677
▁타이거즈 -7678
▁대처 -7679
▁수렴 -7680
▁스핀 -7681
ㄷㅓㄴ -7682
▁노란색 -7683
▁로맨스 -7684
▁1915 -7685
▁모스 -7686
▁수동 -7687
포트 -7688
▁베네수엘라 -7689
▁라파 -7690
▁트윈스 -7691
▁신흥 -7692
▁윌리엄스 -7693
▁반박 -7694
▁부천 -7695
▁케네 -7696
▁세계관 -7697
▁투르크 -7698
▁추증 -7699
▁언론인 -7700
자스 -7701
EN -7702
▁분광 -7703
▁주축 -7704
ㅓㅇㅝ -7705
▁ㅋㅣㄹ -7706
▁ㅂㅜㄹㅡㄴ -7707
▁김수 -7708
▁전성기 -7709
▁1913 -7710
▁코프 -7711
▁동년 -7712
▁북구 -7713
▁옥스 -7714
▁그동안 -7715
▁타르 -7716
▁이어받 -7717
▁ㅇㅏㄷㅗ -7718
▁부과 -7719
▁창시 -7720
ㄷㅚㄴ -7721
▁풍경 -7722
▁시공 -7723
▁문학상 -7724
▁테니스 -7725
▁언제나 -7726
▁프레스 -7727
▁인재 -7728
▁황해 -7729
▁이민자 -7730
▁나가사키 -7731
▁al -7732
▁개미 -7733
▁기습 -7734
▁탈환 -7735
▁닿 -7736
▁공직 -7737
▁출토 -7738
▁상당수 -7739
▁원반 -7740
▁위키백과 -7741
▁천문학자 -7742
기지 -7743
▁동력 -7744
▁따뜻 -7745
▁ㄱㅏㅈㅕㅇㅘㅆ -7746
와라 -7747
▁보리 -7748
▁창건 -7749
트리올 -7750
▁몬트리올 -7751
▁SP -7752
▁ㄲㅔㅅㅓ -7753
▁뚫 -7754
▁드러나 -7755
▁ㄷㅏㄹㄹㅣㄴ -7756
▁동당 -7757
▁차종 -7758
▁청원 -7759
▁강과 -7760
▁광년 -7761
▁아폴 -7762
▁ㅇㅓㅇㅛ -7763
▁Tr -7764
▁아사히 -7765
▁ㅇㅔㄷㅏ -7766
▁네이션스 -7767
▁결선 -7768
무기 -7769
▁섭정 -7770
▁북서부 -7771
▁ㅁㅣㅊㅕㅆ -7772
창군 -7773
▁대역 -7774
▁링컨 -7775
▁별칭 -7776
▁169 -7777
▁캄보디아 -7778
▁이틀 -7779
▁ㄱㅓㄹㄹ -7780
▁스파르타 -7781
▁팔레스타인 -7782
sp -7783
▁둘레 -7784
▁바흐 -7785
▁주차 -7786
▁ㅂㅜㄴ -7787
▁ㅅㅟㅇㅜㄴ -7788
▁정무 -7789
▁걱 -7790
▁동래 -7791
▁유수 -7792
▁아이템 -7793
▁대포 -7794
▁재미 -7795
▁태수 -7796
▁라이언 -7797
▁식별 -7798
▁적자 -7799
▁나주 -7800
▁유연 -7801
▁고백 -7802
▁수령 -7803
▁엔지 -7804
▁ㅂㅕㄹ -7805
▁대제 -7806
▁카탈 -7807
▁이진 -7808
▁도호쿠 -7809
▁ㄷㅡㄴㅈㅣ -7810
▁끊임 -7811
자치도 -7812
▁제주특별 -7813
▁제주특별자치도 -7814
▁온천 -7815
▁차기 -7816
▁ㄱㅏㄹㅡㅊㅕㅆ -7817
포구 -7818
▁풋볼 -7819
MS -7820
▁딴 -7821
▁광부 -7822
▁큰 -7823
▁신세 -7824
▁사회학 -7825
▁자기장 -7826
▁1895 -7827
선거 -7828
▁언더 -7829
▁후대 -7830
▁비문 -7831
▁총괄 -7832
▁북위 -7833
▁지폐 -7834
네스코 -7835
태우 -7836
▁영리 -7837
▁무제 -7838
▁남원 -7839
▁번영 -7840
▁리버풀 -7841
▁NC -7842
▁135 -7843
▁베어스 -7844
▁141 -7845
▁초상화 -7846
▁ㅈㅓㄴㅎㅏㄴㄷㅏ -7847
▁장학 -7848
▁폐위 -7849
▁후세 -7850
▁ㄷㅔㄹㅕ -7851
▁다운로드 -7852
리에 -7853
▁ㅃㅗ -7854
공신 -7855
▁날짜 -7856
▁대위 -7857
▁멈추 -7858
▁어스 -7859
명사전 -7860
▁무상 -7861
▁양주 -7862
▁총선거 -7863
▁한동안 -7864
▁ㄷㅜㄹㄹㅓㅆㅏㄴ -7865
▁교원 -7866
▁거느리 -7867
▁십자가 -7868
▁하부 -7869
▁법제 -7870
▁삼진 -7871
▁조달 -7872
▁아틀레 -7873
▁해병대 -7874
▁탤 -7875
평군 -7876
ust -7877
▁바실 -7878
▁여파 -7879
그라드 -7880
▁서울대 -7881
▁수용소 -7882
벌레 -7883
보기 -7884
키지 -7885
▁소환 -7886
▁휴전 -7887
▁111 -7888
▁관람 -7889
▁국사 -7890
▁소실 -7891
▁첨가 -7892
▁중소 -7893
▁컴퍼니 -7894
▁기요 -7895
▁원내 -7896
▁장미 -7897
▁제수 -7898
선스 -7899
▁위임 -7900
▁144 -7901
▁ㅂㅓㄹㅕ -7902
▁CE -7903
▁오빠 -7904
▁명백 -7905
▁미즈 -7906
▁서머 -7907
▁중순 -7908
▁신중 -7909
▁카리브 -7910
▁CO -7911
▁인산 -7912
▁파업 -7913
박쥐 -7914
▁걱정 -7915
▁정전 -7916
▁천도 -7917
▁119 -7918
▁ㅍㅏㄴ -7919
니치 -7920
GC -7921
ep -7922
▁불편 -7923
▁의상 -7924
▁휴식 -7925
▁이광 -7926
▁신학자 -7927
▁리어 -7928
▁민회 -7929
▁ㅇㅕㄱㅕㅆ -7930
ib -7931
▁더글 -7932
▁충실 -7933
크리트 -7934
▁스릴러 -7935
▁모방 -7936
▁ㅂㅗㅇㅣㄴ -7937
▁고민 -7938
▁김포 -7939
▁당일 -7940
▁함유 -7941
▁내외 -7942
▁다니엘 -7943
▁스티브 -7944
▁문화방송 -7945
▁ㅈㅣㄴㅐㅆㅇㅡㅁㅕ -7946
ian -7947
▁선구 -7948
▁쇼트 -7949
루션 -7950
int -7951
▁루시 -7952
▁TO -7953
▁도스 -7954
▁실전 -7955
▁요르 -7956
▁TH -7957
▁귀중 -7958
▁지능 -7959
▁172 -7960
▁두루 -7961
라이더 -7962
▁아레나 -7963
▁컬럼비아 -7964
▁드럼 -7965
▁소통 -7966
▁해수 -7967
리케인 -7968
케이션 -7969
▁시나리오 -7970
▁교양 -7971
▁연세대 -7972
푸스 -7973
▁케이스 -7974
▁ㄷㅜㅇㄱㅡㄴ -7975
▁신학교 -7976
▁ㅆㅓㅅㅓ -7977
▁ㅈㅏㄹㅏㅆ -7978
그로 -7979
▁관통 -7980
▁총사 -7981
▁라이선스 -7982
▁간호 -7983
▁평야 -7984
▁엔지니어 -7985
▁허리케인 -7986
릴라 -7987
▁It -7988
▁슈트 -7989
▁외교관 -7990
▁ㅈㅓㅇㅎㅏㄴ -7991
▁공모 -7992
▁바퀴 -7993
▁병조 -7994
▁오세 -7995
▁정렬 -7996
누엘 -7997
ome -7998
▁김상 -7999
▁증진 -8000
▁할리우드 -8001
▁꽤 -8002
▁선종 -8003
▁장난 -8004
ire -8005
▁며칠 -8006
▁신탁 -8007
▁좌절 -8008
▁배신 -8009
▁신기 -8010
▁초과 -8011
▁항소 -8012
▁아이슬 -8013
▁유니버 -8014
▁카이사르 -8015
▁ㅆㅡㅇㅣㄴ -8016
라리 -8017
▁격투 -8018
▁미토 -8019
▁약칭 -8020
▁총대 -8021
▁테레 -8022
▁106 -8023
▁유네스코 -8024
페르 -8025
▁We -8026
▁마인 -8027
▁베드 -8028
▁연패 -8029
▁진짜 -8030
▁편리 -8031
▁스페이스 -8032
▁껍질 -8033
▁아벨 -8034
▁NBA -8035
▁마이너 -8036
▁매카 -8037
▁미주 -8038
▁우연히 -8039
▁영남 -8040
▁평범 -8041
▁케네디 -8042
▁룡 -8043
▁쿤 -8044
▁공채 -8045
▁바치 -8046
▁에버 -8047
▁영장 -8048
▁낱말 -8049
▁콘크리트 -8050
▁그루 -8051
▁서남 -8052
▁표명 -8053
▁구조물 -8054
▁ㄱㅡㄹㅕㅆ -8055
시로 -8056
▁역설 -8057
▁장려 -8058
▁겸하 -8059
▁인연 -8060
▁바이오 -8061
▁승점 -8062
▁의의 -8063
▁에스토 -8064
▁ㄴㅏㄴㄷㅏ -8065
▁마츠 -8066
▁보완 -8067
▁지혜 -8068
▁평일 -8069
▁ㅎㅡㅌ -8070
▁아이슬란드 -8071
러드 -8072
▁공의회 -8073
▁도주 -8074
▁부재 -8075
▁중량 -8076
▁ㅇㅜㄹ -8077
▁니콜라 -8078
▁돌연 -8079
▁등재 -8080
▁애덤 -8081
▁콰 -8082
▁기울 -8083
▁열대 -8084
▁차이점 -8085
▁ㄷㅡㄹㅇㅓㅇㅗㄴ -8086
치오 -8087
▁고수 -8088
▁오비 -8089
▁제갈 -8090
▁도라 -8091
▁묘역 -8092
▁합창 -8093
▁해변 -8094
▁덤 -8095
▁애틀 -8096
▁업계 -8097
▁전압 -8098
▁탱크 -8099
블로 -8100
▁공단 -8101
▁포격 -8102
내셔널 -8103
▁인터내셔널 -8104
▁부채 -8105
▁입지 -8106
▁치열 -8107
▁페르난 -8108
▁책임자 -8109
▁양도 -8110
▁장안 -8111
▁한성부 -8112
▁도르 -8113
▁발트 -8114
▁우라늄 -8115
▁단식 -8116
▁배터리 -8117
▁나스 -8118
▁레바 -8119
▁친일인 -8120
▁파이어 -8121
▁황태자 -8122
▁친일인명사전 -8123
▁오사 -8124
▁방패 -8125
▁생전 -8126
▁ㄷㅡㄹㅇㅓㅇㅘㅆ -8127
▁바리 -8128
▁첼시 -8129
▁프랑수아 -8130
▁ㄷㅗㅇㅘㅆ -8131
ere -8132
ude -8133
▁로열 -8134
▁ㅇㅣㄹㅇㅓㄴㅏㄹ -8135
▁마약 -8136
주의자 -8137
▁스페인어 -8138
세츠 -8139
실록 -8140
말라 -8141
▁봉쇄 -8142
▁라이온즈 -8143
▁교외 -8144
▁파장 -8145
▁횟 -8146
▁투르 -8147
▁에스토니아 -8148
▁불명 -8149
▁통근 -8150
▁매사추 -8151
▁동문 -8152
▁호위 -8153
▁바라보 -8154
▁매사추세츠 -8155
▁신속 -8156
▁호프 -8157
▁ㅂㅓㅅㅇㅓㄴㅏ -8158
의자 -8159
▁암석 -8160
▁주행 -8161
▁협주곡 -8162
▁대전광역시 -8163
유행 -8164
▁HT -8165
▁상담 -8166
▁오피스 -8167
야시 -8168
▁다항 -8169
▁사슬 -8170
▁재위 -8171
▁충북 -8172
▁물러 -8173
▁상서 -8174
▁일조 -8175
오피아 -8176
▁리비아 -8177
▁에티오피아 -8178
ide -8179
▁치즈 -8180
▁하락 -8181
▁DC -8182
▁개그 -8183
▁슬로바키아 -8184
▁낭만 -8185
▁유동 -8186
ment -8187
▁닝 -8188
▁생식 -8189
▁신생 -8190
▁여지 -8191
▁탈당 -8192
제리 -8193
▁고령 -8194
▁김기 -8195
▁시흥 -8196
▁어휘 -8197
ace -8198
▁오노 -8199
▁지선 -8200
바이잔 -8201
▁CON -8202
▁ㅁㅜㄱㅓㅇㅜㄴ -8203
▁그로 -8204
▁특집 -8205
중국 -8206
▁우울 -8207
▁해소 -8208
▁대웅 -8209
▁서정 -8210
▁아드 -8211
▁위탁 -8212
▁추세 -8213
▁중심부 -8214
▁ㄴㅏㅃㅡㄴ -8215
▁ㅂㅓㄹㅣㄴㄷㅏ -8216
▁". -8217
▁청하 -8218
▁물리학자 -8219
▁명제 -8220
▁응원 -8221
▁소유자 -8222
▁우루과이 -8223
번스 -8224
▁시선 -8225
IM -8226
▁가면 -8227
▁기인 -8228
▁현금 -8229
▁육지 -8230
▁추출 -8231
아이 -8232
▁돌리 -8233
▁조연 -8234
▁아제르 -8235
▁중추원 -8236
▁친왕 -8237
▁평택 -8238
ㄹㄹㅓㅆ -8239
▁실시간 -8240
▁퍼센트 -8241
▁닛폰 -8242
▁도루 -8243
▁의뢰 -8244
▁출처 -8245
▁병행 -8246
▁호기 -8247
▁아제르바이잔 -8248
▁ㅅㅜㅁㄱㅕ -8249
▁패키지 -8250
▁국무총리 -8251
▁객체 -8252
마드 -8253
▁성운 -8254
▁시초 -8255
▁ㄴㅐㄹㅣㄴ -8256
▁즈음 -8257
▁구이 -8258
▁바닷 -8259
▁얘기 -8260
▁푼 -8261
▁극동 -8262
▁부적 -8263
▁밟 -8264
하면 -8265
▁창고 -8266
▁나이지 -8267
▁노부나가 -8268
▁나이지리아 -8269
위원 -8270
▁브라우저 -8271
▁순회 -8272
▁지류 -8273
▁136 -8274
▁ㄷㅏㄹㅡㄴ -8275
▁박해 -8276
▁전라도 -8277
▁구도 -8278
▁신념 -8279
▁휴스턴 -8280
▁1916 -8281
▁ㅃㅏㅈㅕㅆ -8282
▁포터 -8283
▁쌍둥이 -8284
▁구호 -8285
▁바스 -8286
▁세션 -8287
▁입당 -8288
▁작센 -8289
▁결혼식 -8290
▁이사회 -8291
▁ㅊㅣㄹㅓ -8292
▁고소 -8293
▁동상 -8294
▁허리 -8295
▁148 -8296
▁ㅂㅏㄲㅝ -8297
▁우세 -8298
바다 -8299
석탑 -8300
▁실리 -8301
▁의약 -8302
▁중위 -8303
▁딕 -8304
▁막내 -8305
▁ㄱㅏㅎㅐ -8306
층석탑 -8307
▁IBM -8308
▁리틀 -8309
▁말리 -8310
▁워드 -8311
▁스튜어트 -8312
▁솜 -8313
▁수습 -8314
면체 -8315
▁신규 -8316
▁실장 -8317
▁펌 -8318
승지 -8319
▁격퇴 -8320
▁애틀랜 -8321
▁닷 -8322
▁되게 -8323
▁해적 -8324
▁서재 -8325
▁저하 -8326
▁급격히 -8327
▁산림 -8328
▁냉각 -8329
▁분당 -8330
▁안성 -8331
▁이세 -8332
▁138 -8333
시피 -8334
▁거론 -8335
▁경연 -8336
▁극히 -8337
▁깨달 -8338
▁백색 -8339
▁아마도 -8340
▁면허 -8341
▁도장 -8342
▁원숭이 -8343
▁LP -8344
▁성숙 -8345
▁해밀 -8346
▁라이브러리 -8347
▁la -8348
▁시즈 -8349
▁시칠리아 -8350
아나 -8351
▁대의원 -8352
▁가동 -8353
▁인플 -8354
▁택시 -8355
▁신한 -8356
▁데이비스 -8357
▁앓 -8358
▁옴 -8359
▁전념 -8360
▁삼국지 -8361
타로 -8362
▁만남 -8363
▁탐구 -8364
▁백화점 -8365
▁후쿠시마 -8366
▁잦 -8367
▁니아 -8368
▁반감 -8369
▁회고 -8370
▁감리 -8371
▁동점 -8372
▁주이 -8373
▁평원 -8374
▁비리 -8375
▁대표작 -8376
▁테이블 -8377
▁최상위 -8378
▁반경 -8379
▁사헌 -8380
▁현종 -8381
▁360 -8382
고쿠 -8383
▁기단 -8384
▁이식 -8385
▁코무네 -8386
▁ㅅㅏㄴㄷㅏ -8387
▁게르만 -8388
▁도미 -8389
▁리우스 -8390
▁스톡 -8391
▁환영 -8392
▁ㅇㅔㄹ -8393
▁라트비아 -8394
▁ㅈㅓㄴㅎㅐㅆ -8395
람쥐 -8396
▁최악 -8397
▁토성 -8398
▁한스 -8399
▁한쪽 -8400
▁횟수 -8401
▁ㄴㅓ -8402
푸르트 -8403
▁고성 -8404
▁치명 -8405
▁혈통 -8406
▁모니터 -8407
양함 -8408
▁오해 -8409
▁반도체 -8410
▁중성자 -8411
▁ㅂㅜㅌㅇㅕㅆ -8412
대신 -8413
▁구릉 -8414
▁ㅈㅓㄴㅎㅏㄴ -8415
토모 -8416
▁En -8417
▁사우루스 -8418
데시 -8419
▁트래 -8420
▁104 -8421
▁그램 -8422
▁야구장 -8423
▁영의정 -8424
▁페르디 -8425
▁부당 -8426
▁피에 -8427
▁후방 -8428
타나 -8429
▁가짜 -8430
▁성체 -8431
▁오바 -8432
▁칼라 -8433
▁ㄱㅏㅂㅕ -8434
cl -8435
리니 -8436
▁그날 -8437
▁산란 -8438
▁ㄴㅏㅌㅏㄴㅐㄹ -8439
▁공천 -8440
▁상공 -8441
▁임용 -8442
▁주가 -8443
▁ㅊㅣㄹㅓㅈㅣㄴ -8444
▁아부 -8445
▁재현 -8446
▁춘추 -8447
▁플랜 -8448
▁ㅃㅐㅇ -8449
▁거행 -8450
▁발해 -8451
▁복선 -8452
▁뢰 -8453
▁기어 -8454
▁레논 -8455
▁음료 -8456
▁잔류 -8457
▁순교 -8458
▁사헌부 -8459
▁거제 -8460
▁여당 -8461
▁팔라 -8462
하시 -8463
▁성취 -8464
베르토 -8465
▁대학생 -8466
타고 -8467
▁없애 -8468
▁춘천 -8469
래스카 -8470
▁ㅅㅣㄹ -8471
▁ㅇㅕㄱㅕㅈㅕㅆ -8472
▁AK -8473
▁시바 -8474
▁109 -8475
▁다스리 -8476
▁방송사 -8477
마쓰 -8478
▁비시 -8479
▁주주 -8480
▁증대 -8481
▁힘입 -8482
▁Mar -8483
▁명령어 -8484
▁스트레스 -8485
▁랄 -8486
▁릉 -8487
▁견제 -8488
▁나비 -8489
▁피츠 -8490
회장 -8491
▁루프 -8492
▁휠 -8493
스틴 -8494
▁우위 -8495
▁적분 -8496
▁품종 -8497
▁현저 -8498
은색 -8499
▁왜냐 -8500
▁폭동 -8501
▁폭행 -8502
▁교황청 -8503
▁맵 -8504
▁차장 -8505
▁이에야스 -8506
여래 -8507
▁고인 -8508
▁고치 -8509
▁목판 -8510
▁한인 -8511
▁제독 -8512
▁축적 -8513
▁열정 -8514
▁ㅅㅐㄱㅕㅈㅕ -8515
▁공수 -8516
▁플라이 -8517
글리 -8518
브레 -8519
▁매입 -8520
▁아홉 -8521
살이 -8522
▁AR -8523
▁CS -8524
▁송시 -8525
▁123 -8526
▁주역 -8527
▁축하 -8528
곡리 -8529
▁육체 -8530
▁이윤 -8531
▁정점 -8532
▁ㄱㅚ -8533
▁분비 -8534
▁수련 -8535
▁하워드 -8536
▁호랑이 -8537
▁ㅂㅕㄹㄷㅏㄹㅡㄴ -8538
▁킥 -8539
▁카자흐스탄 -8540
▁다발 -8541
▁사모 -8542
▁유한 -8543
▁이케 -8544
▁터치 -8545
▁ㅇㅑㄱ -8546
▁충전 -8547
▁광학 -8548
▁아담 -8549
▁모이 -8550
▁억압 -8551
▁통증 -8552
▁히어로즈 -8553
▁주름 -8554
▁해명 -8555
권자 -8556
헤이 -8557
▁기적 -8558
▁바나 -8559
란히 -8560
▁소매 -8561
▁연합회 -8562
차기 -8563
▁관구 -8564
▁공산주의자 -8565
▁다이아몬드 -8566
AL -8567
은이 -8568
▁경관 -8569
▁래퍼 -8570
▁법조 -8571
▁팡 -8572
▁햇 -8573
라클 -8574
▁요하 -8575
실베이 -8576
실베이니아 -8577
▁신조 -8578
▁펜실베이니아 -8579
▁ㄷㅣ -8580
▁광물 -8581
러스트 -8582
ies -8583
▁왓 -8584
▁Op -8585
▁드로 -8586
▁암시 -8587
▁규범 -8588
▁처녀 -8589
더슨 -8590
▁벌금 -8591
▁청춘 -8592
ㅀㅇㅓ -8593
▁사업자 -8594
포드 -8595
▁히메 -8596
▁부르크 -8597
▁생산량 -8598
▁ㅁㅗㅅㅎㅏㄹ -8599
법인 -8600
▁리우 -8601
▁상용 -8602
▁ㄱㅘㄴㅎㅐㅅㅓ -8603
▁마야 -8604
▁남동부 -8605
▁ㄷㅏㅅㅡㄹ -8606
바시 -8607
▁목재 -8608
▁베스 -8609
▁존속 -8610
▁상점 -8611
▁컴파 -8612
▁CC -8613
▁염기 -8614
▁143 -8615
▁태양계 -8616
▁ㄴㅏㄴㅜㄹ -8617
▁살리 -8618
▁펑크 -8619
▁룬 -8620
▁상반 -8621
▁ㄴㅔㄴ -8622
▁박람회 -8623
▁ㅅㅣㄹㄹㅕ -8624
▁자민 -8625
▁소나타 -8626
▁너비 -8627
▁아예 -8628
▁무지 -8629
▁블로그 -8630
▁가죽 -8631
▁제프 -8632
▁티스 -8633
▁경상도 -8634
▁동아일보 -8635
▁성사 -8636
▁신주 -8637
브리지 -8638
▁공습 -8639
▁보석 -8640
▁사육 -8641
▁신약 -8642
▁이화 -8643
▁ㄴㅗㄹㄹㅏ -8644
▁ㄷㅓㅅㅂㅜㅌㅇㅕ -8645
▁공관 -8646
▁노바 -8647
▁적당 -8648
▁분기점 -8649
▁종로구 -8650
▁롤링 -8651
▁ㅌㅓㄴ -8652
▁평의회 -8653
ile -8654
▁국소 -8655
▁부설 -8656
▁조세 -8657
▁토모 -8658
▁라오스 -8659
▁가군 -8660
▁김경 -8661
▁부제 -8662
▁ㄴㅗㄹ -8663
▁조선일보 -8664
▁운하 -8665
▁태권 -8666
▁비자 -8667
▁우유 -8668
▁유로파 -8669
▁친일파 -8670
▁근교 -8671
▁레일 -8672
▁왜곡 -8673
▁블라디미르 -8674
▁헤비 -8675
▁알코올 -8676
▁상단 -8677
▁서진 -8678
연합 -8679
▁이타 -8680
▁ㄷㅜㄹㅕ -8681
▁ㅃㅏㅈㅣㄴ -8682
▁잊 -8683
▁허위 -8684
▁황실 -8685
▁ㅂㅜㄷㅡㄹ -8686
▁동국 -8687
▁나트 -8688
ㄷㅡㄹㅇㅕ -8689
▁날씨 -8690
▁공익 -8691
▁말라 -8692
▁맥락 -8693
▁몰리 -8694
▁비유 -8695
▁RNA -8696
▁범인 -8697
▁설탕 -8698
▁통영 -8699
▁ㄴㅡㄹㅇㅓㄴㅏㅆ -8700
▁경보 -8701
▁ㅁㅗㅇㅏㅆ -8702
산동 -8703
▁마디 -8704
▁소셜 -8705
▁협박 -8706
레기 -8707
▁Pr -8708
▁유죄 -8709
▁굉장히 -8710
▁트위터 -8711
▁ㄲㅡㄹㅇㅓ -8712
▁상사 -8713
▁확신 -8714
▁col -8715
▁ㄱㅏㄷ -8716
▁시골 -8717
비나 -8718
수리 -8719
ite -8720
▁인체 -8721
▁제재 -8722
▁112 -8723
▁ㅇㅝㄴㅎㅐㅆ -8724
▁인문 -8725
▁대폭 -8726
▁성단 -8727
▁신민 -8728
▁플러스 -8729
▁전자기 -8730
▁ㄸㅡㄱㅓㅇㅜㄴ -8731
▁Te -8732
▁맥주 -8733
▁카롤 -8734
▁ㅊㅕㅆ -8735
▁브라더스 -8736
▁미르 -8737
▁미션 -8738
▁시어 -8739
▁루이지 -8740
▁장거리 -8741
▁ㄷㅏㄹㅎㅐㅆ -8742
xt -8743
▁구출 -8744
▁깨닫 -8745
▁누이 -8746
▁우승자 -8747
▁왜냐하면 -8748
달리 -8749
▁아랍어 -8750
▁중의원 -8751
▁카를로스 -8752
▁흠 -8753
기업 -8754
▁누나 -8755
▁성별 -8756
▁포럼 -8757
▁양키스 -8758
▁시베리아 -8759
▁CF -8760
▁근원 -8761
▁경찰청 -8762
▁키프로스 -8763
도바 -8764
▁믹스 -8765
▁법무부 -8766
▁나르 -8767
▁연쇄 -8768
▁히사 -8769
도리 -8770
의장 -8771
▁보증 -8772
▁창원시 -8773
▁필터 -8774
▁126 -8775
▁뛰어나 -8776
▁이순신 -8777
▁ㄱㅜㅎㅐ -8778
▁ㅅㅗㄱㅎㅐㅆ -8779
▁깔 -8780
▁거북 -8781
▁실체 -8782
▁자선 -8783
▁개교 -8784
▁당주 -8785
▁언니 -8786
▁우호 -8787
▁107 -8788
▁단단 -8789
▁수법 -8790
▁핸드 -8791
▁이산화 -8792
스부르크 -8793
▁교과서 -8794
▁탐사선 -8795
랑카 -8796
▁가마쿠라 -8797
ㅈㅣㅁ -8798
▁117 -8799
▁SE -8800
▁신선 -8801
▁갈라 -8802
▁구축함 -8803
▁결함 -8804
▁탐색 -8805
▁다크 -8806
▁빨간 -8807
▁소원 -8808
▁거울 -8809
▁일방 -8810
▁희생자 -8811
▁ㄴㅡㄲㅕ -8812
() -8813
고래 -8814
▁빈곤 -8815
▁입원 -8816
▁후사 -8817
▁냉전 -8818
아다니 -8819
▁ㄷㅡㄹㅓㄴㅏㅆ -8820
▁양측 -8821
ath -8822
▁인명 -8823
ound -8824
▁ㄷㅜㄷㅡㄹ -8825
▁ㅇㅣㄱㅣㄴ -8826
▁곡인 -8827
▁조종사 -8828
ft -8829
나스 -8830
단체 -8831
▁몰래 -8832
▁제니 -8833
▁ㅈㅏㄹㅏㄴ -8834
▁is -8835
▁천장 -8836
▁KIA -8837
▁공방 -8838
▁샘플 -8839
▁수색 -8840
▁이브 -8841
▁투옥 -8842
▁후궁 -8843
ㅣㄹㅏ -8844
▁할머니 -8845
그레이드 -8846
▁쏟 -8847
▁자아 -8848
▁지평 -8849
▁교정 -8850
▁이경 -8851
▁게스트 -8852
▁살아가 -8853
▁세라 -8854
▁350 -8855
▁수용체 -8856
▁ㅂㅏㄷㅇㅏㄷㅡㄹㅇㅕㅆ -8857
▁제대 -8858
▁삼층석탑 -8859
▁ㅂㅣㄹㄹㅕ -8860
▁업그레이드 -8861
▁퐁 -8862
▁문예 -8863
승부 -8864
▁네스 -8865
▁승계 -8866
▁송시열 -8867
ㅇㅏㄴㅐㅆ -8868
▁철회 -8869
▁com -8870
▁고속도 -8871
▁도마뱀붙이 -8872
OL -8873
다지 -8874
▁신시 -8875
▁ㅊㅏㅈㅇㅏㅂㅗㄹ -8876
▁ㅆㅗ -8877
▁칭찬 -8878
▁그만두 -8879
▁물리치 -8880
▁통틀 -8881
▁핵무기 -8882
▁데모 -8883
▁줄무늬 -8884
▁클라우드 -8885
▁성도 -8886
▁판본 -8887
▁ㄷㅡㅁ -8888
▁대웅전 -8889
▁삼성전자 -8890
▁ㅅㅐㅇㄱㅕㄴㅏㅆ -8891
▁IM -8892
▁상표 -8893
▁진공 -8894
▁맘 -8895
갈색 -8896
▁도청 -8897
▁말씀 -8898
▁극장판 -8899
▁근로자 -8900
▁테이프 -8901
크라 -8902
▁결코 -8903
▁옆면 -8904
▁워터 -8905
베니아 -8906
▁아카데미상 -8907
▁요약 -8908
▁내려오 -8909
▁라이너 -8910
▁일반인 -8911
▁CR -8912
▁세속 -8913
▁173 -8914
▁나아가 -8915
▁ㄷㅏㅁㄱㅕ -8916
▁ㅂㅏㄹㅡㄴ -8917
▁ㄷㅏㅁㄱㅣㄴ -8918
▁헥 -8919
끼리 -8920
ond -8921
▁문구 -8922
▁키우 -8923
▁해고 -8924
▁고고학 -8925
▁연합국 -8926
ㄷㅣ -8927
수소 -8928
▁궁극 -8929
▁방화 -8930
▁121 -8931
▁알제리 -8932
▁Am -8933
▁LC -8934
▁스캔 -8935
▁아야 -8936
▁진급 -8937
▁포병 -8938
▁브로드 -8939
▁사생활 -8940
▁슬로베니아 -8941
마루 -8942
▁화장실 -8943
▁ㅂㅏㄴㅎㅐ -8944
로니 -8945
▁ㅌㅓ -8946
▁일가 -8947
▁항쟁 -8948
▁113 -8949
▁137 -8950
▁멜로디 -8951
▁킴 -8952
▁가축 -8953
▁그냥 -8954
▁김현 -8955
▁만일 -8956
▁펠리 -8957
▁기업인 -8958
▁ㄷㅏㄴㅕ -8959
▁ㄸㅣㄴㄷㅏ -8960
무스 -8961
시타 -8962
지붕 -8963
▁치안 -8964
▁1894 -8965
▁ㅇㅘㅆㅇㅡㅁㅕ -8966
박스 -8967
▁대명 -8968
▁드레 -8969
▁비르 -8970
▁약력 -8971
▁ㄴㅏㄴㅝ -8972
▁ㄱㅓㄴㄴㅓㄱㅏ -8973
▁공백 -8974
▁레온 -8975
▁바우 -8976
▁끄 -8977
▁냄 -8978
조부 -8979
▁ㄷㅜㄹ -8980
▁빨간색 -8981
▁프랑크푸르트 -8982
ov -8983
ory -8984
▁타당 -8985
▁몬스터 -8986
▁ㅎㅣㅁㄷㅡㄴ -8987
▁지미 -8988
▁카카 -8989
▁화해 -8990
▁캐시 -8991
▁시뮬 -8992
▁제인 -8993
▁최강 -8994
▁게이지 -8995
▁도미니 -8996
▁바티칸 -8997
▁ㄹㅐ -8998
▁말년 -8999
▁ㄷㅏㄹㅇㅏㄴ -9000
▁z -9001
▁헐 -9002
▁왕복 -9003
▁초월 -9004
▁둥지 -9005
게이머 -9006
▁바오로 -9007
▁프로게이머 -9008
축구 -9009
톨레 -9010
▁SU -9011
▁무어 -9012
▁럼 -9013
▁농림 -9014
▁야쿠 -9015
ㅜㄹㅕ -9016
▁ㄴㅗㄴ -9017
▁오프닝 -9018
▁총독부 -9019
▁코스타 -9020
▁ㅇㅣㅇㅓㅈㅣㄴㄷㅏ -9021
규모 -9022
man -9023
▁미키 -9024
▁원전 -9025
▁피오 -9026
리안 -9027
▁계정 -9028
▁용병 -9029
▁적도 -9030
▁물려받 -9031
▁공민 -9032
▁구절 -9033
▁옵션 -9034
아프리카 -9035
▁사상자 -9036
▁야마토 -9037
▁ㄱㅓㅊㅕㅆ -9038
로이 -9039
▁군정 -9040
▁요동 -9041
▁혈관 -9042
린스 -9043
▁먼지 -9044
▁서민 -9045
▁크리스토퍼 -9046
블리 -9047
▁기질 -9048
▁필리프 -9049
▁대피 -9050
▁학명 -9051
▁남서부 -9052
▁사쿠라 -9053
▁주어지 -9054
▁최대한 -9055
▁커뮤니케이션 -9056
대기 -9057
▁가루 -9058
▁내정 -9059
▁학계 -9060
▁World -9061
iver -9062
▁ㅁㅏㅅ -9063
▁가장자리 -9064
▁ㅎㅐㅈㅕ -9065
퍼런스 -9066
▁극심 -9067
▁즉각 -9068
▁횡단 -9069
▁뒷면 -9070
▁욕구 -9071
▁곤란 -9072
▁정세 -9073
▁그랜 -9074
▁돌격 -9075
셰비 -9076
▁개종 -9077
▁성문 -9078
▁124 -9079
아키 -9080
▁ㅂㅜㅌㅇㅣㄴ -9081
▁로이 -9082
▁국내외 -9083
▁침투 -9084
▁독일인 -9085
▁배후 -9086
▁곁 -9087
▁모친 -9088
ㅌㅏ -9089
▁자비 -9090
▁하동 -9091
▁1890 -9092
▁관세 -9093
▁평정 -9094
▁파이널 -9095
겨나 -9096
▁On -9097
▁외모 -9098
▁우파 -9099
▁체크 -9100
프레스 -9101
▁ㅅㅕㅆ -9102
▁탤런트 -9103
▁프로덕 -9104
▁강서 -9105
▁서초 -9106
▁미루 -9107
▁브리지 -9108
▁New -9109
▁로우 -9110
▁땃 -9111
▁제압 -9112
▁트로이 -9113
줄기 -9114
▁데르 -9115
▁이드 -9116
▁분명히 -9117
▁오리콘 -9118
▁뉘 -9119
▁EC -9120
▁풍자 -9121
▁계열사 -9122
▁드라이버 -9123
IP -9124
▁러시 -9125
▁징계 -9126
▁초록 -9127
▁자연수 -9128
▁륙 -9129
▁감자 -9130
▁내주 -9131
▁디렉 -9132
▁체조 -9133
ich -9134
▁고장 -9135
▁챌린지 -9136
드르 -9137
▁be -9138
▁관음 -9139
▁봉건 -9140
▁설화 -9141
▁ㄸㅏㅆ -9142
ㄱㅎㅣㄴ -9143
▁SD -9144
▁vs -9145
▁그치 -9146
▁매매 -9147
▁선비 -9148
▁부작용 -9149
▁ㄷㅓㄴㅈㅕ -9150
▁뉴턴 -9151
▁정변 -9152
▁ㅈㅜㄹㅇㅕㅅㅓ -9153
▁쾌속 -9154
▁아름 -9155
지스 -9156
▁괴물 -9157
▁이소 -9158
▁114 -9159
▁검찰청 -9160
▁블랙홀 -9161
▁ㄷㅏㄹㅜㄴㄷㅏ -9162
▁미노 -9163
▁베니 -9164
▁연이 -9165
▁예조 -9166
▁유저 -9167
▁소규모 -9168
▁맑 -9169
▁정주 -9170
▁베네딕 -9171
▁플래시 -9172
대원군 -9173
▁방사선 -9174
ial -9175
▁그대 -9176
▁대거 -9177
▁김정일 -9178
▁매니저 -9179
▁알루미 -9180
▁므 -9181
렉스 -9182
▁태극 -9183
▁코믹스 -9184
▁사로 -9185
▁영산 -9186
▁자음 -9187
▁아랫 -9188
▁컨셉 -9189
▁태그 -9190
▁학업 -9191
▁안토니오 -9192
먼스 -9193
▁공감 -9194
▁경신 -9195
▁이준 -9196
▁자오 -9197
▁ㄴㅜㄱㅏ -9198
hn -9199
▁퇴임 -9200
▁ㄹㅠ -9201
▁캔자스 -9202
▁ㄷㅡㅁㅜㄴ -9203
▁시정 -9204
▁지침 -9205
▁ㄱㅕㅂ -9206
ㅌㅔ -9207
▁군중 -9208
▁답변 -9209
▁양호 -9210
▁요정 -9211
▁팔리 -9212
▁컷 -9213
황후 -9214
▁Sc -9215
▁어미 -9216
ign -9217
▁가드 -9218
▁에미 -9219
▁조부 -9220
▁중형 -9221
▁ㅂㅗㅇㅣㄹ -9222
▁악단 -9223
▁자택 -9224
▁115 -9225
▁구스타 -9226
▁벵 -9227
▁빔 -9228
▁김규 -9229
▁스칼 -9230
▁운수 -9231
▁앵글 -9232
▁이남 -9233
▁118 -9234
▁시위대 -9235
저지 -9236
▁통치자 -9237
▁연승 -9238
타리오 -9239
▁공조 -9240
▁비로소 -9241
▁세이브 -9242
▁윤치호 -9243
▁ㄱㅗㅊㅕ -9244
▁` -9245
조건 -9246
▁체스 -9247
▁원로원 -9248
TS -9249
▁비주 -9250
▁과반 -9251
▁변이 -9252
▁하프 -9253
보르 -9254
▁진사 -9255
▁일리노 -9256
▁대부 -9257
▁생체 -9258
▁저널 -9259
▁남미 -9260
▁ㅁㅔㄴ -9261
▁종착 -9262
▁주부 -9263
▁물러나 -9264
▁일리노이 -9265
닐라 -9266
▁로그 -9267
▁용이 -9268
▁키르 -9269
▁혜택 -9270
▁크리스티안 -9271
하루 -9272
▁증손 -9273
▁하르 -9274
▁헬리 -9275
▁무승부 -9276
▁우즈베 -9277
▁믹 -9278
▁동정 -9279
▁땃쥐 -9280
▁지인 -9281
▁취업 -9282
▁경찰관 -9283
▁승부차기 -9284
▁구와 -9285
▁카우 -9286
▁커널 -9287
▁흔하 -9288
▁1898 -9289
ㅇㅗㄴㄷㅏ -9290
기념 -9291
문트 -9292
▁숙청 -9293
▁퍼지 -9294
▁뉴저지 -9295
▁레바논 -9296
▁마력 -9297
▁만료 -9298
▁재상 -9299
▁넘어가 -9300
▁힌두교 -9301
▁남구 -9302
▁ㅋㅣㄴ -9303
고스 -9304
▁기각 -9305
▁밝기 -9306
▁본국 -9307
마이오스 -9308
▁GP -9309
▁극작 -9310
▁맥도 -9311
▁서자 -9312
▁종속 -9313
▁미하일 -9314
▁소방서 -9315
▁모로코 -9316
▁ㄴㅏㅇㅗㄹ -9317
▁소모 -9318
▁밀집 -9319
▁외관 -9320
▁파란색 -9321
함수 -9322
▁GS -9323
▁미세 -9324
▁헬기 -9325
▁바빌 -9326
▁빌라 -9327
바닥 -9328
▁축출 -9329
▁통보 -9330
교도 -9331
▁순조 -9332
▁우측 -9333
▁ㅍㅜㄹㄹ -9334
▁ㄲㅏ -9335
▁뇌물 -9336
▁III -9337
▁반지름 -9338
▁ㅇㅓㄹㅕㅆ -9339
벨트 -9340
펴보 -9341
▁스폰 -9342
▁전년 -9343
▁직면 -9344
▁코카 -9345
▁필사 -9346
▁ㅇㅓㅉ -9347
▁살펴보 -9348
▁성리학 -9349
▁왕세 -9350
▁웨스턴 -9351
▁체코슬로 -9352
▁체코슬로바키아 -9353
▁렐 -9354
▁ㅈㅛ -9355
▁선도 -9356
▁한족 -9357
▁리뷰 -9358
▁솟 -9359
▁사적 -9360
▁희귀 -9361
▁쯔 -9362
미사 -9363
히코 -9364
▁예고 -9365
ph -9366
쟁이 -9367
▁ㅁㅓ -9368
▁관제 -9369
▁웹툰 -9370
▁ㅇㅣㄲ -9371
▁레슬링 -9372
▁스크립 -9373
▁붐 -9374
▁그레고 -9375
▁디비시온 -9376
▁프로덕션 -9377
시즘 -9378
▁케빈 -9379
▁범유행 -9380
속기 -9381
▁기증 -9382
▁연예인 -9383
▁가옥 -9384
▁배수 -9385
▁척추 -9386
▁천재 -9387
타니 -9388
▁서신 -9389
▁지출 -9390
▁케냐 -9391
▁호출 -9392
▁129 -9393
▁시가지 -9394
▁캉 -9395
▁무성 -9396
▁카디 -9397
ㄷㅜㄴ -9398
▁젊은이 -9399
레타 -9400
▁발급 -9401
▁종래 -9402
▁대변인 -9403
▁의약품 -9404
▁알루미늄 -9405
▁광해군 -9406
틱스 -9407
화물 -9408
▁패럴 -9409
▁화력 -9410
테르부르크 -9411
▁ㄷㅡㄹㅇㅓㄱㅏㄴㄷㅏ -9412
▁맏 -9413
슬러 -9414
▁말미 -9415
▁모나 -9416
▁승자 -9417
▁임원 -9418
▁파산 -9419
▁외야수 -9420
▁로비 -9421
▁발병 -9422
▁봉안 -9423
▁페널 -9424
ㅇㅓㅅㅓ -9425
▁ㅇㅣㄲㅡㄴ -9426
▁ㄷㅜㄹㅕㅇㅝ -9427
▁Ne -9428
▁스타리그 -9429
▁센티 -9430
▁재혼 -9431
▁컴백 -9432
▁개막전 -9433
▁옳 -9434
▁등기 -9435
▁ㅇㅡㄴㄷㅔ -9436
▁워크 -9437
▁중산 -9438
▁창출 -9439
▁ㅎㅏㄴㅌㅔ -9440
▁부스 -9441
▁요건 -9442
▁응시 -9443
▁켈리 -9444
▁폭넓 -9445
▁ㄷㅏㄹㅎㅏㄴㄷㅏ -9446
치기 -9447
▁난징 -9448
▁실망 -9449
▁어른 -9450
▁핑크 -9451
▁1899 -9452
▁벨라루스 -9453
▁글루 -9454
▁부의장 -9455
▁원천 -9456
▁재선 -9457
▁첨단 -9458
▁연산자 -9459
▁총사령 -9460
▁무명 -9461
▁마운트 -9462
▁사위 -9463
▁저주 -9464
▁전속 -9465
▁중공 -9466
▁지우 -9467
▁세이부 -9468
개미 -9469
그리 -9470
▁부피 -9471
▁성폭 -9472
▁지옥 -9473
▁청산 -9474
▁케임 -9475
▁사용자 -9476
▁러셀 -9477
▁미들 -9478
▁예하 -9479
▁토양 -9480
▁회관 -9481
▁브리튼 -9482
TA -9483
코딩 -9484
타리 -9485
▁싸이 -9486
▁총칭 -9487
▁천문대 -9488
▁확실히 -9489
▁사본 -9490
▁장례식 -9491
▁키보드 -9492
▁일컬 -9493
▁기술자 -9494
▁플라스틱 -9495
rom -9496
▁웬 -9497
▁황족 -9498
우트 -9499
▁커지 -9500
▁뒷받침 -9501
▁ㅈㅗㅎㅇㅏ -9502
▁드림 -9503
▁오오 -9504
▁워너 -9505
▁스트리 -9506
▁토끼 -9507
▁희곡 -9508
▁ㄷㅓㄴㅣ -9509
포로 -9510
▁유진 -9511
▁ch -9512
▁유방 -9513
▁각도 -9514
▁남작 -9515
▁토미 -9516
▁ㄱㅜㅎㅏㄹ -9517
수록 -9518
▁감행 -9519
▁안테 -9520
느러미 -9521
▁ㅎㅡㄴㅎㅏㄴ -9522
▁괘 -9523
도스 -9524
▁구경 -9525
▁벽돌 -9526
▁시범 -9527
▁142 -9528
▁공리 -9529
▁양반 -9530
▁오크 -9531
▁옹립 -9532
▁혼동 -9533
▁ㅈㅓㄱㅎㅕ -9534
MA -9535
▁ID -9536
▁거래소 -9537
▁ㄲㅣㅊㅕㅆ -9538
▁조지프 -9539
▁ㄸㅏㄹㅡㄴㄷㅏ -9540
로우 -9541
▁설교 -9542
▁ㅎㅣㅁㅆㅓ -9543
▁덧 -9544
▁퉁 -9545
버리 -9546
▁독서 -9547
▁리프 -9548
▁사간 -9549
▁소생 -9550
▁교통국 -9551
ens -9552
▁대치 -9553
▁폭포 -9554
▁월요일 -9555
토르 -9556
▁감마 -9557
▁만성 -9558
▁대패 -9559
▁벨트 -9560
파이어 -9561
▁타임스 -9562
▁프란츠 -9563
▁제국주의 -9564
pp -9565
▁학기 -9566
셰비키 -9567
방송공사 -9568
진군 -9569
▁BS -9570
▁CJ -9571
▁공적 -9572
▁병기 -9573
▁유라 -9574
▁ㄱㅏㅇㅎㅐ -9575
▁닦 -9576
▁광둥 -9577
▁채소 -9578
▁화자 -9579
▁아리아 -9580
ction -9581
▁ㅇㅓㄹㅕㅇㅝ -9582
urn -9583
▁신원 -9584
▁형조 -9585
▁도카이 -9586
타주 -9587
▁무함 -9588
▁피겨 -9589
▁화상 -9590
▁프톨레 -9591
▁더글러스 -9592
▁ㄷㅜㄴㄷㅏ -9593
▁프톨레마이오스 -9594
▁가야 -9595
▁정성 -9596
▁룩셈 -9597
▁본문 -9598
▁시코 -9599
▁중복 -9600
lan -9601
▁스턴 -9602
▁ㅅㅔㄹ -9603
▁마르티 -9604
▁룩셈부르크 -9605
럴드 -9606
▁JT -9607
▁김지 -9608
▁수분 -9609
▁트리플 -9610
▁온타리오 -9611
아먹 -9612
▁보위 -9613
▁의자 -9614
▁Man -9615
▁ㅇㅣㅀㅇㅓ -9616
▁ㅇㅣㅀㅇㅓㅂㅓㄹ -9617
▁체류 -9618
▁대서양 -9619
▁부여받 -9620
ert -9621
▁끊임없이 -9622
▁발리 -9623
▁제네바 -9624
글라 -9625
▁마녀 -9626
▁시가 -9627
▁영문 -9628
▁왼손 -9629
▁청주시 -9630
브르 -9631
▁자크 -9632
▁축물 -9633
롤라이나 -9634
▁밍 -9635
▁선배 -9636
▁금요일 -9637
▁스즈키 -9638
샤바 -9639
▁서류 -9640
▁그래미 -9641
▁점성술 -9642
▁콕 -9643
▁서장 -9644
▁촉매 -9645
▁코시 -9646
덩이 -9647
▁동네 -9648
▁정적 -9649
▁피신 -9650
▁플랫폼 -9651
▁게리 -9652
▁선행 -9653
▁유체 -9654
▁광주광역시 -9655
▁익스프레스 -9656
▁동학 -9657
▁1902 -9658
▁간선 -9659
▁물품 -9660
▁발기 -9661
▁함정 -9662
두리 -9663
▁기사단 -9664
천리 -9665
▁명종 -9666
▁혐오 -9667
▁다항식 -9668
▁호르몬 -9669
▁ㄱㅓㄹㄹㅕㅆ -9670
▁ㅇㅚ -9671
▁간토 -9672
▁기차 -9673
▁늘리 -9674
▁니코 -9675
▁포획 -9676
ㅆㅏㄴ -9677
▁보이스 -9678
▁표기법 -9679
▁'' -9680
▁가환 -9681
▁깃발 -9682
▁엔딩 -9683
▁정려 -9684
▁표적 -9685
▁강변 -9686
▁국영 -9687
▁독성 -9688
▁ㅉㅗㅊㄱㅕ -9689
▁ㄱㅏㅂㅕㅇㅜㄴ -9690
크로 -9691
▁버드 -9692
▁우체 -9693
▁초신 -9694
▁스위치 -9695
▁러시아어 -9696
▁준결승전 -9697
▁ㅂㅜㄹㅡㄹ -9698
▁몫 -9699
▁그릇 -9700
▁ㄴㅡㄲㅕㅆ -9701
그룹 -9702
▁단절 -9703
▁영등 -9704
▁서유럽 -9705
▁ㄸㅏㅇㅗㄴ -9706
▁ㅇㅣㄹㅜㄴ -9707
lic -9708
▁사슴 -9709
▁관광지 -9710
▁마스크 -9711
▁바깥쪽 -9712
▁지식인 -9713
▁수확 -9714
▁위쪽 -9715
▁타케 -9716
▁코끼리 -9717
aw -9718
ㅏㅅ -9719
▁나노 -9720
▁약자 -9721
▁ㅇㅓㅇ -9722
▁머무르 -9723
▁메커 -9724
▁치아 -9725
▁소나무 -9726
▁ㅊㅐㅇㅝ -9727
▁매수 -9728
▁ㅊㅏㅈㅇㅏㄱㅏ -9729
▁기니 -9730
▁원종 -9731
▁해밀턴 -9732
▁광명 -9733
▁동행 -9734
▁세비 -9735
▁정립 -9736
▁판례 -9737
▁갈수록 -9738
▁ㅇㅣㄱㅕㅆ -9739
▁갈릴 -9740
▁참의 -9741
▁아이오 -9742
ys -9743
ach -9744
▁불꽃 -9745
▁연꽃 -9746
▁정동 -9747
▁ㅍㅣㄹ -9748
폴리 -9749
▁개소 -9750
▁면제 -9751
▁부가 -9752
▁상금 -9753
▁슈팅 -9754
▁입각 -9755
▁주조 -9756
▁검열 -9757
▁대합 -9758
▁성지 -9759
▁전방 -9760
▁조립 -9761
▁채우 -9762
▁탄도 -9763
▁비석 -9764
ㅐㄹㅕ -9765
▁ㄴㅏㅅㅓㄴ -9766
▁하단 -9767
▁비행장 -9768
▁아돌프 -9769
짓점 -9770
▁고아 -9771
▁복용 -9772
▁역량 -9773
▁기숙 -9774
▁대손 -9775
▁마블 -9776
▁입국 -9777
▁꼭짓점 -9778
▁부회장 -9779
▁단축 -9780
▁보복 -9781
▁소시 -9782
▁염증 -9783
▁퀘벡 -9784
▁크롬 -9785
▁이용자 -9786
TC -9787
▁강동 -9788
▁실버 -9789
▁원료 -9790
▁뮤지션 -9791
▁이단 -9792
▁헌신 -9793
레슬링 -9794
▁ㅅㅓㅁ -9795
▁연기자 -9796
▁ㅈㅔㅎㅏㄴ -9797
카가 -9798
텍처 -9799
▁갱신 -9800
▁산출 -9801
▁색채 -9802
▁쓰촨 -9803
▁울프 -9804
▁입성 -9805
▁고양시 -9806
▁아키텍처 -9807
▁박지 -9808
▁아산 -9809
▁열도 -9810
▁하치 -9811
▁간단히 -9812
LS -9813
디나 -9814
타임 -9815
▁직결 -9816
▁코코 -9817
▁1901 -9818
▁포켓몬스터 -9819
▁No -9820
▁광대 -9821
▁브뤼 -9822
▁에디션 -9823
▁패밀리 -9824
구르 -9825
▁염색체 -9826
out -9827
▁드라 -9828
▁커스 -9829
▁삿포로 -9830
▁토착종 -9831
▁페널티 -9832
ㅎㅇㅏㅆ -9833
▁페르디난 -9834
▁ㅆㅏㅎㅇㅏㅆ -9835
▁민감 -9836
▁생생 -9837
▁임관 -9838
▁체르 -9839
▁특권 -9840
▁폭격기 -9841
▁스텔 -9842
▁습지 -9843
▁쿄 -9844
미트 -9845
테인 -9846
▁단의 -9847
▁대두 -9848
▁보트 -9849
▁드러머 -9850
국사 -9851
▁극대 -9852
▁누적 -9853
▁서문 -9854
▁압둘 -9855
▁축조 -9856
▁표방 -9857
▁매카트니 -9858
LE -9859
▁꾀 -9860
▁권총 -9861
▁이현 -9862
나우 -9863
피어 -9864
▁ㅅㅑ -9865
▁생략 -9866
▁제로 -9867
▁프로레슬링 -9868
링턴 -9869
▁공명 -9870
▁어류 -9871
모스 -9872
▁수축 -9873
▁일산 -9874
▁카미 -9875
▁사이토 -9876
▁영국인 -9877
어내 -9878
자르 -9879
▁레즈 -9880
▁분수 -9881
▁리더십 -9882
▁요르단 -9883
▁ㄲㅜㅁㅕ -9884
IG -9885
▁공예 -9886
▁호모 -9887
▁케임브리지 -9888
▁김창 -9889
▁라그 -9890
▁천하 -9891
▁아라비아 -9892
루아 -9893
▁페니 -9894
▁ㄷㅏㄷ -9895
▁ㅅㅡㄴ -9896
▁경성부 -9897
▁ㅇㅣㄹㅇㅡㅋㅣㄹ -9898
▁낫 -9899
▁안경 -9900
▁자작 -9901
▁바이킹 -9902
▁ㄴㅏㄱㅏㄹ -9903
▁울산광역시 -9904
▁여운 -9905
▁메커니즘 -9906
아웃 -9907
▁소말 -9908
▁실적 -9909
▁도요토미 -9910
ug -9911
▁렘 -9912
▁아브 -9913
▁오쿠 -9914
▁정문 -9915
▁사회당 -9916
▁례 -9917
▁차르 -9918
▁화강 -9919
▁kt -9920
▁고산 -9921
▁체중 -9922
▁하비 -9923
▁언어학 -9924
▁발렌시아 -9925
▁ㄱㅏㄲㅏㅇㅝ -9926
▁ㄷㅏㅇㅎㅏㄴㄷㅏ -9927
▁동조 -9928
▁원본 -9929
▁터보 -9930
▁특색 -9931
▁광저우 -9932
▁ㅍㅐㅎㅐㅆ -9933
▁알렉산드르 -9934
▁무궁 -9935
▁보헤 -9936
▁학대 -9937
▁쓰레기 -9938
▁아리스토 -9939
▁아시카가 -9940
▁옥스퍼드 -9941
▁ㅇㅓㄹㅕㅅㅓ -9942
▁MB -9943
▁이태 -9944
▁그다지 -9945
파르 -9946
▁비타 -9947
▁조이 -9948
▁갈리아 -9949
▁사업가 -9950
▁이병 -9951
▁조수 -9952
▁퇴역 -9953
▁노태우 -9954
▁장기간 -9955
▁트로피 -9956
▁홈구장 -9957
▁ㄴㅜㄱㅜㄴ -9958
▁섹스 -9959
▁어둠 -9960
▁회상 -9961
기스 -9962
▁선동 -9963
▁제치 -9964
▁카프 -9965
▁토기 -9966
▁All -9967
▁개인전 -9968
쿠버 -9969
펜하 -9970
▁교대 -9971
▁다마 -9972
▁불신 -9973
▁크레이 -9974
▁기르 -9975
테르담 -9976
▁134 -9977
▁쟈 -9978
▁마우 -9979
▁질소 -9980
▁파이터 -9981
카미 -9982
▁연봉 -9983
노미야 -9984
ype -9985
▁개화 -9986
▁현은 -9987
라이어 -9988
▁방송인 -9989
▁두께 -9990
▁조형 -9991
▁전염병 -9992
▁피고인 -9993
▁아인슈타인 -9994
올로 -9995
▁스님 -9996
▁원더 -9997
▁취항 -9998
ㄴㅎㅏㄴㄷㅏ -9999
▁알렉산드리아 -10000
▁Cl -10001
▁EX -10002
▁THE -10003
▁당연히 -10004
▁푸에르 -10005
▁무함마드 -10006
▁검출 -10007
▁김제 -10008
▁어뢰 -10009
▁ㅈㅓㅇㅎㅐㅈㅣㄴ -10010
ke -10011
대장 -10012
▁공고 -10013
▁루타 -10014
▁ㅇㅕㄴ -10015
▁만주국 -10016
▁지도부 -10017
▁1903 -10018
정리 -10019
ase -10020
▁공황 -10021
▁드레스 -10022
▁모서리 -10023
▁ㅍㅐㅎㅏㄴ -10024
그라 -10025
카타 -10026
퀘어 -10027
▁반공 -10028
▁릿 -10029
그래 -10030
▁패널 -10031
▁AN -10032
▁가역 -10033
▁전위 -10034
▁좌측 -10035
▁토요 -10036
▁헌정 -10037
베트남 -10038
▁ㅂㅓㄹㅇㅣㄴ -10039
사리 -10040
하키 -10041
▁강간 -10042
▁명하 -10043
▁모모 -10044
▁삼촌 -10045
▁배우자 -10046
▁이성계 -10047
▁야마구치 -10048
그레 -10049
▁노보 -10050
▁마키 -10051
▁미륵 -10052
사이드 -10053
▁방글라 -10054
▁컨트리 -10055
▁1884 -10056
▁방글라데시 -10057
▁기분 -10058
▁아폴로 -10059
방울 -10060
▁구형 -10061
▁물가 -10062
▁직경 -10063
▁파병 -10064
▁쓰시마 -10065
리코 -10066
▁김홍 -10067
▁와일드 -10068
처스 -10069
▁Gr -10070
▁각색 -10071
▁남매 -10072
▁단면 -10073
▁에콰 -10074
▁취미 -10075
▁코믹 -10076
▁미시시피 -10077
▁에콰도르 -10078
▁이관 -10079
▁하리 -10080
▁One -10081
천사 -10082
▁로저 -10083
▁상고 -10084
▁우치 -10085
▁인질 -10086
▁캐서 -10087
▁함선 -10088
역학 -10089
CAF -10090
▁정유 -10091
▁LA -10092
▁동이 -10093
▁둥글 -10094
▁슬라브 -10095
▁세키 -10096
▁회피 -10097
▁히타 -10098
▁기념관 -10099
▁그레이트 -10100
▁대구광역시 -10101
▁실재 -10102
▁정선 -10103
▁기념비 -10104
▁더욱이 -10105
▁앰 -10106
▁데카 -10107
▁밀란 -10108
▁토시 -10109
▁1800 -10110
▁군산 -10111
▁장벽 -10112
▁조승 -10113
▁복합체 -10114
라이언트 -10115
가와현 -10116
▁신도비 -10117
▁아나키 -10118
▁ㄲㅡㄹㄹㅕ -10119
▁ㄸㅏㅇㅘㅆ -10120
▁염소 -10121
▁진전 -10122
▁오사카부 -10123
▁와이번스 -10124
ㄷㅡㄹㅇㅕㅆ -10125
▁발칸 -10126
▁의결 -10127
▁ㄷㅏㅇㅜㄴ -10128
▁ㅃㅐㅇㅏㅅ -10129
▁ㅎㅏㄹㅈㅣ -10130
▁클라이언트 -10131
▁네오 -10132
▁준주 -10133
▁중령 -10134
▁클라이 -10135
▁아미노산 -10136
▁ㅈㅣㄴㅕㅆ -10137
불교 -10138
히토 -10139
▁강대 -10140
▁실무 -10141
▁우회 -10142
▁마르틴 -10143
▁프란체 -10144
▁히로시 -10145
▁중앙아시아 -10146
나미 -10147
▁구스 -10148
▁군함 -10149
▁상트 -10150
▁에밀 -10151
▁프레드 -10152
▁ㄷㅡㄹㅇㅓㄱㅏㄹ -10153
▁농부 -10154
▁상응 -10155
▁도널드 -10156
▁콤팩트 -10157
▁북아프리카 -10158
네마 -10159
▁IN -10160
11 -10161
▁경작 -10162
▁퇴적 -10163
▁티코 -10164
▁니콜라이 -10165
▁샌디 -10166
▁추첨 -10167
가르 -10168
▁} -10169
니시 -10170
▁CN -10171
▁간신 -10172
▁대문 -10173
▁음향 -10174
▁조반니 -10175
▁분량 -10176
ㄹㅣㅁ -10177
▁복소수 -10178
▁충청도 -10179
▁미라 -10180
▁소자 -10181
▁유부 -10182
▁이북 -10183
▁전구 -10184
▁진료 -10185
▁마르코 -10186
▁무너지 -10187
▁ㅅㅏㄹㅍ -10188
▁ㅂㅏㄺㅎㅣㄴ -10189
▁효고 -10190
▁꼭대기 -10191
ree -10192
▁곡물 -10193
▁구약 -10194
▁도선 -10195
▁상가 -10196
간지 -10197
▁달걀 -10198
▁카사 -10199
▁팰 -10200
번뇌 -10201
▁관절 -10202
▁비뉴 -10203
▁철폐 -10204
테이션 -10205
▁ㄴㅓㄼ -10206
▁선우 -10207
▁추론 -10208
▁팟 -10209
사우 -10210
▁공약 -10211
▁당수 -10212
▁심화 -10213
▁쥐과 -10214
▁소행성 -10215
▁일자리 -10216
▁기저 -10217
▁종말 -10218
▁갤러리 -10219
▁총대주교 -10220
파리 -10221
▁까닭 -10222
▁뒤집 -10223
▁무슨 -10224
▁분출 -10225
▁민간인 -10226
pt -10227
포터 -10228
▁가산 -10229
▁상경 -10230
▁유대교 -10231
▁전시회 -10232
ary -10233
▁GO -10234
▁거짓말 -10235
▁데스크 -10236
▁방사성 -10237
ass -10238
▁가열 -10239
▁가오 -10240
▁한층 -10241
▁다케다 -10242
▁꿀 -10243
▁Ad -10244
▁건륭 -10245
▁교량 -10246
▁권장 -10247
▁러스 -10248
▁브란 -10249
▁신축 -10250
▁용서 -10251
▁전복 -10252
▁침체 -10253
▁득표율 -10254
▁카스티 -10255
ㅔㄴ -10256
act -10257
▁델타 -10258
▁돌기 -10259
▁정화 -10260
▁하차 -10261
▁뉴욕주 -10262
▁대성당 -10263
▁소수자 -10264
▁스토어 -10265
사업 -10266
▁Br -10267
▁ㄲㅐ -10268
▁가신 -10269
▁대출 -10270
▁뒤쪽 -10271
▁반전 -10272
벤처 -10273
산성 -10274
▁감안 -10275
▁격차 -10276
▁해남 -10277
▁활주 -10278
▁흥선 -10279
▁ㅍㅣㄴ -10280
▁가브리 -10281
▁with -10282
▁ㅆㅏㅇㅝ -10283
▁어드벤처 -10284
▁강희 -10285
▁모리스 -10286
▁ㅁㅗㄹㅡㄴㄷㅏ -10287
▁수목 -10288
▁교도소 -10289
▁마가 -10290
▁막스 -10291
▁시야 -10292
▁자형 -10293
▁진행자 -10294
▁일렉트로 -10295
구역 -10296
▁견인 -10297
▁궁중 -10298
▁급수 -10299
▁냄새 -10300
▁상법 -10301
▁ㅇㅡㄹㅕㄱㅗ -10302
산맥 -10303
▁복권 -10304
▁우물 -10305
▁장자 -10306
▁반군 -10307
▁샌드 -10308
▁이반 -10309
▁116 -10310
▁220 -10311
▁지지율 -10312
개골 -10313
▁등용 -10314
▁로라 -10315
▁볼리비아 -10316
▁ㅂㅜㄷㅡㄹㅓㅇㅜㄴ -10317
▁창녕 -10318
▁칼뱅 -10319
▁현감 -10320
▁거주지 -10321
▁기관총 -10322
▁남동생 -10323
▁ㅈㅡㄹㄱㅕ -10324
▁절단 -10325
몰로지 -10326
▁인테르 -10327
▁페이스북 -10328
▁깨끗 -10329
▁카를로 -10330
▁1860 -10331
ark -10332
▁경인 -10333
▁민정 -10334
▁버마 -10335
▁체력 -10336
▁폭로 -10337
▁스트라이크 -10338
▁ㅅㅣㅋㅕㅆㅇㅡㅁㅕ -10339
▁연대기 -10340
▁스크립트 -10341
▁글래 -10342
▁기슭 -10343
▁디트로 -10344
▁마카오 -10345
▁포스터 -10346
▁디트로이트 -10347
▁갈래 -10348
▁발령 -10349
▁접수 -10350
기념물 -10351
▁버클리 -10352
▁ㄷㅗㄹㅇㅏㄱㅏ -10353
▁마니 -10354
▁농사 -10355
▁무로 -10356
▁애리 -10357
▁올드 -10358
▁일파 -10359
▁ㅅㅐㄱㅕㅈㅣㄴ -10360
▁다가 -10361
▁맞붙 -10362
▁세바 -10363
▁1897 -10364
▁Ex -10365
▁낙동 -10366
▁신정 -10367
▁오로 -10368
▁중원 -10369
ream -10370
▁홉 -10371
곡동 -10372
▁후반기 -10373
▁나루 -10374
▁평창 -10375
▁떡 -10376
▁단행본 -10377
▁중공업 -10378
▁카타르 -10379
▁대관 -10380
▁찰리 -10381
▁후작 -10382
▁가의 -10383
▁리만 -10384
▁태백 -10385
▁모티브 -10386
▁애칭 -10387
▁종파 -10388
▁ㅈㅏㅁ -10389
▁사카이 -10390
▁일부분 -10391
▁홍문관 -10392
▁보성 -10393
▁상트페 -10394
▁상트페테르부르크 -10395
▁벽화 -10396
▁아소 -10397
▁쿠니 -10398
▁타우 -10399
▁솔루션 -10400
▁북경 -10401
▁전격 -10402
▁강남구 -10403
나드 -10404
▁리조 -10405
▁장제 -10406
▁ㅇㅗㄹㄹㅏㄱㅏㄴㄷㅏ -10407
▁과실 -10408
▁동형 -10409
▁왕정 -10410
▁입주 -10411
▁적군 -10412
▁안산 -10413
▁ㄹㅠㄴ -10414
▁아름답 -10415
▁캐서린 -10416
▁바르샤바 -10417
▁전산 -10418
▁학력 -10419
▁죠 -10420
▁델라 -10421
▁르노 -10422
▁브랜 -10423
▁미네소 -10424
▁속편 -10425
▁카즈 -10426
▁합당 -10427
▁ㄱㅡㄹㅕㅈㅣㄴ -10428
거진 -10429
츠크 -10430
푸르 -10431
▁사살 -10432
▁ㅇㅗㄴㄷㅏ -10433
▁ㅈㅏㅂㅎㅕ -10434
▁수중 -10435
▁제작사 -10436
▁경제학자 -10437
▁애틀랜타 -10438
▁셜 -10439
▁Is -10440
▁공손 -10441
▁돌입 -10442
▁서리 -10443
▁수료 -10444
▁호쿠 -10445
▁휴가 -10446
ㅂㅏㄹㅡㄴ -10447
▁한국방송공사 -10448
▁넘기 -10449
▁저렴 -10450
▁효종 -10451
▁교육청 -10452
▁청소 -10453
▁팔레 -10454
▁공용어 -10455
▁클라크 -10456
▁섀 -10457
리즘 -10458
반구 -10459
▁;& -10460
▁con -10461
▁가가 -10462
▁스퀘어 -10463
▁ㅈㅜㅇㅓㅈㅣㄴㄷㅏ -10464
▁리히 -10465
▁무술 -10466
▁집결 -10467
▁알프레 -10468
▁유닉스 -10469
세기 -10470
▁신동 -10471
▁프렌 -10472
▁확진 -10473
▁가져오 -10474
▁1880 -10475
▁ㅁㅜㄹㄹㅣ -10476
부리 -10477
▁BM -10478
▁소행 -10479
▁이빨 -10480
▁122 -10481
▁안드레아 -10482
▁깎 -10483
▁고토 -10484
▁느리 -10485
▁분파 -10486
▁정경 -10487
▁쥐속 -10488
▁타협 -10489
▁마라톤 -10490
▁함부르크 -10491
▁ㄷㅏㄹㅡㄹ -10492
니지 -10493
▁보강 -10494
▁빈도 -10495
▁숙주 -10496
▁연동 -10497
▁창의 -10498
▁아마존 -10499
▁옥수수 -10500
▁ㅅㅕ -10501
▁갑옷 -10502
▁경위 -10503
▁노이 -10504
▁청색 -10505
스카르 -10506
▁그림자 -10507
도비 -10508
iss -10509
▁김민 -10510
ㅁㅏㄹ -10511
▁게릴라 -10512
▁이주하 -10513
▁일러스트 -10514
▁파라과이 -10515
올리 -10516
피언 -10517
▁세네 -10518
▁설립자 -10519
▁ㄱㅓㄷㅝㅆ -10520
▁브룩 -10521
▁블리 -10522
▁나란히 -10523
▁새로이 -10524
▁2022 -10525
▁랴 -10526
▁슛 -10527
퍼슨 -10528
▁고추 -10529
▁마당 -10530
▁동요 -10531
▁루크 -10532
▁막시 -10533
▁예명 -10534
▁오락 -10535
▁천연기념물 -10536
UR -10537
▁강풍 -10538
▁듀얼 -10539
▁석회 -10540
▁열심 -10541
▁유령 -10542
▁극작가 -10543
ii -10544
다르 -10545
▁군청 -10546
▁입양 -10547
케이 -10548
콥터 -10549
▁ES -10550
▁강철 -10551
▁석불 -10552
▁이데 -10553
▁장원 -10554
▁133 -10555
▁ㄴㅡㄲㅣㄴ -10556
▁그레고리오 -10557
기구 -10558
▁어로 -10559
▁재해 -10560
▁출석 -10561
▁ㅇㅡㄹㄲㅏ -10562
네시 -10563
▁메릴 -10564
▁몰아내 -10565
ake -10566
▁등극 -10567
▁짐작 -10568
▁NGC -10569
▁++ -10570
▁용암 -10571
▁이언 -10572
▁프롤 -10573
▁호응 -10574
ㅇㅡㄴㅣ -10575
▁ㅇㅕㅆㅇㅡㅁㅡㄹㅗ -10576
푸아 -10577
▁스노 -10578
▁ㅇㅕㄹㄹㅣㄴㄷㅏ -10579
▁더비 -10580
▁무스 -10581
▁두개골 -10582
▁ㅈㅏㄹㄹㅏ -10583
▁교육부 -10584
▁키예프 -10585
▁ㅊㅣㄹㅡㄴ -10586
▁수녀 -10587
▁약하 -10588
▁원격 -10589
▁확고 -10590
▁경쟁력 -10591
▁ㅅㅏㄹㄹㅕ -10592
▁기성 -10593
▁엘리트 -10594
▁이용객 -10595
▁마애 -10596
▁이장 -10597
▁지청 -10598
▁추종 -10599
▁해부 -10600
▁지방산 -10601
▁사무총장 -10602
▁흥선대원군 -10603
▁랍 -10604
타케 -10605
해튼 -10606
▁극도 -10607
▁번성 -10608
▁유스 -10609
▁제왕 -10610
▁화순 -10611
▁소령 -10612
▁위생 -10613
▁유정 -10614
자치시 -10615
▁CEO -10616
▁사로잡 -10617
▁특별자치시 -10618
▁안치 -10619
▁타지 -10620
▁기상청 -10621
▁DM -10622
▁대국 -10623
▁연못 -10624
▁요법 -10625
▁우상 -10626
▁워치 -10627
▁윤보 -10628
▁재난 -10629
▁현행 -10630
캐롤라이나 -10631
▁ㅂㅗㅇㅎㅐ -10632
▁선장 -10633
▁자카 -10634
▁콘테 -10635
▁그렇지만 -10636
▁스트라이커 -10637
▁격자 -10638
▁메라 -10639
▁몽고 -10640
▁ㄸㅏㄹㅏㅆ -10641
▁ㅂㅜㅌㅇㅕㅈㅣㄴ -10642
old -10643
▁아치 -10644
▁ㄲㅡㄶ -10645
▁이동하 -10646
▁반역 -10647
▁이득 -10648
▁장단 -10649
▁종점 -10650
▁진수 -10651
▁파우 -10652
▁함양 -10653
HO -10654
타마 -10655
▁심야 -10656
▁제리 -10657
▁Mus -10658
▁미생물 -10659
▁인프라 -10660
▁포도당 -10661
사관학교 -10662
▁결제 -10663
▁국유 -10664
▁농어 -10665
▁일괄 -10666
▁ㅈㅣㅋㅕㅆ -10667
▁ㅇㅗㄻㄱㅕㅈㅕㅆ -10668
GA -10669
세우 -10670
▁가볍 -10671
▁개항 -10672
▁결핍 -10673
▁모용 -10674
▁어리 -10675
▁자결 -10676
▁정관 -10677
다운 -10678
▁가네 -10679
▁니카 -10680
ㄸㅏㄹ -10681
own -10682
▁Ro -10683
▁빛나 -10684
▁이규 -10685
▁헬륨 -10686
▁CBS -10687
▁대지진 -10688
▁법정동 -10689
▁시뮬레이션 -10690
▁울리 -10691
▁쑤 -10692
▁감동 -10693
▁도사 -10694
▁명분 -10695
▁펜싱 -10696
▁파이프 -10697
▁스리랑카 -10698
▁프랭클린 -10699
▁가도 -10700
▁스로 -10701
▁아스널 -10702
▁앨리스 -10703
▁위나라 -10704
▁자치체 -10705
▁ㅁㅗㄹㄹㅕ -10706
▁ㄷㅚㄴㄷㅏㅁㅕㄴ -10707
거래 -10708
ork -10709
▁암흑 -10710
▁파문 -10711
▁제조업 -10712
▁평민 -10713
▁무궁화 -10714
ㄸㅡㄹㅕㅆ -10715
렉션 -10716
▁성령 -10717
▁자생 -10718
▁탁월 -10719
▁ㅅㅣㅋㅣㅁ -10720
▁국악 -10721
▁겉보기 -10722
▁ㅎㅏㄴㅈㅣ -10723
ㄲㅡㄹㅓㅇㅜㄴ -10724
▁조계 -10725
▁아래쪽 -10726
▁그레고리 -10727
▁ㅎㅐㅈㅣㄴㄷㅏ -10728
▁툰 -10729
미스 -10730
▁GDP -10731
▁ㅇㅏㄴㅣ -10732
▁ㄷㅓㅍㅇㅕ -10733
▁ㅅㅣㅁㅎㅐ -10734
에미 -10735
▁NE -10736
▁만년 -10737
▁문경 -10738
▁아데 -10739
▁정인 -10740
▁아니하 -10741
lo -10742
멘스 -10743
삭스 -10744
파크 -10745
▁온갖 -10746
▁대사헌 -10747
▁마우스 -10748
▁무조건 -10749
▁ㄱㅓㄹㄹㅣㄴ -10750
▁수년 -10751
▁스태 -10752
▁모터스 -10753
버러 -10754
▁듀오 -10755
▁루비 -10756
▁미셸 -10757
▁부조 -10758
▁132 -10759
▁선거법 -10760
▁동성애자 -10761
▁얹 -10762
위성 -10763
ick -10764
▁까지 -10765
▁불행 -10766
▁자르 -10767
▁ㅎㅏㄱㅗ -10768
▁삼국사기 -10769
▁ㅇㅏㄴㅣㄹ -10770
▁아이스하키 -10771
▁PR -10772
▁가타 -10773
▁타석 -10774
▁쾰 -10775
▁ㅈㅝ -10776
▁시종 -10777
▁장흥 -10778
▁총무 -10779
▁인디애나 -10780
▁동참 -10781
▁베른 -10782
▁속주 -10783
ㅇㅑㄴ -10784
▁후속작 -10785
▁낙하 -10786
▁리모 -10787
▁빈번 -10788
▁복음서 -10789
▁or -10790
▁주화 -10791
▁퇴장 -10792
스기 -10793
원장 -10794
▁상연 -10795
▁조병 -10796
▁주지 -10797
위원회 -10798
림픽 -10799
▁상기 -10800
▁신상 -10801
▁정국 -10802
▁센고쿠 -10803
▁그리스인 -10804
▁CONCA -10805
울리 -10806
▁ㄹㅑ -10807
▁글로브 -10808
변이 -10809
헌영 -10810
▁수심 -10811
▁시국 -10812
▁초원 -10813
▁돌연변이 -10814
Hz -10815
▁대각 -10816
▁라오 -10817
▁시애 -10818
▁장대 -10819
▁표창 -10820
▁호족 -10821
▁비주얼 -10822
▁보헤미아 -10823
▁CONCACAF -10824
▁국당 -10825
▁단과 -10826
▁매거진 -10827
라기 -10828
미즈 -10829
▁제너 -10830
▁른 -10831
▁구니 -10832
▁아쿠 -10833
▁황도 -10834
ence -10835
ㅂㄴㅣㄲㅏ -10836
ㄷㅐ -10837
▁ㅌㅟ -10838
▁광양 -10839
▁현직 -10840
브리아 -10841
▁대성전 -10842
ix -10843
마리 -10844
보내 -10845
타이드 -10846
▁통틀어 -10847
clude -10848
메다 -10849
▁공파 -10850
▁총기 -10851
▁ㅂㅜㅌㅈㅏ -10852
▁국수 -10853
▁김병 -10854
▁맹세 -10855
▁발각 -10856
▁이모 -10857
▁마다가 -10858
▁카바 -10859
바야시 -10860
▁애리조 -10861
▁오클랜드 -10862
▁쓸 -10863
▁초고 -10864
▁pro -10865
▁기병대 -10866
▁댓 -10867
벨라 -10868
▁부드 -10869
▁양육 -10870
▁미주리 -10871
▁SL -10872
▁난이 -10873
▁저격 -10874
▁피로 -10875
▁시애틀 -10876
▁자세히 -10877
▁저널리 -10878
▁타이베이 -10879
▁합스부르크 -10880
▁짱 -10881
할시 -10882
▁소울 -10883
▁투항 -10884
플로 -10885
홀름 -10886
▁계시 -10887
▁낮추 -10888
▁로리 -10889
▁재질 -10890
▁쳐 -10891
공산 -10892
▁호의 -10893
ance -10894
▁마르크스주의 -10895
▁숀 -10896
▁관동 -10897
▁페로 -10898
▁농산물 -10899
▁맨해튼 -10900
▁선보이 -10901
▁요제프 -10902
▁ㅅㅔㅇㅝㅈㅕ -10903
EM -10904
루냐 -10905
▁복식 -10906
▁청동기 -10907
▁ㅁㅣㅊㅣㄴ -10908
▁ㄷㅜㄹㄹㅓㅆㅏㅇㅕ -10909
▁엥 -10910
를테 -10911
ear -10912
▁비늘 -10913
를테면 -10914
▁이를테면 -10915
▁극락 -10916
▁아빠 -10917
▁티켓 -10918
▁소피아 -10919
▁볼셰비키 -10920
▁패럴림픽 -10921
▁낚 -10922
▁감금 -10923
▁우즈베키스탄 -10924
▁ㅂㅜㅌㅇㅕㅈㅕㅆ -10925
▁ㅉㅏ -10926
▁김옥 -10927
▁내면 -10928
▁민요 -10929
▁반성 -10930
▁수교 -10931
▁의과 -10932
▁활주로 -10933
▁1885 -10934
▁GN -10935
▁Ph -10936
▁개헌 -10937
▁공표 -10938
▁밀러 -10939
▁배속 -10940
▁이븐 -10941
▁포고 -10942
▁중앙부 -10943
십자 -10944
▁리터 -10945
▁매직 -10946
▁세븐 -10947
▁실존 -10948
▁ㄷㅡㄹㅓㄴㅏㄴ -10949
▁즘 -10950
▁수염 -10951
▁야구단 -10952
▁창시자 -10953
▁ㅂㅓ -10954
▁퍼포 -10955
▁1870 -10956
▁ㅇㅗㄹㅂㅏㄹㅡㄴ -10957
티시 -10958
▁바디 -10959
▁NAS -10960
▁스폰서 -10961
▁ㅁㅗㅇㅡㄴ -10962
▁제동 -10963
▁호리 -10964
▁오로지 -10965
▁퍼포먼스 -10966
쩌둥 -10967
▁감수 -10968
▁생계 -10969
▁세손 -10970
▁트리니 -10971
▁마오쩌둥 -10972
파이 -10973
▁입수 -10974
▁청자 -10975
▁예선전 -10976
▁유권자 -10977
▁리바 -10978
▁머스 -10979
▁원심 -10980
▁우체국 -10981
관리 -10982
▁un -10983
▁경질 -10984
▁왜구 -10985
▁To -10986
▁우아 -10987
▁240 -10988
▁450 -10989
▁1871 -10990
▁평안남도 -10991
▁ㅁㅗㅇㅣㄴ -10992
제이 -10993
▁참사 -10994
▁테일 -10995
ㄹㅇㅏ -10996
테리아 -10997
▁프랜시스 -10998
▁ㄴㅏㄱㅏㄴㄷㅏ -10999
▁돌출 -11000
▁벤치 -11001
▁대장군 -11002
▁하노이 -11003
▁ㄴㅑㄴㅡㄴ -11004
▁네이션스컵 -11005
▁ㄴㅜㄱㅜㄴㄱㅏ -11006
지오 -11007
▁중상 -11008
▁내려가 -11009
▁볼프 -11010
▁붙잡 -11011
▁카터 -11012
▁학설 -11013
▁ㄲㅗㅂㅎㅣㄴㄷㅏ -11014
OV -11015
▁내성 -11016
▁신종 -11017
▁오라 -11018
▁전날 -11019
▁파인 -11020
▁활발히 -11021
▁꺼 -11022
▁뾰 -11023
irl -11024
▁관행 -11025
텔레스 -11026
▁갈리 -11027
▁유료 -11028
▁증인 -11029
▁마닐라 -11030
▁프레이 -11031
▁중서 -11032
▁청룡 -11033
▁맷 -11034
▁역도 -11035
▁중생 -11036
▁화랑 -11037
lass -11038
▁뛰어 -11039
▁지성 -11040
▁함자 -11041
▁해저 -11042
▁로렌스 -11043
▁ㅅㅏㄹㅇㅏ -11044
▁쿡 -11045
테쓰 -11046
▁뉴클 -11047
▁알아 -11048
▁실험실 -11049
▁편집자 -11050
▁1600 -11051
▁평안북도 -11052
ild -11053
▁AD -11054
▁남용 -11055
▁반하 -11056
▁앞쪽 -11057
▁이양 -11058
▁수원시 -11059
▁ㅎㅏㅇㅑㄴ -11060
▁각성 -11061
▁당내 -11062
▁콜레 -11063
▁파나마 -11064
▁USS -11065
▁ㅉㅣㄴ -11066
▁내무부 -11067
▁알래스카 -11068
▁분과 -11069
▁수인 -11070
▁유러 -11071
▁출가 -11072
▁카니 -11073
등식 -11074
컨대 -11075
▁CM -11076
▁고쿠 -11077
▁로페 -11078
▁생선 -11079
▁시리 -11080
▁흉노 -11081
▁아리스토텔레스 -11082
▁개개 -11083
▁놀라 -11084
▁트릭 -11085
▁양성자 -11086
▁프라하 -11087
▁프로리그 -11088
▁문고 -11089
▁위스 -11090
▁테라 -11091
▁퍼스 -11092
▁빅토르 -11093
ection -11094
▁ㅇㅡㄹㅈㅣ -11095
맥스 -11096
ans -11097
▁루카 -11098
▁시합 -11099
▁호크 -11100
▁다람쥐 -11101
▁유치원 -11102
▁브레이크 -11103
▁상급 -11104
▁요지 -11105
▁자칭 -11106
▁휴게 -11107
▁알렉스 -11108
▁앤더슨 -11109
▁능선 -11110
▁성실 -11111
▁다나카 -11112
▁ㅈㅜㄷㅚㄴ -11113
▁ㅋㅐ -11114
▁구청 -11115
▁궁궐 -11116
▁박헌영 -11117
▁러시아인 -11118
▁ㅈㅜㄹㅇㅕ -11119
▁ㅈㅏㄹㅏㄴㄷㅏ -11120
사상 -11121
▁무척 -11122
▁정제 -11123
▁퍼스트 -11124
▁1200 -11125
▁유러피언 -11126
▁교실 -11127
▁나선 -11128
▁리비 -11129
▁이룩 -11130
▁이완 -11131
▁ㄴㅓㄹ -11132
▁ㅇㅣㅅ -11133
▁ㄲㅡㅌㄴㅏㅆ -11134
▁화기 -11135
▁역사가 -11136
▁ㅂㅜㄹㄹㅣㄴ -11137
▁독도 -11138
▁부각 -11139
▁케라 -11140
▁국보 -11141
▁다투 -11142
▁친분 -11143
▁올림피아 -11144
▁돌려 -11145
▁조광 -11146
▁조례 -11147
▁아무것 -11148
▁왕세자 -11149
▁ㅇㅗㄹㄹㅏㅆㅇㅡㅁㅕ -11150
▁Sy -11151
▁동로 -11152
▁경영자 -11153
▁케이프 -11154
ㅇㅡㅁㅡㄹㅗ -11155
▁시중 -11156
▁칼럼 -11157
▁동유럽 -11158
▁반란군 -11159
▁오른손 -11160
▁ㄱㅓㄴㅡㄹ -11161
▁오미 -11162
▁케인 -11163
▁신문사 -11164
ㄲㅇㅣㄴ -11165
ㅏㅈㅣㄹ -11166
▁ㅅㅣㄷㅏ -11167
▁ㄹㅕㄷㅓㄴ -11168
▁마다가스카르 -11169
▁사쿠 -11170
▁초빙 -11171
▁동물원 -11172
▁only -11173
▁구마모토 -11174
메스 -11175
체고 -11176
▁서산 -11177
▁재외 -11178
▁지쿠 -11179
▁김정은 -11180
▁루돌프 -11181
▁시달리 -11182
체고비나 -11183
무소 -11184
올라 -11185
▁섬세 -11186
▁성화 -11187
▁EBS -11188
▁레이싱 -11189
▁앤드루 -11190
▁돌보 -11191
▁몸통 -11192
▁이방 -11193
▁차용 -11194
▁한미 -11195
▁미군정 -11196
▁강령 -11197
▁징병 -11198
▁평형 -11199
▁부드럽 -11200
▁봉수 -11201
▁약혼 -11202
▁공민왕 -11203
▁다저스 -11204
ivers -11205
▁뉴클레오 -11206
▁ㄴㅏㅌㅏㄴㅐㄴ -11207
ish -11208
▁경시 -11209
▁김원 -11210
▁농경 -11211
▁메카 -11212
▁칙령 -11213
▁통용 -11214
▁ㅅㅐㅇㄱㅣㄴㄷㅏ -11215
▁배려 -11216
▁재활 -11217
▁밴쿠버 -11218
OD -11219
▁대본 -11220
▁바트 -11221
▁송도 -11222
▁신발 -11223
▁통역 -11224
▁허드 -11225
▁윤보선 -11226
GM -11227
▁관문 -11228
▁수필 -11229
▁김규식 -11230
▁유년기 -11231
▁클레이 -11232
▁헬리콥터 -11233
▁괄 -11234
환경 -11235
▁가솔 -11236
▁에프 -11237
▁영예 -11238
▁창문 -11239
▁특전 -11240
▁동대문 -11241
▁레이크 -11242
바흐 -11243
▁전래 -11244
▁절망 -11245
▁주입 -11246
▁탑신 -11247
▁하류 -11248
▁MTV -11249
▁부원군 -11250
▁생겨나 -11251
▁ㄴㅓㅁㅇㅓㄱㅏㅆ -11252
통일 -11253
▁극한 -11254
▁로얄 -11255
▁포식 -11256
▁예정자 -11257
ㅐㄱ -11258
▁경희 -11259
▁나우 -11260
▁메뉴 -11261
▁일당 -11262
▁총애 -11263
▁정의당 -11264
▁친위대 -11265
▁Jo -11266
▁독창 -11267
▁지오 -11268
▁총통 -11269
▁커플 -11270
▁비타민 -11271
▁성남시 -11272
▁크라이 -11273
코토 -11274
▁ㅊㅏㄹ -11275
▁예수회 -11276
▁위너스 -11277
▁해리슨 -11278
▁ㄴㅡㄴㄷㅏㅁㅕㄴ -11279
▁남산 -11280
▁되돌 -11281
▁마술 -11282
▁산호 -11283
▁처하 -11284
▁리조트 -11285
▁ㄴㅏㅌㅏㄴㅐㅆ -11286
어사 -11287
▁NT -11288
▁명소 -11289
▁시노 -11290
▁욕망 -11291
▁카테 -11292
▁케플러 -11293
▁경호 -11294
▁나인 -11295
▁시부 -11296
▁편제 -11297
▁포착 -11298
▁호스 -11299
▁솔로몬 -11300
▁겁 -11301
▁ex -11302
▁ㅎㅜ -11303
▁검정 -11304
▁제노 -11305
▁진해 -11306
▁ㅇㅓㄹㅕㅇㅝㅆ -11307
토랑 -11308
▁갑작 -11309
▁보행 -11310
▁아날 -11311
▁찬양 -11312
▁하반 -11313
▁대대로 -11314
▁사각형 -11315
▁레스토랑 -11316
▁담보 -11317
▁안녕 -11318
▁엮 -11319
▁도교 -11320
▁보라 -11321
▁카지 -11322
▁제퍼슨 -11323
▁컴퓨팅 -11324
▁유혹 -11325
▁파도 -11326
▁하키 -11327
▁고속버스 -11328
RA -11329
▁돋 -11330
oun -11331
▁대북 -11332
▁모의 -11333
▁시몬 -11334
▁실정 -11335
▁화엄 -11336
▁얕 -11337
원수 -11338
▁당연 -11339
▁마차 -11340
▁뾰족 -11341
▁플라톤 -11342
매매 -11343
▁관청 -11344
▁모호 -11345
▁사역 -11346
▁소극 -11347
▁소음 -11348
▁아키라 -11349
▁싣 -11350
천면 -11351
▁남해 -11352
▁맞대 -11353
▁스가 -11354
▁테리 -11355
▁대합실 -11356
▁클린턴 -11357
▁해리스 -11358
▁광도 -11359
▁추이 -11360
▁브루스 -11361
EL -11362
▁뻔 -11363
라니 -11364
lat -11365
▁가맹 -11366
▁천왕 -11367
▁긴테쓰 -11368
fe -11369
에스 -11370
지르 -11371
are -11372
▁수양 -11373
▁찬사 -11374
▁침묵 -11375
▁ㅇㅓㅉㅓㄹ -11376
▁보로 -11377
▁블레 -11378
▁블로 -11379
▁황소 -11380
▁스톡홀름 -11381
▁ㄷㅡㄴㄷㅏ -11382
az -11383
신문 -11384
▁씨앗 -11385
▁지로 -11386
▁푸르 -11387
▁효자 -11388
지로 -11389
▁Fr -11390
▁국공 -11391
▁드미 -11392
▁불변 -11393
▁자제 -11394
▁최진 -11395
ical -11396
▁스테파 -11397
▁북아일랜드 -11398
▁허정 -11399
▁서재필 -11400
▁오리온 -11401
EG -11402
▁다테 -11403
▁선천 -11404
▁이렇 -11405
▁전한 -11406
▁방어선 -11407
▁알프스 -11408
▁요시다 -11409
▁ㅌㅣ -11410
▁가늘 -11411
▁김유 -11412
▁마켓 -11413
▁이점 -11414
▁프론 -11415
▁ㄷㅏㄱ -11416
▁바이트 -11417
▁아나톨 -11418
▁@ -11419
지능 -11420
히트 -11421
▁무실 -11422
▁주임 -11423
▁캐롤 -11424
▁ㅆㅏㅎ -11425
▁인공지능 -11426
▁ㄴㅐㄹㅕㅈㅕㅆ -11427
▁sc -11428
▁드루 -11429
▁럭비 -11430
▁리보 -11431
▁박종 -11432
▁폭파 -11433
▁개구리 -11434
▁리프트 -11435
▁총사령관 -11436
include -11437
블랜드 -11438
나오 -11439
러브 -11440
▁도둑 -11441
▁만장 -11442
▁본성 -11443
▁수복 -11444
▁제물 -11445
▁분류군 -11446
▁넷째 -11447
▁색소 -11448
▁ABC -11449
▁ㅇㅣㅈ -11450
▁ㅍㅕㄴ -11451
▁결별 -11452
▁채취 -11453
▁타스 -11454
▁ㅎㅏㅇ -11455
▁피라미 -11456
▁샐 -11457
▁별세 -11458
▁화약 -11459
▁ㅌㅡㄴ -11460
▁보수당 -11461
▁아키타 -11462
TP -11463
▁": -11464
▁CH -11465
▁스텝 -11466
▁어군 -11467
▁카피 -11468
▁클리블랜드 -11469
정원 -11470
▁엄밀 -11471
덴부르크 -11472
창호 -11473
▁DD -11474
▁전담 -11475
▁포토 -11476
대표 -11477
▁AV -11478
▁고든 -11479
▁로버 -11480
▁모어 -11481
▁영유 -11482
▁원통 -11483
▁정거 -11484
▁나트륨 -11485
▁마천루 -11486
▁토스카 -11487
▁함경남도 -11488
▁전무 -11489
▁투자자 -11490
▁프린스 -11491
▁넘치 -11492
▁벤처 -11493
▁천국 -11494
▁210 -11495
▁비밀리 -11496
▁릴리 -11497
▁초신성 -11498
▁ㄷㅚㄷㅗㄹㅇㅏ -11499
▁ㅆㅡㅇㅕㅈㅣㄴ -11500
▁리사 -11501
▁야전 -11502
▁퇴직 -11503
▁가이드 -11504
▁ㄹㅏㅅㅓ -11505
▁ㅅㅣㄹㄹㅣㄴ -11506
놀이 -11507
▁구두 -11508
▁마셜 -11509
▁슬픔 -11510
▁내야수 -11511
▁타이거스 -11512
▁ㅎㅑㅇㅎㅐㅆ -11513
▁콘스탄티노폴리스 -11514
▁쾰른 -11515
▁로드리 -11516
▁선구자 -11517
▁자치주 -11518
▁잡아먹 -11519
▁방콕 -11520
▁소중 -11521
▁극우 -11522
▁동향 -11523
▁웨인 -11524
▁유선 -11525
▁제명 -11526
▁치과 -11527
▁ㅅㅏㅆ -11528
▁서대문 -11529
▁알파벳 -11530
▁ㅇㅗㄹㄹㅏㄱㅏㅆ -11531
란토 -11532
사고 -11533
▁백두 -11534
▁약사 -11535
▁정형 -11536
▁차출 -11537
▁켈트 -11538
▁대원군 -11539
▁휩 -11540
카리 -11541
▁노론 -11542
▁리베 -11543
▁메이커 -11544
▁ㅇㅏㄹㅇㅏ -11545
▁로크 -11546
▁묘비 -11547
▁실권 -11548
▁위그 -11549
▁안테나 -11550
▁추리 -11551
▁ATP -11552
▁ㅈㅜㄱㅇㅣㄴ -11553
▁펌프 -11554
▁경전철 -11555
▁동시대 -11556
▁유아기 -11557
▁김형 -11558
▁왕권 -11559
▁장시 -11560
▁천거 -11561
▁파손 -11562
▁유격수 -11563
▁ㅂㅗㄴㄸ -11564
메드 -11565
▁종식 -11566
▁중합 -11567
공산당 -11568
▁ㅅㅓㄹ -11569
▁주차장 -11570
▁가브리엘 -11571
▁피아니스트 -11572
▁멧 -11573
▁삼림 -11574
▁아이폰 -11575
▁타이어 -11576
▁튀르크 -11577
▁ㅇㅣㄱㅕ -11578
FL -11579
대사 -11580
▁구실 -11581
▁미수 -11582
▁플리 -11583
▁ㄱㅕㄴ -11584
▁적외선 -11585
▁ㅇㅏㄹㅡㅁㄷㅏㅇㅜㅁ -11586
▁봇 -11587
언스 -11588
▁밸리 -11589
▁여유 -11590
▁일리 -11591
▁형질 -11592
클레 -11593
▁강렬 -11594
▁목회 -11595
▁야드 -11596
▁톈진 -11597
▁헬싱 -11598
▁드디어 -11599
▁용인시 -11600
▁정부군 -11601
▁ㅎㅏㅂㅊㅣㄴ -11602
수스 -11603
▁감상 -11604
▁맞서 -11605
▁이의 -11606
▁ㄸㅓㅇㅗ -11607
암동 -11608
휴일 -11609
ica -11610
▁감찰 -11611
▁마에 -11612
▁상행 -11613
▁스칸 -11614
▁가락 -11615
▁감성 -11616
▁유목 -11617
▁임정 -11618
▁연극배우 -11619
▁ㄴㅏㄱㅏㄴ -11620
소통 -11621
▁간첩 -11622
▁그저 -11623
▁불참 -11624
▁사방 -11625
▁사설 -11626
▁친족 -11627
▁딥 -11628
충류 -11629
▁ㄱㅏㅈㅕㅇㅗㄴ -11630
대교 -11631
▁매트 -11632
해살이 -11633
▁ㅌㅡㄹ -11634
▁ㅈㅕㅅㅓ -11635
▁콘테스트 -11636
▁헤르체고비나 -11637
▁구내 -11638
▁방치 -11639
▁삽화 -11640
▁마누엘 -11641
▁소말리아 -11642
ey -11643
캐슬 -11644
티넘 -11645
▁끼치 -11646
▁리본 -11647
▁악보 -11648
▁애정 -11649
▁왕건 -11650
▁준수 -11651
▁칸국 -11652
▁캐리 -11653
▁플래티넘 -11654
▁he -11655
▁ㅎㅣ -11656
▁공존 -11657
▁실록 -11658
와라노 -11659
▁연산군 -11660
▁프레데 -11661
▁의사소통 -11662
▁후지와라노 -11663
▁ㅈㅡㄹㄱㅣㄹ -11664
군다 -11665
▁고딕 -11666
▁산성 -11667
▁송신 -11668
▁여권 -11669
▁연말 -11670
▁예약 -11671
▁운임 -11672
▁절정 -11673
▁스트로 -11674
▁1889 -11675
▁브루클린 -11676
60 -11677
▁끓 -11678
지기 -11679
▁비엔 -11680
▁사탕 -11681
▁삼존 -11682
▁불량 -11683
▁슬하 -11684
▁외형 -11685
▁전전 -11686
▁지자 -11687
▁직통 -11688
테이너 -11689
tern -11690
▁간신히 -11691
▁ㄹㅕㄷㅏ -11692
합성 -11693
▁시네마 -11694
▁열심히 -11695
▁나카무라 -11696
▁니혼 -11697
▁라자 -11698
▁모하 -11699
▁서임 -11700
▁치환 -11701
▁가솔린 -11702
▁화강암 -11703
▁스카우트 -11704
▁늙 -11705
▁건전 -11706
▁라리 -11707
▁로트 -11708
▁마땅 -11709
▁모금 -11710
▁본작 -11711
▁의류 -11712
▁집정 -11713
▁쿠퍼 -11714
▁기관지 -11715
▁두려움 -11716
▁목요일 -11717
▁발라드 -11718
▁ㄹㅓㅅㅓ -11719
▁ㅇㅣㄲㅡㄹ -11720
▁가나가와현 -11721
▁대영 -11722
▁징수 -11723
▁무형 -11724
▁하시 -11725
▁해독 -11726
▁AKB -11727
▁말미암 -11728
▁메디치 -11729
▁브레이 -11730
▁엔트리 -11731
▁오바마 -11732
▁ㄱㅣㄷㅏ -11733
▁ㅂㅗㄴㅐㄴㄷㅏ -11734
▁김준 -11735
▁봉화 -11736
▁중퇴 -11737
▁피지 -11738
▁For -11739
▁패트릭 -11740
▁ㅂㅏㄲㅟㄴ -11741
sh -11742
망디 -11743
▁반포 -11744
▁베트 -11745
▁사서 -11746
▁삼중 -11747
▁시크 -11748
▁이송 -11749
▁처지 -11750
▁OST -11751
▁ㄱㅜㄷ -11752
▁라이더 -11753
▁ㄱㅏㄹㅗ -11754
▁ㅇㅣㄹㅝㅈㅕㅆ -11755
▁멍 -11756
난성 -11757
▁백과 -11758
▁영정 -11759
▁So -11760
▁ㅊㅟㅎㅐㅆ -11761
바나 -11762
▁다윈 -11763
▁메소 -11764
▁요충 -11765
▁뉴캐슬 -11766
AF -11767
위안 -11768
▁유희 -11769
▁토트 -11770
▁Com -11771
부로 -11772
천동 -11773
▁pr -11774
▁격리 -11775
▁모색 -11776
▁비야 -11777
▁로마인 -11778
▁ㅅㅏㄹㅏㅈㅣㄴ -11779
▁금호 -11780
▁리옹 -11781
▁야시 -11782
▁작물 -11783
▁트렌 -11784
▁한중 -11785
▁해태 -11786
▁피라미드 -11787
▁ㅂㅏㄲㅝㅆ -11788
▁ㅂㅓㄹㅇㅕ -11789
bo -11790
가미 -11791
▁볼트 -11792
▁은거 -11793
▁인가 -11794
▁하야 -11795
▁생존자 -11796
IL -11797
▁송출 -11798
▁호대 -11799
▁츄 -11800
유예 -11801
▁우림 -11802
▁종자 -11803
▁항만 -11804
▁Ma -11805
▁유의 -11806
▁정작 -11807
▁기숙사 -11808
▁낙동강 -11809
▁스타트 -11810
애미 -11811
▁공소 -11812
▁도피 -11813
▁비준 -11814
▁똑같이 -11815
▁Part -11816
▁ㄱㅏㄹㅕ -11817
▁마이애미 -11818
▁훙 -11819
▁Mo -11820
▁도래 -11821
▁요격 -11822
▁투여 -11823
도르프 -11824
▁장학금 -11825
▁지상파 -11826
▁프란체스코 -11827
▁헛 -11828
프로 -11829
▁수락 -11830
▁클러 -11831
▁후배 -11832
추부사 -11833
▁카카오 -11834
교통 -11835
부르 -11836
▁앙골 -11837
▁음운 -11838
▁공휴일 -11839
▁토리노 -11840
▁Live -11841
▁미야자키 -11842
▁ㄴㅏㄹㅇㅏ -11843
▁ㅇㅑㄱㅎㅐ -11844
풀이 -11845
▁김명 -11846
▁열강 -11847
▁중수 -11848
▁일본국 -11849
▁자유민주당 -11850
▁EU -11851
▁거미 -11852
▁들이 -11853
▁주계 -11854
▁정종 -11855
▁Sou -11856
에미리트 -11857
▁ㅎㅣㅁㅆㅓㅆ -11858
▁아랍에미리트 -11859
▁잠정 -11860
▁병자 -11861
▁의령 -11862
▁정읍 -11863
▁페트 -11864
▁1848 -11865
▁ㄷㅡㄹㅓㄴㅐㅆ -11866
▁벅 -11867
드레 -11868
▁공성 -11869
▁반기 -11870
▁벨리 -11871
▁서태 -11872
▁양심 -11873
▁워즈 -11874
▁한신 -11875
바이트 -11876
▁어시스트 -11877
▁거란 -11878
▁어찌 -11879
▁원군 -11880
▁천주 -11881
▁여배우 -11882
▁튀니지 -11883
▁JTBC -11884
▁프랑스인 -11885
▁비추 -11886
▁연정 -11887
▁광복군 -11888
▁ㅁㅓㅁㅊ -11889
▁프랑스령 -11890
▁ㄱㅗㅊㅕㅆ -11891
▁ㄴㅗㄹㄹㅏㅇㅜㄴ -11892
▁급여 -11893
▁기이 -11894
▁모욕 -11895
▁성곽 -11896
▁ㅈㅣㄴㅣㄴㄷㅏ -11897
EE -11898
▁평판 -11899
클리드 -11900
▁미야기 -11901
▁센티미터 -11902
나마 -11903
▁격추 -11904
▁순종 -11905
▁암스 -11906
▁Col -11907
▁ㅁㅗㅅㅕ -11908
▁유니버설 -11909
uc -11910
화문 -11911
▁귀신 -11912
▁김광 -11913
▁인칭 -11914
▁자서 -11915
▁포털 -11916
마르크 -11917
▁에스페 -11918
▁티아 -11919
▁대리인 -11920
▁에이즈 -11921
▁보수주의 -11922
▁카탈루냐 -11923
▁ㅃㅏㄹㄱㅏㄴ -11924
ㅂㅆ -11925
에몽 -11926
▁금산 -11927
▁워커 -11928
▁레이더 -11929
▁마이어 -11930
의사 -11931
▁교의 -11932
▁굴절 -11933
▁무과 -11934
▁습윤 -11935
▁응급 -11936
▁탄약 -11937
▁대승불교 -11938
도라 -11939
▁"& -11940
▁랴오 -11941
▁익숙 -11942
▁만화가 -11943
▁ㅇㅣㄹㅝㅈㅣㄴ -11944
▁무네 -11945
▁조인 -11946
▁국제법 -11947
▁마법사 -11948
▁줄기세포 -11949
▁ㄸㅟㅇㅓㄴㅏㅆ -11950
▁캅 -11951
▁매킨 -11952
▁해피 -11953
▁대법관 -11954
▁카스티야 -11955
간다 -11956
관계 -11957
▁문집 -11958
하이오 -11959
▁API -11960
▁검은색 -11961
▁여의도 -11962
▁레드삭스 -11963
▁오하이오 -11964
▁쌍대 -11965
▁진로 -11966
▁코리 -11967
▁ㄱㅕㅁ -11968
▁모건 -11969
▁유식 -11970
▁교통부 -11971
▁사운드트랙 -11972
ann -11973
▁류큐 -11974
▁배분 -11975
▁사쓰 -11976
▁평평 -11977
▁정거장 -11978
▁패러디 -11979
거스 -11980
▁바지 -11981
▁볼로 -11982
▁자명 -11983
▁우루스 -11984
▁지배자 -11985
▁ㅇㅣㄹㅇㅡㅋㅣㄴㄷㅏ -11986
▁니키 -11987
▁음절 -11988
페스트 -11989
▁ㅈㅔㄴ -11990
▁Time -11991
▁부합 -11992
▁줄리 -11993
레스트 -11994
▁시코쿠 -11995
메니 -11996
▁EM -11997
▁여사 -11998
▁재팬 -11999
▁추력 -12000
▁혼다 -12001
파니아 -12002
▁int -12003
지부 -12004
lay -12005
▁BC -12006
▁권역 -12007
▁수로 -12008
▁한림 -12009
▁아이즈 -12010
row -12011
▁공대 -12012
▁공영 -12013
▁국한 -12014
▁꼽히 -12015
▁그라운드 -12016
▁기전 -12017
▁김인 -12018
▁리카 -12019
▁여고 -12020
▁재일 -12021
▁총격 -12022
olog -12023
▁SNS -12024
▁바그너 -12025
ㄹㅣㄴㄷㅏ -12026
브로 -12027
▁댄서 -12028
▁동진 -12029
▁비정 -12030
▁안개 -12031
▁점포 -12032
▁추억 -12033
▁대단히 -12034
▁레이트 -12035
▁부총리 -12036
▁정치학 -12037
▁하노버 -12038
▁ㅎㅟㅂㅆ -12039
▁아날로그 -12040
ㅇㅎㅏㄴㄷㅏ -12041
▁ㅅㅣㅋㅕㅅㅓ -12042
▁비토 -12043
ous -12044
▁베어 -12045
▁비대 -12046
▁사민 -12047
▁산둥 -12048
▁업자 -12049
▁명확히 -12050
OP -12051
▁검거 -12052
▁국외 -12053
▁라르 -12054
▁로키 -12055
▁사수 -12056
▁치카 -12057
▁대니얼 -12058
▁프란치 -12059
ㅈㅣㄹㄹㅓ -12060
자루 -12061
orn -12062
ows -12063
▁고생 -12064
▁메일 -12065
▁설문 -12066
▁실증 -12067
▁오만 -12068
▁방사능 -12069
▁가혹 -12070
▁도박 -12071
▁동산 -12072
▁지법 -12073
지아 -12074
현동 -12075
▁근사 -12076
▁종군 -12077
▁시멘트 -12078
▁ㄴㅜㄹㅕㅆ -12079
서스 -12080
▁GB -12081
▁고로 -12082
▁골격 -12083
▁부다 -12084
▁절벽 -12085
▁제위 -12086
▁특화 -12087
▁하행 -12088
▁커리어 -12089
용차 -12090
▁ㄷㅏㅇ -12091
▁그랜트 -12092
▁초콜 -12093
▁ㅈㅕㅆㅇㅡㄴㅏ -12094
▁우한 -12095
▁헬레 -12096
프랑크 -12097
▁고인돌 -12098
▁카메룬 -12099
▁ㄴㅡㄹㅣㄴ -12100
▁남군 -12101
▁다치 -12102
▁단결 -12103
▁대마 -12104
▁선명 -12105
▁용액 -12106
▁클라우 -12107
▁ㅂㅏㄹㅏ -12108
▁문단 -12109
▁방대 -12110
▁셀레 -12111
▁관현악단 -12112
▁경복 -12113
▁연립 -12114
▁오디 -12115
▁케르 -12116
▁합치 -12117
▁법원장 -12118
▁페트로 -12119
▁ㅂㅏㄲㅜㄹ -12120
▁곶 -12121
▁글꼴 -12122
▁Bla -12123
▁노르망디 -12124
▁ㅍㅜㄹㄹㅕㄴ -12125
▁깜 -12126
시노 -12127
정동 -12128
▁국교 -12129
▁남방 -12130
▁마테 -12131
▁부평 -12132
▁최선 -12133
드리아 -12134
▁Your -12135
▁ㅅㅣㅋㅕㅇㅑ -12136
▁앗 -12137
▁관상 -12138
▁모세 -12139
▁무안 -12140
▁범행 -12141
▁신곡 -12142
▁종양 -12143
▁라인업 -12144
▁제우스 -12145
버른 -12146
제품 -12147
▁보령 -12148
▁타락 -12149
▁편견 -12150
▁항체 -12151
span -12152
▁131 -12153
▁ㅅㅓㅆ -12154
▁ㄹㅏㄱㅣ -12155
ㅟㄹ -12156
거지 -12157
▁ㄸㅢ -12158
▁가쿠 -12159
▁소외 -12160
▁황색 -12161
▁대나무 -12162
▁저지대 -12163
▁파일럿 -12164
▁onlyinclude -12165
▁GM -12166
▁가중 -12167
▁단군 -12168
▁하코 -12169
▁형벌 -12170
▁체인지 -12171
▁NASA -12172
▁촛 -12173
▁가고 -12174
▁간략 -12175
▁모빌 -12176
▁후진 -12177
메이카 -12178
▁정보원 -12179
▁자메이카 -12180
▁쾨 -12181
칼리 -12182
▁선봉 -12183
▁수식 -12184
▁은혜 -12185
▁콘솔 -12186
▁Sch -12187
▁예컨대 -12188
으로 -12189
▁교부 -12190
▁봉인 -12191
▁사림 -12192
▁어긋 -12193
▁외치 -12194
▁중소기업 -12195
▁1883 -12196
▁라디 -12197
▁라바 -12198
▁모범 -12199
▁숙부 -12200
▁절감 -12201
▁영화상 -12202
틀리 -12203
▁at -12204
▁녕 -12205
▁객차 -12206
▁김윤 -12207
▁무작 -12208
▁속력 -12209
▁재편 -12210
▁중엽 -12211
▁원산지 -12212
▁ㅅㅐㅇㄱㅕㄴㅏㄴ -12213
토프 -12214
▁사학 -12215
▁산요 -12216
▁공화정 -12217
▁제이슨 -12218
▁u -12219
센스 -12220
▁기세 -12221
▁노면 -12222
▁전보 -12223
른스트 -12224
▁라파엘 -12225
▁연구회 -12226
▁줄리아 -12227
지리 -12228
amp -12229
▁리즈 -12230
▁야외 -12231
▁연희 -12232
▁판소리 -12233
▁가토 -12234
▁다툼 -12235
▁도키 -12236
▁리마 -12237
▁서귀 -12238
▁피리 -12239
▁홀리 -12240
▁전반기 -12241
▁ㅈㅓㅂㅎㅏㄴ -12242
▁공무 -12243
▁녹화 -12244
▁램프 -12245
▁발상 -12246
▁큐브 -12247
▁에이전 -12248
▁기량 -12249
▁코소 -12250
▁국정원 -12251
▁달라지 -12252
▁ㅇㅣㅀㅇㅓㅂㅓㄹㅣㄴ -12253
▁욱 -12254
워스 -12255
▁SA -12256
▁다듬 -12257
▁식스 -12258
▁엔드 -12259
▁유공 -12260
▁유우 -12261
▁적료 -12262
▁플러 -12263
▁할인 -12264
네그로 -12265
▁해상도 -12266
▁보루 -12267
▁하남 -12268
▁ref -12269
▁고분군 -12270
▁ㄸㅐㄹㅕ -12271
▁교향악단 -12272
▁유클리드 -12273
80 -12274
▁열전 -12275
▁항우 -12276
▁부상자 -12277
▁스칼라 -12278
▁ㅍㅏㄹㄹㅕㅆ -12279
CC -12280
▁안방 -12281
▁위조 -12282
빌라이 -12283
▁비서관 -12284
히사 -12285
ood -12286
▁Ge -12287
▁기와 -12288
▁조교 -12289
▁흘러 -12290
티모어 -12291
▁북유럽 -12292
▁텍사스주 -12293
ink -12294
▁고의 -12295
▁병마 -12296
▁안나 -12297
▁카마 -12298
▁멋 -12299
려가 -12300
ern -12301
▁스루 -12302
▁씨족 -12303
▁외래 -12304
▁이터 -12305
▁자수 -12306
▁탄자 -12307
스트리 -12308
▁ㅂㅏㅊㅕㅆ -12309
▁Or -12310
▁꿈꾸 -12311
▁사영 -12312
▁온난 -12313
▁이회 -12314
▁지석 -12315
▁멜버른 -12316
▁연장전 -12317
▁ㅋㅣㅇㅝ -12318
▁ㄱㅓㄹㅊㅕㅅㅓ -12319
▁가우 -12320
▁분단 -12321
▁상어 -12322
▁송파 -12323
▁수위 -12324
▁다이어 -12325
▁선진국 -12326
▁스캔들 -12327
▁Wind -12328
돌이 -12329
프턴 -12330
▁RS -12331
▁도네 -12332
▁콜럼 -12333
▁노벨상 -12334
▁위구르 -12335
▁프로모 -12336
▁1882 -12337
RT -12338
▁계주 -12339
▁세습 -12340
▁헤이안 -12341
에고 -12342
치히 -12343
▁위로 -12344
▁통신사 -12345
데라 -12346
▁우산 -12347
▁지극 -12348
▁피치 -12349
▁다이노스 -12350
II -12351
▁콥 -12352
▁펴 -12353
들이 -12354
화학 -12355
▁OB -12356
▁RP -12357
▁간사 -12358
▁관례 -12359
▁단속 -12360
▁대인 -12361
▁요양 -12362
▁카네 -12363
ost -12364
▁tv -12365
▁족보 -12366
▁함량 -12367
ㄱㅓㄴ -12368
▁토마토 -12369
▁프로그래머 -12370
▁ㄷㅏㄹㄹㅏㅆ -12371
US -12372
▁결사 -12373
▁관악 -12374
▁왕궁 -12375
▁요절 -12376
▁파벌 -12377
▁너무나 -12378
▁대좌 -12379
▁동적 -12380
▁부교 -12381
▁정반 -12382
▁표정 -12383
▁ㅂㅏㄲㅜㄴ -12384
▁거성 -12385
▁내일 -12386
▁시안 -12387
▁군사력 -12388
▁아이언 -12389
▁카스트 -12390
40 -12391
▁단정 -12392
▁루키 -12393
▁성원 -12394
▁월터 -12395
▁유생 -12396
▁재래 -12397
▁330 -12398
▁ㄷㅜㄲ -12399
▁ㄸㅣㄴ -12400
▁해안선 -12401
ㅎㅐㅅㅓ -12402
▁ㅇㅗㄹㄹㅏㄱㅏ -12403
▁강행 -12404
▁북군 -12405
▁사안 -12406
▁유서 -12407
▁주선 -12408
▁회귀 -12409
▁야마가타 -12410
▁새우 -12411
▁정정 -12412
▁최영 -12413
▁Day -12414
▁ㅇㅓㅄ -12415
▁미토콘 -12416
▁산티아 -12417
▁관계없이 -12418
▁ㄱㅕㅂㅊㅕ -12419
▁미토콘드리아 -12420
팡이 -12421
협회 -12422
▁배달 -12423
▁장덕 -12424
▁천수 -12425
▁내세우 -12426
▁고흥 -12427
▁급증 -12428
▁선대 -12429
▁정은 -12430
▁올리브 -12431
▁중공군 -12432
▁히브리 -12433
▁Girl -12434
▁La -12435
▁내력 -12436
▁법관 -12437
▁정월 -12438
▁항원 -12439
▁기념일 -12440
▁영원히 -12441
▁파시즘 -12442
▁필립스 -12443
▁쿠빌라이 -12444
융합 -12445
▁동포 -12446
▁부왕 -12447
▁성동 -12448
▁출자 -12449
▁협업 -12450
▁시즈오카 -12451
▁고노 -12452
▁랭크 -12453
▁평지 -12454
스탄불 -12455
▁대상자 -12456
▁대표자 -12457
▁폐기물 -12458
▁ㅂㅜㄷㅣ -12459
▁미스터리 -12460
▁이스탄불 -12461
▁ㄴㅡㄲㅣㄹ -12462
▁ㄷㅏㄹㅇㅏㄴㅏㅆ -12463
▁ㅇㅞ -12464
▁내걸 -12465
▁덮개 -12466
▁리믹스 -12467
▁뫼 -12468
▁몰타 -12469
▁부파 -12470
▁지켜 -12471
▁직속 -12472
▁항로 -12473
▁독수리 -12474
▁사이타마 -12475
▁어파 -12476
▁우시 -12477
▁우월 -12478
▁종영 -12479
▁데니스 -12480
▁부르주 -12481
▁사업소 -12482
▁슈퍼컵 -12483
▁핵융합 -12484
▁효고현 -12485
포시 -12486
호란 -12487
▁상록 -12488
▁서면 -12489
▁수열 -12490
▁식용 -12491
▁몹 -12492
▁단말 -12493
▁빙하 -12494
▁잠깐 -12495
▁조셉 -12496
▁LED -12497
▁단체전 -12498
▁해운대 -12499
▁FK -12500
▁남하 -12501
▁아목 -12502
▁조슈 -12503
▁지르 -12504
▁형편 -12505
▁ㅂㅣㅊ -12506
▁레오폴 -12507
▁어울리 -12508
▁프랜차 -12509
▁호스트 -12510
▁ㅅㅔㅇㅛ -12511
▁컨트롤러 -12512
▁ㅎㅡㄹㅡㄴㄷㅏ -12513
▁렛 -12514
게스 -12515
▁발동 -12516
▁주창 -12517
▁무실점 -12518
▁ㄴㅗㅎㅇㅣㄴ -12519
▁냥 -12520
나기 -12521
여객 -12522
▁러일 -12523
▁소프 -12524
▁타수 -12525
▁후예 -12526
오르크 -12527
▁4000 -12528
▁사회민주당 -12529
OT -12530
▁군벌 -12531
▁노사 -12532
▁보름 -12533
▁스콜 -12534
▁제천 -12535
▁테네시 -12536
▁ㅂㅣㅎㅐㅅㅓ -12537
서니 -12538
oll -12539
▁강당 -12540
▁넬슨 -12541
▁대진 -12542
▁산시 -12543
▁증폭 -12544
▁켄트 -12545
▁피드 -12546
▁서사시 -12547
▁ㅇㅗㄻㄱㅣㄴ -12548
▁맡기 -12549
▁번창 -12550
▁양보 -12551
▁ㅅㅕㄴ -12552
▁1868 -12553
▁컨테이너 -12554
해자 -12555
▁사치 -12556
▁신입 -12557
▁태후 -12558
▁오스틴 -12559
▁오일러 -12560
▁ㅁㅜㄷㅎㅕㅆ -12561
▁관목 -12562
▁규탄 -12563
▁버터 -12564
▁사천 -12565
▁떠오르 -12566
▁안티오 -12567
▁아케이드 -12568
▁프랜차이즈 -12569
▁괌 -12570
▁아유 -12571
▁염려 -12572
▁위력 -12573
▁여성주의 -12574
▁교직 -12575
▁내분 -12576
▁알아보 -12577
▁고트 -12578
▁금전 -12579
▁딜런 -12580
▁라미 -12581
▁분사 -12582
▁양수 -12583
▁제단 -12584
▁법조인 -12585
▁앙골라 -12586
▁제갈량 -12587
▁휴게소 -12588
본부 -12589
▁매리 -12590
▁전수 -12591
▁ㅎㅜㅁ -12592
▁메릴랜드 -12593
▁ㅅㅏㅇㅎㅐ -12594
▁과테 -12595
▁라카 -12596
▁성악 -12597
▁증오 -12598
▁ㅁㅜㄹ -12599
▁베이커 -12600
▁과테말라 -12601
▁능동 -12602
▁시비 -12603
▁해치 -12604
▁급속히 -12605
▁배역 -12606
▁오아 -12607
▁전세 -12608
▁점거 -12609
▁퍼즐 -12610
▁하의 -12611
▁각료 -12612
▁농지 -12613
▁밀레 -12614
▁수다 -12615
▁호아 -12616
▁320 -12617
▁경주시 -12618
▁파푸아 -12619
히드 -12620
▁국철 -12621
▁습관 -12622
▁영덕 -12623
▁일각 -12624
▁절제 -12625
▁접종 -12626
▁청계 -12627
▁ㅈㅏㄴ -12628
▁로마자 -12629
▁가고시마 -12630
▁ㅆㅏㅇㅜㄴ -12631
▁공안 -12632
▁야마모토 -12633
▁너머 -12634
웨이트 -12635
펜하겐 -12636
▁new -12637
▁발전기 -12638
▁레인저스 -12639
▁코펜하겐 -12640
▁몬테네그로 -12641
▁암스테르담 -12642
▁안무 -12643
▁저조 -12644
▁척도 -12645
▁초안 -12646
▁축전 -12647
▁카세 -12648
▁베르나르 -12649
바오 -12650
▁박성 -12651
▁외과 -12652
▁정령 -12653
▁ㄴㅓㄴ -12654
▁대명사 -12655
▁우의정 -12656
ㄷㅡㄹㅇㅓ -12657
▁노후 -12658
▁데드 -12659
▁받들 -12660
▁생리 -12661
▁컨설 -12662
▁타리 -12663
▁뛰어들 -12664
▁사이먼 -12665
걸이 -12666
게임 -12667
▁고온 -12668
▁넥센 -12669
▁우연 -12670
▁이항 -12671
▁지난 -12672
▁헌장 -12673
▁복음주의 -12674
▁ㅈㅜㄹㅇㅓ -12675
ㅇㅣㄹㅇㅡㅋ -12676
▁ㅇㅏㅆㅇㅓㅆ -12677
▁ㅂㅜㄹㄹㅓㅇㅣㄹㅇㅡㅋ -12678
▁TR -12679
▁바울 -12680
▁우왕 -12681
▁이메 -12682
▁잔인 -12683
▁치하 -12684
▁요충지 -12685
▁지붕돌 -12686
▁산티아고 -12687
▁프란시스코 -12688
▁ㅊㅣㄹㅓㅈㅕㅆ -12689
웍스 -12690
▁거처 -12691
▁수량 -12692
▁장병 -12693
▁정몽 -12694
▁종신 -12695
▁출동 -12696
▁치유 -12697
▁편향 -12698
▁ㅍㅣㅎㅏㄹ -12699
▁에스페란토 -12700
▁후쿠오카현 -12701
▁복종 -12702
▁피우 -12703
▁ㄴㅜㄴ -12704
▁이바지 -12705
▁코스타리카 -12706
▁늪 -12707
독립 -12708
▁DF -12709
▁배드 -12710
▁세련 -12711
▁양대 -12712
ㄲㅡㅁ -12713
19 -12714
▁뭉 -12715
▁성산 -12716
▁소아 -12717
▁주심 -12718
▁ㄱㅔㄲㅡㅁ -12719
ㅏㄹㅗㅇㅜㄴ -12720
LA -12721
les -12722
▁꾀하 -12723
▁다우 -12724
▁브릿 -12725
▁자진 -12726
▁자서전 -12727
▁마이크로 -12728
ㅁㅗ -12729
▁도상 -12730
▁상국 -12731
▁서스 -12732
▁서주 -12733
▁영월 -12734
▁ㄹㅓㄴ -12735
▁ㅇㅓㅄㅇ -12736
▁루이지애나 -12737
▁김선 -12738
▁조영 -12739
▁차선 -12740
▁충렬 -12741
▁피핀 -12742
▁서바이 -12743
▁신주쿠 -12744
▁좌의정 -12745
▁화장품 -12746
디나비아 -12747
▁스칸디나비아 -12748
gr -12749
어넣 -12750
▁대도 -12751
▁사비 -12752
▁위촉 -12753
▁이아 -12754
▁그만큼 -12755
▁위안부 -12756
▁주계열 -12757
▁놈 -12758
▁네티 -12759
▁샤프 -12760
▁슈테 -12761
▁톰슨 -12762
▁페더 -12763
▁end -12764
▁수요일 -12765
▁요하네스 -12766
▁쿠웨이트 -12767
▁ㄷㅡㄹㅣㅁ -12768
▁ㅊㅟㅎㅏㄴ -12769
▁ㅂㅗㅇㅕㅈㅜㄴ -12770
ung -12771
▁천마 -12772
▁헌터 -12773
ㅈㅜㄹ -12774
▁포르노 -12775
퍼레이션 -12776
▁이탈리아어 -12777
▁슌 -12778
▁은신 -12779
▁철강 -12780
▁동맹국 -12781
▁ㅇㅟㅎㅏㅁ -12782
▁ㄲㅡㅌㄴㅏㄹ -12783
꼬리 -12784
▁소대 -12785
▁순차 -12786
▁자재 -12787
▁청도 -12788
▁추서 -12789
▁거지 -12790
▁리코 -12791
▁축산 -12792
▁"() -12793
▁결과물 -12794
▁텔레콤 -12795
▁가면라이더 -12796
▁ㅎㅡㅌㅇㅓㅈㅕ -12797
익스 -12798
▁NP -12799
▁정재 -12800
▁타일 -12801
토리코 -12802
▁도자기 -12803
▁에른스트 -12804
▁le -12805
▁모차 -12806
▁영암 -12807
▁직행 -12808
▁김옥균 -12809
▁서해안 -12810
▁맬 -12811
▁결핵 -12812
▁고이 -12813
▁온대 -12814
▁타로 -12815
▁피크 -12816
▁해왕 -12817
라이드 -12818
▁ㄷㅏㅇㅎㅏㄹ -12819
▁김승 -12820
▁대청 -12821
▁전락 -12822
▁카툰 -12823
▁하타 -12824
▁브뤼셀 -12825
▁시트콤 -12826
▁ㅅㅐㄱㅣㄴ -12827
▁갯 -12828
▁촐 -12829
▁고집 -12830
▁대덕 -12831
▁문무 -12832
▁주성 -12833
▁충무 -12834
▁부르고 -12835
ㅈㅕㅅㅓ -12836
▁Comp -12837
ㄴㅏㄱㅏㅆ -12838
▁육군사관학교 -12839
OW -12840
▁톡 -12841
공주 -12842
레드 -12843
우에 -12844
▁노아 -12845
▁배양 -12846
▁함흥 -12847
▁후유 -12848
▁교육자 -12849
▁철저히 -12850
▁게오르크 -12851
▁니콜라스 -12852
▁긴밀 -12853
▁리튬 -12854
▁문종 -12855
▁압록 -12856
▁전학 -12857
▁준장 -12858
▁칭송 -12859
▁탈취 -12860
▁203 -12861
▁데이브 -12862
▁유적지 -12863
▁컬렉션 -12864
▁트리오 -12865
▁colspan -12866
니파 -12867
▁대종 -12868
▁대차 -12869
▁차츰 -12870
▁첼로 -12871
▁측량 -12872
▁초콜릿 -12873
단지 -12874
▁by -12875
▁레프 -12876
▁바비 -12877
▁오하 -12878
▁코네 -12879
로이드 -12880
▁데일리 -12881
▁케이크 -12882
▁푸에르토리코 -12883
▁격려 -12884
▁낚시 -12885
▁박상 -12886
▁원활 -12887
▁재발 -12888
▁짐승 -12889
▁글래스 -12890
▁로스쿨 -12891
▁도카이도 -12892
▁ㄴㅗㅍㅇㅕㅆ -12893
▁기쁨 -12894
▁스킴 -12895
▁아흐 -12896
▁앤디 -12897
▁집착 -12898
▁기업가 -12899
▁1893 -12900
▁ㅁㅏㄴㄴㅏㄴㄷㅏ -12901
셀러 -12902
업자 -12903
gin -12904
▁Fe -12905
▁공양 -12906
▁미성 -12907
▁페오 -12908
▁폐렴 -12909
▁한큐 -12910
▁280 -12911
▁장로교 -12912
▁지리학 -12913
▁ㄴㅗㅍㅇㅕ -12914
▁ㅇㅓㅆㅇㅓㅆ -12915
상시 -12916
eth -12917
▁내무 -12918
▁온화 -12919
▁헤로 -12920
▁흡사 -12921
▁흥분 -12922
▁ㅈㅓㅇㅎㅐㅆ -12923
▁도우 -12924
▁백악 -12925
▁조니 -12926
▁하급 -12927
▁막판 -12928
▁선인 -12929
▁심포 -12930
▁학장 -12931
▁아라곤 -12932
▁윗부분 -12933
▁펠릭스 -12934
▁플랑크 -12935
▁해안가 -12936
▁플로리다주 -12937
▁ㅇㅕㄴㅎㅏㄴ -12938
▁갚 -12939
▁혀 -12940
▁관성 -12941
▁김치 -12942
▁조제 -12943
▁ㅇㅕㅅ -12944
▁생리학 -12945
▁접어들 -12946
▁지바현 -12947
▁ㄴㅏㅌㅏㄴㅏㄹ -12948
세유 -12949
▁영천 -12950
▁월트 -12951
▁천천 -12952
▁IOC -12953
▁어웨이 -12954
IR -12955
▁과시 -12956
▁도출 -12957
▁스포르 -12958
▁천안시 -12959
▁가르시아 -12960
ㅂㅘ -12961
티에 -12962
▁AB -12963
▁금동 -12964
▁반동 -12965
▁아와 -12966
▁우두 -12967
▁유족 -12968
ㅅㅓㄹ -12969
▁도야마 -12970
▁ㄱㅏㅎㅐㅆ -12971
몬트 -12972
바리 -12973
▁도이 -12974
▁주세 -12975
▁침례 -12976
▁TBS -12977
▁노미야 -12978
▁민병대 -12979
▁비스타 -12980
▁함경북도 -12981
▁ㅂㅜㄷㅣㅈ -12982
▁핼 -12983
▁관우 -12984
▁입헌 -12985
▁칼슘 -12986
루이스 -12987
▁논리학 -12988
▁유학자 -12989
▁프리스 -12990
▁Univers -12991
▁ㅇㅘㅆㅇㅡㄴㅏ -12992
북구 -12993
▁에로 -12994
▁점검 -12995
ㅃㅡㄴ -12996
▁천천히 -12997
▁Rock -12998
▁핏 -12999
▁까마 -13000
▁림프 -13001
▁마트 -13002
▁숨기 -13003
▁심부 -13004
▁제철 -13005
▁조롱 -13006
▁특기 -13007
▁탄자니아 -13008
계승 -13009
▁발목 -13010
▁심상 -13011
▁애인 -13012
▁유영 -13013
▁한문 -13014
▁Rec -13015
▁국제선 -13016
▁로베르 -13017
▁지켜보 -13018
▁ㄴㅏㄹㅋ -13019
▁부르고뉴 -13020
들러 -13021
▁간직 -13022
▁버러 -13023
▁소동 -13024
▁아츠 -13025
▁유포 -13026
▁이황 -13027
▁서초구 -13028
▁픽처스 -13029
▁과잉 -13030
▁위즈 -13031
▁전미 -13032
▁Sup -13033
▁게오르 -13034
▁발사체 -13035
▁사상가 -13036
익스피어 -13037
▁ㄷㅏㅅㅡㄹㅕㅆ -13038
▁가부 -13039
▁귀속 -13040
▁공방전 -13041
▁동맹군 -13042
▁셰익스피어 -13043
oth -13044
▁겹치 -13045
▁상정 -13046
▁소사 -13047
▁우울증 -13048
▁하이퍼 -13049
▁ㅅㅡㄹㅓㄴ -13050
▁ㄱㅟ -13051
▁대주 -13052
▁마타 -13053
▁버섯 -13054
▁심문 -13055
▁용품 -13056
▁중고 -13057
▁녹색당 -13058
▁조선왕 -13059
▁미나모토 -13060
▁참모총장 -13061
▁Su -13062
▁라흐 -13063
▁세레 -13064
▁톱니 -13065
▁휴양 -13066
▁고려사 -13067
▁더블린 -13068
▁인플레이션 -13069
▁펫 -13070
▁공법 -13071
▁구금 -13072
▁구독 -13073
▁구치 -13074
▁미츠 -13075
▁위계 -13076
▁재차 -13077
▁특사 -13078
▁순양함 -13079
▁가와사키 -13080
국적 -13081
▁명인 -13082
▁쇠고기 -13083
▁인공위성 -13084
▁IV -13085
▁견고 -13086
▁김천 -13087
▁무단 -13088
▁한번 -13089
▁서포터 -13090
▁수나라 -13091
▁카운트 -13092
ㅗㄴㅡㄴ -13093
▁중앙은행 -13094
▁ㅅㅏㄹㅍㅕ -13095
▁ㄷㅗㄹㅗㄴㅡㄴ -13096
태평 -13097
▁강성 -13098
▁배리 -13099
▁청량 -13100
▁황산 -13101
민스터 -13102
▁도르트 -13103
▁어긋나 -13104
▁찾아내 -13105
▁ㅂㅏㄺㅎㅕㅈㅣㄴ -13106
▁당뇨 -13107
▁명부 -13108
▁불경 -13109
▁아메 -13110
▁악곡 -13111
▁에바 -13112
▁웃음 -13113
▁자립 -13114
▁장녀 -13115
▁파편 -13116
▁강화도 -13117
▁절도사 -13118
▁ㅁㅐㄲㅡㄹㅓㅇㅜㄴ -13119
▁고스 -13120
▁메틸 -13121
▁스투 -13122
▁이우 -13123
▁경계선 -13124
▁성매매 -13125
▁데스크톱 -13126
폭탄 -13127
mer -13128
▁물결 -13129
▁시속 -13130
▁에마 -13131
▁이바라 -13132
▁평안도 -13133
▁헤라클 -13134
▁ㅂㅗㄴㅐㄹ -13135
▁ㅈㅓㅈㅣㄹ -13136
▁미아 -13137
▁슈타 -13138
▁슬램 -13139
▁조현 -13140
▁직계 -13141
▁풍습 -13142
▁현판 -13143
로니아 -13144
▁스탠드 -13145
▁차세대 -13146
▁ㅊㅟㅎㅐ -13147
▁박테리아 -13148
▁ㄱㅏㅈㅕㄷㅏ -13149
▁노랑 -13150
▁대접 -13151
▁연회 -13152
▁제창 -13153
▁230 -13154
▁GNU -13155
▁율리우스 -13156
그마 -13157
▁CG -13158
▁나뭇 -13159
▁노프 -13160
▁원유 -13161
▁주먹 -13162
▁USB -13163
▁산스크 -13164
▁러시아군 -13165
▁산스크리트 -13166
▁Do -13167
▁무르 -13168
▁살라 -13169
▁축성 -13170
▁코호 -13171
▁피사 -13172
▁다이빙 -13173
▁1892 -13174
▁상관없이 -13175
▁펩 -13176
비안 -13177
유사 -13178
▁코사 -13179
▁베르타 -13180
▁마르세유 -13181
▁프레임워크 -13182
연수 -13183
자동 -13184
트르 -13185
▁견디 -13186
▁공시 -13187
▁데미 -13188
▁라드 -13189
▁소용 -13190
▁옥타 -13191
▁이범 -13192
▁Car -13193
▁스탠리 -13194
▁1888 -13195
▁ㄲㅡㅌㄴㅐㅆ -13196
▁ㄷㅏㄷㅎㅣㄴ -13197
▁뮐 -13198
네임 -13199
헤드 -13200
▁면모 -13201
▁사변 -13202
▁이은 -13203
비크 -13204
▁발자 -13205
▁산수 -13206
▁유무 -13207
▁자코 -13208
▁장래 -13209
▁재앙 -13210
▁합하 -13211
▁향기 -13212
▁아브라 -13213
▁리차 -13214
▁불사 -13215
▁시우 -13216
▁울릉 -13217
▁형용 -13218
▁ㄷㅗㅇ -13219
▁금나라 -13220
▁로이드 -13221
ublic -13222
▁ㄷㅜㄹㄹㅓㅆㅏㅇㅣㄴ -13223
▁계량 -13224
▁과연 -13225
▁닉슨 -13226
▁불계승 -13227
▁서기관 -13228
▁세비야 -13229
▁수차례 -13230
▁케이트 -13231
▁from -13232
▁ㄷㅏㅁㅕㄴㅅㅓ -13233
▁ㄷㅓㅅㅂㅜㅌㅇㅕㅆ -13234
ah -13235
▁푹 -13236
▁Sw -13237
▁강진 -13238
▁계보 -13239
▁라즈 -13240
▁애초 -13241
▁에반 -13242
▁하임 -13243
미디어 -13244
▁관현악 -13245
▁세네갈 -13246
▁허드슨 -13247
▁ㄱㅓㅅㅔ -13248
▁미식 -13249
▁사키 -13250
▁어의 -13251
▁펠트 -13252
▁문자열 -13253
▁펠리페 -13254
▁대중교통 -13255
▁볼티모어 -13256
▁덱 -13257
쓰기 -13258
연의 -13259
▁ar -13260
▁동종 -13261
▁반주 -13262
▁배기 -13263
▁카야 -13264
▁퇴위 -13265
▁로빈슨 -13266
▁ㄷㅡㄹㅇㅓㅅㅓㅆ -13267
▁ㅂㅓㅅㅇㅓㄴㅏㄴ -13268
둘기 -13269
▁감싸 -13270
▁거룩 -13271
▁모던 -13272
▁수력 -13273
▁순례 -13274
▁터지 -13275
▁ㄸㅓㄴㅏㄴㄷㅏ -13276
▁사커 -13277
▁이봉 -13278
▁소학교 -13279
▁유전학 -13280
▁좌표계 -13281
보리 -13282
티노 -13283
▁농축 -13284
▁변종 -13285
▁이나 -13286
▁포츠 -13287
▁대공국 -13288
▁활동가 -13289
▁ㅈㅓㅂㅎㅐ -13290
ron -13291
▁머니 -13292
▁복싱 -13293
▁청송 -13294
▁애덤스 -13295
▁조승우 -13296
▁ㅂㅏㄹㄹㅏ -13297
AE -13298
철수 -13299
코르 -13300
홍색 -13301
▁대금 -13302
▁불러 -13303
▁붕어 -13304
▁페스 -13305
▁ㄱㅏㅌ -13306
▁해결책 -13307
▁1876 -13308
사태 -13309
▁납부 -13310
▁맥아 -13311
▁메스 -13312
▁시문 -13313
▁이산 -13314
▁펀드 -13315
▁게시판 -13316
▁고려대 -13317
▁볼로냐 -13318
▁참의원 -13319
▁후원자 -13320
DA -13321
▁뱃 -13322
▁서예 -13323
▁재결 -13324
▁우에스기 -13325
▁프린스턴 -13326
▁알렉산드로스 -13327
▁당황 -13328
▁선양 -13329
▁아디 -13330
▁약점 -13331
▁카레 -13332
▁토이 -13333
▁다카라 -13334
▁대전차 -13335
▁레이디 -13336
▁보좌관 -13337
▁아무리 -13338
▁펭 -13339
네트 -13340
라호 -13341
▁co -13342
▁박수 -13343
▁부류 -13344
▁해병 -13345
▁주니치 -13346
로쿠 -13347
▁군데 -13348
▁너스 -13349
▁니켈 -13350
▁도제 -13351
▁새뮤 -13352
▁채색 -13353
ㅂㅎㅏㄴ -13354
▁두려 -13355
▁사간원 -13356
▁프리미엄 -13357
▁ㅇㅡㄹㅕㄴㅡㄴ -13358
▁노스캐롤라이나 -13359
뮬러 -13360
큐어 -13361
▁구문 -13362
▁군관 -13363
▁낙양 -13364
▁본체 -13365
▁스모 -13366
▁임계 -13367
▁죄수 -13368
▁파파 -13369
▁브래드 -13370
▁사절단 -13371
▁나름 -13372
▁두드 -13373
▁레버 -13374
▁미미 -13375
▁부양 -13376
▁Gre -13377
▁바이어 -13378
▁이즈미 -13379
ational -13380
▁웨스트민스터 -13381
광성 -13382
▁도하 -13383
▁라시 -13384
▁물류 -13385
▁중일 -13386
▁통폐 -13387
▁필하 -13388
▁교구장 -13389
▁민영화 -13390
▁북조선 -13391
▁올리버 -13392
▁용의자 -13393
▁장난감 -13394
▁토트넘 -13395
▁1866 -13396
암리 -13397
▁ML -13398
▁댓글 -13399
▁도약 -13400
▁마구 -13401
▁바시 -13402
▁박자 -13403
▁수하 -13404
▁신진 -13405
▁에리 -13406
▁ㅊㅜㄹ -13407
▁사단장 -13408
▁집행유예 -13409
▁경무 -13410
▁긴키 -13411
▁깃털 -13412
▁백자 -13413
▁유능 -13414
▁앤서니 -13415
▁ㅎㅜㅎㅏㄴ -13416
분열 -13417
▁SH -13418
▁구르 -13419
▁송환 -13420
▁이호 -13421
▁전권 -13422
▁중개 -13423
리카락 -13424
른베르크 -13425
▁1886 -13426
▁ㅇㅕㄷㅗ -13427
▁ㅋㅓㅅㅓ -13428
▁머리카락 -13429
▁SV -13430
▁마린 -13431
▁알폰 -13432
▁애슬 -13433
▁오메 -13434
▁제르 -13435
▁조개 -13436
▁초전 -13437
▁간사이 -13438
▁스테판 -13439
▁장제스 -13440
▁wh -13441
▁사내 -13442
▁실각 -13443
▁익명 -13444
▁베이비 -13445
▁구스타프 -13446
▁브리티시 -13447
▁두각 -13448
▁산청 -13449
▁습득 -13450
▁여건 -13451
▁유머 -13452
▁일진 -13453
▁260 -13454
▁이어주 -13455
▁전주시 -13456
▁ㅁㅗㄹㄹㅏㅆ -13457
ble -13458
▁간혹 -13459
▁광선 -13460
▁레트 -13461
▁앨리 -13462
▁오지 -13463
▁바람직 -13464
▁코소보 -13465
▁페미니 -13466
▁Tour -13467
▁ㅍㅓㅈㅕㅆ -13468
슈타 -13469
우회 -13470
▁로브 -13471
▁모라 -13472
▁생모 -13473
▁손녀 -13474
▁유다 -13475
▁작중 -13476
▁저우 -13477
▁조소 -13478
▁경영학 -13479
▁독립군 -13480
▁조나라 -13481
▁프란치스코 -13482
EST -13483
▁원상 -13484
르타뉴 -13485
▁갑작스 -13486
▁브르타뉴 -13487
▁페르난도 -13488
▁베이시스트 -13489
▁ㄴㅐㄹㅣㄴㄷㅏ -13490
꿈치 -13491
▁무수 -13492
▁아자 -13493
▁요괴 -13494
▁천지 -13495
▁프루 -13496
▁270 -13497
▁구획 -13498
▁발의 -13499
▁산물 -13500
▁완도 -13501
▁촛불 -13502
▁출혈 -13503
▁쿼크 -13504
▁행방 -13505
land -13506
▁스테이 -13507
▁스테인 -13508
짜기 -13509
▁마티 -13510
▁엘런 -13511
▁차수 -13512
▁펠로 -13513
▁포탄 -13514
▁보안법 -13515
▁통폐합 -13516
▁돌아다니 -13517
레시 -13518
▁KB -13519
▁번갈 -13520
▁파커 -13521
▁삼각주 -13522
▁역사학 -13523
▁1887 -13524
▁베네딕토 -13525
▁ㅎㅐㄴㅐㅆ -13526
너드 -13527
하임 -13528
▁덩어리 -13529
▁장애물 -13530
▁1861 -13531
▁ㄱㅣㅎㅐ -13532
▁대한항공 -13533
▁배척 -13534
▁빅뱅 -13535
▁세분 -13536
▁타구 -13537
▁현과 -13538
▁Wii -13539
▁모나코 -13540
▁바로크 -13541
▁도미니카 -13542
▁모차르트 -13543
▁Dream -13544
▁삼국지연의 -13545
▁마나 -13546
▁성기 -13547
▁위시 -13548
▁사쓰마 -13549
▁축구팀 -13550
▁코스트 -13551
▁재단법인 -13552
▁뭐 -13553
▁여타 -13554
▁지아 -13555
▁근거지 -13556
▁새뮤얼 -13557
ition -13558
▁가로지르 -13559
▁프로모션 -13560
AI -13561
▁동창 -13562
▁외환 -13563
▁지면 -13564
▁포화 -13565
▁합천 -13566
▁홍성 -13567
▁강서구 -13568
▁부분군 -13569
▁홈경기 -13570
▁1850 -13571
▁Life -13572
클라 -13573
ult -13574
▁강세 -13575
▁경매 -13576
▁내포 -13577
▁오일 -13578
▁생성물 -13579
▁화요일 -13580
▁유니버스 -13581
▁비지 -13582
▁올레 -13583
▁자판 -13584
▁공연장 -13585
▁해석학 -13586
▁마르쿠스 -13587
▁카르타고 -13588
▁RT -13589
▁it -13590
▁무자 -13591
▁완결 -13592
브리드 -13593
▁개정안 -13594
▁컨텐츠 -13595
▁드미트리 -13596
▁ㅇㅕㄹㄹㅕ -13597
orm -13598
▁Up -13599
▁가닥 -13600
▁놓이 -13601
▁도성 -13602
▁세무 -13603
▁오대 -13604
▁음주 -13605
▁정예 -13606
▁피닉스 -13607
▁ㄱㅏㄹㄹㅏㅈㅕ -13608
▁렙 -13609
코타 -13610
▁AG -13611
▁남조 -13612
▁모국 -13613
▁복위 -13614
▁증세 -13615
▁직사 -13616
▁홀딩 -13617
▁당선자 -13618
▁요금소 -13619
린트 -13620
즐리 -13621
▁TC -13622
▁배트 -13623
▁오산 -13624
▁접합 -13625
▁뛰어넘 -13626
▁보너스 -13627
▁센다이 -13628
▁집정관 -13629
니오 -13630
▁저축 -13631
▁토목 -13632
▁편안 -13633
▁표절 -13634
스코트 -13635
▁보살상 -13636
▁선제골 -13637
제비 -13638
▁급히 -13639
▁모닝 -13640
▁몰두 -13641
▁이별 -13642
▁자궁 -13643
라호마 -13644
▁아카이 -13645
▁낭만주의 -13646
▁오클라호마 -13647
▁에두 -13648
▁자릿 -13649
▁환관 -13650
▁노동력 -13651
▁프랑코 -13652
아메리카 -13653
▁하이브리드 -13654
▁댈 -13655
동자 -13656
직경 -13657
▁앵커 -13658
▁유타 -13659
▁ㅅㅗㄴ -13660
▁가해자 -13661
▁ㅍㅕㅇㅎㅐㅆ -13662
▁Ed -13663
▁경건 -13664
▁고창 -13665
▁버크 -13666
▁위패 -13667
▁이누 -13668
▁시직경 -13669
▁신세계 -13670
▁클레멘스 -13671
라르 -13672
▁기밀 -13673
▁다행 -13674
▁삭스 -13675
▁필연 -13676
▁히토 -13677
▁가라앉 -13678
▁헤라클레스 -13679
▁ㄷㅏㄹㄹㅏㅈㅣㄴㄷㅏ -13680
왕후 -13681
▁교지 -13682
▁패권 -13683
솔리니 -13684
▁스트리밍 -13685
▁오스트리 -13686
▁ㄱㅏㅈㅊㅝ -13687
▁ㅂㅐㅇㅜㄴ -13688
▁관내 -13689
▁동차 -13690
▁만점 -13691
▁말단 -13692
▁왕관 -13693
▁워킹 -13694
▁단거리 -13695
▁1864 -13696
▁Open -13697
콘신 -13698
▁"- -13699
▁ㄴㅛ -13700
▁암모 -13701
▁애완 -13702
▁1830 -13703
▁석가모니 -13704
▁위스콘신 -13705
▁ㅇㅣㄴㅎㅐㅅㅓ -13706
▁돗 -13707
열차 -13708
▁예의 -13709
▁파직 -13710
▁음악원 -13711
▁재판부 -13712
▁도라에몽 -13713
▁여호 -13714
▁전교 -13715
▁백악기 -13716
▁카이로 -13717
EP -13718
예술 -13719
타입 -13720
ton -13721
▁공판 -13722
▁광업 -13723
▁대강 -13724
▁뒤늦 -13725
▁리트 -13726
▁양현 -13727
▁혼혈 -13728
▁후세인 -13729
▁마을버스 -13730
▁컴파일러 -13731
▁도르트문트 -13732
진우 -13733
▁en -13734
▁가독 -13735
▁관용 -13736
▁근래 -13737
▁매달 -13738
▁스몰 -13739
▁평탄 -13740
▁허블 -13741
▁감리교 -13742
라이어티 -13743
▁미네소타 -13744
▁ㄴㅏㄴㅜㄴ -13745
▁버라이어티 -13746
디슨 -13747
▁발톱 -13748
▁승단 -13749
▁잔디 -13750
▁장전 -13751
▁카와 -13752
▁네티즌 -13753
▁데이빗 -13754
▁크리에이 -13755
▁다카라즈카 -13756
▁마요 -13757
▁방공 -13758
▁쓰루 -13759
▁재벌 -13760
▁홈즈 -13761
▁사나이 -13762
▁황해도 -13763
▁아이디얼 -13764
▁이시카와 -13765
▁ㅁㅏㄴㄴㅏㄹ -13766
▁배아 -13767
▁불분 -13768
▁수이 -13769
▁아편 -13770
▁정황 -13771
▁추존 -13772
▁현미 -13773
▁흘리 -13774
▁격투기 -13775
▁관련자 -13776
▁재판관 -13777
해살이풀 -13778
▁백업 -13779
▁하얀 -13780
▁주나라 -13781
▁ㄱㅕㄴㄷ -13782
달마 -13783
클럽 -13784
▁매스 -13785
▁매진 -13786
▁민물 -13787
▁스기 -13788
▁푸아 -13789
바도르 -13790
▁ㅅㅓㄲㅇㅕ -13791
▁깁 -13792
▁캣 -13793
▁an -13794
▁등등 -13795
▁뷰티 -13796
▁스윙 -13797
▁조경 -13798
▁라치오 -13799
▁로맨틱 -13800
▁유전체 -13801
▁1881 -13802
ION -13803
ave -13804
▁선율 -13805
▁황자 -13806
▁난이도 -13807
▁남베트남 -13808
두르 -13809
▁객원 -13810
▁러닝 -13811
▁벌레 -13812
▁소라 -13813
▁승하 -13814
▁양조 -13815
▁응하 -13816
▁청문 -13817
▁침대 -13818
▁헌납 -13819
▁iOS -13820
▁두려워하 -13821
▁트레이닝 -13822
께끼 -13823
플린 -13824
▁Ab -13825
▁기고 -13826
▁까마귀 -13827
▁수수께끼 -13828
브웨 -13829
▁다비 -13830
▁보정 -13831
▁알맞 -13832
▁야망 -13833
▁잠실 -13834
▁전리 -13835
▁코난 -13836
▁트란 -13837
▁무작위 -13838
▁행정동 -13839
▁피츠버그 -13840
리쿠 -13841
▁구례 -13842
▁남송 -13843
▁도산 -13844
▁목욕 -13845
▁아타 -13846
▁조심 -13847
▁캐스트 -13848
▁Music -13849
TE -13850
▁그란 -13851
▁기통 -13852
▁세간 -13853
▁왕성 -13854
▁짐바 -13855
ject -13856
▁롬바르 -13857
▁모멘트 -13858
▁반대파 -13859
▁외무부 -13860
▁1872 -13861
▁ㅇㅘㄹㅏ -13862
▁리에 -13863
▁생도 -13864
▁아이콘 -13865
▁ㄱㅏㅆㅇㅡㅁㅕ -13866
다오 -13867
▁XP -13868
▁군세 -13869
▁승지 -13870
▁오우 -13871
▁재고 -13872
▁코뮌 -13873
올로기 -13874
▁기획사 -13875
▁대표단 -13876
▁압록강 -13877
▁루스벨트 -13878
▁이데올로기 -13879
▁루나 -13880
▁별장 -13881
▁산기 -13882
▁용사 -13883
▁쿠로 -13884
▁흑백 -13885
▁농어촌 -13886
▁이메일 -13887
▁ㅁㅜㅅㅓ -13888
▁부다페스트 -13889
▁레비 -13890
▁발포 -13891
▁베일 -13892
▁부실 -13893
▁양면 -13894
▁의례 -13895
▁지경 -13896
▁여학생 -13897
▁제프리 -13898
▁합창단 -13899
▁ㅈㅣㄴㅏㄱㅏㄴㄷㅏ -13900
▁ㄴㅏㄹㅋㅏㄹㅗㅇㅜㄴ -13901
▁닌자 -13902
▁반죽 -13903
▁복직 -13904
▁캐피 -13905
▁콘티 -13906
▁통지 -13907
▁750 -13908
ㄱㅅㅡㄹ -13909
▁훔 -13910
나파 -13911
덕왕 -13912
렌스 -13913
리드 -13914
▁BL -13915
▁김희 -13916
▁미상 -13917
▁부전 -13918
▁어촌 -13919
▁토로 -13920
▁투하 -13921
▁판관 -13922
▁화성시 -13923
▁쵸 -13924
▁킷 -13925
ics -13926
▁if -13927
▁국호 -13928
▁불타 -13929
▁삼척 -13930
▁종업 -13931
ㅍㅡㄴ -13932
▁대교구 -13933
▁파충류 -13934
▁부르주아 -13935
▁세계유산 -13936
▁ㄷㅜㄹㄹㅓ -13937
▁교제 -13938
▁극찬 -13939
▁리브 -13940
▁메츠 -13941
▁원동 -13942
▁직관 -13943
▁태우 -13944
▁파기 -13945
리아스 -13946
▁라이스 -13947
쿠니 -13948
▁곡면 -13949
▁곱셈 -13950
▁이례 -13951
▁파주 -13952
▁노르드 -13953
▁범죄자 -13954
▁ㅋㅔㅇㅣ -13955
▁ㅇㅏㅍㅅㅓㄴ -13956
뛰기 -13957
성경 -13958
▁경도 -13959
▁닛산 -13960
▁상파 -13961
▁시원 -13962
▁신봉 -13963
▁ㅂㅔㄹ -13964
▁마르셀 -13965
▁1863 -13966
▁무솔리니 -13967
▁ㄱㅏㅌㅇㅣ -13968
▁ㅁㅣㅊㅣㄹ -13969
▁당과 -13970
▁샤이 -13971
▁진흙 -13972
▁탄산 -13973
▁다시금 -13974
▁도망치 -13975
▁밀가루 -13976
▁HTML -13977
▁ㅊㅏㄱㅏ -13978
▁ㄷㅡㄹㅓㄴㅏ -13979
▁ㅃㅗㅂㅎㅕㅆ -13980
화경 -13981
ier -13982
▁Sm -13983
▁가곡 -13984
▁경량 -13985
▁괘불 -13986
▁꼬마 -13987
▁내재 -13988
▁발산 -13989
▁북벌 -13990
▁이니 -13991
▁정명 -13992
▁파열 -13993
변속기 -13994
▁다비드 -13995
▁슬로건 -13996
ool -13997
▁금고 -13998
▁배향 -13999
▁익산 -14000
▁중랑 -14001
▁취향 -14002
▁친밀 -14003
부아르 -14004
▁승용차 -14005
▁화학자 -14006
루크 -14007
림사 -14008
▁순항 -14009
ㅈㅏㄱㅅㅡㄹ -14010
▁가든 -14011
▁가비 -14012
▁주고 -14013
▁해킹 -14014
태평양 -14015
▁개체군 -14016
▁무로마치 -14017
QL -14018
▁고모 -14019
▁나탈 -14020
▁브렌 -14021
▁계승자 -14022
▁ㅁㅜㄷㅎㅕ -14023
평리 -14024
▁AL -14025
▁병단 -14026
▁살짝 -14027
▁인위 -14028
▁종묘 -14029
ㅗㅈㅏ -14030
▁Don -14031
▁참가국 -14032
▁취리히 -14033
▁코호몰로지 -14034
ru -14035
▁엡 -14036
▁단국 -14037
▁레아 -14038
▁엄청 -14039
▁인제 -14040
▁켄터 -14041
▁탐정 -14042
▁호크스 -14043
▁ㅈㅜㄱㅇㅕ -14044
▁te -14045
▁계좌 -14046
▁납작 -14047
▁당진 -14048
▁의용 -14049
▁입시 -14050
슬라프 -14051
▁초록색 -14052
▁ㅂㅜㄹㅌ -14053
▁유라시아 -14054
▁ㅈㅓㄴㅎㅐㅈㅕㅆ -14055
데자 -14056
바인 -14057
워즈 -14058
▁대의 -14059
▁두어 -14060
▁루즈 -14061
▁복역 -14062
▁승상 -14063
▁불분명 -14064
▁작품상 -14065
데자네이 -14066
▁1873 -14067
▁ㄱㅚㄹㅗ -14068
▁세르게이 -14069
▁ㅅㅏㄹㅗㅈㅏ -14070
비오 -14071
che -14072
▁단조 -14073
▁덴쇼 -14074
▁섬기 -14075
▁오트 -14076
▁클릭 -14077
▁햇빛 -14078
▁타임즈 -14079
번에 -14080
어드 -14081
▁가두 -14082
▁조장 -14083
▁페인 -14084
▁공통점 -14085
▁국민회 -14086
▁1865 -14087
▁교통사고 -14088
▁ㄸㅓㄹㅇㅓㅈㅣㄴㄷㅏ -14089
▁튼 -14090
▁교동 -14091
▁매립 -14092
▁완비 -14093
▁장쑤 -14094
▁조시 -14095
▁태아 -14096
▁피카 -14097
▁ㄹㅏㅁ -14098
▁시간대 -14099
▁청년회 -14100
▁하얀색 -14101
▁ㅇㅏㄴㅣㄴㄱㅏ -14102
ise -14103
▁ㅇㅖ -14104
▁감추 -14105
▁경마 -14106
▁모란 -14107
▁위법 -14108
▁을사 -14109
▁코마 -14110
▁킹스 -14111
▁여진족 -14112
▁폼페이 -14113
▁샵 -14114
타스 -14115
ode -14116
▁서지 -14117
▁에치 -14118
▁작년 -14119
▁잡히 -14120
▁팔작 -14121
▁와이드 -14122
▁항아리 -14123
▁ㅇㅓㄺㅎ -14124
▁ㅇㅕㄹㄹㅣㄹ -14125
▁계엄 -14126
▁과다 -14127
▁도도 -14128
▁옹주 -14129
▁왓슨 -14130
▁IMF -14131
▁그나마 -14132
▁챌린저 -14133
▁탐험가 -14134
▁마스코트 -14135
▁열렬 -14136
▁외상 -14137
▁픽셀 -14138
▁경복궁 -14139
▁오카야마 -14140
▁ㄲㅡㅌㄴㅏㄴㄷㅏ -14141
▁거꾸 -14142
▁양궁 -14143
▁충당 -14144
▁페라 -14145
▁하스 -14146
▁해시 -14147
▁제너럴 -14148
▁1891 -14149
▁ㅁㅏㅌㄱㅕㅆ -14150
▁ㅇㅕㅆㅇㅡㅁㅇㅡㄹ -14151
리야 -14152
▁PM -14153
▁몸돌 -14154
▁착취 -14155
▁한창 -14156
▁허목 -14157
▁안산시 -14158
▁야쿠르트 -14159
데자네이루 -14160
▁리우데자네이루 -14161
시대 -14162
▁걸작 -14163
▁등단 -14164
▁티모 -14165
▁알아내 -14166
▁유니언 -14167
▁ㅈㅣㄴㅎㅏㄴ -14168
더지 -14169
매김 -14170
▁거스 -14171
▁구강 -14172
▁단자 -14173
▁대목 -14174
▁봉황 -14175
▁슈고 -14176
▁요즘 -14177
▁조공 -14178
▁처방 -14179
▁캐치 -14180
stem -14181
▁몰도바 -14182
▁박영효 -14183
▁Night -14184
▁ㅂㅣㅆㅏㄴ -14185
바지 -14186
▁반항 -14187
▁법전 -14188
▁세단 -14189
▁쇼크 -14190
▁다국적 -14191
▁생화학 -14192
▁제조사 -14193
▁조선소 -14194
▁크루즈 -14195
▁아비달마 -14196
▁아오모리 -14197
▁ㄷㅜㄲㅓㅇㅜㄴ -14198
▁려 -14199
▁도봉 -14200
▁루피 -14201
▁리자 -14202
▁야심 -14203
▁입술 -14204
▁합금 -14205
▁발기인 -14206
린더 -14207
미쓰 -14208
▁경지 -14209
▁라크 -14210
▁모함 -14211
▁최장 -14212
▁피셔 -14213
▁시티즌 -14214
▁지자체 -14215
▁찾아가 -14216
▁공군기지 -14217
▁ㄴㅡㄹㄹㅕ -14218
UC -14219
친왕 -14220
쿠르 -14221
▁MA -14222
▁부에 -14223
▁분경 -14224
▁산책 -14225
▁신대 -14226
▁포대 -14227
▁혈압 -14228
▁고성군 -14229
▁우간다 -14230
▁온타리오주 -14231
단위 -14232
사화 -14233
인구 -14234
▁-- -14235
▁NS -14236
▁매도 -14237
▁사드 -14238
▁적발 -14239
▁촉발 -14240
▁카슈 -14241
이스케 -14242
플렉스 -14243
▁공식전 -14244
▁세군다 -14245
▁종사자 -14246
훈장 -14247
▁버펄 -14248
▁볼넷 -14249
▁증발 -14250
▁현무 -14251
합중국 -14252
▁승정원 -14253
▁앤드류 -14254
▁자리매김 -14255
▁씻 -14256
▁맞춤 -14257
▁우마 -14258
▁철종 -14259
▁타도 -14260
▁필두 -14261
▁해부학 -14262
▁조선왕조 -14263
▁손꼽 -14264
▁주저 -14265
▁후한 -14266
▁발가락 -14267
▁켄터키 -14268
▁ㄱㅏㄹㅣㅋㅕ -14269
▁ㅇㅣㄹㅝㅈㅣ -14270
▁과격 -14271
▁란스 -14272
▁미인 -14273
▁불로 -14274
▁채굴 -14275
ㄹㅗㄱ -14276
▁650 -14277
▁제작진 -14278
▁짐바브웨 -14279
NG -14280
동맹 -14281
참찬 -14282
▁MM -14283
▁반점 -14284
▁거꾸로 -14285
레타리아 -14286
▁ㄷㅏㄹㄹㅏ -14287
▁프롤레타리아 -14288
▁마모 -14289
▁무고 -14290
▁스킬 -14291
▁증강 -14292
▁진원 -14293
▁스코어 -14294
ㅓㅇㅜㅁ -14295
▁Good -14296
▁두드러지 -14297
▁이바라키 -14298
▁베스트셀러 -14299
ai -14300
▁괜 -14301
레반 -14302
▁AI -14303
▁굴복 -14304
▁시진 -14305
▁어는 -14306
▁연행 -14307
▁체내 -14308
▁캐논 -14309
▁키즈 -14310
▁헌병 -14311
▁현도 -14312
▁Black -14313
ank -14314
▁강호 -14315
▁고마 -14316
▁라면 -14317
▁소작 -14318
▁여대 -14319
▁유태 -14320
▁헤어 -14321
ower -14322
▁ㅂㅔㄴ -14323
▁릴레이 -14324
▁연출가 -14325
상어 -14326
▁qu -14327
▁반론 -14328
▁오즈 -14329
▁자켓 -14330
▁접전 -14331
▁직교 -14332
▁ㄲㅡㄴ -14333
▁다마스 -14334
▁스테이트 -14335
▁콧 -14336
▁터빈 -14337
▁튼튼 -14338
▁파랑 -14339
▁Can -14340
▁노르만 -14341
▁종업원 -14342
▁포항시 -14343
▁삼국유사 -14344
▁사이타마현 -14345
▁샨 -14346
▁간판 -14347
▁기묘 -14348
▁네임 -14349
▁농성 -14350
▁도발 -14351
▁박진 -14352
▁용감 -14353
▁ret -14354
▁댈러스 -14355
▁백악관 -14356
▁ㅇㅏㅍㄷㅜㄴ -14357
▁국부 -14358
▁스톰 -14359
▁위헌 -14360
▁적정 -14361
ㅂㅗㄴㅐㅆ -14362
▁ㄱㅏㅂㅈㅏㄱㅅㅡㄹ -14363
고르 -14364
▁NAD -14365
▁트로트 -14366
▁미합중국 -14367
▁ㅁㅜㄹㄹㅓㄴㅏㄴ -14368
킨슨 -14369
포타 -14370
▁산신 -14371
▁조준 -14372
▁투신 -14373
▁550 -14374
▁수시로 -14375
▁테무르 -14376
70 -14377
▁믈 -14378
무제 -14379
▁El -14380
▁당당 -14381
▁대담 -14382
▁리키 -14383
▁문정 -14384
▁병과 -14385
▁열쇠 -14386
▁저해 -14387
▁횡령 -14388
▁반정부 -14389
▁자외선 -14390
▁자유형 -14391
▁ㄷㅡㄹㄹㅕ -14392
DS -14393
▁교서 -14394
▁들리 -14395
▁사교 -14396
▁신의 -14397
▁온건 -14398
▁행보 -14399
▁흡연 -14400
▁ㅁㅓㅅ -14401
▁용산구 -14402
▁이성질 -14403
▁하반기 -14404
▁1862 -14405
▁ㄱㅓㅊㅕㅅㅓ -14406
내티 -14407
려들 -14408
세다 -14409
티야 -14410
▁걸프 -14411
▁무도 -14412
▁변증 -14413
▁수퍼 -14414
▁연달 -14415
▁휩쓸 -14416
▁미카엘 -14417
▁받침돌 -14418
포타미아 -14419
▁신시내티 -14420
▁메소포타미아 -14421
▁q -14422
펠러 -14423
▁분별 -14424
▁전멸 -14425
▁티저 -14426
▁히노 -14427
▁타이탄 -14428
내리 -14429
▁Qu -14430
▁길드 -14431
▁내란 -14432
▁내역 -14433
▁사하 -14434
▁아델 -14435
▁양양 -14436
▁완수 -14437
▁장신 -14438
▁조어 -14439
▁증식 -14440
▁활자 -14441
타나베 -14442
▁Ser -14443
▁ㅋㅓㅈㅕㅆ -14444
▁ㅅㅜㅁㄱㅕㅈㅣㄴ -14445
진구 -14446
▁구슬 -14447
▁국력 -14448
▁베풀 -14449
▁서위 -14450
▁심정 -14451
▁연화 -14452
▁오보 -14453
▁이강 -14454
▁조서 -14455
▁진언 -14456
▁필명 -14457
▁김성수 -14458
▁엑스포 -14459
▁입법부 -14460
▁LS -14461
▁군자 -14462
▁북대 -14463
▁성수 -14464
▁신해 -14465
▁엘라 -14466
▁조석 -14467
▁연주회 -14468
▁플러그 -14469
루엔 -14470
▁황폐 -14471
▁언론사 -14472
▁1867 -14473
디언 -14474
▁독주 -14475
▁모반 -14476
▁온두 -14477
▁레인저 -14478
▁편집장 -14479
▁온두라스 -14480
▁ㅊㅓㅎㅏㄴ -14481
▁페르디난트 -14482
ㅈㅣㄹㅏㄷㅗ -14483
▁ㅅㅏㄹㅏㅈㅕ -14484
▁UC -14485
▁광자 -14486
▁교훈 -14487
▁임하 -14488
▁Let -14489
▁페르미 -14490
▁6000 -14491
▁팔작지붕 -14492
▁라이프치히 -14493
▁Ac -14494
▁간결 -14495
▁고찰 -14496
▁모조 -14497
▁지문 -14498
▁처장 -14499
▁푸드 -14500
세우스 -14501
▁705 -14502
▁사무국 -14503
테이 -14504
▁DR -14505
▁광배 -14506
▁서한 -14507
▁양군 -14508
드라마 -14509
선거구 -14510
▁ㅇㅓㄱ -14511
▁변광성 -14512
▁앨버트 -14513
▁증조부 -14514
▁타타르 -14515
▁ㄱㅏㄹㅡㅊㅕ -14516
정사 -14517
활약 -14518
▁AU -14519
▁나사 -14520
▁노브 -14521
▁변모 -14522
▁옥시 -14523
▁경희대 -14524
▁ㅌㅗㄹㅗㄱ -14525
▁싹 -14526
lar -14527
▁후미 -14528
ings -14529
▁ㅇㅏㅅ -14530
▁ㅍㅐㅎㅐ -14531
▁팍 -14532
센터 -14533
▁유구 -14534
▁토유 -14535
▁표출 -14536
▁MSL -14537
▁맹활약 -14538
▁손잡이 -14539
▁알폰소 -14540
▁페드로 -14541
ㄸㅡㄹㅕ -14542
▁데카르트 -14543
비언 -14544
▁예종 -14545
▁지탱 -14546
▁쿠라 -14547
▁회유 -14548
▁프로테 -14549
ㄹㄹㅣㄹ -14550
▁백과사전 -14551
▁이노우에 -14552
▁section -14553
▁궐 -14554
▁객실 -14555
▁잔존 -14556
▁코모 -14557
▁키릴 -14558
▁ㄴㅏㄹㄹㅕ -14559
▁ㅇㅜㅁㅈㅣㄱㅇㅣㄹ -14560
다발 -14561
▁사보이 -14562
▁치료제 -14563
중추부사 -14564
▁프라이즈 -14565
▁협동조합 -14566
ta -14567
▁낡 -14568
렐라 -14569
방군 -14570
위치 -14571
젤로 -14572
▁-& -14573
▁경은 -14574
▁넘버 -14575
▁보직 -14576
▁성품 -14577
▁수당 -14578
▁청각 -14579
▁하중 -14580
▁갈라지 -14581
▁부등식 -14582
▁홀딩스 -14583
▁ㅈㅓㅈㅣㄹㅡㄴ -14584
▁상선 -14585
▁잉크 -14586
절도사 -14587
▁감염증 -14588
▁ㅂㅐㅇㅝ -14589
▁탬 -14590
자원 -14591
할린 -14592
▁당파 -14593
▁버진 -14594
▁번개 -14595
▁절약 -14596
▁체하 -14597
▁충칭 -14598
▁피처 -14599
▁기원후 -14600
▁이브스 -14601
▁일본식 -14602
▁특별법 -14603
▁ㄷㅓㄴㅈㅕㅆ -14604
▁심소 -14605
▁차림 -14606
▁헤겔 -14607
rist -14608
▁And -14609
▁무사히 -14610
▁웨이브 -14611
▁명성황후 -14612
▁ㄱㅔㄴㅈㅣ -14613
▁ㅁㅏㅈㅊㅜㄴ -14614
▁ㅈㅜㄱㅇㅣㅁ -14615
▁ㄹㅏㅁㅕㄴㅅㅓ -14616
▁ㅁㅣㅊㅣㄴㄷㅏ -14617
tr -14618
▁가극 -14619
▁논하 -14620
▁벵골 -14621
▁유망 -14622
▁스파이더 -14623
▁신한은행 -14624
▁후지와라 -14625
ee -14626
▁샴 -14627
ㅏㅇ -14628
▁Ag -14629
▁수급 -14630
▁엘레 -14631
▁지그 -14632
▁참패 -14633
▁마그네 -14634
▁봉우리 -14635
▁인지도 -14636
▁1878 -14637
▁ㅊㅕㄷㅡㄹㅇㅓ -14638
정보 -14639
▁가방 -14640
▁박원 -14641
▁용해 -14642
▁컴파일 -14643
▁국민학교 -14644
▁미나모토노 -14645
▁코퍼레이션 -14646
ky -14647
마디 -14648
▁PL -14649
▁글렌 -14650
▁동탁 -14651
▁시르 -14652
▁영미 -14653
▁중용 -14654
▁지린 -14655
▁자릿수 -14656
▁플루토 -14657
▁고등학생 -14658
▁썬 -14659
▁SO -14660
▁자행 -14661
▁정진 -14662
▁후드 -14663
가르트 -14664
▁수도회 -14665
▁ㅎㅐㅇㅎㅐㅈㅕㅆ -14666
▁교화 -14667
▁동자 -14668
▁변질 -14669
▁참수 -14670
ㅅㅏㄹ -14671
▁건륭제 -14672
▁경쟁자 -14673
▁그래도 -14674
▁연예계 -14675
▁지질학 -14676
▁비스마르크 -14677
▁아나톨리아 -14678
▁일리노이주 -14679
빌리 -14680
▁꽃잎 -14681
▁렉스 -14682
▁보류 -14683
▁서거 -14684
▁세토 -14685
▁유림 -14686
▁직물 -14687
▁피어 -14688
▁대리석 -14689
▁주고받 -14690
▁출입문 -14691
▁ㄸㅓㄴㅏㄹ -14692
▁스에 -14693
▁점진 -14694
▁추축 -14695
▁행군 -14696
플로러 -14697
▁나치오 -14698
▁신기록 -14699
▁익스플로러 -14700
▁엇 -14701
산부 -14702
▁괄호 -14703
▁국화 -14704
▁미학 -14705
▁서점 -14706
▁손님 -14707
▁충신 -14708
▁현악 -14709
▁802 -14710
▁베르나 -14711
▁외교부 -14712
▁패스트 -14713
▁스케이트 -14714
▁tr -14715
▁라다 -14716
▁용수 -14717
▁텍스 -14718
▁항생 -14719
▁사대부 -14720
▁아이젠 -14721
▁ㄴㅑㄱㅗ -14722
▁프랑스와 -14723
▁ㅅㅐㄱㅕㅆ -14724
▁급성 -14725
▁자부 -14726
▁차명 -14727
▁불가피 -14728
▁액세스 -14729
▁ㄴㅐㅅㅔㅇㅝ -14730
▁밧 -14731
누마 -14732
다스 -14733
▁무비 -14734
▁수레 -14735
▁완만 -14736
▁유화 -14737
▁축일 -14738
▁골짜기 -14739
▁뉴기니 -14740
▁요리토모 -14741
▁ㄴㅗㄹㅏㄴ -14742
북면 -14743
일치 -14744
hem -14745
▁RC -14746
▁각주 -14747
▁다목 -14748
▁모티 -14749
▁바쿠 -14750
▁솔라 -14751
▁수증 -14752
▁정박 -14753
▁지체 -14754
▁추후 -14755
▁출국 -14756
▁형주 -14757
에이고 -14758
▁영유권 -14759
▁쿠르드 -14760
▁아우구스 -14761
▁키르기스 -14762
▁ㅊㅟㅎㅏㄹ -14763
▁샌디에이고 -14764
작전 -14765
▁ㅍㅛ -14766
▁과자 -14767
▁버티 -14768
▁사부 -14769
▁습성 -14770
▁영사 -14771
▁환율 -14772
▁원자핵 -14773
▁인코딩 -14774
▁포뮬러 -14775
▁프리츠 -14776
▁공상 -14777
▁근방 -14778
▁부관 -14779
▁에트 -14780
▁옥천 -14781
▁추계 -14782
▁패킷 -14783
ㅈㅣㄹㄹㅓㅆ -14784
▁랙 -14785
대전 -14786
벤션 -14787
셔주 -14788
시게 -14789
▁고국 -14790
▁국인 -14791
▁반입 -14792
▁시역 -14793
▁콜드 -14794
▁폴라 -14795
▁여객기 -14796
BI -14797
퉁이 -14798
▁강우 -14799
▁기조 -14800
▁사소 -14801
▁육식 -14802
▁일설 -14803
▁잔해 -14804
▁처치 -14805
▁치사 -14806
▁516 -14807
▁핵분열 -14808
사우루스 -14809
▁ㅅㅐㅇㄱㅣㄹ -14810
▁ㅍㅏㄹㄹㅣㄴ -14811
▁그물 -14812
▁대타 -14813
▁아뢰 -14814
▁출세 -14815
▁패망 -14816
▁헤더 -14817
▁다가오 -14818
▁방위군 -14819
▁부여군 -14820
▁수비대 -14821
▁프라임 -14822
▁1869 -14823
▁힐베르트 -14824
▁팻 -14825
수단 -14826
▁교파 -14827
▁다량 -14828
▁매슈 -14829
▁무색 -14830
▁봉하 -14831
▁시시 -14832
▁인승 -14833
▁일선 -14834
▁절친 -14835
▁해트 -14836
시아드 -14837
▁HMS -14838
▁기동전 -14839
▁운동량 -14840
▁1840 -14841
▁글로브상 -14842
▁와타나베 -14843
▁ㅇㅣㅇㅓㅅㅓ -14844
▁이끼 -14845
▁토라 -14846
▁채권자 -14847
▁ㅈㅜㄹㅇㅣㄹ -14848
▁유니버시아드 -14849
pr -14850
날드 -14851
▁로시 -14852
▁면직 -14853
▁소피 -14854
▁오자 -14855
▁의정 -14856
▁초음 -14857
▁쿼터 -14858
▁며느리 -14859
▁바닷물 -14860
▁와세다 -14861
네르 -14862
▁닉스 -14863
▁부두 -14864
▁상식 -14865
▁상의 -14866
▁포천 -14867
뉴기니 -14868
▁업로드 -14869
▁운전자 -14870
블릿 -14871
▁목동 -14872
▁빅터 -14873
▁쌍성 -14874
▁자정 -14875
▁자처 -14876
▁저그 -14877
▁청취 -14878
▁컵스 -14879
▁마포구 -14880
▁유엔군 -14881
▁치료법 -14882
▁ㄱㅡㄹㅐㅆ -14883
▁ㅁㅓㅅㅈㅣㄴ -14884
▁ㅊㅣㅇㅎㅐㅆ -14885
▁ㄱㅓㄹㄹㅣㄴㄷㅏ -14886
▁몸체 -14887
▁벤츠 -14888
▁이목 -14889
▁퀴즈 -14890
▁토키 -14891
▁오스카 -14892
▁ㅋㅣㄹㅗ -14893
노르 -14894
▁국세 -14895
▁귀인 -14896
▁애기 -14897
▁입출 -14898
스타인 -14899
▁ㅌㅟㅇ -14900
▁예언자 -14901
▁팔꿈치 -14902
▁레지스터 -14903
▁사이언스 -14904
▁에이전트 -14905
▁ㄴㅓㅁㄱㅕㅆ -14906
곡면 -14907
ade -14908
▁개기 -14909
▁민심 -14910
▁입히 -14911
▁컴필 -14912
▁휘발 -14913
▁Mon -14914
▁강력히 -14915
▁시니어 -14916
▁Song -14917
▁매킨토시 -14918
▁ㄱㅡㄹㅓㄹ -14919
▁ㅇㅔㄱㅔㄴ -14920
▁컴필레이션 -14921
▁ㄷㅚㅂㄴㅣㄷㅏ -14922
ae -14923
▁벳 -14924
▁볶 -14925
려오 -14926
선언 -14927
▁단서 -14928
▁바인 -14929
▁베오 -14930
▁부군 -14931
▁포자 -14932
▁포탑 -14933
▁헤일 -14934
▁호그 -14935
ㅈㅏㅇ -14936
▁피의자 -14937
▁파시스트 -14938
▁ㅂㅜㄹㄹㅕ -14939
▁로드리게스 -14940
▁아나키스트 -14941
날레 -14942
조사 -14943
효소 -14944
▁디나 -14945
▁변혁 -14946
▁자취 -14947
▁텐서 -14948
크라테스 -14949
▁ㄴㅐㅅㅔㅇㅝㅆ -14950
per -14951
▁거사 -14952
▁마레 -14953
▁바보 -14954
▁신지 -14955
▁위도 -14956
▁ㅆㅓㄴ -14957
▁글러브 -14958
▁금강산 -14959
▁네이트 -14960
▁스트림 -14961
▁모자이크 -14962
▁와카야마 -14963
세르 -14964
▁겨루 -14965
▁빈민 -14966
▁숙소 -14967
▁이거 -14968
▁자질 -14969
▁캐슬 -14970
ㄱㅓㄹ -14971
ount -14972
▁목적지 -14973
탄두 -14974
▁AA -14975
▁Pe -14976
▁VS -14977
▁ㅇㅝ -14978
▁강인 -14979
▁걸음 -14980
▁몰아 -14981
▁하수 -14982
▁ㄴㅡㄹㅇㅓㄴㅏㄴ -14983
티컷 -14984
▁me -14985
▁괜찮 -14986
▁단역 -14987
▁박재 -14988
▁백조 -14989
▁블러 -14990
▁소박 -14991
▁아어 -14992
▁전단 -14993
▁천상 -14994
▁풀리 -14995
▁맥아더 -14996
▁1592 -14997
▁고등교육 -14998
▁남아시아 -14999
▁코네티컷 -15000
▁ㅂㅏㄺㅎㅕㅈㅕ -15001
▁밋 -15002
히메 -15003
▁As -15004
▁논산 -15005
▁성가 -15006
▁스택 -15007
▁실사 -15008
▁영수 -15009
▁철자 -15010
▁리차드 -15011
▁세미나 -15012
▁종착역 -15013
▁창립자 -15014
구스 -15015
▁고을 -15016
▁고제 -15017
▁직렬 -15018
암사 -15019
쳐지 -15020
ium -15021
▁Aw -15022
▁금색 -15023
▁관심사 -15024
▁테크놀 -15025
▁8000 -15026
▁병자호란 -15027
▁친선경기 -15028
ㄹㅗㅇㅜㄴ -15029
ㅇㅏㄴㅐㄴ -15030
IF -15031
▁암수 -15032
▁양파 -15033
▁의복 -15034
▁자루 -15035
▁튜브 -15036
이치로 -15037
▁보유자 -15038
▁안동시 -15039
▁장로회 -15040
▁필사본 -15041
ㄸㅏㄹㅏ -15042
▁크리스티나 -15043
▁ㅍㅕㄹㅊㅣㄴ -15044
▁ㅁㅓㅁㅜㄹㄹㅓ -15045
수염 -15046
ale -15047
▁KN -15048
▁ㅆㅢ -15049
▁규율 -15050
▁리스본 -15051
▁이랜드 -15052
▁적십자 -15053
▁히타치 -15054
▁Windows -15055
IX -15056
전선 -15057
히데 -15058
▁란트 -15059
▁슈투 -15060
▁어부 -15061
▁왜군 -15062
▁하구 -15063
▁이와테 -15064
▁코트디 -15065
▁뉘른베르크 -15066
▁ㄴㅐㄹㅕㅇㅘ -15067
▁코트디부아르 -15068
▁ㅈㅣㄴㅏㅊㅣㄴ -15069
▁펜실베이니아주 -15070
▁ㅈㅜㄴㄷㅏㄴㅡㄴ -15071
90 -15072
▁ㅌㅡ -15073
▁기행 -15074
▁다쓰 -15075
▁린다 -15076
▁성대 -15077
▁온실 -15078
▁유이 -15079
▁피살 -15080
▁KTX -15081
▁ㅊㅓㅎㅐ -15082
▁ㅁㅗㅅㅣㄴ -15083
▁외면 -15084
▁유자 -15085
▁은밀 -15086
▁과반수 -15087
▁지하역 -15088
▁Heart -15089
▁포르투갈어 -15090
▁ㄷㅗㅁㅏㅇㅊㅕㅆ -15091
보당 -15092
찬성 -15093
ata -15094
▁노현 -15095
▁동호 -15096
▁방탄 -15097
▁아다 -15098
▁악명 -15099
▁웍스 -15100
▁유골 -15101
▁임종 -15102
▁구단주 -15103
▁담당자 -15104
▁보호법 -15105
▁어도비 -15106
▁클리어 -15107
▁헤르만 -15108
▁ㄹㅏㅇㅜ -15109
테랑 -15110
▁Gl -15111
▁ab -15112
▁면담 -15113
▁병풍 -15114
▁수만 -15115
▁얼룩 -15116
▁질투 -15117
▁하라 -15118
▁ㅂㅐㄴ -15119
▁ㅉㅓㄴ -15120
▁ㄴㅣㄲㅏ -15121
▁심리학자 -15122
▁계룡 -15123
▁농가 -15124
▁능가 -15125
▁삭감 -15126
▁이카 -15127
▁준동 -15128
▁380 -15129
▁로타르 -15130
▁파주시 -15131
던트 -15132
▁뉴런 -15133
▁여포 -15134
▁의주 -15135
▁탁구 -15136
▁1875 -15137
▁그린란드 -15138
▁페널티킥 -15139
▁세인트루이스 -15140
▁ㅊㅏㄱㅏㅇㅜㄴ -15141
링겐 -15142
▁거창 -15143
▁크메르 -15144
▁형용사 -15145
▁근본번뇌 -15146
넌트 -15147
▁권익 -15148
▁김연 -15149
▁문중 -15150
▁사귀 -15151
▁서약 -15152
▁연중 -15153
▁염화 -15154
▁오구 -15155
▁위크 -15156
▁정오 -15157
▁비둘기 -15158
▁신석기 -15159
▁썩 -15160
▁니케 -15161
▁디바 -15162
▁라라 -15163
▁라프 -15164
▁문체 -15165
▁열세 -15166
▁예식 -15167
▁워스 -15168
▁잠입 -15169
▁흥원 -15170
루엔자 -15171
▁Gen -15172
▁성폭행 -15173
▁올라오 -15174
▁널 -15175
세키 -15176
욕장 -15177
▁독살 -15178
▁미지 -15179
▁비키 -15180
▁숙련 -15181
▁실상 -15182
▁율법 -15183
▁이선 -15184
▁일명 -15185
▁특공 -15186
▁한민 -15187
▁통신망 -15188
▁여우원숭이 -15189
▁ㅊㅏㅈㅇㅏㅇㅘ -15190
▁ㅎㅏㄴㄷㅏㅁㅕ -15191
son -15192
▁강습 -15193
▁결말 -15194
▁상과 -15195
▁설리 -15196
▁셔틀 -15197
▁오시 -15198
▁외척 -15199
▁원문 -15200
▁친화 -15201
▁콜린 -15202
▁키드 -15203
▁타쿠 -15204
▁페레 -15205
▁호른 -15206
▁사이즈 -15207
▁스피커 -15208
▁안창호 -15209
▁집단군 -15210
▁ㅈㅓㅇㅎㅐㅈㅕ -15211
▁기판 -15212
▁날리 -15213
▁다름 -15214
▁로니 -15215
▁막강 -15216
▁상동 -15217
▁시찰 -15218
▁아지 -15219
▁야수 -15220
▁예금 -15221
▁이심 -15222
세데스 -15223
▁개그맨 -15224
▁ㄸㅟㅇㅓㄴㅏ -15225
▁브란덴부르크 -15226
▁배당 -15227
▁불복 -15228
▁엔젤 -15229
▁원단 -15230
▁유카 -15231
▁중견 -15232
▁칸트 -15233
▁친환경 -15234
▁지장보살 -15235
▁메르세데스 -15236
▁return -15237
▁sh -15238
▁겸직 -15239
▁도적 -15240
▁발착 -15241
▁비료 -15242
▁실명 -15243
▁윤휴 -15244
▁Out -15245
▁회고록 -15246
▁ㄴㅗㄹㄹ -15247
▁영등포구 -15248
▁바빌로니아 -15249
▁절충 -15250
▁최하 -15251
레이트 -15252
▁강대국 -15253
▁몽고메리 -15254
▁엿 -15255
▁기린 -15256
▁볼록 -15257
▁아노 -15258
▁재보 -15259
▁정칙 -15260
▁징집 -15261
▁침식 -15262
▁향신 -15263
▁가환환 -15264
▁고문서 -15265
▁스케줄 -15266
▁시미즈 -15267
▁예비역 -15268
▁크라운 -15269
▁토요타 -15270
부대 -15271
알라 -15272
itt -15273
▁구루 -15274
▁몹시 -15275
▁사각 -15276
▁조비 -15277
▁키리 -15278
▁포인 -15279
▁ㅈㅣㅂ -15280
▁나리타 -15281
▁대항전 -15282
▁아세틸 -15283
▁학술지 -15284
ng -15285
기아 -15286
세서 -15287
▁다자 -15288
▁로사 -15289
▁로큰 -15290
▁선상 -15291
▁게임기 -15292
▁레스터 -15293
▁스케치 -15294
▁엑스박스 -15295
▁꽂 -15296
기즈 -15297
놀드 -15298
사유 -15299
▁TS -15300
▁방울 -15301
▁예프 -15302
▁착각 -15303
▁출품 -15304
▁AMD -15305
▁ㅌㅐㄱ -15306
▁다이쇼 -15307
▁보리스 -15308
▁클레어 -15309
▁파스칼 -15310
▁함경도 -15311
▁합성어 -15312
▁항공대 -15313
▁알프레드 -15314
▁인플루엔자 -15315
▁땀 -15316
이에 -15317
▁슬리 -15318
▁야권 -15319
▁어사 -15320
▁첩보 -15321
▁폐허 -15322
▁사무라이 -15323
▁ㄷㅏㄹㅜㄹ -15324
PA -15325
▁엣 -15326
계사 -15327
▁구시 -15328
▁최남 -15329
▁표제 -15330
▁슈타인 -15331
▁열역학 -15332
▁일부러 -15333
▁최성기 -15334
▁ㅇㅣㄱㅓㄴ -15335
더링 -15336
▁DB -15337
▁김두 -15338
▁리크 -15339
▁명상 -15340
▁애착 -15341
▁자장 -15342
ㄱㅣㅁ -15343
▁ㅅㅟㄹ -15344
▁데이트 -15345
▁로큰롤 -15346
▁ㅇㅏㅍㅈㅏㅇ -15347
▁벙 -15348
▁싯 -15349
방향 -15350
양이 -15351
▁달콤 -15352
▁바늘 -15353
▁왕래 -15354
▁부적절 -15355
▁진주시 -15356
▁컨벤션 -15357
▁ㅍㅜㄹㄹㅕㄴㅏㅆ -15358
UN -15359
▁거칠 -15360
▁생원 -15361
▁일차 -15362
▁혼잡 -15363
그래피 -15364
▁ㅆㅏㄴ -15365
▁데뷔작 -15366
▁채무자 -15367
▁테오도 -15368
▁ㅈㅏㄹㅏ -15369
ㄷㅡㄴㄷㅏ -15370
두사 -15371
르카 -15372
▁에코 -15373
▁인먼 -15374
ㅌㅡㄹ -15375
▁강희제 -15376
▁그러면 -15377
▁돌고래 -15378
▁매디슨 -15379
▁표트르 -15380
▁삐 -15381
▁극소 -15382
▁버트 -15383
▁서클 -15384
▁선체 -15385
▁순식 -15386
▁여럿 -15387
▁예멘 -15388
▁이희 -15389
▁취직 -15390
▁터너 -15391
▁맥스웰 -15392
▁파라오 -15393
▁프론트 -15394
▁안드로메다 -15395
▁격하 -15396
▁노원 -15397
▁배반 -15398
▁성행 -15399
▁이씨 -15400
▁타시 -15401
▁태안 -15402
▁ㄹㅗㄹ -15403
▁반감기 -15404
▁칭기즈 -15405
ㅓㅇㅝㅆ -15406
▁오프라인 -15407
▁ㅎㅡㄴㄷㅡㄹ -15408
몽골 -15409
IVE -15410
▁라벨 -15411
▁목장 -15412
▁용지 -15413
▁웨어 -15414
▁재화 -15415
▁집전 -15416
▁헤센 -15417
▁획기 -15418
able -15419
▁Par -15420
▁광둥성 -15421
▁쇼핑몰 -15422
▁중앙선 -15423
행파 -15424
▁결전 -15425
▁레몬 -15426
▁스펜 -15427
▁월남 -15428
▁지치 -15429
▁되풀이 -15430
▁베르트 -15431
▁송파구 -15432
▁남양주시 -15433
ㄷㅡㄹㅇㅣㄴ -15434
ody -15435
▁구타 -15436
▁메모 -15437
▁모피 -15438
▁수은 -15439
▁술라 -15440
▁장정 -15441
▁Vol -15442
▁야마다 -15443
건설 -15444
시험 -15445
▁WC -15446
▁안식 -15447
▁안중 -15448
▁의성 -15449
▁이질 -15450
▁235 -15451
▁ㄲㅣㅊㅣㄴ -15452
▁ㅊㅣㄴㅎㅏㄴ -15453
VA -15454
엽수 -15455
윽고 -15456
임새 -15457
▁KO -15458
▁기마 -15459
▁기운 -15460
▁등산 -15461
▁양극 -15462
▁영락 -15463
▁월화 -15464
▁토피 -15465
▁보조금 -15466
▁이윽고 -15467
▁장갑차 -15468
▁쇼트트랙 -15469
▁문관 -15470
▁에레 -15471
▁유충 -15472
▁찌르 -15473
▁체로 -15474
▁중앙아메리카 -15475
▁텅 -15476
니에 -15477
모음 -15478
▁가세 -15479
▁경의 -15480
▁기공 -15481
▁동거 -15482
▁모체 -15483
▁묘호 -15484
▁법규 -15485
▁생쥐 -15486
▁서안 -15487
록대부 -15488
▁DOS -15489
▁상반기 -15490
▁선거인 -15491
▁이사벨 -15492
▁통도사 -15493
▁ㄷㅗㄹㅇㅏㄱㅏㄹ -15494
▁University -15495
▁샷 -15496
▁가모 -15497
▁내림 -15498
▁보우 -15499
▁사주 -15500
▁원효 -15501
▁이홍 -15502
▁ㄹㅓㅆ -15503
▁아리랑 -15504
▁흔들리 -15505
13 -15506
우주 -15507
화당 -15508
▁나쁘 -15509
▁수마 -15510
▁자격증 -15511
▁아우구스투스 -15512
루즈 -15513
어류 -15514
은사 -15515
▁교관 -15516
▁금정 -15517
▁모사 -15518
▁무능 -15519
▁방호 -15520
▁서당 -15521
▁캐스터 -15522
▁ㅂㅕㄴㅎㅐ -15523
▁브로드웨이 -15524
▁구세 -15525
▁근세 -15526
▁로바 -15527
▁실은 -15528
▁위트 -15529
▁코로 -15530
ㅊㅏㄴ -15531
▁사할린 -15532
▁카디널 -15533
▁저널리스트 -15534
me -15535
▁탭 -15536
벌리 -15537
▁가명 -15538
▁베티 -15539
▁보그 -15540
▁세일 -15541
▁수역 -15542
▁안톤 -15543
▁열악 -15544
▁잉카 -15545
▁정언 -15546
▁젤리 -15547
▁콘스 -15548
▁키트 -15549
해방군 -15550
▁동아리 -15551
▁바나나 -15552
▁서스펜 -15553
▁슈퍼스타 -15554
▁인민해방군 -15555
▁ㅅㅣㄹㄹㅕㅆ -15556
박사 -15557
텐셜 -15558
▁구아 -15559
▁규약 -15560
▁빌드 -15561
▁시의 -15562
▁양서 -15563
▁요가 -15564
▁일간 -15565
▁출격 -15566
올리언 -15567
▁북극점 -15568
▁연속극 -15569
▁정치국 -15570
▁랠 -15571
▁대류 -15572
▁망치 -15573
▁샤르 -15574
▁패치 -15575
▁205 -15576
▁NBC -15577
▁꽃차례 -15578
▁통계청 -15579
▁ㄷㅙㅆㅇㅡㄴㅏ -15580
사와 -15581
▁동군 -15582
▁라울 -15583
▁문수 -15584
▁미트 -15585
▁박용 -15586
▁변천 -15587
▁사미 -15588
▁야코 -15589
▁염두 -15590
▁이달 -15591
▁정글 -15592
▁종가 -15593
▁확충 -15594
▁ㅁㅜㅇ -15595
▁순식간 -15596
▁콜럼버스 -15597
18 -15598
르산 -15599
anc -15600
▁경순 -15601
▁세스 -15602
▁시제 -15603
▁은폐 -15604
▁출사 -15605
▁키타 -15606
▁가이아 -15607
▁교육감 -15608
▁퍼텐셜 -15609
ㄱㅇㅣㄴ -15610
▁라이베리아 -15611
▁보컬리스트 -15612
▁IR -15613
▁병렬 -15614
▁잉여 -15615
▁자위 -15616
▁중남 -15617
▁집사 -15618
▁후루 -15619
▁가요제 -15620
▁로버츠 -15621
▁터뜨리 -15622
쿠사 -15623
▁At -15624
▁경종 -15625
▁단양 -15626
▁래리 -15627
▁볼드 -15628
▁상계 -15629
▁소양 -15630
▁실효 -15631
▁아끼 -15632
▁악당 -15633
▁안심 -15634
▁전조 -15635
▁빼앗기 -15636
스코리아 -15637
▁뉴올리언 -15638
▁ㅇㅣㄹㅜㄹ -15639
▁ㅍㅕㄹㅊㅕㅈㅕ -15640
▁ㄱㅏㅈㅕㅆㅇㅡㅁㅕ -15641
▁기미 -15642
▁나일 -15643
▁숙박 -15644
▁싱크 -15645
▁초계 -15646
▁케리 -15647
▁흔들 -15648
▁시그마 -15649
▁ㅆㅓㅆㅇㅡㅁㅕ -15650
▁맴 -15651
데기 -15652
▁가뭄 -15653
▁델리 -15654
▁석기 -15655
▁신병 -15656
▁정승 -15657
▁정에 -15658
진보당 -15659
▁대수학 -15660
▁무지개 -15661
▁비단털 -15662
▁셴 -15663
▁퀄 -15664
보라 -15665
촌리 -15666
▁균일 -15667
▁노카 -15668
▁데일 -15669
▁미첼 -15670
▁복부 -15671
▁불쾌 -15672
▁자키 -15673
▁품목 -15674
▁호로 -15675
very -15676
▁708 -15677
▁따라가 -15678
▁사학자 -15679
▁슈미트 -15680
▁아스카 -15681
▁청문회 -15682
▁ㄴㅏㅈㅊ -15683
▁비단털쥐 -15684
에쓰 -15685
연구 -15686
주크 -15687
▁AE -15688
▁베크 -15689
▁외할 -15690
▁일주 -15691
▁즐거 -15692
▁축복 -15693
▁스케일 -15694
▁콘라트 -15695
▁유가행파 -15696
▁지하철역 -15697
au -15698
▁뤄 -15699
▁군복 -15700
▁나기 -15701
▁라가 -15702
▁라플 -15703
▁무가 -15704
▁산문 -15705
▁아연 -15706
▁조봉 -15707
▁족장 -15708
▁총영 -15709
▁칼륨 -15710
▁하지 -15711
▁한겨 -15712
▁재미있 -15713
▁호흡기 -15714
▁Hell -15715
▁관음보살 -15716
▁서비스업 -15717
▁ㅁㅜㄲㅇㅕ -15718
▁ㅎㅐㅈㅣㄹ -15719
▁cc -15720
▁경화 -15721
▁금환 -15722
▁안팎 -15723
▁에볼 -15724
▁화음 -15725
▁ATC -15726
▁게임즈 -15727
▁교육학 -15728
▁당뇨병 -15729
▁로베르토 -15730
▁바이마르 -15731
▁스틸러스 -15732
▁ㅇㅗㄹㅡㄹ -15733
▁ㅂㅜㄹㅌㅐㅇ -15734
net -15735
▁단발 -15736
▁안기 -15737
▁옥사 -15738
▁잔혹 -15739
▁폐교 -15740
▁한복 -15741
▁내보내 -15742
▁비잔틴 -15743
▁오르간 -15744
▁ㅁㅏㅌㄱㅕ -15745
▁조선공산당 -15746
열대 -15747
▁JC -15748
▁기스 -15749
▁남단 -15750
▁리시 -15751
▁뮐러 -15752
▁줄곧 -15753
▁초회 -15754
▁신호장 -15755
▁테두리 -15756
▁갈릴레오 -15757
▁ㅈㅓㄴㅎㅐㅈㅕ -15758
큐슈 -15759
ala -15760
▁골절 -15761
▁놓치 -15762
▁눈치 -15763
▁시성 -15764
▁애드 -15765
▁후이 -15766
스크림 -15767
▁거주자 -15768
▁ㅊㅕㅅㅓ -15769
▁그레이엄 -15770
▁ㄷㅏㄹㄹㅣㄴㄷㅏ -15771
▁ㅂㅕㄴㅎㅏㄴㄷㅏ -15772
▁마흐 -15773
▁손목 -15774
▁코크 -15775
▁포니 -15776
▁향수 -15777
폴리탄 -15778
▁ㅎㅓㅁ -15779
▁간호사 -15780
▁시마즈 -15781
▁유명세 -15782
▁조각상 -15783
▁1874 -15784
▁name -15785
▁일렉트릭 -15786
▁클러스터 -15787
▁ㅇㅏㄴㄱㅕ -15788
▁메트로폴리탄 -15789
▁ㅁㅗㅅㅎㅐㅆㅇㅡㅁㅕ -15790
바드 -15791
ATO -15792
▁낭비 -15793
▁전범 -15794
▁치마 -15795
▁침범 -15796
▁카로 -15797
▁클랜 -15798
▁물려주 -15799
▁오릭스 -15800
▁벚 -15801
변수 -15802
▁비옥 -15803
▁상한 -15804
▁솜씨 -15805
▁외손 -15806
▁우표 -15807
▁읍성 -15808
▁인성 -15809
▁ㄲㅜㅁ -15810
▁손꼽히 -15811
▁조각가 -15812
▁후쿠이 -15813
▁ㅎㅐㅈㅜㄴㄷㅏ -15814
▁잼 -15815
민당 -15816
악산 -15817
▁고층 -15818
▁보어 -15819
▁소론 -15820
▁스펙 -15821
▁에노 -15822
▁젠더 -15823
▁통솔 -15824
▁하산 -15825
▁화승 -15826
▁ㄲㅐㅇ -15827
▁김해시 -15828
▁출판물 -15829
▁ㅇㅗㄹㄹㅣㄹ -15830
▁sp -15831
▁다쿠 -15832
▁외삼 -15833
▁일삼 -15834
▁Her -15835
▁공학자 -15836
▁라스트 -15837
▁성폭력 -15838
▁콘퍼런스 -15839
▁ㄴㅐㄹㅣㄹ -15840
14 -15841
구니 -15842
프랑 -15843
▁무예 -15844
▁쿠마 -15845
▁화원 -15846
어들이 -15847
▁반대편 -15848
▁포식자 -15849
▁우두머리 -15850
ps -15851
범죄 -15852
ash -15853
▁과세 -15854
▁나한 -15855
▁뉴멕 -15856
▁도형 -15857
▁리나 -15858
▁모치 -15859
▁몰수 -15860
▁밸브 -15861
▁창구 -15862
▁탄수 -15863
▁풀백 -15864
▁사무관 -15865
▁안양시 -15866
▁전시관 -15867
▁케이드 -15868
▁핸드볼 -15869
▁뉴멕시코 -15870
▁ㄷㅏㄴㅕㅇㅘㅆ -15871
▁멱 -15872
신저 -15873
▁SR -15874
▁et -15875
▁강좌 -15876
▁관위 -15877
▁발작 -15878
▁오마 -15879
▁이문 -15880
▁재회 -15881
▁tvN -15882
▁최진실 -15883
▁한겨레 -15884
▁This -15885
▁오아시스 -15886
데일 -15887
▁강국 -15888
▁넷플 -15889
▁리타 -15890
▁발판 -15891
▁버니 -15892
▁사중 -15893
▁양평 -15894
▁적법 -15895
▁사하라 -15896
▁컨설팅 -15897
▁트레일 -15898
▁넷플릭스 -15899
▁ㅇㅏㅍㅅㅔ -15900
▁멀티미디어 -15901
▁ㄱㅏㄹㅗㅈㅣㄹㄹㅓ -15902
소문 -15903
황색 -15904
▁가온 -15905
▁동백 -15906
▁요직 -15907
▁학당 -15908
▁남극점 -15909
▁부르봉 -15910
▁셀주크 -15911
▁안드레 -15912
▁여운형 -15913
▁바그다드 -15914
▁알렉산데르 -15915
ax -15916
▁YG -15917
▁마늘 -15918
▁바니 -15919
▁예제 -15920
▁잔여 -15921
▁조동 -15922
▁저스틴 -15923
▁책임지 -15924
▁휴대폰 -15925
▁1877 -15926
▁유니코드 -15927
▁컨퍼런스 -15928
▁서아프리카 -15929
15 -15930
co -15931
▁석권 -15932
▁이색 -15933
▁코린 -15934
▁화염 -15935
▁204 -15936
▁클로드 -15937
▁ㅆㅏㅇㅜㄹ -15938
HC -15939
▁레나 -15940
▁문맥 -15941
▁산조 -15942
▁인스 -15943
▁칠성 -15944
▁코바 -15945
▁협곡 -15946
▁로페스 -15947
▁외계인 -15948
▁중거리 -15949
▁천도교 -15950
▁항공편 -15951
▁ㅁㅏㄹㄹㅏ -15952
▁미스코리아 -15953
▁ㅇㅗㄹㄹㅏㅇㅘ -15954
▁뉴클레오타이드 -15955
▁"| -15956
▁거시 -15957
▁격전 -15958
▁공문 -15959
▁김우 -15960
▁너희 -15961
▁백지 -15962
▁자성 -15963
▁홍익 -15964
▁아우르 -15965
▁핵탄두 -15966
▁ㅅㅡㄹㅓㅇㅝ -15967
▁파푸아뉴기니 -15968
▁ㅅㅣㄷㅏㄹㄹㅕㅆ -15969
스퍼 -15970
피크 -15971
▁가선 -15972
▁변론 -15973
▁선단 -15974
▁엄지 -15975
▁템플 -15976
야누스 -15977
▁지리산 -15978
▁캄파니아 -15979
▁플루토늄 -15980
▁호소카와 -15981
▁ㄸㅓㄹㅊㅕㅆ -15982
GB -15983
so -15984
yn -15985
▁쿰 -15986
일기 -15987
▁고승 -15988
▁두뇌 -15989
▁부엌 -15990
▁소인 -15991
▁의제 -15992
▁주군 -15993
▁퇴진 -15994
▁행선 -15995
▁회차 -15996
▁CIA -15997
▁Dra -15998
▁동남쪽 -15999
▁한국군 -16000
ㅇㅓㄴㅐㅆ -16001
를레 -16002
징어 -16003
▁ㅅㅛ -16004
▁경합 -16005
▁문물 -16006
▁바야 -16007
▁에페 -16008
▁지크 -16009
▁공주시 -16010
▁아놀드 -16011
▁레닌주의 -16012
▁서바이벌 -16013
▁트라야누스 -16014
계약 -16015
비에 -16016
혈구 -16017
▁AF -16018
▁복속 -16019
▁제비 -16020
▁판명 -16021
▁펭귄 -16022
▁Best -16023
▁챠 -16024
▁툼 -16025
oid -16026
▁GR -16027
▁논증 -16028
▁소르 -16029
▁송이 -16030
▁여정 -16031
▁차오 -16032
▁카일 -16033
▁518 -16034
▁이주민 -16035
▁허베이 -16036
▁현미경 -16037
▁7000 -16038
▁ㅁㅜㅇㅓㄴ -16039
▁감축 -16040
▁경내 -16041
▁승낙 -16042
▁시발 -16043
▁원사 -16044
▁재물 -16045
▁캠벨 -16046
▁Bab -16047
▁개화파 -16048
▁앞바다 -16049
▁에스컬 -16050
▁카리스 -16051
▁트레인 -16052
▁ㅎㅡㄹㄹ -16053
▁ㅆㅡㅇㅣㄹ -16054
▁에스컬레이터 -16055
더릭 -16056
토크 -16057
▁곤살 -16058
▁도부 -16059
▁라임 -16060
▁무주 -16061
▁미겔 -16062
▁블랑 -16063
▁세제 -16064
▁제지 -16065
▁퇴치 -16066
▁후회 -16067
▁ㅌㅏㅆ -16068
▁브리스 -16069
▁오리엔 -16070
▁콘티넨 -16071
▁ㅊㅜㅇㅜㄴ -16072
동원 -16073
운수 -16074
▁민원 -16075
▁스플 -16076
▁아킬 -16077
▁앨라 -16078
▁미트라 -16079
▁스타드 -16080
▁참전하 -16081
▁프레슬리 -16082
▁ㄱㅣㄷㅏㄴ -16083
투리 -16084
▁레크 -16085
▁받치 -16086
▁서품 -16087
▁양천 -16088
▁1700 -16089
▁다카하시 -16090
마을 -16091
재판 -16092
▁Mi -16093
▁결장 -16094
▁도읍 -16095
▁미러 -16096
▁베다 -16097
▁앞뒤 -16098
▁억울 -16099
▁요도 -16100
▁트림 -16101
▁클레오 -16102
▁페스트 -16103
ict -16104
▁달력 -16105
▁바젤 -16106
▁바투 -16107
▁소주 -16108
▁해지 -16109
▁대사간 -16110
▁수백만 -16111
▁울트라 -16112
▁웜 -16113
티지 -16114
ose -16115
▁로망 -16116
▁북측 -16117
▁산술 -16118
▁산체 -16119
▁루이즈 -16120
▁ㄱㅡㄹㅐ -16121
▁ㄷㅗㄹㄹㅕㅆ -16122
제철 -16123
▁거병 -16124
▁미켈 -16125
▁숙명 -16126
▁순찰 -16127
▁승률 -16128
▁지령 -16129
▁츠카 -16130
▁타선 -16131
▁통찰 -16132
▁하층 -16133
▁625 -16134
▁ㄸㅏㄴ -16135
▁사다리 -16136
▁원주시 -16137
▁인류학 -16138
▁콜린스 -16139
▁ㅁㅜㄹㄹㅓㄴㅏ -16140
▁ㅁㅜㅇㅓㄴㄱㅏ -16141
22 -16142
▁본존 -16143
▁사연 -16144
▁산재 -16145
▁산정 -16146
▁토바 -16147
▁화소 -16148
▁APG -16149
▁길거리 -16150
▁루카스 -16151
▁아키텐 -16152
▁엘비스 -16153
▁연방군 -16154
▁우에노 -16155
▁이론가 -16156
▁만장일치 -16157
▁아드리아 -16158
▁켐 -16159
의식 -16160
장사 -16161
형제 -16162
▁공병 -16163
▁다윗 -16164
▁인계 -16165
▁자백 -16166
▁처마 -16167
▁ㅎㅐㄴ -16168
▁게이밍 -16169
▁경부선 -16170
▁억제제 -16171
▁1859 -16172
▁라이센스 -16173
▁카디널스 -16174
▁프리큐어 -16175
버터 -16176
▁KS -16177
▁결여 -16178
▁대입 -16179
▁상환 -16180
▁ㅂㅏㅊㅕ -16181
구나 -16182
▁나투 -16183
▁롤러 -16184
▁맹렬 -16185
▁방학 -16186
▁블룸 -16187
▁테헤 -16188
▁투사 -16189
로트 -16190
▁문건 -16191
▁북인 -16192
▁상설 -16193
▁ㄲㅓㄴ -16194
▁강화군 -16195
▁서태지 -16196
ㄸㅡㄹㅣㄴ -16197
고사 -16198
양구 -16199
▁도안 -16200
▁수질 -16201
▁푸젠 -16202
▁함장 -16203
▁난쟁이 -16204
▁통계학 -16205
▁향신료 -16206
▁갑작스럽 -16207
▁ㅁㅗㄹㅡㄴ -16208
▁ㅎㅐㅆㅇㅡㅁㅡㄹㅗ -16209
▁짚 -16210
과학 -16211
▁se -16212
▁곡식 -16213
▁구전 -16214
▁김주 -16215
▁네브 -16216
▁만류 -16217
▁명왕 -16218
▁성조 -16219
▁유창 -16220
▁차역 -16221
▁후견 -16222
▁빌바오 -16223
▁이케다 -16224
▁제니퍼 -16225
▁자이언트 -16226
▁ㅂㅜㄹㄹㅣㄹ -16227
나시 -16228
무장 -16229
▁김도 -16230
▁리안 -16231
▁발광 -16232
▁알로 -16233
▁전봉 -16234
▁플랑 -16235
▁헬스 -16236
▁가치관 -16237
▁매니아 -16238
▁아이치 -16239
▁앙드레 -16240
ㅇㅣㄷㅏ -16241
▁ㄱㅗㄹㄹㅏ -16242
▁아이스크림 -16243
▁끔 -16244
르바 -16245
EEE -16246
▁니즈 -16247
▁로디 -16248
▁무공 -16249
▁백운 -16250
▁사병 -16251
▁완장 -16252
▁ㄲㅡㅀ -16253
▁ㅇㅓㄹ -16254
▁빈센트 -16255
▁자카르타 -16256
▁us -16257
▁관아 -16258
▁구가 -16259
▁두르 -16260
▁부식 -16261
▁서체 -16262
▁주포 -16263
▁진심 -16264
▁ㅂㅓㅁ -16265
▁결의안 -16266
▁곧이어 -16267
▁찾아오 -16268
▁혼합물 -16269
▁스테파노 -16270
▁ㅅㅔㅇㅝㅆㅇㅡㅁㅕ -16271
란다 -16272
장조 -16273
▁뚜껑 -16274
▁멜라 -16275
▁사산 -16276
▁상감 -16277
▁원점 -16278
▁폐차 -16279
▁대혁명 -16280
▁슈투트 -16281
▁테크놀로지 -16282
▁슈투트가르트 -16283
▁ㅂㅏㄲㅟㄴㄷㅏ -16284
다보 -16285
uck -16286
▁루드 -16287
▁매기 -16288
▁박찬 -16289
▁선과 -16290
▁수프 -16291
▁의인 -16292
▁이만 -16293
▁일면 -16294
▁카보 -16295
▁피자 -16296
▁홀수 -16297
▁미성년 -16298
▁순천시 -16299
▁아파치 -16300
▁출장소 -16301
▁미야기현 -16302
▁사이클론 -16303
▁뮈 -16304
매기 -16305
배마 -16306
스톤 -16307
▁군기 -16308
▁금관 -16309
▁왕당 -16310
▁퇴출 -16311
reak -16312
▁셰퍼드 -16313
▁메모리얼 -16314
▁앨라배마 -16315
플레 -16316
▁오와 -16317
▁율리 -16318
▁중건 -16319
▁타파 -16320
▁튜링 -16321
▁후면 -16322
de -16323
▁펙 -16324
▁양지 -16325
▁이창 -16326
▁바스크 -16327
▁이치현 -16328
▁소아시아 -16329
▁ㄱㅣㄹㄹㅓ -16330
남면 -16331
▁모교 -16332
▁발터 -16333
▁보디 -16334
▁수라 -16335
▁안주 -16336
▁어학 -16337
▁연해 -16338
▁예보 -16339
▁태화 -16340
▁터스 -16341
▁ㄲㅏㄹ -16342
▁가우스 -16343
▁개최지 -16344
▁대제학 -16345
▁순교자 -16346
▁직사각 -16347
▁^ -16348
완다 -16349
vel -16350
▁레티 -16351
▁모션 -16352
▁수주 -16353
▁340 -16354
▁쓰촨성 -16355
▁안철수 -16356
▁정착지 -16357
▁헬레니즘 -16358
▁ㅈㅓㅈㅣㄹㄹㅓㅆ -16359
소니 -16360
정변 -16361
크리 -16362
▁사생 -16363
▁사와 -16364
▁선별 -16365
▁장경 -16366
▁전서 -16367
▁정역 -16368
▁타밀 -16369
▁학창 -16370
▁ㅈㅗㅇ -16371
▁무신론 -16372
▁브레멘 -16373
▁IEEE -16374
▁국가원수 -16375
▁크리스틴 -16376
▁Super -16377
▁ㄸㅓㄹㅇㅓ -16378
학파 -16379
▁리언 -16380
▁원만 -16381
▁입찰 -16382
▁자갈 -16383
▁총감 -16384
▁호투 -16385
▁목표물 -16386
▁바빌론 -16387
▁아니면 -16388
▁환승역 -16389
▁안토니우스 -16390
▁ㄷㅜㄷㅡㄹㅓㅈㅣㄴ -16391
그램 -16392
댓값 -16393
▁관군 -16394
▁교재 -16395
▁로보 -16396
▁로코 -16397
▁사탄 -16398
▁스완 -16399
▁오인 -16400
▁평하 -16401
▁헤라 -16402
▁호적 -16403
▁화풍 -16404
▁ㅅㅓㄷ -16405
▁개막식 -16406
▁라그랑 -16407
▁로스트 -16408
▁마코토 -16409
▁ㄸㅓㅇㅗㄹㄹㅏㅆ -16410
HL -16411
oo -16412
▁FF -16413
▁공석 -16414
▁교감 -16415
▁근간 -16416
▁뉴잉 -16417
▁속국 -16418
▁아누 -16419
▁짝수 -16420
▁코이 -16421
▁하후 -16422
▁ㅅㅜㄴ -16423
▁국내선 -16424
▁기념장 -16425
▁로저스 -16426
▁무사시 -16427
▁조르주 -16428
▁ㄴㅏㅁㅏ -16429
팩스 -16430
▁김학 -16431
▁도끼 -16432
▁동급 -16433
▁발진 -16434
▁산남 -16435
▁유틸 -16436
▁작자 -16437
게이트 -16438
▁310 -16439
▁des -16440
▁ㅅㅓㅇ -16441
▁선제후 -16442
▁실린더 -16443
▁에세이 -16444
▁유틸리티 -16445
나주 -16446
티어 -16447
패드 -16448
ail -16449
▁as -16450
▁개표 -16451
▁섹션 -16452
▁조회 -16453
▁통감 -16454
레틱스 -16455
▁대관식 -16456
▁볼프강 -16457
▁예문관 -16458
▁Star -16459
▁그래픽스 -16460
▁오토바이 -16461
▁무형문화재 -16462
▁애슬레틱스 -16463
▁후쿠시마현 -16464
TF -16465
바퀴 -16466
조류 -16467
▁경원 -16468
▁구라 -16469
▁베가 -16470
▁산인 -16471
▁센타 -16472
▁수구 -16473
▁시력 -16474
▁어선 -16475
▁왕명 -16476
▁용맹 -16477
▁우니 -16478
▁기생충 -16479
▁원정대 -16480
▁탈레반 -16481
▁ㅁㅜㄴㅓ -16482
▁모니터링 -16483
▁ㅈㅓㅇㅎㅐㅈㅕㅆ -16484
▁썸 -16485
버라 -16486
주사 -16487
▁거문 -16488
▁과달 -16489
▁교인 -16490
▁도매 -16491
▁변성 -16492
▁상층 -16493
▁추장 -16494
공화당 -16495
▁개척자 -16496
▁리바이 -16497
▁1812 -16498
▁선거관리 -16499
▁중앙일보 -16500
▁뉴올리언스 -16501
▁민주공화당 -16502
▁매사추세츠주 -16503
▁선거관리위원회 -16504
디드 -16505
▁my -16506
▁정청 -16507
▁커리 -16508
▁호화 -16509
▁희미 -16510
▁슈트라 -16511
▁오슬로 -16512
▁John -16513
▁ㄱㅏㅁㅜㄴ -16514
▁ㅎㅟㅂㅆㅏ -16515
ㅂㅏ -16516
▁나바 -16517
▁아칸 -16518
▁투기 -16519
▁황위 -16520
하마드 -16521
▁디에고 -16522
▁레이건 -16523
▁분류학 -16524
▁여러분 -16525
▁해인사 -16526
▁아이파크 -16527
▁ㄴㅓㄼㅎㅕ -16528
▁콘스탄티누스 -16529
ㅈㅓ -16530
iel -16531
▁DO -16532
▁ON -16533
▁나시 -16534
▁담양 -16535
▁닷컴 -16536
▁도파 -16537
▁메드 -16538
▁버밍 -16539
▁철기 -16540
▁교황령 -16541
▁슈트라우스 -16542
▁ad -16543
▁기권 -16544
▁무위 -16545
▁보국 -16546
▁세밀 -16547
▁손수 -16548
▁스쿼 -16549
▁양동 -16550
▁청정 -16551
▁추밀 -16552
▁포상 -16553
▁하강 -16554
▁호국 -16555
ㅂㅅㅣ -16556
▁자본가 -16557
▁합병증 -16558
▁고바야시 -16559
▁ㄱㅏㄷㅎㅕ -16560
▁ㅈㅏㅂㅎㅣㄴ -16561
gh -16562
▁Kn -16563
▁근위 -16564
▁매듭 -16565
▁박경 -16566
▁시편 -16567
▁유보 -16568
▁평방 -16569
▁Sun -16570
▁록히드 -16571
▁셀레우 -16572
▁테헤란 -16573
▁한자어 -16574
▁불법행위 -16575
▁아미타불 -16576
주석 -16577
▁게놈 -16578
▁공경 -16579
▁레저 -16580
▁명륜 -16581
▁빨강 -16582
▁용역 -16583
▁울루 -16584
▁진천 -16585
▁체질 -16586
▁커브 -16587
▁특명 -16588
▁호이 -16589
시아키 -16590
▁you -16591
▁엄청나 -16592
▁이광수 -16593
▁후반전 -16594
▁뉴잉글랜드 -16595
RI -16596
▁당상 -16597
▁부락 -16598
▁수문 -16599
▁이건 -16600
▁토프 -16601
▁단말기 -16602
▁보이즈 -16603
▁에이지 -16604
▁인산화 -16605
▁Soul -16606
▁ㅇㅡㄹㅓ -16607
▁아브라함 -16608
▁굶 -16609
구미 -16610
▁걸스 -16611
▁넓히 -16612
▁로런 -16613
▁무진 -16614
▁주유 -16615
▁타라 -16616
▁해커 -16617
▁App -16618
ray -16619
▁개경 -16620
▁김덕 -16621
▁로컬 -16622
▁배타 -16623
▁정실 -16624
▁충동 -16625
▁퀸스 -16626
▁항문 -16627
▁209 -16628
▁에이브 -16629
▁파르마 -16630
▁북대서양 -16631
▁ㅈㅣㄴㅏㄹ -16632
▁ㅈㅣㅋㅣㄹ -16633
OK -16634
▁IF -16635
▁가창 -16636
▁과감 -16637
▁관개 -16638
▁논평 -16639
▁뒤이 -16640
▁소포 -16641
▁수족 -16642
▁식이 -16643
▁아호 -16644
▁조던 -16645
▁지검 -16646
▁천자 -16647
▁청일 -16648
▁총생 -16649
▁카파 -16650
▁코우 -16651
▁한하 -16652
▁공성전 -16653
▁대대장 -16654
▁오메가 -16655
▁울주군 -16656
▁Christ -16657
▁ㄴㅗㅎㅇㅕㅆ -16658
블릭 -16659
ute -16660
▁Mr -16661
▁리퍼 -16662
▁샤오 -16663
▁양념 -16664
▁쿠루 -16665
▁투니 -16666
▁피그 -16667
▁ㅈㅣㅁ -16668
▁태블릿 -16669
EA -16670
연맹 -16671
▁구비 -16672
▁귀순 -16673
▁금기 -16674
▁도자 -16675
▁애호 -16676
▁익히 -16677
▁패자 -16678
하우스 -16679
▁게이오 -16680
▁송진우 -16681
▁접미사 -16682
▁주거지 -16683
▁지석묘 -16684
▁ICBM -16685
▁리바운드 -16686
▁그릴 -16687
▁노마 -16688
▁의논 -16689
▁자네 -16690
▁카펠 -16691
▁휴일 -16692
▁206 -16693
▁레코딩 -16694
▁사우디 -16695
▁파르티아 -16696
▁아람 -16697
▁영도 -16698
▁풀이 -16699
▁기울이 -16700
▁주제가 -16701
▁클라리 -16702
▁페르시 -16703
▁ㅁㅐㄷㅏ -16704
ㅇㅡㅁㅕㄴ -16705
▁쑹 -16706
탄올 -16707
▁강유 -16708
▁금천 -16709
▁끔찍 -16710
▁당장 -16711
▁속초 -16712
▁안면 -16713
▁유계 -16714
▁장강 -16715
▁장지 -16716
▁점토 -16717
▁천적 -16718
▁풍요 -16719
라이스 -16720
▁르완다 -16721
▁베르사유 -16722
▁ㅈㅏㅂㅎㅕㅆ -16723
도감 -16724
샤오 -16725
초프 -16726
▁HP -16727
▁법상 -16728
▁사파 -16729
▁양원 -16730
▁유상 -16731
▁인척 -16732
▁조우 -16733
▁탄두 -16734
▁스태프 -16735
▁자오선 -16736
▁1879 -16737
59 -16738
▁름 -16739
▁쑨 -16740
화산 -16741
▁NM -16742
▁Tw -16743
▁규합 -16744
▁단수 -16745
▁로지 -16746
▁부기 -16747
▁지카 -16748
▁집적 -16749
▁해주 -16750
▁ㄲㅓㄹ -16751
▁남북조 -16752
▁여주인 -16753
▁영사관 -16754
▁음식점 -16755
▁막시밀리 -16756
분투 -16757
자드 -16758
▁고후 -16759
▁김시 -16760
▁니치 -16761
▁듀스 -16762
▁루손 -16763
▁반정 -16764
▁상이 -16765
▁자존 -16766
▁개개인 -16767
▁윤치영 -16768
▁자치현 -16769
▁ㅁㅜㄹㄹㅣㅊㅕㅆ -16770
▁뽀 -16771
네프 -16772
반정 -16773
▁감당 -16774
▁유세 -16775
▁차차 -16776
▁카토 -16777
▁콜론 -16778
▁쿠시 -16779
▁747 -16780
▁백두산 -16781
▁안데스 -16782
▁엘리스 -16783
▁조광조 -16784
▁알렉세이 -16785
▁ㄹㅏㄱㅗㄷㅗ -16786
네오 -16787
스레 -16788
▁ㄲㅚ -16789
▁군마 -16790
▁모태 -16791
▁부화 -16792
▁불문 -16793
▁산동 -16794
▁유민 -16795
▁자석 -16796
▁춘계 -16797
▁폐하 -16798
▁현수 -16799
▁효능 -16800
로세서 -16801
▁ㄱㅕㅌ -16802
▁고지대 -16803
▁여수시 -16804
▁카지노 -16805
▁트리스 -16806
▁ㅇㅔㄷㅏㄱㅏ -16807
16 -16808
방스 -16809
티보 -16810
▁동맥 -16811
▁두부 -16812
▁딱딱 -16813
▁범람 -16814
▁역동 -16815
▁위축 -16816
▁이코 -16817
▁독재자 -16818
▁삼거리 -16819
▁아이작 -16820
▁연대장 -16821
▁의병장 -16822
▁피어스 -16823
▁금리 -16824
▁농담 -16825
▁시타 -16826
▁중등 -16827
▁ㅊㅜㄴ -16828
▁광합성 -16829
▁NX -16830
▁갑신 -16831
▁맞배 -16832
▁성자 -16833
▁자각 -16834
를레앙 -16835
▁420 -16836
▁로널드 -16837
▁선수상 -16838
▁조봉암 -16839
▁페이퍼 -16840
ㅇㅝㅅㅓ -16841
▁유럽연합 -16842
▁ㅍㅏㄹㅏㄴ -16843
▁ㄷㅗㅁㅏㅇㅊㅕ -16844
▁ㅍㅕㄹㅊㅕㅈㅣㄴ -16845
YP -16846
▁꽝 -16847
▁얄 -16848
다임 -16849
슐리 -16850
▁PA -16851
▁정맥 -16852
▁카다 -16853
▁힐스 -16854
로그램 -16855
▁석회암 -16856
▁ㅈㅜㄱㅇㅣㄹ -16857
▁썰 -16858
▁남경 -16859
▁대등 -16860
▁대여 -16861
▁라쿠 -16862
▁반납 -16863
▁불능 -16864
▁빛깔 -16865
▁스킨 -16866
▁양정 -16867
▁전열 -16868
▁초식 -16869
▁택하 -16870
▁국방군 -16871
▁ㅇㅏㅇㅣㄴ -16872
17 -16873
▁쿵 -16874
산업 -16875
▁Gu -16876
▁고난 -16877
▁상회 -16878
▁소량 -16879
▁수아 -16880
▁앙상 -16881
▁장이 -16882
▁호시 -16883
▁Win -16884
▁바닷가 -16885
▁건국훈장 -16886
면적 -16887
여지 -16888
일체 -16889
▁국문 -16890
▁나토 -16891
▁동대 -16892
▁머큐 -16893
▁반향 -16894
▁시영 -16895
▁우기 -16896
▁원한 -16897
스트림 -16898
▁CoA -16899
▁사가미 -16900
▁패러다임 -16901
▁ㄲㅜㅁㅕㅆ -16902
▁둠 -16903
▁퀼 -16904
수지 -16905
ual -16906
▁무패 -16907
▁실베 -16908
▁영종 -16909
▁오웬 -16910
▁인삼 -16911
▁컬링 -16912
▁킬러 -16913
▁폴로 -16914
▁버스터 -16915
▁재결합 -16916
▁일렉트로닉 -16917
▁ㅂㅜㄹㄹㅓㅇㅣㄹㅇㅡㅋㅕㅆ -16918
태자 -16919
▁내시 -16920
▁보아 -16921
▁온전 -16922
▁클럭 -16923
▁440 -16924
▁변호인 -16925
▁제이크 -16926
▁즐거움 -16927
▁테크노 -16928
▁항생제 -16929
▁ㅂㅜㅌㅈㅏㅂㅎㅕ -16930
어놓 -16931
▁반달 -16932
▁부트 -16933
▁안락 -16934
▁유관 -16935
▁제고 -16936
▁ㅇㅘㄴ -16937
▁군주제 -16938
▁니가타 -16939
▁여행자 -16940
리아누스 -16941
▁포틀랜드 -16942
▁ㅌㅐㅇㅓㄴㅏㄹ -16943
링크 -16944
ull -16945
▁"' -16946
▁RA -16947
▁능숙 -16948
▁두스 -16949
▁먼로 -16950
▁압수 -16951
▁일보 -16952
▁투병 -16953
▁할로 -16954
▁호찌 -16955
▁리그컵 -16956
▁바레인 -16957
▁플래닛 -16958
▁엔지니어링 -16959
▁Record -16960
울루 -16961
의금 -16962
▁권투 -16963
▁무겁 -16964
▁스텐 -16965
▁열람 -16966
▁이설 -16967
▁임실 -16968
▁촐라 -16969
▁할구 -16970
▁항전 -16971
▁랴오닝 -16972
▁수영장 -16973
▁알칼리 -16974
▁암스트 -16975
▁야구부 -16976
▁영화관 -16977
▁요나라 -16978
▁접근성 -16979
▁ㄴㅐㄱㅔ -16980
선교 -16981
장군 -16982
▁고독 -16983
▁노역 -16984
▁대방 -16985
▁마다 -16986
▁바바 -16987
▁전곡 -16988
▁화이 -16989
ㄸㅓㄹ -16990
▁Per -16991
▁Intern -16992
▁ㄱㅣㅇㅜㄹㅇㅕㅆ -16993
발트 -16994
신보 -16995
VID -16996
▁강가 -16997
▁사목 -16998
▁요셉 -16999
▁이석 -17000
▁증축 -17001
▁후추 -17002
▁ㅅㅐㄴ -17003
▁글리제 -17004
▁스텔스 -17005
▁실리콘 -17006
▁오우치 -17007
▁크리스탈 -17008
▁매복 -17009
▁멘델 -17010
▁사체 -17011
▁산투스 -17012
▁지극히 -17013
ㅁㅏㄹㄹㅗ -17014
▁ㄷㅏㅇㅎㅐㅆㅇㅡㅁㅕ -17015
높이 -17016
▁KD -17017
▁기한 -17018
▁리노 -17019
▁에다 -17020
▁접목 -17021
▁최용 -17022
▁코인 -17023
▁행운 -17024
▁환산 -17025
▁256 -17026
▁본거지 -17027
▁호기심 -17028
바이러스 -17029
▁ㄴㅏㄹㄹㅕㅆ -17030
▁ㅇㅣㅂㅎㅕㅆ -17031
▁ㄷㅚㄷㅗㄹㄹㅕ -17032
▁ㅊㅣㄹㅡㄴㄷㅏ -17033
능력 -17034
대비 -17035
▁광시 -17036
▁도나 -17037
▁바타 -17038
▁아쉽 -17039
▁오차 -17040
▁처칠 -17041
▁체리 -17042
리오스 -17043
▁911 -17044
▁기본법 -17045
▁베이직 -17046
▁스위트 -17047
▁유기체 -17048
▁잠비아 -17049
▁ㄱㅜㅎㅏㄴ -17050
▁다마스쿠스 -17051
▁아우구스트 -17052
▁ㅈㅓㄱㅎㅣㄴ -17053
▁ㅇㅗㄹㄹㅏㅇㅘㅆ -17054
▁ㅇㅣㄹㅜㅇㅓㅈㅣㄹ -17055
▁기피 -17056
▁미타 -17057
▁솔직 -17058
▁정직 -17059
▁제방 -17060
▁치킨 -17061
▁225 -17062
▁Str -17063
▁엔리케 -17064
▁이회창 -17065
▁조용히 -17066
▁토론회 -17067
▁판매고 -17068
▁2500 -17069
▁그러다가 -17070
▁원종공신 -17071
▁ㄴㅜㄹㄹㅓ -17072
▁MD -17073
▁따지 -17074
▁문어 -17075
▁비싸 -17076
▁소진 -17077
▁열거 -17078
▁트램 -17079
▁ㅅㅔㅇㅜㄹ -17080
▁타지키스탄 -17081
▁찢 -17082
로로 -17083
쿠치 -17084
▁po -17085
▁노엘 -17086
▁담수 -17087
▁시온 -17088
▁왕릉 -17089
▁우디 -17090
▁바실리 -17091
▁양산시 -17092
▁엘리엇 -17093
▁대법원장 -17094
▁ㅅㅓㄲㅇㅣㄴ -17095
ㅇㅅ -17096
ㅘㅆ -17097
▁가결 -17098
▁내기 -17099
▁멘토 -17100
▁봉분 -17101
▁성형 -17102
▁왕좌 -17103
▁우타 -17104
▁중신 -17105
▁탈피 -17106
고로드 -17107
▁연금술 -17108
▁ㄷㅜㅌㅓ -17109
▁ㅇㅓㄹㅏ -17110
▁ㄱㅏㅇㅎㅐㅆ -17111
데오 -17112
레미 -17113
스틱 -17114
▁mu -17115
▁담임 -17116
▁미녀 -17117
▁성현 -17118
▁양구 -17119
▁왕녀 -17120
▁워낙 -17121
▁콜리 -17122
▁렌더링 -17123
▁초고층 -17124
▁총생산 -17125
▁후유증 -17126
▁'. -17127
▁교명 -17128
▁균등 -17129
▁동두 -17130
▁만물 -17131
▁사조 -17132
▁성교 -17133
▁수표 -17134
▁아역 -17135
▁악어 -17136
▁응력 -17137
▁코니 -17138
▁탄력 -17139
▁피질 -17140
ions -17141
▁Hot -17142
▁고다이 -17143
▁네바다 -17144
▁잠재력 -17145
▁제시카 -17146
▁춘천시 -17147
▁주머니쥐 -17148
▁ㅈㅡㄹㄱㅕㅆ -17149
▁쐐 -17150
▁nm -17151
▁강자 -17152
▁군도 -17153
▁노름 -17154
▁브이 -17155
▁사나 -17156
▁신익 -17157
▁영성 -17158
▁용문 -17159
▁ㅃㅜㄹ -17160
▁디스코 -17161
▁비행사 -17162
▁왕당파 -17163
▁프리드 -17164
길준 -17165
로움 -17166
▁CA -17167
▁궁주 -17168
▁로만 -17169
▁사스 -17170
▁원곡 -17171
▁카츠 -17172
▁히코 -17173
레이즈 -17174
▁생산자 -17175
▁시에라 -17176
▁오토모 -17177
▁카스텔 -17178
▁허버트 -17179
▁독립선언 -17180
▁public -17181
는점 -17182
피카 -17183
황제 -17184
▁교내 -17185
▁끌어 -17186
▁동체 -17187
▁리지 -17188
▁무소 -17189
▁북마 -17190
▁세타 -17191
▁실책 -17192
▁쌍용 -17193
▁쐐기 -17194
▁유미 -17195
▁윤곽 -17196
▁은평 -17197
▁이보 -17198
▁이한 -17199
▁파출 -17200
▁길버트 -17201
▁앙상블 -17202
▁예비군 -17203
▁웨슬리 -17204
▁이세이 -17205
ㅐㅎㅐㅆ -17206
▁ㅍㅜㄹㄹㅕ -17207
▁ㅈㅣㅂㅐㅎㅐㅆ -17208
25 -17209
ty -17210
덕궁 -17211
무지 -17212
스텐 -17213
ors -17214
▁HS -17215
▁관저 -17216
▁광동 -17217
▁대용 -17218
▁득실 -17219
▁애프 -17220
▁여관 -17221
▁조율 -17222
▁캅카스 -17223
▁Kore -17224
▁드래곤즈 -17225
▁ㄷㅡㄹㅓㄴㅏㄴㄷㅏ -17226
빨리 -17227
인산 -17228
자나 -17229
▁거품 -17230
▁교학 -17231
▁구명 -17232
▁라사 -17233
▁마거 -17234
▁아루 -17235
▁환초 -17236
▁오나라 -17237
▁프린세스 -17238
▁print -17239
▁ㅅㅓㄴㅂㅗㅇㅣㄴ -17240
무트 -17241
RNA -17242
▁Ke -17243
▁강타 -17244
▁명동 -17245
▁아로 -17246
▁연하 -17247
▁즉흥 -17248
▁지브 -17249
▁코일 -17250
▁호지 -17251
▁마운틴 -17252
▁브릿지 -17253
▁사무엘 -17254
▁유물론 -17255
▁ㄱㅓㄴㄴㅔ -17256
▁ㄷㅗㄹㅇㅏㄱㅏㄴ -17257
ll -17258
▁농협 -17259
▁미디 -17260
▁생김 -17261
▁셔츠 -17262
▁스팀 -17263
▁방법론 -17264
▁와이어 -17265
▁주둔지 -17266
▁추축국 -17267
▁1789 -17268
▁기타큐슈 -17269
▁리치먼드 -17270
▁ㅅㅡㅂㄴㅣㄲㅏ -17271
라과 -17272
커우 -17273
훈련 -17274
▁OK -17275
▁누마 -17276
▁접시 -17277
▁종실 -17278
▁침수 -17279
▁파피 -17280
▁ㅃㅐㄴ -17281
▁머큐리 -17282
▁프로필 -17283
▁탄수화물 -17284
▁플랑드르 -17285
▁ㄱㅓㄴㅡㄹㅕㅆ -17286
이상 -17287
▁가전 -17288
▁구애 -17289
▁군림 -17290
▁던전 -17291
▁동률 -17292
▁제타 -17293
▁채집 -17294
▁춘향 -17295
▁커넥 -17296
▁향로 -17297
▁고스트 -17298
▁디아스 -17299
▁브루노 -17300
▁오이타 -17301
▁유도탄 -17302
▁ㅌㅐㅇㅝ -17303
▁이마가와 -17304
▁ㅇㅡㄹㅅㅜㄹㅗㄱ -17305
불명 -17306
포리 -17307
▁거머 -17308
▁노골 -17309
▁느슨 -17310
▁면하 -17311
▁석재 -17312
▁성부 -17313
▁아구 -17314
▁유독 -17315
▁장차 -17316
▁진성 -17317
▁흉내 -17318
ames -17319
▁오리건 -17320
▁제품군 -17321
▁조연상 -17322
▁콜라보 -17323
▁천문단위 -17324
▁베오그라드 -17325
▁ㅎㅐㅇㅎㅏㄴ -17326
평면 -17327
▁'- -17328
▁NL -17329
▁깊숙 -17330
▁정중 -17331
▁현관 -17332
▁흡입 -17333
▁내몽골 -17334
▁넘어서 -17335
▁다행히 -17336
▁알베르 -17337
▁인문학 -17338
▁1801 -17339
▁NATO -17340
▁ㄹㅏㄴㅣ -17341
ㄴㅏㄴㄷㅏ -17342
▁ㄴㅐㅆㅇㅡㅁㅕ -17343
자락 -17344
▁Fl -17345
▁소노 -17346
▁진위 -17347
▁칠곡 -17348
lect -17349
ogle -17350
▁208 -17351
▁제노바 -17352
▁Back -17353
▁ㅇㅕㅅㅂㅗㄹ -17354
▁캥 -17355
던스 -17356
모닉 -17357
ove -17358
▁공평 -17359
▁도식 -17360
▁도화 -17361
▁무루 -17362
▁신천 -17363
▁타키 -17364
▁트론 -17365
▁급속도 -17366
▁사법부 -17367
▁사천왕 -17368
▁아미타여래 -17369
▁가령 -17370
▁강구 -17371
▁야만 -17372
▁유익 -17373
▁이크 -17374
▁재심 -17375
▁중학 -17376
▁청중 -17377
던지기 -17378
▁예수교 -17379
▁클라인 -17380
▁니카라과 -17381
▁돼지고기 -17382
▁ㅁㅓㅁㅜㄹ -17383
GO -17384
▁박태 -17385
▁안건 -17386
▁첫날 -17387
▁카인 -17388
▁트럼펫 -17389
▁1400 -17390
▁미식축구 -17391
제사 -17392
▁라테 -17393
▁부안 -17394
▁생장 -17395
▁열기 -17396
▁전과 -17397
▁통킹 -17398
▁함의 -17399
프리드 -17400
▁동일시 -17401
▁브루크 -17402
▁영문학 -17403
▁영장류 -17404
▁조제프 -17405
ㄷㅡㄴㄱㅏ -17406
ox -17407
레븐 -17408
▁Cr -17409
▁결투 -17410
▁군량 -17411
▁균열 -17412
▁악의 -17413
▁안시 -17414
▁유감 -17415
▁초판 -17416
▁최순 -17417
▁탄성 -17418
▁후난 -17419
▁붉은색 -17420
▁아르테 -17421
▁ㄷㅓㄹㅏ -17422
▁ㅣ -17423
▁킵 -17424
▁BO -17425
▁가변 -17426
▁겨냥 -17427
▁교란 -17428
▁김장 -17429
▁다채 -17430
▁승마 -17431
▁양위 -17432
▁초석 -17433
▁총국 -17434
▁캡틴 -17435
▁코디 -17436
▁표어 -17437
▁호전 -17438
▁370 -17439
▁나카노 -17440
▁유길준 -17441
▁제주시 -17442
▁Amer -17443
▁암스트롱 -17444
▁이성질체 -17445
▁ㅁㅗㅇㅡㅁ -17446
▁ㅇㅣㄱㅣㄹ -17447
▁ㄴㅏㅇㅘㅅㅓ -17448
▁ㅅㅣㅋㅣㄴㄷㅏㄴㅡㄴ -17449
ㅍㅣ -17450
득점 -17451
파니 -17452
▁기일 -17453
▁약품 -17454
▁유재 -17455
▁책정 -17456
▁코딩 -17457
▁핼리 -17458
▁Res -17459
▁War -17460
▁ㄱㅗㄹ -17461
▁광주시 -17462
▁남아공 -17463
▁동북부 -17464
▁미요시 -17465
▁방문객 -17466
▁페라리 -17467
노스아이 -17468
▁생물학자 -17469
▁항공우주 -17470
▁해수욕장 -17471
▁ㅅㅏㄴㅈㅣ -17472
▁셀레우코스 -17473
노스아이레스 -17474
▁ㅂㅕㄴㅎㅐㅆ -17475
▁ㅎㅐㅇㅎㅐㅈㅣㄴ -17476
▁부에노스아이레스 -17477
▁격침 -17478
▁격화 -17479
▁굳이 -17480
▁김은 -17481
▁실태 -17482
▁약수 -17483
▁어인 -17484
▁예편 -17485
▁폭주 -17486
▁Mag -17487
▁기네스 -17488
▁어드밴 -17489
▁항소심 -17490
▁해수면 -17491
▁이리하여 -17492
▁ㅁㅗㅇㅕㅆ -17493
▁소크라테스 -17494
▁렬 -17495
▁고관 -17496
▁궁수 -17497
▁본능 -17498
▁사일 -17499
▁신궁 -17500
▁알마 -17501
▁에픽 -17502
▁운석 -17503
▁직각 -17504
▁흑색 -17505
▁Get -17506
▁만주족 -17507
▁ㄷㅏㄴㅣㄹ -17508
▁폼페이우스 -17509
▁ㅇㅗㄹㄹㅣㅁ -17510
▁명장 -17511
▁의대 -17512
▁황하 -17513
▁GPS -17514
▁메신저 -17515
▁사망률 -17516
▁요시카 -17517
그라운드 -17518
▁리하르트 -17519
▁비로자나 -17520
▁ㄱㅗㄴㅡㄴ -17521
월드 -17522
let -17523
▁BB -17524
▁소마 -17525
▁수화 -17526
▁천태 -17527
▁철근 -17528
▁출정 -17529
▁출항 -17530
▁MIT -17531
▁디렉터 -17532
▁로런스 -17533
▁베테랑 -17534
▁타일러 -17535
▁태양광 -17536
▁트로츠키 -17537
▁둑 -17538
▁씬 -17539
처럼 -17540
enn -17541
▁깨지 -17542
▁나날 -17543
▁무쓰 -17544
▁배지 -17545
▁서곡 -17546
▁어둡 -17547
▁오랑 -17548
▁하세 -17549
inal -17550
▁마거릿 -17551
▁Baby -17552
▁남한산성 -17553
▁레오나르 -17554
UM -17555
니츠 -17556
▁DA -17557
▁니트 -17558
▁듀엣 -17559
▁발열 -17560
▁비방 -17561
▁윈드 -17562
▁효모 -17563
▁라이드 -17564
▁부천시 -17565
▁스펜서 -17566
▁양평군 -17567
▁주세페 -17568
▁펼쳐지 -17569
ology -17570
▁ㅁㅏㄹㅡㄴ -17571
▁ㄴㅏㄴㅜㄴㄷㅏ -17572
경찰 -17573
박이 -17574
심원 -17575
투르 -17576
▁개축 -17577
▁결렬 -17578
▁공지 -17579
▁관원 -17580
▁국산 -17581
▁미로 -17582
▁생포 -17583
▁장론 -17584
▁제헌 -17585
▁탄광 -17586
▁호박 -17587
▁화교 -17588
▁아열대 -17589
▁ㅇㅏㄴㅣㅁ -17590
남동 -17591
덱스 -17592
메랄 -17593
오드 -17594
▁결단 -17595
▁극회 -17596
▁누에 -17597
▁민선 -17598
▁박동 -17599
▁베라 -17600
▁쓰리 -17601
▁장승 -17602
▁쟁점 -17603
▁조엘 -17604
▁ㅍㅡㄹ -17605
▁블러드 -17606
▁모노이드 -17607
TN -17608
▁Dr -17609
▁개리 -17610
▁공훈 -17611
▁그간 -17612
▁대소 -17613
▁레반 -17614
▁비고 -17615
▁사옥 -17616
▁수선 -17617
▁승선 -17618
▁예일 -17619
▁증류 -17620
▁지회 -17621
▁청군 -17622
▁카불 -17623
▁한정판 -17624
▁안티오키아 -17625
가요 -17626
금속 -17627
무실 -17628
▁결집 -17629
▁군위 -17630
▁기교 -17631
▁꾸미 -17632
▁도보 -17633
▁총수 -17634
▁출병 -17635
▁친히 -17636
▁캔터 -17637
▁365 -17638
▁Way -17639
▁모터쇼 -17640
▁민의원 -17641
▁부사장 -17642
▁스트라 -17643
▁시나노 -17644
▁이유로 -17645
▁이지스 -17646
▁정몽주 -17647
▁선거인단 -17648
시카 -17649
입자 -17650
▁PH -17651
▁니체 -17652
▁베아 -17653
▁봉헌 -17654
▁악역 -17655
▁죄인 -17656
▁필로 -17657
▁감마선 -17658
▁혈액형 -17659
▁게오르기 -17660
▁서귀포시 -17661
ㅅㅓㄴㄷㅏ -17662
▁ㅇㅜㅁㅈㅣㄱㅇㅣㅁ -17663
▁ㅂㅏㄷㅇㅏㄷㅡㄹㅇㅣㄴ -17664
당류 -17665
테일 -17666
▁굴욕 -17667
▁명중 -17668
▁불길 -17669
▁연어 -17670
▁외가 -17671
▁충고 -17672
▁카노 -17673
▁학도 -17674
▁효성 -17675
▁리카르 -17676
▁쌍방울 -17677
▁전망대 -17678
ature -17679
▁로베르트 -17680
락부 -17681
▁고취 -17682
▁기형 -17683
▁산마 -17684
▁에인 -17685
▁해머 -17686
이즈미 -17687
▁직할시 -17688
▁리얼리티 -17689
▁이오니아 -17690
▁프레더릭 -17691
나비 -17692
백색 -17693
컨드 -17694
app -17695
ons -17696
ret -17697
▁도난 -17698
▁도량 -17699
▁벅스 -17700
▁북송 -17701
▁사계 -17702
▁설과 -17703
▁으뜸 -17704
▁키치 -17705
코비치 -17706
▁TOP -17707
▁다카시 -17708
▁리그전 -17709
▁범어사 -17710
▁선데이 -17711
▁시아파 -17712
▁태극기 -17713
▁Cent -17714
▁ㄷㅓㄹㅓ -17715
▁라이온스 -17716
▁ㅁㅜㄴㅓㅈㅕ -17717
▁ㅇㅗㄹㅡㄴㄷㅏ -17718
▁ㅇㅗㄹㄹㅏㄱㅏㄹ -17719
마니 -17720
▁SG -17721
▁SW -17722
▁갑오 -17723
▁리라 -17724
▁변조 -17725
▁영위 -17726
▁이부 -17727
▁창씨 -17728
▁콘셉 -17729
▁풍기 -17730
▁ㅂㅓㅌ -17731
▁국무부 -17732
▁대학살 -17733
▁도나우 -17734
▁신안군 -17735
▁알레산 -17736
▁이치로 -17737
▁지포스 -17738
▁함부로 -17739
의금부사 -17740
▁에두아르 -17741
▁System -17742
FS -17743
za -17744
갱이 -17745
즈미 -17746
현실 -17747
▁결실 -17748
▁레르 -17749
▁맞닿 -17750
▁매튜 -17751
▁선서 -17752
▁스틱 -17753
▁풋살 -17754
피에르 -17755
▁디나모 -17756
▁프린터 -17757
▁1815 -17758
▁ㅇㅣㄱㅔ -17759
▁아르바이트 -17760
▁ㄴㅏㅇㅘㅆㅇㅡㅁㅕ -17761
▁경산 -17762
▁리서 -17763
▁살레 -17764
▁성찬 -17765
▁세도 -17766
▁습도 -17767
▁에든 -17768
▁전극 -17769
▁주스 -17770
▁토의 -17771
▁특혜 -17772
ㄱㅡㄹ -17773
말라야 -17774
▁Dis -17775
▁ㅈㅏㅂ -17776
▁무정부 -17777
▁일제히 -17778
▁피드백 -17779
▁필리스 -17780
▁에든버러 -17781
▁ㅁㅏㄹㄹㅕ -17782
▁쪼 -17783
랭크 -17784
민정 -17785
▁노하 -17786
▁롤리 -17787
▁사악 -17788
▁인노 -17789
▁장서 -17790
▁쿠사 -17791
▁퍼플 -17792
▁하츠 -17793
▁합장 -17794
▁207 -17795
▁김종직 -17796
▁생김새 -17797
▁세컨드 -17798
▁압둘라 -17799
▁야행성 -17800
▁유공자 -17801
▁전동기 -17802
▁포인터 -17803
로프로세서 -17804
▁마이크로프로세서 -17805
카라 -17806
▁기주 -17807
▁모잠 -17808
▁사보 -17809
▁새해 -17810
▁천리 -17811
▁치루 -17812
▁트롤 -17813
▁한꺼 -17814
ater -17815
▁ㅁㅝㄴ -17816
▁가디언 -17817
▁농민군 -17818
▁조합원 -17819
▁1820 -17820
▁모잠비크 -17821
▁한꺼번에 -17822
▁낸 -17823
ina -17824
▁공해 -17825
▁깁슨 -17826
▁서역 -17827
▁월경 -17828
▁위배 -17829
▁잔치 -17830
▁테살 -17831
▁파고 -17832
▁강릉시 -17833
▁모델링 -17834
▁미우라 -17835
▁일진회 -17836
▁지팡이 -17837
▁ㅂㅘㅇㅑ -17838
▁ㅎㅟㅁㅏㄹ -17839
▁ㄴㅐㄹㅕㄱㅏㅆ -17840
▁꿰 -17841
▁훅 -17842
▁공보 -17843
▁베컴 -17844
▁본진 -17845
▁소탕 -17846
▁음역 -17847
▁조너 -17848
▁종단 -17849
▁하카 -17850
지먼트 -17851
▁ㄱㅔㅅ -17852
▁노무라 -17853
▁두더지 -17854
▁혁명가 -17855
▁필하모닉 -17856
▁매니지먼트 -17857
▁폴리네시아 -17858
24 -17859
▁갸 -17860
▁기근 -17861
▁김석 -17862
▁당사 -17863
▁떨어 -17864
▁라지 -17865
▁모질 -17866
▁슐레 -17867
▁이구 -17868
▁이삭 -17869
▁자막 -17870
▁직류 -17871
▁펜스 -17872
▁헬로 -17873
▁힘쓰 -17874
ange -17875
▁ㅇㅓㅅ -17876
▁고고학자 -17877
▁마쓰모토 -17878
▁서대문구 -17879
▁히말라야 -17880
▁ㅈㅣㄴㅇㅣ -17881
▁레닌그라드 -17882
▁ㄷㅗㄹㅇㅏㅇㅗㄹ -17883
▁쥘 -17884
▁견지 -17885
▁녹말 -17886
▁달마 -17887
▁디펜 -17888
▁떠돌 -17889
▁만수 -17890
▁분담 -17891
▁아약 -17892
▁에뮬 -17893
▁음양 -17894
▁조나 -17895
▁피시 -17896
▁그리드 -17897
▁연습생 -17898
▁저지르 -17899
▁오스트로 -17900
▁막시밀리안 -17901
끄럽 -17902
▁격상 -17903
▁로제 -17904
▁마취 -17905
▁시차 -17906
▁전란 -17907
▁형광 -17908
▁휴먼 -17909
▁Tra -17910
▁오징어 -17911
▁페레스 -17912
▁후베이 -17913
▁High -17914
▁ㄷㅓㄴㅈㅣㄴ -17915
ux -17916
러기 -17917
실험 -17918
▁경구 -17919
▁더빙 -17920
▁마초 -17921
▁미완 -17922
▁미추 -17923
▁상해 -17924
▁신안 -17925
▁옵티 -17926
▁정현 -17927
▁치밀 -17928
▁특위 -17929
▁ㄹㅣㄹ -17930
▁학생회 -17931
▁ㄲㅣㅇㅝ -17932
▁카롤루스 -17933
ㅇㅏㄴㅐㄹ -17934
가라 -17935
토바 -17936
▁술집 -17937
▁전액 -17938
▁좌랑 -17939
▁징후 -17940
▁코넬 -17941
▁태상 -17942
▁한라 -17943
▁Int -17944
▁노르트 -17945
▁적절히 -17946
▁체육회 -17947
▁프로방스 -17948
광사 -17949
라나 -17950
쓰네 -17951
▁노총 -17952
▁담장 -17953
▁마도 -17954
▁융기 -17955
▁지반 -17956
▁출루 -17957
▁퇴계 -17958
스티안 -17959
▁마피아 -17960
▁아드리 -17961
▁지방도 -17962
▁알베르트 -17963
자유 -17964
ley -17965
▁FS -17966
▁기민 -17967
▁발췌 -17968
▁세실 -17969
▁앨버 -17970
▁쿠리 -17971
▁프록 -17972
▁피쳐 -17973
▁USA -17974
▁광화문 -17975
▁군산시 -17976
▁선언문 -17977
▁아약스 -17978
▁액티브 -17979
▁조병옥 -17980
▁트랜싯 -17981
▁1858 -17982
▁ㅇㅓㅇㅜㄹ -17983
▁밈 -17984
퍼트 -17985
▁기욤 -17986
▁데니 -17987
▁위태 -17988
▁지뢰 -17989
가하라 -17990
▁Mac -17991
▁Not -17992
▁달아나 -17993
▁수증기 -17994
▁크레타 -17995
▁프렌즈 -17996
▁ㄹㅣㄹㅏ -17997
▁천연가스 -17998
▁캔자스시티 -17999
▁귤 -18000
거루 -18001
베인 -18002
적분 -18003
▁ㅎㅓ -18004
▁만연 -18005
▁매질 -18006
▁빠져 -18007
▁소켓 -18008
▁아토 -18009
▁양분 -18010
▁엠블 -18011
▁완산 -18012
▁육박 -18013
▁초당 -18014
▁퀘이 -18015
▁탈리 -18016
▁테드 -18017
▁핑계 -18018
▁도치기 -18019
▁목포시 -18020
▁평상시 -18021
▁알렉산드라 -18022
▁ㅎㅏㅂㅊㅕㅈㅕ -18023
▁ㅈㅡㄹㄱㅓㅇㅜㄴ -18024
▁챈 -18025
▁낙태 -18026
▁대정 -18027
▁로어 -18028
▁안재 -18029
▁제법 -18030
▁진하 -18031
▁콤비 -18032
▁포섭 -18033
▁노트북 -18034
▁라쿠텐 -18035
▁분홍색 -18036
▁마그네슘 -18037
▁알베르토 -18038
ㅇㅗㄹㄹㅕㅆ -18039
비츠 -18040
운전 -18041
att -18042
▁광서 -18043
▁군집 -18044
▁기악 -18045
▁당명 -18046
▁수훈 -18047
▁엠마 -18048
▁율령 -18049
▁주상 -18050
▁토드 -18051
▁허들 -18052
▁MLB -18053
▁관찰자 -18054
▁중심핵 -18055
▁파블로 -18056
▁Type -18057
▁ㅇㅗㄹㅡㅁ -18058
▁조선왕조실록 -18059
▁고택 -18060
▁납품 -18061
▁농작 -18062
▁도표 -18063
▁스쿠 -18064
▁스팅 -18065
▁허구 -18066
▁거머쥐 -18067
▁깨달음 -18068
▁모조리 -18069
▁베일리 -18070
▁비올라 -18071
▁안티고 -18072
▁티무르 -18073
ㄹㄹㅣㄴㄷㅏ -18074
▁ㅊㅓㅇㅎㅐㅆ -18075
ㄲㅗ -18076
데냐 -18077
사랑 -18078
싸움 -18079
▁급사 -18080
▁능하 -18081
▁말소 -18082
▁보카 -18083
▁좌천 -18084
▁합산 -18085
▁효용 -18086
▁ㅁㅏㅇ -18087
▁마에다 -18088
▁수도사 -18089
▁스와프 -18090
▁신익희 -18091
▁ㅇㅏㄹㅏ -18092
▁ㅋㅓㅈㅕ -18093
▁보호구역 -18094
▁사르데냐 -18095
▁암모니아 -18096
▁ㅌㅗㅇㅊㅣ -18097
▁동아프리카 -18098
▁ㄱㅏㅂㅈㅏㄱㅅㅡㄹㅓㄴ -18099
ㅡㅅ -18100
정제 -18101
▁고갈 -18102
▁궁내 -18103
▁급기 -18104
▁바하 -18105
▁살피 -18106
▁우대 -18107
▁재주 -18108
▁펠레 -18109
▁막아내 -18110
▁연구실 -18111
▁조너선 -18112
▁플래그 -18113
▁1814 -18114
▁자연주의 -18115
▁class -18116
▁ㄴㅐㄹㅕㅇㅗㄴ -18117
▁ㅇㅓㄹㅕㅇㅜㄹ -18118
토쿠 -18119
▁견훤 -18120
▁군락 -18121
▁군비 -18122
▁남궁 -18123
▁동티 -18124
▁보육 -18125
▁비어 -18126
▁수강 -18127
▁아핀 -18128
▁알렌 -18129
▁에린 -18130
▁열망 -18131
▁이철 -18132
▁총액 -18133
▁풍수 -18134
▁학급 -18135
▁혼돈 -18136
정보부 -18137
▁스타인 -18138
▁시게루 -18139
▁크라스 -18140
▁무궁화호 -18141
식스 -18142
촌동 -18143
코인 -18144
ART -18145
▁갈비 -18146
▁로타 -18147
▁모식 -18148
▁부탄 -18149
▁비욘 -18150
▁애매 -18151
▁의왕 -18152
▁정공 -18153
▁제보 -18154
▁진구 -18155
▁총살 -18156
▁키아 -18157
▁푸틴 -18158
지스터 -18159
▁ㅁㅜㅉ -18160
▁ㅌㅏㄹ -18161
▁리포트 -18162
▁스레드 -18163
▁플라자 -18164
▁서아시아 -18165
▁ㄷㅗㄹㅇㅏㅇㅘㅅㅓ -18166
기둥 -18167
▁독실 -18168
▁부딪 -18169
▁소정 -18170
▁수의 -18171
▁아말 -18172
▁용접 -18173
▁원생 -18174
▁유승 -18175
▁증직 -18176
▁직권 -18177
▁290 -18178
▁IEC -18179
▁WHO -18180
▁고조선 -18181
▁니스트 -18182
▁성명서 -18183
▁정확도 -18184
▁ㅃㅏㄹㄹㅏ -18185
▁클라이맥스 -18186
동리 -18187
마일 -18188
스테 -18189
재단 -18190
▁감탄 -18191
▁덕수 -18192
▁마틸 -18193
▁민가 -18194
▁벨벳 -18195
▁비호 -18196
▁성제 -18197
▁어쩌 -18198
▁완주 -18199
▁장택 -18200
▁전집 -18201
▁정일 -18202
▁증원 -18203
▁Art -18204
▁사이공 -18205
▁주교좌 -18206
▁혁명군 -18207
▁1300 -18208
▁ㅇㅏㅇㅛ -18209
▁샌드위치 -18210
▁토스카나 -18211
▁그리스도교 -18212
▁그리스도인 -18213
▁ㄱㅏㅈㅕㄱㅏㅆ -18214
ㅇㅜ -18215
뉴스 -18216
라도 -18217
OVE -18218
▁Of -18219
▁괴뢰 -18220
▁북상 -18221
▁열풍 -18222
▁팬아 -18223
▁헤지 -18224
▁헬렌 -18225
플레잉 -18226
▁봉수대 -18227
▁커티스 -18228
▁그래미상 -18229
▁롤플레잉 -18230
▁자유민주 -18231
▁트랜지스터 -18232
▁ㄴㅡㄹㄹㅕㅆ -18233
▁ㅎㅏㅂㅊㅕㅅㅓ -18234
que -18235
▁노화 -18236
▁랜덤 -18237
▁만기 -18238
▁미자 -18239
▁영재 -18240
▁정과 -18241
▁패드 -18242
▁TBC -18243
▁ㅁㅓㄱ -18244
▁ㅌㅡㅁ -18245
▁교토부 -18246
▁유성구 -18247
▁지방관 -18248
▁취약점 -18249
▁패트리 -18250
▁type -18251
▁맞배지붕 -18252
▁서프랑크 -18253
▁프로이트 -18254
▁세키가하라 -18255
▁ㄴㅐㄹㅕㄱㅏ -18256
▁ㄷㅗㄹㅇㅏㄱㅏㄴㄷㅏ -18257
▁ㅂㅏㄷㅇㅏㄷㅡㄹㅇㅣㄹ -18258
ㅜㅀ -18259
거성 -18260
전차 -18261
enc -18262
▁고요 -18263
▁루지 -18264
▁리츠 -18265
▁머피 -18266
▁버거 -18267
▁실크 -18268
▁약학 -18269
▁우도 -18270
▁패퇴 -18271
▁훈족 -18272
▁전철역 -18273
▁타블로 -18274
▁프리킥 -18275
살바도르 -18276
▁플레이스 -18277
▁ㄷㅏㄹㅡㅁ -18278
▁ㅁㅗㄹㅡㄹ -18279
▁여러해살이풀 -18280
니코 -18281
yle -18282
▁EN -18283
▁감기 -18284
▁레딧 -18285
▁목화 -18286
▁문성 -18287
▁바사 -18288
▁손쉽 -18289
▁승전 -18290
▁신관 -18291
▁씨름 -18292
▁옥상 -18293
▁이덕 -18294
▁지층 -18295
▁캐럴 -18296
▁토비 -18297
▁포진 -18298
▁공기업 -18299
▁상대론 -18300
▁하모니 -18301
▁ㅋㅣㅇㅝㅆ -18302
▁페더레이션 -18303
▁ㅂㅗㅇㅕㅆㅇㅡㄴㅏ -18304
BN -18305
널목 -18306
회원 -18307
alk -18308
▁ED -18309
▁Vf -18310
▁갈아 -18311
▁미에 -18312
▁아랑 -18313
▁아픔 -18314
▁암초 -18315
▁웅진 -18316
▁흥덕 -18317
▁LCK -18318
▁건널목 -18319
▁겨울철 -18320
▁아쿠아 -18321
▁파출소 -18322
▁평의원 -18323
▁What -18324
▁산업단지 -18325
▁크리스천 -18326
▁ㅇㅣㄹㅝㅆ -18327
ye -18328
▁뱌 -18329
구멍 -18330
▁간지 -18331
▁게일 -18332
▁소치 -18333
▁얼터 -18334
▁헤임 -18335
ㄷㅏㅇ -18336
씨식물 -18337
▁MHz -18338
▁대항해 -18339
▁맞대결 -18340
▁미시간 -18341
▁변속기 -18342
▁스타즈 -18343
▁에히메 -18344
▁창업자 -18345
▁아나키즘 -18346
▁규장 -18347
▁병인 -18348
▁보궐 -18349
▁소도 -18350
▁포교 -18351
▁할양 -18352
학생회 -18353
ough -18354
▁Med -18355
▁ㄸㅜㅀ -18356
▁건너편 -18357
▁다면체 -18358
▁등록금 -18359
▁성북구 -18360
▁수번뇌 -18361
▁우승컵 -18362
▁중서부 -18363
▁충주시 -18364
▁아오모리현 -18365
▁ㅂㅕㄴㅎㅏㄴ -18366
▁ㅈㅜㄴㄷㅏㄱㅗ -18367
▁ㅇㅗㄹㄹㅏㅇㅗㄴ -18368
▁앳 -18369
건적 -18370
ger -18371
▁Di -18372
▁kW -18373
▁올랭 -18374
▁238 -18375
▁남조선 -18376
▁넥스트 -18377
▁재빨리 -18378
▁초대칭 -18379
▁키워드 -18380
▁With -18381
▁수마트라 -18382
▁요시아키 -18383
▁총학생회 -18384
▁ㅇㅕㄱㅣㄴㄷㅏ -18385
ING -18386
▁민권 -18387
▁선회 -18388
▁세베 -18389
▁인대 -18390
▁장조 -18391
▁직함 -18392
▁파드 -18393
▁홍천 -18394
ㅕㅅㅓ -18395
▁나가노 -18396
▁보행자 -18397
▁윤리학 -18398
▁평택시 -18399
▁포스코 -18400
▁1795 -18401
▁아틀레틱 -18402
▁Google -18403
TR -18404
▁렝 -18405
르모 -18406
천국 -18407
▁개전 -18408
▁레미 -18409
▁매춘 -18410
▁미숙 -18411
▁석등 -18412
▁순정 -18413
▁스톨 -18414
▁일람 -18415
네소스 -18416
독립당 -18417
▁850 -18418
▁ㄹㅜㄴ -18419
▁원정군 -18420
▁홉킨스 -18421
▁ㄱㅟㅇㅕ -18422
▁카테고리 -18423
▁한국독립당 -18424
▁ㅁㅕㄴㅇㅡㄴ -18425
▁윔 -18426
림동 -18427
▁경이 -18428
▁과부 -18429
▁그늘 -18430
▁김세 -18431
▁독소 -18432
▁멜론 -18433
▁쇠약 -18434
▁아난 -18435
▁우사 -18436
▁윈터 -18437
▁이효 -18438
▁정여 -18439
▁켈빈 -18440
▁페터 -18441
▁하디 -18442
▁헨드 -18443
주니어 -18444
▁남반구 -18445
▁바로잡 -18446
▁트루먼 -18447
▁포위전 -18448
▁갑신정변 -18449
▁ㄷㅏㄴㅣㄴㄷㅏ -18450
▁ㅆㅡㅇㅕㅈㅕㅆ -18451
팽이 -18452
▁관대 -18453
▁내수 -18454
▁몬태 -18455
▁브람 -18456
▁수렵 -18457
▁에런 -18458
▁우이 -18459
▁윗면 -18460
▁이국 -18461
▁준하 -18462
▁차분 -18463
▁첨부 -18464
▁페데 -18465
ㄹㅏㅆ -18466
디우스 -18467
▁480 -18468
▁메이트 -18469
▁베드로 -18470
▁블루어 -18471
▁ㅃㅜㄹㅕ -18472
▁석가여래 -18473
▁어드밴스 -18474
▁언어학자 -18475
▁ㅁㅏㄴㅡㄴ -18476
▁중앙정보부 -18477
▁줌 -18478
부미 -18479
▁구자 -18480
▁월북 -18481
▁웰스 -18482
▁유시 -18483
▁익산시 -18484
▁통신부 -18485
▁MPEG -18486
▁드레이크 -18487
▁디렉터리 -18488
▁사탕수수 -18489
▁여주인공 -18490
▁ㅇㅓㄷㅣㄴ -18491
▁키르기스스탄 -18492
▁ㅁㅜㄴㅓㅈㅕㅆ -18493
▁국지 -18494
▁니나 -18495
▁니콘 -18496
▁반야 -18497
▁부녀 -18498
▁장준 -18499
▁정병 -18500
▁코지 -18501
▁ㄸㅐㄹ -18502
▁국문학 -18503
▁로렌초 -18504
▁여객선 -18505
▁다리우스 -18506
▁하이웨이 -18507
▁ㅇㅏㄹㅇㅏㅊ -18508
▁ㅃㅐㅇㅏㅅㄱㅕㅆ -18509
▁뿜 -18510
대성 -18511
블린 -18512
▁PP -18513
▁도색 -18514
▁루머 -18515
▁민생 -18516
▁여과 -18517
▁유원 -18518
▁특례 -18519
▁ㅇㅗㅂ -18520
▁공직자 -18521
▁웨이트 -18522
▁체스터 -18523
▁자동변속기 -18524
▁ㅇㅝㄴㅅㅜㄹ -18525
▁ㅈㅜㄹㅇㅕㅆ -18526
▁ㅊㅏㄱㅎㅏㄴ -18527
▁ㅊㅏㅈㅇㅏㅇㅘㅆ -18528
UI -18529
▁뚱 -18530
▁각광 -18531
▁골수 -18532
▁광택 -18533
▁국과 -18534
▁기시 -18535
▁남포 -18536
▁데메 -18537
▁도정 -18538
▁맛있 -18539
▁미코 -18540
▁보훈 -18541
▁본초 -18542
▁불평 -18543
▁신구 -18544
▁심플 -18545
[...]
