▁▃ -0
▁이 -1
▁하 -2
▁. -3
▁에 -4
▁다 -5
▁의 -6
▁ㄴ -7
▁는 -8
▁, -9
▁을 -10
▁은 -11
▁가 -12
▁1 -13
▁으 -14
▁고 -15
▁되 -16
▁아 -17
▁를 -18
▁었 -19
▁지 -20
▁년 -21
▁로 -22
▁으로 -23
▁에서 -24
▁2 -25
▁있 -26
▁어 -27
▁대 -28
▁았 -29
▁기 -30
▁사 -31
▁그 -32
▁도 -33
▁시 -34
▁일 -35
▁과 -36
▁ㄴ다 -37
▁들 -38
▁수 -39
▁전 -40
▁적 -41
▁여 -42
▁자 -43
▁와 -44
▁20 -45
▁부 -46
▁월 -47
▁주 -48
▁제 -49
▁19 -50
▁ㄹ -51
▁라 -52
▁정 -53
▁보 -54
▁중 -55
▁위 -56
▁인 -57
▁였 -58
▁나 -59
▁공 -60
▁세 -61
▁경 -62
▁것 -63
▁게 -64
▁개 -65
▁오 -66
▁유 -67
▁3 -68
▁" -69
▁조 -70
▁등 -71
▁스 -72
▁선 -73
▁마 -74
▁성 -75
▁만 -76
▁미 -77
▁동 -78
▁연 -79
▁상 -80
▁서 -81
▁소 -82
▁한 -83
▁모 -84
▁비 -85
▁구 -86
▁영 -87
▁국 -88
▁발 -89
▁면 -90
▁며 -91
▁으며 -92
▁201 -93
▁' -94
▁4 -95
▁후 -96
▁관 -97
▁명 -98
▁신 -99
▁프 -100
▁5 -101
▁때 -102
▁200 -103
▁장 -104
▁던 -105
▁- -106
▁거 -107
▁방 -108
▁바 -109
▁교 -110
▁리 -111
▁해 -112
▁문 -113
▁내 -114
▁역 -115
▁차 -116
▁당 -117
▁우 -118
▁무 -119
▁원 -120
▁통 -121
▁계 -122
▁현 -123
▁남 -124
▁노 -125
▁군 -126
▁포 -127
▁분 -128
▁6 -129
▁또 -130
▁화 -131
▁않 -132
▁까 -133
▁학 -134
▁생 -135
▁까지 -136
▁같 -137
▁작 -138
▁결 -139
▁강 -140
▁에게 -141
▁출 -142
▁파 -143
▁대하 -144
▁받 -145
▁진 -146
▁크 -147
▁단 -148
▁7 -149
▁번 -150
▁최 -151
▁반 -152
▁불 -153
▁10 -154
▁8 -155
▁알 -156
▁데 -157
▁위하 -158
▁두 -159
▁호 -160
▁회 -161
▁지만 -162
▁안 -163
▁배 -164
▁카 -165
▁실 -166
▁형 -167
▁초 -168
▁말 -169
▁따 -170
▁예 -171
▁재 -172
▁부터 -173
▁없 -174
▁타 -175
▁사용 -176
▁9 -177
▁미국 -178
▁음 -179
▁라고 -180
▁종 -181
▁요 -182
▁이후 -183
▁라는 -184
▁함 -185
▁설 -186
▁특 -187
▁면서 -188
▁일본 -189
▁는데 -190
▁코 -191
▁레 -192
▁산 -193
▁운 -194
▁권 -195
▁감 -196
▁더 -197
▁독 -198
▁활 -199
▁추 -200
▁행 -201
▁베 -202
▁왕 -203
▁처 -204
▁피 -205
민국 -206
▁그리 -207
▁김 -208
▁지역 -209
▁양 -210
▁으나 -211
▁매 -212
▁대한 -213
▁199 -214
▁다음 -215
▁민 -216
▁평 -217
▁태 -218
▁많 -219
▁건 -220
▁입 -221
▁12 -222
▁따르 -223
▁간 -224
▁참 -225
▁대한민국 -226
▁18 -227
▁및 -228
▁경기 -229
▁승 -230
▁다고 -231
▁가지 -232
▁열 -233
▁목 -234
▁드 -235
▁다른 -236
▁대학 -237
▁; -238
▁의하 -239
리아 -240
00 -241
▁프로 -242
▁총 -243
▁속 -244
스트 -245
▁북 -246
▁야 -247
▁S -248
or -249
▁집 -250
▁때문 -251
▁법 -252
▁11 -253
▁시작 -254
▁트 -255
▁물 -256
▁외 -257
▁체 -258
▁각 -259
▁시키 -260
▁달 -261
▁변 -262
▁천 -263
▁메 -264
▁직 -265
▁임 -266
▁표 -267
▁올 -268
▁ᄆ -269
▁그러 -270
▁토 -271
▁사람 -272
▁본 -273
▁& -274
▁점 -275
▁저 -276
▁쓰 -277
▁함께 -278
▁또한 -279
▁A -280
▁아서 -281
어지 -282
▁박 -283
▁팀 -284
어나 -285
▁치 -286
▁투 -287
▁한국 -288
▁청 -289
▁선수 -290
▁항 -291
▁브 -292
▁사이 -293
▁세계 -294
▁) -295
▁영화 -296
▁버 -297
▁자신 -298
▁새 -299
▁광 -300
▁약 -301
la -302
▁C -303
▁M -304
▁디 -305
▁경우 -306
▁통하 -307
▁네 -308
▁용 -309
▁판 -310
▁루 -311
▁f -312
▁기록 -313
▁T -314
▁축 -315
▁F -316
▁현재 -317
▁복 -318
▁아니 -319
▁하나 -320
▁국가 -321
시아 -322
▁존 -323
▁이름 -324
▁198 -325
▁다는 -326
▁편 -327
▁당시 -328
▁확 -329
▁가장 -330
▁삼 -331
▁위치 -332
▁_ -333
▁보이 -334
▁활동 -335
▁조선 -336
▁학교 -337
▁뒤 -338
▁이나 -339
▁철 -340
▁만들 -341
주의 -342
▁그러나 -343
▁리그 -344
▁필 -345
▁15 -346
▁( -347
▁살 -348
▁금 -349
▁페 -350
▁증 -351
▁for -352
▁합 -353
▁째 -354
mu -355
▁플 -356
▁백 -357
▁테 -358
▁심 -359
▁창 -360
▁언 -361
▁애 -362
mula -363
▁formula -364
▁식 -365
▁16 -366
▁못 -367
▁대표 -368
레이 -369
▁병 -370
▁연구 -371
▁근 -372
▁또는 -373
▁프랑 -374
부터 -375
▁니 -376
▁그리고 -377
▁/ -378
▁황 -379
▁사회 -380
▁돌 -381
▁규 -382
▁m -383
▁0 -384
▁D -385
▁충 -386
▁17 -387
▁시즌 -388
▁어서 -389
▁패 -390
▁] -391
▁첫 -392
▁순 -393
▁[ -394
▁197 -395
▁B -396
▁보다 -397
▁러 -398
▁이루 -399
▁완 -400
▁다시 -401
▁히 -402
▁못하 -403
랜드 -404
▁높 -405
▁중국 -406
▁협 -407
▁알리 -408
▁길 -409
▁서울 -410
▁클 -411
▁정부 -412
▁프랑스 -413
▁채 -414
▁영국 -415
학교 -416
▁K -417
▁I -418
▁시대 -419
▁: -420
▁는다 -421
▁키 -422
▁도시 -423
▁포함 -424
▁k -425
▁여러 -426
▁뜻 -427
▁196 -428
▁전쟁 -429
▁14 -430
▁아이 -431
▁독일 -432
▁다가 -433
▁로서 -434
▁죽 -435
er -436
▁문화 -437
▁대회 -438
▁~ -439
▁g -440
▁취 -441
▁13 -442
▁배우 -443
▁축구 -444
▁허 -445
▁모두 -446
▁가능 -447
▁위원 -448
▁별 -449
▁P -450
▁동안 -451
▁뉴 -452
▁모든 -453
in -454
▁이상 -455
▁친 -456
▁손 -457
▁곡 -458
▁감독 -459
▁정치 -460
▁환 -461
▁194 -462
▁일부 -463
▁문제 -464
▁l -465
▁방송 -466
▁석 -467
▁처음 -468
▁대학교 -469
▁개발 -470
▁L -471
▁지방 -472
▁제작 -473
▁% -474
▁구성 -475
▁검 -476
▁캐 -477
▁인하 -478
▁국제 -479
▁농 -480
▁사건 -481
▁터 -482
라이 -483
▁골 -484
▁끝 -485
▁세기 -486
▁논 -487
▁시간 -488
▁씨 -489
▁이용 -490
▁일반 -491
▁부르 -492
▁존재 -493
▁향 -494
▁작품 -495
▁G -496
▁날 -497
▁밀 -498
▁게임 -499
▁정도 -500
▁운동 -501
▁폭 -502
▁주장 -503
▁티 -504
▁쿠 -505
▁급 -506
▁역사 -507
▁gt -508
▁나오 -509
▁관계 -510
▁곳 -511
▁앞 -512
▁즉 -513
▁N -514
▁려 -515
▁섬 -516
니아 -517
▁인구 -518
▁교육 -519
▁음악 -520
▁효 -521
on -522
▁195 -523
▁km -524
▁거나 -525
▁접 -526
▁나타 -527
▁중심 -528
▁이러 -529
▁lt -530
▁육 -531
▁맡 -532
리스 -533
▁극 -534
▁U -535
▁귀 -536
▁맞 -537
▁30 -538
▁절 -539
▁R -540
▁경제 -541
▁선거 -542
▁블 -543
부분 -544
통령 -545
▁발견 -546
▁민주 -547
▁전투 -548
▁담 -549
▁누 -550
▁H -551
▁도록 -552
▁봉 -553
▁발표 -554
화국 -555
▁갖 -556
▁측 -557
▁홍 -558
▁글 -559
▁E -560
▁기술 -561
▁슈 -562
▁막 -563
▁올림 -564
▁암 -565
▁아들 -566
이스 -567
▁책 -568
▁케 -569
▁우승 -570
▁로부터 -571
▁공격 -572
▁엔 -573
▁2010 -574
▁들어 -575
▁대통령 -576
▁대부분 -577
▁잘 -578
▁영향 -579
▁걸 -580
▁사망 -581
▁올림픽 -582
an -583
▁결과 -584
▁질 -585
▁헤 -586
▁밝 -587
▁여기 -588
000 -589
▁열리 -590
▁새롭 -591
▁불리 -592
▁송 -593
▁라이 -594
▁지원 -595
▁앨 -596
▁프로그 -597
리카 -598
▁과정 -599
▁잡 -600
▁193 -601
▁발생 -602
▁의미 -603
▁관련 -604
▁머 -605
▁참여 -606
▁중앙 -607
▁유럽 -608
▁업 -609
▁진행 -610
▁최초 -611
▁c -612
▁얻 -613
란드 -614
▁범 -615
▁준 -616
20 -617
▁25 -618
▁부분 -619
지만 -620
▁고등 -621
▁특히 -622
▁독립 -623
▁자유 -624
▁결정 -625
▁제국 -626
▁태어나 -627
▁구조 -628
▁세우 -629
▁다양 -630
▁설립 -631
▁팔 -632
▁당하 -633
▁ㄴ다는 -634
버지 -635
▁설치 -636
▁속하 -637
▁상태 -638
나라 -639
▁폐 -640
▁형태 -641
▁발매 -642
▁악 -643
▁초등 -644
▁W -645
▁탈 -646
▁벌 -647
▁탄 -648
▁온 -649
▁소속 -650
▁아야 -651
▁좌 -652
▁러시아 -653
▁같이 -654
▁2008 -655
▁사실 -656
▁하지만 -657
▁좋 -658
▁이전 -659
▁침 -660
▁그녀 -661
▁일어나 -662
▁21 -663
우스 -664
▁줄 -665
▁스타 -666
▁센 -667
▁르 -668
▁커 -669
▁로마 -670
디오 -671
▁이것 -672
▁으로서 -673
▁여성 -674
▁폴 -675
▁나라 -676
▁생각 -677
▁인민 -678
▁주로 -679
▁프로그램 -680
▁타이 -681
▁필요 -682
▁갈 -683
▁2011 -684
▁2012 -685
▁출신 -686
▁혼 -687
▁싱 -688
▁참가 -689
▁이탈 -690
▁조직 -691
▁관리 -692
▁보내 -693
▁100 -694
▁기준 -695
▁운영 -696
▁오르 -697
▁위원회 -698
▁중요 -699
▁윤 -700
en -701
▁2009 -702
▁란 -703
▁생산 -704
므로 -705
▁여자 -706
▁계획 -707
▁2007 -708
▁기관 -709
▁2014 -710
▁t -711
▁행정 -712
▁상대 -713
▁등장 -714
▁이르 -715
▁정보 -716
▁성공 -717
▁계속 -718
▁음반 -719
▁바이 -720
▁데이 -721
▁지나 -722
▁지정 -723
▁매우 -724
▁국민 -725
▁a -726
▁콘 -727
▁넘 -728
▁데뷔 -729
▁밝히 -730
▁해당 -731
▁2013 -732
▁O -733
he -734
▁레이 -735
▁뿐 -736
▁과학 -737
▁철도 -738
▁아버지 -739
▁고려 -740
▁ㄴ다고 -741
▁칼 -742
스터 -743
▁대전 -744
▁몇 -745
▁발전 -746
▁이탈리아 -747
리즈 -748
▁주요 -749
▁자리 -750
프트 -751
▁사업 -752
▁191 -753
▁찾 -754
▁시스 -755
▁묘 -756
▁24 -757
▁23 -758
▁억 -759
▁처럼 -760
▁지내 -761
▁차지 -762
▁방법 -763
▁000 -764
▁2015 -765
ar -766
▁2018 -767
▁얼 -768
▁쇼 -769
남도 -770
▁헌 -771
▁월드 -772
라마 -773
▁능 -774
▁앨범 -775
▁돌아 -776
▁2016 -777
레스 -778
▁최고 -779
▁그룹 -780
▁인도 -781
▁빌 -782
▁결국 -783
▁후보 -784
▁관하 -785
▁마이 -786
르크 -787
▁출연 -788
▁아래 -789
▁시리즈 -790
▁엘 -791
▁생활 -792
이션 -793
▁전체 -794
▁J -795
▁떨 -796
▁빠 -797
▁22 -798
es -799
▁우리 -800
▁이루어지 -801
▁고등학교 -802
▁한편 -803
▁회사 -804
▁이유 -805
▁내용 -806
▁2006 -807
▁그리스 -808
이트 -809
▁격 -810
▁거치 -811
FA -812
▁192 -813
▁나가 -814
비아 -815
▁층 -816
▁제공 -817
▁풍 -818
▁인간 -819
▁연합 -820
▁힘 -821
▁스페 -822
▁방식 -823
▁의원 -824
▁공식 -825
▁2017 -826
▁많이 -827
운데 -828
▁인터 -829
▁항공 -830
▁시기 -831
▁희 -832
▁역할 -833
▁잠 -834
▁컴 -835
▁몸 -836
▁군사 -837
▁가운데 -838
▁조사 -839
▁드라마 -840
▁시스템 -841
▁초기 -842
▁류 -843
▁워 -844
▁거의 -845
▁출전 -846
▁기업 -847
▁제도 -848
▁유명 -849
▁반대 -850
▁민족 -851
▁놓 -852
▁나타나 -853
▁으로써 -854
▁s -855
▁퍼 -856
▁둘 -857
▁지구 -858
▁쓰이 -859
▁교회 -860
▁울 -861
▁푸 -862
▁떠 -863
▁색 -864
▁수상 -865
▁가리 -866
▁텔 -867
▁대신 -868
▁평가 -869
▁유지 -870
▁달리 -871
▁표현 -872
비스 -873
▁느 -874
▁으로부터 -875
▁분류 -876
▁몰 -877
▁26 -878
▁동시 -879
▁홈 -880
▁올리 -881
▁대상 -882
▁특별 -883
▁! -884
▁녹 -885
▁현대 -886
▁웨 -887
▁기능 -888
▁규모 -889
▁언어 -890
▁모습 -891
▁이미 -892
▁공개 -893
at -894
▁프리 -895
▁응 -896
▁마지 -897
▁노동 -898
▁자연 -899
▁28 -900
▁승리 -901
▁어야 -902
야기 -903
▁개인 -904
▁졸 -905
▁각각 -906
▁들어가 -907
▁연결 -908
▁27 -909
▁이론 -910
▁전하 -911
▁인정 -912
▁밖 -913
▁뛰 -914
▁붙 -915
▁2019 -916
▁단체 -917
▁진출 -918
▁지도 -919
▁브라 -920
▁임명 -921
▁마지막 -922
북도 -923
▁핵 -924
▁V -925
▁떨어지 -926
▁시장 -927
▁2005 -928
▁2000 -929
▁목적 -930
▁상황 -931
머니 -932
▁시절 -933
▁샤 -934
▁너 -935
▁수도 -936
▁아르 -937
▁전문 -938
▁정책 -939
▁난 -940
▁눈 -941
▁멀 -942
▁메이 -943
▁정의 -944
▁기간 -945
▁경상 -946
▁직접 -947
▁목록 -948
▁족 -949
▁산업 -950
▁습 -951
▁이야기 -952
▁먹 -953
▁서로 -954
ic -955
니다 -956
al -957
▁계약 -958
▁혁 -959
▁압 -960
▁오스트 -961
스크 -962
▁야구 -963
▁추가 -964
▁밴 -965
▁슬 -966
▁기원 -967
▁으면 -968
▁건설 -969
▁공동 -970
BS -971
▁모델 -972
▁2004 -973
▁콜 -974
▁개최 -975
▁경찰 -976
▁FC -977
▁플레이 -978
▁건물 -979
▁공간 -980
▁망 -981
▁형성 -982
▁50 -983
▁활약 -984
▁그것 -985
▁자동 -986
▁결혼 -987
▁거리 -988
▁부산 -989
▁스페인 -990
▁훈 -991
▁31 -992
▁29 -993
▁변화 -994
학자 -995
▁노래 -996
▁사상 -997
▁졸업 -998
▁교수 -999
▁변경 -1000
으키 -1001
▁칸 -1002
▁나이 -1003
▁b -1004
▁국회 -1005
▁TV -1006
▁인물 -1007
▁완전 -1008
▁마을 -1009
is -1010
▁다르 -1011
re -1012
▁공화국 -1013
▁궁 -1014
it -1015
▁텔레 -1016
▁벨 -1017
▁비롯 -1018
▁사랑 -1019
▁역시 -1020
▁190 -1021
▁낮 -1022
▁흐 -1023
▁노선 -1024
▁인민공 -1025
▁휴 -1026
▁인민공화국 -1027
비전 -1028
▁ㅏ -1029
▁지지 -1030
▁2020 -1031
▁학생 -1032
▁실제 -1033
ou -1034
▁맥 -1035
▁중학교 -1036
▁보통 -1037
▁최대 -1038
▁만나 -1039
▁요구 -1040
▁볼 -1041
▁따라 -1042
▁지금 -1043
이드 -1044
▁서비스 -1045
▁견 -1046
▁잉 -1047
대로 -1048
▁겠 -1049
▁싸 -1050
▁보호 -1051
▁탑 -1052
▁전국 -1053
▁일으키 -1054
프리카 -1055
▁소설 -1056
▁우주 -1057
▁의회 -1058
▁중화 -1059
▁딸 -1060
▁없이 -1061
▁겸 -1062
▁실시 -1063
▁자기 -1064
▁기본 -1065
▁판매 -1066
▁지하 -1067
▁혹 -1068
▁황제 -1069
▁다이 -1070
▁옥 -1071
운드 -1072
▁가수 -1073
▁비판 -1074
역시 -1075
▁전통 -1076
▁싱글 -1077
르트 -1078
▁차이 -1079
▁엄 -1080
▁높이 -1081
▁밴드 -1082
▁떠나 -1083
▁원래 -1084
▁기반 -1085
▁론 -1086
▁퇴 -1087
너지 -1088
▁종교 -1089
▁어떤 -1090
▁버리 -1091
▁세력 -1092
▁내리 -1093
▁2002 -1094
▁경기도 -1095
▁탐 -1096
로스 -1097
▁40 -1098
▁소련 -1099
▁이끌 -1100
▁자료 -1101
스탄 -1102
▁수행 -1103
▁환경 -1104
▁기타 -1105
▁2003 -1106
▁가리키 -1107
▁회의 -1108
▁전기 -1109
▁모양 -1110
▁풀 -1111
▁센터 -1112
▁월드컵 -1113
▁부대 -1114
▁시설 -1115
▁운행 -1116
▁나타내 -1117
▁그래 -1118
▁특징 -1119
▁전자 -1120
▁공연 -1121
▁도쿄 -1122
러스 -1123
▁걸치 -1124
▁교황 -1125
▁설명 -1126
▁뮤 -1127
▁컵 -1128
▁기념 -1129
나다 -1130
▁통합 -1131
▁이동 -1132
▁예술 -1133
▁분야 -1134
▁기독 -1135
▁승강 -1136
▁명칭 -1137
▁작업 -1138
le -1139
▁득 -1140
mp -1141
▁남자 -1142
▁텔레비전 -1143
▁염 -1144
▁행동 -1145
▁도입 -1146
▁동물 -1147
▁연방 -1148
▁따라서 -1149
▁구역 -1150
▁선정 -1151
▁바로 -1152
▁군대 -1153
▁숙 -1154
들이 -1155
▁전라 -1156
▁애니 -1157
▁능력 -1158
스타 -1159
▁출시 -1160
▁가족 -1161
▁작용 -1162
▁증가 -1163
▁넓 -1164
▁할 -1165
▁남쪽 -1166
▁확인 -1167
▁기존 -1168
▁방향 -1169
▁소프트 -1170
▁행위 -1171
▁북쪽 -1172
▁지휘 -1173
▁제외 -1174
▁이때 -1175
▁교통 -1176
▁기독교 -1177
▁문학 -1178
▁차량 -1179
▁착 -1180
▁옮 -1181
▁작가 -1182
▁= -1183
▁사고 -1184
의원 -1185
▁비슷 -1186
▁국내 -1187
▁형식 -1188
▁십 -1189
▁므로 -1190
▁강하 -1191
▁클럽 -1192
▁어머니 -1193
▁혁명 -1194
▁그렇 -1195
▁윌 -1196
▁작곡 -1197
▁도로 -1198
▁마르 -1199
▁빈 -1200
▁지배 -1201
▁효과 -1202
▁낙 -1203
▁런 -1204
▁마다 -1205
▁거두 -1206
▁몽 -1207
▁왕국 -1208
▁역임 -1209
▁태양 -1210
▁과거 -1211
▁유일 -1212
▁캐나다 -1213
▁컴퓨 -1214
▁승강장 -1215
▁FI -1216
▁챔 -1217
▁옮기 -1218
▁사무 -1219
▁열차 -1220
▁이적 -1221
▁갑 -1222
▁ㄴ데 -1223
BC -1224
▁혹은 -1225
▁협회 -1226
▁남부 -1227
리오 -1228
▁비교 -1229
▁흥 -1230
▁추정 -1231
▁생기 -1232
▁공산 -1233
▁베이 -1234
▁정당 -1235
▁솔 -1236
▁뉴욕 -1237
▁흔 -1238
▁갖추 -1239
▁담당 -1240
▁이어지 -1241
자리 -1242
▁시민 -1243
▁이사 -1244
▁적용 -1245
▁동일 -1246
▁획 -1247
▁늘 -1248
▁육군 -1249
▁주변 -1250
▁1990 -1251
▁홀 -1252
▁인기 -1253
▁장관 -1254
▁즈 -1255
▁2001 -1256
▁대사 -1257
▁동쪽 -1258
▁물리 -1259
▁챔피 -1260
▁넣 -1261
▁스포 -1262
▁스트 -1263
▁쪽 -1264
▁X -1265
▁세포 -1266
▁윈 -1267
▁곧 -1268
▁상당 -1269
▁건축 -1270
▁예정 -1271
▁사단 -1272
▁공사 -1273
▁성장 -1274
▁마음 -1275
▁징 -1276
▁개념 -1277
▁맨 -1278
▁데이터 -1279
▁p -1280
▁구간 -1281
▁오늘 -1282
▁컴퓨터 -1283
▁조지 -1284
▁차례 -1285
드리 -1286
▁품 -1287
▁움 -1288
▁크기 -1289
▁돈 -1290
▁에너지 -1291
▁비하 -1292
▁멤 -1293
▁서쪽 -1294
▁189 -1295
▁ㄴ지 -1296
▁버스 -1297
▁흑 -1298
▁바꾸 -1299
▁어리 -1300
▁바르 -1301
이지 -1302
▁잔 -1303
▁치르 -1304
▁충청 -1305
▁록 -1306
▁액 -1307
▁자체 -1308
▁땅 -1309
▁칭 -1310
▁어느 -1311
▁작전 -1312
▁조건 -1313
▁실패 -1314
▁민주주의 -1315
▁연기 -1316
▁디자 -1317
▁이라 -1318
▁이런 -1319
▁율 -1320
▁반응 -1321
▁돌아오 -1322
▁덕 -1323
▁이어 -1324
▁선언 -1325
▁연주 -1326
▁FIFA -1327
▁피해 -1328
▁쉽 -1329
▁부족 -1330
▁컨 -1331
▁d -1332
▁버전 -1333
▁종류 -1334
▁특정 -1335
▁연속 -1336
▁페르 -1337
가지 -1338
▁선택 -1339
메이션 -1340
▁국립 -1341
▁익 -1342
▁대체 -1343
▁쌍 -1344
카이 -1345
▁수록 -1346
▁방영 -1347
▁규정 -1348
el -1349
▁다루 -1350
▁해군 -1351
거리 -1352
▁대구 -1353
▁공항 -1354
▁고대 -1355
라지 -1356
루스 -1357
▁내부 -1358
et -1359
▁멤버 -1360
▁체제 -1361
▁속도 -1362
버스 -1363
▁조약 -1364
▁결승 -1365
▁정신 -1366
▁북부 -1367
▁아시아 -1368
▁명령 -1369
▁기원전 -1370
▁는지 -1371
▁연대 -1372
▁왜 -1373
글랜드 -1374
▁선출 -1375
▁헌법 -1376
▁인천 -1377
▁크리스 -1378
▁쥐 -1379
▁애니메이션 -1380
▁ㅓ -1381
▁휘 -1382
▁옛 -1383
▁가치 -1384
▁단계 -1385
▁포르 -1386
▁개혁 -1387
▁링 -1388
▁먼 -1389
ion -1390
▁친구 -1391
▁최종 -1392
▁물질 -1393
▁영어 -1394
웨어 -1395
▁자치 -1396
▁분석 -1397
▁달러 -1398
▁최근 -1399
ing -1400
▁나누 -1401
▁설계 -1402
▁밤 -1403
▁척 -1404
트남 -1405
▁의사 -1406
▁가깝 -1407
▁강화 -1408
▁출판 -1409
▁더욱 -1410
▁평균 -1411
아가 -1412
▁비행 -1413
▁소비 -1414
시마 -1415
▁롭 -1416
▁지명 -1417
▁1999 -1418
▁체계 -1419
▁로스 -1420
▁술 -1421
널리 -1422
▁법원 -1423
▁북한 -1424
▁집단 -1425
ol -1426
라스 -1427
▁배치 -1428
▁잉글랜드 -1429
▁머리 -1430
▁관심 -1431
▁남기 -1432
▁표준 -1433
▁곤 -1434
▁1998 -1435
메리카 -1436
▁언급 -1437
▁팬 -1438
▁개월 -1439
▁Y -1440
▁치료 -1441
▁획득 -1442
▁씩 -1443
▁부문 -1444
▁엔진 -1445
▁파이 -1446
▁cm -1447
▁하이 -1448
▁현상 -1449
21 -1450
▁겨 -1451
▁o -1452
▁헬 -1453
▁지속 -1454
▁분리 -1455
▁실험 -1456
▁부상 -1457
▁지니 -1458
▁조정 -1459
▁고자 -1460
▁1980 -1461
▁맺 -1462
▁유사 -1463
▁함수 -1464
▁60 -1465
▁하계 -1466
▁선발 -1467
▁파리 -1468
▁벤 -1469
▁처리 -1470
▁스테 -1471
▁확장 -1472
▁공원 -1473
▁스포츠 -1474
▁마치 -1475
스코 -1476
▁챔피언 -1477
▁대중 -1478
▁베르 -1479
▁소유 -1480
리지 -1481
▁제품 -1482
▁35 -1483
▁마리 -1484
▁입단 -1485
▁관할 -1486
▁시도 -1487
▁통일 -1488
▁어렵 -1489
▁목표 -1490
▁빠르 -1491
▁이해 -1492
▁자동차 -1493
▁도움 -1494
▁공립 -1495
▁요소 -1496
▁장군 -1497
▁향하 -1498
▁재판 -1499
▁주도 -1500
▁정규 -1501
디어 -1502
▁mm -1503
▁문자 -1504
▁에스 -1505
▁점령 -1506
▁후반 -1507
▁꽃 -1508
▁외국 -1509
▁요시 -1510
▁나무 -1511
▁거주 -1512
▁구단 -1513
▁ㅂ -1514
▁려고 -1515
▁주인 -1516
▁미치 -1517
▁편성 -1518
▁앙 -1519
▁주민 -1520
▁기사 -1521
▁바뀌 -1522
▁잃 -1523
▁시험 -1524
▁원자 -1525
▁네덜 -1526
▁네덜란드 -1527
▁가르 -1528
▁다면 -1529
▁학자 -1530
▁행사 -1531
▁스럽 -1532
▁괴 -1533
▁책임 -1534
▁끌 -1535
▁통신 -1536
▁n -1537
▁안정 -1538
▁앤 -1539
광역시 -1540
▁동맹 -1541
▁사령 -1542
▁결합 -1543
▁투표 -1544
▁혈 -1545
▁일종 -1546
▁수준 -1547
▁웹 -1548
▁모르 -1549
▁고속 -1550
▁알렉 -1551
▁언론 -1552
▁깊 -1553
▁불구 -1554
▁끝나 -1555
▁잇 -1556
▁장치 -1557
▁불교 -1558
▁예선 -1559
▁듯 -1560
om -1561
▁다니 -1562
▁길이 -1563
▁디자인 -1564
▁아프리카 -1565
▁개봉 -1566
야마 -1567
▁1997 -1568
▁준비 -1569
젝트 -1570
나무 -1571
▁정하 -1572
▁덴 -1573
▁베트남 -1574
▁문서 -1575
▁본선 -1576
▁촉 -1577
▁빛 -1578
▁방문 -1579
▁광주 -1580
▁칠 -1581
일랜드 -1582
▁사진 -1583
▁캠 -1584
▁신문 -1585
▁정권 -1586
▁가문 -1587
▁유전 -1588
▁경험 -1589
▁정확 -1590
▁믿 -1591
▁가정 -1592
▁드러 -1593
메달 -1594
▁구분 -1595
▁몬 -1596
st -1597
▁성적 -1598
▁대로 -1599
▁폴란드 -1600
▁1996 -1601
▁요리 -1602
▁The -1603
▁제조 -1604
▁그림 -1605
▁평화 -1606
▁1995 -1607
▁비디오 -1608
▁핀 -1609
▁오늘날 -1610
▁원인 -1611
▁amp -1612
▁부인 -1613
▁통과 -1614
▁용어 -1615
▁부여 -1616
▁왕조 -1617
▁찬 -1618
▁아직 -1619
▁32 -1620
▁정리 -1621
▁70 -1622
▁려는 -1623
▁일제 -1624
▁값 -1625
▁추진 -1626
▁깨 -1627
▁아마 -1628
▁프로젝트 -1629
▁런던 -1630
스로 -1631
▁방어 -1632
특별 -1633
▁올라 -1634
▁병원 -1635
▁이곳 -1636
▁신라 -1637
▁종합 -1638
▁민주당 -1639
▁널리 -1640
▁은퇴 -1641
▁멸 -1642
스턴 -1643
▁해석 -1644
▁입장 -1645
▁프레 -1646
▁으므로 -1647
▁경쟁 -1648
▁통치 -1649
▁경영 -1650
인트 -1651
▁슈퍼 -1652
▁영역 -1653
▁끼 -1654
▁500 -1655
▁발달 -1656
▁이듬 -1657
▁폐지 -1658
▁노력 -1659
▁인터넷 -1660
▁훈련 -1661
아들이 -1662
▁보도 -1663
▁죽이 -1664
▁파괴 -1665
웨이 -1666
▁미사 -1667
▁츠 -1668
▁제주 -1669
▁그런 -1670
▁주제 -1671
▁제안 -1672
▁총리 -1673
▁꼬 -1674
▁the -1675
▁부정 -1676
am -1677
▁놀 -1678
레일 -1679
▁면적 -1680
▁회장 -1681
▁80 -1682
▁주연 -1683
▁기여 -1684
▁지키 -1685
▁완전히 -1686
▁미술 -1687
▁모으 -1688
▁서부 -1689
▁만화 -1690
▁유래 -1691
▁접하 -1692
▁이듬해 -1693
▁번호 -1694
▁요청 -1695
리트 -1696
▁국회의원 -1697
▁188 -1698
▁빅 -1699
▁경기장 -1700
▁정상 -1701
▁도서 -1702
▁야마 -1703
▁식민 -1704
▁남성 -1705
▁자주 -1706
▁생물 -1707
▁연맹 -1708
▁투수 -1709
▁ㅂ니다 -1710
▁UE -1711
라인 -1712
▁법률 -1713
▁경계 -1714
▁궤 -1715
▁동부 -1716
▁벌이 -1717
▁+ -1718
▁폰 -1719
▁무기 -1720
▁1994 -1721
▁린 -1722
il -1723
▁1970 -1724
▁행성 -1725
▁돕 -1726
▁나뉘 -1727
▁금지 -1728
▁움직 -1729
▁수용 -1730
▁UEFA -1731
▁등록 -1732
▁소재 -1733
▁인식 -1734
▁제한 -1735
톨릭 -1736
▁삼성 -1737
▁철학 -1738
▁펼 -1739
▁연구소 -1740
▁무대 -1741
▁바탕 -1742
▁아시 -1743
▁외교 -1744
▁영토 -1745
ac -1746
▁더불 -1747
▁빠지 -1748
▁라디오 -1749
머지 -1750
▁나머지 -1751
▁접근 -1752
▁반면 -1753
▁지진 -1754
▁스스로 -1755
▁지대 -1756
▁강원 -1757
▁KBS -1758
▁노르 -1759
▁다리 -1760
▁발사 -1761
▁거부 -1762
▁뇌 -1763
▁조각 -1764
▁업무 -1765
▁박물 -1766
▁오래 -1767
▁돌아가 -1768
▁받아들이 -1769
▁뉴스 -1770
▁표기 -1771
▁정식 -1772
▁마찬 -1773
▁마찬가지 -1774
▁벽 -1775
▁오스 -1776
▁아일랜드 -1777
▁결성 -1778
▁붙이 -1779
▁상호 -1780
▁서식 -1781
▁은행 -1782
▁필리 -1783
▁논란 -1784
▁굴 -1785
▁펜 -1786
▁의식 -1787
▁1992 -1788
▁다수 -1789
▁보수 -1790
▁이렇 -1791
▁기초 -1792
▁소리 -1793
▁이기 -1794
▁짧 -1795
▁득점 -1796
▁ㅕ -1797
▁공작 -1798
▁45 -1799
▁가톨릭 -1800
▁복귀 -1801
요일 -1802
▁주의 -1803
▁박사 -1804
▁성격 -1805
▁아카 -1806
▁트리 -1807
임스 -1808
▁아도 -1809
▁바다 -1810
▁임시 -1811
▁스웨 -1812
ro -1813
▁실제로 -1814
시코 -1815
▁수학 -1816
▁로써 -1817
▁장애 -1818
▁해결 -1819
▁총선 -1820
▁36 -1821
▁패배 -1822
▁그대로 -1823
모토 -1824
▁윌리 -1825
▁of -1826
ed -1827
▁검사 -1828
워드 -1829
▁지도자 -1830
▁장소 -1831
▁느끼 -1832
▁초대 -1833
▁브라질 -1834
▁습니다 -1835
▁유로 -1836
▁긴 -1837
▁에이 -1838
▁마이크 -1839
▁이스 -1840
▁강력 -1841
트리 -1842
▁박물관 -1843
▁스위 -1844
▁ㄴ가 -1845
▁여행 -1846
▁차원 -1847
▁제시 -1848
▁표시 -1849
▁여름 -1850
▁묘사 -1851
▁오브 -1852
▁카드 -1853
▁기구 -1854
▁식물 -1855
▁화학 -1856
▁단순 -1857
▁인사 -1858
▁1960 -1859
▁집합 -1860
ig -1861
▁안전 -1862
▁차트 -1863
▁이외 -1864
▁계열 -1865
▁관측 -1866
▁유니 -1867
▁연극 -1868
▁권력 -1869
▁뛰어나 -1870
▁활용 -1871
▁1991 -1872
토리 -1873
▁스웨덴 -1874
▁무역 -1875
▁히로 -1876
▁싸우 -1877
▁멕 -1878
▁오스트리아 -1879
▁꾸 -1880
▁먼저 -1881
▁회원 -1882
▁지적 -1883
▁기계 -1884
▁아무 -1885
▁디지 -1886
▁파일 -1887
▁자라 -1888
▁캐릭 -1889
▁개국 -1890
부르크 -1891
로나 -1892
▁취하 -1893
▁근처 -1894
▁형제 -1895
▁1993 -1896
▁33 -1897
▁반란 -1898
▁조성 -1899
레일리아 -1900
▁위험 -1901
▁중단 -1902
▁중간 -1903
▁붕 -1904
▁만큼 -1905
▁세대 -1906
▁소프트웨어 -1907
▁흡 -1908
▁발행 -1909
▁일정 -1910
▁분포 -1911
▁도착 -1912
▁시행 -1913
배우 -1914
베이 -1915
▁기자 -1916
▁협력 -1917
▁다만 -1918
▁스코 -1919
▁스튜 -1920
트로 -1921
▁량 -1922
▁띠 -1923
특별시 -1924
od -1925
버트 -1926
▁여객 -1927
▁사이트 -1928
▁캐릭터 -1929
▁서울특별시 -1930
▁죽음 -1931
▁죄 -1932
▁하루 -1933
▁단어 -1934
사카 -1935
▁들어오 -1936
▁186 -1937
▁해안 -1938
▁윈도 -1939
▁지하철 -1940
주시 -1941
▁파견 -1942
▁", -1943
▁렌 -1944
ve -1945
▁세상 -1946
▁수많 -1947
▁연장 -1948
워크 -1949
니스 -1950
▁삶 -1951
▁카이 -1952
▁혜 -1953
▁내려 -1954
▁순위 -1955
as -1956
▁코드 -1957
▁겪 -1958
▁공장 -1959
▁투자 -1960
▁제기 -1961
▁태평 -1962
▁혐 -1963
나이 -1964
▁다카 -1965
▁감소 -1966
▁본부 -1967
▁전시 -1968
▁내각 -1969
▁뮤직 -1970
▁오스트레일리아 -1971
▁근거 -1972
▁후기 -1973
▁이라고 -1974
▁확대 -1975
▁경상남도 -1976
지션 -1977
▁번역 -1978
▁생성 -1979
▁케이 -1980
▁옹 -1981
소년 -1982
▁윌리엄 -1983
▁귀족 -1984
▁? -1985
▁듣 -1986
▁지상 -1987
▁경상북도 -1988
▁지식 -1989
▁위기 -1990
▁네트 -1991
▁보유 -1992
▁보존 -1993
▁균 -1994
▁양식 -1995
▁유형 -1996
▁구하 -1997
▁달성 -1998
무원 -1999
▁숨 -2000
▁관광 -2001
▁1988 -2002
▁동생 -2003
▁상징 -2004
▁멜 -2005
▁촬 -2006
▁전략 -2007
▁유대 -2008
▁187 -2009
▁수사 -2010
▁멕시코 -2011
▁극장 -2012
▁래 -2013
▁h -2014
▁당선 -2015
▁완성 -2016
▁유리 -2017
▁성립 -2018
▁캘 -2019
▁촌 -2020
▁상업 -2021
▁영상 -2022
▁원소 -2023
▁대응 -2024
▁학위 -2025
▁디지털 -2026
▁근무 -2027
▁이렇게 -2028
▁님 -2029
▁계승 -2030
▁특수 -2031
▁짓 -2032
▁촬영 -2033
▁34 -2034
▁단위 -2035
▁체포 -2036
티아 -2037
▁이슬 -2038
아내 -2039
▁흐르 -2040
▁옆 -2041
▁나중 -2042
▁수비 -2043
▁권리 -2044
▁식민지 -2045
▁몇몇 -2046
▁싶 -2047
▁38 -2048
▁발매되 -2049
▁체결 -2050
▁코치 -2051
▁전달 -2052
▁이집 -2053
가리 -2054
회사 -2055
▁이집트 -2056
▁미래 -2057
id -2058
▁마사 -2059
▁생명 -2060
▁벌어지 -2061
▁알렉산 -2062
▁판단 -2063
▁걸리 -2064
▁듀 -2065
▁낳 -2066
▁90 -2067
아시아 -2068
▁맹 -2069
▁국왕 -2070
▁타이틀 -2071
▁아내 -2072
▁이란 -2073
▁시티 -2074
▁종목 -2075
▁직후 -2076
가와 -2077
▁헨 -2078
▁승격 -2079
▁관찰 -2080
▁1989 -2081
▁이주 -2082
▁톤 -2083
▁시청 -2084
▁측정 -2085
▁자본 -2086
▁률 -2087
▁크로 -2088
▁펼치 -2089
▁주식 -2090
▁젊 -2091
▁맞추 -2092
▁틀 -2093
▁미군 -2094
모리 -2095
▁대륙 -2096
▁즐 -2097
▁소수 -2098
▁개통 -2099
▁ㄴ다면 -2100
▁전환 -2101
▁밑 -2102
▁도서관 -2103
▁48 -2104
▁2021 -2105
▁설정 -2106
ec -2107
▁채널 -2108
▁동계 -2109
▁엘리 -2110
▁얼마 -2111
us -2112
▁세르 -2113
▁스키 -2114
▁라인 -2115
▁새로 -2116
▁의견 -2117
▁특성 -2118
▁홍콩 -2119
▁정치인 -2120
▁쌓 -2121
▁', -2122
▁납 -2123
NA -2124
▁개정 -2125
▁문화재 -2126
▁시위 -2127
and -2128
▁포르투 -2129
▁신경 -2130
▁종료 -2131
▁텍 -2132
▁지위 -2133
▁답 -2134
▁취임 -2135
▁셰 -2136
▁제정 -2137
▁미사일 -2138
▁상하 -2139
▁달하 -2140
▁1950 -2141
▁기획 -2142
▁| -2143
▁헝 -2144
▁주어지 -2145
▁은하 -2146
▁300 -2147
▁교체 -2148
▁사회주의 -2149
▁결승전 -2150
▁아라 -2151
▁으면서 -2152
디아 -2153
▁후쿠 -2154
▁예수 -2155
▁주인공 -2156
▁본관 -2157
▁MBC -2158
▁천황 -2159
스티 -2160
▁청년 -2161
▁범죄 -2162
▁빼 -2163
▁전차 -2164
▁주목 -2165
코드 -2166
▁소개 -2167
▁벗 -2168
▁출생 -2169
▁해외 -2170
▁충돌 -2171
ad -2172
▁제임스 -2173
▁았었 -2174
▁녹음 -2175
▁장기 -2176
▁아키 -2177
▁수정 -2178
▁셀 -2179
▁춘 -2180
▁e -2181
▁계산 -2182
▁비용 -2183
교회 -2184
▁개선 -2185
▁스티 -2186
▁전라남도 -2187
전히 -2188
▁본래 -2189
▁남북 -2190
▁1945 -2191
▁음식 -2192
▁모이 -2193
▁바이러스 -2194
▁즉위 -2195
▁비밀 -2196
▁계기 -2197
▁자격 -2198
▁합류 -2199
리학 -2200
▁공부 -2201
▁건강 -2202
▁소장 -2203
▁공급 -2204
▁건너 -2205
▁카운 -2206
▁부모 -2207
▁이래 -2208
ent -2209
▁펠 -2210
▁만드 -2211
▁원정 -2212
▁배경 -2213
▁누구 -2214
▁홈런 -2215
▁제거 -2216
▁네트워크 -2217
스카 -2218
▁물론 -2219
▁체육 -2220
▁에드 -2221
▁궤도 -2222
▁털 -2223
50 -2224
▁각종 -2225
▁인근 -2226
▁ㅏㅆ -2227
▁시내 -2228
▁거대 -2229
▁컬 -2230
▁오후 -2231
▁작성 -2232
보이 -2233
▁명예 -2234
▁신학 -2235
▁집중 -2236
▁자원 -2237
▁가입 -2238
▁감염 -2239
▁입학 -2240
▁가격 -2241
▁공군 -2242
▁왼 -2243
▁읽 -2244
▁베네 -2245
▁랑 -2246
▁객 -2247
▁피아 -2248
▁국경 -2249
▁군인 -2250
▁전사 -2251
▁롤 -2252
베르 -2253
▁병력 -2254
▁천문 -2255
라도 -2256
▁강조 -2257
▁저항 -2258
▁통제 -2259
▁성우 -2260
▁이슬람 -2261
티나 -2262
▁측면 -2263
▁울산 -2264
▁명단 -2265
▁아우 -2266
▁찰 -2267
▁농업 -2268
▁줄이 -2269
▁신호 -2270
▁포지션 -2271
▁소송 -2272
피아 -2273
▁인수 -2274
▁만약 -2275
▁병사 -2276
▁세이 -2277
▁학문 -2278
리포 -2279
▁기후 -2280
▁질량 -2281
▁블랙 -2282
▁실행 -2283
▁나서 -2284
▁너무 -2285
▁기회 -2286
▁St -2287
▁플로 -2288
▁이번 -2289
▁피하 -2290
▁터미 -2291
▁콩 -2292
ot -2293
▁오른 -2294
▁터키 -2295
도로 -2296
▁증명 -2297
▁변호 -2298
▁최소 -2299
▁태평양 -2300
니어 -2301
▁겨울 -2302
▁광고 -2303
▁약간 -2304
▁강원도 -2305
▁정착 -2306
▁노동자 -2307
▁엑 -2308
▁비트 -2309
▁x -2310
▁마리아 -2311
▁쉬 -2312
동안 -2313
▁무장 -2314
▁잎 -2315
▁외부 -2316
▁미디어 -2317
▁해방 -2318
un -2319
▁환자 -2320
▁몽골 -2321
▁쇠 -2322
▁37 -2323
▁바라 -2324
▁사라지 -2325
▁국방 -2326
▁바람 -2327
ow -2328
▁전반 -2329
▁편집 -2330
▁제목 -2331
▁마쓰 -2332
▁냉 -2333
▁in -2334
▁도중 -2335
▁터미널 -2336
▁무렵 -2337
▁표면 -2338
스키 -2339
▁마련 -2340
▁지점 -2341
철도 -2342
▁금융 -2343
▁허용 -2344
▁라운드 -2345
▁혐의 -2346
▁충분 -2347
▁밀도 -2348
▁재산 -2349
▁가스 -2350
소리 -2351
▁유도 -2352
▁카르 -2353
▁1987 -2354
▁여전히 -2355
▁빨 -2356
▁ㅕ서 -2357
오카 -2358
▁힐 -2359
▁그해 -2360
▁학년 -2361
▁인디 -2362
▁루이 -2363
▁오리 -2364
▁합병 -2365
▁고전 -2366
▁가져 -2367
▁현실 -2368
▁전력 -2369
▁민간 -2370
▁보고 -2371
▁윈도우 -2372
▁헝가리 -2373
▁뒷 -2374
▁숲 -2375
▁재직 -2376
▁오사카 -2377
▁꼬리 -2378
▁충청남도 -2379
▁전역 -2380
▁양성 -2381
▁포르투갈 -2382
▁킹 -2383
▁41 -2384
▁영화배우 -2385
▁재정 -2386
▁령 -2387
▁w -2388
▁등급 -2389
마크 -2390
▁붕괴 -2391
▁후지 -2392
▁계급 -2393
▁적극 -2394
▁행하 -2395
▁동료 -2396
▁선수단 -2397
드로 -2398
▁강제 -2399
▁51 -2400
▁공주 -2401
▁라이브 -2402
▁1986 -2403
▁위협 -2404
▁공공 -2405
▁엔터 -2406
▁대대 -2407
▁이하 -2408
ur -2409
▁조치 -2410
▁위원장 -2411
▁1984 -2412
▁근대 -2413
▁스튜디오 -2414
▁승인 -2415
▁봄 -2416
▁전선 -2417
▁군주 -2418
▁캘리포 -2419
▁유엔 -2420
▁온도 -2421
▁수입 -2422
▁구축 -2423
▁이미지 -2424
▁범위 -2425
▁대수 -2426
▁이제 -2427
▁점차 -2428
▁샌 -2429
▁업체 -2430
▁꿈 -2431
▁논문 -2432
▁원칙 -2433
▁클라 -2434
▁임무 -2435
▁항상 -2436
▁둥 -2437
▁확보 -2438
▁출발 -2439
▁경력 -2440
▁위성 -2441
▁다섯 -2442
▁공산당 -2443
▁거래 -2444
▁양자 -2445
▁교사 -2446
▁앞서 -2447
러지 -2448
▁전개 -2449
▁고구 -2450
▁캘리포니아 -2451
▁채택 -2452
▁회복 -2453
▁대학원 -2454
▁잭 -2455
▁수단 -2456
▁성인 -2457
▁올라가 -2458
▁든 -2459
▁공업 -2460
▁증거 -2461
마스 -2462
▁토론 -2463
▁수립 -2464
▁핀란드 -2465
▁필리핀 -2466
▁섭 -2467
▁강의 -2468
▁잡지 -2469
주교 -2470
테르 -2471
▁드래 -2472
▁첨 -2473
▁합의 -2474
▁아시안 -2475
ch -2476
▁남아 -2477
▁어떻 -2478
▁그래서 -2479
▁39 -2480
▁얼굴 -2481
▁남편 -2482
▁만족 -2483
▁사례 -2484
▁스파 -2485
▁개편 -2486
▁400 -2487
▁일원 -2488
▁의료 -2489
▁선생 -2490
▁부근 -2491
▁기지 -2492
▁라며 -2493
▁매년 -2494
▁폭발 -2495
바이 -2496
▁시인 -2497
▁나카 -2498
▁앞두 -2499
고리 -2500
▁욕 -2501
▁이스라 -2502
▁간주 -2503
▁이승 -2504
▁스위스 -2505
▁1985 -2506
▁장면 -2507
▁끊 -2508
▁모스크 -2509
▁붉 -2510
▁장비 -2511
▁64 -2512
▁대형 -2513
▁군단 -2514
▁종종 -2515
▁아름 -2516
▁토지 -2517
▁튀 -2518
로드 -2519
다리 -2520
▁스리 -2521
▁아주 -2522
▁대기 -2523
▁불가 -2524
▁둘러 -2525
데미 -2526
▁뜨 -2527
▁규칙 -2528
▁경향 -2529
ay -2530
▁이스라엘 -2531
▁움직이 -2532
ir -2533
▁경주 -2534
▁기대 -2535
▁어린 -2536
▁분자 -2537
▁종이 -2538
▁ㅏ서 -2539
▁게이 -2540
키아 -2541
▁수원 -2542
▁항성 -2543
▁캄 -2544
ut -2545
▁라면 -2546
▁II -2547
▁조합 -2548
▁기억 -2549
▁심하 -2550
▁낭 -2551
▁확실 -2552
▁진화 -2553
▁에게서 -2554
▁저지 -2555
▁아랍 -2556
▁그곳 -2557
▁해체 -2558
▁귀국 -2559
▁맛 -2560
백질 -2561
▁탑재 -2562
레이드 -2563
고기 -2564
우드 -2565
▁대장 -2566
▁43 -2567
▁레코드 -2568
um -2569
▁좀 -2570
어들 -2571
▁강점 -2572
▁향상 -2573
▁서양 -2574
▁짐 -2575
▁장식 -2576
▁아나 -2577
▁아카데미 -2578
▁스피 -2579
▁br -2580
▁신화 -2581
▁평양 -2582
▁투어 -2583
▁변하 -2584
▁클래 -2585
▁고양 -2586
▁침공 -2587
▁아메리카 -2588
▁아름답 -2589
▁보장 -2590
▁청나라 -2591
▁융 -2592
im -2593
▁청소년 -2594
▁불과 -2595
▁의학 -2596
▁폼 -2597
▁42 -2598
▁선고 -2599
▁박쥐 -2600
▁감정 -2601
요시 -2602
▁고구려 -2603
오스 -2604
▁남동 -2605
▁랭 -2606
▁자금 -2607
▁사후 -2608
▁켄 -2609
▁가로 -2610
▁가사 -2611
▁새기 -2612
▁성과 -2613
▁보병 -2614
▁잠시 -2615
보드 -2616
▁카운티 -2617
▁메이저 -2618
▁스타일 -2619
▁에피 -2620
네스 -2621
▁카메 -2622
▁독자 -2623
▁이끄 -2624
ver -2625
▁고문 -2626
▁소년 -2627
▁신설 -2628
▁우선 -2629
▁나치 -2630
▁살해 -2631
▁단지 -2632
▁1982 -2633
▁만주 -2634
▁55 -2635
▁확정 -2636
▁중화민국 -2637
타인 -2638
▁우수 -2639
▁단백질 -2640
▁숭 -2641
▁라틴 -2642
무르 -2643
에르 -2644
라노 -2645
▁스카 -2646
▁지시 -2647
▁편입 -2648
▁신앙 -2649
▁합치 -2650
▁함대 -2651
틀랜드 -2652
▁복잡 -2653
▁스케 -2654
▁철도역 -2655
▁삭 -2656
▁나폴 -2657
▁비율 -2658
▁예상 -2659
▁광역시 -2660
▁차별 -2661
네시아 -2662
▁왕위 -2663
▁태풍 -2664
▁구체 -2665
▁검찰 -2666
▁의장 -2667
▁44 -2668
▁마크 -2669
▁전화 -2670
▁덴마크 -2671
▁1983 -2672
다이 -2673
▁재단 -2674
누스 -2675
▁창설 -2676
▁냐 -2677
뜨리 -2678
▁i -2679
▁세종 -2680
▁법인 -2681
▁고향 -2682
▁동의 -2683
▁LG -2684
▁성당 -2685
▁온라인 -2686
일러 -2687
▁판결 -2688
▁대립 -2689
▁공유 -2690
▁역대 -2691
▁짜 -2692
트라 -2693
▁전설 -2694
FC -2695
▁참석 -2696
▁브리 -2697
▁가하 -2698
▁묻 -2699
▁보급 -2700
▁선거구 -2701
▁반도 -2702
▁솔로 -2703
▁수출 -2704
▁47 -2705
▁육상 -2706
▁킬 -2707
▁삼국 -2708
▁하늘 -2709
▁둘러싸 -2710
▁브랜드 -2711
뿌리 -2712
운동 -2713
▁어도 -2714
▁유학 -2715
싱턴 -2716
▁고정 -2717
없이 -2718
▁노예 -2719
▁무엇 -2720
▁협상 -2721
의회 -2722
▁핵심 -2723
▁집행 -2724
▁본격 -2725
▁저장 -2726
▁후손 -2727
비드 -2728
이크 -2729
▁카를 -2730
▁애플 -2731
▁헤이 -2732
반도 -2733
▁75 -2734
오프 -2735
▁보안 -2736
▁탄생 -2737
하라 -2738
▁초반 -2739
▁자세 -2740
▁184 -2741
▁180 -2742
▁강점기 -2743
▁오픈 -2744
▁대비 -2745
▁산맥 -2746
▁중반 -2747
▁사전 -2748
▁옷 -2749
▁대항 -2750
▁마드리 -2751
▁Z -2752
▁주교 -2753
▁암살 -2754
▁이성 -2755
▁회전 -2756
▁사우 -2757
▁숫 -2758
▁아르헨 -2759
원군 -2760
▁전혀 -2761
셔널 -2762
▁연고 -2763
각형 -2764
문화 -2765
▁플랫 -2766
▁로버트 -2767
▁마드리드 -2768
▁베이스 -2769
▁1972 -2770
▁법칙 -2771
▁권한 -2772
▁의무 -2773
▁이익 -2774
▁어린이 -2775
리스트 -2776
▁프란 -2777
▁단일 -2778
▁켈 -2779
▁공기 -2780
▁직원 -2781
▁조금 -2782
소드 -2783
▁인상 -2784
▁아르헨티나 -2785
▁46 -2786
바르 -2787
▁전용 -2788
▁공학 -2789
▁순서 -2790
▁1920 -2791
▁말기 -2792
▁베를 -2793
▁시각 -2794
레이션 -2795
▁운전 -2796
▁요한 -2797
터리 -2798
▁공포 -2799
▁가르치 -2800
▁유적 -2801
▁비난 -2802
▁잘못 -2803
▁모리 -2804
▁사항 -2805
▁수여 -2806
▁별도 -2807
▁중심지 -2808
▁아스 -2809
▁1979 -2810
CA -2811
▁아미 -2812
▁상품 -2813
▁흔히 -2814
▁밀리 -2815
▁보조 -2816
▁원주 -2817
▁스크 -2818
▁협정 -2819
▁덮 -2820
▁전라북도 -2821
▁창조 -2822
▁변호사 -2823
▁워싱턴 -2824
▁효소 -2825
▁전후 -2826
▁롯 -2827
▁글로 -2828
▁아파 -2829
▁인권 -2830
▁기하 -2831
▁관료 -2832
▁kg -2833
▁CD -2834
정부 -2835
▁투입 -2836
▁통계 -2837
▁파크 -2838
▁마시 -2839
▁작곡가 -2840
▁방면 -2841
▁소식 -2842
퍼드 -2843
▁장착 -2844
▁1930 -2845
▁넘어 -2846
ra -2847
▁우크 -2848
▁심각 -2849
▁현장 -2850
▁셋 -2851
▁레드 -2852
무라 -2853
▁정복 -2854
▁항복 -2855
▁저서 -2856
▁훨 -2857
▁1981 -2858
▁갈등 -2859
▁In -2860
▁엠 -2861
▁150 -2862
▁아침 -2863
▁금메달 -2864
▁1973 -2865
▁오히 -2866
▁하드 -2867
▁중세 -2868
▁본인 -2869
▁놓이 -2870
▁어떻게 -2871
▁호텔 -2872
▁헨리 -2873
퍼스 -2874
▁공무원 -2875
사키 -2876
10 -2877
▁니콜 -2878
▁훨씬 -2879
▁물러 -2880
▁공산주의 -2881
▁벡 -2882
▁교류 -2883
▁출마 -2884
▁마이클 -2885
▁공화 -2886
▁논의 -2887
▁성경 -2888
▁플라 -2889
▁v -2890
▁요새 -2891
▁건국 -2892
▁교토 -2893
▁무리 -2894
겨나 -2895
▁오른쪽 -2896
▁노스 -2897
▁오랜 -2898
os -2899
리어 -2900
▁택 -2901
▁중부 -2902
▁뿌리 -2903
▁건조 -2904
▁패하 -2905
▁인류 -2906
▁코미 -2907
▁유전자 -2908
▁김정 -2909
▁한때 -2910
▁연합군 -2911
▁산하 -2912
▁오토 -2913
▁인정받 -2914
▁빙 -2915
▁방출 -2916
▁플레이어 -2917
▁왼쪽 -2918
▁세인트 -2919
▁예산 -2920
▁추측 -2921
▁드러나 -2922
▁형사 -2923
▁라도 -2924
▁로드 -2925
▁금속 -2926
▁창립 -2927
▁서기 -2928
▁성질 -2929
▁벗어나 -2930
▁주위 -2931
▁1940 -2932
30 -2933
▁투쟁 -2934
▁찍 -2935
▁베이징 -2936
▁아프 -2937
▁던지 -2938
일보 -2939
▁태국 -2940
▁릴 -2941
▁에어 -2942
▁원작 -2943
▁사태 -2944
▁1974 -2945
▁185 -2946
▁오전 -2947
▁사령관 -2948
▁노르웨이 -2949
BO -2950
▁절대 -2951
▁에피소드 -2952
em -2953
▁북서 -2954
▁제자 -2955
▁코스 -2956
▁탁 -2957
▁복합 -2958
▁멸망 -2959
▁플레이오프 -2960
▁군수 -2961
ter -2962
▁운용 -2963
▁효율 -2964
▁반복 -2965
▁논쟁 -2966
▁모스크바 -2967
▁가져오 -2968
▁뽑 -2969
▁제출 -2970
▁집안 -2971
▁구별 -2972
▁읍 -2973
▁SBS -2974
▁정비 -2975
▁메시 -2976
▁입자 -2977
▁스코틀랜드 -2978
▁오히려 -2979
카와 -2980
▁해양 -2981
▁합성 -2982
▁전철 -2983
▁1948 -2984
▁마침 -2985
▁사법 -2986
▁노부 -2987
▁중대 -2988
▁숫자 -2989
▁거절 -2990
▁포위 -2991
붙이 -2992
▁인종 -2993
▁주기 -2994
▁흡수 -2995
▁미니 -2996
아오 -2997
듀서 -2998
▁프로듀서 -2999
▁인공 -3000
▁해상 -3001
▁연산 -3002
▁퍼지 -3003
▁블루 -3004
▁빌리 -3005
▁원리 -3006
머스 -3007
▁54 -3008
▁연관 -3009
▁출장 -3010
▁인조 -3011
▁댄 -3012
▁각본 -3013
▁시점 -3014
▁1968 -3015
▁활발 -3016
▁포기 -3017
▁델 -3018
▁목사 -3019
▁1976 -3020
▁웨스트 -3021
▁수송 -3022
▁슬로 -3023
▁베를린 -3024
▁인터뷰 -3025
▁신체 -3026
▁넘기 -3027
▁개시 -3028
▁밖에 -3029
▁이민 -3030
▁소녀 -3031
▁경성 -3032
▁우스 -3033
▁취급 -3034
▁북동 -3035
▁주전 -3036
▁출입 -3037
▁전공 -3038
▁건립 -3039
▁즐기 -3040
▁1975 -3041
▁고용 -3042
▁보스 -3043
▁명성 -3044
▁안타 -3045
▁분쟁 -3046
▁동원 -3047
▁디스 -3048
▁파라 -3049
▁음력 -3050
▁실리 -3051
데스 -3052
▁히데 -3053
▁사령부 -3054
▁주택 -3055
도르 -3056
▁취득 -3057
op -3058
▁장악 -3059
나이티 -3060
▁비록 -3061
▁축제 -3062
시스 -3063
▁트랙 -3064
▁신성 -3065
▁구속 -3066
▁활성 -3067
▁국도 -3068
▁유나이티 -3069
▁진보 -3070
▁농민 -3071
▁끝내 -3072
▁봉하 -3073
▁영화제 -3074
▁견해 -3075
▁보컬 -3076
▁전부 -3077
▁일치 -3078
▁하나님 -3079
▁1978 -3080
▁56 -3081
▁프라 -3082
▁총독 -3083
서트 -3084
▁1971 -3085
▁미드 -3086
▁국장 -3087
▁갤 -3088
▁불법 -3089
ag -3090
▁고유 -3091
▁늘어나 -3092
▁부활 -3093
▁텐 -3094
▁1963 -3095
▁소스 -3096
▁직전 -3097
▁더라도 -3098
▁52 -3099
에트 -3100
▁보험 -3101
▁관점 -3102
▁북아 -3103
산시 -3104
▁유물 -3105
▁후원 -3106
▁49 -3107
▁편지 -3108
▁대리 -3109
▁정체 -3110
▁약속 -3111
▁폭력 -3112
▁상당히 -3113
▁도달 -3114
▁자이 -3115
▁하위 -3116
▁65 -3117
▁혼란 -3118
▁코미디 -3119
키스탄 -3120
▁주관 -3121
다가 -3122
▁한자 -3123
▁교차 -3124
▁연료 -3125
▁학습 -3126
▁누리 -3127
▁항공기 -3128
비치 -3129
▁철수 -3130
▁포도 -3131
▁타이완 -3132
▁수술 -3133
▁시리아 -3134
▁닌 -3135
▁그리스도 -3136
▁스미 -3137
ce -3138
▁여부 -3139
▁직업 -3140
세이 -3141
▁여객철도 -3142
▁1969 -3143
메리 -3144
▁다며 -3145
▁반영 -3146
▁아테 -3147
▁임금 -3148
▁선교 -3149
▁물러나 -3150
▁관직 -3151
기에 -3152
▁179 -3153
▁천체 -3154
릭스 -3155
▁Q -3156
▁고종 -3157
자기 -3158
▁브레 -3159
▁한국어 -3160
젤레스 -3161
▁랜 -3162
▁백제 -3163
▁명명 -3164
▁상륙 -3165
쿠라 -3166
▁팝 -3167
▁수집 -3168
▁대화 -3169
▁논리 -3170
▁의존 -3171
▁장교 -3172
▁본사 -3173
▁넷 -3174
▁00 -3175
리케 -3176
▁성능 -3177
▁미나 -3178
▁모시 -3179
▁제어 -3180
▁심리 -3181
▁주간 -3182
▁테러 -3183
▁데이비드 -3184
어스 -3185
▁1946 -3186
▁교환 -3187
▁부임 -3188
▁화물 -3189
▁십자 -3190
▁아사 -3191
▁보관 -3192
▁일대 -3193
▁백작 -3194
▁학술 -3195
▁톰 -3196
▁프리미 -3197
▁영업 -3198
▁그런데 -3199
▁좁 -3200
▁콘서트 -3201
▁정지 -3202
▁주식회사 -3203
라비아 -3204
▁폴리 -3205
▁개체 -3206
▁도구 -3207
▁해산 -3208
▁판서 -3209
▁나아가 -3210
공항 -3211
▁허가 -3212
▁불상 -3213
▁소방 -3214
▁53 -3215
OS -3216
▁전파 -3217
▁스마 -3218
▁자살 -3219
▁상승 -3220
▁반발 -3221
▁전문가 -3222
▁프로세 -3223
▁하우스 -3224
▁거기 -3225
▁연재 -3226
▁김영 -3227
▁제일 -3228
▁박정 -3229
▁방사 -3230
▁영향력 -3231
▁핑 -3232
▁그레 -3233
▁원하 -3234
▁코로나 -3235
▁진입 -3236
oc -3237
▁살인 -3238
▁대략 -3239
▁1964 -3240
미터 -3241
병대 -3242
▁간단 -3243
▁정원 -3244
▁먹이 -3245
▁헤르 -3246
▁공통 -3247
▁고리 -3248
▁니시 -3249
▁드리 -3250
▁리스 -3251
▁화성 -3252
▁충청북도 -3253
▁보건 -3254
▁재료 -3255
▁영입 -3256
▁신분 -3257
▁베스트 -3258
▁미터 -3259
▁약하 -3260
▁겐 -3261
▁학부 -3262
▁US -3263
▁스프 -3264
▁피아노 -3265
▁소비에트 -3266
이어 -3267
▁승진 -3268
▁파트 -3269
▁사장 -3270
▁항구 -3271
▁가을 -3272
▁벨기에 -3273
▁꼭 -3274
▁포트 -3275
▁외국인 -3276
▁서버 -3277
▁학원 -3278
▁도망 -3279
▁부장 -3280
▁고도 -3281
▁한반도 -3282
▁기도 -3283
▁and -3284
노스 -3285
▁지붕 -3286
▁진압 -3287
▁국제공항 -3288
▁발언 -3289
ri -3290
▁1000 -3291
▁58 -3292
▁99 -3293
▁인도네시아 -3294
▁학회 -3295
▁감사 -3296
▁사운드 -3297
오르 -3298
▁누르 -3299
▁탈출 -3300
▁그치 -3301
▁탈락 -3302
▁락 -3303
▁다스 -3304
▁횡 -3305
▁질병 -3306
▁현역 -3307
▁구성원 -3308
▁닥 -3309
▁시호 -3310
▁루이스 -3311
▁머무르 -3312
▁주년 -3313
▁채용 -3314
하마 -3315
▁리더 -3316
▁스토 -3317
▁의도 -3318
▁쫓 -3319
▁브루 -3320
▁참전 -3321
▁창단 -3322
▁콤 -3323
▁통상 -3324
▁트랜 -3325
▁공동체 -3326
▁식품 -3327
▁신청 -3328
▁픽 -3329
▁벼 -3330
▁합격 -3331
▁복무 -3332
▁PC -3333
▁계통 -3334
▁장수 -3335
천군 -3336
▁임대 -3337
▁응용 -3338
▁변환 -3339
▁1977 -3340
▁모드 -3341
아버지 -3342
저우 -3343
▁조작 -3344
▁망명 -3345
▁포로 -3346
▁요코 -3347
▁SK -3348
▁위반 -3349
▁임의 -3350
▁작사 -3351
▁민법 -3352
▁에도 -3353
▁문헌 -3354
▁1949 -3355
▁말레이 -3356
▁친일 -3357
▁롯데 -3358
▁화면 -3359
▁띄 -3360
▁마케 -3361
▁페이 -3362
프리 -3363
▁트라 -3364
▁부부 -3365
성군 -3366
▁청구 -3367
▁문장 -3368
▁.. -3369
▁라이트 -3370
▁로스앤 -3371
▁로스앤젤레스 -3372
▁동남 -3373
▁방송국 -3374
igh -3375
▁절차 -3376
▁FA -3377
▁요인 -3378
▁저작 -3379
려움 -3380
▁분열 -3381
▁트로 -3382
▁예측 -3383
▁탄소 -3384
▁학과 -3385
▁이치 -3386
▁수영 -3387
▁지급 -3388
▁배출 -3389
▁연출 -3390
▁변형 -3391
문화재 -3392
▁선조 -3393
▁1962 -3394
▁88 -3395
▁신인 -3396
드시 -3397
▁캠퍼스 -3398
▁상원 -3399
▁자녀 -3400
▁엑스 -3401
▁주둔 -3402
▁레오 -3403
정식 -3404
▁조절 -3405
▁수소 -3406
▁선전 -3407
▁시카 -3408
▁칭하 -3409
▁62 -3410
▁코파 -3411
▁메모리 -3412
▁이중 -3413
ation -3414
▁1967 -3415
▁전동 -3416
▁국무 -3417
▁레스 -3418
▁막부 -3419
▁출간 -3420
▁흉 -3421
▁큐 -3422
▁정기 -3423
▁광장 -3424
▁처형 -3425
타르 -3426
▁기호 -3427
▁수리 -3428
▁화재 -3429
▁선보이 -3430
크스 -3431
▁이승만 -3432
▁실수 -3433
▁황금 -3434
▁서원 -3435
▁취소 -3436
▁힘들 -3437
▁오페 -3438
로그 -3439
카이도 -3440
▁등지 -3441
▁방지 -3442
천시 -3443
▁로켓 -3444
▁r -3445
▁어떠 -3446
▁콘스탄 -3447
▁기법 -3448
▁생존 -3449
▁오스만 -3450
▁장르 -3451
▁이시 -3452
▁호수 -3453
▁57 -3454
▁증상 -3455
▁왕자 -3456
▁서구 -3457
▁남서 -3458
▁는가 -3459
▁You -3460
▁흑인 -3461
▁동작 -3462
▁카메라 -3463
수록 -3464
▁동성 -3465
▁앵 -3466
▁연안 -3467
라드 -3468
▁현지 -3469
▁루트 -3470
▁개조 -3471
브리 -3472
▁반드시 -3473
▁예비 -3474
▁히트 -3475
▁늦 -3476
▁롱 -3477
▁희망 -3478
아나 -3479
▁제대로 -3480
▁Ch -3481
▁고지 -3482
▁위상 -3483
▁좌우 -3484
포르 -3485
▁맞서 -3486
▁농구 -3487
▁여단 -3488
▁기체 -3489
▁고치 -3490
▁전주 -3491
▁무덤 -3492
▁싸움 -3493
▁임진 -3494
▁공정 -3495
▁분명 -3496
▁톱 -3497
▁크리 -3498
▁노리 -3499
▁일본군 -3500
▁진주 -3501
▁천연 -3502
▁도전 -3503
▁맞이 -3504
▁181 -3505
▁전면 -3506
▁파악 -3507
▁터널 -3508
▁동아 -3509
▁코르 -3510
▁엄청 -3511
▁둘째 -3512
▁으려 -3513
▁전형 -3514
▁꺾 -3515
▁흘 -3516
▁독특 -3517
▁압력 -3518
▁해리 -3519
▁1966 -3520
nd -3521
▁스탠 -3522
▁묵 -3523
▁특이 -3524
▁돌리 -3525
▁목소리 -3526
방송 -3527
▁우려 -3528
▁이온 -3529
▁66 -3530
바라 -3531
라이언 -3532
▁%, -3533
▁물체 -3534
▁미국인 -3535
▁녹색 -3536
▁리처 -3537
▁매일 -3538
▁법정 -3539
이치 -3540
▁경로 -3541
▁글자 -3542
▁그레이 -3543
▁드물 -3544
▁독립운동 -3545
▁동기 -3546
▁에르 -3547
▁성향 -3548
▁타임 -3549
▁노벨 -3550
▁1965 -3551
▁바둑 -3552
▁덧 -3553
▁부사 -3554
▁인지 -3555
▁68 -3556
▁아리 -3557
▁신뢰 -3558
▁유기 -3559
▁방정식 -3560
▁멘 -3561
▁어디 -3562
▁183 -3563
더스 -3564
▁체코 -3565
▁KBO -3566
티브 -3567
▁지리 -3568
베스 -3569
▁처벌 -3570
▁묶 -3571
▁클레 -3572
▁가시 -3573
▁개신 -3574
▁추구 -3575
에이 -3576
▁알렉산드 -3577
▁61 -3578
▁방해 -3579
치아 -3580
▁실질 -3581
▁람 -3582
▁밥 -3583
▁분해 -3584
ST -3585
▁타격 -3586
▁유행 -3587
▁일찍 -3588
▁일식 -3589
▁퀸 -3590
▁김일 -3591
▁완료 -3592
▁간행 -3593
▁웅 -3594
▁분할 -3595
▁찰스 -3596
▁풍부 -3597
르타 -3598
▁내전 -3599
질랜드 -3600
▁홋 -3601
▁화산 -3602
▁찌 -3603
▁아동 -3604
▁부진 -3605
▁사립 -3606
▁삽 -3607
▁빼앗 -3608
▁뉴질랜드 -3609
▁복지 -3610
▁손자 -3611
▁희생 -3612
▁순환 -3613
▁범주 -3614
▁평등 -3615
▁나들 -3616
▁아파트 -3617
▁마르크 -3618
▁나들목 -3619
먼트 -3620
▁마침내 -3621
▁대개 -3622
▁엄청나 -3623
▁별명 -3624
▁1961 -3625
▁비평 -3626
▁플래 -3627
▁가까 -3628
▁집권 -3629
▁오프 -3630
ER -3631
▁갈색 -3632
▁최다 -3633
▁800 -3634
art -3635
▁점점 -3636
▁첼 -3637
▁한정 -3638
▁전원 -3639
▁파르 -3640
▁곱 -3641
▁흰 -3642
▁시조 -3643
▁86 -3644
▁으니 -3645
▁한계 -3646
▁분기 -3647
▁사냥 -3648
▁600 -3649
▁리가 -3650
▁가상 -3651
▁대법 -3652
▁시드 -3653
▁판사 -3654
ice -3655
▁창원 -3656
▁구현 -3657
▁부하 -3658
▁의지 -3659
유럽 -3660
▁기둥 -3661
▁120 -3662
▁근본 -3663
▁모형 -3664
▁분위 -3665
다르 -3666
▁테이 -3667
▁훗 -3668
투스 -3669
▁명확 -3670
▁바치 -3671
▁충격 -3672
▁사원 -3673
▁그라 -3674
ON -3675
▁교향 -3676
▁완공 -3677
▁일본인 -3678
텐츠 -3679
▁IS -3680
▁메리 -3681
▁웨이 -3682
▁중기 -3683
▁사형 -3684
▁무게 -3685
▁벡터 -3686
▁사임 -3687
▁확산 -3688
▁들어서 -3689
▁스토리 -3690
▁오페라 -3691
▁프린 -3692
▁출범 -3693
▁날개 -3694
▁마법 -3695
디션 -3696
▁단독 -3697
▁드러내 -3698
▁1919 -3699
▁션 -3700
est -3701
은행 -3702
▁대공 -3703
▁사마 -3704
▁제이 -3705
피스 -3706
틀러 -3707
▁호주 -3708
▁캔 -3709
▁물리학 -3710
▁레인 -3711
▁상위 -3712
▁적절 -3713
▁렀 -3714
▁뚜 -3715
▁의혹 -3716
▁악화 -3717
ia -3718
▁통산 -3719
▁훌 -3720
세우 -3721
▁re -3722
▁이자 -3723
▁의심 -3724
▁명나라 -3725
▁닛 -3726
▁모토 -3727
▁영웅 -3728
▁무시 -3729
▁회담 -3730
▁연구원 -3731
▁알파 -3732
TV -3733
▁98 -3734
▁유치 -3735
▁당초 -3736
▁서명 -3737
▁굽 -3738
▁가나 -3739
ap -3740
▁편찬 -3741
▁조종 -3742
▁키우 -3743
▁함락 -3744
▁1944 -3745
▁발굴 -3746
▁이닝 -3747
사자 -3748
▁문명 -3749
▁득표 -3750
사스 -3751
▁추천 -3752
▁쏘 -3753
▁인접 -3754
▁사실상 -3755
▁카라 -3756
ak -3757
▁넓이 -3758
▁광복 -3759
▁연간 -3760
▁자극 -3761
▁샘 -3762
▁그때 -3763
▁포인트 -3764
▁모임 -3765
▁인증 -3766
라이나 -3767
▁징역 -3768
▁생겨나 -3769
▁개입 -3770
▁도쿠 -3771
▁저술 -3772
▁곽 -3773
▁순간 -3774
▁접촉 -3775
▁각지 -3776
▁진정 -3777
▁포항 -3778
아보 -3779
▁여론 -3780
▁순수 -3781
▁사정 -3782
▁등판 -3783
▁올해 -3784
▁홍보 -3785
연히 -3786
▁프리미어 -3787
▁동서 -3788
▁1941 -3789
▁기리 -3790
▁악기 -3791
▁구원 -3792
▁고속도로 -3793
▁세르비아 -3794
▁독일군 -3795
▁개막 -3796
▁63 -3797
▁골든 -3798
우리 -3799
▁언제 -3800
▁오랫 -3801
▁루스 -3802
▁드라이 -3803
▁95 -3804
▁뮤지 -3805
AR -3806
나가 -3807
▁기기 -3808
▁기온 -3809
▁탐사 -3810
▁꼽 -3811
메이 -3812
시오 -3813
▁태도 -3814
▁학살 -3815
▁74 -3816
▁여야 -3817
▁DNA -3818
▁팽 -3819
민주 -3820
버그 -3821
학생 -3822
▁백성 -3823
▁59 -3824
▁실현 -3825
▁공로 -3826
▁Lo -3827
▁임기 -3828
일리 -3829
▁바위 -3830
무부 -3831
▁한국인 -3832
▁변수 -3833
▁시카고 -3834
믹스 -3835
▁수석 -3836
▁경전 -3837
숭이 -3838
▁성분 -3839
▁행렬 -3840
▁예전 -3841
▁178 -3842
▁네이 -3843
▁공헌 -3844
▁앤드 -3845
▁입법 -3846
▁줄어들 -3847
▁양쪽 -3848
▁추산 -3849
▁오랫동안 -3850
▁보고서 -3851
▁심사 -3852
▁훗날 -3853
▁스마트 -3854
ct -3855
▁페르시아 -3856
▁닉 -3857
▁감시 -3858
▁아티 -3859
대부 -3860
▁확률 -3861
▁춤 -3862
▁뱅 -3863
▁혼합 -3864
▁자전 -3865
▁튜 -3866
▁균형 -3867
▁방위 -3868
▁1958 -3869
▁프로그래 -3870
▁매장 -3871
▁침략 -3872
▁미쓰 -3873
▁시사 -3874
ul -3875
▁에드워드 -3876
▁왕실 -3877
▁특별시 -3878
▁분위기 -3879
▁영지 -3880
▁리처드 -3881
러리 -3882
▁IC -3883
▁1947 -3884
▁출력 -3885
▁신부 -3886
리히 -3887
▁82 -3888
▁피터 -3889
▁160 -3890
▁커뮤 -3891
▁승부 -3892
▁조별 -3893
코스 -3894
▁to -3895
▁대량 -3896
▁개신교 -3897
▁원형 -3898
▁저녁 -3899
▁멀리 -3900
▁무사 -3901
▁이라크 -3902
▁타자 -3903
▁팔리 -3904
▁76 -3905
▁단편 -3906
▁안토 -3907
▁1956 -3908
▁경남 -3909
▁대선 -3910
▁프라이 -3911
▁;/ -3912
▁다케 -3913
이너 -3914
▁줄기 -3915
▁기울 -3916
▁72 -3917
▁승객 -3918
▁권위 -3919
▁미야 -3920
▁에서부터 -3921
▁고르 -3922
▁여왕 -3923
▁텍사스 -3924
▁랜드 -3925
▁제사 -3926
▁그래픽 -3927
▁흐름 -3928
▁마무 -3929
▁발발 -3930
▁프랑크 -3931
▁아이돌 -3932
▁재건 -3933
▁SS -3934
▁커뮤니 -3935
▁가와 -3936
▁점수 -3937
▁앉 -3938
▁확립 -3939
▁안동 -3940
ie -3941
▁우라 -3942
▁동명 -3943
▁바깥 -3944
▁77 -3945
▁복원 -3946
▁작위 -3947
▁긍 -3948
▁일상 -3949
▁데스 -3950
▁참고 -3951
▁석유 -3952
▁비치 -3953
▁교구 -3954
리노 -3955
▁과학자 -3956
▁원수 -3957
▁ㄹ지 -3958
▁섞 -3959
▁입력 -3960
▁테스트 -3961
▁침입 -3962
▁복수 -3963
▁비상 -3964
▁1939 -3965
▁수익 -3966
▁잠수 -3967
▁폭탄 -3968
▁Th -3969
▁어깨 -3970
▁시상 -3971
메리칸 -3972
▁67 -3973
레나 -3974
▁당국 -3975
▁리버 -3976
▁겹 -3977
▁젠 -3978
▁심지 -3979
▁브라운 -3980
▁축구단 -3981
▁신자 -3982
▁민중 -3983
▁복음 -3984
▁도요 -3985
▁사자 -3986
▁덜 -3987
▁일시 -3988
▁자식 -3989
레옹 -3990
▁본질 -3991
▁타워 -3992
▁포켓 -3993
ud -3994
▁계층 -3995
▁기소 -3996
▁더블 -3997
일스 -3998
▁병합 -3999
▁재배 -4000
▁AFC -4001
▁연예 -4002
▁나폴레옹 -4003
▁한글 -4004
▁시마 -4005
마르 -4006
▁주최 -4007
▁대왕 -4008
▁그렇게 -4009
▁가공 -4010
▁신고 -4011
▁혁신 -4012
▁부지 -4013
▁도모 -4014
ly -4015
에른 -4016
▁가량 -4017
이센 -4018
▁끼치 -4019
▁다운 -4020
▁파워 -4021
▁정수 -4022
og -4023
▁빅토 -4024
▁동양 -4025
▁빌보드 -4026
▁지형 -4027
▁85 -4028
▁사제 -4029
▁가담 -4030
▁보물 -4031
▁대성 -4032
▁창작 -4033
▁내셔널 -4034
th -4035
▁공중 -4036
▁평안 -4037
▁거듭 -4038
▁힌 -4039
▁듯이 -4040
마니아 -4041
▁1954 -4042
▁움직임 -4043
ist -4044
▁폐쇄 -4045
▁암호 -4046
▁깃 -4047
레인 -4048
▁가설 -4049
▁노출 -4050
▁들이 -4051
▁인쇄 -4052
▁후계 -4053
아티아 -4054
▁크로아티아 -4055
▁훈장 -4056
▁국기 -4057
▁산화 -4058
▁쌀 -4059
▁구글 -4060
▁급제 -4061
▁총회 -4062
▁평론 -4063
ight -4064
▁고통 -4065
왜란 -4066
▁비서 -4067
▁1952 -4068
▁임진왜란 -4069
▁고기 -4070
▁참모 -4071
아지 -4072
AS -4073
▁력 -4074
▁다소 -4075
▁가이 -4076
▁세리 -4077
▁탱 -4078
▁실력 -4079
▁채우 -4080
▁보상 -4081
▁전신 -4082
▁대지 -4083
▁73 -4084
▁후속 -4085
▁보살 -4086
▁상관 -4087
느리 -4088
▁오가 -4089
▁박정희 -4090
▁바닥 -4091
▁아테네 -4092
▁셔 -4093
▁동방 -4094
▁라스 -4095
조합 -4096
▁96 -4097
▁그만 -4098
▁김대 -4099
▁행복 -4100
▁발음 -4101
아하 -4102
▁따로 -4103
▁조조 -4104
▁탈퇴 -4105
▁절반 -4106
▁뮤지컬 -4107
▁스타디 -4108
▁오카 -4109
▁타운 -4110
▁국정 -4111
▁81 -4112
▁비례 -4113
바로 -4114
▁인용 -4115
▁* -4116
▁무한 -4117
▁Al -4118
필더 -4119
▁개설 -4120
▁도덕 -4121
▁미드필더 -4122
▁수도원 -4123
▁피해자 -4124
▁불만 -4125
▁소득 -4126
▁심장 -4127
▁뷰 -4128
▁뤼 -4129
하여 -4130
▁가까이 -4131
▁좋아하 -4132
▁장남 -4133
▁78 -4134
▁부담 -4135
▁청주 -4136
AT -4137
▁로봇 -4138
▁재학 -4139
▁살리 -4140
체스터 -4141
▁전남 -4142
▁전투기 -4143
▁화이트 -4144
▁손상 -4145
▁처하 -4146
▁화장 -4147
▁센트 -4148
▁안드로 -4149
의정 -4150
▁전직 -4151
▁바이에른 -4152
▁여섯 -4153
▁이혼 -4154
▁지향 -4155
▁뮌 -4156
▁중력 -4157
타이 -4158
▁김성 -4159
▁는다는 -4160
▁아트 -4161
▁하인 -4162
▁께 -4163
너스 -4164
▁포스트 -4165
▁녀 -4166
▁교리 -4167
▁천안 -4168
▁국군 -4169
▁주력 -4170
▁산소 -4171
▁블라 -4172
▁보르 -4173
▁작동 -4174
▁콘스탄티 -4175
▁인생 -4176
▁붓 -4177
▁1959 -4178
▁검토 -4179
▁202 -4180
▁NH -4181
▁백만 -4182
▁총장 -4183
▁지사 -4184
▁레알 -4185
▁생물학 -4186
▁마무리 -4187
▁177 -4188
▁결론 -4189
BA -4190
▁당나라 -4191
ess -4192
▁윗 -4193
▁관여 -4194
▁빌딩 -4195
직자 -4196
▁질환 -4197
▁와이 -4198
자치 -4199
인물 -4200
토스 -4201
▁사무소 -4202
▁심지어 -4203
▁Li -4204
▁상실 -4205
▁기상 -4206
▁포스 -4207
▁화합 -4208
▁황후 -4209
▁91 -4210
▁71 -4211
▁호소 -4212
▁아웃 -4213
▁AT -4214
▁문신 -4215
▁설득 -4216
▁패션 -4217
▁메시지 -4218
▁상역 -4219
▁피부 -4220
▁선박 -4221
▁사우스 -4222
▁사유 -4223
▁;, -4224
가락 -4225
▁유통 -4226
▁DV -4227
▁가마 -4228
▁개방 -4229
▁신사 -4230
클리 -4231
▁처분 -4232
▁일컫 -4233
스트라 -4234
세포 -4235
쿠스 -4236
▁수요 -4237
▁분노 -4238
▁오직 -4239
▁결의 -4240
▁프로이센 -4241
▁가슴 -4242
▁액션 -4243
▁골드 -4244
▁1942 -4245
▁승려 -4246
▁하원 -4247
▁의대 -4248
▁규제 -4249
▁햄 -4250
▁이명 -4251
▁가요 -4252
▁연습 -4253
▁넘어가 -4254
▁모터 -4255
▁내려오 -4256
▁역학 -4257
▁약물 -4258
▁혼인 -4259
▁적합 -4260
▁동해 -4261
▁글로벌 -4262
▁페이지 -4263
▁김일성 -4264
▁매체 -4265
▁조카 -4266
▁구매 -4267
▁디스크 -4268
▁선임 -4269
▁모바 -4270
▁위대 -4271
▁심판 -4272
▁좌상 -4273
▁그린 -4274
드리히 -4275
▁개성 -4276
▁왕비 -4277
▁87 -4278
IV -4279
▁통화 -4280
▁잭슨 -4281
▁진단 -4282
▁위키 -4283
미야 -4284
ub -4285
▁159 -4286
▁1943 -4287
▁st -4288
▁소멸 -4289
▁프랭 -4290
▁지나가 -4291
▁1955 -4292
▁긍정 -4293
▁야스 -4294
▁부산광역시 -4295
▁서식지 -4296
IA -4297
▁발탁 -4298
▁원년 -4299
▁말레이시아 -4300
▁쿠데 -4301
▁크루 -4302
가니 -4303
▁홋카이도 -4304
▁억제 -4305
▁일기 -4306
▁프리드리히 -4307
▁스타디움 -4308
▁퀴 -4309
▁1953 -4310
▁어려움 -4311
▁예방 -4312
▁주석 -4313
▁왕후 -4314
▁진영 -4315
▁음악가 -4316
▁드래프트 -4317
▁톨 -4318
▁테크 -4319
히로 -4320
▁\ -4321
▁불안 -4322
▁필드 -4323
▁무료 -4324
▁1936 -4325
ab -4326
▁사도 -4327
▁조차 -4328
▁700 -4329
▁싱가 -4330
▁일체 -4331
▁싱가포르 -4332
▁나쁘 -4333
▁사격 -4334
▁굳 -4335
미르 -4336
▁84 -4337
▁사무실 -4338
▁시나 -4339
▁대책 -4340
▁자이언 -4341
▁AP -4342
▁즉시 -4343
▁힙 -4344
▁유고 -4345
▁태조 -4346
▁폭격 -4347
▁타인 -4348
▁일본어 -4349
▁루마니아 -4350
▁디아 -4351
▁카스 -4352
▁궁전 -4353
▁티베 -4354
▁천주교 -4355
▁리드 -4356
▁유형문화재 -4357
▁인원 -4358
▁쿠데타 -4359
▁쾌 -4360
▁세자 -4361
▁조지아 -4362
▁여우 -4363
데이 -4364
▁막대 -4365
▁상속 -4366
▁1910 -4367
▁이와 -4368
버리 -4369
▁모바일 -4370
▁정차 -4371
▁기동 -4372
▁크로스 -4373
▁김종 -4374
▁자는 -4375
▁창당 -4376
▁몰리 -4377
▁전북 -4378
▁깊이 -4379
▁연설 -4380
▁대체로 -4381
▁스티븐 -4382
주군 -4383
▁사라 -4384
유산 -4385
ine -4386
▁후쿠오카 -4387
▁닫 -4388
올리 -4389
▁전동차 -4390
▁히틀러 -4391
▁Re -4392
▁오이 -4393
▁구입 -4394
▁딜 -4395
▁요금 -4396
▁97 -4397
▁학사 -4398
▁진격 -4399
▁전당 -4400
▁딘 -4401
▁개칭 -4402
▁챔피언십 -4403
달리 -4404
▁남아프리카 -4405
▁아메리칸 -4406
구리 -4407
▁독재 -4408
▁강릉 -4409
▁1957 -4410
▁원주민 -4411
란색 -4412
우치 -4413
▁알바 -4414
▁발명 -4415
▁자국 -4416
▁조상 -4417
▁대우 -4418
▁늘리 -4419
▁추방 -4420
▁검색 -4421
▁초점 -4422
▁알고리 -4423
▁느낌 -4424
구치 -4425
▁부동 -4426
머리 -4427
▁사과 -4428
▁필수 -4429
▁스미스 -4430
ew -4431
▁본명 -4432
베르트 -4433
▁콘텐츠 -4434
▁광범 -4435
▁타이거 -4436
독부 -4437
▁휴대 -4438
▁수호 -4439
▁생태 -4440
▁음성 -4441
▁전송 -4442
▁흔하 -4443
▁담기 -4444
▁동북 -4445
▁기다리 -4446
▁1914 -4447
▁급격 -4448
▁세트 -4449
▁69 -4450
▁렀다 -4451
▁사기 -4452
원경 -4453
▁테마 -4454
▁신장 -4455
▁메이지 -4456
▁천만 -4457
다랗 -4458
▁빚 -4459
▁이즈 -4460
▁92 -4461
시스코 -4462
▁이마 -4463
▁덩 -4464
▁주소 -4465
▁인디언 -4466
▁알고리즘 -4467
ue -4468
▁수업 -4469
▁=" -4470
미니 -4471
▁업적 -4472
▁포켓몬 -4473
▁잡히 -4474
▁핫 -4475
▁미리 -4476
▁똑 -4477
▁연락 -4478
▁완벽 -4479
▁끌어 -4480
▁신도 -4481
▁이내 -4482
▁토론토 -4483
▁도마 -4484
▁게다가 -4485
▁게르 -4486
▁후임 -4487
▁최우 -4488
▁1900 -4489
▁불가리아 -4490
▁세부 -4491
▁1938 -4492
▁상인 -4493
▁코리아 -4494
▁클로 -4495
▁림 -4496
▁섹 -4497
▁서술 -4498
▁전술 -4499
▁랄 -4500
▁닥터 -4501
▁스프링 -4502
래프트 -4503
▁펑 -4504
▁려면 -4505
▁스탈 -4506
지사 -4507
▁부위 -4508
▁화려 -4509
▁유효 -4510
▁다스리 -4511
▁고급 -4512
▁물건 -4513
▁고시 -4514
▁라이프 -4515
▁미술관 -4516
EC -4517
▁석사 -4518
▁숨기 -4519
다니 -4520
▁배포 -4521
▁주니어 -4522
▁언덕 -4523
▁재즈 -4524
▁101 -4525
▁노트 -4526
▁질문 -4527
▁소비자 -4528
비히 -4529
▁바르셀 -4530
▁연평 -4531
▁바르셀로나 -4532
▁암컷 -4533
▁각국 -4534
▁늑 -4535
총리 -4536
▁안드 -4537
▁오키 -4538
▁1918 -4539
▁HD -4540
▁영양 -4541
▁마르크스 -4542
▁01 -4543
로지 -4544
▁해발 -4545
▁립 -4546
자키 -4547
▁라틴어 -4548
리그 -4549
▁개량 -4550
▁윙 -4551
▁내놓 -4552
▁소형 -4553
산화 -4554
▁손실 -4555
▁랩 -4556
▁느냐 -4557
▁마스터 -4558
▁선형 -4559
▁실천 -4560
▁료 -4561
▁고위 -4562
▁백인 -4563
▁일련 -4564
▁DVD -4565
▁등장인물 -4566
여금 -4567
총독부 -4568
▁조선총독부 -4569
▁사퇴 -4570
▁언스 -4571
▁집회 -4572
▁웰 -4573
▁풋 -4574
▁유산 -4575
▁라우 -4576
▁상주 -4577
▁화석 -4578
▁1951 -4579
▁저자 -4580
▁프랑스군 -4581
▁갑자기 -4582
▁1932 -4583
▁시내버스 -4584
제국 -4585
▁감각 -4586
▁추기 -4587
▁경비 -4588
▁반사 -4589
▁운항 -4590
BM -4591
▁미스 -4592
▁영주 -4593
▁주체 -4594
▁계곡 -4595
▁국적 -4596
▁알레 -4597
▁개별 -4598
▁메달 -4599
▁on -4600
▁격파 -4601
▁블록 -4602
▁1937 -4603
▁{ -4604
▁정교회 -4605
▁선포 -4606
▁의문 -4607
▁차단 -4608
무늬 -4609
▁짝 -4610
▁말리 -4611
▁번지 -4612
▁용인 -4613
▁거짓 -4614
▁고객 -4615
▁미시 -4616
▁자본주의 -4617
▁만든 -4618
▁마틴 -4619
민주당 -4620
▁상수 -4621
▁진학 -4622
필드 -4623
▁대만 -4624
▁부친 -4625
가시 -4626
▁설치류 -4627
▁엘리자 -4628
펙트 -4629
▁올스타 -4630
▁넥 -4631
▁흰색 -4632
▁이웃 -4633
▁89 -4634
▁첩 -4635
▁화제 -4636
▁둥글 -4637
▁광범위 -4638
▁재개 -4639
▁당원 -4640
바키아 -4641
▁방언 -4642
▁찬성 -4643
▁후계자 -4644
▁실업 -4645
▁182 -4646
▁1935 -4647
▁사양 -4648
▁환승 -4649
▁비스 -4650
▁칭호 -4651
▁타율 -4652
ect -4653
▁우크라 -4654
▁되돌 -4655
▁항의 -4656
▁93 -4657
▁트레이드 -4658
▁수치 -4659
▁비행기 -4660
▁분교 -4661
▁크라 -4662
▁기부 -4663
▁뮌헨 -4664
▁이스트 -4665
▁데리 -4666
▁구상 -4667
▁고양이 -4668
▁꾸준 -4669
▁로렌 -4670
▁추기경 -4671
▁Be -4672
▁사찰 -4673
동생 -4674
▁베리 -4675
▁허락 -4676
▁퀘 -4677
▁항공사 -4678
사전 -4679
▁탄압 -4680
▁파티 -4681
▁질서 -4682
▁수백 -4683
▁중추 -4684
▁커버 -4685
▁경제학 -4686
▁시트 -4687
▁싱어 -4688
▁증언 -4689
▁구멍 -4690
▁최후 -4691
▁발간 -4692
▁체험 -4693
▁웃 -4694
▁촉진 -4695
▁반지 -4696
▁겉 -4697
▁분화 -4698
▁면역 -4699
▁어요 -4700
▁자산 -4701
▁회로 -4702
▁극단 -4703
▁남녀 -4704
▁클리 -4705
▁덧붙이 -4706
▁이념 -4707
다수 -4708
▁목성 -4709
▁마주 -4710
센트 -4711
▁법학 -4712
▁화폐 -4713
▁곡선 -4714
▁공신 -4715
▁소문 -4716
▁소화 -4717
▁양산 -4718
▁마루 -4719
▁내세우 -4720
▁옵 -4721
▁습격 -4722
▁쿨 -4723
▁아티스트 -4724
▁푸르 -4725
▁성남 -4726
▁영원 -4727
저스 -4728
런스 -4729
▁소위 -4730
▁가속 -4731
▁개척 -4732
ore -4733
▁기에 -4734
▁클래식 -4735
▁시모 -4736
▁대법원 -4737
리우스 -4738
슈타인 -4739
▁94 -4740
▁보편 -4741
▁축소 -4742
▁OS -4743
▁1933 -4744
▁탄핵 -4745
▁강남 -4746
▁소집 -4747
▁잠수함 -4748
▁물고기 -4749
▁탕 -4750
▁FM -4751
▁운송 -4752
▁티베트 -4753
▁수십 -4754
▁유배 -4755
our -4756
▁쿼 -4757
▁툴 -4758
▁펴 -4759
리나 -4760
▁약화 -4761
IN -4762
▁충분히 -4763
▁선호 -4764
▁아오 -4765
▁지수 -4766
▁1928 -4767
▁하여금 -4768
▁그리하여 -4769
▁핸 -4770
▁동화 -4771
▁혼자 -4772
▁원시 -4773
▁군부 -4774
▁CP -4775
려가 -4776
돼지 -4777
른바 -4778
▁영구 -4779
▁태종 -4780
▁전적 -4781
▁무너지 -4782
도사 -4783
▁조항 -4784
▁경사 -4785
▁당신 -4786
▁주일 -4787
▁직무 -4788
▁동경 -4789
▁누스 -4790
▁어둡 -4791
▁지불 -4792
▁매치 -4793
▁지나치 -4794
▁팩 -4795
▁칠레 -4796
ell -4797
▁이른바 -4798
▁1924 -4799
▁뼈 -4800
▁시신 -4801
▁프랑스어 -4802
▁걷 -4803
▁콜로 -4804
공사 -4805
▁국토 -4806
▁멈 -4807
▁용도 -4808
▁틈 -4809
▁이행 -4810
▁간부 -4811
▁세월 -4812
▁정통 -4813
프레 -4814
▁발레 -4815
▁개명 -4816
▁재능 -4817
▁상대식 -4818
▁79 -4819
▁정면 -4820
▁댄스 -4821
▁전망 -4822
▁조기 -4823
▁토대 -4824
▁익스 -4825
▁토마스 -4826
▁사막 -4827
들리 -4828
벤트 -4829
▁메트로 -4830
▁09 -4831
▁김해 -4832
▁반하 -4833
닉스 -4834
▁펀 -4835
▁실내 -4836
▁110 -4837
▁손해 -4838
▁형상 -4839
▁입대 -4840
▁콜롬 -4841
사이 -4842
▁따오 -4843
▁종사 -4844
▁이재 -4845
▁프로그래밍 -4846
▁의정부 -4847
▁개장 -4848
▁가난 -4849
▁대칭 -4850
▁회색 -4851
▁브로 -4852
▁단순히 -4853
슬링 -4854
티스 -4855
▁170 -4856
▁진실 -4857
▁쟁 -4858
end -4859
▁러브 -4860
▁04 -4861
▁구름 -4862
▁동굴 -4863
▁판정 -4864
▁액체 -4865
▁열매 -4866
▁지중 -4867
▁합동 -4868
▁오버 -4869
▁수컷 -4870
▁존스 -4871
▁토착 -4872
▁파키스탄 -4873
▁ㅓㅆ -4874
▁초상 -4875
과이 -4876
▁무력 -4877
어도 -4878
▁무용 -4879
▁베네치아 -4880
▁자랑 -4881
코프 -4882
▁안토니 -4883
▁해제 -4884
ill -4885
▁유아 -4886
▁법안 -4887
브라 -4888
ain -4889
▁경고 -4890
▁당대 -4891
▁흔적 -4892
▁뻗 -4893
▁엄격 -4894
▁하와 -4895
▁전제 -4896
▁사이드 -4897
▁로즈 -4898
▁자르 -4899
베리아 -4900
▁원자력 -4901
▁양국 -4902
테스 -4903
▁부리 -4904
▁고교 -4905
ID -4906
▁총재 -4907
▁플로리 -4908
사르 -4909
▁08 -4910
▁재생 -4911
▁대승 -4912
▁불러 -4913
ers -4914
▁우에 -4915
▁주문 -4916
▁인민군 -4917
▁틴 -4918
▁안티 -4919
▁퓨 -4920
▁멀티 -4921
▁일단 -4922
▁정류 -4923
▁세로 -4924
▁룸 -4925
▁Co -4926
▁개찰 -4927
▁오케 -4928
▁부속 -4929
▁스카이 -4930
▁경북 -4931
▁늑대 -4932
▁강도 -4933
▁서방 -4934
▁스톤 -4935
▁장로 -4936
▁분산 -4937
▁힙합 -4938
▁프로토 -4939
▁부서 -4940
▁주재 -4941
▁다큐 -4942
▁대가 -4943
▁오류 -4944
▁83 -4945
▁비잔 -4946
▁마저 -4947
▁안쪽 -4948
▁맡기 -4949
▁쌓이 -4950
▁엉 -4951
▁배열 -4952
▁지표 -4953
페이스 -4954
데르 -4955
▁페리 -4956
▁레닌 -4957
▁벼슬 -4958
▁국방부 -4959
▁MS -4960
▁한성 -4961
▁호흡 -4962
▁강요 -4963
▁동지 -4964
▁함경 -4965
▁스크린 -4966
▁찾아가 -4967
ard -4968
▁메탈 -4969
▁혈액 -4970
▁경찰서 -4971
▁중동 -4972
▁추적 -4973
▁할아버지 -4974
▁선로 -4975
▁마감 -4976
▁평면 -4977
▁편의 -4978
▁포드 -4979
▁탓 -4980
▁주자 -4981
▁중지 -4982
고속 -4983
야스 -4984
조선 -4985
▁거스 -4986
▁이벤트 -4987
▁대원 -4988
▁메르 -4989
▁성서 -4990
▁느리 -4991
▁1934 -4992
AN -4993
▁철거 -4994
▁대사관 -4995
어로 -4996
▁농장 -4997
워하 -4998
키퍼 -4999
▁아프가니 -5000
▁자매 -5001
▁골키퍼 -5002
▁북미 -5003
▁De -5004
▁투스 -5005
▁입구 -5006
▁스케이 -5007
▁요코하마 -5008
▁빵 -5009
베르크 -5010
▁구사 -5011
▁스탈린 -5012
▁떼 -5013
▁놀이 -5014
▁멈추 -5015
▁보스턴 -5016
▁닐 -5017
▁가볍 -5018
세대 -5019
▁근육 -5020
▁쿠바 -5021
▁판타 -5022
▁거느리 -5023
유키 -5024
▁동구 -5025
▁히어로 -5026
▁장례 -5027
▁정확히 -5028
▁봉기 -5029
▁노동당 -5030
▁본토 -5031
▁광산 -5032
▁130 -5033
▁현존 -5034
공업 -5035
▁Me -5036
▁페이스 -5037
레오 -5038
▁구로 -5039
▁정조 -5040
▁얀 -5041
▁대동 -5042
▁나이트 -5043
▁야당 -5044
▁토머스 -5045
▁밸 -5046
▁거점 -5047
▁식량 -5048
▁철학자 -5049
아르 -5050
제르 -5051
▁유키 -5052
▁동메달 -5053
드라 -5054
▁뱀 -5055
성기 -5056
▁은메달 -5057
▁젤 -5058
즈니 -5059
▁선물 -5060
▁글리 -5061
▁사망자 -5062
▁카리 -5063
▁항해 -5064
▁코어 -5065
ne -5066
▁도쿠가와 -5067
▁시계 -5068
▁접속 -5069
▁140 -5070
▁관계자 -5071
▁중계 -5072
▁내려가 -5073
▁부처 -5074
▁대다수 -5075
▁남극 -5076
▁아프가니스탄 -5077
보내 -5078
▁사카 -5079
▁맨체스터 -5080
하이 -5081
▁필립 -5082
▁돔 -5083
▁레지 -5084
▁새끼 -5085
▁복사 -5086
▁알렉산더 -5087
▁초청 -5088
▁Sh -5089
▁김구 -5090
▁모자 -5091
▁풍속 -5092
▁발전소 -5093
▁테르 -5094
레아 -5095
▁중성 -5096
▁특별히 -5097
▁재판소 -5098
▁칼리지 -5099
위대 -5100
▁안내 -5101
▁건너가 -5102
▁역전 -5103
▁독점 -5104
▁농촌 -5105
돌프 -5106
▁그러므로 -5107
▁훼 -5108
▁교향곡 -5109
▁증권 -5110
▁매주 -5111
안군 -5112
▁화합물 -5113
▁곤충 -5114
▁구리 -5115
▁커다랗 -5116
▁새벽 -5117
▁위안 -5118
▁휘하 -5119
▁겸하 -5120
▁세금 -5121
▁토너 -5122
▁르네 -5123
OR -5124
▁th -5125
▁로맨 -5126
크래프트 -5127
▁유력 -5128
▁1931 -5129
▁오염 -5130
▁재임 -5131
▁리아 -5132
▁합리 -5133
▁체육관 -5134
베리 -5135
▁부호 -5136
▁생애 -5137
▁이정 -5138
▁파울 -5139
▁물리치 -5140
▁비중 -5141
▁강등 -5142
▁히로시마 -5143
▁모노 -5144
▁일곱 -5145
▁달라지 -5146
▁간격 -5147
▁부드 -5148
▁타점 -5149
▁코너 -5150
레이크 -5151
▁종전 -5152
▁훌륭 -5153
▁진동 -5154
▁석방 -5155
▁아비 -5156
▁펄 -5157
▁관객 -5158
▁기병 -5159
▁존슨 -5160
▁타카 -5161
▁뚜렷 -5162
▁그리스어 -5163
▁계수 -5164
▁금강 -5165
▁멸종 -5166
▁부품 -5167
▁클래스 -5168
▁감옥 -5169
▁대변 -5170
▁찾아오 -5171
▁명시 -5172
▁문재 -5173
▁미카 -5174
느님 -5175
▁기르 -5176
▁원조 -5177
▁도망치 -5178
밀리 -5179
all -5180
▁ST -5181
▁목포 -5182
▁하느님 -5183
▁박근 -5184
▁자유주의 -5185
게이 -5186
▁하사 -5187
▁cod -5188
▁후퇴 -5189
▁타원 -5190
AM -5191
▁무늬 -5192
▁1921 -5193
▁심리학 -5194
▁꾼 -5195
▁폭풍 -5196
▁해협 -5197
나르 -5198
▁버지 -5199
▁176 -5200
▁좌파 -5201
▁An -5202
▁숙종 -5203
▁장점 -5204
▁250 -5205
▁대결 -5206
▁교도 -5207
▁킬로 -5208
▁아이스 -5209
▁지휘관 -5210
▁가구 -5211
▁캠프 -5212
▁수비수 -5213
▁공룡 -5214
▁기생 -5215
▁유발 -5216
▁지칭 -5217
▁그래프 -5218
▁올라오 -5219
ang -5220
▁마그 -5221
▁목숨 -5222
▁동성애 -5223
널드 -5224
▁유대인 -5225
▁윤리 -5226
▁부드럽 -5227
▁스트라이 -5228
▁토너먼트 -5229
▁덕분 -5230
▁하버 -5231
▁일환 -5232
▁1929 -5233
▁연호 -5234
▁착용 -5235
▁필라 -5236
▁닮 -5237
둥이 -5238
▁소요 -5239
▁첫째 -5240
▁공세 -5241
▁단장 -5242
▁코트 -5243
▁트랜스 -5244
▁빗 -5245
▁강전 -5246
▁비틀 -5247
▁성명 -5248
▁김대중 -5249
▁무겁 -5250
▁칙 -5251
▁조문 -5252
시스트 -5253
▁극복 -5254
▁특허 -5255
▁집필 -5256
수량 -5257
▁수반 -5258
▁아틀 -5259
▁약탈 -5260
▁사관 -5261
▁05 -5262
▁비즈 -5263
▁운동가 -5264
▁스테이션 -5265
▁캡 -5266
▁키스 -5267
▁자이언츠 -5268
▁도메 -5269
▁살아 -5270
▁쯤 -5271
▁기갑 -5272
▁y -5273
▁는다고 -5274
▁연상 -5275
▁곰 -5276
▁부작 -5277
▁동반 -5278
▁평론가 -5279
▁다다 -5280
▁1923 -5281
▁1925 -5282
산물 -5283
투아 -5284
▁첸 -5285
▁갤럭 -5286
▁조화 -5287
▁라트 -5288
▁잠재 -5289
▁인터페이스 -5290
▁롬 -5291
▁공국 -5292
미아 -5293
슬리 -5294
▁성직자 -5295
▁의석 -5296
▁연평균 -5297
▁삼각 -5298
▁북아메리카 -5299
▁고고 -5300
▁매니 -5301
ss -5302
▁입사 -5303
▁협약 -5304
▁가끔 -5305
▁건담 -5306
▁램 -5307
▁섬유 -5308
▁도호 -5309
▁지부 -5310
▁과일 -5311
▁요원 -5312
▁플로리다 -5313
마이 -5314
▁딱 -5315
클린 -5316
무게 -5317
▁몸무게 -5318
▁장갑 -5319
▁추대 -5320
▁갤럭시 -5321
▁틱 -5322
▁원장 -5323
타카 -5324
▁발휘 -5325
▁불화 -5326
▁영감 -5327
▁AC -5328
▁모로 -5329
▁근로 -5330
▁연계 -5331
▁임신 -5332
▁발렌 -5333
▁압축 -5334
▁07 -5335
▁관리자 -5336
▁샤를 -5337
▁중립 -5338
▁고서 -5339
▁영혼 -5340
▁북서쪽 -5341
▁선교사 -5342
▁웨일스 -5343
▁디오 -5344
▁우드 -5345
▁이수 -5346
▁추락 -5347
▁시게 -5348
▁타입 -5349
▁대한제국 -5350
▁살아남 -5351
▁지역구 -5352
ity -5353
대문 -5354
▁똑같 -5355
카스 -5356
▁모험 -5357
▁카페 -5358
베이스 -5359
추어 -5360
▁고분 -5361
▁유성 -5362
▁남아메리카 -5363
▁영광 -5364
▁트레이 -5365
▁갱 -5366
▁단선 -5367
▁사당 -5368
▁삭제 -5369
▁유비 -5370
▁일자 -5371
▁진술 -5372
키스 -5373
▁박스 -5374
▁망원경 -5375
▁캘리포니아주 -5376
▁수직 -5377
▁페루 -5378
▁161 -5379
▁레벨 -5380
▁둔 -5381
▁채권 -5382
▁리스트 -5383
▁하와이 -5384
▁미분 -5385
▁진흥 -5386
▁북극 -5387
▁필름 -5388
▁이조 -5389
▁서인 -5390
▁압도 -5391
▁주사 -5392
▁결심 -5393
▁꼽히 -5394
▁박근혜 -5395
▁기관차 -5396
▁동인 -5397
▁제약 -5398
▁종로 -5399
▁다이묘 -5400
▁SC -5401
▁철저 -5402
▁돌파 -5403
▁그랜드 -5404
▁민속 -5405
▁사거리 -5406
▁준우 -5407
▁향토 -5408
▁변신 -5409
ff -5410
▁부탁 -5411
▁카자 -5412
▁홀로 -5413
▁복구 -5414
▁빅토리아 -5415
▁EP -5416
▁파운드 -5417
▁성씨 -5418
▁유가 -5419
▁도마뱀 -5420
▁주류 -5421
▁청동 -5422
▁때로 -5423
▁설비 -5424
▁175 -5425
▁교과 -5426
▁프로세서 -5427
▁1922 -5428
▁중시 -5429
▁codice -5430
▁모음 -5431
▁바오 -5432
▁트럼 -5433
▁피트 -5434
▁청하 -5435
▁삼각형 -5436
▁칼리 -5437
▁엽 -5438
행성 -5439
▁무릎 -5440
▁문인 -5441
▁여인 -5442
즈키 -5443
▁수장 -5444
▁레이블 -5445
▁각자 -5446
▁틸 -5447
▁부유 -5448
부사 -5449
▁없애 -5450
▁평생 -5451
▁이날 -5452
▁화가 -5453
▁de -5454
▁프레임 -5455
일본 -5456
▁명사 -5457
▁부수 -5458
▁중구 -5459
애나 -5460
▁서적 -5461
▁엘리자베스 -5462
▁모래 -5463
태우 -5464
▁My -5465
▁규슈 -5466
▁윤치 -5467
▁버지니아 -5468
▁인천광역시 -5469
▁루트비히 -5470
▁고안 -5471
▁유역 -5472
▁투구 -5473
▁공격수 -5474
▁가톨릭교회 -5475
▁음모 -5476
▁1912 -5477
▁지연 -5478
▁토벌 -5479
▁황태 -5480
▁유용 -5481
▁도어 -5482
▁직선 -5483
▁리치 -5484
▁직위 -5485
▁최상 -5486
▁파트너 -5487
오리 -5488
프란 -5489
▁KT -5490
▁아기 -5491
▁라마 -5492
▁표지 -5493
▁노무 -5494
▁아과 -5495
▁국민당 -5496
메니아 -5497
▁교차로 -5498
▁왕가 -5499
▁Love -5500
▁164 -5501
▁자치구 -5502
니즘 -5503
▁무인 -5504
▁죠 -5505
양군 -5506
▁크레 -5507
▁무산 -5508
▁수상자 -5509
눅스 -5510
▁구미 -5511
▁간섭 -5512
▁글씨 -5513
▁어워드 -5514
▁네이션 -5515
▁문법 -5516
▁인력 -5517
▁왈 -5518
▁Go -5519
▁봉사 -5520
▁사토 -5521
ong -5522
▁포유 -5523
▁동일본 -5524
▁퍼시 -5525
▁"" -5526
▁납치 -5527
▁상처 -5528
▁패턴 -5529
▁리눅스 -5530
▁영조 -5531
▁아르메니아 -5532
▁소설가 -5533
▁블라디 -5534
▁1908 -5535
타운 -5536
▁노비 -5537
▁침해 -5538
▁릭 -5539
▁모니 -5540
멘트 -5541
▁베토 -5542
라이터 -5543
▁지중해 -5544
▁아마추어 -5545
▁장사 -5546
▁SM -5547
▁벨라 -5548
▁MV -5549
▁경유 -5550
▁랭킹 -5551
▁자책 -5552
▁1906 -5553
▁목조 -5554
▁호조 -5555
▁보통학교 -5556
야수 -5557
▁WW -5558
▁실점 -5559
▁연령 -5560
▁건축물 -5561
▁사촌 -5562
▁스케이팅 -5563
▁06 -5564
▁이종 -5565
▁ㄹ수록 -5566
up -5567
▁돼지 -5568
▁연소 -5569
▁교역 -5570
▁태자 -5571
보살 -5572
▁토르 -5573
▁전향 -5574
▁베타 -5575
멘터리 -5576
▁남동쪽 -5577
▁제주도 -5578
▁1917 -5579
슬로 -5580
▁과도 -5581
▁마카 -5582
아리 -5583
▁배상 -5584
▁아가 -5585
▁플레 -5586
▁매각 -5587
도니아 -5588
ip -5589
▁준우승 -5590
사관 -5591
▁히가시 -5592
▁수지 -5593
▁정자 -5594
▁삽입 -5595
▁적응 -5596
▁1927 -5597
▁싫 -5598
▁적어도 -5599
▁크림 -5600
▁다양체 -5601
▁에스파 -5602
마치 -5603
▁JR -5604
▁육성 -5605
▁조명 -5606
▁커피 -5607
ant -5608
▁안양 -5609
▁통로 -5610
▁전승 -5611
▁시상식 -5612
IS -5613
ld -5614
▁명문 -5615
▁03 -5616
▁앨런 -5617
▁출현 -5618
스팅 -5619
▁쇠퇴 -5620
▁시집 -5621
▁우익 -5622
▁이토 -5623
▁북동쪽 -5624
▁모듈 -5625
▁시아 -5626
▁우루 -5627
▁1907 -5628
▁굿 -5629
ED -5630
▁스와 -5631
▁과장 -5632
▁몬테 -5633
▁배급 -5634
▁유인 -5635
OM -5636
▁정서 -5637
▁탐험 -5638
▁BBC -5639
▁대행 -5640
▁보좌 -5641
▁커지 -5642
영상 -5643
▁호르 -5644
▁렉 -5645
▁옹호 -5646
▁외계 -5647
▁인자 -5648
▁럭 -5649
▁석조 -5650
▁노인 -5651
▁전작 -5652
▁색상 -5653
▁다큐멘터리 -5654
▁별로 -5655
▁폐기 -5656
▁표본 -5657
▁부동산 -5658
▁1926 -5659
▁흙 -5660
▁창간 -5661
▁우크라이나 -5662
▁밀라노 -5663
▁체인 -5664
▁관중 -5665
▁사신 -5666
▁항목 -5667
몬드 -5668
▁SN -5669
▁앱 -5670
▁산타 -5671
▁단행 -5672
▁산악 -5673
▁의병 -5674
▁호남 -5675
▁종족 -5676
▁베토벤 -5677
▁협의회 -5678
▁꺼 -5679
▁험 -5680
▁왕립 -5681
av -5682
▁168 -5683
▁슐 -5684
▁상하이 -5685
▁놀라 -5686
▁탑승 -5687
▁동아시아 -5688
▁송라이터 -5689
▁자문 -5690
페이지 -5691
▁아무런 -5692
▁He -5693
▁문하 -5694
▁대교 -5695
▁무선 -5696
▁포크 -5697
생물 -5698
▁해설 -5699
▁유입 -5700
이즈 -5701
티움 -5702
▁노조 -5703
스토 -5704
▁머물 -5705
▁선제 -5706
▁수감 -5707
▁연금 -5708
▁내장 -5709
▁PD -5710
▁지름 -5711
▁자전거 -5712
▁세조 -5713
▁패러 -5714
▁묘지 -5715
▁꾸미 -5716
ind -5717
▁겨우 -5718
▁비전 -5719
▁상영 -5720
▁연고지 -5721
▁스틸 -5722
슬라 -5723
▁급속 -5724
▁안보 -5725
런트 -5726
튜브 -5727
▁디즈니 -5728
▁사료 -5729
다이라 -5730
▁진지 -5731
▁헤드 -5732
▁NHK -5733
▁아울 -5734
▁에릭 -5735
▁162 -5736
▁꾸준히 -5737
로프 -5738
▁기종 -5739
▁동사 -5740
▁합계 -5741
▁166 -5742
▁레이다 -5743
▁기압 -5744
▁좌익 -5745
▁하천 -5746
▁최우수 -5747
▁1905 -5748
ame -5749
▁정사 -5750
▁홈페이지 -5751
▁제후 -5752
se -5753
▁기름 -5754
▁유튜브 -5755
AC -5756
▁콩고 -5757
▁오리지 -5758
텐도 -5759
▁닌텐도 -5760
▁룩 -5761
▁물려 -5762
▁민족주의 -5763
▁시에 -5764
▁대조 -5765
▁원로 -5766
▁비평가 -5767
나카 -5768
▁Sp -5769
▁|| -5770
▁엄마 -5771
▁예외 -5772
▁유신 -5773
▁기하학 -5774
▁비단 -5775
▁산지 -5776
▁151 -5777
▁묻히 -5778
▁바이올 -5779
▁문화유산 -5780
세스 -5781
▁독일어 -5782
려나 -5783
브스 -5784
▁버그 -5785
총장 -5786
페인 -5787
▁소니 -5788
▁조선인 -5789
▁뚫 -5790
▁스승 -5791
▁시외 -5792
▁가쓰 -5793
▁주말 -5794
▁색깔 -5795
▁바라보 -5796
▁증기 -5797
▁트럭 -5798
▁데이터베이스 -5799
ry -5800
▁요미 -5801
▁흥미 -5802
▁158 -5803
ES -5804
▁수천 -5805
▁참조 -5806
▁품질 -5807
▁사이클 -5808
▁수명 -5809
▁역과 -5810
▁곧바로 -5811
▁모집 -5812
▁목격 -5813
플레이 -5814
▁우르 -5815
▁스페셜 -5816
지마 -5817
▁도리 -5818
▁리듬 -5819
▁드래곤 -5820
▁셋째 -5821
▁운명 -5822
▁커뮤니티 -5823
무네 -5824
스케 -5825
▁마일 -5826
▁아크 -5827
▁쥬 -5828
어트 -5829
▁상소 -5830
▁광역 -5831
▁선진 -5832
▁칩 -5833
ith -5834
▁정류장 -5835
▁크리스토 -5836
▁유고슬 -5837
▁유고슬라비아 -5838
엘라 -5839
▁문과 -5840
▁지바 -5841
▁리얼 -5842
▁조르 -5843
▁나폴리 -5844
▁주의자 -5845
▁원산 -5846
▁반환 -5847
▁대안 -5848
▁악장 -5849
▁점성 -5850
스티벌 -5851
▁십자군 -5852
▁랴 -5853
잡히 -5854
▁이오 -5855
▁주거 -5856
ort -5857
▁02 -5858
▁신비 -5859
▁야생 -5860
▁옛날 -5861
▁자바 -5862
▁협의 -5863
▁라이온 -5864
▁가미 -5865
▁라이벌 -5866
▁빨리 -5867
▁입증 -5868
▁할리 -5869
▁페스티벌 -5870
▁구마 -5871
▁남서쪽 -5872
▁일행 -5873
▁방안 -5874
▁수수 -5875
▁유닛 -5876
▁주파 -5877
▁이리 -5878
▁레이스 -5879
▁주한 -5880
▁도심 -5881
▁사리 -5882
▁플루 -5883
▁입문 -5884
▁토니 -5885
▁브라이언 -5886
▁스피드 -5887
▁무관 -5888
프란시스코 -5889
ok -5890
▁기점 -5891
▁되찾 -5892
▁향년 -5893
▁운반 -5894
▁오디션 -5895
▁샌프란시스코 -5896
▁인텔 -5897
▁기용 -5898
▁동치 -5899
▁재무 -5900
▁특급 -5901
▁사면 -5902
▁날리 -5903
▁베이스볼 -5904
▁사직 -5905
▁안드로이드 -5906
▁적색 -5907
해군 -5908
▁저지르 -5909
▁배제 -5910
▁한나라 -5911
▁서북 -5912
▁쿠르 -5913
▁디자이너 -5914
▁콜롬비아 -5915
▁한나라당 -5916
회의 -5917
▁단층 -5918
▁동영상 -5919
▁연주자 -5920
▁출판사 -5921
▁마라 -5922
▁미네 -5923
▁미만 -5924
▁인치 -5925
▁기념물 -5926
프스 -5927
▁케이블 -5928
▁마케도니아 -5929
▁와카 -5930
▁정교 -5931
▁오리지널 -5932
루살 -5933
▁렌즈 -5934
▁분배 -5935
▁마스 -5936
▁직장 -5937
▁초래 -5938
▁묘소 -5939
▁1904 -5940
▁신임 -5941
▁출산 -5942
▁부시 -5943
▁평소 -5944
▁프랜 -5945
▁복제 -5946
루살렘 -5947
▁지휘자 -5948
▁개수 -5949
▁석탑 -5950
▁알라 -5951
쳐지 -5952
▁부패 -5953
▁당사자 -5954
▁예술가 -5955
▁템 -5956
▁폭스 -5957
▁스테이지 -5958
▁예언 -5959
▁긴급 -5960
▁사로 -5961
▁왕족 -5962
▁관장 -5963
▁교전 -5964
▁서경 -5965
▁165 -5966
프라 -5967
▁진도 -5968
▁콘스탄티노 -5969
▁용기 -5970
▁기재 -5971
▁단종 -5972
▁의거 -5973
▁챌 -5974
▁Un -5975
▁좌석 -5976
▁파생 -5977
▁마쓰다이라 -5978
▁센트럴 -5979
▁급행 -5980
▁모순 -5981
▁상무 -5982
▁자사 -5983
▁입히 -5984
▁판타지 -5985
▁신하 -5986
▁Wh -5987
▁154 -5988
▁내륙 -5989
▁계단 -5990
리케이션 -5991
▁가게 -5992
ob -5993
ord -5994
▁여동생 -5995
▁수면 -5996
▁오타 -5997
▁트레 -5998
▁파나 -5999
▁Se -6000
▁동전 -6001
문학 -6002
▁합작 -6003
▁무신 -6004
▁비즈니스 -6005
교육 -6006
▁무슬 -6007
▁예루살렘 -6008
qu -6009
▁권고 -6010
▁받침 -6011
▁겹치 -6012
▁사르 -6013
터스 -6014
▁압박 -6015
페이 -6016
▁신용 -6017
▁용산 -6018
▁163 -6019
▁156 -6020
▁바이올린 -6021
▁항일 -6022
▁스펙트 -6023
▁정계 -6024
▁도메인 -6025
▁링크 -6026
▁연애 -6027
▁무슬림 -6028
가스 -6029
▁DJ -6030
모니 -6031
우옌 -6032
▁사범 -6033
▁167 -6034
▁가득 -6035
▁그랑 -6036
▁크리스티 -6037
▁SF -6038
디스 -6039
려오 -6040
▁여신 -6041
▁리투아 -6042
▁리투아니아 -6043
▁상임 -6044
▁진상 -6045
▁스펙트럼 -6046
ate -6047
▁스쿨 -6048
▁호환 -6049
경기 -6050
▁끼리 -6051
▁회원국 -6052
▁깔 -6053
▁AM -6054
▁훼손 -6055
▁900 -6056
식물 -6057
▁대단 -6058
▁아인 -6059
▁전염 -6060
▁타마 -6061
랑이 -6062
▁이지 -6063
▁밀접 -6064
▁서울시 -6065
PS -6066
지르 -6067
▁비로 -6068
▁충남 -6069
▁시달리 -6070
▁자회사 -6071
카르 -6072
▁조국 -6073
▁스마트폰 -6074
▁조류 -6075
▁이명박 -6076
▁씌 -6077
▁챌린 -6078
▁한양 -6079
▁게시 -6080
▁노무현 -6081
▁장편 -6082
껍질 -6083
▁고립 -6084
▁니스 -6085
▁바그 -6086
▁번식 -6087
▁얼음 -6088
▁우지 -6089
▁발효 -6090
▁어항 -6091
▁혜성 -6092
▁샹 -6093
▁미얀 -6094
▁선사 -6095
▁자마 -6096
▁분지 -6097
▁지주 -6098
▁친정 -6099
▁애국 -6100
▁과제 -6101
▁었었 -6102
▁비잔티움 -6103
▁쇼군 -6104
▁끄 -6105
▁무라 -6106
▁교섭 -6107
킨스 -6108
▁착륙 -6109
▁일요일 -6110
▁팅 -6111
▁주립 -6112
▁참판 -6113
IC -6114
▁기아 -6115
▁예능 -6116
▁오다 -6117
▁와중 -6118
▁지장 -6119
▁오케스트라 -6120
▁피렌 -6121
길이 -6122
▁UN -6123
▁포맷 -6124
커스 -6125
▁식사 -6126
▁성종 -6127
▁시체 -6128
▁139 -6129
▁서브 -6130
잡이 -6131
▁진나라 -6132
▁농도 -6133
▁저기 -6134
▁피스 -6135
▁알바니아 -6136
▁구장 -6137
▁아베 -6138
▁옌 -6139
▁융합 -6140
▁파동 -6141
▁선두 -6142
▁차관 -6143
▁최신 -6144
▁요크 -6145
럼비아 -6146
▁AS -6147
▁대령 -6148
▁부흥 -6149
▁145 -6150
▁행정부 -6151
▁하트 -6152
로디 -6153
예프 -6154
▁쿠스 -6155
▁디비전 -6156
▁낱 -6157
ET -6158
▁바티 -6159
▁유하 -6160
▁기타리스트 -6161
▁뜨겁 -6162
부인 -6163
▁월간 -6164
▁련 -6165
▁강연 -6166
▁발족 -6167
▁소나 -6168
▁용량 -6169
▁아이디 -6170
▁잊 -6171
▁보전 -6172
▁부자 -6173
▁야기 -6174
▁위주 -6175
▁하드웨어 -6176
▁거인 -6177
▁충성 -6178
▁개발자 -6179
▁주머니 -6180
▁킬로미터 -6181
ast -6182
▁전이 -6183
▁투명 -6184
▁마리오 -6185
▁해인 -6186
▁브라우 -6187
▁간접 -6188
▁공과 -6189
▁착수 -6190
▁학파 -6191
▁부통령 -6192
▁지질 -6193
▁스트리트 -6194
▁번주 -6195
▁MVP -6196
DP -6197
▁관찰사 -6198
▁부도 -6199
▁몸길이 -6200
▁피렌체 -6201
▁아이디어 -6202
▁고조 -6203
▁임상 -6204
▁사사 -6205
▁응우옌 -6206
▁굉 -6207
▁김동 -6208
랑크 -6209
▁전임 -6210
▁페어 -6211
▁관광객 -6212
▁마케팅 -6213
▁미나미 -6214
▁전지 -6215
▁측근 -6216
▁넬 -6217
수아 -6218
▁마산 -6219
▁제네 -6220
▁아세 -6221
데이트 -6222
▁중국어 -6223
▁규명 -6224
▁배정 -6225
▁완화 -6226
▁거스르 -6227
if -6228
▁하노 -6229
▁업데이트 -6230
▁이에 -6231
▁전류 -6232
▁정벌 -6233
▁전두 -6234
▁1896 -6235
▁점유 -6236
▁HIV -6237
어내 -6238
▁맥스 -6239
트니 -6240
▁성공회 -6241
▁샬 -6242
레이터 -6243
▁피에르 -6244
▁권유 -6245
▁차체 -6246
ack -6247
▁DS -6248
▁공용 -6249
▁사바 -6250
▁귀환 -6251
란트 -6252
ive -6253
▁경선 -6254
트롤 -6255
▁중도 -6256
▁형법 -6257
▁보드 -6258
▁공전 -6259
▁여덟 -6260
▁제의 -6261
▁출구 -6262
IT -6263
균관 -6264
▁로빈 -6265
▁턴 -6266
ure -6267
▁스콧 -6268
▁트윈 -6269
주곡 -6270
▁뱅크 -6271
▁친선 -6272
▁게이트 -6273
▁IP -6274
▁구동 -6275
▁짙 -6276
▁연수 -6277
▁성벽 -6278
▁둘러싸이 -6279
▁스타크래프트 -6280
▁젖 -6281
악기 -6282
▁중독 -6283
리티 -6284
▁검증 -6285
▁석탄 -6286
▁오렌 -6287
▁174 -6288
▁존경 -6289
▁살아가 -6290
▁수학자 -6291
▁마운 -6292
▁세례 -6293
▁152 -6294
▁애플리케이션 -6295
▁관습 -6296
▁노동조합 -6297
▁요미우리 -6298
루미 -6299
▁디젤 -6300
▁수산 -6301
▁우즈 -6302
▁지각 -6303
▁플라스 -6304
▁옐 -6305
▁미하 -6306
운서 -6307
츠키 -6308
ock -6309
▁실용 -6310
▁5000 -6311
▁서열 -6312
▁정찰 -6313
▁피난 -6314
▁조용 -6315
iv -6316
▁시드니 -6317
▁인과 -6318
▁청와 -6319
▁아나운서 -6320
▁메디 -6321
▁소송법 -6322
▁테일러 -6323
▁ㄹ까 -6324
결승 -6325
문관 -6326
▁변동 -6327
▁사명 -6328
▁쇼핑 -6329
▁전장 -6330
▁157 -6331
▁서일본 -6332
▁행진 -6333
▁뷔 -6334
▁리오 -6335
▁청와대 -6336
▁얼마나 -6337
▁전문학교 -6338
▁곁 -6339
▁Ar -6340
▁시라 -6341
▁꼴 -6342
토미 -6343
▁자면 -6344
▁전진 -6345
▁기울이 -6346
▁사인 -6347
▁밀양 -6348
▁테오 -6349
▁장성 -6350
ck -6351
▁금성 -6352
▁규격 -6353
▁루수 -6354
▁자율 -6355
▁준공 -6356
▁한화 -6357
▁해전 -6358
▁한강 -6359
▁빌헬 -6360
▁퇴각 -6361
▁호평 -6362
폴리스 -6363
▁프로세스 -6364
▁고사 -6365
▁염색 -6366
▁뿔 -6367
▁고개 -6368
▁번뇌 -6369
▁수신 -6370
▁좌표 -6371
▁다이아 -6372
▁신전 -6373
▁책봉 -6374
▁미스터 -6375
▁하버드 -6376
▁킨 -6377
▁구제 -6378
▁쏟 -6379
▁적대 -6380
▁회수 -6381
가루 -6382
▁관현 -6383
▁상상 -6384
▁아울러 -6385
▁급진 -6386
▁신칸 -6387
▁이슈 -6388
▁카나 -6389
▁판매량 -6390
▁관념 -6391
▁여의 -6392
▁취약 -6393
▁저기압 -6394
▁성균관 -6395
▁가즈 -6396
▁백신 -6397
▁장인 -6398
▁연구자 -6399
외선 -6400
▁카시 -6401
▁힘쓰 -6402
산군 -6403
▁흥행 -6404
▁복소 -6405
▁지분 -6406
▁자손 -6407
트랙 -6408
▁무효 -6409
▁해임 -6410
원숭이 -6411
끄럽 -6412
▁비극 -6413
▁MP -6414
전자 -6415
▁몰락 -6416
수수 -6417
니스트 -6418
▁국어 -6419
▁응답 -6420
▁제휴 -6421
▁연루 -6422
▁j -6423
▁메가 -6424
▁상류 -6425
▁식당 -6426
▁125 -6427
카드 -6428
▁따위 -6429
▁이순 -6430
▁할당 -6431
▁쳐 -6432
포스 -6433
▁146 -6434
▁휩 -6435
▁소금 -6436
▁통행 -6437
▁들리 -6438
▁문재인 -6439
▁쇄 -6440
▁달아나 -6441
악단 -6442
▁서독 -6443
하르트 -6444
▁105 -6445
▁니아 -6446
▁소총 -6447
▁승차 -6448
▁천문학 -6449
메르 -6450
혁명 -6451
▁히스 -6452
▁1500 -6453
자와 -6454
▁악마 -6455
▁흩 -6456
▁김용 -6457
▁적히 -6458
▁마찰 -6459
▁문제점 -6460
▁남양 -6461
▁두드 -6462
▁패전 -6463
▁아니하 -6464
▁파스 -6465
▁끈 -6466
▁박영 -6467
▁창업 -6468
▁나미 -6469
▁남인 -6470
▁로고 -6471
▁루터 -6472
▁여수 -6473
▁3000 -6474
▁동남아시아 -6475
▁믿음 -6476
▁에티 -6477
▁강사 -6478
▁술탄 -6479
▁자고 -6480
12 -6481
▁충족 -6482
▁1911 -6483
▁마오 -6484
▁외무 -6485
▁우정 -6486
▁이노 -6487
▁착공 -6488
▁매출 -6489
▁유출 -6490
▁노드 -6491
▁저택 -6492
▁윌슨 -6493
ime -6494
▁자책점 -6495
▁소지 -6496
▁히라 -6497
고속도로 -6498
▁민국 -6499
▁서서 -6500
▁신칸센 -6501
▁곳곳 -6502
▁이복 -6503
▁두르 -6504
▁성전 -6505
▁153 -6506
▁얇 -6507
▁나열 -6508
▁지지자 -6509
▁원나라 -6510
라트 -6511
▁소닉 -6512
▁조언 -6513
▁하마 -6514
▁갈라지 -6515
▁프로토콜 -6516
일드 -6517
▁고원 -6518
▁내내 -6519
▁단원 -6520
▁소관 -6521
▁떠오르 -6522
▁항공모 -6523
▁PS -6524
▁여래 -6525
▁청사 -6526
▁석가 -6527
▁소재지 -6528
▁이이 -6529
▁일렉 -6530
one -6531
▁순천 -6532
▁중점 -6533
▁WWE -6534
▁Le -6535
▁디비 -6536
▁지목 -6537
▁과목 -6538
서양 -6539
▁매개 -6540
▁사지 -6541
▁카트 -6542
▁찾아보 -6543
▁희극 -6544
▁빌헬름 -6545
▁예배 -6546
▁회견 -6547
제프 -6548
▁MC -6549
▁유언 -6550
▁103 -6551
▁환원 -6552
▁시외버스 -6553
▁폴리스 -6554
▁강수량 -6555
▁고무 -6556
▁힌두 -6557
네이 -6558
▁증후 -6559
▁우주선 -6560
▁동위 -6561
▁매기 -6562
▁배구 -6563
▁환상 -6564
▁눈물 -6565
▁아즈 -6566
토시 -6567
대군 -6568
펴보 -6569
▁비아 -6570
▁편곡 -6571
▁살펴보 -6572
팩트 -6573
▁마천 -6574
▁보잉 -6575
▁중장 -6576
▁회계 -6577
▁셈 -6578
▁Pro -6579
▁연인 -6580
▁이글 -6581
▁특유 -6582
▁후자 -6583
▁카자흐 -6584
▁미얀마 -6585
▁클린 -6586
▁비틀즈 -6587
▁법령 -6588
▁성모 -6589
▁주권 -6590
▁천사 -6591
▁ISO -6592
▁오클 -6593
▁개업 -6594
▁공자 -6595
▁취재 -6596
▁터지 -6597
▁참가자 -6598
▁포장 -6599
▁고베 -6600
▁얘 -6601
▁가라 -6602
▁일관 -6603
델피아 -6604
▁필라델피아 -6605
▁기장 -6606
▁매사 -6607
노프 -6608
▁제트 -6609
▁채무 -6610
▁공략 -6611
▁나리 -6612
▁겸임 -6613
▁반격 -6614
▁선원 -6615
▁진리 -6616
▁해역 -6617
ML -6618
즈카 -6619
▁친척 -6620
노리 -6621
▁공인 -6622
▁별개 -6623
▁시립 -6624
▁와인 -6625
▁점프 -6626
AP -6627
▁우편 -6628
기니 -6629
▁굵 -6630
▁버튼 -6631
▁최적 -6632
▁오렌지 -6633
OC -6634
▁패스 -6635
▁이어서 -6636
▁삿 -6637
어리 -6638
▁155 -6639
▁출입구 -6640
▁각기 -6641
▁상자 -6642
▁중종 -6643
▁추모 -6644
▁닭 -6645
▁근접 -6646
▁각본가 -6647
받침 -6648
▁회화 -6649
▁토크 -6650
▁독립운동가 -6651
▁대답 -6652
▁테스 -6653
▁빼앗기 -6654
마사 -6655
▁격렬 -6656
▁보충 -6657
▁협동 -6658
동물 -6659
리크 -6660
▁허브 -6661
▁아군 -6662
▁게재 -6663
▁카타 -6664
▁두드러지 -6665
▁나고 -6666
▁인격 -6667
▁주파수 -6668
▁유해 -6669
▁밭 -6670
▁유격 -6671
▁정치가 -6672
▁이원 -6673
▁태우 -6674
시온 -6675
▁Bo -6676
▁위장 -6677
▁별자리 -6678
te -6679
▁사가 -6680
▁컨트롤 -6681
소스 -6682
▁인형 -6683
▁담배 -6684
▁법무 -6685
▁사물 -6686
▁앞면 -6687
▁동등 -6688
▁지우 -6689
▁오키나 -6690
▁증후군 -6691
▁실종 -6692
▁토리 -6693
▁포수 -6694
▁민영 -6695
▁생일 -6696
▁108 -6697
▁성주 -6698
▁항공모함 -6699
▁리메 -6700
▁미소 -6701
▁북동부 -6702
▁매력 -6703
▁이바 -6704
▁이영 -6705
▁이인 -6706
▁평행 -6707
▁합법 -6708
▁금액 -6709
▁레전 -6710
▁오디오 -6711
▁민사 -6712
▁유교 -6713
▁감지 -6714
▁영동 -6715
▁토요일 -6716
▁트라이 -6717
▁미루 -6718
▁Con -6719
플러 -6720
▁두산 -6721
▁룰 -6722
▁내지 -6723
▁아바 -6724
▁일찍이 -6725
▁자발 -6726
▁베르크 -6727
▁스파이 -6728
때로 -6729
Pa -6730
▁양상 -6731
▁개찰구 -6732
▁아리스 -6733
▁사우디아 -6734
▁히데요시 -6735
▁건의 -6736
▁서해 -6737
▁준결승 -6738
산면 -6739
상스 -6740
▁전두환 -6741
▁외곽 -6742
▁하우 -6743
▁상대방 -6744
▁서서히 -6745
io -6746
▁스터 -6747
▁박탈 -6748
▁상부 -6749
▁승무원 -6750
▁고체 -6751
항공 -6752
▁일족 -6753
▁에디 -6754
▁퍼시픽 -6755
▁쉐 -6756
▁에우 -6757
▁꾀 -6758
ber -6759
▁아케 -6760
▁화살 -6761
산리 -6762
▁교장 -6763
▁추격 -6764
▁야간 -6765
▁이사장 -6766
▁브래 -6767
▁에이스 -6768
▁트럼프 -6769
▁크리스마스 -6770
▁나고야 -6771
▁때때로 -6772
▁드라이브 -6773
▁앙리 -6774
▁입상 -6775
▁전례 -6776
▁호세 -6777
▁시청자 -6778
▁하인리히 -6779
베이터 -6780
▁갓 -6781
▁상장 -6782
▁섞이 -6783
▁IT -6784
▁생명체 -6785
러미 -6786
▁해운 -6787
▁홍수 -6788
▁아우구 -6789
▁1909 -6790
화점 -6791
▁교단 -6792
퍼니 -6793
▁만세 -6794
▁무려 -6795
▁김영삼 -6796
▁궁정 -6797
▁세균 -6798
▁고발 -6799
▁싸이 -6800
▁외국어 -6801
▁대주교 -6802
▁이슬람교 -6803
▁기금 -6804
▁사다 -6805
다드 -6806
▁부착 -6807
▁그만두 -6808
가타 -6809
▁128 -6810
▁149 -6811
▁물자 -6812
▁캠페인 -6813
▁톈 -6814
▁긴장 -6815
▁102 -6816
▁가르침 -6817
▁운동장 -6818
모어 -6819
▁명의 -6820
▁복장 -6821
▁향교 -6822
▁보스니아 -6823
▁맵 -6824
▁콜라 -6825
▁트위 -6826
▁사용자 -6827
구장 -6828
▁전도 -6829
▁메타 -6830
▁골프 -6831
▁대군 -6832
▁수성 -6833
▁트루 -6834
▁호칭 -6835
칠리아 -6836
▁# -6837
라미 -6838
▁고가 -6839
▁연도 -6840
▁짜리 -6841
▁자마자 -6842
▁제작자 -6843
▁배틀 -6844
▁정밀 -6845
라이트 -6846
▁건축가 -6847
▁안장 -6848
▁르네상스 -6849
▁대외 -6850
▁집계 -6851
▁치세 -6852
▁후안 -6853
▁펼쳐지 -6854
람회 -6855
▁어드 -6856
▁남한 -6857
▁슬라 -6858
▁피고 -6859
▁존중 -6860
▁에스파냐 -6861
▁발원 -6862
▁최저 -6863
▁사우디아라비아 -6864
▁중국인 -6865
▁텍스트 -6866
ge -6867
▁중재 -6868
▁주지사 -6869
트릭 -6870
▁전대 -6871
▁레이저 -6872
▁계절 -6873
▁직책 -6874
▁송나라 -6875
▁발현 -6876
age -6877
▁차남 -6878
먼드 -6879
▁흘러 -6880
▁셸 -6881
▁며칠 -6882
▁자유당 -6883
▁여주 -6884
▁섭취 -6885
▁시오 -6886
▁Bl -6887
▁팽창 -6888
▁네이버 -6889
iz -6890
▁포괄 -6891
집합 -6892
▁사절 -6893
▁세미 -6894
▁키프 -6895
▁레전드 -6896
▁강경 -6897
▁넓히 -6898
백과 -6899
▁최소한 -6900
생활 -6901
▁단기 -6902
▁문양 -6903
▁아미타 -6904
▁방침 -6905
▁상세 -6906
▁초창 -6907
▁향후 -6908
▁$ -6909
▁사이버 -6910
언스 -6911
▁손가락 -6912
▁원자로 -6913
▁포도주 -6914
▁댐 -6915
▁대니 -6916
▁턱 -6917
▁다중 -6918
▁수평 -6919
▁굉장 -6920
▁뽑히 -6921
▁프랭크 -6922
AD -6923
차례 -6924
▁고래 -6925
▁청장 -6926
▁촉구 -6927
▁팔레스 -6928
▁갑작 -6929
▁캄보 -6930
▁탐지 -6931
사기 -6932
▁객관 -6933
▁147 -6934
▁룽 -6935
▁조반 -6936
▁충주 -6937
▁태생 -6938
▁유니폼 -6939
▁그랑프리 -6940
▁낙선 -6941
▁조리 -6942
▁토스 -6943
▁127 -6944
▁로프 -6945
▁수군 -6946
울리 -6947
▁블루스 -6948
▁동독 -6949
▁보리 -6950
▁토마 -6951
▁CPU -6952
▁단점 -6953
▁명목 -6954
▁볼리 -6955
▁경부 -6956
▁속성 -6957
수엘라 -6958
▁딩 -6959
▁스릴 -6960
▁노란색 -6961
▁여진 -6962
▁아미노 -6963
▁1915 -6964
▁엘리베이터 -6965
▁뢰 -6966
▁기수 -6967
행위 -6968
▁무죄 -6969
▁왜성 -6970
▁초연 -6971
▁캐스팅 -6972
▁메인 -6973
▁진군 -6974
▁케네 -6975
▁171 -6976
노부 -6977
▁입체 -6978
▁주축 -6979
▁하이드 -6980
▁숭배 -6981
▁음원 -6982
▁로맨스 -6983
▁역명 -6984
▁전함 -6985
▁컬러 -6986
▁1913 -6987
sp -6988
두르 -6989
▁취지 -6990
▁협조 -6991
▁겔 -6992
▁난민 -6993
라리 -6994
▁심의 -6995
▁알코 -6996
▁오키나와 -6997
▁마비 -6998
▁북구 -6999
▁북방 -7000
▁침몰 -7001
▁황해 -7002
orld -7003
▁윌리엄스 -7004
우라 -7005
▁제곱 -7006
▁유소년 -7007
▁이어받 -7008
▁추증 -7009
▁상당수 -7010
▁따뜻 -7011
▁라파 -7012
▁베네수엘라 -7013
▁부천 -7014
▁후일 -7015
서리 -7016
▁투르크 -7017
▁천문학자 -7018
▁동당 -7019
ik -7020
▁원고 -7021
▁낮추 -7022
▁내주 -7023
창군 -7024
▁신흥 -7025
▁문학상 -7026
▁김재 -7027
▁마하 -7028
▁부과 -7029
▁옥스 -7030
▁언제나 -7031
▁테니스 -7032
▁분광 -7033
시티 -7034
▁재미 -7035
▁위키백과 -7036
▁광년 -7037
▁동년 -7038
▁수동 -7039
▁센서 -7040
▁창건 -7041
▁닿 -7042
▁김수 -7043
▁추상 -7044
▁출토 -7045
▁이민자 -7046
▁초창기 -7047
▁둘레 -7048
▁타르 -7049
▁서사 -7050
▁이틀 -7051
기지 -7052
▁동래 -7053
▁태수 -7054
▁팜 -7055
▁코프 -7056
▁강과 -7057
▁대포 -7058
▁기습 -7059
▁시그 -7060
▁탈환 -7061
▁쓰러지 -7062
▁개미 -7063
자치도 -7064
▁169 -7065
▁제주특별 -7066
▁제주특별자치도 -7067
▁수렴 -7068
▁머신 -7069
▁창시 -7070
▁울리 -7071
▁병역 -7072
▁원반 -7073
포구 -7074
▁GT -7075
▁김진 -7076
▁수령 -7077
▁CE -7078
명사전 -7079
▁디스플레이 -7080
▁대역 -7081
▁바흐 -7082
▁스파르타 -7083
▁어업 -7084
▁청원 -7085
▁종결 -7086
▁찾아내 -7087
▁1895 -7088
▁든지 -7089
크리트 -7090
▁유수 -7091
▁카탈 -7092
여지 -7093
▁모스 -7094
▁hPa -7095
▁나가사키 -7096
▁SP -7097
▁광부 -7098
▁링컨 -7099
▁아폴 -7100
▁정말 -7101
▁리메이크 -7102
▁무제 -7103
▁총선거 -7104
▁프레스 -7105
▁흩어지 -7106
▁딴 -7107
▁al -7108
▁인재 -7109
▁때리 -7110
▁141 -7111
▁팔레스타인 -7112
▁걱 -7113
▁남원 -7114
▁대처 -7115
평군 -7116
포트 -7117
▁계몽 -7118
▁유연 -7119
▁통칭 -7120
▁아사히 -7121
▁초상화 -7122
▁한동안 -7123
▁적자 -7124
▁언론인 -7125
▁대제 -7126
▁엔지 -7127
▁주차 -7128
▁효력 -7129
MS -7130
▁께서 -7131
▁동력 -7132
▁반박 -7133
▁법제 -7134
▁비문 -7135
박쥐 -7136
▁국사 -7137
▁135 -7138
▁Tr -7139
▁시공 -7140
▁끊임 -7141
▁총괄 -7142
▁다운로드 -7143
▁섭정 -7144
▁신세 -7145
공신 -7146
▁나주 -7147
네스코 -7148
▁북서부 -7149
석기 -7150
▁고백 -7151
▁후세 -7152
▁하부 -7153
▁온천 -7154
▁탤 -7155
벌레 -7156
▁양주 -7157
무기 -7158
ust -7159
▁소실 -7160
그라드 -7161
▁수용소 -7162
▁김태 -7163
▁번영 -7164
보기 -7165
자스 -7166
▁서머 -7167
▁도호쿠 -7168
와라 -7169
▁자기장 -7170
▁풋볼 -7171
▁십자가 -7172
ep -7173
▁바실 -7174
▁차기 -7175
▁나르 -7176
▁삼진 -7177
▁이진 -7178
▁중순 -7179
▁111 -7180
선거 -7181
▁신중 -7182
▁문화방송 -7183
▁귀중 -7184
▁대위 -7185
▁오빠 -7186
▁해병대 -7187
▁어스 -7188
▁캄보디아 -7189
▁개관 -7190
▁면하 -7191
▁영리 -7192
▁144 -7193
▁서울대 -7194
▁더글 -7195
▁저명 -7196
▁후대 -7197
▁몰아내 -7198
▁내외 -7199
▁첨가 -7200
▁큰 -7201
▁스핀 -7202
▁원내 -7203
▁폐위 -7204
▁풍경 -7205
▁날짜 -7206
▁스티브 -7207
▁그로 -7208
▁김포 -7209
▁명백 -7210
▁두루 -7211
▁식별 -7212
▁함유 -7213
따르 -7214
▁휴식 -7215
▁기요 -7216
▁정전 -7217
▁파업 -7218
▁전성기 -7219
▁컴퍼니 -7220
▁평하 -7221
▁리버풀 -7222
▁연세대 -7223
▁걱정 -7224
▁장미 -7225
▁아레나 -7226
int -7227
▁알아 -7228
▁조달 -7229
▁당일 -7230
▁무상 -7231
▁병조 -7232
▁불편 -7233
▁제수 -7234
▁It -7235
▁교원 -7236
▁이광 -7237
▁정무 -7238
▁119 -7239
누엘 -7240
▁충실 -7241
▁스릴러 -7242
▁컬럼비아 -7243
▁캉 -7244
▁천도 -7245
▁평야 -7246
▁꽤 -7247
키지 -7248
▁TH -7249
▁공채 -7250
▁편리 -7251
▁관통 -7252
▁드럼 -7253
▁에다 -7254
▁총사 -7255
▁신학교 -7256
▁CO -7257
▁매카 -7258
▁소환 -7259
▁중소 -7260
▁우연히 -7261
▁교양 -7262
▁다니엘 -7263
트리올 -7264
▁몬트리올 -7265
▁간호 -7266
▁모방 -7267
▁위임 -7268
▁인산 -7269
▁172 -7270
▁케네디 -7271
▁카이사르 -7272
▁도스 -7273
▁별칭 -7274
▁언더 -7275
▁룡 -7276
▁신기 -7277
▁총대 -7278
GC -7279
▁고민 -7280
▁북위 -7281
▁선구 -7282
▁요르 -7283
▁유니버 -7284
EN -7285
스럽 -7286
푸스 -7287
▁사회학 -7288
릴라 -7289
▁아종 -7290
▁휴전 -7291
▁덤 -7292
시로 -7293
▁엔지니어 -7294
▁관람 -7295
▁드라 -7296
▁루시 -7297
▁테레 -7298
▁신학자 -7299
▁리어 -7300
▁이글스 -7301
▁껍질 -7302
▁미주 -7303
▁106 -7304
ib -7305
▁베드 -7306
▁평일 -7307
▁장안 -7308
▁니콜라 -7309
▁바퀴 -7310
▁선종 -7311
▁해수 -7312
▁친일인 -7313
▁유네스코 -7314
▁친일인명사전 -7315
▁연패 -7316
▁의상 -7317
나리 -7318
ome -7319
▁묘역 -7320
▁미즈 -7321
▁쇼트 -7322
▁애덤 -7323
▁증진 -7324
▁진짜 -7325
▁세계관 -7326
▁아틀레 -7327
▁아이템 -7328
▁스페이스 -7329
그로 -7330
니치 -7331
ian -7332
▁공모 -7333
▁페르난 -7334
▁보완 -7335
▁카리브 -7336
ude -7337
▁좌절 -7338
▁평범 -7339
▁김상 -7340
▁중량 -7341
▁표명 -7342
▁장난 -7343
케이션 -7344
▁한성부 -7345
▁도주 -7346
▁서남 -7347
▁공직 -7348
▁미토 -7349
▁승점 -7350
▁아벨 -7351
▁초과 -7352
▁장려 -7353
▁마인 -7354
▁소통 -7355
▁슈트 -7356
▁제갈 -7357
▁케이스 -7358
▁멋 -7359
▁콘크리트 -7360
▁프랑수아 -7361
▁마츠 -7362
▁열대 -7363
▁영남 -7364
▁지혜 -7365
▁치열 -7366
▁항소 -7367
▁에스토 -7368
▁잦 -7369
▁콰 -7370
▁고수 -7371
▁등재 -7372
▁We -7373
▁방패 -7374
▁아이슬 -7375
▁훔 -7376
▁돌연 -7377
▁생전 -7378
▁해변 -7379
▁책임자 -7380
▁정렬 -7381
▁차종 -7382
▁그루 -7383
▁낱말 -7384
▁배신 -7385
ere -7386
▁포격 -7387
▁외교관 -7388
▁지폐 -7389
▁충북 -7390
▁닷 -7391
▁역설 -7392
▁전압 -7393
내셔널 -7394
▁인터내셔널 -7395
블로 -7396
세츠 -7397
페르 -7398
▁탱크 -7399
주의자 -7400
▁쿤 -7401
루션 -7402
▁영장 -7403
▁우울 -7404
▁일화 -7405
말라 -7406
선스 -7407
▁합창 -7408
▁공단 -7409
▁양도 -7410
▁투르 -7411
▁매사추 -7412
실록 -7413
ire -7414
▁요하 -7415
▁입지 -7416
▁황태자 -7417
치오 -7418
▁단식 -7419
▁일조 -7420
▁매사추세츠 -7421
▁발트 -7422
▁부채 -7423
▁불명 -7424
▁상서 -7425
▁바리 -7426
▁퍼센트 -7427
▁아이슬란드 -7428
▁괴롭 -7429
▁대웅 -7430
▁업계 -7431
▁호위 -7432
▁우라늄 -7433
▁신속 -7434
▁암석 -7435
▁공의회 -7436
▁중추원 -7437
▁시나리오 -7438
▁기어 -7439
▁나스 -7440
▁에버 -7441
라이더 -7442
▁밟 -7443
유행 -7444
▁다치 -7445
▁부재 -7446
▁소유자 -7447
▁도르 -7448
▁구이 -7449
▁레바 -7450
▁어쩌 -7451
ace -7452
▁교외 -7453
▁친왕 -7454
▁내려지 -7455
▁오노 -7456
▁오비 -7457
▁스페인어 -7458
▁에스토니아 -7459
▁시흥 -7460
▁위탁 -7461
▁친하 -7462
▁호프 -7463
ment -7464
pe -7465
▁견디 -7466
▁도루 -7467
▁실전 -7468
▁횟 -7469
▁마약 -7470
▁얘기 -7471
▁닝 -7472
▁고령 -7473
▁기인 -7474
▁김기 -7475
▁여지 -7476
▁지능 -7477
▁탈당 -7478
▁로열 -7479
▁봉쇄 -7480
▁육지 -7481
▁인연 -7482
▁라이선스 -7483
▁중심부 -7484
▁협주곡 -7485
▁물리학자 -7486
▁상담 -7487
▁서정 -7488
▁조이 -7489
리케인 -7490
마드 -7491
▁오세 -7492
오피아 -7493
▁리비아 -7494
▁슬로바키아 -7495
▁에티오피아 -7496
ide -7497
▁창고 -7498
▁통근 -7499
▁어다 -7500
▁오사 -7501
▁파장 -7502
▁평택 -7503
▁해소 -7504
▁시선 -7505
▁허리케인 -7506
▁대전광역시 -7507
▁푼 -7508
▁즈음 -7509
▁현금 -7510
바이잔 -7511
▁148 -7512
▁을지 -7513
▁도라 -7514
▁사슬 -7515
▁전라도 -7516
▁애틀 -7517
▁할리우드 -7518
석탑 -7519
야시 -7520
▁병행 -7521
▁의뢰 -7522
▁하락 -7523
▁흘리 -7524
▁NBA -7525
층석탑 -7526
▁호기 -7527
▁이사회 -7528
▁1916 -7529
중국 -7530
하면 -7531
▁격투 -7532
▁가로지르 -7533
▁신생 -7534
▁추세 -7535
▁136 -7536
▁아제르 -7537
▁끓 -7538
▁어라 -7539
▁치즈 -7540
제리 -7541
▁덮이 -7542
▁부적 -7543
▁결혼식 -7544
▁극동 -7545
▁스튜어트 -7546
▁낭만 -7547
▁순회 -7548
▁마이너 -7549
▁실시간 -7550
▁아제르바이잔 -7551
▁바닷 -7552
▁알아내 -7553
▁HT -7554
▁TO -7555
▁닛폰 -7556
의자 -7557
▁추출 -7558
▁허리 -7559
▁앓 -7560
아이 -7561
▁갈리 -7562
▁서재 -7563
▁아드 -7564
▁배터리 -7565
▁막내 -7566
▁우루과이 -7567
위원 -7568
▁성운 -7569
지리아 -7570
▁파이어 -7571
▁나이지리아 -7572
▁조연 -7573
▁입당 -7574
▁특집 -7575
▁급격히 -7576
▁동상 -7577
▁사헌 -7578
▁IBM -7579
▁네이션스 -7580
IM -7581
▁격퇴 -7582
▁솜 -7583
▁동이 -7584
▁우세 -7585
▁세션 -7586
▁주행 -7587
▁라이언 -7588
▁명제 -7589
▁작센 -7590
▁DC -7591
▁구도 -7592
▁다항 -7593
▁바스 -7594
▁산림 -7595
▁원숭이 -7596
▁기단 -7597
▁신탁 -7598
▁패키지 -7599
▁국무총리 -7600
▁전념 -7601
시피 -7602
▁되게 -7603
▁의약 -7604
▁첼시 -7605
▁쌍둥이 -7606
▁아마도 -7607
▁데이비스 -7608
▁실장 -7609
바다 -7610
승지 -7611
▁거론 -7612
▁시초 -7613
▁138 -7614
▁수습 -7615
▁워드 -7616
▁유동 -7617
▁노부나가 -7618
람쥐 -7619
▁가동 -7620
▁개그 -7621
▁구릉 -7622
▁현종 -7623
▁딕 -7624
▁솟 -7625
▁면허 -7626
▁박해 -7627
▁저하 -7628
▁중위 -7629
▁한스 -7630
▁반감 -7631
▁안성 -7632
▁포터 -7633
▁객체 -7634
▁고소 -7635
▁페르디 -7636
▁돌려 -7637
▁약칭 -7638
▁평원 -7639
▁리우스 -7640
▁백화점 -7641
거지 -7642
▁구호 -7643
▁백색 -7644
▁지류 -7645
▁회고 -7646
▁브라우저 -7647
▁안기 -7648
▁깨달 -7649
▁극히 -7650
▁신규 -7651
cl -7652
▁사헌부 -7653
▁리틀 -7654
▁섬기 -7655
▁치명 -7656
파르 -7657
▁la -7658
▁분당 -7659
▁신한 -7660
▁외치 -7661
▁경연 -7662
▁레논 -7663
▁구조물 -7664
타로 -7665
▁거제 -7666
▁시즈 -7667
▁해밀 -7668
▁어울리 -7669
▁시칠리아 -7670
▁지선 -7671
▁360 -7672
▁펌 -7673
▁성숙 -7674
▁후쿠시마 -7675
▁혀 -7676
▁후방 -7677
▁거행 -7678
▁영의정 -7679
▁중성자 -7680
▁고성 -7681
▁상공 -7682
▁토성 -7683
▁탐구 -7684
▁뭉 -7685
▁냉각 -7686
▁도미 -7687
▁이세 -7688
▁재위 -7689
▁환영 -7690
양함 -7691
▁돌보 -7692
▁춘천 -7693
▁최상위 -7694
토모 -7695
▁복선 -7696
▁익히 -7697
▁104 -7698
▁아부 -7699
타나 -7700
▁오바 -7701
▁LP -7702
▁가면 -7703
▁최악 -7704
▁한쪽 -7705
▁바이오 -7706
▁결선 -7707
▁그날 -7708
▁생식 -7709
▁피에 -7710
▁라이브러리 -7711
▁택시 -7712
▁해적 -7713
여래 -7714
▁재현 -7715
래스카 -7716
▁반도체 -7717
▁라트비아 -7718
▁감리 -7719
▁그램 -7720
▁임용 -7721
▁혈통 -7722
▁게르만 -7723
리에 -7724
▁En -7725
▁동점 -7726
▁비시 -7727
▁횟수 -7728
곡리 -7729
리니 -7730
▁리라 -7731
▁비리 -7732
▁춘추 -7733
마쓰 -7734
▁장학 -7735
▁트래 -7736
베르토 -7737
▁별다르 -7738
▁도장 -7739
▁송시 -7740
▁애틀랜 -7741
▁릉 -7742
대신 -7743
▁차장 -7744
▁테이블 -7745
타고 -7746
회장 -7747
▁가짜 -7748
▁반경 -7749
▁성체 -7750
▁어휘 -7751
▁모니터 -7752
▁올바르 -7753
▁주가 -7754
어버리 -7755
ark -7756
브레 -7757
▁나비 -7758
▁우위 -7759
▁제독 -7760
▁스트레스 -7761
은색 -7762
▁오피스 -7763
▁109 -7764
▁휴스턴 -7765
▁주름 -7766
푸르트 -7767
▁왜냐 -7768
▁잔류 -7769
데시 -7770
하시 -7771
▁고인 -7772
▁데모 -7773
▁Pr -7774
▁개원 -7775
▁목판 -7776
▁행적 -7777
▁방송사 -7778
▁스톡 -7779
▁옴 -7780
▁축하 -7781
▁하워드 -7782
▁이케 -7783
▁현저 -7784
▁123 -7785
▁대학생 -7786
▁부당 -7787
▁정점 -7788
▁힘입 -7789
▁견제 -7790
▁칼라 -7791
▁교황청 -7792
▁호랑이 -7793
▁통증 -7794
▁억압 -7795
▁폭동 -7796
▁사우루스 -7797
▁아홉 -7798
▁코무네 -7799
▁공수 -7800
▁대표작 -7801
▁햇 -7802
▁성취 -7803
▁육체 -7804
▁주주 -7805
▁야구장 -7806
고쿠 -7807
차기 -7808
▁바나 -7809
▁공산주의자 -7810
▁소매 -7811
▁열정 -7812
더슨 -7813
포드 -7814
▁여당 -7815
▁루프 -7816
▁이식 -7817
▁한인 -7818
란히 -7819
▁민회 -7820
▁고장 -7821
▁매입 -7822
▁순교 -7823
▁아담 -7824
▁연하 -7825
▁적당 -7826
▁헐 -7827
랜트 -7828
▁NC -7829
▁펜실 -7830
▁연합회 -7831
베이니아 -7832
▁타이거즈 -7833
▁펜실베이니아 -7834
▁시바 -7835
▁명령어 -7836
▁벌금 -7837
▁인플 -7838
▁축적 -7839
헤이 -7840
▁143 -7841
▁카자흐스탄 -7842
▁노바 -7843
▁발해 -7844
▁터치 -7845
은이 -7846
▁AK -7847
▁종로구 -7848
▁AR -7849
▁광물 -7850
▁응원 -7851
▁경관 -7852
▁너비 -7853
▁암시 -7854
▁주역 -7855
▁처녀 -7856
▁분기점 -7857
▁휠 -7858
▁분비 -7859
▁팔라 -7860
▁동아일보 -7861
글리 -7862
▁오해 -7863
법인 -7864
▁가죽 -7865
▁누이 -7866
▁상점 -7867
▁수련 -7868
▁리우 -7869
바시 -7870
▁공천 -7871
▁다발 -7872
▁청춘 -7873
▁베스 -7874
▁신조 -7875
▁부르크 -7876
▁롤링 -7877
▁사모 -7878
▁아예 -7879
▁해명 -7880
▁산란 -7881
▁상단 -7882
▁유한 -7883
▁이화 -7884
▁제하 -7885
▁돋 -7886
▁놀랍 -7887
▁성사 -7888
▁존속 -7889
▁피츠 -7890
▁이에야스 -7891
▁팡 -7892
▁토모 -7893
▁신주 -7894
▁히메 -7895
▁목재 -7896
▁염기 -7897
▁폭행 -7898
AL -7899
▁비싸 -7900
▁자민 -7901
▁제프 -7902
스틴 -7903
▁CS -7904
▁출처 -7905
▁기적 -7906
▁비자 -7907
▁이윤 -7908
▁차이점 -7909
▁플라이 -7910
▁계시 -7911
▁근교 -7912
▁마야 -7913
▁소나타 -7914
▁CC -7915
▁상반 -7916
▁col -7917
▁유로파 -7918
▁다이아몬드 -7919
▁킥 -7920
산동 -7921
▁컴파 -7922
▁펑크 -7923
▁블라디미르 -7924
나오 -7925
ile -7926
▁다투 -7927
▁에미 -7928
▁남동부 -7929
▁조선일보 -7930
▁박람회 -7931
▁관구 -7932
▁김경 -7933
▁신념 -7934
▁음료 -7935
▁증대 -7936
▁지르 -7937
▁통영 -7938
▁그동안 -7939
▁부설 -7940
▁경상도 -7941
▁내보내 -7942
▁블로그 -7943
▁왓 -7944
▁광학 -7945
▁래퍼 -7946
▁유죄 -7947
▁시골 -7948
▁생산량 -7949
▁룬 -7950
▁상용 -7951
▁운하 -7952
▁충전 -7953
러스트 -7954
▁알코올 -7955
▁친일파 -7956
▁나트 -7957
브리지 -7958
▁누나 -7959
▁만남 -7960
ies -7961
▁미라 -7962
▁이소 -7963
▁태양계 -7964
권자 -7965
▁법조 -7966
▁설탕 -7967
▁황실 -7968
▁Op -7969
▁다녀 -7970
▁시어 -7971
▁갈라 -7972
▁규범 -7973
▁깨닫 -7974
▁보석 -7975
▁적분 -7976
▁무지 -7977
▁카롤 -7978
▁이타 -7979
▁티스 -7980
▁갇 -7981
▁단단 -7982
▁동국 -7983
▁사육 -7984
비나 -7985
기업 -7986
살이 -7987
▁흠 -7988
▁부제 -7989
▁거칠 -7990
▁조세 -7991
▁라오스 -7992
▁확신 -7993
▁공습 -7994
▁공익 -7995
▁말라 -7996
▁비유 -7997
▁상사 -7998
▁경찰청 -7999
▁히사 -8000
▁브라더스 -8001
▁왜냐하면 -8002
xt -8003
수리 -8004
▁중의원 -8005
▁공관 -8006
▁CON -8007
▁트위터 -8008
도리 -8009
▁합하 -8010
▁112 -8011
▁126 -8012
▁장거리 -8013
▁엿 -8014
▁신민 -8015
▁협박 -8016
▁베어스 -8017
▁헤라 -8018
▁루이지 -8019
▁카를로스 -8020
ite -8021
▁마디 -8022
▁미르 -8023
▁어원 -8024
▁시베리아 -8025
▁대폭 -8026
▁빨간 -8027
▁후사 -8028
▁구축함 -8029
▁국소 -8030
▁107 -8031
▁RNA -8032
▁트윈스 -8033
▁키프로스 -8034
레기 -8035
▁레일 -8036
▁우유 -8037
▁굉장히 -8038
▁이산화 -8039
▁이순신 -8040
▁거북 -8041
▁수법 -8042
▁언니 -8043
▁품종 -8044
▁사업자 -8045
▁창원시 -8046
▁Te -8047
▁법무부 -8048
▁다지 -8049
▁제재 -8050
▁헤비 -8051
▁삼층석탑 -8052
▁is -8053
▁구출 -8054
▁범인 -8055
▁우승자 -8056
▁왜곡 -8057
▁허위 -8058
▁가군 -8059
▁갇히 -8060
▁신선 -8061
▁우호 -8062
▁교과서 -8063
▁아랍어 -8064
▁플러스 -8065
고래 -8066
▁당주 -8067
▁성단 -8068
나스 -8069
▁경보 -8070
▁옆면 -8071
▁입원 -8072
▁할머니 -8073
▁세라 -8074
▁소셜 -8075
▁여파 -8076
스부르크 -8077
▁뉘 -8078
랑카 -8079
▁송시열 -8080
▁몰래 -8081
▁실체 -8082
▁천장 -8083
▁포럼 -8084
▁117 -8085
▁조종사 -8086
▁줄무늬 -8087
▁곡인 -8088
▁근원 -8089
▁맥락 -8090
▁탐사선 -8091
도바 -8092
▁보증 -8093
▁풀리 -8094
ft -8095
▁임하 -8096
▁핸드 -8097
▁꾀하 -8098
▁맥주 -8099
▁연쇄 -8100
▁인문 -8101
▁대웅전 -8102
▁지평 -8103
▁결함 -8104
▁동문 -8105
▁드로 -8106
지붕 -8107
▁소원 -8108
▁퐁 -8109
다지 -8110
▁거울 -8111
▁피우 -8112
▁평의회 -8113
▁도마뱀붙이 -8114
▁이경 -8115
▁릿 -8116
▁네스 -8117
▁인체 -8118
갈색 -8119
▁희생자 -8120
▁SE -8121
▁진하 -8122
▁가마쿠라 -8123
▁제니 -8124
▁350 -8125
▁교정 -8126
▁빈곤 -8127
▁신약 -8128
▁com -8129
▁일방 -8130
▁일반인 -8131
▁화장실 -8132
▁줄리 -8133
▁통틀 -8134
▁양키스 -8135
▁탐색 -8136
시타 -8137
▁날씨 -8138
▁성별 -8139
▁이브 -8140
▁제대 -8141
▁해고 -8142
▁121 -8143
▁테이프 -8144
▁아카데미상 -8145
▁후궁 -8146
ound -8147
▁고속도 -8148
끼리 -8149
▁만일 -8150
▁빨간색 -8151
▁삼성전자 -8152
▁CF -8153
▁173 -8154
▁맘 -8155
▁진급 -8156
▁택하 -8157
▁펠리 -8158
▁필터 -8159
승부 -8160
▁철회 -8161
▁137 -8162
▁전자기 -8163
▁ㅓ서 -8164
▁바오로 -8165
무스 -8166
ath -8167
▁개교 -8168
▁승계 -8169
▁요동 -8170
▁자아 -8171
조부 -8172
▁가져가 -8173
의장 -8174
▁연합국 -8175
연합 -8176
ond -8177
▁불타 -8178
▁비추 -8179
▁샘플 -8180
▁양측 -8181
▁킴 -8182
▁놓치 -8183
▁방화 -8184
▁비르 -8185
▁포병 -8186
▁필리프 -8187
OL -8188
▁문예 -8189
▁라이너 -8190
▁1894 -8191
▁가축 -8192
▁결코 -8193
▁근로자 -8194
▁물려받 -8195
▁냄 -8196
▁왕복 -8197
▁총독부 -8198
▁헥 -8199
▁궁극 -8200
▁바우 -8201
▁화해 -8202
게이머 -8203
▁프로게이머 -8204
마루 -8205
ory -8206
▁가장자리 -8207
▁더니 -8208
▁투옥 -8209
베니아 -8210
▁수용체 -8211
▁뒤집 -8212
▁서진 -8213
▁워터 -8214
▁주이 -8215
▁진공 -8216
▁태권 -8217
▁다크 -8218
▁세속 -8219
▁최강 -8220
▁ㅁ -8221
크라 -8222
▁문구 -8223
▁수색 -8224
▁일가 -8225
수소 -8226
▁지미 -8227
▁113 -8228
▁클라우드 -8229
▁붐 -8230
규모 -8231
▁공민 -8232
▁레온 -8233
▁믹스 -8234
그레이드 -8235
▁슬로베니아 -8236
man -8237
▁공방 -8238
▁칭찬 -8239
▁크리스토퍼 -8240
▁쑤 -8241
대기 -8242
▁핵무기 -8243
▁극심 -8244
▁미션 -8245
▁업그레이드 -8246
▁용병 -8247
▁도미니 -8248
▁멜로디 -8249
ov -8250
▁낫 -8251
▁뒷면 -8252
▁유년 -8253
▁IM -8254
▁LC -8255
▁대의원 -8256
▁바티칸 -8257
▁땃 -8258
톨레 -8259
▁농림 -8260
▁드레 -8261
▁서민 -8262
▁즉각 -8263
▁최대한 -8264
그리 -8265
단체 -8266
▁계정 -8267
▁적도 -8268
▁게스트 -8269
▁브로드 -8270
▁알제리 -8271
로이 -8272
번스 -8273
▁대피 -8274
▁성도 -8275
▁치안 -8276
▁그냥 -8277
▁둥지 -8278
▁로이 -8279
▁군정 -8280
▁두껍 -8281
▁신시 -8282
▁하동 -8283
▁공백 -8284
▁124 -8285
▁코스타 -8286
▁강서 -8287
▁혈관 -8288
▁곤란 -8289
▁무어 -8290
▁프랑크푸르트 -8291
▁". -8292
▁타당 -8293
퍼런스 -8294
iver -8295
▁게이지 -8296
셰비 -8297
아키 -8298
▁먼지 -8299
▁미키 -8300
▁초월 -8301
▁개종 -8302
▁김현 -8303
▁명하 -8304
▁부딪 -8305
▁독일인 -8306
▁모친 -8307
▁제인 -8308
▁카카 -8309
▁몬스터 -8310
▁로우 -8311
▁시뮬 -8312
▁z -8313
▁넘치 -8314
▁캐시 -8315
▁On -8316
▁횡단 -8317
▁국내외 -8318
▁관음 -8319
▁판본 -8320
아프리카 -8321
▁륙 -8322
박스 -8323
▁탤런트 -8324
mer -8325
▁스캔 -8326
▁제치 -8327
▁구절 -8328
▁닫히 -8329
블리 -8330
▁상표 -8331
▁피오 -8332
▁자연수 -8333
로니 -8334
▁내정 -8335
▁서초 -8336
▁성문 -8337
▁욕구 -8338
▁항쟁 -8339
▁야마토 -8340
▁be -8341
▁고고학 -8342
▁커뮤니케이션 -8343
▁가루 -8344
▁배후 -8345
▁일생 -8346
▁학계 -8347
▁오리콘 -8348
▁World -8349
▁그대 -8350
▁이거 -8351
▁SU -8352
▁돌격 -8353
린스 -8354
▁말씀 -8355
▁발리 -8356
▁야쿠 -8357
▁초록 -8358
▁김정일 -8359
▁자선 -8360
▁자오 -8361
▁제압 -8362
▁체크 -8363
대원군 -8364
▁디렉 -8365
▁양호 -8366
▁원전 -8367
▁검찰청 -8368
▁남서부 -8369
▁베네딕 -8370
▁감자 -8371
▁유저 -8372
▁풍자 -8373
▁영산 -8374
▁New -8375
▁아랫 -8376
ich -8377
▁CR -8378
▁우파 -8379
▁침투 -8380
▁다가오 -8381
▁1890 -8382
▁므 -8383
▁옵션 -8384
▁자비 -8385
▁소규모 -8386
줄기 -8387
▁기질 -8388
▁브리지 -8389
▁데르 -8390
▁러시 -8391
▁분명히 -8392
▁맑 -8393
축구 -8394
▁시위대 -8395
▁윤치호 -8396
▁어미 -8397
▁라이온즈 -8398
드르 -8399
▁예조 -8400
▁정세 -8401
▁평정 -8402
▁오프닝 -8403
▁베니 -8404
▁선비 -8405
▁오라 -8406
▁조부 -8407
▁114 -8408
▁냉전 -8409
▁다녀오 -8410
▁이준 -8411
▁안토니오 -8412
▁땃쥐 -8413
▁연이 -8414
▁EC -8415
▁과반 -8416
▁대거 -8417
▁떨치 -8418
▁은데 -8419
▁김규 -8420
▁시정 -8421
프레스 -8422
▁자택 -8423
▁기업인 -8424
▁깎 -8425
▁대명 -8426
▁매매 -8427
▁구스타 -8428
▁사상자 -8429
▁알루미 -8430
▁미노 -8431
▁정주 -8432
▁증손 -8433
▁블랙홀 -8434
▁알아보 -8435
▁징계 -8436
▁뭐 -8437
▁어긋 -8438
▁봉건 -8439
▁연승 -8440
IP -8441
▁관세 -8442
▁컷 -8443
▁빛나 -8444
▁이남 -8445
▁118 -8446
렉스 -8447
ign -8448
▁가드 -8449
▁군중 -8450
ial -8451
▁구와 -8452
▁지침 -8453
▁히어로즈 -8454
▁태극 -8455
타리오 -8456
▁방사선 -8457
▁일리노 -8458
▁파이널 -8459
▁드라이버 -8460
러드 -8461
▁괴물 -8462
▁대부 -8463
▁이드 -8464
▁원로원 -8465
▁풀려나 -8466
▁경신 -8467
▁만료 -8468
▁악단 -8469
▁도청 -8470
▁요정 -8471
▁자음 -8472
조건 -8473
지스 -8474
▁뉴턴 -8475
▁예시 -8476
▁주부 -8477
▁플래시 -8478
▁일리노이 -8479
▁크리스티안 -8480
▁세이브 -8481
▁1898 -8482
▁승부차기 -8483
▁Sc -8484
▁재상 -8485
▁프로덕 -8486
▁갑작스럽 -8487
▁답변 -8488
▁서자 -8489
▁학명 -8490
▁경찰관 -8491
▁비로소 -8492
▁본국 -8493
▁중형 -8494
▁진사 -8495
▁체스 -8496
▁파란색 -8497
저지 -8498
▁용이 -8499
▁저널 -8500
▁체조 -8501
▁115 -8502
▁매니저 -8503
▁미하일 -8504
▁두려 -8505
▁비기 -8506
▁스칼 -8507
hn -8508
▁인명 -8509
▁빔 -8510
황후 -8511
▁공감 -8512
▁종착 -8513
▁디비시온 -8514
▁하르 -8515
▁통치자 -8516
▁럼 -8517
▁SD -8518
▁벵 -8519
▁트로이 -8520
교도 -8521
▁공조 -8522
▁지인 -8523
▁헬리 -8524
벨트 -8525
▁변이 -8526
▁순조 -8527
▁우측 -8528
▁극장판 -8529
▁우즈베 -8530
닐라 -8531
▁엇 -8532
▁전년 -8533
▁컨셉 -8534
▁키르 -8535
▁반지름 -8536
하루 -8537
▁한족 -8538
아먹 -8539
▁남구 -8540
▁동정 -8541
▁밀집 -8542
▁축출 -8543
▁희귀 -8544
▁계열사 -8545
▁봉안 -8546
▁모로코 -8547
▁무승부 -8548
▁기각 -8549
▁직면 -8550
▁챌린지 -8551
히코 -8552
▁극작 -8553
▁로그 -8554
▁카우 -8555
▁하프 -8556
▁뉴저지 -8557
▁레바논 -8558
▁` -8559
▁앵글 -8560
▁커널 -8561
▁시가지 -8562
▁웨스턴 -8563
▁통보 -8564
▁남미 -8565
▁무성 -8566
▁왕세 -8567
▁천하 -8568
마이오스 -8569
문트 -8570
보르 -8571
▁가옥 -8572
▁선도 -8573
▁JT -8574
▁외모 -8575
▁필사 -8576
▁헬기 -8577
▁혜택 -8578
▁그레고 -8579
▁대변인 -8580
▁외야수 -8581
기념 -8582
바닥 -8583
▁소모 -8584
▁사위 -8585
▁성리학 -8586
▁기증 -8587
▁정변 -8588
▁취업 -8589
▁패럴 -8590
▁광해군 -8591
▁쫓겨나 -8592
▁체코슬로 -8593
▁체코슬로바키아 -8594
▁모나 -8595
▁부스 -8596
▁케냐 -8597
▁GS -8598
▁129 -8599
타니 -8600
▁말미 -8601
▁센티 -8602
▁범유행 -8603
▁켈리 -8604
▁렐 -8605
레타 -8606
▁코카 -8607
▁믹 -8608
▁개막전 -8609
▁젊은이 -8610
부리 -8611
▁ㅕㅆ -8612
▁웹툰 -8613
▁핑크 -8614
▁닦 -8615
쟁이 -8616
타리 -8617
▁GP -8618
▁폭넓 -8619
▁맏 -8620
▁비주 -8621
▁실망 -8622
▁의약품 -8623
먼스 -8624
▁글루 -8625
▁학업 -8626
▁캔자스 -8627
rom -8628
▁러셀 -8629
▁맥도 -8630
▁연예인 -8631
미사 -8632
▁미세 -8633
▁종속 -8634
▁중산 -8635
▁천재 -8636
▁쾌속 -8637
▁뇌물 -8638
▁리뷰 -8639
▁척추 -8640
▁알루미늄 -8641
▁숙청 -8642
▁승자 -8643
▁총사령 -8644
▁스타리그 -8645
▁옳 -8646
개미 -8647
▁마력 -8648
▁호출 -8649
▁마운트 -8650
▁종래 -8651
▁예하 -8652
▁터뜨리 -8653
▁바빌 -8654
▁첨단 -8655
▁케빈 -8656
▁기차 -8657
▁로비 -8658
▁발급 -8659
▁재혼 -8660
▁쯔 -8661
▁퉁 -8662
▁감싸 -8663
▁서신 -8664
▁유라 -8665
▁재선 -8666
▁퇴임 -8667
▁황족 -8668
▁회관 -8669
▁벨라루스 -8670
▁Ne -8671
▁요건 -8672
▁사간 -8673
▁어른 -8674
ph -8675
▁남작 -8676
▁넘어서 -8677
▁두려워하 -8678
▁밝기 -8679
▁창출 -8680
▁괘 -8681
니까 -8682
슬러 -8683
▁벽돌 -8684
▁화력 -8685
▁스크립 -8686
방송공사 -8687
▁끌어들이 -8688
TS -8689
▁웬 -8690
▁예고 -8691
▁카디 -8692
▁토미 -8693
▁III -8694
▁스트리 -8695
▁장례식 -8696
▁확실히 -8697
▁오오 -8698
▁유방 -8699
▁각도 -8700
▁일컬 -8701
▁전속 -8702
▁중공 -8703
▁파산 -8704
▁조지프 -8705
우트 -8706
천리 -8707
▁난징 -8708
▁부피 -8709
▁양반 -8710
▁옹립 -8711
▁응시 -8712
느러미 -8713
▁142 -8714
속기 -8715
▁무명 -8716
▁등기 -8717
▁브리튼 -8718
▁임원 -8719
▁기술자 -8720
▁부여받 -8721
▁월요일 -8722
▁천문대 -8723
▁1899 -8724
테르부르크 -8725
▁생체 -8726
▁토양 -8727
▁어긋나 -8728
▁타임스 -8729
화물 -8730
▁감행 -8731
▁대패 -8732
▁미들 -8733
▁워크 -8734
▁레슬링 -8735
▁세이부 -8736
▁청주시 -8737
▁프란츠 -8738
▁콕 -8739
urn -8740
▁워너 -8741
▁케임 -8742
▁뒷받침 -8743
▁마르티 -8744
▁플라스틱 -8745
시즘 -8746
▁대치 -8747
▁토끼 -8748
▁폭포 -8749
포로 -8750
▁관제 -8751
▁저주 -8752
▁컴백 -8753
▁더글러스 -8754
진군 -8755
코딩 -8756
▁무함 -8757
▁배수 -8758
▁성폭 -8759
▁소생 -8760
▁ch -8761
▁리프 -8762
▁발병 -8763
▁지출 -8764
셰비키 -8765
롤라이나 -8766
▁구경 -8767
▁설화 -8768
▁얹 -8769
▁룩셈 -8770
▁학기 -8771
▁형조 -8772
▁힌두교 -8773
▁유진 -8774
▁총칭 -8775
▁축물 -8776
▁하얗 -8777
▁프로덕션 -8778
▁룩셈부르크 -8779
▁거세 -8780
▁시범 -8781
▁자크 -8782
▁정려 -8783
▁사쿠라 -8784
로우 -8785
함수 -8786
▁대서양 -8787
토르 -8788
틱스 -8789
▁사본 -8790
▁오크 -8791
▁지켜 -8792
▁청산 -8793
▁거래소 -8794
▁스즈키 -8795
럴드 -8796
▁신원 -8797
▁안테 -8798
▁페널 -8799
ction -8800
▁설교 -8801
▁지옥 -8802
▁화상 -8803
▁CJ -8804
▁혼동 -8805
▁1902 -8806
▁만성 -8807
▁화자 -8808
▁광주광역시 -8809
▁의자 -8810
▁지치 -8811
파이어 -8812
▁온타리오 -8813
▁잃어버리 -8814
▁가야 -8815
▁왼손 -8816
▁원천 -8817
▁찌르 -8818
▁희곡 -8819
▁부의장 -8820
두리 -8821
▁운수 -8822
▁중복 -8823
▁Man -8824
▁그래미 -8825
▁금요일 -8826
브르 -8827
▁공적 -8828
▁동네 -8829
▁벨트 -8830
ens -8831
▁ID -8832
▁명종 -8833
▁프톨레 -8834
▁프톨레마이오스 -8835
덩이 -8836
▁광둥 -8837
▁붙잡히 -8838
▁플랫폼 -8839
▁보위 -8840
▁위쪽 -8841
lan -8842
▁독서 -8843
▁물품 -8844
▁병기 -8845
▁스턴 -8846
▁피신 -8847
MA -8848
치기 -8849
타주 -8850
▁발기 -8851
▁피겨 -8852
▁니코 -8853
▁연산자 -8854
▁끊임없이 -8855
▁쟈 -8856
▁대성당 -8857
▁키보드 -8858
pp -8859
▁그릇 -8860
▁아리아 -8861
샤바 -8862
▁우체 -8863
▁체류 -8864
▁도카이 -8865
▁지식인 -8866
▁수분 -8867
▁혐오 -8868
▁바깥쪽 -8869
▁연꽃 -8870
▁정성 -8871
▁'' -8872
▁감마 -8873
▁강변 -8874
▁서류 -8875
▁채소 -8876
▁코시 -8877
▁포획 -8878
▁표적 -8879
▁BS -8880
▁대손 -8881
▁시코 -8882
▁원종 -8883
▁의의 -8884
▁뛰어 -8885
▁마녀 -8886
▁기사단 -8887
▁단절 -8888
▁시가 -8889
▁영등 -8890
▁간선 -8891
▁게리 -8892
▁드림 -8893
▁선배 -8894
TA -8895
▁국영 -8896
▁사슴 -8897
▁코끼리 -8898
▁로라 -8899
▁촉매 -8900
▁앗 -8901
▁습지 -8902
▁외관 -8903
▁탄도 -8904
▁하단 -8905
▁개소 -8906
▁비석 -8907
▁응하 -8908
▁갈수록 -8909
▁아돌프 -8910
▁으려고 -8911
▁흔들리 -8912
lic -8913
▁깃발 -8914
▁동행 -8915
▁고양시 -8916
▁영문 -8917
▁참의 -8918
글라 -8919
▁주조 -8920
▁밍 -8921
▁함정 -8922
▁비행장 -8923
▁버드 -8924
▁교통국 -8925
▁마스크 -8926
▁페르디난 -8927
▁얽 -8928
▁기니 -8929
폴리 -8930
▁태그 -8931
▁제네바 -8932
▁춥 -8933
▁시리 -8934
▁유체 -8935
▁정적 -8936
▁소나무 -8937
크로 -8938
▁매카트니 -8939
▁대합 -8940
▁매수 -8941
▁울프 -8942
▁헌신 -8943
▁부회장 -8944
▁강동 -8945
▁김창 -8946
▁단축 -8947
▁생생 -8948
▁선행 -8949
▁한테 -8950
▁이용자 -8951
▁몫 -8952
▁김지 -8953
▁빌라 -8954
▁제국주의 -8955
그룹 -8956
▁서리 -8957
▁스위치 -8958
▁익스프레스 -8959
국사 -8960
▁수확 -8961
▁입성 -8962
TC -8963
▁단의 -8964
▁스폰 -8965
▁드러머 -8966
▁보이스 -8967
▁토착종 -8968
카가 -8969
▁광대 -8970
▁광명 -8971
▁동학 -8972
▁아산 -8973
▁정동 -8974
▁해밀턴 -8975
히토 -8976
▁가환 -8977
▁압둘 -8978
ary -8979
▁간토 -8980
▁부가 -8981
▁폭격기 -8982
out -8983
▁초신 -8984
▁경성부 -8985
▁포켓몬스터 -8986
▁면제 -8987
▁역량 -8988
▁직결 -8989
▁화강 -8990
▁서유럽 -8991
▁호르몬 -8992
▁러시아어 -8993
구르 -8994
▁고아 -8995
▁색채 -8996
▁어류 -8997
▁이단 -8998
▁코믹스 -8999
▁1901 -9000
▁브뤼 -9001
▁세비 -9002
▁입국 -9003
▁아이오 -9004
짓점 -9005
▁공리 -9006
▁생략 -9007
▁약자 -9008
▁부작용 -9009
▁사이토 -9010
▁나노 -9011
▁민감 -9012
▁열도 -9013
▁축조 -9014
▁꼭짓점 -9015
ach -9016
ert -9017
▁경과 -9018
▁논하 -9019
▁복용 -9020
▁본문 -9021
▁퀘벡 -9022
테인 -9023
▁조립 -9024
피어 -9025
▁성지 -9026
▁여운 -9027
▁일산 -9028
▁소시 -9029
▁전방 -9030
타임 -9031
▁No -9032
▁임관 -9033
▁체르 -9034
모스 -9035
▁쓰촨 -9036
▁염증 -9037
▁크롬 -9038
▁알렉산드르 -9039
▁울산광역시 -9040
▁갱신 -9041
▁권총 -9042
▁날카 -9043
▁보트 -9044
▁특권 -9045
▁하치 -9046
▁그다지 -9047
▁연기자 -9048
▁트리플 -9049
▁다항식 -9050
▁삿포로 -9051
▁영국인 -9052
미트 -9053
▁주되 -9054
ys -9055
▁기숙 -9056
▁버티 -9057
▁수축 -9058
▁커스 -9059
▁코코 -9060
▁표방 -9061
▁지켜보 -9062
디나 -9063
▁입각 -9064
▁체중 -9065
▁염색체 -9066
▁렘 -9067
나우 -9068
자르 -9069
▁갈릴 -9070
▁불꽃 -9071
▁자작 -9072
▁정문 -9073
▁점성술 -9074
▁무궁 -9075
▁손꼽 -9076
▁실버 -9077
▁현은 -9078
일으키 -9079
▁바이킹 -9080
▁불러일으키 -9081
▁쿄 -9082
▁MB -9083
▁카미 -9084
▁간단히 -9085
▁아시카가 -9086
▁검열 -9087
▁김제 -9088
▁동조 -9089
▁서문 -9090
▁정립 -9091
LS -9092
▁누적 -9093
▁엔딩 -9094
루아 -9095
▁보복 -9096
▁차르 -9097
▁치아 -9098
▁사회당 -9099
▁옥스퍼드 -9100
IG -9101
LE -9102
링턴 -9103
▁원료 -9104
▁이현 -9105
▁두께 -9106
▁페니 -9107
▁고산 -9108
▁토기 -9109
▁학대 -9110
▁134 -9111
▁개인전 -9112
▁선동 -9113
▁조수 -9114
▁호모 -9115
▁광저우 -9116
▁케임브리지 -9117
▁공고 -9118
▁박지 -9119
▁보헤 -9120
▁슈팅 -9121
▁카프 -9122
▁장기간 -9123
▁크레이 -9124
▁} -9125
▁례 -9126
▁썰 -9127
내리 -9128
▁원본 -9129
레슬링 -9130
▁쓰레기 -9131
▁요르단 -9132
▁무함마드 -9133
▁아라비아 -9134
▁어뢰 -9135
▁KIA -9136
▁푸에르 -9137
사리 -9138
▁분수 -9139
베트남 -9140
▁모서리 -9141
▁파이터 -9142
▁마우 -9143
▁상금 -9144
▁스님 -9145
▁토요 -9146
노미야 -9147
▁대구광역시 -9148
ug -9149
펜하 -9150
▁불신 -9151
▁삼촌 -9152
▁연봉 -9153
▁하비 -9154
▁갈리아 -9155
▁대두 -9156
▁독성 -9157
▁All -9158
▁THE -9159
기스 -9160
▁좌측 -9161
▁노태우 -9162
▁1903 -9163
대장 -9164
▁가역 -9165
▁레즈 -9166
▁섹스 -9167
▁사업가 -9168
▁전염병 -9169
▁공명 -9170
▁공예 -9171
▁직경 -9172
▁캐서 -9173
▁아리스토 -9174
ase -9175
▁남매 -9176
▁미륵 -9177
▁산출 -9178
클레스 -9179
▁트로피 -9180
카미 -9181
▁개화 -9182
▁어찌 -9183
▁훔치 -9184
▁페널티 -9185
▁극대 -9186
▁루타 -9187
▁One -9188
▁패밀리 -9189
▁1884 -9190
▁프로레슬링 -9191
▁노보 -9192
▁오쿠 -9193
▁회상 -9194
▁미시시피 -9195
▁Gr -9196
▁타케 -9197
▁피고인 -9198
▁홈구장 -9199
▁패널 -9200
테르담 -9201
▁신도비 -9202
아웃 -9203
정리 -9204
▁교대 -9205
▁당연히 -9206
▁만주국 -9207
▁이성계 -9208
카타 -9209
▁군산 -9210
▁다마 -9211
▁아브 -9212
▁날카롭 -9213
▁쓰시마 -9214
처스 -9215
퀘어 -9216
▁강간 -9217
▁구형 -9218
▁소말 -9219
▁이병 -9220
▁언어학 -9221
▁아인슈타인 -9222
▁알렉산드리아 -9223
▁라그 -9224
▁메커 -9225
▁어둠 -9226
▁정선 -9227
올로 -9228
▁EX -9229
▁중령 -9230
▁퇴역 -9231
▁관광지 -9232
▁지도부 -9233
▁하리 -9234
▁이관 -9235
▁쥐과 -9236
ke -9237
▁AN -9238
▁로저 -9239
▁스텔 -9240
▁터보 -9241
▁뮤지션 -9242
▁표기법 -9243
그라 -9244
▁에콰 -9245
▁드레스 -9246
▁프레드 -9247
▁에콰도르 -9248
▁질소 -9249
라이어 -9250
▁도널드 -9251
▁니콜라이 -9252
▁군함 -9253
▁강대 -9254
▁퇴적 -9255
▁아폴로 -9256
▁클라이 -9257
▁야마구치 -9258
▁검출 -9259
▁깨지 -9260
▁이태 -9261
▁조형 -9262
도스 -9263
▁Cl -9264
▁비타 -9265
▁제로 -9266
▁헌정 -9267
▁히타 -9268
▁충청도 -9269
▁1800 -9270
고스 -9271
텍처 -9272
▁구스 -9273
▁우치 -9274
▁파병 -9275
▁아키텍처 -9276
▁LA -9277
▁대문 -9278
▁함선 -9279
▁조반니 -9280
▁공황 -9281
▁기분 -9282
▁실재 -9283
▁원더 -9284
▁꼭대기 -9285
▁프란체 -9286
▁도요토미 -9287
▁발렌시아 -9288
▁묶이 -9289
▁물가 -9290
▁더욱이 -9291
▁슬라브 -9292
▁뒤쪽 -9293
▁실무 -9294
▁우회 -9295
▁전위 -9296
▁복합체 -9297
▁농부 -9298
▁마르틴 -9299
▁히로시 -9300
라이언트 -9301
푸르 -9302
▁김홍 -9303
▁내걸 -9304
▁반공 -9305
리코 -9306
▁경작 -9307
▁도선 -9308
▁비뉴 -9309
▁의결 -9310
테이션 -9311
▁마르코 -9312
▁방글라 -9313
▁방글라데시 -9314
그레 -9315
▁인질 -9316
▁정유 -9317
▁클라이언트 -9318
방울 -9319
▁건륭 -9320
▁단면 -9321
▁달걀 -9322
▁마키 -9323
▁하차 -9324
사이드 -9325
▁삼국지 -9326
▁곡물 -9327
▁카사 -9328
사우 -9329
▁까닭 -9330
▁당수 -9331
▁발칸 -9332
▁철폐 -9333
▁기념관 -9334
▁컨트리 -9335
▁콤팩트 -9336
▁돌기 -9337
▁장벽 -9338
▁해남 -9339
아들 -9340
ree -9341
▁토시 -9342
▁회피 -9343
▁진전 -9344
▁득표율 -9345
▁소방서 -9346
니시 -9347
▁간신 -9348
▁흥선 -9349
▁거짓말 -9350
▁기념비 -9351
▁총대주교 -9352
▁선우 -9353
▁리더십 -9354
간지 -9355
▁가오 -9356
▁밀란 -9357
▁방사성 -9358
▁염소 -9359
▁유부 -9360
▁분출 -9361
▁상가 -9362
▁상경 -9363
▁상고 -9364
▁가브리 -9365
▁소행성 -9366
▁일렉트로 -9367
▁강희 -9368
▁에밀 -9369
▁전복 -9370
▁소수자 -9371
개골 -9372
▁용서 -9373
▁취항 -9374
▁코믹 -9375
▁에디션 -9376
▁카를로 -9377
▁북아프리카 -9378
가르 -9379
▁IN -9380
▁감안 -9381
▁경인 -9382
▁분량 -9383
▁전구 -9384
가와현 -9385
▁메커니즘 -9386
불교 -9387
산맥 -9388
하키 -9389
▁권장 -9390
▁기슭 -9391
▁우물 -9392
▁을까 -9393
▁자형 -9394
▁창녕 -9395
▁남동생 -9396
▁모리스 -9397
▁팟 -9398
▁팰 -9399
▁활주 -9400
▁중앙아시아 -9401
네마 -9402
▁CN -9403
▁궁중 -9404
▁상응 -9405
▁복소수 -9406
▁가산 -9407
▁냄새 -9408
▁시야 -9409
▁신축 -9410
▁되돌리 -9411
▁with -9412
ass -9413
▁무슨 -9414
▁상트 -9415
▁이북 -9416
▁교도소 -9417
▁그레이트 -9418
▁발령 -9419
▁세바 -9420
▁민간인 -9421
▁스토어 -9422
▁깨끗 -9423
▁모모 -9424
▁소자 -9425
▁현감 -9426
▁다케다 -9427
▁견인 -9428
▁러스 -9429
▁맞붙 -9430
▁수목 -9431
▁기관총 -9432
▁뉴욕주 -9433
▁볼리비아 -9434
▁Br -9435
▁관절 -9436
▁대출 -9437
▁등용 -9438
▁막스 -9439
▁한층 -9440
▁거주지 -9441
▁와일드 -9442
▁오사카부 -9443
구역 -9444
act -9445
▁안경 -9446
▁정화 -9447
▁116 -9448
▁220 -9449
▁아나키 -9450
▁아미노산 -9451
▁반군 -9452
▁브란 -9453
▁세키 -9454
▁침체 -9455
곡동 -9456
▁기저 -9457
▁데카 -9458
▁준주 -9459
▁폭로 -9460
▁페이스북 -9461
번뇌 -9462
사업 -9463
▁Ad -9464
▁각색 -9465
▁평창 -9466
▁일자리 -9467
▁전시회 -9468
▁1897 -9469
파리 -9470
▁가계 -9471
▁낙동 -9472
▁상법 -9473
▁추첨 -9474
▁후작 -9475
▁포스터 -9476
11 -9477
▁교량 -9478
▁농사 -9479
▁홍문관 -9480
▁가의 -9481
▁리만 -9482
▁일파 -9483
▁장자 -9484
▁취미 -9485
▁일부분 -9486
▁요약 -9487
▁스트라이크 -9488
▁한국방송공사 -9489
쿠버 -9490
▁강남구 -9491
▁가열 -9492
▁반전 -9493
▁보성 -9494
▁티코 -9495
▁마가 -9496
▁샌드 -9497
▁심화 -9498
▁절단 -9499
▁캐서린 -9500
pt -9501
▁갈래 -9502
▁태백 -9503
▁효고 -9504
ream -9505
▁마카오 -9506
▁방송인 -9507
▁버클리 -9508
▁카스티 -9509
역학 -9510
▁라오 -9511
▁마니 -9512
▁안산 -9513
▁1860 -9514
▁구약 -9515
▁델타 -9516
▁리조 -9517
▁오로 -9518
▁홉 -9519
▁접수 -9520
▁추론 -9521
▁교육청 -9522
▁데스크 -9523
▁꿀 -9524
▁앰 -9525
▁나루 -9526
▁아소 -9527
▁음향 -9528
▁마블 -9529
▁효종 -9530
▁쓸 -9531
벤처 -9532
▁네오 -9533
▁델라 -9534
▁르노 -9535
▁민정 -9536
▁북경 -9537
▁올드 -9538
▁연대기 -9539
▁어드벤처 -9540
▁;& -9541
▁GO -9542
▁체력 -9543
▁ㄴ다며 -9544
▁배우자 -9545
▁이주하 -9546
▁지지율 -9547
▁사살 -9548
▁장제 -9549
▁휴가 -9550
▁바르샤바 -9551
▁타우 -9552
▁Ex -9553
▁격차 -9554
▁글래 -9555
▁대관 -9556
▁수료 -9557
▁찰리 -9558
▁확진 -9559
▁알프레 -9560
▁Is -9561
▁고이 -9562
▁저렴 -9563
기념물 -9564
▁공약 -9565
▁샌디 -9566
▁적군 -9567
▁전산 -9568
▁카타르 -9569
▁후반기 -9570
▁랍 -9571
▁가신 -9572
▁특색 -9573
▁안치 -9574
▁청색 -9575
▁122 -9576
▁중공업 -9577
▁스크립트 -9578
캐롤라이나 -9579
나드 -9580
▁공손 -9581
▁메라 -9582
▁쿠니 -9583
▁살피 -9584
▁중원 -9585
▁카즈 -9586
▁경제학자 -9587
포터 -9588
▁돌입 -9589
▁청소 -9590
▁게릴라 -9591
▁사카이 -9592
▁안드레아 -9593
츠크 -9594
▁가가 -9595
▁리히 -9596
▁이반 -9597
▁집결 -9598
▁치우 -9599
▁합당 -9600
▁떡 -9601
▁석불 -9602
▁수중 -9603
스카르 -9604
▁미네소 -9605
산성 -9606
▁세네 -9607
▁신정 -9608
▁타협 -9609
반구 -9610
퍼슨 -9611
▁전격 -9612
▁마라톤 -9613
▁모티브 -9614
▁솔루션 -9615
▁마당 -9616
▁이빨 -9617
▁쥐속 -9618
▁타지 -9619
▁버마 -9620
▁짐작 -9621
▁2022 -9622
▁막시 -9623
▁브룩 -9624
▁소행 -9625
▁입주 -9626
▁클라크 -9627
▁보강 -9628
▁석회 -9629
▁스퀘어 -9630
▁유닉스 -9631
▁새로이 -9632
▁갑옷 -9633
▁고토 -9634
▁마애 -9635
▁실적 -9636
▁종파 -9637
▁괴롭히 -9638
▁돌아다니 -9639
▁눕 -9640
거진 -9641
푸아 -9642
▁동형 -9643
▁벽화 -9644
▁두개골 -9645
▁상트페 -9646
▁아마존 -9647
▁인테르 -9648
▁1880 -9649
▁상트페테르부르크 -9650
콥터 -9651
▁과실 -9652
▁루크 -9653
▁신동 -9654
▁애리 -9655
▁창의 -9656
▁호응 -9657
▁화순 -9658
▁감추 -9659
▁그레고리오 -9660
▁윤보 -9661
▁쳐들 -9662
▁나란히 -9663
▁옥수수 -9664
▁유대교 -9665
▁모용 -9666
▁con -9667
▁설립자 -9668
▁BM -9669
▁메릴 -9670
▁무술 -9671
▁사적 -9672
▁정경 -9673
ii -9674
▁엮 -9675
▁강철 -9676
▁빈도 -9677
▁종말 -9678
▁처지 -9679
▁그리스인 -9680
▁흥선대원군 -9681
▁뻔 -9682
▁군청 -9683
▁무로 -9684
▁종점 -9685
▁팔레 -9686
▁갤러리 -9687
▁유정 -9688
▁호쿠 -9689
▁NGC -9690
▁공용어 -9691
▁극작가 -9692
▁파라과이 -9693
▁셜 -9694
리즘 -9695
▁급수 -9696
▁복권 -9697
▁연동 -9698
▁용암 -9699
▁출석 -9700
▁확고 -9701
▁133 -9702
▁진행자 -9703
▁극도 -9704
▁노이 -9705
▁선장 -9706
▁장원 -9707
▁콘테 -9708
▁함양 -9709
▁손꼽히 -9710
▁함부르크 -9711
네시 -9712
▁어로 -9713
▁입양 -9714
▁제작사 -9715
▁기성 -9716
▁열심 -9717
▁예명 -9718
▁이언 -9719
▁제리 -9720
▁추리 -9721
▁경쟁력 -9722
▁붙여지 -9723
기구 -9724
▁릴리 -9725
▁무스 -9726
▁소령 -9727
▁야시 -9728
▁연못 -9729
▁일괄 -9730
▁제왕 -9731
▁이동하 -9732
▁키예프 -9733
▁그렇지만 -9734
나미 -9735
iss -9736
▁수녀 -9737
▁그림자 -9738
▁가네 -9739
▁등극 -9740
▁번성 -9741
▁블리 -9742
▁자결 -9743
▁진료 -9744
▁디트로 -9745
▁디트로이트 -9746
니지 -9747
타케 -9748
ake -9749
▁스노 -9750
▁오락 -9751
▁이장 -9752
▁천연기념물 -9753
own -9754
▁왕정 -9755
▁프렌 -9756
▁준결승전 -9757
어뜨리 -9758
▁유령 -9759
▁추종 -9760
▁교육부 -9761
케이 -9762
자치시 -9763
▁특별자치시 -9764
▁몽고 -9765
▁숙주 -9766
▁심야 -9767
▁즐겁 -9768
몰로지 -9769
▁Mus -9770
▁명분 -9771
▁엘리트 -9772
사관학교 -9773
▁프랭클린 -9774
▁오지 -9775
▁CBS -9776
▁사쿠 -9777
▁프롤 -9778
▁CEO -9779
▁국유 -9780
▁앞장 -9781
▁이규 -9782
▁이데 -9783
▁평민 -9784
▁사무총장 -9785
▁법정동 -9786
▁아래쪽 -9787
▁일러스트 -9788
▁낚 -9789
▁스로 -9790
▁우상 -9791
▁원격 -9792
▁위생 -9793
▁무궁화 -9794
▁싣 -9795
▁ES -9796
▁미셸 -9797
▁아치 -9798
▁코리 -9799
▁위나라 -9800
▁이득 -9801
▁장흥 -9802
▁탁월 -9803
▁파우 -9804
▁포도당 -9805
▁애틀랜타 -9806
해지 -9807
▁도사 -9808
▁수년 -9809
▁조계 -9810
▁펜싱 -9811
▁GDP -9812
▁미생물 -9813
▁그레고리 -9814
세기 -9815
▁강풍 -9816
▁고추 -9817
▁농어 -9818
▁반역 -9819
▁재난 -9820
▁헬륨 -9821
▁앨리스 -9822
▁듀얼 -9823
▁문경 -9824
▁자카 -9825
▁겉보기 -9826
▁개항 -9827
▁온갖 -9828
▁대사헌 -9829
미스 -9830
▁자생 -9831
▁동성애자 -9832
▁스트라이커 -9833
▁섀 -9834
▁타석 -9835
clude -9836
▁스리랑카 -9837
▁툰 -9838
타마 -9839
▁결핍 -9840
▁속편 -9841
▁132 -9842
▁기상청 -9843
▁무조건 -9844
Hz -9845
UR -9846
그래 -9847
멘스 -9848
▁빈번 -9849
▁정인 -9850
▁주지 -9851
▁지청 -9852
▁지방산 -9853
▁니카 -9854
▁워치 -9855
▁진수 -9856
▁대성전 -9857
HO -9858
▁감동 -9859
▁더비 -9860
▁유스 -9861
▁칼뱅 -9862
림픽 -9863
원장 -9864
old -9865
▁김민 -9866
▁속이 -9867
▁정관 -9868
▁해치 -9869
▁시뮬레이션 -9870
에미 -9871
▁듀오 -9872
▁수심 -9873
▁대지진 -9874
▁동요 -9875
▁상연 -9876
▁애칭 -9877
▁총무 -9878
▁글로브 -9879
▁인프라 -9880
▁삼국사기 -9881
버러 -9882
▁꿈꾸 -9883
▁아데 -9884
▁파이프 -9885
위성 -9886
헌영 -9887
▁결제 -9888
▁광양 -9889
▁동참 -9890
▁리모 -9891
▁기병대 -9892
스기 -9893
▁++ -9894
▁베른 -9895
미즈 -9896
▁막히 -9897
▁인디애나 -9898
메다 -9899
▁불행 -9900
▁초원 -9901
▁하고 -9902
거래 -9903
ork -9904
▁NE -9905
▁두렵 -9906
▁속주 -9907
▁시종 -9908
▁슛 -9909
▁주화 -9910
GA -9911
▁빠져 -9912
▁조병 -9913
바야시 -9914
▁마다가 -9915
▁격자 -9916
▁현직 -9917
▁현행 -9918
▁자세히 -9919
ix -9920
파크 -9921
▁대국 -9922
▁맹세 -9923
▁발각 -9924
▁암흑 -9925
▁호족 -9926
▁마우스 -9927
렉션 -9928
▁La -9929
▁극락 -9930
▁상기 -9931
▁미주리 -9932
▁요제프 -9933
▁통틀어 -9934
▁보헤미아 -9935
▁쾰 -9936
▁헛 -9937
▁브랜 -9938
▁재해 -9939
ence -9940
▁신상 -9941
▁호의 -9942
▁농산물 -9943
벨라 -9944
할시 -9945
▁or -9946
▁가타 -9947
▁복음서 -9948
▁국수 -9949
러피 -9950
해튼 -9951
ick -9952
▁kt -9953
▁패럴림픽 -9954
변이 -9955
천사 -9956
▁파문 -9957
위원회 -9958
▁pro -9959
▁돌연변이 -9960
▁Ro -9961
▁vs -9962
▁단과 -9963
▁무르 -9964
▁숨지 -9965
▁요법 -9966
▁해부 -9967
lo -9968
▁른 -9969
▁대각 -9970
▁피로 -9971
▁현황 -9972
▁호리 -9973
▁저널리 -9974
() -9975
▁감금 -9976
▁김옥 -9977
▁볼셰비키 -9978
▁평안남도 -9979
마리 -9980
▁공파 -9981
▁공표 -9982
▁아빠 -9983
▁청자 -9984
▁초고 -9985
▁투항 -9986
▁밀러 -9987
▁세손 -9988
▁의과 -9989
▁우체국 -9990
라기 -9991
루냐 -9992
▁낙하 -9993
▁1870 -9994
▁합스부르크 -9995
▁소울 -9996
▁따라가 -9997
▁후속작 -9998
를테 -9999
▁입수 -10000
▁저격 -10001
를테면 -10002
▁매거진 -10003
▁활주로 -10004
▁이를테면 -10005
▁댓 -10006
▁김병 -10007
▁총기 -10008
▁황도 -10009
CAF -10010
▁만년 -10011
▁생계 -10012
▁서장 -10013
▁재질 -10014
▁포고 -10015
▁소피아 -10016
▁오로지 -10017
▁뾰 -10018
▁PR -10019
▁페로 -10020
▁표창 -10021
브리아 -10022
▁양육 -10023
▁이븐 -10024
▁장대 -10025
▁정국 -10026
▁Mar -10027
▁모터스 -10028
▁관동 -10029
▁난이 -10030
▁아요 -10031
▁틀리 -10032
▁창시자 -10033
▁숀 -10034
삭스 -10035
▁루비 -10036
▁우아 -10037
▁제너 -10038
▁휩쓸 -10039
▁단행본 -10040
▁아스널 -10041
▁중앙부 -10042
▁타이베이 -10043
▁비늘 -10044
ance -10045
▁애리조 -10046
▁평안북도 -10047
플로 -10048
홀름 -10049
▁To -10050
▁말년 -10051
▁머스 -10052
▁시국 -10053
▁왜구 -10054
▁매끄럽 -10055
▁1885 -10056
▁돌출 -10057
▁맞대 -10058
▁앞쪽 -10059
▁450 -10060
▁우즈베키스탄 -10061
▁엥 -10062
▁리터 -10063
▁NAS -10064
▁un -10065
▁국악 -10066
▁부조 -10067
▁대장군 -10068
▁청동기 -10069
▁활발히 -10070
▁1871 -10071
EM -10072
▁DM -10073
▁내면 -10074
▁로페 -10075
▁복식 -10076
▁성령 -10077
▁전날 -10078
▁프랜시스 -10079
▁아이스하키 -10080
▁마르크스주의 -10081
공산 -10082
▁감수 -10083
▁배속 -10084
▁아쿠 -10085
▁중상 -10086
▁Ph -10087
테리아 -10088
십자 -10089
▁벤치 -10090
▁신종 -10091
▁지로 -10092
▁비주얼 -10093
▁세븐 -10094
▁수염 -10095
▁퇴장 -10096
▁USS -10097
▁로렌스 -10098
▁짱 -10099
▁카바 -10100
▁원심 -10101
▁차리 -10102
▁1600 -10103
쩌둥 -10104
▁리바 -10105
▁매직 -10106
▁이모 -10107
▁다람쥐 -10108
▁편집자 -10109
▁마오쩌둥 -10110
▁알래스카 -10111
ection -10112
ear -10113
irl -10114
▁끌려가 -10115
▁빅토르 -10116
▁맷 -10117
▁쿡 -10118
티시 -10119
▁경질 -10120
▁볼프 -10121
▁중생 -10122
▁케라 -10123
러피언 -10124
라고 -10125
제이 -10126
▁반성 -10127
▁수교 -10128
▁증인 -10129
▁참사 -10130
타이드 -10131
▁흉노 -10132
▁앤더슨 -10133
▁프레이 -10134
▁휴게 -10135
▁양성자 -10136
▁유러피언 -10137
▁자칭 -10138
▁지성 -10139
▁티켓 -10140
lass -10141
▁내무부 -10142
▁오클랜드 -10143
어오 -10144
▁관행 -10145
▁시애 -10146
▁카터 -10147
▁즘 -10148
틀리 -10149
▁국당 -10150
▁내성 -10151
▁이양 -10152
▁콜레 -10153
▁only -10154
돌리 -10155
▁수다 -10156
▁요지 -10157
▁위스 -10158
▁유료 -10159
▁화랑 -10160
▁수원시 -10161
▁콘스탄티노폴리스 -10162
ild -10163
▁로리 -10164
▁청룡 -10165
▁테일 -10166
▁박헌영 -10167
▁센고쿠 -10168
▁1200 -10169
테쓰 -10170
▁스태 -10171
▁마닐라 -10172
▁반란군 -10173
파이 -10174
▁루카 -10175
▁이완 -10176
▁잡아먹 -10177
▁파나마 -10178
▁바디 -10179
▁수인 -10180
▁장단 -10181
▁제동 -10182
▁중서 -10183
▁240 -10184
▁불태우 -10185
▁알렉스 -10186
▁GN -10187
▁능선 -10188
▁역도 -10189
▁조광 -10190
▁해저 -10191
▁케이프 -10192
▁냐는 -10193
▁민요 -10194
▁봉수 -10195
▁지오 -10196
▁친분 -10197
텔레스 -10198
▁다나카 -10199
▁프로리그 -10200
올라 -10201
▁SL -10202
▁당내 -10203
▁이방 -10204
▁탑신 -10205
▁역사가 -10206
▁빨갛 -10207
▁성실 -10208
▁이룩 -10209
▁김정은 -10210
▁예정자 -10211
▁부각 -10212
▁부원군 -10213
▁시애틀 -10214
▁려던 -10215
▁카니 -10216
▁윤보선 -10217
▁마다가스카르 -10218
관리 -10219
▁재외 -10220
▁출가 -10221
▁플랜 -10222
▁오른손 -10223
▁왕세자 -10224
▁멍 -10225
체고 -10226
▁개개 -10227
▁교실 -10228
▁구니 -10229
▁무척 -10230
▁분과 -10231
▁초빙 -10232
▁김규식 -10233
▁앤드루 -10234
체고비나 -10235
▁궁궐 -10236
▁몸통 -10237
▁상급 -10238
▁실험실 -10239
▁제조업 -10240
▁프라하 -10241
▁하노이 -10242
맥스 -10243
▁섬세 -10244
▁조례 -10245
▁AD -10246
▁남용 -10247
▁정제 -10248
▁맨해튼 -10249
▁구마모토 -10250
▁아리스토텔레스 -10251
▁리비 -10252
▁통역 -10253
▁공민왕 -10254
▁해리슨 -10255
▁생선 -10256
▁시중 -10257
▁미군정 -10258
▁아무것 -10259
메스 -10260
ans -10261
▁송도 -10262
▁징병 -10263
▁한하 -10264
▁동물원 -10265
▁루돌프 -10266
▁파인 -10267
OV -10268
면체 -10269
▁재활 -10270
▁지쿠 -10271
▁차용 -10272
▁동대문 -10273
▁겁 -10274
사상 -10275
컨대 -10276
▁관문 -10277
▁서산 -10278
▁창문 -10279
▁헬리콥터 -10280
천면 -10281
▁오미 -10282
▁총애 -10283
▁호크 -10284
▁대대로 -10285
▁개헌 -10286
▁경시 -10287
▁경희 -10288
▁고쿠 -10289
▁실존 -10290
▁신문사 -10291
▁러시아인 -10292
▁괄 -10293
▁Sy -10294
▁각성 -10295
▁농경 -10296
▁칼럼 -10297
▁줄거리 -10298
코토 -10299
▁국보 -10300
▁배려 -10301
▁허드 -10302
▁크라이 -10303
▁남산 -10304
▁독창 -10305
▁뾰족 -10306
▁커플 -10307
▁퍼스 -10308
▁퍼포 -10309
▁함자 -10310
▁EBS -10311
▁경영자 -10312
▁리조트 -10313
ivers -10314
무소 -10315
▁CM -10316
▁수필 -10317
▁성남시 -10318
▁얕 -10319
▁유권자 -10320
▁퍼포먼스 -10321
ype -10322
▁구청 -10323
▁하반 -10324
▁제퍼슨 -10325
▁시합 -10326
▁에프 -10327
▁포착 -10328
▁동유럽 -10329
어사 -10330
▁남해 -10331
▁약혼 -10332
▁화기 -10333
▁위너스 -10334
▁퍼스트 -10335
▁브레이크 -10336
▁나선 -10337
▁총통 -10338
▁클린턴 -10339
▁드미 -10340
▁바트 -10341
▁클레이 -10342
include -10343
▁경호 -10344
▁뉴클 -10345
▁학설 -10346
▁MTV -10347
▁사각형 -10348
▁올림피아 -10349
▁칙령 -10350
▁통용 -10351
▁파도 -10352
▁브루스 -10353
▁서재필 -10354
▁솔로몬 -10355
ish -10356
▁효자 -10357
▁는다면 -10358
▁레이크 -10359
▁선거법 -10360
▁김원 -10361
▁시노 -10362
▁카지 -10363
▁유치원 -10364
▁해리스 -10365
▁가늘 -10366
▁안녕 -10367
GM -10368
▁마차 -10369
▁모호 -10370
▁산호 -10371
▁유혹 -10372
▁주임 -10373
▁하류 -10374
▁나우 -10375
▁모의 -10376
▁스가 -10377
▁차갑 -10378
▁": -10379
▁Jo -10380
▁씨앗 -10381
▁욕망 -10382
▁전래 -10383
▁데려오 -10384
▁스테파 -10385
토랑 -10386
▁관청 -10387
▁들여 -10388
▁신발 -10389
▁일당 -10390
▁하키 -10391
▁화엄 -10392
▁케플러 -10393
▁레스토랑 -10394
▁광도 -10395
▁일리 -10396
▁자제 -10397
▁주입 -10398
▁허정 -10399
▁자치체 -10400
▁총사령관 -10401
원수 -10402
oun -10403
▁보로 -10404
▁대합실 -10405
에스 -10406
▁NT -10407
▁성화 -10408
▁시부 -10409
▁천왕 -10410
OD -10411
▁독도 -10412
▁반기 -10413
▁보행 -10414
▁수양 -10415
▁케인 -10416
▁테라 -10417
▁트릭 -10418
▁호스 -10419
▁분류군 -10420
통일 -10421
▁실정 -10422
▁진해 -10423
▁아키라 -10424
▁예수회 -10425
▁요시다 -10426
▁함경남도 -10427
▁@ -10428
히트 -10429
▁로버 -10430
▁절망 -10431
▁카테 -10432
▁예선전 -10433
AF -10434
fe -10435
▁만장 -10436
▁메뉴 -10437
▁찬사 -10438
▁포식 -10439
▁ex -10440
▁보라 -10441
▁평형 -10442
▁전무 -10443
▁제물 -10444
▁긴테쓰 -10445
▁뛰어들 -10446
▁비밀리 -10447
신문 -10448
정원 -10449
▁마술 -10450
▁무실 -10451
▁분파 -10452
▁검정 -10453
▁극한 -10454
▁라서 -10455
▁폭파 -10456
▁메이커 -10457
▁정의당 -10458
are -10459
▁나인 -10460
▁소음 -10461
▁테리 -10462
▁내야수 -10463
창호 -10464
▁고든 -10465
▁리보 -10466
▁메카 -10467
▁박종 -10468
▁침묵 -10469
▁sc -10470
▁다테 -10471
▁이점 -10472
▁보수당 -10473
▁플라톤 -10474
라니 -10475
환경 -10476
▁가솔 -10477
▁블레 -10478
▁원통 -10479
▁방어선 -10480
▁네이션스컵 -10481
▁벅 -10482
바흐 -10483
▁당연 -10484
▁라자 -10485
▁매리 -10486
▁문고 -10487
▁시몬 -10488
▁다저스 -10489
▁비타민 -10490
▁아키타 -10491
▁스톡홀름 -10492
▁ㅓ야 -10493
▁어군 -10494
▁천국 -10495
▁캐롤 -10496
▁서대문 -10497
▁컴퓨팅 -10498
▁뉴클레오 -10499
▁도둑 -10500
▁본성 -10501
▁블로 -10502
▁엄밀 -10503
▁카피 -10504
ical -10505
▁ABC -10506
▁알프스 -10507
등식 -10508
▁넷째 -10509
▁프론 -10510
▁드루 -10511
▁수복 -10512
러브 -10513
▁김유 -10514
▁마셜 -10515
▁색소 -10516
▁전담 -10517
▁타스 -10518
▁개구리 -10519
▁바이트 -10520
▁유아기 -10521
lat -10522
▁강령 -10523
▁자치주 -10524
▁와이번스 -10525
▁도교 -10526
▁리베 -10527
▁묘비 -10528
▁방콕 -10529
▁파손 -10530
▁나트륨 -10531
▁오리온 -10532
▁친위대 -10533
▁동로 -10534
▁소극 -10535
▁웨인 -10536
▁황소 -10537
▁스폰서 -10538
▁프린스 -10539
TP -10540
암동 -10541
▁노론 -10542
▁대본 -10543
▁북아일랜드 -10544
EG -10545
IR -10546
▁대북 -10547
▁모어 -10548
▁백두 -10549
▁소중 -10550
▁찬양 -10551
▁리프트 -10552
▁앞장서 -10553
▁멧 -10554
▁스텝 -10555
메드 -10556
▁럭비 -10557
▁리사 -10558
▁불변 -10559
▁마천루 -10560
▁샐 -10561
▁실권 -10562
▁장시 -10563
▁채취 -10564
▁천거 -10565
▁치과 -10566
▁홀리 -10567
▁ATP -10568
▁대원군 -10569
▁로드리 -10570
▁투자자 -10571
▁피아니스트 -10572
매매 -10573
▁DD -10574
▁구실 -10575
▁추이 -10576
▁가브리엘 -10577
부르 -10578
▁CH -10579
▁마켓 -10580
▁포토 -10581
▁화약 -10582
▁책임지 -10583
▁피라미 -10584
▁Fr -10585
▁사방 -10586
▁상행 -10587
▁슬픔 -10588
▁야전 -10589
▁왕권 -10590
▁헬싱 -10591
군다 -10592
▁AV -10593
▁결별 -10594
▁구내 -10595
▁국공 -10596
▁선천 -10597
▁야드 -10598
▁톈진 -10599
▁퇴직 -10600
▁한미 -10601
▁마누엘 -10602
▁연산군 -10603
▁토스카 -10604
▁튀르크 -10605
▁담보 -10606
▁벤처 -10607
▁여유 -10608
▁영유 -10609
▁정거 -10610
▁210 -10611
덴부르크 -10612
▁이의 -10613
▁특전 -10614
▁동시대 -10615
▁용인시 -10616
▁연극배우 -10617
대표 -10618
▁구두 -10619
▁따지 -10620
▁삼존 -10621
▁제노 -10622
▁쾰른 -10623
▁선구자 -10624
▁정부군 -10625
말리 -10626
▁슬하 -10627
▁화강암 -10628
▁콘테스트 -10629
FL -10630
놀이 -10631
▁유격수 -10632
▁적외선 -10633
티넘 -10634
▁Ma -10635
▁로크 -10636
▁약사 -10637
▁어는 -10638
▁가이드 -10639
▁아나톨 -10640
▁플래티넘 -10641
▁헤르체고비나 -10642
ey -10643
▁pr -10644
▁감찰 -10645
▁방치 -10646
▁스칸 -10647
▁차출 -10648
▁알파벳 -10649
▁주차장 -10650
▁프레데 -10651
대교 -10652
▁별세 -10653
ica -10654
▁간첩 -10655
▁강렬 -10656
▁마에 -10657
▁위그 -10658
▁유선 -10659
▁중퇴 -10660
▁펌프 -10661
▁잇따르 -10662
EL -10663
▁왕건 -10664
▁목요일 -10665
사고 -10666
▁뭉치 -10667
▁본작 -10668
▁부치 -10669
▁준수 -10670
▁사로잡 -10671
▁오바마 -10672
▁딥 -10673
수스 -10674
▁가락 -10675
▁경전철 -10676
▁그저 -10677
▁리본 -10678
▁불참 -10679
▁삼림 -10680
▁he -10681
▁봉화 -10682
▁실록 -10683
▁임정 -10684
▁종식 -10685
▁칸국 -10686
▁두려움 -10687
▁안테나 -10688
▁로얄 -10689
▁아날 -10690
▁유목 -10691
▁켈트 -10692
▁접어들 -10693
▁초신성 -10694
▁1889 -10695
클레 -10696
▁공존 -10697
▁밸리 -10698
▁엔트리 -10699
▁스카우트 -10700
60 -10701
▁영정 -10702
▁요충 -10703
▁이송 -10704
▁기관지 -10705
▁늙 -10706
난성 -10707
▁반포 -10708
▁산성 -10709
▁여권 -10710
▁예약 -10711
▁전전 -10712
▁직통 -10713
▁하시 -10714
공산당 -10715
와라노 -10716
▁도망가 -10717
▁아이폰 -10718
▁후지와라노 -10719
천동 -10720
▁가맹 -10721
▁건전 -10722
▁김형 -10723
▁사역 -10724
▁새우 -10725
▁송신 -10726
▁중합 -10727
▁말미암 -10728
▁고속버스 -10729
소통 -10730
▁갈아 -10731
▁로트 -10732
▁마땅 -10733
▁모금 -10734
▁모하 -10735
▁아끼 -10736
▁영예 -10737
▁정형 -10738
▁집정 -10739
▁형질 -10740
▁밴쿠버 -10741
▁패트릭 -10742
▁베트 -10743
▁여서 -10744
▁플리 -10745
부로 -10746
충류 -10747
▁다윈 -10748
▁대영 -10749
▁우림 -10750
▁투여 -10751
테이너 -10752
▁능하 -10753
▁호대 -10754
▁타이어 -10755
▁구르 -10756
▁불량 -10757
▁비엔 -10758
▁연말 -10759
▁치루 -10760
▁간신히 -10761
▁열심히 -10762
▁타이거스 -10763
▁So -10764
▁니혼 -10765
▁사설 -10766
▁열강 -10767
▁의류 -10768
▁인가 -10769
▁절정 -10770
▁판례 -10771
▁드디어 -10772
▁떨어뜨리 -10773
▁의사소통 -10774
▁감성 -10775
▁똑같이 -10776
▁권하 -10777
▁매트 -10778
▁비야 -10779
▁주계 -10780
▁캐리 -10781
▁피지 -10782
▁For -10783
▁메디치 -10784
▁스트로 -10785
카리 -10786
▁발라드 -10787
▁챙 -10788
▁극우 -10789
▁김준 -10790
▁악보 -10791
▁종자 -10792
▁지자 -10793
▁쿠퍼 -10794
▁튼 -10795
위안 -10796
▁격리 -10797
▁라리 -10798
▁낙동강 -10799
▁엣 -10800
바나 -10801
▁감상 -10802
▁미수 -10803
▁받치 -10804
▁사탕 -10805
▁수락 -10806
▁시크 -10807
▁정작 -10808
블랜드 -10809
▁CONCA -10810
지능 -10811
▁사서 -10812
▁작물 -10813
▁중수 -10814
▁로마인 -10815
▁생존자 -10816
▁인공지능 -10817
▁애정 -10818
추부사 -10819
▁JTBC -10820
▁Live -10821
▁프란체스코 -10822
▁CONCACAF -10823
가미 -10824
드레 -10825
▁무형 -10826
▁센티미터 -10827
bo -10828
▁금호 -10829
▁서임 -10830
▁원군 -10831
▁의령 -10832
▁정읍 -10833
▁후배 -10834
▁클리블랜드 -10835
▁나카무라 -10836
▁소말리아 -10837
sh -10838
유예 -10839
▁메소 -10840
▁정종 -10841
▁징수 -10842
▁미야자키 -10843
▁훙 -10844
▁도피 -10845
▁목회 -10846
▁앙골 -10847
▁요격 -10848
▁하야 -10849
휴일 -10850
▁고딕 -10851
▁모색 -10852
▁은거 -10853
▁부딪히 -10854
▁프랑스인 -10855
▁공소 -10856
▁잠정 -10857
▁제명 -10858
캐슬 -10859
▁가두 -10860
▁기이 -10861
▁Sou -10862
에미리트 -10863
▁아랍에미리트 -10864
▁가도 -10865
▁바지 -10866
▁백과 -10867
▁송출 -10868
▁페트 -10869
▁시네마 -10870
IL -10871
란토 -10872
망디 -10873
프로 -10874
▁금산 -10875
▁볼트 -10876
▁레이싱 -10877
▁가나가와현 -10878
풀이 -10879
▁비준 -10880
▁습윤 -10881
마르크 -10882
▁여배우 -10883
▁장학금 -10884
▁카탈루냐 -10885
▁자유민주당 -10886
▁깜 -10887
▁유의 -10888
▁치환 -10889
▁트렌 -10890
도르프 -10891
▁피라미드 -10892
EE -10893
▁김명 -10894
▁당기 -10895
▁리옹 -10896
▁연정 -10897
바이트 -10898
하이오 -10899
▁오하이오 -10900
지기 -10901
▁EU -10902
▁모욕 -10903
▁서태 -10904
▁익숙 -10905
▁광복군 -10906
▁교통부 -10907
▁유희 -10908
▁평평 -10909
▁Com -10910
▁에이즈 -10911
다운 -10912
말로 -10913
▁벨리 -10914
tern -10915
▁미야기 -10916
화문 -10917
▁격추 -10918
▁무네 -10919
▁레이더 -10920
▁Time -10921
▁성곽 -10922
▁순종 -10923
▁자서 -10924
▁가솔린 -10925
▁검은색 -10926
▁캅 -10927
ood -10928
▁거미 -10929
▁김광 -10930
▁워커 -10931
▁한중 -10932
▁항만 -10933
▁Col -10934
▁마이어 -10935
▁유니버설 -10936
간다 -10937
대사 -10938
▁GB -10939
▁AKB -10940
▁스타트 -10941
▁츄 -10942
ost -10943
▁"& -10944
▁귀신 -10945
▁삼중 -10946
▁수로 -10947
▁암스 -10948
▁탄약 -10949
▁int -10950
▁기숙사 -10951
▁카카오 -10952
▁1848 -10953
자루 -10954
▁매킨 -10955
▁문집 -10956
▁양심 -10957
▁여고 -10958
▁뉴캐슬 -10959
▁토리노 -10960
현동 -10961
▁추억 -10962
▁하구 -10963
▁라이더 -10964
▁레이트 -10965
▁Part -10966
▁어시스트 -10967
▁프랑스령 -10968
찌르 -10969
▁무과 -10970
▁여사 -10971
▁우루스 -10972
나마 -10973
▁급여 -10974
▁사쓰 -10975
▁천주 -10976
▁티아 -10977
▁포털 -10978
▁한림 -10979
▁브레이 -10980
▁여의도 -10981
row -10982
▁도래 -10983
▁해피 -10984
▁프란치 -10985
거스 -10986
▁사민 -10987
▁추력 -10988
▁최진 -10989
▁바그너 -10990
에몽 -10991
의사 -10992
지부 -10993
▁오만 -10994
▁해태 -10995
span -10996
▁대리인 -10997
▁지상파 -10998
애미 -10999
▁국한 -11000
▁댄서 -11001
▁재팬 -11002
▁하행 -11003
▁공휴일 -11004
▁명확히 -11005
▁부총리 -11006
▁마이애미 -11007
▁TR -11008
▁워즈 -11009
▁조인 -11010
▁토트 -11011
▁해독 -11012
▁onlyinclude -11013
uc -11014
정동 -11015
ous -11016
▁가혹 -11017
▁남군 -11018
▁볼로 -11019
▁재일 -11020
▁절벽 -11021
▁우한 -11022
▁종군 -11023
프랑크 -11024
▁지배자 -11025
▁튀니지 -11026
▁카스티야 -11027
lay -11028
▁ㄹ라 -11029
▁공대 -11030
▁공성 -11031
▁라르 -11032
▁모건 -11033
▁비정 -11034
▁셀레 -11035
▁무찌르 -11036
▁방대 -11037
▁병자 -11038
▁업자 -11039
▁총격 -11040
▁대니얼 -11041
▁정치학 -11042
▁클라우 -11043
orn -11044
▁EM -11045
▁무안 -11046
▁비토 -11047
▁클러 -11048
▁정거장 -11049
▁굴절 -11050
▁보령 -11051
▁안개 -11052
▁유식 -11053
▁특화 -11054
▁일본국 -11055
▁Your -11056
▁대승불교 -11057
▁보수주의 -11058
▁로키 -11059
▁부합 -11060
파니아 -11061
▁고인돌 -11062
▁교의 -11063
▁비대 -11064
▁음절 -11065
페스트 -11066
▁법원장 -11067
▁페트로 -11068
▁산둥 -11069
▁제위 -11070
▁치카 -11071
▁국제법 -11072
▁대단히 -11073
▁대법관 -11074
▁마법사 -11075
▁리카 -11076
▁설문 -11077
ows -11078
▁인칭 -11079
olog -11080
▁SNS -11081
▁관현악단 -11082
관계 -11083
메니 -11084
으로 -11085
ann -11086
▁가쿠 -11087
▁경복 -11088
▁김인 -11089
▁단결 -11090
▁몰아 -11091
▁신곡 -11092
▁그랜트 -11093
▁시코쿠 -11094
▁아이즈 -11095
▁랴오 -11096
▁문단 -11097
▁부평 -11098
▁선명 -11099
▁시멘트 -11100
브로 -11101
▁사수 -11102
▁숙부 -11103
해살이 -11104
▁류큐 -11105
▁마테 -11106
▁용액 -11107
▁Bla -11108
▁저지대 -11109
▁하노버 -11110
▁헤어지 -11111
az -11112
▁고로 -11113
▁대마 -11114
▁모빌 -11115
▁선봉 -11116
▁케르 -11117
▁제우스 -11118
히사 -11119
▁BC -11120
▁거란 -11121
▁공영 -11122
▁연립 -11123
▁131 -11124
OP -11125
▁동산 -11126
▁지법 -11127
▁항체 -11128
메이카 -11129
▁OST -11130
▁카메룬 -11131
▁자메이카 -11132
▁줄기세포 -11133
▁부다 -11134
▁오디 -11135
▁평지 -11136
▁황색 -11137
▁API -11138
▁방사능 -11139
▁정보원 -11140
▁쪼 -11141
서스 -11142
▁검거 -11143
▁꺼내 -11144
▁메일 -11145
▁베어 -11146
▁서귀 -11147
▁진로 -11148
▁대나무 -11149
▁NASA -11150
▁명소 -11151
▁초콜 -11152
클리드 -11153
▁레드삭스 -11154
▁도키 -11155
▁동진 -11156
▁소외 -11157
▁안방 -11158
▁적료 -11159
▁점포 -11160
드리아 -11161
▁줄리아 -11162
▁1883 -11163
▁쾨 -11164
▁재편 -11165
지아 -11166
▁at -11167
▁모범 -11168
▁사림 -11169
▁종양 -11170
▁항우 -11171
▁형벌 -11172
빌라이 -11173
▁ref -11174
▁부상자 -11175
▁욱 -11176
칼리 -11177
▁글꼴 -11178
▁메스 -11179
▁전보 -11180
▁지석 -11181
▁라파엘 -11182
▁영화상 -11183
▁제이슨 -11184
aw -11185
▁가중 -11186
▁국교 -11187
▁남방 -11188
▁다듬 -11189
▁속력 -11190
▁최선 -11191
▁혼다 -11192
▁패러디 -11193
▁그라운드 -11194
▁GM -11195
▁골격 -11196
▁다툼 -11197
▁하코 -11198
레스트 -11199
▁기와 -11200
▁전한 -11201
▁중엽 -11202
른스트 -11203
▁녕 -11204
시노 -11205
▁실증 -11206
▁응급 -11207
▁편견 -11208
▁한신 -11209
▁곶 -11210
▁가토 -11211
▁도박 -11212
▁라디 -11213
▁봉인 -11214
▁수식 -11215
▁연희 -11216
▁절감 -11217
▁평판 -11218
▁날아가 -11219
▁교향악단 -11220
▁기세 -11221
▁녹화 -11222
▁본뜨 -11223
▁탄자 -11224
네그로 -11225
▁판소리 -11226
용차 -11227
▁관상 -11228
▁무작 -11229
▁u -11230
▁촛 -11231
합성 -11232
▁계주 -11233
▁산요 -11234
▁은혜 -11235
▁코소 -11236
▁타락 -11237
▁비서관 -11238
▁체인지 -11239
▁대좌 -11240
▁삽화 -11241
▁쌍대 -11242
▁후진 -11243
▁파일럿 -11244
▁노르망디 -11245
▁경위 -11246
▁식스 -11247
▁큐브 -11248
▁에스페 -11249
▁연구회 -11250
▁해상도 -11251
▁텍사스주 -11252
80 -11253
▁간략 -11254
▁리즈 -11255
▁송파 -11256
▁야외 -11257
▁열전 -11258
▁유우 -11259
▁피리 -11260
▁고분군 -11261
▁공무 -11262
▁근사 -11263
▁라바 -11264
▁범하 -11265
▁유공 -11266
센스 -11267
▁tv -11268
▁이터 -11269
▁자명 -11270
▁조교 -11271
제품 -11272
▁가우 -11273
▁고생 -11274
▁라기 -11275
▁발상 -11276
▁병마 -11277
▁카네 -11278
▁콘솔 -11279
▁하남 -11280
▁예컨대 -11281
▁프로그래머 -11282
▁단군 -11283
▁리마 -11284
▁무섭 -11285
▁세습 -11286
▁온난 -11287
▁위로 -11288
▁이회 -11289
▁카마 -11290
▁연장전 -11291
▁뫼 -11292
▁기량 -11293
▁유생 -11294
▁에이전 -11295
▁위구르 -11296
▁Ge -11297
▁노면 -11298
▁니키 -11299
▁받들 -11300
▁우산 -11301
▁쿠빌라이 -11302
지로 -11303
▁간사 -11304
▁고의 -11305
▁도네 -11306
▁램프 -11307
▁배분 -11308
▁상어 -11309
▁수위 -11310
▁엔드 -11311
▁월터 -11312
▁토마토 -11313
▁단속 -11314
▁안나 -11315
▁요절 -11316
▁지극 -11317
▁이용객 -11318
▁전반기 -11319
치히 -11320
▁관례 -11321
▁부왕 -11322
▁함량 -11323
▁만화가 -11324
워스 -11325
ern -11326
ink -11327
▁권역 -11328
▁북군 -11329
▁학력 -11330
▁다이어 -11331
▁해안선 -11332
돌이 -11333
에고 -11334
▁국외 -11335
▁단정 -11336
▁모세 -11337
▁성동 -11338
▁요양 -11339
▁1882 -11340
▁야마가타 -11341
▁RP -11342
▁고흥 -11343
▁아유 -11344
▁왕궁 -11345
▁친족 -11346
▁Day -11347
▁통신사 -11348
▁Wind -11349
▁중소기업 -11350
40 -11351
▁봇 -11352
▁콥 -11353
버른 -11354
프턴 -11355
▁루키 -11356
▁멋지 -11357
▁사로잡히 -11358
▁거성 -11359
▁고노 -11360
▁내일 -11361
▁몰타 -11362
▁보루 -11363
▁부교 -11364
▁스루 -11365
▁주선 -11366
스트리 -11367
▁330 -11368
▁슈퍼컵 -11369
▁올리브 -11370
▁관계없이 -11371
토프 -11372
포시 -11373
▁기전 -11374
▁덮개 -11375
▁동포 -11376
▁사학 -11377
▁유서 -11378
▁헬레 -11379
CC -11380
갈리 -11381
▁급증 -11382
▁세련 -11383
▁위조 -11384
▁파벌 -11385
▁단체전 -11386
▁스칼라 -11387
▁원산지 -11388
▁가고 -11389
▁관악 -11390
▁대표자 -11391
▁데니스 -11392
▁아이언 -11393
▁필립스 -11394
II -11395
교통 -11396
여객 -11397
▁RS -11398
▁SA -11399
▁장덕 -11400
▁정월 -11401
▁조셉 -11402
▁공화정 -11403
▁아날로그 -11404
▁다우 -11405
▁붙잡 -11406
오르크 -11407
▁너무나 -11408
▁레오폴 -11409
▁결사 -11410
▁배달 -11411
▁범행 -11412
▁씨족 -11413
▁어기 -11414
▁국정원 -11415
▁부르주 -11416
▁선진국 -11417
▁카스트 -11418
▁Girl -11419
▁몹 -11420
▁자수 -11421
▁플러 -11422
▁미토콘 -11423
▁영원히 -11424
▁미토콘드리아 -11425
▁FK -11426
▁시안 -11427
▁우시 -11428
▁으리 -11429
▁정정 -11430
▁직속 -11431
▁최영 -11432
▁타수 -11433
▁베풀 -11434
▁성원 -11435
▁제천 -11436
▁Sch -11437
▁강당 -11438
▁상록 -11439
▁재래 -11440
▁주창 -11441
▁태후 -11442
▁항원 -11443
▁후예 -11444
▁미스터리 -11445
서니 -11446
팡이 -11447
▁사영 -11448
▁아목 -11449
▁표정 -11450
▁군사력 -11451
▁북유럽 -11452
▁중공군 -11453
▁4000 -11454
▁관목 -11455
▁선대 -11456
▁염려 -11457
▁노벨상 -11458
▁해운대 -11459
▁시즈오카 -11460
▁강행 -11461
▁남하 -11462
▁산시 -11463
▁협업 -11464
▁형편 -11465
▁경주시 -11466
▁브루클린 -11467
▁넬슨 -11468
▁랭크 -11469
▁천수 -11470
▁무실점 -11471
▁테네시 -11472
▁호스트 -11473
▁괌 -11474
▁냥 -11475
▁딜런 -11476
▁양보 -11477
▁외래 -11478
▁조슈 -11479
▁독수리 -11480
게스 -11481
도라 -11482
▁규탄 -11483
▁발동 -11484
▁사치 -11485
▁서면 -11486
▁잠깐 -11487
▁정은 -11488
▁콜럼 -11489
▁신입 -11490
▁파푸아 -11491
본부 -11492
▁보름 -11493
▁얽히 -11494
▁안티오 -11495
▁지붕돌 -11496
▁파시즘 -11497
▁휴게소 -11498
데라 -11499
▁소프 -11500
▁제단 -11501
▁사업소 -11502
▁제갈량 -11503
▁1868 -11504
융합 -11505
▁단말 -11506
▁밝혀 -11507
▁빙하 -11508
▁영덕 -11509
▁일각 -11510
티모어 -11511
▁대상자 -11512
▁베이커 -11513
▁산티아 -11514
▁우의정 -11515
OT -11516
US -11517
▁노사 -11518
▁우월 -11519
▁하의 -11520
▁회귀 -11521
▁new -11522
▁멜버른 -11523
▁메릴랜드 -11524
▁뇨 -11525
▁대인 -11526
▁번창 -11527
▁종영 -11528
▁급속히 -11529
▁데려가 -11530
▁라인업 -11531
▁컨테이너 -11532
▁Or -11533
▁과테 -11534
▁뒤이 -11535
▁라미 -11536
▁수열 -11537
▁과테말라 -11538
▁유클리드 -11539
해자 -11540
▁OB -11541
▁겨루 -11542
▁사안 -11543
▁족보 -11544
▁할인 -11545
스탄불 -11546
▁핵융합 -11547
▁사이타마 -11548
▁이스탄불 -11549
oll -11550
▁오아 -11551
▁LED -11552
▁스캔들 -11553
▁요충지 -11554
▁이바지 -11555
▁컨트롤러 -11556
당기 -11557
협회 -11558
▁객차 -11559
▁고트 -11560
▁대도 -11561
▁어파 -11562
▁피핀 -11563
▁앙골라 -11564
▁오스틴 -11565
▁사회민주당 -11566
▁교부 -11567
▁군벌 -11568
▁동적 -11569
▁외형 -11570
▁증폭 -11571
▁청계 -11572
▁출자 -11573
▁밝혀내 -11574
▁몬테네그로 -11575
▁사운드트랙 -11576
▁샨 -11577
▁찢 -11578
지리 -11579
▁농지 -11580
▁영월 -11581
▁저조 -11582
▁전수 -11583
▁렛 -11584
▁충렬 -11585
▁프랜차 -11586
▁장병 -11587
▁절제 -11588
▁리믹스 -11589
▁망치 -11590
▁법관 -11591
▁성산 -11592
▁기념일 -11593
▁폐기물 -11594
▁너머 -11595
▁노후 -11596
▁사천 -11597
▁우왕 -11598
▁켄트 -11599
▁트이 -11600
▁항로 -11601
펜하겐 -11602
▁좌의정 -11603
▁코펜하겐 -11604
히드 -11605
▁복종 -11606
▁위력 -11607
▁잔인 -11608
▁초안 -11609
▁주계열 -11610
▁베르나르 -11611
▁야마모토 -11612
▁교직 -11613
▁라카 -11614
▁러일 -11615
▁버터 -11616
▁안무 -11617
▁위촉 -11618
▁증오 -11619
웨이트 -11620
▁커리어 -11621
▁거처 -11622
▁게끔 -11623
▁금전 -11624
▁밀레 -11625
▁배리 -11626
▁은신 -11627
▁차선 -11628
▁청도 -11629
▁아케이드 -11630
▁요하네스 -11631
▁부파 -11632
▁사비 -11633
▁스콜 -11634
▁양수 -11635
▁영암 -11636
▁320 -11637
▁히브리 -11638
▁프란시스코 -11639
바오 -11640
▁출동 -11641
▁타리 -11642
▁프랜차이즈 -11643
▁colspan -11644
어넣 -11645
▁식용 -11646
▁외과 -11647
▁주심 -11648
▁카세 -11649
▁피드 -11650
▁신주쿠 -11651
▁암스테르담 -11652
리안 -11653
▁동향 -11654
▁성악 -11655
▁이메 -11656
▁헌장 -11657
▁고온 -11658
▁내분 -11659
▁네티 -11660
▁치유 -11661
▁김옥균 -11662
▁사이먼 -11663
▁슌 -11664
공주 -11665
호란 -11666
▁끊기 -11667
▁대청 -11668
▁도상 -11669
▁우연 -11670
▁종신 -11671
▁추서 -11672
▁수요일 -11673
▁DF -11674
▁대덕 -11675
▁분단 -11676
▁습관 -11677
▁이항 -11678
▁준장 -11679
▁end -11680
▁동맹국 -11681
▁자서전 -11682
▁게오르크 -11683
▁니콜라스 -11684
▁능동 -11685
▁상국 -11686
▁소아 -11687
▁슈테 -11688
▁시비 -11689
▁치하 -11690
▁카툰 -11691
▁피치 -11692
아다니 -11693
▁효고현 -11694
▁여성주의 -11695
▁놈 -11696
우에 -11697
익스 -11698
▁공안 -11699
▁분사 -11700
▁순차 -11701
▁전세 -11702
▁컨설 -11703
▁그만큼 -11704
디나비아 -11705
▁스칸디나비아 -11706
▁국철 -11707
▁바울 -11708
▁양대 -11709
▁자재 -11710
▁정령 -11711
▁첼로 -11712
▁축산 -11713
토리코 -11714
▁오일러 -11715
▁산티아고 -11716
▁정몽 -11717
▁조영 -11718
▁직행 -11719
▁타일 -11720
▁서해안 -11721
걸이 -11722
꼬리 -11723
▁by -11724
▁김윤 -11725
▁모차 -11726
▁샤프 -11727
▁압록 -11728
▁톰슨 -11729
▁호아 -11730
amp -11731
gin -11732
▁긴밀 -11733
▁문종 -11734
▁데이브 -11735
▁헤이안 -11736
▁에른스트 -11737
▁쿠웨이트 -11738
니파 -11739
려들 -11740
▁거지 -11741
▁노아 -11742
▁서주 -11743
▁전락 -11744
▁결과물 -11745
▁브뤼셀 -11746
▁김선 -11747
▁점거 -11748
▁차츰 -11749
▁타로 -11750
▁함흥 -11751
▁280 -11752
▁로마자 -11753
▁서사시 -11754
▁시트콤 -11755
▁루이지애나 -11756
▁늪 -11757
단지 -11758
독립 -11759
웍스 -11760
▁정반 -11761
▁칭송 -11762
▁퍼즐 -11763
▁한번 -11764
▁발전기 -11765
▁위안부 -11766
▁철저히 -11767
▁텔레콤 -11768
▁코스타리카 -11769
셀러 -11770
▁브릿 -11771
▁아흐 -11772
▁주성 -11773
▁어웨이 -11774
▁윗부분 -11775
▁장로교 -11776
▁육군사관학교 -11777
▁푸에르토리코 -11778
LA -11779
▁IR -11780
▁내무 -11781
▁문무 -11782
▁원활 -11783
▁전학 -11784
▁짐승 -11785
▁천천 -11786
▁가라앉 -11787
▁천안시 -11788
▁리코 -11789
▁흡사 -11790
▁법조인 -11791
▁펠릭스 -11792
▁함경북도 -11793
▁촐 -11794
계승 -11795
▁결핵 -11796
▁고집 -11797
▁정재 -11798
▁IOC -11799
▁유학자 -11800
▁포르노 -11801
▁1893 -11802
▁각료 -11803
▁김승 -11804
▁데드 -11805
▁박성 -11806
▁백악 -11807
▁소대 -11808
▁수량 -11809
▁유족 -11810
▁척도 -11811
▁편향 -11812
▁후유 -11813
▁203 -11814
▁부르고 -11815
▁화장품 -11816
▁갯 -11817
▁격려 -11818
▁리튬 -11819
▁앤디 -11820
▁온화 -11821
▁천마 -11822
▁축전 -11823
▁폐렴 -11824
▁피크 -11825
▁트리오 -11826
▁복음주의 -11827
OW -11828
▁맬 -11829
게임 -11830
▁Fe -11831
▁박상 -11832
▁배드 -11833
▁생리 -11834
▁코네 -11835
▁천천히 -11836
북구 -11837
▁레프 -11838
▁이아 -11839
▁이우 -11840
▁집착 -11841
▁충무 -11842
▁측량 -11843
▁학장 -11844
▁민병대 -11845
퍼레이션 -11846
업자 -11847
▁과시 -11848
▁대종 -11849
▁데일리 -11850
▁가고시마 -11851
gr -11852
세유 -11853
▁영천 -11854
▁교육자 -11855
▁이탈리아어 -11856
ung -11857
▁기쁨 -11858
▁막판 -11859
▁서스 -11860
▁선인 -11861
▁이황 -11862
▁해왕 -11863
라이드 -11864
▁탄자니아 -11865
▁Mo -11866
▁배양 -11867
▁자진 -11868
▁조니 -11869
▁조제 -11870
▁탈취 -11871
▁도자기 -11872
▁로베르 -11873
▁마이크로 -11874
상시 -11875
les -11876
▁NP -11877
▁le -11878
▁심포 -11879
▁접종 -11880
▁하타 -11881
▁동맹군 -11882
▁해안가 -11883
▁갚 -11884
▁톡 -11885
▁김치 -11886
▁도우 -11887
▁서초구 -11888
▁Rock -11889
티에 -11890
화학 -11891
▁간직 -11892
▁여도 -11893
▁우두 -11894
▁헤로 -11895
로이드 -11896
▁관우 -11897
▁애인 -11898
▁하급 -11899
▁노미야 -11900
▁김천 -11901
▁도이 -11902
▁사귀 -11903
▁톱니 -11904
▁헌터 -11905
▁아라곤 -11906
▁초콜릿 -11907
▁후쿠오카현 -11908
들러 -11909
몬트 -11910
비크 -11911
eth -11912
▁관성 -11913
▁금동 -11914
▁미성 -11915
▁불경 -11916
▁심상 -11917
▁유영 -11918
▁한문 -11919
▁한큐 -11920
▁아우르 -11921
▁유적지 -11922
익스피어 -11923
▁Comp -11924
▁핏 -11925
▁공양 -11926
▁림프 -11927
▁플랑크 -11928
▁셰익스피어 -11929
레드 -11930
▁구금 -11931
▁도출 -11932
▁심부 -11933
▁주세 -11934
▁칼슘 -11935
▁비스타 -11936
▁격하 -11937
▁굳히 -11938
▁마타 -11939
▁전미 -11940
루이스 -11941
▁녹색당 -11942
▁컬렉션 -11943
▁레인저스 -11944
▁덥 -11945
▁끓이 -11946
▁아츠 -11947
▁점검 -11948
▁조롱 -11949
▁고려대 -11950
▁케이크 -11951
▁픽처스 -11952
▁견고 -11953
▁버섯 -11954
▁흥분 -11955
▁강화도 -11956
▁글래스 -11957
▁스포르 -11958
▁미나모토 -11959
▁부르고뉴 -11960
▁Univers -11961
▁귀속 -11962
▁바비 -11963
▁오하 -11964
▁장녀 -11965
▁현판 -11966
▁도야마 -11967
▁구독 -11968
▁라흐 -11969
▁명인 -11970
▁버러 -11971
▁소사 -11972
▁아메 -11973
▁TBS -11974
▁사상가 -11975
▁우울증 -11976
oth -11977
▁AB -11978
▁Am -11979
▁대주 -11980
▁배역 -11981
▁시속 -11982
▁에마 -11983
▁페더 -11984
▁Rec -11985
▁불계승 -11986
▁상관없이 -11987
▁까마 -11988
▁노랑 -11989
▁비지 -11990
▁에로 -11991
▁휴양 -11992
▁게오르 -11993
▁다면서 -11994
▁로스쿨 -11995
▁밀려나 -11996
▁발사체 -11997
▁휘말리 -11998
▁러시아군 -11999
▁구치 -12000
▁라즈 -12001
▁무단 -12002
▁물결 -12003
▁서바이 -12004
▁순양함 -12005
▁도카이도 -12006
▁인공위성 -12007
트르 -12008
▁대차 -12009
▁마트 -12010
▁배기 -12011
▁월트 -12012
▁낚시 -12013
▁미츠 -12014
▁발목 -12015
▁상정 -12016
▁심문 -12017
▁청량 -12018
▁특사 -12019
▁황산 -12020
▁230 -12021
▁참모총장 -12022
나기 -12023
▁반동 -12024
▁재차 -12025
▁지난 -12026
▁카레 -12027
▁후하 -12028
그마 -12029
태평 -12030
폭탄 -12031
▁노프 -12032
▁물려주 -12033
▁베르타 -12034
▁프리스 -12035
▁from -12036
▁플로리다주 -12037
▁핼 -12038
▁끼우 -12039
▁대접 -12040
▁연회 -12041
▁온대 -12042
▁침례 -12043
▁파편 -12044
▁GNU -12045
▁스탠리 -12046
▁가르시아 -12047
▁가와사키 -12048
▁에스페란토 -12049
▁Do -12050
▁Sup -12051
▁국제선 -12052
▁마르세유 -12053
국적 -12054
바리 -12055
▁강진 -12056
▁꾸리 -12057
▁나뭇 -12058
▁당뇨 -12059
▁미아 -12060
▁슈타 -12061
▁용품 -12062
▁향기 -12063
▁프로모 -12064
ublic -12065
▁뮐 -12066
헤드 -12067
▁라가 -12068
▁스투 -12069
▁이범 -12070
▁평안도 -12071
▁가부 -12072
▁대진 -12073
▁동종 -12074
▁운임 -12075
▁유포 -12076
민스터 -12077
▁기업가 -12078
▁로빈슨 -12079
▁수차례 -12080
▁지바현 -12081
▁펠리페 -12082
▁중앙은행 -12083
▁Su -12084
▁리차 -12085
▁산수 -12086
▁소용 -12087
▁재발 -12088
▁철강 -12089
▁피사 -12090
▁수나라 -12091
▁박테리아 -12092
▁IV -12093
▁매달 -12094
▁스킴 -12095
▁애초 -12096
▁에바 -12097
▁웃음 -12098
▁제창 -12099
▁페오 -12100
▁으려는 -12101
▁조선왕 -12102
▁율리우스 -12103
유사 -12104
▁울릉 -12105
▁카야 -12106
▁하이퍼 -12107
▁1888 -12108
▁1892 -12109
▁네모 -12110
▁성기 -12111
▁청송 -12112
▁다이빙 -12113
▁로이드 -12114
▁이바라 -12115
▁쫓아내 -12116
▁노스캐롤라이나 -12117
▁깁 -12118
▁닉슨 -12119
▁명부 -12120
▁제철 -12121
▁경계선 -12122
▁사간원 -12123
▁세네갈 -12124
▁쇠고기 -12125
둘기 -12126
▁CG -12127
▁시우 -12128
▁장래 -12129
▁재앙 -12130
▁Car -12131
▁케이트 -12132
AI -12133
▁Sw -12134
▁공법 -12135
▁데미 -12136
▁메틸 -12137
▁소동 -12138
▁유무 -12139
▁세비야 -12140
▁자라나 -12141
연수 -12142
▁납부 -12143
▁백자 -12144
▁사커 -12145
▁아와 -12146
▁허드슨 -12147
▁활동가 -12148
▁우에스기 -12149
▁푹 -12150
▁군데 -12151
▁붕어 -12152
▁사변 -12153
▁사키 -12154
▁살라 -12155
▁원유 -12156
▁주먹 -12157
▁애덤스 -12158
▁절도사 -12159
AE -12160
티노 -12161
홍색 -12162
▁ar -12163
▁모던 -12164
▁순례 -12165
▁시문 -12166
▁옥타 -12167
▁입헌 -12168
▁관현악 -12169
▁굶 -12170
▁강성 -12171
▁고스 -12172
▁공시 -12173
▁새뮤 -12174
▁어의 -12175
▁펠트 -12176
로니아 -12177
▁소학교 -12178
▁스탠드 -12179
▁과잉 -12180
▁낙양 -12181
▁라드 -12182
▁불사 -12183
▁위계 -12184
▁레이디 -12185
▁뱃 -12186
▁맥아 -12187
▁으시 -12188
▁이봉 -12189
미디어 -12190
▁공방전 -12191
▁대명사 -12192
▁대전차 -12193
▁산스크 -12194
▁차세대 -12195
▁산스크리트 -12196
▁면모 -12197
▁반주 -12198
▁자립 -12199
▁코사 -12200
▁고려사 -12201
▁논리학 -12202
▁다카라 -12203
▁대공국 -12204
▁스테판 -12205
▁알렉산드로스 -12206
▁씻 -12207
네트 -12208
다보 -12209
암리 -12210
철수 -12211
▁농축 -12212
▁미미 -12213
▁미식 -12214
▁자코 -12215
▁직계 -12216
▁하임 -12217
▁해병 -12218
▁더블린 -12219
▁아브라 -12220
▁지리학 -12221
▁펩 -12222
사태 -12223
자동 -12224
▁계량 -12225
▁과연 -12226
▁산청 -12227
▁세레 -12228
▁필하 -12229
▁문자열 -12230
▁사절단 -12231
▁후원자 -12232
▁프린스턴 -12233
▁니켈 -12234
▁도르트 -12235
▁볼로냐 -12236
▁1876 -12237
▁데스크톱 -12238
▁펫 -12239
다오 -12240
클라 -12241
▁중고 -12242
▁북조선 -12243
▁올리버 -12244
▁전주시 -12245
▁나름 -12246
▁당황 -12247
▁대금 -12248
▁생모 -12249
▁선양 -12250
▁아다 -12251
▁USB -12252
▁사단장 -12253
▁성매매 -12254
RT -12255
ah -12256
▁겟 -12257
보리 -12258
▁wh -12259
▁댓글 -12260
▁두각 -12261
▁이산 -12262
▁앤서니 -12263
▁프레임워크 -12264
▁거룩 -12265
▁노랗 -12266
▁로브 -12267
▁손녀 -12268
▁수력 -12269
▁죄수 -12270
▁풍습 -12271
▁브래드 -12272
▁아무리 -12273
▁1866 -12274
▁페르난도 -12275
▁간혹 -12276
▁단조 -12277
▁부양 -12278
▁수하 -12279
▁완도 -12280
▁정진 -12281
▁조개 -12282
▁채색 -12283
▁축성 -12284
▁토이 -12285
▁통폐 -12286
리카락 -12287
▁카운트 -12288
▁1886 -12289
▁머리카락 -12290
▁가면라이더 -12291
▁베이시스트 -12292
▁덱 -12293
로쿠 -12294
▁물류 -12295
▁발의 -12296
▁복싱 -12297
▁알폰 -12298
▁포탄 -12299
▁송환 -12300
▁에반 -12301
▁전권 -12302
▁펴내 -12303
▁260 -12304
▁Gre -12305
▁보좌관 -12306
▁서기관 -12307
▁집행유예 -12308
▁프란치스코 -12309
광성 -12310
너드 -12311
▁군관 -12312
▁비우 -12313
▁아디 -12314
▁이호 -12315
▁조현 -12316
▁게시판 -12317
▁장제스 -12318
▁베네딕토 -12319
네임 -12320
뮬러 -12321
코르 -12322
▁너스 -12323
▁앨리 -12324
▁일진 -12325
▁조소 -12326
▁파파 -12327
르타뉴 -12328
▁교구장 -12329
▁조나라 -12330
▁브르타뉴 -12331
▁인플레이션 -12332
▁꽂 -12333
▁도성 -12334
▁번갈 -12335
▁부류 -12336
▁유능 -12337
▁저우 -12338
EST -12339
▁약점 -12340
▁이니 -12341
▁합천 -12342
러뜨리 -12343
▁270 -12344
▁생리학 -12345
▁스테인 -12346
▁구스타프 -12347
분열 -12348
▁co -12349
▁깃털 -12350
▁바시 -12351
▁박수 -12352
▁본체 -12353
▁아쉽 -12354
▁아지 -12355
▁얼룩 -12356
▁엘런 -12357
▁표하 -12358
▁바이어 -12359
▁코소보 -12360
▁웨스트민스터 -12361
라호 -12362
▁신진 -12363
▁잘리 -12364
▁펀드 -12365
▁덩어리 -12366
▁독립군 -12367
▁베이비 -12368
▁이즈미 -12369
▁드미트리 -12370
▁마린 -12371
▁무수 -12372
▁서예 -12373
▁원상 -12374
▁유다 -12375
▁민영화 -12376
▁페미니 -12377
▁Tour -12378
꿈치 -12379
레시 -12380
▁긴키 -12381
▁배척 -12382
▁초전 -12383
▁파커 -12384
▁강서구 -12385
▁새뮤얼 -12386
▁해결책 -12387
큐어 -12388
▁도약 -12389
▁악곡 -12390
▁에리 -12391
▁임계 -12392
▁행방 -12393
▁역사학 -12394
▁용의자 -12395
▁통폐합 -12396
▁마르쿠스 -12397
▁카르타고 -12398
ron -12399
▁도하 -12400
▁라니 -12401
▁제르 -12402
▁현과 -12403
▁간사이 -12404
▁서포터 -12405
▁주니치 -12406
▁1887 -12407
▁모차르트 -12408
우회 -12409
직경 -12410
▁마나 -12411
▁망하 -12412
▁빅뱅 -12413
▁산물 -12414
▁중개 -12415
▁퇴위 -12416
▁경영학 -12417
▁삼각주 -12418
▁쏟아지 -12419
▁KB -12420
▁경무 -12421
▁위패 -12422
▁타구 -12423
▁프루 -12424
▁금나라 -12425
▁시직경 -12426
▁이어주 -12427
▁장난감 -12428
▁1861 -12429
▁프리미엄 -12430
▁펭 -12431
쓰기 -12432
지오 -12433
짜기 -12434
▁ML -12435
▁모라 -12436
▁박자 -12437
▁아자 -12438
▁여타 -12439
▁음운 -12440
▁포츠 -12441
land -12442
▁바람직 -12443
▁보살상 -12444
▁사쓰마 -12445
▁불러들이 -12446
▁브리티시 -12447
슈타 -12448
▁급히 -12449
▁동창 -12450
▁축구팀 -12451
ave -12452
▁습득 -12453
▁출혈 -12454
▁근거지 -12455
▁유전학 -12456
▁화요일 -12457
▁Dream -12458
19 -12459
왕후 -12460
ble -12461
▁광선 -12462
▁슬램 -12463
▁페스 -12464
▁집정관 -12465
하임 -12466
▁Up -12467
▁고창 -12468
▁도제 -12469
▁유머 -12470
▁지아 -12471
▁편안 -12472
▁Wii -12473
른베르크 -12474
▁클레멘스 -12475
▁싹 -12476
제비 -12477
▁가닥 -12478
▁마구 -12479
▁무자 -12480
▁위시 -12481
▁자궁 -12482
▁펠로 -12483
▁장애물 -12484
▁도미니카 -12485
▁볼티모어 -12486
▁재단법인 -12487
▁오산 -12488
▁코호 -12489
▁홈경기 -12490
동자 -12491
비안 -12492
▁SV -12493
▁레트 -12494
▁몰두 -12495
▁세분 -12496
▁1864 -12497
▁Life -12498
▁it -12499
▁버크 -12500
▁올레 -12501
▁정예 -12502
▁직사 -12503
▁특기 -12504
▁형용 -12505
▁환관 -12506
▁단거리 -12507
▁부분군 -12508
코타 -12509
▁라시 -12510
▁여건 -12511
▁유타 -12512
▁천지 -12513
▁돗 -12514
ult -12515
▁슬프 -12516
▁외환 -12517
▁익명 -12518
▁촛불 -12519
▁꺼리 -12520
▁오대 -12521
▁황해도 -12522
▁다행 -12523
▁레버 -12524
▁만점 -12525
▁불분 -12526
▁파직 -12527
▁신세계 -12528
▁코스트 -12529
▁후세인 -12530
DA -12531
▁모국 -12532
▁모닝 -12533
▁사내 -12534
▁양현 -12535
▁완결 -12536
▁자릿 -12537
▁뛰어넘 -12538
▁내포 -12539
▁수이 -12540
▁포화 -12541
▁바로크 -12542
▁1850 -12543
▁석가모니 -12544
열차 -12545
▁기밀 -12546
▁사하 -12547
▁에두 -12548
▁왕관 -12549
▁장전 -12550
솔리니 -12551
▁당선자 -12552
▁데이빗 -12553
린트 -12554
▁교지 -12555
▁발톱 -12556
▁세무 -12557
▁오메 -12558
▁착하 -12559
▁공연장 -12560
▁네티즌 -12561
▁음악원 -12562
▁프랑코 -12563
▁스트리밍 -12564
▁SH -12565
▁경건 -12566
▁뒤늦 -12567
▁개정안 -12568
▁좌표계 -12569
▁카이로 -12570
▁휘두르 -12571
즐리 -12572
콘신 -12573
▁RT -12574
▁구문 -12575
▁리트 -12576
▁스모 -12577
▁승단 -12578
▁재결 -12579
▁증세 -12580
▁지면 -12581
▁혼혈 -12582
▁백악기 -12583
▁보안법 -12584
▁위스콘신 -12585
디슨 -12586
▁복위 -12587
▁잔디 -12588
▁토목 -12589
▁가해자 -12590
▁모나코 -12591
예술 -12592
▁TC -12593
▁건네 -12594
▁실각 -12595
▁예의 -12596
▁다카라즈카 -12597
▁홀딩 -12598
▁홍성 -12599
ition -12600
▁남베트남 -12601
니오 -12602
▁근래 -12603
▁눈치 -12604
▁어우 -12605
▁이력 -12606
▁평탄 -12607
▁히토 -12608
▁노동력 -12609
orm -12610
▁고모 -12611
▁라라 -12612
▁부풀 -12613
▁승하 -12614
▁암모 -12615
▁접합 -12616
▁주나라 -12617
▁토트넘 -12618
▁마을버스 -12619
ational -12620
▁렙 -12621
플린 -12622
▁객원 -12623
▁쓰루 -12624
▁오일 -12625
▁하얀 -12626
▁허블 -12627
▁홈즈 -12628
라호마 -12629
▁보너스 -12630
▁재판부 -12631
▁컨텐츠 -12632
▁Music -12633
▁오클라호마 -12634
▁관내 -12635
▁군세 -12636
▁추존 -12637
▁사들이 -12638
▁생성물 -12639
▁재판관 -12640
▁1881 -12641
EP -12642
▁AG -12643
▁공판 -12644
▁승지 -12645
▁헌납 -12646
바도르 -12647
▁사나이 -12648
▁아카이 -12649
▁헤라클레스 -12650
ton -12651
▁계보 -12652
▁구례 -12653
▁더하 -12654
▁도산 -12655
▁마요 -12656
▁왕성 -12657
▁워킹 -12658
▁쿼크 -12659
▁푸아 -12660
▁참의원 -12661
▁행정동 -12662
▁1830 -12663
▁루스벨트 -12664
브웨 -12665
▁리에 -12666
▁이별 -12667
▁유니버스 -12668
▁강세 -12669
▁고하 -12670
▁방공 -12671
▁백업 -12672
▁삼척 -12673
▁잠실 -12674
▁조심 -12675
▁짐바 -12676
▁침대 -12677
▁황자 -12678
▁미네소타 -12679
▁크리에이 -12680
▁en -12681
▁if -12682
▁말단 -12683
▁매진 -12684
▁민물 -12685
▁발하 -12686
▁알맞 -12687
▁요괴 -12688
▁대표단 -12689
▁압록강 -12690
▁요금소 -12691
▁나마 -12692
▁남송 -12693
▁재벌 -12694
▁차수 -12695
▁카와 -12696
▁편하 -12697
▁필연 -12698
▁대교구 -12699
▁구획 -12700
▁선율 -12701
▁아타 -12702
▁엿보 -12703
▁전리 -12704
▁정황 -12705
▁패권 -12706
▁관련자 -12707
▁무작위 -12708
▁여학생 -12709
▁DR -12710
▁괘불 -12711
▁기통 -12712
▁배트 -12713
▁챙기 -12714
▁판관 -12715
▁남조 -12716
▁목욕 -12717
▁복직 -12718
▁산기 -12719
▁자판 -12720
▁돋보이 -12721
▁로맨틱 -12722
▁합창단 -12723
▁컴파일러 -12724
렌스 -12725
▁경도 -12726
▁러닝 -12727
▁마티 -12728
▁세간 -12729
▁전교 -12730
▁찍히 -12731
▁야구단 -12732
▁외무부 -12733
▁화성시 -12734
▁낭만주의 -12735
▁도라에몽 -12736
뛰기 -12737
화경 -12738
▁경매 -12739
▁관용 -12740
▁닛산 -12741
▁다비 -12742
▁동차 -12743
▁벌레 -12744
▁뷰티 -12745
▁소라 -12746
▁오우 -12747
▁현미 -12748
▁해석학 -12749
▁1872 -12750
▁대한항공 -12751
▁오스트리 -12752
▁Ed -12753
▁발자 -12754
▁스몰 -12755
▁신봉 -12756
▁아편 -12757
▁조경 -12758
▁종업 -12759
ject -12760
▁까마귀 -12761
▁반대파 -12762
라이어티 -12763
아메리카 -12764
▁버라이어티 -12765
타입 -12766
▁XP -12767
▁딸리 -12768
▁익산 -12769
▁코난 -12770
▁흑백 -12771
▁iOS -12772
▁마르셀 -12773
▁부르주아 -12774
▁트레이닝 -12775
▁꿰 -12776
▁대강 -12777
▁발포 -12778
▁별장 -12779
▁스기 -12780
▁스윙 -12781
▁이누 -12782
▁콘티 -12783
평리 -12784
▁등등 -12785
▁로니 -12786
▁미상 -12787
▁삭스 -12788
▁쿠로 -12789
▁투하 -12790
▁파주 -12791
▁감리교 -12792
▁불분명 -12793
▁기고 -12794
▁시원 -12795
▁다비드 -12796
▁이메일 -12797
▁세르게이 -12798
▁이시카와 -12799
께끼 -12800
ION -12801
▁레비 -12802
▁부전 -12803
▁양면 -12804
▁용사 -12805
▁의례 -12806
▁파열 -12807
▁750 -12808
▁피닉스 -12809
▁수수께끼 -12810
덕왕 -12811
▁교제 -12812
▁금고 -12813
▁루나 -12814
▁체하 -12815
▁팔작 -12816
▁다시금 -12817
▁선제골 -12818
▁무솔리니 -12819
림사 -12820
비오 -12821
▁an -12822
▁김희 -12823
▁당진 -12824
▁야망 -12825
▁여호 -12826
▁인제 -12827
▁종묘 -12828
▁중랑 -12829
▁트란 -12830
슬라프 -12831
▁라치오 -12832
▁롬바르 -12833
▁범죄자 -12834
▁Open -12835
▁엡 -12836
▁꼬마 -12837
▁두어 -12838
▁배아 -12839
▁애슬 -12840
▁지경 -12841
▁파기 -12842
브리드 -12843
▁난이도 -12844
▁도르트문트 -12845
나파 -12846
루크 -12847
▁교동 -12848
▁매스 -12849
▁베일 -12850
▁애완 -12851
▁이례 -12852
▁이은 -12853
▁진흙 -12854
▁친밀 -12855
▁켄터 -12856
▁햇빛 -12857
▁농어촌 -12858
▁라이스 -12859
▁화학자 -12860
▁대중교통 -12861
▁유라시아 -12862
달마 -12863
쿠니 -12864
▁BL -12865
▁레아 -12866
▁메우 -12867
▁몸돌 -12868
▁생도 -12869
▁승상 -12870
▁양조 -12871
▁원동 -12872
▁주고 -12873
▁모멘트 -12874
어드 -12875
클럽 -12876
▁배향 -12877
▁복역 -12878
▁캐피 -12879
▁기획사 -12880
▁아이콘 -12881
번에 -12882
▁te -12883
▁그란 -12884
▁당과 -12885
▁반죽 -12886
▁변종 -12887
▁샤이 -12888
태평양 -12889
▁센다이 -12890
▁하얀색 -12891
▁부다페스트 -12892
▁경량 -12893
▁단국 -12894
▁도봉 -12895
▁음주 -12896
▁의용 -12897
▁페라 -12898
▁Don -12899
▁개체군 -12900
▁앞세우 -12901
▁청년회 -12902
▁초록색 -12903
데자 -12904
▁Ab -12905
▁조시 -12906
▁호크스 -12907
데자네이 -12908
▁1865 -12909
▁하이브리드 -12910
▁쵸 -12911
더지 -12912
ics -12913
▁Sm -12914
▁닌자 -12915
▁모란 -12916
▁발산 -12917
▁브렌 -12918
▁순항 -12919
▁청문 -12920
▁탄산 -12921
▁허목 -12922
▁격투기 -12923
▁유전체 -12924
ru -12925
▁넥센 -12926
▁취향 -12927
▁통지 -12928
▁휩싸 -12929
리아스 -12930
올로기 -12931
▁파충류 -12932
▁1863 -12933
▁이데올로기 -12934
▁살짝 -12935
▁열렬 -12936
▁장쑤 -12937
▁계승자 -12938
▁세군다 -12939
▁승용차 -12940
▁폼페이 -12941
매김 -12942
바인 -12943
ier -12944
▁가든 -12945
▁슈고 -12946
▁오트 -12947
▁인위 -12948
▁작년 -12949
▁탐험가 -12950
워즈 -12951
▁가독 -12952
▁거꾸 -12953
▁기쁘 -12954
▁보정 -12955
▁옹주 -12956
▁티모 -12957
▁밀가루 -12958
▁박영효 -12959
▁시간대 -12960
▁작품상 -12961
▁과다 -12962
▁납작 -12963
▁잠기 -12964
▁토로 -12965
▁한창 -12966
▁그나마 -12967
▁타임즈 -12968
▁항아리 -12969
▁1873 -12970
▁"- -12971
▁내재 -12972
▁대의 -12973
▁입시 -12974
▁처방 -12975
▁피카 -12976
▁경복궁 -12977
▁안산시 -12978
▁챌린저 -12979
▁AL -12980
▁반항 -12981
▁봉황 -12982
▁부실 -12983
▁왓슨 -12984
▁조공 -12985
▁편제 -12986
▁피셔 -12987
변속기 -12988
▁고성군 -12989
단위 -12990
리쿠 -12991
▁덴쇼 -12992
▁코마 -12993
▁승정원 -12994
▁1891 -12995
▁HTML -12996
▁교통사고 -12997
▁오카야마 -12998
데자네이루 -12999
▁Night -13000
▁리우데자네이루 -13001
리야 -13002
▁리브 -13003
▁벌리 -13004
▁조장 -13005
▁충당 -13006
▁클릭 -13007
▁탐정 -13008
▁포대 -13009
▁발기인 -13010
▁우간다 -13011
▁제프리 -13012
▁Good -13013
▁공군기지 -13014
▁자리매김 -13015
친왕 -13016
▁고난 -13017
▁대목 -13018
▁볼넷 -13019
▁직관 -13020
▁킹스 -13021
▁유니언 -13022
라르 -13023
ool -13024
▁곡면 -13025
▁메츠 -13026
▁태아 -13027
▁경지 -13028
▁계좌 -13029
▁곱셈 -13030
▁부추 -13031
▁어촌 -13032
▁요즘 -13033
▁정명 -13034
▁착취 -13035
▁공식전 -13036
▁앤드류 -13037
▁샵 -13038
스레 -13039
▁경마 -13040
▁구슬 -13041
▁굴복 -13042
▁두텁 -13043
▁란스 -13044
▁루즈 -13045
▁병단 -13046
▁야심 -13047
▁재고 -13048
▁페인 -13049
▁아이디얼 -13050
▁쩔 -13051
쿠르 -13052
훈장 -13053
▁가비 -13054
▁모함 -13055
▁박진 -13056
▁법전 -13057
▁입술 -13058
▁철종 -13059
▁조선소 -13060
▁켄터키 -13061
▁베스트셀러 -13062
▁괜 -13063
미쓰 -13064
▁걸작 -13065
▁머니 -13066
▁미인 -13067
▁신대 -13068
▁픽셀 -13069
▁ret -13070
▁공통점 -13071
▁국민회 -13072
▁발가락 -13073
▁여진족 -13074
▁구강 -13075
▁급하 -13076
▁시진 -13077
▁완비 -13078
▁촉발 -13079
▁와이드 -13080
TE -13081
UC -13082
거나 -13083
타스 -13084
ise -13085
▁-- -13086
▁고마 -13087
▁과격 -13088
▁여대 -13089
▁자켓 -13090
▁카슈 -13091
▁해킹 -13092
이스케 -13093
▁수시로 -13094
▁세계유산 -13095
▁짐바브웨 -13096
린더 -13097
바지 -13098
che -13099
▁쇼크 -13100
▁적발 -13101
▁필두 -13102
▁후미 -13103
QL -13104
▁반점 -13105
▁상파 -13106
▁다국적 -13107
▁받침돌 -13108
▁자유형 -13109
▁제너럴 -13110
▁테무르 -13111
참찬 -13112
▁단자 -13113
▁마모 -13114
▁튼튼 -13115
▁합금 -13116
▁매달리 -13117
▁포항시 -13118
ai -13119
▁NS -13120
▁극찬 -13121
▁도도 -13122
▁리자 -13123
▁매립 -13124
▁분경 -13125
▁불로 -13126
▁비키 -13127
▁위법 -13128
▁유태 -13129
▁코뮌 -13130
▁혈압 -13131
▁몰도바 -13132
▁시티즌 -13133
▁PM -13134
▁국호 -13135
▁매도 -13136
▁외상 -13137
▁용감 -13138
stem -13139
▁노르드 -13140
▁릴레이 -13141
▁백악관 -13142
▁온타리오주 -13143
NG -13144
동맹 -13145
▁계엄 -13146
▁등단 -13147
▁라크 -13148
▁리키 -13149
▁아뢰 -13150
▁이야 -13151
▁최장 -13152
▁IMF -13153
▁종업원 -13154
▁댈 -13155
레반 -13156
무제 -13157
▁당당 -13158
▁세단 -13159
▁소작 -13160
▁주저 -13161
플렉스 -13162
레타리아 -13163
▁프롤레타리아 -13164
ode -13165
▁MA -13166
▁신의 -13167
▁오즈 -13168
▁해시 -13169
▁헤어 -13170
▁Can -13171
▁캐스트 -13172
▁Black -13173
▁켜 -13174
성경 -13175
▁나탈 -13176
▁무고 -13177
▁에치 -13178
▁하스 -13179
▁흔들 -13180
▁거꾸로 -13181
▁다마스 -13182
▁하반기 -13183
▁야쿠르트 -13184
▁팔작지붕 -13185
▁간판 -13186
▁교서 -13187
▁구시 -13188
▁병과 -13189
▁연행 -13190
▁현무 -13191
부아르 -13192
합중국 -13193
▁슬로건 -13194
상어 -13195
세다 -13196
킨슨 -13197
▁네임 -13198
▁산책 -13199
▁서지 -13200
▁양궁 -13201
▁양양 -13202
▁연화 -13203
▁조준 -13204
▁체내 -13205
▁650 -13206
▁트로트 -13207
70 -13208
▁믈 -13209
▁샴 -13210
▁콧 -13211
▁서위 -13212
▁파랑 -13213
▁김성수 -13214
▁서두르 -13215
▁연주회 -13216
▁크루즈 -13217
▁을사 -13218
▁증강 -13219
▁채굴 -13220
▁키즈 -13221
ower -13222
▁반정부 -13223
▁지자체 -13224
▁무로마치 -13225
▁삼국유사 -13226
▁스테이트 -13227
▁이바라키 -13228
▁페르디난트 -13229
▁삐 -13230
▁버펄 -13231
▁황폐 -13232
▁피츠버그 -13233
▁강호 -13234
▁광배 -13235
▁앵커 -13236
▁우마 -13237
▁이강 -13238
▁헌병 -13239
선거구 -13240
▁550 -13241
▁조선왕조 -13242
▁section -13243
조리 -13244
▁qu -13245
▁농성 -13246
▁부에 -13247
▁진원 -13248
▁토유 -13249
▁용산구 -13250
▁1867 -13251
▁국부 -13252
▁문정 -13253
▁터빈 -13254
타나베 -13255
▁705 -13256
▁Let -13257
▁미카엘 -13258
▁취리히 -13259
▁아비달마 -13260
▁심정 -13261
▁아델 -13262
▁엘라 -13263
▁연달 -13264
▁전멸 -13265
▁진언 -13266
▁타도 -13267
▁피어 -13268
▁해지 -13269
▁스코어 -13270
▁1862 -13271
티야 -13272
ank -13273
▁무도 -13274
▁송진 -13275
▁캐논 -13276
▁앨버트 -13277
▁자외선 -13278
▁빠져나가 -13279
▁q -13280
고르 -13281
대전 -13282
진구 -13283
펠러 -13284
▁El -13285
▁군자 -13286
▁대담 -13287
▁맞춤 -13288
▁사교 -13289
▁산신 -13290
▁열쇠 -13291
스코트 -13292
▁스테이 -13293
▁AI -13294
▁MM -13295
▁경은 -13296
▁독주 -13297
▁모반 -13298
▁온건 -13299
▁조어 -13300
▁증발 -13301
▁현도 -13302
▁활자 -13303
▁광업 -13304
▁국력 -13305
▁씌우 -13306
▁예종 -13307
드라마 -13308
▁아오모리 -13309
▁이노우에 -13310
▁코호몰로지 -13311
▁광자 -13312
▁접전 -13313
▁투신 -13314
▁경희대 -13315
▁노르만 -13316
▁언론사 -13317
▁엑스포 -13318
해살이풀 -13319
▁미합중국 -13320
▁라이프치히 -13321
방군 -13322
정사 -13323
▁루피 -13324
▁북벌 -13325
▁스킬 -13326
▁위헌 -13327
▁잔존 -13328
▁조서 -13329
ings -13330
▁손잡이 -13331
▁알폰소 -13332
곡면 -13333
포타 -13334
▁수퍼 -13335
▁처장 -13336
▁흡연 -13337
▁다이노스 -13338
렐라 -13339
리언 -13340
활약 -13341
▁AU -13342
▁저축 -13343
▁치이 -13344
▁MSL -13345
▁증조부 -13346
▁프로모션 -13347
▁Ac -13348
▁걸프 -13349
▁서한 -13350
▁유구 -13351
▁지탱 -13352
▁처치 -13353
세우스 -13354
▁변광성 -13355
▁타이탄 -13356
중추부사 -13357
▁국민학교 -13358
▁노브 -13359
▁사드 -13360
▁양군 -13361
▁완수 -13362
▁코모 -13363
▁표절 -13364
▁맹활약 -13365
포타미아 -13366
▁6000 -13367
▁사이타마현 -13368
▁메소포타미아 -13369
▁간결 -13370
▁상선 -13371
▁증식 -13372
▁지그 -13373
▁연출가 -13374
▁페드로 -13375
DS -13376
▁썩 -13377
투르 -13378
▁LS -13379
▁변증 -13380
▁오보 -13381
▁옥시 -13382
▁유망 -13383
절도사 -13384
▁건륭제 -13385
▁낡 -13386
▁캣 -13387
▁UC -13388
▁기묘 -13389
▁변모 -13390
▁보직 -13391
▁성수 -13392
▁레인저 -13393
▁사무국 -13394
▁사보이 -13395
비언 -13396
인구 -13397
▁도발 -13398
▁번개 -13399
▁장신 -13400
▁캐치 -13401
▁신한은행 -13402
센터 -13403
lar -13404
▁신해 -13405
▁쿠라 -13406
▁티저 -13407
▁횡령 -13408
▁곁들이 -13409
▁-& -13410
▁꽃잎 -13411
▁무너 -13412
▁온두 -13413
▁유림 -13414
▁조석 -13415
▁키릴 -13416
▁무너뜨리 -13417
▁온두라스 -13418
북면 -13419
▁가물 -13420
▁고찰 -13421
▁나사 -13422
▁자행 -13423
▁충칭 -13424
▁푸드 -13425
▁대리석 -13426
▁신기록 -13427
▁일본식 -13428
▁출입문 -13429
▁편집장 -13430
▁궐 -13431
디언 -13432
사화 -13433
위치 -13434
▁감염증 -13435
▁기원후 -13436
▁무사히 -13437
▁1878 -13438
▁미나모토노 -13439
ky -13440
▁동자 -13441
▁세토 -13442
▁엘레 -13443
▁참패 -13444
▁협동조합 -13445
tr -13446
젤로 -13447
▁그거 -13448
▁버진 -13449
▁작중 -13450
▁차림 -13451
▁표출 -13452
▁하중 -13453
▁회유 -13454
rist -13455
▁라면서 -13456
▁웨이브 -13457
▁치료제 -13458
▁타타르 -13459
▁비스마르크 -13460
▁팍 -13461
퉁이 -13462
할린 -13463
▁동탁 -13464
▁스톰 -13465
▁절약 -13466
▁직교 -13467
▁경쟁자 -13468
▁제조사 -13469
▁고등학생 -13470
▁뵈 -13471
구나 -13472
▁당파 -13473
▁완만 -13474
▁지린 -13475
▁Ser -13476
▁갈아타 -13477
▁마그네 -13478
▁부여군 -13479
▁자릿수 -13480
▁컴파일 -13481
▁프로테 -13482
▁되돌아가 -13483
ta -13484
▁밋 -13485
▁Qu -13486
▁시역 -13487
▁충신 -13488
▁필명 -13489
▁행군 -13490
▁주고받 -13491
▁백과사전 -13492
ee -13493
▁가극 -13494
▁급성 -13495
▁내란 -13496
▁옥천 -13497
▁자부 -13498
▁적정 -13499
▁중용 -13500
▁히노 -13501
hem -13502
▁국인 -13503
▁보류 -13504
▁시르 -13505
▁으러 -13506
▁후드 -13507
▁HMS -13508
▁사대부 -13509
▁입법부 -13510
▁프리츠 -13511
▁해부학 -13512
빌리 -13513
일치 -13514
▁Ag -13515
▁바쿠 -13516
▁손님 -13517
▁이끼 -13518
▁점진 -13519
▁정박 -13520
▁청각 -13521
플로러 -13522
▁홀딩스 -13523
▁익스플로러 -13524
▁널 -13525
시게 -13526
▁괄호 -13527
▁다량 -13528
▁라다 -13529
▁서거 -13530
▁영사 -13531
▁지체 -13532
시아드 -13533
▁And -13534
▁이성질 -13535
▁인지도 -13536
▁플러그 -13537
▁개기 -13538
▁고국 -13539
▁길드 -13540
▁잉크 -13541
▁직물 -13542
▁불가피 -13543
▁유엔군 -13544
▁스케이트 -13545
▁유니버시아드 -13546
▁ㅣ -13547
▁킷 -13548
내티 -13549
산부 -13550
▁부군 -13551
▁스에 -13552
▁일선 -13553
▁일설 -13554
▁저해 -13555
▁참수 -13556
▁현악 -13557
▁802 -13558
▁뉴기니 -13559
▁액세스 -13560
▁외교부 -13561
▁1869 -13562
▁신시내티 -13563
▁프라이즈 -13564
▁일리노이주 -13565
▁팻 -13566
▁맛보 -13567
▁매슈 -13568
▁서점 -13569
▁수레 -13570
▁용해 -13571
▁지문 -13572
뉴기니 -13573
▁수비대 -13574
▁이브스 -13575
▁특별법 -13576
사우루스 -13577
▁글로브상 -13578
▁요리토모 -13579
▁밧 -13580
니티 -13581
다발 -13582
루엔 -13583
▁과자 -13584
▁수당 -13585
▁유화 -13586
▁피처 -13587
▁제작진 -13588
▁플루토 -13589
▁핵분열 -13590
벤션 -13591
▁SO -13592
▁부두 -13593
▁북대 -13594
▁상의 -13595
▁수급 -13596
▁애기 -13597
▁잔해 -13598
▁골짜기 -13599
▁베르나 -13600
▁봉우리 -13601
▁업로드 -13602
▁후지와라 -13603
▁썬 -13604
마디 -13605
▁tr -13606
▁근방 -13607
▁기조 -13608
▁대타 -13609
▁몸체 -13610
▁벵골 -13611
▁소피 -13612
▁육식 -13613
▁폴라 -13614
▁행보 -13615
▁마포구 -13616
▁와타나베 -13617
▁코퍼레이션 -13618
정보 -13619
▁가방 -13620
▁객실 -13621
▁박원 -13622
▁이목 -13623
▁방위군 -13624
▁와세다 -13625
▁쿠르드 -13626
누마 -13627
▁강우 -13628
▁용수 -13629
▁추후 -13630
▁며느리 -13631
▁포뮬러 -13632
▁스파이더 -13633
▁프랑스와 -13634
▁쫓기 -13635
▁헤더 -13636
▁사생활 -13637
▁아이젠 -13638
▁페르미 -13639
셔주 -13640
▁솔라 -13641
▁자정 -13642
▁수도회 -13643
▁원자핵 -13644
▁아우구스 -13645
ae -13646
▁로시 -13647
▁면직 -13648
▁민심 -13649
가르트 -13650
▁1840 -13651
▁낯 -13652
▁냐고 -13653
▁다목 -13654
▁모티 -13655
▁토키 -13656
▁포천 -13657
▁포탑 -13658
▁형주 -13659
▁기동전 -13660
▁1592 -13661
▁Song -13662
▁키르기스 -13663
▁무비 -13664
▁무색 -13665
▁반입 -13666
▁변질 -13667
▁자처 -13668
▁텍스 -13669
▁패킷 -13670
스타인 -13671
▁강력히 -13672
▁글렌 -13673
▁목동 -13674
▁성품 -13675
▁시시 -13676
▁오자 -13677
▁콜드 -13678
▁연예계 -13679
▁오스카 -13680
▁장로회 -13681
▁명성황후 -13682
▁친선경기 -13683
▁탬 -13684
세르 -13685
▁고을 -13686
▁귀인 -13687
▁부관 -13688
▁축일 -13689
▁치사 -13690
▁항생 -13691
▁안동시 -13692
▁영유권 -13693
▁팔꿈치 -13694
▁프라임 -13695
▁PL -13696
▁단서 -13697
▁벤츠 -13698
▁소박 -13699
▁숙소 -13700
▁절친 -13701
▁토라 -13702
▁떠올리 -13703
▁생화학 -13704
노르 -13705
암사 -13706
▁AA -13707
▁금색 -13708
▁단역 -13709
▁빈민 -13710
▁사소 -13711
▁위도 -13712
ount -13713
▁516 -13714
▁바닷물 -13715
▁운동량 -13716
▁인코딩 -13717
▁매킨토시 -13718
▁사이언스 -13719
▁벳 -13720
▁가곡 -13721
▁더러 -13722
▁사부 -13723
▁컴필 -13724
▁헤겔 -13725
▁금강산 -13726
▁목적지 -13727
▁파시스트 -13728
▁컴필레이션 -13729
자원 -13730
티컷 -13731
▁거사 -13732
▁그물 -13733
▁논산 -13734
▁린다 -13735
▁출국 -13736
▁포자 -13737
▁로타르 -13738
▁리차드 -13739
▁부등식 -13740
▁여객기 -13741
▁운전자 -13742
▁유년기 -13743
▁코네티컷 -13744
▁크리스티나 -13745
수염 -13746
찬성 -13747
▁RC -13748
▁괜찮 -13749
▁넘버 -13750
▁분별 -13751
▁위즈 -13752
▁최하 -13753
▁지하역 -13754
▁데카르트 -13755
pr -13756
네르 -13757
▁국세 -13758
▁렉스 -13759
▁바쁘 -13760
▁상식 -13761
▁자취 -13762
▁추축 -13763
▁쿼터 -13764
▁풍기 -13765
▁하수 -13766
▁Mon -13767
▁맥아더 -13768
구스 -13769
작전 -13770
ade -13771
per -13772
▁공상 -13773
▁빅터 -13774
▁수만 -13775
▁자루 -13776
▁패망 -13777
▁채권자 -13778
▁로드리게스 -13779
▁랙 -13780
▁성가 -13781
▁영미 -13782
▁그래도 -13783
▁네이트 -13784
▁예언자 -13785
▁패스트 -13786
▁레지스터 -13787
▁마스코트 -13788
ata -13789
▁끌리 -13790
▁병풍 -13791
▁악명 -13792
▁영수 -13793
▁튜브 -13794
▁휘발 -13795
▁힐베르트 -13796
▁아나톨리아 -13797
▁닉스 -13798
▁다쓰 -13799
▁베라 -13800
▁아어 -13801
▁암수 -13802
▁어사 -13803
▁천상 -13804
▁캐슬 -13805
▁과반수 -13806
▁시니어 -13807
▁엇갈리 -13808
▁파주시 -13809
▁휩싸이 -13810
▁Heart -13811
▁여우원숭이 -13812
블릿 -13813
▁거창 -13814
▁양파 -13815
▁유자 -13816
▁하라 -13817
▁구단주 -13818
크라테스 -13819
▁심리학자 -13820
부시 -13821
▁me -13822
▁고제 -13823
▁디나 -13824
▁마레 -13825
▁블러 -13826
▁자질 -13827
▁헤일 -13828
▁댈러스 -13829
▁뒤따르 -13830
▁에이전트 -13831
▁볶 -13832
날드 -13833
효소 -13834
▁유이 -13835
▁인승 -13836
▁저그 -13837
▁출세 -13838
▁글러브 -13839
▁창립자 -13840
▁return -13841
▁KN -13842
▁강인 -13843
▁규율 -13844
▁란트 -13845
▁루도 -13846
▁박히 -13847
▁백조 -13848
▁삭감 -13849
▁심소 -13850
▁염화 -13851
▁스트림 -13852
▁필사본 -13853
90 -13854
히메 -13855
▁DB -13856
▁Pe -13857
▁ab -13858
▁계룡 -13859
▁국화 -13860
▁능가 -13861
▁발착 -13862
▁성대 -13863
▁유골 -13864
▁입출 -13865
▁전단 -13866
▁청취 -13867
▁관심사 -13868
▁세미나 -13869
▁적십자 -13870
▁종착역 -13871
▁테크놀 -13872
▁히타치 -13873
▁8000 -13874
▁지장보살 -13875
선언 -13876
어하 -13877
테랑 -13878
▁반론 -13879
▁에트 -13880
▁오도 -13881
▁워스 -13882
▁중견 -13883
▁초음 -13884
▁탁구 -13885
이치로 -13886
▁나치오 -13887
▁농가 -13888
▁문중 -13889
▁미학 -13890
▁사주 -13891
▁시찰 -13892
▁실상 -13893
▁쌍성 -13894
▁의주 -13895
▁이카 -13896
▁지요 -13897
▁흥원 -13898
▁안타깝 -13899
▁Windows -13900
▁펜실베이니아주 -13901
수단 -13902
ium -13903
▁Gl -13904
▁겸직 -13905
▁다름 -13906
▁뒤지 -13907
▁변혁 -13908
▁스택 -13909
▁이심 -13910
▁임종 -13911
▁직렬 -13912
▁페레 -13913
▁비둘기 -13914
▁지질학 -13915
▁되돌아오 -13916
▁와카야마 -13917
▁아나키스트 -13918
▁권익 -13919
▁김연 -13920
▁들르 -13921
▁바보 -13922
▁상과 -13923
▁온실 -13924
▁담당자 -13925
▁보유자 -13926
▁크메르 -13927
▁남아시아 -13928
▁영등포구 -13929
전선 -13930
히데 -13931
▁라프 -13932
▁여포 -13933
▁오시 -13934
▁퀴즈 -13935
▁어도비 -13936
▁그린란드 -13937
▁세인트루이스 -13938
IX -13939
어가 -13940
▁기행 -13941
▁바인 -13942
▁베오 -13943
▁사와 -13944
▁설리 -13945
▁어선 -13946
▁연중 -13947
▁왜군 -13948
▁질투 -13949
▁안창호 -13950
▁1875 -13951
▁고등교육 -13952
IF -13953
던트 -13954
▁뉴런 -13955
▁니케 -13956
▁윤휴 -13957
▁침식 -13958
▁피살 -13959
▁호그 -13960
▁치료법 -13961
▁알프레드 -13962
넌트 -13963
조사 -13964
▁As -13965
▁걸음 -13966
▁몹시 -13967
▁볼록 -13968
▁숙련 -13969
▁외면 -13970
▁은밀 -13971
▁의복 -13972
▁정오 -13973
▁토요타 -13974
놀드 -13975
링겐 -13976
뻐하 -13977
욕장 -13978
테이 -13979
▁Aw -13980
▁신지 -13981
▁외척 -13982
▁잠입 -13983
▁조비 -13984
▁호른 -13985
▁기뻐하 -13986
▁시미즈 -13987
▁예비역 -13988
▁진주시 -13989
▁헤르만 -13990
구니 -13991
▁동호 -13992
▁막강 -13993
▁위크 -13994
▁Out -13995
▁집단군 -13996
계사 -13997
▁강습 -13998
▁귀엽 -13999
▁사각 -14000
▁상동 -14001
▁착각 -14002
▁컵스 -14003
▁키드 -14004
▁키리 -14005
▁파랗 -14006
▁해트 -14007
▁교파 -14008
▁수증 -14009
▁유카 -14010
▁준동 -14011
▁친화 -14012
▁KTX -14013
▁고문서 -14014
▁나리타 -14015
▁모자이크 -14016
▁교훈 -14017
▁노현 -14018
▁디바 -14019
▁면담 -14020
▁미지 -14021
▁열세 -14022
▁오마 -14023
▁웍스 -14024
▁출품 -14025
▁Gen -14026
▁강대국 -14027
▁보리스 -14028
▁이와테 -14029
▁뉘른베르크 -14030
▁랠 -14031
기즈 -14032
▁기린 -14033
▁독살 -14034
▁어부 -14035
▁콜린 -14036
▁타나 -14037
▁혼잡 -14038
세데스 -14039
▁이랜드 -14040
▁학술지 -14041
▁근본번뇌 -14042
기아 -14043
날레 -14044
탄두 -14045
▁도적 -14046
▁예프 -14047
▁표제 -14048
▁종사자 -14049
▁표트르 -14050
▁회고록 -14051
▁메르세데스 -14052
보당 -14053
▁방울 -14054
▁슈투 -14055
▁일명 -14056
▁징집 -14057
▁철자 -14058
▁일부러 -14059
▁피의자 -14060
사유 -14061
이에 -14062
son -14063
▁VS -14064
▁노원 -14065
▁문체 -14066
▁선상 -14067
▁여럿 -14068
▁원단 -14069
▁이선 -14070
▁인먼 -14071
▁최남 -14072
▁취직 -14073
▁폐허 -14074
레이트 -14075
▁사이즈 -14076
▁클리어 -14077
▁쳐들어오 -14078
▁페널티킥 -14079
itt -14080
▁로사 -14081
▁목장 -14082
▁불복 -14083
▁생원 -14084
▁셔틀 -14085
▁야수 -14086
▁한민 -14087
▁게임기 -14088
▁리스본 -14089
▁친환경 -14090
▁남양주시 -14091
▁김두 -14092
▁순식 -14093
▁용지 -14094
▁절충 -14095
▁첩보 -14096
▁터너 -14097
▁컨벤션 -14098
▁안드로메다 -14099
BI -14100
세서 -14101
▁sh -14102
▁다자 -14103
▁닥치 -14104
▁서약 -14105
▁월화 -14106
▁텐서 -14107
에이고 -14108
▁380 -14109
▁AMD -14110
▁데이트 -14111
▁돌고래 -14112
▁매디슨 -14113
▁함경도 -14114
▁끌어올리 -14115
▁샌디에이고 -14116
▁리크 -14117
▁에레 -14118
▁의정 -14119
▁이희 -14120
▁즐거 -14121
▁집전 -14122
▁송파구 -14123
▁눌 -14124
▁땀 -14125
▁니까 -14126
▁달콤 -14127
▁실명 -14128
▁아노 -14129
▁율법 -14130
▁의성 -14131
▁태안 -14132
록대부 -14133
▁성폭행 -14134
▁스케치 -14135
▁스피커 -14136
▁칭기즈 -14137
▁테오도 -14138
▁통도사 -14139
▁몽고메리 -14140
▁병자호란 -14141
▁브란덴부르크 -14142
▁기운 -14143
▁로큰 -14144
▁특공 -14145
▁강희제 -14146
▁아세틸 -14147
▁통신망 -14148
▁파라오 -14149
PA -14150
방향 -14151
▁ㄴ단 -14152
▁디디 -14153
▁문관 -14154
▁버트 -14155
▁왕래 -14156
▁북극점 -14157
▁이사벨 -14158
▁장갑차 -14159
▁중앙선 -14160
▁채무자 -14161
▁클레어 -14162
▁항공대 -14163
더링 -14164
어류 -14165
ale -14166
▁TS -14167
▁금정 -14168
▁기판 -14169
▁단양 -14170
▁비료 -14171
▁선체 -14172
▁안중 -14173
▁예식 -14174
▁타쿠 -14175
▁활기 -14176
able -14177
▁레스터 -14178
▁쇼핑몰 -14179
▁행해지 -14180
▁포르투갈어 -14181
은사 -14182
▁바늘 -14183
▁배반 -14184
▁성행 -14185
▁베르트 -14186
▁부적절 -14187
▁싫어하 -14188
▁크라운 -14189
▁싯 -14190
알라 -14191
엽수 -14192
▁생쥐 -14193
▁일차 -14194
▁체로 -14195
▁환율 -14196
▁획기 -14197
▁가환환 -14198
▁광둥성 -14199
▁다이쇼 -14200
▁로큰롤 -14201
▁마주치 -14202
▁상반기 -14203
▁슈타인 -14204
▁감기 -14205
▁구루 -14206
▁슬리 -14207
▁영락 -14208
▁원효 -14209
▁정언 -14210
해방군 -14211
▁꽃차례 -14212
▁신석기 -14213
▁연속극 -14214
▁프론트 -14215
▁쇼트트랙 -14216
▁바빌로니아 -14217
▁인민해방군 -14218
부대 -14219
세키 -14220
▁KO -14221
▁결전 -14222
▁극소 -14223
▁레몬 -14224
▁명상 -14225
▁서당 -14226
▁세일 -14227
▁술라 -14228
▁칸트 -14229
▁포인 -14230
▁로버츠 -14231
▁야마다 -14232
▁파스칼 -14233
ng -14234
윽고 -14235
크리 -14236
▁교관 -14237
▁동거 -14238
▁야권 -14239
▁양지 -14240
▁"() -14241
▁아리랑 -14242
▁이윽고 -14243
▁저널리스트 -14244
UN -14245
두사 -14246
르카 -14247
▁교화 -14248
▁모질 -14249
▁장정 -14250
▁바나나 -14251
▁코트디 -14252
▁코트디부아르 -14253
▁가세 -14254
▁구세 -14255
▁기공 -14256
▁기마 -14257
▁라울 -14258
▁방호 -14259
▁스펜 -14260
▁실은 -14261
▁안식 -14262
▁애착 -14263
▁중일 -14264
▁되풀이 -14265
▁비단털 -14266
▁최성기 -14267
▁오프라인 -14268
몽골 -14269
촌리 -14270
▁거머 -14271
▁구타 -14272
▁로바 -14273
▁모피 -14274
▁박재 -14275
▁안톤 -14276
▁엔젤 -14277
▁이질 -14278
▁출격 -14279
루엔자 -14280
▁Par -14281
스코리아 -14282
▁비단털쥐 -14283
▁보컬리스트 -14284
▁벙 -14285
시대 -14286
▁가모 -14287
▁모체 -14288
▁보우 -14289
▁수마 -14290
▁수은 -14291
▁염두 -14292
▁차명 -14293
▁헤센 -14294
▁건너오 -14295
▁반감기 -14296
박사 -14297
우주 -14298
▁가명 -14299
▁래리 -14300
▁샤르 -14301
▁자장 -14302
▁대항전 -14303
▁보호법 -14304
▁순식간 -14305
▁정치국 -14306
▁WC -14307
▁경의 -14308
▁기미 -14309
▁문수 -14310
▁보그 -14311
▁위트 -14312
▁잉카 -14313
▁정에 -14314
▁205 -14315
▁맥스웰 -14316
▁선거인 -14317
데기 -14318
▁구아 -14319
▁금하 -14320
▁금환 -14321
▁모사 -14322
▁열악 -14323
▁708 -14324
▁개그맨 -14325
▁데뷔작 -14326
▁사학자 -14327
▁관음보살 -14328
▁University -14329
▁텅 -14330
연구 -14331
행파 -14332
▁서클 -14333
▁이홍 -14334
▁향신 -14335
▁후루 -14336
very -14337
▁합성어 -14338
▁형용사 -14339
▁탭 -14340
▁경순 -14341
▁동군 -14342
▁무능 -14343
▁실사 -14344
▁에코 -14345
▁NBC -14346
▁Vol -14347
▁라이베리아 -14348
건설 -14349
▁대류 -14350
▁야코 -14351
▁정칙 -14352
▁ATC -14353
▁보조금 -14354
▁스케줄 -14355
▁아우구스투스 -14356
▁At -14357
▁경종 -14358
▁규약 -14359
▁배당 -14360
▁월남 -14361
▁사할린 -14362
▁콘라트 -14363
▁통계청 -14364
▁cc -14365
▁라벨 -14366
▁미첼 -14367
▁안팎 -14368
▁외손 -14369
▁집사 -14370
▁케리 -14371
▁한겨 -14372
▁슈미트 -14373
쿠사 -14374
▁데일 -14375
▁복부 -14376
▁불쾌 -14377
▁시의 -14378
▁안심 -14379
▁외할 -14380
▁조봉 -14381
▁타시 -14382
▁캐스터 -14383
▁테두리 -14384
▁엑스박스 -14385
▁인플루엔자 -14386
▁GR -14387
▁거시 -14388
▁군복 -14389
▁등산 -14390
▁띄우 -14391
▁뮐러 -14392
▁베티 -14393
▁양서 -14394
▁재화 -14395
▁김해시 -14396
▁조선공산당 -14397
▁JC -14398
▁박용 -14399
▁상계 -14400
▁서안 -14401
▁아연 -14402
▁양극 -14403
▁치마 -14404
▁235 -14405
▁가이아 -14406
▁name -14407
벌리 -14408
양이 -14409
anc -14410
▁남단 -14411
▁웨어 -14412
▁자위 -14413
▁정글 -14414
▁족장 -14415
▁초계 -14416
▁칼륨 -14417
▁토피 -14418
▁후이 -14419
▁시마즈 -14420
▁로베르토 -14421
▁맴 -14422
루즈 -14423
모음 -14424
▁가뭄 -14425
▁나기 -14426
▁내림 -14427
▁비옥 -14428
▁수역 -14429
▁외삼 -14430
▁우기 -14431
▁재보 -14432
▁후한 -14433
▁DOS -14434
▁스케일 -14435
▁호흡기 -14436
화당 -14437
ody -14438
▁골절 -14439
▁에노 -14440
▁자키 -14441
▁줄곧 -14442
▁축복 -14443
▁포니 -14444
▁풀백 -14445
▁호로 -14446
폴리탄 -14447
▁다가가 -14448
▁안양시 -14449
▁메트로폴리탄 -14450
사와 -14451
IVE -14452
▁균일 -14453
▁노카 -14454
▁세스 -14455
▁손목 -14456
▁솜씨 -14457
▁신병 -14458
▁이달 -14459
▁젠더 -14460
▁키트 -14461
▁하산 -14462
▁tvN -14463
▁반대편 -14464
▁오르간 -14465
▁자격증 -14466
▁그레이엄 -14467
▁뤄 -14468
▁퀄 -14469
나들 -14470
보라 -14471
황색 -14472
▁기스 -14473
▁라지 -14474
▁마흐 -14475
▁사미 -14476
▁석기 -14477
▁창구 -14478
▁셴 -14479
net -14480
▁경화 -14481
▁고층 -14482
▁나한 -14483
▁리나 -14484
▁실효 -14485
▁유충 -14486
▁코바 -14487
▁통솔 -14488
▁화승 -14489
▁간호사 -14490
▁남극점 -14491
▁사무관 -14492
▁열역학 -14493
▁조각상 -14494
▁This -14495
▁지하철역 -14496
열대 -14497
▁바니 -14498
▁버니 -14499
▁병렬 -14500
▁일간 -14501
▁일삼 -14502
▁잔혹 -14503
▁카로 -14504
▁패치 -14505
▁교육감 -14506
▁서스펜 -14507
▁한겨레 -14508
▁1874 -14509
▁우두머리 -14510
▁브로드웨이 -14511
▁잼 -14512
에쓰 -14513
▁가온 -14514
▁노라 -14515
▁베크 -14516
▁시제 -14517
▁정승 -14518
▁확충 -14519
▁로페스 -14520
▁신호장 -14521
▁안드레 -14522
▁카디널 -14523
18 -14524
so -14525
그램 -14526
르산 -14527
큐슈 -14528
▁종가 -14529
▁키타 -14530
▁거주자 -14531
▁당뇨병 -14532
▁동아리 -14533
▁일렉트릭 -14534
악산 -14535
주크 -14536
ATO -14537
▁결말 -14538
▁무가 -14539
▁부엌 -14540
▁소론 -14541
▁소양 -14542
▁요직 -14543
▁잔여 -14544
▁침범 -14545
▁코로 -14546
▁향수 -14547
▁조각가 -14548
▁천도교 -14549
▁미스코리아 -14550
▁알렉산데르 -14551
란다 -14552
▁뉴멕 -14553
▁발판 -14554
▁양평 -14555
▁일주 -14556
▁협곡 -14557
▁화원 -14558
▁시그마 -14559
▁뉴멕시코 -14560
▁중앙아메리카 -14561
▁파푸아뉴기니 -14562
▁낭비 -14563
▁동백 -14564
▁리시 -14565
▁마늘 -14566
▁몰수 -14567
▁석권 -14568
▁숙박 -14569
▁악당 -14570
▁은폐 -14571
▁잉여 -14572
▁칠성 -14573
▁공주시 -14574
▁라스트 -14575
▁무지개 -14576
▁재미있 -14577
▁오아시스 -14578
텐셜 -14579
▁리타 -14580
▁무예 -14581
▁볼드 -14582
▁빌드 -14583
▁산조 -14584
▁중남 -14585
▁한복 -14586
▁홍익 -14587
스크림 -14588
진보당 -14589
▁가요제 -14590
▁바그다드 -14591
▁슈퍼스타 -14592
▁스틸러스 -14593
▁유가행파 -14594
▁컨퍼런스 -14595
▁콘퍼런스 -14596
시험 -14597
신저 -14598
▁다쿠 -14599
▁발작 -14600
▁산문 -14601
▁이색 -14602
▁성폭력 -14603
▁저스틴 -14604
ala -14605
▁강국 -14606
▁맞물 -14607
▁싱크 -14608
▁재회 -14609
▁점하 -14610
▁품목 -14611
▁아놀드 -14612
▁트레일 -14613
▁항공편 -14614
프랑 -14615
▁sp -14616
▁기닿 -14617
▁메모 -14618
▁코크 -14619
▁판명 -14620
▁204 -14621
▁동남쪽 -14622
▁퍼텐셜 -14623
▁기울어지 -14624
▁호소카와 -14625
징어 -14626
▁넷플 -14627
▁라플 -14628
▁레나 -14629
▁읍성 -14630
▁인스 -14631
▁자네 -14632
▁조동 -14633
▁쿠마 -14634
▁클로드 -14635
▁넷플릭스 -14636
▁강좌 -14637
▁델리 -14638
▁묘호 -14639
▁미겔 -14640
▁인성 -14641
▁주군 -14642
▁학당 -14643
▁흐리 -14644
▁대수학 -14645
▁에스컬 -14646
▁휴대폰 -14647
▁1877 -14648
▁에스컬레이터 -14649
me -14650
▁벚 -14651
▁격전 -14652
▁나일 -14653
▁벗기 -14654
▁사중 -14655
▁송이 -14656
▁앨라 -14657
▁옥사 -14658
▁캠벨 -14659
▁행선 -14660
야누스 -14661
어나오 -14662
▁게임즈 -14663
▁앞바다 -14664
▁지리산 -14665
▁핸드볼 -14666
▁후쿠이 -14667
▁바이마르 -14668
▁콜럼버스 -14669
운수 -14670
▁SR -14671
▁YG -14672
▁감축 -14673
▁공문 -14674
▁깔리 -14675
▁너희 -14676
▁모치 -14677
▁우니 -14678
▁이문 -14679
▁하지 -14680
▁Bab -14681
▁뉴올리 -14682
ax -14683
co -14684
소문 -14685
▁AE -14686
▁단발 -14687
▁법규 -14688
▁상한 -14689
▁선단 -14690
▁에페 -14691
▁클랜 -14692
▁참전하 -14693
▁프레슬리 -14694
▁트라야누스 -14695
더릭 -14696
▁그르 -14697
▁도형 -14698
▁되살 -14699
▁민원 -14700
▁복속 -14701
▁앞뒤 -14702
▁애드 -14703
▁예금 -14704
▁출사 -14705
▁퇴진 -14706
▁화염 -14707
▁화음 -14708
▁루이즈 -14709
▁여운형 -14710
▁청문회 -14711
▁포식자 -14712
▁7000 -14713
▁돌려보내 -14714
au -14715
yn -14716
비에 -14717
▁북측 -14718
▁교육학 -14719
▁사하라 -14720
▁중거리 -14721
▁서아프리카 -14722
▁쿰 -14723
민당 -14724
▁그립 -14725
▁엄지 -14726
▁예멘 -14727
▁차오 -14728
▁처마 -14729
▁Her -14730
▁수백만 -14731
▁원주시 -14732
▁한국군 -14733
▁허베이 -14734
범죄 -14735
▁AF -14736
▁곤살 -14737
▁아킬 -14738
▁양천 -14739
▁전조 -14740
▁지령 -14741
▁총영 -14742
▁탄수 -14743
▁셀주크 -14744
▁멀티미디어 -14745
▁끔 -14746
높이 -14747
를레 -14748
ash -14749
oid -14750
▁건지 -14751
▁본존 -14752
▁블랑 -14753
▁승낙 -14754
▁의제 -14755
▁지크 -14756
▁CIA -14757
▁공학자 -14758
▁스타드 -14759
▁컨설팅 -14760
▁콘티넨 -14761
▁Best -14762
▁갈릴레오 -14763
GB -14764
▁툼 -14765
계약 -14766
▁고승 -14767
▁두뇌 -14768
▁무주 -14769
▁소인 -14770
▁요가 -14771
▁APG -14772
▁비잔틴 -14773
▁오릭스 -14774
▁레닌주의 -14775
바드 -14776
혈구 -14777
▁결장 -14778
▁경내 -14779
▁김우 -14780
▁바야 -14781
▁밸브 -14782
▁산체 -14783
▁순찰 -14784
▁시발 -14785
▁에볼 -14786
▁우표 -14787
▁제지 -14788
▁토바 -14789
▁518 -14790
▁브리스 -14791
▁클러스터 -14792
ps -14793
▁얄 -14794
양구 -14795
ose -14796
▁로망 -14797
▁상환 -14798
▁추계 -14799
▁외계인 -14800
▁1859 -14801
변수 -14802
일기 -14803
ict -14804
▁et -14805
▁노하 -14806
▁도읍 -14807
▁소주 -14808
▁인계 -14809
▁카일 -14810
▁거머쥐 -14811
▁콜린스 -14812
▁1700 -14813
▁만장일치 -14814
22 -14815
▁나투 -14816
▁방학 -14817
▁사연 -14818
▁소르 -14819
▁숙명 -14820
▁승률 -14821
▁억울 -14822
▁유창 -14823
▁코린 -14824
▁하층 -14825
▁강화군 -14826
▁달려가 -14827
▁부르봉 -14828
▁Hell -14829
▁다카하시 -14830
▁사무라이 -14831
▁플루토늄 -14832
HC -14833
장사 -14834
피크 -14835
▁곡식 -14836
▁라임 -14837
▁문물 -14838
▁오구 -14839
▁통찰 -14840
▁쓰러뜨리 -14841
▁캄파니아 -14842
14 -14843
▁도안 -14844
▁맹렬 -14845
▁스펙 -14846
▁완장 -14847
▁원사 -14848
▁재물 -14849
▁경부선 -14850
▁곧이어 -14851
▁엘비스 -14852
제철 -14853
▁가선 -14854
▁관아 -14855
▁대입 -14856
▁뒤덮 -14857
▁문맥 -14858
▁자성 -14859
▁대사간 -14860
▁현미경 -14861
▁메모리얼 -14862
▁켐 -14863
의식 -14864
▁과세 -14865
▁레크 -14866
▁변론 -14867
▁보어 -14868
▁사병 -14869
▁산재 -14870
▁상감 -14871
▁오니 -14872
▁이씨 -14873
▁난쟁이 -14874
▁돌려주 -14875
▁루카스 -14876
▁연방군 -14877
▁이주민 -14878
▁클레오 -14879
▁스테파노 -14880
▁랏 -14881
남면 -14882
무장 -14883
토크 -14884
▁결여 -14885
▁만지 -14886
▁미켈 -14887
▁율리 -14888
▁제비 -14889
▁퇴치 -14890
▁게이밍 -14891
▁앙드레 -14892
▁전시관 -14893
배마 -14894
▁KS -14895
▁se -14896
▁경합 -14897
▁구가 -14898
▁니즈 -14899
▁뚜껑 -14900
▁서품 -14901
▁스플 -14902
▁중건 -14903
▁허물 -14904
▁후회 -14905
▁라이센스 -14906
▁앨라배마 -14907
▁챠 -14908
▁us -14909
▁도부 -14910
▁미트 -14911
▁서체 -14912
▁선과 -14913
▁여정 -14914
▁요도 -14915
▁원문 -14916
▁타선 -14917
▁625 -14918
▁개화파 -14919
▁오리엔 -14920
▁혼합물 -14921
▁프리큐어 -14922
형제 -14923
▁블룸 -14924
▁쓰리 -14925
▁펭귄 -14926
▁플랑 -14927
▁불러오 -14928
▁사다리 -14929
▁아파치 -14930
▁울트라 -14931
▁이케다 -14932
▁멱 -14933
▁짚 -14934
EEE -14935
▁리안 -14936
▁명왕 -14937
▁일어 -14938
▁태화 -14939
▁투사 -14940
▁셰퍼드 -14941
▁순천시 -14942
▁아키텐 -14943
▁이론가 -14944
▁인류학 -14945
13 -14946
15 -14947
▁구전 -14948
▁네브 -14949
▁만류 -14950
▁모교 -14951
▁부식 -14952
▁결의안 -14953
▁길거리 -14954
▁억제제 -14955
▁긋 -14956
데일 -14957
버터 -14958
▁공병 -14959
▁적법 -14960
▁미트라 -14961
▁안철수 -14962
▁우에노 -14963
▁뮈 -14964
나시 -14965
로트 -14966
▁백운 -14967
▁북인 -14968
▁왕당 -14969
▁자갈 -14970
▁함장 -14971
▁후견 -14972
▁미야기현 -14973
▁소아시아 -14974
▁자이언트 -14975
▁자카르타 -14976
▁테크놀로지 -14977
▁샷 -14978
▁웜 -14979
고사 -14980
과학 -14981
동원 -14982
마을 -14983
매기 -14984
완다 -14985
▁ㄴ대 -14986
▁원점 -14987
▁전범 -14988
▁츠카 -14989
▁푸젠 -14990
▁제니퍼 -14991
▁출장소 -14992
▁핵탄두 -14993
▁튀어나오 -14994
▁뉴클레오타이드 -14995
VA -14996
주석 -14997
투리 -14998
▁관위 -14999
▁롤러 -15000
▁바젤 -15001
▁바투 -15002
▁베다 -15003
▁알로 -15004
▁원만 -15005
▁전서 -15006
▁화소 -15007
▁가치관 -15008
▁서태지 -15009
▁카리스 -15010
▁트레인 -15011
▁크리스틴 -15012
어놓 -15013
재판 -15014
uck -15015
▁군기 -15016
▁근간 -15017
▁발터 -15018
▁어지 -15019
▁일면 -15020
reak -15021
▁빈센트 -15022
▁빌바오 -15023
▁아드리아 -15024
▁^ -15025
▁무공 -15026
▁박찬 -15027
▁백지 -15028
▁타파 -15029
▁후면 -15030
▁미성년 -15031
▁직사각 -15032
▁거병 -15033
▁다윗 -15034
▁레티 -15035
▁미러 -15036
▁속국 -15037
▁아누 -15038
▁이창 -15039
▁장경 -15040
▁헬스 -15041
▁페스트 -15042
▁환승역 -15043
▁아이스크림 -15044
de -15045
장조 -15046
▁덮치 -15047
▁문건 -15048
▁산남 -15049
▁왕명 -15050
▁이만 -15051
▁테헤 -15052
▁희미 -15053
▁목표물 -15054
▁선제후 -15055
▁탈레반 -15056
▁IEEE -15057
티지 -15058
▁관군 -15059
▁진심 -15060
▁피자 -15061
▁로저스 -15062
▁바스크 -15063
▁순교자 -15064
▁실린더 -15065
▁서바이벌 -15066
HL -15067
소니 -15068
▁공석 -15069
▁김학 -15070
▁도끼 -15071
▁로보 -15072
▁사산 -15073
▁산술 -15074
▁오인 -15075
▁용맹 -15076
▁은지 -15077
▁자백 -15078
▁정청 -15079
▁총감 -15080
▁호투 -15081
▁홀수 -15082
▁기념장 -15083
▁쓰촨성 -15084
▁예문관 -15085
▁출판물 -15086
▁케이드 -15087
▁카디널스 -15088
르바 -15089
조류 -15090
▁경원 -15091
▁논증 -15092
▁로코 -15093
▁발광 -15094
▁수주 -15095
▁주포 -15096
▁퇴출 -15097
▁하후 -15098
▁호화 -15099
▁회차 -15100
▁340 -15101
▁아이치 -15102
▁이치현 -15103
▁정착지 -15104
▁통계학 -15105
▁아미타불 -15106
나주 -15107
주사 -15108
▁뉴잉 -15109
▁로디 -15110
▁리언 -15111
▁코이 -15112
▁튜링 -15113
▁고바야시 -15114
oo -15115
스톤 -15116
ail -15117
▁FF -15118
▁달력 -15119
▁상층 -15120
▁안주 -15121
▁오와 -15122
▁조회 -15123
▁특명 -15124
▁화풍 -15125
떨어지 -15126
하마드 -15127
▁마코토 -15128
▁아스카 -15129
스퍼 -15130
패드 -15131
▁발진 -15132
▁섹션 -15133
▁청정 -15134
▁교황령 -15135
▁대혁명 -15136
▁로스트 -15137
▁볼프강 -15138
▁향신료 -15139
▁Star -15140
▁as -15141
▁개경 -15142
▁담양 -15143
▁보국 -15144
▁보디 -15145
▁상설 -15146
▁수프 -15147
▁진천 -15148
▁타밀 -15149
▁통감 -15150
게이트 -15151
▁대제학 -15152
▁디에고 -15153
▁레이건 -15154
▁오토바이 -15155
▁펙 -15156
▁금관 -15157
▁도매 -15158
▁세제 -15159
▁유틸 -15160
▁의인 -15161
▁전봉 -15162
▁호적 -15163
▁310 -15164
▁아니면 -15165
▁지석묘 -15166
▁해인사 -15167
▁국가원수 -15168
▁유틸리티 -15169
▁사생 -15170
▁사탄 -15171
▁수문 -15172
▁양동 -15173
▁정역 -15174
▁폐차 -15175
▁Sun -15176
▁개척자 -15177
▁국내선 -15178
▁오슬로 -15179
▁원정대 -15180
▁이광수 -15181
▁어우러지 -15182
▁매사추세츠주 -15183
팩스 -15184
▁구라 -15185
▁젤리 -15186
▁중앙일보 -15187
▁뽀 -15188
▁DO -15189
▁거문 -15190
▁교인 -15191
▁나바 -15192
▁떠돌 -15193
▁베가 -15194
▁부락 -15195
▁손수 -15196
▁연해 -15197
▁입찰 -15198
▁짝수 -15199
▁추장 -15200
▁커브 -15201
▁터스 -15202
▁가우스 -15203
▁개막식 -15204
▁대관식 -15205
▁대대장 -15206
▁브레멘 -15207
▁Super -15208
플레 -15209
▁my -15210
▁김도 -15211
▁김주 -15212
▁동급 -15213
▁뚫리 -15214
▁멜라 -15215
▁센타 -15216
▁어학 -15217
▁호이 -15218
▁you -15219
▁슈투트 -15220
▁여러분 -15221
▁슈투트가르트 -15222
댓값 -15223
▁교감 -15224
▁근세 -15225
▁모션 -15226
▁아칸 -15227
▁템플 -15228
▁209 -15229
▁무사시 -15230
▁에이브 -15231
▁울주군 -15232
▁1812 -15233
▁콘스탄티누스 -15234
구미 -15235
바퀴 -15236
vel -15237
▁과달 -15238
▁수구 -15239
▁시력 -15240
▁평방 -15241
▁폐하 -15242
▁무신론 -15243
▁바빌론 -15244
▁셀레우 -15245
▁자본가 -15246
▁조르주 -15247
▁뉴잉글랜드 -15248
학파 -15249
▁강유 -15250
▁메드 -15251
▁선별 -15252
▁소서 -15253
▁지검 -15254
▁추밀 -15255
▁충동 -15256
▁그래픽스 -15257
▁늦추 -15258
▁명륜 -15259
▁빨강 -15260
▁산정 -15261
▁속초 -15262
▁윤치영 -15263
▁모니터링 -15264
▁유니코드 -15265
▁안토니우스 -15266
▁후쿠시마현 -15267
TF -15268
초프 -15269
▁ad -15270
▁로컬 -15271
▁루드 -15272
▁무위 -15273
▁배타 -15274
▁장지 -15275
▁정실 -15276
▁카파 -15277
▁토프 -15278
▁항문 -15279
▁해커 -15280
▁리바이 -15281
▁자오선 -15282
▁자치현 -15283
▁클라리 -15284
▁Soul -15285
▁아이파크 -15286
iel -15287
▁Kn -15288
▁걸스 -15289
▁근위 -15290
▁김덕 -15291
▁나시 -15292
▁닷컴 -15293
▁박경 -15294
▁산인 -15295
▁성조 -15296
▁손쉽 -15297
▁황위 -15298
▁르완다 -15299
▁송진우 -15300
▁에세이 -15301
▁에이지 -15302
▁선거관리 -15303
▁무형문화재 -15304
▁선거관리위원회 -15305
티어 -15306
▁Tw -15307
▁맞배 -15308
▁세밀 -15309
▁수질 -15310
▁조던 -15311
▁지카 -15312
▁쪼개 -15313
▁탄두 -15314
▁피그 -15315
▁하강 -15316
▁호국 -15317
하우스 -15318
▁206 -15319
▁삼거리 -15320
▁주거지 -15321
▁서비스업 -15322
▁알렉세이 -15323
▁Christ -15324
▁당상 -15325
▁루손 -15326
▁스쿼 -15327
▁안면 -15328
▁의논 -15329
▁장강 -15330
▁점토 -15331
▁단말기 -15332
▁여수시 -15333
▁음식점 -15334
▁접미사 -15335
▁조광조 -15336
▁한자어 -15337
▁ICBM -15338
▁름 -15339
▁과감 -15340
▁로런 -15341
▁이건 -15342
▁주유 -15343
▁풀이 -15344
▁John -15345
▁북대서양 -15346
59 -15347
샤오 -15348
▁고후 -15349
▁규합 -15350
▁그늘 -15351
▁끔찍 -15352
▁논평 -15353
▁산동 -15354
▁아호 -15355
▁천자 -15356
▁카보 -15357
▁코우 -15358
▁콘스 -15359
▁연대장 -15360
▁주제가 -15361
▁막시밀리 -15362
네오 -15363
디드 -15364
▁ON -15365
▁교재 -15366
▁금천 -15367
▁니치 -15368
▁도자 -15369
▁동맥 -15370
▁로지 -15371
▁매듭 -15372
▁무진 -15373
▁법상 -15374
▁위축 -15375
▁투니 -15376
공화당 -15377
시아키 -15378
▁록히드 -15379
▁1879 -15380
▁민주공화당 -15381
▁쑹 -15382
버라 -15383
ute -15384
▁Mi -15385
▁귀순 -15386
▁샤오 -15387
▁영도 -15388
▁장이 -15389
▁철기 -15390
▁춘계 -15391
▁개개인 -15392
▁베르사유 -15393
TR -15394
gh -15395
도감 -15396
탄올 -15397
▁IF -15398
▁Mr -15399
▁솔리 -15400
▁집적 -15401
▁747 -15402
▁기생충 -15403
▁레코딩 -15404
▁로널드 -15405
▁보이즈 -15406
▁안데스 -15407
▁건국훈장 -15408
▁아브라함 -15409
▁썸 -15410
면적 -15411
▁가창 -15412
▁개표 -15413
▁구비 -15414
▁버밍 -15415
▁수라 -15416
▁스완 -15417
▁포상 -15418
▁해주 -15419
▁휴일 -15420
▁슈트라 -15421
▁의병장 -15422
▁테헤란 -15423
▁파르마 -15424
EA -15425
무지 -15426
▁방탄 -15427
▁범람 -15428
▁변성 -15429
▁원한 -15430
▁유세 -15431
▁전열 -15432
▁차역 -15433
▁청일 -15434
▁초식 -15435
▁카토 -15436
▁콜론 -15437
▁사우디 -15438
▁에다가 -15439
▁리바운드 -15440
방스 -15441
▁농담 -15442
▁동대 -15443
▁소량 -15444
▁슬러 -15445
▁양원 -15446
▁카펠 -15447
▁타라 -15448
라이스 -15449
▁고지대 -15450
▁백두산 -15451
▁조봉암 -15452
▁파르티아 -15453
▁슈트라우스 -15454
▁일렉트로닉 -15455
태자 -15456
▁낯설 -15457
▁단수 -15458
▁딱딱 -15459
▁부기 -15460
▁상이 -15461
▁아람 -15462
▁양념 -15463
▁양정 -15464
▁울루 -15465
▁자각 -15466
▁정맥 -15467
▁그러면 -15468
▁독재자 -15469
▁바닷가 -15470
▁석회암 -15471
▁카지노 -15472
▁피어스 -15473
▁HP -15474
▁공경 -15475
▁관개 -15476
▁도파 -15477
▁예보 -15478
▁풍요 -15479
▁제이크 -15480
분투 -15481
슐리 -15482
▁대방 -15483
▁리퍼 -15484
▁모태 -15485
▁불문 -15486
▁소포 -15487
▁유계 -15488
▁유보 -15489
▁유상 -15490
▁임실 -15491
▁자석 -15492
▁des -15493
▁게이오 -15494
▁태블릿 -15495
▁군마 -15496
▁그릴 -15497
▁노역 -15498
▁듀스 -15499
▁보아 -15500
▁실베 -15501
▁용역 -15502
▁이코 -15503
▁일보 -15504
▁초회 -15505
▁쿠시 -15506
▁420 -15507
▁뉴올리언스 -15508
OK -15509
▁쑨 -15510
네프 -15511
화산 -15512
▁감당 -15513
▁게놈 -15514
▁당장 -15515
▁대등 -15516
▁대여 -15517
▁비오 -15518
▁빛깔 -15519
▁수족 -15520
로세서 -15521
를레앙 -15522
▁CoA -15523
▁라그랑 -15524
반정 -15525
블릭 -15526
▁기권 -15527
▁능숙 -15528
▁두부 -15529
▁불능 -15530
▁스킨 -15531
▁영종 -15532
▁차차 -15533
▁촐라 -15534
▁App -15535
▁리그컵 -15536
▁변호인 -15537
▁사가미 -15538
▁여행자 -15539
▁영사관 -15540
▁트리스 -15541
▁뜯 -15542
신보 -15543
정변 -15544
▁국문 -15545
▁노마 -15546
▁부화 -15547
▁사체 -15548
▁사파 -15549
▁온전 -15550
▁조우 -15551
▁최용 -15552
▁클럭 -15553
▁Str -15554
▁아이작 -15555
▁암스트 -15556
▁ㄹ지라도 -15557
▁불법행위 -15558
▁끊이 -15559
▁반달 -15560
▁열람 -15561
▁유민 -15562
▁전곡 -15563
▁제고 -15564
레틱스 -15565
▁국방군 -15566
▁즐거움 -15567
리아누스 -15568
▁애슬레틱스 -15569
▁Record -15570
▁강가 -15571
▁반납 -15572
▁스텐 -15573
▁애호 -15574
▁인삼 -15575
▁중등 -15576
▁컬링 -15577
▁현수 -15578
▁호시 -15579
▁으리라 -15580
▁들어올리 -15581
연맹 -15582
자드 -15583
VID -15584
▁광시 -15585
▁남경 -15586
▁두스 -15587
▁잇달 -15588
▁카다 -15589
▁글리제 -15590
▁본거지 -15591
▁최진실 -15592
▁테크노 -15593
▁원종공신 -15594
▁꽝 -15595
ull -15596
▁Gu -15597
▁권투 -15598
▁김시 -15599
▁노엘 -15600
▁도나 -15601
▁동하 -15602
▁머큐 -15603
▁앉히 -15604
▁인척 -15605
▁처칠 -15606
▁후추 -15607
▁440 -15608
▁니가타 -15609
▁수영장 -15610
▁알칼리 -15611
▁여주인 -15612
▁인산화 -15613
산업 -15614
▁수아 -15615
▁자존 -15616
▁접목 -15617
▁투기 -15618
▁흐트 -15619
▁군주제 -15620
▁부추기 -15621
▁엘리엇 -15622
▁오메가 -15623
▁유기체 -15624
▁조용히 -15625
▁주머니쥐 -15626
▁쿵 -15627
▁퀼 -15628
링크 -15629
수지 -15630
▁ㄹ로 -15631
▁소진 -15632
▁왕좌 -15633
▁유관 -15634
▁증축 -15635
▁체리 -15636
▁커리 -15637
▁항전 -15638
▁페르시 -15639
▁아우구스트 -15640
선교 -15641
장군 -15642
▁성자 -15643
▁시타 -15644
▁역동 -15645
▁제방 -15646
▁공성전 -15647
▁엘리스 -15648
▁잠비아 -15649
▁엔지니어링 -15650
박이 -15651
티보 -15652
▁"| -15653
▁PA -15654
▁부트 -15655
▁상회 -15656
▁압수 -15657
▁할구 -15658
▁Per -15659
▁광합성 -15660
▁야구부 -15661
▁항생제 -15662
▁2500 -15663
▁print -15664
▁다마스쿠스 -15665
▁금기 -15666
▁라쿠 -15667
▁양구 -15668
▁왕릉 -15669
▁용문 -15670
▁이석 -15671
▁폴로 -15672
▁환산 -15673
로그램 -15674
▁바실리 -15675
▁을수록 -15676
▁지극히 -15677
▁합병증 -15678
▁타지키스탄 -15679
▁public -15680
길준 -15681
니에 -15682
덕궁 -15683
의금 -15684
▁CA -15685
▁궁주 -15686
▁리지 -15687
▁무패 -15688
▁미타 -15689
▁신익 -15690
▁아로 -15691
▁앙상 -15692
▁열거 -15693
▁왕녀 -15694
▁요셉 -15695
▁쿠루 -15696
▁트림 -15697
▁256 -15698
▁매니아 -15699
▁스위트 -15700
▁실리콘 -15701
▁이회창 -15702
▁춘천시 -15703
▁플래닛 -15704
대비 -15705
▁po -15706
▁리노 -15707
▁매복 -15708
▁종실 -15709
▁탈피 -15710
▁투병 -15711
▁부서지 -15712
▁불거지 -15713
▁양산시 -15714
▁엔리케 -15715
▁영화관 -15716
▁오토모 -15717
▁제시카 -15718
▁페이퍼 -15719
▁호기심 -15720
▁대법원장 -15721
▁헬레니즘 -15722
▁균등 -15723
▁기시 -15724
▁동두 -15725
▁콜리 -15726
▁파고 -15727
▁Hot -15728
▁바레인 -15729
▁살아오 -15730
▁허버트 -15731
바이러스 -15732
레미 -15733
발트 -15734
황제 -15735
▁nm -15736
▁나토 -15737
▁명동 -15738
▁문어 -15739
▁성현 -15740
▁은평 -15741
▁이한 -15742
▁퀸스 -15743
▁헐리 -15744
▁화이 -15745
▁맞물리 -15746
▁산투스 -15747
▁습니까 -15748
▁카스텔 -15749
일체 -15750
자나 -15751
▁ER -15752
▁광동 -15753
▁내시 -15754
▁더라 -15755
▁마거 -15756
▁바바 -15757
▁북마 -15758
▁사나 -15759
▁시영 -15760
▁아루 -15761
▁이설 -15762
▁행운 -15763
▁버스터 -15764
▁부러지 -15765
16 -15766
25 -15767
▁앳 -15768
데오 -15769
빨리 -15770
▁고독 -15771
▁교학 -15772
▁담수 -15773
▁사목 -15774
▁식이 -15775
▁작자 -15776
▁향로 -15777
▁환초 -15778
▁기본법 -15779
▁오우치 -15780
▁왕당파 -15781
▁접근성 -15782
▁초고층 -15783
쿠치 -15784
▁고요 -15785
▁사스 -15786
▁셔츠 -15787
▁실책 -15788
▁워낙 -15789
▁정직 -15790
▁중신 -15791
▁코니 -15792
▁호찌 -15793
▁Win -15794
▁고다이 -15795
▁깨어나 -15796
▁비행사 -15797
▁시에라 -15798
▁캅카스 -15799
▁판매고 -15800
▁천문단위 -15801
▁크리스탈 -15802
ty -15803
▁가결 -15804
▁군도 -15805
▁담임 -15806
▁득실 -15807
▁성형 -15808
▁접시 -15809
▁코인 -15810
▁패자 -15811
다임 -15812
ual -15813
▁레저 -15814
▁바타 -15815
▁반향 -15816
▁석재 -15817
▁성교 -15818
▁카츠 -15819
▁킬러 -15820
고로드 -15821
▁랴오닝 -15822
▁사이클론 -15823
포리 -15824
▁깊숙 -15825
▁동률 -15826
▁아역 -15827
▁오차 -15828
▁우타 -15829
▁피질 -15830
ogle -15831
▁재결합 -15832
자락 -15833
▁Ke -15834
▁농협 -15835
▁동체 -15836
▁미녀 -15837
▁유미 -15838
▁칠곡 -15839
▁렌더링 -15840
▁토론회 -15841
▁프리드 -15842
▁후유증 -15843
스틱 -15844
울루 -15845
▁HS -15846
▁mu -15847
▁강자 -15848
▁교명 -15849
▁기한 -15850
▁내기 -15851
▁노골 -15852
▁느슨 -15853
▁멘델 -15854
▁반정 -15855
▁브이 -15856
▁즉흥 -15857
▁체질 -15858
▁침수 -15859
▁할로 -15860
▁힐스 -15861
▁911 -15862
▁남북조 -15863
▁브루노 -15864
▁생산자 -15865
▁예비군 -15866
▁예수교 -15867
▁요나라 -15868
▁웨슬리 -15869
▁이세이 -15870
▁주둔지 -15871
▁리치먼드 -15872
▁패러다임 -15873
커우 -15874
▁금리 -15875
▁녹이 -15876
▁라사 -15877
▁쌍용 -15878
▁사무엘 -15879
▁스텔스 -15880
▁알베르 -15881
▁잠재력 -15882
▁조연상 -15883
▁1789 -15884
▁1801 -15885
▁Back -15886
▁캥 -15887
는점 -15888
불명 -15889
▁겨냥 -15890
▁기피 -15891
▁대용 -15892
▁도화 -15893
▁사조 -15894
▁스팀 -15895
▁예쁘 -15896
▁응력 -15897
▁이보 -15898
▁준하 -15899
▁지브 -15900
▁코일 -15901
그래피 -15902
▁208 -15903
▁베이직 -15904
▁제주시 -15905
▁후반전 -15906
▁플랑드르 -15907
▁둠 -15908
무트 -15909
스텐 -15910
▁NM -15911
▁봉분 -15912
▁부안 -15913
▁아구 -15914
▁악어 -15915
▁여관 -15916
▁유독 -15917
▁진성 -15918
▁초석 -15919
던지기 -15920
▁오이타 -15921
▁기타큐슈 -15922
▁아미타여래 -15923
▁강타 -15924
▁곱하 -15925
▁정중 -15926
▁탄력 -15927
▁트램 -15928
▁다행히 -15929
▁유도탄 -15930
▁조제프 -15931
▁Kore -15932
▁쐐 -15933
▁군림 -15934
▁누마 -15935
▁소노 -15936
▁솔직 -15937
▁시온 -15938
▁전과 -15939
▁치밀 -15940
▁치킨 -15941
▁히코 -15942
프리드 -15943
▁광주시 -15944
▁길버트 -15945
▁들여오 -15946
▁유길준 -15947
▁1400 -15948
▁포틀랜드 -15949
RNA -15950
▁Fl -15951
▁구애 -15952
▁군량 -15953
▁로만 -15954
▁원곡 -15955
▁조율 -15956
▁머큐리 -15957
▁방법론 -15958
▁암스트롱 -15959
▁폼페이우스 -15960
평면 -15961
▁KD -15962
▁신천 -15963
▁쐐기 -15964
▁총생 -15965
▁폐교 -15966
리오스 -15967
▁아르테 -15968
▁흘러가 -15969
ll -15970
다스 -15971
득점 -15972
로움 -15973
▁MD -15974
▁성부 -15975
▁세타 -15976
▁에픽 -15977
▁우디 -15978
▁네바다 -15979
▁디아스 -15980
▁브릿지 -15981
▁영장류 -15982
▁NATO -15983
▁독립선언 -15984
인산 -15985
▁교란 -15986
▁구부 -15987
▁궁수 -15988
▁기일 -15989
▁악의 -15990
▁안시 -15991
▁영성 -15992
▁파피 -15993
▁Get -15994
▁MIT -15995
▁마운틴 -15996
▁브루크 -15997
▁사망률 -15998
▁사천왕 -15999
▁앙상블 -16000
▁영문학 -16001
▁유물론 -16002
▁지배하 -16003
▁드래곤즈 -16004
▁뿜 -16005
제사 -16006
차리 -16007
▁NL -16008
▁애프 -16009
▁윤곽 -16010
▁이가 -16011
▁이크 -16012
▁책정 -16013
▁첫날 -16014
▁동일시 -16015
▁로런스 -16016
▁선수상 -16017
▁인문학 -16018
▁남한산성 -16019
▁비로자나 -16020
ox -16021
▁NA -16022
▁가전 -16023
▁갑신 -16024
▁거품 -16025
▁관저 -16026
▁국산 -16027
▁균열 -16028
▁오웬 -16029
▁중학 -16030
▁채집 -16031
▁청중 -16032
▁총국 -16033
lect -16034
▁370 -16035
▁급속도 -16036
▁마거릿 -16037
▁킵 -16038
라과 -16039
이상 -16040
▁고는 -16041
▁구명 -16042
▁발열 -16043
▁변천 -16044
▁약품 -16045
▁열기 -16046
▁내몽골 -16047
▁만주족 -16048
▁붉은색 -16049
▁스태프 -16050
▁양평군 -16051
▁작아지 -16052
▁추축국 -16053
▁트럼펫 -16054
▁가령 -16055
▁격화 -16056
▁다채 -16057
▁출정 -16058
▁트론 -16059
ames -16060
▁225 -16061
▁이유로 -16062
▁Baby -16063
▁미식축구 -16064
▁생물학자 -16065
▁프린세스 -16066
▁렬 -16067
▁극회 -16068
▁나날 -16069
▁만물 -16070
▁미디 -16071
▁장차 -16072
▁최순 -16073
▁코디 -16074
▁호전 -16075
▁클라인 -16076
▁항공우주 -16077
▁Intern -16078
모닉 -16079
ove -16080
▁관원 -16081
▁먼로 -16082
▁미로 -16083
▁민선 -16084
▁승선 -16085
▁신궁 -16086
▁안락 -16087
▁예편 -16088
▁유재 -16089
▁장승 -16090
▁청군 -16091
▁커넥 -16092
▁코딩 -16093
▁탄성 -16094
▁흑색 -16095
▁Mag -16096
▁디렉터 -16097
▁요시카 -16098
ology -16099
▁탄수화물 -16100
▁셀레우코스 -16101
GO -16102
레븐 -16103
▁Cr -16104
▁격침 -16105
▁고관 -16106
▁박태 -16107
▁수표 -16108
▁안건 -16109
▁오랑 -16110
▁유감 -16111
▁제헌 -16112
▁카인 -16113
▁현관 -16114
▁남아공 -16115
▁메신저 -16116
▁오리건 -16117
▁와이어 -16118
▁리하르트 -16119
▁이리하여 -16120
▁이마가와 -16121
▁해수욕장 -16122
YP -16123
▁둑 -16124
남동 -16125
파니 -16126
▁공훈 -16127
▁군위 -16128
▁노름 -16129
▁다라 -16130
▁도식 -16131
▁명장 -16132
▁무소 -16133
▁생포 -16134
▁소마 -16135
▁승마 -16136
▁야만 -16137
▁얼리 -16138
▁유익 -16139
▁지회 -16140
▁타키 -16141
▁하세 -16142
▁황하 -16143
▁후난 -16144
▁거듭나 -16145
▁방문객 -16146
▁부사장 -16147
▁부천시 -16148
ature -16149
▁레오나르 -16150
▁트로츠키 -16151
피카 -16152
▁가변 -16153
▁강구 -16154
▁진위 -16155
▁호지 -16156
▁기네스 -16157
▁나카노 -16158
▁베테랑 -16159
▁니카라과 -16160
▁서귀포시 -16161
백색 -16162
let -16163
▁공평 -16164
▁배지 -16165
▁제타 -16166
▁조엘 -16167
▁출항 -16168
▁캔터 -16169
▁캡틴 -16170
▁케로 -16171
▁통킹 -16172
▁타일러 -16173
그라운드 -16174
▁로베르트 -16175
▁소크라테스 -16176
▁안티오키아 -16177
▁갸 -16178
능력 -16179
훈련 -16180
▁결렬 -16181
▁결투 -16182
▁교내 -16183
▁무쓰 -16184
▁초판 -16185
▁친히 -16186
▁탄광 -16187
▁흉내 -16188
피에르 -16189
▁고스트 -16190
▁미요시 -16191
▁블러드 -16192
▁시나노 -16193
▁콜라보 -16194
▁돼지고기 -16195
▁에두아르 -16196
▁베오그라드 -16197
17 -16198
심원 -16199
▁BO -16200
▁그간 -16201
▁누에 -16202
▁니트 -16203
▁대소 -16204
▁듀엣 -16205
▁무루 -16206
▁비방 -16207
▁사일 -16208
▁수화 -16209
▁약수 -16210
▁양위 -16211
▁죄인 -16212
▁효성 -16213
스트림 -16214
inal -16215
▁리카르 -16216
▁태양광 -16217
경찰 -16218
메랄 -16219
무실 -16220
▁개축 -16221
▁던전 -16222
▁알마 -16223
▁직각 -16224
▁카노 -16225
▁피시 -16226
▁Way -16227
▁신안군 -16228
▁주세페 -16229
▁프레더릭 -16230
TN -16231
▁씬 -16232
락부 -16233
enn -16234
▁공지 -16235
▁굳이 -16236
▁명중 -16237
▁사옥 -16238
▁생장 -16239
▁외가 -16240
▁주스 -16241
▁합장 -16242
코비치 -16243
▁다카시 -16244
▁범어사 -16245
▁사법부 -16246
▁스트라 -16247
▁페라리 -16248
가키 -16249
금속 -16250
처럼 -16251
▁BB -16252
▁경산 -16253
▁고취 -16254
▁김장 -16255
▁도보 -16256
▁라테 -16257
▁베아 -16258
▁불길 -16259
▁서곡 -16260
▁인노 -16261
▁천태 -16262
▁총수 -16263
▁출병 -16264
▁카불 -16265
▁파출 -16266
▁한꺼 -16267
▁두더지 -16268
▁아열대 -16269
▁어드밴 -16270
▁이치로 -16271
▁태극기 -16272
▁함부로 -16273
▁해수면 -16274
▁혈액형 -16275
▁게오르기 -16276
▁한꺼번에 -16277
UM -16278
가요 -16279
ors -16280
▁개리 -16281
▁레반 -16282
▁매튜 -16283
▁증류 -16284
▁춘향 -16285
▁하츠 -16286
▁효모 -16287
▁207 -16288
▁GPS -16289
▁강릉시 -16290
▁김종직 -16291
▁알레산 -16292
▁압둘라 -16293
▁알아차리 -16294
▁MR -16295
▁결단 -16296
▁깁슨 -16297
▁레르 -16298
▁미끄 -16299
▁연어 -16300
▁윈드 -16301
▁잔치 -16302
▁재심 -16303
▁철근 -16304
▁틈타 -16305
▁흡입 -16306
말라야 -16307
▁Res -16308
▁스펜서 -16309
▁시아파 -16310
▁내역 -16311
▁봉헌 -16312
▁운석 -16313
▁조너 -16314
▁동북부 -16315
▁무정부 -16316
▁일제히 -16317
▁항소심 -16318
▁1820 -16319
갱이 -16320
▁DA -16321
▁굴욕 -16322
▁미추 -16323
▁베컴 -16324
▁사계 -16325
▁살레 -16326
▁시편 -16327
▁이구 -16328
▁폭주 -16329
▁365 -16330
▁사이다 -16331
▁이지스 -16332
▁조합원 -16333
▁직할시 -16334
▁체육회 -16335
▁1815 -16336
▁서대문구 -16337
▁선거인단 -16338
▁이오니아 -16339
덱스 -16340
즈미 -16341
app -16342
▁결실 -16343
▁기형 -16344
▁도량 -16345
▁맞닿 -16346
▁습도 -16347
▁에인 -16348
▁키치 -16349
▁페레스 -16350
노스아이 -16351
▁Amer -16352
노스아이레스 -16353
▁부에노스아이레스 -16354
광사 -16355
나비 -16356
든가 -16357
시카 -16358
월드 -16359
▁OK -16360
▁담그 -16361
▁박동 -16362
▁북송 -16363
▁비이 -16364
▁세도 -16365
▁천적 -16366
▁풋살 -16367
▁핼리 -16368
스티안 -16369
▁국무부 -16370
▁Cent -16371
▁리얼리티 -16372
▁카롤루스 -16373
▁아르바이트 -16374
▁"' -16375
▁공보 -16376
▁산마 -16377
▁설과 -16378
▁술집 -16379
▁신안 -16380
▁에든 -16381
▁토의 -16382
▁퇴계 -16383
▁화교 -16384
어들이 -16385
이즈미 -16386
▁유명세 -16387
▁지방도 -16388
▁프린터 -16389
▁라이온스 -16390
▁에든버러 -16391
▁히말라야 -16392
24 -16393
▁Dr -16394
▁변조 -16395
▁토하 -16396
▁필로 -16397
▁허구 -16398
레이즈 -16399
▁감마선 -16400
▁노무라 -16401
▁일진회 -16402
▁유럽연합 -16403
▁낸 -16404
▁욘 -16405
ret -16406
▁결집 -16407
▁김은 -16408
▁담장 -16409
▁로제 -16410
▁모잠 -16411
▁서역 -16412
▁시성 -16413
▁양분 -16414
▁좌랑 -16415
▁해내 -16416
▁해머 -16417
ange -16418
▁리그전 -16419
▁야행성 -16420
▁오징어 -16421
▁전동기 -16422
▁모잠비크 -16423
로프로세서 -16424
▁레닌그라드 -16425
▁막시밀리안 -16426
▁마이크로프로세서 -16427
▁훅 -16428
오드 -16429
현실 -16430
ina -16431
▁만수 -16432
▁스틱 -16433
▁으뜸 -16434
▁전극 -16435
▁조나 -16436
▁천리 -16437
▁충고 -16438
▁쿠사 -16439
▁표어 -16440
▁학도 -16441
▁한라 -16442
▁호박 -16443
ater -16444
▁농민군 -16445
▁도나우 -16446
▁정몽주 -16447
▁제품군 -16448
의금부사 -16449
FS -16450
▁김석 -16451
▁마취 -16452
▁분담 -16453
▁영위 -16454
▁트롤 -16455
▁피쳐 -16456
▁모터쇼 -16457
▁후베이 -16458
▁System -16459
마니 -16460
▁격상 -16461
▁리서 -16462
▁본진 -16463
▁시차 -16464
▁어인 -16465
▁월경 -16466
▁테살 -16467
▁디나모 -16468
▁조병옥 -16469
▁지포스 -16470
▁혁명가 -16471
▁고고학자 -16472
▁마쓰모토 -16473
▁알베르트 -16474
▁알렉산드라 -16475
비츠 -16476
▁갑오 -16477
▁데니 -16478
▁본능 -16479
▁부이 -16480
▁성내 -16481
▁세실 -16482
▁위태 -16483
▁융기 -16484
▁지반 -16485
▁펜스 -16486
▁넘어지 -16487
▁아드리 -16488
▁연금술 -16489
▁지팡이 -16490
▁1858 -16491
베인 -16492
▁SW -16493
▁기욤 -16494
▁노총 -16495
▁달마 -16496
▁당사 -16497
▁디펜 -16498
▁마초 -16499
▁슐레 -16500
▁이삭 -16501
▁허들 -16502
▁모델링 -16503
▁선데이 -16504
▁연습생 -16505
▁유공자 -16506
▁중심핵 -16507
▁모노이드 -16508
▁프로방스 -16509
za -16510
거루 -16511
▁경구 -16512
▁광서 -16513
▁성찬 -16514
▁소정 -16515
▁소켓 -16516
▁실태 -16517
▁자막 -16518
▁장서 -16519
▁직류 -16520
▁출루 -16521
▁코넬 -16522
▁탈리 -16523
▁퍼플 -16524
▁전망대 -16525
▁총생산 -16526
▁오스트로 -16527
▁써 -16528
▁챈 -16529
쓰네 -16530
ons -16531
▁만연 -16532
▁미완 -16533
▁벅스 -16534
▁사보 -16535
▁아토 -16536
▁장론 -16537
▁종단 -16538
▁특혜 -16539
▁형광 -16540
지먼트 -16541
▁Int -16542
▁Mac -16543
▁가디언 -16544
▁민의원 -16545
▁적절히 -16546
▁마그네슘 -16547
▁매니지먼트 -16548
니츠 -16549
입자 -16550
ley -16551
▁급사 -16552
▁기주 -16553
▁달래 -16554
▁도난 -16555
▁매질 -16556
▁발라 -16557
▁엠마 -16558
▁옵티 -16559
▁지뢰 -16560
▁특위 -16561
▁합산 -16562
▁라이드 -16563
▁모조리 -16564
▁스와프 -16565
▁신익희 -16566
▁조너선 -16567
▁크레타 -16568
▁파블로 -16569
▁이성질체 -16570
▁필하모닉 -16571
러기 -16572
토바 -16573
퍼트 -16574
▁'- -16575
▁갈비 -16576
▁관대 -16577
▁기민 -16578
▁녹말 -16579
▁새해 -16580
▁선서 -16581
▁위배 -16582
▁육박 -16583
▁음양 -16584
▁하카 -16585
▁날아오 -16586
▁도치기 -16587
▁제노바 -16588
▁알베르토 -16589
▁class -16590
▁폴리네시아 -16591
ux -16592
동리 -16593
▁견지 -16594
▁납품 -16595
▁더빙 -16596
▁사악 -16597
▁에뮬 -16598
▁전액 -16599
▁정현 -16600
▁좌천 -16601
▁창씨 -16602
▁태상 -16603
▁테드 -16604
ions -16605
▁Tra -16606
▁군산시 -16607
▁대학살 -16608
▁필리스 -16609
▁맞배지붕 -16610
▁천연가스 -16611
▁기교 -16612
▁기근 -16613
▁니라 -16614
▁상해 -16615
▁수강 -16616
▁애쓰 -16617
▁완산 -16618
▁이철 -16619
▁장택 -16620
▁재주 -16621
▁정공 -16622
▁콘셉 -16623
▁포섭 -16624
▁프록 -16625
▁USA -16626
▁ㅂ니까 -16627
▁관찰자 -16628
▁광화문 -16629
▁마에다 -16630
▁밀어내 -16631
▁봉수대 -16632
▁분홍색 -16633
▁시게루 -16634
▁High -16635
정제 -16636
▁낙태 -16637
▁남궁 -16638
▁농작 -16639
▁니체 -16640
▁덕수 -16641
▁소탕 -16642
▁수선 -16643
▁의왕 -16644
▁토드 -16645
▁펠레 -16646
▁핑계 -16647
▁그리드 -16648
▁넘어오 -16649
▁노트북 -16650
▁마피아 -16651
▁안티고 -16652
▁포인터 -16653
▁무궁화호 -16654
던스 -16655
라나 -16656
사랑 -16657
실험 -16658
코인 -16659
att -16660
▁귀하 -16661
▁대정 -16662
▁마도 -16663
▁모여 -16664
▁정과 -16665
▁진구 -16666
▁푸틴 -16667
▁Not -16668
▁목포시 -16669
▁유성구 -16670
▁전철역 -16671
▁진정하 -16672
▁평상시 -16673
▁서프랑크 -16674
▁엎 -16675
싸움 -16676
컨드 -16677
▁고택 -16678
▁궁내 -16679
▁독실 -16680
▁동티 -16681
▁말소 -16682
▁총살 -16683
지스터 -16684
▁막아내 -16685
▁평의원 -16686
▁1300 -16687
▁1814 -16688
▁조선왕조실록 -16689
테일 -16690
▁SG -16691
▁기악 -16692
▁마틸 -16693
▁미자 -16694
▁벨벳 -16695
▁아말 -16696
▁안재 -16697
▁예일 -16698
▁음역 -16699
▁증원 -16700
▁콤비 -16701
▁패퇴 -16702
▁헤지 -16703
▁비올라 -16704
▁트랜싯 -16705
▁티무르 -16706
▁피드백 -16707
▁동아프리카 -16708
▁귤 -16709
촌동 -16710
토쿠 -16711
▁공해 -16712
▁로타 -16713
▁마고 -16714
▁민가 -16715
▁성제 -16716
▁알렌 -16717
▁유승 -16718
▁헬렌 -16719
▁MHz -16720
▁쌍방울 -16721
▁What -16722
▁type -16723
▁클라이맥스 -16724
당류 -16725
랭크 -16726
재단 -16727
▁군비 -16728
▁문성 -16729
▁소치 -16730
▁이덕 -16731
▁제보 -16732
▁주상 -16733
▁휴먼 -16734
▁건너편 -16735
▁맞대결 -16736
▁성명서 -16737
▁수도사 -16738
▁플래그 -16739
▁보호구역 -16740
▁트랜지스터 -16741
기둥 -16742
널목 -16743
자유 -16744
ART -16745
▁Of -16746
▁고갈 -16747
▁보육 -16748
▁비욘 -16749
▁스팅 -16750
▁아약 -16751
▁우도 -16752
▁우이 -16753
▁전집 -16754
▁키아 -16755
▁흥덕 -16756
▁IEC -16757
▁건널목 -16758
▁겨울철 -16759
▁깨달음 -16760
▁세컨드 -16761
▁그래미상 -16762
거성 -16763
데냐 -16764
▁RA -16765
▁목화 -16766
▁비호 -16767
▁완주 -16768
▁증직 -16769
▁쿠리 -16770
▁튀기 -16771
▁홍천 -16772
▁290 -16773
▁미우라 -16774
▁오나라 -16775
▁우승컵 -16776
▁충주시 -16777
▁평택시 -16778
▁사르데냐 -16779
▁산업단지 -16780
▁토스카나 -16781
▁Google -16782
BN -16783
림동 -16784
▁구석 -16785
▁급기 -16786
▁보카 -16787
▁수의 -16788
▁스쿠 -16789
▁신관 -16790
▁우대 -16791
▁전란 -16792
▁총액 -16793
▁War -16794
▁베일리 -16795
▁액티브 -16796
▁연구실 -16797
▁재빨리 -16798
▁커티스 -16799
▁한정판 -16800
▁혁명군 -16801
▁암모니아 -16802
▁크리스천 -16803
마일 -16804
▁kW -16805
▁간지 -16806
▁로어 -16807
▁면은 -16808
▁미에 -16809
▁바사 -16810
▁버거 -16811
▁부탄 -16812
▁석등 -16813
▁애매 -16814
▁윗면 -16815
▁이다 -16816
▁퀘이 -16817
▁포진 -16818
정보부 -16819
▁라쿠텐 -16820
▁성북구 -16821
▁패트리 -16822
▁1795 -16823
민정 -16824
▁견훤 -16825
▁바하 -16826
▁북상 -16827
▁아픔 -16828
▁열망 -16829
▁캐럴 -16830
▁할양 -16831
▁헤임 -16832
씨식물 -16833
▁WHO -16834
▁니스트 -16835
▁프렌즈 -16836
▁석가여래 -16837
ger -16838
▁FS -16839
▁군집 -16840
▁규장 -16841
▁레미 -16842
▁려다 -16843
▁리온 -16844
▁선회 -16845
▁실크 -16846
▁앨버 -16847
▁열풍 -16848
▁정일 -16849
▁지층 -16850
▁직권 -16851
▁초당 -16852
▁페데 -16853
▁헨드 -16854
▁훈족 -16855
▁LCK -16856
▁MLB -16857
▁고조선 -16858
▁미시간 -16859
▁아약스 -16860
▁주교좌 -16861
▁포스코 -16862
▁프리킥 -16863
살바도르 -16864
▁부위원장 -16865
구멍 -16866
전차 -16867
▁구자 -16868
▁도표 -16869
▁루지 -16870
▁멘토 -16871
▁아난 -16872
▁켈빈 -16873
▁사이공 -16874
▁통신부 -16875
▁트루먼 -16876
▁플라자 -16877
▁다리우스 -16878
▁샌드위치 -16879
▁플레이스 -16880
▁그리스도인 -16881
▁윔 -16882
식스 -16883
회원 -16884
▁군락 -16885
▁발췌 -16886
▁스톨 -16887
▁암초 -16888
▁에린 -16889
▁원생 -16890
▁잊히 -16891
▁포교 -16892
▁국문학 -16893
▁리포트 -16894
▁원정군 -16895
▁익산시 -16896
▁프로이트 -16897
ye -16898
▁밈 -16899
alk -16900
▁NX -16901
▁PH -16902
▁괴뢰 -16903
▁도정 -16904
▁리츠 -16905
▁매춘 -16906
▁본초 -16907
▁아랑 -16908
▁에런 -16909
▁옥상 -16910
▁인대 -16911
▁춤추 -16912
▁패드 -16913
▁혼돈 -16914
▁850 -16915
▁대항해 -16916
▁홉킨스 -16917
▁With -16918
▁렝 -16919
▁모식 -16920
▁몬태 -16921
▁비어 -16922
▁세베 -16923
▁약학 -16924
▁우사 -16925
▁TBC -16926
▁블루어 -16927
▁정확도 -16928
▁창업자 -16929
▁디렉터리 -16930
yle -16931
▁로동 -16932
▁미숙 -16933
▁부녀 -16934
▁브람 -16935
▁쇠약 -16936
▁얼터 -16937
▁장조 -16938
▁풍수 -16939
▁480 -16940
▁Dis -16941
▁남조선 -16942
▁선언문 -16943
▁창덕궁 -16944
▁하모니 -16945
▁뱌 -16946
▁쥘 -16947
부미 -16948
enc -16949
▁보훈 -16950
▁코지 -16951
▁토비 -16952
▁함의 -16953
▁남해군 -16954
▁로렌초 -16955
▁스레드 -16956
▁스타즈 -16957
▁타블로 -16958
▁합천군 -16959
▁수마트라 -16960
NT -16961
▁켓 -16962
니코 -16963
▁광택 -16964
▁보궐 -16965
▁아핀 -16966
▁웅진 -16967
▁유원 -16968
▁종친 -16969
디우스 -16970
주니어 -16971
▁Art -16972
▁보행자 -16973
▁안드레이 -16974
▁카테고리 -16975
건적 -16976
고나 -16977
팽이 -16978
▁당명 -16979
▁미코 -16980
▁반야 -16981
▁웰스 -16982
▁장준 -16983
▁천정 -16984
▁첨부 -16985
▁학급 -16986
▁헬로 -16987
▁등록금 -16988
▁에히메 -16989
▁헬싱키 -16990
▁사탕수수 -16991
▁아틀레틱 -16992
▁COVID -16993
▁그리스도교 -16994
스테 -16995
카라 -16996
▁Di -16997
▁굶주 -16998
▁니나 -16999
▁승전 -17000
▁효용 -17001
▁238 -17002
▁개최지 -17003
▁공직자 -17004
▁북반구 -17005
▁충렬왕 -17006
▁Blue -17007
▁드레이크 -17008
▁간디 -17009
▁경이 -17010
▁국지 -17011
▁김세 -17012
▁더럽 -17013
▁숭실 -17014
▁씨름 -17015
▁연유 -17016
▁영재 -17017
▁윈터 -17018
▁팀장 -17019
▁평신 -17020
▁돌아서 -17021
▁지방관 -17022
▁페테르 -17023
IO -17024
블린 -17025
▁각광 -17026
▁교묘 -17027
▁논설 -17028
▁덩굴 -17029
▁데쓰 -17030
▁맛있 -17031
▁머피 -17032
▁소도 -17033
▁엄정 -17034
▁차분 -17035
플레잉 -17036
ough -17037
▁남반구 -17038
▁바로잡 -17039
▁빅토리 -17040
▁학생회 -17041
▁가나자와 -17042
▁롤플레잉 -17043
▁요시아키 -17044
▁꼼 -17045
▁먀 -17046
레프 -17047
▁감탄 -17048
▁랜덤 -17049
▁박승 -17050
▁버시 -17051
▁불평 -17052
▁설사 -17053
▁율령 -17054
가하라 -17055
▁넥스트 -17056
▁보호관 -17057
▁산체스 -17058
▁스타인 -17059
▁1793 -17060
▁이베리아 -17061
뉴스 -17062
렁이 -17063
천국 -17064
▁골수 -17065
▁구토 -17066
▁남포 -17067
▁리저 -17068
▁민권 -17069
▁세탁 -17070
▁수렵 -17071
▁와해 -17072
▁정여 -17073
네소스 -17074
▁공기업 -17075
▁손바닥 -17076
▁안데르 -17077
▁이완용 -17078
▁자연주의 -17079
▁자유민주 -17080
▁중앙정보부 -17081
UI -17082
에리 -17083
ING -17084
▁교주 -17085
▁노화 -17086
▁당분 -17087
▁데메 -17088
▁묘법 -17089
▁신구 -17090
▁역모 -17091
▁이트 -17092
▁장항 -17093
▁쿠릴 -17094
▁하디 -17095
독립당 -17096
▁수번뇌 -17097
▁에밀리 -17098
▁여객선 -17099
▁취약점 -17100
▁페인트 -17101
▁한국독립당 -17102
▁키르기스스탄 -17103
que -17104
▁ED -17105
▁Vf -17106
▁갤러 -17107
▁과부 -17108
▁국과 -17109
▁내구 -17110
▁만기 -17111
▁멜론 -17112
▁몸집 -17113
▁보츠 -17114
▁서강 -17115
▁올랭 -17116
▁용접 -17117
▁정병 -17118
▁존엄 -17119
▁직함 -17120
▁페터 -17121
▁하순 -17122
다람쥐 -17123
연화경 -17124
▁Rev -17125
▁문하시 -17126
▁보라색 -17127
▁크라스 -17128
스트리트 -17129
▁1846 -17130
▁MPEG -17131
▁물리학상 -17132
▁에드먼드 -17133
26 -17134
메트 -17135
적분 -17136
전쟁 -17137
OVE -17138
▁괴멸 -17139
▁구룡 -17140
▁대뇌 -17141
▁무당 -17142
▁미묘 -17143
▁민생 -17144
▁유시 -17145
▁윤원 -17146
▁이국 -17147
▁천구 -17148
웨스트 -17149
▁노르트 -17150
▁아산시 -17151
▁아칸소 -17152
▁유격대 -17153
▁1839 -17154
▁브루나이 -17155
르모 -17156
ump -17157
▁삼키 -17158
▁서보 -17159
▁오호 -17160
▁이효 -17161
▁참배 -17162
비우스 -17163
▁농작물 -17164
▁엉덩이 -17165
▁이브라 -17166
▁중서부 -17167
▁어드밴스 -17168
▁하시모토 -17169
운전 -17170
▁'. -17171
▁느라 -17172
▁니콘 -17173
▁월북 -17174
▁인출 -17175
▁퇴단 -17176
▁펀치 -17177
시우스 -17178
▁가입자 -17179
▁메이트 -17180
▁버나드 -17181
▁변속기 -17182
▁시어터 -17183
▁지난해 -17184
▁추밀원 -17185
▁1854 -17186
▁time -17187
▁기념사업 -17188
▁넉 -17189
▁뚱 -17190
나물 -17191
래시 -17192
바람 -17193
파스 -17194
▁경멸 -17195
▁귀양 -17196
▁낙타 -17197
▁산불 -17198
▁억류 -17199
▁총체 -17200
▁추위 -17201
▁표결 -17202
슬라브 -17203
▁LCD -17204
▁배수량 -17205
▁베드로 -17206
▁아테나 -17207
▁체스터 -17208
▁최하위 -17209
▁테트라 -17210
▁여주인공 -17211
▁히로부미 -17212
▁시즈오카현 -17213
▁아오모리현 -17214
대성 -17215
질량 -17216
der -17217
▁걸맞 -17218
▁공덕 -17219
▁구인 -17220
▁도색 -17221
▁망루 -17222
▁사흘 -17223
▁솔트 -17224
▁순정 -17225
▁잠들 -17226
▁해자 -17227
▁국무원 -17228
▁상속인 -17229
▁외무성 -17230
▁아나키즘 -17231
▁초등학생 -17232
▁갑각 -17233
▁게일 -17234
▁깜짝 -17235
▁독소 -17236
▁박기 -17237
▁심플 -17238
▁존상 -17239
▁클루 -17240
▁학창 -17241
▁휘트 -17242
▁아쿠아 -17243
▁전기장 -17244
▁황태후 -17245
▁후임자 -17246
▁기독교인 -17247
▁촘 -17248
모자 -17249
재란 -17250
후이 -17251
▁군국 -17252
▁마는 -17253
▁본당 -17254
▁부윤 -17255
▁심근 -17256
▁윤석 -17257
▁이견 -17258
▁이형 -17259
▁정강 -17260
▁톨킨 -17261
▁현충 -17262
니다드 -17263
티우스 -17264
학생회 -17265
▁214 -17266
▁737 -17267
▁대머리 -17268
▁수증기 -17269
▁알레르 -17270
▁하카타 -17271
▁정유재란 -17272
▁자동변속기 -17273
▁트리니다드 -17274
▁중앙아프리카 -17275
든지 -17276
▁개전 -17277
▁방조 -17278
▁분양 -17279
▁아민 -17280
▁여과 -17281
▁유폐 -17282
▁인신 -17283
▁치중 -17284
▁환기 -17285
코스트 -17286
▁가시마 -17287
▁기부금 -17288
▁분류학 -17289
▁상대론 -17290
▁시공간 -17291
▁윤리학 -17292
▁키워드 -17293
▁파트리 -17294
▁팩토리 -17295
▁평화상 -17296
▁언어학자 -17297
▁이해관계 -17298
▁총학생회 -17299
고트 -17300
우어 -17301
패스 -17302
▁가니 -17303
▁구나 -17304
▁루머 -17305
▁미모 -17306
▁바일 -17307
▁범용 -17308
▁야로 -17309
▁칼레 -17310
▁특례 -17311
▁파드 -17312
▁필기 -17313
▁후시 -17314
▁낙하산 -17315
▁산둥성 -17316
총리대신 -17317
▁마음대로 -17318
▁세키가하라 -17319
▁내각총리대신 -17320
BT -17321
▁내수 -17322
▁라몬 -17323
▁매번 -17324
▁매월 -17325
▁박준 -17326
▁브론 -17327
▁비참 -17328
▁상작 -17329
▁손책 -17330
▁오딘 -17331
▁웅장 -17332
▁육아 -17333
▁종주 -17334
▁찬탈 -17335
▁코레 -17336
▁COM -17337
▁Min -17338
▁경비대 -17339
▁돗토리 -17340
▁보나파 -17341
▁절대로 -17342
▁조계종 -17343
▁증명서 -17344
▁미성년자 -17345
▁비지니스 -17346
▁보나파르트 -17347
▁돛 -17348
▁BR -17349
▁등대 -17350
▁마한 -17351
▁상투 -17352
▁새턴 -17353
▁석상 -17354
▁수류 -17355
▁이부 -17356
▁페드 -17357
캐스트 -17358
쿠스틱 -17359
프랑스 -17360
▁안중근 -17361
▁에리크 -17362
▁1849 -17363
▁Beat -17364
▁어쿠스틱 -17365
▁플로이드 -17366
▁뺏 -17367
▁퓌 -17368
▁ME -17369
▁광경 -17370
▁교포 -17371
▁분장 -17372
▁소홀 -17373
▁어이 -17374
▁오닐 -17375
▁장령 -17376
▁제식 -17377
▁팬아 -17378
▁가파르 -17379
▁교토부 -17380
▁북극해 -17381
▁비행대 -17382
▁갈릴레이 -17383
▁공화주의 -17384
▁비트코인 -17385
▁견습 -17386
▁고압 -17387
▁디온 -17388
▁바덴 -17389
▁베버 -17390
▁비크 -17391
▁실로 -17392
▁유품 -17393
▁태세 -17394
▁페가 -17395
▁갖가지 -17396
▁데포르 -17397
▁초대칭 -17398
▁파출소 -17399
▁하이든 -17400
▁1856 -17401
▁오브젝트 -17402
▁페더레이션 -17403
28 -17404
담회 -17405
사회 -17406
탐정 -17407
▁간염 -17408
▁계투 -17409
▁북해 -17410
▁사죄 -17411
▁시경 -17412
▁인피 -17413
▁적재 -17414
▁해일 -17415
▁화북 -17416
직할시 -17417
▁건국대 -17418
▁구청장 -17419
▁나가노 -17420
▁델라웨어 -17421
HD -17422
▁깡 -17423
▁럴 -17424
▁줌 -17425
▁낙랑 -17426
▁남로 -17427
▁단성 -17428
▁담론 -17429
▁모기 -17430
▁본디 -17431
▁분쇄 -17432
▁소란 -17433
▁수배 -17434
▁시주 -17435
▁신작 -17436
▁엠블 -17437
▁철원 -17438
▁현령 -17439
▁찬드라 -17440
▁포위전 -17441
▁노동자당 -17442
▁소용돌이 -17443
▁네덜란드어 -17444
누아 -17445
오린 -17446
정권 -17447
호르 -17448
호프 -17449
▁대세 -17450
▁봉작 -17451
▁역습 -17452
▁연임 -17453
▁예속 -17454
▁오기 -17455
▁우동 -17456
▁웨일 -17457
▁이안 -17458
▁제학 -17459
▁파격 -17460
타니아 -17461
▁430 -17462
▁교직원 -17463
▁식물원 -17464
▁어리석 -17465
▁해럴드 -17466
베이거스 -17467
▁캐나다인 -17468
▁크레이그 -17469
▁하이웨이 -17470
23 -17471
섬유 -17472
케스 -17473
▁반열 -17474
▁배설 -17475
▁변방 -17476
▁악역 -17477
▁요아 -17478
▁추궁 -17479
▁헤엄 -17480
▁화전 -17481
▁효능 -17482
atch -17483
▁장택상 -17484
▁1851 -17485
▁스탠퍼드 -17486
▁캔자스시티 -17487
▁라스베이거스 -17488
OU -17489
▁녜 -17490
개혁 -17491
체어 -17492
▁드니 -17493
▁마자 -17494
▁만국 -17495
▁메사 -17496
▁밀스 -17497
▁반려 -17498
▁유장 -17499
▁적성 -17500
▁조승 -17501
▁촌은 -17502
▁한서 -17503
▁419 -17504
▁감염자 -17505
▁다이나 -17506
▁참모장 -17507
▁상파울루 -17508
▁차량기지 -17509
▁PP -17510
▁간장 -17511
▁낙엽 -17512
▁단호 -17513
▁볼륨 -17514
▁셔먼 -17515
▁원성 -17516
▁윤영 -17517
▁후백 -17518
트로피 -17519
▁FBI -17520
▁디스코 -17521
▁레인보 -17522
▁벤피카 -17523
▁보르도 -17524
▁입출력 -17525
▁테이크 -17526
▁투데이 -17527
▁사보이아 -17528
▁크리에이티브 -17529
처리 -17530
하스 -17531
▁계란 -17532
▁김문 -17533
▁단사 -17534
▁도독 -17535
▁라티 -17536
▁상체 -17537
▁알비 -17538
▁외동 -17539
▁치수 -17540
▁친절 -17541
▁Top -17542
▁아가씨 -17543
▁오비탈 -17544
▁진보당 -17545
▁집어넣 -17546
▁하동군 -17547
츠부르크 -17548
▁블레이드 -17549
▁스티븐스 -17550
▁오하이오주 -17551
86 -17552
ery -17553
▁결탁 -17554
▁경색 -17555
▁서천 -17556
▁쇼팽 -17557
▁수서 -17558
▁언약 -17559
▁주경 -17560
▁착안 -17561
▁히다 -17562
▁기념식 -17563
▁노스케 -17564
▁캥거루 -17565
▁핵폭탄 -17566
▁1855 -17567
▁1857 -17568
▁서스펜션 -17569
▁정사각형 -17570
▁폴란드인 -17571
▁프란시스 -17572
▁힉 -17573
전기 -17574
투안 -17575
하늘 -17576
▁TG -17577
▁국면 -17578
▁대광 -17579
▁대열 -17580
▁보문 -17581
▁분개 -17582
▁생가 -17583
▁여생 -17584
▁욕설 -17585
▁정시 -17586
▁카잔 -17587
▁페티 -17588
▁공사관 -17589
▁대주주 -17590
▁배트맨 -17591
▁상세히 -17592
▁수산물 -17593
▁시부야 -17594
▁애벌레 -17595
▁작사가 -17596
▁휠체어 -17597
▁다이스케 -17598
깨비 -17599
버거 -17600
봉사 -17601
산읍 -17602
일라 -17603
천년 -17604
카테 -17605
▁거액 -17606
▁랜디 -17607
▁명주 -17608
▁발송 -17609
▁벽면 -17610
▁빌미 -17611
▁조력 -17612
cess -17613
▁Med -17614
▁베르디 -17615
▁서북쪽 -17616
▁수수료 -17617
▁올라서 -17618
▁일간지 -17619
▁갑신정변 -17620
▁민족주의자 -17621
하르 -17622
▁YM -17623
▁권세 -17624
▁무왕 -17625
▁서상 -17626
▁성채 -17627
▁수훈 -17628
▁아모 -17629
▁캔디 -17630
▁핵산 -17631
▁현명 -17632
icro -17633
▁211 -17634
▁구미시 -17635
▁글리코 -17636
▁봉사자 -17637
▁시흥시 -17638
▁행정관 -17639
▁반공주의 -17640
▁여러해살이풀 -17641
▁좡 -17642
▁심슨 -17643
▁정년 -17644
▁택지 -17645
▁한참 -17646
고양이 -17647
콥스키 -17648
▁301 -17649
▁모자라 -17650
▁제이스 -17651
▁지평선 -17652
▁포천시 -17653
▁데포르티보 -17654
댄스 -17655
테른 -17656
▁롤리 -17657
▁압송 -17658
▁쟁점 -17659
▁주치 -17660
▁체첸 -17661
▁친목 -17662
▁템포 -17663
▁포구 -17664
▁해금 -17665
▁Pop -17666
▁시우바 -17667
▁웨이트 -17668
▁저작물 -17669
▁펠로폰 -17670
▁포브스 -17671
▁Will -17672
▁이와테현 -17673
▁병마절도사 -17674
▁펠로폰네소스 -17675
레토 -17676
버드 -17677
서구 -17678
재기 -17679
증권 -17680
지대 -17681
▁까다 -17682
▁버퍼 -17683
▁셀룰 -17684
▁신영 -17685
▁인테 -17686
▁폰트 -17687
루리아 -17688
▁223 -17689
▁동의어 -17690
▁변증법 -17691
메니스탄 -17692
▁서아시아 -17693
▁투르크메니스탄 -17694
소득 -17695
왕국 -17696
흐트 -17697
▁변장 -17698
▁선하 -17699
▁소망 -17700
▁실습 -17701
▁임베 -17702
▁크세 -17703
▁탄원 -17704
▁팔자 -17705
▁려다가 -17706
▁스나이 -17707
▁은하단 -17708
▁카운터 -17709
▁컨디션 -17710
▁헤이스 -17711
▁임베디드 -17712
쇼프 -17713
연대 -17714
▁CL -17715
▁간파 -17716
▁노회 -17717
▁대적 -17718
▁만리 -17719
▁수스 -17720
▁액수 -17721
▁외벽 -17722
▁지소 -17723
▁찬스 -17724
▁히나 -17725
▁NAD -17726
▁그로스 -17727
▁나주시 -17728
▁비엔나 -17729
▁1776 -17730
▁Free -17731
▁엔트로피 -17732
니엄 -17733
니크 -17734
바꿈 -17735
▁돌핀 -17736
▁박격 -17737
▁벚꽃 -17738
▁성간 -17739
▁슈바 -17740
▁이학 -17741
▁늘어지 -17742
▁오카다 -17743
▁클라리넷 -17744
로아 -17745
ont -17746
▁FR -17747
▁IA -17748
▁고증 -17749
▁급습 -17750
▁노다 -17751
▁신명 -17752
▁알론 -17753
▁열반 -17754
▁원제 -17755
▁율곡 -17756
▁음경 -17757
▁읽히 -17758
▁장구 -17759
▁지병 -17760
▁카렐 -17761
▁한도 -17762
시오날 -17763
▁대각선 -17764
▁뽑아내 -17765
▁핵실험 -17766
타고라스 -17767
▁나시오날 -17768
▁플루오린 -17769
day -17770
▁김한 -17771
▁미안 -17772
▁이공 -17773
▁퇴사 -17774
▁현청 -17775
▁회부 -17776
▁다면체 -17777
▁모여들 -17778
▁보니파 -17779
▁수송기 -17780
▁하이델 -17781
▁가까스로 -17782
▁무라카미 -17783
▁미주리주 -17784
27 -17785
스탕 -17786
▁골목 -17787
▁버즈 -17788
▁요네 -17789
▁조식 -17790
▁총알 -17791
▁코민 -17792
▁항모 -17793
▁현생 -17794
▁독립국 -17795
▁루터교 -17796
▁마그마 -17797
▁바이스 -17798
▁타고나 -17799
▁형무소 -17800
▁사카모토 -17801
▁태평천국 -17802
광선 -17803
▁UR -17804
▁과업 -17805
▁뇌졸 -17806
▁대흥 -17807
▁문교 -17808
▁방한 -17809
▁센스 -17810
▁윤선 -17811
▁잠복 -17812
▁타오 -17813
노벨라 -17814
리어스 -17815
중국해 -17816
▁거제시 -17817
▁레너드 -17818
▁이범석 -17819
▁올랭피크 -17820
▁원내대표 -17821
▁그레고리력 -17822
▁텔레노벨라 -17823
▁통합진보당 -17824
▁금광 -17825
▁부총 -17826
▁사극 -17827
▁와트 -17828
▁중첩 -17829
▁병원체 -17830
▁아세트 -17831
볼트 -17832
aut -17833
▁MW -17834
▁개요 -17835
▁누각 -17836
▁라데 -17837
▁상시 -17838
▁서던 -17839
▁양손 -17840
▁언젠 -17841
▁재원 -17842
▁조참 -17843
▁호가 -17844
레시브 -17845
▁XML -17846
▁가속기 -17847
▁달라이 -17848
▁동북쪽 -17849
▁새천년 -17850
▁청교도 -17851
▁출생지 -17852
▁클라라 -17853
▁캄파니아주 -17854
▁프로그레시브 -17855
모습 -17856
활성 -17857
▁땅콩 -17858
▁몬트 -17859
▁성추 -17860
▁심신 -17861
▁영아 -17862
▁원가 -17863
▁장타 -17864
▁질리 -17865
▁케니 -17866
궐선거 -17867
▁다시피 -17868
▁비정규 -17869
▁어지럽 -17870
▁언젠가 -17871
▁국민회의 -17872
▁재보궐선거 -17873
29 -17874
ma -17875
를린 -17876
쿠젠 -17877
평가 -17878
▁Po -17879
▁명지 -17880
▁산탄 -17881
▁살림 -17882
▁준위 -17883
▁천명 -17884
▁타현 -17885
▁퇴화 -17886
▁급기야 -17887
▁김종필 -17888
▁마인드 -17889
▁심포니 -17890
▁영산회 -17891
▁청구인 -17892
▁피에트로 -17893
▁10000 -17894
▁레오나르도 -17895
마타 -17896
▁ne -17897
▁간소 -17898
▁계파 -17899
▁괴팅 -17900
▁교복 -17901
▁기물 -17902
▁누락 -17903
▁로로 -17904
▁미망 -17905
▁미움 -17906
▁발주 -17907
▁방수 -17908
▁시왕 -17909
▁역행 -17910
▁지단 -17911
▁진안 -17912
▁파사 -17913
▁표상 -17914
▁하쿠 -17915
▁합체 -17916
▁혹독 -17917
▁가로막 -17918
▁굳어지 -17919
▁베르그 -17920
▁묘법연화경 -17921
연료 -17922
▁각별 -17923
▁로젠 -17924
▁본기 -17925
▁사성 -17926
▁셰이 -17927
▁수잔 -17928
▁연좌 -17929
▁음란 -17930
▁이로 -17931
▁이연 -17932
▁화신 -17933
들랜드 -17934
▁Bro -17935
▁End -17936
▁del -17937
▁단기간 -17938
▁메이플 -17939
▁모티프 -17940
▁베리아 -17941
▁빠뜨리 -17942
▁사모아 -17943
▁살아나 -17944
▁영등포 -17945
▁황도대 -17946
▁조기어류 -17947
저민 -17948
페리 -17949
its -17950
▁CV -17951
▁가메 -17952
▁감명 -17953
▁국고 -17954
▁국채 -17955
▁세브 -17956
▁습성 -17957
▁어필 -17958
▁입안 -17959
▁직제 -17960
▁최경 -17961
▁홀드 -17962
메네스 -17963
메데스 -17964
▁215 -17965
▁벤저민 -17966
▁샘플링 -17967
▁서기장 -17968
▁에인절 -17969
▁치우치 -17970
▁팰리스 -17971
▁포위망 -17972
개발 -17973
▁로미 -17974
▁만다 -17975
▁반일 -17976
▁비비 -17977
▁콘월 -17978
▁포에 -17979
irst -17980
▁Big -17981
▁DFB -17982
▁네브래스카 -17983
니발 -17984
슐린 -17985
▁나나 -17986
▁대양 -17987
▁배영 -17988
▁세가 -17989
▁에나 -17990
▁체임 -17991
▁퓨전 -17992
▁황보 -17993
▁까다롭 -17994
▁논산시 -17995
▁리서치 -17996
▁크리켓 -17997
▁캔터베리 -17998
BL -17999
가야 -18000
계리 -18001
급시 -18002
미치 -18003
▁공녀 -18004
▁노미 -18005
▁로자 -18006
▁생사 -18007
▁우문 -18008
▁청화 -18009
▁포즈 -18010
▁포탈 -18011
▁픽업 -18012
▁게이츠 -18013
▁서남쪽 -18014
▁특공대 -18015
▁미시간주 -18016
▁스포르팅 -18017
▁코미디언 -18018
▁포레스트 -18019
빼미 -18020
▁DL -18021
▁개간 -18022
▁노먼 -18023
▁독감 -18024
▁린드 -18025
▁마마 -18026
▁밑면 -18027
▁열광 -18028
▁요세 -18029
▁장보 -18030
▁정철 -18031
▁주둥 -18032
▁문화사 -18033
▁begin -18034
▁WH -18035
▁경치 -18036
▁니즘 -18037
▁라비 -18038
▁레베 -18039
▁몰입 -18040
▁미팅 -18041
▁시로 -18042
▁원화 -18043
▁위드 -18044
▁브레인 -18045
▁엑스선 -18046
▁프리랜 -18047
▁해설자 -18048
br -18049
연의 -18050
지않 -18051
코바 -18052
▁가인 -18053
▁매드 -18054
▁메콩 -18055
▁브롱 -18056
▁살상 -18057
▁서드 -18058
▁서킷 -18059
▁실드 -18060
▁위아 -18061
▁유즈 -18062
▁정약 -18063
▁징후 -18064
▁추석 -18065
▁틈새 -18066
▁한방 -18067
더니즘 -18068
▁239 -18069
▁경기력 -18070
▁구석기 -18071
▁부활절 -18072
▁서로마 -18073
▁월리스 -18074
▁전년도 -18075
▁후반부 -18076
▁언더그라운드 -18077
▁다의 -18078
▁루소 -18079
▁우메 -18080
▁질레 -18081
▁코다 -18082
▁쿠키 -18083
▁패주 -18084
▁기장군 -18085
▁레이어 -18086
▁수메르 -18087
▁특이점 -18088
▁HK -18089
▁경수 -18090
▁낭독 -18091
▁내쫓 -18092
▁비슈 -18093
▁연천 -18094
▁전갈 -18095
▁접착 -18096
▁정파 -18097
▁창안 -18098
▁픽션 -18099
▁510 -18100
▁계약금 -18101
▁계약서 -18102
▁권력자 -18103
▁미카사 -18104
▁사중주 -18105
▁유니온 -18106
▁1792 -18107
HS -18108
▁젬 -18109
보스 -18110
aff -18111
oss -18112
▁KC -18113
▁그려 -18114
▁녀석 -18115
▁래스 -18116
▁루아 -18117
▁시동 -18118
▁시암 -18119
▁아그 -18120
▁우랄 -18121
▁종택 -18122
▁청탁 -18123
▁촌락 -18124
▁칸타 -18125
▁평년 -18126
▁향리 -18127
▁호치 -18128
파트라 -18129
▁BMW -18130
▁목걸이 -18131
▁보호자 -18132
▁부제학 -18133
▁사생아 -18134
▁소선거구 -18135
▁프라이스 -18136
▁클레오파트라 -18137
▁까치 -18138
▁덤불 -18139
▁도기 -18140
▁듀크 -18141
▁명절 -18142
▁부원 -18143
▁세관 -18144
▁위니 -18145
▁유실 -18146
▁Rain -18147
▁동대문구 -18148
▁아틀라스 -18149
▁프로토타입 -18150
▁감히 -18151
▁귀납 -18152
▁덧셈 -18153
▁시료 -18154
▁안상 -18155
▁영연 -18156
▁이족 -18157
▁제향 -18158
▁Des -18159
▁set -18160
▁게이머 -18161
▁다다르 -18162
▁미술가 -18163
▁브람스 -18164
▁외삼촌 -18165
▁재정난 -18166
▁퍼펙트 -18167
▁void -18168
▁금화 -18169
▁비츠 -18170
▁예천 -18171
▁정량 -18172
▁제반 -18173
▁함안 -18174
▁과선교 -18175
▁따돌리 -18176
▁목격자 -18177
▁파이브 -18178
▁1853 -18179
▁LIVE -18180
▁Mnet -18181
▁알레르기 -18182
▁슈퍼주니어 -18183
루이 -18184
막염 -18185
삼문 -18186
▁RE -18187
▁do -18188
▁난간 -18189
▁독신 -18190
▁버락 -18191
▁불황 -18192
▁산토 -18193
▁성년 -18194
▁시판 -18195
▁약정 -18196
▁욕심 -18197
▁잠그 -18198
▁카쿠 -18199
▁티르 -18200
▁호엔 -18201
너티브 -18202
제르맹 -18203
▁성추행 -18204
▁시설물 -18205
▁퍼뜨리 -18206
▁표준어 -18207
▁Show -18208
▁권위주의 -18209
▁얼터너티브 -18210
버섯 -18211
타라 -18212
▁대검 -18213
▁도고 -18214
▁동복 -18215
▁라벤 -18216
▁박중 -18217
▁상피 -18218
▁섬멸 -18219
▁시구 -18220
▁아속 -18221
▁양력 -18222
▁오쓰 -18223
▁절멸 -18224
▁최북 -18225
▁쿠페 -18226
▁홍백 -18227
덜랜드 -18228
메이트 -18229
▁레일리 -18230
▁명백히 -18231
▁정말로 -18232
▁지도력 -18233
▁1791 -18234
▁1852 -18235
▁인테리어 -18236
▁플레이트 -18237
▁엘살바도르 -18238
▁퓰 -18239
그림 -18240
▁JP -18241
▁SI -18242
▁가평 -18243
▁바크 -18244
▁숙성 -18245
▁아쓰 -18246
▁입적 -18247
▁자락 -18248
▁최치 -18249
▁커트 -18250
▁케스 -18251
▁튀르 -18252
▁TOP -18253
▁요리사 -18254
▁프레디 -18255
▁모하메드 -18256
▁테러리스트 -18257
얼빈 -18258
이인 -18259
행사 -18260
IDS -18261
▁구급 -18262
▁만찬 -18263
▁모후 -18264
▁밥상 -18265
▁상권 -18266
▁수온 -18267
▁수첩 -18268
▁스커 -18269
▁영세 -18270
▁이면 -18271
▁일람 -18272
▁착오 -18273
▁캄포 -18274
▁탄환 -18275
▁검사장 -18276
▁꽃받침 -18277
▁무안군 -18278
▁무인역 -18279
▁버밍엄 -18280
▁아르카 -18281
▁양서류 -18282
▁프로파 -18283
▁호위함 -18284
▁벌어들이 -18285
▁사다하루 -18286
▁생제르맹 -18287
▁속씨식물 -18288
▁크래프트 -18289
▁콘스탄티노플 -18290
▁잣 -18291
노동 -18292
티드 -18293
▁CT -18294
▁FN -18295
▁갑판 -18296
▁강물 -18297
▁구면 -18298
▁메트 -18299
▁방과 -18300
▁사구 -18301
▁성하 -18302
▁수전 -18303
▁실화 -18304
▁제각 -18305
핵생물 -18306
▁에르난 -18307
▁중생대 -18308
▁경향신문 -18309
▁도네츠크 -18310
be -18311
▁옅 -18312
경궁 -18313
바타 -18314
방식 -18315
이다 -18316
하워 -18317
vis -18318
▁교우 -18319
▁매너 -18320
▁부름 -18321
▁부응 -18322
▁북제 -18323
▁비고 -18324
▁선방 -18325
▁에타 -18326
▁연작 -18327
▁월급 -18328
▁으라 -18329
▁친숙 -18330
▁회중 -18331
▁후신 -18332
▁그려지 -18333
▁끊어지 -18334
▁레프트 -18335
▁성동구 -18336
▁조나단 -18337
▁중학생 -18338
▁지원자 -18339
▁한마디 -18340
ement -18341
▁퍼레이드 -18342
▁아이젠하워 -18343
▁빽 -18344
oup -18345
▁관서 -18346
▁구보 -18347
▁근연 -18348
▁노던 -18349
▁도금 -18350
▁셰프 -18351
▁수뇌 -18352
▁슬럼 -18353
▁식료 -18354
▁신재 -18355
▁실황 -18356
▁음색 -18357
▁출소 -18358
▁희박 -18359
즐랜드 -18360
▁212 -18361
▁동인도 -18362
▁브리트 -18363
▁점성가 -18364
▁찻 -18365
귀비 -18366
팔렌 -18367
하트 -18368
▁EN -18369
▁FX -18370
▁박인 -18371
▁예견 -18372
▁완투 -18373
▁우쓰 -18374
▁원망 -18375
▁장영 -18376
▁제법 -18377
▁플뢰 -18378
▁히브 -18379
▁233 -18380
▁게이초 -18381
▁관악구 -18382
▁부끄럽 -18383
▁재판장 -18384
▁좀처럼 -18385
▁퀸즐랜드 -18386
▁귀향 -18387
▁능통 -18388
▁벨레 -18389
▁불펜 -18390
▁색인 -18391
▁서하 -18392
▁아만 -18393
▁여태 -18394
▁오에 -18395
▁은둔 -18396
▁필살 -18397
▁해동 -18398
▁호감 -18399
▁경영진 -18400
▁분화구 -18401
▁상류층 -18402
▁앵글로 -18403
▁유목민 -18404
▁잎자루 -18405
▁1847 -18406
▁Like -18407
▁다운타운 -18408
▁천주교회 -18409
▁히로시마현 -18410
▁뚝 -18411
▁즌 -18412
노헤 -18413
▁고작 -18414
▁국물 -18415
▁김호 -18416
▁남짓 -18417
▁독려 -18418
▁따내 -18419
▁보두 -18420
▁요트 -18421
▁윤상 -18422
▁장터 -18423
▁Bar -18424
▁음악회 -18425
▁이스턴 -18426
▁최적화 -18427
▁퀘스트 -18428
▁현저히 -18429
▁황갈색 -18430
▁LOVE -18431
▁도쿠시마 -18432
▁루키우스 -18433
▁뱀파이어 -18434
▁필리포스 -18435
▁롬바르디아 -18436
에어 -18437
▁EF -18438
▁고질 -18439
▁고타 -18440
▁나니 -18441
▁망상 -18442
▁수난 -18443
▁수찬 -18444
▁쑨원 -18445
▁점심 -18446
▁차가 -18447
▁청진 -18448
▁팔각 -18449
▁품계 -18450
하이머 -18451
▁개찰기 -18452
▁세례명 -18453
▁에버턴 -18454
▁옹진군 -18455
▁플랜트 -18456
▁현악기 -18457
▁옥타비아 -18458
▁콘티넨털 -18459
개명 -18460
▁기치 -18461
▁대파 -18462
▁마조 -18463
▁미일 -18464
▁박주 -18465
▁신숙 -18466
▁이계 -18467
▁릴리스 -18468
▁베이컨 -18469
▁올빼미 -18470
▁시트르산 -18471
▁프리랜서 -18472
▁Sound -18473
▁똥 -18474
비어 -18475
way -18476
▁OC -18477
▁강압 -18478
▁경감 -18479
▁과천 -18480
▁버블 -18481
▁안젤 -18482
▁연일 -18483
▁최재 -18484
▁쾌락 -18485
▁학점 -18486
▁황성 -18487
▁강아지 -18488
▁김포시 -18489
▁다각형 -18490
▁이베이 -18491
▁저술가 -18492
▁핵연료 -18493
▁레인보우 -18494
▁은행나무 -18495
▁Light -18496
▁안티고노스 -18497
오세 -18498
▁NK -18499
▁es -18500
▁mg -18501
▁가봉 -18502
▁공물 -18503
▁기노 -18504
▁나팔 -18505
▁냉동 -18506
▁마로 -18507
▁미신 -18508
▁밀턴 -18509
▁슬롯 -18510
▁야채 -18511
▁약국 -18512
▁영해 -18513
▁오목 -18514
▁유위 -18515
▁조만 -18516
▁주술 -18517
▁지드 -18518
▁초중 -18519
▁포리 -18520
▁회군 -18521
▁더구나 -18522
▁브룩스 -18523
▁생태학 -18524
▁유학생 -18525
▁인슐린 -18526
▁하얼빈 -18527
▁Over -18528
▁옵티머스 -18529
▁버지니아주 -18530
WS -18531
▁읊 -18532
▁젓 -18533
랄라 -18534
▁UK -18535
▁골자 -18536
▁관사 -18537
▁궁금 -18538
▁낙인 -18539
▁마누 -18540
▁발화 -18541
▁수작 -18542
▁연사 -18543
▁왈라 -18544
▁음소 -18545
▁파니 -18546
리오카 -18547
▁221 -18548
▁뇌졸중 -18549
▁Sing -18550
▁뿌 -18551
▁계명 -18552
▁궤멸 -18553
▁베레 -18554
▁서간 -18555
▁송금 -18556
▁신예 -18557
▁외화 -18558
▁우성 -18559
▁진과 -18560
▁차드 -18561
▁클론 -18562
▁푸시 -18563
▁호러 -18564
▁후각 -18565
자위대 -18566
ouse -18567
▁Red -18568
▁가오슝 -18569
▁레슬리 -18570
▁미망인 -18571
▁세일러 -18572
▁수류탄 -18573
▁중대장 -18574
▁편의점 -18575
▁해적단 -18576
루트 -18577
야구 -18578
임수 -18579
타바 -18580
▁강수 -18581
▁동족 -18582
▁라피 -18583
▁삼가 -18584
▁스벤 -18585
▁슬퍼 -18586
▁쓰가 -18587
▁자력 -18588
▁주어 -18589
▁커크 -18590
▁혈청 -18591
▁회기 -18592
▁Sec -18593
▁탈수소 -18594
브레히트 -18595
▁가이우스 -18596
▁계몽주의 -18597
▁시라카와 -18598
▁카리브해 -18599
색슨 -18600
워키 -18601
▁계략 -18602
▁고부 -18603
▁명품 -18604
▁보현 -18605
▁비약 -18606
▁색조 -18607
▁신빙 -18608
▁추월 -18609
▁콕스 -18610
▁한류 -18611
▁나뭇잎 -18612
▁리히텐 -18613
▁배상금 -18614
▁세포막 -18615
▁정보국 -18616
▁1100 -18617
▁브래들리 -18618
▁창씨개명 -18619
▁앵글로색슨 -18620
거슨 -18621
시간 -18622
옹주 -18623
▁고해 -18624
▁굴리 -18625
▁나츠 -18626
▁선지 -18627
▁아워 -18628
▁앙주 -18629
▁유주 -18630
▁혹평 -18631
대주의 -18632
ason -18633
▁231 -18634
▁Eng -18635
▁여름철 -18636
▁유가족 -18637
▁참가국 -18638
▁카이저 -18639
▁피스톤 -18640
▁1844 -18641
▁동명이인 -18642
▁네덜란드인 -18643
▁즙 -18644
▁JS -18645
▁ac -18646
▁그랜 -18647
▁다키 -18648
▁동천 -18649
▁마왕 -18650
▁안구 -18651
▁업소 -18652
▁울음 -18653
▁크릭 -18654
▁판별 -18655
▁하체 -18656
하이드 -18657
▁산화물 -18658
▁곤살레스 -18659
▁사회단체 -18660
▁요코스카 -18661
▁갑상 -18662
▁과수 -18663
▁미약 -18664
▁비니 -18665
▁식년 -18666
▁오경 -18667
▁이등 -18668
▁장현 -18669
▁적시 -18670
▁정구 -18671
▁청풍 -18672
▁타코 -18673
▁티나 -18674
▁정착민 -18675
▁조교수 -18676
▁랜드마크 -18677
▁알레산드로 -18678
aj -18679
프슨 -18680
iet -18681
▁RO -18682
▁간편 -18683
▁레딧 -18684
▁미오 -18685
▁아론 -18686
▁이도 -18687
▁재야 -18688
▁쟁취 -18689
▁정연 -18690
▁취락 -18691
▁토토 -18692
▁해류 -18693
▁갑각류 -18694
▁박격포 -18695
▁정찰기 -18696
▁평창군 -18697
▁하루카 -18698
▁1837 -18699
▁오를레앙 -18700
▁민속문화재 -18701
▁꽁 -18702
코로 -18703
▁TA -18704
▁균류 -18705
▁맨틀 -18706
▁봉산 -18707
▁부결 -18708
▁북진 -18709
▁삼부 -18710
▁숙고 -18711
▁실바 -18712
▁어음 -18713
▁요안 -18714
▁원판 -18715
▁유루 -18716
▁정태 -18717
▁390 -18718
▁Net -18719
▁반대쪽 -18720
▁발자국 -18721
▁콘셉트 -18722
▁프로필 -18723
▁현급시 -18724
▁후견인 -18725
▁개인주의 -18726
▁포리스트 -18727
▁삼국지연의 -18728
쿠로 -18729
red -18730
▁교착 -18731
▁그람 -18732
▁북단 -18733
▁비명 -18734
▁폐간 -18735
▁독립성 -18736
▁부사관 -18737
▁예배당 -18738
▁자신감 -18739
보레 -18740
▁광종 -18741
▁면접 -18742
▁벙커 -18743
▁아저 -18744
▁운문 -18745
▁체온 -18746
▁카오 -18747
▁토사 -18748
▁판도 -18749
베를린 -18750
▁슬퍼하 -18751
▁화순군 -18752
▁북베트남 -18753
▁아시리아 -18754
▁오렌지색 -18755
▁뜰 -18756
교동 -18757
니언 -18758
승람 -18759
오밍 -18760
헤치 -18761
▁RD -18762
▁디어 -18763
▁무방 -18764
▁바예 -18765
▁선승 -18766
▁수유 -18767
▁열등 -18768
▁오데 -18769
▁윤회 -18770
▁이서 -18771
▁전륜 -18772
▁주청 -18773
▁코노 -18774
▁탄화 -18775
▁테츠 -18776
▁합방 -18777
슈타트 -18778
▁Har -18779
▁가야금 -18780
▁비스트 -18781
▁아저씨 -18782
▁환경부 -18783
고도 -18784
소시 -18785
▁Pa -18786
▁걸즈 -18787
▁고군 -18788
▁담화 -18789
▁만경 -18790
▁반증 -18791
▁여순 -18792
▁우미 -18793
▁유예 -18794
▁유흥 -18795
▁청렴 -18796
▁친형 -18797
▁호라 -18798
▁흡혈 -18799
▁히치 -18800
정대부 -18801
▁228 -18802
▁목판본 -18803
▁미스트 -18804
▁밀워키 -18805
▁서산시 -18806
▁연장선 -18807
▁프런트 -18808
▁트레이너 -18809
슈티 -18810
실론 -18811
ana -18812
ric -18813
▁경학 -18814
▁김응 -18815
▁다방 -18816
▁도핑 -18817
▁성직 -18818
▁송병 -18819
▁알현 -18820
▁예우 -18821
▁자니 -18822
▁장엄 -18823
▁치타 -18824
▁패미 -18825
▁도지사 -18826
▁제작소 -18827
▁글래스고 -18828
▁강판 -18829
▁개년 -18830
▁노년 -18831
▁노시 -18832
▁반민 -18833
▁반원 -18834
▁생김 -18835
▁악하 -18836
▁익주 -18837
▁일직 -18838
▁총지 -18839
▁프롬 -18840
▁한옥 -18841
자동차 -18842
echn -18843
▁950 -18844
▁fun -18845
▁앞당기 -18846
▁케네스 -18847
▁테레사 -18848
▁헤아리 -18849
개석 -18850
호크 -18851
▁ro -18852
▁거장 -18853
▁나방 -18854
▁린치 -18855
▁말러 -18856
▁상석 -18857
▁성녀 -18858
▁성왕 -18859
▁영흥 -18860
▁의금 -18861
▁정순 -18862
▁주앙 -18863
▁중흥 -18864
▁증서 -18865
▁지터 -18866
▁초보 -18867
노세키 -18868
▁군단장 -18869
▁노원구 -18870
▁모국어 -18871
▁무척추 -18872
▁이준용 -18873
▁최남단 -18874
[...]
