{"version":"1.0","truncation":null,"padding":null,"added_tokens":[{"id":0,"special":true,"content":"[UNK]","single_word":false,"lstrip":false,"rstrip":false,"normalized":false},{"id":1,"special":true,"content":"[CLS]","single_word":false,"lstrip":false,"rstrip":false,"normalized":false},{"id":2,"special":true,"content":"[SEP]","single_word":false,"lstrip":false,"rstrip":false,"normalized":false},{"id":3,"special":true,"content":"[PAD]","single_word":false,"lstrip":false,"rstrip":false,"normalized":false},{"id":4,"special":true,"content":"[MASK]","single_word":false,"lstrip":false,"rstrip":false,"normalized":false}],"normalizer":{"type":"Sequence","normalizers":[{"type":"StripAccents"}]},"pre_tokenizer":{"type":"WhitespaceSplit"},"post_processor":{"type":"TemplateProcessing","single":[{"SpecialToken":{"id":"[CLS]","type_id":0}},{"Sequence":{"id":"A","type_id":0}},{"SpecialToken":{"id":"[SEP]","type_id":0}}],"pair":[{"SpecialToken":{"id":"[CLS]","type_id":0}},{"Sequence":{"id":"A","type_id":0}},{"SpecialToken":{"id":"[SEP]","type_id":0}},{"Sequence":{"id":"B","type_id":1}},{"SpecialToken":{"id":"[SEP]","type_id":1}}],"special_tokens":{"[CLS]":{"id":"[CLS]","ids":[1],"tokens":["[CLS]"]},"[SEP]":{"id":"[SEP]","ids":[2],"tokens":["[SEP]"]}}},"decoder":null,"model":{"type":"WordPiece","unk_token":"[UNK]","continuing_subword_prefix":"##","max_input_chars_per_word":100,"vocab":{"[UNK]":0,"[CLS]":1,"[SEP]":2,"[PAD]":3,"[MASK]":4,"!":5,"\"":6,"#":7,"$":8,"%":9,"&":10,"'":11,"(":12,")":13,"*":14,"+":15,",":16,"-":17,".":18,"/":19,"0":20,"1":21,"2":22,"3":23,"4":24,"5":25,"6":26,"7":27,"8":28,"9":29,":":30,";":31,"<":32,"=":33,">":34,"?":35,"@":36,"A":37,"B":38,"C":39,"D":40,"E":41,"F":42,"G":43,"H":44,"I":45,"J":46,"K":47,"L":48,"M":49,"N":50,"O":51,"P":52,"Q":53,"R":54,"S":55,"T":56,"U":57,"V":58,"W":59,"X":60,"Y":61,"Z":62,"[":63,"\\":64,"]":65,"^":66,"_":67,"`":68,"a":69,"b":70,"c":71,"d":72,"e":73,"f":74,"g":75,"h":76,"i":77,"j":78,"k":79,"l":80,"m":81,"n":82,"o":83,"p":84,"q":85,"r":86,"s":87,"t":88,"u":89,"v":90,"w":91,"x":92,"y":93,"z":94,"{":95,"|":96,"}":97,"~":98,"":99,"ㄱ":100,"ㄲ":101,"ㄳ":102,"ㄴ":103,"ㄵ":104,"ㄶ":105,"ㄷ":106,"ㄸ":107,"ㄹ":108,"ㄺ":109,"ㄻ":110,"ㄼ":111,"ㄽ":112,"ㄾ":113,"ㄿ":114,"ㅀ":115,"ㅁ":116,"ㅂ":117,"ㅃ":118,"ㅄ":119,"ㅅ":120,"ㅆ":121,"ㅇ":122,"ㅈ":123,"ㅉ":124,"ㅊ":125,"ㅋ":126,"ㅌ":127,"ㅍ":128,"ㅎ":129,"ㅏ":130,"ㅐ":131,"ㅑ":132,"ㅒ":133,"ㅓ":134,"ㅔ":135,"ㅕ":136,"ㅖ":137,"ㅗ":138,"ㅘ":139,"ㅙ":140,"ㅚ":141,"ㅛ":142,"ㅜ":143,"ㅝ":144,"ㅞ":145,"ㅟ":146,"ㅠ":147,"ㅡ":148,"ㅢ":149,"ㅣ":150,"가":151,"각":152,"갂":153,"갃":154,"간":155,"갅":156,"갆":157,"갇":158,"갈":159,"갉":160,"갊":161,"갋":162,"갌":163,"갍":164,"갎":165,"갏":166,"감":167,"갑":168,"값":169,"갓":170,"갔":171,"강":172,"갖":173,"갗":174,"갘":175,"같":176,"갚":177,"갛":178,"개":179,"객":180,"갞":181,"갟":182,"갠":183,"갡":184,"갢":185,"갣":186,"갤":187,"갥":188,"갦":189,"갧":190,"갨":191,"갩":192,"갪":193,"갫":194,"갬":195,"갭":196,"갮":197,"갯":198,"갰":199,"갱":200,"갲":201,"갳":202,"갴":203,"갵":204,"갶":205,"갷":206,"갸":207,"갹":208,"갺":209,"갻":210,"갼":211,"갽":212,"갾":213,"갿":214,"걀":215,"걁":216,"걂":217,"걃":218,"걄":219,"걅":220,"걆":221,"걇":222,"걈":223,"걉":224,"걊":225,"걋":226,"걌":227,"걍":228,"걎":229,"걏":230,"걐":231,"걑":232,"걒":233,"걓":234,"걔":235,"걕":236,"걖":237,"걗":238,"걘":239,"걙":240,"걚":241,"걛":242,"걜":243,"걝":244,"걞":245,"걟":246,"걠":247,"걡":248,"걢":249,"걣":250,"걤":251,"걥":252,"걦":253,"걧":254,"걨":255,"걩":256,"걪":257,"걫":258,"걬":259,"걭":260,"걮":261,"걯":262,"거":263,"걱":264,"걲":265,"걳":266,"건":267,"걵":268,"걶":269,"걷":270,"걸":271,"걹":272,"걺":273,"걻":274,"걼":275,"걽":276,"걾":277,"걿":278,"검":279,"겁":280,"겂":281,"것":282,"겄":283,"겅":284,"겆":285,"겇":286,"겈":287,"겉":288,"겊":289,"겋":290,"게":291,"겍":292,"겎":293,"겏":294,"겐":295,"겑":296,"겒":297,"겓":298,"겔":299,"겕":300,"겖":301,"겗":302,"겘":303,"겙":304,"겚":305,"겛":306,"겜":307,"겝":308,"겞":309,"겟":310,"겠":311,"겡":312,"겢":313,"겣":314,"겤":315,"겥":316,"겦":317,"겧":318,"겨":319,"격":320,"겪":321,"겫":322,"견":323,"겭":324,"겮":325,"겯":326,"결":327,"겱":328,"겲":329,"겳":330,"겴":331,"겵":332,"겶":333,"겷":334,"겸":335,"겹":336,"겺":337,"겻":338,"겼":339,"경":340,"겾":341,"겿":342,"곀":343,"곁":344,"곂":345,"곃":346,"계":347,"곅":348,"곆":349,"곇":350,"곈":351,"곉":352,"곊":353,"곋":354,"곌":355,"곍":356,"곎":357,"곏":358,"곐":359,"곑":360,"곒":361,"곓":362,"곔":363,"곕":364,"곖":365,"곗":366,"곘":367,"곙":368,"곚":369,"곛":370,"곜":371,"곝":372,"곞":373,"곟":374,"고":375,"곡":376,"곢":377,"곣":378,"곤":379,"곥":380,"곦":381,"곧":382,"골":383,"곩":384,"곪":385,"곫":386,"곬":387,"곭":388,"곮":389,"곯":390,"곰":391,"곱":392,"곲":393,"곳":394,"곴":395,"공":396,"곶":397,"곷":398,"곸":399,"곹":400,"곺":401,"곻":402,"과":403,"곽":404,"곾":405,"곿":406,"관":407,"괁":408,"괂":409,"괃":410,"괄":411,"괅":412,"괆":413,"괇":414,"괈":415,"괉":416,"괊":417,"괋":418,"괌":419,"괍":420,"괎":421,"괏":422,"괐":423,"광":424,"괒":425,"괓":426,"괔":427,"괕":428,"괖":429,"괗":430,"괘":431,"괙":432,"괚":433,"괛":434,"괜":435,"괝":436,"괞":437,"괟":438,"괠":439,"괡":440,"괢":441,"괣":442,"괤":443,"괥":444,"괦":445,"괧":446,"괨":447,"괩":448,"괪":449,"괫":450,"괬":451,"괭":452,"괮":453,"괯":454,"괰":455,"괱":456,"괲":457,"괳":458,"괴":459,"괵":460,"괶":461,"괷":462,"괸":463,"괹":464,"괺":465,"괻":466,"괼":467,"괽":468,"괾":469,"괿":470,"굀":471,"굁":472,"굂":473,"굃":474,"굄":475,"굅":476,"굆":477,"굇":478,"굈":479,"굉":480,"굊":481,"굋":482,"굌":483,"굍":484,"굎":485,"굏":486,"교":487,"굑":488,"굒":489,"굓":490,"굔":491,"굕":492,"굖":493,"굗":494,"굘":495,"굙":496,"굚":497,"굛":498,"굜":499,"굝":500,"굞":501,"굟":502,"굠":503,"굡":504,"굢":505,"굣":506,"굤":507,"굥":508,"굦":509,"굧":510,"굨":511,"굩":512,"굪":513,"굫":514,"구":515,"국":516,"굮":517,"굯":518,"군":519,"굱":520,"굲":521,"굳":522,"굴":523,"굵":524,"굶":525,"굷":526,"굸":527,"굹":528,"굺":529,"굻":530,"굼":531,"굽":532,"굾":533,"굿":534,"궀":535,"궁":536,"궂":537,"궃":538,"궄":539,"궅":540,"궆":541,"궇":542,"궈":543,"궉":544,"궊":545,"궋":546,"권":547,"궍":548,"궎":549,"궏":550,"궐":551,"궑":552,"궒":553,"궓":554,"궔":555,"궕":556,"궖":557,"궗":558,"궘":559,"궙":560,"궚":561,"궛":562,"궜":563,"궝":564,"궞":565,"궟":566,"궠":567,"궡":568,"궢":569,"궣":570,"궤":571,"궥":572,"궦":573,"궧":574,"궨":575,"궩":576,"궪":577,"궫":578,"궬":579,"궭":580,"궮":581,"궯":582,"궰":583,"궱":584,"궲":585,"궳":586,"궴":587,"궵":588,"궶":589,"궷":590,"궸":591,"궹":592,"궺":593,"궻":594,"궼":595,"궽":596,"궾":597,"궿":598,"귀":599,"귁":600,"귂":601,"귃":602,"귄":603,"귅":604,"귆":605,"귇":606,"귈":607,"귉":608,"귊":609,"귋":610,"귌":611,"귍":612,"귎":613,"귏":614,"귐":615,"귑":616,"귒":617,"귓":618,"귔":619,"귕":620,"귖":621,"귗":622,"귘":623,"귙":624,"귚":625,"귛":626,"규":627,"귝":628,"귞":629,"귟":630,"균":631,"귡":632,"귢":633,"귣":634,"귤":635,"귥":636,"귦":637,"귧":638,"귨":639,"귩":640,"귪":641,"귫":642,"귬":643,"귭":644,"귮":645,"귯":646,"귰":647,"귱":648,"귲":649,"귳":650,"귴":651,"귵":652,"귶":653,"귷":654,"그":655,"극":656,"귺":657,"귻":658,"근":659,"귽":660,"귾":661,"귿":662,"글":663,"긁":664,"긂":665,"긃":666,"긄":667,"긅":668,"긆":669,"긇":670,"금":671,"급":672,"긊":673,"긋":674,"긌":675,"긍":676,"긎":677,"긏":678,"긐":679,"긑":680,"긒":681,"긓":682,"긔":683,"긕":684,"긖":685,"긗":686,"긘":687,"긙":688,"긚":689,"긛":690,"긜":691,"긝":692,"긞":693,"긟":694,"긠":695,"긡":696,"긢":697,"긣":698,"긤":699,"긥":700,"긦":701,"긧":702,"긨":703,"긩":704,"긪":705,"긫":706,"긬":707,"긭":708,"긮":709,"긯":710,"기":711,"긱":712,"긲":713,"긳":714,"긴":715,"긵":716,"긶":717,"긷":718,"길":719,"긹":720,"긺":721,"긻":722,"긼":723,"긽":724,"긾":725,"긿":726,"김":727,"깁":728,"깂":729,"깃":730,"깄":731,"깅":732,"깆":733,"깇":734,"깈":735,"깉":736,"깊":737,"깋":738,"까":739,"깍":740,"깎":741,"깏":742,"깐":743,"깑":744,"깒":745,"깓":746,"깔":747,"깕":748,"깖":749,"깗":750,"깘":751,"깙":752,"깚":753,"깛":754,"깜":755,"깝":756,"깞":757,"깟":758,"깠":759,"깡":760,"깢":761,"깣":762,"깤":763,"깥":764,"깦":765,"깧":766,"깨":767,"깩":768,"깪":769,"깫":770,"깬":771,"깭":772,"깮":773,"깯":774,"깰":775,"깱":776,"깲":777,"깳":778,"깴":779,"깵":780,"깶":781,"깷":782,"깸":783,"깹":784,"깺":785,"깻":786,"깼":787,"깽":788,"깾":789,"깿":790,"꺀":791,"꺁":792,"꺂":793,"꺃":794,"꺄":795,"꺅":796,"꺆":797,"꺇":798,"꺈":799,"꺉":800,"꺊":801,"꺋":802,"꺌":803,"꺍":804,"꺎":805,"꺏":806,"꺐":807,"꺑":808,"꺒":809,"꺓":810,"꺔":811,"꺕":812,"꺖":813,"꺗":814,"꺘":815,"꺙":816,"꺚":817,"꺛":818,"꺜":819,"꺝":820,"꺞":821,"꺟":822,"꺠":823,"꺡":824,"꺢":825,"꺣":826,"꺤":827,"꺥":828,"꺦":829,"꺧":830,"꺨":831,"꺩":832,"꺪":833,"꺫":834,"꺬":835,"꺭":836,"꺮":837,"꺯":838,"꺰":839,"꺱":840,"꺲":841,"꺳":842,"꺴":843,"꺵":844,"꺶":845,"꺷":846,"꺸":847,"꺹":848,"꺺":849,"꺻":850,"꺼":851,"꺽":852,"꺾":853,"꺿":854,"껀":855,"껁":856,"껂":857,"껃":858,"껄":859,"껅":860,"껆":861,"껇":862,"껈":863,"껉":864,"껊":865,"껋":866,"껌":867,"껍":868,"껎":869,"껏":870,"껐":871,"껑":872,"껒":873,"껓":874,"껔":875,"껕":876,"껖":877,"껗":878,"께":879,"껙":880,"껚":881,"껛":882,"껜":883,"껝":884,"껞":885,"껟":886,"껠":887,"껡":888,"껢":889,"껣":890,"껤":891,"껥":892,"껦":893,"껧":894,"껨":895,"껩":896,"껪":897,"껫":898,"껬":899,"껭":900,"껮":901,"껯":902,"껰":903,"껱":904,"껲":905,"껳":906,"껴":907,"껵":908,"껶":909,"껷":910,"껸":911,"껹":912,"껺":913,"껻":914,"껼":915,"껽":916,"껾":917,"껿":918,"꼀":919,"꼁":920,"꼂":921,"꼃":922,"꼄":923,"꼅":924,"꼆":925,"꼇":926,"꼈":927,"꼉":928,"꼊":929,"꼋":930,"꼌":931,"꼍":932,"꼎":933,"꼏":934,"꼐":935,"꼑":936,"꼒":937,"꼓":938,"꼔":939,"꼕":940,"꼖":941,"꼗":942,"꼘":943,"꼙":944,"꼚":945,"꼛":946,"꼜":947,"꼝":948,"꼞":949,"꼟":950,"꼠":951,"꼡":952,"꼢":953,"꼣":954,"꼤":955,"꼥":956,"꼦":957,"꼧":958,"꼨":959,"꼩":960,"꼪":961,"꼫":962,"꼬":963,"꼭":964,"꼮":965,"꼯":966,"꼰":967,"꼱":968,"꼲":969,"꼳":970,"꼴":971,"꼵":972,"꼶":973,"꼷":974,"꼸":975,"꼹":976,"꼺":977,"꼻":978,"꼼":979,"꼽":980,"꼾":981,"꼿":982,"꽀":983,"꽁":984,"꽂":985,"꽃":986,"꽄":987,"꽅":988,"꽆":989,"꽇":990,"꽈":991,"꽉":992,"꽊":993,"꽋":994,"꽌":995,"꽍":996,"꽎":997,"꽏":998,"꽐":999,"꽑":1000,"꽒":1001,"꽓":1002,"꽔":1003,"꽕":1004,"꽖":1005,"꽗":1006,"꽘":1007,"꽙":1008,"꽚":1009,"꽛":1010,"꽜":1011,"꽝":1012,"꽞":1013,"꽟":1014,"꽠":1015,"꽡":1016,"꽢":1017,"꽣":1018,"꽤":1019,"꽥":1020,"꽦":1021,"꽧":1022,"꽨":1023,"꽩":1024,"꽪":1025,"꽫":1026,"꽬":1027,"꽭":1028,"꽮":1029,"꽯":1030,"꽰":1031,"꽱":1032,"꽲":1033,"꽳":1034,"꽴":1035,"꽵":1036,"꽶":1037,"꽷":1038,"꽸":1039,"꽹":1040,"꽺":1041,"꽻":1042,"꽼":1043,"꽽":1044,"꽾":1045,"꽿":1046,"꾀":1047,"꾁":1048,"꾂":1049,"꾃":1050,"꾄":1051,"꾅":1052,"꾆":1053,"꾇":1054,"꾈":1055,"꾉":1056,"꾊":1057,"꾋":1058,"꾌":1059,"꾍":1060,"꾎":1061,"꾏":1062,"꾐":1063,"꾑":1064,"꾒":1065,"꾓":1066,"꾔":1067,"꾕":1068,"꾖":1069,"꾗":1070,"꾘":1071,"꾙":1072,"꾚":1073,"꾛":1074,"꾜":1075,"꾝":1076,"꾞":1077,"꾟":1078,"꾠":1079,"꾡":1080,"꾢":1081,"꾣":1082,"꾤":1083,"꾥":1084,"꾦":1085,"꾧":1086,"꾨":1087,"꾩":1088,"꾪":1089,"꾫":1090,"꾬":1091,"꾭":1092,"꾮":1093,"꾯":1094,"꾰":1095,"꾱":1096,"꾲":1097,"꾳":1098,"꾴":1099,"꾵":1100,"꾶":1101,"꾷":1102,"꾸":1103,"꾹":1104,"꾺":1105,"꾻":1106,"꾼":1107,"꾽":1108,"꾾":1109,"꾿":1110,"꿀":1111,"꿁":1112,"꿂":1113,"꿃":1114,"꿄":1115,"꿅":1116,"꿆":1117,"꿇":1118,"꿈":1119,"꿉":1120,"꿊":1121,"꿋":1122,"꿌":1123,"꿍":1124,"꿎":1125,"꿏":1126,"꿐":1127,"꿑":1128,"꿒":1129,"꿓":1130,"꿔":1131,"꿕":1132,"꿖":1133,"꿗":1134,"꿘":1135,"꿙":1136,"꿚":1137,"꿛":1138,"꿜":1139,"꿝":1140,"꿞":1141,"꿟":1142,"꿠":1143,"꿡":1144,"꿢":1145,"꿣":1146,"꿤":1147,"꿥":1148,"꿦":1149,"꿧":1150,"꿨":1151,"꿩":1152,"꿪":1153,"꿫":1154,"꿬":1155,"꿭":1156,"꿮":1157,"꿯":1158,"꿰":1159,"꿱":1160,"꿲":1161,"꿳":1162,"꿴":1163,"꿵":1164,"꿶":1165,"꿷":1166,"꿸":1167,"꿹":1168,"꿺":1169,"꿻":1170,"꿼":1171,"꿽":1172,"꿾":1173,"꿿":1174,"뀀":1175,"뀁":1176,"뀂":1177,"뀃":1178,"뀄":1179,"뀅":1180,"뀆":1181,"뀇":1182,"뀈":1183,"뀉":1184,"뀊":1185,"뀋":1186,"뀌":1187,"뀍":1188,"뀎":1189,"뀏":1190,"뀐":1191,"뀑":1192,"뀒":1193,"뀓":1194,"뀔":1195,"뀕":1196,"뀖":1197,"뀗":1198,"뀘":1199,"뀙":1200,"뀚":1201,"뀛":1202,"뀜":1203,"뀝":1204,"뀞":1205,"뀟":1206,"뀠":1207,"뀡":1208,"뀢":1209,"뀣":1210,"뀤":1211,"뀥":1212,"뀦":1213,"뀧":1214,"뀨":1215,"뀩":1216,"뀪":1217,"뀫":1218,"뀬":1219,"뀭":1220,"뀮":1221,"뀯":1222,"뀰":1223,"뀱":1224,"뀲":1225,"뀳":1226,"뀴":1227,"뀵":1228,"뀶":1229,"뀷":1230,"뀸":1231,"뀹":1232,"뀺":1233,"뀻":1234,"뀼":1235,"뀽":1236,"뀾":1237,"뀿":1238,"끀":1239,"끁":1240,"끂":1241,"끃":1242,"끄":1243,"끅":1244,"끆":1245,"끇":1246,"끈":1247,"끉":1248,"끊":1249,"끋":1250,"끌":1251,"끍":1252,"끎":1253,"끏":1254,"끐":1255,"끑":1256,"끒":1257,"끓":1258,"끔":1259,"끕":1260,"끖":1261,"끗":1262,"끘":1263,"끙":1264,"끚":1265,"끛":1266,"끜":1267,"끝":1268,"끞":1269,"끟":1270,"끠":1271,"끡":1272,"끢":1273,"끣":1274,"끤":1275,"끥":1276,"끦":1277,"끧":1278,"끨":1279,"끩":1280,"끪":1281,"끫":1282,"끬":1283,"끭":1284,"끮":1285,"끯":1286,"끰":1287,"끱":1288,"끲":1289,"끳":1290,"끴":1291,"끵":1292,"끶":1293,"끷":1294,"끸":1295,"끹":1296,"끺":1297,"끻":1298,"끼":1299,"끽":1300,"끾":1301,"끿":1302,"낀":1303,"낁":1304,"낂":1305,"낃":1306,"낄":1307,"낅":1308,"낆":1309,"낇":1310,"낈":1311,"낉":1312,"낊":1313,"낋":1314,"낌":1315,"낍":1316,"낎":1317,"낏":1318,"낐":1319,"낑":1320,"낒":1321,"낓":1322,"낔":1323,"낕":1324,"낖":1325,"낗":1326,"나":1327,"낙":1328,"낚":1329,"낛":1330,"난":1331,"낝":1332,"낞":1333,"낟":1334,"날":1335,"낡":1336,"낢":1337,"낣":1338,"낤":1339,"낥":1340,"낦":1341,"낧":1342,"남":1343,"납":1344,"낪":1345,"낫":1346,"났":1347,"낭":1348,"낮":1349,"낯":1350,"낰":1351,"낱":1352,"낲":1353,"낳":1354,"내":1355,"낵":1356,"낶":1357,"낷":1358,"낸":1359,"낹":1360,"낺":1361,"낻":1362,"낼":1363,"낽":1364,"낾":1365,"낿":1366,"냀":1367,"냁":1368,"냂":1369,"냃":1370,"냄":1371,"냅":1372,"냆":1373,"냇":1374,"냈":1375,"냉":1376,"냊":1377,"냋":1378,"냌":1379,"냍":1380,"냎":1381,"냏":1382,"냐":1383,"냑":1384,"냒":1385,"냓":1386,"냔":1387,"냕":1388,"냖":1389,"냗":1390,"냘":1391,"냙":1392,"냚":1393,"냛":1394,"냜":1395,"냝":1396,"냞":1397,"냟":1398,"냠":1399,"냡":1400,"냢":1401,"냣":1402,"냤":1403,"냥":1404,"냦":1405,"냧":1406,"냨":1407,"냩":1408,"냪":1409,"냫":1410,"냬":1411,"냭":1412,"냮":1413,"냯":1414,"냰":1415,"냱":1416,"냲":1417,"냳":1418,"냴":1419,"냵":1420,"냶":1421,"냷":1422,"냸":1423,"냹":1424,"냺":1425,"냻":1426,"냼":1427,"냽":1428,"냾":1429,"냿":1430,"넀":1431,"넁":1432,"넂":1433,"넃":1434,"넄":1435,"넅":1436,"넆":1437,"넇":1438,"너":1439,"넉":1440,"넊":1441,"넋":1442,"넌":1443,"넍":1444,"넎":1445,"넏":1446,"널":1447,"넑":1448,"넒":1449,"넓":1450,"넔":1451,"넕":1452,"넖":1453,"넗":1454,"넘":1455,"넙":1456,"넚":1457,"넛":1458,"넜":1459,"넝":1460,"넞":1461,"넟":1462,"넠":1463,"넡":1464,"넢":1465,"넣":1466,"네":1467,"넥":1468,"넦":1469,"넧":1470,"넨":1471,"넩":1472,"넪":1473,"넫":1474,"넬":1475,"넭":1476,"넮":1477,"넯":1478,"넰":1479,"넱":1480,"넲":1481,"넳":1482,"넴":1483,"넵":1484,"넶":1485,"넷":1486,"넸":1487,"넹":1488,"넺":1489,"넻":1490,"넼":1491,"넽":1492,"넾":1493,"넿":1494,"녀":1495,"녁":1496,"녂":1497,"녃":1498,"년":1499,"녅":1500,"녆":1501,"녇":1502,"녈":1503,"녉":1504,"녊":1505,"녋":1506,"녌":1507,"녍":1508,"녎":1509,"녏":1510,"념":1511,"녑":1512,"녒":1513,"녓":1514,"녔":1515,"녕":1516,"녖":1517,"녗":1518,"녘":1519,"녙":1520,"녚":1521,"녛":1522,"녜":1523,"녝":1524,"녞":1525,"녟":1526,"녠":1527,"녡":1528,"녢":1529,"녣":1530,"녤":1531,"녥":1532,"녦":1533,"녧":1534,"녨":1535,"녩":1536,"녪":1537,"녫":1538,"녬":1539,"녭":1540,"녮":1541,"녯":1542,"녰":1543,"녱":1544,"녲":1545,"녳":1546,"녴":1547,"녵":1548,"녶":1549,"녷":1550,"노":1551,"녹":1552,"녺":1553,"녻":1554,"논":1555,"녽":1556,"녾":1557,"녿":1558,"놀":1559,"놁":1560,"놂":1561,"놃":1562,"놄":1563,"놅":1564,"놆":1565,"놇":1566,"놈":1567,"놉":1568,"놊":1569,"놋":1570,"놌":1571,"농":1572,"놎":1573,"놏":1574,"놐":1575,"놑":1576,"높":1577,"놓":1578,"놔":1579,"놕":1580,"놖":1581,"놗":1582,"놘":1583,"놙":1584,"놚":1585,"놛":1586,"놜":1587,"놝":1588,"놞":1589,"놟":1590,"놠":1591,"놡":1592,"놢":1593,"놣":1594,"놤":1595,"놥":1596,"놦":1597,"놧":1598,"놨":1599,"놩":1600,"놪":1601,"놫":1602,"놬":1603,"놭":1604,"놮":1605,"놯":1606,"놰":1607,"놱":1608,"놲":1609,"놳":1610,"놴":1611,"놵":1612,"놶":1613,"놷":1614,"놸":1615,"놹":1616,"놺":1617,"놻":1618,"놼":1619,"놽":1620,"놾":1621,"놿":1622,"뇀":1623,"뇁":1624,"뇂":1625,"뇃":1626,"뇄":1627,"뇅":1628,"뇆":1629,"뇇":1630,"뇈":1631,"뇉":1632,"뇊":1633,"뇋":1634,"뇌":1635,"뇍":1636,"뇎":1637,"뇏":1638,"뇐":1639,"뇑":1640,"뇒":1641,"뇓":1642,"뇔":1643,"뇕":1644,"뇖":1645,"뇗":1646,"뇘":1647,"뇙":1648,"뇚":1649,"뇛":1650,"뇜":1651,"뇝":1652,"뇞":1653,"뇟":1654,"뇠":1655,"뇡":1656,"뇢":1657,"뇣":1658,"뇤":1659,"뇥":1660,"뇦":1661,"뇧":1662,"뇨":1663,"뇩":1664,"뇪":1665,"뇫":1666,"뇬":1667,"뇭":1668,"뇮":1669,"뇯":1670,"뇰":1671,"뇱":1672,"뇲":1673,"뇳":1674,"뇴":1675,"뇵":1676,"뇶":1677,"뇷":1678,"뇸":1679,"뇹":1680,"뇺":1681,"뇻":1682,"뇼":1683,"뇽":1684,"뇾":1685,"뇿":1686,"눀":1687,"눁":1688,"눂":1689,"눃":1690,"누":1691,"눅":1692,"눆":1693,"눇":1694,"눈":1695,"눉":1696,"눊":1697,"눋":1698,"눌":1699,"눍":1700,"눎":1701,"눏":1702,"눐":1703,"눑":1704,"눒":1705,"눓":1706,"눔":1707,"눕":1708,"눖":1709,"눗":1710,"눘":1711,"눙":1712,"눚":1713,"눛":1714,"눜":1715,"눝":1716,"눞":1717,"눟":1718,"눠":1719,"눡":1720,"눢":1721,"눣":1722,"눤":1723,"눥":1724,"눦":1725,"눧":1726,"눨":1727,"눩":1728,"눪":1729,"눫":1730,"눬":1731,"눭":1732,"눮":1733,"눯":1734,"눰":1735,"눱":1736,"눲":1737,"눳":1738,"눴":1739,"눵":1740,"눶":1741,"눷":1742,"눸":1743,"눹":1744,"눺":1745,"눻":1746,"눼":1747,"눽":1748,"눾":1749,"눿":1750,"뉀":1751,"뉁":1752,"뉂":1753,"뉃":1754,"뉄":1755,"뉅":1756,"뉆":1757,"뉇":1758,"뉈":1759,"뉉":1760,"뉊":1761,"뉋":1762,"뉌":1763,"뉍":1764,"뉎":1765,"뉏":1766,"뉐":1767,"뉑":1768,"뉒":1769,"뉓":1770,"뉔":1771,"뉕":1772,"뉖":1773,"뉗":1774,"뉘":1775,"뉙":1776,"뉚":1777,"뉛":1778,"뉜":1779,"뉝":1780,"뉞":1781,"뉟":1782,"뉠":1783,"뉡":1784,"뉢":1785,"뉣":1786,"뉤":1787,"뉥":1788,"뉦":1789,"뉧":1790,"뉨":1791,"뉩":1792,"뉪":1793,"뉫":1794,"뉬":1795,"뉭":1796,"뉮":1797,"뉯":1798,"뉰":1799,"뉱":1800,"뉲":1801,"뉳":1802,"뉴":1803,"뉵":1804,"뉶":1805,"뉷":1806,"뉸":1807,"뉹":1808,"뉺":1809,"뉻":1810,"뉼":1811,"뉽":1812,"뉾":1813,"뉿":1814,"늀":1815,"늁":1816,"늂":1817,"늃":1818,"늄":1819,"늅":1820,"늆":1821,"늇":1822,"늈":1823,"늉":1824,"늊":1825,"늋":1826,"늌":1827,"늍":1828,"늎":1829,"늏":1830,"느":1831,"늑":1832,"늒":1833,"늓":1834,"는":1835,"늕":1836,"늖":1837,"늗":1838,"늘":1839,"늙":1840,"늚":1841,"늛":1842,"늜":1843,"늝":1844,"늞":1845,"늟":1846,"늠":1847,"늡":1848,"늢":1849,"늣":1850,"늤":1851,"능":1852,"늦":1853,"늧":1854,"늨":1855,"늩":1856,"늪":1857,"늫":1858,"늬":1859,"늭":1860,"늮":1861,"늯":1862,"늰":1863,"늱":1864,"늲":1865,"늳":1866,"늴":1867,"늵":1868,"늶":1869,"늷":1870,"늸":1871,"늹":1872,"늺":1873,"늻":1874,"늼":1875,"늽":1876,"늾":1877,"늿":1878,"닀":1879,"닁":1880,"닂":1881,"닃":1882,"닄":1883,"닅":1884,"닆":1885,"닇":1886,"니":1887,"닉":1888,"닊":1889,"닋":1890,"닌":1891,"닍":1892,"닎":1893,"닏":1894,"닐":1895,"닑":1896,"닒":1897,"닓":1898,"닔":1899,"닕":1900,"닖":1901,"닗":1902,"님":1903,"닙":1904,"닚":1905,"닛":1906,"닜":1907,"닝":1908,"닞":1909,"닟":1910,"닠":1911,"닡":1912,"닢":1913,"닣":1914,"다":1915,"닥":1916,"닦":1917,"닧":1918,"단":1919,"닩":1920,"닪":1921,"닫":1922,"달":1923,"닭":1924,"닮":1925,"닯":1926,"닰":1927,"닱":1928,"닲":1929,"닳":1930,"담":1931,"답":1932,"닶":1933,"닷":1934,"닸":1935,"당":1936,"닺":1937,"닻":1938,"닼":1939,"닽":1940,"닾":1941,"닿":1942,"대":1943,"댁":1944,"댂":1945,"댃":1946,"댄":1947,"댅":1948,"댆":1949,"댇":1950,"댈":1951,"댉":1952,"댊":1953,"댋":1954,"댌":1955,"댍":1956,"댎":1957,"댏":1958,"댐":1959,"댑":1960,"댒":1961,"댓":1962,"댔":1963,"댕":1964,"댖":1965,"댗":1966,"댘":1967,"댙":1968,"댚":1969,"댛":1970,"댜":1971,"댝":1972,"댞":1973,"댟":1974,"댠":1975,"댡":1976,"댢":1977,"댣":1978,"댤":1979,"댥":1980,"댦":1981,"댧":1982,"댨":1983,"댩":1984,"댪":1985,"댫":1986,"댬":1987,"댭":1988,"댮":1989,"댯":1990,"댰":1991,"댱":1992,"댲":1993,"댳":1994,"댴":1995,"댵":1996,"댶":1997,"댷":1998,"댸":1999,"댹":2000,"댺":2001,"댻":2002,"댼":2003,"댽":2004,"댾":2005,"댿":2006,"덀":2007,"덁":2008,"덂":2009,"덃":2010,"덄":2011,"덅":2012,"덆":2013,"덇":2014,"덈":2015,"덉":2016,"덊":2017,"덋":2018,"덌":2019,"덍":2020,"덎":2021,"덏":2022,"덐":2023,"덑":2024,"덒":2025,"덓":2026,"더":2027,"덕":2028,"덖":2029,"덗":2030,"던":2031,"덙":2032,"덚":2033,"덛":2034,"덜":2035,"덝":2036,"덞":2037,"덟":2038,"덠":2039,"덡":2040,"덢":2041,"덣":2042,"덤":2043,"덥":2044,"덦":2045,"덧":2046,"덨":2047,"덩":2048,"덪":2049,"덫":2050,"덬":2051,"덭":2052,"덮":2053,"덯":2054,"데":2055,"덱":2056,"덲":2057,"덳":2058,"덴":2059,"덵":2060,"덶":2061,"덷":2062,"델":2063,"덹":2064,"덺":2065,"덻":2066,"덼":2067,"덽":2068,"덾":2069,"덿":2070,"뎀":2071,"뎁":2072,"뎂":2073,"뎃":2074,"뎄":2075,"뎅":2076,"뎆":2077,"뎇":2078,"뎈":2079,"뎉":2080,"뎊":2081,"뎋":2082,"뎌":2083,"뎍":2084,"뎎":2085,"뎏":2086,"뎐":2087,"뎑":2088,"뎒":2089,"뎓":2090,"뎔":2091,"뎕":2092,"뎖":2093,"뎗":2094,"뎘":2095,"뎙":2096,"뎚":2097,"뎛":2098,"뎜":2099,"뎝":2100,"뎞":2101,"뎟":2102,"뎠":2103,"뎡":2104,"뎢":2105,"뎣":2106,"뎤":2107,"뎥":2108,"뎦":2109,"뎧":2110,"뎨":2111,"뎩":2112,"뎪":2113,"뎫":2114,"뎬":2115,"뎭":2116,"뎮":2117,"뎯":2118,"뎰":2119,"뎱":2120,"뎲":2121,"뎳":2122,"뎴":2123,"뎵":2124,"뎶":2125,"뎷":2126,"뎸":2127,"뎹":2128,"뎺":2129,"뎻":2130,"뎼":2131,"뎽":2132,"뎾":2133,"뎿":2134,"돀":2135,"돁":2136,"돂":2137,"돃":2138,"도":2139,"독":2140,"돆":2141,"돇":2142,"돈":2143,"돉":2144,"돊":2145,"돋":2146,"돌":2147,"돍":2148,"돎":2149,"돏":2150,"돐":2151,"돑":2152,"돒":2153,"돓":2154,"돔":2155,"돕":2156,"돖":2157,"돗":2158,"돘":2159,"동":2160,"돚":2161,"돛":2162,"돜":2163,"돝":2164,"돞":2165,"돟":2166,"돠":2167,"돡":2168,"돢":2169,"돣":2170,"돤":2171,"돥":2172,"돦":2173,"돧":2174,"돨":2175,"돩":2176,"돪":2177,"돫":2178,"돬":2179,"돭":2180,"돮":2181,"돯":2182,"돰":2183,"돱":2184,"돲":2185,"돳":2186,"돴":2187,"돵":2188,"돶":2189,"돷":2190,"돸":2191,"돹":2192,"돺":2193,"돻":2194,"돼":2195,"돽":2196,"돾":2197,"돿":2198,"됀":2199,"됁":2200,"됂":2201,"됃":2202,"됄":2203,"됅":2204,"됆":2205,"됇":2206,"됈":2207,"됉":2208,"됊":2209,"됋":2210,"됌":2211,"됍":2212,"됎":2213,"됏":2214,"됐":2215,"됑":2216,"됒":2217,"됓":2218,"됔":2219,"됕":2220,"됖":2221,"됗":2222,"되":2223,"됙":2224,"됚":2225,"됛":2226,"된":2227,"됝":2228,"됞":2229,"됟":2230,"될":2231,"됡":2232,"됢":2233,"됣":2234,"됤":2235,"됥":2236,"됦":2237,"됧":2238,"됨":2239,"됩":2240,"됪":2241,"됫":2242,"됬":2243,"됭":2244,"됮":2245,"됯":2246,"됰":2247,"됱":2248,"됲":2249,"됳":2250,"됴":2251,"됵":2252,"됶":2253,"됷":2254,"됸":2255,"됹":2256,"됺":2257,"됻":2258,"됼":2259,"됽":2260,"됾":2261,"됿":2262,"둀":2263,"둁":2264,"둂":2265,"둃":2266,"둄":2267,"둅":2268,"둆":2269,"둇":2270,"둈":2271,"둉":2272,"둊":2273,"둋":2274,"둌":2275,"둍":2276,"둎":2277,"둏":2278,"두":2279,"둑":2280,"둒":2281,"둓":2282,"둔":2283,"둕":2284,"둖":2285,"둗":2286,"둘":2287,"둙":2288,"둚":2289,"둛":2290,"둜":2291,"둝":2292,"둞":2293,"둟":2294,"둠":2295,"둡":2296,"둢":2297,"둣":2298,"둤":2299,"둥":2300,"둦":2301,"둧":2302,"둨":2303,"둩":2304,"둪":2305,"둫":2306,"둬":2307,"둭":2308,"둮":2309,"둯":2310,"둰":2311,"둱":2312,"둲":2313,"둳":2314,"둴":2315,"둵":2316,"둶":2317,"둷":2318,"둸":2319,"둹":2320,"둺":2321,"둻":2322,"둼":2323,"둽":2324,"둾":2325,"둿":2326,"뒀":2327,"뒁":2328,"뒂":2329,"뒃":2330,"뒄":2331,"뒅":2332,"뒆":2333,"뒇":2334,"뒈":2335,"뒉":2336,"뒊":2337,"뒋":2338,"뒌":2339,"뒍":2340,"뒎":2341,"뒏":2342,"뒐":2343,"뒑":2344,"뒒":2345,"뒓":2346,"뒔":2347,"뒕":2348,"뒖":2349,"뒗":2350,"뒘":2351,"뒙":2352,"뒚":2353,"뒛":2354,"뒜":2355,"뒝":2356,"뒞":2357,"뒟":2358,"뒠":2359,"뒡":2360,"뒢":2361,"뒣":2362,"뒤":2363,"뒥":2364,"뒦":2365,"뒧":2366,"뒨":2367,"뒩":2368,"뒪":2369,"뒫":2370,"뒬":2371,"뒭":2372,"뒮":2373,"뒯":2374,"뒰":2375,"뒱":2376,"뒲":2377,"뒳":2378,"뒴":2379,"뒵":2380,"뒶":2381,"뒷":2382,"뒸":2383,"뒹":2384,"뒺":2385,"뒻":2386,"뒼":2387,"뒽":2388,"뒾":2389,"뒿":2390,"듀":2391,"듁":2392,"듂":2393,"듃":2394,"듄":2395,"듅":2396,"듆":2397,"듇":2398,"듈":2399,"듉":2400,"듊":2401,"듋":2402,"듌":2403,"듍":2404,"듎":2405,"듏":2406,"듐":2407,"듑":2408,"듒":2409,"듓":2410,"듔":2411,"듕":2412,"듖":2413,"듗":2414,"듘":2415,"듙":2416,"듚":2417,"듛":2418,"드":2419,"득":2420,"듞":2421,"듟":2422,"든":2423,"듡":2424,"듢":2425,"듣":2426,"들":2427,"듥":2428,"듦":2429,"듧":2430,"듨":2431,"듩":2432,"듪":2433,"듫":2434,"듬":2435,"듭":2436,"듮":2437,"듯":2438,"듰":2439,"등":2440,"듲":2441,"듳":2442,"듴":2443,"듵":2444,"듶":2445,"듷":2446,"듸":2447,"듹":2448,"듺":2449,"듻":2450,"듼":2451,"듽":2452,"듾":2453,"듿":2454,"딀":2455,"딁":2456,"딂":2457,"딃":2458,"딄":2459,"딅":2460,"딆":2461,"딇":2462,"딈":2463,"딉":2464,"딊":2465,"딋":2466,"딌":2467,"딍":2468,"딎":2469,"딏":2470,"딐":2471,"딑":2472,"딒":2473,"딓":2474,"디":2475,"딕":2476,"딖":2477,"딗":2478,"딘":2479,"딙":2480,"딚":2481,"딛":2482,"딜":2483,"딝":2484,"딞":2485,"딟":2486,"딠":2487,"딡":2488,"딢":2489,"딣":2490,"딤":2491,"딥":2492,"딦":2493,"딧":2494,"딨":2495,"딩":2496,"딪":2497,"딫":2498,"딬":2499,"딭":2500,"딮":2501,"딯":2502,"따":2503,"딱":2504,"딲":2505,"딳":2506,"딴":2507,"딵":2508,"딶":2509,"딷":2510,"딸":2511,"딹":2512,"딺":2513,"딻":2514,"딼":2515,"딽":2516,"딾":2517,"딿":2518,"땀":2519,"땁":2520,"땂":2521,"땃":2522,"땄":2523,"땅":2524,"땆":2525,"땇":2526,"땈":2527,"땉":2528,"땊":2529,"땋":2530,"때":2531,"땍":2532,"땎":2533,"땏":2534,"땐":2535,"땑":2536,"땒":2537,"땓":2538,"땔":2539,"땕":2540,"땖":2541,"땗":2542,"땘":2543,"땙":2544,"땚":2545,"땛":2546,"땜":2547,"땝":2548,"땞":2549,"땟":2550,"땠":2551,"땡":2552,"땢":2553,"땣":2554,"땤":2555,"땥":2556,"땦":2557,"땧":2558,"땨":2559,"땩":2560,"땪":2561,"땫":2562,"땬":2563,"땭":2564,"땮":2565,"땯":2566,"땰":2567,"땱":2568,"땲":2569,"땳":2570,"땴":2571,"땵":2572,"땶":2573,"땷":2574,"땸":2575,"땹":2576,"땺":2577,"땻":2578,"땼":2579,"땽":2580,"땾":2581,"땿":2582,"떀":2583,"떁":2584,"떂":2585,"떃":2586,"떄":2587,"떅":2588,"떆":2589,"떇":2590,"떈":2591,"떉":2592,"떊":2593,"떋":2594,"떌":2595,"떍":2596,"떎":2597,"떏":2598,"떐":2599,"떑":2600,"떒":2601,"떓":2602,"떔":2603,"떕":2604,"떖":2605,"떗":2606,"떘":2607,"떙":2608,"떚":2609,"떛":2610,"떜":2611,"떝":2612,"떞":2613,"떟":2614,"떠":2615,"떡":2616,"떢":2617,"떣":2618,"떤":2619,"떥":2620,"떦":2621,"떧":2622,"떨":2623,"떩":2624,"떪":2625,"떫":2626,"떬":2627,"떭":2628,"떮":2629,"떯":2630,"떰":2631,"떱":2632,"떲":2633,"떳":2634,"떴":2635,"떵":2636,"떶":2637,"떷":2638,"떸":2639,"떹":2640,"떺":2641,"떻":2642,"떼":2643,"떽":2644,"떾":2645,"떿":2646,"뗀":2647,"뗁":2648,"뗂":2649,"뗃":2650,"뗄":2651,"뗅":2652,"뗆":2653,"뗇":2654,"뗈":2655,"뗉":2656,"뗊":2657,"뗋":2658,"뗌":2659,"뗍":2660,"뗎":2661,"뗏":2662,"뗐":2663,"뗑":2664,"뗒":2665,"뗓":2666,"뗔":2667,"뗕":2668,"뗖":2669,"뗗":2670,"뗘":2671,"뗙":2672,"뗚":2673,"뗛":2674,"뗜":2675,"뗝":2676,"뗞":2677,"뗟":2678,"뗠":2679,"뗡":2680,"뗢":2681,"뗣":2682,"뗤":2683,"뗥":2684,"뗦":2685,"뗧":2686,"뗨":2687,"뗩":2688,"뗪":2689,"뗫":2690,"뗬":2691,"뗭":2692,"뗮":2693,"뗯":2694,"뗰":2695,"뗱":2696,"뗲":2697,"뗳":2698,"뗴":2699,"뗵":2700,"뗶":2701,"뗷":2702,"뗸":2703,"뗹":2704,"뗺":2705,"뗻":2706,"뗼":2707,"뗽":2708,"뗾":2709,"뗿":2710,"똀":2711,"똁":2712,"똂":2713,"똃":2714,"똄":2715,"똅":2716,"똆":2717,"똇":2718,"똈":2719,"똉":2720,"똊":2721,"똋":2722,"똌":2723,"똍":2724,"똎":2725,"똏":2726,"또":2727,"똑":2728,"똒":2729,"똓":2730,"똔":2731,"똕":2732,"똖":2733,"똗":2734,"똘":2735,"똙":2736,"똚":2737,"똛":2738,"똜":2739,"똝":2740,"똞":2741,"똟":2742,"똠":2743,"똡":2744,"똢":2745,"똣":2746,"똤":2747,"똥":2748,"똦":2749,"똧":2750,"똨":2751,"똩":2752,"똪":2753,"똫":2754,"똬":2755,"똭":2756,"똮":2757,"똯":2758,"똰":2759,"똱":2760,"똲":2761,"똳":2762,"똴":2763,"똵":2764,"똶":2765,"똷":2766,"똸":2767,"똹":2768,"똺":2769,"똻":2770,"똼":2771,"똽":2772,"똾":2773,"똿":2774,"뙀":2775,"뙁":2776,"뙂":2777,"뙃":2778,"뙄":2779,"뙅":2780,"뙆":2781,"뙇":2782,"뙈":2783,"뙉":2784,"뙊":2785,"뙋":2786,"뙌":2787,"뙍":2788,"뙎":2789,"뙏":2790,"뙐":2791,"뙑":2792,"뙒":2793,"뙓":2794,"뙔":2795,"뙕":2796,"뙖":2797,"뙗":2798,"뙘":2799,"뙙":2800,"뙚":2801,"뙛":2802,"뙜":2803,"뙝":2804,"뙞":2805,"뙟":2806,"뙠":2807,"뙡":2808,"뙢":2809,"뙣":2810,"뙤":2811,"뙥":2812,"뙦":2813,"뙧":2814,"뙨":2815,"뙩":2816,"뙪":2817,"뙫":2818,"뙬":2819,"뙭":2820,"뙮":2821,"뙯":2822,"뙰":2823,"뙱":2824,"뙲":2825,"뙳":2826,"뙴":2827,"뙵":2828,"뙶":2829,"뙷":2830,"뙸":2831,"뙹":2832,"뙺":2833,"뙻":2834,"뙼":2835,"뙽":2836,"뙾":2837,"뙿":2838,"뚀":2839,"뚁":2840,"뚂":2841,"뚃":2842,"뚄":2843,"뚅":2844,"뚆":2845,"뚇":2846,"뚈":2847,"뚉":2848,"뚊":2849,"뚋":2850,"뚌":2851,"뚍":2852,"뚎":2853,"뚏":2854,"뚐":2855,"뚑":2856,"뚒":2857,"뚓":2858,"뚔":2859,"뚕":2860,"뚖":2861,"뚗":2862,"뚘":2863,"뚙":2864,"뚚":2865,"뚛":2866,"뚜":2867,"뚝":2868,"뚞":2869,"뚟":2870,"뚠":2871,"뚡":2872,"뚢":2873,"뚣":2874,"뚤":2875,"뚥":2876,"뚦":2877,"뚧":2878,"뚨":2879,"뚩":2880,"뚪":2881,"뚫":2882,"뚬":2883,"뚭":2884,"뚮":2885,"뚯":2886,"뚰":2887,"뚱":2888,"뚲":2889,"뚳":2890,"뚴":2891,"뚵":2892,"뚶":2893,"뚷":2894,"뚸":2895,"뚹":2896,"뚺":2897,"뚻":2898,"뚼":2899,"뚽":2900,"뚾":2901,"뚿":2902,"뛀":2903,"뛁":2904,"뛂":2905,"뛃":2906,"뛄":2907,"뛅":2908,"뛆":2909,"뛇":2910,"뛈":2911,"뛉":2912,"뛊":2913,"뛋":2914,"뛌":2915,"뛍":2916,"뛎":2917,"뛏":2918,"뛐":2919,"뛑":2920,"뛒":2921,"뛓":2922,"뛔":2923,"뛕":2924,"뛖":2925,"뛗":2926,"뛘":2927,"뛙":2928,"뛚":2929,"뛛":2930,"뛜":2931,"뛝":2932,"뛞":2933,"뛟":2934,"뛠":2935,"뛡":2936,"뛢":2937,"뛣":2938,"뛤":2939,"뛥":2940,"뛦":2941,"뛧":2942,"뛨":2943,"뛩":2944,"뛪":2945,"뛫":2946,"뛬":2947,"뛭":2948,"뛮":2949,"뛯":2950,"뛰":2951,"뛱":2952,"뛲":2953,"뛳":2954,"뛴":2955,"뛵":2956,"뛶":2957,"뛷":2958,"뛸":2959,"뛹":2960,"뛺":2961,"뛻":2962,"뛼":2963,"뛽":2964,"뛾":2965,"뛿":2966,"뜀":2967,"뜁":2968,"뜂":2969,"뜃":2970,"뜄":2971,"뜅":2972,"뜆":2973,"뜇":2974,"뜈":2975,"뜉":2976,"뜊":2977,"뜋":2978,"뜌":2979,"뜍":2980,"뜎":2981,"뜏":2982,"뜐":2983,"뜑":2984,"뜒":2985,"뜓":2986,"뜔":2987,"뜕":2988,"뜖":2989,"뜗":2990,"뜘":2991,"뜙":2992,"뜚":2993,"뜛":2994,"뜜":2995,"뜝":2996,"뜞":2997,"뜟":2998,"뜠":2999,"뜡":3000,"뜢":3001,"뜣":3002,"뜤":3003,"뜥":3004,"뜦":3005,"뜧":3006,"뜨":3007,"뜩":3008,"뜪":3009,"뜫":3010,"뜬":3011,"뜭":3012,"뜮":3013,"뜯":3014,"뜰":3015,"뜱":3016,"뜲":3017,"뜳":3018,"뜴":3019,"뜵":3020,"뜶":3021,"뜷":3022,"뜸":3023,"뜹":3024,"뜺":3025,"뜻":3026,"뜼":3027,"뜽":3028,"뜾":3029,"뜿":3030,"띀":3031,"띁":3032,"띂":3033,"띃":3034,"띄":3035,"띅":3036,"띆":3037,"띇":3038,"띈":3039,"띉":3040,"띊":3041,"띋":3042,"띌":3043,"띍":3044,"띎":3045,"띏":3046,"띐":3047,"띑":3048,"띒":3049,"띓":3050,"띔":3051,"띕":3052,"띖":3053,"띗":3054,"띘":3055,"띙":3056,"띚":3057,"띛":3058,"띜":3059,"띝":3060,"띞":3061,"띟":3062,"띠":3063,"띡":3064,"띢":3065,"띣":3066,"띤":3067,"띥":3068,"띦":3069,"띧":3070,"띨":3071,"띩":3072,"띪":3073,"띫":3074,"띬":3075,"띭":3076,"띮":3077,"띯":3078,"띰":3079,"띱":3080,"띲":3081,"띳":3082,"띴":3083,"띵":3084,"띶":3085,"띷":3086,"띸":3087,"띹":3088,"띺":3089,"띻":3090,"라":3091,"락":3092,"띾":3093,"띿":3094,"란":3095,"랁":3096,"랂":3097,"랃":3098,"랄":3099,"랅":3100,"랆":3101,"랇":3102,"랈":3103,"랉":3104,"랊":3105,"랋":3106,"람":3107,"랍":3108,"랎":3109,"랏":3110,"랐":3111,"랑":3112,"랒":3113,"랓":3114,"랔":3115,"랕":3116,"랖":3117,"랗":3118,"래":3119,"랙":3120,"랚":3121,"랛":3122,"랜":3123,"랝":3124,"랞":3125,"랟":3126,"랠":3127,"랡":3128,"랢":3129,"랣":3130,"랤":3131,"랥":3132,"랦":3133,"랧":3134,"램":3135,"랩":3136,"랪":3137,"랫":3138,"랬":3139,"랭":3140,"랮":3141,"랯":3142,"랰":3143,"랱":3144,"랲":3145,"랳":3146,"랴":3147,"략":3148,"랶":3149,"랷":3150,"랸":3151,"랹":3152,"랺":3153,"랻":3154,"랼":3155,"랽":3156,"랾":3157,"랿":3158,"럀":3159,"럁":3160,"럂":3161,"럃":3162,"럄":3163,"럅":3164,"럆":3165,"럇":3166,"럈":3167,"량":3168,"럊":3169,"럋":3170,"럌":3171,"럍":3172,"럎":3173,"럏":3174,"럐":3175,"럑":3176,"럒":3177,"럓":3178,"럔":3179,"럕":3180,"럖":3181,"럗":3182,"럘":3183,"럙":3184,"럚":3185,"럛":3186,"럜":3187,"럝":3188,"럞":3189,"럟":3190,"럠":3191,"럡":3192,"럢":3193,"럣":3194,"럤":3195,"럥":3196,"럦":3197,"럧":3198,"럨":3199,"럩":3200,"럪":3201,"럫":3202,"러":3203,"럭":3204,"럮":3205,"럯":3206,"런":3207,"럱":3208,"럲":3209,"럳":3210,"럴":3211,"럵":3212,"럶":3213,"럷":3214,"럸":3215,"럹":3216,"럺":3217,"럻":3218,"럼":3219,"럽":3220,"럾":3221,"럿":3222,"렀":3223,"렁":3224,"렂":3225,"렃":3226,"렄":3227,"렅":3228,"렆":3229,"렇":3230,"레":3231,"렉":3232,"렊":3233,"렋":3234,"렌":3235,"렍":3236,"렎":3237,"렏":3238,"렐":3239,"렑":3240,"렒":3241,"렓":3242,"렔":3243,"렕":3244,"렖":3245,"렗":3246,"렘":3247,"렙":3248,"렚":3249,"렛":3250,"렜":3251,"렝":3252,"렞":3253,"렟":3254,"렠":3255,"렡":3256,"렢":3257,"렣":3258,"려":3259,"력":3260,"렦":3261,"렧":3262,"련":3263,"렩":3264,"렪":3265,"렫":3266,"렬":3267,"렭":3268,"렮":3269,"렯":3270,"렰":3271,"렱":3272,"렲":3273,"렳":3274,"렴":3275,"렵":3276,"렶":3277,"렷":3278,"렸":3279,"령":3280,"렺":3281,"렻":3282,"렼":3283,"렽":3284,"렾":3285,"렿":3286,"례":3287,"롁":3288,"롂":3289,"롃":3290,"롄":3291,"롅":3292,"롆":3293,"롇":3294,"롈":3295,"롉":3296,"롊":3297,"롋":3298,"롌":3299,"롍":3300,"롎":3301,"롏":3302,"롐":3303,"롑":3304,"롒":3305,"롓":3306,"롔":3307,"롕":3308,"롖":3309,"롗":3310,"롘":3311,"롙":3312,"롚":3313,"롛":3314,"로":3315,"록":3316,"롞":3317,"롟":3318,"론":3319,"롡":3320,"롢":3321,"롣":3322,"롤":3323,"롥":3324,"롦":3325,"롧":3326,"롨":3327,"롩":3328,"롪":3329,"롫":3330,"롬":3331,"롭":3332,"롮":3333,"롯":3334,"롰":3335,"롱":3336,"롲":3337,"롳":3338,"롴":3339,"롵":3340,"롶":3341,"롷":3342,"롸":3343,"롹":3344,"롺":3345,"롻":3346,"롼":3347,"롽":3348,"롾":3349,"롿":3350,"뢀":3351,"뢁":3352,"뢂":3353,"뢃":3354,"뢄":3355,"뢅":3356,"뢆":3357,"뢇":3358,"뢈":3359,"뢉":3360,"뢊":3361,"뢋":3362,"뢌":3363,"뢍":3364,"뢎":3365,"뢏":3366,"뢐":3367,"뢑":3368,"뢒":3369,"뢓":3370,"뢔":3371,"뢕":3372,"뢖":3373,"뢗":3374,"뢘":3375,"뢙":3376,"뢚":3377,"뢛":3378,"뢜":3379,"뢝":3380,"뢞":3381,"뢟":3382,"뢠":3383,"뢡":3384,"뢢":3385,"뢣":3386,"뢤":3387,"뢥":3388,"뢦":3389,"뢧":3390,"뢨":3391,"뢩":3392,"뢪":3393,"뢫":3394,"뢬":3395,"뢭":3396,"뢮":3397,"뢯":3398,"뢰":3399,"뢱":3400,"뢲":3401,"뢳":3402,"뢴":3403,"뢵":3404,"뢶":3405,"뢷":3406,"뢸":3407,"뢹":3408,"뢺":3409,"뢻":3410,"뢼":3411,"뢽":3412,"뢾":3413,"뢿":3414,"룀":3415,"룁":3416,"룂":3417,"룃":3418,"룄":3419,"룅":3420,"룆":3421,"룇":3422,"룈":3423,"룉":3424,"룊":3425,"룋":3426,"료":3427,"룍":3428,"룎":3429,"룏":3430,"룐":3431,"룑":3432,"룒":3433,"룓":3434,"룔":3435,"룕":3436,"룖":3437,"룗":3438,"룘":3439,"룙":3440,"룚":3441,"룛":3442,"룜":3443,"룝":3444,"룞":3445,"룟":3446,"룠":3447,"룡":3448,"룢":3449,"룣":3450,"룤":3451,"룥":3452,"룦":3453,"룧":3454,"루":3455,"룩":3456,"룪":3457,"룫":3458,"룬":3459,"룭":3460,"룮":3461,"룯":3462,"룰":3463,"룱":3464,"룲":3465,"룳":3466,"룴":3467,"룵":3468,"룶":3469,"룷":3470,"룸":3471,"룹":3472,"룺":3473,"룻":3474,"룼":3475,"룽":3476,"룾":3477,"룿":3478,"뤀":3479,"뤁":3480,"뤂":3481,"뤃":3482,"뤄":3483,"뤅":3484,"뤆":3485,"뤇":3486,"뤈":3487,"뤉":3488,"뤊":3489,"뤋":3490,"뤌":3491,"뤍":3492,"뤎":3493,"뤏":3494,"뤐":3495,"뤑":3496,"뤒":3497,"뤓":3498,"뤔":3499,"뤕":3500,"뤖":3501,"뤗":3502,"뤘":3503,"뤙":3504,"뤚":3505,"뤛":3506,"뤜":3507,"뤝":3508,"뤞":3509,"뤟":3510,"뤠":3511,"뤡":3512,"뤢":3513,"뤣":3514,"뤤":3515,"뤥":3516,"뤦":3517,"뤧":3518,"뤨":3519,"뤩":3520,"뤪":3521,"뤫":3522,"뤬":3523,"뤭":3524,"뤮":3525,"뤯":3526,"뤰":3527,"뤱":3528,"뤲":3529,"뤳":3530,"뤴":3531,"뤵":3532,"뤶":3533,"뤷":3534,"뤸":3535,"뤹":3536,"뤺":3537,"뤻":3538,"뤼":3539,"뤽":3540,"뤾":3541,"뤿":3542,"륀":3543,"륁":3544,"륂":3545,"륃":3546,"륄":3547,"륅":3548,"륆":3549,"륇":3550,"륈":3551,"륉":3552,"륊":3553,"륋":3554,"륌":3555,"륍":3556,"륎":3557,"륏":3558,"륐":3559,"륑":3560,"륒":3561,"륓":3562,"륔":3563,"륕":3564,"륖":3565,"륗":3566,"류":3567,"륙":3568,"륚":3569,"륛":3570,"륜":3571,"륝":3572,"륞":3573,"륟":3574,"률":3575,"륡":3576,"륢":3577,"륣":3578,"륤":3579,"륥":3580,"륦":3581,"륧":3582,"륨":3583,"륩":3584,"륪":3585,"륫":3586,"륬":3587,"륭":3588,"륮":3589,"륯":3590,"륰":3591,"륱":3592,"륲":3593,"륳":3594,"르":3595,"륵":3596,"륶":3597,"륷":3598,"른":3599,"륹":3600,"륺":3601,"륻":3602,"를":3603,"륽":3604,"륾":3605,"륿":3606,"릀":3607,"릁":3608,"릂":3609,"릃":3610,"름":3611,"릅":3612,"릆":3613,"릇":3614,"릈":3615,"릉":3616,"릊":3617,"릋":3618,"릌":3619,"릍":3620,"릎":3621,"릏":3622,"릐":3623,"릑":3624,"릒":3625,"릓":3626,"릔":3627,"릕":3628,"릖":3629,"릗":3630,"릘":3631,"릙":3632,"릚":3633,"릛":3634,"릜":3635,"릝":3636,"릞":3637,"릟":3638,"릠":3639,"릡":3640,"릢":3641,"릣":3642,"릤":3643,"릥":3644,"릦":3645,"릧":3646,"릨":3647,"릩":3648,"릪":3649,"릫":3650,"리":3651,"릭":3652,"릮":3653,"릯":3654,"린":3655,"릱":3656,"릲":3657,"릳":3658,"릴":3659,"릵":3660,"릶":3661,"릷":3662,"릸":3663,"릹":3664,"릺":3665,"릻":3666,"림":3667,"립":3668,"릾":3669,"릿":3670,"맀":3671,"링":3672,"맂":3673,"맃":3674,"맄":3675,"맅":3676,"맆":3677,"맇":3678,"마":3679,"막":3680,"맊":3681,"맋":3682,"만":3683,"맍":3684,"많":3685,"맏":3686,"말":3687,"맑":3688,"맒":3689,"맓":3690,"맔":3691,"맕":3692,"맖":3693,"맗":3694,"맘":3695,"맙":3696,"맚":3697,"맛":3698,"맜":3699,"망":3700,"맞":3701,"맟":3702,"맠":3703,"맡":3704,"맢":3705,"맣":3706,"매":3707,"맥":3708,"맦":3709,"맧":3710,"맨":3711,"맩":3712,"맪":3713,"맫":3714,"맬":3715,"맭":3716,"맮":3717,"맯":3718,"맰":3719,"맱":3720,"맲":3721,"맳":3722,"맴":3723,"맵":3724,"맶":3725,"맷":3726,"맸":3727,"맹":3728,"맺":3729,"맻":3730,"맼":3731,"맽":3732,"맾":3733,"맿":3734,"먀":3735,"먁":3736,"먂":3737,"먃":3738,"먄":3739,"먅":3740,"먆":3741,"먇":3742,"먈":3743,"먉":3744,"먊":3745,"먋":3746,"먌":3747,"먍":3748,"먎":3749,"먏":3750,"먐":3751,"먑":3752,"먒":3753,"먓":3754,"먔":3755,"먕":3756,"먖":3757,"먗":3758,"먘":3759,"먙":3760,"먚":3761,"먛":3762,"먜":3763,"먝":3764,"먞":3765,"먟":3766,"먠":3767,"먡":3768,"먢":3769,"먣":3770,"먤":3771,"먥":3772,"먦":3773,"먧":3774,"먨":3775,"먩":3776,"먪":3777,"먫":3778,"먬":3779,"먭":3780,"먮":3781,"먯":3782,"먰":3783,"먱":3784,"먲":3785,"먳":3786,"먴":3787,"먵":3788,"먶":3789,"먷":3790,"머":3791,"먹":3792,"먺":3793,"먻":3794,"먼":3795,"먽":3796,"먾":3797,"먿":3798,"멀":3799,"멁":3800,"멂":3801,"멃":3802,"멄":3803,"멅":3804,"멆":3805,"멇":3806,"멈":3807,"멉":3808,"멊":3809,"멋":3810,"멌":3811,"멍":3812,"멎":3813,"멏":3814,"멐":3815,"멑":3816,"멒":3817,"멓":3818,"메":3819,"멕":3820,"멖":3821,"멗":3822,"멘":3823,"멙":3824,"멚":3825,"멛":3826,"멜":3827,"멝":3828,"멞":3829,"멟":3830,"멠":3831,"멡":3832,"멢":3833,"멣":3834,"멤":3835,"멥":3836,"멦":3837,"멧":3838,"멨":3839,"멩":3840,"멪":3841,"멫":3842,"멬":3843,"멭":3844,"멮":3845,"멯":3846,"며":3847,"멱":3848,"멲":3849,"멳":3850,"면":3851,"멵":3852,"멶":3853,"멷":3854,"멸":3855,"멹":3856,"멺":3857,"멻":3858,"멼":3859,"멽":3860,"멾":3861,"멿":3862,"몀":3863,"몁":3864,"몂":3865,"몃":3866,"몄":3867,"명":3868,"몆":3869,"몇":3870,"몈":3871,"몉":3872,"몊":3873,"몋":3874,"몌":3875,"몍":3876,"몎":3877,"몏":3878,"몐":3879,"몑":3880,"몒":3881,"몓":3882,"몔":3883,"몕":3884,"몖":3885,"몗":3886,"몘":3887,"몙":3888,"몚":3889,"몛":3890,"몜":3891,"몝":3892,"몞":3893,"몟":3894,"몠":3895,"몡":3896,"몢":3897,"몣":3898,"몤":3899,"몥":3900,"몦":3901,"몧":3902,"모":3903,"목":3904,"몪":3905,"몫":3906,"몬":3907,"몭":3908,"몮":3909,"몯":3910,"몰":3911,"몱":3912,"몲":3913,"몳":3914,"몴":3915,"몵":3916,"몶":3917,"몷":3918,"몸":3919,"몹":3920,"몺":3921,"못":3922,"몼":3923,"몽":3924,"몾":3925,"몿":3926,"뫀":3927,"뫁":3928,"뫂":3929,"뫃":3930,"뫄":3931,"뫅":3932,"뫆":3933,"뫇":3934,"뫈":3935,"뫉":3936,"뫊":3937,"뫋":3938,"뫌":3939,"뫍":3940,"뫎":3941,"뫏":3942,"뫐":3943,"뫑":3944,"뫒":3945,"뫓":3946,"뫔":3947,"뫕":3948,"뫖":3949,"뫗":3950,"뫘":3951,"뫙":3952,"뫚":3953,"뫛":3954,"뫜":3955,"뫝":3956,"뫞":3957,"뫟":3958,"뫠":3959,"뫡":3960,"뫢":3961,"뫣":3962,"뫤":3963,"뫥":3964,"뫦":3965,"뫧":3966,"뫨":3967,"뫩":3968,"뫪":3969,"뫫":3970,"뫬":3971,"뫭":3972,"뫮":3973,"뫯":3974,"뫰":3975,"뫱":3976,"뫲":3977,"뫳":3978,"뫴":3979,"뫵":3980,"뫶":3981,"뫷":3982,"뫸":3983,"뫹":3984,"뫺":3985,"뫻":3986,"뫼":3987,"뫽":3988,"뫾":3989,"뫿":3990,"묀":3991,"묁":3992,"묂":3993,"묃":3994,"묄":3995,"묅":3996,"묆":3997,"묇":3998,"묈":3999,"묉":4000,"묊":4001,"묋":4002,"묌":4003,"묍":4004,"묎":4005,"묏":4006,"묐":4007,"묑":4008,"묒":4009,"묓":4010,"묔":4011,"묕":4012,"묖":4013,"묗":4014,"묘":4015,"묙":4016,"묚":4017,"묛":4018,"묜":4019,"묝":4020,"묞":4021,"묟":4022,"묠":4023,"묡":4024,"묢":4025,"묣":4026,"묤":4027,"묥":4028,"묦":4029,"묧":4030,"묨":4031,"묩":4032,"묪":4033,"묫":4034,"묬":4035,"묭":4036,"묮":4037,"묯":4038,"묰":4039,"묱":4040,"묲":4041,"묳":4042,"무":4043,"묵":4044,"묶":4045,"묷":4046,"문":4047,"묹":4048,"묺":4049,"묻":4050,"물":4051,"묽":4052,"묾":4053,"묿":4054,"뭀":4055,"뭁":4056,"뭂":4057,"뭃":4058,"뭄":4059,"뭅":4060,"뭆":4061,"뭇":4062,"뭈":4063,"뭉":4064,"뭊":4065,"뭋":4066,"뭌":4067,"뭍":4068,"뭎":4069,"뭏":4070,"뭐":4071,"뭑":4072,"뭒":4073,"뭓":4074,"뭔":4075,"뭕":4076,"뭖":4077,"뭗":4078,"뭘":4079,"뭙":4080,"뭚":4081,"뭛":4082,"뭜":4083,"뭝":4084,"뭞":4085,"뭟":4086,"뭠":4087,"뭡":4088,"뭢":4089,"뭣":4090,"뭤":4091,"뭥":4092,"뭦":4093,"뭧":4094,"뭨":4095,"뭩":4096,"뭪":4097,"뭫":4098,"뭬":4099,"뭭":4100,"뭮":4101,"뭯":4102,"뭰":4103,"뭱":4104,"뭲":4105,"뭳":4106,"뭴":4107,"뭵":4108,"뭶":4109,"뭷":4110,"뭸":4111,"뭹":4112,"뭺":4113,"뭻":4114,"뭼":4115,"뭽":4116,"뭾":4117,"뭿":4118,"뮀":4119,"뮁":4120,"뮂":4121,"뮃":4122,"뮄":4123,"뮅":4124,"뮆":4125,"뮇":4126,"뮈":4127,"뮉":4128,"뮊":4129,"뮋":4130,"뮌":4131,"뮍":4132,"뮎":4133,"뮏":4134,"뮐":4135,"뮑":4136,"뮒":4137,"뮓":4138,"뮔":4139,"뮕":4140,"뮖":4141,"뮗":4142,"뮘":4143,"뮙":4144,"뮚":4145,"뮛":4146,"뮜":4147,"뮝":4148,"뮞":4149,"뮟":4150,"뮠":4151,"뮡":4152,"뮢":4153,"뮣":4154,"뮤":4155,"뮥":4156,"뮦":4157,"뮧":4158,"뮨":4159,"뮩":4160,"뮪":4161,"뮫":4162,"뮬":4163,"뮭":4164,"뮮":4165,"뮯":4166,"뮰":4167,"뮱":4168,"뮲":4169,"뮳":4170,"뮴":4171,"뮵":4172,"뮶":4173,"뮷":4174,"뮸":4175,"뮹":4176,"뮺":4177,"뮻":4178,"뮼":4179,"뮽":4180,"뮾":4181,"뮿":4182,"므":4183,"믁":4184,"믂":4185,"믃":4186,"믄":4187,"믅":4188,"믆":4189,"믇":4190,"믈":4191,"믉":4192,"믊":4193,"믋":4194,"믌":4195,"믍":4196,"믎":4197,"믏":4198,"믐":4199,"믑":4200,"믒":4201,"믓":4202,"믔":4203,"믕":4204,"믖":4205,"믗":4206,"믘":4207,"믙":4208,"믚":4209,"믛":4210,"믜":4211,"믝":4212,"믞":4213,"믟":4214,"믠":4215,"믡":4216,"믢":4217,"믣":4218,"믤":4219,"믥":4220,"믦":4221,"믧":4222,"믨":4223,"믩":4224,"믪":4225,"믫":4226,"믬":4227,"믭":4228,"믮":4229,"믯":4230,"믰":4231,"믱":4232,"믲":4233,"믳":4234,"믴":4235,"믵":4236,"믶":4237,"믷":4238,"미":4239,"믹":4240,"믺":4241,"믻":4242,"민":4243,"믽":4244,"믾":4245,"믿":4246,"밀":4247,"밁":4248,"밂":4249,"밃":4250,"밄":4251,"밅":4252,"밆":4253,"밇":4254,"밈":4255,"밉":4256,"밊":4257,"밋":4258,"밌":4259,"밍":4260,"밎":4261,"및":4262,"밐":4263,"밑":4264,"밒":4265,"밓":4266,"바":4267,"박":4268,"밖":4269,"밗":4270,"반":4271,"밙":4272,"밚":4273,"받":4274,"발":4275,"밝":4276,"밞":4277,"밟":4278,"밠":4279,"밡":4280,"밢":4281,"밣":4282,"밤":4283,"밥":4284,"밦":4285,"밧":4286,"밨":4287,"방":4288,"밪":4289,"밫":4290,"밬":4291,"밭":4292,"밮":4293,"밯":4294,"배":4295,"백":4296,"밲":4297,"밳":4298,"밴":4299,"밵":4300,"밶":4301,"밷":4302,"밸":4303,"밹":4304,"밺":4305,"밻":4306,"밼":4307,"밽":4308,"밾":4309,"밿":4310,"뱀":4311,"뱁":4312,"뱂":4313,"뱃":4314,"뱄":4315,"뱅":4316,"뱆":4317,"뱇":4318,"뱈":4319,"뱉":4320,"뱊":4321,"뱋":4322,"뱌":4323,"뱍":4324,"뱎":4325,"뱏":4326,"뱐":4327,"뱑":4328,"뱒":4329,"뱓":4330,"뱔":4331,"뱕":4332,"뱖":4333,"뱗":4334,"뱘":4335,"뱙":4336,"뱚":4337,"뱛":4338,"뱜":4339,"뱝":4340,"뱞":4341,"뱟":4342,"뱠":4343,"뱡":4344,"뱢":4345,"뱣":4346,"뱤":4347,"뱥":4348,"뱦":4349,"뱧":4350,"뱨":4351,"뱩":4352,"뱪":4353,"뱫":4354,"뱬":4355,"뱭":4356,"뱮":4357,"뱯":4358,"뱰":4359,"뱱":4360,"뱲":4361,"뱳":4362,"뱴":4363,"뱵":4364,"뱶":4365,"뱷":4366,"뱸":4367,"뱹":4368,"뱺":4369,"뱻":4370,"뱼":4371,"뱽":4372,"뱾":4373,"뱿":4374,"벀":4375,"벁":4376,"벂":4377,"벃":4378,"버":4379,"벅":4380,"벆":4381,"벇":4382,"번":4383,"벉":4384,"벊":4385,"벋":4386,"벌":4387,"벍":4388,"벎":4389,"벏":4390,"벐":4391,"벑":4392,"벒":4393,"벓":4394,"범":4395,"법":4396,"벖":4397,"벗":4398,"벘":4399,"벙":4400,"벚":4401,"벛":4402,"벜":4403,"벝":4404,"벞":4405,"벟":4406,"베":4407,"벡":4408,"벢":4409,"벣":4410,"벤":4411,"벥":4412,"벦":4413,"벧":4414,"벨":4415,"벩":4416,"벪":4417,"벫":4418,"벬":4419,"벭":4420,"벮":4421,"벯":4422,"벰":4423,"벱":4424,"벲":4425,"벳":4426,"벴":4427,"벵":4428,"벶":4429,"벷":4430,"벸":4431,"벹":4432,"벺":4433,"벻":4434,"벼":4435,"벽":4436,"벾":4437,"벿":4438,"변":4439,"볁":4440,"볂":4441,"볃":4442,"별":4443,"볅":4444,"볆":4445,"볇":4446,"볈":4447,"볉":4448,"볊":4449,"볋":4450,"볌":4451,"볍":4452,"볎":4453,"볏":4454,"볐":4455,"병":4456,"볒":4457,"볓":4458,"볔":4459,"볕":4460,"볖":4461,"볗":4462,"볘":4463,"볙":4464,"볚":4465,"볛":4466,"볜":4467,"볝":4468,"볞":4469,"볟":4470,"볠":4471,"볡":4472,"볢":4473,"볣":4474,"볤":4475,"볥":4476,"볦":4477,"볧":4478,"볨":4479,"볩":4480,"볪":4481,"볫":4482,"볬":4483,"볭":4484,"볮":4485,"볯":4486,"볰":4487,"볱":4488,"볲":4489,"볳":4490,"보":4491,"복":4492,"볶":4493,"볷":4494,"본":4495,"볹":4496,"볺":4497,"볻":4498,"볼":4499,"볽":4500,"볾":4501,"볿":4502,"봀":4503,"봁":4504,"봂":4505,"봃":4506,"봄":4507,"봅":4508,"봆":4509,"봇":4510,"봈":4511,"봉":4512,"봊":4513,"봋":4514,"봌":4515,"봍":4516,"봎":4517,"봏":4518,"봐":4519,"봑":4520,"봒":4521,"봓":4522,"봔":4523,"봕":4524,"봖":4525,"봗":4526,"봘":4527,"봙":4528,"봚":4529,"봛":4530,"봜":4531,"봝":4532,"봞":4533,"봟":4534,"봠":4535,"봡":4536,"봢":4537,"봣":4538,"봤":4539,"봥":4540,"봦":4541,"봧":4542,"봨":4543,"봩":4544,"봪":4545,"봫":4546,"봬":4547,"봭":4548,"봮":4549,"봯":4550,"봰":4551,"봱":4552,"봲":4553,"봳":4554,"봴":4555,"봵":4556,"봶":4557,"봷":4558,"봸":4559,"봹":4560,"봺":4561,"봻":4562,"봼":4563,"봽":4564,"봾":4565,"봿":4566,"뵀":4567,"뵁":4568,"뵂":4569,"뵃":4570,"뵄":4571,"뵅":4572,"뵆":4573,"뵇":4574,"뵈":4575,"뵉":4576,"뵊":4577,"뵋":4578,"뵌":4579,"뵍":4580,"뵎":4581,"뵏":4582,"뵐":4583,"뵑":4584,"뵒":4585,"뵓":4586,"뵔":4587,"뵕":4588,"뵖":4589,"뵗":4590,"뵘":4591,"뵙":4592,"뵚":4593,"뵛":4594,"뵜":4595,"뵝":4596,"뵞":4597,"뵟":4598,"뵠":4599,"뵡":4600,"뵢":4601,"뵣":4602,"뵤":4603,"뵥":4604,"뵦":4605,"뵧":4606,"뵨":4607,"뵩":4608,"뵪":4609,"뵫":4610,"뵬":4611,"뵭":4612,"뵮":4613,"뵯":4614,"뵰":4615,"뵱":4616,"뵲":4617,"뵳":4618,"뵴":4619,"뵵":4620,"뵶":4621,"뵷":4622,"뵸":4623,"뵹":4624,"뵺":4625,"뵻":4626,"뵼":4627,"뵽":4628,"뵾":4629,"뵿":4630,"부":4631,"북":4632,"붂":4633,"붃":4634,"분":4635,"붅":4636,"붆":4637,"붇":4638,"불":4639,"붉":4640,"붊":4641,"붋":4642,"붌":4643,"붍":4644,"붎":4645,"붏":4646,"붐":4647,"붑":4648,"붒":4649,"붓":4650,"붔":4651,"붕":4652,"붖":4653,"붗":4654,"붘":4655,"붙":4656,"붚":4657,"붛":4658,"붜":4659,"붝":4660,"붞":4661,"붟":4662,"붠":4663,"붡":4664,"붢":4665,"붣":4666,"붤":4667,"붥":4668,"붦":4669,"붧":4670,"붨":4671,"붩":4672,"붪":4673,"붫":4674,"붬":4675,"붭":4676,"붮":4677,"붯":4678,"붰":4679,"붱":4680,"붲":4681,"붳":4682,"붴":4683,"붵":4684,"붶":4685,"붷":4686,"붸":4687,"붹":4688,"붺":4689,"붻":4690,"붼":4691,"붽":4692,"붾":4693,"붿":4694,"뷀":4695,"뷁":4696,"뷂":4697,"뷃":4698,"뷄":4699,"뷅":4700,"뷆":4701,"뷇":4702,"뷈":4703,"뷉":4704,"뷊":4705,"뷋":4706,"뷌":4707,"뷍":4708,"뷎":4709,"뷏":4710,"뷐":4711,"뷑":4712,"뷒":4713,"뷓":4714,"뷔":4715,"뷕":4716,"뷖":4717,"뷗":4718,"뷘":4719,"뷙":4720,"뷚":4721,"뷛":4722,"뷜":4723,"뷝":4724,"뷞":4725,"뷟":4726,"뷠":4727,"뷡":4728,"뷢":4729,"뷣":4730,"뷤":4731,"뷥":4732,"뷦":4733,"뷧":4734,"뷨":4735,"뷩":4736,"뷪":4737,"뷫":4738,"뷬":4739,"뷭":4740,"뷮":4741,"뷯":4742,"뷰":4743,"뷱":4744,"뷲":4745,"뷳":4746,"뷴":4747,"뷵":4748,"뷶":4749,"뷷":4750,"뷸":4751,"뷹":4752,"뷺":4753,"뷻":4754,"뷼":4755,"뷽":4756,"뷾":4757,"뷿":4758,"븀":4759,"븁":4760,"븂":4761,"븃":4762,"븄":4763,"븅":4764,"븆":4765,"븇":4766,"븈":4767,"븉":4768,"븊":4769,"븋":4770,"브":4771,"븍":4772,"븎":4773,"븏":4774,"븐":4775,"븑":4776,"븒":4777,"븓":4778,"블":4779,"븕":4780,"븖":4781,"븗":4782,"븘":4783,"븙":4784,"븚":4785,"븛":4786,"븜":4787,"븝":4788,"븞":4789,"븟":4790,"븠":4791,"븡":4792,"븢":4793,"븣":4794,"븤":4795,"븥":4796,"븦":4797,"븧":4798,"븨":4799,"븩":4800,"븪":4801,"븫":4802,"븬":4803,"븭":4804,"븮":4805,"븯":4806,"븰":4807,"븱":4808,"븲":4809,"븳":4810,"븴":4811,"븵":4812,"븶":4813,"븷":4814,"븸":4815,"븹":4816,"븺":4817,"븻":4818,"븼":4819,"븽":4820,"븾":4821,"븿":4822,"빀":4823,"빁":4824,"빂":4825,"빃":4826,"비":4827,"빅":4828,"빆":4829,"빇":4830,"빈":4831,"빉":4832,"빊":4833,"빋":4834,"빌":4835,"빍":4836,"빎":4837,"빏":4838,"빐":4839,"빑":4840,"빒":4841,"빓":4842,"빔":4843,"빕":4844,"빖":4845,"빗":4846,"빘":4847,"빙":4848,"빚":4849,"빛":4850,"빜":4851,"빝":4852,"빞":4853,"빟":4854,"빠":4855,"빡":4856,"빢":4857,"빣":4858,"빤":4859,"빥":4860,"빦":4861,"빧":4862,"빨":4863,"빩":4864,"빪":4865,"빫":4866,"빬":4867,"빭":4868,"빮":4869,"빯":4870,"빰":4871,"빱":4872,"빲":4873,"빳":4874,"빴":4875,"빵":4876,"빶":4877,"빷":4878,"빸":4879,"빹":4880,"빺":4881,"빻":4882,"빼":4883,"빽":4884,"빾":4885,"빿":4886,"뺀":4887,"뺁":4888,"뺂":4889,"뺃":4890,"뺄":4891,"뺅":4892,"뺆":4893,"뺇":4894,"뺈":4895,"뺉":4896,"뺊":4897,"뺋":4898,"뺌":4899,"뺍":4900,"뺎":4901,"뺏":4902,"뺐":4903,"뺑":4904,"뺒":4905,"뺓":4906,"뺔":4907,"뺕":4908,"뺖":4909,"뺗":4910,"뺘":4911,"뺙":4912,"뺚":4913,"뺛":4914,"뺜":4915,"뺝":4916,"뺞":4917,"뺟":4918,"뺠":4919,"뺡":4920,"뺢":4921,"뺣":4922,"뺤":4923,"뺥":4924,"뺦":4925,"뺧":4926,"뺨":4927,"뺩":4928,"뺪":4929,"뺫":4930,"뺬":4931,"뺭":4932,"뺮":4933,"뺯":4934,"뺰":4935,"뺱":4936,"뺲":4937,"뺳":4938,"뺴":4939,"뺵":4940,"뺶":4941,"뺷":4942,"뺸":4943,"뺹":4944,"뺺":4945,"뺻":4946,"뺼":4947,"뺽":4948,"뺾":4949,"뺿":4950,"뻀":4951,"뻁":4952,"뻂":4953,"뻃":4954,"뻄":4955,"뻅":4956,"뻆":4957,"뻇":4958,"뻈":4959,"뻉":4960,"뻊":4961,"뻋":4962,"뻌":4963,"뻍":4964,"뻎":4965,"뻏":4966,"뻐":4967,"뻑":4968,"뻒":4969,"뻓":4970,"뻔":4971,"뻕":4972,"뻖":4973,"뻗":4974,"뻘":4975,"뻙":4976,"뻚":4977,"뻛":4978,"뻜":4979,"뻝":4980,"뻞":4981,"뻟":4982,"뻠":4983,"뻡":4984,"뻢":4985,"뻣":4986,"뻤":4987,"뻥":4988,"뻦":4989,"뻧":4990,"뻨":4991,"뻩":4992,"뻪":4993,"뻫":4994,"뻬":4995,"뻭":4996,"뻮":4997,"뻯":4998,"뻰":4999,"뻱":5000,"뻲":5001,"뻳":5002,"뻴":5003,"뻵":5004,"뻶":5005,"뻷":5006,"뻸":5007,"뻹":5008,"뻺":5009,"뻻":5010,"뻼":5011,"뻽":5012,"뻾":5013,"뻿":5014,"뼀":5015,"뼁":5016,"뼂":5017,"뼃":5018,"뼄":5019,"뼅":5020,"뼆":5021,"뼇":5022,"뼈":5023,"뼉":5024,"뼊":5025,"뼋":5026,"뼌":5027,"뼍":5028,"뼎":5029,"뼏":5030,"뼐":5031,"뼑":5032,"뼒":5033,"뼓":5034,"뼔":5035,"뼕":5036,"뼖":5037,"뼗":5038,"뼘":5039,"뼙":5040,"뼚":5041,"뼛":5042,"뼜":5043,"뼝":5044,"뼞":5045,"뼟":5046,"뼠":5047,"뼡":5048,"뼢":5049,"뼣":5050,"뼤":5051,"뼥":5052,"뼦":5053,"뼧":5054,"뼨":5055,"뼩":5056,"뼪":5057,"뼫":5058,"뼬":5059,"뼭":5060,"뼮":5061,"뼯":5062,"뼰":5063,"뼱":5064,"뼲":5065,"뼳":5066,"뼴":5067,"뼵":5068,"뼶":5069,"뼷":5070,"뼸":5071,"뼹":5072,"뼺":5073,"뼻":5074,"뼼":5075,"뼽":5076,"뼾":5077,"뼿":5078,"뽀":5079,"뽁":5080,"뽂":5081,"뽃":5082,"뽄":5083,"뽅":5084,"뽆":5085,"뽇":5086,"뽈":5087,"뽉":5088,"뽊":5089,"뽋":5090,"뽌":5091,"뽍":5092,"뽎":5093,"뽏":5094,"뽐":5095,"뽑":5096,"뽒":5097,"뽓":5098,"뽔":5099,"뽕":5100,"뽖":5101,"뽗":5102,"뽘":5103,"뽙":5104,"뽚":5105,"뽛":5106,"뽜":5107,"뽝":5108,"뽞":5109,"뽟":5110,"뽠":5111,"뽡":5112,"뽢":5113,"뽣":5114,"뽤":5115,"뽥":5116,"뽦":5117,"뽧":5118,"뽨":5119,"뽩":5120,"뽪":5121,"뽫":5122,"뽬":5123,"뽭":5124,"뽮":5125,"뽯":5126,"뽰":5127,"뽱":5128,"뽲":5129,"뽳":5130,"뽴":5131,"뽵":5132,"뽶":5133,"뽷":5134,"뽸":5135,"뽹":5136,"뽺":5137,"뽻":5138,"뽼":5139,"뽽":5140,"뽾":5141,"뽿":5142,"뾀":5143,"뾁":5144,"뾂":5145,"뾃":5146,"뾄":5147,"뾅":5148,"뾆":5149,"뾇":5150,"뾈":5151,"뾉":5152,"뾊":5153,"뾋":5154,"뾌":5155,"뾍":5156,"뾎":5157,"뾏":5158,"뾐":5159,"뾑":5160,"뾒":5161,"뾓":5162,"뾔":5163,"뾕":5164,"뾖":5165,"뾗":5166,"뾘":5167,"뾙":5168,"뾚":5169,"뾛":5170,"뾜":5171,"뾝":5172,"뾞":5173,"뾟":5174,"뾠":5175,"뾡":5176,"뾢":5177,"뾣":5178,"뾤":5179,"뾥":5180,"뾦":5181,"뾧":5182,"뾨":5183,"뾩":5184,"뾪":5185,"뾫":5186,"뾬":5187,"뾭":5188,"뾮":5189,"뾯":5190,"뾰":5191,"뾱":5192,"뾲":5193,"뾳":5194,"뾴":5195,"뾵":5196,"뾶":5197,"뾷":5198,"뾸":5199,"뾹":5200,"뾺":5201,"뾻":5202,"뾼":5203,"뾽":5204,"뾾":5205,"뾿":5206,"뿀":5207,"뿁":5208,"뿂":5209,"뿃":5210,"뿄":5211,"뿅":5212,"뿆":5213,"뿇":5214,"뿈":5215,"뿉":5216,"뿊":5217,"뿋":5218,"뿌":5219,"뿍":5220,"뿎":5221,"뿏":5222,"뿐":5223,"뿑":5224,"뿒":5225,"뿓":5226,"뿔":5227,"뿕":5228,"뿖":5229,"뿗":5230,"뿘":5231,"뿙":5232,"뿚":5233,"뿛":5234,"뿜":5235,"뿝":5236,"뿞":5237,"뿟":5238,"뿠":5239,"뿡":5240,"뿢":5241,"뿣":5242,"뿤":5243,"뿥":5244,"뿦":5245,"뿧":5246,"뿨":5247,"뿩":5248,"뿪":5249,"뿫":5250,"뿬":5251,"뿭":5252,"뿮":5253,"뿯":5254,"뿰":5255,"뿱":5256,"뿲":5257,"뿳":5258,"뿴":5259,"뿵":5260,"뿶":5261,"뿷":5262,"뿸":5263,"뿹":5264,"뿺":5265,"뿻":5266,"뿼":5267,"뿽":5268,"뿾":5269,"뿿":5270,"쀀":5271,"쀁":5272,"쀂":5273,"쀃":5274,"쀄":5275,"쀅":5276,"쀆":5277,"쀇":5278,"쀈":5279,"쀉":5280,"쀊":5281,"쀋":5282,"쀌":5283,"쀍":5284,"쀎":5285,"쀏":5286,"쀐":5287,"쀑":5288,"쀒":5289,"쀓":5290,"쀔":5291,"쀕":5292,"쀖":5293,"쀗":5294,"쀘":5295,"쀙":5296,"쀚":5297,"쀛":5298,"쀜":5299,"쀝":5300,"쀞":5301,"쀟":5302,"쀠":5303,"쀡":5304,"쀢":5305,"쀣":5306,"쀤":5307,"쀥":5308,"쀦":5309,"쀧":5310,"쀨":5311,"쀩":5312,"쀪":5313,"쀫":5314,"쀬":5315,"쀭":5316,"쀮":5317,"쀯":5318,"쀰":5319,"쀱":5320,"쀲":5321,"쀳":5322,"쀴":5323,"쀵":5324,"쀶":5325,"쀷":5326,"쀸":5327,"쀹":5328,"쀺":5329,"쀻":5330,"쀼":5331,"쀽":5332,"쀾":5333,"쀿":5334,"쁀":5335,"쁁":5336,"쁂":5337,"쁃":5338,"쁄":5339,"쁅":5340,"쁆":5341,"쁇":5342,"쁈":5343,"쁉":5344,"쁊":5345,"쁋":5346,"쁌":5347,"쁍":5348,"쁎":5349,"쁏":5350,"쁐":5351,"쁑":5352,"쁒":5353,"쁓":5354,"쁔":5355,"쁕":5356,"쁖":5357,"쁗":5358,"쁘":5359,"쁙":5360,"쁚":5361,"쁛":5362,"쁜":5363,"쁝":5364,"쁞":5365,"쁟":5366,"쁠":5367,"쁡":5368,"쁢":5369,"쁣":5370,"쁤":5371,"쁥":5372,"쁦":5373,"쁧":5374,"쁨":5375,"쁩":5376,"쁪":5377,"쁫":5378,"쁬":5379,"쁭":5380,"쁮":5381,"쁯":5382,"쁰":5383,"쁱":5384,"쁲":5385,"쁳":5386,"쁴":5387,"쁵":5388,"쁶":5389,"쁷":5390,"쁸":5391,"쁹":5392,"쁺":5393,"쁻":5394,"쁼":5395,"쁽":5396,"쁾":5397,"쁿":5398,"삀":5399,"삁":5400,"삂":5401,"삃":5402,"삄":5403,"삅":5404,"삆":5405,"삇":5406,"삈":5407,"삉":5408,"삊":5409,"삋":5410,"삌":5411,"삍":5412,"삎":5413,"삏":5414,"삐":5415,"삑":5416,"삒":5417,"삓":5418,"삔":5419,"삕":5420,"삖":5421,"삗":5422,"삘":5423,"삙":5424,"삚":5425,"삛":5426,"삜":5427,"삝":5428,"삞":5429,"삟":5430,"삠":5431,"삡":5432,"삢":5433,"삣":5434,"삤":5435,"삥":5436,"삦":5437,"삧":5438,"삨":5439,"삩":5440,"삪":5441,"삫":5442,"사":5443,"삭":5444,"삮":5445,"삯":5446,"산":5447,"삱":5448,"삲":5449,"삳":5450,"살":5451,"삵":5452,"삶":5453,"삷":5454,"삸":5455,"삹":5456,"삺":5457,"삻":5458,"삼":5459,"삽":5460,"삾":5461,"삿":5462,"샀":5463,"상":5464,"샂":5465,"샃":5466,"샄":5467,"샅":5468,"샆":5469,"샇":5470,"새":5471,"색":5472,"샊":5473,"샋":5474,"샌":5475,"샍":5476,"샎":5477,"샏":5478,"샐":5479,"샑":5480,"샒":5481,"샓":5482,"샔":5483,"샕":5484,"샖":5485,"샗":5486,"샘":5487,"샙":5488,"샚":5489,"샛":5490,"샜":5491,"생":5492,"샞":5493,"샟":5494,"샠":5495,"샡":5496,"샢":5497,"샣":5498,"샤":5499,"샥":5500,"샦":5501,"샧":5502,"샨":5503,"샩":5504,"샪":5505,"샫":5506,"샬":5507,"샭":5508,"샮":5509,"샯":5510,"샰":5511,"샱":5512,"샲":5513,"샳":5514,"샴":5515,"샵":5516,"샶":5517,"샷":5518,"샸":5519,"샹":5520,"샺":5521,"샻":5522,"샼":5523,"샽":5524,"샾":5525,"샿":5526,"섀":5527,"섁":5528,"섂":5529,"섃":5530,"섄":5531,"섅":5532,"섆":5533,"섇":5534,"섈":5535,"섉":5536,"섊":5537,"섋":5538,"섌":5539,"섍":5540,"섎":5541,"섏":5542,"섐":5543,"섑":5544,"섒":5545,"섓":5546,"섔":5547,"섕":5548,"섖":5549,"섗":5550,"섘":5551,"섙":5552,"섚":5553,"섛":5554,"서":5555,"석":5556,"섞":5557,"섟":5558,"선":5559,"섡":5560,"섢":5561,"섣":5562,"설":5563,"섥":5564,"섦":5565,"섧":5566,"섨":5567,"섩":5568,"섪":5569,"섫":5570,"섬":5571,"섭":5572,"섮":5573,"섯":5574,"섰":5575,"성":5576,"섲":5577,"섳":5578,"섴":5579,"섵":5580,"섶":5581,"섷":5582,"세":5583,"섹":5584,"섺":5585,"섻":5586,"센":5587,"섽":5588,"섾":5589,"섿":5590,"셀":5591,"셁":5592,"셂":5593,"셃":5594,"셄":5595,"셅":5596,"셆":5597,"셇":5598,"셈":5599,"셉":5600,"셊":5601,"셋":5602,"셌":5603,"셍":5604,"셎":5605,"셏":5606,"셐":5607,"셑":5608,"셒":5609,"셓":5610,"셔":5611,"셕":5612,"셖":5613,"셗":5614,"션":5615,"셙":5616,"셚":5617,"셛":5618,"셜":5619,"셝":5620,"셞":5621,"셟":5622,"셠":5623,"셡":5624,"셢":5625,"셣":5626,"셤":5627,"셥":5628,"셦":5629,"셧":5630,"셨":5631,"셩":5632,"셪":5633,"셫":5634,"셬":5635,"셭":5636,"셮":5637,"셯":5638,"셰":5639,"셱":5640,"셲":5641,"셳":5642,"셴":5643,"셵":5644,"셶":5645,"셷":5646,"셸":5647,"셹":5648,"셺":5649,"셻":5650,"셼":5651,"셽":5652,"셾":5653,"셿":5654,"솀":5655,"솁":5656,"솂":5657,"솃":5658,"솄":5659,"솅":5660,"솆":5661,"솇":5662,"솈":5663,"솉":5664,"솊":5665,"솋":5666,"소":5667,"속":5668,"솎":5669,"솏":5670,"손":5671,"솑":5672,"솒":5673,"솓":5674,"솔":5675,"솕":5676,"솖":5677,"솗":5678,"솘":5679,"솙":5680,"솚":5681,"솛":5682,"솜":5683,"솝":5684,"솞":5685,"솟":5686,"솠":5687,"송":5688,"솢":5689,"솣":5690,"솤":5691,"솥":5692,"솦":5693,"솧":5694,"솨":5695,"솩":5696,"솪":5697,"솫":5698,"솬":5699,"솭":5700,"솮":5701,"솯":5702,"솰":5703,"솱":5704,"솲":5705,"솳":5706,"솴":5707,"솵":5708,"솶":5709,"솷":5710,"솸":5711,"솹":5712,"솺":5713,"솻":5714,"솼":5715,"솽":5716,"솾":5717,"솿":5718,"쇀":5719,"쇁":5720,"쇂":5721,"쇃":5722,"쇄":5723,"쇅":5724,"쇆":5725,"쇇":5726,"쇈":5727,"쇉":5728,"쇊":5729,"쇋":5730,"쇌":5731,"쇍":5732,"쇎":5733,"쇏":5734,"쇐":5735,"쇑":5736,"쇒":5737,"쇓":5738,"쇔":5739,"쇕":5740,"쇖":5741,"쇗":5742,"쇘":5743,"쇙":5744,"쇚":5745,"쇛":5746,"쇜":5747,"쇝":5748,"쇞":5749,"쇟":5750,"쇠":5751,"쇡":5752,"쇢":5753,"쇣":5754,"쇤":5755,"쇥":5756,"쇦":5757,"쇧":5758,"쇨":5759,"쇩":5760,"쇪":5761,"쇫":5762,"쇬":5763,"쇭":5764,"쇮":5765,"쇯":5766,"쇰":5767,"쇱":5768,"쇲":5769,"쇳":5770,"쇴":5771,"쇵":5772,"쇶":5773,"쇷":5774,"쇸":5775,"쇹":5776,"쇺":5777,"쇻":5778,"쇼":5779,"쇽":5780,"쇾":5781,"쇿":5782,"숀":5783,"숁":5784,"숂":5785,"숃":5786,"숄":5787,"숅":5788,"숆":5789,"숇":5790,"숈":5791,"숉":5792,"숊":5793,"숋":5794,"숌":5795,"숍":5796,"숎":5797,"숏":5798,"숐":5799,"숑":5800,"숒":5801,"숓":5802,"숔":5803,"숕":5804,"숖":5805,"숗":5806,"수":5807,"숙":5808,"숚":5809,"숛":5810,"순":5811,"숝":5812,"숞":5813,"숟":5814,"술":5815,"숡":5816,"숢":5817,"숣":5818,"숤":5819,"숥":5820,"숦":5821,"숧":5822,"숨":5823,"숩":5824,"숪":5825,"숫":5826,"숬":5827,"숭":5828,"숮":5829,"숯":5830,"숰":5831,"숱":5832,"숲":5833,"숳":5834,"숴":5835,"숵":5836,"숶":5837,"숷":5838,"숸":5839,"숹":5840,"숺":5841,"숻":5842,"숼":5843,"숽":5844,"숾":5845,"숿":5846,"쉀":5847,"쉁":5848,"쉂":5849,"쉃":5850,"쉄":5851,"쉅":5852,"쉆":5853,"쉇":5854,"쉈":5855,"쉉":5856,"쉊":5857,"쉋":5858,"쉌":5859,"쉍":5860,"쉎":5861,"쉏":5862,"쉐":5863,"쉑":5864,"쉒":5865,"쉓":5866,"쉔":5867,"쉕":5868,"쉖":5869,"쉗":5870,"쉘":5871,"쉙":5872,"쉚":5873,"쉛":5874,"쉜":5875,"쉝":5876,"쉞":5877,"쉟":5878,"쉠":5879,"쉡":5880,"쉢":5881,"쉣":5882,"쉤":5883,"쉥":5884,"쉦":5885,"쉧":5886,"쉨":5887,"쉩":5888,"쉪":5889,"쉫":5890,"쉬":5891,"쉭":5892,"쉮":5893,"쉯":5894,"쉰":5895,"쉱":5896,"쉲":5897,"쉳":5898,"쉴":5899,"쉵":5900,"쉶":5901,"쉷":5902,"쉸":5903,"쉹":5904,"쉺":5905,"쉻":5906,"쉼":5907,"쉽":5908,"쉾":5909,"쉿":5910,"슀":5911,"슁":5912,"슂":5913,"슃":5914,"슄":5915,"슅":5916,"슆":5917,"슇":5918,"슈":5919,"슉":5920,"슊":5921,"슋":5922,"슌":5923,"슍":5924,"슎":5925,"슏":5926,"슐":5927,"슑":5928,"슒":5929,"슓":5930,"슔":5931,"슕":5932,"슖":5933,"슗":5934,"슘":5935,"슙":5936,"슚":5937,"슛":5938,"슜":5939,"슝":5940,"슞":5941,"슟":5942,"슠":5943,"슡":5944,"슢":5945,"슣":5946,"스":5947,"슥":5948,"슦":5949,"슧":5950,"슨":5951,"슩":5952,"슪":5953,"슫":5954,"슬":5955,"슭":5956,"슮":5957,"슯":5958,"슰":5959,"슱":5960,"슲":5961,"슳":5962,"슴":5963,"습":5964,"슶":5965,"슷":5966,"슸":5967,"승":5968,"슺":5969,"슻":5970,"슼":5971,"슽":5972,"슾":5973,"슿":5974,"싀":5975,"싁":5976,"싂":5977,"싃":5978,"싄":5979,"싅":5980,"싆":5981,"싇":5982,"싈":5983,"싉":5984,"싊":5985,"싋":5986,"싌":5987,"싍":5988,"싎":5989,"싏":5990,"싐":5991,"싑":5992,"싒":5993,"싓":5994,"싔":5995,"싕":5996,"싖":5997,"싗":5998,"싘":5999,"싙":6000,"싚":6001,"싛":6002,"시":6003,"식":6004,"싞":6005,"싟":6006,"신":6007,"싡":6008,"싢":6009,"싣":6010,"실":6011,"싥":6012,"싦":6013,"싧":6014,"싨":6015,"싩":6016,"싪":6017,"싫":6018,"심":6019,"십":6020,"싮":6021,"싯":6022,"싰":6023,"싱":6024,"싲":6025,"싳":6026,"싴":6027,"싵":6028,"싶":6029,"싷":6030,"싸":6031,"싹":6032,"싺":6033,"싻":6034,"싼":6035,"싽":6036,"싾":6037,"싿":6038,"쌀":6039,"쌁":6040,"쌂":6041,"쌃":6042,"쌄":6043,"쌅":6044,"쌆":6045,"쌇":6046,"쌈":6047,"쌉":6048,"쌊":6049,"쌋":6050,"쌌":6051,"쌍":6052,"쌎":6053,"쌏":6054,"쌐":6055,"쌑":6056,"쌒":6057,"쌓":6058,"쌔":6059,"쌕":6060,"쌖":6061,"쌗":6062,"쌘":6063,"쌙":6064,"쌚":6065,"쌛":6066,"쌜":6067,"쌝":6068,"쌞":6069,"쌟":6070,"쌠":6071,"쌡":6072,"쌢":6073,"쌣":6074,"쌤":6075,"쌥":6076,"쌦":6077,"쌧":6078,"쌨":6079,"쌩":6080,"쌪":6081,"쌫":6082,"쌬":6083,"쌭":6084,"쌮":6085,"쌯":6086,"쌰":6087,"쌱":6088,"쌲":6089,"쌳":6090,"쌴":6091,"쌵":6092,"쌶":6093,"쌷":6094,"쌸":6095,"쌹":6096,"쌺":6097,"쌻":6098,"쌼":6099,"쌽":6100,"쌾":6101,"쌿":6102,"썀":6103,"썁":6104,"썂":6105,"썃":6106,"썄":6107,"썅":6108,"썆":6109,"썇":6110,"썈":6111,"썉":6112,"썊":6113,"썋":6114,"썌":6115,"썍":6116,"썎":6117,"썏":6118,"썐":6119,"썑":6120,"썒":6121,"썓":6122,"썔":6123,"썕":6124,"썖":6125,"썗":6126,"썘":6127,"썙":6128,"썚":6129,"썛":6130,"썜":6131,"썝":6132,"썞":6133,"썟":6134,"썠":6135,"썡":6136,"썢":6137,"썣":6138,"썤":6139,"썥":6140,"썦":6141,"썧":6142,"써":6143,"썩":6144,"썪":6145,"썫":6146,"썬":6147,"썭":6148,"썮":6149,"썯":6150,"썰":6151,"썱":6152,"썲":6153,"썳":6154,"썴":6155,"썵":6156,"썶":6157,"썷":6158,"썸":6159,"썹":6160,"썺":6161,"썻":6162,"썼":6163,"썽":6164,"썾":6165,"썿":6166,"쎀":6167,"쎁":6168,"쎂":6169,"쎃":6170,"쎄":6171,"쎅":6172,"쎆":6173,"쎇":6174,"쎈":6175,"쎉":6176,"쎊":6177,"쎋":6178,"쎌":6179,"쎍":6180,"쎎":6181,"쎏":6182,"쎐":6183,"쎑":6184,"쎒":6185,"쎓":6186,"쎔":6187,"쎕":6188,"쎖":6189,"쎗":6190,"쎘":6191,"쎙":6192,"쎚":6193,"쎛":6194,"쎜":6195,"쎝":6196,"쎞":6197,"쎟":6198,"쎠":6199,"쎡":6200,"쎢":6201,"쎣":6202,"쎤":6203,"쎥":6204,"쎦":6205,"쎧":6206,"쎨":6207,"쎩":6208,"쎪":6209,"쎫":6210,"쎬":6211,"쎭":6212,"쎮":6213,"쎯":6214,"쎰":6215,"쎱":6216,"쎲":6217,"쎳":6218,"쎴":6219,"쎵":6220,"쎶":6221,"쎷":6222,"쎸":6223,"쎹":6224,"쎺":6225,"쎻":6226,"쎼":6227,"쎽":6228,"쎾":6229,"쎿":6230,"쏀":6231,"쏁":6232,"쏂":6233,"쏃":6234,"쏄":6235,"쏅":6236,"쏆":6237,"쏇":6238,"쏈":6239,"쏉":6240,"쏊":6241,"쏋":6242,"쏌":6243,"쏍":6244,"쏎":6245,"쏏":6246,"쏐":6247,"쏑":6248,"쏒":6249,"쏓":6250,"쏔":6251,"쏕":6252,"쏖":6253,"쏗":6254,"쏘":6255,"쏙":6256,"쏚":6257,"쏛":6258,"쏜":6259,"쏝":6260,"쏞":6261,"쏟":6262,"쏠":6263,"쏡":6264,"쏢":6265,"쏣":6266,"쏤":6267,"쏥":6268,"쏦":6269,"쏧":6270,"쏨":6271,"쏩":6272,"쏪":6273,"쏫":6274,"쏬":6275,"쏭":6276,"쏮":6277,"쏯":6278,"쏰":6279,"쏱":6280,"쏲":6281,"쏳":6282,"쏴":6283,"쏵":6284,"쏶":6285,"쏷":6286,"쏸":6287,"쏹":6288,"쏺":6289,"쏻":6290,"쏼":6291,"쏽":6292,"쏾":6293,"쏿":6294,"쐀":6295,"쐁":6296,"쐂":6297,"쐃":6298,"쐄":6299,"쐅":6300,"쐆":6301,"쐇":6302,"쐈":6303,"쐉":6304,"쐊":6305,"쐋":6306,"쐌":6307,"쐍":6308,"쐎":6309,"쐏":6310,"쐐":6311,"쐑":6312,"쐒":6313,"쐓":6314,"쐔":6315,"쐕":6316,"쐖":6317,"쐗":6318,"쐘":6319,"쐙":6320,"쐚":6321,"쐛":6322,"쐜":6323,"쐝":6324,"쐞":6325,"쐟":6326,"쐠":6327,"쐡":6328,"쐢":6329,"쐣":6330,"쐤":6331,"쐥":6332,"쐦":6333,"쐧":6334,"쐨":6335,"쐩":6336,"쐪":6337,"쐫":6338,"쐬":6339,"쐭":6340,"쐮":6341,"쐯":6342,"쐰":6343,"쐱":6344,"쐲":6345,"쐳":6346,"쐴":6347,"쐵":6348,"쐶":6349,"쐷":6350,"쐸":6351,"쐹":6352,"쐺":6353,"쐻":6354,"쐼":6355,"쐽":6356,"쐾":6357,"쐿":6358,"쑀":6359,"쑁":6360,"쑂":6361,"쑃":6362,"쑄":6363,"쑅":6364,"쑆":6365,"쑇":6366,"쑈":6367,"쑉":6368,"쑊":6369,"쑋":6370,"쑌":6371,"쑍":6372,"쑎":6373,"쑏":6374,"쑐":6375,"쑑":6376,"쑒":6377,"쑓":6378,"쑔":6379,"쑕":6380,"쑖":6381,"쑗":6382,"쑘":6383,"쑙":6384,"쑚":6385,"쑛":6386,"쑜":6387,"쑝":6388,"쑞":6389,"쑟":6390,"쑠":6391,"쑡":6392,"쑢":6393,"쑣":6394,"쑤":6395,"쑥":6396,"쑦":6397,"쑧":6398,"쑨":6399,"쑩":6400,"쑪":6401,"쑫":6402,"쑬":6403,"쑭":6404,"쑮":6405,"쑯":6406,"쑰":6407,"쑱":6408,"쑲":6409,"쑳":6410,"쑴":6411,"쑵":6412,"쑶":6413,"쑷":6414,"쑸":6415,"쑹":6416,"쑺":6417,"쑻":6418,"쑼":6419,"쑽":6420,"쑾":6421,"쑿":6422,"쒀":6423,"쒁":6424,"쒂":6425,"쒃":6426,"쒄":6427,"쒅":6428,"쒆":6429,"쒇":6430,"쒈":6431,"쒉":6432,"쒊":6433,"쒋":6434,"쒌":6435,"쒍":6436,"쒎":6437,"쒏":6438,"쒐":6439,"쒑":6440,"쒒":6441,"쒓":6442,"쒔":6443,"쒕":6444,"쒖":6445,"쒗":6446,"쒘":6447,"쒙":6448,"쒚":6449,"쒛":6450,"쒜":6451,"쒝":6452,"쒞":6453,"쒟":6454,"쒠":6455,"쒡":6456,"쒢":6457,"쒣":6458,"쒤":6459,"쒥":6460,"쒦":6461,"쒧":6462,"쒨":6463,"쒩":6464,"쒪":6465,"쒫":6466,"쒬":6467,"쒭":6468,"쒮":6469,"쒯":6470,"쒰":6471,"쒱":6472,"쒲":6473,"쒳":6474,"쒴":6475,"쒵":6476,"쒶":6477,"쒷":6478,"쒸":6479,"쒹":6480,"쒺":6481,"쒻":6482,"쒼":6483,"쒽":6484,"쒾":6485,"쒿":6486,"쓀":6487,"쓁":6488,"쓂":6489,"쓃":6490,"쓄":6491,"쓅":6492,"쓆":6493,"쓇":6494,"쓈":6495,"쓉":6496,"쓊":6497,"쓋":6498,"쓌":6499,"쓍":6500,"쓎":6501,"쓏":6502,"쓐":6503,"쓑":6504,"쓒":6505,"쓓":6506,"쓔":6507,"쓕":6508,"쓖":6509,"쓗":6510,"쓘":6511,"쓙":6512,"쓚":6513,"쓛":6514,"쓜":6515,"쓝":6516,"쓞":6517,"쓟":6518,"쓠":6519,"쓡":6520,"쓢":6521,"쓣":6522,"쓤":6523,"쓥":6524,"쓦":6525,"쓧":6526,"쓨":6527,"쓩":6528,"쓪":6529,"쓫":6530,"쓬":6531,"쓭":6532,"쓮":6533,"쓯":6534,"쓰":6535,"쓱":6536,"쓲":6537,"쓳":6538,"쓴":6539,"쓵":6540,"쓶":6541,"쓷":6542,"쓸":6543,"쓹":6544,"쓺":6545,"쓻":6546,"쓼":6547,"쓽":6548,"쓾":6549,"쓿":6550,"씀":6551,"씁":6552,"씂":6553,"씃":6554,"씄":6555,"씅":6556,"씆":6557,"씇":6558,"씈":6559,"씉":6560,"씊":6561,"씋":6562,"씌":6563,"씍":6564,"씎":6565,"씏":6566,"씐":6567,"씑":6568,"씒":6569,"씓":6570,"씔":6571,"씕":6572,"씖":6573,"씗":6574,"씘":6575,"씙":6576,"씚":6577,"씛":6578,"씜":6579,"씝":6580,"씞":6581,"씟":6582,"씠":6583,"씡":6584,"씢":6585,"씣":6586,"씤":6587,"씥":6588,"씦":6589,"씧":6590,"씨":6591,"씩":6592,"씪":6593,"씫":6594,"씬":6595,"씭":6596,"씮":6597,"씯":6598,"씰":6599,"씱":6600,"씲":6601,"씳":6602,"씴":6603,"씵":6604,"씶":6605,"씷":6606,"씸":6607,"씹":6608,"씺":6609,"씻":6610,"씼":6611,"씽":6612,"씾":6613,"씿":6614,"앀":6615,"앁":6616,"앂":6617,"앃":6618,"아":6619,"악":6620,"앆":6621,"앇":6622,"안":6623,"앉":6624,"않":6625,"앋":6626,"알":6627,"앍":6628,"앎":6629,"앏":6630,"앐":6631,"앑":6632,"앒":6633,"앓":6634,"암":6635,"압":6636,"앖":6637,"앗":6638,"았":6639,"앙":6640,"앚":6641,"앛":6642,"앜":6643,"앝":6644,"앞":6645,"앟":6646,"애":6647,"액":6648,"앢":6649,"앣":6650,"앤":6651,"앥":6652,"앦":6653,"앧":6654,"앨":6655,"앩":6656,"앪":6657,"앫":6658,"앬":6659,"앭":6660,"앮":6661,"앯":6662,"앰":6663,"앱":6664,"앲":6665,"앳":6666,"앴":6667,"앵":6668,"앶":6669,"앷":6670,"앸":6671,"앹":6672,"앺":6673,"앻":6674,"야":6675,"약":6676,"앾":6677,"앿":6678,"얀":6679,"얁":6680,"얂":6681,"얃":6682,"얄":6683,"얅":6684,"얆":6685,"얇":6686,"얈":6687,"얉":6688,"얊":6689,"얋":6690,"얌":6691,"얍":6692,"얎":6693,"얏":6694,"얐":6695,"양":6696,"얒":6697,"얓":6698,"얔":6699,"얕":6700,"얖":6701,"얗":6702,"얘":6703,"얙":6704,"얚":6705,"얛":6706,"얜":6707,"얝":6708,"얞":6709,"얟":6710,"얠":6711,"얡":6712,"얢":6713,"얣":6714,"얤":6715,"얥":6716,"얦":6717,"얧":6718,"얨":6719,"얩":6720,"얪":6721,"얫":6722,"얬":6723,"얭":6724,"얮":6725,"얯":6726,"얰":6727,"얱":6728,"얲":6729,"얳":6730,"어":6731,"억":6732,"얶":6733,"얷":6734,"언":6735,"얹":6736,"얺":6737,"얻":6738,"얼":6739,"얽":6740,"얾":6741,"얿":6742,"엀":6743,"엁":6744,"엂":6745,"엃":6746,"엄":6747,"업":6748,"없":6749,"엇":6750,"었":6751,"엉":6752,"엊":6753,"엋":6754,"엌":6755,"엍":6756,"엎":6757,"엏":6758,"에":6759,"엑":6760,"엒":6761,"엓":6762,"엔":6763,"엕":6764,"엖":6765,"엗":6766,"엘":6767,"엙":6768,"엚":6769,"엛":6770,"엜":6771,"엝":6772,"엞":6773,"엟":6774,"엠":6775,"엡":6776,"엢":6777,"엣":6778,"엤":6779,"엥":6780,"엦":6781,"엧":6782,"엨":6783,"엩":6784,"엪":6785,"엫":6786,"여":6787,"역":6788,"엮":6789,"엯":6790,"연":6791,"엱":6792,"엲":6793,"엳":6794,"열":6795,"엵":6796,"엶":6797,"엷":6798,"엸":6799,"엹":6800,"엺":6801,"엻":6802,"염":6803,"엽":6804,"엾":6805,"엿":6806,"였":6807,"영":6808,"옂":6809,"옃":6810,"옄":6811,"옅":6812,"옆":6813,"옇":6814,"예":6815,"옉":6816,"옊":6817,"옋":6818,"옌":6819,"옍":6820,"옎":6821,"옏":6822,"옐":6823,"옑":6824,"옒":6825,"옓":6826,"옔":6827,"옕":6828,"옖":6829,"옗":6830,"옘":6831,"옙":6832,"옚":6833,"옛":6834,"옜":6835,"옝":6836,"옞":6837,"옟":6838,"옠":6839,"옡":6840,"옢":6841,"옣":6842,"오":6843,"옥":6844,"옦":6845,"옧":6846,"온":6847,"옩":6848,"옪":6849,"옫":6850,"올":6851,"옭":6852,"옮":6853,"옯":6854,"옰":6855,"옱":6856,"옲":6857,"옳":6858,"옴":6859,"옵":6860,"옶":6861,"옷":6862,"옸":6863,"옹":6864,"옺":6865,"옻":6866,"옼":6867,"옽":6868,"옾":6869,"옿":6870,"와":6871,"왁":6872,"왂":6873,"왃":6874,"완":6875,"왅":6876,"왆":6877,"왇":6878,"왈":6879,"왉":6880,"왊":6881,"왋":6882,"왌":6883,"왍":6884,"왎":6885,"왏":6886,"왐":6887,"왑":6888,"왒":6889,"왓":6890,"왔":6891,"왕":6892,"왖":6893,"왗":6894,"왘":6895,"왙":6896,"왚":6897,"왛":6898,"왜":6899,"왝":6900,"왞":6901,"왟":6902,"왠":6903,"왡":6904,"왢":6905,"왣":6906,"왤":6907,"왥":6908,"왦":6909,"왧":6910,"왨":6911,"왩":6912,"왪":6913,"왫":6914,"왬":6915,"왭":6916,"왮":6917,"왯":6918,"왰":6919,"왱":6920,"왲":6921,"왳":6922,"왴":6923,"왵":6924,"왶":6925,"왷":6926,"외":6927,"왹":6928,"왺":6929,"왻":6930,"왼":6931,"왽":6932,"왾":6933,"왿":6934,"욀":6935,"욁":6936,"욂":6937,"욃":6938,"욄":6939,"욅":6940,"욆":6941,"욇":6942,"욈":6943,"욉":6944,"욊":6945,"욋":6946,"욌":6947,"욍":6948,"욎":6949,"욏":6950,"욐":6951,"욑":6952,"욒":6953,"욓":6954,"요":6955,"욕":6956,"욖":6957,"욗":6958,"욘":6959,"욙":6960,"욚":6961,"욛":6962,"욜":6963,"욝":6964,"욞":6965,"욟":6966,"욠":6967,"욡":6968,"욢":6969,"욣":6970,"욤":6971,"욥":6972,"욦":6973,"욧":6974,"욨":6975,"용":6976,"욪":6977,"욫":6978,"욬":6979,"욭":6980,"욮":6981,"욯":6982,"우":6983,"욱":6984,"욲":6985,"욳":6986,"운":6987,"욵":6988,"욶":6989,"욷":6990,"울":6991,"욹":6992,"욺":6993,"욻":6994,"욼":6995,"욽":6996,"욾":6997,"욿":6998,"움":6999,"웁":7000,"웂":7001,"웃":7002,"웄":7003,"웅":7004,"웆":7005,"웇":7006,"웈":7007,"웉":7008,"웊":7009,"웋":7010,"워":7011,"웍":7012,"웎":7013,"웏":7014,"원":7015,"웑":7016,"웒":7017,"웓":7018,"월":7019,"웕":7020,"웖":7021,"웗":7022,"웘":7023,"웙":7024,"웚":7025,"웛":7026,"웜":7027,"웝":7028,"웞":7029,"웟":7030,"웠":7031,"웡":7032,"웢":7033,"웣":7034,"웤":7035,"웥":7036,"웦":7037,"웧":7038,"웨":7039,"웩":7040,"웪":7041,"웫":7042,"웬":7043,"웭":7044,"웮":7045,"웯":7046,"웰":7047,"웱":7048,"웲":7049,"웳":7050,"웴":7051,"웵":7052,"웶":7053,"웷":7054,"웸":7055,"웹":7056,"웺":7057,"웻":7058,"웼":7059,"웽":7060,"웾":7061,"웿":7062,"윀":7063,"윁":7064,"윂":7065,"윃":7066,"위":7067,"윅":7068,"윆":7069,"윇":7070,"윈":7071,"윉":7072,"윊":7073,"윋":7074,"윌":7075,"윍":7076,"윎":7077,"윏":7078,"윐":7079,"윑":7080,"윒":7081,"윓":7082,"윔":7083,"윕":7084,"윖":7085,"윗":7086,"윘":7087,"윙":7088,"윚":7089,"윛":7090,"윜":7091,"윝":7092,"윞":7093,"윟":7094,"유":7095,"육":7096,"윢":7097,"윣":7098,"윤":7099,"윥":7100,"윦":7101,"윧":7102,"율":7103,"윩":7104,"윪":7105,"윫":7106,"윬":7107,"윭":7108,"윮":7109,"윯":7110,"윰":7111,"윱":7112,"윲":7113,"윳":7114,"윴":7115,"융":7116,"윶":7117,"윷":7118,"윸":7119,"윹":7120,"윺":7121,"윻":7122,"으":7123,"윽":7124,"윾":7125,"윿":7126,"은":7127,"읁":7128,"읂":7129,"읃":7130,"을":7131,"읅":7132,"읆":7133,"읇":7134,"읈":7135,"읉":7136,"읊":7137,"읋":7138,"음":7139,"읍":7140,"읎":7141,"읏":7142,"읐":7143,"응":7144,"읒":7145,"읓":7146,"읔":7147,"읕":7148,"읖":7149,"읗":7150,"의":7151,"읙":7152,"읚":7153,"읛":7154,"읜":7155,"읝":7156,"읞":7157,"읟":7158,"읠":7159,"읡":7160,"읢":7161,"읣":7162,"읤":7163,"읥":7164,"읦":7165,"읧":7166,"읨":7167,"읩":7168,"읪":7169,"읫":7170,"읬":7171,"읭":7172,"읮":7173,"읯":7174,"읰":7175,"읱":7176,"읲":7177,"읳":7178,"이":7179,"익":7180,"읶":7181,"읷":7182,"인":7183,"읹":7184,"읺":7185,"읻":7186,"일":7187,"읽":7188,"읾":7189,"읿":7190,"잀":7191,"잁":7192,"잂":7193,"잃":7194,"임":7195,"입":7196,"잆":7197,"잇":7198,"있":7199,"잉":7200,"잊":7201,"잋":7202,"잌":7203,"잍":7204,"잎":7205,"잏":7206,"자":7207,"작":7208,"잒":7209,"잓":7210,"잔":7211,"잕":7212,"잖":7213,"잗":7214,"잘":7215,"잙":7216,"잚":7217,"잛":7218,"잜":7219,"잝":7220,"잞":7221,"잟":7222,"잠":7223,"잡":7224,"잢":7225,"잣":7226,"잤":7227,"장":7228,"잦":7229,"잧":7230,"잨":7231,"잩":7232,"잪":7233,"잫":7234,"재":7235,"잭":7236,"잮":7237,"잯":7238,"잰":7239,"잱":7240,"잲":7241,"잳":7242,"잴":7243,"잵":7244,"잶":7245,"잷":7246,"잸":7247,"잹":7248,"잺":7249,"잻":7250,"잼":7251,"잽":7252,"잾":7253,"잿":7254,"쟀":7255,"쟁":7256,"쟂":7257,"쟃":7258,"쟄":7259,"쟅":7260,"쟆":7261,"쟇":7262,"쟈":7263,"쟉":7264,"쟊":7265,"쟋":7266,"쟌":7267,"쟍":7268,"쟎":7269,"쟏":7270,"쟐":7271,"쟑":7272,"쟒":7273,"쟓":7274,"쟔":7275,"쟕":7276,"쟖":7277,"쟗":7278,"쟘":7279,"쟙":7280,"쟚":7281,"쟛":7282,"쟜":7283,"쟝":7284,"쟞":7285,"쟟":7286,"쟠":7287,"쟡":7288,"쟢":7289,"쟣":7290,"쟤":7291,"쟥":7292,"쟦":7293,"쟧":7294,"쟨":7295,"쟩":7296,"쟪":7297,"쟫":7298,"쟬":7299,"쟭":7300,"쟮":7301,"쟯":7302,"쟰":7303,"쟱":7304,"쟲":7305,"쟳":7306,"쟴":7307,"쟵":7308,"쟶":7309,"쟷":7310,"쟸":7311,"쟹":7312,"쟺":7313,"쟻":7314,"쟼":7315,"쟽":7316,"쟾":7317,"쟿":7318,"저":7319,"적":7320,"젂":7321,"젃":7322,"전":7323,"젅":7324,"젆":7325,"젇":7326,"절":7327,"젉":7328,"젊":7329,"젋":7330,"젌":7331,"젍":7332,"젎":7333,"젏":7334,"점":7335,"접":7336,"젒":7337,"젓":7338,"젔":7339,"정":7340,"젖":7341,"젗":7342,"젘":7343,"젙":7344,"젚":7345,"젛":7346,"제":7347,"젝":7348,"젞":7349,"젟":7350,"젠":7351,"젡":7352,"젢":7353,"젣":7354,"젤":7355,"젥":7356,"젦":7357,"젧":7358,"젨":7359,"젩":7360,"젪":7361,"젫":7362,"젬":7363,"젭":7364,"젮":7365,"젯":7366,"젰":7367,"젱":7368,"젲":7369,"젳":7370,"젴":7371,"젵":7372,"젶":7373,"젷":7374,"져":7375,"젹":7376,"젺":7377,"젻":7378,"젼":7379,"젽":7380,"젾":7381,"젿":7382,"졀":7383,"졁":7384,"졂":7385,"졃":7386,"졄":7387,"졅":7388,"졆":7389,"졇":7390,"졈":7391,"졉":7392,"졊":7393,"졋":7394,"졌":7395,"졍":7396,"졎":7397,"졏":7398,"졐":7399,"졑":7400,"졒":7401,"졓":7402,"졔":7403,"졕":7404,"졖":7405,"졗":7406,"졘":7407,"졙":7408,"졚":7409,"졛":7410,"졜":7411,"졝":7412,"졞":7413,"졟":7414,"졠":7415,"졡":7416,"졢":7417,"졣":7418,"졤":7419,"졥":7420,"졦":7421,"졧":7422,"졨":7423,"졩":7424,"졪":7425,"졫":7426,"졬":7427,"졭":7428,"졮":7429,"졯":7430,"조":7431,"족":7432,"졲":7433,"졳":7434,"존":7435,"졵":7436,"졶":7437,"졷":7438,"졸":7439,"졹":7440,"졺":7441,"졻":7442,"졼":7443,"졽":7444,"졾":7445,"졿":7446,"좀":7447,"좁":7448,"좂":7449,"좃":7450,"좄":7451,"종":7452,"좆":7453,"좇":7454,"좈":7455,"좉":7456,"좊":7457,"좋":7458,"좌":7459,"좍":7460,"좎":7461,"좏":7462,"좐":7463,"좑":7464,"좒":7465,"좓":7466,"좔":7467,"좕":7468,"좖":7469,"좗":7470,"좘":7471,"좙":7472,"좚":7473,"좛":7474,"좜":7475,"좝":7476,"좞":7477,"좟":7478,"좠":7479,"좡":7480,"좢":7481,"좣":7482,"좤":7483,"좥":7484,"좦":7485,"좧":7486,"좨":7487,"좩":7488,"좪":7489,"좫":7490,"좬":7491,"좭":7492,"좮":7493,"좯":7494,"좰":7495,"좱":7496,"좲":7497,"좳":7498,"좴":7499,"좵":7500,"좶":7501,"좷":7502,"좸":7503,"좹":7504,"좺":7505,"좻":7506,"좼":7507,"좽":7508,"좾":7509,"좿":7510,"죀":7511,"죁":7512,"죂":7513,"죃":7514,"죄":7515,"죅":7516,"죆":7517,"죇":7518,"죈":7519,"죉":7520,"죊":7521,"죋":7522,"죌":7523,"죍":7524,"죎":7525,"죏":7526,"죐":7527,"죑":7528,"죒":7529,"죓":7530,"죔":7531,"죕":7532,"죖":7533,"죗":7534,"죘":7535,"죙":7536,"죚":7537,"죛":7538,"죜":7539,"죝":7540,"죞":7541,"죟":7542,"죠":7543,"죡":7544,"죢":7545,"죣":7546,"죤":7547,"죥":7548,"죦":7549,"죧":7550,"죨":7551,"죩":7552,"죪":7553,"죫":7554,"죬":7555,"죭":7556,"죮":7557,"죯":7558,"죰":7559,"죱":7560,"죲":7561,"죳":7562,"죴":7563,"죵":7564,"죶":7565,"죷":7566,"죸":7567,"죹":7568,"죺":7569,"죻":7570,"주":7571,"죽":7572,"죾":7573,"죿":7574,"준":7575,"줁":7576,"줂":7577,"줃":7578,"줄":7579,"줅":7580,"줆":7581,"줇":7582,"줈":7583,"줉":7584,"줊":7585,"줋":7586,"줌":7587,"줍":7588,"줎":7589,"줏":7590,"줐":7591,"중":7592,"줒":7593,"줓":7594,"줔":7595,"줕":7596,"줖":7597,"줗":7598,"줘":7599,"줙":7600,"줚":7601,"줛":7602,"줜":7603,"줝":7604,"줞":7605,"줟":7606,"줠":7607,"줡":7608,"줢":7609,"줣":7610,"줤":7611,"줥":7612,"줦":7613,"줧":7614,"줨":7615,"줩":7616,"줪":7617,"줫":7618,"줬":7619,"줭":7620,"줮":7621,"줯":7622,"줰":7623,"줱":7624,"줲":7625,"줳":7626,"줴":7627,"줵":7628,"줶":7629,"줷":7630,"줸":7631,"줹":7632,"줺":7633,"줻":7634,"줼":7635,"줽":7636,"줾":7637,"줿":7638,"쥀":7639,"쥁":7640,"쥂":7641,"쥃":7642,"쥄":7643,"쥅":7644,"쥆":7645,"쥇":7646,"쥈":7647,"쥉":7648,"쥊":7649,"쥋":7650,"쥌":7651,"쥍":7652,"쥎":7653,"쥏":7654,"쥐":7655,"쥑":7656,"쥒":7657,"쥓":7658,"쥔":7659,"쥕":7660,"쥖":7661,"쥗":7662,"쥘":7663,"쥙":7664,"쥚":7665,"쥛":7666,"쥜":7667,"쥝":7668,"쥞":7669,"쥟":7670,"쥠":7671,"쥡":7672,"쥢":7673,"쥣":7674,"쥤":7675,"쥥":7676,"쥦":7677,"쥧":7678,"쥨":7679,"쥩":7680,"쥪":7681,"쥫":7682,"쥬":7683,"쥭":7684,"쥮":7685,"쥯":7686,"쥰":7687,"쥱":7688,"쥲":7689,"쥳":7690,"쥴":7691,"쥵":7692,"쥶":7693,"쥷":7694,"쥸":7695,"쥹":7696,"쥺":7697,"쥻":7698,"쥼":7699,"쥽":7700,"쥾":7701,"쥿":7702,"즀":7703,"즁":7704,"즂":7705,"즃":7706,"즄":7707,"즅":7708,"즆":7709,"즇":7710,"즈":7711,"즉":7712,"즊":7713,"즋":7714,"즌":7715,"즍":7716,"즎":7717,"즏":7718,"즐":7719,"즑":7720,"즒":7721,"즓":7722,"즔":7723,"즕":7724,"즖":7725,"즗":7726,"즘":7727,"즙":7728,"즚":7729,"즛":7730,"즜":7731,"증":7732,"즞":7733,"즟":7734,"즠":7735,"즡":7736,"즢":7737,"즣":7738,"즤":7739,"즥":7740,"즦":7741,"즧":7742,"즨":7743,"즩":7744,"즪":7745,"즫":7746,"즬":7747,"즭":7748,"즮":7749,"즯":7750,"즰":7751,"즱":7752,"즲":7753,"즳":7754,"즴":7755,"즵":7756,"즶":7757,"즷":7758,"즸":7759,"즹":7760,"즺":7761,"즻":7762,"즼":7763,"즽":7764,"즾":7765,"즿":7766,"지":7767,"직":7768,"짂":7769,"짃":7770,"진":7771,"짅":7772,"짆":7773,"짇":7774,"질":7775,"짉":7776,"짊":7777,"짋":7778,"짌":7779,"짍":7780,"짎":7781,"짏":7782,"짐":7783,"집":7784,"짒":7785,"짓":7786,"짔":7787,"징":7788,"짖":7789,"짗":7790,"짘":7791,"짙":7792,"짚":7793,"짛":7794,"짜":7795,"짝":7796,"짞":7797,"짟":7798,"짠":7799,"짡":7800,"짢":7801,"짣":7802,"짤":7803,"짥":7804,"짦":7805,"짧":7806,"짨":7807,"짩":7808,"짪":7809,"짫":7810,"짬":7811,"짭":7812,"짮":7813,"짯":7814,"짰":7815,"짱":7816,"짲":7817,"짳":7818,"짴":7819,"짵":7820,"짶":7821,"짷":7822,"째":7823,"짹":7824,"짺":7825,"짻":7826,"짼":7827,"짽":7828,"짾":7829,"짿":7830,"쨀":7831,"쨁":7832,"쨂":7833,"쨃":7834,"쨄":7835,"쨅":7836,"쨆":7837,"쨇":7838,"쨈":7839,"쨉":7840,"쨊":7841,"쨋":7842,"쨌":7843,"쨍":7844,"쨎":7845,"쨏":7846,"쨐":7847,"쨑":7848,"쨒":7849,"쨓":7850,"쨔":7851,"쨕":7852,"쨖":7853,"쨗":7854,"쨘":7855,"쨙":7856,"쨚":7857,"쨛":7858,"쨜":7859,"쨝":7860,"쨞":7861,"쨟":7862,"쨠":7863,"쨡":7864,"쨢":7865,"쨣":7866,"쨤":7867,"쨥":7868,"쨦":7869,"쨧":7870,"쨨":7871,"쨩":7872,"쨪":7873,"쨫":7874,"쨬":7875,"쨭":7876,"쨮":7877,"쨯":7878,"쨰":7879,"쨱":7880,"쨲":7881,"쨳":7882,"쨴":7883,"쨵":7884,"쨶":7885,"쨷":7886,"쨸":7887,"쨹":7888,"쨺":7889,"쨻":7890,"쨼":7891,"쨽":7892,"쨾":7893,"쨿":7894,"쩀":7895,"쩁":7896,"쩂":7897,"쩃":7898,"쩄":7899,"쩅":7900,"쩆":7901,"쩇":7902,"쩈":7903,"쩉":7904,"쩊":7905,"쩋":7906,"쩌":7907,"쩍":7908,"쩎":7909,"쩏":7910,"쩐":7911,"쩑":7912,"쩒":7913,"쩓":7914,"쩔":7915,"쩕":7916,"쩖":7917,"쩗":7918,"쩘":7919,"쩙":7920,"쩚":7921,"쩛":7922,"쩜":7923,"쩝":7924,"쩞":7925,"쩟":7926,"쩠":7927,"쩡":7928,"쩢":7929,"쩣":7930,"쩤":7931,"쩥":7932,"쩦":7933,"쩧":7934,"쩨":7935,"쩩":7936,"쩪":7937,"쩫":7938,"쩬":7939,"쩭":7940,"쩮":7941,"쩯":7942,"쩰":7943,"쩱":7944,"쩲":7945,"쩳":7946,"쩴":7947,"쩵":7948,"쩶":7949,"쩷":7950,"쩸":7951,"쩹":7952,"쩺":7953,"쩻":7954,"쩼":7955,"쩽":7956,"쩾":7957,"쩿":7958,"쪀":7959,"쪁":7960,"쪂":7961,"쪃":7962,"쪄":7963,"쪅":7964,"쪆":7965,"쪇":7966,"쪈":7967,"쪉":7968,"쪊":7969,"쪋":7970,"쪌":7971,"쪍":7972,"쪎":7973,"쪏":7974,"쪐":7975,"쪑":7976,"쪒":7977,"쪓":7978,"쪔":7979,"쪕":7980,"쪖":7981,"쪗":7982,"쪘":7983,"쪙":7984,"쪚":7985,"쪛":7986,"쪜":7987,"쪝":7988,"쪞":7989,"쪟":7990,"쪠":7991,"쪡":7992,"쪢":7993,"쪣":7994,"쪤":7995,"쪥":7996,"쪦":7997,"쪧":7998,"쪨":7999,"쪩":8000,"쪪":8001,"쪫":8002,"쪬":8003,"쪭":8004,"쪮":8005,"쪯":8006,"쪰":8007,"쪱":8008,"쪲":8009,"쪳":8010,"쪴":8011,"쪵":8012,"쪶":8013,"쪷":8014,"쪸":8015,"쪹":8016,"쪺":8017,"쪻":8018,"쪼":8019,"쪽":8020,"쪾":8021,"쪿":8022,"쫀":8023,"쫁":8024,"쫂":8025,"쫃":8026,"쫄":8027,"쫅":8028,"쫆":8029,"쫇":8030,"쫈":8031,"쫉":8032,"쫊":8033,"쫋":8034,"쫌":8035,"쫍":8036,"쫎":8037,"쫏":8038,"쫐":8039,"쫑":8040,"쫒":8041,"쫓":8042,"쫔":8043,"쫕":8044,"쫖":8045,"쫗":8046,"쫘":8047,"쫙":8048,"쫚":8049,"쫛":8050,"쫜":8051,"쫝":8052,"쫞":8053,"쫟":8054,"쫠":8055,"쫡":8056,"쫢":8057,"쫣":8058,"쫤":8059,"쫥":8060,"쫦":8061,"쫧":8062,"쫨":8063,"쫩":8064,"쫪":8065,"쫫":8066,"쫬":8067,"쫭":8068,"쫮":8069,"쫯":8070,"쫰":8071,"쫱":8072,"쫲":8073,"쫳":8074,"쫴":8075,"쫵":8076,"쫶":8077,"쫷":8078,"쫸":8079,"쫹":8080,"쫺":8081,"쫻":8082,"쫼":8083,"쫽":8084,"쫾":8085,"쫿":8086,"쬀":8087,"쬁":8088,"쬂":8089,"쬃":8090,"쬄":8091,"쬅":8092,"쬆":8093,"쬇":8094,"쬈":8095,"쬉":8096,"쬊":8097,"쬋":8098,"쬌":8099,"쬍":8100,"쬎":8101,"쬏":8102,"쬐":8103,"쬑":8104,"쬒":8105,"쬓":8106,"쬔":8107,"쬕":8108,"쬖":8109,"쬗":8110,"쬘":8111,"쬙":8112,"쬚":8113,"쬛":8114,"쬜":8115,"쬝":8116,"쬞":8117,"쬟":8118,"쬠":8119,"쬡":8120,"쬢":8121,"쬣":8122,"쬤":8123,"쬥":8124,"쬦":8125,"쬧":8126,"쬨":8127,"쬩":8128,"쬪":8129,"쬫":8130,"쬬":8131,"쬭":8132,"쬮":8133,"쬯":8134,"쬰":8135,"쬱":8136,"쬲":8137,"쬳":8138,"쬴":8139,"쬵":8140,"쬶":8141,"쬷":8142,"쬸":8143,"쬹":8144,"쬺":8145,"쬻":8146,"쬼":8147,"쬽":8148,"쬾":8149,"쬿":8150,"쭀":8151,"쭁":8152,"쭂":8153,"쭃":8154,"쭄":8155,"쭅":8156,"쭆":8157,"쭇":8158,"쭈":8159,"쭉":8160,"쭊":8161,"쭋":8162,"쭌":8163,"쭍":8164,"쭎":8165,"쭏":8166,"쭐":8167,"쭑":8168,"쭒":8169,"쭓":8170,"쭔":8171,"쭕":8172,"쭖":8173,"쭗":8174,"쭘":8175,"쭙":8176,"쭚":8177,"쭛":8178,"쭜":8179,"쭝":8180,"쭞":8181,"쭟":8182,"쭠":8183,"쭡":8184,"쭢":8185,"쭣":8186,"쭤":8187,"쭥":8188,"쭦":8189,"쭧":8190,"쭨":8191,"쭩":8192,"쭪":8193,"쭫":8194,"쭬":8195,"쭭":8196,"쭮":8197,"쭯":8198,"쭰":8199,"쭱":8200,"쭲":8201,"쭳":8202,"쭴":8203,"쭵":8204,"쭶":8205,"쭷":8206,"쭸":8207,"쭹":8208,"쭺":8209,"쭻":8210,"쭼":8211,"쭽":8212,"쭾":8213,"쭿":8214,"쮀":8215,"쮁":8216,"쮂":8217,"쮃":8218,"쮄":8219,"쮅":8220,"쮆":8221,"쮇":8222,"쮈":8223,"쮉":8224,"쮊":8225,"쮋":8226,"쮌":8227,"쮍":8228,"쮎":8229,"쮏":8230,"쮐":8231,"쮑":8232,"쮒":8233,"쮓":8234,"쮔":8235,"쮕":8236,"쮖":8237,"쮗":8238,"쮘":8239,"쮙":8240,"쮚":8241,"쮛":8242,"쮜":8243,"쮝":8244,"쮞":8245,"쮟":8246,"쮠":8247,"쮡":8248,"쮢":8249,"쮣":8250,"쮤":8251,"쮥":8252,"쮦":8253,"쮧":8254,"쮨":8255,"쮩":8256,"쮪":8257,"쮫":8258,"쮬":8259,"쮭":8260,"쮮":8261,"쮯":8262,"쮰":8263,"쮱":8264,"쮲":8265,"쮳":8266,"쮴":8267,"쮵":8268,"쮶":8269,"쮷":8270,"쮸":8271,"쮹":8272,"쮺":8273,"쮻":8274,"쮼":8275,"쮽":8276,"쮾":8277,"쮿":8278,"쯀":8279,"쯁":8280,"쯂":8281,"쯃":8282,"쯄":8283,"쯅":8284,"쯆":8285,"쯇":8286,"쯈":8287,"쯉":8288,"쯊":8289,"쯋":8290,"쯌":8291,"쯍":8292,"쯎":8293,"쯏":8294,"쯐":8295,"쯑":8296,"쯒":8297,"쯓":8298,"쯔":8299,"쯕":8300,"쯖":8301,"쯗":8302,"쯘":8303,"쯙":8304,"쯚":8305,"쯛":8306,"쯜":8307,"쯝":8308,"쯞":8309,"쯟":8310,"쯠":8311,"쯡":8312,"쯢":8313,"쯣":8314,"쯤":8315,"쯥":8316,"쯦":8317,"쯧":8318,"쯨":8319,"쯩":8320,"쯪":8321,"쯫":8322,"쯬":8323,"쯭":8324,"쯮":8325,"쯯":8326,"쯰":8327,"쯱":8328,"쯲":8329,"쯳":8330,"쯴":8331,"쯵":8332,"쯶":8333,"쯷":8334,"쯸":8335,"쯹":8336,"쯺":8337,"쯻":8338,"쯼":8339,"쯽":8340,"쯾":8341,"쯿":8342,"찀":8343,"찁":8344,"찂":8345,"찃":8346,"찄":8347,"찅":8348,"찆":8349,"찇":8350,"찈":8351,"찉":8352,"찊":8353,"찋":8354,"찌":8355,"찍":8356,"찎":8357,"찏":8358,"찐":8359,"찑":8360,"찒":8361,"찓":8362,"찔":8363,"찕":8364,"찖":8365,"찗":8366,"찘":8367,"찙":8368,"찚":8369,"찛":8370,"찜":8371,"찝":8372,"찞":8373,"찟":8374,"찠":8375,"찡":8376,"찢":8377,"찣":8378,"찤":8379,"찥":8380,"찦":8381,"찧":8382,"차":8383,"착":8384,"찪":8385,"찫":8386,"찬":8387,"찭":8388,"찮":8389,"찯":8390,"찰":8391,"찱":8392,"찲":8393,"찳":8394,"찴":8395,"찵":8396,"찶":8397,"찷":8398,"참":8399,"찹":8400,"찺":8401,"찻":8402,"찼":8403,"창":8404,"찾":8405,"찿":8406,"챀":8407,"챁":8408,"챂":8409,"챃":8410,"채":8411,"책":8412,"챆":8413,"챇":8414,"챈":8415,"챉":8416,"챊":8417,"챋":8418,"챌":8419,"챍":8420,"챎":8421,"챏":8422,"챐":8423,"챑":8424,"챒":8425,"챓":8426,"챔":8427,"챕":8428,"챖":8429,"챗":8430,"챘":8431,"챙":8432,"챚":8433,"챛":8434,"챜":8435,"챝":8436,"챞":8437,"챟":8438,"챠":8439,"챡":8440,"챢":8441,"챣":8442,"챤":8443,"챥":8444,"챦":8445,"챧":8446,"챨":8447,"챩":8448,"챪":8449,"챫":8450,"챬":8451,"챭":8452,"챮":8453,"챯":8454,"챰":8455,"챱":8456,"챲":8457,"챳":8458,"챴":8459,"챵":8460,"챶":8461,"챷":8462,"챸":8463,"챹":8464,"챺":8465,"챻":8466,"챼":8467,"챽":8468,"챾":8469,"챿":8470,"첀":8471,"첁":8472,"첂":8473,"첃":8474,"첄":8475,"첅":8476,"첆":8477,"첇":8478,"첈":8479,"첉":8480,"첊":8481,"첋":8482,"첌":8483,"첍":8484,"첎":8485,"첏":8486,"첐":8487,"첑":8488,"첒":8489,"첓":8490,"첔":8491,"첕":8492,"첖":8493,"첗":8494,"처":8495,"척":8496,"첚":8497,"첛":8498,"천":8499,"첝":8500,"첞":8501,"첟":8502,"철":8503,"첡":8504,"첢":8505,"첣":8506,"첤":8507,"첥":8508,"첦":8509,"첧":8510,"첨":8511,"첩":8512,"첪":8513,"첫":8514,"첬":8515,"청":8516,"첮":8517,"첯":8518,"첰":8519,"첱":8520,"첲":8521,"첳":8522,"체":8523,"첵":8524,"첶":8525,"첷":8526,"첸":8527,"첹":8528,"첺":8529,"첻":8530,"첼":8531,"첽":8532,"첾":8533,"첿":8534,"쳀":8535,"쳁":8536,"쳂":8537,"쳃":8538,"쳄":8539,"쳅":8540,"쳆":8541,"쳇":8542,"쳈":8543,"쳉":8544,"쳊":8545,"쳋":8546,"쳌":8547,"쳍":8548,"쳎":8549,"쳏":8550,"쳐":8551,"쳑":8552,"쳒":8553,"쳓":8554,"쳔":8555,"쳕":8556,"쳖":8557,"쳗":8558,"쳘":8559,"쳙":8560,"쳚":8561,"쳛":8562,"쳜":8563,"쳝":8564,"쳞":8565,"쳟":8566,"쳠":8567,"쳡":8568,"쳢":8569,"쳣":8570,"쳤":8571,"쳥":8572,"쳦":8573,"쳧":8574,"쳨":8575,"쳩":8576,"쳪":8577,"쳫":8578,"쳬":8579,"쳭":8580,"쳮":8581,"쳯":8582,"쳰":8583,"쳱":8584,"쳲":8585,"쳳":8586,"쳴":8587,"쳵":8588,"쳶":8589,"쳷":8590,"쳸":8591,"쳹":8592,"쳺":8593,"쳻":8594,"쳼":8595,"쳽":8596,"쳾":8597,"쳿":8598,"촀":8599,"촁":8600,"촂":8601,"촃":8602,"촄":8603,"촅":8604,"촆":8605,"촇":8606,"초":8607,"촉":8608,"촊":8609,"촋":8610,"촌":8611,"촍":8612,"촎":8613,"촏":8614,"촐":8615,"촑":8616,"촒":8617,"촓":8618,"촔":8619,"촕":8620,"촖":8621,"촗":8622,"촘":8623,"촙":8624,"촚":8625,"촛":8626,"촜":8627,"총":8628,"촞":8629,"촟":8630,"촠":8631,"촡":8632,"촢":8633,"촣":8634,"촤":8635,"촥":8636,"촦":8637,"촧":8638,"촨":8639,"촩":8640,"촪":8641,"촫":8642,"촬":8643,"촭":8644,"촮":8645,"촯":8646,"촰":8647,"촱":8648,"촲":8649,"촳":8650,"촴":8651,"촵":8652,"촶":8653,"촷":8654,"촸":8655,"촹":8656,"촺":8657,"촻":8658,"촼":8659,"촽":8660,"촾":8661,"촿":8662,"쵀":8663,"쵁":8664,"쵂":8665,"쵃":8666,"쵄":8667,"쵅":8668,"쵆":8669,"쵇":8670,"쵈":8671,"쵉":8672,"쵊":8673,"쵋":8674,"쵌":8675,"쵍":8676,"쵎":8677,"쵏":8678,"쵐":8679,"쵑":8680,"쵒":8681,"쵓":8682,"쵔":8683,"쵕":8684,"쵖":8685,"쵗":8686,"쵘":8687,"쵙":8688,"쵚":8689,"쵛":8690,"최":8691,"쵝":8692,"쵞":8693,"쵟":8694,"쵠":8695,"쵡":8696,"쵢":8697,"쵣":8698,"쵤":8699,"쵥":8700,"쵦":8701,"쵧":8702,"쵨":8703,"쵩":8704,"쵪":8705,"쵫":8706,"쵬":8707,"쵭":8708,"쵮":8709,"쵯":8710,"쵰":8711,"쵱":8712,"쵲":8713,"쵳":8714,"쵴":8715,"쵵":8716,"쵶":8717,"쵷":8718,"쵸":8719,"쵹":8720,"쵺":8721,"쵻":8722,"쵼":8723,"쵽":8724,"쵾":8725,"쵿":8726,"춀":8727,"춁":8728,"춂":8729,"춃":8730,"춄":8731,"춅":8732,"춆":8733,"춇":8734,"춈":8735,"춉":8736,"춊":8737,"춋":8738,"춌":8739,"춍":8740,"춎":8741,"춏":8742,"춐":8743,"춑":8744,"춒":8745,"춓":8746,"추":8747,"축":8748,"춖":8749,"춗":8750,"춘":8751,"춙":8752,"춚":8753,"춛":8754,"출":8755,"춝":8756,"춞":8757,"춟":8758,"춠":8759,"춡":8760,"춢":8761,"춣":8762,"춤":8763,"춥":8764,"춦":8765,"춧":8766,"춨":8767,"충":8768,"춪":8769,"춫":8770,"춬":8771,"춭":8772,"춮":8773,"춯":8774,"춰":8775,"춱":8776,"춲":8777,"춳":8778,"춴":8779,"춵":8780,"춶":8781,"춷":8782,"춸":8783,"춹":8784,"춺":8785,"춻":8786,"춼":8787,"춽":8788,"춾":8789,"춿":8790,"췀":8791,"췁":8792,"췂":8793,"췃":8794,"췄":8795,"췅":8796,"췆":8797,"췇":8798,"췈":8799,"췉":8800,"췊":8801,"췋":8802,"췌":8803,"췍":8804,"췎":8805,"췏":8806,"췐":8807,"췑":8808,"췒":8809,"췓":8810,"췔":8811,"췕":8812,"췖":8813,"췗":8814,"췘":8815,"췙":8816,"췚":8817,"췛":8818,"췜":8819,"췝":8820,"췞":8821,"췟":8822,"췠":8823,"췡":8824,"췢":8825,"췣":8826,"췤":8827,"췥":8828,"췦":8829,"췧":8830,"취":8831,"췩":8832,"췪":8833,"췫":8834,"췬":8835,"췭":8836,"췮":8837,"췯":8838,"췰":8839,"췱":8840,"췲":8841,"췳":8842,"췴":8843,"췵":8844,"췶":8845,"췷":8846,"췸":8847,"췹":8848,"췺":8849,"췻":8850,"췼":8851,"췽":8852,"췾":8853,"췿":8854,"츀":8855,"츁":8856,"츂":8857,"츃":8858,"츄":8859,"츅":8860,"츆":8861,"츇":8862,"츈":8863,"츉":8864,"츊":8865,"츋":8866,"츌":8867,"츍":8868,"츎":8869,"츏":8870,"츐":8871,"츑":8872,"츒":8873,"츓":8874,"츔":8875,"츕":8876,"츖":8877,"츗":8878,"츘":8879,"츙":8880,"츚":8881,"츛":8882,"츜":8883,"츝":8884,"츞":8885,"츟":8886,"츠":8887,"측":8888,"츢":8889,"츣":8890,"츤":8891,"츥":8892,"츦":8893,"츧":8894,"츨":8895,"츩":8896,"츪":8897,"츫":8898,"츬":8899,"츭":8900,"츮":8901,"츯":8902,"츰":8903,"츱":8904,"츲":8905,"츳":8906,"츴":8907,"층":8908,"츶":8909,"츷":8910,"츸":8911,"츹":8912,"츺":8913,"츻":8914,"츼":8915,"츽":8916,"츾":8917,"츿":8918,"칀":8919,"칁":8920,"칂":8921,"칃":8922,"칄":8923,"칅":8924,"칆":8925,"칇":8926,"칈":8927,"칉":8928,"칊":8929,"칋":8930,"칌":8931,"칍":8932,"칎":8933,"칏":8934,"칐":8935,"칑":8936,"칒":8937,"칓":8938,"칔":8939,"칕":8940,"칖":8941,"칗":8942,"치":8943,"칙":8944,"칚":8945,"칛":8946,"친":8947,"칝":8948,"칞":8949,"칟":8950,"칠":8951,"칡":8952,"칢":8953,"칣":8954,"칤":8955,"칥":8956,"칦":8957,"칧":8958,"침":8959,"칩":8960,"칪":8961,"칫":8962,"칬":8963,"칭":8964,"칮":8965,"칯":8966,"칰":8967,"칱":8968,"칲":8969,"칳":8970,"카":8971,"칵":8972,"칶":8973,"칷":8974,"칸":8975,"칹":8976,"칺":8977,"칻":8978,"칼":8979,"칽":8980,"칾":8981,"칿":8982,"캀":8983,"캁":8984,"캂":8985,"캃":8986,"캄":8987,"캅":8988,"캆":8989,"캇":8990,"캈":8991,"캉":8992,"캊":8993,"캋":8994,"캌":8995,"캍":8996,"캎":8997,"캏":8998,"캐":8999,"캑":9000,"캒":9001,"캓":9002,"캔":9003,"캕":9004,"캖":9005,"캗":9006,"캘":9007,"캙":9008,"캚":9009,"캛":9010,"캜":9011,"캝":9012,"캞":9013,"캟":9014,"캠":9015,"캡":9016,"캢":9017,"캣":9018,"캤":9019,"캥":9020,"캦":9021,"캧":9022,"캨":9023,"캩":9024,"캪":9025,"캫":9026,"캬":9027,"캭":9028,"캮":9029,"캯":9030,"캰":9031,"캱":9032,"캲":9033,"캳":9034,"캴":9035,"캵":9036,"캶":9037,"캷":9038,"캸":9039,"캹":9040,"캺":9041,"캻":9042,"캼":9043,"캽":9044,"캾":9045,"캿":9046,"컀":9047,"컁":9048,"컂":9049,"컃":9050,"컄":9051,"컅":9052,"컆":9053,"컇":9054,"컈":9055,"컉":9056,"컊":9057,"컋":9058,"컌":9059,"컍":9060,"컎":9061,"컏":9062,"컐":9063,"컑":9064,"컒":9065,"컓":9066,"컔":9067,"컕":9068,"컖":9069,"컗":9070,"컘":9071,"컙":9072,"컚":9073,"컛":9074,"컜":9075,"컝":9076,"컞":9077,"컟":9078,"컠":9079,"컡":9080,"컢":9081,"컣":9082,"커":9083,"컥":9084,"컦":9085,"컧":9086,"컨":9087,"컩":9088,"컪":9089,"컫":9090,"컬":9091,"컭":9092,"컮":9093,"컯":9094,"컰":9095,"컱":9096,"컲":9097,"컳":9098,"컴":9099,"컵":9100,"컶":9101,"컷":9102,"컸":9103,"컹":9104,"컺":9105,"컻":9106,"컼":9107,"컽":9108,"컾":9109,"컿":9110,"케":9111,"켁":9112,"켂":9113,"켃":9114,"켄":9115,"켅":9116,"켆":9117,"켇":9118,"켈":9119,"켉":9120,"켊":9121,"켋":9122,"켌":9123,"켍":9124,"켎":9125,"켏":9126,"켐":9127,"켑":9128,"켒":9129,"켓":9130,"켔":9131,"켕":9132,"켖":9133,"켗":9134,"켘":9135,"켙":9136,"켚":9137,"켛":9138,"켜":9139,"켝":9140,"켞":9141,"켟":9142,"켠":9143,"켡":9144,"켢":9145,"켣":9146,"켤":9147,"켥":9148,"켦":9149,"켧":9150,"켨":9151,"켩":9152,"켪":9153,"켫":9154,"켬":9155,"켭":9156,"켮":9157,"켯":9158,"켰":9159,"켱":9160,"켲":9161,"켳":9162,"켴":9163,"켵":9164,"켶":9165,"켷":9166,"켸":9167,"켹":9168,"켺":9169,"켻":9170,"켼":9171,"켽":9172,"켾":9173,"켿":9174,"콀":9175,"콁":9176,"콂":9177,"콃":9178,"콄":9179,"콅":9180,"콆":9181,"콇":9182,"콈":9183,"콉":9184,"콊":9185,"콋":9186,"콌":9187,"콍":9188,"콎":9189,"콏":9190,"콐":9191,"콑":9192,"콒":9193,"콓":9194,"코":9195,"콕":9196,"콖":9197,"콗":9198,"콘":9199,"콙":9200,"콚":9201,"콛":9202,"콜":9203,"콝":9204,"콞":9205,"콟":9206,"콠":9207,"콡":9208,"콢":9209,"콣":9210,"콤":9211,"콥":9212,"콦":9213,"콧":9214,"콨":9215,"콩":9216,"콪":9217,"콫":9218,"콬":9219,"콭":9220,"콮":9221,"콯":9222,"콰":9223,"콱":9224,"콲":9225,"콳":9226,"콴":9227,"콵":9228,"콶":9229,"콷":9230,"콸":9231,"콹":9232,"콺":9233,"콻":9234,"콼":9235,"콽":9236,"콾":9237,"콿":9238,"쾀":9239,"쾁":9240,"쾂":9241,"쾃":9242,"쾄":9243,"쾅":9244,"쾆":9245,"쾇":9246,"쾈":9247,"쾉":9248,"쾊":9249,"쾋":9250,"쾌":9251,"쾍":9252,"쾎":9253,"쾏":9254,"쾐":9255,"쾑":9256,"쾒":9257,"쾓":9258,"쾔":9259,"쾕":9260,"쾖":9261,"쾗":9262,"쾘":9263,"쾙":9264,"쾚":9265,"쾛":9266,"쾜":9267,"쾝":9268,"쾞":9269,"쾟":9270,"쾠":9271,"쾡":9272,"쾢":9273,"쾣":9274,"쾤":9275,"쾥":9276,"쾦":9277,"쾧":9278,"쾨":9279,"쾩":9280,"쾪":9281,"쾫":9282,"쾬":9283,"쾭":9284,"쾮":9285,"쾯":9286,"쾰":9287,"쾱":9288,"쾲":9289,"쾳":9290,"쾴":9291,"쾵":9292,"쾶":9293,"쾷":9294,"쾸":9295,"쾹":9296,"쾺":9297,"쾻":9298,"쾼":9299,"쾽":9300,"쾾":9301,"쾿":9302,"쿀":9303,"쿁":9304,"쿂":9305,"쿃":9306,"쿄":9307,"쿅":9308,"쿆":9309,"쿇":9310,"쿈":9311,"쿉":9312,"쿊":9313,"쿋":9314,"쿌":9315,"쿍":9316,"쿎":9317,"쿏":9318,"쿐":9319,"쿑":9320,"쿒":9321,"쿓":9322,"쿔":9323,"쿕":9324,"쿖":9325,"쿗":9326,"쿘":9327,"쿙":9328,"쿚":9329,"쿛":9330,"쿜":9331,"쿝":9332,"쿞":9333,"쿟":9334,"쿠":9335,"쿡":9336,"쿢":9337,"쿣":9338,"쿤":9339,"쿥":9340,"쿦":9341,"쿧":9342,"쿨":9343,"쿩":9344,"쿪":9345,"쿫":9346,"쿬":9347,"쿭":9348,"쿮":9349,"쿯":9350,"쿰":9351,"쿱":9352,"쿲":9353,"쿳":9354,"쿴":9355,"쿵":9356,"쿶":9357,"쿷":9358,"쿸":9359,"쿹":9360,"쿺":9361,"쿻":9362,"쿼":9363,"쿽":9364,"쿾":9365,"쿿":9366,"퀀":9367,"퀁":9368,"퀂":9369,"퀃":9370,"퀄":9371,"퀅":9372,"퀆":9373,"퀇":9374,"퀈":9375,"퀉":9376,"퀊":9377,"퀋":9378,"퀌":9379,"퀍":9380,"퀎":9381,"퀏":9382,"퀐":9383,"퀑":9384,"퀒":9385,"퀓":9386,"퀔":9387,"퀕":9388,"퀖":9389,"퀗":9390,"퀘":9391,"퀙":9392,"퀚":9393,"퀛":9394,"퀜":9395,"퀝":9396,"퀞":9397,"퀟":9398,"퀠":9399,"퀡":9400,"퀢":9401,"퀣":9402,"퀤":9403,"퀥":9404,"퀦":9405,"퀧":9406,"퀨":9407,"퀩":9408,"퀪":9409,"퀫":9410,"퀬":9411,"퀭":9412,"퀮":9413,"퀯":9414,"퀰":9415,"퀱":9416,"퀲":9417,"퀳":9418,"퀴":9419,"퀵":9420,"퀶":9421,"퀷":9422,"퀸":9423,"퀹":9424,"퀺":9425,"퀻":9426,"퀼":9427,"퀽":9428,"퀾":9429,"퀿":9430,"큀":9431,"큁":9432,"큂":9433,"큃":9434,"큄":9435,"큅":9436,"큆":9437,"큇":9438,"큈":9439,"큉":9440,"큊":9441,"큋":9442,"큌":9443,"큍":9444,"큎":9445,"큏":9446,"큐":9447,"큑":9448,"큒":9449,"큓":9450,"큔":9451,"큕":9452,"큖":9453,"큗":9454,"큘":9455,"큙":9456,"큚":9457,"큛":9458,"큜":9459,"큝":9460,"큞":9461,"큟":9462,"큠":9463,"큡":9464,"큢":9465,"큣":9466,"큤":9467,"큥":9468,"큦":9469,"큧":9470,"큨":9471,"큩":9472,"큪":9473,"큫":9474,"크":9475,"큭":9476,"큮":9477,"큯":9478,"큰":9479,"큱":9480,"큲":9481,"큳":9482,"클":9483,"큵":9484,"큶":9485,"큷":9486,"큸":9487,"큹":9488,"큺":9489,"큻":9490,"큼":9491,"큽":9492,"큾":9493,"큿":9494,"킀":9495,"킁":9496,"킂":9497,"킃":9498,"킄":9499,"킅":9500,"킆":9501,"킇":9502,"킈":9503,"킉":9504,"킊":9505,"킋":9506,"킌":9507,"킍":9508,"킎":9509,"킏":9510,"킐":9511,"킑":9512,"킒":9513,"킓":9514,"킔":9515,"킕":9516,"킖":9517,"킗":9518,"킘":9519,"킙":9520,"킚":9521,"킛":9522,"킜":9523,"킝":9524,"킞":9525,"킟":9526,"킠":9527,"킡":9528,"킢":9529,"킣":9530,"키":9531,"킥":9532,"킦":9533,"킧":9534,"킨":9535,"킩":9536,"킪":9537,"킫":9538,"킬":9539,"킭":9540,"킮":9541,"킯":9542,"킰":9543,"킱":9544,"킲":9545,"킳":9546,"킴":9547,"킵":9548,"킶":9549,"킷":9550,"킸":9551,"킹":9552,"킺":9553,"킻":9554,"킼":9555,"킽":9556,"킾":9557,"킿":9558,"타":9559,"탁":9560,"탂":9561,"탃":9562,"탄":9563,"탅":9564,"탆":9565,"탇":9566,"탈":9567,"탉":9568,"탊":9569,"탋":9570,"탌":9571,"탍":9572,"탎":9573,"탏":9574,"탐":9575,"탑":9576,"탒":9577,"탓":9578,"탔":9579,"탕":9580,"탖":9581,"탗":9582,"탘":9583,"탙":9584,"탚":9585,"탛":9586,"태":9587,"택":9588,"탞":9589,"탟":9590,"탠":9591,"탡":9592,"탢":9593,"탣":9594,"탤":9595,"탥":9596,"탦":9597,"탧":9598,"탨":9599,"탩":9600,"탪":9601,"탫":9602,"탬":9603,"탭":9604,"탮":9605,"탯":9606,"탰":9607,"탱":9608,"탲":9609,"탳":9610,"탴":9611,"탵":9612,"탶":9613,"탷":9614,"탸":9615,"탹":9616,"탺":9617,"탻":9618,"탼":9619,"탽":9620,"탾":9621,"탿":9622,"턀":9623,"턁":9624,"턂":9625,"턃":9626,"턄":9627,"턅":9628,"턆":9629,"턇":9630,"턈":9631,"턉":9632,"턊":9633,"턋":9634,"턌":9635,"턍":9636,"턎":9637,"턏":9638,"턐":9639,"턑":9640,"턒":9641,"턓":9642,"턔":9643,"턕":9644,"턖":9645,"턗":9646,"턘":9647,"턙":9648,"턚":9649,"턛":9650,"턜":9651,"턝":9652,"턞":9653,"턟":9654,"턠":9655,"턡":9656,"턢":9657,"턣":9658,"턤":9659,"턥":9660,"턦":9661,"턧":9662,"턨":9663,"턩":9664,"턪":9665,"턫":9666,"턬":9667,"턭":9668,"턮":9669,"턯":9670,"터":9671,"턱":9672,"턲":9673,"턳":9674,"턴":9675,"턵":9676,"턶":9677,"턷":9678,"털":9679,"턹":9680,"턺":9681,"턻":9682,"턼":9683,"턽":9684,"턾":9685,"턿":9686,"텀":9687,"텁":9688,"텂":9689,"텃":9690,"텄":9691,"텅":9692,"텆":9693,"텇":9694,"텈":9695,"텉":9696,"텊":9697,"텋":9698,"테":9699,"텍":9700,"텎":9701,"텏":9702,"텐":9703,"텑":9704,"텒":9705,"텓":9706,"텔":9707,"텕":9708,"텖":9709,"텗":9710,"텘":9711,"텙":9712,"텚":9713,"텛":9714,"템":9715,"텝":9716,"텞":9717,"텟":9718,"텠":9719,"텡":9720,"텢":9721,"텣":9722,"텤":9723,"텥":9724,"텦":9725,"텧":9726,"텨":9727,"텩":9728,"텪":9729,"텫":9730,"텬":9731,"텭":9732,"텮":9733,"텯":9734,"텰":9735,"텱":9736,"텲":9737,"텳":9738,"텴":9739,"텵":9740,"텶":9741,"텷":9742,"텸":9743,"텹":9744,"텺":9745,"텻":9746,"텼":9747,"텽":9748,"텾":9749,"텿":9750,"톀":9751,"톁":9752,"톂":9753,"톃":9754,"톄":9755,"톅":9756,"톆":9757,"톇":9758,"톈":9759,"톉":9760,"톊":9761,"톋":9762,"톌":9763,"톍":9764,"톎":9765,"톏":9766,"톐":9767,"톑":9768,"톒":9769,"톓":9770,"톔":9771,"톕":9772,"톖":9773,"톗":9774,"톘":9775,"톙":9776,"톚":9777,"톛":9778,"톜":9779,"톝":9780,"톞":9781,"톟":9782,"토":9783,"톡":9784,"톢":9785,"톣":9786,"톤":9787,"톥":9788,"톦":9789,"톧":9790,"톨":9791,"톩":9792,"톪":9793,"톫":9794,"톬":9795,"톭":9796,"톮":9797,"톯":9798,"톰":9799,"톱":9800,"톲":9801,"톳":9802,"톴":9803,"통":9804,"톶":9805,"톷":9806,"톸":9807,"톹":9808,"톺":9809,"톻":9810,"톼":9811,"톽":9812,"톾":9813,"톿":9814,"퇀":9815,"퇁":9816,"퇂":9817,"퇃":9818,"퇄":9819,"퇅":9820,"퇆":9821,"퇇":9822,"퇈":9823,"퇉":9824,"퇊":9825,"퇋":9826,"퇌":9827,"퇍":9828,"퇎":9829,"퇏":9830,"퇐":9831,"퇑":9832,"퇒":9833,"퇓":9834,"퇔":9835,"퇕":9836,"퇖":9837,"퇗":9838,"퇘":9839,"퇙":9840,"퇚":9841,"퇛":9842,"퇜":9843,"퇝":9844,"퇞":9845,"퇟":9846,"퇠":9847,"퇡":9848,"퇢":9849,"퇣":9850,"퇤":9851,"퇥":9852,"퇦":9853,"퇧":9854,"퇨":9855,"퇩":9856,"퇪":9857,"퇫":9858,"퇬":9859,"퇭":9860,"퇮":9861,"퇯":9862,"퇰":9863,"퇱":9864,"퇲":9865,"퇳":9866,"퇴":9867,"퇵":9868,"퇶":9869,"퇷":9870,"퇸":9871,"퇹":9872,"퇺":9873,"퇻":9874,"퇼":9875,"퇽":9876,"퇾":9877,"퇿":9878,"툀":9879,"툁":9880,"툂":9881,"툃":9882,"툄":9883,"툅":9884,"툆":9885,"툇":9886,"툈":9887,"툉":9888,"툊":9889,"툋":9890,"툌":9891,"툍":9892,"툎":9893,"툏":9894,"툐":9895,"툑":9896,"툒":9897,"툓":9898,"툔":9899,"툕":9900,"툖":9901,"툗":9902,"툘":9903,"툙":9904,"툚":9905,"툛":9906,"툜":9907,"툝":9908,"툞":9909,"툟":9910,"툠":9911,"툡":9912,"툢":9913,"툣":9914,"툤":9915,"툥":9916,"툦":9917,"툧":9918,"툨":9919,"툩":9920,"툪":9921,"툫":9922,"투":9923,"툭":9924,"툮":9925,"툯":9926,"툰":9927,"툱":9928,"툲":9929,"툳":9930,"툴":9931,"툵":9932,"툶":9933,"툷":9934,"툸":9935,"툹":9936,"툺":9937,"툻":9938,"툼":9939,"툽":9940,"툾":9941,"툿":9942,"퉀":9943,"퉁":9944,"퉂":9945,"퉃":9946,"퉄":9947,"퉅":9948,"퉆":9949,"퉇":9950,"퉈":9951,"퉉":9952,"퉊":9953,"퉋":9954,"퉌":9955,"퉍":9956,"퉎":9957,"퉏":9958,"퉐":9959,"퉑":9960,"퉒":9961,"퉓":9962,"퉔":9963,"퉕":9964,"퉖":9965,"퉗":9966,"퉘":9967,"퉙":9968,"퉚":9969,"퉛":9970,"퉜":9971,"퉝":9972,"퉞":9973,"퉟":9974,"퉠":9975,"퉡":9976,"퉢":9977,"퉣":9978,"퉤":9979,"퉥":9980,"퉦":9981,"퉧":9982,"퉨":9983,"퉩":9984,"퉪":9985,"퉫":9986,"퉬":9987,"퉭":9988,"퉮":9989,"퉯":9990,"퉰":9991,"퉱":9992,"퉲":9993,"퉳":9994,"퉴":9995,"퉵":9996,"퉶":9997,"퉷":9998,"퉸":9999,"퉹":10000,"퉺":10001,"퉻":10002,"퉼":10003,"퉽":10004,"퉾":10005,"퉿":10006,"튀":10007,"튁":10008,"튂":10009,"튃":10010,"튄":10011,"튅":10012,"튆":10013,"튇":10014,"튈":10015,"튉":10016,"튊":10017,"튋":10018,"튌":10019,"튍":10020,"튎":10021,"튏":10022,"튐":10023,"튑":10024,"튒":10025,"튓":10026,"튔":10027,"튕":10028,"튖":10029,"튗":10030,"튘":10031,"튙":10032,"튚":10033,"튛":10034,"튜":10035,"튝":10036,"튞":10037,"튟":10038,"튠":10039,"튡":10040,"튢":10041,"튣":10042,"튤":10043,"튥":10044,"튦":10045,"튧":10046,"튨":10047,"튩":10048,"튪":10049,"튫":10050,"튬":10051,"튭":10052,"튮":10053,"튯":10054,"튰":10055,"튱":10056,"튲":10057,"튳":10058,"튴":10059,"튵":10060,"튶":10061,"튷":10062,"트":10063,"특":10064,"튺":10065,"튻":10066,"튼":10067,"튽":10068,"튾":10069,"튿":10070,"틀":10071,"틁":10072,"틂":10073,"틃":10074,"틄":10075,"틅":10076,"틆":10077,"틇":10078,"틈":10079,"틉":10080,"틊":10081,"틋":10082,"틌":10083,"틍":10084,"틎":10085,"틏":10086,"틐":10087,"틑":10088,"틒":10089,"틓":10090,"틔":10091,"틕":10092,"틖":10093,"틗":10094,"틘":10095,"틙":10096,"틚":10097,"틛":10098,"틜":10099,"틝":10100,"틞":10101,"틟":10102,"틠":10103,"틡":10104,"틢":10105,"틣":10106,"틤":10107,"틥":10108,"틦":10109,"틧":10110,"틨":10111,"틩":10112,"틪":10113,"틫":10114,"틬":10115,"틭":10116,"틮":10117,"틯":10118,"티":10119,"틱":10120,"틲":10121,"틳":10122,"틴":10123,"틵":10124,"틶":10125,"틷":10126,"틸":10127,"틹":10128,"틺":10129,"틻":10130,"틼":10131,"틽":10132,"틾":10133,"틿":10134,"팀":10135,"팁":10136,"팂":10137,"팃":10138,"팄":10139,"팅":10140,"팆":10141,"팇":10142,"팈":10143,"팉":10144,"팊":10145,"팋":10146,"파":10147,"팍":10148,"팎":10149,"팏":10150,"판":10151,"팑":10152,"팒":10153,"팓":10154,"팔":10155,"팕":10156,"팖":10157,"팗":10158,"팘":10159,"팙":10160,"팚":10161,"팛":10162,"팜":10163,"팝":10164,"팞":10165,"팟":10166,"팠":10167,"팡":10168,"팢":10169,"팣":10170,"팤":10171,"팥":10172,"팦":10173,"팧":10174,"패":10175,"팩":10176,"팪":10177,"팫":10178,"팬":10179,"팭":10180,"팮":10181,"팯":10182,"팰":10183,"팱":10184,"팲":10185,"팳":10186,"팴":10187,"팵":10188,"팶":10189,"팷":10190,"팸":10191,"팹":10192,"팺":10193,"팻":10194,"팼":10195,"팽":10196,"팾":10197,"팿":10198,"퍀":10199,"퍁":10200,"퍂":10201,"퍃":10202,"퍄":10203,"퍅":10204,"퍆":10205,"퍇":10206,"퍈":10207,"퍉":10208,"퍊":10209,"퍋":10210,"퍌":10211,"퍍":10212,"퍎":10213,"퍏":10214,"퍐":10215,"퍑":10216,"퍒":10217,"퍓":10218,"퍔":10219,"퍕":10220,"퍖":10221,"퍗":10222,"퍘":10223,"퍙":10224,"퍚":10225,"퍛":10226,"퍜":10227,"퍝":10228,"퍞":10229,"퍟":10230,"퍠":10231,"퍡":10232,"퍢":10233,"퍣":10234,"퍤":10235,"퍥":10236,"퍦":10237,"퍧":10238,"퍨":10239,"퍩":10240,"퍪":10241,"퍫":10242,"퍬":10243,"퍭":10244,"퍮":10245,"퍯":10246,"퍰":10247,"퍱":10248,"퍲":10249,"퍳":10250,"퍴":10251,"퍵":10252,"퍶":10253,"퍷":10254,"퍸":10255,"퍹":10256,"퍺":10257,"퍻":10258,"퍼":10259,"퍽":10260,"퍾":10261,"퍿":10262,"펀":10263,"펁":10264,"펂":10265,"펃":10266,"펄":10267,"펅":10268,"펆":10269,"펇":10270,"펈":10271,"펉":10272,"펊":10273,"펋":10274,"펌":10275,"펍":10276,"펎":10277,"펏":10278,"펐":10279,"펑":10280,"펒":10281,"펓":10282,"펔":10283,"펕":10284,"펖":10285,"펗":10286,"페":10287,"펙":10288,"펚":10289,"펛":10290,"펜":10291,"펝":10292,"펞":10293,"펟":10294,"펠":10295,"펡":10296,"펢":10297,"펣":10298,"펤":10299,"펥":10300,"펦":10301,"펧":10302,"펨":10303,"펩":10304,"펪":10305,"펫":10306,"펬":10307,"펭":10308,"펮":10309,"펯":10310,"펰":10311,"펱":10312,"펲":10313,"펳":10314,"펴":10315,"펵":10316,"펶":10317,"펷":10318,"편":10319,"펹":10320,"펺":10321,"펻":10322,"펼":10323,"펽":10324,"펾":10325,"펿":10326,"폀":10327,"폁":10328,"폂":10329,"폃":10330,"폄":10331,"폅":10332,"폆":10333,"폇":10334,"폈":10335,"평":10336,"폊":10337,"폋":10338,"폌":10339,"폍":10340,"폎":10341,"폏":10342,"폐":10343,"폑":10344,"폒":10345,"폓":10346,"폔":10347,"폕":10348,"폖":10349,"폗":10350,"폘":10351,"폙":10352,"폚":10353,"폛":10354,"폜":10355,"폝":10356,"폞":10357,"폟":10358,"폠":10359,"폡":10360,"폢":10361,"폣":10362,"폤":10363,"폥":10364,"폦":10365,"폧":10366,"폨":10367,"폩":10368,"폪":10369,"폫":10370,"포":10371,"폭":10372,"폮":10373,"폯":10374,"폰":10375,"폱":10376,"폲":10377,"폳":10378,"폴":10379,"폵":10380,"폶":10381,"폷":10382,"폸":10383,"폹":10384,"폺":10385,"폻":10386,"폼":10387,"폽":10388,"폾":10389,"폿":10390,"퐀":10391,"퐁":10392,"퐂":10393,"퐃":10394,"퐄":10395,"퐅":10396,"퐆":10397,"퐇":10398,"퐈":10399,"퐉":10400,"퐊":10401,"퐋":10402,"퐌":10403,"퐍":10404,"퐎":10405,"퐏":10406,"퐐":10407,"퐑":10408,"퐒":10409,"퐓":10410,"퐔":10411,"퐕":10412,"퐖":10413,"퐗":10414,"퐘":10415,"퐙":10416,"퐚":10417,"퐛":10418,"퐜":10419,"퐝":10420,"퐞":10421,"퐟":10422,"퐠":10423,"퐡":10424,"퐢":10425,"퐣":10426,"퐤":10427,"퐥":10428,"퐦":10429,"퐧":10430,"퐨":10431,"퐩":10432,"퐪":10433,"퐫":10434,"퐬":10435,"퐭":10436,"퐮":10437,"퐯":10438,"퐰":10439,"퐱":10440,"퐲":10441,"퐳":10442,"퐴":10443,"퐵":10444,"퐶":10445,"퐷":10446,"퐸":10447,"퐹":10448,"퐺":10449,"퐻":10450,"퐼":10451,"퐽":10452,"퐾":10453,"퐿":10454,"푀":10455,"푁":10456,"푂":10457,"푃":10458,"푄":10459,"푅":10460,"푆":10461,"푇":10462,"푈":10463,"푉":10464,"푊":10465,"푋":10466,"푌":10467,"푍":10468,"푎":10469,"푏":10470,"푐":10471,"푑":10472,"푒":10473,"푓":10474,"푔":10475,"푕":10476,"푖":10477,"푗":10478,"푘":10479,"푙":10480,"푚":10481,"푛":10482,"표":10483,"푝":10484,"푞":10485,"푟":10486,"푠":10487,"푡":10488,"푢":10489,"푣":10490,"푤":10491,"푥":10492,"푦":10493,"푧":10494,"푨":10495,"푩":10496,"푪":10497,"푫":10498,"푬":10499,"푭":10500,"푮":10501,"푯":10502,"푰":10503,"푱":10504,"푲":10505,"푳":10506,"푴":10507,"푵":10508,"푶":10509,"푷":10510,"푸":10511,"푹":10512,"푺":10513,"푻":10514,"푼":10515,"푽":10516,"푾":10517,"푿":10518,"풀":10519,"풁":10520,"풂":10521,"풃":10522,"풄":10523,"풅":10524,"풆":10525,"풇":10526,"품":10527,"풉":10528,"풊":10529,"풋":10530,"풌":10531,"풍":10532,"풎":10533,"풏":10534,"풐":10535,"풑":10536,"풒":10537,"풓":10538,"풔":10539,"풕":10540,"풖":10541,"풗":10542,"풘":10543,"풙":10544,"풚":10545,"풛":10546,"풜":10547,"풝":10548,"풞":10549,"풟":10550,"풠":10551,"풡":10552,"풢":10553,"풣":10554,"풤":10555,"풥":10556,"풦":10557,"풧":10558,"풨":10559,"풩":10560,"풪":10561,"풫":10562,"풬":10563,"풭":10564,"풮":10565,"풯":10566,"풰":10567,"풱":10568,"풲":10569,"풳":10570,"풴":10571,"풵":10572,"풶":10573,"풷":10574,"풸":10575,"풹":10576,"풺":10577,"풻":10578,"풼":10579,"풽":10580,"풾":10581,"풿":10582,"퓀":10583,"퓁":10584,"퓂":10585,"퓃":10586,"퓄":10587,"퓅":10588,"퓆":10589,"퓇":10590,"퓈":10591,"퓉":10592,"퓊":10593,"퓋":10594,"퓌":10595,"퓍":10596,"퓎":10597,"퓏":10598,"퓐":10599,"퓑":10600,"퓒":10601,"퓓":10602,"퓔":10603,"퓕":10604,"퓖":10605,"퓗":10606,"퓘":10607,"퓙":10608,"퓚":10609,"퓛":10610,"퓜":10611,"퓝":10612,"퓞":10613,"퓟":10614,"퓠":10615,"퓡":10616,"퓢":10617,"퓣":10618,"퓤":10619,"퓥":10620,"퓦":10621,"퓧":10622,"퓨":10623,"퓩":10624,"퓪":10625,"퓫":10626,"퓬":10627,"퓭":10628,"퓮":10629,"퓯":10630,"퓰":10631,"퓱":10632,"퓲":10633,"퓳":10634,"퓴":10635,"퓵":10636,"퓶":10637,"퓷":10638,"퓸":10639,"퓹":10640,"퓺":10641,"퓻":10642,"퓼":10643,"퓽":10644,"퓾":10645,"퓿":10646,"픀":10647,"픁":10648,"픂":10649,"픃":10650,"프":10651,"픅":10652,"픆":10653,"픇":10654,"픈":10655,"픉":10656,"픊":10657,"픋":10658,"플":10659,"픍":10660,"픎":10661,"픏":10662,"픐":10663,"픑":10664,"픒":10665,"픓":10666,"픔":10667,"픕":10668,"픖":10669,"픗":10670,"픘":10671,"픙":10672,"픚":10673,"픛":10674,"픜":10675,"픝":10676,"픞":10677,"픟":10678,"픠":10679,"픡":10680,"픢":10681,"픣":10682,"픤":10683,"픥":10684,"픦":10685,"픧":10686,"픨":10687,"픩":10688,"픪":10689,"픫":10690,"픬":10691,"픭":10692,"픮":10693,"픯":10694,"픰":10695,"픱":10696,"픲":10697,"픳":10698,"픴":10699,"픵":10700,"픶":10701,"픷":10702,"픸":10703,"픹":10704,"픺":10705,"픻":10706,"피":10707,"픽":10708,"픾":10709,"픿":10710,"핀":10711,"핁":10712,"핂":10713,"핃":10714,"필":10715,"핅":10716,"핆":10717,"핇":10718,"핈":10719,"핉":10720,"핊":10721,"핋":10722,"핌":10723,"핍":10724,"핎":10725,"핏":10726,"핐":10727,"핑":10728,"핒":10729,"핓":10730,"핔":10731,"핕":10732,"핖":10733,"핗":10734,"하":10735,"학":10736,"핚":10737,"핛":10738,"한":10739,"핝":10740,"핞":10741,"핟":10742,"할":10743,"핡":10744,"핢":10745,"핣":10746,"핤":10747,"핥":10748,"핦":10749,"핧":10750,"함":10751,"합":10752,"핪":10753,"핫":10754,"핬":10755,"항":10756,"핮":10757,"핯":10758,"핰":10759,"핱":10760,"핲":10761,"핳":10762,"해":10763,"핵":10764,"핶":10765,"핷":10766,"핸":10767,"핹":10768,"핺":10769,"핻":10770,"핼":10771,"핽":10772,"핾":10773,"핿":10774,"햀":10775,"햁":10776,"햂":10777,"햃":10778,"햄":10779,"햅":10780,"햆":10781,"햇":10782,"했":10783,"행":10784,"햊":10785,"햋":10786,"햌":10787,"햍":10788,"햎":10789,"햏":10790,"햐":10791,"햑":10792,"햒":10793,"햓":10794,"햔":10795,"햕":10796,"햖":10797,"햗":10798,"햘":10799,"햙":10800,"햚":10801,"햛":10802,"햜":10803,"햝":10804,"햞":10805,"햟":10806,"햠":10807,"햡":10808,"햢":10809,"햣":10810,"햤":10811,"향":10812,"햦":10813,"햧":10814,"햨":10815,"햩":10816,"햪":10817,"햫":10818,"햬":10819,"햭":10820,"햮":10821,"햯":10822,"햰":10823,"햱":10824,"햲":10825,"햳":10826,"햴":10827,"햵":10828,"햶":10829,"햷":10830,"햸":10831,"햹":10832,"햺":10833,"햻":10834,"햼":10835,"햽":10836,"햾":10837,"햿":10838,"헀":10839,"헁":10840,"헂":10841,"헃":10842,"헄":10843,"헅":10844,"헆":10845,"헇":10846,"허":10847,"헉":10848,"헊":10849,"헋":10850,"헌":10851,"헍":10852,"헎":10853,"헏":10854,"헐":10855,"헑":10856,"헒":10857,"헓":10858,"헔":10859,"헕":10860,"헖":10861,"헗":10862,"험":10863,"헙":10864,"헚":10865,"헛":10866,"헜":10867,"헝":10868,"헞":10869,"헟":10870,"헠":10871,"헡":10872,"헢":10873,"헣":10874,"헤":10875,"헥":10876,"헦":10877,"헧":10878,"헨":10879,"헩":10880,"헪":10881,"헫":10882,"헬":10883,"헭":10884,"헮":10885,"헯":10886,"헰":10887,"헱":10888,"헲":10889,"헳":10890,"헴":10891,"헵":10892,"헶":10893,"헷":10894,"헸":10895,"헹":10896,"헺":10897,"헻":10898,"헼":10899,"헽":10900,"헾":10901,"헿":10902,"혀":10903,"혁":10904,"혂":10905,"혃":10906,"현":10907,"혅":10908,"혆":10909,"혇":10910,"혈":10911,"혉":10912,"혊":10913,"혋":10914,"혌":10915,"혍":10916,"혎":10917,"혏":10918,"혐":10919,"협":10920,"혒":10921,"혓":10922,"혔":10923,"형":10924,"혖":10925,"혗":10926,"혘":10927,"혙":10928,"혚":10929,"혛":10930,"혜":10931,"혝":10932,"혞":10933,"혟":10934,"혠":10935,"혡":10936,"혢":10937,"혣":10938,"혤":10939,"혥":10940,"혦":10941,"혧":10942,"혨":10943,"혩":10944,"혪":10945,"혫":10946,"혬":10947,"혭":10948,"혮":10949,"혯":10950,"혰":10951,"혱":10952,"혲":10953,"혳":10954,"혴":10955,"혵":10956,"혶":10957,"혷":10958,"호":10959,"혹":10960,"혺":10961,"혻":10962,"혼":10963,"혽":10964,"혾":10965,"혿":10966,"홀":10967,"홁":10968,"홂":10969,"홃":10970,"홄":10971,"홅":10972,"홆":10973,"홇":10974,"홈":10975,"홉":10976,"홊":10977,"홋":10978,"홌":10979,"홍":10980,"홎":10981,"홏":10982,"홐":10983,"홑":10984,"홒":10985,"홓":10986,"화":10987,"확":10988,"홖":10989,"홗":10990,"환":10991,"홙":10992,"홚":10993,"홛":10994,"활":10995,"홝":10996,"홞":10997,"홟":10998,"홠":10999,"홡":11000,"홢":11001,"홣":11002,"홤":11003,"홥":11004,"홦":11005,"홧":11006,"홨":11007,"황":11008,"홪":11009,"홫":11010,"홬":11011,"홭":11012,"홮":11013,"홯":11014,"홰":11015,"홱":11016,"홲":11017,"홳":11018,"홴":11019,"홵":11020,"홶":11021,"홷":11022,"홸":11023,"홹":11024,"홺":11025,"홻":11026,"홼":11027,"홽":11028,"홾":11029,"홿":11030,"횀":11031,"횁":11032,"횂":11033,"횃":11034,"횄":11035,"횅":11036,"횆":11037,"횇":11038,"횈":11039,"횉":11040,"횊":11041,"횋":11042,"회":11043,"획":11044,"횎":11045,"횏":11046,"횐":11047,"횑":11048,"횒":11049,"횓":11050,"횔":11051,"횕":11052,"횖":11053,"횗":11054,"횘":11055,"횙":11056,"횚":11057,"횛":11058,"횜":11059,"횝":11060,"횞":11061,"횟":11062,"횠":11063,"횡":11064,"횢":11065,"횣":11066,"횤":11067,"횥":11068,"횦":11069,"횧":11070,"효":11071,"횩":11072,"횪":11073,"횫":11074,"횬":11075,"횭":11076,"횮":11077,"횯":11078,"횰":11079,"횱":11080,"횲":11081,"횳":11082,"횴":11083,"횵":11084,"횶":11085,"횷":11086,"횸":11087,"횹":11088,"횺":11089,"횻":11090,"횼":11091,"횽":11092,"횾":11093,"횿":11094,"훀":11095,"훁":11096,"훂":11097,"훃":11098,"후":11099,"훅":11100,"훆":11101,"훇":11102,"훈":11103,"훉":11104,"훊":11105,"훋":11106,"훌":11107,"훍":11108,"훎":11109,"훏":11110,"훐":11111,"훑":11112,"훒":11113,"훓":11114,"훔":11115,"훕":11116,"훖":11117,"훗":11118,"훘":11119,"훙":11120,"훚":11121,"훛":11122,"훜":11123,"훝":11124,"훞":11125,"훟":11126,"훠":11127,"훡":11128,"훢":11129,"훣":11130,"훤":11131,"훥":11132,"훦":11133,"훧":11134,"훨":11135,"훩":11136,"훪":11137,"훫":11138,"훬":11139,"훭":11140,"훮":11141,"훯":11142,"훰":11143,"훱":11144,"훲":11145,"훳":11146,"훴":11147,"훵":11148,"훶":11149,"훷":11150,"훸":11151,"훹":11152,"훺":11153,"훻":11154,"훼":11155,"훽":11156,"훾":11157,"훿":11158,"휀":11159,"휁":11160,"휂":11161,"휃":11162,"휄":11163,"휅":11164,"휆":11165,"휇":11166,"휈":11167,"휉":11168,"휊":11169,"휋":11170,"휌":11171,"휍":11172,"휎":11173,"휏":11174,"휐":11175,"휑":11176,"휒":11177,"휓":11178,"휔":11179,"휕":11180,"휖":11181,"휗":11182,"휘":11183,"휙":11184,"휚":11185,"휛":11186,"휜":11187,"휝":11188,"휞":11189,"휟":11190,"휠":11191,"휡":11192,"휢":11193,"휣":11194,"휤":11195,"휥":11196,"휦":11197,"휧":11198,"휨":11199,"휩":11200,"휪":11201,"휫":11202,"휬":11203,"휭":11204,"휮":11205,"휯":11206,"휰":11207,"휱":11208,"휲":11209,"휳":11210,"휴":11211,"휵":11212,"휶":11213,"휷":11214,"휸":11215,"휹":11216,"휺":11217,"휻":11218,"휼":11219,"휽":11220,"휾":11221,"휿":11222,"흀":11223,"흁":11224,"흂":11225,"흃":11226,"흄":11227,"흅":11228,"흆":11229,"흇":11230,"흈":11231,"흉":11232,"흊":11233,"흋":11234,"흌":11235,"흍":11236,"흎":11237,"흏":11238,"흐":11239,"흑":11240,"흒":11241,"흓":11242,"흔":11243,"흕":11244,"흖":11245,"흗":11246,"흘":11247,"흙":11248,"흚":11249,"흛":11250,"흜":11251,"흝":11252,"흞":11253,"흟":11254,"흠":11255,"흡":11256,"흢":11257,"흣":11258,"흤":11259,"흥":11260,"흦":11261,"흧":11262,"흨":11263,"흩":11264,"흪":11265,"흫":11266,"희":11267,"흭":11268,"흮":11269,"흯":11270,"흰":11271,"흱":11272,"흲":11273,"흳":11274,"흴":11275,"흵":11276,"흶":11277,"흷":11278,"흸":11279,"흹":11280,"흺":11281,"흻":11282,"흼":11283,"흽":11284,"흾":11285,"흿":11286,"힀":11287,"힁":11288,"힂":11289,"힃":11290,"힄":11291,"힅":11292,"힆":11293,"힇":11294,"히":11295,"힉":11296,"힊":11297,"힋":11298,"힌":11299,"힍":11300,"힎":11301,"힏":11302,"힐":11303,"힑":11304,"힒":11305,"힓":11306,"힔":11307,"힕":11308,"힖":11309,"힗":11310,"힘":11311,"힙":11312,"힚":11313,"힛":11314,"힜":11315,"힝":11316,"힞":11317,"힟":11318,"힠":11319,"힡":11320,"힢":11321,"힣":11322,"##니":11323,"##츠":11324,"##쿠":11325,"##마":11326,"##데":11327,"##노":11328,"##요":11329,"##광":11330,"##장":11331,"##에":11332,"##서":11333,"##재":11334,"##희":11335,"##레":11336,"##버":11337,"##,":11338,"##만":11339,"##5":11340,"##1":11341,"##0":11342,"##원":11343,"##으":11344,"##로":11345,"##회":11346,"##기":11347,"##풍":11348,"##과":11349,"##:":11350,"##2":11351,"##7":11352,"##.":11353,"##남":11354,"##는":11355,"##다":11356,"##돈":11357,"##이":11358,"##냐":11359,"##며":11360,"##더":11361,"##러":11362,"##때":11363,"##처":11364,"##럼":11365,"##줄":11366,"##나":11367,"##즈":11368,"##키":11369,"##의":11370,"##랐":11371,"##던":11372,"##화":11373,"##해":11374,"##가":11375,"##디":11376,"##게":11377,"##인":11378,"##들":11379,"##엘":11380,"##라":11381,"##와":11382,"##o":11383,"##n":11384,"##d":11385,"##a":11386,"##단":11387,"##일":11388,"##6":11389,"##월":11390,"##살":11391,"##조":11392,"##치":11393,"##구":11394,"##덩":11395,"##리":11396,"##머":11397,"##스":11398,"##내":11399,"##술":11400,"##도":11401,"##생":11402,"##크":11403,"##탈":11404,"##출":11405,"##린":11406,"##였":11407,"##표":11408,"##동":11409,"##한":11410,"##r":11411,"##i":11412,"##g":11413,"##미":11414,"##네":11415,"##트":11416,"##를":11417,"##e":11418,"##p":11419,"##m":11420,"##앙":11421,"##캐":11422,"##먼":11423,"##드":11424,"##'":11425,"##설":11426,"##위":11427,"##-":11428,"##9":11429,"##형":11430,"##지":11431,"##진":11432,"##북":11433,"##아":11434,"##평":11435,"##승":11436,"##익":11437,"##은":11438,"##4":11439,"##3":11440,"##현":11441,"##적":11442,"##고":11443,"##산":11444,"##대":11445,"##~":11446,"##국":11447,"##사":11448,"##럽":11449,"##것":11450,"##비":11451,"##D":11452,"##H":11453,"##걸":11454,"##왕":11455,"##투":11456,"##자":11457,"##오":11458,"##c":11459,"##t":11460,"##v":11461,"##용":11462,"##직":11463,"##전":11464,"##놓":11465,"##았":11466,"##명":11467,"##색":11468,"##/":11469,"##연":11470,"##갈":11471,"##등":11472,"##결":11473,"##했":11474,"##어":11475,"##야":11476,"##편":11477,"##었":11478,"##8":11479,"##을":11480,"##유":11481,"##피":11482,"##달":11483,"##거":11484,"##금":11485,"##하":11486,"##죠":11487,"##무":11488,"##각":11489,"##밀":11490,"##토":11491,"##랑":11492,"##통":11493,"##제":11494,"##?":11495,"##극":11496,"##빈":11497,"##층":11498,"##영":11499,"##행":11500,"##주":11501,"##호":11502,"##그":11503,"##엔":11504,"##므":11505,"##농":11506,"##목":11507,"##성":11508,"##정":11509,"##겠":11510,"##느":11511,"##상":11512,"##능":11513,"##력":11514,"##소":11515,"##바":11516,"##보":11517,"##흑":11518,"##까":11519,"##앵":11520,"##립":11521,"##입":11522,"##병":11523,"##항":11524,"##왔":11525,"##찰":11526,"##파":11527,"##학":11528,"##활":11529,"##문":11530,"##년":11531,"##l":11532,"##j":11533,"##밥":11534,"##삽":11535,"##팽":11536,"##붙":11537,"##코":11538,"##넛":11539,"##랩":11540,"##수":11541,"##개":11542,"##텨":11543,"##쪽":11544,"##S":11545,"##W":11546,"##G":11547,"##령":11548,"##계":11549,"##모":11550,"##촌":11551,"##캠":11552,"##프":11553,"##근":11554,"##든":11555,"##간":11556,"##!":11557,"##\"":11558,"##신":11559,"##k":11560,"##s":11561,"##뇽":11562,"##공":11563,"##릎":11564,"##꿇":11565,"##밖":11566,"##툴":11567,"##당":11568,"##부":11569,"##카":11570,"##안":11571,"##반":11572,"##압":11573,"##감":11574,"##히":11575,"##시":11576,"##돌":11577,"##망":11578,"##씨":11579,"##르":11580,"##존":11581,"##슨":11582,"##후":11583,"##쳤":11584,"##변":11585,"##경":11586,"##음":11587,"##발":11588,"##톱":11589,"##루":11590,"##페":11591,"##올":11592,"##곤":11593,"##점":11594,"##십":11595,"##뢰":11596,"##셸":11597,"##려":11598,"##져":11599,"##있":11600,"##중":11601,"##퍼":11602,"##태":11603,"##켜":11604,"##물":11605,"##람":11606,"##여":11607,"##옥":11608,"##급":11609,"##열":11610,"##차":11611,"##타":11612,"##택":11613,"##+":11614,"##애":11615,"##깅":11616,"##밴":11617,"##할":11618,"##b":11619,"##P":11620,"##측":11621,"##겐":11622,"##흥":11623,"##h":11624,"##R":11625,"##B":11626,"##x":11627,"##석":11628,"##손":11629,"##면":11630,"##쓰":11631,"##막":11632,"##런":11633,"##킹":11634,"##티":11635,"##염":11636,"##속":11637,"##둔":11638,"##훈":11639,"##탕":11640,"###":11641,"##군":11642,"##역":11643,"##뎀":11644,"##됐":11645,"##증":11646,"##건":11647,"##락":11648,"##f":11649,"##w":11650,"##녀":11651,"##쟁":11652,"##쥬":11653,"##집":11654,"##슈":11655,"##탐":11656,"##닌":11657,"##풀":11658,"##체":11659,"##종":11660,"##헤":11661,"##렸":11662,"##식":11663,"##벌":11664,"##I":11665,"##N":11666,"##언":11667,"##볼":11668,"##함":11669,"##환":11670,"##읍":11671,"##법":11672,"##황":11673,"##ㅍ":11674,"##ㅅ":11675,"##질":11676,"##렀":11677,"##놈":11678,"##민":11679,"##슷":11680,"##긴":11681,"##번":11682,"##선":11683,"##랜":11684,"##귀":11685,"##될":11686,"##큼":11687,"##X":11688,"##렌":11689,"##박":11690,"##관":11691,"##끼":11692,"##늘":11693,"##새":11694,"##골":11695,"##죽":11696,"##세":11697,"##너":11698,"##교":11699,"##&":11700,"##팀":11701,"##빼":11702,"##름":11703,"##율":11704,"##습":11705,"##우":11706,"##맵":11707,"##빰":11708,"##베":11709,"##룽":11710,"##욕":11711,"##릭":11712,"##터":11713,"##작":11714,"##릉":11715,"##륭":11716,"##컷":11717,"##멘":11718,"##폴":11719,"##블":11720,"##럭":11721,"##채":11722,"##플":11723,"##백":11724,"##싱":11725,"##캡":11726,"##u":11727,"##F":11728,"##칼":11729,"##퇴":11730,"##된":11731,"##격":11732,"##양":11733,"##]":11734,"##테":11735,"##닭":11736,"##찜":11737,"##괴":11738,"##닛":11739,"##룡":11740,"##참":11741,"##검":11742,"##족":11743,"##송":11744,"##포":11745,"##청":11746,"##롸":11747,"##심":11748,"##논":11749,"##란":11750,"##랗":11751,"##컴":11752,"##셔":11753,"##줘":11754,"##론":11755,"##별":11756,"##강":11757,"##V":11758,"##곡":11759,"##뿐":11760,"##y":11761,"##눈":11762,"##눅":11763,"##커":11764,"##슴":11765,"##규":11766,"##U":11767,"##A":11768,"##Y":11769,"##Z":11770,"##록":11771,"##T":11772,"##C":11773,"##되":11774,"##쳐":11775,"##젤":11776,"##온":11777,"##앞":11778,"##%":11779,"##분":11780,"##길":11781,"##판":11782,"##졌":11783,"##킬":11784,"##못":11785,"##않":11786,"##곰":11787,"##씌":11788,"##울":11789,"##벨":11790,"##방":11791,"##독":11792,"##육":11793,"##뎌":11794,"##딕":11795,"##워":11796,"##즌":11797,"##천":11798,"##)":11799,"##초":11800,"##저":11801,"##준":11802,"##옵":11803,"##메":11804,"##깨":11805,"##림":11806,"##래":11807,"##탑":11808,"##맹":11809,"##링":11810,"##글":11811,"##O":11812,"##슬":11813,"##칸":11814,"##김":11815,"##매":11816,"##E":11817,"##샷":11818,"##삼":11819,"##따":11820,"##봉":11821,"##핀":11822,"##덕":11823,"##획":11824,"##(":11825,"##브":11826,"##먹":11827,"##두":11828,"##M":11829,"##복":11830,"##[":11831,"##=":11832,"##탄":11833,"##껍":11834,"##뇌":11835,"##널":11836,"##묘":11837,"##>":11838,"##돋":11839,"##암":11840,"##악":11841,"##합":11842,"##겨":11843,"##패":11844,"##넣":11845,"##액":11846,"##덴":11847,"##말":11848,"##딩":11849,"##몹":11850,"##취":11851,"##_":11852,"##렷":11853,"##잔":11854,"##웽":11855,"##엑":11856,"##셀":11857,"##땃":11858,"##쥐":11859,"##같":11860,"##류":11861,"##운":11862,"##휘":11863,"##L":11864,"##혁":11865,"##쉬":11866,"##범":11867,"##켄":11868,"##섭":11869,"##큰":11870,"##즐":11871,"##롭":11872,"##실":11873,"##삭":11874,"##앨":11875,"##젼":11876,"##냄":11877,"##갑":11878,"##옷":11879,"##최":11880,"##쩌":11881,"##맨":11882,"##틱":11883,"##켈":11884,"##총":11885,"##웃":11886,"##약":11887,"##핵":11888,"##융":11889,"##협":11890,"##*":11891,"##캄":11892,"##랍":11893,"##땅":11894,"##불":11895,"##침":11896,"##튀":11897,"##련":11898,"##충":11899,"##얼":11900,"##낭":11901,"##솔":11902,"##웠":11903,"##맘":11904,"##맥":11905,"##봄":11906,"##향":11907,"##첸":11908,"##렐":11909,"##웨":11910,"##<":11911,"##클":11912,"##임":11913,"##님":11914,"##축":11915,"##턴":11916,"##케":11917,"##텐":11918,"##쿤":11919,"##필":11920,"##둥":11921,"##퀴":11922,"##뮤":11923,"##품":11924,"##넷":11925,"##냥":11926,"##본":11927,"##략":11928,"##롱":11929,"##톡":11930,"##봇":11931,"##롤":11932,"##챗":11933,"##렇":11934,"##흐":11935,"##퓔":11936,"##빨":11937,"##써":11938,"##랴":11939,"##쇠":11940,"##량":11941,"##답":11942,"##묵":11943,"##알":11944,"##뻥":11945,"##냇":11946,"##덜":11947,"##옌":11948,"##푹":11949,"##찌":11950,"##빵":11951,"##업":11952,"##딧":11953,"##푸":11954,"##배":11955,"##웅":11956,"##윌":11957,"##팔":11958,"##헌":11959,"##봐":11960,"##폭":11961,"##예":11962,"##굴":11963,"##;":11964,"##권":11965,"##밍":11966,"##샤":11967,"##억":11968,"##듯":11969,"##닝":11970,"##Q":11971,"##쁘":11972,"##쾨":11973,"##째":11974,"##긔":11975,"##맞":11976,"##찍":11977,"##캇":11978,"##J":11979,"##윤":11980,"##큐":11981,"##른":11982,"##료":11983,"##움":11984,"##톤":11985,"##딘":11986,"##젠":11987,"##힙":11988,"##됨":11989,"##창":11990,"##콜":11991,"##흠":11992,"##징":11993,"##럿":11994,"##힐":11995,"##z":11996,"##친":11997,"##쌤":11998,"##잖":11999,"##덤":12000,"##춘":12001,"##깐":12002,"##효":12003,"##담":12004,"##값":12005,"##텝":12006,"##K":12007,"##갔":12008,"##추":12009,"##켰":12010,"##훌":12011,"##잉":12012,"##놀":12013,"##컬":12014,"##킥":12015,"##륜":12016,"##완":12017,"##짜":12018,"##잊":12019,"##괄":12020,"##냈":12021,"##넘":12022,"##션":12023,"##췬":12024,"##럴":12025,"##옹":12026,"##햄":12027,"##힌":12028,"##눔":12029,"##칠":12030,"##빠":12031,"##둑":12032,"##넌":12033,"##랄":12034,"##룻":12035,"##착":12036,"##홈":12037,"##녹":12038,"##좌":12039,"##숭":12040,"##책":12041,"##턱":12042,"##짝":12043,"##멜":12044,"##철":12045,"##섬":12046,"##킵":12047,"##객":12048,"##죄":12049,"##딴":12050,"##덱":12051,"##밸":12052,"##녕":12053,"##릍":12054,"##끄":12055,"##멸":12056,"##빗":12057,"##꼬":12058,"##뭐":12059,"##뇨":12060,"##탁":12061,"##균":12062,"##쯤":12063,"##께":12064,"##혀":12065,"##봤":12066,"##콘":12067,"##졸":12068,"##순":12069,"##뉴":12070,"##험":12071,"##훉":12072,"##몰":12073,"##곳":12074,"##콤":12075,"##잡":12076,"##숨":12077,"##혜":12078,"##외":12079,"##벳":12080,"##쇼":12081,"##켓":12082,"##즘":12083,"##센":12084,"##닙":12085,"##폐":12086,"##펙":12087,"##빌":12088,"##떨":12089,"##뤘":12090,"##밋":12091,"##폼":12092,"##맛":12093,"##닐":12094,"##륙":12095,"##뿔":12096,"##텔":12097,"##\\":12098,"##섯":12099,"##샬":12100,"##랭":12101,"##킨":12102,"##즙":12103,"##절":12104,"##놨":12105,"##잇":12106,"##늑":12107,"##댄":12108,"##씬":12109,"##톰":12110,"##혹":12111,"##낌":12112,"##궐":12113,"##릴":12114,"##둬":12115,"##찬":12116,"##팅":12117,"##쏴":12118,"##룬":12119,"##헬":12120,"##튼":12121,"##몽":12122,"##윈":12123,"##얀":12124,"##례":12125,"##숍":12126,"##뤄":12127,"##없":12128,"##꼴":12129,"##쨩":12130,"##특":12131,"##윙":12132,"##픽":12133,"##눌":12134,"##델":12135,"##템":12136,"##누":12137,"##잠":12138,"##날":12139,"##난":12140,"##곽":12141,"##틸":12142,"##셨":12143,"##댕":12144,"##뷰":12145,"##홋":12146,"##받":12147,"##툰":12148,"##휠":12149,"##밤":12150,"##놔":12151,"##돼":12152,"##^":12153,"##궁":12154,"##젝":12155,"##숙":12156,"##젔":12157,"##뜻":12158,"##펌":12159,"##득":12160,"##빛":12161,"##늬":12162,"##퀼":12163,"##틀":12164,"##캣":12165,"##홍":12166,"##콩":12167,"##겁":12168,"##뿌":12169,"##밧":12170,"##믹":12171,"##욱":12172,"##램":12173,"##싼":12174,"##컵":12175,"##픈":12176,"##뱀":12177,"##멍":12178,"##곶":12179,"##또":12180,"##컨":12181,"##뜨":12182,"##썼":12183,"##팥":12184,"##묭":12185,"##줌":12186,"##섀":12187,"##핑":12188,"##몬":12189,"##깃":12190,"##렛":12191,"##팩":12192,"##엄":12193,"##핸":12194,"##듬":12195,"##렁":12196,"##꽃":12197,"##|":12198,"##젓":12199,"##냅":12200,"##캔":12201,"##샙":12202,"##벽":12203,"##념":12204,"##웰":12205,"##펄":12206,"##싶":12207,"##눴":12208,"##겔":12209,"##듣":12210,"##앗":12211,"##좋":12212,"##틴":12213,"##헀":12214,"##닉":12215,"##튜":12216,"##쿨":12217,"##좡":12218,"##닷":12219,"##탬":12220,"##꿔":12221,"##돕":12222,"##꿩":12223,"##휴":12224,"##률":12225,"##첩":12226,"##겸":12227,"##벤":12228,"##접":12229,"##혼":12230,"##쟝":12231,"##짱":12232,"##쏘":12233,"##갤":12234,"##떼":12235,"##폰":12236,"##뒀":12237,"##릿":12238,"##룸":12239,"##킴":12240,"##견":12241,"##귄":12242,"##넬":12243,"##퓨":12244,"##춰":12245,"##랏":12246,"##딸":12247,"##펠":12248,"##닥":12249,"##뚤":12250,"##혈":12251,"##챙":12252,"##칙":12253,"##뷔":12254,"##쉘":12255,"##랙":12256,"##싹":12257,"##끔":12258,"##멤":12259,"##딜":12260,"##ㄷ":12261,"##츄":12262,"##렬":12263,"##볶":12264,"##핍":12265,"##ㅔ":12266,"##ㄺ":12267,"##껌":12268,"##툼":12269,"##찐":12270,"##팝":12271,"##빔":12272,"##텀":12273,"##뤼":12274,"##q":12275,"##확":12276,"##셰":12277,"##횟":12278,"##}":12279,"##끌":12280,"##응":12281,"##첨":12282,"##허":12283,"##릐":12284,"##렴":12285,"##랫":12286,"##빡":12287,"##{":12288,"##붓":12289,"##및":12290,"##칫":12291,"##ㅡ":12292,"##겹":12293,"##렉":12294,"##싸":12295,"##찮":12296,"##ㅎ":12297,"##꺼":12298,"##탱":12299,"##팬":12300,"##펜":12301,"##씩":12302,"##풔":12303,"##냠":12304,"##짭":12305,"##찹":12306,"##둘":12307,"##흘":12308,"##칰":12309,"##엽":12310,"##묻":12311,"##떠":12312,"##퀄":12313,"##잎":12314,"##텍":12315,"##썩":12316,"##팟":12317,"##왝":12318,"##듭":12319,"##챠":12320,"##셉":12321,"##짓":12322,"##륨":12323,"##뒤":12324,"##믓":12325,"##잘":12326,"##펀":12327,"##붕":12328,"##롣":12329,"##룰":12330,"##낚":12331,"##펫":12332,"##꿉":12333,"##샵":12334,"##팸":12335,"##뻐":12336,"##쌍":12337,"##콥":12338,"##췰":12339,"##낼":12340,"##땐":12341,"##큘":12342,"##왈":12343,"##떡":12344,"##척":12345,"##꾼":12346,"##끗":12347,"##룹":12348,"##퀸":12349,"##짐":12350,"##밌":12351,"##튬":12352,"##겜":12353,"##릇":12354,"##깽":12355,"##쾰":12356,"##씀":12357,"##빅":12358,"##엇":12359,"##팡":12360,"##빙":12361,"##쎄":12362,"##늄":12363,"##웍":12364,"##흉":12365,"##꾸":12366,"##렙":12367,"##뎃":12368,"##쵸":12369,"##윗":12370,"##얏":12371,"##쇄":12372,"##퉁":12373,"##낙":12374,"##칩":12375,"##깡":12376,"##꼭":12377,"##긜":12378,"##엉":12379,"##넨":12380,"##똥":12381,"##댓":12382,"##췄":12383,"##겼":12384,"##랬":12385,"##쉽":12386,"##쓸":12387,"##벼":12388,"##`":12389,"##퀘":12390,"##났":12391,"##헥":12392,"##챕":12393,"##셩":12394,"##푼":12395,"##슥":12396,"##뎅":12397,"##줬":12398,"##듀":12399,"##풋":12400,"##벙":12401,"##숲":12402,"##녔":12403,"##힘":12404,"##낸":12405,"##앤":12406,"##맷":12407,"##홀":12408,"##셋":12409,"##렵":12410,"##쏠":12411,"##ㄴ":12412,"##ㅇ":12413,"##잣":12414,"##밭":12415,"##납":12416,"##좀":12417,"##붇":12418,"##닿":12419,"##꺅":12420,"##츳":12421,"##탓":12422,"##멈":12423,"##잭":12424,"##멀":12425,"##룩":12426,"##윅":12427,"##섹":12428,"##쁜":12429,"##촉":12430,"##긍":12431,"##끽":12432,"##갠":12433,"##륵":12434,"##헝":12435,"##쿄":12436,"##많":12437,"##쭤":12438,"##썰":12439,"##롯":12440,"##옻":12441,"##핏":12442,"##떤":12443,"##톨":12444,"##슛":12445,"##벅":12446,"##캉":12447,"##뛰":12448,"##믿":12449,"##뱅":12450,"##볏":12451,"##뚝":12452,"##븐":12453,"##꼼":12454,"##ㅋ":12455,"##듦":12456,"##덮":12457,"##팁":12458,"##긁":12459,"##홉":12460,"##ㅏ":12461,"##땜":12462,"##털":12463,"##옆":12464,"##깎":12465,"##흡":12466,"##샘":12467,"##낀":12468,"##앉":12469,"##딱":12470,"##늦":12471,"##됬":12472,"##웹":12473,"##깔":12474,"##춤":12475,"##썹":12476,"##붉":12477,"##퓌":12478,"##롬":12479,"##엠":12480,"##콰":12481,"##솨":12482,"##쁨":12483,"##땀":12484,"##띠":12485,"##엣":12486,"##첼":12487,"##펑":12488,"##퐈":12489,"##팍":12490,"##뮌":12491,"##헨":12492,"##왓":12493,"##훗":12494,"##셜":12495,"##몇":12496,"##삿":12497,"##갓":12498,"##몸":12499,"##퐁":12500,"##칭":12501,"##쟈":12502,"##팰":12503,"##쯔":12504,"##웜":12505,"##셴":12506,"##핧":12507,"##@":12508,"##ㅂ":12509,"##뱃":12510,"##쑤":12511,"##낮":12512,"##됩":12513,"##떻":12514,"##쿼":12515,"##팜":12516,"##ㅒ":12517,"##ㄹ":12518,"##쉐":12519,"##욧":12520,"##칵":12521,"##혐":12522,"##쫄":12523,"##쩍":12524,"##쪘":12525,"##벗":12526,"##썽":12527,"##옛":12528,"##얄":12529,"##셈":12530,"##$":12531,"##뮬":12532,"##솜":12533,"##맡":12534,"##꿍":12535,"##뚜":12536,"##껑":12537,"##뿜":12538,"##넥":12539,"##겍":12540,"##춈":12541,"##깊":12542,"##흰":12543,"##훤":12544,"##듈":12545,"##헴":12546,"##쩨":12547,"##뤠":12548,"##즹":12549,"##슿":12550,"##쾌":12551,"##눙":12552,"##샹":12553,"##튈":12554,"##뭇":12555,"##롄":12556,"##텃":12557,"##챔":12558,"##볕":12559,"##쉔":12560,"##뚠":12561,"##킷":12562,"##꿈":12563,"##륍":12564,"##ㅣ":12565,"##옇":12566,"##폈":12567,"##얻":12568,"##눕":12569,"##혔":12570,"##갸":12571,"##텁":12572,"##돠":12573,"##겟":12574,"##슐":12575,"##옴":12576,"##끝":12577,"##컹":12578,"##댔":12579,"##탯":12580,"##쿱":12581,"##꼽":12582,"##넉":12583,"##햏":12584,"##츨":12585,"##샌":12586,"##ㅚ":12587,"##흙":12588,"##뫼":12589,"##맺":12590,"##ㄱ":12591,"##ㅁ":12592,"##냉":12593,"##걱":12594,"##좆":12595,"##뮈":12596,"##묶":12597,"##쌀":12598,"##쉼":12599,"##훼":12600,"##뜩":12601,"##샨":12602,"##샾":12603,"##쿡":12604,"##둠":12605,"##뜸":12606,"##쒸":12607,"##높":12608,"##ㅑ":12609,"##ㄲ":12610,"##훙":12611,"##웬":12612,"##펴":12613,"##틈":12614,"##쑈":12615,"##넓":12616,"##뉘":12617,"##삐":12618,"##뽀":12619,"##즉":12620,"##훔":12621,"##햘":12622,"##붐":12623,"##똑":12624,"##텡":12625,"##윕":12626,"##셱":12627,"##핥":12628,"##햔":12629,"##촬":12630,"##웟":12631,"##엥":12632,"##궂":12633,"##봅":12634,"##겯":12635,"##곗":12636,"##챰":12637,"##뜯":12638,"##띤":12639,"##딛":12640,"##렘":12641,"##츤":12642,"##뽕":12643,"##벡":12644,"##쥰":12645,"##룀":12646,"##딨":12647,"##뚱":12648,"##돔":12649,"##왜":12650,"##굿":12651,"##좁":12652,"##셍":12653,"##앱":12654,"##귈":12655,"##핳":12656,"##뺑":12657,"##뒹":12658,"##뚫":12659,"##쟤":12660,"##줏":12661,"##웡":12662,"##퀵":12663,"##툭":12664,"##춧":12665,"##꽂":12666,"##멕":12667,"##멧":12668,"##쿰":12669,"##갖":12670,"##낄":12671,"##ㅌ":12672,"##슘":12673,"##굵":12674,"##궈":12675,"##픔":12676,"##뻘":12677,"##볜":12678,"##옐":12679,"##랅":12680,"##웩":12681,"##둡":12682,"##꿰":12683,"##쑥":12684,"##갱":12685,"##앰":12686,"##둣":12687,"##렝":12688,"##읽":12689,"##끈":12690,"##쩝":12691,"##댐":12692,"##큇":12693,"##눠":12694,"##얹":12695,"##죌":12696,"##끊":12697,"##뀌":12698,"##쉴":12699,"##씽":12700,"##펭":12701,"##ㅓ":12702,"##ㅆ":12703,"##뻑":12704,"##ㅙ":12705,"##ㄼ":12706,"##ㅐ":12707,"##쥴":12708,"##욘":12709,"##뮨":12710,"##콴":12711,"##굉":12712,"##캑":12713,"##솟":12714,"##쏭":12715,"##맄":12716,"##긋":12717,"##첵":12718,"##젊":12719,"##썸":12720,"##뀐":12721,"##윰":12722,"##꼈":12723,"##캅":12724,"##쉰":12725,"##덟":12726,"##탠":12727,"##눗":12728,"##ㅛ":12729,"##븀":12730,"##띡":12731,"##셌":12732,"##곱":12733,"##썬":12734,"##쩡":12735,"##찻":12736,"##궤":12737,"##촨":12738,"##껴":12739,"##촘":12740,"##쳉":12741,"##쌈":12742,"##짤":12743,"##찔":12744,"##깜":12745,"##섞":12746,"##왐":12747,"##놋":12748,"##죵":12749,"##슾":12750,"##햇":12751,"##댁":12752,"##녁":12753,"##쭈":12754,"##닦":12755,"##괜":12756,"##낫":12757,"##닼":12758,"##땠":12759,"##껄":12760,"##튠":12761,"##ㅈ":12762,"##헐":12763,"##ㅝ":12764,"##뽑":12765,"##멩":12766,"##꽥":12767,"##잼":12768,"##밟":12769,"##핫":12770,"##꺄":12771,"##흫":12772,"##뒸":12773,"##낱":12774,"##샴":12775,"##촐":12776,"##귤":12777,"##튕":12778,"##큅":12779,"##헉":12780,"##딪":12781,"##찾":12782,"##뷸":12783,"##ㅟ":12784,"##ㄾ":12785,"##쬔":12786,"##닫":12787,"##졔":12788,"##뒷":12789,"##딥":12790,"##맸":12791,"##떄":12792,"##뜬":12793,"##흔":12794,"##댈":12795,"##뻔":12796,"##뎬":12797,"##깍":12798,"##겄":12799,"##캘":12800,"##읏":12801,"##쳄":12802,"##젖":12803,"##깝":12804,"##왼":12805,"##뉜":12806,"##닳":12807,"##땡":12808,"##밑":12809,"##꽝":12810,"##헿":12811,"##늠":12812,"##륏":12813,"##궜":12814,"##멋":12815,"##솝":12816,"##ㄸ":12817,"##ㅠ":12818,"##훅":12819,"##뭉":12820,"##튤":12821,"##쥼":12822,"##읕":12823,"##짧":12824,"##밈":12825,"##톈":12826,"##퀀":12827,"##얽":12828,"##횡":12829,"##냔":12830,"##팠":12831,"##줍":12832,"##섰":12833,"##탤":12834,"##켸":12835,"##헛":12836,"##슝":12837,"##젯":12838,"##퀜":12839,"##휼":12840,"##빤":12841,"##숄":12842,"##꺠":12843,"##힛":12844,"##숀":12845,"##퍽":12846,"##곈":12847,"##숴":12848,"##낳":12849,"##숏":12850,"##뱉":12851,"##욜":12852,"##텼":12853,"##츙":12854,"##녘":12855,"##텟":12856,"##꿀":12857,"##몆":12858,"##귓":12859,"##굳":12860,"##얘":12861,"##뼛":12862,"##옮":12863,"##쉿":12864,"##쓴":12865,"##쳣":12866,"##돗":12867,"##찡":12868,"##뼈":12869,"##쟌":12870,"##뀨":12871,"##멥":12872,"##굽":12873,"##봬":12874,"##얌":12875,"##콧":12876,"##핬":12877,"##엌":12878,"##꼐":12879,"##쟛":12880,"##괘":12881,"##쌩":12882,"##덥":12883,"##돐":12884,"##짬":12885,"##뎐":12886,"##쿵":12887,"##샐":12888,"##큔":12889,"##쌔":12890,"##쌕":12891,"##뻗":12892,"##젬":12893,"##텅":12894,"##읻":12895,"##랠":12896,"##껏":12897,"##걀":12898,"##뎁":12899,"##콕":12900,"##흄":12901,"##냑":12902,"##깁":12903,"##쌓":12904,"##캥":12905,"##늙":12906,"##깥":12907,"##숫":12908,"##싯":12909,"##뺀":12910,"##갛":12911,"##릅":12912,"##쾅":12913,"##쭘":12914,"##탔":12915,"##곧":12916,"##샛":12917,"##녜":12918,"##괭":12919,"##쭌":12920,"##푱":12921,"##핌":12922,"##녠":12923,"##얗":12924,"##솅":12925,"##썅":12926,"##쫒":12927,"##뢱":12928,"##솀":12929,"##맴":12930,"##ㅖ":12931,"##ㅀ":12932,"##뉼":12933,"##뇰":12934,"##씸":12935,"##뷁":12936,"##퓰":12937,"##맬":12938,"##얍":12939,"##ㅢ":12940,"##ㅊ":12941,"##뱌":12942,"##섶":12943,"##엿":12944,"##갯":12945,"##쪼":12946,"##웁":12947,"##꾹":12948,"##쥔":12949,"##듐":12950,"##껠":12951,"##튿":12952,"##귬":12953,"##냏":12954,"##슌":12955,"##뿡":12956,"##쩐":12957,"##뺏":12958,"##앍":12959,"##먀":12960,"##쫓":12961,"##췌":12962,"##빽":12963,"##ㅕ":12964,"##멱":12965,"##챈":12966,"##꽁":12967,"##쁠":12968,"##껀":12969,"##뜰":12970,"##걍":12971,"##뫄":12972,"##쩔":12973,"##쉈":12974,"##쫃":12975,"##뵐":12976,"##쯧":12977,"##꿨":12978,"##벚":12979,"##앓":12980,"##캬":12981,"##퓸":12982,"##믈":12983,"##탭":12984,"##폿":12985,"##켤":12986,"##닮":12987,"##뀔":12988,"##팎":12989,"##썖":12990,"##쉑":12991,"##옳":12992,"##펩":12993,"##쫀":12994,"##엮":12995,"##넙":12996,"##쀼":12997,"##좨":12998,"##늪":12999,"##믐":13000,"##숩":13001,"##컥":13002,"##띵":13003,"##맠":13004,"##깸":13005,"##빻":13006,"##팣":13007,"##햐":13008,"##슭":13009,"##읔":13010,"##겅":13011,"##꾜":13012,"##잽":13013,"##푈":13014,"##깠":13015,"##멓":13016,"##겪":13017,"##쫑":13018,"##솽":13019,"##맑":13020,"##뿅":13021,"##댑":13022,"##ㅉ":13023,"##꺽":13024,"##벵":13025,"##햣":13026,"##촛":13027,"##팻":13028,"##쭝":13029,"##찼":13030,"##짖":13031,"##꽉":13032,"##맙":13033,"##ㄳ":13034,"##찟":13035,"##숑":13036,"##윽":13037,"##쒔":13038,"##탉":13039,"##튐":13040,"##탸":13041,"##숱":13042,"##ㄵ":13043,"##낰":13044,"##힡":13045,"##몫":13046,"##칲":13047,"##빚":13048,"##뵤":13049,"##밝":13050,"##낡":13051,"##댜":13052,"##큭":13053,"##찢":13054,"##겻":13055,"##짼":13056,"##뻤":13057,"##ㅜ":13058,"##벞":13059,"##뱡":13060,"##뭘":13061,"##첫":13062,"##윔":13063,"##씅":13064,"##깻":13065,"##훠":13066,"##뮐":13067,"##삶":13068,"##넹":13069,"##묀":13070,"##떴":13071,"##쐐":13072,"##겆":13073,"##챳":13074,"##젹":13075,"##뎠":13076,"##꿘":13077,"##죤":13078,"##륀":13079,"##싫":13080,"##넴":13081,"##꺾":13082,"##쨍":13083,"##늣":13084,"##럐":13085,"##솥":13086,"##뭄":13087,"##깄":13088,"##컸":13089,"##짢":13090,"##삥":13091,"##짠":13092,"##왑":13093,"##짚":13094,"##잤":13095,"##엡":13096,"##칬":13097,"##삘":13098,"##뒬":13099,"##퍄":13100,"##ㅗ":13101,"##뗌":13102,"##뭔":13103,"##웻":13104,"##떽":13105,"##ㄻ":13106,"##잰":13107,"##뵈":13108,"##씹":13109,"##쭙":13110,"##빴":13111,"##깟":13112,"##낪":13113,"##밊":13114,"##춥":13115,"##랟":13116,"##펨":13117,"##쑹":13118,"##왠":13119,"##봑":13120,"##엎":13121,"##ㄿ":13122,"##떳":13123,"##궘":13124,"##켬":13125,"##렜":13126,"##콀":13127,"##놉":13128,"##낵":13129,"##쬰":13130,"##쬬":13131,"##덧":13132,"##꽌":13133,"##펍":13134,"##뿍":13135,"##낑":13136,"##픠":13137,"##뻬":13138,"##헵":13139,"##덫":13140,"##뮴":13141,"##즛":13142,"##뜷":13143,"##딤":13144,"##앴":13145,"##ㅄ":13146,"##켁":13147,"##뉵":13148,"##갚":13149,"##뷘":13150,"##겉":13151,"##잃":13152,"##뽈":13153,"##쨔":13154,"##굼":13155,"##앳":13156,"##돤":13157,"##귐":13158,"##귱":13159,"##돛":13160,"##ㅃ":13161,"##닠":13162,"##쉣":13163,"##햑":13164,"##쁑":13165,"##꼿":13166,"##쑨":13167,"##튽":13168,"##껸":13169,"##켠":13170,"##띄":13171,"##덯":13172,"##끙":13173,"##륄":13174,"##찿":13175,"##볍":13176,"##쁩":13177,"##윳":13178,"##쭉":13179,"##츈":13180,"##숟":13181,"##앜":13182,"##룔":13183,"##졋":13184,"##룟":13185,"##왁":13186,"##맣":13187,"##슼":13188,"##펼":13189,"##횽":13190,"##갬":13191,"##뛴":13192,"##쌱":13193,"##쳇":13194,"##챨":13195,"##쉥":13196,"##핲":13197,"##챌":13198,"##몄":13199,"##흣":13200,"##닢":13201,"##펐":13202,"##셒":13203,"##뺌":13204,"##쓱":13205,"##곁":13206,"##찦":13207,"##꼰":13208,"##졉":13209,"##놜":13210,"##걷":13211,"##햅":13212,"##잌":13213,"##똠":13214,"##듄":13215,"##쓩":13216,"##좃":13217,"##씰":13218,"##웄":13219,"##챘":13220,"##쏜":13221,"##낯":13222,"##옙":13223,"##랼":13224,"##팃":13225,"##셕":13226,"##끓":13227,"##뵉":13228,"##쭐":13229,"##욋":13230,"##륌":13231,"##쇽":13232,"##뷜":13233,"##홰":13234,"##팼":13235,"##랕":13236,"##몐":13237,"##괼":13238,"##귑":13239,"##텄":13240,"##넵":13241,"##얇":13242,"##푀":13243,"##쉭":13244,"##쨉":13245,"##핼":13246,"##뢉":13247,"##펬":13248,"##숔":13249,"##읜":13250,"##혓":13251,"##띔":13252,"##갰":13253,"##몀":13254,"##랖":13255,"##뺨":13256,"##랸":13257,"##졀":13258,"##읒":13259,"##찝":13260,"##쨈":13261,"##촹":13262,"##딫":13263,"##녓":13264,"##캎":13265,"##쪄":13266,"##겡":13267,"##힝":13268,"##븍":13269,"##깬":13270,"##뾱":13271,"##뭅":13272,"##셤":13273,"##뢴":13274,"##쎾":13275,"##짙":13276,"##뎨":13277,"##뽐":13278,"##짹":13279,"##괵":13280,"##ㄶ":13281,"##컫":13282,"##퓽":13283,"##됴":13284,"##윱":13285,"##듕":13286,"##츱":13287,"##곘":13288,"##뽁":13289,"##ㄽ":13290,"##솎":13291,"##쮸":13292,"##뼉":13293,"##큡":13294,"##콱":13295,"##톹":13296,"##뒴":13297,"##씻":13298,"##홧":13299,"##휩":13300,"##얬":13301,"##됀":13302,"##씜":13303,"##쨰":13304,"##폄":13305,"##앀":13306,"##믾":13307,"##훕":13308,"##쯕":13309,"##뜀":13310,"##땟":13311,"##헱":13312,"##롻":13313,"##횩":13314,"##빕":13315,"##쨘":13316,"##욤":13317,"##넋":13318,"##횬":13319,"##틋":13320,"##켐":13321,"##슳":13322,"##땄":13323,"##볘":13324,"##뤽":13325,"##뒈":13326,"##롷":13327,"##쏙":13328,"##싿":13329,"##쑵":13330,"##똘":13331,"##힉":13332,"##헸":13333,"##첬":13334,"##씃":13335,"##췩":13336,"##흩":13337,"##룅":13338,"##턔":13339,"##좍":13340,"##곷":13341,"##앋":13342,"##큥":13343,"##픅":13344,"##댖":13345,"##굔":13346,"##샥":13347,"##챵":13348,"##슁":13349,"##짰":13350,"##싑":13351,"##늉":13352,"##뭥":13353,"##냘":13354,"##쏵":13355,"##덛":13356,"##륑":13357,"##톳":13358,"##픕":13359,"##꽈":13360,"##잍":13361,"##됭":13362,"##뜌":13363,"##듸":13364,"##붴":13365,"##샇":13366,"##콮":13367,"##츔":13368,"##볐":13369,"##삔":13370,"##숯":13371,"##툠":13372,"##갗":13373,"##헹":13374,"##쬐":13375,"##틔":13376,"##컁":13377,"##걔":13378,"##넝":13379,"##쨌":13380,"##꽤":13381,"##셧":13382,"##햠":13383,"##읩":13384,"##믄":13385,"##궃":13386,"##쌌":13387,"##켕":13388,"##쎌":13389,"##츼":13390,"##푯":13391,"##뗘":13392,"##슉":13393,"##섕":13394,"##뛟":13395,"##툽":13396,"##잦":13397,"##쌰":13398,"##뀜":13399,"##갭":13400,"##졍":13401,"##뀬":13402,"##흗":13403,"##팓":13404,"##꾀":13405,"##옘":13406,"##쎈":13407,"##삯":13408,"##쩬":13409,"##녤":13410,"##뀠":13411,"##렫":13412,"##좝":13413,"##뷕":13414,"##뭣":13415,"##덪":13416,"##뾰":13417,"##읙":13418,"##넼":13419,"##삑":13420,"##괸":13421,"##쌉":13422,"##굣":13423,"##뤁":13424,"##칯":13425,"##놏":13426,"##콫":13427,"##뤂":13428,"##뗏":13429,"##콸":13430,"##뭍":13431,"##챤":13432,"##솁":13433,"##켯":13434,"##앎":13435,"##웤":13436,"##쏼":13437,"##욹":13438,"##쥘":13439,"##퉈":13440,"##묄":13441,"##묠":13442,"##훜":13443,"##씁":13444,"##윾":13445,"##쏨":13446,"##껜":13447,"##눞":13448,"##쨧":13449,"##뉨":13450,"##똔":13451,"##넖":13452,"##밣":13453,"##촙":13454,"##햤":13455,"##떰":13456,"##먐":13457,"##ㅞ":13458,"##둟":13459,"##퉜":13460,"##쿳":13461,"##굶":13462,"##헙":13463,"##툿":13464,"##궉":13465,"##먄":13466,"##샜":13467,"##줫":13468,"##퉤":13469,"##섣":13470,"##죰":13471,"##줴":13472,"##퇘":13473,"##쿈":13474,"##뉸":13475,"##헣":13476,"##뿝":13477,"##빱":13478,"##쇨":13479,"##롹":13480,"##땍":13481,"##쏟":13482,"##앟":13483,"##킁":13484,"##쎘":13485,"##벰":13486,"##띨":13487,"##챱":13488,"##캤":13489,"##녈":13490,"##챃":13491,"##뢸":13492,"##긱":13493,"##뻴":13494,"##쳅":13495,"##믖":13496,"##팖":13497,"##췻":13498,"##벜":13499,"##삣":13500,"##쟜":13501,"##댠":13502,"##뻰":13503,"##웸":13504,"##쩜":13505,"##촥":13506,"##짇":13507,"##졈":13508,"##쫭":13509,"##튄":13510,"##쉡":13511,"##괌":13512,"##탶":13513,"##뷴":13514,"##꿋":13515,"##옝":13516,"##븅":13517,"##촤":13518,"##텻":13519,"##폅":13520,"##휜":13521,"##ㅘ":13522,"##켑":13523,"##쌘":13524,"##즤":13525,"##폔":13526,"##뱁":13527,"##럇":13528,"##헷":13529,"##붑":13530,"##톩":13531,"##꺵":13532,"##쎵":13533,"##듷":13534,"##갹":13535,"##멌":13536,"##몪":13537,"##떫":13538,"##쫌":13539,"##깰":13540,"##횃":13541,"##솃":13542,"##밉":13543,"##뚀":13544,"##툐":13545,"##릣":13546,"##닻":13547,"##쳔":13548,"##컾":13549,"##읅":13550,"##욥":13551,"##늴":13552,"##훨":13553,"##됫":13554,"##앢":13555,"##벱":13556,"##귯":13557,"##뺄":13558,"##껫":13559,"##뛸":13560,"##믕":13561,"##잿":13562,"##얔":13563,"##럈":13564,"##텦":13565,"##큠":13566,"##쨋":13567,"##넸":13568,"##닏":13569,"##큣":13570,"##슺":13571,"##큿":13572,"##쳑":13573,"##퐝":13574,"##쩰":13575,"##퀑":13576,"##뗄":13577,"##쀳":13578,"##껚":13579,"##귿":13580,"##끅":13581,"##쾡":13582,"##갉":13583,"##뺐":13584,"##뗀":13585,"##빳":13586,"##캴":13587,"##곬":13588,"##겋":13589,"##휙":13590,"##떅":13591,"##죈":13592,"##츰":13593,"##꼮":13594,"##윷":13595,"##닁":13596,"##랔":13597,"##덬":13598,"##뤀":13599,"##춴":13600,"##젋":13601,"##춍":13602,"##뗑":13603,"##뒑":13604,"##뙗":13605,"##퀙":13606,"##랓":13607,"##쥠":13608,"##얕":13609,"##뱐":13610,"##낟":13611,"##탰":13612,"##톄":13613,"##굇":13614,"##뮹":13615,"##쒞":13616,"##낏":13617,"##쪙":13618,"##긺":13619,"##밞":13620,"##맏":13621,"##왘":13622,"##닪":13623,"##씐":13624,"##섐":13625,"##믜":13626,"##핡":13627,"##븜":13628,"##쀍":13629,"##욨":13630,"##땁":13631,"##깈":13632,"##뉠":13633,"##엾":13634,"##뵙":13635,"##덣":13636,"##킄":13637,"##핰":13638,"##쏩":13639,"##븠":13640,"##냨":13641,"##엃":13642,"##쎔":13643,"##옾":13644,"##룃":13645,"##혠":13646,"##쥿":13647,"##겝":13648,"##턍":13649,"##퇀":13650,"##딹":13651,"##삳":13652,"##븃":13653,"##핟":13654,"##갇":13655,"##꽹":13656,"##뗴":13657,"##왱":13658,"##쐈":13659,"##댱":13660,"##맂":13661,"##믌":13662,"##싁":13663,"##핱":13664,"##썻":13665,"##닺":13666,"##퓩":13667,"##삵":13668,"##":13669,"##욿":13670,"##쳬":13671,"##챦":13672,"##쟐":13673,"##곩":13674,"##퀠":13675,"##츌":13676,"##픗":13677,"##팏":13678,"##졷":13679,"##쥣":13680,"##얒":13681,"##홯":13682,"##쨜":13683,"##뱨":13684,"##읃":13685,"##맆":13686,"##닞":13687,"##룯":13688,"##쑬":13689,"##쟉":13690,"##샄":13691,"##뇐":13692,"##삷":13693,"##샢":13694,"##쟎":13695,"##쎕":13696,"##쌐":13697,"##빧":13698,"##쑻":13699,"##펏":13700,"##탹":13701,"##벋":13702,"##쟹":13703,"##쳌":13704,"##팹":13705,"##쒀":13706,"##젱":13707,"##왷":13708,"##꽐":13709,"##왇":13710,"##횐":13711,"##읨":13712,"##뽄":13713,"##옒":13714,"##퐆":13715,"##돚":13716,"##댯":13717,"##갴":13718,"##눼":13719,"##닊":13720,"##훍":13721,"##햌":13722,"##샀":13723,"##엤":13724,"##섿":13725,"##쉅":13726,"##붸":13727,"##볓":13728,"##낐":13729,"##샂":13730,"##쫗":13731,"##찧":13732,"##푁":13733,"##솦":13734,"##퓐":13735,"##휄":13736,"##잗":13737,"##슸":13738,"##떵":13739,"##욬":13740,"##깩":13741,"##죳":13742,"##읭":13743,"##퍅":13744,"##팤":13745,"##뻣":13746,"##풉":13747,"##좇":13748,"##믙":13749,"##끠":13750,"##맀":13751,"##곙":13752,"##쭸":13753,"##톼":13754,"##앏":13755,"##뇸":13756,"##쯩":13757,"##퓬":13758,"##긿":13759,"##싴":13760,"##졘":13761,"##텊":13762,"##늡":13763,"##홓":13764,"##읋":13765,"##쾃":13766,"##훵":13767,"##밬":13768,"##끵":13769,"##짯":13770,"##겊":13771,"##랲":13772,"##훽":13773,"##슽":13774,"##즑":13775,"##샅":13776,"##킻":13777,"##훑":13778,"##뀢":13779,"##곻":13780,"##횔":13781,"##삡":13782,"##췐":13783,"##꾿":13784,"##쥥":13785,"##늗":13786,"##롼":13787,"##솬":13788,"##녯":13789,"##핮":13790,"##먕":13791,"##뼘":13792,"##됸":13793,"##흴":13794,"##긇":13795,"##헑":13796,"##흟":13797,"##껨":13798,"##쎅":13799,"##싣":13800,"##깹":13801,"##쎆":13802,"##맢":13803,"##밎":13804,"##탼":13805,"##륻":13806,"##횦":13807,"##튭":13808,"##멎":13809,"##쑝":13810,"##쮜":13811,"##쁀":13812,"##섁":13813,"##놘":13814,"##욍":13815,"##쉠":13816,"##횻":13817,"##봣":13818,"##솩":13819,"##틉":13820,"##멬":13821,"##햭":13822,"##잕":13823,"##뷧":13824,"##짊":13825,"##뚁":13826,"##땽":13827,"##퀧":13828,"##큄":13829,"##넗":13830,"##읊":13831,"##솹":13832,"##끕":13833,"##럤":13834,"##읖":13835,"##볫":13836,"##뿩":13837,"##깕":13838,"##롐":13839,"##쌜":13840,"##얭":13841,"##굥":13842,"##쌋":13843,"##됏":13844,"##싀":13845,"##밂":13846,"##톗":13847,"##꼄":13848,"##틜":13849,"##곌":13850,"##돵":13851,"##줜":13852,"##걲":13853,"##엫":13854,"##됄":13855,"##뽜":13856,"##샟":13857,"##셑":13858,"##꿧":13859,"##틍":13860,"##뽂":13861,"##륗":13862,"##샊":13863,"##뀙":13864,"##뚮":13865,"##쐙":13866,"##뽟":13867,"##뺙":13868,"##묜":13869,"##듼":13870,"##뵌":13871,"##깼":13872,"##곸":13873,"##떈":13874,"##얖":13875,"##픙":13876,"##몌":13877,"##휀":13878,"##턩":13879,"##묙":13880,"##븎":13881,"##엩":13882,"##랒":13883,"##앚":13884,"##뻉":13885,"##얐":13886,"##잏":13887,"##땋":13888,"##쳰":13889,"##뜽":13890,"##캰":13891,"##엜":13892,"##꿜":13893,"##싟":13894,"##걁":13895,"##걋":13896,"##뙳":13897,"##홂":13898,"##믽":13899,"##샶":13900,"##돝":13901,"##읗":13902,"##젭":13903,"##쇤":13904,"##랃":13905,"##럔":13906,"##읠":13907,"##섄":13908,"##쒂":13909,"##넀":13910,"##떱":13911,"##뺴":13912,"##엏":13913,"##짆":13914,"##잋":13915,"##칡":13916,"##숌":13917,"##밡":13918,"##줼":13919,"##됌":13920,"##뷍":13921,"##럅":13922,"##뺘":13923,"##쎠":13924,"##윘":13925,"##햫":13926,"##빋":13927,"##뼝":13928,"##먺":13929,"##귁":13930,"##굑":13931,"##녑":13932,"##닯":13933,"##뇻":13934,"##꺙":13935,"##멨":13936,"##즁":13937,"##봡":13938,"##밷":13939,"##싕":13940,"##툘":13941,"##핢":13942,"##엻":13943,"##닸":13944,"##뤌":13945,"##뇾":13946,"##엙":13947,"##뤨":13948,"##텬":13949,"##봍":13950,"##봌":13951,"##튝":13952,"##맼":13953,"##븥":13954,"##룄":13955,"##컽":13956,"##몯":13957,"##돡":13958,"##읓":13959,"##줸":13960,"##갘":13961,"##븨":13962,"##앺":13963,"##컄":13964,"##땔":13965,"##즥":13966,"##쥡":13967,"##듧":13968,"##넜":13969,"##넢":13970,"##띈":13971,"##쯘":13972,"##옺":13973,"##뿠":13974,"##컼":13975,"##쪗":13976,"##뎡":13977,"##햡":13978,"##쐬":13979,"##뵹":13980,"##놕":13981,"##쳥":13982,"##밐":13983,"##윶":13984,"##쭁":13985,"##솊":13986,"##꼇":13987,"##룐":13988,"##넡":13989,"##덞":13990,"##늕":13991,"##큩":13992,"##늅":13993,"##슙":13994,"##쫏":13995,"##묏":13996,"##띰":13997,"##냣":13998,"##붜":13999,"##갃":14000,"##꽦":14001,"##뗐":14002,"##띱":14003,"##푠":14004,"##췍":14005,"##텣":14006,"##푣":14007,"##뭬":14008,"##긩":14009,"##뵬":14010,"##쳡":14011,"##옭":14012,"##폽":14013,"##돇":14014,"##궡":14015,"##휨":14016,"##슶":14017,"##걜":14018,"##귝":14019,"##뀁":14020,"##뷓":14021,"##넫":14022,"##퇼":14023,"##횰":14024,"##욷":14025,"##쒠":14026,"##뎊":14027,"##뙤":14028,"##껒":14029,"##줃":14030,"##헜":14031,"##뫙":14032,"##꿏":14033,"##뿨":14034,"##벛":14035,"##캌":14036,"##눤":14037,"##뢔":14038,"##녂":14039,"##캢":14040,"##욦":14041,"##닰":14042,"##짔":14043,"##찯":14044,"##펵":14045,"##쎗":14046,"##떙":14047,"##붏":14048,"##븡":14049,"##볱":14050,"##뇩":14051,"##뗵":14052,"##뼤":14053,"##쾍":14054,"##쟘":14055,"##큳":14056,"##컿":14057,"##됼":14058,"##뇠":14059,"##춉":14060,"##츗":14061,"##킅":14062,"##맻":14063,"##먁":14064,"##홥":14065,"##졎":14066,"##휗":14067,"##롈":14068,"##뀻":14069,"##꾱":14070,"##롵":14071,"##뚸":14072,"##낻":14073,"##뤩":14074,"##웝":14075,"##궷":14076,"##놧":14077,"##룳":14078,"##쯥":14079,"##옅":14080,"##켘":14081,"##눝":14082,"##뽭":14083,"##줠":14084,"##퓙":14085,"##쪠":14086,"##췃":14087,"##퐄":14088,"##쓔":14089,"##쒜":14090,"##욀":14091,"##뜐":14092,"##뇬":14093,"##뒨":14094,"##봙":14095,"##몿":14096,"##셥":14097,"##쿙":14098,"##엊":14099,"##뀽":14100,"##콙":14101,"##됑":14102,"##굘":14103,"##듥":14104,"##땳":14105,"##흭":14106,"##붱":14107,"##캭":14108,"##풜":14109,"##튁":14110,"##뵜":14111,"##휭":14112,"##몥":14113,"##덍":14114,"##븰":14115,"##엨":14116,"##믏":14117,"##낍":14118,"##띾":14119,"##힣":14120,"##첱":14121,"##곀":14122,"##빝":14123,"##칳":14124,"##겤":14125,"##벧":14126,"##껐":14127,"##궨":14128,"##늰":14129,"##떘":14130,"##섧":14131,"##봔":14132,"##둅":14133,"##촡":14134,"##핶":14135,"##쫙":14136,"##캜":14137,"##뫁":14138,"##힜":14139,"##귺":14140,"##뽝":14141,"##낢":14142,"##뜳":14143,"##뭏":14144,"##햿":14145,"##좐":14146,"##훴":14147,"##앧":14148,"##븓":14149,"##멦":14150,"##튱":14151,"##틑":14152,"##똣":14153,"##읶":14154,"##훚":14155,"##뀩":14156,"##굦":14157,"##둩":14158,"##퉆":14159,"##엷":14160,"##넽":14161,"##뾔":14162,"##쮀":14163,"##볻":14164,"##읫":14165,"##탣":14166,"##롇":14167,"##맍":14168,"##죔":14169,"##죗":14170,"##냤":14171,"##츕":14172,"##듁":14173,"##휫":14174,"##쥽":14175,"##븝":14176,"##밪":14177,"##뢨":14178,"##짞":14179,"##뻡":14180,"##뀍":14181,"##썪":14182,"##쇳":14183,"##쪾":14184,"##훟":14185,"##돟":14186,"##퇜":14187,"##턻":14188,"##옿":14189,"##휏":14190,"##딋":14191,"##럄":14192,"##땹":14193,"##듫":14194,"##뎈":14195,"##홛":14196,"##둇":14197,"##쒼":14198,"##켙":14199,"##쟙":14200,"##뜁":14201,"##쌟":14202,"##땛":14203,"##긂":14204,"##푷":14205,"##굷":14206,"##궞":14207,"##귪":14208,"##궸":14209,"##궭":14210,"##궼":14211,"##팒":14212,"##읐":14213,"##핃":14214,"##훝":14215,"##싐":14216,"##뱓":14217,"##줭":14218,"##솓":14219,"##솰":14220,"##겿":14221,"##춝":14222,"##뙇":14223,"##콛":14224,"##쇙":14225,"##폕":14226,"##뜅":14227,"##퐳":14228,"##씼":14229,"##켔":14230,"##엪":14231,"##큽":14232,"##죙":14233,"##킼":14234,"##훰":14235,"##빟":14236,"##롫":14237,"##먓":14238,"##옄":14239,"##쁭":14240,"##붆":14241,"##옉":14242,"##뎢":14243,"##곯":14244,"##눽":14245,"##랰":14246,"##쇡":14247,"##룍":14248,"##쥑":14249,"##뙈":14250,"##맟":14251,"##섦":14252,"##엍":14253,"##껭":14254,"##쳘":14255,"##륽":14256,"##믤":14257,"##꿎":14258,"##퉷":14259,"##샠":14260,"##휸":14261,"##숖":14262,"##몭":14263,"##뾆":14264,"##닒":14265,"##혬":14266,"##뚬":14267,"##묾":14268,"##얾":14269,"##쏽":14270,"##푝":14271,"##쨕":14272,"##틂":14273,"##풰":14274,"##큺":14275,"##딺":14276,"##핚":14277,"##롶":14278,"##걳":14279,"##쩄":14280,"##톺":14281,"##햰":14282,"##쿽":14283,"##탙":14284,"##룝":14285,"##썁":14286,"##틓":14287,"##툥":14288,"##괋":14289,"##뀝":14290,"##풒":14291,"##젵":14292,"##퇸":14293,"##뒁":14294,"##붹":14295,"##읎":14296,"##죸":14297,"##밠":14298,"##턀":14299,"##엳":14300,"##츹":14301,"##돞":14302,"##뚞":14303,"##넠":14304,"##겧":14305,"##쯋":14306,"##돓":14307,"##홑":14308,"##뜹":14309,"##퍀":14310,"##툑":14311,"##힠":14312,"##뿟":14313,"##띁":14314,"##솸":14315,"##좔":14316,"##떯":14317,"##쌨":14318,"##앆":14319,"##롮":14320,"##뭩":14321,"##졤":14322,"##퀩":14323,"##뒥":14324,"##쐰":14325,"##얺":14326,"##쿌":14327,"##긘":14328,"##괃":14329,"##푕":14330,"##젧":14331,"##텽":14332,"##꼍":14333,"##늼":14334,"##똬":14335,"##엶":14336,"##롁":14337,"##뻿":14338,"##겇":14339,"##퀏":14340,"##슮":14341,"##꺘":14342,"##륶":14343,"##둉":14344,"##됵":14345,"##젶":14346,"##뻇":14347,"##늒":14348,"##퓍":14349,"##헠":14350,"##붊":14351,"##셖":14352,"##곖":14353,"##펔":14354,"##뉫":14355,"##쫩":14356,"##껗":14357,"##탵":14358,"##뺩":14359,"##엋":14360,"##늫":14361,"##꽜":14362,"##둄":14363,"##믁":14364,"##닜":14365,"##킈":14366,"##껶":14367,"##샏":14368,"##춋":14369,"##뷇":14370,"##땝":14371,"##짷":14372,"##섴":14373,"##웒":14374,"##릏":14375,"##뱝":14376,"##잪":14377,"##꼳":14378,"##뚯":14379,"##끟":14380,"##홨":14381,"##쯍":14382,"##썜":14383,"##딯":14384,"##릌":14385,"##뜫":14386,"##섥":14387,"##뒝":14388,"##묫":14389,"##헗":14390,"##뵥":14391,"##눨":14392,"##륩":14393,"##켣":14394,"##믛":14395,"##쪨":14396,"##늏":14397,"##뵑":14398,"##쑷":14399,"##칮":14400,"##쉪":14401,"##뮉":14402,"##덨":14403,"##퍌":14404,"##렡":14405,"##댚":14406,"##봥":14407,"##웦":14408,"##밯":14409,"##묑":14410,"##뛩":14411,"##쫜":14412,"##촷":14413,"##팂":14414,"##킾":14415,"##쥭":14416,"##캋":14417,"##섵":14418,"##뼌":14419,"##얜":14420,"##콉":14421,"##놐":14422,"##릋":14423,"##닽":14424,"##왉":14425,"##켱":14426,"##옼":14427,"##쒹":14428,"##늩":14429,"##댥":14430,"##뛝":14431,"##땨":14432,"##쒱":14433,"##뛔":14434,"##뺵":14435,"##쏌":14436,"##돨":14437,"##릔":14438,"##햚":14439,"##귕":14440,"##굻":14441,"##낞":14442,"##잴":14443,"##잫":14444,"##쵝":14445,"##끾":14446,"##퐐":14447,"##쟬":14448,"##왹":14449,"##쮝":14450,"##괏":14451,"##릘":14452,"##줵":14453,"##줐":14454,"##슲":14455,"##쯱":14456,"##숳":14457,"##꺃":14458,"##쳗":14459,"##뙭":14460,"##븟":14461,"##웚":14462,"##욌":14463,"##맅":14464,"##긑":14465,"##옡":14466,"##묷":14467,"##긧":14468,"##줎":14469,"##앖":14470,"##칢":14471,"##쎼":14472,"##쨤":14473,"##챡":14474,"##뼥":14475,"##잆":14476,"##덦":14477,"##벏":14478,"##툇":14479,"##뒕":14480,"##뫞":14481,"##뿷":14482,"##땞":14483,"##뒗":14484,"##롊":14485,"##끡":14486,"##쩃":14487,"##돴":14488,"##갼":14489,"##쟀":14490,"##씯":14491,"##쩻":14492,"##륫":14493,"##뎟":14494,"##븸":14495,"##짘":14496,"##잨":14497,"##듵":14498,"##툉":14499,"##켇":14500,"##굄":14501,"##쾀":14502,"##혿":14503,"##몃":14504,"##둴":14505,"##긐":14506,"##숡":14507,"##쿸":14508,"##쯬":14509,"##윞":14510,"##짫":14511,"##넒":14512,"##쇅":14513,"##둙":14514,"##덝":14515,"##꽇":14516,"##쌧":14517,"##짂":14518,"##쬘":14519,"##꼉":14520,"##읧":14521,"##꿂":14522,"##뭠":14523,"##눜":14524,"##쩸":14525,"##궄":14526,"##쉒":14527,"##곹":14528,"##쟂":14529,"##릳":14530,"##븕":14531,"##뭭":14532,"##뫟":14533,"##꽛":14534,"##뱟":14535,"##쳠":14536,"##퐞":14537,"##췁":14538,"##앝":14539,"##짗":14540,"##윹":14541,"##팈":14542,"##싳":14543,"##웓":14544,"##닾":14545,"##퍈":14546,"##햝":14547,"##꿻":14548,"##퉱":14549,"##끍":14550,"##휽":14551,"##삤":14552,"##덭":14553,"##궹":14554,"##킠":14555,"##뎜":14556,"##캿":14557,"##틷":14558,"##젙":14559,"##뺸":14560,"##겢":14561,"##돎":14562,"##죨":14563,"##쵁":14564,"##첟":14565,"##칟":14566,"##섻":14567,"##냬":14568,"##뵘":14569,"##푄":14570,"##휵":14571,"##툻":14572,"##깆":14573,"##얶":14574,"##렣":14575,"##듟":14576,"##얠":14577,"##퓻":14578,"##쀏":14579,"##긶":14580,"##솤":14581,"##썡":14582,"##냡":14583,"##젴":14584,"##봘":14585,"##슯":14586,"##렦":14587,"##멉":14588,"##쯰":14589,"##웱":14590,"##컶":14591,"##웈":14592,"##밨":14593,"##릯":14594,"##윜":14595,"##덿":14596,"##놰":14597,"##옯":14598,"##숸":14599,"##쭊":14600,"##칱":14601,"##왰":14602,"##꺗":14603,"##촵":14604,"##솧":14605,"##낔":14606,"##횅":14607,"##뵀":14608,"##쩅":14609,"##뫃":14610,"##뽓":14611,"##밻":14612,"##싢":14613,"##섊":14614,"##좬":14615,"##벆":14616,"##뵨":14617,"##걼":14618,"##댝":14619,"##쮠":14620,"##슡":14621,"##럌":14622,"##겕":14623,"##냙":14624,"##첡":14625,"##앛":14626,"##읇":14627,"##횄":14628,"##뢍":14629,"##븏":14630,"##뚵":14631,"##빎":14632,"##몔":14633,"##봊":14634,"##릵":14635,"##뤤":14636,"##싈":14637,"##킸":14638,"##욛":14639,"##끎":14640,"##뤈":14641,"##뾸":14642,"##긌":14643,"##뫈":14644,"##팉":14645,"##퍙":14646,"##쎽":14647,"##쏲":14648,"##늚":14649,"##뎦":14650,"##벾":14651,"##띃":14652,"##멭":14653,"##딮":14654,"##텹":14655,"##꿝":14656,"##깯":14657,"##큉":14658,"##얙":14659,"##죡":14660,"##떥":14661,"##긷":14662,"##먿":14663,"##틧":14664,"##옂":14665,"##묽":14666,"##뭑":14667,"##넚":14668,"##썌":14669,"##텰":14670,"##썀":14671,"##뷋":14672,"##싰":14673,"##옰":14674,"##텗":14675,"##싮":14676,"##웊":14677,"##웥":14678,"##쀒":14679,"##맇":14680,"##곪":14681,"##밗":14682,"##퀫":14683,"##쩠":14684,"##턉":14685,"##꺑":14686,"##콪":14687,"##엗":14688,"##쬼":14689,"##벹":14690,"##렆":14691,"##맕":14692,"##갵":14693,"##맽":14694,"##픖":14695,"##틊":14696,"##폘":14697,"##먗":14698,"##놑":14699,"##븉":14700,"##갷":14701,"##픝":14702,"##벟":14703,"##덙":14704,"##쵼":14705,"##벲":14706,"##캆":14707,"##쥤":14708,"##뜵":14709,"##줮":14710,"##꺤":14711,"##웕":14712,"##뻄":14713,"##븬":14714,"##뭡":14715,"##멂":14716,"##돰":14717,"##셐":14718,"##끨":14719,"##붗":14720,"##풂":14721,"##넎":14722,"##댸":14723,"##녬":14724,"##햟":14725,"##쫘":14726,"##쐉":14727,"##햊":14728,"##핕":14729,"##뭴":14730,"##캊":14731,"##둏":14732,"##옽":14733,"##쎙":14734,"##슢":14735,"##찣":14736,"##헁":14737,"##켞":14738,"##갞":14739,"##쯉":14740,"##롑":14741,"##쨥":14742,"##럶":14743,"##퀭":14744,"##궛":14745,"##햬":14746,"##닲":14747,"##켮":14748,"##펰":14749,"##섈":14750,"##탏":14751,"##랎":14752,"##걩":14753,"##곅":14754,"##욉":14755,"##깢":14756,"##둪":14757,"##꼻":14758,"##앒":14759,"##꿱":14760,"##걌":14761,"##녛":14762,"##탇":14763,"##뺠":14764,"##쌥":14765,"##펲":14766,"##튔":14767,"##솠":14768,"##슦":14769,"##몋":14770,"##뚐":14771,"##앾":14772,"##셟":14773,"##퓟":14774,"##볔":14775,"##홐":14776,"##겦":14777,"##웆":14778,"##퍝":14779,"##둧":14780,"##뽥":14781,"##혅":14782,"##뵷":14783,"##뤔":14784,"##쉤":14785,"##갋":14786,"##덌":14787,"##싄":14788,"##탖":14789,"##뢓":14790,"##뱍":14791,"##욼":14792,"##긕":14793,"##밢":14794,"##깪":14795,"##갣":14796,"##쟇":14797,"##띌":14798,"##뷤":14799,"##셣":14800,"##삧":14801,"##뗔":14802,"##졐":14803,"##뇄":14804,"##떧":14805,"##궆":14806,"##핺":14807,"##숮":14808,"##렠":14809,"##쫅":14810,"##릠":14811,"##봈":14812,"##쌑":14813,"##햎":14814,"##훡":14815,"##꽅":14816,"##믯":14817,"##랣":14818,"##땗":14819,"##쫍":14820,"##쨱":14821,"##돆":14822,"##쩹":14823,"##읺":14824,"##옑":14825,"##똏":14826,"##봒":14827,"##븘":14828,"##혯":14829,"##뢘":14830,"##뱽":14831,"##쟨":14832,"##룥":14833,"##뗜":14834,"##쐇":14835,"##큮":14836,"##삻":14837,"##윻":14838,"##췽":14839,"##됙":14840,"##빪":14841,"##뀀":14842,"##깇":14843,"##푤":14844,"##놇":14845,"##붠":14846,"##쑊":14847,"##슄":14848,"##듶":14849,"##욯":14850,"##퉥":14851,"##쐑":14852,"##홝":14853,"##얃":14854,"##쩧":14855,"##짦":14856,"##곲":14857,"##횞":14858,"##삾":14859,"##곺":14860,"##쁟":14861,"##젏":14862,"##폵":14863,"##숧":14864,"##쵠":14865,"##댇":14866,"##벯":14867,"##딬":14868,"##냩":14869,"##딈":14870,"##쁋":14871,"##젛":14872,"##밁":14873,"##궝":14874,"##퀌":14875,"##쉙":14876,"##릊":14877,"##뱔":14878,"##걘":14879,"##핻":14880,"##텆":14881,"##쟣":14882,"##낛":14883,"##읷":14884,"##덗":14885,"##쥩":14886,"##뚭":14887,"##뎍":14888,"##쉖":14889,"##댧":14890,"##튘":14891,"##즂":14892,"##콬":14893,"##믠":14894,"##솖":14895,"##읹":14896,"##씺":14897,"##겓":14898,"##먘":14899,"##멑":14900,"##뎋":14901,"##엒":14902,"##뺼":14903,"##괍":14904,"##귾":14905,"##랻":14906,"##챺":14907,"##뎻":14908,"##옸":14909,"##멏":14910,"##렺":14911,"##쌷":14912,"##쑴":14913,"##걈":14914,"##먜":14915,"##쬥":14916,"##뤗":14917,"##핓":14918,"##뇔":14919,"##걓":14920,"##욺":14921,"##뻨":14922,"##퉨":14923,"##뇝":14924,"##벴":14925,"##틘":14926,"##쾈":14927,"##늨":14928,"##뇹":14929,"##뉻":14930,"##갊":14931,"##젆":14932,"##쑘":14933,"##툵":14934,"##왧":14935,"##뷃":14936,"##즨":14937,"##먃":14938,"##삜":14939,"##뺭":14940,"##뱄":14941,"##붘":14942,"##씄":14943,"##뤅":14944,"##퀍":14945,"##먈":14946,"##걐":14947,"##쉨":14948,"##혂":14949,"##렄":14950,"##붝":14951,"##뻭":14952,"##뷛":14953,"##헼":14954,"##뉔":14955,"##둗":14956,"##뿓":14957,"##츅":14958,"##롓":14959,"##벫":14960,"##벩":14961,"##펡":14962,"##뗃":14963,"##왚":14964,"##굸":14965,"##쌴":14966,"##쒕":14967,"##췅":14968,"##껃":14969,"##혤":14970,"##퍕":14971,"##핽":14972,"##댤":14973,"##딭":14974,"##쁶":14975,"##벐":14976,"##쎀":14977,"##슠":14978,"##뉩":14979,"##읪":14980,"##럳":14981,"##틐":14982,"##궯":14983,"##셦":14984,"##뚼":14985,"##딲":14986,"##넏":14987,"##퇵":14988,"##쵹":14989,"##빜":14990,"##뒵":14991,"##딍":14992,"##맜":14993,"##휅":14994,"##쒓":14995,"##휑":14996,"##둰":14997,"##뽱":14998,"##겾":14999,"##걕":15000,"##췸":15001,"##랆":15002,"##꼯":15003,"##삠":15004,"##곃":15005,"##밮":15006,"##흧":15007,"##쏸":15008,"##쿩":15009,"##윀":15010,"##쩽":15011,"##욭":15012,"##좂":15013,"##톸":15014,"##힗":15015,"##믻":15016,"##쮹":15017,"##웇":15018,"##뭌":15019,"##쑟":15020,"##럲":15021,"##껼":15022,"##쵀":15023,"##붼":15024,"##곴":15025,"##홤":15026,"##돧":15027,"##픞":15028,"##싷":15029,"##윥":15030,"##껩":15031,"##쒐":15032,"##뭎":15033,"##렏":15034,"##죷":15035,"##찓":15036,"##퐌":15037,"##렿":15038,"##콣":15039,"##랳":15040,"##둿":15041,"##좈":15042,"##잩":15043,"##쏱":15044,"##찱":15045,"##챂":15046,"##쓉":15047,"##볌":15048,"##럻":15049,"##잞":15050,"##볽":15051,"##웧":15052,"##삒":15053,"##쳿":15054,"##낲":15055,"##햛":15056,"##훯":15057,"##쁌":15058,"##횝":15059,"##꺀":15060,"##깉":15061,"##떢":15062,"##뭵":15063,"##뻼":15064,"##뷀":15065,"##쏏":15066,"##쇗":15067,"##죹":15068,"##륷":15069,"##윁":15070,"##븞":15071,"##릾":15072,"##듮":15073,"##븩":15074,"##엵":15075,"##쎃":15076,"##횢":15077,"##묺":15078,"##붛":15079,"##휔":15080,"##찭":15081,"##띙":15082,"##꺆":15083,"##챞":15084,"##눶":15085,"##홱":15086,"##쳴":15087,"##흿":15088,"##쥌":15089,"##퉅":15090,"##꼔":15091,"##벉":15092,"##흝":15093,"##넟":15094,"##냟":15095,"##팦":15096,"##눟":15097,"##챼":15098,"##뺅":15099,"##붰":15100,"##졵":15101,"##첲":15102,"##녿":15103,"##듓":15104,"##듨":15105,"##쌞":15106,"##즏":15107,"##뾼":15108,"##챶":15109,"##춛":15110,"##콻":15111,"##잒":15112,"##렼":15113,"##읿":15114,"##릥":15115,"##뚥":15116,"##풸":15117,"##욽":15118,"##욝":15119,"##샼":15120,"##켼":15121,"##웋":15122,"##힁":15123,"##쀾":15124,"##룁":15125,"##폥":15126,"##뽤":15127,"##좜":15128,"##뤃":15129,"##긲":15130,"##슻":15131,"##걿":15132,"##츩":15133,"##븻":15134,"##쳈":15135,"##튓":15136,"##읰":15137,"##폮":15138,"##폑":15139,"##룪":15140,"##퇄":15141,"##쟆":15142,"##덷":15143,"##폯":15144,"##춀":15145,"##캼":15146,"##뗬":15147,"##캪":15148,"##붤":15149,"##굡":15150,"##됍":15151,"##뤯":15152,"##룱":15153,"##졩":15154,"##얫":15155,"##럷":15156,"##혱":15157,"##땩":15158,"##쟠":15159,"##뫅":15160,"##똡":15161,"##삮":15162,"##벷":15163,"##팊":15164,"##묨":15165,"##롕":15166,"##읳":15167,"##쁢":15168,"##맃":15169,"##뀓":15170,"##뎄":15171,"##춇":15172,"##둈":15173,"##뾘":15174,"##욾":15175,"##쁴":15176,"##끆":15177,"##딻":15178,"##즵":15179,"##옫":15180,"##쾬":15181,"##얷":15182,"##턋":15183,"##쭓":15184,"##덀":15185,"##괂":15186,"##깏":15187,"##쬿":15188,"##웎":15189,"##쿶":15190,"##푿":15191,"##꽭":15192,"##읆":15193,"##칣":15194,"##뿛":15195,"##좹":15196,"##씤":15197,"##얅":15198,"##큻":15199,"##흨":15200,"##혉":15201,"##뭋":15202,"##둽":15203,"##궬":15204,"##웗":15205,"##쩩":15206,"##뛗":15207,"##븪":15208,"##끜":15209,"##쭨":15210,"##쀵":15211,"##봴":15212,"##췼":15213,"##엝":15214,"##탘":15215,"##볈":15216,"##쬲":15217,"##섨":15218,"##쇵":15219,"##웛":15220,"##뛣":15221,"##홣":15222,"##꾫":15223,"##긤":15224,"##뉙":15225,"##쎂":15226,"##뎂":15227,"##닶":15228,"##쨀":15229,"##쑌":15230,"##섡":15231,"##웉":15232,"##듰":15233,"##찎":15234,"##꽊":15235,"##킽":15236,"##붚":15237,"##퉭":15238,"##즡":15239,"##춣":15240,"##풱":15241,"##녇":15242,"##쀓":15243,"##쭀":15244,"##뿁":15245,"##윋":15246,"##첯":15247,"##쿔":15248,"##뭈":15249,"##뒫":15250,"##횸":15251,"##픟":15252,"##앻":15253,"##돖":15254,"##왒":15255,"##밦":15256,"##녝":15257,"##졜":15258,"##쥇":15259,"##똫":15260,"##놥":15261,"##슆":15262,"##넞":15263,"##즯":15264,"##퐠":15265,"##싻":15266,"##꺌":15267,"##굠":15268,"##쿏":15269,"##맫":15270,"##왯":15271,"##헰":15272,"##귻":15273,"##뚧":15274,"##퐅":15275,"##왬":15276,"##녺":15277,"##릮":15278,"##딷":15279,"##켝":15280,"##픨":15281,"##쓲":15282,"##닑":15283,"##슟":15284,"##썄":15285,"##쟞":15286,"##훓":15287,"##뫀":15288,"##덻":15289,"##쬷":15290,"##홅":15291,"##쌻":15292,"##풇":15293,"##솼":15294,"##륐":15295,"##놯":15296,"##닟":15297,"##듹":15298,"##셊":15299,"##쵮":15300,"##폇":15301,"##텉":15302,"##핁":15303,"##뚷":15304,"##젇":15305,"##맊":15306,"##괠":15307,"##뜄":15308,"##왛":15309,"##롴":15310,"##땈":15311,"##홇":15312,"##톧":15313,"##뻠":15314,"##몊":15315,"##삝":15316,"##꿕":15317,"##쀄":15318,"##뤳":15319,"##줙":15320,"##쟄":15321,"##윸":15322,"##솏":15323,"##뾲":15324,"##룺":15325,"##뗠":15326,"##옃":15327,"##윝":15328,"##츻":15329,"##췜":15330,"##얆":15331,"##쏫":15332,"##쉏":15333,"##뱆":15334,"##믇":15335,"##렢":15336,"##탿":15337,"##쩼":15338,"##퐤":15339,"##긆":15340,"##쩟":15341,"##럘":15342,"##믬":15343,"##헡":15344,"##깂":15345,"##낶":15346,"##샫":15347,"##튻":15348,"##뇜":15349,"##빖":15350,"##젮":15351,"##띳":15352,"##뼜":15353,"##컭":15354,"##졧":15355,"##씥":15356,"##헽":15357,"##깤":15358,"##긊":15359,"##텥":15360,"##쓺":15361,"##믗":15362,"##깓":15363,"##슀":15364,"##샆":15365,"##졲":15366,"##믱":15367,"##걉":15368,"##굈":15369,"##껙":15370,"##팛":15371,"##뼸":15372,"##읁":15373,"##똽":15374,"##뢀":15375,"##밫":15376,"##쩒":15377,"##깳":15378,"##꺐":15379,"##끋":15380,"##댼":15381,"##왖":15382,"##툱":15383,"##좸":15384,"##꾁":15385,"##돫":15386,"##벸":15387,"##랋":15388,"##둫":15389,"##꿴":15390,"##첮":15391,"##쎤":15392,"##뎝":15393,"##쒴":15394,"##퐃":15395,"##췛":15396,"##멮":15397,"##쉇":15398,"##츞":15399,"##섮":15400,"##짒":15401,"##쵤":15402,"##쟥":15403,"##씋":15404,"##픳":15405,"##벝":15406,"##횾":15407,"##뺫":15408,"##뛃":15409,"##괧":15410,"##쭵":15411,"##옜":15412,"##괆":15413,"##헔":15414,"##톋":15415,"##씉":15416,"##쮓":15417,"##봫":15418,"##뿎":15419,"##젟":15420,"##쐥":15421,"##옓":15422,"##곕":15423,"##놁":15424,"##뒿":15425,"##댊":15426,"##쑁":15427,"##줒":15428,"##갂":15429,"##잚":15430,"##벖":15431,"##빩":15432,"##쭟":15433,"##젺":15434,"##쏻":15435,"##쿗":15436,"##좊":15437,"##둍":15438,"##괬":15439,"##숞":15440,"##싨":15441,"##뺍":15442,"##듳":15443,"##틆":15444,"##놂":15445,"##퇙":15446,"##씝":15447,"##촾":15448,"##죶":15449,"##꺏":15450,"##쫣":15451,"##똵":15452,"##뽧":15453,"##꽑":15454,"##쁥":15455,"##봗":15456,"##뛷":15457,"##뗻":15458,"##띧":15459,"##씡":15460,"##쯜":15461,"##츸":15462,"##탂":15463,"##뀰":15464,"##춭":15465,"##뗼":15466,"##웴":15467,"##쉩":15468,"##뎧":15469,"##뤕":15470,"##쵭":15471,"##깞":15472,"##밇":15473,"##깋":15474,"##핝":15475,"##땕":15476,"##럣":15477,"##늇":15478,"##썷":15479,"##틇":15480,"##쀡":15481,"##빾":15482,"##됰":15483,"##땸":15484,"##긞":15485,"##긏":15486,"##붵":15487,"##딀":15488,"##쁫":15489,"##킳":15490,"##쑐":15491,"##쁙":15492,"##됮":15493,"##쯪":15494,"##찷":15495,"##겣":15496,"##렧":15497,"##잂":15498,"##쑛":15499,"##핤":15500,"##팯":15501,"##덢":15502,"##쩖":15503,"##췹":15504,"##귶":15505,"##뙓":15506,"##촠":15507,"##죻":15508,"##벍":15509,"##툣":15510,"##튺":15511,"##쟴":15512,"##썎":15513,"##쾁":15514,"##롲":15515,"##먏":15516,"##킐":15517,"##텋":15518,"##쿜":15519,"##붯":15520,"##줛":15521,"##놗":15522,"##솫":15523,"##뗛":15524,"##몼":15525,"##돣":15526,"##뢐":15527,"##홳":15528,"##잓":15529,"##웫":15530,"##룫":15531,"##뺃":15532,"##뗣":15533,"##킌":15534,"##퐑":15535,"##뙨":15536,"##줕":15537,"##꿃":15538,"##굛":15539,"##댦":15540,"##쾽":15541,"##솑":15542,"##훞":15543,"##퇻":15544,"##솢":15545,"##쫋":15546,"##쎴":15547,"##떗":15548,"##촴":15549,"##쀠":15550,"##뼁":15551,"##귡":15552,"##긮":15553,"##깑":15554,"##뤰":15555,"##핣":15556,"##뙜":15557,"##뗶":15558,"##춱":15559,"##쑉":15560,"##톻":15561,"##됒":15562,"##왤":15563,"##짋":15564,"##삨":15565,"##빏":15566,"##꿐":15567,"##켚":15568,"##퉄":15569,"##컀":15570,"##뚦":15571,"##뛈":15572,"##뙡":15573,"##텤":15574,"##밲":15575,"##킆":15576,"##귚":15577,"##빂":15578,"##괐":15579,"##푭":15580,"##꼅":15581,"##뿀":15582,"##땻":15583,"##찃":15584,"##셷":15585,"##륮":15586,"##웖":15587,"##줓":15588,"##옟":15589,"##훳":15590,"##떟":15591,"##쌸":15592,"##턕":15593,"##둚":15594,"##볙":15595,"##휳":15596,"##똧":15597,"##썯":15598,"##햙":15599,"##멻":15600,"##땓":15601,"##흽":15602,"##앸":15603,"##짡":15604,"##돍":15605,"##췔":15606,"##쨖":15607,"##궇":15608,"##뚂":15609,"##턚":15610,"##떦":15611,"##핦":15612,"##곂":15613,"##꾕":15614,"##뜃":15615,"##똰":15616,"##쑜":15617,"##샒":15618,"##늖":15619,"##큎":15620,"##쫴":15621,"##큪":15622,"##핔":15623,"##숎":15624,"##짛":15625,"##궖":15626,"##궫":15627,"##궋":15628,"##렂":15629,"##텠":15630,"##좄":15631,"##럍":15632,"##띕":15633,"##붭":15634,"##캍":15635,"##쑼":15636,"##옲":15637,"##넁":15638,"##돳":15639,"##돿":15640,"##썐":15641,"##뫌":15642,"##떋":15643,"##뮝":15644,"##읂":15645,"##쿹":15646,"##씍":15647,"##꺕":15648,"##쟢":15649,"##턷":15650,"##싘":15651,"##묯":15652,"##뽙":15653,"##뚊":15654,"##릃":15655,"##븛":15656,"##봨":15657,"##쯸":15658,"##힏":15659,"##흇":15660,"##섷":15661,"##뗉":15662,"##왙":15663,"##뜼":15664,"##뷥":15665,"##떔":15666,"##츀":15667,"##횓":15668,"##쓿":15669,"##덖":15670,"##뼬":15671,"##줗":15672,"##빆":15673,"##춬":15674,"##륳":15675,"##풹":15676,"##븗":15677,"##짴":15678,"##홁":15679,"##똻":15680,"##씪":15681,"##뮜":15682,"##춯":15683,"##쓤":15684,"##쿧":15685,"##욻":15686,"##웷":15687,"##뤵":15688,"##뀪":15689,"##훃":15690,"##뚕":15691,"##퍠":15692,"##갅":15693,"##쁐":15694,"##죱":15695,"##쐴":15696,"##쳒":15697,"##좠":15698,"##뎰":15699,"##즷":15700,"##휱":15701,"##줅":15702,"##욳":15703,"##끤":15704,"##뛌":15705,"##얉":15706,"##떁":15707,"##퇗":15708,"##쭹":15709,"##얿":15710,"##퇍":15711,"##겈":15712,"##뱈":15713,"##쟻":15714,"##퐙":15715,"##졓":15716,"##쉟":15717,"##겴":15718,"##젅":15719,"##푴":15720,"##쪤":15721,"##쬭":15722,"##컈":15723,"##렞":15724,"##듛":15725,"##뜝":15726,"##챷":15727,"##쭛":15728,"##좧":15729,"##퓅":15730,"##챝":15731,"##픐":15732,"##럮":15733,"##쁍":15734,"##텩":15735,"##썝":15736,"##뿉":15737,"##췈":15738,"##틩":15739,"##똟":15740,"##긓":15741,"##궅":15742,"##뒺":15743,"##샻":15744,"##멷":15745,"##쇀":15746,"##쁵":15747,"##읾":15748,"##뺚":15749,"##셓":15750,"##껰":15751,"##잀":15752,"##긪":15753,"##먑":15754,"##촟":15755,"##륿":15756,"##옏":15757,"##챽":15758,"##뗳":15759,"##쨏":15760,"##첞":15761,"##틒":15762,"##혻":15763,"##윿":15764,"##엓":15765,"##껬":15766,"##죕":15767,"##셭":15768,"##픓":15769,"##챸":15770,"##젃":15771,"##켭":15772,"##돜":15773,"##탒":15774,"##왂":15775,"##뤡":15776,"##훇":15777,"##똴":15778,"##늿":15779,"##봠":15780,"##늭":15781,"##톮":15782,"##뫚":15783,"##댭":15784,"##궶":15785,"##궻":15786,"##랤":15787,"##궢":15788,"##젂":15789,"##캽":15790,"##뮷":15791,"##맗":15792,"##샸":15793,"##엞":15794,"##썋":15795,"##멐":15796,"##즞":15797,"##욣":15798,"##읈":15799,"##룴":15800,"##뗋":15801,"##첐":15802,"##톕":15803,"##뺶":15804,"##똈":15805,"##뢇":15806,"##붖":15807,"##뵽":15808,"##쏀":15809,"##춏":15810,"##닡":15811,"##칀":15812,"##긃":15813,"##꽯":15814,"##퉹":15815,"##쫔":15816,"##즠":15817,"##멶":15818,"##꼑":15819,"##뷉":15820,"##귔":15821,"##뎔":15822,"##튮":15823,"##셆":15824,"##힇":15825,"##쉛":15826,"##쏚":15827,"##헚":15828,"##큾":15829,"##텂":15830,"##닧":15831,"##걏":15832,"##멊":15833,"##릈":15834,"##퓹":15835,"##굗":15836,"##풅":15837,"##걾":15838,"##쵇":15839,"##숼":15840,"##낤":15841,"##쾩":15842,"##힚":15843,"##끑":15844,"##섺":15845,"##괗":15846,"##쑦":15847,"##콦":15848,"##놃":15849,"##삗":15850,"##옠":15851,"##칽":15852,"##뗆":15853,"##쇱":15854,"##묳":15855,"##휋":15856,"##픎":15857,"##륾":15858,"##쫫":15859,"##펖":15860,"##좟":15861,"##씔":15862,"##럯":15863,"##깣":15864,"##됈":15865,"##슧":15866,"##잙":15867,"##뤙":15868,"##괙":15869,"##똗":15870,"##껵":15871,"##흎":15872,"##흓":15873,"##돘":15874,"##퓜":15875,"##픤":15876,"##쀨":15877,"##렾":15878,"##뭊":15879,"##뿮":15880,"##뱦":15881,"##춸":15882,"##쬴":15883,"##홪":15884,"##냌":15885,"##웳":15886,"##줆":15887,"##꿯":15888,"##궳":15889,"##릆":15890,"##윟":15891,"##럸":15892,"##퍗":15893,"##낣":15894,"##걺":15895,"##긬":15896,"##큫":15897,"##맓":15898,"##싧":15899,"##댋":15900,"##핿":15901,"##줊":15902,"##닚":15903,"##랛":15904,"##뻈":15905,"##솻":15906,"##볟":15907,"##엱":15908,"##튑":15909,"##풴":15910,"##앩":15911,"##킦":15912,"##쯈":15913,"##몓":15914,"##멛":15915,"##맒":15916,"##뇓":15917,"##븁":15918,"##쪌":15919,"##뭗":15920,"##홭":15921,"##닍":15922,"##냫":15923,"##귖":15924,"##뱋":15925,"##귥":15926,"##캈":15927,"##퉌":15928,"##핗":15929,"##뗗":15930,"##좥":15931,"##컅":15932,"##칞":15933,"##몟":15934,"##풑":15935,"##텇":15936,"##졶":15937,"##볃":15938,"##괳":15939,"##꺈":15940,"##폳":15941,"##멵":15942,"##핖":15943,"##댘":15944,"##럑":15945,"##뛹":15946,"##쾻":15947,"##핛":15948,"##맖":15949,"##졬":15950,"##픋":15951,"##벓":15952,"##먳":15953,"##뮻":15954,"##슞":15955,"##튎":15956,"##찳":15957,"##꼵":15958,"##봁":15959,"##랢":15960,"##꿑":15961,"##컺":15962,"##뿗":15963,"##욈":15964,"##겷":15965,"##솄":15966,"##츺":15967,"##븧":15968,"##쩎":15969,"##풮":15970,"##몴":15971,"##싲":15972,"##빞":15973,"##캵":15974,"##읟":15975,"##섟":15976,"##쪈":15977,"##쬈":15978,"##윛":15979,"##뮺":15980,"##훁":15981,"##띅":15982,"##쉄":15983,"##뷈":15984,"##쁅":15985,"##뺡":15986,"##뗡":15987,"##뗍":15988,"##굯":15989,"##숕":15990,"##뜜":15991,"##궚":15992,"##궺":15993,"##깒":15994,"##깛":15995,"##긛":15996,"##릀":15997,"##꺢":15998,"##섑":15999,"##콭":16000,"##쏄":16001,"##헭":16002,"##홒":16003,"##몁":16004,"##싞":16005,"##쨎":16006,"##벎":16007,"##칻":16008,"##쓍":16009,"##뷫":16010,"##뒓":16011,"##묗":16012,"##훋":16013,"##톲":16014,"##눀":16015,"##릁":16016,"##쎋":16017,"##킫":16018,"##댬":16019,"##궙":16020,"##첄":16021,"##꼠":16022,"##엦":16023,"##싦":16024,"##뎗":16025,"##껖":16026,"##쉉":16027,"##짿":16028,"##볠":16029,"##늧":16030,"##쨻":16031,"##쀽":16032,"##쵣":16033,"##헯":16034,"##뽴":16035,"##놬":16036,"##룧":16037,"##쥉":16038,"##틤":16039,"##놩":16040,"##됗":16041,"##쒯":16042,"##댛":16043,"##혭":16044,"##뙴":16045,"##빢":16046,"##쓋":16047,"##뜔":16048,"##뽘":16049,"##뀟":16050,"##긎":16051,"##꼤":16052,"##쬽":16053,"##꼣":16054,"##쁎":16055,"##꿸":16056,"##돩":16057,"##똄":16058,"##갨":16059,"##다.":16060,"##으로":16061,"##에서":16062,"##하는":16063,"20":16064,"##지만":16065,"##이다.":16066,"있다.":16067,"##었다.":16068,"##에게":16069,"##하고":16070,"201":16071,"##이라":16072,"##00":16073,"##한다.":16074,"있는":16075,"##고,":16076,"##다는":16077,"##다고":16078,"##했다.":16079,"##..":16080,"때문":16081,"##까지":16082,"19":16083,"##에는":16084,"##면서":16085,"##들이":16086,"##하게":16087,"##는데":16088,"##며,":16089,"한다.":16090,"##에서는":16091,"##적으로":16092,"경우":16093,"때문에":16094,"사용":16095,"##였다.":16096,"##적인":16097,"##레이":16098,"##하여":16099,"##부터":16100,"아니":16101,"이후":16102,"자신":16103,"##리고":16104,"공격":16105,"##해서":16106,"##하기":16107,"10":16108,"사람":16109,"##스트":16110,"##대로":16111,"##라는":16112,"##라고":16113,"##다가":16114,"##하면":16115,"##들은":16116,"##이나":16117,"다른":16118,"##지만,":16119,"정도":16120,"##되었다.":16121,"##들을":16122,"##으나":16123,"##지는":16124,"##에도":16125,"##기도":16126,"##들의":16127,"대한":16128,"등장":16129,"##하다.":16130,"##기를":16131,"##리는":16132,"200":16133,"것이":16134,"그리고":16135,"된다.":16136,"##기에":16137,"##하지":16138,"##되어":16139,"가능":16140,"아이":16141,"같은":16142,"들어":16143,"##er":16144,"하나":16145,"하는":16146,"사실":16147,"##으며,":16148,"하지만":16149,"12":16150,"게임":16151,"##으며":16152,"그러":16153,"시작":16154,"##하였다.":16155,"##는데,":16156,"##거나":16157,"모습":16158,"일본":16159,"이름":16160,"함께":16161,"##보다":16162,"##스터":16163,"##는다.":16164,"##리를":16165,"한국":16166,"##...":16167,"있었":16168,"##in":16169,"##이트":16170,"11":16171,"##이라고":16172,"위해":16173,"##았다.":16174,"##이라는":16175,"##된다.":16176,"##다면":16177,"##기가":16178,"것을":16179,"나오":16180,"이상":16181,"생각":16182,"만들":16183,"문제":16184,"##되는":16185,"##어서":16186,"##하며":16187,"또한":16188,"##니다.":16189,"##학교":16190,"따라":16191,"가장":16192,"##되었":16193,"##력을":16194,"프로":16195,"다시":16196,"##에서도":16197,"##리가":16198,"사이":16199,"당시":16200,"##릭터":16201,"##이었":16202,"##on":16203,"##지를":16204,"##처럼":16205,"되었다.":16206,"없는":16207,"캐릭터":16208,"##라이":16209,"##력이":16210,"모두":16211,"##데,":16212,"상대":16213,"##0년":16214,"##으면":16215,"15":16216,"##기는":16217,"없다.":16218,"상황":16219,"##an":16220,"플레이":16221,"모든":16222,"##or":16223,"결국":16224,"추가":16225,"것이다.":16226,"##8년":16227,"시간":16228,"##지고":16229,"했다.":16230,"것으로":16231,"##리아":16232,"##스의":16233,"##이지":16234,"현재":16235,"##이는":16236,"##9년":16237,"상태":16238,"##자가":16239,"자신의":16240,"보여":16241,"많이":16242,"것은":16243,"##하면서":16244,"그러나":16245,"다만":16246,"존재":16247,"##7년":16248,"##리스":16249,"다음":16250,"그런":16251,"보면":16252,"시즌":16253,"전투":16254,"18":16255,"미국":16256,"##리즈":16257,"##6년":16258,"스킬":16259,"##스를":16260,"매우":16261,"##ar":16262,"##성이":16263,"카드":16264,"많은":16265,"##.1":16266,"선수":16267,"199":16268,"세계":16269,"효과":16270,"##스가":16271,"##므로":16272,"##5년":16273,"그래":16274,"##he":16275,"나온":16276,"상당":16277,"##.0":16278,"##at":16279,"경기":16280,"##들에게":16281,"##인이":16282,"물론":16283,"아니라":16284,"않는":16285,"이용":16286,"지역":16287,"있었다.":16288,"처음":16289,"##가는":16290,"16":16291,"기록":16292,"이유":16293,"##가지":16294,"##4년":16295,"아닌":16296,"##사를":16297,"그렇":16298,"하고":16299,"자체":16300,"실제":16301,"돌아":16302,"##인다.":16303,"이런":16304,"여러":16305,"##-1":16306,"필요":16307,"##하였":16308,"##들과":16309,"##000":16310,"일반":16311,"시리즈":16312,"##부분":16313,"이미":16314,"##어진":16315,"13":16316,"바로":16317,"##지가":16318,"##이고":16319,"##하자":16320,"거의":16321,"##시키":16322,"역시":16323,"##졌다.":16324,"##en":16325,"라이":16326,"되어":16327,"해당":16328,"피해":16329,"##사가":16330,"##상을":16331,"##인지":16332,"특히":16333,"모습을":16334,"기술":16335,"##이스":16336,"영화":16337,"##시아":16338,"주인":16339,"30":16340,"14":16341,"##어나":16342,"##주의":16343,"기본":16344,"##도가":16345,"##ou":16346,"마법":16347,"통해":16348,"관련":16349,"진행":16350,"아무":16351,"이야":16352,"##장을":16353,"##기로":16354,"##3년":16355,"같이":16356,"17":16357,"##지막":16358,"##2년":16359,"수도":16360,"##라도":16361,"##에선":16362,"##했던":16363,"##성을":16364,"##국의":16365,"좋은":16366,"##로는":16367,"위치":16368,"제작":16369,"방송":16370,"##al":16371,"##거리":16372,"##st":16373,"##이가":16374,"##해야":16375,"대부분":16376,"되었":16377,"부분":16378,"사건":16379,"##이었다.":16380,"##주는":16381,"작품":16382,"마지막":16383,"스타":16384,"계속":16385,"##1년":16386,"증가":16387,"##20":16388,"참고":16389,"##린다.":16390,"##아서":16391,"##으나,":16392,"방어":16393,"않았":16394,"##르는":16395,"일부":16396,"않고":16397,"인간":16398,"달리":16399,"##스는":16400,"되는":16401,"있어":16402,"##로,":16403,"주인공":16404,"내용":16405,"##전히":16406,"서울":16407,"있을":16408,"##하고,":16409,"않은":16410,"보고":16411,"능력":16412,"활동":16413,"가지고":16414,"##리에":16415,"비슷":16416,"그냥":16417,"##으니":16418,"##시간":16419,"올라":16420,"레벨":16421,"이전":16422,"어느":16423,"##드는":16424,"국가":16425,"레이":16426,"##이며":16427,"100":16428,"##정을":16429,"##시에":16430,"인해":16431,"##어가":16432,"성공":16433,"그의":16434,"정도로":16435,"##re":16436,"대신":16437,"이를":16438,"##.2":16439,"수준":16440,"##dd":16441,"##인의":16442,"##드를":16443,"대해":16444,"지금":16445,"##자를":16446,"##장이":16447,"25":16448,"감독":16449,"##도록":16450,"상당히":16451,"##le":16452,"##자의":16453,"##수가":16454,"그녀":16455,"않는다.":16456,"##있는":16457,"대표":16458,"보인다.":16459,"높은":16460,"##10":16461,"최대":16462,"##위를":16463,"198":16464,"이동":16465,"기준":16466,"##it":16467,"##렸다.":16468,"것.":16469,"##마다":16470,"제외":16471,"타이":16472,"것도":16473,"##트를":16474,"너무":16475,"여기":16476,"그대로":16477,"인물":16478,"좋아":16479,"##와의":16480,"##되고":16481,"나타":16482,"이는":16483,"##로운":16484,"##ff":16485,"##리의":16486,"##사의":16487,"떨어":16488,"결과":16489,"중국":16490,"##도를":16491,"##들도":16492,"의미":16493,"대한민":16494,"##진다.":16495,"##려고":16496,"없이":16497,"직접":16498,"등의":16499,"##드의":16500,"##기의":16501,"##수를":16502,"##이션":16503,"전체":16504,"원래":16505,"받아":16506,"##스로":16507,"언급":16508,"##도로":16509,"-2":16510,"##이자":16511,"##ing":16512,"알려":16513,"##이며,":16514,"##전을":16515,"##ic":16516,"##르게":16517,"하다.":16518,"애니":16519,"만들어":16520,"##지도":16521,"동안":16522,"##리어":16523,"경우가":16524,"##.5":16525,"데미":16526,"##일에":16527,"##치는":16528,"자신이":16529,"관계":16530,"##로서":16531,"의해":16532,"##자는":16533,"있던":16534,"소속":16535,"##다!":16536,"##번째":16537,"##이지만":16538,"##대의":16539,"##습니다.":16540,"마음":16541,"시절":16542,"나오는":16543,"전쟁":16544,"##하지만":16545,"멤버":16546,"##정이":16547,"##인데":16548,"과거":16549,"유저":16550,"##으로,":16551,"지원":16552,"이것":16553,"##대를":16554,"문서":16555,"##우는":16556,"선택":16557,"##자.":16558,"2018년":16559,"이어":16560,"##드가":16561,"이에":16562,"유닛":16563,"포함":16564,"많다.":16565,"##스타":16566,"발매":16567,"##리지":16568,"##중에":16569,"그는":16570,"##하던":16571,"자기":16572,"최고":16573,"몬스터":16574,"엄청":16575,"##없이":16576,"위한":16577,"##등학교":16578,"50":16579,"##점을":16580,"설명":16581,"평가":16582,"방법":16583,"21":16584,"크게":16585,"##화를":16586,"##나는":16587,"출연":16588,"불가":16589,"나왔":16590,"아버":16591,"찾아":16592,"개발":16593,"스토":16594,"유명":16595,"연구":16596,"##과는":16597,"있으며,":16598,"##am":16599,"##치가":16600,"장면":16601,"만든":16602,"##치를":16603,"##인을":16604,"2019년":16605,"리그":16606,"영향":16607,"12월":16608,"2017년":16609,"##이드":16610,"사망":16611,"##어로":16612,"실제로":16613,"##되지":16614,"##하기도":16615,"이루":16616,"발생":16617,"7월":16618,"4월":16619,"있다는":16620,"##상이":16621,"초반":16622,"##어난":16623,"8월":16624,"조금":16625,"이때":16626,"말을":16627,"지나":16628,"##이기":16629,"##이를":16630,"3월":16631,"5월":16632,"##으로는":16633,"프랑":16634,"우승":16635,"9월":16636,"##트가":16637,"10월":16638,"##원이":16639,"22":16640,"##만큼":16641,"주로":16642,"6월":16643,"이러":16644,"##준다.":16645,"전부":16646,"2016년":16647,"##es":16648,"##전에서":16649,"공식":16650,"출신":16651,"##이어":16652,"무기":16653,"24":16654,"##머니":16655,"제대로":16656,"##전에":16657,"사라":16658,"운영":16659,"##랜드":16660,"아이템":16661,"사랑":16662,"인터":16663,"##el":16664,"소환":16665,"도시":16666,"하지":16667,"##과의":16668,"자주":16669,"중요":16670,"##식을":16671,"그것":16672,"##리그":16673,"##운드":16674,"##하며,":16675,"없었":16676,"##있다.":16677,"보여주":16678,"또는":16679,"최종":16680,"아직":16681,"공격력":16682,"1월":16683,"##명이":16684,"##일,":16685,"정보":16686,"the":16687,"최초":16688,"##명을":16689,"이렇":16690,"##om":16691,"##이크":16692,"##와는":16693,"서로":16694,"친구":16695,"참고로":16696,"##에서의":16697,"역할":16698,"학생":16699,"나온다.":16700,"학교":16701,"적이":16702,"이벤":16703,"있어서":16704,"강력":16705,"파괴":16706,"##-0":16707,"비해":16708,"기존":16709,"##이터":16710,"프리":16711,"##했을":16712,"가진":16713,"공개":16714,"##리카":16715,"노래":16716,"##la":16717,"여성":16718,"11월":16719,"23":16720,"비교":16721,"##격을":16722,"정말":16723,"마찬":16724,"##50":16725,"##자로":16726,"##였던":16727,"어떤":16728,"마찬가지":16729,"##is":16730,"강화":16731,"사회":16732,"등을":16733,"당연":16734,"해도":16735,"독일":16736,"##같은":16737,"변경":16738,"사람이":16739,"형태":16740,"결정":16741,"##히려":16742,"설정":16743,"##사는":16744,"유지":16745,"보통":16746,"##명의":16747,"##인은":16748,"##하려":16749,"##나라":16750,"바람":16751,"그런데":16752,"##동안":16753,"때문이다.":16754,"오히려":16755,"##개의":16756,"2015년":16757,"##니아":16758,"##서는":16759,"##수의":16760,"##라마":16761,"살아":16762,"##르면":16763,"아니다.":16764,"배우":16765,"##지의":16766,"##요.":16767,"##했고,":16768,"##스와":16769,"정신":16770,"##오는":16771,"##대에":16772,"후반":16773,"##군의":16774,"##프트":16775,"회복":16776,"##어도":16777,"##지어":16778,"##하거나":16779,"발견":16780,"##나가":16781,"아래":16782,"2월":16783,"##et":16784,"##점이":16785,"슈퍼":16786,"##음을":16787,"##물을":16788,"음악":16789,"게다가":16790,"알고":16791,"##분에":16792,"197":16793,"조선":16794,"##하다":16795,"드래":16796,"이번":16797,"이러한":16798,"않았다.":16799,"영상":16800,"##는지":16801,"유일":16802,"구성":16803,"##ol":16804,"##원을":16805,"행동":16806,"여자":16807,"있다고":16808,"40":16809,"있으며":16810,"있는데,":16811,"##ion":16812,"사실상":16813,"가까":16814,"그래서":16815,"주장":16816,"##어를":16817,"##,000":16818,"##이도":16819,"##트로":16820,"##nd":16821,"모양":16822,"##스템":16823,"##자인":16824,"새로운":16825,"하면":16826,"##회의":16827,"##했다고":16828,"일단":16829,"아예":16830,"##30":16831,"##11":16832,"자유":16833,"특수":16834,"확률":16835,"##-2":16836,"##리오":16837,"##경기":16838,"이렇게":16839,"어려":16840,"승리":16841,"활약":16842,"##이기도":16843,"부족":16844,"##대가":16845,"##지로":16846,"##나마":16847,"성능":16848,"노선":16849,"월드":16850,"들어가":16851,"##화에서":16852,"등이":16853,"동시에":16854,"##디오":16855,"##시켜":16856,"주변":16857,"비슷한":16858,"먼저":16859,"심지어":16860,"정부":16861,"##임을":16862,"대한민국":16863,"##드로":16864,"##적이":16865,"가능하다.":16866,"버전":16867,"발동":16868,"드러":16869,"##스,":16870,"완전히":16871,"같다.":16872,"스테":16873,"바뀌":16874,"확인":16875,"##화가":16876,"##그램":16877,"수록":16878,"그렇게":16879,"힘들":16880,"##ow":16881,"성우":16882,"차지":16883,"##밖에":16884,"그래도":16885,"그리":16886,"##다며":16887,"정치":16888,"##통령":16889,"적용":16890,"방식":16891,"내려":16892,"##내는":16893,"생산":16894,"##ig":16895,"26":16896,"일이":16897,"어떻":16898,"좋다.":16899,"보스":16900,"##상으로":16901,"영웅":16902,"##ed":16903,"##il":16904,"28":16905,"##보면":16906,"모델":16907,"##메이션":16908,"있는데":16909,"##도의":16910,"영국":16911,"##다\"":16912,"스트":16913,"2014년":16914,"##구를":16915,"이야기":16916,"시스템":16917,"성격":16918,"혹은":16919,"한번":16920,"27":16921,"##르고":16922,"실패":16923,"##하는데":16924,"전에":16925,"자세":16926,"기사":16927,"전혀":16928,"##간에":16929,"만나":16930,"있지만":16931,"##스크":16932,"못한":16933,"우리":16934,"패배":16935,"원작":16936,"어떻게":16937,"##니까":16938,"##ac":16939,"31":16940,"##!!":16941,"##시킨":16942,"##더라도":16943,"차량":16944,"##원의":16945,"장비":16946,"위해서":16947,"감소":16948,"않아":16949,"만큼":16950,"##as":16951,"사진":16952,"국내":16953,"##대한":16954,"얼굴":16955,"동일":16956,"때는":16957,"불가능":16958,"있고":16959,"가지":16960,"중심":16961,"얼마":16962,"##ve":16963,"##BS":16964,"대통령":16965,"앨범":16966,"오브":16967,"지속":16968,"데뷔":16969,"대학":16970,"체력":16971,"표현":16972,"대회":16973,"참여":16974,"이제":16975,"나가":16976,"1,":16977,"##인데,":16978,"##지에":16979,"마을":16980,"##어버":16981,"획득":16982,"플레이어":16983,"굉장":16984,"출시":16985,"##간다.":16986,"##른다.":16987,"힘을":16988,"##.3":16989,"##트의":16990,"of":16991,"##이었던":16992,"##보다는":16993,"없어":16994,"다양":16995,"##라의":16996,"애니메이션":16997,"##움을":16998,"계획":16999,"반응":17000,"##했고":17001,"##났다.":17002,"##장의":17003,"특성":17004,"등장하는":17005,"##이의":17006,"196":17007,"##대학교":17008,"발표":17009,"##체를":17010,"##라가":17011,"##다'":17012,"움직":17013,"인정":17014,"##버스":17015,"정확":17016,"가져":17017,"##자,":17018,"기억":17019,"바이":17020,"스페":17021,"기능":17022,"##해도":17023,"자동":17024,"명칭":17025,"##제가":17026,"그나마":17027,"담당":17028,"쓰는":17029,"문제가":17030,"따라서":17031,"에피":17032,"하루":17033,"드래곤":17034,"드라마":17035,"있고,":17036,"자신을":17037,"진출":17038,"상승":17039,"경우도":17040,"덕분에":17041,"이름을":17042,"남자":17043,"판매":17044,"번째":17045,"작중":17046,"사용하는":17047,"대체":17048,"##으므로":17049,"##상의":17050,"역사":17051,"받은":17052,"있기":17053,"##수는":17054,"아마":17055,"##문을":17056,"요구":17057,"특징":17058,"##으로서":17059,"##조차":17060,"수비":17061,"##우스":17062,"공격을":17063,"설치":17064,"경찰":17065,"선발":17066,"제1":17067,"다이":17068,"##0년대":17069,"##ot":17070,"##라면":17071,"있게":17072,"조건":17073,"그림":17074,"##장에서":17075,"상위":17076,"2017":17077,"밝혀":17078,"##들에":17079,"남아":17080,"하였다.":17081,"받고":17082,"고려":17083,"##했다는":17084,"개인":17085,"##제를":17086,"중앙":17087,"Lv":17088,"마이":17089,"이벤트":17090,"##도는":17091,"##한다는":17092,"참가":17093,"##피언":17094,"따르면":17095,"듯.":17096,"축구":17097,"에피소":17098,"##했지만":17099,"가능한":17100,"##아가":17101,"##권을":17102,"##한테":17103,"##사로":17104,"자체가":17105,"하이":17106,"물리":17107,"##ad":17108,"항목":17109,"29":17110,"강력한":17111,"##군이":17112,"해서":17113,"더욱":17114,"다르":17115,"순간":17116,"2013년":17117,"##부의":17118,"넘어":17119,"##전이":17120,"주의":17121,"##수로":17122,"2차":17123,"각각":17124,"##.4":17125,"##레벨":17126,"대해서":17127,"건물":17128,"##장은":17129,"우주":17130,"-1":17131,"경험":17132,"##지지":17133,"어머니":17134,"시점":17135,"후보":17136,"확실":17137,"상대로":17138,"굉장히":17139,"##적을":17140,"##지,":17141,"비판":17142,"사람들이":17143,"##계를":17144,"편이다.":17145,"시간이":17146,"##문에":17147,"##스러":17148,"러시아":17149,"현대":17150,"가격":17151,"결혼":17152,"작가":17153,"어렵":17154,"가족":17155,"##장에":17156,"후에":17157,"구조":17158,"어린":17159,"##리,":17160,"프로그램":17161,"피해를":17162,"보내":17163,"말이":17164,"챔피언":17165,"불구":17166,"##치고":17167,"단순":17168,"##리와":17169,"아주":17170,"참조":17171,"나와":17172,"어디":17173,"여담":17174,"위험":17175,"##부를":17176,"##되면서":17177,"##id":17178,"교육":17179,"무시":17180,"초기":17181,"주요":17182,"##mm":17183,"마찬가지로":17184,"##감을":17185,"여기서":17186,"사용할":17187,"폭발":17188,"진짜":17189,"##량이":17190,"##선을":17191,"##이라면":17192,"대미":17193,"##부에":17194,"선거":17195,"준비":17196,"아르":17197,"##ch":17198,"2012년":17199,"##위원":17200,"##대는":17201,"있었던":17202,"과정":17203,"가면":17204,"속성":17205,"일으":17206,"##으면서":17207,"제공":17208,"##타를":17209,"나머":17210,"되고":17211,"##레이드":17212,"엄청난":17213,"##리로":17214,"##장으로":17215,"지구":17216,"가능성이":17217,"메이":17218,"약간":17219,"받았":17220,"##까지는":17221,"##치로":17222,"쉽게":17223,"The":17224,"활용":17225,"않다.":17226,"##체가":17227,"가는":17228,"##리티":17229,"알아":17230,"방영":17231,"##ay":17232,"히로":17233,"받는":17234,"제한":17235,"2000":17236,"보이":17237,"##ER":17238,"클리어":17239,"대전":17240,"시청":17241,"마스터":17242,"##정한":17243,"##.\"":17244,"여전히":17245,"##키는":17246,"논란":17247,"194":17248,"발사":17249,"프랑스":17250,"동료":17251,"수가":17252,"##시키는":17253,"##.6":17254,"##시즌":17255,"부산":17256,"60":17257,"당연히":17258,"작은":17259,"패턴":17260,"##리기":17261,"쓰러":17262,"분위":17263,"##인물":17264,"한편":17265,"##력은":17266,"못하고":17267,"훨씬":17268,"##려서":17269,"지하":17270,"St":17271,"현실":17272,"사고":17273,"크리스":17274,"주는":17275,"##.7":17276,"##었던":17277,"제국":17278,"##업을":17279,"유럽":17280,"##식이":17281,"1일":17282,"강한":17283,"##없는":17284,"혼자":17285,"그가":17286,"하며":17287,"한정":17288,"이해":17289,"제2":17290,"영향을":17291,"##개를":17292,"##us":17293,"##트는":17294,"##심을":17295,"방향":17296,"##하다는":17297,"적을":17298,"##40":17299,"그를":17300,"##정도":17301,"##히는":17302,"보호":17303,"##만한":17304,"특별":17305,"브라":17306,"기간":17307,"##티브":17308,"##위로":17309,"잡아":17310,"##행을":17311,"##놓고":17312,"조합":17313,"##만이":17314,"잘못":17315,"FC":17316,"크로":17317,"##제로":17318,"##합니다.":17319,"##해주":17320,"파워":17321,"해결":17322,"최근":17323,"취급":17324,"나이":17325,"계약":17326,"삼성":17327,"2010년":17328,"도망":17329,"##다니":17330,"##ro":17331,"##사와":17332,"역할을":17333,"본인":17334,"##수록":17335,"##게임":17336,"영어":17337,"블랙":17338,"소모":17339,"##프를":17340,"##겠다고":17341,"연결":17342,"의견":17343,"스토리":17344,"##자기":17345,"국민":17346,"##.8":17347,"##나,":17348,"##다,":17349,"보는":17350,"국제":17351,"때문.":17352,"##만에":17353,"기준으로":17354,"##라인":17355,"##로를":17356,"##라운드":17357,"##이고,":17358,"않을":17359,"for":17360,"문제는":17361,"##학년":17362,"##위가":17363,"처리":17364,"이탈":17365,"지방":17366,"##!\"":17367,"다양한":17368,"##로부터":17369,"##기,":17370,"중요한":17371,"생활":17372,"##시의":17373,"다니":17374,"TV":17375,"정도.":17376,"버스":17377,"##ir":17378,"전용":17379,"추정":17380,"##BC":17381,"자연":17382,"2011년":17383,"##레스":17384,"것에":17385,"##듯이":17386,"##나게":17387,"##면,":17388,"충분":17389,"##위에":17390,"없었다.":17391,"##인트":17392,"##학생":17393,"##이란":17394,"방면":17395,"오래":17396,"이유는":17397,"나무":17398,"라인":17399,"##사에":17400,"2018":17401,"##도,":17402,"스스로":17403,"문화":17404,"##신이":17405,"불구하고":17406,"오른":17407,"다음과":17408,"운동":17409,"느낌":17410,"받았다.":17411,"##지션":17412,"##자와":17413,"##난다.":17414,"아군":17415,"장착":17416,"비롯":17417,"##12":17418,"보이는":17419,"이루어":17420,"##로가":17421,"##일을":17422,"조직":17423,"타입":17424,"##만을":17425,"##신을":17426,"출전":17427,"195":17428,"##구가":17429,"등장한다.":17430,"들고":17431,"##가를":17432,"기타":17433,"##한다고":17434,"하여":17435,"퀘스트":17436,"아버지":17437,"##ht":17438,"내가":17439,"##라를":17440,"부활":17441,"낮은":17442,"##단의":17443,"운행":17444,"예정":17445,"##나이":17446,"입장":17447,"미션":17448,"##기와":17449,"##소를":17450,"##회를":17451,"##져서":17452,"아이돌":17453,"이유로":17454,"##보니":17455,"경제":17456,"##성은":17457,"##대학":17458,"편.":17459,"HP":17460,"##갔다.":17461,"##th":17462,"중에":17463,"연속":17464,"모드":17465,"##명은":17466,"대부분의":17467,"##성의":17468,"##자들이":17469,"아들":17470,"경우는":17471,"나는":17472,"##'라는":17473,"유니":17474,"에너":17475,"##이즈":17476,"전문":17477,"절대":17478,"##하다고":17479,"##비아":17480,"##un":17481,"되면":17482,"종료":17483,"더불":17484,"구간":17485,"##im":17486,"##하다가":17487,"##초에":17488,"##라서":17489,"수상":17490,"타고":17491,"말한다.":17492,"##dddd":17493,"독립":17494,"##데이트":17495,"##당한":17496,"##의를":17497,"번역":17498,"달성":17499,"하기":17500,"되지":17501,"##카이":17502,"포켓":17503,"메인":17504,"##ur":17505,"엔딩":17506,"##.9":17507,"##원은":17508,"제목":17509,"##전의":17510,"근접":17511,"##이면":17512,"##지게":17513,"##od":17514,"이상의":17515,"##세대":17516,"##유의":17517,"##말로":17518,"##시켰":17519,"##세기":17520,"싱글":17521,"목소":17522,"##력으로":17523,"만약":17524,"일본의":17525,"##에게는":17526,"관리":17527,"##가가":17528,"자리":17529,"##시를":17530,"##15":17531,"종류":17532,"소설":17533,"항공":17534,"배경":17535,"##32":17536,"일을":17537,"졸업":17538,"##냈다.":17539,"현재는":17540,"업데이트":17541,"생존":17542,"난이도":17543,"더불어":17544,"검은":17545,"했지만":17546,"SK":17547,"가끔":17548,"##km":17549,"세이":17550,"##공격":17551,"##으로도":17552,"##사,":17553,"##함을":17554,"스피":17555,"위에":17556,"일어나":17557,"에피소드":17558,"반대":17559,"대상":17560,"##기고":17561,"시도":17562,"야구":17563,"민주":17564,"하면서":17565,"속도":17566,"밖에":17567,"##조건":17568,"##어들":17569,"##ST":17570,"##시마":17571,"나머지":17572,"배틀":17573,"일정":17574,"##같이":17575,"##비가":17576,"##ut":17577,"최소":17578,"##스에":17579,"엔진":17580,"##왔다.":17581,"##신의":17582,"##야마":17583,"##일이":17584,"만화":17585,"제외한":17586,"목표":17587,"##려는":17588,"지휘":17589,"##마저":17590,"2019":17591,"항상":17592,"202":17593,"부르":17594,"##시가":17595,"##세를":17596,"##점으로":17597,"##ag":17598,"얻을":17599,"##거나,":17600,"분노":17601,"##관이":17602,"능력을":17603,"##ver":17604,"수정":17605,"대사":17606,"##종의":17607,"##운데":17608,"##리게":17609,"유리":17610,"생긴":17611,"성장":17612,"##60":17613,"##르크":17614,"직업":17615,"##이로":17616,"정도의":17617,"공연":17618,"신경":17619,"##원으로":17620,"##?\"":17621,"##단을":17622,"정식":17623,"두고":17624,"##겼다.":17625,"전설":17626,"유명한":17627,"##부가":17628,"전작":17629,"##ec":17630,"##19":17631,"##시로":17632,"소재":17633,"##라며":17634,"##37":17635,"무엇":17636,"##림픽":17637,"2016":17638,"##혔다.":17639,"좋지":17640,"포켓몬":17641,"계열":17642,"##지기":17643,"싸우":17644,"해야":17645,"##리면":17646,"사람은":17647,"##냐고":17648,"##버린":17649,"비행":17650,"나왔다.":17651,"이끌":17652,"북한":17653,"you":17654,"자랑":17655,"##스티":17656,"그룹":17657,"사실을":17658,"로마":17659,"##어진다.":17660,"인터뷰":17661,"##했으며,":17662,"##카와":17663,"##비를":17664,"아프":17665,"##상에":17666,"##계의":17667,"##물이":17668,"높다.":17669,"미사":17670,"##ent":17671,"거기":17672,"각종":17673,"##호를":17674,"##으로써":17675,"##어야":17676,"오늘":17677,"##선이":17678,"다르게":17679,"끝나":17680,"##겠지만":17681,"괜찮":17682,"##주를":17683,"35":17684,"##되기":17685,"하지만,":17686,"상황에서":17687,"바람에":17688,"##여서":17689,"##했으나":17690,"빠른":17691,"대한민국의":17692,"것과":17693,"##방송":17694,"##나의":17695,"##군은":17696,"##스럽":17697,"비밀":17698,"작곡":17699,"부여":17700,"참조.":17701,"미래":17702,"이름이":17703,"불러":17704,"연출":17705,"이외":17706,"건설":17707,"만드는":17708,"전반":17709,"##ak":17710,"##하지만,":17711,"정작":17712,"##음에도":17713,"##서를":17714,"누구":17715,"##이라도":17716,"모습이":17717,"적은":17718,"##해진":17719,"##로의":17720,"##무를":17721,"##다운":17722,"미국의":17723,"시전":17724,"##수한":17725,"있다":17726,"##선의":17727,"##t;":17728,"라고":17729,"전국":17730,"32":17731,"결승":17732,"스파":17733,"있지만,":17734,"##호가":17735,"##미가":17736,"##시는":17737,"등으로":17738,"##....":17739,"1회":17740,"스테이지":17741,"못하는":17742,"엘리":17743,"수는":17744,"소녀":17745,"케이":17746,"자세한":17747,"80":17748,"##cm":17749,"따로":17750,"나서":17751,"제일":17752,"때,":17753,"##외로":17754,"##디어":17755,"##었다고":17756,"훈련":17757,"전차":17758,"있다면":17759,"과학":17760,"별로":17761,"특정":17762,"##스러운":17763,"위치한":17764,"묘사":17765,"##동을":17766,"##움이":17767,"갑자기":17768,"##부터는":17769,"나름":17770,"모르":17771,"##더니":17772,"기관":17773,"##80":17774,"##고를":17775,"예상":17776,"달려":17777,"타카":17778,"##모토":17779,"70":17780,"2009년":17781,"##장,":17782,"악마":17783,"않게":17784,"연기":17785,"때문에,":17786,"클래":17787,"없을":17788,"종족":17789,"인구":17790,"이탈리아":17791,"여담으로":17792,"경우에는":17793,"##고는":17794,"##단이":17795,"1년":17796,"하늘":17797,"뒤에":17798,"소개":17799,"##입니다.":17800,"일행":17801,"##하라":17802,"##크로":17803,"분류":17804,"안에":17805,"1위":17806,"근처":17807,"평균":17808,"상황이":17809,"##이,":17810,"보유":17811,"확정":17812,"필요한":17813,"효과를":17814,"to":17815,"있으니":17816,"게임을":17817,"##어의":17818,"아키":17819,"명령":17820,"1차":17821,"서비":17822,"이름은":17823,"포지션":17824,"##ffff":17825,"##프로":17826,"##지와":17827,"##ub":17828,"지난":17829,"압도":17830,"인천":17831,"행정":17832,"최고의":17833,"공중":17834,"개념":17835,"##세가":17836,"교체":17837,"안정":17838,"##제의":17839,"이걸":17840,"없고":17841,"예를":17842,"사냥":17843,"본인이":17844,"아카":17845,"##크를":17846,"집중":17847,"등장인물":17848,"설립":17849,"##군을":17850,"##이다":17851,"2008년":17852,"지켜":17853,"애초에":17854,"것이라고":17855,"파티":17856,"각성":17857,"나타나":17858,"193":17859,"이쪽":17860,"식으로":17861,"잠시":17862,"##야말로":17863,"생명":17864,"지정":17865,"표기":17866,"나올":17867,"지도":17868,"이게":17869,"##율이":17870,"특이":17871,"##'의":17872,"본래":17873,"언제":17874,"가까운":17875,"나중에":17876,"##리며":17877,"##계가":17878,"시작했다.":17879,"머리":17880,"부모":17881,"##지면":17882,"없다는":17883,"기대":17884,"이용해":17885,"있으면":17886,"##'를":17887,"##소가":17888,"##고등학교":17889,"스포":17890,"즉,":17891,"기반":17892,"발전":17893,"경쟁":17894,"탈출":17895,"최강":17896,"##',":17897,"##하나":17898,"##치기":17899,"경우,":17900,"죽은":17901,"일러":17902,"##타로":17903,"기다":17904,"in":17905,"하게":17906,"물건":17907,"##보는":17908,"못했다.":17909,"갖고":17910,"##부로":17911,"치명":17912,"처음으로":17913,"배치":17914,"연합":17915,"차이가":17916,"없다고":17917,"라는":17918,"벌어":17919,"보니":17920,"존재한다.":17921,"외국":17922,"사례":17923,"##원에":17924,"지지":17925,"##트라":17926,"수행":17927,"##았던":17928,"파이":17929,"위의":17930,"##인으로":17931,"빠르게":17932,"##-3":17933,"월드컵":17934,"이야기를":17935,"새로":17936,"사용자가":17937,"##대표":17938,"무슨":17939,"##타임":17940,"등장한":17941,"이적":17942,"다크":17943,"##ight":17944,"사이에":17945,"중에서":17946,"##부는":17947,"##가의":17948,"##드시":17949,"제거":17950,"##량을":17951,"대기":17952,"빠져":17953,"좋아하는":17954,"##em":17955,"카운":17956,"기동":17957,"vs":17958,"소련":17959,"아니면":17960,"##스테":17961,"##역을":17962,"##:0":17963,"##스케":17964,"##란드":17965,"##상은":17966,"##'을":17967,"도입":17968,"달라":17969,"부정":17970,"말에":17971,"건담":17972,"바꾸":17973,"##ON":17974,"##쪽으로":17975,"##만의":17976,"이후로":17977,"고양":17978,"##스코":17979,"기본적으로":17980,"발언":17981,"나라":17982,"여기에":17983,"##화의":17984,"완전":17985,"목록":17986,"##,#":17987,"##었고,":17988,"그녀의":17989,"등급":17990,"##간의":17991,"저지":17992,"##16":17993,"지배":17994,"##즈의":17995,"라이브":17996,"##냐는":17997,"무려":17998,"##마자":17999,"직후":18000,"##치의":18001,"##AR":18002,"##마가":18003,"복귀":18004,"남은":18005,"##ce":18006,"##25":18007,"##이니":18008,"변신":18009,"##내고":18010,"도쿄":18011,"2000년":18012,"##타가":18013,"과정에서":18014,"타격":18015,"군사":18016,"보기":18017,"##:00":18018,"베이":18019,"도착":18020,"날아":18021,"연습":18022,"##'라고":18023,"##감이":18024,"포기":18025,"접근":18026,"가운데":18027,"##심이":18028,"대구":18029,"촬영":18030,"동생":18031,"유사":18032,"사이트":18033,"##문이":18034,"##터를":18035,"돌아가":18036,"##됐다.":18037,"보아":18038,"##우가":18039,"유일한":18040,"사람을":18041,"제품":18042,"500":18043,"시험":18044,"##버렸다.":18045,"2,":18046,"가르":18047,"관한":18048,"##하였고,":18049,"죽음":18050,"##미를":18051,"##롭게":18052,"##도에":18053,"살해":18054,"하는데":18055,"블루":18056,"회피":18057,"했던":18058,"##학과":18059,"남성":18060,"##um":18061,"45":18062,"##AN":18063,"데미지":18064,"업그":18065,"##진이":18066,"2007년":18067,"##ap":18068,"##주고":18069,"##되었고,":18070,"링크":18071,"듣고":18072,"역대":18073,"##ri":18074,"알게":18075,"상태에서":18076,"분명":18077,"##os":18078,"추천":18079,"완성":18080,"정규":18081,"##48":18082,"일러스트":18083,"반면":18084,"때마다":18085,"이곳":18086,"고정":18087,"이건":18088,"범위":18089,"준다.":18090,"##프가":18091,"##많은":18092,"##'s":18093,"반드시":18094,"하였":18095,"##에만":18096,"조종":18097,"끝에":18098,"##한다":18099,"LG":18100,"##스토":18101,"사용한다.":18102,"상당한":18103,"##체의":18104,"싫어":18105,"받을":18106,"타이틀":18107,"부탁":18108,"##낸다.":18109,"유튜":18110,"##광역":18111,"##주가":18112,"해외":18113,"##18":18114,"##차가":18115,"이하":18116,"##점은":18117,"소리":18118,"중간":18119,"효과가":18120,"심각":18121,"상관":18122,"완벽":18123,"##()":18124,"##ula":18125,"##력과":18126,"저항":18127,"뛰어난":18128,"##들어":18129,"탈락":18130,"어둠":18131,"하자":18132,"투수":18133,"##했는데":18134,"##이지만,":18135,"지상":18136,"유일하게":18137,"##and":18138,"올림픽":18139,"경기에서":18140,"추측":18141,"##지면서":18142,"자체는":18143,"마무":18144,"미니":18145,"점을":18146,"한다는":18147,"2개":18148,"##파트":18149,"앞에":18150,"다루":18151,"##\"라고":18152,"##했으며":18153,"동물":18154,"비용":18155,"90":18156,"몇몇":18157,"정상":18158,"느끼":18159,"자리를":18160,"경기를":18161,"##들로":18162,"인터넷":18163,"주민":18164,"-3":18165,"##진을":18166,"반대로":18167,"##지라":18168,"삭제":18169,"프레":18170,"판단":18171,"##관을":18172,"공동":18173,"오버":18174,"##러스":18175,"연재":18176,"롯데":18177,"에이":18178,"치료":18179,"무장":18180,"우선":18181,"회사":18182,"합류":18183,"충격":18184,"##받은":18185,"구매":18186,"점점":18187,"실험":18188,"통합":18189,"##술을":18190,"환경":18191,"##문의":18192,"시간을":18193,"##했는데,":18194,"리더":18195,"많아":18196,"##버린다.":18197,"##민주":18198,"1개":18199,"도중":18200,"봐도":18201,"##로우":18202,"##키가":18203,"##형을":18204,"##탄을":18205,"##키의":18206,"전략":18207,"올려":18208,"인도":18209,"##보를":18210,"이로":18211,"##주로":18212,"팀의":18213,"높아":18214,"##시킬":18215,"다소":18216,"없어서":18217,"요시":18218,"##어는":18219,"##겠다는":18220,"##지.":18221,"##세계":18222,"form":18223,"수많은":18224,"공간":18225,"##체는":18226,"종종":18227,"개최":18228,"##것도":18229,"##화국":18230,"EX":18231,"가수":18232,"##자들은":18233,"스코":18234,"쓰고":18235,"##드와":18236,"##화된":18237,"192":18238,"기념":18239,"##스카":18240,"생각해":18241,"##ula_":18242,"##분이":18243,"카드를":18244,"##터가":18245,"No":18246,"불리":18247,"##석이":18248,"후,":18249,"##인,":18250,"규모":18251,"트리":18252,"기업":18253,"기계":18254,"##하자.":18255,"##금을":18256,"정의":18257,"의외로":18258,"##일러":18259,"제외하면":18260,"##단계":18261,"싸움":18262,"##하는데,":18263,"시리즈의":18264,"장소":18265,"개봉":18266,"formula_":18267,"암살":18268,"종교":18269,"상태로":18270,"맞추":18271,"##크가":18272,"##이와":18273,"히어로":18274,"##받는":18275,"전통":18276,"않으면":18277,"아니고":18278,"보여준다.":18279,"그야말로":18280,"##되면":18281,"조사":18282,"##14":18283,"순위":18284,"평범":18285,"도와":18286,"##지에서":18287,"공포":18288,"##정에":18289,"##플레이":18290,"##IN":18291,"떠나":18292,"장갑":18293,"화면":18294,"무조건":18295,"##무라":18296,"300":18297,"워낙":18298,"바다":18299,"듯하다.":18300,"알려져":18301,"소유":18302,"##용으로":18303,"##가,":18304,"Ch":18305,"아내":18306,"디자인":18307,"##회가":18308,"2006년":18309,"그린":18310,"KBS":18311,"인한":18312,"전사":18313,"##두고":18314,"33":18315,"프로젝":18316,"##질을":18317,"다행":18318,"##차를":18319,"요청":18320,"전개":18321,"정리":18322,"단,":18323,"야마":18324,"어려운":18325,"마사":18326,"##인과":18327,"홈런":18328,"3개":18329,"##판을":18330,"and":18331,"스크":18332,"##구의":18333,"빨리":18334,"컴퓨":18335,"본격":18336,"##/2":18337,"2015":18338,"##트리":18339,"하고,":18340,"전기":18341,"생성":18342,"없음":18343,"##로드":18344,"##력의":18345,"##적으로는":18346,"##아버":18347,"##로그":18348,"시대":18349,"도전":18350,"아무리":18351,"##르트":18352,"##속도":18353,"2년":18354,"카이":18355,"가서":18356,"##이므로":18357,"##어,":18358,"##식으로":18359,"개그":18360,"##원,":18361,"평소":18362,"그걸":18363,"비중":18364,"##스에서":18365,"한글":18366,"것처럼":18367,"굳이":18368,"부하":18369,"##ul":18370,"##적은":18371,"##1,":18372,"##한다면":18373,"##일부터":18374,"최초로":18375,"##TV":18376,"##되며":18377,"##방을":18378,"데미지를":18379,"##FA":18380,"##원에서":18381,"적의":18382,"##석을":18383,"외에도":18384,"최후":18385,"사업":18386,"##호선":18387,"##하도록":18388,"##마의":18389,"충분히":18390,"레드":18391,"##크의":18392,"변화":18393,"##니티":18394,"지키":18395,"##라,":18396,"##에게서":18397,"##르의":18398,"투입":18399,"영혼":18400,"##시,":18401,"##정은":18402,"상징":18403,"이름으로":18404,"대중":18405,"##op":18406,"##드에":18407,"탓에":18408,"위협":18409,"오프":18410,"일어":18411,"무한":18412,"##운동":18413,"진화":18414,"이와":18415,"열린":18416,"##ck":18417,"##승을":18418,"비롯한":18419,"의하면":18420,"##라스":18421,"##수도":18422,"##했기":18423,"파일":18424,"경기도":18425,"데이터":18426,"끌어":18427,"능력이":18428,"##13":18429,"##이닝":18430,"##17":18431,"##쪽에":18432,"##온다.":18433,"마나":18434,"##아의":18435,"##안을":18436,"##ter":18437,"##%,":18438,"##특별":18439,"중반":18440,"사람들은":18441,"##었고":18442,"##적이다.":18443,"로봇":18444,"안전":18445,"선언":18446,"##보고":18447,"##성에":18448,"##보다도":18449,"##ation":18450,"돈을":18451,"버그":18452,"대응":18453,"최초의":18454,"시설":18455,"36":18456,"##'로":18457,"보다":18458,"##으로부터":18459,"##세이":18460,"##왕의":18461,"사무":18462,"##법을":18463,"거부":18464,"##ra":18465,"##었을":18466,"거기에":18467,"옵션":18468,"##정의":18469,"성우는":18470,"등에":18471,"##교육":18472,"범죄":18473,"##동생":18474,"##인가":18475,"확장":18476,"생각하면":18477,"표시":18478,"손을":18479,"대화":18480,"붉은":18481,"##이에":18482,"언론":18483,"카메":18484,"##세의":18485,"트위":18486,"때까지":18487,"듯한":18488,"##대전":18489,"대형":18490,"특유의":18491,"##2,":18492,"조작":18493,"성향":18494,"##다른":18495,"##요일":18496,"희생":18497,"##지역":18498,"##조의":18499,"##가와":18500,"기존의":18501,"맞춰":18502,"##라이더":18503,"운용":18504,"관련된":18505,"##페이지":18506,"##시브":18507,"말하는":18508,"##기사":18509,"##너스":18510,"##래도":18511,"th":18512,"##호는":18513,"간단":18514,"대결":18515,"오리지":18516,"##하려고":18517,"##미널":18518,"점이":18519,"하며,":18520,"작업":18521,"##IC":18522,"네이":18523,"밝혔다.":18524,"패치":18525,"얼마나":18526,"##구에":18527,"사기":18528,"본인의":18529,"##시오":18530,"##부에서":18531,"명중":18532,"MA":18533,"km":18534,"##성과":18535,"보조":18536,"##나와":18537,"##자에":18538,"##미의":18539,"맞는":18540,"하드":18541,"선생":18542,"극장":18543,"##'이라는":18544,"주고":18545,"그리스":18546,"확률로":18547,"플래":18548,"##드리":18549,"구분":18550,"장면이":18551,"2020년":18552,"빼앗":18553,"##려면":18554,"##경을":18555,"##회에서":18556,"점령":18557,"사격":18558,"무리":18559,"가깝":18560,"오랜":18561,"체력이":18562,"통과":18563,"##일의":18564,"##바이":18565,"시민":18566,"태양":18567,"##로도":18568,"##텐츠":18569,"마르":18570,"##드,":18571,"##자들의":18572,"거쳐":18573,"##음이":18574,"시나":18575,"나오지":18576,"다운":18577,"##세트":18578,"얻어":18579,"##다고.":18580,"불과":18581,"마치":18582,"##레인":18583,"마리":18584,"반복":18585,"화염":18586,"프로듀":18587,"유튜브":18588,"##때문에":18589,"##쳤다.":18590,"내용은":18591,"사는":18592,"##수,":18593,"내에서":18594,"힘든":18595,"제3":18596,"##약을":18597,"2005년":18598,"난이":18599,"있지":18600,"MBC":18601,"지금은":18602,"##남도":18603,"##70":18604,"시기":18605,"투표":18606,"재료":18607,"앞서":18608,"앞에서":18609,"뛰어":18610,"되면서":18611,"##시킨다.":18612,"그럼":18613,"데이":18614,"서술":18615,"인식":18616,"##시대":18617,"3일":18618,"데려":18619,"영입":18620,"적에게":18621,"정책":18622,"하는데,":18623,"붙어":18624,"몸을":18625,"100%":18626,"신체":18627,"중심으로":18628,"##라우":18629,"##치게":18630,"서버":18631,"오르":18632,"##다시":18633,"##단에":18634,"##론을":18635,"입고":18636,"나이트":18637,"38":18638,"개조":18639,"소년":18640,"##90":18641,"2회":18642,"대표적인":18643,"외모":18644,"선정":18645,"모르는":18646,"진입":18647,"패러":18648,"##제는":18649,"##레이션":18650,"SP":18651,"그저":18652,"클럽":18653,"##인들이":18654,"득점":18655,"세트":18656,"후속":18657,"34":18658,"근데":18659,"바라":18660,"##리온":18661,"사쿠":18662,"##아이":18663,"##실을":18664,"사태":18665,"##광역시":18666,"##그룹":18667,"##했지만,":18668,"디자":18669,"이들은":18670,"적극":18671,"##라.":18672,"##하니":18673,"고대":18674,"##해를":18675,"디지":18676,"##정으로":18677,"은퇴":18678,"받는다.":18679,"때도":18680,"##사카":18681,"##명으로":18682,"점프":18683,"##전은":18684,"살아남":18685,"말았다.":18686,"목숨":18687,"##kg":18688,"공략":18689,"좀비":18690,"보상":18691,"다만,":18692,"오오":18693,"##시티":18694,"바닥":18695,"올라가":18696,"##임이":18697,"##RA":18698,"방어력":18699,"##러가":18700,"##스킬":18701,"##버리":18702,"거두":18703,"##전쟁":18704,"인기":18705,"대단":18706,"주문":18707,"장난":18708,"꽤나":18709,"컨셉":18710,"여름":18711,"##기관":18712,"그려":18713,"이기":18714,"불안":18715,"아는":18716,"그때":18717,"막아":18718,"무너":18719,"##방에":18720,"##전으로":18721,"VS":18722,"##장과":18723,"##만으로":18724,"##래프트":18725,"2004년":18726,"소비":18727,"맞아":18728,"광주":18729,"지닌":18730,"##형이":18731,"##트와":18732,"초대":18733,"##art":18734,"##소년":18735,"적절":18736,"스위":18737,"자료":18738,"사람의":18739,"단순히":18740,"You":18741,"마무리":18742,"하나의":18743,"비고":18744,"대해서는":18745,"이후에":18746,"살인":18747,"##규모":18748,"##마를":18749,"음반":18750,"##이상":18751,"마음을":18752,"##:2":18753,"철도":18754,"##이야":18755,"U+":18756,"##ie":18757,"오리지널":18758,"##복을":18759,"방문":18760,"오토":18761,"꾸준":18762,"##ab":18763,"문제를":18764,"##선수":18765,"서브":18766,"마침":18767,"2일":18768,"게이":18769,"##해졌다.":18770,"미드":18771,"1000":18772,"거대한":18773,"##니스":18774,"무사":18775,"채널":18776,"보였다.":18777,"상황을":18778,"특성상":18779,"##분을":18780,"##제에":18781,"##'가":18782,"선보":18783,"다르다.":18784,"착용":18785,"코스":18786,"##45":18787,"대학교":18788,"##버리는":18789,"받지":18790,"저격":18791,"##스럽게":18792,"##도우":18793,"##하려는":18794,"활동을":18795,"부분이":18796,"##군에":18797,"##호의":18798,"모습으로":18799,"손에":18800,"##르가":18801,"관통":18802,"거짓":18803,"아름":18804,"한국의":18805,"부르는":18806,"날려":18807,"##하므로":18808,"비난":18809,"알렉":18810,"##어.":18811,"모험":18812,"##99":18813,"국회의":18814,"요리":18815,"단계":18816,"부대":18817,"##/0":18818,"##코의":18819,"노력":18820,"아쉬":18821,"요소":18822,"되고,":18823,"##위는":18824,"미리":18825,"##패를":18826,"원거리":18827,"##해진다.":18828,"##이라서":18829,"전환":18830,"##즈가":18831,"##되었으며,":18832,"의한":18833,"설계":18834,"점은":18835,"37":18836,"##카가":18837,"##ill":18838,"떨어진":18839,"분리":18840,"##IA":18841,"일반적인":18842,"##답게":18843,"돌려":18844,"인사":18845,"##트에":18846,"##니다":18847,"먹고":18848,"더블":18849,"나쁘":18850,"하나로":18851,"죽을":18852,"##ia":18853,"##워서":18854,"정당":18855,"대비":18856,"탑재":18857,"누군":18858,"2014":18859,"포함한":18860,"##소녀":18861,"교통":18862,"앞으로":18863,"##회에":18864,"##방의":18865,"했으나":18866,"보컬":18867,"##고가":18868,"##ik":18869,"##나를":18870,"##센터":18871,"도로":18872,"도움을":18873,"##률이":18874,"##~2":18875,"##화에":18876,"등장.":18877,"모티브":18878,"##었다는":18879,"##연히":18880,"감안":18881,"##산을":18882,"자신은":18883,"브레이":18884,"##골을":18885,"보병":18886,"점에서":18887,"##역으로":18888,"팀이":18889,"경상":18890,"아프리카":18891,"비교적":18892,"노동":18893,"2번":18894,"승리를":18895,"AP":18896,"필살":18897,"확보":18898,"확실히":18899,"인기가":18900,"##일은":18901,"왕국":18902,"##요?":18903,"##트롤":18904,"191":18905,"황금":18906,"일은":18907,"페르":18908,"##에게도":18909,"고등학교":18910,"기체":18911,"스카":18912,"완료":18913,"##놓은":18914,"지적":18915,"등록":18916,"##나다":18917,"승강":18918,"조각":18919,"##되었고":18920,"##타는":18921,"##고속":18922,"##35":18923,"딱히":18924,"스포츠":18925,"남편":18926,"눈에":18927,"##힌다.":18928,"PC":18929,"##구는":18930,"##진의":18931,"사과":18932,"##마트":18933,"바탕":18934,"정보를":18935,"제압":18936,"논란이":18937,"만들어진":18938,"차례":18939,"##시키고":18940,"고속":18941,"그에":18942,"금지":18943,"##시켰다.":18944,"In":18945,"포인트":18946,"유래":18947,"허용":18948,"먹는":18949,"##초등학교":18950,"150":18951,"상처":18952,"##미는":18953,"##신은":18954,"연주":18955,"일어난":18956,"75":18957,"구축":18958,"연장":18959,"1번":18960,"상대가":18961,"##악의":18962,"##판이":18963,"##all":18964,"##성도":18965,"몰아":18966,"##라와":18967,"추가로":18968,"컴퓨터":18969,"있습니다.":18970,"병사":18971,"고통":18972,"지니":18973,"##에서만":18974,"나누":18975,"거리":18976,"가게":18977,"원정":18978,"수밖에":18979,"실시":18980,"명의":18981,"캐릭터가":18982,"10일":18983,"때의":18984,"대답":18985,"##프의":18986,"##루가":18987,"형성":18988,"그레이":18989,"##사이":18990,"분야":18991,"임명":18992,"##:5":18993,"##력에":18994,"곳에":18995,"15일":18996,"이것은":18997,"##식의":18998,"인류":18999,"##AT":19000,"걱정":19001,"##었지만":19002,"##까지도":19003,"작성":19004,"스킬을":19005,"##EN":19006,"##개로":19007,"##바로":19008,"##토리":19009,"##ea":19010,"아시아":19011,"##문화":19012,"임무":19013,"이유가":19014,"차이":19015,"주목":19016,"파트":19017,"##렀다.":19018,"##티어":19019,"##선에":19020,"기술을":19021,"##다보니":19022,"멸망":19023,"##하였고":19024,"##ne":19025,"수호":19026,"##FF":19027,"본인은":19028,"##우고":19029,"##프레":19030,"##자들":19031,"솔로":19032,"##르기":19033,"##을때":19034,"트랙":19035,"사용한":19036,"##바람":19037,"희망":19038,"필요가":19039,"II":19040,"##가로":19041,"##역이":19042,"이용한":19043,"##키를":19044,"##ue":19045,"갤러":19046,"##동,":19047,"##코가":19048,"어찌":19049,"편집":19050,"아나":19051,"끝난":19052,"##PS":19053,"만한":19054,"유우":19055,"짧은":19056,"##리스트":19057,"시작한다.":19058,"##나무":19059,"##피아":19060,"잠깐":19061,"녀석":19062,"##리트":19063,"##당의":19064,"##사에서":19065,"가슴":19066,"##화에서는":19067,"카즈":19068,"초반에":19069,"##AL":19070,"해석":19071,"방해":19072,"해금":19073,"##크래프트":19074,"그만":19075,"측면":19076,"##공을":19077,"##:1":19078,"겨우":19079,"##북도":19080,"##발을":19081,"##\"라는":19082,"##잖아":19083,"30일":19084,"##상태":19085,"##기.":19086,"뿐만":19087,"따른":19088,"##권이":19089,"##먼트":19090,"평범한":19091,"주연":19092,"이전에":19093,"거주":19094,"엄청나게":19095,"라이트":19096,"48":19097,"생기":19098,"부른다.":19099,"없기":19100,"커뮤":19101,"보였":19102,"있으나":19103,"5일":19104,"##ll":19105,"장기":19106,"멀티":19107,"던전":19108,"라디오":19109,"삼국":19110,"한다고":19111,"젊은":19112,"레어":19113,"##포를":19114,"불리는":19115,"##자에게":19116,"##위의":19117,"액션":19118,"##선거":19119,"여행":19120,"홈페이지":19121,"예전":19122,"##질이":19123,"골드":19124,"뉴욕":19125,"모아":19126,"##ct":19127,"느껴":19128,"이사":19129,"업그레이드":19130,"끝내":19131,"##토가":19132,"동맹":19133,"20일":19134,"##리안":19135,"2002년":19136,"##이던":19137,"어느정도":19138,"##ss":19139,"원래는":19140,"##상에서":19141,"##량의":19142,"포르":19143,"듀얼":19144,"3년":19145,"55":19146,"##도시":19147,"+1":19148,"##조가":19149,"멀리":19150,"사령":19151,"보이지":19152,"센터":19153,"##-4":19154,"##하의":19155,"대놓고":19156,"안타":19157,"##서가":19158,"흡수":19159,"에너지":19160,"그녀는":19161,"타임":19162,"뮤직":19163,"##즈를":19164,"25일":19165,"\"이":19166,"##dddddd":19167,"카오":19168,"190":19169,"st":19170,"##품을":19171,"최대한":19172,"필수":19173,"되기":19174,"바꿔":19175,"쿨타임":19176,"만다.":19177,"##다가,":19178,"##동이":19179,"떨어져":19180,"##,#dddddd":19181,"평가를":19182,"##OR":19183,"물어":19184,"말했다.":19185,"유도":19186,"있도록":19187,"##모리":19188,"1.":19189,"스케":19190,"해군":19191,"제시":19192,"속도가":19193,"걸어":19194,"##ate":19195,"태어":19196,"아스":19197,"약속":19198,"사이에서":19199,"##랐다.":19200,"##임에도":19201,"다름":19202,"내부":19203,"대공":19204,"형태로":19205,"##기술":19206,"내용을":19207,"42":19208,"궁극":19209,"봉인":19210,"단체":19211,"없지만":19212,"당선":19213,"보급":19214,"##디아":19215,"힘이":19216,"효율":19217,"##하여,":19218,"##생활":19219,"가정":19220,"드라이":19221,"##물로":19222,"자신에게":19223,"눈을":19224,"출생":19225,"##차로":19226,"##모를":19227,"##카의":19228,"##지자":19229,"##되며,":19230,"3,":19231,"코너":19232,"##.10":19233,"직전":19234,"맞고":19235,"중단":19236,"##대에서":19237,"##자리":19238,"50%":19239,"##든지":19240,"육군":19241,"끝까지":19242,"종합":19243,"팀을":19244,"밀어":19245,"코믹":19246,"어울":19247,"##물의":19248,"##'이":19249,"게임의":19250,"2003년":19251,"##웠다.":19252,"##락을":19253,"오후":19254,"트레이":19255,"##했다":19256,"재미":19257,"생겨":19258,"MP":19259,"이야기가":19260,"능력치":19261,"이후에는":19262,"4일":19263,"거절":19264,"##카드":19265,"국가대표":19266,"이것이":19267,"##사건":19268,"##되기도":19269,"##량은":19270,"##주시":19271,"광역":19272,"받아들":19273,"거야":19274,"시나리오":19275,"알려진":19276,"유용":19277,"밸런":19278,"처음에는":19279,"버프":19280,"##관은":19281,"##함이":19282,"28일":19283,"잡고":19284,"가리":19285,"게시":19286,"용병":19287,"##'는":19288,"길을":19289,"개의":19290,"바뀐":19291,"개선":19292,"제조":19293,"##능력":19294,"##미야":19295,"2.":19296,"##계에":19297,"부담":19298,"애매":19299,"뭔가":19300,"##까지의":19301,"##하기로":19302,"##단은":19303,"##구나":19304,"컨트롤":19305,"##트,":19306,"##ove":19307,"걸로":19308,"##권의":19309,"소울":19310,"미친":19311,"나카":19312,"무기를":19313,"소리를":19314,"##메달":19315,"##3,":19316,"중이다.":19317,"집에":19318,"##론이":19319,"##수와":19320,"##oo":19321,"7일":19322,"수준의":19323,"인기를":19324,"흔히":19325,"뒤로":19326,"##받고":19327,"보여주는":19328,"귀족":19329,"##도와":19330,"##이치":19331,"중화":19332,"강제":19333,"##ard":19334,"Re":19335,"도움이":19336,"##모로":19337,"##대,":19338,"10%":19339,"참고.":19340,"증거":19341,"##비의":19342,"본편":19343,
[...]
