[PAD]	0
[UNK]	0
[BOS]	0
[EOS]	0
[CLS]	0
[SEP]	0
[MASK]	0
▁▃	-0
▁ㅇ	-1
▁ㄱ	-2
▁ㄷ	-3
▁ㅎ	-4
▁ㅇㅣ	-5
ㅡㄹ	-6
▁ㅈ	-7
▁ㅅ	-8
▁ㄴ	-9
ㅡㄴ	-10
▁ㅎㅏ	-11
▁.	-12
▁ㄷㅏ	-13
▁ㅂ	-14
ㅏㅇ	-15
▁ㅇㅔ	-16
▁ㅁ	-17
▁ㄹ	-18
▁ㅇㅢ	-19
▁ㅇㅡㄹ	-20
ㅏㄴ	-21
▁ㄴㅡㄴ	-22
▁ᆫ	-23
ㅓㄴ	-24
ㅕㄴ	-25
ㅗㅇ	-26
▁ㅇㅏ	-27
▁ㅇㅓ	-28
▁,	-29
ㅅㅓ	-30
▁ㅊ	-31
ㅣㄴ	-32
ㅕㅇ	-33
ㅏㄹ	-34
▁ㅇㅡㄴ	-35
ㅏㄱ	-36
▁ㄱㅏ	-37
ㅜㄴ	-38
ㅗㄱ	-39
ㅓㅇ	-40
▁ㅍ	-41
ㅜㄱ	-42
▁1	-43
▁ㄱㅗ	-44
▁ㄷㅚ	-45
▁ㅈㅣ	-46
▁ㄹㅡㄹ	-47
ㅜㄹ	-48
ㅈㅣ	-49
▁ㅇㅕ	-50
ㄹㅣ	-51
▁ㅇㅓㅆ	-52
ㅅㅡ	-53
ㅜㅇ	-54
▁ㅌ	-55
ㅐㅇ	-56
▁ㄴㅕㄴ	-57
ㅎㅏ	-58
ㅅㅣ	-59
▁ㄹㅗ	-60
▁ㄱㅣ	-61
▁ㅅㅣ	-62
▁ㄱㅘ	-63
▁ㅇㅡㄹㅗ	-64
▁ㅇㅔㅅㅓ	-65
ㅗㄴ	-66
▁2	-67
ㅇㅣ	-68
▁ㅇㅣㅆ	-69
▁ㅇㅣㄹ	-70
ㅡㅁ	-71
▁ㅇㅏㅆ	-72
▁ㄷㅐ	-73
ㅏㅁ	-74
ㅡㅇ	-75
ㅓㄱ	-76
▁ㅋ	-77
ㄷㅏ	-78
▁ㄷㅗ	-79
ㅝㄴ	-80
▁ㄷㅡㄹ	-81
▁ㅇㅘ	-82
▁ㄸ	-83
ㅓㅂ	-84
ㅕㄱ	-85
ㅓㄹ	-86
ㅗㄹ	-87
ㄱㅜㄱ	-88
ㄱㅣ	-89
▁ᆫㄷㅏ	-90
ㅣㅇ	-91
ㅅㅏ	-92
ㅓㅁ	-93
▁ㅈㅓㄴ	-94
▁ㅈㅓㄱ	-95
▁ㄱㅡ	-96
▁ㅅㅏㅇ	-97
ㅓㅅ	-98
▁20	-99
ㅝㄹ	-100
ㅐㄱ	-101
ㅎㅘ	-102
▁ㅈㅜㅇ	-103
▁ㅅㅜ	-104
ㅈㅏㅇ	-105
ㅈㅏ	-106
ㄷㅗ	-107
▁ㅇㅣㄴ	-108
▁ㅇㅝㄹ	-109
ㅊㅣ	-110
ㅛㅇ	-111
▁ㅈㅔ	-112
ㅈㅓㅇ	-113
ㅑㅇ	-114
▁19	-115
▁ㅈㅓㅇ	-116
▁ㅇㅟ	-117
▁ᆯ	-118
ㄷㅐ	-119
ㅂㅜ	-120
ㅕㄹ	-121
ㅣㄹ	-122
▁ㅎㅘ	-123
▁ㅇㅠ	-124
▁ㄱㅗㅇ	-125
▁ㅅㅔ	-126
ㄷㅡ	-127
▁ㅂㅜ	-128
▁ㅇㅡㅁ	-129
ㅅㅜ	-130
ㅅㅏㅇ	-131
▁ㅇㅕㅆ	-132
▁ㄱㅕㅇ	-133
▁ㄱㅔ	-134
ㅅㅓㅇ	-135
▁ㅅㅓㅇ	-136
ㅈㅓㄴ	-137
ㅈㅔ	-138
▁ㅈㅏ	-139
▁ㅁㅣ	-140
▁ㄱㅓㅅ	-141
ㄷㅗㅇ	-142
ㅌㅡ	-143
▁ㅎㅏㄴ	-144
ㄱㅏ	-145
▁3	-146
▁"	-147
ㅎㅏㄱ	-148
ㅌㅓ	-149
ㅔㄹ	-150
▁ㅁㅏ	-151
▁ㄷㅗㅇ	-152
ㄱㅜ	-153
▁ㅈㅜ	-154
ㅎㅚ	-155
▁ㄷㅏㅇ	-156
▁ㄱㅐ	-157
▁ㅅㅓㄴ	-158
▁ㅅㅏ	-159
ㅇㅝㄴ	-160
▁ㄷㅡㅇ	-161
▁ㅂㅏ	-162
ㄱㅘ	-163
▁ㅁㅏㄴ	-164
▁ㄲ	-165
▁ㄱㅡㄹ	-166
ㅗㅅ	-167
▁ㅂㅏㄹ	-168
ㅡㄱ	-169
▁ㅇㅕㄴ	-170
ㅈㅜ	-171
▁ㅇㅕㅇ	-172
▁ㄱㅜㄱ	-173
ㅔㅇㅣ	-174
▁ㅂㅗ	-175
ㅣㄱ	-176
▁ㅁㅕ	-177
▁ㅅㅡ	-178
ㅣㅁ	-179
▁ㅈㅏㅇ	-180
▁V	-181
▁ㅍㅡㄹ	-182
▁ㅇㅗ	-183
▁ㄴㅏ	-184
ㅇㅓ	-185
ㅇㅣㄴ	-186
▁ㅁㅕㄴ	-187
ㄱㅛ	-188
▁ㅇㅡㅁㅕ	-189
ㅔㄴ	-190
ㅁㅜㄴ	-191
ㅏㅇㅣ	-192
ㄱㅖ	-193
ㅎㅏㄴ	-194
▁201	-195
ㅁㅣㄴ	-196
▁'	-197
ㅅㅏㄴ	-198
ㅅㅣㄴ	-199
▁4	-200
▁ㅅㅣㄴ	-201
▁ㄱㅘㄴ	-202
▁ㅈㅗ	-203
▁ㅂㅏㅇ	-204
ㅐㄴ	-205
▁ㄷㅏㄴ	-206
ㄹㅗ	-207
ㅁㅏㄴ	-208
▁ㅁㅗ	-209
▁ㅁㅕㅇ	-210
ㄷㅏㄴ	-211
▁ㄱㅜ	-212
▁ㅇㅕㄱ	-213
ㅏㅈㅣ	-214
ㅅㅣㄱ	-215
▁ㅇㅏㄴ	-216
ㅋㅣ	-217
▁ㅈㅣㄴ	-218
▁5	-219
▁ㄸㅐ	-220
▁ㅇㅏㄹ	-221
ㅇㅏ	-222
▁200	-223
▁ㅎㅜ	-224
▁-	-225
▁ㄷㅓㄴ	-226
▁ㄷㅏㄹ	-227
▁ㅈㅏㄱ	-228
▁ㄱㅏㅇ	-229
ㅈㅏㄱ	-230
ㅊㅔ	-231
ㄱㅗ	-232
▁ㅁㅜㄴ	-233
ㅓㄴㅏ	-234
▁ㅂㅣ	-235
ㅈㅐ	-236
▁ㅅㅏㄹ	-237
▁ㄴㅏㅁ	-238
ㅁㅕㅇ	-239
ㅎㅣ	-240
ㅏㄹㅡ	-241
ㄷㅔ	-242
ㅇㅕㄱ	-243
ㅅㅗ	-244
▁ㅂㅜㄹ	-245
▁ㅅㅐㅇ	-246
ㄷㅡㄹ	-247
▁ㅌㅗㅇ	-248
ㅎㅐㅇ	-249
ㅎㅜ	-250
ㅑㄱ	-251
▁ㅆ	-252
ㅈㅗ	-253
▁ㅇㅝㄴ	-254
ㅜㅁ	-255
ㅏㄱㅗ	-256
ㄱㅔ	-257
▁ㄱㅖ	-258
▁ㅎㅕㄴ	-259
▁ㄱㅜㄴ	-260
ㄷㅏㅇ	-261
▁ㅂㅜㄴ	-262
ㅂㅗㄴ	-263
▁ㄱㅏㅌ	-264
ㅁㅜㄹ	-265
▁ㅁㅏㄹ	-266
ㅂㅣ	-267
ㅇㅜ	-268
ㅋㅡ	-269
▁ㅅㅗ	-270
▁6	-271
▁ㅎㅏㄱ	-272
ㄱㅗㅇ	-273
▁ㅇㅏㄶ	-274
ㅅㅓㄴ	-275
ㅡㄹㄹ	-276
▁ㅊㅜㄹ	-277
ㅈㅜㅇ	-278
▁ㄴㅗ	-279
▁ㄱㅕㄹ	-280
▁ㅂㅏㄷ	-281
ㄹㅕㄱ	-282
ㅂㅏㄴ	-283
ㅁㅏ	-284
▁ㄲㅏㅈㅣ	-285
ㅇㅣㄹ	-286
ㄱㅏㄴ	-287
▁ㅎㅚ	-288
▁ㅇㅔㄱㅔ	-289
▁ㄷㅐㅎㅏ	-290
▁ㅈㅣㅂ	-291
▁ㅇㅕㄹ	-292
▁ㅈㅗㅇ	-293
ㄱㅘㄴ	-294
ㄱㅜㄴ	-295
▁ㅂㅏㄴ	-296
▁ㄱㅛ	-297
ㄹㅗㄱ	-298
▁ㅇㅖ	-299
▁ㅂㅓㄴ	-300
▁ㄴㅐ	-301
▁ㅊㅚ	-302
▁ㄱㅏㄴ	-303
▁7	-304
▁ㄹㅏㄴ	-305
▁10	-306
ㅌㅏ	-307
▁8	-308
ㅇㅢ	-309
▁ㅎㅐ	-310
▁ㅇㅟㅎㅏ	-311
▁ㅇㅗㄹ	-312
ㅈㅣㄴ	-313
▁ㅅㅣㄹ	-314
ㄹㅣㅂ	-315
▁ㅅㅓㄹ	-316
ㅂㅗ	-317
▁ㄹㅏ	-318
▁ㅎㅐㅇ	-319
ㅇㅏㄴ	-320
ㅍㅛ	-321
ㅇㅟ	-322
ㅁㅣ	-323
▁ㅈㅣㅁㅏㄴ	-324
▁ㅎㅕㅇ	-325
ㅇㅛㅇ	-326
ㅌㅗㅇ	-327
ㅋㅏ	-328
ㅌㅗ	-329
ㅅㅐㅇ	-330
ㅇㅓㅂ	-331
▁ㅍㅗ	-332
▁ㅎㅗ	-333
ㄹㅠ	-334
▁ㅇㅓㅄ	-335
▁ㅂㅜㅌㅓ	-336
ㅈㅗㅇ	-337
▁ㅅㅏㅁ	-338
ㅎㅗ	-339
ㅍㅡ	-340
ㅣㅇㅏ	-341
▁ㄷㅜ	-342
▁ㅅㅏㅇㅛㅇ	-343
ㅣㅅㅡ	-344
▁ㅊㅏ	-345
▁ㅅㅓ	-346
▁9	-347
ㅂㅜㄴ	-348
▁ㅇㅣㅂ	-349
▁ㅁㅣㄱㅜㄱ	-350
ㅡㅂ	-351
▁ㅇㅜ	-352
▁ㄹㅏㄱㅗ	-353
▁ㅌㅡㄱ	-354
▁ㅇㅣㅎㅜ	-355
ㅂㅏㄹ	-356
ㅅㅗㄱ	-357
▁ㅂㅗㅇ	-358
ㅈㅓㄱ	-359
▁ㅎㅏㅁ	-360
▁ㄹㅏㄴㅡㄴ	-361
▁ㄷㅗㄱ	-362
▁ㅅㅏㄴ	-363
▁ㅇㅛ	-364
▁ㅊㅓㅇ	-365
ㅂㅓㅂ	-366
▁ㅅㅡㅇ	-367
▁ㅁㅣㄴ	-368
ㅎㅏㅂ	-369
▁ㄷㅔ	-370
▁ㄱㅏㅁ	-371
▁ㅁㅕㄴㅅㅓ	-372
▁ㅇㅣㄹㅂㅗㄴ	-373
▁ㅉ	-374
▁ㅎㅘㄹ	-375
ㅓㅈㅣ	-376
ㅅㅡㅇ	-377
ㅎㅐ	-378
▁ㅇㅜㄴ	-379
ㅁㅕㄴ	-380
▁ㅁㅜㄹ	-381
▁ㄸㅗ	-382
▁ㄴㅡㄴㄷㅔ	-383
▁ㅈㅐ	-384
ㅇㅕㅇ	-385
▁ㄱㅝㄴ	-386
▁ㅂㅗㄴ	-387
ㄱㅕㅇ	-388
▁ㅅㅗㄱ	-389
ㅇㅣㅁ	-390
▁ㅁㅜ	-391
▁ㅁㅗㄷ	-392
ㅈㅣㄱ	-393
ㅍㅗ	-394
ㅣㅂ	-395
▁ㅈㅣㄱ	-396
▁ㄱㅓ	-397
ㅅㅡㅌ	-398
ㅇㅠ	-399
ㅁㅣㄴㄱㅜㄱ	-400
▁ㄱㅏㄱ	-401
ㅏㄹㅏ	-402
▁ㅋㅡ	-403
▁ㄷㅐㅎㅏㄴ	-404
ㅅㅓㄹ	-405
▁ㄷㅏㅇㅡㅁ	-406
▁ㄱㅣㅁ	-407
▁ㅇㅑㅇ	-408
▁ㅇㅘㅇ	-409
ㅂㅏㅇ	-410
▁ㅂㅜㄱ	-411
ㄱㅓ	-412
ㅅㅣㄹ	-413
▁ㅁㅣㅊ	-414
ㄱㅕㄱ	-415
▁ㅈㅣㅇㅕㄱ	-416
▁ㄱㅓㄴ	-417
▁ㅍㅕㅇ	-418
▁ㄷㅐㅎㅏㄴㅁㅣㄴㄱㅜㄱ	-419
ㅋㅗ	-420
▁ㅁㅗㄱ	-421
ㅈㅗㄱ	-422
▁199	-423
ㅈㅓㅁ	-424
ㅕㅂ	-425
▁ㅇㅡㄴㅏ	-426
ㅈㅡ	-427
ㅏㄹㅣ	-428
▁ㅊㅗㅇ	-429
▁ㅊㅏㅁ	-430
ㅅㅔ	-431
ㅊㅏ	-432
ㄹㅏ	-433
▁ㅊㅜㄱ	-434
▁ㅁㅏㄶ	-435
ㅅㅜㄹ	-436
▁12	-437
▁ㄸㅏㄹㅡ	-438
▁ㄱㅕㅇㄱㅣ	-439
ㅇㅛ	-440
ㄷㅡㅇ	-441
ㄹㅕㅇ	-442
▁18	-443
▁ㅂㅗㄱ	-444
▁ㅊㅗ	-445
ㅅㅣㅁ	-446
ㄷㅗㄱ	-447
ㄱㅏㄱ	-448
▁ㅇㅚ	-449
▁ㄱㅏㅈㅣ	-450
▁ㄷㅏㄱㅗ	-451
ㄹㅔ	-452
▁ㄷㅐㅎㅏㄱ	-453
ㅌㅐ	-454
▁ㄷㅏㄹㅡㄴ	-455
ㅊㅜㄹ	-456
ㅐㅇㅜ	-457
ㅕㅁ	-458
▁;	-459
▁M	-460
▁ㅇㅢㅎㅏ	-461
00	-462
ㅎㅕㅇ	-463
▁ㄱㅡㄴ	-464
▁ㅋㅗ	-465
▁ㅇㅑ	-466
▁ㅇㅣㅁ	-467
ㅉㅗㄱ	-468
▁ㅊㅓㄹ	-469
▁ㅃ	-470
ㅎㅕㄴ	-471
ㅗㅅㅓㄴ	-472
▁S	-473
ㅍㅏ	-474
ㅅㅓㄱ	-475
ㅎㅑㅇ	-476
▁ㅂㅓㅂ	-477
▁)	-478
ㅐㅁ	-479
ㄹㅏㄴ	-480
or	-481
ㅁㅗ	-482
▁ㅂㅕㄴ	-483
▁ㅎㅏㅇ	-484
▁ㅊㅓㄴ	-485
ㅍㅏㄴ	-486
▁11	-487
▁ㄸㅐㅁㅜㄴ	-488
ㅁㅜ	-489
▁ㅅㅣㅈㅏㄱ	-490
▁ㅅㅣㅋㅣ	-491
ㅍㅜㅁ	-492
▁ㅍㅛ	-493
▁ㅈㅓㅁ	-494
▁ㅇㅛㅇ	-495
▁ㄹㅣ	-496
▁ㄹㅔ	-497
ㅊㅓㄴ	-498
▁ㅅㅣㅈ	-499
ㅌㅡㄹ	-500
▁ᄆ	-501
▁ㅌㅣㅁ	-502
ㅈㅐㅇ	-503
ㅇㅕㄴ	-504
▁ㅂㅏㄱ	-505
▁ㅅㅏㄹㅏㅁ	-506
ㄲㅔ	-507
▁ㅇㅏㅇ	-508
▁&	-509
ㅇㅏㄱ	-510
▁A	-511
▁(	-512
▁ㅁㅔ	-513
▁ㅅㅓㄴㅅㅜ	-514
▁ㅊㅔ	-515
▁ㅂㅐ	-516
ㅓㅅㅡ	-517
▁ㅎㅏㅁㄲㅔ	-518
ㅎㅏㅇ	-519
▁ㅇㅑㄱ	-520
▁ㄸㅗㅎㅏㄴ	-521
▁ㅇㅏㅅㅓ	-522
▁ㅎㅏㄴㄱㅜㄱ	-523
▁ㅂㅐㄱ	-524
▁ㄷㅓ	-525
▁ㅋㅏ	-526
▁ㅈㅜㄱ	-527
▁ㅍㅏㄴ	-528
▁ㅇㅐ	-529
▁ㅅㅔㄱㅖ	-530
▁ㅇㅕㅇㅎㅘ	-531
▁ㄱㅘㅇ	-532
▁ㅇㅓㄴ	-533
ㅏㅇㅗ	-534
ㅌㅏㄴ	-535
▁ㅌㅏ	-536
▁ㅍㅏ	-537
▁ㅂㅡㄹ	-538
▁ㅈㅏㅅㅣㄴ	-539
▁ㅊㅏㅇ	-540
▁ㅆㅡ	-541
▁C	-542
▁ㄱㅗㄱ	-543
ㅡㅅ	-544
ㅇㅑ	-545
la	-546
ㅂㅏ	-547
ㅊㅓㅇ	-548
▁ㅅㅐ	-549
ㅅㅗㅇ	-550
▁ㅈㅗㄴ	-551
▁ㄱㅕㅇㅇㅜ	-552
▁ㅁㅏㅇ	-553
▁ㅅㅏㄱ	-554
ㅐㄴㄷㅡ	-555
▁ㄱㅜㄱㄱㅏ	-556
▁ㅌㅗㅇㅎㅏ	-557
▁ㄴㅔ	-558
▁ㄱㅣㄹㅗㄱ	-559
▁ㅈㅜㄹ	-560
▁ㄱㅗㄹ	-561
▁ㅍㅣㄹ	-562
▁T	-563
▁ㄷㅟ	-564
ㅎㅏㅁ	-565
▁f	-566
▁F	-567
ㅈㅣㄹ	-568
▁ㅎㅕㄴㅈㅐ	-569
ㅈㅜㄴ	-570
ㅌㅣ	-571
▁ㅍㅣ	-572
▁ㅅㅏㅇㅣ	-573
▁I	-574
▁ㅍㅕㄴ	-575
▁ㅎㅘㄱ	-576
▁ㅇㅣㄹㅡㅁ	-577
ㅇㅑㄱ	-578
▁ㄹㅣㄱ	-579
▁ㅎㅘㄹㄷㅗㅇ	-580
▁ㅇㅏㄴㅣ	-581
▁198	-582
▁ㄷㅏㄴㅡㄴ	-583
▁ㅁㅐ	-584
▁ㅇㅟㅊㅣ	-585
▁ㄷㅏㅇㅅㅣ	-586
▁ㅅㅣㅁ	-587
▁ㅊㅜ	-588
▁ㄱㅏㅈㅏㅇ	-589
▁ㄱㅡㅁ	-590
ㅅㅕㄴ	-591
▁ㅎㅏㅂ	-592
ㄷㅣㅇ	-593
ㅊㅗ	-594
▁ㄱㅐㅇ	-595
▁ㅅㅣㄱ	-596
ㅈㅜㅇㅢ	-597
▁_	-598
ㅅㅣㅇㅏ	-599
▁ㅈㅗㅅㅓㄴ	-600
ㅓㄹㅣ	-601
▁ㅈㅡㅇ	-602
▁ㅎㅏㄱㄱㅛ	-603
▁ㅎㅏㄴㅏ	-604
ㅡㄹㅣ	-605
▁ㄱㅠ	-606
▁ㅁㅏㄴㄷㅡㄹ	-607
▁ㄹㅣㄱㅡ	-608
ㅁㅐ	-609
▁ㄱㅡㄹㅓㄴㅏ	-610
▁ㅁㅗㅅ	-611
▁ㅇㅣㄴㅏ	-612
ㄷㅣ	-613
▁ㅂㅗㅇㅣ	-614
▁15	-615
▁ㄷㅗㄹ	-616
▁ㅅㅗㄴ	-617
▁ㅉㅐ	-618
ㄹㅣㅇㅏ	-619
▁ㅂㅔ	-620
▁for	-621
ㅂㅗㄱ	-622
▁ㄷㅐㅍㅛ	-623
ㅂㅕㅇ	-624
ㅍㅕㄴ	-625
mu	-626
ㅇㅑㅇ	-627
▁ㅇㅜㄹ	-628
ㅣㄱㅗ	-629
▁ㅅㅜㅇ	-630
▁ㄱㅡㄱ	-631
▁ㅅㅗㅇ	-632
ㄴㅏㅁ	-633
▁ㅌㅗ	-634
▁ㅈㅓ	-635
▁ㅇㅠㄹ	-636
ㅘㅇ	-637
▁ㅍㅡㄹㅏㅇ	-638
▁ㅅㅜㄴ	-639
▁ㅈㅗㄱ	-640
mula	-641
▁formula	-642
ㅡㅌ	-643
▁16	-644
▁ㅎㅘㅇ	-645
ㅎㅘㅇ	-646
▁ㅂㅕㅇ	-647
ㅡㄹㅗ	-648
▁ㅇㅕㄱㅅㅏ	-649
▁ㅅㅓㄱ	-650
▁ㅊㅜㅇ	-651
ㄹㅣㅁ	-652
ㅂㅕㄹ	-653
ㅌㅏㄹ	-654
▁ㅇㅣㄱ	-655
ㅗㄴㅡㄴ	-656
▁ㄸㅗㄴㅡㄴ	-657
▁ㄱㅣㄹ	-658
▁ㅁㅗㅇ	-659
ㅂㅜㅌㅓ	-660
ㄷㅏㄹ	-661
▁ㄱㅡㄹㅣㄱㅗ	-662
▁/	-663
▁ㅅㅏㅎㅚ	-664
ㅎㅘㄴ	-665
ㅔㄹㅡ	-666
ㅅㅐㄱ	-667
▁D	-668
ㅎㅓㅁ	-669
▁ㅈㅏㄹ	-670
▁ㄴㅗㄹ	-671
▁ㅅㅣㅈㅡㄴ	-672
▁0	-673
▁ㅇㅏㅍ	-674
ㄱㅕㄴ	-675
▁m	-676
ㅊㅣㅇ	-677
ㄱㅏㅇ	-678
ㅁㅗㄱ	-679
▁ㄴㅗㅇ	-680
▁ㅁㅣㄹ	-681
▁ㅌㅐㅇ	-682
▁ㅇㅕㄴㄱㅜ	-683
ㅏㄱㅏ	-684
ㄴㅏ	-685
▁17	-686
▁ㅂㅣㄹ	-687
ㅜㅅㅡ	-688
▁ㅊㅓㅅ	-689
▁ㅇㅓㅅㅓ	-690
ㄹㅕㄴ	-691
ㄱㅡㅂ	-692
ㅘㄴ	-693
▁[	-694
▁B	-695
ㄷㅜ	-696
▁]	-697
ㅊㅏㄹ	-698
▁197	-699
▁ㅌㅡㄹ	-700
ㅇㅕ	-701
ㄱㅕㄹ	-702
▁ㅅㅡㅌ	-703
▁ㅂㅗㄷㅏ	-704
ㄹㅛ	-705
▁ㄱㅜㅇ	-706
ㅅㅡㅂ	-707
▁ㅇㅘㄴ	-708
▁ㅍㅡㄹㅗ	-709
▁ㅈㅜㅇㄱㅜㄱ	-710
▁ㄴㅗㅍ	-711
▁ㅁㅗㅅㅎㅏ	-712
▁ㅎㅕㅂ	-713
▁ㄴㅣ	-714
▁ㄷㅏㅅㅣ	-715
ㅊㅡ	-716
▁ㅇㅏㄹㄹㅣ	-717
▁ㅇㅏㅂ	-718
▁ㅌㅜ	-719
▁ㅅㅣㄷㅐ	-720
▁ㅇㅏㅁ	-721
▁ㅍㅐ	-722
▁:	-723
▁K	-724
▁ㅅㅓㅇㅜㄹ	-725
ㅈㅣㅂ	-726
▁ㄹㅜ	-727
▁ㅍㅗㄱ	-728
▁ㅇㅕㅇㄱㅜㄱ	-729
ㅌㅜ	-730
▁ㅌㅐ	-731
ㅂㅜㄱ	-732
▁ㄱㅛㅇ	-733
▁ㅈㅓㅇㅂㅜ	-734
ㄱㅐ	-735
▁ㅌㅔ	-736
▁ㅂㅜㅇ	-737
▁ㄷㅣ	-738
▁ㄱㅣㄴ	-739
ㅎㅏㄱㄱㅛ	-740
▁ㄷㅗㅅㅣ	-741
▁ㅍㅡㄹㅏㅇㅅㅡ	-742
▁ㅇㅠㄴ	-743
▁ㅅㅜㄹ	-744
ㅇㅏㅇ	-745
▁k	-746
ㅈㅓ	-747
ㄹㅓ	-748
▁ㅇㅔㄴ	-749
▁ㅈㅓㄴㅈㅐㅇ	-750
ㅠㄱ	-751
ㅍㅣ	-752
ㅇㅓㅈㅣ	-753
ㅂㅓㅁ	-754
▁ㅅㅓㅂ	-755
▁ㅂㅐㅇㅜ	-756
▁ㄸㅡㅅ	-757
ㅇㅗ	-758
▁ㅍㅗㅎㅏㅁ	-759
▁ㅅㅓㅁ	-760
ㄱㅡㄴ	-761
▁ㅍㅗㄹ	-762
▁ㅋㅡㄹ	-763
▁196	-764
▁ㄷㅗㄱㅇㅣㄹ	-765
▁ㅁㅜㄴㅎㅘ	-766
▁ㅇㅕㄹㅓ	-767
▁14	-768
▁ㄹㅓ	-769
▁ㅂㅏㄲ	-770
▁ㄹㅗㅅㅓ	-771
ㄹㅑㅇ	-772
ㄱㅗㄱ	-773
ㄹㅐ	-774
▁ㅂㅕㄹ	-775
▁~	-776
▁ㅇㅗㄴ	-777
ㅅㅡㅌㅡ	-778
▁ㄷㅐㅎㅚ	-779
ㅇㅓㄴㅏ	-780
ㅇㅐ	-781
er	-782
ㅓㅎ	-783
▁ㅊㅟ	-784
ㅋㅔ	-785
ㄱㅠ	-786
▁ㅊㅜㄱㄱㅜ	-787
ㅇㅣㅂ	-788
▁g	-789
▁13	-790
▁P	-791
ㅊㅜ	-792
▁ㅋㅡㄹㄹ	-793
▁ㄱㅏㄴㅡㅇ	-794
▁ㅇㅟㅇㅝㄴ	-795
▁ㄴㅗㄴ	-796
▁ㄴㅠ	-797
▁ㄱㅓㅁ	-798
▁ㅁㅗㄷㅜ	-799
▁ㅊㅣㄴ	-800
in	-801
ㄱㅝㄴ	-802
▁ㅎㅘㄴ	-803
▁ㅎㅐㄱ	-804
▁ㅇㅣㅅㅏㅇ	-805
ㅈㅣㅇ	-806
▁ㄱㅏㅈ	-807
▁ㄷㅏㄱㅏ	-808
▁ㅇㅓㄹ	-809
ㅎㅏㄹ	-810
▁ㄷㅗㅇㅇㅏㄴ	-811
▁ㅁㅗㄷㅡㄴ	-812
▁ㄴㅏㄴ	-813
▁ㅁㅏㄱ	-814
▁ㄱㅏㅁㄷㅗㄱ	-815
ㅈㅗㄴ	-816
▁ㅁㅜㄴㅈㅔ	-817
ㅊㅜㄱ	-818
▁ㅎㅗㅇ	-819
▁ㄱㅏㄹ	-820
▁ㅂㅏㅇㅅㅗㅇ	-821
ㄷㅗㄹ	-822
▁ㄴㅏㄹ	-823
▁ㅅㅡㅍ	-824
▁ㄱㅜㅅㅓㅇ	-825
▁ㄱㅓㄹ	-826
ㅇㅡㅁ	-827
ㄹㅗㄴ	-828
ㅂㅗㅇ	-829
ㅇㅓㄴ	-830
▁194	-831
ㄱㅡㅁ	-832
▁ㄱㅐㅂㅏㄹ	-833
ㅏㅇㅣㄴ	-834
▁L	-835
ㄹㅗㅂ	-836
▁l	-837
▁ㅈㅣㅂㅏㅇ	-838
ㅠㄹ	-839
▁ㅁㅏㅌ	-840
▁ㅇㅏㅇㅣ	-841
ㅂㅓ	-842
▁ㅊㅓㅇㅡㅁ	-843
▁ㅈㅔㅈㅏㄱ	-844
▁ㅅㅏㄱㅓㄴ	-845
▁ㄴㅡㄴㄷㅏ	-846
▁ㄷㅐㅎㅏㄱㄱㅛ	-847
▁ㅇㅣㄹㅂㅜ	-848
▁ㅅㅗㅅ	-849
▁%	-850
▁ㅇㅠㄱ	-851
▁ㄱㅜㄱㅈㅔ	-852
▁ㄱㅔㅇㅣㅁ	-853
ㄷㅏㅁ	-854
ㅍㅣㄱ	-855
▁ㅈㅜㄴ	-856
▁ㅇㅣㄴㅎㅏ	-857
▁ㅈㅏㄱㅍㅜㅁ	-858
▁ㅊㅗㄱ	-859
▁ㄱㅘㄴㄱㅖ	-860
▁ㄷㅏㅁ	-861
▁ㅇㅣㅇㅛㅇ	-862
▁ㅇㅣㅇ	-863
ㅍㅕㅇ	-864
▁ㅅㅔㄱㅣ	-865
▁ㅋㅏㄹ	-866
ㅊㅓㄹ	-867
▁ㅁㅗㄹ	-868
▁ㅅㅣㄱㅏㄴ	-869
▁ㄲㅡㅌ	-870
ㄱㅘㅇ	-871
▁ㅇㅣㄹㅂㅏㄴ	-872
ㅈㅓㄹ	-873
▁ㄱㅗㅅ	-874
ㄹㄹㅣ	-875
▁ㄱㅛㅇㅠㄱ	-876
▁G	-877
▁N	-878
ㅏㅁㅏ	-879
▁ㅇㅜㄴㄷㅗㅇ	-880
ㅜㄹㅡ	-881
▁ㅇㅣㄴㄱㅜ	-882
ㅎㅚㄱ	-883
▁ㅎㅑㅇ	-884
▁ㅈㅗㄴㅈㅐ	-885
ㅅㅏㄹ	-886
▁ㅊㅣ	-887
▁ㄱㅡㅂ	-888
▁ㅈㅣㄹ	-889
▁ㅈㅓㅇㄷㅗ	-890
▁ㅈㅓㅂ	-891
▁ㅈㅜㅈㅏㅇ	-892
▁ㅆㅣ	-893
ㄴㅐ	-894
▁ㅇㅡㅁㅇㅏㄱ	-895
▁ㅈㅓㄹ	-896
▁ㅈㅓㅇㅊㅣ	-897
ㅂㅡ	-898
▁ㅈㅡㄱ	-899
▁gt	-900
▁ㄴㅏㅇㅗ	-901
on	-902
▁ㅊㅐㄱ	-903
▁km	-904
▁ㅍㅏㄹ	-905
ㅌㅐㄱ	-906
▁ㄱㅕㅇㅈㅔ	-907
▁195	-908
ㅁㅏㅇ	-909
▁ㅂㅜㄹㅡ	-910
▁ㅈㅜㅇㅅㅣㅁ	-911
ㅈㅡㅇ	-912
ㅊㅏㅇ	-913
▁ㄱㅟ	-914
ㅂㅐ	-915
ㅊㅐㄱ	-916
▁ㅋㅐ	-917
ㅎㅘㄹ	-918
▁ㅇㅣㄹㅓ	-919
▁ㄴㅐㅇ	-920
▁ㄱㅓㄴㅏ	-921
▁ㅁㅏㅈ	-922
▁lt	-923
▁ㄴㅏㅌㅏㄴ	-924
ㅌㅓㄴ	-925
▁R	-926
▁ㅅㅠ	-927
ㅊㅏㄱ	-928
▁U	-929
ㄴㅣ	-930
ㄴㅕㄴ	-931
▁ㅊㅣㄹ	-932
▁ㅇㅞ	-933
▁ㅊㅏㄹ	-934
ㅅㅗㄴ	-935
▁30	-936
ㅔㅇㅣㄴ	-937
▁ㅂㅏㄹㄱㅕㄴ	-938
ㅂㅕㄴ	-939
ㅌㅗㅇㄹㅕㅇ	-940
ㅔㅁ	-941
▁ㅍㅡㄹㄹ	-942
ㅇㅡㄴ	-943
▁ㄱㅣㅅㅜㄹ	-944
▁H	-945
ㅎㅘㄱㅜㄱ	-946
▁ㄷㅡ	-947
▁ㅅㅣㅇ	-948
▁ㅇㅏㄷㅡㄹ	-949
ㅂㅜㅂㅜㄴ	-950
▁ㄷㅗㄹㅗㄱ	-951
▁E	-952
▁ㅅㅗㄹ	-953
ㄷㅓ	-954
▁ㅊㅡㄱ	-955
▁ㅁㅣㄴㅈㅜ	-956
▁ㅌㅏㅇ	-957
▁ㅂㅏㄹㅍㅛ	-958
ㅊㅓ	-959
▁ㄷㅐㅇ	-960
ㅔㅅㅡ	-961
ㅋㅡㄹ	-962
▁ㄱㅕㄹㄱㅘ	-963
▁ㅇㅗㄹㄹㅣㅁ	-964
▁ㅈㅏㅁ	-965
▁ㅅㅏㅁㅏㅇ	-966
▁ㅂㅓ	-967
▁ㄱㅜㅈㅗ	-968
▁ㅇㅕㅇㅎㅑㅇ	-969
ㅅㅡㄴ	-970
ㅗㄱㅡㄹ	-971
▁ㅌㅐㅇㅓㄴㅏ	-972
▁ㅋㅣ	-973
ㄱㅡㄹ	-974
ㅈㅓㅂ	-975
▁2010	-976
▁ㅇㅜㅅㅡㅇ	-977
▁ㅂㅓㅁ	-978
▁ㄱㅗㅇㄱㅕㄱ	-979
▁ㄹㅗㅂㅜㅌㅓ	-980
ㅁㅏㄱ	-981
▁ㅇㅢㅁㅣ	-982
▁ㄷㅐㅌㅗㅇㄹㅕㅇ	-983
ㅇㅘㅇ	-984
ㅋㅜ	-985
▁ㄴㅓㅁ	-986
▁ㅋㅗㄴ	-987
▁ㄱㅘㅈㅓㅇ	-988
▁ㅇㅓㅂ	-989
▁ㄷㅐㅂㅜㅂㅜㄴ	-990
an	-991
ㄷㅏㄴㅡㄴ	-992
▁ㅈㅏㅂ	-993
▁ㅇㅗㄹㄹㅣㅁㅍㅣㄱ	-994
ㅍㅓ	-995
▁ㅇㅣㅅ	-996
▁ㄱㅘㄴㄹㅕㄴ	-997
ㅓㄱㅏ	-998
▁ㅈㅓㄴㅌㅜ	-999
▁ㅊㅣㅁ	-1000
▁ㅂㅜㄹㄹㅣ	-1001
▁ㅌㅏㄹ	-1002
▁ㅂㅏㄺ	-1003
▁ㅅㅐㄹㅗㅂ	-1004
▁ㅇㅕㄱㅣ	-1005
000	-1006
▁ㅈㅣㅇㅝㄴ	-1007
▁ㅍㅡㄹㅗㄱㅡㄹ	-1008
ㅔㅅ	-1009
▁ㅇㅕㄹㄹㅣ	-1010
ㄱㅡㄱ	-1011
▁ㅂㅓㄹ	-1012
▁ㅇㅓㄷ	-1013
▁ㅎㅛ	-1014
▁ㅇㅏㄱ	-1015
ㅎㅗㄴ	-1016
▁ㅌㅏㄴ	-1017
ㅏㅂ	-1018
▁ㅂㅏㄹㅅㅐㅇ	-1019
▁ㅍㅡㄹㅗㄱㅡㄹㅐㅁ	-1020
▁ㅂㅔㄹ	-1021
▁193	-1022
▁ㅎㅗㄴ	-1023
▁ㅊㅏㅁㅇㅕ	-1024
▁ㅇㅠㄹㅓㅂ	-1025
▁ㅋㅗㄹ	-1026
▁ㅈㅣㄴㅎㅐㅇ	-1027
▁ㅊㅐ	-1028
ㄷㅡㄱ	-1029
ㅍㅡㄹ	-1030
▁ㅈㅜㅇㅇㅏㅇ	-1031
▁ㅈㅗㅎ	-1032
ㅈㅣㅁㅏㄴ	-1033
▁ㅇㅓㅁ	-1034
▁ㅎㅐㅇㅈㅓㅇ	-1035
▁ㅊㅚㅊㅗ	-1036
▁ㄷㅗㄱㄹㅣㅂ	-1037
▁ㅂㅣㅇ	-1038
20	-1039
ㅆㅓ	-1040
▁ㅅㅔㄴ	-1041
▁c	-1042
▁ㅅㅓㄹㄹㅣㅂ	-1043
ㄱㅏㅁ	-1044
ㅜㄹㅣ	-1045
▁25	-1046
▁ㅌㅔㄹ	-1047
▁W	-1048
▁ㅂㅜㅂㅜㄴ	-1049
▁ㄹㅣㅇ	-1050
▁ㅇㅐㄹ	-1051
ㅌㅡㄴ	-1052
▁ㅈㅏㅇㅠ	-1053
▁ㄱㅕㄹㅈㅓㅇ	-1054
▁ㅌㅡㄱㅎㅣ	-1055
▁ㅎㅕㅇㅌㅐ	-1056
▁ㅈㅔㄱㅜㄱ	-1057
▁ㅍㅏㅇ	-1058
ㅜㅂ	-1059
▁ㄱㅗㄷㅡㅇ	-1060
▁ㄷㅏㅇㅑㅇ	-1061
▁ㅂㅏㄹㅁㅐ	-1062
▁ㅅㅔㅇㅜ	-1063
▁ㅍㅖ	-1064
ㄹㅣㄱ	-1065
▁ㅅㅏㅇㅌㅐ	-1066
▁ㅎㅏㅈㅣㅁㅏㄴ	-1067
ㅔㅇㅣㅅㅕㄴ	-1068
▁ㄷㅏㅇㅎㅏ	-1069
▁ᆫㄷㅏㄴㅡㄴ	-1070
▁ㅅㅗㄱㅎㅏ	-1071
▁ㅅㅓㄹㅊㅣ	-1072
▁ㅇㅣㅈㅓㄴ	-1073
▁ㄷㅡㄹㅇ	-1074
▁ㄱㅏㅌㅇㅣ	-1075
ㄹㅜ	-1076
▁ㅂㅡㄹㄹ	-1077
▁2008	-1078
▁ㅅㅗㅅㅗㄱ	-1079
▁ㅇㅣㄹㅜ	-1080
▁ㅇㅏㅇㅑ	-1081
▁ㅅㅏㅅㅣㄹ	-1082
▁ㅊㅗㄷㅡㅇ	-1083
▁ㄹㅔㅇㅣ	-1084
ㅂㅐㄱ	-1085
▁21	-1086
▁ㅎㅣ	-1087
ㄷㅣㅇㅗ	-1088
ㅌㅔ	-1089
▁ㅁㅜㅇ	-1090
▁ㅈㅘ	-1091
▁ㅅㅓㄴㄱㅓ	-1092
▁ㄱㅡㄴㅕ	-1093
▁ㅇㅣㄹㅇㅓㄴㅏ	-1094
▁ㅁㅜㄱ	-1095
ㄹㅣㄴ	-1096
▁ㅂㅣㄱ	-1097
ㅌㅣㄴ	-1098
▁ㅇㅡㄹㅗㅅㅓ	-1099
▁ㅈㅗㅈㅣㄱ	-1100
▁ㅇㅣㄱㅓㅅ	-1101
▁ㅇㅣㄴㅁㅣㄴ	-1102
▁ㅈㅗㄹ	-1103
▁ㅅㅐㅇㄱㅏㄱ	-1104
▁ㄴㅏㄹㅏ	-1105
▁ㅇㅕㅅㅓㅇ	-1106
▁ㄷㅡㅇㅈㅏㅇ	-1107
ㅍㅐ	-1108
▁ㅈㅜㄹㅗ	-1109
▁2011	-1110
▁ㅅㅡㄹ	-1111
▁2012	-1112
▁ㅍㅣㄹㅇㅛ	-1113
ㄷㅓㄱ	-1114
▁ㅇㅣㅌㅏㄹ	-1115
▁ㄷㅔㅇㅣ	-1116
▁ㅂㅗㄹ	-1117
▁ㄷㅜㄹ	-1118
▁ㅈㅜㅇㅛ	-1119
ㄷㅏㄱㅗ	-1120
▁ㅇㅜㄴㅇㅕㅇ	-1121
▁ㅊㅜㄹㅅㅣㄴ	-1122
▁ㄱㅣㅈㅜㄴ	-1123
▁ㅊㅏㅁㄱㅏ	-1124
▁ㅋㅓㅁ	-1125
▁ㅅㅐㅇㅅㅏㄴ	-1126
▁ㄱㅖㅎㅚㄱ	-1127
▁ㄷㅔㅂ	-1128
ㄹㅏㄱ	-1129
en	-1130
▁ㄱㅘㄴㄹㅣ	-1131
▁2009	-1132
▁100	-1133
▁ㄱㅣㄱㅘㄴ	-1134
▁ㅈㅜㅇㅇㅛ	-1135
▁2014	-1136
ㅣㅇㅓㄴ	-1137
▁ㅇㅟㅇㅝㄴㅎㅚ	-1138
ㅂㅏㄱ	-1139
ㅌㅚ	-1140
▁ㅈㅣㅈㅓㅇ	-1141
▁2007	-1142
ㄹㅏㄴㄷㅡ	-1143
ㅅㅜㄴ	-1144
▁ㅇㅕㅈㅏ	-1145
ㅏㅇㅜㄴ	-1146
ㅇㅕㄹ	-1147
▁ㄹㅏㅇㅣ	-1148
▁ㅂㅗㄴㅐ	-1149
▁ㅇㅡㅁㅂㅏㄴ	-1150
▁t	-1151
▁ㅌㅡ	-1152
▁ㅇㅓㄸ	-1153
▁ㄱㅓㅇ	-1154
▁ㅍㅔ	-1155
ㅣㅇㅗ	-1156
▁ㅈㅓㅇㅂㅗ	-1157
▁ㅅㅏㅇㄷㅐ	-1158
▁ㅅㅓㅇㄱㅗㅇ	-1159
▁ㄹㅗㅁㅏ	-1160
▁ㄱㅖㅅㅗㄱ	-1161
▁ㅅㅣㅈㅓㄹ	-1162
▁ㅅㅜㄱ	-1163
▁ㅇㅣㄹㅡ	-1164
ㄹㅡ	-1165
▁ㄱㅜㄱㅁㅣㄴ	-1166
▁a	-1167
▁ㅍㅜㅇ	-1168
▁ㅇㅓㄱ	-1169
▁ㅎㅢ	-1170
▁ㄹㅓㅅㅣㅇㅏ	-1171
▁O	-1172
▁ㅇㅗㅇ	-1173
▁ㄷㅔㅂㅟ	-1174
▁ㅁㅐㅇㅜ	-1175
ㅊㅏㄴ	-1176
▁2013	-1177
▁ㅅㅣㄹㅣ	-1178
▁ㅆㅏㅇ	-1179
▁ㅂㅏㄺㅎㅣ	-1180
▁ㄱㅘㅎㅏㄱ	-1181
▁ㄷㅐㅈㅓㄴ	-1182
ㅎㅢ	-1183
ㅇㅏㅁ	-1184
▁ㅅㅏㅇㅓㅂ	-1185
▁ㅎㅐㄷㅏㅇ	-1186
▁ㅅㅛ	-1187
▁ㅂㅏㄹㅈㅓㄴ	-1188
he	-1189
ㄴㅏㄹㅏ	-1190
ㄸㅐ	-1191
▁ㅇㅗㄱ	-1192
▁ㅎㅓㄴ	-1193
▁ㅅㅐㅇㅎㅘㄹ	-1194
▁ㅇㅐㄴ	-1195
▁ㅂㅏㅇㅂㅓㅂ	-1196
▁ㅃㅜㄴ	-1197
▁ㅇㅗㄹㅡ	-1198
ㅂㅡㄹ	-1199
▁ㄲㅗ	-1200
▁ㅇㅏㅂㅓㅈㅣ	-1201
▁ㅎㅣㅁ	-1202
ㅊㅡㄱ	-1203
▁ㅁㅕㅊ	-1204
ㅓㄴㅣ	-1205
▁ㅇㅣㅇㅠ	-1206
▁ㅈㅏㄹㅣ	-1207
▁ㅊㅏㅈ	-1208
ㄹㅣㅇ	-1209
▁191	-1210
▁ㅊㅏㅈㅣ	-1211
▁ㅅㅐㅇㅇㅐ	-1212
ㅁㅐㅇ	-1213
▁ㄱㅗㄹㅕ	-1214
▁ㅊㅗㄱㅣ	-1215
▁ㅅㅡㅋ	-1216
▁2015	-1217
▁23	-1218
▁2018	-1219
▁24	-1220
▁ㅌㅣ	-1221
ar	-1222
▁ㅇㅏㄹㅐ	-1223
▁ㄴㅡㅇ	-1224
▁ㅂㅣㄴ	-1225
ㅊㅣㅁ	-1226
▁ㄴㅐㅇㅛㅇ	-1227
▁ㅇㅝㄹㄷㅡ	-1228
ㅅㅡㅌㅡㄹ	-1229
▁ㅊㅓㄹㅓㅁ	-1230
▁ㅇㅐㄹㅂㅓㅁ	-1231
▁000	-1232
▁2016	-1233
ㅣㅇㅓ	-1234
▁ㅊㅜㄹㅇㅕㄴ	-1235
▁ㄱㅓㅊㅣ	-1236
▁ㅈㅣㄴㅐ	-1237
▁ㅇㅣㅌㅏㄹㄹㅣㅇㅏ	-1238
▁ㅎㅜㅂㅗ	-1239
▁ㄱㅡㄹㅜㅂ	-1240
▁ㅋㅜ	-1241
▁ㄴㅗㄱ	-1242
▁ㅇㅜㅇ	-1243
▁ㅅㅣㄹㅣㅈㅡ	-1244
▁ㄱㅕㄹㄱㅜㄱ	-1245
ㅊㅜㅇ	-1246
▁ㅍㅕㅇㄱㅏ	-1247
▁ㅋㅏㄴ	-1248
▁ㄱㅘㄴㅎㅏ	-1249
▁J	-1250
es	-1251
▁ㅁㅐㄱ	-1252
▁ㅁㅗㅁ	-1253
ㅇㅖ	-1254
▁ㅊㅚㄱㅗ	-1255
▁ㅁㅐㄴ	-1256
▁22	-1257
▁ㅈㅓㄴㅊㅔ	-1258
ㄱㅠㄴ	-1259
▁ㄱㅡㄹㅣㅅㅡ	-1260
▁ㅌㅓ	-1261
ㅗㅇㅣ	-1262
▁ㅂㅏㅇㅅㅣㄱ	-1263
▁ㄸㅓㄹ	-1264
▁2006	-1265
FA	-1266
▁ㅇㅣㄹㅜㅇ	-1267
▁ㅇㅣㄹㅜㅇㅓㅈㅣ	-1268
▁ㅎㅚㅅㅏ	-1269
▁ㄱㅕㄱ	-1270
▁ㅎㅏㄴㅍㅕㄴ	-1271
▁ㅁㅛ	-1272
▁ㅂㅜㅌ	-1273
ㅆㅡ	-1274
ㅇㅚ	-1275
▁ㅇㅣㄴㄱㅏㄴ	-1276
▁ᆫㄷㅏㄱㅗ	-1277
▁ㅅㅣㅅㅡㅌ	-1278
▁ㅊㅡㅇ	-1279
▁ㅅㅜㅅㅏㅇ	-1280
ㅂㅓㄹ	-1281
▁ㅅㅑ	-1282
▁192	-1283
▁ㅈㅣㄴㅏ	-1284
▁2017	-1285
▁ㅂㅜㄴㄹㅠ	-1286
▁ㄱㅗㄷㅡㅇㅎㅏㄱㄱㅛ	-1287
▁ㅇㅕㄴㅎㅏㅂ	-1288
▁ㄱㅗㅇㅅㅣㄱ	-1289
▁ㅅㅣㄱㅣ	-1290
▁ㄱㅐㅇㅛ	-1291
▁ㅎㅏㅇㄱㅗㅇ	-1292
ㅅㅡㅌㅓ	-1293
▁ㅈㅔㄱㅗㅇ	-1294
▁ㄴㅓ	-1295
▁ㅇㅜㄹㅣ	-1296
▁ㅇㅕㄱㅎㅏㄹ	-1297
▁ㄷㅡㄹㅏㅁㅏ	-1298
▁ㅎㅗㄱ	-1299
ㅊㅚ	-1300
▁ㅇㅢㅇㅝㄴ	-1301
▁ㅅㅣㅅㅡㅌㅔㅁ	-1302
▁ㅈㅓㅇㅇㅢ	-1303
▁ㄹㅠ	-1304
▁ㅎㅗㅁ	-1305
▁ㄱㅣㅇㅓㅂ	-1306
▁ㅁㅏㄶㅇㅣ	-1307
▁ㄱㅏㅇㅜㄴ	-1308
ㅍㅜㅇ	-1309
▁ㅈㅔㄷㅗ	-1310
▁ㅈㅏㄴ	-1311
▁ㄱㅏㅇㅜㄴㄷㅔ	-1312
ㅌㅣㅇ	-1313
▁ㅂㅔㄴ	-1314
▁ㄷㅗㅋ	-1315
▁ㄴㅗㅎ	-1316
▁ㅊㅜㄹㅈㅓㄴ	-1317
▁ㅈㅗㅅㅏ	-1318
▁ㅇㅠㅁㅕㅇ	-1319
▁ㅁㅣㄴㅈㅗㄱ	-1320
▁ㅎㅠ	-1321
▁ㄱㅣㄴㅡㅇ	-1322
ㅍㅣㄹ	-1323
ㄹㅑㄱ	-1324
▁ㄱㅛㅎㅚ	-1325
▁ㄱㅓㅇㅢ	-1326
▁ㅅㅐㄱ	-1327
▁ㄴㅏㅌㅏㄴㅏ	-1328
ㅊㅣㄱ	-1329
▁s	-1330
ㅔㄹㅣ	-1331
▁ㅂㅏㄴㄷㅐ	-1332
▁ㅇㅡㄹㅗㅆㅓ	-1333
▁ㄸㅏㄹ	-1334
ㄴㅏㄹ	-1335
ㅇㅏㅂ	-1336
ㅈㅜㄱ	-1337
▁ㅆㅡㅇㅣ	-1338
▁ㄴㅜㄴ	-1339
ㅎㅓㄴ	-1340
▁ㅍㅛㅎㅕㄴ	-1341
▁ㅇㅓㄴㅇㅓ	-1342
▁ㄹㅡ	-1343
▁ㅁㅔㅇㅣ	-1344
▁ㅇㅡㅇ	-1345
ㅎㅕㄱ	-1346
▁ㄴㅏㄱㅏ	-1347
▁ㅍㅏㄱ	-1348
▁ㅈㅣㄱㅜ	-1349
▁ㄷㅐㅅㅣㄴ	-1350
ㅁㅏㄹ	-1351
▁ㅁㅗㄱㄹㅗㄱ	-1352
▁ㄷㅏㄹㄹㅣ	-1353
▁ㅇㅠㅈㅣ	-1354
▁ㅇㅝ	-1355
▁ㄱㅐㅇㅣㄴ	-1356
▁ㄷㅐㅅㅏㅇ	-1357
▁ㅇㅡㄹㅗㅂㅜㅌㅓ	-1358
▁ㅎㅗㄹ	-1359
▁ㅌㅡㄱㅂㅕㄹ	-1360
▁ㅇㅣㄹㅗㄴ	-1361
▁ㄷㅗㅇㅅㅣ	-1362
▁26	-1363
at	-1364
ㅌㅏㅇ	-1365
▁ㅊㅣㅇ	-1366
▁ㅈㅏㅇㅕㄴ	-1367
▁ㅁㅗㅅㅡㅂ	-1368
▁ㄱㅠㅁㅗ	-1369
▁!	-1370
▁ㄱㅜㄴㅅㅏ	-1371
▁ㄱㅡㄹㅣ	-1372
▁ㄴㅗㄷㅗㅇ	-1373
▁ㄱㅗㅇㄱㅐ	-1374
ㅎㅟ	-1375
ㅡㄹㄹㅐㄴㄷㅡ	-1376
▁ㅇㅕㄴㄱㅕㄹ	-1377
▁ㅅㅡㅇㄹㅣ	-1378
▁ㅎㅕㄴㄷㅐ	-1379
▁ㅂㅔㅇㅣ	-1380
▁ㄱㅜㄹ	-1381
▁ㅇㅣㅇㅑ	-1382
▁ㅇㅑㄱㅜ	-1383
▁ㅅㅡㅂ	-1384
▁ㅁㅏㅈㅣ	-1385
▁28	-1386
▁ㅇㅣㅁㅣ	-1387
▁ㅁㅓㄹ	-1388
▁ㅅㅟ	-1389
▁ㄹㅗㅂ	-1390
▁2019	-1391
▁ㅇㅓㅇㅑ	-1392
ㅋㅓㅂ	-1393
▁ㄴㅏㅇㅣ	-1394
▁ㅈㅣㄴㅊㅜㄹ	-1395
▁ㄷㅡㄹㅇㅓㄱㅏ	-1396
▁27	-1397
▁ㄷㅏㄴㅊㅔ	-1398
▁ㄱㅏㄱㄱㅏㄱ	-1399
ㅋㅓ	-1400
▁ㄹㅏㅁ	-1401
▁ㅌㅏㅇㅣ	-1402
ㄴㅕㅁ	-1403
▁ㅈㅓㅇㅊㅐㄱ	-1404
▁ㅁㅗㄱㅈㅓㄱ	-1405
▁ㅇㅣㄴㅈㅓㅇ	-1406
▁ㅌㅡㄱㅈㅣㅇ	-1407
▁ㄸㅟ	-1408
▁ㅍㅡㄹㄹㅔㅇㅣ	-1409
▁ㅅㅡㅌㅏ	-1410
▁ㅅㅏㅇㅎㅘㅇ	-1411
▁ㅅㅏㄴㅇㅓㅂ	-1412
▁ㅈㅣㄷㅗ	-1413
▁ㅇㅣㄴㅁㅜㄹ	-1414
▁ㅈㅓㄴㅎㅏ	-1415
ㅇㅡㅇ	-1416
▁ㅊㅓㄹㄷㅗ	-1417
▁ㅅㅣㅈㅏㅇ	-1418
ㅊㅗㅇ	-1419
▁ㅁㅓㄱ	-1420
▁ㅇㅔㄹ	-1421
▁ㅋㅐㄴ	-1422
▁2005	-1423
▁2000	-1424
▁ㄱㅣㅇㅝㄴ	-1425
▁ㅁㅏㅈㅣㅁㅏㄱ	-1426
▁ㅇㅣㅁㅁㅕㅇ	-1427
▁ㅇㅣㅇㅑㄱㅣ	-1428
ㅇㅔ	-1429
▁ㄸㅓㄹㅇㅓㅈㅣ	-1430
▁ㅈㅓㄴㅁㅜㄴ	-1431
▁ㄱㅣㄱㅏㄴ	-1432
ㅂㅜㄱㄷㅗ	-1433
ㅊㅡㅇ	-1434
ㅜㅇㅝㄴ	-1435
▁ㅋㅓㅂ	-1436
▁ㄱㅜㅇㅕㄱ	-1437
▁ㅎㅜㄴ	-1438
▁ㅁㅗㄷㅔㄹ	-1439
▁ㅈㅣㄱㅈㅓㅂ	-1440
ic	-1441
al	-1442
▁ㅎㅕㄱ	-1443
ㅗㄹㅡ	-1444
▁ㄴㅏㄱ	-1445
▁ㅍㅔㄹ	-1446
▁ㄱㅕㅇㅅㅏㅇ	-1447
ㅌㅡㅇ	-1448
ㅎㅡㅇ	-1449
▁ㄴㅡ	-1450
▁ㄱㅖㅇㅑㄱ	-1451
ㅅㅡㄹ	-1452
▁ㅊㅏㄱ	-1453
▁ㅅㅓㄹㅗ	-1454
▁ㅊㅜㄱㅏ	-1455
▁ㄱㅓㄴㅅㅓㄹ	-1456
▁ㄷㅗㄴ	-1457
▁ㄹㅏㅇ	-1458
ㅂㅜㄹ	-1459
▁ㄱㅗㅇㄷㅗㅇ	-1460
▁ㅇㅡㅁㅕㄴ	-1461
ㅐㅁㅍ	-1462
▁ㅂㅣㄹㅗㅅ	-1463
ㄱㅓㄴ	-1464
▁FC	-1465
▁ㄱㅐㅊㅚ	-1466
▁2004	-1467
ㄷㅡㄴ	-1468
BS	-1469
▁ㅅㅏㅅㅏㅇ	-1470
▁ㅎㅕㅇㅅㅓㅇ	-1471
▁ㄱㅗㅇㄱㅏㄴ	-1472
ㄲㅣ	-1473
▁ㄱㅕㅇㅊㅏㄹ	-1474
ㅅㅜㄱ	-1475
▁ㅇㅣㄴㄷㅗ	-1476
▁ㅁㅏㅇㅣ	-1477
▁ㄱㅕㄹㅎㅗㄴ	-1478
ㄷㅡㅁ	-1479
▁ㄱㅓㄴㅁㅜㄹ	-1480
▁ㅈㅏㄷㅗㅇ	-1481
▁ㄴㅗㅅㅓㄴ	-1482
ㄴㅣㄷㅏ	-1483
ㄲㅡㄹ	-1484
▁ㅂㅕㄴㅎㅘ	-1485
ㄹㅠㄹ	-1486
▁ㄱㅡㄱㅓㅅ	-1487
▁ㄴㅗㄹㅐ	-1488
▁50	-1489
▁ㅎㅘㄹㅇㅑㄱ	-1490
▁ㅅㅡㅍㅔㅇㅣㄴ	-1491
▁ㅍㅣㅇ	-1492
▁ㄱㅓㄹㅣ	-1493
▁ㅁㅗㄴ	-1494
ㄹㅓㄴ	-1495
ㄱㅗㄹ	-1496
▁ㅋㅓㅁㅍ	-1497
▁TV	-1498
▁ㄱㅏㄲ	-1499
ㅅㅠ	-1500
ㅈㅏㅂ	-1501
▁31	-1502
▁ㅂㅕㄴㄱㅕㅇ	-1503
▁ㅂㅜㅅㅏㄴ	-1504
ㅎㅏㄱㅈㅏ	-1505
▁ㄱㅜㄱㅎㅚ	-1506
▁ㅅㅏㄹㅏㅇ	-1507
▁29	-1508
ㅡㅋㅣ	-1509
▁ㅂㅣㅅㅡ	-1510
▁ㅇㅗㄹㄹㅣ	-1511
▁ㄱㅛㅅㅜ	-1512
ㅔㅇㅣㄹ	-1513
▁ㅌㅏㅁ	-1514
is	-1515
▁ㅎㅣㄹ	-1516
▁ㄹㅗㄴ	-1517
▁ㅈㅗㄹㅇㅓㅂ	-1518
ㅇㅡㅋㅣ	-1519
it	-1520
▁ㄱㅗㅇㅎㅘㄱㅜㄱ	-1521
ㄹㅠㄱ	-1522
▁ㅇㅘㄴㅈㅓㄴ	-1523
▁b	-1524
re	-1525
▁ㄱㅕㄴ	-1526
ㄹㅖ	-1527
▁ㅁㅏㅇㅡㄹ	-1528
ㅁㅔ	-1529
▁ㄱㅏㄹㅣ	-1530
ㅌㅔㄴ	-1531
ㅅㅣㅇ	-1532
▁ㄴㅏㅈ	-1533
▁ㅇㅣㄴㅁㅣㄴㄱㅗㅇ	-1534
▁ㄱㅕㅇㄹㅕㄱ	-1535
ㄱㅏㄹ	-1536
ㄷㅓㄴ	-1537
▁ㅇㅣㄴㅁㅣㄴㄱㅗㅇㅎㅘㄱㅜㄱ	-1538
▁ㅈㅐㄱ	-1539
▁ㅇㅗㅅㅡㅌㅡㄹ	-1540
▁ㄷㅏㄹㅡ	-1541
▁ㅋㅡㄹㄹㅓㅂ	-1542
ㅂㅣㅈㅓㄴ	-1543
▁ㅌㅏㅂ	-1544
ㅔㄹㅏ	-1545
ㄹㅐㄴㄷㅡ	-1546
▁2020	-1547
▁ㅇㅕㄱㅅㅣ	-1548
▁ㅌㅔㄹㄹㅔ	-1549
▁ㅅㅣㅂ	-1550
▁190	-1551
▁ㅂㅣㅍㅏㄴ	-1552
ㅍㅗㄴ	-1553
▁ㅅㅓㅂㅣㅅㅡ	-1554
▁ㅁㅏㄹㅡ	-1555
▁ㅎㅏㄱㅅㅐㅇ	-1556
▁ㅈㅣㄱㅡㅁ	-1557
ㅇㅣㄱ	-1558
ou	-1559
ㅈㅡㅁ	-1560
▁ㅅㅣㄹㅈㅔ	-1561
ㅇㅛㄱ	-1562
▁ㅎㅔ	-1563
▁ㅎㅓㅇ	-1564
▁ㅈㅣㅈㅣ	-1565
ㅏㄷㅏ	-1566
ㅅㅏㄱ	-1567
▁ㅅㅗㅅㅓㄹ	-1568
▁ㅇㅜㅁ	-1569
▁ㅂㅗㅌㅗㅇ	-1570
▁ㅊㅚㄷㅐ	-1571
▁ㄱㅏㅂ	-1572
▁ㅁㅏㄴㄴㅏ	-1573
▁ㄱㅔㅆ	-1574
ㅇㅏㅇㅗ	-1575
▁ㅈㅜㅇㅎㅏㄱㄱㅛ	-1576
ㄷㅐㄹㅗ	-1577
▁ㄱㅣㅂㅗㄴ	-1578
▁ㄱㅏㅅㅜ	-1579
▁ㄹㅗㄱ	-1580
▁ㅇㅢㅎㅚ	-1581
▁ㅈㅜㅇㅎㅘ	-1582
▁ㄹㅕ	-1583
▁ㅏ	-1584
▁ㅇㅛㄱㅜ	-1585
▁ㄴㅏㅇ	-1586
▁ㅈㅓㄴㄱㅜㄱ	-1587
ㅇㅜㄴ	-1588
▁ㅍㅜㄹ	-1589
▁ㅇㅣㄹㅇㅡㅋㅣ	-1590
▁X	-1591
ㅡㄹㅣㅋㅏ	-1592
ㅌㅔㄹ	-1593
ㄴㅏㅁㄷㅗ	-1594
▁ㅌㅚ	-1595
▁ㅇㅓㅄㅇㅣ	-1596
▁ㅈㅗㅇㄱㅛ	-1597
▁ㅅㅣㅇㄱㅡㄹ	-1598
▁ㅈㅓㄴㅌㅗㅇ	-1599
▁ㄱㅕㅁ	-1600
ㅜㄱㅣ	-1601
ㅓㅎㄱㅔ	-1602
ㅎㅘㄱ	-1603
▁ㅅㅣㅅㅓㄹ	-1604
ㅍㅡㅌㅡ	-1605
▁ㅎㅘㅇㅈㅔ	-1606
▁ㅌㅜㅇ	-1607
ㅟㄴ	-1608
▁ㅊㅏㅇㅣ	-1609
▁ㅈㅏㄱㅣ	-1610
▁ㅍㅗㅇ	-1611
ㅇㅕㄱㅅㅣ	-1612
▁ㅂㅐㄴㄷㅡ	-1613
▁ㄱㅣㅂㅏㄴ	-1614
▁ㄴㅗㅍㅇㅣ	-1615
▁ㄱㅐㄱ	-1616
▁ㅇㅜㅈㅜ	-1617
▁ㅇㅝㄴㄹㅐ	-1618
▁ㄹㅣㅂ	-1619
ㄹㅔㄱ	-1620
▁ㅈㅣㅇ	-1621
ㄹㅕ	-1622
▁ㅂㅓㄹㅣ	-1623
ㅈㅚ	-1624
▁ㅅㅜㄷㅗ	-1625
▁2002	-1626
ㅋㅏㄴ	-1627
▁ㅅㅔㄹㅕㄱ	-1628
▁ㅇㅓㄸㅓㄴ	-1629
▁ㅊㅓ	-1630
ㅇㅏㄱㅏ	-1631
▁ㅇㅜㄴㅎㅐㅇ	-1632
ㅅㅔㄴ	-1633
▁ㅁㅕㅇㅊㅣㅇ	-1634
▁ㅎㅘㄴㄱㅕㅇ	-1635
▁ㄱㅛㅌㅗㅇ	-1636
▁ㅈㅏㄹㅛ	-1637
▁ㅍㅜ	-1638
▁ㄱㅏㅈㅗㄱ	-1639
▁ㄸㅓㄴㅏ	-1640
▁ㅅㅓㄹㅁㅕㅇ	-1641
▁40	-1642
▁ㄱㅕㅇㄱㅣㄷㅗ	-1643
▁ㅈㅣㅎㅏ	-1644
ㅌㅡㄱ	-1645
▁ㄴㅐㄹㅣ	-1646
▁ㅁㅠ	-1647
▁ㅅㅗㄹㅕㄴ	-1648
▁ㅈㅓㄴㄱㅣ	-1649
▁ㄱㅣㅌㅏ	-1650
▁ㄹㅜㅇ	-1651
▁ㅍㅏㄴㅁㅐ	-1652
▁ㅇㅝㄹㄷㅡㅋㅓㅂ	-1653
ㄱㅜㄹ	-1654
ㄷㅜㅇ	-1655
▁ㅅㅔㄴㅌㅓ	-1656
▁ㅇㅣㄲㅡㄹ	-1657
▁ㅁㅣㅇ	-1658
▁2003	-1659
▁ㄱㅗㅇㅇㅕㄴ	-1660
▁ㅅㅜㅎㅐㅇ	-1661
▁ㅎㅟ	-1662
▁ㄸㅏㄹㅏ	-1663
▁ㄷㅡㄱ	-1664
▁ㅎㅚㅇㅢ	-1665
ㅊㅗㄴ	-1666
ㄹㅣㅅㅡ	-1667
▁ㄹㅓㄴ	-1668
▁ㄷㅓㅂ	-1669
▁ㅅㅡㅇㄱㅏㅇ	-1670
▁ㅁㅗㅇㅑㅇ	-1671
▁ㄷㅗㅋㅛ	-1672
ㄹㅔㄴ	-1673
▁ㅇㅣㄷㅗㅇ	-1674
▁ㅂㅜㄴㅇㅑ	-1675
▁ㄱㅣㄷㅗㄱ	-1676
▁ㄷㅓㄱ	-1677
ㅂㅔ	-1678
▁ㅇㅖㅅㅜㄹ	-1679
▁ㅋㅏㅁ	-1680
▁ㄱㅣㄴㅕㅁ	-1681
▁ㄱㅛㅎㅘㅇ	-1682
▁ㅌㅗㅇㅎㅏㅂ	-1683
▁ㄱㅡㄹㅐ	-1684
▁ㄴㅏㅌㅏㄴㅐ	-1685
▁ㅇㅕㅁ	-1686
▁ㄷㅓㅇ	-1687
ㄷㅔㄴ	-1688
▁ㄹㅔㄴ	-1689
ㄱㅟ	-1690
▁ㄱㅓㄹㅊㅣ	-1691
mp	-1692
▁ㅍㅣㄴ	-1693
▁ㅂㅗㅎㅗ	-1694
▁ㄷㅗㅇㅣㅂ	-1695
ㅍㅔ	-1696
▁ㅌㅔㄹㄹㅔㅂㅣㅈㅓㄴ	-1697
le	-1698
▁ㄷㅗㅇㅁㅜㄹ	-1699
▁ㄴㅏㅁㅈㅏ	-1700
▁ㅎㅐㅇㄷㅗㅇ	-1701
▁ㅈㅏㄱㅇㅓㅂ	-1702
▁ㅅㅓㄴㅈㅓㅇ	-1703
▁ㄱㅣㅇ	-1704
ㅏㅇㅘ	-1705
ㅂㅔㄹ	-1706
▁ㅇㅕㄴㅂㅏㅇ	-1707
▁ㅋㅓㄴ	-1708
▁ㅅㅏㄱㅗ	-1709
▁ㅂㅜㄷㅐ	-1710
ㅓㄹㄹㅣ	-1711
ㄹㅕㄹ	-1712
▁ㅊㅏㄹㅑㅇ	-1713
▁ㄹㅣㄴ	-1714
▁ㅅㅣㄹㅅㅣ	-1715
▁ㄸㅏㄹㅏㅅㅓ	-1716
▁ㄴㅡㅇㄹㅕㄱ	-1717
ㅍㅗㄹ	-1718
▁ㅎㅔㄹ	-1719
▁ㅈㅏㄱㅇㅛㅇ	-1720
▁ㅊㅜㄹㅅㅣ	-1721
ㅇㅓㅁ	-1722
▁ㅁㅜㄴㅎㅏㄱ	-1723
▁=	-1724
▁ㅂㅏㄹㅗ	-1725
▁ㄸㅏㅇ	-1726
▁ㅇㅟㄴ	-1727
▁ㅎㅡㄹ	-1728
▁ㄱㅜㄴㄷㅐ	-1729
▁ㄱㅗㄷ	-1730
ㄷㅡㄹㅇㅣ	-1731
ㄷㅗㄴ	-1732
ㅠㅁ	-1733
ㅎㅜㄴ	-1734
ㅂㅣㄴ	-1735
▁ㅈㅡㅇㄱㅏ	-1736
▁ㅎㅕㅇㅅㅣㄱ	-1737
▁ㅂㅏㅇㅎㅑㅇ	-1738
▁ㄱㅣㅈㅗㄴ	-1739
▁ㅎㅐㅇㅇㅟ	-1740
ㅎㅕㅂ	-1741
▁ㄱㅡㄹㅓ	-1742
▁ㅎㅘㄱㅇㅣㄴ	-1743
▁ㄴㅓㄼ	-1744
▁ㅈㅣㅎㅟ	-1745
▁ㅈㅏㄱㄱㅏ	-1746
▁ㄴㅏㅁㅉㅗㄱ	-1747
▁ㅎㅛㄱㅘ	-1748
▁ㅎㅕㄱㅁㅕㅇ	-1749
▁ㅂㅜㄱㅉㅗㄱ	-1750
▁ㄱㅗㄴ	-1751
▁ㅈㅏㄱㄱㅗㄱ	-1752
▁ㄱㅘㄱㅓ	-1753
▁ㅇㅣㄸㅐ	-1754
▁ㅈㅔㅇㅚ	-1755
▁ㄹㅕㄱ	-1756
▁ㅂㅣㅅㅡㅅ	-1757
▁ㅅㅡㅇㄱㅏㅇㅈㅏㅇ	-1758
▁ㅁㅐㅇ	-1759
▁ㅇㅗㄻ	-1760
▁ㅌㅗㄹ	-1761
ㅌㅏㄱ	-1762
▁FI	-1763
▁ㄱㅏㅇㅎㅏ	-1764
ㅌㅓㄹ	-1765
ㄱㅓㄹㅣ	-1766
▁ㅁㅡㄹㅗ	-1767
▁ㅋㅓㅁㅍㅠ	-1768
▁ㅈㅜㅂㅕㄴ	-1769
▁ㅇㅓㅁㅓㄴㅣ	-1770
ㅈㅔㄹ	-1771
▁ㅅㅐㅇㄱㅣ	-1772
▁ㄱㅣㄷㅗㄱㄱㅛ	-1773
ㅇㅕㅁ	-1774
▁ㅇㅘㅇㄱㅜㄱ	-1775
▁ㅈㅗㅇㄹㅠ	-1776
▁ㄷㅗㄹㅗ	-1777
▁ㄴㅡㄹ	-1778
▁ㅌㅐㅇㅑㅇ	-1779
▁ㅇㅕㄹㅊㅏ	-1780
▁ㅋㅗㅇ	-1781
▁ㅂㅓㅅㅡ	-1782
▁ㅍㅔㄴ	-1783
▁ㄱㅓㄷㅜ	-1784
▁ㅇㅠㅇㅣㄹ	-1785
ㅇㅠㄱ	-1786
▁ㅈㅓㅇㄷㅏㅇ	-1787
▁ㅂㅣㄱㅛ	-1788
ㅁㅣㄹ	-1789
▁ㅎㅡㅇ	-1790
▁ㅈㅣㅂㅐ	-1791
▁ㅇㅕㄱㅇㅣㅁ	-1792
▁ㅎㅏㄹ	-1793
▁ㄴㅠㅇㅛㄱ	-1794
▁ㄴㅓㅎ	-1795
▁ㅇㅗㄻㄱㅣ	-1796
▁ㅇㅣㅈㅓㄱ	-1797
ㅂㅕㄱ	-1798
▁ㅍㅡㄹㅣ	-1799
▁ㅅㅡㅁ	-1800
ㅈㅟ	-1801
ㅌㅗㄴ	-1802
▁ㅇㅐㄱ	-1803
BC	-1804
▁ㄴㅏㅁㅂㅜ	-1805
ㅎㅛ	-1806
▁ㅎㅕㅂㅎㅚ	-1807
▁ㅈㅓㄱㅇㅛㅇ	-1808
▁ㅎㅗㄱㅇㅡㄴ	-1809
▁ㅈㅓㄴㅈㅏ	-1810
▁ㅉㅗㄱ	-1811
▁ㄱㅗㅇㅅㅏㄴ	-1812
▁ㅎㅡㄴ	-1813
▁ㅋㅐㄴㅏㄷㅏ	-1814
▁ㅇㅗㅍ	-1815
▁ㅇㅐㄴㅣㅁ	-1816
▁ㅁㅜㄹㄹㅣ	-1817
▁ㅊㅜㅈㅓㅇ	-1818
▁ㅂㅏㄴㅇㅡㅇ	-1819
▁ㅅㅓㅇㅈㅏㅇ	-1820
▁ㅍㅐㄴ	-1821
▁ㄷㅏㅁㄷㅏㅇ	-1822
ㅆㅣ	-1823
▁ㅅㅣㅁㅣㄴ	-1824
ㄹㅏㅇ	-1825
▁ㄱㅓㄴㅊㅜㄱ	-1826
ㅞㅇㅓ	-1827
▁ㄷㅗㅇㅇㅣㄹ	-1828
ㅋㅗㅇ	-1829
▁ㄱㅐㄴㅕㅁ	-1830
ㅈㅏㄹㅣ	-1831
▁1990	-1832
▁ㅇㅣㅇㅓㅈㅣ	-1833
▁ㅋㅣㅇ	-1834
▁ㅈㅏㅇㄱㅘㄴ	-1835
▁ㅇㅠㄱㄱㅜㄴ	-1836
▁ㅇㅓㄹㅣ	-1837
▁ㄱㅏㅈㅊㅜ	-1838
▁ㅍㅜㅁ	-1839
▁2001	-1840
▁ㅇㅣㄴㄱㅣ	-1841
▁ㅎㅚㄱ	-1842
▁ㅅㅡㅌㅡㄹ	-1843
▁ㅁㅔㅁ	-1844
ㄷㅓㄹ	-1845
▁ㅋㅓㅁㅍㅠㅌㅓ	-1846
ㅋㅔㅅ	-1847
▁ㄷㅗㅇㅉㅗㄱ	-1848
ㅇㅜㅅㅡ	-1849
▁ㅈㅗㅈㅣ	-1850
▁ㅇㅔㄴㅈㅣㄴ	-1851
▁ㅌㅗㄴ	-1852
ㅈㅏㅇㅣㄴ	-1853
▁ㅋㅔㅇㅣ	-1854
▁ㅇㅠㅇ	-1855
▁ㄱㅜㄱㅏㄴ	-1856
▁p	-1857
▁ㅇㅗㄴㅡㄹ	-1858
▁ㅇㅕㄴㄱㅣ	-1859
ㅇㅢㅇㅝㄴ	-1860
▁ㅇㅔㄴㅓㅈㅣ	-1861
▁ᆫㄷㅔ	-1862
▁ㅁㅏㅇㅡㅁ	-1863
▁ㄱㅚ	-1864
▁ㅅㅏㄷㅏㄴ	-1865
▁ㄷㅣㅈㅏㅇㅣㄴ	-1866
▁ㅅㅏㅇㄷㅏㅇ	-1867
▁ㅇㅖㅈㅓㅇ	-1868
▁ㄱㅜㄱㄴㅐ	-1869
▁ㅋㅡㄱㅣ	-1870
▁ㅊㅏㄴ	-1871
▁ㅈㅏㄱㅈㅓㄴ	-1872
ㄴㅗ	-1873
ㅅㅐ	-1874
▁ㅈㅗㄱㅓㄴ	-1875
▁ㅎㅡㄱ	-1876
ㄱㅜㅇ	-1877
▁ㅁㅣㄴㅈㅜㅈㅜㅇㅢ	-1878
▁ㅁㅏㄷㅏ	-1879
▁ㅅㅔㅍㅗ	-1880
▁189	-1881
ㅂㅣㅇ	-1882
▁ㅊㅏㄹㅖ	-1883
▁ㅅㅣㄹㅍㅐ	-1884
▁ㅅㅓㅉㅗㄱ	-1885
▁ㅂㅏㄲㅜ	-1886
▁ㅂㅓㅈㅓㄴ	-1887
ㅅㅡㅌㅏㄴ	-1888
ㄱㅐㄱ	-1889
▁FIFA	-1890
▁ㅈㅏㅊㅔ	-1891
▁ㅇㅐㄴㅣㅁㅔㅇㅣㅅㅕㄴ	-1892
ㅊㅟ	-1893
▁ㅅㅜㄹㅗㄱ	-1894
▁d	-1895
▁ㅊㅜㅇㅊㅓㅇ	-1896
▁ㅊㅣㄹㅡ	-1897
▁ㄱㅓㅂ	-1898
▁ㄱㅗㅇㅅㅏ	-1899
▁ㅅㅓㄴㅇㅓㄴ	-1900
▁ㅌㅡㄱㅈㅓㅇ	-1901
ㅊㅐ	-1902
▁ㅇㅣㄹㅓㄴ	-1903
ㅅㅡㅋㅡ	-1904
▁ㅇㅓㄴㅡ	-1905
▁ㅂㅣㅎㅏ	-1906
▁ㅁㅓㄹㅣ	-1907
ㅋㅣㄴ	-1908
ㄱㅅㅡ	-1909
▁ㅇㅗㄹㅐ	-1910
▁ㄷㅗㄹㅇㅏㅇㅗ	-1911
▁ㅊㅔㅈㅔ	-1912
▁ㅇㅕㄴㅅㅗㄱ	-1913
▁ㅂㅜㅈㅗㄱ	-1914
▁ㅅㅟㅂ	-1915
▁ㅂㅏㅇㅇㅕㅇ	-1916
▁ㄱㅗㄷㅐ	-1917
▁ㅅㅓㄴㅌㅐㄱ	-1918
▁ㄱㅕㄹㅅㅡㅇ	-1919
▁ㄱㅏㄹㅣㅋㅣ	-1920
▁ㅌㅏㄱ	-1921
▁ㄱㅜㄱㄹㅣㅂ	-1922
el	-1923
▁ㅁㅔㅁㅂㅓ	-1924
▁ㅈㅟ	-1925
▁ㅎㅐㄱㅜㄴ	-1926
▁ㄱㅠㅈㅓㅇ	-1927
▁ㄱㅗㅇㅎㅏㅇ	-1928
▁ㄴㅐㅂㅜ	-1929
▁ㄱㅐㅎㅕㄱ	-1930
▁ㅅㅔㄹ	-1931
▁ㅋㅡㄹㅣㅅㅡ	-1932
▁ㅇㅙ	-1933
et	-1934
ㅎㅗㄱ	-1935
▁ㅅㅡㅍㅗ	-1936
ㅁㅐㄱ	-1937
▁ㅈㅏㅊㅣ	-1938
▁ㅈㅓㅇㅅㅣㄴ	-1939
▁ㄷㅔㄴ	-1940
▁ㅈㅗㅇㅑㄱ	-1941
ㄱㅏㅈㅣ	-1942
▁ㅍㅣㅎㅐ	-1943
ㅈㅘ	-1944
▁ㄷㅏㄴㄱㅖ	-1945
▁ㅅㅗㄱㄷㅗ	-1946
▁ㅎㅓㄴㅂㅓㅂ	-1947
▁ㅊㅚㅈㅗㅇ	-1948
▁ㅎㅓ	-1949
▁ㄹㅕㄴ	-1950
▁ㅁㅕㅇㄹㅕㅇ	-1951
▁ㅁㅓㄴ	-1952
ion	-1953
▁ㅂㅜㄱㅂㅜ	-1954
▁ㄷㅏㄹㅜ	-1955
▁ㄱㅣㅇㅝㄴㅈㅓㄴ	-1956
▁ㅇㅣㅅㅏ	-1957
▁ㅇㅕㄴㄷㅐ	-1958
▁ㅅㅓㄴㅊㅜㄹ	-1959
▁ㅂㅜㄴㅅㅓㄱ	-1960
▁ㅇㅕㅇㅇㅓ	-1961
▁ㄱㅏㅊㅣ	-1962
▁ㅇㅕㄴㅈㅜ	-1963
▁ㅈㅣㅁㅕㅇ	-1964
▁ㄸㅏ	-1965
▁ㄴㅡㄴㅈㅣ	-1966
ㅊㅣㄴ	-1967
▁ㅇㅖㅅ	-1968
ㄱㅌㅡ	-1969
▁ㅅㅓㄹㄱㅖ	-1970
▁ㅇㅣㄴㅌㅓㄴ	-1971
▁ㅂㅣㅁ	-1972
ㅌㅡㄴㅏㅁ	-1973
▁ㄴㅏㄴㅜ	-1974
▁ㅁㅜㄹㅈㅣㄹ	-1975
▁ㅊㅣㄹㅛ	-1976
▁ㅇㅣㄴㅊㅓㄴ	-1977
ㅜㄹㅏ	-1978
▁ㅊㅜㄹㅍㅏㄴ	-1979
ㄱㅡㄹㄹㅐㄴㄷㅡ	-1980
▁ㅇㅣㅂㄷㅏㄴ	-1981
▁ㅇㅗㅅ	-1982
ㄷㅏㅂ	-1983
▁ㅊㅚㄱㅡㄴ	-1984
▁ㅊㅣㄴㄱㅜ	-1985
ㅋㅗㄹ	-1986
ㅅㅏㅁ	-1987
ㅅㅜㅇ	-1988
▁ㅇㅏㄹㅡ	-1989
▁ㅊㅔㄱㅖ	-1990
ing	-1991
▁ㅊㅓㄱ	-1992
▁ㄴㅗㄴㄹㅏㄴ	-1993
ㅈㅏㄴ	-1994
ㅣㅅㅡㅌㅡ	-1995
▁ㅂㅏㅁ	-1996
▁ㄱㅘㄴㅎㅏㄹ	-1997
▁ㄷㅏㄹㄹㅓ	-1998
▁ㅋㅓ	-1999
▁ㅇㅢㅅㅏ	-2000
▁ㅇㅏㅅㅣㅇㅏ	-2001
▁ㅈㅐㅇ	-2002
ㅏㅇㅣㄹ	-2003
▁ㅂㅣㅎㅐㅇ	-2004
▁ㄷㅓㅇㅜㄱ	-2005
▁ᆫㅈㅣ	-2006
▁ㅍㅕㅇㄱㅠㄴ	-2007
▁ㄱㅏㅇㅎㅘ	-2008
▁ㅈㅣㅂㄷㅏㄴ	-2009
▁ㄱㅏㄲㅏㅂ	-2010
ㄱㅣㄹ	-2011
▁ㄷㅐㅈㅜㅇ	-2012
ol	-2013
▁1999	-2014
▁ㅂㅜㄱㅎㅏㄴ	-2015
▁ㅍㅛㅈㅜㄴ	-2016
ㄷㅡㄹㅣ	-2017
▁ㅉㅏ	-2018
▁ㅎㅜㅂㅏㄴ	-2019
ㅞㅇㅣ	-2020
ㅅㅣㅁㅏ	-2021
▁ㅂㅐㅊㅣ	-2022
ㅊㅓㄱ	-2023
▁ㅎㅜㅇ	-2024
21	-2025
▁ㅊㅐㅁㅍ	-2026
ㅍㅖ	-2027
ㅍㅡㄹㄹ	-2028
▁ㅈㅔㅍㅜㅁ	-2029
▁ㅂㅜㅁㅜㄴ	-2030
ㅋㅓㄹ	-2031
▁ㅇㅓㄴㄱㅡㅂ	-2032
▁ㅂㅓㅂㅇㅝㄴ	-2033
▁ㄱㅘㄴㅅㅣㅁ	-2034
▁ㅎㅕㄴㅅㅏㅇ	-2035
▁1998	-2036
▁Y	-2037
▁ㅅㅣㄹㅎㅓㅁ	-2038
ㅋㅣㅇ	-2039
ㅔㄹㅣㅋㅏ	-2040
▁ㄴㅏㅁㄱㅣ	-2041
▁ㅊㅐㅁㅍㅣㅇㅓㄴ	-2042
ㅎㅐㄱ	-2043
▁ㅅㅡㅍㅗㅊㅡ	-2044
▁o	-2045
▁ㅈㅗㅈㅓㅇ	-2046
▁ㅎㅏㅁㅅㅜ	-2047
▁ㅇㅖㅅㅓㄴ	-2048
▁ㅆㅣㄱ	-2049
ㅓㅇㅗ	-2050
▁ㅎㅘㄱㅈㅏㅇ	-2051
▁ㄱㅐㅇㅝㄹ	-2052
ㅉㅐ	-2053
▁ㅅㅏㅁㅜ	-2054
▁ㅇㅣㅇㄱㅡㄹㄹㅐㄴㄷㅡ	-2055
▁ㅎㅚㄱㄷㅡㄱ	-2056
▁ㄹㅐ	-2057
▁ㄱㅗㅇㅇㅝㄴ	-2058
▁1980	-2059
▁ㅂㅜㅅㅏㅇ	-2060
▁ㅅㅓㄴㅂㅏㄹ	-2061
▁ㅂㅜㄴㄹㅣ	-2062
▁ㅇㅛㅅㅗ	-2063
▁ㅅㅗㅇㅠ	-2064
▁ㅊㅓㄹㅣ	-2065
ㅋㅡㅁ	-2066
▁ㄴㅐㄱ	-2067
ㅏㅎ	-2068
▁ㅂㅐㄱㅕㅇ	-2069
▁ㅁㅗㄱㅍㅛ	-2070
▁ㅈㅣㅅㅗㄱ	-2071
▁cm	-2072
▁ㅈㅜㄷㅗ	-2073
▁ㅇㅠㅅㅏ	-2074
▁ㅈㅐㅍㅏㄴ	-2075
ㅍㅣㄴ	-2076
▁60	-2077
▁ㅎㅏㄱㅖ	-2078
▁ㄷㅗㅇㅜㅁ	-2079
ㅅㅙ	-2080
▁ㅌㅗㅇㅇㅣㄹ	-2081
▁ㅈㅏㄷㅗㅇㅊㅏ	-2082
▁ㅎㅏㅇㅣ	-2083
▁ㅋㅔ	-2084
▁ㅈㅜㅁㅣㄴ	-2085
▁ㅁㅐㅈ	-2086
▁35	-2087
▁ㄴㅏㅁㅜ	-2088
▁ㅍㅕㄴㅅㅓㅇ	-2089
▁ㅇㅠㄹㅐ	-2090
▁ㅈㅡ	-2091
▁ㅂㅣㅊ	-2092
▁ㄱㅗㅈㅏ	-2093
ㅗㅅㅡ	-2094
ㄷㅣㅇㅓ	-2095
▁ㅈㅣㄴㅣ	-2096
ㅜㄱㅜ	-2097
▁ㅈㅓㅇㄱㅠ	-2098
▁ㅅㅣㄷㅗ	-2099
▁ㄱㅜㄷㅏㄴ	-2100
▁ㅇㅚㄱㅜㄱ	-2101
▁ㅇㅓㄹㅕㅂ	-2102
▁ㅈㅏㅇㄱㅜㄴ	-2103
ㅎㅖ	-2104
▁ㅃㅏㄹㅡ	-2105
▁ㄲㅗㅊ	-2106
ㅎㅗㅇ	-2107
▁ㅎㅑㅇㅎㅏ	-2108
▁ㅓ	-2109
▁ㅈㅜㅇㅣㄴ	-2110
▁ㄱㅓㅈㅜ	-2111
▁ㅈㅓㅁㄹㅕㅇ	-2112
▁ㅅㅣㅎㅓㅁ	-2113
▁ㅇㅏㄹㄹㅔㄱ	-2114
▁ㄱㅗㅇㄹㅣㅂ	-2115
▁ㅊㅓㅂ	-2116
▁ㅎㅐㅇㅅㅏ	-2117
▁ㄷㅔㅇㅣㅌㅓ	-2118
ㅅㅓㅅ	-2119
▁ㄹㅕㄱㅗ	-2120
▁mm	-2121
▁ㅌㅗㅇㅅㅣㄴ	-2122
ㅘㄹ	-2123
▁ㄴㅔㄷㅓㄹ	-2124
▁ㅇㅝㄴㅇㅣㄴ	-2125
▁ㄱㅡㄹㅓㅎ	-2126
▁ㅇㅓㄴㄹㅗㄴ	-2127
▁ㅂㅐㅇ	-2128
▁ㅇㅏㄴㅈㅓㅇ	-2129
▁ㅂㅏㄲㅟ	-2130
ㅋㅗㄴ	-2131
▁ㄱㅕ	-2132
▁ㄱㅣㅍ	-2133
▁ㅍㅏㄹㅣ	-2134
▁ㅊㅐㄱㅇㅣㅁ	-2135
▁ㄷㅏㅁㅕㄴ	-2136
▁ㅇㅣㅀ	-2137
▁ㄱㅕㄹㅎㅏㅂ	-2138
▁ㅅㅡㄹㅓㅂ	-2139
▁ㄷㅗㅇㅁㅐㅇ	-2140
▁n	-2141
▁ㅇㅞㅂ	-2142
▁ㅎㅗㅅ	-2143
▁ㄱㅣㅅㅏ	-2144
▁ㄱㅗㅅㅗㄱ	-2145
▁ㅅㅏㄹㅕㅇ	-2146
▁ㅂㅗㄴㅅㅓㄴ	-2147
▁ㅂㅔㅌㅡㄴㅏㅁ	-2148
▁ㄱㅐㅂㅗㅇ	-2149
▁ㅅㅜㅈㅜㄴ	-2150
▁ㅈㅏㅇㅊㅣ	-2151
▁ㅎㅕㄹ	-2152
▁ㅇㅣㄹㅈㅗㅇ	-2153
▁ㅎㅏㄱㅈㅏ	-2154
▁ㅂㅜㄹㄱㅛ	-2155
▁ㅁㅣㅊㅣ	-2156
ㅍㅗㄱ	-2157
▁ㅇㅛㅇㅇㅓ	-2158
▁ㅇㅔㅇㅣ	-2159
▁ㄷㅡㅅ	-2160
om	-2161
▁ㅇㅏㅇㅣㄹ	-2162
ㅈㅔㄱㅌㅡ	-2163
▁ᄇ	-2164
▁ㅍㅔㅇㅣ	-2165
▁ㅇㅡㄴㅌㅚ	-2166
▁ㅈㅜㄴㅂㅣ	-2167
ㅗㅂ	-2168
▁ㅂㅜㄹㄱㅜ	-2169
▁ㅅㅓㅇㅈㅓㄱ	-2170
▁ㄷㅏㅇㅣ	-2171
ㅋㅡㄹㄹ	-2172
▁1997	-2173
▁ㄱㅜㅂㅜㄴ	-2174
ㅂㅓㅅㅡ	-2175
▁ㅇㅣㅎㅐ	-2176
▁ㄱㅏㄹㅡ	-2177
▁ㄱㅣㄹㅇㅣ	-2178
▁ㅂㅣㄷㅣㅇㅗ	-2179
▁ㄷㅐㄱㅜ	-2180
▁ㅁㅜㄴㅅㅓ	-2181
▁ㅌㅜㅍㅛ	-2182
▁ㄱㅡㄹㅣㅁ	-2183
▁ㅂㅏㅇㅁㅜㄴ	-2184
▁ㄹㅗㅇ	-2185
▁ㅅㅏㅈㅣㄴ	-2186
▁ㅇㅠㅈㅓㄴ	-2187
▁ㅈㅓㅇㄱㅝㄴ	-2188
▁ㄲㅡㅌㄴㅏ	-2189
▁ㅅㅖ	-2190
▁ㅈㅓㅇㅎㅏ	-2191
ㅇㅝㄹ	-2192
▁ㄱㅏㅈㅓㅇ	-2193
▁ㅅㅣㄴㅁㅜㄴ	-2194
▁ㄱㅏㅁㅜㄴ	-2195
▁ㅁㅜㄴㅈㅏ	-2196
▁ㅍㅗㄴ	-2197
▁ㅁㅣㄷ	-2198
▁ㅇㅏㅍㅡㄹㅣㅋㅏ	-2199
st	-2200
ㄴㅡㅇ	-2201
▁ㄷㅓㄹ	-2202
▁ㅎㅐㅅㅓㄱ	-2203
ㅅㅡㅌㅓㄴ	-2204
▁ㄱㅕㅇㅎㅓㅁ	-2205
▁ㄷㅐㄹㅗ	-2206
ㅅㅣㅂ	-2207
▁ㅈㅓㅇㄹㅣ	-2208
▁ㅇㅛㄹㅣ	-2209
▁ㅌㅗㅇㄱㅘ	-2210
▁amp	-2211
▁ㅈㅓㅇㅎㅘㄱ	-2212
▁The	-2213
▁ㅇㅣㄹㅈㅔ	-2214
▁1996	-2215
ㅗㅊ	-2216
▁ㅇㅘㅇㅈㅗ	-2217
▁ㄹㅣㅁ	-2218
▁ㅍㅕㅇㅎㅘ	-2219
▁ㅇㅗㄴㅡㄹㄴㅏㄹ	-2220
▁1995	-2221
▁ㅅㅓㅅㅣㄱ	-2222
▁ㅍㅓ	-2223
ㅇㅐㄱ	-2224
▁32	-2225
ㅁㅔㄷㅏㄹ	-2226
▁ㅂㅜㄴㅍㅗ	-2227
ㅇㅗㄱ	-2228
▁ㅊㅜㅈㅣㄴ	-2229
▁ㅁㅕㄴㅈㅓㄱ	-2230
▁ㅍㅡㄹㅗㅈㅔㄱㅌㅡ	-2231
▁ㅇㅣㅂㅈㅏㅇ	-2232
ㄷㅚ	-2233
ㅏㅌ	-2234
▁ㄱㅕㅇㅇㅕㅇ	-2235
▁ㅂㅜㅇㅣㄴ	-2236
▁ㄹㅓㄴㄷㅓㄴ	-2237
▁ㄹㅕㄴㅡㄴ	-2238
▁ㅈㅗㅇㅎㅏㅂ	-2239
ㅎㅡ	-2240
▁ㅁㅕㄹ	-2241
▁ㅋㅔㄴ	-2242
▁70	-2243
▁ㄱㅏㅄ	-2244
▁ㅁㅣㄴㅈㅜㄷㅏㅇ	-2245
▁ㅇㅏㅈㅣㄱ	-2246
ㅇㅓㅆ	-2247
▁ㅌㅗㅇㅊㅣ	-2248
▁ㄱㅕㅇㅈㅐㅇ	-2249
▁ㅁㅏㄴㅎㅘ	-2250
▁ㅌㅐㄱ	-2251
▁ㄱㅏㅇㅣ	-2252
▁ㅂㅏㄷㅏ	-2253
▁ㅇㅣㄴㅌㅓㄴㅔㅅ	-2254
▁ㅂㅕㅇㅇㅝㄴ	-2255
▁ㅂㅏㄹㄷㅏㄹ	-2256
▁ㄱㅕㅇㄱㅣㅈㅏㅇ	-2257
ㅎㅣㄹ	-2258
▁ㅇㅕㅇㅇㅕㄱ	-2259
▁ㅈㅜㅈㅔ	-2260
▁ㅁㅗㄹㅡ	-2261
▁ㄴㅔㄷㅓㄹㄹㅏㄴㄷㅡ	-2262
ㅌㅡㄱㅂㅕㄹ	-2263
▁ㅇㅣㄱㅗㅅ	-2264
▁ㅅㅡㅇㅟ	-2265
ㅋㅏㄹ	-2266
▁ㄴㅓㄹㄹㅣ	-2267
▁ㄴㅗㄹㅕㄱ	-2268
▁ㅎㅜㄴㄹㅕㄴ	-2269
▁ㅂㅜㅈㅓㅇ	-2270
▁500	-2271
ㅂㅏㄷ	-2272
▁ㅍㅖㅈㅣ	-2273
▁ㅇㅡㅁㅡㄹㅗ	-2274
▁ㅁㅜㄷ	-2275
▁ㅅㅓㅂㅜ	-2276
ㅏㅁㅣ	-2277
▁ㅊㅗㅇㄹㅣ	-2278
▁ㄱㅡㄹㅓㄴ	-2279
▁ㅍㅏㄱㅚ	-2280
▁ㅇㅣㄷㅡㅁ	-2281
ㅂㅣㅇㅏ	-2282
▁ㅅㅐㅇㅁㅜㄹ	-2283
ㅅㅡㄹㅗ	-2284
am	-2285
▁ㅁㅣㅅㅜㄹ	-2286
▁ㄷㅐㅅㅏ	-2287
▁ㄱㅏㅅㅡ	-2288
▁ㅈㅔㅇㅏㄴ	-2289
ㅇㅏㄷㅡㄹㅇㅣ	-2290
▁ㅈㅜㄱㅇㅣ	-2291
▁ㅅㅣㄴㄹㅏ	-2292
▁ㄷㅗㅅㅓ	-2293
▁ㅈㅓㅇㅅㅏㅇ	-2294
ㅏㅇㅜ	-2295
▁ㄱㅜㄱㅎㅚㅇㅢㅇㅝㄴ	-2296
ㄷㅣㄴ	-2297
▁80	-2298
▁the	-2299
ㅂㅓㄴ	-2300
▁ㅂㅗㄱㄱㅟ	-2301
▁ㄱㅞ	-2302
▁ㅈㅣㅋㅣ	-2303
▁ㅅㅣㄱㅁㅣㄴ	-2304
▁ㅊㅓㄹㅎㅏㄱ	-2305
▁ㅎㅚㅈㅏㅇ	-2306
▁ㄴㅏㅁㅅㅓㅇ	-2307
▁ㅈㅔㅈㅜ	-2308
▁ㅂㅓㄴㅎㅗ	-2309
▁ㅁㅗㅇㅡ	-2310
ㅜㄹㅡㅋㅡ	-2311
▁ㅂㅓㅂㄹㅠㄹ	-2312
ㅎㅔㄴ	-2313
▁ㄲㅡㄹ	-2314
▁ㅂㅗㄷㅗ	-2315
▁ㅇㅗㄹㄹ	-2316
▁ㅇㅘㄴㅈㅓㄴㅎㅣ	-2317
▁ㅅㅏㅁㅅㅓㅇ	-2318
ㅁㅣㅇ	-2319
▁ㅁㅔㄹ	-2320
▁ㄱㅣㅇㅕ	-2321
▁188	-2322
▁ㅇㅚㄱㅛ	-2323
▁ㅈㅜㅇㅕㄴ	-2324
▁ㅈㅓㅂㅎㅏ	-2325
▁ㅎㅐㅇㅅㅓㅇ	-2326
▁ㅇㅛㅊㅓㅇ	-2327
▁ㅍㅗㄹㄹㅏㄴㄷㅡ	-2328
ㅅㅡㅌㅏ	-2329
▁ㅈㅏㅈㅜ	-2330
▁ㄱㅕㅇㄱㅖ	-2331
▁ㅇㅏㄹㅡㅁ	-2332
▁ㅅㅔㄷㅐ	-2333
▁UE	-2334
▁ㅇㅣㄷㅡㅁㅎㅐ	-2335
▁1970	-2336
▁ㅅㅗㅈㅐ	-2337
ㅝㄷㅡ	-2338
▁ㄷㅗㅂ	-2339
▁ㅇㅕㄴㅁㅐㅇ	-2340
▁ㄹㅏㄷㅣㅇㅗ	-2341
▁ㅇㅣㄴㅅㅣㄱ	-2342
il	-2343
▁+	-2344
▁ㄹㅏㅇㅣㄴ	-2345
▁ㅌㅜㅅㅜ	-2346
▁ㅅㅜㅇㅛㅇ	-2347
▁ㄷㅡㅇㄹㅗㄱ	-2348
ㄱㅅㅣ	-2349
▁1994	-2350
▁ㅁㅜㄷㅐ	-2351
ㅗㄹㄹㅣㄱ	-2352
▁ㅇㅜㅁㅈㅣㄱ	-2353
ㅌㅓㅂ	-2354
▁ㅈㅔㅎㅏㄴ	-2355
▁ㅂㅓㄹㅇㅣ	-2356
▁ㅇㅏㅅㅣ	-2357
▁UEFA	-2358
▁ㅃㅏㅈㅣ	-2359
▁ㄴㅏㄴㅟ	-2360
▁ㅈㅣㅈㅣㄴ	-2361
▁ᄇㄴㅣㄷㅏ	-2362
ㅏㅇㅜㄴㄷㅡ	-2363
▁ㄷㅏㄹㅣ	-2364
▁ㄱㅡㅁㅈㅣ	-2365
▁ㅍㅛㄱㅣ	-2366
ㄷㅔㄹ	-2367
ㅌㅗㄹㅣ	-2368
▁ㄲㅡ	-2369
▁ㄷㅗㅇㅂㅜ	-2370
▁ㅇㅓㅂㅁㅜ	-2371
ac	-2372
ㄹㅛㅇ	-2373
▁ㅈㅓㅂㄱㅡㄴ	-2374
▁ㅈㅔㅈㅗ	-2375
▁ㄷㅓㅂㅜㄹ	-2376
ㄱㅌㅓ	-2377
▁ㅇㅕㄴㄱㅜㅅㅗ	-2378
▁ㅂㅏㅌㅏㅇ	-2379
▁ㅁㅓㅁ	-2380
▁ㄴㅚ	-2381
ㄹㅔㅅㅡ	-2382
▁ㄹㅑㅇ	-2383
ㅣㄱㅅㅡ	-2384
▁ㅍㅕㄹ	-2385
▁ㅇㅕㅇㅌㅗ	-2386
▁ㅂㅕㄱ	-2387
▁ㅂㅏㄱㅁㅜㄹ	-2388
▁ㅈㅣㄷㅗㅈㅏ	-2389
▁ㄱㅕㄹㅅㅓㅇ	-2390
ㄹㅡㅁ	-2391
▁ㅅㅓㅇㄱㅕㄱ	-2392
▁ㄷㅐㅊㅔ	-2393
▁ㄷㅡㄱㅈㅓㅁ	-2394
▁ㄴㅏㅁㅓㅈㅣ	-2395
▁ㅅㅡㅅㅡㄹㅗ	-2396
▁ㅈㅗㄱㅏㄱ	-2397
▁KBS	-2398
▁ㄱㅓㅂㅜ	-2399
ㅅㅓㅂ	-2400
▁ㅅㅗㅍㅡ	-2401
ㄴㅕ	-2402
▁ㅂㅏㄴㅁㅕㄴ	-2403
▁ㅅㅜㅎㅏㄱ	-2404
▁ㄱㅏㅇㅇㅝㄴ	-2405
▁ㅈㅓㅇㅅㅣㄱ	-2406
ㄱㅏㅂ	-2407
▁ㅇㅣㅇㅓ	-2408
▁ㄷㅗㄹㅇㅏㄱㅏ	-2409
ㅏㄴㅗ	-2410
▁ㅇㅢㅅㅣㄱ	-2411
▁ㅍㅣㄹㄹㅣ	-2412
ㅎㅓ	-2413
▁ㅂㅏㄷㅇㅏㄷㅡㄹㅇㅣ	-2414
▁ㅇㅛㅅㅣ	-2415
▁ㅇㅡㄴㅎㅐㅇ	-2416
▁ㄱㅣㅊㅗ	-2417
▁ㅈㅜㅇㅢ	-2418
ㅝㅋㅡ	-2419
▁ㅁㅏㅊㅏㄴ	-2420
▁ㅁㅏㅊㅏㄴㄱㅏㅈㅣ	-2421
ㅔㅌㅡ	-2422
▁ㅂㅗㅅㅜ	-2423
▁ㄱㅗㅇㅈㅏㄱ	-2424
▁ㅇㅟㄹㄹㅣ	-2425
ro	-2426
▁ㅅㅏㅇㅎㅗ	-2427
▁ㅇㅣㄱㅣ	-2428
▁ㅋㅐㄹㅣㄱ	-2429
▁1992	-2430
▁ㅂㅜㅌㅇㅣ	-2431
▁ㅕ	-2432
▁ㄱㅏㅌㅗㄹㄹㅣㄱ	-2433
ㅌㅡㄹㄹ	-2434
▁ㅅㅗㄹㅣ	-2435
ㄹㅏㅁ	-2436
▁ㅇㅣㅁㅅㅣ	-2437
▁45	-2438
▁ㅈㅣㄹㅣ	-2439
▁ㄲㅐ	-2440
▁ㅉㅏㄼ	-2441
ㅏㅈㅣㄹ	-2442
▁ㅎㅘㅎㅏㄱ	-2443
▁ㄴㅠㅅㅡ	-2444
ㅔㅇㅣㅅㅡ	-2445
▁ㅍㅐㅂㅐ	-2446
▁ㅁㅜㄱㅣ	-2447
▁ㅈㅣㄷㅐ	-2448
▁ㅅㅡㅇㅞ	-2449
▁ㅎㅐㄱㅕㄹ	-2450
▁ㅈㅜㄱㅇㅡㅁ	-2451
▁ㅊㅏㅌㅡ	-2452
ed	-2453
▁36	-2454
▁ㅍㅔㄹㅡ	-2455
▁ㅂㅡㄹㅏㅈㅣㄹ	-2456
▁ㅊㅏㅇㅝㄴ	-2457
▁ㅅㅣㄹㅈㅔㄹㅗ	-2458
▁ㅂㅏㄱㅅㅏ	-2459
▁ㅈㅏㅇㅅㅗ	-2460
▁ㄹㅗㅆㅓ	-2461
▁of	-2462
ㅁㅗㄴ	-2463
▁ㄷㅣㅅㅡ	-2464
▁ㅂㅏㄹㅅㅏ	-2465
▁ㄱㅡㄷㅐㄹㅗ	-2466
▁ㅂㅏㄱㅁㅜㄹㄱㅘㄴ	-2467
▁ㄷㅏㅅㅜ	-2468
▁ㅊㅗㄷㅐ	-2469
▁ㅎㅘㄹㅇㅛㅇ	-2470
▁ㅊㅗㅇㅅㅓㄴ	-2471
▁ㄴㅡㄲㅣ	-2472
▁ㅇㅠㄹㅗ	-2473
ㅣㅂㅡ	-2474
ㅌㅏㅂ	-2475
▁ㅋㅐㄹㅣㄱㅌㅓ	-2476
▁ㄱㅘㄴㅊㅡㄱ	-2477
▁ㄱㅣㄱㅜ	-2478
▁ㅊㅗㄴ	-2479
▁ㄱㅖㅇㅕㄹ	-2480
▁ㅇㅕㅎㅐㅇ	-2481
▁ㅅㅜㄴㅇㅟ	-2482
▁ㅅㅜㅁㅏ	-2483
ㄷㅐㄱ	-2484
▁ㅅㅣㄱㅁㅜㄹ	-2485
▁ㅇㅏㄷㅗ	-2486
▁ㅇㅏㄴㅈㅓㄴ	-2487
▁ㅁㅛㅅㅏ	-2488
▁ㅅㅜㅁ	-2489
▁ㅅㅡㅂㄴㅣㄷㅏ	-2490
▁ㄱㅏㅇㄹㅕㄱ	-2491
▁ㅍㅛㅅㅣ	-2492
▁ㅍㅏㅇㅣㄹ	-2493
▁ㅁㅏㄹㅣ	-2494
▁ㅇㅏㅁㅏ	-2495
ㅇㅠㅇ	-2496
▁ㅈㅣㅂㅎㅏㅂ	-2497
ㅌㅡㅇㅞㅇㅓ	-2498
▁1960	-2499
▁ㄷㅏㄴㅅㅜㄴ	-2500
ㅈㅏㄹ	-2501
▁ㅅㅗㅍㅡㅌㅡㅇㅞㅇㅓ	-2502
▁ㅂㅔㄹㅡ	-2503
▁ㅈㅔㅅㅣ	-2504
ig	-2505
▁ㅇㅣㄹㅈㅓㅇ	-2506
▁ㅁㅜㅇㅕㄱ	-2507
▁ㄱㅓㅁㅅㅏ	-2508
▁ㅇㅣㅇㅚ	-2509
▁ㄱㅝㄴㄹㅕㄱ	-2510
ㅈㅜㅅㅣ	-2511
▁ㅇㅕㄹㅡㅁ	-2512
ㅇㅜㅇ	-2513
▁ㅇㅕㄴㄱㅡㄱ	-2514
ㅂㅗㄹ	-2515
ㄷㅏㅁㅕㄴ	-2516
▁ㅅㅠㅍㅓ	-2517
ㅈㅔㄴ	-2518
ㄹㅡㅇ	-2519
▁ㅅㅡㅇㅞㄷㅔㄴ	-2520
▁ㅎㅚㅇㅝㄴ	-2521
▁1991	-2522
▁ㄲㅜㅁ	-2523
▁ㄱㅣㄱㅖ	-2524
ㄱㅚ	-2525
▁ㄷㅏㄴㅣ	-2526
ㄹㄹ	-2527
▁ㅈㅣㅈㅓㄱ	-2528
▁ㄷㅣㅈㅣ	-2529
ㅣㄹㅡ	-2530
▁ㅋㅏㄷㅡ	-2531
▁ㅈㅏㅇㅇㅐ	-2532
▁ㄲㅣ	-2533
▁ㅋㅗㅁ	-2534
▁ㅇㅏㅇㅣㄹㄹㅐㄴㄷㅡ	-2535
▁ㅂㅏㄹㅎㅐㅇ	-2536
▁ㅇㅟㅎㅓㅁ	-2537
▁ㅅㅏㄻ	-2538
ㅔㄴㅌㅡ	-2539
▁ㅂㅏㄴㄹㅏㄴ	-2540
▁ㅁㅓㄴㅈㅓ	-2541
▁ㅆㅏㅇㅜ	-2542
ㅔㅇㅣㄹㄹㅣㅇㅏ	-2543
▁ㄸㅟㅇㅓㄴㅏ	-2544
▁ㅈㅗㅅㅓㅇ	-2545
ㅅㅡㅋ	-2546
▁ㄱㅓㄴㄴ	-2547
▁1993	-2548
▁33	-2549
ㄱㅅㅣㅋㅗ	-2550
▁ㄱㅐㄱㅜㄱ	-2551
▁ㅈㅜㅇㄱㅏㄴ	-2552
▁ㅎㅕㅇㅈㅔ	-2553
▁ㅊㅟㅎㅏ	-2554
▁ㄱㅘㄴㄱㅘㅇ	-2555
▁ㄴㅣㅁ	-2556
▁ㅇㅗㅅㅡㅌㅡㄹㅣㅇㅏ	-2557
▁ㅎㅡㅂ	-2558
▁ㅂㅡ	-2559
▁ㄱㅣㅈㅏ	-2560
▁ㄱㅡㄴㅊㅓ	-2561
▁ㅁㅏㄴㅋㅡㅁ	-2562
▁ㅈㅜㅇㄷㅏㄴ	-2563
ㅗㅅㅔ	-2564
ㅅㅡㅋㅗ	-2565
▁ㅎㅕㅂㄹㅕㄱ	-2566
▁ㅂㅏㅇㅣㄹ	-2567
▁ㄱㅣㅎㅚㄱ	-2568
ㅑㅁㅏ	-2569
▁ㅊㅡ	-2570
▁ㅁㅠㅈㅣㄱ	-2571
▁ㅅㅣㅎㅐㅇ	-2572
▁ㅇㅕㄱㅐㄱ	-2573
▁ㅈㅣㅎㅏㅊㅓㄹ	-2574
ㅜㄹㅕ	-2575
ㅅㅗㄴㅕㄴ	-2576
▁ㄷㅗㅊㅏㄱ	-2577
▁ㄷㅏㅁㅏㄴ	-2578
ㅣㄹㄹㅣ	-2579
▁ㅇㅚㅂㅜ	-2580
▁ㅅㅡㅌㅠ	-2581
▁ㅅㅏㅇㅣㅌㅡ	-2582
od	-2583
▁ㅇㅓㅇ	-2584
▁ㅈㅚ	-2585
ㅂㅐㅇㅜ	-2586
▁ㅅㅓㄴㄱ	-2587
▁ㅅㅗㄱㅐ	-2588
▁ㅂㅓㄴㅇㅕㄱ	-2589
▁ㅍㅡ	-2590
▁ㄷㅏㄴㅇㅓ	-2591
ㅔㅇㅣㅁ	-2592
▁ㅂㅏㅇㅇㅓ	-2593
▁",	-2594
▁ㅇㅕㄴㅈㅏㅇ	-2595
▁ㅇㅠㅎㅕㅇ	-2596
▁ㅈㅓㄴㅅㅣ	-2597
▁186	-2598
▁ㅁㅣㅅㅏㅇ	-2599
▁ㅊㅐㄴ	-2600
▁ㅌㅐㅍㅕㅇ	-2601
ve	-2602
▁ㅎㅐㅇㅏㄴ	-2603
ㅌㅡㄱㅂㅕㄹㅅㅣ	-2604
▁ㅍㅏㅇㅣ	-2605
ㅈㅡㄴ	-2606
ㅁㅕ	-2607
ㅇㅗㄴ	-2608
▁ㅎㅜㄱㅣ	-2609
▁ㅎㅖ	-2610
▁ㄷㅡㄹㅇㅓㅇㅗ	-2611
▁ㄸㅣ	-2612
▁ㅅㅓㅇㄹㅣㅂ	-2613
as	-2614
ㅅㅏㅋㅏ	-2615
▁ㅅㅓㅇㅜㄹㅌㅡㄱㅂㅕㄹㅅㅣ	-2616
▁ㅇㅣㄹㅏㄱㅗ	-2617
ㄱㅘㅇㅇㅕㄱㅅㅣ	-2618
▁ㅅㅔㅅㅏㅇ	-2619
▁ㅇㅗㅂㅡ	-2620
▁ㅎㅘㄱㄷㅐ	-2621
▁ㅅㅏㅇㅈㅣㅇ	-2622
ㅏㄷ	-2623
ㅁㅕㄹ	-2624
▁ᆫㄱㅏ	-2625
▁ㅂㅏㅇㅣ	-2626
▁ㅂㅗㅇㅠ	-2627
▁ㄱㅗㅇㅈㅏㅇ	-2628
▁ㅇㅗㅅㅡㅌㅡㄹㅔㅇㅣㄹㄹㅣㅇㅏ	-2629
▁ㅇㅟㄱㅣ	-2630
▁ㄴㅐㄱㅏㄱ	-2631
▁ㅍㅏㄱㅕㄴ	-2632
▁ㅎㅕㅁ	-2633
▁ㄱㅔㅇㅣ	-2634
▁ㅌㅜㅈㅏ	-2635
▁ㅅㅜㅁㅏㄶ	-2636
▁ㄱㅣㅎㅜ	-2637
ㅁㅜㅇㅝㄴ	-2638
▁ㅈㅔㄱㅣ	-2639
▁ㄱㅕㄲ	-2640
▁ㅅㅐㅇㅅㅓㅇ	-2641
ㅈㅣㅅㅕㄴ	-2642
▁ㅍㅡㄹㄹㅐ	-2643
▁ㅇㅑㅇㅅㅣㄱ	-2644
▁ㅂㅗㄴㅂㅜ	-2645
ㄷㅐㅇ	-2646
▁ㅎㅏㄹㅜ	-2647
▁ㄱㅡㄱㅈㅏㅇ	-2648
▁ㅈㅣㅅㅣㄱ	-2649
▁ㅂㅗㅈㅗㄴ	-2650
▁ㄱㅘㅇㅈㅜ	-2651
▁ㅈㅣㅅㅏㅇ	-2652
▁ㄱㅠㄴ	-2653
▁?	-2654
▁ㅈㅓㄴㄹㅑㄱ	-2655
▁ㅇㅣㄴㅅㅏ	-2656
▁ㄷㅜㅇ	-2657
▁ㄱㅏㅁㅅㅗ	-2658
▁ㄱㅟㅈㅗㄱ	-2659
▁ㅊㅘㄹ	-2660
▁ㅇㅟㄹㄹㅣㅇㅓㅁ	-2661
▁ㄷㅡㄷ	-2662
▁ㅋㅗㄷㅡ	-2663
▁ㄱㅕㅇㅅㅏㅇㄴㅏㅁㄷㅗ	-2664
▁ㅂㅡㄹㅣ	-2665
▁ㅅㅏㅇㅇㅓㅂ	-2666
▁ㄴㅜ	-2667
▁ㄷㅏㄹㅅㅓㅇ	-2668
▁ㅌㅡㄱㅅㅓㅇ	-2669
ㅇㅠㄹ	-2670
▁ㄱㅕㅇㅅㅏㅇㅂㅜㄱㄷㅗ	-2671
▁ㅂㅜㅇㅕ	-2672
▁ㅍㅣㄱ	-2673
▁h	-2674
▁ㄷㅐㅇㅡㅇ	-2675
▁ㄱㅜㅎㅏ	-2676
ㅜㄴㄷㅡ	-2677
ㄹㅔㅇㅣ	-2678
▁1988	-2679
▁ㅇㅏㅋㅏ	-2680
▁ㅅㅣㅍ	-2681
▁ㅊㅜㄹㅅㅐㅇ	-2682
▁ㅇㅘㄴㅅㅓㅇ	-2683
▁187	-2684
▁ㅌㅔㄴ	-2685
▁ㅈㅣㅅ	-2686
▁ㄷㅔㄹ	-2687
ㅍㅜㄹ	-2688
▁ㅇㅝㄴㅅㅗ	-2689
▁ㅇㅕㅇㅅㅏㅇ	-2690
ㄹㅏㅇㅣㄴ	-2691
▁ㅁㅏㅅ	-2692
▁ㄷㅗㅇㅅㅐㅇ	-2693
▁ㄴㅏㅎ	-2694
▁ㅍㅗㄹㅡㅌ	-2695
▁ㄷㅣㅈㅣㅌㅓㄹ	-2696
▁ㄷㅏㄴㅇㅟ	-2697
▁ㅁㅔㄱㅅㅣㅋㅗ	-2698
▁ㅌㅡㄱㅅㅜ	-2699
▁ㅇㅔㅅㅡ	-2700
▁ㅊㅘㄹㅇㅕㅇ	-2701
ㅏㅇㅔㄹ	-2702
▁ㄷㅏㅇㅅㅓㄴ	-2703
▁ㅎㅔㄴ	-2704
▁ㅇㅣㄹㅓㅎㄱㅔ	-2705
▁ㅈㅔㄴ	-2706
▁ㄷㅡㄴ	-2707
▁ㅇㅠㄹㅣ	-2708
ㅑㄴ	-2709
▁ㄱㅖㅅㅡㅇ	-2710
▁ㅎㅏㄱㅇㅟ	-2711
▁ㄴㅏㅂ	-2712
ㅔㅇㅣㅌㅡ	-2713
▁34	-2714
▁ㅇㅣㄹㅏㄴ	-2715
▁ㅅㅣㄱㅁㅣㄴㅈㅣ	-2716
▁ㅌㅏㅇㅣㅌㅡㄹ	-2717
▁ㅁㅣㄹㅐ	-2718
▁ㅅㅣㅌㅣ	-2719
▁ㅎㅜㄱ	-2720
▁ㅈㅓㄻ	-2721
▁ㅈㅗㅇㅁㅗㄱ	-2722
▁ㄱㅡㄴㅁㅜ	-2723
ㅎㅚㅅㅏ	-2724
▁ㄹㅠㄹ	-2725
ㄹㅏㅇㅣ	-2726
▁ㅈㅓㄴㄷㅏㄹ	-2727
▁ㅈㅏㅂㅗㄴ	-2728
ㅊㅣㅇㅣㄴ	-2729
ㅂㅔㄹㅡ	-2730
▁ㅅㅐㅇㅁㅕㅇ	-2731
▁38	-2732
ㅇㅓㅄ	-2733
▁ㅇㅣㅈㅣㅂ	-2734
id	-2735
▁ㅎㅡㄹㅡ	-2736
▁ㄱㅝㄴㄹㅣ	-2737
▁ㅅㅜㅅㅏ	-2738
▁ㅇㅕㅍ	-2739
▁ㅊㅔㄱㅕㄹ	-2740
▁ㄴㅏㅈㅜㅇ	-2741
▁ㅅㅣㅊㅓㅇ	-2742
▁ㅊㅡㄱㅈㅓㅇ	-2743
ㅊㅗㄱ	-2744
▁ㅅㅓㄹㅈㅓㅇ	-2745
ㅍㅣㅇ	-2746
▁ㄹㅜㅇㅣ	-2747
ㅇㅡㅂ	-2748
▁ㅈㅣㄱㅎㅜ	-2749
▁90	-2750
▁ㅈㅏㄹㅏ	-2751
▁ㅈㅜㅅㅣㄱ	-2752
▁ㅅㅡㅇㄱㅕㄱ	-2753
▁ㅍㅏㄴㄷㅏㄴ	-2754
▁ㅈㅓㄴㄹㅏㄴ	-2755
▁ㅁㅣㅌ	-2756
ㅁㅕㅊ	-2757
ㅁㅗㅅ	-2758
▁ㅁㅕㅊㅁㅕㅊ	-2759
▁ㄷㅠ	-2760
▁ㅈㅓㅇㅊㅣㅇㅣㄴ	-2761
▁2021	-2762
▁ㅊㅔㅍㅗ	-2763
▁ㅊㅔㄹ	-2764
▁ㅁㅜㄴㅎㅘㅈㅐ	-2765
▁ㅋㅗㅊㅣ	-2766
▁ㅇㅏㄹㄹㅔㄱㅅㅏㄴ	-2767
▁ㄷㅐㄹㅠㄱ	-2768
▁48	-2769
▁ㅂㅓㄹㅇㅓㅈㅣ	-2770
▁ㄱㅜㄱㅇㅘㅇ	-2771
▁ㄷㅏㅂ	-2772
▁ㅁㅏㅊㅣ	-2773
▁ㅂㅗㅅ	-2774
▁ㅈㅓㄴㅎㅘㄴ	-2775
▁1989	-2776
▁ㅊㅐㄴㅓㄹ	-2777
▁ㅎㅣㄹㅗ	-2778
▁ㅅㅗㅅㅜ	-2779
▁ㅇㅏㄴㅐ	-2780
▁1950	-2781
▁ㄱㅐㅈㅓㅇ	-2782
▁ㄷㅗㅅㅓㄱㅘㄴ	-2783
▁ㄱㅘㄴㅊㅏㄹ	-2784
▁ㅌㅓㅁ	-2785
▁ㅂㅏㄹㅁㅐㄷㅚ	-2786
▁ㅂㅏㄹㅡ	-2787
▁ㅁㅣㄱㅜㄴ	-2788
NA	-2789
▁ㅇㅗㅅㅡ	-2790
ㅎㅕㄹ	-2791
▁ㅂㅗㄴㄱㅘㄴ	-2792
us	-2793
▁ㅍㅕㄹㅊㅣ	-2794
▁ㅁㅏㅈㅊㅜ	-2795
▁ㅅㅓㅅ	-2796
▁ㅅㅣㄴㅐ	-2797
ec	-2798
▁ㅅㅣㄴㄱㅕㅇ	-2799
ㅂㅓㅌㅡ	-2800
▁ㄱㅓㄹㄹㅣ	-2801
▁ㄱㅐㅌㅗㅇ	-2802
▁ㅊㅜㄴ	-2803
▁ㅇㅢㄱㅕㄴ	-2804
ㅁㅗㅇ	-2805
▁ㅅㅡㅋㅗ	-2806
ㅠㄴ	-2807
▁ㄴㅗㄱㅇㅡㅁ	-2808
▁ㅊㅓㅇㄴㅕㄴ	-2809
▁ㅈㅣㅇㅟ	-2810
ㅁㅜㄱ	-2811
▁ㅅㅣㅇㅟ	-2812
▁ㅎㅗㅇㅋㅗㅇ	-2813
▁ㄱㅕㄹㅅㅡㅇㅈㅓㄴ	-2814
▁ㅈㅜㅇㅓㅈㅣ	-2815
▁ㅈㅔㅈㅓㅇ	-2816
▁ㅎㅐㅇㅚ	-2817
▁ㅁㅏㅇㅣㅋㅡ	-2818
ㅕㅇㅗ	-2819
▁ㄱㅡㄴㄱㅓ	-2820
▁ㅈㅡㄹ	-2821
▁',	-2822
ㅋㅗㄷㅡ	-2823
▁ㅈㅗㅇㄹㅛ	-2824
and	-2825
▁ㅊㅟㅇㅣㅁ	-2826
▁ㄷㅗㅇㄱㅖ	-2827
ㅔㅇㅣㄷㅡ	-2828
▁ㄹㅏㄱ	-2829
▁ㅁㅣㅅㅏㅇㅣㄹ	-2830
ㅇㅏㄴㅐ	-2831
▁ㅈㅡㄱㅇㅟ	-2832
▁ㅆㅏㅎ	-2833
▁ㅈㅜㅇㅣㄴㄱㅗㅇ	-2834
▁ㄱㅖㅅㅏㄴ	-2835
ㅔㄱ	-2836
▁ㅂㅓㅁㅈㅚ	-2837
▁ㅈㅓㄴㄹㅏ	-2838
▁ㄱㅛㅊㅔ	-2839
▁ㅅㅏㅎㅚㅈㅜㅇㅢ	-2840
ㅏㅁㄷㅗ	-2841
▁ㅇㅡㅁㅅㅣㄱ	-2842
▁ㅇㅠㄴㅣ	-2843
ㅁㅓㄴ	-2844
▁ㅅㅣㄴㅎㅏㄱ	-2845
▁ㅂㅓㅅ	-2846
▁ㅇㅡㄴㅎㅏ	-2847
▁ㅊㅜㅇㄷㅗㄹ	-2848
▁ㅈㅔㅇㅣㅁ	-2849
▁300	-2850
▁ㅊㅓㄴㅎㅘㅇ	-2851
▁ㄴㅏㅁㅂㅜㄱ	-2852
ad	-2853
▁ㅇㅏㄹㅏㅂ	-2854
▁ㄷㅏㄹㅎㅏ	-2855
▁e	-2856
▁ㅌㅡㄹㅣ	-2857
▁ㅈㅏㅇㄱㅣ	-2858
▁ㅇㅔㄹㄹㅣ	-2859
ㅆㅏ	-2860
▁ㅇㅡㅁㅕㄴㅅㅓ	-2861
▁ㅅㅜㅂㅣ	-2862
ㅅㅔㄹ	-2863
▁ㅈㅜㅁㅗㄱ	-2864
ㅣㅇㅔㄹ	-2865
▁ㄱㅐㅅㅓㄴ	-2866
▁ㅂㅣㅇㅛㅇ	-2867
▁MBC	-2868
ㅊㅜㄴ	-2869
▁ㅅㅜㅈㅓㅇ	-2870
▁ㅍㅗㅁ	-2871
▁ㅇㅣㅈㅣㅂㅌㅡ	-2872
ㄴㅏㄴ	-2873
▁ㅈㅏㄱㅕㄱ	-2874
▁ㅇㅝㄴㅈㅓㅇ	-2875
▁ㅅㅡㄹㄹ	-2876
▁ㅋㅡㄹㅗ	-2877
▁ㅇㅣㅅㅡㄹㄹ	-2878
ㅌㅡㅇㅝㅋㅡ	-2879
▁ㅅㅏㅎㅜ	-2880
▁ㅋㅏㅇㅜㄴ	-2881
▁ㅂㅏㅇㅣㄹㅓㅅㅡ	-2882
▁ㅇㅏㅆㅇㅓㅆ	-2883
▁ㄱㅓㄴㄱㅏㅇ	-2884
▁ㄱㅗㅇㄱㅡㅂ	-2885
▁|	-2886
▁ㅅㅡㅋㅣ	-2887
▁ㅌㅗㅁ	-2888
▁ㅈㅔㅇㅣㅁㅅㅡ	-2889
▁ㄱㅖㄱㅣ	-2890
ㅣㄹㅏ	-2891
▁ㅂㅗㄴㄹㅐ	-2892
▁ㅅㅗㅈㅏㅇ	-2893
▁1945	-2894
▁ㅈㅓㄴㅊㅏ	-2895
ent	-2896
▁ㄱㅏㄱㅕㄱ	-2897
ㅈㅓㄴㅎㅣ	-2898
ㅡㄹㄹㅣㄴ	-2899
▁ㄴㅔㅌㅡㅇㅝㅋㅡ	-2900
▁ㅁㅕㅇㄷㅏㄴ	-2901
▁ㅈㅓㄴㄹㅏㄴㅏㅁㄷㅗ	-2902
▁ㄱㅗㅇㅂㅜ	-2903
▁ㅅㅣㅁㄹㅣ	-2904
ㅅㅏㄱㅘㄴ	-2905
▁ㅎㅏㅂㄹㅠ	-2906
ㅓㄱㅜ	-2907
▁ㄹㅏㅇㅜㄴㄷㅡ	-2908
▁ㅌㅓㄹ	-2909
▁ㄴㅜㄱㅜ	-2910
▁ㅈㅔㄱㅓ	-2911
▁ㅅㅚ	-2912
▁ㅎㅗㅁㄹㅓㄴ	-2913
▁ㄱㅞㄷㅗ	-2914
▁ㄴㅗㅇㅇㅓㅂ	-2915
▁ㅈㅏㅇㅝㄴ	-2916
▁ㅇㅣㄹㅐ	-2917
▁ㅁㅕㅇㅇㅖ	-2918
▁ㅊㅔㅇㅠㄱ	-2919
▁ㅋㅏㅇㅣ	-2920
▁ㅈㅣㅂㅈㅜㅇ	-2921
▁ㅅㅓㅇㅇㅜ	-2922
50	-2923
▁ㄱㅏㄱㅈㅗㅇ	-2924
▁ㅁㅗㅇㅣ	-2925
▁ㅇㅗㄹㅡㄴ	-2926
▁ㅇㅣㅂㅎㅏㄱ	-2927
ㅋㅡㅅㅡ	-2928
▁ㄱㅓㄷㅐ	-2929
▁ㄱㅏㅁㅇㅕㅁ	-2930
▁ㄷㅔㅇㅣㅂㅣ	-2931
ㄷㅗㅇㅜ	-2932
▁ㅈㅏㄱㅅㅓㅇ	-2933
▁ㅈㅡㅇㅁㅕㅇ	-2934
▁ㅇㅚㄴ	-2935
▁ㄱㅏㅇㅣㅂ	-2936
▁ㅇㅣㄴㄱㅡㄴ	-2937
▁ㅊㅓㄴㅁㅜㄴ	-2938
ㅊㅏㅁ	-2939
▁ㅋㅓㄹ	-2940
▁ㅇㅣㅍ	-2941
▁ㅇㅣㅅㅡㄹㄹㅏㅁ	-2942
▁ㅇㅣㄺ	-2943
▁ㄱㅜㄴㅇㅣㄴ	-2944
▁ㅈㅓㅎㅏㅇ	-2945
▁ㅅㅗㅂㅣ	-2946
▁ㅏㅆ	-2947
▁ㅅㅗㅅㅗㅇ	-2948
▁ㄱㅜㄱㄱㅕㅇ	-2949
▁ㅍㅣㅎㅏ	-2950
▁ㅎㅏㄱㅁㅜㄴ	-2951
▁ㅂㅜㅁㅗ	-2952
▁ㅇㅣㅈㅜ	-2953
▁ㄱㅗㅇㄱㅜㄴ	-2954
▁ㅊㅡㄱㅁㅕㄴ	-2955
▁ㅇㅗㅎㅜ	-2956
▁ㅌㅗㅇㅈㅔ	-2957
▁ㄱㅏㅇㅈㅗ	-2958
▁ㅂㅕㅇㄹㅕㄱ	-2959
ㅖㄴ	-2960
ㅋㅏㅇㅣ	-2961
▁ㅌㅓㅁㅣㄴ	-2962
ㅜㅅ	-2963
▁ㅍㅡㄹㅔ	-2964
ㅇㅠㄴ	-2965
ㄷㅗㅇㅇㅏㄴ	-2966
▁ㅈㅓㄴㅅㅏ	-2967
▁ㅇㅜㄹㅅㅏㄴ	-2968
ㅌㅡㄹㅣ	-2969
▁ㅅㅜㅍ	-2970
▁ㅂㅡㄹㄹㅐㄱ	-2971
▁ㅈㅜㄹㅇㅣ	-2972
▁ㅇㅣㅂㅓㄴ	-2973
ㅋㅓㅅ	-2974
▁ㅍㅗㅈㅣㅅㅕㄴ	-2975
▁ㅅㅓㅇㄱㅘ	-2976
▁ㅅㅣㄹㅎㅐㅇ	-2977
▁St	-2978
ㅂㅔㄴ	-2979
▁ㅌㅐㅍㅕㅇㅇㅑㅇ	-2980
▁ㅁㅣㄷㅣㅇㅓ	-2981
▁ㅌㅓㄴ	-2982
▁ㅈㅣㄹㄹㅑㅇ	-2983
▁ㅎㅐㅂㅏㅇ	-2984
ㅗㄴㅏ	-2985
ot	-2986
▁ㅂㅏㄹㅏㅁ	-2987
▁ㅁㅏㄴㅇㅑㄱ	-2988
▁ㄱㅘㅇㄱㅗ	-2989
▁ㅈㅓㅇㅊㅏㄱ	-2990
▁ㅋㅔㄹ	-2991
▁ㅇㅣㄴㅅㅜ	-2992
▁ㄴㅏㅅㅓ	-2993
▁ㅁㅜㅈㅏㅇ	-2994
▁ㅊㅓㅁ	-2995
▁ㄱㅣㅎㅚ	-2996
▁ㅂㅕㅇㅅㅏ	-2997
▁ㅇㅗㅍㅡㄴ	-2998
▁ㄱㅕㅇㅜㄹ	-2999
▁ㅌㅓㅁㅣㄴㅓㄹ	-3000
▁ㄹㅗㅁ	-3001
ㄷㅗㄹㅗ	-3002
▁ㄴㅗㄷㅗㅇㅈㅏ	-3003
ㅌㅣㄴㅏ	-3004
▁ㅈㅓㄴㅂㅏㄴ	-3005
▁ㅈㅔㅁㅗㄱ	-3006
ㅁㅛ	-3007
▁ㅇㅣㅅㅡㄹ	-3008
ㅍㅣㅇㅏ	-3009
▁ㅊㅚㅅㅗ	-3010
▁x	-3011
ㅣㄴㅗ	-3012
▁ㄱㅡㅁㅇㅠㅇ	-3013
▁ㄷㅐㄴ	-3014
un	-3015
▁ㅇㅑㄱㄱㅏㄴ	-3016
▁ㄱㅏㅇㅇㅝㄴㄷㅗ	-3017
ㅊㅓㄹㄷㅗ	-3018
▁ㅁㅗㅇㄱㅗㄹ	-3019
▁ㅇㅖㅅㅜ	-3020
▁ㅌㅔㄱ	-3021
▁ㅍㅕㄴㅈㅣㅂ	-3022
▁37	-3023
ow	-3024
ㄱㅗㄹㅣ	-3025
ㅎㅗㄹ	-3026
ㄹㅗㅇ	-3027
ㅜㄱㅏㄹ	-3028
▁ㄱㅜㄱㅂㅏㅇ	-3029
▁in	-3030
▁ㄱㅗㅈㅓㄴ	-3031
▁ㅇㅠㄷㅗ	-3032
▁ㅈㅓㄴㄱㅐ	-3033
▁ㅅㅏㄹㅖ	-3034
▁ㅎㅘㄴㅈㅏ	-3035
▁ㅅㅏㄹㅏㅈㅣ	-3036
▁ㅈㅣㅈㅓㅁ	-3037
ㅈㅜㄹ	-3038
▁ㅍㅛㅁㅕㄴ	-3039
▁ㄷㅗㅈㅜㅇ	-3040
▁ㅋㅐㄹㄹㅣ	-3041
▁ㅎㅓㅇㅛㅇ	-3042
▁ㅎㅕㅁㅇㅢ	-3043
▁ㄷㅏㅋ	-3044
▁ᆫㄷㅏㅁㅕㄴ	-3045
▁ㅈㅐㅅㅏㄴ	-3046
ㄱㅏㄹㅣ	-3047
▁ㅁㅏㄹㅕㄴ	-3048
▁ㄲㅗㄹㅣ	-3049
▁ㅎㅏㅂㅂㅕㅇ	-3050
▁ㅈㅐㅈㅓㅇ	-3051
▁ㅃㅏㄹ	-3052
▁ㅁㅣㄹㄷㅗ	-3053
▁ㅊㅜㅇㅂㅜㄴ	-3054
▁ㅁㅜㄹㅕㅂ	-3055
▁ㅇㅐㅇ	-3056
▁ㅎㅏㄱㄴㅕㄴ	-3057
▁ㅕㅅㅓ	-3058
▁ㅈㅓㄴㄹㅕㄱ	-3059
▁1987	-3060
ㅣㅇㅗㄴ	-3061
▁ㅇㅔㅁ	-3062
▁ㄷㅟㅅ	-3063
▁ㅇㅟㄴㄷㅗㅇㅜ	-3064
▁ㄹㅕㅇ	-3065
ㅘㅇㅣ	-3066
▁ㅇㅗㅅㅏㅋㅏ	-3067
ㅇㅏㅅㅣㅇㅏ	-3068
▁ㅅㅓㄴㅅㅜㄷㅏㄴ	-3069
▁ㅇㅏㄴㄷㅡㄹ	-3070
▁ㄱㅡㄴㄷㅐ	-3071
▁ㅍㅗㄹㅡㅌㅜㄱㅏㄹ	-3072
▁ㅎㅕㄴㅅㅣㄹ	-3073
▁ㅁㅣㄴㄱㅏㄴ	-3074
▁ㅇㅏㅅㅣㅇㅏㄴ	-3075
▁ㅇㅕㅈㅓㄴㅎㅣ	-3076
ra	-3077
▁ㅂㅜㅇㄱㅚ	-3078
▁ㄷㅡㅇㄱㅡㅂ	-3079
▁ㅇㅠㅇㅔㄴ	-3080
▁ㄱㅖㄱㅡㅂ	-3081
▁ㅈㅓㄴㅇㅕㄱ	-3082
▁ㅋㅐㅁㅍ	-3083
▁ㄱㅡㅎㅐ	-3084
▁ㅇㅑㅇㅅㅓㅇ	-3085
▁ㅂㅗㄱㅗ	-3086
▁ㅂㅓㅁㅇㅟ	-3087
▁w	-3088
ㄹㅚ	-3089
ㅈㅜㄱㅛ	-3090
▁ㅁㅔㄴ	-3091
ㅅㅡㄹㄹ	-3092
▁41	-3093
▁ㅅㅣㄴㅎㅗ	-3094
▁ㅇㅝㄴㅊㅣㄱ	-3095
▁51	-3096
▁ㅈㅐㅈㅣㄱ	-3097
▁ㄱㅓㄱ	-3098
▁ㄱㅗㅇㄱㅗㅇ	-3099
▁ㄱㅏㅇㅈㅔ	-3100
▁ㄷㅐㅅㅜ	-3101
ㅓㄱㅡ	-3102
▁ㅇㅔㄴㅌㅓ	-3103
▁ㅅㅓㅇㅈㅣㄹ	-3104
▁ㅈㅓㄱㄱㅡㄱ	-3105
ㅅㅗㄹㅣ	-3106
▁ㅇㅟㅎㅕㅂ	-3107
▁ㅅㅜㅇㅣㅂ	-3108
▁ㅂㅗㅁ	-3109
▁ㅊㅜㅇㅊㅓㅇㄴㅏㅁㄷㅗ	-3110
▁ㅎㅐㅇㅎㅏ	-3111
▁1986	-3112
▁ㅇㅣㅁㅁㅜ	-3113
▁ㅎㅡ	-3114
▁ㅈㅓㄴㅅㅓㄴ	-3115
▁ㄷㅗㅇㄹㅛ	-3116
▁ㅅㅐㄹㅗ	-3117
▁ㅇㅣㅁㅣㅈㅣ	-3118
▁ㅇㅓㅂㅊㅔ	-3119
▁ㅇㅕㅇㅎㅘㅂㅐㅇㅜ	-3120
▁ㅇㅛㄱ	-3121
▁ㅅㅡㅌㅠㄷㅣㅇㅗ	-3122
▁ㄴㅗㄴㅁㅜㄴ	-3123
▁ㅁㅓ	-3124
▁1984	-3125
▁ㅌㅗㄹㅗㄴ	-3126
▁ㄷㅐㄷㅐ	-3127
▁ㅋㅐㄹㄹㅣㅍㅗㄴ	-3128
ㅏㅁㅗ	-3129
▁ㅅㅜㄹㅣㅂ	-3130
ㅣㄴㅣ	-3131
▁ㅂㅏㄹㅏ	-3132
▁ㅅㅡㅇㅇㅣㄴ	-3133
▁ㅇㅟㅇㅝㄴㅈㅏㅇ	-3134
▁ㅇㅣㅈㅔ	-3135
▁ㄱㅜㅊㅜㄱ	-3136
▁ㄷㅐㅎㅏㄱㅇㅝㄴ	-3137
▁ㄱㅗㅇㅇㅓㅂ	-3138
ㅂㅗㅇㅣ	-3139
▁ㅊㅜㅁ	-3140
▁ㅇㅟㅅㅓㅇ	-3141
▁ㅁㅏㄹㅣㅇㅏ	-3142
▁ㄱㅓㄹㅐ	-3143
ㅌㅣㅁ	-3144
ㅇㅛㅇㅣㄹ	-3145
▁ㄱㅗㅇㅈㅜ	-3146
ㄴㅏㅁㅜ	-3147
▁ㅊㅜㄹㅂㅏㄹ	-3148
ㅂㅜㅌ	-3149
▁ㅈㅓㅁㅊㅏ	-3150
▁ㅅㅜㄷㅏㄴ	-3151
▁ㅎㅚㅂㅗㄱ	-3152
▁ㄱㅛㅅㅏ	-3153
▁ㅅㅣㅇㅣㄴ	-3154
ㄱㅛㅎㅚ	-3155
▁ㅅㅓㅇㅇㅣㄴ	-3156
▁ㅎㅘㄱㅂㅗ	-3157
▁ㅎㅏㅇㅅㅏㅇ	-3158
▁ㅋㅣㄹ	-3159
▁ㄷㅏㅅㅓㅅ	-3160
▁ㅅㅣㄴㅎㅘ	-3161
▁ㅍㅣㄹㄹㅣㅍㅣㄴ	-3162
▁ㅌㅓㅋㅣ	-3163
▁ㅁㅜㄹㄹ	-3164
▁ㅇㅏㅍㅅㅓ	-3165
▁ㅇㅕㄱㄷㅐ	-3166
▁ㅅㅡㅌㅏㅇㅣㄹ	-3167
▁ㄱㅗㅇㅅㅏㄴㄷㅏㅇ	-3168
▁ㅋㅐㄹㄹㅣㅍㅗㄴㅣㅇㅏ	-3169
▁ㅈㅏㅇㅅㅣㄱ	-3170
ch	-3171
▁ㅈㅣㅁ	-3172
▁ㅂㅕㄴㅎㅗ	-3173
▁ㅊㅐㅌㅐㄱ	-3174
▁ㅈㅗㅊㅣ	-3175
ㅅㅑ	-3176
▁ㅇㅑㅇㅈㅏ	-3177
▁ㄱㅠㅊㅣㄱ	-3178
ㅍㅡㄹㅣㅋㅏ	-3179
▁ㄱㅣㄷㅐ	-3180
ㅏㅋㅡ	-3181
▁ㄱㅏㅇㅇㅢ	-3182
▁ㅅㅐㄴ	-3183
▁ㅈㅏㅇㅂㅣ	-3184
▁ㅂㅣㅁㅣㄹ	-3185
ㅛㅇㅠㄹ	-3186
▁ㅈㅏㅂㅈㅣ	-3187
▁ㅌㅟ	-3188
ㅌㅡㄹㅗ	-3189
ur	-3190
▁ㅇㅗㄴㄷㅗ	-3191
▁ㄱㅡㄹㅐㅅㅓ	-3192
▁ㅇㅗㄹㄹㅏㄱㅏ	-3193
▁ㅋㅡㄹㄹㅐ	-3194
ㅡㄴㅗ	-3195
ㅏㄷㅗ	-3196
ㅐㅍㅡㅌㅡ	-3197
▁39	-3198
▁ㅇㅏㅈㅜ	-3199
▁ㅎㅏㅂㅇㅢ	-3200
▁ㅍㅗㄱㅂㅏㄹ	-3201
ㅏㅅㅡ	-3202
▁ㄹㅏㅁㅕ	-3203
▁ㅁㅏㄴㅈㅗㄱ	-3204
ㅅㅗㄹ	-3205
ㅂㅣㄹ	-3206
▁ㅂㅜㄱㅡㄴ	-3207
ㅗㅇㅣㄷㅡ	-3208
▁ㅇㅣㅎㅏ	-3209
▁ㅅㅗㅍㅡㅌㅡ	-3210
▁ㅇㅓㄹㄱㅜㄹ	-3211
▁ㅁㅗㅅㅡㅋㅡ	-3212
▁ㅇㅛㅎㅏㄴ	-3213
▁ㄱㅐㅍㅕㄴ	-3214
ㅣㄴㅏ	-3215
▁ㅅㅓㄴㅅㅐㅇ	-3216
▁400	-3217
▁ㅅㅡㅇㅟㅅㅡ	-3218
▁ㅈㅣㄴㅎㅘ	-3219
▁ㅇㅣㄹㅇㅝㄴ	-3220
▁ㄴㅏㅁㅍㅕㄴ	-3221
▁ㅁㅐㄴㅕㄴ	-3222
▁ㅇㅣㅅㅡㅇ	-3223
▁ㅈㅏㅇㅁㅕㄴ	-3224
ㅅㅓㅁ	-3225
ㅡㄴㅔ	-3226
▁ㄱㅕㅇㅎㅑㅇ	-3227
▁ㄷㅐㄱㅣ	-3228
▁64	-3229
▁ㄱㅜㄴㄷㅏㄴ	-3230
▁1985	-3231
▁ㄱㅣㅈㅣ	-3232
▁ㅇㅣㅅㅡㄹㅏㅇㅔㄹ	-3233
▁ㄷㅐㅎㅕㅇ	-3234
▁ㅇㅝㄴㅈㅏ	-3235
▁II	-3236
ㅂㅜㅇ	-3237
▁ㅇㅏㅍㄷㅜ	-3238
▁ㅎㅓㅇㄱㅏㄹㅣ	-3239
▁ㅌㅗㅇㄱㅖ	-3240
▁ㅎㅐㅊㅔ	-3241
▁ㄱㅏㅇㅈㅓㅁ	-3242
▁ㅌㅐㅍㅜㅇ	-3243
▁ㄲㅡㄶ	-3244
▁ㅈㅗㅇㅇㅣ	-3245
▁ㅇㅢㄹㅛ	-3246
▁ㅂㅜㄺ	-3247
ㄹㅓㅁ	-3248
ㅇㅏㄹ	-3249
ㅁㅗㄹㅣ	-3250
ut	-3251
▁ㅇㅜㅁㅈㅣㄱㅇㅣ	-3252
▁ㅈㅗㅇㅈㅗㅇ	-3253
▁ㅈㅏㄱㅡㅁ	-3254
▁ㅇㅓㄹㅣㄴ	-3255
▁ㄱㅣㅇㅓㄱ	-3256
▁ㅈㅓㅈㅣ	-3257
ㄷㅔㅁㅣ	-3258
▁ㄱㅟㄱㅜㄱ	-3259
▁ㅈㅗㅁ	-3260
ㅂㅐㄱㅈㅣㄹ	-3261
▁ㄹㅐㅇ	-3262
ㅋㅜㅇ	-3263
▁ㅌㅏㅇㅣㅁ	-3264
▁ㅅㅓㅇㅑㅇ	-3265
▁ㅎㅏㅇㅅㅓㅇ	-3266
▁ㅈㅗㅎㅏㅂ	-3267
▁ㄱㅏㄴㅈㅜ	-3268
ㅊㅣㄹ	-3269
▁ㅏㅅㅓ	-3270
▁ㄴㅓㅁㅜ	-3271
▁ㄹㅏㅁㅕㄴ	-3272
▁ㅈㅗㄱㅡㅁ	-3273
▁ㅅㅜㅇㅝㄴ	-3274
▁ㅇㅢㅎㅏㄱ	-3275
▁ㄱㅜㄴㅈㅜ	-3276
▁ㅊㅓㅇㅅㅗㄴㅕㄴ	-3277
ㅍㅔㄴ	-3278
▁ㅇㅗㄹㅣ	-3279
▁ㅇㅔㅍㅣ	-3280
▁ㅎㅘㄱㅅㅣㄹ	-3281
▁ㅆㅡㄹ	-3282
▁ㄱㅏㅁㅈㅓㅇ	-3283
▁i	-3284
▁ㅅㅏㅎㅏㅇ	-3285
▁ㅇㅔㄱㅔㅅㅓ	-3286
▁ㅌㅗㅈㅣ	-3287
▁ㅊㅗㅂㅏㄴ	-3288
▁ㅇㅣㄴㅅㅏㅇ	-3289
▁ㄹㅔㅋㅗㄷㅡ	-3290
▁ㄱㅏㅅㅏ	-3291
▁ㄷㅐㅈㅏㅇ	-3292
ㅅㅡㅋㅣ	-3293
▁ㅎㅑㅇㅅㅏㅇ	-3294
▁ㅂㅗㅈㅏㅇ	-3295
▁43	-3296
um	-3297
▁ㅅㅣㅁㅎㅏ	-3298
▁ㅅㅏㅁㄱㅜㄱ	-3299
▁ㅌㅜㅇㅓ	-3300
ㅔㄹㅗ	-3301
▁ㄱㅡㄱㅗㅅ	-3302
▁ㅈㅓㅅ	-3303
ㅈㅏㄱㅣ	-3304
▁ㅌㅏㅂㅈㅐ	-3305
▁ㅊㅣㅁㄱㅗㅇ	-3306
ㄷㅏㄱㅏ	-3307
▁ㄱㅗㅇㅑㅇ	-3308
▁ㅇㅏㅋㅏㄷㅔㅁㅣ	-3309
ㄷㅏㄹㅣ	-3310
▁ㅇㅏㅁㅔㄹㅣㅋㅏ	-3311
▁ㅅㅗㄴㅕㄴ	-3312
▁LG	-3313
▁ㅂㅕㄴㅎㅏ	-3314
▁ㅅㅐㄱㅣ	-3315
ㅔㅅㅣㅇㅏ	-3316
▁ㅊㅐㅇ	-3317
▁ㄴㅏㅍㅗㄹ	-3318
▁ㅇㅢㅈㅏㅇ	-3319
▁ㅊㅓㅇㄴㅏㄹㅏ	-3320
▁ㅇㅏㄹㅡㅁㄷㅏㅂ	-3321
▁ㅍㅣㄴㄹㅏㄴㄷㅡ	-3322
▁ㅍㅕㅇㅇㅑㅇ	-3323
▁ㄱㅕㅇㅈㅜ	-3324
▁ㄹㅏㅌㅣㄴ	-3325
▁ㄹㅗㅅㅡ	-3326
▁ㅂㅜㄹㄱㅘ	-3327
▁ㅂㅜㄴㅈㅏ	-3328
▁42	-3329
▁ㄴㅏㅁㄷㅗㅇ	-3330
ㅏㄹㅡㅌㅡ	-3331
▁ㅁㅔㅇㅣㅈㅓ	-3332
▁ㅅㅣㄴㅇㅏㅇ	-3333
▁ㅈㅡㅇㄱㅓ	-3334
▁ㅍㅡㄹㄹㅏ	-3335
▁ㅁㅏㅁ	-3336
▁ㅂㅣㅌㅡ	-3337
▁ㅈㅜㅇㅎㅘㅁㅣㄴㄱㅜㄱ	-3338
▁ㄷㅐㄹㅣㅂ	-3339
▁ㅂㅗㅂㅕㅇ	-3340
▁ㄱㅗㄱㅜㄹㅕ	-3341
▁ㄱㅗㅁㅜㄴ	-3342
▁ㄷㅏㄴㅂㅐㄱㅈㅣㄹ	-3343
▁ㅈㅜㄹㄱㅓㄹㅣ	-3344
ㄷㅗㅇㅕㄱ	-3345
ir	-3346
ver	-3347
▁ㅈㅓㄴㅅㅓㄹ	-3348
ㅍㅏㄹ	-3349
▁ㄷㅜㄹㄹㅓ	-3350
▁ㅇㅜㅅㅓㄴ	-3351
▁ㄹㅗㅅ	-3352
▁ㅎㅘㄱㅈㅓㅇ	-3353
▁ㄷㅗㄱㅈㅏ	-3354
▁br	-3355
▁ㅅㅓㄴㄱㅗ	-3356
▁ㅂㅏㄱㅈㅟ	-3357
ㅇㅓㄷㅡㄹ	-3358
▁ㅈㅏㅁㅅㅣ	-3359
▁55	-3360
▁ㅅㅓㄴㄱㅓㄱㅜ	-3361
▁ㅅㅣㄴㅅㅓㄹ	-3362
▁1982	-3363
▁ㄷㅏㄴㅈㅣ	-3364
▁ㅋㅏㅇㅜㄴㅌㅣ	-3365
▁ㅈㅓㅇㅂㅗㄱ	-3366
ㅅㅗㄷㅡ	-3367
▁ㅊㅏㅂㅕㄹ	-3368
▁ㅅㅏㄹㅎㅐ	-3369
▁ㅈㅣㅅㅣ	-3370
▁ㅂㅗㄱㅈㅏㅂ	-3371
▁ㅎㅜㄹ	-3372
▁ㄴㅐㄴ	-3373
▁ㅊㅓㄹㄷㅗㅇㅕㄱ	-3374
▁ㄱㅜㅊㅔ	-3375
▁ㅈㅓㄴㅎㅘ	-3376
▁ㅇㅠㄱㅅㅏㅇ	-3377
▁ㅌㅏㄴㅅㅐㅇ	-3378
▁ㅂㅣㅇㅠㄹ	-3379
▁ㅍㅏㄴㄱㅕㄹ	-3380
▁ㅊㅏㅇㅅㅓㄹ	-3381
ㄷㅜㄴ	-3382
▁ㅅㅓㅇㄷㅏㅇ	-3383
▁ㅎㅏㅁㄷㅐ	-3384
▁ㅇㅖㅅㅏㅇ	-3385
▁ㅍㅡㄹㅣㅁ	-3386
▁ㄷㅔㄴㅁㅏ	-3387
▁ㄱㅘㅇㅇㅕㄱㅅㅣ	-3388
im	-3389
▁ㄱㅓㅁㅊㅏㄹ	-3390
▁ㅎㅏㅂㅊㅣ	-3391
FC	-3392
ㅁㅗㄹ	-3393
▁ㅇㅗㄴㄹㅏㅇㅣㄴ	-3394
▁ㅍㅕㄴㅇㅣㅂ	-3395
▁ㅂㅓㅂㅇㅣㄴ	-3396
▁ㅈㅜㄱㅛ	-3397
▁ㅋㅜㄹ	-3398
▁ㅂㅡㄹㅐㄴㄷㅡ	-3399
▁ㅇㅘㅇㅇㅟ	-3400
ㅇㅓㅅㅓ	-3401
▁44	-3402
ㅋㅣㅇㅏ	-3403
▁ㅇㅣㅅㅓㅇ	-3404
ㅂㅗㄷㅡ	-3405
▁ㅈㅐㄷㅏㄴ	-3406
ㅅㅏㅋㅣ	-3407
▁ㄷㅡㅁ	-3408
ㅍㅔㄹ	-3409
ㅋㅠ	-3410
ㅓㅂㅡ	-3411
ㅇㅗㅍㅡ	-3412
▁ㅅㅜㅊㅜㄹ	-3413
▁ㅈㅓㅅㅓ	-3414
▁1983	-3415
▁ㄱㅗㅇㅇㅠ	-3416
ㄲㅏ	-3417
ㄸㅡㄹㅣ	-3418
ㅓㄴㅌㅡ	-3419
▁ㄷㅗㅇㅇㅢ	-3420
ㅌㅡㄹㄹㅐㄴㄷㅡ	-3421
▁ㄱㅏㅇㅈㅓㅁㄱㅣ	-3422
▁ㅂㅗㄱㅡㅂ	-3423
▁ㅅㅔㅈㅗㅇ	-3424
▁ㅇㅠㅎㅏㄱ	-3425
▁ㄱㅗㅎㅑㅇ	-3426
▁ㅅㅗㄹㄹㅗ	-3427
ㅇㅢㅎㅚ	-3428
ㅣㄴㅌㅡ	-3429
▁47	-3430
ㅅㅣㅇㅌㅓㄴ	-3431
▁ㅅㅜㅅ	-3432
▁ㄱㅏㄹㅗ	-3433
▁ㅎㅐㄱㅅㅣㅁ	-3434
▁ㄴㅗㅇㅖ	-3435
▁ㅊㅏㅁㅅㅓㄱ	-3436
▁Z	-3437
▁ㅈㅣㅂㅎㅐㅇ	-3438
CA	-3439
ㅎㅕ	-3440
▁ㅇㅏㅁㅅㅏㄹ	-3441
ㅎㅏㄹㅏ	-3442
▁ㄱㅗㅈㅓㅇ	-3443
▁ㅎㅏㄴㅡㄹ	-3444
ㅡㄹㄹㅗ	-3445
▁ㅎㅕㅂㅅㅏㅇ	-3446
ay	-3447
▁ㅋㅏㄹㅡ	-3448
ㅇㅜㄴㄷㅗㅇ	-3449
▁ㅂㅏㄴㄷㅗ	-3450
▁ㅅㅔㅇㅣㄴ	-3451
▁ㅇㅜㅅㅜ	-3452
ㅉㅣㄱ	-3453
ㄱㅗㅂ	-3454
▁ㅁㅜㅇㅓㅅ	-3455
ㄷㅡㄹㅣㄷㅡ	-3456
▁ㅁㅏㄷㅡㄹㅣㄷㅡ	-3457
▁ㅎㅔㅇㅣ	-3458
▁ㅂㅓㅂㅊㅣㄱ	-3459
▁ㅅㅏㅈㅓㄴ	-3460
▁ㅂㅗㄴㄱㅕㄱ	-3461
ㅐㄴㅅㅡ	-3462
▁ㅎㅜㅅㅗㄴ	-3463
▁ㅇㅓㄷㅗ	-3464
▁ㅈㅓㅈㅏㅇ	-3465
▁ㄱㅏㅎㅏ	-3466
▁ㅎㅚㅈㅓㄴ	-3467
▁ㅂㅗㅇㅏㄴ	-3468
▁ㅈㅜㅇㅂㅏㄴ	-3469
ㅇㅏㅁㅔㄹㅣㅋㅏ	-3470
ㅉㅏ	-3471
ㅓㄴㅐ	-3472
ㅂㅏㄴㄷㅗ	-3473
▁ㅇㅏㄹㅡㅎㅔㄴ	-3474
▁ㅍㅡㄹㄹㅐㅅ	-3475
▁ㄴㅗㄴㄹㅣ	-3476
ㅔㅇㅣㅋㅡ	-3477
▁ㅈㅓㄴㅎㅜ	-3478
▁ㄱㅝㄴㅎㅏㄴ	-3479
ㄷㅡㅂ	-3480
▁ㄱㅘㄴㄹㅛ	-3481
▁ㅈㅏㅅㅔ	-3482
ㅇㅏㅍㅡㄹㅣㅋㅏ	-3483
▁184	-3484
▁ㄷㅐㅂㅣ	-3485
ㅌㅏㅇㅣ	-3486
▁75	-3487
▁ㅈㅓㄴㅇㅛㅇ	-3488
▁ㅅㅏㄴㅁㅐㄱ	-3489
▁ㄷㅐㅎㅏㅇ	-3490
▁ㅁㅗㄹㅣ	-3491
▁ㅇㅕㄴㄱㅗ	-3492
▁ㄱㅗㅇㅎㅏㄱ	-3493
▁180	-3494
▁ㅇㅓㄹㅁㅏ	-3495
ㄷㅣㅇㅏ	-3496
▁ㅇㅓㄹㅣㄴㅇㅣ	-3497
▁ㅍㅡㄹㅏㄴ	-3498
▁ㅅㅏㅇㅍㅜㅁ	-3499
ㅅㅕㄴㅓㄹ	-3500
▁ㅎㅏㅇㅟ	-3501
▁ㅈㅓㄴㅎㅕ	-3502
▁ㅇㅣㅇㅣㄱ	-3503
▁v	-3504
ㅇㅕㅂ	-3505
▁ㅈㅜㅇㅅㅔ	-3506
▁ㅇㅠㅈㅓㄱ	-3507
▁ㅅㅜㄴㅅㅓ	-3508
▁ㅇㅏㄹㅡㅎㅔㄴㅌㅣㄴㅏ	-3509
▁1972	-3510
▁ㅍㅡㄹㄹㅔㅇㅣㅇㅗㅍㅡ	-3511
ㅁㅏㅅㅡ	-3512
▁ㄱㅗㅇㄱㅣ	-3513
▁ㄷㅏㄴㅇㅣㄹ	-3514
▁ㅆㅗ	-3515
▁ㅅㅣㄱㅏㄱ	-3516
▁ㄱㅏㄹㄷㅡㅇ	-3517
▁ㄷㅔㄴㅁㅏㅋㅡ	-3518
▁ㅇㅟㄹ	-3519
▁ㅅㅔㅅ	-3520
▁ㅈㅣㄱㅇㅝㄴ	-3521
▁1920	-3522
▁ㅇㅔㅍㅣㅅㅗㄷㅡ	-3523
▁ㅁㅏㄹㄱㅣ	-3524
▁46	-3525
▁ㅇㅢㅁㅜ	-3526
▁CD	-3527
▁ㅇㅢㄷㅗ	-3528
▁ㄹㅗㄹ	-3529
▁ㅅㅡㅋㅡㄹ	-3530
▁ㄹㅗㅂㅓㅌㅡ	-3531
▁ㅈㅜㅇㅅㅣㅁㅈㅣ	-3532
▁ㅇㅣㄴㅌㅓ	-3533
▁ㅅㅣㅋ	-3534
▁ㅇㅜㄴㅈㅓㄴ	-3535
▁ㅎㅕㅂㅈㅓㅇ	-3536
ㅁㅜㄴㅎㅘ	-3537
▁ㅇㅐㅍㅡㄹ	-3538
ㄷㅠ	-3539
▁ㅈㅏㄹㅁㅗㅅ	-3540
▁ㅎㅡㄴㅎㅣ	-3541
ㅆㅣㄴ	-3542
▁ㄱㅏㄹㅡㅊㅣ	-3543
▁ㄷㅓㅍ	-3544
▁ㅂㅕㄴㅎㅗㅅㅏ	-3545
▁ㅇㅝㄴㄹㅣ	-3546
▁ㅇㅝㅅㅣㅇㅌㅓㄴ	-3547
▁ㄱㅗㅇㅁㅜㅇㅝㄴ	-3548
▁ㅂㅣㄴㅏㄴ	-3549
▁ㅅㅜㅇㅕ	-3550
▁ㅅㅓㅇㄱㅕㅇ	-3551
▁ㅇㅣㄴㄱㅝㄴ	-3552
▁1979	-3553
▁ㅉㅣㄱ	-3554
ㅊㅓㅂ	-3555
ㅃㅡ	-3556
ㅡㅇㅞㅇㅣ	-3557
▁ㅂㅕㄹㄷㅗ	-3558
▁ㅎㅛㅅㅗ	-3559
▁ㅇㅏㅋㅣ	-3560
▁ㅅㅏㅇㅎㅏ	-3561
▁ㅂㅔㄴㅔ	-3562
▁ㄱㅗㅇㅍㅗ	-3563
▁In	-3564
▁ㅈㅏㅇㅊㅏㄱ	-3565
▁ㅈㅓㄴㄹㅏㅂㅜㄱㄷㅗ	-3566
▁ㅈㅏㄱㄱㅗㄱㄱㅏ	-3567
▁ㅇㅏㅋ	-3568
▁ㅇㅝㄴㅈㅏㄱ	-3569
▁ㅈㅓㄹㄷㅐ	-3570
▁1930	-3571
▁ㅌㅜㅇㅣㅂ	-3572
▁ㄱㅛㄹㅠ	-3573
ㄲㅗㅊ	-3574
▁ㅇㅜㅋㅡㄹ	-3575
▁ㅅㅗㅅㅣㄱ	-3576
▁ㄴㅗㄴㅈㅐㅇ	-3577
▁ㅇㅣㄴㄹㅠ	-3578
▁ㅂㅏㅇㅁㅕㄴ	-3579
▁kg	-3580
ㅗㅎ	-3581
▁ㅁㅜㄴㅈㅏㅇ	-3582
ㅈㅓㅇㅂㅜ	-3583
▁ㅅㅔㅇㅣ	-3584
▁ㅂㅣㄹㄹㅣ	-3585
▁ㅁㅏㅇㅣㅋㅡㄹ	-3586
ㅅㅟ	-3587
▁ㄴㅏㅊㅣ	-3588
▁ㄱㅗㅇㅎㅘ	-3589
▁ㅂㅗㄴㅇㅣㄴ	-3590
▁ㄱㅓㄴㄱㅜㄱ	-3591
▁ㅎㅕㄴㅈㅏㅇ	-3592
▁ㄴㅗㄴㅇㅢ	-3593
▁ㅅㅣㅁㄱㅏㄱ	-3594
▁ㅎㅗㅌㅔㄹ	-3595
▁ㅎㅏㅇㅂㅗㄱ	-3596
ㅍㅓㄷㅡ	-3597
▁1981	-3598
▁ㅁㅣㄹㄹㅣ	-3599
▁ㅇㅓㄸㅓㅎㄱㅔ	-3600
▁ㄷㅗㅁ	-3601
▁150	-3602
10	-3603
▁1973	-3604
▁ㅎㅝㄹ	-3605
▁ㅅㅜㄷㅗㅇ	-3606
▁ㅇㅗㅎㅣㄹ	-3607
▁ㄱㅗㅇㅅㅏㄴㅈㅜㅇㅢ	-3608
▁ㅅㅜㅅㅜㄹ	-3609
▁ㅇㅏㅊㅣㅁ	-3610
ㄷㅓㅁ	-3611
os	-3612
▁ㅊㅜㄹㅁㅏ	-3613
▁ㄱㅣㅎㅏ	-3614
▁ㄱㅛㅌㅗ	-3615
▁ㄴㅗㅎㅇㅣ	-3616
▁ㄹㅣㅅㅡ	-3617
ㅋㅏㅇㅘ	-3618
▁ㅍㅏㅂ	-3619
▁ㄱㅡㅁㅁㅔㄷㅏㄹ	-3620
ㅗㅋㅏ	-3621
▁ㅊㅏㅇㅈㅗ	-3622
▁ㅈㅔㅇㅣ	-3623
▁ㄲㅜ	-3624
▁ㅇㅛㅅㅐ	-3625
▁ㅇㅜㄴㅇㅛㅇ	-3626
▁ㅌㅜㅈㅐㅇ	-3627
▁ㅎㅝㄹㅆㅣㄴ	-3628
▁ㅅㅏㅌㅐ	-3629
▁ㅊㅏㅇㄹㅣㅂ	-3630
▁ㅇㅕㄴㅎㅏㅂㄱㅜㄴ	-3631
▁ㄴㅣㅋㅗㄹ	-3632
▁ㅎㅏㅂㅅㅓㅇ	-3633
▁ㅇㅕㄴㅅㅏㄴ	-3634
ㄱㅗㄱㅣ	-3635
▁ㅇㅗㄹㅐㄴ	-3636
▁ㅇㅣㄴㅈㅗㅇ	-3637
▁ㅁㅏㅋㅡ	-3638
▁ㅁㅜㄹㅣ	-3639
▁ㅇㅗㄹㅡㄴㅉㅗㄱ	-3640
ㄱㅕㄴㅏ	-3641
▁ㅇㅖㅅㅏㄴ	-3642
▁ㅊㅜㅊㅡㄱ	-3643
▁ㅇㅠㅈㅓㄴㅈㅏ	-3644
▁ㄹㅏㅇㅣㅂㅡ	-3645
ㅡㅁㅏ	-3646
ㅔㅇㅣㅈㅣ	-3647
▁ㄱㅡㅁㅅㅗㄱ	-3648
▁ㅁㅕㄹㅁㅏㅇ	-3649
▁ㅍㅡㄹㄹㅔㅇㅣㅇㅓ	-3650
▁ㄱㅣㅁㅈㅓㅇ	-3651
▁ㅂㅏㅇㅊㅜㄹ	-3652
▁ㄹㅗㅅㅡㅇ	-3653
▁ㅌㅐㄱㅜㄱ	-3654
▁ㄹㅐㄴ	-3655
▁ㄹㅏㄷㅗ	-3656
ㅇㅓㅄㅇㅣ	-3657
▁1940	-3658
▁ㄷㅡㄹㅓㄴㅏ	-3659
ㅎㅠ	-3660
▁ㅊㅗㄹ	-3661
ㄹㅣㄹ	-3662
▁ㅍㅐㅎㅏ	-3663
▁ㅋㅗㅁㅣ	-3664
▁ㅅㅏㄴㅎㅏ	-3665
▁ㅎㅕㅇㅅㅏ	-3666
▁ㅇㅑㅁㅏ	-3667
▁ㅇㅣㄴㄱㅗㅇ	-3668
30	-3669
em	-3670
▁ㅇㅚㄴㅉㅗㄱ	-3671
▁ㅇㅣㄴㅈㅓㅇㅂㅏㄷ	-3672
ter	-3673
▁ㄱㅓㄴㅈㅗ	-3674
▁ㅎㅏㄴㄸㅐ	-3675
▁ㄷㅣㄹ	-3676
▁ㄷㅓㄴㅈㅣ	-3677
▁ㄴㅗㄹㅡㅇㅞㅇㅣ	-3678
▁ㅂㅗㄱㅎㅏㅂ	-3679
▁ㄱㅗㅇㅠ	-3680
▁ㄱㅜㅂㅕㄹ	-3681
▁ㅁㅗㅅㅡㅋㅡㅂㅏ	-3682
▁ㅌㅏㅇㅣㅇ	-3683
▁ㅌㅡㄹㅐㄱ	-3684
▁ㅂㅔㅇㅣㅈㅣㅇ	-3685
▁1974	-3686
▁ㅇㅝㄴㅈㅜ	-3687
▁ㅂㅓㅅㅇㅓㄴㅏ	-3688
▁ㅈㅜㅇㅟ	-3689
BO	-3690
▁ㅅㅏㄹㅕㅇㄱㅘㄴ	-3691
▁ㅂㅔㄹㅡㄹㄹㅣㄴ	-3692
▁ㅎㅛㅇㅠㄹ	-3693
▁ㅂㅜㄱㅅㅓ	-3694
▁ㅎㅐㅇㅑㅇ	-3695
▁ㄱㅏㄱㅂㅗㄴ	-3696
ㅏㄴㅣㅁ	-3697
▁ㅈㅔㅈㅏ	-3698
▁185	-3699
▁ㅅㅐㅁ	-3700
ㅣㅇㅓㄹ	-3701
▁ㅅㅓㄱㅣ	-3702
▁ㅂㅏㄴㅂㅗㄱ	-3703
▁ㅈㅜㅇㅂㅜ	-3704
▁ㅇㅗㅎㅣㄹㅕ	-3705
▁ㅈㅓㄴㅊㅓㄹ	-3706
▁ㅇㅗㅈㅓㄴ	-3707
▁ㅎㅔㄴㄹㅣ	-3708
▁ㅇㅕㄴㄱㅘㄴ	-3709
▁ㅇㅣㅂㅈㅏ	-3710
▁ㅊㅜㄹㅈㅏㅇ	-3711
▁ㅎㅐㅅㅏㅇ	-3712
ㅏㅌㅡ	-3713
ㅌㅓㄹㅣ	-3714
▁ㅅㅏㅂㅓㅂ	-3715
▁ㄱㅏㅈㅕㅇㅗ	-3716
ㅈㅔㄹㄹㅔㅅㅡ	-3717
▁ㅈㅔㅊㅜㄹ	-3718
▁ㅌㅡㅇ	-3719
▁ㅃㅗㅂ	-3720
▁ㅇㅣㄴㅌㅓㅂ	-3721
▁ㅅㅜㅅㅈㅏ	-3722
ㅏㅁㅜ	-3723
▁ㅇㅡㅂ	-3724
▁ㅈㅣㅂㅇㅏㄴ	-3725
▁ㅅㅣㄴㅊㅔ	-3726
▁SBS	-3727
▁ㅍㅏㅋㅡ	-3728
▁ㅂㅗㅎㅓㅁ	-3729
ㅏㅇㅣㅌㅣ	-3730
▁ㅅㅗㅂㅏㅇ	-3731
▁ㅂㅜㄴㅈㅐㅇ	-3732
▁54	-3733
▁ㅇㅣㄴㅌㅓㅂㅠ	-3734
▁ㅁㅏㅊㅣㅁ	-3735
▁ㅍㅗㅇㅟ	-3736
▁ㅁㅗㄱㅅㅏ	-3737
ㅓㅅㅡㄴ	-3738
▁ㅇㅣㅁㅣㄴ	-3739
▁ㅅㅏㅇㅣㅁ	-3740
ㅌㅜㅇ	-3741
▁ㄴㅣㄴ	-3742
▁ㅅㅏㅁㄱㅏㄱ	-3743
▁ㅅㅣㄹㄹㅣ	-3744
▁ㅍㅓㅈㅣ	-3745
▁ㅎㅏㄴㅏㄴㅣㅁ	-3746
ㄷㅠㅅㅓ	-3747
▁ㅇㅠㄴㅏㅇㅣㅌㅣ	-3748
▁ㅍㅡㄹㅗㄷㅠㅅㅓ	-3749
▁ㅍㅡㄹㄹㅗ	-3750
▁ㅃㅜㄹㅣ	-3751
ㅌㅐㅇ	-3752
▁ㄷㅏㅋㅏ	-3753
▁ㅅㅜㅅㅗㅇ	-3754
▁ㅁㅏㅅㅣ	-3755
▁ㅊㅜㄱㅈㅔ	-3756
▁ㅇㅗㅌㅗ	-3757
▁1948	-3758
▁ㄱㅓㅈㅓㄹ	-3759
▁ㅇㅏㅍㅏ	-3760
ㅏㅅ	-3761
▁ㅅㅡㄹㅣ	-3762
▁ㅅㅣㅈㅓㅁ	-3763
▁ㄱㅜㄴㅅㅜ	-3764
▁ㅁㅗㅂㅏㅇ	-3765
▁ㅍㅗㄱㅣ	-3766
▁ㄹㅔㄷㅡ	-3767
ㅅㅣㅅㅡ	-3768
▁ㅇㅜㅅㅡ	-3769
▁ㅈㅓㅇㅂㅣ	-3770
ㅐㅁㅍㅡ	-3771
▁ㅊㅟㄱㅡㅂ	-3772
▁1968	-3773
▁ㅎㅘㄹㅂㅏㄹ	-3774
ㅂㅜㄹㅡㅋㅡ	-3775
▁ㅅㅡㅋㅗㅌㅡㄹㄹㅐㄴㄷㅡ	-3776
▁ㅂㅜㄱㄷㅗㅇ	-3777
▁1976	-3778
▁ㄱㅐㅅㅣ	-3779
▁ㄱㅘㄴㅈㅓㅁ	-3780
ㅅㅡㅌㅣㅇ	-3781
▁ㄱㅜㅅㅗㄱ	-3782
▁ㅁㅓㄱㅇㅣ	-3783
▁ㅁㅔㅅㅣ	-3784
▁ㅅㅗㄴㅕ	-3785
▁ㅁㅕㅇㅅㅓㅇ	-3786
▁ㅈㅓㄴㄱㅗㅇ	-3787
▁ㄱㅓㄴㄹㅣㅂ	-3788
▁ㅇㅑㄱㅅㅗㄱ	-3789
▁ㅊㅜㄹㅇㅣㅂ	-3790
▁ㅈㅜㅇㄷㅐ	-3791
▁ㅇㅝㄴㅈㅏㄹ	-3792
▁ㅂㅏㄲㅇㅔ	-3793
▁ㄱㅗㅇㅛㅇ	-3794
▁ㄱㅕㄴㅎㅐ	-3795
op	-3796
▁ㅅㅏㄹㅕㅇㅂㅜ	-3797
ㅔㄷㅡ	-3798
ㅜㅁㅏ	-3799
▁ㅈㅣㄱㅇㅓㅂ	-3800
▁1975	-3801
▁ㅎㅡㅂㅅㅜ	-3802
▁ㄴㅓㅁㄱㅣ	-3803
▁ㄱㅕㅇㅅㅓㅇ	-3804
▁ㅈㅡㄹㄱㅣ	-3805
▁ㅎㅏㄴㄱㅜㄱㅇㅓ	-3806
▁ㅇㅡㅇㅇㅛㅇ	-3807
▁ㅎㅘㄹㅅㅓㅇ	-3808
▁ㅂㅜㅎㅘㄹ	-3809
▁ㅇㅣㄴㅈㅗ	-3810
▁ㅅㅓㅇㄴㅡㅇ	-3811
▁ㅎㅏㄱㅅㅡㅂ	-3812
▁ㅇㅗㅂ	-3813
▁ㄱㅜㄱㄷㅗ	-3814
ㄷㅗㄹㅡ	-3815
▁ㅅㅣㄴㅅㅓㅇ	-3816
▁ㅎㅣㅂ	-3817
▁ㅈㅜㅌㅐㄱ	-3818
▁ㄷㅗㅇㅇㅝㄴ	-3819
▁ㄹㅔㅇㅣㄴ	-3820
▁ㅈㅏㅇㅇㅏㄱ	-3821
▁ㅈㅜㅈㅓㄴ	-3822
▁ㄴㅗㅇㅁㅣㄴ	-3823
▁ㅇㅕㅇㅎㅘㅈㅔ	-3824
ㅅㅓㅌㅡ	-3825
ㄷㅔㅅㅡ	-3826
▁ㅊㅟㄷㅡㄱ	-3827
ㅇㅗㅇ	-3828
▁ㅇㅡㅁㄹㅕㄱ	-3829
ㄱㅡ	-3830
▁ㄴㅑ	-3831
▁ㅂㅜㄹㅂㅓㅂ	-3832
▁ㅈㅓㅇㅊㅔ	-3833
▁ㅇㅣㄹㅊㅣ	-3834
▁ㅁㅕㅇㅁㅕㅇ	-3835
▁56	-3836
▁ㅇㅕㅂㅜ	-3837
▁ㅈㅣㄱㅈㅓㄴ	-3838
ㅅㅕ	-3839
▁ㅂㅣㄹㅗㄱ	-3840
▁ㅇㅣㅈㅜㅇ	-3841
▁ㅋㅏㄹㄹㅣ	-3842
▁ㅊㅗㅇㄷㅗㄱ	-3843
ag	-3844
▁ㅅㅗㅅㅡ	-3845
▁ㅇㅠㅁㅜㄹ	-3846
▁ㅎㅜㅇㅝㄴ	-3847
▁ㄷㅣㅇ	-3848
▁1978	-3849
ㅋㅓㄴ	-3850
▁1971	-3851
▁ㅋㅗㅅㅡ	-3852
▁52	-3853
ㅅㅛ	-3854
▁Q	-3855
ㅍㅏㅇ	-3856
▁1963	-3857
▁ㄱㅜㄱㅈㅏㅇ	-3858
▁ㅍㅗㄱㄹㅕㄱ	-3859
▁ㅈㅓㄴㅂㅜ	-3860
▁ㅇㅕㄱㅐㄱㅊㅓㄹㄷㅗ	-3861
▁ㄴㅡㄹㅇㅓㄴㅏ	-3862
▁ㅂㅗㅇㅎㅏ	-3863
▁ㅇㅣㅇㅗㄴ	-3864
▁ㅎㅗㄴㄹㅏㄴ	-3865
ㅇㅓㄹ	-3866
▁ㄷㅓㄹㅏㄷㅗ	-3867
▁ㄷㅐㄹㅣ	-3868
▁ㅇㅕㄴㄹㅛ	-3869
ㅋㅣㅅㅡㅌㅏㄴ	-3870
▁ㅎㅏㅇㄱㅗㅇㄱㅣ	-3871
▁ㅈㅜㄱㅣ	-3872
▁ㅎㅜㅈㅣ	-3873
▁ㅁㅏㅆㅡ	-3874
▁ㅁㅜㄴㅎㅓㄴ	-3875
▁65	-3876
▁ㅍㅕㄴㅈㅣ	-3877
▁ㅅㅓㄴㄱㅛ	-3878
▁ㅌㅏㅇㅣㅇㅘㄴ	-3879
▁49	-3880
ㅜㅇㅣ	-3881
ㅣㅇㅗㄹ	-3882
▁ㅁㅏㅅㅏ	-3883
▁ㅊㅓㄴㅊㅔ	-3884
▁ㅅㅏㅇㄷㅏㅇㅎㅣ	-3885
ce	-3886
▁ㅈㅜㄱㅘㄴ	-3887
▁ㅇㅣㅁㄱㅡㅁ	-3888
▁ㄷㅗㄷㅏㄹ	-3889
▁ㄷㅏㅅ	-3890
▁ㄷㅐㅅㅓㅇ	-3891
▁ㅂㅐㄱㅈㅔ	-3892
▁ㅂㅗㄴㅅㅏ	-3893
▁ㄹㅗㅅㅡㅇㅐㄴ	-3894
▁ㄹㅗㅅㅡㅇㅐㄴㅈㅔㄹㄹㅔㅅㅡ	-3895
▁ㄱㅘㄴㅈㅣㄱ	-3896
▁ㅂㅡㄹㄹㅗㄱ	-3897
ㅂㅜㅌㅇㅣ	-3898
▁ㅊㅓㄹㅅㅜ	-3899
▁ㅎㅘㅁㅜㄹ	-3900
▁ㅂㅏㄴㅇㅕㅇ	-3901
ㅂㅣㅊㅣ	-3902
▁ㅇㅣㄹㄷㅐ	-3903
▁ㅅㅏㅇㄹㅠㄱ	-3904
▁ㅅㅜㅈㅣㅂ	-3905
▁ㄴㅔㅅ	-3906
▁1969	-3907
▁ㅇㅜㄱ	-3908
▁ㄴㅜㄹㅣ	-3909
▁ㄷㅏㅁㅕ	-3910
▁ㅈㅜㄱㅏㄴ	-3911
▁ㄷㅐㅎㅘ	-3912
▁ㅇㅢㅈㅗㄴ	-3913
▁ㄷㅗㄱㅜ	-3914
▁ㄱㅗㅈㅗㅇ	-3915
▁ㅎㅣㄷㅔ	-3916
▁179	-3917
▁ㄱㅛㅎㅘㄴ	-3918
▁ㅇㅕㅇㅇㅓㅂ	-3919
▁ㅋㅐㅁㅍㅓㅅㅡ	-3920
ㅏㄴㅏ	-3921
▁00	-3922
▁ㄱㅡㄹㄹㅗㅂ	-3923
▁ㅎㅏㄱㅅㅜㄹ	-3924
▁ㅁㅜㄹㄹㅓㄴㅏ	-3925
▁ㄱㅖㅌㅗㅇ	-3926
▁ㅇㅏㄴㅌㅏ	-3927
OS	-3928
▁ㅍㅗㄷㅗ	-3929
▁ㅈㅏㅇㄱㅛ	-3930
▁ㄹㅗㄷㅡ	-3931
▁ㅋㅗㄴㅅㅓㅌㅡ	-3932
▁ㅈㅡㅇㅅㅏㅇ	-3933
▁ㅂㅜㅈㅏㅇ	-3934
▁ㅎㅐㅅㅏㄴ	-3935
ㅍㅡㄹㅣ	-3936
▁ㅂㅗㄱㅘㄴ	-3937
▁ㄱㅡㄹㅓㄴㄷㅔ	-3938
▁ㅎㅏㄱㅂㅜ	-3939
▁ㄱㅔㄴ	-3940
▁ㅈㅐㄹㅛ	-3941
▁ㅈㅗㅂ	-3942
▁ㅈㅓㅇㅇㅝㄴ	-3943
▁ㅈㅏㅅㅏㄹ	-3944
▁ㄱㅜㅅㅓㅇㅇㅝㄴ	-3945
▁ㄹㅗㅅㄷㅔ	-3946
▁53	-3947
▁ㅅㅏㅇㅜㄴㄷㅡ	-3948
▁ㅅㅏㅇㅅㅡㅇ	-3949
▁ㄱㅐㅊㅔ	-3950
▁ㅈㅓㄴㅁㅜㄴㄱㅏ	-3951
▁ㅈㅜㅅㅣㄱㅎㅚㅅㅏ	-3952
▁ㅇㅕㄴㅈㅐ	-3953
▁..	-3954
▁ㄴㅏㅇㅏㄱㅏ	-3955
▁1946	-3956
▁ㅁㅗㅅㅣ	-3957
▁ㅂㅐㄱㅈㅏㄱ	-3958
▁ㅇㅕㅇㅎㅑㅇㄹㅕㄱ	-3959
▁ㅂㅜㄹㅅㅏㅇ	-3960
▁ㅋㅗㄹㅗㄴㅏ	-3961
▁ㅁㅣㄷㅡ	-3962
▁SK	-3963
ㄹㅏㄹ	-3964
▁ㄱㅣㅁㅇㅕㅇ	-3965
▁ㅎㅓㅁ	-3966
ㄹㅏㅈㅣ	-3967
▁ㄷㅔㅇㅣㅂㅣㄷㅡ	-3968
▁ㅂㅏㄱㅈㅓㅇ	-3969
ㄷㅣㅇㅓㄴ	-3970
▁ㄱㅓㄱㅣ	-3971
▁ㄹㅓㅅㅣ	-3972
▁ㅂㅏㄴㅂㅏㄹ	-3973
▁ㅍㅏㄴㅅㅓ	-3974
▁ㅎㅏㅇㅜㅅㅡ	-3975
oc	-3976
▁ㅈㅓㅇㅈㅣ	-3977
▁ㄱㅗㄹㅣ	-3978
▁ㅅㅏㄹㅇㅣㄴ	-3979
▁ㅂㅏㄹㅇㅓㄴ	-3980
▁ㅁㅗㄷㅡ	-3981
▁ㄱㅏㄴㄷㅏㄴ	-3982
▁ㅂㅜㅇㅣㅁ	-3983
▁ㄱㅗㅇㅌㅗㅇ	-3984
▁ㅇㅕㅇㅇㅣㅂ	-3985
▁ㅅㅏㅈㅏㅇ	-3986
▁ㅈㅔㅇㅣㄹ	-3987
▁ㅎㅓㄱㅏ	-3988
ㅅㅡㅋㅏ	-3989
▁ㅈㅣㄴㅇㅣㅂ	-3990
▁ㅈㅣㄹㅂㅕㅇ	-3991
▁ㅍㅏㅁ	-3992
▁ㅅㅗㅂㅣㅇ	-3993
▁ㅁㅏㅇㅁㅕㅇ	-3994
ㄱㅗㅇㅎㅏㅇ	-3995
▁ㅅㅏㅇㅠ	-3996
▁ㅅㅡㅍㅣ	-3997
▁ㅂㅔㄹㄱㅣ	-3998
▁1964	-3999
▁ㅋㅗㄹㄹㅗ	-4000
ㅈㅡㅂ	-4001
▁ㅇㅚㄱㅜㄱㅇㅣㄴ	-4002
ㄲㅐ	-4003
ㅂㅕㅇㄷㅐ	-4004
▁99	-4005
▁ㅎㅘㅅㅓㅇ	-4006
▁ㅅㅣㄴㅂㅜㄴ	-4007
▁ㅇㅝㄴㅎㅏ	-4008
▁ㅂㅏㅂ	-4009
▁ㅇㅔㄷㅡㅇ	-4010
▁ㅈㅓㄴㅍㅏ	-4011
▁ㅃㅐㅇ	-4012
▁ㅇㅟㅂㅏㄴ	-4013
▁ㅈㅓㄹㅊㅏ	-4014
▁US	-4015
▁ㅈㅏㄴㅕ	-4016
▁ㅂㅗㄱㅓㄴ	-4017
▁ㅊㅏㅁㅈㅓㄴ	-4018
▁ㅇㅣㄴㄷㅗㄴ	-4019
▁ㅂㅔㅅㅡㅌㅡ	-4020
▁ㅅㅣㅎㅗ	-4021
▁ㅎㅏㄱㅇㅝㄴ	-4022
ㅏㄱㅣ	-4023
▁ㅅㅡㅌㅗㄹㅣ	-4024
▁ㄷㅐㄹㅑㄱ	-4025
ri	-4026
ㅡㄹㄹㅣ	-4027
▁ㅈㅓㅈㅏㄱ	-4028
▁ㅍㅐㅇ	-4029
▁ㅂㅕㄴㅎㅕㅇ	-4030
▁ㅋㅏㅇ	-4031
▁ㅇㅑㄱㅎㅏ	-4032
▁ㅈㅣㄴㅂㅗ	-4033
▁ㄱㅡㅇ	-4034
▁ㅌㅏㄹㄹㅏㄱ	-4035
▁ㅅㅗㅂㅣㅇㅔㅌㅡ	-4036
▁ㅌㅗㅂ	-4037
▁ㅂㅕㄴㅎㅘㄴ	-4038
▁ㄲㅗㄱ	-4039
▁ㅎㅚㅇ	-4040
▁ㅊㅏㅇㄷㅏㄴ	-4041
▁ㅊㅜㅇㅊㅓㅇㅂㅜㄱㄷㅗ	-4042
▁58	-4043
▁ㅈㅣㄴㅇㅏㅂ	-4044
▁ㄱㅣㄷㅗ	-4045
▁ㅈㅗㅈㅏㄱ	-4046
ㅋㅜㄹㅏ	-4047
▁ㅅㅡㅌㅏㄹ	-4048
▁ㅇㅔㄷㅗ	-4049
▁ㅎㅏㄴㅂㅏㄴㄷㅗ	-4050
▁ㅅㅡㅇㅈㅣㄴ	-4051
▁ㅅㅜㅇㅛ	-4052
▁ㅍㅣㅇㅏㄴㅗ	-4053
▁ㅅㅓㅂㅓ	-4054
▁1000	-4055
▁ㄱㅏㅇㅡㄹ	-4056
▁ㅌㅗㅇㅅㅏㅇ	-4057
ㅈㅓㅇㅅㅣㄱ	-4058
▁ㅅㅣㄹㅣㅇㅏ	-4059
▁PC	-4060
▁and	-4061
▁ㅎㅏㄱㅎㅚ	-4062
▁ㅌㅏㄹㅊㅜㄹ	-4063
ㅔㄹㄹㅏ	-4064
ㄴㅕㅇ	-4065
▁ㄷㅗㅁㅏㅇ	-4066
▁ㄱㅜㄱㅈㅔㄱㅗㅇㅎㅏㅇ	-4067
▁ㅅㅡㅋㅏ	-4068
▁ㅊㅐㅇㅛㅇ	-4069
▁ㄹㅜㅇㅣㅅㅡ	-4070
▁ㅊㅐㅁ	-4071
▁ㅅㅣㄱㅍㅜㅁ	-4072
▁ㅇㅛㅇㅣㄴ	-4073
▁ㅎㅕㄴㅇㅕㄱ	-4074
▁ㅁㅏㄹㄹㅔㅇㅣ	-4075
▁ㅁㅏㅋㅔ	-4076
▁ㄱㅗㅇㄷㅗㅇㅊㅔ	-4077
ㅎㅏㅁㅏ	-4078
▁ㅅㅣㄴㅊㅓㅇ	-4079
▁ㅈㅜㄴㅕㄴ	-4080
▁ㅈㅓㄴㄷㅗㅇ	-4081
▁ㄱㅡㅊㅣ	-4082
▁ㄹㅣㄷㅓ	-4083
▁ㅈㅣㅂㅜㅇ	-4084
▁ㅈㅔㅇㅓ	-4085
▁ㅂㅗㄱㅁㅜ	-4086
▁ㅂㅜㄴㅇㅕㄹ	-4087
▁ㅇㅏㄹㅣ	-4088
ㅁㅓㄴㅣ	-4089
▁ㅉㅗㅊ	-4090
▁ㅁㅣㅇㅑ	-4091
▁ㅌㅡㄱㅇㅣ	-4092
▁ㄷㅗㅇㄴㅏㅁ	-4093
▁ㅁㅓㅁㅜㄹㅡ	-4094
▁ㄷㅗㅇㅅㅓㅇ	-4095
▁ㄹㅣㄹ	-4096
▁ㅂㅏㅇㅅㅗㅇㄱㅜㄱ	-4097
ation	-4098
ㅜㅊㅣ	-4099
▁ㅋㅟㄴ	-4100
▁ㅁㅏㄴㅈㅜ	-4101
ㅓㄷㅡ	-4102
▁ㅈㅐㄴ	-4103
▁ㅎㅏㅂㄱㅕㄱ	-4104
▁1977	-4105
▁ㅈㅗㅈㅓㄹ	-4106
▁ㄸㅡ	-4107
▁ㅇㅠㄷㅐ	-4108
▁ㅇㅕㄴㅊㅜㄹ	-4109
▁ㅇㅖㅊㅡㄱ	-4110
ㅌㅏㅇㅣㄴ	-4111
▁FA	-4112
▁ㅎㅘㅁㅕㄴ	-4113
▁ㅁㅣㄴㅂㅓㅂ	-4114
▁ㅅㅜㅇㅕㅇ	-4115
▁ㅎㅏㄱㄱㅘ	-4116
▁ㅂㅔㄹㄱㅣㅇㅔ	-4117
▁1949	-4118
ㅊㅓㄴㄱㅜㄴ	-4119
▁ㄸㅢ	-4120
▁ㅁㅣㅌㅓ	-4121
▁ㅎㅗㅅㅜ	-4122
▁ㅇㅏㅌ	-4123
▁ㄱㅣㅎㅗ	-4124
ㄲㅇㅣ	-4125
▁ㅇㅣㅁㅇㅢ	-4126
▁ㄱㅗㄷㅗ	-4127
igh	-4128
▁ㅅㅣㄴㅇㅣㄴ	-4129
▁ㅁㅏㄱㅂㅜ	-4130
▁ㄷㅗㅇㅈㅏㄱ	-4131
▁ㅊㅣㄴㅇㅣㄹ	-4132
▁ㅅㅏㅇㅇㅝㄴ	-4133
▁ㄱㅣㅂㅓㅂ	-4134
▁ㅇㅟㅅㅏㅇ	-4135
▁ㅈㅣㄱㅡㅂ	-4136
▁ㄱㅜㄱㅁㅜ	-4137
▁ㄴㅗㄹㅣ	-4138
▁ㅇㅣㅁㄷㅐ	-4139
▁ㅇㅞㅇㅣ	-4140
▁88	-4141
▁ㅈㅏㅇㄹㅡ	-4142
ㅇㅏㅂㅓㅈㅣ	-4143
ㅌㅡㄹㅏ	-4144
▁ㅂㅏㄴㄷㅡ	-4145
▁ㅌㅏㄴㅅㅗ	-4146
ㅗㄹㅣ	-4147
▁ㅇㅣㄴㄷㅗㄴㅔㅅㅣㅇㅏ	-4148
▁ㅅㅓㄴㅂㅗㅇㅣ	-4149
▁62	-4150
ㅔㅇㅣㅌㅓ	-4151
ㅅㅓㅇㄱㅜㄴ	-4152
▁1962	-4153
▁ㅅㅓㅅㅣㄱㅈㅣ	-4154
ㄱㅓㅁ	-4155
▁ㅊㅟㅅㅗ	-4156
▁ㅊㅜㄹㄱㅏㄴ	-4157
▁ㅎㅘㅇㄱㅡㅁ	-4158
▁ㅂㅐㅊㅜㄹ	-4159
▁ㄱㅘㅇㅈㅏㅇ	-4160
▁ㅅㅓㄴㅈㅓㄴ	-4161
▁ㄷㅗㄱㄹㅣㅂㅇㅜㄴㄷㅗㅇ	-4162
ㅁㅜㄴㅎㅘㅈㅐ	-4163
ㄹㅗㄹ	-4164
▁ㅎㅠㅇ	-4165
▁ㅇㅏㄹㄹㅔㄱㅅㅏㄴㄷㅡㄹ	-4166
▁ㅅㅣㄹㅅㅜ	-4167
▁ㅎㅐㄹㅣ	-4168
▁ㅁㅣㄴㅣ	-4169
▁ㅋㅗㅍㅏ	-4170
▁ㅊㅓㅎㅕㅇ	-4171
▁1967	-4172
▁ㅅㅓㄴㅈㅗ	-4173
▁ㅎㅘㅈㅐ	-4174
▁Ch	-4175
▁ㄲㅓ	-4176
▁ㄱㅣㅊㅔ	-4177
▁ㅅㅐㅇㅈㅗㄴ	-4178
▁ㅂㅜㅂㅜ	-4179
▁ㅂㅏㅇㅈㅣ	-4180
▁ㅅㅏㅂ	-4181
▁ㅇㅣㅅㅡㅇㅁㅏㄴ	-4182
▁57	-4183
▁ㅎㅣㅁㄷㅡㄹ	-4184
▁ㅋㅗㅁㅣㄷㅣ	-4185
▁ㅈㅜㄷㅜㄴ	-4186
▁ㅇㅕㄴㅇㅏㄴ	-4187
▁ㅇㅗㅅㅡㅁㅏㄴ	-4188
▁ㄷㅗㅈㅓㄴ	-4189
▁ㅇㅣㄹㅉㅣㄱ	-4190
▁ㅎㅡㄱㅇㅣㄴ	-4191
▁ㄴㅡㄴㄱㅏ	-4192
▁ㅎㅕㄴㅈㅣ	-4193
▁ㅇㅓㄸㅓ	-4194
▁ㅈㅓㅇㄱㅣ	-4195
▁ㄷㅣㄴ	-4196
▁ㄹㅗㅋㅔㅅ	-4197
▁ㄱㅜㅁ	-4198
▁ㅇㅣㄹㅂㅗㄴㄱㅜㄴ	-4199
▁ㅇㅣㅁㅈㅣㄴ	-4200
ㅌㅣㄱ	-4201
ㄹㅕㅇㅗ	-4202
▁ㅋㅏㅁㅔㄹㅏ	-4203
ㅠㅂㅡ	-4204
▁ㅋㅗㄴㅅㅡㅌㅏㄴ	-4205
▁ㅇㅏㄹㅏ	-4206
▁ㅂㅏㄹㅡㅅ	-4207
▁ㄱㅗㅇㅈㅓㅇ	-4208
▁ㄲㅏ	-4209
▁ㄱㅕㅇㄹㅗ	-4210
ㄱㅗㅅ	-4211
ㅌㅏㅁ	-4212
▁ㅅㅓㅇㅝㄴ	-4213
ㅊㅓㄴㅅㅣ	-4214
▁ㅎㅢㅁㅏㅇ	-4215
▁ㄱㅐㅈㅗ	-4216
▁ㄹㅜㅌㅡ	-4217
▁ㄴㅜㄹㅡ	-4218
▁You	-4219
▁ㅂㅗㅈㅗ	-4220
▁ㅂㅏㅇㅈㅓㅇㅅㅣㄱ	-4221
ㅈㅓㅇㅜ	-4222
▁ㄴㅗㅇㄱㅜ	-4223
ㅅㅜㄹㅗㄱ	-4224
▁ㅊㅓㄴㅇㅕㄴ	-4225
ㅅㅖ	-4226
▁ㄷㅓㅅ	-4227
▁ㄷㅗㅇㄱㅣ	-4228
▁ㄱㅗㅈㅣ	-4229
▁ㅈㅔㄷㅐㄹㅗ	-4230
ㅎㅏㅇㅣ	-4231
ㄴㅔ	-4232
▁ㅆㅏㅇㅜㅁ	-4233
▁ㅇㅕㄷㅏㄴ	-4234
▁ㅂㅏㄴㄷㅡㅅㅣ	-4235
▁ㅇㅢㅎㅗㄱ	-4236
▁ㄴㅏㅁㅅㅓ	-4237
▁ㅇㅘㅇㅈㅏ	-4238
▁ㅅㅓㅇㅎㅑㅇ	-4239
▁ㅅㅓㄱㅜ	-4240
▁ㄴㅡㅈ	-4241
ㅇㅜㄹ	-4242
▁ㅅㅜㅅㅗ	-4243
▁ㅂㅜㄴㅁㅕㅇ	-4244
▁ㅁㅜㄷㅓㅁ	-4245
▁ㅎㅜㅋㅜㅇ	-4246
ㅋㅏㅇ	-4247
ㅌㅜㄱㅣ	-4248
nd	-4249
▁ㅅㅐㅇㅌㅐ	-4250
▁ㅁㅏㅈㅅㅓ	-4251
▁ㄱㅗㅊㅣ	-4252
▁ㅌㅓㄴㅓㄹ	-4253
▁ㅅㅔㅇㅣㄴㅌㅡ	-4254
▁ㅁㅏㅈㅇㅣ	-4255
ㅇㅣㄴㅁㅜㄹ	-4256
▁ㅍㅗㄹㅗ	-4257
ㅗㄹㄹㅣ	-4258
ㅡㅁㅏㄴ	-4259
▁ㄱㅗㅂ	-4260
▁181	-4261
▁ㄱㅜㅂ	-4262
▁ㄴㅗㅂㅔㄹ	-4263
▁ㅁㅣㄱㅜㄱㅇㅣㄴ	-4264
▁ㅂㅗㅋㅓㄹ	-4265
▁ㅎㅏㅇㄱㅜ	-4266
▁ㅇㅣㄴㅈㅣ	-4267
▁ㅇㅏㅂㄹㅕㄱ	-4268
ㅍㅗㄹㅡ	-4269
▁ㅍㅏㅇㅏㄱ	-4270
▁ㅎㅏㄴㄱㅖ	-4271
▁ㅈㅓㄴㅁㅕㄴ	-4272
▁ㅎㅓㄹ	-4273
▁ㄹㅏㅇㅣㅌㅡ	-4274
▁ㄱㅐㄹㄹ	-4275
▁ㅎㅣㅌㅡ	-4276
▁ㄴㅐㅈㅓㄴ	-4277
▁ㄷㅜㄹㅉㅐ	-4278
▁ㅁㅗㄱㅅㅗㄹㅣ	-4279
▁ㅈㅓㄴㅎㅕㅇ	-4280
▁ㅂㅓㅂㅈㅓㅇ	-4281
▁ㅅㅣㄴㄹㅚ	-4282
▁ㅇㅓㅁㅊㅓㅇ	-4283
▁66	-4284
▁1966	-4285
▁ㅎㅐㅁ	-4286
ㅌㅏㄹㅡ	-4287
▁ㅊㅏㅁㄱㅗ	-4288
▁ㄷㅗㄱㅌㅡㄱ	-4289
▁r	-4290
▁ㄴㅗㄱㅅㅐㄱ	-4291
ㅌㅣㅂㅡ	-4292
▁ㄱㅐㅅㅣㄴ	-4293
ㅓㄴㅅㅡ	-4294
ST	-4295
ㅣㄱㅕㅇ	-4296
▁ㄷㅗㄹㄹㅣ	-4297
ㅋㅡㄴ	-4298
▁ㅇㅓㄷㅣ	-4299
ㅅㅏㄴㅅㅣ	-4300
▁%,	-4301
▁ㅁㅜㄹㅊㅔ	-4302
ㄹㅠㅇ	-4303
▁ㅂㅣㅍㅕㅇ	-4304
▁ㅇㅠㅎㅐㅇ	-4305
▁ㅊㅓㅂㅓㄹ	-4306
▁ㄱㅡㄹㅈㅏ	-4307
▁68	-4308
ON	-4309
▁ㅇㅏㄷㅗㅇ	-4310
▁ㅂㅕㄹㅁㅕㅇ	-4311
ㅅㅏㅅㅡ	-4312
▁ㅇㅛㅋㅗ	-4313
▁1965	-4314
▁ㅅㅜㄴㅎㅘㄴ	-4315
▁ㅇㅏㅌㅔㄴ	-4316
ㅗㄹㅗ	-4317
▁ㅇㅏㅍㅏㅌㅡ	-4318
ㅇㅏㅂㅗ	-4319
▁ㄹㅣㅊㅓ	-4320
▁ㅂㅗㄱㅈㅣ	-4321
▁ㅂㅜㄴㅎㅏㄹ	-4322
▁61	-4323
▁ㅊㅏㅇㅇㅝㄴ	-4324
▁ㅁㅐㅇㅣㄹ	-4325
▁ㅋㅟ	-4326
▁ㅍㅐㄱ	-4327
ㅂㅏㅇㅅㅗㅇ	-4328
▁ㅊㅜㄱㅜ	-4329
▁KBO	-4330
▁ㅅㅏㄹㅣㅂ	-4331
▁ㅅㅣㄹㅈㅣㄹ	-4332
▁ㅁㅗㅎㅕㅇ	-4333
▁ㄷㅡㅁㅜㄹ	-4334
▁ㅂㅏㅇㅎㅐ	-4335
▁ㅈㅣㄴㅈㅜ	-4336
▁ㅍㅕㅇㄷㅡㅇ	-4337
▁183	-4338
▁ㅈㅘㅇㅜ	-4339
ㅡㄱㅏㄴ	-4340
▁ㅌㅏㄱㅕㄱ	-4341
ㅇㅓㄱㅏ	-4342
ㅅㅡㅋㅔ	-4343
ㅅㅏㅈㅏ	-4344
▁ㅂㅏㄷㅜㄱ	-4345
▁ㅈㅣㅂㄱㅝㄴ	-4346
▁ㄱㅏㄴㅎㅐㅇ	-4347
▁ㄱㅜㅎㅕㄴ	-4348
ㄱㅓㄹ	-4349
▁ㅇㅜㄹㅕ	-4350
▁ㅊㅣㅇㅎㅏ	-4351
ㄱㅜㅇㅝㄴ	-4352
▁ㄱㅓㄴㄴㅓ	-4353
▁ㅅㅡㄴ	-4354
▁ㅎㅘㅅㅏㄴ	-4355
ㅣㅂㅓ	-4356
▁ㄴㅠㅈㅣㄹ	-4357
▁ㅎㅏㅇㅣㄴ	-4358
▁ㅇㅏㄴㅌㅗㄴ	-4359
▁ㄱㅏㅅㅏㅇ	-4360
▁ㅌㅔㄹㅓ	-4361
▁ㅎㅏㄴㅈㅓㅇ	-4362
ER	-4363
▁ㄱㅣㅁㅇㅣㄹ	-4364
▁ㅎㅢㅅㅐㅇ	-4365
▁ㅂㅜㅈㅣㄴ	-4366
▁ㅌㅔㅇㅣ	-4367
▁ㅌㅣㅇ	-4368
▁ㅃㅐㅇㅏㅅ	-4369
▁ㄱㅘㅇㅂㅗㄱ	-4370
▁ㅍㅜㅇㅂㅜ	-4371
▁ㄴㅠㅈㅣㄹㄹㅐㄴㄷㅡ	-4372
▁ㅊㅏㄹㅅㅡ	-4373
▁ㅇㅣㄹㅅㅣㄱ	-4374
art	-4375
▁ㅇㅔㅇㅓ	-4376
▁ㄹㅜㅁ	-4377
▁ㅊㅚㄷㅏ	-4378
▁ㅂㅓㅁㅈㅜ	-4379
▁ㅎㅜㅅ	-4380
▁ㅇㅘㄴㄹㅛ	-4381
ㅌㅔㄴㅊㅡ	-4382
▁ㅅㅣㅂㅈㅏㄱ	-4383
ㅇㅘ	-4384
ㅅㅣㅇㅗ	-4385
▁1961	-4386
▁ㅇㅠㄱㅣ	-4387
▁ㄹㅏㄹ	-4388
▁ㅇㅏㅁㅜㄹ	-4389
ㄷㅣㅅㅕㄴ	-4390
▁ㅈㅓㅅㅜㄹ	-4391
▁800	-4392
▁86	-4393
▁ㅌㅣㅂ	-4394
▁ㅅㅏㅇㅝㄴ	-4395
▁ㅁㅏㅊㅣㅁㄴㅐ	-4396
▁ㅅㅕㄴ	-4397
ㄷㅎㅣ	-4398
▁ㅁㅏㅂㅓㅂ	-4399
▁ㅁㅜㄹㄹㅣㅎㅏㄱ	-4400
▁ㅇㅓㅁㅊㅓㅇㄴㅏ	-4401
▁ㅅㅑㄹ	-4402
▁ㅌㅗㅇㅅㅏㄴ	-4403
▁ㅅㅑㅇ	-4404
▁ㅎㅢㄴ	-4405
▁ㅅㅡㅌㅔ	-4406
▁ㅅㅏㄴㅑㅇ	-4407
▁ㅇㅏㄱㄱㅣ	-4408
▁ㅎㅘㅇㅣ	-4409
▁ㅈㅜㅇㄱㅣ	-4410
▁ㅂㅡㄹㅗ	-4411
▁ㅂㅜㄴㅇㅟ	-4412
▁ㅈㅓㄴㅇㅝㄴ	-4413
▁ㅅㅏㅇㅜ	-4414
▁ㅈㅓㅁㅈㅓㅁ	-4415
▁ㄱㅡㄴㅂㅗㄴ	-4416
▁ㅂㅜㄴㄱㅣ	-4417
▁ㅂㅜㄴㅎㅐ	-4418
▁ㅇㅢㅈㅣ	-4419
▁ㅅㅔㄹㅡㅂ	-4420
▁ㅇㅗㅍㅔㄹㅏ	-4421
▁ㅎㅘㄱㅅㅏㄴ	-4422
▁ㄷㅐㄱㅐ	-4423
▁ㅇㅣㄹㅂㅗㄴㅇㅣㄴ	-4424
▁600	-4425
▁ㄴㅏㄷㅡㄹ	-4426
▁120	-4427
▁ㅅㅗㄴㅈㅏ	-4428
▁ㄷㅐㅂㅓㅂ	-4429
▁ㅊㅜㄹㅂㅓㅁ	-4430
▁ㄴㅏㄷㅡㄹㅁㅗㄱ	-4431
ice	-4432
▁ㄱㅏㄹㅅㅐㄱ	-4433
▁ㄷㅡㄹㅣ	-4434
▁ㅇㅣㅊㅣ	-4435
▁ㅅㅏㅎㅕㅇ	-4436
est	-4437
▁ㄱㅏㅁㅅㅏ	-4438
ㅇㅜㄱ	-4439
▁IS	-4440
▁ㅅㅣㅈㅗ	-4441
▁ㅎㅚㄷㅏㅁ	-4442
▁ㅇㅕㄹㅗㄴ	-4443
▁ㄷㅡㅇㅈㅣ	-4444
▁ㅇㅕㅇㅇㅜㅇ	-4445
▁ㄹㅜㅅㅡ	-4446
▁ㅇㅡㄴㅣ	-4447
▁ㅍㅏㄴㅅㅏ	-4448
▁ㅊㅜㅇㄱㅕㄱ	-4449
▁ㅇㅘㄴㄱㅗㅇ	-4450
▁ㅈㅗㅅ	-4451
▁ㅅㅣㅋㅏㄱㅗ	-4452
▁ㅎㅏㄴㅈㅏ	-4453
▁ㄱㅣㄷㅜㅇ	-4454
ㅂㅣㅊ	-4455
ㅈㅏㅁ	-4456
ㅈㅣㅋㅓㄹ	-4457
▁ㄱㅐㅇㅣㅂ	-4458
▁ㅁㅕㅇㅎㅘㄱ	-4459
▁ㄷㅡㄹㅓㄴㅐ	-4460
▁ㅎㅗㅈㅜ	-4461
▁ㅁㅏㅇㅣㄴ	-4462
▁ㄹㅣㄱㅏ	-4463
ia	-4464
▁ㄱㅛㅎㅑㅇ	-4465
▁ㅂㅔㄱㅌㅓ	-4466
▁ㄷㅏㄴㄷㅗㄱ	-4467
▁ㄷㅐㄱㅗㅇ	-4468
▁ㅁㅜㄱㅔ	-4469
▁ㅂㅏㅊㅣ	-4470
▁ㅅㅡㅍㅡㄹ	-4471
▁ㅇㅣㄴㅈㅓㅂ	-4472
▁ㅍㅗㅇㅣㄴㅌㅡ	-4473
▁ㅇㅏㄱㅎㅘ	-4474
▁ㅇㅣㄴㅣㅇ	-4475
▁ㅂㅏㄹㄱㅜㄹ	-4476
▁ㄴㅣㅅ	-4477
▁ㅈㅓㄱㅈㅓㄹ	-4478
▁ㅂㅡㄹㅏㅇㅜㄴ	-4479
▁ㅍㅕㄴㅊㅏㄴ	-4480
ㄷㅏㄹㅡ	-4481
▁98	-4482
▁ㅈㅗㅂㅕㄹ	-4483
▁ㅇㅣㄴㅈㅡㅇ	-4484
▁ㄷㅡㄹㅇㅓㅅㅓ	-4485
▁1919	-4486
▁ㅅㅜㄴㄱㅏㄴ	-4487
ㅋㅔㅇㅣㅅㅕㄴ	-4488
▁ㄴㅏㄹㄱㅐ	-4489
▁ㅊㅓㅇㄱㅜ	-4490
ㅌㅡㄹㄹㅓ	-4491
▁ㅅㅏㅇㅇㅟ	-4492
▁ㅁㅜㄴㅁㅕㅇ	-4493
▁ㅈㅓㄴㅈㅜ	-4494
▁ㅎㅗㅇㅂㅗ	-4495
ㄹㅣㅇㅓ	-4496
▁ㅈㅗㅈㅗㅇ	-4497
ap	-4498
▁re	-4499
▁ㅇㅢㅅㅣㅁ	-4500
TV	-4501
ㅣㄹㄹㅓ	-4502
▁ㄱㅓㅈㅣ	-4503
▁ㅎㅏㅁㄹㅏㄱ	-4504
▁ㅌㅏㅁㅅㅏ	-4505
▁ㅁㅕㅇㄴㅏㄹㅏ	-4506
▁ㅈㅏㄱㅅㅏ	-4507
▁ㄹㅟ	-4508
▁ㅂㅜㅎㅏ	-4509
AR	-4510
▁ㄹㅓㅆ	-4511
▁ㄱㅣㄱㅣ	-4512
▁ㅅㅓㅇㅂㅜㄴ	-4513
▁ㄱㅡㄸㅐ	-4514
▁ㄷㅡㅇㅈㅏㅇㅇㅣㄴㅁㅜㄹ	-4515
▁ㅇㅕㄴㄱㅏㄴ	-4516
▁ㄱㅘㄱ	-4517
▁ㅍㅡㄹㅗㅇㅣ	-4518
▁ㄷㅏㅇㅊㅗ	-4519
▁ㅈㅏㄱㅡㄱ	-4520
▁ㅅㅓㅁㅕㅇ	-4521
ㅅㅔㅇㅜ	-4522
▁ㅈㅓㅂㅊㅗㄱ	-4523
▁ㄱㅐㅁㅏㄱ	-4524
ak	-4525
▁ㅋㅣㅇㅜ	-4526
▁ㅎㅏㄱㅅㅏㄹ	-4527
▁ㄱㅏㄱㅈㅣ	-4528
▁ㅇㅕㄴㄱㅜㅇㅝㄴ	-4529
▁1944	-4530
▁ㅊㅜㅊㅓㄴ	-4531
▁ㅈㅣㅇㅇㅕㄱ	-4532
ㅠㄴㅣ	-4533
ㅓㄹㄷㅡ	-4534
▁ㅁㅗㅇㅣㅁ	-4535
▁ㅂㅡㄹㄹㅜ	-4536
▁ㅇㅣㅁㄱㅣ	-4537
▁ㄴㅓㄼㅇㅣ	-4538
▁ㅈㅣㄴㅈㅓㅇ	-4539
▁ㄱㅜㅇㅝㄴ	-4540
▁ㅂㅣㅅㅏㅇ	-4541
▁ㄷㅗㄱㅇㅣㄹㄱㅜㄴ	-4542
▁ㅇㅣㅂㅂㅓㅂ	-4543
▁ㅅㅐㅇㄱㅕㄴㅏ	-4544
▁ㅅㅜㄴㅅㅜ	-4545
ㄷㅜㄱ	-4546
▁ㅋㅡㄹㅗㅇ	-4547
▁ㅅㅏㅈㅓㅇ	-4548
▁63	-4549
▁ㅎㅐㅇㄹㅕㄹ	-4550
▁ㅅㅡㅁㅏㅌㅡ	-4551
▁ㄱㅏㅅㅣ	-4552
▁ㅇㅗㄹㅎㅐ	-4553
▁ㅌㅐㄷㅗ	-4554
▁95	-4555
▁DNA	-4556
▁ㅁㅔㄹㅣ	-4557
▁ㄱㅗㄹㄷㅡㄴ	-4558
▁ㄹㅣㅇㅋㅡ	-4559
▁ㄱㅗㅅㅗㄱㄷㅗㄹㅗ	-4560
ㅏㄹㅏㅎ	-4561
▁1941	-4562
▁ㅍㅗㅎㅏㅇ	-4563
▁ㅅㅏㅅㅣㄹㅅㅏㅇ	-4564
▁ㅂㅕㄴㅅㅜ	-4565
▁ㅍㅡㄹㅣㅁㅣㅇㅓ	-4566
ㅋㅗㅁ	-4567
▁ㄷㅏㅇㅜㄴ	-4568
▁ㅂㅔㄹㅡㄴ	-4569
▁ㅁㅔㅁㅗㄹㅣ	-4570
ㅅㅏㅇㅣ	-4571
▁ㅅㅣㄹㅎㅕㄴ	-4572
▁74	-4573
ㅍㅗㅁ	-4574
▁ㅇㅓㄴㅈㅔ	-4575
▁59	-4576
ㅔㄹㅣㅋㅏㄴ	-4577
▁ㅇㅞㅅㅡㅌㅡ	-4578
▁ㄷㅡㅇㅍㅏㄴ	-4579
▁ㅇㅖㅈㅓㄴ	-4580
ㅎㅏㄱㅅㅐㅇ	-4581
ㄴㅚ	-4582
▁ㅈㅏㅈㅓㄴ	-4583
▁ㅇㅕㅇㅑ	-4584
▁ㄱㅕㅇㅈㅓㄴ	-4585
▁ㄲㅗㅂ	-4586
▁ㅎㅏㄴㄱㅜㄱㅇㅣㄴ	-4587
▁ㄱㅗㅇㅎㅓㄴ	-4588
ct	-4589
▁ㄱㅠㄴㅎㅕㅇ	-4590
▁ㅎㅗㄴㅎㅏㅂ	-4591
▁ㄱㅣㅇㅗㄴ	-4592
▁ㄲㅓㄲ	-4593
▁ㅎㅘㄱㄹㅠㄹ	-4594
ㅏㅇㅣㅇㅓㄴ	-4595
▁ㅂㅗㄱㅗㅅㅓ	-4596
▁ㅇㅣㅅㅣ	-4597
▁ㅂㅐㄱㅅㅓㅇ	-4598
▁Lo	-4599
ㅋㅓㅁ	-4600
▁ㅇㅣㅇㅜ	-4601
▁ㅂㅣㅈㅜㅇ	-4602
▁ㄱㅗㅇㄹㅗ	-4603
▁ㅍㅡㄹㅣㄴ	-4604
▁ㅇㅗㄹㅐㅅ	-4605
▁ㄷㅡㄹㅏㅇㅣ	-4606
▁178	-4607
ㅁㅜㅂㅜ	-4608
▁ㅂㅏㅇㅟ	-4609
▁ㅇㅘㅇㅣ	-4610
▁ㅅㅜㅅㅓㄱ	-4611
ㅞㄹ	-4612
▁ㅂㅏㅇㅇㅟ	-4613
▁ㅁㅐㅈㅏㅇ	-4614
▁ㄷㅐㅇㅝㄴ	-4615
▁ㄱㅐㅅㅣㄴㄱㅛ	-4616
ㅎㅡㅂ	-4617
ul	-4618
▁ㄷㅐㅅㅓㄴ	-4619
▁ㅊㅜㄹㄹㅕㄱ	-4620
▁ㅊㅣㅁㄹㅑㄱ	-4621
ㅈㅜㄱㅜㄴ	-4622
▁ㅅㅜㄹㅣ	-4623
▁ㅂㅜㄴㅇㅟㄱㅣ	-4624
▁ㅈㅜㄹㅇㅓㄷㅡㄹ	-4625
▁ㄱㅣㄹㅣ	-4626
▁ㅌㅗㄱ	-4627
▁ㅇㅑㅇㅉㅗㄱ	-4628
▁IC	-4629
▁ㄱㅡㅂㅈㅔ	-4630
▁ㅎㅜㅅㄴㅏㄹ	-4631
▁ㅎㅡㄹㅡㅁ	-4632
▁ㅈㅓㅁㅅㅜ	-4633
▁ㅇㅗㄹㅐㅅㄷㅗㅇㅇㅏㄴ	-4634
ㅗㅅㅣㄴ	-4635
▁ㄷㅏㄴㅍㅕㄴ	-4636
▁ㅇㅘㅇㅅㅣㄹ	-4637
▁72	-4638
▁ㅇㅑㄴ	-4639
▁ㅇㅣㄹㅏㅋㅡ	-4640
▁ㅈㅐㄱㅓㄴ	-4641
▁ㅇㅕㅇㅈㅣ	-4642
▁ㄷㅐㄹㅑㅇ	-4643
▁ㅈㅐㅂㅐ	-4644
▁ㅈㅣㅎㅕㅇ	-4645
▁ㅌㅡㄱㅂㅕㄹㅅㅣ	-4646
ㅇㅙ	-4647
▁ㅊㅜㅅㅏㄴ	-4648
▁ㅋㅓㅁㅠㄴㅣ	-4649
▁ㅌㅔㄱㅅㅏㅅㅡ	-4650
▁82	-4651
▁160	-4652
▁ㄱㅏㅁㅅㅣ	-4653
▁1947	-4654
▁SS	-4655
▁ㅅㅡㅇㅂㅜ	-4656
▁1958	-4657
▁76	-4658
▁ㅍㅗㅌㅡ	-4659
ㄴㅏㅂ	-4660
ㅓㅁㅍㅡ	-4661
▁ㅇㅝㄴㅎㅕㅇ	-4662
▁ㄱㅡㄹㅐㅍㅣㄱ	-4663
▁ㅅㅣㄴㅂㅜ	-4664
▁ㅋㅗㄴㅅㅡㅌㅏㄴㅌㅣㄴ	-4665
▁ㅈㅜㄹㄱㅣ	-4666
▁ㅇㅏㅅㅡ	-4667
▁ㄷㅜㄱ	-4668
▁ㅂㅏㄹㅂㅏㄹ	-4669
▁ㅇㅔㄷㅡㅇㅝㄷㅡ	-4670
▁ㄴㅔㅇㅣ	-4671
▁ㄱㅝㄴㅇㅟ	-4672
ㅂㅏㄹㅡ	-4673
▁ㅂㅗㄱㅇㅝㄴ	-4674
ㅈㅗㄹ	-4675
▁ㅁㅠㅈㅣㅋㅓㄹ	-4676
▁to	-4677
▁ㅎㅘㄱㄹㅣㅂ	-4678
▁1956	-4679
▁ㅇㅕㅇㅘㅇ	-4680
ㅋㅟ	-4681
▁ㅊㅔㄴ	-4682
ㄹㅏㄴㅗ	-4683
▁ㄷㅗㅇㅁㅕㅇ	-4684
▁ㅇㅏㅇㅣㄷㅗㄹ	-4685
▁ㅅㅣㅅㅏㅇ	-4686
▁ㅁㅜㅅㅣ	-4687
▁ㄹㅣㅊㅓㄷㅡ	-4688
▁ㅍㅡㄹㅏㅇㅋㅡ	-4689
ie	-4690
ㅍㅓㄹ	-4691
▁ㅈㅓㄴㅕㄱ	-4692
▁ㅇㅔㅅㅓㅂㅜㅌㅓ	-4693
▁ㅂㅏㄷㅏㄱ	-4694
▁ㄱㅕㅇㄴㅏㅁ	-4695
▁ㅅㅡㅇㄱㅐㄱ	-4696
▁ㅋㅏㄹㅏ	-4697
▁ㅅㅓㄱㅇㅠ	-4698
▁ㅇㅣㄹㅅㅏㅇ	-4699
▁ㅌㅜㄹ	-4700
▁ㅁㅜㅅㅏ	-4701
▁ㄷㅜㄹㄹㅓㅆㅏ	-4702
▁ㅈㅔㅅㅏ	-4703
▁ㅌㅏㅇㅣㅂ	-4704
▁AFC	-4705
ㅋㅗㅅㅡ	-4706
▁77	-4707
▁ㄱㅣㅇㅜㄹ	-4708
ㅜㄴㅣ	-4709
▁ㄱㅡㄹㅓㅁ	-4710
ㅎㅔㄹ	-4711
▁ㅇㅣㅂㄹㅕㄱ	-4712
▁ㅊㅣㅁㅇㅣㅂ	-4713
▁;/	-4714
▁ㅇㅏㅅㅏ	-4715
▁ㅂㅗㅁㅜㄹ	-4716
▁ㅌㅏㅈㅏ	-4717
▁ㅂㅗㄱㅇㅡㅁ	-4718
▁ㅇㅏㄵ	-4719
▁ㅈㅏㄱㅇㅟ	-4720
▁ㅅㅣㅁㅅㅏ	-4721
▁ㅈㅏㅇㅅㅜ	-4722
▁ㅍㅗㅋㅔㅅ	-4723
ㅇㅡㄴㅎㅐㅇ	-4724
▁ㄱㅛㄱㅜ	-4725
ㅊㅣㅇㅏ	-4726
▁ㅅㅜㅇㅣㄱ	-4727
▁ㄱㅘㅎㅏㄱㅈㅏ	-4728
▁1939	-4729
▁ㅇㅓㅂㅈㅓㄱ	-4730
▁ㅌㅏㅇㅝ	-4731
▁ㅁㅓㅅ	-4732
▁ㅎㅐㄴ	-4733
▁ㄱㅐㅅㅓㄹ	-4734
▁ㄴㅗㄹㄹㅏ	-4735
▁ㄱㅏㅅㅓㄹ	-4736
▁ㅂㅏㄲㅏㅌ	-4737
ㅕㄱㅏ	-4738
▁ㅂㅣㅊㅣ	-4739
▁ㅂㅗㄱㅅㅜ	-4740
▁ㅇㅏㄴㄷㅗㅇ	-4741
▁ㅅㅣㅅㅏ	-4742
▁ㅊㅏㅇㅈㅏㄱ	-4743
▁Th	-4744
ㅅㅔㅁ	-4745
▁ㅇㅝㄴㅅㅜ	-4746
ㅅㅜㅇㅇㅣ	-4747
▁ㅎㅏㄴㄱㅡㄹ	-4748
▁ㄱㅏㄱㅗㅇ	-4749
▁67	-4750
▁ㅇㅕㄴㅇㅖ	-4751
▁ㄱㅣㅅ	-4752
▁ㅇㅏㅁㅎㅗ	-4753
▁ㅎㅕㄱㅅㅣㄴ	-4754
▁ㅌㅔㅅㅡㅌㅡ	-4755
▁ㅁㅣㄴㅈㅜㅇ	-4756
ud	-4757
▁ㄷㅏㅇㄱㅜㄱ	-4758
▁ㄴㅏㅍㅗㄹㄹㅔ	-4759
▁ㅂㅗㄴㅈㅣㄹ	-4760
ㄹㅗㄷㅡ	-4761
▁ㄱㅖㅊㅡㅇ	-4762
▁ㅍㅏㄹㄹㅣ	-4763
▁ㄱㅕㅂ	-4764
▁ㅇㅔㄱ	-4765
▁ㄴㅏㅍㅗㄹㄹㅔㅇㅗㅇ	-4766
og	-4767
▁ㅁㅓㄹㄹㅣ	-4768
▁ㅍㅗㄱㅌㅏㄴ	-4769
▁ㄱㅡㄹㅣㅅㅡㄷㅗ	-4770
▁ㅈㅏㅅㅣㄱ	-4771
ㅏㅂㅣㅇㅏ	-4772
▁ㅅㅗㄷㅡㄱ	-4773
▁ㅇㅔㄱㅅㅡ	-4774
▁ㅌㅏㅇㅣㄴ	-4775
▁ㄱㅡㄹㅓㅎㄱㅔ	-4776
▁ㅂㅏㅇㅅㅏ	-4777
IA	-4778
▁ㅈㅏㅁㅅㅜ	-4779
▁ㄲㅣㅊㅣ	-4780
ㅇㅙㄹㅏㄴ	-4781
▁ㅇㅣㅁㅈㅣㄴㅇㅙㄹㅏㄴ	-4782
ㅛㅅㅣ	-4783
▁ㅅㅣㅁㅈㅣ	-4784
▁ㅇㅣㄹㅅㅣ	-4785
▁ㅅㅣㄹㄹㅕㄱ	-4786
▁ㄷㅗㅇㅇㅑㅇ	-4787
▁85	-4788
▁ㅂㅕ	-4789
▁ㅂㅕㅇㅎㅏㅂ	-4790
▁ㅊㅜㄱㄱㅜㄷㅏㄴ	-4791
▁ㅍㅕㅇㄹㅗㄴ	-4792
ist	-4793
▁ㄴㅐㄹㅕㄱ	-4794
ㄷㅐㅂㅜ	-4795
▁ㅆㅏㄹ	-4796
▁ㄷㅐㅇㅘㅇ	-4797
▁ㄱㅗㅇㅈㅜㅇ	-4798
▁ㅂㅏㄹㅇㅡㅁ	-4799
▁ㅂㅣㄹㅂㅗㄷㅡ	-4800
▁ㅅㅏㅈㅔ	-4801
▁ㅎㅣㄴ	-4802
▁ㅈㅜㅊㅚ	-4803
▁ㄱㅓㄷㅡㅂ	-4804
ly	-4805
▁ㄴㅕ	-4806
▁ㅎㅜㄱㅖ	-4807
th	-4808
▁ㅎㅜㅅㅗㄱ	-4809
ㅇㅏㄴㅏ	-4810
▁ㅇㅏㅇㅜ	-4811
▁ㅇㅣㄴㅅㅙ	-4812
▁ㅂㅏㅇㅣㅇㅔㄹ	-4813
▁ㅍㅖㅅㅙ	-4814
▁ㄷㅡㅅㅇㅣ	-4815
▁ㅂㅜㅅ	-4816
▁ㅎㅜㄴㅈㅏㅇ	-4817
▁ㅇㅜㅁㅈㅣㄱㅇㅣㅁ	-4818
▁ㅈㅣㄴㄷㅏㄴ	-4819
ㅊㅕ	-4820
ㅁㅣㄴㅈㅜ	-4821
▁ㅅㅣㄴㄱㅗ	-4822
▁ㄱㅗㅌㅗㅇ	-4823
▁ㅇㅓㄴㄷㅓㄱ	-4824
▁ㅈㅏㅇㅣㅇㅓㄴ	-4825
▁ㄱㅏㄹㅑㅇ	-4826
▁ㄴㅐㅅㅕㄴㅓㄹ	-4827
▁1954	-4828
ㅣㅅㅡㅌㅏㄴ	-4829
▁ㅂㅗㅅㅏㅇ	-4830
▁ㄱㅏㄷㅏㅁ	-4831
▁ㄴㅗㅊㅜㄹ	-4832
▁ㄱㅜㄱㄱㅣ	-4833
ㅊㅔㅅㅡㅌㅓ	-4834
▁ㅍㅏㅇㅝ	-4835
▁ㄱㅜㄱㅡㄹ	-4836
ㅏㅌㅣㅇㅏ	-4837
ㅋㅏㅇㅣㄷㅗ	-4838
▁ㄷㅗㅇㅂㅏㅇ	-4839
ㄷㅏㄹㄹㅣ	-4840
▁ㅊㅗㅇㅎㅚ	-4841
▁ㅊㅓㄴㅈㅜㄱㅛ	-4842
ight	-4843
▁ㅌㅏㅇㅜㄴ	-4844
▁ㄷㅐㅈㅣ	-4845
▁ㄱㅜㄱㅈㅓㅇ	-4846
▁ㅍㅕㅇㅇㅏㄴ	-4847
BA	-4848
▁ㄷㅗㅇㅛ	-4849
▁96	-4850
▁ㄱㅡㄹㅔ	-4851
▁ㅅㅐㅇㅁㅜㄹㅎㅏㄱ	-4852
▁ㅂㅜㅅㅏ	-4853
▁73	-4854
▁ㅁㅐㅊㅔ	-4855
▁ㄱㅡㄹㅣㄴ	-4856
▁Al	-4857
▁1952	-4858
▁ㄱㅣㅅㅗ	-4859
▁ㅂㅏㄱㅈㅓㅇㅎㅢ	-4860
▁ㅇㅏㄹㅍㅏ	-4861
ㅓㅅㅡㅌㅡ	-4862
▁ㅇㅣㄴㅇㅛㅇ	-4863
▁ㅈㅓㄴㅅㅣㄴ	-4864
▁ㄲㅔ	-4865
▁ㅊㅏㅁㅁㅗ	-4866
▁DV	-4867
ㅇㅣㄹㅂㅗ	-4868
ㅈㅗㅎㅏㅂ	-4869
▁ㅎㅐㅇㅂㅗㄱ	-4870
▁ㅊㅐㅇㅜ	-4871
▁ㅇㅏㅌㅔㄴㅔ	-4872
▁ㄹㅔㅇㅏㄹ	-4873
▁ㅅㅏㅇㄱㅘㄴ	-4874
▁ㄷㅗㄷㅓㄱ	-4875
▁ㅅㅔㄹㅣ	-4876
▁ㅁㅜㅎㅏㄴ	-4877
▁ㄱㅛㄹㅣ	-4878
ㅜㄴㅏ	-4879
▁ㅇㅓㄲㅐ	-4880
▁ㄹㅗㅂㅗㅅ	-4881
ㅈㅣㅅ	-4882
▁ㅇㅣㅎㅗㄴ	-4883
▁ㅌㅏㄹㅌㅚ	-4884
▁ㅇㅕㄱㅎㅏㄱ	-4885
ㄲㅣㅁ	-4886
▁ㄷㅏㅅㅗ	-4887
▁ㅁㅟㄴ	-4888
▁ㅅㅣㄴㅈㅏ	-4889
▁ㅇㅖㅂㅏㅇ	-4890
▁ㅈㅏㄱㄷㅗㅇ	-4891
▁ㅍㅔㄹㅡㅅㅣㅇㅏ	-4892
▁81	-4893
▁ㅅㅏㄴㅎㅘ	-4894
▁ㄱㅡㅁㅏㄴ	-4895
▁ㅈㅗㅈㅗ	-4896
▁ㅅㅜㄷㅗㅇㅝㄴ	-4897
▁ㄷㅡㄹㅇㅣ	-4898
ㅑㄹ	-4899
▁ㅂㅣㄹㅖ	-4900
▁ㅈㅣㄴㅏㄱㅏ	-4901
▁*	-4902
▁ㅅㅣㅁㅈㅏㅇ	-4903
▁ㄱㅣㅅㅏㅇ	-4904
▁78	-4905
▁ㅇㅣㄴㅅㅐㅇ	-4906
▁ㅌㅏㅇㅣㄱ	-4907
▁ㅊㅚㅎㅜ	-4908
▁ㅂㅗㅅㅏㄹ	-4909
▁ㅂㅜㄷㅏㅁ	-4910
ㅔㄴㅣㅇㅏ	-4911
▁ㅈㅜㅇㄹㅕㄱ	-4912
▁ㅎㅘㄴㅅㅡㅇ	-4913
ㅎㅏㅇㅕ	-4914
▁ㅂㅣㅅㅓ	-4915
▁ㅍㅡㄹㅏ	-4916
▁ㅈㅓㄹㅂㅏㄴ	-4917
▁ㅂㅏㅇㅣㅇㅔㄹㅡㄴ	-4918
▁ㅎㅘㅎㅏㅂ	-4919
▁ㅅㅡㅌㅏㄷㅣㅇ	-4920
ㅏㅁㅗㅌㅗ	-4921
AS	-4922
ㅇㅏㅎㅏ	-4923
ㅜㄱㅅㅡ	-4924
▁ㄸㅏㄹㅗ	-4925
▁ㄱㅣㅁㅅㅓㅇ	-4926
ㄹㅗㅅㅡ	-4927
▁ㅈㅣㅎㅑㅇ	-4928
ㅋㅡㄹㄹㅣ	-4929
▁ㅈㅗㅎㅇㅏㅎㅏ	-4930
▁ㅈㅐㅎㅏㄱ	-4931
▁ㅋㅡㄹㅗㅇㅏㅌㅣㅇㅏ	-4932
▁ㅎㅘㅇㅣㅌㅡ	-4933
AT	-4934
ㅌㅔㄹㅡ	-4935
ㄷㅡㄹㅣㅎㅣ	-4936
▁ㅍㅣㅎㅐㅈㅏ	-4937
▁ㄱㅠㅈㅔ	-4938
▁ㅎㅏㅇㅝㄴ	-4939
▁ㅂㅜㄹㅁㅏㄴ	-4940
▁ㅎㅘㅈㅏㅇ	-4941
▁ㅁㅜㄹㅡ	-4942
▁ㅍㅗㄹㄹㅣ	-4943
▁ㅇㅗㄱㅏ	-4944
▁ㅈㅏㅇㄴㅏㅁ	-4945
▁ㅅㅗㄴㅅㅏㅇ	-4946
▁ㅅㅏㄹㄹㅣ	-4947
ㅍㅣㄹㄷㅓ	-4948
▁ㄱㅏㄲㅏㅇㅣ	-4949
▁ㅈㅣㄹㅎㅘㄴ	-4950
▁ㅁㅣㄷㅡㅍㅣㄹㄷㅓ	-4951
▁ㅈㅓㄴㅌㅜㄱㅣ	-4952
ㅈㅏㅊㅣ	-4953
▁ㅅㅣㅁㅍㅏㄴ	-4954
▁ㄱㅐㅂㅏㅇ	-4955
▁ㅈㅓㄴㄴㅏㅁ	-4956
▁ㅅㅡㅌㅐㄴ	-4957
▁ㅇㅠㅌㅗㅇ	-4958
▁ㅇㅠㅅㅏㄴ	-4959
▁ㅊㅓㄴㅇㅏㄴ	-4960
ess	-4961
ㅋㅓㄷ	-4962
▁ㅉㅣ	-4963
▁ㅂㅐㄴ	-4964
▁ㅅㅏㅈㅏ	-4965
▁ㅇㅐㄱㅅㅕㄴ	-4966
▁ㅇㅏㅇㅜㅅ	-4967
▁ㄸㅜ	-4968
ㅌㅓㅅㅡ	-4969
▁ㄷㅏㅋㅔ	-4970
▁ㅇㅕㅅㅓㅅ	-4971
▁ㅁㅏㅁㅜㄹㅣ	-4972
▁ㅅㅏㅁㅜㅅㅗ	-4973
▁ㅊㅓㅎㅏ	-4974
▁ㄱㅜㄱㄱㅜㄴ	-4975
▁ㅇㅑㄱㅁㅜㄹ	-4976
▁ㅊㅗㅇㅈㅏㅇ	-4977
▁ㅁㅔㅅㅣㅈㅣ	-4978
▁ㅈㅜㄹㅕㄱ	-4979
▁ㄴㅡㄴㄷㅏㄴㅡㄴ	-4980
▁91	-4981
▁ㅇㅣㄹㅋㅓㄷ	-4982
▁71	-4983
▁ㅁㅗㅌㅗ	-4984
▁ㄱㅏㅅㅡㅁ	-4985
▁ㄱㅡㅇㅈㅓㅇ	-4986
▁ㅇㅕㄴㅅㅡㅂ	-4987
▁1959	-4988
▁ㅍㅐㅅㅕㄴ	-4989
▁202	-4990
▁ㅂㅣㄹㄷㅣㅇ	-4991
▁ㅅㅏㅇㅇㅕㄱ	-4992
▁ㅅㅓㄴㅂㅏㄱ	-4993
▁ᆯㅈㅣ	-4994
▁ㄷㅗㅁㅏ	-4995
▁AT	-4996
▁ㅈㅓㄴㅈㅣㄱ	-4997
▁ㅋㅠ	-4998
▁Li	-4999
▁NH	-5000
▁ㅅㅏㅇㅅㅣㄹ	-5001
▁ㅂㅐㄱㅁㅏㄴ	-5002
▁ㅎㅗㄴㅇㅣㄴ	-5003
▁ㅇㅣㅁㅕㅇ	-5004
▁ㄱㅕㄹㅇㅢ	-5005
▁ㅂㅠ	-5006
ㅕㅂㅗ	-5007
ㅌㅣㄹ	-5008
▁ㅊㅓㅂㅜㄴ	-5009
▁ㅌㅗㅇㅎㅘ	-5010
▁ㄷㅗㅇㅅㅓ	-5011
▁ㅎㅘㅇㅎㅜ	-5012
▁ㅈㅣㅅㅏ	-5013
▁ㄷㅏㅇㄴㅏㄹㅏ	-5014
▁ㅅㅡㅌㅗ	-5015
ㅈㅣㄱㅈㅏ	-5016
▁ㅊㅓㅇㅈㅜ	-5017
▁ㅍㅡㄹㅗㅇㅣㅅㅔㄴ	-5018
▁ㄱㅡㄹㄹㅗㅂㅓㄹ	-5019
ㅡㄹㅣㅌㅡ	-5020
▁ㅇㅣㄴㅇㅝㄴ	-5021
▁177	-5022
▁ㄱㅘㄴㅇㅕ	-5023
▁ㅂㅜㄴㄴㅗ	-5024
▁ㄱㅏㅇㅛ	-5025
ㅈㅣㅅㅏ	-5026
▁ㄱㅏㅇㅘ	-5027
ㄱㅘㄹ	-5028
▁ㅅㅣㅁㅈㅣㅇㅓ	-5029
ㅋㅐ	-5030
ㄱㅏㄹㅏㄱ	-5031
▁ㅁㅏㄹㄹㅔㅇㅣㅅㅣㅇㅏ	-5032
▁ㅇㅟㅅ	-5033
IV	-5034
▁ㅇㅢㄷㅐ	-5035
▁ㄷㅐㅊㅐㄱ	-5036
▁ㅅㅗㅁㅕㄹ	-5037
▁ㅅㅓㄹㄷㅡㄱ	-5038
▁ㅇㅗㅈㅣㄱ	-5039
▁ㅁㅜㄴㅅㅣㄴ	-5040
ㄹㅣㅎㅣ	-5041
▁ㅎㅐㅂㅏㄹ	-5042
▁ㄷㅣㅅㅡㅋㅡ	-5043
▁ㅇㅏㅁㅔㄹㅣㅋㅏㄴ	-5044
▁ㅅㅡㅇㄹㅕ	-5045
▁ㅇㅛㄱㅡㅁ	-5046
▁ㅇㅟㄷㅐ	-5047
▁1942	-5048
▁ㅊㅏㅇㄷㅏㅇ	-5049
▁ㅎㅗㅅㅋㅏㅇㅣㄷㅗ	-5050
▁ㅇㅟㅋㅣ	-5051
ㅔㄴㅏ	-5052
▁ㅍㅗㅅㅡㅌㅡ	-5053
▁ㄴㅓㅁㅇㅓㄱㅏ	-5054
▁ㅋㅜㄷㅔ	-5055
▁ㄱㅓㅁㅌㅗ	-5056
▁ㅅㅏㄴㅅㅗ	-5057
ㅁㅣㅌㅓ	-5058
▁ㅇㅓㄹㅕㅇ	-5059
▁ㅇㅘㅇㅂㅣ	-5060
▁ㅅㅔㅂㅜ	-5061
▁ㄱㅜㅁㅐ	-5062
▁ㅋㅙ	-5063
ub	-5064
▁ㄱㅐㅅㅓㅇ	-5065
▁;,	-5066
▁ㅈㅓㄱㅎㅏㅂ	-5067
▁ㅌㅣㄱ	-5068
▁ㄱㅣㅁㅇㅣㄹㅅㅓㅇ	-5069
ㅍㅜ	-5070
▁ㄱㅕㅇㅂㅜㄱ	-5071
▁ㄴㅐㄹㅕㅇㅗ	-5072
ㅋㅔㄹ	-5073
ㄹㅗㄴㅏ	-5074
ㄹㅣㅎㅏㄱ	-5075
▁87	-5076
▁ㅇㅓㄱㅈㅔ	-5077
▁ㅍㅔㅇㅣㅈㅣ	-5078
▁ㅈㅐㄱㅅㅡㄴ	-5079
▁ㅅㅓㄴㅇㅣㅁ	-5080
▁ㅁㅗㅂㅏㅇㅣㄹ	-5081
▁ㅈㅘㅅㅏㅇ	-5082
ㅊㅔㄹㅗ	-5083
▁AP	-5084
▁ㅎㅓㄹㅣ	-5085
▁ㅅㅏㄱㅕㄱ	-5086
▁1943	-5087
ㅅㅡㅌㅣㄴ	-5088
▁ㅇㅣㄹㄱㅣ	-5089
▁st	-5090
▁ㅇㅡㅁㅇㅏㄱㄱㅏ	-5091
ㅣㅂㅡㄴ	-5092
▁ㅂㅔㅇㅣㅅㅡ	-5093
▁ㅂㅜㄹㅇㅏㄴ	-5094
ㄷㅡㄹㅗ	-5095
▁ㅇㅣㄹㅂㅗㄴㅇㅓ	-5096
▁ㅈㅗㅅㅏㅇ	-5097
▁1955	-5098
▁ㄹㅜㅁㅏㄴ	-5099
▁ㅅㅣㅇㄱㅏ	-5100
▁ㅋㅜㄷㅔㅌㅏ	-5101
▁ㅇㅏㅌㅡ	-5102
▁ㄱㅣㄷㅗㅇ	-5103
▁ㅍㅣㄹㄷㅡ	-5104
▁159	-5105
▁ㄴㅣㄱ	-5106
▁ㅍㅡㄹㅐㅇ	-5107
▁ㅈㅓㄴㄷㅏㅇ	-5108
▁ㄷㅡㄹㅐㅍㅡㅌㅡ	-5109
▁ㅈㅜㅅㅓㄱ	-5110
▁ㅈㅣㄴㅇㅕㅇ	-5111
▁ㅍㅡㄹㅣㄷㅡㄹㅣㅎㅣ	-5112
▁ㅇㅣㄹㅊㅔ	-5113
▁700	-5114
▁ㅇㅏㄹㄱㅗㄹㅣ	-5115
▁ㅇㅓㄹㅕㅇㅜㅁ	-5116
▁84	-5117
▁ㅁㅜㄹㅛ	-5118
ㅗㄹㄹㅗ	-5119
ㅅㅡㅌㅡㄹㅏ	-5120
▁ㄱㅣㅁㅈㅗㅇ	-5121
▁1953	-5122
ab	-5123
▁ㅇㅝㄴㄴㅕㄴ	-5124
ㄲㅏㄹ	-5125
▁ㅅㅔㄹㅡㅂㅣㅇㅏ	-5126
▁ㄴㅏㅃㅡ	-5127
▁ㅅㅡㅌㅏㄷㅣㅇㅜㅁ	-5128
▁ㅅㅏㅇㅅㅗㄱ	-5129
ㅌㅗㅅㅡ	-5130
▁ㄷㅔㅅㅡ	-5131
▁ㅂㅏㄹㅌㅏㄱ	-5132
▁ㅊㅐㅁㅍㅣㅇㅓㄴㅅㅣㅂ	-5133
▁ㅅㅣㅇㄱㅏㅍㅗㄹㅡ	-5134
▁ㄴㅣㅅㅣ	-5135
▁ㄴㅡㄱ	-5136
▁ㅂㅜㅅㅏㄴㄱㅘㅇㅇㅕㄱㅅㅣ	-5137
▁1936	-5138
▁ㄴㅔㄱ	-5139
▁ㅅㅏㄷㅗ	-5140
▁ㅂㅣㅈ	-5141
▁ㅂㅗㄴㅁㅕㅇ	-5142
▁ㅌㅔㅁㅏ	-5143
▁Re	-5144
▁ㅍㅗㄱㄱㅕㄱ	-5145
▁ㅌㅗㄹㅗㄴㅌㅗ	-5146
▁ㅇㅏㄹㄱㅗㄹㅣㅈㅡㅁ	-5147
▁ㄱㅗㄱㅣ	-5148
▁ㅈㅡㄱㅅㅣ	-5149
▁ㅎㅜㅋㅜㅇㅗㅋㅏ	-5150
▁ㄷㅗㅁㅗ	-5151
▁ㄱㅜㅇㅈㅓㄴ	-5152
▁ㅋㅗㄴㅌㅔㄴㅊㅡ	-5153
ㅇㅠㅅㅏㄴ	-5154
▁ㅎㅜㅋㅜ	-5155
▁1910	-5156
ㅗㅅㅏㄴ	-5157
▁ㅅㅏㅁㅜㅅㅣㄹ	-5158
ㅎㅣㄹㅗ	-5159
▁ㅍㅡㄹㅏㅇㅣ	-5160
ㄱㅛㅇ	-5161
▁\	-5162
▁ㅇㅘㅇㅎㅜ	-5163
▁ㅁㅔㅇㅣㅈㅣ	-5164
ㅋㅡㄹㅗ	-5165
▁ㅂㅏㄹㅁㅕㅇ	-5166
▁ㅇㅕㄴㅅㅓㄹ	-5167
▁ㄱㅣㅍㅇㅣ	-5168
▁ㅈㅓㄴㄷㅗㅇㅊㅏ	-5169
ine	-5170
▁ㅋㅜㅇ	-5171
▁ㄱㅏㄱㄱㅜㄱ	-5172
▁ㄷㅐㅊㅔㄹㅗ	-5173
▁ㅁㅏㄱㄷㅐ	-5174
▁ㅇㅛㅇㄷㅗ	-5175
▁ㄴㅗㅅㅡ	-5176
▁ㄷㅗㅇㅂㅜㄱ	-5177
▁97	-5178
▁ㅅㅏㅇㅑㅇ	-5179
▁ㅂㅜㄷㅗㅇ	-5180
▁ㅅㅣㄴㅈㅏㅇ	-5181
▁ㄷㅏㄱ	-5182
ㅅㅔㅇㅣ	-5183
▁1900	-5184
▁ㄱㅓㅁㅅㅐㄱ	-5185
▁ㄱㅜㅇㅣㅂ	-5186
▁ㅈㅓㅇㅊㅏ	-5187
▁ㅈㅓㄴㅂㅜㄱ	-5188
▁ㅅㅡㅌㅣㅂㅡㄴ	-5189
▁ㅇㅠㅎㅕㅇㅁㅜㄴㅎㅘㅈㅐ	-5190
ㄹㅣㅅ	-5191
▁ㅇㅡㅁㅅㅓㅇ	-5192
▁ㅇㅝㄴㅈㅜㅁㅣㄴ	-5193
▁ㅎㅣㅌㅡㄹㄹㅓ	-5194
▁ㅍㅓㄹ	-5195
▁ㄱㅏㅁㅏ	-5196
ㄷㅐㅇㅣㄴ	-5197
▁ㅈㅗㅊㅏ	-5198
▁ㅈㅣㄴㄱㅕㄱ	-5199
▁ㅂㅓㅈㅣㄴ	-5200
▁ㅊㅜㅂㅏㅇ	-5201
ㅅㅡㅌㅗㄴ	-5202
▁ㅈㅗㅋㅏ	-5203
▁ㅈㅓㅇㅅㅜ	-5204
▁ㄴㅏㅁㅇㅏㅍㅡㄹㅣㅋㅏ	-5205
▁ㄴㅡㄲㅣㅁ	-5206
▁ㄹㅐㄴㄷㅡ	-5207
ㅅㅣㅅㅡㅋㅗ	-5208
▁ㅈㅓㄴㅅㅜㄹ	-5209
ㄷㅏㅇㅣ	-5210
ㅂㅐㅇ	-5211
▁ㅌㅗㅇㅛ	-5212
▁ㅌㅡㄹㅗ	-5213
▁ㅇㅕㅇㅇㅑㅇ	-5214
▁1957	-5215
▁ㅎㅗㅅㅗ	-5216
▁ㅈㅏㄱㅜㄱ	-5217
ㅇㅝㄴㄱㅕㅇ	-5218
▁DVD	-5219
ew	-5220
▁ㄱㅐㅊㅣㅇ	-5221
▁ㅍㅗㅋㅔㅅㅁㅗㄴ	-5222
▁ㅊㅗㅈㅓㅁ	-5223
ㅌㅔㅁ	-5224
▁ㅅㅔㅌㅡ	-5225
▁ㄱㅏㅇㄹㅡㅇ	-5226
ㅈㅔㄱㅜㄱ	-5227
ㅏㄴㅅㅐㄱ	-5228
▁ㅂㅜㄹㄱㅏㄹ	-5229
ㅔㅇㅗ	-5230
ㅁㅜㄹㅏ	-5231
▁ㅅㅏㄱㅘ	-5232
▁ㅍㅣㄹㅅㅜ	-5233
▁ㄷㅜㄴ	-5234
▁ㅅㅜㅇㅓㅂ	-5235
▁ㅌㅣㄹ	-5236
▁ㄹㅣㅂㅓ	-5237
▁ㅈㅓㄴㅅㅗㅇ	-5238
▁ㄴㅡㄹㄹㅣ	-5239
▁ㅎㅏㅅ	-5240
▁ㅍㅏㄹㅡ	-5241
▁ㅎㅠㄷㅐ	-5242
▁ㅌㅐㅈㅗ	-5243
▁ㄱㅘㅇㅂㅓㅁ	-5244
▁ㅅㅡㅁㅣㅅㅡ	-5245
ㅂㅏㄹㅗ	-5246
▁ㅇㅣㄴㄷㅣㅇㅓㄴ	-5247
▁ㅌㅡㄹㅏ	-5248
ㅏㄷㅡ	-5249
▁ㅌㅔㅇㅣㄹ	-5250
ue	-5251
▁69	-5252
▁ㄱㅡㅂㄱㅕㄱ	-5253
▁1914	-5254
ㄷㅏㄱ	-5255
▁ㅅㅏㅁㅏㄱ	-5256
▁92	-5257
ㅣㅇㅏㄴ	-5258
▁ㅍㅗㅅㅡ	-5259
▁ㅊㅚㅇㅜ	-5260
▁ㅇㅘㄴㅂㅕㄱ	-5261
▁ㄱㅣㄷㅏㄹㅣ	-5262
▁ㅎㅡㄴㅎㅏ	-5263
ㄷㅏㄹㅏㅎ	-5264
▁ㄱㅗㄹㅡ	-5265
ㄷㅗㄱㅂㅜ	-5266
ㅋㅔㄴ	-5267
▁ㅇㅞㅇㅣㄹ	-5268
▁ㄱㅔㄷㅏㄱㅏ	-5269
▁ㄱㅐㄹㅑㅇ	-5270
▁ㄷㅏㅁㄱㅣ	-5271
▁ㅈㅏㅂㅎㅣ	-5272
▁ㅂㅏㄹㅡㅅㅔㄹ	-5273
▁ㅂㅏㄹㅡㅅㅔㄹㄹㅗㄴㅏ	-5274
▁ㄲㅡㅌㄴㅐ	-5275
EC	-5276
▁ㄸㅗㄱ	-5277
▁ㅍㅓㅇ	-5278
▁ㅅㅓㅅㅜㄹ	-5279
▁ㅈㅓㅈㅏ	-5280
▁ㄱㅕㄹㄹㅗㄴ	-5281
▁ㄷㅗㄱㅈㅐ	-5282
▁ㅊㅓㄴㅁㅏㄴ	-5283
▁WW	-5284
▁ㅈㅣㄹㅁㅜㄴ	-5285
ㅅㅔㅍㅗ	-5286
▁ㅅㅓㄴㅎㅕㅇ	-5287
ㅗㄴㅣ	-5288
▁ㅈㅜㅅㅗ	-5289
▁ㅇㅕㄴㄹㅏㄱ	-5290
▁ㄷㅏㄱㅌㅓ	-5291
▁ㅋㅗㄹㅡ	-5292
▁ㅈㅏㄴㅡㄴ	-5293
▁ㄱㅗㄱㅡㅂ	-5294
▁ㅈㅗㅈㅣㅇㅏ	-5295
▁ㅍㅣㅂㅜ	-5296
▁ㅃㅐ	-5297
▁ㅁㅣㅅㅜㄹㄱㅘㄴ	-5298
▁101	-5299
▁ㅈㅐㅈㅡ	-5300
▁ㅁㅏㄴㄷㅡㄴ	-5301
ㄹㅠㅁ	-5302
▁ㅅㅠㄹ	-5303
▁ㄹㅏㅌㅣㄴㅇㅓ	-5304
▁ㅎㅏㅇㅕㄱ	-5305
▁ㅎㅜㅇㅣㅁ	-5306
▁ㅅㅡㅍㅡㄹㅣㅇ	-5307
ㅜㅇㅏ	-5308
▁ㅉㅏㄱ	-5309
▁ㅁㅏㄹㅡㅋㅡㅅㅡ	-5310
ㅊㅗㅇㄹㅣ	-5311
▁ㅍㅣㅌㅓ	-5312
ㅗㅅㅔㅅㅓ	-5313
▁ㅅㅏㅇㅇㅣㄴ	-5314
▁1938	-5315
▁ㅅㅜㅁㄱㅣ	-5316
▁ㅂㅜㅇㅟ	-5317
▁ㅅㅏㅇㅜㅅㅡ	-5318
▁="	-5319
▁ㄹㅔㅅㅡ	-5320
▁ㅂㅐㅍㅗ	-5321
▁ㅇㅏㅍㅡㄱㅏㄴ	-5322
▁ㄹㅐㅂ	-5323
▁ㅅㅗㅂㅣㅈㅏ	-5324
▁ㅇㅟㅇ	-5325
ㅅㅜㅁ	-5326
▁ㅁㅜㄹㄱㅓㄴ	-5327
▁ㄹㅣㄷㅡ	-5328
▁ㅅㅗㄴㅅㅣㄹ	-5329
▁01	-5330
▁ㄷㅏㅅㅡㄹㅣ	-5331
▁ㅇㅜㄴㅎㅏㅇ	-5332
▁ㅂㅜㅊㅣㄴ	-5333
▁ㅇㅣㄴㅐ	-5334
▁ㅎㅘㄹㅕ	-5335
ㅏㅌㅏ	-5336
▁ㅎㅏㄱㅅㅏ	-5337
▁HD	-5338
▁ㅈㅜㅊㅔ	-5339
▁ㄷㅡㄹㅐㄱ	-5340
▁ㄹㅕㅁㅕㄴ	-5341
▁ㅅㅣㄹㅊㅓㄴ	-5342
ㅅㅏㄴㅎㅘ	-5343
ㄷㅔㅇㅣ	-5344
▁1918	-5345
ㅗㅌㅗ	-5346
ㅃㅏ	-5347
▁ㅅㅗㅎㅕㅇ	-5348
▁ㅅㅣㄴㅐㅂㅓㅅㅡ	-5349
▁ㅇㅏㅁㅣ	-5350
▁ㄱㅜㅅㅏㅇ	-5351
▁ㅇㅓㄴㅅㅡ	-5352
▁ㅎㅘㅅㅓㄱ	-5353
ㅈㅏㅋㅣ	-5354
▁ㅅㅏㅌㅚ	-5355
▁ㄴㅐㄴㅗㅎ	-5356
▁ㅅㅓㄱㅅㅏ	-5357
▁ㄱㅗㅇㅟ	-5358
▁ㅋㅗㄹㅣㅇㅏ	-5359
▁ㅇㅕㄴㅍㅕㅇ	-5360
▁ㅂㅐㄱㅇㅣㄴ	-5361
▁ㅇㅏㅁㅋㅓㅅ	-5362
ㄹㅔㅁ	-5363
▁ㅇㅢㅁㅜㄴ	-5364
▁ㄱㅏㅂㅈㅏㄱㅣ	-5365
ㅂㅣㅎㅣ	-5366
ㅁㅏㄴㅏ	-5367
▁ㅁㅔㄷㅏㄹ	-5368
▁ㅇㅣㄴㅕㅁ	-5369
▁ㄷㅜㅇㄱㅡㄹ	-5370
▁ㅅㅔㄱㅡㅁ	-5371
▁ㅂㅏㅇㅇㅓㄴ	-5372
▁ㅇㅣㄹㄹㅕㄴ	-5373
▁ㅈㅏㅂㅗㄴㅈㅜㅇㅢ	-5374
▁ㄱㅜㄱㅈㅓㄱ	-5375
▁ㅍㅜㅅ	-5376
▁ㅇㅠㅎㅛ	-5377
▁ㄱㅐㅂㅕㄹ	-5378
▁ㄷㅐㅁㅏㄴ	-5379
▁ㅇㅓㅇㅛ	-5380
▁ㅇㅖㅂㅣ	-5381
▁ㅈㅓㅇㄱㅛㅎㅚ	-5382
▁ㄹㅜㄱ	-5383
▁ㄹㅓㅆㄷㅏ	-5384
BM	-5385
▁ㅈㅣㅂㅎㅚ	-5386
▁ㄱㅏㅁㄱㅏㄱ	-5387
ㅁㅣㄴㅈㅜㄷㅏㅇ	-5388
▁ㅂㅜㅈㅣ	-5389
▁ㅁㅏㅅㅡㅌㅓ	-5390
▁ㅇㅗㄹㅅㅡㅌㅏ	-5391
ㄱㅘㄱ	-5392
ㅣㅌㅡ	-5393
▁ㄴㅣㅇ	-5394
▁ㅇㅑㅇㄱㅜㄱ	-5395
ㅓㄷ	-5396
▁ㅊㅏㄷㅏㄴ	-5397
▁ㄱㅗㄱㅐㄱ	-5398
▁ㅁㅐㅊㅣ	-5399
▁1951	-5400
▁ㄱㅗㅁ	-5401
▁ㅁㅣㅆㅡ	-5402
▁ㅅㅣㄴㄷㅗ	-5403
ㄷㅏㄴㅣ	-5404
▁ㅇㅓㄷㅜ	-5405
▁ㄱㅖㄱㅗㄱ	-5406
▁ㅅㅣㄴㅅㅏ	-5407
▁ㅅㅣㅁㅏ	-5408
▁ㅎㅘㅈㅔ	-5409
▁ㅂㅜㄴㅎㅘ	-5410
ㅊㅗㅇㄷㅗㄱㅂㅜ	-5411
▁ㅈㅗㅅㅓㄴㅊㅗㅇㄷㅗㄱㅂㅜ	-5412
▁ㅇㅜㅅ	-5413
▁ㅎㅘㅍㅖ	-5414
▁ㅁㅏㅌㅣㄴ	-5415
▁ㅅㅓㄴㅍㅗ	-5416
ㅍㅣㄹㄷㅡ	-5417
ㅐㄴㅏ	-5418
▁ㅅㅣㄹㅇㅓㅂ	-5419
▁ㄱㅕㅇㅈㅔㅎㅏㄱ	-5420
▁on	-5421
▁ㄱㅓㅈㅣㅅ	-5422
▁ㅌㅏㄴㅇㅏㅂ	-5423
▁ㄷㅚㄷㅗㄹ	-5424
▁89	-5425
ㅜㄴㅌㅡ	-5426
▁1937	-5427
▁1932	-5428
▁ㅎㅓㅅ	-5429
▁ㅌㅣㄴ	-5430
▁ㄷㅗㅇㅎㅐ	-5431
ㅈㅜㄱㅜㄱ	-5432
▁ㄹㅔㅇㅗㄴ	-5433
▁ㅁㅟㄴㅎㅔㄴ	-5434
▁ㅍㅡㄹㅏㅇㅅㅡㄱㅜㄴ	-5435
ㅌㅗㅂ	-5436
▁ㄷㅡㄹㅓㅁ	-5437
ㄹㅠㄴ	-5438
ㅣㅇㅗㅅㅡ	-5439
▁ㅇㅜㅋㅡㄹㅏ	-5440
▁ㅇㅛㅇㅇㅣㄴ	-5441
▁ㄱㅕㄱㅍㅏ	-5442
▁ㄱㅣㅁㄷㅐ	-5443
ㅕㅂㅏㄷ	-5444
▁ㄷㅏㅇㅇㅝㄴ	-5445
▁ㅈㅐㄱㅐ	-5446
▁ㄸㅓㅇ	-5447
▁ㅎㅏㅇㄱㅗㅇㅅㅏ	-5448
▁ㄷㅐㅇㅜ	-5449
▁ㅇㅣㅇㅜㅅ	-5450
▁ㅎㅜㄱㅖㅈㅏ	-5451
▁93	-5452
▁182	-5453
▁ㅊㅣㅇㅎㅗ	-5454
▁ㅈㅣㄴㅎㅏㄱ	-5455
ㅡㄹㄹㅏ	-5456
▁ㅅㅏㄱㅣ	-5457
▁ㅋㅡㄹㅣ	-5458
▁ㅊㅔㅎㅓㅁ	-5459
▁ㅊㅏㄴㅅㅓㅇ	-5460
▁ㅎㅚㄹㅗ	-5461
▁ㄷㅏㅇㅣㅁ	-5462
▁ㅅㅣㅇㅇㅓ	-5463
ㅌㅣㅅㅡ	-5464
▁ㅊㅜㄱㅣㄱㅕㅇ	-5465
▁ㄱㅗㅇㅑㅇㅇㅣ	-5466
▁ㄱㅓㅌ	-5467
▁ㄹㅗㄹㅔㄴ	-5468
▁ㅁㅕㄴㅇㅕㄱ	-5469
▁ㄱㅗㅅㅣ	-5470
▁ㅍㅏㅇㅣㄴ	-5471
▁ㅂㅣㅎㅐㅇㄱㅣ	-5472
▁1935	-5473
ect	-5474
ㅣㅇㅜㅅㅡ	-5475
▁ㅁㅏㄹㄹㅣ	-5476
▁ㅂㅓㄴㅈㅣ	-5477
ㅜㄹㅡㅌㅡ	-5478
▁ㅈㅣㄹㅅㅓ	-5479
▁ㄱㅗㄱㅅㅓㄴ	-5480
▁ㅎㅢㄴㅅㅐㄱ	-5481
ㅐㅁㅐ	-5482
▁ㄱㅘㅇㅂㅓㅁㅇㅟ	-5483
▁ㅅㅕ	-5484
▁ㅇㅣㅎㅐㅇ	-5485
▁ㅋㅓㅂㅓ	-5486
▁ㅇㅠㅌ	-5487
▁ㅇㅏㅇㅣㅅㅡ	-5488
▁ㅎㅏㅇㅇㅢ	-5489
ㅌㅗㄹㅣㅇㅏ	-5490
▁ㅈㅏㅅㅏㄴ	-5491
▁ㅅㅏㅊㅏㄹ	-5492
▁ㄱㅗㅇㅅㅣㄴ	-5493
▁ㅂㅏㄹㄱㅏㄴ	-5494
▁ㅍㅗㄹㅡ	-5495
▁Be	-5496
▁ㅇㅣㅈㅏ	-5497
▁ㅅㅔㅇㅝㄹ	-5498
▁ㅇㅏㅌㅣㅅㅡㅌㅡ	-5499
▁ㅊㅗㄱㅈㅣㄴ	-5500
ㅅㅠㅌㅏㅇㅣㄴ	-5501
▁ㅇㅕㅇㅇㅝㄴ	-5502
▁ㅅㅓㄹㅊㅣㄹㅠ	-5503
▁ㅋㅡㄹㄹㅐㅅㅣㄱ	-5504
▁ㅌㅡㄹㅔㅇㅣㄷㅡ	-5505
ㅅㅏㅈㅓㄴ	-5506
▁ㄲㅜㅈㅜㄴ	-5507
▁ㄱㅜㅁㅓㅇ	-5508
▁ㅌㅏㅇㅠㄹ	-5509
▁ㅈㅡㅇㅇㅓㄴ	-5510
ㅌㅜㅅㅡ	-5511
ㄱㅗㄴ	-5512
▁ㅅㅜㅊㅣ	-5513
▁ㄹㅜㅁㅏㄴㅣㅇㅏ	-5514
▁ㅇㅠㅂㅐ	-5515
▁ㄱㅐㅊㅓㄱ	-5516
▁ㄱㅡㄱㄷㅏㄴ	-5517
ㅌㅡㅁ	-5518
▁ㄹㅛ	-5519
▁ㄱㅏㅅㅗㄱ	-5520
ㄷㅗㅇㅅㅐㅇ	-5521
▁ㄷㅔㄹㅣ	-5522
▁ㅇㅣㅇㅘ	-5523
▁ㅇㅜㄴㅅㅗㅇ	-5524
▁ㅇㅡ	-5525
ㅌㅜㅇㅏㄴ	-5526
▁ㅂㅗㅍㅕㄴ	-5527
▁ㅂㅓㅂㅎㅏㄱ	-5528
ㅇㅜㄷㅡ	-5529
ㅅㅔㅂ	-5530
▁ㅅㅡㅂㄱㅕㄱ	-5531
▁OS	-5532
▁ㅂㅔㄹㅣ	-5533
▁ㅂㅜㄴㄱㅛ	-5534
▁ㅈㅓㄴㅁㅏㅇ	-5535
▁ㄱㅓㄷ	-5536
▁ㅇㅕㅇㅈㅜ	-5537
▁ㅈㅓㄴㅈㅓㄱ	-5538
▁ㅎㅓㄹㅏㄱ	-5539
ore	-5540
ㅇㅣㅊㅣ	-5541
▁ㅅㅗㅁㅜㄴ	-5542
▁ㅅㅜㅂㅐㄱ	-5543
▁ㅇㅑㅇㅅㅏㄴ	-5544
▁ㅅㅓㅇㄴㅏㅁ	-5545
▁94	-5546
ㅣㅇㅓㄹㅗ	-5547
▁ㅊㅣㄱ	-5548
▁ㅅㅗㅎㅘ	-5549
▁ㄷㅓㅅㅂㅜㅌㅇㅣ	-5550
▁ㅊㅜㄱㅅㅗ	-5551
▁ㅅㅗㅇㅟ	-5552
▁ㅅㅏㅇㅅㅜ	-5553
▁ㄴㅐㅅㅔㅇㅜ	-5554
▁ㅌㅏㄴㅎㅐㄱ	-5555
our	-5556
▁ㅁㅗㄱㅅㅓㅇ	-5557
ㄷㅏㅅㅜ	-5558
▁ㅁㅜㄹㄱㅗㄱㅣ	-5559
▁ㅎㅗㄴㅈㅏ	-5560
ㅅㅡㅌㅣㄱ	-5561
▁ㅎㅣㅇㅓㄹㅗ	-5562
IN	-5563
▁ㅂㅣㅈㅏㄴ	-5564
▁ㅅㅡㅋㅡㄹㅣㄴ	-5565
▁ㅈㅏㅁㅅㅜㅎㅏㅁ	-5566
ell	-5567
▁ㄱㅣㅇㅔ	-5568
▁ㅈㅣㅅㅜ	-5569
▁ㄴㅗㄹㅡ	-5570
▁ㄱㅏㅇㄴㅏㅁ	-5571
▁ㅂㅜㄹㄱㅏㄹㅣㅇㅏ	-5572
▁ㅎㅓㅂ	-5573
▁ㅅㅔㄹㅡ	-5574
ㅈㅓㅅㅡ	-5575
▁ㅇㅑㄱㅎㅘ	-5576
▁ㄷㅐㅂㅓㅂㅇㅝㄴ	-5577
▁ㅈㅔㄹ	-5578
▁ㅅㅡㅌㅗㄴ	-5579
▁ㅇㅕㅇㄱㅜ	-5580
▁ㅇㅝㄴㅅㅣ	-5581
▁1933	-5582
ㅗㅇㅓ	-5583
▁ㅈㅣㄱㅁㅜ	-5584
▁ㅅㅗㅈㅣㅂ	-5585
▁CP	-5586
▁ㅁㅜㄲ	-5587
▁ㅇㅓㅉ	-5588
ㅁㅜㄴㅢ	-5589
▁ㄷㅐㅊㅣㅇ	-5590
▁FM	-5591
▁ㅌㅐㅈㅗㅇ	-5592
ㅈㅗㅅㅓㄴ	-5593
ㅏㄱㅏㅇㅘ	-5594
▁ㅈㅗㅎㅏㅇ	-5595
ㅂㅏㅋㅣㅇㅏ	-5596
▁ㄱㅡㄹㅣㅎㅏㅇㅕ	-5597
▁ㄷㅗㅇㄱㅜㄹ	-5598
ㅎㅜㄱ	-5599
▁ㅊㅜㅇㅂㅜㄴㅎㅣ	-5600
▁ㅃㅕ	-5601
▁ㄷㅗㅇㅎㅘ	-5602
▁ㅁㅜㅇㅛㅇ	-5603
▁ㅍㅡㄹㅗㄱㅡㄹㅐㅁㅣㅇ	-5604
ㅡㄴㅂㅏ	-5605
▁ㅇㅠㅊㅣ	-5606
▁ㄴㅜㅅㅡ	-5607
ㄷㅗㅅㅏ	-5608
▁ㅅㅓㄴㅎㅗ	-5609
▁ㅅㅜㅅㅣㅂ	-5610
▁ㅇㅣㄹㅡㄴㅂㅏ	-5611
▁ㅈㅓㅇㅌㅗㅇ	-5612
ㅊㅜㅇㅓ	-5613
▁ㅂㅡㄹㅏ	-5614
▁ㅅㅣㅅㅣㄴ	-5615
▁ㅈㅜㅇㅣㄹ	-5616
▁1928	-5617
ㅂㅐㅁ	-5618
▁ㅈㅓㅇㄹㅠ	-5619
ㅜㄹㄹㅣ	-5620
▁ㅎㅏㅇㅕㄱㅡㅁ	-5621
▁ㅇㅓㄷㅜㅂ	-5622
ㅗㅅㅗ	-5623
▁ㅅㅏㅇㅈㅜ	-5624
ers	-5625
▁ㅌㅡㅁ	-5626
ㅌㅜㄴ	-5627
▁ㄹㅔㅇㅗ	-5628
▁ㄱㅐㄹㄹㅓㄱ	-5629
▁ㄷㅏㅇㅅㅣㄴ	-5630
▁ㅈㅣㄴㅏㅊㅣ	-5631
▁ㄱㅐㅁㅕㅇ	-5632
ID	-5633
ㅌㅡㄴㅓ	-5634
▁ㅊㅣㄹㄹㅔ	-5635
▁ㅁㅜㄴㅓㅈㅣ	-5636
▁ㄷㅗㅇㄱㅕㅇ	-5637
▁ㅎㅕㅇㅅㅏㅇ	-5638
▁09	-5639
▁ㅍㅏㄴㅈㅓㅇ	-5640
▁ㅋㅗㄹㄹㅗㅁ	-5641
▁ㅎㅐㅈㅔ	-5642
ㅂㅗㅅ	-5643
▁79	-5644
▁ㅈㅐㄴㅡㅇ	-5645
▁ㄴㅣㄹ	-5646
▁1924	-5647
▁ㅇㅐㄱㅊㅔ	-5648
▁04	-5649
▁ㅌㅜㅅㅡ	-5650
▁ㄷㅐㄴㅅㅡ	-5651
▁ㅈㅣㅂㅜㄹ	-5652
▁ㄱㅜㄹㅡㅁ	-5653
▁ㅂㅜㅅㅗㄱ	-5654
▁ㅂㅗㅅㅡ	-5655
▁ㄱㅐㅈㅏㅇ	-5656
▁ㅇㅣㄱㅅㅡ	-5657
▁ㅈㅏㅇㅣㅇㅓㄴㅊㅡ	-5658
ㅆㅡㅁ	-5659
ㅜㄱㅏㅇㅘ	-5660
▁ㅈㅣㄴㅅㅣㄹ	-5661
▁ㅍㅡㄹㄹㅗㄹㅣ	-5662
ㅁㅣㅇㅑ	-5663
▁110	-5664
ㅔㄹㄹㅣ	-5665
▁ㅂㅜㄹㄱㅏ	-5666
▁ㅇㅏㅇㅜㄹ	-5667
▁ㅌㅗㄷㅐ	-5668
▁ㄷㅏㄴㅅㅜㄴㅎㅣ	-5669
▁ㅇㅣㅂㄷㅐ	-5670
▁ㄱㅜㄷ	-5671
▁ㄸㅏㅇㅗ	-5672
▁ㄹㅏㅅㅡ	-5673
▁ㅈㅣㅈㅜㅇ	-5674
▁ㅌㅗㅁㅏㅅㅡ	-5675
ㅍㅡㄹㄹㅔㅇㅣ	-5676
ㄱㅔㄴ	-5677
▁ㅅㅡㅋㅔㅇㅣ	-5678
ㅆㅏㅇㅣ	-5679
▁ㄱㅏㅇㅈㅓㄴ	-5680
end	-5681
▁ㅇㅣㅂㅔㄴㅌㅡ	-5682
▁ㅇㅝㄴㅈㅏㄹㅕㄱ	-5683
▁ㅇㅕㄹㅁㅐ	-5684
▁ㅎㅏㅂㄷㅗㅇ	-5685
▁ㅍㅏㅋㅣㅅㅡㅌㅏㄴ	-5686
▁ㅂㅏㄴㅎㅏ	-5687
▁ㅇㅗㄹㅠ	-5688
▁ㅈㅓㅇㅁㅕㄴ	-5689
▁08	-5690
ㅍㅐㄱ	-5691
▁ㄱㅏㄴㅂㅜ	-5692
▁ㄴㅗㄹㅇㅣ	-5693
ㅏㅇㅣㅌㅡ	-5694
▁ㅈㅓㄴㅈㅔ	-5695
▁ㅈㅣㅍㅛ	-5696
▁170	-5697
▁ㅍㅡㄹㅗㅌㅗ	-5698
ㅋㅗㅍㅡ	-5699
▁ㄷㅐㅅㅡㅇ	-5700
▁ㅂㅜㄴㅅㅏㄴ	-5701
ill	-5702
▁ㄴㅗㅌㅡ	-5703
▁ㅈㅜㅁㅜㄴ	-5704
ㅇㅏㅇㅓ	-5705
▁ㄱㅕㅇㄱㅗ	-5706
▁ㅅㅏㅇㄷㅐㅅㅣㄱ	-5707
▁ㅇㅏㅁㅏㅊㅜㅇㅓ	-5708
▁ㅍㅓㄴ	-5709
▁ㅈㅜㄴㅣㅇㅓ	-5710
▁ㅅㅓㅂㅏㅇ	-5711
▁ㅍㅡㄹㅏㅇㅅㅡㅇㅓ	-5712
▁ㅁㅗㄹㄹㅣ	-5713
ㅍㅔㅇㅣㅅㅡ	-5714
▁ㅌㅗㅊㅏㄱ	-5715
▁Co	-5716
▁ㅁㅜㄹㅕㄱ	-5717
▁ㄷㅣㅇㅏ	-5718
▁ㄱㅏㄴㅏㄴ	-5719
▁ㅎㅚㅅㅐㄱ	-5720
▁ㅓㅆ	-5721
▁ㅅㅜㅈㅏㅇ	-5722
▁ㅈㅐㅅㅐㅇ	-5723
▁MS	-5724
▁ㅇㅓㅁㄱㅕㄱ	-5725
▁ㅈㅏㅇㅈㅓㅁ	-5726
ㅇㅘㄴ	-5727
ㅂㅡㄴ	-5728
▁ㅎㅗㅎㅡㅂ	-5729
ㅡㄹㅡ	-5730
▁ㄱㅜㄱㅌㅗ	-5731
▁ㅅㅜㅋㅓㅅ	-5732
▁ㅂㅗㅅㅡㅌㅓㄴ	-5733
▁ㄷㅐㄱㅜㄱ	-5734
▁ㅊㅗㅅㅏㅇ	-5735
▁ㅂㅓㅂㅇㅏㄴ	-5736
ain	-5737
▁ㅅㅗㄴㅎㅐ	-5738
▁ㅂㅐㅇㅕㄹ	-5739
ㅅㅓㅇㄱㅣ	-5740
▁ㄱㅗㄱㅛ	-5741
▁ㅈㅏㄹㅏㅇ	-5742
▁ㅈㅜㅇㄷㅗㅇ	-5743
▁ㅎㅏㄷㅡ	-5744
▁ㅇㅢㅈㅓㅇㅂㅜ	-5745
▁ㅎㅡㄴㅈㅓㄱ	-5746
▁ㅅㅓㅇㅅㅓ	-5747
▁ㅎㅐㅇㅈㅓㄱ	-5748
▁ㅂㅔㄴㅔㅊㅣㅇㅏ	-5749
ㅇㅏㅈㅣ	-5750
▁ㅂㅗㅇㄱㅣ	-5751
ㄲㅓㅂ	-5752
▁ㅃㅓㄷ	-5753
▁ㅍㅕㄴㅇㅢ	-5754
▁ㅂㅜㅅㅓ	-5755
ㅓㅁㅓㄴㅌㅡ	-5756
▁ㅇㅣㄹㄷㅏㄴ	-5757
AN	-5758
▁{	-5759
▁ㅎㅔㄹㅡ	-5760
ard	-5761
ㄱㅏㅄ	-5762
▁ㅍㅠ	-5763
▁ㅁㅏㅈㅜ	-5764
▁ㅍㅕㅇㅁㅕㄴ	-5765
▁ㅁㅐㄴㅊㅔㅅㅡㅌㅓ	-5766
ㅉㅏㄱ	-5767
▁ㅈㅏㄹㅡ	-5768
▁ㅂㅜㄱㅁㅣ	-5769
▁ㅇㅣㄴㅁㅣㄴㄱㅜㄴ	-5770
▁ㅃㅏㅇ	-5771
▁ㄷㅏㅇㄷㅐ	-5772
▁83	-5773
▁ㅎㅣㅂㅎㅏㅂ	-5774
▁ㅌㅗㄴㅓㅁㅓㄴㅌㅡ	-5775
▁De	-5776
▁ㅂㅣㅌㅡㄹ	-5777
▁ㅇㅛㅋㅗㅎㅏㅁㅏ	-5778
ㅇㅣㅍ	-5779
ㄷㅡㄹㄹㅣ	-5780
▁ㅁㅔㅌㅏㄹ	-5781
▁ㄴㅡㄹㅣ	-5782
▁ㅈㅜㅇㄱㅖ	-5783
▁ㄷㅗㅇㅈㅣ	-5784
ㅂㅜㅇㅣㄴ	-5785
▁ㅇㅑㄷㅏㅇ	-5786
▁ㄱㅕㅇㅂㅣ	-5787
▁ㅁㅏㄱㅏㅁ	-5788
▁ㅈㅐㅇㅣㅁ	-5789
▁ㄱㅏㅇㅇㅛ	-5790
▁ㄹㅏㅇㅣㅍㅡ	-5791
▁ㅊㅏㅈㅇㅏㄱㅏ	-5792
ㄱㅏㅌ	-5793
▁ㄹㅔㄴㅣㄴ	-5794
ㄹㅏㅅㅡ	-5795
▁ㅁㅏㅌㄱㅣ	-5796
▁ㅅㅏㄷㅏㅇ	-5797
▁ㅆㅏㅎㅇㅣ	-5798
▁ㅋㅡㄹㅜ	-5799
▁ㅊㅗㅇㅈㅐ	-5800
▁ㅅㅔㄹㅗ	-5801
▁ㅅㅓㄴㄹㅗ	-5802
▁ㅊㅜㅈㅓㄱ	-5803
▁1934	-5804
▁ㄱㅐㅊㅏㄹ	-5805
▁ㅍㅏㄹㄹㅔ	-5806
▁ㅎㅏㄴㅅㅓㅇ	-5807
▁ㅂㅏㄴㅅㅏ	-5808
▁ㄱㅜㄱㅂㅏㅇㅂㅜ	-5809
ㅋㅜㄹ	-5810
▁ㄱㅡㄴㅇㅠㄱ	-5811
▁ㄷㅐㅅㅏㄱㅘㄴ	-5812
▁ㅇㅏㄴㅉㅗㄱ	-5813
▁ㅅㅡㅌㅏㄹㄹㅣㄴ	-5814
▁ㄴㅡㄱㄷㅐ	-5815
▁ㅂㅕㅅㅡㄹ	-5816
▁ㅍㅜㅇㅅㅗㄱ	-5817
▁ㅍㅗㄷㅡ	-5818
▁ㅎㅕㄹㅇㅐㄱ	-5819
▁ㅅㅓㄴㅁㅜㄹ	-5820
▁ㅂㅏㄹㅈㅓㄴㅅㅗ	-5821
▁ㅇㅣㅂㄱㅜ	-5822
▁ㅈㅏㅇㄹㅖ	-5823
▁ㄴㅗㅇㅈㅏㅇ	-5824
▁ㅎㅐㅅㅓㄹ	-5825
▁ㅎㅏㄹㅇㅏㅂㅓㅈㅣ	-5826
▁ㅈㅜㅇㅈㅣ	-5827
▁ㄱㅘㄴㄱㅖㅈㅏ	-5828
▁ㅁㅔㅌㅡㄹㅗ	-5829
▁ㅎㅏㅁㄱㅕㅇ	-5830
▁ㄱㅕㅇㅊㅏㄹㅅㅓ	-5831
ㅝㅎㅏ	-5832
ㅋㅣㅍㅓ	-5833
▁ㅋㅗㅇㅓ	-5834
▁ㅎㅘㅎㅏㅂㅁㅜㄹ	-5835
▁ㄹㅡㄴㅔ	-5836
▁ㅊㅣㅂ	-5837
▁ㄱㅗㄹㅋㅣㅍㅓ	-5838
▁ㅈㅓㅂㅅㅗㄱ	-5839
▁ㅌㅏㅅ	-5840
▁ㅅㅣㄱㅖ	-5841
ㅗㄹㄹㅔ	-5842
▁ㄷㅗㅋㅜㄱㅏㅇㅘ	-5843
▁ㅂㅜㅈㅏㄱ	-5844
ㅁㅓ	-5845
▁ㅁㅏㅈㅓ	-5846
▁ㅎㅕㄴㅈㅗㄴ	-5847
▁ㅋㅗㄴㅓ	-5848
▁ㄴㅗㅇㅊㅗㄴ	-5849
▁ㅊㅓㄹㅎㅏㄱㅈㅏ	-5850
▁ㄱㅏㅂㅕㅂ	-5851
▁ㄱㅏㅇㄷㅗ	-5852
▁ㅌㅣㅂㅔㅌㅡ	-5853
▁ㄴㅗㄷㅗㅇㄷㅏㅇ	-5854
▁ㅅㅣㅁㄹㅣㅎㅏㄱ	-5855
▁ㅇㅕㄱㅈㅓㄴ	-5856
ㄴㅗㅇ	-5857
▁ㅍㅣㄹㄹㅣㅂ	-5858
▁ㄱㅘㅇㅅㅏㄴ	-5859
ㅋㅡㄹㅐㅍㅡㅌㅡ	-5860
▁ㄱㅘㄴㄱㅐㄱ	-5861
▁ㄴㅡㄴㅑ	-5862
▁ㄹㅓㅂㅡ	-5863
▁ㅈㅜㅈㅐ	-5864
▁ㅁㅓㅁㅊㅜ	-5865
▁ㅈㅡㅇㄱㅝㄴ	-5866
ㅔㄴㅗ	-5867
▁ㄱㅓㅈㅓㅁ	-5868
▁ㅅㅏㅁㅏㅇㅈㅏ	-5869
▁ㄹㅣㅅㅡㅌㅡ	-5870
ㅅㅔㄷㅐ	-5871
▁ㄴㅏㅋㅏ	-5872
▁ㄱㅗㄴㅊㅜㅇ	-5873
▁130	-5874
▁ㅇㅗㅇㅕㅁ	-5875
ne	-5876
▁ㄱㅓㄴㅡㄹㅣ	-5877
▁Me	-5878
▁ㄷㅐㄷㅗㅇ	-5879
▁ㅇㅠㅂㅏㄹ	-5880
▁ㅋㅏㄹㅡㄹㄹㅗ	-5881
▁ㅈㅗㅁㅜㄴ	-5882
▁ㅈㅓㅇㅎㅘㄱㅎㅣ	-5883
▁ㄴㅏㅁㄱㅡㄱ	-5884
▁ㅅㅏㅇㅣㄷㅡ	-5885
▁ㄸㅔ	-5886
▁ㅍㅔㄹㅣ	-5887
▁ㅈㅗㄴㅅㅡ	-5888
▁ㅅㅣㄱㄹㅑㅇ	-5889
▁ㄷㅗㅇㅁㅔㄷㅏㄹ	-5890
ㅂㅏㅂ	-5891
▁ㅌㅗㅁㅓㅅㅡ	-5892
▁ㅈㅐㅍㅏㄴㅅㅗ	-5893
▁ㅁㅏㅅㅏㄴ	-5894
▁ㅍㅗㄱㅍㅜㅇ	-5895
▁ㄷㅡㄱㅍㅛ	-5896
▁ㅎㅏㅇㅎㅐ	-5897
▁ㅈㅣㄴㄷㅗㅇ	-5898
▁Sh	-5899
ㅊㅏㄹㅗ	-5900
▁ㅋㅜㅂㅏ	-5901
▁ㄷㅗㄱㅈㅓㅁ	-5902
▁140	-5903
▁ㅈㅗㅇㅈㅓㄴ	-5904
▁ㅎㅏㅂㄹㅣ	-5905
▁ㅎㅏㅇㅑ	-5906
▁ㄱㅡㄹㅓㅁㅡㄹㅗ	-5907
▁ㄱㅡㄹㅣㅅㅡㅇㅓ	-5908
ㅇㅓㄴㅐ	-5909
▁ㅈㅜㅇㅅㅓㅇ	-5910
▁ㄴㅐㄹㅕㄱㅏ	-5911
▁ㄷㅐㄷㅏㅅㅜ	-5912
▁ㅋㅐㅂ	-5913
ㄷㅓㅅㅡ	-5914
ㅂㅗㄴㅐ	-5915
▁ㅂㅗㄴㅌㅗ	-5916
▁ㅌㅠ	-5917
▁ㄷㅐㄱㅕㄹ	-5918
▁ㄷㅓㅂㅡㄹ	-5919
▁ㅊㅗㅊㅓㅇ	-5920
▁ㅈㅏㅁㅐ	-5921
▁ㅈㅓㅇㅈㅗ	-5922
ㄷㅜㄹ	-5923
▁ㅇㅣㅈㅓㅇ	-5924
▁ㅇㅏㅍㅡㄱㅏㄴㅣㅅㅡㅌㅏㄴ	-5925
▁ㅂㅜㅊㅓ	-5926
ㅍㅡㄹㅗ	-5927
▁ㅇㅡㄴㅁㅔㄷㅏㄹ	-5928
ㅣㅌㅓ	-5929
ㅋㅣㅅㅡ	-5930
▁ㅎㅟㅎㅏ	-5931
▁ㅇㅏㅇㅣㄴ	-5932
ㅗㅇㅑ	-5933
▁ㄴㅏㅁㄴㅕ	-5934
▁ㅋㅡㄹㄹㅐㅅㅡ	-5935
▁WWE	-5936
▁ㅎㅣㄹㅗㅅㅣㅁㅏ	-5937
ㅔㅇㅏ	-5938
▁ㅇㅠㄴㄹㅣ	-5939
▁ㅇㅠㄷㅐㅇㅣㄴ	-5940
▁ㅇㅗㄹㄹㅣㅂ	-5941
▁ㅋㅏㄹㄹㅣㅈㅣ	-5942
▁ㅌㅡㄱㅂㅕㄹㅎㅣ	-5943
OR	-5944
ㅌㅡㄴㅣ	-5945
▁ㅍㅜㄹㅡ	-5946
▁ㅇㅏㄱㅘ	-5947
▁ㅋㅣㅅㅡ	-5948
▁ㅎㅣㄱㅏ	-5949
▁ㄱㅗㄹㄷㅡ	-5950
▁ㅅㅓㄱㅂㅏㅇ	-5951
▁ㄱㅛㅎㅑㅇㄱㅗㄱ	-5952
▁ㅂㅣㅅ	-5953
▁ㅁㅕㄹㅈㅗㅇ	-5954
▁ㄹㅏㅇㅣㅇㅗㄴ	-5955
▁ㅎㅞ	-5956
▁ㅅㅐㄲㅣ	-5957
ㄷㅗㄹㅍㅡ	-5958
▁ㅅㅡㅍㅔㄱ	-5959
▁ㅋㅓㄷㅏㄹㅏㅎ	-5960
▁ㅊㅔㅇㅠㄱㄱㅘㄴ	-5961
▁ㄱㅕㅁㅎㅏ	-5962
▁ㅂㅏㄱㄱㅡㄴ	-5963
▁ㄷㅐㅎㅏㄴㅈㅔㄱㅜㄱ	-5964
▁ㄱㅣㄱㅏㅂ	-5965
▁ㅂㅜㅍㅜㅁ	-5966
▁ㅅㅐㅂㅕㄱ	-5967
▁ㅈㅏㅇㅠㅈㅜㅇㅢ	-5968
▁ST	-5969
▁ㅁㅐㅈㅜ	-5970
▁ㅂㅗㄹㅡ	-5971
ㅡㄴㅣㅁ	-5972
▁th	-5973
▁ㅂㅜㄹㅣ	-5974
ㅋㅡㄹㄹㅣㄴ	-5975
AM	-5976
▁ㄱㅓㄴㄴㅓㄱㅏ	-5977
▁ㄴㅗㅂㅜ	-5978
▁ㅍㅏㅌㅣ	-5979
▁ㅇㅟㅇㅏㄴ	-5980
▁ㄱㅡㄹㄹㅣ	-5981
▁ㅇㅣㅅㅡ	-5982
▁ㅎㅜㄹㄹㅠㅇ	-5983
ㅌㅗㄹ	-5984
▁ㄱㅡㄹㅐㅍㅡ	-5985
▁ㅈㅗㅇㅅㅏ	-5986
▁ㅅㅓㅇㅁㅕㅇ	-5987
▁ㅇㅠㄹㅕㄱ	-5988
▁ㄷㅏㄹㄹㅏㅈㅣ	-5989
▁ㅇㅝㄴㅈㅗ	-5990
▁1931	-5991
▁ㅇㅣㅅㅡㅌㅡ	-5992
all	-5993
ㅇㅠㄹㅓㅂ	-5994
▁ㅈㅓㄴㅈㅏㄱ	-5995
▁ㅁㅜㄹㄹㅣㅊㅣ	-5996
▁ㄱㅏㄴㄱㅕㄱ	-5997
ㅅㅣㄱㅏㄴ	-5998
▁ㅋㅐㅁㅍㅡ	-5999
▁ㄱㅡㅁㄱㅏㅇ	-6000
▁ㅇㅣㄹㄱㅗㅂ	-6001
▁ㄲㅜㄴ	-6002
▁ㅂㅜㄷㅡㄹ	-6003
▁ㅌㅏㅈㅓㅁ	-6004
▁ㄱㅣㅅㅐㅇ	-6005
▁ㅌㅏㅇㅝㄴ	-6006
▁ㄱㅏㅁㅇㅗㄱ	-6007
▁ㅎㅏㄴㅡㄴㅣㅁ	-6008
▁ㄱㅏㅇㄷㅡㅇ	-6009
▁ㅈㅗㄴㅅㅡㄴ	-6010
▁ㅌㅡㄹㅐㄴㅅㅡ	-6011
▁ㅇㅑㅁ	-6012
▁ㅁㅜㄴㅂㅓㅂ	-6013
▁An	-6014
ㅜㄹㅕㅅ	-6015
▁ㄸㅜㄹㅕㅅ	-6016
ㅏㄹㄹㅏ	-6017
▁ㄱㅣㅂㅕㅇ	-6018
ang	-6019
▁ㅂㅏㄹㄹㅔ	-6020
▁ㅊㅏㅈㅇㅏㅇㅗ	-6021
▁ㄸㅏㄱ	-6022
▁ㄱㅣㄹㅡ	-6023
▁ㅁㅕㅇㅅㅣ	-6024
▁ㄷㅏㄴㅈㅏㅇ	-6025
▁ㄱㅗㅇㅅㅔ	-6026
▁ㅇㅣㄴㅌㅓㅍㅔㅇㅣㅅㅡ	-6027
▁ㄷㅐㅂㅕㄴ	-6028
ㅌㅣㅇㅗ	-6029
▁ㅈㅣㅊㅣㅇ	-6030
▁ㅎㅜㅌㅚ	-6031
▁ㅎㅐㅎㅕㅂ	-6032
ㅇㅏㄹㅣ	-6033
▁ㅅㅗㅇㅛ	-6034
▁250	-6035
▁ㅇㅣㅈ	-6036
▁ㄴㅔㅇㅣㅅㅕㄴ	-6037
▁ㅅㅔㅈㅏ	-6038
▁ㅈㅘㅍㅏ	-6039
▁ㅈㅣㅎㅟㄱㅘㄴ	-6040
▁ㅅㅡㅌㅡㄹㅏㅇㅣ	-6041
▁ㄹㅏㅇㅗ	-6042
▁ㄷㅗㅁㅏㅇㅊㅣ	-6043
ㅇㅏㅇㅣㄹ	-6044
▁ㄱㅗㅇㄹㅛㅇ	-6045
ㄱㅝㄹ	-6046
▁ㅋㅣㄴ	-6047
▁1921	-6048
▁ㅈㅜㅈㅏ	-6049
▁ㅅㅜㅂㅏㄴ	-6050
▁ㅊㅓㅅㅉㅐ	-6051
▁ㅈㅣㅂㅍㅣㄹ	-6052
▁ㅅㅏㄱㅘㄴ	-6053
▁ㄱㅡㄱㅂㅗㄱ	-6054
▁ㅅㅡㅌㅔㅇㅣㅅㅕㄴ	-6055
▁ㅁㅣㅅㅡ	-6056
▁ㅍㅕㅇㄹㅗㄴㄱㅏ	-6057
▁cod	-6058
▁ㅇㅕㄴㅎㅗ	-6059
▁ㅇㅕㅇㅎㅗㄴ	-6060
▁ㅁㅜㄴㅢ	-6061
ㅂㅣㅅㅡ	-6062
▁ㄱㅗㅅㅓ	-6063
▁176	-6064
▁ㅅㅜㅅㅏㄴ	-6065
▁ㅇㅗㅇㅣ	-6066
▁ㄴㅏㅋ	-6067
▁ㄱㅜㄹㅣ	-6068
▁ㄷㅐㄱㅏ	-6069
▁ㅇㅗㄹㄹㅏㅇㅗ	-6070
▁ㄷㅏㄻ	-6071
▁ㄷㅗㅇㅅㅓㅇㅇㅐ	-6072
ㅊㅓㅁ	-6073
▁ㄷㅓㄱㅂㅜㄴ	-6074
▁ㄷㅗㅇㅂㅏㄴ	-6075
▁ㅇㅝㄴㅈㅏㅇ	-6076
ㅅㅐㅇㅎㅘㄹ	-6077
▁ㅎㅕㅂㅇㅑㄱ	-6078
▁ㄱㅣㅁㄷㅐㅈㅜㅇ	-6079
▁05	-6080
▁ㅁㅗㄱㅅㅜㅁ	-6081
▁1929	-6082
▁ㅈㅗㅎㅘ	-6083
ㅅㅣㅅㅡㅌㅡ	-6084
ss	-6085
ㅋㅣㅅ	-6086
▁ㅅㅜㄱㅈㅗㅇ	-6087
▁ㅎㅏㅇㅘㅇㅣ	-6088
▁ㅇㅏㄴㄴㅐ	-6089
ㅟㄹ	-6090
▁ㅍㅏㄹㅏ	-6091
▁ㅇㅜㅇㅕㄴ	-6092
▁ㅇㅑㄱㅌㅏㄹ	-6093
▁ㅂㅜㄷㅡㄹㅓㅂ	-6094
▁ㅅㅏㅁㅜㄹ	-6095
▁ㄱㅓㄴㄷㅏㅁ	-6096
▁ㅅㅜㅂㅣㅅㅜ	-6097
▁ㅂㅏㅇㅣㅇㅗㄹ	-6098
▁ㅊㅓㄹㄱㅓ	-6099
▁ㅁㅣㅂㅜㄴ	-6100
▁ㄱㅜㄴㅂㅜ	-6101
▁ㅇㅣㄹㅎㅘㄴ	-6102
▁ㅊㅏㄱㅇㅛㅇ	-6103
ㅡㄴㅏ	-6104
▁ㅂㅏㄹㄹㅔㄴ	-6105
▁ㅋㅡㄴ	-6106
▁ㄱㅣㅁㄱㅜ	-6107
▁ㄱㅐㄹㄹㅓㄱㅅㅣ	-6108
▁de	-6109
▁ㅈㅣㅂㅜ	-6110
▁ㅅㅓㅇㅆㅣ	-6111
▁ㄱㅡㄹㅔㅇㅣ	-6112
▁ㅅㅡㄹㄹㅗ	-6113
▁ㅇㅢㅅㅓㄱ	-6114
ㅈㅡㄴㅣ	-6115
▁ㅇㅕㄴㄱㅖ	-6116
▁ㄱㅗㅇㄱㅜㄱ	-6117
▁y	-6118
▁ㅂㅔㅇㅓ	-6119
▁AC	-6120
▁ㅁㅜㄱㅓㅂ	-6121
▁ㅇㅜㄴㄷㅗㅇㄱㅏ	-6122
▁ㅇㅔㄹㄹㅣㅈㅏㅂ	-6123
▁ㅇㅕㄴㅅㅏㅇ	-6124
ㅠㅁㅔㄴ	-6125
▁ㅈㅜㅇㄹㅣㅂ	-6126
▁ㅅㅓㄹㅂㅣ	-6127
▁1923	-6128
▁ㅈㅜㅇㄱㅗㅇ	-6129
▁ㅉㅡㅁ	-6130
▁ㅅㅓㅁㅇㅠ	-6131
ㅋㅗㅂ	-6132
▁ㄱㅕㅇㅇㅠ	-6133
▁ㄹㅔㅂㅔㄹ	-6134
▁ㅂㅏㄹㅎㅟ	-6135
▁07	-6136
▁1925	-6137
▁ㅎㅏㄹㄹㅣ	-6138
▁ㅍㅡㄹㄹㅗㄹㅣㄷㅏ	-6139
▁ㄹㅏㅇㅜ	-6140
▁ㅁㅏㅇㅇㅝㄴㄱㅕㅇ	-6141
ity	-6142
▁ㅇㅞㄹ	-6143
▁ㄷㅗㅎㅗ	-6144
▁ㅅㅣㄹㄴㅐ	-6145
▁ㅇㅏㅂㅊㅜㄱ	-6146
ㄷㅡㄴㅣ	-6147
▁ㅅㅓㅈㅓㄱ	-6148
▁ㅋㅡㄹㅣㅁ	-6149
▁ㅇㅣㅁㅅㅣㄴ	-6150
▁ㅂㅡㄹㅜ	-6151
▁ㄱㅗㄱㅗ	-6152
▁ㄱㅘㅇㅣㄹ	-6153
▁ㄴㅡㄴㄷㅏㄱㅗ	-6154
▁ㅅㅜㅎㅗ	-6155
▁ㅂㅡㄹㅔ	-6156
▁ㅃㅏ	-6157
▁ㅇㅞㅇㅣㄹㅅㅡ	-6158
▁ㅇㅗㅁ	-6159
▁ㅂㅜㄹㅎㅘ	-6160
▁ㅊㅜㄹㅏㄱ	-6161
▁ㅇㅏㄴㄷㅡㄹㅗㅇㅣㄷㅡ	-6162
ㅏㄹㅡㅌㅏ	-6163
▁ㅁㅗㅎㅓㅁ	-6164
▁ㅇㅕㅇㄱㅏㅁ	-6165
▁ㅁㅏㅇㅣㄹ	-6166
▁ㄱㅣㅁㅎㅐ	-6167
▁ㄷㅏㅇㅣㅁㅛ	-6168
▁SC	-6169
ㅘㅇㅇㅕㄱㅅㅣ	-6170
ㄱㅗㅇㅅㅏ	-6171
ㄹㅓㄹ	-6172
▁ㅍㅣㅅㅡ	-6173
▁ㅈㅣㄴㅎㅡㅇ	-6174
▁ㅅㅓㅇㅈㅣㄱㅈㅏ	-6175
▁ㄴㅏㅁㅇㅏㅁㅔㄹㅣㅋㅏ	-6176
ㅣㄹㄹㅏ	-6177
▁ㅇㅕㅇㅜ	-6178
▁ㅇㅛㅇㅝㄴ	-6179
▁ㅂㅏㄱㄱㅡㄴㅎㅖ	-6180
▁ㅋㅐㄹㄹㅣㅍㅗㄴㅣㅇㅏㅈㅜ	-6181
ㄹㅣㅇㅗ	-6182
▁ㅂㅕㄴㅅㅣㄴ	-6183
▁ㅊㅓㅇㄷㅗㅇ	-6184
▁ㅇㅕㄴㅍㅕㅇㄱㅠㄴ	-6185
▁ㄷㅣㅂ	-6186
▁ㅇㅏㄹㄹㅔㄱㅅㅏㄴㄷㅓ	-6187
ㅇㅏㄴㅏㅁ	-6188
▁ㅅㅏㄱㅈㅔ	-6189
▁ㅅㅏㄹㅇㅏㄴㅏㅁ	-6190
▁ㄱㅗㅂㅜㄴ	-6191
▁ㄷㅗㅇㅇㅣㄴ	-6192
▁ㄱㅏㄱㅜ	-6193
▁ㅈㅏㅇㄱㅏㅂ	-6194
ㅣㅅ	-6195
▁ㅈㅣㅇㅕㄱㄱㅜ	-6196
▁ㄱㅘㄴㄹㅣㅈㅏ	-6197
▁ㅈㅔㅇㅑㄱ	-6198
▁ㅇㅏㄴㅏ	-6199
▁ㅇㅗㅋㅔ	-6200
▁ㅁㅗㅇㅡㅁ	-6201
▁ㅇㅑㅅㅡ	-6202
ㅍㅡㄹㅏㄴ	-6203
▁ㄱㅏㄲㅡㅁ	-6204
▁ㅇㅠㅅㅓㅇ	-6205
▁ㅅㅓㄴㄱㅛㅅㅏ	-6206
▁ㅁㅗㄱㅍㅗ	-6207
ㅁㅜㄱㅔ	-6208
▁ㅁㅣㄴㅅㅗㄱ	-6209
▁ㅇㅕㅇㄱㅘㅇ	-6210
▁ㅁㅗㅁㅁㅜㄱㅔ	-6211
▁ㅇㅗㄹㅣㅈㅣㄴ	-6212
▁ㅂㅜㄱㅅㅓㅉㅗㄱ	-6213
▁ㅍㅡㄹㅗㅅㅔㅅㅓ	-6214
▁ㄱㅖㅅㅜ	-6215
▁ㅇㅓㅇㅝㄴ	-6216
▁ㅊㅐㄱㅝㄴ	-6217
▁ㅌㅡㄱㅎㅓ	-6218
▁ㄸㅗㄱㄱㅏㅌ	-6219
▁ㄹㅏㅌㅡ	-6220
ㅇㅢㅈㅓㅇ	-6221
▁ㅇㅏㄱㅈㅏㅇ	-6222
▁ㅅㅗㅅㅓㄹㄱㅏ	-6223
▁ㅇㅐㅂ	-6224
ㅅㅜㄹㅑㅇ	-6225
▁ㅅㅜㅈㅣㄱ	-6226
▁ㄱㅛㄱㅘ	-6227
▁ㅇㅠㅂㅣ	-6228
ㅏㄴㄷㅡ	-6229
ㅗㅍㅡ	-6230
▁ㅈㅣㄴㅅㅜㄹ	-6231
▁161	-6232
▁ㅊㅔㅋㅗ	-6233
▁ㅂㅕㄴㄷㅗㅇ	-6234
▁ㄷㅜㄹㅕㅇ	-6235
▁ㅊㅜㄷㅐ	-6236
ㅍㅣㅅㅡ	-6237
▁EP	-6238
▁ㅇㅣㅂㅅㅏ	-6239
▁ㅍㅣㄹㄹㅡㅁ	-6240
▁ㅅㅜㅁㅕㅇ	-6241
ff	-6242
ㅊㅣㅇㅗ	-6243
ㄷㅜㅇㅇㅣ	-6244
ㄷㅐㅁㅜㄴ	-6245
▁ㅇㅣㄴㅏㄹ	-6246
up	-6247
▁ㅁㅐㄴㅣ	-6248
▁ㅈㅛ	-6249
ㅋㅓㅅㅡ	-6250
▁ㅇㅏㅂㄷㅗ	-6251
▁ㅇㅕㅂ	-6252
▁ㅈㅜㄹㅠ	-6253
▁ㅇㅣㄹㅈㅏ	-6254
▁ㄱㅣㄱㅘㄴㅊㅏ	-6255
ㅝㄴㄱㅜㄴ	-6256
ㅇㅏㅇㅣㄴ	-6257
▁ㅇㅓㅇㅝㄷㅡ	-6258
▁ㄱㅣㅂㅜ	-6259
▁ㅍㅡㄹㅔㅇㅣㅁ	-6260
▁ㅌㅓㅂ	-6261
▁ㅍㅏㅌㅡㄴㅓ	-6262
▁ㅂㅜㄱㄱㅡㄱ	-6263
▁ㅋㅣㅁ	-6264
ㄱㅏㅅㅡ	-6265
▁ㄱㅕㄹㅅㅣㅁ	-6266
▁ㅈㅜㅇㅅㅣ	-6267
ㅇㅗㄹ	-6268
ㅎㅐㅇㅅㅓㅇ	-6269
▁ㄲㅗㅂㅎㅣ	-6270
▁ㄹㅔㅇㅣㅂㅡㄹ	-6271
▁ㅅㅜㅅㅏㅇㅈㅏ	-6272
▁ㅍㅏㅅㅐㅇ	-6273
▁ㅂㅗㄱㄱㅜ	-6274
▁ㄷㅏㄴㅅㅓㄴ	-6275
▁ㅅㅓㅇㅣㄴ	-6276
▁ㅊㅓㄹㅈㅓ	-6277
▁KT	-6278
▁ㅂㅗㄱㅅㅏ	-6279
▁ㅅㅏㅁㄱㅏㄱㅎㅕㅇ	-6280
▁175	-6281
▁ㅅㅚㅌㅚ	-6282
▁ㅂㅜㅎㅗ	-6283
▁ㅇㅓㅎㅏㅇ	-6284
▁ㅅㅏㄱㅓㄹㅣ	-6285
▁ㄱㅏㅌㅗㄹㄹㅣㄱㄱㅛㅎㅚ	-6286
▁ㄷㅗㅁㅏㅂㅐㅁ	-6287
▁ㅂㅜㅌㅏㄱ	-6288
ㅜㄹㅜㅅㅡ	-6289
▁ㅅㅔㄴㅌㅡㄹ	-6290
ㅅㅡㅌㅏㅇㅣㄴ	-6291
▁ㄷㅗㅇㅇㅣㄹㅂㅗㄴ	-6292
▁ㄱㅠㅅㅠ	-6293
▁ㅊㅚㅅㅏㅇ	-6294
ㅇㅛㅅㅣ	-6295
▁ㄱㅡㄹㅐㄴㄷㅡ	-6296
ㅁㅜㅇ	-6297
▁ㅍㅛㅈㅣ	-6298
▁ㄱㅓㄴㅊㅜㄱㅁㅜㄹ	-6299
▁ㄴㅏㅍㅗㄹㄹㅣ	-6300
▁ㅇㅠㄱㅏ	-6301
▁ㅂㅜㄱㅇㅏㅁㅔㄹㅣㅋㅏ	-6302
▁ㄸㅐㄹㅗ	-6303
▁ㄹㅐㅇㅋㅣㅇ	-6304
▁ㅂㅜㅅㅜ	-6305
▁ㅍㅕㅇㅅㅐㅇ	-6306
ㅔㄴㅅㅡ	-6307
▁ㅍㅔㄹㅜ	-6308
ㅎㅚㅇㅢ	-6309
▁ㅁㅔㄹㅡ	-6310
ㄹㄹㅣㄴ	-6311
ㅈㅡㅋㅣ	-6312
ㅅㅏㄹㅡ	-6313
▁ㅂㅜㅇㅠ	-6314
▁ㄱㅏㄱㅈㅏ	-6315
▁ㅇㅕㅇㅣㄴ	-6316
▁ㅇㅠㅇㅕㄱ	-6317
▁ㅈㅏㅊㅣㄱㅜ	-6318
▁ㅂㅣㄱㅌㅗㄹㅣㅇㅏ	-6319
▁My	-6320
▁ㅈㅣㅇㅕㄴ	-6321
▁ㄷㅗㅇㅓ	-6322
▁ㅈㅜㄴㅇㅜ	-6323
▁ㄴㅗㅁㅜ	-6324
▁ㅁㅜㅇㅣㄴ	-6325
▁codice	-6326
▁ㅈㅓㄴㅅㅡㅇ	-6327
▁ㅇㅠㅇㅛㅇ	-6328
▁1922	-6329
▁ㄱㅗㅇㅏㄴ	-6330
ㅌㅐㅇㅜ	-6331
▁ㅎㅘㅇㅌㅐ	-6332
▁ㅇㅔㄹㄹㅣㅈㅏㅂㅔㅅㅡ	-6333
▁ㅇㅓㅄㅇㅐ	-6334
▁ㅂㅏㅇㅣㅇㅗㄹㄹㅣㄴ	-6335
▁SM	-6336
ㄷㅡㄹㅏ	-6337
▁ㅈㅣㄱㅅㅓㄴ	-6338
▁ㅂㅓㅈㅣㄴㅣㅇㅏ	-6339
▁ㅎㅘㄱㅏ	-6340
▁ㅇㅣㅈㅗㅇ	-6341
▁ㅋㅡㄹㅗㅅㅡ	-6342
ㅔㅅㅣ	-6343
▁ㅁㅜㄹㅡㅍ	-6344
▁ㅇㅏㅌㅡㄹㄹ	-6345
▁ㅌㅗㅅㅡ	-6346
IS	-6347
▁ㅌㅗㅂㅓㄹ	-6348
▁ㅋㅗㅌㅡ	-6349
▁1912	-6350
ㅅㅣㅇㅗㄴ	-6351
▁ㄱㅗㅇㄱㅕㄱㅅㅜ	-6352
▁""	-6353
▁ㄱㅡㄴㄹㅗ	-6354
▁ㅊㅓㅇㅎㅏ	-6355
▁JR	-6356
▁ㅁㅜㄴㅇㅣㄴ	-6357
▁ㄱㅛㄷㅗ	-6358
▁ㄱㅜㄱㅁㅣㄴㄷㅏㅇ	-6359
▁ㄷㅙ	-6360
▁ㅇㅕㄴㄹㅕㅇ	-6361
ㅅㅅㅜ	-6362
ㅋㅏㅇㅗ	-6363
▁ㅇㅘㅇㄱㅏ	-6364
▁ㅋㅣㄹㄹㅗ	-6365
ㄱㅔㄹ	-6366
▁ㄴㅏㅂㅊㅣ	-6367
ㅓㅇㅣㄹ	-6368
▁ㄷㅏㄴㅎㅐㅇ	-6369
▁ㅍㅐㅌㅓㄴ	-6370
▁ㅅㅐㄱㅅㅏㅇ	-6371
▁ㄱㅏㄴㅅㅓㅂ	-6372
▁ㅇㅣㄴㅊㅓㄴㄱㅘㅇㅇㅕㄱㅅㅣ	-6373
▁ㅌㅜㄱㅜ	-6374
ㅅㅏㄱㅣ	-6375
▁ㅁㅜㅅㅏㄴ	-6376
▁ㄷㅏㅇㅑㅇㅊㅔ	-6377
▁ㄱㅣㅈㅗㅇ	-6378
▁ㄹㅜㅌㅡㅂㅣㅎㅣ	-6379
▁ㅊㅣㅁㅎㅐ	-6380
▁ㅍㅣㅌㅡ	-6381
▁ㅁㅣㅅㅣ	-6382
▁ㅅㅡㅍㅏㅇㅣ	-6383
▁ㄹㅣㄴㅜㄱㅅㅡ	-6384
▁MV	-6385
▁ㅍㅗㅇㅠ	-6386
▁ㅂㅗㅇㅅㅏ	-6387
▁ㅁㅗㄷㅠㄹ	-6388
▁ㅈㅓㄱㅇㅡㅇ	-6389
▁ㅅㅡㅋㅔㅇㅣㅌㅣㅇ	-6390
▁ㅇㅣㄴㄹㅕㄱ	-6391
▁ㅍㅡㄹㄹㅏㅇ	-6392
▁ㅈㅣㅈㅜㅇㅎㅐ	-6393
▁ㅍㅓㅅㅣ	-6394
▁ㄹㅣㄷㅡㅁ	-6395
▁ㅇㅏㄹㅂㅏㄴ	-6396
▁ㅌㅏㅁㅎㅓㅁ	-6397
▁ㅌㅏㅇㅣㄱㅓ	-6398
▁06	-6399
ㅣㅇㅏㅂ	-6400
▁ㅇㅔㄹㅡ	-6401
▁ㅈㅣㄱㅇㅟ	-6402
▁ㄷㅗㅇㅇㅏㅅㅣㅇㅏ	-6403
▁ㅅㅜㅈㅣ	-6404
▁ㅅㅣㅌㅡ	-6405
▁ㄴㅏㅇㅣㅌㅡ	-6406
▁ㅋㅡㄹㄹㅏㅇㅜ	-6407
ㅣㅇㅔ	-6408
▁Go	-6409
▁ㅇㅏㅁㅣㄴ	-6410
▁Love	-6411
▁ㅅㅏㅇㅊㅓ	-6412
▁ㅊㅜㄹㅎㅕㄴ	-6413
ip	-6414
▁ㅋㅏㄹㅡㄹ	-6415
▁ㄱㅜㅁㅣ	-6416
ㅂㅔㄹㅡㅋㅡ	-6417
▁ㄱㅛㅊㅏㄹㅗ	-6418
▁ㅎㅏㅇㅁㅗㄱ	-6419
▁ㅇㅣㅈㅗ	-6420
▁ㅈㅗㅅㅔ	-6421
▁ㄱㅛㅇㅕㄱ	-6422
ㅅㅚ	-6423
ong	-6424
ant	-6425
▁ㅅㅏㅂㅇㅣㅂ	-6426
▁164	-6427
▁ㄹㅓㄱ	-6428
ㄹㄹㅣㅇ	-6429
▁ㄱㅜㅅ	-6430
▁ㄱㅡㄹㅆㅣ	-6431
ㅇㅑㅇㄱㅜㄴ	-6432
▁ㅅㅣㄹㅈㅓㅁ	-6433
ED	-6434
▁ㅅㅣㅅㅏㅇㅅㅣㄱ	-6435
ld	-6436
▁ㅇㅕㅇㅈㅗ	-6437
▁ㅋㅞ	-6438
▁1908	-6439
▁ㅁㅐㄱㅏㄱ	-6440
▁ㅈㅓㄴㅎㅑㅇ	-6441
ㅆㅡㅇ	-6442
ㅋㅏㅅㅡ	-6443
▁ㅂㅔㅌㅗ	-6444
▁ㅂㅔㅌㅏ	-6445
▁ㅇㅕㄴㄱㅡㅁ	-6446
▁ㄴㅗㅂㅣ	-6447
▁ㅁㅗㄹㅐ	-6448
▁ㅈㅏㅊㅐㄱ	-6449
▁ㅊㅔㅇㅣㄴ	-6450
▁ㄴㅏㅁㄷㅗㅇㅉㅗㄱ	-6451
▁03	-6452
▁ㄱㅣㅁㄷㅗㅇ	-6453
ㅗㅅㅡㄹㄹ	-6454
▁ㅈㅗㅁㅕㅇ	-6455
▁ㅇㅠㄱㅅㅓㅇ	-6456
ㅠㅁㅔㄴㅌㅓㄹㅣ	-6457
▁ㅂㅜㄷㅗㅇㅅㅏㄴ	-6458
OM	-6459
▁ㅅㅣㅀ	-6460
▁1917	-6461
ㅇㅓㄷㅗ	-6462
▁ㅈㅔㅈㅜㄷㅗ	-6463
ㅇㅣㅂㅡ	-6464
▁1906	-6465
▁ㅇㅚㄱㅖ	-6466
▁ㄷㅐㅁ	-6467
▁ㅂㅐㄱㅡㅂ	-6468
▁ㅊㅏㅁㅈㅗ	-6469
▁SN	-6470
▁ㅅㅡㅇㅘ	-6471
▁ㅎㅗㅈㅗ	-6472
▁ㅅㅣㅈㅣㅂ	-6473
▁ㄱㅣㅎㅏㅎㅏㄱ	-6474
▁ㅇㅣㄴㅈㅏ	-6475
▁ㅅㅏㅊㅗㄴ	-6476
▁ㄱㅘㄴㅈㅜㅇ	-6477
▁ㄹㅗㅈㅡ	-6478
▁ㅂㅐㅅㅏㅇ	-6479
▁ㅂㅣㅈㅓㄴ	-6480
▁ㅁㅕㅇㅁㅜㄴ	-6481
▁ㅁㅏㄹㅜ	-6482
▁ㅁㅣㄹㄹㅏㄴㅗ	-6483
▁ㅎㅑㅇㅌㅗ	-6484
▁ㅈㅗㅇㅈㅗㄱ	-6485
▁ㅅㅣㅇㅚ	-6486
▁ㅅㅓㅂㅜㄱ	-6487
▁ㅈㅓㅇㅅㅓ	-6488
ㅌㅗㅅㅣ	-6489
▁ㅇㅏㄱㅣ	-6490
▁ㅇㅣㅂㅁㅜㄴ	-6491
▁ㅍㅖㄱㅣ	-6492
ㄹㅣㄱㅅㅡ	-6493
▁ㅅㅏㅅㅣㄴ	-6494
▁ㅈㅜㅇㄱㅜ	-6495
▁ㅎㅏㄷㅡㅇ	-6496
▁ㅌㅗㅇㄹㅗ	-6497
▁ㅁㅕㅇㅅㅏ	-6498
▁ㅁㅗㄱㅈㅗ	-6499
▁ㅍㅛㅂㅗㄴ	-6500
ㅊㅏㅈ	-6501
ㅔㅅㅕㄹ	-6502
▁ㅇㅏㄴㅇㅑㅇ	-6503
▁ㄷㅐㅇㅢ	-6504
▁ㄴㅗㅇㅣㄴ	-6505
▁ㅇㅠㅇㅣㄴ	-6506
▁ㅈㅓㄱㅇㅓㄷㅗ	-6507
▁ㅇㅗㅇㅎㅗ	-6508
▁ㅇㅜㅇㅣㄱ	-6509
▁ㄷㅏㅇㅣㄴ	-6510
▁ㅁㅜㅅㅓㄴ	-6511
▁ㅇㅐㄹㄹㅓㄴ	-6512
▁ㅂㅗㅌㅗㅇㅎㅏㄱㄱㅛ	-6513
▁1927	-6514
av	-6515
ㅊㅡㅁ	-6516
ㅔㄷㅏ	-6517
▁ㅇㅢㅂㅕㅇ	-6518
ㄹㅏㅇㅣㅌㅓ	-6519
ㅜㅇㅔㄹ	-6520
▁ㅅㅗㅇㄹㅏㅇㅣㅌㅓ	-6521
▁ㅂㅓㄱ	-6522
▁ㅍㅔㅅㅡㅌ	-6523
ㅌㅔㄱ	-6524
▁ㅂㅜㄱㄷㅗㅇㅉㅗㄱ	-6525
▁ㄴㅔㄹ	-6526
▁ㅎㅣㅅㅡ	-6527
ㅇㅕㅇㅅㅏㅇ	-6528
▁ㅂㅗㅈㅘ	-6529
▁ㅌㅐㅈㅏ	-6530
▁ㅊㅏㅇㄱㅏㄴ	-6531
ㅔㅂㅏ	-6532
▁ㅅㅓㄴㅈㅔ	-6533
▁ㄷㅏㅋㅠㅁㅔㄴㅌㅓㄹㅣ	-6534
▁ㄱㅘㅈㅏㅇ	-6535
▁ㅎㅗㄹㄹㅗ	-6536
▁ㅈㅜㄴㅇㅜㅅㅡㅇ	-6537
▁ㅇㅕㄴㅅㅗ	-6538
▁ㅅㅏㄴㅇㅏㄱ	-6539
▁ㄱㅣㅇㅏㅂ	-6540
▁ㅈㅏㅁㅜㄴ	-6541
▁ㅌㅡㅇㅟㄴ	-6542
▁1907	-6543
▁ㄴㅐㅈㅏㅇ	-6544
ㅡㅂㅏ	-6545
▁ㅇㅏㄴㅂㅗ	-6546
▁ㄹㅡㅇ	-6547
▁ㄷㅐㅎㅐㅇ	-6548
▁ㅇㅠㅅㅣㄴ	-6549
▁1926	-6550
ㅌㅣㅇㅜㅁ	-6551
▁ㅈㅓㅇㄹㅠㅈㅏㅇ	-6552
▁ㅇㅜㅋㅡㄹㅏㅇㅣㄴ	-6553
▁ㅍㅡㄹㄹㅔ	-6554
▁ㅋㅓㅈㅣ	-6555
▁ㅋㅓㅍㅣ	-6556
▁ㅈㅏㅁㅈㅐ	-6557
▁ㅍㅏㅇㅜㄹ	-6558
▁ㅂㅕㄹㄹㅗ	-6559
▁ㅇㅠㅇㅣㅂ	-6560
▁ㄷㅣㅈㅡㄴㅣ	-6561
▁ㅊㅚㅇㅜㅅㅜ	-6562
▁ㄱㅛㅊㅏ	-6563
ㅋㅗㄱ	-6564
ㅕㄷㅡㄹ	-6565
▁ㅎㅡㄺ	-6566
▁ㅁㅗㄹㅗ	-6567
▁ㅌㅏㅂㅅㅡㅇ	-6568
▁ㅇㅖㅇㅚ	-6569
▁ㅎㅏㅅㅏ	-6570
ㅎㅐㄱㅜㄴ	-6571
▁ㅅㅡㅍㅔㅅㅕㄹ	-6572
▁ㅅㅜㄱㅏㅁ	-6573
▁ㅇㅠㄴㅣㅅ	-6574
▁ㅇㅘㅇㄹㅣㅂ	-6575
▁168	-6576
▁ㅅㅓㄱㅈㅗ	-6577
▁BBC	-6578
▁ㄷㅡㄹㅐㄱㅗㄴ	-6579
▁ㅎㅕㅂㅇㅢㅎㅚ	-6580
▁PD	-6581
ㄹㄹㅓㄴ	-6582
▁ㅁㅛㅈㅣ	-6583
▁ㅈㅗㄱㅣ	-6584
AC	-6585
▁ㅎㅗㄴㅏㅁ	-6586
▁ㅅㅏㅇㅇㅕㅇ	-6587
▁ㅍㅣㄹㄹㅏ	-6588
▁ㅇㅕㄴㄱㅗㅈㅣ	-6589
ㅂㅜㅅㅏ	-6590
▁ㅇㅠㅌㅠㅂㅡ	-6591
▁He	-6592
▁ㅂㅔㅌㅗㅂㅔㄴ	-6593
▁ㄱㅡㅂㅅㅗㄱ	-6594
▁ㅍㅡㄹㄹㅐㄴ	-6595
▁ㄱㅣㄹㅡㅁ	-6596
▁ㅎㅏㅊㅓㄴ	-6597
▁ㅂㅓㄴㅅㅣㄱ	-6598
▁ㄷㅐㅇㅏㄴ	-6599
ㄴㅐㅇ	-6600
▁ㅌㅔㅁ	-6601
ㄷㅏㄷㅡ	-6602
▁ㅇㅔㄹㅣㄱ	-6603
▁ㄱㅘㅇㅇㅕㄱ	-6604
▁ㅍㅏㅇㅜㄴㄷㅡ	-6605
ㅍㅔㅇㅣㅈㅣ	-6606
▁ㅅㅏㅇㅎㅏㅇㅣ	-6607
ㅌㅓㅂㅔㅇㅣㅅㅡ	-6608
▁ㅅㅏㄴㅈㅣ	-6609
ㄷㅏㅇㅣㄹㅏ	-6610
▁ㄷㅗㄱㅇㅣㄹㅇㅓ	-6611
ind	-6612
▁ㄷㅔㅇㅣㅌㅓㅂㅔㅇㅣㅅㅡ	-6613
▁Sp	-6614
ㅡㄴㅣ	-6615
▁ㅁㅓㅁㅜㄹ	-6616
▁ㄹㅏㅇㅣㅂㅓㄹ	-6617
ㄷㅗㄴㅣㅇㅏ	-6618
▁ㅇㅗㅋ	-6619
▁ㅈㅏㅇㅠㄹ	-6620
▁ㄷㅐㄱㅛ	-6621
▁ㅇㅏㅁㅜㄹㅓㄴ	-6622
se	-6623
▁ㅎㅏㅂㄱㅖ	-6624
▁ㅅㅐㄱㄲㅏㄹ	-6625
▁ㅈㅓㅁㅅㅓㅇ	-6626
▁ㅋㅓㅁㅠㄴㅣㅌㅣ	-6627
▁ㅅㅏㄹㅛ	-6628
▁ㅅㅓㄴㅈㅣㄴ	-6629
▁ㅈㅏㅇㅅㅏ	-6630
▁ㅎㅗㅁㅍㅔㅇㅣㅈㅣ	-6631
▁ㅅㅔㅈㅗ	-6632
▁ㄱㅡㄹㅏㅇ	-6633
▁ㅎㅡㅇㅁㅣ	-6634
▁ㅋㅜㅅㅡ	-6635
ㅣㅂㅓㄹ	-6636
ame	-6637
ㅌㅔㄴㄷㅗ	-6638
▁ㅈㅏㅈㅓㄴㄱㅓ	-6639
▁ㄴㅣㄴㅌㅔㄴㄷㅗ	-6640
▁NHK	-6641
▁ㅅㅡㅋㅏㅇㅣ	-6642
ㅡㄴㅏㄴ	-6643
▁ㅁㅣㄴㅈㅗㄱㅈㅜㅇㅢ	-6644
▁ㅈㅣㄹㅡㅁ	-6645
▁ㅈㅘㅇㅣㄱ	-6646
ㅊㅗㅇㅈㅏㅇ	-6647
▁ㅌㅡㄱㄱㅡㅂ	-6648
ㅍㅡㄹㅏㄴㅅㅣㅅㅡㅋㅗ	-6649
ㅂㅏㅇㅣ	-6650
▁ㄲㅜㅁㅣ	-6651
▁ㅁㅜㄴㅎㅏ	-6652
▁ㅍㅜㅁㅈㅣㄹ	-6653
▁ㄲㅜㅈㅜㄴㅎㅣ	-6654
▁ㅈㅡㅇㄱㅣ	-6655
▁ㄷㅗㅇㄱㅜ	-6656
▁ㅅㅏㅇㅅㅔ	-6657
ㅅㅐㅇㅁㅜㄹ	-6658
▁ㅂㅏㅇㅇㅏㄴ	-6659
▁ㅅㅐㄴㅍㅡㄹㅏㄴㅅㅣㅅㅡㅋㅗ	-6660
▁1905	-6661
▁ㅁㅏㅇㅗ	-6662
▁166	-6663
▁ㅁㅜㄴㅎㅘㅇㅠㅅㅏㄴ	-6664
▁ㅂㅐㅁ	-6665
▁ㅍㅏㄴㅌ	-6666
▁ㄹㅔㅇㅣㄷㅏ	-6667
▁162	-6668
ㅁㅐㄴ	-6669
ㅂㅣㄱ	-6670
ort	-6671
▁151	-6672
▁ㅋㅏㅅㅡ	-6673
▁ㅇㅝㄴㅅㅏㄴ	-6674
▁ㅈㅜㅇㅢㅈㅏ	-6675
▁ㅌㅡㄹㅓㄱ	-6676
▁ㄷㅏㅇㅇㅕㄴ	-6677
▁ㅂㅏㄴㅎㅘㄴ	-6678
ry	-6679
▁ㄷㅗㄹㅍㅏ	-6680
▁ㅇㅜㄴㅁㅕㅇ	-6681
▁ㅅㅣㅂㅈㅏㄱㅜㄴ	-6682
▁ㅅㅡㅅㅡㅇ	-6683
▁ㅇㅣㄴㄷㅣ	-6684
▁ㄹㅔㅇㅣㅅㅡ	-6685
▁ㅈㅏㅂㅏ	-6686
▁ㄴㅏㄹㄹㅣ	-6687
▁ㅂㅣㅍㅕㅇㄱㅏ	-6688
▁ㅁㅗㅈㅣㅂ	-6689
ㅌㅗㄹㅡ	-6690
▁ㅂㅏㄱㅅㅡ	-6691
▁ㅇㅐㄹㄹㅣ	-6692
▁ㄴㄷㅏㄱㅗ	-6693
▁ㄱㅡㄹㅔㄱㅗㄹㅣ	-6694
▁ㄸㅜㅀ	-6695
▁ㅇㅕㄱㄱㅘ	-6696
ㅁㅐㅅ	-6697
▁ㅁㅏㄹㅡㅌㅣㄴ	-6698
▁ㅍㅔㅅㅡㅌㅣㅂㅓㄹ	-6699
▁02	-6700
▁ㅊㅜㄹㅅㅏㄴ	-6701
ith	-6702
ㅔㅇㅑ	-6703
▁ㅎㅕㄴㅎㅘㅇ	-6704
ㅣㅇㅜ	-6705
▁ㅌㅡㅇㅟ	-6706
▁ㅅㅔㅅㅉㅐ	-6707
▁ㅎㅕㅂㅇㅢ	-6708
ㄷㅓㅇ	-6709
▁ㅍㅗㅋㅡ	-6710
▁ㅇㅓㅁㅁㅏ	-6711
▁ㅈㅗㅅㅓㄴㅇㅣㄴ	-6712
ㅇㅓㅅ	-6713
ES	-6714
▁ㅂㅣㄷㅏㄴ	-6715
▁ㅈㅜㅎㅏㄴ	-6716
▁ㅇㅣㄹㅎㅐㅇ	-6717
▁ㅇㅠㄱㅗㅅㅡㄹㄹ	-6718
▁ㅇㅠㄱㅗㅅㅡㄹㄹㅏㅂㅣㅇㅏ	-6719
ㄷㅐㄱㅛ	-6720
ㅈㅜㄱㅗㄱ	-6721
▁ㅁㅗㄱㄱㅕㄱ	-6722
▁ㄱㅕㅇㅜ	-6723
▁ㅍㅐㄹㅓ	-6724
▁ㅁㅜㄷㅎㅣ	-6725
▁ㅇㅏㄹㄹㅔ	-6726
▁ㅈㅜㅁㅏㄹ	-6727
▁ㄱㅣㅇㅛ	-6728
ㅅㅔㅅㅡ	-6729
ㅋㅜㅅㅡ	-6730
▁ㄷㅗㄹㅣ	-6731
▁ㅋㅏㅍㅔ	-6732
▁158	-6733
▁ㅁㅛㅅㅗ	-6734
▁ㅋㅐㅁ	-6735
▁ㄱㅗㄷㅂㅏㄹㅗ	-6736
▁ㅈㅜㅍㅏ	-6737
▁ㅂㅏㄹㅏㅂㅗ	-6738
▁ㅋㅡㄹㅣㅅㅡㅌㅗ	-6739
▁ㅇㅑㅅㅐㅇ	-6740
▁ㅇㅗㄹㅣㅈㅣㄴㅓㄹ	-6741
▁ㅂㅐㅈㅓㅇ	-6742
▁ㅂㅜㄴㅂㅐ	-6743
▁ㄷㅏㄴㅊㅡㅇ	-6744
ㅡㄹㅏ	-6745
▁ㅈㅓㅇㄱㅖ	-6746
▁ㄱㅣㅈㅓㅁ	-6747
▁ㄷㅗㅅㅣㅁ	-6748
▁ㅇㅗㄷㅣㅅㅕㄴ	-6749
▁||	-6750
ㅜㅇㅓ	-6751
▁ㅈㅣㅂㅏ	-6752
▁ㅂㅗㅈㅓㄴ	-6753
▁ㅎㅏㄴㄴㅏㄹㅏ	-6754
▁ㅂㅜㅅㅣ	-6755
▁ㄱㅏㄹㄹㅣ	-6756
▁ㅁㅜㄴㄱㅘ	-6757
▁ㅋㅜㄴ	-6758
ㅌㅗㅁㅣ	-6759
▁ㄴㅗㅈㅗ	-6760
▁ㅇㅖㅅㄴㅏㄹ	-6761
▁ㄴㅏㅁㅅㅓㅉㅗㄱ	-6762
▁ㅅㅡㅌㅔㅇㅣㅈㅣ	-6763
▁ㄹㅔㄴㅈㅡ	-6764
▁ㅎㅏㄴㄴㅏㄹㅏㄷㅏㅇ	-6765
▁ㅎㅏㄴㅎㅘ	-6766
▁ㅅㅜㅊㅓㄴ	-6767
ㄱㅕㄹㅅㅡㅇ	-6768
▁ㅁㅏㅅㅡ	-6769
▁ㅅㅗㄴㅣ	-6770
▁ㅃㅏㄹㄹㅣ	-6771
▁ㅈㅣㄱㅈㅏㅇ	-6772
ㅇㅓㄱ	-6773
▁ㄷㅗㅇㅈㅓㄴ	-6774
▁ㄱㅣㅇㅛㅇ	-6775
ㅁㅣㄴㅣ	-6776
▁ㅁㅜㄱㅘㄴ	-6777
▁ㅅㅣㄴㅇㅣㅁ	-6778
ㄹㅕㄴㅏ	-6779
▁ㅂㅗㄱㅈㅔ	-6780
▁ㅇㅜㄴㅂㅏㄴ	-6781
▁ㅅㅏㅁㅕㄴ	-6782
▁ㅅㅏㅇㅅㅗ	-6783
▁ㅇㅣㅂㅈㅡㅇ	-6784
▁ㅁㅜㄴㅈㅔㅈㅓㅁ	-6785
▁ㅂㅓㄱㅡ	-6786
▁ㄷㅚㅊㅏㅈ	-6787
▁ㄱㅡㅂㅎㅐㅇ	-6788
ㄹㅣㅋㅔㅇㅣㅅㅕㄴ	-6789
▁ㄷㅗㅇㅇㅕㅇㅅㅏㅇ	-6790
▁ㄸㅡㄱ	-6791
▁ㅂㅏㅌ	-6792
▁ㅈㅣㅈㅣㄹ	-6793
▁ㅇㅣㄴㅌㅔㄹ	-6794
▁ㅈㅓㄱㅅㅐㄱ	-6795
▁ㅊㅜㄹㅍㅏㄴㅅㅏ	-6796
▁ㅂㅡㄹㅏㅇㅣㅇㅓㄴ	-6797
ㅅㅡㅂㅗㄹ	-6798
▁ㄱㅙ	-6799
▁ㅅㅣㄴㅂㅣ	-6800
ㄹㅔㅇㅣㅅㅕㄴ	-6801
▁ㄹㅣㅇㅏ	-6802
▁ㅋㅔㅇㅣㅂㅡㄹ	-6803
ok	-6804
▁Un	-6805
▁ㄷㅗㅇㅊㅣ	-6806
▁ㅇㅣㄴㅊㅣ	-6807
▁ㅍㅐㅁ	-6808
ㅈㅏㅂㅎㅣ	-6809
ㅌㅡㄹㅓㅁ	-6810
▁ㅎㅗㅎㅘㄴ	-6811
▁ㄱㅣㄴㄱㅡㅂ	-6812
▁ㅈㅣㅎㅟㅈㅏ	-6813
▁ㄷㅣㅈㅏㅇㅣㄴㅓ	-6814
▁ㅂㅔㅇㅣㅅㅡㅂㅗㄹ	-6815
▁ㅎㅏㅂㅈㅏㄱ	-6816
▁ㅇㅖㅇㅓㄴ	-6817
▁ㅂㅐㅈㅔ	-6818
▁ㅍㅡㄹㅐㄴ	-6819
▁ㅂㅓㄴㅈㅜ	-6820
▁ㅍㅏㄴㅌㅏㅈㅣ	-6821
▁ㄱㅣㄴㅕㅁㅁㅜㄹ	-6822
▁ㅋㅗㄹㄹㅗㅁㅂㅣㅇㅏ	-6823
▁ㅇㅕㄴㅈㅜㅈㅏ	-6824
▁ㄷㅜㄷㅡㄹ	-6825
ㅋㅙ	-6826
▁ㄱㅛㅈㅓㄴ	-6827
▁ㄷㅏㄴㅈㅗㅇ	-6828
▁ㅈㅓㅈㅣㄹㅡ	-6829
▁ㅈㅣㄴㅈㅣ	-6830
▁ㅎㅑㅇㄴㅕㄴ	-6831
ㄷㅣㅅㅡ	-6832
▁ㅋㅏㅈㅏ	-6833
ㅌㅡㄹㅗㄹ	-6834
▁ㅅㅏㅈㅣㄱ	-6835
ㅈㅡㄴㅣㅅㅡ	-6836
▁ㄹㅚ	-6837
▁ㅎㅚㅇㅝㄴㄱㅜㄱ	-6838
▁ㅁㅜㅅㅣㄴ	-6839
▁ㅇㅔㅅㅡㅍㅏㄴ	-6840
▁ㅇㅡㅁㅁㅗ	-6841
▁ㅂㅣㅈㅡㄴㅣㅅㅡ	-6842
▁ㅁㅓㄹㅌㅣ	-6843
▁ㅁㅗㅅㅜㄴ	-6844
▁ㅊㅗㄹㅐ	-6845
▁ㄱㅘㄴㅈㅏㅇ	-6846
▁ㅇㅖㅅㅜㄹㄱㅏ	-6847
ㅛㄱ	-6848
▁ㅈㅘㅅㅓㄱ	-6849
▁ㅁㅣㅁㅏㄴ	-6850
▁ㅎㅏㄷㅡㅇㅞㅇㅓ	-6851
▁ㅂㅜㅍㅐ	-6852
ㄹㅜㅅㅏㄹ	-6853
ㄹㅜㅅㅏㄹㄹㅔㅁ	-6854
▁ㄷㅗㅁㅔㅇㅣㄴ	-6855
▁ㄱㅣㅈㅐ	-6856
▁ㅇㅛㅇㄱㅣ	-6857
qu	-6858
▁ㅅㅜㅁㅕㄴ	-6859
▁ㅈㅣㅂㄱㅖ	-6860
▁ㅃㅜㄹ	-6861
▁ㄱㅏㄱㅔ	-6862
ㅌㅏㅇㅜㄴ	-6863
▁ㅇㅕㄱㅁㅕㅇ	-6864
▁ㅅㅏㄹㅏ	-6865
▁ㅍㅗㅁㅐㅅ	-6866
ㄹㅏㄴㄷㅡㅇ	-6867
▁ㅁㅏㅆㅡㄷㅏㅇㅣㄹㅏ	-6868
▁AM	-6869
▁165	-6870
▁ㄷㅏㅇㅅㅏㅈㅏ	-6871
▁ㅅㅔㄴㅌㅡㄹㅓㄹ	-6872
▁ㅈㅓㅇㄱㅛ	-6873
▁ㅅㅓㄱㅕㅇ	-6874
▁ㅍㅕㅇㅅㅗ	-6875
▁ㅋㅗㄴㅅㅡㅌㅏㄴㅌㅣㄴㅗ	-6876
▁154	-6877
▁ㄸㅏㄴ	-6878
▁ㄴㅐㄹㅠㄱ	-6879
▁1904	-6880
▁ㅈㅏㅎㅚㅅㅏ	-6881
ㅣㅇㅑ	-6882
ㅈㅐㅇㅣㄴ	-6883
▁ㅅㅓㅇㅣㄹ	-6884
▁ㄱㅜㅅㅏ	-6885
▁ㅇㅢㄱㅓ	-6886
ㅂㅗㅅㅏㄹ	-6887
▁ㅁㅏㄹㅏ	-6888
▁ㅇㅜㄷㅡ	-6889
ord	-6890
▁ㅅㅓㄴㅅㅏ	-6891
▁ㅅㅓㄱㅌㅏㅂ	-6892
ㅇㅣㅇ	-6893
▁ㄱㅜㅈㅏㅇ	-6894
▁ㄲㅏㄹ	-6895
ㅌㅡㄹㅡ	-6896
▁ㅌㅜㄹㅡ	-6897
▁ㅇㅘㅇㅈㅗㄱ	-6898
▁ㅅㅡㅌㅣㄹ	-6899
▁ㅅㅣㄴㅇㅛㅇ	-6900
▁ㅎㅏㅇㅇㅣㄹ	-6901
▁ㅅㅡㅋㅗㅅ	-6902
▁ㅇㅣㅂㅎㅣ	-6903
▁ㅍㅏㄷㅗㅇ	-6904
▁ㅅㅡㅍㅔㄱㅌㅡㄹㅓㅁ	-6905
▁Se	-6906
▁ㄱㅐㅅㅜ	-6907
▁ㄱㅘㅈㅔ	-6908
▁ㅎㅣㄱㅏㅅㅣ	-6909
PS	-6910
▁ㅇㅣㄹㅕㄱ	-6911
▁ㅇㅣㅁㅅㅏㅇ	-6912
▁Wh	-6913
▁ㅇㅖㄴ	-6914
ㄱㅓㅈㅣ	-6915
▁ㅇㅏㅂㅂㅏㄱ	-6916
ob	-6917
▁ㅈㅏㅅㅏ	-6918
▁ㄷㅗㅋㅏㅇㅣ	-6919
▁ㅈㅓㄴㅇㅕㅁ	-6920
▁ㅇㅕㅅㅣㄴ	-6921
▁ㅊㅐㄹㄹㅣㄴ	-6922
▁ㅇㅕㄷㅗㅇㅅㅐㅇ	-6923
▁ㄱㅝㄴㄱㅗ	-6924
▁DJ	-6925
▁ㄷㅗㅇㅅㅏ	-6926
ㅅㅣㄱㅁㅜㄹ	-6927
▁ㄴㅏㅌ	-6928
▁ㅇㅛㅇㅅㅏㄴ	-6929
▁ㅈㅏㅇㅍㅕㄴ	-6930
▁ㅁㅏㅋㅔㅌㅣㅇ	-6931
▁ㄱㅖㄷㅏㄴ	-6932
▁ㅇㅖㄹㅜㅅㅏㄹㄹㅔㅁ	-6933
▁ㅈㅐㅁㅜ	-6934
▁SF	-6935
▁ㅇㅐㄴㄷㅡㄹ	-6936
▁ㅈㅣㄴㅅㅏㅇ	-6937
▁ㅈㅓㅇㅈㅏ	-6938
▁ㅇㅣㅁㅕㅇㅂㅏㄱ	-6939
IC	-6940
ㅣㄱㅡ	-6941
▁900	-6942
▁ㄱㅕㅂㅊㅣ	-6943
ㅊㅕㅈㅣ	-6944
▁163	-6945
▁167	-6946
▁ㅎㅖㅅㅓㅇ	-6947
▁ㅅㅡㅁㅏㅌㅡㅍㅗㄴ	-6948
ㅇㅜㅇㅖㄴ	-6949
ㅁㅜㄴㅎㅏㄱ	-6950
▁ㅇㅑㄱㅣ	-6951
ate	-6952
ㅍㅐㅇ	-6953
▁ㅁㅣㅇㅑㄴ	-6954
▁ㅊㅏㄱㅘㄴ	-6955
ㅅㅣㄴㅗ	-6956
ㄹㅗㄱㅡ	-6957
▁ㄱㅔㅅㅣ	-6958
ㄷㅣㄱ	-6959
▁ㅎㅡㅇㅎㅐㅇ	-6960
▁ㄱㅏㄷㅡㄱ	-6961
▁ㄷㅐㄷㅏㄴ	-6962
▁ㅅㅡㅋㅜㄹ	-6963
▁ㅅㅡㅍㅣㄷㅡ	-6964
▁ㅈㅗㄹㅠ	-6965
▁156	-6966
ㅋㅗㅅ	-6967
▁ㅅㅏㅂㅓㅁ	-6968
▁ㅅㅏㅇㅇㅣㅁ	-6969
▁ㅍㅣㄹㅔㄴ	-6970
▁ㅂㅏㄷㅊㅣㅁ	-6971
▁ㅁㅏㅋㅔㄷㅗㄴㅣㅇㅏ	-6972
▁ㅁㅜㅅㅡㄹ	-6973
▁ㄴㅗㅁㅜㅎㅕㄴ	-6974
ㄱㅣㄴ	-6975
▁ㄱㅛㅅㅓㅂ	-6976
▁ㅇㅓㄹㅇㅡㅁ	-6977
▁ㄲㅣㄹㅣ	-6978
▁ㄷㅐㅈㅗ	-6979
▁ㅊㅏㅊㅔ	-6980
▁ㅎㅞㅅㅗㄴ	-6981
▁ㄹㅣㅌㅜㅇㅏㄴ	-6982
▁ㅁㅜㅅㅡㄹㄹㅣㅁ	-6983
▁ㄴㅣㅅㅡ	-6984
▁ㅅㅡㅍㅣㄴ	-6985
▁ㅂㅣㅈㅏㄴㅌㅣㅇㅜㅁ	-6986
▁ㅅㅣㄴㅎㅏ	-6987
▁ㄷㅣㅂㅣㅈㅓㄴ	-6988
▁ㅅㅣㅅㅡ	-6989
▁ㄱㅗㄹㅣㅂ	-6990
▁ㅂㅜㅎㅡㅇ	-6991
▁ㅅㅛㄱㅜㄴ	-6992
ㅂㅏㄹㅏ	-6993
▁ㄹㅏㅁㅏ	-6994
ㅌㅓㄱ	-6995
▁ㅂㅜㄴㅈㅣ	-6996
▁ㅅㅓㅇㅜㄹㅅㅣ	-6997
▁AS	-6998
▁ㄱㅠㄱㅕㄱ	-6999
ㅏㅇㅜㄴㅅㅓ	-7000
▁ㅎㅐㅇㅈㅓㅇㅂㅜ	-7001
▁ㅇㅏㄴㅏㅇㅜㄴㅅㅓ	-7002
ㅏㅇㅇㅣ	-7003
▁ㅈㅗㄹㅡ	-7004
▁ㅌㅔㄹㅡ	-7005
▁ㅇㅖㄴㅡㅇ	-7006
▁ㅁㅣㄹㅈㅓㅂ	-7007
▁ㅊㅏㄱㄹㅠㄱ	-7008
ㅈㅣㄹㅡ	-7009
▁ㅅㅣㄱㅅㅏ	-7010
▁ㅋㅡㄹㄹㅗ	-7011
▁ㅂㅔㄴㅔㅅ	-7012
▁ㅇㅕㄴㅇㅐ	-7013
▁ㅇㅗㄹㅣㅇ	-7014
ㅂㅔㄹㅡㅌㅡ	-7015
▁ㅋㅡㄹㅔ	-7016
ㅋㅔㅇㅣㄴ	-7017
ㅌㅣㅇㅏㄴ	-7018
▁ㅈㅗㄱㅜㄱ	-7019
▁ㅅㅓㅇㄱㅗㅇㅎㅚ	-7020
▁ㅎㅏㄴㅇㅑㅇ	-7021
▁ㅆㅢ	-7022
▁ㅈㅓㅇㅂㅓㄹ	-7023
▁ㄱㅏㄴㅈㅓㅂ	-7024
▁UN	-7025
▁ㅈㅣㅈㅜ	-7026
▁ㅊㅣㄴㅈㅓㅇ	-7027
▁ㅌㅔㅇㅗ	-7028
ㄸㅡㅅ	-7029
▁ㅁㅐㅂ	-7030
▁ㄹㅔㅈㅣ	-7031
▁ㅈㅜㄹㅣㅂ	-7032
ㅌㅏㅋㅏ	-7033
▁ㅌㅡㄹㅔ	-7034
▁ㅈㅓㅁㅇㅠ	-7035
▁ㅎㅏㄴㄱㅏㅇ	-7036
ㅈㅡㅁㅣ	-7037
▁ㅋㅗㅇㄱㅗ	-7038
▁ㄱㅣㅇㅏ	-7039
▁ㅇㅝㄹㄱㅏㄴ	-7040
ET	-7041
▁ㅇㅐㄱㅜㄱ	-7042
▁ㅊㅜㄹㄱㅜ	-7043
▁ㅅㅣㄷㅏㄹㄹㅣ	-7044
▁ㅇㅠㅇㅎㅏㅂ	-7045
▁ㅈㅣㅌ	-7046
ㅇㅓㅌㅡ	-7047
▁ㄱㅏㄴㅏ	-7048
▁ㅇㅏㅎㅗ	-7049
▁ㅊㅜㅇㄴㅏㅁ	-7050
▁ㅇㅘㅈㅜㅇ	-7051
▁ㅊㅐㅁㅍㅣ	-7052
▁ㅎㅏㄱㅍㅏ	-7053
ㅍㅐㄴ	-7054
▁ㅅㅡㅍㅏ	-7055
ㅈㅏㅂㅇㅣ	-7056
▁ᆯㅅㅜㄹㅗㄱ	-7057
ast	-7058
▁ㅂㅐㅇㅋㅡ	-7059
▁ㅇㅛㅇㄹㅑㅇ	-7060
▁ㅂㅜㅌㅗㅇㄹㅕㅇ	-7061
▁ㅇㅓㅆㅇㅓㅆ	-7062
▁ㄱㅣㅌㅏㄹ	-7063
▁ㅆㅏ	-7064
▁ㄱㅓㅇㅣㄴ	-7065
▁ㅇㅣㄹㅇㅛㅇㅣㄹ	-7066
▁ㅇㅗㅋㅔㅅㅡㅌㅡㄹㅏ	-7067
▁ㅅㅡㅌㅏㅋㅡㄹㅐㅍㅡㅌㅡ	-7068
▁ㅇㅗㅂㅓ	-7069
▁ㄹㅜㄹ	-7070
ㅅㅡㅌㅣ	-7071
▁ㅈㅏㅁㅏ	-7072
▁ㅍㅡㄹㅗㅅ	-7073
▁ㅇㅛㅋㅡ	-7074
▁ㄴㅗㅇㄷㅗ	-7075
▁ㅂㅏㄹㅎㅛ	-7076
▁ㅁㅗㄹㄹㅏㄱ	-7077
▁ㅅㅓㄴㄷㅜ	-7078
ㅃㅕ	-7079
▁ㄷㅜㅅㅏㄴ	-7080
▁ㄱㅜㄹㅗ	-7081
▁ㅇㅏㅂㅣ	-7082
▁ㅊㅚㅅㅣㄴ	-7083
▁ㅈㅣㄴㄴㅏㄹㅏ	-7084
ㅠㅋㅣ	-7085
▁ㄱㅚㅇ	-7086
▁ㄱㅟㅎㅘㄴ	-7087
▁ㅈㅣㅈㅏㅇ	-7088
▁ㅊㅏㅁㅍㅏㄴ	-7089
▁ㅅㅏㄹㅗ	-7090
▁ㅅㅣㅊㅔ	-7091
▁ㅌㅜㅁㅕㅇ	-7092
▁ㄱㅐㅂㅏㄹㅈㅏ	-7093
▁MVP	-7094
▁ㅇㅣㅌㅗ	-7095
▁ㄱㅗㅇㄱㅘ	-7096
▁ㄸㅡㄱㅓㅂ	-7097
▁ㅂㅏㄹㅈㅗㄱ	-7098
ㄷㅔㅇㅣㅌㅡ	-7099
▁ㅈㅜㅇㄱㅜㄱㅇㅓ	-7100
▁ㄱㅡㄹㅏ	-7101
▁ㅅㅡㅌㅡㄹㅣㅌㅡ	-7102
▁139	-7103
▁ㄱㅏㅇㅇㅕㄴ	-7104
▁ㅇㅘㄹ	-7105
ㄱㅣㄹㅇㅣ	-7106
▁ㅇㅟㅈㅜ	-7107
▁ㅅㅓㅇㅈㅗㅇ	-7108
▁ㅇㅓㅂㄷㅔㅇㅣㅌㅡ	-7109
▁ㅇㅐㅍㅡㄹㄹㅣㅋㅔㅇㅣㅅㅕㄴ	-7110
▁DS	-7111
▁ㅇㅘㄴㅎㅘ	-7112
▁ㅈㅓㄴㅈㅏㅇ	-7113
ㅔㄹㅣㅇㅏ	-7114
▁ㄷㅐㄹㅕㅇ	-7115
▁ㅁㅏㅊㅓㄴ	-7116
▁ㅇㅣㄹㅣ	-7117
▁ㅅㅏㅇㅣㄴ	-7118
▁HIV	-7119
▁ㅇㅠㅎㅏ	-7120
ㄹㅓㅁㅂㅣㅇㅏ	-7121
▁ㄲㅗㄹ	-7122
▁ㅅㅏㄹㅡ	-7123
▁ㅈㅓㄴㅇㅣ	-7124
▁145	-7125
▁ㄱㅗㄱㅐ	-7126
▁ㄱㅕㅇㅅㅏ	-7127
▁ㅊㅜㅇㅅㅓㅇ	-7128
▁ㅇㅣㅈㅣ	-7129
▁ㅅㅏㅇㅁㅜ	-7130
▁ㅅㅓㅇㅕㄹ	-7131
▁ㄱㅗㅇㅇㅛㅇ	-7132
▁ㅇㅡㅇㅇㅜㅇㅖㄴ	-7133
if	-7134
▁ㅇㅣㅅㅠ	-7135
▁ㄷㅣㅈㅔㄹ	-7136
▁ㅅㅣㄷㅡㄴㅣ	-7137
▁ㅍㅣㄹㅔㄴㅊㅔ	-7138
▁ㅋㅣㄹㄹㅗㅁㅣㅌㅓ	-7139
AD	-7140
ㅌㅡㄹㅐㄱ	-7141
▁ㄱㅕㅇㅅㅓㄴ	-7142
▁ㅊㅡㄱㄱㅡㄴ	-7143
▁ㅅㅓㅇㅣㄹㅂㅗㄴ	-7144
▁ㅋㅡㄹㄹㅣㄴ	-7145
▁ㄱㅣㅌㅏㄹㅣㅅㅡㅌㅡ	-7146
▁ㅇㅕㄷㅓ	-7147
▁ㄱㅜㄷㅗㅇ	-7148
▁ㄱㅓㅁㅈㅡㅇ	-7149
ㅌㅡㄹㅣㄱ	-7150
▁ㅎㅐㅇㅣㄴ	-7151
▁ㅈㅜㅇㄷㅗㄱ	-7152
▁ㅈㅜㄴㄱㅕㄹㅅㅡㅇ	-7153
▁ㅋㅚ	-7154
▁ㄱㅘㄴㅊㅏㄹㅅㅏ	-7155
ive	-7156
ㅁㅏㅈ	-7157
▁ㅅㅏㅁㅕㅇ	-7158
▁ㅅㅣㅇㅏ	-7159
▁ㅇㅘㅇㅣㄴ	-7160
▁ㅇㅏㅇㅣㄷㅣㅇㅓ	-7161
▁ㄲㅓㅂ	-7162
IT	-7163
▁ㅊㅏㄱㅅㅜ	-7164
▁ㅎㅕㅇㅂㅓㅂ	-7165
▁ㅇㅛㅁㅣㅇ	-7166
▁ㅇㅛㅁㅣㅇㅜㄹㅣ	-7167
ㅗㄴㄷㅡ	-7168
▁ㅇㅏㅈㅗㅇ	-7169
▁ㅎㅐㅈㅓㄴ	-7170
ㅂㅡㄹㄹ	-7171
ㅔㄴㅈㅣ	-7172
ㅔㅅㅡㅋㅗ	-7173
▁ㅈㅓㄴㄹㅠ	-7174
▁ㄱㅗㅈㅗ	-7175
▁174	-7176
▁ㅇㅜㅈㅣ	-7177
▁ㄱㅓㅅㅡㄹㅡ	-7178
▁ㄱㅗㅇㅈㅓㄴ	-7179
▁ㄱㅘㄴㄱㅘㅇㄱㅐㄱ	-7180
▁ㅌㅗㄹㅡ	-7181
▁ㅅㅓㄱㅌㅏㄴ	-7182
▁ㅅㅣㄴㅋㅏㄴ	-7183
▁ㅁㅗㅁㄱㅣㄹㅇㅣ	-7184
▁ㅂㅔㅇ	-7185
▁ㅈㅣㄱㅏㄱ	-7186
ack	-7187
ure	-7188
ㅁㅗㅌㅗ	-7189
▁ㄱㅝㄴㅇㅠ	-7190
▁ㅈㅓㄴㅇㅣㅁ	-7191
▁ㅅㅜㅎㅏㄱㅈㅏ	-7192
▁ㅈㅔㅇㅢ	-7193
▁ㄱㅠㅁㅕㅇ	-7194
▁IP	-7195
ㅡㄹㅅㅡ	-7196
▁ㅇㅔㄹㅣ	-7197
ㅅㅡㅂㅜㄹㅡㅋㅡ	-7198
▁ㄱㅘㄴㅅㅡㅂ	-7199
▁1896	-7200
▁ㅈㅘㅍㅛ	-7201
▁ㄹㅣㅌㅜㅇㅏㄴㅣㅇㅏ	-7202
▁ㄹㅗㅂㅔㄹㅡ	-7203
▁ㅊㅓㄴㅁㅜㄴㅎㅏㄱ	-7204
▁ㄲㅡㄴ	-7205
▁ㅈㅓㄴㅈㅣ	-7206
▁ㅅㅗㅈㅐㅈㅣ	-7207
▁ㅅㅗㅅㅗㅇㅂㅓㅂ	-7208
▁ㄹㅗㅂㅣㄴ	-7209
▁ㅅㅣㄹㅇㅛㅇ	-7210
▁Ar	-7211
▁ㅅㅏㅇㅅㅏㅇ	-7212
▁ㄴㅐㄹㅕ	-7213
▁ㅈㅓㅈ	-7214
▁ㅊㅓㅇㅇㅘ	-7215
▁ㅍㅏㄴㅁㅐㄹㅑㅇ	-7216
▁ㄴㅗㄷㅗㅇㅈㅗㅎㅏㅂ	-7217
ㅈㅐㄱ	-7218
▁ㅂㅜㄷㅗ	-7219
▁ㅇㅕㄷㅓㄼ	-7220
▁ㅈㅓㅇㅊㅏㄹ	-7221
▁ㅊㅐㄱㅂㅗㅇ	-7222
▁ㅅㅛㅍㅣㅇ	-7223
ㅈㅡㅋㅏ	-7224
▁ㅎㅗㅍㅕㅇ	-7225
▁ㅅㅏㄹㅇㅏㄱㅏ	-7226
▁ㅅㅔㄹㅖ	-7227
ㄱㅠㄴㄱㅘㄴ	-7228
▁ㅂㅐㄱㅅㅣㄴ	-7229
▁ㅈㅗㄴㄱㅕㅇ	-7230
▁ㅌㅗㅇㅎㅐㅇ	-7231
iv	-7232
▁ㅂㅜㅈㅏ	-7233
▁ㅈㅏㅁㅕㄴ	-7234
▁ㅅㅓㅇㅂㅕㄱ	-7235
▁ㅊㅓㅇㅇㅘㄷㅐ	-7236
ock	-7237
ㅅㅠㄹ	-7238
▁5000	-7239
▁ㅊㅣㄴㅅㅓㄴ	-7240
▁ㅈㅓㄱㅣㅇㅏㅂ	-7241
▁ㄷㅜㄹㄹㅓㅆㅏㅇㅣ	-7242
▁ㅇㅗㄷㅏ	-7243
▁ㅍㅣㄴㅏㄴ	-7244
▁152	-7245
▁ㅅㅜㅅㅣㄴ	-7246
▁ㅍㅕ	-7247
▁ㅇㅏㅅㅔ	-7248
▁ㅇㅡㄹㅕ	-7249
▁ㅈㅗㅇㅛㅇ	-7250
▁ㅍㅡㄹㅗㅅㅔㅅㅡ	-7251
▁ㅎㅏㅌㅡ	-7252
▁ㅈㅏㅇㅅㅓㅇ	-7253
▁ㅎㅐㅇㅈㅣㄴ	-7254
ck	-7255
ㅜㄷㅡ	-7256
▁ㅂㅜㄹㄹ	-7257
▁ㅅㅔㅁ	-7258
▁ㅁㅏㄹㅣㅇㅗ	-7259
▁ㅁㅜㄴㅈㅐㅇㅣㄴ	-7260
▁ㅂㅗㄱㅅㅗ	-7261
▁ㅁㅣㅅㅏ	-7262
▁ㅌㅗㄴㅣ	-7263
▁ㅇㅕㅁㅅㅐㄱ	-7264
▁ㅈㅓㄴㅈㅣㄴ	-7265
▁ㅍㅔㅇㅓ	-7266
ㅓㄹㅣㅇ	-7267
▁ㅅㅣㄴㅈㅓㄴ	-7268
▁157	-7269
ㅂㅡㄹㅣ	-7270
▁ㅅㅣㅇㅚㅂㅓㅅㅡ	-7271
▁ㅍㅡㄹㅗㄱ	-7272
▁ㅇㅏㄱㅁㅏ	-7273
▁ㅊㅟㅇㅑㄱ	-7274
▁ㅆㅗㄷ	-7275
ㅅㅏㄴㅁㅜㄹ	-7276
ㄲㅗㄹ	-7277
▁ㅈㅓㄴㅁㅜㄴㅎㅏㄱㄱㅛ	-7278
▁ㅌㅔㅇㅣㄹㄹㅓ	-7279
▁ㄱㅕㅌ	-7280
▁ㅂㅣㄱㅡㄱ	-7281
▁ㅇㅕㄴㄱㅜㅈㅏ	-7282
ㅔㄱㅣ	-7283
▁ㄱㅜㅈㅔ	-7284
▁ㄱㅗㄹㅕㅇ	-7285
▁ㅈㅏㅅㅗㄴ	-7286
▁ㄱㅘㄴㄴㅕㅁ	-7287
▁ㄷㅐㅇㅚ	-7288
▁MP	-7289
ㅜㅁㅣ	-7290
▁ㅇㅑㅇㅅㅏㅇ	-7291
▁ㄱㅘㅁㅗㄱ	-7292
▁ㅇㅣㄴㄱㅘ	-7293
ㅎㅕㄱㅁㅕㅇ	-7294
▁ㅇㅓㄹㅁㅏㄴㅏ	-7295
▁ㄱㅡㅂㅈㅣㄴ	-7296
ㅋㅏㄷㅡ	-7297
▁ㅈㅣㅂㅜㄴ	-7298
▁ㅈㅜㄴㄱㅗㅇ	-7299
▁ㅎㅏㄹㄷㅏㅇ	-7300
▁ㄱㅣㅇㅜㄹㅇㅣ	-7301
▁ㅅㅙ	-7302
▁ㅇㅠㄴㅕㄴ	-7303
▁ㄱㅡㅁㅅㅓㅇ	-7304
▁ㄷㅗㅇㄴㅏㅁㅇㅏㅅㅣㅇㅏ	-7305
ㅏㅇㅑ	-7306
▁ㅁㅣㅅㅡㅌㅓ	-7307
▁ㅂㅣㄹㅎㅔㄹ	-7308
▁ㅇㅠㅊㅜㄹ	-7309
▁ㅍㅣㅇㅔㄹㅡ	-7310
ㅊㅏㅇㄱㅣ	-7311
▁ㅁㅣㄹㅇㅑㅇ	-7312
▁ㅈㅜㅅㅏ	-7313
▁ㅁㅏㅊㅏㄹ	-7314
▁ㅂㅓㄴㄴㅚ	-7315
▁ㅁㅣㄴㅏㅁㅣ	-7316
▁ㅌㅚㄱㅏㄱ	-7317
▁ㄱㅘㄴㅎㅕㄴ	-7318
▁ㅅㅣㄱㄷㅏㅇ	-7319
▁ㅈㅔㅎㅠ	-7320
▁ㅌㅡㄹㅐ	-7321
▁ㅊㅏㅇㅇㅓㅂ	-7322
▁ㅎㅚㅅㅜ	-7323
▁ㅁㅣㄷㅇㅡㅁ	-7324
▁ㄷㅗㄱㄹㅣㅂㅇㅜㄴㄷㅗㅇㄱㅏ	-7325
▁ㄹㅜㅅㅜ	-7326
▁ㅇㅣㄹㅎㅘ	-7327
▁ㅁㅜㅎㅛ	-7328
▁ㅂㅣㅇㅏ	-7329
▁ㄹㅓㅅ	-7330
ㅈㅏㅇㅘ	-7331
▁ㅅㅣㄴㅋㅏㄴㅅㅔㄴ	-7332
▁ㅅㅓㄷㅗㄱ	-7333
▁ㅋㅏㅌㅏㄹ	-7334
ㅁㅜㄴㄱㅘㄴ	-7335
▁ㅇㅕㅇㅢ	-7336
▁ㅎㅐㅇㅣㅁ	-7337
▁ㅈㅏㅇㅇㅣㄴ	-7338
▁ㅇㅏㅇㅜㄹㄹㅓ	-7339
▁ㅇㅡㅇㄷㅏㅂ	-7340
ㅆㅏㅇ	-7341
ㅅㅜㅅㅜ	-7342
12	-7343
▁ㄱㅏㅅ	-7344
▁ㅇㅣㅇㅣ	-7345
ㄲㅡㄹㅓㅂ	-7346
▁ㅊㅓㅇㅇㅝㄴ	-7347
▁ㅎㅏㅂㅓㄷㅡ	-7348
ㅏㄹㅏㅂㅣㅇㅏ	-7349
ㅂㅔㅇㅣㄴ	-7350
▁ㄱㅘㄷㅗ	-7351
▁ㅇㅣㅅㅜㄴ	-7352
▁ㅎㅣㅁㅆㅡ	-7353
▁j	-7354
▁ㅅㅏㅇㄹㅠ	-7355
ㅗㅇㅜ	-7356
▁ㄱㅣㅁㅇㅛㅇ	-7357
▁ㅍㅗㄹㄹㅣㅅㅡ	-7358
▁ㅇㅗㅋㅣㄴ	-7359
ㅁㅏㄹㅡ	-7360
▁ㄷㅏㅁㅂㅐ	-7361
▁ㅅㅗㄱㅡㅁ	-7362
▁ㅍㅡㄹㅗㅌㅗㅋㅗㄹ	-7363
▁ㄱㅔㄹ	-7364
▁ㅎㅢㄱㅡㄱ	-7365
▁ㄸㅏㅇㅟ	-7366
▁ㅇㅔㅁㅣㄹ	-7367
▁ㅇㅕㄴㄹㅜ	-7368
▁105	-7369
▁ㅅㅓㅇㄱㅠㄴㄱㅘㄴ	-7370
▁ㅁㅐㅊㅜㄹ	-7371
▁PS	-7372
▁ㄷㅗㅇㅇㅟ	-7373
▁ㄷㅏㅈㅣ	-7374
▁ㅅㅗㅊㅗㅇ	-7375
ㄷㅔㄹㅍㅣㅇㅏ	-7376
ㅍㅗㄹㄹㅣㅅㅡ	-7377
▁ㅍㅣㄹㄹㅏㄷㅔㄹㅍㅣㅇㅏ	-7378
▁ㅇㅜㄹㅡ	-7379
▁ㅇㅣㅂㅡ	-7380
▁ㅅㅗㄴㅣㄱ	-7381
▁ㅎㅟㅂ	-7382
▁1500	-7383
▁3000	-7384
▁ㅍㅐㅈㅓㄴ	-7385
ㅇㅏㄷㅏㄴㅣ	-7386
▁ㅊㅜㅇㅈㅗㄱ	-7387
▁ㅇㅣㅈㅐ	-7388
▁ㅅㅓㅇㅈㅓㄴ	-7389
▁ㅈㅜㅇㅈㅓㅁ	-7390
ㅓㅂㅣ	-7391
ㅍㅡㅅㅡ	-7392
▁ㄴㅗㄷㅡ	-7393
▁ㅈㅓㅌㅐㄱ	-7394
▁ㅎㅏㅇㄱㅗㅇㅁㅗ	-7395
▁ㅅㅞ	-7396
ㄷㅐㄱㅜㄴ	-7397
ㅈㅓㄴㅈㅏ	-7398
ㅇㅡㄹ	-7399
▁125	-7400
▁ㅇㅔㅇ	-7401
▁ㅂㅗㅇㅣㅇ	-7402
▁ㅇㅜㅈㅓㅇ	-7403
ㅈㅡㄹ	-7404
▁1911	-7405
▁ㄷㅏㄹㅇㅏㄴㅏ	-7406
▁146	-7407
▁MC	-7408
▁ㅁㅛㅇ	-7409
▁ㅂㅏㄱㅇㅕㅇ	-7410
▁ㅎㅡㅌ	-7411
▁Le	-7412
▁ㅇㅒ	-7413
▁ㅇㅜㄹㅏㄴ	-7414
▁ㄷㅏㄴㅈㅓㅁ	-7415
ㅊㅡㅋㅣ	-7416
▁ㅇㅖㅂㅐ	-7417
▁ㅈㅗㅇㅓㄴ	-7418
▁ㅍㅕㄴㄱㅗㄱ	-7419
▁ㅇㅚㅁㅜ	-7420
▁ㄴㅏㅁㅇㅣㄴ	-7421
▁ㅅㅣㄹㅣㅂ	-7422
▁ㅈㅓㄱㅎㅣ	-7423
▁ㅇㅑㄼ	-7424
▁ㄱㅜㄱㅇㅓ	-7425
▁ㅈㅜㄱㅝㄴ	-7426
▁ㅅㅜㄹㅌㅏㄴ	-7427
▁ㅅㅓㅂㅡ	-7428
ㅋㅣㄴㅅㅡ	-7429
▁ㅍㅗㅈㅏㅇ	-7430
▁ㅅㅏㄹㅣ	-7431
▁ㅇㅏㄴㅣㅎㅏ	-7432
▁ㅁㅐㄱㅐ	-7433
▁ㅎㅘㄴㅇㅝㄴ	-7434
▁ㅇㅝㄴㄴㅏㄹㅏ	-7435
ML	-7436
▁ㅁㅣㄴㄱㅜㄱ	-7437
▁ㅇㅜㅈㅜㅅㅓㄴ	-7438
one	-7439
▁Pro	-7440
▁ㄱㅐㅇㅝㄴ	-7441
▁153	-7442
▁ㅅㅓㅅㅓ	-7443
▁ㅅㅗㅈㅣ	-7444
▁ㄴㅏㅁㅇㅑㅇ	-7445
ㄷㅏㄷ	-7446
ㅍㅔㅇㅣ	-7447
▁ㄷㅏㄴㅇㅝㄴ	-7448
▁ㅂㅏㄴㄱㅕㄱ	-7449
▁ㅊㅏㄱㄱㅗㅇ	-7450
▁ㅊㅗㅊㅏㅇㄱㅣ	-7451
▁ㄴㅣㅇㅏ	-7452
▁ㄱㅔㄹㅡㅁ	-7453
▁ㄷㅓㅁ	-7454
▁ㅊㅓㄴㅅㅏ	-7455
▁ㅎㅚㄱㅖ	-7456
▁ㅎㅚㅎㅘ	-7457
▁ㅇㅣㅂㅗㄱ	-7458
▁ㄸㅓㅇㅗㄹㅡ	-7459
▁ㅂㅓㅂㄹㅕㅇ	-7460
▁ㅊㅏㅁㄱㅏㅈㅏ	-7461
▁ㅈㅏㅊㅐㄱㅈㅓㅁ	-7462
▁ㄱㅗㅇㅝㄴ	-7463
▁ㄷㅡㄹㄹㅣ	-7464
▁ㅇㅣㅇㅝㄴ	-7465
▁ㄱㅗㅅㄱㅗㅅ	-7466
▁ㅇㅟㄹㅅㅡㄴ	-7467
▁ㅎㅘㄴㅅㅏㅇ	-7468
ㅇㅗㅅ	-7469
▁ㅈㅣㅈㅣㅈㅏ	-7470
ime	-7471
▁ㅅㅏㅅ	-7472
▁ㅎㅚㄱㅕㄴ	-7473
▁ㄲㅏㅁ	-7474
▁ㅁㅔㅇㅣㄴ	-7475
▁ㅊㅓㅇㅅㅏ	-7476
▁ㄴㅐㄴㅐ	-7477
▁ㄱㅏㅇㅅㅏ	-7478
AP	-7479
▁ㅇㅠㅇㅓㄴ	-7480
▁ㅇㅕㄴㅇㅣㄴ	-7481
ㅅㅏㅇㅅㅡ	-7482
▁ㄴㅏㅇㅕㄹ	-7483
▁ㅇㅣㄹㄹㅔㄱ	-7484
▁ㅈㅔㅌㅡ	-7485
ㅗㄱㄷㅗㄹㅗ	-7486
▁ㅂㅕㄹㅈㅏㄹㅣ	-7487
▁ㅅㅏㄹㅍ	-7488
▁ㅁㅣㅇㅑㄴㅁㅏ	-7489
▁ㅊㅜㅁㅗ	-7490
▁ㄱㅣㅈㅏㅇ	-7491
▁ㅌㅡㄹㅏㅇ	-7492
▁ㄴㅜㄴㅁㅜㄹ	-7493
ㅎㅔ	-7494
▁ㅌㅓㅈㅣ	-7495
▁ㅊㅚㅈㅓㄱ	-7496
▁ㅊㅏㅈㅇㅏㅂㅗ	-7497
▁ㅂㅣㄹㅎㅔㄹㄹㅡㅁ	-7498
▁103	-7499
▁ㅇㅕㄹㅐ	-7500
ㅏㄱㅎㅕㅇ	-7501
▁ㅊㅣㄴㅊㅓㄱ	-7502
▁ㅈㅣㅁㅗㄱ	-7503
▁ㅌㅡㄱㅇㅠ	-7504
▁ㄷㅏㄺ	-7505
▁ㄱㅗㅂㅔ	-7506
ㄷㅜㅎㅘㄴ	-7507
▁ㄱㅡㄴㅈㅓㅂ	-7508
▁ㅅㅏㄹㅍㅕㅂㅗ	-7509
▁ㅈㅐㅁㅣ	-7510
▁ㅎㅜㅈㅏ	-7511
▁ㅂㅟ	-7512
▁ㄷㅣㅇㅗ	-7513
▁ㅂㅐㄱㅜ	-7514
▁ㅅㅗㄱㅘㄴ	-7515
▁ㅊㅜㄹㅇㅣㅂㄱㅜ	-7516
OC	-7517
▁ㅁㅐㄱㅣ	-7518
▁ㄱㅐㅇㅓㅂ	-7519
ㅈㅔㅍㅡ	-7520
▁ㄷㅣㅂㅣ	-7521
▁ㅅㅜㄴㅊㅓㄴ	-7522
▁ㅇㅣㄴㄱㅕㄱ	-7523
▁ㅇㅣㅇㅓㅅㅓ	-7524
▁ㅇㅣㄹㄱㅘㄴ	-7525
▁ㅅㅓㅇㅁㅗ	-7526
ㅇㅏㄱㄷㅏㄴ	-7527
▁ㄷㅜㄹㅡ	-7528
▁ㅌㅡㄹㅐㄴ	-7529
▁ㅇㅏㄹㅡㅁㅔㄴㅣㅇㅏ	-7530
▁ㄱㅗㅇㄹㅑㄱ	-7531
▁ㄷㅐㄷㅏㅂ	-7532
▁ㅇㅗㄷㅣㅇㅗ	-7533
▁ㅁㅣㄴㅅㅏ	-7534
▁ㅂㅣㅌㅡㄹㅈㅡ	-7535
▁ㅈㅓㅇㅊㅣㄱㅏ	-7536
▁ㅂㅜㄱㄷㅗㅇㅂㅜ	-7537
▁ㅅㅏㅈㅣ	-7538
▁ㄱㅗㅇㅇㅣㄴ	-7539
▁ㅈㅜㅇㅈㅏㅇ	-7540
▁ㄱㅏㄹㄹㅏㅈㅣ	-7541
▁ㄱㅏㅇㅅㅜㄹㅑㅇ	-7542
▁ㅇㅠㅎㅐ	-7543
▁ㅇㅜㅍㅕㄴ	-7544
▁ㅇㅣㄴㅎㅕㅇ	-7545
▁ㅈㅜㅁㅓㄴㅣ	-7546
▁ㅇㅟㅈㅏㅇ	-7547
▁ㅋㅓㄴㅌㅡㄹㅗㄹ	-7548
▁ㅈㅔㅎㅜ	-7549
▁ㅈㅣㄴㄹㅣ	-7550
te	-7551
▁ㄹㅔㅂㅏㄴ	-7552
▁ㅅㅣㄹㅈㅗㅇ	-7553
▁ㅎㅕㅂㄷㅗㅇ	-7554
▁ㅇㅏㄱㅜㄴ	-7555
ㅎㅏㄹㅡㅌㅡ	-7556
▁ㄱㅔㄹㅡㅁㅏㄴ	-7557
▁ㅇㅣㄱㅡㄹㅅㅡ	-7558
ㅎㅜㄱㅜㄴ	-7559
▁ㅁㅐㄹㅕㄱ	-7560
▁ㅂㅗㅊㅜㅇ	-7561
▁ㅎㅐㅇㅕㄱ	-7562
ㄷㅗㅇㅁㅜㄹ	-7563
▁ㅎㅏㅇㄱㅗㅇㅁㅗㅎㅏㅁ	-7564
▁ㅇㅗㅋㅏ	-7565
▁ㅅㅓㄴㅇㅝㄴ	-7566
▁ㅈㅜㅍㅏㅅㅜ	-7567
▁ㅍㅕㅇㅎㅐㅇ	-7568
Pa	-7569
ㄴㅓ	-7570
▁ㅇㅏㅁㅜ	-7571
▁ㅌㅗㅋㅡ	-7572
▁ㅎㅓㅂㅡ	-7573
▁ㄹㅔㅈㅓㄴ	-7574
▁ㅈㅡㅇㅎㅜㄱㅜㄴ	-7575
▁ISO	-7576
▁155	-7577
▁ㄱㅔㅈㅐ	-7578
▁ㅁㅣㄴㅇㅕㅇ	-7579
▁ㅇㅣㄹㅈㅗㄱ	-7580
ㄲㅜ	-7581
▁ㅇㅣㅇㅣㄴ	-7582
▁ㅇㅣㅅㅜ	-7583
▁ㅂㅕㄹㄱㅐ	-7584
▁ㅇㅣㅇㅕㅇ	-7585
▁ㅈㅣㄴㄷㅗ	-7586
▁ㄱㅜㄺ	-7587
▁ㅅㅏㅁㅏ	-7588
▁ㅂㅓㅌㅡㄴ	-7589
▁ㅈㅓㄴㄹㅖ	-7590
▁ㅇㅠㄱㅕㄱ	-7591
▁ㅇㅣㅂㅏㄴ	-7592
▁ㅅㅏㅇㅈㅏ	-7593
▁ㅃㅐㅇㅏㅅㄱㅣ	-7594
ㅎㅏㅇㄱㅗㅇ	-7595
▁ㅎㅏㅂㅂㅓㅂ	-7596
ㅂㅏㄷㅊㅣㅁ	-7597
ㅗㄱㅣ	-7598
▁ㄴㅐㅈㅣ	-7599
▁ㅅㅑㄹㅡㄹ	-7600
▁ㄹㅡㄴㅔㅅㅏㅇㅅㅡ	-7601
▁ㅇㅕㅅㅜ	-7602
▁ㅌㅔㅅㅡ	-7603
▁ㄱㅕㅁㅇㅣㅁ	-7604
▁ㅅㅡㅇㅁㅜㅇㅝㄴ	-7605
▁ㄱㅏㄱㅂㅗㄴㄱㅏ	-7606
▁ㄱㅏㄱㄱㅣ	-7607
▁ㅎㅗㅊㅣㅇ	-7608
▁ㄷㅜㄷㅡㄹㅓㅈㅣ	-7609
io	-7610
▁Con	-7611
▁ㅋㅜㄹㅡ	-7612
▁ㅈㅜㅇㅈㅗㅇ	-7613
▁#	-7614
▁ㄱㅏㅁㅣ	-7615
▁ㅎㅔㄷㅡ	-7616
ㄱㅛㅇㅠㄱ	-7617
▁ㅅㅜㅅㅓㅇ	-7618
▁ㄲㅚ	-7619
ㅡㄴㅣㅇㅏ	-7620
▁Bo	-7621
▁ㅇㅕㄴㄷㅗ	-7622
▁ㅈㅏㅂㅏㄹ	-7623
ㅁㅓㄱ	-7624
▁ㅈㅏㄱㅗ	-7625
▁ㅉㅏㄹㅣ	-7626
ㅅㅏㄹㅕㅇ	-7627
▁ㄱㅕㄱㄹㅕㄹ	-7628
ㅍㅗㅅㅡ	-7629
▁ㅇㅠㄱㅛ	-7630
ㅔㄷㅣ	-7631
▁108	-7632
▁ㄱㅡㅁㅇㅐㄱ	-7633
▁ㄷㅗㅇㄷㅡㅇ	-7634
▁ㅇㅏㅇㅗ	-7635
▁ㅋㅐㅅㅡㅌㅣㅇ	-7636
▁ㅎㅣㄷㅔㅇㅛㅅㅣ	-7637
ㅡㅂㅜㄹㅡㅋㅡ	-7638
▁ㅇㅗㄹㅔㄴㅈㅣ	-7639
▁ㅊㅟㅈㅐ	-7640
▁ㅌㅐㅇㅜ	-7641
▁ㅂㅔㄹㅡㅋㅡ	-7642
ㅍㅡㄹㅏ	-7643
▁ㅋㅐㅁㅍㅔㅇㅣㄴ	-7644
ber	-7645
▁ㅅㅏㅇㅈㅏㅇ	-7646
ㅏㅇㅓ	-7647
▁ㄱㅗㅂㅏㄹ	-7648
ㄸㅐㄹㅗ	-7649
▁ㅍㅓㅅ	-7650
ㅅㅗㅅㅡ	-7651
▁ㅌㅗㄹㅣ	-7652
▁ㅅㅐㅇㅇㅣㄹ	-7653
ㅌㅣㅇㅏ	-7654
▁ㅅㅔㄱㅠㄴ	-7655
▁ㄹㅔㅇㅣㅈㅓ	-7656
▁ㅇㅣㅇㅓㅂ	-7657
▁ㅇㅣㅌㅡㄹ	-7658
▁ㅇㅣㅅㅡㄹㄹㅏㅁㄱㅛ	-7659
ㄹㅕㅈㅜ	-7660
ㅅㅣㅌㅣ	-7661
▁ㅈㅡㄹㄱ	-7662
▁ㅊㅣㅅㅔ	-7663
▁ㅈㅓㄱㅈㅏ	-7664
▁ㅈㅓㄴㄷㅜㅎㅘㄴ	-7665
▁ㅍㅗㅅㅜ	-7666
▁ㅅㅏㄴㅌㅏ	-7667
▁ㅎㅐㅇㅜㄴ	-7668
▁ㅇㅕㅇㄷㅗㅇ	-7669
▁ㄷㅡㄹㅏㅇㅣㅂㅡ	-7670
▁ㄴㅏㄱㅗㅇㅑ	-7671
▁ㅂㅏㄱㅌㅏㄹ	-7672
▁ㅇㅏㅍㅁㅕㄴ	-7673
pe	-7674
▁IT	-7675
▁ㅅㅣㅁㅗ	-7676
▁ㅈㅓㅁㅍㅡ	-7677
▁ㅍㅓㅅㅣㅍㅣㄱ	-7678
▁ㅅㅐㅇㅁㅕㅇㅊㅔ	-7679
▁ㅇㅣㄹㅉㅣㄱㅇㅣ	-7680
▁ㅂㅗㄱㅈㅏㅇ	-7681
▁ㅌㅡㄹㅔㅇㅣㄴ	-7682
▁ㅍㅐㅅㅡ	-7683
▁ㅎㅘㅅㅏㄹ	-7684
▁ㄷㅗㅇㄱㅜㄱ	-7685
▁ㅇㅏㄴㅈㅏㅇ	-7686
▁ㅅㅣㅊㅓㅇㅈㅏ	-7687
▁ㅇㅚㄱㅘㄱ	-7688
▁ㅅㅓㅅㅓㅎㅣ	-7689
▁ㅅㅏㅇㅜㄷㅣㅇ	-7690
▁ㅅㅏㅇㄷㅐㅂㅏㅇ	-7691
▁ㅅㅏㅇㅜㄷㅣㅇㅏㄹㅏㅂㅣㅇㅏ	-7692
▁ㅍㅏㅌㅡ	-7693
▁ㄸㅐㄸㅐㄹㅗ	-7694
▁ㅌㅗㅇㅛㅇㅣㄹ	-7695
ㅂㅏㅌ	-7696
▁ㅇㅑㄱㅏㄴ	-7697
▁ㄱㅔㅇㅣㅌㅡ	-7698
▁ㄱㅜㅇㅈㅓㅇ	-7699
▁ㅇㅕㄴㅎㅕㄱ	-7700
▁ㄱㅛㄷㅏㄴ	-7701
▁ㅊㅜㄱㅕㄱ	-7702
▁ㄱㅏㄱㅖ	-7703
▁ㄱㅛㅈㅏㅇ	-7704
▁ㅎㅑㅇㅎㅜ	-7705
▁ㅅㅏㅇㄱㅗㅇ	-7706
▁ㅇㅔㅇㅣㅅㅡ	-7707
▁ㅌㅡㄹㅓㅁㅍㅡ	-7708
▁1909	-7709
▁ㅅㅡㅇㅊㅏ	-7710
▁ㅅㅡㅌㅔㅍㅏㄴ	-7711
▁ㄱㅗㅇㅈㅏ	-7712
▁ㅇㅟㄴㄷㅗ	-7713
ㅏㄴㅌㅡ	-7714
▁ㅇㅣㅅㅏㅈㅏㅇ	-7715
ge	-7716
▁ㅅㅏㅅㅡ	-7717
ㅅㅡㅌㅔㄹ	-7718
▁ㅇㅣㅂㅅㅏㅇ	-7719
▁ㅋㅡㄹㅣㅅㅡㅁㅏㅅㅡ	-7720
▁ㄱㅓㄴㅇㅢ	-7721
▁ㅈㅗㅂㅏㄴ	-7722
▁ㅈㅜㅇㄷㅗ	-7723
▁ㅎㅏㅇㅣㄴㄹㅣㅎㅣ	-7724
ㅎㅘㅈㅓㅁ	-7725
▁ㄱㅣㄱㅡㅁ	-7726
▁ㄱㅣㅁㅇㅕㅇㅅㅏㅁ	-7727
▁ㅁㅜㄹㅕ	-7728
▁ㄷㅏㄷ	-7729
▁ㅅㅏㅇㅂㅜ	-7730
▁ㅅㅗㄱㅅㅓㅇ	-7731
▁ㄱㅏㄹㅡㅊㅣㅁ	-7732
ㅂㅔㅅ	-7733
▁ㄱㅐㅊㅏㄹㄱㅜ	-7734
ㄱㅣㅁ	-7735
▁ㅇㅖㄹ	-7736
▁ㅅㅓㄲㅇㅣ	-7737
▁ㄹㅛㅇ	-7738
▁ㅊㅗㅇㅕㄴ	-7739
▁ㅇㅣㄹㅅㅐㅇ	-7740
▁ㄱㅣㄴㅈㅏㅇ	-7741
▁ㅂㅏㄹㅎㅕㄴ	-7742
▁ㅇㅠㄴㅣㅍㅗㅁ	-7743
▁ㅎㅜㅇㅏㄴ	-7744
ㅊㅔㄴ	-7745
▁ㅇㅏㅇㄹㅣ	-7746
▁ㅍㅗㄱㅅㅡ	-7747
▁ㅂㅏㅇㅊㅣㅁ	-7748
▁ㄷㅏㄴㄱㅣ	-7749
▁ㄱㅣㅅㅡ	-7750
▁ㅂㅗㄷㅡ	-7751
▁128	-7752
▁ㅇㅠㄹㄹㅣ	-7753
▁ㄹㅔㅈㅓㄴㄷㅡ	-7754
▁ㄷㅏㅈㅜㅇ	-7755
ㅋㅏㅇㅑㅁㅏ	-7756
▁ㅇㅜㅋㅡㄹㅏㅇㅣㄴㅏ	-7757
▁ㄱㅔㅇ	-7758
▁ㅇㅗㄹㅗ	-7759
▁ㅇㅚㄱㅜㄱㅇㅓ	-7760
▁ㄱㅓㄴㅊㅜㄱㄱㅏ	-7761
▁ㄱㅐㄱㅘㄴ	-7762
▁ㄴㅔㅇㅣㅂㅓ	-7763
▁ㅌㅖㄴ	-7764
ㄹㅏㅁㅎㅚ	-7765
ㅏㄴㅎㅣ	-7766
▁ㅎㅗㅇㅟ	-7767
ㅎㅐㅇㅇㅟ	-7768
ㅜㅇㅔㄹㄹㅏ	-7769
▁102	-7770
▁149	-7771
▁ㅈㅓㅇㅁㅣㄹ	-7772
ㅣㅁㅔ	-7773
▁ㄷㅐㅈㅜㄱㅛ	-7774
▁ㅈㅏㅁㅏㅈㅏ	-7775
▁ㅍㅗㄷㅗㅈㅜ	-7776
▁ㅇㅜㄹㄹㅣ	-7777
▁Bl	-7778
▁ㅁㅕㅇㅇㅢ	-7779
▁ㄴㅏㅁㅎㅏㄴ	-7780
▁ㅈㅔㅈㅏㄱㅈㅏ	-7781
▁GT	-7782
ㅁㅏㅊㅣ	-7783
ㅌㅏㄴㅣ	-7784
▁ㅌㅏㄹㅡ	-7785
▁ㅋㅏㅁㅂㅗ	-7786
▁ㅅㅗㅇㄴㅏㄹㅏ	-7787
▁ㅇㅜㄴㄷㅗㅇㅈㅏㅇ	-7788
▁ㄹㅔㅅㅡㄹ	-7789
▁ㅅㅓㅂㅊㅟ	-7790
▁ㅍㅐㅇㅊㅏㅇ	-7791
▁ㅇㅠㅅㅗㄴㅕㄴ	-7792
▁ㅌㅔㄱㅅㅡㅌㅡ	-7793
▁ㅇㅕㅈㅣㄴ	-7794
▁ㅁㅔㄷㅣ	-7795
▁ㅁㅣㄹㅜ	-7796
▁ㄱㅡㅁㅏㄴㄷㅜ	-7797
ㄱㅜㅈㅏㅇ	-7798
▁ㅁㅜㄹㅈㅏ	-7799
▁ㅈㅗㄴㅈㅜㅇ	-7800
▁ㅈㅜㅈㅣㅅㅏ	-7801
▁ㅁㅐㅅㅏ	-7802
▁ㅇㅔㅅㅡㅍㅏㄴㅑ	-7803
ㅍㅏㄱ	-7804
▁ㅇㅖㅅㅣ	-7805
▁ㄱㅚㅇㅈㅏㅇ	-7806
▁ㅌㅓㄱ	-7807
▁ㄷㅐㄱㅜㄴ	-7808
▁ㅂㅜㅊㅏㄱ	-7809
ㅗㅇㅣㄴ	-7810
ㅗㄹㅏ	-7811
ㄱㅕㅇㄱㅣ	-7812
▁ㅂㅏㄹㅇㅝㄴ	-7813
ㅏㅇㅋㅏ	-7814
▁ㅈㅏㅇㅠㄷㅏㅇ	-7815
ㅏㅇㅣㅇㅓ	-7816
▁ㅂㅡㄹㄹㅜㅅㅡ	-7817
▁ㅈㅠ	-7818
▁ㅊㅟㅈㅣ	-7819
▁ㅇㅏㄹㅂㅏㄴㅣㅇㅏ	-7820
▁ㄴㅏㅁㅇㅝㄴ	-7821
▁ㄱㅣㅅㅜ	-7822
▁ㅍㅗㄱㅘㄹ	-7823
ㅅㅏㄴㅁㅕㄴ	-7824
▁ㅁㅔㄱㅏ	-7825
▁ㅇㅔㄷㅣ	-7826
▁ㄱㅏㅁㅈㅣ	-7827
▁ㄱㅖㅈㅓㄹ	-7828
▁ㅁㅓㅅㅣㄴ	-7829
▁ㅈㅣㄱㅊㅐㄱ	-7830
ㅊㅣㄹㄹㅣㅇㅏ	-7831
▁ㅅㅜㅇㅂㅐ	-7832
▁ㅍㅕㄹㅊㅕㅈㅣ	-7833
▁ㅈㅜㅇㄱㅜㄱㅇㅣㄴ	-7834
iz	-7835
▁ㄱㅗㅊㅔ	-7836
▁ㅈㅓㄱㄷㅐ	-7837
▁ㅎㅑㅇㄱㅛ	-7838
▁ㅇㅝㄴㅈㅏㄹㅗ	-7839
ㅣㅊㅣ	-7840
▁ㄱㅏㅇㄱㅕㅇ	-7841
DP	-7842
▁ㅈㅓㄴㄷㅐ	-7843
ㅈㅣㅂㅎㅏㅂ	-7844
▁ㅎㅜㅁ	-7845
▁ㅁㅔㅌㅏ	-7846
▁ㅁㅜㄴㅇㅑㅇ	-7847
ㄹㅏㄷㅡ	-7848
▁ㅊㅓㅇㅈㅏㅇ	-7849
▁ㅇㅗㅋㅣㄴㅏㅇㅘ	-7850
▁ㅅㅓㅇㅈㅜ	-7851
▁ㄱㅐㄱㄱㅘㄴ	-7852
▁ㅊㅏㄴㅏㅁ	-7853
▁ㄱㅗㄹㅍㅡ	-7854
▁ㄷㅗㅇㄷㅗㄱ	-7855
▁ㄱㅖㅁㅗㅇ	-7856
▁ㅊㅗㄱㄱㅜ	-7857
ㅂㅐㄱㄱㅘ	-7858
▁ㅇㅣㅂㅊㅔ	-7859
▁ㅂㅕㅇㅇㅕㄱ	-7860
orld	-7861
ㅃㅏㄹ	-7862
▁ㄴㅓㄼㅎㅣ	-7863
▁ㅅㅜㅍㅕㅇ	-7864
▁ㄴㅏㄱㅅㅓㄴ	-7865
▁ㅌㅗㅇㅊㅣㅇ	-7866
▁ㅊㅚㅅㅗㅎㅏㄴ	-7867
age	-7868
▁ㅅㅏㅈㅓㄹ	-7869
ㅖㅍㅡ	-7870
ㅍㅗㅌㅡ	-7871
▁ㅌㅐㅅㅐㅇ	-7872
▁ㅁㅕㅊㅣㄹ	-7873
▁ㅅㅡㅌㅔㄹ	-7874
▁ㅅㅜㅅㅜ	-7875
▁ㄴㅏㄹㅣ	-7876
ㅅㅗㄹㄹㅣㄴ	-7877
▁CPU	-7878
▁ㄴㅐㅈㅜ	-7879
▁ㅊㅜㅅㅏㅇ	-7880
▁ㄱㅣㅁㅈㅣㄴ	-7881
▁ㅇㅡㅁㅇㅝㄴ	-7882
▁ㅅㅗㄴㄱㅏㄹㅏㄱ	-7883
▁ㅂㅐㅌㅡㄹ	-7884
▁ㅂㅜㄱㅂㅏㅇ	-7885
▁ㅈㅣㄴㄱㅜㄴ	-7886
▁ㄷㅣㅅㅡㅍㅡㄹㄹㅔㅇㅣ	-7887
▁$	-7888
ㅇㅓㅇㅗ	-7889
▁ㅇㅓㅇㅓㅂ	-7890
▁ㅅㅔㄴㅅㅓ	-7891
▁ㄱㅕㅇㄱㅘ	-7892
▁ㅃㅗㅂㅎㅣ	-7893
▁ㄹㅣㅁㅔㅇㅣㅋㅡ	-7894
▁ㄱㅡㄹㅏㅇㅍㅡㄹㅣ	-7895
ㅅㅜㄹㅣ	-7896
▁ㄱㅗㅁㅜ	-7897
▁ㅇㅏㄱㅏ	-7898
▁ㅅㅜㄱㅜㄴ	-7899
ㅅㅓㄹㅣ	-7900
▁ㅇㅠㅋㅣ	-7901
▁ㄷㅐㅇㅕㄱ	-7902
▁ㄱㅏㅂㅈㅏㄱ	-7903
▁ㅋㅓㄹㄹㅓ	-7904
ㄹㄹㅓ	-7905
▁147	-7906
ㅊㅏㄹㅖ	-7907
▁ㅅㅣㄷㅡ	-7908
▁ㅊㅣㅁㅁㅗㄹ	-7909
▁ㅅㅣㅁㅇㅢ	-7910
▁ㅈㅓㅇㅁㅏㄹ	-7911
▁ㅋㅏㅈㅏㅎㅡ	-7912
ㄸㅡ	-7913
▁ㅁㅣㅎㅏㅇ	-7914
▁ㅇㅔㄹㄹㅣㅂ	-7915
▁ㄷㅏㅎ	-7916
▁ㅅㅡㅌㅐ	-7917
ㅅㅓㄱㄱㅣ	-7918
▁ㅁㅕㅇㅁㅗㄱ	-7919
▁ㄷㅏㄴㅣㅇㅔㄹ	-7920
▁ㅇㅔㄹㄹㅣㅂㅔㅇㅣㅌㅓ	-7921
▁ㅇㅗㅍㅡ	-7922
▁ㅎㅛㄹㅕㄱ	-7923
ㅋㅡㅇ	-7924
▁ㅇㅙㅅㅓㅇ	-7925
ㅅㅏㄴㄱㅜㄴ	-7926
▁ㅈㅓㄴㅎㅏㅁ	-7927
▁ㅅㅓㄲ	-7928
▁ㅌㅏㅁㅈㅣ	-7929
ㅣㅇㅐ	-7930
▁127	-7931
▁ㄲㅜㄹ	-7932
▁171	-7933
▁ㅁㅜㅈㅚ	-7934
▁ㅈㅔㄱㅗㅂ	-7935
▁ㄴㅏㄴㅁㅣㄴ	-7936
ㅇㅓㄷㅡㄹㅇㅣ	-7937
▁ㅍㅡㄹㅐㅇㅋㅡ	-7938
▁hPa	-7939
▁ㄴㅜㄹ	-7940
▁ㄷㅗㅅㅡ	-7941
ㄷㅡㄹㅣㄱ	-7942
▁ㅈㅓㅁㅕㅇ	-7943
ㅌㅜㅁ	-7944
▁ㄱㅗㄹㅐ	-7945
▁ㅎㅕㅂㅈㅗ	-7946
ㅅㅜㅇㅏ	-7947
▁ㅌㅏㅇㅣㄱㅓㅈㅡ	-7948
ik	-7949
▁1915	-7950
▁ㅅㅜㄹㅕㅁ	-7951
▁ㅊㅜㅇㅈㅜ	-7952
▁ㄴㅗㄹㅏㄴㅅㅐㄱ	-7953
▁ㅌㅏㅋㅏ	-7954
▁ㅁㅏㄴㅅㅔ	-7955
▁ㅌㅔㄴㅣㅅㅡ	-7956
▁ㄹㅗㅁㅐㄴㅅㅡ	-7957
▁ㅂㅔㄴㅔㅅㅜㅇㅔㄹㄹㅏ	-7958
▁ㅂㅜㅊㅓㄴ	-7959
▁ㅅㅣㄴㅈㅜㅇ	-7960
▁ㅅㅣㄴㅎㅡㅇ	-7961
▁ㅅㅔㄱㅖㄱㅘㄴ	-7962
▁ㅅㅗㅁ	-7963
ㅂㅗㄱㅣ	-7964
▁ㅊㅜㅈㅡㅇ	-7965
▁ㅎㅜㅇㅣㄹ	-7966
▁ㅌㅡㅇㅟㄴㅅㅡ	-7967
▁ㅇㅓㄴㄹㅗㄴㅇㅣㄴ	-7968
ㄹㅣㅇㅔ	-7969
▁ㅂㅏㄴㅂㅏㄱ	-7970
▁ㅂㅜㄴㄱㅘㅇ	-7971
EN	-7972
▁ㄲㅙ	-7973
▁ㄷㅐㅊㅓ	-7974
▁ㅂㅜㄱㅘ	-7975
ㅁㅜㄴㅔ	-7976
ㅈㅏㅅㅡ	-7977
▁1913	-7978
▁ㅅㅡㅌㅣ	-7979
▁ㅊㅐㅁㅜ	-7980
▁ㅌㅗㅁㅏ	-7981
ㅍㅡㄹㅗㅅㅡ	-7982
▁ㅈㅓㄴㅅㅓㅇㄱㅣ	-7983
ㄱㅗㅁ	-7984
▁ㅅㅓㅅㅏ	-7985
▁ㅈㅜㅊㅜㄱ	-7986
▁ㄷㅙㅈㅣ	-7987
▁ㄱㅡㄷㅗㅇㅇㅏㄴ	-7988
ㅍㅗㅇ	-7989
▁ㅇㅣㅇㅓㅂㅏㄷ	-7990
ㅏㄴㄷㅏ	-7991
▁ㄲㅔㅅㅓ	-7992
▁ㅊㅏㅇㅅㅣ	-7993
ㅏㅋㅏ	-7994
▁ㅅㅣㄱㅗㅇ	-7995
▁ㅍㅜㅇㄱㅕㅇ	-7996
▁ㅁㅜㄴㅎㅏㄱㅅㅏㅇ	-7997
▁ㅍㅜㄴ	-7998
▁ㄴㅏㅈㅊㅜ	-7999
▁ㅇㅓㄴㅈㅔㄴㅏ	-8000
▁ㅇㅣㅁㅣㄴㅈㅏ	-8001
▁al	-8002
▁ㅇㅣㅈㅣㄴ	-8003
▁ㅌㅏㄹㅎㅘㄴ	-8004
▁ㄷㅗㅇㄴㅕㄴ	-8005
▁ㅁㅗㄴㅌㅡㄹ	-8006
▁ㄴㅏㄱㅏㅅㅏㅋㅣ	-8007
▁ㅅㅏㅇㄷㅏㅇㅅㅜ	-8008
▁ㄱㅣㅅㅡㅂ	-8009
▁ㅊㅜㄹㅌㅗ	-8010
▁ㅇㅝㄴㅂㅏㄴ	-8011
▁ㅇㅟㅋㅣㅂㅐㄱㄱㅘ	-8012
▁ㅊㅓㄴㅁㅜㄴㅎㅏㄱㅈㅏ	-8013
▁ㄸㅏㄸㅡㅅ	-8014
ㅋㅡㄹㅣㅌㅡ	-8015
▁ㄷㅗㅇㄹㅕㄱ	-8016
▁ㄱㅗㅇㅈㅣㄱ	-8017
▁SP	-8018
▁ㅂㅜㄱㄱㅜ	-8019
▁ㄴㄷㅏ	-8020
▁ㅎㅗㅇㅅㅜ	-8021
▁ㅁㅗㄴㅌㅡㄹㅣㅇㅗㄹ	-8022
▁ㄹㅏㅇㅣㅇㅓㄴ	-8023
▁ㅊㅏㅈㅗㅇ	-8024
▁ㄷㅗㅇㄷㅏㅇ	-8025
▁ㄱㅏㅇㄱㅘ	-8026
▁ㅊㅏㅇㄱㅓㄴ	-8027
▁ㅇㅣㄴㅈㅐ	-8028
▁ㄱㅘㅇㄴㅕㄴ	-8029
▁ㅆㅡㄹㅓㅈㅣ	-8030
▁ㄴㅔㅇㅣㅅㅕㄴㅅㅡ	-8031
▁Tr	-8032
▁ㄱㅕㄹㅅㅓㄴ	-8033
▁ㅅㅏㅇㅣㅂㅓ	-8034
▁ㅅㅣㅇㅗ	-8035
▁ㅅㅓㅂㅈㅓㅇ	-8036
▁ㅈㅗㅇㄱㅕㄹ	-8037
▁ㅂㅜㄱㅅㅓㅂㅜ	-8038
ㅏㄹㅣㅇㅗ	-8039
ㅊㅏㅇㄱㅜㄴ	-8040
▁ㅋㅏㅁㅂㅗㄷㅣㅇㅏ	-8041
▁169	-8042
▁ㅎㅗㅅㅔ	-8043
▁ㄹㅣㅇㅋㅓㄴ	-8044
▁ㅇㅠㅇㅕㄴ	-8045
▁ㄱㅣㅁㅅㅏㅇ	-8046
▁ㅂㅕㄹㅊㅣㅇ	-8047
▁ㅅㅡㅍㅏㄹㅡㅌㅏ	-8048
▁ㅍㅏㄹㄹㅔㅅㅡㅌㅏㅇㅣㄴ	-8049
sp	-8050
▁ㅁㅗㅅㅡ	-8051
▁ㄷㅜㄹㄹㅔ	-8052
▁ㅇㅏㄷㅏㅁ	-8053
▁ㅁㅜㅅㅏㅇ	-8054
ㅈㅣㅇㅘ	-8055
ㅍㅡㅁ	-8056
▁ㅌㅐㅅㅜ	-8057
▁ㅇㅣㅅㅣㄱ	-8058
▁ㅇㅏㅇㅣㅌㅔㅁ	-8059
▁ㅅㅏㅋㅏ	-8060
▁ㅂㅜㄱㅇㅟ	-8061
▁ㅅㅣㄱㅂㅕㄹ	-8062
▁ㅂㅏㅅㅣㄹ	-8063
▁ㅇㅟㄹㄹㅣㅇㅓㅁㅅㅡ	-8064
▁ㄱㅐㅁㅣ	-8065
ㅁㅅㅐ	-8066
▁ㄱㅗㅂㅐㄱ	-8067
ㅓㄴㅣㅈㅡㅁ	-8068
▁ㅋㅝ	-8069
▁ㅈㅜㅊㅏ	-8070
ㅌㅔㅇㅣㄴ	-8071
▁ㅅㅜㄹㅕㅇ	-8072
▁ㅈㅜㅇㅈㅐ	-8073
▁ㄷㅗㅎㅗㅋㅜ	-8074
▁ㅊㅏㅈㅇㅏㄴㅐ	-8075
ㅔㅇㅓ	-8076
ㅈㅏㅊㅣㄷㅗ	-8077
▁ㅈㅔㅈㅜㅌㅡㄱㅂㅕㄹ	-8078
ㅇㅓㅇ	-8079
▁ㄷㅐㅈㅔ	-8080
▁ㅅㅡㅌㅓ	-8081
▁ㅇㅗㄴㅊㅓㄴ	-8082
▁ㅊㅏㄱㅣ	-8083
ㅊㅣㅇㅝㄴ	-8084
▁ㅍㅜㅅㅂㅗㄹ	-8085
MS	-8086
▁ㄱㅘㅇㅂㅜ	-8087
ㅍㅗㄱㅜ	-8088
▁1895	-8089
▁ㅈㅏㄱㅣㅈㅏㅇ	-8090
▁ㄴㅏㅅ	-8091
▁ㄹㅗㄱㅗ	-8092
▁ㄸㅐㄹㅣ	-8093
▁ㄲㅡㄶㅇㅣㅁ	-8094
▁ㅎㅜㄷㅐ	-8095
▁ㅅㅏㅎㅚㅎㅏㄱ	-8096
ㄴㅏㄱ	-8097
▁ㅈㅣㅍㅖ	-8098
▁ㅎㅏㅇㅜ	-8099
▁ㄷㅡㄴㅈㅣ	-8100
▁ㅂㅣㅁㅜㄴ	-8101
ㅌㅡㄹㄹㅐㄴ	-8102
▁ㅊㅗㅇㄱㅘㄹ	-8103
ㅁㅔㄴ	-8104
▁ㄷㅏㅁㅏ	-8105
▁ㅁㅜㅈㅔ	-8106
▁ㅇㅕㅇㄹㅣ	-8107
▁ㄹㅣㅂㅓㅍㅜㄹ	-8108
▁NC	-8109
▁ㅈㅣㅋ	-8110
▁ㅈㅓㄴㄷㅗ	-8111
▁135	-8112
▁141	-8113
▁ㅅㅣㄹㅏ	-8114
▁ㅇㅗㄱㅅㅡ	-8115
▁ㅂㅓㄴㅇㅕㅇ	-8116
▁ㅂㅔㅇㅓㅅㅡ	-8117
▁ㅊㅗㅅㅏㅇㅎㅘ	-8118
▁ㅅㅗㅌㅗㅇ	-8119
▁ㅈㅏㅇㅎㅏㄱ	-8120
▁ㄷㅏㅇㅜㄴㄹㅗㄷㅡ	-8121
▁ㅍㅖㅇㅟ	-8122
▁ㅎㅜㅅㅔ	-8123
▁ㄱㅗㅁㅣㄴ	-8124
▁ㅎㅡㅌㅇㅓㅈㅣ	-8125
▁ㄴㅏㄹㅉㅏ	-8126
▁ㅇㅢㅅㅏㅇ	-8127
ㅁㅕㅇㅅㅏㅈㅓㄴ	-8128
ㅍㅡㄹㄹㅓ	-8129
▁ㅎㅜㅈㅣㅇㅘ	-8130
▁ㄷㅐㅇㅟ	-8131
▁ㄱㅛㅇㅝㄴ	-8132
▁ㅅㅣㄴㅅㅔ	-8133
▁ㅅㅣㅂㅈㅏㄱㅏ	-8134
▁ㅊㅗㅇㅅㅓㄴㄱㅓ	-8135
▁ㅇㅝㄴㄱㅗ	-8136
▁ㅂㅏㄹㅣ	-8137
▁ㅅㅏㅁㅈㅣㄴ	-8138
▁ㅇㅏㅌㅡㄹㄹㅔ	-8139
▁ㅎㅐㅂㅕㅇㄷㅐ	-8140
▁ㅎㅏㄴㄷㅗㅇㅇㅏㄴ	-8141
▁ㅈㅗㄷㅏㄹ	-8142
ust	-8143
▁ㅂㅓㅂㅈㅔ	-8144
ㅋㅣㅈㅣ	-8145
▁ㅅㅜㅇㅛㅇㅅㅗ	-8146
▁111	-8147
▁ㄷㅐㅍㅗ	-8148
▁ㅎㅠㅈㅓㄴ	-8149
▁ㄴㅏㅈㅜ	-8150
▁ㅇㅕㅍㅏ	-8151
▁ㅅㅗㅎㅘㄴ	-8152
ㅍㅕㅇㄱㅜㄴ	-8153
▁ㄱㅘㄴㄹㅏㅁ	-8154
▁ㅇㅣㄴㅅㅏㄴ	-8155
ㄹㅕㅁ	-8156
▁ㅁㅕㄴㅎㅏ	-8157
▁ㅅㅗㅅㅣㄹ	-8158
▁ㄱㅛㅇㅚ	-8159
▁ㄹㅗㅍㅡ	-8160
ㅊㅜㅇㅝㄴ	-8161
▁ㅁㅔㄹㄹㅗ	-8162
▁ㅋㅗㄹㄹㅏ	-8163
▁ㅇㅝㄴㄴㅐ	-8164
▁ㅋㅓㅁㅍㅓㄴㅣ	-8165
▁ㅅㅓㅇㅜㄹㄷㅐ	-8166
▁144	-8167
▁ㅂㅡㄹㅏㅇㅜ	-8168
▁ㅍㅕㅇㅇㅝㄴ	-8169
ㅏㅂㅡ	-8170
ㄷㅜㄹㅡ	-8171
▁ㅇㅗㅃㅏ	-8172
ㅅㅓㄴㅅㅡ	-8173
▁ㅇㅏㄹㅣㅅㅡ	-8174
▁ㅋㅏㄹㅣㅂㅡ	-8175
▁CO	-8176
▁119	-8177
▁ㅋㅡㄹㄹㅣ	-8178
▁ㅍㅏㅇㅓㅂ	-8179
▁ㄱㅓㄱㅈㅓㅇ	-8180
ㄷㅔㄹㅡ	-8181
▁ㄱㅜㄱㅅㅏ	-8182
▁ㅇㅟㅇㅣㅁ	-8183
▁ㅈㅓㅇㅈㅓㄴ	-8184
GC	-8185
ep	-8186
▁ㄹㅣㅊㅣ	-8187
▁ㅎㅠㅅㅣㄱ	-8188
▁ㅈㅜㅇㅅㅜㄴ	-8189
▁ㅂㅜㄹㅍㅕㄴ	-8190
ㅇㅕㅈㅣ	-8191
▁ㅎㅔㄹㄹㅔㄴ	-8192
▁ㅅㅣㄴㅎㅏㄱㅈㅏ	-8193
▁CE	-8194
▁ㅎㅏㅂㅜ	-8195
ib	-8196
▁ㅇㅣㅇㅗ	-8197
▁ㅁㅣㄴㅎㅚ	-8198
▁ㅅㅡㅋㅐㄴ	-8199
▁ㅇㅑㅇㅈㅜ	-8200
▁ㅁㅕㅇㅂㅐㄱ	-8201
ㅅㅏㄴㄹㅣ	-8202
▁ㅇㅣㄱㅘㅇ	-8203
▁ㅍㅕㅇㅎㅏ	-8204
▁ㅊㅜㅇㅅㅣㄹ	-8205
ㅏㅂㅔ	-8206
▁ㄴㅜㅂ	-8207
▁ㅎㅏㅁㅇㅠ	-8208
▁ㄷㅏㅇㅇㅣㄹ	-8209
▁ㄷㅓㄱㅡㄹㄹ	-8210
▁ㅌㅜㄱ	-8211
▁ㅇㅏㅂㅔㄹ	-8212
▁ㅍㅡㄹㅗㄹ	-8213
▁ㄷㅗㄹㅇㅕㄴ	-8214
▁ㅁㅜㄴㅎㅘㅂㅏㅇㅅㅗㅇ	-8215
ian	-8216
▁ㄴㅐㅇㅚ	-8217
int	-8218
▁ㅇㅏㅂㅔ	-8219
ㄹㅜㅅㅕㄴ	-8220
▁ㅈㅏㅇㅁㅣ	-8221
ㄸㅏㄹㅡ	-8222
▁ㅅㅣㄹㅈㅓㄴ	-8223
▁TH	-8224
▁TO	-8225
▁172	-8226
▁ㅇㅏㅅㅏㅎㅣ	-8227
▁ㅁㅗㄹㅇㅏㄴㅐ	-8228
▁ㄱㅟㅈㅜㅇ	-8229
▁ㅇㅓㅅㅡ	-8230
▁ㅇㅠㅅㅜ	-8231
▁ㅈㅜㄱㅓ	-8232
▁ㅅㅣㄴㅏㄹㅣㅇㅗ	-8233
▁ㅁㅏㅎㅏ	-8234
▁ㅈㅏㅇㄴㅏㄴ	-8235
▁ㅋㅣㄱ	-8236
ㅍㅐㄱㅌㅡ	-8237
▁ㄱㅛㅇㅑㅇ	-8238
▁ㅈㅣㄴㅡㅇ	-8239
▁ㅅㅣㄴㅎㅏㄱㄱㅛ	-8240
▁ㅅㅡㅌㅗㅇ	-8241
▁ㄱㅘㄴㅌㅗㅇ	-8242
▁ㅅㅓㅇㅅㅜㄱ	-8243
▁ㄹㅏㅇㅣㅅㅓㄴㅅㅡ	-8244
▁ㄴㅏㄹㅡ	-8245
ㅡㅂㅏㅇㅣ	-8246
▁ㅍㅕㅇㅇㅑ	-8247
▁ㅎㅓㄹㅣㅋㅔㅇㅣㄴ	-8248
▁ㅇㅕㄴㅅㅔㄷㅐ	-8249
▁It	-8250
▁ㅇㅚㄱㅛㄱㅘㄴ	-8251
▁ㄱㅗㅇㅁㅗ	-8252
▁ㅈㅓㅇㄹㅕㄹ	-8253
▁ㅂㅏㅋㅟ	-8254
▁ㅎㅏㄹㄹㅣㅇㅜㄷㅡ	-8255
▁ㅌㅏㅁㅏ	-8256
▁ㅅㅓㄴㅈㅗㅇ	-8257
▁ㅈㅡㅇㅈㅣㄴ	-8258
ome	-8259
▁ㅈㅔㅅㅜ	-8260
▁ㅅㅣㄴㅌㅏㄱ	-8261
ire	-8262
▁ㅂㅕㅇㅈㅗ	-8263
▁ㅋㅏㅇㅣㅅㅏㄹㅡ	-8264
▁106	-8265
▁ㅇㅙㄴ	-8266
▁ㅊㅗㅇㄷㅐ	-8267
▁ㅇㅑㄱㅊㅣㅇ	-8268
▁ㅇㅠㄴㅔㅅㅡㅋㅗ	-8269
▁We	-8270
▁ㅂㅐㅅㅣㄴ	-8271
▁ㅇㅘㅇㅣㄹ	-8272
▁ㅈㅘㅈㅓㄹ	-8273
▁ㅇㅏㅇㅣㅅㅡㄹㄹ	-8274
▁NBA	-8275
▁ㅇㅜㄹㅏ	-8276
▁ㅌㅔㄹㅔ	-8277
▁ㄴㅗㅂㅜㄴ	-8278
▁ㅍㅕㄴㄹㅣ	-8279
▁ㄲㅓㅂㅈㅣㄹ	-8280
▁ㅁㅏㅇㅣㄴㅓ	-8281
▁ㅇㅠㄴㅣㅂㅓ	-8282
▁ㅁㅐㅋㅏ	-8283
▁ㅇㅚㅇㅑ	-8284
ㅅㅡㄹㅓㅂ	-8285
▁ᆯㄲㅏ	-8286
▁ㅅㅡㄹㅣㄹㄹㅓ	-8287
▁ㅇㅜㅇㅕㄴㅎㅣ	-8288
ㅎㅡㅁ	-8289
▁ㄱㅗㅇㅊㅐ	-8290
▁ㅇㅕㄴㅍㅐ	-8291
▁ㅊㅗㄱㅘ	-8292
▁ㄴㅏㅌㅁㅏㄹ	-8293
▁ㅋㅗㄴㅋㅡㄹㅣㅌㅡ	-8294
ㅣㅇㅓㅂ	-8295
▁ㅍㅛㅁㅕㅇ	-8296
▁ㅅㅡㅌㅣㅂㅡ	-8297
▁ㅍㅕㅇㅂㅓㅁ	-8298
▁ㄱㅜㅈㅗㅁㅜㄹ	-8299
▁ㅅㅓㄴㅏㅁ	-8300
▁ㅇㅕㄱㅅㅓㄹ	-8301
▁ㅅㅏㅇㅣㅋㅡㄹ	-8302
▁ㅋㅔㄴㅔㄷㅣ	-8303
▁ㄹㅏㅇㅣㅂㅡㄹ	-8304
▁ㅋㅓㄹㄹㅓㅁㅂㅣㅇㅏ	-8305
▁ㅊㅚㅈㅓ	-8306
▁ㅇㅢㅇㅢ	-8307
▁ㅅㅡㅇㅈㅓㅁ	-8308
▁ㅇㅣㄴㅇㅕㄴ	-8309
▁ㅇㅣㅁㅏ	-8310
▁ㅈㅣㅎㅖ	-8311
▁ㅂㅗㅇㅘㄴ	-8312
▁ㅈㅜㅇㄹㅑㅇ	-8313
▁ㅍㅕㅇㅇㅣㄹ	-8314
▁ㅅㅛㅌㅡ	-8315
▁ㅇㅕㅇㄴㅏㅁ	-8316
▁ㄹㅐㅁ	-8317
ㅇㅏㄱㄱㅣ	-8318
ㅏㄷㅣㅁ	-8319
▁ㄱㅗㅇㅇㅢㅎㅚ	-8320
▁ㅂㅡㄹㄹㅏㄷㅣㅁ	-8321
▁ㅅㅡㅍㅔㅇㅣㅅㅡ	-8322
▁ㅇㅏㅅ	-8323
▁ㅅㅣㄴㄱㅣ	-8324
▁ㅇㅐㄴㅣ	-8325
▁ㅂㅜㅈㅐ	-8326
▁ㅅㅣㄱㅔ	-8327
▁ㅇㅐㄷㅓㅁ	-8328
▁ㅎㅏㄹㅏㄱ	-8329
▁ㅊㅏㅇㅣㅈㅓㅁ	-8330
▁ㅁㅛㅇㅕㄱ	-8331
▁ㅎㅐㅂㅕㄴ	-8332
▁ㅎㅏㅂㅊㅏㅇ	-8333
▁ㅂㅜㅊㅐ	-8334
▁ㅇㅏㅂㅏ	-8335
ㅍㅡㄹㅏㅇ	-8336
▁ㅅㅏㅅㅡㄹ	-8337
▁ㅇㅓㅂㄱㅖ	-8338
▁ㅈㅔㄱㅏㄹ	-8339
▁ㅈㅓㄴㅇㅏㅂ	-8340
▁ㅇㅠㅇㅏ	-8341
▁ㅍㅗㄱㅕㄱ	-8342
▁ㅂㅡㄹㅐ	-8343
▁ㄷㅡㅇㅈㅐ	-8344
ㅐㅅㅕㄴㅓㄹ	-8345
▁ㄱㅗㅇㄷㅏㄴ	-8346
▁ㅇㅕㅇㅈㅏㅇ	-8347
▁ㅇㅣㄴㅌㅓㄴㅐㅅㅕㄴㅓㄹ	-8348
▁ㅇㅜㅇㅜㄹ	-8349
▁ㅇㅣㅂㅈㅣ	-8350
▁ㅊㅣㅇㅕㄹ	-8351
▁ㅈㅏㅇㅇㅏㄴ	-8352
ㅊㅔㄹ	-8353
▁ㅈㅏㅈ	-8354
ㅅㅏㄱㅏ	-8355
▁ㅁㅣㅌㅗ	-8356
▁ㅇㅔㄷㅏ	-8357
▁ㅇㅠㄷㅗㅇ	-8358
ㅅㅣㄹㄹㅗㄱ	-8359
▁ㅇㅜㄹㅏㄴㅠㅁ	-8360
▁ㅊㅐㄱㅇㅣㅁㅈㅏ	-8361
▁ㄷㅏㅎㅏㅇ	-8362
▁ㄷㅏㄴㅅㅣㄱ	-8363
▁ㅂㅐㅌㅓㄹㅣ	-8364
▁ㅎㅏㄴㅅㅓㅇㅂㅜ	-8365
▁ㅁㅏㅂㅣ	-8366
▁ㅊㅣㄴㅇㅣㄹㅇㅣㄴ	-8367
▁ㅇㅏㅍㅡ	-8368
▁ㅊㅔㄹㅅㅣ	-8369
▁ㅅㅐㅇㅈㅓㄴ	-8370
ude	-8371
▁ㅇㅒㄱㅣ	-8372
▁ㄹㅗㅇㅕㄹ	-8373
▁ㅁㅏㅇㅑㄱ	-8374
▁ㅎㅘㅇㅌㅐㅈㅏ	-8375
ere	-8376
ㅗㅇㅏ	-8377
▁ㅅㅡㅍㅔㅇㅣㄴㅇㅓ	-8378
ㅈㅜㅇㅢㅈㅏ	-8379
▁ㄱㅚㄹㅗㅂ	-8380
▁ㅂㅗㅇㅅㅙ	-8381
▁ㅋㅏㅁㅔㄹ	-8382
▁ㅍㅏㅈㅏㅇ	-8383
▁ㄹㅏㅇㅣㅇㅗㄴㅈㅡ	-8384
ㅅㅔㅊㅡ	-8385
▁ㅇㅔㅅㅡㅌㅗㄴ	-8386
▁ㅍㅡㄹㅏㅇㅅㅜㅇㅏ	-8387
▁ㅌㅗㅇㄱㅡㄴ	-8388
▁ㅎㅕ	-8389
ㅗㄹㄹㅏ	-8390
▁ㅋㅓㄹㅣ	-8391
▁ㅅㅓㄴㄱㅜ	-8392
▁ㅋㅏㅇㅣㄹ	-8393
▁ㅁㅐㅅㅏㅊㅜ	-8394
▁ㅅㅣㄴㅅㅗㄱ	-8395
▁ㅈㅜㅎㅐㅇ	-8396
▁ㅈㅣㄴㅉㅏ	-8397
▁ㅇㅏㅁㅅㅓㄱ	-8398
▁ㅁㅐㅅㅏㅊㅜㅅㅔㅊㅡ	-8399
▁ㄷㅐㅈㅓㄴㄱㅘㅇㅇㅕㄱㅅㅣ	-8400
▁HT	-8401
▁ㅎㅡㅁ	-8402
▁ㅇㅔㅇㅜ	-8403
▁ㄷㅗㅇㅁㅜㄴ	-8404
▁ㅈㅐㅇㅟ	-8405
ㅂㅓㄹㄹㅔ	-8406
▁ㅂㅜㄹㅁㅕㅇ	-8407
ㄱㅣㅈㅣ	-8408
▁ㅂㅏㅌㅣ	-8409
▁ㄹㅣㅂㅣㅇㅏ	-8410
▁ㅇㅔㅌㅣㅇㅗ	-8411
▁ㅇㅗㅍㅣㅅㅡ	-8412
ㅅㅣㄹㅗ	-8413
▁ㄷㅐㅇㅜㅇ	-8414
▁ㅅㅏㅇㄷㅏㅁ	-8415
▁ㅊㅜㅇㅂㅜㄱ	-8416
▁DC	-8417
▁ㅇㅐㄴㄷㅡ	-8418
▁ㅈㅏㅇㄹㅗ	-8419
ide	-8420
ment	-8421
▁ㅇㅡㅇㅇㅝㄴ	-8422
▁ㄴㅗㄹㅡㅁ	-8423
▁ㅅㅐㅇㅅㅣㄱ	-8424
▁ㅅㅓㅁㄱㅣ	-8425
▁ㅎㅏㅇㅅㅗ	-8426
▁ㄴㅏㅇㅁㅏㄴ	-8427
▁ㅅㅣㄴㅅㅐㅇ	-8428
▁ㅎㅕㅂㅈㅜㄱㅗㄱ	-8429
▁ㅇㅓㅎㅟ	-8430
▁ㅂㅏㅇㅍㅐ	-8431
ace	-8432
▁CON	-8433
▁ㅂㅏㄼ	-8434
ㄹㅓㅅㅡ	-8435
▁ㄱㅏㄴㅎㅗ	-8436
▁ㅈㅣㅅㅓㄴ	-8437
▁ㅅㅣㅎㅡㅇ	-8438
ㅈㅜㅇㄱㅜㄱ	-8439
▁ㄷㅣㄱ	-8440
ㅇㅟㄷㅐ	-8441
▁ㅇㅕㅈㅣ	-8442
▁ㅊㅜㅅㅔ	-8443
▁ㅇㅟㅌㅏㄱ	-8444
▁ㄷㅏㅇㅣㅇㅏㅁ	-8445
▁ㅈㅜㅇㅅㅣㅁㅂㅜ	-8446
▁ㅎㅐㅅㅗ	-8447
▁ㅅㅓㅈㅓㅇ	-8448
▁ㄷㅏㅊㅣ	-8449
ㅜㄱㅘㅇㅣ	-8450
▁ㅁㅕㅇㅈㅔ	-8451
▁ㅌㅏㄹㄷㅏㅇ	-8452
▁ㅇㅜㄹㅜㄱㅘㅇㅣ	-8453
▁ㅇㅔㅌㅣㅇㅗㅍㅣㅇㅏ	-8454
▁".	-8455
▁ㅋㅏㄱ	-8456
ㅈㅔㄹㅣ	-8457
▁ㄱㅣㅇㅣㄴ	-8458
▁ㅅㅣㅅㅓㄴ	-8459
IM	-8460
▁ㄲㅡㅀ	-8461
▁ㄱㅏㅁㅕㄴ	-8462
▁ㄱㅕㄴㄷㅣ	-8463
▁ㅂㅏㄹㅌㅡ	-8464
▁ㅂㅡㄹㅜㄴ	-8465
▁ㅇㅏㅈㅔㄹ	-8466
▁ㅊㅜㅊㅜㄹ	-8467
▁ㅊㅣㄴㅎㅏ	-8468
▁ㅎㅕㄴㄱㅡㅁ	-8469
▁ㅁㅜㄹㄹㅣㅎㅏㄱㅈㅏ	-8470
▁ㅅㅗㅇㅠㅈㅏ	-8471
▁ㅈㅜㅇㅊㅜㅇㅝㄴ	-8472
▁ㅇㅏㄹㅔㄴㅏ	-8473
▁ㅊㅣㄴㅇㅘㅇ	-8474
▁ㅇㅠㄱㅈㅣ	-8475
▁ㅍㅕㅇㅌㅐㄱ	-8476
▁ㅂㅔㄷㅡ	-8477
▁ㅎㅔㄹㅏ	-8478
▁ㅈㅗㅇㅕㄴ	-8479
▁ㅌㅡㄱㅈㅣㅂ	-8480
▁ㅅㅣㄹㅅㅣㄱㅏㄴ	-8481
ㅔㄱㅅㅡ	-8482
▁ㅊㅜㄹㅊㅓ	-8483
▁ㄴㅣㅅㅍㅗㄴ	-8484
▁ㅍㅓㅅㅔㄴㅌㅡ	-8485
▁ㅈㅏㅇㄹㅕ	-8486
▁ㅂㅕㅇㅎㅐㅇ	-8487
ㅡㅂㅏㅇㅣㅈㅏㄴ	-8488
▁ㅇㅏㅈㅔㄹㅡㅂㅏㅇㅣㅈㅏㄴ	-8489
▁ㅇㅠㄴㅊㅣ	-8490
▁ㅈㅓㅇㅁㅜ	-8491
▁ㄴㅐㄹㅕㅈㅣ	-8492
▁ㄱㅜㄱㅁㅜㅊㅗㅇㄹㅣ	-8493
ㄱㅏㄹㅜ	-8494
▁ㅎㅡㄹㄹㅣ	-8495
▁ㅍㅐㅋㅣㅈㅣ	-8496
▁ㅇㅓㄷㅏ	-8497
▁ㅇㅢㄹㅚ	-8498
▁ㅎㅗㄱㅣ	-8499
▁ㅋㅓㅅ	-8500
▁ㄱㅐㄱㅊㅔ	-8501
▁ㅌㅐㅇㅋㅡ	-8502
▁ㅅㅓㅇㅇㅜㄴ	-8503
▁ㅍㅔㄹㅡㄴㅏㄴ	-8504
ㅊㅜㅁ	-8505
▁ㄱㅗㅅㅜ	-8506
▁ㅅㅏㅂㅏ	-8507
▁ㅅㅣㅊㅗ	-8508
▁ㅂㅏㄷㅏㅅ	-8509
▁ㅂㅜㅈㅓㄱ	-8510
▁ㅅㅓㅅㅏㄴ	-8511
▁ㅈㅡㅇㅡㅁ	-8512
▁ㄱㅡㄱㄷㅗㅇ	-8513
ㅐㅇㅣㄴ	-8514
ㅈㅣㄹㅣㅇㅏ	-8515
▁ㄴㅗㅂㅜㄴㅏㄱㅏ	-8516
▁ㄴㅏㅇㅣㅈㅣㄹㅣㅇㅏ	-8517
ㅎㅏㅅㅣ	-8518
▁ㅈㅣㅇㅜ	-8519
ㅎㅏㅁㅕㄴ	-8520
▁ㅂㅡㄹㅏㅇㅜㅈㅓ	-8521
ㅁㅜㄱㅣ	-8522
▁ㅈㅗㅇㅣ	-8523
▁ㅈㅣㄹㅠ	-8524
ㅂㅏㄱㅈㅟ	-8525
▁ㅅㅜㄴㅎㅚ	-8526
▁ㅅㅣㅁㅗㄴ	-8527
▁ㅈㅓㄴㄹㅏㄷㅗ	-8528
▁ㄱㅣㅈㅓㄱ	-8529
▁ㅋㅡㄹㅣㅅㅡㅌㅣㅇㅏㄴ	-8530
▁1916	-8531
▁ㅇㅓㄹㅏ	-8532
▁ㅇㅗㅌㅏ	-8533
▁ㅅㅣㄴㄴㅕㅁ	-8534
▁ㅎㅠㅅㅡㅌㅓㄴ	-8535
▁ㄱㅏㄹㅗㅈㅣㄹㅡ	-8536
▁ㅆㅏㅇㄷㅜㅇㅇㅣ	-8537
▁ㄱㅡㄹㅜ	-8538
▁ㅅㅣㅇㅓ	-8539
▁ㅅㅔㅅㅕㄴ	-8540
▁ㅇㅏㅅㅏㄴ	-8541
▁ㅍㅡㄹㄹㅜ	-8542
▁ㅈㅏㄱㅅㅔㄴ	-8543
▁ㅇㅑㅇㄷㅗ	-8544
▁ㄷㅗㅇㅅㅏㅇ	-8545
▁ㄱㅕㄹㅎㅗㄴㅅㅣㄱ	-8546
▁136	-8547
▁148	-8548
▁ㅇㅣㅅㅏㅎㅚ	-8549
ㄲㅡㅁ	-8550
▁ㅇㅣㅂㄷㅏㅇ	-8551
ㅍㅗㄷㅡ	-8552
▁ㄹㅜㅅㅣ	-8553
▁ㅇㅢㅇㅑㄱ	-8554
ㅅㅓㄱㅌㅏㅂ	-8555
▁IBM	-8556
ㅔㅇㅣㅁㅓ	-8557
▁ㅈㅜㅇㅇㅟ	-8558
ㅊㅡㅇㅅㅓㄱㅌㅏㅂ	-8559
ㅋㅣㄱ	-8560
▁ㄹㅣㅌㅡㄹ	-8561
▁ㅂㅗㅅㅡㄴㅣㅇㅏ	-8562
▁ㄱㅜㄷㅗ	-8563
▁ㅅㅡㅋㅔ	-8564
▁ㄷㅓㅍㅇㅣ	-8565
▁ㄱㅏㄷㅗㅇ	-8566
▁ㄷㅜㄲㅓㅂ	-8567
▁ㅅㅜㅅㅡㅂ	-8568
▁ㅎㅐㅈㅓㄱ	-8569
▁ㅇㅏㄹㅇㅏㄴㅐ	-8570
▁ㅇㅐㅌㅡㄹㄹㅐㄴ	-8571
ㅂㅅㅡ	-8572
ㅋㅏㄹㅡ	-8573
▁ㄱㅕㄱㅌㅚ	-8574
▁ㅅㅣㄹㅈㅏㅇ	-8575
▁ㅅㅡㅌㅠㅇㅓㅌㅡ	-8576
▁ㄱㅡㅂㄱㅕㄱㅎㅣ	-8577
▁ㄷㅚㄱㅔ	-8578
▁ㅅㅣㄴㄱㅠ	-8579
▁ㅇㅏㄴㅅㅓㅇ	-8580
▁138	-8581
▁ㄴㅐㅇㄱㅏㄱ	-8582
▁ㅅㅏㄴㄹㅣㅁ	-8583
▁ㅂㅜㅁ	-8584
▁ㅋㅗㄱ	-8585
▁ㅈㅓㅎㅏ	-8586
▁ㄱㅕㅇㅇㅕㄴ	-8587
▁ㅂㅐㄱㅅㅐㄱ	-8588
▁ㅂㅜㄴㄷㅏㅇ	-8589
▁ㅂㅗㄹㅣ	-8590
▁ㅋㅗㅍㅡ	-8591
▁ㄱㅓㄹㅗㄴ	-8592
▁ㅎㅐㅁㅣㄹ	-8593
▁ㅇㅝㄴㅅㅜㅇㅇㅣ	-8594
ㅌㅏㄹㅗ	-8595
▁ㄱㅣㅁㄱㅣ	-8596
▁ㄷㅗㅇㅎㅐㅇ	-8597
▁ㄹㅏㅇㅣㅂㅡㄹㅓㄹㅣ	-8598
▁la	-8599
ㅅㅟㅂ	-8600
▁ㅇㅝㄷㅡ	-8601
ㅅㅡㅇㅈㅣ	-8602
▁ㄷㅗㅈㅏㅇ	-8603
▁LP	-8604
▁ㅅㅣㄴㅎㅏㄴ	-8605
▁ㅇㅏㅁㅏㄷㅗ	-8606
▁ㄷㅐㅇㅢㅇㅝㄴ	-8607
▁ㅌㅐㄱㅅㅣ	-8608
▁ㅇㅣㄴㅍㅡㄹㄹ	-8609
▁ㄱㅗㅅㅏ	-8610
▁ㄱㅡㄱㅎㅣ	-8611
▁ㅇㅏㄴㄱㅣ	-8612
▁ㅇㅏㅀ	-8613
▁ㅇㅓㅇㅜㄹㄹㅣ	-8614
▁ㅋㅡㄹㅏ	-8615
▁ㅂㅐㄱㅎㅘㅈㅓㅁ	-8616
▁ㅅㅏㅁㄱㅜㄱㅈㅣ	-8617
▁ㅎㅜㅋㅜㅅㅣㅁㅏ	-8618
▁ㄷㅗㅈㅜ	-8619
▁ㄱㅏㅁㄹㅣ	-8620
▁ㄷㅗㅇㅈㅓㅁ	-8621
▁ㅁㅏㄴㄴㅏㅁ	-8622
▁ㅈㅓㄴㄴㅕㅁ	-8623
▁ㄷㅐㅍㅛㅈㅏㄱ	-8624
▁ㅌㅔㅇㅣㅂㅡㄹ	-8625
▁ㅂㅏㄴㄱㅏㅁ	-8626
▁ㅊㅚㅅㅏㅇㅇㅟ	-8627
▁360	-8628
▁ㅂㅜㄷㅣ	-8629
▁ㅂㅏㄴㄱㅕㅇ	-8630
▁ㄱㅣㄷㅏㄴ	-8631
▁ㅎㅕㄴㅈㅗㅇ	-8632
▁ㄹㅡㄴ	-8633
▁ㅊㅏㅇㄱㅗ	-8634
▁ㅋㅗㅁㅜㄴㅔ	-8635
▁ㅍㅣㅇㅏ	-8636
▁ㅂㅏㅇㅣㅇㅗ	-8637
ㅏㅁㅈㅟ	-8638
▁ㄴㅏㅁㅣ	-8639
▁ㅂㅏㄴㅈㅣ	-8640
▁ㄹㅣㅇㅜㅅㅡ	-8641
▁ㅇㅚㅊㅣ	-8642
▁ㅅㅡㅌㅗㄱ	-8643
▁ㅌㅏㅁㄱㅜ	-8644
▁ㅎㅘㄴㅇㅕㅇ	-8645
▁ㄸㅓ	-8646
▁ㅈㅜㅇㅣ	-8647
▁ㄷㅗㄹㅂㅗ	-8648
▁ㅁㅕㄴㅎㅓ	-8649
▁ㅅㅏㅎㅓㄴ	-8650
▁ㅈㅗㄹㅣㅂ	-8651
ㅅㅖㄹ	-8652
▁ㅇㅜㅅㅔ	-8653
▁ㅊㅚㅇㅏㄱ	-8654
▁ㅌㅗㅅㅓㅇ	-8655
▁ㅎㅚㅅㅅㅜ	-8656
▁ㅎㅏㄴㅉㅗㄱ	-8657
▁ㅂㅏㄱㅎㅐ	-8658
▁ㄱㅗㅅㅓㅇ	-8659
▁ㅇㅡㄹㅈㅣ	-8660
▁ㅇㅣㄱㅎㅣ	-8661
▁ㅊㅣㅁㅕㅇ	-8662
▁ㅁㅗㄴㅣㅌㅓ	-8663
▁ㅎㅕㄹㅌㅗㅇ	-8664
ㅂㅡㄹㄹㅗ	-8665
ㅋㅗㅇㅗㄹ	-8666
▁ㅇㅕㄹㄷㅐ	-8667
▁ㅂㅏㄴㄷㅗㅊㅔ	-8668
ㅂㅔㅇㅣ	-8669
▁ㄱㅜㄹㅡㅇ	-8670
▁ㄷㅔㅇㅣㅂㅣㅅㅡ	-8671
ㅣㅇㅏㅇㅣㄴ	-8672
▁ㅅㅏㄷㅏ	-8673
▁ㅅㅏㅇㅜㄹㅜㅅㅡ	-8674
▁En	-8675
▁104	-8676
▁ㅂㅣㄹㅣ	-8677
ㄷㅐㅅㅣㄴ	-8678
▁ㅈㅔㄷㅗㄱ	-8679
▁ㅇㅑㄱㅜㅈㅏㅇ	-8680
ㄷㅔㅅㅣ	-8681
▁ㅎㅜㅂㅏㅇ	-8682
▁ㅇㅕㅇㅇㅢㅈㅓㅇ	-8683
▁ㅅㅓㅇㅊㅔ	-8684
cl	-8685
ㅡㅁㅣ	-8686
▁ㄱㅡㄴㅏㄹ	-8687
▁ㅅㅏㄴㄹㅏㄴ	-8688
ㅅㅡㅌㅡㄹㅣ	-8689
▁ㄱㅗㅇㅊㅓㄴ	-8690
ㅊㅘㄴ	-8691
▁ㅇㅗㅎㅐ	-8692
▁ㅈㅐㅎㅕㄴ	-8693
▁ㅅㅏㅌㅗ	-8694
▁ㄹㅔㄴㅗㄴ	-8695
▁ㅂㅗㄱㅅㅓㄴ	-8696
▁ㅇㅣㅁㅇㅛㅇ	-8697
▁ㅅㅣㅊㅣㄹㄹㅣㅇㅏ	-8698
▁ㅅㅜㄴㄱㅛ	-8699
▁ㅎㅏㄴㅅㅡ	-8700
▁ㄱㅗㅈㅏㅇ	-8701
▁ㅇㅕㄷㅏㅇ	-8702
ㅇㅓㄹㅣ	-8703
▁ㄱㅓㅈㅔ	-8704
▁ㄱㅓㅎㅐㅇ	-8705
ㅇㅓㅂㅓㄹㅣ	-8706
▁ㄷㅐㅎㅏㄱㅅㅐㅇ	-8707
ㄱㅣㅅㅡ	-8708
▁ㄷㅏㅂㅣ	-8709
ㅣㅇㅏㅈㅜ	-8710
▁ㅅㅓㅇㅊㅟ	-8711
▁ㅇㅏㄹㄹㅜ	-8712
▁AK	-8713
▁109	-8714
ㅡㄹㄹㅣㅇ	-8715
▁ㅈㅏㄴㄹㅠ	-8716
▁Mar	-8717
▁ㄷㅗㄹㅜ	-8718
▁ㅇㅡㅁㄹㅛ	-8719
▁ㅎㅣㅁㅇㅣㅂ	-8720
▁ㅁㅕㅇㄹㅕㅇㅇㅓ	-8721
▁ㄹㅣㅅ	-8722
ㅔㄱㅌㅓ	-8723
▁ㅂㅏㅎㅡ	-8724
▁ㅈㅜㅈㅜ	-8725
▁ㅊㅜㄴㅊㅓㄴ	-8726
▁ㅅㅏㅎㅓㄴㅂㅜ	-8727
▁ㅅㅡㅌㅡㄹㅔㅅㅡ	-8728
▁ㅅㅠㅍ	-8729
▁ㅊㅗㅅ	-8730
▁ㅊㅣㅈㅡ	-8731
▁ㅈㅜㅇㅅㅓㅇㅈㅏ	-8732
ㅎㅔㅁ	-8733
ㅓㅁㅣ	-8734
▁ㅂㅜㄷㅏㅇ	-8735
▁ㅂㅕㄹㄷㅏㄹㅡ	-8736
▁ㄹㅜㅍㅡ	-8737
▁ㄱㅕㄴㅈㅔ	-8738
▁ㅂㅏㅇㅅㅗㅇㅅㅏ	-8739
▁ㅇㅜㅇㅟ	-8740
▁ㄷㅏㅂㅏㄹ	-8741
▁ㅈㅓㄱㅂㅜㄴ	-8742
▁ㅍㅜㅁㅈㅗㅇ	-8743
▁ㅇㅔㅅㅡㅌㅗㄴㅣㅇㅏ	-8744
ㅂㅏㅇㅑ	-8745
▁ㄱㅏㅉㅏ	-8746
▁ㅅㅓㅁㅓ	-8747
▁ㅇㅙㄴㅑ	-8748
▁ㅌㅔㅋㅡㄴ	-8749
▁ㅂㅣㅅㅣ	-8750
ㅎㅚㅈㅏㅇ	-8751
ㅔㅇㅑㅅㅡ	-8752
▁ㅎㅕㄴㅈㅓ	-8753
ㅇㅡㄴㅅㅐㄱ	-8754
▁ㅍㅗㄱㄷㅗㅇ	-8755
▁ㅇㅗㄹㅂㅏㄹㅡ	-8756
▁ㄱㅛㅎㅘㅇㅊㅓㅇ	-8757
▁ㅇㅣㅇㅔㅇㅑㅅㅡ	-8758
ㅍㅣㅂ	-8759
ㅁㅓㄹㅣ	-8760
▁ㄱㅗㅇㅣㄴ	-8761
▁ㅁㅗㄱㅍㅏㄴ	-8762
▁ㄱㅣㅃ	-8763
▁ㄱㅗㄱㅏ	-8764
▁ㅊㅜㄱㅈㅓㄱ	-8765
▁ㄱㅜㅎㅗ	-8766
▁ㅈㅗㄹㅣ	-8767
▁ㅎㅘㅇㅎㅐ	-8768
ㅇㅑㅇㅎㅏㅁ	-8769
▁CS	-8770
▁ㄹㅗㅇㅣ	-8771
▁ㅅㅗㅇㅅㅣ	-8772
▁ㅇㅏㅎㅗㅂ	-8773
▁ㅊㅏㅈㅏㅇ	-8774
▁ㅇㅕㄹㅈㅓㅇ	-8775
▁AR	-8776
▁123	-8777
ㄹㅣㄹㄹㅏ	-8778
▁ㅁㅐㅇㅣㅂ	-8779
▁ㅇㅠㄱㅊㅔ	-8780
▁ㅊㅓㅁㄱㅏ	-8781
▁ㄹㅣㅇㅓ	-8782
▁ㅇㅠㅎㅏㄴ	-8783
▁ㅇㅣㅇㅠㄴ	-8784
▁ㅈㅜㅇㅕㄱ	-8785
▁ㅈㅓㅇㅈㅓㅁ	-8786
▁ㄱㅣㅁㅍㅗ	-8787
ㄹㅗㄹㄹㅏㅇㅣㄴ	-8788
ㅈㅜㄹㅣ	-8789
▁ㄹㅗㅁㅏㄴ	-8790
▁ㅅㅜㄹㅕㄴ	-8791
▁ㅈㅡㅇㄷㅐ	-8792
▁ㅎㅏㄴㅇㅣㄴ	-8793
▁ㅎㅗㄹㅏㅇㅇㅣ	-8794
▁ㅅㅖㄹ	-8795
▁ㅍㅗㄱㅎㅐㅇ	-8796
▁ㅋㅏㅈㅏㅎㅡㅅㅡㅌㅏㄴ	-8797
ㅌㅡㄹㅗㄴ	-8798
ㅓㄸㅡㄹㅣ	-8799
▁ㅎㅏㅇㅝㄷㅡ	-8800
▁ㄱㅘㅇㅎㅏㄱ	-8801
ㅡㄴㅓ	-8802
ㅅㅏㄹㅇㅣ	-8803
▁ㅇㅓㄱㅇㅏㅂ	-8804
▁ㅎㅣㅇㅓㄹㅗㅈㅡ	-8805
▁ㅌㅗㅇㅈㅡㅇ	-8806
ㄹㅗㄱㅜ	-8807
▁ㅁㅗㄴㅗ	-8808
▁ㅈㅜㄹㅡㅁ	-8809
ㅊㅏㄱㅣ	-8810
▁ㄱㅜㅇㅣ	-8811
▁ㅊㅜㅇㅈㅓㄴ	-8812
AL	-8813
▁ㄷㅔㅁㅗ	-8814
▁ㄷㅏㅇㅣㅇㅏㅁㅗㄴㄷㅡ	-8815
▁ㄱㅗㅇㅅㅏㄴㅈㅜㅇㅢㅈㅏ	-8816
▁ㅈㅔㅎㅏ	-8817
▁ㅇㅕㄴㅎㅏㅂㅎㅚ	-8818
▁ㅎㅐㅁㅕㅇ	-8819
▁ㄱㅕㅇㄱㅘㄴ	-8820
ㅅㅣㄹㅂㅔㅇㅣㄴ	-8821
▁ㅍㅔㄴㅅㅣㄹㅂㅔㅇㅣㄴ	-8822
▁ㄱㅘㅇㅁㅜㄹ	-8823
▁ㅇㅘㅅ	-8824
ㅇㅡㄴㅇㅣ	-8825
▁ㅂㅓㅂㅁㅜ	-8826
ies	-8827
▁Op	-8828
▁ㅅㅓㅈㅐ	-8829
▁ㄱㅡㄹㅐㅁ	-8830
▁ㅇㅣㅈㅜㄴ	-8831
ㄷㅓㅅㅡㄴ	-8832
▁ㅇㅏㅁㅅㅣ	-8833
▁ㅁㅣㅋㅏ	-8834
▁ㅊㅓㅇㅊㅜㄴ	-8835
▁ㅅㅐㅇㅅㅏㄴㄹㅑㅇ	-8836
▁ㄱㅖㅅㅣ	-8837
ㅏㄷㅓㅅㅡ	-8838
▁ㅈㅔㅇㅣㄴ	-8839
▁ㅅㅏㅇㅇㅛㅇ	-8840
▁ㅅㅏㅇㅓㅂㅈㅏ	-8841
▁ㄱㅠㅂㅓㅁ	-8842
▁ㅂㅜㄹㅡㅋㅡ	-8843
▁ㄴㅏㅁㄷㅗㅇㅂㅜ	-8844
ㅂㅓㅂㅇㅣㄴ	-8845
▁ㅂㅓㄹㄱㅡㅁ	-8846
▁ㅌㅣㅅㅡ	-8847
▁ㅅㅏㅅㅏ	-8848
▁ㅅㅏㅇㅈㅓㅁ	-8849
▁ㅅㅡㄹㄹㅗㅂㅏㅋㅣㅇㅏ	-8850
▁CC	-8851
ㅇㅜㅁ	-8852
▁143	-8853
ㅈㅣㄹㅡㅁ	-8854
▁ㅇㅕㅁㄱㅣ	-8855
▁ㅌㅐㅇㅑㅇㄱㅖ	-8856
▁ㄹㅐㅍㅓ	-8857
▁ㅅㅠㅌㅡ	-8858
▁ㅇㅏㅇㅖ	-8859
▁ㅇㅠㄹㅗㅍㅏ	-8860
▁ㅈㅗㄴㅅㅗㄱ	-8861
▁ㅍㅓㅇㅋㅡ	-8862
▁ㅂㅏㄱㄹㅏㅁㅎㅚ	-8863
▁ㅈㅏㅁㅣㄴ	-8864
▁ㅅㅗㄴㅏㅌㅏ	-8865
▁ㄴㅓㅂㅣ	-8866
▁ㅅㅏㅇㅂㅏㄴ	-8867
ㅔㅈㅡ	-8868
▁ㄷㅗㄷ	-8869
▁ㄴㅗㄹㄹㅏㅂ	-8870
ㄴㅔㅅ	-8871
▁ㄱㅗㅅㅗ	-8872
▁ㄱㅏㅈㅜㄱ	-8873
ㅇㅏㅇㅣㄹㅂㅗ	-8874
▁ㅋㅓㅁㅍㅏㅇㅣㄹ	-8875
▁ㄷㅗㅇㅇㅏㅇㅣㄹㅂㅗ	-8876
ㄷㅗㄹㅣ	-8877
▁ㄱㅕㅇㅅㅏㅇㄷㅗ	-8878
▁ㄹㅜㅌㅓ	-8879
▁ㄱㅗㅇㅅㅜ	-8880
▁ㄷㅗㅇㅇㅣ	-8881
▁ㅁㅗㄱㅈㅐ	-8882
▁ㄱㅗㅇㅅㅡㅂ	-8883
▁ㄷㅏㅌㅜ	-8884
▁ㅂㅗㅅㅓㄱ	-8885
▁ㅅㅏㅇㅠㄱ	-8886
ㅌㅗㅁㅗ	-8887
▁ㄱㅏㅁㅅㅏㅇ	-8888
▁ㄱㅣㅁㄱㅕㅇ	-8889
▁ㅅㅣㄴㅇㅑㄱ	-8890
▁ㄴㅜㅇㅣ	-8891
▁ㅂㅗㅈㅡㅇ	-8892
▁ㄱㅗㅇㄱㅘㄴ	-8893
▁ㅂㅜㄴㄱㅣㅈㅓㅁ	-8894
ㅍㅜㅅㅡ	-8895
▁ㄹㅗㄹㄹㅣㅇ	-8896
▁ㅈㅗㅇㄹㅗㄱㅜ	-8897
▁ㅍㅕㅇㅇㅢㅎㅚ	-8898
ile	-8899
▁ㄱㅜㄱㅅㅗ	-8900
▁ㄹㅏㅇㅗㅅㅡ	-8901
▁ㅅㅐㅁㅍㅡㄹ	-8902
▁ㄱㅏㄱㅜㄴ	-8903
▁ㅅㅓㅇㅅㅏ	-8904
ㅎㅔㅇㅣ	-8905
▁ㅂㅜㅅㅓㄹ	-8906
▁ㅇㅏㄹㄹㅏ	-8907
▁ㅈㅓㄱㄷㅏㅇ	-8908
▁ㅈㅗㅅㅓㄴㅇㅣㄹㅂㅗ	-8909
▁ㄹㅔㅇㅣㄹ	-8910
▁ㅊㅣㄴㅇㅣㄹㅍㅏ	-8911
▁ㅇㅏㅇㅣㅅㅡㄹㄹㅏㄴㄷㅡ	-8912
▁ㄱㅡㄴㄱㅛ	-8913
▁ㅇㅙㄱㅗㄱ	-8914
▁ㅂㅜㅈㅔ	-8915
▁ㅇㅏㄹㅋㅗㅇㅗㄹ	-8916
▁ㅂㅣㅆㅏ	-8917
▁ㅈㅣㄹㅡ	-8918
ㄱㅝㄴㅈㅏ	-8919
▁ㅅㅓㅈㅣㄴ	-8920
▁ㅅㅏㅇㄷㅏㄴ	-8921
▁ㅋㅔㅇㅣㅅㅡ	-8922
▁ㅍㅔㅇㅣㅅㅡ	-8923
▁ㅅㅣㄴㅁㅣㄴ	-8924
▁ㅇㅗㅅㅔ	-8925
▁ㅁㅐㄱㄹㅏㄱ	-8926
ㅣㅇㅓㅁ	-8927
▁ㅂㅣㅇㅠ	-8928
▁ㅌㅓㅊㅣ	-8929
▁ㅎㅓㅇㅟ	-8930
▁ㅌㅐㄱㅝㄴ	-8931
ㅅㅡㅋㅏㄹㅡ	-8932
▁ㅁㅏㄷ	-8933
▁ㅎㅐㅅ	-8934
▁ㅅㅓㄹㅌㅏㅇ	-8935
▁ㅎㅘㅇㅅㅣㄹ	-8936
▁RNA	-8937
▁ㅍㅣㅂ	-8938
▁ㄴㅏㄹㅆㅣ	-8939
▁ㅂㅓㅁㅇㅣㄴ	-8940
▁ㅌㅗㅇㅇㅕㅇ	-8941
▁ㅅㅡㅌㅡㄹㅣㅁ	-8942
▁ㅈㅜㄱㅏ	-8943
ㄹㅣㅇㅏㄴ	-8944
▁ㅅㅡㄹㄹㅗㅂ	-8945
▁ㅂㅡㄹㄹㅏㄷㅣㅁㅣㄹㅡ	-8946
▁ㅇㅜㅇㅠ	-8947
ㄷㅏㅈㅣ	-8948
ㅇㅑㅁㅏ	-8949
▁ㄱㅗㅇㅇㅣㄱ	-8950
▁ㅌㅡㅇㅟㅌㅓ	-8951
▁Pr	-8952
▁col	-8953
▁ㄷㅐㅍㅗㄱ	-8954
▁ㄷㅗㅇㅇㅏ	-8955
▁ㅎㅕㅂㅂㅏㄱ	-8956
▁ㄱㅚㅇㅈㅏㅇㅎㅣ	-8957
ㄹㅓㅅ	-8958
ㅈㅣㅁㅏ	-8959
▁ㅂㅡㄹㄹㅗㄱㅡ	-8960
ite	-8961
ㅅㅠㅁ	-8962
ㅅㅣㅍㅣ	-8963
▁ㄲㅐㄷㅏㄷ	-8964
▁ㅂㅡㄹㄹㅏ	-8965
▁ㅅㅣㄱㅗㄹ	-8966
▁ㅎㅘㄱㅅㅣㄴ	-8967
▁ㅁㅣㅅㅕㄴ	-8968
▁ㅂㅗㄹㄹㅣㅂ	-8969
▁112	-8970
▁ㅈㅔㄹㅗ	-8971
▁ㄴㅐㅂㅗㄴㅐ	-8972
▁ㅅㅓㅇㄷㅏㄴ	-8973
▁ㅇㅣㄴㅁㅜㄴ	-8974
▁ㅍㅡㄹㄹㅓㅅㅡ	-8975
ㅔㅁㅏ	-8976
▁ㅇㅣㄴㅊㅔ	-8977
▁ㄷㅏㄴㄷㅏㄴ	-8978
▁ㄹㅏㅌㅡㅂㅣㅇㅏ	-8979
▁Te	-8980
▁ㅁㅐㄱㅈㅜ	-8981
▁ㅋㅡㄹㄹㅣㅂ	-8982
▁ㅈㅏㅇㄱㅓㄹㅣ	-8983
▁ㅂㅡㄹㅏㄷㅓㅅㅡ	-8984
▁ㅇㅠㅈㅚ	-8985
▁ㄱㅓㅊㅣㄹ	-8986
ㄴㅗㄹ	-8987
▁ㅇㅜㄴㅎㅏ	-8988
xt	-8989
ㄴㅡ	-8990
▁ㅁㅣㄱ	-8991
▁ㄱㅜㅊㅜㄹ	-8992
▁ㅇㅕㄴㅎㅏ	-8993
▁ㅇㅛㄷㅗㅇ	-8994
▁ㅇㅜㅅㅡㅇㅈㅏ	-8995
▁ㅇㅙㄴㅑㅎㅏㅁㅕㄴ	-8996
▁ㅇㅏㄹㅏㅂㅇㅓ	-8997
▁ㅈㅜㅇㅇㅢㅇㅝㄴ	-8998
▁ㄱㅕㅇㅂㅗ	-8999
▁ㅇㅣㄹㅈㅗ	-9000
▁ㅇㅑㅇㅋㅣㅅㅡ	-9001
ㄸㅏㄹ	-9002
▁ㅇㅗㅂㅣ	-9003
▁ㄱㅓㅂㅜㄱ	-9004
▁ㅅㅗㅅㅕㄹ	-9005
▁ㅍㅗㄹㅓㅁ	-9006
ㄹㅣㅅㅡㅌㅡ	-9007
▁ㄱㅕㅇㅊㅏㄹㅊㅓㅇ	-9008
▁CF	-9009
ㄹㅗㅇㅝㄴ	-9010
▁ㄷㅏㄱㅏㄱ	-9011
▁ㅅㅓㅇㅂㅕㄹ	-9012
▁ㅇㅕㄴㅅㅙ	-9013
▁ㄱㅡㄴㅇㅝㄴ	-9014
▁ㅊㅏㅇㅇㅝㄴㅅㅣ	-9015
▁ㅋㅣㅍㅡㄹㅗㅅㅡ	-9016
▁ㅍㅣㄹㅌㅓ	-9017
▁126	-9018
▁ㄴㅜㄴㅏ	-9019
▁ㅁㅜㅅㅓㅇ	-9020
▁ㅇㅕㅅ	-9021
▁ㅇㅣㅅㅜㄴㅅㅣㄴ	-9022
▁ㄴㅗㅅ	-9023
▁ㄷㅏㅇㅈㅜ	-9024
▁ㅂㅓㅂㅁㅜㅂㅜ	-9025
▁107	-9026
▁ㅅㅜㅂㅓㅂ	-9027
ㅌㅓㅁ	-9028
ㅗㅂㅓ	-9029
▁ㅈㅏㅅㅓㄴ	-9030
▁ㅌㅏㅁㅅㅏㅅㅓㄴ	-9031
ㅍㅏㄹㅡ	-9032
▁ㄱㅛㄱㅘㅅㅓ	-9033
▁ㄱㅏㅁㅏㅋㅜㄹㅏ	-9034
ㄲㅗㅂ	-9035
▁117	-9036
▁ㅁㅏㅅㅏㅇ	-9037
▁ㅇㅣㅅㅏㄴㅎㅘ	-9038
▁ㅋㅏㄹㅡㄹㄹㅗㅅㅡ	-9039
▁SE	-9040
▁ㄱㅐㄱㅛ	-9041
▁ㅊㅓㄴㅕ	-9042
▁ㅌㅏㄷㅏㅇ	-9043
ㅇㅏㄴㄱㅜㄴ	-9044
▁ㅅㅣㅂㅔㄹㅣㅇㅏ	-9045
▁ㅅㅣㄴㅅㅓㄴ	-9046
▁ㄱㅜㅊㅜㄱㅎㅏㅁ	-9047
▁ㄴㅜㄱ	-9048
▁ㄱㅡㄹㅐㄴ	-9049
▁ㅅㅣㄹㅊㅔ	-9050
▁ㅌㅏㅁㅅㅐㄱ	-9051
▁ㅅㅗㅇㅝㄴ	-9052
▁ㅃㅏㄹㄱㅏㄴ	-9053
▁ㄴㅏㅅㅡ	-9054
▁ㅁㅣㄴㅔ	-9055
▁ㅈㅔㅈㅐ	-9056
▁ㅊㅣㅇㅏㄴ	-9057
▁ㅎㅢㅅㅐㅇㅈㅏ	-9058
()	-9059
▁ㅇㅔㅋ	-9060
▁ㅂㅣㄴㄱㅗㄴ	-9061
▁ㄱㅓㅇㅜㄹ	-9062
▁ㅊㅜㄱㅎㅏ	-9063
▁ㄴㅐㅇㅈㅓㄴ	-9064
▁ㄱㅕㄹㅎㅏㅁ	-9065
▁ㅇㅑㅇㅊㅡㄱ	-9066
▁ㅇㅣㅂㅇㅝㄴ	-9067
ath	-9068
▁ㅁㅚ	-9069
ound	-9070
ㅑㄴㅡㄴ	-9071
▁ㅂㅔㅅㅡ	-9072
▁ㅎㅏㅂㅎㅏ	-9073
▁ㅇㅣㄹㅂㅏㅇ	-9074
▁ㅈㅗㅈㅗㅇㅅㅏ	-9075
ft	-9076
▁ㅍㅡㅌ	-9077
▁ㄱㅗㄱㅇㅣㄴ	-9078
▁is	-9079
▁KIA	-9080
▁ㅓㅅㅓ	-9081
▁ㅊㅓㄴㅈㅏㅇ	-9082
▁ㄹㅠㄱ	-9083
ㄷㅏㄴㅊㅔ	-9084
▁ㅇㅣㄴㅁㅕㅇ	-9085
▁ㅎㅏㄹㅁㅓㄴㅣ	-9086
ㄹㅣㅌㅡ	-9087
▁ㅇㅏㅋㅡ	-9088
▁ㄱㅗㅇㅂㅏㅇ	-9089
ㄱㅡㄹㅔㅇㅣㄷㅡ	-9090
▁ㅊㅏㄱㅏ	-9091
▁ㄱㅏㄷㅎㅣ	-9092
▁ㅅㅜㅅㅐㄱ	-9093
▁ㅇㅓㄴㄴㅣ	-9094
▁ㅎㅜㄱㅜㅇ	-9095
▁ㄹㅔㄱ	-9096
▁ㄲㅚㅎㅏ	-9097
▁ㅇㅣㄱㅕㅇ	-9098
▁ㅌㅜㅇㅗㄱ	-9099
ㅍㅜㄹㅡㅌㅡ	-9100
▁350	-9101
▁ㅁㅗㄹㄹㅐ	-9102
▁ㅈㅣㅍㅕㅇ	-9103
▁ㅅㅜㅇㅛㅇㅊㅔ	-9104
▁ㄱㅛㅈㅓㅇ	-9105
▁ㅍㅜㄹㄹㅣ	-9106
▁ㄱㅔㅅㅡㅌㅡ	-9107
▁ㅇㅓㅂㄱㅡㄹㅔㅇㅣㄷㅡ	-9108
▁ㅅㅏㅁㅊㅡㅇㅅㅓㄱㅌㅏㅂ	-9109
ㅕㄹㅐ	-9110
ㄹㅜㅅㅡ	-9111
▁ㅁㅜㄴㅇㅖ	-9112
▁ㅈㅓㅇㅅㅏ	-9113
▁ㅈㅔㄷㅐ	-9114
▁ㅅㅗㅇㅅㅣㅇㅕㄹ	-9115
▁com	-9116
▁ㄹㅣㅇㅗ	-9117
▁ㅆㅏㅇㅣ	-9118
ㅅㅡㅇㅂㅜ	-9119
ㅣㅇㅓㅅㅡ	-9120
▁ㅂㅗㅎㅗㄱ	-9121
▁ㅅㅏㅇㅅㅓ	-9122
▁ㅅㅡㅇㄱㅖ	-9123
▁ㄷㅗㅁㅏㅂㅐㅁㅂㅜㅌㅇㅣ	-9124
OL	-9125
▁ㅇㅏㅂㅜ	-9126
▁ㄹㅣㄹㄹㅣ	-9127
▁ㅈㅣㄴㅎㅏ	-9128
▁ㅊㅓㄹㅎㅚ	-9129
▁ㅌㅗㅇㅌㅡㄹ	-9130
▁ㅈㅜㄹㅁㅜㄴㅢ	-9131
▁ㅋㅡㄹㄹㅏㅇㅜㄷㅡ	-9132
▁ㅍㅏㅇㅣㅇㅓ	-9133
▁ㅎㅐㄱㅁㅜㄱㅣ	-9134
▁ㄷㅐㅇㅜㅇㅈㅓㄴ	-9135
▁ㅅㅏㅁㅅㅓㅇㅈㅓㄴㅈㅏ	-9136
▁ㅈㅔㅍㅡ	-9137
▁ㅎㅐㄴㄷㅡ	-9138
▁ㅈㅣㄴㄱㅗㅇ	-9139
▁ㅍㅏㄴㅂㅗㄴ	-9140
▁ㅇㅜㅎㅗ	-9141
▁ㄷㅗㅊㅓㅇ	-9142
▁ㅊㅣㅇㅊㅏㄴ	-9143
▁ㄱㅡㄱㅈㅏㅇㅍㅏㄴ	-9144
▁IM	-9145
ㄹㅔㄹ	-9146
▁ㅁㅜㄴㄱㅜ	-9147
▁ㅅㅓㅇㄷㅗ	-9148
▁ㅇㅕㅍㅁㅕㄴ	-9149
ㄴㅓㄼ	-9150
ㄸㅜㄱ	-9151
▁ㅇㅛㅇㅑㄱ	-9152
▁ㅌㅔㅇㅣㅍㅡ	-9153
▁ㄱㅗㅅㅗㄱㄷㅗ	-9154
▁ㅇㅏㅋㅏㄷㅔㅁㅣㅅㅏㅇ	-9155
▁CR	-9156
ㅃㅜㄹ	-9157
▁173	-9158
▁ㄹㅓㅁ	-9159
▁ㅅㅏㅇㅍㅛ	-9160
ㄹㅜㅇ	-9161
▁ㅇㅣㅋㅔ	-9162
▁ㅅㅔㅅㅗㄱ	-9163
▁ㅇㅣㅁㅎㅏ	-9164
▁ㅇㅕㄴㅎㅏㅂㄱㅜㄱ	-9165
ond	-9166
▁121	-9167
▁ㅎㅐㄱㅗ	-9168
▁ㅎㅡㄹㄹ	-9169
▁ㅇㅏㄹㅇㅏ	-9170
▁ㄹㅏㅇㅣㄴㅓ	-9171
▁ㅁㅏㄹㅆㅡㅁ	-9172
▁ㅇㅏㄹㅈㅔㄹㅣ	-9173
▁LC	-9174
ㄲㅣㄹㅣ	-9175
▁ㅅㅣㄴㅈㅜ	-9176
▁ㅍㅗㅂㅕㅇ	-9177
▁ㄱㅜㅇㄱㅡㄱ	-9178
▁ㄱㅗㄱㅗㅎㅏㄱ	-9179
▁ㅅㅏㅇㅅㅏ	-9180
▁Am	-9181
ㅏㅇㅜㅅㅡ	-9182
▁ㄱㅕㄹㅋㅗ	-9183
▁ㅌㅐㄱㅎㅏ	-9184
▁ㄱㅏㅈㅕㄱㅏ	-9185
▁ㅅㅏㅅㅐㅇㅎㅘㄹ	-9186
▁ㅎㅘㅈㅏㅇㅅㅣㄹ	-9187
▁113	-9188
▁137	-9189
▁ㅈㅔㄴㅣ	-9190
ㅈㅣㅂㅜㅇ	-9191
▁ㅎㅏㅇㅈㅐㅇ	-9192
▁ㅂㅜㅇㅢ	-9193
▁ㅇㅣㄹㅂㅏㄴㅇㅣㄴ	-9194
▁ㄱㅏㅊㅜㄱ	-9195
▁ㅂㅏㅇㅎㅘ	-9196
▁ㄱㅣㅇㅓㅂㅇㅣㄴ	-9197
▁1894	-9198
▁ㅁㅣㄹㅏ	-9199
▁ㅅㅣㅂㅏ	-9200
▁ㄱㅡㄴㅑㅇ	-9201
▁ㅇㅑㄱㄹㅕㄱ	-9202
▁ㅈㅓㄴㅂㅗㄱ	-9203
▁ㅅㅒ	-9204
ㄷㅜㄱㅛ	-9205
ㄹㅣㄱㅡ	-9206
ㅁㅏㄷㅡ	-9207
ㅂㅅㅣㄹ	-9208
▁ㄷㅐㅁㅕㅇ	-9209
▁ㄹㅣㅇㅓㄹ	-9210
▁ㄱㅣㅁㅎㅕㄴ	-9211
▁ㅃㅏㄹㄱㅏㄴㅅㅐㄱ	-9212
ov	-9213
ory	-9214
ㄱㅡㄹㄹ	-9215
ㅓㅂㅡㄹ	-9216
▁ㄷㅟㅈㅣㅂ	-9217
▁ㄱㅗㅇㅂㅐㄱ	-9218
▁ㅁㅏㄴㅇㅣㄹ	-9219
ㅈㅗㅂㅜ	-9220
ㅡㄱㅗㄴ	-9221
▁ㄴㅔㅅㅡ	-9222
▁ㅍㅔㄹㄹㅣ	-9223
▁ㅎㅗㄹㅡㅁ	-9224
▁ㄴㅗㅇㅣ	-9225
▁ㄴㅗㅎㅊㅣ	-9226
▁ㅋㅡㄹㅗㅁ	-9227
▁ㅅㅣㅁㅠㄹ	-9228
ㄱㅏㄹㅅㅐㄱ	-9229
▁ㅈㅣㄴㄱㅡㅂ	-9230
▁ㅂㅏㅌㅣㅋㅏㄴ	-9231
▁ㅇㅣㄹㄹㅣㄴ	-9232
▁ㄱㅡㄴㄹㅗㅈㅏ	-9233
▁ㅇㅣㄴㅏㅁ	-9234
▁ㅊㅚㄱㅏㅇ	-9235
▁ㅁㅏㄹㄴㅕㄴ	-9236
▁ㅇㅘㅇㅂㅗㄱ	-9237
▁z	-9238
ㅆㅡㄹ	-9239
▁ㄴㅗㅂㅏ	-9240
▁ㅂㅏㄹㅎㅐ	-9241
▁ㅁㅗㄴㅅㅡㅌㅓ	-9242
▁ㅍㅡㄹㅗㄱㅔㅇㅣㅁㅓ	-9243
▁SU	-9244
▁ㅂㅏㅇㅗㄹㅗ	-9245
▁ㄴㅗㅇㄹㅣㅁ	-9246
▁ㅁㅔㄹㄹㅗㄷㅣ	-9247
▁ㅇㅗㅍㅡㄴㅣㅇ	-9248
▁ㅊㅗㅇㄷㅗㄱㅂㅜ	-9249
▁ㄱㅣㅇㅓ	-9250
▁ㅊㅗㅇㅝㄹ	-9251
▁ㅇㅝㄴㅈㅓㄴ	-9252
▁ㅁㅣㄹㅡ	-9253
▁ㄱㅖㅈㅓㅇ	-9254
▁ㅅㅓㅁㅣㄴ	-9255
▁ㅁㅜㄹㄹㅕㅂㅏㄷ	-9256
ㅂㅏㄷㅏ	-9257
▁ㄷㅜㅇㅈㅣ	-9258
▁ㅇㅗㅂㅅㅕㄴ	-9259
▁ㅇㅛㅇㅂㅕㅇ	-9260
man	-9261
ㅂㅓㄱㅡ	-9262
ㅠㄹㅓㅂ	-9263
▁ㄱㅜㅈㅓㄹ	-9264
▁ㅅㅣㄴㅈㅗㅇ	-9265
▁ㅅㅏㅅㅏㅇㅈㅏ	-9266
ㄸㅏㄱ	-9267
▁ㅈㅣㅁㅣ	-9268
▁ㅎㅏㄹㅡ	-9269
▁ㄱㅗㅇㅁㅣㄴ	-9270
▁ㅎㅕㄹㄱㅘㄴ	-9271
▁ㄱㅐㅈㅗㅇ	-9272
ㄷㅐㄱㅣ	-9273
▁ㄱㅜㄴㅈㅓㅇ	-9274
▁ㄱㅣㅈㅣㄹ	-9275
▁ㅎㅏㄱㅁㅕㅇ	-9276
▁ㄴㅏㅁㅅㅓㅂㅜ	-9277
ㅂㅔㄱ	-9278
ㄷㅗㄱㅛ	-9279
▁ㄱㅔㅇㅣㅈㅣ	-9280
▁ㅍㅣㄹㄹㅣㅍㅡ	-9281
ㅎㅏㄹㅜ	-9282
▁ㅁㅗㅈㅏ	-9283
▁ㄴㅐㅈㅓㅇ	-9284
▁ㅎㅏㄱㄱㅖ	-9285
▁ㄱㅔㅇㅗㄹㅡ	-9286
iver	-9287
▁ㅎㅘㅎㅐ	-9288
ㅠㄱㅣㄴㅣ	-9289
▁World	-9290
▁ㅊㅚㄷㅐㅎㅏㄴ	-9291
▁ㄱㅏㅈㅏㅇㅈㅏㄹㅣ	-9292
ㅂㅣㄴㅏ	-9293
▁ㅍㅏㅅㅡ	-9294
▁ㄷㅏㄷㅎㅣ	-9295
ㅍㅓㄹㅓㄴㅅㅡ	-9296
▁ㅋㅓㅁㅠㄴㅣㅋㅔㅇㅣㅅㅕㄴ	-9297
▁ㄱㅡㄱㅅㅣㅁ	-9298
▁ㅈㅡㄱㄱㅏㄱ	-9299
▁ㅎㅚㅇㄷㅏㄴ	-9300
▁ㄷㅐㅍㅣ	-9301
▁ㄷㅟㅅㅁㅕㄴ	-9302
▁ㅁㅣㅅㅗ	-9303
▁ㅇㅛㄱㄱㅜ	-9304
▁ㄷㅣㅁ	-9305
▁ㄴㅓㅁㅊㅣ	-9306
▁ㄷㅗㄹㄱㅕㄱ	-9307
ㅅㅑㅇ	-9308
▁124	-9309
▁ㅁㅐㄱㅅㅡ	-9310
▁ㄱㅗㄴㄹㅏㄴ	-9311
ㅅㅖㅂㅣ	-9312
ㄴㅐㅇㅚ	-9313
▁ㅂㅜㄷㅣㅈ	-9314
▁ㅅㅓㅇㅁㅜㄴ	-9315
▁ㄱㅜㄱㄴㅐㅇㅚ	-9316
▁ㅂㅣㄹㅡ	-9317
▁ㄷㅗㄱㅇㅣㄹㅇㅣㄴ	-9318
▁ㅁㅝ	-9319
▁ㅂㅐㅎㅜ	-9320
▁ㅎㅚㅅㅏㅇ	-9321
ㅓㄴㄷㅡ	-9322
ㄷㅡㄹㅡ	-9323
▁ㅁㅗㅊㅣㄴ	-9324
▁ㅅㅏㅁㅜㄱ	-9325
▁ㅈㅓㅇㅅㅔ	-9326
▁ㅎㅏㄷㅗㅇ	-9327
ㄱㅗㄹㅐ	-9328
▁1890	-9329
▁ㄱㅘㄴㅅㅔ	-9330
▁ㅍㅕㅇㅈㅓㅇ	-9331
▁ㅍㅏㅇㅣㄴㅓㄹ	-9332
▁ㅇㅕㄴㅅㅜ	-9333
▁On	-9334
▁ㅇㅚㅁㅗ	-9335
▁ㅈㅔㅊㅣ	-9336
ㅍㅡㄹㅔㅅㅡ	-9337
▁ㅌㅐㄹㄹㅓㄴ	-9338
▁ㅍㅡㄹㅗㄷㅓㄱ	-9339
ㅋㅏㅁㅣ	-9340
▁ㅋㅐㅅㅣ	-9341
▁ㅁㅕㅇㅎㅏ	-9342
▁ㅊㅣㅁㅌㅜ	-9343
▁ㄱㅡㄷㅐ	-9344
▁ㅂㅏㅅㅡ	-9345
ㅋㅏㄹㅏㄱ	-9346
▁New	-9347
▁ㄸㅏㅅ	-9348
▁ㅍㅣㅇㅜ	-9349
ㅏㅁㅜㄹㅏ	-9350
▁ㅌㅐㄹㄹㅓㄴㅌㅡ	-9351
▁ㅁㅏㄷㅣ	-9352
ㅈㅜㄹㄱㅣ	-9353
▁ㅂㅜㄴㅁㅕㅇㅎㅣ	-9354
▁EC	-9355
ㅅㅣㅌㅏ	-9356
▁ㄱㅗㅇㅣ	-9357
ㅅㅏㄴㄷㅗㅇ	-9358
▁ㅁㅜㅇㅏㄴ	-9359
▁ㅈㅔㅇㅏㅂ	-9360
▁ㅇㅗㄹㅣㅋㅗㄴ	-9361
▁ㄷㅡㄹㅏㅇㅣㅂㅓ	-9362
▁ㅊㅗㄹㅗㄱ	-9363
IP	-9364
ㅈㅏㅇㅣ	-9365
▁ㅊㅔㅈㅗ	-9366
▁ㄱㅖㅇㅕㄹㅅㅏ	-9367
▁ㅍㅔㄹㅡㄷㅣㄴ	-9368
ich	-9369
ㅠㅁㅗ	-9370
ㅇㅞㅇㅣ	-9371
▁ㅅㅏㅂㅗㄴ	-9372
▁ㅈㅣㅇㄱㅖ	-9373
▁ㅊㅐㄹㄹㅣㄴㅈㅣ	-9374
▁be	-9375
ㅓㅇㅜ	-9376
▁ㅁㅓㄴㅈㅣ	-9377
▁ㅅㅓㄹㅎㅘ	-9378
▁ㄱㅘㄴㅇㅡㅁ	-9379
▁ㄷㅏㄱㅏㅇㅗ	-9380
▁ㅂㅗㅇㄱㅓㄴ	-9381
▁vs	-9382
▁ㅂㅡㄹㅣㅈㅣ	-9383
▁ㅂㅜㅈㅏㄱㅇㅛㅇ	-9384
▁ㅋㅡㄹㅣㅅㅡㅌㅗㅍㅓ	-9385
▁SD	-9386
ㅔㅌㅣ	-9387
▁ㄷㅓㄴㅣ	-9388
▁ㅁㅐㅁㅐ	-9389
▁ㅎㅜㅅㅏ	-9390
▁ㄴㅠㅌㅓㄴ	-9391
▁ㅈㅓㅇㅂㅕㄴ	-9392
▁ㄱㅡㄹㅗ	-9393
▁ㅅㅓㄴㅂㅣ	-9394
▁ㅋㅙㅅㅗㄱ	-9395
ㅗㅇㅣㅌㅡ	-9396
▁ㅅㅣㄴㅅㅏㅇ	-9397
▁ㅈㅏㅇㅕㄴㅅㅜ	-9398
▁114	-9399
▁ㄹㅔㄹ	-9400
▁ㅂㅡㄹㄹㅐㄱㅎㅗㄹ	-9401
▁ㅇㅠㅈㅓ	-9402
▁ㄱㅚㅁㅜㄹ	-9403
▁ㅂㅏㅂㅣㄹ	-9404
▁ㅉㅏㅇ	-9405
ㄹㅗㅇㅣ	-9406
▁ㄱㅘㄴㄱㅜ	-9407
▁ㅅㅗㄱㅠㅁㅗ	-9408
▁ㅂㅔㄴㅔㄷㅣㄱ	-9409
▁ㅅㅡㄹㄹㅗㅂㅔㄴㅣㅇㅏ	-9410
▁ㅁㅏㄺ	-9411
▁ㅇㅓㅁㅣ	-9412
ㄷㅐㅇㅝㄴㄱㅜㄴ	-9413
▁ㅂㅏㅇㅅㅏㅅㅓㄴ	-9414
ial	-9415
▁ㅇㅡㄴㄷㅔ	-9416
▁ㅈㅏㅇㅏ	-9417
▁ㅌㅐㄱㅡㄱ	-9418
▁ㅁㅐㄴㅣㅈㅓ	-9419
▁ㅋㅗㅁㅣㄱㅅㅡ	-9420
▁ㄱㅣㅁㅈㅓㅇㅇㅣㄹ	-9421
▁ㅎㅓㄱ	-9422
▁ㄴㅏㅂㅣ	-9423
ㅅㅡㅂㅜㄱ	-9424
▁ㅈㅏㅇㅡㅁ	-9425
▁ㅇㅕㅇㅅㅏㄴ	-9426
▁ㅇㅏㄹㄹㅜㅁㅣㄴ	-9427
▁ㅇㅏㄹㅐㅅ	-9428
▁ㅇㅣㄹㄱㅏ	-9429
▁ㅎㅔㄹㄹㅣ	-9430
▁ㅋㅓㄴㅅㅔㅂ	-9431
▁ㅎㅏㄱㅇㅓㅂ	-9432
▁ㅇㅣㄱㅓ	-9433
▁ㄱㅗㅇㄱㅏㅁ	-9434
▁ㅂㅔㄹㄹㅏㄹ	-9435
▁ㅋㅗㄹㄹㅣㄴ	-9436
▁ㅇㅖㅈㅗ	-9437
▁ㄱㅕㅇㅅㅣㄴ	-9438
hn	-9439
▁ㄱㅜㄴㅈㅜㅇ	-9440
▁ㅈㅐㅅㅏㅇ	-9441
ㅂㅡㄹㅣㅈㅣ	-9442
▁ㅋㅐㄴㅈㅏㅅㅡ	-9443
▁ㄱㅓㅁㅊㅏㄹㅊㅓㅇ	-9444
▁ㅅㅣㅈㅓㅇ	-9445
▁ㅌㅟㄹㅡ	-9446
▁ㅇㅛㅈㅓㅇ	-9447
▁ㅅㅡㅋㅡㄹㅣㅂ	-9448
▁Sc	-9449
▁ㅅㅏㅅㅏㄹ	-9450
▁ㅈㅣㅊㅣㅁ	-9451
▁ㄱㅜㅅㅡㅌㅏ	-9452
▁ㅇㅏㄹㅇㅏㅂㅗ	-9453
▁ㅌㅚㅇㅣㅁ	-9454
ㅇㅣㅆ	-9455
▁115	-9456
▁ㅋㅏㄹㅗㄹ	-9457
▁ㄷㅏㅂㅂㅕㄴ	-9458
▁ㄷㅗㅁㅣㄴㅣ	-9459
▁ㅇㅏㄱㄷㅏㄴ	-9460
ign	-9461
ㅈㅗㄱㅓㄴ	-9462
▁118	-9463
ㅏㅇㅣㄷㅡ	-9464
▁ㄱㅣㅁㄱㅠ	-9465
▁ㅂㅣㅊㄴㅏ	-9466
▁ㅇㅑㅇㅎㅗ	-9467
▁ㅈㅏㅌㅐㄱ	-9468
▁ㅅㅣㅇㅟㄷㅐ	-9469
▁ㄷㅏㅋㅡ	-9470
▁ㅂㅣㅊㅜ	-9471
▁ㅈㅜㅇㅎㅕㅇ	-9472
▁ㅌㅜㄴ	-9473
ㅈㅓㅈㅣ	-9474
▁ㅁㅣㄱㅅㅡ	-9475
▁ㅇㅕㄴㅅㅡㅇ	-9476
▁ㅌㅗㅇㅊㅣㅈㅏ	-9477
ㅗㅁ	-9478
▁ㅈㅐㅅㅓㄴ	-9479
ㅌㅏㄹㅣㅇㅗ	-9480
▁ㅅㅔㅇㅣㅂㅡ	-9481
▁ㅇㅠㄴㅊㅣㅎㅗ	-9482
▁ㄸㅓㄹㅊㅣ	-9483
▁ㅂㅏㄹㄹㅣ	-9484
▁ㄷㅏㄴㅕㅇㅗ	-9485
▁ㅂㅣㄹㅗㅅㅗ	-9486
▁ㅇㅝㄴㄹㅗㅇㅝㄴ	-9487
TS	-9488
▁ㅇㅝㅋㅡ	-9489
ㅎㅘㅇㅎㅜ	-9490
▁ㅈㅗㅂㅜ	-9491
▁ㄱㅘㅂㅏㄴ	-9492
▁ㅂㅕㄴㅇㅣ	-9493
▁ㄹㅣㅇㅜ	-9494
▁ㅁㅣㅋㅣ	-9495
▁ㅈㅓㄴㅓㄹ	-9496
▁`	-9497
▁ㄷㅐㄱㅓ	-9498
▁ㅁㅏㄹㅣㄴ	-9499
▁ㅈㅗㅇㅊㅏㄱ	-9500
▁ㅇㅣㄹㄹㅣㄴㅗㅇㅣ	-9501
▁ㅇㅣㅅㅔ	-9502
▁ㄱㅗㅇㅈㅗ	-9503
▁ㅈㅓㄴㅈㅏㄱㅣ	-9504
ㅈㅡㅂㅔ	-9505
ㅂㅏㄷㅏㄱ	-9506
▁ㅇㅛㅇㅇㅣ	-9507
▁ㅇㅜㅈㅡㅂㅔ	-9508
▁ㅈㅡㅇㅅㅗㄴ	-9509
ㅓㄹㄹㅣㅅㅡㅌㅡ	-9510
▁ㄴㅏㅁㅁㅣ	-9511
▁ㄸㅏㅅㅈㅟ	-9512
▁ㅇㅓㄱㅡㅅ	-9513
▁ㅈㅣㅇㅣㄴ	-9514
▁ㅎㅖㅌㅐㄱ	-9515
▁ㅁㅜㅅㅡㅇㅂㅜ	-9516
▁ㅅㅡㅇㅂㅜㅊㅏㄱㅣ	-9517
▁ㅇㅓㅅ	-9518
▁ㅋㅓㄴㅓㄹ	-9519
▁ㄷㅗㅇㅈㅓㅇ	-9520
▁ㅅㅜㄱㅊㅓㅇ	-9521
▁ㄹㅔㅂㅏㄴㅗㄴ	-9522
▁ㄱㅏㅂㅈㅏㄱㅅㅡㄹㅓㅂ	-9523
▁1898	-9524
▁ㅁㅏㄴㄹㅛ	-9525
▁ㅁㅏㄹㅕㄱ	-9526
▁ㅊㅟㅇㅓㅂ	-9527
▁ㄴㅠㅈㅓㅈㅣ	-9528
▁ㅎㅣㄴㄷㅜㄱㅛ	-9529
▁ㄷㅡㄹㅣㅁ	-9530
▁ㅎㅟㄹ	-9531
▁ㅂㅏㄺㄱㅣ	-9532
▁GP	-9533
▁ㄷㅏㅅㅡ	-9534
▁ㄷㅗㄹㅡ	-9535
ㅇㅠㅎㅐㅇ	-9536
▁ㄱㅡㄱㅈㅏㄱ	-9537
▁ㅂㅗㄴㄱㅜㄱ	-9538
▁ㅅㅗㅂㅏㅇㅅㅓ	-9539
ㄷㅏㅁㅕ	-9540
ㅗㄴㅌㅡ	-9541
▁ㅂㅣㄱㅣ	-9542
▁ㅈㅗㅇㅅㅗㄱ	-9543
ㅅㅣㅈㅡㅁ	-9544
▁ㅁㅗㄹㅗㅋㅗ	-9545
▁ㅁㅣㅎㅏㅇㅣㄹ	-9546
▁ㅁㅣㄹㅈㅣㅂ	-9547
▁ㅍㅏㄹㅏㄴㅅㅐㄱ	-9548
▁GS	-9549
▁ㄷㅔㄹㅡ	-9550
▁ㄱㅣㄱㅏㄱ	-9551
▁ㅂㅜㄹㅌㅏ	-9552
▁ㅇㅚㄱㅘㄴ	-9553
▁ㅇㅠㅈㅣㄴ	-9554
▁ㅎㅔㄹㄱㅣ	-9555
ㅈㅜㄹㅗ	-9556
ㅓㅂㅓㅂ	-9557
ㅎㅏㅁㅅㅜ	-9558
▁ㄴㅏㅁㄱㅜ	-9559
▁ㅅㅐㅇㅊㅔ	-9560
▁ㅍㅡㄹㄹㅐㅅㅣ	-9561
▁ㅍㅜㅇㅈㅏ	-9562
▁ㅊㅜㄱㅊㅜㄹ	-9563
▁III	-9564
▁ㅇㅜㅊㅡㄱ	-9565
▁ㅌㅗㅇㅂㅗ	-9566
▁ㅂㅏㄴㅈㅣㄹㅡㅁ	-9567
▁ㅇㅏㄴㅌㅗㄴㅣㅇㅗ	-9568
▁ㄱㅜㅇㅘ	-9569
▁ㅅㅡㅍㅗㄴ	-9570
▁ㅈㅓㄴㄴㅕㄴ	-9571
ㄹㅣㄴㅏ	-9572
ㄷㅐㅅㅓㅇ	-9573
▁ㄱㅏㅇㅗㄱ	-9574
▁ㅊㅔㅋㅗㅅ	-9575
▁ㅇㅑㅁㅏㅌㅗ	-9576
▁ㅇㅞㅅㅡㅌㅓㄴ	-9577
▁ㅅㅓㅇㄹㅣㅎㅏㄱ	-9578
▁ㄱㅕㅇㅊㅏㄹㄱㅘㄴ	-9579
▁ㅊㅔㅋㅗㅅㅡㄹㄹㅗ	-9580
▁ㅊㅔㅋㅗㅅㅡㄹㄹㅗㅂㅏㅋㅣㅇㅏ	-9581
▁ㅅㅓㅈㅏ	-9582
▁ㄴㅚㅁㅜㄹ	-9583
▁ㅋㅏㄹㄹㅏ	-9584
▁ㅍㅣㄹㅅㅏ	-9585
▁ㅈㅣㄱㅁㅕㄴ	-9586
▁ㅎㅏㄴㅈㅗㄱ	-9587
▁ㄹㅣㅂㅠ	-9588
▁ㅇㅘㅇㅅㅔ	-9589
▁ㅎㅢㄱㅟ	-9590
▁ㅅㅏㅈㅓㄱ	-9591
ph	-9592
▁ㄱㅘㄴㅈㅔ	-9593
▁ㅇㅞㅂㅌㅜㄴ	-9594
▁ㅍㅜㄹㄹㅕㄴㅏ	-9595
▁ㄹㅔㅅㅡㄹㄹㅣㅇ	-9596
▁ㄹㅜㄴ	-9597
▁ㄷㅣㅂㅣㅅㅣㅇㅗㄴ	-9598
▁ㅍㅡㄹㅗㄷㅓㄱㅅㅕㄴ	-9599
▁ㅇㅗㄴㅗ	-9600
▁ㅁㅜㅎㅏㅁ	-9601
▁ㅋㅔㅂㅣㄴ	-9602
ㄱㅗㅇㅅㅣㄴ	-9603
▁ㅂㅓㅁㅇㅠㅎㅐㅇ	-9604
▁ㅁㅣㅅㅔ	-9605
ㄱㅣㄴㅕㅁ	-9606
▁ㄱㅣㅈㅡㅇ	-9607
ㄱㅞ	-9608
ㄷㅗㅂㅏ	-9609
▁ㅋㅔㅇㅣㅁ	-9610
▁129	-9611
ㅇㅏㅁㅓㄱ	-9612
▁ㅅㅓㅅㅣㄴ	-9613
▁ㅈㅣㅊㅜㄹ	-9614
▁ㅍㅏㅅㅏㄴ	-9615
▁ㅎㅗㅊㅜㄹ	-9616
▁ㅅㅣㄱㅏㅈㅣ	-9617
ㅎㅐㅁ	-9618
▁ㅋㅔㄴㅑ	-9619
▁ㅅㅏㅇㅟ	-9620
▁ㅅㅜㄴㅈㅗ	-9621
▁ㅇㅢㅇㅑㄱㅍㅜㅁ	-9622
▁ㅈㅓㄻㅇㅡㄴㅇㅣ	-9623
▁ㅋㅛ	-9624
▁ㅕㅆ	-9625
ㅎㅏㅇㅣㅁ	-9626
▁ㄱㅏㅇㅅㅓ	-9627
▁ㅈㅗㅇㄹㅐ	-9628
▁ㅂㅏㄹㄱㅡㅂ	-9629
▁ㄱㅘㅇㅎㅐㄱㅜㄴ	-9630
ㅅㅜㅅㅗ	-9631
ㅈㅐㅇㅇㅣ	-9632
ㅎㅘㅁㅜㄹ	-9633
▁ㅎㅘㄹㅕㄱ	-9634
▁ㄷㅐㅂㅕㄴㅇㅣㄴ	-9635
ㅌㅔㄹㅡㅂㅜㄹㅡㅋㅡ	-9636
▁ㅇㅏㄹㄹㅜㅁㅣㄴㅠㅁ	-9637
▁ㅅㅡㅇㅈㅏ	-9638
▁ㅇㅕㄴㅇㅖㅇㅣㄴ	-9639
▁ㅇㅞㄴ	-9640
▁ㅋㅣㄹㅡ	-9641
▁ㄱㅏㅁㅈㅏ	-9642
▁ㅇㅚㅇㅑㅅㅜ	-9643
▁ㅂㅏㄹㅂㅕㅇ	-9644
▁ㅂㅗㅇㅇㅏㄴ	-9645
▁ㅇㅣㅁㅇㅝㄴ	-9646
▁ㅎㅔㄱ	-9647
▁ㅇㅔㄷㅡ	-9648
▁ㅎㅏㄴㅌㅔ	-9649
▁Ne	-9650
ㅡㄹㅓㅁㅣ	-9651
▁ㅁㅏㄱㄴㅐ	-9652
▁ㅈㅐㅎㅗㄴ	-9653
▁ㅈㅣㅇㅗㄱ	-9654
▁ㅎㅘㅇㅈㅗㄱ	-9655
▁ㅉㅗㅊㄱㅕㄴㅏ	-9656
▁ㄱㅐㅁㅏㄱㅈㅓㄴ	-9657
▁ㅁㅏㅇㅣㅋㅡㄹㅗ	-9658
ㅆㅜ	-9659
▁ㅅㅓㄴㄷㅗ	-9660
▁ㅇㅓㄹㅡㄴ	-9661
▁ㅅㅡㅌㅏㄹㅣㄱㅡ	-9662
▁ㅊㅏㅇㅊㅜㄹ	-9663
▁ㅈㅜㅇㅅㅏㄴ	-9664
▁ㅌㅓㄸㅡㄹㅣ	-9665
▁ㅍㅗㄱㄴㅓㄼ	-9666
▁1899	-9667
▁ㅇㅣㄷㅡ	-9668
▁ㅊㅔㅅㅡ	-9669
▁ㅍㅔㄴㅓㄹ	-9670
▁ㄴㅏㄴㅈㅣㅇ	-9671
▁ㅅㅣㄹㅁㅏㅇ	-9672
▁ㅋㅓㅁㅂㅐㄱ	-9673
▁ㅂㅔㄹㄹㅏㄹㅜㅅㅡ	-9674
ㄲㅜㅁ	-9675
ㅎㅣㅋㅗ	-9676
▁ㅅㅗㅁㅐ	-9677
▁ㅇㅛㄱㅓㄴ	-9678
▁ㅇㅡㅇㅅㅣ	-9679
ㅅㅗㄱㄱㅣ	-9680
▁ㅁㅜㅁㅕㅇ	-9681
▁ㅇㅝㄴㅊㅓㄴ	-9682
▁ㅊㅓㅁㄷㅏㄴ	-9683
▁ㅇㅕㄴㅅㅏㄴㅈㅏ	-9684
▁ㅇㅗㅀ	-9685
▁ㄷㅐㅂㅜ	-9686
▁ㅈㅓㅈㅜ	-9687
▁ㅁㅣㄷㅡㄹ	-9688
▁ㅊㅗㅇㅅㅏㄹㅕㅇ	-9689
ㅍㅗㅌㅓ	-9690
▁ㅂㅜㅍㅣ	-9691
▁ㅂㅜㅇㅢㅈㅏㅇ	-9692
▁ㅂㅡㄹㅣㅌㅡㄴ	-9693
▁ㄹㅓㅅㅔㄹ	-9694
▁ㅌㅗㅇㅑㅇ	-9695
▁ㅊㅓㅇㅅㅏㄴ	-9696
ㅋㅗㄷㅣㅇ	-9697
▁ㅊㅗㅇㅊㅣㅇ	-9698
▁ㅊㅓㄴㅁㅜㄴㄷㅐ	-9699
TA	-9700
▁ㅋㅘ	-9701
▁ㅎㅚㄱㅘㄴ	-9702
▁ㅋㅣㅂㅗㄷㅡ	-9703
▁ㅅㅏㅇㅛㅇㅈㅏ	-9704
▁ㅈㅏㅇㄹㅖㅅㅣㄱ	-9705
ㅋㅛ	-9706
▁ㄱㅏㄹㅜ	-9707
▁ㄷㅏㄷㅏ	-9708
▁ㅊㅓㄴㅎㅏ	-9709
▁ㅍㅡㄹㄹㅏㅅㅡㅌㅣㄱ	-9710
rom	-9711
▁ㅋㅔㄹㄹㅣ	-9712
▁ㅎㅢㄱㅗㄱ	-9713
▁ㅅㅓㅇㅍㅗㄱ	-9714
▁ㄷㅜㄹㅜ	-9715
ㅏㅇㅣㅈㅡ	-9716
▁ㅎㅗㄴㄷㅗㅇ	-9717
▁ㄱㅣㅅㅜㄹㅈㅏ	-9718
▁ㅎㅘㄱㅅㅣㄹㅎㅣ	-9719
▁ㅍㅡㄹㅏㅇㅋㅡㅍㅜㄹㅡㅌㅡ	-9720
▁ㅇㅏㅈㅡ	-9721
▁ㅈㅓㄴㅅㅗㄱ	-9722
▁ㅋㅡㄹㄹㅔㅁ	-9723
ㅉㅣ	-9724
▁ㅈㅜㅂㅜ	-9725
ㄹㅐㅇ	-9726
▁ㄴㅏㅁㅈㅏㄱ	-9727
▁ㄴㅓㅁㅇㅓㅅㅓ	-9728
▁ㅁㅏㅇㅜㄴㅌㅡ	-9729
▁ㄷㅟㅅㅂㅏㄷㅊㅣㅁ	-9730
▁ㄱㅏㅅㅣㄴ	-9731
▁ch	-9732
ㅌㅏㅈㅜ	-9733
▁ㅊㅓㄴㅈㅐ	-9734
ㄷㅏㅎ	-9735
▁ㅇㅠㅂㅏㅇ	-9736
▁ㅇㅏㅇㅣㄷㅣ	-9737
ㅍㅗㄹㅗ	-9738
▁ㅇㅖㅎㅏ	-9739
▁ㄲㅡㄹㅇㅓㄷㅡㄹㅇㅣ	-9740
▁142	-9741
▁ㄷㅐㅍㅐ	-9742
▁ㄱㅜㄱㅕㅇ	-9743
▁ㅅㅣㅂㅓㅁ	-9744
▁ㄱㅏㅁㅎㅐㅇ	-9745
▁ㅂㅕㄱㄷㅗㄹ	-9746
▁ㅇㅓㄵ	-9747
ㅍㅛㅇㅠㄹ	-9748
▁ㄱㅗㅇㄹㅣ	-9749
▁ㅅㅏㄱㅏㄴ	-9750
▁ㅇㅑㅇㅂㅏㄴ	-9751
MA	-9752
▁ID	-9753
ㅡㄹㅔ	-9754
▁ㅇㅖㄱㅗ	-9755
▁ㄱㅏㄹㄹㅏ	-9756
▁ㄱㅓㄹㅐㅅㅗ	-9757
▁ㅇㅗㅇㄹㅣㅂ	-9758
ㅜㅇㅔ	-9759
ㅡㄱㅏㅇ	-9760
▁ㅇㅓㅉㅓ	-9761
▁ㅅㅓㄹㄱㅛ	-9762
▁ㄹㅗㅂㅣ	-9763
▁ㅅㅗㅅㅐㅇ	-9764
▁ㅍㅐㄹㅓㄹ	-9765
▁ㄱㅛㅌㅗㅇㄱㅜㄱ	-9766
▁ㄷㅜㄹㅕㅇㅝㅎㅏ	-9767
ens	-9768
▁ㅇㅠㄹㅏ	-9769
ㅌㅏㅁㅣㄴ	-9770
▁ㅍㅡㄹㄹㅏㅇㅣ	-9771
▁ㅇㅝㄹㅇㅛㅇㅣㄹ	-9772
▁ㄷㅐㅊㅣ	-9773
▁ㄱㅏㅁㅁㅏ	-9774
▁ㅁㅏㄴㅅㅓㅇ	-9775
▁ㅈㅓㅇㅅㅓㅇ	-9776
pp	-9777
ㅏㄴㅣ	-9778
▁ㅎㅏㄱㄱㅣ	-9779
▁ㅈㅗㅈㅣㅍㅡ	-9780
ㅂㅏㅇㅅㅗㅇㄱㅗㅇㅅㅏ	-9781
▁BS	-9782
▁CJ	-9783
▁ㄱㅏㄱㄷㅗ	-9784
▁ㅂㅕㅇㄱㅣ	-9785
▁ㅍㅗㄱㅍㅗ	-9786
ㅅㅖㅂㅣㅋㅣ	-9787
▁ㄱㅗㅇㅈㅓㄱ	-9788
▁ㅅㅔㅇㅣㅂㅜ	-9789
▁ㅈㅔㄱㅜㄱㅈㅜㅇㅢ	-9790
ㄱㅗㅋㅜ	-9791
ction	-9792
▁ㅎㅘㅈㅏ	-9793
▁ㅂㅜㄴㅂㅣ	-9794
ㅈㅣㄴㄱㅜㄴ	-9795
▁ㄱㅘㅇㄷㅜㅇ	-9796
▁ㅅㅣㄴㅇㅝㄴ	-9797
urn	-9798
▁ㅌㅏㅈㅣ	-9799
▁ㄷㅡㅇㄱㅣ	-9800
▁ㅈㅜㅇㅊㅜ	-9801
▁ㅍㅣㄱㅕ	-9802
▁ㅎㅏㅊㅏ	-9803
ㄹㅣㅇㅓㄹ	-9804
▁ㅎㅏㅇㅑㅎ	-9805
ㅗㄹㄹㅔㅁㅏㅇ	-9806
▁ㅍㅡㅌㅗㄹㄹㅔㅁㅏㅇ	-9807
▁ㅍㅡㅌㅗㄹㄹㅔㅁㅏㅇㅣㅇㅗㅅㅡ	-9808
▁ㅊㅐㅅㅗ	-9809
▁ㅎㅘㅅㅏㅇ	-9810
▁ㄱㅏㄴㅅㅓㄴ	-9811
▁ㅍㅡㄹㅏㄴㅊㅡ	-9812
ㄲㅜㄹ	-9813
▁ㄹㅜㄱㅅㅔㅁ	-9814
▁ㅂㅗㄴㅁㅜㄴ	-9815
lan	-9816
ㄷㅗㄱㅜㄴ	-9817
▁JT	-9818
▁ㅅㅜㅂㅜㄴ	-9819
▁ㄷㅓㄱㅡㄹㄹㅓㅅㅡ	-9820
▁Man	-9821
ㄹㅡㄷㅏㄴ	-9822
▁ㄷㅗㄱㅅㅓㅇ	-9823
▁ㅇㅣㄴㄷㅣㅇ	-9824
▁ㅇㅗㄴㅌㅏㄹㅣㅇㅗ	-9825
▁ㅇㅣㅀㅇㅓㅂㅓㄹㅣ	-9826
▁ㅎㅕㅇㅈㅗ	-9827
▁ㄷㅐㅅㅓㅇㅑㅇ	-9828
▁ㅂㅜㅇㅕㅂㅏㄷ	-9829
ert	-9830
▁ㅈㅣㅊㅣ	-9831
▁ㅊㅔㄹㅠ	-9832
▁ㅂㅔㄹㄹㅣ	-9833
▁ㅇㅜㄴㅅㅜ	-9834
▁ㄹㅑ	-9835
▁ㅅㅣㄱㅏ	-9836
▁ㅋㅏㅅㅣ	-9837
▁ㄱㅘㅇㅈㅜㄱ	-9838
▁ㅈㅔㄴㅔㅂㅏ	-9839
▁ㅂㅣㅅㅓㄱ	-9840
▁ㅇㅚㄴㅅㅗㄴ	-9841
▁ㅇㅣㅈㅡ	-9842
▁ㅈㅣㄴㅅㅏ	-9843
▁ㅇㅕㅇㅁㅜㄴ	-9844
▁ㅈㅜㅇㅂㅗㄱ	-9845
▁ㅊㅜㄱㅁㅜㄹ	-9846
▁ㅊㅓㅇㅈㅜㅅㅣ	-9847
ㄹㅗㄹㄹㅏㅇㅣㄴㅏ	-9848
▁ㄷㅐㅅ	-9849
ㄱㅛㄷㅗ	-9850
▁ㅂㅏㄹㄱㅣ	-9851
▁ㄱㅡㅁㅇㅛㅇㅣㄹ	-9852
▁ㅅㅓㄹㅠ	-9853
▁ㄷㅗㄱㅅㅓ	-9854
▁ㅈㅓㅁㅅㅓㅇㅅㅜㄹ	-9855
▁ㄱㅓㅅㅔ	-9856
ㅎㅐㅇㅏㄴ	-9857
▁ㅊㅗㄱㅁㅐ	-9858
▁ㄱㅡㄹㅐㅁㅣ	-9859
▁ㄲㅡㄶㅇㅣㅁㅇㅓㅄㅇㅣ	-9860
▁ㅅㅓㄴㅂㅐ	-9861
▁ㅅㅓㅈㅏㅇ	-9862
▁ㅅㅡㅂㅈㅣ	-9863
▁ㅇㅑㅁㅏㄱ	-9864
▁ㅊㅓㄱㅊㅜ	-9865
▁ㅂㅔㄴㅣ	-9866
▁ㅍㅡㄹㄹㅐㅅㅍㅗㅁ	-9867
ㅌㅗㄱ	-9868
▁ㅍㅣㅅㅣㄴ	-9869
▁ㅅㅓㄴㅎㅐㅇ	-9870
▁ㅈㅓㅇㅈㅓㄱ	-9871
▁ㅇㅣㄱㅅㅡㅍㅡㄹㅔㅅㅡ	-9872
▁ㄱㅘㅇㅈㅜㄱㅘㅇㅇㅕㄱㅅㅣ	-9873
ㅔㄴㅣ	-9874
▁1902	-9875
▁ㄷㅗㅇㅎㅏㄱ	-9876
▁ㅁㅏㄴㅕ	-9877
▁ㅌㅗㄲㅣ	-9878
▁ㅎㅏㅁㅈㅓㅇ	-9879
ㅇㅟㅇㅝㄴ	-9880
▁ㅁㅜㄹㅍㅜㅁ	-9881
▁ㄱㅣㅅㅏㄷㅏㄴ	-9882
▁ㅌㅏㅇㅣㅁㅅㅡ	-9883
▁ㅎㅡㄴㄷㅡㄹㄹㅣ	-9884
▁ㄷㅏㄲ	-9885
▁ㅎㅏㄷㅏㄴ	-9886
▁ㅎㅗㄹㅡㅁㅗㄴ	-9887
▁ㄷㅏㅎㅏㅇㅅㅣㄱ	-9888
▁ㅂㅏㅂㅣㄹㄹㅗㄴ	-9889
▁ㅁㅗㄳ	-9890
▁ㄱㅏㄴㅌㅗ	-9891
▁ㅇㅣㅂㅡㄴ	-9892
▁ㅍㅗㅎㅚㄱ	-9893
▁ㅅㅡㅈㅡㅋㅣ	-9894
▁ㅍㅛㄱㅣㅂㅓㅂ	-9895
▁''	-9896
▁ㅇㅘㅋㅏ	-9897
▁ㄱㅏㅎㅘㄴ	-9898
▁ㅇㅘㅇㅣㅂ	-9899
▁ㅍㅛㅈㅓㄱ	-9900
▁ㄱㅣㅅㅂㅏㄹ	-9901
▁ㅁㅕㅇㅈㅗㅇ	-9902
▁ㅂㅗㅇㅣㅅㅡ	-9903
▁ㄹㅓㅅㅡ	-9904
ㅅㅡㅌㅗㄹ	-9905
▁ㅇㅡㄹㅕㄱ	-9906
▁ㄱㅏㅇㅂㅕㄴ	-9907
ㅎㅡㄱ	-9908
▁ㄹㅔㅁ	-9909
▁ㅌㅗㅁㅗ	-9910
▁ㅈㅓㄱㄷㅗ	-9911
▁ㅇㅓㄺ	-9912
▁ㅂㅗㅇㅟ	-9913
▁ㅇㅜㅊㅔ	-9914
▁ㅊㅗㅅㅣㄴ	-9915
▁ㅅㅡㅇㅟㅊㅣ	-9916
▁ㅈㅜㄴㄱㅕㄹㅅㅡㅇㅈㅓㄴ	-9917
▁ㄱㅜㄱㅇㅕㅇ	-9918
▁ㄹㅓㅅㅣㅇㅏㅇㅓ	-9919
ㅌㅠㅁ	-9920
▁ㄱㅣㅁㅎㅗㅇ	-9921
▁ㄷㅏㄴㅈㅓㄹ	-9922
▁ㅅㅓㅇㅠㄹㅓㅂ	-9923
lic	-9924
ㅅㅈㅣ	-9925
▁ㅁㅏㅇㅑ	-9926
▁ㄱㅡㄹㅡㅅ	-9927
▁ㄷㅗㅇㄹㅐ	-9928
▁ㅅㅏㅅㅡㅁ	-9929
▁ㅇㅔㄴㄷㅣㅇ	-9930
▁ㅇㅕㅇㄷㅡㅇ	-9931
▁ㄱㅘㄴㄱㅘㅇㅈㅣ	-9932
▁ㅂㅏㄲㅏㅌㅉㅗㄱ	-9933
▁ㅂㅜㅌㅈㅏㅂㅎㅣ	-9934
▁ㄹㅜㄱㅅㅔㅁㅂㅜㄹㅡㅋㅡ	-9935
▁ㅇㅟㅉㅗㄱ	-9936
▁ㅇㅡㄹㅕㄱㅗ	-9937
▁ㅈㅣㅅㅣㄱㅇㅣㄴ	-9938
aw	-9939
ㅋㅏㄱㅏ	-9940
▁ㅅㅜㅎㅘㄱ	-9941
▁ㄱㅏㅇㄷㅗㅇ	-9942
▁ㄱㅔㄹㅡ	-9943
▁ㄴㅏㄴㅗ	-9944
▁ㄷㅗㅇㄴㅔ	-9945
▁ㅇㅑㄱㅈㅏ	-9946
▁ㅈㅓㅇㄹㅕ	-9947
▁ㅋㅗㄲㅣㄹㅣ	-9948
▁ㅌㅡㄹㅣㅍㅡㄹ	-9949
▁ㅈㅓㄴㅂㅏㅇ	-9950
▁ㅈㅓㅇㄷㅗㅇ	-9951
▁ㅈㅑ	-9952
ㄷㅜㄹㅣ	-9953
▁ㅎㅐㅁㅣㄹㅌㅓㄴ	-9954
ㅊㅓㄴㄹㅣ	-9955
▁ㅁㅏㅂㅡㄹ	-9956
▁ㅅㅗㄴㅏㅁㅜ	-9957
▁ㅇㅝㄴㅈㅗㅇ	-9958
▁ㅈㅓㅇㄹㅣㅂ	-9959
ㅅㅔㅅ	-9960
▁ㅅㅗㅅㅣ	-9961
▁ㅊㅏㅁㅇㅢ	-9962
ys	-9963
ach	-9964
ㅏㄱㅗㄴ	-9965
▁ㅁㅜㄹㅏ	-9966
▁ㅇㅝㅌㅓ	-9967
▁ㅇㅕㄴㄲㅗㅊ	-9968
▁ㅋㅜㄱ	-9969
ㅊㅣㄱㅣ	-9970
▁ㅁㅕㄴㅈㅔ	-9971
▁ㅅㅠㅌㅣㅇ	-9972
▁ㅇㅡㅇㅎㅏ	-9973
▁ㅂㅜㄹㄲㅗㅊ	-9974
▁ㅅㅏㅇㄱㅡㅁ	-9975
▁ㄱㅏㄹㅅㅜㄹㅗㄱ	-9976
▁ㅊㅜㅂ	-9977
▁ㅇㅜㅇㅢ	-9978
▁ㅂㅡㄹㅐㄴ	-9979
▁ㅇㅞㅅㅡㅌ	-9980
▁ㅌㅏㄴㄷㅗ	-9981
▁ㄱㅘㅇㅁㅕㅇ	-9982
▁ㄱㅐㅅㅗ	-9983
▁ㅇㅣㅂㄱㅏㄱ	-9984
▁ㅍㅏㄴㄹㅖ	-9985
▁ㅇㅓㄱㅡㅅㄴㅏ	-9986
▁ㅂㅣㅎㅐㅇㅈㅏㅇ	-9987
ㅈㅣㅅㅈㅓㅁ	-9988
▁ㄱㅓㅁㅇㅕㄹ	-9989
▁ㅂㅗㄱㅇㅛㅇ	-9990
▁ㅇㅏㄷㅗㄹㅍㅡ	-9991
▁ㄹㅗㄹㅏ	-9992
▁ㅁㅜㅇㅓ	-9993
▁ㄱㅣㅅㅜㄱ	-9994
▁ㄷㅐㅅㅗㄴ	-9995
▁ㅁㅏㄱㅅㅣㅁ	-9996
▁ㄲㅗㄱㅈㅣㅅㅈㅓㅁ	-9997
▁ㅋㅞㅂㅔㄱ	-9998
▁ㄷㅏㄴㅊㅜㄱ	-9999
▁ㅇㅕㄱㄹㅑㅇ	-10000
▁ㅇㅕㅁㅈㅡㅇ	-10001
TC	-10002
ㄷㅐㅈㅏㅇ	-10003
▁ㅇㅏㅂㄷㅜㄹ	-10004
▁ㅇㅣㅂㄱㅜㄱ	-10005
ㄹㅔㄴㅏ	-10006
▁ㅅㅓㄹㅣ	-10007
▁ㅂㅗㅂㅗㄱ	-10008
▁ㅅㅓㅇㅈㅣ	-10009
▁ㅇㅣㄷㅏㄴ	-10010
▁ㅍㅔㅇㅣㄴ	-10011
▁ㅎㅓㄴㅅㅣㄴ	-10012
▁ㅂㅜㅎㅚㅈㅏㅇ	-10013
ㅌㅔㄱㅊㅓ	-10014
▁ㅇㅝㄴㄹㅛ	-10015
▁ㄱㅐㅇㅅㅣㄴ	-10016
▁ㅇㅣㅂㅅㅓㅇ	-10017
▁ㄱㅗㅇㅑㅇㅅㅣ	-10018
▁ㅇㅣㅇㅛㅇㅈㅏ	-10019
▁ㅇㅏㅋㅣㅌㅔㄱㅊㅓ	-10020
ㅏㅅㅣㅇㅏ	-10021
▁ㅇㅕㄹㄷㅗ	-10022
▁ㄱㅏㄴㄷㅏㄴㅎㅣ	-10023
LS	-10024
ㅎㅣㅌㅗ	-10025
▁ㅇㅏㅇㅣㄴㅅㅠㅌㅏㅇㅣㄴ	-10026
▁ㅍㅗㅋㅔㅅㅁㅗㄴㅅㅡㅌㅓ	-10027
▁No	-10028
▁1901	-10029
▁ㅆㅡㅊㅘㄴ	-10030
▁ㅈㅣㄱㄱㅕㄹ	-10031
▁ㅁㅠㅈㅣㅅㅕㄴ	-10032
▁ㅇㅔㄷㅣㅅㅕㄴ	-10033
ㄹㅔㅅ	-10034
▁ㅎㅏㅁㅏ	-10035
▁ㅅㅐㅇㅅㅐㅇ	-10036
▁ㅇㅕㄴㄱㅣㅈㅏ	-10037
▁ㅇㅕㅁㅅㅐㄱㅊㅔ	-10038
out	-10039
▁ㅇㅠㅊㅔ	-10040
▁ㅇㅣㅎㅘ	-10041
▁ㅌㅡㄹㅣㄱ	-10042
▁ㅌㅗㅊㅏㄱㅈㅗㅇ	-10043
▁ㅌㅡㄱㄱㅝㄴ	-10044
▁ㅍㅗㄱㄱㅕㄱㄱㅣ	-10045
▁ㅁㅣㄴㄱㅏㅁ	-10046
▁ㅍㅐㅁㅣㄹㄹㅣ	-10047
▁ㄷㅏㄴㅇㅢ	-10048
▁ㄷㅡㄹㅓㅁㅓ	-10049
▁ㅅㅏㄴㅊㅜㄹ	-10050
ㅂㅡㅅㅡ	-10051
▁ㄴㅜㅈㅓㄱ	-10052
▁ㅊㅜㄱㅈㅗ	-10053
ㅇㅓㄸㅡㄹㅣ	-10054
▁ㄱㅣㅁㅊㅏㅇ	-10055
▁ㅅㅏㅅㅍㅗㄹㅗ	-10056
▁ㅇㅛㄹㅡㄷㅏㄴ	-10057
▁ㅁㅐㅋㅏㅌㅡㄴㅣ	-10058
▁ㅇㅏㅁㅜㄱ	-10059
▁ㅇㅗㄹㄹㅏ	-10060
▁ㅍㅛㅂㅏㅇ	-10061
▁ㄱㅝㄴㅊㅗㅇ	-10062
▁ㅂㅏㅇㅅㅏㄴ	-10063
▁ㅁㅔㅋ	-10064
▁ㄱㅣㄴㅣ	-10065
ㄷㅗㅇㅣㄴ	-10066
ㅈㅜㅇㅣㄴ	-10067
ㅔㅅㅡㄹㄹㅣㅇ	-10068
▁ㅍㅡㄹㅗㄹㅔㅅㅡㄹㄹㅣㅇ	-10069
▁ㅇㅓㄹㅠ	-10070
▁ㅇㅣㅎㅕㄴ	-10071
ㅅㅡㅌㅔㄹㅡ	-10072
▁ㅅㅐㅇㄹㅑㄱ	-10073
ㅌㅜㄹ	-10074
ㅍㅣㅇㅓ	-10075
▁ㄲㅡㄹㄹ	-10076
▁ㅅㅜㅊㅜㄱ	-10077
▁ㅇㅣㅁㄱㅘㄴ	-10078
▁ㅇㅕㅇㄱㅜㄱㅇㅣㄴ	-10079
▁ㄱㅏㅁㅆㅏ	-10080
▁ㅅㅓㅁㅜㄴ	-10081
▁ㄹㅣㄷㅓㅅㅣㅂ	-10082
LE	-10083
▁ㅆㅓㄹ	-10084
ㅏㄱㅅㅡ	-10085
▁ㄱㅗㅇㅇㅖ	-10086
▁ㄱㅘㅇㄷㅐ	-10087
▁ㄷㅏㄹㄹㅕㄱ	-10088
▁ㅋㅔㅇㅣㅁㅂㅡㄹㅣㅈㅣ	-10089
▁ㄹㅏㅂ	-10090
ㅈㅏㄹㅡ	-10091
▁ㅅㅗㅁㅏㄹ	-10092
▁ㅈㅣㅋㅕㅂㅗ	-10093
▁ㅊㅣㅇㅏ	-10094
▁ㅇㅣㄹㅅㅏㄴ	-10095
ㅂㅔㅅㅡ	-10096
▁ㅈㅏㅋㅡ	-10097
▁ㅈㅏㅈㅏㄱ	-10098
▁ㅂㅏㅇㅣㅋㅣㅇ	-10099
▁ㅇㅜㄹㅅㅏㄴㄱㅘㅇㅇㅕㄱㅅㅣ	-10100
▁ㅇㅕㅇㅜㄴ	-10101
▁ㄱㅕㅇㅅㅓㅇㅂㅜ	-10102
▁ㅁㅔㅋㅓㄴㅣㅈㅡㅁ	-10103
IG	-10104
▁ㄹㅣㅍㅡ	-10105
▁ㄷㅗㅇㅛㅌㅗㅁㅣ	-10106
▁ㅎㅗㅁㅗ	-10107
▁ㄴㅗㄴㅎㅏ	-10108
▁ㅅㅔㅇㅣㄹ	-10109
▁ㅅㅣㄹㅈㅓㄱ	-10110
▁ㅇㅏㄴㄱㅕㅇ	-10111
▁ㅅㅏㅎㅚㄷㅏㅇ	-10112
▁ㅇㅣㅌㅏㄹㄹㅣ	-10113
ㅓㅇㅣㄹㅇㅡㅋㅣ	-10114
▁ㅂㅜㄹㄹㅓㅇㅣㄹㅇㅡㅋㅣ	-10115
ug	-10116
▁ㄹㅏㅍ	-10117
▁ㅊㅏㄹㅡ	-10118
ㅏㄵ	-10119
▁kt	-10120
ㅅㅔㄴㅌㅡ	-10121
▁ㄱㅗㅅㅏㄴ	-10122
▁ㅅㅡㄹㅣㄹ	-10123
▁ㅊㅔㅈㅜㅇ	-10124
▁ㅎㅘㄱㅏㅇ	-10125
▁ㅈㅓㅇㅁㅜㄴ	-10126
▁ㅇㅓㄴㅇㅓㅎㅏㄱ	-10127
▁ㅇㅜㅍㅏ	-10128
▁ㅂㅗㅎㅔㅁ	-10129
ㅔㄹㅏㄹ	-10130
▁ㅁㅜㄱㅜㅇ	-10131
▁ㅁㅏㅅㅡㅋㅡ	-10132
▁ㅇㅝㄴㅂㅗㄴ	-10133
▁ㅌㅡㄱㅅㅐㄱ	-10134
▁ㄱㅘㅇㅈㅓㅇㅜ	-10135
▁ㅇㅏㄹㅣㅅㅡㅌㅗ	-10136
▁ㅇㅏㅅㅣㅋㅏㄱㅏ	-10137
▁ㅇㅗㄱㅅㅡㅍㅓㄷㅡ	-10138
▁ㄷㅡㄹㅏ	-10139
▁ㄱㅡㄷㅏㅈㅣ	-10140
▁ㄷㅐㄷㅜ	-10141
▁ㅆㅡㄹㅔㄱㅣ	-10142
▁MB	-10143
ㅅㅡㅌㅔ	-10144
▁ㅎㅏㄱㄷㅐ	-10145
▁ㄴㅗㅌㅐㅇㅜ	-10146
▁ㅎㅗㅁㄱㅜㅈㅏㅇ	-10147
▁ㅅㅐㄱㅊㅐ	-10148
▁ㅇㅓㄷㅜㅁ	-10149
▁ㅌㅚㅇㅕㄱ	-10150
▁ㄱㅗㅇㅁㅕㅇ	-10151
▁ㅌㅡㄹㅗㅍㅣ	-10152
▁ㅅㅏㅇㅓㅂㄱㅏ	-10153
▁ㅇㅟㄱ	-10154
▁ㅍㅏㄹㄹㅏ	-10155
▁ㅅㅗㄴㄲㅗㅂ	-10156
▁ㄱㅐㅇㅣㄴㅈㅓㄴ	-10157
▁ㅈㅏㅇㄱㅣㄱㅏㄴ	-10158
▁All	-10159
ㅋㅜㅂㅓ	-10160
▁ㅂㅓㅌㅣ	-10161
▁ㅇㅣㅂㅕㅇ	-10162
▁ㅁㅗㅌㅓ	-10163
ㅍㅗㄹㄹㅣ	-10164
▁ㅂㅜㄹㅅㅣㄴ	-10165
▁ㅍㅏㅇㅣㅌㅓ	-10166
▁ㅇㅏㅁㅏㅈㅗㄴ	-10167
▁ㄹㅖ	-10168
ㄲㅡㅅ	-10169
▁ㅌㅗㄱㅣ	-10170
ㅜㄹㅣㅇㅏ	-10171
▁ㅇㅏㄹㅡㅌ	-10172
▁ㅇㅣㄹㅓㅎ	-10173
▁ㅅㅓㄴㄷㅗㅇ	-10174
▁ㅇㅕㄴㅂㅗㅇ	-10175
ㅋㅡㄹㄹㅔㅅㅡ	-10176
▁ㅇㅏㄹㄹㅔㄱㅅㅏㄴㄷㅡㄹㅡ	-10177
ype	-10178
ㄱㅑㄹ	-10179
▁134	-10180
▁ㄱㅐㅎㅘ	-10181
▁ㅁㅣㄹㄹㅏㄴ	-10182
▁ㄷㅜㄲㅔ	-10183
▁ㅎㅕㄴㅇㅡㄴ	-10184
▁ㅂㅏㅇㅅㅗㅇㅇㅣㄴ	-10185
▁ㅈㅓㄴㅇㅕㅁㅂㅕㅇ	-10186
▁ㅅㅡㄴㅣㅁ	-10187
▁ㅊㅟㅎㅏㅇ	-10188
▁ㅇㅏㄹㅏㅂㅣㅇㅏ	-10189
▁ㅇㅏㄹㄹㅔㄱㅅㅏㄴㄷㅡㄹㅣㅇㅏ	-10190
▁Cl	-10191
▁EX	-10192
▁THE	-10193
▁ㅎㅜㅁㅊㅣ	-10194
▁ㅅㅠㄴ	-10195
▁ㅇㅓㄹㅚ	-10196
▁ㅈㅗㅎㅕㅇ	-10197
▁ㅎㅔㅇㅣㄹ	-10198
▁ㄱㅓㅁㅊㅜㄹ	-10199
▁ㅅㅡㅋㅏㅇㅜ	-10200
▁ㅈㅜㅇㅇㅝㄴ	-10201
▁ㅈㅣㄷㅗㅂㅜ	-10202
▁ㄷㅏㅇㅇㅕㄴㅎㅣ	-10203
ke	-10204
ase	-10205
▁1903	-10206
ㄱㅡㄹㄹㅏ	-10207
ㅈㅓㅇㄹㅣ	-10208
▁ㄱㅣㅁㅈㅔ	-10209
▁ㄱㅗㅇㅎㅘㅇ	-10210
▁ㅁㅗㅅㅓㄹㅣ	-10211
ㅂㅏㄴㅏ	-10212
ㄴㅜㄴ	-10213
ㅗㄴㅔ	-10214
▁ㄱㅡㄹㄹㅜ	-10215
▁AN	-10216
ㅠㅇㅓㄹ	-10217
▁ㅈㅜㅈㅗ	-10218
▁ㄱㅏㅇㅕㄱ	-10219
▁ㅈㅘㅊㅡㄱ	-10220
▁ㅍㅐㄴㅓㄹ	-10221
▁ㅎㅓㄴㅈㅓㅇ	-10222
ㅂㅔㅌㅡㄴㅏㅁ	-10223
▁ㅁㅏㄴㅈㅜㄱㅜㄱ	-10224
ㅎㅏㅋㅣ	-10225
▁ㄹㅜㅌㅏ	-10226
▁ㅈㅓㄴㅇㅟ	-10227
▁ㅁㅜㅎㅏㅁㅁㅏㄷㅡ	-10228
▁1884	-10229
▁ㅂㅏㄴㄱㅗㅇ	-10230
▁ㅂㅏㅇㄱㅡㄹㄹㅏ	-10231
▁ㅂㅏㅇㄱㅡㄹㄹㅏㄷㅔㅅㅣ	-10232
ㄸㅏㅇ	-10233
▁ㄱㅏㅇㄱㅏㄴ	-10234
▁ㅋㅓㄴㅌㅡㄹㅣ	-10235
▁ㅇㅑㅁㅏㄱㅜㅊㅣ	-10236
▁ㅁㅣㄹㅡㄱ	-10237
▁ㅈㅣㄹㅅㅗ	-10238
▁ㅊㅜㄴㅊㅜ	-10239
▁ㅍㅏㅂㅕㅇ	-10240
▁ㅅㅏㅁㅊㅗㄴ	-10241
▁ㅈㅣㄱㄱㅕㅇ	-10242
▁ㅇㅣㅅㅓㅇㄱㅖ	-10243
ㅘㄷㅗㄹㅡ	-10244
▁ㅂㅐㅇㅜㅈㅏ	-10245
▁ㅆㅡㅅㅣㅁㅏ	-10246
▁Gr	-10247
ㅊㅓㅅㅡ	-10248
▁ㅊㅟㅁㅣ	-10249
▁ㄱㅗㅇㄱㅗ	-10250
▁ㄱㅣㅂㅜㄴ	-10251
▁ㅋㅗㅁㅣㄱ	-10252
▁ㅍㅡㄹㅔㄴ	-10253
▁ㄱㅏㄱㅅㅐㄱ	-10254
▁ㄷㅏㄴㅁㅕㄴ	-10255
▁ㅇㅔㅋㅘㄷㅗㄹㅡ	-10256
▁One	-10257
▁ㅍㅔㄴㅣ	-10258
▁ㄱㅜㅎㅕㅇ	-10259
▁ㅂㅏㄱㅈㅣ	-10260
ㅌㅏㅇㅣㅁ	-10261
▁ㅇㅣㅅㅏㄱ	-10262
CAF	-10263
▁ㅍㅏㅅ	-10264
▁ㅁㅜㄹㄱㅏ	-10265
▁ㅇㅣㄱㅘㄴ	-10266
▁ㅈㅓㅇㅇㅠ	-10267
▁ㅎㅏㅁㅅㅓㄴ	-10268
▁LA	-10269
▁ㅌㅗㅅㅣ	-10270
ㅊㅓㄴㅅㅏ	-10271
▁ㅇㅣㄴㅈㅣㄹ	-10272
▁ㅅㅡㄹㄹㅏㅂㅡ	-10273
▁ㅎㅏㄹㅣ	-10274
▁ㄷㅐㄱㅜㄱㅘㅇㅇㅕㄱㅅㅣ	-10275
▁ㅈㅓㅇㅅㅓㄴ	-10276
▁ㄱㅣㄴㅕㅁㅂㅣ	-10277
▁ㄱㅣㄴㅕㅁㄱㅘㄴ	-10278
▁1800	-10279
▁ㅎㅚㅍㅣ	-10280
▁ㅂㅏㅇㅣㄴ	-10281
▁ㅇㅣㅈㅏㅇ	-10282
▁ㅂㅏㄹㅋㅏㄴ	-10283
▁ㄷㅓㅇㅜㄱㅇㅣ	-10284
ㄱㅜㅊㅣ	-10285
▁ㅎㅏㅍㅡ	-10286
ㅇㅕㄱㅎㅏㄱ	-10287
▁ㄱㅜㄴㅅㅏㄴ	-10288
▁ㅈㅏㅇㅂㅕㄱ	-10289
▁ㅌㅡㄹㅔㅇㅣ	-10290
ㅏㅇㅣㅇㅓㄴㅌㅡ	-10291
▁ㅂㅗㄱㅎㅏㅂㅊㅔ	-10292
ㅅㅕㄹ	-10293
▁ㅅㅗㅁㅗ	-10294
▁ㄷㅐㅊㅜㄹ	-10295
▁ㄴㅏㄹㅋㅏㄹ	-10296
▁ㅇㅏㄴㅏㅋㅣ	-10297
▁ㅅㅣㄴㄷㅗㅂㅣ	-10298
ㅑㅂㅏ	-10299
ㅏㅇㅣㅅㅡ	-10300
▁ㄴㅏㄹㅋㅏㄹㅗㅂ	-10301
▁ㅇㅗㅅㅏㅋㅏㅂㅜ	-10302
▁ㅅㅔㄱ	-10303
▁ㅇㅢㄱㅕㄹ	-10304
▁ㄷㅡㄹㅔㅅㅡ	-10305
▁ㅋㅡㄹㄹㅏㅇㅣㅇㅓㄴㅌㅡ	-10306
▁ㅁㅔㅁㅗ	-10307
▁ㅁㅗㄴㅏ	-10308
▁ㅂㅜㅅㅡ	-10309
▁ㅌㅓㅂㅗ	-10310
▁ㅁㅗㅎㅏㅁ	-10311
▁ㅇㅏㅁㅣㄴㅗㅅㅏㄴ	-10312
▁ㅇㅘㅇㅣㅂㅓㄴㅅㅡ	-10313
ㅌㅏㅋㅔ	-10314
ㅂㅜㄹㄱㅛ	-10315
▁ㅈㅜㄴㅈㅜ	-10316
▁ㅈㅜㅇㄹㅕㅇ	-10317
▁ㅈㅣㄴㅈㅓㄴ	-10318
▁ㅎㅣㄹㅗㅅㅣ	-10319
▁ㅍㅡㄹㅏㄴㅊㅔ	-10320
▁ㅈㅜㅇㅇㅏㅇㅇㅏㅅㅣㅇㅏ	-10321
▁ㅈㅏㅂㅣ	-10322
▁ㄱㅜㄴㅎㅏㅁ	-10323
▁ㅇㅘㅇㅣㄹㄷㅡ	-10324
▁ㄹㅣㅁㅏㄴ	-10325
▁ㅅㅏㅇㅇㅡㅇ	-10326
▁ㅋㅗㅁㅍㅐㄱㅌㅡ	-10327
▁ㅂㅜㄱㅇㅏㅍㅡㄹㅣㅋㅏ	-10328
▁IN	-10329
▁ㄲㅐㅈㅣ	-10330
▁ㅇㅜㅎㅚ	-10331
▁ㅂㅡㄹㅏㄴ	-10332
▁ㅍㅣㅇㅏㄴ	-10333
▁ㄱㅕㅇㅈㅏㄱ	-10334
11	-10335
▁ㅌㅣㅋㅗ	-10336
▁ㅇㅜㄹㅍㅡ	-10337
▁ㅌㅚㅈㅓㄱ	-10338
▁ㄷㅗㄴㅓㄹㄷㅡ	-10339
▁ㅂㅔㄹㄹㅏ	-10340
▁ㅊㅜㅊㅓㅁ	-10341
ㅣㅇㅓㄴㅅㅡ	-10342
ㅁㅏㅅ	-10343
ㅅㅏㅇㅘ	-10344
▁ㅈㅔㄹㅣ	-10345
▁ㅍㅜㅇㅔㄹㅡ	-10346
ㅉㅓ	-10347
▁ㄹㅗㅈㅓ	-10348
▁ㄷㅐㅁㅜㄴ	-10349
▁ㅈㅗㅅㅡㅇ	-10350
▁ㅇㅡㅁㅎㅑㅇ	-10351
▁}	-10352
▁CN	-10353
▁ㅂㅗㄱㅅㅗㅅㅜ	-10354
▁ㄹㅡㅁ	-10355
▁ㅅㅗㅈㅏ	-10356
▁ㅈㅣㄴㄹㅛ	-10357
▁ㅍㅣㅇㅋㅡ	-10358
▁ㄱㅏㄴㅅㅣㄴ	-10359
▁ㅂㅜㄴㄹㅑㅇ	-10360
▁ㅈㅗㅂㅏㄴㄴㅣ	-10361
▁ㄱㅡㄹㅔㅇㅣㅌㅡ	-10362
▁ㅎㅛㄱㅗ	-10363
▁ㅇㅣㅂㅜㄱ	-10364
▁ㄲㅗㄱㄷㅐㄱㅣ	-10365
ree	-10366
▁ㅂㅔㄱ	-10367
▁ㄱㅜㅇㅑㄱ	-10368
ㄹㅔㅇㅣㅌㅓ	-10369
▁ㄱㅗㄱㅁㅜㄹ	-10370
▁ㄴㅣㅋㅗㄹㄹㅏㅇㅣ	-10371
▁ㄷㅗㅅㅓㄴ	-10372
▁ㄷㅏㄹㄱㅑㄹ	-10373
▁ㄱㅗㅊㅜ	-10374
▁ㅂㅣㄴㅠ	-10375
▁ㅅㅣㅋㅗ	-10376
ㅂㅓㄴㄴㅚ	-10377
▁ㅅㅣㄹㅈㅐ	-10378
▁ㅈㅓㄴㄱㅜ	-10379
▁ㄱㅘㄴㅈㅓㄹ	-10380
▁ㅍㅣㄱㅗㅇㅣㄴ	-10381
▁ㅊㅜㅇㅊㅓㅇㄷㅗ	-10382
▁ㅂㅏㄹㄹㅔㄴㅅㅣㅇㅏ	-10383
ㅐㄱㅅㅡ	-10384
▁ㅁㅣㅋ	-10385
▁ㅈㅟㄱㅘ	-10386
▁ㅋㅏㅇㅜ	-10387
▁ㄷㅏㅇㅅㅜ	-10388
▁ㅅㅣㅁㅎㅘ	-10389
▁ㅊㅓㄹㅍㅖ	-10390
▁ㅊㅜㄹㅗㄴ	-10391
▁ㅈㅗㅇㅁㅏㄹ	-10392
▁ㄱㅏㄴㅏㄱㅏㅇㅘ	-10393
▁ㅅㅗㅎㅐㅇㅅㅓㅇ	-10394
ㅐㄱㅗㄹ	-10395
▁ㅇㅓㄷㅡ	-10396
ㅂㅏㅇㅇㅜㄹ	-10397
▁ㄱㅗㅇㅇㅑㄱ	-10398
▁ㄱㅐㄹㄹㅓㄹㅣ	-10399
▁ㅇㅣㄹㅈㅏㄹㅣ	-10400
▁ㅊㅗㅇㄷㅐㅈㅜㄱㅛ	-10401
▁ㅂㅜㄴㅊㅜㄹ	-10402
pt	-10403
▁ㅎㅣㄹㅏ	-10404
ㅈㅗㅇㅓㅂ	-10405
▁ㅁㅜㅅㅡㄴ	-10406
▁ㅅㅣㄹㅁㅜ	-10407
▁ㅇㅠㄷㅐㄱㅛ	-10408
ary	-10409
▁ㄱㅏㅅㅏㄴ	-10410
▁ㄷㅔㅅㅡㅋㅡ	-10411
▁ㅈㅓㄴㅅㅣㅎㅚ	-10412
▁ㄱㅓㅈㅣㅅㅁㅏㄹ	-10413
▁ㅂㅏㅇㅅㅏㅅㅓㅇ	-10414
▁GO	-10415
▁ㄴㅔㅇㅗ	-10416
ㅅㅏㅇㅓㅂ	-10417
▁ㄱㅏㅇㅕㄹ	-10418
▁ㅁㅜㄲㅇㅣ	-10419
▁ㅁㅐㄱㄷㅗㄴ	-10420
ass	-10421
▁ㄴㅗㅇㅂㅜ	-10422
▁ㅊㅣㅁㅊㅔ	-10423
▁ㄱㅓㄴㄹㅠㅇ	-10424
▁ㄱㅝㄴㅈㅏㅇ	-10425
▁ㅅㅏㅇㄱㅕㅇ	-10426
▁ㅅㅣㄴㅊㅜㄱ	-10427
▁ㅎㅏㄴㅊㅡㅇ	-10428
▁ㄷㅡㄱㅍㅛㅇㅠㄹ	-10429
act	-10430
▁Ad	-10431
▁ㅎㅣㅁㅔ	-10432
▁ㄱㅕㅇㅂㅜ	-10433
▁ㄱㅛㄹㅑㅇ	-10434
▁ㄷㅗㄹㄱㅣ	-10435
▁ㅅㅗㅅㅜㅈㅏ	-10436
▁ㅅㅡㅌㅗㅇㅓ	-10437
▁ㄴㅠㅇㅛㄱㅈㅜ	-10438
▁ㄷㅐㅅㅓㅇㄷㅏㅇ	-10439
▁Br	-10440
ㅏㄷㅏㄺ	-10441
▁ㄱㅡㄹㅏㄴ	-10442
▁ㄲㅏㄷㅏㄺ	-10443
▁ㄷㅟㅉㅗㄱ	-10444
▁ㅂㅏㄴㅈㅓㄴ	-10445
▁with	-10446
▁ㅇㅝㄴㅓ	-10447
▁ㅂㅡㄹㄹㅣ	-10448
▁ㅎㅐㄴㅏㅁ	-10449
▁ㅎㅡㅇㅅㅓㄴ	-10450
▁ㅇㅓㄷㅡㅂㅔㄴ	-10451
▁ㄱㅏㅇㅎㅢ	-10452
▁ㄱㅕㄱㅊㅏ	-10453
▁ㄷㅣㅌㅡㄹ	-10454
▁ㅇㅛㅇㅅㅓ	-10455
▁ㄷㅏㅋㅔㄷㅏ	-10456
ㅎㅡㄹ	-10457
▁ㄴㅏㅁㅁㅐ	-10458
▁ㅅㅜㅁㅗㄱ	-10459
▁ㄱㅏㅁㅇㅏㄴ	-10460
▁ㅈㅏㅎㅕㅇ	-10461
▁ㅋㅐㅅㅓㄹ	-10462
▁ㅊㅓㅈㅣ	-10463
▁ㄱㅕㄴㅇㅣㄴ	-10464
▁ㄱㅛㄷㅗㅅㅗ	-10465
▁ㄱㅜㅇㅈㅜㅇ	-10466
▁ㄷㅗㅇㅈㅗ	-10467
▁ㅂㅗㄱㄱㅝㄴ	-10468
▁116	-10469
▁ㅇㅕㅈㅜ	-10470
▁ㅇㅜㅁㅜㄹ	-10471
▁ㅂㅏㄴㄱㅜㄴ	-10472
▁ㅈㅣㅈㅣㅇㅠㄹ	-10473
ㄹㅜㄹ	-10474
▁ㅅㅏㅇㅂㅓㅂ	-10475
▁ㅂㅗㄹㄹㅣㅂㅣㅇㅏ	-10476
▁220	-10477
▁ㄷㅔㄹㅌㅏ	-10478
▁ㅁㅗㄴㅌㅔ	-10479
ㅅㅏㅇㅣㄷㅡ	-10480
▁ㄱㅓㅈㅜㅈㅣ	-10481
▁ㅊㅏㅇㄴㅕㅇ	-10482
▁ㅋㅏㄹㅂㅐㅇ	-10483
▁ㅎㅕㄴㄱㅏㅁ	-10484
▁ㄱㅣㄱㅘㄴㅊㅗㅇ	-10485
▁ㄴㅏㅁㄷㅗㅇㅅㅐㅇ	-10486
▁ㅁㅓㅇ	-10487
ㄱㅐㅁㅣ	-10488
▁ㅈㅣㄴㅎㅐㅇㅈㅏ	-10489
▁1860	-10490
▁ㅌㅗㅁㅣ	-10491
▁ㄷㅡㅇㅇㅛㅇ	-10492
▁ㅍㅔㅇㅣㅅㅡㅂㅜㄱ	-10493
ark	-10494
▁ㄲㅐㄲㅡㅅ	-10495
▁ㄱㅕㅇㅇㅣㄴ	-10496
▁ㅅㅣㄴㄷㅗㅇ	-10497
▁ㅈㅓㄹㄷㅏㄴ	-10498
▁ㄷㅚㄷㅗㄹㄹㅣ	-10499
▁ㅅㅡㅌㅡㄹㅏㅇㅣㅋㅡ	-10500
ㄹㅐㄴ	-10501
▁ㄱㅡㄱㄷㅐ	-10502
▁ㅍㅏㄹㅏㄱ	-10503
▁ㅁㅣㄴㄱㅏㄴㅇㅣㄴ	-10504
▁ㅅㅡㅋㅡㄹㅣㅂㅌㅡ	-10505
ㄱㅏㅎ	-10506
▁ㄱㅣㅅㅡㄺ	-10507
▁ㄴㅐㅁㅅㅐ	-10508
▁ㅇㅕㄴㄷㅐㄱㅣ	-10509
▁ㅇㅣㄴㅌㅔㄹㅡ	-10510
▁ㄷㅣㅌㅡㄹㅗㅇㅣㅌㅡ	-10511
▁ㅍㅗㅌㅓ	-10512
▁ㅁㅣㄴㅈㅓㅇ	-10513
▁ㅂㅏㄹㄹㅕㅇ	-10514
▁ㅇㅏㅁㅣㅌㅏ	-10515
▁ㅍㅗㅅㅡㅌㅓ	-10516
▁ㅂㅓㅋㅡㄹㄹㅣ	-10517
ㄱㅣㄴㅕㅁㅁㅜㄹ	-10518
▁ㅇㅓㄷㅡㅂㅔㄴㅊㅓ	-10519
▁ㅍㅗㄱㄹㅗ	-10520
▁ㅇㅜㅅㅏㅇ	-10521
▁ㅊㅔㄹㅕㄱ	-10522
ㄹㅜㄴ	-10523
▁1897	-10524
▁ㄱㅡㅂㅅㅜ	-10525
▁ㅅㅣㄴㅈㅗ	-10526
▁ㅅㅣㄹㅂㅓ	-10527
▁ㅅㅣㅇㅏㄴ	-10528
▁ㅁㅏㅈㅂㅜㅌ	-10529
ㄹㅜㄱ	-10530
ㅓㅈㅣㄴ	-10531
▁ㅇㅓㅉㅣ	-10532
▁ㅁㅏㄱㅅㅡ	-10533
▁ㄴㅏㄱㄷㅗㅇ	-10534
▁Ex	-10535
▁ㅈㅗㅅㅜ	-10536
▁ㅅㅏㅇㄱㅗ	-10537
▁ㅅㅣㄴㅈㅓㅇ	-10538
ㅋㅏㄴㅗ	-10539
▁ㅁㅗㄹㅣㅅㅡ	-10540
ream	-10541
▁ㅂㅣㅈㅏ	-10542
▁ㅊㅔㅋㅡ	-10543
▁ㄹㅣㅂㅗㄴ	-10544
▁ㅎㅜㅂㅏㄴㄱㅣ	-10545
▁ㅈㅜㅇㄱㅗㅇㅇㅓㅂ	-10546
ㅗㄹㅜ	-10547
▁ㄴㅈㅣ	-10548
▁ㄸㅓㄱ	-10549
▁ㄹㅣㅈㅗ	-10550
▁ㅅㅣㄴㅗ	-10551
▁ㅅㅣㅇㅑ	-10552
▁ㅎㅜㅈㅏㄱ	-10553
▁ㅍㅕㅇㅊㅏㅇ	-10554
▁ㄷㅏㄴㅎㅐㅇㅂㅗㄴ	-10555
▁ㄷㅐㄱㅘㄴ	-10556
▁ㅎㅕㅁㅇㅗ	-10557
▁ㅁㅗㅌㅣㅂㅡ	-10558
▁ㅋㅏㅌㅏㄹㅡ	-10559
▁ㄱㅏㅇㅢ	-10560
▁ㄱㅛㄷㅐ	-10561
▁ㅁㅣㅈㅡ	-10562
▁ㅇㅐㅊㅣㅇ	-10563
▁ㅈㅗㅇㅍㅏ	-10564
▁ㅇㅣㄹㅂㅜㅂㅜㄴ	-10565
ㅌㅡㅍㅔ	-10566
ㅏㅌㅔㅅㅡ	-10567
▁ㅂㅗㅅㅓㅇ	-10568
▁ㅅㅏㅇㅌㅡㅍㅔ	-10569
▁ㅁㅓㅅㅡ	-10570
▁ㅂㅕㄱㅎㅘ	-10571
▁ㅊㅏㄹㄹㅣ	-10572
▁ㅅㅗㄹㄹㅜㅅㅕㄴ	-10573
▁ㄲㅏㄲ	-10574
▁ㅅㅣㄷ	-10575
▁ㅎㅠㄱㅏ	-10576
ㅅㅡㄹㄹㅣ	-10577
▁ㄷㅏㅇㅣㄹ	-10578
▁ㅇㅏㄴㅌㅣ	-10579
ㅍㅓㅅㅡㄴ	-10580
▁ㅈㅏㅇㅈㅔ	-10581
▁ㅌㅐㅂㅐㄱ	-10582
ㅅㅏㄴㅁㅐㄱ	-10583
▁ㅁㅏㅋㅏㅇㅗ	-10584
▁ㅁㅏㄷㅏㅇ	-10585
▁ㅅㅏㅇㄱㅏ	-10586
▁ㅈㅓㅇㅎㅘ	-10587
▁ㄷㅗㅇㅎㅕㅇ	-10588
▁ㅇㅘㅇㅈㅓㅇ	-10589
▁ㄱㅏㅇㄴㅏㅁㄱㅜ	-10590
▁ㄱㅏㄹㄹㅐ	-10591
▁ㅇㅣㅂㅈㅜ	-10592
▁ㅋㅐㅅㅓㄹㅣㄴ	-10593
▁ㅂㅏㄹㅡㅅㅑㅂㅏ	-10594
▁ㄱㅏㅇㄷㅐ	-10595
▁ㅂㅣㄹㄹㅏ	-10596
▁ㅂㅜㄱㄱㅕㅇ	-10597
▁ㅂㅡㄹㅜㅅㅡ	-10598
▁ㅈㅓㄱㄱㅜㄴ	-10599
▁ㅈㅓㄴㄱㅕㄱ	-10600
▁ㅈㅓㄴㅅㅏㄴ	-10601
▁ㅂㅔㄹㅌㅡ	-10602
▁ㅇㅕㅁㅅㅗ	-10603
▁ㅁㅣㄴㅔㅅㅗ	-10604
▁ㅎㅏㄱㄹㅕㄱ	-10605
▁ㅇㅏㅍㅗㄹㄹㅗ	-10606
▁ㅂㅡㄹㅟ	-10607
ㅇㅝㄴㄱㅜㄴ	-10608
ㅂㅡㄹㅣㅇㅔㄹ	-10609
▁ㅅㅔㄹㅏ	-10610
▁ㅅㅗㄱㅍㅕㄴ	-10611
▁ㅍㅔㄴㅓㄹㅌㅣ	-10612
▁ㄴㅏㄹㅜ	-10613
▁ㅅㅜㅈㅜㅇ	-10614
▁ㅇㅏㄴㅅㅏㄴ	-10615
▁ㅎㅏㅂㄷㅏㅇ	-10616
▁ㅇㅐㅌㅡㄹㄹㅐㄴㅌㅏ	-10617
▁ㄱㅗㅇㅅㅗㄴ	-10618
▁ㅈㅔㅈㅏㄱㅅㅏ	-10619
▁ㅋㅡㄹㄹㅏㅋㅡ	-10620
▁Is	-10621
▁ㅅㅕㄹ	-10622
▁ㅅㅜㄹㅛ	-10623
▁ㅇㅣㅅㅗㅇ	-10624
▁ㅈㅓㄹㅕㅁ	-10625
▁ㅎㅛㅈㅗㅇ	-10626
▁ㄷㅗㄹㅇㅣㅂ	-10627
▁ㄱㅛㅇㅠㄱㅊㅓㅇ	-10628
▁ㄱㅗㅇㅇㅛㅇㅇㅓ	-10629
▁ㄱㅕㅇㅈㅔㅎㅏㄱㅈㅏ	-10630
▁ㅇㅣㅇㅘㄴ	-10631
ㄱㅏㅈ	-10632
▁ㅈㅓㅇㅈㅜ	-10633
▁;&	-10634
▁con	-10635
ㅍㅡㄹㅔ	-10636
▁ㅅㅔㅂㅏ	-10637
▁ㅍㅏㅈㅣ	-10638
▁ㅇㅡㄹㄲㅏ	-10639
▁ㄷㅜㅁ	-10640
▁ㅅㅡㅋㅞㅇㅓ	-10641
▁ㅈㅣㅂㄱㅕㄹ	-10642
▁ㅎㅗㅇㅁㅜㄴㄱㅘㄴ	-10643
▁1880	-10644
▁ㅇㅐㄹㅣ	-10645
▁ㅂㅔㄹㅡㄱ	-10646
▁ㅂㅗㄱㅏㅇ	-10647
▁ㅈㅓㅇㄱㅕㅇ	-10648
▁ㅎㅘㄱㅈㅣㄴ	-10649
▁BM	-10650
▁122	-10651
ㅅㅔㄱㅣ	-10652
ㅈㅣㅅㅡ	-10653
▁ㅁㅜㅅㅜㄹ	-10654
▁ㅅㅗㅎㅐㅇ	-10655
▁ㅇㅣㅃㅏㄹ	-10656
ㅏㄹㅗ	-10657
▁ㄹㅣㅎㅣ	-10658
▁ㄱㅣㅁㅅㅜ	-10659
▁ㅂㅜㄴㅍㅏ	-10660
▁ㅈㅟㅅㅗㄱ	-10661
ㅇㅕㄴㅎㅏㅂ	-10662
▁ㄱㅣㅁㅁㅣㄴ	-10663
▁ㅁㅏㄹㅏㅌㅗㄴ	-10664
▁ㅇㅗㄱㅅㅜㅅㅜ	-10665
▁ㅎㅏㅁㅂㅜㄹㅡㅋㅡ	-10666
▁ㅂㅣㄴㄷㅗ	-10667
▁ㅊㅏㅇㅇㅢ	-10668
▁ㅇㅕㄴㄷㅗㅇ	-10669
▁ㅅㅛㄴ	-10670
▁ㅇㅐㅁ	-10671
▁ㅂㅗㅌㅡ	-10672
ㅅㅜㅇㅝㄴ	-10673
ㅌㅡㄹㄹㅣ	-10674
▁ㅊㅓㅇㅅㅐㄱ	-10675
▁ㄱㅚㄹㅗㅂㅎㅣ	-10676
▁ㅇㅏㄴㄷㅡㄹㅔㅇㅏ	-10677
iss	-10678
ㄷㅗㅅㅡ	-10679
▁ㅁㅔㄹㅏ	-10680
▁ㅌㅏㅎㅕㅂ	-10681
▁ㄱㅔㄹㅣㄹㄹㅏ	-10682
▁ㅇㅠㄴㅣㄱㅅㅡ	-10683
▁ㅍㅏㄹㅏㄱㅘㅇㅣ	-10684
ㅍㅜㄹㅡ	-10685
ㅜㅇㅏㄹㅡ	-10686
▁ㄱㅏㅂㅇㅗㅅ	-10687
▁ㅇㅣㅈㅜㅎㅏ	-10688
ㅋㅏㅌㅏ	-10689
▁2022	-10690
ㄱㅏㄴㅈㅣ	-10691
▁ㄱㅕㅇㅇㅟ	-10692
▁ㄱㅣㅁㅈㅣ	-10693
▁ㅅㅏㄹㅍㅣ	-10694
▁ㅋㅗㅅ	-10695
ㅅㅡㄹㄹㅓ	-10696
▁ᆫㄷㅏㅁㅕ	-10697
▁ㅁㅔㄹㅣㄹ	-10698
▁ㅅㅐㄹㅗㅇㅣ	-10699
▁ㅃㅓㄴ	-10700
▁ㅁㅜㅅㅡ	-10701
▁ㅇㅖㅁㅕㅇ	-10702
▁ㅊㅓㄴㅇㅕㄴㄱㅣㄴㅕㅁㅁㅜㄹ	-10703
UR	-10704
▁ㅅㅠㅅ	-10705
▁ㅅㅔㄴㅔ	-10706
▁ㄷㅠㅇㅓㄹ	-10707
▁ㅅㅓㄱㅎㅚ	-10708
▁ㅇㅗㄹㅏㄱ	-10709
▁ㅇㅠㄹㅕㅇ	-10710
▁ㅈㅓㅂㅅㅜ	-10711
▁ㄱㅏㅇㅍㅜㅇ	-10712
▁ㄱㅡㄱㅈㅏㄱㄱㅏ	-10713
ii	-10714
▁ㄷㅗㅇㅇㅛ	-10715
▁ㄱㅜㄴㅊㅓㅇ	-10716
▁ㅇㅕㄹㅅㅣㅁ	-10717
▁ㅇㅣㅂㅇㅑㅇ	-10718
▁ㅅㅓㄹㄹㅣㅂㅈㅏ	-10719
▁ES	-10720
▁133	-10721
ㅋㅗㅂㅌㅓ	-10722
▁ㅋㅗㄴㅌㅔ	-10723
▁ㅅㅓㄱㅂㅜㄹ	-10724
▁ㄱㅡㄹㅔㄱㅗㄹㅣㅇㅗ	-10725
▁ㅈㅐㅎㅐ	-10726
▁ㅇㅓㄸㅓㅎ	-10727
▁ㄱㅏㅇㅊㅓㄹ	-10728
▁ㄱㅡㄹㅣㅁㅈㅏ	-10729
▁ㄹㅗㄹㅓㄴ	-10730
▁ㅈㅏㅇㅇㅝㄴ	-10731
▁ㅊㅜㄹㅅㅓㄱ	-10732
ake	-10733
▁NGC	-10734
ㅌㅡㄹㅠㅁ	-10735
▁ㅇㅣㄹㅍㅏ	-10736
▁ㄷㅗㄹㅇㅏㄷㅏㄴㅣ	-10737
▁++	-10738
▁ㄴㅏㄲ	-10739
▁ㅊㅣㅇㅜ	-10740
▁ㄱㅏㅁㅊㅜ	-10741
▁ㅇㅣㅇㅓㄴ	-10742
▁ㅅㅏㅋㅏㅇㅣ	-10743
▁ㅇㅛㅇㅇㅏㅁ	-10744
▁ㅈㅣㅁㅈㅏㄱ	-10745
▁ㅇㅣㄷㅔ	-10746
▁ㅎㅗㄹㅣ	-10747
▁ㄴㅏㄹㅏㄴㅎㅣ	-10748
▁ㄷㅓㅂㅣ	-10749
ㅇㅚㅅㅓㄴ	-10750
▁ㅎㅗㅇㅡㅇ	-10751
▁ㄷㅜㄱㅐㄱㅗㄹ	-10752
▁ㅅㅑㄴ	-10753
▁ㄱㅘㅅㅣㄹ	-10754
▁ㄴㅐㄱㅓㄹ	-10755
▁ㅊㅕㄷㅡㄹ	-10756
▁ㄷㅡㅇㄱㅡㄱ	-10757
▁ㅋㅣㅇㅖㅍㅡ	-10758
▁ㄱㅛㅇㅠㄱㅂㅜ	-10759
ㅅㄱㅏㅄ	-10760
▁ㅅㅏㅎㅏㄱ	-10761
ㅅㅏㄴㅅㅓㅇ	-10762
▁ㅇㅝㄴㄱㅕㄱ	-10763
▁ㄱㅕㅇㅈㅐㅇㄹㅕㄱ	-10764
ㅂㅡㄹㅏ	-10765
ㅊㅡㅋㅡ	-10766
▁ㅎㅘㄱㄱㅗ	-10767
▁ㄱㅏㄹㄹㅣㅇㅏ	-10768
▁ㅇㅔㄹㄹㅣㅌㅡ	-10769
▁ㅇㅣㅇㅛㅇㄱㅐㄱ	-10770
▁ㅁㅏㅇㅐ	-10771
▁ㅊㅜㅈㅗㅇ	-10772
▁ㅈㅓㅇㅂㅗㅇ	-10773
▁ㅈㅣㅂㅏㅇㅅㅏㄴ	-10774
▁ㅎㅡㅇㅅㅓㄴㄷㅐㅇㅝㄴㄱㅜㄴ	-10775
▁ㅉㅡ	-10776
▁ㅋㅜㅂ	-10777
ㅎㅐㅌㅡㄴ	-10778
▁ㅈㅔㅇㅘㅇ	-10779
▁ㅎㅘㅅㅜㄴ	-10780
▁ㅅㅓㄴㅈㅏㅇ	-10781
▁ㅈㅓㅇㅂㅜㄱ	-10782
ㄴㅡㄴ	-10783
▁ㅎㅣㅅㅏ	-10784
ㅈㅏㅊㅣㅅㅣ	-10785
▁ㅂㅓㄴㅅㅓㅇ	-10786
▁ㅅㅏㅁㅜㅊㅗㅇㅈㅏㅇ	-10787
▁ㅌㅡㄱㅂㅕㄹㅈㅏㅊㅣㅅㅣ	-10788
▁ㄱㅣㅅㅓㅇ	-10789
▁ㄱㅣㅅㅏㅇㅊㅓㅇ	-10790
▁ㄱㅡㄹㅓㅎㅈㅣㅁㅏㄴ	-10791
▁DM	-10792
▁ㅇㅏㅇㅛ	-10793
▁ㅇㅓㄹㅗ	-10794
▁ㅇㅝㅊㅣ	-10795
▁ㄱㅡㄱㄷㅗ	-10796
▁ㅇㅛㅂㅓㅂ	-10797
▁ㅈㅣㅊㅓㅇ	-10798
▁ㅇㅕㄴㅁㅗㅅ	-10799
▁ㅈㅡㄹㄱㅓㅂ	-10800
▁ㅇㅟㅅㅐㅇ	-10801
▁ㅅㅡㅌㅡㄹㅏㅇㅣㅋㅓ	-10802
▁ㅅㅗㄹㅕㅇ	-10803
▁ㅇㅠㅈㅓㅇ	-10804
▁ㅂㅜㅌㅇㅕㅈㅣ	-10805
▁ㅅㅗㄴㄲㅗㅂㅎㅣ	-10806
old	-10807
▁ㅍㅔㅅ	-10808
▁ㅅㅔㄱㅅㅡ	-10809
▁ㅈㅐㄴㅏㄴ	-10810
▁ㅈㅗㅇㅈㅓㅁ	-10811
▁ㅎㅏㅁㅇㅑㅇ	-10812
▁ㅇㅣㄷㅗㅇㅎㅏ	-10813
HO	-10814
▁ㅅㅣㅁㅇㅑ	-10815
▁ㅈㅏㅇㄷㅏㄴ	-10816
▁ㅇㅣㄴㅍㅡㄹㅏ	-10817
▁ㅍㅗㄷㅗㄷㅏㅇ	-10818
▁ㅁㅣㅅㅐㅇㅁㅜㄹ	-10819
▁Mus	-10820
ㄱㅣㄱㅜ	-10821
▁ㄱㅜㄱㅇㅠ	-10822
▁ㅇㅣㄷㅡㄱ	-10823
▁ㅂㅏㄴㅇㅕㄱ	-10824
▁ㅇㅣㄹㄱㅘㄹ	-10825
ㅅㅏㄱㅘㄴㅎㅏㄱㄱㅛ	-10826
GA	-10827
▁ㅁㅗㅇㅛㅇ	-10828
▁ㅈㅏㄱㅕㄹ	-10829
▁ㄱㅕㄹㅍㅣㅂ	-10830
▁ㅎㅕㄴㅎㅐㅇ	-10831
▁CEO	-10832
ㅊㅜㄱㄱㅜ	-10833
▁ㄱㅕㄹㅈㅔ	-10834
▁ㅋㅗㅅㅡㅌ	-10835
ㅇㅝ	-10836
own	-10837
▁CBS	-10838
▁ㅎㅗㅍㅡ	-10839
ㅁㅓㄴㅅㅡ	-10840
▁ㅁㅣㄹㄹㅓ	-10841
▁ㅈㅓㅇㄱㅘㄴ	-10842
▁ㅎㅔㄹㄹㅠㅁ	-10843
▁ㄷㅐㅈㅣㅈㅣㄴ	-10844
▁ㅂㅓㅂㅈㅓㅇㄷㅗㅇ	-10845
▁ㅅㅣㅁㅠㄹㄹㅔㅇㅣㅅㅕㄴ	-10846
ㅅㅡㄴㅓㄹ	-10847
▁Ro	-10848
▁ㅎㅏㅇㅣㅁ	-10849
▁ㅈㅏㅇㄹㅗㄱ	-10850
▁ㅍㅔㄴㅅㅣㅇ	-10851
▁ㅅㅡㄹㅣㄹㅏㅇㅋㅏ	-10852
▁ㅇㅏㄴㅊㅣ	-10853
▁ㅁㅕㅇㅂㅜㄴ	-10854
▁ㅍㅡㄹㅐㅇㅋㅡㄹㄹㅣㄴ	-10855
▁ㄱㅐㅎㅏㅇ	-10856
▁ㅅㅡㅋㅏㄴ	-10857
▁ㄱㅏㅁㄷㅗㅇ	-10858
▁ㅅㅏㅇㅣㅌㅗ	-10859
▁ㅈㅏㅊㅣㅊㅔ	-10860
▁ㅈㅓㅇㅇㅣㄴ	-10861
▁ㅇㅏㅅㅡㄴㅓㄹ	-10862
ㄷㅏㅇㅜㄴ	-10863
▁ㅎㅏㅇㅣㄹ	-10864
▁ㅇㅏㅁㅎㅡㄱ	-10865
▁ㅈㅔㅈㅗㅇㅓㅂ	-10866
ork	-10867
▁ㅇㅣㄱㅠ	-10868
▁ㅇㅜㄹㅣㅁ	-10869
▁ㅍㅏㅁㅜㄴ	-10870
▁ㅍㅕㅇㅁㅣㄴ	-10871
▁ㅇㅏㅊㅣ	-10872
ㅏㅁㅏㅆㅡ	-10873
▁ㅈㅏㅅㅐㅇ	-10874
ㅗㄹㄹㅗㅈㅣ	-10875
▁ㄱㅜㄱㅇㅏㄱ	-10876
▁ㅌㅏㄱㅇㅝㄹ	-10877
▁ㄱㅓㅌㅂㅗㄱㅣ	-10878
▁ㅁㅜㄱㅜㅇㅎㅘ	-10879
▁ㄹㅗㅍ	-10880
▁ㅅㅓㅇㄹㅕㅇ	-10881
▁ㅇㅏㄹㅐㅉㅗㄱ	-10882
▁ㅁㅣㅅㅣㅅㅣㅍㅣ	-10883
▁GDP	-10884
▁ㄱㅏㅆㅡ	-10885
▁ㅁㅏㄱㅎㅣ	-10886
▁ㅈㅣㄴㅅㅜ	-10887
▁ㅇㅏㅍㅈㅏㅇ	-10888
▁NE	-10889
▁ㅈㅗㄱㅖ	-10890
▁ㅇㅣㅎㅏㅇ	-10891
▁ㅁㅏㄴㄴㅕㄴ	-10892
lo	-10893
▁ㅎㅏㄱㅗ	-10894
▁ㄴㅐㅅㅓㅇ	-10895
▁ㅅㅜㄱㅈㅜ	-10896
▁ㅁㅜㄴㄱㅕㅇ	-10897
▁ㅇㅗㅅㅏㄴ	-10898
▁ㅁㅏㅇㅜㅅㅡ	-10899
▁ㅁㅗㅌㅓㅅㅡ	-10900
▁ㅇㅗㄴㄱㅏㅈ	-10901
▁ㅁㅜㅈㅗㄱㅓㄴ	-10902
▁132	-10903
▁ㅅㅜㄴㅕㄴ	-10904
▁ㅋㅗㄹㄹㅔ	-10905
▁ㄷㅗㅇㅅㅓㅇㅇㅐㅈㅏ	-10906
ㅣㅂㅓㅅㅡ	-10907
▁ㅅㅓㄴㅇㅜ	-10908
▁ㄱㅏㅂㅡㄹㅣㅇㅔㄹ	-10909
▁ㅇㅏㅇㅣㅅㅡㅎㅏㅋㅣ	-10910
ick	-10911
▁PR	-10912
▁ㄷㅠㅇㅗ	-10913
ㅇㅟㅅㅓㅇ	-10914
▁ㅅㅣㅈㅗㅇ	-10915
▁ㅌㅏㅅㅓㄱ	-10916
▁ㅅㅓㄴㄱㅓㅂㅓㅂ	-10917
▁ㅇㅟㄴㅏㄹㅏ	-10918
▁ㅈㅏㅇㅎㅡㅇ	-10919
▁ㄷㅐㅅㅏㅎㅓㄴ	-10920
▁ㅅㅏㅁㄱㅜㄱㅅㅏㄱㅣ	-10921
ㅏㄹㅜ	-10922
▁ㅇㅑㅅㅣ	-10923
▁ㅅㅗㄱㅈㅜ	-10924
▁ㅎㅜㅅㅗㄱㅈㅏㄱ	-10925
▁ㄷㅗㅇㅊㅏㅁ	-10926
▁ㅂㅗㄱㅇㅡㅁㅅㅓ	-10927
▁ㅇㅣㄴㄷㅣㅇㅐㄴㅏ	-10928
▁or	-10929
▁ㅌㅚㅈㅏㅇ	-10930
▁ㅂㅜㄹㅎㅐㅇ	-10931
▁ㅈㅓㅇㄱㅜㄱ	-10932
ㅈㅣㄹㅣ	-10933
▁ㄱㅏㄷㅗ	-10934
▁ㄴㅏㄱㅎㅏ	-10935
▁ㅂㅣㄴㅂㅓㄴ	-10936
▁ㅅㅏㅇㅇㅕㄴ	-10937
▁CONCA	-10938
▁ㄲㅜㅁㄲㅜ	-10939
▁ㄱㅡㄹㅣㅅㅡㅇㅣㄴ	-10940
ㅐㅂ	-10941
▁ㅂㅜㅇㅕㄱ	-10942
▁ㅋㅔㅇㅣㄴ	-10943
ㄹㅣㅁㅍㅣㄱ	-10944
▁ㄱㅡㄹㄹㅗㅂㅡ	-10945
ㅌㅔㄴㅏ	-10946
ㅂㅕㄴㅇㅣ	-10947
▁ㅅㅜㅅㅣㅁ	-10948
▁ㅅㅣㄱㅜㄱ	-10949
▁ㅎㅏㅇㅣㄷㅡ	-10950
▁ㅅㅔㄴㄱㅗㅋㅜ	-10951
▁ㄷㅗㄹㅇㅕㄴㅂㅕㄴㅇㅣ	-10952
Hz	-10953
▁ㅈㅡㅁ	-10954
▁ㅁㅣㄴㅏ	-10955
▁ㅂㅜㄱㅏ	-10956
▁ㅅㅣㅇㅐ	-10957
ㅌㅣㄱㅅㅡ	-10958
▁ㄷㅐㄱㅏㄱ	-10959
▁ㅊㅗㅇㅝㄴ	-10960
▁ㅂㅣㅈㅜㅇㅓㄹ	-10961
▁CONCACAF	-10962
▁ㅂㅗㅎㅔㅁㅣㅇㅏ	-10963
▁ㅎㅗㅈㅗㄱ	-10964
ㅌㅏㅁㅏ	-10965
▁ㅅㅏㄱㅏ	-10966
▁ㄷㅏㄴㄱㅘ	-10967
▁ㅈㅗㅂㅕㅇ	-10968
▁ㄱㅜㄱㄷㅏㅇ	-10969
▁ㅁㅐㄱㅓㅈㅣㄴ	-10970
▁ㄱㅣㅈㅓ	-10971
▁ㅇㅗㅋㅣ	-10972
▁ㅁㅏㄹㅡㅋㅗ	-10973
ence	-10974
▁ㄹㅣㅁㅗ	-10975
▁ㅇㅢㅈㅏ	-10976
▁ㅅㅏㅇㄱㅣ	-10977
▁ㄷㅐㅅㅓㅇㅈㅓㄴ	-10978
ix	-10979
clude	-10980
▁ㄷㅡㄹㅔ	-10981
▁ㄱㅘㅇㅇㅑㅇ	-10982
▁ㅎㅕㄴㅈㅣㄱ	-10983
▁ㅇㅏㄴㄷㅡㄹㅗ	-10984
▁ㄱㅗㅌㅗ	-10985
▁ㄱㅗㅇㅍㅏ	-10986
ㅌㅏㅇㅣㄷㅡ	-10987
▁ㅌㅗㅇㅌㅡㄹㅇㅓ	-10988
ㅎㅐㅈㅣ	-10989
▁ㅈㅜㅎㅘ	-10990
ㅅㅡㅋㅜㄹ	-10991
ㅏㅇㅣㄷㅓ	-10992
▁ㄷㅜㄹㅕㅂ	-10993
▁ㅊㅗㅇㄱㅣ	-10994
▁ㅁㅏㄷㅏㄱㅏ	-10995
▁ㅈㅏㅇㄹㅗㄱㅛ	-10996
▁ㄹㅗㄹㅣ	-10997
▁ㅍㅛㅊㅏㅇ	-10998
▁ㅂㅏㄹㄱㅏㄱ	-10999
▁ㅇㅗㅋㅡㄹㄹㅐㄴㄷㅡ	-11000
ㅏㅂㅏ	-11001
▁pro	-11002
▁ㅁㅐㅇㅅㅔ	-11003
▁ㄱㅣㅂㅕㅇㄷㅐ	-11004
▁ㅂㅏㄱㅎㅓㄴ	-11005
▁ㅇㅑㅇㅇㅠㄱ	-11006
▁SL	-11007
▁ㄱㅗㅁㅏ	-11008
▁ㄱㅜㅅㅡ	-11009
▁ㅋㅏㅌㅏ	-11010
ㅅㅏㅅㅏㅇ	-11011
▁ㄴㅏㄴㅇㅣ	-11012
▁ㅈㅓㄱㅕㄱ	-11013
▁ㅅㅣㅇㅐㅌㅡㄹ	-11014
▁ㅎㅏㅂㅅㅡㅂㅜㄹㅡㅋㅡ	-11015
ㄷㅗㅁ	-11016
ㅅㅏㄱㅅㅡ	-11017
ㅎㅏㄹㅅㅣ	-11018
▁ㅌㅏㅇㅣㅂㅔㅇㅣ	-11019
▁ㅇㅔㄴㅈㅣㄴㅣㅇㅓ	-11020
▁ㅎㅛㅇ	-11021
▁ㅉㅣㄹㅡ	-11022
▁ㅈㅐㅈㅣㄹ	-11023
ance	-11024
▁ㅅㅗㄱㅇㅣ	-11025
▁ㅌㅜㅎㅏㅇ	-11026
ㄹㅏㄴㄷㅡㅇㅣㄴ	-11027
▁ㅁㅏㄹㅡㅋㅡㅅㅡㅈㅜㅇㅢ	-11028
ㄴㅣㄲㅏ	-11029
▁ㅎㅗㅇㅢ	-11030
ㅎㅗㄹㄹㅡㅁ	-11031
ㅏㄹㄹㅗㄱㅡ	-11032
▁ㅇㅛㅈㅔㅍㅡ	-11033
▁ㅈㅏㅅㅔㅎㅣ	-11034
▁ㅁㅐㄴㅎㅐㅌㅡㄴ	-11035
▁ㄴㅗㅇㅅㅏㄴㅁㅜㄹ	-11036
EM	-11037
▁ㄴㅓㄱ	-11038
▁ㅃㅏㅈ	-11039
▁ㅁㅜㄹㅗ	-11040
▁ㅇㅔㅂㅓ	-11041
▁ㅈㅜㄷㅚ	-11042
▁ㅌㅡㄹㄹㅣ	-11043
▁ㄱㅘㄴㄷㅗㅇ	-11044
▁ㄱㅣㅁㅂㅕㅇ	-11045
▁ㅂㅗㄱㅅㅣㄱ	-11046
ear	-11047
▁ㅂㅣㄴㅡㄹ	-11048
▁ㅅㅗㅇㅜㄹ	-11049
▁ㅊㅓㅇㄷㅗㅇㄱㅣ	-11050
ㄸㅟ	-11051
▁ㄴㅗㅁ	-11052
▁ㅇㅏㅃㅏ	-11053
▁ㄱㅡㄱㄹㅏㄱ	-11054
▁ㄱㅣㅁㅇㅗㄱ	-11055
▁ㅅㅡㄹㅗ	-11056
▁ㅌㅣㅋㅔㅅ	-11057
▁ㄸㅏㄹㅏㄱㅏ	-11058
▁ㅂㅗㄹㅅㅖㅂㅣㅋㅣ	-11059
▁ㅍㅐㄹㅓㄹㄹㅣㅁㅍㅣㄱ	-11060
▁ㅇㅜㅈㅡㅂㅔㅋㅣㅅㅡㅌㅏㄴ	-11061
▁1885	-11062
▁ㅇㅢㄱㅘ	-11063
▁ㅁㅣㄴㅇㅛ	-11064
▁ㅎㅘㄹㅈㅜㄹㅗ	-11065
▁GN	-11066
▁Ph	-11067
ㅡㄹㅌㅔ	-11068
▁ㄷㅗㅅㅏ	-11069
▁ㄱㅐㅎㅓㄴ	-11070
▁ㄱㅗㅇㅍㅛ	-11071
▁ㅂㅐㅅㅗㄱ	-11072
▁ㅈㅏㅇㄷㅐ	-11073
▁ㅅㅗㅍㅣㅇㅏ	-11074
ㅡㄹㅌㅔㅁㅕㄴ	-11075
▁ㅈㅜㅇㅇㅏㅇㅂㅜ	-11076
▁ㅇㅣㄹㅡㄹㅌㅔㅁㅕㄴ	-11077
▁ㅎㅐㅂㅜ	-11078
▁ㄴㅐㅁㅕㄴ	-11079
▁ㅁㅐㅈㅣㄱ	-11080
▁ㄱㅏㅁㄱㅡㅁ	-11081
▁ㅇㅏㅇㅜㄱㅜ	-11082
▁ㄴㅐㅇㅑ	-11083
ㄱㅗㄱㄹㅣ	-11084
▁ㅁㅣㅅㅖㄹ	-11085
▁ㅅㅜㅇㅕㅁ	-11086
▁1870	-11087
▁ㅂㅜㅈㅗ	-11088
ㅅㅣㅂㅈㅏ	-11089
▁ㅂㅏㄴㅅㅓㅇ	-11090
▁ㅇㅑㄱㅜㄷㅏㄴ	-11091
▁ㅊㅏㅇㅅㅣㅈㅏ	-11092
▁NAS	-11093
▁ㅅㅜㅁㅈㅣ	-11094
▁ㅅㅡㅍㅗㄴㅅㅓ	-11095
ㅞㄴ	-11096
▁ㄹㅜㅋㅡ	-11097
▁ㅈㅜㅈㅣ	-11098
▁ㄱㅕㄱㅈㅏ	-11099
▁ㅅㅔㅂㅡㄴ	-11100
▁ㅅㅣㄹㅈㅗㄴ	-11101
▁ㅁㅐㄲㅡㄹㅓㅂ	-11102
▁ㅇㅔㅁㅣ	-11103
▁ㅊㅜㄹㅣ	-11104
▁ㅍㅓㅍㅗ	-11105
ㅉㅓㄷㅜㅇ	-11106
▁ㅅㅐㅇㄱㅖ	-11107
▁ㅅㅔㅅㅗㄴ	-11108
ㅇㅟㅇㅝㄴㅎㅚ	-11109
▁ㅁㅏㅇㅗㅉㅓㄷㅜㅇ	-11110
▁ㅍㅓㅍㅗㅁㅓㄴㅅㅡ	-11111
ㅁㅣㄴㅏ	-11112
▁ㅇㅠㅅㅡ	-11113
ㅍㅣㅇㅓㄴ	-11114
▁ㄱㅜㄱㅅㅜ	-11115
▁ㅈㅔㄷㅗㅇ	-11116
▁ㅇㅏㅇㅣㅇㅗ	-11117
▁ㅇㅖㅅㅓㄴㅈㅓㄴ	-11118
▁ㅍㅡㄹㄹㅏㅌㅗㄴ	-11119
ㄴㅗㄴ	-11120
▁ㅌㅡㄹㅣㄴㅣ	-11121
▁ㅇㅜㅊㅔㄱㅜㄱ	-11122
▁ㅇㅠㄱㅝㄴㅈㅏ	-11123
▁un	-11124
▁ㅇㅙㄱㅜ	-11125
▁ㄱㅕㅇㅈㅣㄹ	-11126
▁ㅁㅣㅈㅜㄹㅣ	-11127
▁ㅅㅏㅋㅜㄹㅏ	-11128
▁ㅇㅗㄹㅗㅈㅣ	-11129
ㅍㅓㅇ	-11130
▁450	-11131
▁1871	-11132
▁ㅅㅜㄱㅛ	-11133
▁ㅇㅗㅇㅗ	-11134
▁To	-11135
▁ㅃㅛ	-11136
▁240	-11137
▁ㅊㅏㄹㅣ	-11138
▁ㅍㅡㄹㅐㄴㅅㅣㅅㅡ	-11139
▁ㅓㅇ	-11140
▁ㄷㅗㄹㅊㅜㄹ	-11141
▁ㅎㅏㄴㅗㅇㅣ	-11142
ㄹㅏㄴㄷㅡㅇㅓ	-11143
▁ㄷㅐㅈㅏㅇㄱㅜㄴ	-11144
▁ㄴㅔㅇㅣㅅㅕㄴㅅㅡㅋㅓㅂ	-11145
ㅂㅏㅁ	-11146
ㅁㅏㄹㅜ	-11147
▁ㄴㅑㄴㅡㄴ	-11148
▁ㅇㅐㄹㄹㅣㅅㅡ	-11149
▁ㅋㅏㅍㅡ	-11150
▁ㅈㅜㅇㅅㅏㅇ	-11151
▁ㅍㅕㅇㅇㅏㄴㄴㅏㅁㄷㅗ	-11152
OV	-11153
ㄷㅣㅂ	-11154
▁ㅁㅗㅂ	-11155
▁ㅂㅐㅅㅜ	-11156
▁ㅇㅏㄹㄹㅐ	-11157
▁ㅈㅓㄴㄴㅏㄹ	-11158
▁ㅎㅏㄱㅅㅓㄹ	-11159
▁ㄲㅡㄹㄹㅕㄱㅏ	-11160
▁ㄴㅣㅋㅗㄹㄹㅏ	-11161
▁ㅎㅘㄹㅂㅏㄹㅎㅣ	-11162
▁ㅋㅏㅌㅓ	-11163
▁ㅇㅣㅎㅘㅇ	-11164
▁ㅂㅏㄹㅈㅏㄱ	-11165
▁ㅌㅜㄹㅡㅋㅡ	-11166
ㅌㅔㄹㄹㅔㅅㅡ	-11167
irl	-11168
ㅊㅡㅂ	-11169
▁ㅁㅐㅅ	-11170
▁ㅇㅠㄹㅛ	-11171
▁ㄱㅡㄹㄹㅐ	-11172
▁ㅈㅣㅅㅓㅇ	-11173
▁ㄱㅘㄴㅎㅐㅇ	-11174
▁ㅈㅓㅇㅈㅏㄱ	-11175
▁ㅈㅡㅇㅇㅣㄴ	-11176
▁ㅍㅡㄹㅔㅅㅡ	-11177
ㅇㅏㄱㅣ	-11178
▁ㅂㅔㄴㅊㅣ	-11179
▁ㅎㅜㅈㅣㄴ	-11180
ㅂㅏㅇㅑㅅㅣ	-11181
▁ㅊㅓㅇㄹㅛㅇ	-11182
▁ㅊㅏㅁㅅㅏ	-11183
▁ㅎㅘㅇㄷㅗ	-11184
▁ㅂㅏㅇㅇㅓㅅ	-11185
▁ㅈㅜㅇㅅㅐㅇ	-11186
lass	-11187
▁ㅎㅏㅁㅈㅏ	-11188
▁ㅎㅘㄹㅏㅇ	-11189
▁1600	-11190
▁ㅇㅔㅇㅣㅂ	-11191
▁ㄴㅠㅋㅡㄹㄹ	-11192
▁ㅇㅝㄴㅅㅣㅁ	-11193
▁ㅍㅕㄴㅈㅣㅂㅈㅏ	-11194
ild	-11195
ㅍㅏㅋㅡ	-11196
▁ㅈㅣㄹㅗ	-11197
ㅗㅇㅑㅁㅏ	-11198
▁ㅊㅓㅇㅈㅏ	-11199
▁ㅅㅣㄴㅂㅏㄹ	-11200
▁ㅇㅏㅍㅉㅗㄱ	-11201
▁ㅅㅜㅇㅝㄴㅅㅣ	-11202
▁ㅅㅣㄹㅎㅓㅁㅅㅣㄹ	-11203
▁ㅍㅕㅇㅇㅏㄴㅂㅜㄱㄷㅗ	-11204
▁AD	-11205
▁ㅇㅣㅇㅑㅇ	-11206
▁USS	-11207
ㅌㅔㅅㅡ	-11208
▁ㅇㅛㅈㅣ	-11209
ㅂㅏㄴㄱㅜ	-11210
▁ㅇㅣㅂㅅㅜ	-11211
▁ㄱㅏㄱㅅㅓㅇ	-11212
▁ㅋㅏㅅㅡㅌㅣㅇ	-11213
ㅜㅇㅑ	-11214
ㅌㅔㅆㅡ	-11215
▁ㅊㅓㅇㅅㅗ	-11216
▁ㄴㅏㅁㅇㅛㅇ	-11217
▁ㄴㅐㅁㅜㅂㅜ	-11218
▁CM	-11219
▁ㅈㅏㅇㅟ	-11220
▁ㄴㅗㅇㅅㅏ	-11221
▁ㄷㅏㅇㄴㅐ	-11222
▁ㅂㅜㄴㄱㅘ	-11223
▁ㅅㅓㄴㄷㅐ	-11224
▁ㅅㅜㅇㅣㄴ	-11225
▁ㅎㅠㅇㄴㅗ	-11226
ㄷㅡㅇㅅㅣㄱ	-11227
▁ㅅㅐㅇㅅㅓㄴ	-11228
▁ㄷㅏㄹㅏㅁㅈㅟ	-11229
▁ㅇㅏㄹㅣㅅㅡㅌㅗㅌㅔㄹㄹㅔㅅㅡ	-11230
▁ㅂㅏㅇㅜ	-11231
▁ㅇㅗㅈㅣ	-11232
▁ㅇㅠㄹㅓ	-11233
▁ㅁㅏㄴㅣㄹㄹㅏ	-11234
▁ㅇㅑㅇㅅㅓㅇㅈㅏ	-11235
▁ㅍㅡㄹㅗㄹㅣㄱㅡ	-11236
ㅅㅏㄹㅣ	-11237
▁ㅇㅣㅌㅏ	-11238
ection	-11239
▁ㅁㅜㄴㄱㅗ	-11240
▁ㅇㅗㄹㄷㅡ	-11241
▁ㅍㅡㄹㅏㅎㅏ	-11242
ans	-11243
▁ㅂㅜㄱㅏㄱ	-11244
▁ㅅㅣㅎㅏㅂ	-11245
▁ㅇㅕㄱㄷㅗ	-11246
▁ㄹㅗㄹㅔㄴㅅㅡ	-11247
▁ㄹㅣㄹㅏ	-11248
▁ㅎㅠㄱㅔ	-11249
▁ㅅㅏㅇㄱㅡㅂ	-11250
▁ㅇㅠㅊㅣㅇㅝㄴ	-11251
▁ㅇㅐㄴㄷㅓㅅㅡㄴ	-11252
▁ㅋㅡㅁ	-11253
ㅁㅜㄱㅘㄴ	-11254
▁ㅈㅏㅊㅣㅇ	-11255
▁ㄴㅡㅇㅅㅓㄴ	-11256
ㅌㅔㄹㅣㅇㅏ	-11257
▁ㄹㅓㅅㅣㅇㅏㅇㅣㄴ	-11258
▁ㅂㅏㄱㅎㅓㄴㅇㅕㅇ	-11259
▁1200	-11260
ㅏㄹㅡㄷㅗ	-11261
▁ㄱㅜㅊㅓㅇ	-11262
▁ㄷㅐㅂㅜㄱ	-11263
▁ㅁㅜㅊㅓㄱ	-11264
▁ㅈㅓㅇㅈㅔ	-11265
▁ㄱㅜㅇㄱㅝㄹ	-11266
▁ㅃㅏㄹㄱㅏㅎ	-11267
▁ㅅㅓㅇㅅㅣㄹ	-11268
▁ㅇㅏㄹㄹㅔㄱㅅㅡ	-11269
▁ㅇㅏㄹㄹㅐㅅㅡㅋㅏ	-11270
▁ㅇㅟㅅㅡ	-11271
▁ㄴㅏㅅㅓㄴ	-11272
▁ㅇㅠㄹㅓㅍㅣㅇㅓㄴ	-11273
ㅣㅁㅏ	-11274
ㅍㅏㄹㅣ	-11275
▁ㅎㅘㄱㅣ	-11276
ㅜㅅㅡㅌㅡ	-11277
▁ㄷㅏㄷㅏㅇ	-11278
▁ㅇㅣㄹㅜㄱ	-11279
▁ㅈㅏㅇㅈㅏ	-11280
▁ㅇㅕㄱㅅㅏㄱㅏ	-11281
ㅂㅗㅅㅓㄴ	-11282
▁ㄱㅛㅅㅣㄹ	-11283
▁ㅍㅏㄴㅏㅁㅏ	-11284
ㅎㅣㅌㅡ	-11285
▁ㅇㅗㄹㅏ	-11286
▁ㅋㅔㄹㅏ	-11287
▁ㅍㅏㄴㅏ	-11288
▁ㅎㅐㅅㅜ	-11289
▁ㄱㅜㄱㅂㅗ	-11290
▁ㄷㅗㄱㄷㅗ	-11291
▁ㅊㅣㄴㅂㅜㄴ	-11292
▁ㅌㅡㄹㅏㅇㅣ	-11293
▁ㅂㅜㄹㅌㅐㅇㅜ	-11294
▁ㅇㅗㄹㄹㅣㅁㅍㅣㅇㅏ	-11295
▁ㄴㅛ	-11296
▁ㄱㅘㄹ	-11297
▁ㅈㅗㄹㅖ	-11298
▁ㅌㅏㅋㅔ	-11299
▁ㅊㅜㄹㄱㅏ	-11300
▁Sy	-11301
▁ㅋㅏㅂ	-11302
▁ㅇㅠㅂㅜ	-11303
▁ㅎㅐㅈㅓ	-11304
▁ㄷㅗㅇㄹㅗ	-11305
▁ㅇㅏㅁㅜㄱㅓㅅ	-11306
ㅣㅇㅏㅇㅓ	-11307
▁ㅇㅔㄷㅡㅁ	-11308
▁ㅈㅗㄱㅘㅇ	-11309
ㅅㅣㅁㅗㅌㅗ	-11310
▁ㄷㅣㄹㅔㄱㅌㅓ	-11311
▁ㅂㅣㄱㅌㅗㄹㅡ	-11312
▁ㄷㅗㅇㅇㅠㄹㅓㅂ	-11313
▁ㅇㅗㄹㅡㄴㅅㅗㄴ	-11314
▁ㅈㅏㅂㅇㅏㅁㅓㄱ	-11315
▁ㅋㅏㄹㄹㅓㅁ	-11316
▁ㄱㅕㅇㅇㅕㅇㅈㅏ	-11317
▁ㅁㅏㄷㅏㄱㅏㅅㅡㅋㅏㄹㅡ	-11318
ㅓㅇㅣㄴ	-11319
▁only	-11320
▁ㄹㅕㄷㅓㄴ	-11321
▁ㄱㅜㅁㅏㅁㅗㅌㅗ	-11322
▁ㄷㅗㅇㅁㅜㄹㅇㅝㄴ	-11323
ㅊㅔㄱㅗ	-11324
▁ㅈㅐㅇㅚ	-11325
▁ㅇㅑㅁㅏㄱㅏ	-11326
ㅊㅔㄱㅗㅂㅣㄴㅏ	-11327
▁ㅅㅣㄴㅁㅜㄴㅅㅏ	-11328
▁EBS	-11329
▁ㅅㅓㅇㅎㅘ	-11330
▁ㄹㅔㅇㅣㅅㅣㅇ	-11331
▁ㄱㅣㅁㅈㅓㅇㅇㅡㄴ	-11332
▁ㅅㅓㅁㅅㅔ	-11333
▁ㅇㅑㅁㅏㅇ	-11334
▁ㅇㅣㅂㅏㅇ	-11335
▁ㅊㅏㅇㅛㅇ	-11336
▁ㅁㅗㅁㅌㅗㅇ	-11337
▁ㄹㅜㄷㅗㄹㅍㅡ	-11338
▁ㅁㅣㄱㅜㄴㅈㅓㅇ	-11339
ㅋㅏㄹㅣ	-11340
▁ㅎㅏㅂㅏㄴ	-11341
▁ㄱㅏㅇㄹㅕㅇ	-11342
▁ㅈㅣㅇㅂㅕㅇ	-11343
▁ㅍㅕㅇㅎㅕㅇ	-11344
▁ㅂㅏㄴㄹㅏㄴㄱㅜㄴ	-11345
ㅋㅗㅌㅗ	-11346
ivers	-11347
▁ㅁㅏㅅㅜㄹ	-11348
▁ㄷㅏㅈㅓㅅㅡ	-11349
▁ㅅㅏㅇㅎㅐㅇ	-11350
▁ㅇㅑㄱㅎㅗㄴ	-11351
▁ㅇㅐㄴㄷㅡㄹㅜ	-11352
▁ㄱㅏㅁㅅㅜ	-11353
▁ㅅㅜㅍㅣㄹ	-11354
▁ㄴㅗㅇㄱㅕㅇ	-11355
▁ㄷㅏㄴㅏㅋㅏ	-11356
▁ㅊㅣㄱㄹㅕㅇ	-11357
▁ㅌㅗㅇㅇㅛㅇ	-11358
▁ㄱㅗㅇㅁㅣㄴㅇㅘㅇ	-11359
ish	-11360
ㅓㅇㅇㅣ	-11361
▁ㄱㅕㅇㅅㅣ	-11362
▁ㅈㅐㅎㅘㄹ	-11363
▁ㅊㅗㅂㅣㅇ	-11364
▁ㅂㅐㄴㅋㅜㅂㅓ	-11365
OD	-11366
▁ㅋㅓㅅㅡ	-11367
▁ㅍㅣㅇㅗ	-11368
▁ㅊㅓㄴㄷㅗ	-11369
▁ㅌㅗㅇㅇㅕㄱ	-11370
▁ㅇㅠㄴㅂㅗㅅㅓㄴ	-11371
GM	-11372
▁ㅁㅐㅁ	-11373
ㄹㅔㄱㅅㅕㄴ	-11374
▁ㄱㅣㅁㄱㅠㅅㅣㄱ	-11375
▁ㅎㅔㄹㄹㅣㅋㅗㅂㅌㅓ	-11376
ㄹㄹㅡㄴ	-11377
▁ㄱㅏㅈㅡ	-11378
▁ㅂㅐㄹㅕ	-11379
▁ㅇㅣㅁㅗ	-11380
▁ㅋㅏㄴㅏ	-11381
▁ㄱㅘㄴㅁㅜㄴ	-11382
▁ㅌㅡㄱㅈㅓㄴ	-11383
▁ㅇㅠㄴㅕㄴㄱㅣ	-11384
▁ㄷㅗㅇㄷㅐㅁㅜㄴ	-11385
ㅁㅣㄹㅡ	-11386
▁ㅎㅏㄹㅠ	-11387
▁ㄷㅐㅂㅗㄴ	-11388
▁ㅇㅕㅇㅇㅖ	-11389
▁ㅊㅏㅇㅁㅜㄴ	-11390
▁ㅌㅏㅂㅅㅣㄴ	-11391
▁ㅍㅓㅅㅡㅌㅡ	-11392
▁MTV	-11393
▁ㅍㅜㄱ	-11394
▁ㅎㅐㅊㅣ	-11395
ㅇㅏㄱㅜㄴ	-11396
▁ㄹㅗㅇㅑㄹ	-11397
▁ㅂㅕㅇㅁㅏ	-11398
▁ㅈㅓㄴㄹㅐ	-11399
▁ㅈㅜㅇㅣㅂ	-11400
▁ㅊㅗㅇㅁㅜ	-11401
▁ㅍㅗㅅㅣㄱ	-11402
ㅎㅘㄴㄱㅕㅇ	-11403
▁ㅈㅓㄹㅁㅏㅇ	-11404
▁ㅇㅖㅈㅓㅇㅈㅏ	-11405
ㅠㅇ	-11406
▁ㄷㅗㅁㅣ	-11407
▁ㅁㅔㄴㅠ	-11408
▁ㅂㅏㄷㅣ	-11409
▁ㅆㅣㅇㅏ	-11410
▁ㅍㅏㄷㅗ	-11411
ㄷㅡㅅㅡㄴ	-11412
▁ㄱㅕㅇㅎㅢ	-11413
▁ㅊㅗㅇㅇㅐ	-11414
▁ㄱㅡㄱㅎㅏㄴ	-11415
▁ㅇㅣㄹㄷㅏㅇ	-11416
▁ㅊㅣㄴㅇㅟㄷㅐ	-11417
▁ㅅㅗㄹㄹㅗㅁㅗㄴ	-11418
▁ㅈㅓㅇㅇㅢㄷㅏㅇ	-11419
ㅇㅏㅇㅣㄹㄹㅐㄴㄷㅡ	-11420
▁Jo	-11421
▁ㄱㅏㄷㅡ	-11422
▁ㅋㅓㅍㅡㄹ	-11423
ㅌㅗㅇㅇㅣㄹ	-11424
▁ㄱㅣㅁㅇㅝㄴ	-11425
▁ㅂㅣㅌㅏㅁㅣㄴ	-11426
ㄷㅠㅁ	-11427
ㅌㅣㅅㅣ	-11428
▁ㄹㅣㅌㅓ	-11429
▁ㄷㅗㄱㅊㅏㅇ	-11430
▁ㅇㅖㅅㅜㅎㅚ	-11431
▁ㅎㅐㄹㅣㅅㅡㄴ	-11432
▁ㅅㅓㅇㄴㅏㅁㅅㅣ	-11433
▁ㅇㅔㄹㅡㄴ	-11434
▁ㄹㅣㅈㅗㅌㅡ	-11435
▁ㅊㅗㅇㅌㅗㅇ	-11436
▁NT	-11437
▁ㄴㅏㅇㅣㄴ	-11438
▁ㅁㅕㅇㅅㅗ	-11439
ㄹㅏㅇㅣㄷㅓ	-11440
▁ㄴㅏㅁㅅㅏㄴ	-11441
▁ㅁㅔㅇㅣㅋㅓ	-11442
▁ㅋㅔㅍㅡㄹㄹㅓ	-11443
▁ㅍㅕㄴㅈㅔ	-11444
▁ㅇㅏㄹㅣㅇㅏ	-11445
▁ㅇㅛㄱㅁㅏㅇ	-11446
▁ㅂㅜㅇㅝㄴㄱㅜㄴ	-11447
▁ex	-11448
ㅈㅣㅇㅏ	-11449
▁ㅋㅗㅋㅏ	-11450
▁ㅌㅔㄹㅣ	-11451
▁ㄱㅓㅁㅈㅓㅇ	-11452
▁ㅍㅡㄹㅔㅇㅣ	-11453
▁ㄴㅡㄴㄷㅏㅁㅕㄴ	-11454
ㄱㅗㅅㅗㄱㄷㅗㄹㅗ	-11455
▁ㅁㅗㅇㅢ	-11456
▁ㅇㅏㄴㅏㅌ	-11457
▁ㅍㅗㅊㅏㄱ	-11458
ㄷㅣㄹ	-11459
▁ㅂㅐㄹ	-11460
▁ㅇㅜㅇㅏ	-11461
▁ㅂㅗㅎㅐㅇ	-11462
▁ㅃㅛㅈㅗㄱ	-11463
▁ㅇㅞㅇㅣㄴ	-11464
ㅅㅡㅌㅡㄹㅗ	-11465
ㅅㅡㅌㅗㄹㅏㅇ	-11466
▁ㅅㅏㄱㅏㄱㅎㅕㅇ	-11467
▁ㄹㅔㅅㅡㅌㅗㄹㅏㅇ	-11468
ㄲㅏㄴ	-11469
▁ㅂㅜㄴㅅㅜ	-11470
▁ㅎㅏㄴㅎㅏ	-11471
▁ㄷㅐㄷㅐㄹㅗ	-11472
▁ㅇㅑㅌ	-11473
▁ㄱㅗㅋㅜ	-11474
▁ㄷㅗㄱㅛ	-11475
▁ㅁㅐㅅㅜ	-11476
▁ㅇㅜㅊㅣ	-11477
▁ㅇㅠㅎㅗㄱ	-11478
▁ㄷㅔㄹㅕㅇㅗ	-11479
▁ㅊㅏㄴㅇㅑㅇ	-11480
▁ㅈㅔㅍㅓㅅㅡㄴ	-11481
▁ㅋㅓㅁㅍㅠㅌㅣㅇ	-11482
▁ㅂㅡㄹㅔㅇㅣㅋㅡ	-11483
▁ㄱㅗㅅㅗㄱㅂㅓㅅㅡ	-11484
RA	-11485
ㅋㅡㄹㄹㅏ	-11486
▁ㅎㅘㅇㅓㅁ	-11487
oun	-11488
▁ㅇㅏㄴㄴㅕㅇ	-11489
▁ㅅㅗㅇㅡㅁ	-11490
▁ㅊㅏㄱㅏㅂ	-11491
▁ㅅㅣㄹㅈㅓㅇ	-11492
▁ㅇㅏㅋㅣㄹㅏ	-11493
ㅁㅐㅁㅐ	-11494
▁ㅅㅗㄱㅡㄱ	-11495
▁ㄷㅐㅎㅏㅂㅅㅣㄹ	-11496
▁ㅇㅏㅅㅗ	-11497
ㄹㅏㄴㅌㅡ	-11498
▁ㅁㅐㅋㅣㄴ	-11499
▁ㅋㅡㄹㄹㅣㄴㅌㅓㄴ	-11500
lat	-11501
▁ㅈㅜㄱㅗ	-11502
▁ㄱㅏㅁㅐㅇ	-11503
▁ㄱㅘㄴㅊㅓㅇ	-11504
▁ㅊㅓㄴㅇㅘㅇ	-11505
▁ㄱㅣㄴㅌㅔㅆㅡ	-11506
EL	-11507
fe	-11508
ㅌㅓㅅ	-11509
▁ㄱㅔㄹㅣ	-11510
▁ㄱㅏㄷㅡㄴ	-11511
▁ㅅㅏㅇㅕㄱ	-11512
▁ㅅㅜㅇㅑㅇ	-11513
▁ㅊㅏㄴㅅㅏ	-11514
▁ㅈㅘㅇ	-11515
ㅅㅡㅌㅗ	-11516
▁ㅂㅏㄴㄱㅣ	-11517
▁ㅂㅏㄱㅈㅗㅇ	-11518
▁ㅈㅓㄴㅎㅏㄴ	-11519
▁ㅊㅣㅁㅁㅜㄱ	-11520
▁ㅅㅡㅌㅗㄱㅎㅗㄹㄹㅡㅁ	-11521
az	-11522
are	-11523
▁ㅊㅜㅇㅣ	-11524
▁ㅍㅓㅁㅍㅡ	-11525
ㅅㅣㄴㅁㅜㄴ	-11526
▁Fr	-11527
ical	-11528
▁ㅈㅏㅈㅔ	-11529
ㅔㅇㅣㄹㅜ	-11530
ㅡㄹㅣㄷㅡ	-11531
▁ㅆㅣㅇㅏㅅ	-11532
▁ㄱㅜㄱㄱㅗㅇ	-11533
▁ㄹㅗㄱㅡ	-11534
▁ㅎㅓㅈㅓㅇ	-11535
▁ㅂㅜㄹㅂㅕㄴ	-11536
▁ㅅㅓㅈㅐㅍㅣㄹ	-11537
EG	-11538
▁ㅅㅜㄷㅏ	-11539
▁ㅅㅓㄴㅊㅓㄴ	-11540
▁ㅇㅏㄹㅍㅡㅅㅡ	-11541
▁ㅂㅏㅇㅇㅓㅅㅓㄴ	-11542
▁ㄹㅏㅅㅓ	-11543
▁ㄹㅡㄴㅗ	-11544
ㄷㅗㄹㄹㅣ	-11545
ㅈㅣㄴㅡㅇ	-11546
▁ㄱㅏㄴㅡㄹ	-11547
▁ㅁㅏㅋㅔㅅ	-11548
▁ㅊㅚㅈㅣㄴ	-11549
▁ㅇㅗㄹㅣㅇㅗㄴ	-11550
▁@	-11551
ㄲㅓㅇ	-11552
ㄹㅣㄱㅓㄴ	-11553
▁ㅁㅜㅅㅣㄹ	-11554
▁ㅇㅣㅈㅓㅁ	-11555
▁ㅇㅣㅅㅏㅂㅔㄹ	-11556
▁ㅇㅣㄴㄱㅗㅇㅈㅣㄴㅡㅇ	-11557
▁sc	-11558
▁ㅍㅗㄱㅍㅏ	-11559
include	-11560
▁ㄹㅣㅍㅡㅌㅡ	-11561
▁ㅂㅏㅇㅣㅌㅡ	-11562
▁ㅊㅗㅇㅅㅏㄹㅕㅇㄱㅘㄴ	-11563
▁ㄹㅗㅂㅓ	-11564
▁ㅇㅏㄹㅡㄴ	-11565
▁ㅌㅡㄹㅗㅇㅣ	-11566
▁ㄷㅡㅁㅣ	-11567
▁ㅅㅣㅇㅔ	-11568
▁ㅈㅔㅁㅜㄹ	-11569
ㅊㅓㄴㅁㅕㄴ	-11570
▁ㅂㅜㄴㄹㅠㄱㅜㄴ	-11571
▁ㄴㅠㅋㅡㄹㄹㅔㅇㅗ	-11572
ㅂㅣㅅ	-11573
▁ABC	-11574
ㅠㄹㄹㅓ	-11575
▁ㄷㅏㅁㅂㅗ	-11576
▁ㅅㅐㄱㅅㅗ	-11577
▁ㅅㅜㅂㅗㄱ	-11578
▁ㅅㅡㅌㅔㅂ	-11579
▁ㅈㅜㅇㅣㅁ	-11580
▁ㅁㅏㄴㅈㅏㅇ	-11581
▁ㅂㅗㄴㅅㅓㅇ	-11582
▁ㄱㅣㅊㅏ	-11583
▁ㅊㅐㅊㅟ	-11584
▁ㅌㅏㅅㅡ	-11585
▁ㄴㅔㅅㅉㅐ	-11586
▁ㅇㅛㅅㅣㄷㅏ	-11587
▁ㅍㅣㄹㅏㅁㅣ	-11588
▁ㅅㅛㅇ	-11589
▁ㅎㅣㅇ	-11590
▁ㅓㅇㅑ	-11591
ㅁㅔㅇㅣ	-11592
▁ㅇㅏㄷㅔㄴ	-11593
▁ㅎㅘㅇㅑㄱ	-11594
▁ㄱㅕㄹㅂㅕㄹ	-11595
▁ㅂㅗㅅㅜㄷㅏㅇ	-11596
▁ㅌㅏㅇㅣㅌㅏㄴ	-11597
▁ㅂㅜㄱㅇㅏㅇㅣㄹㄹㅐㄴㄷㅡ	-11598
TP	-11599
▁":	-11600
▁CH	-11601
▁ㄹㅜㅂㅣ	-11602
▁ㅎㅏㅋㅣ	-11603
▁ㅅㅣㅈㅡㅇ	-11604
▁ㅇㅓㄱㅜㄴ	-11605
▁ㅋㅡㄹㄹㅣㅂㅡㄹㄹㅐㄴㄷㅡ	-11606
ㅌㅏㄹㅣ	-11607
▁ㅁㅗㅎㅗ	-11608
▁ㄷㅗㄷㅜㄱ	-11609
▁ㅂㅕㄹㅅㅔ	-11610
▁ㅅㅣㅈㅜㅇ	-11611
▁ㅇㅓㅁㅁㅣㄹ	-11612
ㄷㅔㄴㅂㅜㄹㅡㅋㅡ	-11613
▁DD	-11614
▁ㅇㅣㄹㄹㅣ	-11615
▁ㅋㅔㅇㅣㅍㅡ	-11616
▁ㄸㅟㅇㅓㄷㅡㄹ	-11617
▁AV	-11618
ㄷㅐㅍㅛ	-11619
▁ㄱㅗㄷㅡㄴ	-11620
▁ㅂㅗㅇㅅㅜ	-11621
▁ㅇㅕㅇㅇㅠ	-11622
▁ㄴㅏㅌㅡㄹㅠㅁ	-11623
▁ㅁㅏㅊㅓㄴㄹㅜ	-11624
▁ㅂㅚ	-11625
ㅊㅏㅇㅎㅗ	-11626
▁ㅈㅓㅇㄱㅓ	-11627
ㅈㅓㅇㅇㅝㄴ	-11628
▁ㅇㅏㅋㅣㅌㅏ	-11629
▁ㅋㅡㄹㅏㅇㅣ	-11630
▁ㅌㅜㅈㅏㅈㅏ	-11631
▁ㅎㅏㅁㄱㅕㅇㄴㅏㅁㄷㅗ	-11632
ㅎㅡㄴ	-11633
▁ㅂㅔㄴㅊㅓ	-11634
▁ㅈㅗㅇㅣㄴ	-11635
▁ㅇㅝㄴㅌㅗㅇ	-11636
▁ㄱㅣㅁㅇㅠ	-11637
▁ㅊㅗㅅㅣㄴㅅㅓㅇ	-11638
▁210	-11639
ㄱㅏㄹㅡ	-11640
▁ㅁㅏㅅㅕㄹ	-11641
▁ㅅㅗㅈㅜㅇ	-11642
▁ㅇㅑㅈㅓㄴ	-11643
▁ㅌㅚㅈㅣㄱ	-11644
▁ㄴㅐㅇㅑㅅㅜ	-11645
▁ㅈㅓㄴㄷㅏㅁ	-11646
▁ㅊㅓㄴㄱㅜㄱ	-11647
▁ㅋㅚㄹㄹㅡㄴ	-11648
▁ㅂㅣㅁㅣㄹㄹㅣ	-11649
▁ㅌㅏㅇㅣㄱㅓㅅㅡ	-11650
▁ㅂㅐㄹㄹㅣ	-11651
▁ㅇㅗㅎㅏㅇ	-11652
▁ㅈㅓㄴㅁㅜ	-11653
▁ㅅㅡㄹㅍㅡㅁ	-11654
▁ㅈㅏㅊㅣㅈㅜ	-11655
▁ㅋㅜㅁ	-11656
▁ㅌㅐㅁ	-11657
▁ㅂㅏㅇㅋㅗㄱ	-11658
▁ㅅㅓㄴㄱㅜㅈㅏ	-11659
▁ㄹㅜㅋㅏ	-11660
▁ㅊㅣㄱㅘ	-11661
ㅇㅏㅇㅜㅅ	-11662
▁ㄷㅏㅇㅣㅂ	-11663
▁ㅇㅠㅅㅓㄴ	-11664
▁ㅎㅗㄹㄹㅣ	-11665
▁ㄷㅗㅇㅎㅑㅇ	-11666
▁ㅇㅏㄹㅍㅏㅂㅔㅅ	-11667
▁ㄱㅡㄱㅇㅜ	-11668
▁ㅊㅏㅊㅜㄹ	-11669
▁ㅋㅡㄹㄹㅔ	-11670
ㅏㄴㅌㅗ	-11671
▁ㅈㅔㅁㅕㅇ	-11672
▁ㅇㅏㅇㄱㅗㄹ	-11673
▁ㅅㅓㄷㅐㅁㅜㄴ	-11674
ㄴㅛ	-11675
▁ㅎㅏㄴㅁㅣ	-11676
▁ㅇㅏㄴㅌㅔㄴㅏ	-11677
▁ㄷㅐㅇㅝㄴㄱㅜㄴ	-11678
▁ㅆㅜ	-11679
▁ATP	-11680
▁ㄸㅏㅈㅣ	-11681
▁ㅋㅗㄹㄹㅗㄴ	-11682
▁ㅁㅗㅅㅔ	-11683
▁ㅌㅔㅋㅡ	-11684
▁ㅌㅏㅇㅣㄹ	-11685
▁ㅈㅓㅇㅎㅕㅇ	-11686
▁ㄱㅕㅇㅈㅓㄴㅊㅓㄹ	-11687
▁ㄷㅡㄹㅗ	-11688
▁ㅇㅕㅇㅠ	-11689
▁ㄱㅣㅁㅈㅐ	-11690
▁ㄹㅓㄱㅂㅣ	-11691
▁ㅅㅏㅂㅏㅇ	-11692
▁ㅅㅣㄹㄱㅝㄴ	-11693
▁ㅇㅘㅇㄱㅝㄴ	-11694
▁ㅇㅠㄱㅕㄱㅅㅜ	-11695
▁ㅂㅐㄱㄷㅜ	-11696
▁ㅊㅓㄴㄱㅓ	-11697
▁ㅅㅔㄴㅌㅣㅁ	-11698
▁ㅈㅜㅇㅎㅏㅂ	-11699
▁ㅈㅜㅊㅏㅈㅏㅇ	-11700
▁ㅍㅣㅇㅏㄴㅣㅅㅡㅌㅡ	-11701
▁ㅁㅔㅅ	-11702
▁ㄴㅗㄹㅗㄴ	-11703
ㅅㅏㄴㄷㅏㅇ	-11704
▁ㅅㅏㅁㄹㅣㅁ	-11705
▁ㅇㅘㅇㄱㅓㄴ	-11706
▁ㅈㅗㅇㅅㅣㄱ	-11707
▁ㅌㅏㅇㅣㅇㅓ	-11708
▁ㅌㅟㄹㅡㅋㅡ	-11709
▁ㅇㅏㅇㅣㅍㅗㄴ	-11710
FL	-11711
ㄷㅐㅅㅏ	-11712
ㅅㅏㄱㅏㄱ	-11713
▁ㄱㅜㅅㅣㄹ	-11714
▁ㄷㅐㅈㅗㅇ	-11715
▁ㅇㅠㅇㅏㄱㅣ	-11716
▁ㅇㅏㅍㅈㅏㅇㅅㅓ	-11717
▁ㅈㅓㄱㅇㅚㅅㅓㄴ	-11718
▁ㅁㅗㅇㅓ	-11719
▁ㄱㅏㄹㅏㄱ	-11720
▁ㅍㅏㅅㅗㄴ	-11721
▁ㅎㅘㅇㅅㅗ	-11722
▁ㅎㅕㅇㅈㅣㄹ	-11723
▁ㅍㅡㄹㅏㅇㅣㅁ	-11724
ㅇㅞㄹ	-11725
ㅇㅝㅋㅡ	-11726
ㅔㅁㅗㅇ	-11727
▁ㅁㅗㄱㅎㅚ	-11728
▁ㅂㅣㅇㅔㄴ	-11729
▁ㅌㅖㄴㅈㅣㄴ	-11730
▁ㅎㅔㄹㅅㅣㅇ	-11731
▁ㅇㅛㅇㅇㅣㄴㅅㅣ	-11732
▁ㅈㅓㅇㅂㅜㄱㅜㄴ	-11733
ㅓㅌㅡ	-11734
▁ㄱㅏㅇㄹㅕㄹ	-11735
▁ㄱㅣㅁㅎㅕㅇ	-11736
ica	-11737
▁ㄱㅘㅇㄷㅗ	-11738
▁ㅊㅐㄱㅇㅣㅁㅈㅣ	-11739
ㅊㅏㄶ	-11740
ㅅㅜㅅㅡ	-11741
ㅍㅏㅇㅣ	-11742
ㅓㄹㅓㄹ	-11743
▁ㅇㅣㅇㅢ	-11744
▁ㅍㅔㄹㅗ	-11745
▁ㅇㅠㅁㅗㄱ	-11746
▁ㄱㅏㅁㅊㅏㄹ	-11747
▁ㄷㅡㄷㅣㅇㅓ	-11748
ㅏㅇㅣㅁ	-11749
▁ㅊㅗㄱㅗ	-11750
ㅅㅗㅌㅗㅇ	-11751
▁ㅁㅜㅇㅊㅣ	-11752
▁ㅇㅘㅇㅅㅔㅈㅏ	-11753
▁ㅂㅓㄷㅡ	-11754
▁ㅎㅏㅊㅣ	-11755
ㅊㅜㅇㄹㅠ	-11756
▁ㅅㅏㅅㅓㄹ	-11757
▁ㅊㅣㄴㅈㅗㄱ	-11758
▁ㅇㅕㄴㄱㅡㄱㅂㅐㅇㅜ	-11759
▁ㄱㅡㅈㅓ	-11760
▁ㅇㅗㅋㅡ	-11761
▁ㄱㅏㄴㅊㅓㅂ	-11762
▁ㄱㅏㅁㅅㅓㅇ	-11763
▁ㅂㅜㄹㅊㅏㅁ	-11764
ㅎㅐㅅㅏㄹㅇㅣ	-11765
▁ㅋㅗㄴㅌㅔㅅㅡㅌㅡ	-11766
▁ㅎㅔㄹㅡㅊㅔㄱㅗㅂㅣㄴㅏ	-11767
ㅅㅏㄱㅗ	-11768
▁ㅁㅏㅊㅏ	-11769
▁ㅅㅏㅂㅎㅘ	-11770
▁ㅅㅏㅌㅏㅇ	-11771
▁ㅇㅣㅁㅈㅓㅇ	-11772
▁ㅅㅏㄹㅗㅈㅏㅂ	-11773
▁ㅅㅗㅁㅏㄹㄹㅣㅇㅏ	-11774
ey	-11775
▁ㅋㅏㄴㄱㅜㄱ	-11776
▁ㅁㅏㄴㅜㅇㅔㄹ	-11777
▁he	-11778
▁ㅅㅜㄹㅏㄱ	-11779
▁ㅇㅐㅈㅓㅇ	-11780
▁ㅈㅜㄴㅅㅜ	-11781
▁ㅅㅣㄹㄹㅗㄱ	-11782
▁ㅍㅡㄹㅔㄷㅔ	-11783
▁ㅇㅕㄴㅅㅏㄴㄱㅜㄴ	-11784
▁ㅇㅢㅅㅏㅅㅗㅌㅗㅇ	-11785
ㅂㅡㄹㅡ	-11786
▁1889	-11787
▁ㄱㅗㄷㅣㄱ	-11788
▁ㅇㅏㄱㅂㅗ	-11789
▁ㅇㅕㄱㅝㄴ	-11790
▁ㅇㅖㅇㅑㄱ	-11791
▁ㄱㅗㅇㅈㅗㄴ	-11792
▁ㅅㅏㄴㅅㅓㅇ	-11793
▁ㅅㅗㅇㅅㅣㄴ	-11794
▁ㅇㅕㄴㅁㅏㄹ	-11795
▁ㅇㅜㄴㅇㅣㅁ	-11796
▁ㅇㅣㅅㄸㅏㄹㅡ	-11797
▁ㅂㅡㄹㅜㅋㅡㄹㄹㅣㄴ	-11798
▁ㅎㅜㅈㅣㅇㅘㄹㅏㄴㅗ	-11799
60	-11800
ㅌㅣㄴㅓㅁ	-11801
▁ㄱㅣㅁㅌㅐ	-11802
▁ㅇㅓㄴㅡㄴ	-11803
▁ㅅㅏㅁㅈㅗㄴ	-11804
▁ㅈㅓㄹㅈㅓㅇ	-11805
▁ㅍㅡㄹㄹㅐㅌㅣㄴㅓㅁ	-11806
▁ㅎㅔㅅ	-11807
▁ㄴㅣㅋㅗ	-11808
▁ㅇㅑㄷㅡ	-11809
▁ㅂㅏㅇㅊㅣ	-11810
▁ㅂㅜㄹㄹㅑㅇ	-11811
▁ㅈㅣㄱㅌㅗㅇ	-11812
▁ㄱㅏㄴㅅㅣㄴㅎㅣ	-11813
▁ㅈㅣㅇㅗ	-11814
▁ㅈㅣㅈㅏ	-11815
ㅈㅗㅇㅣㄴ	-11816
▁ㄱㅗㅇㅎㅠ	-11817
ㅎㅏㅂㅅㅓㅇ	-11818
▁ㅅㅣㄴㅔㅁㅏ	-11819
▁ㅈㅓㄴㅈㅓㄴ	-11820
▁ㅋㅏㅋㅏㅇㅗ	-11821
tern	-11822
▁ㅅㅓㅇㅣㅁ	-11823
▁ㅇㅚㅎㅕㅇ	-11824
▁ㅊㅣㅎㅘㄴ	-11825
▁ㄹㅔㅇㅣㅋㅡ	-11826
▁ㅍㅐㅌㅡㄹㅣㄱ	-11827
▁ㄱㅏㅅㅗㄹㄹㅣㄴ	-11828
▁ㅇㅕㄹㅅㅣㅁㅎㅣ	-11829
▁ㅎㅘㄱㅏㅇㅇㅏㅁ	-11830
ㅍㅇㅣ	-11831
ㅂㅜㄹㅗ	-11832
▁ㅇㅢㄹㅠ	-11833
ㅋㅐㅅㅡㄹ	-11834
▁ㄴㅣㅎㅗㄴ	-11835
▁ㅁㅗㄱㅡㅁ	-11836
▁ㅂㅗㄴㅈㅏㄱ	-11837
▁ㅈㅣㅂㅈㅓㅇ	-11838
▁ㅁㅗㄱㅇㅛㅇㅣㄹ	-11839
▁ㅅㅡㅋㅏㅇㅜㅌㅡ	-11840
▁ㄱㅏㄴㅏㄱㅏㅇㅘㅎㅕㄴ	-11841
▁ㄹㅣㅅㅏ	-11842
▁ㄷㅐㅇㅕㅇ	-11843
▁ㅋㅡㄹㄹㅏ	-11844
▁ㄷㅜㄹㅕㅇㅜㅁ	-11845
▁AKB	-11846
▁ㅎㅏㄱㅜ	-11847
▁ㅁㅜㅎㅕㅇ	-11848
▁ㅅㅡㄹㅎㅏ	-11849
▁ㅎㅐㄷㅗㄱ	-11850
▁ㄱㅓㄴㅈㅓㄴ	-11851
▁ㅁㅔㄷㅣㅊㅣ	-11852
▁ㅈㅓㅂㅇㅓㄷㅡㄹ	-11853
▁ㅇㅏㄲㅣ	-11854
▁ㅅㅔㄴㅌㅡ	-11855
▁ㅎㅏㄴㅈㅜㅇ	-11856
▁ㅂㅏㄹㄹㅏㄷㅡ	-11857
sh	-11858
▁For	-11859
ㅏㅇㄷㅣ	-11860
▁ㄱㅏㄹㅏ	-11861
▁ㅊㅣㄹㅜ	-11862
▁ㄹㅏㅇㅣㄷㅓ	-11863
▁ㅇㅗㅂㅏㅁㅏ	-11864
▁OST	-11865
▁ㄴㅡㄺ	-11866
▁ㅇㅕㅅㅓ	-11867
▁ㅂㅐㄱㄱㅘ	-11868
▁ㅇㅕㅇㅈㅓㅇ	-11869
▁So	-11870
▁ㄴㅔㅌㅡ	-11871
▁ㅈㅜㅇㅌㅚ	-11872
▁ㄷㅗㅁㅏㅇㄱㅏ	-11873
▁ㅅㅔㅋㅣ	-11874
▁ㄷㅏㅇㅟㄴ	-11875
▁ㄴㅠㅋㅐㅅㅡㄹ	-11876
AF	-11877
▁Com	-11878
ㅈㅣㄱㅣ	-11879
▁ㅇㅠㅎㅢ	-11880
ㄱㅜㄱㅅㅏ	-11881
ㄷㅓㅇㅇㅣ	-11882
▁ㄱㅣㅁㅈㅜㄴ	-11883
▁pr	-11884
▁ㄱㅕㄱㄹㅣ	-11885
▁ㅁㅗㅅㅐㄱ	-11886
ㅊㅓㄴㄷㅗㅇ	-11887
▁ㅅㅣㅁㅅㅏㅇ	-11888
▁ㄹㅗㅁㅏㅇㅣㄴ	-11889
ㄲㅏㅂ	-11890
ㅁㅣㅇㅏㅁ	-11891
▁ㄴㅡㅇㅎㅏ	-11892
▁ㅇㅛㅊㅜㅇ	-11893
▁ㅈㅏㄱㅁㅜㄹ	-11894
▁ㅁㅏㄹㅁㅣㅇㅏㅁ	-11895
▁ㅍㅣㄹㅏㅁㅣㄷㅡ	-11896
bo	-11897
ㄹㅣㅋㅡ	-11898
▁ㅌㅡㄹㅜ	-11899
▁ㄹㅣㅇㅗㅇ	-11900
▁ㅇㅣㄴㄱㅏ	-11901
IL	-11902
▁ㅅㅏㅁㅈㅜㅇ	-11903
▁ㅇㅗㅅㅏ	-11904
▁ㅎㅗㄷㅐ	-11905
▁ㅁㅏㄸㅏㅇ	-11906
ㅅㅡㅋㅐ	-11907
ㅇㅔㅁㅣ	-11908
▁ㅇㅠㅇㅢ	-11909
▁ㄷㅣㅇㅗㄴ	-11910
▁ㅈㅣㅇㅅㅜ	-11911
▁ㅅㅗㅇㅊㅜㄹ	-11912
▁ㄱㅣㅅㅜㄱㅅㅏ	-11913
▁ㄴㅏㄱㄷㅗㅇㄱㅏㅇ	-11914
▁Ma	-11915
▁Part	-11916
ㅣㅇㅐㅁㅣ	-11917
▁ㅂㅗㄹㅌㅡ	-11918
▁ㅂㅣㅈㅜㄴ	-11919
▁ㄱㅗㅇㅅㅓㅇ	-11920
▁ㅎㅏㅇㅁㅏㄴ	-11921
▁ㄸㅗㄱㄱㅏㅌㅇㅣ	-11922
▁ㅁㅏㅇㅣㅇㅐㅁㅣ	-11923
▁Mo	-11924
▁ㅌㅜㅇㅕ	-11925
▁ㅈㅣㅅㅏㅇㅍㅏ	-11926
▁ㅅㅐㅇㅈㅗㄴㅈㅏ	-11927
▁ㅈㅏㅇㅎㅏㄱㄱㅡㅁ	-11928
▁ㅇㅛㄱㅕㄱ	-11929
▁ㄸㅓㄹㅇㅓㄸㅡㄹㅣ	-11930
▁Live	-11931
▁ㄹㅗㅇㅜ	-11932
▁ㅂㅏㅌㅡ	-11933
ㅣㅇㅏㅅㅡ	-11934
▁ㅇㅢㄹㅕㅇ	-11935
▁ㅇㅡㅁㅇㅜㄴ	-11936
▁ㅈㅓㅇㅈㅗㅇ	-11937
▁ㅌㅗㄹㅣㄴㅗ	-11938
▁ㄱㅗㅇㅎㅠㅇㅣㄹ	-11939
▁ㄴㅏㅋㅏㅁㅜㄹㅏ	-11940
▁ㄱㅜㄴㅐ	-11941
▁ㅁㅣㅅㅜ	-11942
ㅌㅡㄴㅓㅁ	-11943
▁ㅇㅕㄹㄱㅏㅇ	-11944
▁ㅇㅣㄹㅂㅗㄴㄱㅜㄱ	-11945
▁ㅈㅏㅇㅠㅁㅣㄴㅈㅜㄷㅏㅇ	-11946
▁EU	-11947
ㅡㄹㄹㅔ	-11948
▁ㄱㅡㄹㄹ	-11949
▁ㅂㅣㅇㅑ	-11950
▁ㅈㅜㄱㅖ	-11951
ㅔㅅㅡㅌㅡ	-11952
▁ㅇㅡㄴㄱㅓ	-11953
▁ㅁㅏㄹㅡㅋㅡ	-11954
▁ㅍㅡㄹㅏㄴㅊㅔㅅㅡㅋㅗ	-11955
▁Sou	-11956
▁ㅅㅐㅇㅜ	-11957
ㅍㅜㄹㅇㅣ	-11958
▁ㅂㅏㄴㅍㅗ	-11959
▁ㅈㅗㅇㅈㅏ	-11960
▁ㅍㅣㅍㅣㄴ	-11961
ㅊㅜㅂㅜㅅㅏ	-11962
▁ㅎㅏㄴㅅㅣㄴ	-11963
▁ㄹㅏㅍㅏㅇㅔㄹ	-11964
▁ㅂㅜㄷㅣㅈㅎㅣ	-11965
ㅇㅔㅁㅣㄹㅣㅌㅡ	-11966
▁ㅁㅣㅇㅑㅈㅏㅋㅣ	-11967
▁ㅇㅏㄹㅏㅂㅇㅔㅁㅣㄹㅣㅌㅡ	-11968
ㅐㅇㅇㅣ	-11969
▁ㅇㅛㅇㅇㅢ	-11970
▁ㄱㅣㅁㅇㅣㄴ	-11971
▁ㅎㅐㄹㅣㅅㅡ	-11972
▁1848	-11973
▁ㄷㅏㅌㅔ	-11974
▁ㄱㅝㄴㅎㅏ	-11975
▁ㄷㅏㅇㄱㅣ	-11976
▁ㄹㅏㅇㅣㅁ	-11977
▁ㅁㅜㅈㅏㄱ	-11978
▁ㅂㅡㄹㅔㅇㅣ	-11979
▁ㅂㅕㅇㅈㅏ	-11980
▁ㄱㅣㅁㅁㅕㅇ	-11981
▁ㅇㅓㅅㅣㅅㅡㅌㅡ	-11982
ㄴㅣㅈㅣ	-11983
ㄷㅡㅇㅟ	-11984
▁JTBC	-11985
▁ㄱㅏㄱㅏ	-11986
▁ㄱㅡㄴㅅㅏ	-11987
▁ㅇㅕㅂㅐㅇㅜ	-11988
▁ㅇㅝㄴㄱㅜㄴ	-11989
▁ㅈㅓㅇㅇㅡㅂ	-11990
▁ㅌㅟㄴㅣㅈㅣ	-11991
▁ㅍㅡㄹㅏㅇㅅㅡㅇㅣㄴ	-11992
▁ㅌㅡㄴ	-11993
ㅆㅡㅁㅏ	-11994
▁ㅂㅓㅁㅏ	-11995
▁ㅋㅜㅍㅓ	-11996
ㅅㅡㄹㅕㅇ	-11997
▁ㄱㅓㄹㅏㄴ	-11998
ㄷㅗㄹㅡㅍㅡ	-11999
▁ㅇㅑㅇㅅㅣㅁ	-12000
▁ㅇㅕㄴㅈㅓㅇ	-12001
▁ㅈㅏㅁㅈㅓㅇ	-12002
▁ㅍㅡㄹㅏㅇㅅㅡㄹㅕㅇ	-12003
ㅁㅣㅅㅡ	-12004
▁ㅂㅏㄷㅊㅣ	-12005
▁ㅅㅓㅇㄱㅘㄱ	-12006
ㅓㄹㄹㅣㅈㅡㅁ	-12007
EE	-12008
▁ㅁㅗㅇㅛㄱ	-12009
ㅋㅡㄹㄹㅣㄷㅡ	-12010
▁ㅇㅔㄴㅌㅡㄹㅣ	-12011
▁ㅅㅔㄴㅌㅣㅁㅣㅌㅓ	-12012
▁Col	-12013
▁ㅌㅏㄹㅣ	-12014
ㅔㄱㅡㄹㅗ	-12015
▁ㄱㅕㄱㅊㅜ	-12016
▁ㅂㅗㅈㅗㄱ	-12017
▁ㅍㅕㅇㅍㅏㄴ	-12018
▁ㅇㅕㄲ	-12019
▁ㅇㅠㄱㅗ	-12020
▁ㅈㅏㅅㅓ	-12021
▁ㅎㅜㅂㅐ	-12022
▁ㄱㅟㅅㅣㄴ	-12023
▁ㅅㅜㄴㅈㅗㅇ	-12024
▁ㅇㅣㄴㅊㅣㅇ	-12025
▁ㅋㅡㄹㄹㅔㅇㅣ	-12026
▁ㅇㅠㄴㅣㅂㅓㅅㅓㄹ	-12027
▁ㄱㅏㄷㅜ	-12028
▁ㅇㅗㄷㅣ	-12029
▁ㅎㅛㅈㅏ	-12030
ㅎㅘㅁㅜㄴ	-12031
▁ㅍㅗㅌㅓㄹ	-12032
▁ㄷㅐㄹㅣㅇㅣㄴ	-12033
▁ㅂㅗㅅㅜㅈㅜㅇㅢ	-12034
▁ㅋㅏㅌㅏㄹㄹㅜㄴ	-12035
uc	-12036
▁ㄴㅗㅂㅗ	-12037
▁ㅅㅓㅌㅐ	-12038
▁ㅍㅗㄱㅗ	-12039
ㅅㅡㅌㅔㄴ	-12040
▁ㅅㅗㅇㄷㅗ	-12041
▁ㅇㅑㅁㅏㄴ	-12042
▁ㄱㅜㄹㅈㅓㄹ	-12043
▁ㅅㅡㅂㅇㅠㄴ	-12044
▁ㅌㅏㄴㅇㅑㄱ	-12045
▁ㄷㅐㅅㅡㅇㅂㅜㄹㄱㅛ	-12046
▁"&	-12047
▁ㅊㅠ	-12048
ㄷㅜㅁ	-12049
▁ㅁㅜㄱㅘ	-12050
▁ㄱㅏㄹㅏㅇ	-12051
▁ㅌㅐㅇㅏㄴ	-12052
▁ㄱㅡㅁㅅㅏㄴ	-12053
▁ㅇㅡㅇㄱㅡㅂ	-12054
▁ㅁㅏㄴㅎㅘㄱㅏ	-12055
▁ㄱㅛㅇㅢ	-12056
▁ㄱㅣㅇㅣ	-12057
▁ㅇㅣㄱㅅㅜㄱ	-12058
▁ㅁㅏㅂㅓㅂㅅㅏ	-12059
▁ㄱㅜㄱㅈㅔㅂㅓㅂ	-12060
▁ㅈㅜㄹㄱㅣㅅㅔㅍㅗ	-12061
ㅎㅣㄴ	-12062
ㄷㅗㅇㅓ	-12063
▁ㄹㅏㄹㅣ	-12064
▁ㅎㅐㅌㅐ	-12065
▁ㅋㅏㅅㅡㅌㅣㅇㅑ	-12066
▁API	-12067
▁ㅇㅠㅅㅣㄱ	-12068
▁ㄹㅔㄷㅡㅅㅏㄱㅅㅡ	-12069
▁ㅈㅜㅇㅅㅓ	-12070
▁ㄱㅣㅁㄱㅘㅇ	-12071
▁ㅅㅣㄴㄱㅗㄱ	-12072
ㅍㅡㄹㅏㅇㅣㄴ	-12073
▁ㄱㅓㅁㅇㅡㄴㅅㅐㄱ	-12074
ㅜㅇㅕㄱ	-12075
▁ㅁㅏㄴㅣ	-12076
▁ㅁㅗㄱㅓㄴ	-12077
▁ㅇㅏㄴㄴㅏ	-12078
▁ㅁㅜㄴㅈㅣㅂ	-12079
▁ㅅㅏㅇㅜㄴㄷㅡㅌㅡㄹㅐㄱ	-12080
ann	-12081
ㅓㄹㅅㅡ	-12082
▁ㄹㅠㅋㅠ	-12083
▁ㅌㅔㄹㅏ	-12084
▁ㅍㅐㄹㅓㄷㅣ	-12085
▁ㅍㅕㅇㅍㅕㅇ	-12086
▁ㅈㅓㅇㄱㅓㅈㅏㅇ	-12087
▁ㄱㅘㅇㅂㅗㄱㄱㅜㄴ	-12088
▁ㄱㅗㅇㅏ	-12089
▁ㄱㅣㅇㅘ	-12090
▁ㄱㅡㅂㅇㅕ	-12091
▁ㅂㅐㅂㅜㄴ	-12092
▁ㅈㅣㄴㄹㅗ	-12093
▁ㅇㅜㄹㅜㅅㅡ	-12094
▁ㅈㅣㅂㅐㅈㅏ	-12095
▁ㅎㅏㄴㄱㅕㄹ	-12096
▁Time	-12097
▁ㅈㅏㅁㅕㅇ	-12098
▁ㄷㅐㅂㅓㅂㄱㅘㄴ	-12099
ㅅㅐㅁ	-12100
ㅅㅏㄹㅕㄱ	-12101
▁ㄱㅗㅊㅏㅇ	-12102
ㅍㅔㅅㅡㅌㅡ	-12103
▁ㅇㅔㅇㅣㅈㅡ	-12104
▁int	-12105
▁ㄱㅗㅈ	-12106
ㅈㅣㄹㅗ	-12107
▁ㅊㅜㄹㅕㄱ	-12108
▁ㅇㅡㅁㅈㅓㄹ	-12109
▁BC	-12110
▁ㅂㅏㄱㅡ	-12111
▁ㅋㅜㄴㅣ	-12112
▁ㅎㅗㄴㄷㅏ	-12113
▁ㄱㅝㄴㅇㅕㄱ	-12114
▁ㅎㅏㄴㄹㅣㅁ	-12115
▁ㄱㅛㅌㅗㅇㅂㅜ	-12116
▁ㅌㅜㅁ	-12117
▁ㅂㅗㅇㅎㅘ	-12118
▁ㅂㅜㅎㅏㅂ	-12119
▁ㅁㅣㅇㅑㄱㅣ	-12120
▁ㅅㅣㅋㅗㅋㅜ	-12121
▁ㅇㅕㅇㅢㄷㅗ	-12122
▁ㄷㅓㅂㅡㄹㄹㅣㄴ	-12123
▁ㄱㅡㄹㅏㅇㅜㄴㄷㅡ	-12124
lay	-12125
▁EM	-12126
olog	-12127
▁ㄹㅔㅂ	-12128
ㅈㅣㅂㅜ	-12129
▁ㄱㅣㅈㅓㄴ	-12130
▁ㅁㅗㅌㅓㅅ	-12131
▁ㅇㅔㄹㄹㅔ	-12132
▁ㅈㅐㅇㅣㄹ	-12133
▁ㄱㅗㅇㅇㅕㅇ	-12134
▁ㄱㅜㄱㅎㅏㄴ	-12135
▁ㅂㅏㄱㅡㄴㅓ	-12136
▁ㅇㅏㄹㅂㅔㄹㅡ	-12137
row	-12138
▁SNS	-12139
ㄱㅓㄹㅐ	-12140
▁ㅂㅣㅈㅓㅇ	-12141
▁ㅅㅏㅁㅣㄴ	-12142
▁ㅈㅐㅍㅐㄴ	-12143
▁ㅈㅓㅁㅍㅗ	-12144
▁ㅊㅜㅇㅓㄱ	-12145
▁ㄷㅗㅇㅈㅣㄴ	-12146
▁ㅎㅏㄴㅗㅂㅓ	-12147
▁ㅂㅜㅊㅗㅇㄹㅣ	-12148
▁ㅈㅓㅇㅊㅣㅎㅏㄱ	-12149
▁ㅇㅏㄴㅏㄹㄹㅗㄱㅡ	-12150
ㅍㅔㅅ	-12151
▁ㅇㅗㅁㅏㄴ	-12152
▁ㅎㅏㅎㅐㅇ	-12153
ㅡㅇㅣㄴ	-12154
▁ㅅㅓㅎㅐ	-12155
▁ㅍㅔㅅㅡ	-12156
▁ㅅㅏㄴㄷㅜㅇ	-12157
▁ㅁㅕㅇㅎㅘㄱㅎㅣ	-12158
OP	-12159
▁ㅎㅔㅂㅣ	-12160
▁ㄱㅜㄱㅇㅚ	-12161
▁ㄹㅔㅇㅣㄷㅓ	-12162
▁ㄷㅐㄷㅏㄴㅎㅣ	-12163
▁ㅍㅡㄹㅏㄴㅊㅣ	-12164
▁ㅇㅗㅎㅏㅇㅣㅇㅗ	-12165
orn	-12166
ous	-12167
ows	-12168
▁ㄷㅐㄴㅅㅓ	-12169
▁ㅇㅏㄴㄱㅐ	-12170
▁ㅇㅓㅂㅈㅏ	-12171
▁ㅈㅜㅇㅅㅗㄱ	-12172
▁ㅊㅗㅇㄱㅕㄱ	-12173
▁ㄷㅐㄴㅣㅇㅓㄹ	-12174
▁ㅂㅏㅇㅅㅏㄴㅡㅇ	-12175
▁ㄷㅗㅋㅜ	-12176
ㄱㅛㅌㅗㅇ	-12177
ㅏㅇㅗㅋㅏ	-12178
▁ㄱㅗㅅㅐㅇ	-12179
▁ㅅㅓㄹㅁㅜㄴ	-12180
▁ㅅㅣㄹㅈㅡㅇ	-12181
ㅋㅣㄴㅗ	-12182
ㄹㅣㅇㅗㄴ	-12183
▁ㄷㅗㅂㅏㄱ	-12184
▁ㅃㅏㅈㅕㄴ	-12185
▁ㅈㅗㅇㄱㅜㄴ	-12186
▁ㅅㅣㅁㅔㄴㅌㅡ	-12187
▁GB	-12188
▁ㅈㅔㅇㅟ	-12189
▁ㅌㅡㄱㅎㅘ	-12190
▁ㄱㅗㄹㄱㅕㄱ	-12191
▁ㄴㅏㅁㅂㅏㅇ	-12192
▁ㅋㅓㄹㅣㅇㅓ	-12193
ㅛㄹ	-12194
▁ㄷㅗㅍㅣ	-12195
ㅏㅇㅑㅁㅏ	-12196
▁ㄱㅏㅎㅗㄱ	-12197
▁ㅌㅏㄹㅏㄱ	-12198
▁ㅍㅡㄹㅔㅅ	-12199
ㅎㅕㄴㄷㅗㅇ	-12200
▁ㅇㅐㅇㄱㅡㄹ	-12201
▁ㄱㅡㄹㅐㄴㅌㅡ	-12202
▁ㄴㅣㅋㅣ	-12203
▁ㅈㅣㅂㅓㅂ	-12204
▁ㄷㅗㅇㅅㅏㄴ	-12205
▁ㅈㅓㄹㅂㅕㄱ	-12206
▁ㅌㅏㅇㅜ	-12207
▁ㅇㅜㅎㅏㄴ	-12208
▁ㅋㅔㄹㅌㅡ	-12209
ㅍㅡㄹㅏㅇㅋㅡ	-12210
▁ㅋㅏㅁㅔㄹㅜㄴ	-12211
▁ㄱㅗㅇㅣㄴㄷㅗㄹ	-12212
▁ㅂㅗㄹㅏ	-12213
▁ㄷㅗㄹㅏㅇ	-12214
▁ㅊㅗㅋㅗㄹ	-12215
▁ㄴㅏㅁㄱㅜㄴ	-12216
▁ㄷㅏㄴㄱㅕㄹ	-12217
▁ㅅㅓㄴㅁㅕㅇ	-12218
▁ㅇㅛㅇㅇㅐㄱ	-12219
ㅗㅌㅡ	-12220
▁ㄱㅜㄷㅜ	-12221
▁ㅅㅡㅁㅣ	-12222
▁ㅇㅕㅅㅏ	-12223
ㅌㅔㅇㅣㄴㅓ	-12224
▁ㅁㅜㄴㄷㅏㄴ	-12225
ㅁㅏㄹㄹㅗ	-12226
▁ㅂㅏㅇㄷㅐ	-12227
▁ㅈㅗㅇㄹㅗ	-12228
▁ㄱㅕㅇㅂㅗㄱ	-12229
▁ㅁㅏㅇㅣㅇㅓ	-12230
▁Bla	-12231
▁ㅁㅜㅉ	-12232
▁ㅋㅐㅅ	-12233
ㅅㅓㅅㅡ	-12234
▁ㅋㅗㅅㅣ	-12235
▁ㄱㅗㅇㅅㅗ	-12236
▁ㅊㅚㅅㅓㄴ	-12237
▁ㄱㅡㄹㄲㅗㄹ	-12238
▁ㄴㅗㄹㅡㅁㅏㅇㄷㅣ	-12239
▁ㄱㅘㄴㅎㅕㄴㅇㅏㄱㄷㅏㄴ	-12240
▁Your	-12241
▁ㅂㅜㅍㅕㅇ	-12242
ㅈㅓㅇㄷㅗㅇ	-12243
▁ㅇㅔㅅㅡㅍㅔㄹ	-12244
ㅂㅔㄹㅌㅡ	-12245
▁ㄱㅜㄱㄱㅛ	-12246
▁ㄱㅘㄴㅅㅏㅇ	-12247
▁ㅈㅔㅇㅜㅅㅡ	-12248
▁ㅈㅗㅇㅇㅑㅇ	-12249
▁ㄹㅏㅇㅣㄴㅇㅓㅂ	-12250
▁ㅂㅓㅂㅇㅝㄴㅈㅏㅇ	-12251
span	-12252
ㅂㅓㄹㅡㄴ	-12253
ㅈㅔㅍㅜㅁ	-12254
▁ㄱㅏㅈㅜㅇ	-12255
▁ㅁㅏㅆㅡㅇ	-12256
▁ㅎㅏㅇㅊㅔ	-12257
▁ㅁㅜㅉㅣㄹㅡ	-12258
▁ㅎㅔㅇㅓㅈㅣ	-12259
▁ㅊㅔㅇㅣㄴㅈㅣ	-12260
▁131	-12261
▁ㄴㅕㅇ	-12262
▁ㄹㅗㅋㅣ	-12263
ㄷㅡㄹㅣㅇㅏ	-12264
▁ㅇㅣㄹㄱㅏㄱ	-12265
▁ㅈㅓㅈㅣㄷㅐ	-12266
▁ㅎㅘㅇㅅㅐㄱ	-12267
▁ㅍㅏㅇㅣㄹㄹㅓㅅ	-12268
▁onlyinclude	-12269
▁GM	-12270
▁NASA	-12271
▁ㄱㅏㄱㅗ	-12272
▁ㄲㅓㄴㅐ	-12273
ㅔㅇㅣㅋㅏ	-12274
▁ㅂㅗㄹㅕㅇ	-12275
▁ㄷㅏㄴㄱㅜㄴ	-12276
▁ㄷㅐㄴㅏㅁㅜ	-12277
▁ㄹㅔㅇㅣㅌㅡ	-12278
▁ㅇㅕㄴㄹㅣㅂ	-12279
ㅋㅏㅇㅣㄴ	-12280
▁ㄴㅗㅇㅇㅓ	-12281
▁ㄷㅐㄱㅏㅇ	-12282
▁ㅎㅏㄴㅏㅁ	-12283
▁ㄱㅏㄴㄹㅑㄱ	-12284
▁ㅍㅕㄴㄱㅕㄴ	-12285
▁ㅈㅏㅁㅔㅇㅣㅋㅏ	-12286
▁ㅈㅓㅇㅂㅗㅇㅝㄴ	-12287
▁Sch	-12288
▁ㅅㅗㅇㅚ	-12289
ㅁㅏㄹㄹㅣ	-12290
▁ㄴㅏㄲㅅㅣ	-12291
▁ㅅㅏㄹㅣㅁ	-12292
▁ㅅㅜㅅㅣㄱ	-12293
▁ㅅㅓㄴㅂㅗㅇ	-12294
▁ㅇㅟㄴㅓㅅㅡ	-12295
▁ㅋㅗㄴㅅㅗㄹ	-12296
▁ㅆㅏㄱ	-12297
ㅁㅣㅈㅡ	-12298
ㅐㄴㅌㅣㄱ	-12299
▁ㄱㅓㅁㄱㅓ	-12300
▁ㅂㅗㅇㅇㅣㄴ	-12301
▁ㅎㅕㅇㅂㅓㄹ	-12302
▁1883	-12303
ㄴㅗㄹㅇㅣ	-12304
ㄷㅡㅇㅣㄴ	-12305
▁ㅇㅡㄴㅎㅖ	-12306
▁ㅈㅜㅅㅏㅇ	-12307
▁ㅇㅏㄹㅏㄱㅗㄴ	-12308
▁ㅈㅜㅇㅅㅗㄱㅣㅇㅓㅂ	-12309
▁ㅎㅗㅂ	-12310
ㅂㅣㅇㅑ	-12311
ㅋㅗㄹㅡ	-12312
ㅏㄴㅡㄴ	-12313
▁ㅅㅜㄱㅂㅜ	-12314
▁ㅇㅣㅅㅡㅌㅏㄴ	-12315
▁ㅇㅕㅇㅎㅘㅅㅏㅇ	-12316
▁at	-12317
ㅂㅓㄹㅓ	-12318
▁ㅁㅗㅂㅓㅁ	-12319
▁ㄱㅐㄱㅊㅏ	-12320
▁ㅂㅡㄹㅏㅁ	-12321
▁ㅈㅐㅍㅕㄴ	-12322
▁ㅂㅏㄹㅅㅏㅇ	-12323
▁ㅅㅗㄱㄹㅕㄱ	-12324
▁ㅈㅓㄹㄱㅏㅁ	-12325
▁ㅈㅜㅇㅇㅕㅂ	-12326
▁ㅇㅝㄴㅅㅏㄴㅈㅣ	-12327
ㅅㅡㅌㅔㄹㅡㄷㅏㅁ	-12328
▁ㅋㅐㄹ	-12329
▁ㅅㅏㅅㅜ	-12330
ㅇㅏㄷㅡㄹ	-12331
▁ㅈㅜㅇㅅㅜ	-12332
▁ㅈㅓㅇㅂㅏㄴ	-12333
ㅌㅔㅇㅣㅅㅕㄴ	-12334
▁ㅈㅔㅇㅣㅅㅡㄴ	-12335
▁ㄱㅗㅇㅎㅘㅈㅓㅇ	-12336
▁u	-12337
▁ㄱㅜㄴㅣ	-12338
▁ㅋㅏㅅㅏ	-12339
▁ㄴㅗㅁㅕㄴ	-12340
▁ㄱㅣㅁㅇㅠㄴ	-12341
▁ㅂㅏㄱㅅㅓㅇ	-12342
▁ㅂㅓㅁㅎㅐㅇ	-12343
amp	-12344
▁ㄷㅐㅁㅏ	-12345
▁ㅇㅑㅇㅚ	-12346
▁ㅇㅕㄴㅎㅢ	-12347
▁ㅇㅕㄴㄱㅜㅎㅚ	-12348
ㅇㅝㄴㅅㅜㅇㅇㅣ	-12349
ㅟㅍㅗ	-12350
ㅇㅡㄹㅗ	-12351
ㅝㄴㅅㅜ	-12352
▁ㅍㅣㄹㅣ	-12353
▁ㄴㄷㅏㅁㅕㄴ	-12354
ㅏㅋㅣ	-12355
▁ㅂㅗㄹㅗ	-12356
▁ㅂㅜㄷㅏ	-12357
▁ㅇㅏㅇㅣㅈㅡ	-12358
▁ㅇㅔㅇㅣㅈㅓㄴ	-12359
ㅎㅣㅅㅏ	-12360
▁ㅇㅗㅁㅣ	-12361
▁ㄴㅗㄱㅎㅘ	-12362
▁ㄷㅏㅌㅜㅁ	-12363
▁ㅂㅓㅁㅎㅏ	-12364
▁ㅍㅏㄴㅅㅗㄹㅣ	-12365
▁ㅈㅓㄴㅂㅏㄴㄱㅣ	-12366
▁ㄱㅜㄱㅈㅓㅇㅇㅝㄴ	-12367
▁SA	-12368
ㄲㅓㅅ	-12369
ㄴㅣㅁ	-12370
▁ㄱㅣㅅㅔ	-12371
▁ㄱㅣㄹㅑㅇ	-12372
▁ㄷㅏㄷㅡㅁ	-12373
▁ㅈㅓㄱㄹㅛ	-12374
ㅍㅡㄹㅔㄷㅡ	-12375
▁ㄱㅐㄱㅜㄹㅣ	-12376
▁ㅎㅏㄹㅇㅣㄴ	-12377
▁ㅎㅐㅅㅏㅇㄷㅗ	-12378
ㅈㅏㄹㅜ	-12379
ㅡㅁㅣㄴ	-12380
▁ㄱㅜㄹㅡ	-12381
▁ㄹㅏㄱㅣ	-12382
▁ㅇㅠㄱㅗㅇ	-12383
▁ㄱㅗㅂㅜㄴㄱㅜㄴ	-12384
▁ㅇㅠㅋㅡㄹㄹㅣㄷㅡ	-12385
▁ref	-12386
▁ㅂㅗㄹㅜ	-12387
▁ㅇㅕㄹㅈㅓㄴ	-12388
▁ㄴㅏㄹㅇㅏㄱㅏ	-12389
▁ㅂㅜㅅㅏㅇㅈㅏ	-12390
CC	-12391
▁ㄹㅐㅁㅍㅡ	-12392
▁ㅂㅗㄴㄸㅡ	-12393
▁ㅍㅡㄹㅣㄴㅅㅡ	-12394
80	-12395
▁Ge	-12396
ㄷㅗㄹㅏ	-12397
▁ㅇㅏㄴㅂㅏㅇ	-12398
▁ㅂㅜㄱㅇㅠㄹㅓㅂ	-12399
▁ㅌㅔㄱㅅㅏㅅㅡㅈㅜ	-12400
▁ㄱㅛㅎㅑㅇㅇㅏㄱㄷㅏㄴ	-12401
ink	-12402
ood	-12403
▁ㅁㅜㅅㅓㅂ	-12404
▁ㅇㅗㄴㄴㅏㄴ	-12405
▁ㅂㅣㅅㅓㄱㅘㄴ	-12406
ern	-12407
ㅏㄱㅟ	-12408
▁ㄴㅑㅇ	-12409
ㅡㄹㅐㅁ	-12410
▁ㅇㅟㅈㅗ	-12411
ㄱㅜㅇㅕㄱ	-12412
▁ㄱㅗㅇㅁㅜ	-12413
▁ㅆㅣㅈㅗㄱ	-12414
ㅌㅣㅁㅗㅇㅓ	-12415
▁Or	-12416
▁ㅇㅣㅎㅚ	-12417
▁ㅈㅔㄴㅗ	-12418
▁ㅈㅗㄱㅛ	-12419
▁ㅅㅏㅇㅕㅇ	-12420
▁ㅈㅣㅅㅓㄱ	-12421
▁ㅁㅔㄹㅂㅓㄹㅡㄴ	-12422
▁ㅇㅕㄴㅈㅏㅇㅈㅓㄴ	-12423
ㅇㅓㅅㅏ	-12424
▁Wind	-12425
▁ㄷㅗㄹㅐ	-12426
▁ㅂㅔㅌㅡ	-12427
▁ㅅㅜㅇㅟ	-12428
▁ㅅㅡㅋㅐㄴㄷㅡㄹ	-12429
▁ㅅㅓㄴㅈㅣㄴㄱㅜㄱ	-12430
▁RS	-12431
▁1882	-12432
▁ㄱㅗㅇㅢ	-12433
▁ㄷㅗㄴㅔ	-12434
▁ㅅㅔㄹㅡㄱ	-12435
▁ㅇㅟㄱㅜㄹㅡ	-12436
▁ㅋㅗㄹㄹㅓㅁ	-12437
▁ㄴㅗㅂㅔㄹㅅㅏㅇ	-12438
RT	-12439
▁ㄱㅖㅈㅜ	-12440
▁ㅎㅗㅅㅡ	-12441
▁ㅅㅣㄱㅅㅡ	-12442
▁ㅂㅜㄴㄷㅏㄴ	-12443
▁ㅎㅔㅇㅣㅇㅏㄴ	-12444
ㅅㅗㅅ	-12445
▁ㄱㅗㄹㅗ	-12446
▁ㅅㅔㅅㅡㅂ	-12447
▁ㅇㅜㅅㅏㄴ	-12448
▁ㄷㅏㄴㅅㅗㄱ	-12449
▁ㅌㅗㅇㅅㅣㄴㅅㅏ	-12450
▁ㅁㅛㅂㅣ	-12451
▁ㄷㅏㅇㅣㄴㅗㅅㅡ	-12452
II	-12453
▁RP	-12454
ㄷㅗㄹㅇㅣ	-12455
ㅎㅘㅎㅏㄱ	-12456
▁ㅅㅏㄴㅇㅛ	-12457
▁ㅅㅏㄴㅌㅣㅇ	-12458
ost	-12459
▁tv	-12460
ㅕㅈㅣ	-12461
▁ㅋㅣㅂ	-12462
ㅊㅣㅎㅣ	-12463
▁ㄱㅘㄴㄹㅖ	-12464
▁ㅁㅓㅅㅈㅣ	-12465
▁ㅇㅛㅇㅑㅇ	-12466
▁ㅈㅗㄱㅂㅗ	-12467
▁ㅇㅕㄴㄱㅜㄱ	-12468
▁ㅎㅏㅁㄹㅑㅇ	-12469
US	-12470
ㄷㅡㄹㅔ	-12471
▁ㅇㅓㄱㅣ	-12472
▁ㅇㅘㅇㄱㅜㅇ	-12473
▁OB	-12474
▁ㄷㅐㅈㅘ	-12475
ㅂㅣㄱㅜㄴ	-12476
▁ㄱㅕㄹㅅㅏ	-12477
▁ㅇㅛㅈㅓㄹ	-12478
▁ㅈㅣㄱㅡㄱ	-12479
▁ㅍㅏㅂㅓㄹ	-12480
▁ㄱㅘㄴㅇㅏㄱ	-12481
▁ㄷㅗㅇㅈㅓㄱ	-12482
▁ㅍㅡㄹㅗㄱㅡㄹㅐㅁㅓ	-12483
ㅋㅏㄴㅏ	-12484
▁ㅂㅜㄱㅛ	-12485
▁ㄱㅓㅅㅓㅇ	-12486
▁ㅇㅝㄴㄹㅗ	-12487
▁ㅍㅛㅈㅓㅇ	-12488
▁ㄴㅓㅁㅜㄴㅏ	-12489
▁ㅇㅏㅇㅣㅇㅓㄴ	-12490
▁ㄱㅜㄴㅅㅏㄹㅕㄱ	-12491
40	-12492
▁330	-12493
▁ㅇㅜㅇㅔ	-12494
▁ㅈㅐㄹㅐ	-12495
ㄹㅣㅇㅓㄴ	-12496
▁ㄴㅐㅇㅣㄹ	-12497
▁ㅇㅠㅅㅐㅇ	-12498
▁ㅅㅓㅇㅇㅝㄴ	-12499
▁ㄹㅣㅈㅡ	-12500
▁ㅎㅚㄱㅟ	-12501
▁ㅇㅝㄹㅌㅓ	-12502
▁ㅋㅜㅂㅣㄹ	-12503
▁ㄱㅏㅇㅎㅐㅇ	-12504
▁ㅂㅜㄱㄱㅜㄴ	-12505
▁ㅇㅑㅁㅏㄱㅏㅌㅏ	-12506
▁ㅎㅐㅇㅏㄴㅅㅓㄴ	-12507
▁Day	-12508
▁ㅎㅜㅇㅖ	-12509
ㄱㅡㄹㄹㅣ	-12510
ㅋㅏㄹㄹㅣ	-12511
▁ㄷㅐㅇㅣㄴ	-12512
▁ㅁㅣㅌㅗㅋㅗㄴ	-12513
▁ㅁㅣㅌㅗㅋㅗㄴㄷㅡㄹㅣㅇㅏ	-12514
ㅞㅇㅣㅌㅡ	-12515
▁ㅅㅔㄹㅕㄴ	-12516
▁ㅊㅚㅇㅕㅇ	-12517
▁ㅈㅓㅇㅈㅓㅇ	-12518
ㅉㅜㄱ	-12519
▁Girl	-12520
▁ㅅㅏㅅㅓ	-12521
▁ㅅㅡㄴㅗ	-12522
▁ㄱㅗㅎㅡㅇ	-12523
▁ㅈㅜㅅㅓㄴ	-12524
▁ㄱㅡㅂㅈㅡㅇ	-12525
▁ㅌㅗㅁㅏㅌㅗ	-12526
▁ㅎㅣㅂㅡㄹㅣ	-12527
▁ㄷㅗㅇㅅㅣㄷㅐ	-12528
▁ㅈㅜㅇㄱㅗㅇㄱㅜㄴ	-12529
▁La	-12530
ㅋㅔㅇㅣ	-12531
▁ㄹㅣㅁㅏ	-12532
▁ㅋㅏㅍㅣ	-12533
▁ㅂㅏㄷㄷㅡㄹ	-12534
▁ㅈㅏㅇㄷㅓㄱ	-12535
▁ㅎㅏㅇㅇㅝㄴ	-12536
▁ㅍㅏㅅㅣㅈㅡㅁ	-12537
▁ㅋㅜㅂㅣㄹㄹㅏㅇㅣ	-12538
▁ㄱㅘㄴㄱㅖㅇㅓㅄㅇㅣ	-12539
▁ㅍㅔㅂ	-12540
▁ㅂㅐㄷㅏㄹ	-12541
▁ㅅㅏㅇㅏㄴ	-12542
▁ㅂㅜㅌㅈㅏㅂ	-12543
▁ㅂㅡㄹㄹㅜㅁ	-12544
▁ㅈㅓㅇㅇㅝㄹ	-12545
▁ㅈㅓㅇㅇㅡㄴ	-12546
▁ㅎㅕㅂㅇㅓㅂ	-12547
▁ㄱㅣㄴㅕㅁㅇㅣㄹ	-12548
▁ㅅㅣㅈㅡㅇㅗㅋㅏ	-12549
▁ㅇㅕㅇㅇㅝㄴㅎㅣ	-12550
▁ㅍㅣㄹㄹㅣㅂㅅㅡ	-12551
ㅔㄱㅗ	-12552
▁ㄹㅐㅇㅋㅡ	-12553
▁ㅍㅕㅇㅈㅣ	-12554
▁ㅂㅓㅂㄱㅘㄴ	-12555
▁ㅁㅣㅅㅡㅌㅓㄹㅣ	-12556
▁ㅇㅣㅅㅡㅌㅏㄴㅂㅜㄹ	-12557
▁ㅂㅏㅈㅣ	-12558
ㅎㅕㅂㅎㅚ	-12559
▁ㄷㅓㅍㄱㅐ	-12560
ㅇㅠㅇㅎㅏㅂ	-12561
▁ㄷㅐㅍㅛㅈㅏ	-12562
▁ㄹㅣㅁㅣㄱㅅㅡ	-12563
▁ㅍㅖㄱㅣㅁㅜㄹ	-12564
ㅈㅣㄱㅐ	-12565
▁ㅂㅜㅍㅏ	-12566
ㅎㅏㄱㅔㄴ	-12567
▁ㅂㅜㅇㅘㅇ	-12568
▁ㅅㅓㅇㄷㅗㅇ	-12569
▁ㄷㅐㅅㅏㅇㅈㅏ	-12570
▁ㅅㅏㅇㅣㅌㅏㅁㅏ	-12571
▁ㅇㅓㅍㅏ	-12572
ㅏㄹㅣㅋㅏ	-12573
▁ㅎㅏㅇㄹㅗ	-12574
▁ㅈㅣㄱㅅㅗㄱ	-12575
▁ㄷㅗㄱㅅㅜㄹㅣ	-12576
▁ㅎㅛㄱㅗㅎㅕㄴ	-12577
▁ㅎㅐㄱㅇㅠㅇㅎㅏㅂ	-12578
▁ㅇㅠㅅㅓ	-12579
▁ㅋㅗㅅㅗ	-12580
ㅎㅗㄹㅏㄴ	-12581
▁ㅅㅜㅇㅕㄹ	-12582
▁ㅇㅜㅇㅝㄹ	-12583
▁ㅅㅣㄱㅇㅛㅇ	-12584
▁ㅅㅠㅍㅓㅋㅓㅂ	-12585
▁ㅅㅏㄹㅗㅈㅏㅂㅎㅣ	-12586
▁LED	-12587
▁ㅍㅗㅌㅗ	-12588
▁ㅎㅏㅋㅗ	-12589
▁ㅋㅗㅍㅔㄴ	-12590
▁ㄱㅏㅇㅅㅓㅇ	-12591
▁ㅅㅏㅇㄹㅗㄱ	-12592
▁ㅈㅏㅁㄲㅏㄴ	-12593
▁ㅈㅗㅇㅇㅕㅇ	-12594
▁ㄷㅏㄴㅊㅔㅈㅓㄴ	-12595
▁FK	-12596
▁ㄷㅗㅇㅍㅗ	-12597
▁ㅅㅓㅁㅕㄴ	-12598
▁ㅇㅏㅁㅗㄱ	-12599
▁ㄷㅔㄴㅣㅅㅡ	-12600
▁ㅍㅡㄹㅐㄴㅊ	-12601
ㅈㅣㄴㅡㄹㅓㅁㅣ	-12602
▁ㅋㅓㄴㅌㅡㄹㅗㄹㄹㅓ	-12603
▁ㅌㅐㄱㅡ	-12604
▁ㅈㅗㅅㅔㅂ	-12605
▁ㅈㅜㅊㅏㅇ	-12606
▁ㄹㅔㅇㅗㅍㅗㄹ	-12607
▁ㅁㅜㅅㅣㄹㅈㅓㅁ	-12608
▁ㄷㅡㅂ	-12609
ㅔㅁㅔㄴ	-12610
▁ㅈㅗㅅㅠ	-12611
▁ㄱㅏㅇㄷㅏㅇ	-12612
▁ㅂㅏㄹㄷㅗㅇ	-12613
▁4000	-12614
▁ㅌㅏㅅㅜ	-12615
▁ㅂㅔㅍㅜㄹ	-12616
▁ㄷㅏㄴㅁㅏㄹ	-12617
▁ㅎㅕㅇㅍㅕㄴ	-12618
▁ㅅㅏㅎㅚㅁㅣㄴㅈㅜㄷㅏㅇ	-12619
OT	-12620
▁ㅂㅗㄹㅡㅁ	-12621
▁ㅂㅜㅇㅏㄴ	-12622
▁ㅈㅔㅊㅓㄴ	-12623
▁ㅎㅏㅇㅣㅂ	-12624
▁ㄱㅜㄴㅂㅓㄹ	-12625
oll	-12626
▁ㄹㅓㅇㅣㄹ	-12627
▁ㅈㅡㅇㅍㅗㄱ	-12628
ㅡㅅㅔㄴ	-12629
▁1868	-12630
▁ㄱㅏㄴㅅㅏ	-12631
▁ㄷㅐㅈㅣㄴ	-12632
▁ㅍㅏㅍㅜㅇ	-12633
▁ㄴㅔㄹㅅㅡㄴ	-12634
▁ㅂㅓㄴㅊㅏㅇ	-12635
▁ㅍㅛㅇ	-12636
▁ㅅㅓㅅㅏㅅㅣ	-12637
▁ㅅㅏㅇㅓㅂㅅㅗ	-12638
▁ㅇㅗㅅㅡㅌㅣㄴ	-12639
▁ㄹㅔㅅ	-12640
▁ㅅㅏㅊㅣ	-12641
▁ㅌㅐㅎㅜ	-12642
ㅂㅡㄹㄹㅣ	-12643
▁ㄱㅠㅌㅏㄴ	-12644
▁ㅅㅏㅊㅓㄴ	-12645
▁ㄱㅘㄴㅁㅗㄱ	-12646
▁ㅇㅏㄴㅌㅣㅇㅗ	-12647
▁ㅇㅏㅋㅔㅇㅣㄷㅡ	-12648
▁ㅍㅡㄹㅐㄴㅊㅏㅇㅣㅈㅡ	-12649
▁ㄱㅘㅁ	-12650
▁ㅇㅜㅅㅣ	-12651
▁ㄹㅏㅇㅜㄹ	-12652
▁ㅅㅏㄴㅅㅣ	-12653
▁ㅇㅟㄹㅕㄱ	-12654
ㅈㅏㄴㅣㅇㅏ	-12655
▁ㅅㅣㄴㅇㅣㅂ	-12656
▁ㅍㅔㄹㅡㅅㅣ	-12657
▁ㅇㅗㅇㅣㄹㄹㅓ	-12658
ㄱㅗㅇㅅㅏㄴㄷㅏㅇ	-12659
▁ㅇㅕㅅㅓㅇㅈㅜㅇㅢ	-12660
ㅌㅏㄴㅏ	-12661
▁ㅂㅜㅊㅣ	-12662
▁ㄴㅐㅂㅜㄴ	-12663
▁ㄷㅣㄹㄹㅓㄴ	-12664
▁ㅁㅗㄴㅌㅔㄴ	-12665
ㅅㅓㄴㅣ	-12666
▁ㅂㅏㅇㅗ	-12667
▁ㄱㅛㅈㅣㄱ	-12668
▁ㅈㅔㄷㅏㄴ	-12669
▁ㅈㅓㅇㄹㅕㅇ	-12670
▁ㅎㅠㄱㅔㅅㅗ	-12671
▁ㅂㅓㅂㅈㅗㅇㅣㄴ	-12672
▁ㅇㅏㅇㄱㅗㄹㄹㅏ	-12673
▁ㄱㅏㅌㅗ	-12674
▁ㅎㅚㄱㅗ	-12675
▁ㅇㅕㅁㄹㅕ	-12676
▁ㅇㅠㅇㅕㅇ	-12677
▁ㅋㅡㄹㅣㅇ	-12678
▁ㅁㅔㄹㅣㄹㄹㅐㄴㄷㅡ	-12679
▁ㅇㅑㄹ	-12680
ㅎㅐㅈㅏ	-12681
▁ㅇㅝㅋㅓ	-12682
ㅂㅗㄴㅂㅜ	-12683
ㅅㅡㄹㄹㅏ	-12684
ㅍㅏㅇㅇㅣ	-12685
▁ㄱㅘㅌㅔㅁ	-12686
▁ㅋㅔㄴㅌㅡ	-12687
▁ㅅㅓㅇㅇㅏㄱ	-12688
▁ㅈㅔㄱㅏㄹㄹㅑㅇ	-12689
▁ㄱㅘㅌㅔㅁㅏㄹㄹㅏ	-12690
▁ㅇㅑㅇㅂㅗ	-12691
▁ㄱㅡㅁㅈㅓㄴ	-12692
▁ㄴㅡㅇㄷㅗㅇ	-12693
▁ㄱㅡㅂㅅㅗㄱㅎㅣ	-12694
▁ㅎㅏㅇㅢ	-12695
▁ㅂㅐㅇㅕㄱ	-12696
▁ㅇㅓㄺㅎㅣ	-12697
▁ㅍㅓㅈㅡㄹ	-12698
ㄷㅣㅅ	-12699
▁320	-12700
▁ㄱㅏㄱㄹㅛ	-12701
▁ㄴㅔㅇㅣㅁ	-12702
▁ㅅㅓㅊㅗㄱ	-12703
▁ㅈㅓㄴㅅㅔ	-12704
▁ㅈㅓㅁㄱㅓ	-12705
▁ㄱㅕㅇㅈㅜㅅㅣ	-12706
▁ㅍㅣㅅ	-12707
▁ㅊㅓㅇㄱㅖ	-12708
▁ㄷㅔㄹㅕㄱㅏ	-12709
▁ㄹㅗㅁㅏㅈㅏ	-12710
▁ㅂㅏㄱㅅㅏㅇ	-12711
▁ㅈㅓㄹㅈㅔ	-12712
▁ㄱㅜㄱㅊㅓㄹ	-12713
▁ㅅㅡㅂㄱㅘㄴ	-12714
▁ㅇㅕㅇㄷㅓㄱ	-12715
▁ㅈㅓㅂㅈㅗㅇ	-12716
▁new	-12717
▁ㄱㅕㄱㅌㅜ	-12718
▁ㅂㅏㄹㅈㅓㄴㄱㅣ	-12719
▁ㄹㅔㅇㅣㄴㅈㅓㅅㅡ	-12720
▁ㅋㅗㅍㅔㄴㅎㅏㄱㅔㄴ	-12721
▁ㅁㅗㄴㅌㅔㄴㅔㄱㅡㄹㅗ	-12722
▁ㅉㅣㅈ	-12723
▁ㄴㅓㅁㅓ	-12724
▁ㅈㅓㅈㅗ	-12725
▁ㅊㅜㄱㅈㅓㄴ	-12726
▁ㅇㅏㅁㅅㅡㅌㅔㄹㅡㄷㅏㅁ	-12727
ㅎㅣㄷㅡ	-12728
ㅗㄱㅓㄴ	-12729
▁ㄹㅏㄱㅏ	-12730
▁ㅇㅚㄱㅘ	-12731
▁ㅂㅏㅇㅜㄹ	-12732
▁ㅂㅜㄴㅅㅏ	-12733
▁ㅊㅗㅇㅏㄴ	-12734
▁ㄷㅐㅁㅕㅇㅅㅏ	-12735
ㅎㅕㄴㅐ	-12736
▁ㅌㅡㅇㅣ	-12737
▁ㅁㅏㄱㅡㄴ	-12738
▁ㅁㅔㅇㅣㄹ	-12739
▁ㅅㅐㅇㄹㅣ	-12740
▁ㅈㅡㅇㅇㅗ	-12741
▁ㅋㅓㄴㅅㅓㄹ	-12742
▁ㅂㅏㄺㅎㅕㄴㅐ	-12743
ㅗㅅㅗㄱㄷㅗㄹㅗ	-12744
ㅎㅡㄺ	-12745
▁ㄴㅗㅎㅜ	-12746
▁ㄹㅣㅋㅏ	-12747
ㄷㅏㅇㄱㅣ	-12748
▁ㄱㅗㅇㅗㄴ	-12749
▁ㅇㅔㄴㄷㅡ	-12750
▁ㅇㅔㅇㅣㄴ	-12751
▁ㅇㅜㅇㅘㅇ	-12752
▁ㅈㅗㅇㅕㅇ	-12753
ㄱㅡㄹㅏㄷㅡ	-12754
▁ㄱㅗㅇㅇㅏㄴ	-12755
▁ㄴㅔㄱㅅㅔㄴ	-12756
▁ㅎㅓㄴㅈㅏㅇ	-12757
▁ㅅㅏㅇㅣㅁㅓㄴ	-12758
▁ㄱㅏㄱㅗㅅㅣㅁㅏ	-12759
▁ㅂㅗㄱㅇㅡㅁㅈㅜㅇㅢ	-12760
▁TR	-12761
ㅗㄴㅗ	-12762
▁ㅊㅣㅎㅏ	-12763
▁ㄷㅗㅅㅏㅇ	-12764
▁ㅅㅏㅇㅇㅓ	-12765
▁ㅈㅣㅂㅜㅇㄷㅗㄹ	-12766
▁ㅇㅔㅍㅡ	-12767
▁ㅋㅏㅁㅣ	-12768
▁ㅅㅜㄹㅑㅇ	-12769
▁ㅇㅔㅅㅡㅍㅔㄹㅏㄴㅌㅗ	-12770
▁ㅎㅜㅋㅜㅇㅗㅋㅏㅎㅕㄴ	-12771
▁ㅂㅡㄹㅡ	-12772
▁ㅈㅏㅅㅜ	-12773
▁ㄴㅏㅁㅎㅏ	-12774
▁ㅁㅗㄷㅓㄴ	-12775
▁ㅅㅐㄴㄷㅣㅇ	-12776
▁ㅈㅏㅇㅂㅕㅇ	-12777
▁ㅈㅗㅇㅅㅣㄴ	-12778
▁ㅊㅜㄹㄷㅗㅇ	-12779
▁ㅍㅕㄴㅎㅑㅇ	-12780
▁ㅇㅛㅊㅜㅇㅈㅣ	-12781
▁ㅋㅗㅅㅡㅌㅏㄹㅣㅋㅏ	-12782
▁DF	-12783
▁ㄴㅡㅍ	-12784
▁ㄱㅓㅊㅓ	-12785
▁ㅊㅣㅇㅠ	-12786
▁ㅈㅣㄴㅏㄴ	-12787
▁ㅇㅣㅂㅏㅈㅣ	-12788
▁ㅈㅏㄴㅇㅣㄴ	-12789
▁ㅇㅜㅇㅢㅈㅓㅇ	-12790
▁ㅅㅏㄴㅌㅣㅇㅏㄱㅗ	-12791
19	-12792
▁ㅇㅟㄹㅗ	-12793
▁ㄱㅔㄲㅡㅁ	-12794
▁ㅂㅗㄱㅈㅗㅇ	-12795
▁ㅅㅓㅇㅅㅏㄴ	-12796
▁ㅇㅑㅁㅏㅁㅗㅌㅗ	-12797
LA	-12798
les	-12799
ㅌㅏㄱㅗ	-12800
▁ㅁㅏㅊㅡ	-12801
▁ㅁㅔㅅㅡ	-12802
▁ㅈㅜㅅㅣㅁ	-12803
▁ㅈㅓㅇㅁㅗㅇ	-12804
▁ㅈㅏㅅㅓㅈㅓㄴ	-12805
▁ㅍㅡㄹㅏㄴㅅㅣㅅㅡㅋㅗ	-12806
ㅣㅍㅏ	-12807
▁ㅇㅣㄴㅗ	-12808
▁ㅎㅣㅌㅏ	-12809
ㄷㅗㄱㄹㅣㅂ	-12810
ㅈㅣㅇㅐㄴㅏ	-12811
▁ㅅㅏㅇㄱㅜㄱ	-12812
▁ㅇㅕㅇㅇㅝㄹ	-12813
▁ㄹㅜㅇㅣㅈㅣㅇㅐㄴㅏ	-12814
▁ㅁㅏㅇㅊㅣ	-12815
▁ㅈㅏㅈㅣㄴ	-12816
▁ㅊㅏㅅㅓㄴ	-12817
▁ㅅㅓㅂㅏㅇㅣ	-12818
▁ㅇㅜㅇㅔㅅㅡ	-12819
▁ㅊㅜㅇㄹㅕㄹ	-12820
▁ㅌㅔㄴㅔㅅㅣ	-12821
ㄷㅣㄴㅏㅂㅣㅇㅏ	-12822
▁ㅎㅘㅈㅏㅇㅍㅜㅁ	-12823
▁ㅅㅡㅋㅏㄴㄷㅣㄴㅏㅂㅣㅇㅏ	-12824
gr	-12825
▁ㅇㅑㅋ	-12826
▁ㄱㅣㅁㅅㅓㄴ	-12827
▁ㅎㅏㄴㅈㅏㅇ	-12828
▁ㅇㅟㅇㅏㄴㅂㅜ	-12829
▁ㅈㅜㄱㅖㅇㅕㄹ	-12830
▁ㄱㅡㅁㅏㄴㅋㅡㅁ	-12831
▁end	-12832
▁ㅎㅐㅍㅣ	-12833
▁ㅌㅗㅁㅅㅡㄴ	-12834
▁ㅅㅜㅇㅛㅇㅣㄹ	-12835
ung	-12836
▁ㅅㅓㅅㅡ	-12837
▁ㅇㅟㅊㅗㄱ	-12838
▁ㅅㅡㅌㅡㄹㅗ	-12839
▁ㅈㅘㅇㅢㅈㅓㅇ	-12840
▁ㅋㅜㅇㅞㅇㅣㅌㅡ	-12841
▁ㅅㅑㅍㅡ	-12842
▁ㄴㅗㄹㅏㅎ	-12843
▁ㅂㅡㄹㄹㅗ	-12844
▁ㅇㅏㅇㅜㄱ	-12845
▁ㅊㅓㄹㄱㅏㅇ	-12846
▁ㅍㅡㄹㅣㅅㅡ	-12847
▁ㅇㅣㅌㅏㄹㄹㅣㅇㅏㅇㅓ	-12848
▁ㄴㅔㅌㅣ	-12849
▁ㅇㅗㅋㅜ	-12850
▁ㅊㅜㅅㅓ	-12851
▁ㄲㅡㄶㄱㅣ	-12852
▁ㄷㅗㅇㅁㅐㅇㄱㅜㄱ	-12853
▁"()	-12854
ㅇㅣㅇㅓ	-12855
▁ㅅㅜㄴㅊㅏ	-12856
▁ㅎㅓㄴㅌㅓ	-12857
▁ㅊㅜㄱㅅㅏㄴ	-12858
▁ㅅㅣㄴㅈㅜㅋㅜ	-12859
▁ㄱㅕㄹㄱㅘㅁㅜㄹ	-12860
▁ㅌㅔㄹㄹㅔㅋㅗㅁ	-12861
▁ㄱㅏㅁㅕㄴㄹㅏㅇㅣㄷㅓ	-12862
▁NP	-12863
ㅌㅗㄹㅣㅋㅗ	-12864
▁le	-12865
ㅍㅏㄱㅜ	-12866
ㄱㅗㅇㅇㅓㅂ	-12867
▁ㅇㅕㅇㅇㅏㅁ	-12868
▁ㅇㅡㄴㅅㅣㄴ	-12869
▁ㅈㅣㄱㅎㅐㅇ	-12870
▁ㅅㅓㅎㅐㅇㅏㄴ	-12871
▁ㅅㅡㅋㅏㄹㄹㅏ	-12872
▁ㄱㅣㅁㅇㅗㄱㄱㅠㄴ	-12873
▁ㅇㅔㄹㅡㄴㅅㅡㅌㅡ	-12874
ㅂㅣㅇㅏㄴ	-12875
▁ㅅㅡㅋㅣㅁ	-12876
▁ㅎㅐㅇㅘㅇ	-12877
▁ㄱㅕㄹㅎㅐㄱ	-12878
▁ㄷㅗㅈㅏㄱㅣ	-12879
▁ㅅㅡㅌㅔㅇㅣ	-12880
▁ㅂㅜㄹㅡㅈㅜㅇ	-12881
▁ㅌㅔㅋ	-12882
▁ㅇㅠㅇㅜ	-12883
▁ㄷㅐㅊㅓㅇ	-12884
▁ㅋㅏㅌㅜㄴ	-12885
▁ㅂㅡㄹㅟㅅㅔㄹ	-12886
▁ㅅㅣㅌㅡㅋㅗㅁ	-12887
ㅟㄹㅡ	-12888
ㅇㅜㄹㅣ	-12889
▁ㄹㅔㅍㅡ	-12890
▁ㅁㅏㅋㅣ	-12891
▁ㄱㅗㅈㅣㅂ	-12892
▁ㄴㅏㄹㅡㅁ	-12893
▁ㄷㅐㄷㅓㄱ	-12894
▁ㅇㅔㄴㄹㅣ	-12895
▁ㅇㅡㄹㅕㄴ	-12896
▁ㅈㅜㅅㅓㅇ	-12897
▁ㅈㅓㄴㄹㅏㄱ	-12898
OW	-12899
ㅜㅌㅡ	-12900
▁ㄱㅐㅅ	-12901
▁Comp	-12902
▁ㄷㅐㅊㅏ	-12903
▁ㄹㅣㅋㅗ	-12904
▁ㅎㅜㅇㅠ	-12905
▁ㅂㅐㅇㅑㅇ	-12906
▁ㅎㅏㅁㅎㅡㅇ	-12907
▁ㄱㅔㅇㅗㄹㅡㅋㅡ	-12908
▁203	-12909
▁ㄱㅏㅇㅜ	-12910
▁ㅁㅣㄴㅗ	-12911
▁ㅌㅏㄹㅗ	-12912
ㅣㅇㅔㄹㅡ	-12913
▁ㄹㅣㅌㅠㅁ	-12914
▁ㅁㅏㅆㅡㅁ	-12915
▁ㄱㅣㄴㅁㅣㄹ	-12916
▁ㅈㅓㄴㅎㅏㄱ	-12917
▁ㅊㅣㅇㅅㅗㅇ	-12918
▁colspan	-12919
▁ㄱㅛㅇㅠㄱㅈㅏ	-12920
▁ㅇㅠㅈㅓㄱㅈㅣ	-12921
▁ㅊㅓㄹㅈㅓㅎㅣ	-12922
ㅁㅣㅅㅏ	-12923
▁ㄱㅛㅂㅜ	-12924
▁ㄱㅜㅁㅏ	-12925
▁ㅊㅏㅊㅡㅁ	-12926
▁ㅌㅏㄹㅊㅟ	-12927
▁ㅁㅜㄴㅈㅗㅇ	-12928
▁ㅈㅜㄴㅈㅏㅇ	-12929
▁ㅊㅡㄱㄹㅑㅇ	-12930
▁ㅎㅗㅅㅡㅌㅡ	-12931
▁ㅊㅗㅋㅗㄹㄹㅣㅅ	-12932
▁by	-12933
▁ㄷㅐㄷㅗ	-12934
▁ㅈㅗㄹㅗㅇ	-12935
▁ㅊㅔㄹㄹㅗ	-12936
▁ㅋㅓㄹㄹㅔㄱㅅㅕㄴ	-12937
▁ㅍㅜㅇㅔㄹㅡㅌㅗㄹㅣㅋㅗ	-12938
▁ㄹㅣㅂㅡ	-12939
ㅇㅓㄴㅓㅎ	-12940
▁ㅊㅓㄱㄷㅗ	-12941
▁ㄱㅣㅁㅅㅡㅇ	-12942
▁ㅇㅏㅂㄹㅗㄱ	-12943
▁ㅇㅝㄴㅎㅘㄹ	-12944
▁ㅈㅣㅁㅅㅡㅇ	-12945
▁ㄹㅗㅅㅡㅋㅜㄹ	-12946
▁ㄷㅗㅋㅏㅇㅣㄷㅗ	-12947
▁1893	-12948
▁ㅇㅕㄷㅗ	-12949
ㄷㅏㄴㅈㅣ	-12950
▁ㅈㅐㅂㅏㄹ	-12951
▁ㄷㅔㅇㅣㄹㄹㅣ	-12952
gin	-12953
▁Fe	-12954
▁280	-12955
ㅏㄹㅣㄴ	-12956
▁ㅂㅣㄷㅐ	-12957
▁ㅍㅔㅇㅗ	-12958
▁ㄱㅣㅃㅡㅁ	-12959
▁ㄸㅟㅇㅓㄴ	-12960
▁ㅁㅗㄹㅌㅏ	-12961
▁ㅁㅣㅅㅓㅇ	-12962
▁ㅇㅑㅇㄷㅐ	-12963
▁ㅎㅏㄴㅋㅠ	-12964
▁ㄱㅗㅇㅇㅑㅇ	-12965
▁ㅈㅣㅂㅊㅏㄱ	-12966
▁ㄱㅏㄹㅏㅇㅏㄵ	-12967
▁ㄱㅣㅇㅓㅂㄱㅏ	-12968
eth	-12969
ㅡㅁㅗ	-12970
▁ㄹㅗㅋㅡ	-12971
ㅅㅏㅇㅅㅣ	-12972
▁ㅇㅗㄴㅎㅘ	-12973
▁ㅊㅓㄴㅁㅏ	-12974
▁ㅎㅡㅂㅅㅏ	-12975
ㅁㅏㄹㅡㅋㅡ	-12976
▁ㄱㅘㄴㅅㅓㅇ	-12977
▁ㄴㅣㅋㅗㄹㄹㅏㅅㅡ	-12978
ㅅㅏㅇㅜ	-12979
ㅈㅏㄹㅏ	-12980
ㅣㄹㄹㅗ	-12981
▁ㅈㅗㄴㅣ	-12982
ㄹㅕㄷㅡㄹ	-12983
▁ㅊㅜㄹㅈㅏ	-12984
▁ㅍㅖㄹㅕㅁ	-12985
▁ㅎㅡㅇㅂㅜㄴ	-12986
▁ㅈㅣㄹㅣㅎㅏㄱ	-12987
▁ㄱㅏㅍ	-12988
▁ㄴㅗㅇㅏ	-12989
▁ㅅㅓㅈㅜ	-12990
▁ㄴㅗㅇㅈㅣ	-12991
▁ㅎㅏㄱㅡㅂ	-12992
ㅌㅡㄹㅣㅅㅡ	-12993
▁ㅂㅐㄱㅇㅏㄱ	-12994
▁ㅅㅓㄱㅟㅍㅗ	-12995
▁ㅅㅓㄴㅇㅣㄴ	-12996
▁ㅎㅏㄱㅈㅏㅇ	-12997
▁ㄱㅡㄹㄹㅐㅅㅡ	-12998
▁ㅎㅐㅇㅏㄴㄱㅏ	-12999
▁ㅍㅡㄹㄹㅏㅇㅋㅡ	-13000
▁ㅍㅡㄹㄹㅗㄹㅣㄷㅏㅈㅜ	-13001
ㅋㅜㄴ	-13002
ㅂㅣㅋㅡ	-13003
▁ㅈㅗㅈㅔ	-13004
▁ㅈㅏㄹㅣㅂ	-13005
▁ㅁㅏㄱㅍㅏㄴ	-13006
▁ㅅㅡㅇㅇㅛㅇ	-13007
▁ㅅㅠㅌㅏㅇㅣㄴ	-13008
▁ㅈㅣㅂㅏㅎㅕㄴ	-13009
▁ㅍㅔㄹㄹㅣㄱㅅㅡ	-13010
▁ㅁㅔㅅㅗ	-13011
▁ㅇㅏㅅㅟㅂ	-13012
▁ㅇㅓㅇㅞㅇㅣ	-13013
▁ㅇㅕㅇㅊㅓㄴ	-13014
▁ㅊㅓㄴㅊㅓㄴ	-13015
IR	-13016
ㅐㄱㅡ	-13017
▁IOC	-13018
ㅂㅏㅇㅗ	-13019
ㅅㅔㅇㅠ	-13020
▁ㅋㅐㄹㅣ	-13021
▁ㄲㅡㅀㅇㅣ	-13022
▁ㄷㅗㅊㅜㄹ	-13023
▁ㅂㅏㄴㄷㅗㅇ	-13024
▁ㅅㅐㅇㄹㅣㅎㅏㄱ	-13025
▁ㅇㅟㅅㅂㅜㅂㅜㄴ	-13026
▁ㅊㅓㄴㅇㅏㄴㅅㅣ	-13027
▁AB	-13028
▁ㄱㅗㅅㅡ	-13029
▁ㄱㅘㅅㅣ	-13030
▁ㅇㅝㄹㅌㅡ	-13031
▁ㅇㅠㅈㅗㄱ	-13032
▁TBS	-13033
ㅂㅏㅅㅣ	-13034
▁ㅈㅜㅅㅔ	-13035
▁ㅊㅗㅈㅓㄴ	-13036
▁ㅊㅣㅁㄹㅖ	-13037
▁ㄱㅡㅁㄷㅗㅇ	-13038
▁ㄴㅗㅁㅣㅇㅑ	-13039
▁ㄷㅏㄴㅈㅓㅇ	-13040
▁ㅂㅣㅅㅡㅌㅏ	-13041
▁ㅇㅏㅇㅜㄹㅡ	-13042
▁ㅁㅣㄴㅂㅕㅇㄷㅐ	-13043
▁ㅎㅏㅁㄱㅕㅇㅂㅜㄱㄷㅗ	-13044
▁ㅇㅐㅇㅣㄴ	-13045
▁ㄷㅗㅇㅑㅁㅏ	-13046
▁ㅇㅣㅂㅎㅓㄴ	-13047
▁ㅋㅏㄹㅅㅠㅁ	-13048
▁Univers	-13049
▁ㄴㅗㄴㄹㅣㅎㅏㄱ	-13050
ㅂㅜㄱㄱㅜ	-13051
▁ㄱㅘㄴㅇㅜ	-13052
▁ㄱㅜㄷㅎㅣ	-13053
▁ㅈㅓㅁㄱㅓㅁ	-13054
▁ㅊㅓㄴㅊㅓㄴㅎㅣ	-13055
▁Rock	-13056
▁ㅇㅗㅇㅏ	-13057
ㅇㅣㄱㅅㅡ	-13058
▁ㅈㅔㅊㅓㄹ	-13059
▁ㅌㅡㄱㄱㅣ	-13060
▁ㅌㅏㄴㅈㅏㄴㅣㅇㅏ	-13061
▁Rec	-13062
▁ㅋㅔㅁ	-13063
ㄱㅏㅇㅘ	-13064
ㄹㅗㅈㅣ	-13065
▁ㄴㅐㅁㅜ	-13066
▁ㅅㅡㄱㅏ	-13067
▁ㅇㅏㅋㅔ	-13068
ㄷㅡㄹㄹㅓ	-13069
ㅡㄱㅗㄴㅠ	-13070
▁ㄱㅕㄱㅎㅏ	-13071
▁ㅇㅐㄴㄷㅣ	-13072
▁ㅇㅛㅅㅣㄴㅗ	-13073
▁ㅇㅠㅎㅏㄱㅈㅏ	-13074
▁ㄱㅜㄱㅈㅔㅅㅓㄴ	-13075
▁ㅂㅜㄹㅡㄱㅗㄴㅠ	-13076
▁ㅅㅔㅇㅣㅂ	-13077
▁ㅎㅏㄴㅁㅜㄴ	-13078
▁ㅍㅣㄱㅊㅓㅅㅡ	-13079
▁ㅇㅟㅈㅡ	-13080
ㅅㅔㄹㄹㅓ	-13081
▁ㅇㅔㅂㅏㄴ	-13082
▁ㅇㅕㄴㅎㅚ	-13083
▁ㅌㅡㄹㅔㄴ	-13084
▁ㅂㅏㄹㅁㅗㄱ	-13085
▁ㅂㅏㄹㅅㅏㅊㅔ	-13086
ㅇㅣㄱㅅㅡㅍㅣㅇㅓ	-13087
ㄴㅗㅁ	-13088
▁ㅇㅣㅌㅐ	-13089
▁ㅈㅏㅈㅐ	-13090
▁ㅅㅏㅅㅏㅇㄱㅏ	-13091
▁ㄱㅏㄹㅡㅅㅣㅇㅏ	-13092
▁ㄱㅗㅇㅂㅏㅇㅈㅓㄴ	-13093
▁ㄷㅗㅇㅁㅐㅇㄱㅜㄴ	-13094
▁ㅅㅖㅇㅣㄱㅅㅡㅍㅣㅇㅓ	-13095
▁ㅂㅓㅌㅓ	-13096
▁ㄱㅟㅅㅗㄱ	-13097
▁ㅂㅜㄹㄱㅖ	-13098
▁ㅅㅔㄹㄹㅔ	-13099
▁ㅅㅗㄷㅗㅇ	-13100
▁ㄱㅏㄴㅈㅣㄱ	-13101
ㄷㅟ	-13102
▁Sup	-13103
▁ㄴㅏㅇㅜ	-13104
▁ㅂㅓㅅㅓㅅ	-13105
▁ㅇㅛㅇㅍㅜㅁ	-13106
▁ㅇㅜㅇㅜㄹㅈㅡㅇ	-13107
▁ㄴㅗㄱㅅㅐㄱㄷㅏㅇ	-13108
▁ㅊㅏㅁㅁㅗㅊㅗㅇㅈㅏㅇ	-13109
oth	-13110
▁Su	-13111
ㄴㅣㅇ	-13112
▁ㅁㅜㅁ	-13113
ㄹㅏㄷㅗ	-13114
▁ㄷㅗㅇㅣ	-13115
▁ㅅㅏㄱㅟ	-13116
▁ㅍㅣㄷㅡ	-13117
▁ㄱㅘㅇㅣㅇ	-13118
▁ㄱㅜㄷㅗㄱ	-13119
▁ㅎㅠㅇㅑㅇ	-13120
▁ㅇㅏㅁㅁㅗㄴ	-13121
▁ㅂㅏㅅㅣㄹㄹㅣ	-13122
▁ㅇㅣㄴㅍㅡㄹㄹㅔㅇㅣㅅㅕㄴ	-13123
▁ㄱㅜㅊㅣ	-13124
▁ㅇㅟㄱㅖ	-13125
▁ㅍㅏㅇㅜ	-13126
ㄱㅏㄹㄹㅣ	-13127
▁ㅇㅗㄴㄷㅐ	-13128
▁ㅌㅡㄱㅅㅏ	-13129
▁ㅅㅓㅊㅗㄱㅜ	-13130
▁ㅋㅔㅇㅣㅋㅡ	-13131
▁ㅈㅗㅅㅓㄴㅇㅘㅇ	-13132
▁ㅅㅜㄴㅇㅑㅇㅎㅏㅁ	-13133
▁ㅇㅣㅂㅗㅇ	-13134
▁ㅁㅕㅇㅇㅣㄴ	-13135
▁ㅅㅏㅇㅈㅓㅇ	-13136
▁ㄱㅏㅇㅘㅅㅏㅋㅣ	-13137
▁ㅋㅓㄴㅌㅔㅇㅣㄴㅓ	-13138
▁ㅇㅣㄴㄱㅗㅇㅇㅟㅅㅓㅇ	-13139
▁IV	-13140
▁ㄴㅠㅇ	-13141
▁ㄹㅓㅂ	-13142
▁ㄷㅐㅈㅜ	-13143
▁ㅅㅜㄹㅗ	-13144
▁ㅈㅐㅊㅏ	-13145
▁ㅁㅜㄷㅏㄴ	-13146
▁ㄱㅣㅁㅊㅓㄴ	-13147
▁ㅅㅓㅍㅗㅌㅓ	-13148
▁ㅅㅜㄴㅏㄹㅏ	-13149
▁ㅇㅡㄹㅕㄴㅡㄴ	-13150
▁ㅈㅜㅇㅇㅏㅇㅇㅡㄴㅎㅐㅇ	-13151
▁ㅂㅐㄱㅣ	-13152
▁ㅋㅏㅁㅏ	-13153
ㅌㅐㅍㅕㅇ	-13154
▁ㄱㅕㄱㄹㅕ	-13155
▁ㄱㅕㄴㄱㅗ	-13156
▁ㄱㅜㄱㅡㅁ	-13157
▁ㅅㅣㅅㅗㄱ	-13158
▁ㄱㅗㅇㅂㅓㅂ	-13159
▁ㅊㅓㅇㄹㅑㅇ	-13160
▁ㅎㅘㅇㅅㅏㄴ	-13161
▁ㅋㅏㅌㅏㄹㄹㅜㄴㅑ	-13162
ㅅㅡㅇㅘ	-13163
▁ㅇㅡㅅㅣ	-13164
▁ㄷㅏㅇㄴㅛ	-13165
▁ㅁㅕㅇㅂㅜ	-13166
▁ㅈㅏㅇㄴㅕ	-13167
▁ㅈㅓㄴㅅㅜ	-13168
▁ㅍㅏㅍㅕㄴ	-13169
▁ㄱㅗㄹㅕㅅㅏ	-13170
▁ㅁㅜㄹㄱㅕㄹ	-13171
▁ㅂㅜㄹㄱㅕㅇ	-13172
▁ㅇㅏㄱㄱㅗㄱ	-13173
▁ㅎㅏㄴㅂㅓㄴ	-13174
▁ㅈㅓㄹㄷㅗㅅㅏ	-13175
ㅅㅜㄹㅗ	-13176
ㅈㅔㅇㅣ	-13177
▁ㄱㅏㅂㅜ	-13178
▁ㅋㅏㅇㅘ	-13179
▁ㅎㅗㅋㅡ	-13180
▁ㅁㅔㅌㅣㄹ	-13181
▁ㅇㅜㅅㅇㅡㅁ	-13182
▁ㅈㅓㅇㅈㅣㄴ	-13183
▁ㄱㅏㅇㅎㅘㄷㅗ	-13184
▁ㄱㅕㅇㄱㅖㅅㅓㄴ	-13185
▁ㄷㅔㅅㅡㅋㅡㅌㅗㅂ	-13186
mer	-13187
▁ㅍㅔㅇ	-13188
ㅏㅁㅣㄴ	-13189
▁ㅁㅏㅋㅏ	-13190
▁ㅅㅣㅁㅜㄴ	-13191
ㅍㅗㄱㅌㅏㄴ	-13192
▁ㅅㅚㄱㅗㄱㅣ	-13193
▁ㅅㅣㅁㅁㅜㄴ	-13194
▁ㅇㅣㅂㅏㄹㅏ	-13195
▁ㅅㅓㅇㅁㅐㅁㅐ	-13196
ㅡㅇㅞ	-13197
ㄹㄹㅣㅅㅡ	-13198
▁ㅈㅗㅎㅕㄴ	-13199
▁ㅈㅣㄱㄱㅖ	-13200
▁ㅅㅡㄹㄹㅐㅁ	-13201
▁ㅊㅏㅅㅔㄷㅐ	-13202
▁ㅍㅜㅇㅅㅡㅂ	-13203
▁ㅍㅡㄹㄹㅗㄹ	-13204
▁ㅎㅕㄴㅍㅏㄴ	-13205
▁ㅋㅏㅇㅜㄴㅌㅡ	-13206
▁ㅍㅕㅇㅇㅏㄴㄷㅗ	-13207
ㅛㄴ	-13208
▁230	-13209
▁GNU	-13210
▁ㅋㅏㅌㅔ	-13211
▁ㅎㅏㅂㅣ	-13212
▁ㄴㅗㄹㅏㅇ	-13213
▁ㅁㅣㅅㅣㄱ	-13214
▁ㅂㅔㅌㅔㄹ	-13215
▁ㅇㅝㄴㅇㅠ	-13216
▁ㅈㅔㅊㅏㅇ	-13217
▁CG	-13218
ㄲㅗㄹㅣ	-13219
▁ㅊㅣㅋㅏ	-13220
▁ㅋㅗㄹㅣ	-13221
ㅁㅕㄴㅊㅔ	-13222
▁ㅅㅗㅇㅛㅇ	-13223
▁ㅅㅏㄴㅅㅡㅋ	-13224
▁ㅎㅟㅁㅏㄹㄹㅣ	-13225
▁ㅅㅏㄴㅅㅡㅋㅡㄹㅣㅌㅡ	-13226
▁Do	-13227
▁USB	-13228
ㅏㄹㄷㅡ	-13229
▁1892	-13230
▁ㄴㅗㅍㅡ	-13231
▁ㅋㅗㅎㅗ	-13232
▁ㅊㅜㄱㅅㅓㅇ	-13233
▁ㄱㅣㄱㅘㄴㅈㅣ	-13234
▁ㄷㅏㅇㅣㅂㅣㅇ	-13235
▁ㄹㅓㅅㅣㅇㅏㄱㅜㄴ	-13236
ㅂㅡㄹㅗ	-13237
▁ㄷㅐㅈㅓㅂ	-13238
▁ㅈㅜㅁㅓㄱ	-13239
▁ㅂㅔㄹㅡㅌㅏ	-13240
▁ㅁㅣㄹㄹㅕㄴㅏ	-13241
▁ㅁㅏㄹㅡㅅㅔㅇㅠ	-13242
▁ㅅㅏㅇㄱㅘㄴㅇㅓㅄㅇㅣ	-13243
▁ㅍㅡㄹㅔㅇㅣㅁㅇㅝㅋㅡ	-13244
ㅃㅏㅇ	-13245
▁Car	-13246
▁1888	-13247
ㅈㅏㄷㅗㅇ	-13248
▁ㄱㅗㅇㅅㅣ	-13249
▁ㄴㅏㅁㅜㅅ	-13250
▁ㄴㅐㄹㅣㅁ	-13251
▁ㅅㅓㅇㄱㅣ	-13252
▁ㅇㅣㅂㅓㅁ	-13253
▁ㄷㅔㅇㅣㅂㅡ	-13254
▁ㅅㅓㄱㄱㅏㅁ	-13255
▁ㅇㅣㅈㅡㅁㅣ	-13256
▁ㅍㅏㅇㅣㅍㅡ	-13257
▁ㅂㅏㄱㅌㅔㄹㅣㅇㅏ	-13258
▁ㅁㅕㄴㅁㅗ	-13259
▁ㅋㅠㅂㅡ	-13260
▁ㅌㅗㅇㅣ	-13261
ㄹㄹㅓㅅㅡ	-13262
ㅇㅕㄴㅎㅣ	-13263
▁ㅇㅣㅁㅏㄴ	-13264
▁ㅇㅣㅇㅡㄴ	-13265
▁ㅈㅓㄴㅁㅣ	-13266
▁ㅎㅑㅇㄱㅣ	-13267
▁ㅇㅝㄴㅅㅏㅇ	-13268
ublic	-13269
▁ㄱㅗㄴㅗ	-13270
▁ㄲㅜㄹㅣ	-13271
▁ㅂㅓㄹㅓ	-13272
▁ㅅㅣㅇㅜ	-13273
▁ㅅㅏㅂㅕㄴ	-13274
▁ㅈㅏㅇㄹㅐ	-13275
▁ㅂㅗㄹㄹㅗㄴ	-13276
▁ㅇㅜㄹㄹㅡㅇ	-13277
▁ㅎㅕㅇㅇㅛㅇ	-13278
▁ㄱㅡㅁㄴㅏㄹㅏ	-13279
▁ㅁㅜㄹㄹㅕㅈㅜ	-13280
▁from	-13281
▁ㄱㅖㄹㅑㅇ	-13282
▁ㅈㅐㅇㅏㅇ	-13283
▁ㄴㅣㄱㅅㅡㄴ	-13284
▁ㅅㅔㅂㅣㅇㅑ	-13285
▁ㅅㅜㅊㅏㄹㅖ	-13286
▁ㅂㅜㄹㄱㅖㅅㅡㅇ	-13287
ah	-13288
▁Sw	-13289
ㅣㅋㅏ	-13290
ㅇㅢㅅㅏ	-13291
ㅏㅎㅣㅁ	-13292
ㅡㄹㅏㅇ	-13293
▁ㄱㅖㅂㅗ	-13294
▁ㄲㅓㄹㅣ	-13295
▁ㅇㅓㄴㄷㅓ	-13296
▁ㅇㅣㅅㅏㄴ	-13297
▁ㄱㅏㅇㅈㅣㄴ	-13298
▁ㄹㅗㅇㅣㄷㅡ	-13299
▁ㄷㅏㅁㅕㄴㅅㅓ	-13300
▁ㅅㅓㄱㅣㄱㅘㄴ	-13301
▁ㅅㅔㄴㅔㄱㅏㄹ	-13302
▁ㅎㅓㄷㅡㅅㅡㄴ	-13303
▁ㄱㅘㄴㅎㅕㄴㅇㅏㄱ	-13304
▁ㅁㅣㅅ	-13305
ㅣㄱㅗㅇ	-13306
▁ㄱㅕㄹㅜ	-13307
▁ㄱㅗㅌㅡ	-13308
▁ㅇㅓㅇㅢ	-13309
▁ㅇㅠㅁㅜ	-13310
▁ㅍㅔㄹㅌㅡ	-13311
▁ㅇㅣㄴㅌㅓㄹ	-13312
▁ㅈㅜㅇㅇㅣㄹ	-13313
▁ㅊㅓㅇㅅㅗㅇ	-13314
▁ㅁㅜㄴㅈㅏㅇㅕㄹ	-13315
▁ㄷㅐㅈㅜㅇㄱㅛㅌㅗㅇ	-13316
▁ar	-13317
▁ㅇㅐㅊㅗ	-13318
▁ㅎㅜㅎㅏ	-13319
ㄷㅜㄹㄱㅣ	-13320
ㅇㅕㄴㅇㅢ	-13321
▁ㅂㅗㄹㅌㅣㅁㅗㅇㅓ	-13322
▁ㅌㅚㅇㅟ	-13323
▁ㅁㅐㄷㅏㄹ	-13324
▁ㅅㅜㄴㄹㅖ	-13325
▁ㅅㅜㄹㅕㄱ	-13326
▁ㅈㅏㄹㅏㄴㅏ	-13327
▁ㅍㅗㄹㅡㅌㅜ	-13328
▁ㅉㅗㅊㅇㅏㄴㅐ	-13329
▁ㅍㅔㄹㄹㅣㅍㅔ	-13330
▁ㄲㅣㅇㅜ	-13331
▁ㄹㅏㄷㅡ	-13332
▁ㄹㅣㅊㅏ	-13333
ㄱㅡㄹㅜㅂ	-13334
▁ㄱㅏㄱㅗㄱ	-13335
▁ㄱㅓㄹㅜㄱ	-13336
▁ㄷㅗㅇㅈㅗㅇ	-13337
▁ㅈㅘㅍㅛㄱㅖ	-13338
▁ㅅㅗㅎㅏㄱㄱㅛ	-13339
▁ㄹㅗㅂㅣㄴㅅㅡㄴ	-13340
▁ㅇㅠㅈㅓㄴㅎㅏㄱ	-13341
▁ㅍㅔㄴㅅㅣㄹㅂㅔㅇㅣㄴㅣㅇㅏ	-13342
ㄱㅓㄹㅇㅣ	-13343
▁ㅆㅏㅇㄷㅐ	-13344
▁ㄴㅗㅇㅊㅜㄱ	-13345
▁ㄷㅐㄱㅗㅇㄱㅜㄱ	-13346
▁ㅎㅘㄹㄷㅗㅇㄱㅏ	-13347
ron	-13348
▁ㄱㅐㄱㅡㅁ	-13349
ㄷㅡㄹㅏㅁㅏ	-13350
▁ㅂㅗㄱㅅㅣㅇ	-13351
▁ㅅㅡㅌㅐㄴㄹㅣ	-13352
AE	-13353
▁1876	-13354
▁ㄱㅘㅇㅕㄴ	-13355
▁ㄷㅏㅅㅣㄱ	-13356
▁ㅍㅣㅅㅏㄹ	-13357
ㅎㅗㅇㅅㅐㄱ	-13358
ㅅㅏㅌㅐ	-13359
ㅌㅏㄴㅗ	-13360
ㅍㅔㄱㅌㅡ	-13361
▁ㅂㅗㄹㄹㅗㄴㅑ	-13362
DA	-13363
▁ㄱㅜㄴㄷㅔ	-13364
▁ㄷㅐㄱㅡㅁ	-13365
▁ㅈㅐㄱㅕㄹ	-13366
▁ㅇㅐㄷㅓㅁㅅㅡ	-13367
▁ㅇㅜㅇㅔㅅㅡㄱㅣ	-13368
▁ㅍㅡㄹㅣㄴㅅㅡㅌㅓㄴ	-13369
▁ㄱㅔㅅ	-13370
▁ㅅㅏㅋㅓ	-13371
▁ㅍㅓㄴㄷㅡ	-13372
▁ㄷㅏㅇㅎㅘㅇ	-13373
▁ㄷㅏㅋㅏㄹㅏ	-13374
▁ㄱㅔㅅㅣㅍㅏㄴ	-13375
▁ㅊㅏㅁㅇㅢㅇㅝㄴ	-13376
▁ㅎㅐㄱㅕㄹㅊㅐㄱ	-13377
▁ㅇㅏㄹㄹㅔㄱㅅㅏㄴㄷㅡㄹㅗㅅㅡ	-13378
▁ㄱㅓㅁㅣ	-13379
▁ㅁㅔㅋㅏ	-13380
▁ㅂㅜㄹㅠ	-13381
▁ㄷㅗㅁㅣㄴ	-13382
▁ㅁㅐㄱㅇㅏ	-13383
▁ㅂㅜㄹㅅㅏ	-13384
▁ㅎㅐㅂㅕㅇ	-13385
▁ㅂㅕㄴㅈㅗㅇ	-13386
▁ㅅㅓㄴㅇㅑㅇ	-13387
▁ㅇㅑㄱㅈㅓㅁ	-13388
▁ㅈㅜㄴㅣㅊㅣ	-13389
▁ㅋㅔㅇㅣㅌㅡ	-13390
▁ㅂㅗㅈㅘㄱㅘㄴ	-13391
▁co	-13392
▁ㄱㅜㄻ	-13393
ㅣㅈㅡㅁ	-13394
▁ㄷㅗㅈㅔ	-13395
▁ㅅㅓㅇㅖ	-13396
▁ㅍㅓㅅㅡ	-13397
▁ㅎㅗㅇㅏ	-13398
▁ㄴㅣㅋㅔㄹ	-13399
▁ㅊㅐㅅㅐㄱ	-13400
▁ㄷㅐㅈㅓㄴㅊㅏ	-13401
▁ㅎㅜㅇㅝㄴㅈㅏ	-13402
▁ㅆㅣㅅ	-13403
ㄷㅜㄹㅏ	-13404
▁ㅇㅗㅎㅏ	-13405
▁ㅇㅝㅈㅡ	-13406
▁ㄱㅗㄹㅕㄷㅐ	-13407
▁ㄴㅗㅅㅡㅋㅐ	-13408
▁ㄴㅗㅅㅡㅋㅐㄹㅗㄹㄹㅏㅇㅣㄴㅏ	-13409
▁ㄷㅔㄷㅡ	-13410
▁ㄹㅏㄹㅡ	-13411
▁ㄱㅜㅁㅜㄴ	-13412
▁ㅇㅣㅁㄱㅖ	-13413
ㅍㅏㅇㅣㅇㅓ	-13414
▁ㄱㅜㄴㄱㅘㄴ	-13415
▁ㄴㅏㄱㅇㅑㅇ	-13416
▁ㅇㅏㅁㅜㄹㅣ	-13417
▁ㄷㅓㅇㅇㅓㄹㅣ	-13418
▁ㅍㅡㄹㅣㅁㅣㅇㅓㅁ	-13419
ㅌㅗㅍㅡ	-13420
▁ㅂㅜㅇㅑㅇ	-13421
▁ㅅㅏㄴㅎㅗ	-13422
▁ㅅㅣㄴㅈㅣㄴ	-13423
ㅡㅁㅣㄴㅅㅡㅌㅓ	-13424
▁ㅅㅏㅈㅓㄹㄷㅏㄴ	-13425
▁ㅇㅞㅅㅡㅌㅡㅁㅣㄴㅅㅡㅌㅓ	-13426
ㅡㄹㅜ	-13427
▁Gre	-13428
▁ㅅㅏㅋ	-13429
▁1866	-13430
ㄱㅛㅇㅣㄴ	-13431
ㅁㅗㅅㅕㄴ	-13432
ㅂㅏㅇㅣㄴ	-13433
▁ㅅㅔㄱㅜㄴ	-13434
▁ㅇㅗㄱㅌㅏ	-13435
▁ㅌㅗㅇㅍㅖ	-13436
ㅊㅡㅂㅓㄱㅡ	-13437
▁ㅇㅛㅇㅇㅢㅈㅏ	-13438
▁ㅌㅗㅌㅡㄴㅓㅁ	-13439
▁ㅂㅜㄱㅈㅗㅅㅓㄴ	-13440
▁ㅅㅏㄱㅏㄴㅇㅝㄴ	-13441
▁ㅈㅏㅇㄴㅏㄴㄱㅏㅁ	-13442
▁ㅇㅠㅍㅗ	-13443
▁ㄷㅗㅇㅑㄱ	-13444
▁ㅂㅏㄱㅈㅏ	-13445
ational	-13446
▁ㄷㅐㅅㄱㅡㄹ	-13447
▁ㄱㅛㄱㅜㅈㅏㅇ	-13448
▁ㅅㅡㅌㅔㅇㅣㄴ	-13449
▁ㅁㅣㄴㅇㅕㅇㅎㅘ	-13450
▁ㅅㅏㄷㅏㄴㅈㅏㅇ	-13451
▁ML	-13452
▁ㅂㅔㅅ	-13453
ㅌㅏㄴㅠ	-13454
▁ㅁㅣㅁㅣ	-13455
▁ㄱㅣㄴㅋㅣ	-13456
▁ㅋㅏㅌㅡㄹ	-13457
▁ㄱㅣㅅㅌㅓㄹ	-13458
▁ㅆㅗㄷㅇㅏㅈㅣ	-13459
▁SH	-13460
ㅗㄹㅔ	-13461
▁ㄲㅗㅈ	-13462
ㅌㅗㄴㅗ	-13463
▁1886	-13464
▁ㅈㅏㅇㅣ	-13465
▁ㅈㅚㅅㅜ	-13466
▁ㅇㅠㄴㅡㅇ	-13467
ㅂㅜㄴㅇㅕㄹ	-13468
▁ㅅㅗㅇㅎㅘㄴ	-13469
▁SV	-13470
ㄴㅡㅈ	-13471
▁ㅇㅏㅊㅡ	-13472
ㅇㅕㄱㅐㄱ	-13473
▁ㅇㅣㄴㅈㅔ	-13474
▁ㅇㅏㄹㅍㅗㄴ	-13475
▁ㅈㅓㄴㄱㅝㄴ	-13476
▁ㄱㅏㄴㅅㅏㅇㅣ	-13477
▁ㅈㅏㅇㅈㅔㅅㅡ	-13478
▁ㅁㅓㄹㅣㅋㅏㄹㅏㄱ	-13479
▁wh	-13480
ㅇㅠㅇㅖ	-13481
ㅋㅠㅇㅓ	-13482
ㅣㄹㄷㅡ	-13483
▁ㄴㅓㅅㅡ	-13484
▁ㅁㅜㄹㄹㅠ	-13485
▁ㅈㅣㄴㅎㅐ	-13486
▁ㅍㅗㅌㅏㄴ	-13487
▁ㅅㅣㄹㄱㅏㄱ	-13488
▁ㅇㅐㅅㅡㄹㄹ	-13489
▁ㅋㅡㄹㅔㅇㅣ	-13490
▁ㅇㅗㄹㄹㅣㅂㅓ	-13491
ㅜㅈㅣ	-13492
▁260	-13493
ㄷㅏㅂㅗ	-13494
▁ㅋㅏㄴㅣ	-13495
▁ㄷㅜㄱㅏㄱ	-13496
▁ㅂㅐㄱㅈㅏ	-13497
▁ㅂㅔㅇㅣㅂㅣ	-13498
▁ㅅㅏㄴㅊㅓㅇ	-13499
▁ㅅㅡㅂㄷㅡㄱ	-13500
▁ㅇㅣㄱㅁㅕㅇ	-13501
▁ㅇㅣㄹㅈㅣㄴ	-13502
▁ㅈㅗㅅㅡㅇㅇㅜ	-13503
▁ㅈㅣㅂㅎㅐㅇㅇㅠㅇㅖ	-13504
ble	-13505
ㅌㅏㅅㅡ	-13506
▁Tour	-13507
▁ㄷㅗㅎㅏ	-13508
▁ㄱㅡㅁㅎㅗ	-13509
▁ㄱㅏㄴㅎㅗㄱ	-13510
▁ㅋㅗㅅㅗㅂㅗ	-13511
▁ㅈㅓㄴㅈㅜㅅㅣ	-13512
▁ㄱㅜㅅㅡㅌㅏㅍㅡ	-13513
▁ㅂㅡㄹㅣㅌㅣㅅㅣ	-13514
▁ㅁㅣㅇㅏ	-13515
▁ㅇㅗㅇㅣㄹ	-13516
ㄱㅘㅇㅅㅓㅇ	-13517
▁ㅈㅏㄱㅈㅜㅇ	-13518
▁ㅇㅐㄴㅅㅓㄴㅣ	-13519
▁ㄱㅕㅇㅇㅕㅇㅎㅏㄱ	-13520
▁ㅍㅡㄹㅏㄴㅊㅣㅅㅡㅋㅗ	-13521
▁ㄱㅏㄴㅔ	-13522
▁ㅅㅗㄴㄴㅕ	-13523
▁ㅇㅕㄱㅓㄴ	-13524
▁ㅈㅏㄹㄹㅣ	-13525
▁ㄱㅘㅇㅅㅓㄴ	-13526
▁ㅈㅗㄴㅏㄹㅏ	-13527
▁ㅂㅏㄹㅏㅁㅈㅣㄱ	-13528
▁ㅂㅡㄹㅡㅌㅏㄴㅠ	-13529
▁ㄷㅗㄱㄹㅣㅂㄱㅜㄴ	-13530
▁ㅂㅔㅇㅣㅅㅣㅅㅡㅌㅡ	-13531
EST	-13532
▁270	-13533
▁ㄴㅓㄹ	-13534
ㅁㅣㅌㅡ	-13535
ㅈㅣㄴㅗ	-13536
▁ㅂㅐㄹㅣ	-13537
▁ㅂㅣㅇㅜ	-13538
▁ㅇㅛㄱㅚ	-13539
ㄲㅜㅁㅊㅣ	-13540
▁ㅈㅏㄱㅜㅇ	-13541
ㅔㄱㅡ	-13542
land	-13543
▁ㅍㅣㅊㅣ	-13544
▁ㄱㅜㅎㅚㄱ	-13545
▁ㅂㅏㄴㅈㅜ	-13546
▁ㅂㅏㄹㅇㅢ	-13547
ㅊㅏㄹㅡㅌㅡ	-13548
▁ㅅㅏㄴㅁㅜㄹ	-13549
▁ㅇㅓㄹㄹㅜㄱ	-13550
▁ㅊㅜㄹㅎㅕㄹ	-13551
▁ㅎㅐㅇㅂㅏㅇ	-13552
▁ㅎㅗㅇㅅㅓㅇ	-13553
ㅝㅅㅡ	-13554
▁ㅍㅕㄴㅐ	-13555
ㅅㅡㅇㅞㄹ	-13556
▁ㅈㅓㅇㅎㅘㅇ	-13557
▁ㅌㅗㅇㅍㅖㅎㅏㅂ	-13558
▁KB	-13559
▁ㄷㅗㅅ	-13560
▁1887	-13561
▁ㅍㅏㅋㅓ	-13562
▁ㄴㅏㅇㅣㄹ	-13563
▁ㅅㅐㅇㅁㅗ	-13564
ㅅㅡㅌㅜㅅㅡ	-13565
▁ㅂㅓㄴㄱㅏㄹ	-13566
▁ㅇㅔㄹㄹㅓㄴ	-13567
▁ㅊㅗㅅㅂㅜㄹ	-13568
▁ㅅㅏㅁㄱㅏㄱㅈㅜ	-13569
▁ㅂㅔㄴㅔㄷㅣㄱㅌㅗ	-13570
ㄷㅔㄹㅏ	-13571
ㅅㅡㅇㅞ	-13572
▁1861	-13573
▁ㄹㅔㅌㅡ	-13574
▁ㅂㅏㅂㅣ	-13575
▁ㅅㅣㅂㅣ	-13576
▁ㅍㅛㅎㅏ	-13577
▁ㅁㅗㄴㅣㅇ	-13578
▁ㅇㅕㄱㅅㅏㅎㅏㄱ	-13579
▁ㄷㅐㅎㅏㄴㅎㅏㅇㄱㅗㅇ	-13580
▁Wii	-13581
ㅈㅡㅁㅏ	-13582
▁ㅇㅗㅁㅔ	-13583
▁ㅅㅔㅂㅜㄴ	-13584
▁ㅎㅕㄴㄱㅘ	-13585
▁ㅂㅏㄹㅗㅋㅡ	-13586
▁ㅇㅏㅇㅣㅋㅗㄴ	-13587
▁ㄷㅗㅁㅣㄴㅣㅋㅏ	-13588
▁ㅈㅏㅇㅇㅐㅁㅜㄹ	-13589
▁ㅅㅏㅁㄱㅜㄱㅈㅣㅇㅕㄴㅇㅢ	-13590
▁ㅋㅏㅇㅑ	-13591
▁ㅂㅐㅊㅓㄱ	-13592
▁ㅂㅗㄴㅊㅔ	-13593
▁ㅅㅏㅆㅡㅁㅏ	-13594
▁ㅁㅗㅊㅏㄹㅡㅌㅡ	-13595
▁ㅊㅜㄱㄱㅜㅌㅣㅁ	-13596
▁ㅈㅐㄷㅏㄴㅂㅓㅂㅇㅣㄴ	-13597
ㄸㅣ	-13598
ㅂㅗㄹㅣ	-13599
ㅎㅗㅁㅏ	-13600
ㅡㅌㅡㅁ	-13601
ition	-13602
▁ㅇㅏㅇㅠ	-13603
▁ㅇㅕㅌㅏ	-13604
ㅊㅓㄹㅅㅜ	-13605
▁ㅂㅜㅇㅇㅓ	-13606
▁ㅂㅣㄱㅂㅐㅇ	-13607
▁1850	-13608
▁Life	-13609
▁ㅅㅏㄴㅐ	-13610
▁ㅇㅟㅅㅣ	-13611
▁ㅇㅣㄹㄹ	-13612
▁ㅋㅝㅋㅡ	-13613
▁ㅍㅗㅎㅘ	-13614
▁Dream	-13615
▁ㄹㅣㅇㅗㄴ	-13616
▁ㅈㅣㅁㅕㄴ	-13617
▁ㅍㅡㄹㅣㄹ	-13618
▁ㄷㅗㅇㅊㅏㅇ	-13619
▁ㄹㅔㅇㅣㄷㅣ	-13620
▁ㅎㅏㅂㅊㅓㄴ	-13621
▁ㄱㅏㅇㅅㅓㄱㅜ	-13622
▁ㄱㅡㄴㄱㅓㅈㅣ	-13623
▁ㅂㅜㅂㅜㄴㄱㅜㄴ	-13624
▁ㅎㅗㅁㄱㅕㅇㄱㅣ	-13625
▁ㅍㅡㄹㅗㅁㅗㅅㅕㄴ	-13626
AI	-13627
ult	-13628
▁ㅇㅚㅎㅘㄴ	-13629
▁ㅈㅗㅅㅣㅁ	-13630
▁ㄱㅘㄴㅇㅛㅇ	-13631
▁ㅅㅐㅁㅠㅇㅓㄹ	-13632
▁ㅇㅠㄴㅣㅂㅓㅅㅡ	-13633
▁ㅅㅐㅇㅅㅓㅇㅁㅜㄹ	-13634
▁ㅍㅔㄹㅡㄴㅏㄴㄷㅗ	-13635
ㅗㅋㅣ	-13636
▁ㄴㅐㅍㅗ	-13637
▁ㅈㅏㅍㅏㄴ	-13638
▁ㅍㅔㄹㄹㅗ	-13639
▁ㅂㅏㄱㅅㅡㅇ	-13640
▁ㅎㅘㅇㅛㅇㅣㄹ	-13641
▁ㅋㅏㄹㅡㅌㅏㄱㅗ	-13642
▁ㅎㅐㅅㅓㄱㅎㅏㄱ	-13643
▁ㄱㅗㅇㅇㅕㄴㅈㅏㅇ	-13644
▁RT	-13645
ㄱㅓㅅㅡ	-13646
▁ㄱㅏㅇㅅㅔ	-13647
▁ㅇㅘㄴㄱㅕㄹ	-13648
▁ㅇㅏㄴㅏㅌㅗㄹ	-13649
▁ㅋㅓㄴㅌㅔㄴㅊㅡ	-13650
▁it	-13651
▁ㄹㅔㅈㅡ	-13652
▁ㄱㅏㄷㅏㄱ	-13653
▁ㄷㅗㅅㅓㅇ	-13654
▁ㅈㅓㅇㅇㅖ	-13655
▁ㅁㅣㅋㅏㅇㅔㄹ	-13656
▁ㅍㅣㄴㅣㄱㅅㅡ	-13657
orm	-13658
▁AG	-13659
▁Up	-13660
ㅋㅗㅌㅏ	-13661
▁ㄷㅗㄹㅏ	-13662
▁ㅁㅗㄱㅜㄱ	-13663
▁ㅂㅜㄹㄹㅓ	-13664
▁ㅅㅡㄹㅍㅡ	-13665
▁ㅌㅗㅁㅗㄱ	-13666
▁ㅎㅗㄹㄷㅣㅇ	-13667
▁ㅇㅛㄱㅡㅁㅅㅗ	-13668
▁ㄱㅐㅈㅓㅇㅇㅏㄴ	-13669
▁ㄷㅏㅇㅅㅓㄴㅈㅏ	-13670
▁ㅁㅏㄹㅡㅋㅜㅅㅡ	-13671
▁TC	-13672
ㄴㅏㅇ	-13673
▁ㅅㅑㄹㄹ	-13674
▁ㄴㅣㅋㅗㄴ	-13675
▁ㅈㅡㅇㅅㅔ	-13676
▁ㅊㅏㄱㅎㅏ	-13677
▁ㅂㅗㄴㅓㅅㅡ	-13678
▁ㅈㅓㅂㅎㅏㅂ	-13679
▁ㅈㅣㅂㅈㅓㅇㄱㅘㄴ	-13680
▁ㅁㅜㄴㅔ	-13681
▁ㅁㅜㅅㅜ	-13682
▁ㅈㅓㅊㅜㄱ	-13683
▁ㅍㅐㄱㅝㄴ	-13684
▁ㅁㅗㄴㅏㅋㅗ	-13685
▁ㅅㅣㄴㅅㅣㄴ	-13686
▁ㄸㅟㅇㅓㄴㅓㅁ	-13687
▁ㅂㅗㅅㅏㄹㅅㅏㅇ	-13688
▁ㅅㅓㄴㅈㅔㄱㅗㄹ	-13689
▁ㅁㅓㄴㅣ	-13690
▁ㅊㅏㅅㅜ	-13691
▁ㅁㅗㄹㄷㅜ	-13692
▁ㅂㅗㄱㅇㅟ	-13693
▁ㅇㅗㅋㅡㄹㄹㅏ	-13694
▁ㄴㅏㅇㅁㅏㄴㅈㅜㅇㅢ	-13695
▁ㅇㅗㅋㅡㄹㄹㅏㅎㅗㅁㅏ	-13696
ㄸㅓㄹ	-13697
ㅔㄴㅔ	-13698
ㅇㅠㅅㅏ	-13699
▁ㅈㅗㄱㅐ	-13700
▁ㄱㅡㅂㅎㅣ	-13701
▁ㅁㅏㅇㅎㅏ	-13702
▁ㅇㅣㅂㅕㄹ	-13703
▁ㅍㅛㅈㅓㄹ	-13704
▁ㅍㅕㄴㅇㅏㄴ	-13705
▁ㅎㅘㄴㄱㅘㄴ	-13706
▁ㄴㅗㄷㅗㅇㄹㅕㄱ	-13707
▁ㅎㅏㅇㅣㅂㅡㄹㅣㄷㅡ	-13708
ㅁㅗㅁ	-13709
ㅁㅏㅅㅏ	-13710
▁ㅇㅏㅇㅘ	-13711
▁ㅇㅠㅌㅏ	-13712
▁ㅂㅓㄹㄹㅔ	-13713
▁ㅇㅣㄴㅗㅇ	-13714
ㅈㅣㄱㄱㅕㅇ	-13715
▁ㄱㅕㅇㅈㅗㅇ	-13716
▁Ed	-13717
▁ㅁㅏㅇㅛ	-13718
▁ㅇㅟㅍㅐ	-13719
ㄷㅣㅇㅓㄹ	-13720
▁ㄱㅕㅇㄱㅓㄴ	-13721
▁ㅅㅣㅈㅣㄱㄱㅕㅇ	-13722
▁ㅂㅜㄹㄹㅓㄷㅡㄹㅇㅣ	-13723
ㅣㅁㅐ	-13724
▁ㄹㅏㅅㅣ	-13725
▁ㄷㅏㅎㅐㅇ	-13726
▁ㅇㅣㅎㅗㅇ	-13727
ㅣㅇㅓㄹㅣㅇ	-13728
▁ㅅㅣㄴㅅㅔㄱㅖ	-13729
▁ㅋㅡㄹㄹㅔㅁㅔㄴㅅㅡ	-13730
▁ㅎㅔㄹㅏㅋㅡㄹㄹㅔㅅㅡ	-13731
ㅓㅁㅏ	-13732
▁ㄱㅛㅈㅣ	-13733
▁ㅅㅡㄹㅜ	-13734
▁ㅅㅏㄱㅅㅡ	-13735
▁ㅂㅏㄴㅈㅜㄱ	-13736
▁ㅂㅗㅇㅏㄴㅂㅓㅂ	-13737
▁ㅇㅗㅅㅡㅌㅡㄹㅣ	-13738
▁ㅅㅡㅌㅡㄹㅣㅁㅣㅇ	-13739
▁1864	-13740
▁Open	-13741
▁ㅅㅔㅁㅣ	-13742
▁ㄱㅘㄴㄴㅐ	-13743
▁ㄱㅣㅁㅣㄹ	-13744
▁ㅅㅏㄴㅅㅜ	-13745
ㄷㅡㅇㅞㅇㅣ	-13746
▁ㄱㅘㅇㅇㅓㅂ	-13747
▁ㅁㅏㄴㅈㅓㅁ	-13748
▁ㅁㅏㅅㅡㅋㅗ	-13749
▁ㅍㅣㄹㅇㅕㄴ	-13750
ㅅㅗㄹㄹㅣㄴㅣ	-13751
▁ㄷㅏㄴㄱㅓㄹㅣ	-13752
▁"-	-13753
▁ㅁㅟㄹ	-13754
▁ㅋㅏㅅ	-13755
▁ㅍㅗㅅ	-13756
▁1830	-13757
▁ㅇㅐㅇㅘㄴ	-13758
▁ㅇㅝㅋㅣㅇ	-13759
▁ㅈㅗㄱㅕㅇ	-13760
ㅋㅗㄴㅅㅣㄴ	-13761
▁ㅁㅏㄹㄷㅏㄴ	-13762
▁ㅇㅟㅅㅡㅋㅗㄴㅅㅣㄴ	-13763
▁ㅇㅖㅇㅢ	-13764
▁ㅎㅗㄹㅡ	-13765
▁ㄴㅜㄴㅊㅣ	-13766
▁ㄱㅏㅎㅐㅈㅏ	-13767
▁ㅇㅘㅇㄱㅘㄴ	-13768
▁ㅍㅡㄹㅏㅇㅋㅗ	-13769
▁ㄷㅗㄹㅏㅇㅔㅁㅗㅇ	-13770
▁ㅇㅡㅁㅇㅏㄱㅇㅝㄴ	-13771
ㄲㅗ	-13772
ㅣㅅㅣ	-13773
ㅗㄴㅣㅇ	-13774
▁ㄹㅏㅈㅏ	-13775
▁ㅇㅔㅂㅏ	-13776
▁ㄱㅓㄴㄴㅔ	-13777
▁ㅅㅡㅇㅎㅏ	-13778
▁ㅈㅓㄴㄱㅛ	-13779
▁ㅊㅓㄴㅈㅣ	-13780
ㅌㅏㄴㅣㅇㅏ	-13781
▁ㅎㅟㄷㅜㄹㅡ	-13782
▁ㅂㅐㄱㅇㅏㄱㄱㅣ	-13783
EP	-13784
ton	-13785
▁ㅅㅏㅋㅣ	-13786
ㄷㅗㅇㅈㅏ	-13787
ㄷㅣㅅㅡㄴ	-13788
ㅌㅏㅇㅣㅂ	-13789
▁ㄱㅏㄷㅗㄱ	-13790
▁ㄸㅏㄹㄹㅣ	-13791
▁ㅂㅗㅇㅎㅘㅇ	-13792
▁ㄷㅗㄹㅡㅌㅡㅁ	-13793
▁ㅎㅜㅅㅔㅇㅣㄴ	-13794
▁ㅁㅏㅇㅡㄹㅂㅓㅅㅡ	-13795
▁ㅋㅓㅁㅍㅏㅇㅣㄹㄹㅓ	-13796
▁ㄷㅗㄹㅡㅌㅡㅁㅜㄴㅌㅡ	-13797
▁en	-13798
ㄹㅏㅌㅡ	-13799
ㅉㅏㄱㅣ	-13800
ㄷㅐㅇㅝㄴ	-13801
▁ㄱㅕㅇㅁㅐ	-13802
▁ㄱㅡㄴㄹㅐ	-13803
▁ㅍㅏㅈㅣㄱ	-13804
▁ㅎㅓㅂㅡㄹ	-13805
▁ㅎㅚㄱㅗㄹ	-13806
▁ㅇㅑㅇㅎㅕㄴ	-13807
▁ㅍㅕㅇㅌㅏㄴ	-13808
▁ㅎㅗㄴㅎㅕㄹ	-13809
ㅏㅇㅣㅇㅓㅌㅣ	-13810
▁ㄱㅏㅁㄹㅣㄱㅛ	-13811
▁ㅁㅣㄴㅔㅅㅗㅌㅏ	-13812
▁ㅂㅓㄹㅏㅇㅣㅇㅓㅌㅣ	-13813
ㅅㅣㄷㅐ	-13814
ㅣㅁㅕㄴ	-13815
▁ㄷㅟㄴㅡㅈ	-13816
▁ㄹㅣㅁㅍㅡ	-13817
▁ㅁㅐㅈㅣㄴ	-13818
▁ㅅㅡㅇㄷㅏㄴ	-13819
▁ㅇㅣㄴㄷㅗㅇ	-13820
▁ㅈㅏㅇㅈㅓㄴ	-13821
▁ㄴㅔㅌㅣㅈㅡㄴ	-13822
▁ㄷㅔㅇㅣㅂㅣㅅ	-13823
▁ㄷㅏㅋㅏㄹㅏㅈㅡㅋㅏ	-13824
▁ㅅㅡㅌㅜ	-13825
▁ㅎㅗㅁㅈㅡ	-13826
▁ㅂㅏㄹㅌㅗㅂ	-13827
▁ㅂㅏㅇㄱㅗㅇ	-13828
▁ㅅㅏㄴㅏㅇㅣ	-13829
▁ㄹㅗㅁㅐㄴㅌㅣㄱ	-13830
▁ㅇㅏㅇㅣㄷㅣㅇㅓㄹ	-13831
▁ㅇㅏㅍㅕㄴ	-13832
▁ㅊㅜㅈㅗㄴ	-13833
▁ㄱㅗㅇㅍㅏㄴ	-13834
▁ㄱㅣㅁㅇㅕㄴ	-13835
▁ㅂㅜㄹㅂㅜㄴ	-13836
▁ㄱㅕㄱㅌㅜㄱㅣ	-13837
▁ㅅㅔㄴㄷㅏㅇㅣ	-13838
▁ㅈㅐㅍㅏㄴㅂㅜ	-13839
▁ㅈㅐㅍㅏㄴㄱㅘㄴ	-13840
ㅎㅐㅅㅏㄹㅇㅣㅍㅜㄹ	-13841
ㅇㅔㄹ	-13842
▁ㅂㅐㅇㅏ	-13843
▁ㄴㅏㅂㅂㅜ	-13844
▁ㅎㅏㅇㅑㄴ	-13845
▁ㄲㅏㅁㅏㄱㅟ	-13846
▁ㅂㅐㄱㅇㅓㅂ	-13847
▁ㅈㅜㄴㅏㄹㅏ	-13848
▁ㅎㅘㅇㅎㅐㄷㅗ	-13849
▁ㄱㅘㄴㄹㅕㄴㅈㅏ	-13850
▁ㅈㅐㅂㅓㄹ	-13851
▁ㅊㅐㅇㄱㅣ	-13852
ㅋㅡㄹㄹㅓㅂ	-13853
▁an	-13854
▁ㄴㄷㅔ	-13855
▁1881	-13856
▁ㅇㅏㅌㅗ	-13857
▁ㅅㅡㅇㅟㅇ	-13858
ㅂㅏㄷㅗㄹㅡ	-13859
▁ㄹㅏㅊㅣㅇㅗ	-13860
▁ㅁㅣㄴㅁㅜㄹ	-13861
▁ㅇㅠㅈㅓㄴㅊㅔ	-13862
▁ㅇㅣㅅㅣㅋㅏㅇㅘ	-13863
ION	-13864
▁ㅋㅣㅅ	-13865
▁ㅅㅜㄴㅕ	-13866
▁ㅅㅠㅌㅔ	-13867
▁ㅋㅐㄹㅗㄹ	-13868
▁ㄷㅡㅇㄷㅡㅇ	-13869
▁ㄴㅏㄴㅇㅣㄷㅗ	-13870
▁ㄴㅏㅁㅂㅔㅌㅡㄴㅏㅁ	-13871
▁iOS	-13872
ㅁㅜㄹㅡ	-13873
ㄱㅗㅇㅈㅜ	-13874
▁ㄷㅗㅇㅊㅏ	-13875
▁ㅅㅓㄴㅇㅠㄹ	-13876
▁ㅌㅡㄹㅔㅇㅣㄴㅣㅇ	-13877
ave	-13878
▁Ab	-13879
ㄱㅕㅁ	-13880
▁ㄱㅜㄹㅖ	-13881
ㅗㄴㅗㅅㅡ	-13882
▁ㄹㅓㄴㅣㅇ	-13883
▁ㅎㅘㅇㅈㅏ	-13884
ㅂㅔㄹㅣㅇㅏ	-13885
▁ㄱㅐㄱㅇㅝㄴ	-13886
▁ㄴㅏㅁㅅㅗㅇ	-13887
ㅓㄱㅣ	-13888
ㄲㅔㄲㅣ	-13889
ㅂㅜㄹㅣ	-13890
ㅅㅔㄴㅅㅡ	-13891
▁ㅂㅗㅈㅓㅇ	-13892
▁ㅂㅡㄹㅜㄱ	-13893
▁ㅈㅓㄴㄹㅣ	-13894
▁ㅋㅗㄴㅏㄴ	-13895
▁ㅌㅡㄹㅏㄴ	-13896
▁ㅍㅕㄴㅎㅏ	-13897
▁ㅇㅏㄹㅁㅏㅈ	-13898
▁ㅊㅓㅇㅁㅜㄴ	-13899
▁ㅎㅓㄴㄴㅏㅂ	-13900
▁ㅁㅜㅈㅏㄱㅇㅟ	-13901
▁ㅇㅣㄷㅔㅇㅗㄹ	-13902
▁ㅅㅜㅅㅜㄲㅔㄲㅣ	-13903
▁ㅍㅣㅊㅡㅂㅓㄱㅡ	-13904
▁ㅎㅐㅇㅈㅓㅇㄷㅗㅇ	-13905
ㅋㅡㄹㅣ	-13906
▁Music	-13907
▁ㅂㅗㄱㅈㅣㄱ	-13908
▁ㅇㅑㅇㄱㅜㅇ	-13909
▁ㅈㅏㅁㅅㅣㄹ	-13910
▁ㅅㅏㄷㅡㄹㅇㅣ	-13911
TE	-13912
ject	-13913
▁1872	-13914
▁ㅅㅗㄷㅐ	-13915
▁ㅌㅏㄱㅜ	-13916
▁ㄱㅣㅌㅗㅇ	-13917
▁ㅁㅗㄱㅇㅛㄱ	-13918
▁ㅇㅚㅁㅜㅂㅜ	-13919
▁ㄹㅗㅁㅂㅏㄹㅡ	-13920
▁ㅁㅗㅁㅔㄴㅌㅡ	-13921
▁ㅂㅏㄴㄷㅐㅍㅏ	-13922
ㅍㅓㄴ	-13923
ㅂㅏㅎㅡ	-13924
▁ㄴㅗㅅㅏ	-13925
▁ㄷㅗㅅㅏㄴ	-13926
▁ㅅㅔㄱㅏㄴ	-13927
▁ㅅㅡㅁㅗㄹ	-13928
▁ㅇㅕㅅㅂㅗ	-13929
▁ㅇㅘㅇㅅㅓㅇ	-13930
▁XP	-13931
▁ㅅㅑㅂ	-13932
ㄹㅗㄱㅣ	-13933
▁ㄱㅜㄴㅅㅔ	-13934
▁ㅅㅐㅇㄷㅗ	-13935
▁ㅈㅣㄱㅕㅇ	-13936
▁ㅊㅣㅁㄷㅐ	-13937
▁ㅋㅗㅁㅟㄴ	-13938
▁ㅈㅔㅍㅡㄹㅣ	-13939
▁ㅇㅏㅂㅣㄷㅏㄹ	-13940
▁ㄹㅜㅅㅡㅂㅔㄹㅌㅡ	-13941
ㅆㅡㄱㅣ	-13942
ㅚㅅㅓㄴ	-13943
▁ㄱㅛㅈㅔ	-13944
▁ㄱㅏㄹㅇㅏ	-13945
▁ㅂㅜㅍㅜㄹ	-13946
▁ㅇㅏㅋㅏㄴ	-13947
▁ㅈㅜㅇㄱㅗ	-13948
▁ㅉㅣㄱㅎㅣ	-13949
▁ㅂㅕㄹㅈㅏㅇ	-13950
▁ㄷㅐㅍㅛㄷㅏㄴ	-13951
▁ㅇㅣㅁㅔㅇㅣㄹ	-13952
▁ㅂㅜㄷㅏㅍㅔㅅㅡㅌㅡ	-13953
▁ㅅㅜㅇㅣ	-13954
▁ㅇㅢㄹㅖ	-13955
▁ㄱㅓㄲㅜㄹ	-13956
▁ㅇㅛㅇㅅㅏ	-13957
ㅣㄹㄹㅣㅌㅣ	-13958
▁ㅇㅑㅇㅁㅕㄴ	-13959
▁ㅎㅟㅂㅆㅡㄹ	-13960
▁ㄷㅗㄷㅂㅗㅇㅣ	-13961
▁ㅇㅕㅎㅏㄱㅅㅐㅇ	-13962
▁ㅎㅏㅂㅊㅏㅇㄷㅏㄴ	-13963
▁750	-13964
▁ㅂㅣㄹㅗ	-13965
▁ㅋㅐㅍㅣ	-13966
▁ㄴㅣㄴㅈㅏ	-13967
▁ㅂㅜㅅㅣㄹ	-13968
▁ㅅㅡㅇㅈㅣ	-13969
▁ㅌㅗㅇㅈㅣ	-13970
▁ㅎㅡㄱㅂㅐㄱ	-13971
▁ㅇㅏㅂㄹㅗㄱㄱㅏㅇ	-13972
▁ㅇㅣㄹㄹㅔㄱㅌㅡㄹㅗㄴ	-13973
▁BL	-13974
ㅇㅜㅎㅚ	-13975
▁ㅇㅠㄷㅏ	-13976
▁ㄱㅣㅁㅎㅢ	-13977
▁ㅂㅜㅈㅓㄴ	-13978
▁ㅇㅓㅊㅗㄴ	-13979
ㄱㅜㄱㅈㅓㄱ	-13980
ㄷㅓㄱㅇㅘㅇ	-13981
▁ㅍㅏㄴㄱㅘㄴ	-13982
▁ㄴㅗㅇㅇㅓㅊㅗㄴ	-13983
ics	-13984
▁if	-13985
ㅏㅁㅔ	-13986
ㅐㅅㅣ	-13987
▁ㅌㅜㅎㅏ	-13988
▁ㄱㅜㄱㅎㅗ	-13989
▁ㅇㅗㄹㄹㅔ	-13990
▁ㄷㅐㄱㅛㄱㅜ	-13991
▁ㅅㅏㅁㅊㅓㄱ	-13992
▁ㄱㅣㅎㅚㄱㅅㅏ	-13993
▁ㅍㅏㅊㅜㅇㄹㅠ	-13994
▁ㅎㅘㅅㅓㅇㅅㅣ	-13995
▁ㅂㅜㄹㅡㅈㅜㅇㅏ	-13996
▁ㅅㅔㄱㅖㅇㅠㅅㅏㄴ	-13997
▁ㄹㅜㄴㅏ	-13998
▁ㅇㅝㄴㄷㅗㅇ	-13999
▁ㅈㅣㄱㄱㅘㄴ	-14000
▁ㄹㅗㄷㅡㄹㅣㄱ	-14001
▁ㅇㅣㄷㅔㅇㅗㄹㄹㅗㄱㅣ	-14002
▁ㅇㅔㄹㅗ	-14003
▁ㅇㅣㄹㅖ	-14004
▁ㅈㅣㅋㅜ	-14005
▁ㄱㅗㄱㅁㅕㄴ	-14006
▁ㄱㅗㅂㅅㅔㅁ	-14007
▁ㅇㅏㅂㅡㄹㅏ	-14008
▁ㅈㅗㅇㅇㅓㅂ	-14009
ㅝㅈㅡ	-14010
▁1863	-14011
▁ㄹㅗㄴㅣ	-14012
▁ㄴㅏㅁㅈㅗ	-14013
▁ㅅㅣㅇㅝㄴ	-14014
ㅅㅓㅇㄱㅕㅇ	-14015
ㅍㅡㄹㄹㅣㄴ	-14016
▁ㄱㅡㄱㅊㅏㄴ	-14017
▁ㄴㅣㅅㅅㅏㄴ	-14018
▁ㅅㅣㄴㅂㅗㅇ	-14019
▁ㅁㅏㄹㅡㅅㅔㄹ	-14020
▁ㅂㅓㅁㅈㅚㅈㅏ	-14021
▁ㅁㅜㅅㅗㄹㄹㅣㄴㅣ	-14022
ㄸㅟㄱㅣ	-14023
▁HTML	-14024
▁ㅁㅏㅌㅡ	-14025
▁ㅎㅡㄹㅣ	-14026
ㅌㅣㄴㅔㄴ	-14027
▁ㄷㅏㅇㄱㅘ	-14028
▁ㅂㅏㄹㅅㅏㄴ	-14029
▁ㅂㅡㄹㅐㄷㅡ	-14030
▁ㅈㅓㅇㅈㅜㅇ	-14031
▁ㅈㅣㄴㅎㅡㄺ	-14032
▁ㅋㅏㅁㅍㅏㄴ	-14033
▁ㅌㅏㄴㅅㅏㄴ	-14034
ㅣㄹㄹㅣㅇㅏㄴ	-14035
▁ㄷㅏㅅㅣㄱㅡㅁ	-14036
▁ㅁㅣㄹㄱㅏㄹㅜ	-14037
ㅎㅘㄱㅕㅇ	-14038
▁ㄱㅙㅂㅜㄹ	-14039
▁ㅁㅗㅂㅣㄹ	-14040
▁ㅂㅏㄹㅍㅗ	-14041
▁ㅍㅏㅇㅕㄹ	-14042
▁ㄱㅕㅇㄹㅑㅇ	-14043
▁ㅂㅜㄱㅂㅓㄹ	-14044
ㅂㅕㄴㅅㅗㄱㄱㅣ	-14045
▁ㅅㅡㄹㄹㅗㄱㅓㄴ	-14046
ier	-14047
ool	-14048
▁ㅊㅛ	-14049
▁ㅁㅔㅇㅜ	-14050
ㅈㅡㄹㄹㅣ	-14051
▁ㅂㅐㅎㅑㅇ	-14052
▁ㅊㅟㅎㅑㅇ	-14053
▁ㄱㅜㄱㄱㅏㅇ	-14054
▁ㅈㅓㅇㅁㅕㅇ	-14055
▁ㅈㅜㅇㄹㅏㅇ	-14056
▁ㄷㅔㅋ	-14057
▁ㄴㅐㅈㅐ	-14058
▁ㅇㅏㅈㅣ	-14059
▁ㅎㅔㅇㅓ	-14060
▁ㅈㅜㅇㅅㅗ	-14061
▁ㅅㅜㄴㅎㅏㅇ	-14062
▁ㅇㅣㄱㅅㅏㄴ	-14063
▁ㅊㅣㄴㅁㅣㄹ	-14064
▁ㅎㅔㅁ	-14065
▁ㅁㅜㅈㅣ	-14066
▁ㅅㅓㅇㄱㅏ	-14067
▁ㅇㅣㄱㅏㅇ	-14068
▁ㅎㅐㅋㅣㅇ	-14069
▁ㄱㅐㅊㅔㄱㅜㄴ	-14070
▁ㅎㅘㅎㅏㄱㅈㅏ	-14071
ㅌㅐㅍㅕㅇㅇㅑㅇ	-14072
▁ㅁㅜㄹㅗㅁㅏㅊㅣ	-14073
QL	-14074
▁Sm	-14075
ㅔㄹㄹㅗ	-14076
ㅎㅗㅇㅣㄴ	-14077
▁ㄱㅕㅇㄷㅗ	-14078
▁ㅇㅓㅈㅣㄹ	-14079
▁ㄷㅡㅁㅣㅌㅡㄹㅣ	-14080
▁ㅅㅡㅇㅇㅛㅇㅊㅏ	-14081
▁AL	-14082
▁Don	-14083
▁ㄷㅡㄹㅜ	-14084
▁ㅊㅔㅎㅏ	-14085
ㄱㅏㄱㅜㄱ	-14086
ㅍㅕㅇㄹㅣ	-14087
▁ㄴㅏㅌㅏㄹ	-14088
▁ㄷㅏㅂㅣㄷㅡ	-14089
▁ㅂㅕㅇㄷㅏㄴ	-14090
▁ㅊㅟㄹㅣㅎㅣ	-14091
▁ㅍㅗㄹㄹㅣㄴ	-14092
ㅁㅗㄹㄹㅗㅈㅣ	-14093
▁ㄱㅖㅅㅡㅇㅈㅏ	-14094
▁ㅊㅏㅁㄱㅏㄱㅜㄱ	-14095
▁ㅋㅗㅎㅗㅁㅗㄹㄹㅗㅈㅣ	-14096
ru	-14097
ㅉㅗㅊ	-14098
▁ㅅㅑㅁ	-14099
▁ㅈㅔㅁ	-14100
▁ㅇㅣㄴㅇㅟ	-14101
▁ㅋㅔㄴㅌㅓ	-14102
▁ㅅㅏㄹㅉㅏㄱ	-14103
▁ㅌㅏㅁㅈㅓㅇ	-14104
▁ㅍㅔㅌㅡㄹㅗ	-14105
▁ㅎㅗㅋㅡㅅㅡ	-14106
▁te	-14107
▁ㄱㅖㅈㅘ	-14108
▁ㅅㅓㅈㅣ	-14109
▁ㅇㅢㅇㅛㅇ	-14110
▁ㄴㅏㅂㅈㅏㄱ	-14111
▁ㄷㅏㄴㄱㅜㄱ	-14112
▁ㄷㅏㅇㅈㅣㄴ	-14113
▁ㅇㅏㅍㅅㅔㅇㅜ	-14114
▁ㅊㅗㄹㅗㄱㅅㅐㄱ	-14115
ㅎㅞ	-14116
ㄷㅏㅇㅗ	-14117
ㅏㄴㄷㅗ	-14118
▁1873	-14119
▁ㄷㅜㅇㅓ	-14120
▁ㄹㅔㅇㅏ	-14121
▁ㅅㅔㄹㅔ	-14122
ㄷㅔㅈㅏㄴ	-14123
▁ㅇㅠㄹㅏㅅㅣㅇㅏ	-14124
▁ㅂㅜㄹㅂㅜㄴㅁㅕㅇ	-14125
che	-14126
▁ㅁㅗㄹㅏㄴ	-14127
▁ㅇㅚㅅㅏㅇ	-14128
▁ㅇㅣㅂㅅㅣ	-14129
▁ㅂㅗㄱㅇㅕㄱ	-14130
▁ㅅㅡㅇㅅㅏㅇ	-14131
▁ㅋㅡㄹㄹㅣㄱ	-14132
▁ㅎㅐㅅㅂㅣㅊ	-14133
▁ㅌㅏㅇㅣㅁㅈㅡ	-14134
▁ㅈㅏㄱㅍㅜㅁㅅㅏㅇ	-14135
▁ㅅㅜㅎ	-14136
ㅜㅁㅓㄴ	-14137
▁1865	-14138
▁ㄱㅏㅇㅑ	-14139
▁ㄱㅐㄱㅡ	-14140
▁ㄱㅣㅃㅡ	-14141
▁ㅅㅖㅇㅣ	-14142
▁ㅁㅐㄹㅣㅂ	-14143
▁ㄲㅡㄹㅇㅓㅇ	-14144
▁ㄱㅗㅇㅌㅗㅇㅈㅓㅁ	-14145
▁ㄱㅛㅌㅗㅇㅅㅏㄱㅗ	-14146
▁ㅉㅓㄹ	-14147
ㅁㅣㄱㅕㅇ	-14148
ㅓㅅㅡㅌㅓ	-14149
▁ㅇㅘㄴㅂㅣ	-14150
▁ㅅㅣㄱㅏㄴㄷㅐ	-14151
▁ㅎㅏㅇㅑㄴㅅㅐㄱ	-14152
ise	-14153
▁ㅁㅔㅊㅡ	-14154
ㄹㅣㅁㅅㅏ	-14155
▁ㄱㅛㄷㅗㅇ	-14156
▁ㅅㅠㅌㅡㄹ	-14157
▁ㅅㅡㅋㅣㄴ	-14158
▁ㅍㅏㄹㅈㅏㄱ	-14159
▁ㅍㅗㅁㅍㅔㅇㅣ	-14160
▁ㅇㅕㅈㅣㄴㅈㅗㄱ	-14161
ode	-14162
▁ㅂㅏㅅㅣ	-14163
▁ㅍㅏㄱㅣ	-14164
▁ㅍㅣㄹㅗ	-14165
▁ㅈㅏㄱㄴㅕㄴ	-14166
▁ㅍㅣㄹㅎㅏㅁ	-14167
▁ㅅㅔㄹㅡㄱㅔㅇㅣ	-14168
▁ㅊㅓㅇㄴㅕㄴㅎㅚ	-14169
ㅗㄹㅓ	-14170
ㅇㅏㅇㅣ	-14171
▁ㄱㅕㅇㅁㅏ	-14172
▁ㅊㅚㅈㅏㅇ	-14173
▁ㅎㅏㅇㅇㅜ	-14174
▁ㅂㅏㄱㅈㅣㄴ	-14175
▁ㅇㅘㅅㅅㅡㄴ	-14176
▁ㅍㅡㄹㅗㅌㅔ	-14177
▁ㅍㅣㄱㅅㅔㄹ	-14178
▁ㅁㅏㅅㅡㅋㅗㅌㅡ	-14179
▁ㅊㅐㄹㄹㅣㄴㅈㅓ	-14180
▁ㅌㅏㅁㅎㅓㅁㄱㅏ	-14181
ㅏㅎㅡ	-14182
ㅂㅡㄹㅔ	-14183
▁ㄹㅔㅂㅓ	-14184
▁ㅇㅗㅇㅈㅜ	-14185
▁ㅈㅏㅁㄱㅣ	-14186
▁ㅈㅏㅇㅆㅜ	-14187
▁ㄱㅡㄴㅏㅁㅏ	-14188
▁ㅎㅏㅇㅇㅏㄹㅣ	-14189
▁ㅇㅗㅋㅏㅇㅑㅁㅏ	-14190
▁ㄱㅕㅇㅂㅗㄱㄱㅜㅇ	-14191
▁IMF	-14192
▁1891	-14193
▁ㅎㅐㅅㅣ	-14194
▁ㄱㅖㅇㅓㅁ	-14195
▁ㅈㅗㅈㅏㅇ	-14196
▁ㅋㅗㅇㅣㄴ	-14197
▁ㅇㅑㅁㅏㄴㅏ	-14198
▁ㅊㅜㅇㄷㅏㅇ	-14199
▁ㅈㅔㄴㅓㄹㅓㄹ	-14200
▁PM	-14201
▁ㄷㅗㄷㅗ	-14202
▁ㅇㅏㄷㅣ	-14203
▁ㅋㅏㅇㅗ	-14204
▁ㅊㅏㄱㅊㅟ	-14205
▁ㅎㅓㅁㅗㄱ	-14206
▁ㅁㅗㅁㄷㅗㄹ	-14207
▁ㅇㅕㄹㄹㅕㄹ	-14208
▁ㅎㅏㄴㅊㅏㅇ	-14209
▁ㄱㅜㄱㅁㅣㄴㅎㅚ	-14210
▁ㅇㅏㄴㅅㅏㄴㅅㅣ	-14211
▁ㅇㅑㅋㅜㄹㅡㅌㅡ	-14212
▁ㄹㅣㅇㅜㄷㅔㅈㅏㄴ	-14213
▁ㄹㅣㅇㅜㄷㅔㅈㅏㄴㅔㅇㅣㄹㅜ	-14214
▁ㄷㅐㅁㅗㄱ	-14215
▁ㅂㅓㄹㄹㅣ	-14216
▁ㅇㅟㅂㅓㅂ	-14217
▁ㅍㅡㄹㄹㅣ	-14218
▁ㄷㅡㅇㄷㅏㄴ	-14219
▁ㅋㅏㅇㅣㄹㅗ	-14220
▁ㅇㅠㄴㅣㅇㅓㄴ	-14221
ㅋㅣㅁ	-14222
stem	-14223
ㄱㅓㄱㅜ	-14224
ㄷㅓㅈㅣ	-14225
▁ㄹㅏㅂㅏ	-14226
▁ㅈㅐㄱㅗ	-14227
ㅅㅓㄴㄱㅓ	-14228
▁Night	-14229
▁ㄱㅜㄱㅏㅇ	-14230
▁ㅊㅓㅂㅏㅇ	-14231
▁ㄱㅓㄹㅈㅏㄱ	-14232
▁ㅂㅏㄱㅇㅕㅇㅎㅛ	-14233
▁ㄱㅘㄷㅏ	-14234
▁ㄹㅏㅈㅣ	-14235
▁ㄹㅏㄴㅅㅡ	-14236
▁ㅅㅔㄷㅏㄴ	-14237
▁ㅇㅛㅈㅡㅁ	-14238
▁ㅂㅏㄴㅎㅏㅇ	-14239
▁ㅂㅓㅂㅈㅓㄴ	-14240
▁ㅈㅔㅈㅗㅅㅏ	-14241
▁ㅋㅡㄹㅜㅈㅡ	-14242
▁ㅈㅗㅅㅓㄴㅅㅗ	-14243
▁ㄷㅏㄱㅜㄱㅈㅓㄱ	-14244
▁ㅅㅐㅇㅎㅘㅎㅏㄱ	-14245
▁ㅇㅏㅇㅗㅁㅗㄹㅣ	-14246
▁ㅋㅗㅂ	-14247
ㅡㄱㅗㅅㅡ	-14248
▁ㄱㅡㅁㄱㅗ	-14249
▁ㅇㅑㅅㅣㅁ	-14250
▁ㅈㅗㅇㅁㅛ	-14251
▁ㅇㅣㅂㅅㅜㄹ	-14252
▁ㅎㅏㅂㄱㅡㅁ	-14253
ㅅㅡㅂㅏㄱㅅㅡ	-14254
▁ㅂㅏㄹㄱㅣㅇㅣㄴ	-14255
▁ㅅㅜㅈㅜ	-14256
ㅇㅕㄹㅊㅏ	-14257
▁ㄱㅕㅇㅈㅣ	-14258
▁ㅅㅓㅎㅏㄴ	-14259
ㅌㅏㄹㅣㅇㅏ	-14260
▁ㅂㅔㅇㅣㅋㅓ	-14261
▁ㅈㅓㄱㅂㅏㄹ	-14262
▁ㅈㅣㅈㅏㅊㅔ	-14263
▁ㅅㅣㅌㅣㅈㅡㄴ	-14264
▁ㄱㅗㅇㄱㅜㄴㄱㅣㅈㅣ	-14265
UC	-14266
▁MA	-14267
ㄷㅓㄹㅣ	-14268
▁ㄷㅗㅂㅗㅇ	-14269
ㅊㅣㄴㅇㅘㅇ	-14270
▁ㅅㅏㄴㅊㅐㄱ	-14271
▁ㅎㅕㄹㅇㅏㅂ	-14272
▁ㅇㅜㄱㅏㄴㄷㅏ	-14273
▁ㄱㅗㅅㅓㅇㄱㅜㄴ	-14274
▁ㅇㅗㄴㅌㅏㄹㅣㅇㅗㅈㅜ	-14275
▁--	-14276
▁NS	-14277
▁ㄱㅙㄴ	-14278
ㅅㅏㅎㅘ	-14279
▁ㄹㅗㅂㅡ	-14280
▁ㅇㅗㄷㅐ	-14281
ㄷㅏㄴㅇㅟ	-14282
ㅋㅗㅇㅣㄴ	-14283
▁ㅂㅏㄹㅎㅏ	-14284
▁ㅂㅜㄴㄱㅕㅇ	-14285
▁ㅊㅗㄱㅂㅏㄹ	-14286
▁ㅅㅔㄱㅜㄴㄷㅏ	-14287
▁ㅈㅗㅇㅅㅏㅈㅏ	-14288
▁ㅅㅔㅇㅣㄴㅌㅡㄹ	-14289
▁ㄱㅗㅇㅅㅣㄱㅈㅓㄴ	-14290
▁ㄴㅟ	-14291
ㅔㄹㅡㅋㅡ	-14292
▁ㄱㅜㅅㅡㄹ	-14293
▁ㄷㅏㄴㅈㅗ	-14294
▁ㄷㅜㅌㅓㅂ	-14295
▁ㅂㅓㅍㅓㄹ	-14296
ㅎㅜㄴㅈㅏㅇ	-14297
ㅣㅁㅐㄱㅣㅁ	-14298
▁ㅂㅗㄹㄴㅔㅅ	-14299
▁ㅈㅡㅇㅂㅏㄹ	-14300
ㅎㅏㅂㅈㅜㅇㄱㅜㄱ	-14301
▁ㅈㅏㄹㅣㅁㅐㄱㅣㅁ	-14302
▁ㄱㅗㅎㅏ	-14303
▁ㅍㅏㄹㅏㅇ	-14304
▁ㅊㅓㄹㅈㅗㅇ	-14305
▁ㅇㅐㄴㄷㅡㄹㅠ	-14306
▁ㅎㅐㅂㅜㅎㅏㄱ	-14307
▁ㅅㅡㅇㅈㅓㅇㅇㅝㄴ	-14308
▁ㅁㅜㅈㅏ	-14309
▁ㅅㅠㄱㅗ	-14310
▁ㅌㅏㄷㅗ	-14311
▁ㄱㅡㅂㅎㅏ	-14312
▁ㅅㅏㅎㅏㄹ	-14313
▁ㅈㅗㄱㅗㅇ	-14314
▁ㅍㅣㄹㄷㅜ	-14315
▁ㅎㅜㅎㅏㄴ	-14316
▁ㅁㅏㅈㅊㅜㅁ	-14317
▁ㅋㅐㅅㅡㅌㅡ	-14318
▁ㅋㅔㄴㅌㅓㅋㅣ	-14319
▁ㅂㅏㄹㄱㅏㄹㅏㄱ	-14320
ㅇㅇㅣ	-14321
▁650	-14322
ㅏㄷㅡㄹ	-14323
▁ㅁㅏㄱㅏ	-14324
ㅓㅅㅡㅌㅏ	-14325
▁ㅊㅐㄱㅜㄹ	-14326
ㅂㅏㅂㅡㅇㅞ	-14327
▁ㅇㅕㄴㅎㅐㅇ	-14328
▁ㅈㅣㄴㅇㅝㄴ	-14329
▁ㅈㅔㅈㅏㄱㅈㅣㄴ	-14330
▁ㅈㅣㅁㅂㅏㅂㅡㅇㅞ	-14331
▁ㅈㅗㅅㅓㄴㅇㅘㅇㅈㅗ	-14332
NG	-14333
▁MM	-14334
ㅡㄱㅗ	-14335
▁ㄷㅔㄴㅅㅛ	-14336
▁ㅁㅣㅇㅣㄴ	-14337
ㄷㅗㅇㅁㅐㅇ	-14338
▁ㅂㅏㄴㅈㅓㅁ	-14339
▁ㅍㅡㄹㅗㄹㄹㅔ	-14340
▁ㅍㅡㄹㅗㄹㄹㅔㅌㅏㄹㅣㅇㅏ	-14341
ㄲㅡㄴ	-14342
▁ㅂㅏㅅ	-14343
ㅂㅏㅈㅣ	-14344
▁ㄹㅏㅋㅏ	-14345
▁ㅅㅏㄱㅛ	-14346
▁ㅅㅏㄷㅡ	-14347
▁ㅅㅔㅁㅜ	-14348
▁ㄱㅘㄱㅕㄱ	-14349
▁ㄷㅗㅂㅏㄹ	-14350
ㄱㅏㄱㅎㅕㅇ	-14351
▁ㅅㅗㅇㅈㅣㄴ	-14352
▁ㅈㅡㅇㄱㅏㅇ	-14353
▁ㅍㅡㄹㅔㄷㅡ	-14354
▁ㅇㅣㅂㅏㄹㅏㅋㅣ	-14355
▁ㅂㅔㅅㅡㅌㅡㅅㅔㄹㄹㅓ	-14356
ai	-14357
▁Good	-14358
▁ㄹㅏㄹㅏ	-14359
▁ㅇㅔㅊㅣ	-14360
▁ㅊㅔㄴㅐ	-14361
ㄹㅔㅂㅏㄴ	-14362
▁Black	-14363
▁ㄱㅓㄲㅜㄹㅗ	-14364
▁ㄱㅜㄹㅂㅗㄱ	-14365
▁ㅎㅓㄴㅂㅕㅇ	-14366
ㅁㅜㅅㅡ	-14367
▁ㅅㅗㅈㅏㄱ	-14368
▁ㅇㅔㄷㅜㅇ	-14369
▁ㅋㅐㄴㅗㄴ	-14370
▁ㄴㅗㅇㅅㅓㅇ	-14371
▁ㄹㅣㄹㄹㅔㅇㅣ	-14372
▁ㅇㅕㄴㅊㅜㄹㄱㅏ	-14373
ank	-14374
▁qu	-14375
ower	-14376
▁ㄱㅣㄱㅗ	-14377
▁ㅈㅏㅋㅔㅅ	-14378
▁ㅌㅓㅂㅣㄴ	-14379
▁ㅂㅏㄴㄹㅗㄴ	-14380
▁ㅈㅓㅂㅈㅓㄴ	-14381
ㄸㅓㄱ	-14382
▁Can	-14383
▁ㄹㄹㅏ	-14384
ㅅㅣㄴㅣ	-14385
▁ㅇㅕㄷㅐ	-14386
▁ㅅㅣㅈㅣㄴ	-14387
▁ㅈㅣㄱㄱㅛ	-14388
▁ㅌㅡㄴㅌㅡㄴ	-14389
ㅏㅍㅡㄹㅣㅋㅏ	-14390
▁ㄴㅗㄹㅡㅁㅏㄴ	-14391
▁ㅁㅐㄷㅏㄹㄹㅣ	-14392
▁ㅅㅡㅌㅐㄴㄷㅡ	-14393
▁ㅍㅗㅎㅏㅇㅅㅣ	-14394
▁ㅅㅏㅁㄱㅜㄱㅇㅠㅅㅏ	-14395
▁ㅅㅏㅇㅣㅌㅏㅁㅏㅎㅕㄴ	-14396
ㅇㅔㄴ	-14397
▁ret	-14398
ㅁㅗㅅㅡ	-14399
▁ㄱㅣㅁㅛ	-14400
▁ㅁㅜㄱㅗ	-14401
▁ㅇㅏㄷㅡ	-14402
▁ㅌㅗㄹㅗ	-14403
ㅏㄹㅣㅇㅏ	-14404
ㅗㅂㅣㅊㅣ	-14405
ㅊㅏㅁㅊㅏㄴ	-14406
▁ㄱㅏㅇㅣㄷㅡ	-14407
▁ㄹㅏㅇㅣㅅㅡ	-14408
▁ㄷㅐㄹㄹㅓㅅㅡ	-14409
▁AI	-14410
ㅜㅇㅔㄴ	-14411
ㄷㅏㅂㅏㄹ	-14412
▁ㅇㅟㅎㅓㄴ	-14413
▁ㄴㅏㅁㅇㅏㄱ	-14414
▁ㅂㅐㄱㅇㅏㄱㄱㅘㄴ	-14415
▁ㅈㅗㅇㅇㅓㅂㅇㅝㄴ	-14416
ㅟㅅ	-14417
▁NAD	-14418
▁ㅅㅏㅋㅜㄹ	-14419
▁ㅌㅔㄱㅅㅡ	-14420
▁ㄱㅏㄴㅍㅏㄴ	-14421
▁ㄱㅡㄹㄹㅔㄴ	-14422
▁ㅇㅛㅇㄱㅏㅁ	-14423
▁ㅌㅡㄹㅗㅌㅡ	-14424
▁ㅁㅣㅎㅏㅂㅈㅜㅇㄱㅜㄱ	-14425
▁550	-14426
ㅗㄹㄷㅡ	-14427
▁ㅁㅏㅌㅏ	-14428
▁ㅈㅣㅇㅏ	-14429
▁ㅊㅓㅊㅣ	-14430
▁ㅌㅐㅇㅏ	-14431
ㅅㅜㅅㅏㄴ	-14432
ㅋㅣㄴㅅㅡㄴ	-14433
▁ㅅㅏㄴㅅㅣㄴ	-14434
ㅐㅌㅣ	-14435
ㅅㅔㄷㅏ	-14436
ㅅㅜㄱㅛ	-14437
▁ㅈㅓㅎㅐ	-14438
▁ㅂㅕㅇㄱㅘ	-14439
▁ㅇㅕㄹㅅㅚ	-14440
▁ㅈㅗㅈㅜㄴ	-14441
▁ㅌㅜㅅㅣㄴ	-14442
▁ㄷㅏㅇㄷㅏㅇ	-14443
▁ㅁㅜㄴㅈㅓㅇ	-14444
▁ㅅㅜㅅㅣㄹㅗ	-14445
▁ㅎㅚㅇㄹㅕㅇ	-14446
▁ㅈㅏㅇㅚㅅㅓㄴ	-14447
▁ㅈㅏㅇㅠㅎㅕㅇ	-14448
70	-14449
▁1862	-14450
▁ㄷㅐㄷㅏㅁ	-14451
▁ㅅㅡㅌㅗㅁ	-14452
▁ㅎㅐㅇㅂㅗ	-14453
ㅌㅏㅁㅣㅇㅏ	-14454
▁ㅇㅗㄴㄱㅓㄴ	-14455
▁ㅌㅔㅁㅜㄹㅡ	-14456
▁ㅎㅡㅂㅇㅕㄴ	-14457
▁ㅎㅏㅂㅏㄴㄱㅣ	-14458
▁ㅂㅏㄴㅈㅓㅇㅂㅜ	-14459
▁ㅇㅣㅅㅓㅇㅈㅣㄹ	-14460
DS	-14461
▁El	-14462
▁ㄲㅞ	-14463
ㅈㅔㅂㅣ	-14464
▁ㄹㅔㅂㅣ	-14465
▁ㅇㅏㄹㅚ	-14466
▁ㅋㅣㅈㅡ	-14467
▁ㅍㅗㄷㅐ	-14468
▁ㅁㅏㅇㅜㄴ	-14469
▁ㅂㅔㅇㅣㄹ	-14470
▁ㅁㅔㅅㅗㅍㅗ	-14471
▁ㅇㅕㄴㄷㅏㄹ	-14472
▁ㅈㅓㄱㅈㅓㅇ	-14473
▁ㅂㅏㄷㅊㅣㅁㄷㅗㄹ	-14474
▁ㅅㅣㄴㅅㅣㄴㅐㅌㅣ	-14475
▁ㅁㅔㅅㅗㅍㅗㅌㅏㅁㅣㅇㅏ	-14476
▁q	-14477
ㅐㅍㅣ	-14478
▁ㅈㅗㅇㅓ	-14479
▁ㅊㅏㅁㅅㅜ	-14480
▁ㅂㅕㄴㅈㅡㅇ	-14481
▁ㅂㅜㄴㅂㅕㄹ	-14482
▁ㅇㅘㅇㅣㄷㅡ	-14483
▁ㅈㅓㄴㅁㅕㄹ	-14484
▁ㅇㅛㅇㅅㅏㄴㄱㅜ	-14485
▁Qu	-14486
▁Ser	-14487
▁ㅌㅣㅈㅓ	-14488
ㅋㅡㄹㅣㅁ	-14489
▁ㄴㅐㄹㅏㄴ	-14490
▁ㄴㅐㅇㅕㄱ	-14491
▁ㅅㅣㄴㅇㅢ	-14492
▁ㅇㅏㄷㅔㄹ	-14493
▁ㅎㅘㄹㅈㅏ	-14494
▁ㅎㅡㄴㄷㅡㄹ	-14495
▁ㄲㅐㅇ	-14496
▁ㅅㅓㅇㅟ	-14497
▁ㅍㅏㅈㅜ	-14498
ㅔㄹㅡㅌㅡ	-14499
▁ㅇㅕㄴㅎㅘ	-14500
▁ㅇㅘㄴㅅㅜ	-14501
▁ㄱㅜㄱㄹㅕㄱ	-14502
▁ㅇㅑㅇㅇㅑㅇ	-14503
▁ㅈㅏㅇㅅㅣㄴ	-14504
▁ㅈㅡㅇㅅㅣㄱ	-14505
▁ㅈㅣㄴㅇㅓㄴ	-14506
▁ㅍㅣㄹㅁㅕㅇ	-14507
▁ㄱㅣㅁㅅㅓㅇㅅㅜ	-14508
▁LS	-14509
ㄹㅔㄹㅡ	-14510
ㄹㅗㅋㅜ	-14511
▁ㅈㅏㅇㅗ	-14512
▁ㅈㅗㅅㅓㄱ	-14513
ㅋㅡㄹㄹㅗㄴ	-14514
▁ㅅㅣㅁㅈㅓㅇ	-14515
▁ㅇㅕㄴㅈㅜㅎㅚ	-14516
▁ㅇㅣㅂㅂㅓㅂㅂㅜ	-14517
ㅓㅎㅏ	-14518
▁1867	-14519
▁ㅅㅜㄷㅏㅇ	-14520
▁ㅎㅏㅈㅜㅇ	-14521
▁ㅂㅗㄹㄹㅗㄱ	-14522
▁ㅅㅓㄷㅜㄹㅡ	-14523
▁ㅇㅔㄱㅅㅡㅍㅗ	-14524
▁ㅎㅐㄹ	-14525
▁ㄷㅓㅎㅏ	-14526
▁ㄱㅣㅁㅊㅣ	-14527
▁ㅁㅗㅂㅏㄴ	-14528
▁ㅇㅣㅅㅣㅁ	-14529
▁ㅎㅘㅇㅍㅖ	-14530
ㄷㅜㄹㅏㅅㅡ	-14531
▁ㄹㅔㅇㅣㄴㅈㅓ	-14532
▁ㅇㅓㄴㄹㅗㄴㅅㅏ	-14533
▁ㅇㅛㅎㅏㄴㅔㅅㅡ	-14534
ㅜㅇㅝㄴㅅㅜㅇㅇㅣ	-14535
▁ㅇㅗㄴㄷㅜㄹㅏㅅㅡ	-14536
▁ㅍㅕㄴㅈㅣㅂㅈㅏㅇ	-14537
▁ㅍㅔㄹㅡㄷㅣㄴㅏㄴㅌㅡ	-14538
▁UC	-14539
▁Let	-14540
▁ㄹㅡㅂ	-14541
ㅈㅗㄹㅣ	-14542
▁ㄱㅘㅇㅈㅏ	-14543
▁ㄹㅔㅁㅗㄴ	-14544
▁ㅁㅜㄴㅈㅜㅇ	-14545
▁ㄹㅏㅇㅣㅍㅡㅊㅣㅎㅣ	-14546
▁ㅍㅏㄹㅈㅏㄱㅈㅣㅂㅜㅇ	-14547
▁Ac	-14548
ㅂㅡㄱ	-14549
▁705	-14550
▁6000	-14551
▁ㅍㅜㄷㅡ	-14552
▁ㅍㅣㅅㅕ	-14553
▁ㄱㅏㅁㅜㄹ	-14554
▁ㄱㅛㅎㅜㄴ	-14555
▁ㅂㅓㄴㄱㅐ	-14556
▁ㅈㅣㅁㅜㄴ	-14557
▁ㄱㅏㄴㄱㅕㄹ	-14558
▁DR	-14559
▁ㄷㅔㄱ	-14560
▁ㅌㅓㅇ	-14561
▁ㄱㅗㅊㅏㄹ	-14562
▁ㄷㅏㄴㅈㅏ	-14563
ㅌㅏㄴㅏㅂㅔ	-14564
▁ㅇㅑㅇㄱㅜㄴ	-14565
▁ㅅㅏㅁㅜㄱㅜㄱ	-14566
▁ㅂㅕㄴㄱㅘㅇㅅㅓㅇ	-14567
▁AU	-14568
▁ㄱㅡㄱㅓ	-14569
ㅜㅇㅣㅅㅡ	-14570
▁ㅊㅓㅈㅏㅇ	-14571
▁ㄱㅕㅇㅎㅢㄷㅐ	-14572
▁ㅈㅡㅇㅈㅗㅂㅜ	-14573
lar	-14574
ㅂㅣㅁ	-14575
ings	-14576
▁ㅂㅐㅅ	-14577
ㅔㅇㅣㄱㅗ	-14578
ㅎㅘㄹㅇㅑㄱ	-14579
▁MSL	-14580
▁ㅌㅗㅇㅠ	-14581
▁ㅎㅣㄴㅗ	-14582
ㄷㅐㅈㅓㄴ	-14583
ㅈㅣㄴㄱㅜ	-14584
▁ㅈㅣㅎㅏㅇ	-14585
▁ㅍㅛㅊㅜㄹ	-14586
▁ㄷㅔㅋㅏㄹㅡㅌㅡ	-14587
▁ㅅㅗㄴㅈㅏㅂㅇㅣ	-14588
▁ㅣ	-14589
ㅅㅣㄱㅔ	-14590
▁ㅆㅢㅇㅜ	-14591
▁ㅋㅔㄹㅡ	-14592
▁ㄱㅗㄴㅏㄴ	-14593
▁ㄹㅣㅊㅣㅁ	-14594
▁ㅂㅕㄴㅁㅗ	-14595
▁ㅇㅖㅈㅗㅇ	-14596
▁section	-14597
▁ㅁㅐㅇㅎㅘㄹㅇㅑㄱ	-14598
▁ㅂㅐㄱㄱㅘㅅㅏㅈㅓㄴ	-14599
▁ㄴㅏㅁㅏ	-14600
▁ㄹㅏㄴㅣ	-14601
▁ㅈㅗㅅㅓ	-14602
▁ㅋㅐㅊㅣ	-14603
▁ㅎㅚㅇㅠ	-14604
ㅈㅓㅇㅅㅏ	-14605
▁ㅈㅣㅌㅐㅇ	-14606
▁ㅋㅣㄹㅣㄹ	-14607
▁ㄱㅐㄱㅅㅣㄹ	-14608
▁ㅈㅏㄴㅈㅗㄴ	-14609
▁ㅃㅏㅈㅕㄴㅏㄱㅏ	-14610
▁ㅇㅏㄹㅍㅗㄴㅅㅗ	-14611
▁ㄱㅝㄹ	-14612
▁ㅆㅜㅇ	-14613
▁ㅆㅣㄴ	-14614
▁ㅅㅣㄴㅎㅐ	-14615
ㅅㅔㅇㅜㅅㅡ	-14616
▁ㅊㅣㄹㅛㅈㅔ	-14617
▁ㅋㅗㅅㅡㅌㅡ	-14618
▁ㅍㅡㄹㅏㅇㅣㅈㅡ	-14619
▁ㅎㅕㅂㄷㅗㅇㅈㅗㅎㅏㅂ	-14620
ta	-14621
ㅘㄱ	-14622
▁-&	-14623
ㅍㅡㄴ	-14624
ㅆㅡㄴㅗ	-14625
ㅅㅜㅇㅕㅁ	-14626
▁ㄷㅗㄱㅈㅜ	-14627
▁ㄱㅕㅇㅇㅡㄴ	-14628
▁ㅅㅏㅇㅅㅓㄹ	-14629
▁ㅂㅜㄷㅡㅇㅅㅣㄱ	-14630
▁ㅎㅗㄹㄷㅣㅇㅅㅡ	-14631
ㄱㅟㄴ	-14632
▁ㄴㅏㅊ	-14633
▁ㅆㅓㄱ	-14634
ㅇㅓㅂㅈㅏ	-14635
ㅈㅔㄹㄹㅗ	-14636
ㅌㅡㅁㅐㄴ	-14637
▁ㅇㅗㄱㅅㅣ	-14638
ㅂㅏㅇㄱㅜㄴ	-14639
▁ㅊㅓㅇㄱㅏㄱ	-14640
ㅈㅓㄹㄷㅗㅅㅏ	-14641
▁ㅇㅐㄹㅂㅓㅌㅡ	-14642
ㅈㅜㅇㅊㅜㅂㅜㅅㅏ	-14643
▁ㄱㅏㅁㅇㅕㅁㅈㅡㅇ	-14644
▁ㄴㅏㄺ	-14645
ㅌㅣㅇㅑ	-14646
▁ㅅㅛㅋㅡ	-14647
▁ㅇㅣㅇㅋㅡ	-14648
▁ㅅㅏㅇㅅㅓㄴ	-14649
▁ㅅㅓㅇㅍㅜㅁ	-14650
▁ㅇㅣㅂㅡㅅㅡ	-14651
▁ㅈㅓㄹㅇㅑㄱ	-14652
▁ㄱㅣㅇㅝㄴㅎㅜ	-14653
▁ㅇㅣㄴㅗㅇㅜㅇㅔ	-14654
▁ㅇㅣㄹㅂㅗㄴㅅㅣㄱ	-14655
rist	-14656
▁And	-14657
▁ㄸㅏㅁ	-14658
▁ㄱㅏㅂㅣ	-14659
▁ㅇㅏㅌㅔ	-14660
▁ㄷㅏㅇㅍㅏ	-14661
▁ㅁㅏㄹㅣㅇ	-14662
▁ㅂㅗㅈㅣㄱ	-14663
▁ㅅㅣㅁㅅㅗ	-14664
▁ㅊㅏㄹㅣㅁ	-14665
▁ㅎㅔㄱㅔㄹ	-14666
▁ㅁㅜㅅㅏㅎㅣ	-14667
▁ㅁㅣㄴㅏㅁㅗ	-14668
▁ㅂㅏㄱㅇㅝㄴ	-14669
▁ㅎㅏㅇㅣㅍㅓ	-14670
▁ㄱㅕㅌㄷㅡㄹㅇㅣ	-14671
▁ㅇㅣㄹㄹㅓㅅㅡㅌㅡ	-14672
▁ㅌㅡㄱㅂㅕㄹㅂㅓㅂ	-14673
▁ㅁㅕㅇㅅㅓㅇㅎㅘㅇㅎㅜ	-14674
▁ㅅㅖㄴ	-14675
▁ㅊㅣㅇㅣ	-14676
▁ㅍㅣㅊㅓ	-14677
▁ㄱㅏㄱㅡㄱ	-14678
▁ㅅㅡㅋㅣㄹ	-14679
▁ㅇㅠㅁㅏㅇ	-14680
▁ㅂㅔㅇㄱㅗㄹ	-14681
▁ㅂㅡㄹㄹㅏㄷㅣ	-14682
ㅡㄴㅂㅔㄹㅡㅋㅡ	-14683
▁ㅅㅣㄴㅎㅏㄴㅇㅡㄴㅎㅐㅇ	-14684
tr	-14685
▁Ag	-14686
ㅂㅜㅅㅣ	-14687
▁1878	-14688
▁ㅇㅗㅅㅣ	-14689
▁ㄷㅏㄹㅑㅇ	-14690
▁ㅅㅜㄱㅡㅂ	-14691
▁ㅊㅜㅇㅊㅣㅇ	-14692
▁ㄹㅏㅁㅕㄴㅅㅓ	-14693
▁ㅂㅗㅇㅇㅜㄹㅣ	-14694
▁ㅍㅡㄹㄹㅏㅅㅡ	-14695
▁ㅁㅜㄴㅓㄸㅡㄹㅣ	-14696
ㅢㅈㅏ	-14697
▁ㄹㅣㅌㅡ	-14698
▁ㅂㅗㄹㅍㅡ	-14699
▁ㅇㅣㅁㅗㄱ	-14700
▁ㅊㅏㅁㅍㅐ	-14701
▁ㄱㅜㄱㅁㅣㄴㅎㅏㄱㄱㅛ	-14702
ee	-14703
ky	-14704
▁PL	-14705
ㅔㅌㅏ	-14706
▁ㄷㅏㅁㅗㄱ	-14707
▁ㅇㅕㅇㅁㅣ	-14708
ㅋㅏㄹㅡㅌㅏ	-14709
▁ㅇㅞㅇㅣㅂㅡ	-14710
▁ㅈㅜㅇㅇㅛㅇ	-14711
▁ㅇㅣㄴㅈㅣㄷㅗ	-14712
▁ㅁㅣㄴㅏㅁㅗㅌㅗㄴㅗ	-14713
▁ㄱㅗㄷㅡㅇㅎㅏㄱㅅㅐㅇ	-14714
▁SO	-14715
▁ㅆㅓㄴ	-14716
▁ㅈㅗㅅㅣ	-14717
▁ㅎㅜㄷㅡ	-14718
▁ㄱㅏㅂㅏㅇ	-14719
▁ㅇㅢㅈㅓㅇ	-14720
▁ㅋㅗㅍㅓㄹ	-14721
▁ㄷㅗㅇㅌㅏㄱ	-14722
▁ㅅㅜㄷㅗㅎㅚ	-14723
ㅇㅔㅅ	-14724
ㅋㅣㄴㅏ	-14725
ㅐㅇㅋㅡ	-14726
ㅓㅇㅜㅁ	-14727
▁ㄷㅗㅋㅣ	-14728
▁ㄱㅣㄹㄷㅡ	-14729
▁ㄱㅡㄹㅐㄷㅗ	-14730
▁ㅇㅕㄴㅇㅖㄱㅖ	-14731
▁ㅈㅏㄹㅣㅅㅅㅜ	-14732
▁ㄱㅓㄴㄹㅠㅇㅈㅔ	-14733
▁ㄱㅕㅇㅈㅐㅇㅈㅏ	-14734
▁ㅈㅣㅈㅣㄹㅎㅏㄱ	-14735
▁ㅎㅜㅈㅣㅇㅘㄹㅏ	-14736
▁ㅂㅣㅅㅡㅁㅏㄹㅡㅋㅡ	-14737
▁ㅇㅣㄹㄹㅣㄴㅗㅇㅣㅈㅜ	-14738
▁ㄱㅛㅅㅓ	-14739
▁ㅂㅗㄹㅠ	-14740
▁ㅅㅑㄹㅡ	-14741
▁ㅅㅓㄱㅓ	-14742
ㅣㄹㅓㅅㅡ	-14743
▁ㄱㅕㅇㅎㅗ	-14744
▁ㅇㅠㄹㅣㅁ	-14745
▁ㅈㅣㄹㅣㄴ	-14746
▁ㄲㅗㅊㅇㅣㅍ	-14747
▁ㅂㅕㄴㅈㅣㄹ	-14748
▁ㅈㅣㄱㅁㅜㄹ	-14749
▁ㄷㅐㄹㅣㅅㅓㄱ	-14750
▁ㄱㅛㅎㅘ	-14751
▁ㅈㅏㅎㅐㅇ	-14752
▁ㅊㅜㅊㅜㄱ	-14753
▁ㄴㅏㅊㅣㅇㅗ	-14754
▁ㅈㅓㅁㅈㅣㄴ	-14755
ㅍㅡㄹㄹㅗㄹㅓ	-14756
▁ㅈㅜㄱㅗㅂㅏㄷ	-14757
▁ㅅㅣㄴㄱㅣㄹㅗㄱ	-14758
▁ㅊㅜㄹㅇㅣㅂㅁㅜㄴ	-14759
▁ㅇㅏㄴㅏㅌㅗㄹㄹㅣㅇㅏ	-14760
▁ㅇㅣㄱㅅㅡㅍㅡㄹㄹㅗㄹㅓ	-14761
▁802	-14762
▁ㄹㅐㄱ	-14763
▁ㄴㅑㄱㅗ	-14764
▁ㅇㅣㅅㅗ	-14765
▁ㅈㅏㅂㅜ	-14766
▁ㄱㅘㄹㅎㅗ	-14767
▁ㅁㅣㅎㅏㄱ	-14768
▁ㅅㅓㅈㅓㅁ	-14769
▁ㅇㅏㅁㅏㄹ	-14770
▁ㅇㅣㅈㅡㅁ	-14771
▁ㅇㅣㅈㅣㄹ	-14772
▁ㅊㅜㅇㅅㅣㄴ	-14773
▁ㅍㅐㅅㅡㅌㅡ	-14774
▁ㅎㅐㅇㄱㅜㄴ	-14775
▁ㅎㅕㄴㅇㅏㄱ	-14776
▁ㅅㅡㅋㅔㅇㅣㅌㅡ	-14777
▁ㅅㅡㅌㅔㅇㅣㅌㅡ	-14778
▁ㅋㅗㅍㅓㄹㅔㅇㅣㅅㅕㄴ	-14779
▁tr	-14780
▁ㅇㅣㅇㅏ	-14781
▁ㄱㅜㄱㅎㅘ	-14782
▁ㅇㅚㄱㅛㅂㅜ	-14783
▁ㅎㅏㅇㅅㅐㅇ	-14784
▁ㅇㅏㅇㅣㅈㅔㄴ	-14785
▁ㅍㅡㄹㅏㅇㅅㅡㅇㅘ	-14786
ㅈㅣㅈ	-14787
▁ㅊㅏㅁㅕㅇ	-14788
▁ㄱㅡㅂㅅㅓㅇ	-14789
▁ㅅㅗㄴㄴㅣㅁ	-14790
▁ㅇㅐㄱㅅㅔㅅㅡ	-14791
▁ㄷㅚㄷㅗㄹㅇㅏㄱㅏ	-14792
ㅋㅝ	-14793
ㅂㅔㄹㅣ	-14794
▁ㅂㅓㅋㅡ	-14795
▁ㅇㅠㅎㅘ	-14796
▁ㅎㅔㄹㅗ	-14797
▁ㄴㅠㄱㅣㄴㅣ	-14798
▁ㅇㅘㄴㅁㅏㄴ	-14799
▁ㅊㅜㄱㅇㅣㄹ	-14800
▁ㄱㅗㄹㅉㅏㄱㅣ	-14801
▁ㅇㅛㄹㅣㅌㅗㅁㅗ	-14802
▁ㅋㅡㄹㅣㅅㅡㅌㅣㄴ	-14803
hem	-14804
▁RC	-14805
ㅓㄱㅓ	-14806
ㅣㅇㅠ	-14807
▁ㅈㅡㅂ	-14808
▁ㅁㅏㄱㅜ	-14809
▁ㅁㅜㅂㅣ	-14810
▁ㅂㅜㅇㅓ	-14811
▁ㅈㅣㅊㅔ	-14812
▁ㅊㅜㅎㅜ	-14813
▁ㄹㅔㄱㅅㅡ	-14814
▁ㅅㅜㅈㅡㅇ	-14815
▁ㅊㅓㄴㅅㅜ	-14816
▁ㄱㅗㅇㅅㅏㅇ	-14817
▁ㅈㅓㅇㅂㅏㄱ	-14818
▁ㅇㅕㅇㅇㅠㄱㅝㄴ	-14819
▁ㅋㅣㄹㅡㄱㅣㅅㅡ	-14820
▁ㅅㅐㄴㄷㅣㅇㅔㅇㅣㄱㅗ	-14821
▁ㄱㅘㅈㅏ	-14822
▁ㅍㅣㅋㅡ	-14823
ㅇㅓㄴㅅㅡ	-14824
ㅇㅣㄹㅊㅣ	-14825
▁ㄱㅏㄱㅈㅜ	-14826
▁ㅂㅜㄱㅘㄴ	-14827
▁ㅎㅕㅇㅈㅜ	-14828
ㅈㅏㄱㅈㅓㄴ	-14829
▁ㅅㅡㅂㅅㅓㅇ	-14830
▁ㅍㅡㄹㅣㅊㅡ	-14831
▁ㅎㅘㄴㅇㅠㄹ	-14832
▁ㅂㅜㄹㄱㅏㅍㅣ	-14833
▁ㅍㅗㅁㅠㄹㄹㅓ	-14834
▁ㅇㅝㄴㅈㅏㅎㅐㄱ	-14835
▁ㅇㅣㄴㅋㅗㄷㅣㅇ	-14836
▁ㅅㅕㅁ	-14837
▁ㅈㅏㅋㅗ	-14838
▁ㅊㅜㄱㅖ	-14839
▁ㅂㅡㄹㅔㄴ	-14840
▁ㅍㅐㅋㅣㅅ	-14841
ㅇㅏㅁㄷㅗㅇ	-14842
▁ㄱㅡㄴㅂㅏㅇ	-14843
▁ㅇㅗㄱㅊㅓㄴ	-14844
▁ㅍㅗㄹㅡㄴㅗ	-14845
ㅔㅇㅣㄹㅏ	-14846
▁ㅅㅣㅇㅕㄱ	-14847
▁ㄱㅜㄱㅇㅣㄴ	-14848
▁ㅂㅏㄴㅇㅣㅂ	-14849
▁ㅇㅕㄱㅐㄱㄱㅣ	-14850
BI	-14851
ㄱㅗㄷ	-14852
ㄸㅜㅇ	-14853
▁516	-14854
▁ㄱㅣㅂ	-14855
▁ㅍㅣㅋㅏ	-14856
▁ㅈㅏㄴㅎㅐ	-14857
▁ㅇㅠㄱㅅㅣㄱ	-14858
▁ㅇㅣㄹㅅㅓㄹ	-14859
▁ㅊㅜㄹㄱㅜㄱ	-14860
▁ㄱㅏㄹㅇㅏㅌㅏ	-14861
▁ㅎㅐㄱㅂㅜㄴㅇㅕㄹ	-14862
▁1869	-14863
▁ㅋㅜㄹㅏ	-14864
▁ㄱㅗㄱㅜㄱ	-14865
▁ㄱㅡㅁㅜㄹ	-14866
▁ㅊㅜㄹㅅㅔ	-14867
ㅂㅔㄴㅅㅕㄴ	-14868
▁ㅅㅜㅂㅣㄷㅐ	-14869
ㅗㄱㅡㄹㅏㄷㅡ	-14870
▁ㅂㅜㅇㅕㄱㅜㄴ	-14871
▁ㅂㅏㅇㅇㅟㄱㅜㄴ	-14872
▁ㅎㅣㄹㅂㅔㄹㅡㅌㅡ	-14873
▁HMS	-14874
▁ㅍㅐㅅ	-14875
ㅍㅏㅅㅡ	-14876
▁1840	-14877
▁ㄱㅐㄱㅣ	-14878
▁ㄱㅛㅍㅏ	-14879
▁ㄷㅐㄴㅣ	-14880
▁ㄷㅐㅌㅏ	-14881
▁ㅁㅐㅅㅠ	-14882
▁ㅇㅡㄹㅓ	-14883
▁ㅇㅣㅌㅓ	-14884
▁ㅇㅣㅌㅡ	-14885
ㅅㅜㄷㅏㄴ	-14886
▁ㅁㅏㅅㅂㅗ	-14887
▁ㅁㅔㅅㅣㄴ	-14888
▁ㅁㅜㅅㅐㄱ	-14889
▁ㅇㅛㅇㅎㅐ	-14890
▁ㅍㅐㅁㅏㅇ	-14891
▁ㅇㅣㄴㅅㅡㅇ	-14892
▁ㅇㅣㄹㅅㅓㄴ	-14893
▁ㅇㅏㅇㅌㅜㅇㅏㄴ	-14894
▁ㅇㅜㄴㄷㅗㅇㄹㅑㅇ	-14895
▁ㄱㅡㄹㄹㅗㅂㅡㅅㅏㅇ	-14896
▁ㅂㅓㅇ	-14897
ㄷㅏㅅㅡ	-14898
▁ㅇㅗㅇㅜ	-14899
▁ㅎㅐㅌㅡ	-14900
▁ㅈㅓㄹㅊㅣㄴ	-14901
▁ㄱㅣㄷㅗㅇㅈㅓㄴ	-14902
pr	-14903
▁ㅅㅏㅅㅗ	-14904
▁ㅎㅐㅈㅣ	-14905
ㅎㅜㄱㅜㄱ	-14906
▁ㅇㅑㄱㅅㅏ	-14907
▁ㅊㅗㅇㅡㅁ	-14908
ㅅㅣㅇㅏㄷㅡ	-14909
▁ㅇㅘㅅㅔㄷㅏ	-14910
▁ㅁㅏㄹㅔ	-14911
▁ㅍㅗㅇㅣㄴ	-14912
▁ㅍㅗㅊㅓㄴ	-14913
▁ㅁㅕㄴㅈㅣㄱ	-14914
▁ㅇㅓㅂㄹㅗㄷㅡ	-14915
▁ㅂㅏㄷㅏㅅㅁㅜㄹ	-14916
▁ㅇㅜㄴㅈㅓㄴㅈㅏ	-14917
▁ㅇㅠㄴㅣㅂㅓㅅㅣㅇㅏㄷㅡ	-14918
ㅋㅏㅁ	-14919
▁ㅁㅐㄹ	-14920
▁ㅈㅏㅊㅓ	-14921
▁ㅈㅓㄱㅡ	-14922
▁ㅅㅏㅇㅇㅢ	-14923
▁ㅅㅜㅁㅏㄴ	-14924
▁ㅈㅏㅈㅓㅇ	-14925
▁ㅋㅓㅂㅅㅡ	-14926
▁ㅍㅔㄹㅡㅁ	-14927
▁ㅆㅏㅇㅅㅓㅇ	-14928
▁ㅊㅣㄹㅛㅂㅓㅂ	-14929
▁ㅇㅠㅇㅔㄴㄱㅜㄴ	-14930
▁ㅇㅠㄹㄹㅣㅇㅜㅅㅡ	-14931
ㅂㅏㄹㅣ	-14932
ㅍㅡㅁㅏㄴ	-14933
▁ㄱㅡㄹㄹㅗ	-14934
▁ㄴㅣㄱㅅㅡ	-14935
▁ㅁㅗㅁㅊㅔ	-14936
▁ㅂㅔㄴㅊㅡ	-14937
▁ㅉㅗㅊㄱㅣ	-14938
▁ㅊㅓㅇㅊㅟ	-14939
▁ㅁㅗㄱㄷㅗㅇ	-14940
▁ㄸㅓㅇㅗㄹㄹㅣ	-14941
▁ㅊㅐㄱㅝㄴㅈㅏ	-14942
▁ㅈㅐㅁ	-14943
ㄹㅔㅇㅗ	-14944
▁ㄱㅏㅌㅏ	-14945
▁ㄷㅟㅈㅣ	-14946
ㅌㅜㅇㅇㅣ	-14947
▁ㄱㅟㅇㅣㄴ	-14948
▁ㅋㅣㅇㅅㅡ	-14949
▁ㅇㅣㅂㅊㅜㄹ	-14950
▁ㅇㅖㅇㅓㄴㅈㅏ	-14951
▁ㄹㅔㅈㅣㅅㅡㅌㅓ	-14952
▁ㅍㅏㄹㄲㅜㅁㅊㅣ	-14953
▁ㅅㅏㅇㅣㅇㅓㄴㅅㅡ	-14954
▁ㅇㅔㅇㅣㅈㅓㄴㅌㅡ	-14955
ade	-14956
▁Mon	-14957
▁Song	-14958
▁ㅋㅟㅈㅡ	-14959
▁ㄱㅜㄱㅅㅔ	-14960
▁ㅇㅑㅇㅈㅗ	-14961
▁ㅈㅏㄴㄷㅣ	-14962
▁ㅎㅟㅂㅏㄹ	-14963
ㅂㅡㄹㅣㅇㅏ	-14964
▁ㅁㅏㅍㅗㄱㅜ	-14965
▁ㅅㅣㄴㅣㅇㅓ	-14966
▁ㅇㅗㅅㅡㅋㅏ	-14967
▁ㅊㅓㄴㅅㅏㅇ	-14968
▁ㅋㅓㅁㅍㅣㄹ	-14969
▁ㄱㅏㅇㄹㅕㄱㅎㅣ	-14970
▁ㅇㅘㅌㅏㄴㅏㅂㅔ	-14971
▁ㅁㅐㅋㅣㄴㅌㅗㅅㅣ	-14972
▁ㅋㅓㅁㅍㅣㄹㄹㅔㅇㅣㅅㅕㄴ	-14973
ㅅㅗㄴㅕ	-14974
ㅡㅂㅗㅇ	-14975
▁ㄱㅓㄹㅍㅡ	-14976
▁ㅈㅏㅈㅣㄹ	-14977
▁ㅍㅗㅌㅏㅂ	-14978
▁ㄱㅏㅇㅇㅣㄴ	-14979
▁ㅅㅏㅇㅅㅣㄱ	-14980
▁ㅇㅗㄹㅡㄱㅏㄴ	-14981
▁ㅍㅏㅅㅣㅅㅡㅌㅡ	-14982
▁ㄹㅗㄷㅡㄹㅣㄱㅔㅅㅡ	-14983
▁ㅇㅏㄴㅏㅋㅣㅅㅡㅌㅡ	-14984
ae	-14985
ㅈㅣㅇㅗ	-14986
▁ㅈㅏㅊㅟ	-14987
▁ㄱㅣㅎㅐㅇ	-14988
▁ㅌㅔㄴㅅㅓ	-14989
▁ㅁㅗㅈㅏㅇㅣ	-14990
▁ㅁㅣㄴㅅㅣㅁ	-14991
▁ㅂㅕㄴㅎㅕㄱ	-14992
ㅋㅡㄹㅏㅌㅔㅅㅡ	-14993
per	-14994
ㄱㅕㅂ	-14995
▁ㅋㅔㅅ	-14996
ㅌㅣㅈㅣ	-14997
▁ㄲㅗㅁㅏ	-14998
ㅅㅓㄴㅇㅓㄴ	-14999
▁ㄱㅡㄹㄹㅓㅂㅡ	-15000
▁ㅁㅗㅈㅏㅇㅣㅋㅡ	-15001
▁ㅇㅘㅋㅏㅇㅑㅁㅏ	-15002
▁ㄱㅡㅁㄱㅏㅇㅅㅏㄴ	-15003
▁ㅂㅗㄲ	-15004
▁ㅋㅜㄹㅗ	-15005
▁ㄷㅏㄴㅅㅓ	-15006
▁ㅅㅜㄱㅅㅗ	-15007
▁ㄴㅔㅇㅣㅌㅡ	-15008
▁ㅂㅣㄴㅁㅣㄴ	-15009
▁ㅇㅠㄴㅊㅣㅇ	-15010
▁ㅁㅗㄱㅈㅓㄱㅈㅣ	-15011
▁AA	-15012
▁Pe	-15013
▁VS	-15014
ount	-15015
ㅋㅜㄹㅡ	-15016
▁ㄱㅓㄹㅇㅡㅁ	-15017
▁ㅁㅜㄹㄹㅗㄴ	-15018
▁me	-15019
ㄱㅣㅅ	-15020
▁ㅍㅓㅁ	-15021
▁1592	-15022
▁ㅅㅡㄱㅣ	-15023
▁ㅅㅣㄹㅡ	-15024
▁ㅇㅏㅇㅓ	-15025
▁ㅈㅣㅇㅛ	-15026
▁ㅂㅐㄱㅈㅗ	-15027
▁ㅂㅜㄱㅜㄴ	-15028
▁ㅅㅗㅂㅏㄱ	-15029
ㅔㅌㅣㅋㅓㅅ	-15030
▁ㄱㅙㄴㅊㅏㄶ	-15031
▁ㅁㅕㄴㅡㄹㅣ	-15032
▁ㅈㅓㄴㄷㅏㄴ	-15033
▁ㅇㅏㅇㅣㄹㄹㅐㄴ	-15034
▁ㄴㅏㅁㅇㅏㅅㅣㅇㅏ	-15035
▁ㅋㅗㄴㅔㅌㅣㅋㅓㅅ	-15036
▁ㄱㅗㄷㅡㅇㄱㅛㅇㅠㄱ	-15037
▁ㅂㅏㅃㅡ	-15038
▁ㅇㅐㄱㅣ	-15039
▁ㅇㅟㄷㅗ	-15040
▁ㅎㅣㅌㅗ	-15041
▁ㅅㅡㅌㅐㄱ	-15042
▁ㄴㅗㄴㅅㅏㄴ	-15043
▁ㄷㅏㄴㅇㅕㄱ	-15044
▁ㅅㅔㅁㅣㄴㅏ	-15045
▁ㅇㅏㄴㅌㅏㄲㅏㅂ	-15046
▁ㅊㅏㅇㄹㅣㅂㅈㅏ	-15047
▁ㅈㅗㅇㅊㅏㄱㅇㅕㄱ	-15048
▁As	-15049
▁ㅇㅠㅁㅓ	-15050
▁ㅎㅗㅋㅜ	-15051
▁ㄷㅏㄹㅡㅁ	-15052
▁ㅇㅔㄹㄹㅏ	-15053
▁ㅊㅓㄹㅈㅏ	-15054
▁ㅍㅜㅇㄱㅣ	-15055
▁ㅈㅣㄱㄹㅕㄹ	-15056
▁ㅁㅐㄱㅇㅏㄷㅓ	-15057
ㅟㄹㅡㄴㅂㅔㄹㅡㅋㅡ	-15058
ium	-15059
ㅅㅏㅇㅠ	-15060
▁8000	-15061
▁ㅇㅗㅈㅏ	-15062
▁ㅇㅠㅇㅣ	-15063
▁ㅌㅠㅂㅡ	-15064
▁ㄲㅡㄹㄹㅣ	-15065
▁ㄴㅗㅂㅜㅇ	-15066
▁ㄹㅗㅋㅡㄴ	-15067
▁ㅂㅣㄱㅌㅓ	-15068
▁ㅅㅣㄴㅈㅣ	-15069
▁ㄱㅡㅁㅅㅐㄱ	-15070
▁ㄱㅘㄴㅅㅣㅁㅅㅏ	-15071
▁ㅂㅕㅇㅈㅏㅎㅗㄹㅏㄴ	-15072
▁ㅊㅣㄴㅅㅓㄴㄱㅕㅇㄱㅣ	-15073
IF	-15074
▁ㄱㅗㅈㅔ	-15075
▁ㅋㅏㅂㅏ	-15076
ㅍㅔㄹㄹㅓ	-15077
▁ㅇㅏㅁㅅㅜ	-15078
▁ㄴㅗㄹㅡㄷㅡ	-15079
▁ㅂㅗㅇㅠㅈㅏ	-15080
▁ㅈㅏㅇㄹㅗㅎㅚ	-15081
▁ㅇㅏㄴㄷㅗㅇㅅㅣ	-15082
▁ㅍㅣㄹㅅㅏㅂㅗㄴ	-15083
▁Aw	-15084
▁KN	-15085
ㄷㅐㄱㅗㅇ	-15086
▁ㅇㅑㅇㅍㅏ	-15087
▁ㅇㅔㅂㅗㄹ	-15088
▁ㅇㅢㅂㅗㄱ	-15089
▁Windows	-15090
▁ㄹㅣㅅㅡㅂㅗㄴ	-15091
▁ㅇㅣㄹㅐㄴㄷㅡ	-15092
▁ㅎㅔㄹㅡㅁㅏㄴ	-15093
IX	-15094
ale	-15095
▁ㄱㅘㅇㅂㅐ	-15096
▁ㄱㅠㅇㅠㄹ	-15097
▁ㄹㅏㄴㅌㅡ	-15098
▁ㅇㅕㅇㅅㅏ	-15099
▁ㅇㅙㄱㅜㄴ	-15100
ㅈㅓㄴㅅㅓㄴ	-15101
▁ㅇㅣㅇㅘㅌㅔ	-15102
▁ㅋㅗㅌㅡㄷㅣㅂ	-15103
▁ㅎㅟㅂㅆㅏㅇㅣ	-15104
▁ㄴㅟㄹㅡㄴㅂㅔㄹㅡㅋㅡ	-15105
▁ㅋㅗㅌㅡㄷㅣㅂㅜㅇㅏㄹㅡ	-15106
90	-15107
▁KTX	-15108
ㅁㅜㅈㅔ	-15109
▁ㅇㅓㅅㅏ	-15110
▁ㅎㅔㄷㅓ	-15111
▁ㄱㅏㅊㅏㅇ	-15112
▁ㄱㅗㅇㅡㄹ	-15113
▁ㅇㅗㄴㅅㅣㄹ	-15114
▁ㅈㅓㄱㅅㅣㅂㅈㅏ	-15115
ㄹㅏㅇㅑ	-15116
▁ㅋㅏㄹㅔ	-15117
▁ㅌㅗㄹㅏ	-15118
▁Heart	-15119
▁ㅂㅏㄱㅎㅣ	-15120
▁ㄷㅟㄸㅏㄹㅡ	-15121
▁ㅇㅡㄴㅁㅣㄹ	-15122
▁ㄱㅘㅂㅏㄴㅅㅜ	-15123
▁ㅈㅣㅎㅏㅇㅕㄱ	-15124
▁ㅇㅓㅅㄱㅏㄹㄹㅣ	-15125
▁ㅍㅗㄹㅡㅌㅜㄱㅏㄹㅇㅓ	-15126
ata	-15127
▁ㄱㅗㅇㄷㅐ	-15128
▁ㄴㅗㅎㅕㄴ	-15129
▁ㅇㅝㄱㅅㅡ	-15130
▁ㅇㅠㄱㅗㄹ	-15131
▁ㅂㅏㅇㅌㅏㄴ	-15132
▁ㅇㅏㄱㅁㅕㅇ	-15133
▁ㅇㅣㅁㅈㅗㅇ	-15134
▁ㅍㅣㅇㅢㅈㅏ	-15135
▁ㄱㅜㄷㅏㄴㅈㅜ	-15136
▁ㄷㅏㅁㄷㅏㅇㅈㅏ	-15137
▁Gl	-15138
▁ab	-15139
ㅋㅏㄹㅏ	-15140
ㄷㅓㄹㅣㅇ	-15141
ㅂㅗㄷㅏㅇ	-15142
▁ㄸㅏㄱㄸㅏㄱ	-15143
▁ㅂㅕㅇㅍㅜㅇ	-15144
▁ㅇㅓㄷㅗㅂㅣ	-15145
▁380	-15146
ㅎㅣㄷㅔ	-15147
▁ㅅㅏㅇㅘ	-15148
▁ㅈㅏㄹㅜ	-15149
▁ㄱㅖㄹㅛㅇ	-15150
▁ㄹㅗㅌㅏㄹㅡ	-15151
▁ㅅㅏㄱㄱㅏㅁ	-15152
▁ㅍㅏㅈㅜㅅㅣ	-15153
▁ㅂㅗㅎㅗㅂㅓㅂ	-15154
▁ㅅㅣㅁㄹㅣㅎㅏㄱㅈㅏ	-15155
ㅅㅡㄹㅔ	-15156
ㅣㅇㅅㅡ	-15157
▁1875	-15158
▁ㅋㅗㅁㅏ	-15159
ㄷㅓㄴㅌㅡ	-15160
ㅈㅐㄷㅏㄴ	-15161
▁ㄴㅠㄹㅓㄴ	-15162
▁ㄷㅏㅇㅣㅇ	-15163
▁ㅇㅚㅁㅕㄴ	-15164
▁ㅈㅣㄹㅌㅜ	-15165
ㅊㅏㄴㅅㅓㅇ	-15166
▁ㅁㅕㄴㄷㅏㅁ	-15167
▁ㅁㅜㅈㅣㄱㅐ	-15168
▁ㅈㅜㄴㄷㅗㅇ	-15169
▁ㅋㅡㄹㅣㅅㅡㅌㅣㄴㅏ	-15170
▁ㅅㅔㅇㅣㄴㅌㅡㄹㅜㅇㅣㅅㅡ	-15171
ㅎㅜㅇ	-15172
▁ㅇㅕㅍㅗ	-15173
ㅂㅣㅇㅕㄱ	-15174
ㅣㄴㅣㅊㅣ	-15175
▁ㄱㅓㅊㅏㅇ	-15176
▁ㄷㅗㅇㅈㅏ	-15177
▁ㅅㅓㅇㄷㅐ	-15178
▁ㅈㅓㄴㅂㅗ	-15179
▁ㅅㅡㅋㅗㅇㅓ	-15180
▁ㅂㅣㄷㅜㄹㄱㅣ	-15181
▁ㅎㅕㅇㅇㅛㅇㅅㅏ	-15182
▁ㅍㅔㄴㅓㄹㅌㅣㅋㅣㄱ	-15183
▁ㄱㅡㄴㅂㅗㄴㅂㅓㄴㄴㅚ	-15184
▁ㅂㅏㅂㅗ	-15185
ㅇㅘㅇㅎㅜ	-15186
▁ㅅㅓㅇㅑㄱ	-15187
▁ㅎㅗㄹㅡㄴ	-15188
▁ㄱㅝㄴㅇㅣㄱ	-15189
▁ㅇㅐㄹㅣㅈㅗ	-15190
▁ㅇㅕㄴㅈㅜㅇ	-15191
▁ㅅㅣㄴㅅㅓㄱㄱㅣ	-15192
ㅁㅔㄹ	-15193
▁Gen	-15194
▁ㄴㅣㅋㅔ	-15195
▁ㅅㅡㅇㅔ	-15196
▁ㅇㅝㅅㅡ	-15197
▁ㅇㅟㅋㅡ	-15198
▁ㄹㅗㅁㅏㅇ	-15199
ㄱㅗㄱㄷㅗㅇ	-15200
ㅜㅇㅔㄴㅈㅏ	-15201
▁ㅂㅏㅇㅇㅜㄹ	-15202
ㅈㅏㄷㅡ	-15203
▁ㄹㅏㅍㅡ	-15204
▁ㅂㅔㄹㅏ	-15205
▁ㄷㅐㅅㅏㄱ	-15206
▁ㅇㅓㅅㅓㄴ	-15207
▁ㅇㅕㄹㅅㅔ	-15208
ㄱㅗㅁㅔㄹㅣ	-15209
▁ㄷㅗㄱㅅㅏㄹ	-15210
▁ㅅㅜㄱㄹㅕㄴ	-15211
▁ㅇㅣㄹㅁㅕㅇ	-15212
▁ㅇㅣㄹㅂㅜㄹ	-15213
▁ㅈㅏㅁㅇㅣㅂ	-15214
▁ㅎㅡㅇㅇㅝㄴ	-15215
▁ㄷㅚㄷㅗㄹㅇㅏㅇㅗ	-15216
▁ㅇㅕㅇㅜㅇㅝㄴㅅㅜㅇㅇㅣ	-15217
▁ㅅㅏㅇㄱㅘ	-15218
▁ㅅㅕㅌㅡㄹ	-15219
▁ㅇㅖㅅㅣㄱ	-15220
▁ㅇㅚㅊㅓㄱ	-15221
▁ㅊㅣㄴㅎㅘ	-15222
ㅍㅏㄹㅡㅌㅡ	-15223
▁ㄱㅏㅇㅅㅡㅂ	-15224
▁ㄱㅣㅃㅓㅎㅏ	-15225
▁ㅅㅡㅍㅣㅋㅓ	-15226
▁ㅅㅣㄹㅅㅏㅇ	-15227
▁ㅇㅝㄴㅁㅜㄴ	-15228
▁ㅇㅠㄹㅂㅓㅂ	-15229
▁ㅌㅜㄹㅡㅋㅡㅁ	-15230
▁ㅇㅏㄴㅊㅏㅇㅎㅗ	-15231
▁ㅅㅓㅇㅍㅗㄱㅎㅐㅇ	-15232
▁ㅈㅣㅂㄷㅏㄴㄱㅜㄴ	-15233
▁ㄹㅜㄷㅗ	-15234
▁ㄱㅣㅍㅏㄴ	-15235
▁ㅅㅣㅊㅏㄹ	-15236
▁ㅇㅏㅁㅏㄴ	-15237
▁ㅇㅖㄱㅡㅁ	-15238
ㅅㅔㄷㅔㅅㅡ	-15239
▁ㅁㅏㄱㄱㅏㅇ	-15240
ㅅㅏㅇㅜㄹㅜㅅㅡ	-15241
▁ㅂㅡㄹㅏㄴㄷㅔㄴㅂㅜㄹㅡㅋㅡ	-15242
son	-15243
ㅇㅓㅎㅏ	-15244
▁ㅅㅜㅍㅓ	-15245
▁ㅇㅢㅈㅜ	-15246
▁ㅈㅔㄴㅔ	-15247
▁ㅋㅏㅌㅡ	-15248
▁ㄱㅟㅇㅕㅂ	-15249
▁ㅈㅓㄴㅈㅗ	-15250
▁ㅋㅏㄴㅌㅡ	-15251
▁return	-15252
▁ㅅㅏㅇㄷㅗㅇ	-15253
▁ㅈㅜㅇㄱㅕㄴ	-15254
▁ㅌㅡㄱㄱㅗㅇ	-15255
▁ㅊㅣㄴㅎㅘㄴㄱㅕㅇ	-15256
▁ㅁㅔㄹㅡㅅㅔㄷㅔㅅㅡ	-15257
▁ㅈㅣㅈㅏㅇㅂㅗㅅㅏㄹ	-15258
▁sh	-15259
▁Out	-15260
▁ㅂㅓㅈ	-15261
ㅂㅜㄷㅐ	-15262
▁ㅂㅣㄹㅛ	-15263
▁ㅇㅜㅁㅏ	-15264
▁ㅋㅞㅇㅣ	-15265
▁ㄷㅗㅈㅓㄱ	-15266
▁ㅇㅠㄴㅎㅠ	-15267
▁ㅂㅏㄹㅊㅏㄱ	-15268
▁ㅂㅜㄹㅂㅗㄱ	-15269
▁ㅎㅚㄱㅗㄹㅗㄱ	-15270
ㅅㅣㅅ	-15271
ㅜㄴㅔ	-15272
ㅡㄹㅓ	-15273
▁ㅇㅛㅎㅏ	-15274
▁ㄱㅏㄹㅕㅇ	-15275
▁ㄱㅜㄱㅂㅜ	-15276
▁ㅅㅏㄱㅏㄱ	-15277
▁ㅅㅣㄴㅅㅣ	-15278
▁ㅇㅣㅅㅓㄴ	-15279
▁ㅍㅔㄷㅓㄹ	-15280
▁ㅈㅓㄹㅊㅜㅇ	-15281
▁ㅁㅗㅇㄱㅗㅁㅔㄹㅣ	-15282
▁ㅇㅕㅇㄷㅡㅇㅍㅗㄱㅜ	-15283
▁ㄹㅗㅈㅣ	-15284
▁ㄱㅣㄹㅣㄴ	-15285
▁ㄷㅡㄹㄹㅡ	-15286
▁ㅂㅏㅇㅣㅁ	-15287
▁ㅂㅜㅊㅜㄱ	-15288
▁ㅎㅕㄴㄷㅗ	-15289
▁ㄱㅕㅁㅈㅣㄱ	-15290
▁ㅇㅏㄴㅈㅜㅇ	-15291
▁ㅇㅝㄴㄷㅏㄴ	-15292
▁ㅈㅓㅇㅊㅣㄱ	-15293
▁ㅌㅗㅇㅛㅌㅏ	-15294
▁ㅎㅑㅇㅅㅣㄴ	-15295
ㅗㄴㅔㅅㅣㅇㅏ	-15296
ㅣㅇㅏㄴㅜㅅㅡ	-15297
▁ㄱㅗㅁㅜㄴㅅㅓ	-15298
▁ㅋㅡㄹㅏㅇㅜㄴ	-15299
▁ㄱㅏㅎㅘㄴㅎㅘㄴ	-15300
▁ㅌㅗㅇㅅㅣㄴㅁㅏㅇ	-15301
▁ㄹㅜㅍㅣ	-15302
▁ㄴㅗㅇㄱㅏ	-15303
▁ㅁㅗㅂㅅㅣ	-15304
▁ㅍㅗㅅㅏㅇ	-15305
▁ㄴㅏㄹㅣㅌㅏ	-15306
▁ㅅㅏㅇㅣㅈㅡ	-15307
▁ㅅㅣㄹㅁㅕㅇ	-15308
▁ㅊㅣㅁㅅㅣㄱ	-15309
▁ㅅㅡㅋㅔㅈㅜㄹ	-15310
▁ㅇㅏㅅㅔㅌㅣㄹ	-15311
▁ㅇㅖㅂㅣㅇㅕㄱ	-15312
▁ㄱㅏㅇㄷㅐㄱㅜㄱ	-15313
▁ㄷㅐㅎㅏㅇㅈㅓㄴ	-15314
▁ㅎㅏㄱㅅㅜㄹㅈㅣ	-15315
▁ㅂㅏㅂㅣㄹㄹㅗㄴㅣㅇㅏ	-15316
ng	-15317
itt	-15318
ㅏㅇㅔ	-15319
▁ㅅㅏㅈㅜ	-15320
▁ㅇㅑㅅㅜ	-15321
▁ㄹㅣㅇㅏㄴ	-15322
▁ㅅㅓㄴㅅㅏㅇ	-15323
▁ㅈㅣㅇㅈㅣㅂ	-15324
▁ㄱㅔㅇㅣㅁㄱㅣ	-15325
▁ㅇㅔㄱㅅㅡㅂㅏㄱㅅㅡ	-15326
▁TS	-15327
▁AMD	-15328
ㄱㅜㄹㅣ	-15329
ㅌㅏㄴㄷㅜ	-15330
▁ㄷㅏㅇㅣㅅㅛ	-15331
▁ㅅㅏㄷㅐㅂㅜ	-15332
▁ㅊㅜㄹㅍㅜㅁ	-15333
▁ㅎㅏㄴㅁㅣㄴ	-15334
▁ㄱㅐㄱㅡㅁㅐㄴ	-15335
▁ㅍㅏㅅㅡㅋㅏㄹ	-15336
▁ㅎㅏㅁㄱㅕㅇㄷㅗ	-15337
▁ㅎㅏㅂㅅㅓㅇㅇㅓ	-15338
▁ㅎㅏㅇㄱㅗㅇㄷㅐ	-15339
▁ㅇㅏㄹㅍㅡㄹㅔㄷㅡ	-15340
▁ㅇㅣㄴㅍㅡㄹㄹㅜㅇㅔㄴㅈㅏ	-15341
▁ㄹㅏㄷㅏ	-15342
▁ㄱㅣㅇㅜㄴ	-15343
▁ㅂㅐㄷㅏㅇ	-15344
▁ㅊㅓㅂㅂㅗ	-15345
▁ㅊㅏㄱㄱㅏㄱ	-15346
▁ㄲㅡㄹㅇㅓㅇㅗㄹㄹㅣ	-15347
PA	-15348
ㄴㅠ	-15349
▁ㅍㅛㅈㅔ	-15350
▁ㄹㅏㅂㅔㄹ	-15351
▁ㅇㅑㄱㅝㄴ	-15352
▁ㅊㅚㄴㅏㅁ	-15353
▁ㅍㅏㄹㅏㅎ	-15354
▁ㄱㅕㄹㅁㅏㄹ	-15355
▁ㅇㅔㄴㅈㅔㄹ	-15356
▁ㅅㅏㅁㅜㄱㅘㄴ	-15357
▁ㅊㅚㅅㅓㅇㄱㅣ	-15358
▁ㅇㅕㄹㅇㅕㄱㅎㅏㄱ	-15359
▁ㅋㅕ	-15360
▁ㅅㅣㅅ	-15361
▁ㅆㅣㅂ	-15362
ㄱㅜㅅㅡ	-15363
ㄱㅣㅈㅡ	-15364
▁ㅇㅑㅋㅜ	-15365
[...]
