▁▃ -0
▁ㅇ -1
ㅡㄴ -2
ㅡㄹ -3
▁ㄱ -4
▁ㄷ -5
▁. -6
▁ㄴ -7
▁ㅇㅡㄹ -8
▁ㅇㅔ -9
▁ㄴㅡㄴ -10
▁ㄹ -11
ㅏㄴ -12
▁ㅇㅣ -13
▁ㅎ -14
▁이 -15
▁ㄷㅏ -16
▁ㅇㅢ -17
▁하 -18
▁, -19
ㅅㅓ -20
▁ㄱㅏ -21
▁ㄹㅡㄹ -22
▁ㅇㅡㄴ -23
▁ㅁ -24
ㅈㅣ -25
▁ㄱㅗ -26
▁1 -27
ㄷㅏ -28
▁ㅎㅏㄴ -29
▁ㅇㅓ -30
▁있 -31
▁2 -32
▁ㄷㅗ -33
▁ㅇㅔㅅㅓ -34
▁ㄹㅗ -35
▁ㅇㅡㄹㅗ -36
▁ㅎㅐ -37
▁사 -38
▁그 -39
▁ㅈㅣ -40
▁ㅁㅕ -41
▁들 -42
▁시 -43
▁수 -44
▁아 -45
▁ㅂ -46
▁대 -47
▁ㄱㅔ -48
▁되 -49
▁ㄱㅣ -50
▁일 -51
▁전 -52
▁ㅇㅣㄴ -53
▁가 -54
ㅏㄹ -55
▁ㅇㅓㅆ -56
▁기 -57
ㅓㄴ -58
▁- -59
▁자 -60
▁적 -61
▁ㅁㅕㄴ -62
▁것 -63
▁다 -64
▁보 -65
▁3 -66
▁지 -67
▁스 -68
▁ㄱㅘ -69
▁주 -70
▁ㅇㅘ -71
▁ㅎㅐㅆ -72
▁마 -73
▁상 -74
▁정 -75
ㄱㅗ -76
ㄴㄷㅏ -77
▁ㄷㅚ -78
▁20 -79
▁ㄹㅏ -80
▁ㅈ -81
ㅕㅆ -82
▁' -83
▁년 -84
▁공 -85
▁ㅇㅏ -86
▁: -87
▁때 -88
▁모 -89
▁ㅎㅏㄴㄷㅏ -90
▁나 -91
▁경 -92
ㅁㅕ -93
▁중 -94
ㅏㄴㅡㄴ -95
▁유 -96
▁제 -97
ㅎㅐ -98
▁한 -99
▁오 -100
▁없 -101
▁인 -102
▁부 -103
ㅁㅏㄴ -104
▁4 -105
▁ㅈㅣㅁㅏㄴ -106
▁소 -107
▁ㅅ -108
▁성 -109
ㄱㅔ -110
▁등 -111
▁무 -112
ㅓㄹ -113
▁않 -114
▁ㅎㅏㄹ -115
▁ㄴㅏ -116
▁ㅇㅔㄱㅔ -117
▁5 -118
▁ㅂㅗ -119
▁비 -120
▁개 -121
ㄷㅔ -122
▁ㄷㅓㄴ -123
ㅣㄴ -124
▁0 -125
▁미 -126
▁여 -127
▁" -128
▁어 -129
▁월 -130
▁ㅁㅏㄴ -131
▁ㄲ -132
▁조 -133
▁201 -134
▁세 -135
▁장 -136
▁위 -137
▁/ -138
▁방 -139
▁만 -140
▁고 -141
▁동 -142
▁바 -143
▁카 -144
▁연 -145
▁선 -146
▁도 -147
▁거 -148
▁영 -149
▁신 -150
▁타 -151
▁안 -152
▁말 -153
▁화 -154
▁후 -155
▁ㅇㅡ -156
ㅎㅏㄴ -157
▁발 -158
▁리 -159
▁ㄴㅡㄴㄷㅔ -160
ㅏㅈㅣ -161
▁구 -162
▁내 -163
▁차 -164
▁레 -165
ㅁㅕㄴ -166
▁때문 -167
▁ㄷㅚㄴ -168
▁6 -169
ㄱㅏ -170
▁생 -171
▁원 -172
ㅜㄴ -173
▁10 -174
▁파 -175
▁명 -176
▁ㄲㅏㅈㅣ -177
▁최 -178
▁우 -179
ㄹㄹ -180
▁문 -181
▁실 -182
▁당 -183
▁번 -184
▁노 -185
▁7 -186
▁ㅈㅏ -187
▁ㅇㅕㅆ -188
▁ㄹㅏㄱㅗ -189
▁강 -190
▁ㄹㅏㄴㅡㄴ -191
▁같 -192
▁포 -193
▁해 -194
▁회 -195
▁데 -196
▁서 -197
▁! -198
▁더 -199
▁단 -200
▁진 -201
▁S -202
▁특 -203
▁8 -204
▁많 -205
▁결 -206
▁ㄷㅚㄴㄷㅏ -207
▁초 -208
▁받 -209
▁라 -210
▁ㅊ -211
▁ㄷㅏㄱㅗ -212
▁관 -213
▁ㅇㅏㅆ -214
▁불 -215
▁ㅂㅜ -216
▁반 -217
▁의 -218
▁작 -219
▁프 -220
▁역 -221
▁19 -222
▁게 -223
▁버 -224
▁ㅁㅕㄴㅅㅓ -225
ㄷㅗ -226
▁9 -227
▁경우 -228
▁계 -229
▁코 -230
▁공격 -231
▁배 -232
▁분 -233
▁ㄱㅓㄴ -234
▁ㅇㅕ -235
▁ㄸ -236
ㅇㅓ -237
▁추 -238
▁아니 -239
▁피 -240
▁ㄷㅏㄴㅡㄴ -241
▁드 -242
▁A -243
▁사용 -244
▁출 -245
ㅌㅓ -246
▁국 -247
▁에 -248
▁남 -249
▁현 -250
▁자신 -251
레이 -252
▁크 -253
▁물 -254
▁M -255
▁이후 -256
▁매 -257
▁좋 -258
ㅣㄹ -259
▁% -260
▁점 -261
▁편 -262
▁호 -263
▁감 -264
▁ㄷㅐ -265
▁패 -266
▁트 -267
▁학 -268
ㅣㄴㄷㅏ -269
▁로 -270
▁교 -271
▁정도 -272
▁사람 -273
▁ㅋ -274
▁재 -275
ㅇㅑ -276
▁C -277
▁요 -278
▁ㅅㅓ -279
▁또 -280
▁저 -281
▁그리 -282
스트 -283
▁두 -284
▁예 -285
▁플 -286
▁입 -287
▁B -288
▁가능 -289
▁ㅆ -290
▁T -291
▁김 -292
▁설 -293
▁달 -294
▁속 -295
▁참 -296
▁ㅂㅗㅇ -297
ㅇㅗ -298
▁형 -299
▁본 -300
▁캐 -301
▁함 -302
ㄹㅕ -303
▁알 -304
▁치 -305
ㅇㅜㄴ -306
▁등장 -307
▁ㅇㅟ -308
▁평 -309
▁ㅁㅗ -310
▁~ -311
▁ㅌ -312
▁메 -313
▁D -314
▁ㅂㅜㅌㅓ -315
▁과 -316
▁+ -317
▁? -318
▁다른 -319
▁종 -320
▁12 -321
▁ㅇㅡㅁㅕ -322
▁아이 -323
▁승 -324
▁체 -325
▁ㅇㅣㄴㅏ -326
▁게임 -327
▁토 -328
▁권 -329
▁팀 -330
▁군 -331
▁ㅇㅗ -332
▁.. -333
er -334
▁200 -335
▁11 -336
ㅜㄹ -337
▁직 -338
ㅓㅁ -339
▁ㅅㅣ -340
▁용 -341
▁L -342
▁외 -343
▁ㅎㅐㅅㅓ -344
▁판 -345
▁그리고 -346
00 -347
▁ㅂㅗㄷㅏ -348
▁확 -349
▁ㄴㅡㄴㄷㅏ -350
▁ㅁㅏ -351
▁처 -352
▁애 -353
▁하나 -354
▁잘 -355
▁경기 -356
▁사실 -357
in -358
▁행 -359
ㅈㅣㄴ -360
▁테 -361
▁시간 -362
▁필 -363
▁ㄴㅣ -364
▁죽 -365
▁F -366
ㄹㅗ -367
▁운 -368
▁키 -369
ㅇㅘ -370
ㄴㅣ -371
▁P -372
▁쓰 -373
ㅂㄴㅣ -374
▁ㅇㅟㅎㅐ -375
▁박 -376
▁못 -377
▁ㅇㅣㄹ -378
▁ㄷㅏㄱㅏ -379
▁심 -380
▁살 -381
▁투 -382
▁모습 -383
ㅇㅎㅐ -384
▁디 -385
▁변 -386
ㅂㄴㅣㄷㅏ -387
▁목 -388
▁뒤 -389
▁간 -390
▁집 -391
ㅈㅕ -392
▁ㄱㅓㄹ -393
▁히 -394
▁이상 -395
▁G -396
▁네 -397
▁루 -398
▁활 -399
ㅇㅏ -400
▁사이 -401
▁이름 -402
▁통 -403
▁베 -404
지만 -405
▁높 -406
▁각 -407
▁그러 -408
▁상대 -409
▁양 -410
▁나오 -411
▁E -412
▁순 -413
▁맞 -414
▁언 -415
▁ㅂㅏ -416
▁표 -417
▁야 -418
스터 -419
an -420
▁ㅂㅓㄹ -421
▁ㄹㅕ -422
▁능 -423
▁시작 -424
▁하지만 -425
▁ㄴㅐ -426
▁효 -427
▁문제 -428
▁존 -429
on -430
▁15 -431
▁돌 -432
▁일본 -433
▁함께 -434
▁ㄱㅓㄴㅏ -435
▁ㅇㅓㅅㅓ -436
▁왕 -437
▁증 -438
▁ㅇㅑ -439
ㅇㅝ -440
▁병 -441
▁ㄱㅔㅆ -442
▁손 -443
▁생각 -444
▁한국 -445
▁ㅇㅡㅁㅕㄴ -446
▁# -447
▁건 -448
▁캐릭 -449
▁약 -450
▁H -451
▁ㅎㅏ -452
▁ㄷㅡㄹ -453
▁브 -454
▁R -455
▁천 -456
▁K -457
▁폭 -458
▁완 -459
▁캐릭터 -460
▁ㅈㅣㄴ -461
▁별 -462
▁듯 -463
▁능력 -464
대로 -465
▁너 -466
▁프로 -467
▁t -468
▁총 -469
▁다시 -470
▁ㅍ -471
▁플레이 -472
▁클 -473
▁독 -474
▁I -475
▁블 -476
▁시즌 -477
▁잡 -478
▁N -479
▁막 -480
▁스킬 -481
▁페 -482
▁ㅊㅓㄹ -483
▁ㅊㅓㄹㅓㅁ -484
▁항 -485
이트 -486
▁날 -487
▁ㅃ -488
▁근 -489
▁광 -490
▁음 -491
▁추가 -492
▁복 -493
ㅏㄹㅏ -494
▁m -495
▁가지 -496
▁식 -497
▁힘 -498
▁상황 -499
▁검 -500
▁가장 -501
▁따 -502
▁만들 -503
▁또한 -504
▁카드 -505
▁ㅅㅣㅋ -506
▁ㄴㅏㅇㅗ -507
or -508
▁먹 -509
ㅈㅕㅆ -510
▁ㅇㅏㄹ -511
미지 -512
ㄷㅏㄴㅡㄴ -513
▁상태 -514
▁삼 -515
▁ㄷㅐㅎㅏㄴ -516
▁당시 -517
▁ㅇㅏㄴ -518
▁모두 -519
ar -520
▁결국 -521
▁열 -522
▁백 -523
▁충 -524
▁효과 -525
▁곡 -526
▁업 -527
▁모든 -528
▁18 -529
▁16 -530
▁다만 -531
ㅇㅡ -532
▁ㅂㅗㅇㅕ -533
▁쿠 -534
ㄲㅏ -535
▁채 -536
ㅇㅡㄴ -537
▁많이 -538
▁얼 -539
▁악 -540
▁보이 -541
▁O -542
▁금 -543
ㅏㄴㄷㅏ -544
▁전투 -545
▁30 -546
▁ㅁㅗㅅ -547
▁끝 -548
at -549
▁티 -550
▁및 -551
▁시리 -552
▁ㄷㅚㄹ -553
▁산 -554
▁임 -555
▁13 -556
▁눈 -557
▁급 -558
▁민 -559
▁선수 -560
▁s -561
▁올 -562
he -563
▁레벨 -564
▁ㅇㅡㅁ -565
▁태 -566
▁세계 -567
▁] -568
▁W -569
▁ㅂㅗㄹ -570
▁존재 -571
ㄱㅕ -572
▁친 -573
ㅇㅛ -574
ㅇㅓㄴ -575
라이 -576
▁엔 -577
ㅇㅕ -578
▁14 -579
▁현재 -580
▁[ -581
▁라이 -582
▁매우 -583
ㅜㄴㄷㅏ -584
▁그런 -585
▁시리즈 -586
▁ㅇㅡㄴㅏ -587
▁무기 -588
▁슈 -589
▁앞 -590
▁ㅋㅡㄴ -591
▁상당 -592
▁ㅅㅐ -593
▁길 -594
▁스타 -595
▁물론 -596
▁커 -597
▁그러나 -598
▁머 -599
▁ㄱㅡㄹ -600
ㄹㄹㅏ -601
▁레이 -602
▁첫 -603
▁ㅌㅗ -604
▁마법 -605
▁골 -606
en -607
▁절 -608
▁c -609
▁극 -610
▁팬 -611
▁황 -612
▁17 -613
▁얻 -614
▁ㄷㅏㅁㅕㄴ -615
▁난 -616
ㄹㄹㅕ -617
▁터 -618
▁ㄸㅏㄹㅏ -619
▁그렇 -620
▁자체 -621
▁창 -622
ㅇㅘㅆ -623
▁기술 -624
▁100 -625
ㅡㄹㅗ -626
▁취 -627
▁00 -628
▁이런 -629
▁합 -630
▁니 -631
▁주인 -632
▁ㅇㅏㄴㅣㄴ -633
▁ㅎㅐㅇㅑ -634
▁실제 -635
▁이유 -636
▁청 -637
ㅇㅡㄴㅏ -638
▁25 -639
▁관련 -640
ou -641
거리 -642
▁누 -643
▁탈 -644
▁V -645
al -646
▁허 -647
이지 -648
ㅇㅎㅏㄴ -649
▁시키 -650
▁이용 -651
▁필요 -652
▁ㅂㅗㄴ -653
▁여기 -654
▁U -655
▁방송 -656
▁다음 -657
▁해당 -658
▁케 -659
▁ㅇㅣㄴㄷㅔ -660
ㅇㅣㄴ -661
▁기본 -662
▁지역 -663
▁철 -664
▁바로 -665
▁역시 -666
▁ㄷㅐㅎㅐ -667
▁법 -668
▁은 -669
▁처음 -670
▁기록 -671
▁ㄱㅣㄴ -672
▁워 -673
▁곳 -674
▁방어 -675
▁새 -676
▁일반 -677
▁거의 -678
▁환 -679
▁째 -680
▁그래 -681
▁2017 -682
리스 -683
▁199 -684
▁피해 -685
ㅊㅕ -686
▁혼 -687
ㄷㅡㄴ -688
▁대학 -689
▁북 -690
▁아무 -691
이스 -692
▁ㄴㅑ -693
ㅇㅡㅁㅕ -694
▁좀 -695
▁ㅂㅣ -696
▁2018 -697
▁범 -698
▁같이 -699
▁사건 -700
▁여러 -701
▁이야 -702
▁미국 -703
▁ㅇㅔㅅㅓㄴ -704
▁ㅂㅘ -705
▁특히 -706
▁이야기 -707
▁ㄴㅡㄴㅈㅣ -708
▁탄 -709
▁격 -710
ㅎㅕ -711
▁잠 -712
ㅎㅐㅆ -713
▁글 -714
▁k -715
▁없이 -716
▁부분 -717
▁싶 -718
리아 -719
▁ㅌㅗㅇㅎㅐ -720
▁몬 -721
es -722
▁영화 -723
▁ㅎㅏㅁ -724
지막 -725
▁학교 -726
▁본인 -727
▁달리 -728
▁인간 -729
▁넘 -730
▁ㄷㅙ -731
▁진행 -732
▁ㅇㅔㄴ -733
▁못하 -734
▁참고 -735
▁2019 -736
▁증가 -737
▁즉 -738
ㄹㅏ -739
▁ㅅㅡ -740
▁귀 -741
▁ㄷㅡㄹㅇㅓ -742
▁싸 -743
it -744
▁버리 -745
▁줄 -746
▁ㅇㅣㄴㅈㅣ -747
▁리그 -748
▁엘 -749
ㅇㅔ -750
▁뿐 -751
▁주인공 -752
▁ㅎㅐㄷㅗ -753
부분 -754
▁제작 -755
▁마지막 -756
ㅏㅆ -757
▁ㅂㅏㄲ -758
▁자기 -759
▁속도 -760
▁ㄷㅡㄴ -761
▁준 -762
▁작품 -763
▁그냥 -764
▁몸 -765
▁찾 -766
▁21 -767
어지 -768
▁와 -769
▁덕 -770
▁50 -771
▁X -772
ㄹㅡㄴ -773
▁밀 -774
▁둘 -775
▁놓 -776
▁내용 -777
▁ㅇㅏㅅㅓ -778
▁면 -779
▁걸 -780
▁2016 -781
▁공격력 -782
▁계속 -783
▁수준 -784
▁대표 -785
▁대부분 -786
▁인물 -787
▁ㅂㅗㅇㅣㄴㄷㅏ -788
▁& -789
▁개요 -790
is -791
re -792
▁암 -793
▁몇 -794
전히 -795
▁ㄹㅏㅁㅕㄴ -796
▁쪽 -797
▁어느 -798
▁위치 -799
▁비슷 -800
▁w -801
▁동안 -802
▁헤 -803
▁딜 -804
▁ㅅㅡㅂㄴㅣㄷㅏ -805
▁대신 -806
▁22 -807
▁국가 -808
▁ㅇㅣㄴㅎㅐ -809
▁담 -810
le -811
▁지금 -812
토리 -813
▁홈 -814
▁상당히 -815
▁평가 -816
▁엄 -817
▁축 -818
▁기사 -819
▁활동 -820
▁관계 -821
▁일부 -822
▁타이 -823
▁우리 -824
ㅐㄴ -825
▁이전 -826
▁접 -827
▁영상 -828
▁J -829
▁질 -830
▁보스 -831
▁d -832
ㄴㅏㄴ -833
▁서울 -834
ㄹㄹㅓ -835
▁규 -836
▁너무 -837
▁그대로 -838
▁체력 -839
▁24 -840
▁들어 -841
▁유닛 -842
▁감독 -843
▁ㄹㅏㄴ -844
▁최대 -845
▁문서 -846
▁성공 -847
▁슬 -848
▁기준 -849
▁ㅇㅣㄱ -850
▁낮 -851
▁시절 -852
▁홍 -853
▁팔 -854
ing -855
▁넣 -856
ic -857
▁러 -858
▁제외 -859
▁f -860
▁데미지 -861
ㄷㅡㄹ -862
▁ㅁㅡㄹㅗ -863
▁중국 -864
▁빠 -865
ㅈㅣㄴㄷㅏ -866
▁느 -867
ㅇㄱ -868
ㄴㅡㄴ -869
ㄹㅣㄴ -870
▁몬스터 -871
▁츠 -872
as -873
▁실제로 -874
▁바람 -875
▁ㅁㅏㅈ -876
▁유저 -877
▁설정 -878
▁b -879
▁붙 -880
ㅡㅁ -881
▁결과 -882
▁정보 -883
▁멤 -884
▁그녀 -885
시아 -886
▁전쟁 -887
▁지원 -888
▁갈 -889
▁승리 -890
▁이미 -891
▁ㅁㅏㄷㅏ -892
▁23 -893
▁벌 -894
▁논 -895
▁ㄱㅜ -896
▁멤버 -897
▁2015 -898
▁소속 -899
▁ㄴㅗ -900
▁자리 -901
▁언급 -902
▁님 -903
▁애니 -904
▁ㄷㅗㄹㅗ -905
▁울 -906
▁ㅈㅝ -907
▁온 -908
▁원래 -909
▁맨 -910
▁칼 -911
▁40 -912
▁ㄷㅗㄹㅗㄱ -913
▁ㅆㅡㄹ -914
▁직접 -915
▁맡 -916
▁풀 -917
▁ㅇㅡㄴㅣ -918
▁성우 -919
버지 -920
▁설명 -921
▁육 -922
▁컨 -923
▁선택 -924
▁이동 -925
▁전체 -926
▁의미 -927
▁도시 -928
▁쉽 -929
▁마음 -930
▁a -931
▁여자 -932
운드 -933
▁씩 -934
ㅜㅁ -935
▁희 -936
▁다르 -937
▁과거 -938
▁ㄴㅏㄴ -939
▁ㅅㅏㄹ -940
ㅣㅁ -941
▁ㅈㅜㄹ -942
▁머리 -943
▁괴 -944
▁협 -945
▁< -946
랜드 -947
▁플레이어 -948
▁친구 -949
▁방법 -950
▁돈 -951
▁) -952
ㅂㅜ -953
▁봉 -954
▁측 -955
▁아이템 -956
▁장면 -957
▁ㅂㅏㄺ -958
▁ㄷㅙㅆ -959
▁출연 -960
▁뉴 -961
이션 -962
▁ㄴㅏㅇㅘㅆ -963
▁ㄴㅏㅇㅗㄴㄷㅏ -964
▁버전 -965
▁차이 -966
▁스토리 -967
ㅇㅗㄴ -968
om -969
▁묘 -970
▁p -971
am -972
▁탑 -973
▁h -974
▁ㄷㅓㄹ -975
▁몰 -976
▁센 -977
가지 -978
▁꽤 -979
ㅐㅆ -980
▁갑 -981
▁즈 -982
▁대사 -983
이드 -984
어나 -985
▁ㅂㅣㅎㅐ -986
▁소리 -987
▁사랑 -988
▁ㄴㅏㅇㅗㄴ -989
▁ㄷㅡ -990
▁모드 -991
▁공식 -992
▁혹 -993
▁압 -994
▁프리 -995
ㅜㄱ -996
벤트 -997
▁이것 -998
▁조금 -999
ㄹㅇㅏ -1000
▁당하 -1001
▁송 -1002
▁개발 -1003
▁198 -1004
▁ㄸㅓㄹ -1005
▁ㄹㅓ -1006
▁대상 -1007
▁초반 -1008
el -1009
▁ㅇㅗㄹㄹㅏ -1010
▁거리 -1011
▁ㅈㅜㄴㄷㅏ -1012
학교 -1013
▁전부 -1014
▁ㄹㅗㅅㅓ -1015
▁파이 -1016
▁버스 -1017
▁o -1018
▁연구 -1019
▁침 -1020
▁씨 -1021
▁퍼 -1022
▁남자 -1023
▁ㄱㅡ -1024
▁이벤트 -1025
▁ㄹㅕㄱㅗ -1026
▁최고 -1027
▁제대로 -1028
▁속성 -1029
▁책 -1030
▁링 -1031
▁26 -1032
▁볼 -1033
▁ㄴㅏㄹ -1034
▁ㅅㅔ -1035
▁ㅇㅏㄹㄹㅕ -1036
▁2014 -1037
ㅎㅏㄹ -1038
▁궁 -1039
▁동시 -1040
▁만큼 -1041
▁n -1042
▁여성 -1043
▁듣 -1044
▁강화 -1045
▁파괴 -1046
▁유명 -1047
▁기타 -1048
이도 -1049
▁ㅆㅓ -1050
다가 -1051
▁정말 -1052
▁층 -1053
▁아버지 -1054
ㄱㅏㅆ -1055
▁스테 -1056
▁나이 -1057
▁28 -1058
▁역사 -1059
▁답 -1060
▁드래 -1061
▁소환 -1062
▁쇼 -1063
▁성능 -1064
ㄱㅏㄴ -1065
▁자주 -1066
▁학생 -1067
▁the -1068
▁27 -1069
▁아직 -1070
▁류 -1071
▁최종 -1072
▁ㅇㅢㅎㅐ -1073
▁운영 -1074
▁왜 -1075
▁이렇 -1076
▁우승 -1077
▁모르 -1078
▁회복 -1079
▁ㅈㅗ -1080
▁석 -1081
▁후반 -1082
▁색 -1083
▁당연 -1084
▁31 -1085
▁= -1086
▁출신 -1087
▁앨 -1088
▁농 -1089
▁나가 -1090
▁마이 -1091
▁ㄸㅓㄹㅇㅓ -1092
▁그런데 -1093
▁특성 -1094
▁ㄷㅡㅅ -1095
▁인터 -1096
▁강력 -1097
▁ㅎㅏㄴㄷㅏㄴㅡㄴ -1098
▁공개 -1099
▁이때 -1100
▁멀 -1101
▁빌 -1102
▁마리 -1103
▁확률 -1104
▁서로 -1105
▁사망 -1106
▁유지 -1107
▁ㄹㅏㄷㅗ -1108
리어 -1109
ㅂㅜㅌㅓ -1110
▁ㄷㅗㄹㅇㅏ -1111
▁콘 -1112
▁주로 -1113
▁그것 -1114
▁밖 -1115
▁노래 -1116
ㅇㅓㅆ -1117
▁노선 -1118
▁ㅇㅗㄴ -1119
▁ㅊㅣ -1120
▁ㅅㅐㅇㄱ -1121
ㅏㄹㅡㄴ -1122
▁ㄷㅐㄹㅗ -1123
▁ㅇㅟㅎㅏㄴ -1124
▁ㅎㅐㅆㅇㅡㄴㅏ -1125
▁ㅅㅣㅋㅕ -1126
ol -1127
▁샤 -1128
▁방식 -1129
▁ㅅㅡㄹ -1130
ㅊㅣㄴ -1131
▁잔 -1132
▁슈퍼 -1133
▁발생 -1134
▁발매 -1135
▁라인 -1136
▁000 -1137
▁나라 -1138
▁마찬 -1139
▁마찬가지 -1140
▁망 -1141
▁정신 -1142
▁특수 -1143
▁시스 -1144
▁결정 -1145
▁오히 -1146
▁영향 -1147
▁대전 -1148
▁월드 -1149
▁오히려 -1150
▁솔 -1151
▁ㅈㅓ -1152
ion -1153
et -1154
ㄹㄹㅣㄴ -1155
▁변경 -1156
▁비교 -1157
▁포함 -1158
▁영웅 -1159
▁장비 -1160
▁기존 -1161
ㅎㅏㄴㄷㅏ -1162
ac -1163
▁배우 -1164
▁역할 -1165
▁게다가 -1166
▁보통 -1167
▁ㄷㅓㄹㅏ -1168
▁ㄱㅏㄹ -1169
▁인기 -1170
▁르 -1171
머니 -1172
▁뜻 -1173
▁작중 -1174
▁먼 -1175
아가 -1176
▁32 -1177
▁찍 -1178
▁ㄱㅏㅈㅣㄴ -1179
▁들어가 -1180
▁ㅁㅜ -1181
▁마을 -1182
▁차량 -1183
▁중요 -1184
▁아예 -1185
▁어떤 -1186
▁수록 -1187
ㅇㅣ -1188
▁형태 -1189
▁Y -1190
▁억 -1191
▁일단 -1192
▁술 -1193
▁성격 -1194
▁좌 -1195
▁행동 -1196
▁세트 -1197
▁이번 -1198
▁ㅂㅓㄹㅕㅆ -1199
▁난이도 -1200
▁싱 -1201
▁ㅁㅗㅅㅎㅐㅆ -1202
il -1203
ㅁㅏ -1204
us -1205
▁대한 -1206
▁착 -1207
▁29 -1208
프트 -1209
▁섬 -1210
▁갖 -1211
▁부르 -1212
▁과정 -1213
▁주장 -1214
우스 -1215
▁모양 -1216
▁흑 -1217
▁맵 -1218
▁액 -1219
ㄹㅗㅇㅜㄴ -1220
▁v -1221
ig -1222
▁ㅈㅕㅆ -1223
▁심지 -1224
ow -1225
▁시대 -1226
▁음악 -1227
▁ㄴㅡㄹ -1228
▁부족 -1229
▁대회 -1230
▁드라 -1231
레이드 -1232
▁떨 -1233
ㅔㄴ -1234
▁이러 -1235
ㅈㅏ -1236
ed -1237
▁최초 -1238
▁ㅁㅏㄴㄷㅡㄴ -1239
▁ㅉ -1240
▁2013 -1241
▁심지어 -1242
민국 -1243
▁사회 -1244
▁구성 -1245
▁이렇게 -1246
▁발동 -1247
▁스트 -1248
▁윤 -1249
▁ㄱㅓ -1250
▁입장 -1251
ㅓㅇㅜㄴ -1252
ㄹㅕㅆ -1253
ㅇㅜㄹ -1254
▁휴 -1255
▁폐 -1256
▁ㅇㅘㅆ -1257
▁ㄷㅏㅇㅎㅐ -1258
▁확인 -1259
▁깨 -1260
▁l -1261
▁유일 -1262
▁거기 -1263
▁던 -1264
▁ㅋㅓ -1265
▁바이 -1266
▁사진 -1267
▁풍 -1268
▁다이 -1269
▁ㅁㅣ -1270
▁먼저 -1271
▁ㅈㅜㄴ -1272
▁획 -1273
▁정치 -1274
▁빛 -1275
▁애니메 -1276
▁x -1277
▁어떻 -1278
▁60 -1279
▁아래 -1280
▁항목 -1281
▁활약 -1282
▁여담 -1283
▁조건 -1284
ㅇㅕㅆ -1285
▁자세 -1286
▁모델 -1287
▁ㄷㅏㄴ -1288
▁ㅆㅏ -1289
▁훈 -1290
▁원작 -1291
▁콜 -1292
▁덕분 -1293
▁이제 -1294
▁35 -1295
ㅇㅓㄴㅏㄴ -1296
▁바뀌 -1297
▁득 -1298
▁하이 -1299
▁시스템 -1300
▁ㅇㅣㅁ -1301
ㅂㅗ -1302
▁완전히 -1303
▁대한민국 -1304
id -1305
▁굉 -1306
▁주변 -1307
▁Lv -1308
▁감소 -1309
▁까 -1310
▁ㅎㅏㅂㄴㅣㄷㅏ -1311
▁응 -1312
▁ㅇㅓㅇㅑ -1313
ㅐㄹ -1314
▁ㄴㅓㅁ -1315
▁ㅇㅟㅎㅐㅅㅓ -1316
▁그래서 -1317
▁프랑 -1318
인트 -1319
▁ㄲㅡ -1320
▁자유 -1321
▁챔 -1322
▁뭐 -1323
▁순간 -1324
▁독일 -1325
▁명칭 -1326
▁ㄹㅏㅁㅕ -1327
ay -1328
▁따르 -1329
▁얼굴 -1330
▁메이 -1331
▁전혀 -1332
▁2012 -1333
ㄱㅏㄹ -1334
▁관리 -1335
ad -1336
▁애니메이션 -1337
▁경찰 -1338
▁특징 -1339
▁우주 -1340
▁자동 -1341
▁차지 -1342
▁01 -1343
▁지나 -1344
버스 -1345
나마 -1346
▁부대 -1347
▁적용 -1348
▁할 -1349
▁교육 -1350
▁영어 -1351
▁굉장 -1352
▁ㅊㅏ -1353
▁가격 -1354
▁듀 -1355
▁r -1356
▁ㄷㅓㄹㅏㄷㅗ -1357
▁정부 -1358
▁패배 -1359
▁뛰 -1360
▁뮤 -1361
▁of -1362
▁드래곤 -1363
▁고등 -1364
ㄱㅏㄴㄷㅏ -1365
▁아군 -1366
▁마스터 -1367
▁실패 -1368
ㅕㄴ -1369
▁기간 -1370
없이 -1371
▁그렇게 -1372
소드 -1373
ㅈㅣㄹ -1374
▁오브 -1375
▁개인 -1376
▁놀 -1377
▁생산 -1378
▁힘들 -1379
▁앨범 -1380
ot -1381
▁얼마 -1382
▁ㅎㅏㄴㄷㅏㄱㅗ -1383
ㅓㅇ -1384
▁건물 -1385
▁시점 -1386
ve -1387
and -1388
▁아들 -1389
▁그나마 -1390
▁ㅅㅐㄹㅗㅇㅜㄴ -1391
▁혹은 -1392
▁뽑 -1393
▁하루 -1394
▁ㅂㅏㄲㅇㅔ -1395
▁지속 -1396
▁상승 -1397
▁ㄹㅜ -1398
▁덱 -1399
주의 -1400
▁기능 -1401
▁국내 -1402
▁처리 -1403
▁작가 -1404
▁지구 -1405
▁짓 -1406
디오 -1407
▁턴 -1408
▁TV -1409
레스 -1410
▁획득 -1411
▁발견 -1412
▁패치 -1413
▁웨 -1414
▁에피 -1415
▁기억 -1416
▁녹 -1417
▁실력 -1418
▁반응 -1419
▁y -1420
▁제국 -1421
▁소개 -1422
▁도움 -1423
▁정확 -1424
너지 -1425
▁퀘 -1426
▁참조 -1427
▁랭 -1428
▁만화 -1429
▁영국 -1430
▁동일 -1431
▁킹 -1432
20 -1433
▁대학교 -1434
▁빼 -1435
▁선발 -1436
▁현대 -1437
ㅇㅝㅆ -1438
▁반대 -1439
ㅊㅏ -1440
ㅌㅔ -1441
▁떠 -1442
▁칸 -1443
▁담당 -1444
ch -1445
▁땅 -1446
▁그림 -1447
▁출시 -1448
ㅗㄱ -1449
▁맥 -1450
▁계획 -1451
▁에피소드 -1452
▁기관 -1453
▁초기 -1454
▁ㄷㅏㄹ -1455
▁쿨 -1456
▁향 -1457
▁량 -1458
▁드라마 -1459
▁아마 -1460
▁세대 -1461
▁단계 -1462
▁홀 -1463
▁ㄷㅏㅁㅕ -1464
▁밤 -1465
▁ㅎㅏㄴㅌㅔ -1466
▁딱 -1467
un -1468
▁ㅈㅗㅊㅏ -1469
▁판매 -1470
▁또는 -1471
▁범위 -1472
▁폴 -1473
▁ㄹㅏㅅㅓ -1474
ㅁㅊ -1475
▁헬 -1476
ㄹㄹㅕㅆ -1477
▁ㅆㅡㄴ -1478
▁ㅎㅐㅆㅇㅡㅁㅕ -1479
▁퇴 -1480
▁37 -1481
▁버프 -1482
소리 -1483
▁시청 -1484
▁The -1485
▁맛 -1486
▁늘 -1487
▁2010 -1488
BS -1489
▁벨 -1490
▁ㅇㅓㄷㅗ -1491
▁패턴 -1492
▁싸우 -1493
▁따라 -1494
▁회사 -1495
▁g -1496
▁빠르 -1497
▁폭발 -1498
▁문화 -1499
▁상위 -1500
▁시기 -1501
▁빨 -1502
▁표현 -1503
▁등급 -1504
▁대미지 -1505
▁ㄴㅏㅇㅘ -1506
▁요구 -1507
▁무시 -1508
▁견 -1509
ㅎㅕㅆ -1510
▁ㅁㅔ -1511
▁타입 -1512
▁데이 -1513
▁확실 -1514
▁수비 -1515
▁80 -1516
▁어떻게 -1517
▁탐 -1518
▁ㅇㅓㄹㅕ -1519
▁500 -1520
▁라운드 -1521
▁죽이 -1522
▁습 -1523
▁진짜 -1524
▁끼 -1525
▁굉장히 -1526
▁ㅈㅜㄱ -1527
▁사고 -1528
▁움 -1529
▁St -1530
▁인정 -1531
▁잃 -1532
▁스페 -1533
ㄹㅡㄴㄷㅏ -1534
▁이미지 -1535
▁45 -1536
▁경험 -1537
▁발사 -1538
▁가족 -1539
▁어디 -1540
ㅆㅓ -1541
ER -1542
▁생활 -1543
▁주의 -1544
▁컴 -1545
▁ㄹㅕㄴㅡㄴ -1546
▁소모 -1547
▁파워 -1548
▁09 -1549
▁ㅇㅡㄹㅗㅅㅓ -1550
▁묘사 -1551
▁ㄹㅏㅇ -1552
▁만나 -1553
▁세이 -1554
▁딸 -1555
▁* -1556
ㅎㅣㄴ -1557
▁특별 -1558
▁낙 -1559
▁활용 -1560
▁ㄷㅏㅇㅎㅏㄴ -1561
▁아주 -1562
▁율 -1563
▁족 -1564
▁ㄷㅐㅎㅐㅅㅓ -1565
▁ㅈㅝㅆ -1566
▁중앙 -1567
▁대체 -1568
▁헌 -1569
ㅌㅏㄴ -1570
▁연기 -1571
▁오리 -1572
▁02 -1573
▁방향 -1574
▁03 -1575
dd -1576
▁디자 -1577
▁ㅂㅏㄺㅎㅕ -1578
▁197 -1579
▁진출 -1580
로스 -1581
▁린 -1582
▁운동 -1583
▁km -1584
▁불리 -1585
▁트리 -1586
▁한정 -1587
▁중간 -1588
▁히로 -1589
▁엑 -1590
▁ㅇㅣㄹㅏ -1591
▁싸움 -1592
▁끌 -1593
▁프랑스 -1594
▁익 -1595
▁ㅇㅓㅁㅊ -1596
▁ㅇㅓㅁㅊㅓㅇ -1597
▁데뷔 -1598
▁빈 -1599
▁믿 -1600
▁그룹 -1601
▁어렵 -1602
▁생명 -1603
인물 -1604
▁준비 -1605
▁ㄲㅡㅌ -1606
▁졸 -1607
▁그래도 -1608
▁ㅁㅗㅅㅎㅏㄴ -1609
▁겨 -1610
▁물리 -1611
▁ㄱㅣㅇㅔ -1612
▁포인트 -1613
▁핵 -1614
▁유리 -1615
ㅝㄴ -1616
▁2011 -1617
▁엔딩 -1618
▁혼자 -1619
▁ㄴㅏㅌㅏㄴ -1620
▁당연히 -1621
▁야구 -1622
▁ㄴㅔ -1623
▁ㄴㅡ -1624
▁위험 -1625
▁선거 -1626
▁흔 -1627
▁스테이지 -1628
ff -1629
▁옆 -1630
▁현실 -1631
▁다니 -1632
▁후보 -1633
▁시장 -1634
▁ㅇㅓㅁㅊㅓㅇㄴㅏㄴ -1635
▁꿈 -1636
▁등장인물 -1637
▁조합 -1638
▁논란 -1639
▁아르 -1640
ir -1641
▁05 -1642
▁숙 -1643
▁순위 -1644
통령 -1645
▁무장 -1646
▁더욱 -1647
ㅊㅝ -1648
▁어머니 -1649
▁흡 -1650
▁미션 -1651
▁퀘스트 -1652
▁죄 -1653
▁분위 -1654
▁사실상 -1655
▁떨어지 -1656
▁Z -1657
▁표기 -1658
▁크리스 -1659
ㅊㅕㅆ -1660
스크 -1661
▁브라 -1662
os -1663
▁( -1664
▁비판 -1665
▁단순 -1666
▁고등학교 -1667
▁민주 -1668
▁챔피 -1669
▁참여 -1670
▁08 -1671
▁프로그 -1672
▁구조 -1673
▁70 -1674
▁90 -1675
▁분위기 -1676
▁블랙 -1677
▁계약 -1678
ㄱㅣㄴ -1679
▁푸 -1680
▁학년 -1681
▁동료 -1682
▁훨 -1683
▁욕 -1684
▁07 -1685
im -1686
▁괜 -1687
▁ㅂㅓㄹㅣㄴㄷㅏ -1688
▁얘 -1689
▁약간 -1690
▁대통령 -1691
▁중심 -1692
ㅇㅣㄹ -1693
▁조선 -1694
▁취급 -1695
▁링크 -1696
▁ㄱㅏㅆ -1697
▁투수 -1698
▁... -1699
▁방어력 -1700
▁ㅇㅡㅁㅡㄹㅗ -1701
▁직업 -1702
▁똑 -1703
▁콤 -1704
▁48 -1705
▁보호 -1706
▁훨씬 -1707
▁ㄸㅟ -1708
▁여전히 -1709
▁결혼 -1710
비스 -1711
리카 -1712
▁HP -1713
▁시도 -1714
▁설치 -1715
▁ㅈㅏㅁㅕㄴ -1716
▁구간 -1717
▁쉬 -1718
▁계열 -1719
ter -1720
▁다양 -1721
▁나무 -1722
▁위원 -1723
▁염 -1724
머지 -1725
▁나머지 -1726
▁전용 -1727
▁불구 -1728
▁웃 -1729
▁방면 -1730
▁올리 -1731
이크 -1732
▁06 -1733
▁ㅂㅗㅇㅕㅈ -1734
▁ㅂㅗㅇㅕㅆ -1735
▁이루 -1736
니아 -1737
▁주요 -1738
▁ㄴㅡㄲ -1739
▁성적 -1740
▁디자인 -1741
▁일정 -1742
▁2000 -1743
▁축구 -1744
티브 -1745
▁300 -1746
▁흥 -1747
▁보상 -1748
▁mm -1749
▁목적 -1750
▁싫 -1751
▁탓 -1752
▁소녀 -1753
▁탱 -1754
▁연속 -1755
▁올라 -1756
▁33 -1757
▁수정 -1758
▁ㄱㅏㅇㅎㅏㄴ -1759
▁ㅅㅏ -1760
▁갤 -1761
▁배틀 -1762
▁읽 -1763
▁지하 -1764
ur -1765
▁세력 -1766
▁고려 -1767
▁론 -1768
▁ㄱㅏㄲㅏ -1769
▁쌍 -1770
▁성장 -1771
▁기대 -1772
▁대화 -1773
▁04 -1774
▁률 -1775
▁벽 -1776
▁잘못 -1777
▁삼성 -1778
▁부산 -1779
스로 -1780
▁36 -1781
▁종류 -1782
▁각각 -1783
▁이해 -1784
▁안타 -1785
▁지방 -1786
▁캠 -1787
▁e -1788
▁ㅂㅓㄹㅣㄴ -1789
▁팩 -1790
▁해결 -1791
▁당신 -1792
▁일행 -1793
▁참가 -1794
od -1795
▁의견 -1796
▁ㅇㅡㅁㅕㄴㅅㅓ -1797
▁ㅇㅣㅂㄴㅣㄷㅏ -1798
▁력 -1799
▁발표 -1800
▁th -1801
▁징 -1802
▁ㅂㅜㄹㄹㅓ -1803
▁ㄴㅜ -1804
▁부상 -1805
ㅋㅡㅁ -1806
▁전설 -1807
▁포켓 -1808
▁휘 -1809
▁느낌 -1810
▁픽 -1811
ag -1812
▁전문 -1813
▁큐 -1814
▁거대 -1815
▁you -1816
▁예정 -1817
▁ㅅㅓㄴ -1818
▁방영 -1819
▁ㅁㅏㄴㄴ -1820
▁숨 -1821
▁스피 -1822
▁힐 -1823
ㄹㅣㄹ -1824
▁짜 -1825
▁종족 -1826
▁프로그램 -1827
▁랜 -1828
▁밴 -1829
▁센터 -1830
▁ㅁㅏㄴㅋㅡㅁ -1831
▁종료 -1832
▁과학 -1833
▁운행 -1834
▁죽음 -1835
▁소설 -1836
▁부활 -1837
▁충분 -1838
▁근접 -1839
▁도중 -1840
▁각성 -1841
▁ㄱㅡㄱ -1842
지션 -1843
▁조사 -1844
▁ㅂㅘㅆ -1845
▁FC -1846
▁배치 -1847
ub -1848
▁ㅈㅕ -1849
▁ㅊㅕ -1850
▁녀 -1851
▁렌 -1852
▁최근 -1853
▁짧 -1854
▁무리 -1855
▁장착 -1856
▁빅 -1857
▁국민 -1858
▁아이돌 -1859
▁러시아 -1860
▁세상 -1861
▁옥 -1862
▁척 -1863
▁ㅃㅏ -1864
▁삭 -1865
ㅇㅓㅈㅣㄴ -1866
데이트 -1867
▁안정 -1868
▁절대 -1869
▁업데이트 -1870
▁나중 -1871
▁ㅈㅔ -1872
▁스카 -1873
▁엄청 -1874
ㅇㅣㄴㄷㅏ -1875
▁경제 -1876
▁스스로 -1877
▁제공 -1878
▁cm -1879
▁SK -1880
▁항공 -1881
▁점수 -1882
▁지도 -1883
igh -1884
▁유니 -1885
▁ㅅㅟ -1886
▁ㅂㅜㅌ -1887
▁엔진 -1888
▁제목 -1889
▁자연 -1890
▁충격 -1891
▁달성 -1892
▁정상 -1893
▁곧 -1894
▁나타 -1895
▁켄 -1896
▁틀 -1897
▁번호 -1898
▁만드 -1899
▁챔피언 -1900
▁미사 -1901
자기 -1902
▁추정 -1903
▁작전 -1904
ver -1905
▁오래 -1906
▁배경 -1907
▁번역 -1908
▁셈 -1909
▁똑같 -1910
▁ㅊㅏㅈ -1911
▁비행 -1912
▁ㅇㅓㅉ -1913
▁롤 -1914
▁목소리 -1915
▁조직 -1916
▁정체 -1917
▁가끔 -1918
ak -1919
ent -1920
▁사이트 -1921
▁목록 -1922
너스 -1923
▁미래 -1924
▁규모 -1925
▁요소 -1926
▁꾸 -1927
스타 -1928
▁포켓몬 -1929
▁ㄷㅏㅇㅎㅐㅆ -1930
▁스파 -1931
▁남성 -1932
▁196 -1933
▁레어 -1934
▁34 -1935
▁전작 -1936
▁품 -1937
▁훈련 -1938
▁전차 -1939
ㄹㄹㅣㄴㄷㅏ -1940
▁출전 -1941
▁십 -1942
▁악마 -1943
▁파티 -1944
▁전사 -1945
▁빙 -1946
▁공중 -1947
▁타격 -1948
▁굴 -1949
▁스타일 -1950
▁ㄹㅗㅂㅜㅌㅓ -1951
▁강하 -1952
▁클리어 -1953
▁만약 -1954
▁위기 -1955
ㅅㅣ -1956
▁타카 -1957
▁ㅌㅐ -1958
▁분노 -1959
▁누구 -1960
▁괜찮 -1961
▁사냥 -1962
▁변화 -1963
▁생존 -1964
▁ㅆㅡ -1965
▁에너지 -1966
▁혈 -1967
▁홈런 -1968
▁신경 -1969
▁동물 -1970
▁ㅁㅏㅈㅓ -1971
um -1972
▁ㄷㅜ -1973
▁클래 -1974
▁애초 -1975
▁ㅎㅐㅆㅇㅓㅆ -1976
▁자랑 -1977
▁득점 -1978
▁뒷 -1979
▁굳 -1980
▁묻 -1981
▁꼬 -1982
▁더불 -1983
ㅏㅈㅣㄴ -1984
▁ㅇㅛ -1985
BC -1986
리오 -1987
▁얘기 -1988
▁수상 -1989
▁연결 -1990
▁ㄴㅏㅁ -1991
▁요리 -1992
▁단점 -1993
ㅓㅅ -1994
▁75 -1995
▁ㄱㅡㄹㅐ -1996
▁필드 -1997
ㅋㅕ -1998
ut -1999
▁크리 -2000
▁한편 -2001
▁장갑 -2002
▁국제 -2003
▁로봇 -2004
▁건담 -2005
▁포지션 -2006
디어 -2007
▁소재 -2008
러스 -2009
ㅇㄱㅕ -2010
▁냉 -2011
▁특정 -2012
▁반면 -2013
▁연합 -2014
ec -2015
▁기동 -2016
▁덤 -2017
▁시험 -2018
▁vs -2019
▁ㄴㅣㄲㅏ -2020
▁ㅎㅏㄴㄷㅔ -2021
▁판정 -2022
▁ㅇㅏㅍ -2023
▁무엇 -2024
▁비용 -2025
▁38 -2026
▁런 -2027
▁장소 -2028
▁in -2029
▁전기 -2030
▁공연 -2031
▁ㄱㅏㅈㅕ -2032
▁예상 -2033
▁ㅎㅏㄴㄷㅏㅁㅕㄴ -2034
▁사항 -2035
▁ㄷㅡㅅㅇㅣ -2036
라지 -2037
▁롯 -2038
▁ㅌㅓ -2039
▁싱글 -2040
ㅇㅏㄴ -2041
▁항상 -2042
▁목표 -2043
▁움직 -2044
▁무대 -2045
▁ㅇㅣㄱㅔ -2046
▁화력 -2047
▁맹 -2048
▁정작 -2049
▁옵 -2050
▁최소 -2051
▁멸 -2052
▁연출 -2053
▁기체 -2054
▁ㄷㅔ -2055
▁사거리 -2056
▁관심 -2057
▁사업 -2058
▁시설 -2059
▁55 -2060
▁유럽 -2061
▁인터뷰 -2062
▁ㄸㅓㄴ -2063
▁텐 -2064
▁2009 -2065
▁교체 -2066
▁던전 -2067
▁내부 -2068
▁ㅃㅏㄹㅡㄴ -2069
▁하늘 -2070
▁비밀 -2071
▁지휘 -2072
▁ㄴㅐㄹㅕ -2073
▁꽃 -2074
▁제일 -2075
▁ㅌㅏ -2076
▁칭 -2077
▁카이 -2078
▁야마 -2079
ㅕㄹ -2080
▁사격 -2081
동안 -2082
▁ㅇㅕㅆㅇㅡㄴㅏ -2083
▁엘리 -2084
▁찬 -2085
▁Q -2086
▁별로 -2087
▁철도 -2088
▁ㅊㅐ -2089
▁인사 -2090
ㄹㅣㄴㄷㅏ -2091
▁to -2092
▁변신 -2093
▁란 -2094
▁다크 -2095
ST -2096
ro -2097
▁ㅇㅣㄱㅓㄹ -2098
▁다리 -2099
▁ㅅㅣㅋㅕㅆ -2100
▁나름 -2101
▁수치 -2102
▁록 -2103
▁기계 -2104
▁수도 -2105
▁정식 -2106
▁쓰이 -2107
ㅇㅓㄴㅏㅆ -2108
아오 -2109
▁벤 -2110
▁작곡 -2111
▁스포 -2112
▁시전 -2113
▁결승 -2114
▁카운 -2115
▁파일 -2116
▁_ -2117
▁보내 -2118
▁ㅋㅡㄹ -2119
▁옷 -2120
▁교통 -2121
▁비롯 -2122
▁오버 -2123
ㄱㅕㅆ -2124
나라 -2125
▁ㄸㅏ -2126
▁ㅎㅣㅁ -2127
▁놈 -2128
▁ㄴㅑㄱㅗ -2129
▁따로 -2130
▁케이 -2131
▁그만 -2132
▁각종 -2133
▁오늘 -2134
▁부여 -2135
▁황제 -2136
▁ㅇㅡㄹㅕ -2137
▁마나 -2138
▁확정 -2139
▁졸업 -2140
▁레인 -2141
▁코스 -2142
▁ㄴㅏㅇㅗㄹ -2143
▁지상 -2144
▁갑자기 -2145
▁이탈 -2146
▁ㅊㅏㅈㅇㅏ -2147
▁병력 -2148
▁일러 -2149
▁ㅈㅓㄴ -2150
▁전반 -2151
▁흐 -2152
▁치명 -2153
▁따라서 -2154
▁진화 -2155
▁이쪽 -2156
▁ㄱㅏㄴ -2157
▁북한 -2158
▁끊 -2159
▁특이 -2160
▁도로 -2161
▁기업 -2162
▁제한 -2163
▁라이브 -2164
▁발전 -2165
▁돌아가 -2166
▁ㄴㅐㄴ -2167
▁아키 -2168
▁왼 -2169
▁건설 -2170
▁쯤 -2171
▁시티 -2172
▁무슨 -2173
▁언제 -2174
ㄷㅓㄴ -2175
▁압도 -2176
▁오르 -2177
▁이외 -2178
▁의외 -2179
▁ㅁㅓㄴ -2180
아내 -2181
▁사정 -2182
▁ㄱㅜㄴ -2183
▁ㅅㅣㅋㅣㄴ -2184
em -2185
▁넓 -2186
▁EX -2187
▁이기 -2188
▁ㅇㅣㄴㄱㅏ -2189
▁가사 -2190
▁외국 -2191
▁2008 -2192
▁나이트 -2193
▁ㅇㅑㄱ -2194
▁역대 -2195
▁일러스트 -2196
▁아파 -2197
▁ㅃㅜㄴ -2198
▁감정 -2199
▁ㅊㅣㄴ -2200
▁탈출 -2201
▁주문 -2202
▁삭제 -2203
▁직전 -2204
▁지지 -2205
▁저항 -2206
ight -2207
▁ㅇㅏㅇㅑ -2208
▁티어 -2209
▁임무 -2210
▁납 -2211
▁마치 -2212
▁이닝 -2213
▁고양 -2214
▁ㄷㅓㄴㅣ -2215
▁프레 -2216
▁지키 -2217
라인 -2218
▁골드 -2219
▁위력 -2220
▁자원 -2221
▁보유 -2222
어로 -2223
▁아카 -2224
AN -2225
▁ㅅㅡㄹㅓㅇㅜㄴ -2226
▁로드 -2227
▁ㅇㅏㄷㅗ -2228
▁ㅂㅘㄷㅗ -2229
▁사례 -2230
▁집중 -2231
▁세기 -2232
▁서비스 -2233
▁점프 -2234
▁표시 -2235
▁쏘 -2236
▁깊 -2237
▁노트 -2238
▁어둠 -2239
AR -2240
▁ㄷㅡㄹㅓㄴ -2241
▁파트 -2242
▁잉 -2243
▁아프 -2244
▁전국 -2245
▁인구 -2246
▁ㄱㅗㄴ -2247
▁상관 -2248
▁효율 -2249
▁명령 -2250
▁ㅃㅏㄹ -2251
▁분류 -2252
▁작업 -2253
▁페이 -2254
▁기회 -2255
▁랭크 -2256
▁완전 -2257
▁인식 -2258
▁아스 -2259
젝트 -2260
▁공간 -2261
▁연습 -2262
▁오른 -2263
▁히어로 -2264
▁생기 -2265
▁뇌 -2266
▁루트 -2267
▁회피 -2268
▁ㅍㅣ -2269
▁물건 -2270
ap -2271
▁도전 -2272
▁잠시 -2273
▁가수 -2274
▁경쟁 -2275
▁ㅇㅣㄱㅓㄴ -2276
▁극장 -2277
▁화면 -2278
▁42 -2279
▁ㅎㅑ -2280
▁장점 -2281
▁옛 -2282
▁녀석 -2283
ON -2284
▁41 -2285
▁부모 -2286
▁컬 -2287
▁사기 -2288
▁션 -2289
▁폰 -2290
▁별명 -2291
▁컵 -2292
▁촬 -2293
▁군사 -2294
▁ㄴㅓㅁㅇㅓ -2295
▁개념 -2296
▁레드 -2297
▁ㅇㅓㅇㅛ -2298
▁래 -2299
그레이드 -2300
▁업그레이드 -2301
▁행정 -2302
▁단어 -2303
▁스럽 -2304
▁병원 -2305
▁근처 -2306
▁몽 -2307
▁인천 -2308
▁추천 -2309
▁194 -2310
▁이어 -2311
▁No -2312
▁발언 -2313
▁ㄱㅏㄲㅏㅇㅜㄴ -2314
▁ㄹㅕㅁㅕㄴ -2315
▁오프 -2316
▁전력 -2317
ㅈㅕㅅㅓ -2318
▁ㄱㅘㄴ -2319
ㄹㄹㅣㄹ -2320
▁살인 -2321
▁의식 -2322
▁포기 -2323
▁39 -2324
▁무려 -2325
▁펜 -2326
▁꾼 -2327
▁ㅇㅡㄴㄷㅔ -2328
ㄷㅏㄴ -2329
▁불가 -2330
▁Ch -2331
▁아파트 -2332
▁ㅈㅛ -2333
ㄹㅓ -2334
▁> -2335
▁크기 -2336
▁전개 -2337
▁신체 -2338
▁정리 -2339
▁킬 -2340
학생 -2341
▁ㅇㅓㄹㅣㄴ -2342
▁미니 -2343
▁', -2344
▁판단 -2345
어들 -2346
▁강제 -2347
▁주제 -2348
▁촬영 -2349
▁노력 -2350
▁본래 -2351
▁밑 -2352
▁히트 -2353
▁고정 -2354
▁밀리 -2355
ul -2356
ㅅㅜㄹ -2357
▁부정 -2358
▁붕 -2359
▁타임 -2360
▁kg -2361
▁ㅁㅗㄹㄹㅏ -2362
▁이하 -2363
라스 -2364
페이지 -2365
▁st -2366
▁44 -2367
▁라이트 -2368
▁공주 -2369
▁셋 -2370
▁병사 -2371
▁구하 -2372
▁데스 -2373
▁선생 -2374
▁버그 -2375
무리 -2376
▁롭 -2377
▁평균 -2378
▁ㅅㅣㅁ -2379
ce -2380
▁스코 -2381
▁멘 -2382
ik -2383
▁독립 -2384
ㅂㅓㄹ -2385
▁최강 -2386
▁2020 -2387
▁; -2388
▁왕국 -2389
▁제거 -2390
▁분명 -2391
▁학원 -2392
▁밝 -2393
▁홈페이지 -2394
▁폭탄 -2395
▁구매 -2396
000 -2397
▁조종 -2398
▁꼭 -2399
▁ㅁㅔㅇㅣㄴ -2400
▁베이 -2401
▁ㅅㅐㅇㄱㅕㅆ -2402
▁ㅅㅣㅋㅣㄹ -2403
▁제품 -2404
▁99 -2405
▁군대 -2406
▁동생 -2407
▁마법사 -2408
▁롯데 -2409
▁가드 -2410
▁LG -2411
▁위키 -2412
▁ㄲㅡㅌㄴ -2413
다리 -2414
▁닌 -2415
▁중반 -2416
▁고속 -2417
▁리더 -2418
▁윈 -2419
▁ㅁㅝㄴ -2420
▁예전 -2421
▁여행 -2422
요일 -2423
▁행위 -2424
▁곤 -2425
▁짐 -2426
▁단체 -2427
다니 -2428
▁음식 -2429
믹스 -2430
▁부탁 -2431
▁겪 -2432
▁노리 -2433
▁떡 -2434
▁웹 -2435
▁완벽 -2436
▁옵션 -2437
▁칠 -2438
▁전자 -2439
▁2007 -2440
▁현상 -2441
트리 -2442
▁ㄹㅣ -2443
▁195 -2444
▁가문 -2445
▁수행 -2446
▁대구 -2447
ㅅㅓㄴ -2448
all -2449
▁탈락 -2450
▁43 -2451
▁원인 -2452
드시 -2453
▁요시 -2454
▁그야 -2455
▁완성 -2456
▁구분 -2457
▁새로 -2458
야마 -2459
▁ㅇㅗㄹㄹㅕ -2460
▁반드시 -2461
IN -2462
▁일어나 -2463
▁겸 -2464
▁ㅈㅣㄹ -2465
▁대기 -2466
ㅐㄴㄷㅏ -2467
▁붉 -2468
▁의원 -2469
▁바다 -2470
모토 -2471
▁드러 -2472
▁통합 -2473
▁개그 -2474
란드 -2475
▁주민 -2476
▁ㅇㅔㄱㅔㅅㅓ -2477
▁전략 -2478
이치 -2479
▁바꾸 -2480
▁직후 -2481
▁차원 -2482
▁MA -2483
▁크로 -2484
▁재료 -2485
▁복귀 -2486
▁하드 -2487
▁단지 -2488
▁템 -2489
▁마사 -2490
▁환경 -2491
▁펼 -2492
nd -2493
▁쥬 -2494
말로 -2495
▁광역 -2496
▁걱 -2497
▁넘어 -2498
▁그야말로 -2499
르트 -2500
▁마무리 -2501
▁치료 -2502
▁ㅇㅡㄹㅗㅆㅓ -2503
▁기반 -2504
▁끝나 -2505
▁ㅅㅣㅋㅣㄴㄷㅏ -2506
▁걱정 -2507
▁ㅁㅗㅇㅏ -2508
튜브 -2509
이어 -2510
▁ㅈㅏㄹ -2511
타임 -2512
러리 -2513
▁연재 -2514
▁뜨 -2515
▁밸 -2516
▁인도 -2517
트라 -2518
▁ㄷㅗㅇㅘ -2519
▁한글 -2520
▁해군 -2521
▁46 -2522
▁걸리 -2523
▁서버 -2524
▁느끼 -2525
▁47 -2526
▁다행 -2527
▁ㅈㅏㅁㅏ -2528
▁정규 -2529
▁지정 -2530
▁밥 -2531
▁연장 -2532
▁2006 -2533
▁다수 -2534
▁대장 -2535
▁해외 -2536
▁멜 -2537
▁도착 -2538
▁보병 -2539
▁심각 -2540
▁평범 -2541
▁우선 -2542
조건 -2543
▁ㅂㅗㅇㅕㅈㅜㄴㄷㅏ -2544
▁빨리 -2545
▁워낙 -2546
▁공포 -2547
ㅇㅓㄴㅏ -2548
▁보너스 -2549
▁ㅌㅏㄴ -2550
▁월드컵 -2551
▁타이틀 -2552
▁조작 -2553
▁미사일 -2554
▁ㅁㅏㅈㅊㅝ -2555
▁아무리 -2556
▁포스 -2557
▁ㅋㅔ -2558
▁ㅅㅐㅇㄱㅣㄴ -2559
▁나타나 -2560
▁유사 -2561
▁추측 -2562
▁실험 -2563
▁ㅈㅏㅁㅏㅈㅏ -2564
th -2565
▁점점 -2566
▁ㄸㅟㅇㅓㄴㅏㄴ -2567
▁샷 -2568
▁털 -2569
▁ㄱㅡㄱㅓㄹ -2570
▁51 -2571
▁캡 -2572
▁ㅈㅏㅂ -2573
▁닥 -2574
▁가면 -2575
▁굳이 -2576
▁타자 -2577
tt -2578
루스 -2579
▁디스 -2580
▁이끌 -2581
▁상세 -2582
▁코스트 -2583
▁ㅇㅕㅆㅇㅡㅁㅕ -2584
▁바라 -2585
▁필살 -2586
▁다소 -2587
ㅝㅆ -2588
▁맞추 -2589
ㄸㅡㄹ -2590
ㄱㅎㅕ -2591
▁폼 -2592
▁접근 -2593
▁재미 -2594
▁성향 -2595
▁무조건 -2596
▁ㄱㅓㄹㄹㅗ -2597
▁닉 -2598
▁중학교 -2599
▁실점 -2600
▁한계 -2601
▁교수 -2602
▁ㅇㅓㄹㅕㅇㅜㄴ -2603
▁의사 -2604
▁대결 -2605
▁로마 -2606
op -2607
▁ㅈㅣㄴㅏㄴ -2608
▁영혼 -2609
▁ㄴㅑㄴㅡㄴ -2610
▁부하 -2611
▁잭 -2612
▁ㅋㅣ -2613
▁톤 -2614
▁무한 -2615
운데 -2616
▁ㄴㅏㅃ -2617
▁국회 -2618
▁SP -2619
▁복수 -2620
st -2621
▁비중 -2622
▁ㅇㅣㄹㅇㅡ -2623
▁ㄸㅓ -2624
▁사무 -2625
▁ㄱㅏㄴㄷㅏ -2626
▁ㄱㅣㄹ -2627
▁ㅂㅓㄹㅕ -2628
▁암살 -2629
▁정확히 -2630
시마 -2631
▁보조 -2632
▁함정 -2633
▁아내 -2634
▁죠 -2635
▁댄 -2636
▁평소 -2637
▁정의 -2638
▁엠 -2639
▁마르 -2640
▁의하 -2641
ation -2642
▁인터넷 -2643
▁ㅈㅜ -2644
▁광고 -2645
▁늦 -2646
▁장르 -2647
ra -2648
▁ㅅㅔㅇㅛ -2649
▁마력 -2650
▁와중 -2651
▁범죄 -2652
▁봉인 -2653
▁숲 -2654
▁투표 -2655
▁다루 -2656
▁1000 -2657
ack -2658
▁확장 -2659
▁혁 -2660
무라 -2661
ia -2662
▁운용 -2663
▁채널 -2664
▁사령 -2665
ㅇㅡㄹ -2666
▁깔 -2667
▁전화 -2668
ㄹㅡㄹ -2669
▁ㅂㅏㄺㅎㅕㅆ -2670
▁ㅂㅕㄴ -2671
▁도망 -2672
▁이곳 -2673
▁합류 -2674
▁공략 -2675
▁ㅍㅜㄹ -2676
▁도쿄 -2677
나이 -2678
▁소련 -2679
▁장치 -2680
▁앙 -2681
▁and -2682
▁가치 -2683
▁빵 -2684
▁쓸 -2685
▁몇몇 -2686
▁ㄴㅐㅆ -2687
▁검사 -2688
ㅅㅜㄹㅗㄱ -2689
▁기념 -2690
oc -2691
▁금지 -2692
▁낫 -2693
▁아웃 -2694
▁지배 -2695
▁살아 -2696
▁시청자 -2697
▁종종 -2698
▁이적 -2699
▁다운 -2700
로그 -2701
▁초등 -2702
▁올라가 -2703
▁펼치 -2704
▁가운데 -2705
▁150 -2706
▁소유 -2707
▁정당 -2708
▁충분히 -2709
▁도입 -2710
ㅇㅎㅏㄹ -2711
▁65 -2712
▁비하 -2713
▁오리지 -2714
▁실수 -2715
▁특유 -2716
▁ㅃㅏㅈㅕ -2717
▁네이 -2718
▁플래 -2719
시브 -2720
▁즐 -2721
▁유튜브 -2722
▁미드 -2723
▁보컬 -2724
▁코드 -2725
▁사쿠 -2726
▁근데 -2727
▁브레이 -2728
▁VS -2729
▁클럽 -2730
▁대로 -2731
▁책임 -2732
뜨리 -2733
▁소년 -2734
▁화염 -2735
▁시민 -2736
▁본격 -2737
▁기지 -2738
▁프로젝트 -2739
▁투입 -2740
▁저격 -2741
▁고대 -2742
▁개조 -2743
▁뉴스 -2744
▁ㅈㅣㄴㄷㅏ -2745
▁무사 -2746
▁ㄴㅡㄴㄱㅏ -2747
▁시나 -2748
▁ㅇㅣㄴㅎㅏㄴ -2749
▁전원 -2750
▁괴물 -2751
▁뻔 -2752
▁종교 -2753
▁형제 -2754
▁ㅊㅣㄹ -2755
▁얼마나 -2756
ie -2757
▁에이 -2758
▁수많 -2759
ill -2760
▁희생 -2761
▁%, -2762
▁셀 -2763
▁행사 -2764
▁로스 -2765
▁고양이 -2766
▁요청 -2767
▁스포츠 -2768
▁인상 -2769
ㅎㅐㅅㅓ -2770
▁릴 -2771
▁벗 -2772
▁내려 -2773
▁앤 -2774
비아 -2775
▁이탈리아 -2776
▁들어오 -2777
로드 -2778
▁대중 -2779
▁발음 -2780
▁사태 -2781
▁원정 -2782
▁터미 -2783
▁카메 -2784
▁잇 -2785
▁상징 -2786
▁2005 -2787
라이더 -2788
▁52 -2789
일러 -2790
▁KBS -2791
▁종합 -2792
▁II -2793
▁밴드 -2794
▁ㅎㅡㄹ -2795
art -2796
▁구역 -2797
▁엄청나 -2798
▁숫 -2799
▁흉 -2800
▁넥 -2801
▁클래스 -2802
▁대형 -2803
▁64 -2804
▁군단 -2805
▁가리 -2806
▁올림 -2807
▁대비 -2808
▁외모 -2809
▁위협 -2810
▁ㅁㅝㄴㄱㅏ -2811
▁ㄷㅚㄴㄷㅏㄴㅡㄴ -2812
▁ㅎㅣㅁㄷㅡㄴ -2813
텐츠 -2814
▁스크 -2815
▁ㄱㅏㅇㅎㅐ -2816
▁ㄴㅏㄹㄹㅕ -2817
▁방패 -2818
▁조정 -2819
▁그저 -2820
▁움직이 -2821
▁이사 -2822
▁인원 -2823
▁패러 -2824
▁ㅎㅐㅈㅕㅆ -2825
▁서브 -2826
니티 -2827
▁서술 -2828
▁생물 -2829
▁ㅅㅗㄱ -2830
▁불명 -2831
ㅇㅗㄴㄷㅏ -2832
▁자료 -2833
▁최후 -2834
▁일본어 -2835
▁형식 -2836
▁관통 -2837
▁내리 -2838
▁약점 -2839
▁가깝 -2840
▁컨셉 -2841
▁몹 -2842
▁광주 -2843
▁ㅅㅏㄹㅏ -2844
▁ㄱㅗㅈㅏ -2845
▁달러 -2846
▁You -2847
▁행성 -2848
▁2004 -2849
런스 -2850
▁ㅂㅐ -2851
▁ㄷㅏㄹㄹㅕ -2852
ri -2853
▁정책 -2854
▁ㅍㅓ -2855
▁전술 -2856
▁통신 -2857
▁상자 -2858
uby -2859
▁거부 -2860
▁액션 -2861
▁모험 -2862
시스 -2863
▁비고 -2864
ab -2865
▁49 -2866
▁장난 -2867
▁사라지 -2868
▁쌓 -2869
▁젊 -2870
▁미리 -2871
RA -2872
▁오리지널 -2873
▁빠지 -2874
▁AP -2875
▁박사 -2876
▁의도 -2877
▁명중 -2878
▁반복 -2879
▁간단 -2880
▁인형 -2881
▁ㅅㅜㅁ -2882
▁56 -2883
▁트랙 -2884
▁눈물 -2885
▁쿨타임 -2886
로우 -2887
▁회장 -2888
est -2889
▁ST -2890
래프트 -2891
▁개월 -2892
▁매일 -2893
▁ㄴㅡㄴㄷㅏㄴㅡㄴ -2894
▁400 -2895
▁ruby -2896
▁의지 -2897
▁등록 -2898
▁영입 -2899
▁해석 -2900
▁공동 -2901
▁구단 -2902
▁대응 -2903
▁마크 -2904
▁지적 -2905
▁ㅇㅘㅅㅓ -2906
▁MBC -2907
▁이치 -2908
▁언론 -2909
▁튀 -2910
▁ㄴㅏㅆ -2911
▁리어 -2912
▁ㅇㅜ -2913
▁오토 -2914
▁In -2915
▁dd -2916
▁열차 -2917
▁지명 -2918
▁ㄲㅏ -2919
▁목숨 -2920
▁오랜 -2921
▁ㅆㅡㄹㅓ -2922
▁개봉 -2923
▁주력 -2924
▁그때 -2925
▁찌 -2926
▁원거리 -2927
▁코어 -2928
ttp -2929
▁ㅁㅏㄴㄷㅡㄹ -2930
AL -2931
스케 -2932
▁선언 -2933
▁http -2934
▁85 -2935
▁ㅈㅣㄴㅏ -2936
▁웬 -2937
▁한국어 -2938
▁혐 -2939
▁소식 -2940
▁언어 -2941
▁차례 -2942
▁윌 -2943
▁ㅇㅣㄹㅜ -2944
▁ㅇㅣㄹㅏㄱㅗ -2945
▁흡수 -2946
자리 -2947
▁더블 -2948
▁데이터 -2949
▁거짓 -2950
▁사상 -2951
ㅊㅣㄹ -2952
▁설계 -2953
▁바닥 -2954
▁ㄴㅡㄴㅑ -2955
▁택 -2956
▁ㅇㅣㅇㅓ -2957
▁피하 -2958
▁승부 -2959
▁방해 -2960
▁자동차 -2961
▁역전 -2962
▁ㅂㅏㄲㅟ -2963
▁나쁘 -2964
▁탯 -2965
▁193 -2966
▁텔 -2967
▁53 -2968
▁혜 -2969
▁ㄱㅘㄴㅎㅏㄴ -2970
▁54 -2971
▁카즈 -2972
▁2002 -2973
리트 -2974
▁카페 -2975
퓨터 -2976
▁살아남 -2977
▁사과 -2978
▁대단 -2979
▁엄마 -2980
▁디지 -2981
▁여름 -2982
▁연계 -2983
▁숫자 -2984
▁모티브 -2985
▁핑 -2986
▁필살기 -2987
▁긴 -2988
▁닮 -2989
▁ㅋㅣㄹ -2990
ㅓㄱ -2991
▁저주 -2992
▁기자 -2993
▁앉 -2994
▁이르 -2995
▁미스 -2996
▁소울 -2997
▁진입 -2998
▁불과 -2999
ㅇㅡㄴㅣ -3000
▁체육 -3001
▁황금 -3002
▁PC -3003
ㅏㅈㅣㄴㄷㅏ -3004
▁수리 -3005
▁상대방 -3006
▁완료 -3007
▁유우 -3008
오스 -3009
▁질문 -3010
▁쿄 -3011
▁ㄲㅡㄹ -3012
▁텍 -3013
▁가정 -3014
▁장기 -3015
▁수호 -3016
▁산업 -3017
▁생성 -3018
▁착용 -3019
▁던지 -3020
▁적절 -3021
▁Sh -3022
▁해제 -3023
▁공화 -3024
▁컴퓨터 -3025
▁단순히 -3026
▁덩 -3027
동생 -3028
▁터미널 -3029
ㅇㅕㅅㅓ -3030
dddd -3031
▁dddddd -3032
▁조각 -3033
ㅂㅊㅕ -3034
▁떠나 -3035
▁ㅆㅓㅆ -3036
▁모리 -3037
▁표정 -3038
▁드라이 -3039
▁필수 -3040
니스 -3041
▁카운터 -3042
▁꼴 -3043
▁테마 -3044
▁에이스 -3045
▁딱히 -3046
▁실시 -3047
▁컷 -3048
▁독자 -3049
▁의심 -3050
▁편성 -3051
▁ff -3052
▁선정 -3053
▁행적 -3054
▁유도 -3055
ㅎㅣㄴㄷㅏ -3056
▁비트 -3057
▁선물 -3058
▁확실히 -3059
up -3060
▁습격 -3061
▁무력 -3062
▁전환 -3063
ㄷㅇㅏ -3064
▁감안 -3065
▁당장 -3066
▁드립 -3067
▁페르 -3068
ㄴㅏ -3069
▁훌 -3070
▁꾸준 -3071
▁왼쪽 -3072
▁특기 -3073
▁ㅇㅜㅁ -3074
▁저지 -3075
▁날개 -3076
▁뮤직 -3077
▁인류 -3078
▁집단 -3079
▁패시브 -3080
▁기점 -3081
▁함대 -3082
▁솔로 -3083
▁소비 -3084
▁안전 -3085
▁퓨 -3086
▁맺 -3087
▁개선 -3088
▁제도 -3089
▁보다 -3090
▁박스 -3091
▁re -3092
▁i -3093
▁횟 -3094
▁높이 -3095
▁넘어가 -3096
▁연주 -3097
▁ㅇㅡㄹㅈㅣ -3098
▁값 -3099
▁59 -3100
▁덜 -3101
▁쥐 -3102
▁잠깐 -3103
▁ㅍㅕㄹ -3104
▁가스 -3105
▁위원회 -3106
▁확보 -3107
▁바르 -3108
▁사장 -3109
▁행복 -3110
▁MP -3111
▁경력 -3112
▁회전 -3113
▁심하 -3114
VE -3115
▁ㅁㅗㄹㅡㄴㄷㅏ -3116
▁구축 -3117
▁돌파 -3118
▁코치 -3119
▁ㅆㅡㄴㄷㅏ -3120
▁마츠 -3121
▁지옥 -3122
▁스킨 -3123
▁ㅇㅡㄹㅗㅂㅜㅌㅓ -3124
▁테크 -3125
▁설립 -3126
▁Re -3127
▁랍 -3128
▁스마 -3129
▁제압 -3130
▁올림픽 -3131
▁거두 -3132
▁장군 -3133
▁띄 -3134
▁일종 -3135
▁시나리오 -3136
ate -3137
▁블루 -3138
▁전통 -3139
▁Sp -3140
▁기어 -3141
▁가슴 -3142
▁58 -3143
레이션 -3144
▁ㅇㅗㄹ -3145
▁안드 -3146
▁시내 -3147
▁상처 -3148
▁통과 -3149
▁하위 -3150
ard -3151
▁대답 -3152
▁ㅅㅣㄴ -3153
▁멀티 -3154
▁적극 -3155
▁라디오 -3156
▁희망 -3157
▁ㅂㅏㄹ -3158
▁횟수 -3159
▁듀얼 -3160
▁ㅇㅓㄷ -3161
▁마침 -3162
▁공항 -3163
▁120 -3164
▁수사 -3165
▁셰 -3166
▁ㅂㅗㄴㅐ -3167
ㅇㅝㅅㅓ -3168
▁공사 -3169
▁패스 -3170
▁인지 -3171
▁체제 -3172
모리 -3173
▁ㄴㅐㄹ -3174
▁초대 -3175
▁촉 -3176
AT -3177
▁ㄹㅗㅆㅓ -3178
▁딜러 -3179
▁편집 -3180
▁방문 -3181
드리 -3182
ang -3183
OR -3184
▁ㄷㅡㄹㅇㅓㄱㅏ -3185
▁문명 -3186
▁57 -3187
▁버튼 -3188
▁비디오 -3189
▁펀 -3190
▁의문 -3191
▁해금 -3192
연히 -3193
ㅇㅗㄹ -3194
▁위주 -3195
▁롱 -3196
▁리스 -3197
▁현장 -3198
▁이어지 -3199
▁66 -3200
▁95 -3201
▁수원 -3202
▁케이스 -3203
▁ㄷㅚㅁ -3204
▁태도 -3205
▁동맹 -3206
▁댓 -3207
▁ㅉㅣ -3208
트롤 -3209
▁어찌 -3210
▁ㅈㅣㅋㅕ -3211
▁ㅁㅗㅅㅎㅏㄴㄷㅏ -3212
▁2003 -3213
▁뚫 -3214
▁고통 -3215
▁코너 -3216
▁작성 -3217
▁처치 -3218
▁진영 -3219
▁대놓 -3220
▁투자 -3221
▁콩 -3222
▁마시 -3223
▁뱀 -3224
▁전장 -3225
▁갱 -3226
▁태양 -3227
▁크로스 -3228
▁분리 -3229
▁장전 -3230
▁유키 -3231
▁계기 -3232
▁비난 -3233
▁마왕 -3234
▁노동 -3235
▁지니 -3236
▁ㄲㅐ -3237
▁예선 -3238
▁핸 -3239
▁스페인 -3240
▁한자 -3241
ㄷㅏㄱㅏ -3242
▁제안 -3243
▁최악 -3244
IA -3245
르크 -3246
▁랩 -3247
▁제로 -3248
▁육군 -3249
▁ㅇㅡㄹㄲㅏ -3250
▁공부 -3251
▁에스 -3252
ㄱㅓㄴ -3253
▁료 -3254
▁고유 -3255
▁가까 -3256
▁후속 -3257
▁삼국 -3258
▁스위 -3259
ㅅㅣㄴ -3260
PS -3261
▁겨우 -3262
▁게시 -3263
▁스펙 -3264
▁레이저 -3265
▁be -3266
▁ㄱㅡㄹㅐㄷㅗ -3267
ess -3268
▁시체 -3269
ok -3270
▁ㅎㅟ -3271
▁배신 -3272
▁회의 -3273
ant -3274
▁평화 -3275
▁Bl -3276
▁오른쪽 -3277
▁ㄴㅡㄲㅕ -3278
▁BG -3279
ㅊㅣㄴㄷㅏ -3280
▁ㅇㅗㄻ -3281
▁110 -3282
▁개최 -3283
▁가르 -3284
▁성인 -3285
▁ㄸㅏㄹㅡㄴ -3286
▁빌리 -3287
▁그라 -3288
▁아머 -3289
▁나카 -3290
▁조준 -3291
▁게이지 -3292
▁견제 -3293
▁ㅎㅑㅇㅎㅐ -3294
▁on -3295
▁ㅇㅔㄱㅔㄴ -3296
▁여부 -3297
ㄱㅣㄹ -3298
▁엉 -3299
▁룰 -3300
▁ㅈㅡㄹ -3301
▁용병 -3302
▁멀리 -3303
▁점령 -3304
▁컨트롤 -3305
▁궤 -3306
▁기획 -3307
▁궁극 -3308
▁탑재 -3309
▁젤 -3310
▁타이밍 -3311
ell -3312
▁청소 -3313
▁극장판 -3314
▁매치 -3315
▁ㅈㅓㄴㅎㅐ -3316
▁보급 -3317
▁ㅈㅣㄴㅣㄴ -3318
▁봄 -3319
▁카메라 -3320
IC -3321
▁SS -3322
▁락 -3323
▁or -3324
▁진실 -3325
▁ㅅㅟㅇㅜㄴ -3326
머리 -3327
▁베이스 -3328
▁끝내 -3329
▁애매 -3330
▁최대한 -3331
▁ㄱㅜㅎㅐ -3332
ct -3333
▁충전 -3334
▁62 -3335
▁뿌 -3336
▁직원 -3337
▁남편 -3338
▁ㅂㅜㄹㅡㄴㄷㅏ -3339
▁에어 -3340
▁373 -3341
마스 -3342
▁관광 -3343
ue -3344
ine -3345
▁기분 -3346
▁정령 -3347
라리 -3348
▁그레이 -3349
▁날리 -3350
▁체인 -3351
▁순서 -3352
▁게이 -3353
▁보도 -3354
▁스피드 -3355
▁댄스 -3356
▁은퇴 -3357
▁후반부 -3358
▁수단 -3359
▁온라인 -3360
▁오스 -3361
의원 -3362
▁쓰러 -3363
▁모션 -3364
▁한화 -3365
▁ㅎㅐㅈㅣㄴ -3366
▁.... -3367
▁하트 -3368
▁터지 -3369
래도 -3370
▁아무래도 -3371
▁NP -3372
▁멸망 -3373
▁레전 -3374
▁허용 -3375
▁튜 -3376
▁트레 -3377
▁교회 -3378
▁Al -3379
▁격투 -3380
▁세계관 -3381
▁밸런스 -3382
▁ㄴㅜㄱㅏ -3383
▁민주당 -3384
▁약속 -3385
무원 -3386
▁보수 -3387
▁미치 -3388
ist -3389
▁알렉 -3390
▁얼음 -3391
▁76 -3392
▁스코어 -3393
▁ㄱㅡㄱㅔ -3394
▁ㅇㅣㄹㅇㅡㅋ -3395
▁ㅋㅜ -3396
▁트위 -3397
▁여왕 -3398
▁Th -3399
▁스탠 -3400
ove -3401
▁파이터 -3402
ore -3403
▁우수 -3404
▁ㄱㅡㄹㅓㄴ -3405
▁부담 -3406
▁갤러리 -3407
▁토스 -3408
▁스프 -3409
▁대원 -3410
▁등등 -3411
▁com -3412
▁미나 -3413
ㅈㅣㄱ -3414
▁빔 -3415
▁ㄱㅡㄹㅣㄴ -3416
▁오오 -3417
▁쫓 -3418
▁알리 -3419
▁춤 -3420
▁유용 -3421
ㄶㅇㅏ -3422
▁헤드 -3423
▁로켓 -3424
▁울트라 -3425
▁77 -3426
▁융 -3427
▁돌격 -3428
▁61 -3429
▁뱅 -3430
▁벌이 -3431
▁무게 -3432
▁삶 -3433
▁{ -3434
▁고급 -3435
▁생일 -3436
▁지식 -3437
아리 -3438
▁규정 -3439
▁기절 -3440
ㄹㄹㅓㅆ -3441
▁샌 -3442
▁모자 -3443
▁차별 -3444
▁판타 -3445
▁본선 -3446
▁커뮤 -3447
▁돌아오 -3448
▁아프리카 -3449
ort -3450
▁렉 -3451
▁ㄴㅡㄴㄷㅏㄱㅗ -3452
▁ㅇㅏㄹㄹㅕㅈㅕ -3453
▁ㅂㅏㄲㅝ -3454
▁병기 -3455
▁ㄱㅓㄹㄹㅕ -3456
▁88 -3457
피스 -3458
▁72 -3459
▁그리스 -3460
▁중단 -3461
▁가면라이더 -3462
▁진정 -3463
아다니 -3464
▁측면 -3465
▁랜덤 -3466
▁끼리 -3467
▁장애 -3468
▁분야 -3469
▁ㄸㅐ -3470
심히 -3471
▁ㄷㅚㄴㄷㅏㄱㅗ -3472
▁자이 -3473
▁나누 -3474
▁스케 -3475
▁트레이 -3476
▁지점 -3477
▁} -3478
▁ㅇㅣㄴㅈㅣㄹㅏ -3479
▁2001 -3480
▁갓 -3481
▁닥터 -3482
▁ㄴㅜㄱ -3483
로이드 -3484
▁누르 -3485
▁마녀 -3486
▁언니 -3487
▁패러디 -3488
▁셔 -3489
▁떼 -3490
바이 -3491
▁발휘 -3492
▁경기도 -3493
▁주목 -3494
▁자살 -3495
▁넷 -3496
▁ㅎㅔ -3497
▁회수 -3498
▁도서 -3499
▁제시 -3500
ive -3501
▁외부 -3502
▁입수 -3503
▁카나 -3504
▁인생 -3505
▁포르 -3506
▁피해자 -3507
▁커버 -3508
아하 -3509
▁취소 -3510
▁살해 -3511
▁ㄴㅏㄴㄷㅏ -3512
▁ㄷㅜㄴ -3513
▁ㄴㅏㄹㅇㅏ -3514
▁ㅈㅏㄱㅗ -3515
▁ㄹㅔ -3516
▁ffff -3517
ㅏㄹㄹㅕ -3518
아들 -3519
▁웨이 -3520
▁경계 -3521
▁ㅇㅏㅅ -3522
▁공통 -3523
▁ㅁㅣㅊㅣㄴ -3524
아보 -3525
▁삽 -3526
OS -3527
▁ㄷㅗㅁㅏ -3528
▁유래 -3529
▁미야 -3530
▁도구 -3531
ong -3532
▁아사 -3533
▁군주 -3534
▁교환 -3535
▁공원 -3536
▁후지 -3537
워드 -3538
▁릭 -3539
▁개편 -3540
▁국적 -3541
▁오프닝 -3542
▁아침 -3543
▁어차 -3544
▁민족 -3545
▁SBS -3546
▁기다리 -3547
▁ㄸㅏㄹㅏㅅㅓ -3548
▁트위터 -3549
▁아라 -3550
▁공장 -3551
▁승강 -3552
▁ffffff -3553
ers -3554
▁ㄴㅏㅃㅡㄴ -3555
▁ㅈㅓㅇㅎㅐ -3556
ㅡㄴㄷㅏ -3557
▁어차피 -3558
AM -3559
▁스페셜 -3560
▁장수 -3561
▁이거 -3562
▁젠 -3563
▁계산 -3564
오리 -3565
▁킥 -3566
▁재판 -3567
▁윙 -3568
▁서포 -3569
▁ㄱㅡㄹㅕ -3570
▁ㄸㅓㄹㅇㅓㅈㅕ -3571
▁핵심 -3572
▁페이스 -3573
▁부진 -3574
크래프트 -3575
ㅏㅁ -3576
▁대놓고 -3577
▁잊 -3578
▁PS -3579
▁붕괴 -3580
▁사단 -3581
▁ㄲㅡㅌㄴㅏㄴ -3582
AS -3583
▁98 -3584
▁이성 -3585
▁데리 -3586
▁교사 -3587
▁구입 -3588
▁온갖 -3589
▁ㄱㅡㄹㅓㄹ -3590
▁제기 -3591
하라 -3592
▁단독 -3593
▁191 -3594
▁바탕 -3595
▁거절 -3596
▁겨울 -3597
▁어린 -3598
▁소수 -3599
▁틈 -3600
▁브랜드 -3601
유키 -3602
▁출생 -3603
▁용도 -3604
스티 -3605
니어 -3606
▁영역 -3607
▁갑옷 -3608
다수 -3609
▁당선 -3610
▁ㄸㅓㄹㅇㅓㅈㅣㄴ -3611
▁메탈 -3612
터리 -3613
▁펠 -3614
▁탄생 -3615
▁아야 -3616
▁ㅇㅓㅉㅓㄹ -3617
▁ㅇㅑㄱㅎㅏㄴ -3618
▁좋아하 -3619
▁ㅂㅘㅇㅑ -3620
▁살짝 -3621
▁꺼 -3622
▁출발 -3623
▁함선 -3624
티컬 -3625
▁아시아 -3626
▁요원 -3627
▁은근 -3628
ED -3629
▁납치 -3630
ip -3631
▁분석 -3632
피아 -3633
▁꾸준히 -3634
ㅂㅗㄹ -3635
▁귀족 -3636
▁은행 -3637
▁ㅅㅗ -3638
▁스파이 -3639
▁페이지 -3640
▁ㅆㅗ -3641
▁오후 -3642
▁주연 -3643
▁작사 -3644
어리 -3645
▁화살 -3646
▁타워 -3647
▁선배 -3648
▁순수 -3649
ain -3650
▁CD -3651
즈키 -3652
▁ㅅㅜㅁㄱㅕ -3653
▁증거 -3654
▁파악 -3655
▁재생 -3656
▁자식 -3657
if -3658
▁600 -3659
▁습득 -3660
▁따지 -3661
▁엑스 -3662
▁대공 -3663
▁하수 -3664
▁좁 -3665
▁섭 -3666
▁자격 -3667
▁예술 -3668
▁홍보 -3669
▁업무 -3670
▁ㅌㅟ -3671
▁이스 -3672
가락 -3673
▁협력 -3674
▁ㅃㅐ -3675
ee -3676
▁당황 -3677
▁고민 -3678
리티 -3679
▁ㄲㅗ -3680
▁ㅂㅏㄷㅇㅏ -3681
▁1990 -3682
▁ㅇㅜㅁㅈㅣㄱ -3683
▁군인 -3684
▁유형 -3685
▁ㅇㅕㄹㄹㅣㄴ -3686
▁| -3687
▁보정 -3688
ㅅㅔ -3689
▁훌륭 -3690
디션 -3691
▁베르 -3692
▁눈치 -3693
▁테러 -3694
▁ㅈㅏㄶㅇㅏ -3695
▁ㅍㅜ -3696
▁플라 -3697
▁사카 -3698
EN -3699
▁미소 -3700
▁프라 -3701
▁열심히 -3702
▁레전드 -3703
▁신화 -3704
▁적당 -3705
▁폭풍 -3706
▁경유 -3707
▁카르 -3708
▁영원 -3709
▁쓰레 -3710
▁댓글 -3711
▁마인 -3712
▁응원 -3713
▁흔히 -3714
▁MV -3715
▁내내 -3716
▁ㅁㅜㄴ -3717
▁63 -3718
▁불안 -3719
▁보물 -3720
▁비록 -3721
▁ㅇㅓㅉㅐ -3722
▁러브 -3723
▁주도 -3724
▁퀄 -3725
▁거래 -3726
▁틱 -3727
▁정말로 -3728
▁부인 -3729
▁왕자 -3730
▁탑승 -3731
▁만족 -3732
▁소드 -3733
▁ㅂㅓㅅ -3734
▁출처 -3735
세이 -3736
▁장관 -3737
▁종점 -3738
▁버티 -3739
▁혼란 -3740
▁챠 -3741
▁68 -3742
▁ㅇㅣㅈ -3743
▁무적 -3744
▁채용 -3745
▁감사 -3746
▁ㄴㅜㄱㅜㄴ -3747
▁스트라이 -3748
▁네이버 -3749
▁ㄱㅏㅈㅕㅆ -3750
▁ㄹㅗㅇㅜㄴ -3751
▁지내 -3752
ith -3753
ld -3754
▁운전 -3755
▁본명 -3756
▁컨텐츠 -3757
▁ㅁㅗㅅㅎㅐ -3758
▁대다수 -3759
▁ㄱㅓㄴㅈㅣ -3760
▁ㄷㅟ -3761
▁우려 -3762
▁문제점 -3763
ly -3764
▁빼앗 -3765
▁운명 -3766
▁실질 -3767
▁파이어 -3768
ㅓㅇㅝ -3769
▁드리 -3770
▁반격 -3771
▁800 -3772
▁멋 -3773
▁늑 -3774
▁계급 -3775
▁트라 -3776
▁균 -3777
▁71 -3778
▁ㄹㅏㄱ -3779
▁ㅂㅔ -3780
▁라스 -3781
▁미군 -3782
▁중계 -3783
레인 -3784
▁커뮤니티 -3785
▁정류 -3786
▁흘 -3787
▁라이벌 -3788
▁오해 -3789
ind -3790
▁가져 -3791
▁김성 -3792
▁초월 -3793
▁옹 -3794
▁짝 -3795
▁지급 -3796
▁돌진 -3797
▁오류 -3798
▁두산 -3799
▁수입 -3800
▁74 -3801
▁가까이 -3802
▁AC -3803
▁돌리 -3804
▁전함 -3805
▁줄어들 -3806
▁ㅂㅓㄹㅇㅓ -3807
▁전공 -3808
▁연도 -3809
▁랜드 -3810
▁파라 -3811
▁연예 -3812
▁모으 -3813
▁ㄷㅏㅇㅎㅏㄴㄷㅏ -3814
OL -3815
▁카라 -3816
▁메타 -3817
▁치명타 -3818
▁공군 -3819
▁67 -3820
▁설득 -3821
▁체계 -3822
▁밟 -3823
다지 -3824
▁메가 -3825
이터 -3826
▁기기 -3827
ew -3828
▁아트 -3829
▁캔 -3830
▁통일 -3831
▁충돌 -3832
▁피아 -3833
▁여신 -3834
▁반영 -3835
▁ㄱㅕ -3836
▁아오 -3837
▁즉시 -3838
▁단위 -3839
▁화장 -3840
▁거주 -3841
▁ㅌㅓㄴ -3842
▁낳 -3843
▁ㅂㅣㄴ -3844
▁깎 -3845
ㅇㅣㄴㅈㅣ -3846
ry -3847
▁문자 -3848
▁ㅂㅏㄷㅇㅏㄷㅡㄹ -3849
▁73 -3850
▁코믹스 -3851
▁불꽃 -3852
바로 -3853
▁그림자 -3854
▁TH -3855
ㅇㅜㄴㄷㅏ -3856
▁편의 -3857
▁안습 -3858
ast -3859
▁ㅁㅗㄴ -3860
▁지시 -3861
▁닿 -3862
▁NC -3863
▁96 -3864
▁홍콩 -3865
▁ㄱㅓㅊㅕ -3866
ㅂㅘ -3867
▁학과 -3868
▁레오 -3869
▁전투력 -3870
▁크루 -3871
▁AT -3872
▁주년 -3873
▁짜리 -3874
▁해방 -3875
아먹 -3876
▁다행히 -3877
▁아나 -3878
▁시야 -3879
▁me -3880
▁크리티컬 -3881
▁비율 -3882
보이 -3883
카와 -3884
▁제조 -3885
IT -3886
▁아리 -3887
나다 -3888
▁슬롯 -3889
츠키 -3890
으키 -3891
▁국회의원 -3892
▁ㄷㅡㄹㅇㅓㄱㅏㅆ -3893
▁ㄱㅗㅅㅓ -3894
▁떡밥 -3895
▁상향 -3896
▁일부러 -3897
LC -3898
가와 -3899
▁생명력 -3900
▁신뢰 -3901
▁정지 -3902
▁변하 -3903
▁ㅁㅜㅅㅓ -3904
▁약하 -3905
▁격파 -3906
▁공화국 -3907
EC -3908
▁81 -3909
▁그다지 -3910
▁관객 -3911
▁암흑 -3912
▁심장 -3913
▁소프트 -3914
▁신고 -3915
▁수업 -3916
▁오로 -3917
▁ㅂㅗㄴㄷㅏ -3918
▁파이널 -3919
▁CP -3920
▁토모 -3921
▁닌자 -3922
▁그만큼 -3923
▁사전 -3924
▁등판 -3925
▁찰 -3926
▁무난 -3927
▁ㄷㅚㅂㄴㅣㄷㅏ -3928
▁늑대 -3929
▁판타지 -3930
▁동네 -3931
▁j -3932
▁엘프 -3933
FA -3934
▁가입 -3935
▁ㅁㅓㅁ -3936
사카 -3937
▁유비 -3938
▁192 -3939
▁디아 -3940
▁연사 -3941
▁1999 -3942
▁별개 -3943
ㄱㅓㄴㅏ -3944
▁ㄷㅗㄹㄹㅕ -3945
▁맘 -3946
▁ㄱㅐㄹ -3947
▁사운드 -3948
▁ㅁㅣㄹㄹㅕ -3949
▁압박 -3950
▁마술 -3951
ㅂㅅㅣ -3952
▁본부 -3953
▁고기 -3954
▁집안 -3955
▁NPC -3956
▁78 -3957
식간 -3958
▁아티 -3959
▁84 -3960
▁리버 -3961
▁건강 -3962
▁근무 -3963
end -3964
▁재능 -3965
▁창작 -3966
▁ㅇㅢㅎㅏㄴ -3967
▁순식간 -3968
▁막장 -3969
▁91 -3970
▁써 -3971
▁ㄷㅔㄹㅕ -3972
▁니시 -3973
▁ㄷㅡㄴㅈㅣ -3974
▁ㄴㅓㄴ -3975
▁반란 -3976
▁an -3977
▁드디어 -3978
▁실드 -3979
▁ㅅㅐㅇㄱㅕ -3980
고기 -3981
▁ㅇㅓㄴ -3982
▁저런 -3983
▁추적 -3984
▁업체 -3985
▁룡 -3986
▁지하철 -3987
▁장식 -3988
▁제주 -3989
▁곰 -3990
▁지형 -3991
▁화이트 -3992
▁팝 -3993
▁신세 -3994
▁1998 -3995
▁ㄱㅏㅈ -3996
▁it -3997
▁가이 -3998
▁불만 -3999
▁전적 -4000
▁남기 -4001
▁입학 -4002
▁경향 -4003
▁증명 -4004
▁!! -4005
▁수학 -4006
▁낚 -4007
▁경험치 -4008
▁쿼 -4009
▁상품 -4010
og -4011
ㅇㅜㅁ -4012
▁천사 -4013
▁브리 -4014
▁ㄴㅓ -4015
▁내놓 -4016
▁ㅇㅏㅅㅟ -4017
▁게이트 -4018
▁ㄸㅐㄴ -4019
ㅡㅁㄷㅏ -4020
▁ㅇㅏㄹㅡㅁㄷㅏ -4021
ㅊㅣ -4022
▁ㄱㅡㄹㅓㄴㅈㅣ -4023
▁기원 -4024
▁사쿠라 -4025
▁대만 -4026
▁낭 -4027
▁형성 -4028
▁신청 -4029
▁통하 -4030
▁An -4031
▁전방 -4032
▁테이 -4033
▁예고 -4034
ㅍㅣ -4035
▁스티 -4036
▁나서 -4037
▁여동생 -4038
▁ㄷㅏㅇㅜㄴ -4039
▁소문 -4040
▁매력 -4041
▁ㅁㅏㄴㄴㅏㄴ -4042
▁오픈 -4043
▁가득 -4044
▁ㄱㅓㄷ -4045
▁늘어나 -4046
▁블레이드 -4047
▁지나가 -4048
▁쓰레기 -4049
▁노멀 -4050
ㅂㅗㄴ -4051
▁ㄱㅟ -4052
▁절반 -4053
▁짱 -4054
▁정권 -4055
▁콜라 -4056
▁사령관 -4057
▁ㅌㅗㅇㅎㅏㄴ -4058
▁97 -4059
▁클로 -4060
▁ㄷㅡㄹㅇㅓㄱㅏㄴ -4061
▁쿠키 -4062
▁나루 -4063
▁ㄴㅓㄹ -4064
아버지 -4065
▁으 -4066
▁팅 -4067
▁주먹 -4068
▁감염 -4069
▁이마 -4070
▁묵 -4071
▁마도 -4072
▁마이크 -4073
▁ㄷㅏㅅㅣ -4074
▁ㄷㅏㅅㅣㅍㅣ -4075
▁묶 -4076
▁의상 -4077
▁여론 -4078
▁룬 -4079
▁외국인 -4080
▁Ar -4081
광역 -4082
▁섹 -4083
▁He -4084
▁령 -4085
▁타점 -4086
▁ㅇㅝㄴ -4087
ㅊㅜㄴ -4088
▁82 -4089
▁회차 -4090
▁강조 -4091
▁유희 -4092
▁라이더 -4093
▁69 -4094
▁키스 -4095
▁덴 -4096
돼지 -4097
▁단일 -4098
▁사토 -4099
▁이론 -4100
지컬 -4101
▁메카 -4102
▁이승 -4103
▁오빠 -4104
▁선호 -4105
▁어택 -4106
▁근거 -4107
▁ㅇㅏㄹㄹㅕㅈㅣㄴ -4108
▁소멸 -4109
▁연상 -4110
▁복장 -4111
▁별도 -4112
▁엔터 -4113
▁ㄹㅏㄹ -4114
▁전선 -4115
▁가로 -4116
▁코인 -4117
▁바보 -4118
▁is -4119
▁실행 -4120
▁ㅂㅗㅇㅕㅈㅜㄴ -4121
▁대륙 -4122
타로 -4123
▁250 -4124
트로 -4125
▁스톤 -4126
▁주전 -4127
▁공작 -4128
▁쳐 -4129
▁ㅂㅓㄹㅣㄹ -4130
▁일으키 -4131
▁for -4132
▁작용 -4133
광역시 -4134
▁최상 -4135
▁아가 -4136
▁한때 -4137
▁아무것 -4138
▁공기 -4139
▁아메 -4140
▁180 -4141
▁ㅈㅔㅎㅏㄴ -4142
▁핀 -4143
▁MAX -4144
▁ㅇㅏㄴㅣㄹ -4145
▁86 -4146
▁반지 -4147
▁부품 -4148
▁평타 -4149
▁SN -4150
▁화려 -4151
▁ㅎㅏㄹㅈㅣ -4152
▁요정 -4153
▁ㅂㅜㄹㄹㅓㅆ -4154
▁190 -4155
▁때리 -4156
▁스토 -4157
▁헌터 -4158
▁ㅎㅏㅂㅊㅕ -4159
▁해설 -4160
▁권력 -4161
▁대하 -4162
▁간격 -4163
▁따위 -4164
▁출현 -4165
▁ㅂㅏㄴ -4166
▁호환 -4167
파이어 -4168
모로 -4169
▁전형 -4170
▁총기 -4171
▁뉴욕 -4172
▁ㅇㅣㅂ -4173
▁몰래 -4174
▁탱크 -4175
▁퀸 -4176
▁ㅇㅗㄹㄹㅕㅆ -4177
▁추격 -4178
▁출장 -4179
▁키리 -4180
둥이 -4181
▁ㄴㅗㅎ -4182
ㅎㅣㄹ -4183
▁ㄷㅏㅇㅎㅏㄹ -4184
▁토리 -4185
▁ㅅㅏㄹㅏㅈㅕㅆ -4186
▁구도 -4187
▁조용 -4188
▁요새 -4189
▁울산 -4190
▁사자 -4191
▁무효 -4192
▁주위 -4193
ath -4194
▁마스 -4195
▁ㄷㅗㅁㅏㅇ -4196
▁스카이 -4197
▁ㄴㅘ -4198
▁벌어지 -4199
레나 -4200
▁경상 -4201
▁연애 -4202
▁BGM -4203
▁프레임 -4204
▁시드 -4205
더스 -4206
▁명예 -4207
서트 -4208
▁여러모로 -4209
▁마리오 -4210
▁권총 -4211
▁범인 -4212
av -4213
▁ㄲㅣ -4214
▁폭격 -4215
▁이슬 -4216
▁경비 -4217
RE -4218
▁1997 -4219
▁동기 -4220
▁추락 -4221
드라 -4222
▁ㅈㅓㅈㅣ -4223
▁ㅈㅏㄴㅡㄴ -4224
50 -4225
▁De -4226
▁경영 -4227
▁ㅍㅐ -4228
▁대우 -4229
▁테스트 -4230
▁심리 -4231
▁제이 -4232
▁Te -4233
타인 -4234
ㄹㅏㄴ -4235
▁아무런 -4236
▁ㅂㅜㅌㅇㅕ -4237
▁신규 -4238
▁지대 -4239
나가 -4240
▁ㄴㅐㄴㄷㅏ -4241
▁심판 -4242
▁폭주 -4243
▁모바 -4244
듀서 -4245
▁블록 -4246
▁프로듀서 -4247
▁우스 -4248
▁클라 -4249
▁후쿠 -4250
▁소총 -4251
▁ㄷㅏㄹㄹㅏ -4252
웨이 -4253
▁영업 -4254
▁갈등 -4255
▁거짓말 -4256
ㅇㅔㄷㅗ -4257
▁공유 -4258
▁MS -4259
▁아크 -4260
▁하수인 -4261
▁ㅅㅏㄹㄹㅕ -4262
ㅇㅘㅅㅓ -4263
se -4264
▁변호 -4265
▁일상 -4266
▁수요 -4267
▁탄약 -4268
▁계승 -4269
one -4270
▁외교 -4271
히로 -4272
▁고교 -4273
▁전대 -4274
어스 -4275
▁ㅁㅓㄱ -4276
▁환상 -4277
▁메인 -4278
▁ㅇㅜㄹ -4279
▁그래픽 -4280
▁꼽 -4281
▁열리 -4282
▁메이저 -4283
▁고전 -4284
▁학살 -4285
▁통제 -4286
▁요괴 -4287
▁브라질 -4288
▁ㅁㅏㄴㄴㅏ -4289
▁밝히 -4290
▁북미 -4291
▁사양 -4292
▁렙 -4293
▁상점 -4294
▁언제나 -4295
▁탁 -4296
▁Be -4297
▁편하 -4298
▁보석 -4299
▁마련 -4300
▁ㅇㅕㅅㅓ -4301
▁시각 -4302
▁입력 -4303
사키 -4304
▁ㅎㅡㄴ -4305
▁변형 -4306
남도 -4307
▁이득 -4308
▁83 -4309
▁갖추 -4310
▁ㅈㅜㄱㅇㅕ -4311
▁폭력 -4312
▁터치 -4313
▁다이아 -4314
▁제법 -4315
▁공학 -4316
▁ㅃㅏㅈㅣㄴ -4317
▁옛날 -4318
▁만든 -4319
▁탱커 -4320
▁뒤집 -4321
▁혁명 -4322
▁유령 -4323
▁불편 -4324
▁블러 -4325
▁제작진 -4326
▁통상 -4327
▁커맨 -4328
퍼스 -4329
▁지나치 -4330
▁그곳 -4331
▁작동 -4332
▁미츠 -4333
▁KT -4334
▁리스트 -4335
▁ㅇㅣㄹㅏㅇ -4336
▁믹 -4337
스트라 -4338
ust -4339
ㅇㅓㅈㅕ -4340
ㅎㅏㅁ -4341
▁92 -4342
▁용사 -4343
▁ㅎㅐㅈㅣㄴㄷㅏ -4344
▁89 -4345
ㅇㅎㅐㅆ -4346
▁예외 -4347
▁동원 -4348
▁전투기 -4349
▁조치 -4350
▁진지 -4351
▁타케 -4352
▁94 -4353
ㅈㅜㄴㄷㅏ -4354
▁ㅂㅓ -4355
▁조심 -4356
▁승강장 -4357
▁ㅂㅏㄺㅎㅕㅈㅕㅆ -4358
▁연대 -4359
▁고생 -4360
▁민간 -4361
▁ㄲㅔ -4362
▁구현 -4363
▁수집 -4364
▁스마트 -4365
▁미디어 -4366
▁ㄱㅣㄷㅏ -4367
▁머신 -4368
▁걷 -4369
자키 -4370
도우 -4371
▁파일럿 -4372
▁현지 -4373
ide -4374
▁한국인 -4375
▁프로필 -4376
▁일자 -4377
▁포탑 -4378
▁검색 -4379
▁79 -4380
려움 -4381
▁네임 -4382
▁워치 -4383
▁쿠로 -4384
▁Le -4385
▁입구 -4386
ㄱㅎㅣㄴ -4387
▁뿌리 -4388
노스 -4389
▁이리 -4390
나무 -4391
▁챕 -4392
▁ㄱㅏㅌ -4393
▁앵 -4394
▁ㄱㅓㄴㄴ -4395
▁조조 -4396
▁ㅊㅣㄱㅏ -4397
▁메시 -4398
▁사이즈 -4399
▁되찾 -4400
▁신인 -4401
▁ㅇㅕㄱㅕ -4402
▁경기장 -4403
▁깃 -4404
▁모바일 -4405
▁조절 -4406
일드 -4407
ㄷㅏㄹㅡㄴ -4408
▁ㄴㅜㄱㅜㄴㄱㅏ -4409
▁Se -4410
올리 -4411
▁93 -4412
ity -4413
▁동영 -4414
▁차단 -4415
▁신장 -4416
PG -4417
▁콘서트 -4418
메달 -4419
▁요즘 -4420
▁ㅂㅓㅌ -4421
▁키우 -4422
▁겐 -4423
▁US -4424
▁부위 -4425
▁감시 -4426
▁표준 -4427
▁카미 -4428
▁레스 -4429
▁ㄹㅣㅇ -4430
▁챕터 -4431
▁레인저 -4432
▁보장 -4433
▁ㄱㅚ -4434
▁교전 -4435
▁부수 -4436
▁긍 -4437
▁편지 -4438
▁음반 -4439
오르 -4440
▁어쩌 -4441
▁수송 -4442
저히 -4443
▁마루 -4444
▁시행 -4445
OT -4446
▁ㅁㅣㄹ -4447
▁ㅅㅓㄴㅂㅗ -4448
▁정류장 -4449
▁동방 -4450
▁87 -4451
▁도발 -4452
▁폐지 -4453
어도 -4454
일리 -4455
▁공산 -4456
▁프린 -4457
▁스톰 -4458
▁1996 -4459
▁101 -4460
▁동영상 -4461
▁길드 -4462
▁상상 -4463
▁한방 -4464
▁ㅇㅐㄴ -4465
▁연락 -4466
▁배차 -4467
ㅣㅂㄴㅣㄷㅏ -4468
▁ㅈㅝㅇㅑ -4469
▁패널 -4470
▁리얼 -4471
▁기습 -4472
▁AI -4473
▁볼넷 -4474
▁용어 -4475
▁1995 -4476
북도 -4477
ere -4478
▁MC -4479
▁드러나 -4480
▁DJ -4481
▁ㅆㅡㅇㅣㄴㄷㅏ -4482
▁전하 -4483
▁구출 -4484
▁자이언 -4485
AC -4486
▁음성 -4487
▁슛 -4488
▁텔레 -4489
▁프리미 -4490
▁ㄷㅏㅁㅕㄴㅅㅓ -4491
워하 -4492
ㅅㅓㅆ -4493
▁호평 -4494
▁올라오 -4495
▁루타 -4496
▁쇠 -4497
▁ㅊㅓ -4498
▁연방 -4499
▁앱 -4500
▁똑같이 -4501
▁이재 -4502
▁김정 -4503
▁어깨 -4504
▁특화 -4505
▁ㄱㅏㅌㅇㅣ -4506
▁루시 -4507
▁On -4508
▁라이프 -4509
ㅇㅜ -4510
▁뛰어 -4511
▁도달 -4512
age -4513
▁추진 -4514
▁계정 -4515
▁세월 -4516
▁도서관 -4517
▁ㅁㅏㄴㄴㅏㅆ -4518
▁흥행 -4519
▁볼트 -4520
▁이날 -4521
▁사이드 -4522
▁ㅊㅟ -4523
▁ㄴㅏㅇㅘㅅㅓ -4524
울리 -4525
▁잠수 -4526
▁강철 -4527
▁익숙 -4528
▁매니 -4529
▁간부 -4530
▁핸드 -4531
▁무료 -4532
▁ㄴㅑㅁㅕ -4533
▁결승전 -4534
▁연관 -4535
펙트 -4536
▁슈트 -4537
▁농구 -4538
▁신문 -4539
▁지휘관 -4540
▁전달 -4541
▁번개 -4542
▁섞 -4543
▁레이드 -4544
▁노예 -4545
▁널 -4546
▁ㄷㅜㄹ -4547
▁ㅌㅗㅇㅎㅐㅅㅓ -4548
▁극단 -4549
▁삼진 -4550
▁신분 -4551
▁ㅇㅡㄴㅣㄲㅏ -4552
▁향상 -4553
▁@ -4554
오프 -4555
▁고향 -4556
▁사마 -4557
▁ㄴㅏㄱㅏㅆ -4558
▁주소 -4559
▁..... -4560
▁전직 -4561
▁ㄱㅟㅇㅕ -4562
▁리메 -4563
▁겉 -4564
▁ㄷㅏㅁ -4565
이즈 -4566
▁수술 -4567
▁양산 -4568
▁누리 -4569
▁쟁 -4570
▁그동안 -4571
▁출력 -4572
▁빌드 -4573
▁켈 -4574
▁묘지 -4575
▁환자 -4576
레이터 -4577
▁신성 -4578
▁노출 -4579
▁즐기 -4580
▁마구 -4581
▁캐리 -4582
▁가상 -4583
▁신기 -4584
▁먹이 -4585
▁ㄱㅡㄹㅐㅆ -4586
▁박근 -4587
▁장교 -4588
▁전역 -4589
▁진심 -4590
▁복잡 -4591
▁팀원 -4592
▁제자 -4593
▁ㅂㅗㄷㅏㄴ -4594
▁스튜 -4595
▁레이스 -4596
▁샘 -4597
▁헨 -4598
▁가속 -4599
ㄱㅣㄴㄷㅏ -4600
▁동작 -4601
▁웬만 -4602
▁적어도 -4603
▁환승 -4604
▁임명 -4605
▁글자 -4606
▁베트 -4607
▁ㄷㅏㄹㄹㅣㄴ -4608
▁ㅁㅐ -4609
▁갤럭 -4610
qu -4611
▁부문 -4612
▁소닉 -4613
▁ㄷㅡㄹㅇㅓㄱㅏㄴㄷㅏ -4614
▁px -4615
▁세이브 -4616
▁ㅉㅗ -4617
▁멕 -4618
▁ㄱㅡㄹㅓㅁ -4619
▁봇 -4620
▁ㅍㅣㅎㅐ -4621
▁입단 -4622
▁듯이 -4623
▁커플 -4624
▁ㅇㅗㄹㄹㅏㅆ -4625
▁가게 -4626
오카 -4627
▁절망 -4628
▁ㅆㅓㅅㅓ -4629
▁DLC -4630
ood -4631
▁맞이 -4632
▁캐스 -4633
▁느리 -4634
▁ㅍㅏㄹ -4635
▁내구 -4636
▁겁 -4637
▁대체로 -4638
▁쾌 -4639
▁넘기 -4640
조리 -4641
▁AK -4642
▁ㅌㅡㄹ -4643
▁해체 -4644
▁기병 -4645
▁내성 -4646
▁성별 -4647
▁타마 -4648
▁임시 -4649
창기 -4650
ㄲㅡㄹ -4651
▁명중률 -4652
▁핫 -4653
▁구속 -4654
▁THE -4655
BO -4656
▁부리 -4657
▁착각 -4658
▁브레이크 -4659
▁아우 -4660
▁아쉽 -4661
▁페이즈 -4662
▁ㄷㅗㄹㅇㅏㅇㅗㄴ -4663
▁아빠 -4664
▁가시 -4665
▁알파 -4666
▁종이 -4667
▁여유 -4668
▁MVP -4669
▁너무나 -4670
▁전시 -4671
▁막차 -4672
▁차라리 -4673
▁근육 -4674
▁플레 -4675
▁득표 -4676
▁갤럭시 -4677
▁수영 -4678
▁육성 -4679
▁연구소 -4680
란색 -4681
ㄱㅎㅏㄴ -4682
▁뛰어나 -4683
▁Wh -4684
▁중화 -4685
IS -4686
▁ㅅㅣㅁㅎㅏㄴ -4687
▁이즈 -4688
are -4689
▁고백 -4690
▁경고 -4691
▁CC -4692
PM -4693
▁인수 -4694
▁그럼 -4695
▁대량 -4696
▁ㄴㅏㄱㅏㄴ -4697
▁ㄱㅓㄹㄹㅣㄴ -4698
아지 -4699
▁ㅇㅚ -4700
▁ㅅㅕㅆ -4701
▁융합 -4702
▁공지 -4703
▁창조 -4704
▁ㄱㅡㄹㅓㅁㅇㅔㄷㅗ -4705
▁개통 -4706
▁자매 -4707
▁ㄷㅓㄴㅈㅕ -4708
▁리메이크 -4709
▁이자 -4710
▁강원 -4711
▁참전 -4712
▁분기 -4713
▁1994 -4714
▁배트 -4715
▁하필 -4716
▁물질 -4717
전자 -4718
▁인증 -4719
▁$ -4720
▁ㄷㅚㄴㄷㅏㅁㅕㄴ -4721
▁규칙 -4722
▁의뢰 -4723
▁카오스 -4724
▁대대 -4725
▁럭 -4726
▁인연 -4727
▁1980 -4728
▁시즈 -4729
▁파리 -4730
▁ㄱㅏㄷ -4731
▁이시 -4732
▁소화 -4733
▁초창기 -4734
▁리치 -4735
▁날짜 -4736
▁지능 -4737
▁실버 -4738
▁ㄷㅏㄹㅡㄴ -4739
▁글로 -4740
▁제어 -4741
▁협회 -4742
브리 -4743
▁구체 -4744
▁게스트 -4745
▁ㅍㅕㄴ -4746
▁점차 -4747
▁톱 -4748
▁식사 -4749
▁입히 -4750
OM -4751
디아 -4752
▁카타 -4753
▁분량 -4754
▁가량 -4755
▁드물 -4756
▁성과 -4757
ob -4758
▁청년 -4759
크스 -4760
▁악역 -4761
ㅅㅓㅇㅣㄴㅈㅣ -4762
▁700 -4763
▁고용 -4764
▁도망치 -4765
▁남부 -4766
▁태그 -4767
▁ㄲㅓㄴ -4768
▁ㅅㅏㄴ -4769
▁ㅍㅜㄹㅡㄴ -4770
▁ㄷㅏㄹㄹ -4771
▁이내 -4772
▁의혹 -4773
▁객 -4774
▁미카 -4775
ㅇㅓㄴㅏㄹ -4776
▁대립 -4777
▁누적 -4778
▁Tr -4779
▁투구 -4780
▁흠 -4781
▁합격 -4782
ㅈㅣㄹㅏ -4783
▁돼지 -4784
▁회원 -4785
티나 -4786
ock -4787
▁정복 -4788
▁조지 -4789
▁반발 -4790
▁고르 -4791
▁ㅇㅣㄹㅇㅓㄴㅏㅆ -4792
▁중대 -4793
▁어울리 -4794
▁테일 -4795
▁여지 -4796
▁왠 -4797
▁협박 -4798
▁메모리 -4799
▁녹음 -4800
▁귀신 -4801
▁ㅇㅣㄹㅇㅓㄴㅏㄴ -4802
▁합체 -4803
▁쏟 -4804
▁ㅂㅗㅇㅣㄹ -4805
ake -4806
▁감옥 -4807
▁위장 -4808
▁ㅁㅝ -4809
먼트 -4810
▁의료 -4811
▁'' -4812
▁결론 -4813
▁이명 -4814
▁아니면 -4815
▁춘 -4816
▁인하 -4817
ect -4818
▁김영 -4819
구리 -4820
▁체포 -4821
our -4822
▁꼬리 -4823
▁ㅇㅡㄹㅗㄴ -4824
▁ㄴㅡㄴㄷㅏㅁㅕㄴ -4825
OW -4826
▁호감 -4827
▁아시 -4828
▁파트너 -4829
ass -4830
▁곧바로 -4831
▁he -4832
▁어쨌 -4833
oy -4834
▁피격 -4835
▁세우 -4836
▁게시판 -4837
▁출판 -4838
▁FI -4839
▁써먹 -4840
ire -4841
▁외계 -4842
▁뷰 -4843
보드 -4844
어내 -4845
▁강의 -4846
도로 -4847
▁스턴 -4848
▁웹툰 -4849
▁모모 -4850
▁후속작 -4851
지마 -4852
ark -4853
▁차트 -4854
▁히데 -4855
▁ㅇㅏㅍㅅㅓ -4856
▁츄 -4857
▁꺾 -4858
▁기초 -4859
▁뚜 -4860
▁삼국지 -4861
▁정면 -4862
▁예비 -4863
▁아기 -4864
▁쟈 -4865
▁합성 -4866
▁서부 -4867
▁유로 -4868
아들이 -4869
▁베스트 -4870
ite -4871
▁ㄴㅓㅁㄱㅕ -4872
▁드러내 -4873
▁림 -4874
▁마키 -4875
▁ㅁㅜㄴㅓ -4876
▁카스 -4877
▁구멍 -4878
▁축제 -4879
▁ㅎㅏㄱㅗ -4880
▁사제 -4881
▁랭킹 -4882
▁ㅁㅏㄹ -4883
▁문장 -4884
▁어지 -4885
웨어 -4886
▁햄 -4887
▁동화 -4888
▁블리 -4889
▁둥 -4890
▁토론 -4891
▁편곡 -4892
▁본작 -4893
▁퀄리티 -4894
▁토르 -4895
ㄴㅏㅆ -4896
▁공급 -4897
▁발매되 -4898
▁부부 -4899
▁수련 -4900
▁저그 -4901
ㅂㄴㅣㄲㅏ -4902
▁개방 -4903
▁돕 -4904
▁대가 -4905
주시 -4906
ah -4907
▁인공 -4908
▁ㄸㅓㄹㅇㅓㅈㅕㅆ -4909
▁렛 -4910
▁안드로이드 -4911
▁단장 -4912
▁횡 -4913
▁FA -4914
▁내주 -4915
▁ㅇㅖ -4916
▁wh -4917
▁SR -4918
▁ㄱㅏㄹㅡ -4919
ㅕㅅㅓ -4920
▁소형 -4921
▁다섯 -4922
▁룸 -4923
▁소원 -4924
▁매체 -4925
▁전면 -4926
▁고문 -4927
▁은하 -4928
성기 -4929
FC -4930
▁살리 -4931
▁대폭 -4932
▁kt -4933
▁마이클 -4934
ES -4935
▁슈팅 -4936
▁Cl -4937
▁트로 -4938
▁ㄴㅏㄱㅏ -4939
라이언 -4940
▁AR -4941
▁유행 -4942
▁립 -4943
▁마리아 -4944
▁앞서 -4945
▁플랫 -4946
▁해병 -4947
▁예능 -4948
▁활성 -4949
▁캐나다 -4950
▁투어 -4951
▁ㅂㅗㄴㅐㅆ -4952
▁과목 -4953
▁초간 -4954
UN -4955
▁클리 -4956
▁문학 -4957
▁파견 -4958
▁세이버 -4959
▁뜬 -4960
▁신호 -4961
▁대략 -4962
릭스 -4963
▁일시 -4964
▁목격 -4965
려가 -4966
▁웅 -4967
▁매직 -4968
▁비아 -4969
▁흔들 -4970
▁에드 -4971
▁움직임 -4972
▁손가락 -4973
▁내장 -4974
▁넉 -4975
▁멍 -4976
▁커맨드 -4977
▁리아 -4978
▁아일 -4979
▁왕조 -4980
▁시위 -4981
▁컬러 -4982
▁GT -4983
▁연타 -4984
iz -4985
ound -4986
▁적군 -4987
▁ㄱㅡㄱㅓㄴ -4988
▁관중 -4989
▁외형 -4990
▁포스트 -4991
▁간혹 -4992
▁스틸 -4993
▁긍정 -4994
▁김태 -4995
▁뼈 -4996
▁팬덤 -4997
▁야스 -4998
▁구원 -4999
▁박근혜 -5000
▁일원 -5001
ime -5002
ㄷㅓㄴㄱㅏ -5003
▁피부 -5004
▁의무 -5005
▁플레이오프 -5006
▁반사 -5007
▁ㄴㅗㄹㄹㅏ -5008
▁ㅆㅏㅇㅜㄹ -5009
▁식물 -5010
▁정글 -5011
▁이지 -5012
▁희귀 -5013
▁깜 -5014
▁소지 -5015
▁프라이 -5016
▁최소한 -5017
▁육체 -5018
▁my -5019
▁펀치 -5020
▁신라 -5021
▁가볍 -5022
▁수수 -5023
▁ㄴㅏㅌㅏㄴㅏ -5024
▁SD -5025
▁블로그 -5026
스턴 -5027
▁코우 -5028
▁PD -5029
▁그대 -5030
▁ㅂㅗㄴㅐㄴ -5031
▁바위 -5032
ㅇㅣㅁ -5033
▁김민 -5034
▁은근히 -5035
▁연인 -5036
▁크라 -5037
LL -5038
우드 -5039
▁상성 -5040
▁Gr -5041
iv -5042
▁준수 -5043
▁타이거 -5044
▁대처 -5045
▁피스 -5046
잡이 -5047
▁잦 -5048
▁ㅌㅔㄴ -5049
▁SC -5050
▁ㄸㅐㄹㅕ -5051
▁빡 -5052
▁KIA -5053
▁Me -5054
▁ㅇㅏㄹㅡㅁㄷㅏㅇㅜㄴ -5055
▁멘탈 -5056
▁수용 -5057
▁주말 -5058
▁대충 -5059
▁둔 -5060
▁ㅇㅗㄻㄱㅕ -5061
▁킨 -5062
▁ㄴㅡㄴㅈㅣㄹㅏ -5063
▁취하 -5064
▁인근 -5065
▁오카 -5066
▁파크 -5067
▁ㅇㅗㄴㄷㅏ -5068
▁불법 -5069
▁ㅅㅔㄴ -5070
버트 -5071
▁섀 -5072
▁붙이 -5073
▁일격 -5074
▁메뉴 -5075
▁나뉘 -5076
ID -5077
페인 -5078
큐어 -5079
▁상하 -5080
▁각자 -5081
▁예측 -5082
▁자치 -5083
ㅆㅏㄴ -5084
▁개체 -5085
▁116 -5086
▁ㅇㅔㄷㅏ -5087
▁특집 -5088
▁환영 -5089
▁헤이 -5090
▁전철 -5091
▁딩 -5092
▁영토 -5093
▁동부 -5094
▁박정 -5095
▁멈 -5096
▁헤비 -5097
▁곡명 -5098
▁영문 -5099
▁냄 -5100
▁ㄸㅓㄹㅇㅓㅈㅣㄴㄷㅏ -5101
▁조성 -5102
▁적대 -5103
▁홀로 -5104
▁SM -5105
▁썩 -5106
▁멀쩡 -5107
▁My -5108
▁기사단 -5109
▁로즈 -5110
▁보안 -5111
▁더더 -5112
시코 -5113
▁ㅇㅗㄹㄹㅣㄴ -5114
OP -5115
▁국군 -5116
▁건축 -5117
▁130 -5118
▁서양 -5119
▁소중 -5120
▁커스 -5121
▁침공 -5122
▁ㄷㅏㄹㅡㄹ -5123
디언 -5124
▁오랫 -5125
▁ㅂㅕㄹ -5126
미야 -5127
ㅂㅕ -5128
▁원본 -5129
ㅇㅓㄴㅏㄴㄷㅏ -5130
▁왈 -5131
▁냥 -5132
▁형사 -5133
▁계단 -5134
▁바리 -5135
▁강남 -5136
▁ㄱㅜㄴㅏ -5137
▁안내 -5138
▁접속 -5139
▁더더욱 -5140
▁이래 -5141
▁거인 -5142
▁어린이 -5143
▁아바 -5144
▁주포 -5145
▁좌우 -5146
▁ㅇㅣㄹㅝ -5147
▁탄창 -5148
▁훗 -5149
▁ㅆㅘ -5150
▁Pr -5151
▁지우 -5152
▁결말 -5153
▁호텔 -5154
▁{{ -5155
▁어른 -5156
▁겹 -5157
▁대지 -5158
▁플로 -5159
▁ㅇㅏㄴㅣㄴㄱㅏ -5160
▁기독 -5161
▁첨 -5162
▁유이 -5163
▁정찰 -5164
▁지도자 -5165
▁사우 -5166
▁누나 -5167
▁호주 -5168
ge -5169
▁ㄸㅢ -5170
데스 -5171
▁면역 -5172
▁ㅇㅡㄹㅕㄱㅗ -5173
가미 -5174
▁골든 -5175
▁박살 -5176
▁회상 -5177
▁처벌 -5178
▁ㄹㅓㄴ -5179
▁놀라 -5180
▁죄다 -5181
▁허나 -5182
▁ㅋㅐ -5183
▁스미 -5184
▁미안 -5185
▁액티브 -5186
▁대항 -5187
ㅇㅡㅁㅕㄴ -5188
▁시선 -5189
▁시내버스 -5190
▁{{{ -5191
▁펫 -5192
▁와이 -5193
▁ㄴㅏㅁㄱㅕ -5194
▁시마 -5195
▁https -5196
ㅂㅜㅌ -5197
▁후기 -5198
▁절대로 -5199
▁학부 -5200
▁ㅂㅜㄹ -5201
▁현역 -5202
▁ㅂㅣㅎㅐㅅㅓ -5203
▁BE -5204
▁ㅂㅏㄲㅟㄴ -5205
▁음원 -5206
▁딘 -5207
▁식당 -5208
▁작화 -5209
▁이루어지 -5210
▁퀴 -5211
▁괴수 -5212
ome -5213
▁상당수 -5214
ax -5215
ㅇㅓㅂㅓㄹ -5216
▁포트 -5217
▁히메 -5218
▁과연 -5219
▁메르 -5220
▁요코 -5221
▁ㅇㅔㅅㅓㅂㅜㅌㅓ -5222
▁해적 -5223
▁어떠 -5224
▁하야 -5225
▁깡 -5226
▁ㅎㅐㄴ -5227
▁ㄷㅗㄹㅇㅏㅇㅘㅆ -5228
▁취미 -5229
▁아이스 -5230
▁재미있 -5231
▁캐스팅 -5232
▁저녁 -5233
▁일기 -5234
덜란드 -5235
▁도우 -5236
▁네덜란드 -5237
▁버스터 -5238
▁그로 -5239
▁마주 -5240
▁DF -5241
▁전문가 -5242
▁빛나 -5243
▁바라보 -5244
▁새벽 -5245
▁고스트 -5246
ance -5247
▁ㅇㅣㄱㅣㄹ -5248
▁전진 -5249
▁프리큐어 -5250
▁ㄴㅡㄹㅏ -5251
uc -5252
▁돌아다니 -5253
▁주간 -5254
밀리 -5255
▁과제 -5256
▁로그 -5257
ㅂㅎㅕ -5258
▁라인업 -5259
ick -5260
▁MF -5261
▁리듬 -5262
▁한동안 -5263
▁시계 -5264
▁아티스트 -5265
▁비행기 -5266
▁열쇠 -5267
▁한번 -5268
▁유치 -5269
▁고지 -5270
▁스키 -5271
▁깨닫 -5272
▁천재 -5273
▁Pl -5274
▁ch -5275
스탄 -5276
▁ㄷㅔㄴ -5277
▁예시 -5278
ㅎㅇㅏ -5279
▁ㅈㅜㄱㅇㅣㄴ -5280
닉스 -5281
▁검찰 -5282
▁오스트 -5283
▁기적 -5284
▁자금 -5285
▁한참 -5286
▁그러니 -5287
▁방지 -5288
▁총선 -5289
▁ㅅㅔㅇㅝ -5290
▁고수 -5291
▁첫차 -5292
▁HD -5293
▁니코 -5294
▁ㅇㅓㄹㅣㄹ -5295
구치 -5296
요시 -5297
▁승격 -5298
10 -5299
▁ㅅㅣㄹ -5300
▁ㅁㅗㄹㄹㅏㅆ -5301
▁리드 -5302
▁용기 -5303
▁\ -5304
ix -5305
▁우위 -5306
MA -5307
▁ㄷㅔㄹ -5308
▁WW -5309
▁트레이드 -5310
▁트럭 -5311
ord -5312
▁ㅁㅝㄹ -5313
▁마비 -5314
mer -5315
▁트윈 -5316
▁파츠 -5317
▁경기력 -5318
▁외치 -5319
▁방사 -5320
▁챌 -5321
▁드레 -5322
▁?? -5323
▁이슬람 -5324
▁어지간 -5325
▁속하 -5326
▁ㄷㅡㄹㅇㅓㄱㅏㄹ -5327
▁주사 -5328
▁휴대 -5329
▁안경 -5330
▁저장 -5331
▁양쪽 -5332
▁ㅁㅗㅅㅎㅏㄹ -5333
▁스타크래프트 -5334
▁160 -5335
▁ㄱㅔㅅ -5336
ure -5337
아웃 -5338
▁코코 -5339
▁위하 -5340
▁램 -5341
▁한마 -5342
▁보라 -5343
▁허리 -5344
▁개성 -5345
▁토끼 -5346
▁할아버지 -5347
▁농담 -5348
▁ㅈㅕㅅㅓ -5349
▁어쨌든 -5350
▁디지털 -5351
▁캠페인 -5352
▁GB -5353
▁갈수 -5354
▁ㅈㅜㄱㅇㅣㄹ -5355
▁신비 -5356
▁캡틴 -5357
덩이 -5358
▁크리스마스 -5359
고리 -5360
프레 -5361
▁청소년 -5362
▁캠퍼스 -5363
▁상급 -5364
▁동굴 -5365
▁개정 -5366
▁ㅁㅜㄷ -5367
▁갈수록 -5368
▁ㄴㅏㄱㅏㄹ -5369
▁전라 -5370
▁국어 -5371
▁무덤 -5372
▁영향력 -5373
▁받아들이 -5374
▁빗 -5375
특별 -5376
▁with -5377
▁문재 -5378
▁OST -5379
▁ㅂㅜㄹㄹㅣㄴㄷㅏ -5380
▁마침내 -5381
▁1992 -5382
▁오랫동안 -5383
▁조언 -5384
▁ㅁㅏㅅ -5385
▁체크 -5386
▁이영 -5387
지로 -5388
▁ㄴㅏㅌㅏㄴㅏㄴ -5389
▁유희왕 -5390
▁ㄱㅓㄹㅊㅕ -5391
▁웃음 -5392
▁북부 -5393
▁시아 -5394
▁터키 -5395
▁ㄴㅏㄴㅝ -5396
▁방출 -5397
▁호위 -5398
▁화제 -5399
▁기독교 -5400
바라 -5401
▁미술 -5402
▁인지도 -5403
▁마이너 -5404
▁김동 -5405
▁클래식 -5406
▁바퀴 -5407
▁ㄷㅡㄴㄷㅏ -5408
▁KO -5409
▁해리 -5410
▁1993 -5411
▁델 -5412
▁연료 -5413
▁아이콘 -5414
라드 -5415
ud -5416
▁ㅎㅑㅇㅎㅏㄴ -5417
▁ㄷㅓ -5418
▁올해 -5419
▁ㅌㅔㄴㄷㅔ -5420
▁ㅈㅣㅋ -5421
▁붙잡 -5422
▁곽 -5423
▁장악 -5424
▁극복 -5425
▁안티 -5426
▁원소 -5427
▁접촉 -5428
▁어마 -5429
▁정원 -5430
▁끄 -5431
양함 -5432
▁촌 -5433
치기 -5434
▁클릭 -5435
▁ㅂㅕㄹㄷㅏㄹㅡㄴ -5436
▁의존 -5437
ㄲㅇㅕ -5438
톨릭 -5439
▁베트남 -5440
▁중독 -5441
▁국방 -5442
▁귀찮 -5443
▁SKT -5444
▁ㅇㅏㅅㅟㅇㅜㄴ -5445
▁노인 -5446
▁곁 -5447
▁일제 -5448
▁ㅂㅏㄹㅏ -5449
▁다가 -5450
▁덮 -5451
▁사도 -5452
▁인정받 -5453
▁멈추 -5454
▁결코 -5455
▁ㅃㅗ -5456
라이트 -5457
▁바이러스 -5458
▁ㄹㅏㅁㅕㄴㅅㅓ -5459
▁하락 -5460
▁식량 -5461
▁선택지 -5462
▁들이 -5463
▁미라 -5464
▁톰 -5465
▁140 -5466
▁흐름 -5467
▁생존자 -5468
▁놀이 -5469
▁무작 -5470
▁Ex -5471
▁모조리 -5472
ame -5473
▁수익 -5474
▁전신 -5475
▁하우스 -5476
80 -5477
▁윌리 -5478
▁sh -5479
ㅇㅡㅁ -5480
▁칭찬 -5481
▁본체 -5482
멘트 -5483
▁신설 -5484
▁보관 -5485
▁ㅂㅗㅇㅣㄴ -5486
▁챌린 -5487
▁벗어나 -5488
▁캐논 -5489
▁전멸 -5490
임스 -5491
▁JR -5492
▁부장 -5493
▁투명 -5494
▁공무원 -5495
▁대리 -5496
▁커리어 -5497
▁", -5498
AD -5499
▁로우 -5500
▁손해 -5501
▁전성기 -5502
▁외전 -5503
▁라면 -5504
▁ㅈㅓㄱㅎㅕ -5505
▁핏 -5506
▁기아 -5507
▁도끼 -5508
▁체육관 -5509
▁취향 -5510
▁개수 -5511
▁논리 -5512
▁ㅊㅕㅆ -5513
몬드 -5514
▁ㅂㅣㄹ -5515
▁de -5516
▁이브 -5517
ㄲㅇㅣㄴ -5518
▁후방 -5519
▁치유 -5520
▁한마디 -5521
▁스승 -5522
▁노부 -5523
세스 -5524
▁IC -5525
▁수십 -5526
▁루수 -5527
리그 -5528
ost -5529
▁비주 -5530
▁갈리 -5531
▁우연히 -5532
▁카트 -5533
▁모래 -5534
▁쉐 -5535
▁충성 -5536
▁어스 -5537
▁기종 -5538
▁무릎 -5539
▁지켜 -5540
ㅈㅜㄴ -5541
▁최다 -5542
▁데드 -5543
▁에리 -5544
out -5545
▁정비 -5546
▁김종 -5547
▁가톨릭 -5548
▁동의 -5549
▁교장 -5550
▁Love -5551
▁이터 -5552
▁ㅃㅏㄹㄹㅏ -5553
▁변호사 -5554
▁ㅇㅗㄹㄹㅏㅇㅘㅆ -5555
▁콜라보 -5556
▁무지 -5557
▁마린 -5558
▁ㅈㅏㅁ -5559
▁재현 -5560
코토 -5561
old -5562
카리 -5563
▁일반인 -5564
▁유니폼 -5565
▁툴 -5566
▁레이더 -5567
▁ㅇㅡㄹㅓ -5568
▁첼 -5569
▁구경 -5570
▁들리 -5571
▁사막 -5572
▁GS -5573
▁제작자 -5574
▁당일 -5575
▁ㅁㅜㅇㅓㄴ -5576
▁힙 -5577
ㄷㅡㄴㄱㅏ -5578
▁우라 -5579
▁반동 -5580
▁세르 -5581
▁칩 -5582
▁명성 -5583
스키 -5584
▁적응 -5585
▁900 -5586
▁Un -5587
▁제임스 -5588
▁이정 -5589
▁타선 -5590
▁맥스 -5591
▁충청 -5592
▁기여 -5593
▁구사 -5594
▁트랜 -5595
▁작곡가 -5596
own -5597
▁코미 -5598
▁법률 -5599
▁증언 -5600
▁ㄴㅏㅇㅏ -5601
▁카츠 -5602
▁거미 -5603
▁오전 -5604
▁ㅁㅏㅌ -5605
▁소스 -5606
▁ㄴㅜㄹㄹㅓ -5607
네스 -5608
▁사정거리 -5609
▁ㅁㅜㅇㅓㄴㄱㅏ -5610
▁수류 -5611
▁쵸 -5612
▁선전 -5613
▁합의 -5614
▁202 -5615
▁자세히 -5616
▁업적 -5617
▁타인 -5618
▁패션 -5619
ㅜㄹㅕ -5620
▁멕시코 -5621
▁무방 -5622
카드 -5623
▁잉글 -5624
▁개입 -5625
▁ㄸㅓㅇㅗ -5626
▁기량 -5627
▁둘째 -5628
▁아일랜드 -5629
워크 -5630
▁날아가 -5631
▁아즈 -5632
▁ㅁㅗㄹㄹㅏㄷㅗ -5633
▁타락 -5634
▁연금 -5635
▁초보 -5636
▁바깥 -5637
▁가짜 -5638
▁로고 -5639
▁유통 -5640
▁소라 -5641
▁스트리 -5642
▁다스 -5643
▁기도 -5644
▁판매량 -5645
▁다름 -5646
ㅅㅡㄹ -5647
▁ㅈㅏㅂㅎㅕ -5648
ㅇㅑㄴ -5649
▁법원 -5650
▁ㄴㅗㅍ -5651
▁자국 -5652
▁ㅉㅗㅊ -5653
▁향하 -5654
▁지켜보 -5655
▁할머니 -5656
▁잡지 -5657
▁상업 -5658
▁드라이브 -5659
▁스웨 -5660
▁폴란드 -5661
▁SH -5662
▁아쿠 -5663
US -5664
시로 -5665
▁ㅅㅏㄹㅏㅈㅣㄴ -5666
▁북쪽 -5667
▁신부 -5668
▁의회 -5669
▁ㅇㅏㅇㅛ -5670
▁넥센 -5671
▁취임 -5672
▁화장실 -5673
▁조연 -5674
▁ㄴㅏㄱㅏㄴㄷㅏ -5675
▁정수 -5676
▁LI -5677
다이 -5678
▁일방 -5679
▁포격 -5680
▁수류탄 -5681
려오 -5682
▁닭 -5683
▁EP -5684
▁유물 -5685
▁주식 -5686
▁ㄷㅡㄹㅇㅓㅇㅗㄴ -5687
▁씹 -5688
▁전후 -5689
▁루카 -5690
▁찌르 -5691
▁무라 -5692
▁보고 -5693
▁wik -5694
미니 -5695
ave -5696
▁복무 -5697
▁ㅍㅏ -5698
▁벌레 -5699
▁깔끔 -5700
▁ㅅㅜㅁㄱㅕㅈㅣㄴ -5701
▁가루 -5702
▁차기 -5703
▁히나 -5704
▁ㅌㅐㅇㅓㄴㅏㄴ -5705
▁그러니까 -5706
▁똥 -5707
▁쌍둥이 -5708
▁주기 -5709
▁교실 -5710
▁과장 -5711
▁승점 -5712
▁출마 -5713
▁금속 -5714
▁대개 -5715
▁FF -5716
pe -5717
▁펑 -5718
▁IS -5719
▁빚 -5720
▁어드 -5721
ace -5722
▁결성 -5723
▁오사카 -5724
▁ㄸㅓㄴㅏ -5725
▁정착 -5726
▁남쪽 -5727
▁도주 -5728
▁인격 -5729
▁위상 -5730
▁드롭 -5731
per -5732
▁싱크 -5733
▁비싸 -5734
▁인조 -5735
▁포드 -5736
▁비례 -5737
▁ㅁㅓㅅ -5738
▁흔적 -5739
▁연패 -5740
▁XX -5741
달리 -5742
▁주일 -5743
▁자폭 -5744
▁동력 -5745
▁사라 -5746
노우 -5747
▁채우 -5748
ng -5749
▁교차 -5750
▁처형 -5751
▁냄새 -5752
▁ㅇㅓㄷㅜ -5753
▁독특 -5754
▁ㅂㅣㅆㅏㄴ -5755
ice -5756
▁도적 -5757
▁훗날 -5758
▁ㅁㅗㅇㅕ -5759
▁간신 -5760
▁스텔 -5761
▁방어구 -5762
▁팽 -5763
▁공성 -5764
▁1991 -5765
▁거점 -5766
▁스터 -5767
네임 -5768
▁강도 -5769
▁스마트폰 -5770
▁ㅁㅗㄹㅡㄹ -5771
▁스프링 -5772
▁위대 -5773
▁숭 -5774
▁대인 -5775
▁상호 -5776
▁화학 -5777
▁잡히 -5778
▁ㄴㅔㅇㅛ -5779
▁자책 -5780
▁매니저 -5781
▁일찍 -5782
ont -5783
ㅌㅡㄹ -5784
▁정치인 -5785
▁블러드 -5786
▁라이온 -5787
▁남녀 -5788
▁국립 -5789
▁연승 -5790
▁ㅊㅐㅇㅝ -5791
▁클레 -5792
▁CV -5793
▁ㄷㅏㄴㅣ -5794
▁새끼 -5795
▁1988 -5796
▁공룡 -5797
▁람 -5798
ov -5799
▁헛 -5800
▁비상 -5801
▁부작 -5802
▁포항 -5803
▁포수 -5804
가시 -5805
러지 -5806
▁AD -5807
▁기용 -5808
▁클랜 -5809
▁귀환 -5810
▁몰락 -5811
▁시너지 -5812
▁ㅈㅝㅅㅓ -5813
▁CF -5814
▁We -5815
▁후술 -5816
▁권한 -5817
▁제갈 -5818
▁고작 -5819
OD -5820
▁추억 -5821
▁스튜디오 -5822
▁유대 -5823
▁행보 -5824
▁풀리 -5825
▁크리스탈 -5826
▁타수 -5827
▁스페이스 -5828
▁런던 -5829
▁ㅂㅜㄹㅡㄴ -5830
▁이슈 -5831
랑이 -5832
▁개량 -5833
▁적당히 -5834
▁오타 -5835
▁ㅅㅠ -5836
▁각본 -5837
▁사신 -5838
▁김재 -5839
▁지뢰 -5840
▁실망 -5841
▁사유 -5842
▁상술 -5843
랭크 -5844
나카 -5845
▁시노 -5846
▁승률 -5847
ㅡㄱ -5848
▁아케 -5849
▁아츠 -5850
▁색깔 -5851
▁트라이 -5852
▁ㄷㅏㄹㅡㅁ -5853
▁흥미 -5854
▁공세 -5855
▁혐오 -5856
▁주역 -5857
▁숙련 -5858
▁개막 -5859
▁105 -5860
자드 -5861
▁어려움 -5862
▁혈액 -5863
▁이중 -5864
▁너희 -5865
▁AM -5866
▁줄이 -5867
▁광역시 -5868
▁녹색 -5869
▁커피 -5870
▁루나 -5871
▁재단 -5872
▁거치 -5873
▁뜬금 -5874
▁카운트 -5875
▁미스터 -5876
▁ㅍㅕㄹㅊㅕ -5877
로나 -5878
▁ㅎㅜㅁ -5879
블린 -5880
▁ㅌㅐㅇㅓㄴㅏㅆ -5881
▁ㅇㅣㄹㅜㅇㅓㅈㅣㄴ -5882
orld -5883
▁타로 -5884
▁자막 -5885
▁해피 -5886
▁다름없 -5887
ies -5888
▁인민 -5889
▁소위 -5890
▁길이 -5891
▁히어로즈 -5892
▁DS -5893
▁서포터 -5894
팡이 -5895
▁일람 -5896
▁널리 -5897
▁ㅋㅓㅆ -5898
▁망치 -5899
▁코리아 -5900
▁.." -5901
ann -5902
▁화성 -5903
▁학력 -5904
▁생년 -5905
▁ㅊㅏㄹ -5906
▁ㅊㅏㄴ -5907
▁계통 -5908
▁금융 -5909
▁ㅂㅘㅅㅓ -5910
▁색상 -5911
▁나치 -5912
▁리타 -5913
▁스트라이크 -5914
▁노르 -5915
▁국왕 -5916
▁티켓 -5917
▁특전 -5918
▁SNS -5919
▁관람 -5920
▁면모 -5921
▁ㅇㅑㄱㅎㅐ -5922
▁ED -5923
▁제작사 -5924
▁요금 -5925
▁흡혈 -5926
▁ㅊㅐㅇㄱㅕ -5927
▁아마도 -5928
▁흘리 -5929
▁ㅁㅜㄹㄹ -5930
▁미터 -5931
시타 -5932
OC -5933
▁심사 -5934
특별시 -5935
▁영구 -5936
▁아이언 -5937
▁오크 -5938
▁릿 -5939
▁ㅆㅏㅇㅝ -5940
▁ㅇㅣㅈㅔㄴ -5941
고속 -5942
▁쓸모 -5943
ㅈㅜㄹ -5944
▁차이점 -5945
▁단단 -5946
▁오직 -5947
▁하단 -5948
▁배터리 -5949
▁기숙 -5950
럼프 -5951
▁ㅇㅓㄹㅕㅇㅝ -5952
▁건너 -5953
▁오랜만 -5954
▁ㅇㅣㄱㅕ -5955
▁ㄲㅏㅈㅣㄴ -5956
▁재산 -5957
▁소대 -5958
▁증오 -5959
▁디지몬 -5960
▁개시 -5961
▁세종 -5962
▁ㄴㅡㄹㅣㄴ -5963
▁둘러 -5964
BA -5965
▁시그 -5966
ㄷㅏㄹㅏㄴ -5967
▁몰아 -5968
▁썬 -5969
▁서울특별시 -5970
▁중량 -5971
▁CPU -5972
▁아서 -5973
▁추종 -5974
▁사이버 -5975
▁미묘 -5976
▁칭호 -5977
▁어뢰 -5978
▁공공 -5979
▁삐 -5980
▁펄 -5981
▁호수 -5982
▁ㄱㅚㄹㅗ -5983
▁생략 -5984
▁세븐 -5985
▁잉글랜드 -5986
▁혹시 -5987
▁맛있 -5988
LE -5989
▁중첩 -5990
▁DE -5991
ㅏㅈㅣㄹ -5992
▁고구 -5993
▁보호막 -5994
▁좌석 -5995
ㅌㅏ -5996
▁스팀 -5997
▁혐의 -5998
베르 -5999
▁오라 -6000
▁민첩 -6001
▁가만 -6002
▁히토 -6003
▁연령 -6004
▁총알 -6005
▁편입 -6006
▁부지 -6007
▁워커 -6008
▁ㅂㅏㄺㅎㅕㅈㅣㄴ -6009
티아 -6010
▁지경 -6011
▁뎀 -6012
▁ㅈㅗㅎㅇㅏ -6013
▁십자 -6014
▁ㅁㅜㄹ -6015
▁ㅎㅏㅇㅑㄴ -6016
▁언더 -6017
▁협상 -6018
▁지르 -6019
▁애플 -6020
▁마약 -6021
저스 -6022
▁해상 -6023
▁뿔 -6024
▁쿼터 -6025
▁뺏 -6026
▁메리 -6027
▁상단 -6028
▁휴식 -6029
▁실전 -6030
▁LC -6031
▁연예인 -6032
▁단편 -6033
▁신사 -6034
▁ㅁㅏㄴㄴㅏㄹ -6035
▁네오 -6036
어마 -6037
▁하차 -6038
▁LV -6039
▁상인 -6040
▁타율 -6041
▁이익 -6042
▁아저 -6043
▁예언 -6044
▁노벨 -6045
▁흐르 -6046
▁your -6047
▁후배 -6048
시스트 -6049
로디 -6050
▁곤란 -6051
▁아저씨 -6052
▁네트 -6053
▁찬스 -6054
▁정화 -6055
▁ㅇㅗㄹㄹㅏㅇㅗㄴ -6056
▁용서 -6057
ber -6058
▁막대 -6059
▁NE -6060
▁딜링 -6061
▁강요 -6062
▁가져가 -6063
▁중국어 -6064
▁ㄴㅏㅌㅏㄴㅏㄴㄷㅏ -6065
▁펌 -6066
▁ㄴㅏㅁㄱㅕㅆ -6067
▁수장 -6068
ㅇㅓㄷㅡㄴ -6069
▁탈퇴 -6070
▁어마어마 -6071
▁카카 -6072
▁기관총 -6073
ys -6074
두르 -6075
▁익스 -6076
▁예산 -6077
사자 -6078
▁ㄱㅏㅁ -6079
▁임대 -6080
▁189 -6081
▁구슬 -6082
▁동쪽 -6083
▁언스 -6084
▁ㄴㅡㄲㅣㄹ -6085
▁강자 -6086
▁공방 -6087
▁문구 -6088
▁턱 -6089
▁용량 -6090
▁SE -6091
▁개혁 -6092
▁가요 -6093
▁가하 -6094
der -6095
▁닫 -6096
▁오마 -6097
▁하루카 -6098
▁원칙 -6099
▁김현 -6100
aw -6101
▁캠프 -6102
▁모노 -6103
ION -6104
▁자극 -6105
▁진보 -6106
▁악당 -6107
▁It -6108
▁소장 -6109
▁엮 -6110
▁수호자 -6111
▁금방 -6112
▁넘치 -6113
▁3000 -6114
▁상실 -6115
▁잠수함 -6116
▁부각 -6117
▁드럼 -6118
▁어리 -6119
▁험 -6120
▁잠재 -6121
ㅊㅜㄹ -6122
▁총리 -6123
▁포로 -6124
60 -6125
▁틸 -6126
▁큐브 -6127
▁ㅃㅏㄹㄱㅏㄴ -6128
▁상관없 -6129
▁칼리 -6130
oo -6131
▁ㅅㅐㅇㄱㅣㄴㄷㅏ -6132
▁원하 -6133
이너 -6134
▁ㄲㅡㄹㅇㅓ -6135
▁마디 -6136
▁교류 -6137
▁인치 -6138
▁루이 -6139
▁학자 -6140
▁집행 -6141
▁포르투 -6142
FF -6143
40 -6144
▁ㅂㅓㄹㅇㅓㅈㅣㄴ -6145
▁EN -6146
▁ㅇㅔㅇㅛ -6147
▁굿 -6148
▁BPM -6149
▁없애 -6150
▁원수 -6151
ike -6152
▁앨리스 -6153
▁원문 -6154
▁유효 -6155
▁자전 -6156
버리 -6157
ream -6158
▁원주 -6159
▁메달 -6160
▁내지 -6161
▁저작 -6162
▁결전 -6163
나미 -6164
▁간신히 -6165
▁채팅 -6166
▁일족 -6167
▁내려가 -6168
▁ㄴㅏㅁㄱㅣㄴ -6169
▁가을 -6170
▁후계 -6171
▁뱀파이어 -6172
▁로리 -6173
▁미쿠 -6174
▁125 -6175
▁1989 -6176
▁무척 -6177
▁타운 -6178
▁활발 -6179
▁엑스트라 -6180
▁신앙 -6181
▁중립 -6182
▁입지 -6183
▁헬기 -6184
▁Com -6185
▁엘리트 -6186
▁모토 -6187
▁ㅉㅏㄹ -6188
가스 -6189
위대 -6190
▁피터 -6191
▁메시지 -6192
▁힌 -6193
술사 -6194
▁사형 -6195
▁저렴 -6196
▁해골 -6197
▁화물 -6198
▁꺼내 -6199
▁무렵 -6200
▁카와 -6201
▁도루 -6202
▁낚시 -6203
▁기생 -6204
▁제트 -6205
▁마그 -6206
▁이끄 -6207
▁복지 -6208
ory -6209
▁담배 -6210
▁구석 -6211
▁ㄲㅓ -6212
▁서번 -6213
▁칼날 -6214
▁짜증 -6215
월일 -6216
▁첩 -6217
▁ㅎㅡㄹㄹㅓ -6218
▁ㄱㅗㄹㄹㅏ -6219
▁PV -6220
▁뜯 -6221
▁정예 -6222
▁사명 -6223
▁모이 -6224
▁서번트 -6225
▁ww -6226
▁요약 -6227
▁표지 -6228
▁루비 -6229
▁집어 -6230
▁말리 -6231
▁안녕 -6232
▁재밌 -6233
▁추구 -6234
▁UP -6235
▁미즈 -6236
▁일본인 -6237
▁행운 -6238
▁거울 -6239
▁ㅁㅜㅅㅓㅇㅜㄴ -6240
▁위원장 -6241
▁동아 -6242
▁며 -6243
▁레알 -6244
▁ㅂㅜㅅ -6245
▁존재감 -6246
iss -6247
▁영주 -6248
팩트 -6249
▁딜레이 -6250
▁애정 -6251
▁그랜드 -6252
▁나리 -6253
▁오가 -6254
▁터널 -6255
▁생년월일 -6256
▁반전 -6257
▁ㄹㅏㄱㅣ -6258
▁대학원 -6259
▁꽂 -6260
▁주자 -6261
▁도둑 -6262
▁구축함 -6263
▁음모 -6264
▁바이오 -6265
▁순환 -6266
▁www -6267
▁철학 -6268
▁가동 -6269
▁격추 -6270
▁테라 -6271
데이 -6272
▁지라 -6273
▁캐스터 -6274
ㅅㅏㄹ -6275
▁잔뜩 -6276
▁최신 -6277
▁AS -6278
▁사원 -6279
▁ㅁㅓㅅㅈㅣㄴ -6280
▁무역 -6281
▁플라이 -6282
▁얻어 -6283
라기 -6284
▁엔젤 -6285
▁피아노 -6286
▁텍스트 -6287
▁참석 -6288
▁공허 -6289
▁서쪽 -6290
▁알렉산 -6291
▁기구 -6292
▁모니 -6293
▁부적 -6294
▁심심 -6295
▁기숙사 -6296
걸이 -6297
▁성남 -6298
▁-> -6299
▁ㅅㅣㅁㅎㅐ -6300
▁부스터 -6301
▁BL -6302
▁취약 -6303
▁ㄷㅙㅅㅓ -6304
▁비서 -6305
▁ㄱㅟㅇㅕㅇㅜㄴ -6306
▁이집 -6307
▁공용 -6308
▁주차 -6309
▁이집트 -6310
▁ㅆㅓㅇㅑ -6311
30 -6312
▁분신 -6313
▁that -6314
▁드래프트 -6315
ian -6316
▁분대 -6317
테르 -6318
▁챙 -6319
하면 -6320
▁궤도 -6321
chor -6322
▁상기 -6323
ㅃㅡㄴ -6324
▁준우 -6325
▁ㄴㅗㄹㄹ -6326
▁유적 -6327
▁통산 -6328
▁CJ -6329
▁체중 -6330
▁옳 -6331
회사 -6332
▁토벌 -6333
▁쭉 -6334
▁초록 -6335
▁난입 -6336
▁유나이 -6337
▁권리 -6338
▁페널 -6339
▁교황 -6340
▁명단 -6341
▁확대 -6342
▁ㅆㅏㅎ -6343
▁훼 -6344
▁탄환 -6345
▁이토 -6346
우마 -6347
▁윌리엄 -6348
▁ㅍㅣㅎㅏㄹ -6349
▁식민 -6350
io -6351
▁종목 -6352
▁Pro -6353
▁도박 -6354
▁ㄷㅜㄷㅡㄹ -6355
게임 -6356
▁씬 -6357
▁나츠 -6358
▁유나이티 -6359
▁복구 -6360
▁경로 -6361
▁은신 -6362
▁출입 -6363
▁ㅇㅏㄹㄹㅕㅈㅕㅆ -6364
▁신전 -6365
▁스펠 -6366
▁밍 -6367
▁이식 -6368
▁말투 -6369
▁브루 -6370
▁악명 -6371
▁대선 -6372
▁ㅃㅏㅈㅕㅆ -6373
▁ㅋㅗ -6374
▁하츠 -6375
소녀 -6376
▁왠지 -6377
▁외계인 -6378
▁1970 -6379
▁건조 -6380
▁동인 -6381
▁ㅍㅏㄴ -6382
▁글로벌 -6383
▁코멘트 -6384
▁끔 -6385
▁트랜스 -6386
▁태평 -6387
▁간접 -6388
▁형상 -6389
▁윗 -6390
정부 -6391
▁이수 -6392
▁업로드 -6393
▁Fl -6394
▁ㅇㅔㄷㅏㄱㅏ -6395
▁가방 -6396
▁발달 -6397
▁양성 -6398
▁고개 -6399
▁레딧 -6400
▁와일드 -6401
▁레슬 -6402
ㅢㄴ -6403
▁아미 -6404
▁연맹 -6405
▁하향 -6406
▁시라 -6407
▁천만 -6408
▁불사 -6409
▁김대 -6410
▁숨기 -6411
▁일치 -6412
ㄱㅜㄴ -6413
▁ㅇㅓㄷㅣㄴ -6414
▁적합 -6415
▁Br -6416
▁명확 -6417
▁디스크 -6418
▁소유자 -6419
▁자라 -6420
▁이드 -6421
▁제약 -6422
▁장탄 -6423
0000 -6424
▁유독 -6425
▁아메리카 -6426
▁ㄴㅏㅌㅏㄴㅏㅆ -6427
▁전이 -6428
▁라이플 -6429
▁얀 -6430
▁연극 -6431
▁짤 -6432
▁미키 -6433
▁릴리 -6434
▁드라이버 -6435
▁ㅋㅓㄷㅏㄹㅏㄴ -6436
▁ㅁㅏㅇ -6437
▁구글 -6438
▁정황 -6439
▁사후 -6440
▁anchor -6441
▁화재 -6442
▁ㅂㅣㄹㄹㅕ -6443
▁;& -6444
▁흰 -6445
▁이펙트 -6446
▁매장 -6447
▁ㄷㅚㄷㅗ -6448
▁딕 -6449
▁ㅅㅏㄹㅏㅈㅣㄴㄷㅏ -6450
▁ㅇㅓㄸ -6451
▁리스크 -6452
▁크림 -6453
▁끔찍 -6454
▁저택 -6455
▁팬텀 -6456
▁강점 -6457
▁ㅇㅏㄹㅇㅏ -6458
▁헌법 -6459
▁도라 -6460
▁wiki -6461
▁ㄷㅓㄹㅓ -6462
▁WWE -6463
▁곳곳 -6464
▁주택 -6465
▁아키라 -6466
▁실책 -6467
▁ㅇㅗㄹㅡㄴ -6468
▁울프 -6469
리나 -6470
IP -6471
▁ㄹㅐ -6472
포트 -6473
▁로얄 -6474
▁ㅇㅓㅄ -6475
▁할인 -6476
ㅇㅓㅈㅣㄴㄷㅏ -6477
▁le -6478
▁백성 -6479
▁&# -6480
▁이민 -6481
▁170 -6482
▁리뷰 -6483
▁셜 -6484
▁보완 -6485
▁평생 -6486
▁앞두 -6487
▁암시 -6488
▁그램 -6489
▁Or -6490
▁다이아몬드 -6491
▁문단 -6492
▁렐 -6493
▁ㄱㅏㄹㅡㅊㅕ -6494
UM -6495
IG -6496
▁비주얼 -6497
▁ㅇㅣㄱㅕㅆ -6498
ㅣㄹㅏ -6499
▁운동장 -6500
▁하이퍼 -6501
▁그럭 -6502
▁조별 -6503
▁치킨 -6504
VD -6505
▁마블 -6506
▁ㅎㅐㅇㅛ -6507
▁답변 -6508
▁단축 -6509
▁언덕 -6510
▁알아 -6511
▁야수 -6512
▁우르 -6513
▁허락 -6514
▁금액 -6515
저럭 -6516
▁충실 -6517
▁웨이브 -6518
▁어필 -6519
▁ㅈㅏㄹㄹㅏ -6520
▁만남 -6521
▁메이드 -6522
▁고위 -6523
가리 -6524
▁치즈 -6525
▁그럭저럭 -6526
▁승객 -6527
▁테츠 -6528
▁여우 -6529
▁ㅇㅕㅆㅇㅡㄹ -6530
▁토니 -6531
TE -6532
▁걸맞 -6533
▁조리 -6534
▁플래시 -6535
▁박물 -6536
▁스테이 -6537
▁by -6538
▁1987 -6539
▁호기 -6540
▁원자 -6541
▁시합 -6542
▁비스 -6543
▁덩치 -6544
ㅂㅎㅏㄴ -6545
▁샌드 -6546
▁불펜 -6547
oth -6548
▁감각 -6549
▁상식 -6550
▁자이언츠 -6551
▁항공기 -6552
▁딴 -6553
▁헤어 -6554
▁ㄷㅓㅅ -6555
▁Dr -6556
▁성립 -6557
▁위반 -6558
▁에르 -6559
▁파편 -6560
▁뛰어넘 -6561
▁ㅁㅗㅈ -6562
az -6563
▁언젠 -6564
ㄱㅓㄹ -6565
▁언젠가 -6566
▁스웨덴 -6567
▁트롤 -6568
▁꼼 -6569
▁스크린 -6570
▁승자 -6571
▁출격 -6572
▁ㅇㅣㅀ -6573
▁ㅇㅣㅀㅇㅓㅂㅓㄹ -6574
데미 -6575
▁상영 -6576
▁토너 -6577
ep -6578
▁ㄹㅕㄷㅓㄴ -6579
▁시원 -6580
▁구미 -6581
▁부자 -6582
▁긴장 -6583
ㅊㅕㅅㅓ -6584
man -6585
▁을 -6586
▁기동성 -6587
비드 -6588
▁입대 -6589
▁축복 -6590
▁ㄹㅠ -6591
▁배트맨 -6592
▁구리 -6593
▁선고 -6594
▁유학 -6595
▁매년 -6596
▁필리 -6597
▁집착 -6598
▁천하 -6599
▁ㄷㅏㄴㅣㄴㄷㅏ -6600
▁ㅅㅜㄴ -6601
▁잡아먹 -6602
▁급격 -6603
OU -6604
▁문재인 -6605
▁록맨 -6606
▁놓치 -6607
▁니스 -6608
ale -6609
▁미네 -6610
▁;&# -6611
▁권장 -6612
▁넘버 -6613
▁킬러 -6614
▁OP -6615
▁동성 -6616
▁사살 -6617
▁서구 -6618
▁작년 -6619
▁보드 -6620
▁서서 -6621
▁호칭 -6622
VA -6623
▁창고 -6624
▁ㅌㅣ -6625
▁퇴장 -6626
▁내전 -6627
▁기인 -6628
▁ㄴㅘㅆ -6629
▁아카데미 -6630
▁일대 -6631
ㄷㅡ -6632
▁플래그 -6633
▁토마 -6634
▁해명 -6635
▁스폰 -6636
▁참가자 -6637
▁평점 -6638
▁맷 -6639
▁적중 -6640
▁ㄱㅔㄴ -6641
▁분명히 -6642
▁한쪽 -6643
▁마법소녀 -6644
▁고도 -6645
▁스즈 -6646
ㅈㅣㅁㅏㄴ -6647
▁ㅁㅗㄹㄹㅕ -6648
▁나타내 -6649
▁결심 -6650
▁대수 -6651
70 -6652
▁정하 -6653
▁ㄱㅏㅈㅊㅜㄴ -6654
쟁이 -6655
▁RPG -6656
ach -6657
▁ㅃㅗㅂ -6658
▁ㄸㅏㅇㅗㄴ -6659
▁시공 -6660
▁구름 -6661
▁우에 -6662
▁ㄱㅓㄹㅇㅓ -6663
▁ㄴㅐㄹㅕㅆ -6664
▁실종 -6665
▁교과 -6666
▁케인 -6667
▁노바 -6668
▁동점 -6669
군다 -6670
▁관할 -6671
▁열매 -6672
▁탐험 -6673
arg -6674
▁ㄸㅓㄴㅏㅆ -6675
ㅟㄴ -6676
운서 -6677
ㄷㅜ -6678
▁아나운서 -6679
▁1500 -6680
▁중형 -6681
▁용인 -6682
▁전주 -6683
▁Sc -6684
▁학기 -6685
부르크 -6686
ook -6687
▁그렇지만 -6688
▁꿀 -6689
▁ㄱㅏㄹㅕ -6690
▁ㅈㅜㄱㅇㅕㅆ -6691
▁사키 -6692
▁흑인 -6693
▁근거리 -6694
▁타쿠 -6695
▁본진 -6696
▁랄 -6697
▁약화 -6698
▁결합 -6699
▁결투 -6700
ows -6701
▁ㅇㅓㅄㅇ -6702
▁경직 -6703
▁법인 -6704
▁ㄴㅜㄴ -6705
▁5000 -6706
▁ㅁㅔㄴ -6707
▁떠올리 -6708
▁커녕 -6709
▁ㄲㅡㄹㄹㅕ -6710
▁ㅇㅡㄹㅏ -6711
▁ㅎㅢㄴ -6712
▁ㅆㅡㄹㅓㄸㅡㄹ -6713
▁정기 -6714
▁치르 -6715
▁리플 -6716
▁해안 -6717
▁팟 -6718
▁솜 -6719
▁111 -6720
▁호흡 -6721
orm -6722
▁토너먼트 -6723
▁수능 -6724
▁괜히 -6725
▁어판 -6726
▁전승 -6727
▁기운 -6728
▁마스크 -6729
▁생명체 -6730
▁등지 -6731
▁호시 -6732
▁발렌 -6733
▁믹스 -6734
▁암살자 -6735
▁야생 -6736
▁내일 -6737
▁센스 -6738
ish -6739
▁채보 -6740
▁파르 -6741
ky -6742
▁막내 -6743
▁ㅇㅕㅇㅑ -6744
▁쓰러뜨리 -6745
▁럼 -6746
▁연합군 -6747
▁악몽 -6748
▁Team -6749
▁천안 -6750
▁KBO -6751
▁완결 -6752
▁페이스북 -6753
▁지위 -6754
▁근본 -6755
▁크레 -6756
▁겹치 -6757
▁}} -6758
▁동아리 -6759
▁정차 -6760
▁뮤지컬 -6761
▁변환 -6762
▁불교 -6763
▁솔직 -6764
▁스위치 -6765
▁우정 -6766
▁본사 -6767
▁불타 -6768
▁BB -6769
ㅃㅓ -6770
▁박물관 -6771
▁엔드 -6772
▁슬라이 -6773
무시 -6774
▁Go -6775
▁선두 -6776
▁침략 -6777
ae -6778
▁휘두르 -6779
▁연습생 -6780
▁베리 -6781
▁침묵 -6782
▁통화 -6783
▁ㅂㅜㄹㅡㄹ -6784
GE -6785
▁침입 -6786
▁베타 -6787
▁보이스 -6788
▁지팡이 -6789
▁마우스 -6790
▁와타 -6791
▁헐 -6792
▁ㄱㅏㅂㅕ -6793
ug -6794
▁알아보 -6795
▁소음 -6796
▁장인 -6797
▁리카 -6798
Hz -6799
▁ㄷㅡㄹㅇㅓㅇㅘㅆ -6800
ade -6801
▁헝 -6802
rom -6803
▁초인 -6804
▁동급 -6805
▁ㅂㅓㄹㅇㅓㅈㅕㅆ -6806
일보 -6807
▁마물 -6808
▁ㄷㅏㄱ -6809
커스 -6810
▁싹 -6811
▁따라가 -6812
▁유발 -6813
▁트리플 -6814
▁타석 -6815
▁인디 -6816
▁유력 -6817
▁ㅇㅗㄹㄹㅣㄹ -6818
ile -6819
▁돌입 -6820
▁통계 -6821
▁면적 -6822
려들 -6823
▁유격 -6824
▁판결 -6825
▁부실 -6826
yle -6827
▁관리자 -6828
▁FIFA -6829
▁참모 -6830
▁지불 -6831
▁키타 -6832
▁영광 -6833
▁교도 -6834
▁ㅎㅐㅆㅇㅡㄴㅣ -6835
▁대왕 -6836
▁사인 -6837
▁지진 -6838
▁서클 -6839
▁임팩트 -6840
▁일본군 -6841
▁법정 -6842
▁새롭 -6843
ash -6844
군다나 -6845
▁끈 -6846
ower -6847
irl -6848
▁소방 -6849
▁ㅂㅏㄲㅟㄴㄷㅏ -6850
▁ㄱㅓㄴㄱㅏ -6851
ink -6852
반도 -6853
▁수급 -6854
▁ㅋㅏㄴ -6855
▁철수 -6856
▁1986 -6857
프리 -6858
▁벙 -6859
ㅁㅗ -6860
부로 -6861
데드 -6862
▁출구 -6863
▁균형 -6864
▁가죽 -6865
▁허가 -6866
▁무시무시 -6867
▁쓰러지 -6868
▁임신 -6869
▁ㅣ -6870
▁ㄱㅜㅎㅏㄹ -6871
▁통치 -6872
▁무작위 -6873
▁노스 -6874
▁인피 -6875
▁대거 -6876
▁ㄱㅓㄹㄹㅕㅆ -6877
▁재정 -6878
▁더군다나 -6879
▁CH -6880
▁무관 -6881
▁우타 -6882
▁언데드 -6883
▁가디언 -6884
▁보험 -6885
▁수비력 -6886
▁부서 -6887
▁프리미엄 -6888
▁도망가 -6889
▁ㅇㅓㄹㅕㅆ -6890
TS -6891
▁감지 -6892
▁세팅 -6893
▁CG -6894
은행 -6895
▁항복 -6896
▁콜로 -6897
▁간간 -6898
atch -6899
▁히라 -6900
▁인질 -6901
▁채택 -6902
▁폐쇄 -6903
▁인종 -6904
▁인력 -6905
▁신발 -6906
▁썬더 -6907
▁FW -6908
▁디젤 -6909
▁여러분 -6910
▁안개 -6911
▁ㅅㅣㅋㅕㅅㅓ -6912
▁이라 -6913
▁막판 -6914
▁격차 -6915
▁ㅇㅓㄹㅏ -6916
▁삽입 -6917
▁ㅅㅏㄹㅏㅈㅕ -6918
▁we -6919
▁몽골 -6920
▁스쿨 -6921
▁반박 -6922
▁고블린 -6923
▁ㅇㅓㄷㅣㄴㄱㅏ -6924
▁철저 -6925
▁ㅁㅏㅇㅎㅐㅆ -6926
▁인방 -6927
센트 -6928
▁이혼 -6929
▁뿜 -6930
▁단원 -6931
▁남북 -6932
▁토시 -6933
▁제정 -6934
▁ㄲㅡㄶ -6935
▁아끼 -6936
▁ㅁㅜㄱ -6937
▁관계자 -6938
ㅍㅡㄴ -6939
IM -6940
▁바디 -6941
▁ㅈㅏㄴ -6942
▁ㅅㅓㄴㅂㅗㅇㅕㅆ -6943
▁ㄷㅓㅅㅂㅜㅌ -6944
▁ㄷㅏㄹㅜㄴ -6945
▁핑크 -6946
▁경남 -6947
▁비전 -6948
▁DD -6949
▁데모 -6950
▁창원 -6951
▁출루 -6952
▁유인 -6953
ㄷㅡㄴㅈㅣ -6954
ial -6955
▁돌려 -6956
▁리프 -6957
▁백인 -6958
▁존경 -6959
sh -6960
머스 -6961
▁트럼프 -6962
CG -6963
▁후계자 -6964
▁가라 -6965
▁남매 -6966
▁그린 -6967
▁포위 -6968
▁텟 -6969
▁여주 -6970
▁포켓몬스터 -6971
▁ㅇㅏㄴㅣㄴㄷㅔ -6972
▁깨달 -6973
ㅂㅅㅣㅇㅗ -6974
▁배포 -6975
▁고구려 -6976
▁살아가 -6977
ㅁㅏㄹ -6978
▁스파이더 -6979
▁뻗 -6980
▁무사히 -6981
▁코르 -6982
▁ㅆㅏㅇㅝㅆ -6983
▁아틀 -6984
▁이타 -6985
▁영원히 -6986
▁수면 -6987
▁ㅎㅏㄴㅈㅣ -6988
▁골렘 -6989
▁투스 -6990
먼스 -6991
▁예수 -6992
▁스트레스 -6993
▁챌린지 -6994
▁War -6995
▁복제 -6996
▁인용 -6997
▁매번 -6998
▁동양 -6999
▁일당 -7000
래시 -7001
▁김경 -7002
▁ㅆㅡㅇㅕㅆ -7003
▁ㅇㅓㄷㅜㅇㅜㄴ -7004
여객 -7005
▁ID -7006
▁체인지 -7007
▁복선 -7008
▁거듭 -7009
▁쿠라 -7010
▁오늘날 -7011
▁팁 -7012
▁어이 -7013
▁티아 -7014
▁무너지 -7015
▁기세 -7016
전차 -7017
▁국당 -7018
▁옮 -7019
▁캐치 -7020
▁소송 -7021
▁학습 -7022
▁Star -7023
▁LA -7024
▁물량 -7025
▁중복 -7026
▁106 -7027
▁ㅇㅔㄹ -7028
▁읍 -7029
▁개설 -7030
리스트 -7031
▁포르투갈 -7032
▁ㅇㅣㄹㅇㅡㅋㅕ -7033
코드 -7034
▁가만히 -7035
▁아테 -7036
▁메이플 -7037
▁up -7038
▁ㄴㅜㄹ -7039
▁보충 -7040
▁수출 -7041
▁준우승 -7042
▁탕 -7043
▁왜곡 -7044
▁리오 -7045
▁ㅂㅏㄴㅎㅐ -7046
▁ㄴㅑㅁㅕㄴ -7047
▁레지 -7048
▁에픽 -7049
▁동명 -7050
▁간단히 -7051
▁즉사 -7052
필드 -7053
▁선행 -7054
▁보건 -7055
▁체험 -7056
▁해머 -7057
오루 -7058
▁코난 -7059
▁상담 -7060
▁축하 -7061
▁이란 -7062
▁오디션 -7063
▁장신 -7064
▁물고기 -7065
▁분열 -7066
▁대책 -7067
▁토크 -7068
▁자르 -7069
▁파이트 -7070
▁이글 -7071
▁웰 -7072
▁기상 -7073
▁정통 -7074
카이 -7075
▁미만 -7076
▁잠입 -7077
▁피닉스 -7078
▁ㄱㅓㄹㄹㅣㄴㄷㅏ -7079
천시 -7080
▁이주 -7081
▁미나미 -7082
▁지리 -7083
▁만만 -7084
▁데이트 -7085
▁귀엽 -7086
▁네트워크 -7087
▁중력 -7088
▁혼돈 -7089
▁코트 -7090
▁배정 -7091
▁라라 -7092
▁ㅇㅜㅅ -7093
▁ㅁㅏㅈㅅㅓ -7094
▁닉네임 -7095
▁DVD -7096
티스 -7097
▁오키 -7098
▁하마 -7099
▁메이커 -7100
키지 -7101
▁버섯 -7102
▁처분 -7103
▁시크 -7104
▁멜로디 -7105
▁해킹 -7106
▁PR -7107
▁전북 -7108
▁115 -7109
▁항의 -7110
▁공업 -7111
▁오우 -7112
▁포즈 -7113
화점 -7114
▁수석 -7115
▁마다 -7116
▁선제 -7117
▁나미 -7118
▁ON -7119
▁상한 -7120
▁후원 -7121
▁여전 -7122
▁단행 -7123
▁진압 -7124
▁자전거 -7125
▁오메 -7126
▁억지로 -7127
▁102 -7128
▁야마토 -7129
▁악기 -7130
ING -7131
▁ㅈㅜㄹㅇㅓㄷㅡㄴ -7132
▁패키지 -7133
▁트릭 -7134
▁개업 -7135
▁ㄸㅓㄴㅏㄴ -7136
▁수백 -7137
▁fe -7138
▁뽀 -7139
ous -7140
▁아랍 -7141
▁마드리 -7142
▁벨트 -7143
▁기재 -7144
▁ㅌㅓㄹ -7145
▁사령부 -7146
▁ㄷㅏㄴㅕㅆ -7147
▁입주 -7148
▁자본 -7149
▁ㅂㅏㄺㅎㅣㄴ -7150
▁유산 -7151
▁퍼포 -7152
▁배역 -7153
▁ㄲㅔㅅㅓ -7154
▁퍼포먼스 -7155
▁장거리 -7156
▁기갑 -7157
▁For -7158
▁수명 -7159
▁Ne -7160
▁기동전 -7161
▁서포트 -7162
▁플러스 -7163
▁라그 -7164
▁장탄수 -7165
▁And -7166
att -7167
▁악화 -7168
▁돔 -7169
▁기름 -7170
amp -7171
▁대포 -7172
▁ㅇㅣㄹㅜㅇㅓㅈㅕ -7173
세대 -7174
▁성전 -7175
▁마드리드 -7176
자와 -7177
붙이 -7178
▁ㄴㅗㄹㅕ -7179
가드 -7180
▁콘텐츠 -7181
▁고리 -7182
▁오스트리아 -7183
▁블라 -7184
▁ㅇㅓㅇㅜ -7185
▁사이코 -7186
▁옹호 -7187
▁ㄹㅠㄴ -7188
▁대치 -7189
▁닛 -7190
▁파멸 -7191
▁호랑이 -7192
▁통로 -7193
▁분쟁 -7194
▁}}} -7195
▁정발 -7196
▁우세 -7197
▁파동 -7198
▁ㅁㅗㄹㅡㄴ -7199
▁전제 -7200
▁프레이 -7201
▁ㄱㅡㄹㄹㅓ -7202
▁신나 -7203
▁야구장 -7204
게이 -7205
▁궁금 -7206
야수 -7207
▁ㅈㅣㄴㅐㅆ -7208
▁사용자 -7209
▁가공 -7210
▁그날 -7211
▁세부 -7212
▁신입 -7213
▁이스라 -7214
▁ㄲㅡㅌㄴㅏㄴㄷㅏ -7215
▁카구 -7216
▁GP -7217
▁ㄷㅡㄹㅓㄴㅏㅆ -7218
▁유미 -7219
▁나기 -7220
▁ㅁㅓ -7221
▁도감 -7222
▁모험가 -7223
▁첼시 -7224
▁175 -7225
▁주니어 -7226
▁탐정 -7227
▁기력 -7228
바닥 -7229
▁Cr -7230
▁ㄴㅡㄹㅇㅓㄴㅏㅆ -7231
▁논의 -7232
▁188 -7233
▁ㄹㅏㄴㅣ -7234
▁재회 -7235
▁Wind -7236
▁배달 -7237
▁ㄱㅓㄴㄴㅓ -7238
▁무술 -7239
▁조약 -7240
▁최상위 -7241
아키 -7242
▁깜짝 -7243
▁아르헨 -7244
▁ㄴㅡㄹㅕ -7245
▁김상 -7246
▁공정 -7247
ㅇㅓㅈㅕㅆ -7248
▁1985 -7249
▁ㅇㅣㄹㅈㅣ -7250
▁비웃 -7251
▁처참 -7252
크로 -7253
▁행방 -7254
▁분해 -7255
▁광선 -7256
▁디즈 -7257
▁세포 -7258
▁젤리 -7259
▁파생 -7260
하시 -7261
▁커지 -7262
me -7263
▁진주 -7264
▁버드 -7265
▁ㅂㅏㄷㅇㅏㄷㅡㄹㅇㅕ -7266
▁산하 -7267
▁시트 -7268
ㄷㅜㄴ -7269
▁모터 -7270
▁양상 -7271
▁bl -7272
▁진학 -7273
▁무스 -7274
▁노조 -7275
▁체감 -7276
▁유성 -7277
▁박지 -7278
▁차체 -7279
▁ㅌㅟㅇㅓㄴㅏ -7280
AY -7281
▁위안 -7282
▁조우 -7283
▁후손 -7284
▁마코토 -7285
▁나비 -7286
▁아르헨티나 -7287
▁장미 -7288
▁증폭 -7289
텐도 -7290
▁토키 -7291
▁닌텐도 -7292
▁롬 -7293
▁저지르 -7294
▁터스 -7295
▁레일 -7296
▁wid -7297
▁ㅌㅓㅈㅕ -7298
▁ㅉㅏ -7299
▁왜냐 -7300
▁조이 -7301
▁리온 -7302
▁ㄲㅓㄴㅐ -7303
ms -7304
▁강원도 -7305
▁ㄴㅡㄹㄹㅕ -7306
▁ㅂㅓㄴ -7307
▁여학생 -7308
▁고로 -7309
ib -7310
▁김진 -7311
▁즈음 -7312
64 -7313
▁독재 -7314
▁아동 -7315
▁관점 -7316
▁폭행 -7317
▁퍼지 -7318
▁부착 -7319
▁주둔 -7320
▁니콜 -7321
▁금메달 -7322
▁al -7323
▁방치 -7324
▁규격 -7325
ft -7326
▁업계 -7327
▁난사 -7328
▁검술 -7329
▁들어서 -7330
▁페널티 -7331
▁조기 -7332
▁휘하 -7333
▁베네 -7334
now -7335
▁시카 -7336
▁드루 -7337
▁한두 -7338
▁공수 -7339
▁사귀 -7340
▁듀오 -7341
▁전파 -7342
▁질투 -7343
▁ㄱㅕㅂㅊㅕ -7344
▁띠 -7345
▁마냥 -7346
▁350 -7347
▁무인 -7348
아이 -7349
▁제독 -7350
벌레 -7351
▁전무 -7352
▁ㅊㅣㄴㅎㅏㄴ -7353
▁width -7354
▁벼 -7355
▁히가시 -7356
▁ㅇㅣㄱㅓㄹㄹㅗ -7357
▁브레 -7358
▁중세 -7359
▁훈장 -7360
▁Gam -7361
승부 -7362
▁택시 -7363
▁불량 -7364
▁톨 -7365
▁조커 -7366
MP -7367
▁PP -7368
▁베테 -7369
▁파란색 -7370
▁ㅅㅔㅇㅝㅆ -7371
ps -7372
▁경주 -7373
렐라 -7374
▁괴롭 -7375
▁측정 -7376
▁ㄴㅏㅁㅏ -7377
▁ㄴㅔㄴ -7378
▁ㄴㅐㄱㅔ -7379
▁감상 -7380
▁드론 -7381
▁IN -7382
▁소요 -7383
▁자꾸 -7384
▁중장 -7385
▁면허 -7386
▁방송국 -7387
▁개발자 -7388
▁BS -7389
▁ㅅㅗㄱㅎㅏㄴㄷㅏ -7390
▁스트리트 -7391
비전 -7392
▁감동 -7393
▁이스라엘 -7394
▁김기 -7395
▁스탠드 -7396
▁도저히 -7397
▁오염 -7398
▁늘리 -7399
ㄷㅣ -7400
▁능력자 -7401
▁전동 -7402
oll -7403
▁토큰 -7404
▁승무원 -7405
▁1984 -7406
▁세인트 -7407
▁약탈 -7408
▁루스 -7409
▁최적 -7410
▁기원전 -7411
히코 -7412
▁부사 -7413
TV -7414
▁후자 -7415
▁트루 -7416
▁틴 -7417
▁이온 -7418
pl -7419
▁지사 -7420
▁BR -7421
▁시상 -7422
▁발목 -7423
▁Man -7424
12 -7425
▁신도 -7426
▁AKB -7427
▁대단히 -7428
▁디바 -7429
▁하하 -7430
▁룩 -7431
▁산탄 -7432
▁국판 -7433
▁스캔 -7434
▁맡기 -7435
▁루머 -7436
▁운수 -7437
▁위성 -7438
▁피트 -7439
▁후퇴 -7440
태프 -7441
▁ㄷㅗㄹㅇㅏㅇㅘ -7442
▁나루토 -7443
▁에디 -7444
port -7445
▁UN -7446
▁유니크 -7447
▁우월 -7448
▁루이스 -7449
▁둠 -7450
▁닝 -7451
▁기장 -7452
▁All -7453
▁ㅎㅡ -7454
▁우치 -7455
▁옮기 -7456
▁광장 -7457
▁내려오 -7458
▁주행 -7459
▁선거구 -7460
▁아시안 -7461
▁ㄱㅡㄹㅐㅅㅓㅇㅣㄴㅈㅣ -7462
▁찢 -7463
▁브로 -7464
▁이종 -7465
▁스텝 -7466
번에 -7467
▁왕위 -7468
▁루크 -7469
▁식민지 -7470
▁아레나 -7471
▁코마 -7472
신교 -7473
▁상관없이 -7474
▁샷건 -7475
▁바론 -7476
▁ex -7477
아나 -7478
▁혈액형 -7479
▁선보이 -7480
▁나노 -7481
▁서서히 -7482
▁조용히 -7483
▁자비 -7484
▁ㄷㅓㄴㄱㅏ -7485
카락 -7486
▁달라지 -7487
▁창단 -7488
▁머리카락 -7489
▁소용 -7490
▁Part -7491
▁ㄴㅏㅇㅛ -7492
▁철권 -7493
▁SU -7494
▁과도 -7495
▁자녀 -7496
▁베기 -7497
▁에반 -7498
▁ㅇㅣㄹㅇㅡㅋㅣㄴ -7499
▁제출 -7500
▁ㅎㅣ -7501
▁112 -7502
▁토미 -7503
▁ㅇㅗㄹㄹㅏㄱㅏㅆ -7504
▁ㅊㅣㄴㅎㅐ -7505
경기 -7506
▁드림 -7507
▁라이너 -7508
▁KR -7509
▁까이 -7510
▁ㅂㅐㄴ -7511
▁조롱 -7512
▁공백 -7513
▁기둥 -7514
▁야간 -7515
▁분당 -7516
▁명의 -7517
▁아가씨 -7518
▁다운로드 -7519
▁원리 -7520
▁En -7521
▁간호 -7522
▁비명 -7523
▁얻어맞 -7524
▁노가 -7525
▁일화 -7526
▁힐러 -7527
ㅇㅎㅏㄴㄷㅏ -7528
▁요인 -7529
ond -7530
▁연고 -7531
▁수월 -7532
세서 -7533
▁철거 -7534
키퍼 -7535
▁처지 -7536
▁투척 -7537
▁마감 -7538
▁프렌 -7539
▁쇼핑 -7540
▁ㄹㅕㄷㅏ -7541
▁백작 -7542
어놓 -7543
▁대시 -7544
▁DC -7545
ment -7546
▁실장 -7547
▁돌연 -7548
▁막히 -7549
▁장사 -7550
▁보존 -7551
▁LP -7552
▁ㅆㅡㅇㅕ -7553
▁몫 -7554
▁중시 -7555
▁캣 -7556
▁Sup -7557
▁더빙 -7558
필더 -7559
▁미드필더 -7560
▁절차 -7561
▁굵 -7562
▁고증 -7563
▁리즈 -7564
▁줄거리 -7565
▁루피 -7566
▁Mar -7567
▁Fate -7568
▁ㅂㅏㄲㅜㄹ -7569
▁ㅅㅣㅂㅅㅣㅇㅗ -7570
▁뻥 -7571
▁뒤늦 -7572
▁프란 -7573
▁전망 -7574
▁108 -7575
ase -7576
▁범죄자 -7577
데레 -7578
▁시신 -7579
▁막상 -7580
▁반부 -7581
▁타이거즈 -7582
▁닐 -7583
▁ㅃㅐㅇㅏ -7584
▁무산 -7585
▁엑시 -7586
▁경악 -7587
▁AN -7588
▁듀스 -7589
▁수동 -7590
▁수색 -7591
▁합병 -7592
▁호소 -7593
▁온천 -7594
▁쇼크 -7595
▁주류 -7596
▁챙기 -7597
▁ㅊㅣㄴㄷㅏ -7598
▁저하 -7599
▁시외 -7600
도리 -7601
유럽 -7602
▁시바 -7603
▁오락 -7604
▁ㅅㅏㄹㅇㅏ -7605
▁특급 -7606
▁긴급 -7607
우리 -7608
▁원조 -7609
▁라이온즈 -7610
ool -7611
하르트 -7612
▁스리 -7613
▁여인 -7614
▁에릭 -7615
▁식품 -7616
▁ㅅㅡㄹㅓㅇㅝ -7617
▁고객 -7618
▁와카 -7619
▁골키퍼 -7620
▁나폴 -7621
▁배드 -7622
▁인권 -7623
▁평일 -7624
▁낙하 -7625
▁360 -7626
▁합계 -7627
▁ㅈㅜㄹㅇㅕ -7628
▁유재 -7629
▁117 -7630
▁배급 -7631
▁모로 -7632
▁꼬마 -7633
▁빅토 -7634
▁이나 -7635
▁청와 -7636
▁생애 -7637
▁의자 -7638
▁걸즈 -7639
▁마계 -7640
블로 -7641
▁우유 -7642
▁교단 -7643
▁성당 -7644
▁ㅎㅣㅁㄷㅡㄹ -7645
▁세라 -7646
▁ㅋㅣㅇㅝ -7647
투스 -7648
▁지칭 -7649
▁발굴 -7650
▁타일 -7651
런트 -7652
▁복합 -7653
▁막아내 -7654
▁킷 -7655
▁실은 -7656
▁직장 -7657
▁안양 -7658
▁카시 -7659
▁ㅅㅔㅇㅜㄴ -7660
▁로빈 -7661
▁잠실 -7662
▁러시 -7663
▁샤이 -7664
▁증상 -7665
▁임금 -7666
▁아아 -7667
▁스포일러 -7668
▁One -7669
▁방위 -7670
▁며칠 -7671
▁강림 -7672
▁GO -7673
▁바스 -7674
ph -7675
▁팡 -7676
▁폭파 -7677
▁고소 -7678
▁ㅇㅗㅂ -7679
▁만일 -7680
▁ㅊㅣㄹㅓ -7681
▁확장팩 -7682
▁청와대 -7683
▁ㄲㅏㄷㅏ -7684
▁공인 -7685
▁달하 -7686
▁국경 -7687
▁어시스트 -7688
▁여고 -7689
▁당당 -7690
▁부임 -7691
▁개별 -7692
▁ㅂㅏㄲㅜㄴ -7693
▁유의 -7694
▁미루 -7695
▁ㅈㅓㅈㅣㄹㅡㄴ -7696
산시 -7697
▁ㄷㅡㄹㄹㅕ -7698
▁그라운드 -7699
▁후회 -7700
▁ㄷㅜㄹㅕ -7701
▁로이 -7702
틀러 -7703
ree -7704
▁Oh -7705
저리 -7706
▁기묘 -7707
▁ㅂㅓㄹㅕㅅㅓ -7708
▁로버트 -7709
▁꽉 -7710
▁뱃 -7711
▁배수 -7712
▁뱅크 -7713
▁명백 -7714
▁오로지 -7715
▁ㅂㅏㄹㅡㄴ -7716
▁거북 -7717
▁오이 -7718
▁프린세스 -7719
▁교복 -7720
▁코스튬 -7721
▁휠 -7722
▁예고편 -7723
▁특별히 -7724
▁그거 -7725
ㅂㅏ -7726
▁포스터 -7727
▁선사 -7728
▁역습 -7729
▁통틀 -7730
플레이 -7731
▁그레 -7732
▁시로 -7733
▁비치 -7734
▁학생회 -7735
▁청주 -7736
▁개장 -7737
▁ㅊㅕㅅㅓ -7738
▁히든 -7739
▁헨리 -7740
▁붐 -7741
▁집어넣 -7742
▁As -7743
도르 -7744
▁극도 -7745
▁아이러 -7746
리온 -7747
▁New -7748
▁회담 -7749
▁쓸데 -7750
학자 -7751
▁도트 -7752
▁하이라이트 -7753
▁조명 -7754
▁찾아가 -7755
▁ㅃㅐㅇㅏㅅ -7756
▁수염 -7757
ason -7758
▁끊임 -7759
베스 -7760
▁퍼즐 -7761
불명 -7762
▁FM -7763
▁ㅅㅟㅇㅝ -7764
▁관찰 -7765
▁엿 -7766
▁뜬금없이 -7767
▁사야 -7768
▁여객 -7769
▁103 -7770
▁되게 -7771
카이도 -7772
▁남아 -7773
ai -7774
▁어쩌면 -7775
▁오더 -7776
aby -7777
▁불행 -7778
▁렌즈 -7779
▁개신교 -7780
▁모집 -7781
▁ㄱㅓㄷㅡㄴ -7782
▁술사 -7783
불호 -7784
▁호불호 -7785
러그 -7786
릴라 -7787
▁실존 -7788
▁비스트 -7789
▁마케 -7790
▁양손 -7791
▁성질 -7792
▁흰색 -7793
▁잡아내 -7794
크라 -7795
▁세뇌 -7796
▁트레일러 -7797
▁부동 -7798
▁캘 -7799
▁1960 -7800
▁유언 -7801
▁동경 -7802
▁에로 -7803
▁매출 -7804
▁셔틀 -7805
▁흔들리 -7806
▁케이드 -7807
▁ㅇㅏㄹㅏ -7808
▁220 -7809
▁보라색 -7810
▁장로 -7811
▁유기 -7812
▁각오 -7813
▁CS -7814
▁JP -7815
▁무섭 -7816
▁물품 -7817
▁바지 -7818
그리 -7819
▁결계 -7820
▁올스타 -7821
▁트레이너 -7822
▁우주선 -7823
▁과학자 -7824
▁찾아보 -7825
▁ㅇㅣㄱㅣㄴ -7826
▁프로토 -7827
▁지인 -7828
▁un -7829
▁캐시 -7830
▁알라 -7831
▁모듈 -7832
▁항구 -7833
▁구르 -7834
▁샵 -7835
▁손상 -7836
▁떠오르 -7837
▁유망 -7838
▁오브젝트 -7839
▁ㄸㅡㄱ -7840
▁초콜 -7841
▁타르 -7842
▁나스 -7843
▁심의 -7844
에이 -7845
▁타이탄 -7846
▁코미디 -7847
▁여파 -7848
▁웨스트 -7849
키아 -7850
▁회색 -7851
▁라크 -7852
▁z -7853
ㅑㅇ -7854
▁연봉 -7855
▁UE -7856
▁우즈 -7857
▁240 -7858
▁라즈 -7859
▁법칙 -7860
▁국정 -7861
▁윈드 -7862
▁ㅅㅔㄹ -7863
▁비유 -7864
▁지향 -7865
▁ㅇㅣㄹㅏㄴ -7866
▁원곡 -7867
▁tv -7868
▁풋 -7869
oon -7870
▁무승부 -7871
돌이 -7872
▁진격 -7873
▁폐기 -7874
▁포탄 -7875
▁이와 -7876
▁ㅋㅣㄴ -7877
▁엘리자 -7878
▁손실 -7879
러나 -7880
마크 -7881
▁ㄷㅏㅁㄱㅣㄴ -7882
▁128 -7883
싱턴 -7884
▁치열 -7885
▁김용 -7886
90 -7887
▁ㅁㅏㄴㅑㅇ -7888
▁드로우 -7889
▁갈아 -7890
▁늙 -7891
▁가져오 -7892
▁홀드 -7893
베이 -7894
▁유출 -7895
▁추리 -7896
▁포장 -7897
MS -7898
▁건국 -7899
▁국장 -7900
▁광산 -7901
▁신선 -7902
▁브라운 -7903
▁ㅈㅣㅇㅝ -7904
▁함부로 -7905
▁썰 -7906
저기 -7907
▁따뜻 -7908
▁무공 -7909
▁영지 -7910
▁리버풀 -7911
▁갤러 -7912
▁랑 -7913
거지 -7914
act -7915
▁이글스 -7916
▁제갈량 -7917
▁즉위 -7918
▁우드 -7919
▁맥주 -7920
▁제네 -7921
ox -7922
▁짐승 -7923
▁중순 -7924
▁임기 -7925
라노 -7926
▁ㄱㅓㅊㅣㄴ -7927
▁태어나 -7928
▁엄밀 -7929
▁발리 -7930
▁트랩 -7931
▁장판 -7932
▁코믹 -7933
토스 -7934
▁슬로 -7935
▁노동자 -7936
hen -7937
▁클론 -7938
▁ㄱㅣㄷㅏㄹㅕ -7939
ㄷㅐ -7940
▁패전 -7941
▁단기 -7942
▁반감 -7943
▁배려 -7944
▁하스 -7945
▁여기저기 -7946
▁합리 -7947
ARD -7948
▁워크래프트 -7949
▁모스 -7950
▁서머 -7951
▁안심 -7952
▁탐지 -7953
▁go -7954
▁원더 -7955
▁이웃 -7956
메이 -7957
▁스핀 -7958
▁튼 -7959
▁아바타 -7960
▁먹히 -7961
▁사이클 -7962
▁간주 -7963
▁TVA -7964
▁네티 -7965
▁최우 -7966
▁하프 -7967
▁ㅇㅗㄹㄹㅏㄱㅏㄴㄷㅏ -7968
▁나나 -7969
▁신데 -7970
▁양자 -7971
▁쿤 -7972
▁ㅅㅐㅇㄱㅣㄹ -7973
펴보 -7974
▁살펴보 -7975
▁%/ -7976
▁알렉스 -7977
▁기수 -7978
▁ㅈㅣㄴㅕㅆ -7979
▁독점 -7980
▁커스텀 -7981
▁계수 -7982
▁백제 -7983
▁섀도우 -7984
ank -7985
▁ㄲㅡㅁ -7986
▁리안 -7987
▁트리거 -7988
▁트라우마 -7989
▁휴가 -7990
▁로이드 -7991
▁아쉬 -7992
▁마땅 -7993
▁쉴 -7994
보내 -7995
▁당대 -7996
▁라틴 -7997
▁ㅎㅐㄹㅏ -7998
▁키라 -7999
▁트로피 -8000
▁지연 -8001
▁끌어 -8002
▁레온 -8003
▁관통력 -8004
▁신용 -8005
▁장난감 -8006
▁시비 -8007
▁단검 -8008
▁사립 -8009
▁방탄 -8010
▁스나이 -8011
▁후미 -8012
▁여럿 -8013
우치 -8014
▁상륙 -8015
깨비 -8016
▁대조 -8017
ich -8018
▁생전 -8019
▁벤치 -8020
▁야쿠 -8021
▁때려 -8022
▁김준 -8023
▁나르 -8024
▁콤비 -8025
▁일요일 -8026
▁옐 -8027
▁소프트웨어 -8028
▁World -8029
▁날씨 -8030
▁1982 -8031
▁신자 -8032
▁디즈니 -8033
▁태평양 -8034
▁JT -8035
▁우익 -8036
▁신데렐라 -8037
▁단종 -8038
포르 -8039
ear -8040
▁이모 -8041
▁시리아 -8042
▁아이러니 -8043
▁빨간 -8044
▁시인 -8045
▁혜택 -8046
▁ㄴㅐㅅㅔ -8047
ife -8048
▁챔피언십 -8049
▁프라임 -8050
▁토요일 -8051
ary -8052
lect -8053
▁태국 -8054
▁ㅎㅏㄹㄲㅏ -8055
▁신속 -8056
▁Mk -8057
▁수습 -8058
▁선임 -8059
▁ㅍㅜㄹㄹㅕ -8060
▁음료 -8061
▁사법 -8062
▁그만두 -8063
블리 -8064
▁권유 -8065
란히 -8066
▁손오 -8067
▁ㄱㅏㄲㅏㅇㅝ -8068
▁당사자 -8069
▁변수 -8070
▁파밍 -8071
▁독일군 -8072
▁주어지 -8073
▁갚 -8074
▁센서 -8075
▁도장 -8076
하나 -8077
▁허무 -8078
▁방송사 -8079
▁파울 -8080
▁순양함 -8081
▁근원 -8082
▁네티즌 -8083
▁권위 -8084
▁ㅇㅣㄹㅇㅡㅋㅕㅆ -8085
하마 -8086
▁되돌 -8087
▁막강 -8088
▁스트라이커 -8089
▁추세 -8090
▁ㅁㅗㄹ -8091
▁ㅌㅟㅇㄱㅕ -8092
▁벡 -8093
에르 -8094
▁스피릿 -8095
▁실내 -8096
▁디시 -8097
▁서바이 -8098
▁돋 -8099
싸움 -8100
▁의학 -8101
▁서기 -8102
▁지목 -8103
반기 -8104
▁ㄹㅕㄷㅏㄱㅏ -8105
uk -8106
AP -8107
▁추방 -8108
▁all -8109
▁뭉 -8110
▁상사 -8111
ㄷㅚ -8112
▁슬라 -8113
▁라스트 -8114
▁경호 -8115
▁후임 -8116
키리 -8117
더라 -8118
▁ㅁㅜㄹㄹㅓㄴ -8119
ET -8120
▁약물 -8121
▁LIVE -8122
렉션 -8123
▁전생 -8124
▁곱 -8125
▁ㄷㅡㄹㅇㅕ -8126
▁버스트 -8127
▁키보드 -8128
way -8129
▁SF -8130
▁마카 -8131
▁짐작 -8132
쿠라 -8133
▁탭 -8134
사기 -8135
▁카더라 -8136
▁결제 -8137
▁전남 -8138
▁ㅂㅜㄹㄹㅕㅆ -8139
▁유혹 -8140
▁표면 -8141
▁선장 -8142
▁드레스 -8143
▁조상 -8144
▁ㄴㅐㄹㅣㄴ -8145
▁배출 -8146
▁185 -8147
▁아름 -8148
▁흡사 -8149
▁극히 -8150
▁지력 -8151
▁후반기 -8152
ple -8153
▁침대 -8154
▁구조물 -8155
▁ㅂㅓㄹㅇㅕㅆ -8156
▁Day -8157
▁유전자 -8158
▁김해 -8159
▁엽 -8160
▁켜 -8161
타카 -8162
▁논쟁 -8163
▁근접전 -8164
▁샬 -8165
▁Fr -8166
▁태클 -8167
▁1983 -8168
▁기호 -8169
▁실시간 -8170
▁고치 -8171
▁설령 -8172
▁진상 -8173
▁패밀리 -8174
▁경북 -8175
▁정석 -8176
▁낙선 -8177
▁감수 -8178
▁몰리 -8179
▁ㅇㅏㅆㅇㅓㅆ -8180
ㅂㅗㄴㄷㅏ -8181
▁마피아 -8182
ㅂㅎㅣㄴㄷㅏ -8183
▁좌절 -8184
▁ㅎㅡㄴㅎㅏㄴ -8185
▁강사 -8186
▁동속 -8187
▁ㄱㅏㅈㅊㅝ -8188
▁니혼 -8189
▁are -8190
▁합동 -8191
▁페리 -8192
▁ㄷㅚㄹㅈㅣ -8193
사리 -8194
▁창설 -8195
▁매니아 -8196
▁둘러보 -8197
▁간간히 -8198
▁스타디 -8199
숭이 -8200
▁로보 -8201
▁ㄴㅡㄲㅕㅆ -8202
▁비극 -8203
▁119 -8204
노리 -8205
▁포획 -8206
▁찾아오 -8207
▁물체 -8208
▁울트라맨 -8209
▁do -8210
▁nd -8211
▁역임 -8212
ype -8213
ens -8214
▁집권 -8215
▁원형 -8216
▁DPS -8217
▁낭비 -8218
▁백화점 -8219
▁성배 -8220
▁시온 -8221
▁중상 -8222
▁lv -8223
▁사무소 -8224
▁전날 -8225
▁{{{# -8226
▁도리 -8227
aster -8228
▁범용 -8229
▁MB -8230
▁빌딩 -8231
▁정교 -8232
orn -8233
ork -8234
▁튼튼 -8235
▁손오공 -8236
▁명목 -8237
▁소모량 -8238
▁ㄱㅏㅂㅕㅇㅜㄴ -8239
▁특공 -8240
▁해병대 -8241
▁연구원 -8242
▁페어 -8243
▁ㅈㅡㄹㄱ -8244
▁구동 -8245
▁피로 -8246
▁퀵 -8247
▁출혈 -8248
▁ㅍㅕㄹㅊㅕㅆ -8249
▁동남 -8250
▁마트 -8251
ㅂㅓㄹㅕ -8252
▁엄격 -8253
▁123 -8254
▁그치 -8255
사이 -8256
▁띄우 -8257
▁미궁 -8258
▁변태 -8259
▁의장 -8260
▁한반도 -8261
▁공감 -8262
▁104 -8263
▁위로 -8264
▁사악 -8265
▁콘솔 -8266
▁삼각 -8267
▁베어스 -8268
11 -8269
▁헤르 -8270
스티벌 -8271
▁지선 -8272
▁페스티벌 -8273
▁걸어 -8274
ㅇㅏㄴㅐㅆ -8275
▁질병 -8276
▁생체 -8277
▁수직 -8278
▁부스트 -8279
▁호남 -8280
▁ㅎㅐㅈㅕ -8281
▁대타 -8282
▁베테랑 -8283
▁배제 -8284
ans -8285
▁질주 -8286
▁Ad -8287
▁미미 -8288
▁Up -8289
▁스태프 -8290
▁DP -8291
▁하인 -8292
▁109 -8293
▁Wi -8294
▁데이비드 -8295
▁ㅅㅕㄴ -8296
▁복원 -8297
▁강렬 -8298
▁ㄸㅡㄴㄷㅏ -8299
ons -8300
▁동행 -8301
▁관측 -8302
▁바나 -8303
▁ㅇㅕㄴ -8304
▁Sw -8305
▁양반 -8306
▁오메가 -8307
▁실상 -8308
우트 -8309
▁AA -8310
▁직선 -8311
▁스즈키 -8312
▁빨간색 -8313
▁래퍼 -8314
▁OVA -8315
▁공대 -8316
▁단행본 -8317
▁개국 -8318
▁엑시즈 -8319
▁제물 -8320
ㄹㅣㅁ -8321
버그 -8322
▁탐색 -8323
▁물려 -8324
▁본토 -8325
▁특별시 -8326
▁style -8327
ey -8328
▁우측 -8329
▁ㅋㅓㅅㅓ -8330
▁쌀 -8331
▁에서 -8332
▁진급 -8333
▁케이블 -8334
▁KOF -8335
▁토요 -8336
▁쨩 -8337
▁도깨비 -8338
▁디펜 -8339
▁ㄷㅡㄹㅇㅓㅇㅘ -8340
▁페미니 -8341
▁비추 -8342
▁전락 -8343
▁약자 -8344
very -8345
▁스플 -8346
▁닷 -8347
▁다가오 -8348
▁관여 -8349
▁sp -8350
▁라그나 -8351
▁센트 -8352
▁블로 -8353
▁리코 -8354
▁장성 -8355
▁브레이커 -8356
▁선조 -8357
▁광기 -8358
▁차리 -8359
▁무실 -8360
▁ㅅㅟㄹ -8361
▁거론 -8362
▁메일 -8363
▁세금 -8364
▁앰 -8365
▁연쇄 -8366
▁ES -8367
▁ㅈㅠ -8368
▁우호 -8369
▁아스카 -8370
▁잉여 -8371
▁메리트 -8372
ㅆㅏ -8373
▁변동 -8374
NA -8375
차기 -8376
ex -8377
ung -8378
▁마타 -8379
▁스와 -8380
▁고무 -8381
▁총합 -8382
▁본관 -8383
▁III -8384
▁스테이션 -8385
▁ㅁㅗㅇㅡㄴ -8386
공항 -8387
▁앗 -8388
▁친절 -8389
▁땅볼 -8390
▁끼치 -8391
▁논문 -8392
▁한창 -8393
▁코토 -8394
▁인재 -8395
▁유탄 -8396
▁바둑 -8397
▁백업 -8398
▁시달리 -8399
▁워싱턴 -8400
렉스 -8401
▁군수 -8402
▁괴롭히 -8403
▁오노 -8404
▁해양 -8405
타입 -8406
▁촉수 -8407
▁히로시 -8408
▁ㄸㅏㄹ -8409
▁전격 -8410
▁훼손 -8411
박스 -8412
▁UEFA -8413
▁위엄 -8414
▁오지 -8415
▁친하 -8416
▁그랑 -8417
▁수비수 -8418
브라 -8419
▁단발 -8420
▁명문 -8421
▁하급 -8422
▁축소 -8423
다보 -8424
▁대박 -8425
▁장애물 -8426
▁마술사 -8427
▁ㅇㅡㄹㅅㅜㄹㅗㄱ -8428
▁리모 -8429
▁카를 -8430
▁ㅁㅜㅇ -8431
▁ㅇㅣㄹㅓㄹ -8432
나기 -8433
EM -8434
▁응용 -8435
▁중지 -8436
▁민주주의 -8437
능력 -8438
▁프리미어 -8439
▁형편 -8440
▁어색 -8441
▁박살내 -8442
▁마오 -8443
▁에이지 -8444
▁구장 -8445
▁재학 -8446
▁성실 -8447
께끼 -8448
▁수수께끼 -8449
▁취업 -8450
▁스타디움 -8451
▁치카 -8452
▁스위스 -8453
▁ㄷㅗㄹㅇㅏㄱㅏㅆ -8454
▁반짝 -8455
▁RA -8456
ㅈㅣㅁ -8457
▁할로 -8458
▁그러다가 -8459
▁강호 -8460
▁!" -8461
ll -8462
▁최저 -8463
▁역량 -8464
▁안쪽 -8465
▁구성원 -8466
▁해치 -8467
▁사리 -8468
▁바르셀 -8469
▁as -8470
anc -8471
ㅅㅓㄹ -8472
▁확산 -8473
▁바르셀로나 -8474
▁데빌 -8475
▁고스 -8476
▁창문 -8477
▁ㅇㅣㅇㅓㅈㅕㅆ -8478
▁중고 -8479
▁미지 -8480
▁우회 -8481
AK -8482
ㅋㅏㄹ -8483
▁리퍼 -8484
▁트윈스 -8485
▁징역 -8486
▁노란색 -8487
▁초콜릿 -8488
▁겜 -8489
▁츠카 -8490
▁유망주 -8491
▁Windows -8492
▁ㄱㅗㄴㅡㄴ -8493
▁제왕 -8494
▁노가다 -8495
▁역명 -8496
▁워크 -8497
체스터 -8498
▁소니 -8499
▁메카닉 -8500
▁썸 -8501
▁빈도 -8502
▁렉스 -8503
▁ㅎㅐㅈㅣㄹ -8504
▁깃발 -8505
▁코바 -8506
▁no -8507
▁인자 -8508
▁카카오 -8509
▁강등 -8510
▁이현 -8511
▁공통점 -8512
▁묘하 -8513
▁짙 -8514
▁윈도우 -8515
▁대행 -8516
▁키미 -8517
▁원피스 -8518
▁en -8519
▁여타 -8520
▁퇴각 -8521
▁과자 -8522
▁천연 -8523
▁ㄷㅗㄹ -8524
▁경상북도 -8525
▁ㄴㅡㄲㅣㄴ -8526
▁ㅇㅣㅇㅓㅈㅣㄴ -8527
▁불쌍 -8528
누스 -8529
▁온도 -8530
▁굴욕 -8531
▁산타 -8532
▁부작용 -8533
▁폴리 -8534
▁란스 -8535
▁분산 -8536
▁ㅇㅣㄹㅇㅓㄴㅏㄹ -8537
▁힙합 -8538
▁가리키 -8539
▁티스 -8540
▁눈치채 -8541
▁마유 -8542
▁껍 -8543
▁포터 -8544
▁최선 -8545
▁승차 -8546
▁유료 -8547
▁ㅇㅣㄹㅇㅓㄴㅏ -8548
▁구독 -8549
▁레이디 -8550
▁봉쇄 -8551
▁농장 -8552
ero -8553
▁ㅅㅐㄱㅕ -8554
지막지 -8555
▁무지막지 -8556
▁ㄷㅡㄹㅣㅁ -8557
▁ㅇㅢㅎㅐㅅㅓ -8558
▁우승자 -8559
ㅋㅏㄹㅗ -8560
▁ㄴㅏㄹㅋㅏㄹㅗ -8561
35 -8562
argin -8563
▁대령 -8564
▁ㄱㅏㅈㅣㄹ -8565
▁엔지 -8566
▁통칭 -8567
▁수인 -8568
▁전당 -8569
▁대접 -8570
▁ㅊㅐㄴ -8571
▁취득 -8572
▁이병 -8573
▁ㄷㅡㅁ -8574
▁스미스 -8575
▁드래곤볼 -8576
▁관우 -8577
▁동반 -8578
▁스노우 -8579
▁젬 -8580
모스 -8581
▁올드 -8582
▁187 -8583
▁칭하 -8584
▁시상식 -8585
▁루프 -8586
루미 -8587
oss -8588
▁발판 -8589
▁파도 -8590
▁클린 -8591
▁Ph -8592
▁So -8593
▁츠바 -8594
▁Qu -8595
▁화산 -8596
▁LO -8597
▁성씨 -8598
벤처 -8599
▁Station -8600
▁ㅂㅏㄱ -8601
▁어드벤처 -8602
▁챔프 -8603
▁어벤 -8604
▁젖 -8605
▁발키리 -8606
▁발행 -8607
동자 -8608
▁천천 -8609
▁규제 -8610
▁국무 -8611
▁ㄱㅗㅁㅏ -8612
▁크레이 -8613
▁레이어 -8614
▁ㅂㅕㄴㅎㅐ -8615
▁다이스 -8616
비치 -8617
▁손님 -8618
▁원시 -8619
▁고장 -8620
▁margin -8621
▁머니 -8622
▁로맨 -8623
▁진에 -8624
▁블레이 -8625
▁결혼식 -8626
▁오스만 -8627
니시 -8628
▁흔하 -8629
▁공산당 -8630
▁ㄴㅏㅅㅓㅆ -8631
▁대전차 -8632
▁잔인 -8633
▁급행 -8634
▁ML -8635
▁공단 -8636
▁멍청 -8637
▁ㅁㅏㄱ -8638
▁135 -8639
▁빙판 -8640
99 -8641
▁카마 -8642
▁강간 -8643
▁톡 -8644
▁후드 -8645
▁가난 -8646
▁요한 -8647
▁ㅈㅡㄹㄱㅕ -8648
▁ㅋㅣㄹㅡㄹ -8649
pt -8650
▁매드 -8651
▁변이 -8652
▁ㅅㅑ -8653
▁이대로 -8654
▁ㅊㅏㅈㅇㅏㅇㅗㄴ -8655
▁평양 -8656
▁ㄱㅕㄴ -8657
▁정반 -8658
▁210 -8659
▁침투 -8660
▁121 -8661
▁겔 -8662
▁표절 -8663
▁신중 -8664
▁황후 -8665
▁사족 -8666
▁ㄱㅏㅈㅣㄴㄷㅏ -8667
▁렘 -8668
구장 -8669
▁ㅁㅓㅁㅊㅝ -8670
ise -8671
▁아베 -8672
▁와인 -8673
▁타치 -8674
▁ㅈㅜㄴㄷㅏㄴㅡㄴ -8675
▁주사위 -8676
▁검열 -8677
▁털리 -8678
▁날뛰 -8679
▁미오 -8680
군가 -8681
베이터 -8682
▁와이번 -8683
▁인과 -8684
▁여포 -8685
▁ㄱㅓㄴㄷㅔ -8686
▁카리스 -8687
▁ㅇㅗㄹㄹㅏㄱㅏ -8688
▁스케일 -8689
▁세리 -8690
▁쿵 -8691
▁수지 -8692
▁피카 -8693
▁예약 -8694
▁경연 -8695
ical -8696
▁소재지 -8697
▁107 -8698
▁선출 -8699
▁개척 -8700
▁블리자드 -8701
▁천천히 -8702
네마 -8703
▁목걸이 -8704
구미 -8705
▁ㅆㅡㅇㅣㄴ -8706
▁게이머 -8707
▁쯔 -8708
▁이라크 -8709
▁특훈 -8710
▁누군가 -8711
▁뮌 -8712
셔널 -8713
▁스택 -8714
▁ㅂㅜㅅㅝ -8715
▁스타리그 -8716
▁ㄴㅓㅁㅇㅓㄱㅏㅆ -8717
리안 -8718
▁Ver -8719
▁시사 -8720
▁강민 -8721
▁김수 -8722
▁난무 -8723
▁쇄 -8724
▁미국인 -8725
▁어나 -8726
▁왼손 -8727
▁주체 -8728
▁케빈 -8729
▁의외로 -8730
▁여섯 -8731
▁열혈 -8732
▁1981 -8733
▁캄 -8734
▁-- -8735
▁호크 -8736
▁강경 -8737
▁끊임없이 -8738
▁신동 -8739
▁시외버스 -8740
▁페어리 -8741
▁마인드 -8742
▁이순 -8743
▁타츠 -8744
▁사체 -8745
▁ㄱㅗㅊㅕ -8746
▁MG -8747
▁지수 -8748
▁엔트리 -8749
▁ㅍㅓㅈㅕ -8750
모함 -8751
▁조종사 -8752
▁인칭 -8753
▁ㄷㅡㄹㅓㄴㅏㄴㄷㅏ -8754
▁부재 -8755
▁꿰 -8756
▁패자 -8757
리스타 -8758
▁기부 -8759
▁요미 -8760
▁ㄷㅜㄹㄹㅓㅆ -8761
▁ㄷㅗㄹㅇㅏㄱㅏㄴㄷㅏ -8762
▁그레이트 -8763
▁감탄 -8764
▁광물 -8765
▁명분 -8766
▁어나더 -8767
▁ㅊㅏㅈㅇㅏㄱㅏ -8768
다운 -8769
▁제재 -8770
▁알바 -8771
▁퍼스트 -8772
▁ㅂㅗㄴㄷㅏㅁㅕㄴ -8773
▁주관 -8774
▁워프 -8775
▁프랑스어 -8776
ㄹㄹㅐ -8777
▁pl -8778
▁답답 -8779
▁소통 -8780
▁사수 -8781
ㅕㅇㅑ -8782
▁사관 -8783
▁중거리 -8784
루션 -8785
ign -8786
▁슌 -8787
▁김지 -8788
테이션 -8789
▁점검 -8790
▁혈통 -8791
하루 -8792
▁ㅇㅏㄴㅣㄹㄲㅏ -8793
▁지오 -8794
스레 -8795
▁자네 -8796
▁ㅇㅡㄹㅏㄱㅗ -8797
▁땡 -8798
▁모니터 -8799
▁대성 -8800
▁교토 -8801
▁마일 -8802
▁ㅇㅣㄹㄲㅏ -8803
▁압권 -8804
▁스티븐 -8805
▁ㅃㅜㄹㅕ -8806
▁첫째 -8807
▁이경 -8808
▁소금 -8809
gh -8810
▁맞붙 -8811
▁고시 -8812
▁무용 -8813
▁선진 -8814
▁덧 -8815
▁서식 -8816
▁토지 -8817
▁ㅆㅓㄴ -8818
게이머 -8819
▁프로게이머 -8820
▁처하 -8821
ㄹㄹㅕㅅㅓ -8822
▁자존 -8823
▁냉정 -8824
▁트윗 -8825
▁ㅍㅣㄹ -8826
▁ㅇㅜㄹㅣㄴ -8827
▁모델링 -8828
▁폭스 -8829
▁경찰서 -8830
▁ㅈㅏㄹㅏ -8831
▁ㅇㅡㄹㅕㄴㅡㄴ -8832
▁엄연히 -8833
▁ㅇㅏㅍㅡㄴ -8834
▁ㅇㅣㄹㅏㄷㅗ -8835
▁이노 -8836
▁스컬 -8837
▁미정 -8838
▁첸 -8839
어드 -8840
▁루리 -8841
▁love -8842
▁너머 -8843
▁ㅊㅏㄱㅎㅏㄴ -8844
▁김승 -8845
▁미러 -8846
▁점유 -8847
▁철갑 -8848
▁동해 -8849
▁밀어 -8850
▁출간 -8851
▁EC -8852
▁레인지 -8853
▁평론 -8854
▁가르치 -8855
▁프론 -8856
ㅟㄴㄷㅏ -8857
▁해산 -8858
▁폭격기 -8859
▁공격수 -8860
▁자제 -8861
▁ㅇㅕㄹㄹㅕㅆ -8862
▁흙 -8863
센스 -8864
▁오죽 -8865
▁러스 -8866
▁레시 -8867
테일 -8868
▁중위 -8869
▁임의 -8870
▁망토 -8871
IR -8872
▁구별 -8873
▁아스트 -8874
어하 -8875
▁하여 -8876
▁TR -8877
▁손쉽 -8878
▁ㅅㅡㄹㅓㄴ -8879
▁맹세 -8880
ail -8881
▁플랜 -8882
urn -8883
▁친분 -8884
▁연산 -8885
▁중동 -8886
▁보좌 -8887
▁장타 -8888
▁math -8889
▁리나 -8890
▁크라이 -8891
▁외곽 -8892
▁떨어 -8893
▁페스 -8894
바나 -8895
▁Sk -8896
으로 -8897
▁라이즈 -8898
▁어이없 -8899
▁주최 -8900
▁용자 -8901
▁굴리 -8902
▁도어 -8903
▁왜냐하면 -8904
▁본능 -8905
▁질서 -8906
▁열정 -8907
▁풍부 -8908
▁화상 -8909
▁붓 -8910
▁이대 -8911
▁186 -8912
▁재개 -8913
▁고집 -8914
▁개교 -8915
▁쫒 -8916
▁실사 -8917
▁고사 -8918
▁마산 -8919
▁JTBC -8920
▁납득 -8921
ence -8922
▁항공모함 -8923
▁그릇 -8924
▁ㅎㅜㅁㅊㅕ -8925
▁쉴드 -8926
▁영감 -8927
▁동정 -8928
▁상무 -8929
▁하나하나 -8930
▁저렇 -8931
▁To -8932
추어 -8933
▁불능 -8934
▁유니버스 -8935
민주 -8936
VER -8937
▁유입 -8938
▁크래프트 -8939
▁ㅈㅣㄴㅇㅣ -8940
▁=" -8941
▁시타 -8942
베리 -8943
▁지부 -8944
틀랜드 -8945
▁사퇴 -8946
▁사무실 -8947
▁Super -8948
▁변장 -8949
▁꼽히 -8950
▁스폰서 -8951
▁트릴 -8952
▁라이언 -8953
▁고속도로 -8954
▁122 -8955
▁초능력 -8956
▁ㅈㅓㅇㅎㅐㅈㅣㄴ -8957
▁기스 -8958
▁웜 -8959
▁광경 -8960
▁공속 -8961
▁찬성 -8962
의자 -8963
▁정신력 -8964
▁BJ -8965
▁작정 -8966
▁광명 -8967
ㄷㅜㄹㄹㅓ -8968
▁확신 -8969
▁벙커 -8970
▁큰 -8971
▁유연 -8972
바지 -8973
▁국제공항 -8974
▁ㅇㅣㅈㅎㅕ -8975
▁박성 -8976
▁Dream -8977
▁ㅂㅜㅌㅇㅣㄴ -8978
▁ㅇㅜㅁㅈㅣㄱㅇㅣㄹ -8979
이동 -8980
▁검정 -8981
▁근대 -8982
▁히틀러 -8983
▁멋대로 -8984
▁예쁘 -8985
라미 -8986
▁우마 -8987
▁김유 -8988
▁리틀 -8989
▁엘리베이터 -8990
▁박수 -8991
▁ㅇㅕㅆㅇㅡㅁ -8992
▁에디션 -8993
▁몸통 -8994
▁인벤 -8995
▁삼성전자 -8996
▁코노 -8997
▁스가 -8998
▁까마 -8999
▁기본기 -9000
▁템플 -9001
▁ㅂㅜㄹㅓ -9002
▁하치 -9003
▁애칭 -9004
▁중점 -9005
▁ㅍㅡㄹ -9006
▁토트 -9007
▁LE -9008
▁장례 -9009
▁극대 -9010
▁1979 -9011
▁평상 -9012
▁출범 -9013
▁원숭이 -9014
▁법사 -9015
▁ㄸㅏㅇㅘㅆ -9016
▁로키 -9017
▁슈퍼맨 -9018
배우 -9019
▁카레 -9020
ㅂㅓㄹㅕㅆ -9021
이나 -9022
▁체결 -9023
ier -9024
▁ㅊㅏㅈㅇㅏㅂㅗㄹ -9025
▁김포 -9026
▁변명 -9027
▁에버 -9028
▁ㅇㅗㄹㄹㅏㄱㅏㄹ -9029
▁아쿠아 -9030
▁총장 -9031
▁마모 -9032
▁타구 -9033
ㅈㅝ -9034
▁카자 -9035
▁엘레 -9036
▁홋 -9037
▁ㅂㅕㄴㅎㅐㅆ -9038
▁일가 -9039
▁마라 -9040
▁can -9041
▁EXP -9042
▁기르 -9043
▁카쿠 -9044
▁145 -9045
▁ㅆㅏㄴ -9046
▁투쟁 -9047
▁안타깝 -9048
▁유치원 -9049
▁곡인 -9050
▁민국 -9051
▁ㄷㅜㄷㅡㄹㄱㅕ -9052
▁출산 -9053
▁워리어 -9054
ble -9055
▁만능 -9056
▁청구 -9057
▁할리 -9058
▁쿠마 -9059
▁노무 -9060
▁ㄱㅏㄷㅎㅕ -9061
▁이어받 -9062
▁만주 -9063
▁슬픔 -9064
▁조카 -9065
▁모임 -9066
ㄷㅡㅅ -9067
▁부근 -9068
▁퍽 -9069
▁카네 -9070
▁도색 -9071
▁유격수 -9072
▁워즈 -9073
▁실현 -9074
▁블럭 -9075
IX -9076
▁ㄱㅜㄴㅇㅛ -9077
▁싫어하 -9078
▁이누 -9079
▁창작물 -9080
▁무제 -9081
▁재앙 -9082
oun -9083
▁테이블 -9084
▁ㅊㅕㄷㅗ -9085
▁아처 -9086
▁브라더스 -9087
▁NO -9088
▁롤러 -9089
▁부천 -9090
▁헬멧 -9091
워즈 -9092
▁매주 -9093
▁방심 -9094
▁후일 -9095
▁113 -9096
▁무실점 -9097
▁ㅂㅓㅌㅣㄹ -9098
▁아지 -9099
▁히스 -9100
▁학급 -9101
▁가이드 -9102
▁브라이언 -9103
▁비틀 -9104
▁암호 -9105
▁ㅆㅓㄷㅗ -9106
▁IM -9107
▁신지 -9108
▁비리 -9109
▁튜버 -9110
▁Ap -9111
▁고등학생 -9112
들이 -9113
▁쿠니 -9114
▁씨앗 -9115
▁철저히 -9116
역사 -9117
▁검증 -9118
▁풍선 -9119
▁165 -9120
▁펭 -9121
이치로 -9122
▁항모 -9123
▁ㅁㅏㅈㅊㅝㅅㅓ -9124
iver -9125
▁헝가리 -9126
러가 -9127
▁1950 -9128
▁복사 -9129
▁마운 -9130
▁스쿼 -9131
▁니아 -9132
▁ㄸㅓㄴㅏㄴㄷㅏ -9133
▁이이 -9134
▁ㅎㅏㄴㄷㅏㅁㅕ -9135
▁사사 -9136
▁엉망 -9137
▁왕복 -9138
▁터보 -9139
▁몰살 -9140
▁엮이 -9141
ott -9142
▁각인 -9143
▁그러면 -9144
▁알레 -9145
▁케이크 -9146
▁인접 -9147
▁리가 -9148
▁손자 -9149
▁포탈 -9150
▁ㄷㅡㅁㅜㄴ -9151
▁글씨 -9152
▁호러 -9153
▁IT -9154
▁144 -9155
▁사투 -9156
▁깨지 -9157
▁카지 -9158
▁병역 -9159
▁명사 -9160
▁사연 -9161
▁엄밀히 -9162
▁닦 -9163
▁제니 -9164
▁운송 -9165
▁넬 -9166
▁이카 -9167
▁인성 -9168
▁ㄴㅗㄹㄹㅏㅇㅜㄴ -9169
▁상주 -9170
▁155 -9171
페라 -9172
▁레이블 -9173
▁유우키 -9174
▁ㅅㅡㅂㄴㅣㄲㅏ -9175
▁부스 -9176
▁매트 -9177
▁절친 -9178
▁옥상 -9179
▁ATK -9180
▁at -9181
▁쿠데 -9182
▁쪼 -9183
▁간섭 -9184
▁화폐 -9185
세우 -9186
▁통째 -9187
▁CM -9188
▁세로 -9189
▁죄책 -9190
▁아무튼 -9191
▁생김 -9192
▁승인 -9193
▁조국 -9194
슬라 -9195
ㄹㅏㄷㅗ -9196
▁시뮬 -9197
▁동전 -9198
▁바치 -9199
▁품질 -9200
eah -9201
▁현금 -9202
▁ㄷㅓㅍ -9203
▁ㄱㅏㅎㅐ -9204
▁젼 -9205
▁ㅇㅣㅀㅇㅓㅂㅓㄹㅣㄴ -9206
▁연수 -9207
▁연전 -9208
▁ㅆㅏㅇㅜㄴㄷㅏ -9209
uck -9210
▁망하 -9211
▁방학 -9212
▁영양 -9213
▁기리 -9214
▁Max -9215
진호 -9216
▁114 -9217
▁마음대로 -9218
▁제리 -9219
페이 -9220
▁일곱 -9221
폭탄 -9222
▁싸이 -9223
▁ㅂㅜㅌㅈㅏ -9224
▁츤 -9225
▁오니 -9226
▁태우 -9227
▁목사 -9228
▁독일어 -9229
▁거지 -9230
▁기차 -9231
▁유재석 -9232
▁엔지니어 -9233
▁쓰리 -9234
▁천장 -9235
▁ㄷㅏㄴㅣㄹ -9236
▁상금 -9237
▁우연 -9238
▁간지 -9239
▁깊이 -9240
▁입문 -9241
▁BD -9242
ode -9243
▁햇 -9244
▁함락 -9245
▁ㅂㅏㄹㄹㅏ -9246
▁양식 -9247
▁사나 -9248
▁ERA -9249
▁마당 -9250
▁집회 -9251
코트 -9252
▁레나 -9253
▁죄책감 -9254
▁아오이 -9255
▁ㅂㅕㄴㅎㅏㄴ -9256
II -9257
▁바쿠 -9258
▁스나이퍼 -9259
oh -9260
▁원전 -9261
▁this -9262
▁아자 -9263
▁동대 -9264
▁뮌헨 -9265
자치 -9266
▁너스 -9267
▁현자 -9268
▁이놈 -9269
▁히카 -9270
▁샐 -9271
▁뱅가드 -9272
▁뉘 -9273
▁ㅇㅓㅉㅐㅅㅓ -9274
▁ㅂㅏㄺㅎㅕㅈㅣㄴㄷㅏ -9275
▁호드 -9276
▁유메 -9277
▁시크릿 -9278
▁미르 -9279
▁수위 -9280
들리 -9281
야시 -9282
▁다큐 -9283
▁페르소 -9284
▁스틱 -9285
▁유카 -9286
▁기동력 -9287
▁혀 -9288
▁화해 -9289
▁혁신 -9290
▁벅 -9291
▁쿠스 -9292
▁승진 -9293
▁ㅁㅜㄱㅓㅇㅜㄴ -9294
▁리본 -9295
▁호의 -9296
▁개구리 -9297
▁ㄷㅏㄱㅓㄴㅏ -9298
▁스티브 -9299
▁감자 -9300
네시아 -9301
▁초록색 -9302
▁부패 -9303
▁용암 -9304
▁토대 -9305
가루 -9306
끼리 -9307
▁성경 -9308
▁이케 -9309
▁할로윈 -9310
▁스카우트 -9311
▁시모 -9312
▁전향 -9313
▁참사 -9314
▁정문 -9315
▁멧 -9316
▁종결 -9317
▁스피어 -9318
▁최순 -9319
▁나아가 -9320
▁코스프레 -9321
▁고아 -9322
▁궁합 -9323
▁러쉬 -9324
주교 -9325
▁전동차 -9326
▁ㅍㅕ -9327
▁녹화 -9328
▁ㅇㅏㄴㅣㅁ -9329
▁오렌 -9330
▁미성 -9331
▁티저 -9332
▁원장 -9333
▁시게 -9334
▁750 -9335
▁..! -9336
▁한나라 -9337
▁친애 -9338
▁ㅁㅏㄱㅎㅕ -9339
▁메트로 -9340
▁만점 -9341
▁사무라이 -9342
▁깨끗 -9343
▁ㅈㅔㄴ -9344
▁GK -9345
ㄷㅚㄴ -9346
▁아드 -9347
▁from -9348
▁아이디어 -9349
▁아리아 -9350
▁한나라당 -9351
▁HE -9352
케이션 -9353
▁ne -9354
▁여의 -9355
▁ㅂㅓㄹㅇㅣㄴ -9356
▁자율 -9357
▁은폐 -9358
▁대위 -9359
▁ㄱㅓㄴㄴㅔ -9360
▁ㄱㅣㅃㅓ -9361
▁평행 -9362
▁흑마 -9363
변이 -9364
▁돌연변이 -9365
▁디자이너 -9366
▁잭슨 -9367
▁토우 -9368
▁미인 -9369
▁협의 -9370
▁??? -9371
bs -9372
int -9373
▁OS -9374
▁도약 -9375
▁말씀 -9376
▁교과서 -9377
▁나이프 -9378
▁필리핀 -9379
▁페르소나 -9380
▁항해 -9381
▁ㅇㅏㄲ -9382
▁메이지 -9383
▁ㅍㅣㄴ -9384
▁기후 -9385
▁이력 -9386
▁자칭 -9387
▁ㅎㅏㅂ -9388
▁ㄴㅗㄱ -9389
▁실체 -9390
▁ㅊㅐㅇㄱ -9391
▁오퍼 -9392
▁정성 -9393
▁저글 -9394
▁적절히 -9395
▁유전 -9396
▁지분 -9397
▁합작 -9398
▁충족 -9399
▁다니엘 -9400
▁흡혈귀 -9401
▁450 -9402
▁tr -9403
▁갯 -9404
▁NBA -9405
▁ㄲㅏㄹ -9406
▁이스트 -9407
ㄸㅡㄹㅕ -9408
▁진에어 -9409
ㅌㅏㄲㅏ -9410
▁ㅂㅗㄴㅐㄴㄷㅏ -9411
▁ㅇㅏㄴㅌㅏㄲㅏ -9412
▁Season -9413
항공 -9414
▁ㄷㅜㄹㅕㅇㅝ -9415
운동 -9416
▁AB -9417
▁스매 -9418
▁이태 -9419
▁마에 -9420
▁이틀 -9421
▁종영 -9422
▁동서 -9423
▁좌측 -9424
▁파스 -9425
▁치안 -9426
▁학문 -9427
▁자이언트 -9428
▁트래 -9429
itt -9430
▁중원 -9431
▁리사 -9432
IL -9433
▁여단 -9434
▁지혜 -9435
▁브론 -9436
ose -9437
▁ㅇㅣㅇㅓㅈㅣㄴㄷㅏ -9438
▁욕설 -9439
▁시골 -9440
▁일관 -9441
▁서류 -9442
▁가담 -9443
직자 -9444
▁내기 -9445
▁얼티 -9446
▁피자 -9447
▁학대 -9448
▁new -9449
▁{{{- -9450
▁스타트 -9451
ㅜㅀ -9452
▁침착 -9453
▁ㄸㅡㄱㅓㅇㅜㄴ -9454
▁ㅂㅐㅇㅜㄴ -9455
▁바이올 -9456
▁억울 -9457
▁ㄴㅡㄴㄱㅜㄴ -9458
▁히드라 -9459
▁ㅇㅓㄹㅕㅇㅜㄹ -9460
▁입증 -9461
▁레코드 -9462
▁ㅈㅜㄴㄷㅏㄱㅗ -9463
▁날아오 -9464
▁EXT -9465
▁계층 -9466
▁헥 -9467
▁ㅇㅣㅇㅑ -9468
▁각지 -9469
▁얇 -9470
▁울리 -9471
철도 -9472
▁협정 -9473
▁외국어 -9474
▁분홍 -9475
▁우루 -9476
▁ㄸㅓㅆ -9477
▁놀랍 -9478
▁스쿼드 -9479
▁포병 -9480
▁마기 -9481
▁La -9482
렉터 -9483
▁물자 -9484
▁ㅎㅐㄴㅐㅆ -9485
▁ㅁㅣㅊㅕ -9486
▁존중 -9487
▁해소 -9488
▁ㄷㅗㄹㅇㅏㄱㅏㄹ -9489
▁ㄸㅓㄹㅇㅓㅈㅣㄹ -9490
▁소생 -9491
▁Im -9492
▁감당 -9493
▁ㅇㅣㄹㅇㅓㄴㅏㄴㄷㅏ -9494
▁EZ -9495
▁추후 -9496
▁잔혹 -9497
▁ㄲㅡㅌㄴㅏㄹ -9498
▁314 -9499
▁베이징 -9500
▁함장 -9501
▁갑작 -9502
므로 -9503
탐정 -9504
▁카테 -9505
reat -9506
▁밀도 -9507
▁가위 -9508
▁고의 -9509
▁무도 -9510
▁까다 -9511
▁아케이드 -9512
▁강릉 -9513
▁로스트 -9514
▁나이츠 -9515
▁고고 -9516
▁저글링 -9517
▁초상 -9518
▁툰 -9519
▁ㄴㅣㄷㅏ -9520
슈타인 -9521
은색 -9522
▁미아 -9523
▁Con -9524
▁Vol -9525
▁격려 -9526
바르 -9527
▁카리스마 -9528
▁나인 -9529
▁대동 -9530
▁갈색 -9531
▁유스 -9532
▁ㅅㅡㄴ -9533
▁부원 -9534
▁스탈 -9535
▁124 -9536
지능 -9537
▁학년도 -9538
▁인공지능 -9539
▁스파이더맨 -9540
▁ㄲㅣㅇㅝ -9541
▁ㄱㅚㄹㅗㅂ -9542
▁이오 -9543
▁익히 -9544
▁Sch -9545
▁에메 -9546
▁가오 -9547
마루 -9548
철수 -9549
▁신곡 -9550
▁강타 -9551
▁잼 -9552
▁시어 -9553
▁점멸 -9554
▁존스 -9555
▁맞서 -9556
▁대세 -9557
▁Ed -9558
▁부유 -9559
▁극한 -9560
▁피지컬 -9561
▁긁 -9562
부키 -9563
나베 -9564
▁rd -9565
▁주석 -9566
▁판도 -9567
▁스타즈 -9568
▁출판사 -9569
▁ㄷㅗㄹㅇㅏㄱㅏ -9570
▁쌓이 -9571
ㅂㅅㅣㄱㅗ -9572
▁ㅌㅡㄹㄹㅣㄴ -9573
▁ㅇㅓㅉㅐㅅㅓㅇㅣㄴㅈㅣ -9574
ube -9575
▁황당 -9576
ㅁㅏㄹㄹㅗ -9577
우라 -9578
▁Girl -9579
▁저기 -9580
▁워터 -9581
▁민간인 -9582
▁점심 -9583
▁물약 -9584
▁밀레 -9585
바이트 -9586
▁강전 -9587
▁우울 -9588
▁힘입 -9589
▁과금 -9590
▁압력 -9591
▁정사 -9592
▁펌프 -9593
▁디아블로 -9594
▁세자 -9595
워프 -9596
▁ㄴㅗㄴ -9597
▁ld -9598
▁퀴즈 -9599
▁ㄱㅏㅇㅎㅐㅆ -9600
▁RE -9601
▁표적 -9602
▁부속 -9603
▁대변 -9604
▁건드리 -9605
▁배구 -9606
▁ㅁㅗㅈㅏㄹㅏ -9607
▁대검 -9608
▁Night -9609
▁라마 -9610
▁그러므로 -9611
▁ㅌㅓㅈㅕㅆ -9612
방송 -9613
▁그쪽 -9614
▁ㅅㅏㅆ -9615
▁USB -9616
▁압축 -9617
▁이빨 -9618
▁183 -9619
ition -9620
ari -9621
▁ㅌㅏㄹ -9622
▁어서 -9623
usic -9624
▁괴인 -9625
▁벌써 -9626
▁ㅍㅏㄹㅏㄴ -9627
▁예의 -9628
▁ㄸㅡㄴ -9629
ㄷㅡㄹㅇㅕ -9630
▁ㅅㅣㅋㅣㅂㄴㅣㄷㅏ -9631
▁하지 -9632
▁산맥 -9633
▁ㄷㅓㄴㅈㅣㄴ -9634
▁ㄲㅏㄷㅏㄹㅗㅇㅜㄴ -9635
오피스 -9636
▁잠들 -9637
▁애완 -9638
▁생김새 -9639
▁마틴 -9640
▁빙결 -9641
msys -9642
▁후유 -9643
▁ldmsys -9644
업자 -9645
▁법무 -9646
▁다시금 -9647
▁일지 -9648
▁노아 -9649
▁테스 -9650
▁ㅈㅏㄱ -9651
▁내역 -9652
▁마하 -9653
▁키요 -9654
▁152 -9655
▁ㅅㅗㄱㅎㅏㄴ -9656
15 -9657
▁동구 -9658
▁중견 -9659
▁ㅇㅣㅂㅎㅣㄴㄷㅏ -9660
▁병살 -9661
▁제노 -9662
▁경부 -9663
▁보스턴 -9664
▁기껏 -9665
▁ㅈㅡㄹㄱㅣㄹ -9666
▁ㅇㅣㅇㅓㅈㅕ -9667
▁소소 -9668
▁레이싱 -9669
▁퇴치 -9670
▁ㄴㅏㄹㄹㅣㄴㄷㅏ -9671
ats -9672
▁리버스 -9673
▁TS -9674
▁지로 -9675
▁출동 -9676
▁데몬 -9677
▁김주 -9678
▁연설 -9679
▁마케팅 -9680
▁..? -9681
른바 -9682
▁스탭 -9683
▁재건 -9684
▁발사기 -9685
리얼 -9686
끄럽 -9687
▁이른바 -9688
▁아카네 -9689
▁1200 -9690
▁만렙 -9691
▁자존심 -9692
▁Black -9693
▁노무현 -9694
▁ㅈㅓㅈㅣㄹㄹㅓㅆ -9695
▁도대 -9696
ㄷㅡㄹㅇㅓ -9697
▁집계 -9698
▁박스오피스 -9699
▁BC -9700
▁골프 -9701
▁이소 -9702
시오 -9703
▁기질 -9704
▁도덕 -9705
▁토마스 -9706
▁모형 -9707
사랑 -9708
▁자책점 -9709
▁ㅇㅖㅇㅛ -9710
▁로프 -9711
▁사촌 -9712
▁박진 -9713
▁선동 -9714
▁182 -9715
▁에미 -9716
▁뚱 -9717
▁주축 -9718
▁농업 -9719
▁무녀 -9720
▁WC -9721
▁ㅇㅟㅎㅐㅅㅓㄴ -9722
▁디오 -9723
▁장벽 -9724
▁Bo -9725
▁NH -9726
▁대차 -9727
13 -9728
▁모종 -9729
▁포착 -9730
▁덩어리 -9731
▁자아 -9732
▁빠져 -9733
시대 -9734
▁바텀 -9735
▁ㅅㅡㄹㅓ -9736
세지 -9737
▁철도역 -9738
▁귀국 -9739
yn -9740
▁ver -9741
▁일렉 -9742
아치 -9743
▁천상 -9744
▁문양 -9745
▁카게 -9746
▁절벽 -9747
▁원판 -9748
▁통솔 -9749
▁등극 -9750
▁억제 -9751
▁유진 -9752
▁남동생 -9753
▁레아 -9754
▁ㅅㅏㄴㄷㅏ -9755
▁구상 -9756
▁발레 -9757
▁연동 -9758
토니 -9759
▁127 -9760
▁드워프 -9761
▁각도 -9762
▁Let -9763
▁마도카 -9764
▁킴 -9765
▁그레이드 -9766
▁불길 -9767
▁리처 -9768
▁상냥 -9769
▁ㅂㅗㄴㅐㄹ -9770
▁애인 -9771
▁이원 -9772
▁관장 -9773
▁이윤 -9774
▁적시타 -9775
▁not -9776
▁ㅌㅓㅈㅣㄴ -9777
app -9778
▁교차로 -9779
당초 -9780
▁오른손 -9781
▁탄핵 -9782
▁모스크 -9783
▁현황 -9784
▁발명 -9785
▁리바 -9786
▁모빌 -9787
▁ㅈㅕㅆㅇㅡㅁㅕ -9788
▁회관 -9789
▁도배 -9790
▁ㅂㅜㄷㅣ -9791
▁솔저 -9792
▁DM -9793
▁MM -9794
▁ㄸㅜㅀ -9795
▁토라 -9796
▁아담 -9797
▁ㅎㅡㅌ -9798
▁서울대 -9799
▁쿠데타 -9800
▁118 -9801
▁그란 -9802
▁타이어 -9803
▁왕실 -9804
▁ㅅㅓㄲㅇㅕ -9805
▁라인하르트 -9806
DD -9807
▁ㅇㅗㄹㄹㅏㅇㅘ -9808
▁제발 -9809
▁ㄴㅏㄹㅋㅏㄹㅗㅇㅜㄴ -9810
▁굽 -9811
▁협동 -9812
▁ㅇㅣㄴㅎㅐㅅㅓ -9813
▁봉사 -9814
▁육상 -9815
▁발급 -9816
▁사치 -9817
▁스크롤 -9818
▁왕비 -9819
▁아마추어 -9820
▁퓨전 -9821
▁물러나 -9822
▁프랜 -9823
▁원주민 -9824
▁스토어 -9825
▁베를 -9826
▁ㄴㅡㄹㅇㅓㄴㅏㄴㄷㅏ -9827
▁용산 -9828
ough -9829
▁ㅋㅐㄴ -9830
▁섬광 -9831
타이 -9832
▁착륙 -9833
▁OG -9834
▁방사능 -9835
▁사방 -9836
▁향후 -9837
▁184 -9838
▁까마귀 -9839
▁아포 -9840
▁전담 -9841
▁라미 -9842
▁쿄코 -9843
▁하사 -9844
▁피오 -9845
▁지장 -9846
▁환생 -9847
▁SSR -9848
▁Am -9849
▁챔스 -9850
▁서열 -9851
gr -9852
▁제치 -9853
▁여태 -9854
▁ㅆㅏㅇㅜㄴ -9855
▁시안 -9856
▁뤼 -9857
▁Op -9858
▁학사 -9859
▁시시 -9860
▁숙소 -9861
▁뻘 -9862
ㄲㅡㅁ -9863
▁다카 -9864
▁훔 -9865
▁반성 -9866
▁Str -9867
▁ㅁㅏㅈㅜ -9868
▁얌 -9869
▁Col -9870
▁AF -9871
▁도대체 -9872
▁ㅎㅐㅆㅇㅓ -9873
▁앓 -9874
▁지루 -9875
▁베스 -9876
▁밀리언 -9877
▁잎 -9878
▁정밀 -9879
▁선박 -9880
▁입시 -9881
▁행진 -9882
▁박자 -9883
▁퍼펙트 -9884
ye -9885
▁우두 -9886
▁이무 -9887
▁이별 -9888
▁GM -9889
▁지크 -9890
▁인피니티 -9891
▁청춘 -9892
▁민폐 -9893
▁ㄴㅏㄹㄹㅕㅆ -9894
▁미녀 -9895
▁서적 -9896
▁옴 -9897
▁000000 -9898
▁시오 -9899
▁교도소 -9900
▁ㄱㅔㄲㅡㅁ -9901
▁컴뱃 -9902
▁프롤 -9903
▁ㄷㅏㄹㄹㅏㅈㅣㄴㄷㅏ -9904
▁루마 -9905
어트 -9906
▁유가 -9907
▁큐어 -9908
▁밀어내 -9909
▁팔라 -9910
▁필름 -9911
▁ㄱㅡㅊㅕㅆ -9912
▁실용 -9913
▁ㅂㅏㄲㅝㅆ -9914
▁감추 -9915
▁ㄷㅓㄴㅈㅣ -9916
▁보우 -9917
▁루미 -9918
▁Mag -9919
CE -9920
▁화기 -9921
▁그간 -9922
▁쏠 -9923
▁ㅃㅜㄹ -9924
▁ㅂㅜㄷㅣㅈ -9925
▁강인 -9926
▁아수 -9927
▁싱가 -9928
▁싱가포르 -9929
iel -9930
▁카리 -9931
▁ㄴㅏㅃㅏ -9932
▁카피 -9933
▁리자 -9934
▁욕심 -9935
▁스로 -9936
▁조화 -9937
▁편리 -9938
▁갱신 -9939
▁스타워즈 -9940
▁브래 -9941
▁친척 -9942
▁취재 -9943
▁금발 -9944
▁승패 -9945
▁직책 -9946
▁툭 -9947
▁김치 -9948
▁모순 -9949
▁선원 -9950
▁주공 -9951
▁오렌지 -9952
▁홀리 -9953
▁테리 -9954
▁마을버스 -9955
▁고맙 -9956
▁스네 -9957
▁화신 -9958
▁까다롭 -9959
▁일일 -9960
▁시호 -9961
▁AV -9962
▁흥분 -9963
▁탐사 -9964
▁발각 -9965
▁침몰 -9966
▁1978 -9967
▁이진 -9968
ull -9969
vel -9970
▁어벤져 -9971
▁전송 -9972
▁스카웃 -9973
▁과일 -9974
▁ㅈㅓㅂ -9975
ㅇㅏㄴㅐㄴ -9976
▁한꺼 -9977
▁한꺼번에 -9978
▁ㅇㅗㄹㄹㅣㄴㄷㅏ -9979
▁ㅇㅓㄹㅕㅇㅝㅆ -9980
▁AL -9981
▁폴아웃 -9982
▁섬멸 -9983
▁ㅎㅟㅂ -9984
▁아슬 -9985
▁우미 -9986
▁전지 -9987
▁욱 -9988
▁ㅌㅐㅇㅝ -9989
▁이계 -9990
크리 -9991
▁김광 -9992
▁완화 -9993
▁ㅁㅗㅇㅏㅅㅓ -9994
▁경전 -9995
▁오다 -9996
프리카 -9997
▁스기 -9998
▁안무 -9999
▁흑역사 -10000
▁ㄱㅜㅇㅜㄹ -10001
▁군부 -10002
▁ㅈㅏㅂㅎㅣㄴ -10003
▁엇 -10004
▁오토바이 -10005
▁ㅎㅐㅈㅜㄴㄷㅏ -10006
서스 -10007
▁마야 -10008
▁ㄴㅗㅍㅇㅕ -10009
▁보강 -10010
▁쿠사 -10011
▁흑막 -10012
▁ㅆㅢ -10013
▁중구 -10014
▁시간대 -10015
▁들키 -10016
▁대역 -10017
▁천국 -10018
헤이 -10019
ult -10020
▁해운 -10021
▁토트넘 -10022
▁모욕 -10023
▁오즈 -10024
▁달려들 -10025
▁성명 -10026
▁ㅆㅡㄹㅓㅈㅣㄴ -10027
▁178 -10028
▁ㅁㅗㅅㅎㅐㅅㅓ -10029
▁구형 -10030
▁ㄱㅏㅈㅕㅇㅗㄴ -10031
키스탄 -10032
▁아사히 -10033
▁리부 -10034
▁가구 -10035
▁컴백 -10036
▁ㄴㅓㅁㅇㅓㄱㅏ -10037
▁CL -10038
▁소나 -10039
▁용이 -10040
▁도르 -10041
▁아름답 -10042
▁민감 -10043
able -10044
▁관문 -10045
▁능가 -10046
▁약혼 -10047
▁ㄱㅜㄹ -10048
▁반경 -10049
▁스텔스 -10050
바리 -10051
마리 -10052
▁이단 -10053
▁홋카이도 -10054
▁사와 -10055
에른 -10056
▁1945 -10057
ject -10058
▁반역 -10059
▁신관 -10060
▁ㅇㅏㄹㅇㅏㅊ -10061
▁어그 -10062
소년 -10063
▁미소녀 -10064
▁수라 -10065
▁엣 -10066
구니 -10067
▁주머니 -10068
▁완공 -10069
▁호리 -10070
▁인문 -10071
▁PK -10072
▁스윙 -10073
▁ㅇㅓㅆㅇㅓㅆ -10074
▁경상남도 -10075
▁동계 -10076
▁카일 -10077
▁최상급 -10078
▁ㅇㅓㅄㅇㅐ -10079
▁모에 -10080
▁CE -10081
▁ㅇㅏㄴㄱㅕ -10082
▁등재 -10083
▁일체 -10084
▁그리핀 -10085
▁엉덩이 -10086
▁ㅂㅕㄴㅎㅏㄴㄷㅏ -10087
▁레버 -10088
18 -10089
▁라비 -10090
▁헬리 -10091
▁Co -10092
▁ㄴㅐㅂㅗㄴ -10093
▁cl -10094
eth -10095
▁강대 -10096
▁매각 -10097
▁소득 -10098
▁유즈 -10099
▁시카고 -10100
▁간판 -10101
▁직행 -10102
▁사직 -10103
▁에코 -10104
▁얼티밋 -10105
바람 -10106
▁적자 -10107
방울 -10108
▁까지 -10109
▁오만 -10110
▁타카하시 -10111
▁신작 -10112
▁마수 -10113
▁저자 -10114
▁ㅈㅜㅂㄴㅣㄷㅏ -10115
▁코레 -10116
▁시종 -10117
▁독백 -10118
▁정답 -10119
▁베이비 -10120
▁테란 -10121
▁머스 -10122
▁울음 -10123
모습 -10124
▁부채 -10125
▁라이트닝 -10126
MAN -10127
▁엘리자베스 -10128
▁플라스 -10129
▁정점 -10130
▁프레스 -10131
▁터뜨리 -10132
▁ㅁㅏㅈㅊㅜㄴ -10133
▁장남 -10134
▁약체 -10135
▁수아 -10136
▁명장 -10137
▁사탕 -10138
▁ㅌㅡㄴ -10139
타리 -10140
▁패트 -10141
▁요격 -10142
▁파운드 -10143
▁탈취 -10144
▁스마일 -10145
▁매그 -10146
▁레시피 -10147
▁ㄱㅓㄹㄲㅏ -10148
▁디스플레이 -10149
속기 -10150
▁여주인 -10151
▁모음 -10152
▁ㅈㅏㄹㅏㄴ -10153
▁수천 -10154
기에 -10155
▁카제 -10156
▁늪 -10157
▁금요일 -10158
▁눈앞 -10159
▁겟 -10160
▁불참 -10161
▁단자 -10162
▁아랫 -10163
▁마미 -10164
▁카사 -10165
▁ㄷㅓㄴㅈㅣㄹㅏ -10166
겨나 -10167
무지 -10168
▁패왕 -10169
▁노릇 -10170
▁오케 -10171
▁바이에른 -10172
▁ㄴㅏㅅㅓㄴ -10173
▁실적 -10174
▁무능 -10175
스크림 -10176
▁Is -10177
▁쿠리 -10178
▁Do -10179
▁찾아내 -10180
▁편의점 -10181
▁도심 -10182
▁휴먼 -10183
▁소마 -10184
▁ㅂㅜㅅㅓ -10185
▁물리치 -10186
▁대피 -10187
▁밈 -10188
▁교리 -10189
▁TOP -10190
▁ㅂㅐㅇㅜㄹ -10191
ㄷㅜㄹ -10192
▁BO -10193
▁씻 -10194
▁레이지 -10195
ild -10196
▁도쿠 -10197
▁크로우 -10198
▁박정희 -10199
▁카이저 -10200
▁입사 -10201
▁ㅌㅏㅆ -10202
▁욕망 -10203
▁목욕 -10204
▁과시 -10205
▁애용 -10206
25 -10207
어나오 -10208
▁일러스트레이터 -10209
▁비비 -10210
▁태풍 -10211
▁맨체스터 -10212
파이 -10213
▁신한 -10214
▁치우 -10215
▁AFC -10216
▁신하 -10217
▁가왕 -10218
▁ㅋㅕ -10219
니코 -10220
▁4000 -10221
▁급하 -10222
▁시범 -10223
▁ㄲㅓㄹ -10224
▁눈동자 -10225
▁평상시 -10226
▁그러다 -10227
▁삽질 -10228
▁함수 -10229
생활 -10230
▁오공 -10231
▁자사 -10232
▁ㄱㅣㅇㅜㄹ -10233
▁곤충 -10234
▁스모 -10235
▁ㅂㅜㄴ -10236
▁진동 -10237
▁좌익 -10238
inal -10239
▁네크로 -10240
러브 -10241
▁BGA -10242
▁물려받 -10243
▁아이디 -10244
▁공신 -10245
▁케리 -10246
▁ㄴㅏㅇㅏㄱㅏ -10247
▁집사 -10248
▁무지개 -10249
▁김일 -10250
▁소집 -10251
▁남학생 -10252
▁ㄹㅣㄹㅏ -10253
▁이어서 -10254
▁웨폰 -10255
▁평론가 -10256
아시아 -10257
▁드루이드 -10258
▁ㄴㅗㅎㅇㅕ -10259
▁맷집 -10260
▁SA -10261
▁하이드 -10262
▁연이 -10263
▁단련 -10264
▁이쿠 -10265
▁타리 -10266
▁고가 -10267
▁ㅂㅏㄹㅏㅂㄴㅣㄷㅏ -10268
도전 -10269
▁ME -10270
▁가이아 -10271
쿠스 -10272
▁유아 -10273
▁ㅎㅡㄴㄷㅡㄹ -10274
▁냉장 -10275
▁보르 -10276
▁ㅂㅓㅅㅇㅓㄴㅏ -10277
▁검토 -10278
▁정우 -10279
▁중소 -10280
▁Gaming -10281
▁ㅅㅕ -10282
▁사천 -10283
▁징계 -10284
▁키노 -10285
▁하도 -10286
▁CR -10287
▁320 -10288
▁유머 -10289
▁1973 -10290
▁선회 -10291
▁스파크 -10292
▁리볼 -10293
▁ㅇㅏㄴㄷㅏ -10294
▁포크 -10295
▁달콤 -10296
▁ㅎㅘ -10297
▁명시 -10298
▁ㄷㅗㄹㅇㅏㅇㅗㄴㄷㅏ -10299
▁초과 -10300
▁아마존 -10301
▁아쉬움 -10302
▁장본 -10303
▁마마 -10304
ings -10305
▁이용자 -10306
▁GSL -10307
▁모의 -10308
▁315 -10309
▁ㅆㅣㄴ -10310
▁캡슐 -10311
▁성분 -10312
▁ㅂㅐㅇㅝㅆ -10313
▁당초 -10314
▁숙련도 -10315
▁투고 -10316
▁컬렉션 -10317
▁Gl -10318
▁장신구 -10319
DX -10320
▁ㅉㅣㄹㄹㅓ -10321
▁식스 -10322
트론 -10323
▁아르바이트 -10324
▁ㅊㅣㄱㅗ -10325
TA -10326
▁자력 -10327
▁무한도전 -10328
▁중기 -10329
▁시련 -10330
르타 -10331
▁부가 -10332
▁얄 -10333
▁그루 -10334
▁협조 -10335
ㅕㅇ -10336
▁Gu -10337
▁위쪽 -10338
▁ㅁㅗㅅㅈㅣ -10339
▁짬 -10340
▁라이드 -10341
▁중국인 -10342
▁중부 -10343
▁슬라이드 -10344
▁컨디션 -10345
▁대면 -10346
reak -10347
▁아유 -10348
▁대법 -10349
▁민중 -10350
▁강아지 -10351
▁일명 -10352
▁ㄴㅗㄹㅣㄴ -10353
▁유동 -10354
▁이명박 -10355
▁와타나베 -10356
▁가해 -10357
▁오로치 -10358
대사 -10359
태우 -10360
▁진단 -10361
▁마찰 -10362
▁ㅃㅐㄴ -10363
▁코끼리 -10364
▁인도네시아 -10365
▁ㅁㅗㅇㅣㄴ -10366
▁ㅇㅗㄹㄹㅏㄱㅏㄴ -10367
히토 -10368
수리 -10369
▁궁수 -10370
▁모나 -10371
ron -10372
▁저항력 -10373
▁장본인 -10374
▁이호 -10375
ㅊㅜㄴㄷㅏ -10376
▁잔류 -10377
▁미노 -10378
▁고발 -10379
▁리리 -10380
▁더럽 -10381
▁소꿉 -10382
▁ㄷㅐㅎㅐㅅㅓㄴ -10383
▁공교 -10384
▁무늬 -10385
▁무자 -10386
▁주술사 -10387
▁캘리 -10388
▁so -10389
▁유마 -10390
▁금강 -10391
▁접하 -10392
티니 -10393
▁급식 -10394
▁표식 -10395
▁나폴레 -10396
타운 -10397
▁앤드 -10398
▁재수 -10399
▁외야수 -10400
▁ㅅㅗㄱㅎㅐ -10401
▁가령 -10402
▁ㅊㅜ -10403
▁급격히 -10404
▁like -10405
▁168 -10406
▁와이번스 -10407
▁학위 -10408
▁상시 -10409
▁주저 -10410
▁벨기에 -10411
▁아무렇 -10412
▁서바이벌 -10413
▁고인 -10414
▁도마 -10415
▁네이션 -10416
▁일리 -10417
중간 -10418
▁보로 -10419
▁판사 -10420
▁ㅁㅏㄴㄴㅏㄴㄷㅏ -10421
▁국도 -10422
▁주술 -10423
▁혼혈 -10424
▁ㅈㅓㄱㅎㅣㄴ -10425
▁수신 -10426
ㅁㅗㄴ -10427
▁평택 -10428
▁방침 -10429
▁203 -10430
▁나폴레옹 -10431
▁라가 -10432
▁will -10433
▁이용객 -10434
▁내외 -10435
▁휴대폰 -10436
닐라 -10437
▁공헌 -10438
▁유카리 -10439
▁크라운 -10440
14 -10441
▁ㅁㅜㄷㅎㅕ -10442
▁NM -10443
▁ㄷㅗㄹㅇㅏㅇㅗㄹ -10444
▁윤리 -10445
▁도미 -10446
▁부산광역시 -10447
사와 -10448
▁라이징 -10449
▁성대 -10450
▁악행 -10451
▁초청 -10452
▁개명 -10453
▁내각 -10454
▁보직 -10455
PA -10456
▁승급 -10457
▁강동 -10458
저래 -10459
▁몸매 -10460
▁흉악 -10461
▁조립 -10462
▁천지 -10463
▁ㄱㅜㄷ -10464
▁ㄱㅏㅈㅕㄷㅏ -10465
운수 -10466
▁218 -10467
17 -10468
▁김병 -10469
▁체코 -10470
▁이래저래 -10471
▁오페라 -10472
▁이즈미 -10473
▁헤라 -10474
▁Min -10475
▁균열 -10476
▁원한 -10477
▁꿈꾸 -10478
▁불러 -10479
▁국토 -10480
▁쥬얼 -10481
▁수립 -10482
▁독보 -10483
▁모시 -10484
▁자산 -10485
ㅅㅓㄴㄷㅏ -10486
▁뚜렷 -10487
▁시네마 -10488
▁아테나 -10489
▁고우 -10490
▁저격수 -10491
전사 -10492
▁단역 -10493
▁충청남도 -10494
▁단총 -10495
▁런처 -10496
▁레이븐 -10497
▁위시 -10498
▁마저 -10499
▁황혼 -10500
▁ㄷㅏㄴㅕ -10501
▁사슬 -10502
▁베를린 -10503
▁소우 -10504
▁휴게 -10505
ㄷㅓㄴㅈㅣ -10506
▁마주치 -10507
▁배율 -10508
▁볶 -10509
▁어원 -10510
▁테크닉 -10511
GA -10512
▁탄압 -10513
▁서방 -10514
▁의정부 -10515
▁저승 -10516
▁ㅂㅜㄷㅡㄹ -10517
ㄸㅡㄹㅣㄴ -10518
▁one -10519
▁ㄴㅐㄹㅣㄴㄷㅏ -10520
▁부동산 -10521
▁ㅂㅔㄴ -10522
▁웃기 -10523
▁10000 -10524
▁니트 -10525
▁데려가 -10526
▁차장 -10527
▁오사 -10528
▁대학생 -10529
▁배리 -10530
주의자 -10531
▁필사 -10532
▁버거 -10533
▁교역 -10534
▁설마 -10535
▁로크 -10536
ECT -10537
▁정반대 -10538
▁ㅅㅣㅋㅕㅇㅑ -10539
성이 -10540
▁지지율 -10541
▁수중 -10542
▁ㄷㅡㄹㅓㄴㅏㄴ -10543
▁리믹스 -10544
▁국방부 -10545
▁충격파 -10546
▁단서 -10547
▁리츠 -10548
▁보가 -10549
▁면제 -10550
▁튀어나오 -10551
▁ㄴㅏㄴㅟㄴㄷㅏ -10552
▁피우 -10553
▁ㅇㅖㅃㅡㄴ -10554
▁Ro -10555
▁리프트 -10556
▁이오리 -10557
▁탄막 -10558
▁iOS -10559
▁트론 -10560
▁비자 -10561
▁작위 -10562
▁지터 -10563
▁하츠네 -10564
▁스코틀랜드 -10565
▁김성근 -10566
▁난리 -10567
▁번지 -10568
▁절단 -10569
▁RO -10570
▁타키 -10571
▁이리저리 -10572
▁대국 -10573
ICE -10574
▁성지 -10575
▁인명 -10576
▁히사 -10577
▁아수라 -10578
▁견해 -10579
▁플레임 -10580
▁na -10581
▁멋지 -10582
▁ㄷㅓㅅㅂㅜㅌㅇㅕ -10583
▁걸음 -10584
▁자루 -10585
▁오역 -10586
▁원로 -10587
▁비단 -10588
▁시간표 -10589
oul -10590
▁ㅇㅡㄹㅕㅁㅕㄴ -10591
▁밭 -10592
▁미남 -10593
▁왕족 -10594
▁더미 -10595
▁ALL -10596
▁Play -10597
▁ㅁㅏㅊㅣㄴ -10598
▁엠블 -10599
▁정전 -10600
ould -10601
MAX -10602
▁1974 -10603
보우 -10604
AND -10605
▁흉내 -10606
▁칼라 -10607
▁팰 -10608
▁입원 -10609
▁ㅂㅏㄹㅏㄴㄷㅏ -10610
▁버블 -10611
▁타우 -10612
▁평판 -10613
▁사물 -10614
▁성사 -10615
▁ㄷㅡㄹㅏ -10616
▁KB -10617
▁Red -10618
▁펑크 -10619
▁득표율 -10620
▁Ser -10621
▁말레이 -10622
▁극심 -10623
▁보편 -10624
▁계략 -10625
▁사이토 -10626
▁중화민국 -10627
▁해역 -10628
▁가해자 -10629
▁주황 -10630
▁완벽히 -10631
▁Type -10632
▁ㄴㅗㄹㅏㄴ -10633
친구 -10634
▁요우 -10635
저우 -10636
▁토비 -10637
▁지면 -10638
▁공격기 -10639
▁ㄲㅡㅌㄴㅏㅆ -10640
▁달인 -10641
▁격렬 -10642
ody -10643
▁NT -10644
▁간파 -10645
▁출석 -10646
▁캇 -10647
▁둥지 -10648
▁UC -10649
▁ㄱㅓㄷㅜㄴ -10650
▁전법 -10651
▁샘플 -10652
▁사우스 -10653
▁재배 -10654
▁희생자 -10655
과이 -10656
다드 -10657
▁우두머리 -10658
▁ㅇㅣㄴㄷㅡㅅ -10659
▁반장 -10660
▁177 -10661
▁se -10662
▁연막 -10663
▁Don -10664
▁액체 -10665
ions -10666
▁발톱 -10667
▁탈환 -10668
▁계절 -10669
▁다케 -10670
▁ㄱㅏㅈㅕㅇㅘㅆ -10671
▁충고 -10672
▁헤드샷 -10673
▁순간이동 -10674
▁커플링 -10675
▁깃털 -10676
▁김윤 -10677
▁이듬 -10678
▁주입 -10679
▁Car -10680
▁해변 -10681
▁리볼버 -10682
▁감성 -10683
STER -10684
▁강습 -10685
▁련 -10686
▁마르코 -10687
▁한양 -10688
▁플레이버 -10689
▁선로 -10690
▁스나 -10691
▁진형 -10692
▁의의 -10693
▁손잡이 -10694
▁ㄷㅗㄷ -10695
▁벚 -10696
▁맑 -10697
▁ㅅㅓㄲㅇㅣㄴ -10698
▁짝사랑 -10699
보기 -10700
▁ㅁㅏㅌㄱㅕ -10701
▁랜서 -10702
▁홈경기 -10703
▁전라남도 -10704
▁딥 -10705
▁태생 -10706
▁ㅇㅡㅅㅣㄴ -10707
▁무비 -10708
▁반도 -10709
ㅓㅈㅣㄴ -10710
▁스콜 -10711
▁138 -10712
▁us -10713
▁과언 -10714
텍스 -10715
▁슬라임 -10716
드로 -10717
▁중재 -10718
▁1975 -10719
▁ㄱㅓㅂㄴㅣㄷㅏ -10720
▁레슨 -10721
▁입자 -10722
▁코디 -10723
▁ㅇㅣㄴㅏㅁㅏ -10724
▁아이즈 -10725
▁안젤 -10726
▁이영호 -10727
▁ㄷㅔㅁㅗㄴ -10728
▁금고 -10729
▁주교 -10730
▁방울 -10731
▁서명 -10732
▁접수 -10733
▁사야카 -10734
▁ㄷㅡㄹㅇㅓㅇㅗㄹ -10735
▁공명 -10736
▁병과 -10737
▁맹독 -10738
▁크롬 -10739
▁측근 -10740
▁유지비 -10741
천군 -10742
▁동성애 -10743
▁차일드 -10744
▁Es -10745
▁상의 -10746
16 -10747
ven -10748
▁보루 -10749
▁상어 -10750
▁중도 -10751
▁워드 -10752
▁너클 -10753
▁필립 -10754
alk -10755
스카 -10756
▁석유 -10757
▁만지 -10758
▁자켓 -10759
▁리처드 -10760
▁메테 -10761
▁산탄총 -10762
레븐 -10763
ㅇㅏㄴㅐㄹ -10764
▁아리스 -10765
▁ㄷㅡㄹㅇㅡㅁㅕㄴ -10766
▁두려움 -10767
ㅅㅐ -10768
쳐지 -10769
▁부제 -10770
▁냉장고 -10771
▁찬양 -10772
▁완성도 -10773
▁데미 -10774
▁러너 -10775
▁팍 -10776
▁낮추 -10777
▁바이크 -10778
▁타스 -10779
라이언스 -10780
▁팔리 -10781
▁졸업식 -10782
▁다치 -10783
▁다가가 -10784
▁테니스 -10785
▁프로스트 -10786
▁어드밴 -10787
▁이사장 -10788
▁ㄹㅏㄷㅡㄴㄱㅏ -10789
▁ㅇㅏㄹㄹㅕㅈㅜㄴㄷㅏ -10790
▁월간 -10791
▁놀리 -10792
▁백만 -10793
▁떨어뜨리 -10794
▁얼라이언스 -10795
느리 -10796
▁Time -10797
▁왓 -10798
▁원화 -10799
ㅊㅏㄴ -10800
▁본질 -10801
▁부딪 -10802
▁''' -10803
▁교대 -10804
▁이념 -10805
af -10806
야스 -10807
▁콘스탄 -10808
▁마스코트 -10809
▁레인보우 -10810
▁162 -10811
▁ㅁㅜㄹㅇㅓ -10812
▁고래 -10813
▁삿 -10814
▁일각 -10815
▁EU -10816
▁견디 -10817
소총 -10818
▁아울 -10819
▁우지 -10820
▁have -10821
ㄱㅏㅇㅜㄴ -10822
▁126 -10823
te -10824
스티스 -10825
▁ㅉㅗㅊㄱㅕ -10826
▁수감 -10827
▁분할 -10828
▁가히 -10829
▁찰스 -10830
▁ㄴㅐㄹㅕㄱㅏㅆ -10831
▁박명 -10832
▁아인 -10833
▁조수 -10834
▁빙의 -10835
▁이듬해 -10836
▁ㄲㅜㅁ -10837
▁뺨 -10838
▁엉뚱 -10839
맥스 -10840
▁스바 -10841
▁슬러그 -10842
▁쟁이 -10843
▁테일즈 -10844
▁카오루 -10845
▁평등 -10846
ㄸㅡㄹㅕㅆ -10847
▁키즈 -10848
▁Sum -10849
▁WH -10850
▁로제 -10851
▁보고서 -10852
공사 -10853
▁가나 -10854
▁핑계 -10855
▁스칼 -10856
▁구로 -10857
▁김선 -10858
빨리 -10859
▁김두 -10860
▁심정 -10861
ics -10862
▁카렌 -10863
▁노부나가 -10864
▁지역구 -10865
▁신생 -10866
▁차림 -10867
▁ㄹㅗㄹ -10868
▁폭로 -10869
▁스매시 -10870
ㄴㅏㄴㄷㅏ -10871
르드 -10872
▁자키 -10873
▁연소 -10874
▁제조사 -10875
▁기관포 -10876
▁ㄷㅏㄱㅏㄴ -10877
▁ㄷㅝ -10878
▁말기 -10879
▁응급 -10880
▁젝 -10881
▁누스 -10882
▁부시 -10883
▁에드워드 -10884
▁텔레포트 -10885
▁왕가 -10886
▁클리셰 -10887
▁영화제 -10888
▁고립 -10889
랄드 -10890
▁휩 -10891
▁주차장 -10892
▁초등학생 -10893
▁꼴찌 -10894
YP -10895
▁조던 -10896
▁히카루 -10897
▁과격 -10898
▁고종 -10899
▁동상 -10900
뻐하 -10901
▁손목 -10902
▁기뻐하 -10903
▁사회주의 -10904
▁무식 -10905
▁로비 -10906
▁후반전 -10907
▁민병 -10908
▁솔직히 -10909
▁펙 -10910
▁나락 -10911
▁공짜 -10912
▁회계 -10913
▁신상 -10914
재기 -10915
▁대니 -10916
▁결과물 -10917
▁비키 -10918
▁병행 -10919
시스코 -10920
▁끊기 -10921
▁맞먹 -10922
▁기울 -10923
▁직위 -10924
▁조르 -10925
▁카토 -10926
▁팩션 -10927
▁ㅇㅟㅎㅏㅁ -10928
▁~" -10929
▁득표수 -10930
ACK -10931
▁know -10932
미터 -10933
▁주유 -10934
▁BT -10935
▁팜 -10936
무르 -10937
▁멘붕 -10938
▁out -10939
▁애드 -10940
▁oh -10941
▁포도 -10942
▁어제 -10943
▁ㄱㅗㅁㅏㅇㅝ -10944
▁ㅁㅗㄹㅡㄴㄷㅏㄴㅡㄴ -10945
▁카인 -10946
▁ㅇㅏㄴㅑ -10947
▁ㄷㅏㅈㅣㅁㅏㄴ -10948
은이 -10949
▁IIDX -10950
보라 -10951
▁BA -10952
▁CB -10953
▁김구 -10954
▁제너 -10955
▁ㄷㅣ -10956
▁콰 -10957
▁종로 -10958
▁팬티 -10959
▁브레스 -10960
▁분배 -10961
▁피드 -10962
▁즐겁 -10963
▁방벽 -10964
▁정의당 -10965
▁보복 -10966
▁조항 -10967
▁연세대 -10968
▁슬슬 -10969
▁투사 -10970
▁재질 -10971
▁ㄱㅓㄴㄷㅏ -10972
▁제자리 -10973
▁ㅁㅓㄱㅇㅕ -10974
▁야망 -10975
페이스 -10976
▁난투 -10977
▁숙청 -10978
▁1976 -10979
처럼 -10980
▁ㅇㅗㄹㅡㄴㄷㅏ -10981
고사 -10982
▁손꼽 -10983
ㅎㅣㅁ -10984
tern -10985
▁후면 -10986
▁군데 -10987
▁레귤 -10988
ins -10989
▁경사 -10990
▁Kore -10991
▁극악 -10992
셉트 -10993
ict -10994
▁ㄱㅕㄴㄷ -10995
시티 -10996
▁지배자 -10997
▁ㅅㅡㄹㅍㅡㄴ -10998
▁볼드 -10999
▁이세 -11000
▁313 -11001
▁EV -11002
▁pr -11003
▁소꿉친구 -11004
▁리셋 -11005
▁신조 -11006
▁발전소 -11007
▁몰아넣 -11008
▁ㄷㅡㄹㅣㄹ -11009
▁ㄴㅓㅁㄱㅕㅆ -11010
▁내뱉 -11011
▁132 -11012
▁한정판 -11013
▁내면 -11014
▁두루 -11015
▁상부 -11016
▁제의 -11017
▁난민 -11018
▁LTE -11019
▁페이크 -11020
▁결의 -11021
▁럭키 -11022
▁날아다니 -11023
▁ㄱㅓㄹㄹㅣㄹ -11024
▁서리 -11025
▁!!! -11026
ange -11027
▁해고 -11028
▁테이프 -11029
▁찰나 -11030
▁자포 -11031
▁거꾸 -11032
▁미트 -11033
▁ㄱㅏㅈㅕㄱㅏㅆ -11034
▁ㄷㅡㄹㅓㄴㅐㅆ -11035
▁약칭 -11036
▁ㅂㅔㄹ -11037
ater -11038
▁제주도 -11039
ㅌㅐ -11040
전설 -11041
▁세츠 -11042
▁ㅁㅗㅇㅏㅆ -11043
▁표기법 -11044
▁훔치 -11045
▁빈약 -11046
▁로그인 -11047
▁테르 -11048
▁Sun -11049
▁DI -11050
▁다저스 -11051
▁1972 -11052
▁ㄷㅡㄹㅇㅓㅇㅗㄴㄷㅏ -11053
▁개판 -11054
▁중후 -11055
▁채찍 -11056
▁ㅇㅕㄱㅕㅆ -11057
▁알아내 -11058
갈리 -11059
▁바나나 -11060
▁카테고리 -11061
▁ㄱㅡㄹㅕㅈㅣㄴ -11062
▁근로 -11063
▁페미니즘 -11064
▁수확 -11065
▁ㅈㅜㄹㅇㅕㅅㅓ -11066
▁set -11067
▁유비트 -11068
▁해전 -11069
퍼니 -11070
▁캔디 -11071
▁일산 -11072
▁실리 -11073
▁트랜스포 -11074
▁병종 -11075
레이크 -11076
▁연간 -11077
▁지미 -11078
▁재벌 -11079
▁바이킹 -11080
▁수영복 -11081
▁츤데레 -11082
▁선봉 -11083
무이 -11084
▁종전 -11085
▁접전 -11086
▁158 -11087
▁강탈 -11088
▁하지메 -11089
▁환호 -11090
▁여주인공 -11091
▁산소 -11092
▁로렌 -11093
▁ㄴㅓㅁㅇㅓㄱㅏㄹ -11094
▁메디 -11095
상가 -11096
▁feat -11097
▁IP -11098
▁메세지 -11099
▁자카 -11100
▁구독자 -11101
▁탁월 -11102
▁오딘 -11103
▁ㅆㅗㄷㅇㅏ -11104
ㅋㅣㄴ -11105
▁구청 -11106
19 -11107
▁GD -11108
▁제인 -11109
▁정준 -11110
▁파고 -11111
▁도사 -11112
돌프 -11113
▁그랑프리 -11114
▁TP -11115
▁콧 -11116
▁MO -11117
ㄹㄹㅣㅁ -11118
▁자작 -11119
▁가설 -11120
▁일조 -11121
▁ㄴㅡㄹㅇㅓㄴㅏㄴ -11122
▁라시 -11123
▁다투 -11124
▁1977 -11125
▁진짜로 -11126
▁프롤로그 -11127
▁힌트 -11128
▁ㄷㅏㅁㅏㄴ -11129
▁ㄱㅏㄹㅣ -11130
고속도로 -11131
▁초점 -11132
▁갸 -11133
▁카이사 -11134
▁대등 -11135
▁ㄷㅏㅇㅎㅐㅅㅓ -11136
▁사각 -11137
▁스케줄 -11138
▁ㅇㅗㄹㅂ -11139
▁적이 -11140
▁릴리스 -11141
▁교훈 -11142
▁ㄴㅏㅈ -11143
▁IV -11144
▁쿠바 -11145
▁230 -11146
▁서치 -11147
▁내정 -11148
▁응답 -11149
▁레귤러 -11150
▁ㄸㅢㅇㅝ -11151
▁미도리 -11152
▁ㅈㅓㅁ -11153
▁수여 -11154
▁구호 -11155
▁르노 -11156
▁빼앗기 -11157
▁퉁 -11158
▁ㅇㅡㄴㅈㅣ -11159
▁ㅆㅓㄹ -11160
▁신념 -11161
▁폐선 -11162
▁야마모토 -11163
▁관료 -11164
▁진로 -11165
▁거꾸로 -11166
▁빠져나가 -11167
▁이니 -11168
사스 -11169
▁유능 -11170
▁프랭크 -11171
그마 -11172
▁키드 -11173
▁무궁 -11174
▁High -11175
▁댐 -11176
▁마가 -11177
▁이점 -11178
▁인트 -11179
활약 -11180
▁충남 -11181
▁임진 -11182
▁니코니코 -11183
▁깡패 -11184
▁실바 -11185
▁중급 -11186
▁172 -11187
▁뚝 -11188
▁앨런 -11189
▁HS -11190
▁프로그래 -11191
▁필두 -11192
▁무신 -11193
▁Light -11194
▁껍질 -11195
▁ㄷㅜㄴㄷㅏ -11196
▁감금 -11197
▁소비자 -11198
ㅅㄱㅏㄹ -11199
▁내보내 -11200
▁스바루 -11201
▁유라 -11202
▁대명 -11203
▁때려잡 -11204
▁테레 -11205
▁ㅁㅜㅅㅓㅇㅝ -11206
▁쥰 -11207
▁개막전 -11208
▁리뉴 -11209
▁ㅈㅣㅋㅣㄹ -11210
▁TE -11211
천사 -11212
▁바인 -11213
▁치바 -11214
▁헐크 -11215
▁태미 -11216
▁베어 -11217
▁트러 -11218
▁ㅍㅕㄴㅎㅏㄴ -11219
che -11220
ME -11221
▁ㅊㅕㄷㅡㄹㅇㅓ -11222
▁ㄸㅓㄹㅇㅓㅈㅕㅅㅓ -11223
▁피난 -11224
▁컴퍼니 -11225
▁양심 -11226
▁ㄴㅏㄹㅇㅏㄱㅏ -11227
민주당 -11228
▁이만 -11229
▁ㅎㅐㅈㅕㅅㅓ -11230
▁133 -11231
▁순천 -11232
▁혹평 -11233
▁박쥐 -11234
▁정조 -11235
▁ㅇㅕㄱㅣㄴ -11236
▁덴마크 -11237
▁섭취 -11238
지사 -11239
▁ㄴㅐㅂㅓㄹㅕ -11240
▁플리 -11241
▁애쉬 -11242
▁LOVE -11243
▁주식회사 -11244
키스 -11245
▁보트 -11246
▁ㅈㅣㄴㅏㅊㅣㄴ -11247
▁이순신 -11248
▁공국 -11249
▁재림 -11250
▁줄기 -11251
▁배후 -11252
▁아폴 -11253
▁무색 -11254
▁인텔 -11255
▁캐슬 -11256
▁객관 -11257
▁도스 -11258
▁렀 -11259
▁강서 -11260
▁랜스 -11261
▁팀장 -11262
▁ㅆㅗㄹ -11263
▁파괴력 -11264
▁차분 -11265
▁Your -11266
▁기술력 -11267
▁진구 -11268
▁망상 -11269
▁순찰 -11270
▁최하 -11271
▁냉기 -11272
▁얼터 -11273
▁ㄸㅐㄹ -11274
▁신학 -11275
제스 -11276
▁존슨 -11277
▁Tw -11278
▁호응 -11279
▁la -11280
덕션 -11281
▁머물 -11282
▁연달 -11283
▁과감 -11284
▁지붕 -11285
▁미끼 -11286
▁148 -11287
▁지성 -11288
▁급속 -11289
▁라우 -11290
▁수성 -11291
▁여장 -11292
▁통보 -11293
ㅂㅎㅣㄴ -11294
▁박종 -11295
▁최정 -11296
▁윈터 -11297
▁NEW -11298
▁히나타 -11299
▁고질 -11300
▁사내 -11301
▁출제 -11302
메라 -11303
▁황태 -11304
▁ㅇㅏㄹㄹㅕㅆ -11305
▁179 -11306
▁제작비 -11307
▁ㅅㅏㄹㅇㅏㄴ -11308
▁저스티스 -11309
▁Mr -11310
▁펭귄 -11311
▁매지 -11312
▁모자라 -11313
▁앵커 -11314
그라 -11315
▁스톡 -11316
▁메구미 -11317
▁복도 -11318
▁케리건 -11319
▁어벤져스 -11320
▁능숙 -11321
▁OF -11322
▁찌질 -11323
▁노르웨이 -11324
▁망명 -11325
▁샤오 -11326
▁조력 -11327
▁소노 -11328
▁틀리 -11329
ica -11330
산역 -11331
▁득실 -11332
▁레슬러 -11333
▁세례 -11334
▁격퇴 -11335
▁파랑 -11336
▁미숙 -11337
▁제지 -11338
▁ㅁㅏㅅㅣㄴ -11339
▁오른팔 -11340
지않 -11341
▁모스크바 -11342
▁성벽 -11343
▁장갑차 -11344
▁ㄱㅏㄹㄹㅏ -11345
세서리 -11346
▁ㅇㅜㄴ -11347
▁라이센스 -11348
▁Gen -11349
▁트랜스포머 -11350
▁GTA -11351
▁립스 -11352
▁반론 -11353
▁로맨스 -11354
▁심히 -11355
▁포니 -11356
▁리터 -11357
사고 -11358
▁교시 -11359
▁스팅 -11360
▁Mi -11361
▁후쿠오카 -11362
▁드로 -11363
▁제대 -11364
IK -11365
▁사지 -11366
▁156 -11367
교통 -11368
▁풍경 -11369
▁사나이 -11370
▁ㄷㅓㄹㅓㅇㅜㄴ -11371
▁Em -11372
▁노골 -11373
▁두뇌 -11374
▁am -11375
▁염두 -11376
▁철갑탄 -11377
▁유타 -11378
▁154 -11379
날두 -11380
▁뒤쪽 -11381
▁종말 -11382
▁ar -11383
▁파우 -11384
▁솟 -11385
▁ㅂㅏㄱㅎㅕ -11386
리칸 -11387
▁꼼수 -11388
▁미모 -11389
▁탐구 -11390
▁호날두 -11391
▁시조 -11392
▁사소 -11393
▁혼인 -11394
▁표창 -11395
ors -11396
▁ㄷㅓㄴㅈㅕㅆ -11397
▁비참 -11398
▁Par -11399
▁교육청 -11400
▁ㅅㅣㄷㅏ -11401
▁슈가 -11402
▁밧 -11403
▁159 -11404
▁진술 -11405
FL -11406
▁치마 -11407
▁ㅇㅣㅇㅓㅅㅓ -11408
▁호무 -11409
▁노래방 -11410
▁레슬링 -11411
▁바닷 -11412
▁ㅇㅏㅍㅅㅓㄴ -11413
▁ㅈㅜㄹㅇㅓㄷㅡㄴㄷㅏ -11414
▁맹활약 -11415
▁진흥 -11416
▁초코 -11417
▁아비 -11418
▁음향 -11419
▁명대사 -11420
▁호구 -11421
▁미세 -11422
▁여수 -11423
▁ㅌㅏㄱㅏ -11424
▁176 -11425
▁안동 -11426
▁ㄴㅏㄹㄹㅣㄴ -11427
▁사가 -11428
▁거스 -11429
▁재즈 -11430
▁222 -11431
▁죄수 -11432
▁배신자 -11433
HT -11434
▁사일 -11435
▁ㅊㅏㅈㅇㅏㅇㅘ -11436
▁냉동 -11437
▁춤추 -11438
ㅇㅓㅈㅣㄹ -11439
▁응시 -11440
▁MK -11441
▁일컫 -11442
▁착지 -11443
▁분쇄 -11444
▁오쿠 -11445
▁전반기 -11446
▁공립 -11447
▁미호 -11448
▁HARD -11449
박이 -11450
▁떠돌 -11451
▁블랙홀 -11452
▁게르 -11453
▁발탁 -11454
▁1971 -11455
▁기행 -11456
▁전학 -11457
▁벨라 -11458
▁생태 -11459
▁u -11460
▁발발 -11461
▁성폭 -11462
▁코프 -11463
▁엄폐 -11464
▁믿음 -11465
▁테오 -11466
▁129 -11467
▁에그 -11468
▁른 -11469
▁레오나 -11470
▁통틀어 -11471
▁대목 -11472
▁폐허 -11473
▁남양 -11474
▁173 -11475
▁현직 -11476
▁핀란드 -11477
▁ㅎㅑㅇㅎㅏㄴㄷㅏ -11478
클린 -11479
▁OCG -11480
▁ㅉㅗㅊㅇㅏ -11481
▁리우스 -11482
스럽 -11483
▁전임 -11484
▁수하 -11485
▁FPS -11486
▁사천왕 -11487
▁계곡 -11488
바스 -11489
티지 -11490
▁ㅈㅏㅂㅎㅕㅆ -11491
구나 -11492
퀘어 -11493
▁AE -11494
▁오리온 -11495
▁책상 -11496
▁섹시 -11497
▁153 -11498
어붙 -11499
▁사르 -11500
▁ㅂㅓㄹㅣㅁ -11501
▁PL -11502
▁천문 -11503
▁명탐정 -11504
▁의아 -11505
▁was -11506
▁화석 -11507
▁ll -11508
▁ㄲㅏㄹㄹㅕ -11509
CH -11510
▁세키 -11511
▁텍사스 -11512
▁캘리포 -11513
▁전도 -11514
▁나란히 -11515
▁ㄱㅓㄹㄹㅕㅅㅓ -11516
▁가마 -11517
▁남한 -11518
▁ㅇㅓㄺ -11519
▁안드레 -11520
▁드리블 -11521
▁프로덕션 -11522
▁선포 -11523
멘터리 -11524
▁파이프 -11525
▁고음 -11526
▁신주 -11527
▁ㅁㅏㅈㅊㅜㄹ -11528
▁ㅁㅝㄴㅈㅣ -11529
pr -11530
▁질풍 -11531
▁시뮬레이션 -11532
▁샹 -11533
UT -11534
▁꽁 -11535
▁토막 -11536
▁137 -11537
▁ㅈㅣㅇㅛ -11538
▁나카무라 -11539
▁에메랄드 -11540
▁테러리 -11541
▁Kn -11542
▁ㄹㅏㄱㅗㄴ -11543
▁헷 -11544
eep -11545
▁우산 -11546
▁스탈린 -11547
▁Of -11548
▁죠죠 -11549
▁마신 -11550
▁무단 -11551
▁캘리포니아 -11552
▁지각 -11553
▁호스 -11554
▁혼다 -11555
▁ㅂㅗㅇㅕㅆㅇㅡㄴㅏ -11556
▁감싸 -11557
▁러닝 -11558
▁인플 -11559
▁ㅇㅝㄴㅎㅐㅆ -11560
▁ㅎㅐㅅㅓㄴ -11561
▁ㅇㅣㄹㅡㄴㄷㅏ -11562
슬링 -11563
▁푸르 -11564
▁에필 -11565
▁잔해 -11566
▁에필로그 -11567
▁이광 -11568
▁세일러 -11569
▁절정 -11570
▁래스터 -11571
▁오락실 -11572
▁문화재 -11573
▁대안 -11574
▁로스터 -11575
▁ㄱㅡㄹㅕㅆ -11576
▁~~ -11577
▁ㄷㅏㄹㅡㅁㅇㅏㄴ -11578
하여 -11579
▁ㄷㅏㄹㅡㅁㅇㅏㄴㅣㄴ -11580
▁토가 -11581
▁What -11582
les -11583
▁영등 -11584
타니 -11585
▁책략 -11586
▁목포 -11587
▁ㅆㅡㄹㅓㅈㅕ -11588
▁교정 -11589
▁두목 -11590
▁ㄹㅏㄷㅓㄴㄱㅏ -11591
▁비기 -11592
▁이행 -11593
▁GHz -11594
▁발렌타인 -11595
▁얹 -11596
▁청룡 -11597
▁뛰어들 -11598
▁ㅁㅏㄹㄹㅕ -11599
▁예방 -11600
▁멋있 -11601
▁배리어 -11602
▁로테이션 -11603
▁스텔라 -11604
▁불문 -11605
▁아랑 -11606
▁골치 -11607
▁노하 -11608
▁말소 -11609
▁요코하마 -11610
▁먼지 -11611
▁십자군 -11612
▁로열 -11613
▁장시 -11614
▁280 -11615
▁1969 -11616
▁빅토리아 -11617
▁신세계 -11618
▁ㄱㅓㄴㄷㅡㄹ -11619
▁델타 -11620
▁총사 -11621
▁유니콘 -11622
▁숭배 -11623
▁BM -11624
▁얼어붙 -11625
▁슬램 -11626
▁기쁨 -11627
▁야당 -11628
▁ㄹㅏㅁ -11629
▁다큐멘터리 -11630
아슬 -11631
▁174 -11632
▁아슬아슬 -11633
▁서울시 -11634
▁총선거 -11635
▁225 -11636
▁레바 -11637
▁ㅆㅗㄴ -11638
▁골목 -11639
▁면접 -11640
▁엣지 -11641
▁대교 -11642
▁ㄱㅓㄷㅝㅆ -11643
▁139 -11644
▁Per -11645
▁중공 -11646
▁163 -11647
더기 -11648
▁134 -11649
▁원망 -11650
▁주파 -11651
▁땀 -11652
▁카즈야 -11653
▁꿇 -11654
플러스 -11655
▁깽 -11656
▁하의 -11657
▁월요일 -11658
▁167 -11659
▁보디 -11660
▁처녀 -11661
ㅓㅇㅜㅁ -11662
▁심연 -11663
▁열기 -11664
▁미식 -11665
▁버터 -11666
▁오바 -11667
▁143 -11668
▁단의 -11669
▁Fe -11670
▁악곡 -11671
▁TO -11672
▁어설 -11673
▁나사 -11674
▁GPU -11675
▁분포 -11676
▁Heart -11677
▁이준 -11678
▁ㅅㅣㄴㄷㅏ -11679
▁필라 -11680
볼루션 -11681
▁오타쿠 -11682
▁투성이 -11683
▁블라디 -11684
반신 -11685
▁스파이크 -11686
▁해상도 -11687
▁쓸데없이 -11688
▁스페인어 -11689
총장 -11690
▁최대치 -11691
▁루루 -11692
컨드 -11693
▁Good -11694
▁부처 -11695
▁로지 -11696
▁ㅁㅐㄴ -11697
▁ㅅㅓㄹ -11698
▁세컨드 -11699
▁상장 -11700
▁그제 -11701
▁yout -11702
▁전광 -11703
▁함성 -11704
▁142 -11705
▁CO -11706
▁ㄷㅗㅇ -11707
▁인구수 -11708
▁청사 -11709
▁화약 -11710
▁퍼시 -11711
▁연기력 -11712
▁용의자 -11713
▁2500 -11714
agon -11715
▁김도 -11716
▁모기 -11717
ㄸㅓㄹ -11718
▁왕관 -11719
▁태권 -11720
▁반란군 -11721
▁관광객 -11722
▁전수 -11723
▁패닉 -11724
ert -11725
▁스윕 -11726
▁164 -11727
▁네스 -11728
공화 -11729
▁항공사 -11730
▁선수단 -11731
▁히카리 -11732
▁인사이드 -11733
▁CN -11734
▁때로 -11735
▁스토커 -11736
▁트레이닝 -11737
지오 -11738
▁무안 -11739
▁비로 -11740
▁유나 -11741
▁beat -11742
부인 -11743
어버리 -11744
▁드레드 -11745
▁미유키 -11746
▁기소 -11747
▁불쾌 -11748
▁추모 -11749
ㅇㄱㅣㄴ -11750
▁구제 -11751
▁하후 -11752
▁pro -11753
▁스트로 -11754
▁ㄱㅡㄹㅣ -11755
▁퓨처 -11756
▁ㅃㅏㅈㅕㄴㅏ -11757
ㅓㄴㅕㅇ -11758
▁실로 -11759
▁ㅍㅜㄹㄹㅣㄴ -11760
EL -11761
▁해태 -11762
▁따라잡 -11763
▁야마다 -11764
▁하우 -11765
▁ㅡ -11766
에몽 -11767
▁국기 -11768
▁심야 -11769
▁ㄷㅏㅁㄱㅕ -11770
▁ㅎㅏㄹㅅㅜㄹㅗㄱ -11771
▁기이 -11772
▁라임 -11773
▁마의 -11774
▁제단 -11775
▁극우 -11776
▁ONE -11777
▁누이 -11778
▁왕후 -11779
▁음색 -11780
▁선인 -11781
▁청장 -11782
▁이인 -11783
▁ㅂㅣㅊㅝ -11784
▁직격 -11785
▁페르시아 -11786
▁달라 -11787
▁뉴질 -11788
▁ㅎㅓㄴ -11789
▁뽑아내 -11790
▁뉴질랜드 -11791
▁악령 -11792
▁야전 -11793
▁패스트 -11794
▁동아시아 -11795
▁우투 -11796
▁홍성 -11797
▁꾸미 -11798
▁직통 -11799
▁136 -11800
▁뱉 -11801
▁공고 -11802
▁김연 -11803
▁관계없이 -11804
▁김천 -11805
좀무 -11806
▁흠좀무 -11807
▁ㅇㅗㄹㅡㄹ -11808
▁지극 -11809
▁쓰러트리 -11810
▁벚꽃 -11811
▁킹덤 -11812
▁콘셉트 -11813
▁회로 -11814
▁징크스 -11815
▁참으로 -11816
▁ㄷㅗㄹㅇㅏㄷㅏㄴ -11817
▁로브 -11818
▁ㄷㅓㅁ -11819
▁리부트 -11820
▁제이슨 -11821
▁Dark -11822
▁ㅁㅓㅁㅜ -11823
}} -11824
▁안철수 -11825
▁time -11826
▁내세우 -11827
▁KC -11828
▁템포 -11829
▁방안 -11830
▁ㅂㅜㄲㅡㄹ -11831
▁적립 -11832
▁서장 -11833
▁개그맨 -11834
▁아이스크림 -11835
슬리 -11836
▁두근 -11837
▁랙 -11838
▁바닐라 -11839
▁일환 -11840
프란 -11841
▁궁전 -11842
백과 -11843
▁알렉산더 -11844
▁오프라인 -11845
▁핸드폰 -11846
▁ㄴㅗㄹ -11847
립트 -11848
▁사범 -11849
무실 -11850
▁동사 -11851
▁조준경 -11852
▁경찰청 -11853
▁유고 -11854
▁한층 -11855
리드 -11856
▁경지 -11857
▁완구 -11858
▁번갈 -11859
▁유해 -11860
▁ㅁㅗㄹㅇㅏ -11861
▁어린아이 -11862
▁샤를 -11863
▁자부 -11864
디스 -11865
▁텀 -11866
▁훈훈 -11867
무게 -11868
레이트 -11869
▁몸무게 -11870
▁유선 -11871
▁157 -11872
▁1963 -11873
▁숙주 -11874
▁ㄷㅏㄹㅜㄹ -11875
▁미라이 -11876
▁ㄱㅖ -11877
▁중심지 -11878
▁체격 -11879
▁술집 -11880
▁죄송 -11881
▁메이트 -11882
▁ㅂㅓㅌㅕ -11883
▁330 -11884
▁0900 -11885
▁내뿜 -11886
▁중년 -11887
려나 -11888
other -11889
▁모던 -11890
▁세미 -11891
▁카니 -11892
풀이 -11893
▁모양새 -11894
▁연의 -11895
▁혼동 -11896
▁화소 -11897
iew -11898
▁열세 -11899
▁ab -11900
▁출고 -11901
▁ㅊㅏㅈㅇㅏㅇㅘㅆ -11902
▁문신 -11903
ideo -11904
▁근력 -11905
land -11906
▁좌파 -11907
▁뮤지션 -11908
▁Sm -11909
▁정서 -11910
▁순정 -11911
▁방호 -11912
▁외면 -11913
▁앞뒤 -11914
▁배우자 -11915
티넘 -11916
▁양대 -11917
▁전반전 -11918
▁플래티넘 -11919
▁브루스 -11920
▁눈빛 -11921
▁라바 -11922
▁갈리아 -11923
▁사투리 -11924
▁호박 -11925
▁레프 -11926
▁휴스턴 -11927
▁안토니 -11928
애나 -11929
▁하카 -11930
▁브이 -11931
air -11932
▁계시 -11933
▁창립 -11934
▁패드 -11935
ㅇㅡㅁㅡㄹㅗ -11936
▁Sl -11937
▁합치 -11938
▁타다 -11939
▁줄리 -11940
▁연금술사 -11941
▁주한 -11942
▁에일리 -11943
▁대중교통 -11944
▁우천 -11945
▁제우스 -11946
▁1968 -11947
▁제사 -11948
▁270 -11949
▁ㅇㅏㄴㅣㄴㅈㅣ -11950
▁침해 -11951
▁저조 -11952
▁설탕 -11953
▁성숙 -11954
▁ㅈㅗㅎㅇㅏㅎㅏㄴㄷㅏ -11955
▁시흥 -11956
▁장례식 -11957
▁출연진 -11958
▁제프 -11959
▁본의 -11960
▁플라스틱 -11961
▁농민 -11962
▁집필 -11963
ㅇㅟㄴ -11964
▁꿰뚫 -11965
▁Blue -11966
▁투신 -11967
▁타당 -11968
▁Baby -11969
▁오키나 -11970
ator -11971
▁AG -11972
▁나뭇 -11973
▁ㄷㅏㄹㄹㅏㅆ -11974
▁고자 -11975
▁해독 -11976
▁박상 -11977
▁미니언 -11978
▁외관 -11979
▁코즈 -11980
▁이아 -11981
▁도시락 -11982
▁클라우드 -11983
▁...... -11984
oot -11985
▁워너 -11986
▁스케이 -11987
▁신수 -11988
▁전열 -11989
▁환사 -11990
anna -11991
▁테러리스트 -11992
▁Ac -11993
▁대진 -11994
▁유코 -11995
▁장풍 -11996
▁헤일 -11997
▁샤워 -11998
▁초교 -11999
▁ㅂㅜㄹㄹㅣㄹ -12000
▁기피 -12001
▁깨알 -12002
▁선교 -12003
▁김대중 -12004
▁하이브리 -12005
▁동호 -12006
▁ㅋㅣㄹㅗ -12007
▁벌금 -12008
▁ㄷㅡㄹㄹㅣㄴㄷㅏ -12009
▁하이브리드 -12010
▁수시로 -12011
▁테루 -12012
▁세스 -12013
▁전라북도 -12014
▁더구나 -12015
▁무수 -12016
▁부사관 -12017
▁방언 -12018
▁청나라 -12019
▁베일 -12020
▁우상 -12021
▁자칫 -12022
ush -12023
▁미티 -12024
▁집합 -12025
▁히로시마 -12026
▁모어 -12027
▁브레인 -12028
▁취지 -12029
▁ㄱㅕㅂ -12030
▁담임 -12031
▁하시 -12032
▁149 -12033
▁오비 -12034
▁심상 -12035
▁방공 -12036
▁ㅁㅣㅊㅣㄹ -12037
▁ㅁㅗㄹㅡㄴㄷㅏㄱㅗ -12038
▁하비 -12039
▁강세 -12040
▁ㅊㅜㄹ -12041
▁브론즈 -12042
▁ㅁㅏㅊㅕㅆ -12043
▁ㄱㅡㄹㅕㅈㅕ -12044
▁센트럴 -12045
▁ㅃㅏㅈㅣㄴㄷㅏ -12046
▁각국 -12047
▁사탄 -12048
ㄹㄹㅏㅆ -12049
▁ㅅㅐㅇㄱㅕㅅㅓ -12050
▁적성 -12051
▁넉넉 -12052
▁희대 -12053
르도 -12054
▁총독 -12055
▁ㅅㅣㄹㄹㅕ -12056
▁146 -12057
▁상쇄 -12058
▁후루 -12059
▁푹 -12060
▁허브 -12061
▁경제학 -12062
▁트러블 -12063
▁황실 -12064
▁가혹 -12065
▁ㅂㅜㄹㅕ -12066
▁로라 -12067
▁모함 -12068
▁확고 -12069
▁야만 -12070
▁Li -12071
▁OK -12072
ㅁㅜ -12073
▁조교 -12074
▁공모 -12075
▁멜론 -12076
▁마켓 -12077
▁Fire -12078
카미 -12079
▁지난 -12080
▁손꼽히 -12081
▁마초 -12082
▁체스 -12083
▁지문 -12084
na -12085
▁기함 -12086
▁남미 -12087
토리얼 -12088
▁ㅊㅟㅎㅏㄴ -12089
▁격전 -12090
▁ㅅㅣㅁㅎㅐㅆ -12091
▁하여금 -12092
▁연회 -12093
▁거품 -12094
▁브레이브 -12095
▁ㅅㅏㅇㅎㅏㄴ -12096
▁암컷 -12097
▁ㅎㅗ -12098
▁ㅁㅐㄷㅏ -12099
▁후쿠시마 -12100
▁튜토리얼 -12101
▁상공 -12102
▁ㄴㅓㅁㅇㅓㄱㅏㄴㄷㅏ -12103
▁줌 -12104
▁찰리 -12105
▁260 -12106
▁풍기 -12107
▁낡 -12108
▁공영 -12109
▁뒤지 -12110
▁오리진 -12111
▁ㅇㅣㄲㅡㄹ -12112
▁일삼 -12113
▁심화 -12114
▁종착 -12115
▁ㅇㅕㄹㄹㅣㄴㄷㅏ -12116
▁프로토타입 -12117
▁리액 -12118
▁장동 -12119
▁유니온 -12120
▁El -12121
▁섹스 -12122
▁페이커 -12123
▁방화 -12124
▁마테 -12125
▁크롤 -12126
▁sm -12127
▁소사 -12128
▁저희 -12129
▁ㅎㅓㅁ -12130
▁주의자 -12131
▁월등 -12132
▁프렌즈 -12133
▁루키 -12134
▁빈틈 -12135
▁럴 -12136
▁라프 -12137
▁가라앉 -12138
▁ㄱㅓㄹㅇㅓㅅㅓ -12139
▁말년 -12140
▁경과 -12141
▁병장 -12142
▁웨인 -12143
▁ㄸㅏㅈㅕ -12144
▁ㄴㅜㄴㅊㅣ -12145
▁아르카 -12146
▁Dis -12147
▁ㄴㅜㄴㅊㅣㅊ -12148
OID -12149
▁ㄷㅝㅆ -12150
▁랩터 -12151
글라스 -12152
▁초상화 -12153
▁레이너 -12154
▁맥락 -12155
▁슈터 -12156
▁인체 -12157
전트 -12158
ady -12159
▁공손 -12160
▁실력자 -12161
▁일레븐 -12162
▁ㅈㅜㄹㄱㅔ -12163
더슨 -12164
▁일품 -12165
▁클러 -12166
▁주가 -12167
▁BEMAN -12168
단지 -12169
▁kr -12170
▁원자력 -12171
▁고추 -12172
▁브랜 -12173
▁오세 -12174
▁미스터리 -12175
▁ㅈㅓㅇㅎㅐㅈㅕ -12176
▁합법 -12177
▁개미 -12178
▁책임지 -12179
▁타카시 -12180
▁ㅈㅜㄱㅇㅣㄴㄷㅏ -12181
▁오의 -12182
ㅅㅔㅇㅛ -12183
▁석상 -12184
▁중학생 -12185
▁고성 -12186
▁파격 -12187
▁맞대 -12188
▁신병 -12189
▁핸들 -12190
▁포워드 -12191
▁하라 -12192
두사 -12193
▁운반 -12194
▁적재 -12195
▁프로모 -12196
▁별칭 -12197
베트 -12198
▁켄지 -12199
▁격기 -12200
▁속력 -12201
▁편견 -12202
▁놔 -12203
▁수량 -12204
▁자질 -12205
▁DJMAX -12206
▁미즈키 -12207
▁BEMANI -12208
▁문법 -12209
▁무선 -12210
▁생선 -12211
▁져 -12212
▁부친 -12213
▁ㅇㅣㄹㅡㄴ -12214
티노 -12215
▁ㅂㅏㄱㅅㅏㄹ -12216
▁미로 -12217
▁파손 -12218
▁도검 -12219
토랑 -12220
▁니나 -12221
▁뒷면 -12222
▁ㅇㅣㄹㅐ -12223
▁레스토랑 -12224
▁ㅇㅏㅇㅣㄴ -12225
▁fl -12226
▁빈번 -12227
▁쏟아지 -12228
▁Champ -12229
메어 -12230
▁속공 -12231
▁말아먹 -12232
▁ㄷㅓㄹㅏㅁㅕㄴ -12233
▁불화 -12234
▁가성 -12235
▁연말 -12236
▁우편 -12237
▁리바운드 -12238
▁ㅂㅜㄹㄹ -12239
▁다이노스 -12240
ution -12241
▁프랜차 -12242
▁다면 -12243
▁통행 -12244
▁STR -12245
▁cc -12246
▁호출 -12247
▁본가 -12248
앙스 -12249
▁주고 -12250
▁므 -12251
▁명명 -12252
▁하반기 -12253
▁발차기 -12254
ㅛㅎㅏㄴ -12255
▁유유 -12256
▁수령 -12257
나리 -12258
레드 -12259
▁ㄲㅡㄹㅇㅓㅇㅗ -12260
▁스트리밍 -12261
▁쐐 -12262
▁격리 -12263
레슬링 -12264
▁가브리 -12265
▁피카츄 -12266
▁유승 -12267
▁소령 -12268
▁박명수 -12269
▁데스티니 -12270
스틴 -12271
▁Pre -12272
▁북구 -12273
어들이 -12274
사벽 -12275
▁넘사벽 -12276
▁재빨리 -12277
▁Ev -12278
▁프랜차이즈 -12279
▁프로레슬링 -12280
▁205 -12281
▁뚜껑 -12282
▁수컷 -12283
▁1967 -12284
저드 -12285
더링 -12286
▁뭔 -12287
구역 -12288
▁ㅂㅓㄹㅕㅈㅣㄴ -12289
▁솜씨 -12290
▁나이트메어 -12291
▁자각 -12292
▁평창 -12293
▁돋보이 -12294
▁퇴역 -12295
▁당국 -12296
▁뉘앙스 -12297
엘라 -12298
▁추출 -12299
▁DB -12300
▁정형 -12301
▁대승 -12302
▁독립운동 -12303
▁성기 -12304
▁앤디 -12305
▁ㅇㅓㄹ -12306
▁선곡 -12307
와라 -12308
▁증인 -12309
▁앞면 -12310
▁프리즘 -12311
▁ㄸㅔ -12312
▁경질 -12313
▁박용 -12314
▁신임 -12315
▁이방 -12316
▁정체불명 -12317
▁ㅇㅜㅁㅈㅣㄱㅇㅕ -12318
▁일례 -12319
▁전염 -12320
▁하와 -12321
▁깨어나 -12322
치아 -12323
▁ㅇㅕㄷㅗ -12324
▁원흉 -12325
▁탯이 -12326
▁클립 -12327
석민 -12328
▁무죄 -12329
▁단식 -12330
▁간호사 -12331
ㅂㅎㅕㅆ -12332
ium -12333
▁550 -12334
▁우파 -12335
▁RP -12336
▁끓 -12337
▁애국 -12338
▁GG -12339
▁정재 -12340
▁네코 -12341
▁아메리칸 -12342
▁부관 -12343
▁타나카 -12344
▁교통사고 -12345
▁운석 -12346
▁질환 -12347
▁Summer -12348
듈럼 -12349
▁동로 -12350
▁우가 -12351
▁가의 -12352
▁147 -12353
▁광전사 -12354
▁나열 -12355
▁강점기 -12356
▁디비전 -12357
▁석사 -12358
▁나레이션 -12359
▁개개 -12360
▁츠바사 -12361
ㅈㅓ -12362
▁여관 -12363
▁수수료 -12364
미르 -12365
▁몹시 -12366
▁오시 -12367
▁드릴 -12368
▁Grand -12369
▁ㅂㅜㅌㅓㄴ -12370
▁ㅎㅏㄴㄷㅏㄱㅓㄴㅏ -12371
▁블래 -12372
▁Rock -12373
▁노블 -12374
▁범행 -12375
▁호그 -12376
▁미들 -12377
▁퓨리 -12378
▁콕 -12379
▁원작자 -12380
▁back -12381
▁넥서스 -12382
▁게임즈 -12383
▁ㅂㅓㄹㅇㅓㅈㅣㄴㄷㅏ -12384
▁미팅 -12385
▁ㅇㅏㅍㅅㅔ -12386
▁우체 -12387
▁푼 -12388
▁무고 -12389
▁추궁 -12390
ㅁㅏㄹㄹㅕ -12391
▁펜듈럼 -12392
▁플레어 -12393
▁ㄸㅏㅇㅟㄴ -12394
▁하드웨어 -12395
▁헤어지 -12396
▁ㄱㅓㅅㅡㄹ -12397
▁동년 -12398
▁무명 -12399
▁토마토 -12400
▁입국 -12401
▁ㅂㅣㅅ -12402
통수 -12403
▁ㅇㅝㄴㅎㅏㄴㄷㅏ -12404
▁SCP -12405
▁211 -12406
퍼드 -12407
▁치루 -12408
▁ㄷㅏㄹㄹㅏㅈㅕㅆ -12409
gain -12410
▁동등 -12411
▁ㄱㅜㄹㄹㅓ -12412
▁아까 -12413
▁멀리서 -12414
모어 -12415
▁내셔널 -12416
▁흩 -12417
▁페인 -12418
▁브라우 -12419
▁ㄷㅏㄹㄹㅏㅈㅣㄴ -12420
▁버릇 -12421
▁탄탄 -12422
▁유신 -12423
▁전두 -12424
▁ㄱㅡㅁㅏㄴ -12425
▁now -12426
▁줄어드 -12427
▁총평 -12428
현우 -12429
▁폴리스 -12430
▁특이점 -12431
▁ㅎㅟㅁㅏㄹㄹㅕ -12432
▁통수 -12433
▁배속 -12434
▁복면 -12435
▁떄 -12436
▁원종 -12437
▁유무 -12438
▁Over -12439
▁공습 -12440
▁만루 -12441
▁전례 -12442
▁체형 -12443
▁This -12444
▁대외 -12445
▁메모 -12446
▁ㅅㅏㅁ -12447
▁아이폰 -12448
▁ㅂㅐㅇㅝ -12449
▁권능 -12450
▁코지 -12451
▁day -12452
ㅋㅣㄹ -12453
▁군림 -12454
▁사슴 -12455
두리 -12456
▁인어 -12457
▁데려오 -12458
▁재활 -12459
▁ㅂㅜㄹㄹㅕ -12460
▁감전 -12461
▁마지 -12462
▁퓨어 -12463
▁환수 -12464
▁게시물 -12465
▁영등포 -12466
▁은메달 -12467
▁강팀 -12468
고래 -12469
▁심문 -12470
노스케 -12471
ction -12472
▁십자가 -12473
▁텅 -12474
▁대패 -12475
▁호노 -12476
ㄴㅏㄹ -12477
▁사교 -12478
▁에바 -12479
▁그리드 -12480
▁무슬 -12481
▁엎 -12482
▁포식 -12483
▁아래쪽 -12484
▁힐링 -12485
▁LED -12486
▁Dance -12487
▁말레이시아 -12488
▁ㄴㅜㅇㅝ -12489
▁But -12490
평가 -12491
▁실루 -12492
▁속박 -12493
▁온몸 -12494
▁제보 -12495
▁살인마 -12496
▁레이첼 -12497
▁ㅎㅐㅆㅇㅓㄷㅗ -12498
▁리키 -12499
▁한강 -12500
▁방과 -12501
▁광속 -12502
▁알렉산드 -12503
▁루팡 -12504
▁관절 -12505
▁파문 -12506
▁함재기 -12507
▁DR -12508
▁ㅅㅗㄴ -12509
▁별자리 -12510
▁동북 -12511
▁배송 -12512
▁염색 -12513
르바 -12514
▁무제한 -12515
▁대군 -12516
▁홀딩 -12517
▁보구 -12518
▁옌 -12519
▁잖 -12520
▁ㄲㅗㅂㅎㅣㄴㄷㅏ -12521
ㄱㅣ -12522
ne -12523
▁펴 -12524
결승 -12525
▁닥치 -12526
▁점사 -12527
irst -12528
▁셰프 -12529
▁노비 -12530
▁미스트 -12531
▁ㄱㅘㄴㅎㅐㅅㅓ -12532
▁진도 -12533
▁ㅁㅏㅇㅎㅏㄴ -12534
▁내구력 -12535
▁VOC -12536
▁길거리 -12537
▁호투 -12538
▁내밀 -12539
▁픽셀 -12540
▁이창 -12541
▁교내 -12542
파리 -12543
▁ㅁㅣㅊㅕㅆ -12544
▁격침 -12545
▁박탈 -12546
▁SL -12547
▁ㄱㅘㄴㅎㅐ -12548
▁직속 -12549
▁노트북 -12550
▁통증 -12551
트랙 -12552
▁우물 -12553
▁Wii -12554
▁감기 -12555
▁불평 -12556
▁ㄸㅟㅇㅓ -12557
▁채취 -12558
▁경순 -12559
▁라파 -12560
▁오디오 -12561
▁MSL -12562
▁속편 -12563
▁공천 -12564
▁발현 -12565
▁어느새 -12566
▁요리사 -12567
▁발라드 -12568
▁미수 -12569
▁ㅋㅓㅈㅕㅆ -12570
▁박찬 -12571
▁박재 -12572
▁끌려가 -12573
▁가창 -12574
ount -12575
▁무슬림 -12576
▁Ste -12577
▁목재 -12578
▁여배우 -12579
기사 -12580
츠카 -12581
▁카우 -12582
▁Gold -12583
▁보행 -12584
▁ㄱㅏㅁㅊ -12585
▁리엘 -12586
▁박영 -12587
▁기괴 -12588
▁클레이 -12589
▁자격증 -12590
▁성직자 -12591
자동 -12592
▁네놈 -12593
▁시초 -12594
▁해적단 -12595
▁성비 -12596
▁ㄷㅗㅁㅏㅇㄱ -12597
▁3164 -12598
▁머릿 -12599
▁HG -12600
▁캐스트 -12601
느님 -12602
▁포효 -12603
▁격투기 -12604
콥터 -12605
▁하행 -12606
▁교양 -12607
▁상행 -12608
▁무사시 -12609
현진 -12610
▁Just -12611
▁DX -12612
▁닉스 -12613
▁왕좌 -12614
▁누명 -12615
▁스퀘어 -12616
▁ㅇㅣㄴㄷㅔㄷㅏ -12617
▁동문 -12618
▁셋째 -12619
▁구타 -12620
▁걸어가 -12621
▁안드로 -12622
▁증가량 -12623
▁지지자 -12624
▁남발 -12625
▁ㅁㅜㄹㄹㅣ -12626
▁줄줄 -12627
▁스네이크 -12628
▁동메달 -12629
▁타치바나 -12630
▁냅 -12631
▁단말 -12632
▁하느님 -12633
let -12634
▁성수 -12635
▁첫날 -12636
▁1966 -12637
▁ㅆㅡㅇㅣㄹ -12638
▁HK -12639
ring -12640
▁농락 -12641
▁뒤통수 -12642
▁동조 -12643
▁국민당 -12644
▁대공포 -12645
▁지온 -12646
▁쫄 -12647
▁일일이 -12648
▁ㅈㅜㅇㅓㅈㅣㄴ -12649
줌마 -12650
▁news -12651
▁빌보드 -12652
ㄱㅡ -12653
▁FL -12654
▁달라붙 -12655
▁ㅇㅗㄹㅂㅏㄹㅡㄴ -12656
▁ㅈㅐ -12657
▁맴 -12658
▁미사키 -12659
▁여친 -12660
▁증발 -12661
▁기획사 -12662
▁속이 -12663
▁방송인 -12664
▁삼촌 -12665
저것 -12666
▁창세 -12667
▁204 -12668
▁이것저것 -12669
▁수강 -12670
▁륙 -12671
▁멸종 -12672
▁손톱 -12673
▁아줌마 -12674
플렉스 -12675
▁명나라 -12676
▁별점 -12677
eng -12678
▁DNA -12679
▁물가 -12680
▁번식 -12681
▁제스 -12682
▁넘어지 -12683
ㅇㅎㅏㅁ -12684
▁대쉬 -12685
▁쇼트 -12686
▁리턴 -12687
▁ㅇㅓㅉㅐㅆ -12688
무네 -12689
DS -12690
▁회견 -12691
▁샌프란 -12692
▁샌프란시스코 -12693
▁ㄲㅣㄴ -12694
▁혼합 -12695
▁뷔 -12696
ㅂㅘㄷㅗ -12697
▁166 -12698
레일 -12699
▁공존 -12700
▁크리스토 -12701
▁스킵 -12702
▁독수리 -12703
▁회복력 -12704
▁ㄷㅡㄹㅇㅓㅇㅘㅅㅓ -12705
▁ㄴㅗㄹㅣㄹ -12706
▁카구라 -12707
▁ㅆㅏㅎㅇㅕ -12708
▁한숨 -12709
▁비즈 -12710
▁경감 -12711
▁사망자 -12712
▁TW -12713
ports -12714
▁책정 -12715
▁ㅂㅗㄹㄲㅏ -12716
▁기합 -12717
▁ㅂㅓㅅㄱㅕ -12718
▁스크립트 -12719
▁커트 -12720
▁복용 -12721
▁급히 -12722
▁시가 -12723
▁오키나와 -12724
메스 -12725
▁pt -12726
▁괴력 -12727
▁사모 -12728
▁친목 -12729
▁후대 -12730
▁셸 -12731
▁직무 -12732
▁공자 -12733
▁소서 -12734
▁ㄷㅜㄹㄹㅓ -12735
▁정정 -12736
ㄷㅡㄹㅇㅣㄴ -12737
▁ㄸㅏㄹㅡㄴㄷㅏ -12738
▁재사 -12739
소수 -12740
▁프로모션 -12741
▁정크 -12742
▁동족 -12743
ㅇㅏㄴㅐㄴㄷㅏ -12744
▁Can -12745
▁사료 -12746
▁다스리 -12747
▁ㄴㅡㄲㅕㅈㅣㄴㄷㅏ -12748
자재 -12749
▁트렌 -12750
▁다이스케 -12751
▁Korea -12752
산동 -12753
▁주심 -12754
▁회귀 -12755
▁명곡 -12756
▁인쇄 -12757
▁ㅂㅓㅅㅇㅓㄴㅏㄴ -12758
▁롤링 -12759
▁악어 -12760
▁현상금 -12761
▁단과 -12762
▁ㅊㅏㄱㅏㅇㅜㄴ -12763
▁기술자 -12764
▁코바야시 -12765
▁FB -12766
▁회오리 -12767
▁아깝 -12768
▁계란 -12769
▁CA -12770
▁사우루스 -12771
▁슬로우 -12772
▁달려가 -12773
파크 -12774
ina -12775
▁카이토 -12776
프라 -12777
▁호프 -12778
▁VOCAL -12779
스트림 -12780
▁포대 -12781
▁이례 -12782
▁만행 -12783
▁비로소 -12784
▁실습 -12785
▁키트 -12786
▁박치기 -12787
▁헬리콥터 -12788
▁토이 -12789
▁회심 -12790
ally -12791
▁아카리 -12792
▁카르마 -12793
▁벌리 -12794
▁분장 -12795
▁ㅇㅓㅍ -12796
▁도라에몽 -12797
▁연고지 -12798
▁필터 -12799
▁박해 -12800
▁김원 -12801
▁놔두 -12802
상가상 -12803
▁설상가상 -12804
▁하리 -12805
▁KTX -12806
보그 -12807
▁캐리어 -12808
▁일어 -12809
ERO -12810
▁고조 -12811
▁인천광역시 -12812
▁반군 -12813
▁장원 -12814
▁부류 -12815
▁Sec -12816
▁피스트 -12817
▁미하 -12818
▁두르 -12819
▁되돌리 -12820
▁ㅊㅟㅎㅐ -12821
▁경보 -12822
▁홍진호 -12823
▁스냅 -12824
ㅋㅓㄴㅕㅇ -12825
OO -12826
▁로컬 -12827
▁비타 -12828
▁ㄴㅘㅆㄷㅏ -12829
UR -12830
▁니카 -12831
▁미판 -12832
▁진수 -12833
▁650 -12834
▁ㅂㅏㄲㅝㅅㅓ -12835
▁브릿 -12836
▁듀크 -12837
▁문어 -12838
▁신정 -12839
조합 -12840
▁광대 -12841
▁유정 -12842
▁난감 -12843
▁MHz -12844
소문 -12845
▁프린스 -12846
▁시부 -12847
▁At -12848
▁ㄱㅏㄲㅏㅇㅝㅆ -12849
▁디렉터 -12850
▁Music -12851
▁++ -12852
▁비꼬 -12853
▁EBS -12854
▁타시 -12855
▁ㅌㅐㄱ -12856
▁똑똑 -12857
▁재직 -12858
▁병살타 -12859
▁가로막 -12860
▁셉 -12861
▁선우 -12862
▁우메 -12863
티콘 -12864
▁루마니아 -12865
▁이속 -12866
▁미성년 -12867
▁ㅈㅡㄹㄱㅓㅇㅜㄴ -12868
▁천마 -12869
▁박경 -12870
▁유영 -12871
네이터 -12872
▁분홍색 -12873
▁살상 -12874
▁ㅇㅗㄻㄱㅕㅆ -12875
▁가급 -12876
▁유난 -12877
마당 -12878
▁Su -12879
▁ㅋㅋ -12880
▁감행 -12881
▁태극 -12882
▁ㄱㅣㄷㅏㄹㅕㅆ -12883
▁엘리스 -12884
ㅇㅏㄴㅐ -12885
▁개연 -12886
▁무진 -12887
▁ㅍㅐㅎㅐㅆ -12888
ㅎㅏ -12889
▁퍼센트 -12890
▁김형 -12891
▁그립 -12892
▁파수 -12893
▁로저 -12894
니카 -12895
▁아이유 -12896
▁퐁 -12897
▁1962 -12898
▁Ep -12899
▁바티 -12900
▁리플렉 -12901
▁괴상 -12902
▁입양 -12903
▁실루엣 -12904
▁ㅂㅜㄷㅡㄹㅓㅇㅜㄴ -12905
려워하 -12906
▁프랑크 -12907
▁딸기 -12908
▁총열 -12909
▁조직원 -12910
▁ㅅㅣㄴㅈㅣ -12911
▁짚 -12912
▁홈즈 -12913
▁망령 -12914
▁아타 -12915
▁피치 -12916
▁열람 -12917
▁습관 -12918
바다 -12919
▁쿠시 -12920
▁스완 -12921
▁ㄴㅐㄹㅣㄹ -12922
▁로코 -12923
▁츠나 -12924
▁한발 -12925
▁텍스 -12926
▁Live -12927
▁뽕 -12928
▁대마 -12929
▁레이트 -12930
▁학점 -12931
▁get -12932
▁레즈 -12933
ART -12934
▁장학 -12935
▁그리하여 -12936
▁항아리 -12937
▁악의 -12938
▁춘천 -12939
▁단정 -12940
▁Comm -12941
▁진리 -12942
널드 -12943
▁GN -12944
▁사로 -12945
▁어퍼 -12946
▁에도 -12947
▁관직 -12948
▁달빛 -12949
▁가미 -12950
ㅇㄱㅏ -12951
▁야외 -12952
▁예지 -12953
▁무겁 -12954
▁암울 -12955
▁고토 -12956
▁목동 -12957
▁케이지 -12958
말리 -12959
▁카가미 -12960
▁서태 -12961
▁ㅎㅏㅂㅊㅕㅅㅓ -12962
장난 -12963
▁레기 -12964
▁양보 -12965
▁ㅁㅏㅇㅎㅐ -12966
▁저렇게 -12967
▁ㄴㅗㄹㄹㅏㄴ -12968
▁판권 -12969
▁ㅈㅏㄹㄹㅕ -12970
▁콜롬 -12971
젤레스 -12972
▁요시다 -12973
▁BF -12974
use -12975
▁고릴라 -12976
▁ㅊㅓㅎㅏㄴ -12977
▁발광 -12978
▁세탁 -12979
▁금색 -12980
▁경유지 -12981
▁후문 -12982
▁주거 -12983
▁MX -12984
▁위키백과 -12985
▁기법 -12986
▁강수 -12987
▁파벌 -12988
▁대인배 -12989
son -12990
▁키무라 -12991
▁돌격소총 -12992
▁사이보그 -12993
▁리티 -12994
▁UF -12995
▁천공 -12996
ㅈㅝㅆ -12997
▁169 -12998
▁ㅉㅣㅈ -12999
▁클라이 -13000
▁용감 -13001
▁` -13002
ㅂㅘㅇㅑ -13003
▁도청 -13004
▁진성 -13005
▁오케스트라 -13006
▁저서 -13007
▁ㅎㅏㅂㅊㅣㄴ -13008
▁고든 -13009
▁연발 -13010
▁뇌물 -13011
▁안보 -13012
▁ㄷㅗㄹㅇㅏㄱㅏㄴ -13013
▁바그 -13014
▁man -13015
▁사스케 -13016
▁요시노 -13017
▁1800 -13018
일라 -13019
▁김명 -13020
▁투니 -13021
▁산책 -13022
▁레이나 -13023
▁ㄴㅓㅁㅇㅓㄱㅏㄴ -13024
▁카에 -13025
▁바주 -13026
▁구급 -13027
▁전속 -13028
▁북아 -13029
▁경쟁자 -13030
▁gr -13031
▁한탄 -13032
▁코요 -13033
문트 -13034
▁단속 -13035
▁천둥 -13036
▁소절 -13037
▁ㄹㅏㄱㅜ -13038
▁바니 -13039
▁서민 -13040
▁베이더 -13041
itch -13042
▁코다 -13043
관총 -13044
▁섀도 -13045
▁실업 -13046
▁디펜스 -13047
tr -13048
▁번트 -13049
▁영진 -13050
▁but -13051
▁커비 -13052
▁털어놓 -13053
▁1944 -13054
▁타니 -13055
reen -13056
▁GR -13057
▁잠재력 -13058
== -13059
▁Res -13060
▁Power -13061
▁수용소 -13062
▁1940 -13063
▁Leg -13064
▁ㄷㅏㄹㅜㄴㄷㅏ -13065
▁Af -13066
▁로저스 -13067
▁어미 -13068
attle -13069
▁그랜 -13070
▁급기 -13071
▁주황색 -13072
▁재사용 -13073
▁ㄴㅡㄲㅣㄴㄷㅏ -13074
inn -13075
▁스퍼 -13076
▁페이트 -13077
▁차용 -13078
▁배상 -13079
▁결사 -13080
▁법안 -13081
▁볼텍스 -13082
▁똘 -13083
▁남작 -13084
▁행방불명 -13085
▁제다이 -13086
▁처절 -13087
▁ㅁㅏㅇㄱㅏ -13088
▁은혜 -13089
▁치사 -13090
▁Hard -13091
▁추적자 -13092
▁얕 -13093
▁RC -13094
▁교관 -13095
▁조력자 -13096
▁MR -13097
▁송출 -13098
▁영남 -13099
▁월급 -13100
▁ㅁㅗㅈㅏㄹ -13101
▁Pv -13102
▁열악 -13103
▁자판 -13104
▁ㄴㅗㄹㄹㅏㅆ -13105
▁청원 -13106
▁히토미 -13107
▁접점 -13108
▁혹사 -13109
못미 -13110
▁감히 -13111
▁런닝 -13112
▁지못미 -13113
▁고산 -13114
▁장제스 -13115
▁공약 -13116
▁UI -13117
▁저상 -13118
▁마요 -13119
▁쿠루 -13120
▁전산 -13121
▁냉각 -13122
▁리조 -13123
▁준결승 -13124
▁ARM -13125
▁마운드 -13126
▁워낙에 -13127
아라 -13128
▁경선 -13129
▁채집 -13130
▁코이 -13131
▁호로 -13132
징어 -13133
▁Ma -13134
▁수복 -13135
▁쐐기 -13136
▁직결 -13137
쌔신 -13138
▁카즈마 -13139
▁Sing -13140
▁어쌔신 -13141
▁ㅇㅣㄹㅅㅜㄹㅗㄱ -13142
▁편안 -13143
▁Che -13144
▁카를로스 -13145
▁카밀 -13146
놀이 -13147
▁여정 -13148
▁ㅈㅝㄷㅗ -13149
▁베인 -13150
▁출근 -13151
▁출중 -13152
장이 -13153
75 -13154
▁매너 -13155
▁켈리 -13156
▁진행자 -13157
▁Life -13158
니클 -13159
ern -13160
▁ㄱㅏㅇㅎㅐㅅㅓ -13161
▁co -13162
▁동요 -13163
▁구두 -13164
▁기복 -13165
XT -13166
▁공과 -13167
▁보잉 -13168
▁준공 -13169
▁미코토 -13170
▁천주교 -13171
▁독서 -13172
▁블래스트 -13173
▁ㅂㅏㄷ -13174
▁제원 -13175
▁Master -13176
▁응원가 -13177
▁트리스 -13178
▁선방 -13179
TC -13180
▁부드 -13181
▁ADV -13182
▁ㅁㅛㅎㅏㄴ -13183
▁모닝 -13184
▁가호 -13185
▁ㅂㅜㅌㅇㅕㅆ -13186
규모 -13187
큘라 -13188
ars -13189
▁김두한 -13190
▁ㅌㅡ -13191
▁키사 -13192
▁크리스티 -13193
▁실정 -13194
▁여권 -13195
▁ㄱㅜㅎㅏㄴ -13196
▁ㅇㅣㅂㅎㅣㄹ -13197
▁행하 -13198
▁주고받 -13199
▁무효화 -13200
▁정확도 -13201
토르 -13202
▁im -13203
▁제라 -13204
▁돌려주 -13205
▁ㄸㅓㄴㅏㄹ -13206
▁슬리 -13207
▁나들 -13208
▁호기심 -13209
▁가두 -13210
▁무빙 -13211
▁Rem -13212
▁ㄱㅓㄹㅊㅣㄴ -13213
준표 -13214
▁전두환 -13215
▁설화 -13216
▁코파 -13217
▁전세 -13218
▁튜닝 -13219
▁나들목 -13220
▁예언자 -13221
▁ㅌㅓㅈㅣㄹ -13222
▁ㄱㅔㄴㅈㅣ -13223
▁VOCALOID -13224
▁탈당 -13225
asy -13226
▁광탈 -13227
▁외우 -13228
▁불신 -13229
▁ㅇㅏㅍㅏ -13230
▁휴게소 -13231
▁마차 -13232
니스트 -13233
to -13234
▁ㅂㅜㄹㅌㅐ -13235
▁훅 -13236
▁토로 -13237
▁LCK -13238
▁출루율 -13239
총리 -13240
▁Lo -13241
▁한도 -13242
▁동탁 -13243
rain -13244
▁반대편 -13245
▁러시아어 -13246
ㄱㅜ -13247
▁형편없 -13248
▁뷰티 -13249
▁데우스 -13250
▁민정 -13251
▁비장 -13252
▁Fem -13253
▁시가지 -13254
▁원활 -13255
▁농사 -13256
▁ㅈㅣㄴㅐㄴ -13257
▁야심 -13258
▁사안 -13259
▁사출 -13260
▁동체 -13261
IE -13262
▁당첨 -13263
▁망설 -13264
▁1930 -13265
▁ㅌㅏㄱㅗ -13266
▁충청북도 -13267
▁네이트 -13268
▁부흥 -13269
▁Out -13270
▁카오리 -13271
▁ㅎㅜ -13272
▁노기 -13273
▁다짐 -13274
UE -13275
▁이변 -13276
▁리전 -13277
▁소매 -13278
▁픽업 -13279
▁ㅈㅓㄴㅎㅐㅈㅣㄴㄷㅏ -13280
▁실명 -13281
▁더욱이 -13282
▁증기 -13283
▁지주 -13284
▁카디 -13285
▁부당 -13286
ana -13287
▁열등 -13288
▁카노 -13289
▁교향 -13290
▁테일러 -13291
▁근성 -13292
▁더비 -13293
▁탬 -13294
▁ㅌㅓㅌㅡㄹ -13295
▁매칭 -13296
▁댄서 -13297
심장 -13298
▁농협 -13299
▁시에 -13300
▁자처 -13301
▁창병 -13302
▁무림 -13303
▁매출액 -13304
▁체리 -13305
▁ㅆㅗㄴㄷㅏ -13306
▁금호 -13307
▁차후 -13308
▁OPS -13309
마침 -13310
▁일절 -13311
차례 -13312
▁센티 -13313
▁궤적 -13314
▁사당 -13315
▁서지 -13316
▁포트리스 -13317
▁상용 -13318
▁태자 -13319
테이 -13320
▁OB -13321
▁금화 -13322
▁포맷 -13323
▁151 -13324
▁자회사 -13325
cl -13326
▁간선 -13327
ield -13328
▁구단주 -13329
ㄱㅇㅣㅁ -13330
▁친정 -13331
▁목적지 -13332
▁ㅁㅣㄹㄹㅕㅆ -13333
▁음주 -13334
▁이질 -13335
▁득점자 -13336
▁때마침 -13337
▁동지 -13338
▁돌보 -13339
▁등교 -13340
▁문고 -13341
▁999 -13342
▁어리석 -13343
▁내수 -13344
▁모범 -13345
▁유방 -13346
▁학술 -13347
▁허공 -13348
▁아델 -13349
24 -13350
년기 -13351
▁중전차 -13352
▁괴리 -13353
▁End -13354
▁256 -13355
riend -13356
▁퍼붓 -13357
▁지극히 -13358
▁ㅂㅓㄹㅇㅣㄴㄷㅏ -13359
▁굶 -13360
▁숀 -13361
▁POP -13362
▁Hell -13363
▁성역 -13364
▁따내 -13365
▁이은 -13366
▁군복 -13367
▁세레 -13368
▁인벤토리 -13369
무소 -13370
▁신칸 -13371
▁팔찌 -13372
▁유난히 -13373
▁꾀 -13374
atic -13375
▁코타로 -13376
▁ㄷㅡㄹㅣㅂㄴㅣㄷㅏ -13377
▁아이리스 -13378
▁깽판 -13379
▁사극 -13380
▁해내 -13381
▁just -13382
▁1964 -13383
▁교감 -13384
▁동갑 -13385
▁초선 -13386
▁1965 -13387
코어 -13388
클럽 -13389
▁Fi -13390
▁수험 -13391
▁ㅁㅏㅈㅁㅜ -13392
▁잔디 -13393
▁ㅂㅗㅇㅕㅅㅓ -13394
▁이노우 -13395
▁지표 -13396
▁부대원 -13397
▁부호 -13398
▁서해 -13399
▁세세 -13400
▁필연 -13401
▁스타팅 -13402
▁소시 -13403
▁못지않 -13404
▁이용해 -13405
▁아이언맨 -13406
▁수식 -13407
지부 -13408
▁안성 -13409
▁충북 -13410
▁함포 -13411
▁김일성 -13412
▁클레어 -13413
▁신칸센 -13414
▁"" -13415
▁불로 -13416
▁법학 -13417
▁시스터 -13418
▁ㄷㅏㄱㅣ -13419
▁ㅉㅏㄴ -13420
▁확립 -13421
▁리마 -13422
▁반기 -13423
▁배열 -13424
▁PVP -13425
▁Miss -13426
33 -13427
▁빅토르 -13428
▁sc -13429
▁가뜩 -13430
▁세일 -13431
▁징징 -13432
▁애교 -13433
▁억지 -13434
ittle -13435
▁숏 -13436
▁본성 -13437
▁아몬 -13438
▁커먼 -13439
▁절규 -13440
▁쳐다보 -13441
▁야마구치 -13442
▁ㅈㅓㄴㅎㅐㅆ -13443
▁발악 -13444
▁퀄컴 -13445
▁구절 -13446
▁파파 -13447
▁Air -13448
▁night -13449
▁순교 -13450
▁q -13451
▁SG -13452
▁거칠 -13453
지르 -13454
▁스캔들 -13455
▁개개인 -13456
▁what -13457
▁애시 -13458
▁포토 -13459
▁부드럽 -13460
▁집중력 -13461
▁향기 -13462
▁ㅈㅜㅁ -13463
▁끝장 -13464
▁신대 -13465
▁대법원 -13466
▁영동 -13467
▁흘러가 -13468
▁웨어 -13469
▁ㄹㅗㅇㅝ -13470
▁가뜩이나 -13471
▁교직 -13472
▁부딪히 -13473
▁아카이 -13474
▁6000 -13475
▁카스미 -13476
▁ㄱㅏㄴㄷㅏㄴㅡㄴ -13477
▁조폭 -13478
LS -13479
동원 -13480
ㄴㄱㅏ -13481
▁에일리언 -13482
▁반항 -13483
▁중견수 -13484
▁설비 -13485
▁보리 -13486
▁아홉 -13487
▁배기 -13488
▁김택 -13489
▁오징어 -13490
▁팔라딘 -13491
▁Vo -13492
▁케로 -13493
▁서정 -13494
▁연구실 -13495
▁이치고 -13496
▁ㄱㅓㄴㅣ -13497
▁380 -13498
▁ㄲㅐㄹ -13499
▁트로이 -13500
▁럼블 -13501
▁가급적 -13502
▁일본식 -13503
▁악랄 -13504
▁랜턴 -13505
▁액셀 -13506
▁Hy -13507
▁바비 -13508
▁역병 -13509
▁ㅆㅏㅎㅇㅣㄴ -13510
▁콜드 -13511
▁초당 -13512
▁자크 -13513
▁신흥 -13514
▁직역 -13515
▁학번 -13516
블릿 -13517
▁스타크 -13518
▁VR -13519
▁왠만 -13520
▁ㄸㅡ -13521
▁쿠파 -13522
▁소감 -13523
▁소동 -13524
▁Mod -13525
▁손아 -13526
▁수녀 -13527
▁출몰 -13528
▁자주포 -13529
뮤직 -13530
▁바주카 -13531
▁샤크 -13532
▁고폭탄 -13533
▁국산 -13534
▁레몬 -13535
▁직구 -13536
▁넘어서 -13537
ㅀㅇㅓ -13538
▁EMP -13539
▁볼륨 -13540
▁야드 -13541
▁임원 -13542
▁폿 -13543
▁ㅇㅠ -13544
▁넥슨 -13545
레스트 -13546
▁ㅌㅐㅇㅓㄴㅏ -13547
▁스콧 -13548
▁1920 -13549
▁게릴라 -13550
▁설계도 -13551
▁성형 -13552
▁ㅈㅣㄴㅏㅆ -13553
▁차관 -13554
▁패미 -13555
▁포지 -13556
▁양측 -13557
▁즉각 -13558
▁ㄷㅏㄹㄹㅕㅆ -13559
▁ㅇㅞ -13560
▁토오루 -13561
▁서대 -13562
▁쏠쏠 -13563
▁토네 -13564
ㄴㅐㅆ -13565
▁로딩 -13566
▁페르난 -13567
28 -13568
▁강행 -13569
▁노엘 -13570
▁시코 -13571
▁ㄷㅚㄷㅗㄹㅇㅏ -13572
▁Di -13573
▁챌린저 -13574
▁승려 -13575
▁YOU -13576
▁라틴어 -13577
▁상체 -13578
▁MT -13579
▁차선 -13580
▁페니 -13581
▁접근성 -13582
▁ㅂㅏㄺㅎㅣㄴㄷㅏ -13583
▁한심 -13584
▁강판 -13585
▁전폭 -13586
▁ㄸㅡㄹ -13587
▁무전 -13588
▁마도사 -13589
▁ㄷㅚㅅㅏㄹ -13590
▁뮬 -13591
▁ㄷㅗㄹㄹㅣㄹ -13592
▁연비 -13593
▁퍼부 -13594
사관 -13595
▁그려 -13596
▁하타 -13597
▁패기 -13598
▁King -13599
▁자신감 -13600
▁Sy -13601
▁가르침 -13602
▁후예 -13603
▁조영 -13604
▁공산주의 -13605
▁칙 -13606
▁예장 -13607
▁총탄 -13608
▁Ang -13609
▁드라군 -13610
▁수상자 -13611
▁소규모 -13612
▁일렉트로 -13613
▁최영 -13614
ㅈㅓㅇ -13615
▁XXX -13616
▁마에다 -13617
▁ㅉㅣㄱ -13618
▁노조미 -13619
▁상가 -13620
▁도요 -13621
▁정동 -13622
▁자수 -13623
▁타케시 -13624
▁EA -13625
▁기성 -13626
▁노이즈 -13627
▁밋 -13628
이센 -13629
▁진료 -13630
▁매스 -13631
▁바루 -13632
▁건재 -13633
▁악용 -13634
▁파이브 -13635
▁승천 -13636
▁오로라 -13637
▁페가 -13638
▁씌 -13639
▁용맹 -13640
숨에 -13641
포드 -13642
▁리에 -13643
▁수고 -13644
▁시몬 -13645
▁적진 -13646
▁호쿠 -13647
▁단숨에 -13648
ony -13649
▁tvN -13650
▁에밀리 -13651
란트 -13652
▁첨단 -13653
▁IG -13654
대기 -13655
▁빈사 -13656
무기 -13657
▁리우 -13658
▁갈라 -13659
테이너 -13660
▁전리 -13661
▁ㅇㅣㅇㅑㅁㅏㄹㄹㅗ -13662
▁광신 -13663
▁밀집 -13664
▁박격 -13665
▁ㄷㅚㄹㄲㅏ -13666
▁펠리 -13667
▁먹방 -13668
▁다비 -13669
▁허위 -13670
▁카타르 -13671
▁파인 -13672
▁초사 -13673
▁퇴출 -13674
▁ㄹㅜㄴ -13675
▁태조 -13676
▁0000 -13677
▁샤프 -13678
▁크루즈 -13679
▁인터페이스 -13680
로프 -13681
▁ㄱㅏㄴㄷㅏㄱㅗ -13682
▁타국 -13683
▁콘티 -13684
▁생산력 -13685
▁UFC -13686
▁퇴사 -13687
▁밀란 -13688
▁말미 -13689
▁동인지 -13690
▁카무이 -13691
▁딱딱 -13692
▁서킷 -13693
▁ㄷㅜㄲ -13694
▁수비진 -13695
▁타노스 -13696
▁운운 -13697
▁ㄷㅡㄹㄹㅓ -13698
▁ㄲㅜㄹ -13699
▁리쿠 -13700
▁사임 -13701
ㅈㅣㄷㅗ -13702
▁우아 -13703
▁안산 -13704
▁오인 -13705
▁사사키 -13706
어먹 -13707
mania -13708
▁소극 -13709
▁카린 -13710
▁대상자 -13711
▁스피커 -13712
▁STER -13713
▁플루 -13714
ma -13715
▁원내 -13716
▁와이어 -13717
▁섬기 -13718
▁안면 -13719
▁은밀 -13720
▁선대 -13721
▁실황 -13722
▁ㅈㅜㅇㅓㅈㅣㄴㄷㅏ -13723
▁원고 -13724
▁총격 -13725
미스 -13726
▁선제골 -13727
▁드라큘라 -13728
▁로사 -13729
▁대대로 -13730
▁만료 -13731
▁재위 -13732
▁옵티 -13733
ㅓㅈㅕ -13734
▁자연수 -13735
▁ㄷㅗㅁㅏㅇㅊㅕ -13736
▁재난 -13737
▁웨이트 -13738
▁저격총 -13739
▁카탈 -13740
▁대주 -13741
▁이선 -13742
▁대출 -13743
▁솔라 -13744
▁유토 -13745
▁프랭 -13746
▁아이작 -13747
▁투하 -13748
▁덫 -13749
▁멀쩡히 -13750
▁학회 -13751
▁Cy -13752
▁보증 -13753
▁게리온 -13754
▁카지노 -13755
▁ㅈㅏㄹㅏㅆ -13756
▁일진 -13757
▁변질 -13758
▁ㅅㅡㅂㅎㅏㄴ -13759
곡동 -13760
▁준하 -13761
타르 -13762
▁방금 -13763
▁태세 -13764
▁ㄷㅓㄴㅈㅣㄴㄷㅏ -13765
▁Run -13766
▁ㅈㅣㄴㅏㄹ -13767
▁ㅍㅜㄹㄹㅕㅆ -13768
▁관동 -13769
▁천계 -13770
▁1600 -13771
단체 -13772
▁벅스 -13773
▁ㅍㅕㄴㅎㅐ -13774
▁진가 -13775
▁소용돌이 -13776
ㅆㅡㄹ -13777
▁ㅇㅕㅆㅇㅡㄴㅣ -13778
▁가브리엘 -13779
▁포럼 -13780
▁IDOL -13781
밀리아 -13782
▁ㄸㅓㅅㅓ -13783
▁ㅉㅣㄹ -13784
▁치명상 -13785
▁태블릿 -13786
▁ㄱㅏㄹㄹㅣㄴㄷㅏ -13787
be -13788
▁공성전 -13789
▁카이사르 -13790
터스 -13791
▁초래 -13792
▁야쿠자 -13793
▁염려 -13794
▁목요일 -13795
▁스티커 -13796
ual -13797
▁새우 -13798
인드 -13799
▁캐롤 -13800
▁메테오 -13801
▁131 -13802
ret -13803
서야 -13804
▁생산량 -13805
▁ㅆㅗㄷㅇㅏㅈㅕ -13806
▁스위트 -13807
▁든 -13808
▁ㄲㅡㄴ -13809
▁부평 -13810
▁주방 -13811
▁무궁화 -13812
▁ㅂㅓㄹㅇㅕ -13813
▁남동 -13814
▁좌표 -13815
▁축적 -13816
▁사에 -13817
▁청산 -13818
▁다단 -13819
▁ㄱㅡㄱㅓㄹㄹㅗ -13820
▁마사키 -13821
▁물리학 -13822
하하 -13823
▁장편 -13824
▁마이트 -13825
▁ㄷㅟㅈㅣ -13826
회장 -13827
▁SV -13828
▁민원 -13829
▁자유자재 -13830
▁케이트 -13831
▁광복 -13832
▁아야카 -13833
▁UM -13834
▁지그 -13835
▁샴 -13836
▁수요일 -13837
▁white -13838
▁머무르 -13839
▁우체국 -13840
▁괴담 -13841
▁경성 -13842
▁칠레 -13843
▁MLB -13844
▁램프 -13845
▁서초 -13846
페르 -13847
▁벡터 -13848
▁우루과이 -13849
▁빅뱅 -13850
▁외래 -13851
▁MASTER -13852
▁전교 -13853
▁호전 -13854
▁전편 -13855
미즈 -13856
▁다중 -13857
▁don -13858
▁내야수 -13859
ecial -13860
▁단골 -13861
▁이승만 -13862
▁대각 -13863
▁ㅇㅜㅁㅈㅣㄱㅇㅣㅁ -13864
▁ㄴㅏㅇㅗㄴㄷㅏㄴㅡㄴ -13865
▁School -13866
▁하야토 -13867
▁동창 -13868
▁원호 -13869
▁인맥 -13870
권자 -13871
무장 -13872
▁SO -13873
▁가축 -13874
셔츠 -13875
징가 -13876
▁ㄹㅏㅈㅣㅁㅏㄴ -13877
▁마징가 -13878
▁통신사 -13879
ane -13880
▁입학식 -13881
▁궁지 -13882
▁미타 -13883
▁백합 -13884
▁분기점 -13885
▁ㅁㅜㄴㅓㅈㅕ -13886
▁달걀 -13887
▁ㄴㅓㅁㄱㅣㄴ -13888
▁테이크 -13889
▁대파 -13890
▁흑화 -13891
▁결함 -13892
▁영미 -13893
▁세나 -13894
▁강성 -13895
▁경매 -13896
▁박살나 -13897
▁Rec -13898
▁마커 -13899
▁미시 -13900
마르 -13901
▁렀다 -13902
범죄 -13903
▁장타율 -13904
▁ㅁㅜㄲㅇㅕ -13905
▁ㅎㅏㄴㅈㅣㄹㅏ -13906
▁도도 -13907
▁소실 -13908
▁탄도 -13909
▁고속도 -13910
▁지상파 -13911
▁ㅈㅏㅁㄱ -13912
▁증권 -13913
▁막바지 -13914
▁홍준표 -13915
▁ㅇㅜㅅㄱㅣㄴ -13916
▁김전 -13917
ㅇㅏㅈㅣㄴ -13918
▁way -13919
▁ㄷㅜㄹㄹㅓㅆㅏ -13920
ope -13921
▁Sound -13922
▁김희 -13923
▁여고생 -13924
▁합당 -13925
▁제시카 -13926
▁쉘 -13927
▁박준 -13928
▁인내 -13929
▁Art -13930
▁ㅎㅟㄷㅜㄹㄹㅓ -13931
▁Arm -13932
▁마운트 -13933
▁ㅂㅏㄲㅟㄹ -13934
▁마이너스 -13935
▁Yeah -13936
▁피에 -13937
▁피드백 -13938
▁사쿠라이 -13939
▁루카스 -13940
▁아루 -13941
티어 -13942
행위 -13943
▁일련 -13944
퇴근 -13945
▁매수 -13946
Fat -13947
▁괄 -13948
▁히노 -13949
▁깁 -13950
▁어인 -13951
▁완수 -13952
▁헌신 -13953
▁소설가 -13954
▁베가 -13955
▁계열사 -13956
니즘 -13957
어찌 -13958
▁공로 -13959
▁프로리그 -13960
▁계좌 -13961
▁이마트 -13962
려드 -13963
▁쫓기 -13964
▁바이스 -13965
바퀴 -13966
▁레지스 -13967
▁두려워하 -13968
elf -13969
▁강적 -13970
▁리트 -13971
베르트 -13972
▁BAS -13973
▁소피아 -13974
▁박주 -13975
▁적료 -13976
▁고속버스 -13977
▁고어 -13978
▁그닥 -13979
▁ㅅㅣㅀㅇㅓ -13980
▁ㅇㅜㄹㄹㅕ -13981
▁기밀 -13982
▁동래 -13983
ㄷㅏㄱ -13984
▁당나라 -13985
▁마모루 -13986
수수 -13987
▁EM -13988
▁루이지 -13989
▁ㄱㅜㄹㄹㅕ -13990
▁두부 -13991
▁컨트롤러 -13992
ision -13993
▁깎이 -13994
▁Femme -13995
재판 -13996
▁작별 -13997
▁로스앤 -13998
▁로스앤젤레스 -13999
▁오너 -14000
▁아멜 -14001
▁ㅇㅣㄹㅇㅡㅋㅣㄴㄷㅏ -14002
▁Rev -14003
▁1961 -14004
▁ㅁㅏㅇㄱ -14005
▁부츠 -14006
▁Cat -14007
대교 -14008
▁리베 -14009
▁양국 -14010
▁레이터 -14011
▁스코프 -14012
▁편대 -14013
▁어찌어찌 -14014
▁부식 -14015
▁소행 -14016
아서 -14017
▁대본 -14018
▁자진 -14019
▁플래닛 -14020
▁세르비아 -14021
▁Ge -14022
▁간략 -14023
▁ㄲㅡㅌㄴㅐ -14024
▁경희 -14025
▁모친 -14026
▁슈퍼스타 -14027
▁ㄲㅐㅇㅓㄴㅏㄴ -14028
▁WE -14029
▁VIP -14030
▁브라더 -14031
▁그놈 -14032
▁원천 -14033
▁아그 -14034
▁총괄 -14035
▁ㅈㅓㄹ -14036
야샤 -14037
▁이누야샤 -14038
에이터 -14039
▁발칸 -14040
▁실무 -14041
▁불멸 -14042
▁싣 -14043
▁묻히 -14044
▁꽝 -14045
▁극소수 -14046
▁김전일 -14047
▁술법 -14048
▁입술 -14049
▁ㅌㅓㅈㅣㄴㄷㅏ -14050
▁구마 -14051
▁비시 -14052
▁공방전 -14053
즈카 -14054
▁빨강 -14055
▁후일담 -14056
▁어드밴스 -14057
▁DO -14058
▁저리 -14059
we -14060
▁야시 -14061
▁ㅇㅕㅅ -14062
▁태그팀 -14063
내리 -14064
ㄹㅐ -14065
▁라드 -14066
▁식신 -14067
▁파산 -14068
▁카가 -14069
▁ㅃㅐㅅ -14070
▁ㄱㅗㅅㅓㄴ -14071
▁우크라 -14072
수스 -14073
▁쿠르 -14074
▁지령 -14075
▁ㅇㅣㄹㅇㅡㅋㅣㄹ -14076
▁무작정 -14077
▁여당 -14078
▁석궁 -14079
▁ㄴㅡㄹㅇㅓㄴㅏ -14080
▁페더 -14081
▁군기 -14082
▁매달 -14083
▁ㅋㅣㄱㅏ -14084
▁족장 -14085
▁사용법 -14086
▁제멋 -14087
▁경량 -14088
▁할리우드 -14089
▁ㅇㅡㅅㅣ -14090
▁기마 -14091
▁시궁 -14092
▁피처 -14093
▁발전기 -14094
Fatale -14095
꿈치 -14096
▁자취 -14097
▁ㅇㅐㅆ -14098
▁FemmeFatale -14099
▁진작 -14100
▁쓸데없 -14101
▁ㅈㅜㄴㄷㅏㅁㅕㄴ -14102
▁ㅁㅗㅅㅎㅏㄴㄷㅏㄴㅡㄴ -14103
쿠로 -14104
▁무언 -14105
▁허세 -14106
▁아의 -14107
▁ㄷㅏㄷㅓㄴㄱㅏ -14108
str -14109
▁수락 -14110
▁반말 -14111
▁들여 -14112
▁정명 -14113
▁튕 -14114
▁다이나 -14115
ational -14116
▁잘리 -14117
ㅅㅐㅇㄱㅣㄴ -14118
같이 -14119
▁회화 -14120
▁고난 -14121
▁일보 -14122
▁정계 -14123
▁대잠 -14124
▁이에 -14125
▁제르 -14126
▁ㄴㅡㄴㅣ -14127
▁크로니클 -14128
▁예명 -14129
ㅋㅣㄴㄷㅏ -14130
▁하세 -14131
ouse -14132
▁dis -14133
▁살아나 -14134
▁ㅇㅓㄸㅓㄹ -14135
▁ㅎㅔㅅㄱㅏㄹ -14136
▁ㄷㅏㄹㅇㅏㄴ -14137
▁ㅁㅜㄷㅎㅕㅆ -14138
▁황태자 -14139
SS -14140
수아 -14141
▁가명 -14142
▁부도 -14143
▁신디 -14144
▁ㄹㅕㅆ -14145
▁성도 -14146
카즈 -14147
▁양파 -14148
▁연금술 -14149
▁에이전트 -14150
▁소진 -14151
appy -14152
▁마작 -14153
▁하워드 -14154
▁넵 -14155
▁NHK -14156
▁ㅇㅣㄱㅣㄴㄷㅏ -14157
▁검은색 -14158
▁그려지 -14159
▁얼핏 -14160
AG -14161
▁섬유 -14162
▁이스터 -14163
ㄷㅏㄱㅗ -14164
▁헬스 -14165
▁급기야 -14166
▁ㅂㅏㄱㅎㅣㄴ -14167
ORE -14168
▁혼종 -14169
▁로만 -14170
▁반환 -14171
▁악세 -14172
▁스칼렛 -14173
▁키리토 -14174
▁소심 -14175
▁창업 -14176
▁효과음 -14177
▁하임 -14178
▁미츠루 -14179
▁br -14180
▁후타 -14181
▁호노카 -14182
▁화수 -14183
▁광석 -14184
▁병단 -14185
ㅅㅔㄴ -14186
▁ㅇㅣㄹㅜㅇㅓㅈㅣㄴㄷㅏ -14187
축구 -14188
▁배지 -14189
스트로 -14190
케인 -14191
▁애당초 -14192
▁유로파 -14193
▁하부 -14194
▁Order -14195
▁교섭 -14196
▁상회 -14197
ness -14198
휴일 -14199
▁당원 -14200
▁점거 -14201
▁카도 -14202
투아 -14203
▁수준급 -14204
▁1100 -14205
▁삼거리 -14206
▁신주쿠 -14207
▁난전 -14208
▁팝픈 -14209
▁팝픈뮤직 -14210
제국 -14211
▁스플래시 -14212
▁키퍼 -14213
▁교주 -14214
▁택배 -14215
▁제정신 -14216
▁MD -14217
▁초필 -14218
▁미지수 -14219
▁바하 -14220
▁좌익수 -14221
▁ㅌㅏㄴㄷㅏ -14222
ㅇㅓㄴㅈㅓㅇ -14223
라이나 -14224
▁아즈사 -14225
▁자잘 -14226
▁주범 -14227
▁주작 -14228
▁기미 -14229
▁토론토 -14230
ㅍㅕ -14231
▁천적 -14232
▁성채 -14233
▁호세 -14234
▁양키스 -14235
▁갑작스럽 -14236
▁김혜 -14237
▁양현 -14238
▁엄지 -14239
▁Elect -14240
▁폭동 -14241
▁조운 -14242
▁적발 -14243
▁코카 -14244
▁펄스 -14245
▁이치로 -14246
▁매진 -14247
▁콜로니 -14248
델피아 -14249
▁필라델피아 -14250
▁소피 -14251
▁^ -14252
▁당주 -14253
▁시엘 -14254
▁정립 -14255
▁한몫 -14256
▁ㄴㅏㅇㅘㅆㅇㅡㅁㅕ -14257
▁ㅇㅕㄹ -14258
▁완전체 -14259
▁ㅂㅜㅌㅇㅕㅅㅓ -14260
▁요미우리 -14261
사이드 -14262
시계 -14263
▁과부 -14264
▁미라클 -14265
▁히데요시 -14266
▁깊숙 -14267
▁불어 -14268
ㄴㅐㄹ -14269
▁종일 -14270
inc -14271
▁다인 -14272
▁TCG -14273
▁ㅇㅘㄹㅏ -14274
▁블레이즈 -14275
▁까닭 -14276
저트 -14277
▁이안 -14278
▁EXH -14279
▁ㅅㅐㅇㄱㅕㄴㅏㅆ -14280
▁프로세서 -14281
▁기한 -14282
▁복싱 -14283
▁ㄷㅐㅆ -14284
▁ㅂㅗㅇㅣㄴㄷㅏㄴㅡㄴ -14285
▁사로잡 -14286
▁빌라 -14287
▁서드 -14288
▁피곤 -14289
▁쓸모없 -14290
▁어비스 -14291
▁옵티머스 -14292
▁CON -14293
▁ㅂㅏㅃ -14294
투수 -14295
▁연예계 -14296
▁프랑켄 -14297
▁광범 -14298
▁기온 -14299
▁말장난 -14300
▁전리품 -14301
▁시한 -14302
▁수평 -14303
▁태종 -14304
▁프론트 -14305
▁본디 -14306
▁도리어 -14307
▁적색 -14308
▁선발투수 -14309
▁결장 -14310
▁대사관 -14311
▁운항 -14312
날드 -14313
▁지망 -14314
▁휴일 -14315
▁world -14316
▁신이치 -14317
데아 -14318
▁지기 -14319
▁스왑 -14320
▁양호 -14321
▁214 -14322
▁RG -14323
▁고령 -14324
▁볼프 -14325
▁후궁 -14326
▁씁 -14327
히트 -14328
▁냉전 -14329
▁조형 -14330
▁ㄷㅡㄴㄱㅏ -14331
▁일쑤 -14332
▁유포 -14333
▁She -14334
그룹 -14335
▁당기 -14336
▁ㄱㅏㅇㅎㅐㅈㅕㅆ -14337
▁스크래 -14338
▁폴더 -14339
▁리노 -14340
▁손흥 -14341
▁사이퍼 -14342
우루스 -14343
▁SHOW -14344
▁정은 -14345
▁경장 -14346
▁당분 -14347
▁키워드 -14348
▁강유 -14349
▁ㅃㅏㅈㅣㄹ -14350
▁교란 -14351
IV -14352
▁맞히 -14353
▁재고 -14354
▁리브 -14355
▁따라오 -14356
▁ㅂㅘㅅㅓㄴ -14357
▁루터 -14358
▁다이브 -14359
▁고독 -14360
▁비토 -14361
▁한조 -14362
day -14363
omb -14364
▁정거 -14365
▁1943 -14366
▁산악 -14367
▁공휴일 -14368
▁스폰지 -14369
▁제식 -14370
▁휩쓸 -14371
▁밀어주 -14372
▁불사조 -14373
▁도호 -14374
its -14375
▁탄종 -14376
사의 -14377
▁성추 -14378
▁후안 -14379
▁이노우에 -14380
▁도전자 -14381
▁노숙 -14382
▁프런트 -14383
▁ㅍㅛ -14384
▁건전 -14385
▁승기 -14386
▁압살 -14387
▁유서 -14388
▁ㅈㅓㅇㅎㅏㄴ -14389
ㅇㅓㄴㅐ -14390
▁Da -14391
▁임창 -14392
▁아지트 -14393
▁언행 -14394
▁대표작 -14395
▁토하 -14396
▁섭외 -14397
▁손흥민 -14398
▁덥 -14399
▁ap -14400
▁명작 -14401
▁더스트 -14402
▁도쿠가와 -14403
▁다툼 -14404
▁탄소 -14405
▁예비군 -14406
▁코시 -14407
퍼런스 -14408
▁초토 -14409
투표 -14410
▁셀프 -14411
▁naver -14412
▁정교회 -14413
인간 -14414
▁** -14415
▁340 -14416
▁정류소 -14417
▁상속 -14418
▁행태 -14419
▁beatmania -14420
▁직감 -14421
▁에리카 -14422
▁방황 -14423
▁제이드 -14424
▁1942 -14425
ham -14426
▁141 -14427
▁ㄴㅡㄴㅑㄴㅡㄴ -14428
▁ㅁㅣㄹㄹㅣㄴㄷㅏ -14429
스톤 -14430
▁해수 -14431
▁ㅂㅣㅊ -14432
▁확연히 -14433
▁오버로드 -14434
▁여사 -14435
▁토탈 -14436
▁박격포 -14437
▁콜라보레이션 -14438
▁미성년자 -14439
▁텔레비전 -14440
▁트린 -14441
ious -14442
▁툼 -14443
▁사부 -14444
ㅍㅓ -14445
▁쟁탈 -14446
ㅈㅏㄱ -14447
▁애프 -14448
▁엑소 -14449
▁폭발물 -14450
▁좀비 -14451
▁레스터 -14452
▁개인전 -14453
▁윌슨 -14454
▁ㄷㅐㄴㄷㅏ -14455
▁ㅅㅓㄴㅂㅗㅇㅣㄴ -14456
댓말 -14457
▁존댓말 -14458
▁프로이센 -14459
▁ㄱㅏㄷㅎㅣㄴ -14460
▁공익 -14461
EX -14462
▁휘말리 -14463
▁SW -14464
▁어처 -14465
▁출퇴근 -14466
▁오클 -14467
아티아 -14468
▁크로아티아 -14469
▁게임기 -14470
▁장병 -14471
▁현명 -14472
▁불가사의 -14473
▁ㅁㅗㅇㅕㅅㅓ -14474
▁도피 -14475
▁캐서 -14476
세데스 -14477
▁메르세데스 -14478
▁ㄷㅏㄹㅝ -14479
▁증세 -14480
▁창당 -14481
▁서원 -14482
▁te -14483
▁폭사 -14484
▁셜록 -14485
▁신축 -14486
▁상대식 -14487
▁ㅅㅣㄹㄹㅣㄴ -14488
▁ㅅㅛ -14489
▁상권 -14490
▁양주 -14491
▁프로그래밍 -14492
▁지자 -14493
▁액세서리 -14494
▁ㅈㅜㅇㅝ -14495
▁까먹 -14496
▁저번 -14497
▁글러브 -14498
▁다정 -14499
▁Not -14500
▁광범위 -14501
▁입맛 -14502
▁진군 -14503
▁평원 -14504
▁ㄸㅡㄷ -14505
지원 -14506
▁질리 -14507
▁캡콤 -14508
▁위즈 -14509
▁합창 -14510
▁정거장 -14511
▁러셀 -14512
▁스파르타 -14513
▁자연스레 -14514
▁ㅇㅏㄱㅎㅏㄴ -14515
▁김창 -14516
▁하드코어 -14517
▁오모 -14518
▁옥타 -14519
▁군함 -14520
▁동봉 -14521
▁술탄 -14522
▁송구 -14523
▁종사 -14524
▁ㄹㅏㄱㅓㄴㅏ -14525
aut -14526
▁든든 -14527
▁시그마 -14528
ivers -14529
▁스크래치 -14530
▁싱어 -14531
▁장안 -14532
▁국력 -14533
▁망가지 -14534
▁피라미 -14535
던트 -14536
▁반다이 -14537
▁이우 -14538
▁표본 -14539
▁DEF -14540
▁리액션 -14541
요환 -14542
▁막부 -14543
▁위탁 -14544
▁Ke -14545
▁바우 -14546
▁ㅈㅣㅁ -14547
▁사이오 -14548
▁로망 -14549
▁꼬이 -14550
▁네메 -14551
▁공동체 -14552
패스 -14553
▁With -14554
▁ㅃㅏㄹㄹ -14555
27 -14556
▁위화 -14557
▁질량 -14558
▁상반기 -14559
▁글래 -14560
▁RAW -14561
23 -14562
ERS -14563
▁프리즈 -14564
데르 -14565
▁치이 -14566
▁상표 -14567
▁윌리엄스 -14568
▁세션 -14569
▁아부 -14570
▁화자 -14571
▁브릿지 -14572
▁랫 -14573
▁마음껏 -14574
▁Every -14575
ANC -14576
olution -14577
▁체질 -14578
레미 -14579
▁군사력 -14580
매니아 -14581
▁ㄲㅏㅆ -14582
▁오재 -14583
▁ㅈㅏㄴㅣ -14584
▁정세 -14585
▁와우 -14586
▁꼭두 -14587
▁마이어 -14588
▁아역 -14589
▁임요환 -14590
▁ㅎㅡㄹㄹㅕ -14591
▁전전 -14592
▁캐서린 -14593
▁열받 -14594
▁탈옥 -14595
▁망자 -14596
▁ㅊㅣㄹㅝ -14597
▁프리스트 -14598
▁정장 -14599
▁ㅉㅣㄱㅎㅣㄴ -14600
▁외출 -14601
▁ㅎㅐㅎㅏㄴㄷㅏ -14602
▁관념 -14603
▁체이 -14604
▁카바 -14605
▁ㅈㅜㄷㅚㄴ -14606
▁쑥 -14607
▁재임 -14608
▁우시 -14609
olog -14610
▁손바닥 -14611
▁어처구니 -14612
45 -14613
▁ㅈㅣㄴㅈㅓ -14614
▁뢰 -14615
르기 -14616
▁ph -14617
▁왼팔 -14618
▁ㄴㅡㄲㅕㅈㅣㄹ -14619
ㄱㅔㅇㅛ -14620
UC -14621
▁랏 -14622
▁평민 -14623
▁킹스 -14624
▁310 -14625
무늬 -14626
▁백미 -14627
▁제구 -14628
▁코이치 -14629
▁뾰 -14630
▁방정 -14631
▁김준호 -14632
ㅂㅈㅏㄱ -14633
ㅂㅈㅏㄱㅅㅡㄹ -14634
▁대문 -14635
라이어 -14636
▁집결 -14637
▁커리 -14638
▁윈스턴 -14639
▁ㅈㅣㄴㅈㅓㅇㅎㅏㄴ -14640
지리 -14641
▁헷갈리 -14642
▁표출 -14643
▁ㄷㅏㄹㅡㄴㄷㅔ -14644
▁시즈카 -14645
▁ㅁㅜㄴㅓㅈㅣㄴ -14646
▁사다 -14647
▁환각 -14648
▁ㄷㅡㄹㅓㄴㅐㄴㄷㅏ -14649
▁원제 -14650
▁소수자 -14651
▁골리 -14652
▁신원 -14653
무니 -14654
▁if -14655
▁수원시 -14656
▁최면 -14657
▁나나미 -14658
▁구자 -14659
▁순진 -14660
▁무상 -14661
▁듀티 -14662
▁박병 -14663
▁옐로 -14664
▁피츠 -14665
▁Get -14666
▁부서지 -14667
▁낙원 -14668
▁불상 -14669
▁생사 -14670
▁터트리 -14671
▁헌데 -14672
▁경찰관 -14673
▁보답 -14674
▁나날 -14675
▁Chr -14676
▁류현진 -14677
▁1946 -14678
29 -14679
▁EB -14680
▁007 -14681
▁도모 -14682
▁정중 -14683
▁주파수 -14684
▁기하 -14685
▁촛 -14686
▁스루 -14687
66 -14688
▁짤방 -14689
▁쾌속 -14690
▁르네 -14691
데기 -14692
▁FR -14693
▁안나 -14694
▁가솔 -14695
▁CT -14696
▁호르 -14697
▁커터 -14698
▁해커 -14699
▁미야자키 -14700
▁분경 -14701
▁대부 -14702
▁김정은 -14703
▁최우수 -14704
▁메라 -14705
▁사과문 -14706
▁시저 -14707
▁추석 -14708
▁대명사 -14709
▁시노부 -14710
▁김세 -14711
▁줄곧 -14712
조각 -14713
ely -14714
▁TB -14715
▁ㅌㅏㄱㅗㄴㅏㄴ -14716
▁가출 -14717
▁화요일 -14718
▁ㄷㅏㄷ -14719
ty -14720
리에 -14721
▁Har -14722
▁흡연 -14723
▁탐욕 -14724
▁자발 -14725
▁Boy -14726
▁키메라 -14727
▁무자비 -14728
▁해운대 -14729
▁반칙 -14730
나드 -14731
아아 -14732
▁토네이도 -14733
▁벵 -14734
베르토 -14735
▁비하인드 -14736
킨스 -14737
▁예배 -14738
▁양아치 -14739
마치 -14740
icro -14741
▁ㅅㅜ -14742
▁빡빡 -14743
ny -14744
▁기총 -14745
▁1954 -14746
▁스님 -14747
▁영화판 -14748
▁연희 -14749
▁당당히 -14750
▁ㅂㅏㄷㅇㅏㄷㅡㄹㅇㅕㅆ -14751
의사 -14752
▁마더 -14753
▁담당자 -14754
▁Skill -14755
즈마 -14756
▁아폴로 -14757
▁슈타인 -14758
▁중앙선 -14759
▁ㄷㅚㄷㅗㄹㄹㅕ -14760
▁바오 -14761
ters -14762
받침 -14763
▁민영 -14764
▁한스 -14765
▁홍대 -14766
▁후유증 -14767
▁720 -14768
▁금기 -14769
▁지침 -14770
▁추첨 -14771
▁켄타 -14772
▁부여받 -14773
▁맛보 -14774
▁Des -14775
▁에덴 -14776
▁무협 -14777
▁발상 -14778
▁ㄲㅜ -14779
▁혜성 -14780
▁ㅂㅓㅁ -14781
▁1958 -14782
노기 -14783
▁육지 -14784
▁취직 -14785
베리아 -14786
▁괴도 -14787
▁>, -14788
▁방어선 -14789
▁영분 -14790
▁의미심장 -14791
▁Ab -14792
▁굴복 -14793
▁리포트 -14794
▁이동하 -14795
▁걸작 -14796
▁마누 -14797
▁섬세 -14798
ㄷㅏㄱㅏㄴ -14799
▁ㅅㅓㅂㅜㅌㅓ -14800
▁만세 -14801
▁초고 -14802
소스 -14803
▁전태 -14804
▁설득력 -14805
▁북방 -14806
▁인즈 -14807
▁CCTV -14808
▁단선 -14809
▁리젠 -14810
▁유대인 -14811
▁웨일 -14812
▁매복 -14813
▁추이 -14814
▁츠루 -14815
▁사마의 -14816
▁떨구 -14817
▁이어인 -14818
▁대용 -14819
▁예리 -14820
▁1941 -14821
▁영기 -14822
▁진흙 -14823
▁단테 -14824
테스 -14825
▁젤다 -14826
▁지름 -14827
▁만류 -14828
▁171 -14829
▁ㅈㅜㄹㅇㅣㄹ -14830
버린 -14831
▁=, -14832
▁가든 -14833
▁졸개 -14834
ient -14835
▁ㄷㅗㄷㅂㅗ -14836
▁꺼지 -14837
▁다이어트 -14838
▁480 -14839
▁생물학 -14840
▁충성심 -14841
▁DA -14842
▁미디 -14843
▁체가 -14844
▁성체 -14845
▁시력 -14846
리우스 -14847
▁OO -14848
▁교화 -14849
▁부메 -14850
▁수작 -14851
▁겸하 -14852
▁기라 -14853
▁미상 -14854
▁ㅎㅟㄷㅜㄹ -14855
▁ㄱㅚㄹㅗㅂㅎㅣㅁ -14856
▁Big -14857
▁조율 -14858
▁트림 -14859
라이즈 -14860
▁양념 -14861
▁잉크 -14862
체스 -14863
▁듀엣 -14864
▁id -14865
▁ㄲㅡㅌㄴㅏ -14866
▁석화 -14867
▁1900 -14868
▁ㄱㅗㄹㅡㄹ -14869
▁성녀 -14870
▁차종 -14871
▁PSP -14872
▁총사령 -14873
▁견인 -14874
ㄹㅕㄱㅗ -14875
▁자문 -14876
▁협곡 -14877
▁부메랑 -14878
▁카운티 -14879
▁Tri -14880
▁유행어 -14881
▁피리 -14882
▁드리프트 -14883
▁ㄷㅗㄹㄹㅕㅆ -14884
▁낙인 -14885
▁png -14886
▁ㄴㅏㄹㅇㅏㄱㅏㄴㄷㅏ -14887
▁두드 -14888
▁kn -14889
▁라오 -14890
▁선공 -14891
▁임관 -14892
▁ㅇㅣㄹㅜㄴ -14893
▁복음 -14894
▁라자 -14895
▁클락 -14896
▁튜너 -14897
▁제이스 -14898
▁ㅎㅐㅅㅓㅇㅣㄴㅈㅣ -14899
▁오피스 -14900
▁181 -14901
▁ㄲㅡㅀ -14902
ㄹㅣ -14903
▁ㅁㅏㄱㅎㅣㄴ -14904
▁8000 -14905
▁ㅂㅜㅌㅈㅏㅂㅎㅕ -14906
▁세간 -14907
▁경쟁력 -14908
▁ㅆㅡㄹㅓㅈㅣㄴㄷㅏ -14909
▁UR -14910
▁데카 -14911
▁문헌 -14912
▁바바 -14913
▁빅터 -14914
▁ㅌㅡㄹㄹㅕㅆ -14915
▁수다 -14916
▁이과 -14917
크리트 -14918
▁DT -14919
▁시동 -14920
▁입체 -14921
ful -14922
uch -14923
▁기만 -14924
▁만회 -14925
▁태연 -14926
▁채소 -14927
▁동참 -14928
▁어워드 -14929
▁미련 -14930
▁군벌 -14931
칼리 -14932
▁씁쓸 -14933
▁상원 -14934
▁스탠다드 -14935
▁파장 -14936
▁연혁 -14937
▁격돌 -14938
▁원격 -14939
▁조장 -14940
▁고분 -14941
▁천황 -14942
▁갈기 -14943
▁샤이닝 -14944
▁방랑 -14945
▁ㄴㅜㄱㅜㄴㅈㅣ -14946
▁봉기 -14947
▁염소 -14948
▁초식 -14949
▁Ext -14950
▁스펙터 -14951
▁난동 -14952
▁모라 -14953
▁어둡 -14954
무진 -14955
▁XP -14956
▁부화 -14957
▁오디 -14958
▁가치관 -14959
▁ㄷㅗㄹㅇㅏㅇㅘㅅㅓ -14960
bl -14961
▁격노 -14962
▁성모 -14963
▁귀중 -14964
클레스 -14965
▁ㅎㅟㅂㅆㅏ -14966
▁생몰 -14967
▁증원 -14968
▁직관 -14969
▁ㅅㅏㅅㅣㄴ -14970
토시 -14971
ㅋㅕㅆ -14972
프레스 -14973
▁창의 -14974
▁통용 -14975
▁ㅂㅓㄱ -14976
▁RS -14977
ship -14978
기업 -14979
▁봉황 -14980
▁기관차 -14981
▁접어들 -14982
▁원년 -14983
85 -14984
▁성균 -14985
▁ㄴㅗㄹㅕㅆ -14986
▁ㅁㅜㄹㄹㅕ -14987
ㅂㅅㅣㄷㅏ -14988
▁ㄷㅡㄹㅓㄴㅐㄴ -14989
▁선체 -14990
▁유감 -14991
▁ㅃㅓㄴ -14992
▁STAR -14993
▁가토 -14994
▁아제 -14995
▁제비 -14996
▁츠카사 -14997
▁박세 -14998
▁윤종 -14999
▁자위대 -15000
▁되살 -15001
▁성균관 -15002
▁만두 -15003
▁뭉치 -15004
▁송병 -15005
▁샤아 -15006
▁양면 -15007
▁회고 -15008
▁장기간 -15009
테리 -15010
▁퍼스 -15011
▁ㅉㅣㄱㅎㅕ -15012
▁나츠미 -15013
▁ㅁㅗㅇㅡㄹ -15014
자카 -15015
▁겨루 -15016
▁학창 -15017
▁이성계 -15018
▁ㄱㅏㅂㅈㅏㄱㅅㅡㄹ -15019
▁1948 -15020
▁ㅇㅏㄴㅣ -15021
▁갈래 -15022
▁비숍 -15023
▁디테일 -15024
슬러 -15025
▁잠복 -15026
▁흑백 -15027
▁qu -15028
▁역기 -15029
▁풍자 -15030
▁클로즈 -15031
▁ㄴㅏㅅㅓㄴㄷㅏ -15032
▁려 -15033
▁송이 -15034
▁255 -15035
▁느긋 -15036
▁배분 -15037
▁정인 -15038
▁수리검 -15039
리케이션 -15040
▁Inf -15041
▁모호 -15042
▁히로유키 -15043
▁ㅎㅏㄴㅎㅐㅅㅓ -15044
▁조제 -15045
▁벌칙 -15046
▁Bar -15047
▁Sil -15048
▁우익수 -15049
▁ㅇㅣㅂㅎㅣㄴ -15050
▁타라 -15051
▁서커스 -15052
▁프레디 -15053
▁웍 -15054
▁시궁창 -15055
▁군산 -15056
▁퇴근 -15057
▁알아채 -15058
레트 -15059
▁KS -15060
▁베니 -15061
▁ㅁㅏㄹㄹㅏ -15062
▁청량 -15063
▁그리스도 -15064
정역 -15065
▁전년 -15066
틀리 -15067
▁왕궁 -15068
▁텔레콤 -15069
▁아테네 -15070
▁커브 -15071
▁OR -15072
ㅂㅓㄹㅣㄴ -15073
▁White -15074
▁손녀 -15075
▁오드 -15076
▁판도라 -15077
니트 -15078
▁토템 -15079
▁다이너 -15080
▁불리우 -15081
▁ㅇㅕㄹㄹㅕ -15082
버릇 -15083
▁뽑히 -15084
▁진과 -15085
▁창시 -15086
▁Win -15087
▁솔로몬 -15088
▁프레데 -15089
▁요일 -15090
▁Back -15091
▁송도 -15092
▁ㅈㅣㅋㅕㅆ -15093
ump -15094
▁크래 -15095
▁농어 -15096
▁스테이트 -15097
▁바쁘 -15098
co -15099
▁여의도 -15100
▁좀처럼 -15101
산물 -15102
▁작렬 -15103
혁명 -15104
공격 -15105
▁왕따 -15106
▁콘크리트 -15107
▁파키스탄 -15108
▁치중 -15109
▁PO -15110
모사 -15111
26 -15112
▁타쿠미 -15113
러드 -15114
▁착하 -15115
▁바이올린 -15116
▁특촬 -15117
▁공병 -15118
▁피에르 -15119
▁쩔 -15120
▁접시 -15121
▁재팬 -15122
▁ㄷㅓㄴㅈㅣㄹ -15123
▁하와이 -15124
튀기 -15125
ift -15126
▁태고 -15127
▁PM -15128
▁단신 -15129
▁바늘 -15130
▁연루 -15131
▁jp -15132
▁고양시 -15133
▁폭포 -15134
▁샨 -15135
▁아틀레 -15136
▁최전 -15137
▁Fre -15138
▁간식 -15139
▁down -15140
▁ㅊㅜㄴ -15141
▁박민 -15142
▁뻥튀기 -15143
ㅂㅓㄹㅣㄹ -15144
▁초원 -15145
▁제이크 -15146
▁NG -15147
▁나기사 -15148
기지 -15149
호도 -15150
노미야 -15151
RAM -15152
▁초급 -15153
▁허영 -15154
ㄷㅝㅆ -15155
▁420 -15156
▁이윽 -15157
▁실험실 -15158
틀링 -15159
▁학계 -15160
▁이윽고 -15161
▁215 -15162
▁러블리 -15163
도스 -15164
▁색채 -15165
▁마비노기 -15166
▁제멋대로 -15167
▁금전 -15168
▁지독 -15169
▁GL -15170
▁카세 -15171
▁관악 -15172
▁맥도 -15173
▁어지간히 -15174
▁맏 -15175
▁갈고리 -15176
ENT -15177
▁백색 -15178
▁심리학 -15179
▁ㄴㅐㄹㅕㅇㅗㄴ -15180
▁텐션 -15181
▁컨테이너 -15182
▁집정 -15183
▁소음기 -15184
▁어중간 -15185
▁횡단 -15186
▁거주지 -15187
▁켄이치 -15188
▁FE -15189
▁도타 -15190
▁off -15191
▁1949 -15192
▁뫼 -15193
▁앞마당 -15194
▁우기 -15195
마츠 -15196
▁오덕 -15197
▁하르 -15198
▁사토시 -15199
ATION -15200
▁친밀 -15201
▁ㅇㅣㄹㅝㅈㅣㄴ -15202
▁트레이서 -15203
▁every -15204
▁서독 -15205
▁포털 -15206
▁수소 -15207
▁포고 -15208
레인지 -15209
▁사육 -15210
▁Met -15211
▁강변 -15212
▁ㅊㅣㄹㅓㅆ -15213
▁욕구 -15214
▁자드 -15215
▁기쁘 -15216
▁실천 -15217
▁자손 -15218
edia -15219
▁정유 -15220
▁시구 -15221
▁헤딩 -15222
▁쇼핑몰 -15223
▁성서 -15224
▁성폭행 -15225
각시 -15226
▁나츠키 -15227
▁빌미 -15228
득점 -15229
▁Sky -15230
모니 -15231
바위 -15232
▁Hey -15233
▁가차 -15234
▁테크노 -15235
▁열풍 -15236
▁인장 -15237
▁ㄴㅡㄴㅑㄱㅗ -15238
▁틀림 -15239
▁하코 -15240
링크 -15241
▁쇠퇴 -15242
▁유엔 -15243
▁CEO -15244
▁나고 -15245
▁육박 -15246
▁인프라 -15247
▁듬 -15248
▁라운 -15249
▁아론 -15250
▁ㅁㅏㄹㅡㄴ -15251
▁선구 -15252
▁안도 -15253
▁인기투표 -15254
▁ㅂㅏㄷㅊㅕ -15255
▁끼어들 -15256
▁양동 -15257
▁제휴 -15258
▁이승엽 -15259
▁남용 -15260
▁생겨나 -15261
▁변종 -15262
▁최성 -15263
ALL -15264
▁병맛 -15265
▁208 -15266
▁현존 -15267
▁럽 -15268
▁무의 -15269
▁오퍼레이터 -15270
▁광부 -15271
▁235 -15272
▁Act -15273
돌리 -15274
▁서진 -15275
▁동선 -15276
▁ㅍㅐㄴ -15277
ERT -15278
▁파업 -15279
▁UFO -15280
▁}{ -15281
▁거물 -15282
▁FN -15283
▁패거리 -15284
▁대한항공 -15285
▁향수 -15286
▁거제 -15287
▁편제 -15288
▁육식 -15289
▁ㅇㅣㄹㅜㄴㄷㅏ -15290
▁수배 -15291
ㄴㅏㄱㅏㅆ -15292
ㄲㅗ -15293
▁1936 -15294
▁시중 -15295
▁체이스 -15296
▁비늘 -15297
▁돌아보 -15298
ㅘㅆ -15299
케이 -15300
▁뇌격 -15301
▁대여 -15302
▁대머리 -15303
▁런닝맨 -15304
▁갭 -15305
▁바시 -15306
▁정현 -15307
▁333 -15308
BM -15309
▁삽화 -15310
▁사다리 -15311
oud -15312
▁하렘 -15313
▁피어 -15314
▁출생지 -15315
▁도르트 -15316
사우루스 -15317
▁병영 -15318
▁ㄷㅏㄴㅣㄴ -15319
드래 -15320
▁메소 -15321
▁줍 -15322
여행 -15323
▁ve -15324
▁마장 -15325
▁ㄷㅐㄴ -15326
▁처단 -15327
▁FX -15328
less -15329
▁ㅈㅣㅋㅕㅇㅑ -15330
▁유쾌 -15331
▁비행선 -15332
▁That -15333
▁ㄹㅏㄹㄲㅏ -15334
▁TD -15335
니스탄 -15336
▁206 -15337
▁철회 -15338
지대 -15339
▁덩크 -15340
네트 -15341
▁아픔 -15342
어쓰 -15343
ize -15344
▁카멜 -15345
▁NL -15346
▁본국 -15347
▁코지마 -15348
▁아이리 -15349
▁펼쳐지 -15350
▁합방 -15351
▁개틀링 -15352
▁난폭 -15353
▁어머 -15354
▁Song -15355
▁초동 -15356
▁세츠나 -15357
▁넘어오 -15358
▁em -15359
▁김하 -15360
▁살라 -15361
ㅓㅇㅝㅆ -15362
▁극찬 -15363
▁항속 -15364
▁넘쳐 -15365
린스 -15366
▁나루호도 -15367
▁ㅇㅏㄴㅌㅏㄲㅏㅇㅜㄴ -15368
95 -15369
▁비약 -15370
변속기 -15371
▁디스코 -15372
▁기겁 -15373
▁오마주 -15374
▁설사 -15375
▁심플 -15376
▁con -15377
천동 -15378
▁경인 -15379
▁참패 -15380
▁May -15381
▁성문 -15382
▁메스 -15383
▁키바 -15384
▁미쓰 -15385
공화국 -15386
▁문의 -15387
▁늘어놓 -15388
▁아울러 -15389
bps -15390
▁ㅁㅜㅇㅊㅕ -15391
의회 -15392
▁영리 -15393
▁ㅁㅗㄹㅡㄹㄲㅏ -15394
▁피라미드 -15395
▁속옷 -15396
▁ㅇㅣㄹㅈㅣㄷㅗ -15397
▁커넥 -15398
▁ㄱㅏㅎㅏㄴㄷㅏ -15399
▁젊은이 -15400
방향 -15401
▁161 -15402
▁멸자 -15403
▁불태우 -15404
▁ㅂㅏㄲㅜㄴㄷㅏ -15405
▁메아리 -15406
▁김인 -15407
▁성검 -15408
▁헛소리 -15409
▁마츠모토 -15410
▁와일드카드 -15411
▁누마 -15412
▁소이 -15413
VEL -15414
▁계보 -15415
▁유목 -15416
▁ㄷㅗㅁㅏㅇㅊㅕㅆ -15417
▁개드 -15418
▁베라 -15419
▁ㄲㅡㅌㄴㅐㅆ -15420
▁ㅇㅏㄴㅣㅂㄴㅣㄷㅏ -15421
ape -15422
▁라트 -15423
▁팀킬 -15424
▁GAM -15425
▁850 -15426
▁상대편 -15427
▁위나라 -15428
▁마그마 -15429
▁스플릿 -15430
▁내년 -15431
▁슬퍼 -15432
UB -15433
▁얼리 -15434
▁우로 -15435
▁리오스 -15436
▁얀데레 -15437
▁김태균 -15438
▁배급사 -15439
▁페인트 -15440
▁want -15441
▁감시자 -15442
▁유우야 -15443
▁ㅊㅓㅎㅐㅆ -15444
▁God -15445
▁데이브 -15446
▁명인 -15447
▁크러 -15448
▁끝판 -15449
▁표방 -15450
▁풀백 -15451
▁좌석버스 -15452
▁송곳 -15453
▁스릴 -15454
▁정벌 -15455
ger -15456
▁장래 -15457
▁카에데 -15458
▁가까스로 -15459
▁밴시 -15460
▁불가리아 -15461
▁ㅃㅐㅇㅏㅅㄱㅣㄴ -15462
IST -15463
타자 -15464
▁토와 -15465
▁ㅍㅏㄹㄹㅕ -15466
96 -15467
▁일자리 -15468
▁야기 -15469
▁다나카 -15470
▁ㅇㅣㅂㅎㅕ -15471
▁디에 -15472
▁모터스 -15473
▁벽돌 -15474
▁여진 -15475
▁선발전 -15476
▁도마뱀 -15477
▁Rain -15478
▁북극 -15479
aka -15480
▁독성 -15481
▁호대 -15482
▁RAM -15483
▁ㅇㅡㄹㅏㄴㅡㄴ -15484
▁ㅅㅣㅋㅣㅁ -15485
▁ㅅㅡㅊㅕ -15486
▁ㅆㅏㅇㅝㅇㅑ -15487
▁소인 -15488
▁이복 -15489
▁끌어들이 -15490
▁되려 -15491
▁영장 -15492
▁오미 -15493
실히 -15494
ita -15495
▁언락 -15496
▁영창 -15497
▁손수 -15498
▁무법 -15499
▁비욘 -15500
▁징병 -15501
▁인피니트 -15502
때로 -15503
▁지아 -15504
▁청색 -15505
▁ㅆㅡㄹㅓㅈㅕㅆ -15506
▁북두 -15507
▁경위 -15508
▁성주 -15509
▁290 -15510
▁플라워 -15511
▁복종 -15512
▁어린애 -15513
▁ㅈㅏㅁㅕ -15514
▁마드 -15515
▁도르트문트 -15516
zy -15517
▁RF -15518
▁불운 -15519
▁신시 -15520
▁정렬 -15521
▁심심찮 -15522
▁눕 -15523
모자 -15524
▁난해 -15525
▁Top -15526
▁무난히 -15527
▁망원 -15528
76 -15529
▁수레 -15530
▁ㄱㅓㅅㅣㄴ -15531
ㄸㅡㄹㅣㄴㄷㅏ -15532
ORM -15533
▁단간 -15534
▁여건 -15535
▁알프레 -15536
▁서면 -15537
▁열전 -15538
ㅗㅈㅏ -15539
▁하데스 -15540
▁친일 -15541
▁당분간 -15542
▁코스타 -15543
▁페로 -15544
▁임하 -15545
▁헤매 -15546
▁좆 -15547
▁." -15548
▁선도 -15549
▁대강 -15550
▁고려대 -15551
▁마니 -15552
▁포이 -15553
▁퀑 -15554
▁more -15555
▁ㅇㅜㅁㅈㅣㄱㅇㅣㄴㄷㅏ -15556
▁콘테 -15557
▁우습 -15558
▁대각선 -15559
▁ㅊㅐㅇㅜㄹ -15560
▁젯 -15561
▁데이즈 -15562
레인저 -15563
rop -15564
▁한가 -15565
▁정규군 -15566
▁ㅁㅜㄹㄹㅓㄴㅏㅆ -15567
▁울부 -15568
▁절묘 -15569
▁피고 -15570
▁책임자 -15571
▁석탄 -15572
▁야채 -15573
▁유추 -15574
▁칼럼 -15575
▁줄줄이 -15576
▁ㅅㅏㄹㅗㅈㅏ -15577
연합 -15578
▁버디 -15579
▁순교자 -15580
▁ㄱㅚㄹㅗㅇㅝ -15581
▁Pe -15582
▁ㄱㅗㅇㅣㄴ -15583
▁ㄷㅔㄹㅕㅇㅗㄴ -15584
운전 -15585
▁남구 -15586
▁WAR -15587
▁친위대 -15588
▁이제동 -15589
▁전용기 -15590
▁ㅂㅓㄹㅇㅓㅈㅣㄹ -15591
▁내륙 -15592
▁역학 -15593
▁위화감 -15594
▁바실 -15595
▁축구단 -15596
암동 -15597
▁1955 -15598
▁스몰 -15599
▁존속 -15600
▁게리 -15601
토록 -15602
기어 -15603
▁자부심 -15604
▁드레이크 -15605
▁Battle -15606
▁스케치 -15607
▁특공대 -15608
버거 -15609
▁즐거 -15610
▁라이터 -15611
▁꼭두각시 -15612
무스 -15613
▁매트릭스 -15614
작전 -15615
IGHT -15616
▁갑판 -15617
▁이따 -15618
▁칭송 -15619
▁ㅎㅏㄴㄷㅏㄷㅓㄴㄱㅏ -15620
▁Moon -15621
▁미셸 -15622
▁역전승 -15623
▁중성 -15624
▁Game -15625
▁ㅇㅓㄸㅐ -15626
포스 -15627
▁허구 -15628
▁화속 -15629
▁가창력 -15630
▁인테르 -15631
bo -15632
▁최재 -15633
net -15634
▁두들 -15635
▁일직 -15636
ward -15637
비우스 -15638
▁행동력 -15639
▁코로나 -15640
▁노브 -15641
ara -15642
▁과실 -15643
▁선풍 -15644
▁총통 -15645
▁TEC -15646
▁성추행 -15647
▁플레이트 -15648
▁곡선 -15649
row -15650
▁이신 -15651
▁튕기 -15652
▁ㅇㅣㄴㄷㅏ -15653
OK -15654
▁뚫리 -15655
▁ㅂㅔㅇㅣㄴ -15656
▁호타 -15657
▁영락 -15658
▁스케이팅 -15659
블랜드 -15660
com -15661
▁분사 -15662
▁새로이 -15663
▁클리블랜드 -15664
ren -15665
▁SUP -15666
▁킬로 -15667
리아나 -15668
▁경이 -15669
▁골대 -15670
▁인민공화국 -15671
메다 -15672
▁허리케인 -15673
▁Dragon -15674
▁새해 -15675
▁KG -15676
▁레트 -15677
▁카야 -15678
▁태수 -15679
▁나데 -15680
▁내심 -15681
▁212 -15682
▁ㅇㅓㅇㅜㄹㄹㅣㄴㄷㅏ -15683
버드 -15684
▁독재자 -15685
▁반자동 -15686
▁틀어 -15687
▁유명세 -15688
▁ㅇㅏㄲㅏ -15689
▁터미네이터 -15690
▁NS -15691
▁max -15692
▁ㄸㅟㄹ -15693
▁경호원 -15694
▁북유럽 -15695
▁ㅈㅣㄴㅎㅐ -15696
▁안기 -15697
▁밸리 -15698
▁개드립 -15699
▁LS -15700
▁의리 -15701
▁코나미 -15702
▁진나라 -15703
▁데프 -15704
▁Bra -15705
▁ㅃㅏㅈㅕㅅㅓ -15706
▁오반 -15707
▁왕녀 -15708
▁치부 -15709
▁강당 -15710
▁본문 -15711
▁흑룡 -15712
▁생각나 -15713
▁1959 -15714
▁루시퍼 -15715
▁광저우 -15716
▁울부짖 -15717
클리 -15718
▁부과 -15719
▁대담 -15720
led -15721
▁소중히 -15722
▁캬 -15723
▁ㄴㅑㅁㅕㄴㅅㅓ -15724
▁밀어붙이 -15725
▁나고야 -15726
▁알아듣 -15727
▁교육부 -15728
▁they -15729
▁ㅅㅏㄹㄹㅣㄴ -15730
▁ㅅㅐㅇㄱㅕㄴㅏㄴ -15731
러기 -15732
▁LCD -15733
▁팩토리 -15734
▁ㄹㅣㅇㅗㄴ -15735
▁가메 -15736
▁니키 -15737
▁추월 -15738
부대 -15739
▁피겨 -15740
▁가솔린 -15741
▁사이언 -15742
▁티코 -15743
짜기 -15744
▁Special -15745
니엄 -15746
▁보단 -15747
▁김현수 -15748
▁치타 -15749
▁토요타 -15750
▁푸른 -15751
ㅅㅕ -15752
▁관제 -15753
▁할당 -15754
▁베이스볼 -15755
▁해임 -15756
▁호스트 -15757
▁ㅂㅓㅅㅇㅓㄴㅏㄹ -15758
▁목표물 -15759
▁발산 -15760
▁크림슨 -15761
▁ㅈㅣㄹㄹㅓ -15762
▁ㅈㅏㅂㅇㅏ -15763
▁원동 -15764
▁조달 -15765
▁밀레니엄 -15766
▁광화 -15767
▁자석 -15768
▁파괴자 -15769
▁ㅁㅗㄹㄹㅣㄴ -15770
▁민지 -15771
▁협공 -15772
▁요건 -15773
▁잔당 -15774
▁ㅇㅏㄹㄹㅣㅁ -15775
▁앙리 -15776
▁ㅂㅡㄴ -15777
▁핵무기 -15778
▁001 -15779
테나 -15780
▁도미니 -15781
▁연방군 -15782
▁온전히 -15783
▁서점 -15784
▁와이드 -15785
▁마티 -15786
코프 -15787
▁십상 -15788
▁의석 -15789
▁서울역 -15790
▁플로리 -15791
aven -15792
▁스트레이트 -15793
▁탤 -15794
▁펜스 -15795
▁데이빗 -15796
▁전투원 -15797
▁ㅍㅏㄴㄷㅏ -15798
▁가변 -15799
▁지갑 -15800
▁ㄴㅓㅁㄱㅣㄹ -15801
▁무성 -15802
히사 -15803
▁ㄷㅏㄹㄹㅏㅅㅓ -15804
▁광양 -15805
▁종자 -15806
럭스 -15807
▁1956 -15808
▁떠들 -15809
▁마포 -15810
▁단단히 -15811
▁슬퍼하 -15812
▁행선 -15813
▁ㅅㅏㄱ -15814
▁이치카 -15815
▁카트라이더 -15816
▁빈스 -15817
▁베드 -15818
▁우사 -15819
▁쿠미 -15820
▁활주 -15821
▁아산 -15822
▁뒷받침 -15823
▁강연 -15824
▁서사 -15825
▁주군 -15826
▁특허 -15827
▁슐 -15828
▁wiz -15829
▁Hot -15830
▁ㅇㅣㄹㄹㅓ -15831
LD -15832
▁ㅂㅏㅊㅕ -15833
▁레고 -15834
▁무심 -15835
▁미완 -15836
▁Amer -15837
▁ㅍㅕㅇㅎㅐㅆ -15838
▁피니시 -15839
▁뮤즈 -15840
▁머들 -15841
▁벨벳 -15842
▁ㅅㅐㄱㅕㅈㅣㄴ -15843
▁기와 -15844
▁레미 -15845
▁협약 -15846
▁카즈키 -15847
▁ㄱㅏㄹㅗ -15848
▁안드로메다 -15849
▁신공 -15850
▁장막 -15851
▁Pop -15852
▁부회장 -15853
▁Track -15854
카스 -15855
▁등산 -15856
▁심리전 -15857
▁사파이어 -15858
패드 -15859
▁ㄴㅏㄹㄹㅣㄹ -15860
하이 -15861
▁저거 -15862
▁조회 -15863
▁DAY -15864
▁플러그 -15865
▁ㄸㅟㅇㅓㄴㅏ -15866
▁ㄴㅡㄴㄷㅔㄷㅗ -15867
▁임프 -15868
▁tw -15869
▁귀도 -15870
▁탈것 -15871
▁인분 -15872
▁칠흑 -15873
▁ㅇㅗㄻㄱㅣㄴ -15874
▁토의 -15875
▁나시 -15876
▁석방 -15877
▁스켈 -15878
▁FFFF -15879
▁온화 -15880
▁ㅁㅏㄴㅡㄴ -15881
▁오스카 -15882
▁이상민 -15883
▁입성 -15884
▁포르노 -15885
▁TG -15886
▁코리 -15887
▁파드 -15888
▁두드러지 -15889
▁국사 -15890
누르 -15891
▁음양 -15892
▁게이밍 -15893
▁아란 -15894
▁합산 -15895
▁랄프 -15896
▁백신 -15897
▁선진국 -15898
▁발간 -15899
▁신령 -15900
▁유민 -15901
▁차남 -15902
▁ㅂㅏㅃㅡㄴ -15903
지기 -15904
▁익스트림 -15905
내기 -15906
▁점하 -15907
바키아 -15908
▁계약자 -15909
▁뺏기 -15910
▁이시다 -15911
ㅇㄱㅡㄹ -15912
▁택하 -15913
▁Cont -15914
▁바이올렛 -15915
▁첩보 -15916
▁에스파 -15917
▁대적 -15918
▁1939 -15919
▁적정 -15920
▁경신 -15921
▁마늘 -15922
▁이분 -15923
▁나폴리 -15924
왜란 -15925
▁가네 -15926
▁우와 -15927
▁트리오 -15928
▁TN -15929
▁네메시스 -15930
▁단절 -15931
▁프랑스군 -15932
▁각기 -15933
▁주스 -15934
▁리바이 -15935
▁임진왜란 -15936
▁얽 -15937
▁아치 -15938
▁사면 -15939
▁멧돼지 -15940
▁마고 -15941
▁ㅁㅣㄹㅇㅓ -15942
▁빵빵 -15943
▁역관 -15944
지물 -15945
▁황무지 -15946
▁내려놓 -15947
▁증후 -15948
play -15949
▁위인 -15950
▁와타루 -15951
▁팔꿈치 -15952
▁". -15953
▁감도 -15954
▁초회 -15955
ands -15956
▁Yes -15957
▁명령어 -15958
▁내려찍 -15959
▁ㅇㅗㄹㄹㅕㅅㅓ -15960
▁너구리 -15961
▁ㄴㅏㄴㅜㄴ -15962
▁금성 -15963
▁오피 -15964
▁기병대 -15965
▁패트릭 -15966
▁ㅇㅝㄴㅎㅏㄴㄷㅏㅁㅕㄴ -15967
▁모티 -15968
▁이화 -15969
▁광주광역시 -15970
▁ㄷㅙㅆㅇㅡㅁㅕ -15971
▁207 -15972
렉트 -15973
▁이지스 -15974
▁ㅈㅣㅊㅣㄴ -15975
34 -15976
▁화장품 -15977
그래 -15978
▁교재 -15979
▁ㄲㅗㅈ -15980
▁차세대 -15981
▁창세기 -15982
▁황자 -15983
다르 -15984
▁플라잉 -15985
▁baby -15986
▁노랑 -15987
▁꺼리 -15988
▁뾰족 -15989
▁위생 -15990
▁COM -15991
▁ㄷㅜㄹㄹㅓㅆㅏㄴ -15992
두근 -15993
▁단백 -15994
▁의대 -15995
▁청동 -15996
▁밀려나 -15997
▁외야 -15998
▁풋볼 -15999
▁동물원 -16000
▁ㅁㅣㄹㄹㅣㄴ -16001
▁티탄 -16002
▁단말기 -16003
쿠버 -16004
▁ㄱㅏㄹㄹㅕ -16005
▁네모 -16006
▁불기 -16007
▁따라다니 -16008
ze -16009
▁구세 -16010
▁넵튠 -16011
▁기타리스트 -16012
▁매지컬 -16013
▁분자 -16014
▁새신 -16015
▁터무니 -16016
▁ㄱㅏㄴㅈㅣ -16017
▁래스 -16018
▁서문 -16019
▁520 -16020
▁ㅇㅕㄱㅕㅈㅣㄴㄷㅏ -16021
▁슈타 -16022
▁네타 -16023
▁유세 -16024
▁푸드 -16025
▁각색 -16026
▁에우 -16027
▁겉보기 -16028
▁good -16029
▁바사 -16030
▁초중 -16031
▁인신 -16032
바시 -16033
▁로자 -16034
▁망가 -16035
▁ㄴㅡㄴㄱㅜㄴㅏ -16036
▁루리웹 -16037
▁ㄴㅓㅁㅊㅕ -16038
▁ㅅㅏㄹㄹㅣㄹ -16039
▁777 -16040
▁ㅁㅣㄹㅝ -16041
ien -16042
▁이터널 -16043
▁지휘자 -16044
▁ㅇㅖㅃㅓ -16045
▁ㅍㅕㄹㅊㅕㅈㅣㄴ -16046
▁채굴 -16047
▁over -16048
그레 -16049
▁영재 -16050
▁트레버 -16051
▁박기 -16052
▁ㄷㅗㅁㅏㅇㅊㅣㄴ -16053
▁ㅇㅗㄹㄹㅏㅇㅗㄴㄷㅏ -16054
▁타협 -16055
▁붕대 -16056
▁무언가 -16057
ㅇㅡㄹㅈㅣㄷㅗ -16058
▁ㅁㅜㄴㅓㅈㅕㅆ -16059
▁나우 -16060
▁PA -16061
아스 -16062
▁고스란히 -16063
ㄸㅡㄹㅣㄹ -16064
교육 -16065
용차 -16066
▁타츠야 -16067
▁ㄸㅟㄴ -16068
▁동거 -16069
캐스트 -16070
▁제품군 -16071
▁재해 -16072
큐버스 -16073
▁BASIC -16074
▁들통 -16075
▁체급 -16076
▁상정 -16077
▁문호 -16078
▁친근 -16079
▁조비 -16080
▁포화 -16081
방사기 -16082
▁화염방사기 -16083
▁천체 -16084
ited -16085
▁그래프 -16086
▁최적화 -16087
▁그지 -16088
▁송파 -16089
▁철벽 -16090
▁ㅋㅓㄹ -16091
▁ㄷㅜㄲㅓㅇㅜㄴ -16092
▁항로 -16093
▁Mir -16094
▁집정관 -16095
▁저러 -16096
▁단연 -16097
▁독설 -16098
▁자의 -16099
▁비정 -16100
▁..' -16101
▁IDOLM -16102
▁청하 -16103
▁보유자 -16104
▁도널드 -16105
▁성급 -16106
▁애프터 -16107
▁정제 -16108
▁ㄹㅏㄷㅡㄴㅈㅣ -16109
▁ㄷㅔㄹㅕㄷㅏ -16110
▁ㅂㅜㄹㄹㅓㅅㅓ -16111
▁배럴 -16112
▁일부분 -16113
▁ㄴㅏㅌㅏㄴㅏㄹ -16114
▁구치 -16115
▁로로 -16116
▁한결 -16117
▁동포 -16118
▁호라이 -16119
▁크레이지 -16120
▁블라디미르 -16121
▁작살 -16122
▁209 -16123
▁ㄱㅝㄴ -16124
▁강호동 -16125
▁다트 -16126
▁김택용 -16127
▁전투복 -16128
▁ㅆㅘㅅㅓ -16129
▁ㅁㅣㄹㅊㅕ -16130
준호 -16131
▁상류 -16132
둘기 -16133
위치 -16134
▁그토록 -16135
▁ㅇㅣㄹㅏㄷㅡㄴㄱㅏ -16136
▁소모품 -16137
▁미공 -16138
▁Bur -16139
▁감속 -16140
▁순순 -16141
▁심슨 -16142
거진 -16143
파니 -16144
▁다이렉트 -16145
▁ㅋㅣㅇㅝㅆ -16146
▁배틀필드 -16147
au -16148
▁~' -16149
▁선비 -16150
▁터리 -16151
▁장동민 -16152
중국 -16153
▁이가 -16154
▁중령 -16155
▁col -16156
▁사시 -16157
▁선명 -16158
▁일갈 -16159
▁Project -16160
▁ㄱㅜㅎㅐㅆ -16161
▁억압 -16162
▁끌어올리 -16163
▁사설 -16164
▁ㅋㅣㅇㅜㄴ -16165
블랑 -16166
▁휴전 -16167
▁로드리 -16168
▁버니 -16169
▁끌어내 -16170
▁ㅈㅣㄴㄷㅏㄴㅡㄴ -16171
로이 -16172
▁탈리 -16173
▁콜롬비아 -16174
▁골리앗 -16175
▁로마자 -16176
▁민병대 -16177
▁TF -16178
▁투타 -16179
▁ㄴㅗㄱㅇㅕ -16180
ㄲㅡㄹㅓㅇㅜㄴ -16181
▁김영삼 -16182
▁ㄸㅟㅊㅕ -16183
▁대제 -16184
▁류지 -16185
▁시세 -16186
▁당근 -16187
▁모방 -16188
▁전류 -16189
▁스탠딩 -16190
▁Sur -16191
▁간장 -16192
▁신촌 -16193
▁장단 -16194
▁1400 -16195
▁안토니오 -16196
▁미유 -16197
36 -16198
▁비범 -16199
▁정직 -16200
▁단거리 -16201
▁시프트 -16202
▁마코 -16203
▁주성 -16204
▁이어폰 -16205
▁시제 -16206
▁Off -16207
▁ㄱㅣㅂㅗ -16208
▁가가 -16209
▁백수 -16210
▁차마 -16211
▁솔리드 -16212
▁최우선 -16213
▁탄수 -16214
▁yeah -16215
▁황족 -16216
ius -16217
▁어기 -16218
▁긴장감 -16219
▁세이지 -16220
▁관대 -16221
▁현질 -16222
드리히 -16223
▁쭈 -16224
▁군중 -16225
▁운전자 -16226
▁반짝이 -16227
▁행정부 -16228
▁ㅅㅕㅅㅓ -16229
▁비즈니스 -16230
▁톡톡 -16231
▁투기 -16232
긋나 -16233
▁사바 -16234
▁창원시 -16235
▁ㅊㅐㄱㅇㅣㅁ -16236
▁콥 -16237
▁증후군 -16238
▁랜디 -16239
▁무어 -16240
▁정진 -16241
▁군단장 -16242
▁역전패 -16243
▁노마 -16244
▁써니 -16245
▁이나즈마 -16246
21 -16247
ㄹㅓㄴ -16248
▁나탈 -16249
▁칸나 -16250
▁인스 -16251
▁ㅅㅓㅆ -16252
▁KD -16253
▁자민 -16254
▁락스 -16255
▁아노 -16256
▁글리 -16257
▁노사 -16258
▁정연 -16259
▁침식 -16260
▁유스케 -16261
▁결별 -16262
▁주시 -16263
▁사카모토 -16264
▁ㅂㅘㄹㅏ -16265
▁출세 -16266
▁아르테 -16267
▁FFFFFF -16268
▁제네시스 -16269
▁체조 -16270
▁대두 -16271
▁미토 -16272
▁선형 -16273
▁탈탈 -16274
▁Bad -16275
▁프론티어 -16276
▁아르메 -16277
▁치히로 -16278
▁ㅇㅣㅇㅓㅈㅣㄹ -16279
▁심포 -16280
▁액트 -16281
oney -16282
▁ㄸㅐㄹㅣㄹ -16283
HD -16284
UK -16285
▁루드 -16286
▁에로게 -16287
▁ㅊㅟㅎㅐㅆ -16288
ata -16289
▁마호 -16290
▁매사 -16291
▁분전 -16292
▁템플러 -16293
AA -16294
▁동대문 -16295
▁전갈 -16296
▁천도 -16297
▁스탠스 -16298
▁저력 -16299
▁WOR -16300
▁안중 -16301
▁1938 -16302
▁가산 -16303
▁공석 -16304
▁산화 -16305
ㄹㅗㄴ -16306
▁ㅋㅣㅇㅜㅁ -16307
▁엠파이어 -16308
▁bo -16309
▁격하 -16310
▁순순히 -16311
▁코브라 -16312
▁ㄴㅏㅈㅊㅝ -16313
▁ㅂㅜㅅㅓㅈㅣㄴ -16314
▁단조 -16315
▁노이 -16316
▁매개 -16317
▁배척 -16318
▁구애 -16319
▁관건 -16320
▁지체 -16321
▁피버 -16322
▁ㄴㅗㄹㄹㅏㄴㄷㅏ -16323
▁파열 -16324
▁데뷔작 -16325
▁Po -16326
▁명품 -16327
▁학업 -16328
▁유노 -16329
틱스 -16330
▁Int -16331
▁결투장 -16332
▁프리드리히 -16333
▁페루 -16334
드래곤 -16335
▁ㄱㅡㄹㅔ -16336
준혁 -16337
방식 -16338
페스트 -16339
▁ac -16340
▁버즈 -16341
▁치프 -16342
▁리조트 -16343
INE -16344
ㅇㅗㄹㄹㅏ -16345
제이 -16346
▁산산 -16347
▁섹터 -16348
▁비올 -16349
vent -16350
마트 -16351
▁현행 -16352
▁Are -16353
▁티나 -16354
▁영령 -16355
▁졸지 -16356
▁단번에 -16357
▁메이크 -16358
▁몰려오 -16359
▁조류 -16360
▁오아 -16361
▁자본주의 -16362
▁ㅁㅏㅈㅁㅜㄹㄹㅕ -16363
감치 -16364
▁올리버 -16365
▁ㅁㅕㄴㅇㅡㄴ -16366
▁Ul -16367
▁응징 -16368
▁조로 -16369
▁때때로 -16370
▁마리사 -16371
▁ㄹㅣㅇㅏ -16372
▁ㅂㅐㅇㅜㄴㄷㅏ -16373
▁걸스 -16374
▁멀린 -16375
찌감치 -16376
▁메두사 -16377
ㅇㄴㅏㄴ -16378
▁튜브 -16379
▁DDR -16380
토미 -16381
▁입법 -16382
▁say -16383
▁꼼짝 -16384
▁외래어 -16385
▁어도 -16386
▁두께 -16387
▁총구 -16388
▁ㅈㅏㅁㄱㅡㅁ -16389
고루 -16390
▁275 -16391
▁성유 -16392
▁카논 -16393
▁츠바키 -16394
▁ㄱㅏㅈㅕㅇㅘ -16395
▁#, -16396
▁WCS -16397
▁하늘색 -16398
▁외침 -16399
▁잿 -16400
▁마공 -16401
line -16402
▁즉석 -16403
▁다이크 -16404
▁블루스 -16405
▁애틀 -16406
▁노스케 -16407
▁팻 -16408
컨대 -16409
▁샌디 -16410
▁Ass -16411
▁음모론 -16412
▁JC -16413
▁쳐들 -16414
▁대장장이 -16415
▁브리핑 -16416
▁광학 -16417
▁ㅇㅡㄹㅣㄹㅏ -16418
비언 -16419
▁'- -16420
▁소량 -16421
▁갱단 -16422
▁완주 -16423
▁프라이즈 -16424
▁ㅇㅣㄲ -16425
▁TWICE -16426
▁PvP -16427
▁법무부 -16428
▁아츠시 -16429
▁신한은행 -16430
▁쓸어버리 -16431
▁ㅁㅗㄹㄹㅕㅆ -16432
▁로미 -16433
▁베른 -16434
▁org -16435
▁ㄴㅐㄹㅕㅇㅘㅆ -16436
홍철 -16437
▁몰아내 -16438
▁ㅁㅗㄹㄹㅏㅅㅓ -16439
▁ㅅㅓㄷㅜㄹㄹㅓ -16440
▁ㅂㅏㄷㅇㅏㄷㅡㄹㅇㅣㄹ -16441
▁용품 -16442
▁만화책 -16443
▁ㅎㅐㅆㅇㅡㅁㅡㄹㅗ -16444
▁가와 -16445
▁괴멸 -16446
▁시발 -16447
▁221 -16448
툭튀 -16449
▁치아 -16450
▁쿼드 -16451
▁ㅅㅏㄹㅏㅈㅣㄹ -16452
▁행각 -16453
▁릭스 -16454
▁애틀랜 -16455
UL -16456
▁래쉬 -16457
▁몬테 -16458
▁사생활 -16459
▁건립 -16460
▁수뇌 -16461
▁노후 -16462
▁레베 -16463
▁재혼 -16464
ague -16465
▁란트 -16466
▁교직원 -16467
▁ㄷㅡㄹㅇㅣ -16468
▁ㅎㅏㄴㄱㅏ -16469
▁노동당 -16470
▁ㄷㅓㅁㅂㅕ -16471
▁즘 -16472
규어 -16473
▁갑툭튀 -16474
▁폭군 -16475
▁폭투 -16476
세이더 -16477
▁AMD -16478
▁ㅃㅏㄹㄹㅕ -16479
▁크루세이더 -16480
▁캉 -16481
▁발트 -16482
▁패미컴 -16483
▁거유 -16484
▁정자 -16485
▁부합 -16486
▁에프 -16487
▁최진 -16488
▁ㅇㅣㄹㅝㅈㅣ -16489
ton -16490
▁케미 -16491
▁see -16492
▁Eng -16493
▁시애 -16494
▁헬로 -16495
▁여행자 -16496
▁샌드박스 -16497
▁시오리 -16498
▁대관 -16499
▁Match -16500
▁셔츠 -16501
▁척하 -16502
▁ㅇㅐㅆㅓ -16503
ck -16504
UST -16505
▁제드 -16506
▁경전차 -16507
▁ㅇㅚㅊㅕㅆ -16508
▁ㅈㅓㄱ -16509
▁수영장 -16510
▁경비원 -16511
▁ㅈㅏㄱㅇㅣㄴ -16512
78 -16513
▁희미 -16514
▁중소기업 -16515
▁쪽지 -16516
▁커맨더 -16517
▁길목 -16518
▁피크 -16519
▁클로버 -16520
▁Char -16521
▁모치 -16522
▁디디 -16523
▁짤막 -16524
▁케르 -16525
▁릉 -16526
▁제각 -16527
▁ㅉㅗㄹ -16528
▁요르 -16529
▁타케루 -16530
▁홈구장 -16531
매매 -16532
피탈 -16533
▁세토 -16534
▁시르 -16535
▁여명 -16536
의지 -16537
▁시립 -16538
▁앞쪽 -16539
▁진공 -16540
▁하얀 -16541
▁바이퍼 -16542
▁부녀 -16543
▁ㅈㅣㅂ -16544
▁플로리다 -16545
▁고원 -16546
▁fr -16547
▁수도원 -16548
▁ㄴㅏㅁㄱㅣㄴㄷㅏ -16549
▁기린 -16550
매치 -16551
▁아재 -16552
▁부두 -16553
▁메르시 -16554
▁1952 -16555
und -16556
▁조원 -16557
▁퇴마 -16558
▁아카기 -16559
▁데스매치 -16560
▁방대 -16561
▁탈주 -16562
▁데이비스 -16563
▁XY -16564
▁케어 -16565
▁Now -16566
▁ㅊㅏㄹㅕ -16567
장구 -16568
▁가쿠 -16569
▁슬쩍 -16570
▁여덟 -16571
레즈 -16572
▁유시 -16573
▁헤븐 -16574
▁볼일 -16575
▁RED -16576
erm -16577
▁타가 -16578
▁슬래시 -16579
▁엘소드 -16580
ute -16581
▁일선 -16582
▁앨리 -16583
▁노드 -16584
▁레비 -16585
▁최형 -16586
▁금곡 -16587
▁리벤 -16588
▁욕먹 -16589
▁ㄴㅐㄹㅣ -16590
▁트레인 -16591
▁티타 -16592
▁ㅇㅣㅂㄴㅣㄲㅏ -16593
▁ㄷㅚㅆ -16594
▁자판기 -16595
▁저스틴 -16596
천역 -16597
▁묵직 -16598
▁넘쳐나 -16599
▁사업자 -16600
▁일직선 -16601
▁리언 -16602
▁히이 -16603
자루 -16604
▁리히 -16605
▁우동 -16606
▁조인 -16607
ILL -16608
▁브란 -16609
▁ㅇㅓㄷㅣㄹ -16610
▁쌩 -16611
▁농촌 -16612
▁위조 -16613
▁시애틀 -16614
▁일정량 -16615
▁루즈 -16616
▁안치 -16617
▁216 -16618
맹이 -16619
▁흉터 -16620
▁Core -16621
▁정적 -16622
▁ㅈㅏㄹㄹㅣㄴ -16623
▁세단 -16624
▁스스 -16625
▁환불 -16626
▁햇빛 -16627
▁파고들 -16628
▁재규어 -16629
ㅂㅎㅣㄹ -16630
▁right -16631
일관 -16632
▁소름 -16633
▁매거진 -16634
▁수속 -16635
▁시집 -16636
▁츠치 -16637
▁명장면 -16638
▁발렌시아 -16639
▁도보 -16640
▁매점 -16641
▁화랑 -16642
▁바흐 -16643
▁스노 -16644
▁ㅇㅣㄲㅡㄴ -16645
▁악인 -16646
▁유배 -16647
▁Blood -16648
▁가주 -16649
▁댈 -16650
▁현수 -16651
▁티셔츠 -16652
▁다크니스 -16653
▁모건 -16654
▁농어촌 -16655
▁센트리 -16656
red -16657
▁관전 -16658
▁누님 -16659
▁오일 -16660
▁BW -16661
▁마토 -16662
▁럭스 -16663
▁416 -16664
▁충실히 -16665
▁}}}} -16666
▁대장군 -16667
▁2021 -16668
▁해저 -16669
hy -16670
▁쑤 -16671
▁213 -16672
▁아틀라스 -16673
▁ㄸㅏㄹㄹㅕ -16674
▁고베 -16675
▁무모 -16676
▁헤라클레스 -16677
▁숙명 -16678
▁충동 -16679
▁ㅆㅡㄹㅓㄸㅡㄹㅣㄴ -16680
▁Joh -16681
▁our -16682
▁서스 -16683
▁심부 -16684
▁후후 -16685
▁ㄸㅏㄹㅏㅆ -16686
▁세무 -16687
▁우이 -16688
▁코칭 -16689
▁동국 -16690
▁보살 -16691
▁헌병 -16692
▁기공 -16693
▁장녀 -16694
▁}}}}}} -16695
▁조슈 -16696
▁ㄴㅏㅊ -16697
▁아득 -16698
▁BRV -16699
▁충공 -16700
▁Rob -16701
▁ㅂㅗㄴㄸ -16702
▁분수 -16703
▁능동 -16704
▁건너편 -16705
▁학부모 -16706
▁선글라스 -16707
▁애리 -16708
▁햄버거 -16709
▁국물 -16710
▁에테르 -16711
정동 -16712
▁수군 -16713
▁평안 -16714
▁ㅅㅓㅁ -16715
▁ㅂㅕㄴㅎㅏㅁ -16716
▁기염 -16717
▁시빌 -16718
▁아리사 -16719
▁마사무네 -16720
▁간편 -16721
▁ㅁㅏㅈㅊㅝㅆ -16722
▁퍼시픽 -16723
55 -16724
▁빼놓 -16725
▁ㄷㅓㄴㅈㅕㅅㅓ -16726
먹이 -16727
▁레그 -16728
게임넷 -16729
▁Ook -16730
▁온게임넷 -16731
▁국정원 -16732
▁세실 -16733
▁야자 -16734
애미 -16735
▁BBC -16736
▁비둘기 -16737
ism -16738
수엘라 -16739
▁경의 -16740
▁친선 -16741
▁보이드 -16742
▁마이애미 -16743
▁선천 -16744
▁ㄷㅏㄱㅜ -16745
▁소망 -16746
코스 -16747
▁둔화 -16748
▁사쿠야 -16749
▁뽐 -16750
▁Last -16751
▁모탈 -16752
▁속사 -16753
▁1300 -16754
▁ㅍㅐㅎㅏㄴ -16755
▁재화 -16756
▁중사 -16757
▁강남구 -16758
▁병신 -16759
▁필기 -16760
▁1953 -16761
▁급상 -16762
▁달아나 -16763
▁방어전 -16764
▁cr -16765
▁여하 -16766
▁친화 -16767
▁여느 -16768
▁회자 -16769
▁블리츠 -16770
III -16771
▁테츠야 -16772
▁익스프레스 -16773
조작 -16774
▁슬라이딩 -16775
▁돌풍 -16776
OCK -16777
▁미니게임 -16778
▁리시 -16779
▁라지 -16780
▁임상 -16781
▁레이크 -16782
▁근래 -16783
▁필승 -16784
ㅅㅕㅆ -16785
▁악질 -16786
▁완패 -16787
▁기생충 -16788
▁디트로 -16789
▁승부조작 -16790
▁승부차기 -16791
▁디트로이트 -16792
▁찜 -16793
▁튀김 -16794
▁검찰청 -16795
미사 -16796
▁기통 -16797
▁과다 -16798
▁서유 -16799
▁소아 -16800
▁순삭 -16801
▁자자 -16802
▁기판 -16803
▁벤트 -16804
▁국수 -16805
▁낯 -16806
▁ㅊㅣㄷㅗ -16807
▁서인 -16808
ets -16809
▁쓸쓸 -16810
▁자가 -16811
▁직계 -16812
88 -16813
▁안식 -16814
▁경영학 -16815
▁통학 -16816
▁암흑기 -16817
타기 -16818
▁가세 -16819
▁세레나 -16820
▁재판소 -16821
▁구미호 -16822
▁ㄷㅗㅁㅏㅇㅊㅣㄴㄷㅏ -16823
▁단백질 -16824
▁두근두근 -16825
로움 -16826
▁pe -16827
▁토코 -16828
▁표명 -16829
▁들려 -16830
미츠 -16831
▁조선일보 -16832
▁무네 -16833
▁호우 -16834
▁전고 -16835
▁ㅁㅏㅇㅎㅏㄹ -16836
괭이 -16837
add -16838
▁마취 -16839
▁백룡 -16840
▁알비 -16841
▁사병 -16842
▁그해 -16843
▁눈썹 -16844
▁진해 -16845
▁풍속 -16846
▁극성 -16847
▁아종 -16848
▁희생양 -16849
▁피신 -16850
▁해프 -16851
▁유소년 -16852
▁ㅅㅜㅁㄱㅕㅈㅕ -16853
▁토사 -16854
▁데스크 -16855
▁ㅁㅏㄱㅎㅕㅆ -16856
OWN -16857
▁NA -16858
▁엘런 -16859
▁료마 -16860
▁시라이 -16861
▁업종 -16862
▁홉 -16863
▁비석 -16864
▁재선 -16865
▁총대 -16866
▁베네수엘라 -16867
ㅅㅏ -16868
▁암기 -16869
▁이천 -16870
▁나뭇잎 -16871
▁동산 -16872
이프 -16873
▁둘러싸 -16874
▁활주로 -16875
▁ㅋㅣㅇㅜㄹ -16876
▁ㅇㅑㄱㅎㅐㅅㅓ -16877
▁데일리 -16878
▁Magic -16879
▁ㄷㅏㅊㅣㄴ -16880
포로 -16881
▁팬클럽 -16882
▁ㅊㅣㄹㅡㄴ -16883
▁권고 -16884
▁7000 -16885
▁RR -16886
▁가넷 -16887
▁초딩 -16888
▁침체 -16889
▁양도 -16890
▁이의 -16891
▁재미없 -16892
▁중화기 -16893
▁피칭 -16894
▁볼리 -16895
니지 -16896
ama -16897
▁이대호 -16898
▁농부 -16899
▁서약 -16900
▁경희대 -16901
▁드래곤즈 -16902
▁총사령관 -16903
▁고갈 -16904
▁포진 -16905
▁Like -16906
▁ㅍㅕㄹㅊㅣㄴ -16907
▁ㅈㅓㅈㅣㄹㄹㅓ -16908
▁덤비 -16909
▁there -16910
▁메탈기어 -16911
외선 -16912
▁박태 -16913
▁차출 -16914
▁프라이드 -16915
▁사력 -16916
▁이메 -16917
▁영화관 -16918
▁조세 -16919
▁거미줄 -16920
▁그물 -16921
▁사위 -16922
▁사단장 -16923
▁속삭 -16924
▁HOT -16925
▁ㄴㅐㅈㅝㅆ -16926
▁Alb -16927
▁방관 -16928
▁불안감 -16929
▁니즘 -16930
▁드래그 -16931
▁첨가 -16932
▁히코 -16933
▁자멸 -16934
▁아킬 -16935
▁요동 -16936
▁자정 -16937
▁매그넘 -16938
장판 -16939
▁ㄷㅏㅇㄱㅕ -16940
▁반달 -16941
▁정종 -16942
▁쳐내 -16943
▁불허 -16944
▁방정식 -16945
▁카츠키 -16946
니르 -16947
▁몽땅 -16948
▁설레 -16949
▁화룡 -16950
▁낙하산 -16951
▁잔여 -16952
▁수송선 -16953
▁프랭클린 -16954
▁케니 -16955
▁신종 -16956
▁원어 -16957
▁거리표 -16958
▁관광지 -16959
▁Soul -16960
▁이범 -16961
▁Happy -16962
ㄲㅏㄴ -16963
ther -16964
▁해프닝 -16965
탕스 -16966
▁상하이 -16967
▁성남시 -16968
▁레지스탕스 -16969
▁권역 -16970
▁몸집 -16971
▁사역 -16972
▁악보 -16973
▁ㄱㅡㅂㅎㅏㄴ -16974
▁남극 -16975
▁RPM -16976
▁화판 -16977
▁ㄱㅓㄴㅣㅇㅘ -16978
▁토토 -16979
▁퍼니 -16980
▁연안 -16981
▁테슬라 -16982
▁정윤 -16983
ader -16984
▁쌈 -16985
▁ㅈㅣㅇㅡㅁㅕ -16986
▁텐더 -16987
ERF -16988
▁대입 -16989
▁장기전 -16990
▁범주 -16991
▁성동 -16992
▁순조 -16993
▁음란 -16994
▁사비 -16995
▁마키나 -16996
▁이목 -16997
▁Nor -16998
▁기어이 -16999
▁ㅈㅕㅆㅇㅡㄴㅏ -17000
▁베르크 -17001
▁포레스트 -17002
이인 -17003
▁223 -17004
ㄹㅕㅅㅓ -17005
▁대의 -17006
▁철퇴 -17007
▁룽 -17008
▁미나토 -17009
▁ㅊㅣㄹㅡㄹ -17010
▁ㅇㅣㅈㅎㅕㅈㅣㄴ -17011
▁뭣 -17012
▁비대 -17013
▁ㅈㅣㄴㅏㄱㅏㄹ -17014
▁하자드 -17015
▁막말 -17016
▁이로 -17017
▁ㄴㅗㄹㅏ -17018
▁ㄱㅏㅁㅜㄴ -17019
▁리포 -17020
▁본드 -17021
▁갈구 -17022
▁클라우 -17023
▁임용 -17024
▁체구 -17025
▁망설이 -17026
▁아레스 -17027
자국 -17028
▁미달 -17029
▁비룡 -17030
▁역설 -17031
▁전과 -17032
▁ㄴㅏㄴㅜㄹ -17033
▁TT -17034
▁ㅁㅐㅇㅜㄴ -17035
▁법정동 -17036
▁체로 -17037
▁사요 -17038
▁엑셀 -17039
▁영조 -17040
▁his -17041
▁ㄱㅓㄹㅏ -17042
▁조나 -17043
▁코로 -17044
트리스 -17045
▁잽 -17046
▁김소 -17047
렁이 -17048
▁ㅈㅣㅊㅕ -17049
▁고모 -17050
▁바트 -17051
▁선역 -17052
▁정대 -17053
▁골고루 -17054
ㅣㄴㄷㅏㄱㅗ -17055
▁who -17056
▁산체스 -17057
▁하이브 -17058
▁ㄴㅏㅇㅗㄴㄷㅏㄱㅗ -17059
▁계승자 -17060
▁마크로스 -17061
▁코팅 -17062
▁Party -17063
▁네로 -17064
▁삽입곡 -17065
▁맨날 -17066
▁무당 -17067
▁ㅎㅐㅇㅎㅐ -17068
▁임페 -17069
▁충주 -17070
▁쿠도 -17071
▁365 -17072
▁주임 -17073
▁레프트 -17074
ㅕㄴㅐㅆ -17075
▁멱 -17076
ocal -17077
베이스 -17078
▁시종일관 -17079
▁net -17080
▁ㄴㅐㅁ -17081
벅지 -17082
▁수법 -17083
▁치밀 -17084
▁일찌감치 -17085
▁ㄹㅑ -17086
▁미용 -17087
▁충공깽 -17088
▁watch -17089
니치 -17090
▁문성 -17091
▁got -17092
▁크리드 -17093
▁Side -17094
▁투석 -17095
▁해결책 -17096
▁쩌 -17097
▁용왕 -17098
▁ㅂㅗㅇㅣㄴㄷㅏㄱㅗ -17099
▁남친 -17100
▁식인 -17101
▁음식점 -17102
▁GX -17103
▁교향곡 -17104
▁감염자 -17105
▁동명이인 -17106
▁1957 -17107
▁덕택 -17108
▁산호 -17109
▁성희 -17110
▁girl -17111
▁아르메니아 -17112
▁연성 -17113
▁ㅇㅏㅍㄷㅜㄴ -17114
▁역과 -17115
▁도입부 -17116
uz -17117
▁Sim -17118
▁붉은색 -17119
▁장학금 -17120
▁Show -17121
형제 -17122
▁시위대 -17123
▁공중전 -17124
▁여대 -17125
▁청문 -17126
OWER -17127
▁크로노스 -17128
▁노원 -17129
▁장담 -17130
▁사우디아 -17131
▁ㅇㅏㅍㅅㅔㅇㅝ -17132
▁격납 -17133
▁ㅅㅡㄹㅍㅓ -17134
▁수납 -17135
▁IF -17136
▁민트 -17137
▁얌전 -17138
▁적기 -17139
▁며느리 -17140
ga -17141
▁성범죄 -17142
▁관하 -17143
▁에티 -17144
▁경합 -17145
▁불러오 -17146
▁Edition -17147
BOX -17148
▁무너 -17149
▁Open -17150
▁무너뜨리 -17151
▁ㄱㅏㅁㅆㅏ -17152
ONE -17153
▁에러 -17154
▁아유미 -17155
▁feel -17156
▁남아공 -17157
▁보급품 -17158
▁ㅊㅏㄹㅣㄴ -17159
▁뜬공 -17160
ated -17161
▁링컨 -17162
▁ㅈㅣㄴㅎㅐㅇㅎㅏㄹ -17163
▁쟁탈전 -17164
▁에어리어 -17165
▁전복 -17166
▁370 -17167
▁브라이 -17168
▁이츠키 -17169
▁ㅇㅕㄲㅇㅣㄴ -17170
▁잣 -17171
▁크리에이터 -17172
▁ㄸㅓㄹㅇㅓㅈㅣㄴㄷㅏㄴㅡㄴ -17173
▁일기토 -17174
▁카메오 -17175
더리 -17176
rew -17177
▁작물 -17178
▁스피리 -17179
▁위태 -17180
▁플랫폼 -17181
84 -17182
▁갇 -17183
▁레타 -17184
▁재무 -17185
▁토카 -17186
▁능욕 -17187
▁임페리얼 -17188
▁터프 -17189
▁Cap -17190
▁알파벳 -17191
▁Way -17192
▁급상승 -17193
▁김호 -17194
▁카터 -17195
▁왕건 -17196
▁ㅇㅕㄱㅕㅈㅕㅆ -17197
▁빽 -17198
▁Und -17199
▁만악 -17200
▁바람직 -17201
▁빗나가 -17202
▁인플레 -17203
ASS -17204
▁평정 -17205
ley -17206
▁유수 -17207
▁윤성 -17208
▁폐하 -17209
▁대변인 -17210
▁라이토 -17211
ㅇㅜㅁㅕ -17212
ㅂㅏㄱㅎㅕ -17213
amu -17214
▁구루 -17215
▁백지 -17216
▁신년 -17217
▁Mark -17218
▁민족주의 -17219
▁키쿠 -17220
work -17221
▁ㅁㅓㄹ -17222
▁구라 -17223
▁베르나 -17224
▁아프가 -17225
▁변함 -17226
▁이도 -17227
▁바운드 -17228
▁복권 -17229
▁주루 -17230
▁특권 -17231
▁활약상 -17232
▁효력 -17233
▁ㄴㅏㄹㄹㅏ -17234
ㅇㅓㄹ -17235
▁시드니 -17236
▁쿠폰 -17237
▁총재 -17238
넘기 -17239
▁ㄱㅣㅅ -17240
▁토우마 -17241
▁남짓 -17242
▁전령 -17243
ster -17244
▁푸쉬 -17245
▁후카 -17246
▁지자체 -17247
hammer -17248
▁몸체 -17249
▁소주 -17250
▁의존도 -17251
▁헤더 -17252
▁ㅅㅔㅇㅜㄴㄷㅏ -17253
ird -17254
▁알맞 -17255
▁맞대결 -17256
▁1947 -17257
▁경순양함 -17258
▁잠식 -17259
▁정경 -17260
▁플레인 -17261
▁ㅅㅣㅁㅎㅐㅅㅓ -17262
▁상임 -17263
▁익명 -17264
▁Angel -17265
▁ㅃㅏㄹㄹㅏㅅㅓ -17266
선거 -17267
피드 -17268
▁누락 -17269
▁Pol -17270
▁맞춤 -17271
▁디에고 -17272
▁하시모토 -17273
▁꼭대기 -17274
▁출연자 -17275
▁프레드 -17276
▁천연가스 -17277
▁퍼트 -17278
▁희박 -17279
벨트 -17280
▁생포 -17281
▁도호쿠 -17282
▁소탕 -17283
▁입상 -17284
▁중추 -17285
▁SKE -17286
▁ㄱㅏㄹㄱ -17287
▁근황 -17288
▁저항군 -17289
▁기각 -17290
▁옵스 -17291
▁항우 -17292
▁FBI -17293
▁그리폰 -17294
▁의류 -17295
▁에어컨 -17296
▁ㄷㅡㄹㅇㅓㅅㅓㄴ -17297
▁자위 -17298
▁Val -17299
▁ㅅㅐㅁ -17300
▁ㅂㅜㅅㅜㄹ -17301
▁깔리 -17302
▁무패 -17303
▁차갑 -17304
▁미카엘 -17305
▁알루미 -17306
▁블루투스 -17307
▁어쩌다 -17308
▁Na -17309
▁화질 -17310
▁알코 -17311
▁엠마 -17312
▁헌납 -17313
▁버퍼 -17314
▁벼락 -17315
▁분과 -17316
▁허니 -17317
▁아야노 -17318
▁하반신 -17319
▁ㅃㅗㅂㅎㅣㄴ -17320
▁수족 -17321
▁절약 -17322
▁행세 -17323
▁방영일 -17324
▁배수량 -17325
▁화끈 -17326
▁댈러스 -17327
▁이유로 -17328
▁Comp -17329
▁micro -17330
▁카트리 -17331
▁통역 -17332
▁오리콘 -17333
▁부디 -17334
▁한성 -17335
라비아 -17336
▁명은 -17337
▁복각 -17338
▁투표율 -17339
레톤 -17340
▁교무실 -17341
IVE -17342
▁유교 -17343
▁화보 -17344
더스트 -17345
▁950 -17346
▁역전재판 -17347
ㄷㅡㄹㅇㅕㅆ -17348
▁선별 -17349
▁재주 -17350
▁그제서야 -17351
▁스켈레톤 -17352
ㄲㅇㅕㅅㅓ -17353
▁봄버 -17354
▁비열 -17355
▁234 -17356
▁ㅍㅓㅈㅣㄴ -17357
▁ㄷㅡㄹㅓㄴㅏ -17358
▁금서 -17359
▁공시 -17360
▁수분 -17361
▁트라웃 -17362
▁점포 -17363
▁추위 -17364
▁ㅇㅏㄹㅡㅁㄷㅏㅇㅜㅁ -17365
▁과잉 -17366
▁상경 -17367
▁물음 -17368
▁비운 -17369
▁예매 -17370
▁촛불 -17371
▁틀어막 -17372
▁애틀랜타 -17373
▁ㅊㅓㅎㅏㄴㄷㅏ -17374
▁ㄷㅚㄹㅅㅜㄹㅗㄱ -17375
▁엑스맨 -17376
▁아프가니스탄 -17377
캐슬 -17378
▁Stage -17379
▁상고 -17380
▁레테 -17381
▁연기자 -17382
▁로버 -17383
▁수박 -17384
▁양평 -17385
▁개화 -17386
▁부토 -17387
▁경비병 -17388
▁내공 -17389
▁Fly -17390
▁구비 -17391
▁불분 -17392
▁알몸 -17393
▁상승세 -17394
▁아스타 -17395
▁전념 -17396
▁반대쪽 -17397
▁미공개 -17398
▁life -17399
▁시연 -17400
▁엄폐물 -17401
▁ㅆㅡㄴㄷㅏㄴㅡㄴ -17402
▁249 -17403
74 -17404
고생 -17405
▁후작 -17406
해군 -17407
▁치토 -17408
▁쫓아가 -17409
▁가중 -17410
▁키시 -17411
▁박병호 -17412
▁베아 -17413
▁무방비 -17414
▁온전 -17415
▁피쳐 -17416
▁갈아입 -17417
▁번영 -17418
▁신민 -17419
▁수뇌부 -17420
▁Fall -17421
▁090 -17422
▁전염병 -17423
▁Legend -17424
▁검도 -17425
▁엘더스 -17426
▁First -17427
▁단타 -17428
▁머릿속 -17429
▁뉴캐슬 -17430
▁쥴 -17431
려보 -17432
▁유한 -17433
무로 -17434
▁사죄 -17435
▁김구라 -17436
▁219 -17437
▁중공업 -17438
▁겸비 -17439
▁미처 -17440
▁좌완 -17441
▁중론 -17442
▁245 -17443
▁ㄷㅏㅌ -17444
▁막론 -17445
▁승승 -17446
▁이석 -17447
▁중순양함 -17448
▁키사라기 -17449
치오 -17450
▁개더링 -17451
stem -17452
▁엘릭 -17453
▁웨딩 -17454
▁조현 -17455
▁검기 -17456
▁마운틴 -17457
▁불분명 -17458
ura -17459
▁불가피 -17460
▁어설트 -17461
▁호라이즌 -17462
▁전경 -17463
▁빅토리 -17464
▁ㄹㅏㅂㅅㅣㄱㅗ -17465
▁갑주 -17466
▁이관 -17467
▁빌헬 -17468
▁포메 -17469
▁진범 -17470
▁바드 -17471
▁Free -17472
▁Perf -17473
건설 -17474
소니 -17475
▁ㅈㅣㅇㅓ -17476
▁코일 -17477
▁유다 -17478
▁투르 -17479
▁후세 -17480
▁오바마 -17481
▁급습 -17482
▁세조 -17483
▁오카다 -17484
▁그리스어 -17485
tm -17486
▁부기 -17487
▁덩달 -17488
▁이문 -17489
▁자바 -17490
▁판과 -17491
▁경전철 -17492
▁ㄷㅜㄹㅡㄴ -17493
슬쩍 -17494
▁껴 -17495
▁손책 -17496
▁총회 -17497
▁화내 -17498
▁알루미늄 -17499
▁오리지날 -17500
▁자유주의 -17501
▁겁쟁이 -17502
▁Break -17503
▁ㄲㅡㅌㄴㅐㄹ -17504
▁메츠 -17505
▁죄인 -17506
▁540 -17507
▁스튜어트 -17508
▁Er -17509
▁김신 -17510
▁티거 -17511
udio -17512
만다 -17513
▁복부 -17514
▁만화가 -17515
▁프리드 -17516
▁ㅈㅓㅂㅎㅏㄴ -17517
▁준장 -17518
▁질질 -17519
▁허술 -17520
▁카자마 -17521
▁ㅋㅜㄴ -17522
▁ㄷㅗㄹㅂㅘ -17523
▁선지 -17524
▁언론사 -17525
레일리아 -17526
▁콩두 -17527
▁아벨 -17528
▁top -17529
▁송병구 -17530
▁Class -17531
▁ㄴㅡㄹㄹㅣㄹ -17532
▁로페 -17533
▁체내 -17534
▁명백히 -17535
▁ㅅㅔㅇㅝㅈㅣㄴ -17536
▁노프 -17537
▁푸른색 -17538
가요 -17539
▁부우 -17540
▁How -17541
▁성우진 -17542
▁ㅎㅏㄴㄷㅡㄹ -17543
▁명실 -17544
▁무소 -17545
▁소폭 -17546
▁운임 -17547
ling -17548
▁Final -17549
▁수혜 -17550
▁갈아타 -17551
▁대리인 -17552
▁ㅊㅣㅇㅝ -17553
▁무리수 -17554
▁유죄 -17555
▁ㅈㅣㄹㅅㅜㄹㅗㄱ -17556
▁케로로 -17557
err -17558
▁반하 -17559
▁비평 -17560
▁타지 -17561
▁선상 -17562
피어 -17563
▁쇼군 -17564
▁쌍용 -17565
▁악수 -17566
▁열렬 -17567
페어 -17568
▁유체 -17569
▁오우거 -17570
▁GDP -17571
▁ㄴㅜㄴㅊㅣㅊㅐㄴ -17572
▁If -17573
▁440 -17574
▁동유럽 -17575
▁파워레인저 -17576
▁법조 -17577
TH -17578
▁창출 -17579
yes -17580
▁신격 -17581
▁Never -17582
▁수제 -17583
▁앤더슨 -17584
▁지명타자 -17585
▁루기 -17586
▁망각 -17587
▁베레 -17588
▁자치령 -17589
▁쥬라기 -17590
▁로토 -17591
▁엠블럼 -17592
▁City -17593
▁뚱뚱 -17594
▁세가 -17595
▁잔재 -17596
▁한승 -17597
▁Spring -17598
▁나카노 -17599
▁빈센트 -17600
▁ㅇㅡㄴㄱㅏ -17601
▁평지 -17602
▁김정일 -17603
arius -17604
▁슬래 -17605
▁조니 -17606
▁ㅆㅡㄴㄷㅏㅁㅕㄴ -17607
영수 -17608
▁또래 -17609
▁밀러 -17610
▁하얀색 -17611
ux -17612
▁박히 -17613
▁번번 -17614
▁벤츠 -17615
▁중파 -17616
▁Cor -17617
▁사우디아라비아 -17618
ㅇㅢ -17619
▁Down -17620
▁ㅇㅣㅈㅇㅓㅂㅓㄹ -17621
▁스투 -17622
▁제복 -17623
▁카라스 -17624
▁ㄲㅣㅊㅕㅆ -17625
▁김제 -17626
▁224 -17627
▁동급생 -17628
AGE -17629
▁MAN -17630
▁안테나 -17631
▁사냥터 -17632
▁이니셜 -17633
▁무안타 -17634
▁품종 -17635
그라드 -17636
ause -17637
▁이시카와 -17638
▁하나님 -17639
▁분화 -17640
▁헤지 -17641
▁1951 -17642
▁ㄷㅗㄹㄹㅣㄴ -17643
고쿠 -17644
▁일개 -17645
▁Mon -17646
▁AW -17647
▁린다 -17648
▁ㄹㅗㅅㅓㄴ -17649
▁자재 -17650
▁한국군 -17651
▁신태 -17652
▁난장판 -17653
▁ㅇㅘㅆㅇㅡㅁㅕ -17654
▁광폭 -17655
▁우먼 -17656
▁PRO -17657
▁체크카드 -17658
▁선후 -17659
▁우려먹 -17660
▁의뢰인 -17661
▁지중 -17662
▁삿포로 -17663
▁티라노 -17664
▁ㄱㅕㅂㅊㅕㅅㅓ -17665
▁청주시 -17666
피온 -17667
▁시녀 -17668
▁어로 -17669
▁하쿠 -17670
즐리 -17671
tain -17672
▁팰리스 -17673
제리 -17674
▁ㄱㅗㄹㅡㄴ -17675
영향 -17676
▁sk -17677
▁나지 -17678
▁직진 -17679
▁편도 -17680
▁나오키 -17681
스부르크 -17682
▁도메 -17683
▁마석 -17684
▁세이부 -17685
▁KCC -17686
▁cont -17687
▁대전광역시 -17688
▁ㅎㅑㅇㅎㅐㅆ -17689
▁바알 -17690
▁한중 -17691
▁GOT -17692
▁베토 -17693
▁전우 -17694
현동 -17695
▁오스틴 -17696
▁1914 -17697
▁성품 -17698
▁메가트론 -17699
REME -17700
라이언트 -17701
▁ㄷㅗㅁㅏㅇㅊㅣㄹ -17702
▁최원 -17703
▁사복 -17704
▁연호 -17705
▁ㅎㅐㄴㅐㄹ -17706
▁ㅎㅓㅁㅎㅏㄴ -17707
▁ㅇㅕㄱㅣㄴㄷㅏ -17708
▁니퍼 -17709
▁ㄷㅟㅌㅡㄹ -17710
▁BP -17711
▁승계 -17712
▁오산 -17713
블루 -17714
▁ㅌㅟㅇㅓㄴㅏㅇㅘ -17715
▁맥시 -17716
▁성령 -17717
▁반납 -17718
▁끝없이 -17719
▁클라이언트 -17720
▁엠블렘 -17721
▁9000 -17722
▁불발 -17723
▁저음 -17724
▁ㅌㅟㅇㅓㄴㅏㅇㅗㄴ -17725
IME -17726
▁염동 -17727
▁서스펜 -17728
▁레니 -17729
▁이형 -17730
▁숙지 -17731
▁226 -17732
▁ㄷㅡㄹㅇㅡㅁㅕ -17733
재욱 -17734
▁베로 -17735
▁청취 -17736
▁판본 -17737
▁행군 -17738
▁ㅎㅓㄹ -17739
▁노라 -17740
▁짱구 -17741
▁건축물 -17742
▁갇히 -17743
▁투여 -17744
▁ㅅㅣㅋㅣㄴㄷㅏㄴㅡㄴ -17745
▁결단 -17746
리히 -17747
▁Sn -17748
▁주주 -17749
칼리버 -17750
raft -17751
▁ㄴㅔㄹ -17752
▁인승 -17753
▁ㄲㅏㄴㄷㅏ -17754
신기 -17755
▁수전 -17756
▁밸브 -17757
▁저널 -17758
▁현무 -17759
▁ㅉㅗㄱ -17760
▁알트 -17761
▁애시당초 -17762
▁순항 -17763
▁Swe -17764
▁야스오 -17765
▁띵 -17766
▁시리우스 -17767
나시 -17768
다듬 -17769
▁마카오 -17770
▁코우지 -17771
▁위닝 -17772
▁이송 -17773
▁입당 -17774
▁end -17775
erry -17776
▁신봉 -17777
▁Mem -17778
▁위저드 -17779
▁ㄱㅏㅇㅎㅏㅁ -17780
▁소란 -17781
▁허벅지 -17782
김없이 -17783
▁"' -17784
▁말살 -17785
▁서동 -17786
▁시프 -17787
iny -17788
▁정치력 -17789
안군 -17790
▁곡사 -17791
▁광동 -17792
▁악장 -17793
▁회유 -17794
▁공채 -17795
▁밀접 -17796
▁뻔하 -17797
코스터 -17798
▁가늠 -17799
▁최형우 -17800
▁니즈 -17801
▁야인 -17802
▁국무총리 -17803
▁꾹 -17804
▁읊 -17805
평균 -17806
▁ㅎㅟㅁㅏㄹ -17807
▁ㅁㅣㄹㄹㅕㅅㅓ -17808
▁ㄴㅐㄹㅕㅇㅘ -17809
▁들려주 -17810
▁ㅈㅣㄴㅎㅏㄴ -17811
▁ㄸㅟㅇㅓㄴㅏㅆ -17812
요리 -17813
▁make -17814
▁명왕 -17815
▁부끄 -17816
▁샬롯 -17817
▁다이빙 -17818
▁예술가 -17819
▁훈련소 -17820
▁쎄 -17821
▁티모 -17822
▁롤러코스터 -17823
▁사생 -17824
▁슬립 -17825
▁몸싸움 -17826
▁변속기 -17827
대표 -17828
▁라니 -17829
▁리제 -17830
▁월터 -17831
▁서재 -17832
▁페달 -17833
▁ㅍㅡㄴ -17834
▁숨결 -17835
▁요양 -17836
▁쇼타 -17837
▁브래드 -17838
83 -17839
▁합금 -17840
▁들이대 -17841
▁보호자 -17842
▁그레이브 -17843
▁ㄴㅗㅎㅇㅣㄴ -17844
▁ㅎㅗㄴ -17845
테라 -17846
▁ㅇㅣㄱㅎㅕ -17847
▁011 -17848
▁ㄴㅐㄹㅕㄱㅏ -17849
▁빙글 -17850
▁허다 -17851
▁시메 -17852
▁평준 -17853
▁ㄴㅏㄴㄷㅏㄱㅗ -17854
▁양양 -17855
▁블로킹 -17856
▁자택 -17857
▁베네치아 -17858
▁ㅈㅣㄴㄷㅏㄱㅗ -17859
소통 -17860
▁1937 -17861
▁의사소통 -17862
▁짓밟 -17863
▁칼질 -17864
▁호각 -17865
▁APC -17866
▁검색어 -17867
▁끊이 -17868
▁반죽 -17869
▁버금 -17870
de -17871
▁험악 -17872
▁ㅇㅑㅁㅏㄹㄹㅗ -17873
▁ㅂㅓㅅㅇㅓㄴㅏㅆ -17874
▁고뇌 -17875
▁생계 -17876
▁에버튼 -17877
▁미약 -17878
▁방망 -17879
▁노선도 -17880
▁오스트레일리아 -17881
▁과반 -17882
▁폴라 -17883
ㄲㅇㅕㅆ -17884
ival -17885
▁ㅈㅓㅇㅎㅏㄴㄷㅏ -17886
테리어 -17887
▁세계수 -17888
▁ㄱㅣㄹㄹㅓ -17889
▁ㅎㅡㄹㄹㅓㄴ -17890
살렘 -17891
▁play -17892
▁ㄷㅡㄹㅋㅕ -17893
▁탄두 -17894
▁토바 -17895
▁포자 -17896
▁사츠키 -17897
▁보성 -17898
▁어시 -17899
▁조개 -17900
▁착수 -17901
▁제너럴 -17902
▁코요미 -17903
▁RX -17904
루살렘 -17905
리즘 -17906
▁크리스토퍼 -17907
▁반려 -17908
▁캠핑 -17909
▁키치 -17910
▁중산 -17911
▁애리조 -17912
▁착취 -17913
▁강령 -17914
▁카르텔 -17915
▁ㄷㅏㄹㄹㅣㄴㄷㅏ -17916
▁달래 -17917
▁간절 -17918
▁린이 -17919
▁ㅊㅣㄴㅡㄴ -17920
▁이강 -17921
▁큐트 -17922
가르드 -17923
▁연구자 -17924
▁만우 -17925
▁건의 -17926
▁양말 -17927
▁피그 -17928
▁Christ -17929
▁김은 -17930
▁ㄷㅏㄴㄷㅏ -17931
▁PT -17932
▁원성 -17933
▁야마자키 -17934
▁ㅎㅐㄴㅐㄴㄷㅏ -17935
▁일생 -17936
▁톱니 -17937
ㄴㅐㄴ -17938
▁사상자 -17939
▁잔소리 -17940
▁얍 -17941
ATE -17942
▁part -17943
▁아니하 -17944
▁ㅅㅏㄹㅍㅕ -17945
▁원상 -17946
▁판단력 -17947
▁ㅈㅏㅁㄷㅡㄴ -17948
▁ㅇㅏㄹㅇㅏㅊㅏㄹ -17949
▁츳 -17950
▁쌍검 -17951
▁펠트 -17952
▁375 -17953
▁ㄹㅣㄴ -17954
RO -17955
▁라리 -17956
▁근위 -17957
▁래리 -17958
▁면도 -17959
▁지하실 -17960
▁경시 -17961
▁생방송 -17962
먼드 -17963
하니 -17964
▁춘추 -17965
▁ㄱㅜㅇㅝ -17966
▁디럭스 -17967
모델 -17968
▁매도 -17969
▁흉기 -17970
22 -17971
▁사찰 -17972
▁위아 -17973
▁aqu -17974
que -17975
▁편애 -17976
ㅟㄹ -17977
▁233 -17978
▁쫓아내 -17979
▁뺑 -17980
▁외장 -17981
▁찬사 -17982
걸음 -17983
▁정무 -17984
▁미도 -17985
▁컬링 -17986
▁ㅌㅓㄹㄹㅕㅆ -17987
▁걸치 -17988
▁410 -17989
▁Hol -17990
▁골짜기 -17991
▁Come -17992
▁ㄷㅚㄴㄷㅏㅁㅕ -17993
썰트 -17994
임수 -17995
▁고안 -17996
▁어썰트 -17997
넌트 -17998
하늘 -17999
▁성원 -18000
▁유승민 -18001
▁ㅅㅣㅀㅇㅓㅎㅏㄴㄷㅏ -18002
▁러스트 -18003
▁EXTREME -18004
ONG -18005
▁again -18006
린더 -18007
▁김한 -18008
▁슈리 -18009
▁충원 -18010
▁나주 -18011
이즈미 -18012
▁애니메이터 -18013
▁노획 -18014
▁태후 -18015
▁줄리아 -18016
이라 -18017
▁예루살렘 -18018
전함 -18019
▁설진 -18020
▁오보 -18021
▁악영향 -18022
▁스테이크 -18023
▁ㅂㅓㄹㅇㅣㄹ -18024
▁악평 -18025
▁투수진 -18026
▁애니플러스 -18027
▁고철 -18028
▁곧장 -18029
▁한복 -18030
▁아르타 -18031
ㄴㅐ -18032
▁이달 -18033
▁ㄲㅐㅈㅣㄴ -18034
▁Club -18035
lo -18036
▁KE -18037
▁필적 -18038
idd -18039
▁레코 -18040
▁북서 -18041
▁싱크로 -18042
▁앤드류 -18043
▁ㅅㅓㄴㅈㅣ -18044
▁ㅈㅏㄶㅇㅏㅇㅛ -18045
ino -18046
▁급여 -18047
▁성시 -18048
erg -18049
▁조승 -18050
▁화가 -18051
▁만우절 -18052
▁진전 -18053
▁노홍철 -18054
▁겉모습 -18055
▁이메일 -18056
▁ㅆㅡㄴㄷㅏㄱㅗ -18057
▁ㄴㅏㅇㅘㅆㅇㅓㅆ -18058
▁ㅂㅏㄷㅇㅏㄷㅡㄹㅇㅣㄴ -18059
▁깍 -18060
▁식별 -18061
사람 -18062
▁실탄 -18063
▁전패 -18064
▁포상 -18065
▁대구경 -18066
▁파주 -18067
▁편집자 -18068
▁MIX -18069
▁레이카 -18070
일기 -18071
▁명확히 -18072
▁hp -18073
▁순례 -18074
▁파탄 -18075
▁소프 -18076
▁스맥 -18077
▁둔기 -18078
▁블레 -18079
▁스맥다운 -18080
▁린치 -18081
▁백병 -18082
▁never -18083
▁류우 -18084
▁수퍼 -18085
▁황소 -18086
▁Cry -18087
▁코러스 -18088
▁레전더리 -18089
▁ㅈㅏㄹㅅㅐㅇㄱㅣㄴ -18090
▁적과 -18091
▁항쟁 -18092
ya -18093
▁알코올 -18094
▁에노 -18095
▁오승 -18096
▁진기 -18097
▁김종국 -18098
▁스미레 -18099
▁레볼루션 -18100
▁ㄴㅐㅈㅜㄴ -18101
▁수산 -18102
▁폰트 -18103
베르크 -18104
▁차우 -18105
aker -18106
▁그분 -18107
▁재차 -18108
▁성희롱 -18109
▁개칭 -18110
▁어부 -18111
▁참모총장 -18112
▁블랑 -18113
▁성취 -18114
▁세카 -18115
▁코만 -18116
▁미완성 -18117
▁긋 -18118
▁본거지 -18119
▁멩 -18120
▁유원 -18121
▁절감 -18122
▁구이 -18123
▁안장 -18124
▁퍼플 -18125
▁슬로건 -18126
▁교목 -18127
▁시어터 -18128
MC -18129
▁귤 -18130
▁SMG -18131
▁미네랄 -18132
▁성소 -18133
▁인원수 -18134
해야 -18135
▁xx -18136
▁WHIP -18137
▁heart -18138
▁ㄹㅗㄴㄱㅏ -18139
▁음력 -18140
▁이바 -18141
▁이장 -18142
▁라이덴 -18143
▁ㄷㅚㅅㅏㄹㅇㅏㄴ -18144
▁강서구 -18145
▁ㅌㅗㅇㅎㅏㄴㄷㅏ -18146
▁마우 -18147
▁젠지 -18148
▁증표 -18149
▁틈새 -18150
공주 -18151
▁티격 -18152
▁CIA -18153
▁독도 -18154
▁밧줄 -18155
▁치과 -18156
▁악세사리 -18157
▁환원 -18158
▁어휘 -18159
▁동탄 -18160
▁루시안 -18161
▁ㄱㅣㅅㄷㅡㄴ -18162
▁큰일 -18163
▁ㅅㅡㅁ -18164
▁벳 -18165
회의 -18166
▁KA -18167
▁카오 -18168
▁has -18169
▁신드 -18170
▁정시 -18171
▁ㅈㅏㅁㄱㅕ -18172
▁머독 -18173
BY -18174
▁겨누 -18175
▁관용 -18176
▁제명 -18177
▁이에야스 -18178
▁밤중 -18179
▁신빙 -18180
▁이탈리아어 -18181
▁Ah -18182
▁쇼코 -18183
▁수당 -18184
▁실감 -18185
▁동결 -18186
▁설문 -18187
▁하남 -18188
▁격변 -18189
▁ㄱㅓㄷㅡㄴㅇㅛ -18190
▁땜 -18191
관계 -18192
▁미주 -18193
▁동남아 -18194
▁di -18195
▁시정 -18196
▁지상군 -18197
▁수렴 -18198
▁윤종신 -18199
▁무로 -18200
▁호문 -18201
▁은혼 -18202
▁ㄷㅏㄷㅓㄴ -18203
▁ㄱㅣㅂㅗㄷㅏㄴ -18204
HN -18205
cy -18206
▁ㄷㅗㅇㅜㄹ -18207
▁대도 -18208
▁쿄스케 -18209
▁눈보라 -18210
▁마사토 -18211
▁ㅊㅐㅇㄱㅕㅆ -18212
▁개종 -18213
▁찔 -18214
열차 -18215
▁ㅁㅜㄹㄹㅓ -18216
르슈 -18217
▁bb -18218
▁경대 -18219
▁몰입 -18220
▁채무 -18221
▁최연 -18222
▁수사관 -18223
자치단체 -18224
▁only -18225
▁ㅇㅘㄷㅗ -18226
▁에너 -18227
▁일루 -18228
▁데니스 -18229
▁쁘 -18230
▁순차 -18231
▁평이 -18232
▁고아원 -18233
NG -18234
▁돗 -18235
일본 -18236
▁Will -18237
▁민심 -18238
anger -18239
▁PH -18240
▁납품 -18241
▁미우 -18242
▁뜬금없 -18243
▁간첩 -18244
▁마자 -18245
▁유부 -18246
▁NORM -18247
▁ㄲㅐㄴ -18248
▁\] -18249
▁매입 -18250
▁옴니 -18251
▁투항 -18252
▁해설자 -18253
▁ㅆㅏㅇㅣㄴ -18254
▁1919 -18255
▁페미니스트 -18256
▁볶음 -18257
▁덤벼 -18258
▁올인 -18259
▁카프 -18260
▁ㄱㅏㅈㅕㄱㅏㄴㄷㅏ -18261
▁다이노 -18262
▁카모 -18263
▁콘테스트 -18264
▁유키노 -18265
▁Girls -18266
▁ㄱㅏㄹㅣㅋㅣㄴㄷㅏ -18267
▁개리 -18268
▁뻔뻔 -18269
▁브로드 -18270
▁ㄴㅏㅌㅏㄴㅐㄴㄷㅏ -18271
▁우크 -18272
▁체이서 -18273
▁화전 -18274
▁ㅅㅏㄹㅇㅏㅇㅗㄴ -18275
OUR -18276
▁전쟁터 -18277
▁ㄸㅓㅇㅗㄹㄹㅏㅆ -18278
▁수료 -18279
▁컨퍼런스 -18280
▁우크라이나 -18281
▁각별 -18282
▁자음 -18283
▁전황 -18284
▁용호 -18285
▁우대 -18286
▁마이티 -18287
▁MY -18288
▁외환 -18289
▁차크라 -18290
▁ㄷㅐㄹ -18291
▁XC -18292
▁연하 -18293
▁김종민 -18294
ORA -18295
▁게재 -18296
▁다마 -18297
▁열광 -18298
▁최하위 -18299
▁복수심 -18300
쩌둥 -18301
▁임재 -18302
▁마오쩌둥 -18303
▁ㄱㅗㄹㄹㅏㅅㅓ -18304
▁메트 -18305
▁미코 -18306
▁ㅁㅓㅁㅊㅜㄹ -18307
▁포커 -18308
86 -18309
▁체르 -18310
▁랠 -18311
전대 -18312
▁우선시 -18313
▁트롤링 -18314
ument -18315
▁음악가 -18316
onder -18317
메리카 -18318
▁NORMAL -18319
▁뿌요 -18320
▁ㄲㅜㅁㅕ -18321
▁포메이션 -18322
차리 -18323
▁부전 -18324
▁페이퍼 -18325
▁인테리어 -18326
ㅇㅓㄴㅐㄴ -18327
▁라파엘 -18328
▁서큐버스 -18329
▁천진 -18330
▁첨부 -18331
▁here -18332
▁켐 -18333
푸스 -18334
▁에이미 -18335
▁제후 -18336
▁스턴트 -18337
▁월등히 -18338
▁프렌드 -18339
▁해인 -18340
▁성공회 -18341
▁RB -18342
▁자백 -18343
▁정근 -18344
▁타쿠야 -18345
▁시술 -18346
▁짝퉁 -18347
폴리스 -18348
▁난쟁이 -18349
▁배반 -18350
팔로 -18351
▁액수 -18352
▁ㅁㅏㅇㄱㅏㅈㅣㄴ -18353
▁Sol -18354
▁Great -18355
▁ㅋㅓㅈㅣㄴ -18356
▁스커 -18357
▁활력 -18358
▁아이젠 -18359
▁후지와라 -18360
불리 -18361
▁여중 -18362
▁뻐 -18363
▁연장전 -18364
▁Best -18365
▁소대장 -18366
▁알라딘 -18367
▁ㄱㅓㄷㅝ -18368
▁ㅍㅜㄴ -18369
▁ㄲㅓㅈㅕ -18370
ball -18371
▁문과 -18372
▁수년 -18373
▁초심 -18374
▁한판 -18375
▁ㅃㅐㄷㅗ -18376
▁보크 -18377
▁MUS -18378
▁부상자 -18379
▁비서관 -18380
▁사드 -18381
▁우의 -18382
▁EXO -18383
▁장대 -18384
▁ㅈㅓㅇㅎㅐㅆ -18385
▁궤멸 -18386
▁연마 -18387
▁SEED -18388
▁개전 -18389
▁피노 -18390
▁능하 -18391
▁조짐 -18392
▁나츠메 -18393
▁시끄럽 -18394
▁연화 -18395
디우스 -18396
▁미식축구 -18397
▁사대 -18398
osh -18399
▁ㅇㅘㄴ -18400
▁제네레이션 -18401
▁ㅈㅣㄴㅏㄱㅏㄴ -18402
샤인 -18403
▁악연 -18404
▁증강 -18405
오버 -18406
▁비터 -18407
▁남산 -18408
▁페트 -18409
[...]
