[PAD]	0
[UNK]	0
[BOS]	0
[EOS]	0
[CLS]	0
[SEP]	0
[MASK]	0
▁▃	-0
▁ㅇ	-1
▁ㄱ	-2
▁ㄷ	-3
▁ㅎ	-4
▁ㅇㅣ	-5
▁ㅈ	-6
▁ㅅ	-7
▁ㄴ	-8
ㅡㄴ	-9
ㅡㄹ	-10
ㅏㄴ	-11
▁ㅁ	-12
▁ㅂ	-13
▁ㄹ	-14
▁.	-15
▁ㅇㅔ	-16
▁ㄷㅏ	-17
▁ㄴㅡㄴ	-18
▁ㅎㅏ	-19
ㅓㄴ	-20
ㅏㅇ	-21
ㅇㅣ	-22
▁ㅇㅢ	-23
▁ㄱㅏ	-24
ㅕㄴ	-25
▁ㅇㅡㄹ	-26
ㅅㅓ	-27
▁ㅊ	-28
▁ㄱㅗ	-29
▁ㅇㅓ	-30
▁,	-31
ㄹㅗ	-32
ㄹㅣ	-33
▁ㅍ	-34
▁ㅇㅏ	-35
ㅜㄴ	-36
▁ㅈㅣ	-37
ㅈㅣ	-38
ㅕㅇ	-39
▁ㄷㅗ	-40
▁ㅎㅏㄴ	-41
ㄷㅏ	-42
▁ㄹㅡㄹ	-43
▁ㅅㅣ	-44
▁ㅇㅡㄴ	-45
▁ㅌ	-46
ㅅㅣ	-47
▁ㄱㅣ	-48
▁ㅋ	-49
ㅓㅇ	-50
▁ㅇㅡ	-51
ㅏㄹ	-52
ㅅㅡ	-53
ㅜㄹ	-54
▁ㄹㅗ	-55
▁ㅎㅐ	-56
ㅏㄱ	-57
ㅗㅇ	-58
▁ㅇㅣㅆ	-59
▁ㄱㅡ	-60
▁1	-61
▁ㄷㅚ	-62
ㅕㄱ	-63
▁ㅅㅏ	-64
▁ㄱㅓ	-65
ㅗㄱ	-66
▁2	-67
▁ㅈㅜ	-68
ㅗㄴ	-69
▁ㄸ	-70
▁ㄴㅏ	-71
ㅇㅓ	-72
ㅡㅇ	-73
▁ㅇㅣㄴ	-74
ㄱㅣ	-75
ㅓㄱ	-76
▁ㅁㅏ	-77
ㄴㅏ	-78
ㄹㅏ	-79
▁ㄷㅡㄹ	-80
▁ㄱㅔ	-81
▁ㄱㅘ	-82
▁ㄷㅐ	-83
▁ㅈㅏ	-84
▁ㅂㅗ	-85
ㄱㅏ	-86
▁ㅅㅜ	-87
▁ㄹㅏ	-88
ㄱㅗ	-89
ㄷㅗ	-90
ㅐㅇ	-91
ㅜㄱ	-92
▁ㅇㅕ	-93
▁ㅇㅘ	-94
ㅓㅁ	-95
▁ㅇㅣㄹ	-96
▁ㅁㅗ	-97
ㄴㅣ	-98
ㄷㅡ	-99
ㅓㄹ	-100
▁ㅈㅓㄴ	-101
▁ㅇㅓㅆ	-102
ㅝㄴ	-103
ㅌㅡ	-104
ㅇㅣㄴ	-105
ㅅㅏ	-106
ㅇㅜ	-107
▁ㅁㅕㄴ	-108
ㅈㅏㅇ	-109
ㅁㅏㄴ	-110
ㅇㅛ	-111
▁ㅈㅓㄱ	-112
▁ㄲ	-113
▁ㅅㅡ	-114
▁ㅂㅜ	-115
▁ㅂㅏ	-116
▁ㄱㅓㅅ	-117
▁-	-118
▁ㅁㅏㄴ	-119
ㄷㅐ	-120
ㅈㅏ	-121
ㅡㅁ	-122
▁ㅇㅗ	-123
ㅊㅣ	-124
▁ㅎㅐㅆ	-125
ㄹㅓ	-126
▁ㅈㅓㅇ	-127
ㅎㅐ	-128
▁ㅁㅣ	-129
▁ㅎㅘ	-130
▁ㅅㅏㅇ	-131
▁ㅈㅗ	-132
ㅁㅣ	-133
▁ㄸㅐ	-134
ㅕㄹ	-135
▁ㅇㅠ	-136
▁'	-137
ㅎㅏ	-138
ㅎㅘ	-139
ㅌㅓ	-140
ㄴㅡㄴ	-141
▁3	-142
▁ㅂㅣ	-143
ㅇㅑ	-144
▁ㄴㅕㄴ	-145
ㅇㅏ	-146
ㄷㅔ	-147
▁ㅎㅏㄴㄷㅏ	-148
ㅅㅜ	-149
ㅈㅓㅇ	-150
ㅈㅓㄴ	-151
ㅅㅏㅇ	-152
▁ㄱㅗㅇ	-153
ㅈㅜ	-154
▁ㅈㅔ	-155
ㄱㅔ	-156
▁20	-157
ㅐㄱ	-158
▁ㅈㅜㅇ	-159
ㅎㅣ	-160
▁ㄷㅚㄴ	-161
▁ㄱㅕㅇ	-162
▁ㅇㅟ	-163
ㄹㅕㄱ	-164
▁ㅆ	-165
ㅇㅛㅇ	-166
ㅎㅏㄴ	-167
ㄹㅕ	-168
▁ㅊㅏ	-169
▁ㅅㅗ	-170
ㅈㅔ	-171
▁ㅇㅓㅄ	-172
▁ㅁㅜ	-173
ㄱㅜㄱ	-174
ㅅㅣㄴ	-175
▁:	-176
▁ㄷㅡㅇ	-177
ㅁㅜㄴ	-178
ㄹㅡ	-179
ㄹㅐ	-180
▁ㄴㅗ	-181
ㅁㅕㄴ	-182
▁ㅅㅔ	-183
ㅂㅜ	-184
ㅡㄱ	-185
▁ㅅㅓㅇ	-186
ㅑㅇ	-187
ㅋㅣ	-188
ㅁㅏ	-189
▁ㅎㅏㄹ	-190
ㅅㅓㅇ	-191
ㄱㅜ	-192
ㄹㅔ	-193
▁ㅇㅏㄶ	-194
ㅇㅗ	-195
▁ㄱㅐ	-196
ㄱㅕㄱ	-197
▁ㄷㅓㄴ	-198
ㅝㄹ	-199
▁ㅁㅕ	-200
ㄱㅘ	-201
ㄱㅏㄴ	-202
ㅌㅏ	-203
▁ㅌㅏ	-204
▁4	-205
ㄷㅗㅇ	-206
▁ㅅㅓ	-207
▁ㄱㅜ	-208
▁ㄷㅡ	-209
ㅂㅓ	-210
▁ㄹㅣ	-211
▁ㄴㅐ	-212
ㄱㅡ	-213
▁"	-214
▁ㅂㅓ	-215
ㅇㅝㄴ	-216
ㅈㅣㄴ	-217
▁5	-218
▁ㅈㅏㅇ	-219
ㅇㅣㄹ	-220
▁ㄷㅗㅇ	-221
▁ㅋㅏ	-222
▁ㅂㅏㅇ	-223
▁ㅍㅣ	-224
▁ㄹㅔ	-225
▁ㅇㅝㄹ	-226
▁ㅅㅣㄴ	-227
ㄹㄹㅣ	-228
▁ㅇㅕㄴ	-229
▁ㅇㅛ	-230
▁ㅊㅣ	-231
▁ㅅㅓㄴ	-232
ㅂㅣ	-233
▁ㅎㅜ	-234
ㅇㅠ	-235
▁ㅇㅜ	-236
ㅊㅔ	-237
▁201	-238
▁ㄲㅏ	-239
▁/	-240
▁ㅇㅏㄴ	-241
ㅅㅓㄴ	-242
▁ㅇㅕㅇ	-243
▁ㅃ	-244
▁ㄷㅏㅇ	-245
▁ㅁㅏㄹ	-246
▁ㅅㅐㅇ	-247
▁ㅂㅏㄹ	-248
▁ㄷㅓ	-249
ㅈㅏㄱ	-250
ㄱㅓ	-251
▁ㅇㅑ	-252
▁ㄴㅡㄴㄷㅔ	-253
ㅋㅡ	-254
ㅅㅗ	-255
▁ㄷㅔ	-256
▁0	-257
▁ㅈㅣㄴ	-258
▁ㅍㅏ	-259
ㅁㅕㅇ	-260
ㅁㅜ	-261
▁ㅇㅝㄴ	-262
ㅈㅡ	-263
ㄱㅖ	-264
ㅇㅕ	-265
▁ㅊㅓ	-266
▁ㅍㅗ	-267
ㅣㅁ	-268
ㅐㄴ	-269
ㅋㅏ	-270
ㅈㅐ	-271
▁ㄱㅏㅇ	-272
▁ㅊㅜ	-273
ㅅㅣㄱ	-274
ㅇㅜㄴ	-275
ㄹㅡㄴ	-276
ㅂㅗ	-277
▁ㅅㅣㄹ	-278
▁ㅉ	-279
▁ㅊㅚ	-280
▁ㅋㅗ	-281
▁ㅂㅜㄹ	-282
ㅌㅣ	-283
▁ㄱㅏㅌ	-284
ㅇㅣㅁ	-285
▁ㅁㅕㅇ	-286
▁ㅁㅜㄴ	-287
ㅅㅣㄹ	-288
ㅁㅜㄹ	-289
ㅇㅘ	-290
▁ㄷㅏㄴ	-291
ㅁㅕ	-292
ㅈㅓ	-293
ㄴㅡㅇ	-294
ㅎㅜ	-295
▁ㅂㅓㄴ	-296
ㄷㅏㅇ	-297
▁ㅁㅏㄶ	-298
ㅇㅟ	-299
ㅇㅢ	-300
▁ㅇㅕㅆ	-301
▁ㄷㅚㄴㄷㅏ	-302
▁ㅎㅚ	-303
▁6	-304
ㄹㅏㅁ	-305
▁ㅈㅏㄱ	-306
▁ㅂㅐ	-307
▁ㄱㅘㄴ	-308
▁ㅌㅡㄱ	-309
▁ㅎㅗ	-310
ㅎㅐㅇ	-311
ㅇㅕㄱ	-312
ㄹㅜ	-313
▁ㅇㅕㄱ	-314
ㄷㅏㄴ	-315
ㅇㅡㅁ	-316
▁ㅁㅔ	-317
ㅌㅗ	-318
▁ㅂㅏㄷ	-319
ㅍㅡ	-320
ㅁㅗ	-321
▁ㄱㅕㅇㅇㅜ	-322
ㄷㅣ	-323
▁10	-324
▁ㅇㅏㅆ	-325
▁ㅂㅏㄴ	-326
▁ㄱㅕㄹ	-327
ㄷㅡㄹ	-328
▁ㅍㅡ	-329
ㅍㅣ	-330
ㄱㅗㅇ	-331
ㅊㅏ	-332
▁ㅊㅗ	-333
▁ㅈㅓ	-334
ㄱㅛ	-335
▁ㅁㅐ	-336
ㅅㅔ	-337
▁S	-338
▁7	-339
ㅕㅆ	-340
ㅂㅜㄴ	-341
▁ㄱㅖ	-342
ㅅㅗㄱ	-343
ㅂㅏㄴ	-344
▁ㅁㅕㄴㅅㅓ	-345
▁ㄴㅣ	-346
ㄴㅐ	-347
▁ㅇㅏㄹ	-348
ㅂㅗㄴ	-349
ㅈㅗ	-350
▁19	-351
▁!	-352
▁ㄱㅓㄴ	-353
▁8	-354
ㅌㅔ	-355
ㅈㅓㅁ	-356
ㅎㅏㄱ	-357
▁ㄴㅏㅁ	-358
ㅅㅐㅇ	-359
▁ㅂㅜㄴ	-360
ㄹㅓㄴ	-361
ㅈㅜㅇ	-362
▁ㅁㅜㄹ	-363
▁ㅋㅐ	-364
ㄱㅏㄱ	-365
▁ㅎㅏㅁ	-366
▁ㅍㅕㄴ	-367
▁ㅂㅗㄴ	-368
▁ㅋㅣ	-369
ㅇㅕㄴ	-370
ㅎㅚ	-371
▁ㅊㅜㄹ	-372
▁ㅎㅕㄴ	-373
ㄹㅗㄱ	-374
ㅅㅏㄴ	-375
ㅔㄹ	-376
ㅜㅁ	-377
▁ㅋㅡ	-378
▁ㄱㅜㄱ	-379
ㄹㅣㄴ	-380
▁ㄱㅗㅇㄱㅕㄱ	-381
▁9	-382
▁ㅁㅗㅅ	-383
▁ㅈㅓㅇㄷㅗ	-384
ㄹㅡㅁ	-385
ㄹㅠ	-386
▁ㄸㅏ	-387
▁ㅇㅖ	-388
▁ㅈㅗㅎ	-389
ㅋㅗ	-390
ㅌㅐ	-391
ㄴㅗ	-392
ㄱㅜㄴ	-393
▁ㅇㅐ	-394
ㅎㅗ	-395
▁A	-396
▁ㅍㅐ	-397
ㄱㅘㄴ	-398
▁ㅇㅣㅂ	-399
▁ㅈㅓㅁ	-400
▁ㄷㅜ	-401
ㄱㅡㅂ	-402
▁M	-403
▁ㅈㅐ	-404
▁ㄱㅏㅁ	-405
▁ㅌㅡ	-406
ㅈㅜㄴ	-407
▁ㄷㅡㅇㅈㅏㅇ	-408
ㅇㅡ	-409
▁ㄷㅣ	-410
ㅂㅏ	-411
ㅇㅕㅇ	-412
ㄷㅜ	-413
▁ㅎㅏㄱ	-414
▁ㅌㅗㅇ	-415
▁ㄱㅛ	-416
▁ㅊㅏㅁ	-417
ㄱㅡㅁ	-418
ㅇㅏㄴ	-419
ㅇㅗㄴ	-420
▁ㄸㅗ	-421
ㅂㅡ	-422
▁ㅌㅔ	-423
ㅈㅗㅇ	-424
ㅂㅓㅂ	-425
ㄱㅕㅇ	-426
ㄷㅡㄴ	-427
▁ㅅㅓㄹ	-428
▁ㅎㅕㅇ	-429
ㅈㅓㄱ	-430
ㅂㅏㄹ	-431
ㄹㅗㄴ	-432
▁ㅇㅚ	-433
ㅅㅡㅂ	-434
ㅅㅜㄹ	-435
ㄴㅏㄴ	-436
ㄱㅓㄴ	-437
▁ㅌㅗ	-438
▁ㅅㅗㄱ	-439
▁ㅆㅡ	-440
▁ㅍㅡㄹ	-441
ㅌㅗㅇ	-442
ㅂㅏㅇ	-443
ㅇㅝ	-444
▁ㄱㅜㄴ	-445
▁T	-446
▁ㅍㅏㄴ	-447
▁C	-448
ㅍㅗ	-449
▁ㅎㅣ	-450
▁ㄴㅔ	-451
▁ㅅㅏㄹ	-452
ㅅㅕㄴ	-453
▁200	-454
▁ㅈㅜㄱ	-455
▁ㅍㅕㅇ	-456
▁ㄱㅝㄴ	-457
▁ㄴㅓ	-458
ㅍㅏ	-459
ㅇㅑㅇ	-460
▁D	-461
▁ㅈㅗㅇ	-462
ㅇㅓㅂ	-463
ㅁㅣㄴ	-464
▁..	-465
ㄹㄹㅏ	-466
ㄴㅕ	-467
▁B	-468
▁ㅇㅛㅇ	-469
ㅔㄴ	-470
▁ㄱㅏㄴ	-471
▁ㄱㅣㅁ	-472
ㅅㅡㅇ	-473
ㄹㅛ	-474
▁ㄴㅡㄴㄷㅏ	-475
▁%	-476
▁~	-477
▁ㅇㅡㅁ	-478
ㅌㅜ	-479
▁ㅊㅔ	-480
ㅈㅣㄱ	-481
ㅇㅣㅂ	-482
▁ㄱㅓㄹ	-483
▁ㅈㅏㄹ	-484
▁ㄷㅡㅅ	-485
▁ㅈㅣㄱ	-486
▁ㅅㅣㅁ	-487
▁ㄷㅟ	-488
ㅍㅏㄴ	-489
▁ㄷㅗㄹ	-490
ㄹㅣㄱ	-491
ㅅㅣㅁ	-492
▁ㄹㅜ	-493
▁ㅇㅔㄴ	-494
▁ㅁㅏㅈ	-495
ㄱㅐ	-496
▁ㅂㅕㄴ	-497
▁ㅅㅡㅇ	-498
▁ㅇㅜㄴ	-499
ㄹㅕㄴ	-500
▁+	-501
ㅇㅔ	-502
ㅈㅕ	-503
▁ㅎㅐㅇ	-504
ㅍㅜㅁ	-505
ㅊㅡ	-506
ㄹㅏㄴ	-507
▁ㅎㅘㄱ	-508
ㄹㅓㅁ	-509
▁ㅂㅔ	-510
▁?	-511
ㅈㅗㄱ	-512
ㅇㅜㄹ	-513
ㅅㅓㄹ	-514
er	-515
ㄹㅏㅇ	-516
ㅁㅐ	-517
ㄹㅑㅇ	-518
▁ㅇㅣㄹㅂㅗㄴ	-519
▁12	-520
ㅎㅕㅇ	-521
▁ㅋㅓ	-522
▁ㅌㅣㅁ	-523
ㅁㅔ	-524
ㄷㅓ	-525
▁P	-526
▁ㅍㅣㄹ	-527
▁ㄴㅏㄹ	-528
ㅇㅑㄱ	-529
▁ㄲㅡ	-530
00	-531
▁ㅌㅜ	-532
ㅍㅛ	-533
▁ㅇㅓㄴ	-534
ㄴㅓ	-535
▁ㅂㅏㄱ	-536
▁ㄴㅗㅍ	-537
ㅇㅚ	-538
ㅎㅘㅇ	-539
▁ㅇㅑㄱ	-540
ㅎㅑㅇ	-541
▁ㅁㅗㄱ	-542
▁ㄷㅏㄹ	-543
▁ㅈㅣㅂ	-544
▁L	-545
ㅈㅓㄹ	-546
▁ㅈㅗㄴ	-547
ㅅㅓㄱ	-548
▁ㅍㅛ	-549
▁ㅎㅘㄹ	-550
▁ㅊㅐ	-551
ㄴㅔ	-552
▁ㄴㅡㅇ	-553
ㅁㅏㅇ	-554
▁ㅇㅑㅇ	-555
▁ㅎㅏㄴㄱㅜㄱ	-556
ㅊㅜㄹ	-557
ㄲㅏ	-558
▁ㄱㅏㄱ	-559
▁F	-560
ㄹㅕㅇ	-561
ㅇㅓㄴ	-562
ㄹㅣㄱㅌㅓ	-563
▁G	-564
▁ㄹㅕ	-565
▁ㅅㅏㅇㄷㅐ	-566
ㅈㅣㄹ	-567
ㅂㅗㄱ	-568
ㄲㅔ	-569
▁ㅁㅜㄴㅈㅔ	-570
ㅎㅕㄴ	-571
ㅁㅓ	-572
in	-573
▁ㅂㅗㄹ	-574
ㅊㅓㅇ	-575
▁ㅂㅕㄹ	-576
▁ㅇㅘㅇ	-577
ㅁㅗㄱ	-578
▁ㅅㅜㄴ	-579
▁11	-580
▁ㅈㅜㄴ	-581
ㄹㅓㅎ	-582
ㅎㅏㅂ	-583
▁ㅋㅡㄹ	-584
▁E	-585
▁ㅎㅣㅁ	-586
▁ㅅㅐㅇㄱㅏㄱ	-587
▁ㅎㅏㅁㄲㅔ	-588
▁ㅂㅕㅇ	-589
▁ㅊㅓㄴ	-590
▁ㅁㅏㄴㄷㅡㄹ	-591
▁ㅎㅏㅇ	-592
▁ㄴㅡ	-593
▁ㅈㅏㅂ	-594
▁ㅅㅗㄴ	-595
ㅎㅕ	-596
ㅋㅔ	-597
▁ㅌㅐ	-598
▁ㅇㅘㄴ	-599
▁ㅍㅔ	-600
▁ㄱㅕㅇㄱㅣ	-601
ㅎㅘㄴ	-602
ㅂㅕㅇ	-603
▁ㅂㅡ	-604
▁ㄷㅗㄱ	-605
▁ㄴㅏㄴ	-606
▁ㅌㅣ	-607
▁ㅇㅣㅁ	-608
▁ㄷㅡㄹㅇㅓ	-609
▁ㄴㅡㅇㄹㅕㄱ	-610
▁ㅂㅡㄹ	-611
▁ㅎㅛ	-612
▁ㄷㅏㅇㅅㅣ	-613
ㄷㅏㅁ	-614
▁ㅁㅏㄱ	-615
▁ㅍㅗㄱ	-616
▁ㅁㅓㄱ	-617
▁ㄱㅔㅆ	-618
▁K	-619
▁ㅍㅡㄹㄹㅔ	-620
▁ㅅㅐ	-621
ㅋㅣㄹ	-622
▁ㄱㅡㄴ	-623
▁ㅅㅣㄱ	-624
ㄴㄷㅏ	-625
ㅜㅇ	-626
on	-627
▁ㄲㅡㅌ	-628
▁ㅆㅏ	-629
▁ㅂㅗㄱ	-630
▁ㅋㅜ	-631
ㄹㅕㅆ	-632
an	-633
ㅈㅡㄴ	-634
▁ㅈㅡㅇ	-635
ㄷㅗㄱ	-636
ㅁㅏㄹ	-637
ㅎㅓㅁ	-638
▁ㅅㅠ	-639
▁15	-640
▁ㅅㅏㅁ	-641
ㅍㅔ	-642
▁ㅊㅗㅇ	-643
▁ㄱㅘㅇ	-644
▁H	-645
▁ㄱㅓㅁ	-646
ㅍㅓ	-647
▁ㅎㅏㅂ	-648
ㅁㅏㄱ	-649
▁R	-650
ㄹㅏㄱ	-651
▁ㅈㅜㄹ	-652
ㅂㅐ	-653
▁ㅁㅓ	-654
ㅈㅕㅆ	-655
ㅊㅓㄴ	-656
ㅅㅗㅇ	-657
ㅂㅔㄹ	-658
▁ㅆㅣ	-659
▁I	-660
▁ㅅㅏㅇㅌㅐ	-661
▁ㅊㅣㄴ	-662
▁N	-663
ㅅㅐㄱ	-664
ㄹㅣㅂ	-665
▁ㄱㅕㄹㄱㅜㄱ	-666
▁ㅁㅏㄶㅇㅣ	-667
▁ㅅㅏㅇㅎㅘㅇ	-668
ㅋㅜ	-669
▁ㅇㅏㄱ	-670
ㅅㅏㄹ	-671
ㄱㅕ	-672
▁ㄹㅓ	-673
▁ㄴㅜ	-674
▁ㅇㅕㄹ	-675
▁ㅃㅏ	-676
▁ㄱㅗㄱ	-677
▁m	-678
▁ㅅㅏㄴ	-679
ㄱㅓㅅ	-680
ㅎㅐㅆ	-681
ㄱㅏㅁ	-682
▁ㅌㅓ	-683
ㄴㅕㄴ	-684
▁ㅂㅐㄱ	-685
ㄴㅣㄴ	-686
▁ㅊㅜㅇ	-687
ㄴㅑㅇ	-688
▁ㄴㅓㅁ	-689
ㅌㅏㄴ	-690
ㅊㅗ	-691
or	-692
▁ㅈㅗㄴㅈㅐ	-693
▁t	-694
▁ㄱㅡㅁ	-695
▁ㄱㅣㄹ	-696
▁ㄱㅡㅂ	-697
ㄱㅡㄴ	-698
ㅇㅏㄱ	-699
▁ㅋㅔ	-700
ㄱㅕㄹ	-701
ㅊㅓ	-702
▁ㅇㅓㅂ	-703
▁ㅁㅜㄹㄹㅗㄴ	-704
▁ㅈㅓㄴㅌㅜ	-705
ㅎㅏㅁ	-706
▁ㅇㅗㄴ	-707
▁ㅇㅓㄹ	-708
▁ㅅㅟ	-709
ㄹㅣㅁ	-710
▁ㅇㅏㅍ	-711
ㅓㄹㅇㅓ	-712
▁ㄴㅜㄴ	-713
▁ㅅㅏㅇㄷㅏㅇ	-714
ㅍㅕㄴ	-715
ㅉㅗㄱ	-716
ㅋㅓ	-717
▁ㄷㅚㄹ	-718
▁ㅎㅕㄴㅈㅐ	-719
▁#	-720
▁ㄱㅣㄴ	-721
ㅈㅐㅇ	-722
▁ㄱㅚ	-723
▁O	-724
ㅈㅓㅂ	-725
ㅎㅏㄹ	-726
▁ㅁㅣㅊ	-727
▁ㄱㅡㄱ	-728
▁ㅊㅟ	-729
ar	-730
▁ㅋㅡㄴ	-731
▁ㅍㅐㄴ	-732
ㅇㅖ	-733
▁ㅅㅣㄹㅈㅔ	-734
▁ㅅㅓㄴㅅㅜ	-735
ㄷㅡㅇ	-736
ㄴㅏㅁ	-737
▁ㅇㅓㅁ	-738
▁ㅈㅓㄹ	-739
ㅇㅜㅁ	-740
▁W	-741
▁ㅁㅣㄴ	-742
ㅌㅐㄱ	-743
▁ㅃㅜㄴ	-744
ㄱㅅㅡ	-745
ㅇㅣㄴㄷㅏ	-746
▁ㅁㅗㄴ	-747
ㄱㅏㅇ	-748
ㄱㅡㄹ	-749
▁ㅌㅏㄴ	-750
ㅎㅏㅇ	-751
▁16	-752
ㅇㅘㅆ	-753
at	-754
▁ㅊㅏㅇ	-755
▁30	-756
▁ㅎㅓ	-757
ㅌㅔㅁ	-758
ㅊㅕ	-759
▁ㄱㅘㄴㄹㅕㄴ	-760
ㅈㅗㄴ	-761
ㅇㅘㅇ	-762
▁ㅊㅓㄹ	-763
▁ㅇㅣㄴㄷㅔ	-764
he	-765
▁ㅇㅣㄴㅈㅣ	-766
▁ㅇㅝ	-767
ㅂㅓㅁ	-768
▁ㅎㅘㅇ	-769
▁ㄷㅏㄹㄹㅣ	-770
▁18	-771
▁ㅊㅏㅈ	-772
▁ㅇㅕㄱㅅㅣ	-773
ㅇㅡㄴ	-774
▁13	-775
▁ㅎㅘㄴ	-776
▁ㅇㅓㄷ	-777
ㅌㅡㄹ	-778
▁ㄱㅏㅌㅇㅣ	-779
▁ㅊㅓㅅ	-780
▁ㅎㅔ	-781
▁ㅇㅣㄹㅂㅏㄴ	-782
▁ㅊㅏㅁㄱㅗ	-783
▁ㄱㅕ	-784
▁ㄹㅏㄴ	-785
▁ㅈㅏㄱㅍㅜㅁ	-786
ㅈㅣㅂ	-787
ㅌㅏㄹ	-788
▁ㅌㅏㄹ	-789
ㄴㅏㄹ	-790
ㄴㅡ	-791
ㄴㅓㄹ	-792
ㄹㅐㄴ	-793
▁ㅂㅜㄱ	-794
▁ㅊㅓㅇ	-795
▁ㅂㅜㅌ	-796
▁ㄱㅗㅅ	-797
▁ㄲㅗ	-798
ㅊㅣㅇ	-799
▁ㄱㅟ	-800
▁199	-801
ㅇㅕㄹ	-802
▁c	-803
ㅍㅐ	-804
ㄱㅕㄴ	-805
ㅋㅡㅁ	-806
▁14	-807
▁100	-808
▁ㄱㅗㄹ	-809
▁s	-810
▁ㄱㅕㄱ	-811
ㅂㅕㄹ	-812
en	-813
▁ㅌㅡㄱㅎㅣ	-814
▁ㅅㅡㅂ	-815
ㄱㅗㄱ	-816
▁ㅇㅣㄴㄱㅏㄴ	-817
▁ㅍㅣㄹㅇㅛ	-818
▁ㅈㅗㅁ	-819
▁ㅎㅐㅆㅇㅡ	-820
▁ㄷㅗㄹㅇㅏ	-821
▁ㅎㅗㄴ	-822
▁ㄹㅠ	-823
ㄱㅠ	-824
▁ㅇㅕㅇㅎㅘ	-825
▁ㄷㅜㄹ	-826
▁ㅈㅣㄹ	-827
▁V	-828
▁ㄷㅙ	-829
▁ㅈㅏㅁ	-830
ㅂㅡㄹ	-831
ㅇㅣㄴㄱㅗㅇ	-832
▁ㄴㅗㅎ	-833
▁ㄱㅡㄹ	-834
ㄷㅡㄱ	-835
ㅈㅣㄴㄷㅏ	-836
▁ㅂㅓㅂ	-837
▁ㅉㅣ	-838
▁ㄴㅡㄴㅈㅣ	-839
▁ㄱㅏㄹ	-840
▁ㅂㅏㅇㅅㅗㅇ	-841
▁ㅂㅘ	-842
▁ㅂㅏㄲ	-843
ㄹㅓㅂ	-844
▁ㅈㅡㄱ	-845
ㅅㅡㅅ	-846
ㅂㅏㄱ	-847
▁ㅂㅓㅁ	-848
▁ㅇㅣㄴㅁㅜㄹ	-849
▁ㄷㅓㄱ	-850
▁ㅇㅓㅄㅇㅣ	-851
▁ㅉㅐ	-852
▁ㄸㅓㄹㅇㅓ	-853
ㅊㅜ	-854
▁ㅅㅑ	-855
▁ㅇㅞ	-856
ㅇㅗㄴㄷㅏ	-857
ㄱㅚ	-858
ㅈㅣㅇ	-859
ㅍㅡㄹ	-860
ㅎㅏㄱㄱㅛ	-861
▁17	-862
ㄹㅓㅎㄱㅔ	-863
▁25	-864
ㄸㅐ	-865
al	-866
ㅎㅗㄴ	-867
▁k	-868
ㅊㅏㅇ	-869
▁ㄱㅠ	-870
▁ㄸㅡ	-871
▁ㅂㅗㄴㅇㅣㄴ	-872
ㅊㅏㄴ	-873
ㅊㅏㄱ	-874
▁ㄷㅏㅁ	-875
▁U	-876
ㄷㅏㄹ	-877
▁ㅁㅗㅅㅎㅏ	-878
▁ㅌㅗㅇㅎㅐ	-879
ㅂㅔ	-880
▁ㅁㅗㅁ	-881
▁ㅅㅡㄹ	-882
▁ㅇㅗㄹ	-883
▁ㅂㅏㅇㅇㅓ	-884
ㅋㅕ	-885
▁ㄴㅑ	-886
▁ㅁㅕㅊ	-887
▁ㅇㅗㄹㄹㅏ	-888
▁ㄷㅡㄴ	-889
▁00	-890
▁ㅉㅗㄱ	-891
▁ㅍㅏㄹ	-892
▁ㅇㅣㄹㅂㅜ	-893
ㅇㅓㅄ	-894
ㄹㅖ	-895
▁ㅁㅏㄴㅋㅡㅁ	-896
ㅎㅘㄹ	-897
▁X	-898
▁ㅅㅏㅇㄷㅏㅇㅎㅣ	-899
▁ㅅㅣㅍ	-900
ㅌㅓㄴ	-901
▁ㅍㅜㄹ	-902
ㅊㅓㄹ	-903
▁ㅇㅏㅁ	-904
ㅂㅕㄴ	-905
▁ㅅㅓㅇㅇㅜ	-906
▁ㅈㅣㄴㅎㅐㅇ	-907
ㅈㅓㄴㅎㅣ	-908
▁ㅎㅏㄱㄱㅛ	-909
ㄱㅝㄴ	-910
ㅂㅓㄴ	-911
▁ㄸㅓ	-912
ou	-913
▁ㄱㅘㄴㄱㅖ	-914
ㅇㅡㄹ	-915
▁ㅎㅕ	-916
▁ㅁㅏㅌ	-917
▁ㄱㅜㄱㄱㅏ	-918
▁ㅅㅓㄹㅈㅓㅇ	-919
▁ㅇㅣㄴㅎㅐ	-920
es	-921
ㄹㅣㄴㄷㅏ	-922
▁ㅅㅗㄱㄷㅗ	-923
ㄲㅣ	-924
▁ㅂㅏㄺ	-925
ㅁㅗㄴ	-926
ㅅㅜㄴ	-927
▁ㅈㅓㅂ	-928
ㄹㅣㄹ	-929
ㅎㅢ	-930
▁ㅁㅣㄹ	-931
ㄱㅡㄱ	-932
▁ㅁㅗㄴㅅㅡ	-933
ㅇㅝㄹ	-934
▁ㅊㅜㄱ	-935
▁ㅊㅡ	-936
ㅇㅠㄱ	-937
▁2015	-938
▁ㅈㅓㄴㅈㅐㅇ	-939
▁ㅎㅘㄹㄷㅗㅇ	-940
▁ㅁㅡ	-941
ㄱㅏㄹ	-942
ㅎㅏㄴㄷㅏ	-943
ㅇㅐ	-944
▁ㅇㅝㄴㄹㅐ	-945
▁ㅍㅓ	-946
it	-947
ㅅㅡㄴ	-948
ㄱㅘㅇ	-949
▁ㅇㅜㄹ	-950
▁ㄴㅏㅈ	-951
ㅆㅣ	-952
ㄷㅗㄹ	-953
▁ㅂㅓㄹ	-954
▁]	-955
▁ㄱㅏㅁㄷㅗㄱ	-956
ㅊㅣㄴ	-957
ㅊㅏㄹ	-958
ㄹㅑ	-959
▁ㄷㅗㅇㅇㅏㄴ	-960
ㅅㅡㄹ	-961
▁ㄸㅟ	-962
ㅇㅕㅆ	-963
ㄹㅠㄹ	-964
▁ㄱㅗㅇㄱㅕㄱㄹㅕㄱ	-965
▁ㅎㅢ	-966
▁ㅁㅐㄴ	-967
ㅁㅐㄴ	-968
▁ㅁㅛ	-969
▁ㅎㅗㅁ	-970
▁ㅎㅡ	-971
ㄹㄹㅓ	-972
▁J	-973
ㅂㅓㄹ	-974
▁ㅁㅜㄴㅅㅓ	-975
▁ㅉㅏ	-976
▁50	-977
ㅁㅂㅓ	-978
ㄹㅑㄱ	-979
▁ㅁㅏㅇ	-980
ㅇㅡㅇ	-981
▁ㅇㅠㄱ	-982
▁ㅍㅕㅇㄱㅏ	-983
▁ㅈㅡㅇㄱㅏ	-984
▁ㅆㅡㄹ	-985
▁ㅇㅓㄴㄱㅡㅂ	-986
ㄹㄹㅗ	-987
▁ㅆㅓ	-988
ㅂㅜㄹ	-989
ㄴㅣㅅ	-990
▁ㄴㅓㅎ	-991
▁ㅈㅜㅇㄱㅜㄱ	-992
▁[	-993
▁ㅈㅣㄱㅈㅓㅂ	-994
▁ㄴㅗㄴ	-995
▁ㅁㅓㄴ	-996
is	-997
ㅈㅡㅇ	-998
▁ㅅㅓㅇㄱㅗㅇ	-999
▁ㅎㅗㅇ	-1000
▁ㅁㅗㄹ	-1001
ㄷㅣㅇ	-1002
▁&	-1003
ㄱㅜㄹ	-1004
ㅂㅔㄴ	-1005
▁ㅅㅔㄴ	-1006
ㄱㅓㄹ	-1007
▁ㅈㅏㅇㅁㅕㄴ	-1008
ㅇㅠㄹ	-1009
ㄴㅏㅆ	-1010
▁ㄲㅙ	-1011
▁2016	-1012
re	-1013
▁ㅇㅓㅁㅊㅓㅇ	-1014
▁2014	-1015
▁ㅈㅓㅇㅂㅗ	-1016
▁ㅋㅏㄹ	-1017
le	-1018
▁ㅂㅗㅇ	-1019
▁ㅅㅟㅂ	-1020
ㄲㅟ	-1021
ㅋㅔㅅ	-1022
▁ㅊㅜㄹㅇㅕㄴ	-1023
▁ㅁㅔㅁㅂㅓ	-1024
ㄱㅟ	-1025
▁ㄷㅗㄴ	-1026
▁ㅎㅠ	-1027
ㅂㅐㄱ	-1028
▁21	-1029
▁ㅅㅓㄹㅁㅕㅇ	-1030
ㄱㅗㄴ	-1031
▁ㅇㅗㄹㄹㅣ	-1032
▁d	-1033
▁ㅆㅣㄱ	-1034
▁ㅅㅛ	-1035
ic	-1036
ㄱㅣㄴ	-1037
ㄴㅕㅁ	-1038
▁ㅈㅡ	-1039
▁ㄴㅠ	-1040
▁ㄴㅡㄹ	-1041
▁ㅈㅓㄴㅊㅔ	-1042
ㅉㅏ	-1043
▁ㅇㅙ	-1044
▁ㄱㅕㄹㄱㅘ	-1045
▁ㅎㅗㄱ	-1046
▁ㅇㅕㅇㅅㅏㅇ	-1047
▁ㄴㅣㅁ	-1048
as	-1049
ㅊㅜㄱ	-1050
▁ㅇㅕㄱㅅㅏ	-1051
ㅎㅚㄱ	-1052
▁ㄹㅣㅇ	-1053
▁ㅃㅐ	-1054
▁198	-1055
▁22	-1056
▁ㅊㅣㄴㄱㅜ	-1057
▁ㅇㅔㄹ	-1058
▁ㅊㅡㄱ	-1059
▁ㄲㅐ	-1060
▁ㅁㅏㄴㄷㅡㄴ	-1061
▁ㅂㅏㅇㅂㅓㅂ	-1062
ㄴㅣㅇ	-1063
ㄹㅡㄹ	-1064
▁ㅋㅓㄴ	-1065
▁ㅈㅝ	-1066
▁ㅅㅓㄴㅌㅐㄱ	-1067
▁ㅎㅕㅂ	-1068
▁<	-1069
▁w	-1070
▁ㄱㅏㅈ	-1071
▁ㄷㅙㅆ	-1072
ㅊㅗㅇ	-1073
▁ㄴㅏㅁㅈㅏ	-1074
▁ㄱㅏㅂ	-1075
ㄹㅓㄴㄷㅔ	-1076
▁ㄷㅏㅇㅎㅏ	-1077
ㅊㅐㄱ	-1078
▁ㄷㅏㅇㅇㅕㄴ	-1079
▁ㄱㅗㅇㅅㅣㄱ	-1080
▁ㅇㅏㄹㄹㅕ	-1081
▁ㅈㅓㄴㅂㅜ	-1082
▁24	-1083
▁ㅂㅏㄹㅁㅐ	-1084
▁ㅅㅡㅂㄴㅣ	-1085
▁2017	-1086
▁ㅇㅣㄴㄱㅣ	-1087
▁ㅈㅜㄴㄷㅏ	-1088
▁ㅌㅏㅂ	-1089
▁2013	-1090
ㅇㅜㄱ	-1091
▁40	-1092
ㅋㅣㄴ	-1093
ㅋㅡㄹ	-1094
ing	-1095
ㅁㅓㄱ	-1096
▁ㅊㅐㄱ	-1097
ㅍㅕㅇ	-1098
▁ㅇㅏㅂ	-1099
▁2018	-1100
▁ㅃㅏㄹ	-1101
ㅂㅜㄱ	-1102
▁ㅅㅗㅇ	-1103
▁ㅅㅐㄱ	-1104
▁ㅇㅣㄴㅌㅓ	-1105
▁ㅎㅏㅇㅁㅗㄱ	-1106
▁ㅊㅣㅁ	-1107
ㅌㅣㅇ	-1108
ㅍㅣㄹ	-1109
▁ㅎㅑㅇ	-1110
▁ㅊㅜㄹㅅㅣㄴ	-1111
▁ㅅㅡㅇㄹㅣ	-1112
ㅅㅟ	-1113
▁ㅈㅓㅇㅁㅏㄹ	-1114
▁ㄷㅏㅂ	-1115
ㅇㅜㅇ	-1116
▁ㅇㅣㄹㅇㅓ	-1117
▁ㅈㅏㄱㅈㅜㅇ	-1118
▁ㄴㅗㅇ	-1119
▁a	-1120
ㅊㅏㄴㄱㅏ	-1121
ㄱㅕㅆ	-1122
ㅇㅓㄹ	-1123
ㄷㅔㄹ	-1124
▁b	-1125
▁ㅇㅕㅇㅎㅑㅇ	-1126
▁ㅉㅣㄱ	-1127
ㄹㅐㄱ	-1128
ㄴㅡㄹ	-1129
▁ㅇㅕㄴㄱㅜ	-1130
▁ㅅㅓㅇㄱㅕㄱ	-1131
▁f	-1132
ㅇㅜㄴㄷㅡ	-1133
▁ㄸㅡㅅ	-1134
ㅊㅣㅁ	-1135
▁ㅂㅏㅇㅅㅣㄱ	-1136
▁ㅅㅓㅇㄴㅡㅇ	-1137
▁ㄷㅗㅇㅅㅣ	-1138
ㅇㅏㅇ	-1139
▁23	-1140
ㅋㅓㄹ	-1141
▁ㅈㅏㄴ	-1142
ㄹㅡㄴㄷㅏ	-1143
ㅇㅓㅆ	-1144
ㄱㅏㅆ	-1145
▁ㄷㅡㄷ	-1146
▁ㅎㅕㅇㅌㅐ	-1147
▁ㄲㅣ	-1148
ㄹㄹㅣㄴ	-1149
ㅂㅗㅇ	-1150
▁ㅊㅏㄱ	-1151
▁ㅈㅓㅇㅅㅣㄴ	-1152
ㄱㅏㅂ	-1153
ㄹㅐㄴㄷㅡ	-1154
ㅎㅘㄱ	-1155
▁ㅎㅟ	-1156
ㄹㅣㅇ	-1157
▁ㄱㅜㅇ	-1158
ㅁㅣㄹ	-1159
▁ㅅㅗㄱㅅㅓㅇ	-1160
om	-1161
▁ㅇㅣㄹㄷㅏㄴ	-1162
▁2012	-1163
ㅉㅣ	-1164
▁ㅁㅓㄹ	-1165
ㄱㅣㄹ	-1166
ㅇㅕㅁ	-1167
ㅈㅏㅂ	-1168
▁ㄱㅏㅇㄹㅕㄱ	-1169
ㄸㅓ	-1170
▁ㅇㅕㄱㅎㅏㄹ	-1171
▁ㅁㅏㄴㅎㅘ	-1172
▁ㅋㅗㄴ	-1173
▁h	-1174
▁ㄹㅐ	-1175
▁o	-1176
ㅁㅕㄴㅅㅓ	-1177
▁ㅌㅡㄱㅅㅓㅇ	-1178
▁ㅇㅝㄹㄷㅡ	-1179
▁ㅇㅝㄴㅈㅏㄱ	-1180
▁ㅌㅡㄱㅅㅜ	-1181
▁ㅂㅏㄹㅅㅐㅇ	-1182
▁ㅎㅏㄱㅅㅐㅇ	-1183
▁ㅅㅣㅁㅈㅣ	-1184
▁ㅃㅗ	-1185
▁ㅅㅜㄹ	-1186
▁ㅇㅜㄴㅇㅕㅇ	-1187
ㄱㅐㄱ	-1188
ㄸㅓㄴ	-1189
▁ㅂㅕㄴㄱㅕㅇ	-1190
el	-1191
▁ㅅㅓㅁ	-1192
ㅇㅗㄹ	-1193
▁ㄹㅡ	-1194
ㅂㅕㄱ	-1195
▁ㅇㅜㅁ	-1196
ㅍㅜㅇ	-1197
▁ㅇㅐㄱ	-1198
▁ㅈㅘ	-1199
▁ㅇㅡㅁㅇㅏㄱ	-1200
▁ㅍㅜㅇ	-1201
am	-1202
ㅂㅔㄴㅌㅡ	-1203
ㅁㅍㅣ	-1204
▁ㅈㅕㅆ	-1205
▁ㅈㅜㅇㅇㅛ	-1206
▁ㅇㅕㅆㅇㅡ	-1207
ion	-1208
▁ㅅㅓㄱ	-1209
▁ㄲㅡㄹ	-1210
▁ㅊㅡㅇ	-1211
▁p	-1212
▁ㅍㅖ	-1213
▁ㅇㅓㄱ	-1214
▁ㅊㅏㅁㅈㅗ	-1215
▁ㅎㅡㄱ	-1216
ㄷㅓㄱ	-1217
▁ㄱㅕㄹㅈㅓㅇ	-1218
▁ㅁㅕㅇㅊㅣㅇ	-1219
▁ㄷㅓㄱㅂㅜㄴ	-1220
▁ㅂㅣㄹ	-1221
▁ㅅㅣㅇ	-1222
▁ㄱㅏㅇㅎㅘ	-1223
▁ㄴㅏㄴㅇㅣ	-1224
▁ㅇㅕㅇㅇㅓ	-1225
▁2019	-1226
▁ㅈㅏㅇㅂㅣ	-1227
▁ㄱㅜㄱㄴㅐ	-1228
ㅇㅓㄱ	-1229
ㅐㄴㄷㅡ	-1230
ㅍㅗㄱ	-1231
ㅉㅐ	-1232
▁ㄱㅗㄴ	-1233
▁ㅎㅡㄴ	-1234
▁ㅈㅏㄱㄱㅏ	-1235
▁ㅎㅐㅇㄷㅗㅇ	-1236
▁ㅍㅜ	-1237
▁ㅎㅣㅁㄷㅡㄹ	-1238
▁the	-1239
ㄸㅡ	-1240
▁ㅁㅗㅅㅎㅐㅆ	-1241
▁n	-1242
ㅎㅜㄴ	-1243
▁ㄴㅓㅁㅇㅓ	-1244
▁ㅎㅘㄱㄹㅠㄹ	-1245
▁ㄷㅗㄱㅇㅣㄹ	-1246
ㅁㅣㄴㄱㅜㄱ	-1247
ㅎㅟ	-1248
▁ㅂㅣㄴ	-1249
ㄹㅕㅂ	-1250
▁26	-1251
▁ㅇㅘㄴㅈㅓㄴㅎㅣ	-1252
▁ㅂㅏㄹㄷㅗㅇ	-1253
▁ㅇㅐㄹ	-1254
▁ㅌㅡㄱㅈㅣㅇ	-1255
ㄹㅐㅁ	-1256
▁ㄱㅚㅇ	-1257
▁ㅎㅜㄴ	-1258
▁2010	-1259
ac	-1260
ol	-1261
ㄹㅔㄴ	-1262
▁ㅎㅘㄹㅇㅑㄱ	-1263
▁28	-1264
▁ㅊㅏㅈㅇㅏ	-1265
ㄱㅏㄴㄷㅏ	-1266
▁ㅇㅘㅆ	-1267
▁ㅁㅝ	-1268
▁ㅁㅏㄴㄴㅏ	-1269
ㅊㅡㄱ	-1270
▁ㄷㅣㄹ	-1271
▁ㅎㅕㄴㄷㅐ	-1272
ㅌㅚ	-1273
▁ㅈㅓㄴㅎㅕ	-1274
ㅅㅜㄱ	-1275
▁27	-1276
▁ㅎㅗㄱㅇㅡㄴ	-1277
ㅁㅡ	-1278
▁ㅋㅏㄴ	-1279
ㅅㅗㄴ	-1280
▁ㅅㅜㅁ	-1281
▁ㅃㅗㅂ	-1282
▁TV	-1283
▁ㅇㅓㄹㄱㅜㄹ	-1284
ㄹㅛㅇ	-1285
ㅇㅗㄱ	-1286
ㄷㅓㄴ	-1287
ㄲㅜ	-1288
ㅆㅓ	-1289
▁ㅇㅣㅂㅈㅏㅇ	-1290
▁ㅂㅣㅊ	-1291
▁ㅈㅛ	-1292
▁ㄴㅗㄱ	-1293
▁ㅇㅕㅇㄱㅜㄱ	-1294
▁ㅈㅓㅇㅊㅣ	-1295
▁2011	-1296
▁ㅆㅗ	-1297
▁ㄱㅚㅇㅈㅏㅇ	-1298
▁ㅇㅕㅇㅇㅜㅇ	-1299
ㅌㅡㄴ	-1300
ㅅㅐ	-1301
ㅐㅇㅋㅡ	-1302
ㅎㅏㄴㅁㅣㄴㄱㅜㄱ	-1303
▁ㅇㅡㅇ	-1304
▁ㄱㅗㅇㄱㅐ	-1305
▁ㅈㅓㅇㅎㅘㄱ	-1306
▁ㅆㅡㄴ	-1307
ㄲㅡㅁ	-1308
▁ㅁㅓㄴㅈㅓ	-1309
▁ㅁㅠ	-1310
▁ㅌㅓㄴ	-1311
ㅁㅓㄴ	-1312
ㅇㅣㄴㅁㅜㄹ	-1313
ㄸㅓㅎ	-1314
▁000	-1315
ㅂㅗㄹ	-1316
▁ㅎㅘㄱㅇㅣㄴ	-1317
▁ㄷㅠ	-1318
▁ㄷㅏㅁㄷㅏㅇ	-1319
ㅇㅓㅄㅇㅣ	-1320
et	-1321
▁ㅇㅣㅀ	-1322
▁ㅇㅠㄴ	-1323
▁=	-1324
▁ㄸㅏㄹ	-1325
▁ㅈㅣㅅ	-1326
ㄴㅜ	-1327
ㅇㅣㄴㅌㅡ	-1328
ㅁㅕㄹ	-1329
▁ㅁㅐㅂ	-1330
▁ㄷㅗㅇㅇㅣㄹ	-1331
ㄱㅌㅡ	-1332
▁ㄷㅡㅇㅈㅏㅇㅇㅣㄴㅁㅜㄹ	-1333
ㅇㅜㅅ	-1334
ㅊㅜㅇ	-1335
ㄴㅐㄴ	-1336
▁ㅇㅕㄴㄱㅣ	-1337
▁ㅊㅕ	-1338
▁ㅂㅏㄲㅇㅔ	-1339
ㄹㅓㄱ	-1340
il	-1341
▁ㅇㅓㄹㅁㅏ	-1342
▁ㅂㅏㄴㄷㅐ	-1343
ig	-1344
ed	-1345
▁ㅇㅔㄴㄷㅣㅇ	-1346
▁ㄱㅘㄴㄹㅣ	-1347
▁ㄱㅕㄴ	-1348
▁ㅂㅔㄹ	-1349
▁Y	-1350
▁ㄲㅓ	-1351
▁ㅍㅏㄴㅁㅐ	-1352
▁ㅅㅐㅇㅅㅏㄴ	-1353
ㄱㅗㄹ	-1354
▁ㄸㅏㄱ	-1355
▁ㅁㅐㄱ	-1356
▁ㅅㅣㄹㄹㅕㄱ	-1357
ow	-1358
ㅗㅊ	-1359
▁ㅂㅜㄹㄹㅣ	-1360
▁ㄱㅓㄴㅁㅜㄹ	-1361
▁ㅁㅏㅅ	-1362
▁ㅇㅐㄹㅂㅓㅁ	-1363
▁ㅋㅓㅁ	-1364
us	-1365
▁km	-1366
ㄴㅗㅎ	-1367
▁ㅅㅣㄹㅍㅐ	-1368
▁ㅈㅓㄱㅇㅛㅇ	-1369
▁ㅂㅏㅇㅁㅕㄴ	-1370
▁60	-1371
▁of	-1372
ㄹㅚ	-1373
BS	-1374
⊸⊸	-1375
▁ㅈㅓㅇㅂㅜ	-1376
▁ㅋㅞ	-1377
▁ㅅㅜㄴㄱㅏㄴ	-1378
ㅇㅝㅆ	-1379
ㄹㅗㅅ	-1380
▁29	-1381
▁ㅎㅓㄴ	-1382
▁ㄹㅏㅇ	-1383
ㅇㅞ	-1384
ㅊㅏㄶ	-1385
▁ㅈㅗㄱ	-1386
▁ㅈㅓㄹㄷㅐ	-1387
▁ㄱㅕㅇㅊㅏㄹ	-1388
▁ㅇㅣㄴㅈㅓㅇ	-1389
▁ㅂㅏㄴㅇㅡㅇ	-1390
▁ㄷㅏㅇㅇㅕㄴㅎㅣ	-1391
▁ㅊㅜㄹㅅㅣ	-1392
▁ㅈㅣㄴㅉㅏ	-1393
▁ㅁㅜㄴㅎㅘ	-1394
▁Z	-1395
▁ㅂㅏㄹㄱㅕㄴ	-1396
ㅌㅏㄱ	-1397
ㅇㅔㄹ	-1398
▁ㅅㅐㅇㅎㅘㄹ	-1399
ㄹㅏㅇㅅㅡ	-1400
▁ㄱㅓㄴㄷㅏㅁ	-1401
▁ㅇㅜㅁㅈㅣㄱ	-1402
▁ㅌㅚ	-1403
ㄴㅏㄴㄷㅏ	-1404
▁ㄸㅏㅇ	-1405
ㅅㅠ	-1406
ㄱㅗㅅ	-1407
▁ㅈㅜㄱㅇㅣ	-1408
ㅁㅗㅅ	-1409
▁ㄱㅚㅇㅈㅏㅇㅎㅣ	-1410
▁ㅎㅘㄱㅅㅣㄹ	-1411
▁ㅎㅏㄴㅌㅔ	-1412
▁197	-1413
▁ㄷㅡㅅㅇㅣ	-1414
▁ㅌㅡㄹ	-1415
▁ㅋㅣㅇ	-1416
▁31	-1417
▁35	-1418
▁The	-1419
▁ㅎㅏㄴㅈㅓㅇ	-1420
ㄴㅔㅅ	-1421
▁ㅎㅕㄴㅅㅣㄹ	-1422
▁v	-1423
ㄱㅠㄴ	-1424
▁ㅈㅜㅇㄱㅏㄴ	-1425
ㅍㅗㄴ	-1426
▁ㄷㅏㄴㄱㅖ	-1427
▁ㅍㅗㄱㅂㅏㄹ	-1428
ㅅㅣㄹㅅㅏㅇ	-1429
ㅇㅣㄱ	-1430
ad	-1431
ㅆㅣㄴ	-1432
ㄹㅜㅂ	-1433
▁ㄲㅜ	-1434
ㄱㅓㅁ	-1435
▁ㄱㅕㄹㅎㅗㄴ	-1436
▁ㅇㅓㅁㅊㅓㅇㄴㅏㄴ	-1437
▁ㅂㅏㄹㅅㅏ	-1438
ㄷㅓㅁ	-1439
▁ㅂㅏㄺㅎㅕ	-1440
▁ㅋㅗㅁ	-1441
▁ㄱㅜㄹ	-1442
▁r	-1443
▁ㅎㅡㅂ	-1444
▁ㅇㅑㄱㄱㅏㄴ	-1445
▁ㄷㅏㄴㅅㅜㄴ	-1446
▁ㅂㅏㅇㅎㅑㅇ	-1447
▁ㅅㅏㅇㅅㅡㅇ	-1448
ㅎㅣㄴ	-1449
▁ㅂㅜㄹㄹㅓ	-1450
▁ㅅㅐㅇㄱㅣ	-1451
▁ㅇㅜㄴㅎㅐㅇ	-1452
▁ㅂㅡㄹㄹㅐㄱ	-1453
▁ㅎㅝㄹ	-1454
▁ㅅㅏㅇㅇㅟ	-1455
▁St	-1456
ㅇㅏㅂ	-1457
▁ㅎㅔㄹ	-1458
ㅈㅚ	-1459
▁ㅌㅡㄱㅂㅕㄹ	-1460
ER	-1461
ㅌㅏㅇ	-1462
▁2000	-1463
▁ㅈㅜㅇㅅㅣㅁ	-1464
▁80	-1465
▁ㄱㅕㅇㅎㅓㅁ	-1466
▁ㅇㅜㅅ	-1467
ㅅㅔㄴ	-1468
▁ㅇㅣㄺ	-1469
▁ㅋㅜㄹ	-1470
▁ㄷㅔㄱ	-1471
▁ㅂㅓㅁㅇㅟ	-1472
▁ㅈㅚ	-1473
ㄸㅓㅎㄱㅔ	-1474
▁ㅅㅣㅀ	-1475
▁37	-1476
▁ㄱㅏㅁㅅㅗ	-1477
▁ㅎㅝㄹㅆㅣㄴ	-1478
▁ㄷㅗㅇㄹㅛ	-1479
▁ㅇㅜㄴㄷㅗㅇ	-1480
id	-1481
ㅇㅛㄱ	-1482
ㅎㅕㅆ	-1483
ㅂㅗㅅ	-1484
ot	-1485
▁ㅆㅏㅇ	-1486
ㅎㅗㄱ	-1487
▁ㄹㅣㄴ	-1488
and	-1489
▁ㅌㅏㅁ	-1490
▁ㅎㅘㄹㅇㅛㅇ	-1491
▁ㄹㅗㄴ	-1492
▁ㅂㅜㄴㅇㅟ	-1493
▁ㅁㅣㄷ	-1494
▁ㅎㅗㄴㅈㅏ	-1495
▁ㄴㅏㄱ	-1496
▁ㄸㅗㄱ	-1497
ay	-1498
ㄲㅣㅁ	-1499
▁ㅅㅜㄱ	-1500
▁500	-1501
▁ㅇㅛㄱ	-1502
ㅊㅝ	-1503
▁ㄱㅙ	-1504
▁ㅈㅜㅇㅇㅏㅇ	-1505
▁ㅌㅏㅅ	-1506
▁ㅎㅐㄱ	-1507
ㅋㅕㅆ	-1508
ve	-1509
▁ㅂㅏㅇㅇㅕㅇ	-1510
▁ㅌㅔㄴ	-1511
ch	-1512
ㄱㅜㅇ	-1513
▁ㅇㅕㅁ	-1514
▁ㅈㅝㅆ	-1515
▁ㅇㅕㅍ	-1516
▁ㅈㅓㄴㅇㅛㅇ	-1517
▁ㅂㅏㅁ	-1518
▁ㅁㅗㄱㅈㅓㄱ	-1519
▁ㅋㅔㄴ	-1520
ㅌㅠ	-1521
ㅂㅠ	-1522
▁ㅈㅗㄹ	-1523
▁ㅅㅣㅂ	-1524
▁ㅂㅜㄹㄱㅜ	-1525
ㄴㅐㅆ	-1526
▁ㅇㅒ	-1527
un	-1528
▁ㅈㅕ	-1529
▁ㅈㅣㄴㅊㅜㄹ	-1530
▁ㅎㅏㅇㄱㅗㅇ	-1531
ㄴㅑ	-1532
▁ㅅㅓㄹㅊㅣ	-1533
▁ㄱㅏㅆ	-1534
ㄱㅌㅓ	-1535
▁ㅂㅓㄴㅇㅕㄱ	-1536
▁ㅅㅏㄹㅇㅏ	-1537
▁ㄴㅗㄹ	-1538
▁ㅎㅡㅇ	-1539
▁ㄲㅜㅁ	-1540
ㅊㅐ	-1541
dd	-1542
▁l	-1543
▁ㄱㅏㅇㅎㅏㄴ	-1544
ㅃㅏ	-1545
▁ㅊㅜㄱㄱㅜ	-1546
20	-1547
▁ㅈㅗㅇㅈㅗㄱ	-1548
ㅋㅔㅅㅁㅗㄴ	-1549
▁ㅈㅠ	-1550
▁ㄹㅓㄴ	-1551
▁ㅇㅣㄱ	-1552
▁ㅅㅓㄴㅂㅏㄹ	-1553
▁ㄱㅙㄴ	-1554
ㄱㅏㅌ	-1555
▁90	-1556
ㄷㅏㅂ	-1557
▁ㅋㅠ	-1558
▁ㅈㅡㄹ	-1559
ㅌㅣㄴ	-1560
ㅋㅠ	-1561
▁ㅈㅓㄴㅊㅏ	-1562
▁ㄴㅕ	-1563
▁ㅎㅚㄱ	-1564
▁mm	-1565
ㄷㅡㅇㅎㅏㄱㄱㅛ	-1566
ㅎㅕㄹ	-1567
ㅊㅕㅆ	-1568
▁ㄱㅏㄱㄱㅏㄱ	-1569
ㅂㅟ	-1570
▁ㅋㅡㄹㄹㅣ	-1571
▁ㅁㅗㅅㅎㅏㄴ	-1572
ㅎㅛ	-1573
▁ㅇㅣㄹㅇㅡ	-1574
ㅇㅣㄹㄹㅓ	-1575
▁ㅌㅟ	-1576
▁ㄹㅛ	-1577
ㅋㅣㅇ	-1578
ㄹㅓㄹ	-1579
▁ㅈㅏㄹㅁㅗㅅ	-1580
▁ㄷㅡㄱ	-1581
▁ㅊㅏㅁㅇㅕ	-1582
▁ㅁㅜㄹㄹㅣ	-1583
ㄹㅗㅂ	-1584
▁g	-1585
▁ㅇㅗㅂ	-1586
▁70	-1587
▁ㄴㅡㄹㅇㅓ	-1588
▁ㅅㅓㅇㅈㅏㅇ	-1589
ㅉㅏㄱ	-1590
ㄷㅏㄱ	-1591
▁ㅁㅏㄴㄷㅡ	-1592
ㅁㅣㅇ	-1593
ro	-1594
▁ㅍㅗㄹ	-1595
▁ㅅㅓㅇㅈㅓㄱ	-1596
▁ㅁㅜㄷ	-1597
▁ㅉㅏㄼ	-1598
▁ㅈㅓㄴㅁㅜㄴ	-1599
▁ㄱㅜㄷ	-1600
▁ㄹㅔㄴ	-1601
▁ㅊㅓㄹㄷㅗ	-1602
▁01	-1603
ㅊㅏㅁ	-1604
▁2009	-1605
▁ㅈㅓㄴㅅㅓㄹ	-1606
▁ㅂㅓㄹㅇㅓ	-1607
▁ㅊㅐㅁㅍㅣ	-1608
ㅈㅜㄴㄷㅏ	-1609
▁ㅊㅓㄱ	-1610
▁ㄴㅗㄴㄹㅏㄴ	-1611
▁ㅅㅐㅇㅁㅕㅇ	-1612
▁ㅊㅣㅇ	-1613
▁ㅍㅕㄹ	-1614
▁ㅅㅏㄱ	-1615
▁ㅂㅓㅅ	-1616
▁ㅈㅓㄴㅈㅏㄱ	-1617
▁ㅂㅏㄹㅍㅛ	-1618
ㅎㅕㅂ	-1619
ㅂㅏㄷ	-1620
▁ㅊㅜㅇㄱㅕㄱ	-1621
▁ㅈㅜㄴㅂㅣ	-1622
▁ㅅㅔㅁ	-1623
ㅇㅓㅁ	-1624
▁45	-1625
▁ㅈㅣㅇ	-1626
▁ㅎㅜㄴㄹㅕㄴ	-1627
▁ㄹㅑㅇ	-1628
▁ㅅㅏㅁㅅㅓㅇ	-1629
ㅊㅣㄹ	-1630
▁ㄹㅐㄴ	-1631
▁ㅇㅠㄹ	-1632
ㅊㅣㄱ	-1633
▁ㄱㅓㄹㄹㅣ	-1634
▁ㅎㅏㄱㄴㅕㄴ	-1635
▁ㄸㅗㄱㄱㅏㅌ	-1636
ㅇㅐㄱ	-1637
▁ㅇㅣㄹㅎㅐㅇ	-1638
▁ㄹㅠㄹ	-1639
▁ㅇㅔㄴㅈㅣㄴ	-1640
▁...	-1641
▁ㅇㅗㄱ	-1642
▁ㅍㅐㄱ	-1643
▁ㅇㅔㄹㄹㅣ	-1644
ㅌㅗㅇㄹㅕㅇ	-1645
▁ㅂㅔㄴ	-1646
▁ㅇㅣㄹㅈㅓㅇ	-1647
▁ㅈㅓㅇㅅㅏㅇ	-1648
▁ㅇㅓㄴㅈㅔ	-1649
▁ㄱㅏㅇㅎㅏ	-1650
ㄴㅣㄱ	-1651
ir	-1652
▁ㅈㅣㄱㅇㅓㅂ	-1653
▁ㅈㅗㅇㄹㅠ	-1654
▁300	-1655
ㅇㅣㄴㅈㅣ	-1656
▁ㅂㅕㄱ	-1657
▁ㅎㅏㅂㄴㅣ	-1658
▁ㄱㅕㅇㅈㅔ	-1659
ㅊㅓㄱ	-1660
▁ㅎㅕㄹ	-1661
▁ㅂㅕㄴㅎㅘ	-1662
▁ㄷㅓㅁ	-1663
▁ㅈㅜㄱㅇㅡㅁ	-1664
▁ㅎㅏㄴㄷㅔ	-1665
ㅁㅐㅇ	-1666
▁32	-1667
▁ㅍㅡㄹㄹㅐ	-1668
ter	-1669
▁ㄲㅡㄶ	-1670
▁ㅈㅓㅇㅊㅔ	-1671
▁ㄱㅗㅇㅈㅜㅇ	-1672
▁ㅁㅗㄱㅅㅗ	-1673
ㅊㅜㄴ	-1674
▁ㄷㅏㅇㅎㅐㅆ	-1675
ㅂㄴㅣ	-1676
▁ㅎㅐㅆㅇㅓㅆ	-1677
▁ㅇㅕㄴㅅㅗㄱ	-1678
▁ㅂㅓㄴㅎㅗ	-1679
▁ㅈㅏㅇㅊㅏㄱ	-1680
▁ㅊㅏㄴ	-1681
ㅇㅘㄴ	-1682
▁ㄹㅗㄱ	-1683
ㅇㅓㅅ	-1684
▁ㅂㅣㅇ	-1685
▁ㅇㅏㄴㅌㅏ	-1686
ㅂㅣㄴ	-1687
▁ㅈㅓㄴㅅㅏ	-1688
▁ㄴㅏㄹㅇㅏ	-1689
▁ㅈㅏㄱㅈㅓㄴ	-1690
▁ㅍㅜㅁ	-1691
▁ㅂㅘㅆ	-1692
▁ㅊㅜㅇㅂㅜㄴ	-1693
im	-1694
▁ㅁㅔㄴ	-1695
ㄹㄹㅔ	-1696
▁ㄱㅡㄴㅈㅓㅂ	-1697
▁ㅇㅕㄴㅊㅜㄹ	-1698
▁ㄹㅕㄱ	-1699
▁ㅈㅓㄴㄱㅣ	-1700
▁ㅈㅓㅇㅈㅏㄱ	-1701
▁ㄹㅣㅇㅋㅡ	-1702
▁196	-1703
▁ㅇㅏㄱㅁㅏ	-1704
▁ㅂㅕㄹㄹㅗ	-1705
▁ㅎㅚㄱㄷㅡㄱ	-1706
▁)	-1707
▁48	-1708
ㅅㅑ	-1709
ㄹㅠㄱ	-1710
▁ㄷㅡㅇㄱㅡㅂ	-1711
▁ㅅㅣㄴㄱㅕㅇ	-1712
▁ㅊㅏㅁㄱㅏ	-1713
▁ㄱㅡㄱㅈㅏㅇ	-1714
ㅆㅏ	-1715
▁ㄴㅏㅁㅅㅓㅇ	-1716
▁ㄱㅜㄱㅈㅔ	-1717
▁ㄴㅐㅇ	-1718
▁ㅈㅓㅇㅅㅣㄱ	-1719
ub	-1720
▁ㄷㅗㅇㅁㅜㄹ	-1721
▁ㄹㅗㅅ	-1722
▁ㄷㅓㄴㅈㅓㄴ	-1723
▁ㄷㅏㅇㅅㅣㄴ	-1724
▁2008	-1725
▁ㄷㅟㅅ	-1726
ag	-1727
ㄹㅗㄹ	-1728
ㄷㅜㅇ	-1729
▁ㅍㅏㄴㅈㅓㅇ	-1730
▁ㅁㅕㄹ	-1731
BC	-1732
ㄹㅣㅅ	-1733
▁ㅅㅔㄴㅌㅓ	-1734
▁cm	-1735
▁ㅂㅏㄴㅁㅕㄴ	-1736
▁ㄷㅏㄹㄹㅏ	-1737
▁ㅇㅕㄴㅎㅏㅂ	-1738
▁y	-1739
▁ㄱㅏㄱㅈㅗㅇ	-1740
▁36	-1741
▁ㅅㅗㄹ	-1742
▁ㅇㅕㄴㄱㅕㄹ	-1743
▁ㅇㅣㄹㄹㅓ	-1744
▁ㅋㅐㅁ	-1745
▁ㅇㅣㅂㄴㅣ	-1746
ㅊㅟ	-1747
▁ㅂㅕㄴㅅㅣㄴ	-1748
▁ㅍㅣㄹㄷㅡ	-1749
▁ㅌㅡㄱㅈㅓㅇ	-1750
▁ㄷㅏㄴㅇㅓ	-1751
▁ㅎㅏㅇㅅㅏㅇ	-1752
▁ㅈㅗㅇㄹㅛ	-1753
ㅁㅏㄹㄹㅗ	-1754
▁33	-1755
▁ㅂㅣㄱ	-1756
ㅌㅗㄴ	-1757
▁ㄱㅘㄴㅅㅣㅁ	-1758
ㄲㅏㅂ	-1759
▁ㅇㅏㄴㅈㅓㅇ	-1760
▁ㅁㅏㄴㅇㅑㄱ	-1761
▁Lv	-1762
ㄴㅏㄱ	-1763
▁ㅁㅐㅇ	-1764
ㅋㅣㄴㄷㅏ	-1765
▁*	-1766
▁ㄱㅗㄷ	-1767
▁ㅋㅡㄹㄹㅐ	-1768
▁x	-1769
ㅋㅗㄴ	-1770
▁ㅇㅐㄴ	-1771
▁ㅁㅣㄴㅈㅜ	-1772
ㄲㅡ	-1773
▁ㄸㅜ	-1774
▁ㅅㅕㄴ	-1775
▁ㄱㅗㅇㅇㅕㄴ	-1776
▁ㅎㅘㅇㅈㅔ	-1777
▁ㅂㅜㄴㄴㅗ	-1778
▁ㄷㅏㄴㅈㅓㅁ	-1779
▁ㅈㅏㅇㄱㅏㅂ	-1780
▁ㅂㅜㄱㅎㅏㄴ	-1781
▁e	-1782
ㅂㅜㅌ	-1783
▁ㄱㅏㄱㅅㅓㅇ	-1784
▁ㅁㅜㄹㄱㅓㄴ	-1785
▁ㅇㅓㅂㄷㅔ	-1786
ㅌㅔㄴ	-1787
▁05	-1788
ur	-1789
ㅁㅠ	-1790
▁ㅂㅕㄹㅁㅕㅇ	-1791
▁ㄴㅗㅁ	-1792
ㅇㅏㄹ	-1793
▁ㅉㅡㅁ	-1794
ㅎㅕㄱ	-1795
od	-1796
▁ㅅㅓㄴㄱㅓ	-1797
▁ㄴㅓㄼ	-1798
▁ㅂㅏㄹㅈㅓㄴ	-1799
os	-1800
ㄹㅕㄹ	-1801
ㅎㅏㄱㅅㅐㅇ	-1802
▁ㄱㅙㄴㅊㅏㄶ	-1803
▁02	-1804
▁ㅌㅡㄱㅇㅣ	-1805
▁ㄱㅐㄹ	-1806
▁ㅁㅣㄹㄹㅣ	-1807
▁th	-1808
▁ㅇㅗㅅ	-1809
▁ㅈㅓㅁㅅㅜ	-1810
▁03	-1811
ㄷㅗㅇㅇㅏㄴ	-1812
ㅈㅡㅁ	-1813
▁ㅎㅏㄴㅍㅕㄴ	-1814
ST	-1815
ㅂㅡㄴ	-1816
▁ㄷㅜㄴ	-1817
▁ㄲㅏㄹ	-1818
ㅋㅛ	-1819
▁ㅋㅓㄹ	-1820
ㄴㅠ	-1821
▁ㄷㅏㄹㅅㅓㅇ	-1822
ㅍㅖ	-1823
ㅅㅔㅂ	-1824
▁SK	-1825
▁ㅇㅘㄴㅈㅓㄴ	-1826
▁ㅇㅏㄹㅇㅏ	-1827
▁ㄱㅜㄴㅅㅏ	-1828
▁ㅎㅡㄹ	-1829
▁ㅁㅗㄱㄹㅗㄱ	-1830
▁ㄴㅣㄴ	-1831
▁EX	-1832
ㅂㅏㅂ	-1833
▁ㄸㅢ	-1834
▁ㅅㅣㅇㄱㅡㄹ	-1835
ㅌㅔㄹ	-1836
▁ㅇㅣㄴㄱㅜ	-1837
ㅘㄹ	-1838
▁ㅅㅏㄱㅈㅔ	-1839
▁ㅇㅣㄴㄱㅏ	-1840
▁ㄷㅏㄹㄹㅕ	-1841
ㅅㅙ	-1842
▁ㅅㅜㄴㅇㅟ	-1843
ㅎㅖ	-1844
▁ㅇㅣㄴㅅㅣㄱ	-1845
▁ㅈㅓㅁㅍㅡ	-1846
▁',	-1847
▁ㅊㅣㄹ	-1848
▁ㄱㅜㄱㅁㅣㄴ	-1849
▁ㄷㅏㅇㅎㅏㄴ	-1850
▁ㅋㅟ	-1851
▁ㅁㅝㄴ	-1852
▁ㅎㅗㅁㄹㅓㄴ	-1853
ㅃㅡ	-1854
▁ㅎㅏㄱㅇㅝㄴ	-1855
▁ㄴㅏㅂ	-1856
▁ㅅㅏㅇㄱㅘㄴ	-1857
ㅇㅠㄴ	-1858
▁ㅂㅜㄴㄹㅠ	-1859
um	-1860
▁ㅈㅣㄱㅈㅓㄴ	-1861
▁ㅅㅐㅇㅈㅗㄴ	-1862
▁2007	-1863
▁ㅇㅕㄱㄷㅐ	-1864
▁ㅈㅓㄴㄱㅜㄱ	-1865
ff	-1866
igh	-1867
▁ㅇㅚㄴ	-1868
▁ㅈㅏㅇㅅㅗ	-1869
▁ㅇㅖㅅ	-1870
ㄷㅗㅇㅊㅏ	-1871
▁ㅂㅗㄴㄹㅐ	-1872
▁ㄲㅗㅊ	-1873
ㅇㅏㅁ	-1874
ut	-1875
▁ㅁㅗㅇ	-1876
ent	-1877
▁ㅇㅕㄴㅈㅐ	-1878
ㄷㅜㅁ	-1879
▁34	-1880
▁ㅊㅜㄹㅈㅓㄴ	-1881
▁HP	-1882
▁ㄴㅚ	-1883
▁09	-1884
▁ㅎㅗㄹ	-1885
▁ㅁㅗㄱㅍㅛ	-1886
▁ㅍㅔㄴ	-1887
▁ㅈㅏㄱㄱㅗㄱ	-1888
▁04	-1889
ㅎㅓ	-1890
▁ㄴㅐㄴ	-1891
▁ㄱㅏㅁㅈㅓㅇ	-1892
▁ㅆㅏㅎ	-1893
ㅁㅛ	-1894
▁ㅈㅣㄴㅎㅘ	-1895
ak	-1896
50	-1897
▁07	-1898
ver	-1899
▁ㅈㅓㄴㅈㅏ	-1900
▁ㅇㅣㅇ	-1901
▁08	-1902
AR	-1903
▁ㄱㅣㅍ	-1904
▁06	-1905
▁ㅂㅜㅇ	-1906
▁ㅁㅕㅇㄹㅕㅇ	-1907
▁ㅍㅗㄴ	-1908
▁ㄱㅏㅂㅈㅏ	-1909
▁ㅇㅡㄴㄷㅔ	-1910
▁ㄷㅗㄱㄹㅣㅂ	-1911
▁ㄷㅓㄴㅈㅣ	-1912
▁ㄱㅗㅇㄱㅏㄴ	-1913
▁ㅇㅏㅂㄷㅗ	-1914
ㅈㅜㄹ	-1915
▁ㅌㅗㄴ	-1916
ec	-1917
▁ㅈㅣㅁ	-1918
▁ㄸㅓㄱ	-1919
▁ㄱㅜㄴㄷㅐ	-1920
▁ㅈㅓㄴㄱㅐ	-1921
ㅍㅡㄴ	-1922
▁ㅌㅓㄹ	-1923
ㅇㅏㅅ	-1924
ㄲㅡㄹ	-1925
▁ㅂㅕㅇㅇㅝㄴ	-1926
▁ㅈㅏㄱㅇㅓㅂ	-1927
▁ㅇㅣㄴㅅㅏ	-1928
▁ㅇㅞㅂ	-1929
▁ㄱㅕㅁ	-1930
▁ㅌㅏㄹㅊㅜㄹ	-1931
▁ㄱㅓㄴㅅㅓㄹ	-1932
▁ㅈㅜㅇㅂㅏㄴ	-1933
ㅈㅣㅅ	-1934
▁ㅅㅐㅇㄱㅕㅆ	-1935
▁ㅈㅗㄹㅇㅓㅂ	-1936
AN	-1937
▁ㄹㅗㅅㄷㅔ	-1938
▁Q	-1939
ㅊㅗㄴ	-1940
ㅋㅓㅂ	-1941
▁ㅅㅏㄹㅇㅣㄴ	-1942
▁ㅍㅣㄱ	-1943
▁ㅁㅣㅌ	-1944
▁ㅂㅏㄹㅇㅡㅁ	-1945
ㅂㅓㅂㅅㅏ	-1946
▁2006	-1947
▁ㅎㅕㄴㅅㅏㅇ	-1948
ㄹㅔㄱ	-1949
ㅈㅔㄱㅌㅡ	-1950
▁ㅇㅣㄴㅊㅓㄴ	-1951
▁ㅇㅝㄴㅇㅣㄴ	-1952
▁ㅇㅟㄴ	-1953
▁194	-1954
▁ㄷㅗㅇㅅㅐㅇ	-1955
ㅎㅡㅇ	-1956
ㅇㅜㄴㄷㅔ	-1957
▁ㅁㅗㄹㄹㅏ	-1958
▁38	-1959
▁ㅍㅣㄹㅅㅏㄹ	-1960
▁ㅎㅘㄱㅈㅓㅇ	-1961
▁ㅎㅏㄴㄱㅡㄹ	-1962
▁ㅈㅏㅇㅈㅓㅁ	-1963
ㄲㅓ	-1964
▁ㅃㅜ	-1965
▁ㄱㅕㄲ	-1966
ㅊㅡㅇ	-1967
▁ㄱㅏㅇㅈㅔ	-1968
▁ㅎㅐㅇㅇㅟ	-1969
▁ㅂㅕㅇㅅㅏ	-1970
▁ㅇㅣㅁㅁㅜ	-1971
▁ㅍㅡㄹㄹㅏ	-1972
ㄱㅔㄴ	-1973
▁ㄲㅜㄴ	-1974
▁ㅇㅔㄱㅅㅡ	-1975
▁ㅂㅕㅇㄹㅕㄱ	-1976
▁ㄱㅗㅇㅈㅜ	-1977
▁ㅈㅓㄴㄹㅕㄱ	-1978
▁ㄱㅡㄴㄷㅔ	-1979
▁kg	-1980
▁ㅊㅘㄹ	-1981
▁ㅂㅏㄷㅇㅏ	-1982
▁ㅇㅡㅁㅅㅣㄱ	-1983
▁ㅈㅓㅇㅎㅘㄱㅎㅣ	-1984
ㅅㅕ	-1985
▁ㅈㅜㄹㅇㅓ	-1986
▁ㅅㅣㄴㅊㅔ	-1987
▁ㄱㅕㄹㅅㅡㅇ	-1988
▁ㄱㅕㅇㅈㅐㅇ	-1989
▁ㅇㅘㄴㅅㅓㅇ	-1990
▁ㅂㅜㄺ	-1991
▁ㄹㅗㄹ	-1992
▁ㄱㅡㄴㅊㅓ	-1993
ㅌㅏㄹㄹㅣ	-1994
▁ㅅㅔㅅ	-1995
▁ㅈㅓㄴㅂㅏㄴ	-1996
▁ㅍㅕㅇㄱㅠㄴ	-1997
▁ㅈㅏㅁㅅㅣ	-1998
▁ㅅㅐㅇㄱㅣㄴ	-1999
▁ㄲㅗㄱ	-2000
▁ㅎㅗㅁㅍㅔ	-2001
ㄹㄹㅣㅇ	-2002
▁ㅍㅕㅇㅂㅓㅁ	-2003
ㅅㅜㅁ	-2004
▁ㅇㅗㄹㄹㅕ	-2005
▁>	-2006
▁ㄲㅡㅌㄴㅏ	-2007
ㅅㅡㅁ	-2008
▁ㄹㅗㅂ	-2009
▁ㄱㅏㄴㄷㅏ	-2010
▁ㅋㅐㅂ	-2011
▁in	-2012
▁ㅈㅣㅂㅈㅜㅇ	-2013
▁ㄹㅐㅇㅋㅡ	-2014
▁ㅇㅣㄴㄷㅗ	-2015
▁ㅎㅐㅇㅈㅓㅇ	-2016
▁ㄱㅓㄹㄹㅗ	-2017
▁ㅊㅘㄹㅇㅕㅇ	-2018
▁ㅌㅐㄱ	-2019
ㅁㅔㄴ	-2020
▁ㅇㅗㄻ	-2021
▁ㄱㅘㅇㄱㅗ	-2022
▁ㅈㅗㅇㅈㅗㅇ	-2023
▁FC	-2024
▁ㅂㅏㄴㄷㅡ	-2025
▁ㅅㅓㄴㅅㅐㅇ	-2026
ㅂㅕ	-2027
▁ㅂㅜㄴㅁㅕㅇ	-2028
▁ㅍㅗㄱㅌㅏㄴ	-2029
ㅁㅕㅊ	-2030
▁ㅁㅕㅊㅁㅕㅊ	-2031
▁ㅋㅛ	-2032
▁ㅎㅘㄴㄱㅕㅇ	-2033
▁ㅂㅐㄴㄷㅡ	-2034
▁LG	-2035
▁ㅅㅑㅅ	-2036
▁ㅇㅗㅂㅅㅕㄴ	-2037
▁ㄷㅏㄴㅊㅔ	-2038
▁ㅂㅗㅇㅇㅣㄴ	-2039
ㄹㅏㄴㄷㅡ	-2040
▁you	-2041
▁ㅈㅗㅎㅇㅏ	-2042
ㅍㅣㄱ	-2043
▁ㄱㅜㄷㅇㅣ	-2044
▁ㅈㅗㅇㄱㅛ	-2045
em	-2046
▁ㅅㅣㄹㅎㅓㅁ	-2047
▁ㅈㅣㄴㄷㅏ	-2048
▁ㅂㅗㄱㅅㅜ	-2049
▁ㅉㅗㅊ	-2050
▁ㅍㅏㄴㄷㅏㄴ	-2051
▁ㅅㅕ	-2052
▁ㅂㅏㄹㅇㅓㄴ	-2053
▁ㅇㅘㄴㅂㅕㄱ	-2054
▁ㄱㅗㅇㅍㅗ	-2055
ㅅㅓㅂ	-2056
ON	-2057
ㅈㅔㄹ	-2058
▁ㅈㅣㄱㅎㅜ	-2059
▁ㅎㅏㅁㅈㅓㅇ	-2060
ㅅㅣㅇ	-2061
▁ㄱㅗㄹㄷㅡ	-2062
▁ㅈㅐㄱ	-2063
▁ㅇㅜㄴㅇㅛㅇ	-2064
▁ㅋㅓㅂ	-2065
ㅂㅣㅇ	-2066
▁ㅂㅡㄹㄹㅔ	-2067
▁ㄷㅔㄴ	-2068
ㄴㅣㅁ	-2069
ㅉㅣㄱ	-2070
▁ㄷㅏㄴㅈㅣ	-2071
▁ㅇㅓㅂㄱㅡ	-2072
▁ㅃㅓㄴ	-2073
ㄴㅣㄹ	-2074
▁ㅌㅗㅇㅎㅏㅂ	-2075
▁ㅅㅓㅇㅎㅑㅇ	-2076
▁MA	-2077
▁ㅇㅕㄴㅈㅏㅇ	-2078
▁ㅇㅣㄹㅂㅗㄴㅇㅓ	-2079
▁ㅅㅖ	-2080
▁ㅌㅡㄱㅇㅠ	-2081
▁ㅇㅏㅇ	-2082
▁ㅇㅘㅇㄱㅜㄱ	-2083
▁ㅅㅣㅁㄱㅏㄱ	-2084
▁ㅂㅐㄹ	-2085
ight	-2086
ㅎㅡ	-2087
▁ㅂㅗㄴㄱㅕㄱ	-2088
▁2005	-2089
▁to	-2090
ㅍㅠ	-2091
▁ㅇㅏㅁㅅㅏㄹ	-2092
ㅁㅏㅈ	-2093
ation	-2094
▁ㅈㅓㅁㅈㅓㅁ	-2095
▁ㅇㅓㅁㅊㅓㅇㄴㅏ	-2096
▁ㄷㅏㅇㅎㅐ	-2097
▁ㅇㅕㄹㅊㅏ	-2098
ㄴㅅㅡ	-2099
▁ㅂㅏㅂ	-2100
▁ㄴㅓㄹ	-2101
▁ㅎㅏㄴㄱㅖ	-2102
ㄲㅝ	-2103
▁ㅈㅓㄴㄹㅑㄱ	-2104
▁ㅆㅡㄴㄷㅏ	-2105
▁ㅁㅏㅈㅊㅜ	-2106
▁55	-2107
▁ㅎㅘㄱㅈㅏㅇ	-2108
▁ㅋㅗㄹ	-2109
▁ㅁㅏㅈㅊㅝ	-2110
ㅈㅜㄱ	-2111
▁vs	-2112
▁ㄱㅡㅁㅈㅣ	-2113
▁ㅃㅏㅇ	-2114
▁ㄱㅜㄴㄷㅏㄴ	-2115
▁ㅈㅓㅇㄹㅣ	-2116
▁ㄴㅡㅈ	-2117
▁ㅌㅔㅁ	-2118
▁II	-2119
ㅊㅓㅂ	-2120
▁ㅁㅓㅅ	-2121
▁ㅇㅣㅅ	-2122
▁75	-2123
▁ㅂㅗㄱㄱㅟ	-2124
▁ㅈㅓㅂㄱㅡㄴ	-2125
ㅁㅏㄶ	-2126
▁ㅇㅓㄴㅇㅓ	-2127
▁ㅅㅏㅁㄱㅜㄱ	-2128
▁ㅎㅕㅇㅈㅔ	-2129
▁ㄱㅘㅇㅇㅕㄱ	-2130
▁ㅈㅏㅇㅊㅣ	-2131
ce	-2132
▁99	-2133
▁Ch	-2134
▁ㄴㅗㄹㄹㅏ	-2135
ㅁㅣㄱㅅㅡ	-2136
▁ㅅㅏㅇㅈㅣㅇ	-2137
▁ㄷㅡㄱㅈㅓㅁ	-2138
▁2004	-2139
▁ㅂㅓㅁㅈㅚ	-2140
IN	-2141
ㅃㅡㄴ	-2142
▁ㅂㅜㄹㄱㅏ	-2143
▁ㄱㅐㄹㄹㅓ	-2144
ㄷㅜㄴ	-2145
▁ㅈㅏㅇㄹㅡ	-2146
▁ㅊㅐㄱㅇㅣㅁ	-2147
▁ㅈㅓㄻ	-2148
▁ㅇㅞㄴ	-2149
▁ㄴㅏㅅ	-2150
▁ㄱㅏㄴㄷㅏㄴ	-2151
ap	-2152
ㅅㅕㄹ	-2153
▁ㅎㅕㅇㅅㅣㄱ	-2154
ㅅㅈㅏ	-2155
▁ㄴㅡㄴㄱㅏ	-2156
▁ㅇㅣㄴㅅㅏㅇ	-2157
ㄱㅈㅓㅇ	-2158
▁ㅍㅕㅇㅅㅗ	-2159
▁ㅇㅕㅇㅎㅗㄴ	-2160
ㅅㅓㅅ	-2161
▁ㅎㅠㅇ	-2162
▁42	-2163
▁ㄱㅡㄱㅈㅏㅇㅍㅏㄴ	-2164
▁KBS	-2165
▁ㅂㅡㄹㄹㅜ	-2166
▁ㅈㅓㅇㅇㅢ	-2167
ㅇㅣㅆ	-2168
▁ㅎㅕㄱ	-2169
▁ㅂㅜㄹㅁㅕㅇ	-2170
ㅂㅣㄹ	-2171
▁ㅅㅐㅇㅁㅜㄹ	-2172
ㅈㅘ	-2173
▁39	-2174
ㅎㅗㅇ	-2175
ㄷㅗㄴ	-2176
ul	-2177
000	-2178
▁ㅋㅓㅁㅍㅠ	-2179
▁MBC	-2180
▁ㄷㅏㄹㄹㅓ	-2181
▁ㅌㅏㄹㄹㅏㄱ	-2182
▁ㅇㅣㄹㅈㅗㅇ	-2183
ㄱㅅㅣ	-2184
▁ㅃㅏㄹㄹㅣ	-2185
▁ㅍㅣㄹㅅㅏㄹㄱㅣ	-2186
▁ㅁㅝㄴㄱㅏ	-2187
▁1000	-2188
ㄷㅚ	-2189
▁ㅇㅣㄴㅎㅏㄴ	-2190
▁_	-2191
ㅌㅡㄱ	-2192
ㄹㅝ	-2193
▁ㅍㅗㅁ	-2194
ㅈㅔㄴ	-2195
ㄹㅓㄴㅅㅡ	-2196
▁2002	-2197
ㅇㅑㅇㅇㅣ	-2198
▁41	-2199
▁ㄹㅏㄱ	-2200
▁ㅌㅗㅇㅅㅣㄴ	-2201
▁ㅇㅣㄴㄹㅠ	-2202
▁ㄱㅓㄱㅈㅓㅇ	-2203
▁ㅎㅣㅁㄷㅡㄴ	-2204
▁PC	-2205
▁ㅈㅟ	-2206
▁ㅎㅐㅇㅅㅓㅇ	-2207
ㄹㅏㄹ	-2208
ㅁㅐㄱ	-2209
▁ㅎㅏㄴㄱㅜㄱㅇㅓ	-2210
ㅌㅓㄹ	-2211
▁ㅎㅣㄹ	-2212
▁ㅅㅓㄲ	-2213
ㄲㅏㄴ	-2214
ㅍㅏㄹ	-2215
▁ㅇㅐㄱㅅㅕㄴ	-2216
▁ㄴㅏㄹㄹㅕ	-2217
▁ㅇㅣㅈ	-2218
▁ㅈㅓㄴㅎㅘ	-2219
▁ㄸㅜㅀ	-2220
ㄴㅗㄴ	-2221
▁ㄱㅗㅇㅎㅘ	-2222
ㄷㅣㄴ	-2223
▁ㄷㅏㄻ	-2224
▁ㅆㅓㅆ	-2225
▁ㅊㅜㅇㅂㅜㄴㅎㅣ	-2226
ri	-2227
▁ㅇㅠㄱㄱㅜㄴ	-2228
▁ㅎㅐㅇㅅㅏ	-2229
▁ㄱㅗㅇㄹㅑㄱ	-2230
ㄲㅗ	-2231
ㅁㅗㅇ	-2232
ㄲㅗㅊ	-2233
ㅅㅣㅂ	-2234
▁ㅈㅏㅇㄴㅏㄴ	-2235
▁ㅂㅣㅁ	-2236
ㅌㅏㅂ	-2237
ㄷㅠ	-2238
▁ㅈㅓㄴㅌㅗㅇ	-2239
ㄹㅜㄴ	-2240
ㄷㅗㅇㅅㅐㅇ	-2241
▁ㅂㅏㄱㅅㅏ	-2242
▁44	-2243
▁ㄷㅓㄹ	-2244
▁ㅈㅓㄴㅇㅝㄴ	-2245
▁ㅋㅣㄹ	-2246
▁ㅋㅓㄴㅅㅔㅂ	-2247
▁ㄹㅏㄹ	-2248
ㅍㅔㄴ	-2249
▁ㄴㅐㅆ	-2250
ㄹㅗㅇ	-2251
▁ㄷㅓㅇ	-2252
▁ㄱㅓㅁㅅㅏ	-2253
▁ㅋㅡㄹㄹㅓㅂ	-2254
▁ㄱㅏㅄ	-2255
ㄴㅐㄹ	-2256
▁ㅇㅕㄴㅈㅜ	-2257
▁ㄴㅜㄴㅁㅜㄹ	-2258
nd	-2259
AL	-2260
▁ㅇㅜㅁㅈㅣㄱㅇㅣ	-2261
ㄲㅕ	-2262
▁43	-2263
▁ㅎㅏㅂㄹㅠ	-2264
▁ㄴㅏㄹㄱㅐ	-2265
▁ㅇㅜㄹㅌㅡ	-2266
▁ㅁㅗㄱㅅㅜㅁ	-2267
▁ㅇㅔㅁ	-2268
▁ㅎㅡㅂㅅㅜ	-2269
▁ㅅㅏㅇㅅㅔ	-2270
▁ㅈㅣㅂㄷㅏㄴ	-2271
▁ㄷㅏㄴㅅㅜㄴㅎㅣ	-2272
▁ㅋㅡㄹㄹㅏ	-2273
ㅇㅕㄴㅎㅣ	-2274
ㅊㅚ	-2275
▁ㅅㅜㅅㅈㅏ	-2276
▁ㅈㅓㅇㄱㅠ	-2277
ㅇㅗㅅ	-2278
all	-2279
▁BG	-2280
▁ㄸㅏㄱㅎㅣ	-2281
▁ㅅㅣㅁㅎㅏ	-2282
▁ㅈㅏㅇㄱㅜㄴ	-2283
ㅎㅓㄴ	-2284
ㅋㅟ	-2285
▁ㅂㅓㅅㅇㅓ	-2286
▁ㅅㅣㄹㅅㅜ	-2287
▁ㅈㅓㄱㅈㅓㄹ	-2288
▁ㅁㅐㅈ	-2289
▁ㄱㅕㅂ	-2290
▁ㅁㅗㅅㅎㅏㄴㄷㅏ	-2291
ia	-2292
▁ㅂㅜㄹㄱㅘ	-2293
RA	-2294
▁ㅇㅕㄴㅅㅡㅂ	-2295
ㄴㅕㅇ	-2296
▁ㄱㅕㄱㅌㅜ	-2297
▁2003	-2298
ㅋㅏㄴ	-2299
uby	-2300
▁ST	-2301
ack	-2302
st	-2303
tt	-2304
▁ㅈㅓㄴㅅㅜㄹ	-2305
▁ㅌㅠ	-2306
▁ㅌㅔㄹ	-2307
▁51	-2308
▁ㅎㅏㅁㄷㅐ	-2309
▁ㅇㅏㄹㄹㅣ	-2310
▁ㄷㅗㄱㅈㅏ	-2311
ㄷㅔㄴ	-2312
ㅍㅣㅇ	-2313
▁ㄷㅗㄹㄹㅕ	-2314
▁ㅇㅡㄹㅈㅣ	-2315
▁ㄱㅗㅇㅎㅏㅇ	-2316
▁ㅇㅏㅍㅅㅓ	-2317
▁ㅈㅗㅇㅎㅏㅂ	-2318
▁ㅌㅐㅇ	-2319
▁ㅈㅏㅇㄱㅣ	-2320
ㄷㅡㅁ	-2321
ㄴㅐㄴㄷㅏ	-2322
▁ㅅㅜㅍ	-2323
ㅇㅔㄴ	-2324
▁ruby	-2325
▁ㅂㅜㄴㄹㅣ	-2326
oc	-2327
▁ㅁㅗㅂ	-2328
▁ㅇㅏㄵ	-2329
▁ㅇㅗㄹㄹㅣㅁㅍㅣ	-2330
▁ㅇㅑㄱㅈㅓㅁ	-2331
▁ㅋㅐㄴ	-2332
▁150	-2333
▁ㅂㅏㄴㅂㅗㄱ	-2334
▁ㄷㅏㄱㅌㅓ	-2335
▁ㅋㅓㅅ	-2336
▁ㄱㅡㄴㄱㅓ	-2337
▁ㄱㅗㅇㄷㅗㅇ	-2338
▁ㄸㅡㄴ	-2339
▁ㄱㅏㅁㅇㅏㄴ	-2340
▁195	-2341
▁ㄱㅘㅇㅈㅜ	-2342
ㄲㅐ	-2343
▁47	-2344
▁ㅅㅓㅇㅇㅣㄴ	-2345
▁VS	-2346
▁ㅅㅓㄹㄱㅖ	-2347
▁SP	-2348
art	-2349
ㅇㅕㅂ	-2350
▁ㅊㅏㄱㅇㅛㅇ	-2351
▁ㅍㅓㄴ	-2352
ㅁㅕㄴㄹㅏ	-2353
▁46	-2354
▁ㄴㅏㅆ	-2355
▁ㅎㅐㄴ	-2356
▁ㅇㅗㄴㄹㅏ	-2357
▁ㄲㅗㄹ	-2358
▁st	-2359
▁ㅍㅣㄹㅅㅜ	-2360
▁ㅂㅕㅇㄱㅣ	-2361
▁ㅎㅘㄱㅅㅣㄹㅎㅣ	-2362
▁PS	-2363
ㄱㅜㄱㅇㅣㄴ	-2364
▁ㅂㅏㄺㅎㅕㅆ	-2365
ㅌㅣㄱ	-2366
ra	-2367
▁ㅎㅏㄴㅈㅏ	-2368
▁ㅈㅜㅇㅎㅏㄱㄱㅛ	-2369
▁ㅎㅜㄹ	-2370
▁ㅍㅕㄴㅅㅓㅇ	-2371
▁ㅈㅓㄴㅎㅘㄴ	-2372
ㄴㅓㅁ	-2373
▁64	-2374
▁ㄱㅞ	-2375
▁ㄲㅗㅂ	-2376
▁ㅇㅝㄴㄱㅓ	-2377
▁ㅂㅏㅇㅍㅐ	-2378
ㅎㅣㄴㄷㅏ	-2379
▁ㅍㅠ	-2380
▁ㄴㅗㅍㅇㅣ	-2381
▁MP	-2382
▁ㅍㅕㄹㅊㅣ	-2383
ㅁㅗㄹ	-2384
▁ㄷㅡㅇㄹㅗㄱ	-2385
▁ㅌㅡㄱㄱㅣ	-2386
▁ㅍㅏㄴㅌㅏ	-2387
▁ㅁㅗㅅㅎㅐ	-2388
▁ㅅㅔㄹ	-2389
▁ㄱㅘㄴㅎㅏㄴ	-2390
▁ㄱㅗㅇㅅㅏ	-2391
▁ㄱㅘㄴㅌㅗㅇ	-2392
▁ㅅㅡㅇㄱㅏㅇ	-2393
▁ㅅㅏㄴㅇㅓㅂ	-2394
▁ㅍㅣㅇ	-2395
▁and	-2396
▁ㅇㅏㄴㅅㅡㅂ	-2397
▁ㅇㅣㄴㅇㅝㄴ	-2398
▁ㄴㅔㄱ	-2399
▁ㅅㅓㄴㅇㅓㄴ	-2400
▁ㄹㅐㅇ	-2401
▁ㄸㅔ	-2402
▁i	-2403
▁No	-2404
▁ㄷㅡㅇㄷㅡㅇ	-2405
▁ㅇㅡㄴㅌㅚ	-2406
▁or	-2407
▁ㅈㅣㄴㅈㅓㅇ	-2408
ㅍㅣㄴ	-2409
ㅇㅜㄴㅌㅓ	-2410
▁ㅇㅗㄹㄹㅣㅁㅍㅣㄱ	-2411
ㅁㅓㄹ	-2412
▁ㅅㅡㅇㅂㅜ	-2413
▁ㅈㅓㅇㅊㅐㄱ	-2414
▁ㅂㅏㅇㅎㅐ	-2415
▁ㅊㅗㄱ	-2416
▁ㅇㅣㄴㅎㅕㅇ	-2417
▁In	-2418
ㅅㅏㅁ	-2419
▁ㄴㅏㄴㄷㅏ	-2420
▁ㅈㅏㅁㄲㅏㄴ	-2421
▁ㄱㅘㄴㄱㅘㅇ	-2422
▁ㅌㅗㅇㄱㅘ	-2423
▁ㅂㅡㄹㄹㅗ	-2424
▁ㅇㅕㄴㄱㅖ	-2425
ㅌㅓㅁ	-2426
▁ㅅㅡㅂㄱㅕㄱ	-2427
▁ㅂㅐㅁ	-2428
▁ㄴㅣㄱ	-2429
PC	-2430
▁ㅎㅡㄴㅎㅣ	-2431
▁ㅇㅝㄴㅈㅓㅇ	-2432
op	-2433
AT	-2434
▁373	-2435
▁ㄱㅜㄱㅎㅚ	-2436
▁ㅇㅓㄴㄹㅗㄴ	-2437
▁ㅅㅣㄹㅅㅣ	-2438
ㅂㅏㄴㅂㅜ	-2439
▁ㅁㅜㄲ	-2440
▁ㅅㅓㄴㅈㅓㅇ	-2441
▁ㅅㅏㅇㅊㅓ	-2442
▁ㅇㅓㅇ	-2443
▁ㄷㅏㅇㅈㅏㅇ	-2444
▁ㅅㅣㄹㅈㅓㅁ	-2445
ie	-2446
▁ㄷㅗㄹㄹㅣ	-2447
▁dd	-2448
ㄷㅡㄹㅇㅣ	-2449
▁ㄲㅡㄹㅇㅓ	-2450
▁ㅇㅏㄴㅈㅓㄴ	-2451
▁ㅁㅕㅇㅈㅜㅇ	-2452
▁ㅎㅖ	-2453
▁ㅎㅕㅁ	-2454
▁ㄲㅡㅌㄴㅐ	-2455
est	-2456
▁ㅈㅓㄴㅎㅐ	-2457
ㅂㅣㅊ	-2458
▁ㄱㅗㅇㅂㅜ	-2459
▁ㅁㅕㄹㅁㅏㅇ	-2460
▁ㅇㅏㄴㄷㅡ	-2461
▁400	-2462
OR	-2463
▁ㅇㅓㅁㅁㅏ	-2464
▁ㅇㅕㄱㅈㅓㄴ	-2465
▁ㅈㅓㄱㄱㅡㄱ	-2466
▁ㄱㅔㄴ	-2467
▁ㄱㅗㅇㄱㅜㄴ	-2468
ill	-2469
▁ㅇㅚㄴㅉㅗㄱ	-2470
▁ㅂㅐㄹㄹㅓㄴㅅㅡ	-2471
▁ㄱㅏㅅ	-2472
dddd	-2473
▁dddddd	-2474
▁ㅉㅏㄹ	-2475
▁2001	-2476
▁ㄷㅗㅇㅁㅐㅇ	-2477
▁CD	-2478
▁ㅅㅓㄹㄹㅣㅂ	-2479
ㅅㅅㅜ	-2480
▁ㅈㅣㄴㅇㅣㅂ	-2481
▁ㄹㅏㅂ	-2482
IA	-2483
▁ㄷㅚㅁ	-2484
ㅇㅟㄴ	-2485
▁ㅋㅓㄴㅌㅡ	-2486
▁ㅅㅏㅂ	-2487
▁ㅇㅕㅇㅇㅣㅂ	-2488
▁ㅌㅏㅂㅈㅐ	-2489
▁ㅈㅓㅇㄷㅏㅇ	-2490
▁ㄹㅜㄹ	-2491
▁ㅎㅘㅇㄱㅡㅁ	-2492
▁ㅅㅗㄹㄹㅗ	-2493
ik	-2494
ㅂㅌㅓ	-2495
▁ㅎㅐㅇㅈㅓㄱ	-2496
▁ㄴㅏㄹㄹㅣ	-2497
▁ㅇㅡㄴㄱㅡㄴ	-2498
▁ㅈㅏㅂㅇㅏ	-2499
▁ㅋㅗㅇ	-2500
▁ㅁㅓㄹㅌㅣ	-2501
OS	-2502
▁ㅈㅣㄹㅁㅜㄴ	-2503
▁ㄸㅓㄹ	-2504
▁52	-2505
▁ㅂㅗㄴㅅㅓㄴ	-2506
▁ㅋㅣㄱ	-2507
▁ㄱㅕㅇㄹㅕㄱ	-2508
▁193	-2509
▁ㅈㅔㄴ	-2510
▁ㅊㅓㅇㅅㅗ	-2511
▁Re	-2512
▁ㅍㅣㄴ	-2513
ate	-2514
▁ㅅㅐㅇㄱㅕ	-2515
ㅇㅣㄴㅈㅓ	-2516
▁ㅅㅓㄴㅂㅗ	-2517
ㅊㅣㄴㄷㅏ	-2518
▁⊸	-2519
ㅁㅏㄴㅋㅡㅁ	-2520
▁ㄲㅏㄲ	-2521
▁ㄱㅏㅇㅎㅐ	-2522
▁ㄴㅜㄴㅊㅣ	-2523
▁ㄴㅏㅁㅍㅕㄴ	-2524
▁ㅊㅐㅇ	-2525
▁ㅂㅏㅇㅁㅜㄴ	-2526
ㅍㅜㄹ	-2527
▁ㅂㅜㄴㅇㅑ	-2528
▁ㅈㅜㅇㄷㅏㄴ	-2529
ㄱㅣㄴㄷㅏ	-2530
▁%,	-2531
ㅊㅓㅇㅈㅏ	-2532
▁ㅁㅣㄴㅈㅗㄱ	-2533
▁ㅇㅛㅇㅂㅕㅇ	-2534
▁ㅈㅣㄴㅇㅕㅇ	-2535
▁ㄱㅜㄴㅇㅣㄴ	-2536
▁ㄹㅗㅇ	-2537
▁ㄱㅏㄹㄹㅣ	-2538
▁ㅁㅏㄱㅈㅏㅇ	-2539
th	-2540
▁ㅂㅓㄹㅇㅣ	-2541
▁Sh	-2542
▁65	-2543
▁ㅌㅐㅅ	-2544
ㅎㅏㄱㅈㅏ	-2545
▁1990	-2546
▁ㄱㅓㄹㄹㅕ	-2547
▁ㅂㅜㅌㅇㅕ	-2548
▁ㅁㅓㅁ	-2549
IC	-2550
ㄴㅗㅎㄱㅗ	-2551
ㅅㅚ	-2552
ㄴㅚ	-2553
ㅎㅡㄱ	-2554
▁ㄷㅗㄹㅍㅏ	-2555
▁ㅇㅠㅇ	-2556
▁ㅈㅏㅇㅈㅓㄴ	-2557
▁ㅍㅕㄴㅈㅣㅂ	-2558
▁ㄱㅗㅇㅌㅗㅇ	-2559
ttp	-2560
PS	-2561
▁http	-2562
▁ㅅㅓㄴㅁㅜㄹ	-2563
▁ㅇㅗㄴㄱㅏ	-2564
▁ㄱㅕㅇㅇㅠ	-2565
▁ㅈㅗㅂ	-2566
▁ㅇㅡㄴㅎㅐㅇ	-2567
▁ㄴㅣㄴㅈㅏ	-2568
▁ㅎㅘㄱㅂㅗ	-2569
▁ㅅㅣㄴㅎㅘ	-2570
ㄹㅠㅇ	-2571
▁ㄹㅛㅇ	-2572
▁56	-2573
▁ㅇㅗㄴㄱㅏㅈ	-2574
▁ㄱㅕㄴㅈㅔ	-2575
▁ㄴㅐㄹ	-2576
▁ㄷㅏㄴㅇㅟ	-2577
▁ㅅㅏㄹㅎㅐ	-2578
▁ㅈㅣㄴㅅㅣㄹ	-2579
▁ㅅㅡㅇㄱㅏㅇㅈㅏㅇ	-2580
▁ㄴㅘ	-2581
ㅋㅏㄹ	-2582
ㄹㅡㄴㅉㅗㄱ	-2583
ㅋㅗㅇ	-2584
▁ㅇㅕㄹㄹㅣ	-2585
▁Sp	-2586
▁ㅊㅏㅇㅈㅏㄱ	-2587
ED	-2588
▁ㅇㅛㅇㄷㅗ	-2589
▁ㅈㅓㄴㅈㅏㅇ	-2590
▁ㅂㅣㄹㄹㅣ	-2591
▁ㅈㅏㅇㅇㅐ	-2592
▁ㅇㅕㄴㅇㅖ	-2593
ㅉㅓㄹ	-2594
▁ㄷㅔㄹ	-2595
▁ㅇㅣㄴㅅㅐㅇ	-2596
▁ㅈㅓㅇㄹㅕㅇ	-2597
▁ㄸㅓㄱㅂㅏㅂ	-2598
▁ㅎㅐㅇㅂㅗㄱ	-2599
▁54	-2600
ㅍㅐㄱ	-2601
▁49	-2602
▁ㅁㅓㄹㄹㅣ	-2603
▁ㅅㅜㄴㅅㅓ	-2604
▁2020	-2605
▁ㅈㅓㅇㄹㅠ	-2606
▁ㅈㅏㄱㅅㅓㅇ	-2607
▁ㅍㅕㅇㅎㅘ	-2608
▁ㅂㅏㄹㅎㅟ	-2609
AS	-2610
▁ㅂㅜㅇㄱㅚ	-2611
▁53	-2612
▁120	-2613
▁ㅅㅜㄴㅅㅜ	-2614
▁ㄱㅕㅇㄱㅖ	-2615
▁ㅅㅐㅇㅅㅓㅇ	-2616
▁ㄴㅏㅂㅊㅣ	-2617
▁ㅌㅏㄴㅅㅐㅇ	-2618
▁ㅇㅓㄹㅇㅡㅁ	-2619
▁You	-2620
ㅅㅗㄱㄷㅗ	-2621
ab	-2622
ess	-2623
EN	-2624
▁ㅌㅏㅂㅅㅡㅇ	-2625
ㅜㄹㄹㅓ	-2626
▁ㅎㅚㅅㅅㅜ	-2627
▁ㄱㅓㄴㅈㅣ	-2628
▁ㄴㅔㅅ	-2629
▁ㅋㅜㄹㅌㅏ	-2630
▁SBS	-2631
▁ㅅㅣㄹㅈㅣㄹ	-2632
▁ㄱㅜㅇㄱㅡㄱ	-2633
▁ㅇㅘㄴㄹㅛ	-2634
▁ㅂㅏㄱㅅㅡ	-2635
▁ㅅㅏㅇㅈㅏ	-2636
ㄹㅐㅅ	-2637
▁ㅌㅡㅁ	-2638
▁ㅈㅏㄶ	-2639
▁ㄱㅐㅇ	-2640
ㅇㅜㄴㄷㅏ	-2641
ㄴㅟ	-2642
▁ㅈㅓㄴㄷㅐ	-2643
▁ㅇㅡㄹㄲㅏ	-2644
▁ㅉㅗ	-2645
▁ㅎㅕㄴㅈㅏㅇ	-2646
ㅈㅓㄴㅈㅏ	-2647
▁ㅅㅐㅇㅇㅣㄹ	-2648
ㅆㅡ	-2649
▁ㅅㅡㅂㄷㅡㄱ	-2650
▁Bl	-2651
ㅅㅟㅂ	-2652
▁ㅇㅕㅇㅇㅕㄱ	-2653
ㄹㅓㄴㅈㅣ	-2654
▁ㅅㅏㄹㅉㅏㄱ	-2655
▁ㄷㅗㅇㅂㅏㅇ	-2656
▁ㅇㅓㅂㅊㅔ	-2657
▁85	-2658
▁ㅇㅑㄱㅎㅏㄴ	-2659
ㄹㅡㅅ	-2660
ㅈㅜㄴㅎㅣ	-2661
▁ㅅㅓㄴㅂㅐ	-2662
▁ㅎㅏㄴㅎㅘ	-2663
▁ㅇㅘㅇㅈㅏ	-2664
ㄴㅗㅁ	-2665
▁ㄱㅗㅇㅇㅝㄴ	-2666
▁ㄷㅗㅇㄴㅔ	-2667
▁ㅊㅜㅁ	-2668
ㅅㅗㄹ	-2669
▁ㄷㅏㅇㅎㅏㄴㄷㅏ	-2670
▁ㅅㅜㅁㄱㅕ	-2671
▁ㅈㅓㅁㄹㅕㅇ	-2672
ㄱㅜㄴㄱㅏ	-2673
ㅍㅡㄹㄹㅔ	-2674
ㅇㅝㄴㅎㅚ	-2675
▁ㅎㅜㄹㄹㅠㅇ	-2676
eat	-2677
▁ㅈㅏㅇㅅㅜ	-2678
▁ㄱㅕㅇㅎㅑㅇ	-2679
▁ㅂㅏㄴㅇㅕㅇ	-2680
ct	-2681
▁ㅋㅝㄹ	-2682
▁ㅁㅜㄴㅈㅏ	-2683
ㅌㅜㄴ	-2684
▁ㄱㅏㅂㅇㅗㅅ	-2685
▁ㅁㅜㄴㅁㅕㅇ	-2686
▁ㄷㅗㄹㄱㅕㄱ	-2687
▁ㅊㅓㄴㅅㅏ	-2688
ard	-2689
▁ㅊㅡㄱㅁㅕㄴ	-2690
▁ㄴㅏㅎ	-2691
ㅈㅓㄴㄷㅡ	-2692
▁ㅌㅗㅇㅇㅣㄹ	-2693
▁ㅍㅕㄴㅇㅢ	-2694
▁ㅇㅟㅇ	-2695
▁ㄹㅜㄴ	-2696
ㄷㅓㄹ	-2697
▁ㅈㅓㅇㅁㅏㄹㄹㅗ	-2698
▁ㅍㅗㄱㅍㅜㅇ	-2699
▁ㅇㅡㅇㅇㅝㄴ	-2700
ㅋㅓㄴ	-2701
up	-2702
▁ㅅㅏㄻ	-2703
▁ㅉㅏㄱ	-2704
▁ㅇㅑㄱㅅㅗㄱ	-2705
▁ㅉㅏㅇ	-2706
▁ㅅㅣㄴㅅㅔ	-2707
▁ㅅㅏㅇㅍㅜㅁ	-2708
▁ㄱㅓㄴㄴㅓ	-2709
▁57	-2710
▁ㅎㅗㅇㅂㅗ	-2711
▁ㅎㅏㄴㄸㅐ	-2712
ㅌㅣㅁ	-2713
▁ㄱㅗㅇㅈㅏㅇ	-2714
▁ㅊㅜㄹㅊㅓ	-2715
▁ㅈㅣㅂㅇㅏㄴ	-2716
ㅅㅛ	-2717
ㅌㅗㅁ	-2718
ㅇㅣㄹㄹㅓㅅ	-2719
▁ㄴㅏㄲ	-2720
▁ㅊㅏㄹ	-2721
▁ㄱㅜㄴㅈㅜ	-2722
▁ㅂㅗㄴㄷㅏ	-2723
▁66	-2724
▁ㅊㅜㄹㅂㅏㄹ	-2725
▁ㅂㅐㄴ	-2726
ㅅㅣㅁㅎㅣ	-2727
▁DJ	-2728
▁ㅁㅣㄹㄹㅕ	-2729
▁ㄱㅗㅇㄱㅣ	-2730
▁ㅇㅓㅂㅁㅜ	-2731
ㅇㅣㄹㄹㅣ	-2732
ㅈㅣㅁ	-2733
ine	-2734
▁ㅋㅡㄹㄹㅗ	-2735
ㅎㅔ	-2736
ㅍㅜ	-2737
▁ㅂㅗㄴㅁㅕㅇ	-2738
▁AT	-2739
ㅉㅐㅆ	-2740
▁ㅍㅏㅂ	-2741
ㅈㅏㄴ	-2742
ant	-2743
▁ㅎㅘㄴㅅㅡㅇ	-2744
ㅎㅣㄹ	-2745
ist	-2746
▁ㄷㅏㄴㄷㅗㄱ	-2747
EC	-2748
▁AC	-2749
OL	-2750
▁ㄲㅡㅌㄴㅏㄴ	-2751
▁ㅈㅓㄴㅎㅏㅁ	-2752
▁1999	-2753
ㅁㅣㄹㄹㅣ	-2754
▁ㅇㅛㅇㅇㅓ	-2755
ㅌㅔㄴㅊㅡ	-2756
▁ㅈㅣㄱㅇㅝㄴ	-2757
▁ㅇㅕㄹㄹㅣㄴ	-2758
▁ㅇㅑㄱㅎㅏ	-2759
▁ㅈㅓㄱㄷㅏㅇ	-2760
▁ㅎㅕㅂㄹㅕㄱ	-2761
▁ㄹㅐㄴㄷㅓㅁ	-2762
▁ㅁㅗㄹㅇㅏ	-2763
ㅇㅑㄴ	-2764
▁BGM	-2765
▁ㄷㅐㅅ	-2766
▁76	-2767
ㅎㅠ	-2768
▁ㅇㅕㅇㅇㅝㄴ	-2769
▁58	-2770
▁MS	-2771
ㄹㅕㅇㄱㅘㄴ	-2772
▁ㅊㅜㅇㅈㅓㄴ	-2773
LC	-2774
ㄹㅐㅆ	-2775
▁NPC	-2776
▁95	-2777
▁ㅊㅜㅇㄷㅗㄹ	-2778
▁ㅈㅓㅇㅎㅐ	-2779
▁ㅆㅗㄷ	-2780
▁TH	-2781
▁re	-2782
ㄹㅕㅁ	-2783
▁ㅂㅕㄴㅎㅏ	-2784
ue	-2785
ㅁㅓㅇ	-2786
▁ㅇㅓㄴㄴㅣ	-2787
ㄴㅕㅆ	-2788
▁ㅇㅕㄴㅅㅏㅇ	-2789
▁ㅎㅗㄴㄹㅏㄴ	-2790
ㅍㅔㄱ	-2791
ㅅㅔㄹ	-2792
▁ㄷㅗㅇㅇㅏ	-2793
▁77	-2794
ㅉㅓ	-2795
ㅎㅐㅇㅎㅣ	-2796
▁ㅅㅣㄹㅎㅐㅇ	-2797
▁ㄱㅕㄱㅍㅏ	-2798
ip	-2799
ㄱㅓㅂ	-2800
▁AP	-2801
▁ㅎㅢㄴ	-2802
▁ㄱㅡㄴㅁㅜ	-2803
▁ㅇㅜㄴㅁㅕㅇ	-2804
▁com	-2805
▁ㅎㅓㄴㅌㅓ	-2806
ㄹㅡㅇ	-2807
▁ㄱㅓㄴㄱㅏㅇ	-2808
▁72	-2809
▁ㅅㅓㄹㄷㅡㄱ	-2810
ㄹㅓㅇ	-2811
ㅋㅗㅁ	-2812
▁CP	-2813
▁ㅅㅚ	-2814
▁ㅁㅜㄱ	-2815
▁ㅈㅓㄴㅎㅕㅇ	-2816
ore	-2817
▁Al	-2818
▁ㅇㅏㅁㅎㅡㄱ	-2819
ㅇㅗㄹㄹㅣ	-2820
ind	-2821
ㅌㅣㄹ	-2822
▁62	-2823
AM	-2824
▁ㄷㅜㄹㄹㅓ	-2825
▁ㅂㅜㄴㅅㅓㄱ	-2826
▁ㅇㅕㄴㅇㅐ	-2827
▁ㄷㅡㄴㅈㅣ	-2828
▁ㅅㅞ	-2829
▁ㅂㅗㄱㅈㅏㅇ	-2830
▁ㅂㅕㄴㅎㅕㅇ	-2831
▁ㅂㅕㄹㄱㅐ	-2832
▁ㅇㅝㄴㅅㅜ	-2833
▁ㅅㅣㅁㅈㅏㅇ	-2834
▁ㅂㅏㄼ	-2835
▁88	-2836
▁ㄷㅐㄴㅅㅡ	-2837
▁1998	-2838
▁98	-2839
▁ㅇㅕㄴㅅㅏ	-2840
one	-2841
ang	-2842
ㅂㅘ	-2843
▁ㅈㅑ	-2844
▁Th	-2845
▁ㅂㅗㄴㅂㅜ	-2846
▁ㅂㅏㄱㅅㅏㄹ	-2847
PG	-2848
▁ㅅㅏㅁㄱㅜㄱㅈㅣ	-2849
▁ㅂㅜㄹㄲㅗㅊ	-2850
▁ㅅㅏㅇㅎㅑㅇ	-2851
▁ㄱㅔㅅ	-2852
▁ㄴㅡㄱ	-2853
▁ㅇㅕㄴㅂㅏㅇ	-2854
▁ㅂㅏㄴㄹㅏㄴ	-2855
▁ㅅㅓㅂ	-2856
▁ㅌㅗㅇㅎㅏ	-2857
▁ㅎㅐㄱㅅㅣㅁ	-2858
▁ㅇㅕㄹㅅㅣㅁㅎㅣ	-2859
▁ㄲㅡㅁ	-2860
IT	-2861
▁ㅎㅕㅇㅅㅓㅇ	-2862
▁ㅁㅏㄴㅈㅗㄱ	-2863
▁ㅎㅡㄹㄹㅓ	-2864
ㅁㅅㅐ	-2865
▁ㅈㅡㅇㄱㅓ	-2866
▁ㅅㅣㄹㄷㅡ	-2867
▁ㅇㅔㄹㅍㅡ	-2868
▁ㅈㅏㅇㄱㅛ	-2869
▁ㅇㅖㅅㄴㅏㄹ	-2870
▁ㅂㅕㄹㄷㅗ	-2871
ell	-2872
▁ㅅㅣㄴㄹㅚ	-2873
▁ㅂㅜㄹㄹㅓㅆ	-2874
▁ㄸㅐㄴ	-2875
▁ㅈㅜㄱㅇㅕ	-2876
▁ㄱㅏㅇㅈㅗ	-2877
▁ㅇㅓㅄㅇㅐ	-2878
▁'.	-2879
▁ㅇㅔㄱ	-2880
ㅅㅗㄱㅈㅏㄱ	-2881
▁ㅈㅓㄴㄱㅗㅇ	-2882
▁ㄴㅏㅁㄱㅣ	-2883
ㄹㅡㅁㄷㅏ	-2884
▁ㄱㅓㅁㅅㅐㄱ	-2885
▁ㅎㅏㅂㅊㅔ	-2886
▁ㅂㅜㅌㅈㅏㅂ	-2887
ㄸㅏ	-2888
▁ㄷㅗㅇㅇㅕㅇ	-2889
▁800	-2890
▁ㅂㅡㄹㄹㅓ	-2891
▁ㅎㅏㅁㅅㅓㄴ	-2892
ㅆㅏㄴ	-2893
ㄹㅔㅁ	-2894
▁ㅇㅣㅂㄹㅕㄱ	-2895
▁ㅁㅔㄹ	-2896
▁59	-2897
▁ㅎㅏㅂㅊㅕ	-2898
▁ㅋㅣㄴ	-2899
▁ㅈㅓㄱㅇㅓ	-2900
▁ㅊㅗㅇㄱㅣ	-2901
▁....	-2902
▁ㅂㅗㅁ	-2903
▁ㅅㅐㅁ	-2904
▁ㄷㅗㅇㅇㅕㅇㅅㅏㅇ	-2905
▁600	-2906
if	-2907
ㅉㅓㅇ	-2908
▁ㄹㅐㄴㄷㅡ	-2909
▁SS	-2910
▁ㅈㅓㄹㅂㅏㄴ	-2911
▁ㅍㅗㄱㅈㅜ	-2912
▁ㅈㅓㄴㅊㅓㄹ	-2913
▁ㅇㅜㄴㅈㅓㄴ	-2914
▁ㅈㅣㄴㅈㅣ	-2915
▁ㅁㅣㄴㄱㅏㄴ	-2916
▁ㄱㅗㅁ	-2917
▁ㅎㅏㄱㄱㅘ	-2918
▁ㄱㅝㄴㄹㅕㄱ	-2919
ㅍㅏㅇ	-2920
▁ㄹㅐㅂ	-2921
ㄹㅔㅅ	-2922
▁ㄴㅏㅇ	-2923
▁ㄷㅓㅍ	-2924
▁ㅇㅗㅇ	-2925
ort	-2926
ㅊㅗㄱ	-2927
ㅍㅔㄱㅌㅡ	-2928
▁ㄱㅏㄴㅂㅜ	-2929
▁ㅈㅓㅇㄱㅝㄴ	-2930
▁ㄹㅣㄱ	-2931
▁!!	-2932
ㄷㅜㄱ	-2933
▁ㅌㅣㄱ	-2934
▁ㅁㅕㅇㅇㅖ	-2935
▁ㅅㅣㅁㄹㅣ	-2936
▁61	-2937
▁ㅊㅑ	-2938
▁ㅎㅑㅇㅎㅐ	-2939
ㄹㄹㅣㄱ	-2940
▁ㅅㅓㄴㅎㅗ	-2941
▁ㅎㅘㄴㅅㅏㅇ	-2942
▁ㅎㅏㄴㄱㅜㄱㅇㅣㄴ	-2943
▁1997	-2944
▁ㄴㅡㄱㄷㅐ	-2945
▁ㄷㅏㅇㅎㅏㄹ	-2946
▁ㄱㅠㄴ	-2947
ld	-2948
▁ㅅㅡㄹㄹㅏ	-2949
ive	-2950
▁ㅇㅣㄹㅅㅏㅇ	-2951
▁ㅂㅏㄴㅈㅣ	-2952
ok	-2953
ㅈㅓㄴㅊㅏ	-2954
▁ㅇㅑㅇㅅㅏㄴ	-2955
FA	-2956
▁ㅈㅏㄱㅅㅏ	-2957
▁ㅈㅏㄱㅇㅛㅇ	-2958
▁ㄷㅓㅅ	-2959
▁ㅇㅕㅇㅇㅓㅂ	-2960
ㅇㅡㅂ	-2961
▁ㄱㅝㄴㅊㅗㅇ	-2962
▁ㅇㅙㄴ	-2963
▁ㄷㅏㅎ	-2964
▁ㄷㅏㅇㅎㅘㅇ	-2965
ㅋㅐ	-2966
ㅊㅏㅇㄱㅣ	-2967
▁ㅂㅜㄹㅁㅏㄴ	-2968
▁ㅊㅜㄴ	-2969
ers	-2970
ㅅㅜㄹㅅㅏ	-2971
▁ㄱㅗㅇㅇㅠ	-2972
ㄴㅣㄴㄷㅏ	-2973
▁ㅁㅣㄱ	-2974
ㄷㅜㅇㅇㅣ	-2975
▁ㅎㅕㄴㅈㅣ	-2976
▁ㅋㅙ	-2977
ㅈㅏㄱㅈㅣㄴ	-2978
▁ㄷㅗㅇㅇㅝㄴ	-2979
▁ㅅㅣㄴㅈㅏㅇ	-2980
▁191	-2981
▁ㄷㅓㄴㅈㅕ	-2982
ㅁㅣㄱ	-2983
▁ㄱㅣㅁㅅㅓㅇ	-2984
▁ㅁㅓㄱㅇㅣ	-2985
▁ㅈㅓㅇㅈㅣ	-2986
▁ㄱㅏㅈㅊㅜ	-2987
▁ㅍㅣㄹㄹㅣ	-2988
ㅅㅣㄱㄱㅏㄴ	-2989
▁ㅇㅕㄴㄷㅗ	-2990
▁ㅎㅏㄱㅅㅏㄹ	-2991
VE	-2992
▁ㅅㅜㄴㅅㅣㄱㄱㅏㄴ	-2993
▁ㅈㅜㅇㄱㅖ	-2994
▁ㅇㅜㅁㅈㅣㄱㅇㅣㅁ	-2995
ove	-2996
ㅝㅆ	-2997
▁ㅊㅜㄹㅎㅕㄴ	-2998
▁ㅌㅐㅇㅋㅡ	-2999
▁ㄴㅐㄴㄷㅏ	-3000
▁ㅈㅓㄴㅈㅣㄱ	-3001
▁ㄱㅣㅅ	-3002
▁An	-3003
ㅁㅍㅡ	-3004
▁ㅈㅓㄴㅈㅓㄱ	-3005
▁ㅈㅡㅇㅁㅕㅇ	-3006
▁ㅇㅕㄴㄷㅐ	-3007
▁ㅌㅗㅇㅈㅔ	-3008
ain	-3009
▁ㄱㅕㅇㅇㅕㅇ	-3010
▁ㄱㅡㄴㅇㅠㄱ	-3011
▁ㅋㅗㄹㄹㅏ	-3012
▁ㅁㅏㄴㄴㅏㄴ	-3013
▁ㅎㅕㄱㅁㅕㅇ	-3014
▁ㅂㅜㄹㅍㅕㄴ	-3015
▁ㅌㅔㄹㄹㅔ	-3016
ㅁㅐㄴㄷㅡ	-3017
ㄲㅓㅅ	-3018
▁ㅊㅜㄹㅍㅏㄴ	-3019
▁ㅎㅏㄹㅈㅣ	-3020
▁ㅍㅕㄴㅎㅏ	-3021
▁KO	-3022
▁ㅈㅡㄱㅅㅣ	-3023
▁ㄹㅕㅇ	-3024
▁ㅅㅏㄹㄹㅕ	-3025
▁ㅊㅜㄹㅅㅐㅇ	-3026
ㄹㅣㅁㅈㅏ	-3027
▁ㄱㅜㄱㅈㅓㄱ	-3028
▁ㅋㅟㄴ	-3029
▁ㅂㅗㄹㅌㅡ	-3030
▁Se	-3031
▁ㄱㅓㅌ	-3032
▁74	-3033
▁ㄱㅗㅇㅈㅏㄱ	-3034
ㄸㅡㄱ	-3035
▁NC	-3036
▁ㄱㅓㄷ	-3037
ong	-3038
▁ㅋㅝ	-3039
▁ㅇㅣㄴㅅㅜ	-3040
▁ㄱㅕㅇㅂㅣ	-3041
▁ㅇㅕㄴㄱㅘㄴ	-3042
▁1980	-3043
▁ㄷㅗㅇㄱㅣ	-3044
▁63	-3045
▁ㅈㅓㄴㅅㅓㄴ	-3046
▁ㅇㅏㄹㅍㅏ	-3047
▁ㄷㅡㅇㅍㅏㄴ	-3048
▁ㅆㅣㄴ	-3049
▁ㅈㅗㅇㅈㅓㅁ	-3050
▁ㅈㅏㄶㅇㅏ	-3051
▁ㅈㅏㅇㅅㅣㄱ	-3052
▁",	-3053
▁ㅅㅏㅇㅅㅏㅇ	-3054
▁ㄷㅗㅇㅈㅏㄱ	-3055
▁an	-3056
ㄱㅘㅇㅇㅕㄱ	-3057
▁ㅂㅏㄴㄱㅕㄱ	-3058
▁ㅃㅏㄹㄱㅏㄴ	-3059
▁ㅅㅣㄴㄱㅗ	-3060
▁ㅂㅗㄱㅈㅏㅂ	-3061
ith	-3062
▁ㅈㅏㄱㄷㅗㅇ	-3063
▁ㅍㅗㄱㄱㅕㄱ	-3064
▁ㅈㅏㅇㄱㅘㄴ	-3065
ㅂㅅㅡ	-3066
ㅊㅏㅈ	-3067
ㅋㅓㅁ	-3068
▁ㅈㅏㅁㅅㅜ	-3069
MA	-3070
▁ㄴㅗㅇㄱㅜ	-3071
▁ㅂㅜㄹㅇㅏㄴ	-3072
▁ㅁㅗㄹㄹㅐ	-3073
ㅐㅇㅇㅣ	-3074
ㄹㅠㄴ	-3075
▁ㅌㅏㄱ	-3076
▁ㄱㅏㄹㄷㅡㅇ	-3077
▁ㅊㅏㅁㅈㅓㄴ	-3078
▁71	-3079
▁96	-3080
ㅂㅕㅇㄷㅐ	-3081
▁ㅇㅏㄱㅇㅕㄱ	-3082
▁ㄹㅔㅂ	-3083
ㅁㅜㄱ	-3084
▁ㅊㅜㄹㅈㅏㅇ	-3085
▁MAX	-3086
▁68	-3087
▁ㄱㅡㄹㅈㅏ	-3088
▁1996	-3089
▁ㅂㅜㄴㄱㅣ	-3090
ㅍㅔㄹ	-3091
▁ㄱㅏㄴㄱㅕㄱ	-3092
ㅎㅔㄴ	-3093
▁ㄱㅓㄹㅇㅓ	-3094
▁ㅇㅕㄲ	-3095
▁ㅈㅓㄴㅂㅏㅇ	-3096
ㅋㅜㄹ	-3097
▁AK	-3098
▁DLC	-3099
ast	-3100
▁ㅇㅣㄹㅈㅏ	-3101
▁ㅎㅡㅇㅎㅐㅇ	-3102
▁ㄱㅕㅇㅎㅓㅁㅊㅣ	-3103
ㄴㅓㅎ	-3104
▁ㅇㅣㄹㅈㅣ	-3105
▁97	-3106
ㄷㅡㄴㄱㅏ	-3107
RE	-3108
end	-3109
▁ㅇㅞㄴㅁㅏㄴ	-3110
ㅍㅗㅁ	-3111
ㄱㅘㅇㅇㅕㄱㅅㅣ	-3112
▁ㄱㅏㅇㅊㅓㄹ	-3113
▁ㅂㅡㄹㄹㅣ	-3114
▁ㅁㅜㄹㅈㅣㄹ	-3115
▁ㅅㅣㅁㅎㅏㄴ	-3116
▁ㄱㅏㄴㅎㅗㄱ	-3117
ㄲㅏㄹ	-3118
▁ㅂㅏㄺㅎㅣ	-3119
▁ㅅㅣㄴㅂㅜㄴ	-3120
▁ㄸㅗㄱㄱㅏㅌㅇㅣ	-3121
▁ㅍㅗㄱㄹㅕㄱ	-3122
og	-3123
ㅇㅜㄹㄹㅣ	-3124
▁ㅇㅡㄴㄱㅡㄴㅎㅣ	-3125
▁ㅅㅣㄴㅁㅜㄴ	-3126
▁ㅊㅏㄱㄱㅏㄱ	-3127
▁ㅍㅕㅇㅌㅏ	-3128
▁ㄱㅡㄱㄷㅏㄴ	-3129
▁ㄷㅗㄹㅈㅣㄴ	-3130
▁73	-3131
▁ㅎㅏㄴㅂㅏㅇ	-3132
▁ㅈㅓㄹㅁㅏㅇ	-3133
ㅁㅕㅇㅌㅏ	-3134
▁ㅋㅝㄹㄹㅣ	-3135
▁ㅌㅣㅇ	-3136
ew	-3137
▁ㅎㅘㄴㅈㅏ	-3138
▁ㅎㅡㄴㄷㅡㄹ	-3139
▁ㄴㅏㅁㅂㅜ	-3140
▁ㅈㅓㄴㅅㅣ	-3141
ㅌㅐㄴ	-3142
▁ㅇㅣㅂㅎㅏㄱ	-3143
▁ㅈㅗㅇㅇㅣ	-3144
▁ㅇㅣㄱㅅㅜㄱ	-3145
▁ㅂㅓㅁㅇㅣㄴ	-3146
▁ㄷㅏㄹㄹㅣㄴ	-3147
ㄴㅏㅂ	-3148
▁ㅁㅜㄴㅈㅏㅇ	-3149
▁ㅇㅏㅂㅂㅏㄱ	-3150
▁ㅌㅗㅇㅅㅏㅇ	-3151
▁ff	-3152
▁1995	-3153
▁ㅈㅡㄹㄱㅣ	-3154
▁ㅊㅠ	-3155
▁ㅎㅜㅁ	-3156
▁ㅌㅏㄴㅇㅑㄱ	-3157
▁ㄷㅏㅇㅅㅓㄴ	-3158
▁KT	-3159
▁US	-3160
▁ㅆㅓㄴ	-3161
▁ㅊㅜㄹㄹㅕㄱ	-3162
ㄷㅡㄹㅇㅕ	-3163
▁67	-3164
▁ㅃㅣ	-3165
▁ㅎㅐㄴㄷㅡ	-3166
▁ㄱㅗㅇㅅㅏㄴ	-3167
▁THE	-3168
▁ㅈㅜㅇㄷㅐ	-3169
▁ㅃㅕ	-3170
▁ㅊㅏㅇㅈㅗ	-3171
▁;	-3172
▁He	-3173
▁ㄲㅔ	-3174
ㅌㅗㅂ	-3175
▁ㅇㅡㄴㅎㅏ	-3176
▁ㅎㅡㅁ	-3177
▁ㄱㅏㅁㅅㅏ	-3178
▁ㅇㅠㅇㅎㅏㅂ	-3179
▁ㅂㅓㄴㄱㅐ	-3180
▁78	-3181
▁ㄱㅐㄱ	-3182
▁ㄱㅏㅁㅇㅕㅁ	-3183
▁ㅂㅜㄱㅁㅣ	-3184
ㄴㅜㄴ	-3185
ㅉㅐㅆㄷㅡㄴ	-3186
▁81	-3187
av	-3188
▁ㅅㅒ	-3189
ㅅㅓㅇㄱㅣ	-3190
▁ㄱㅐㄹㄹㅓㄱ	-3191
▁ㄷㅐㅅㄱㅡㄹ	-3192
ㅇㅠㅇ	-3193
▁ㅇㅔㄴㅌㅓ	-3194
▁}	-3195
▁ㅊㅓㄹㅈㅓ	-3196
▁ㅇㅣㄴㅈㅡㅇ	-3197
▁ㅇㅡㅁㅅㅓㅇ	-3198
▁JR	-3199
ㄷㅓㅇ	-3200
▁ㅇㅛㅇㅅㅏ	-3201
▁ㅈㅓㄴㅇㅕㄱ	-3202
▁ㄱㅣㅁㅈㅓㅇ	-3203
▁ㄷㅜㅇ	-3204
▁ㅅㅣㄴㅊㅓㅇ	-3205
▁ㄷㅣㄹㄹㅓ	-3206
▁ㅇㅣㅂㅅㅜ	-3207
▁ㅂㅠ	-3208
▁ㅇㅐㅇ	-3209
ly	-3210
▁ㅁㅏㅈㅇㅣ	-3211
▁ㅆㅘ	-3212
PM	-3213
▁ㅎㅓㅁ	-3214
▁ㅋㅗㄴㅅㅓ	-3215
▁ㅈㅜㅇㅎㅘ	-3216
▁ㅅㅣㄴㅅㅓㅇ	-3217
se	-3218
▁ㅋㅡㄹㄹㅔ	-3219
ㄷㅓㄴㄱㅏ	-3220
▁ㅍㅡㄹㄹㅗ	-3221
▁192	-3222
▁ㄱㅕㄹㅁㅏㄹ	-3223
▁ㄴㅓㄴ	-3224
ㅇㅣㅇ	-3225
▁91	-3226
▁ㅍㅔㄹ	-3227
▁ㄴㅗㄱㅇㅡㅁ	-3228
▁ㅇㅞㅂㅌㅜㄴ	-3229
▁ㅇㅡㅁㅂㅏㄴ	-3230
▁ㄱㅐㄹㄹㅓㄱㅅㅣ	-3231
ㅈㅣㅅㅁㅏㄹ	-3232
▁ㅇㅣㄱㅅㅡ	-3233
▁HD	-3234
▁180	-3235
▁ㅁㅣㄹㅇㅓ	-3236
OT	-3237
▁ㄷㅡㄹㅇㅣ	-3238
ㄹㅜㄱ	-3239
ㅎㅐㅇㄱㅣ	-3240
▁SD	-3241
▁ㅂㅜㅌㅇㅣ	-3242
▁ㄱㅗㅇㅎㅏㄱ	-3243
▁ㄷㅗㅇㅎㅘ	-3244
▁ㅍㅕㄴㅈㅣ	-3245
▁ㅌㅡㄱㅎㅘ	-3246
ㄹㅓㅆ	-3247
▁ㅅㅣㄴㅇㅣㄴ	-3248
▁ㅅㅏㅇㄷㅏㅇㅅㅜ	-3249
▁ㅇㅠㄱㅊㅔ	-3250
▁ㅎㅑㅇㅅㅏㅇ	-3251
▁ㅁㅓㄹㅉㅓㅇ	-3252
▁j	-3253
▁250	-3254
ㅌㅗㄹㄹㅣㄱ	-3255
▁ㅎㅕㅂㅎㅚ	-3256
IS	-3257
▁ㄲㅓㄲ	-3258
▁ㅃㅏㄹㄹㅏ	-3259
▁ㅇㅗㄹㄹㅕㅆ	-3260
▁ㄷㅏㄴㅇㅣㄹ	-3261
AC	-3262
▁ㅎㅔㄴ	-3263
▁84	-3264
▁Le	-3265
▁ㄱㅘㄴㄱㅐㄱ	-3266
▁1994	-3267
▁ㅅㅣㄴㄱㅣ	-3268
▁ㅃㅏㄱ	-3269
▁Ar	-3270
ㄹㅏㄴㅅㅐㄱ	-3271
▁ㅁㅏㄴㄴㅏㅆ	-3272
▁ㅌㅗㅇㅎㅏㄴ	-3273
▁ㅇㅜㄹㅅㅏㄴ	-3274
▁ㅎㅜㅅ	-3275
▁ㅇㅣㄹㅇㅝㄴ	-3276
▁ㅅㅣㄹㅂㅓ	-3277
▁ㅇㅗㄴㄷㅏ	-3278
▁De	-3279
▁ㅅㅏㅇㅈㅓㅁ	-3280
▁ㄹㅣㄹㄹㅣ	-3281
▁ㅎㅕㄴㅇㅕㄱ	-3282
▁ㅍㅓㄴㅊㅣ	-3283
ㅇㅇㅣ	-3284
▁ㅈㅓㅁㅊㅏ	-3285
BO	-3286
▁ㅁㅜㄹㄹㅓ	-3287
▁ㅈㅓㅇㅂㅗㄱ	-3288
▁ㅈㅏㄱㅎㅘ	-3289
▁69	-3290
▁ㅇㅣㅂㄱㅜ	-3291
▁ㅇㅐㅂ	-3292
▁ㅁㅜㄴㅎㅏㄱ	-3293
▁ㄱㅕㄹㄹㅗㄴ	-3294
▁ㄱㅡㅇ	-3295
▁ㅁㅏㅁ	-3296
▁ㅅㅣㄴㄱㅠ	-3297
▁ㄱㅗㅇㄱㅡㅂ	-3298
▁ㄱㅕㅇㅅㅏㅇ	-3299
▁82	-3300
▁MV	-3301
▁ㅎㅗㅇㅋㅗㅇ	-3302
▁ㅎㅚㅇ	-3303
▁ㅅㅠㅅ	-3304
ㄱㅣㅁ	-3305
▁ㅇㅗㄹㄹㅏㅆ	-3306
▁ㅆㅓㄱ	-3307
▁ㅎㅗㄹㄹㅗ	-3308
ㄹㅓㅁㅇㅔ	-3309
▁SN	-3310
▁ㅇㅣㅁㅅㅣ	-3311
▁ㅇㅗㄻㄱㅕ	-3312
▁ㄱㅓㅂ	-3313
▁ㅈㅏㅂㅈㅣ	-3314
▁ㅁㅗㄹㄹㅕ	-3315
▁ㅂㅜㄹㄹㅣㄴㄷㅏ	-3316
▁ㄹㅏㅁ	-3317
ry	-3318
▁ㄱㅣㄹㄷㅡ	-3319
▁ㅅㅡㄹㄹㅗㅅ	-3320
▁86	-3321
▁ㅈㅓㄴㄷㅏㄹ	-3322
▁is	-3323
▁190	-3324
FC	-3325
▁ㅅㅣㅁㅍㅏㄴ	-3326
▁ㅊㅓㅇㄴㅕㄴ	-3327
ㄷㅗㄱㄱㅛ	-3328
ㅅㅡㄹㄹㅏㅁ	-3329
ㄷㅏㄷ	-3330
▁{	-3331
▁ㅇㅕㄴㅌㅏ	-3332
ㄹㅣㄴㅇㅣ	-3333
▁MC	-3334
▁ㄱㅜㄱㄱㅜㄴ	-3335
▁ㅇㅏㄴㄱㅕㅇ	-3336
▁ㅌㅡㄱㅈㅣㅂ	-3337
▁ㅇㅣㄴㄱㅗㅇ	-3338
ㅈㅏㅂㅇㅣ	-3339
ㅋㅙ	-3340
▁ㅇㅕㄴㅇㅣㄴ	-3341
▁ㅅㅓㅇㄱㅘ	-3342
▁ㄸㅡㄷ	-3343
▁ㅋㅓㄹㄹㅓ	-3344
▁ㅅㅗㄴㄱㅏ	-3345
▁ㄱㅜㄱㅇㅓ	-3346
▁ㅈㅓㄴㅁㅕㄴ	-3347
▁ㅂㅗㄴㅈㅏㄱ	-3348
▁ㅇㅠㄱㅅㅓㅇ	-3349
▁ㅎㅏㅂㅅㅓㅇ	-3350
▁for	-3351
ㅇㅗㅇ	-3352
▁ㄴㅓㅁㄱㅣ	-3353
▁ㅈㅣㄴㅅㅣㅁ	-3354
▁ㅁㅕㅇㅈㅜㅇㄹㅠㄹ	-3355
▁ㅂㅏㄴㅂㅏㄹ	-3356
▁ㅅㅣㄴㄹㅏ	-3357
▁ㅇㅣㄴㄱㅡㄴ	-3358
▁ㅍㅡㄹㄹㅓ	-3359
▁ㅎㅏㄴㅈㅣ	-3360
▁ㄱㅏㅇㅇㅢ	-3361
▁ㅅㅣㅁㅎㅐ	-3362
▁ㅁㅜㅇ	-3363
ity	-3364
▁ㅂㅏㅇㅅㅏ	-3365
ㄲㅟㄴ	-3366
▁ㅋㅐㅁㅍㅓ	-3367
▁PD	-3368
▁ㄱㅕㄹㅅㅡㅇㅈㅓㄴ	-3369
▁ㅎㅏㄴㅂㅓㄴ	-3370
▁ㄱㅏㅇㄴㅏㅁ	-3371
▁GS	-3372
▁ㅊㅣㅁㄱㅗㅇ	-3373
▁ㅇㅑㄱㅎㅐ	-3374
▁ㅈㅓㄴㅎㅏ	-3375
▁ㄴㅓㅁㄱㅕ	-3376
▁ㅇㅣㅂㄷㅏㄴ	-3377
▁''	-3378
ㅈㅛ	-3379
ㅋㅗㄹ	-3380
ㅎㅗㄹ	-3381
▁ㅇㅣㄹㅂㅏㄴㅇㅣㄴ	-3382
ㄷㅏㄹㄹㅣ	-3383
▁ㅇㅕㅇㅁㅜㄴ	-3384
▁ㄹㅓㄱ	-3385
▁ㅎㅏㅅ	-3386
▁ㅎㅏㄴㅁㅏ	-3387
▁ㅂㅡㄹㄹㅗㄱ	-3388
ㅅㅏㄱ	-3389
▁be	-3390
▁ㄱㅏㅁㅅㅣ	-3391
ㄴㅣㄴㄱㅏ	-3392
▁92	-3393
ㅂㅕㅂ	-3394
▁ㄹㅔㅅ	-3395
▁ㅂㅏㄴㅅㅏ	-3396
▁ㅈㅓㅇㅁㅕㄴ	-3397
▁AI	-3398
▁ㅎㅏㄴㄷㅗㅇㅇㅏㄴ	-3399
▁ㅇㅕㅇㅌㅗ	-3400
▁ㅂㅜㄴㄹㅑㅇ	-3401
▁FI	-3402
▁ㅅㅣㄱㅁㅜㄹ	-3403
ㅁㅓㄴㅌㅡ	-3404
▁ㅅㅏㄹㄹㅣ	-3405
▁ㅊㅓㅁ	-3406
▁ㅅㅗㄱㅎㅏ	-3407
▁110	-3408
▁ㅇㅘㅇㅈㅗ	-3409
▁ㄴㅗㄹㅇㅣ	-3410
▁ㅅㅣㄱㅅㅏ	-3411
ㅁㅏㅇㅊㅣ	-3412
▁ㅎㅏㄹㅇㅏ	-3413
ㅇㅣㅁㅅㅡ	-3414
▁ㅅㅣㅇㅋㅡ	-3415
▁ㅈㅔㄹ	-3416
▁ㅈㅏㅈ	-3417
▁ㅇㅏㄹㄹㅔㄱ	-3418
▁ㅂㅕㄴㅎㅗ	-3419
▁ㅊㅓㄴㅈㅐ	-3420
▁ㅇㅜㅇ	-3421
ㄴㅏㅁㄷㅗ	-3422
▁ㄷㅗㅇㅂㅜ	-3423
▁79	-3424
▁ㅇㅕㄴㄹㅏㄱ	-3425
ㄱㅘㄴㅊㅗㅇ	-3426
▁ㅊㅐㅂㅌㅓ	-3427
ㅂㅏㄴㄱㅣ	-3428
▁ㄱㅜㄱㅂㅏㅇ	-3429
▁ㄴㅗㅇㄷㅏㅁ	-3430
ㄷㅗㅇㅈㅏ	-3431
▁94	-3432
▁ㅊㅛ	-3433
ㅇㅓㄴㄱㅏ	-3434
▁ㄱㅣㅁㅇㅕㅇ	-3435
▁ㅈㅓㄴㅅㅓㅇㄱㅣ	-3436
▁ㅇㅏㄴㅌㅣ	-3437
▁ㄷㅗㅂ	-3438
▁ㅋㅗㄹㄹㅗ	-3439
▁ㄷㅡㄴㄷㅏ	-3440
ㅋㅔㄴ	-3441
▁ㅇㅏㄴㄴㅐ	-3442
ㅇㅣㄹㄹㅐㄴㄷㅡ	-3443
▁ㅎㅏㄴㅊㅏㅁ	-3444
▁ㅁㅓㅇ	-3445
▁ㅈㅓㄴㅅㅣㄴ	-3446
ㅈㅓㅇㄱㅓ	-3447
▁93	-3448
▁ㄱㅡㄹㄹㅗ	-3449
▁ㅅㅕㅆ	-3450
▁ㄱㅓㄹㄹㅣㄴ	-3451
▁83	-3452
▁ㅎㅏㅂㄱㅕㄱ	-3453
ass	-3454
▁ffff	-3455
▁ㅎㅕㅂㅂㅏㄱ	-3456
ㅁㅏㅅ	-3457
ㅅㅏㅇㅈㅏ	-3458
▁ㄱㅏㅁㅇㅗㄱ	-3459
▁ㄴㅓㄹㄹㅣ	-3460
▁ㅁㅏㅇㄱㅏ	-3461
ㅋㅓㅅ	-3462
▁ㅇㅐㄹㄹㅣ	-3463
OM	-3464
ㄴㅣㄱㅅㅡ	-3465
▁ㅇㅣㄴㅈㅓㅇㅂㅏㄷ	-3466
▁ㅇㅣㅁㅁㅕㅇ	-3467
▁ㅅㅣㄴㅎㅗ	-3468
▁ㅇㅑㅇㅉㅗㄱ	-3469
▁ㅇㅣㅂㅎㅣ	-3470
▁ㄲㅏㅇ	-3471
▁ㅇㅟㄹㄹㅣ	-3472
▁IC	-3473
her	-3474
▁ㄲㅡㄴ	-3475
ㅆㅡㄹ	-3476
▁ㅇㅣㄹㅈㅔ	-3477
▁SC	-3478
▁ㅂㅣㅅ	-3479
▁ㅁㅗㄱㄱㅕㄱ	-3480
▁ㅇㅝㄴㅂㅗㄴ	-3481
▁ㅋㅓㄴㅌㅔㄴㅊㅡ	-3482
▁AR	-3483
▁ㅂㅜㄹㅂㅓㅂ	-3484
▁ㅂㅗㅅ	-3485
▁ffffff	-3486
▁ㄱㅏㄹㅅㅜ	-3487
▁ㅊㅗㄴ	-3488
▁ㅅㅏㅇㅇㅓㅂ	-3489
age	-3490
▁89	-3491
ㄲㅜㄴ	-3492
▁700	-3493
▁ㅎㅜㅅㄴㅏㄹ	-3494
▁ㅈㅜㄹㅇㅕ	-3495
▁ㅇㅘㄹ	-3496
▁ㅂㅐㅇ	-3497
ㅆㅏㅇ	-3498
▁ㄹㅣㅁ	-3499
▁ㄹㅐㅇㅋㅣㅇ	-3500
▁ㅅㅏㅇㄱㅡㅂ	-3501
▁ㅅㅏㅁㅈㅣㄴ	-3502
▁ㄱㅗㅇㅈㅣ	-3503
▁OST	-3504
ide	-3505
▁ㄹㅔㄱ	-3506
ㅅㅓㅆ	-3507
ㄹㅐㅅㄷㅗㅇㅇㅏㄴ	-3508
▁ㅈㅣㅂㅇㅓ	-3509
ㅂㅜㅇ	-3510
▁ㅅㅏㅇㅅㅓㅇ	-3511
▁ㅁㅔㄴㅌㅏㄹ	-3512
UN	-3513
▁ㄱㅓㄹㅊㅕ	-3514
▁GB	-3515
▁ㅃㅐㅅ	-3516
ID	-3517
▁ㅈㅓㅂㅅㅗㄱ	-3518
▁ㅇㅣㄹㄱㅕㄱ	-3519
ㅉㅓㄱ	-3520
▁ㅊㅜㄱㅈㅔ	-3521
▁87	-3522
▁ㅂㅗㄱㅁㅜ	-3523
▁ㅇㅏㄹㄹㅔ	-3524
ark	-3525
▁ㄷㅣㅇ	-3526
▁ㅇㅣㄹㅅㅣ	-3527
▁Tr	-3528
▁FA	-3529
▁ㅂㅜㄱㅂㅜ	-3530
▁ㅈㅓㄱㄷㅐ	-3531
▁ㅂㅕㄹㄷㅏ	-3532
▁ㅆㅣㅂ	-3533
▁ㅅㅓㅇㅂㅕㄹ	-3534
▁ㅅㅐㄴ	-3535
▁ㅅㅡㅇㄱㅕㄱ	-3536
▁ㅇㅣㄹㄱㅣ	-3537
▁ㄱㅗㅇㅁㅜ	-3538
ㄹㅣㄱㅅㅡ	-3539
▁ㄲㅡㄹㄹㅕ	-3540
▁ㅁㅕㅇㅅㅓㅇ	-3541
VA	-3542
▁ㅍㅔㅅ	-3543
EM	-3544
ep	-3545
ax	-3546
▁ㅈㅓㄴㅎㅜ	-3547
▁ㅂㅏㄱㅈㅓㅇ	-3548
▁ㅉㅗㅊㅇㅏ	-3549
▁GT	-3550
ㅃㅓ	-3551
▁ㅍㅕㄴㅇㅣㅂ	-3552
▁DS	-3553
▁ㄴㅜㄹㄹㅓ	-3554
▁KIA	-3555
▁ㅅㅟㄹ	-3556
▁ㄹㅣㅅ	-3557
▁ㅈㅜㄱㅇㅣㄹ	-3558
▁ㅈㅜㄱㅇㅣㄴ	-3559
▁On	-3560
▁on	-3561
ㄲㅣㄹ	-3562
▁ㄱㅏㄷ	-3563
▁ㄷㅏㄱ	-3564
▁ㄱㅏㄱㅈㅏ	-3565
▁ㄱㅓㄴㅊㅜㄱ	-3566
▁ㅍㅐㄴㄷㅓㅁ	-3567
▁ㄹㅜㅁ	-3568
▁ㅈㅏㅂㅎㅕ	-3569
▁ㅈㅓㅇㅂㅣ	-3570
ㄷㅓㄹㄹㅏㄴㄷㅡ	-3571
ood	-3572
▁ㅎㅕㅇㅅㅏ	-3573
ire	-3574
▁ㄱㅕㅇㄱㅗ	-3575
ㅂㅜㄱㄷㅗ	-3576
▁CC	-3577
▁ㅇㅣㄴㅎㅏ	-3578
▁ㄷㅏㄴㅈㅏㅇ	-3579
ge	-3580
▁ㅂㅏㅇㅈㅣ	-3581
▁ㅈㅓㅇㅊㅏㄹ	-3582
▁ㅎㅘㄴㅇㅕㅇ	-3583
▁ㄱㅣㅁㅌㅐ	-3584
ust	-3585
ES	-3586
ob	-3587
▁ㄲㅏㅁ	-3588
▁ㅂㅣㅈ	-3589
▁ㅈㅓㄱㅎㅕ	-3590
▁ㅌㅗㅁ	-3591
ock	-3592
▁WW	-3593
ect	-3594
▁ㄷㅣㄴ	-3595
▁ㄱㅕㄹㅋㅗ	-3596
▁ㅌㅡㄴ	-3597
▁ㅍㅕㄹㅊㅕ	-3598
▁ㄲㅗㅈ	-3599
▁ㅅㅐㅇㄹㅑㄱ	-3600
▁ㄱㅗㄹㄷㅡㄴ	-3601
▁ㅇㅕㄴㄱㅡㅁ	-3602
▁1992	-3603
▁ㄱㅡㅇㅈㅓㅇ	-3604
▁ㅇㅕㄴㄹㅛ	-3605
▁ㅇㅐㄱㅌㅣ	-3606
ㅇㅣㄹㄷㅡ	-3607
▁ㅍㅡㄹㄹㅐㅅ	-3608
▁ㄹㅗㄱㅁㅐㄴ	-3609
▁ㅇㅣㄹㄹㅔ	-3610
▁ㅇㅝㄴㅅㅗ	-3611
▁ㄱㅕㅌ	-3612
▁ㅂㅣㄹㄷㅡ	-3613
▁ㅈㅓㄴㅁㅕㄹ	-3614
AD	-3615
▁ㄴㅏㅁㄱㅕ	-3616
▁ㅎㅕㄹㅇㅐㄱ	-3617
ㄴㅝ	-3618
ㅁㅔㄹ	-3619
▁ㅇㅕㅇㅎㅑㅇㄹㅕㄱ	-3620
▁ㅋㅐㅁㅍㅔ	-3621
▁ㅁㅐㄱㅅㅡ	-3622
▁ㅎㅏㄱㅂㅜ	-3623
▁it	-3624
▁ㅌㅏㄴㅊㅏㅇ	-3625
▁ㅇㅣㄹㄹㅏㅁ	-3626
▁ㅇㅣㄴㅇㅕㄴ	-3627
▁ㄷㅏㄴㅍㅕㄴ	-3628
▁ㄱㅗㄷㅂㅏ	-3629
▁ㄸㅗㅇ	-3630
ㄹㅐㄴㅅㅡ	-3631
▁ㅌㅡㄱㅈㅓㄴ	-3632
ㄹㅗㅁ	-3633
▁ㄷㅚㅂㄴㅣ	-3634
▁ㅅㅣㄱㄷㅏㅇ	-3635
▁ㅃㅓ	-3636
▁1993	-3637
▁ㄱㅏㅇㅇㅝㄴ	-3638
mer	-3639
▁ㅇㅣㄴㄱㅕㄱ	-3640
▁Be	-3641
▁ㅇㅟㄹ	-3642
▁ㄱㅕㄹㅅㅓㅇ	-3643
▁ㅇㅏㄱㄷㅏㅇ	-3644
ㅇㅜㄴㅌㅡ	-3645
▁ㅋㅐㅂㅌㅣㄴ	-3646
ㅈㅏㄱㅈㅏ	-3647
▁ㅎㅓㅅ	-3648
▁ㅅㅐㅇㅁㅕㅇㄹㅕㄱ	-3649
▁130	-3650
▁ㄷㅓㅅㅂㅜㅌ	-3651
▁ㄷㅗㄱㅌㅡㄱ	-3652
▁CPU	-3653
ㄷㅏㄴㅎㅣ	-3654
ㅁㅔㄴㅌㅡ	-3655
▁ㅇㅙㄴㅈㅣ	-3656
▁ㅈㅜㄴㅅㅜ	-3657
▁ㅁㅗㄹㄹㅏㅆ	-3658
▁ㅇㅓㄱㅈㅣ	-3659
▁ㅌㅔㄱ	-3660
ㄹㅡㅍ	-3661
▁ㅁㅏㅈㅅㅓ	-3662
▁ㄱㅏㄹㄹㅏ	-3663
ㄱㅓㄹㄹㅗ	-3664
▁ㄱㅣㄹㅇㅣ	-3665
ㄷㅗㅇㅈㅓㄴ	-3666
▁ㅂㅡㄹㄹㅏ	-3667
▁ㅁㅗㅅㅎㅏㄹ	-3668
▁ㅈㅓㄴㅈㅣㄴ	-3669
▁ㅇㅛㅇㄱㅣ	-3670
ㄴㅕㄱ	-3671
ㅊㅣㅁㄴㅐ	-3672
▁ㅈㅓㄴㅁㅜㄴㄱㅏ	-3673
▁ㅅㅣㄴㅅㅓㄹ	-3674
▁ㅊㅣㅂ	-3675
▁|	-3676
▁ㄷㅡㄹㅇㅕ	-3677
▁me	-3678
▁ㅇㅗㄹㄹㅣㄴ	-3679
▁ㅇㅣㄴㅈㅗ	-3680
▁Te	-3681
are	-3682
▁EN	-3683
▁ㅈㅓㅂㅊㅗㄱ	-3684
ㄷㅓㅇㅇㅣ	-3685
ㅅㅖ	-3686
▁ㅅㅣㄹㅈㅓㄴ	-3687
ㅌㅏㅁ	-3688
▁ㄱㅡㄱㅂㅗㄱ	-3689
▁ㅎㅏㄱㅈㅏ	-3690
▁SM	-3691
▁ㄴㅗㄴㄹㅣ	-3692
▁ㅍㅕㄴㄱㅗㄱ	-3693
▁AM	-3694
▁ㅇㅣㄴㄷㅣ	-3695
▁ㅊㅜㅇㅅㅓㅇ	-3696
▁ㅅㅣㄴㅈㅣ	-3697
▁ㅎㅓㄹ	-3698
▁ㅌㅜㄹ	-3699
▁IS	-3700
▁ㅌㅐㅇㅋㅓ	-3701
▁ㄸㅏㄴ	-3702
iv	-3703
ance	-3704
▁ㄱㅕㄹㅈㅓㄴ	-3705
▁Me	-3706
CG	-3707
▁ㅁㅔㄱㅅㅣ	-3708
▁ㅎㅘㄹㅅㅓㅇ	-3709
ㄲㅡㄴ	-3710
▁ㅈㅜㅇㄷㅗㄱ	-3711
▁ㅅㅣㄴㅂㅜ	-3712
▁ㅂㅗㄴㅊㅔ	-3713
▁ㅁㅝㄹ	-3714
▁ㄱㅜㄱㄹㅣㅂ	-3715
▁ㅅㅜㅇ	-3716
▁ㄱㅡㅁㅅㅗㄱ	-3717
▁ㅂㅜㄱㅉㅗㄱ	-3718
▁ㅇㅝㄴㅈㅜ	-3719
▁@	-3720
▁ㅇㅘㄴㄱㅕㄹ	-3721
▁1988	-3722
▁ch	-3723
VD	-3724
▁ㅌㅗㅂ	-3725
▁ㄴㅐㅁㅅㅐ	-3726
▁101	-3727
▁ㅁㅗㄹㄹㅏㄱ	-3728
▁ㄷㅏㅁㅂㅐ	-3729
▁ㄷㅡㄹㄹㅣ	-3730
▁ㅈㅓㅇㅊㅏ	-3731
▁ㅆㅏㅇㄷㅜㅇㅇㅣ	-3732
▁ㅇㅡㅁㅇㅝㄴ	-3733
▁ㅇㅓㅂㅈㅓㄱ	-3734
ㅌㅡㄱㅂㅕㄹ	-3735
ㅍㅐㄱㅌㅡ	-3736
▁.."	-3737
▁ㅍㅗㄹㄹㅣ	-3738
▁ㄷㅏㄺ	-3739
▁ㅅㅏㅇㅎㅏ	-3740
▁.....	-3741
qu	-3742
ound	-3743
▁ㄷㅏㄷ	-3744
ㅈㅏㄱㅅㅏ	-3745
▁ㄴㅏㅁㅉㅗㄱ	-3746
▁ㅂㅏㄹㄷㅏㄹ	-3747
▁ㅇㅡㅁㅁㅗ	-3748
▁ㅋㅏㄹㄹㅣ	-3749
▁My	-3750
▁SR	-3751
our	-3752
iz	-3753
▁ㅅㅣㄴㅂㅣ	-3754
▁ㅌㅔㄴㄷㅔ	-3755
▁ㅊㅕㅆ	-3756
▁ㄷㅗㅇㄱㅜㄹ	-3757
ord	-3758
▁ㄷㅜㄹㅉㅐ	-3759
ㄷㅡㅂ	-3760
▁ㅇㅣㄹㅈㅗㄱ	-3761
US	-3762
ㄹㅏㅂ	-3763
ㅁㅗㄴㄷㅡ	-3764
▁ㄸㅡㄴㄱㅡㅁ	-3765
LL	-3766
▁ㅈㅡㅇㅇㅗ	-3767
ㅈㅡㄹ	-3768
▁ㄷㅗㅇㄹㅕㄱ	-3769
▁ㅈㅓㄴㄹㅏ	-3770
▁ㄱㅡㅁㅇㅠㅇ	-3771
▁ㅍㅓㄹ	-3772
▁ㅇㅕㄴㄹㅕㅇ	-3773
▁ㅂㅏㄹㄹㅏ	-3774
ㄷㅡㄴㅈㅣ	-3775
ime	-3776
▁ㅇㅕㄹㅅㅚ	-3777
▁ㅅㅐㄱㄲㅏㄹ	-3778
ㅇㅑㅇㅎㅏㅁ	-3779
ㄷㅡㅇㅎㅏㄱㅅㅐㅇ	-3780
ㄹㅏㅇㅇㅣ	-3781
▁ㅊㅣㅇㅎㅗ	-3782
▁ㄱㅗㅇㄹㅛㅇ	-3783
ix	-3784
ㄹㅓㅅ	-3785
▁ㅈㅓㅇㅂㅏㄹ	-3786
▁ㅂㅜㄹㅌㅏ	-3787
▁Cl	-3788
▁ㄸㅣ	-3789
▁ㅇㅣㄹㅂㅗㄴㅇㅣㄴ	-3790
ㅈㅕㅆㅇㅡ	-3791
ㅈㅟ	-3792
▁ㅎㅏㄹㅁㅓ	-3793
▁ㅇㅣㄴㅁㅣㄴ	-3794
▁Com	-3795
ㄹㅡㅁㅇㅓㅄ	-3796
▁ㅂㅓㄹㄹㅔ	-3797
▁ㄴㅔㄱㅅㅔㄴ	-3798
▁ㅉㅣㅈ	-3799
▁ㄴㅏㄲㅅㅣ	-3800
▁ㅇㅜㅅㅇㅡㅁ	-3801
▁ㄱㅏㄱㅂㅗㄴ	-3802
pe	-3803
▁ㅇㅣㄴㅊㅣ	-3804
▁ㅋㅓㅆ	-3805
▁ㄴㅓㄱ	-3806
▁ㅂㅗㄹㄴㅔㅅ	-3807
▁ㅎㅡㅂㅎㅕㄹ	-3808
▁ㄴㅑㅇ	-3809
ㄲㅜㄹ	-3810
▁ㄱㅘㄱ	-3811
▁ㄱㅏㅇㄷㅗ	-3812
▁ㅅㅣㅁㅅㅣㅁ	-3813
▁ㅇㅣㅇㄱㅡㄹ	-3814
▁XX	-3815
▁ㅅㅓㄴㅈㅓㄴ	-3816
▁ㅆㅓㄹ	-3817
▁ㅍㅣㅅ	-3818
▁ㅈㅓㅇㄱㅡㄹ	-3819
▁ㄱㅘㅇㅇㅕㄱㅅㅣ	-3820
▁ㄱㅕㄱㅊㅜ	-3821
▁ㅋㅔㄹ	-3822
▁ㅂㅏㅇㅊㅜㄹ	-3823
▁ㄴㅗㄱㅅㅐㄱ	-3824
▁ㅈㅏㅇㅇㅏㄱ	-3825
▁ㄷㅗㄷ	-3826
ㄴㅔㄹ	-3827
▁ㅅㅣㄴㅅㅏ	-3828
▁ㅎㅐㅇㅂㅗ	-3829
▁ㅅㅏㅇㅎㅏㄴ	-3830
▁ㅅㅡㅇㄱㅐㄱ	-3831
▁ㅇㅝㄴㅈㅏ	-3832
ㅈㅏㅇㅅㅣㄹ	-3833
uc	-3834
▁1991	-3835
▁ㄲㅘ	-3836
ㄱㅡㅅ	-3837
▁SE	-3838
ite	-3839
ㅈㅣㅂㅌㅡ	-3840
▁ㅌㅟㅇ	-3841
▁ㅅㅐㅇㄱㅣㄴㄷㅏ	-3842
ㄷㅗㄹㄹㅣ	-3843
▁ㅁㅏㄱㅊㅏ	-3844
▁ㅈㅏㄱㄱㅗㄱㄱㅏ	-3845
▁CV	-3846
▁ㄷㅗㅇㅇㅣㄴ	-3847
▁ㅅㅣㅂㅈㅏ	-3848
▁ㅈㅓㄱㄷㅏㅇㅎㅣ	-3849
▁ㅁㅕㄴㅁㅗ	-3850
▁ㅇㅣㄹㅉㅣㄱ	-3851
ㄷㅣㅅ	-3852
▁ㅍㅗㄹㄹㅏㄴㄷㅡ	-3853
▁ㅈㅜㅇㄱㅜㄱㅇㅓ	-3854
▁ㅁㅜㄹㄹㅕ	-3855
▁ㅈㅜㄹㅇㅣ	-3856
▁ㅈㅓㄱㅇㅡㅇ	-3857
▁ㅅㅏㅇㅅㅜㄹ	-3858
OP	-3859
ㅈㅓㅇㅂㅜ	-3860
▁ㅂㅐㅁㅍㅏ	-3861
▁ㅌㅔㄱㅅㅡ	-3862
▁ㅎㅡㅇㅁㅣ	-3863
▁ㅇㅕㅅ	-3864
▁ㅍㅓㅁ	-3865
▁ㄲㅜㄹ	-3866
ㄱㅏㄴㅎㅣ	-3867
▁ㄱㅗㅇㅅㅓㅇ	-3868
OW	-3869
▁ㅂㅏㄴㄷㅗㅇ	-3870
▁ㄷㅣㄹㄹㅔ	-3871
▁ㅇㅗㄹㅎㅐ	-3872
ㅎㅡㅂ	-3873
▁1970	-3874
▁BPM	-3875
▁AD	-3876
▁ㅊㅗㅇㅇㅏㄹ	-3877
▁ㄲㅏㄹㄲㅡㅁ	-3878
▁ㅎㅘㄹㅂㅏㄹ	-3879
▁SH	-3880
▁ㄱㅏㄴㅅㅣㄴ	-3881
▁ㅎㅔㄹㄱㅣ	-3882
ure	-3883
▁MVP	-3884
▁160	-3885
▁ㄱㅗㄴㄹㅏㄴ	-3886
ㅇㅑㄹ	-3887
▁ㅂㅣㅊㄴㅏ	-3888
ㄹㅐㅂ	-3889
▁140	-3890
▁ㅅㅏㅇㄱㅘㄴㅇㅓㅄ	-3891
▁ㅇㅏㄱㅁㅕㅇ	-3892
▁ㅈㅓㅇㅇㅝㄴ	-3893
▁ㅅㅡㄹㄹㅗ	-3894
▁ㅈㅓㅇㅊㅏㄱ	-3895
▁ㅇㅔㄴㅈㅔㄹ	-3896
▁ㅁㅓㅁㅊㅜ	-3897
▁ㅅㅣㄱㄹㅑㅇ	-3898
▁ㅎㅏㅇㄱㅗㅇㄱㅣ	-3899
▁ㅇㅝㄴㅊㅣㄱ	-3900
▁ㅆㅡㄹㅁㅗ	-3901
▁ㅍㅐㄴㅌㅓㅁ	-3902
ㄸㅜㅇ	-3903
▁ㅌㅣㅁㅇㅝㄴ	-3904
▁ㅇㅣㄹㅂㅏㅇ	-3905
ㄱㅏㅄ	-3906
ㅃㅏㄹ	-3907
▁ㅍㅓㅇ	-3908
▁ㅃㅜㄹ	-3909
ㄸㅏㅇ	-3910
ㄷㅜㄹ	-3911
ㅅㅡㄹㄹㅓ	-3912
▁ㅍㅜㄹㄹㅣ	-3913
▁ㅅㅡㅇㅈㅓㅁ	-3914
ㄷㅗㅇㅅㅓㅇ	-3915
▁ㅊㅓㄴㅎㅏ	-3916
ㅋㅔㅅㅁㅗㄴㅅㅡ	-3917
OD	-3918
▁ㅋㅡㄹㄹㅣㄱ	-3919
▁ㅎㅏㄹㅇㅣㄴ	-3920
▁ㄷㅗㅇㅇㅢ	-3921
ㄲㅏㅌ	-3922
▁$	-3923
▁900	-3924
ㅇㅣㄴㄷㅡ	-3925
▁ㄷㅗㅇㅉㅗㄱ	-3926
▁ㅇㅓㄴㄷㅓ	-3927
▁ㅊㅓㅂ	-3928
▁Pr	-3929
▁ㅌㅓㄱ	-3930
▁ㅁㅕㄴㅇㅕㄱ	-3931
▁ㅌㅏㄹㅌㅚ	-3932
▁ㅊㅣㅇㅊㅏㄴ	-3933
ake	-3934
▁Wh	-3935
▁KR	-3936
▁ㅎㅡㄴㅈㅓㄱ	-3937
▁ㄷㅏㄴㅎㅐㅇ	-3938
▁ㅂㅏㄴㅎㅐ	-3939
▁ㅈㅏㅁㅈㅐ	-3940
▁ㄱㅕㄹㅎㅏㅂ	-3941
▁ㄷㅡㄹㄹㅕ	-3942
▁Pl	-3943
▁ㄴㅏㅁㄴㅕ	-3944
▁DVD	-3945
▁1989	-3946
▁ㅅㅏㅇㄱㅣ	-3947
▁ㅌㅗㅇㅅㅏㄴ	-3948
▁ㅇㅛㅇㄹㅑㅇ	-3949
▁Ex	-3950
▁ㅆㅗㄷㅇㅏ	-3951
▁ㅋㅕ	-3952
ㅍㅕ	-3953
ION	-3954
▁ㅊㅏㅁㅁㅗ	-3955
▁Un	-3956
▁Pro	-3957
▁ㅅㅣㄱㅁㅣㄴ	-3958
▁ㅁㅏㄱㄷㅐ	-3959
▁ㄱㅜㄱㅇㅘㅇ	-3960
▁ㅈㅡㅇㅇㅓㄴ	-3961
▁ㅁㅜㄴㄱㅜ	-3962
▁ㅅㅗㄴㅎㅐ	-3963
ㄹㅓㄱㅈㅓ	-3964
▁ㅊㅜㄹㄱㅜ	-3965
▁ㅂㅜㄹㄱㅛ	-3966
▁ㅇㅕㅇㄱㅜ	-3967
▁ㄹㅓㄴㄷㅓㄴ	-3968
▁ㅂㅜㄴㄷㅐ	-3969
▁ㅊㅜㅇㅅㅣㄹ	-3970
ㄸㅡㅅ	-3971
▁ㅊㅓㄹㄱㅝㄴ	-3972
▁ㄱㅣㅁㄷㅗㅇ	-3973
ㄹㅏㅆ	-3974
ㅅㄱㅏㄹ	-3975
▁ㄱㅏㅇㅈㅏ	-3976
▁ㄴㅏㅁㄱㅣㄴ	-3977
▁ㅁㅣㄴㅊㅓㅂ	-3978
ㅍㅏㅇㅇㅣ	-3979
ㅌㅗㄱ	-3980
▁ㅁㅏㅇㅎㅐㅆ	-3981
▁ㅅㅏㅇㅅㅣㄹ	-3982
ㅌㅡㄹㄹㅓ	-3983
▁ㄷㅐㄴ	-3984
▁ㄴㅓㅁㅊㅣ	-3985
▁ㅎㅡㄱㅇㅣㄴ	-3986
▁ㅊㅔㄹ	-3987
▁ㄱㅗㄹㄹㅏ	-3988
▁ㄷㅡㅇㅈㅣ	-3989
▁ㄱㅘㄴㅈㅜㅇ	-3990
▁ㅅㅣㄴㅇㅏㅇ	-3991
▁ㅇㅛㅇㅅㅓ	-3992
▁NE	-3993
oy	-3994
▁ㅎㅕㅇㅅㅏㅇ	-3995
ㅌㅡㄱㅂㅕㄹㅅㅣ	-3996
ㄱㅕㄱㅅㅜ	-3997
▁ㅇㅓㄷㅇㅓ	-3998
▁ㅈㅗㅇㅁㅗㄱ	-3999
▁ㅋㅡㄹㄹㅐㄴ	-4000
▁ㅅㅔㄴㅌㅡ	-4001
▁ㅁㅏㄹㅌㅜ	-4002
▁ㅅㅜㄱㄹㅕㄴ	-4003
ㅊㅠ	-4004
Hz	-4005
▁ㅈㅓㄱㄱㅜㄴ	-4006
▁ㅇㅣㅂㄷㅐ	-4007
ㅍㅐㄴ	-4008
▁ㄱㅗㅇㅂㅏㅇ	-4009
▁ㄴㅏㅁㄱㅕㅆ	-4010
▁ㄱㅗㄱㅁㅕㅇ	-4011
▁with	-4012
▁ㅎㅡㄹㄹㅣ	-4013
▁Gr	-4014
▁ㅅㅓㅇㄹㅣㅂ	-4015
▁ㅂㅗㄴㅅㅏ	-4016
▁ㅈㅜㅇㄹㅑㅇ	-4017
▁ㅁㅣㄱㅅㅡ	-4018
▁ㄱㅏㄴㅈㅓㅂ	-4019
▁ㅂㅏㅇㅇㅟ	-4020
▁ㅎㅑㅇㅎㅏ	-4021
ud	-4022
ㅇㅜㄹㅌㅡㄱㅂㅕㄹㅅㅣ	-4023
▁ㅁㅔㄹㄹㅗ	-4024
▁ㄷㅗㅇㄱㅡㅂ	-4025
▁ㅎㅣㅂ	-4026
ㅋㅡㄴ	-4027
BA	-4028
IG	-4029
ㄴㅡㄹㄴㅏㄹ	-4030
▁ㄷㅓㅇㅊㅣ	-4031
▁ㅇㅣㅇㄱㅡㄹㄹㅐㄴㄷㅡ	-4032
ㄱㅜㄴㄷㅏ	-4033
▁RPG	-4034
ㄹㅕㅇㅂㅜ	-4035
▁ㅇㅣㅂㅈㅣ	-4036
▁ㅈㅏㅂㅎㅣ	-4037
▁ㅅㅐㄱㅅㅏㅇ	-4038
ows	-4039
▁ㅋㅏㄹㄴㅏㄹ	-4040
▁ㅅㅜㄴㅎㅘㄴ	-4041
▁ㄱㅗㅇㄱㅗㅇ	-4042
OC	-4043
▁ㅇㅔㄱㅅㅣ	-4044
orld	-4045
▁ㅍㅐㅇ	-4046
ㅇㅡㄴㅎㅐㅇ	-4047
▁ㅅㅏㅇㅇㅣㄴ	-4048
▁ㅇㅣㄹㅊㅣ	-4049
ㅎㅏㄱㅇㅝㄴ	-4050
ㅌㅐㄴㄷㅡ	-4051
▁he	-4052
▁ㅇㅣㄹㄷㅐ	-4053
▁ㅇㅗㅀ	-4054
▁ㅇㅓㄴㅈㅔㄴ	-4055
▁ㅅㅣㅁㅅㅏ	-4056
▁ㄱㅏㄴㅈㅣ	-4057
▁ㄱㅏㅇㅇㅛ	-4058
▁BL	-4059
▁ㅎㅕㅁㅇㅗ	-4060
▁ㅇㅣㄹㅂㅗㄴㄱㅜㄴ	-4061
▁ㅈㅓㄴㅈㅜ	-4062
▁ㅂㅓㅂㄹㅠㄹ	-4063
▁ㅁㅏㄴㄴㅏㄹ	-4064
▁ㅁㅏㅇㅊㅣ	-4065
▁ㅂㅣㄹㄹㅕ	-4066
▁ㅂㅜㄴㅅㅣㄴ	-4067
▁ㅅㅓㅇㄴㅏㅁ	-4068
▁ㅇㅣㅁㅍㅐㄱㅌㅡ	-4069
▁ㅊㅓㄴㅁㅏㄴ	-4070
▁ㅇㅟㅅ	-4071
▁ㅊㅗㅇㄹㅣ	-4072
▁ㅅㅣㄹㅁㅏㅇ	-4073
▁ㅉㅜㄱ	-4074
▁BS	-4075
▁ㅅㅣㅀㅇㅓ	-4076
▁ㄱㅡㅁㅂㅏㅇ	-4077
▁ㄷㅗㅇㅅㅓㅇ	-4078
▁ㅇㅕㄴㄱㅡㄱ	-4079
▁ㄱㅡㄹㄹㅓ	-4080
▁War	-4081
ㅈㅐㅇㅇㅣ	-4082
▁105	-4083
▁KOF	-4084
aw	-4085
▁ㅎㅣㄴ	-4086
ㅇㅠㄱㄱㅘㄴ	-4087
▁ㄱㅝㄴㅎㅏㄴ	-4088
▁ㄱㅜㄱㅍㅏㄴ	-4089
ㄷㅣㅈ	-4090
▁ㅂㅐㄱㅅㅓㅇ	-4091
▁ㄱㅓㄴㅈㅗ	-4092
▁ㅇㅕㄹㅁㅐ	-4093
▁ㄹㅏㄴㅅㅡ	-4094
ㅅㅡㅇㅈㅏ	-4095
▁ㄷㅏㄴㅊㅜㄱ	-4096
ace	-4097
▁ㅇㅕㅇㅈㅜ	-4098
ave	-4099
▁ㅂㅗㄱㅅㅓㄴ	-4100
ㅈㅓㄴㄱㅓ	-4101
ㄹㅓㅎㅈㅣ	-4102
▁ㅇㅕㄴㅎㅏㅂㄱㅜㄴ	-4103
▁ㅅㅓㄴㅌㅐㄱㅈㅣ	-4104
ㅅㅜㄱㅅㅏ	-4105
▁Love	-4106
▁ㅂㅐㄱㅇㅣㄴ	-4107
ame	-4108
▁ㅅㅔㄴㅅㅡ	-4109
▁ㅇㅏㄱㄱㅣ	-4110
▁OVA	-4111
▁ㄱㅓㄴㄷㅡ	-4112
▁ED	-4113
▁ㄴㅏㄴㅇㅣㅂ	-4114
▁ㅁㅏㅅㅇㅣㅆ	-4115
▁ㄱㅏㄴㅅㅣㄴㅎㅣ	-4116
▁ㅊㅐㅇㄱㅕ	-4117
▁ㅃㅜㅁ	-4118
▁ㅈㅕㅆㅇㅡ	-4119
▁ㄴㅓㅁㅂㅓ	-4120
▁ㅂㅏㄴㅈㅓㄴ	-4121
ㅅㅡㄹㄹㅣㅇ	-4122
▁ㅁㅗㅇㄱㅗㄹ	-4123
▁ㅊㅣㅁㄹㅑㄱ	-4124
▁LV	-4125
80	-4126
ㄹㅐㅇㅋㅡ	-4127
▁EP	-4128
▁ㅅㅏㅇㄷㅏㄴ	-4129
▁DD	-4130
▁ㅈㅓㅇㅅㅜ	-4131
ㅋㅣㅅ	-4132
▁ㅇㅜㄹㅍㅡ	-4133
▁ㄴㅘㅆ	-4134
ㄹㅗㅂㅎㅣ	-4135
▁ㅁㅏㄱㅇㅏ	-4136
▁ㄱㅜㅅ	-4137
▁ㅂㅗㄱㅈㅣ	-4138
▁ㅍㅕㅇㅅㅐㅇ	-4139
▁ㅇㅝㄴㅎㅏ	-4140
▁ㅅㅡㅇㄹㅠㄹ	-4141
▁ㅇㅑㅇㅅㅓㅇ	-4142
▁ㄱㅣㅁㅈㅗㅇ	-4143
▁ㅎㅏㅂㅇㅢ	-4144
▁ㅊㅜㄹㅇㅣㅂ	-4145
▁ㅈㅣㅂㅎㅐㅇ	-4146
▁ㅇㅏㅁㅅㅣ	-4147
chor	-4148
▁ㅇㅝㄴㅁㅜㄴ	-4149
▁ㅊㅗㅇㅅㅓㄴ	-4150
▁ㅅㅐㅇㅈㅗㄴㅈㅏ	-4151
ㅇㅣㄴㅇㅓㅂ	-4152
▁ㄱㅓㄹㅁㅏㅈ	-4153
ㅅㅣㄴㄱㅛ	-4154
▁ㅇㅡㅂ	-4155
ㅇㅓㄴㅊㅡ	-4156
▁ㄱㅙㄴㅎㅣ	-4157
ㄹㅏㄴㄷㅏ	-4158
▁ㄷㅗㅇㅇㅑㅇ	-4159
▁ㄷㅔㅁ	-4160
▁ㄱㅣㅁㅁㅣㄴ	-4161
▁ㅁㅕㅇㅎㅘㄱ	-4162
▁ㅇㅣㄹㅎㅘ	-4163
▁ㅇㅕㅆㅇㅡㄹ	-4164
▁ㅈㅣㅂㅊㅏㄱ	-4165
ㅁㅏㅇㄱㅏ	-4166
ies	-4167
ice	-4168
▁ㅅㅏㅇㅅㅣㄱ	-4169
▁ㅎㅐㅁ	-4170
▁ㅂㅗㄱㄱㅜ	-4171
ㅂㅓㅂㅅㅗ	-4172
▁ㅈㅏㄴㄸㅡㄱ	-4173
▁ㅁㅏㄹㄹㅣ	-4174
▁CG	-4175
ㅊㅜㄱㅎㅏㅁ	-4176
▁ㅈㅜㄱㅇㅕㅆ	-4177
▁ㅇㅣㅁㅅㅣㄴ	-4178
▁ㅆㅓㄴㄷㅓ	-4179
ㄷㅠㄹ	-4180
▁1987	-4181
▁ㄷㅗㅇㅁㅕㅇ	-4182
ㅇㅓㄴㅌㅡ	-4183
▁ㄱㅕㅂㅊㅣ	-4184
ㅁㅣㅆ	-4185
own	-4186
▁ㅎㅟㅂ	-4187
▁ㄱㅡㄴㅂㅗㄴ	-4188
▁ㅈㅓㅇㅌㅗㅇ	-4189
▁ㄷㅏㅇㅇㅣㄹ	-4190
▁ㅂㅜㄹㅅㅏ	-4191
▁ㅈㅏㅇㄱㅓ	-4192
▁ㅅㅣㄹㅈㅗㄴ	-4193
ㅃㅏㅇ	-4194
▁sh	-4195
ㄲㅟㄴㄷㅏ	-4196
▁ㄷㅣㄱ	-4197
▁ㅈㅐㅇ	-4198
▁ㅈㅗㄴㄱㅕㅇ	-4199
▁ㄱㅏㅈㅊㅜㄴ	-4200
▁ㅇㅓㄴㄷㅔ	-4201
▁ㄱㅏㄹㅇㅏ	-4202
▁ㅇㅣㄴㅈㅗㅇ	-4203
▁202	-4204
IM	-4205
▁ㅎㅕㅂㅅㅏㅇ	-4206
▁ㅁㅓㅅㅈㅣㄴ	-4207
▁ㄱㅏㄴㄷㅏㄴㅎㅣ	-4208
▁anchor	-4209
▁??	-4210
▁ㅎㅘㄱㄷㅐ	-4211
▁ㅌㅗㅇㄱㅖ	-4212
ㅅㅔㅅ	-4213
▁ㅆㅗㄹ	-4214
per	-4215
▁ㅅㅏㅂㅇㅣㅂ	-4216
▁ㄴㅡㅇㄹㅕㄱㅈㅏ	-4217
▁ㅌㅏㄴㅎㅘㄴ	-4218
▁3000	-4219
▁ㅇㅓㄴㅅㅡ	-4220
▁ㅈㅓㅇㅎㅘ	-4221
▁ㅌㅗㅇㅊㅣ	-4222
man	-4223
▁Wind	-4224
▁ㄱㅡㅁㅇㅐㄱ	-4225
▁ㅅㅏㅇㅎㅗ	-4226
▁ㄱㅕㅇㅈㅣㄱ	-4227
▁WWE	-4228
▁ㅁㅕㄴㅎㅓ	-4229
▁ㅈㅓㄴㅇㅣ	-4230
▁de	-4231
▁ㄱㅡㅂㄱㅕㄱ	-4232
ㄲㅗㅂ	-4233
▁ㅈㅓㄱㅎㅏㅂ	-4234
▁ㅂㅕㄴㅎㅘㄴ	-4235
▁ㅎㅏㅇㅂㅗㄱ	-4236
▁ㅇㅣㅀㅇㅓ	-4237
▁ㅂㅣㄱㅌㅗ	-4238
▁ㅊㅓㄴㅇㅏㄴ	-4239
▁ㅃㅓㄷ	-4240
▁ㄲㅗㅁ	-4241
▁ㅈㅣㄴㅂㅗ	-4242
▁ㅇㅏㄹㄹㅔㄱㅅㅏㄴ	-4243
ath	-4244
ㅇㅔㅅ	-4245
old	-4246
▁TVA	-4247
▁ㅅㅏㄹㅍㅕ	-4248
▁ㄱㅏㅇㅈㅓㅁ	-4249
▁ㅎㅏㄴㅉㅗㄱ	-4250
▁ㅎㅗㄱㅅㅣ	-4251
ere	-4252
▁ㅂㅏㄱㅁㅜㄹ	-4253
▁ㅅㅡㅇㅁㅜ	-4254
ㄹㅐㄴㅁㅏㄴ	-4255
▁ㅊㅜㅇㅊㅓㅇ	-4256
TE	-4257
ㅁㅗㅁ	-4258
▁We	-4259
▁ㅎㅞ	-4260
ㅌㅔㅂ	-4261
ㅇㅣㄹㅈㅡ	-4262
▁ㅈㅜㅇㅊㅓㅂ	-4263
▁ㅇㅔㄴㄷㅡ	-4264
ㄸㅟ	-4265
ㅍㅡㄹㄹㅓ	-4266
ㅅㅈㅣㅂ	-4267
▁ㅋㅣㄹㄹㅓ	-4268
▁ㅅㅐㅇㅁㅕㅇㅊㅔ	-4269
▁ㄱㅓㅁㅅㅜㄹ	-4270
▁ㄹㅠㄴ	-4271
▁ㅁㅗㅅㅈㅣ	-4272
▁ㄴㅏㄹㅉㅏ	-4273
ㅇㅜㄴㅅㅓ	-4274
▁ㄹㅣㅂ	-4275
▁ㅈㅏㅇㅌㅏㄴ	-4276
▁ID	-4277
▁ㅇㅝㄴㅈㅗ	-4278
ber	-4279
▁ㅂㅕ	-4280
ick	-4281
ㄸㅏㄱ	-4282
10	-4283
▁ㅁㅏㄴㄴㅏㅁ	-4284
▁ㄱㅝㄴㄹㅣ	-4285
▁ㅇㅓㅂㄱㅖ	-4286
▁ㄲㅡㅁㅉㅣㄱ	-4287
▁PV	-4288
▁1986	-4289
▁ㅅㅣㄴㄴㅏ	-4290
▁ㄱㅓㄹㄹㅣㄴㄷㅏ	-4291
ㅊㅓㅁ	-4292
▁ㄱㅕㅇㅈㅜ	-4293
▁ㅇㅓㄴㅈㅔㄴㄱㅏ	-4294
▁ㅅㅜㅁㄱㅣ	-4295
▁KBO	-4296
▁ㄱㅗㅅㄱㅗㅅ	-4297
▁ㅊㅓㄹㅅㅜ	-4298
▁ㅇㅟㄴㄷㅗ	-4299
▁ㅅㅣㄹㅈㅗㅇ	-4300
GE	-4301
ㅍㅡㅁ	-4302
▁ㅅㅗㄱㅎㅏㄴㄷㅏ	-4303
▁ㅈㅜㅇㄹㅣㅂ	-4304
ㄱㅓㄹㅇㅣ	-4305
ov	-4306
▁ㅈㅏㄹㄹㅏ	-4307
▁ㅂㅜㄴㅁㅕㅇㅎㅣ	-4308
ory	-4309
▁ㅈㅓㅇㄱㅣ	-4310
▁AS	-4311
ㅌㅔㄴㄷㅗ	-4312
▁ㅅㅓㅇㅈㅓㄴ	-4313
▁ㄴㅣㄴㅌㅔㄴㄷㅗ	-4314
ㄱㅘㄹ	-4315
▁ㅇㅑㄱㅎㅘ	-4316
ㄹㅔㄹㄹㅏ	-4317
▁ㅈㅓㄴㅍㅏ	-4318
▁ㅂㅐㄱㅎㅘ	-4319
▁ㄱㅕㄹㅌㅜ	-4320
▁ㅇㅝㄴㄹㅣ	-4321
▁ㄱㅏㅁㄱㅏㄱ	-4322
▁ㅇㅣㄴㅍㅣ	-4323
ond	-4324
ㅂㅡㄹㄹㅣㄴ	-4325
▁ㅆㅏㄱ	-4326
▁ㅊㅐㄴ	-4327
▁my	-4328
ㅇㅓㄴㅅㅡ	-4329
▁".	-4330
▁AKB	-4331
ㅇㅛㅇㅈㅏ	-4332
▁ㅂㅜㄴㄷㅏㅇ	-4333
▁ㄱㅘㄴㅎㅏㄹ	-4334
▁ㅇㅛㅇㅇㅣㄴ	-4335
▁ㅈㅜㅇㅎㅕㅇ	-4336
▁ㅊㅡㄱㅈㅓㅇ	-4337
▁ㄷㅏㄴㅎㅐㅇㅂㅗㄴ	-4338
▁ㅈㅜㅇㅅㅔ	-4339
▁ㅊㅓㄹㅎㅏㄱ	-4340
ㅅㅔㄴㅌㅡ	-4341
▁ㅁㅜㄴㄷㅏㄴ	-4342
▁En	-4343
▁ㅎㅏㅁㅂㅜ	-4344
▁ㅎㅕㄹㅇㅐㄱㅎㅕㅇ	-4345
▁ㄷㅜㅁ	-4346
▁ㅎㅏㄱㄹㅕㄱ	-4347
ream	-4348
▁ㄷㅗㄱㅈㅐ	-4349
▁ㄴㅔㄴ	-4350
ah	-4351
▁->	-4352
▁ㄱㅕㅂㅊㅕ	-4353
out	-4354
▁ㅂㅗㄱㅈㅔ	-4355
▁ㅇㅓㅁㅁㅣㄹ	-4356
▁ㅁㅏㄱㄴㅐ	-4357
▁ㅂㅏㄱㅁㅜㄹㄱㅘㄴ	-4358
▁wh	-4359
▁ㅊㅓㅅㅊㅏ	-4360
▁ㅇㅣㄴㅈㅣㄹ	-4361
▁ㅂㅔㄹㅌㅡ	-4362
▁Dr	-4363
▁ㅈㅣㄴㅈㅜ	-4364
▁ㅇㅕㄴㅍㅐ	-4365
▁GP	-4366
ㅈㅏㄹ	-4367
ost	-4368
▁ㅆㅢ	-4369
▁ㅇㅛㅇㅈㅏ	-4370
▁ㅇㅓㄴㄷㅓㄱ	-4371
ㄸㅜㄱ	-4372
ㅂㅏㄴㄷㅗ	-4373
▁ㄱㅕㄹㅅㅣㅁ	-4374
▁ㅂㅓㅂㅇㅝㄴ	-4375
▁ㅂㅏㅇㅅㅗㅇㄱㅜㄱ	-4376
▁ㅅㅓㄴㅎㅐㅇ	-4377
ㅅㅓㅁ	-4378
▁ㅋㅐㅁㅍㅡ	-4379
▁ㅎㅓㄴㅂㅓㅂ	-4380
▁ㅁㅗㄹㄹㅣ	-4381
▁ㅅㅕㄹ	-4382
▁ㅎㅕㅁㅇㅢ	-4383
▁ㄷㅗㄹㅇㅣㅂ	-4384
TS	-4385
▁ㅇㅣㄴㅇㅛㅇ	-4386
▁ㄱㅓㄹㄹㅕㅆ	-4387
ㄷㅡㅅ	-4388
▁ㅇㅕㄴㄱㅗ	-4389
ㄴㅣㄴㄷㅔ	-4390
▁ㄱㅣㅁㄷㅐ	-4391
▁ㅂㅜㄹㄹㅑㅇ	-4392
▁ㅁㅕㄴㅈㅓㄱ	-4393
UM	-4394
ㅇㅏㅆ	-4395
▁ㄷㅣㄹㄹㅣㅇ	-4396
▁ㅈㅜㄴㅇㅜ	-4397
▁ㅈㅜㅇㅂㅗㄱ	-4398
▁ㅇㅣㄴㅂㅏㅇ	-4399
ㄹㅜㄹ	-4400
▁ㅊㅏㅇㅇㅝㄴ	-4401
LE	-4402
ㅂㅏㄹㅈㅏ	-4403
▁ㄹㅗㅁ	-4404
▁ㄹㅓㅁ	-4405
▁ㄴㅏㅁㅇㅏ	-4406
▁ㅁㅟ	-4407
▁DC	-4408
▁189	-4409
▁ㅇㅕㄴㅁㅐㅇ	-4410
60	-4411
▁FIFA	-4412
▁For	-4413
▁ㅈㅜㅇㅅㅣ	-4414
▁ㄷㅏㄴㅇㅝㄴ	-4415
▁1500	-4416
ㅂㅡㄹㄹㅗ	-4417
▁ㄴㅏㅁㅁㅐ	-4418
▁ㅂㅏㄴㅂㅜ	-4419
IP	-4420
ㄹㅐㅇ	-4421
▁kt	-4422
▁ㅇㅡㄴㅈㅣ	-4423
▁ㄱㅜㄺ	-4424
ㅍㅕㅇㅇㅑㅇ	-4425
▁ㅂㅓㅂㅈㅓㅇ	-4426
ile	-4427
▁CJ	-4428
▁ㅌㅐㄱㅅㅣ	-4429
▁ㅈㅏㅁㅇㅣㅂ	-4430
▁\	-4431
▁1985	-4432
ㅍㅣㄹㄷㅡ	-4433
▁ㅍㅕㅇㅇㅣㄹ	-4434
▁ㅊㅣㄴㅎㅏㄴ	-4435
▁ㅊㅐㄹㄹㅣㄴ	-4436
▁ㅅㅣㄴㄷㅗ	-4437
▁ㄲㅞ	-4438
▁ㄷㅡㄱㅍㅛ	-4439
▁ㅅㅣㄹㅇㅡㄴ	-4440
▁ㅎㅡㅌ	-4441
▁ㅊㅓㅇㅈㅜ	-4442
ont	-4443
ㅈㅗㄹ	-4444
ㄱㅗㄴㅂㅗㄹ	-4445
▁ㅎㅐㅇㅂㅏㅇ	-4446
ㅇㅝㄴㅈㅏㅇ	-4447
▁ㅈㅜㅇㅈㅏㅇ	-4448
ㄷㅣㄴㄱㅏ	-4449
▁ㄴㅗㄹㄹㅣ	-4450
▁ㅇㅕㄴㅅㅡㅇ	-4451
▁ㅇㅏㄱㅎㅘ	-4452
ㅋㅐㄴ	-4453
ㅇㅗㄹㄹㅏ	-4454
▁ㅇㅗㄹㄹㅣㄹ	-4455
▁ㅂㅓㅂㅊㅣㄱ	-4456
▁ㅈㅏㅇㅁㅣ	-4457
▁ㅍㅜㄹㄹㅕ	-4458
▁ㄱㅗㅇㅅㅜ	-4459
▁1984	-4460
▁ㄱㅘㄴㄹㅏㅁ	-4461
ome	-4462
ㄴㅢ	-4463
▁ㅅㅐㅇㄴㅕㄴ	-4464
▁ㄴㅣㅅ	-4465
▁ㅆㅗㄴ	-4466
ㄷㅗㅇㄹㅕㄱ	-4467
▁It	-4468
▁ㄱㅗㅇㅇㅣㄴ	-4469
▁ㅇㅏㄴㄴㅕㅇ	-4470
▁ㄷㅡㄹㅇㅡ	-4471
▁ㄷㅏㅇㄷㅐ	-4472
▁ㅎㅓㅇ	-4473
▁ㅎㅏㄱㄱㅣ	-4474
▁ㄱㅘㄴㅈㅓㅁ	-4475
▁ㅊㅏㅁㅅㅓㄱ	-4476
▁ㅅㅣㄴㄷㅔ	-4477
▁ㅅㅣㄱㅍㅜㅁ	-4478
▁ㅇㅕㄱㅁㅕㅇ	-4479
▁ㄹㅣㄹ	-4480
▁ㅁㅏㄴㅁㅏㄴ	-4481
ㅅㅏㄴㅇㅕㄱ	-4482
▁ㅇㅣㄹㄷㅏㅇ	-4483
▁ㄷㅏㅂㅂㅕㄴ	-4484
▁ㅈㅜㅇㄹㅕㄱ	-4485
▁PR	-4486
▁Star	-4487
ㄹㅓㄴㅌㅡ	-4488
▁ㅇㅏㄴㄱㅐ	-4489
▁ㅂㅏㄹㄹㅔㄴ	-4490
▁ㅇㅔㄹㄹㅔ	-4491
ㅇㅓㅂㅈㅏ	-4492
ㅎㅔㄴㅌㅣ	-4493
▁ㅅㅣㄱㅁㅣㄴㅈㅣ	-4494
▁ㅌㅏㅁㅈㅓㅇ	-4495
▁ㅋㅡㄹㄹㅗㄴ	-4496
▁ㅊㅣㄴㄷㅏ	-4497
ㅇㅟㅅ	-4498
▁ㄱㅣㅁㅈㅐ	-4499
▁ㅎㅘㄱㅈㅏㅇㅍㅐㄱ	-4500
▁ㅇㅕㅇㅇㅝㄴㅎㅣ	-4501
▁ㅇㅏㅁㅅㅏㄹㅈㅏ	-4502
▁ㅂㅜㄴㅈㅐㅇ	-4503
▁ㅈㅣㄴㅇㅏㅂ	-4504
io	-4505
ㅈㅏㅁ	-4506
▁ㅃㅗㅂㅇㅏ	-4507
▁5000	-4508
▁ㄴㅏㅁㅂㅜㄱ	-4509
▁ㅁㅕㅇㅇㅢ	-4510
▁ㅂㅓㅂㅇㅣㄴ	-4511
▁ㅎㅏㅂㅂㅕㅇ	-4512
▁ㅅㅗㄹㅈㅣㄱ	-4513
▁ㅋㅘ	-4514
▁ㄱㅗㅇㅇㅓㅂ	-4515
▁ㅈㅣㄹㅌㅜ	-4516
az	-4517
▁ㄱㅠㄴㅎㅕㅇ	-4518
▁ㄱㅡㅂㅎㅐㅇ	-4519
▁EZ	-4520
▁ㅌㅗㅇㅌㅡㄹ	-4521
▁ㅂㅏㄱㄱㅡㄴ	-4522
▁ww	-4523
▁ㄱㅣㅁㄱㅕㅇ	-4524
ㅅㅓㅇㅇㅝㄴ	-4525
ㅊㅜㅁ	-4526
▁ㄷㅏㄴㅈㅗㅇ	-4527
▁ㅇㅑㄴ	-4528
▁ㄱㅣㅁㅎㅕㄴ	-4529
▁DE	-4530
▁ㅊㅣㅁㅇㅣㅂ	-4531
▁ㅇㅟㄴㄷㅡ	-4532
▁ㄱㅕㅇㄹㅗ	-4533
▁ㅈㅏㅇㅇㅣㄴ	-4534
▁106	-4535
▁ㅅㅣㄴㅈㅓㄴ	-4536
▁ㅇㅏㅍㄷㅜ	-4537
ㅌㅟ	-4538
▁ㄷㅗㅁ	-4539
ㅇㅕㅆㅇㅡ	-4540
▁Station	-4541
▁ㄱㅏㅁㅈㅣ	-4542
▁ㅇㅡㄴㅅㅣㄴ	-4543
▁ㄹㅐㅁ	-4544
ㅇㅗㄴㅈㅡ	-4545
▁ㅈㅡㄹㄱㅓ	-4546
▁ㅅㅣㄴㅇㅛㅇ	-4547
▁ㅇㅜㄴㄷㅗㅇㅈㅏㅇ	-4548
ian	-4549
▁ㄷㅓㄴㄱㅏ	-4550
▁ㅊㅏㅇㄱㅗ	-4551
▁www	-4552
ㅅㅏㅇㅅㅣㄱ	-4553
▁ㄷㅗㄱㅇㅣㄹㄱㅜㄴ	-4554
▁Fl	-4555
▁ㄱㅗㅇㅎㅓ	-4556
▁ㅇㅑㅇㅈㅏ	-4557
▁ㅈㅓㅇㅎㅘㅇ	-4558
▁FM	-4559
▁ㅅㅓㄴㄱㅗ	-4560
▁170	-4561
▁ㅂㅕㄴㅌㅐ	-4562
ㄹㅣㄴㅅㅔ	-4563
▁ㄱㅓㄴㄱㅏ	-4564
▁ㅂㅏㄺㅎㅣㄴ	-4565
▁ㅎㅏㄴㄷㅜ	-4566
ade	-4567
▁ㄱㅏㄴㅎㅗ	-4568
▁ㅆㅡㄹㄷㅔ	-4569
▁Sc	-4570
30	-4571
▁ㄱㅏㅁㄷㅗㅇ	-4572
▁Or	-4573
▁ㄴㅗㄴㅈㅐㅇ	-4574
▁ㅇㅑㅇㅂㅏㄴ	-4575
ㄷㅡㄹㅇㅓ	-4576
▁ㅊㅏㅇㄷㅏㄴ	-4577
ㅌㅠㅁ	-4578
ㄹㅜㄴㄷㅏ	-4579
▁AN	-4580
▁ㅈㅓㄴㅁㅜ	-4581
▁ㅌㅗㅇㅎㅘ	-4582
▁ㄴㅏㄴㅅㅏ	-4583
▁SNS	-4584
▁ㅎㅟㄹ	-4585
▁ㄱㅕㄱㅊㅏ	-4586
▁ㅈㅓㄴㅈㅔ	-4587
▁ㄱㅏㅁㅅㅏㅇ	-4588
▁ㅈㅣㄴㅎㅏㄱ	-4589
▁ㅈㅓㄴㅅㅡㅇ	-4590
▁ㅇㅗㄻㄱㅣ	-4591
▁ㅅㅣㄴㅂㅏㄹ	-4592
▁ㅂㅗㄴㅈㅣㄴ	-4593
▁ㅂㅏㄹㄹㅣ	-4594
ㄱㅗㅂ	-4595
ㅎㅓㅁㄱㅏ	-4596
▁ㅎㅏㄱㅅㅡㅂ	-4597
▁ㅍㅏㅇ	-4598
▁Fate	-4599
▁ㅇㅕㅇㄱㅘㅇ	-4600
ㄱㅡㄹㅅㅡ	-4601
▁ㅂㅣㅇㅍㅏㄴ	-4602
ㄲㅕㅆ	-4603
ㅈㅗㅇㅅㅏ	-4604
▁ㄱㅓㄹㅈㅡ	-4605
▁ㅅㅡㄹㄹㅓ	-4606
▁Go	-4607
▁ㄱㅣㄴㅈㅏㅇ	-4608
▁ㅌㅡㄱㅂㅕㄹㅎㅣ	-4609
ㅂㅓㄹㄹㅔ	-4610
▁ㅎㅏㅇㅇㅢ	-4611
▁ㅇㅣㄴㄹㅕㄱ	-4612
ason	-4613
▁ㄱㅘㅇㅅㅓㄴ	-4614
▁ㅁㅏㄱㅍㅏㄴ	-4615
▁ㅅㅐㄴㄷㅡ	-4616
▁1960	-4617
▁ㅅㅏㄴㅎㅏ	-4618
▁ㅇㅣㅇㅇㅕ	-4619
ㅂㅓㄴㅇㅔ	-4620
▁ㅇㅝㄴㅍㅣ	-4621
▁ㅊㅣㄴㅎㅐ	-4622
ㅍㅡㄹㄹㅣㅇ	-4623
▁Br	-4624
ㅁㅏㄴㄷㅜ	-4625
▁ㅊㅓㄴㅇㅕㄴ	-4626
▁ㅂㅏㄹㄱㅜㄹ	-4627
▁ㅂㅓㅇ	-4628
▁ㅅㅓㅇㄷㅏㅇ	-4629
ㅁㅣㅅ	-4630
▁ㅅㅗㄴㅇㅗ	-4631
▁ㅎㅐㅇㅇㅜㄴ	-4632
▁ㅇㅘㅇㅇㅟ	-4633
▁ㄲㅡㅌㄴㅏㄴㄷㅏ	-4634
▁ㅂㅗㄱㅎㅏㅂ	-4635
▁ㅅㅓㅇㅈㅣㄹ	-4636
▁ㅍㅏㅅ	-4637
▁ㄱㅏㅂㅈㅏㄱ	-4638
ㅅㅏㄴㅅㅣ	-4639
▁ㅂㅕㄴㅎㅐ	-4640
ㅂㅜㄹㅁㅕㅇ	-4641
ㄴㅡㅇㄹㅕㄱ	-4642
ㄷㅗㄹㅇㅏ	-4643
40	-4644
▁ㅅㅣㄴㅈㅏ	-4645
▁ㄹㅜㄱ	-4646
▁ㅇㅞㄹ	-4647
▁CF	-4648
sh	-4649
▁ㅈㅣㄱㅈㅏㅇ	-4650
▁JP	-4651
▁ㅂㅜㄴㅇㅕㄹ	-4652
▁ㅊㅜㄹㄱㅏㄴ	-4653
▁ㄷㅏㄹㅎㅏ	-4654
▁ㅋㅗㅁㅂㅣ	-4655
▁BR	-4656
ㅇㅣㄹㅂㅗ	-4657
▁ㅅㅏㅇㄱㅘㄴㅇㅓㅄㅇㅣ	-4658
▁ㅈㅓㅇㅎㅏ	-4659
▁ㄴㅗㅎㅊㅣ	-4660
▁ㅈㅓㅇㅇㅖ	-4661
ㄸㅜ	-4662
▁CH	-4663
tle	-4664
▁Windows	-4665
ㄹㅔㄹ	-4666
▁LC	-4667
▁ㅊㅜㄹㄱㅕㄱ	-4668
▁SF	-4669
ug	-4670
▁ㅂㅐㄱㅈㅔ	-4671
▁ㅌㅗㄹ	-4672
▁ㅂㅜㄹㄹㅕㅆ	-4673
ㅁㅏㄴㅎㅣ	-4674
▁ㅎㅡㅂㅅㅏ	-4675
▁ㅅㅏㄴㄷㅏ	-4676
▁ㅇㅗㄹㅅㅡ	-4677
▁ㅋㅐㅅ	-4678
▁125	-4679
▁ㅅㅣㅁㅇㅢ	-4680
ㄴㅗㄹ	-4681
▁ㅈㅜㅇㄱㅗ	-4682
ㅅㅏㅇㅇㅟ	-4683
▁ㅍㅏㄴㄱㅕㄹ	-4684
ㄹㅣㄹㄹㅏ	-4685
▁ㄹㅔㄹ	-4686
▁ㄱㅕㄹㅈㅔ	-4687
▁ㅁㅏㄱㅅㅏㅇ	-4688
▁ㅌㅗㅇㄹㅗ	-4689
ㅈㅜㅁ	-4690
▁ㅈㅣㄴㄱㅡㅂ	-4691
▁ㄱㅡㄱㅎㅣ	-4692
▁ㅈㅏㅇㄹㅗ	-4693
▁ㅊㅏㅇㅈㅏㄱㅁㅜㄹ	-4694
▁ㄴㅡㄹㄹㅕ	-4695
▁ㄴㅡㄺ	-4696
ㅂㅓㄱ	-4697
ㄷㅡㄹㄱㅕ	-4698
▁ㅇㅝㄴㄱㅗㄱ	-4699
ㅇㅝㄹㅇㅣㄹ	-4700
▁https	-4701
▁ㄷㅓㅅㅂㅜㅌㅇㅕ	-4702
▁ㅍㅣㅇㅋㅡ	-4703
▁ㄴㅡㄹㄹㅣ	-4704
▁ㄸㅡㄴㄱㅡㅁㅇㅓㅄㅇㅣ	-4705
▁ㅅㅗㄴㅅㅏㅇ	-4706
▁ㄴㅔㄹ	-4707
▁ㄱㅕㅇㄴㅏㅁ	-4708
▁ㄴㅏㄹㅋㅏ	-4709
▁ㅇㅝㄴㄷㅓ	-4710
▁ㅈㅡㅇㅅㅏㅇ	-4711
▁ㅇㅣㅁㄱㅡㅁ	-4712
▁ㅁㅏㄱㅎㅣ	-4713
▁ㅁㅜㄹㄱㅗ	-4714
▁360	-4715
ach	-4716
▁ㅅㅏㅇㄷㅏㅁ	-4717
ower	-4718
▁ㅂㅐㅅ	-4719
ㅇㅘㅆㅇㅡ	-4720
▁ㅁㅐㄱㅈㅜ	-4721
▁ㅈㅏㅇㅌㅏㄴㅅㅜ	-4722
▁ㅎㅡㄴㅎㅏㄴ	-4723
▁ㅅㅐㅇㄴㅕㄴㅇㅝㄹㅇㅣㄹ	-4724
▁BE	-4725
▁ㅁㅏㄴㅇㅣㄹ	-4726
▁ㅈㅓㄴㄷㅗㅇㅊㅏ	-4727
▁ㅊㅓㄹㄱㅓ	-4728
ㅇㅟㅇ	-4729
▁OP	-4730
▁ㄹㅔㄴㅈㅡ	-4731
▁ㅇㅓㄹㄹㅏ	-4732
▁ㅈㅡㄱㅅㅏ	-4733
▁ㄱㅡㄱㄷㅗ	-4734
▁ㄱㅜㄱㄱㅕㅇ	-4735
ㄱㅏㄹㄹㅑㅇ	-4736
▁ㅁㅜㄹㄹㅑㅇ	-4737
▁ㅋㅗㄴㅅㅗㄹ	-4738
iss	-4739
▁ㄱㅏㄴㅈㅜ	-4740
▁ㅍㅡㄹㄹㅣ	-4741
▁ㅇㅏㄱㅁㅗㅇ	-4742
ㅂㅔㅅ	-4743
▁ㅎㅢㄴㅅㅐㄱ	-4744
▁ㅇㅕㄱㅅㅡㅂ	-4745
ㅈㅠ	-4746
ARD	-4747
▁Wi	-4748
▁ㅁㅏㅌㄱㅣ	-4749
ash	-4750
▁ㅂㅏㄹㅎㅐㅇ	-4751
▁ㅁㅜㄹㅊㅔ	-4752
▁UN	-4753
▁ㄷㅗㅇㄱㅕㅇ	-4754
▁ㅇㅑㄱㅁㅜㄹ	-4755
ㅊㅓㄴㅅㅣ	-4756
▁ㅂㅜㄹㅍㅔㄴ	-4757
ㅋㅔㄹ	-4758
▁ㅊㅡㄴ	-4759
▁ㅊㅜㄱㅂㅗㄱ	-4760
ial	-4761
OU	-4762
▁ㄱㅘㅇㅈㅏㅇ	-4763
ook	-4764
▁ㅈㅡㄱㅇㅟ	-4765
▁ㄷㅏㅇㄷㅏㅇ	-4766
▁LA	-4767
▁ㅅㅡㅇㅊㅏ	-4768
▁ㅇㅕㄹㅎㅕㄹ	-4769
▁ㅅㅣㄹㅅㅏ	-4770
▁ㄱㅘㄴㅎㅐ	-4771
▁ㅅㅏㅇㅅㅏ	-4772
▁ㅇㅕㄴㅂㅗㅇ	-4773
▁ㄱㅗㅇㅈㅓㅇ	-4774
▁ㅊㅏㅇㅅㅓㄹ	-4775
▁ㅂㅐㄱㅈㅏㄱ	-4776
▁ㅆㅏㄹ	-4777
▁wik	-4778
▁ㄷㅗㅇㄴㅏㅁ	-4779
▁ㄴㅏㄴㅁㅜ	-4780
▁ㅁㅗㄳ	-4781
▁ㅎㅗㄴㄷㅗㄴ	-4782
ㄱㅣㅅ	-4783
▁ㅌㅗㅇㅊㅣㅇ	-4784
ㄷㅗㄹㅇㅣ	-4785
ㅅㅇㅣ	-4786
ㅇㅏㄵ	-4787
▁ㅎㅔㄴㄹㅣ	-4788
▁ㅅㅣㄹㅅㅏㅇ	-4789
ann	-4790
▁ㅈㅏㅁㅅㅣㄹ	-4791
▁ㅈㅜㄹㄹㅣ	-4792
▁ㅅㅏㅇㄹㅠㄱ	-4793
ㅂㅜㄹㅎㅗ	-4794
▁ㅅㅡㅇㅈㅏ	-4795
▁ㅇㅑㅇㅅㅗㄴ	-4796
▁ㅈㅏㅇㅅㅏ	-4797
▁ㅍㅜㅅ	-4798
▁ㅅㅣㄴㅇㅣㅂ	-4799
ㄱㅜㄱㅇㅓ	-4800
▁ㅎㅡㄴㅎㅏ	-4801
ss	-4802
ㄴㅡㅈ	-4803
▁ㅈㅓㄴㅂㅜㄱ	-4804
▁ㄷㅗㅇㅎㅐ	-4805
▁ㅅㅑㅅㄱㅓㄴ	-4806
▁1982	-4807
▁ㄴㅏㄱㅎㅏ	-4808
▁ㅍㅗㄱㅍㅏ	-4809
▁ㅈㅣㅁㅈㅏㄱ	-4810
▁ㅂㅗㄱㅇㅝㄴ	-4811
▁ㄲㅡㄶㅇㅣㅁ	-4812
▁ㅁㅕㅇㅁㅗㄱ	-4813
ㅂㅣㅅ	-4814
▁ㅇㅡㅇㅇㅛㅇ	-4815
MP	-4816
▁ㅇㅓㄺ	-4817
ㅁㅓㄴㅅㅡ	-4818
▁ㅈㅏㅇㅅㅣㄴ	-4819
▁ㅂㅗㄴㅌㅗ	-4820
ky	-4821
▁ㄱㅗㅂ	-4822
▁ㅅㅓㅇㅆㅣ	-4823
▁ㅇㅣㄴㅈㅏ	-4824
▁ㄱㅡㄴㅇㅝㄴ	-4825
irl	-4826
▁ㅅㅓㄴㅈㅗ	-4827
▁ㅁㅣㅇ	-4828
ㅂㅗㄴㄱㅣ	-4829
▁ㅇㅕㅂ	-4830
ps	-4831
ㅊㅓㄹㄷㅗ	-4832
▁ㅍㅕ	-4833
▁ㅇㅣㄹㄹㅣ	-4834
ㅇㅜㄴㄹㅗ	-4835
▁your	-4836
▁ㄱㅕㅇㅇㅏㄱ	-4837
▁ㅇㅣㅁㄷㅐ	-4838
ㅁㅠㄹㄹㅔ	-4839
ㅂㅐㅅ	-4840
▁ㅅㅏㅇㅇㅕㅇ	-4841
▁ㅇㅑㄱㅈㅏ	-4842
▁ㄷㅏㄴㄷㅏㄴ	-4843
▁ㄱㅜㅇㄱㅡㅁ	-4844
ib	-4845
ㄷㅓㄴㅈㅣ	-4846
▁ㅊㅜㄹㄹㅜ	-4847
▁ㅇㅗㄹㄷㅡ	-4848
▁ㅌㅡㄱㄱㅡㅂ	-4849
▁that	-4850
▁1983	-4851
▁ㅇㅓㅁㄱㅕㄱ	-4852
▁ㄱㅏㄴㄱㅏㄴㅎㅣ	-4853
▁ㅊㅔㄹㅅㅣ	-4854
▁ㄱㅣㅁㅅㅏㅇ	-4855
▁ㅅㅗㅁ	-4856
TV	-4857
ㅈㅏㄱㅇㅛㅇ	-4858
▁ㅇㅏㅆㅇㅓㅆ	-4859
▁ㅌㅣㄴ	-4860
ish	-4861
▁ㅂㅐㅇㅋㅡ	-4862
▁ㅂㅣㄹㄷㅣㅇ	-4863
▁ㅌㅏㅇ	-4864
rom	-4865
▁MB	-4866
▁ㄱㅕㄹㄱㅖ	-4867
70	-4868
▁ㅈㅓㅇㄱㅛ	-4869
▁ㅅㅓㄴㅅㅏ	-4870
▁ㅌㅔㅅ	-4871
▁ㅊㅜㄱㅎㅏ	-4872
▁ㅎㅏㄴㅂㅏㄴㄷㅗ	-4873
▁ㅁㅏㄱㄱㅏㅇ	-4874
▁ㄷㅗㄱㅇㅣㄹㅇㅓ	-4875
▁Mk	-4876
▁ㅇㅣㄹㅇㅛ	-4877
▁ㅂㅏㄴㅂㅏㄱ	-4878
▁ㄱㅜㄹㅇㅛㄱ	-4879
▁GO	-4880
ㅇㅛㅇㄱㅐㄱ	-4881
▁ㅇㅓㅁㅁㅣㄹㅎㅣ	-4882
▁ㅈㅓㅇㅂㅏㄴ	-4883
▁ㅊㅣㅇㅎㅏ	-4884
▁ㅎㅔㄹㄹㅣ	-4885
▁ㅍㅗㄹㅇㅏ	-4886
▁ㅎㅣㄹㄹㅓ	-4887
▁le	-4888
▁ㅈㅓㄱㅈㅏ	-4889
▁ㄱㅡㅁㅁㅔ	-4890
ㅅㅔㄴㅅㅡ	-4891
▁ㄱㅏㅇㄹㅕㄹ	-4892
ㅅㄱㅏ	-4893
▁ㅈㅏㅇㅅㅓㅇ	-4894
▁ㅇㅝㄴㅈㅓㄴ	-4895
▁ㄲㅘㄱ	-4896
▁ㅃㅓㅇ	-4897
▁ㄲㅏㅁㅉㅏㄱ	-4898
▁ㅇㅓㅂㄹㅗ	-4899
▁ㅂㅏㅇㅊㅣ	-4900
▁ㅆㅏㄴ	-4901
ㅌㅗㄹ	-4902
▁ㅈㅓㄴㄱㅕㄱ	-4903
▁ㄱㅡㄴㅈㅓㅂㅈㅓㄴ	-4904
ㅌㅏㅁㅈㅓㅇ	-4905
▁ㅅㅐㅇㄱㅣㄹ	-4906
▁ㅂㅜㄴㅎㅐ	-4907
▁ㄱㅏㅂㅈㅏㄱㅅㅡ	-4908
orm	-4909
ㅇㅕㄱㅅㅏ	-4910
▁ㅅㅐㅇㅈㅓㄴ	-4911
▁ㄴㅣㅇ	-4912
▁ㅇㅡㅁㄹㅛ	-4913
▁ㄱㅝㄴㅇㅟ	-4914
ㄹㅓㅁㅍㅡ	-4915
▁{{	-4916
▁ㅅㅏㅁㄱㅏㄱ	-4917
▁ㅈㅓㄴㄹㅏㄱ	-4918
▁ㅅㅗㄴㅅㅣㄹ	-4919
▁ㄱㅘㄴㅇㅜ	-4920
▁ㄷㅏㄴㄱㅓㅁ	-4921
▁Ne	-4922
▁ㄱㅏㅍ	-4923
▁ㄱㅗㅇㅂㅐㄱ	-4924
▁ON	-4925
▁ㄱㅗㅇㄷㅐ	-4926
▁ㅈㅣㄴㄱㅕㄱ	-4927
ㄱㅗㅇㅎㅏㅇ	-4928
ㅅㄷㅐ	-4929
▁ㅁㅕㅇㅅㅏ	-4930
▁ㄴㅗㄴㅇㅢ	-4931
▁ㅇㅚㄴㅅㅗㄴ	-4932
ㅅㅔㄹㄹㅗ	-4933
▁ㅁㅓㄱㅎㅣ	-4934
▁ㅈㅣㄴㅇㅣ	-4935
▁ㄸㅡㄴㄷㅏ	-4936
▁ㅎㅜㄴㅈㅏㅇ	-4937
▁{{{	-4938
▁ㄱㅓㅁㅊㅏㄹ	-4939
▁ㅇㅑㅇㅅㅏㅇ	-4940
▁ㅂㅏㄹㅁㅗㄱ	-4941
▁PP	-4942
▁ㄱㅡㄺ	-4943
ㅁㅏㄱㅈㅣ	-4944
▁ㄱㅝㄴㅈㅏㅇ	-4945
ㄴㅠㅁ	-4946
▁ㅂㅏㄴㄱㅏㅁ	-4947
▁ㅅㅏㄴㅌㅏㄴ	-4948
▁ㄱㅗㅇㅅㅔ	-4949
ㄴㅓㄹㅌㅣ	-4950
▁CS	-4951
▁ㅅㅗㄴㄲㅗㅂ	-4952
ㅇㅟㄴㅅㅡ	-4953
▁ㅁㅕㅇㅂㅐㄱ	-4954
▁ㄱㅣㅁㅎㅐ	-4955
▁ㅅㅓㅇㄱㅕㅇ	-4956
▁ㅇㅑㄱㅌㅏㄹ	-4957
▁ㅇㅓㅍ	-4958
▁ㅌㅣㄹ	-4959
▁ㅂㅜㄹㅆㅏㅇ	-4960
ㅅㅏㅇㅅㅣ	-4961
amp	-4962
▁ㅎㅏㄴㅊㅏㅇ	-4963
▁ㅇㅜㄴㅅㅜ	-4964
ft	-4965
▁ㅌㅣㅂ	-4966
ㄹㅏㄴㅎㅣ	-4967
ㅂㅔㄴㅊㅓ	-4968
▁350	-4969
▁ㄱㅗㅇㅌㅗㅇㅈㅓㅁ	-4970
▁ㅎㅏㄱㅅㅐㅇㅎㅚ	-4971
▁ㅊㅣㄴㅎㅏ	-4972
ㄴㅡㄴㄷㅔ	-4973
▁ㄷㅏㅇㅅㅏ	-4974
ㅂㅡㄹㄹㅣ	-4975
▁ㅇㅗㅇㅎㅗ	-4976
ㅈㅓㄴㅅㅓㄹ	-4977
▁ㅅㅣㄹㅊㅐㄱ	-4978
▁ㄱㅡㄴㄷㅐ	-4979
ype	-4980
▁ㅅㅑㅂ	-4981
ㅇㅛㅇㅎㅣ	-4982
ㄴㅓㄴ	-4983
▁ㅈㅜㅇㅈㅣ	-4984
▁ㅂㅏㄱㅅㅏㄹㄴㅐ	-4985
▁ㅈㅜㅇㄷㅗㅇ	-4986
▁ㄱㅏㅇㅇㅝㄴㄷㅗ	-4987
▁ㄱㅕㅇㅂㅜ	-4988
▁ㄱㅓㄴㄱㅜㄱ	-4989
▁TR	-4990
▁ㅈㅣㄱㅅㅓㄴ	-4991
▁ㅂㅜㅌㅇㅣㄴ	-4992
▁Mar	-4993
ㅈㅣㄴㅎㅗ	-4994
▁ㅅㅜㄹㅅㅏ	-4995
▁ㅇㅔㄴㅈㅣ	-4996
▁ㅂㅓㅁㅇㅛㅇ	-4997
▁ㅎㅔㅅㄱㅏㄹ	-4998
▁ㅎㅏㅇㄱㅗㅇㅁㅗ	-4999
ous	-5000
▁ㅉㅑㅇ	-5001
ㄲㅣㄴ	-5002
▁ㅇㅗㄴㄷㅗ	-5003
▁ㅂㅜㄹㅎㅐㅇ	-5004
ㅇㅏㅍ	-5005
▁by	-5006
▁ㅇㅣㄴㅊㅣㅇ	-5007
▁ㄴㅣㄹ	-5008
▁ML	-5009
ㄴㅛ	-5010
ㅋㅗㄹㄹㅣ	-5011
▁ㅅㅣㄴㅅㅓㄴ	-5012
ㅍㅗㄹ	-5013
▁ㅈㅣㅂㄱㅝㄴ	-5014
▁ㅍㅗㄱㅎㅐㅇ	-5015
ㄱㅘㄱ	-5016
▁ex	-5017
▁ㄱㅗㄹㄹㅔㅁ	-5018
▁ㅈㅓㄱㅈㅜㅇ	-5019
▁ㅈㅣㄹㅂㅕㅇ	-5020
ㄱㅕㅇㄱㅣ	-5021
▁ㅎㅏㅇㄱㅜ	-5022
▁ㅍㅕㅇㅇㅑㅇ	-5023
▁ㅈㅡㅇㅍㅗㄱ	-5024
▁Sup	-5025
▁ㅎㅏㅂㄹㅣ	-5026
▁ㅁㅜㄹㅍㅜㅁ	-5027
▁ㅇㅏㅂㄱㅝㄴ	-5028
▁ㅅㅓㅇㅂㅐ	-5029
▁we	-5030
▁ㅇㅝㄴㅎㅕㅇ	-5031
ㅍㅗㄴㅅㅓ	-5032
▁ㅁㅕㅇㅁㅜㄴ	-5033
▁ㅈㅡㄹㄱㅕ	-5034
▁ㄱㅣㅁㄱㅣ	-5035
▁ㅋㅣㅅ	-5036
▁ㅌㅟㅇㄱㅕ	-5037
▁ㄷㅗㅇㅎㅐㅇ	-5038
FF	-5039
▁UE	-5040
▁ㅈㅜㄹㄱㅓ	-5041
▁ㅂㅕㄴㅇㅣ	-5042
ㅋㅣㄱ	-5043
▁bl	-5044
▁ㅅㅓㄴㅈㅔ	-5045
▁ㅊㅜㄹㅁㅏ	-5046
▁ㄷㅗㄱㅈㅓㅁ	-5047
▁ㄱㅕㅇㅈㅓㄴ	-5048
▁ㅅㅓㄴㅈㅣㄴ	-5049
!!	-5050
▁ㅋㅓㅁㅂㅐㅅ	-5051
▁ㄴㅏㄹㄸㅟ	-5052
▁GSL	-5053
▁ㅋㅜㄴ	-5054
▁ㄱㅏㅁㅅㅜ	-5055
▁ㅎㅕㄹㅌㅗㅇ	-5056
▁ㅈㅏㅇㄴㅏㄴㄱㅏㅁ	-5057
▁ㅌㅡㄹㅇㅓ	-5058
ㅅㅣㅇㅌㅓㄴ	-5059
▁ㅁㅏㅈㅊㅜㄴ	-5060
▁ㄱㅓㅁㅇㅕㄹ	-5061
▁ㄴㅟ	-5062
▁ㅂㅜㅁ	-5063
▁ㅇㅏㄹㄹㅏ	-5064
ㅎㅏㄴㄷㅗ	-5065
▁ㅇㅏㄹㅂㅏ	-5066
▁ㅇㅏㄴㅇㅑㅇ	-5067
ey	-5068
ING	-5069
▁ㅎㅏㅂㄷㅗㅇ	-5070
▁ㅉㅗㅊㄱㅕ	-5071
▁ㅊㅏㄴㅅㅡ	-5072
▁!"	-5073
▁ㄱㅕㄴㄷㅣ	-5074
▁ㅊㅜㄱㅅㅗ	-5075
▁ㄸㅐㅇ	-5076
▁ㅎㅕㅇㅍㅕㄴ	-5077
ㄹㅠㅁ	-5078
▁ㅈㅜㅇㅅㅜㄴ	-5079
▁ㅈㅏㄴㅇㅣㄴ	-5080
▁ㄷㅚㄹㅈㅣ	-5081
▁ㄷㅗㅇㄷㅐ	-5082
▁ㅈㅣㄴㅅㅏㅇ	-5083
ㅈㅓㄴㅅㅏ	-5084
▁102	-5085
▁ㅇㅓㅁㅇㅕㄴㅎㅣ	-5086
▁ㅈㅓㅈ	-5087
▁ㄱㅗㅇㅇㅛㅇ	-5088
▁ㄱㅘㄴㅊㅏㄹ	-5089
▁ㅎㅜㅁㅊㅕ	-5090
ㄹㅡㄹㄹㅗ	-5091
▁ㅎㅏㄴㄴㅏ	-5092
▁ㅈㅕㄴ	-5093
▁ㅇㅣㄴㄱㅝㄴ	-5094
▁ㅎㅡㅂㅎㅕㄹㄱㅟ	-5095
▁LP	-5096
AK	-5097
▁ㄱㅡㄱㅎㅏㄴ	-5098
▁World	-5099
▁ㄱㅏㄱㅇㅗ	-5100
▁ㄱㅏㅇㄱㅏㄴ	-5101
ET	-5102
▁ㅅㅓㄹㄹㅕㅇ	-5103
ㅋㅗㄹㄹㅏ	-5104
▁III	-5105
▁ㅇㅝㄴㅎㅏㄴ	-5106
▁ㅈㅜㅁ	-5107
▁ㅌㅓㄹㄹㅣ	-5108
▁ㅍㅜㄴ	-5109
▁ㄱㅕㄹㅎㅗㄴㅅㅣㄱ	-5110
der	-5111
▁ㅊㅣㄴㅈㅓㄹ	-5112
▁SKT	-5113
▁ㅇㅕㄲㅇㅣ	-5114
ㄷㅚㄴ	-5115
▁ㄴㅗㄴㅁㅜㄴ	-5116
▁ㅅㅓㄴㄷㅜ	-5117
oll	-5118
▁se	-5119
▁ㅅㅓㄲㅇㅕ	-5120
▁ㅌㅡㄱㅂㅕㄹㅅㅣ	-5121
▁ㅅㅔㄱ	-5122
▁ㅁㅕㅇㄷㅏㄴ	-5123
▁New	-5124
▁ㄷㅗㅇㅅㅓ	-5125
▁ㅂㅏㄱㄱㅡㄴㅎㅖ	-5126
ink	-5127
ㄴㅣㄹㄲㅏ	-5128
▁ㅅㅗㄴㅈㅏ	-5129
▁All	-5130
▁ㅇㅕㅇㅈㅣ	-5131
▁al	-5132
▁ㄲㅡㅀ	-5133
▁ㄱㅣㄴㄱㅡㅂ	-5134
▁ㅈㅓㄴㅁㅏㅇ	-5135
▁ㅌㅡㄱㄱㅗㅇ	-5136
▁ㅈㅣㅇㅇㅕㄱ	-5137
▁ㄱㅝㄴㅇㅠ	-5138
▁ㄷㅏㅁㄱㅣㄴ	-5139
ㅌㅐㅂ	-5140
▁IN	-5141
MS	-5142
▁ㄱㅘㅇㅁㅕㅇ	-5143
▁ㅍㅕㅇㅎㅐㅇ	-5144
ㅇㅣㄴㅂㅗ	-5145
▁ㅂㅏㄱㅈㅣ	-5146
▁ㅂㅣㄴㄷㅗ	-5147
▁ㅅㅔㄴㅅㅓ	-5148
▁ㅂㅐㅇㄱㅏ	-5149
ㄹㅕㅆㅇㅡ	-5150
▁ㅈㅓㅇㅅㅏ	-5151
▁Season	-5152
▁ㅍㅗㄱㅅㅡ	-5153
▁ㅈㅓㄴㅅㅐㅇ	-5154
▁ㅈㅓㄹㅊㅏ	-5155
▁ㄱㅏㅈㅊㅝ	-5156
▁ㅊㅣㅁㅁㅜㄱ	-5157
▁ㅈㅗㄴㅅㅡ	-5158
▁ㅇㅝㅁ	-5159
▁111	-5160
▁OG	-5161
▁DP	-5162
▁un	-5163
ㄷㅜㄹㄹㅓ	-5164
▁ㄱㅘㄴㅇㅕ	-5165
▁ㄱㅏㅇㄹㅣㅁ	-5166
▁ㄱㅜㄱㅁㅜ	-5167
▁ㅇㅝㄴㅍㅏㄴ	-5168
▁ㅇㅕㄱㅇㅣㅁ	-5169
▁ㄱㅜㄹㄹㅓ	-5170
▁108	-5171
▁ㅈㅣㅌ	-5172
▁ㄱㅘㄴㅌㅗㅇㄹㅕㄱ	-5173
▁ㄱㅏㅇㅎㅗ	-5174
▁MF	-5175
ㅅㅠㄹ	-5176
▁ㄹㅔㄱㅅㅡ	-5177
▁ㅈㅣㅁㅅㅡㅇ	-5178
▁ㅊㅗㄱㅅㅜ	-5179
ㅅㅡㅇㅂㅜ	-5180
▁115	-5181
▁ㅍㅜㅇㅂㅜ	-5182
▁ㅊㅓㄹㄱㅏㅂ	-5183
DX	-5184
▁ㄷㅗㅇㅂㅏㄴ	-5185
IX	-5186
ㅂㅏㅌ	-5187
▁ㅌㅡㄴㅌㅡㄴ	-5188
▁ㅅㅐㅇㅇㅐ	-5189
▁ㄱㅏㅁㅆㅏ	-5190
NA	-5191
▁ㄲㅓㅂ	-5192
▁ㅈㅏㅇㅌㅏ	-5193
▁ㅇㅕㄱㄹㅑㅇ	-5194
▁ㄱㅘㄴㅊㅡㄱ	-5195
▁ㅇㅣㄴㄱㅘ	-5196
▁ㅂㅜㄹㄴㅡㅇ	-5197
▁ㅃㅏㄹㄱㅏㄴㅅㅐㄱ	-5198
▁ㄷㅗㅇㅈㅓㅁ	-5199
ㄷㅝㅆ	-5200
▁ㅎㅐㅅ	-5201
▁ㄴㅏㄹㅆㅣ	-5202
▁lv	-5203
▁ㄱㅣㅁㅇㅛㅇ	-5204
▁ㅊㅣㅁㄷㅐ	-5205
▁ㄷㅗㄷㅂㅗ	-5206
▁ㅇㅣㅈㅎㅕ	-5207
▁ㅎㅏㄱㅁㅜㄴ	-5208
▁DF	-5209
▁ㅅㅓㄴㅈㅏㅇ	-5210
35	-5211
▁ㅎㅡㄱㅇㅕㄱㅅㅏ	-5212
▁BGA	-5213
▁And	-5214
ㅍㅗㄱㅌㅏㄴ	-5215
▁ㅂㅜㄴㅅㅏㄴ	-5216
▁ㅌㅏㅁㅎㅓㅁ	-5217
▁ㅎㅕㄴㄱㅡㅁ	-5218
▁ㅂㅏㅇㅅㅗㅇㅅㅏ	-5219
▁ㅊㅜㄹㅍㅏㄴㅅㅏ	-5220
▁ㅇㅡㄹㅅㅜ	-5221
▁ㅍㅡㄹㄹㅐㄴ	-5222
▁ㅂㅓㄹㅇㅕㅆ	-5223
ㅎㅏㅇㄱㅗㅇ	-5224
▁ㅅㅜㄴㅇㅑㅇㅎㅏㅁ	-5225
▁ㅂㅐㄱㅇㅓㅂ	-5226
▁NM	-5227
▁ㄷㅗㅇㅅㅗㄱ	-5228
▁ㅊㅐㅁ	-5229
▁SU	-5230
▁ㄲㅗㅂㅎㅣ	-5231
▁ㄱㅣㅁㅍㅗ	-5232
ㅁㅔㅅ	-5233
▁ㅁㅏㄹㅆ	-5234
▁ㅇㅗㅁ	-5235
▁ㄷㅏㄴㅂㅏㄹ	-5236
▁px	-5237
ai	-5238
▁ㅊㅣㄴㅂㅜㄴ	-5239
▁ㅈㅓㄴㄷㅏㅇ	-5240
▁ㄱㅗㄱㅇㅣㄴ	-5241
▁ㅂㅕㄴㅎㅐㅆ	-5242
▁ㅅㅣㄴㅅㅗㄱ	-5243
▁To	-5244
ㅊㅐㄱㅈㅓㅁ	-5245
ank	-5246
MAX	-5247
▁ㅇㅕㄴㅅㅏㄴ	-5248
▁ㅊㅜㄹㅅㅏㄴ	-5249
▁ㄱㅘㅇㅅㅏㄴ	-5250
▁ㅈㅜㅇㅅㅏㅇ	-5251
▁ㅇㅣㄱㅎㅣ	-5252
▁ㅇㅣㄴㅈㅐ	-5253
▁ㅇㅣㄹㄱㅏ	-5254
▁ㄷㅔㄴㅁㅏ	-5255
▁ㅈㅏㄱㄴㅕㄴ	-5256
▁ㅅㅓㅇㅅㅣㄹ	-5257
▁ㄱㅏㅇㄷㅡㅇ	-5258
ㄸㅓㄹㅇㅓ	-5259
▁ㅈㅓㄹㅊㅣㄴ	-5260
ㅍㅣㄹㄷㅓ	-5261
ㅇㅐㄴ	-5262
▁ㅅㅐㅇㅊㅔ	-5263
ㅅㅡㄹㄹㅏ	-5264
▁ㅇㅏㄴㅅㅣㅁ	-5265
▁ㅂㅕㄴㅈㅏㅇ	-5266
▁OS	-5267
▁1981	-5268
ㅇㅜㄴㅅㅜ	-5269
▁ㄱㅗㄹㅋㅣ	-5270
▁IM	-5271
▁ㅇㅕㅇㅇㅑㅇ	-5272
▁ㅌㅗㅇㅉㅐ	-5273
▁ㅊㅐㅇㄱㅣ	-5274
▁ㄴㅐㅇㅈㅓㅇ	-5275
ary	-5276
▁ㅂㅔㄴㅊㅣ	-5277
ero	-5278
▁188	-5279
▁ㄱㅓㄴㄴㅔ	-5280
▁ㄴㅏㅇㅂㅣ	-5281
▁z	-5282
ㄸㅏㄴ	-5283
ㅉㅏㅇ	-5284
ㅇㅞㄹ	-5285
▁ㅎㅏㄹㄹㅣ	-5286
▁ㅈㅓㅇㅅㅓㄱ	-5287
▁ㅇㅕㄴㅅㅙ	-5288
▁ㅇㅘㅇㅂㅗㄱ	-5289
▁ㅂㅜㅅ	-5290
ㅎㅡㄴ	-5291
▁ㄱㅜㄱㅈㅏㅇ	-5292
▁Cr	-5293
ㄹㅔㄴㅈㅣ	-5294
▁ㄱㅏㅇㅅㅏ	-5295
pl	-5296
▁ㄱㅗㅇㄱㅏㅁ	-5297
▁1979	-5298
▁ㅈㅗㅇㅇㅕㅇ	-5299
▁ㅂㅏㄹㄱㅡㅂ	-5300
▁ㅅㅐㅇㄱㅣㅁㅅㅐ	-5301
▁Vol	-5302
▁ㅊㅏㄱㅎㅏㄴ	-5303
▁ㅈㅏㅇㅍㅏㄴ	-5304
▁ㅇㅔㅅ	-5305
▁ㅍㅜㅁㅈㅣㄹ	-5306
▁ㅋㅡㄹㄹㅣㄴ	-5307
▁ㄱㅗㅇㄷㅏㄴ	-5308
ng	-5309
▁ㅈㅏㅇㄹㅖ	-5310
ich	-5311
▁EXT	-5312
ㄹㅗㄱㅅㅐㄱ	-5313
ㅎㅠㅇ	-5314
ife	-5315
▁Bo	-5316
▁ㄱㅜㄹㄹㅣ	-5317
ㅌㅔㄹㅅㅡ	-5318
AY	-5319
▁ㅇㅏㄴㅉㅗㄱ	-5320
▁ㅎㅏㅇㅎㅐ	-5321
▁ㅎㅏㄹㄹㅗ	-5322
▁ㄷㅗㅇㅈㅓㄴ	-5323
▁ㅈㅓㄴㄴㅏㅁ	-5324
aster	-5325
▁ㅇㅝㄴㅅㅜㅇㅇㅣ	-5326
▁ㄷㅏㅅ	-5327
▁ㅇㅣㅁㄱㅣ	-5328
▁ㄹㅔㅁ	-5329
▁1950	-5330
▁ㄱㅏㄱㅈㅣ	-5331
ons	-5332
ㄴㅣㄴㅈㅣ	-5333
▁ㅎㅣㅂㅎㅏㅂ	-5334
▁ㅁㅏㄴㅈㅜ	-5335
▁en	-5336
▁ㅂㅕㅇㅇㅕㄱ	-5337
ㅎㅐㄱ	-5338
ree	-5339
▁128	-5340
▁Day	-5341
▁ㅁㅗㄹㅅㅏㄹ	-5342
▁Ad	-5343
▁ㄱㅣㅁㅈㅜㄴ	-5344
ㄷㅝ	-5345
ㅊㅣㅅ	-5346
▁ㄲㅏㄴ	-5347
ㄸㅓㄱ	-5348
ㅇㅡㅁㄷㅐ	-5349
▁ㅇㅏㄹㄹㅔㄱㅅㅡ	-5350
▁ㅇㅏㅅ	-5351
▁ㅅㅙ	-5352
▁ㅂㅗㅇㅅㅙ	-5353
▁ㅇㅝㄴㅅㅣ	-5354
▁ㄷㅏㄴㄱㅣ	-5355
▁ㅈㅓㅇㅅㅣㄴㄹㅕㄱ	-5356
▁ㄱㅡㅁㅂㅏㄹ	-5357
ㅈㅗㅁ	-5358
▁ㅎㅘㄱㅅㅏㄴ	-5359
▁ㅁㅏㄴㄴㅡㅇ	-5360
▁ㅎㅗㄹㄷㅡ	-5361
ㅅㅓㄴㄷㅏ	-5362
▁ㅋㅜㅇ	-5363
▁ㅅㅓㄴㅇㅣㅁ	-5364
▁ㄷㅏㄲ	-5365
▁ㅌㅏㅁㅈㅣ	-5366
▁ㅁㅗㅁㅌㅗㅇ	-5367
ans	-5368
▁ㄷㅗㅇㅈㅓㅇ	-5369
▁ㅂㅜㄹㅌㅐ	-5370
▁ㅎㅏㅁㅈㅏㅇ	-5371
ㅂㅜㅌㅇㅣ	-5372
▁ㄱㅓㄴㄷㅔ	-5373
▁ㅈㅣㄱㅌㅗㅇ	-5374
▁ㅎㅑㅇㅎㅏㄴ	-5375
▁ㅇㅣㅂㅈㅜ	-5376
ㅈㅝ	-5377
▁ㅅㅣㄹㅎㅕㄴ	-5378
▁ㅉㅗㅈ	-5379
▁ㅁㅓㅇㅊㅓㅇ	-5380
▁UEFA	-5381
▁ㅅㅣㄹㅊㅔ	-5382
▁ㅇㅑㅇㅅㅣㄱ	-5383
▁ㅁㅓㅅㄷㅐ	-5384
▁ㅁㅗㄱㅅㅏ	-5385
ㄱㅡㄹㄹㅏ	-5386
ㄷㅏㅇㅊㅗ	-5387
▁sp	-5388
▁ㅁㅜㄴㅈㅐ	-5389
▁ㄱㅏㄹㅅㅐㄱ	-5390
ㅅㅑㅅ	-5391
▁ㅁㅏㅈㅂㅜㅌ	-5392
▁ㅎㅔㄹㅁㅔㅅ	-5393
act	-5394
▁ㄴㅗㅇㅈㅏㅇ	-5395
▁ㅈㅓㅇㅂㅏㄴㄷㅐ	-5396
▁ㅂㅏㅇㅌㅏㄴ	-5397
▁ㅂㅕㄴㄷㅗㅇ	-5398
▁ㅈㅔㄹㄹㅣ	-5399
▁ㅅㅏㄴㅁㅐㄱ	-5400
▁ㄴㅣㄱㄴㅔ	-5401
▁ㅊㅜㄹㅂㅓㅁ	-5402
IVE	-5403
▁ㅇㅑㄼ	-5404
▁ㅁㅜㄹㅇㅓ	-5405
▁ㅁㅏㅇㅎㅏ	-5406
▁ㅂㅏㄴㅉㅏㄱ	-5407
▁IIDX	-5408
▁ㄷㅏㄹㅇㅣㄴ	-5409
▁ㅍㅓㅁㅍㅡ	-5410
▁ㅈㅗㅇㄱㅕㄹ	-5411
ㅅㅝ	-5412
ase	-5413
▁ㅎㅏㄹㄲㅏ	-5414
ㄷㅡㄹㄹㅣ	-5415
▁ㅇㅜㄴㅅㅗㅇ	-5416
ㄹㅡㄴㅅㅗㄴ	-5417
ㅌㅜㅁ	-5418
▁ㅋㅐㅂㅅㅠㄹ	-5419
▁ㅇㅓㅇㅁㅏㅇ	-5420
ple	-5421
ㄲㅝㅆ	-5422
▁ㄱㅔㅁ	-5423
ㄴㅏㄴㅎㅣ	-5424
▁ㅊㅓㅅㅉㅐ	-5425
▁ㅎㅡㄴㄷㅡㄹㄹㅣ	-5426
▁ㅅㅣㄹㄴㅐ	-5427
uk	-5428
ear	-5429
▁ㅈㅔㅁ	-5430
▁ㄱㅕㅇㅎㅗ	-5431
ㅂㅐㄴ	-5432
▁ㄱㅘㅇㄱㅣ	-5433
▁ㄴㅡㅇㄱㅏ	-5434
▁ㅋㅏㅁ	-5435
▁ㅂㅗㄱㅅㅏ	-5436
▁ㅇㅗㄹㅂㅏ	-5437
▁ㅌㅏㅁㅅㅐㄱ	-5438
▁ㅁㅏㅇㅌㅗ	-5439
▁--	-5440
▁ㄹㅟ	-5441
▁ㅇㅏㅂㅊㅜㄱ	-5442
▁ㅋㅗㄴㅌㅔㄴㅊㅡ	-5443
▁ㅇㅣㄹㄹㅔㄱㅌㅡ	-5444
ㅊㅐㄱㄱㅏㅁ	-5445
▁ㅌㅗㅇㅅㅗㄹ	-5446
ㅁㅏㅇㅈㅜ	-5447
▁ㅇㅣㅁㅇㅢ	-5448
▁ㅌㅡㄹㄹㅣㄴ	-5449
▁ㄲㅡㄶㅇㅣㅁㅇㅓㅄㅇㅣ	-5450
12	-5451
▁ㅊㅡㄴㄷㅔ	-5452
▁ㅇㅣㅂㅁㅜㄴ	-5453
▁ㄱㅏㅇㅎㅐㅆ	-5454
ㅅㅣㄴㅈㅏ	-5455
ㄸㅣ	-5456
ment	-5457
ㅋㅗㄹㄹㅣㅅ	-5458
ction	-5459
ㅌㅡㄹㄹㅐㄴㄷㅡ	-5460
▁ㄱㅣㅅㅂㅏㄹ	-5461
▁ㅈㅓㄴㅎㅑㅇ	-5462
▁WC	-5463
▁ㅂㅏㄹㄹㅔ	-5464
▁ㅁㅣㄹㄷㅗ	-5465
▁ㅊㅐㄹㄹㅣㄴㅈㅣ	-5466
▁ㅈㅜㅇㅇㅟ	-5467
▁ㅊㅣㅁㅌㅜ	-5468
▁ㅇㅐㄱㅅㅔ	-5469
▁ㅁㅕㅇㅂㅜㄴ	-5470
▁ㅍㅕㄹㅊㅕㅆ	-5471
▁ㅃㅓㄹ	-5472
ㄴㅗㅇ	-5473
▁ㅍㅓㄱ	-5474
▁ㅎㅡㄱㅁㅏㄱ	-5475
▁ㅂㅏㄱㅈㅏ	-5476
ㅍㅗㄹㄹㅔ	-5477
▁ㄱㅘㄴㅈㅏㅇ	-5478
▁ㅇㅕㅇㄱㅏㅁ	-5479
▁Part	-5480
▁ㅋㅗㄴㅅㅡ	-5481
▁ㅍㅗㄱㄱㅕㄱㄱㅣ	-5482
▁ㅂㅕㄴㅎㅏㄴ	-5483
▁ㅇㅏㅂㄹㅕㄱ	-5484
▁at	-5485
oon	-5486
▁ㅅㅏㅇㅈㅜ	-5487
▁ㅁㅣㄴㄱㅏㄴㅇㅣㄴ	-5488
90	-5489
▁ㅇㅔㄴㅌㅡ	-5490
ool	-5491
▁ㅇㅜㅁㅈㅣㄱㅇㅣㄹ	-5492
▁ㅌㅐㅂ	-5493
ㅅㅁㅏㄹ	-5494
ㄹㅡㄴㅂㅏ	-5495
▁ㄱㅏㄴㅅㅓㅂ	-5496
ㄹㅏㄱㅅㅣㄹ	-5497
ode	-5498
▁One	-5499
▁ㅅㅣㄴㅈㅏㄱ	-5500
▁ㅉㅣㄹㄹㅓ	-5501
▁ㅅㅏㅂㅈㅣㄹ	-5502
▁ㅅㅓㄴㄹㅗ	-5503
▁ㅅㅣㄹㄹㅣ	-5504
▁ㄱㅜㄴㅂㅜ	-5505
▁ㅁㅕㅇㄷㅐ	-5506
▁ㅈㅏㄱㅈㅓㅇ	-5507
▁ㄱㅏㄴㅍㅏㄴ	-5508
▁ㄱㅏㅁㅈㅏ	-5509
▁ㄱㅣㅁㅇㅠ	-5510
▁ㄱㅣㅁㅈㅣㄴ	-5511
▁ㅂㅏㅇㅎㅏㄱ	-5512
▁ㄷㅏㄹㅇㅏ	-5513
▁ㅈㅏㄴㅎㅗㄱ	-5514
▁ㅎㅏㅁㄹㅏㄱ	-5515
▁ㅂㅏㄴㅇㅕㄱ	-5516
VER	-5517
▁tv	-5518
▁ㄱㅑ	-5519
▁175	-5520
ㄲㅡㅅ	-5521
IR	-5522
▁ㅍㅏㄴㄷㅗ	-5523
▁ㅊㅣㄴㅊㅓㄱ	-5524
▁ㅁㅣㄴㅍㅖ	-5525
ㄱㅝㄹ	-5526
▁DM	-5527
▁ㅇㅏㄴㄷㅏ	-5528
ㅂㅓㄴㅌㅡ	-5529
▁ㅅㅠㄴ	-5530
▁GD	-5531
▁ㅈㅓㅇㅁㅜㄴ	-5532
ㅇㅝㄴㄱㅜㄴ	-5533
ㅇㅕㅇㅎㅗ	-5534
▁Ap	-5535
▁ㄴㅓㅁㅊㅕ	-5536
▁ㄱㅣㅁㅊㅣ	-5537
▁220	-5538
▁ㄹㅕㄴ	-5539
▁ㅉㅏㅁ	-5540
▁FF	-5541
▁ㅁㅏㄹㄹㅕ	-5542
▁ㅁㅗㄱㄱㅓㄹㅇㅣ	-5543
▁ㅇㅑㄹ	-5544
▁ㅁㅣㄹㄹㅔ	-5545
▁ㄱㅜㄴㅅㅜ	-5546
▁LO	-5547
▁ㅈㅡㄹㄱㅣㄹ	-5548
ㅉㅏㄹ	-5549
ㄲㅜㅂ	-5550
▁ㅍㅔㄹㄹㅣ	-5551
▁ㅎㅏㄱㄷㅐ	-5552
ㅊㅔㄹ	-5553
ㅈㅣㄹㄹㅓㅆ	-5554
▁ㅍㅏㄴㄷㅏ	-5555
▁ㅂㅗㅇㅅㅏ	-5556
▁AV	-5557
ㄹㅔㅂ	-5558
▁ㄱㅏㄷㅎㅕ	-5559
▁ㅈㅜㅇㄱㅓ	-5560
▁ㅁㅜㄹㅈㅏ	-5561
ㄹㅣㄴㅅㅡ	-5562
▁ㅎㅗㄹㄹㅣ	-5563
▁NT	-5564
ㄲㅜㅁ	-5565
▁240	-5566
▁AA	-5567
▁ㅇㅕㄴㅅㅜ	-5568
▁ㄱㅘㅇㄱㅕㅇ	-5569
▁ㄷㅓㅇㅇㅓ	-5570
▁ㅁㅏㄴㅈㅓㅁ	-5571
▁103	-5572
▁ㄱㅣㅁㅇㅣㄹ	-5573
ㅇㅣㅅ	-5574
▁Sw	-5575
ㄹㅏㄴㅅㅣ	-5576
▁ㅍㅏㄹㄹㅣ	-5577
▁ㅊㅏㄱㄹㅠㄱ	-5578
▁ㅎㅕㄴㅈㅏ	-5579
▁ㄱㅡㄹㅆㅣ	-5580
▁ㅅㅔㄹㄹㅔ	-5581
▁ㅅㅣㄹㅈㅓㄱ	-5582
ㄷㅔㄹㄹㅣㅇ	-5583
ㅉㅜㄱ	-5584
▁ㅊㅗㅇㅎㅏㅂ	-5585
▁ㅊㅜㄹㅎㅕㄹ	-5586
ㅈㅗㅁㅁㅜ	-5587
▁ㅎㅡㅁㅈㅗㅁㅁㅜ	-5588
ㅈㅣㄱㅇㅝㄴ	-5589
▁ㅅㅣㄴㅈㅜㅇ	-5590
▁ㅎㅘㅇㄷㅏㅇ	-5591
▁ㅇㅣㅂㅅㅣ	-5592
▁ㄱㅏㅁㅌㅏㄴ	-5593
▁ㅅㅣㄴㅎㅏ	-5594
▁ㅅㅡㅇㅈㅣㄴ	-5595
bs	-5596
▁ㅎㅏㅇㅁㅗ	-5597
AP	-5598
▁ㅎㅗㄴㅎㅕㄹ	-5599
▁ㄱㅣㅁㅅㅜ	-5600
ㅅㅏㅇㄱㅡㅂ	-5601
▁ㄸㅜㅇ	-5602
▁ㅅㅟㄹㄷㅡ	-5603
▁ㅅㅡㄹㅍㅡㅁ	-5604
▁ㅊㅓㄴㄱㅜㄱ	-5605
▁ㅂㅕㄴㅎㅏㄴㄷㅏ	-5606
▁ㄴㅏㅂㄷㅡㄱ	-5607
ㄹㅡㄹㄹㅣㄴ	-5608
ㅂㅅㅣ	-5609
▁ㄹㅓㄴㅊㅓ	-5610
▁ㅋㅏㄹㄹㅏ	-5611
ㅇㅡㄹㅂㅓ	-5612
▁ㅇㅘㅇㅂㅣ	-5613
▁ㅅㅏㅁㅅㅓㅇㅈㅓㄴㅈㅏ	-5614
▁ㅅㅓㅇㅂㅜㄴ	-5615
▁ㅊㅣㅁㅁㅗㄹ	-5616
ㄱㅡㄹㄹㅣㅇ	-5617
ㅇㅣㄴㅎㅏ	-5618
yle	-5619
▁ㅅㅣㄴㅇㅣ	-5620
▁ES	-5621
▁ㄱㅏㅇㄱㅕㅇ	-5622
▁ㅂㅓㄹㅇㅣㄴ	-5623
▁ㅎㅏㅂㅈㅏㄱ	-5624
▁NH	-5625
▁ㅂㅏㄱㅅㅜ	-5626
▁ㅂㅗㄴㄱㅘㄴ	-5627
▁nd	-5628
▁ㄱㅓㅁㅈㅓㅇ	-5629
▁ㄱㅣㅍㅇㅣ	-5630
▁ㄱㅜㅂ	-5631
▁ㅇㅕㄹㄹㅕㅆ	-5632
▁1945	-5633
▁Up	-5634
atch	-5635
▁ㅅㅣㄴㄷㅗㅇ	-5636
▁ㅊㅏㅇㅁㅜㄴ	-5637
ike	-5638
▁ㅌㅗㄱ	-5639
ㅇㅡㄴㅅㅐㄱ	-5640
▁ㄱㅏㅇㄷㅐ	-5641
ㅇㅣㅁㅈㅡ	-5642
orn	-5643
▁ㅅㅣㄹㅇㅛㅇ	-5644
▁ㅇㅘㄴㄱㅗㅇ	-5645
▁CM	-5646
▁ㅈㅜㅇㅂㅜ	-5647
▁ㅈㅓㄱㅈㅓㄹㅎㅣ	-5648
▁ㅋㅔㄴㅈㅣ	-5649
▁Man	-5650
▁ㅊㅔㄴ	-5651
II	-5652
ㅍㅡㄹㄹㅣ	-5653
▁ㅉㅡ	-5654
▁ㄸㅓㅆ	-5655
▁ㅇㅏㅀ	-5656
ㅊㅣㄴㄱㅜ	-5657
ㅊㅓㄴㅇㅘㅇ	-5658
▁ㄱㅡㄱㄷㅐ	-5659
▁ㄱㅕㅇㅊㅏㄹㅅㅓ	-5660
▁ㅎㅓㅇㄱㅏ	-5661
▁ㄱㅗㅇㅅㅗㄱ	-5662
▁ㅈㅓㄴㄷㅏㅁ	-5663
▁ㄴㅗㄹㄹㅏㅂ	-5664
ence	-5665
hen	-5666
▁112	-5667
▁ㄷㅗㄹㅇㅕㄴ	-5668
▁ㅅㅗㄴㅅㅟㅂ	-5669
▁ㅁㅏㄴㄹㅔㅂ	-5670
ㅇㅣㄴㅂㅐ	-5671
▁ㅍㅕㄴㄹㅣ	-5672
▁ㅈㅣㄱㅊㅐㄱ	-5673
▁ㄷㅡㅇㄱㅡㄱ	-5674
▁ㅅㅏㅆ	-5675
▁ㅈㅓㄴㅈㅣ	-5676
ㅂㅗㄴㄷㅏ	-5677
▁ㅇㅗㄴㅊㅓㄴ	-5678
▁ㅊㅐㅁㅍㅡ	-5679
▁ㄱㅓㅁㅈㅡㅇ	-5680
▁ㅅㅗㄱㅎㅏㄴ	-5681
▁ㄸㅡㄷㅇㅓ	-5682
▁ㅊㅏㅁㅅㅏ	-5683
▁ㄷㅏㄴㅇㅕㄱ	-5684
▁NO	-5685
▁ㅁㅜㄷㅎㅕ	-5686
ens	-5687
now	-5688
ㅍㅗㄹㄹㅣ	-5689
▁Ed	-5690
iver	-5691
▁ㅉㅗㄹ	-5692
▁ㄱㅏㄱㄷㅗ	-5693
▁ㅎㅏㅁㅅㅜ	-5694
▁ㅎㅘㅇㅎㅜ	-5695
▁ㅇㅏㅁㅎㅗ	-5696
▁ㅅㅏㄴㅌㅏ	-5697
▁ㅈㅓㄴㄴㅏㄹ	-5698
▁ㅍㅏㄹㄹㅏ	-5699
ㅅㅋㅏ	-5700
▁ㅈㅣㄹㅅㅓ	-5701
ph	-5702
▁ㄴㅏㅁㄷㅗㅇㅅㅐㅇ	-5703
▁ㅂㅓㄱ	-5704
▁ㅅㅡㅇㅇㅣㄴ	-5705
ㅋㅣㅁ	-5706
▁ㅅㅣㅇㄱㅏ	-5707
ㅁㅣㄴㅈㅜ	-5708
▁ㅁㅗㅁㅁㅐ	-5709
▁So	-5710
ㄱㅟㄴ	-5711
▁ㅈㅐㄱㅅㅡㄴ	-5712
▁ㅍㅕㅇㅅㅏㅇㅅㅣ	-5713
▁ㅎㅡㄺ	-5714
▁ㅌㅏㅆ	-5715
▁ㅈㅗㄴㅈㅜㅇ	-5716
▁ㅎㅣㅁㅇㅣㅂ	-5717
▁ㄱㅗㄴㅊㅜㅇ	-5718
▁ㅊㅜㄹㄷㅗㅇ	-5719
▁ㅇㅓㄹㅌㅣ	-5720
▁ㅍㅔㅇ	-5721
ㅂㅏㅁ	-5722
▁ㅂㅏㄹㅁㅕㅇ	-5723
▁ㅇㅑㄱㅎㅗㄴ	-5724
▁ㅁㅕㅇㅈㅏㅇ	-5725
▁ㄱㅗㅇㅅㅏㄴㄷㅏㅇ	-5726
▁Mag	-5727
▁ㄱㅜㄱㄷㅗ	-5728
▁ㅊㅓㄴㅈㅏㅇ	-5729
▁1978	-5730
▁ㅂㅗㄴㄴㅡㅇ	-5731
ㄷㅡㄹㅇㅣㄴ	-5732
▁EC	-5733
▁NBA	-5734
ㅋㅞ	-5735
▁ㅅㅣㅂㅅㅣ	-5736
▁ㅎㅡㅌㅇㅓ	-5737
▁ㅂㅏㄹㅍㅏㄴ	-5738
▁ㅇㅕㄴㄷㅗㅇ	-5739
▁ㅅㅏㅇㅁㅜ	-5740
▁ㅈㅏㅁㄷㅡㄹ	-5741
pt	-5742
▁ㅊㅓㄴㅊㅓㄴ	-5743
ㅎㅔㄹ	-5744
ail	-5745
ㄴㅏㅆㅇㅡ	-5746
▁ㅇㅕㄹㅈㅓㅇ	-5747
ition	-5748
▁OCG	-5749
▁ㅅㅏㅇㄴㅑㅇ	-5750
ork	-5751
▁ㅇㅘㅇㅅㅣㄹ	-5752
▁ㅆㅣㅅ	-5753
▁Super	-5754
▁ㅊㅓㅇㅊㅜㄴ	-5755
▁DJMAX	-5756
ㅌㅔㄱ	-5757
▁ㅇㅝㄴㄹㅗ	-5758
ㅃㅏㄱ	-5759
ㅇㅗㄹㄹㅣㄴ	-5760
ㅈㅗㄴㅅㅣㅁ	-5761
▁up	-5762
ㄱㅠㄹㄹㅓ	-5763
ㅋㅓㄷ	-5764
▁ㅇㅣㄹㅋㅓㄷ	-5765
▁ㅍㅕㅇㄹㅗㄴ	-5766
▁ㅁㅐㅇㅅㅔ	-5767
▁RE	-5768
▁ㅅㅓㄴㅊㅜㄹ	-5769
▁ㅇㅣㄹㅇㅣㄹ	-5770
ㅅㅏㅇㄷㅗ	-5771
▁ㅅㅓㄴㄷㅗㅇ	-5772
▁pl	-5773
▁ㅊㅓㄴㅈㅣ	-5774
▁Fr	-5775
▁Ph	-5776
▁ㅎㅏㄴㅈㅓㅇㅍㅏㄴ	-5777
▁ㅅㅣㄴㄱㅗㄱ	-5778
▁ㅂㅕㄴㅁㅕㅇ	-5779
▁ㅁㅏㄹㄱㅣ	-5780
▁ㅈㅓㄴㅂㅓㅂ	-5781
▁ㅅㅣㄴㅎㅏㄴ	-5782
▁ㅇㅣㅂㅈㅏ	-5783
▁ㅈㅓㅂㅎㅏ	-5784
ㅇㅜㄴㄷㅗㅇ	-5785
▁ㅇㅓㅆㅇㅓㅆ	-5786
▁ㅇㅣㄹㅊㅔ	-5787
ㅂㅏㄱㅅㅡ	-5788
▁ㅇㅣㄴㅈㅓㅂ	-5789
▁ㅎㅏㄴㄲㅓ	-5790
99	-5791
▁ㄱㅕㄴㅎㅐ	-5792
▁ㅇㅣㄹㄱㅗㅂ	-5793
ㄱㅏㄴㄷㅐ	-5794
ㅇㅜㄹㄷㅐ	-5795
▁ㅂㅕㄴㅅㅜ	-5796
▁ㅈㅓㅁㅇㅠ	-5797
▁ㅁㅟㄴ	-5798
▁USB	-5799
▁ㅂㅡㄹㄹㅓㄱ	-5800
inal	-5801
▁ㅎㅕㄱㅅㅣㄴ	-5802
▁ㅇㅣㄹㅁㅕㅇ	-5803
▁ㅁㅣㄴㄱㅏㅁ	-5804
▁ㄴㅗㅇㅇㅓㅂ	-5805
▁ㅅㅡㄹㄹㅐ	-5806
▁ㄱㅗㅇㅅㅣㄴ	-5807
▁ㅊㅓㄴㅊㅓㄴㅎㅣ	-5808
▁ㅁㅕㄴㅈㅔ	-5809
ㄲㅜㅂㅊㅣㄴㄱㅜ	-5810
▁ㅅㅣㄹㄹㅣㄴ	-5811
▁ㅇㅛㅇㅇㅣ	-5812
▁ㅈㅏㅇㄴㅏㅁ	-5813
ㅂㅗㄹㄹㅜ	-5814
ㅅㅐㅇㅎㅘㄹ	-5815
ㅅㅐㅇㅈㅏ	-5816
▁ㄷㅏㅂㄷㅏㅂ	-5817
▁RA	-5818
▁ㅋㅟㄱ	-5819
▁ㅍㅣㄹㄹㅡㅁ	-5820
ㄷㅓㄱㅅㅕㄴ	-5821
▁ㅁㅏㄱㅎㅕ	-5822
▁ㅍㅐㄴㅌㅣ	-5823
▁ㄱㅏㅁㄷㅏㅇ	-5824
usic	-5825
ㅈㅣㄱㅈㅏ	-5826
▁ㅁㅓㅁㅊㅝ	-5827
▁ㄱㅔㄹ	-5828
ㅂㅏㅇㅅㅗㅇ	-5829
ble	-5830
▁GM	-5831
▁ㄱㅏㅇㅁㅣㄴ	-5832
▁IT	-5833
▁ㅈㅓㅁㄱㅓㅁ	-5834
▁ㅈㅓㅇㅈㅓㅁ	-5835
ㄹㅕㅅ	-5836
▁ㅈㅏㄱㅇㅟ	-5837
▁ㅇㅓㅇㄷㅓㅇㅇㅣ	-5838
▁BD	-5839
▁ㅇㅣㄴㅁㅜㄴ	-5840
▁TP	-5841
▁ㅎㅏㄱㄴㅕㄴㄷㅗ	-5842
ㄴㅟㄴㄷㅏ	-5843
▁Qu	-5844
▁ㅌㅜㄱ	-5845
▁ㅍㅓㅇㅋㅡ	-5846
▁ㅂㅏㄱㅈㅓㅇㅎㅢ	-5847
te	-5848
ㅁㅏㄹㄹㅣ	-5849
▁ㅁㅓㄱㅇㅕ	-5850
▁are	-5851
▁ㅅㅡㄴ	-5852
▁ㅅㅓㄴㅂㅏㄱ	-5853
▁123	-5854
▁Dream	-5855
▁ㅈㅏㅇㅂㅕㄱ	-5856
▁ㅎㅏㄱㅅㅏ	-5857
▁ㅈㅓㄴㅅㅗㅇ	-5858
ㅅㅜㄴㅅㅣㄴ	-5859
▁ㅎㅕㅂㅈㅓㅇ	-5860
▁ㅈㅏㅇㅂㅗㄴ	-5861
▁ㅅㅗㄴㄴㅣㅁ	-5862
▁ㄱㅗㄹㅍㅡ	-5863
ㅋㅡㄹㄹㅔ	-5864
ㅑㅁ	-5865
▁ㅎㅠㅇㅇㅏㄱ	-5866
▁ㅂㅐㄱㅁㅏㄴ	-5867
▁ㅍㅜㅇㅅㅓㄴ	-5868
▁ㄴㅗㄱㅎㅘ	-5869
▁ㅇㅓㄵ	-5870
▁ㅎㅘㄴㅅㅐㅇ	-5871
▁104	-5872
▁ㄱㅜㅇㅎㅏㅂ	-5873
▁ㄹㅗㄹㄹㅓ	-5874
▁ㅈㅓㅇㅁㅣㄹ	-5875
▁ㅇㅗㄱㅅㅏㅇ	-5876
▁ㅎㅘㄱㅅㅣㄴ	-5877
▁ㅂㅏㄱㅅㅓㅇ	-5878
▁ㅇㅣㄴㅁㅕㅇ	-5879
ㅇㅣㄴㅇㅓ	-5880
▁ㅇㅛㄱㅅㅓㄹ	-5881
▁ㅅㅓㅁㄱㅘㅇ	-5882
▁ㅎㅏㄴㄱㅏ	-5883
▁ㅇㅣㄹㄱㅘㄴ	-5884
ㅈㅏㅇㄱㅗ	-5885
▁ㄹㅓㅆ	-5886
ㄷㅗㅇㅅㅏㄴ	-5887
ㅌㅐㅇ	-5888
▁ㅌㅏㄹㅊㅟ	-5889
▁ㄷㅐㅁ	-5890
ㄸㅏㄹ	-5891
ㄷㅡㄴㄷㅏ	-5892
▁ㄱㅕㅇㅂㅜㄱ	-5893
▁ㅊㅣㄴㅇㅐ	-5894
▁ㅈㅏㅇㅂㅗㄴㅇㅣㄴ	-5895
▁SA	-5896
▁ㅇㅣㄴㄷㅡㅅ	-5897
▁ㄱㅣㅁㅅㅡㅇ	-5898
▁ㅅㅗㅅ	-5899
▁ㅅㅣㄴㄱㅘㄴ	-5900
▁ㅇㅏㄹㄹㅔㄱㅅㅏㄴㄷㅡ	-5901
ㅈㅏㅇㄴㅏㄴ	-5902
▁ㅅㅣㄹㄹㅕ	-5903
▁ㅈㅓㄹㄷㅏㄴ	-5904
IK	-5905
▁1973	-5906
ㅈㅏㅇㄱㅜㄴ	-5907
ㅍㅔㄱㅌㅓ	-5908
▁ㅂㅜㄴㅎㅗㅇ	-5909
▁135	-5910
ㅈㅏㄱㅇㅟ	-5911
ㅍㅡㄹㄹㅔㄱ	-5912
▁ㅇㅣㄴㅂㅔㄴ	-5913
▁ㄱㅕㄱㄹㅕ	-5914
▁ㅈㅠㄴ	-5915
▁ㄱㅘㅇㅁㅜㄹ	-5916
▁ㅇㅣㅁㅈㅣㄴ	-5917
ㄷㅟ	-5918
▁ㅋㅐㄹㄹㅣ	-5919
ㅌㅗㅇㅅㅜ	-5920
▁ㅇㅣㅂㅈㅡㅇ	-5921
▁ㅁㅔㄴㅂㅜㅇ	-5922
▁109	-5923
▁ㄱㅗㅇㅎㅓㄴ	-5924
▁ㅇㅓㄱㅇㅜㄹ	-5925
anc	-5926
▁ㅇㅔㄹㄷㅓ	-5927
▁ㅂㅏㄱㅁㅕㅇ	-5928
▁ㅇㅝㄴㅎㅘ	-5929
▁ㅁㅜㄴㅇㅑㅇ	-5930
ㄴㅔㄴ	-5931
▁ㅅㅗㄹㅈㅓ	-5932
▁ㅂㅓㄴㅈㅣ	-5933
▁ㅇㅕㄴㅅㅓㄹ	-5934
▁ㅋㅣㅁ	-5935
ㅅㅗㄱㄱㅣ	-5936
ㅍㅣㅅ	-5937
▁ㄷㅗㅇㄱㅜ	-5938
▁wiki	-5939
PER	-5940
▁ㄷㅏㅇㅊㅗ	-5941
▁ㄱㅗㅇㄱㅕㄱㅅㅜ	-5942
▁ㄴㅏㄹㄹㅣㄴㄷㅏ	-5943
▁ㄴㅗㅍㅇㅕ	-5944
ㅌㅡㅁ	-5945
▁ㅇㅜㅅㄱㅣ	-5946
▁ㅈㅣㄹㅈㅜ	-5947
▁ㅎㅐㅆㅇㅓ	-5948
▁ㅁㅏㅈㅁㅓㄱ	-5949
▁ㅈㅣㄱㅎㅐㅇ	-5950
▁go	-5951
▁AB	-5952
uck	-5953
▁155	-5954
▁ㄱㅏㅇㅈㅓㄴ	-5955
ise	-5956
▁ㅇㅕㄴㅅㅔ	-5957
▁ㄱㅏㅇㄹㅡㅇ	-5958
▁ㅇㅑㅁ	-5959
▁ㅇㅣㄹㅅㅏㄴ	-5960
▁Ver	-5961
▁ㅅㅓㄴㅎㅚ	-5962
IL	-5963
▁ㅋㅗㄹㄹㅔ	-5964
▁ㅈㅓㅇㅅㅓㅇ	-5965
ㅌㅔㄱㅅㅡ	-5966
▁ㅅㅏㅇㄱㅡㅁ	-5967
▁ㅁㅔㅅ	-5968
▁ㄱㅜㄱㅌㅗ	-5969
▁ㅈㅣㅂㄱㅖ	-5970
ㅁㅗㅅㅁㅣ	-5971
ㅇㅓㄴㅅㅣㅂ	-5972
▁ㅊㅜㅇㅈㅗㄱ	-5973
▁ㅌㅏㄴㅇㅏㅂ	-5974
▁UP	-5975
ㄸㅓㄹ	-5976
▁ㅋㅣㅇㄷㅓㅁ	-5977
▁185	-5978
▁ㅁㅕㅇㅌㅏㅁㅈㅓㅇ	-5979
▁Mi	-5980
▁ㅅㅣㄴㅈㅜ	-5981
▁ㅌㅜㄴ	-5982
ㄷㅡㄹㅇㅕㅆ	-5983
ung	-5984
▁ㄱㅜㄴㄷㅔ	-5985
ㄱㅗㅇㅅㅏ	-5986
▁ㅅㅓㄱㅇㅠ	-5987
▁ㄱㅏㅁㅊㅜ	-5988
ㄹㅔㄱㅅㅕㄴ	-5989
▁ㅂㅓㅇㅋㅓ	-5990
▁ㅇㅜㄹㄹㅣ	-5991
ㅎㅏㅇㄹㅕㄱ	-5992
▁ㅂㅏㄴㄱㅕㅇ	-5993
ㅂㅐㅇ	-5994
▁ㄷㅓㄴㅈㅣㄴ	-5995
▁ㅇㅐㄴㄷㅡ	-5996
▁ㅇㅘㄴㄱㅜ	-5997
▁1200	-5998
ㄹㅝㅆ	-5999
▁ㅇㅣㄴㄱㅗㅇㅈㅣ	-6000
ㅌㅜㅇ	-6001
▁ㅎㅡㅇㅂㅜㄴ	-6002
▁tr	-6003
ㄹㅜㅁ	-6004
▁ㅂㅜㄹㅇㅓ	-6005
ㅊㅓㄴㅅㅏ	-6006
▁ㅁㅗㄱㅇㅛㄱ	-6007
▁ㄱㅐㅇㅅㅣㄴ	-6008
▁ㅇㅓㄱㅈㅔ	-6009
ㅅㅕㅆ	-6010
▁ㅉㅏㄴ	-6011
ㄹㅡㅁㄷㅏㅂ	-6012
▁1974	-6013
▁ㅍㅕㅇㅍㅏㄴ	-6014
▁ㅅㅜㄴㅊㅓㄴ	-6015
ㅂㅓㄴㅅㅡ	-6016
▁ㅁㅣㄴㄱㅜㄱ	-6017
▁ㄷㅏㄴㅈㅏ	-6018
▁ㅇㅠㄱㅅㅏㅇ	-6019
oun	-6020
▁ㅂㅏㄹㅈㅓㄴㅅㅗ	-6021
ㅗㄹ	-6022
vel	-6023
▁HE	-6024
▁ㅈㅜㅇㄱㅣ	-6025
▁iOS	-6026
▁ㄱㅜㄱㅂㅏㅇㅂㅜ	-6027
▁ㄲㅚ	-6028
▁ㅈㅣㄴㄷㅗㅇ	-6029
▁ㄱㅗㅇㄱㅛ	-6030
▁ㅎㅠㅇㄴㅐ	-6031
▁JT	-6032
▁ㅅㅗㄱㅎㅐ	-6033
▁ㅊㅏㄴㅇㅑㅇ	-6034
▁ㅇㅑㅇㅇㅏ	-6035
▁as	-6036
▁MM	-6037
▁ㅊㅗㅇㅈㅏㅇ	-6038
▁ㅇㅣㄹㅅㅜ	-6039
▁ㅃㅑㅁ	-6040
▁ㄷㅗㅇㅅㅓㅇㅇㅐ	-6041
11	-6042
ㅂㅏㅇㅇㅜㄹ	-6043
ㅅㅏㅇㄱㅏ	-6044
▁ㅈㅜㅇㄱㅜ	-6045
▁ㅂㅏㄴㄷㅗ	-6046
oo	-6047
▁ㅊㅏㅇㅅㅔ	-6048
▁ㅂㅏㅇㅅㅣㅁ	-6049
▁ㄱㅏㅇㅇㅣㄴ	-6050
▁DI	-6051
TA	-6052
way	-6053
ㅂㅐㄱㄱㅘ	-6054
▁ㄱㅜㄻ	-6055
▁ㅂㅏㅇㅇㅓㄴ	-6056
▁AL	-6057
▁Team	-6058
▁ㅈㅓㅇㅈㅓㄴ	-6059
▁ㅅㅡㄹㅍㅓ	-6060
▁ㅎㅏㄱㅇㅟ	-6061
urn	-6062
ME	-6063
▁ㅊㅏㅁㅇㅡ	-6064
▁DPS	-6065
▁all	-6066
▁ㄱㅏㅇㄷㅗㅇ	-6067
▁107	-6068
▁ㅊㅓㄴㅈㅜ	-6069
▁ㅂㅓㅅㄱㅕ	-6070
▁ㅈㅐㅁ	-6071
▁ㅇㅘㄴㅅㅓㅇㄷㅗ	-6072
▁ㅆㅏㅎㅇㅣ	-6073
▁ㅂㅕㅇㄱㅘ	-6074
▁ㅊㅏㄹㅅㅡ	-6075
▁ㄱㅡㅂㄱㅕㄱㅎㅣ	-6076
▁ㅃㅛ	-6077
▁ㄱㅘㄴㅁㅜㄴ	-6078
▁ㅅㅗㄴㅈㅏㅂㅇㅣ	-6079
▁ㄴㅏㄴㄹㅣ	-6080
▁ㅁㅏㄹㄹㅔ	-6081
▁ㄲㅡㅌㄴㅏㄹ	-6082
▁ㅈㅜㅇㄱㅕㄴ	-6083
0000	-6084
▁ㅈㅜㅇㅈㅓㅁ	-6085
▁no	-6086
▁ㅁㅕㅇㅅㅣ	-6087
ㅅㅏㄴㅁㅜㄹ	-6088
▁ㅂㅏㄹㅋㅣ	-6089
ㅅㅜㄹㄹㅕㄱ	-6090
▁CR	-6091
ㅍㅐㅇ	-6092
ㅇㅝㄴㅅㅣ	-6093
▁ㅇㅏㄴㄱㅕ	-6094
▁ㄱㅜㄱㅈㅓㅇ	-6095
▁ㅊㅓㄴㅅㅏㅇ	-6096
▁ㅇㅗㄹㄹㅣㄴㄷㅏ	-6097
▁Black	-6098
▁ㄱㅏㅇㅌㅏ	-6099
▁ㅇㅏㄴㅌㅗ	-6100
▁ㅉㅏㄱㅅㅏ	-6101
▁186	-6102
▁ㅇㅜㄹㅇㅡㅁ	-6103
gh	-6104
▁ㅎㅏㅇㄱㅗㅇㅅㅏ	-6105
▁ㅇㅘㄴㅎㅘ	-6106
▁ㅇㅣㄴㅌㅔ	-6107
▁ㅁㅓㅅㅈㅣ	-6108
▁ㅈㅏㅂㅎㅣㄴ	-6109
▁ㅎㅟㅂㅆㅡㄹ	-6110
▁ㅁㅐㅅㅈㅣㅂ	-6111
▁MG	-6112
▁116	-6113
▁ㅅㅓㅇㅈㅣ	-6114
▁ㅂㅏㄹㄱㅏㄱ	-6115
▁Col	-6116
▁CL	-6117
▁ㅂㅕㄴㅎㅏㅁ	-6118
▁ㅊㅣㅁㅊㅏㄱ	-6119
▁119	-6120
ㅁㅔㄴㅌㅓ	-6121
▁ㅇㅣㄴㅅㅡ	-6122
ale	-6123
▁ㅇㅔㅁㅂㅡㄹ	-6124
▁BB	-6125
▁do	-6126
▁ㅅㅣㅁㅎㅣ	-6127
▁ㄲㅕ	-6128
▁ㄱㅏㄱㅇㅣㄴ	-6129
▁Night	-6130
ㄱㅕㄱㅈㅓㄴ	-6131
▁ㄷㅏㄴㄹㅕㄴ	-6132
▁ㄱㅐㅅ	-6133
▁ㅎㅕㅂㅇㅢ	-6134
▁ㄱㅣㅁㄷㅜ	-6135
ier	-6136
▁1975	-6137
▁ㅆㅓㅁ	-6138
▁ㅈㅗㅇㅅㅏ	-6139
ㅈㅜㄴㄱㅕㅇ	-6140
▁(	-6141
ㄷㅏㄺ	-6142
ject	-6143
▁ㅇㅣㅂㅅㅏ	-6144
ㄱㅘㄴㅍㅗ	-6145
▁ㅁㅟㄴㅎㅔㄴ	-6146
ㅈㅣㅇㄱㅏ	-6147
▁HS	-6148
▁LTE	-6149
▁ㄷㅗㄱㅂㅗ	-6150
▁ㅅㅜㄱㅊㅓㅇ	-6151
▁MO	-6152
▁Type	-6153
ㅅㅡㄹㄹㅣ	-6154
▁ㄴㅜㄴㄷㅗㅇㅈㅏ	-6155
▁ㄱㅡㅁㅇㅛ	-6156
ㅋㅗㅅ	-6157
▁ㄱㅕㅇㅅㅏ	-6158
▁ㅂㅔㄹㄱㅣ	-6159
▁ㅇㅘㅆㅇㅡ	-6160
▁ㄱㅘㄴㄹㅛ	-6161
▁ㅍㅏㄱ	-6162
▁ㄱㅓㅂㄴㅣ	-6163
▁ㄷㅙㅆㅇㅡ	-6164
▁ㄱㅣㅁㅂㅕㅇ	-6165
ult	-6166
▁ㅇㅝㄴㅈㅏㄱㅈㅏ	-6167
▁ㅈㅣㄴㄷㅏㄴ	-6168
▁ㅇㅣㅍ	-6169
▁not	-6170
▁ㄱㅕㅇㅅㅏㅇㅂㅜㄱㄷㅗ	-6171
▁ㅇㅖㄹㄹㅗ	-6172
ㄷㅡㅁㅎㅐ	-6173
▁ㅅㅓㅇㄷㅐ	-6174
▁ㅇㅑㅇㄷㅐ	-6175
ㅌㅠㄴ	-6176
▁Girl	-6177
▁ERA	-6178
▁ㅈㅗㅇㅊㅏㄱ	-6179
▁187	-6180
ㅋㅝ	-6181
▁ㄱㅗㅇㄱㅕㄱㄱㅣ	-6182
▁math	-6183
▁ㅇㅛㅇㅅㅏㄴ	-6184
▁ㅈㅏㅇㄱㅏㅂㅊㅏ	-6185
▁ㅂㅜㄴㅎㅏㄹ	-6186
▁ㅈㅜㅇㅅㅗ	-6187
▁ㅈㅜㅇㅇㅝㄴ	-6188
▁ㅈㅗㅇㅈㅓㄴ	-6189
▁ㅇㅏㄱㅎㅐㅇ	-6190
DD	-6191
▁beat	-6192
▁ㅅㅓㄲㅇㅣㄴ	-6193
▁ㄱㅣㅁㅅㅓㅇㄱㅡㄴ	-6194
▁ㅇㅣㄴㅌㅡ	-6195
▁ㅂㅜㄹㄱㅣㄹ	-6196
▁ㄷㅗㅇㅅㅏ	-6197
▁ㅇㅘㅅ	-6198
▁ㅎㅑㅇㅎㅜ	-6199
▁ㄴㅏㅁㅎㅏㄴ	-6200
ㅌㅜㄹ	-6201
▁750	-6202
▁ㄴㅗㅎㅇㅕ	-6203
▁ㅇㅑㄱㅊㅣㅇ	-6204
▁ㅎㅗㅅㅋㅏ	-6205
ose	-6206
▁ㄱㅡㄱㅇㅏㄱ	-6207
▁ㅇㅓㅇㄸㅜㅇ	-6208
▁ㅊㅜㄹㄱㅗ	-6209
▁ㅅㅣㄴㅈㅗ	-6210
▁ㅈㅣㅂㅅㅏ	-6211
ㅁㅏㅇㅈㅏ	-6212
▁122	-6213
▁113	-6214
▁ㅈㅗㅇㄹㅗ	-6215
▁ㅎㅗㅇㅈㅣㄴㅎㅗ	-6216
▁ㅅㅣㄴㅅㅐㅇ	-6217
▁Gam	-6218
▁ㅂㅏㄴㅅㅓㅇ	-6219
▁ㄱㅏㄴㅍㅏ	-6220
▁Con	-6221
▁ㄱㅡㅁㄱㅏㅇ	-6222
▁ㅊㅓㅇㄹㅛㅇ	-6223
▁ㅌㅏㅁㅅㅏ	-6224
▁ㄷㅔㄹㅌㅏ	-6225
▁Max	-6226
ㅌㅔㄹㄹㅏ	-6227
▁ㅎㅗㄴㄷㅗㅇ	-6228
▁Do	-6229
▁ㅍㅕㅇㅌㅐㄱ	-6230
ㄷㅡㄹㅁㅗㄱ	-6231
▁ㅇㅕㅇㄷㅡㅇ	-6232
▁144	-6233
ㅈㅜㅇㄱㅏㄴ	-6234
▁ㅅㅣㅁㅈㅓㅇ	-6235
▁ㅇㅛㄱㅁㅏㅇ	-6236
FL	-6237
▁ne	-6238
ㅅㅣㄹㅈㅓㅁ	-6239
▁ㄲㅏㅇㅍㅐ	-6240
▁ㅇㅗㅂㅌㅣ	-6241
able	-6242
▁ㅈㅜㅇㄱㅗㅇ	-6243
▁450	-6244
▁1977	-6245
▁ㅇㅡㄴㅍㅖ	-6246
▁ㅎㅏㅂㄱㅖ	-6247
▁ㄱㅕㄱㄹㅕㄹ	-6248
▁ㅂㅏㄴㅈㅏㅇ	-6249
▁ㅊㅏㄴㅅㅓㅇ	-6250
▁ㅇㅘㅇㅈㅗㄱ	-6251
ㅇㅏㄶ	-6252
▁ㅅㅣㄱㅅㅡ	-6253
▁ㅈㅓㄱㅎㅣㄴ	-6254
ox	-6255
▁1976	-6256
ㅌㅕ	-6257
very	-6258
▁ㅊㅜㅇㄱㅕㄱㅍㅏ	-6259
▁ㅅㅜㄴㅈㅓㅇ	-6260
▁~"	-6261
ㅂㅏㄴㅅㅣㄴ	-6262
▁ㅂㅏㄴㄷㅏ	-6263
▁ㅊㅐㅁㅅㅡ	-6264
ㅈㅣㄴㅇㅕㅇ	-6265
▁ㄱㅡㄱㅅㅣㅁ	-6266
▁ㄱㅗㅇㅅㅏㄴㅈㅜ	-6267
▁ㄴㅐㅇㄷㅗㅇ	-6268
▁ㅎㅏㄴㅇㅑㅇ	-6269
▁ㅈㅏㅇㅍㅜㅇ	-6270
▁Op	-6271
▁ㅂㅏㄹㅊㅏ	-6272
ron	-6273
ㅍㅜㄴ	-6274
▁ㄷㅡㄹㅋㅣ	-6275
GA	-6276
▁FPS	-6277
▁TS	-6278
▁ㅅㅏㄴㅅㅗ	-6279
ign	-6280
▁ㅂㅔㄹㄹㅏ	-6281
▁ㅅㅜㄱㄹㅕㄴㄷㅗ	-6282
▁ㅍㅣㄹㅅㅏ	-6283
int	-6284
ㅇㅡㄴㅇㅣ	-6285
▁OF	-6286
▁ㅁㅏㅇㅅㅓㄹ	-6287
ㅅㅏㄴㄱㅘㅇㅇㅕㄱㅅㅣ	-6288
▁320	-6289
▁ㅇㅐㄹㄹㅓㄴ	-6290
▁EV	-6291
▁ㅋㅏㅅ	-6292
▁ㄴㅜㄴㅇㅏㅍ	-6293
ㅅㅣㄱㅎㅚ	-6294
▁ㄲㅐㅇ	-6295
▁ㅇㅛㅇㅇㅏㅁ	-6296
▁ㄷㅗㅇㄴㅏㅁㅇㅏ	-6297
ㅌㅏㄹㄹㅣㄴ	-6298
▁ㄴㅏㅁㅎㅏㄱㅅㅐㅇ	-6299
▁ㅈㅣㄱㅇㅟ	-6300
▁ㅈㅓㅇㅎㅕㅇ	-6301
ㅇㅝㄴㅈㅓㄴ	-6302
▁ㅈㅣㄹㅍㅜㅇ	-6303
▁ㄱㅡㄴㄹㅗ	-6304
▁ㄷㅓㅁㅂㅕ	-6305
▁ㅂㅣㄴㅇㅑㄱ	-6306
▁ㅇㅏㄱㅅㅔ	-6307
PA	-6308
▁ㅌㅗㅇㅌㅡㄹㅇㅓ	-6309
▁ㄴㅓㅁㅅㅏ	-6310
▁ㄱㅜㄱㄱㅣ	-6311
▁ㅅㅏㅇㅎㅐㅇ	-6312
ㅁㅂㅣ	-6313
▁4000	-6314
▁ㅇㅑㅇㅋㅣ	-6315
▁ㅅㅣㄴㅎㅏㄱ	-6316
▁ㄱㅡㅂㅎㅏ	-6317
▁ㅁㅏㄴㅈㅣ	-6318
▁ㅇㅣㄴㅅㅓㅇ	-6319
▁ㅈㅜㅇㄴㅕㄴ	-6320
▁ㅅㅏㅇㅂㅜ	-6321
▁145	-6322
ㅂㅗㄹㅂㅓ	-6323
▁ㅇㅕㄴㄱㅏㄴ	-6324
▁ㅈㅣㅂㅍㅣㄹ	-6325
▁ㄷㅏㅇㄴㅏ	-6326
▁ㄷㅗㅇㄱㅖ	-6327
▁ㅂㅕㅇㅎㅐㅇ	-6328
ㄱㅗㅁ	-6329
▁ㅇㅠㄹㄹㅣ	-6330
▁ㅅㅓㅇㅅㅏ	-6331
▁ㅊㅜㅇㄱㅗ	-6332
▁ㄷㅗㅇㅇㅣㄴㅈㅣ	-6333
EL	-6334
ㅈㅣㅈ	-6335
▁ㅇㅣㄹㄲㅏ	-6336
ㄹㅡㄴㅍㅏㄹ	-6337
▁ㅇㅏㅍㅁㅕㄴ	-6338
▁ㅁㅏㅇㅅㅏㅇ	-6339
▁ㅇㅣㅂㅇㅝㄴ	-6340
▁ㅇㅕㄴㅈㅓㄴ	-6341
▁{{{#	-6342
ㅂㅔㄴㅈㅕ	-6343
ㅎㅕㄴㅇㅜ	-6344
▁ㅇㅘㅇㄱㅏ	-6345
▁ㅂㅜㄹㅊㅏㅁ	-6346
▁ㅇㅜㄱ	-6347
▁ㅁㅏㄹㄴㅕㄴ	-6348
▁ㅇㅣㅂㅎㅣㄴㄷㅏ	-6349
▁ㅈㅜㅇㅅㅣㅁㅈㅣ	-6350
▁ㅍㅐㄹ	-6351
▁ㄴㅏㅈㅊㅜ	-6352
▁ㄱㅣㅁㄱㅘㅇ	-6353
▁ㅁㅏㅇㅁㅕㅇ	-6354
▁ㅂㅣㅇㅇㅢ	-6355
▁ㄱㅗㅇㅁㅕㅇ	-6356
▁ㅁㅏㄹㅆㅡㅁ	-6357
ㅊㅓㄴㄱㅜㄴ	-6358
▁ㄷㅗㅇㅅㅏㅇ	-6359
ild	-6360
▁152	-6361
▁ㄷㅣㅂ	-6362
▁BT	-6363
▁ㄷㅗㄱㅂㅐㄱ	-6364
▁ㅈㅓㄹㅈㅓㅇ	-6365
ㄹㅔㄴㄷㅡ	-6366
iel	-6367
▁ㅈㅓㄹㅂㅕㄱ	-6368
▁La	-6369
ㅅㅔㅁ	-6370
▁ㅈㅓㄴㅅㅜ	-6371
▁BC	-6372
ㅍㅡㄹㄹㅔㄱㅅㅡ	-6373
▁ㅇㅝㄹㄱㅏㄴ	-6374
ㄷㅗㄹㅍㅡ	-6375
15	-6376
▁ㅅㅡㅇㅍㅐ	-6377
▁ㅈㅜㅇㄱㅜㄱㅇㅣㄴ	-6378
▁ㅍㅕㅇㅈㅓㅁ	-6379
▁ㅅㅗㄱㅍㅕㄴ	-6380
▁PSP	-6381
ㅇㅣㄱㅅㅜ	-6382
▁ㅅㅣㄴㅋㅏㄴ	-6383
▁Am	-6384
▁1972	-6385
▁Gre	-6386
▁ㄱㅣㅁㅈㅓㄴ	-6387
▁ㅈㅓㅇㅈㅗ	-6388
▁ㅌㅜㅇ	-6389
▁ㅅㅣㄹㄹㅗ	-6390
ANC	-6391
▁ㅇㅣㄴㅊㅔ	-6392
▁ㄱㅏㅇㅌㅏㄹ	-6393
ㅇㅣㄹㄹㅏ	-6394
▁ㅇㅣㄹㄹㅖ	-6395
▁210	-6396
▁ㅈㅓㅁㅅㅣㅁ	-6397
▁ㅎㅜㄴㅎㅜㄴ	-6398
▁ㅅㅣㄴㅋㅏㄴㅅㅔㄴ	-6399
▁ㅅㅗㄴㅁㅗㄱ	-6400
▁ㅎㅐㅇㅈㅣㄴ	-6401
▁ㄹㅐㄴㅅㅓ	-6402
▁ㅈㅗㄴㅅㅡㄴ	-6403
▁MSL	-6404
▁ㄷㅏㄴㅊㅗㅇ	-6405
▁ㅇㅛㄱㅅㅣㅁ	-6406
▁ㅊㅓㄹㄱㅏㅂㅌㅏㄴ	-6407
ㅅㅂㅜㄹ	-6408
▁ㄹㅣㅂㅅㅡ	-6409
ㄱㅕㅂ	-6410
▁ㅍㅏㅁ	-6411
▁ㄴㅏㅁㅇㅑㅇ	-6412
▁ㄱㅗㅇㅉㅏ	-6413
▁ㅎㅓㄹㅋㅡ	-6414
ㄷㅏㅅ	-6415
▁ㅂㅜㄹㅁㅜㄴ	-6416
▁ㅎㅘㅇㅎㅗㄴ	-6417
▁ㅂㅕㅇㅈㅏㅇ	-6418
▁ㄱㅣㅁㅈㅓㄴㅇㅣㄹ	-6419
ㅍㅡㄴㅁㅠ	-6420
▁ㅍㅏㅂㅍㅡㄴㅁㅠ	-6421
ㄹㅏㄹㄷㅡ	-6422
▁ㅂㅏㄱㅎㅕ	-6423
▁ㅇㅣㄹㅍㅜㅁ	-6424
ae	-6425
▁ㅌㅡㄹㄹㅣ	-6426
▁ㅎㅕㅂㅈㅗ	-6427
▁~!	-6428
▁feat	-6429
ㅂㅐㅌ	-6430
▁ㄷㅜㄴㄷㅏ	-6431
▁ㅁㅏㄴㄴㅏㄴㄷㅏ	-6432
ㄲㅓㅇ	-6433
ㄴㅣㄹㄹㅏ	-6434
▁ㄷㅡㅇㅈㅐ	-6435
▁ㄷㅗㅇㅎㅗ	-6436
▁ㅇㅣㄹㄱㅏㄱ	-6437
▁ㄱㅓㅁㅌㅗ	-6438
ㅅㅓㅇㅇㅣ	-6439
▁ㅇㅣㄹㅈㅗ	-6440
▁ㅅㅓㅂㅊㅟ	-6441
▁ㅇㅐㄱㅊㅔ	-6442
▁ㅋㅓㄹㄹㅔㄱㅅㅕㄴ	-6443
▁ㄴㅏㄹㄹㅕㅆ	-6444
ㄹㅡㄹㄲㅏ	-6445
▁ㅂㅏㅇㄱㅗㅇ	-6446
ㅌㅣㄴㅇㅓ	-6447
▁165	-6448
▁ㅈㅓㄱㄹㅣㅂ	-6449
▁ㅈㅗㄴㄷㅐ	-6450
AND	-6451
ANI	-6452
▁ㅅㅏㅇㅇㅢ	-6453
▁ㄲㅗㅁㅅㅜ	-6454
▁ㅍㅏㄴㄱㅝㄴ	-6455
ㄹㅔㄱㅌㅓ	-6456
▁ㄹㅓㄱㅋㅣ	-6457
▁ㅂㅓㄹㅆㅓ	-6458
▁ㅇㅡㅁㅎㅑㅇ	-6459
▁GHz	-6460
▁ㅅㅣㄴㄷㅏ	-6461
ㅇㅏㅅㄱㅣ	-6462
▁ㅇㅘㄴㅂㅕㄱㅎㅣ	-6463
▁ㄱㅣㅁㅈㅣ	-6464
▁ㅇㅕㄴㄱㅡㅁㅅㅜㄹㅅㅏ	-6465
▁Wii	-6466
▁ㅁㅏㄹㄹㅏ	-6467
▁ㅋㅔㄴㅌㅏ	-6468
▁ㅁㅐㅇㄷㅗㄱ	-6469
▁ㅅㅜㅇㅂㅐ	-6470
▁ㅌㅏㄹㅎㅘㄴ	-6471
aby	-6472
▁ㅇㅏㄹㅍㅡ	-6473
▁BJ	-6474
▁}}	-6475
▁ㄲㅓㅂㅈㅣㄹ	-6476
▁ㅇㅓㅅ	-6477
▁Time	-6478
▁ㅅㅓㄹㅁㅏ	-6479
gin	-6480
▁ㅇㅕㅁㄷㅜ	-6481
▁DR	-6482
▁ㅂㅕㄹㅊㅣㅇ	-6483
▁ㄴㅘㅆㄷㅏ	-6484
▁ㅁㅜㄹㅇㅑㄱ	-6485
▁ㅅㅣㅁㅇㅑ	-6486
▁ㅇㅏㄴㄷㅗㅇ	-6487
▁ㅇㅕㄴㅇㅣ	-6488
▁ㅅㅗㄹㅈㅣㄱㅎㅣ	-6489
▁from	-6490
▁ㄱㅕㅇㅈㅣ	-6491
ㅋㅓㄴㄷㅡ	-6492
ㅈㅣㄹㄹㅓ	-6493
ㅍㅣㄹㄹㅗ	-6494
▁ㅅㅡㄹㄹㅐㅁ	-6495
ull	-6496
▁ㅇㅕㄴㅅㅗ	-6497
ical	-6498
ㄲㅣㄴㄷㅏ	-6499
▁ㅂㅗㄹㄷㅡ	-6500
▁ㅇㅏㄴㅈㅔ	-6501
▁ㅂㅗㄴㅈㅣㄹ	-6502
▁ㅁㅣㄴㅈㅜㅇ	-6503
▁ㅈㅜㅇㄱㅡㅂ	-6504
▁ㄷㅡㄹㄹㅓ	-6505
▁ㅌㅔㄱㅅㅏ	-6506
ㅅㅏㅇㅎㅘ	-6507
▁ㅁㅏㄺ	-6508
ㅂㅏㄱㅇㅣ	-6509
▁ㅈㅜㄹㄱㅣ	-6510
▁ㅂㅏㅌ	-6511
▁ㄹㅐㄴㅅㅡ	-6512
▁ㅍㅕㄴㅎㅏㄴ	-6513
▁ㅍㅣㄴㄹㅏㄴㄷㅡ	-6514
▁MHz	-6515
▁ㄱㅏㄱㄱㅜㄱ	-6516
▁ㄴㅐㅇㅈㅏㅇㄱㅗ	-6517
ㅇㅜㄹㅅㅣ	-6518
▁ㄲㅜㅁㄲㅜ	-6519
▁ㅂㅓㅂㅅㅏ	-6520
ㅆㅜ	-6521
▁1969	-6522
▁ㅈㅓㄴㄷㅗ	-6523
STER	-6524
▁..?	-6525
▁rd	-6526
▁BEM	-6527
▁ㅇㅡㅇㄱㅡㅂ	-6528
..	-6529
▁ㄱㅣㅁㄱㅜ	-6530
▁ㅈㅓㅇㅇㅜ	-6531
▁ㅇㅏㅁㅋㅓㅅ	-6532
▁ㅇㅡㅇㅇㅝㄴㄱㅏ	-6533
▁KTX	-6534
▁ㅇㅣㄹㅎㅘㄴ	-6535
ㅌㅡㄹㄹㅣ	-6536
▁ㅈㅏㅇㄷㅗㅇ	-6537
▁ㅂㅏㄱㅅㅏㄹㄴㅏ	-6538
▁ㅊㅡㄱㄱㅡㄴ	-6539
▁ㅍㅣㅇㄱㅖ	-6540
▁ㅁㅗㄱㄷㅗㅇ	-6541
▁CN	-6542
▁ㄴㅏㄹㄹㅣㄴ	-6543
▁ㄱㅜㄴㅇㅛ	-6544
▁ㅊㅗㅇㅅㅏ	-6545
▁10000	-6546
ㅅㅓㄹㄱㅏ	-6547
▁ㅊㅓㅇㄱㅜ	-6548
▁ㅌㅏㄴㅁㅏㄱ	-6549
▁ㄲㅏㄹㄹㅕ	-6550
oul	-6551
▁ㅇㅜㅁㅈㅣㄱㅇㅕ	-6552
▁HARD	-6553
▁ㅁㅏㅈㅁㅜㄹ	-6554
▁ㅈㅓㄴㅎㅏㄱ	-6555
ㅎㅐㅇㅈㅏ	-6556
▁BM	-6557
▁ㄱㅓㄹㄹㅣㄹ	-6558
ㄹㅐㄴㅊㅏ	-6559
ㅋㅠㄹㄹㅏ	-6560
▁1971	-6561
▁ㅈㅓㄱㅅㅣ	-6562
▁UC	-6563
▁ㅍㅏㄹㄹㅔ	-6564
▁ATK	-6565
ㅅㅣㄴㄱㅏㅁ	-6566
▁GN	-6567
▁Gu	-6568
▁ㄱㅏㄹㄱㅜ	-6569
▁ㅈㅓㄱㅇㅣ	-6570
▁ㄷㅡㄹㄹㅣㄴㄷㅏ	-6571
▁ㅂㅜㄹㄹㅣㄹ	-6572
▁ㅅㅔㄱㅅㅡ	-6573
▁ㄴㅏㅁㅁㅣ	-6574
▁ㅈㅓㅂㅅㅜ	-6575
▁Gl	-6576
▁ㅇㅘㅇㅎㅜ	-6577
▁NEW	-6578
▁ㅋㅐㄴㄷㅣ	-6579
idth	-6580
▁ㅈㅜㄱㅇㅣㄴㄷㅏ	-6581
tern	-6582
▁ㅈㅓㅇㅈㅜㄴ	-6583
▁ㄱㅏㅁㄱㅡㅁ	-6584
▁ㅇㅔㅅㅈㅣ	-6585
▁ㄱㅕㄱㄱㅣ	-6586
▁ㅇㅟㄴㅌㅓ	-6587
▁ㅅㅡㄹㅍㅡㄴ	-6588
▁TCG	-6589
ㄹㅣㄴㅇㅏ	-6590
▁ㅂㅗㄴㅇㅢ	-6591
▁ㄱㅏㅇㅅㅡㅂ	-6592
▁ㅂㅏㄱㅁㅕㅇㅅㅜ	-6593
ㄹㅗㄹㄹㅗ	-6594
▁ㅂㅕㄹㅈㅏ	-6595
▁Ro	-6596
▁ㄱㅗㅇㄱㅜㄱ	-6597
▁cl	-6598
▁ㅊㅓㅇㄴㅏ	-6599
▁BEMANI	-6600
▁ㅅㅗㄴㄲㅗㅂㅎㅣ	-6601
▁ㅎㅕㄴㅎㅘㅇ	-6602
▁ㅎㅘㄴㅎㅗ	-6603
ㅍㅏㄱ	-6604
▁ㄱㅘㄴㄱㅘㅇㄱㅐㄱ	-6605
▁ㅋㅔㄴㅇㅣ	-6606
▁new	-6607
▁ㄱㅏㅇㅈㅓㅁㄱㅣ	-6608
gr	-6609
ㅃㅡㅁ	-6610
▁DX	-6611
▁ㅅㅓㄴㅇㅝㄴ	-6612
▁ㄴㅡㅇㅅㅜㄱ	-6613
▁ㅈㅏㅇㅅㅣ	-6614
▁ㅂㅣㅇㄱㅕㄹ	-6615
▁KB	-6616
▁JTBC	-6617
▁ㅂㅓㅈ	-6618
CH	-6619
▁ㅇㅠㄴㄹㅣ	-6620
▁ㅅㅓㄴㅇㅣㄴ	-6621
ㅊㅗㅇㅈㅏㅇ	-6622
ㅌㅜㄱ	-6623
▁ㅁㅕㅇㄴㅏ	-6624
▁ㅈㅏㄴㄹㅠ	-6625
▁Co	-6626
ough	-6627
ㅁㅐㄱㅅㅡ	-6628
▁ㄷㅏㄴㅇㅢ	-6629
▁ㅇㅑㄱㅊㅔ	-6630
▁ㅍㅜㅇㄱㅣ	-6631
▁ㅌㅏㄱㅇㅝㄹ	-6632
▁AFC	-6633
app	-6634
▁Mr	-6635
▁ㅁㅜㄴㅂㅓㅂ	-6636
▁ㅂㅏㄹㅂㅏㄹ	-6637
ㅊㅓㄹㅅㅜ	-6638
▁ㅂㅏㅇㅇㅜㄹ	-6639
▁ㅇㅡㅁㅅㅐㄱ	-6640
▁ㅇㅕㅇㄷㅡㅇㅍㅗ	-6641
▁ㅅㅣㄴㅅㅏㅇ	-6642
▁width	-6643
▁ㅍㅕㅇㄹㅗㄴㄱㅏ	-6644
▁Ser	-6645
ㅍㅔㄴㅅㅡ	-6646
▁ㅂㅗㄴㄱㅏ	-6647
ㅃㅜ	-6648
▁Sk	-6649
▁ㄲㅡㄶㄱㅣ	-6650
▁ㅎㅕㅂㄷㅗㅇ	-6651
▁ㄱㅏㅇㅇㅏ	-6652
▁ㅇㅣㄹㅂㅗㄴㅅㅣㄱ	-6653
▁ㄱㅜㅇㅅㅜ	-6654
▁ㅅㅜㄹㅈㅣㅂ	-6655
eel	-6656
▁ㅈㅗㅇㅁㅏㄹ	-6657
▁can	-6658
13	-6659
▁ㄱㅕㅇㅅㅏㅇㄴㅏㅁㄷㅗ	-6660
▁ㅅㅡㄹㅅㅡㄹ	-6661
▁ㅁㅕㄹㅈㅗㅇ	-6662
▁ㄱㅐㄱㄱㅘㄴ	-6663
ㅇㅏㅇㅅㅡ	-6664
▁ㅁㅜㄴㄱㅗ	-6665
▁ㅋㅓㅁㅍㅓ	-6666
▁ㅂㅏㅇㅊㅣㅁ	-6667
▁ㅍㅔㅇㄱㅟㄴ	-6668
▁ㅈㅜㅇㅎㅜ	-6669
▁ㄸㅜㄱ	-6670
▁ㅅㅑㅇ	-6671
▁ㅈㅣㄹㅎㅘㄴ	-6672
▁ㄴㅡㅍ	-6673
UR	-6674
▁ㅈㅓㄴㄷㅜ	-6675
▁Dark	-6676
▁ㅎㅗㄴㄷㅏ	-6677
▁IV	-6678
▁ㅅㅏㅇㅇㅓ	-6679
▁ㅎㅜㅁㅊㅣ	-6680
▁ㅅㅐㅇㅌㅐ	-6681
▁ㄱㅣㅁㅈㅜ	-6682
▁ㅊㅓㄴㅁㅜㄴ	-6683
▁114	-6684
▁ㅁㅓㅅㅇㅣㅆ	-6685
▁LE	-6686
▁Sch	-6687
▁ㅂㅜㄴㅍㅗ	-6688
ㅋㅗㅂㅌㅓ	-6689
ㄱㅔㄹ	-6690
▁Car	-6691
▁ㅈㅔㄱ	-6692
▁Heart	-6693
me	-6694
ㄷㅗㅇㄱㅣ	-6695
▁ㄱㅗㄹㅊㅣ	-6696
ㅂㅐㅁ	-6697
▁ㄴㅏㅊ	-6698
▁ㅅㅓㄴㅈㅣ	-6699
ll	-6700
▁ㅃㅐㄴ	-6701
▁ㅅㅗㄹㄹㅣ	-6702
ERO	-6703
▁ㅈㅜㅇㄷㅗ	-6704
▁ㅂㅟ	-6705
▁ㅅㅜㄴㄱㅏㄴㅇㅣ	-6706
▁ㅈㅓㅂㅇㅓ	-6707
▁ㄲㅗㅂㅎㅣㄴㄷㅏ	-6708
▁IP	-6709
▁ㄷㅝ	-6710
ㅅㅏㄴㄷㅗㅇ	-6711
▁ㅅㅓㄴㄱㅛ	-6712
▁ㅅㅜㄱㅈㅜ	-6713
▁ㄱㅘㄴㅈㅓㄹ	-6714
▁ㅎㅘㄴㅅㅜ	-6715
ye	-6716
▁ㄱㅕㄱㅌㅚ	-6717
▁ㅇㅣㅈㅇㅓ	-6718
▁ㅂㅣㅅㄴㅏ	-6719
▁ㅍㅣㄹㄷㅜ	-6720
▁ㅎㅘㅇㅌㅐ	-6721
▁ㅋㅓㄴㄷㅣ	-6722
▁ㄱㅡㄴㅅㅓㅇ	-6723
▁}}}	-6724
ㄹㅡㅁㅇㅏ	-6725
▁ㅎㅏㅂㅊㅣ	-6726
▁ㄴㅏㄹㄹㅏ	-6727
ㅆㅐ	-6728
▁ㅅㅗㅁㅆㅣ	-6729
▁ㅇㅝㄹㄷㅡㅇ	-6730
ution	-6731
▁ㅊㅓㅇㅅㅏ	-6732
▁ㅁㅗㄱㅍㅗ	-6733
▁ㅅㅓㅇㅅㅜㄱ	-6734
▁ㅋㅗㄱ	-6735
▁ㅇㅣㄴㅍㅡㄹㄹㅔ	-6736
ㅁㅏㄹㄹㅕ	-6737
▁Em	-6738
ㅇㅝㄴㅈㅏ	-6739
▁ㄷㅏㄴㅁㅏㄹ	-6740
▁ㄷㅗㅇㅊㅔ	-6741
▁UM	-6742
▁this	-6743
▁ㄷㅟㅅㅁㅕㄴ	-6744
▁ㅇㅑㅇㅅㅣㅁ	-6745
▁ㅂㅏㄹㅌㅗㅂ	-6746
▁ㅁㅕㅇㄱㅗㄱ	-6747
▁ㅈㅐㅇㅇㅣ	-6748
▁Is	-6749
▁ㅊㅓㄴㅁㅏ	-6750
▁ㅅㅣㅁㅎㅐㅆ	-6751
▁ㅂㅏㅅ	-6752
▁Bat	-6753
▁ㅈㅣㅂㅎㅏㅂ	-6754
▁ㅎㅡㄱㅁㅏ	-6755
▁ㅅㅣㄴㄴㅕㅁ	-6756
ㄴㅏㄱㅇㅔ	-6757
▁ㅈㅣㄱㄱㅕㄱ	-6758
▁ㅊㅏㅇㄹㅣㅂ	-6759
▁AF	-6760
oh	-6761
ㅁㅏㅂ	-6762
ings	-6763
ㅈㅓㄴㅌㅡ	-6764
▁ㄴㅏㄱㅅㅓㄴ	-6765
▁ㅁㅏㅈㅊㅜㄹ	-6766
▁ㅈㅓㅁㅁㅕㄹ	-6767
▁ㅂㅣㄴㅂㅓㄴ	-6768
ㄱㅗㅇㅍㅗ	-6769
▁ㄱㅜㅇㅈㅓㄴ	-6770
▁ㅅㅐㅇㅅㅓㄴ	-6771
▁ㄱㅜㄱㅅㅏㄴ	-6772
▁ㅇㅝㄴㅈㅏㅇ	-6773
▁ㅂㅜㄹㄹㅕ	-6774
▁ㄴㅐㅂ	-6775
▁ㅍㅜㅇㄱㅕㅇ	-6776
ㅇㅑㅇㅅㅐ	-6777
▁CE	-6778
ㄷㅗㄹㄹㅕ	-6779
▁ㅂㅏㄱㅈㅟ	-6780
▁ㅍㅕㄴㄱㅕㄴ	-6781
▁ㄱㅘㄴㅈㅣㄱ	-6782
▁ㅅㅓㅇㅁㅕㅇ	-6783
ee	-6784
▁ㅇㅡㅇㅅㅣ	-6785
▁ㅅㅣㄹㅈㅏㅇ	-6786
▁ㄷㅗㅇㄷㅡㅇ	-6787
ㄷㅣㄹ	-6788
▁ㄲㅗㄹㅉㅣ	-6789
▁ㅍㅕㅇㄷㅡㅇ	-6790
reak	-6791
▁ㄷㅗㄱㅅㅜ	-6792
▁ㅈㅓㅇㄷㅏㅂ	-6793
▁ㅂㅗㄱㅇㅛㅇ	-6794
▁ㅅㅜㄱㅅㅗ	-6795
▁ㅈㅣㄱㅅㅗㄱ	-6796
ㅇㅑㅇㅅㅣ	-6797
▁ㄷㅏㄹㄹㅏㅆ	-6798
▁ㅂㅏㄴㄹㅏㄴㄱㅜㄴ	-6799
▁ㅇㅕㄴㅇㅢ	-6800
▁ㅈㅣㅇㄱㅖ	-6801
▁ㅅㅓㄴㅂㅗㅇ	-6802
▁ㅅㅔㄱㅅㅣ	-6803
▁ㅋㅓㅁㅂㅐㄱ	-6804
▁ㅁㅏㅌㄱㅕ	-6805
ㄴㅜㄹ	-6806
▁ㄴㅜㅂ	-6807
▁ㄱㅜㄴㄹㅣㅁ	-6808
ㅃㅜㅁ	-6809
▁ㄹㅐㄱ	-6810
▁ㅈㅓㄴㅇㅕㅁ	-6811
▁ㅊㅜㄹㅈㅔ	-6812
▁ㅁㅕㅇㅁㅕㅇ	-6813
▁ㅅㅣㄴㅂㅕㅇ	-6814
▁ㄱㅣㅅㅌㅓㄹ	-6815
▁ㅈㅓㅇㅅㅓ	-6816
ㅇㅓㄴㅈㅏ	-6817
▁ㄲㅡㅌㅈㅏㅇ	-6818
▁ㅇㅣㄴㅅㅙ	-6819
OK	-6820
icro	-6821
▁ㄱㅏㄴㅅㅓㄴ	-6822
▁1968	-6823
ㅃㅏㄹㄹㅣ	-6824
ㅈㅏㄱㅂㅣ	-6825
ict	-6826
▁ㅅㅓㅁㅁㅕㄹ	-6827
ㅇㅕㅇㅂㅗㄱ	-6828
▁ㅁㅐㄱㄹㅏㄱ	-6829
▁UFC	-6830
ㄱㅗㄷ	-6831
▁ㅎㅗㄴㅇㅣㄴ	-6832
ㅌㅓㄴㅌㅡ	-6833
▁ㄱㅏㅇㅅㅓ	-6834
▁ㅈㅣㄴㄷㅗ	-6835
▁ㅂㅜㄴㅂㅐ	-6836
▁ㅇㅣㄴㅌㅔㄹ	-6837
▁ㅂㅏㄴㄹㅗㄴ	-6838
▁ㅅㅏㅇㅈㅏㅇ	-6839
▁Light	-6840
▁ㅁㅗㅁㅁㅜ	-6841
▁ㅁㅗㅂㅅㅣ	-6842
▁ㅉㅣㅈㅇㅓ	-6843
▁ㅅㅣㄴㅅㅜ	-6844
▁ㄹㅏㅅ	-6845
ㄹㅕㄱㅈㅏ	-6846
▁ㄱㅓㄹㅇㅡㅁ	-6847
▁ver	-6848
▁ADV	-6849
▁ㅇㅕㄴㅎㅚ	-6850
▁ㅇㅡㅇㄷㅏㅂ	-6851
▁ㄷㅏㄴㅅㅓ	-6852
▁ㅎㅗㅁㅈㅡ	-6853
▁ㄱㅗㅇㅇㅕㅇ	-6854
▁ㅁㅣㄷㅇㅡㅁ	-6855
mania	-6856
▁ㅈㅜㅇㅎㅏㄱㅅㅐㅇ	-6857
▁ㅎㅘㄱㄱㅗ	-6858
▁ㄱㅕㄱㅊㅣㅁ	-6859
ㅊㅐㄴ	-6860
▁ㄹㅚ	-6861
▁ㅅㅓㅇㅂㅣ	-6862
▁ㅅㅗㄴㅌㅗㅂ	-6863
ors	-6864
▁ㅇㅛㅇㅇㅢ	-6865
▁ㅈㅓㄴㄱㅘㅇ	-6866
▁ㄱㅡㄱㅅㅗ	-6867
ㅈㅜㅁㅁㅏ	-6868
▁Kore	-6869
▁ㅅㅏㅇㅅㅣ	-6870
▁SL	-6871
▁Im	-6872
▁ㄲㅜㅀ	-6873
▁ㄱㅕㅇㅂㅗ	-6874
▁ㄱㅡㄱㅇㅜ	-6875
▁ㅁㅝㄴㅈㅣ	-6876
▁ㅁㅏㄹㅇㅏ	-6877
▁ㅈㅏㅁㅈㅏ	-6878
ㅂㅜㅅ	-6879
▁ㅂㅏㄹㄹㅔㄴㅌㅏ	-6880
▁ㅇㅏㅍㄷㅟ	-6881
▁ㅎㅏㄴㅊㅡㅇ	-6882
ㅁㅐㅅ	-6883
ㅁㅐㄴㄷㅓ	-6884
▁ㄱㅕㄹㅇㅢ	-6885
▁ㅂㅡㄹㄹㅐㄱㅎㅗㄹ	-6886
▁PK	-6887
▁ㅉㅏㄹㅂㅏㅇ	-6888
▁203	-6889
▁~~	-6890
ㅎㅘㄹㅇㅑㄱ	-6891
▁ㅅㅓㅇㅇㅕㄱ	-6892
ㄹㅏㅇㅋㅡ	-6893
▁ㄴㅓㅁㄱㅕㅆ	-6894
ㄱㅗㅇㅎㅘ	-6895
ㅈㅓㅇㅇㅕㄱ	-6896
ECT	-6897
▁ㅇㅝㄴㅎㅐㅆ	-6898
▁ㅎㅏㅂㅂㅓㅂ	-6899
▁EBS	-6900
ㅇㅛㅇㅅㅗ	-6901
▁ㅅㅏㄴㅌㅏㄴㅊㅗㅇ	-6902
▁ㅈㅣㄴㅈㅓㅇㅎㅏㄴ	-6903
▁Ev	-6904
▁ㅁㅐㅅ	-6905
▁Sy	-6906
▁ㅅㅡㅂㅎㅏㄴ	-6907
▁ㅇㅐㅇㅋㅓ	-6908
▁ㅇㅏㄱㄹㅕㅇ	-6909
▁ㄱㅣㄹㄱㅓ	-6910
▁ㅈㅡㄹㄱㅓㅂ	-6911
ACK	-6912
ㄱㅓㅅㅈㅓ	-6913
▁ㅂㅏㅇㅎㅗ	-6914
ㄷㅠㄹㄹㅓㅁ	-6915
▁ㅍㅔㄴㄷㅠㄹㄹㅓㅁ	-6916
▁127	-6917
▁ㅌㅗㅇㅅㅜ	-6918
▁BO	-6919
▁126	-6920
▁pro	-6921
ㅁㅏㄱㅈㅓㄴ	-6922
▁ㅈㅣㄱㅇㅕㄱ	-6923
▁AE	-6924
▁ㅎㅗㅁㄱㅕㅇㄱㅣ	-6925
▁ㄷㅏㄱㅊㅣ	-6926
▁ㄷㅗㅇㄱㅓ	-6927
ㅌㅗㅇㅅㅏ	-6928
ㄴㅓㄱ	-6929
▁ㅅㅣㄹㅂㅏ	-6930
ㄷㅏㄴㅈㅣ	-6931
ㅂㅐㄴㅅㅡ	-6932
▁ㅅㅔㄴㅌㅣ	-6933
▁ㅎㅐㅇㅂㅏㅇㅂㅜㄹㅁㅕㅇ	-6934
▁117	-6935
▁will	-6936
▁ㅅㅏㅇㅅㅙ	-6937
▁ㅋㅐㅂㅋㅗㅁ	-6938
▁Su	-6939
ㄹㅗㄹㄹㅓ	-6940
▁max	-6941
▁ㅁㅐㄴㅊㅔ	-6942
▁ㅂㅜㄹㅋㅙ	-6943
▁ㄹㅐㄴㅌㅓㄴ	-6944
▁ㅁㅜㄴㅅㅣㄴ	-6945
ㅁㅐㄴㅅㅡ	-6946
▁ㅇㅝㄹㅇㅛ	-6947
▁ㅇㅝㄴㅎㅠㅇ	-6948
14	-6949
ㄹㅏㅇㅍㅡ	-6950
TC	-6951
▁ㅌㅓㄹㅇㅓ	-6952
▁ㅈㅏㄱㅇㅣㄴ	-6953
▁ㅎㅘㄴㅅㅏ	-6954
▁ㅎㅏㄴㄱㅏㅇ	-6955
▁184	-6956
▁ㅂㅏㅇㅎㅘ	-6957
▁ㅎㅐㄴㄷㅡㄹ	-6958
▁ㄴㅗㅇㅁㅣㄴ	-6959
▁ar	-6960
ics	-6961
▁ㅂㅓㄹㄱㅡㅁ	-6962
▁LED	-6963
▁ㅂㅏㄹㅌㅏㄱ	-6964
▁ㅂㅜㄱㅇㅏ	-6965
▁ㄱㅏㅇㅅㅔ	-6966
▁ㅂㅜㄹㅎㅘ	-6967
▁ㅇㅜㄴㅅㅓㄱ	-6968
▁ㄴㅏㄴㄱㅏㅁ	-6969
▁ㅈㅓㄱㅅㅓㅇ	-6970
▁ㅂㅏㄱㅊㅣ	-6971
▁ㅈㅓㄴㄹㅖ	-6972
▁ㅇㅣㄹㅅㅏㅁ	-6973
▁ㄸㅏㅁ	-6974
▁ㄱㅓㄴㄷㅏ	-6975
▁ㄱㅗㅇㅈㅗㄴ	-6976
▁As	-6977
▁ㄲㅗㅇ	-6978
▁ㅂㅏㄹㅎㅕㄴ	-6979
▁ㅁㅚ	-6980
ㄸㅜㅀ	-6981
▁ㄴㅏㄴㅁㅣㄴ	-6982
ㅁㅕㅇㅅㅏ	-6983
▁ㅌㅡㄱㅎㅜㄴ	-6984
ㅎㅕㄴㅈㅣㄴ	-6985
▁ㅎㅗㄱㅍㅕㅇ	-6986
▁Let	-6987
▁ㅅㅓㅇㅅㅜ	-6988
▁ㄱㅏㅁㅅㅓㅇ	-6989
▁ㅇㅑㅇㅈㅜ	-6990
▁ㅊㅣㄴㅇㅟ	-6991
ex	-6992
▁178	-6993
▁ㅁㅕㄴㅈㅓㅂ	-6994
af	-6995
▁us	-6996
ammer	-6997
▁183	-6998
▁ㄹㅗㄹㄹㅣㅇ	-6999
▁ㄱㅣㅁㄷㅗ	-7000
▁GTA	-7001
▁ㄹㅓㄹ	-7002
▁ㅂㅣㄹㅂㅗ	-7003
▁ㅎㅣㄴㅌㅡ	-7004
ㅇㅝㄴㅇㅕㄱ	-7005
▁Of	-7006
▁ㅂㅓㄹㅇㅕ	-7007
▁ㅂㅗㄲ	-7008
▁ㅂㅜㄱㄷㅜ	-7009
▁ㅈㅣㄱㄱㅕㄹ	-7010
▁Your	-7011
▁GPU	-7012
▁ㄱㅗㅇㅁㅗ	-7013
▁ㅎㅏㄹㅅㅜ	-7014
▁ㅅㅣㄹㄹㅜ	-7015
ㅇㅜㄴㄷㅐ	-7016
▁ㅇㅝㄴㅎㅏㄴㄷㅏ	-7017
▁WH	-7018
ㅍㅜㄹㅇㅣ	-7019
▁ㅆㅡㄹㅇㅓ	-7020
▁ㅊㅣㄴㅁㅗㄱ	-7021
▁ㅇㅏㄴㅁㅜ	-7022
▁ㄷㅗㅇㅂㅜㄱ	-7023
IGH	-7024
ㅃㅕ	-7025
▁1967	-7026
ㅅㅡㄹㄹㅣㅁ	-7027
ㅈㅣㄹㄹㅐㄴㄷㅡ	-7028
▁ㅍㅜㄹㅇㅓ	-7029
▁ㄱㅣㅁㅇㅠㄴ	-7030
▁ㅇㅕㅆㅇㅡㅁ	-7031
▁ㅎㅗㄴㅎㅏㅂ	-7032
▁ㄲㅐㅇㅍㅏㄴ	-7033
▁ㄷㅏㄴㅅㅣㄱ	-7034
▁MX	-7035
▁ㅂㅐㅌ	-7036
▁ㄷㅜㅇㅈㅣ	-7037
▁ㅈㅣㄴㄹㅗ	-7038
▁ㅍㅗㄱㄹㅗ	-7039
▁ㅁㅐㅇㅎㅘㄹㅇㅑㄱ	-7040
▁ㄷㅏㅁㄱㅕ	-7041
▁HG	-7042
ㅅㅣㄴㄱㅣ	-7043
▁182	-7044
▁Rock	-7045
▁ㅈㅏㅂㅎㅕㅆ	-7046
▁ㅅㅣㅁㅎㅘ	-7047
▁ㅈㅓㄱㅈㅐ	-7048
▁ㅊㅏㄱㅈㅣ	-7049
▁ㅇㅕㄴㄷㅏㄹ	-7050
▁ㅇㅕㅇㅁㅣ	-7051
ㅅㅗㄱㅂㅓ	-7052
▁ㅈㅏㅇㅅㅣㄴㄱㅜ	-7053
▁Red	-7054
che	-7055
ㅌㅡㄹㄹㅏ	-7056
▁ㅅㅓㄹㅎㅘ	-7057
▁ㅈㅜㅇㅇㅏㅇㅅㅓㄴ	-7058
ㅅㅔㅂㅌㅡ	-7059
ody	-7060
▁LIVE	-7061
▁ㄱㅓㄹㄲㅏ	-7062
▁ㅅㅓㄴㅍㅗ	-7063
▁ㅇㅏㅁㅇㅜㄹ	-7064
▁ㅈㅡㅇㅂㅏㄹ	-7065
▁ㅍㅜㄹㄹㅣㄴ	-7066
▁ㅅㅣㄹㄹㅕㄱㅈㅏ	-7067
▁ㅅㅗㄹㄹㅏ	-7068
▁ㅇㅣㄴㅇㅓ	-7069
▁ㄱㅣㅁㅇㅣㄹㅅㅓㅇ	-7070
▁ㄱㅗㅇㅎㅠ	-7071
▁Tw	-7072
other	-7073
▁ㅈㅜㄹㅈㅜㄹ	-7074
ㄱㅕㄱㅈㅡㅇ	-7075
▁ㅇㅝㄴㅁㅏㅇ	-7076
▁ㅊㅗㅇㄷㅗㄱ	-7077
ㅈㅓㄱㅈㅏ	-7078
ica	-7079
▁168	-7080
▁ㄱㅗㅇㄱㅗ	-7081
▁ㅂㅓㄴㄱㅏㄹ	-7082
▁ㅅㅓㅇㅈㅣㄱㅈㅏ	-7083
▁ㅁㅏㅇㅎㅏㄴ	-7084
▁FW	-7085
▁ㅅㅏㅇㄱㅗㅇ	-7086
ㄹㅏㅇㅋㅔㄴ	-7087
▁ㄴㅏㅁㅂㅏㄹ	-7088
▁ㅊㅐㄱㅇㅣㅁㅈㅣ	-7089
▁ㅇㅣㄹㅇㅣㄹㅇㅣ	-7090
▁ㅊㅗㅇㅅㅓㄴㄱㅓ	-7091
▁ㅅㅏㅅ	-7092
▁..!	-7093
▁ㅍㅡㄹㄹㅜ	-7094
▁ㅎㅏㅂㅊㅣㄴ	-7095
▁ㅅㅓㄹㅌㅏㅇ	-7096
▁ㅆㅏㅎㅇㅕ	-7097
▁ㅅㅗㄱㄹㅕㄱ	-7098
▁ㅁㅕㅇㅈㅏㄱ	-7099
▁Min	-7100
▁ㅊㅣㅁㅎㅐ	-7101
▁have	-7102
▁ㅈㅏㄹㄹㅕ	-7103
▁Don	-7104
▁ㅁㅓㄴㅈㅣ	-7105
▁ㄷㅗㅇㄴㅕㄴ	-7106
16	-7107
ㄱㅜㅇㅎㅘ	-7108
▁ㅈㅏㄴㅎㅐ	-7109
ㅈㅓㅇㅅㅣㄴ	-7110
▁Sun	-7111
▁ㄱㅗㅇㅅㅗㄴ	-7112
▁ㄷㅏㅁㅇㅣㅁ	-7113
▁DNA	-7114
▁ㅇㅐㄴㄷㅣ	-7115
oth	-7116
▁ㅅㅣㄴㄴㅗ	-7117
▁ㄱㅣㅁㅇㅕㄴ	-7118
▁ㅅㅣㅁㅅㅏㅇ	-7119
ㄱㅜㄱㅈㅜ	-7120
ins	-7121
ㄹㅣㅂㄴㅣ	-7122
▁ㄸㅏㅇㅂㅗㄹ	-7123
ㅇㅕㄹㅅㅏ	-7124
▁ㅎㅘㄱㄹㅣㅂ	-7125
▁ㄱㅡㅁㄱㅗ	-7126
▁BAS	-7127
▁ㄱㅜㄴㅂㅗㄱ	-7128
▁ㄱㅏㅁㄱㅣ	-7129
▁ㅇㅕㄴㅁㅏㄹ	-7130
ㄷㅡㄷ	-7131
▁1963	-7132
LS	-7133
▁330	-7134
ㅅㅓㅇㄱㅜㄴ	-7135
▁ㅇㅗㄴㅁㅗㅁ	-7136
▁ㄴㅓㄱㄴㅓㄱ	-7137
▁ㅇㅣㅁㅇㅛ	-7138
▁ㄷㅗㅇㅈㅗㄱ	-7139
▁ㅇㅕㄴㅁㅏㄱ	-7140
▁ㄴㅐㅇㄱㅣ	-7141
ㅅㅜㄹㅈㅏ	-7142
▁ㅂㅕㅇㅈㅗㅇ	-7143
▁ㅌㅓㅁ	-7144
▁ㅁㅜㄹㄱㅏ	-7145
▁ㄴㅗㅇㅎㅕㅂ	-7146
ㅅㅡㄹㅇㅏ	-7147
ㅈㅓㄱㄷㅏㄴ	-7148
▁ㅁㅐㄱㅅㅣ	-7149
▁ㅂㅏㄱㅈㅗㅇ	-7150
▁ㅅㅗㄱㅇㅣ	-7151
▁ㄷㅏㄹㅋㅗㅁ	-7152
▁ㄱㅘㅇㅈㅓㄴㅅㅏ	-7153
ㅁㅗㄳ	-7154
▁ㄹㅡㄴ	-7155
ㅇㅣㅁㄱㅣ	-7156
ㅇㅣㄹㄷㅏㅁ	-7157
▁ㅇㅕㅁㅅㅐㄱ	-7158
▁ㅈㅓㅂㅈㅓㅁ	-7159
agon	-7160
ㄹㅡㄴㄷㅔ	-7161
▁ㄱㅜㄹㄹㅕ	-7162
▁ㄷㅓㄴㅈㅕㅆ	-7163
▁ㅁㅣㅁ	-7164
▁ㅅㅓㅇㄱㅣ	-7165
▁Rev	-7166
▁ㅈㅜㅇㅈㅓㄴㅊㅏ	-7167
▁SCP	-7168
▁ㅈㅣㄹㄹㅣ	-7169
▁beatmania	-7170
▁162	-7171
ㅁㅏㅇㅊㅕ	-7172
▁STER	-7173
ㅍㅡㄹㄹㅐ	-7174
▁ㅈㅏㅇㅍㅕㄴ	-7175
▁Sum	-7176
▁ㄴㅐㅇㅈㅓㄴ	-7177
ㄷㅣㄱ	-7178
▁Per	-7179
▁ㅅㅣㄴㄷㅐ	-7180
▁ㄴㅔㅂ	-7181
▁am	-7182
▁ㅈㅣㄴㅅㅜ	-7183
▁ㅇㅏㅍㅅㅓㄴ	-7184
ㅅㅓㄱㅂㅓ	-7185
ㅎㅐㅇㅇㅓ	-7186
▁ㅅㅡㄹㄹㅣ	-7187
▁Gen	-7188
▁ㅁㅜㄲㅇㅕ	-7189
▁ㅂㅡㄹㄹㅐ	-7190
▁2500	-7191
ㄱㅡㄹㄹㅓ	-7192
▁ㄷㅏㄴㄱㅘ	-7193
▁ㅌㅗㅇㅂㅗ	-7194
ㄹㅏㄴㅌㅡ	-7195
▁ㅂㅜㄹㅍㅕㅇ	-7196
▁ㅅㅏㅇㅇㅛㅇ	-7197
▁ㅎㅓㅅㅅㅗ	-7198
17	-7199
▁Sl	-7200
▁ㅅㅏㄹㄹㅏ	-7201
▁ㄱㅡㄴㅇㅟ	-7202
▁one	-7203
▁ㅌㅏㄹㄹㅣ	-7204
▁ㄱㅕㅇㅊㅏㄹㅊㅓㅇ	-7205
▁158	-7206
▁TEC	-7207
▁ㅇㅕㄹㅇㅏㄱ	-7208
▁ㅂㅗㄹㅌㅔㄱㅅㅡ	-7209
▁ㅊㅐㄱㅅㅏㅇ	-7210
▁ㅍㅐㄱㅅㅕㄴ	-7211
▁ㅁㅏㄴㅎㅐㅇ	-7212
▁ㅍㅗㅇ	-7213
▁TOP	-7214
ㅈㅓㅇㅅㅣㄱ	-7215
▁ㅅㅣㄹㅇㅓㅂ	-7216
▁ㅇㅏㄹㄹㅕㅆ	-7217
▁ㅊㅏㄹㄹㅣ	-7218
▁ㅇㅜㄴㅂㅏㄴ	-7219
ater	-7220
▁ㅈㅜㅇㅈㅐ	-7221
▁ㄱㅓㄹㅊㅣㄴ	-7222
GB	-7223
ㅈㅜㅇㄱㅛ	-7224
▁ㅅㅔㅅㅉㅐ	-7225
▁MK	-7226
ㅂㅕㄴㅇㅣ	-7227
▁ㄷㅗㄹㅇㅕㄴㅂㅕㄴㅇㅣ	-7228
ium	-7229
▁love	-7230
▁ㅅㅜㄴㅊㅏㄹ	-7231
▁ㅎㅏㄴㅎㅐ	-7232
▁ㅂㅣㄴㅌㅡㅁ	-7233
▁ㅇㅏㄱㄱㅗㄱ	-7234
▁ㄹㅠㄱ	-7235
ㅇㅔㄹㄹㅏ	-7236
ㄱㅜㅇㅊㅏㅇ	-7237
▁ㅌㅗㅇㅅㅣㄴㅅㅏ	-7238
▁ㄱㅗㄹㅁㅗㄱ	-7239
▁ㅂㅗㄴㄷㅣ	-7240
▁ㄷㅏㄴㅌㅔ	-7241
▁ㅁㅏㅇㅎㅐ	-7242
▁ㅂㅜㄹㄹㅗ	-7243
▁ㄷㅝㅆ	-7244
ㄱㅡㄱㅎㅣ	-7245
ions	-7246
▁ㅈㅣㄴㄱㅜ	-7247
ㅊㅓㄴㅇㅕㄱ	-7248
▁ㅅㅓㅇㅎㅕㅇ	-7249
ㅊㅘㄹ	-7250
▁ㅊㅜㅁㅊㅜ	-7251
ㄴㅏㅇ	-7252
▁ㄱㅘㄴㄷㅗㅇ	-7253
▁ㅌㅗㅇㅎㅐㅇ	-7254
▁ㄷㅗㅇㅂㅗㅇ	-7255
▁ㅎㅏㄴㄷㅗ	-7256
▁ㅈㅣㄴㄹㅣ	-7257
▁ㅈㅣㅇㅈㅣㅇ	-7258
▁ㅅㅐㄹㄹㅓ	-7259
▁ㅈㅡㅇㄱㅝㄴ	-7260
▁LOVE	-7261
ㄹㅔㄴㅅㅡ	-7262
▁132	-7263
▁ㄴㅏㄺ	-7264
▁ㅈㅓㄴㅇㅣㅁ	-7265
▁ㅂㅓㅂㅁㅜ	-7266
▁OB	-7267
ould	-7268
▁ㅁㅏㄱㅂㅜ	-7269
▁ㅈㅗㄹㄱㅐ	-7270
▁UF	-7271
▁ㅎㅘㅇㅁㅜ	-7272
▁ㅅㅡㅂㄱㅘㄴ	-7273
▁1966	-7274
▁ㅈㅓㅇㅁㅕㅇ	-7275
▁ㅎㅏㄱㅈㅓㅁ	-7276
▁ㅌㅡㄱㅊㅘㄹ	-7277
▁ㅇㅕㄹㄹㅣㄴㄷㅏ	-7278
ㅃㅐ	-7279
▁ㄷㅏㅇㄱㅜㄱ	-7280
▁ㅊㅜㄹㅇㅕㄴㅈㅣㄴ	-7281
ㅁㅕㅇㅂㅏㄱ	-7282
ㅍㅗㄹㄹㅗ	-7283
▁ㅇㅓㄹㅌㅓ	-7284
▁ㄲㅣㄴ	-7285
▁ㄴㅗㅇㅅㅏ	-7286
▁ㅎㅐㅇㅎㅏ	-7287
▁ㄴㅗㅇㄹㅏㄱ	-7288
▁Oh	-7289
ange	-7290
▁ㅅㅣㄹㅈㅓㅇ	-7291
port	-7292
▁High	-7293
▁ㄱㅡㄹㄹㅏ	-7294
ㅃㅜㄹ	-7295
SS	-7296
▁ㅅㅓㄱㅅㅏㅇ	-7297
▁ㅎㅘㅇㅅㅣㄹ	-7298
▁ㅊㅜㅇㄴㅏㅁ	-7299
▁ㅂㅓㄹㅇㅣㄴㄷㅏ	-7300
▁ㅊㅜㄹㅈㅜㅇ	-7301
ㄹㅗㄴㅌㅡ	-7302
▁ㅌㅏㅁㄱㅜ	-7303
▁ㅁㅜㄷㅎㅕㅆ	-7304
▁IDOL	-7305
▁ㅋㅡㄹㄹㅓ	-7306
▁ㅇㅗㄻㄱㅕㅆ	-7307
▁EU	-7308
ㅉㅗㅊ	-7309
▁ㅈㅓㄴㅅㅗㄱ	-7310
ㅅㅓㅇㄱㅖ	-7311
▁ㅇㅕㄴㅂㅏㅇㄱㅜㄴ	-7312
▁ㅂㅜㅌㅇㅕㅆ	-7313
▁159	-7314
▁ㅊㅏㄹㄴㅏ	-7315
▁ㄷㅏㄴㅅㅗㄱ	-7316
▁ㅂㅓㅈㄲㅗㅊ	-7317
▁ㄷㅗㅇㄹㅐ	-7318
ㅋㅐㄴㄷㅡㄹ	-7319
ott	-7320
▁ㅍㅜㄱ	-7321
▁ㅅㅛㅅ	-7322
▁133	-7323
▁ㅍㅣㄹㅌㅓ	-7324
les	-7325
▁ㅁㅏㄹㅈㅏㅇㄴㅏㄴ	-7326
▁ㄱㅕㄹㅅㅏ	-7327
ㅇㅜㄹㄹㅣㄴㄷㅏ	-7328
UT	-7329
▁ㄱㅡㅂㄱㅣ	-7330
▁ㅅㅣㄴㅇㅣㅁ	-7331
▁ㅌㅗㅇㅇㅛㅇ	-7332
▁124	-7333
▁ㄷㅗㅇㅌㅏㄱ	-7334
ㅅㅏㅇㅁㅣㄴ	-7335
▁DT	-7336
▁ㅅㅓㅇㄱㅏ	-7337
▁ㅅㅡㄹㄹㅔ	-7338
▁Par	-7339
▁ㅇㅣㄴㅊㅓㄴㄱㅘㅇㅇㅕㄱㅅㅣ	-7340
▁ㅈㅓㅇㄹㅣㅂ	-7341
▁ㄱㅏㅆㅇㅡ	-7342
▁ㅇㅏㄱㅎㅏㄴ	-7343
▁ㄱㅕㅇㅇㅕㄴ	-7344
▁HK	-7345
ㅋㅡㄹㄹㅣㄴ	-7346
▁FX	-7347
▁ㅂㅏㄱㅊㅏㄴ	-7348
▁ㅇㅕㅇㄷㅗㅇ	-7349
▁ㄸㅡㄹ	-7350
▁1944	-7351
▁ㅂㅗㄱㅇㅡㅁ	-7352
▁ㅂㅗㄱㅅㅣㅇ	-7353
▁br	-7354
▁was	-7355
▁ㅈㅏㅇㅎㅏㄱ	-7356
▁ㅌㅗㅇㅈㅡㅇ	-7357
DS	-7358
ator	-7359
▁Ang	-7360
ㅇㅜㄹㅇㅕㄱ	-7361
▁ㅈㅣㅇㅋㅡ	-7362
▁ㅎㅏㅁㅈㅐ	-7363
IE	-7364
ㅅㅓㅇㄴㅕㄴ	-7365
▁ㅍㅣㄱㅅㅔㄹ	-7366
▁ㅇㅣㅁㄱㅘㄴ	-7367
▁ㅎㅏㅁㅍㅗ	-7368
▁ㄸㅏㄱㄸㅏㄱ	-7369
▁ㄷㅗㄱㄹㅣㅂㅇㅜㄴㄷㅗㅇ	-7370
▁BW	-7371
▁ㅆㅜ	-7372
▁ㄷㅏㄴㄱㅗㄹ	-7373
▁ㅇㅕㄹㄷㅡㅇ	-7374
▁ㅁㅏㄴㄷㅡㄴㄷㅏ	-7375
▁ㅃㅗㅁ	-7376
▁ㅁㅓㄹㅉㅓㅇㅎㅣ	-7377
▁ㅅㅣㄴㅎㅡㅇ	-7378
▁ㅈㅓㅂㄱㅡㄴㅅㅓㅇ	-7379
▁156	-7380
▁Arm	-7381
▁ㄹㅐㅂㅌㅓ	-7382
ㅍㅕㅇㄱㅏ	-7383
▁ㅊㅜㄹㅌㅚ	-7384
▁ㅃㅏㄹㅇㅏ	-7385
▁ㄱㅡㄴㄹㅕㄱ	-7386
ㅋㅕㅆㅇㅡ	-7387
▁ㅅㅏㅁㅊㅗㄴ	-7388
▁ㅊㅐㄱㅈㅓㅇ	-7389
▁ㄴㅣㄱㅅㅡ	-7390
▁ㅂㅔㄱㅌㅓ	-7391
ㄸㅗㄱ	-7392
ㄸㅡㄱㅇㅣ	-7393
▁Master	-7394
▁ㅇㅕㄴㅂㅏㄹ	-7395
▁ㅅㅜㄹㅂㅓㅂ	-7396
▁280	-7397
▁ㄷㅗㄹㅂㅗ	-7398
▁ㅇㅓㅁㅍㅖ	-7399
▁ㄷㅗㅇㄱㅏㅂ	-7400
▁ㅅㅡㅇㄹㅕ	-7401
▁ㄱㅗㅇㅅㅡㅂ	-7402
▁ㅍㅏㄴㅅㅏ	-7403
▁ㅅㅡㅇㄱㅡㅂ	-7404
▁ㅅㅑㅁ	-7405
▁El	-7406
▁ㅂㅏㅇㅇㅏㄴ	-7407
ㅇㅓㅍ	-7408
▁ㄷㅏㅇㅈㅜ	-7409
▁1962	-7410
ㅇㅣㄹㅅㅡ	-7411
▁ㅎㅗㄱㅅㅏ	-7412
▁ㄱㅜㄴㄱㅣ	-7413
▁ㅈㅜㄴㅎㅏ	-7414
18	-7415
▁ㄷㅏㄴㅈㅓㅇ	-7416
▁PL	-7417
▁ㄷㅡㄴㄱㅏ	-7418
▁ㅌㅏㄴㅅㅗ	-7419
ㄱㅕㅁ	-7420
▁118	-7421
▁ARM	-7422
▁ㅇㅡㅁㅈㅜ	-7423
▁ㅅㅏㅇㄱㅏ	-7424
▁ㅊㅓㅇㅇㅘ	-7425
▁ㅎㅓㄴㄷㅔ	-7426
▁ㅂㅏㄹㅋㅏㄴ	-7427
▁ㅅㅓㄴㅇㅜ	-7428
▁ㅇㅣㄹㅈㅓㄹ	-7429
▁ㅌㅏㄴㅌㅏㄴ	-7430
ㄴㅓㅅ	-7431
ㅈㅏㅇㅇㅣ	-7432
▁ㅇㅣㄴㅁㅐㄱ	-7433
▁OK	-7434
▁ㄲㅏㅆ	-7435
▁ㅎㅏㄴㅂㅏㄹ	-7436
ㅇㅜㄱㅇㅣ	-7437
▁ㅎㅑㅇㅎㅏㄴㄷㅏ	-7438
▁ㅅㅣㄴㅅㅣ	-7439
ㅋㅏㄹㄹㅣ	-7440
▁ㄱㅕㄱㅈㅓㄴ	-7441
▁ㅂㅣㄱㅂㅐㅇ	-7442
▁ㅅㅔㅂ	-7443
▁ㅅㅓㅇㅍㅗㄱ	-7444
ㅎㅘㅇㅅㅐㄱ	-7445
ㅅㅣㅁㅈㅏㅇ	-7446
ㅓㄴㅈㅣ	-7447
▁230	-7448
▁ㅊㅓㄴㄷㅜㅇ	-7449
▁ㅎㅏㄱㄱㅡㅂ	-7450
ㅇㅗㅁ	-7451
▁ㅅㅣㄴㅈㅓㅇ	-7452
ㄱㅏㄴㅍㅛ	-7453
▁ㅂㅜㄴㅈㅏㅇ	-7454
19	-7455
▁ㄱㅡㅁㅅㅐㄱ	-7456
▁RP	-7457
▁Sec	-7458
lect	-7459
▁ㄱㅏㅁㅎㅐㅇ	-7460
▁ㅇㅝㄹㄱㅡㅂ	-7461
▁138	-7462
ㄷㅡㄹㅇㅣㄹ	-7463
▁ㅇㅣㅂㅇㅑㅇ	-7464
▁ㅎㅏㄴㅁㅗㄳ	-7465
▁ㅎㅏㄱㅂㅓㄴ	-7466
▁ㅊㅜㄹㄱㅡㄴ	-7467
▁ㅁㅜㅇㅊㅕ	-7468
ㅈㅔㄹㄹㅔ	-7469
▁ㅅㅓㄴㄷㅐ	-7470
▁ㅇㅏㄱㅇㅓ	-7471
▁ㅎㅕㅇㅍㅕㄴㅇㅓㅄ	-7472
▁ㄴㅗㄹㄹㅏㄴ	-7473
▁ㅇㅏㄹㅂㅔ	-7474
alk	-7475
ㅇㅣㄴㄱㅏㄴ	-7476
▁148	-7477
▁ㄷㅗㅇㅁㅜㄴ	-7478
▁ㅈㅓㅇㅎㅏㄴ	-7479
▁ㅇㅓㄹㅍㅣㅅ	-7480
▁ㅎㅏㅇㅇㅏ	-7481
▁ㄱㅔㄴㅈㅣ	-7482
▁Fire	-7483
▁ㄱㅘㅇㄷㅐ	-7484
ICE	-7485
▁ㅇㅏㅍㅅㅔ	-7486
▁ㅈㅏㅇㅂㅕㅇ	-7487
▁ㅈㅣㅂㅎㅚ	-7488
▁ㅂㅏㅇㅅㅗㅇㅇㅣㄴ	-7489
▁ㄹㅑ	-7490
ㄴㅘ	-7491
▁ㅈㅣㄹㄹㅑㅇ	-7492
▁ㅍㅣㄹㄹㅣㅂ	-7493
▁style	-7494
▁1940	-7495
▁ㅅㅣㅁㅅㅡㄴ	-7496
▁ㅎㅔㅅㄱㅏㄹㄹㅣ	-7497
▁ㄱㅗㅇㅅㅓㅇㅈㅓㄴ	-7498
▁ㄱㅘㅇㅂㅗㄱ	-7499
▁ㅈㅓㄴㄱㅘ	-7500
olution	-7501
ㄷㅏㄴㅈㅜ	-7502
▁ㅈㅓㄴㅅㅔ	-7503
▁DO	-7504
▁ㄱㅏㄹㄹㅣㄴㄷㅏ	-7505
▁ㅁㅜㄷㅎㅣ	-7506
▁ㅎㅡㄱㅎㅘ	-7507
▁ㅃㅗㅇ	-7508
▁ㄱㅗㅇㅂㅏㅇㅈㅓㄴ	-7509
▁ㅌㅐㅅㅇㅣ	-7510
▁CA	-7511
▁ㄱㅓㄴㅈㅐ	-7512
▁ㅈㅓㄹㄱㅠ	-7513
▁ㅂㅏㄱㅌㅏㄹ	-7514
▁pr	-7515
ㅎㅞ	-7516
▁ㅇㅝㄴㅎㅗ	-7517
ㄱㅞ	-7518
▁ㅂㅜㄴㅎㅗㅇㅅㅐㄱ	-7519
ㅈㅣㅇㅇㅓ	-7520
▁ㄷㅗㅇㅇㅛ	-7521
ㅇㅙ	-7522
ony	-7523
▁ㄹㅓㄴㄴㅣㅇ	-7524
▁ㅎㅟㅂㅆㅏ	-7525
land	-7526
▁ㄷㅏㄹㄹㅐ	-7527
▁ㅈㅓㅇㅈㅐ	-7528
▁ㅂㅓㄴㅅㅣㄱ	-7529
▁ㅇㅜㅅㄱㅣㄴ	-7530
ty	-7531
▁550	-7532
▁ㅅㅣㄹㅎㅘㅇ	-7533
▁ㄷㅐㄴㄷㅏ	-7534
▁ㅋㅗㄹㄷㅡ	-7535
▁sm	-7536
ㅋㅡㄹㄹㅣ	-7537
▁ㅅㅖㄹ	-7538
▁ㅂㅏㄴㅁㅏㄹ	-7539
ㅋㅏㄹㄹㅔㅅ	-7540
▁MLB	-7541
▁ㄱㅣㅁㅌㅐㄱ	-7542
▁ㅈㅗㄴㄷㅐㅅㅁㅏㄹ	-7543
▁ㅎㅕㄴㅅㅏㅇㄱㅡㅁ	-7544
▁kr	-7545
▁172	-7546
▁ㄴㅐㅇㄱㅏㄱ	-7547
▁so	-7548
ㅌㅐㄴㄷㅏ	-7549
▁ㅍㅣㄹㄹㅏ	-7550
▁GG	-7551
▁Li	-7552
▁007	-7553
▁ㅂㅗㄹㄹㅠㅁ	-7554
ㄴㅕㄴㄱㅣ	-7555
▁ㅇㅏㄴㅅㅏㄴ	-7556
▁ㅂㅏㄱㅇㅕㅇ	-7557
▁ㅈㅓㄴㅍㅕㄴ	-7558
▁ㅂㅜㄱㄱㅜ	-7559
ㅂㅕㄴㅇㅣㄴ	-7560
▁BRV	-7561
▁ㄲㅡㅌㄴㅏㅆ	-7562
▁ㅅㅓㄹㅅㅏㅇㄱㅏ	-7563
▁ㅎㅣㄹㄹㅣㅇ	-7564
▁ㄱㅜㄷㅇㅓ	-7565
▁ㅅㅏㄹㅅㅏㅇ	-7566
ㄴㅓㄹㄷㅡ	-7567
ㄷㅗㅇㅎㅏ	-7568
▁270	-7569
▁ㅁㅜㄴㅇㅓ	-7570
▁""	-7571
▁Dis	-7572
▁ㅇㅣㅂㄱㅜㄱ	-7573
▁ㅅㅣㄷ	-7574
▁ㄷㅗㅇㅈㅗ	-7575
▁ㅇㅏㄹㄹㅔㄱㅅㅏㄴㄷㅓ	-7576
▁ㅁㅣㅅ	-7577
▁ㅇㅐㅁ	-7578
▁Blue	-7579
▁ㅂㅗㄱㄷㅗ	-7580
ㅇㅡㄹㅈㅣ	-7581
▁ㅊㅗㅇㅇㅕㄹ	-7582
ㄴㅐㅂ	-7583
▁Rem	-7584
▁ㅁㅏㅈㄷㅐ	-7585
▁ㅈㅣㄱㄱㅜ	-7586
ㅂㅏㅇㅎㅑㅇ	-7587
▁ㅇㅑㅌ	-7588
ㅌㅣㄹㄹㅓ	-7589
▁ㅂㅏㄹㅇㅏㄱ	-7590
ㄷㅏㄴㅈㅏㅇ	-7591
▁ㅂㅐㄱㅎㅏㅂ	-7592
▁ㅈㅏㅇㅇㅏㄴ	-7593
▁ㄱㅘㅇㅌㅏㄹ	-7594
▁ㅅㅓㅇㅂㅕㄱ	-7595
▁ㅅㅣㄹㅅㅡㅂ	-7596
▁ㅈㅣㅍ	-7597
pr	-7598
ㅋㅝㄹ	-7599
▁ㅂㅗㄴㅅㅓㅇ	-7600
▁ㄸㅏㄹㄱㅣ	-7601
▁Power	-7602
▁ㄱㅘㅇㅅㅗㄱ	-7603
ert	-7604
▁1964	-7605
▁Champ	-7606
▁ㅂㅜㄴㅅㅙ	-7607
▁ㄴㅔㄱㅅㅓ	-7608
▁ㄱㅕㅇㅈㅣㄹ	-7609
▁ㄱㅣㅁㅅㅓㄴ	-7610
▁ㅎㅡㅂㅇㅕㄴ	-7611
▁ㄴㅏㅁㅈㅏㄱ	-7612
▁ㅆㅜㄱ	-7613
▁Good	-7614
ㄹㅣㅂㅌㅡ	-7615
▁ㄱㅜㄱㄷㅏㅇ	-7616
▁ㅇㅜㄴㅎㅏㅇ	-7617
▁ㅇㅕㄹㅍㅜㅇ	-7618
ㄲㅜㅁㅊㅣ	-7619
▁Fi	-7620
▁153	-7621
▁FL	-7622
▁ㅅㅓㅇㅅㅓ	-7623
▁ㅆㅗㄴㄷㅏ	-7624
▁ㅌㅓㅇ	-7625
ㅅㅏㅇㅍㅏ	-7626
▁ㅅㅓㅇㄷㅗ	-7627
ㄴㅏㄹㄷㅡ	-7628
OID	-7629
▁EM	-7630
ㅎㅐㅇㅅㅏ	-7631
▁ㅇㅓㄹㅇㅓ	-7632
▁MT	-7633
▁na	-7634
▁ㅇㅕㄹㅅㅔ	-7635
ㅇㅓㄴㅁㅐㄴ	-7636
▁ㄷㅏㅇㅊㅓㅁ	-7637
▁ㅅㅓㅁㄱㅣ	-7638
▁ㅈㅓㅂㅈㅓㄴ	-7639
▁ㅈㅓㄴㅂㅏㄴㄱㅣ	-7640
▁ㅋㅗㄴㅅㅔㅂㅌㅡ	-7641
▁ㅅㅓㅇㅁㅗ	-7642
▁ㅌㅏㄴㄷㅏ	-7643
▁ㅈㅓㄴㅇㅕㄹ	-7644
▁ㄴㅔㄱㅅㅡㄴ	-7645
▁177	-7646
▁mar	-7647
ㅋㅣㅂㄴㅣ	-7648
▁ㅁㅣㄹㅈㅣㅂ	-7649
▁1930	-7650
▁ㄱㅡㅁㅎㅗ	-7651
▁ㅇㅏㄱㄹㅏㄹ	-7652
▁ㅁㅗㅅㅎㅐㅆㅇㅡ	-7653
▁ㄸㅒ	-7654
ㄹㅣㅅㅈㅣ	-7655
▁ㅈㅣㄹㄹㅓ	-7656
ㅈㅓㅇㄱㅘㄴ	-7657
ㄱㅏㄱㅎㅕㅇ	-7658
▁ㄱㅕㄹㅎㅏㅁ	-7659
▁ㅍㅕㄴㅎㅐ	-7660
▁ㅍㅜㅇㅈㅏ	-7661
▁ㄱㅏㅇㅅㅜ	-7662
ART	-7663
▁ㅎㅏㄴㅌㅏㄴ	-7664
▁ㅍㅏㄹㅉㅣ	-7665
▁ㅇㅏㄱㅇㅛㅇ	-7666
▁ㅊㅓㄴㄱㅗㅇ	-7667
▁ㅎㅏㄱㅅㅜㄹ	-7668
▁1965	-7669
▁ㅇㅝㄴㅈㅔ	-7670
▁ㅇㅕㄴㅂㅣ	-7671
▁Sm	-7672
▁STR	-7673
ㅌㅏㄹㄱㅣ	-7674
▁ㅊㅜㅇㅊㅓㅇㄴㅏㅁㄷㅗ	-7675
ㅅㅏㄹㅇㅏ	-7676
▁ㅇㅕㅇㄴㅏㅁ	-7677
▁XY	-7678
▁ㄱㅏㄴㄹㅑㄱ	-7679
▁ㄸㅗㄱㄸㅗㄱ	-7680
▁ㅇㅘㅇㄱㅘㄴ	-7681
▁ㅅㅛㄴ	-7682
▁ㅍㅣㄹㅇㅕㄴ	-7683
▁???	-7684
▁ㅌㅏㄴㄷㅗ	-7685
▁ㅌㅔㅁㅍㅡㄹ	-7686
▁ㅁㅣㄹㄹㅣㄴㄷㅏ	-7687
▁ㅎㅜㄱ	-7688
▁Play	-7689
▁ㄱㅕㅇㅅㅓㅇ	-7690
▁ㅂㅏㄴㅎㅏㅇ	-7691
▁ㅊㅏㅇㅅㅣ	-7692
▁ㅈㅣㄴㅎㅐㅇㅈㅏ	-7693
ㅈㅜㅇㅎㅣ	-7694
▁ㄱㅕㅇㄱㅘ	-7695
ㅋㅡㄹㄹㅓㅂ	-7696
ㅊㅜㄱㄱㅜ	-7697
ㅈㅜㄴㄱㅡㅂ	-7698
▁cc	-7699
ㅇㅛㅇㅎㅐ	-7700
▁ㄱㅣㅁㅇㅝㄴ	-7701
ㄹㅏㅂㄴㅣ	-7702
▁ㅁㅏㄹㅁㅣ	-7703
▁ㅅㅏㅇㄱㅝㄴ	-7704
ㄲㅟㄹ	-7705
▁ㅇㅏㄴㅁㅕㄴ	-7706
tr	-7707
▁ㄱㅠㄴㅇㅕㄹ	-7708
▁ㅂㅏㄹㄱㅘㅇ	-7709
▁ㅂㅕㅇㅁㅏㅅ	-7710
▁SO	-7711
▁ㅂㅏㄹㄱㅏㄴ	-7712
▁ㄱㅗㅇㄹㅗ	-7713
ㅅㅜㅇ	-7714
▁ㅂㅗㄱㅁㅕㄴ	-7715
▁ㄱㅕㅇㅈㅐㅇㅈㅏ	-7716
▁ME	-7717
ㅊㅜㄴㄷㅏ	-7718
ㄹㅗㄴㅌㅣ	-7719
▁ㅅㅣㅁㅁㅜㄴ	-7720
▁ALL	-7721
▁ㅇㅝㄴㄱㅗ	-7722
▁Dance	-7723
ㅅㅣㄹㄹㅣ	-7724
▁ㅈㅓㄴㅍㅗㄱ	-7725
▁ㅈㅓㅇㅎㅘㄱㄷㅗ	-7726
▁ㄱㅏㅁㅎㅣ	-7727
ㄴㅗㄹㅇㅣ	-7728
▁ㅅㅕㄹㄹㅗㄱ	-7729
▁ㅇㅕㄹㅈㅓㄴ	-7730
ㅅㅓㄴㄷㅗ	-7731
ERS	-7732
▁ㅅㅓㄹㅂㅣ	-7733
▁%.	-7734
▁FB	-7735
▁260	-7736
ㅇㅣㄴㅈㅓㄴ	-7737
25	-7738
ㅇㅛㅇㅂㅓㅂ	-7739
▁ㄱㅡㅂㅅㅣㄱ	-7740
▁ㅂㅏㄴㅈㅏ	-7741
ㅁㅕㅇㅅㅏㅇ	-7742
ㅅㅡㅇㅁㅏㄴ	-7743
▁ㄹㅓㅆㄷㅏ	-7744
▁ㅇㅗㄴㄱㅔ	-7745
▁ㅂㅏㄴㄱㅜㄴ	-7746
▁ㅇㅣㄹㅂㅗ	-7747
ㅍㅡㄹㄹㅏ	-7748
ㄹㅡㄱ	-7749
▁137	-7750
ㅅㅐㅇㄱㅣㄴ	-7751
ㅅㅡㅇㅇㅕㅂ	-7752
ㅇㅣㅁㄴㅔㅅ	-7753
ㅌㅓㄱ	-7754
ㅇㅣㅂㄱㅜ	-7755
▁ㅇㅝㄴㅎㅘㄹ	-7756
▁Over	-7757
▁WCS	-7758
air	-7759
▁ㅇㅜㄴㅇㅜㄴ	-7760
▁Str	-7761
▁Ac	-7762
▁BA	-7763
▁ㅅㅏㅇㅍㅛ	-7764
▁ㅇㅑㄴㄷㅔ	-7765
▁ㅋㅏㄹㄹㅗ	-7766
▁ㅇㅏㄴㅅㅓㅇ	-7767
▁ㅇㅕㄹㄹㅏㅁ	-7768
▁ㅈㅓㄱㅅㅐㄱ	-7769
ㄱㅝ	-7770
▁ㅇㅣㅁㅇㅝㄴ	-7771
▁ㅊㅓㅇㄹㅑㅇ	-7772
▁650	-7773
▁ㄷㅓㅇㅋㅡ	-7774
ㅌㅣㄱㅅㅡ	-7775
▁ㅂㅏㄱㄱㅕㅇ	-7776
▁Music	-7777
▁ㅍㅗㄹㄷㅓ	-7778
▁ㅅㅗㅇㄷㅗ	-7779
▁ㅂㅕㅇㄷㅏㄴ	-7780
ㅎㅑㅇㄱㅗㄱ	-7781
▁ㅇㅔㄱㅅㅗ	-7782
▁ㄱㅡㅁㄱㅗㄱ	-7783
▁ㅇㅏㄱㅇㅢ	-7784
▁154	-7785
▁ㄷㅗㄹㅇㅣ	-7786
▁ㅂㅏㄴㄱㅣ	-7787
▁ㄱㅏㄹㄹㅐ	-7788
▁ㅇㅕㅁㄹㅕ	-7789
ㅎㅗㅇㅊㅓㄹ	-7790
▁ㅂㅏㄱㅈㅐ	-7791
▁157	-7792
BM	-7793
ㅇㅣㄹㄹㅗ	-7794
▁ㅇㅛㅇㄱㅏㅁ	-7795
▁Ke	-7796
ㄷㅣㅈㅎㅣ	-7797
▁ㅈㅓㅁㅅㅏ	-7798
▁Ep	-7799
▁ㅇㅣㄹㄹㅕㄴ	-7800
▁164	-7801
▁ㅈㅡㅇㄱㅣ	-7802
▁ㅊㅏㅇㅇㅓㅂ	-7803
▁ㅈㅓㅇㅈㅓㅇ	-7804
▁ㄱㅕㅇㅁㅐ	-7805
▁ㄱㅘㄴㄴㅕㅁ	-7806
oot	-7807
ittle	-7808
▁ㅍㅕㄴㄷㅐ	-7809
▁Kn	-7810
ern	-7811
▁CO	-7812
ㅋㅗㄱ	-7813
ㅇㅣㄹㅇㅡ	-7814
▁ㄷㅏㄴㄱㅏㄴ	-7815
▁ㄱㅓㄴㅈㅓㄴ	-7816
▁ㅇㅡㄴㅎㅗㄴ	-7817
▁ㅊㅜㄱㅈㅓㄱ	-7818
ENT	-7819
▁ㄱㅜㄴㅎㅏㅁ	-7820
▁ㄷㅗㅇㅊㅏㅇ	-7821
▁ㅁㅐㄱㄷㅗ	-7822
▁ㄴㅔㅂㅌㅠㄴ	-7823
▁129	-7824
▁DDR	-7825
▁ㄱㅡㅁㅅㅓ	-7826
▁179	-7827
▁Pv	-7828
▁ㄱㅗㅇㄱㅘ	-7829
▁ㅇㅕㄹㅂㅏㄷ	-7830
ㅆㅗㄹ	-7831
▁ㄱㅡㅂㅎㅣ	-7832
▁ㅅㅏㅂㅎㅘ	-7833
▁ㅇㅡㄴㅎㅖ	-7834
▁ㅆㅗㄹㅆㅗㄹ	-7835
▁ㅇㅘㄴㅈㅓㄴㅊㅔ	-7836
▁225	-7837
▁ㅂㅜㄱㅇㅠ	-7838
ㄱㅡㅂㅈㅓㄱ	-7839
▁ㄷㅓㄴㅈㅣㄴㄷㅏ	-7840
▁ㅈㅡㅇㅅㅔ	-7841
▁ㄱㅏㅁㅈㅓㄴ	-7842
ㅇㅜㄹㄹㅓ	-7843
▁ㄱㅘㄹ	-7844
▁ㅅㅗㅇㅊㅜㄹ	-7845
▁ㄱㅜㅇㅈㅣ	-7846
▁ㅊㅓㄴㄱㅖ	-7847
▁ㅇㅑㅇㅂㅗ	-7848
▁ㅊㅜㄹㅅㅓㄱ	-7849
AG	-7850
▁Comm	-7851
▁ㅊㅓㄴㅈㅓㄱ	-7852
ㅈㅏㅇㅍㅜㅁ	-7853
▁ㅇㅙㄴㅁㅏㄴ	-7854
▁ㄱㅕㅇㄹㅑㅇ	-7855
▁Pre	-7856
▁ㅋㅣㄹㄹㅗ	-7857
▁ㅉㅓㄹ	-7858
hammer	-7859
▁ㅂㅏㅇㅎㅘㅇ	-7860
ㅍㅓㄹ	-7861
▁ㄴㅜㄴㅂㅣㅊ	-7862
▁ㅇㅑㅇㄱㅜㄱ	-7863
▁ㅁㅏㅈㅁㅜㄹㄹㅕ	-7864
▁ㅁㅗㄱㅈㅓㄱㅈㅣ	-7865
ㅅㅓㄱㅁㅣㄴ	-7866
▁ㅁㅣㄹㄹㅏ	-7867
▁ㅅㅐㅇㅅㅏ	-7868
▁ㅇㅕㅇㅈㅣㄴ	-7869
▁ㅆㅏㅁ	-7870
ㅌㅡㄹㄹㅣㄴ	-7871
▁ㅎㅗㅇㅅㅓㅇ	-7872
▁GDP	-7873
ㅍㅓㅇ	-7874
▁ㅂㅕㅇㅅㅏㄹ	-7875
oss	-7876
▁NHK	-7877
▁Korea	-7878
▁ㅅㅐㄴㅍㅡ	-7879
▁ㅆㅙ	-7880
▁ㅋㅗㄴㅌㅣ	-7881
ㅅㅏㅇㅂㅓ	-7882
▁out	-7883
▁ㅇㅕㄹㄱㅣ	-7884
▁ㄱㅐㅂ	-7885
▁ㅇㅣㄹㅆㅜ	-7886
▁'''	-7887
ield	-7888
▁ㅌㅡㄹㄹㅣㅁ	-7889
▁ㅇㅕㄴㄱㅡㅁㅅㅜㄹ	-7890
▁ㅇㅝㄴㅈㅗㅇ	-7891
▁ㅅㅐㅇㅁㅜㄹㅎㅏㄱ	-7892
▁ㄴㅗㄹㄹㅣㅁ	-7893
▁256	-7894
▁End	-7895
ㄲㅜㄴㄷㅏ	-7896
ㄱㅕㄱㅊㅗㅇ	-7897
▁Leg	-7898
▁ㅍㅜㄹㄹㅕㅆ	-7899
▁EMP	-7900
ㅅㅞ	-7901
▁ㅁㅣㄴㅇㅝㄴ	-7902
▁EXH	-7903
▁VOC	-7904
▁ㄲㅓㄹ	-7905
▁ㅂㅡㄴ	-7906
▁ㄷㅗㅇㄹㅗ	-7907
▁ㅊㅣㄹㄹㅔ	-7908
eng	-7909
ㄱㅘㄴㅊㅏ	-7910
▁ㅎㅚㅇㄷㅏㄴ	-7911
▁ㅇㅣㅂㅎㅣㄹ	-7912
▁ㅈㅓㅇㅈㅏㅇ	-7913
▁ㄷㅗㄹㄱㅕㄱㅅㅗ	-7914
ㅅㅓㄴㅈㅣ	-7915
▁Gold	-7916
▁ㅇㅣㅂㅊㅔ	-7917
▁ㄱㅕㅇㄱㅏㅁ	-7918
▁ㄷㅏㄴㅂㅐㄱ	-7919
▁ㅅㅏㄴㅇㅏㄱ	-7920
▁ㅅㅣㄹㅁㅕㅇ	-7921
▁BASIC	-7922
▁ㅇㅕㄱㄱㅘ	-7923
▁1800	-7924
edia	-7925
▁ㄱㅗㅇㄹㅣㅂ	-7926
▁ㅅㅐㅇㅅㅏㄴㄹㅑㅇ	-7927
▁ㅌㅣㅁㅈㅏㅇ	-7928
▁ㄱㅡㅁㅎㅘ	-7929
▁ㅊㅓㅁㄷㅏㄴ	-7930
▁ㅋㅣㅇㅅㅡ	-7931
▁yout	-7932
▁ㅊㅣㄴㅈㅓㅇ	-7933
▁Life	-7934
▁ㅈㅣㄴㅇㅔ	-7935
ㅇㅟㅂ	-7936
▁ㄷㅐㅆ	-7937
▁ㄱㅣㅁㅎㅕㅇ	-7938
ㅁㅜㄴㅅㅓ	-7939
▁ㄷㅗㅇㅈㅣ	-7940
▁ㅍㅏㄹㅇㅏ	-7941
ㅅㅣㄴㅎㅕㅇ	-7942
▁ㄷㅏㄹㄹㅕㅆ	-7943
▁134	-7944
▁ㅅㅓㅁㅇㅠ	-7945
yn	-7946
ㅁㅏㅌ	-7947
▁ㅂㅓㄹㄹㅣ	-7948
▁ㄷㅗㄱㅅㅓ	-7949
▁ㅊㅜㅇㄱㅗㅇ	-7950
▁139	-7951
▁man	-7952
▁ㅁㅏㄴㄹㅛ	-7953
▁ㅁㅣㄹㄹㅏㄴ	-7954
▁}{	-7955
▁ㅂㅣㄹㄹㅏ	-7956
▁ㅂㅏㄹㅅㅏㅇ	-7957
▁ㅈㅓㄱㅂㅏㄹ	-7958
▁ㅈㅜㅇㅅㅓㅇ	-7959
▁ㅈㅓㄴㅇㅛㅇㄱㅣ	-7960
▁JC	-7961
▁ㅊㅜㄴㅊㅓㄴ	-7962
ㄷㅏㄹㄹㅕ	-7963
ㅎㅐㅇㅇㅟ	-7964
▁ㅇㅣㅁㅈㅣㄴㅇㅙ	-7965
▁ㅇㅚㄴㅍㅏㄹ	-7966
ㅂㅔㄹㄹㅣ	-7967
▁ㅉㅣㄹ	-7968
▁ㅎㅔㄱ	-7969
ㄷㅗㅇㅇㅝㄴ	-7970
ㅍㅕㅇㄱㅠㄴ	-7971
ek	-7972
▁ㅅㅣㄴㄷㅣ	-7973
▁>,	-7974
▁163	-7975
▁ㅌㅜㅁ	-7976
▁ㄱㅕㅁㅎㅏ	-7977
▁ㅎㅏㄱㄱㅖ	-7978
inc	-7979
▁136	-7980
▁ㄱㅓㄹㅅㅡ	-7981
▁ㄱㅡㄹㄹㅐ	-7982
▁ㅅㅗㄱㅇㅗㅅ	-7983
▁ㅌㅏㄴㅎㅐㄱ	-7984
▁ㄷㅏㅇㄷㅏㅇㅎㅣ	-7985
ㅌㅡㄹㄹㅣㅇ	-7986
▁ㅇㅕㄴㅅㅡㅂㅅㅐㅇ	-7987
▁142	-7988
ㅇㅓㄹㄱㅓ	-7989
ㅈㅏㄶ	-7990
▁176	-7991
IST	-7992
▁RC	-7993
▁173	-7994
▁IDOLM	-7995
ㅁㅓㅅㄷㅐ	-7996
ㅆㅏㄱ	-7997
▁Summer	-7998
▁ㅅㅏㅇㅅㅗㄱ	-7999
ㅈㅜㅇㄱㅜㄱ	-8000
▁ㄱㅡㅁㄱㅣ	-8001
▁ㅅㅣㅁㅅㅣㅁㅊㅏㄶ	-8002
▁167	-8003
▁ㅈㅣㄱㅁㅜ	-8004
▁ㅊㅜㄹㅁㅗㄹ	-8005
▁XXX	-8006
▁ㄱㅜㄱㄹㅕㄱ	-8007
▁ㅍㅗㄱㅅㅏ	-8008
ㅇㅜㄴㅌㅣ	-8009
▁TO	-8010
▁ㅇㅑㅇㅎㅗ	-8011
ㅈㅏㄱㅈㅓㅇ	-8012
ㅅㅜㅁㅇㅔ	-8013
ㅅㅓㅇㄴㅕㄴㅈㅏ	-8014
▁ㄷㅏㄴㅅㅜㅁㅇㅔ	-8015
ㅁㅜㄴㅈㅏ	-8016
▁co	-8017
▁MR	-8018
ㅇㅛㅇㄷㅗㄹㅇㅣ	-8019
▁ㄱㅓㅁㅇㅡㄴㅅㅐㄱ	-8020
ㄱㅏㅌㅇㅣ	-8021
▁ㅇㅔㄹㅅㅗ	-8022
▁ㅇㅝㄴㅊㅓㄴ	-8023
▁NL	-8024
▁ㅌㅣㅁㅋㅣㄹ	-8025
▁OR	-8026
▁ㄱㅗㄱㅅㅓㄴ	-8027
▁ㅇㅑㅇㅊㅡㄱ	-8028
ㅅㅣㄴㅈㅓㄴ	-8029
▁ㄱㅣㅁㅁㅕㅇ	-8030
▁ㅁㅏㅇㄹㅕㅇ	-8031
irst	-8032
▁ㅂㅜㄹㅁㅕㄹ	-8033
▁ㅎㅗㄹㄷㅣㅇ	-8034
▁ㄸㅓㄹㄱㅜ	-8035
▁ㅌㅐㄱㅂㅐ	-8036
ㅇㅓㅁㅅㅡ	-8037
ㅇㅞㄴ	-8038
▁149	-8039
▁ㄴㅗㄹㄹㅏㅆ	-8040
▁ㅅㅗㄴㅂㅏ	-8041
▁ㄱㅏㅇㅈㅓㄱ	-8042
▁LCD	-8043
▁ㅈㅓㄱㅈㅣㄴ	-8044
▁ㅊㅓㄴㅎㅘㅇ	-8045
▁ㅁㅐㅁ	-8046
ual	-8047
▁SG	-8048
gain	-8049
▁ㄹㅕㅆ	-8050
▁XP	-8051
▁999	-8052
ㅇㅓㅇ	-8053
▁ㄸㅐㅁ	-8054
▁ㅁㅣㄴㅇㅕㅇ	-8055
▁VOCAL	-8056
▁ㅈㅏㄱㅅㅏㄹ	-8057
▁ㅉㅗㅊㄱㅣ	-8058
▁ㅍㅔㄱ	-8059
ㄷㅓㅍ	-8060
▁ㅈㅓㅇㅂㅓㄹ	-8061
▁King	-8062
▁ㄲㅏㄲㅇㅣ	-8063
ㄲㅐㅇ	-8064
▁ㄱㅕㅇㅇㅣㄴ	-8065
▁ㅊㅓㄴㅇㅕㄴㄱㅏ	-8066
ㄱㅕㄹㅅㅡㅇ	-8067
▁Win	-8068
▁143	-8069
▁ㅅㅜㄴㅈㅣㄴ	-8070
▁380	-8071
aj	-8072
▁ㅁㅣㄹㄹㅕㅆ	-8073
▁SW	-8074
▁ㅅㅏㄴㅊㅐㄱ	-8075
▁ㅅㅓㄴㄱㅗㄱ	-8076
ㅅㅜㄹㄱㅏ	-8077
▁ㅁㅏㄹㅅㅗ	-8078
ㅇㅕㄱㄱㅜ	-8079
▁ㄷㅏㄴㅅㅓㄴ	-8080
▁ㅍㅕㄴㅇㅏㄴ	-8081
▁ㅎㅘㄱㅇㅕㄴㅎㅣ	-8082
▁......	-8083
▁Can	-8084
▁1961	-8085
▁ㅅㅐㅁㅍㅡㄹ	-8086
▁ㅁㅗㄱㅈㅐ	-8087
ㅇㅓㄴㅈㅓㅇ	-8088
▁ONE	-8089
▁ㅂㅏㄱㄱㅕㄱ	-8090
▁ㅊㅜㅇㅂㅜㄱ	-8091
▁UFO	-8092
▁ㅅㅐㄱㅊㅐ	-8093
ㅈㅜㄴㅎㅕㄱ	-8094
▁ㅆㅏㅎㅇㅣㄴ	-8095
▁Cy	-8096
ㅎㅐㅇㅅㅓㄴ	-8097
ㄹㅔㄴㅈㅡ	-8098
▁6000	-8099
▁ㅈㅜㅇㅅㅏ	-8100
▁ㄴㅏㅁㄷㅗㅇ	-8101
▁MD	-8102
▁Out	-8103
▁This	-8104
▁ㅊㅣㄴㅇㅣㄹ	-8105
▁u	-8106
ㅅㅇㅣㅍ	-8107
▁ㅈㅓㄻㅇㅡㄴㅇㅣ	-8108
ㄱㅡㅅㄴㅏ	-8109
▁ㅂㅜㄴㅅㅏ	-8110
▁ㅅㅗㄴㄴㅕ	-8111
▁ㄴㅓㅁㄱㅣㄴ	-8112
▁ㅈㅜㅇㄹㅕㅇ	-8113
▁ㄱㅕㅇㅈㅓㄴㅊㅓㄹ	-8114
▁UI	-8115
YP	-8116
ㅊㅏㅇㄹㅕㄱ	-8117
▁ㅉㅓ	-8118
▁ㄱㅏㅇㅇㅠ	-8119
▁ㅎㅏㄴㅅㅣㅁ	-8120
▁AG	-8121
▁Int	-8122
▁ㅆㅡㅂ	-8123
ㅁㅕㅇㅅㅔ	-8124
▁ㅂㅜㄱㅂㅏㅇ	-8125
▁ㅂㅏㅇㄱㅘ	-8126
▁ㄱㅘㅇㅂㅓㅁ	-8127
▁ㅈㅣㅇㅂㅕㅇ	-8128
▁ㅎㅕㄴㅁㅕㅇ	-8129
▁What	-8130
▁ㅂㅐㄱㅁㅣ	-8131
▁ㅂㅜㄴㅈㅏ	-8132
▁ㅇㅣㅂㅁㅏㅅ	-8133
▁ㄸㅗㄹ	-8134
▁ㄱㅗㅇㅇㅣㄱ	-8135
▁FR	-8136
▁ㅈㅜㅂㄴㅣ	-8137
▁ㅅㅓㄴㅍㅜㅇ	-8138
▁Da	-8139
▁ㅈㅏㅇㄷㅗㅇㅁㅣㄴ	-8140
ube	-8141
▁ㅂㅏㄱㅎㅣㄴ	-8142
▁ㅈㅏㄱㅇㅏ	-8143
▁ㅊㅓㅅㄴㅏㄹ	-8144
▁Vo	-8145
▁ㅎㅏㄴㅅㅡ	-8146
▁ㄱㅏㅇㅂㅕㄴ	-8147
ㅎㅗㅂ	-8148
ㅇㅕㄴㅅㅡ	-8149
ㅅㅣㄴㄷㅏ	-8150
▁ㅊㅜㅇㄱㅗㅇㄲㅐㅇ	-8151
▁ㅎㅔㄹㅅㅡ	-8152
▁ㄹㅐㅁㅍㅡ	-8153
▁ㄷㅏㄴㅁㅏㄹㄱㅣ	-8154
▁NS	-8155
ㅇㅣㅍ	-8156
▁ㅎㅘㄴㄱㅏㄱ	-8157
▁ㄷㅐㄴㅅㅓ	-8158
▁ㅇㅕㅇㅂㅜㄴ	-8159
▁ㅋㅏㄴㄴㅏ	-8160
▁ㄱㅕㅇㅅㅜㄴ	-8161
ady	-8162
▁ㅂㅜㅌㅈㅏㅂㅎㅕ	-8163
ㅇㅘㅂ	-8164
ATION	-8165
▁ㄱㅕㄴㅇㅣㄴ	-8166
▁tvN	-8167
▁ㅂㅗㄴㄷㅡ	-8168
ㅂㅏㄴㅈㅓㄴ	-8169
▁121	-8170
▁ㅁㅠㄹ	-8171
▁Live	-8172
▁ㅂㅐㄱㅅㅣㄴ	-8173
▁ㅊㅏㅇㅂㅕㅇ	-8174
ㄹㅟ	-8175
▁Hard	-8176
▁ㅁㅔㄹㄹㅗㄴ	-8177
▁ㅊㅓㅇㅅㅐㄱ	-8178
▁ㄱㅘㅇㅂㅓㅁㅇㅟ	-8179
▁ㅍㅏㄹㄹㅕ	-8180
ㅇㅡㄱ	-8181
▁ㅇㅣㅂㅅㅜㄹ	-8182
▁SEED	-8183
▁ㅂㅓㅁㅎㅐㅇ	-8184
▁ㄱㅗㅇㄷㅗㅇㅊㅔ	-8185
▁ㅊㅣㄱ	-8186
riend	-8187
▁ㅈㅓㄴㄱㅛ	-8188
▁MASTER	-8189
▁ㅂㅗㅇㅎㅘㅇ	-8190
ㅇㅞㅂ	-8191
IV	-8192
▁ㅍㅓㄹㅅㅡ	-8193
▁ㅅㅣㄴㄱㅗㅇ	-8194
▁ㅇㅘㅇㅈㅘ	-8195
let	-8196
ㄷㅓㄴㅌㅡ	-8197
▁ㄷㅡㅇㄱㅛ	-8198
ㄹㅣㄴㅌㅡ	-8199
ush	-8200
ㅇㅗㄹㄹㅕ	-8201
▁ㄱㅏㅇㅅㅓㅇ	-8202
▁ㅊㅜㅇㅅㅓㅇㅅㅣㅁ	-8203
▁ㅇㅛㅇㅁㅐㅇ	-8204
▁ㅈㅗㄴㅅㅗㄱ	-8205
▁ㅇㅜㅁㅈㅣㄱㅇㅣㄴㄷㅏ	-8206
▁ㅈㅣㄴㄹㅛ	-8207
▁ㅁㅏㅅㅂㅗ	-8208
▁ㅊㅗㅇㄱㅘㄹ	-8209
▁ㅍㅏㄴㅂㅗㄴ	-8210
▁ㅎㅡㄱㄹㅛㅇ	-8211
▁ㅇㅠㄱㅂㅏㄱ	-8212
▁ㅍㅕㅇㅁㅣㄴ	-8213
▁Act	-8214
▁ㄱㅜㄱㅅㅏ	-8215
ㅅㅛㅂ	-8216
eet	-8217
ㅇㅓㄹㄹㅣ	-8218
▁174	-8219
▁ㅂㅐㄱㅅㅐㄱ	-8220
▁ㅂㅕㄴㅈㅣㄹ	-8221
▁ㄱㅝㄴㄴㅡㅇ	-8222
▁ㅈㅓㅇㄱㅓ	-8223
▁ㅅㅓㄹㄷㅡㄱㄹㅕㄱ	-8224
iew	-8225
▁ㅈㅓㅁㄱㅓ	-8226
ㅅㅡㅇㅎㅕㄴ	-8227
▁ㅃㅏㄹㄱㅏㅇ	-8228
▁ㅇㅝㄴㄱㅕㄱ	-8229
ㄱㅅㅕㄴ	-8230
▁ㅈㅜㄴㅈㅏㅇ	-8231
ㅇㅜㄴㅈㅓㄴ	-8232
RAM	-8233
▁ㄱㅘㄴㅈㅔ	-8234
▁ㅇㅡㄴㅁㅣㄹ	-8235
▁ㄷㅏㄴㅂㅐㄱㅈㅣㄹ	-8236
▁ㅎㅏㅂㅊㅏㅇ	-8237
▁ㅅㅏㄹㅇㅣㄴㅁㅏ	-8238
ㅁㅜㄴㅌㅡ	-8239
▁ㅉㅣㄱㅎㅕ	-8240
▁ㅂㅗㄴㅁㅜㄴ	-8241
ㅎㅚㄱㅅㅏ	-8242
▁ㅇㅕㅇㅊㅏㅇ	-8243
▁ㅎㅐㄱㅁㅜ	-8244
▁ㄷㅗㄹㄹㅣㄹ	-8245
▁ㅂㅗㄴㄱㅜㄱ	-8246
▁TD	-8247
▁ㄴㅏㄱㅇㅣㄴ	-8248
▁ㅇㅣㅁㅍㅔ	-8249
ational	-8250
▁ㅈㅓㄴㅈㅓㄴ	-8251
▁205	-8252
▁ㅅㅣㄴㅅㅡ	-8253
▁ㅇㅘㄴㅅㅜ	-8254
▁ㅇㅘㅇㄸㅏ	-8255
▁ㅅㅗㄱㄱㅗㅇ	-8256
▁ㅈㅓㄴㄴㅕㄴ	-8257
ㅆㅓㄹ	-8258
UC	-8259
▁ㄱㅏㅇㅍㅏㄴ	-8260
▁ㅎㅡㄱㅂㅐㄱ	-8261
ORE	-8262
▁ㅈㅓㅇㄱㅖ	-8263
rain	-8264
▁ㅎㅏㄱㅊㅏㅇ	-8265
▁ㅇㅗㅁㄴㅣ	-8266
ㅎㅡㄹ	-8267
▁ㅈㅣㄴㅈㅏㄱ	-8268
▁ㅇㅕㄴㅎㅢ	-8269
▁Air	-8270
▁ㅎㅕㄴㅈㅗㄴ	-8271
▁VOCALOID	-8272
ane	-8273
▁ㅊㅓㅁㄱㅏ	-8274
▁ㄱㅜㄴㅅㅏㄴ	-8275
bps	-8276
▁ㄱㅕㄱㄹㅣ	-8277
▁ㅅㅣㅁㅍㅗ	-8278
▁ㅌㅡㄱㄱㅗㅇㄷㅐ	-8279
▁ㄷㅏㄴㅈㅗ	-8280
▁ㅍㅏㄴㄱㅘ	-8281
▁ㄱㅘㄴㅇㅏㄱ	-8282
▁ㅊㅓㅇㅅㅏㄴ	-8283
▁ㅎㅓㄴㅅㅣㄴ	-8284
▁ㅈㅣㄴㄱㅏ	-8285
ㄸㅜㄹ	-8286
▁ㅁㅏㄱㅂㅏ	-8287
▁ㄱㅓㄹㅈㅏㄱ	-8288
▁ㅊㅐㄱㄹㅑㄱ	-8289
UE	-8290
▁..'	-8291
▁ㄱㅕㅇㅇㅢ	-8292
▁ㄷㅏㅇㄱㅣ	-8293
▁ㅂㅓㄴㅌㅡ	-8294
▁ㅎㅡㄹㄹㅕ	-8295
▁ㅋㅐㄹ	-8296
▁1943	-8297
ㅌㅜㄱㅌㅟ	-8298
▁ㅅㅓㅇㅊㅔ	-8299
▁Warhammer	-8300
ㄷㅜㅂ	-8301
▁ㅎㅕㄴㅈㅣㄱ	-8302
ita	-8303
▁time	-8304
ㅅㅏㅇㅅㅏ	-8305
ㅇㅛㅇㅊㅏ	-8306
▁ㅇㅣㄴㄴㅐ	-8307
▁CB	-8308
ㅂㅓㅁㅈㅚ	-8309
▁ㅈㅡㄱㄱㅏㄱ	-8310
▁ㄱㅏㅂㅌㅜㄱㅌㅟ	-8311
▁1942	-8312
▁ㅅㅓㅇㄴㅕ	-8313
▁ㅎㅔㄹㄹㅔ	-8314
▁ㅇㅕㄱㅎㅏㄱ	-8315
▁TG	-8316
ㅆㅓㅂ	-8317
▁ㅇㅣㄴㄷㅏ	-8318
▁ㅅㅓㄴㅎㅕㅇ	-8319
ㅎㅡㄺ	-8320
ㄹㅣㄴㅇㅐ	-8321
▁ㅂㅏㄱㅎㅐ	-8322
▁sc	-8323
▁ㅂㅐㄱㄹㅛㅇ	-8324
ㅇㅝㅆㅇㅡ	-8325
ㅇㅗㄹㄹㅏㅆ	-8326
▁OPS	-8327
ㅅㅖㄹ	-8328
▁ㅅㅗㄱㅂㅏㄱ	-8329
▁ㅈㅜㅂ	-8330
ㅈㅣㅂㅇㅓ	-8331
ㅂㅏㄷㅊㅣㅁ	-8332
▁ㅈㅣㄴㄱㅗㅇ	-8333
▁ㅇㅣㄴㅂㅔㄴㅌㅗ	-8334
▁ㄴㅔㄱㅅㅡ	-8335
▁ㄷㅏㄴㅅㅣㄴ	-8336
▁ㅅㅏㅇㅎㅚ	-8337
▁ㄱㅏㄱㅅㅐㄱ	-8338
▁ㅅㅗㅇㅇㅣ	-8339
ㅇㅘㅆㅇㅓㅆ	-8340
▁ㅈㅣㅂㅈㅓㅇㄱㅘㄴ	-8341
▁ㅌㅗㅇㅎㅏㄴㄷㅏ	-8342
▁ㅅㅓㄴㅈㅣㄴㄱㅜㄱ	-8343
here	-8344
ness	-8345
▁ㅃㅗㅂㅎㅣ	-8346
ㅇㅐㄴㅈㅔㄹㄹㅔ	-8347
▁Cat	-8348
ㅂㅗㄴㅈㅜ	-8349
▁ㅈㅏㅇㅇㅝㄴ	-8350
▁ㄲㅡㄴㅈㅣㄹ	-8351
▁ㅎㅏㄴㅅㅜㅁ	-8352
▁ㅈㅜㄴㅇㅣ	-8353
ㅈㅓㅇㅎㅜㄴ	-8354
▁BF	-8355
▁Hell	-8356
▁ㅇㅏㄹㄹㅜ	-8357
▁ll	-8358
▁ㅅㅞㄹ	-8359
▁ㄱㅕㅇㅈㅏㅇ	-8360
▁ㅎㅘㄹㅈㅜ	-8361
▁ㅅㅓㄹㅅㅏ	-8362
▁ㄱㅣㅍㅅㅜㄱ	-8363
▁ㅉㅣㄱㅎㅣㄴ	-8364
▁ㅇㅕㄱㅈㅓㄴㅈㅐ	-8365
ㅇㅡㅁㄱㅣ	-8366
▁ㄱㅏㅇㅎㅐㅇ	-8367
▁ㅅㅣㄹㅁㅜ	-8368
ㅌㅡㄹㅍㅣㄹㄷㅡ	-8369
▁ㅈㅣㄴㅎㅐ	-8370
▁la	-8371
ㅍㅣㅇㅋㅡ	-8372
ne	-8373
ㅈㅏㄱㅈㅓㄴ	-8374
▁ㄲㅡㅌㅍㅏㄴ	-8375
▁ㄴㅏㄴㅍㅗㄱ	-8376
▁ㄹㅏㄹㄲㅏ	-8377
▁ㅇㅠㄱㅈㅣ	-8378
▁ㅇㅓㄴㄹㅏㄱ	-8379
▁ㅅㅏㅁㄱㅓ	-8380
▁Sound	-8381
▁ㅂㅗㄹㅍㅡ	-8382
▁ㅁㅏㅈㅊㅜㅁ	-8383
▁ㅅㅓㄱㅅㅏ	-8384
▁ㅅㅓㄴㄱㅜ	-8385
▁ㅅㅗㅇㅂㅕㅇ	-8386
▁ㅋㅝㄹㅋㅓㅁ	-8387
▁ㅈㅜㄴㄱㅕㄹㅅㅡㅇ	-8388
▁At	-8389
▁ㅁㅗㄱㅇㅛ	-8390
▁1920	-8391
▁ㅇㅡㄴㅁㅔ	-8392
▁ㄷㅏㄹㅂㅣㅊ	-8393
▁ㅅㅐㅇㄱㅏㄱㄴㅏ	-8394
itch	-8395
ret	-8396
▁Res	-8397
ㅋㅣㄴㅅㅡ	-8398
eth	-8399
▁ㅇㅣㅇㅋㅡ	-8400
▁EA	-8401
▁ㅈㅣㄴㄴㅏ	-8402
▁ㅅㅣㄴㅊㅜㄱ	-8403
EX	-8404
▁ㅂㅜㄹㅅㅣㄴ	-8405
▁ㄱㅕㄱㄷㅗㄹ	-8406
▁ㅈㅏㄴㄷㅏㅇ	-8407
▁SKE	-8408
ㅊㅗㅇㄹㅣ	-8409
ㅍㅣㅇㅁㅗㄹ	-8410
▁ㅅㅓㅁㅅㅔ	-8411
▁ㅍㅗㄱㅂㅏㄹㅁㅜㄹ	-8412
▁GX	-8413
ㄱㅑ	-8414
▁ㅅㅓㅇㄱㅓㅁ	-8415
▁ㅇㅓㅁㅈㅣ	-8416
ㄹㅗㅂㅎㅣㅁ	-8417
▁ㄴㅡㅇㅇㅛㄱ	-8418
▁id	-8419
▁1946	-8420
▁ㅈㅓㅇㅈㅏ	-8421
ㅃㅣ	-8422
ㄹㅓㄱㅅㅡ	-8423
▁ㅂㅗㅇㄱㅣ	-8424
ㄷㅡㄹㅇㅣㄴㄷㅏ	-8425
▁ㅋㅗㄴㅋㅡ	-8426
▁GR	-8427
▁ㅃㅏㄱㅃㅏㄱ	-8428
▁q	-8429
ㅇㅣㄴㄷㅓ	-8430
▁ㅈㅗㄱㅈㅏㅇ	-8431
▁ㅈㅜㄴㄱㅗㅇ	-8432
▁night	-8433
▁ㄷㅏㅇㅂㅜㄴ	-8434
▁ㅎㅗㅇㄷㅐ	-8435
▁ㅊㅏㅇㅇㅝㄴㅅㅣ	-8436
▁ㅊㅣㅇㅅㅗㅇ	-8437
▁Rec	-8438
▁ㅇㅟㄹㅅㅡㄴ	-8439
▁ㅁㅣㄴㅈㅗㄱㅈㅜ	-8440
ㅇㅣㄴㄱㅣ	-8441
▁ㄹㅐㄴㄷㅣ	-8442
na	-8443
IGHT	-8444
▁ㅎㅐㅇㅌㅐ	-8445
▁Hy	-8446
ㅇㅝㄴㅅㅜ	-8447
▁ㅁㅜㄴㅎㅓㄴ	-8448
▁ㅁㅏㄴㅅㅔ	-8449
▁ㅅㅓㅂㅇㅚ	-8450
ㅂㅡㄹㄹㅣㅅ	-8451
▁ㅂㅏㄱㅇㅛㅇ	-8452
▁ㄲㅐㄹ	-8453
▁ㄱㅏㄹㄱㅣ	-8454
▁ㄱㅘㄴㄷㅐ	-8455
▁ㅂㅕㅇㅅㅣㄴ	-8456
▁ㄴㅏㄴㅎㅐ	-8457
▁ㅇㅔㅁㅍㅏ	-8458
▁ㅋㅔㄹㄹㅣ	-8459
▁ㅍㅗㄱㅍㅗ	-8460
▁ㅁㅏㄴㄷㅜ	-8461
▁ㅉㅗㅈㅇㅏ	-8462
ㅂㅏㅇㅅㅏ	-8463
▁ㄲㅗㄱㄷㅜ	-8464
▁org	-8465
▁ㅂㅏㄴㅊㅣㄱ	-8466
▁147	-8467
▁ㄱㅗㅇㅂㅕㅇ	-8468
▁ㅅㅑㄴ	-8469
▁ㄷㅏㄴㄱㅓ	-8470
▁ㅂㅏㄱㅅㅏㅇ	-8471
▁ㅆㅡㅂㅆㅡㄹ	-8472
▁ㅈㅣㄴㅎㅏㄴ	-8473
eath	-8474
▁Big	-8475
▁ㄱㅕㅇㅅㅣ	-8476
▁ㅃㅓㅇㅌㅟ	-8477
▁`	-8478
▁ㅁㅝㅅ	-8479
OO	-8480
▁Heav	-8481
▁ㅊㅓㄴㄹㅣ	-8482
▁ㅂㅏㄴㅎㅘㄴ	-8483
▁ㅅㅏㅇㅂㅏㄴㄱㅣ	-8484
▁ㄱㅓㅌㅂㅗ	-8485
▁ㄷㅚㄹㄲㅏ	-8486
▁ㅈㅡㅇㅎㅜ	-8487
▁ㅇㅓㄴㅎㅐㅇ	-8488
ㄱㅡㅇ	-8489
▁ㅇㅕㄱㄱㅘㄴ	-8490
▁ㄱㅣㅁㅊㅏㅇ	-8491
▁GK	-8492
▁ㅅㅓㅇㄱㅠㄴ	-8493
▁ㅂㅓㅂㅎㅏㄱ	-8494
▁ㄱㅕㄱㅎㅏ	-8495
▁ㅇㅑㅇㅁㅕㄴ	-8496
▁146	-8497
▁ㅇㅕㅁㅅㅗ	-8498
▁ㅇㅏㄴㅂㅗ	-8499
▁ㅅㅓㅇㄱㅠㄴㄱㅘㄴ	-8500
▁Des	-8501
ㄷㅕ	-8502
▁ㄱㅓㅁㄷㅗ	-8503
▁ㅇㅑㅇㄴㅕㅁ	-8504
▁ㅅㅣㅁㅇㅕㄴ	-8505
ㄷㅜㄴㄷㅏ	-8506
▁ㄴㅏㅁㄱㅡㄱ	-8507
ㄴㅜㄱ	-8508
▁Battle	-8509
ㅅㅓㄹㅌㅡ	-8510
ㄱㅐㅇ	-8511
▁like	-8512
▁ㅈㅡㅁ	-8513
▁ㄷㅏㅁㄷㅏㅇㅈㅏ	-8514
▁ㅊㅜㄹㅅㅔ	-8515
▁ㅈㅏㄱㅂㅕㄹ	-8516
▁ㅋㅗㄹㄹㅗㅁㅂㅣ	-8517
▁ㄴㅐㅆㅇㅡ	-8518
asy	-8519
▁ㅌㅔㅁㅍㅗ	-8520
▁ㅂㅣㄱㅌㅓ	-8521
▁ㅇㅏㅇㄹㅣ	-8522
▁ㅈㅗㅇㅇㅣㄹ	-8523
ㅎㅏㄴㅎㅏㅇㄱㅗㅇ	-8524
ㅅㅋㅗ	-8525
ORM	-8526
▁ㄲㅘㅇ	-8527
▁ㄷㅏㄴㄷㅏ	-8528
▁ㄷㅗㅇㅁㅔ	-8529
▁ㄴㅏㅁㅇㅑㅇㅈㅜ	-8530
ny	-8531
▁ㅂㅏㄱㄱㅕㄱㅍㅗ	-8532
▁ㅁㅏㄴㄹㅜ	-8533
▁Mod	-8534
▁222	-8535
▁ㅇㅐㄱㅅㅔㄹ	-8536
▁ㅈㅜㄹㄱㅗㄷ	-8537
▁ㅇㅛㅇㅎㅗ	-8538
ven	-8539
ㄷㅙ	-8540
▁news	-8541
▁ㅂㅔㄴㅌㅡ	-8542
▁ㅂㅏㄹㄷㅗ	-8543
ALL	-8544
▁fl	-8545
▁ㅍㅣㄱㅅㅣ	-8546
▁ㅇㅗㄹㄹㅣㅁ	-8547
▁Che	-8548
ㅇㅣㄴㅅㅡ	-8549
▁ㅈㅓㄴㅎㅐㅆ	-8550
▁1941	-8551
ㄴㅣㅂㄴㅣ	-8552
▁ㅂㅏㄷㅊㅕ	-8553
arm	-8554
▁ㅇㅜㄹㄹㅕ	-8555
▁ㅈㅏㄱㄹㅕㄹ	-8556
▁204	-8557
▁ㅇㅘㅇㄱㅜㅇ	-8558
▁ㅂㅐㄹㄹㅣ	-8559
▁ㅊㅜㅇㅈㅜ	-8560
▁ㅎㅏㄱㅎㅚ	-8561
▁ㄱㅘㅇㅅㅣㄴ	-8562
ㅈㅓㅇㅅㅏ	-8563
▁ㅋㅔㄴㅅㅣ	-8564
▁ㄱㅏㄷㅎㅣㄴ	-8565
▁ㄱㅣㅁㅈㅓㅇㅇㅣㄹ	-8566
▁1600	-8567
▁ㄱㅏㄱㄱㅣ	-8568
▁ㅈㅓㄴㄹㅠ	-8569
▁ㅋㅓㄴㅌㅔ	-8570
ㅂㅡㄹㄹㅜ	-8571
▁ㅂㅐㄱㅅㅜ	-8572
▁ㄷㅓㄱㅌㅐㄱ	-8573
ㅇㅕㅇㅅㅜ	-8574
▁ㄴㅏㄴㄷㅗㅇ	-8575
▁ㅂㅓㅂㅇㅏㄴ	-8576
▁ㅃㅏㅇㅃㅏㅇ	-8577
▁ㅅㅣㅇㅇㅓ	-8578
ㄹㅣㅅㅅㅜ	-8579
ㅌㅐㄴㅅㅡ	-8580
▁ㅊㅏㄱㅎㅏ	-8581
▁ㄱㅜㄱㅁㅜㄹ	-8582
▁ㅊㅗㅇㅌㅗㅇ	-8583
▁166	-8584
ouse	-8585
▁ㅇㅛㄱㄱㅜ	-8586
▁ㅈㅓㄱㄹㅛ	-8587
ㄹㅣㅁㅅㅡㄴ	-8588
▁ㅅㅔㄹㅍㅡ	-8589
▁ㅍㅏㄹㄲㅜㅁㅊㅣ	-8590
▁ㄲㅐㄴ	-8591
▁ㅈㅗㄹㅈㅣ	-8592
ㅈㅓㄴㄱㅣ	-8593
▁ㅅㅣㄹㅂㅣ	-8594
▁ㅇㅓㅅㄱㅏㄹ	-8595
▁ㅂㅏㅇㅂㅕㄱ	-8596
▁ㅈㅏㄹㄹㅣ	-8597
▁ㅇㅏㄹㅋㅗ	-8598
▁ㅇㅐㄴㄷㅓ	-8599
▁ㅅㅏㄴㅎㅘ	-8600
▁ㅇㅕㄹㄹㅕ	-8601
▁ㅂㅐㄴㅅㅣ	-8602
▁ㅇㅘㅇㄱㅓㄴ	-8603
▁Sing	-8604
▁but	-8605
ㅋㅜㄴ	-8606
▁ㅁㅜㅇㅊㅣ	-8607
▁ㅋㅗㅅ	-8608
▁SSR	-8609
▁ㅈㅓㅇㅈㅗㅇ	-8610
ru	-8611
▁1958	-8612
▁ㅈㅏㅇㄹㅐ	-8613
▁1954	-8614
▁ㄱㅏㅇㅌㅣㅁ	-8615
▁ㅍㅗㄱㄷㅗㅇ	-8616
▁ㅋㅡㄹㄹㅏㄱ	-8617
▁ㅇㅔㅁㅂㅡㄹㄹㅔㅁ	-8618
ㅈㅓㅇㅎㅗ	-8619
▁ㅅㅡㅇㄱㅣ	-8620
▁ㅇㅕㄱㅂㅕㅇ	-8621
▁RAM	-8622
▁ㅋㅡㄹㄹㅣㅂ	-8623
ㄸㅗ	-8624
▁ㅅㅐㅇㅁㅗㄹ	-8625
▁ㅎㅑㅇㄱㅣ	-8626
ㅇㅕㄹㅊㅏ	-8627
▁ㅈㅣㄴㅅㅜㄹ	-8628
▁ㅈㅣㄴㅎㅡㅇ	-8629
▁ㄸㅏㄹㄹㅕ	-8630
▁ㅈㅜㄹㅈㅜㄹㅇㅣ	-8631
▁ㅈㅜㄹㅇㅣㄹ	-8632
▁ㅇㅣㅅㅅㅔ	-8633
ㄲㅗㄹ	-8634
▁ㅇㅏㄴㄴㅏ	-8635
▁ㅂㅜㄱㄱㅡㄱ	-8636
▁ㅇㅕㄴㄹㅜ	-8637
▁ㄴㅏㄱㅇㅝㄴ	-8638
ㅇㅕㅇㅈㅏㅇ	-8639
ari	-8640
ina	-8641
▁ㅂㅏㄱㅈㅜㄴ	-8642
▁Edition	-8643
▁ㅁㅕㅇㅇㅘㅇ	-8644
▁ㄱㅣㅁㅌㅐㄱㅇㅛㅇ	-8645
ount	-8646
ㅌㅐㄴㄷㅣㅇ	-8647
▁ㅈㅗㅈ	-8648
ㄱㅕㄱㄷㅐ	-8649
▁DB	-8650
▁ㅌㅏㄹㅇㅗㄱ	-8651
▁ㄷㅡㅁ	-8652
▁ㅅㅗㄴㅇㅏ	-8653
▁ㅇㅣㄴㅁㅣㄴㄱㅗㅇㅎㅘ	-8654
▁ㄷㅗㅇㅁㅕㅇㅇㅣ	-8655
ㄱㅗㄱㄷㅗㅇ	-8656
ㅋㅗㄹㄹㅗ	-8657
▁ㄱㅣㅁㅈㅓㅇㅇㅡㄴ	-8658
▁ㅁㅔㄱ	-8659
ㅇㅠㄱㅂㅜ	-8660
▁ㅇㅣㄴㅈㅡ	-8661
ㄹㅓㅁㅁㅐ	-8662
▁ㅈㅣㄹㄹㅕ	-8663
ㄹㅏㄴㅊㅡ	-8664
▁ㅇㅣㅂㅎㅕ	-8665
▁ㅌㅡㄹㄹㅕㅆ	-8666
ivers	-8667
▁ㅋㅗㄴㅌㅔ	-8668
ㄱㅗㅇㅈㅜ	-8669
cl	-8670
▁ㅇㅏㅁㅅㅡ	-8671
▁ㅌㅡㄱㅎㅓ	-8672
ㅂㅏㅇㅅㅣㄱ	-8673
▁ㅇㅣㄹㅈㅣㄱ	-8674
▁ㄴㅏㄴㅌㅜ	-8675
▁ㄷㅓㄴㅈㅣㄹ	-8676
▁ㄷㅏㄴㅇㅕㄴ	-8677
▁ㅂㅕㄴㅈㅗㅇ	-8678
▁ㅇㅐㄱㅌㅡ	-8679
▁know	-8680
▁ㅊㅓㄴㄷㅗ	-8681
▁ㅎㅏㄹㄷㅏㅇ	-8682
▁if	-8683
▁Song	-8684
▁ㅅㅓㅇㅊㅐ	-8685
▁ㄱㅣㅁㅇㅕㅇㅅㅏㅁ	-8686
▁KD	-8687
▁ㄱㅗㄹㄹㅣ	-8688
▁ㅂㅣㄴㅅㅏ	-8689
▁ㅂㅏㅇㄷㅐ	-8690
▁ㅅㅣㄴㅇㅝㄴ	-8691
▁SV	-8692
ㅅㅗㄹㄹㅣㄴ	-8693
▁ㄷㅏㄴㅈㅓㄹ	-8694
▁ㅍㅕㅇㅊㅏㅇ	-8695
ㅁㅓㅁ	-8696
▁ㅇㅕㅇㄹㅏㄱ	-8697
▁XC	-8698
▁ㅂㅔㅇ	-8699
▁8000	-8700
ㅌㅣㄹㄹㅣ	-8701
▁ㅎㅏㄴㅈㅗ	-8702
ㅅㅡㅇㅎㅘㄴ	-8703
▁ㅎㅐㅁㅂㅓ	-8704
▁ㅈㅣㄱㄱㅘㄴ	-8705
ㄱㅏㄱㅅㅓㄴ	-8706
ㅇㅡㅁㄲㅓㅅ	-8707
ㅋㅣㅂ	-8708
▁1948	-8709
▁ㅊㅗㅇㅌㅏㄴ	-8710
▁ㅅㅓㅇㅇㅝㄴ	-8711
▁ㅇㅗㄱㅌㅏ	-8712
▁ㅇㅝㄴㅇㅓ	-8713
HN	-8714
▁ㅅㅓㄹㄹㅔ	-8715
▁1949	-8716
▁ㄷㅡㄹㅌㅗㅇ	-8717
▁ㄱㅜㄹㅂㅗㄱ	-8718
ㅂㅕㅇㅎㅗ	-8719
▁Magic	-8720
▁ㅇㅡㅁㅇㅑㅇ	-8721
▁But	-8722
▁Run	-8723
▁im	-8724
▁ㅋㅏㄹㄹㅓㅁ	-8725
▁ㄷㅗㅇㄱㅡㅂㅅㅐㅇ	-8726
use	-8727
▁ㅇㅗㄴㅎㅘ	-8728
▁ㅈㅣㄱㄱㅏㅁ	-8729
▁ㄷㅡㅇㅅㅏㄴ	-8730
▁ㅂㅏㄹㅌㅡ	-8731
▁ㅍㅕㅇㅇㅝㄴ	-8732
▁ㅈㅣㄴㅎㅕㅇ	-8733
▁ㅍㅕㅇㅇㅏㄴ	-8734
ters	-8735
▁BBC	-8736
▁ㅅㅏㄹㄹㅣㄴ	-8737
▁ㅊㅓㄹㅂㅕㄱ	-8738
▁ㅈㅣㄴㅎㅡㄺ	-8739
▁ㄴㅛ	-8740
▁340	-8741
ㅋㅓㄴㄷㅐ	-8742
▁ㅍㅕㅇㅎㅐㅆ	-8743
▁090	-8744
ㅂㅔㄹㅌㅡ	-8745
ㄹㅣㅇㅋㅡ	-8746
▁ㅎㅐㅇㅎㅐ	-8747
ㄲㅓㅂ	-8748
▁ㅌㅟㅇㄱㅣ	-8749
▁ㅇㅏㄴㅌㅔ	-8750
▁ㅍㅕㄴㅈㅔ	-8751
ㅇㅕㅁㅂㅏㅇㅅㅏ	-8752
▁ㅂㅏㄺㅎㅣㄴㄷㅏ	-8753
▁ㅉㅏㄱㅌㅜㅇ	-8754
▁ㄴㅏㄹㄹㅣㄹ	-8755
OUR	-8756
▁NG	-8757
ars	-8758
▁1900	-8759
ke	-8760
▁ㄱㅡㄴㄹㅐ	-8761
▁ㅇㅝㄴㅅㅏ	-8762
▁ㄱㅕㄹㅂㅕㄹ	-8763
▁Ab	-8764
▁333	-8765
▁ㅎㅏㅇㅇㅜ	-8766
▁ㅇㅣㅂㅎㅣㄴ	-8767
▁ㅈㅣㅂㄱㅕㄹ	-8768
erm	-8769
ㄹㅗㄴㅌㅗ	-8770
▁~'	-8771
▁ㅅㅓㄴㅊㅔ	-8772
su	-8773
▁ㅈㅔㄹㄷㅏ	-8774
ㅊㅓㄴㄷㅗㅇ	-8775
▁ㄷㅗㅇㅊㅏㅁ	-8776
▁ㅇㅕㄴㅇㅏㄴ	-8777
ㄹㅏㄴㅌㅣ	-8778
▁ㅇㅛㅇㅍㅜㅁ	-8779
▁ㅇㅜㄴㅇㅣㅁ	-8780
▁ㅅㅣㄴㅊㅗㄴ	-8781
▁ㅈㅏㄴㅈㅐ	-8782
ㅂㅗㄱㄹㅕㄱ	-8783
▁ㅂㅗㄱㅈㅗㅇ	-8784
▁ㅅㅡㅇㅎㅏ	-8785
▁ㅈㅗㅇㅈㅏ	-8786
ㅁㅏㅇㅊㅕㅆ	-8787
▁ㄱㅏㄴㅍㅕㄴ	-8788
▁ㄹㅓㅁㅂㅡㄹ	-8789
▁ㅁㅗㅇㄸㅏㅇ	-8790
▁day	-8791
▁HOT	-8792
ㄱㅏㄱㅅㅣ	-8793
▁ㅅㅜㄹㅌㅏㄴ	-8794
▁ㄹㅓㄴㄴㅣㅇㅁㅐㄴ	-8795
▁ㅁㅕㅇㅈㅏㅇㅁㅕㄴ	-8796
ㅇㅔㅁ	-8797
▁ㅎㅏㄹㄹㅕ	-8798
▁ㄴㅗㄱㅇㅕ	-8799
▁ㅉㅏㅇㄱㅜ	-8800
▁ㅌㅏㄴㄷㅜ	-8801
▁ㄱㅡㄱㅊㅏㄴ	-8802
▁ㅅㅏㅇㅇㅝㄴ	-8803
▁ㅁㅏㅈㅎㅣ	-8804
▁ㅅㅓㄱㅎㅘ	-8805
▁ㅈㅓㄴㅇㅜ	-8806
▁ㅂㅏㄱㅈㅣㄴ	-8807
▁ㅇㅓㄹㄹㅣ	-8808
▁ㅁㅏㄴㄹㅠ	-8809
▁ㅌㅏㄹㄱㅓㅅ	-8810
▁ㅈㅓㅇㅅㅣㄴㄱㅣ	-8811
▁ㅈㅓㄴㅅㅏㄴ	-8812
▁ㅂㅣㄹㅁㅣ	-8813
▁ㅇㅏㄴㅈㅜㅇ	-8814
▁Not	-8815
▁ㄷㅗㅇㅇㅠ	-8816
▁ㅊㅣㄴㄱㅡㄴ	-8817
▁ㄷㅡㄱㅅㅣㄹ	-8818
▁ㅎㅕㅂㅇㅑㄱ	-8819
ㅋㅘ	-8820
▁ㄱㅏㄹㄱㅗ	-8821
ㄴㅏㄹㄷㅜ	-8822
ㄴㅕㅁㅇㅣㄹ	-8823
▁ㄱㅗㅇㅈㅏ	-8824
UL	-8825
▁ㅈㅣㄱㄱㅖ	-8826
▁ㅅㅗㄴㅅㅜ	-8827
▁ㅇㅝㄹㅌㅓ	-8828
▁ㅈㅝㅆㅇㅡ	-8829
▁'-	-8830
▁ㅎㅐㅇㄱㅏㄱ	-8831
XT	-8832
▁Grand	-8833
}}	-8834
▁ㄷㅗㅇㅍㅗ	-8835
▁ㅎㅑㅇㅅㅜ	-8836
▁Boy	-8837
▁Tri	-8838
▁ㅈㅣㄴㄱㅜㄴ	-8839
▁ㅈㅓㄹㅁㅛ	-8840
ㅇㅏㅅㄱㅣㄴ	-8841
▁ㅁㅕㅇㅇㅣㄴ	-8842
▁ㅇㅏㄴㄷㅗ	-8843
▁ㅇㅏㅇㅈㅠ	-8844
ecial	-8845
▁ㅂㅚ	-8846
▁ㅇㅕㅇㄹㅣ	-8847
▁720	-8848
▁ㅌㅐㄱㅎㅏ	-8849
▁ㅂㅕㅇㅇㅕㅇ	-8850
▁ㅅㅣㄴㅎㅏㄴㅇㅡㄴㅎㅐㅇ	-8851
▁ㅂㅓㅁㅈㅜ	-8852
▁ㅅㅗㅇㅍㅏ	-8853
▁ㅌㅡㄱㅊㅜㄹ	-8854
▁RAW	-8855
ship	-8856
▁ㅂㅕㄱㄷㅗㄹ	-8857
▁ㅅㅓㄴㅊㅓㄴ	-8858
▁ㅅㅣㄴㄹㅕㅇ	-8859
▁ㅂㅏㅇㄹㅏㅇ	-8860
▁Dragon	-8861
▁GAM	-8862
▁ㅋㅗㄴㄷㅗ	-8863
▁ㄷㅗㄱㄷㅗ	-8864
ana	-8865
▁ㄱㅕㅇㅈㅓㄴㅊㅏ	-8866
▁ㄷㅟㅅㅂㅏㄷㅊㅣㅁ	-8867
▁ㅈㅓㅁㅍㅗ	-8868
▁ㅇㅕㄲㅇㅣㄴ	-8869
▁ㅇㅝㄴㄴㅕㄴ	-8870
rop	-8871
▁Baby	-8872
▁ㅁㅜㄴㅇㅢ	-8873
▁ㅇㅗㄻㄱㅣㄴ	-8874
▁ㅍㅜㅁㅈㅗㅇ	-8875
▁ㄱㅜㄱㅅㅜ	-8876
▁ㅅㅏㅇㄹㅠ	-8877
▁ㅈㅣㄴㄱㅘ	-8878
ㅇㅠㄱㅊㅓㅇ	-8879
▁ㅇㅣㄹㅈㅣㄴ	-8880
▁GL	-8881
ㅇㅣㄹㄱㅣ	-8882
▁ㄷㅓㅁㅂㅣ	-8883
ㅈㅓㅇㄷㅗㅇ	-8884
ㅈㅗㅇㅅㅓㄱ	-8885
▁ㅇㅑㅇㅂㅏㅇㅎㅑㅇ	-8886
▁ㅇㅞㄴㄹㅣ	-8887
ㅁㅏㄴㄷㅗ	-8888
▁God	-8889
▁MAN	-8890
▁WAR	-8891
▁ㄱㅜㄴㄷㅏㄴㅈㅏㅇ	-8892
▁ㅇㅣㄹㅍㅕㅇㄱㅠㄴ	-8893
▁ㅈㅏㄴㄷㅣ	-8894
▁ㅎㅏㄴㄱㅜㄱㄱㅜㄴ	-8895
▁ㅆㅐㅇ	-8896
▁Beat	-8897
ㄱㅏㅆㅇㅡ	-8898
▁ㅇㅘㅇㄴㅕ	-8899
▁SNK	-8900
▁ㅈㅓㅇㅋㅡ	-8901
▁ㅊㅓㄴㅊㅔ	-8902
▁ㄱㅏㅂㅍㅏㄴ	-8903
▁ㅇㅏㄹㅁㅗㅁ	-8904
▁ㅇㅑㅇㄷㅗㅇ	-8905
▁ㅊㅏㅁㅅㅜ	-8906
▁CEO	-8907
▁ㅇㅠㄱㅅㅣㄱ	-8908
elf	-8909
▁RO	-8910
▁ab	-8911
ㅍㅗㄴㅈㅣ	-8912
▁ㅁㅣㄴㅈㅓㅇ	-8913
▁ㅊㅣㄴㅁㅣㄹ	-8914
ㅂㅣㄱ	-8915
▁1959	-8916
ㄱㅗㅇㄱㅕㄱ	-8917
▁ㄱㅕㅇㅈㅐㅇㄹㅕㄱ	-8918
ift	-8919
▁ㅎㅔㄹㄹㅗ	-8920
▁ㅇㅏㄴㅊㅓㄹㅅㅜ	-8921
ys	-8922
ㄹㅔㄱㅌㅡ	-8923
▁ㅁㅏㄱㅎㅣㄴ	-8924
▁ㅅㅏㅇㅈㅓㅇ	-8925
▁ㅅㅏㅁㄱㅜㄱㅅㅏ	-8926
▁ㄹㅏㄹㅍㅡ	-8927
▁AMD	-8928
▁ㅁㅏㄷ	-8929
▁ㅇㅣㅁㅍㅡ	-8930
▁ㅎㅗㅁㄱㅜ	-8931
▁ㅅㅓㄱㄱㅜㅇ	-8932
▁151	-8933
ㄱㅜㄴㅈㅣ	-8934
▁ㅇㅣㄹㅅㅓㄴ	-8935
▁ㅎㅕㄴㅎㅐㅇ	-8936
ㄷㅏㄴㅊㅔ	-8937
▁ㅌㅐㄹ	-8938
omb	-8939
▁ㄹㅡㄹㄹㅡ	-8940
▁ㅇㅗㄱㅅㅜ	-8941
▁ㅇㅣㅁㅎㅏ	-8942
ally	-8943
▁ㄸㅜㅀㄹㅣ	-8944
▁ㅅㅗㅇㄱㅗㅅ	-8945
▁TF	-8946
▁ㅅㅣㄹㅎㅓㅁㅅㅣㄹ	-8947
▁Spr	-8948
ㅈㅜㄴㅎㅗ	-8949
▁ㅇㅏㄹㅂㅣ	-8950
▁ㅊㅐㄱㅇㅣㅁㅈㅏ	-8951
▁ㅁㅗㄴㅌㅔ	-8952
▁ㅈㅐㅂ	-8953
ㅁㅣㄴㅅㅜ	-8954
ㅌㅏㄴㅌㅣ	-8955
▁ㄱㅣㅁㅎㅖ	-8956
▁ㄷㅗㅇㅁㅜㄹㅇㅝㄴ	-8957
▁ㅇㅛㄱㅁㅓㄱ	-8958
45	-8959
ren	-8960
▁ㅂㅏㄹㅅㅏㄴ	-8961
▁ㅅㅓㅇㄱㅗㅇㅎㅚ	-8962
▁ㅂㅏㅇㅈㅓㅇㅅㅣㄱ	-8963
▁ㅁㅕㅇㄹㅕㅇㅇㅓ	-8964
▁ㄱㅗㅇㅈㅜㅇㅈㅓㄴ	-8965
▁ㄱㅡㅁㅈㅓㄴ	-8966
▁ㅅㅓㄴㄱㅡㄹㄹㅏ	-8967
▁'~	-8968
▁001	-8969
▁ㅊㅣㄹㅎㅡㄱ	-8970
▁ㅇㅖㄴ	-8971
ㅇㅕㅇㅇㅜㅇ	-8972
▁ㅍㅗㄱㄱㅜㄴ	-8973
ㅁㅜㅅ	-8974
▁ㅈㅓㄴㄱㅗ	-8975
▁ㅉㅏㄹㅁㅏㄱ	-8976
▁ㅊㅜㅇㅅㅣㄹㅎㅣ	-8977
▁ㄱㅣㅁㅎㅢ	-8978
▁ㄱㅘㄴㅇㅛㅇ	-8979
▁ㅊㅏㅁㅍㅐ	-8980
AA	-8981
▁Es	-8982
olog	-8983
▁ㅎㅘㅇㅈㅗㄱ	-8984
▁KC	-8985
▁ㄱㅏㄹㄹㅕ	-8986
▁POP	-8987
▁ㅈㅔㅅ	-8988
▁ㅈㅜㅇㄱㅗㅇㅇㅓㅂ	-8989
▁ㅈㅗㅁㅂㅣ	-8990
▁1955	-8991
▁ㅂㅗㄹㄲㅏ	-8992
▁ㄷㅏㄹㄹㅣㄴㄷㅏ	-8993
▁ㄷㅗㅇㅁㅐㅇㄱㅜㄴ	-8994
▁ㄴㅜㄹ	-8995
ㅌㅏㅇㅅㅡ	-8996
▁Cont	-8997
▁ㄱㅗㅇㅇㅑㄱ	-8998
▁ㅇㅏㄱㅂㅗ	-8999
▁ㄴㅏㄴㅈㅓㄴ	-9000
▁ㅅㅡㄹㅉㅓㄱ	-9001
▁ㅇㅜㄴㅈㅓㄴㅈㅏ	-9002
▁PO	-9003
▁169	-9004
▁ㅍㅔㄴㅅㅡ	-9005
▁ㅈㅐㅇㅌㅏㄹ	-9006
▁qu	-9007
ㅂㅏㄼ	-9008
▁ㄹㅏㄴㅌㅡ	-9009
▁ㅁㅔㄹㄹㅣ	-9010
▁Lo	-9011
▁Bar	-9012
▁ㅊㅡㅅㅋㅗ	-9013
▁ㅃㅜㅁㅇㅓ	-9014
▁ㅁㅏㄴㅇㅏㄱ	-9015
▁ㄷㅓㅊ	-9016
▁1956	-9017
ㅇㅜㅅㅇㅡㅁ	-9018
▁ㅇㅏㄱㅈㅏㅇ	-9019
IF	-9020
▁ㄱㅕㅇㅎㅢ	-9021
▁ㅋㅑ	-9022
▁ㅅㅏㅇㅎㅐ	-9023
▁ㅈㅓㅇㄷㅐ	-9024
ㅈㅝㅆ	-9025
ㄹㅏㅂㅇㅓ	-9026
▁world	-9027
▁000000	-9028
ㄱㅙ	-9029
▁ㄷㅓㅂ	-9030
▁ㅁㅕㄹㅈㅏ	-9031
ㄴㅘㅆ	-9032
ㄹㅣㅂㅅㅡ	-9033
ㄲㅡㅌ	-9034
▁ㅈㅏㅇㄴㅕ	-9035
ㅎㅕㄱㅁㅕㅇ	-9036
▁ㅈㅏㄹㄹㅣㄴ	-9037
▁ㅌㅔㅁㅍㅡㄹㄹㅓ	-9038
▁ㄱㅕㅇㅇㅟ	-9039
▁ㄴㅡㄴㄱㅜ	-9040
▁ㅅㅏㅂㅇㅣㅂㄱㅗㄱ	-9041
▁Inf	-9042
▁ㅇㅡㅁㄹㅏㄴ	-9043
▁ㄱㅕㄱㅂㅕㄴ	-9044
REME	-9045
▁ㅂㅏㄱㅊㅏ	-9046
▁ㅅㅓㄴㅂㅏㅇ	-9047
▁ㅇㅓㅂㅈㅗㅇ	-9048
▁ㅌㅗㅇㅎㅏㄱ	-9049
▁Angel	-9050
▁ㄴㅗㄱㅇㅏ	-9051
▁ㅃㅏㄹㄹㅕ	-9052
▁WOR	-9053
LD	-9054
ㅂㅕㅇㄱㅣ	-9055
▁ㅅㅣㅁㅍㅡㄹ	-9056
▁With	-9057
▁ㄱㅘㅇㅎㅘ	-9058
▁ㅌㅏㄴㅅㅜ	-9059
▁ㅅㅓㅇㅊㅜ	-9060
▁ㄱㅣㅁㅈㅜㄴㅎㅗ	-9061
▁ㄱㅕㅇㅊㅏㄹㄱㅘㄴ	-9062
▁ㅇㅑㅁㅈㅓㄴ	-9063
ㄸㅗㅇ	-9064
▁Gaming	-9065
▁ㅊㅓㅇㅈㅏㅇ	-9066
▁ㅊㅐㄹㄹㅣㄴㅈㅓ	-9067
ㄱㅑㄹ	-9068
ㅎㅕㅇㅈㅔ	-9069
▁ㅇㅑㅇㅍㅏ	-9070
▁ㅈㅗㄹㅇㅓㅂㅅㅣㄱ	-9071
row	-9072
▁ㅈㅗㄹㄹㅏ	-9073
ㅈㅓㅇㅎㅕㄴ	-9074
▁ㅇㅣㄴㅍㅡ	-9075
▁ㅇㅕㅁㄷㅗㅇ	-9076
▁ㅅㅔㄱㅌㅓ	-9077
▁ㅊㅗㅇㄷㅐ	-9078
ited	-9079
ㄱㅝㄴㅈㅏ	-9080
ㅅㅜㄹㄱㅘㄴ	-9081
▁PVP	-9082
▁ㅅㅓㄴㅇㅕㄱ	-9083
▁ㅂㅣㄹㅎㅔㄹ	-9084
III	-9085
▁ㅇㅣㅁㅊㅏㅇ	-9086
▁="	-9087
▁ㅊㅓㅂㅂㅗ	-9088
appy	-9089
▁ㄹㅐㅅ	-9090
ㅂㅡㄹㄹㅔ	-9091
ㄷㅜㄹㄱㅣ	-9092
▁ㅅㅏㄹㄹㅣㄹ	-9093
▁micro	-9094
▁ㅁㅏㄱㄹㅗㄴ	-9095
▁ㅁㅕㅇㅍㅜㅁ	-9096
▁COM	-9097
▁ㄷㅡㄴㄷㅡㄴ	-9098
ㅋㅓㄹㅌㅡ	-9099
ful	-9100
▁She	-9101
▁ㅂㅐㄱㅈㅣ	-9102
ㅇㅕㄴㅎㅏㅂ	-9103
ious	-9104
▁310	-9105
ㅈㅏㅇㄱㅜ	-9106
▁ㅅㅓㅇㅁㅜㄴ	-9107
▁ㅋㅏㄹㅈㅣㄹ	-9108
▁ㅇㅏㄱㅈㅣㄹ	-9109
▁ㅆㅔ	-9110
ㅋㅏㅁ	-9111
▁ㄷㅜㄴㅎㅘ	-9112
▁ㅂㅓㄴㄱㅓ	-9113
▁Ste	-9114
▁XBO	-9115
▁ㄱㅓㄴㄹㅣㅂ	-9116
▁con	-9117
▁ㅊㅜㅇㅊㅓㅇㅂㅜㄱㄷㅗ	-9118
atic	-9119
ㅅㅣㄹㅎㅣ	-9120
▁131	-9121
▁ㅇㅣㄹㄹㅜ	-9122
▁ㅁㅕㅇㅇㅡㄴ	-9123
▁ㅍㅣㄱㅇㅓㅂ	-9124
ㅇㅐㅇ	-9125
▁ㄱㅕㄱㄴㅗ	-9126
▁STAR	-9127
▁ㅊㅏㅇㅇㅢ	-9128
▁ㅆㅏㅇㅇㅛㅇ	-9129
▁DA	-9130
▁ㄹㅏㄴㄷㅏ	-9131
▁ㅂㅓㅂㅈㅓㅇㄷㅗㅇ	-9132
▁ㅈㅓㅇㅇㅡㄴ	-9133
▁ㅂㅜㄹㅇㅜㄴ	-9134
ㅇㅣㄴㅈㅡ	-9135
▁ㄱㅕㄹㅈㅏㅇ	-9136
▁ㅇㅣㅂㅅㅓㅇ	-9137
▁ㅌㅏㅁㅇㅛㄱ	-9138
ㅍㅏㄴㄱㅣ	-9139
▁White	-9140
ㅈㅗㅇㅇㅣㄹ	-9141
▁ㅇㅓㄱㅇㅑㅇ	-9142
aut	-9143
▁ㄸㅜㅇㄸㅜㅇ	-9144
▁ㅂㅜㄹㄹㅣㄴ	-9145
▁ㅇㅏㅁㅎㅡㄱㄱㅣ	-9146
▁ㄱㅣㅁㅇㅣㄴ	-9147
▁ㅎㅕㄴㅈㅓ	-9148
▁ㅂㅗㄹㅇㅣㄹ	-9149
▁ㅈㅓㄴㅌㅐ	-9150
▁255	-9151
▁ㅅㅡㅇㅊㅓㄴ	-9152
ara	-9153
▁RX	-9154
▁ㅍㅕㅇㅈㅓㅇ	-9155
▁NAT	-9156
▁ㄹㅡㅇ	-9157
▁ㅇㅏㄹㅂㅓ	-9158
▁ㅊㅣㅁㅊㅔ	-9159
ㅅㅐㅇㅇㅑㅇ	-9160
▁ㅇㅜㄹㅂㅜ	-9161
ㅍㅜㅁㄱㅜㄴ	-9162
HD	-9163
▁ㅈㅓㄴㄱㅏㄹ	-9164
▁VR	-9165
▁ㅈㅏㅇㄷㅏㄴ	-9166
▁ㄱㅘㅇㅎㅏㄱ	-9167
▁ㄷㅏㄴㅂㅓㄴㅇㅔ	-9168
day	-9169
ㄹㅏㅁㅈㅣㄱ	-9170
▁ㅇㅑㅇㅎㅕㄴ	-9171
▁ER	-9172
▁ㅇㅣㄴㅅㅣㄴ	-9173
▁ㄹㅕㅁ	-9174
▁ㅅㅑㄹ	-9175
▁ㅅㅣㄹㅊㅓㄴ	-9176
▁ㄱㅗㄹㄱㅗ	-9177
▁ㄹㅣㄱㅅㅡ	-9178
bl	-9179
▁Sky	-9180
▁Project	-9181
INE	-9182
▁EXTREME	-9183
ㅇㅛㄴ	-9184
ㅂㅓㄱㅈㅣ	-9185
ㅇㅐㄱㅅㅕㄴ	-9186
▁ㅇㅕㄴㅅㅓㅇ	-9187
▁ㅋㅓㅅㅇㅣㄴ	-9188
▁Pe	-9189
▁ㄴㅗㅇㅊㅗㄴ	-9190
▁ㅎㅜㄴㄹㅕㄴㅅㅗ	-9191
▁ㅅㅓㄴㄷㅗ	-9192
▁ㄴㅏㅁㅇㅛㅇ	-9193
▁ㅅㅣㄱㅇㅣㄴ	-9194
▁ㅎㅘㄹㅇㅑㄱㅅㅏㅇ	-9195
▁ㄱㅏㄴㅅㅣㄱ	-9196
▁ㄱㅏㅇㄱㅡㅂ	-9197
▁ㅈㅓㄴㅇㅕㅁㅂㅕㅇ	-9198
ㄸㅔ	-9199
ㅆㅡㄴ	-9200
▁FE	-9201
ㅇㅓㅂㄱㅏ	-9202
▁ㅊㅣㅁㅅㅣㄱ	-9203
ㅋㅐㅅ	-9204
▁ㅇㅏㅍㅉㅗㄱ	-9205
▁ㅈㅓㅇㅈㅜㅇ	-9206
▁ㅂㅏㄹㅎㅐ	-9207
▁ㅍㅣㄹㄱㅣ	-9208
▁ㅇㅏㅂㅅㅏㄹ	-9209
▁ㅋㅚ	-9210
▁1952	-9211
▁ㅇㅣㅁㅈㅐ	-9212
ㅆㅏㄹ	-9213
▁NAS	-9214
▁ㄱㅜㄱㅁㅣㄴㄷㅏㅇ	-9215
▁ㅅㅜㄴㅅㅜㄴ	-9216
▁ㅌㅏㄹㅌㅏㄹ	-9217
▁ㄱㅡㄹㄹㅣ	-9218
▁ㅅㅣㅂㅅㅏㅇ	-9219
▁ㅍㅜㅅㅂㅗㄹ	-9220
▁ㅅㅓㅇㅍㅗㄱㅎㅐㅇ	-9221
75	-9222
▁ㅁㅣㄴㅂㅕㅇㄷㅐ	-9223
▁ㄱㅡㅁㅅㅓㅇ	-9224
▁IF	-9225
▁ㅅㅗㄴㅊㅐㄱ	-9226
▁420	-9227
▁ㅅㅏㄴㅅㅏㄴ	-9228
▁ㅅㅓㅇㅅㅣ	-9229
▁TW	-9230
▁ㄱㅝㄴㅇㅕㄱ	-9231
▁ㅎㅏㄱㅇㅓㅂ	-9232
▁ㅇㅣㄹㅈㅣㄱㅅㅓㄴ	-9233
ㄱㅕㄱㄱㅣ	-9234
ㅋㅗㄹㅍㅣ	-9235
▁ㄱㅓㅌㅁㅗ	-9236
▁ㄴㅏㅈㅊㅝ	-9237
▁ㅂㅜㄹㅂㅜㄴ	-9238
▁Get	-9239
▁ㅁㅣㄹㄹㅓ	-9240
▁ㄹㅓㅂ	-9241
▁ㅎㅕㅂㄱㅗㄱ	-9242
▁FN	-9243
▁141	-9244
▁ㄷㅓㅇㄷㅏㄹ	-9245
▁ㅎㅏㅇㅅㅗㄱ	-9246
▁Gun	-9247
▁ㅂㅏㄱㅈㅜ	-9248
▁ㅇㅕㄴㅎㅗ	-9249
▁ㅊㅗㅇㅈㅐ	-9250
▁ㅎㅠㅇㅌㅓ	-9251
▁ㅎㅕㄴㅈㅣㄹ	-9252
▁ㅁㅗㄹㄹㅣㄴ	-9253
▁ㅈㅜㅇㄱㅕㄴㅅㅜ	-9254
MC	-9255
▁Just	-9256
ㅌㅡㄹㅈㅡ	-9257
▁ㄷㅏㅇㅂㅜㄴㄱㅏㄴ	-9258
▁ㅈㅓㅂㅅㅣ	-9259
▁ㅇㅗㅂㅅㅡ	-9260
▁ㅈㅗㅁㅊㅓ	-9261
ㅅㅡㄹㅉㅓㄱ	-9262
▁ㅇㅡㅁㅅㅣㄱㅈㅓㅁ	-9263
▁CT	-9264
▁850	-9265
▁ㅅㅓㅆ	-9266
ㅁㅏㅇㅊㅣㄴ	-9267
▁RR	-9268
▁ㄱㅏㅇㄴㅏㅁㄱㅜ	-9269
▁ㅈㅜㅇㅇㅓㄹㄱㅓ	-9270
▁VIP	-9271
▁ㅂㅜㄹㅂㅜㄴㅁㅕㅇ	-9272
▁ㅅㅡㅁ	-9273
▁ㅇㅜㄹㅂㅓ	-9274
ㅂㅏㄱㅎㅕ	-9275
▁ㅁㅣㄹㅈㅓㅂ	-9276
▁ㅁㅐㄴㄴㅏㄹ	-9277
▁ㅇㅠㅅ	-9278
reat	-9279
▁ㅇㅕㄱㅅㅓㄹ	-9280
▁ㅎㅐㅇㄱㅜㄴ	-9281
▁ㅇㅡㄴㄱㅏ	-9282
▁ㄱㅘㄴㄱㅘㅇㅈㅣ	-9283
ㅅㅐㅇㅁㅜㄹ	-9284
ㅅㅡㅇㅁㅣㄴ	-9285
▁ㄷㅗㄹㅂㅘ	-9286
ㅃㅏㅆ	-9287
▁ㄸㅟㄹ	-9288
uch	-9289
▁ㅎㅏㅇㅈㅐㅇ	-9290
▁ㄱㅝㄴㄱㅗ	-9291
▁ㅇㅕㅇㅈㅗ	-9292
▁ㅎㅏㄴㅅㅓㅇ	-9293
▁ㄷㅏㄴㄷㅏㄴㅎㅣ	-9294
ger	-9295
▁PRO	-9296
▁ㅋㅓㄹㅌㅡ	-9297
▁ㄷㅗㅇㅅㅏㄴ	-9298
▁ㅅㅜㄴㅅㅜㄴㅎㅣ	-9299
▁ㅃㅐㅅㄱㅣ	-9300
▁ㅍㅗㄴㅌㅡ	-9301
▁ㅍㅣㄹㅈㅓㄱ	-9302
▁PT	-9303
▁1939	-9304
▁ㅇㅔㄹㄹㅓㄴ	-9305
▁ㅈㅓㄴㅂㅏㄴㅈㅓㄴ	-9306
▁ㅂㅏㄹㅈㅓㄴㄱㅣ	-9307
▁ㅂㅗㄱㅂㅜ	-9308
▁ㄱㅕㅇㅇㅣ	-9309
▁ㅈㅣㅅㅂㅏㄼ	-9310
▁OO	-9311
ㄴㅐㅆㅇㅡ	-9312
▁ㄹㅏㅂㅅㅣ	-9313
▁ㄴㅏㅁㅈㅣㅅ	-9314
ㄴㅏㄹㄹㅗ	-9315
▁ㅈㅓㅂㅎㅏㄴ	-9316
▁ㅅㅗㅇㄱㅜ	-9317
ㅈㅓㄴㅅㅓㄴ	-9318
▁ㅅㅓㅇㄹㅕㅇ	-9319
▁ㅎㅘㄴㅈㅏㅇ	-9320
▁RS	-9321
▁ㅎㅏㅇㄹㅗ	-9322
ㅁㅏㄴㄷㅏ	-9323
▁ㅅㅓㅇㅍㅜㅁ	-9324
▁ㅇㅣㅁㅇㅛㅇ	-9325
▁ㄴㅏㄴㅈㅐㅇㅇㅣ	-9326
▁Game	-9327
ㅅㅏㅇㅎㅕㄴ	-9328
ㅈㅓㄴㅎㅏㅁ	-9329
▁ㄷㅏㄹㄱㅑㄹ	-9330
▁ㅇㅕㄹㄹㅕㄹ	-9331
▁ㅅㅔㄴㄷㅏ	-9332
▁ㅁㅗㅁㅈㅣㅂ	-9333
▁ㄷㅜㄴㄱㅣ	-9334
ric	-9335
▁ㄴㅜㄴㅆㅓㅂ	-9336
▁PvP	-9337
▁ㅂㅜㄹㅎㅓ	-9338
▁ㅊㅓㅇㅊㅟ	-9339
ㅋㅡㄹㄹㅣㅂㅅㅡ	-9340
▁ㅊㅓㅇㄹㅑㅇㄹㅣ	-9341
▁ㅂㅜㅇㄷㅐ	-9342
ㄷㅗㅇㅂㅕㄴ	-9343
▁ㄱㅘㄴㅅㅡㅂ	-9344
▁ㅅㅡㄹㄹㅣㅂ	-9345
ㅋㅡㄹㄹㅐㄴㄷㅡ	-9346
ㅍㅡㄹㄹㅣㅅ	-9347
▁ㅈㅡㄱㅅㅓㄱ	-9348
▁ㅋㅏㅇ	-9349
ㄷㅗㅇㅂㅕㄴㅅㅗㄱㄱㅣ	-9350
▁ㅇㅏㅍㅁㅏ	-9351
▁ㅇㅣㄱㅎㅕ	-9352
▁ㅎㅑ	-9353
ㅇㅣㄹㄹㅓㄴㅌㅡ	-9354
bsp	-9355
▁ㅊㅣㄴㅇㅏ	-9356
▁ㅇㅣㄹㄱㅐ	-9357
▁ㅈㅡㅇㅇㅝㄴ	-9358
aka	-9359
ㅊㅐㅆ	-9360
▁ㅈㅣㄴㅅㅓㅇ	-9361
ㄱㅐㅅ	-9362
▁520	-9363
▁School	-9364
▁ㅂㅐㄱㅂㅕㅇ	-9365
ㄷㅐㄴ	-9366
▁Last	-9367
ㅇㅣㅂㅂㅜ	-9368
▁TECHN	-9369
▁ㅈㅓㅇㄹㅕㄹ	-9370
▁back	-9371
ㄹㅗㄴㅈㅡ	-9372
▁ㅇㅏㄱㅇㅣㄴ	-9373
▁ㅇㅗㄴㅈㅓㄴㅎㅣ	-9374
▁777	-9375
▁off	-9376
ㅇㅝㄴㅈㅣ	-9377
▁ㅁㅗㅁㅊㅔ	-9378
▁ㄱㅏㅇㅎㅏㅁ	-9379
▁ㅎㅓㅁㅎㅏㄴ	-9380
less	-9381
▁ㄱㅓㄹㅊㅣ	-9382
▁ㅊㅜㅇㄷㅗㅇ	-9383
▁CIA	-9384
▁DIO	-9385
▁ㅇㅏㄱㅍㅕㅇ	-9386
▁nbsp	-9387
ㅎㅏㅇㅎㅐ	-9388
▁ㅁㅏㄹㅅㅏㄹ	-9389
ㅅㅣㄱㅊㅜㄱㄱㅜ	-9390
▁Side	-9391
ㅁㅜㄷ	-9392
▁Ass	-9393
▁Back	-9394
▁ㄱㅣㄹㄹㅓ	-9395
▁ㅂㅜㄴㅎㅘ	-9396
co	-9397
▁ㅂㅜㄺㅇㅡㄴㅅㅐㄱ	-9398
ㅈㅣㅍ	-9399
▁ㅃㅐㄱ	-9400
▁ㅈㅓㅇㅅㅣ	-9401
▁Ge	-9402
▁ㅎㅐㅅㅂㅣㅊ	-9403
▁ㄱㅏㄴㅅㅏ	-9404
▁ㄲㅏㄴㄷㅏ	-9405
▁ㅈㅏㅁㅂㅗㄱ	-9406
▁ㅌㅡㄱㄱㅝㄴ	-9407
ㄴㅓㄴㅌㅡ	-9408
ㄷㅔㄹㅍㅣ	-9409
▁ㄷㅡㄷㅂㅗ	-9410
▁ㅅㅣㄴㅂㅣㅇ	-9411
▁ㅇㅏㄴㄱㅣ	-9412
▁ㅁㅏㅇㅎㅏㄹ	-9413
▁Sil	-9414
ㅅㅓㄴㅅㅗ	-9415
ㄱㅏㄱㄱㅏㄱ	-9416
▁ㅋㅡㅁ	-9417
▁ㅇㅣㄹㄱㅏㄹ	-9418
▁ㅎㅏㅁㄱㅕㅇ	-9419
▁ㅂㅐㄹㅂㅡ	-9420
▁naver	-9421
▁Zero	-9422
▁ㅅㅓㄴㅅㅏㅇ	-9423
▁ㄴㅗㅇㅂㅜ	-9424
IME	-9425
▁ㅈㅓㅇㅅㅔ	-9426
ㅇㅏㅁㄷㅗㅇ	-9427
▁ㅎㅕㅇㅂㅓㄹ	-9428
▁ㅈㅏㅇㅎㅏㄱㄱㅡㅁ	-9429
▁ㅈㅣㅂㅈㅜㅇㄹㅕㄱ	-9430
▁ㅂㅗㄱㄱㅝㄴ	-9431
▁ㅍㅐㄱㅌㅗ	-9432
▁ㅇㅛㅇㅇㅘㅇ	-9433
▁ㅍㅡㄹㄹㅐㄴㅌㅡ	-9434
ㄹㅜㅅ	-9435
▁ㅇㅏㅁㄱㅣ	-9436
▁ㅁㅜㄱㅈㅣㄱ	-9437
▁ㅂㅏㅇㄱㅡㅁ	-9438
▁ㅅㅗㄱㅅㅏ	-9439
▁480	-9440
▁ㅊㅓㄹㅎㅚ	-9441
ㅈㅜㄴㅅㅓㄱ	-9442
▁ㄴㅓㅁㄱㅣㄹ	-9443
▁ㄴㅏㅁㄱㅣㄴㄷㅏ	-9444
▁ㅅㅏㅇㄱㅗ	-9445
▁ㅅㅐㄴㄷㅣ	-9446
▁ㅈㅓㅇㅈㅓㄱ	-9447
ㅇㅑㄱㅈㅏ	-9448
▁ㅈㅏㅇㅁㅏㄱ	-9449
▁jp	-9450
▁ㅋㅓㄴㅂㅓ	-9451
ㅅㅐㅇㅊㅜㅇ	-9452
ㅈㅓㄴㅈㅐㅇ	-9453
▁ㅁㅕㄴㅇㅡㄴ	-9454
▁ㅂㅓㄹㅊㅣㄱ	-9455
ㄴㅡㄹㅅㅐㄱ	-9456
▁ㄱㅓㅂㅈㅐㅇㅇㅣ	-9457
▁Chr	-9458
▁ㅇㅕㅇㄱㅜㄱㅇㅣㄴ	-9459
▁212	-9460
▁ㄱㅗㅇㅊㅐ	-9461
▁ㅎㅐㅇㅅㅔ	-9462
▁ㄱㅜㄻㅈㅜ	-9463
▁ㄴㅏㅁㄱㅜ	-9464
ㄸㅡㄴ	-9465
▁ㅅㅓㄴㅁㅕㅇ	-9466
▁ㅈㅓㅇㅇㅠㄴ	-9467
bo	-9468
▁FBI	-9469
▁ㅂㅏㄴㄴㅏㅂ	-9470
ㅁㅐㅇㅇㅣ	-9471
▁ㅎㅘㄴㅂㅜㄹ	-9472
▁ㅇㅕㄴㅎㅏ	-9473
▁ㄱㅏㅇㅇㅕㄴ	-9474
▁ㄱㅕㅇㅅㅣㄴ	-9475
▁ㅌㅗㅇㅅㅗㄹㄹㅕㄱ	-9476
ㅖㄴ	-9477
▁ㅇㅡㄿ	-9478
▁ㅈㅣㄴㄱㅣ	-9479
▁ㅇㅝㄴㅅㅏㅇ	-9480
▁ㅈㅣㄻ	-9481
▁ㅎㅕㄴㅁㅜ	-9482
▁NCR	-9483
ㄱㅏㅁㅊㅣ	-9484
ㅍㅔㅅ	-9485
ㅇㅏㄴㄱㅜㄴ	-9486
ㅇㅜㄴㅌㅣㄴ	-9487
UST	-9488
▁ㄱㅡㅂㅅㅏㅇ	-9489
▁xx	-9490
▁ㅇㅐㄱㅅㅡ	-9491
ㅎㅕㄴㄷㅗㅇ	-9492
▁Di	-9493
ㄴㅏㄴㄷㅗ	-9494
▁ㅅㅓㅇㅈㅜ	-9495
▁ㅅㅗㄱㅇㅕ	-9496
▁ㅇㅣㄹㅉㅣ	-9497
▁ㅈㅓㅇㅁㅗㅇ	-9498
ㄹㅏㅇㅋㅔㄴㅅㅠ	-9499
ㅂㅏㅇㄷㅗ	-9500
▁NFL	-9501
ㅅㅓㄹㅈㅏ	-9502
▁Amer	-9503
ㅍㅏㄹㄹㅗ	-9504
▁ㅅㅔㄹㄹㅔㄱ	-9505
ORA	-9506
▁ㅂㅓㄱㅅㅡ	-9507
ㅈㅡㄹㄹㅣ	-9508
▁margin	-9509
ely	-9510
▁ㄷㅚㄹㅅㅜ	-9511
▁ㅎㅏㄴㅂㅗㄱ	-9512
▁ㅂㅑ	-9513
ideo	-9514
▁Moon	-9515
▁ㄴㅡㅇㄷㅗㅇ	-9516
▁Blood	-9517
▁ㅎㅘㄴㅇㅝㄴ	-9518
▁ㄴㅏㄴㄷㅔ	-9519
▁ㅇㅑㅇㄷㅗ	-9520
▁290	-9521
ㅁㅜㅅㅇㅣㅍ	-9522
▁ㄲㅡㄶㅇㅓ	-9523
▁ㅊㅣㄴㅎㅘ	-9524
ㅈㅏㅇㅊㅣ	-9525
ㅌㅜㄹㄹㅜ	-9526
ㄸㅡㄷ	-9527
▁ㄱㅕㄹㅂㅓㄴ	-9528
▁Open	-9529
▁ㅊㅓㄹㅌㅚ	-9530
CE	-9531
▁ㅂㅐㄱㄷㅜ	-9532
▁ㅍㅐㄴㅋㅡㄹㄹㅓㅂ	-9533
▁ㅅㅏㅅㅍㅗ	-9534
▁ㅂㅏㄴㄷㅏㄹ	-9535
▁ㅈㅓㄹㅍㅏㄴ	-9536
▁ㅈㅡㅇㅇㅣㄴ	-9537
▁ㅇㅞㄴㄷㅣ	-9538
▁ㅇㅣㅁㅅㅏㅇ	-9539
▁ㄱㅓㅁㄱㅣ	-9540
▁ㄱㅘㅇㅅㅓㄱ	-9541
au	-9542
▁WE	-9543
▁ㅂㅗㄴㄱㅓ	-9544
▁Art	-9545
▁ㅈㅡㅇㅊㅏ	-9546
▁ㅆㅡㄹㅆㅡㄹ	-9547
▁XBOX	-9548
▁ㅂㅣㄴㅅㅔㄴㅌㅡ	-9549
▁Final	-9550
▁ㄴㅓㅁㄴㅏ	-9551
▁ㅁㅏㅇㅇㅝㄴ	-9552
▁ㅅㅐㅇㄹㅣ	-9553
▁ㅈㅜㅇㅊㅜ	-9554
▁Soul	-9555
ㄲㅗㅁ	-9556
▁ㅇㅡㅇㅈㅣㅇ	-9557
DER	-9558
▁ㅍㅡㄴ	-9559
▁1400	-9560
▁ㅂㅏㄱㄱㅣ	-9561
▁Yes	-9562
▁ㅌㅔㄴㅅㅕㄴ	-9563
▁CCTV	-9564
▁ㅈㅜㅇㅅㅏㄴ	-9565
▁ㅊㅓㄹㅈㅏ	-9566
▁ㅃㅡ	-9567
ning	-9568
▁ㅅㅣㄹㅌㅏㄴ	-9569
▁Du	-9570
▁ㄱㅕㅁㅂㅣ	-9571
▁ㅁㅏㄴㅎㅚ	-9572
▁Mix	-9573
ㅈㅜㄴㅇㅓ	-9574
▁ㄹㅗㄹㅅㅡ	-9575
▁ㅎㅘㄴㅇㅠㄹ	-9576
IKA	-9577
▁ㅈㅓㄱㅈㅓㅇ	-9578
▁ㅌㅓㄹㄹㅕㅆ	-9579
▁ㄱㅣㄴㅈㅏㅇㄱㅏㅁ	-9580
ism	-9581
ㅈㅏㅇㅈㅏㅇㅇㅣ	-9582
▁ㅇㅕㅂㄱㅣ	-9583
ward	-9584
ㄷㅗㅇㄷㅐ	-9585
ㅇㅓㅂㅅㅗ	-9586
▁ㅌㅏㄹㄷㅏㅇ	-9587
▁ㄱㅗㄹㅅㅜ	-9588
▁ㅈㅓㅁㅎㅏ	-9589
▁ㅊㅓㄱㅎㅏ	-9590
▁ㅅㅓㄴㄱㅗㅇ	-9591
▁ㄸㅡㄴㄱㅡㅁㅇㅓㅄ	-9592
▁pt	-9593
ㄱㅝㄴㄷㅗ	-9594
▁ㄱㅏㅁㄷㅗ	-9595
▁ㄱㅡㅂㅅㅗㄱ	-9596
▁ㅅㅗㅇㅂㅕㅇㄱㅜ	-9597
32	-9598
▁LS	-9599
▁ATM	-9600
▁ㅌㅔㅂ	-9601
▁ㅎㅏㄴㄴㅣ	-9602
▁ㄱㅣㄹㅁㅗㄱ	-9603
▁ㅅㅣㄴㄱㅓㅁ	-9604
▁ㅍㅔㄹㅌㅡ	-9605
ㅇㅅㅡ	-9606
ㅈㅓㄱㅎㅘ	-9607
▁ㅁㅓㄱㅎㅕ	-9608
▁ㄸㅏㄹㄹㅣ	-9609
▁ㅅㅣㄴㄷㅡ	-9610
▁ㄱㅏㄴㅈㅏㅇ	-9611
▁ㅎㅏㄴㄱㅕㄹ	-9612
85	-9613
ㅈㅓㄴㄷㅐ	-9614
▁KS	-9615
▁MIX	-9616
▁ㅇㅣㄹㅅㅐㅇ	-9617
ㅇㅕㅇㅎㅑㅇ	-9618
ㅁㅜㅇ	-9619
▁Met	-9620
▁ㅈㅓㅇㄱㅕㅇ	-9621
to	-9622
▁ㅂㅔㄴㅊㅡ	-9623
▁ㅉㅜ	-9624
ㅇㅘㄴㅅㅓㅇ	-9625
stem	-9626
▁ㄸㅟㄴ	-9627
▁ㅎㅏㅂㄱㅡㅁ	-9628
▁ㅈㅓㅇㅅㅓㄹ	-9629
▁ㅈㅓㅇㅈㅣㄱ	-9630
ㅌㅡㄹㄹㅔ	-9631
▁ㅂㅗㄹㄹㅣ	-9632
▁ㄱㅏㅇㄹㅕㅇ	-9633
▁ㅌㅗㅇㄱㅡㄴ	-9634
▁ㅊㅜㄴㅊㅜ	-9635
▁ㅊㅜㅇㅁㅜ	-9636
▁ㄲㅗㅁㅉㅏㄱ	-9637
▁ㄱㅓㅁㅅㅐㄱㅇㅓ	-9638
eah	-9639
▁ㅎㅗㅇㅅㅜ	-9640
▁ㅅㅓㅇㄴㅏㅁㅅㅣ	-9641
led	-9642
▁1953	-9643
ㅅㅣㄴㅈㅓㄴㅅㅐㅇ	-9644
▁ㅈㅓㅇㅁㅕㅇㅎㅜㄴ	-9645
▁ㅅㅓㅇㄷㅗㅇ	-9646
▁Track	-9647
▁ㅂㅣㄹㅎㅔㄹㄹㅡㅁ	-9648
▁TB	-9649
▁ㄹㅜㅇ	-9650
▁ㅂㅔㄱ	-9651
▁ㅅㅓㄴㅂㅣ	-9652
▁ㅂㅜㅌㅇㅣㄴㄷㅏ	-9653
▁Core	-9654
▁EXP	-9655
HC	-9656
ㅁㅓㄱㅇㅣ	-9657
ㅅㅡㅇㅇㅜ	-9658
▁ㄱㅡㄴㅊㅣㄴ	-9659
▁APC	-9660
▁ㅍㅕㄴㄷㅗ	-9661
▁ㅊㅏㄱㄱㅗㅇ	-9662
▁te	-9663
▁ㅅㅐㅇㄱㅖ	-9664
▁ㅊㅗㅇㄱㅜ	-9665
ision	-9666
▁ㅍㅕㅇㅈㅣ	-9667
▁ㅇㅑㅇㅍㅕㅇ	-9668
ute	-9669
ㅅㅔㅂㅌㅣ	-9670
▁ㅇㅘㄴㅈㅜ	-9671
▁ㅇㅔㄱㅅㅔㄹ	-9672
▁ㅇㅕㄹㄱㅘㅇ	-9673
ata	-9674
ㅇㅛㅇㅁㅜㄹ	-9675
▁ㅇㅝㄹㄷㅡㅇㅎㅣ	-9676
▁ㅂㅜㄴㄷㅏㅇㅅㅓㄴ	-9677
▁ㅇㅕㅇㅇㅜㅇㅈㅓㄴㅅㅓㄹ	-9678
▁ㅁㅔㅅㄷㅙ	-9679
ㄹㅡㄴㅅㅐㄱ	-9680
▁ㅇㅏㄹㅁㅏㅈ	-9681
ump	-9682
▁Eng	-9683
▁ㅅㅣㄴㅇㅑ	-9684
▁Top	-9685
▁ㄷㅜㅇㄱㅡㄹ	-9686
▁ㅇㅘㄴㄱㅡㅂ	-9687
ㄴㅡㅁ	-9688
▁ㄱㅠㄹ	-9689
▁ㄷㅐㄹ	-9690
▁7000	-9691
▁ㅂㅜㄴㄱㅘ	-9692
▁ㅇㅔㄴㄷㅗ	-9693
▁ㅅㅏㅇㅂㅕㅇ	-9694
▁ㅇㅣㄹㅈㅓㅇㄹㅑㅇ	-9695
▁ㅈㅓㄹㅇㅑㄱ	-9696
▁ㅇㅏㅍㅈㅏㅇ	-9697
▁ㅇㅣㄴㅅㅡㅇ	-9698
▁ㄲㅓㅁ	-9699
▁ㅈㅓㅇㄷㅗㅇ	-9700
▁ㄴㅐㅇㅎㅗㄱ	-9701
▁ㅌㅗㄱㅌㅗㄱ	-9702
▁ㅂㅏㄹㄹㅔㄴㅅㅣ	-9703
▁ㅅㅓㄴㅂㅏㄹㅌㅜ	-9704
▁way	-9705
▁{{{-	-9706
▁ㄲㅡㄶㅇㅣ	-9707
ㅎㅕㄴㅁㅣㄴ	-9708
▁ADVANC	-9709
▁ㄴㅏㅂㅍㅜㅁ	-9710
▁ㄷㅗㅇㄱㅜㄱ	-9711
▁ㅈㅜㅇㄹㅗㄴ	-9712
▁ㅅㅣㄴㅌㅏ	-9713
▁ㄴㅏㅁㅅㅏㄴ	-9714
▁ㅅㅞㄴ	-9715
ㅈㅜㅇㅎㅐ	-9716
▁ㅂㅣㄴㅅㅡ	-9717
ㄹㅡㄹㅌㅔ	-9718
▁ㅌㅡㅁㅅㅐ	-9719
▁ㅃㅗㅂㅎㅣㄴ	-9720
▁Off	-9721
▁ㄱㅜㄴㅈㅜㅇ	-9722
▁TE	-9723
ㅅㅣㄴㄹㅛ	-9724
▁ㅇㅕㄱㅁㅏ	-9725
▁ㅍㅗㄹㄹㅏ	-9726
▁ㅅㅣㅁㅂㅗㄱ	-9727
ㅉㅓㄴㅈㅣ	-9728
▁ㄹㅏㄱㅅㅡ	-9729
▁Ext	-9730
ㅇㅛㄱㅈㅏㅇ	-9731
▁ㅇㅓㄱㅇㅏㅂ	-9732
▁ㄱㅡㅂㅅㅏㅇㅅㅡㅇ	-9733
▁ve	-9734
▁ㅅㅣㅁㅂㅜ	-9735
▁ㅈㅣㄻㅇㅓ	-9736
▁ㅎㅏㅂㄷㅏㅇ	-9737
ㅃㅗㅇ	-9738
oney	-9739
ㅅㅗㅅ	-9740
▁ㅌㅗㅇㅇㅕㄱ	-9741
ㄱㅏㄴㅇㅣ	-9742
▁ㅂㅏㄱㅌㅐ	-9743
ㄷㅏㄹㅂㅜ	-9744
▁ㅂㅜㄹㅂㅏㄹ	-9745
▁ㅇㅏㄱㅇㅕㅇㅎㅑㅇ	-9746
▁ㅈㅜㅇㅅㅜㄴㅇㅑㅇㅎㅏㅁ	-9747
ㅘㄱ	-9748
▁Cap	-9749
BY	-9750
▁ㄷㅏㅇㅎㅐㅆㅇㅡ	-9751
▁ㅇㅡㅁㅇㅏㄱㄱㅏ	-9752
▁Little	-9753
▁1957	-9754
▁Mark	-9755
ㄱㅜㄱㅁㅣㄴ	-9756
▁^	-9757
▁209	-9758
▁ㅆㅏㅇㄱㅓㅁ	-9759
▁ㅈㅓㄹㄱㅏㅁ	-9760
ㅇㅝㄹㄷㅡ	-9761
▁ㅈㅏㅇㅈㅔ	-9762
▁ㅈㅓㄴㄴㅕㅁ	-9763
▁ㅈㅏㄹㅅㅐㅇㄱㅣㄴ	-9764
▁ㅊㅓㄴㅈㅣㄴ	-9765
▁ㄴㅡㅇㅎㅏ	-9766
ㅇㅑㄴㅅㅐㄱ	-9767
▁ㄴㅡㄴㄱㅜㄴ	-9768
▁ZZ	-9769
▁Special	-9770
ㅅㅓㅇㅈㅜ	-9771
▁ㄱㅗㅇㅅㅣ	-9772
▁ㄱㅗㅇㄱㅕㄱㄷㅐ	-9773
▁gr	-9774
▁1947	-9775
GN	-9776
ㄱㅘㅇㅅㅜ	-9777
ㄱㅕㄹㅊㅐㄱ	-9778
▁ph	-9779
ㅋㅡㄹㄹㅗㄴ	-9780
▁ㅇㅡㅁㄹㅕㄱ	-9781
▁ㄷㅗㄱㅅㅓㄹ	-9782
▁ㅅㅕㅅ	-9783
▁ㄴㅏㅇㅁㅏㄴ	-9784
▁now	-9785
ㄱㅘㄴㄱㅖ	-9786
ㅂㅓㅂㅇㅝㄴ	-9787
▁That	-9788
▁ㅇㅔㄹㄷㅏ	-9789
▁ㅊㅜㄹㅇㅣㅂㄱㅜ	-9790
ㄱㅡㅁㄱㅏ	-9791
▁ㅅㅓㄱㅌㅏㄴ	-9792
ocal	-9793
▁ㅉㅣㅁ	-9794
▁ㅅㅓㄱㅂㅏㅇ	-9795
▁ㅇㅣㄱㅁㅕㅇ	-9796
▁BP	-9797
▁ㄱㅡㅂㅇㅕ	-9798
▁ㅂㅏㄱㅎㅣ	-9799
▁ㄱㅕㅇㅅㅏㅇㄷㅗ	-9800
ross	-9801
ㅍㅗㄹㅌㅡ	-9802
red	-9803
▁ㄱㅏㄴㅊㅓㅂ	-9804
▁ㅍㅕㅇㅈㅜㄴ	-9805
ㅇㅡㄱㄱㅗ	-9806
▁ㅁㅏㄴㄴㅕㄴ	-9807
▁ㅇㅣㄹㅋㅓㄹ	-9808
▁ㅅㅡㅇㄱㅖ	-9809
▁ㅉㅣㄴ	-9810
▁ㄲㅏㄹㄹㅣ	-9811
▁ㅊㅣㅇㅎㅏㄴㄷㅏ	-9812
▁ㅋㅔㅅ	-9813
ㄷㅡㄱㅈㅓㅁ	-9814
▁ac	-9815
▁ㅂㅏㅇㅁㅏㅇ	-9816
ㄱㅘㄴㅎㅏㄱㄱㅛ	-9817
ㄱㅕㄹㅅㅏ	-9818
ㅅㅗㅇㄱㅣ	-9819
▁ㅈㅗㄱㅂㅗ	-9820
▁ㅇㅝㄴㅅㅓㅇ	-9821
ㅇㅛㅇㄹㅑㅇ	-9822
ㅍㅏㅂ	-9823
ㅇㅏㄱㄱㅣ	-9824
▁ㅎㅏㄱㅍㅏ	-9825
▁ㅅㅣㄴㄱㅕㄱ	-9826
▁ㄱㅣㄴㅌㅗ	-9827
▁RPM	-9828
▁ㅁㅔㄴㅌㅗ	-9829
▁ㅈㅏㅇㄷㅐ	-9830
▁ㅅㅓㄴㅂㅏㄹㅈㅓㄴ	-9831
▁net	-9832
ner	-9833
▁BMW	-9834
▁Comp	-9835
ㅈㅜㄴㅍㅛ	-9836
▁ㄷㅏㅇㄱㅕ	-9837
ㅁㅜㄹㅅㅓㄴ	-9838
▁ㅁㅏㅈㅊㅝㅆ	-9839
▁ㅇㅐㄱㅅㅜ	-9840
▁TT	-9841
▁ㄱㅘㅇㄱㅛ	-9842
▁ㅂㅓㄹㅇㅣㄹ	-9843
▁ㅅㅣㄹㄱㅏㅁ	-9844
▁em	-9845
▁Free	-9846
▁MOV	-9847
▁ㅅㅐㅇㅍㅗ	-9848
▁ㅈㅓㄹㄷㅗ	-9849
ㅇㅑㅎ	-9850
ㅇㅡㅁㅅㅗㄱ	-9851
▁ㅍㅕㄴㅇㅐ	-9852
▁ㄱㅡㅂㅎㅏㄴ	-9853
▁ㅎㅏㄴㅈㅜㅇ	-9854
▁ㅂㅏㄱㅅㅔ	-9855
▁ㅅㅜㄱㅁㅕㅇ	-9856
▁ㄹㅏㅇㄱㅡ	-9857
▁ㄱㅓㄷㅇㅓ	-9858
▁ㅁㅏㅇㄱㅏㄱ	-9859
▁ㅈㅓㅇㅈㅜㄴㅎㅏ	-9860
aid	-9861
▁UR	-9862
ㅁㅠㄹㄹㅓ	-9863
▁ㄱㅓㄴㅇㅢ	-9864
▁ㄱㅡㄱㅅㅓㅇ	-9865
▁ㄷㅗㄹㄹㅕㅆ	-9866
ㅇㅣㄴㅊㅏ	-9867
▁ㅂㅏㄴㅎㅏ	-9868
▁ㅅㅡㅇㅅㅡㅇ	-9869
▁Bad	-9870
▁ㅇㅝㄴㅅㅏㄴ	-9871
ㄴㅜㄱㅅㅡ	-9872
▁ㄴㅗㅇㅇㅓ	-9873
▁ㅁㅏㄴㅇㅜ	-9874
▁ㅎㅠㅇㄱㅣ	-9875
▁ㄷㅗㅇㄷㅗㄱ	-9876
▁ㅅㅐㅇㄱㅕㅆㅇㅡ	-9877
OCK	-9878
ㅅㅓㄴㅅㅡ	-9879
▁Every	-9880
▁ㅌㅜㄱㅎㅏ	-9881
ㄹㅗㄹㄹㅣㅇ	-9882
▁1914	-9883
ㄸㅡㅁ	-9884
▁get	-9885
ASS	-9886
▁Rob	-9887
▁ㅁㅕㄴㄷㅗ	-9888
▁ㅋㅏㄴㅈㅏ	-9889
▁ㅂㅏㅁㅈㅜㅇ	-9890
▁ㅇㅕㅇㅈㅐ	-9891
▁ㅇㅣㄹㅍㅏ	-9892
ㅇㅣㄴㅅㅓㅇ	-9893
▁ㅊㅓㄴㅇㅘㅇ	-9894
▁ㅈㅓㄴㅈㅐㅇㅌㅓ	-9895
24	-9896
ird	-9897
▁ㅁㅐㅇㅅㅜ	-9898
ㅌㅡㄹㄹㅐㄴ	-9899
▁ㅅㅣㅁㅇㅕㅇ	-9900
▁ㅈㅓㄴㅂㅗㄱ	-9901
▁ㅅㅜㄴㅅㅏㄱ	-9902
▁ㅇㅗㄴㄱㅓㄴ	-9903
▁ㄱㅡㄴㅇㅠㄱㅈㅣㄹ	-9904
ㅅㅓㅇㅇㅐ	-9905
▁ㄷㅗㄹㄹㅣㄴ	-9906
lection	-9907
▁ㅂㅏㄱㅂㅕㅇㅎㅗ	-9908
▁ㅁㅜㄴㄱㅘㄴ	-9909
▁ㅂㅏㄴㅉㅗㄱ	-9910
▁ㅇㅓㅁㅇㅕㄴ	-9911
▁ㅇㅛㄴ	-9912
▁what	-9913
▁ADVANCED	-9914
▁ㅊㅏㄴㅅㅏ	-9915
▁ㅇㅣㅂㅅㅗ	-9916
▁ㅇㅗㄹㅇㅣㄴ	-9917
▁ㅎㅏㅂㅅㅏㄴ	-9918
▁ㅎㅕㅂㄱㅗㅇ	-9919
▁ap	-9920
▁ㅈㅠㄹ	-9921
▁ㅊㅓㅁㅂㅜ	-9922
▁ㄱㅡㅅ	-9923
▁ㅁㅓㄹㄹㅣㄴ	-9924
▁ㄱㅗㄱㅅㅏ	-9925
▁ㄱㅕㅇㄷㅐ	-9926
ton	-9927
▁ㅂㅏㄱㅅㅏㄹㄴㅏㄴ	-9928
ㅍㅏㅅ	-9929
▁ㅁㅜㄴㅍㅏ	-9930
▁ㅂㅜㄱㅅㅓ	-9931
▁ㄱㅡㄴㅎㅘㅇ	-9932
▁ㅎㅗㅇㅈㅜㄴㅍㅛ	-9933
its	-9934
▁!!!	-9935
ㅂㅏㅇㅂㅣ	-9936
ㅋㅔㅅㄷㅏㄴ	-9937
▁ㄷㅏㄹㄹㅏㅇ	-9938
▁ㅇㅏㄴㅅㅣㄱ	-9939
▁ㄱㅗㅇㄱㅜ	-9940
▁ㅅㅓㄴㅎㅜ	-9941
▁ㅈㅏㅇㅁㅣㄴ	-9942
▁mA	-9943
▁ㄹㅣㄴㄷㅏ	-9944
▁ㅂㅕㄴㅁㅗ	-9945
▁ㅅㅣㄱㅅㅣㄴ	-9946
▁1100	-9947
ㅅㅗㅇㅅㅓㄴ	-9948
▁ㄱㅕㅇㅇㅕㅇㅎㅏㄱ	-9949
▁512	-9950
▁540	-9951
ㄱㅡㅁㅈㅔ	-9952
ㄴㅏㄹㅅㅜ	-9953
▁ㄱㅏㄱㅂㅗㄴㄱㅏ	-9954
ㅈㅓㄴㄱㅘㅇㅇㅕㄱㅅㅣ	-9955
▁1938	-9956
▁ㄱㅡㅂㅅㅡㅂ	-9957
ㄹㅗㄹㄹㅏ	-9958
▁ㅅㅗㅇㅅㅣㄴ	-9959
▁ㅅㅣㄱㅂㅕㄹ	-9960
▁ㅈㅓㅇㅇㅐㄱ	-9961
▁MiG	-9962
▁ㅎㅘㅇㅅㅗ	-9963
▁ㄱㅜㄴㅂㅓㄹ	-9964
▁ㅎㅓㅁㅇㅏㄱ	-9965
▁ㄷㅗㅇㅂㅏㅇㅅㅣㄴㄱㅣ	-9966
▁Rain	-9967
▁ㅌㅏㄹㅈㅜ	-9968
ㅋㅣㄹㄹㅔ	-9969
▁Order	-9970
▁ㅈㅓㄴㅇㅟ	-9971
▁Af	-9972
▁May	-9973
▁ㅈㅓㅇㅇㅠ	-9974
▁365	-9975
▁ㄱㅣㅁㅈㅗㅇㄱㅜㄱ	-9976
▁ㅇㅏㄱㅇㅕㄴ	-9977
▁don	-9978
▁++	-9979
▁KA	-9980
▁ㅍㅗㅅ	-9981
ㅍㅏㄴㅅㅗ	-9982
▁ㅎㅘㄴㅅㅏㄴ	-9983
▁1300	-9984
▁ㅈㅓㅇㅈㅔ	-9985
ㅅㅏㄴㄱㅜㄴ	-9986
ㅅㅏㅇㄱㅜㄴ	-9987
ㅁㅏㅇㅊㅣㄴㄷㅏ	-9988
▁ㅅㅣㄴㅁㅣㄴ	-9989
▁ㅈㅣㄹㅈㅣㄹ	-9990
▁ㅎㅏㄴㄱㅜㄱㅅㅣㄱ	-9991
vent	-9992
▁ㅌㅔㅁㅍㅔ	-9993
ㅂㅡㄹㄹㅐㄴㄷㅡ	-9994
▁ㅁㅕㅇㅎㅘㄱㅎㅣ	-9995
▁ㅂㅏㄹㅎㅛ	-9996
▁ㄱㅗㅇㅈㅓㄴ	-9997
▁ㅅㅗㄴㅂㅏㄹ	-9998
▁HR	-9999
ㅇㅛㅇㅅㅏ	-10000
▁ㅅㅜㄴㅎㅏㅇ	-10001
tm	-10002
▁sw	-10003
▁ㅅㅣㄴㅂㅗㅇ	-10004
▁ㅇㅏㅍㄷㅜㄴ	-10005
▁ㅈㅏㅇㄷㅏㅁ	-10006
▁ㅈㅓㄴㅎㅘㅇ	-10007
▁Orig	-10008
▁ㅈㅓㅇㅎㅕㄴ	-10009
▁ㅈㅣㄹㅅㅜ	-10010
ㅅㅏㅇㅇㅣㄹ	-10011
ㅇㅕㅇㅇㅜㅇㅈㅓㄴㅅㅓㄹ	-10012
ㄹㅓㅇㅇㅣ	-10013
▁Po	-10014
▁ㅅㅜㅅ	-10015
▁ㅇㅣㄹㄹㅏ	-10016
▁ㅅㅐㅇㅅㅏㄴㄹㅕㄱ	-10017
ura	-10018
ㅅㅓㄱㄱㅣ	-10019
▁ㄱㅣㄴㄱㅏ	-10020
▁ㅅㅣㄴㅇㅑㄱ	-10021
▁ㅍㅕㄹㅊㅣㄴ	-10022
▁NA	-10023
▁ㅊㅣㄴㅅㅓㄴ	-10024
ㅆㅜㄱ	-10025
▁ㄴㅐㅂㄷㅏ	-10026
▁ㅊㅣㄹㄷㅡ	-10027
▁ㄷㅏㄴㄱㅏ	-10028
▁ㅁㅜㄴㄱㅘ	-10029
▁ㄱㅕㅇㅅㅓㄴ	-10030
ㅅㅏㅇㄱㅡㅁ	-10031
▁ㅂㅕㄴㅅㅗㄱ	-10032
▁206	-10033
ㅊㅜㄱㅈㅓㄴㅊㅏ	-10034
▁ㅅㅔㄴㄱㅗ	-10035
▁ㅍㅕㅇㅎㅏ	-10036
ㅇㅣㄹㄱㅓㄴ	-10037
▁png	-10038
▁ㅊㅓㅇㅎㅏ	-10039
▁ㅂㅕㅇㅎㅏㅂ	-10040
ㅈㅗㅇㅇㅣㄹㄱㅘㄴ	-10041
ㅅㅣㄹㄹㅗㄱ	-10042
▁ㅎㅏㅇㅅㅓㅇ	-10043
▁ㅂㅕㄹㄱㅓ	-10044
▁ㄷㅗㄱㅅㅓㅇ	-10045
▁ㅂㅏㄴㅈㅜ	-10046
ㅈㅏㅇㅍㅏㄴ	-10047
▁Are	-10048
▁ㄱㅜㄹㄹㅣㅁ	-10049
▁ㄹㅣㅇㅋㅓㄴ	-10050
▁ㅇㅏㄱㄷㅏㄴ	-10051
▁ㅁㅕㅇㅂㅐㄱㅎㅣ	-10052
▁ㄸㅜㅀㄹㅕ	-10053
▁Stri	-10054
ㅅㅓㅇㅅㅣ	-10055
▁ㅂㅏㄴㄱㅏ	-10056
orts	-10057
▁ㅍㅕㅇㅇㅣ	-10058
ㅇㅜㄹㅈㅡㅇ	-10059
ape	-10060
ㄴㅑㅇㅌㅓ	-10061
▁ㅇㅓㅂㅈㅏ	-10062
▁ㅇㅕㄱㅈㅓㄴㅅㅡㅇ	-10063
▁ㅇㅕㄴㅎㅘ	-10064
▁ㅈㅓㄱㄱㅣ	-10065
▁ㅁㅣㄴㅈㅣ	-10066
▁ㅋㅓㄹㅊㅕ	-10067
▁ㄱㅕㄱㄴㅏㅂ	-10068
▁ㅂㅔㄹㅂㅔㅅ	-10069
▁ㅋㅡㄴㅇㅣㄹ	-10070
ㄱㅡㅂㅍㅜㅁ	-10071
▁ㅈㅣㄴㅈㅓㄴ	-10072
▁ㅍㅏㄴㅁㅕㅇ	-10073
▁ㄱㅘㅇㅂㅜ	-10074
▁ㅅㅏㅇㅊㅔ	-10075
▁ㅁㅐㅇㅈㅏㅇ	-10076
▁ㅈㅡㅇㄱㅏㅇ	-10077
▁ㅇㅑㅇㅈㅣ	-10078
▁ㅇㅓㅂㅅㅗ	-10079
▁ㅎㅘㅇㅈㅏ	-10080
ㅇㅣㄹㅂㅗㄴ	-10081
▁ㅇㅡㄴㄱㅡㄴㅅㅡㄹㅉㅓㄱ	-10082
ster	-10083
▁ㅇㅣㅂㅈㅓㅁ	-10084
▁ㅍㅣㄱㅅㅕㄴ	-10085
ize	-10086
▁TBS	-10087
▁Best	-10088
▁ㄱㅗㄴㄷㅗ	-10089
son	-10090
anna	-10091
▁ㅂㅗㅁㅂㅓ	-10092
▁ㄲㅜㄱ	-10093
▁ㄹㅣㄴㅊㅣ	-10094
▁ㅉㅗㄱㅈㅣ	-10095
▁ㅊㅓㄴㅈㅏ	-10096
▁ㅇㅑㅇㅇㅑㅇ	-10097
ㄷㅓㄼ	-10098
▁pe	-10099
▁ㅅㅜㄴㄹㅖ	-10100
▁ㄱㅗㅇㅅㅓㄱ	-10101
▁Pack	-10102
ㅅㅣㄱㅇㅓ	-10103
ㅋㅔㄹㄹㅔ	-10104
▁ㄱㅗㄷㅇㅣ	-10105
▁ㄸㅢㄴㄷㅏ	-10106
ㅇㅜㄹㄹㅕ	-10107
▁ㅇㅘㅇㅅㅓㅇ	-10108
▁ㅊㅏㄱㅊㅟ	-10109
▁ㅁㅏㅌㄱㅕㅆ	-10110
▁ㅇㅕㄹㅎㅘ	-10111
▁ㄷㅗㅇㅇㅣ	-10112
▁ㅇㅟㄴㅅㅡ	-10113
ILL	-10114
▁ㅃㅐㅇ	-10115
▁ㄱㅣㄹㄹㅐ	-10116
▁ㅅㅏㅇㄱㅕㅇ	-10117
▁ㅎㅡㄱㅂㅏㄹ	-10118
▁ㅊㅏㅇㄷㅏㅇ	-10119
xt	-10120
▁ㅈㅓㅇㅇㅣㄴ	-10121
▁ㄱㅗㅇㅈㅓㄱ	-10122
ㄹㅏㅇㅈㅓㄴㅅㅓㄹ	-10123
err	-10124
ㅁㅣㅌ	-10125
▁ㅈㅣㅅㄱㅓ	-10126
ㄴㅓㅁㄱㅣ	-10127
▁ㅍㅡㄹㄹㅗㅅ	-10128
AKA	-10129
▁ㅊㅏㄱㅇㅏㄴ	-10130
▁ㅋㅗㄹㄹㅣㄴ	-10131
▁they	-10132
ㅁㅜㄴㅎㅘ	-10133
▁GA	-10134
▁ㄱㅏㄷㅎㅣ	-10135
▁ㅇㅠㄴㅇㅕㅇ	-10136
▁ㅈㅏㅇㅂㅏㄹ	-10137
▁FO	-10138
▁PA	-10139
ㄹㅐㄴㅌㅡ	-10140
▁IMF	-10141
ㄹㅏㅎ	-10142
▁his	-10143
▁ㅁㅏㅇㅈㅏ	-10144
▁ㅅㅜㄱㅈㅣ	-10145
▁ㅍㅕㄴㅈㅣㅂㅈㅏ	-10146
▁Mir	-10147
▁ㅇㅕㅆㅇㅓㅆ	-10148
▁9000	-10149
▁tw	-10150
▁PH	-10151
▁ㅁㅜㅇㄱㅐ	-10152
▁ㅇㅗㄱㅅㅡ	-10153
▁ㅇㅏㄹㄹㅣㅁ	-10154
▁ㅇㅕㅅㅂㅗㄹ	-10155
▁ㅉㅣㄱㅎㅣ	-10156
▁kn	-10157
▁ㅇㅗㄹㄹㅔ	-10158
▁ㅈㅜㄹㄱㅔ	-10159
▁ㄱㅡㅂㅅㅗㄱㄷㅗ	-10160
▁ㅅㅓㅇㅊㅟ	-10161
▁ㅇㅏㅁㅅㅓㄱ	-10162
▁#,	-10163
▁ㄱㅣㄹㅌㅣ	-10164
▁ㄱㅡㅂㅈㅡㅇ	-10165
ㅁㅓㄴㄷㅡ	-10166
▁ㅈㅐㅇㅌㅏㄹㅈㅓㄴ	-10167
▁Mbps	-10168
▁ㄸㅓㄹㅊㅣ	-10169
▁ㅅㅐㄱㄱㅣ	-10170
▁ㅂㅏㄱㅎㅏㄴ	-10171
ㄹㅏㅇㅋㅏ	-10172
▁ㄴㅗㄹㄹㅓ	-10173
ㄷㅗㅇㄷㅏㅇ	-10174
oud	-10175
▁ㅈㅓㄱㄱㅘ	-10176
▁ㅍㅏㄴㄴㅔㄹ	-10177
▁ㅎㅏㄴㄴㅜㄴ	-10178
▁Joh	-10179
▁ㄱㅐㅇㄷㅏㄴ	-10180
▁ㅇㅏㅁㅁㅜㄱ	-10181
28	-10182
ama	-10183
▁ㅁㅣㄴㅌㅡ	-10184
▁ㅇㅝㄴㅇㅏㄴ	-10185
ma	-10186
ㅊㅔㄴ	-10187
▁ㄱㅘㅇㅎㅐ	-10188
▁ㄷㅗㅇㅌㅏㄴ	-10189
▁ㅅㅜㄴㅈㅓㄴㅎㅣ	-10190
▁mAh	-10191
▁ㅋㅝㅇ	-10192
ㅈㅗㄴㄷㅗ	-10193
OSS	-10194
▁ㄷㅗㄱㄷㅏㄴ	-10195
▁ㅂㅜㄹㄱㅗㅁ	-10196
▁ㅇㅓㄴㄸㅡㅅ	-10197
▁ㅈㅏㄱㅁㅜㄹ	-10198
ㅁㅣㄴㅈㅏ	-10199
▁ㅂㅏㅇㄱㅘㄴ	-10200
ㄴㅏㅈ	-10201
ㄴㅓㄼ	-10202
▁ㅅㅓㄹㅁㅜㄴ	-10203
▁ㅎㅏㄱㄱㅜㄴ	-10204
▁ㅅㅗㅇㅈㅣ	-10205
▁ㅍㅕㅇㅅㅣ	-10206
▁ㅍㅕㅇㅇㅢ	-10207
▁ㅇㅣㄱㅎㅣㄴ	-10208
▁ㄷㅓㅅㅂㅜㅌㅇㅣ	-10209
ze	-10210
▁NORM	-10211
▁ㅍㅡㄹㄹㅐㅅㅍㅗㅁ	-10212
▁370	-10213
▁ㅂㅓㄴㅂㅓㄴ	-10214
▁ㄲㅓㄹㄲㅡ	-10215
▁ㅇㅏㅍㅁㅓ	-10216
▁ㅂㅓㄴㅇㅕㅇ	-10217
zy	-10218
▁ㅁㅏㄹㅂㅓ	-10219
▁ㅇㅕㅅㅂㅗ	-10220
▁ㄴㅡㄹㄹㅣㄹ	-10221
ㅅㅡㄹㄹㅗ	-10222
▁1951	-10223
▁ㅇㅡㄴㅇㅓ	-10224
▁ㅎㅏㄴㅈㅗㄱ	-10225
hy	-10226
▁ㅌㅡㄹㄹㅣㅁㅇㅓㅄ	-10227
▁ㅅㅓㅇㄱㅡㅂ	-10228
▁ㅉㅏㅂ	-10229
▁ㅂㅔㄹㄹㅣ	-10230
▁ㅌㅐㄹㄹㅓㄴㅌㅡ	-10231
IDE	-10232
▁171	-10233
ㅎㅐㅇㅅㅓㅇ	-10234
END	-10235
▁ㅊㅓㅇㅇㅝㄴ	-10236
ㄲㅓㅅㅎㅐ	-10237
ㅅㅓㄴㅅㅣ	-10238
▁ㄴㅏㄱㅅㅓ	-10239
▁First	-10240
▁ㄴㅏㅁㅋㅗ	-10241
▁ㅁㅏㄱㅁㅏㄹ	-10242
▁ㅎㅘㄹㄱㅣ	-10243
ㅈㅗㅇㄷㅏㅇ	-10244
▁ㅇㅡㄴㅅㅐㄱ	-10245
▁ㅍㅏㄹㄷㅏ	-10246
▁ㅇㅏㄹㅈㅔ	-10247
▁ㄷㅗㅇㄱㅕㄹ	-10248
ㅅㅓㄴㅂㅓ	-10249
▁NORMAL	-10250
▁ㅍㅕㅇㅁㅕㄴ	-10251
▁ㅎㅣㅅ	-10252
▁ㅅㅓㄴㄷㅓ	-10253
ㄱㅗㅇㄱㅏㄴ	-10254
ㄱㅗㄱㅈㅓㄹ	-10255
▁ㅂㅏㅇㅇㅏ	-10256
▁ㅇㅝㄱㅅㅡ	-10257
▁ㅅㅓㄴㅂㅕㄹ	-10258
▁ㄱㅏㄱㅂㅕㄹ	-10259
▁ㅌㅡㄱㅅㅐㄱ	-10260
ㅌㅡㄹㄹㅏㄴㅌㅣ	-10261
ㄴㅓㄹㅅㅡ	-10262
ㄴㅜㄴㄷㅏ	-10263
▁ㄱㅝㄴㅎㅏ	-10264
ㅁㅏㅇㅊㅣㄹ	-10265
ㅅㅡㅇㅎㅜㄴ	-10266
ㅅㅠㅁ	-10267
ㅅㅏㅇㅅㅡ	-10268
▁ㅁㅏㄴㅈㅏㅇ	-10269
▁ㄷㅡㄹㅋㅕ	-10270
▁ㅈㅜㄱㅇㅣㅁ	-10271
▁NP	-10272
▁ㅈㅐㅅ	-10273
▁ㅍㅣㄹㅅㅡㅇ	-10274
▁ㄱㅗㅇㅊㅓㄴ	-10275
▁ㅇㅐㅇㄱㅡㄹ	-10276
▁ㄲㅗㄱㄷㅐ	-10277
▁ㅅㅓㅇㅎㅢ	-10278
▁Perf	-10279
▁ㅅㅣㄴㅊㅏ	-10280
UG	-10281
ume	-10282
▁Down	-10283
▁181	-10284
▁161	-10285
▁215	-10286
▁City	-10287
▁ㅈㅏㄴㅅㅗ	-10288
▁ㄷㅗㄹㅍㅜㅇ	-10289
yes	-10290
ㅅㅏㄹㅇㅣ	-10291
▁ㅊㅗㅇㅎㅚ	-10292
▁ㅁㅜㄷㅎㅣㄴ	-10293
▁ㅇㅜㄴㄷㅗㅇㄱㅏ	-10294
▁NMB	-10295
▁Char	-10296
ㄱㅐㄱㄱㅣ	-10297
ㅈㅓㄴㅇㅕㄱ	-10298
▁ㅍㅜㄹㅂㅐㄱ	-10299
▁"..	-10300
▁ㅃㅓㄴㅎㅏ	-10301
ㅅㅓㅇㅎㅜㄴ	-10302
▁ㅋㅕㄴ	-10303
ㅈㅜㄴㄱㅣ	-10304
▁ㅎㅡㄱㅅㅐㄱ	-10305
▁ㅎㅕㅇㅈㅜ	-10306
▁ㅈㅜㄹㅇㅣㄴ	-10307
▁ㅈㅓㅇㅅㅣㄴㅂㅕㅇ	-10308
▁ㄱㅗㄹㄱㅕㄱ	-10309
▁ㅂㅐㄱㅁㅏ	-10310
▁ㅂㅜㄴㅅㅜ	-10311
▁ㄱㅘㄴㅎㅕㄴ	-10312
▁ㅅㅜㄱㅈㅓㄱ	-10313
▁ㅍㅏㄹㄹㅕㅆ	-10314
▁MAD	-10315
▁Mem	-10316
▁ㅁㅕㅇㅅㅣㅁ	-10317
23	-10318
ㅈㅓㄱㅈㅣ	-10319
▁ㅇㅏㄴㅌㅗㄴ	-10320
net	-10321
▁DEF	-10322
▁ㅅㅓㄷ	-10323
ㄱㅕㄱㅌㅐ	-10324
▁ㄹㅣㄴㅇㅣ	-10325
▁ㅂㅐㄱㅅㅡ	-10326
▁HT	-10327
▁ㅈㅡㄴ	-10328
▁ㅂㅜㄹㅇㅏㄴㄱㅏㅁ	-10329
ㅎㅘㅇㅎㅜ	-10330
▁ㅈㅜㅇㅇㅢ	-10331
▁ㅎㅕㄴㅅㅔ	-10332
▁ㅁㅏㅇㅅㅓㄹㅇㅣ	-10333
▁ㅎㅕㅇㅂㅓㅂ	-10334
▁Hot	-10335
▁ㄷㅏㄴㅌㅏ	-10336
ㅂㅏㅇㄱㅜㄴ	-10337
▁ㅎㅐㅇㄷㅗㅇㄹㅕㄱ	-10338
▁Miss	-10339
ga	-10340
▁ㅅㅜㄴㅈㅗ	-10341
▁ㅊㅜㄹㅅㅐㅇㅈㅣ	-10342
▁235	-10343
▁ㅅㅓㄹㄱㅛ	-10344
▁ㅇㅗㄴㅈㅓㄴ	-10345
▁275	-10346
▁RED	-10347
▁wiz	-10348
ㅅㅏㄴㄷㅐ	-10349
▁Happy	-10350
▁ㅉㅏㅁㅃㅗㅇ	-10351
▁#!	-10352
▁AGE	-10353
▁ㅁㅕㄱ	-10354
▁ㄴㅗㅇㄷㅗ	-10355
▁ㄷㅏㄹㅎㅐㅆ	-10356
▁ㅎㅏㄴㄷㅡㄹ	-10357
▁just	-10358
ㅋㅡㄹㄹㅏ	-10359
▁ㅍㅜㅇㅅㅗㄱ	-10360
▁ㅈㅓㅇㅊㅏㄹㄱㅣ	-10361
▁ㅎㅐㅇㅈㅓㅇㅂㅜ	-10362
▁Und	-10363
▁Ret	-10364
▁ㅊㅏㄱㅅㅜ	-10365
▁ㅂㅕㄴㅅㅗㄱㄱㅣ	-10366
83	-10367
▁207	-10368
▁dis	-10369
ㅁㅣㄴㅇㅜ	-10370
▁Class	-10371
▁ㅅㅣㄹㅋㅓㅅ	-10372
▁ㄱㅕㅇㅅㅜㄴㅇㅑㅇㅎㅏㅁ	-10373
▁ㅈㅣㄴㅂㅓㅁ	-10374
▁ㅇㅕㄱㄱㅣ	-10375
▁ㅇㅣㄴㅍㅏ	-10376
▁ㄱㅏㄱㄱㅘㅇ	-10377
▁SHD	-10378
▁ㄷㅗㅇㄱㅡ	-10379
▁747	-10380
▁ㅋㅗㅂ	-10381
▁ㅇㅕㅌ	-10382
▁Break	-10383
▁Stage	-10384
▁ㄷㅓㅍㅊㅣ	-10385
ㄷㅐㅆ	-10386
▁ㅅㅓㄴㄱㅏ	-10387
ㅅㅓㄴㅇㅣㄴ	-10388
awn	-10389
▁Dec	-10390
▁ㄱㅡㄴㅂㅏㅇ	-10391
26	-10392
▁ㅌㅗㅇㅊㅏㄹ	-10393
▁ㄴㅏㅁㅊㅣㄴ	-10394
▁MUS	-10395
▁ㅎㅏㄴㅍㅏㄴ	-10396
IAL	-10397
▁ㅊㅔㅅ	-10398
ius	-10399
▁ㄹㅏㅁㅂㅗ	-10400
UD	-10401
ㅂㅏㄲ	-10402
▁ㅇㅐㅁㅍㅡ	-10403
▁ㅇㅑㄱㅅㅏ	-10404
ㅅㅓㅇㄱㅗㅇ	-10405
▁ㄷㅡㅇㅇㅛㅇ	-10406
▁ㅈㅓㄴㅂㅓㅁ	-10407
▁ㅇㅕㄱㅈㅓㄱ	-10408
▁ㄲㅡㅌㄴㅐㅆ	-10409
▁ㅈㅓㅇㅅㅓㄴ	-10410
▁ㅁㅗㄴㅌㅡ	-10411
▁ㅎㅙ	-10412
▁1936	-10413
ㅆㅓㄹㅌㅡ	-10414
▁ㄹㅗㄴㄱㅏ	-10415
▁ㅁㅜㄹㄹㅠ	-10416
▁ㅈㅓㄴㄱㅘㅇㅍㅏㄴ	-10417
▁STA	-10418
▁ㅈㅓㄴㄱㅗㄱ	-10419
▁Elect	-10420
▁ㅇㅏㄱㅅㅜ	-10421
▁ㄱㅣㅁㅊㅓㄴ	-10422
▁ㅇㅡㄴㅂㅣㅊ	-10423
▁ㅌㅗㅇㅈㅏㅇ	-10424
▁ㅂㅜㄹㄹㅠㄴ	-10425
▁ㅂㅏㅇㅇㅕㅇㅇㅣㄹ	-10426
que	-10427
▁ㅃㅏㄱㅅㅔ	-10428
ㄷㅏㄹㄹㅕㅆ	-10429
▁ㄷㅏㅇㄱㅡㄴ	-10430
▁ㅇㅕㄱㅈㅓㄴㅍㅐ	-10431
▁ㄱㅗㄹㅉㅏ	-10432
ㅁㅏㄴㅎㅘ	-10433
▁ㄲㅡㅌㄴㅐㄹ	-10434
▁ㅅㅓㅇㅂㅓㅁㅈㅚ	-10435
att	-10436
▁ㅋㅏㄱ	-10437
▁over	-10438
27	-10439
▁211	-10440
▁ㄸㅡㅁ	-10441
▁ㅇㅑㅇㅈㅐ	-10442
ㅈㅏㅅㅈㅣㅂ	-10443
▁ㅈㅣㄴㅈㅜㅇ	-10444
▁ㄷㅏㅇㅇㅝㄴ	-10445
▁ㅁㅗㄹㄹㅕㅆ	-10446
▁ㄷㅏㄹㅎㅏㄴㄷㅏ	-10447
ㅇㅣㄴㄹㅣ	-10448
▁ㅋㅗㅇㄱㅗ	-10449
▁ㅅㅗㄱㅅㅏㄱ	-10450
▁ㄴㅏㄴㅈㅏㅇㅍㅏㄴ	-10451
▁ㄹㅓㅅ	-10452
▁ㅂㅜㄹㄹㅑㅇㅂㅐ	-10453
ㅇㅣㄴㅊㅡ	-10454
▁ㅇㅡㅁㅍㅏ	-10455
▁ㅎㅗㅇㅊㅏ	-10456
▁ㅁㅏㄹㄸㅜㄱ	-10457
▁ㅂㅗㄱㅅㅣㄱ	-10458
▁ㅊㅓㅇㄷㅗㅇ	-10459
▁ㄷㅗㅇㄸㅓㄹㅇㅓ	-10460
▁ㅍㅏㄴㄷㅏㄴㄹㅕㄱ	-10461
▁oh	-10462
▁ㅊㅓㄹㄱㅜ	-10463
▁ㄱㅡㅁㅈㅓㅇ	-10464
ole	-10465
▁ㄱㅗㄹㄷㅐ	-10466
▁ㄲㅏㅁㅃㅏㄱ	-10467
IO	-10468
ㄷㅗㄱㅅㅡ	-10469
▁every	-10470
▁ㄱㅏㅂㅈㅜ	-10471
▁ㅁㅣㅌㅂㅏ	-10472
▁ㅅㅜㄴㅊㅏ	-10473
▁ㄴㅔㄹㅅㅡㄴ	-10474
▁Legend	-10475
▁ㄹㅖ	-10476
▁ㅍㅕㅁ	-10477
▁ㄱㅏㄱㅈㅜ	-10478
▁ㅇㅕㅇㅅㅏ	-10479
95	-10480
ㅃㅓㄴ	-10481
▁ㅈㅓㄴㄱㅕㅇ	-10482
▁ㄴㅡㄴㅋㅓ	-10483
▁ㅊㅓㄱㅊㅜ	-10484
▁ㄱㅕㄹㄷㅏㄴ	-10485
ㅌㅡㄹㄹㅐㄴㅌㅏ	-10486
▁ㅎㅏㅇㄱㅗㅇㄷㅐ	-10487
▁ㅆㅐ	-10488
▁ㅁㅏㄱㅎㅕㅆ	-10489
ㅂㅏㄹㄹㅕㄱ	-10490
▁ㅅㅏㅇㅂㅏㄴㅅㅣㄴ	-10491
ONE	-10492
▁our	-10493
▁ㅂㅔㅅ	-10494
▁ㄱㅡㄱㄷㅗㅇ	-10495
▁ㄷㅗㅇㅅㅓㄴ	-10496
▁EXTRA	-10497
▁ㄱㅕㅁㅇㅣㅁ	-10498
▁ㄲㅡㅌㅇㅓㅄㅇㅣ	-10499
▁ㅅㅏㄴㅌㅗ	-10500
com	-10501
ㅇㅣㅁㅅㅜ	-10502
▁GAME	-10503
ㄱㅡㄴㄷㅜ	-10504
▁EXPER	-10505
▁ㄴㅗㄹㄹㅕ	-10506
▁ㄱㅕㅇㅁㅕㄹ	-10507
▁ㅅㅏㅇㅇㅣㅁ	-10508
▁950	-10509
▁ㅌㅗㅇㅍㅖ	-10510
▁Cor	-10511
▁ㅂㅜㄴㅍㅏ	-10512
▁ㅃㅗㅂㅎㅕㅆ	-10513
▁ㅂㅜㄱㄷㅗㅇ	-10514
▁440	-10515
▁Rad	-10516
ㄱㅗㄴㅈㅡ	-10517
▁ㅍㅏㄴㄱㅛ	-10518
▁Fre	-10519
▁TRA	-10520
▁ㅌㅔㄴㅌㅡ	-10521
▁MOD	-10522
▁ㅅㅣㄹㅁㅜㄹ	-10523
▁Ry	-10524
▁htm	-10525
▁ㅁㅗㄴㄷㅡ	-10526
▁Dest	-10527
ㅅㅓㅇㅎㅑㅇ	-10528
▁ㅌㅏㄴㅈㅗㅇ	-10529
▁ㅇㅣㄴㅈㅔ	-10530
▁ㅌㅏㅂㅅㅡㅇㅈㅏ	-10531
▁ㅅㅏㄴㅈㅣ	-10532
get	-10533
▁ㅇㅏㄹㅌㅡ	-10534
▁ㄷㅗㄱㅅㅗ	-10535
▁ㅁㅜㄴㅈㅣ	-10536
▁Aut	-10537
▁2021	-10538
arth	-10539
▁Fly	-10540
▁ㅅㅣㄴㅈㅗㅇ	-10541
▁ㅇㅓㄹㄹㅜㄱ	-10542
▁ㅂㅏㄴㅇㅕㄹ	-10543
▁Level	-10544
▁ㅋㅓㄹㅊㅓ	-10545
ㅅㅐㅇㅅㅓㅇ	-10546
▁ㅂㅏㄹㅂㅕㅇ	-10547
▁ㅎㅐㅆㄷㅏ	-10548
ㅁㅔㄴㅅㅕㄴ	-10549
▁ㅈㅓㄴㅎㅏㄴ	-10550
▁ㅈㅓㅇㅅㅣㄴㅈㅜㄹ	-10551
INAL	-10552
▁ㅎㅏㄴㄹㅠ	-10553
▁ㅇㅏㅍㅂㅜ	-10554
▁ㅁㅏㄴㄷㅏㅁ	-10555
▁TECHNIKA	-10556
▁Mac	-10557
▁ㅇㅑㅅ	-10558
▁Tech	-10559
▁down	-10560
▁ㅂㅜㄹㄱㅓ	-10561
▁ㅇㅏㄴㅈㅏㅇ	-10562
OTH	-10563
ㅅㅓㄴㄱㅓ	-10564
▁ㅇㅝㄴㄱㅏ	-10565
▁ㄷㅏㄹㄹㅣㄹ	-10566
▁ㅁㅣㄹㄹㅣㄴ	-10567
ㅌㅡㄱㄱㅣ	-10568
▁ㄷㅏㄴㅅㅜ	-10569
▁ㅈㅣㅂㄱㅔ	-10570
▁ㅇㅝㄴㅅㅜㄹ	-10571
▁ㅇㅣㅂㅅㅓㄱ	-10572
▁EXPERT	-10573
▁ㅈㅣㄱㅈㅗㅇ	-10574
▁ㅊㅣㄴㅅㅜㄱ	-10575
▁ㄱㅜㄱㅈㅣ	-10576
▁more	-10577
ㅈㅓㅇㅇㅜ	-10578
▁ㅂㅏㄹㄹㅕㅇ	-10579
▁ㅅㅓㄴㄷㅏㄴ	-10580
TER	-10581
▁214	-10582
▁ㄱㅏㅁㅁㅏ	-10583
▁ㄱㅘㅇㅈㅓ	-10584
▁**	-10585
ㅋㅓㄹㄹㅣ	-10586
▁ㄱㅗㅇㅇㅏㄴ	-10587
▁ㅁㅐㄴㅅㅗㄴ	-10588
▁ㅁㅕㅇㅈㅓㄹ	-10589
ㄴㅏㄴㄷㅔ	-10590
▁ㅈㅣㅇㅈㅣㅂ	-10591
▁=,	-10592
▁Port	-10593
▁ㄷㅏㄴㄷㅗ	-10594
▁ㄷㅗㄱㅅㅏㄹ	-10595
▁ㅁㅜㄹㅇㅡㅁ	-10596
ㅃㅗ	-10597
ㅎㅣㅁ	-10598
▁Pol	-10599
▁NATO	-10600
▁ㅅㅣㄱㄱㅜ	-10601
▁ㅅㅏㅇㅂㅏㄴ	-10602
▁ㄷㅏㄴㅊㅜㄱㅋㅣ	-10603
ㅅㅓㅇㅇㅓ	-10604
▁ㅇㅕㄱㄷㅗ	-10605
ㅎㅜㄴㄹㅕㄴ	-10606
▁ㅁㅗㄹㅇㅣㅂ	-10607
ano	-10608
▁TN	-10609
▁ㅅㅡㄹㅍㅡ	-10610
▁ㄱㅕㄴㅅㅡㅂ	-10611
▁ㅂㅜㄴㅅㅣㄹ	-10612
▁ㄴㅏㄱㅇㅑㅇ	-10613
ya	-10614
▁Ul	-10615
ㅅㅏㄴㄷㅡ	-10616
▁ESP	-10617
▁ㄱㅕㄴㄷㅕ	-10618
▁ㄴㅜㄴㅂㅗ	-10619
▁ㅅㅜㄴㅎㅘ	-10620
ORPG	-10621
ㄷㅔㄴㅌㅣ	-10622
ㅇㅑㄱㅅㅓ	-10623
▁ㅇㅝㄴㅊㅣ	-10624
▁ㅅㅡㅇㅇㅛㅇㅊㅏ	-10625
▁ㅅㅐㅇㅁㅗㄹㄴㅕㄴ	-10626
▁ㅌㅏㄴㅍㅣ	-10627
ㅋㅏㅇ	-10628
▁ㄱㅣㅂ	-10629
▁ㅇㅠㄱㅅㅣㄴ	-10630
▁ㅇㅣㄹㅁㅕㄴ	-10631
▁ㅎㅐㅆㅇㅓㅆㅇㅡ	-10632
▁ㅊㅏㅇㅂㅓㅂ	-10633
▁Hol	-10634
▁ㅍㅐㄴㄷㅓ	-10635
▁ㅅㅗㄱㅎㅐㅆ	-10636
▁ㅅㅓㄴㄹㅑㅇ	-10637
▁ㅇㅕㄴㅁㅜ	-10638
▁ㅊㅗㅇㅇㅐ	-10639
▁ㅇㅑㄱㅍㅜㅁ	-10640
ㄹㅏㅁㅈㅟ	-10641
▁ㅂㅏㄹㅈㅏ	-10642
▁ㅎㅕㅁㅎㅏㄴ	-10643
▁ㅎㅘㅇㅅㅐㄱ	-10644
▁ㅎㅚㅇㄹㅕㅇ	-10645
▁ㅈㅜㅇㅇㅏㅇㅇㅏ	-10646
enc	-10647
▁EXO	-10648
▁ㄱㅗㄹㅈㅓㄹ	-10649
▁ㅂㅜㄴㅈㅓㄴ	-10650
▁ㅎㅡㄹㄹㅕㅆ	-10651
ㅂㅜㄴㅌㅜ	-10652
▁ㄷㅔㄴㅇㅗ	-10653
▁ㅈㅐㄱㅅㅡ	-10654
▁ㅍㅜㅇㅁㅣ	-10655
ㅍㅔㄹㄹㅓ	-10656
▁ㄴㅗㅎㅇㅣㄴ	-10657
▁ㄷㅏㅅㅋㅓㅁ	-10658
▁ㅂㅣㅇㄱㅡㄹ	-10659
▁ㅎㅏㄴㅅㅣㄴ	-10660
ㅊㅜㅇㄹㅠ	-10661
▁ㅇㅑㅇㅁㅏㄹ	-10662
▁ㅃㅗㅁㄴㅐ	-10663
ㅎㅘㅇㅊㅓㅇ	-10664
ated	-10665
▁RGB	-10666
ㅅㅓㄹㅅㅜ	-10667
▁ㅁㅕㅇㅇㅓㄴ	-10668
66	-10669
▁ㄱㅣㅅㄷㅡㄴ	-10670
▁ㄷㅙㅆㅇㅓㅆ	-10671
ㅅㅏㄱㅅㅡ	-10672
▁ㅈㅓㅇㅎㅏㄴㄷㅏ	-10673
▁ㅋㅝㄴ	-10674
▁ㅎㅓㄴㅌㅡ	-10675
▁ㄱㅘㅇㅇㅑㅇ	-10676
ouble	-10677
▁ㅇㅔㄹㄹㅏ	-10678
ㅅㅏㄹㄹㅔㅁ	-10679
▁ㅈㅓㄴㅁㅕㄴㅈㅓㄴ	-10680
▁ㄱㅏㅁㅅㅗㄱ	-10681
▁ㅇㅣㄴㅂㅜㄴ	-10682
▁301	-10683
▁Hey	-10684
▁ㅂㅏㄹㅎㅏ	-10685
▁ㅇㅕㄹㅍㅗㄱ	-10686
GM	-10687
uro	-10688
▁WHIP	-10689
ㅇㅛㅇㅈㅣ	-10690
▁ㅅㅏㄴㅎㅗ	-10691
▁Line	-10692
ㅂㅜㄹㄹㅣ	-10693
▁ㄱㅗㄹㄷㅡㄴㄱㅡㄹㄹㅓ	-10694
▁ㄴㅏㅁㅎㅐ	-10695
▁ㅍㅣㅇㄱㅓ	-10696
ㄷㅗㅇㅁㅜㄹ	-10697
▁ㅇㅣㄹㅂㅕㅇ	-10698
▁ㅈㅏㄴㅈㅗㄴ	-10699
ague	-10700
▁!!"	-10701
ㅂㅜㄱㅇㅣ	-10702
ㅅㅓㄹㅁㅜㄹ	-10703
▁good	-10704
ㄹㅐㄴㅅㅓ	-10705
ㄷㅗㅇㅇㅕㄱ	-10706
irect	-10707
▁ㅅㅓㄴㄷㅗㅇㅇㅕㄹ	-10708
▁ㄱㅓㄴㅁㅏㄴ	-10709
▁ㅈㅓㅇㅍㅜㅁ	-10710
▁ㅎㅏㅂㅅㅜㄱ	-10711
▁ㅎㅏㄴㅇㅓㅄㅇㅣ	-10712
▁ㄴㅓㅅ	-10713
▁ㅂㅗㄲㅇㅡㅁ	-10714
▁ㅆㅏㅎㅇㅏㅆ	-10715
▁ㅇㅘㄴㄹㅕㄱ	-10716
▁410	-10717
ㅁㅍㅣㅇ	-10718
▁ㄱㅣㄹㄹㅣ	-10719
▁ㅊㅓㅂㅈㅏ	-10720
ㄷㅏㅇㅇㅕㄱ	-10721
▁ㅎㅕㄹㅇㅏㅂ	-10722
ther	-10723
ㄷㅗㄱㅈㅏ	-10724
▁ㅍㅜㅇㅅㅡㅂ	-10725
▁ㅃㅓㄴㅃㅓㄴ	-10726
▁ㅇㅕㄱㅎㅐㅇ	-10727
▁ㅅㅜㄴㅂㅏㄹㄹㅕㄱ	-10728
ㅇㅗㄹㄹㅕㅆ	-10729
▁ㅊㅗㅇㄱㅕㄱ	-10730
▁ㅇㅏㄹㄱㅗ	-10731
▁ㅇㅕㄱㅅㅔ	-10732
▁ㄱㅘㄴㅈㅓㄴ	-10733
ㄱㅏㄴㅈㅣ	-10734
▁ㄱㅕㅇㄱㅘㄴ	-10735
▁ㅈㅓㅂㅎㅏㄹ	-10736
▁ㅊㅜㄹㅇㅕㄴㅈㅏ	-10737
ITAD	-10738
▁Val	-10739
▁ㄱㅕㅇㅇㅡㅁ	-10740
▁ㅋㅘㄴ	-10741
ㅇㅜㄴㅈㅣ	-10742
▁white	-10743
ESS	-10744
▁765	-10745
▁ㅇㅓㅍㄷㅡ	-10746
▁ㅇㅘㅇㅈㅓㅇ	-10747
▁ㅂㅏㄴㅈㅜㄱ	-10748
▁208	-10749
▁watch	-10750
▁ㅈㅓㅇㅎㅐㅆ	-10751
▁ㅇㅘㅇㅅㅔ	-10752
▁ㄱㅡㅂㄱㅏㅁ	-10753
▁Fall	-10754
▁ㄱㅏㄴㄱㅘ	-10755
▁ㅂㅏㄴㅅㅣㄴ	-10756
be	-10757
we	-10758
▁ㅇㅕㅇㅈㅏㅇ	-10759
▁AW	-10760
ㅈㅓㅇㅉㅓㅇ	-10761
▁ㄱㅘㄴㄱㅓㄴ	-10762
▁ㅇㅕㄱㅈㅏㅇ	-10763
▁ㅊㅓㄹㅎㅏㄱㅈㅏ	-10764
▁Ant	-10765
▁Show	-10766
▁ㄹㅔㄹㄹㅡㅁ	-10767
▁ㄷㅗㄹㅂㅕㄴ	-10768
ㄲㅇㅣ	-10769
ㅅㅓㅇㅁㅣㄴ	-10770
ㅇㅘㄹ	-10771
▁ㅇㅣㄱㅅㅏㄴ	-10772
UND	-10773
▁ㅂㅜㄴㅂㅣ	-10774
▁ㅎㅡㄴㅊㅣ	-10775
▁ㅎㅏㄴㄱㅜㄱㅅㅏ	-10776
▁ㅅㅜㄱㅂㅏㄱ	-10777
▁ㅎㅗㄴㅈㅏㅂ	-10778
▁ㅎㅗㅇㄹㅕㄴ	-10779
▁Pop	-10780
▁Spring	-10781
▁ㅍㅔㄹㄹㅔ	-10782
▁ㄷㅗㅇㄱㅏㅇ	-10783
▁ㅍㅜㄹㅇㅣ	-10784
▁ㅅㅡㅇㅅㅡㅇㅈㅏㅇㄱㅜ	-10785
▁ㄱㅓㄹㄹㅓ	-10786
▁ㅁㅏㄱㅅㅡ	-10787
▁ㅈㅓㄴㄹㅣ	-10788
▁ㅊㅗㄱㅈㅣㄴ	-10789
▁ㅌㅏㄴㅅㅏㄴ	-10790
▁ㅌㅡㄱㅊㅘㄹㅁㅜㄹ	-10791
▁AO	-10792
▁CGV	-10793
▁Cal	-10794
ㄷㅗㅇㅈㅗ	-10795
▁ㅅㅓㅇㅇㅢ	-10796
▁ㅎㅕㄹㄱㅘㄴ	-10797
line	-10798
ㅂㅏㄱㄲㅗ	-10799
▁GITAD	-10800
ㄹㅣㅅㅅㅗㄱ	-10801
▁ㅇㅘㅇㅊㅏㅇ	-10802
und	-10803
ㄴㅗㅍ	-10804
▁010	-10805
▁ㅋㅓㄴㅍㅓ	-10806
48	-10807
ㅈㅣㄴㅇㅜ	-10808
▁ㅅㅓㅁㄸㅡㄱ	-10809
▁ㅁㅏㅇㅅㅣㄴ	-10810
▁ㅎㅐㅇㄹㅕㄹ	-10811
ck	-10812
▁ㅁㅗㅇㅋㅣ	-10813
▁Ind	-10814
▁ㄱㅕㅇㅇㅝㄴ	-10815
▁EL	-10816
▁ㅇㅑㄱㅎㅗㄴㅈㅏ	-10817
tor	-10818
▁ㅅㅏㅇㅅㅜ	-10819
▁ㅈㅣㄴㅎㅐㅇㅎㅏㄹ	-10820
▁Girls	-10821
▁ㅂㅕㄴㄱㅣ	-10822
▁ㅎㅑㅇㅅㅣㄴㄹㅛ	-10823
ㅍㅕㅇㄱㅜ	-10824
▁ㅋㅔㄹㅌㅡ	-10825
▁ㅋㅓㅁㅍㅡㄹㄹㅔㄱㅅㅡ	-10826
▁Dead	-10827
▁Kill	-10828
TH	-10829
▁ABC	-10830
▁ㅅㅓㄴㅅㅑ	-10831
▁ㅎㅘㅇㅍㅖ	-10832
▁ㅈㅓㅇㄱㅘㄴ	-10833
▁ㅂㅐㄱㅂㅕㅇㅈㅓㄴ	-10834
▁Way	-10835
ㄷㅜㄴㅈㅣ	-10836
ipedia	-10837
▁ㄷㅗㄹㄱㅗ	-10838
▁ㅇㅘㄴㅌㅜ	-10839
▁ㅈㅓㄱㄷㅗ	-10840
▁ㅂㅜㄴㄱㅕㅇ	-10841
▁ㄱㅏㄹㄱㅜㅁ	-10842
▁ㅅㅗㅇㄱㅗㅅㄴㅣ	-10843
▁ㄱㅘㄹㅎㅗ	-10844
▁ㅊㅗㅇㄱㅓㅁ	-10845
▁ㅋㅡㄹㄹㅓㄱ	-10846
▁ㄱㅗㅇㅇㅕㄴㅈㅏㅇ	-10847
▁ㅇㅠㄴㅈㅗㅇ	-10848
▁ㅊㅓㄴㅊㅏ	-10849
▁ㅇㅛㅇㄴㅏㅂ	-10850
▁ㄷㅚㅆ	-10851
▁ㄴㅣㅅㅅㅏㄴ	-10852
▁ㅎㅘㄴㅅㅜㄹ	-10853
ㅊㅠㄴ	-10854
▁Club	-10855
ㅇㅜㄴㅅㅡ	-10856
▁ㅇㅕㅇㄹㅕㅇ	-10857
▁ㅅㅣㄹㄹㅗㄱ	-10858
ault	-10859
▁ㅊㅜㅇㅇㅝㄴ	-10860
▁ㄱㅓㄴㅊㅜㄱㅁㅜㄹ	-10861
▁ㅂㅏㄱㅈㅣㄴㅇㅕㅇ	-10862
▁ㅈㅗㅇㅍㅏ	-10863
▁ㄱㅏㅇㄱㅜㄱ	-10864
▁ㅂㅜㅌㅇㅣㄹ	-10865
gy	-10866
▁How	-10867
▁ㄴㅗㅎㅇㅣ	-10868
▁ㅂㅗㄱㅅㅓ	-10869
ㅂㅏㅇㅇㅝㄴ	-10870
ㅁㅜㄹㄹㅓ	-10871
▁ㄴㅜㄴㅂㅜ	-10872
▁ㄷㅗㅇㅈㅏ	-10873
▁ㅎㅕㄹㅇㅕㄴ	-10874
ㅁㅐㅂ	-10875
▁ㅅㅣㄴㄱㅛ	-10876
▁ㅎㅘㄴㅅㅏㅇㅎㅑㅇ	-10877
ㄹㅔㄴㅌㅡ	-10878
▁ㅆㅡㄹㄹㅕ	-10879
▁ㅈㅏㄴㅇㅕ	-10880
ㄱㅓㄱ	-10881
▁ㄸㅏㄱㅈㅣ	-10882
▁ㅅㅡㅇㄴㅏㄱ	-10883
▁ㅋㅔㄴㅅㅣㄴ	-10884
▁HKT	-10885
▁Now	-10886
▁ㅅㅏㄴㅈㅓㄴ	-10887
ㅅㅣㅂㄹㅣ	-10888
ㅇㅑㄱㄱㅡㅁ	-10889
▁ㅇㅏㄴㅈㅔㄹㄹㅣ	-10890
▁ㅈㅏㄱㅈㅏ	-10891
ㅎㅐㅇㅈㅏㅇ	-10892
▁sk	-10893
▁ㅌㅠㄴ	-10894
▁ㅁㅕㅇㄱㅖ	-10895
▁ㄱㅏㅇㄷㅏㅇ	-10896
▁ㄴㅐㅇㅊㅓㄹ	-10897
▁ㅂㅏㅇㅈㅜ	-10898
▁ㅍㅜㅇㅅㅣㄴ	-10899
ㅅㅣㄹㅅㅏㅇㅂㅜ	-10900
▁ㅁㅕㅇㅅㅣㄹㅅㅏㅇㅂㅜ	-10901
▁Sam	-10902
▁WORLD	-10903
▁ㄱㅣㅅㄷㅡㄹ	-10904
▁ㅁㅗㅇㅎㅘㄴ	-10905
▁ㅇㅑㅇㅂㅜㄴ	-10906
▁ㅈㅏㅁㅅㅣㄱ	-10907
▁GITADORA	-10908
ㅋㅓㄹㄹㅗ	-10909
▁ㄱㅣㅁㅇㅡㅇ	-10910
▁ㅎㅜㄹㅉㅓㄱ	-10911
▁ㅅㅗㄱㅇㅣㅁㅅㅜ	-10912
▁ㅁㅓㄱㅇㅣㄹ	-10913
▁ㅅㅓㄴㅎㅏㄴ	-10914
▁GPS	-10915
▁Med	-10916
▁ㅁㅗㅁㅆㅏ	-10917
ㅊㅡㅁ	-10918
ㅃㅡㄹ	-10919
▁MOVIE	-10920
ㅁㅣㄴㅎㅗ	-10921
65	-10922
ling	-10923
▁ㅍㅓㅁㅇㅞ	-10924
▁Har	-10925
▁ㅁㅜㄱㅅㅣ	-10926
▁ㅈㅡㅇㅅㅣㄱ	-10927
▁SPEC	-10928
▁ㅇㅝㄴㄷㅐ	-10929
▁ㅅㅏㄴㅅㅏㄴㅈㅗ	-10930
▁ㄷㅏㅀ	-10931
ㅁㅜㄹㄹㅓㅆ	-10932
▁ㄱㅕㅇㅅㅏㄴ	-10933
▁ㅍㅗㄱㅇㅓㄴ	-10934
ㄴㅜㅂ	-10935
▁ㄱㅝㄴㅂㅓㅂ	-10936
ㅅㅓㄴㅇㅣㄹㅂㅗ	-10937
▁ㅅㅓㄹㄹㅣㅂㅈㅏ	-10938
▁ㄷㅗㄱㄹㅣㅂㅇㅜㄴㄷㅗㅇㄱㅏ	-10939
▁ㅋㅏㅂ	-10940
▁ㅋㅜㄱ	-10941
▁ㅍㅕㄴㅊㅏㄴ	-10942
▁Sweet	-10943
▁ㄱㅓㅁㄱㅓ	-10944
▁ㅇㅓㄺㅎㅣㄴ	-10945
▁ㅇㅠㄴㅅㅓㅇ	-10946
▁-!	-10947
▁ㅈㅓㅇㄱㅏ	-10948
▁ㄱㅕㅇㅎㅏㅂ	-10949
ayer	-10950
▁EXE	-10951
▁Death	-10952
▁ㄱㅗㄷㅈㅏㄹ	-10953
▁ㄱㅗㄷㅈㅏㅇ	-10954
▁ㅈㅏㅁㄷㅡㄴ	-10955
ㅇㅕㄴㅅㅜ	-10956
▁Space	-10957
▁ㅈㅓㄴㄷㅏㄴ	-10958
AV	-10959
▁Friend	-10960
▁ㅁㅗㄱㅅㅓㅇ	-10961
ㄷㅡㄹㄹㅓ	-10962
ㅍㅐㅇㅇㅣ	-10963
▁ㅎㅡㄱㄱㅣ	-10964
▁Def	-10965
ㅅㅗㅇㅇㅣ	-10966
▁ㄴㅏㅁㅅㅓ	-10967
▁ㅍㅕㄹㅊㅣㄴㄷㅏ	-10968
▁ㄱㅏㄹㅂㅣ	-10969
▁ㅂㅗㅇㅈㅣ	-10970
ㄱㅣㅍ	-10971
▁AAA	-10972
ㅈㅓㅇㄹㅣ	-10973
▁ㅇㅏㄴㅊㅣ	-10974
▁ㄱㅏㅇㅂㅜㄱ	-10975
iny	-10976
▁ㅉㅣㄹㄹㅕ	-10977
▁ㅆㅗㄱ	-10978
▁ㅅㅐㅇㅅㅗ	-10979
▁ㅎㅘㅇㅊㅓㄴ	-10980
ortex	-10981
ㅇㅕㄴㅇㅢ	-10982
ㅇㅠㄴㅇㅕㄹ	-10983
▁ㅍㅓㅇㅍㅓㅇ	-10984
▁ㅇㅓㄴㄹㅗㄴㅅㅏ	-10985
ASY	-10986
ㄸㅜㄹㅇㅓ	-10987
▁ㄴㅗㄱㅅㅡ	-10988
▁ㅎㅣㄴㄷㅜ	-10989
▁ㅈㅜㅇㄴㅏㅁ	-10990
ㅂㅓㄹㅇㅣ	-10991
▁ㅇㅐㄴㅌㅡ	-10992
ㄹㅏㅇㅋㅗ	-10993
▁ㄸㅗㄱㅂㅏ	-10994
▁ㅎㅘㄹㅂㅏㄹㅎㅣ	-10995
▁XG	-10996
ㄴㅛㅇ	-10997
▁NASA	-10998
ㅈㅓㄴㄹㅕㄱ	-10999
▁XI	-11000
▁ㅇㅏㄹㅁㅏ	-11001
▁ㅂㅏㄹㄹㅏㄹ	-11002
ㅅㅡㄹㄹㅏㄴㄷㅡ	-11003
ople	-11004
▁Park	-11005
▁ㅂㅓㄴㅉㅓㄱ	-11006
▁ISO	-11007
▁ㅊㅗㅇㅅㅜ	-11008
▁"'	-11009
▁HY	-11010
▁has	-11011
▁Hi	-11012
▁1937	-11013
▁ㅂㅏㅅㅈㅜㄹ	-11014
▁ㅈㅗㄱㅈㅗㄱ	-11015
▁ㅍㅜㅁㅁㅗㄱ	-11016
UK	-11017
▁KE	-11018
▁Story	-11019
▁ㅂㅕㄹㅈㅓㅁ	-11020
ander	-11021
▁MY	-11022
▁ㅋㅐㅁㅍㅣㅇ	-11023
▁bit	-11024
▁ㅃㅏㄴ	-11025
ental	-11026
▁Pass	-11027
ㅁㅜㄹㅅㅚ	-11028
▁DL	-11029
▁ㄱㅣㅁㅅㅣ	-11030
ㅅㅏㄴㅁㅕㄴ	-11031
▁ㅂㅏㄴㅇㅣㅂ	-11032
▁ㅂㅕㅇㅅㅏㄹㅌㅏ	-11033
▁ㅅㅣㅁㅂㅗㄹ	-11034
▁ㅍㅏㄴㅇㅣㄴ	-11035
▁If	-11036
ㄹㅓㄹㄷㅡ	-11037
▁ㅇㅏㄴㅈㅜ	-11038
ㅅㅣㄴㄹㅗㄴ	-11039
▁Sur	-11040
▁ㅇㅓㄴㄹㅣ	-11041
▁ㅇㅗㄹㄱㅏ	-11042
▁ㅈㅏㅇㅎㅘ	-11043
▁ㅅㅣㄴㅌㅏㄱ	-11044
▁EB	-11045
unk	-11046
▁Inv	-11047
▁ㄹㅣㄴㅋㅗ	-11048
ㅇㅏㅅㄱㅕㅆ	-11049
ㅍㅕㅇㅇㅕㄱ	-11050
ㄲㅗㄱ	-11051
▁223	-11052
▁ㅇㅕㅇㅅㅜ	-11053
▁Cha	-11054
ㄸㅓㄹㄲㅏ	-11055
▁MMORPG	-11056
uz	-11057
▁ㅃㅛㅇ	-11058
▁ㄱㅓㄴㄷㅏㄹ	-11059
▁ㅈㅣㄴㅍㅜㅇ	-11060
▁ㅅㅐㅁㅍㅡㄹㄹㅣㅇ	-11061
ㅇㅗㄹㄹㅔㅅ	-11062
▁ㅂㅜㄱㅂㅓㄹ	-11063
▁ㅅㅜㅁㄱㅕㄹ	-11064
▁min	-11065
ㄹㅐㅇㅋㅡㄹㄹㅣㄴ	-11066
▁ㄱㅜㄱㄱㅛ	-11067
▁ㅅㅗㅅㅇㅏ	-11068
▁ㅇㅣㄴㅍㅔ	-11069
ㄷㅗㅇㄱㅏㅇ	-11070
▁ㅊㅗㄱㅎㅏㄴ	-11071
▁ㅂㅏㄴㅉㅏㄱㅇㅣ	-11072
▁ㅂㅏㅇㅌㅏㄴㅂㅗㄱ	-11073
▁ㄷㅐㄱ	-11074
▁1934	-11075
▁ㄱㅏㄴㅈㅣㄱ	-11076
▁ㄱㅡㅁㅂㅣㅊ	-11077
▁ㅁㅣㄹㅊㅕ	-11078
▁ㅂㅜㄴㅅㅣㄱ	-11079
ㅋㅏㅅ	-11080
▁ㅈㅏㅇㅁㅜㄴ	-11081
▁ㄷㅡㅇㄹㅗㄱㄱㅡㅁ	-11082
str	-11083
▁ㅇㅕㅇㄷㅗ	-11084
▁ㅅㅣㄹㄱㅣ	-11085
▁ㅇㅣㄴㄱㅖ	-11086
▁ㅈㅏㅁㄱㅕ	-11087
▁ㅈㅜㅇㅅㅣㅁㅂㅜ	-11088
ㅊㅏㅇㅅㅣㄱ	-11089
▁ㄱㅓㄴㄴㅓㄹ	-11090
▁ㄷㅓㅁㅂㅡㄹ	-11091
▁ㄱㅕㅂㅊㅣㄴㄷㅏ	-11092
▁ㅌㅡㄱㄹㅖ	-11093
▁ㅇㅣㄴㅅㅜㄹ	-11094
ux	-11095
▁EPL	-11096
ope	-11097
▁ㅃㅓㄱ	-11098
ㅂㅣㄹㄹㅏ	-11099
▁ㄱㅡㅂㅅㅗ	-11100
▁ㅇㅏㄴㄷㅐ	-11101
▁ㅎㅏㄴㅁㅜㄴ	-11102
▁ㅈㅗㅇㅎㅚ	-11103
ㅎㅐㅇㄷㅏㄴ	-11104
▁ㅇㅕㄴㅈㅏㅇㅅㅓㄴ	-11105
ords	-11106
ㄹㅣㄴㅌㅓ	-11107
▁ㄱㅜㅇㅇㅖ	-11108
▁ㅁㅕㅇㅁㅐㄱ	-11109
▁ㄱㅜㄴㅅㅔ	-11110
▁Never	-11111
ㄱㅓㄹㅇㅡㅁ	-11112
▁ㅂㅏㄹㅇㅕㄹ	-11113
▁ㅊㅏㅇㄱㅏㄴ	-11114
▁ㅌㅏㄹㅇㅕㅇ	-11115
▁ㅎㅜㄴㄹㅕㄴㅂㅕㅇ	-11116
ley	-11117
▁ㅇㅔㅁㅂㅡㄹㄹㅓㅁ	-11118
▁Tra	-11119
▁John	-11120
ㄱㅣㅅㄱㅓ	-11121
▁ㅍㅐㄹㄹㅣ	-11122
ㄷㅡㄱㅎㅣ	-11123
▁ㄱㅗㅇㅎㅘㅇ	-11124
ㅂㅏㄱㅅㅏ	-11125
RAS	-11126
▁ㅂㅐㄱㄱㅘ	-11127
▁ㅈㅣㅂㅇㅛ	-11128
▁ㅇㅣㅂㅂㅓㅂ	-11129
▁ㅎㅏㄴㅇㅣㄴ	-11130
ㄹㅑㅇㄱㅣ	-11131
▁ㅂㅡㄹㄹㅜㅁ	-11132
▁ㅊㅓㄴㅁㅜㄴㅎㅏㄱ	-11133
▁ㅈㅏㅇㅂㅗ	-11134
ㅊㅏㄱㅁㅜㄹ	-11135
▁ㅇㅝㄴㅂㅏㄴ	-11136
ubl	-11137
▁ㅂㅐㄱㅎㅗ	-11138
▁ㅅㅓㅇㄹㅛㅇ	-11139
ㅅㅏㄴㄹㅣ	-11140
▁ㅇㅣㄹㅎㅚ	-11141
▁ㅌㅗㅂㄴㅣ	-11142
▁ㅂㅣㄴㅁㅣㄴ	-11143
▁ㅇㅕㄴㅁㅏ	-11144
▁ㄱㅝㄴㄹㅕㄱㅈㅏ	-11145
▁ㄷㅡㄱㅈㅓㅁㅈㅏ	-11146
▁wikipedia	-11147
▁ㄲㅏㄱ	-11148
▁ㄱㅘㄴㅎㅕㄴㅇㅏㄱ	-11149
▁ㅇㅠㄴㅅㅓㄱㅁㅣㄴ	-11150
▁di	-11151
▁Mer	-11152
▁ㄹㅡㅁ	-11153
▁ㄱㅣㅁㅅㅔ	-11154
▁ㄷㅗㄹㄱㅣ	-11155
▁ㄱㅏㅁㄱㅕㄱ	-11156
▁ㅌㅗㅁㅅㅡㄴ	-11157
▁Bro	-11158
ㄱㅏㄹㅅㅜ	-11159
▁ㅁㅏㅈㅇㅏ	-11160
▁ㅅㅏㄹㅍㅗ	-11161
▁ㅈㅓㄴㅈㅗ	-11162
▁ㄱㅜㅇㄱㅝㄹ	-11163
▁ㅅㅓㅇㅂㅜㄱ	-11164
▁ㅂㅓㄴㅇㅕㄱㅂㅗㄴ	-11165
▁ㅅㅗㄱㅊㅜㄹ	-11166
▁ㅇㅑㅇㅍㅏㄹ	-11167
▁Set	-11168
ㄱㅜㄱㅅㅣㄱ	-11169
▁there	-11170
▁ㄱㅡㅁㄷㅏㄴ	-11171
▁ㅇㅝㄴㄴㅏ	-11172
▁ㅎㅣㅁㄴㅐ	-11173
▁ㅁㅗㄱㅇㅛㄱㅌㅏㅇ	-11174
ㄴㅐㅂㄷㅡ	-11175
▁ㅉㅣㄹㄹㅣ	-11176
▁ㅍㅏㄱㅍㅏㄱ	-11177
▁ㅎㅗㅁㅍㅡㄹㄹㅓ	-11178
▁Cry	-11179
▁Will	-11180
▁ㅅㅗㄴㄷㅐ	-11181
▁Single	-11182
▁RT	-11183
▁ㄱㅒ	-11184
▁ㅇㅏㄴㄱㅜ	-11185
▁ㅎㅏㄴㅋㅠ	-11186
ㄱㅓㄹㅅㅡ	-11187
tain	-11188
udio	-11189
ㅂㅏㅇㅅㅓ	-11190
▁ㅅㅗㄱㅇㅏ	-11191
▁ㅇㅕㄴㅎㅕㄱ	-11192
▁ㅇㅣㅂㅎㅕㅆ	-11193
ㄴㅔㄹㄹㅣ	-11194
ㅅㅏㅇㅈㅜ	-11195
▁ㄱㅓㄴㅂㅏㅇ	-11196
▁ㄱㅗㅇㅁㅣㄴ	-11197
▁ㅅㅏㅁㄱㅏㄱㅎㅕㅇ	-11198
raft	-11199
▁ㅍㅜㄹㄹㅣㄴㄷㅏ	-11200
▁Party	-11201
▁ㄱㅕㄴㄷㅣㄹ	-11202
▁ㄲㅡㅌㄴㅐㄴ	-11203
▁LOL	-11204
▁Net	-11205
isode	-11206
▁ㅂㅏㄷㅊㅣㅁ	-11207
96	-11208
ㅎㅕㅇㅇㅜ	-11209
▁ㅎㅐㅇㅋㅡ	-11210
▁ㅇㅣㄹㅈㅓㄴ	-11211
ino	-11212
ㅁㅣㄹㅌㅓㄴ	-11213
▁ㅅㅏㅇㅊㅡㅇ	-11214
▁ㅅㅣㄴㅊㅓㄴ	-11215
▁WWF	-11216
▁life	-11217
ㅇㅏㄴㅂㅜ	-11218
▁ㅌㅏㄱㄱㅜ	-11219
▁ㅅㅓㅇㅈㅗㅇ	-11220
▁ㅇㅣㄹㅅㅣㄱ	-11221
▁ㅍㅐㅇㅊㅏㅇ	-11222
▁3500	-11223
▁ㄱㅓㅁㅊㅜㄹ	-11224
▁ㅇㅝㄴㅈㅓㅇㄷㅐ	-11225
▁ㅎㅘㄴㅅㅡㅇㅇㅕㄱ	-11226
▁OT	-11227
▁fr	-11228
▁ㅋㅐㅂㅊㅕ	-11229
ㅈㅕㅆㅇㅓㅆ	-11230
▁ㅅㅐㅇㅎㅘㄹㄱㅘㄴ	-11231
eed	-11232
▁ㅂㅏㄴㄹㅕ	-11233
ㅊㅜㄹㅇㅐㄱ	-11234
▁ㅅㅗㄱㅊㅣㅇ	-11235
▁ㅌㅗㅇㅌㅗㅇ	-11236
▁ㅎㅘㅇㄹㅛㅇ	-11237
ㄹㅜㄱㅅㅡ	-11238
ㅁㅏㄹㄹㅏ	-11239
ㅅㅣㄹㅅㅣㄴ	-11240
▁ㄱㅝㄴㅅㅗㄱ	-11241
▁ㄲㅡㄴㅈㅣㄹㄱㅣ	-11242
▁ㄸㅓㄱㅅㅣㄹㅅㅣㄴ	-11243
==	-11244
▁ㅅㅗㄱㅈㅜ	-11245
▁ㅇㅘㄴㅍㅐ	-11246
▁ㅋㅓㅁㅍㅏ	-11247
▁ㄲㅗㅁㄲㅗㅁ	-11248
▁ㅁㅏㄴㅅㅓㅇ	-11249
▁SHOW	-11250
▁ㅊㅓㅇㅎㅗㄴ	-11251
ㅅㅏㄴㅂㅜ	-11252
▁ㄹㅣㄹㄹㅔ	-11253
▁ㅎㅏㅅㅌㅗ	-11254
▁ㅎㅏㄴㅅㅜㄹ	-11255
ㅈㅗㅇㅅㅜ	-11256
ㅈㅓㄱㅈㅓㄹ	-11257
▁ㅎㅏㅁㅅㅓㅇ	-11258
▁ㅅㅡㅂㅎㅏ	-11259
ㄱㅗㄱㅇㅕㄱ	-11260
▁ㅇㅕㅇㅇㅜㅇㅈㅓㄴ	-11261
▁-.	-11262
▁ㅍㅕㄴㅊㅏ	-11263
▁ㅁㅣㄹㅈㅣㅍ	-11264
ement	-11265
▁ㄱㅜㄴㅇㅛㅇ	-11266
▁ㅅㅓㅇㅁㅜㄹ	-11267
ㄱㅐㅅㅅㅗ	-11268
▁ㅂㅏㄹㄷㅏㄴ	-11269
▁ㅈㅓㅁㅈㅏㅇ	-11270
▁ㄲㅓㅂㄷㅔ	-11271
▁ㅂㅗㄱㅍㅏㄴ	-11272
▁File	-11273
▁Gener	-11274
▁ㅂㅗㄴㅈㅓㅁ	-11275
▁ㅈㅏㄹㄹㅕㅆ	-11276
▁GU	-11277
▁ㄱㅏㄴㅈㅓㄹ	-11278
▁music	-11279
▁ㅇㅣㄴㅁㅣㄴㄱㅜㄴ	-11280
ㅇㅑㅇㄱㅖ	-11281
ㄷㅣㅈㅎㅕ	-11282
▁ㅇㅔㅁㅁㅏ	-11283
▁ㅈㅑㅇ	-11284
▁ㅍㅏㅌ	-11285
▁ㄴㅏㄴㄷㅗ	-11286
▁ㅇㅑㅇㅊㅓㄴ	-11287
▁ㅇㅕㄴㅇㅗㄱ	-11288
▁390	-11289
▁YG	-11290
ations	-11291
▁ㅇㅡㅁㅇㅕㄱ	-11292
rol	-11293
▁GE	-11294
▁hp	-11295
ball	-11296
▁USA	-11297
▁Hero	-11298
ㅅㅓㄹㅍㅡ	-11299
▁ㄷㅗㄱㄱㅗ	-11300
▁ㅇㅣㄱㅅㅏ	-11301
ㅈㅏㅇㅊㅏㅇ	-11302
▁ㅈㅏㅁㅈㅓㅇ	-11303
▁ㄱㅜㄷㅎㅣ	-11304
▁ㅂㅣㅅㅈㅏ	-11305
▁ㅅㅏㄹㅍㅣ	-11306
▁ㄱㅣㄹㄷㅗㅇ	-11307
BE	-11308
ㄷㅏㅇㄱㅣ	-11309
▁ㅈㅏㅁㄱㅡㅁ	-11310
▁ㅈㅓㅇㅂㅏㄱ	-11311
▁ㅎㅡㅂㅇㅣㅂ	-11312
▁ㅇㅡㄴㅅㅣㄴㅊㅓ	-11313
▁ㅎㅏㅂㄱㅕㄱㅈㅏ	-11314
▁ㅈㅓㅇㅅㅏㅇㄱㅡㅂ	-11315
▁ㅈㅣㄱㄱㅡㅂ	-11316
▁375	-11317
ㄷㅏㅅㄱㅏ	-11318
ㅇㅜㄹㅇㅣ	-11319
▁ㅇㅝㄴㄴㅐ	-11320
▁ㅂㅕㅇㅍㅜㅇ	-11321
▁252	-11322
ㅅㅣㄱㅈㅏ	-11323
▁ㅅㅜㄱㅈㅔ	-11324
▁ㅇㅕㄴㅎㅏㅂㄱㅜㄱ	-11325
▁ㅁㅓㄱㅎㅣㄴㄷㅏ	-11326
LY	-11327
ient	-11328
▁ㄹㅣㄴㅅㅡ	-11329
▁ㅅㅏㄴㅇㅛ	-11330
▁ㄱㅜㄴㅊㅓㅇ	-11331
▁ㅇㅣㄴㅌㅓㄴ	-11332
▁Ma	-11333
▁DSP	-11334
ㄴㅏㄹㄹㅣ	-11335
ㄷㅜㄹㄹㅣ	-11336
▁ㅁㅏㄱㅅㅣ	-11337
▁ㅎㅜㅁㅊㅣㄴ	-11338
▁ㅇㅣㄹㅉㅣㄱㅇㅣ	-11339
▁ㅈㅏㅇㅈㅏ	-11340
ㅎㅏㅇㄱㅜㄴ	-11341
▁ㅅㅣㄱㅇㅛㅇ	-11342
▁ㅇㅏㅂㄷㅜㄹ	-11343
ㄷㅔㅁ	-11344
ival	-11345
ㅈㅏㅇㅈㅏ	-11346
▁ㅇㅏㄴㅈㅡ	-11347
▁802	-11348
▁ㄴㅜㄴㅇㅕ	-11349
▁ㅂㅓㄴㅎㅘ	-11350
▁ㅁㅜㄹㅇㅡ	-11351
▁ㅈㅓㄹㅈㅔ	-11352
▁PM	-11353
oe	-11354
▁ㅂㅐㄱㅅㅓㄹ	-11355
▁ㅇㅗㄴㄹㅣ	-11356
ㅍㅏㄹㄱㅜ	-11357
▁ㅈㅜㅇㅍㅏ	-11358
▁ㅎㅏㅁㅇㅣㄴ	-11359
▁ㅇㅑㄱㅎㅐㅆ	-11360
ㅈㅔㅅ	-11361
ㅈㅏㄱㅁㅜㄹ	-11362
▁Christ	-11363
▁ㅅㅣㅂㅈㅜㅇ	-11364
▁ㅇㅏㄴㅇㅕㅇ	-11365
▁ㅍㅕㅇㅇㅗㄴ	-11366
▁ㅎㅗㄴㅇㅛㅇ	-11367
▁ㄱㅣㅁㅇㅕㄴㅇㅏ	-11368
ㅅㅏㄹㄹㅣ	-11369
▁ㅈㅓㅂㄷㅜ	-11370
ㅂㅕㅇㅎㅓㄴ	-11371
ㅌㅗㅇㅇㅣㄹ	-11372
▁pop	-11373
ㄷㅓㅇㅇㅓ	-11374
▁ㄷㅏㄹㄹㅕㄱ	-11375
▁ㅇㅕㄴㅁㅗㅅ	-11376
▁ㅅㅣㅂㅈㅜㅇㅍㅏㄹㄱㅜ	-11377
▁et	-11378
▁ㄱㅘㄴㄴㅐ	-11379
▁ㄷㅏㄹㄹㅔㄱ	-11380
▁ㄱㅏㅁㅇㅕㅁㅈㅏ	-11381
ㅂㅏㅇㄱㅘㄴ	-11382
▁ㅂㅗㄹㄹㅣㅇ	-11383
▁ㅇㅜㅇㅈㅏㅇ	-11384
▁DAY	-11385
▁BLACK	-11386
ㄲㅜㄹㅁㅓㅇ	-11387
▁ㅈㅏㅂㅎㅣㄴㄷㅏ	-11388
▁Tour	-11389
ㅁㅐㄱㄷㅏ	-11390
▁ㅅㅣㄹㄱㅕㄱ	-11391
▁ㅇㅣㄹㄱㅘㄹ	-11392
▁ㅊㅣㅂㅅㅔㅅ	-11393
▁ㅈㅒ	-11394
▁ㅂㅏㄹㅈㅣㄴ	-11395
▁ㅁㅏㅈㅊㅜㄴㄷㅏ	-11396
▁ㄱㅓㄴㄷㅐ	-11397
ㄹㅡㅂ	-11398
▁ㅁㅣㄹㅅㅜ	-11399
▁ㅎㅝㄴ	-11400
▁ㄱㅗㅇㅍㅕㅇ	-11401
▁ㅂㅏㄴㄴㅕㄴ	-11402
▁ㅅㅏㄹㄹㅕㅆ	-11403
▁Sou	-11404
ㅍㅗㄱㅍㅜㅇ	-11405
▁ㅅㅐㅇㅅㅣㄱ	-11406
▁ㅅㅔㅅㅅㅛ	-11407
▁ㅅㅜㄹㅈㅏ	-11408
▁ㅇㅡㄹㅅㅣ	-11409
▁ㅂㅕㄴㅊㅣㄱ	-11410
▁ㅃㅓㄴㅎㅏㄴ	-11411
▁ㅅㅣㄴㅎㅗㄴ	-11412
▁ㅇㅣㅂㅊㅏㄹ	-11413
▁ㅈㅓㅇㅈㅜ	-11414
▁ㅋㅓㅂㅅㅡ	-11415
▁ㅇㅡㄴㄷㅜㄴ	-11416
▁ㅊㅐㅇㄱㅕㅆ	-11417
▁ㅎㅗㄱㄷㅗㄱ	-11418
▁ㅇㅕㄴㅈㅏㅇㅈㅏ	-11419
▁216	-11420
▁ㄱㅘㄴㅅㅔ	-11421
▁ㄱㅣㅁㅈㅔ	-11422
▁ㅅㅡㄹㄹㅓㅁㅍㅡ	-11423
▁ㅇㅕㄴㅈㅏㅇㅈㅓㄴ	-11424
vil	-11425
▁YOU	-11426
ㅊㅓㄴㄹㅣ	-11427
▁ㄸㅏㅇㄱㅜㄹ	-11428
▁ㅂㅣㄴㄱㅗㄴ	-11429
▁ㅂㅗㅇㅅㅣㄴ	-11430
▁ㅎㅓㄴㄴㅏㅂ	-11431
▁ㄹㅣㅇㄱㅗ	-11432
onder	-11433
▁1935	-11434
▁ㄱㅡㅁㅅㅔ	-11435
ISS	-11436
▁ㅋㅡㄹㄹㅜ	-11437
▁ㄷㅡㄹㅇㅣㄴ	-11438
▁NV	-11439
▁ㅅㅏㄹㅇㅠㄱ	-11440
▁ㅇㅣㄴㅅㅏㅁ	-11441
▁\]	-11442
▁315	-11443
ㅇㅗㄹㄹㅗ	-11444
▁Storm	-11445
▁ㅅㅏㅁㅋㅕ	-11446
ㄴㅕㅁㄱㅘㄴ	-11447
▁ㅈㅓㅇㄱㅡㄴ	-11448
ㅈㅡㄱ	-11449
▁SKY	-11450
▁ㅇㅓㅁㅊㅣㄴ	-11451
▁ㅊㅗㅇㅅㅣㄴ	-11452
press	-11453
▁ㅅㅜㄱㅇㅣ	-11454
▁ㅅㅐㅇㅂㅏㅇㅅㅗㅇ	-11455
▁Hel	-11456
▁ㅁㅜㄹㄱㅕㄹ	-11457
▁SPECIAL	-11458
ㅁㅏㄴㅇㅣㄴ	-11459
▁ㄱㅣㅁㄴㅏㅁ	-11460
ㅈㅗㅇㅂㅕㅇㄱㅣ	-11461
▁ㅁㅕㄴㅊㅣ	-11462
une	-11463
▁ㅅㅣㄴㄹㅛㅇ	-11464
▁Sn	-11465
▁TA	-11466
▁ㅈㅏㅇㅇㅣ	-11467
▁ㅂㅓㅂㄹㅕㅇ	-11468
▁Take	-11469
▁ㅅㅡㅇㅈㅗ	-11470
▁ㅂㅓㄴㅇㅕㄱㄱㅏ	-11471
▁ㄴㅗㅎㅊㅕ	-11472
▁ㄱㅗㅇㅇㅛㅇㅇㅓ	-11473
▁ㅇㅕㅇㅊㅏ	-11474
▁ㅂㅏㄹㄱㅣ	-11475
▁ㅂㅜㄴㅊㅜㄹ	-11476
▁ㅍㅏㄹㄹㅣㄴ	-11477
ㅅㅑㅂ	-11478
ㅍㅏㄴㅈㅣ	-11479
▁ㅇㅡㅁㅈㅣㄹ	-11480
▁305	-11481
▁USS	-11482
▁ㄱㅣㅁㅎㅗ	-11483
▁ㅇㅣㄴㅈㅏㅇ	-11484
▁ㄷㅡㅇㅉㅏㄱ	-11485
▁ㅁㅏㄴㅇㅕㄴ	-11486
ㅇㅡㅁㅁㅓㄱ	-11487
▁ㅆㅏㅇㅂㅏㅇㅇㅜㄹ	-11488
ㅂㅣㅁ	-11489
▁ㅅㅐㅅ	-11490
▁ㅅㅔㄹㄹㅓ	-11491
▁ㅇㅏㄹㄹㅔㄴ	-11492
osh	-11493
▁op	-11494
ㄱㅜㅂ	-11495
▁Mon	-11496
▁cont	-11497
▁ㄱㅜㄱㅇㅚ	-11498
▁ㅅㅏㄹㅂㅓㄹ	-11499
▁ㄱㅏㅇㄴㅏㅁㅇㅕㄱ	-11500
▁1700	-11501
▁ㅂㅜㄹㄱㅜㄹ	-11502
▁1911	-11503
ㄲㅏㅌㅉㅗㄱ	-11504
ㄹㅜㅅㅂㅏㅁ	-11505
ㅂㅣㅇㄱㅡㄹ	-11506
▁ㅅㅏㅇㅅㅡㅇㅅㅔ	-11507
▁KN	-11508
▁ㄱㅝㄴㅌㅜ	-11509
ㅈㅓㅇㅁㅣㄴ	-11510
▁ㄱㅕㄱㅂㅜㄴ	-11511
▁sec	-11512
▁ㅅㅣㅂㄴㅣ	-11513
▁ㅁㅐㄴㅁㅗㅁ	-11514
▁ㄷㅔㄹㄹㅣ	-11515
▁ㅎㅐㄱㅍㅗㄱㅌㅏㄴ	-11516
▁555	-11517
▁Key	-11518
▁ㄱㅡㅇㅈㅣ	-11519
ㄱㅓㄴㅅㅓㄹ	-11520
▁ㅍㅏㄴㅂㅏㄱㅇㅣ	-11521
ta	-11522
▁ㄱㅕㅇㄹㅖ	-11523
ㅇㅑㅇㄱㅜㄴ	-11524
▁ACE	-11525
▁them	-11526
▁ㄱㅏㅁㅊㅝ	-11527
▁ㅅㅐㄴㄷㅓ	-11528
ㅈㅗㅇㅂㅓㅁ	-11529
▁ㄱㅓㄹㄹㅣㅁ	-11530
▁ㄱㅜㄴㅈㅏㅇ	-11531
ense	-11532
▁girl	-11533
▁ㅌㅗㅇㅇㅕㅇ	-11534
▁ㅂㅏㅇㅎㅑㅇㅋㅣ	-11535
▁ㅌㅏㄹㅂㅏ	-11536
▁ㅁㅣㄹㅈㅣㅍㅁㅗ	-11537
work	-11538
▁ㅎㅜㄴㄹㅕㄴㅈㅏㅇ	-11539
ider	-11540
▁ㄱㅘㄴㅎㅏ	-11541
ㄴㅕㄴㄷㅏㄴ	-11542
▁ㅁㅗㅁㄱㅏㅄ	-11543
▁ㅅㅜㄱㅈㅗㅇ	-11544
▁ㅎㅕㄴㅈㅗㅇ	-11545
▁ㅅㅏㄹㅇㅣㄴㅂㅓㅁ	-11546
▁MH	-11547
▁Que	-11548
▁vol	-11549
ㅊㅗㅇㅅㅏ	-11550
▁ㅁㅣㄹㅋㅡ	-11551
▁ㅂㅏㅁㅅㅐ	-11552
▁ㅂㅐㄱㅂㅏㄹ	-11553
▁ㅅㅣㄹㄹㅣㄴㄷㅓ	-11554
▁BMS	-11555
▁Sol	-11556
▁1919	-11557
ㄴㅏㄹㄹㅔ	-11558
▁ㅎㅑㅇㅎㅐㅆ	-11559
▁ㄱㅡㅁㅊㅓㄴ	-11560
▁ㅇㅓㅄㅇㅡㅁ	-11561
▁ㄲㅣㄹ	-11562
▁ㅆㅣㄹ	-11563
▁ㅂㅓㅅㄱㅣ	-11564
▁ㅈㅗㄴㄱㅣ	-11565
ㅅㅜㅍ	-11566
▁ㄱㅏㅁㅁㅕㅇ	-11567
onic	-11568
ㅅㅡㅇㅎㅗ	-11569
▁ㅅㅏㅇㅅㅓ	-11570
▁ㅇㅔㄹㄹㅔㄴ	-11571
▁ㅈㅓㅇㄱㅜㄱ	-11572
ㅊㅜㄴㄱㅣ	-11573
▁ㅁㅣㄹㄱㅏ	-11574
▁ㅂㅜㄹㅅㅣ	-11575
▁Cortex	-11576
▁ㅇㅑㅇㅇㅠㄱ	-11577
ㅈㅣㅂㄴㅣ	-11578
▁ㅇㅔㄹㄹㅣㄱ	-11579
▁PG	-11580
ori	-11581
▁ㅅㅓㄴㅇㅠㄹ	-11582
▁ㅂㅗㄱㄱㅏㄱ	-11583
▁end	-11584
▁ㄷㅟㅅㄷㅏㅁ	-11585
▁ㅂㅜㄹㅁㅕㅇㅇㅖ	-11586
ㅈㅓㄹㄹㅗ	-11587
▁Skill	-11588
▁ㄴㅏㅁㄷㅏ	-11589
▁ㅇㅑㅇㄷㅓㄱ	-11590
▁ㅈㅓㄴㄷㅗㅇ	-11591
idd	-11592
▁ㅁㅕㄱㅅㅏㄹ	-11593
▁ㅁㅣㄴㅅㅣㅁ	-11594
▁ㅅㅣㄴㅈㅣㄴ	-11595
▁ㄱㅜㅇㅈㅓㅇ	-11596
▁ㄱㅝㄴㅎㅕㄱ	-11597
▁ㅁㅗㄱㅈㅏㅇ	-11598
▁youtube	-11599
▁html	-11600
ㅇㅣㄴㅅㅣ	-11601
▁ㅅㅗㄴㄱㅣㄹ	-11602
▁ㅈㅓㄴㄱㅡㄴ	-11603
▁ㅌㅏㄴㄹㅕㄱ	-11604
▁Dem	-11605
▁ㅇㅓㄹㄹㅕ	-11606
▁ㅁㅓㅁㅊㅜㄹ	-11607
▁ㅌㅐㅁ	-11608
▁ㄱㅕㄱㄴㅏㅂㄱㅗ	-11609
36	-11610
ㅎㅝㄴ	-11611
ㅅㅡㅇㄱㅣ	-11612
▁ㄷㅗㄱㅈㅜ	-11613
ㅁㅏㄴㅇㅡㄴ	-11614
▁ㄷㅗㅅ	-11615
ELL	-11616
orth	-11617
▁ㅈㅏㄴㅊㅣ	-11618
▁ㅇㅕㄴㅍㅣㄹ	-11619
ible	-11620
▁0000	-11621
▁ㄱㅝㄴㅅㅜ	-11622
▁ㄱㅣㅁㅅㅣㄴ	-11623
▁ㄱㅣㅁㅎㅏㄴ	-11624
▁ㅁㅐㅇㄹㅕㄹ	-11625
▁!!!!	-11626
▁TRPG	-11627
▁ㅇㅓㄺㅎㅣ	-11628
br	-11629
apan	-11630
▁JD	-11631
▁666	-11632
ami	-11633
▁say	-11634
▁ㅇㅏㄹㅌㅔ	-11635
▁ㅈㅗㅇㅅㅗㄱ	-11636
▁1910	-11637
ㅅㅔㄴㅌㅓ	-11638
▁Great	-11639
▁ㅇㅡㄴㅇㅣㄴ	-11640
▁ㄱㅕㄹㅈㅓㅇㅌㅏ	-11641
ㄷㅗㄹㄹㅣㄴ	-11642
▁ㄷㅗㅇㅂㅐㄱ	-11643
▁ㅂㅜㄴㄷㅏㄴ	-11644
▁ㅎㅐㅆㅇㅡㄹㅈㅣ	-11645
▁ㅇㅕㄴㅅㅏㄴㄱㅜㄴ	-11646
ㅇㅣㄹㅂㅣ	-11647
▁MUSIC	-11648
▁ㅁㅗㄹㄷㅜ	-11649
▁ㅊㅏㅇㅊㅜㄹ	-11650
88	-11651
ㅈㅓㅅ	-11652
▁Die	-11653
▁IEM	-11654
▁ㅈㅏㄹㄴㅏㄴ	-11655
▁ㄱㅏㄺ	-11656
▁ㄴㅗㄹㄹㅏㄴㄷㅏ	-11657
▁MI	-11658
▁ㅅㅣㄴㅎㅐ	-11659
▁ㅅㅣㄹㄹㅖ	-11660
▁ㅇㅣㄴㅇㅟ	-11661
▁ㅂㅏㄱㄷㅗㅇ	-11662
▁ㅈㅣㄱㅈㅣㄴ	-11663
▁ㅎㅘㄹㄹㅕㄱ	-11664
▁Univers	-11665
▁ㅂㅜㄴㅇㅑㅇ	-11666
▁ㅈㅣㄴㅁㅕㅇ	-11667
WAR	-11668
▁FS	-11669
▁XIII	-11670
▁ㅅㅣㄴㅁㅏ	-11671
▁ㄴㅏㅁㄱㅜㅇ	-11672
▁ㅂㅏㄴㅊㅏㄴ	-11673
▁ㅂㅜㄴㄷㅏㅁ	-11674
▁ㅊㅏㅆ	-11675
▁ㄱㅏㅇㄱㅣ	-11676
▁ㅁㅕㅇㅈㅣ	-11677
▁ㅂㅏㄹㅅㅓㅇ	-11678
▁ㅍㅓㄴㅌㅡ	-11679
▁ㅇㅕㅇㄹㅕㄱ	-11680
▁ㅂㅣㅇㅎㅏ	-11681
▁ㅅㅜㄴㄱㅛ	-11682
▁ㅎㅏㄴㅁㅣ	-11683
▁ㅈㅣㅇㅂㅓㄹ	-11684
▁NR	-11685
ㄱㅕㅇㅈㅣ	-11686
▁ㅇㅕㄴㄷㅜ	-11687
▁ㅈㅏㅇㅈㅗ	-11688
▁ㅇㅝㄴㅊㅔ	-11689
ATE	-11690
ㄹㄹㅣㅁ	-11691
▁want	-11692
▁ㅁㅜㄹㄷㅡㄹ	-11693
▁ㅇㅕㄱㅇㅣ	-11694
▁ㅊㅗㅇㅍㅕㅇ	-11695
▁ㄱㅜㄺㅈㅣㄱ	-11696
▁ㄱㅣㅁㅇㅡㄴ	-11697
▁ㄴㅏㅁㄷㅐ	-11698
▁ㅅㅣㄴㅌㅐ	-11699
▁Apple	-11700
▁Real	-11701
ㅁㅣㅇㄱㅗ	-11702
ㄷㅏㄹㄹㅣㄴ	-11703
▁ㄹㅕㄹ	-11704
▁ㅊㅜㅇㅅㅣㄴ	-11705
▁ㅊㅜㅇㅅㅣㄹㅎㅏ	-11706
▁ㅇㅏㅂㅅㅜ	-11707
▁Winter	-11708
▁ㄱㅘㅇㄷㅗㅇ	-11709
▁ㅇㅑㅇㅈㅓㅇ	-11710
▁Like	-11711
ㅎㅏㄴㅈㅔ	-11712
▁ㅅㅗㄱㅈㅚ	-11713
▁ㅎㅠㅇㄴㅗ	-11714
▁ㄱㅗㄹㄹㅏㅆ	-11715
▁ㅂㅕㄹㅂㅏㄴ	-11716
▁ㅇㅠㄱㅌㅏㄴ	-11717
▁501	-11718
▁Shad	-11719
▁ㄱㅕㄴㄱㅗ	-11720
▁ㅂㅜㄹㅅㅏㅇㅅㅏ	-11721
▁249	-11722
ㅇㅜㅅㅅㅏ	-11723
▁ㄷㅗㄴㄷㅏ	-11724
▁ㄴㅏㅊㅅㅓㄴ	-11725
▁ㅁㅜㄱㅁㅜㄱ	-11726
▁ㅂㅗㄴㅇㅓㅂ	-11727
▁ZERO	-11728
▁ㄴㅔㄱㅌㅏ	-11729
▁ㅈㅡㅇㅍㅛ	-11730
▁ㅁㅓㄱㅇㅣㄴ	-11731
▁ㅎㅙㅅㅂㅜㄹ	-11732
▁ㅈㅗㅇㅊㅏㄱㅇㅕㄱ	-11733
▁ARC	-11734
▁ㅁㅓㄱㅂㅏㅇ	-11735
▁416	-11736
▁ㄴㅜㄴㅁㅐ	-11737
▁ㅂㅏㄹㅂㅓ	-11738
▁ㅈㅣㄱㅅㅓㄹ	-11739
▁430	-11740
▁ㅅㅛㄹ	-11741
▁stay	-11742
▁ㅎㅏㅁㅇㅠ	-11743
ㄱㅡㅂㅈㅏㅇ	-11744
ㅅㅓㄱㅈㅣㄴ	-11745
▁ㄲㅡㄶㄱㅕㅆ	-11746
ude	-11747
ㄷㅏㅇㄱㅕ	-11748
ㅇㅣㄴㅅㅠ	-11749
▁ㅅㅓㅇㄱㅖ	-11750
▁ㅇㅡㅁㅈㅓㄹ	-11751
▁Step	-11752
ㅇㅜㄱㄷㅓ	-11753
▁ㅁㅕㅇㄹㅏㅇ	-11754
▁ㅈㅓㄴㅇㅣㄹ	-11755
ㅇㅠㅇㅎㅏㅂ	-11756
ㄱㅏㄹㅇㅓ	-11757
▁ㄱㅏㅁㅊㅏ	-11758
▁ㄴㅗㅇㅅㅓㅇ	-11759
▁ㅇㅛㅇㅅㅣㄴ	-11760
▁ㅎㅐㄱㅇㅠㅇㅎㅏㅂ	-11761
uture	-11762
▁ㅂㅏㄹㅍㅗ	-11763
▁ㅅㅗㄴㄱㅕㄴ	-11764
▁ㅋㅗㅁㅍㅡㄹㄹㅔㄱㅅㅡ	-11765
so	-11766
ames	-11767
▁Force	-11768
▁ㅇㅏㄴㅈㅣ	-11769
▁ㅅㅏㅇㄱㅡㅂㅈㅏ	-11770
▁Mad	-11771
▁part	-11772
▁Trans	-11773
▁ㄴㅓㅁㄱㅣㄴㄷㅏ	-11774
ㅌㅐㄴㄹㅣ	-11775
▁ㅇㅘㅇㄱㅝㄴ	-11776
▁ㅍㅜㄹㅌㅏ	-11777
▁Champions	-11778
de	-11779
ㄱㅡㅂㅅㅏ	-11780
ㅅㅣㄴㅈㅓ	-11781
▁ㄴㅗㄴㅎㅏ	-11782
▁ㅎㅔㄹㅅㅣㅇ	-11783
▁nm	-11784
▁ㄷㅜㅇㄱㅡㄴ	-11785
▁UTC	-11786
▁ㅇㅕㅇㅈㅓㅇ	-11787
▁ㅁㅜㄴㅎㅗ	-11788
▁ㅂㅐㄱㅁㅗ	-11789
▁ㅅㅏㄴㄷㅡ	-11790
▁ㅅㅓㅂㅈㅓㅇ	-11791
▁ㅈㅣㄹㄹㅓㅅ	-11792
ㅇㅓㄵ	-11793
▁Road	-11794
ㄱㅏㅇㄷㅐ	-11795
▁ㅇㅏㅇㅅㅏㅇ	-11796
ㅂㅡㄹㄹㅓ	-11797
▁ㄱㅏㅁㅊㅏㄹ	-11798
▁ㅅㅗㄴㅅㅐㄱ	-11799
▁ㄱㅑㅇ	-11800
▁ㅁㅗㄱㄷㅗ	-11801
▁Je	-11802
▁war	-11803
▁Feel	-11804
light	-11805
▁ㅅㅓㅁㅁㅓ	-11806
▁ㅅㅜㄱㅂㅜ	-11807
▁ㅎㅓㄹㄹㅣ	-11808
▁ㅎㅘㅇㄴㅕ	-11809
▁ㄱㅜㄴㅍㅗ	-11810
▁ㅂㅓㄹㄹㅕ	-11811
▁ㅅㅣㄴㅇㅗ	-11812
▁ㅂㅏㄴㅂㅏㄴ	-11813
▁ㅅㅓㄹㄹㅣ	-11814
▁ㅌㅗㅇㅈㅗ	-11815
▁ㅈㅗㅇㅂㅏㄴ	-11816
ㅁㅜㅁ	-11817
ㄹㅏㄴㄷㅗ	-11818
▁ㅅㅏㄱㅅㅡ	-11819
▁ㅈㅣㄹㅊㅐㄱ	-11820
▁ㅂㅏㄹㅈㅜ	-11821
▁ㄱㅘㅇㄹㅏㄴ	-11822
▁2022	-11823
▁ㅁㅏㄴㅈㅕ	-11824
ㅁㅏㄴㅂㅕㄹ	-11825
▁ㅅㅓㅇㅂㅜㄹ	-11826
▁ㅈㅓㅇㅈㅣㄴ	-11827
▁ㅊㅗㄴㅈㅏㅇ	-11828
▁ㅊㅗㅅㅂㅜㄹ	-11829
▁ㅇㅠㄴㅎㅚ	-11830
ㄴㅕㅆㅇㅡ	-11831
bum	-11832
▁Ag	-11833
ㅁㅜㄴㅈㅓㅁ	-11834
▁ㅇㅘㅅㅅㅡㄴ	-11835
▁ㅎㅘㄴㄱㅘㄴ	-11836
▁ㅅㅏㅁㅊㅗㅇㅅㅏ	-11837
▁Av	-11838
▁ㅈㅓㄱㅇㅢ	-11839
ㅈㅏㅇㅁㅕㄴ	-11840
▁ㅎㅐㄴㄷㅣ	-11841
ㅅㅓㄴㅇㅘㅇ	-11842
▁325	-11843
▁Bu	-11844
▁Gal	-11845
ㅌㅗㅇㅂㅜ	-11846
44	-11847
ital	-11848
ㅇㅝㄴㄱㅜㄱ	-11849
▁ㄱㅕㄹㅅㅗㄱ	-11850
▁ㅂㅏㅇㅈㅓㄴ	-11851
▁ㅇㅕㄹㄷㅡㅇㄱㅏㅁ	-11852
▁VI	-11853
▁add	-11854
▁ㅇㅕㅍㅈㅣㅂ	-11855
ㅍㅜㅅ	-11856
▁Her	-11857
ㄹㅓㄴㄱㅏ	-11858
▁ㅍㅏㄴㅌㅔ	-11859
▁ㄱㅡㅁㅁㅜㄹ	-11860
▁ㅎㅓㄴㅂㅕㅇ	-11861
ㄱㅜㅈ	-11862
ㄱㅗㅅㅈㅓ	-11863
ㅈㅓㄴㄷㅓ	-11864
▁ㅆㅓㅆㅇㅡ	-11865
▁ㅈㅓㄱㅈㅏㄶ	-11866
▁ACT	-11867
ㅂㅐㅇㅇㅣ	-11868
▁ㅊㅓㄴㄹㅛㅇ	-11869
ㅋㅟㄴ	-11870
▁EASY	-11871
ㅇㅜㄹㅇㅓ	-11872
▁ㅁㅏㅇㅇㅝㄴㄱㅕㅇ	-11873
▁ㅅㅗㅇㄹㅏ	-11874
ㅂㅡㄹㄹㅏㅇ	-11875
▁ㄴㅗㅎㅊㅕㅆ	-11876
▁ㅊㅓㅇㄱㅏㄱ	-11877
▁SDRAM	-11878
▁ㅇㅓㄺㅎㅕ	-11879
▁ㅇㅗㄴㅇㅢ	-11880
▁ㅇㅏㄹㄹㅣㄴ	-11881
▁ㅇㅕㅆㅇㅡㅁㅇㅔ	-11882
▁Mal	-11883
▁ㄱㅜㄷㄱㅓㄴ	-11884
▁ㅂㅏㅇㅁㅏㅇㅇㅣ	-11885
▁ㅂㅗㄹㅌㅣ	-11886
ㅅㅣㄱㅇㅣㄴ	-11887
▁ㅅㅣㄱㅋㅏㄹ	-11888
ㅌㅏㄹㄹㅗ	-11889
▁ㅇㅝㄴㅅㅓ	-11890
▁ㅇㅜㅇㅈㅣㄴ	-11891
21	-11892
▁CON	-11893
▁pack	-11894
▁ㅂㅓㅁㅎㅏ	-11895
▁ㅂㅓㅂㅈㅗ	-11896
▁ㅋㅗㄴㅌㅡ	-11897
▁ㅈㅣㄱㅅㅏ	-11898
▁CU	-11899
▁ㅎㅗㅂ	-11900
▁ㅅㅏㅇㄷㅣ	-11901
ㅁㅗㄱㅁㅣㄴ	-11902
▁ㅇㅕㅇㅍㅏㄴ	-11903
▁ㅇㅑㅁㅈㅓㄴㅎㅣ	-11904
▁ㅈㅓㄴㅎㅏㄴㄷㅏ	-11905
anger	-11906
▁ㅈㅓㄱㅇㅚ	-11907
▁ㅌㅏㄹㅁㅗ	-11908
▁Knight	-11909
▁ㄷㅗㅇㅁㅐㅇㄱㅜㄱ	-11910
▁gu	-11911
▁ㄴㅗㄹㄹㅏㄹ	-11912
▁ㅁㅕㅇㅅㅐㄱ	-11913
▁213	-11914
ㅍㅔㄴㅅㅕㄴ	-11915
ㄱㅏㄴㅈㅔ	-11916
▁ㄴㅗㄴㅇㅚ	-11917
▁ㅂㅜㅌㅈㅏㅂㅎㅣㄴ	-11918
▁Pa	-11919
▁640	-11920
ㅂㅏㄹㄹㅣ	-11921
▁ㅂㅓㄴㅇㅚ	-11922
▁ㅊㅣㄴㅂㅜ	-11923
▁ㅂㅓㄴㄷㅡㄹ	-11924
▁ㄴㅔㅅㅉㅐ	-11925
▁ㅁㅜㄲㅇㅣㄴ	-11926
▁ㅅㅣㄴㅎㅕㅇ	-11927
▁ㅎㅗㄴㅈㅗㅇ	-11928
lex	-11929
▁Doc	-11930
▁SSD	-11931
ㅅㅗㄱㅅㅓㄴ	-11932
ㅈㅓㄱㅍㅏㄴ	-11933
▁ㅂㅏㄹㄷㅏㅇ	-11934
DDR	-11935
ㅅㅏㄴㅎㅘ	-11936
ㅎㅏㅁㅁㅏ	-11937
▁ㅅㅗㄴㅈㅏㅂ	-11938
▁ㅇㅕㄴㅁㅏㄱㅌㅏㄴ	-11939
▁mg	-11940
ㄹㅣㄹㄹㅓ	-11941
ㅎㅓㅁㅈㅏㅇ	-11942
▁ㅇㅕㄹㄹㅣㄹ	-11943
▁ㄷㅏㄴㄱㅕㄹ	-11944
▁ㅅㅓㅇㅁㅐ	-11945
ㅈㅣㄹㄱㅏㅁ	-11946
▁ㅇㅕㄱㅈㅓㅇ	-11947
▁ㅊㅓㅇㄹㅏ	-11948
ㅋㅗㅂ	-11949
▁ㄴㅐㅁㅂㅣ	-11950
ㅎㅕㄴㅇㅕㄱ	-11951
▁again	-11952
▁ㅇㅣㄴㄷㅐ	-11953
ㅈㅏㄱㅂㅓㅂ	-11954
▁ㄱㅜㄱㅎㅏㄴ	-11955
ㄲㅗㅇ	-11956
elie	-11957
▁ㅍㅗㄱㅈㅜㄱ	-11958
WS	-11959
▁Vita	-11960
ㄷㅐㄴㄷㅏ	-11961
ㅅㅓㅇㄱㅜ	-11962
▁Heaven	-11963
▁ㄱㅓㅁㅂㅓㅂ	-11964
▁ㄱㅡㄱㅁㅕㅇ	-11965
▁ㅁㅣㄴㅁㅏㅇ	-11966
fl	-11967
▁art	-11968
▁ㅈㅟㄴ	-11969
ㄱㅘㅇㅇㅣ	-11970
▁ㅋㅏㄱㅌㅔ	-11971
ㅂㅓㅇ	-11972
ㅅㅓㄲ	-11973
▁265	-11974
ㅈㅣㄴㅈㅏㅇ	-11975
▁ㄷㅗㄹㅂㅏㄹ	-11976
▁ㄷㅜㄴㄱㅏㅂ	-11977
▁ㅌㅏㅁㅎㅓㅁㄷㅐ	-11978
▁ㅁㅐㅇㄷㅗㄱㅊㅜㅇ	-11979
▁HA	-11980
▁228	-11981
ㅇㅠㄴㅅㅜ	-11982
▁ㅂㅜㄹㄱㅣ	-11983
▁ㄱㅕㅇㅂㅗㄱ	-11984
▁ㅍㅏㄹㅋㅗㅁ	-11985
▁ㅍㅗㄱㄹㅏㄱ	-11986
▁Tom	-11987
▁ㅁㅔㅇㅅㅡ	-11988
▁ㅍㅕㅁㅎㅏ	-11989
ㅂㅣㄴㅅㅡㄴ	-11990
▁ㅅㅜㄴㅈㅗㅇ	-11991
▁iP	-11992
ㅂㅐㄱㅎㅗ	-11993
▁ㄸㅏㄴㅈㅣ	-11994
▁ㅇㅣㅂㄷㅏㅇ	-11995
ㅅㅓㅇㅈㅏㅇ	-11996
hem	-11997
▁ad	-11998
▁Come	-11999
▁ㅁㅣㄴㅅㅜ	-12000
▁ㅈㅏㅇㄹㅕ	-12001
▁ㅈㅜㅇㅇㅛㅇ	-12002
▁ㅂㅣㅇㄱㅡㄹㅂㅣㅇㄱㅡㄹ	-12003
▁Luc	-12004
▁ㅈㅓㅇㅁㅜ	-12005
▁ㅊㅏㅁㅊㅣ	-12006
▁ㄱㅘㅇㅁㅕㅇㅅㅣ	-12007
▁ㅎㅕㄴㅅㅜ	-12008
▁ㅅㅣㄹㄱㅝㄴ	-12009
reet	-12010
▁ㄹㅗㄹㄹㅣ	-12011
▁Days	-12012
▁ㅈㅓㄱㄱㅜㄱ	-12013
▁ㅍㅣㄹㅁㅕㅇ	-12014
▁only	-12015
ㅌㅐㄱㄱㅏ	-12016
▁ㅇㅕㅇㅌㅗㅇ	-12017
OWN	-12018
▁234	-12019
▁ㅍㅐㅅ	-12020
ㅍㅡㄹㄹㅣㄴ	-12021
▁ㅈㅏㄴㅈㅏㄴ	-12022
▁ㅇㅣㅂㅎㅏㄱㅅㅣㄱ	-12023
▁VF	-12024
▁ㅎㅕㅂㅈㅜ	-12025
67	-12026
▁002	-12027
▁LPDDR	-12028
ㄱㅏㄱㅅㅏㅇ	-12029
▁System	-12030
▁ㄱㅏㄹㅁㅏㅇ	-12031
▁ㅇㅜㄹㄹㅡㅇ	-12032
icle	-12033
▁heart	-12034
▁ㅈㅓㄱㄴㅏ	-12035
▁ㄷㅏㅇㅈㅣㄴ	-12036
▁ㄱㅏㅇㅁㅣㄴㅎㅗ	-12037
▁ㅍㅔㄹㄹㅣㄱㅅㅡ	-12038
▁AH	-12039
ㄹㅏㄱㅅㅏ	-12040
ㅅㅡㄹㄹㅏㅁㄱㅛ	-12041
▁ㄸㅏㅆ	-12042
▁ㄱㅣㅁㅈㅏㅇ	-12043
▁Mil	-12044
▁PTS	-12045
▁Intern	-12046
▁ㅇㅐㅇㄱㅡ	-12047
▁ㅊㅓㄴㅇㅏㄴㅅㅣ	-12048
ㅉㅏㄹㅇㅣ	-12049
▁ㄱㅏㄴㅅㅜ	-12050
▁ㅂㅏㅇㅅㅜ	-12051
▁ㅂㅕㄴㅎㅏㄹ	-12052
▁ㅅㅡㅇㄹㅛㅇ	-12053
▁ㄷㅗㅇㅇㅑㅇㅇㅣㄴ	-12054
ㅍㅔㄴㄷㅓ	-12055
▁ㅉㅏㄹㄹㅕㅆ	-12056
▁ㄹㅐㄹㄹㅣ	-12057
▁ㅊㅓㄴㅅㅓㅇ	-12058
▁ㄷㅔㅂ	-12059
▁ㅇㅕㄴㄷㅏ	-12060
▁ㅂㅏㄹㄹㅣㄴ	-12061
▁ㅇㅓㄹㄹㅡㄴ	-12062
▁ㅊㅜㄹㄱㅜㄱ	-12063
▁ㅂㅏㄱㅊㅏㄴㅎㅗ	-12064
▁GF	-12065
▁ㅁㅏㄱㅅㅏ	-12066
ㅂㅏㄹㅈㅓㅁ	-12067
▁ㅊㅣㄹㄱㅗㄱ	-12068
▁ㅅㅜㄷ	-12069
ㅌㅡㄹㅂㅓ	-12070
▁ㄲㅡㄶㄱㅕ	-12071
▁ㄷㅟㅅㅂㅜ	-12072
▁ㄱㅗㄹㅍㅏㄴㅈㅣ	-12073
St	-12074
ㄷㅏㅇㅅㅓㄴ	-12075
▁ㅁㅏㄹㄹㅣㄴ	-12076
▁ㅂㅕㄹㅈㅏㅇ	-12077
ㅆㅔ	-12078
▁TC	-12079
ㄲㅓㄹ	-12080
▁ㅁㅏㄹㅆㅓㅇ	-12081
▁ㅅㅏㅁㄱㅜㄱㅈㅓㄴ	-12082
ㅈㅣㄴㄱㅜ	-12083
ㅎㅏㄱㅇㅕ	-12084
▁ㄱㅘㄴㄹㅖ	-12085
▁ㄷㅏㄴㄱㅜㄴ	-12086
▁2400	-12087
▁ㄱㅘㅇㅍㅗㄱ	-12088
▁ㅈㅓㅇㄱㅡㄴㅇㅜ	-12089
▁per	-12090
▁ㅈㅏㄱㅁㅕㅇ	-12091
▁STAND	-12092
▁ㅎㅏㄴㅅㅜ	-12093
▁ㅈㅓㅇㅇㅠㄴㅈㅗㅇ	-12094
▁ㅂㅣㅇㄱㅡ	-12095
▁ㅅㅓㅇㅈㅏ	-12096
ㅇㅏㄴㄱㅘㄴ	-12097
hn	-12098
▁ㄱㅣㅁㅇㅜ	-12099
▁ㅇㅕㅁㅈㅡㅇ	-12100
▁ㅅㅣㄹㄹㅕㅆ	-12101
▁ㅇㅏㅂㅅㅡㅇ	-12102
▁ㅇㅓㅄㅇㅐㄹ	-12103
uss	-12104
ㅆㅓㄱ	-12105
▁ㅈㅣㅇㅍㅛ	-12106
ㄷㅗㄹㄹㅣㅁ	-12107
▁ㅅㅏㅇㄹㅗㄱ	-12108
▁ㅇㅛㄱㅎㅏ	-12109
▁ㅂㅓㄴㅈㅏㄱ	-12110
▁red	-12111
ㅇㅣㄴㅎㅘ	-12112
▁ㄱㅣㄹㄱㅏ	-12113
▁ㅁㅏㅇㄴㅏ	-12114
▁Ult	-12115
▁ㅅㅣㄴㅊㅏㅇ	-12116
▁ㅊㅜㅇㄷㅏㅇ	-12117
▁ㅅㅑㄹㄹㅗ	-12118
▁ㅇㅐㄱㅌㅓ	-12119
▁ㅅㅣㄴㅍㅏㄴ	-12120
▁ㅇㅕㄹㅇㅕㄴ	-12121
▁ㄱㅣㅁㅎㅕㄴㅅㅜ	-12122
ㅅㅠㄹㄹㅣ	-12123
▁ㅎㅘㅇㅈㅐ	-12124
▁ㄱㅏㄴㄱㅏㄴㅇㅣ	-12125
ines	-12126
alent	-12127
▁her	-12128
▁ㅅㅏㅁㅋㅣ	-12129
▁ㅇㅓㄱㄴㅜ	-12130
▁ㅈㅏㅁㅈㅓㄱ	-12131
ler	-12132
▁House	-12133
▁ㅈㅓㄴㅁㅜㄴㅈㅓㅁ	-12134
39	-12135
▁RB	-12136
▁ㅇㅛㅇㅇㅣㄴㅅㅣ	-12137
ㅇㅟㄱ	-12138
▁ㄹㅣㄴㄷㅡ	-12139
▁Champion	-12140
ㅇㅏㄹㄹㅏ	-12141
▁ㅇㅣㄹㄱㅓ	-12142
▁ㅇㅣㄹㄱㅡ	-12143
▁245	-12144
ㄱㅕㅇㅁㅣㄴ	-12145
ㄷㅏㄹㅇㅡㅁ	-12146
ANCE	-12147
ㅁㅏㄴㅅㅜ	-12148
▁ㅉㅏㄼㅇㅏ	-12149
enn	-12150
▁ㅅㅣㄹㅋㅡ	-12151
ㅅㅏㄴㅅㅓㅇ	-12152
▁ㅎㅐㅇㅅㅓㄴㅈㅣ	-12153
▁ㄱㅓㅁㅌㅜ	-12154
▁ㄸㅡㅅㅂㅏㄲ	-12155
unt	-12156
ㅁㅏㅎ	-12157
▁ㅁㅣㄹㅍㅖ	-12158
▁ㅅㅣㄴㅇㅢ	-12159
▁ㅈㅗㅇㅇㅓㅂ	-12160
▁OC	-12161
ㅇㅛㅇㅎㅏㄴ	-12162
▁who	-12163
▁ㄴㅏㅌ	-12164
ㅂㅔㄴㅈㅣ	-12165
ㅅㅐㅇㅇㅏ	-12166
▁ㄱㅣㅁㄱㅏㅂ	-12167
▁ㅈㅓㅇㅎㅜㄴ	-12168
ㄷㅗㄹㄹㅣㄹ	-12169
▁ㅇㅕㄱㅅㅜㄴ	-12170
▁ㅅㅣㄴㅂㅜㄴㄷㅏㅇㅅㅓㄴ	-12171
ㅃㅜㄴ	-12172
▁ㅅㅣㄴㄴㅕㄴ	-12173
▁1933	-12174
▁Direct	-12175
ㅁㅣㄴㅈㅓㅇ	-12176
▁ㅅㅓㄹㄴㅏㄹ	-12177
ㅉㅐㅆㄱㅓ	-12178
▁ㅂㅕㄴㅈㅗ	-12179
▁ㅇㅏㄱㅈㅐ	-12180
▁ㅎㅓㄴㅌㅣㅇ	-12181
▁221	-12182
▁GOT	-12183
▁ㅎㅏㄴㄱㅣ	-12184
▁ㅅㅡㅇㅅㅓㄴ	-12185
ㄷㅗㅇㅅㅗ	-12186
▁ㅌㅡㅁㅌㅏ	-12187
ㅈㅏㅇㅇㅕㄱ	-12188
▁ㅇㅘㅆㅇㅓㅆ	-12189
▁ㅇㅣㅂㅅㅏㅇ	-12190
▁ㅎㅗㅇㅅㅓㄹ	-12191
▁ㅈㅣㄴㅇㅟ	-12192
▁ㄲㅏㅇㅌㅗㅇ	-12193
ology	-12194
▁ㅇㅑㄱㅊㅗ	-12195
▁ㅅㅏㅇㅂㅗㅇ	-12196
oom	-12197
▁ㅇㅠㄴㅈㅣ	-12198
▁ㅌㅐㄱㅎㅐㅆ	-12199
▁ㅎㅐㄴㄷㅡㄹㄹㅣㅇ	-12200
▁SUV	-12201
▁ㄱㅡㅁㅅㅜ	-12202
▁ㅎㅘㅇㅎㅐ	-12203
▁ㄷㅓㄹㄷㅓㄹ	-12204
▁ㅇㅛㅇㅈㅓㅂ	-12205
▁ㄱㅕㅇㅊㅜㄴ	-12206
▁ㅇㅣㅂㄱㅣㅁ	-12207
22	-12208
body	-12209
▁ㄱㅕㅇㅎㅘ	-12210
▁ㅂㅏㄴㅎㅏㄴ	-12211
▁ㅂㅐㅅㅅㅗㄱ	-12212
VEL	-12213
▁LB	-12214
▁ㅂㅣㅅㄷㅐ	-12215
ㅍㅣㅂ	-12216
thing	-12217
▁ㄷㅓㄴㄷㅔ	-12218
ㅊㅏㅇㅁㅣㄴ	-12219
▁ㄲㅗㄴ	-12220
ㅈㅏㅇㄴㅏ	-12221
▁ㅍㅔㄴㅌㅣ	-12222
▁ㅇㅑㅇㄴㅏㄹ	-12223
▁KV	-12224
▁510	-12225
ㄱㅜㄱㅅㅜ	-12226
▁ㄱㅡㄴㄱㅛ	-12227
▁ㄱㅡㄹㄹㅔ	-12228
▁ㄴㅜㄴㅇㅏㄹ	-12229
▁Del	-12230
ㄷㅡㄴㅇㅛ	-12231
▁Remix	-12232
▁ㄹㅜㄹㄹㅔㅅ	-12233
▁ㅍㅔㄴㅌㅏ	-12234
▁HL	-12235
▁ed	-12236
ㅈㅣㄴㄱㅣ	-12237
▁ㅂㅏㄹㄱㅜㄴ	-12238
▁ㅁㅏㄴㅌㅏ	-12239
▁ㅁㅕㅇㅅㅜ	-12240
▁ㄴㅗㅎㅊㅣㄴ	-12241
▁ㅇㅝㄴㄱㅜㄴ	-12242
▁217	-12243
▁ㄷㅏㄴㅎㅗ	-12244
▁ㅁㅏㅁㄷㅐ	-12245
▁ㅇㅕㄹㄷㅗ	-12246
▁ㄱㅜㄹㄹㅣㄹ	-12247
▁ㅁㅏㅇㅅㅓㄹㅇㅣㅁ	-12248
my	-12249
ㅇㅗㄹㅈㅣ	-12250
▁ㅇㅛㅇㅅㅣ	-12251
ㅅㅓㄹㅍㅡㄴ	-12252
▁233	-12253
▁ㅎㅣㅁㄷㅡ	-12254
▁ㅇㅕㅇㅇㅓㅂㅅㅗ	-12255
▁JYP	-12256
▁ㄱㅔㅆㄷㅏ	-12257
▁ㅂㅜㄴㅌㅜ	-12258
ㅇㅣㄴㅅㅓㄴ	-12259
ㅊㅜㄹㄹㅕㄱ	-12260
▁ㅅㅣㄱㄱㅏㅁ	-12261
▁ㅇㅚㄴㅅㅗㄴㅈㅏㅂㅇㅣ	-12262
ㅇㅇㅏ	-12263
▁303	-12264
ㅊㅞ	-12265
ㅅㅣㅂㅈㅏ	-12266
▁ㅇㅑㅇㅂㅗㄱ	-12267
▁231	-12268
ㅅㄱㅏㅁ	-12269
▁ㄴㅏㅁㅅㅐㄱ	-12270
▁ㅇㅝㄹㄱㅘㅇ	-12271
▁ㄱㅏㄴㅅㅓㄴㅂㅓ	-12272
▁ㅂㅏㄴㅇㅕㄱㅈㅏ	-12273
▁ㅌㅏㅁㅎㅓㅁㄱㅏ	-12274
RO	-12275
▁ㅅㅣㅅ	-12276
▁1931	-12277
ㄴㅗㄹㄷㅡ	-12278
ㄱㅗㅇㅇㅝㄴ	-12279
ㅎㅡㅇㄱㅜㄴ	-12280
▁ㅅㅣㄴㅇㅣㄴㅇㅘㅇ	-12281
▁Full	-12282
▁ㅇㅜㄴㅎㅏ	-12283
▁ㅌㅗㄱㅌㅗㄱㅎㅣ	-12284
▁KBL	-12285
ㄷㅓㄱㅈㅣ	-12286
▁ㅌㅡㄱㅁㅜ	-12287
▁ㅊㅓㄹㅍㅏㄴ	-12288
ㅂㅜㄹㅂㅗㄱ	-12289
▁ㄱㅏㅈㅊㅝㅆ	-12290
▁ㅅㅏㄴㄹㅣㅁ	-12291
▁ㅂㅗㄱㅂㅜㄹㅂㅗㄱ	-12292
▁Mach	-12293
▁ㅊㅗㅇㅊㅔ	-12294
▁ㅂㅓㄴㅅㅓㅇ	-12295
▁des	-12296
ㅆㅡㄹㅇㅣ	-12297
ㅇㅣㄱㅅㅡ	-12298
▁ㄷㅗㅇㅊㅏ	-12299
ㄹㅣㅁㄷㅗㅇ	-12300
ㅇㅏㄴㄱㅕㅇ	-12301
▁ㅇㅣㄹㅅㅐㄱ	-12302
ene	-12303
ㄴㅑㅇㄱㅏㅁ	-12304
▁ㅊㅏㅁㅅㅣㄴ	-12305
▁ㅈㅏㅇㅈㅣ	-12306
▁ㅂㅏㄴㅇㅝㄹ	-12307
du	-12308
▁ㅇㅝㄴㅇㅣ	-12309
▁ㅈㅡㅇㄷㅐ	-12310
▁ㅊㅓㅇㄱㅖ	-12311
▁ㅂㅏㄹㅈㅏㄱ	-12312
▁ㅈㅏㅇㅊㅏㅇ	-12313
ㅅㅔㄹㄹㅓ	-12314
▁ㅋㅏㅁㅂㅗ	-12315
▁ㅊㅣㅁㅂㅓㅁ	-12316
ㅎㅕㄴㅅㅏㅇ	-12317
tus	-12318
▁ㅂㅗㅇㅌㅜ	-12319
▁ㅅㅣㅁㄷㅗ	-12320
▁ㅍㅕㄴㅎㅑㅇ	-12321
▁GBA	-12322
ㅊㅏㅁㅎㅣ	-12323
▁ㄷㅗㅇㄷㅜ	-12324
▁ㅅㅓㄲㅇㅣ	-12325
▁"...	-12326
▁Spir	-12327
ㅎㅏㅂㅈㅜㅇㄱㅜㄱ	-12328
ㄱㅓㄴㅂㅜ	-12329
▁ㅇㅗㄻㄱㅣㄹ	-12330
▁219	-12331
ㅇㅛㅇㄱㅠ	-12332
ㅈㅓㄱㅎㅏㅂ	-12333
▁ㅅㅗㅇㅈㅓㅇ	-12334
ㅊㅕㅆㅇㅡ	-12335
▁their	-12336
▁ㅂㅓㄹㅈㅣㅂ	-12337
▁ㄷㅐㄹㄹㅓ	-12338
▁es	-12339
▁ㅉㅣㅂ	-12340
▁SUPER	-12341
▁ㅍㅗㄱㄴㅓㄼ	-12342
ARK	-12343
▁ㄷㅗㅇㄹㅕㄱㅇㅝㄴ	-12344
▁ㅈㅜㄴㅁㅏㄹ	-12345
▁ㅈㅣㄴㅎㅗㅇ	-12346
▁ㅇㅣㄹㅅㅣㄴ	-12347
▁ㅇㅝㄴㅌㅜ	-12348
ㅇㅑㄴㅁㅏ	-12349
▁ㅈㅏㅇㄹㅛ	-12350
▁ㅎㅗㄴㅅㅜ	-12351
▁ㅂㅏㅇㅎㅏㄴ	-12352
▁ㄲㅏㄲㅇㅕ	-12353
▁ㅊㅓㄴㅅㅜ	-12354
▁ㅎㅡㅇㅎㅏ	-12355
▁ㅂㅗㄴㅅㅣㅁ	-12356
▁ㅇㅣㄴㅇㅝㄴㅅㅜ	-12357
▁ㄱㅣㅁㄱㅘㅇㅎㅕㄴ	-12358
▁never	-12359
▁ㄱㅜㄴㅁㅜ	-12360
▁ㅂㅜㄹㅍㅐ	-12361
ㅂㅐㄴㅌㅣ	-12362
ㅇㅗㄴㅈㅣ	-12363
sp	-12364
▁da	-12365
▁ㅊㅓㄹㅈㅔ	-12366
▁ㅅㅓㅇㅇㅛㄱ	-12367
▁ㅈㅣㄱㅎㅏㄹ	-12368
▁Mat	-12369
▁ㄴㅏㅁㅈㅜ	-12370
▁ㅊㅗㄱㄱㅜ	-12371
▁ㅇㅏㄴㅅㅏㄴㅅㅣ	-12372
ONG	-12373
ㄷㅗㅁ	-12374
▁ㅇㅔㄹㅅㅏ	-12375
▁."	-12376
▁ㅇㅑㅂ	-12377
▁ㄱㅣㅁㅎㅏ	-12378
▁ㅇㅝㄹㅎㅘ	-12379
▁FINAL	-12380
▁ㄹㅓㄱㅅㅡ	-12381
▁ㅇㅓㅍㅇㅓ	-12382
▁ㄲㅏㄹㄹㅣㄴ	-12383
▁ㅈㅜㅇㅈㅡㅇ	-12384
▁ㅊㅏㅁㅎㅗ	-12385
▁ㅂㅗㄱㅇㅡㅁㅅㅓ	-12386
▁ㅅㅜㄴㅈㅓㅇㅁㅏㄴㅎㅘ	-12387
▁226	-12388
▁ㅊㅜㅇㅇㅣ	-12389
▁ㄹㅐㅁㅈㅣ	-12390
▁Secret	-12391
▁ㅁㅟㄹㄹㅓ	-12392
ㅇㅑㄱㅍㅜㅁ	-12393
▁ㅎㅏㄴㄷㅏㅂㅅㅣ	-12394
ㅅㅡㅇㅎㅢ	-12395
▁ㄷㅡㅇㅅㅣㄴ	-12396
ㅎㅏㅂㄴㅣ	-12397
▁ㅁㅏㅌㄱㅣㄴ	-12398
▁ㅂㅐㄱㅅㅏㅇ	-12399
▁ㅇㅏㅁㅅㅏㄹㄷㅏㄴ	-12400
box	-12401
▁ㄷㅏㄴㅊㅜ	-12402
ㄱㅕㄹㅎㅏㅂ	-12403
ㅇㅛㅇㅇㅓㅄ	-12404
▁ㅅㅖㄴ	-12405
▁ㅂㅕㅇㅂㅓㅂ	-12406
▁ㅊㅣㅁㄹㅑㄱㅈㅏ	-12407
▁ㄴㅏㄱㅌㅐ	-12408
▁ㄴㅏㄴㅈㅣㅇ	-12409
▁ㄱㅏㅇㅈㅓㅇㅎㅗ	-12410
ㄱㅗㄱㄹㅣ	-12411
ㅌㅗㅇㅋㅏ	-12412
▁ㅅㅓㄹㅇㅝㄴ	-12413
SE	-12414
ㅋㅜㄹㄹㅜ	-12415
▁ㅂㅐㅅㅈㅣ	-12416
▁ㅇㅕㄱㅅㅜ	-12417
▁ㅈㅏㅇㄷㅏㄴㅈㅓㅁ	-12418
▁ㅋㅐㄴㅈㅏ	-12419
ㅅㅓㅇㅇㅜㄱ	-12420
rew	-12421
ㄱㅡㄴㄱㅓ	-12422
ㅊㅏㅇㅎㅗ	-12423
ㅍㅡㄹㄹㅗ	-12424
▁ㅅㅏㄴㅊㅜㄹ	-12425
▁ㅊㅜㄱㅊㅜㄹ	-12426
rive	-12427
ㅈㅣㄴㅊㅏㅇ	-12428
▁ㅈㅓㄴㄹㅠㄴ	-12429
▁ㅂㅗㄱㅅㅜㅇㅇㅏ	-12430
▁NTR	-12431
▁here	-12432
▁ㅇㅣㄴㄷㅓ	-12433
▁ㅇㅕㄹㄱㅏㅇ	-12434
ㄱㅡㄹㄹㅣ	-12435
▁ㅈㅗㄹㄹㅣ	-12436
▁ㅅㅣㄴㅂㅕㄴ	-12437
▁ㅇㅠㄴㅈㅗㅇㅅㅣㄴ	-12438
▁ㅈㅓㄴㅁㅜㄴㅎㅏㄱㄱㅛ	-12439
▁ㅇㅐㅅ	-12440
▁ㄴㅡㅇㅌㅗㅇ	-12441
▁ㅅㅣㄴㄱㅔㄴ	-12442
▁ㅇㅓㅇㅁㅏㅇㅈㅣㄴㅊㅏㅇ	-12443
▁ml	-12444
▁ㅅㅜㅁㅌㅗㅇ	-12445
▁Tem	-12446
▁ser	-12447
▁ㅈㅓㄴㅍㅐ	-12448
▁ㄱㅜㄹㅈㅓㄹ	-12449
▁ㅂㅗㄴㅈㅡ	-12450
unch	-12451
▁Att	-12452
▁Inc	-12453
▁MSX	-12454
▁col	-12455
▁ㅈㅏㅇㄱㅓㅁ	-12456
▁ㅈㅓㅁㅇㅝㄴ	-12457
▁ㅉㅏㄹㅉㅏㄹㅇㅣ	-12458
▁see	-12459
orever	-12460
▁ㄹㅗㄴㄷㅗ	-12461
▁ㅅㅐㄱㅅㅗ	-12462
▁ㅂㅜㄹㄹㅣㅅ	-12463
▁ㅇㅑㄱㄱㅜㄱ	-12464
▁ㅈㅣㄴㅍㅜㅇㄱㅕㅇ	-12465
▁EG	-12466
▁ㄱㅕㄴㅎㅝㄴ	-12467
▁ㄷㅗㅇㅁㅕㄴ	-12468
ader	-12469
▁ㅁㅕㄹㅅㅣ	-12470
▁ㄷㅏㅇㅈㅣㄱ	-12471
▁ㅁㅜㄹㅂㅏㅇㅇㅜㄹ	-12472
▁ㅎㅐㄱㅈㅓㄴㅈㅐㅇ	-12473
▁Old	-12474
ㅇㅣㅁㅅㅐ	-12475
▁ㅅㅓㅇㅎㅐㅇ	-12476
▁ㅇㅝㄴㄷㅗㅇㄹㅕㄱ	-12477
ets	-12478
▁ㄱㅐㄱㅊㅏ	-12479
▁ㅁㅐㄴㅅㅓ	-12480
▁ㅂㅜㅇㅇㅓ	-12481
▁ㄴㅜㄴㄱㅣㄹ	-12482
▁ㅅㅏㄹㄹㅣㅁ	-12483
ㄱㅣㅁㅇㅓㅄㅇㅣ	-12484
▁any	-12485
▁Home	-12486
▁str	-12487
▁ㅋㅔㅁ	-12488
▁ㄱㅓㄹㄹㅔ	-12489
▁ㅈㅡㄹㄱㅣㄴㄷㅏ	-12490
▁1917	-12491
▁Japan	-12492
▁ㅅㅓㄴㄹㅏ	-12493
▁ㅇㅏㄴㅍㅏ	-12494
▁ㅇㅣㄹㅇㅣㄹㅎㅣ	-12495
ㅍㅏㅁ	-12496
▁ㄷㅟㅅㅁㅗ	-12497
▁ㅇㅗㅂㅈㅓ	-12498
▁ㅇㅗㄹㄹㅏㅆㅇㅡ	-12499
▁ㅎㅐㅇㅈㅓㅇㄷㅗㅇ	-12500
ㅅㅗㅌ	-12501
ㅇㅣㅂㅈㅏ	-12502
▁ㅌㅏㄹㄹㅔ	-12503
ㅇㅝㄴㄱㅡㅁ	-12504
▁JK	-12505
▁dr	-12506
▁ㅈㅐㅇㅈㅐㅇ	-12507
▁ㅍㅕㄹㅊㅣㄹ	-12508
▁ㅈㅏㄴㄷㅏ	-12509
▁ㅎㅟㄹㅊㅔ	-12510
▁ㅇㅚㄴㅂㅏㄹ	-12511
▁ㅉㅜㄱㅉㅜㄱ	-12512
▁PE	-12513
▁ㄴㅓㄳ	-12514
▁PTSD	-12515
▁ㄲㅡㅀㅇㅕ	-12516
ily	-12517
ause	-12518
▁Sin	-12519
ㅇㅕㅇㅎㅜㄴ	-12520
▁ㅅㅗㄴㅎㅡㅇ	-12521
▁ㅈㅏㅁㅈㅏㅁ	-12522
irc	-12523
▁ㅇㅕㄴㅎㅠ	-12524
▁ㄷㅡㄹㄹㅕㅆ	-12525
▁ㅇㅏㄴㅍㅏㄲ	-12526
▁GEN	-12527
▁ㅇㅠㄱㅇㅏ	-12528
▁ㅈㅜㄹㅈㅣ	-12529
▁Green	-12530
▁ㄱㅡㄱㅎㅚ	-12531
▁ㄷㅡㅇㄷㅐ	-12532
▁ㅁㅕㄴㅅㅔ	-12533
▁ㅂㅓㄴㅇㅏㄴ	-12534
ㄹㅡㅁㄱㅏㅄ	-12535
▁GIR	-12536
▁ㅅㅜㅁㄱㅣㄴ	-12537
▁ㅁㅏㅌㄱㅣㄴㄷㅏ	-12538
ㅇㅑㅇㅇㅣㄴ	-12539
▁ㅈㅜㅇㄴㅏㅁㅁㅣ	-12540
▁ㅍㅣㅂ	-12541
ㅅㅏㄹㅍㅛ	-12542
▁ㅅㅣㄴㅂㅗ	-12543
ㅈㅓㅇㅍㅏㄴ	-12544
▁ㅁㅜㄴㄱㅕㅇ	-12545
▁ㄱㅓㄴㄱㅘ	-12546
▁ㅅㅏㄴㅊㅔ	-12547
▁ㅅㅓㄱㄱㅏ	-12548
▁ㅇㅛㅇㅁㅏ	-12549
ㄷㅡㅇㅂㅕㅇ	-12550
▁ㅁㅏㄴㅇㅣㄴ	-12551
▁ㅅㅓㄴㅈㅓㅁ	-12552
▁ㄱㅕㅇㅋㅙ	-12553
▁Rep	-12554
▁ㅈㅜㄹㅁㅜ	-12555
▁ㅎㅏㄴㅂㅏ	-12556
▁ㅎㅠㅇㅂㅜ	-12557
▁ㄱㅓㅂㅁㅓㄱ	-12558
ands	-12559
ㅇㅕㅇㅁㅜ	-12560
▁ㄸㅓㄹㅊㅕ	-12561
▁ㄹㅔㄴㅈㅣ	-12562
▁ㅂㅏㄹㄹㅗ	-12563
▁ㅇㅝㄴㄹㅛ	-12564
▁ㅎㅘㄴㄱㅣ	-12565
▁ㅇㅏㅇㅅㅏㅇㅂㅡㄹ	-12566
▁ㄴㅗㄴㄷㅏ	-12567
▁ㅎㅏㅁㄹㅑㅇ	-12568
iful	-12569
▁ㅅㅐㄹ	-12570
▁ㅍㅓㄴㄷㅡ	-12571
▁ㅇㅕㅇㅅㅏㅇㅁㅜㄹ	-12572
29	-12573
ury	-12574
ㄸㅏㅇㅎㅣ	-12575
▁ㄱㅣㅁㅅㅗ	-12576
▁ㅇㅣㄹㄹㅠ	-12577
ㅅㅣㄱㅁㅜㄹ	-12578
▁ㅅㅜㄴㅇㅑㅇ	-12579
▁ㅈㅏㅇㅈㅏㄱ	-12580
37	-12581
▁ㅇㅏㅇㅋㅗ	-12582
▁ㅃㅏㄹㄹㅏㅆ	-12583
▁218	-12584
ience	-12585
▁ㅎㅏㅇㅅㅣ	-12586
▁ㅅㅣㄴㅇㅡㅁ	-12587
▁ㄲㅏㄲㅇㅣㄴ	-12588
▁ㄲㅜㅇ	-12589
▁ㄷㅏㅇㅂㅜ	-12590
▁ㅁㅜㄴㅇㅖ	-12591
▁ㅎㅏㅇㄹㅕㄹ	-12592
▁ㄱㅗㅇㅅㅗㄴㅊㅏㄴ	-12593
▁ㄱㅘㄴㄹㅏㅁㄱㅐㄱ	-12594
▁ㅅㅗㄴㅎㅡㅇㅁㅣㄴ	-12595
ris	-12596
▁009	-12597
▁Plan	-12598
▁When	-12599
▁ㅂㅏㅇㄱㅟ	-12600
▁ㅅㅣㄴㅌㅗㅇ	-12601
ODE	-12602
▁ㅂㅜㄱㅇㅟ	-12603
▁ㅅㅗㄱㅇㅓ	-12604
▁ㄱㅏㅁㅊㅜㄱ	-12605
ㅆㅗ	-12606
ㅂㅜㄹㅅㅏ	-12607
▁ㅈㅣㄴㅎㅏ	-12608
▁ㅅㅣㅁㄱㅕㅇ	-12609
▁ㅈㅜㅇㄹㅏㅇ	-12610
▁ee	-12611
▁Arc	-12612
ember	-12613
▁blue	-12614
▁ㅁㅏㅇㅇㅓㄴ	-12615
▁ㅈㅏㅇㅈㅓㅇ	-12616
▁Chap	-12617
▁Long	-12618
ㄱㅘㄴㄹㅣ	-12619
▁ㄷㅏㅁㅂㅗ	-12620
▁ㄷㅏㄴㄹㅏㄱ	-12621
▁ㅂㅣㅇㅂㅣㅇ	-12622
▁ㄱㅕㅇㅊㅏ	-12623
ITE	-12624
OLD	-12625
▁IR	-12626
ㅋㅡㄹㄹㅗ	-12627
▁ㅁㅜㄴㅎㅢ	-12628
▁ㅂㅕㅇㅈㅏ	-12629
▁OM	-12630
▁ㅅㅣㄴㅁㅕㅇ	-12631
▁ㅇㅛㅇㅈㅗㄱ	-12632
▁ㅍㅕㄴㅂㅓㅂ	-12633
▁ㄱㅡㅁㅅㅏ	-12634
▁ㅈㅣㄱㅁㅕㄴ	-12635
ㅋㅓㄱ	-12636
ㅂㅏㄹㄹㅗㄴ	-12637
ㅂㅓㅂㅇㅣㄴ	-12638
ㅅㅓㄴㅈㅓㄴ	-12639
▁ㄱㅡㅁㅅㅏㅇ	-12640
ㄱㅕㅇㄱㅠ	-12641
▁ㄹㅔㄴㄷㅓ	-12642
ㄴㅕㄴㅌㅏㅁㅈㅓㅇ	-12643
▁ㄱㅏㅈㄱㅏ	-12644
▁ㄴㅗㄱㅇㅣ	-12645
ㅍㅕㅇㄷㅗㅇ	-12646
▁ㅎㅏㅇㅁㅜㄴ	-12647
▁ㅁㅗㄱㄱㅕㄱㅈㅏ	-12648
BL	-12649
▁<<	-12650
▁ㅂㅗㄴㄱㅣ	-12651
acy	-12652
▁560	-12653
▁ㅊㅜㅂ	-12654
▁2100	-12655
▁ㄴㅓㄼㅎㅣ	-12656
▁ㄹㅣㄴㄴㅔ	-12657
▁ㄸㅓㄱㅊㅣㄹ	-12658
▁ㅅㅐㅇㅁㅜㄹㅊㅔ	-12659
▁227	-12660
ㅂㅣㄹㄹㅗㄴ	-12661
▁ㅁㅣㄴㅅㅗㄱ	-12662
▁ㅈㅡㅇㅈㅣㄴ	-12663
ㅂㅔㄱ	-12664
▁right	-12665
ㅅㅡㅇㅈㅜㄴ	-12666
▁ㅂㅗㅇㄱㅓㄴ	-12667
▁ㅈㅓㄹㅅㅣㄹ	-12668
ATA	-12669
▁308	-12670
▁Micro	-12671
▁ㅂㅏㄹㅎㅘ	-12672
▁ㅅㅓㅇㅅㅗ	-12673
▁ㄴㅗㅍㅇㅣㄹ	-12674
▁ㅁㅕㅇㅅㅏㅇ	-12675
▁ㄱㅡㄱㄷㅏㄴㅈㅜ	-12676
iet	-12677
▁MED	-12678
▁ㄱㅏㅇㅎㅢ	-12679
▁ㄱㅓㄹㅍㅡ	-12680
▁ㄱㅜㄱㅂㅗ	-12681
▁ㅈㅗㅇㅇㅓㄴ	-12682
QU	-12683
ㅈㅓㄱㄱㅓ	-12684
▁ㅇㅓㅄㅇㅐㄴ	-12685
▁ㅆㅏㄱㅆㅡㄹㅇㅣ	-12686
▁ㅇㅑㅇㅈㅜㄴㅎㅕㄱ	-12687
▁ㅆㅘㅆ	-12688
ㄹㅣㅅㅅㅏ	-12689
▁STAGE	-12690
ㄲㅣㅁㅇㅓㅄㅇㅣ	-12691
ormal	-12692
ㄴㅕㅁㅂㅣ	-12693
▁ㄱㅜㄴㅁㅏ	-12694
▁ㅋㅗㄹㄹㅔㄱㅅㅕㄴ	-12695
▁ㅂㅏㄱㅇㅝㄴ	-12696
▁ㅈㅓㄴㅇㅓㅂ	-12697
▁ㅇㅕㅇㄹㅏㄱㅇㅓㅄ	-12698
ㅁㅜㄴㄱㅜ	-12699
▁ㅂㅕㄴㅎㅏㅁㅇㅓㅄ	-12700
▁264	-12701
self	-12702
ㅇㅗㄹㄹㅣㄹ	-12703
▁ㅈㅡㄹㄱㅕㅆ	-12704
▁ㅊㅣㄹㅅㅓㅇ	-12705
▁ㄱㅘㅇㅅㅣㄴㄷㅗ	-12706
▁Tim	-12707
ㅂㅓㅂㅈㅏ	-12708
▁ㄱㅏㅇㅈㅘ	-12709
▁ㅊㅣㄴㅇㅣㄹㅍㅏ	-12710
▁she	-12711
▁ㄴㅏㅁㅂㅏㅇ	-12712
▁ㄷㅗㄱㅊㅏㅇ	-12713
▁CBS	-12714
▁ㅇㅓㅇㅌㅓ	-12715
▁ㅇㅝㄹㅌㅡ	-12716
▁ㅈㅓㅇㅌㅐ	-12717
▁ㅋㅏㄴㄷㅏ	-12718
▁ㄴㅏㅁㅇㅣㄴ	-12719
▁ㅂㅏㅇㅊㅓㅇ	-12720
ㅉㅣㄹ	-12721
ㅂㅔㄴㅈㅓ	-12722
ㅅㅣㅁㅈㅏ	-12723
▁ㄹㅕㅁㄱㅜ	-12724
▁ㅈㅗㅇㅅㅣㄱ	-12725
▁ㅊㅓㄹㅇㅣㄴ	-12726
▁Episode	-12727
pm	-12728
▁ㄱㅜㄴㄱㅏ	-12729
▁ㄷㅏㄴㅁㅏㅅ	-12730
▁ㅅㅏㄴㅇㅕㄱ	-12731
▁ㅅㅣㅁㅎㅏㄹ	-12732
▁ㅊㅏㄶ	-12733
▁UK	-12734
ㅍㅔㄴㅅㅓ	-12735
▁ㄴㅏㄱㅌㅏ	-12736
▁ㅇㅛㅇㄷㅗㄴ	-12737
▁ㅈㅓㄴㄱㅜㄱㄱㅜ	-12738
ㅂㅕㅇㄱㅠ	-12739
▁ㄷㅏㄴㅅㅣ	-12740
▁ㅈㅓㅇㅎㅏㄹ	-12741
▁ㅈㅜㅇㅈㅗㅇ	-12742
▁ㅎㅐㅇㅅㅓㄴ	-12743
▁ㅎㅕㄹㅈㅗㄱ	-12744
ㅎㅗㅁ	-12745
▁Sim	-12746
▁1928	-12747
ㄱㅙㅇㅇㅣ	-12748
ㄹㅏㄱㅅㅔ	-12749
▁ㅂㅏㄹㅌㅓ	-12750
▁ㅇㅗㄱㅌㅗ	-12751
ㄸㅜㄱㄸㅜㄱ	-12752
▁ㅇㅏㄹㄹㅔㄱㅅㅣ	-12753
▁Lost	-12754
ㅅㅏㅇㅇㅛㅇ	-12755
▁ㅅㅏㄴㅈㅓㄱ	-12756
ㄱㅏㅇㅎㅗ	-12757
ㅂㅏㅇㅇㅟ	-12758
▁ㅂㅏㄹㄱㅏ	-12759
▁ㅃㅏㄹㄹㅐ	-12760
▁ㅎㅗㄹㅅㅜ	-12761
▁ㅎㅘㄹㄹㅗ	-12762
▁ㅁㅣㄹㄹㅣㅁ	-12763
aki	-12764
▁306	-12765
▁LCS	-12766
▁ZEX	-12767
ㅈㅓㅇㅈㅣ	-12768
▁ㅇㅣㄴㅇㅑㅇ	-12769
▁FT	-12770
▁ㄷㅗㄱㅇㅣㄹㅇㅣㄴ	-12771
▁285	-12772
ㅈㅓㅇㄱㅠ	-12773
▁ㄱㅘㄴㅈㅜㅇㅅㅓㄱ	-12774
▁003	-12775
▁ㅈㅜㄴㅋㅗ	-12776
▁ㄱㅜㄹㄱㅗㄱ	-12777
▁ㅈㅏㅇㅁㅏㄴ	-12778
lo	-12779
▁Yeah	-12780
▁ㄱㅓㄴㅂㅏㄴ	-12781
▁ㄱㅕㄹㅅㅓㄴ	-12782
ral	-12783
icon	-12784
▁ㅅㅓㄴㄷㅔ	-12785
▁ㅇㅛㅇㅁㅗ	-12786
▁ㅅㅐㅇㅅㅐㅇ	-12787
ents	-12788
▁737	-12789
esh	-12790
▁ㅇㅡㅇㅎㅏ	-12791
▁ㅈㅓㅂㅎㅐ	-12792
▁ㅁㅓㅁㅊㅜㄴ	-12793
▁ㄱㅣㅁㅈㅗㅇㅁㅣㄴ	-12794
ㅆㅢ	-12795
emy	-12796
play	-12797
▁1925	-12798
ㅈㅏㅇㅅㅜ	-12799
▁ㅅㅜㄴㅇㅐ	-12800
ㅅㅐㄱㄷㅐ	-12801
▁ㅊㅜㄹㅈㅣㄴ	-12802
▁20000	-12803
▁Style	-12804
▁ㅇㅐㄱㅈㅏ	-12805
▁ㄲㅗㅊㅇㅣㅍ	-12806
▁ㄲㅝ	-12807
ㄱㅐㄹ	-12808
▁Cup	-12809
▁ㄴㅓㄹㄹㅕ	-12810
▁ㅍㅏㄴㄹㅖ	-12811
▁ㄷㅏㄴㄱㅜㄱ	-12812
▁ㅇㅑㄱㅌㅏㄹㅈㅏ	-12813
▁Pan	-12814
▁ㅈㅏㄴㅅㅏㅇ	-12815
▁SFC	-12816
ㄴㅑㅇㄱㅐ	-12817
▁Stand	-12818
▁ㅅㅣㄴㅁㅜㄴㅅㅏ	-12819
▁CI	-12820
ㄴㅏㅁㅅㅓㄴ	-12821
ㅇㅣㄹㅊㅔ	-12822
▁ㄷㅗㅇㄱㅟ	-12823
▁ㅇㅕㅇㅇㅕㅇ	-12824
▁ㅎㅏㄴㄷㅐ	-12825
▁ㅂㅡㄹㄹㅏㅇ	-12826
▁ㅇㅕㄴㄱㅕㄱ	-12827
▁Say	-12828
▁ㅅㅣㄹㅅㅔ	-12829
▁ㅇㅑㅇㅈㅗ	-12830
▁ㅊㅏㄴㄷㅏ	-12831
▁Plus	-12832
▁ㅇㅑㅇㅅㅜ	-12833
▁-'	-12834
▁460	-12835
▁ㅃㅑㅁㅊㅣ	-12836
▁ㅈㅓㅇㄹㅜ	-12837
▁ㅇㅕㄱㅇㅣㄴ	-12838
▁ㅊㅣㄴㅈㅗㄱ	-12839
▁ㅅㅓㄷㅂㅜㄹㄹㅣ	-12840
yo	-12841
▁IG	-12842
▁ㅂㅜㄴㅂㅜㄴ	-12843
▁ㅇㅡㄴㅊㅗㅇ	-12844
▁ㅎㅏㄱㄱㅘㄴ	-12845
▁ㄱㅣㅁㄱㅕㅇㅎㅜㄴ	-12846
EP	-12847
PGA	-12848
ㅅㅣㄱㅈㅣ	-12849
▁ㅅㅣㄴㅍㅏ	-12850
ㅊㅓㅇㅇㅕㄱ	-12851
▁ㄷㅠㄴ	-12852
▁ㅋㅟㄹ	-12853
▁ㅅㅣㄹㅍㅡ	-12854
▁ㄱㅗㅇㅇㅑㅇ	-12855
ka	-12856
▁SB	-12857
▁ㅎㅑㅇㄴㅕㄴ	-12858
lease	-12859
ㄹㅏㄱㄱㅏ	-12860
ㅇㅔㄴㄷㅡ	-12861
▁ㅎㅏㄴㅎㅏ	-12862
▁ㄴㅏㄴㄱㅘㄴ	-12863
reen	-12864
▁TFT	-12865
ㅎㅘㄴㄱㅕㅇ	-12866
▁ㅅㅗㄱㅅㅗㄱ	-12867
▁ㅎㅕㅇㅇㅛㅇㅅㅏ	-12868
▁ㅅㅓㅇㅇㅏㄱ	-12869
▁ㅊㅗㅇㅈㅓㅁ	-12870
▁ㅇㅏㄴㅈㅔㄹㄹㅏ	-12871
▁Cur	-12872
ㅈㅓㅇㄱㅣ	-12873
▁ㄱㅡㅁㅇㅕㄴ	-12874
▁ㅈㅏㅇㄹㅕㄹ	-12875
▁ㅂㅐㄱㅈㅗ	-12876
▁ㅇㅝㄴㅌㅏㅂ	-12877
▁ㅇㅣㄹㅍㅏㄴ	-12878
irth	-12879
▁ㅇㅔㅇ	-12880
▁ㅈㅗㅂㅎㅕ	-12881
▁ㅎㅗㄱㅅㅓㅇ	-12882
▁ㅅㅣㄴㅂㅜㄴㅈㅡㅇ	-12883
URE	-12884
ㄲㅡㄹㄹㅕ	-12885
ㅇㅡㅁㄱㅏ	-12886
▁ㅈㅓㅇㅁㅣㄴ	-12887
▁Original	-12888
▁ㄱㅓㄹㄹㅣㅁㄷㅗㄹ	-12889
ㅇㅗㄹㄹㅔ	-12890
▁ㄴㅏㄹㄹㅕㅂ	-12891
▁ㅎㅏㄴㅈㅣㄴ	-12892
▁Pet	-12893
▁Vir	-12894
▁youtu	-12895
▁ㄱㅣㅂㅅㅡㄴ	-12896
ㄴㅗㄱ	-12897
▁262	-12898
▁die	-12899
▁1918	-12900
▁res	-12901
▁ㄴㅏㄱㅅㅏ	-12902
▁ㄷㅏㅇㄴㅛ	-12903
▁ㄴㅔㅅㅍㅡㄹ	-12904
▁ㄴㅔㅅㅍㅡㄹㄹㅣㄱㅅㅡ	-12905
ㅂㅘㅆ	-12906
▁Fun	-12907
▁ㄴㅓㄼㅇㅣ	-12908
▁ㅅㅣㄴㅇㅖ	-12909
▁ㅂㅏㅇㅌㅏㄴㅅㅗ	-12910
▁got	-12911
▁ㅈㅓㄴㅇㅏㅂ	-12912
▁ㅍㅗㄱㅇㅕㅁ	-12913
▁660	-12914
▁ㅍㅏㅅㅋㅐ	-12915
▁ㅇㅕㅇㅅㅣㄱ	-12916
▁SoC	-12917
▁ㄲㅡㅌㅁㅏ	-12918
▁ㅂㅏㄴㅍㅗ	-12919
▁ㅇㅏㄹㄹㅗ	-12920
▁ㄱㅐㅇㅅㅐㅇ	-12921
▁ㅎㅕㄴㄹㅏㄴ	-12922
▁ㅇㅕㅆㅇㅡㅁㅇㅡㄹ	-12923
▁Bra	-12924
▁ㅊㅓㄴㅎㅗ	-12925
autiful	-12926
▁ㄱㅓㅁㅊㅏㄹㅊㅓㅇ	-12927
▁530	-12928
▁ㅎㅘㅇㄱㅜㅇ	-12929
ANG	-12930
▁TK	-12931
▁ㅂㅏㅇㅌㅗㅇ	-12932
▁ㅂㅐㄱㅅㅓㄱ	-12933
▁ㄱㅗㄱㄱㅙㅇㅇㅣ	-12934
▁ㅅㅜㄴㅊㅓㄴㅅㅣ	-12935
▁ㅂㅣㄴㅇㅠ	-12936
ㄹㅐㄴㄷㅡㄴ	-12937
▁ㅇㅣㄴㄱㅗㅇㅇㅟ	-12938
▁ㅌㅏㄹㅍㅣ	-12939
▁ㅎㅗㄱㅈㅏ	-12940
▁ㅇㅏㄴㅂㅏㅇ	-12941
▁GC	-12942
▁ㄱㅡㅂㅈㅣㄴ	-12943
HA	-12944
ena	-12945
▁Gh	-12946
▁ㄱㅗㄹㅁㅓ	-12947
▁ㅌㅓㄹㄹㅕ	-12948
▁ㅎㅏㅇㅅㅗ	-12949
▁ㅇㅣㄹㅊㅣㅁ	-12950
▁Oper	-12951
▁ㅁㅜㄴㅁㅜ	-12952
▁ㄹㅔㅇ	-12953
▁ㄱㅏㄹㅁㅐ	-12954
▁ㅇㅕㅍㄱㅜ	-12955
▁ㅅㅔㄱㅅㅕㄴ	-12956
▁ㅁㅗㄹㅇㅣ	-12957
▁ㅁㅣㄴㅈㅏ	-12958
▁ㅅㅜㄷㄱㅏ	-12959
▁ㄱㅣㅁㅍㅜㅇ	-12960
▁ㅁㅜㄱㅇㅣㄴ	-12961
▁224	-12962
▁Nat	-12963
▁ㄸㅣㅇ	-12964
▁ㅅㅜㄴㅂㅓㄴ	-12965
▁ㅈㅏㅂㅈㅗㄹ	-12966
ㅇㅏㅁㄹㅣ	-12967
▁ㅂㅣㄹㄹㅣㄴ	-12968
▁ㅈㅗㅇㅈㅏㅇ	-12969
ㄱㅗㅇㅈㅏ	-12970
▁ㅎㅗㄴㅁㅏ	-12971
▁ㄱㅜㄱㅈㅓㅇㅇㅝㄴ	-12972
▁ㅇㅏㄴㅁㅏ	-12973
▁}}}}	-12974
ㅇㅏㄴㅌㅏ	-12975
ㅅㅏㄴㅇㅓㅂ	-12976
▁ㅅㅓㅇㅇㅜㄴ	-12977
▁Who	-12978
▁Year	-12979
▁ㅇㅛㅇㄹㅖ	-12980
▁ㅍㅜㅇㅅㅓㅇ	-12981
▁⊸⊸	-12982
▁2200	-12983
▁ㅁㅏㄴㅅㅜ	-12984
▁}}}}}}	-12985
▁ㅇㅐㄱㅈㅓㅇ	-12986
▁1929	-12987
▁ㅇㅕㄲㅇㅕ	-12988
▁ㅇㅕㅁㄹㅏ	-12989
▁ㄱㅕㅇㅊㅜㄴㅅㅓㄴ	-12990
38	-12991
ugh	-12992
▁ㄴㅗㅅ	-12993
▁ㅂㅕㄴㄷㅓㄱ	-12994
▁ㅇㅓㄹㄸㅓㄹ	-12995
▁ㅇㅛㅇㅂㅓㅂ	-12996
▁311	-12997
▁1924	-12998
▁cr	-12999
▁ㄱㅡㅂㅅㅜ	-13000
▁Another	-13001
ㅍㅓㄴ	-13002
▁There	-13003
▁ㅊㅜㄹㅅㅗ	-13004
ㅌㅏㄴㅂㅜㄹ	-13005
▁ㄱㅣㅁㅁㅜㄴ	-13006
▁ㅇㅔㄹㅈㅏ	-13007
ㅁㅐㄴㅌㅣㄱ	-13008
▁ㄹㅐㄴㄷㅣㅇ	-13009
▁ㅂㅏㄱㄹㅕㄱ	-13010
▁ㅂㅜㅌㅈㅏㅂㅎㅣ	-13011
▁Ta	-13012
▁bo	-13013
▁005	-13014
▁INF	-13015
▁ㅎㅏㅇㅁㅏ	-13016
▁ㅇㅣㄴㅍㅕㄴ	-13017
▁ㅈㅣㄹㄹㅣㄴ	-13018
▁ㄷㅗㄹㄹㅣㄴㄷㅏ	-13019
▁ㅇㅡㅇㅁㅗ	-13020
▁ㅇㅏㅍㅈㅏㅇㅅㅓ	-13021
▁ㅅㅏㄴㅇㅓㅂㄷㅏㄴㅈㅣ	-13022
▁IBM	-13023
▁ㅇㅏㄴㄷㅔ	-13024
▁ㅇㅓㅁㅎㅗ	-13025
ㄱㅏㄹㅇㅣ	-13026
ㄹㅔㄹㄹㅣ	-13027
▁ㅈㅏㅇㅎㅏㅂ	-13028
ㅈㅏㅇㅁㅣ	-13029
▁ㅅㅗㅇㄴㅏ	-13030
▁ㅇㅗㄹㅃㅐ	-13031
▁ㄷㅗㄹㅊㅜㄹ	-13032
▁ㄱㅕㄱㅂㅏㄹ	-13033
▁ㅅㅓㄴㅅㅜㄹ	-13034
▁ㅅㅓㄴㅅㅣㄱ	-13035
mon	-13036
roid	-13037
▁Gra	-13038
▁ㅎㅏㄾ	-13039
ㅎㅏㄴㅎㅣ	-13040
▁ㅂㅣㄴㅌㅣ	-13041
▁ㅅㅣㄹㅎㅘ	-13042
ㄱㅡㅁㄲㅓㅅ	-13043
▁DIS	-13044
▁ㄷㅣㅁ	-13045
ㄴㅣㅇㄱㅜ	-13046
▁ㄱㅝㄴㅎㅏㄴㄷㅏ	-13047
▁ㅊㅜㄹㅈㅏㅇㅅㅗ	-13048
34	-13049
con	-13050
▁ㅊㅐㄱㅂㅗㅇ	-13051
▁ㅌㅗㅇㄱㅗㄱ	-13052
ㅇㅏㅅㄱㅕ	-13053
▁ㅁㅏㅅㅈㅣㅂ	-13054
▁ㅅㅓㅇㅅㅣㄴ	-13055
▁ㅇㅑㅇㅁㅣㄴ	-13056
▁ㅇㅕㄴㅎㅏㅂㅎㅚ	-13057
▁ㅎㅡㄹㄹㅣㄴㄷㅏ	-13058
▁ㅉㅣㅇ	-13059
ㄸㅐㅆ	-13060
ㅌㅓㄴㅈㅡ	-13061
▁ㅈㅣㅇㅅㅜ	-13062
▁ㅎㅐㅁㅅㅡ	-13063
ㄴㅕㄴㅊㅡㅇ	-13064
▁ㅅㅗㄴㅈㅣㄹ	-13065
▁ㅈㅣㄱㅈㅏㅇㅇㅣㄴ	-13066
▁ㄷㅏㅇㄱㅜ	-13067
▁ㅅㅓㅇㄱㅛ	-13068
▁ㅅㅑㄹㄹㅗㅅ	-13069
▁ㅇㅠㄱㅅㅗㄴ	-13070
▁ㅎㅕㄹㅈㅓㄴ	-13071
▁ㅇㅏㄴㅇㅑㅇㅅㅣ	-13072
umber	-13073
▁ㅌㅓㄹㄹㅣㄴ	-13074
ㅁㅜㄴㅋㅜㄹㄹㅜ	-13075
▁ㄱㅗㅇㅂㅐㄱㄱㅣ	-13076
▁ㅅㅜㅌ	-13077
▁when	-13078
▁ㄱㅏㄹㄹㅕㅆ	-13079
lin	-13080
ouch	-13081
▁ㅁㅜㄹㄱㅣ	-13082
▁ㅇㅕㄱㅂㅜ	-13083
▁ㅈㅓㅇㅂㅗㄱㅈㅏ	-13084
ㅍㅗㄱㄹㅕㄱ	-13085
▁ㄱㅝㄴㅅㅓㄴ	-13086
▁ㅅㅓㄴㅊㅏㄱ	-13087
ㄱㅐㅇㅇㅓ	-13088
ㅇㅣㅁㅈㅏ	-13089
ㅌㅔㄱㅊㅓ	-13090
ㅅㅏㅇㅈㅓㄴ	-13091
▁ㄷㅗㄱㅇㅡㅁ	-13092
ㅍㅡㄹㄱㅐㅇㅇㅓ	-13093
WA	-13094
▁ㄴㅠㅁ	-13095
ㅇㅛㅇㅅㅜ	-13096
▁ㄱㅕㅇㅁㅏ	-13097
▁ㅃㅗㅂㅎㅕ	-13098
▁ㅇㅏㄱㄴㅕ	-13099
▁ㄷㅏㅁㄷㅏㅁ	-13100
cess	-13101
▁make	-13102
▁ㄲㅡㄴㄷㅏ	-13103
▁ㅂㅏㄴㅈㅡㅇ	-13104
▁ㅇㅡㅇㅇㅝㄴㄷㅏㄴ	-13105
▁Inter	-13106
▁ㄱㅘㅇㄱㅐ	-13107
▁ㄴㅏㅂㅂㅜ	-13108
▁ㄴㅏㅆㅇㅡ	-13109
▁ㄷㅔㄱㅅㅡ	-13110
▁ㄹㅗㅂㅅㅡ	-13111
▁ㅇㅡㄹㄹㅕ	-13112
▁ㄴㅡㅇㅎㅏㄴ	-13113
▁ㅊㅏㄴㄹㅏㄴ	-13114
ㅎㅕㄴㅈㅜㄴ	-13115
▁ㄱㅜㄱㅇㅏㄱ	-13116
▁ㄱㅣㄹㅉㅜㄱ	-13117
▁ㄸㅜㅀㄹㅣㄴ	-13118
▁ㅍㅐㅇㅍㅐㅇ	-13119
TO	-13120
▁ㅃㅐㅆ	-13121
▁feel	-13122
▁ㅍㅣㄹㅁㅕㄹ	-13123
▁gl	-13124
▁004	-13125
▁ㄲㅣㅁ	-13126
▁ㅅㅟㅁ	-13127
▁ㅇㅕㄱㅁㅜ	-13128
▁Mel	-13129
▁1927	-13130
▁ㄱㅜㄴㅇㅢ	-13131
▁ㅇㅏㄱㄱㅟ	-13132
▁ㅊㅗㅇㄱㅏㅁ	-13133
▁ㅅㅠㄹ	-13134
▁ㅅㅣㅁㄱㅣ	-13135
▁ㅍㅣㄱㅊㅓ	-13136
▁ㅈㅡㅇㅈㅓㅇ	-13137
▁Queen	-13138
▁ㅅㅜㄴㅎㅕㄹ	-13139
ㄱㅜㄴㅂㅜㄴㅌㅜ	-13140
▁ㅋㅗㄹㅌㅡ	-13141
▁talent	-13142
▁ㄱㅣㅁㄱㅓㄴ	-13143
▁ㅅㅜㄴㅇㅣ	-13144
▁ㅅㅐㄱㄱㅏㅁ	-13145
▁299	-13146
▁ㄱㅕㅇㄷㅗ	-13147
▁ㅁㅏㄴㅅㅣㄴ	-13148
▁ㅇㅏㄴㅅㅏㅇ	-13149
ㅎㅡㅁ	-13150
ㅂㅗㄹㄹㅗ	-13151
ㅈㅓㄱㅂㅜㄴ	-13152
▁ㄴㅏㄴㄱㅏㄴ	-13153
▁ㅂㅜㅌㄷㅡㄹ	-13154
▁ㅂㅏㄱㅅㅓㅇㅈㅜㄴ	-13155
▁TWICE	-13156
▁ㄷㅗㄱㅅㅏ	-13157
▁ㅅㅓㄴㄷㅏ	-13158
▁ㅇㅗㅅㅊㅏ	-13159
▁ㅅㅜㄱㅅㅓㅇ	-13160
▁ㅈㅓㄴㄹㅑㅇ	-13161
▁ㅂㅐㄱㅇㅑ	-13162
▁ㅇㅕㄴㅎㅐㅇ	-13163
▁ㅊㅓㅇㅅㅜㄴ	-13164
▁ㅅㅏㅇㅊㅡㅇㅂㅜ	-13165
▁ㄱㅏㅆㄷㅏ	-13166
▁%/	-13167
ㄷㅔㄱ	-13168
▁ㅇㅘㅇㄹㅣㅂ	-13169
▁ㅇㅝㄴㅁㅏㄴ	-13170
▁ㅌㅏㅁㅌㅏㄱ	-13171
▁ㅎㅏㅇㅈㅓㄴ	-13172
▁ㄱㅣㅁㅂㅗ	-13173
ied	-13174
▁Dawn	-13175
▁ㄸㅏㅇㅋㅗㅇ	-13176
▁GTX	-13177
▁1932	-13178
ㄱㅕㄱㅈㅏ	-13179
ㅅㅏㅇㅇㅜ	-13180
ㅌㅡㄹㄹㅗ	-13181
▁ㅊㅓㄱㄷㅗ	-13182
ITY	-13183
▁Fort	-13184
▁ㅂㅗㄴㅇㅕㄴ	-13185
▁ㅈㅣㄱㄹㅕㄹ	-13186
▁ㅅㅗㄹㅌㅡ	-13187
▁ㅌㅡㄱㅎㅖ	-13188
▁ㅍㅗㄱㅌㅜ	-13189
▁ㄱㅏㅇㅇㅏㅂ	-13190
▁ㄷㅗㄱㅅㅣㄹ	-13191
▁ㄱㅣㅁㅁㅣㄴㅊㅓㄹ	-13192
rough	-13193
▁ㅁㅣㄴㅇㅕㅇㅎㅘ	-13194
▁ㅈㅜㅇㄷㅗㄱㅈㅏ	-13195
ㅂㅓㅅ	-13196
▁ㅂㅏㄹㄷㅓ	-13197
▁ㅇㅏㄹㄹㅐ	-13198
▁ㅁㅣㄴㅂㅓㅂ	-13199
▁ㅁㅗㅇㄷㅜㅇㅇㅣ	-13200
▁TL	-13201
▁ㅎㅕㄴㅎㅗㄱ	-13202
▁ㅅㅡㅇㅎㅘ	-13203
▁ㅈㅜㅇㅇㅏㅇㅇㅣㄹㅂㅗ	-13204
ates	-13205
ㅍㅣㄹㄹㅣ	-13206
▁ㅂㅐㄴㅋㅜ	-13207
▁ㅈㅜㅇㅁㅜ	-13208
▁ㅍㅜㅇㅇㅛ	-13209
▁ㅎㅏㄴㄹㅏ	-13210
▁ㄷㅗㅇㅇㅡㅁ	-13211
▁ㅅㅣㄴㅈㅗㄱ	-13212
ㅍㅐㅁ	-13213
▁357	-13214
▁ㄹㅔㄱㅌㅓ	-13215
ㅅㅜㄴㅎㅘㄴ	-13216
ㅎㅘㄱㅇㅣㄴ	-13217
▁ㅅㅜㄴㅇㅜㄱ	-13218
▁Bur	-13219
ㅇㅕㄴㄱㅣ	-13220
ㄷㅗㅇㅎㅏㄴ	-13221
▁ㅈㅏㅇㅎㅏㅇ	-13222
▁EF	-13223
▁232	-13224
ㄴㅑㅇㅈㅓ	-13225
▁ㅅㅏㅇㅅㅗ	-13226
▁ㅅㅓㄴㄴㅕ	-13227
ㅈㅐㄱ	-13228
ways	-13229
▁some	-13230
▁ㅁㅗㅇㅋㅡ	-13231
▁ㅈㅜㅇㅂㅗ	-13232
▁ㅊㅗㅇㅁㅜ	-13233
▁ㄱㅗㅇㅂㅓㅁ	-13234
▁ㅊㅐㄱㅇㅣㅁㄱㅏㅁ	-13235
▁9999	-13236
▁ㅈㅓㄴㅊㅓ	-13237
▁ㅈㅣㄹㅌㅏ	-13238
▁ㅂㅏㄴㄱㅗㅇ	-13239
▁ㅇㅗㄴㅌㅗㅇ	-13240
▁ㅈㅗㅇㅇㅓㅂㅇㅝㄴ	-13241
??	-13242
▁ㄱㅡㅂㅈㅗ	-13243
▁ㄷㅓㅍㅊㅕ	-13244
▁ㅈㅓㅇㅍㅏ	-13245
ㅅㅏㄹㅈㅏ	-13246
▁ㅈㅓㄹㄱㅣ	-13247
ITION	-13248
ㅌㅓㄱㄷㅐ	-13249
▁ㅂㅔㄹㄹㅗ	-13250
▁ㄷㅓㄹㄹㅓㅇ	-13251
ait	-13252
▁PSY	-13253
▁1080	-13254
ㅇㅜㄹㅇㅕ	-13255
▁STANDARD	-13256
▁ㅌㅡㄱㅂㅕㄹㅈㅏ	-13257
▁ㅅㅡㅂㅅㅓㅇ	-13258
yr	-13259
ㄸㅐㄴ	-13260
ㅌㅓㅇ	-13261
▁980	-13262
▁ㅂㅜㄹㅇㅢ	-13263
▁ㅈㅓㄴㅇㅐㄱ	-13264
▁Jack	-13265
ㅅㅣㄱㄱㅏ	-13266
ㅊㅣㄹㄹㅣ	-13267
▁ㅈㅣㄹㄹㅓㅆ	-13268
▁ㅊㅣㄴㅎㅐㅆ	-13269
▁ㄱㅣㄹㄷㅡㄹㅇㅣ	-13270
▁ㅇㅓㄴㄹㅗㄴㅇㅣㄴ	-13271
▁ㄸㅡㅅㄷㅐ	-13272
▁ㅈㅜㅇㅌㅚ	-13273
ㅇㅕㄴㅅㅓㅇ	-13274
ㄱㅏㅇㅎㅏ	-13275
▁ㄱㅏㄹㄱㅕ	-13276
▁ㄱㅡㄴㅎㅕㄴ	-13277
▁ㅇㅕㅇㄷㅓㄱ	-13278
ㅁㅗㅅㅎㅐ	-13279
▁ㅎㅏㅁㄱㅛ	-13280
ㅇㅣㄴㅈㅓㄹ	-13281
▁ㄱㅕㅁㅅㅗㄴ	-13282
▁ㅋㅓㄹㄹㅓㅁ	-13283
▁ㅎㅏㄱㅅㅓㄹ	-13284
▁ㅁㅕㄴㅎㅏ	-13285
▁ㅅㅣㄴㅇㅕㅇ	-13286
▁ㅇㅗㄱㅍㅕㄴ	-13287
▁GSM	-13288
ㅎㅡㅇㅅㅣ	-13289
▁ㅇㅏㄱㅊㅟ	-13290
▁ㅇㅞㄹㅅㅡ	-13291
▁ㅊㅜㄹㅇㅣㅂㅁㅜㄴ	-13292
▁Ele	-13293
▁ㅂㅗㄹㄱㅓ	-13294
▁ㅇㅘㄹㅊㅡ	-13295
▁990	-13296
ㄷㅡㄹㄹㅔ	-13297
▁Again	-13298
▁ㄱㅡㄴㅅㅗ	-13299
▁ㅇㅏㄹㅌㅏ	-13300
▁ㅅㅏㄴㅁㅜㄹ	-13301
▁ㅌㅐㄱㅌㅣㄱㅅㅡ	-13302
▁XM	-13303
▁ㅇㅝㄴㅎㅐ	-13304
▁ㅈㅣㄴㅅㅓ	-13305
▁ㅅㅏㅇㅈㅏㄱ	-13306
ㅅㅗㄱㅊㅓㄹㄷㅗ	-13307
uff	-13308
ㅎㅕㅁ	-13309
....	-13310
▁ㄴㅗㄴㅅㅏㄴ	-13311
▁ㄱㅕㄹㅈㅓㅇㄹㅕㄱ	-13312
ㄷㅗㅇㅅㅏ	-13313
▁ㅁㅜㄴㄷㅗ	-13314
▁ㅇㅐㄴㅅㅓ	-13315
▁ㅈㅣㄹㅅㅐㄱ	-13316
IUM	-13317
▁ㅍㅏㄴㅊㅣ	-13318
▁ㄱㅡㅂㄱㅏㅇㅎㅏ	-13319
31	-13320
REAM	-13321
▁him	-13322
▁ㄷㅜㄴㄱㅏㅁ	-13323
▁ㅎㅏㅂㅅㅓㅇㅇㅓ	-13324
▁ㅂㅏㄹㅊㅞ	-13325
▁ㅂㅏㄺㄱㅣ	-13326
▁ㅈㅓㅇㅅㅡㅇ	-13327
▁KM	-13328
▁Fant	-13329
ㅈㅓㄱㅇㅡ	-13330
▁ㅂㅣㄴㅈㅏ	-13331
▁ㅇㅏㅁㄷㅡ	-13332
▁ㅍㅕㄴㅍㅏ	-13333
▁ㄷㅟㅅㅁㅗㄱ	-13334
▁ㄷㅡㄹㄹㅣㄹ	-13335
▁ㅈㅓㅇㅇㅕㄴ	-13336
▁ㅉㅣㄱㅎㅕㅆ	-13337
▁304	-13338
▁ㅅㅏㄴㅅㅏ	-13339
▁ㄱㅣㅁㅎㅏㄱ	-13340
▁ㅈㅏㅂㄷㅏㅁ	-13341
▁ㄱㅗㅇㅅㅣㄱㅈㅓㄴ	-13342
▁ㅈㅓㅇㅅㅏㅇㅇㅣㄴ	-13343
ender	-13344
▁ㅅㅡㄹㅎㅏ	-13345
▁ㅉㅏㄱㅅㅜ	-13346
▁ㅍㅣㄹㄹㅗ	-13347
▁ㅂㅏㅂㅈㅜㄹ	-13348
▁DOS	-13349
▁ㅁㅗㅁㅅㅗ	-13350
ㅎㅏㄱㅅㅏㄹ	-13351
▁ㄱㅜㄱㄱㅗㅇ	-13352
afe	-13353
ots	-13354
▁ㅎㅓㅁㄴㅏㄴ	-13355
▁ㅈㅣㅇㅂㅕㅇㅈㅔ	-13356
▁San	-13357
OTHER	-13358
▁ㅍㅣㄴㅊㅣ	-13359
▁ㄱㅗㅇㅈㅣㄱ	-13360
84	-13361
▁Wr	-13362
▁ㄷㅗㅇㄹㅠㄹ	-13363
ㅁㅏㅇㄱㅏㄴㄷㅏ	-13364
ula	-13365
▁321	-13366
▁Snow	-13367
ㄷㅏㅁㄱㅏㅁ	-13368
▁dj	-13369
▁Kiss	-13370
▁ㄴㅡㅈㅊㅜ	-13371
▁ㅈㅓㄹㄹㅗ	-13372
▁ㅎㅘㅇㄱㅓㄴ	-13373
▁KG	-13374
▁Cent	-13375
ㄷㅔㄱㅅㅡ	-13376
ㅎㅏㄹㅁㅓ	-13377
▁ㄱㅜㄱㅁㅜㄴ	-13378
▁ㅅㅣㄴㅊㅏㅁ	-13379
ㅇㅠㄱㄷㅐ	-13380
▁ㄱㅜㄴㅈㅏ	-13381
▁ㅎㅟㅂㅆㅡㄹㄹㅕ	-13382
64	-13383
arch	-13384
▁ㄱㅐㄹㄹㅣ	-13385
▁ㄲㅓㄲㅇㅣ	-13386
▁ㄲㅡㄹㄹㅣ	-13387
▁ㅈㅡㅇㅊㅜㄱ	-13388
▁ㅌㅏㄴㅅㅣㄱ	-13389
ㄷㅗㅇㅅㅣㄱ	-13390
▁ㅊㅣㄴㅇㅘㅇ	-13391
ㄲㅜㅇ	-13392
▁Lee	-13393
▁ㅇㅛㅇㄱㅏ	-13394
▁ㅈㅏㅇㅌㅐ	-13395
▁ㅊㅏㄱㅇㅗ	-13396
▁ㅈㅜㅇㅈㅓㄴ	-13397
▁ㅊㅣㅇㅎㅐㅆ	-13398
▁ㅎㅏㅇㅁㅏㄴ	-13399
▁ㄱㅕㅇㅈㅓㄴㅅㅓㄴ	-13400
za	-13401
▁1926	-13402
▁come	-13403
▁ZEXAL	-13404
▁ㄱㅏㄺㅇㅏ	-13405
▁ㄷㅗㄱㅅㅣㄴ	-13406
▁ㅇㅣㄴㄱㅓㄴ	-13407
ories	-13408
ㄷㅣㅈㅊㅣ	-13409
▁about	-13410
▁ㅊㅏㅁㅎㅗㄱ	-13411
▁ㄷㅏㄹㅍㅐㅇㅇㅣ	-13412
go	-13413
▁880	-13414
▁jub	-13415
ㅅㅓㅇㅇㅣㄴ	-13416
▁ㅈㅣㄴㅌㅗㅇ	-13417
▁ㅊㅗㅇㅊㅣㅇ	-13418
▁ㅇㅜㄹㅅㅏㄴㄱㅘㅇㅇㅕㄱㅅㅣ	-13419
ㄱㅡㅂㅎㅣ	-13420
YS	-13421
▁307	-13422
▁ㅆㅣㅇ	-13423
ㅂㅡㄴㅅㅡ	-13424
▁ㅁㅏㄴㄷㅏ	-13425
▁ㅂㅓㄴㅂㅓㄴㅎㅣ	-13426
▁ㅊㅜㅇㅊㅓㅇㄷㅗ	-13427
▁LM	-13428
ㅎㅐㅁ	-13429
▁ㅈㅏㅇㄷㅗ	-13430
ㅇㅣㄴㅇㅕㄱ	-13431
▁ㄱㅗㄱㅁㅜㄹ	-13432
▁ㄱㅣㅁㅂㅏㅂ	-13433
▁TM	-13434
▁580	-13435
ㄱㅡㅂㅅㅜ	-13436
ㅅㅡㄹㄹㅏㄴ	-13437
▁Mo	-13438
cape	-13439
▁302	-13440
▁ㅁㅏㅇㅊㅕ	-13441
ㅁㅏㄴㄱㅏㄴ	-13442
▁HERO	-13443
ㅇㅝㄴㄱㅜ	-13444
▁ㅇㅣㄴㅊㅓㄱ	-13445
▁ㅍㅗㄱㅇㅑㄱ	-13446
▁ㄱㅣㅁㅅㅏㅇㅅㅜ	-13447
▁ㄴㅏㄱㄷㅗㅇㄱㅏㅇ	-13448
▁MSM	-13449
▁ㅁㅕㄴㄷㅏㅁ	-13450
ㄱㅐㅇㅇㅣ	-13451
▁ㅁㅕㅇㅈㅔ	-13452
▁ㅉㅏㄹㄹㅣ	-13453
▁ㄱㅏㅇㅎㅏㄹ	-13454
▁ㅈㅏㅂㅎㅣㄹ	-13455
▁ㄱㅡㄴㅂㅗㄴㅈㅜ	-13456
▁ㅅㅓㄹㅁㅕㅇㅅㅓ	-13457
▁911	-13458
▁let	-13459
▁ㅅㅓㅇㅈㅗ	-13460
▁ㅈㅣㄴㅅㅣ	-13461
ㅍㅕㅇㄱㅜㄴ	-13462
▁ㄷㅡㄹㅇㅕㅆ	-13463
▁ㅅㅣㄴㄱㅕㅇㅈㅓㄴ	-13464
▁ㅋㅡㄹㄹㅣㄴㅌㅓㄴ	-13465
▁Ref	-13466
▁BEST	-13467
▁NEXT	-13468
▁ㅇㅑㅇㅂㅜ	-13469
▁ㄸㅓㄹㅊㅕㅆ	-13470
▁ㅈㅏㅇㅈㅣㄴ	-13471
▁WCW	-13472
▁ㅁㅜㄴㅊㅔ	-13473
▁ㅎㅡㄹㄹㅣㄴ	-13474
ㅈㅣㅂㄱㅏ	-13475
▁ㅅㅣㄴㅈㅐ	-13476
▁ㅈㅏㅇㅈㅐ	-13477
▁ㄷㅗㅇㅎㅑㅇ	-13478
▁ㅁㅜㄴㅎㅏㅇ	-13479
▁ㅇㅕㅁㅇㅝㄴ	-13480
▁ㅍㅡㄹㄹㅣㅅ	-13481
▁470	-13482
▁ㅂㅗㄴㄷㅐ	-13483
▁ㅁㅏㅈㅅㅓㄴ	-13484
▁ㅂㅕㄴㅂㅏㅇ	-13485
▁OZ	-13486
▁ㄴㅏㄴㅂㅏ	-13487
▁ㅎㅏㄱㄷㅗ	-13488
ㄹㅑㅇㅈㅣㄴ	-13489
ㅅㅣㄱㅈㅏㅇ	-13490
ㅇㅕㅇㅈㅣㄴ	-13491
▁had	-13492
▁ㅅㅏㅁㄱㅏ	-13493
ㅈㅏㅇㄱㅏㄴ	-13494
▁ㅎㅘㄴㅈㅓㄴ	-13495
▁680	-13496
ㄹㅓㅇㅋㅡ	-13497
▁ㄱㅏㅇㅅㅣ	-13498
▁ㅅㅓㄴㄷㅓㄱ	-13499
▁ㅇㅣㄹㅂㅗㄴㄷㅗ	-13500
▁ㄱㅜㅁ	-13501
▁ㅂㅜㄹㅆㅣ	-13502
ㅂㅗㄹㅌㅡ	-13503
ki	-13504
▁ㅂㅗㅇㅎㅘ	-13505
▁ㄱㅗㅇㅁㅜㄴ	-13506
▁ㅇㅡㅁㅅㅣㄱㅁㅜㄹ	-13507
iant	-13508
▁ㅈㅏㅂㅇㅡㅁ	-13509
▁ㅈㅓㄴㄹㅕㅇ	-13510
▁ㅈㅓㅂㅊㅏㄱ	-13511
REAK	-13512
▁Double	-13513
▁ㅈㅗㅇㅇㅛㅇ	-13514
▁ㅎㅏㅂㅂㅗㄴ	-13515
▁Chaos	-13516
ㅅㅏㅇㅎㅜㄴ	-13517
▁ㄱㅗㅇㅇㅓㄴ	-13518
▁ㅅㅓㄴㅇㅏㄱ	-13519
by	-13520
▁238	-13521
▁ㄱㅗㅇㅇㅢ	-13522
ㅎㅏㅇㅈㅓㄴ	-13523
▁ㅁㅏㄴㅁㅜㄹ	-13524
▁ㅅㅓㄹㅈㅣㄴ	-13525
▁ㅂㅏㄱㅅㅓㄱㅁㅣㄴ	-13526
▁IB	-13527
▁Bet	-13528
▁Lord	-13529
ㄷㅗㅇㅇㅜㄱ	-13530
ㅂㅓㅁㅅㅜ	-13531
▁ㅅㅕㄴㅌㅡ	-13532
▁ㅇㅡㅁㅊㅏ	-13533
▁ㅎㅚㅇㅍㅗ	-13534
▁ㅅㅏㅇㄹㅠㄱㅈㅏㄱㅈㅓㄴ	-13535
▁405	-13536
▁ㅂㅗㄴㄱㅗ	-13537
▁ㅋㅣㄹㄹㅣ	-13538
▁Sports	-13539
alt	-13540
▁Reb	-13541
ㅊㅏㄹㄱㅜ	-13542
ㄷㅏㅅㅁㅜㄹ	-13543
▁ㄷㅏㄱㅊㅕ	-13544
▁ㅇㅏㅂㄱㅜ	-13545
▁ㅁㅏㅈㅊㅜㅁㅂㅓㅂ	-13546
▁625	-13547
▁ㅁㅕㄴㅎㅐㅆ	-13548
▁ㅁㅕㄹㅊㅣㅇ	-13549
▁ㄷㅗㄱㄱㅏ	-13550
▁ㅅㅡㅇㅁㅏ	-13551
▁ㅅㅣㄹㅈㅡㅇ	-13552
ㅋㅏㅂ	-13553
▁ATP	-13554
▁Ill	-13555
▁Easy	-13556
▁ㅅㅗㄱㅅㅜ	-13557
ㅉㅏㄹㅇㅓㅄ	-13558
▁ㄱㅡㄴㄱㅏㄴ	-13559
▁ㅈㅜㄹㅇㅕㅆ	-13560
▁ㅈㅡㅇㅅㅓㄹ	-13561
▁ㅈㅓㄴㅂㅏㄴㅂㅜ	-13562
▁ㅇㅑㄹㅉㅏㄹㅇㅓㅄ	-13563
▁RF	-13564
▁ㅅㅗㄱㅁㅏ	-13565
▁ㅇㅝㄴㅌㅗㅇ	-13566
▁ㅈㅓㅇㅂㅕㄴ	-13567
▁ㅎㅏㄱㅁㅕㅇ	-13568
▁ㄱㅘㅇㅇㅕㄱㅂㅓ	-13569
ican	-13570
▁ㅅㅟㄴ	-13571
▁ㅁㅏㄴㄹㅣ	-13572
▁ㅁㅣㄴㅅㅏ	-13573
▁ㅂㅗㄴㅈㅓㄴ	-13574
▁ㅈㅣㄹㅅㅣㄱ	-13575
▁By	-13576
ㅎㅏㄹㅇㅏ	-13577
▁Under	-13578
▁ㅅㅏㅇㅇㅏ	-13579
▁ㄱㅘㄴㅎㅐㅇ	-13580
▁ㅊㅗㅇㅅㅏㄹ	-13581
ㄹㄹㅔㅅ	-13582
▁ㅌㅏㄴㅈㅏ	-13583
sy	-13584
▁ㅇㅣㄹㅈㅜ	-13585
▁ㅍㅣㄹㅈㅜㅇ	-13586
▁ㄱㅓㄴㅊㅜㄱㄱㅏ	-13587
ㄹㅔㄱㅅㅡ	-13588
▁ㄱㅘㄴㅅㅓㅇ	-13589
ves	-13590
▁ㅅㅗㄴㅅㅡㅇ	-13591
ald	-13592
ㄹㅏㅅ	-13593
▁Nav	-13594
ㅇㅏㅂㄱㅏㅁ	-13595
▁ㅌㅐㅅㅇㅡㄴ	-13596
ney	-13597
▁229	-13598
▁401	-13599
▁ㄲㅜㅅ	-13600
ㅇㅑㅇㄱㅜ	-13601
▁ㅎㅏㅂㅎㅏ	-13602
ㅅㅓㄴㅇㅘㅇㅈㅗ	-13603
▁630	-13604
▁ㄱㅗㅇㅍㅛ	-13605
▁ㅇㅡㅁㅍㅛ	-13606
▁ㅅㅣㄱㅍㅏㄴ	-13607
▁Fu	-13608
ㅋㅐㅂ	-13609
▁236	-13610
ㅇㅛㅇㅍㅣㄹ	-13611
▁ㄴㅐㅇㅁㅕㄴ	-13612
▁ㅇㅏㄴㅊㅏㄱ	-13613
▁ㅇㅏㅍㅂㅏ	-13614
▁ㅇㅕㄹㄷㅐ	-13615
▁ㅇㅡㅁㅇㅠ	-13616
▁ㅈㅏㅅㄷㅐ	-13617
▁ㅈㅓㄱㅊㅜㄹ	-13618
▁ㅋㅜㅁ	-13619
▁Album	-13620
▁ㄲㅏㄹㅂㅗ	-13621
▁ㅇㅑㅇㅊㅣ	-13622
▁ㅈㅓㅇㅁㅣ	-13623
▁ㅎㅚㄱㄱㅣ	-13624
▁VOL	-13625
▁rem	-13626
ㄱㅡㅂㅊㅏ	-13627
▁ㅅㅑㄹㄹㅓ	-13628
▁237	-13629
▁ㄱㅡㅁㅈㅜ	-13630
▁ㅅㅔㄴㅌㅓㅁ	-13631
▁ㅇㅕㄱㄷㅗㅇ	-13632
▁ㅇㅛㅇㅇㅕㄱ	-13633
ㅇㅜㄴㄷㅓ	-13634
▁ㅂㅐㄱㅇㅏㄱ	-13635
▁Prot	-13636
▁ㅇㅔㄹㅌㅡㄴ	-13637
▁ㄱㅘㅇㅇㅕㄱㅊㅓㄹㄷㅗ	-13638
ㄱㅕㅇㅇㅜ	-13639
ㅅㅣㄴㅁㅜㄴ	-13640
▁272	-13641
▁ㄹㅜㄹㄹㅜ	-13642
▁ㅅㅜㄴㅎㅚ	-13643
▁MAR	-13644
▁ㅂㅗㅇㅎㅐ	-13645
▁ㅇㅕㄱㅈㅏ	-13646
▁ㅂㅏㅇㄷㅗㄱ	-13647
▁ㅎㅗㄴㅈㅏㅅㅁㅏㄹ	-13648
ask	-13649
▁sl	-13650
ㄹㅜㅇ	-13651
▁sup	-13652
▁ㅌㅓㅅ	-13653
▁ㅂㅏㄷㄷㅡㄹ	-13654
BLE	-13655
ㅅㅅㅗㄱ	-13656
ㅈㅣㄴㅂㅗ	-13657
ㅎㅕㅇㅅㅜ	-13658
▁ㅁㅜㄴㅅㅏㄴ	-13659
▁ㅂㅏㄹㄲㅡㄴ	-13660
ㅇㅜㄹㄹㅣㄹ	-13661
▁League	-13662
▁ㅁㅕㅇㅎㅏㅁ	-13663
▁ㅅㅏㅇㅅㅡㅂ	-13664
▁ㅁㅓㄱㅇㅣㅅㄱㅏㅁ	-13665
ㄹㅓㄹㅆㅏ	-13666
ㅊㅓㄴㄴㅕㄴ	-13667
▁ma	-13668
▁long	-13669
▁ㅈㅓㄴㅅㅗ	-13670
▁ㅎㅗㄴㄴㅐ	-13671
▁ㄱㅏㄴㄱㅕㄹ	-13672
▁er	-13673
▁1905	-13674
ㅎㅕㄴㅅㅜ	-13675
ㅂㅕㅇㅇㅝㄴ	-13676
ㅈㅗㅇㅇㅝㄴ	-13677
▁jubeat	-13678
▁ㅇㅡㄴㅇㅝㄹ	-13679
▁ㅈㅓㅇㅈㅗㅇㅎㅕㄴ	-13680
▁015	-13681
▁239	-13682
▁Ice	-13683
▁ㅇㅐㄱㅅㅔㄹㄹㅓ	-13684
▁PX	-13685
▁Lov	-13686
ㅂㅗㄲㅇㅣ	-13687
ㅈㅓㄴㅂㅏㅇ	-13688
▁More	-13689
ㅅㅣㄴㅈㅏㄱ	-13690
ㅇㅐㅇㄱㅡㄹ	-13691
▁ㄷㅏㄹㄷㅏㄹ	-13692
▁ㅇㅑㄱㅎㅏㅁ	-13693
▁ㅊㅜㄹㅎㅏㅇ	-13694
▁ㅌㅏㄹㄹㅏㄱㅈㅏ	-13695
▁Call	-13696
ㅂㅔㄹㄹㅏ	-13697
▁ㅅㅗㄱㅊㅗ	-13698
ㅂㅜㅌㅇㅕㅆ	-13699
ㅅㅏㅇㅊㅓㄴ	-13700
▁ㅇㅓㄹㄸㅓㄹㄱㅕㄹ	-13701
▁END	-13702
ㄱㅡㄹㄱㅓ	-13703
▁ㄲㅜㅅㄲㅜ	-13704
▁ㄴㅗㄴㅅㅜㄹ	-13705
ㄱㅡㄱㄱㅣ	-13706
▁ㅈㅣㄱㅎㅏㅁ	-13707
▁ㅎㅕㄱㅁㅕㅇㄱㅜㄴ	-13708
▁VP	-13709
ㅍㅗㅇ	-13710
▁Squ	-13711
▁ㅅㅡㅇㅈㅓㄴ	-13712
▁ㅇㅕㄴㅅㅣㄴ	-13713
▁ㅊㅐㅇㄱㅣㄹ	-13714
▁ㄱㅗㅇㄱㅕㄱㅈㅣㄴ	-13715
▁Mor	-13716
ㄹㅏㅁㅎㅚ	-13717
ㄱㅕㅇㅊㅏㄹ	-13718
ih	-13719
▁ㄹㅜㅅ	-13720
▁ㄱㅏㅇㅈㅣㄴ	-13721
▁ㅇㅏㄹㅍㅗㄴ	-13722
▁TUN	-13723
▁mod	-13724
ㅁㅏㅇㄷㅣ	-13725
▁ㄷㅏㄹㅁㅏ	-13726
▁ㅎㅡㅌㅃㅜ	-13727
▁ㅂㅏㄺㅎㅕㅆㅇㅡ	-13728
▁ㄱㅏㅇㄱㅏ	-13729
▁ㅁㅏㄴㅈㅐ	-13730
▁ㅇㅜㄴㄷㅏ	-13731
▁ㅊㅓㅇㅂㅜ	-13732
▁ㅇㅕㄴㅈㅜㅇ	-13733
▁ㅅㅣㅁㅅㅏㅇㅈㅓㅇ	-13734
▁ㅈㅓㅇㅈㅓㄴㅅㅣㄱ	-13735
ison	-13736
ㅁㅣㄹㄹㅏ	-13737
ㅂㅗㄴㅂㅜ	-13738
▁ㅂㅜㄹㄱㅗ	-13739
ㅈㅡㅂ	-13740
▁ㅁㅏㄹㄷㅏ	-13741
▁ㅈㅣㄴㅈㅓ	-13742
▁ㅊㅓㅇㅈㅏ	-13743
▁ㄱㅜㄱㅊㅓㄹ	-13744
▁242	-13745
▁ㅅㅣㅁㅊㅟ	-13746
▁ㅇㅘㅆㄷㅏ	-13747
▁ㅇㅜㄹㅌㅏ	-13748
▁ㄱㅜㄱㅁㅕㅇ	-13749
▁1923	-13750
ㄹㅣㅁㅅㅏ	-13751
▁ㄱㅗㅇㅇㅖ	-13752
▁ㅂㅗㄱㄹㅑㅇ	-13753
▁ㅎㅗㄴㄹㅕㅇ	-13754
▁ㄱㅜㄱㅂㅏㅇㄱㅜㄴ	-13755
umb	-13756
▁Som	-13757
▁ㄷㅣㄷ	-13758
▁ㅇㅕㄴㅇㅑㄱ	-13759
▁ㅍㅏㄴㄱㅜㄱ	-13760
▁ㄱㅏㅇㅂㅐㄱㅎㅗ	-13761
▁288	-13762
ㅁㅔㄹㄹㅗ	-13763
▁ㄱㅜㅇㄴㅕ	-13764
▁ㅍㅕㅇㅇㅑ	-13765
▁ㄱㅗㅇㅁㅜㄹ	-13766
▁ㄱㅜㅇㅈㅜㅇ	-13767
ㅎㅏㄱㅅㅐㅇㅎㅚ	-13768
▁ㅇㅑㅇㅎㅕㄴㅈㅗㅇ	-13769
▁ㅇㅜㅁㅈㅣㄱㅇㅕㅆ	-13770
oup	-13771
ㄴㅜㅁ	-13772
▁ㅁㅏㄹㄷㅏㄴ	-13773
▁ㅇㅡㄴㅂㅏㄹ	-13774
▁425	-13775
▁ㅁㅜㅅ	-13776
▁From	-13777
▁EE	-13778
▁After	-13779
▁ㅅㅡㅇㅅㅜ	-13780
▁ㅎㅘㅇㅅㅏㄴ	-13781
▁ㅅㅏㅇㅈㅓㅁㄱㅏ	-13782
▁"~	-13783
▁ㅇㅡㄱ	-13784
ㅇㅣㄴㅎㅚ	-13785
▁ㄴㅏㄴㅌㅏ	-13786
▁ㅂㅣㅈㅇㅓ	-13787
▁ㅊㅣㅇㄱㅣ	-13788
▁Street	-13789
▁ㅇㅟㄱ	-13790
ㄱㅡㄴㅊㅏ	-13791
ㅅㅏㅇㅇㅓ	-13792
ㅌㅐㅁㅍㅡ	-13793
▁ㅇㅔㄴㄹㅣ	-13794
▁ㅍㅏㅂㅋㅗㄴ	-13795
▁ㅎㅡㅁㅈㅣㅂ	-13796
ㅌㅕㅆ	-13797
▁ㅇㅑㅇㅇㅢ	-13798
▁ㅍㅗㅁㅍㅔ	-13799
ㄹㅗㅂㅎㅕㅆ	-13800
▁ㅅㅗㄱㄷㅏㅁ	-13801
▁ㅇㅝㄴㅋㅣㄹ	-13802
▁ㅈㅏㅇㅇㅠㄴ	-13803
▁ㅈㅓㅇㅅㅏㄴ	-13804
ien	-13805
▁ㅊㅞ	-13806
ㄴㅗㅂㅅㅣ	-13807
▁ㅅㅗㄹㄹㅜ	-13808
▁ㄱㅣㅁㅎㅗㅇ	-13809
▁ㅅㅑㄹㄹㅓㅅ	-13810
▁ㅍㅕㄴㅈㅣㅂㅈㅏㅇ	-13811
▁ㅈㅡㄹㅂㅣ	-13812
▁ㅍㅕㄴㅎㅣ	-13813
ㄹㅡㅁㄱㅣㄹ	-13814
ㅎㅏㄴㅈㅓㅇ	-13815
ㅇㅣㄴㅈㅓㄹㅅㅡ	-13816
IZ	-13817
ㅋㅜㅇ	-13818
▁ㅎㅣㄹㄷㅔ	-13819
▁ㅇㅕㄴㅁㅕㅇ	-13820
74	-13821
▁244	-13822
▁ㄷㅗㄱㅅㅡ	-13823
ㅈㅜㅇㅇㅣㄹ	-13824
▁CHA	-13825
▁ㅈㅓㅇㅇㅗ	-13826
▁ㅎㅏㅂㅅㅡ	-13827
▁ㅂㅏㅇㅋㅗㄱ	-13828
▁ㅊㅗㅇㅎㅏㄱㅅㅐㅇㅎㅚ	-13829
▁WR	-13830
orce	-13831
ㅎㅕㄴㅎㅢ	-13832
▁ㅅㅓㅇㅎㅘ	-13833
▁ㅂㅏㄹㅈㅗㄱ	-13834
▁power	-13835
▁ㅁㅐㅇㅈㅜ	-13836
▁ㅁㅕㄴㅎㅚ	-13837
ㅈㅜㄴㅈㅓㅁ	-13838
ㅈㅣㄴㄹㅕㄱ	-13839
▁ㅂㅜㄴㄱㅐ	-13840
▁ㅇㅣㄱㅎㅕㅆ	-13841
ㅁㅝ	-13842
ANT	-13843
IAC	-13844
▁ㅈㅓㄴㅅㅓ	-13845
ㄱㅜㄱㅈㅓㄱ	-13846
ㅈㅓㅇㅇㅝㄴ	-13847
▁ㅈㅏㅇㄴㅏㄴㅊㅣ	-13848
68	-13849
ㅘㅇ	-13850
▁Ho	-13851
▁ㅈㅑㄴ	-13852
▁ㅌㅡㄱㅊㅜㄹㄴㅏㄴ	-13853
ji	-13854
▁ㄱㅗㄹㅊㅣㅅ	-13855
▁ㄱㅡㄹㄹㅔㄴ	-13856
▁ㅊㅓㅇㅁㅜㄴ	-13857
▁ㅍㅣㄹㄹㅣㅂㅅㅡ	-13858
wn	-13859
▁ㅇㅕㄴㅅㅣ	-13860
ㄷㅏㅇㄷㅏㅇ	-13861
▁ㄱㅏㅅㄴㅏㄴ	-13862
▁ㄴㅣㅅㅍㅗㄴ	-13863
▁ㅎㅘㄴㅁㅏ	-13864
▁ㅂㅏㄱㅇㅣㄴ	-13865
▁ㅇㅣㄴㄷㅔㄱㅅㅡ	-13866
▁ㅊㅡㄱㅈㅓㅇㄱㅣ	-13867
▁RTS	-13868
▁ㅂㅕㄱㅎㅘ	-13869
▁ㅅㅏㄴㅈㅐ	-13870
▁Roy	-13871
ㅇㅣㄴㅌㅓ	-13872
▁ㅌㅐㄱㅈㅣ	-13873
▁ㅊㅏㄱㅌㅏㄴ	-13874
▁Earth	-13875
▁ㅈㅓㄴㄴㅚ	-13876
▁ㅇㅏㄹㅋㅗㄹ	-13877
▁ㄱㅗㅇㅁㅣㄴㅇㅘㅇ	-13878
▁mp	-13879
▁ㄴㅏㄱㅎㅜ	-13880
ㄴㅏㄴㅁㅣㄴ	-13881
▁251	-13882
▁Shin	-13883
▁into	-13884
ㅁㅏㅈㅊㅜㅁ	-13885
▁ㅅㅏㅇㅅㅓㄴ	-13886
▁ㅂㅏㄹㅁㅕㅇㅍㅜㅁ	-13887
ada	-13888
▁ㅅㅐㅇㄷㅗ	-13889
ㄱㅣㄹㄷㅗㅇ	-13890
ㅇㅜㅅㅈㅣㅂ	-13891
▁ㅁㅕㅇㄷㅗㅇ	-13892
▁ㅇㅣㅁㅈㅗㅇ	-13893
▁ㅈㅓㄱㅈㅏㅇ	-13894
▁ㅈㅓㅇㄹㅑㄱ	-13895
▁ㄱㅏㅇㄱㅕㅇㅍㅏ	-13896
rap	-13897
▁Ob	-13898
▁ㅅㅡㅇㅅㅏㄴ	-13899
▁ㅎㅓㄴㅎㅕㄹ	-13900
▁ㅂㅜㄹㄹㅓㅆㅇㅡ	-13901
ㄴㅏㅁㄱㅗ	-13902
▁ㄱㅜㄱㅇㅕㅇ	-13903
ㄹㅔㄴㅊㅣ	-13904
▁ㅅㅣㄴㅇㅏ	-13905
▁ㅎㅣㅁㄲㅓㅅ	-13906
▁ㅅㅣㄴㅊㅓㄴㅈㅣ	-13907
iki	-13908
aker	-13909
ㅅㅏㄴㄱㅣ	-13910
▁ㄱㅡㅁㄴㅏ	-13911
ㄱㅐㄱㅅㅓㄴ	-13912
ㅈㅏㄱㄱㅗㄱ	-13913
▁ㄷㅏㄴㅇㅓㄴ	-13914
▁ㅂㅕㅇㅅㅣㄹ	-13915
▁ㅍㅜㅇㅇㅜㄴ	-13916
▁ㅋㅓㅁㅍㅐㄱㅌㅡ	-13917
▁ㅈㅏㅇㅁㅣㄴㅊㅓㄹ	-13918
ava	-13919
▁Band	-13920
▁ㅂㅏㄱㅎㅏ	-13921
▁ㅈㅏㅈㅇㅏ	-13922
▁ㅇㅑㅇㅍㅏㄴ	-13923
amb	-13924
▁ㄱㅓㅁㄱㅐㄱ	-13925
▁ㅊㅏㅇㄴㅕ	-13926
▁ㅎㅐㅇㅎㅏㄴ	-13927
▁STX	-13928
ㄹㅣㄹㄹㅣ	-13929
ㅅㅏㄹㄹㅕ	-13930
▁ㄱㅘㄴㄹㅕㄴㅈㅏ	-13931
zer	-13932
▁PPV	-13933
▁class	-13934
▁ㄱㅓㅁㅁㅜㄴ	-13935
▁ㅁㅣㄹㅋㅣ	-13936
▁Shadow	-13937
▁ㅂㅓㄹㅂㅓㄹ	-13938
▁ㅎㅏㄴㅇㅑㅇㄷㅐ	-13939
▁RK	-13940
▁Cross	-13941
▁ㄷㅟㅅㅇㅣ	-13942
▁ㅅㅜㄱㄷㅏㄹ	-13943
▁ㅇㅣㅁㅊㅏㅇㅇㅛㅇ	-13944
uman	-13945
ㄷㅡㄱㅇㅣ	-13946
▁Hello	-13947
▁ㅇㅝㄹㄹㅣ	-13948
▁ㅁㅜㄴㅅㅓㅇ	-13949
▁ㅍㅣㅅㅈㅜㄹ	-13950
▁WA	-13951
▁ㅁㅣㄴㅅㅡ	-13952
▁ㅁㅣㄷㄱㅣ	-13953
ㄹㅡㄴㅂㅏㄹ	-13954
ㅈㅗㅇㅇㅜㄱ	-13955
mas	-13956
▁ㅇㅣㅇㅋㅏ	-13957
▁ㅅㅜㅁㄱㅕㅆ	-13958
▁;;	-13959
▁ㅅㅓㅇㅇㅠ	-13960
▁ㅈㅣㅂㅅㅣ	-13961
▁Doctor	-13962
▁ㅂㅐㄱㅇㅏㄱㄱㅘㄴ	-13963
URN	-13964
▁Er	-13965
ㅈㅏㅂㅎㅕ	-13966
▁ㄲㅗㅊㅁㅣ	-13967
▁ㅇㅏㄴㅈㅐ	-13968
▁ㅂㅓㄴㅂㅗㄱ	-13969
▁ㄱㅕㄹㅍㅏㄴ	-13970
▁ㄴㅏㅁㅈㅏㅇ	-13971
▁ㅌㅐㄱㅎㅏㄴ	-13972
▁ㅊㅏㅇㅇㅓㅂㅈㅜ	-13973
▁ㅁㅣㄹㅊㅏㄱ	-13974
▁ㅂㅏㄹㅇㅏㅁ	-13975
▁ㅅㅣㄱㄷㅏㄴ	-13976
▁ㅈㅓㄴㄱㅝㄴ	-13977
▁ㅈㅓㅇㅇㅕㄹ	-13978
▁Sub	-13979
ㅇㅣㄹㅊㅣ	-13980
ㅌㅣㄹㄷㅏ	-13981
▁ㅇㅕㄹㅈㅜㅇ	-13982
ㅊㅣㅁㅇㅓㅄㅇㅣ	-13983
▁Hor	-13984
▁Mind	-13985
▁ㅂㅕㅇㅁㅜ	-13986
▁ㅅㅐㄱㄷㅏ	-13987
▁ㅅㅣㄹㅁㅏ	-13988
▁ㅇㅏㄴㅆㅡ	-13989
▁ㄱㅓㄴㄷㅡㄹ	-13990
▁ㅅㅓㅇㄷㅏㄴ	-13991
▁ㅈㅓㄹㅁㅕㄹ	-13992
▁295	-13993
ㅁㅔㄹㄹㅣ	-13994
▁ㅈㅏㅂㅅㅡ	-13995
▁ㅊㅣㄴㄸㅏㄹ	-13996
ks	-13997
▁FOR	-13998
ㅇㅣㄹㅁㅜ	-13999
▁Games	-14000
▁ㅂㅜㄹㄷㅗ	-14001
▁ㅉㅗㅈㄱㅕ	-14002
▁ㅎㅣㅁㅆㅡ	-14003
▁ㄱㅕㄹㅈㅓㅁ	-14004
▁ㅈㅓㄴㄱㅡㄴㄷㅐ	-14005
▁254	-14006
▁ㅇㅠㄱㅈㅓㄴ	-14007
▁ㅎㅘㅇㄱㅡㅁㄱㅣ	-14008
ㅂㅜㄴㅂㅕㄹ	-14009
▁ㅅㅣㅁㅅㅣㄴ	-14010
▁ㅈㅗㅇㅍㅕㄴ	-14011
ㄹㅏㄴㅊㅔ	-14012
▁LR	-14013
erson	-14014
ㅂㅏㄴㅅㅡ	-14015
▁ㄱㅏㄴㅇㅣ	-14016
▁ㄴㅡㅈㅊㅝ	-14017
ㄴㅏㅁㄷㅗㅇ	-14018
▁ㅁㅣㅅㅁㅣㅅ	-14019
▁ㅈㅓㄱㅂㅕㄱ	-14020
▁ㅎㅗㅇㅁㅕㅇ	-14021
ㅈㅜㅂ	-14022
▁ㄷㅗㅊ	-14023
▁ㄱㅏㄱㄱㅐ	-14024
▁ㅇㅡㄴㅋㅓ	-14025
▁ㅈㅡㅇㄹㅠ	-14026
ㅁㅕㅇㄷㅗ	-14027
▁ㄱㅣㅁㅂㅗㅇ	-14028
▁ㅇㅕㅇㅈㅗㅇ	-14029
gg	-14030
oro	-14031
▁RM	-14032
OWER	-14033
▁760	-14034
▁Fro	-14035
▁ㅇㅕㅇㅇㅕㄴ	-14036
▁ㄱㅗㅇㅎㅏㄱㅂㅜ	-14037
▁ㄷㅏㅇㅍㅏ	-14038
▁ㅇㅣㄴㅋㅗ	-14039
▁ㅈㅓㄻㅇㅡㅁ	-14040
▁ㅁㅏㄱㅎㅣㄴㄷㅏ	-14041
▁ㅊㅣㄴㄷㅗㅇㅅㅐㅇ	-14042
▁008	-14043
▁ㄴㅕㅇ	-14044
▁ㅇㅛㅇㄷㅜ	-14045
ㅈㅓㅇㅇㅏㄴ	-14046
▁ㅅㅣㄴㅇㅏㅇㅅㅣㅁ	-14047
▁Techn	-14048
▁ㄲㅗㅈㅎㅕ	-14049
▁ㅌㅡㄱㄱㅏㅇ	-14050
ㄷㅗㄹㄹㅣㄴㄷㅏ	-14051
▁ㄱㅡㅂㅂㅜ	-14052
▁ㄱㅡㅂㅅㅏ	-14053
▁ㄷㅣㄹㄹㅓㄴ	-14054
ㅊㅓㄴㅎㅏ	-14055
▁ㄱㅡㄱㅊㅣ	-14056
▁ㅇㅏㅇㄱㅗ	-14057
▁ㄴㅗㄱㅌㅓㄴ	-14058
ㄹㅡㅂㄴㅣ	-14059
▁ㄱㅗㅇㅅㅏㅇ	-14060
▁ㅅㅏㅇㄷㅗㅇ	-14061
▁ㅎㅗㅇㅇㅣㄱ	-14062
▁ㄱㅣㅁㄱㅠ	-14063
ㅌㅗㅇㄱㅜㄱ	-14064
▁ㅈㅏㄱㅅㅓㅇㅈㅏ	-14065
▁ㅌㅡㄱㅂㅕㄹㅂㅓㅂ	-14066
▁707	-14067
ㅈㅓㅇㄱㅜ	-14068
ㅊㅐㅇㅇㅣ	-14069
▁ㅅㅗㄱㄱㅣ	-14070
ㅇㅏㅁㅇㅕㄱ	-14071
▁Second	-14072
▁ㅂㅜㄹㅂㅣㅊ	-14073
▁ㅅㅣㄱㅇㅛㄱ	-14074
enge	-14075
▁246	-14076
▁ㅊㅜㄱㅇㅑㄱ	-14077
▁ㅇㅏㄹㄹㅣㄴㄷㅏ	-14078
▁International	-14079
▁LCK	-14080
▁ㅎㅏㅂㅎㅐ	-14081
▁ㅂㅓㄴㅇㅕㄱㅈㅏ	-14082
▁LT	-14083
▁257	-14084
▁ㅍㅐㄱㅌㅓ	-14085
▁ㄴㅓㄹㄴㅓㄹ	-14086
▁ㅇㅜㄱㅇㅣㄹㄱㅣ	-14087
els	-14088
▁ㅈㅓㄴㄱㅜ	-14089
▁ㅅㅓㄱㅍㅏㄴ	-14090
▁ㅈㅗㅇㄱㅜㄴ	-14091
▁ㅌㅡㅁㅌㅡㅁ	-14092
ㅂㅜㄱㅈㅏ	-14093
▁ㄱㅏㅁㅎㅘ	-14094
▁ㄴㅏㅁㅍㅗ	-14095
▁ㅊㅏㅇㄱㅜ	-14096
▁ㅍㅗㄹㄴㅏ	-14097
▁ㅎㅘㅇㅂㅗ	-14098
▁ㄱㅓㅁㄷㅏㄴ	-14099
▁ㅂㅏㄱㅊㅓㄹ	-14100
▁ㅋㅣㄹㄹㅣㅇ	-14101
ility	-14102
▁ㅅㅏㅇㅇㅓㅂㅈㅣ	-14103
▁NDS	-14104
▁were	-14105
▁ㄴㅗㅎㅇㅏ	-14106
▁ㅂㅏㄱㅎㅢ	-14107
▁ㅇㅘㄴㅊㅣ	-14108
ㄷㅗㄱㅅㅓㅇ	-14109
▁ㅅㅣㄴㄹㅣㅁ	-14110
PR	-14111
▁ㄱㅏㅇㄱㅜ	-14112
▁ㄲㅡㅀㅇㅣ	-14113
▁ㅎㅔㄱㅌㅗ	-14114
ㄷㅗㅇㅎㅘ	-14115
ㅅㅡㅇㄷㅏㄹ	-14116
▁Normal	-14117
▁ㅊㅜㅇㅁㅏㄴ	-14118
ASH	-14119
ato	-14120
ico	-14121
trl	-14122
▁346	-14123
ㄴㅜㄴㅁㅜㄹ	-14124
ㅎㅕㄹㅈㅣㄹ	-14125
▁ㄱㅕㄹㅌㅏㄱ	-14126
▁ㅇㅑㅇㄱㅜㅇ	-14127
▁ㄷㅗㄹㄱㅕㄱㄷㅐ	-14128
▁ㄷㅗㅇㄱㅏㅂㄴㅐ	-14129
▁ㅃㅣㅇ	-14130
▁ㅋㅐㅇ	-14131
ather	-14132
▁ㄱㅏㅇㅂㅏㄱ	-14133
▁ㅎㅏㄴㄷㅏㄴ	-14134
ㅌㅏㄹㄹㅜ	-14135
▁ㄴㅗㅍㅇㅕㅆ	-14136
ㅍㅓㄴㅈㅣ	-14137
▁ㅅㅗㄱㄱㅜㄱ	-14138
OB	-14139
als	-14140
any	-14141
ㅎㅏㄴㄷㅐ	-14142
▁ㅁㅓㄱㅎㅕㅆ	-14143
MIX	-14144
▁OFF	-14145
ㅇㅣㄴㄱㅜ	-14146
▁Radio	-14147
▁ㄷㅓㅍㅇㅓ	-14148
▁ㅇㅐㅇㅁㅜ	-14149
▁ㄷㅗㅇㅂㅗㄱ	-14150
▁ㅈㅓㅁㅁㅏㄱ	-14151
▁ㅈㅜㅇㅎㅏㄱ	-14152
▁Tur	-14153
▁NLB	-14154
▁Ball	-14155
▁ㅁㅜㄹㅇㅢ	-14156
▁ㅈㅔㄴㅌㅡ	-14157
▁ㅎㅐㄱㅁㅣ	-14158
▁ㅎㅘㅇㅇㅑ	-14159
ㅁㅏㄹㄴㅕㄴ	-14160
ㅁㅜㄴㅇㅕㄱ	-14161
▁Dig	-14162
▁ㄷㅔㅅ	-14163
ㅇㅏㄴㄱㅏ	-14164
ㅇㅕㄴㅈㅐ	-14165
▁ㅁㅏㄹㅆㅏ	-14166
▁ㅈㅓㅂㄷㅐ	-14167
▁ㅇㅕㄴㅈㅓㅇ	-14168
▁ㅈㅓㅇㄱㅗㅇ	-14169
▁ㅈㅏㄱㅍㅜㅁㅅㅏㅇ	-14170
ker	-14171
▁006	-14172
▁ㄱㅏㅆㅇㅓㅆ	-14173
▁ㄷㅚㄴㅈㅏㅇ	-14174
▁ㅇㅕㅇㅅㅐㅇ	-14175
▁345	-14176
▁Speed	-14177
▁ㅇㅣㅇㄱㅡ	-14178
ㄱㅏㅇㅁㅣㄴ	-14179
ㅁㅏㅇㄱㅏㅆ	-14180
▁ㄲㅡㄶㄱㅣㄴ	-14181
▁ㄱㅣㅍㅅㅜㄱㅎㅣ	-14182
▁ㅁㅜㄱㅁㅜㄱㅎㅣ	-14183
YO	-14184
ince	-14185
▁ㅃㅣㄱ	-14186
▁ㅂㅏㄹㅂㅣ	-14187
ㅂㅐㄱㅁㅏㄴ	-14188
▁ㅇㅏㅇㅅㅜㄱ	-14189
▁ㅊㅓㅇㄷㅏㅁ	-14190
▁266	-14191
▁ㅂㅏㄴㅇㅑ	-14192
ㅈㅓㅇㅎㅘㄴ	-14193
▁ㅇㅗㅇㄹㅣㅂ	-14194
▁ㅇㅣㄹㅅㅓㄹ	-14195
bat	-14196
bow	-14197
▁VOD	-14198
ㄴㅔㄱㅌㅡ	-14199
ㅇㅣㄴㄱㅘ	-14200
▁ㅍㅜㄹㄹㅣㄹ	-14201
▁ㅇㅠㄱㅌㅏㄴㅈㅓㄴ	-14202
ㅆㅓㅆ	-14203
▁ㅈㅣㅈ	-14204
▁They	-14205
ㅁㅜㅅㄱㅏ	-14206
▁ㅂㅓㅁㅍㅓ	-14207
ㅁㅓㄱㅈㅣㄹ	-14208
ㅅㅓㄴㅈㅗㄱ	-14209
▁ㅁㅣㄹㄹㅣㄹ	-14210
▁ㅋㅏㄹㅈㅣㅂ	-14211
ㄱㅡㅂㅈㅏ	-14212
ㅎㅕㅇㅊㅏ	-14213
▁ㄷㅗㅇㅈㅣㄴ	-14214
▁ㅂㅏㄴㄱㅏㅂ	-14215
▁ㅇㅜㄹㄹㅣㅁ	-14216
▁ㅎㅕㅇㄱㅘㅇ	-14217
▁ㄱㅣㅁㅈㅓㅇㅇㅜ	-14218
▁ㅂㅏㅇㄷㅗㄱㅁㅕㄴ	-14219
ㅋㅏㄹㄹㅏ	-14220
ㅌㅣㄴㄷㅏ	-14221
▁ㄱㅣㅁㅅㅏ	-14222
▁ㅈㅐㅇㅊㅟ	-14223
▁ㅇㅓㅅㄱㅏㄹㄹㅣ	-14224
▁ㅈㅜㅇㄱㅗㅇㄱㅜㄴ	-14225
ㅋㅓㄹㄹㅔ	-14226
▁ㅎㅕㅇㅊㅔ	-14227
▁ㄷㅓㅇㄱㅜㄹ	-14228
▁po	-14229
▁810	-14230
▁840	-14231
▁Ann	-14232
▁Kar	-14233
▁Pat	-14234
▁Anim	-14235
▁ㄱㅡㄹㅆㅔ	-14236
▁ㄲㅜㄹㄹㅣ	-14237
▁ㅂㅏㄹㄷㅡ	-14238
▁ㄴㅏㄱㅂㅓㅂ	-14239
LA	-14240
▁050	-14241
▁Hon	-14242
▁baby	-14243
▁ㅋㅔㄴㅌㅡ	-14244
▁ㅎㅏㅂㅊㅏㅁ	-14245
▁ㅎㅡㄹㄹㅓㅆ	-14246
▁ㄱㅓㄴㄱㅜㄱㄷㅐ	-14247
▁ㅊㅗㅇㄱㅕㄱㅈㅓㄴ	-14248
▁Collection	-14249
▁ㅆㅔㄴ	-14250
▁2600	-14251
ㄹㅏㄴㅊㅣ	-14252
▁15000	-14253
▁ㅇㅕㄴㄱㅐ	-14254
▁ㅂㅗㄴㅍㅏㄴ	-14255
▁UB	-14256
▁ㄱㅜㄴㄹㅑㅇ	-14257
▁ㅇㅘㅇㅇㅘㅇ	-14258
▁ㄸㅓㄱㅂㅗㄲㅇㅣ	-14259
▁ㅈㅓㄴㅎㅏㄱㅅㅐㅇ	-14260
ㅈㅗㅎ	-14261
▁335	-14262
▁ㅇㅘㅇㅅㅣㅂㄹㅣ	-14263
▁ㄱㅣㅁㄱㅏㅂㅎㅘㄴ	-14264
▁ㄱㅝㄹ	-14265
▁ㅋㅓㄴㅅㅡ	-14266
▁ㅁㅓㄱㅇㅕㅆ	-14267
▁ㅅㅏㄹㅅㅐㅇ	-14268
▁ㅅㅓㅇㅊㅏㄴ	-14269
▁ㅈㅗㅇㅇㅑㅇ	-14270
▁ㄱㅕㅇㅈㅐㅇㅅㅏ	-14271
▁ㅁㅏㅇㅎㅏㄴㄷㅏ	-14272
▁ㅅㅓㅇㅈㅏㅇㄱㅣ	-14273
la	-14274
ㅍㅣㄹㄹㅔ	-14275
▁ㄱㅜㄱㅎㅗ	-14276
▁ㅈㅓㅁㅍㅓ	-14277
▁ㄴㅏㅂㅈㅏㄱ	-14278
▁ㅈㅓㅇㅁㅗㅇㅈㅜ	-14279
▁Ka	-14280
▁HYPER	-14281
▁ㅃㅓㄴㅎㅣ	-14282
▁ㅍㅐㄴㅅㅓ	-14283
▁ㅂㅏㅂㄱㅏㅄ	-14284
▁ㅇㅕㄴㅅㅓㄴ	-14285
▁ㅋㅗㅅㅅㅜ	-14286
▁ㄷㅗㄱㅊㅣㅁ	-14287
ㄴㅗㄹㄹㅗ	-14288
▁ㄴㅓㄼㅎㅕ	-14289
▁ㅇㅔㄹㅅㅣ	-14290
▁ㅌㅣㅁㅇㅝ	-14291
▁ㄱㅜㄴㅈㅗㅇ	-14292
▁ㅈㅓㅂㅁㅗㄱ	-14293
▁ㅈㅓㅇㅊㅏㄹㅂㅕㅇ	-14294
▁ZX	-14295
▁Kim	-14296
▁ㅍㅣㄹㅎㅏ	-14297
▁ㄱㅏㄴㄷㅏㅁ	-14298
▁ㄱㅐㄱㅇㅝㄴ	-14299
▁ㅊㅜㄹㄷㅗ	-14300
▁MANIAC	-14301
fore	-14302
▁ㅇㅝㅇ	-14303
ㅁㅜㄹㅁㅕ	-14304
ㅌㅔㄱㅌㅓ	-14305
▁ㅇㅡㅇㅅㅜ	-14306
ㄱㅗㄹㅁㅗㄱ	-14307
▁ㅈㅏㅇㅇㅕㅇ	-14308
▁would	-14309
▁ㅅㅡㄹㄱㅣ	-14310
▁ㅈㅏㅇㅁㅏ	-14311
ㄷㅗㅇㄱㅜㄱ	-14312
▁ㅇㅝㄴㅈㅓㅁ	-14313
leep	-14314
▁PART	-14315
▁been	-14316
▁ㅅㅗㄱㄱㅗㄱ	-14317
▁ㅅㅣㄹㄱㅏㄱ	-14318
▁Work	-14319
▁Ki	-14320
ㅅㅗㄴㅈㅏ	-14321
▁ㄲㅣㅁㅅㅐ	-14322
▁ㄹㅏㅁㄷㅏ	-14323
▁ㅂㅗㅇㅇㅜ	-14324
▁ㅈㅓㅇㅍㅏㄴ	-14325
▁ㅈㅓㄴㄱㅜㄱㅁㅜ	-14326
▁ORAS	-14327
▁ㅅㅗㄱㄴㅐ	-14328
▁ㅌㅏㄹㅇㅢ	-14329
▁ㅇㅛㅇㄱㅘㅇ	-14330
▁ㅂㅏㄱㅅㅏㄹㄴㅏㅆ	-14331
va	-14332
itt	-14333
ㅋㅠㄹ	-14334
▁bet	-14335
▁ㅌㅡㄱㄴㅡㅇ	-14336
aint	-14337
▁ㅂㅏㄴㅁㅣ	-14338
▁ㅅㅓㅇㅎㅗ	-14339
▁ㅍㅗㄹㄷㅡ	-14340
ㅍㅗㄹㄹㅗㄴ	-14341
▁ㅈㅏㄱㅇㅕㄹ	-14342
▁ㅇㅡㄴㄴㅣㄱ	-14343
▁ㅁㅕㅇㅁㅗㄱㅅㅏㅇ	-14344
▁JAP	-14345
ㄹㅓㅂㅎㅣ	-14346
▁ㅁㅣㄹㅇㅝ	-14347
▁ㅅㅏㄴㅌㅣ	-14348
▁Cra	-14349
otion	-14350
ㅈㅜㄹㄱㅣ	-14351
ㅌㅗㄹㄹㅣ	-14352
uth	-14353
▁Wonder	-14354
▁ㅁㅓㅁㅊㅝㅆ	-14355
▁ㅂㅜㄱㄱㅕㅇ	-14356
▁ㅉㅓㄹㅉㅓㄹ	-14357
33	-14358
▁>>	-14359
▁VC	-14360
ures	-14361
▁-.-	-14362
▁WCG	-14363
▁ㅁㅏㄴㅎㅏㄴ	-14364
▁ㅅㅓㅇㅈㅓㄴㅅㅏ	-14365
ㅍㅗㄱㅅㅡ	-14366
▁ㄱㅓㄴㅈㅕ	-14367
▁ㅂㅔㄴㅊㅕ	-14368
ㅇㅣㅂㅁㅜㄴ	-14369
ㅁㅐㅇㅈㅓㅁ	-14370
▁ㅅㅗㄱㅇㅣㄴ	-14371
▁ㅅㅗㅇㅇㅡㄴ	-14372
hed	-14373
▁Bill	-14374
▁ㄹㅓㄱㅅㅕ	-14375
▁ㅅㅟㅂㅅㅏ	-14376
▁Revolution	-14377
▁ㅅㅜㄴㅇㅑㅇㅈㅓㄴㅎㅏㅁ	-14378
vice	-14379
▁Code	-14380
ㅅㅣㄴㅅㅜ	-14381
▁ㅇㅓㄺㅁㅐ	-14382
▁ㅎㅏㅂㅅㅣ	-14383
▁ㅈㅣㄹㅅㅗ	-14384
▁ㅋㅣㄹㄹㅏ	-14385
▁ㅎㅣㄹㄷㅏ	-14386
▁277	-14387
ㄱㅘㄴㅅㅣㄱ	-14388
▁ㄷㅏㅇㅎㅗㄱ	-14389
▁ㅇㅏㄱㄷㅗㅇ	-14390
▁ㅇㅓㅁㅊㅣㄴㅇㅏ	-14391
▁Pf	-14392
▁ㅈㅓㄴㄹㅐ	-14393
▁ㅅㅗㅇㄱㅡㅁ	-14394
▁Fil	-14395
▁258	-14396
ㄹㅡㅂㅆㅡ	-14397
▁ㅂㅏㄱㅅㅗ	-14398
▁ㅂㅓㅂㄱㅠ	-14399
▁ㅅㅡㅂㅈㅣ	-14400
▁ㅇㅕㄴㄱㅏ	-14401
ㄱㅝㄴㄹㅕㄱ	-14402
ㅅㅓㅇㄷㅗㅇ	-14403
▁ㄱㅡㄺㅇㅓ	-14404
▁ㅋㅓㅂㄹㅏ	-14405
▁ㅎㅗㄴㄴㅏ	-14406
▁ㄱㅏㅇㅁㅜㄹ	-14407
▁ㄷㅗㄹㄹㅣㅁ	-14408
▁247	-14409
elieve	-14410
▁ㄱㅣㄹㅂㅓ	-14411
▁Why	-14412
▁ㄱㅜㄱㅂㅜ	-14413
▁ㅂㅜㄹㅎㅜ	-14414
▁ㅊㅣㅁㅅㅜ	-14415
▁ㅍㅔㄴㄷㅓ	-14416
▁ㅇㅘㄴㅎㅐㅇ	-14417
▁ㅈㅡㄱㅎㅡㅇ	-14418
ellow	-14419
▁play	-14420
▁ㅂㅐㄴㄷㅣ	-14421
▁.?	-14422
▁ㄱㅐㅁ	-14423
▁ㅂㅕㄴㅂㅕㄴ	-14424
▁ㅇㅝㄴㅌㅏㄱ	-14425
▁ㅎㅘㄱㅇㅕㄴ	-14426
▁GST	-14427
ㅎㅏㅁㅅㅜ	-14428
▁ㅎㅡㄱㅌㅐ	-14429
▁ㄱㅡㅁㄱㅘㄴ	-14430
▁MAG	-14431
▁1912	-14432
▁ㅂㅜㅇㄱㅏ	-14433
▁ㅅㅏㅇㄷㅗ	-14434
▁ㅇㅕㄴㅇㅓ	-14435
▁ㅁㅏㄹㅂㅓㄹ	-14436
ㅅㅗㅂ	-14437
▁SMG	-14438
ㄱㅡㅁㅅㅗㄱ	-14439
ㅇㅠㄱㅎㅏㄱ	-14440
▁ㄱㅐㄱㅅㅣㄹ	-14441
▁ㅂㅕㅇㅇㅑㄱ	-14442
▁ㅂㅏㄱㅈㅔ	-14443
▁ㅇㅣㅇㅇㅓ	-14444
▁ㅁㅓㅇㅊㅓㅇㅇㅣ	-14445
▁ㅇㅣㄴㅁㅣㄴㅎㅐ	-14446
▁Championship	-14447
▁Ber	-14448
▁VII	-14449
▁ㅂㅜㄴㄱㅛ	-14450
▁ㅂㅜㄹㅅㅡ	-14451
▁ㅅㅏㄴㄷㅗ	-14452
▁ㅅㅣㄱㅇㅣ	-14453
▁ㅇㅘㅇㄹㅐ	-14454
ㅅㅗㄱㅈㅓㅇ	-14455
▁ㄱㅏㅇㅅㅓㄴ	-14456
▁Only	-14457
ㄴㅏㄴㅂㅏㅇ	-14458
ㅂㅏㄴㅉㅏㄱ	-14459
ㅌㅡㄱㅂㅕㄹㅈㅏ	-14460
▁need	-14461
ㅇㅡㅁㅍㅏ	-14462
ㅊㅜㄹㅅㅗ	-14463
▁ㄴㅐㅇㅅㅗ	-14464
▁ㅎㅏㄴㅇㅣㄹ	-14465
▁ㅂㅏㄴㅉㅏㄱㅂㅏㄴㅉㅏㄱ	-14466
ㄷㅡㄹㄱㅣ	-14467
▁ㄲㅗㄴㄷㅐ	-14468
▁ㅂㅏㄱㅂㅗ	-14469
▁ㅅㅣㄹㅈㅐ	-14470
add	-14471
▁Mov	-14472
ㅇㅓㅇㅇㅣ	-14473
▁ㄱㅕㅇㅊㅏㄹㅊㅏ	-14474
▁243	-14475
ㅍㅣㄴㅅㅡ	-14476
istory	-14477
▁ㅇㅕㄴㅇㅠ	-14478
▁ㅂㅓㄴㅇㅕㄱㄱㅣ	-14479
▁Id	-14480
▁UD	-14481
APP	-14482
OSH	-14483
▁-,	-14484
▁ㅇㅖㄹ	-14485
▁ㄴㅡㄹㄹㅕㅆ	-14486
▁ㅂㅕㄴㄱㅜㄱ	-14487
▁ㅎㅣㅁㄱㅕㅂ	-14488
▁ㅎㅏㄴㄱㅕ	-14489
▁ㅊㅓㄱㅌㅏㄴ	-14490
▁Mid	-14491
ㅈㅓㅇㄱㅛ	-14492
▁ㄷㅡㄹㄹㅣㄴ	-14493
▁ㅂㅕㄱㅁㅕㄴ	-14494
TN	-14495
ues	-14496
ㅅㅣㅁㅋㅗ	-14497
▁ㅁㅐㅇㅁㅗㄱ	-14498
▁BH	-14499
▁490	-14500
ㄱㅡㅁㅅㅗ	-14501
▁ㅁㅜㄲㅇㅣ	-14502
▁ㅈㅜㅇㅅㅜ	-14503
ㅈㅓㅇㅁㅜㄴ	-14504
▁Future	-14505
▁Series	-14506
▁ㅊㅏㄱㅅㅣㄹ	-14507
▁ㅎㅐㅁㅌㅡㄴ	-14508
▁ㅎㅘㅇㅊㅜㅇ	-14509
▁ㅎㅔㅅㄱㅏㄹㄹㅕ	-14510
oph	-14511
▁355	-14512
▁ㄷㅗㅇㅌㅣ	-14513
▁ㅁㅜㄹㄱㅓ	-14514
ㅁㅓㄱㅂㅏㅂ	-14515
▁ㄱㅗㅇㅅㅐㅇ	-14516
▁ㅁㅐㄱㅇㅏ	-14517
ㄱㅓㄴㅊㅏㅇ	-14518
▁ㅂㅏㅇㅈㅣㄴ	-14519
▁CAN	-14520
▁2800	-14521
▁ㅈㅏㅂㄷㅏ	-14522
▁ㅍㅣㄱㅅㅡ	-14523
INK	-14524
▁241	-14525
▁ㄱㅟㄴ	-14526
ㅂㅓㅂㅂㅜ	-14527
▁ㄱㅏㄱㅎㅏ	-14528
▁ㅁㅣㄹㅊㅣ	-14529
▁ㅇㅔㄴㅌㅜ	-14530
▁ㅇㅡㄴㅇㅢ	-14531
▁Silver	-14532
▁FD	-14533
▁Vers	-14534
ㅅㅓㄱㅎㅢ	-14535
ㅊㅏㅁㅅㅏ	-14536
▁think	-14537
▁ㅁㅣㄹㅇㅑㅇ	-14538
▁ㅂㅡㄹㄹㅣㅇ	-14539
▁ㅅㅓㅁㄱㅘㅇㅌㅏㄴ	-14540
▁IE	-14541
▁248	-14542
▁287	-14543
▁ind	-14544
usion	-14545
ㄴㅓㄹㄹㅣ	-14546
ㄷㅗㅇㅈㅣㄴ	-14547
▁~.	-14548
▁ㅂㅕㅇㅇㅏ	-14549
▁ㅈㅓㅅㄱㅏ	-14550
▁ㅎㅏㄹㅂㅐ	-14551
ㅂㅐㄱㅅㅏㄴ	-14552
▁ㅊㅓㄹㅎㅕㄹ	-14553
▁ㅎㅐㅇㅈㅣㄴㄱㅗㄱ	-14554
por	-14555
▁pre	-14556
▁ㅂㅏㄴㅎㅑㅇ	-14557
▁ㅈㅏㅁㄱㅣㄴ	-14558
pc	-14559
▁ㅂㅐㄱㄱㅟ	-14560
▁ㅇㅑㅇㄹㅕㄱ	-14561
▁ㅍㅔㄴㅅㅣㅇ	-14562
olf	-14563
ister	-14564
▁ㅅㅡㅂㄱㅣ	-14565
▁ㄱㅡㄱㄹㅕㄹ	-14566
▁DN	-14567
▁TER	-14568
▁ㅎㅏㅂㅅㅔ	-14569
▁ㅈㅣㄴㅇㅓㄴ	-14570
▁ㅎㅕㄴㄱㅘㄴ	-14571
▁780	-14572
▁Bas	-14573
▁ㄱㅕㄹㅇㅕ	-14574
▁ㅍㅔㄴㄹㅣ	-14575
▁ㅇㅣㄹㄱㅏㄴ	-14576
▁ㅅㅗㄴㄲㅗㅂㅎㅣㄴㄷㅏ	-14577
ㅅㅐㅁ	-14578
▁Bus	-14579
▁PER	-14580
ALLEN	-14581
▁ㅋㅏㄴㅌㅏ	-14582
ㅇㅜㄹㄹㅔㅅ	-14583
▁ㄷㅏㅁㅈㅏㅇ	-14584
▁ㅁㅜㄲㅇㅡㅁ	-14585
▁ㅇㅕㄴㅍㅕㅇ	-14586
▁ㅇㅛㅇㅈㅣ	-14587
▁ㅊㅏㅁㅎㅚ	-14588
ㅈㅜㅇㄹㅕㄱ	-14589
▁ㄱㅘㅇㄴㅕㄴ	-14590
▁ㄸㅡㄴㄱㅗㅇ	-14591
▁ㄱㅏㄹㄹㅣㄹ	-14592
▁ㄱㅕㅇㅍㅜㅁ	-14593
▁ㅅㅏㅇㅈㅓㄴ	-14594
▁ㅇㅕㄹㄹㅑㅇ	-14595
▁ㅍㅏㄴㅂㅕㄹ	-14596
▁Chapter	-14597
▁ㅁㅓㅁㅊㅜㄴㄷㅏ	-14598
▁Mc	-14599
read	-14600
▁take	-14601
ㄹㅗㄱㅅㅡ	-14602
▁ㄹㅔㄱㅅㅓ	-14603
▁ㅂㅔㄴㄷㅏ	-14604
▁ㅅㅛㄹㄷㅓ	-14605
▁ㅍㅗㄱㅍㅜㅇㅇㅜ	-14606
bit	-14607
▁XL	-14608
▁god	-14609
ㄱㅏㅆㄷㅏ	-14610
▁ㄹㅐㄴㄷㅓ	-14611
▁ㅂㅏㅇㄱㅖ	-14612
▁ㅌㅏㄹㄹㅗ	-14613
▁ㅈㅜㅇㄱㅏㄴㅈㅜㅇㄱㅏㄴ	-14614
ha	-14615
ashi	-14616
▁402	-14617
▁1922	-14618
ㅎㅕㄴㅈㅜ	-14619
▁ㅁㅏㄹㄹㅕㅆ	-14620
▁ㅁㅕㅇㄱㅜㄴ	-14621
▁ㄱㅔㄴㅌㅏ	-14622
▁ㄴㅏㄱㅈㅓㅁ	-14623
ㅅㅑㄹ	-14624
▁ㄱㅜㄱㄱㅘ	-14625
ㅇㅕㄴㅅㅏㅇ	-14626
▁ㅇㅗㄻㄱㅣㄴㄷㅏ	-14627
▁jpg	-14628
▁ㅈㅣㄱㄹㅠ	-14629
▁ㅂㅓㅁㄹㅏㅁ	-14630
▁ㅍㅕㄴㅈㅣㅂㅂㅜ	-14631
▁ㅅㅓㅇㅅㅏㄴ	-14632
▁ㄷㅗㅇㅇㅣㄹㅅㅣ	-14633
▁University	-14634
▁ㄴㅐㅁ	-14635
▁Burn	-14636
▁ㅂㅣㅇㅈㅏ	-14637
ㅁㅏㄹㄹㅣㄴ	-14638
ㅈㅓㄴㄷㅡㅇ	-14639
▁ㅇㅏㄱㄷㅓㄱ	-14640
▁ㅎㅘㄱㅊㅜㅇ	-14641
▁Hal	-14642
ㄴㅣㄹㅈㅣ	-14643
▁ㅁㅏㄱㄹㅛ	-14644
▁ㅁㅓㄱㅇㅣㄴㄷㅏ	-14645
92	-14646
▁570	-14647
▁Rom	-14648
iness	-14649
ㅂㅏㄴㅅㅜ	-14650
▁ㅇㅝㄴㄷㅏㄴ	-14651
▁ㅈㅓㅇㅊㅏㄴ	-14652
ㄱㅝㄹㅅㅓㄴㄱㅓ	-14653
ㅃㅜㄱ	-14654
▁Hom	-14655
▁NFC	-14656
▁view	-14657
▁ㄱㅏㅁㄹㅣ	-14658
▁ㅈㅓㄴㅇㅢ	-14659
▁ㅈㅓㅇㅇㅛㅇ	-14660
▁ㅇㅞㄴㅁㅏㄴㅋㅡㅁ	-14661
▁GDI	-14662
ㅊㅓㄴㅎㅜ	-14663
▁JAPAN	-14664
▁ㅅㅗㄱㅂㅗ	-14665
▁ㅎㅏㄹㄱㅔ	-14666
▁ㅎㅓㅁㅎㅏ	-14667
▁ㅊㅏㅂ	-14668
▁ㅎㅓㄱ	-14669
▁ㅍㅔㄹㄹㅏ	-14670
▁940	-14671
▁ㄱㅡㅂㅇㅠ	-14672
▁ㅇㅣㄹㅈㅏㅇ	-14673
▁Ur	-14674
▁ㅈㅔㄴㄷㅓ	-14675
▁ㄲㅗㅂㅎㅕㅆ	-14676
▁ㅍㅏㄴㄱㅡㅁ	-14677
▁ㅇㅜㄴㄷㅗㅇㅎㅚ	-14678
ㄷㅏㄴㅂㅓㅂㅇㅣㄴ	-14679
▁338	-14680
▁ㄷㅗㄱㄱㅣ	-14681
▁ㅇㅘㅇㄷㅗ	-14682
▁ㅁㅕㅇㅂㅏㄴ	-14683
▁ㅇㅣㅂㄱㅏㄱ	-14684
▁ㅈㅓㄴㄱㅜㄴ	-14685
ken	-14686
▁ㅋㅛㄴ	-14687
▁ㅅㅓㄴㅁㅣ	-14688
▁ㅎㅏㄹㅋㅟ	-14689
▁ㅇㅕㄴㅈㅏㄱ	-14690
▁DG	-14691
▁ㄷㅓㅍㄱㅐ	-14692
ㄱㅗㅇㅎㅏㄱ	-14693
▁ㄴㅜㄹㄹㅓㅆ	-14694
▁ㅊㅓㅇㅁㅜㄴㅎㅚ	-14695
▁ㅌㅗㅇㅊㅏㄹㄹㅕㄱ	-14696
▁286	-14697
▁920	-14698
▁Roll	-14699
ㅂㅜㄴㅎㅣ	-14700
▁ㄱㅗㅇㅅㅗ	-14701
▁ㄷㅗㅇㄱㅜㄴ	-14702
▁~?	-14703
enter	-14704
▁ㅂㅜㄴㄱㅘㅇ	-14705
▁ㅃㅏㅇㅈㅣㅂ	-14706
▁ㅈㅜㅇㅁㅜㄴ	-14707
ㄷㅔㄹㄹㅣ	-14708
ㅈㅣㄹㅈㅣ	-14709
▁ㄷㅡㅇㄱㅣ	-14710
▁ㅇㅐㄹㅂㅓ	-14711
▁ㅋㅜㄹㄹㅓ	-14712
▁ㄱㅓㄴㄴㅓㄹㅁㅗㄱ	-14713
▁VT	-14714
▁ㅁㅣㄴㄱㅏ	-14715
▁ㅂㅏㄱㄷㅐ	-14716
▁ㄴㅏㅁㄱㅣㄹ	-14717
▁ㄴㅏㅁㅈㅗ	-14718
▁ㅇㅕㄹㄹㅏㅁㅅㅣㄹ	-14719
▁Dist	-14720
ㅅㅏㅇㄱㅣ	-14721
▁ㅇㅝㄴㅅㅏㄴㅈㅣ	-14722
▁Az	-14723
▁ㄱㅏㄴㅅㅗ	-14724
ㄱㅡㄱㅅㅏㅇ	-14725
▁ㅇㅝㄴㅎㅏㄹ	-14726
▁ㅈㅣㅂㄴㅕㅁ	-14727
▁ㅈㅓㅇㅊㅏㄱㅈㅣ	-14728
ery	-14729
ima	-14730
▁263	-14731
▁ㄱㅣㅇ	-14732
▁ㅇㅠㄱㅅㅏ	-14733
▁ㅂㅏㄴㅎㅐㅆ	-14734
▁ㅅㅣㄱㅌㅏㄱ	-14735
▁ㅎㅣㅁㄷㅡㄴㄷㅔ	-14736
▁AVGN	-14737
▁Head	-14738
ㄱㅘㄴㅅㅏ	-14739
ㄱㅜㄱㄱㅏ	-14740
▁ㄱㅣㅁㅁㅣ	-14741
▁ㅅㅜㄴㅇㅜ	-14742
▁820	-14743
▁Gate	-14744
ething	-14745
▁ㅈㅓㅇㅁㅗ	-14746
ㅈㅣㅁㅇㅓㅄㅇㅣ	-14747
▁ㅌㅓㄹㄹㅣㄴㄷㅏ	-14748
▁ㅂㅏㄱㅈㅓㅇㅎㅕㄴ	-14749
▁ㅇㅕㅇㅇㅕㄴㅂㅏㅇ	-14750
ㄷㅏㅎ	-14751
▁Euro	-14752
▁Intel	-14753
ㄱㅗㅇㅇㅓㅂ	-14754
▁ㅂㅜㄹㅅㅏㄹ	-14755
▁ㅎㅔㄹㄹㅡㅁ	-14756
▁ㄷㅐㄴㄷㅣ	-14757
ㄴㅕㅁㅍㅜㅁ	-14758
▁ㅎㅏㄴㄲㅓㅅ	-14759
▁Mob	-14760
▁than	-14761
ㅊㅗㄴㅂㅓ	-14762
ㅇㅑㅇㅅㅣㄱ	-14763
▁ㅊㅜㄹㅍㅜㅁ	-14764
▁ㅇㅑㄱㅎㅗㄴㄴㅕ	-14765
▁ㄷㅓㄱㅇㅏ	-14766
▁ㅇㅡㄴㅎㅘ	-14767
▁ㄱㅗㄹㅇㅣㄴ	-14768
▁710	-14769
▁ㅅㅣㅁㅅㅣ	-14770
▁ㅅㅣㅁㅈㅡ	-14771
▁ㅂㅏㅂㅅㅏㅇ	-14772
▁ㅅㅏㄱㄱㅏㅁ	-14773
▁ㅍㅏㄹㅋㅗㄴ	-14774
▁FG	-14775
▁ㄴㅗㄹㄹㅐ	-14776
▁ㅇㅡㄹㄹㅐ	-14777
ㅇㅠㄱㅂㅗㄱ	-14778
▁ㅇㅏㅍㄴㅏㄹ	-14779
▁ㅋㅡㄹㄹㅗㄱ	-14780
▁Jr	-14781
▁WIN	-14782
▁ㅊㅣㅅ	-14783
▁FFFF	-14784
▁left	-14785
▁ㄱㅏㅇㅈㅐ	-14786
▁ㅍㅗㄱㄹㅚ	-14787
▁ㅎㅗㅇㅅㅣ	-14788
onna	-14789
ㅊㅗㄴㅇㅕㄱ	-14790
roy	-14791
itter	-14792
ㅁㅗㄴㅌㅡ	-14793
ㅈㅓㅇㅈㅐ	-14794
▁ㅂㅗㄴㄱㅛ	-14795
ㅇㅣㄹㄹㅣㅇ	-14796
▁ㅇㅓㄴㄷㅗㅇ	-14797
▁ㅇㅕㄱㄱㅗㅇ	-14798
▁ㅇㅛㅇㅂㅣ	-14799
▁ㅊㅣㄴㅈㅏ	-14800
ㅁㅏㅇㄱㅏㄹ	-14801
▁ㅁㅗㄱㅈㅣㄹ	-14802
▁ㅅㅣㄴㅇㅏㄴ	-14803
▁ㅌㅐㅅㅇㅡㄹ	-14804
▁CDMA	-14805
ㅊㅜㅇㅈㅣ	-14806
▁ㅁㅕㅇㅅㅗ	-14807
▁ㅁㅜㄴㅎㅏ	-14808
▁ㄱㅕㄹㅈㅣㅂ	-14809
▁ㅅㅓㄴㅇㅣㅂ	-14810
▁icon	-14811
ㅅㅡㄹㄹㅔ	-14812
▁ㄱㅓㅁㅅㅜ	-14813
▁ㅇㅠㄱㅅㅜ	-14814
▁ㅊㅜㄴㅊㅓㄴㅅㅣ	-14815
ㄲㅓㄱ	-14816
ublic	-14817
▁ㅇㅣㄴㄷㅓㄱ	-14818
▁1921	-14819
▁Bell	-14820
▁ㅇㅏㄹㅌㅗ	-14821
▁ㅁㅜㄴㅈㅓㅇ	-14822
▁ㅈㅓㅇㄴㅕㄴ	-14823
▁ㅎㅏㅁㅈㅗㅇ	-14824
▁Ha	-14825
▁SideM	-14826
▁ㄱㅡㅁㅈㅔ	-14827
AMP	-14828
▁Rel	-14829
▁BLUE	-14830
▁GOLD	-14831
▁Round	-14832
▁ㅌㅔㄴㄷㅓ	-14833
▁ㅉㅏㅁㅂㅏㅂ	-14834
▁ㅍㅔㄴㄷㅓㄴㅌㅡ	-14835
▁ㅇㅜㄴㅈㅓㄴㅂㅕㅇ	-14836
ULT	-14837
▁el	-14838
ific	-14839
▁Reg	-14840
▁ㅋㅣㅂ	-14841
ㅎㅐㅇㄷㅐ	-14842
▁ㅇㅏㅇㅌㅜ	-14843
▁ㅋㅔㄴㄱㅗ	-14844
▁ㄷㅐㄴㅅㅣㅇ	-14845
▁ㅈㅗㅇㄱㅜㄱ	-14846
▁MAP	-14847
▁ㄹㅔㅅㅊㅡ	-14848
▁ㅇㅣㅅㄸㅏ	-14849
▁ㅎㅓㄴㅈㅔ	-14850
CO	-14851
ror	-14852
▁ㄱㅝㄴㅅㅔ	-14853
▁ㅂㅕㄹㅇㅢ	-14854
▁ㅁㅏㅌㄱㅣㄹ	-14855
▁ㅇㅏㄱㅅㅜㄴㅎㅘㄴ	-14856
▁313	-14857
▁SNL	-14858
▁under	-14859
▁ㅇㅗㄴㄱㅘ	-14860
▁279	-14861
▁Gar	-14862
▁Here	-14863
▁ㅎㅡㄴㄷㅡ	-14864
▁ㄴㅓㅁㅊㅣㄴㄷㅏ	-14865
▁ㅂㅣㄹㄷㅓ	-14866
ㄹㅓㅁㅍㅔㅅ	-14867
▁ㅅㅏㄴㄷㅗㅇ	-14868
▁ㅇㅏㄹㄹㅏㅁ	-14869
pha	-14870
ular	-14871
▁970	-14872
ㅅㅓㅇㄴㅡㅇ	-14873
▁ㅇㅠㅇㅌㅗㅇ	-14874
▁GSTL	-14875
ㅎㅏㅁㄷㅐ	-14876
ㅌㅗㅇㅎㅐㅇ	-14877
▁ㅇㅘㄴㅅㅡㅇ	-14878
▁ㄷㅗㅇㅂㅜㄱㅇㅏ	-14879
ㄹㅓㅇㄱㅓ	-14880
ㅇㅕㄴㅈㅜ	-14881
ㅇㅣㄴㄷㅔ	-14882
▁ㅅㅓㄴㅊㅟ	-14883
▁ㄷㅡㅁㅃㅜㄱ	-14884
▁011	-14885
▁MTV	-14886
ㅊㅓㄴㅁㅕㄴ	-14887
▁ㄸㅏㄹㄹㅣㄴ	-14888
▁ㅅㅣㄹㅅㅣㄴ	-14889
▁Na	-14890
▁HDD	-14891
ㅈㅏㄶㅇㅏ	-14892
▁ㅊㅏㄱㅅㅣ	-14893
▁ㅎㅏㄱㅂㅣ	-14894
▁ㅁㅜㄹㅂㅕㅇ	-14895
▁ㄱㅕㄹㅈㅓㅇㅊㅔ	-14896
ior	-14897
ㄱㅓㄴㅅㅗ	-14898
▁ㄷㅏㄴㅍㅏ	-14899
ㄴㅗㄹㄹㅣㅁ	-14900
▁ㅂㅐㄱㄷㅗㅇ	-14901
▁ㅇㅝㄴㅅㅑㅅ	-14902
▁ㅈㅓㅁㄹㅕㅇㅈㅣ	-14903
▁MMA	-14904
▁PASS	-14905
ㅂㅏㄹㅇㅠ	-14906
▁ㅇㅜㄹㅌㅣ	-14907
▁ㅈㅗㄴㄴㅏ	-14908
ㅊㅓㄴㅅㅓㄴ	-14909
▁ㅂㅜㄴㅌㅏㅇ	-14910
▁ㅇㅣㄱㅎㅣㄹ	-14911
▁ㄲㅡㄶㅇㅣㅁㅇㅓㅄ	-14912
▁ㅇㅛㅇㅅㅏㄴㅇㅕㄱ	-14913
▁ㄷㅡㅇㅂㅜ	-14914
▁ㅂㅗㄴㅅㅐㄱ	-14915
▁CHALLEN	-14916
▁ㅂㅏㅇㅊㅓㅇㄱㅐㄱ	-14917
▁ㅅㅗㄴㅅㅡㅇㄹㅏㄱ	-14918
▁ㅎㅔㅅㄱㅏㄹㄹㅣㄹ	-14919
ats	-14920
▁KK	-14921
ㄹㅓㄴㄷㅏ	-14922
▁ㅈㅜㄴㅇㅟ	-14923
ㅇㅕㅇㅁㅣㄴ	-14924
▁ㄱㅗㄴㅈㅏㄹ	-14925
▁ㅇㅏㄹㄹㅗㄴ	-14926
▁IL	-14927
▁518	-14928
▁dream	-14929
▁ㅇㅔㄴㅎㅏ	-14930
▁ㄴㅏㅁㅇㅝㄴ	-14931
▁ㅅㅣㄴㅇㅛㅇㅋㅏ	-14932
▁pp	-14933
ㅌㅓㄴㅅㅡ	-14934
▁ㅅㅓㅇㅇㅘㅇ	-14935
ㄹㅏㅁㅅㅡ	-14936
ㅁㅔㄹㄹㅔ	-14937
ㅋㅠㄹㄹㅓㅁ	-14938
▁ㅈㅓㅇㅅㅐㄱ	-14939
awa	-14940
ones	-14941
▁eee	-14942
▁ㅍㅣㅁ	-14943
▁Mons	-14944
ㄹㅐㄴㅅㅣ	-14945
▁ㄱㅕㅇㅂㅗㄱㄱㅜㅇ	-14946
▁Ko	-14947
▁ㄷㅓㄹㅎㅏ	-14948
ㅇㅣㄹㅈㅓㅁ	-14949
▁ㅎㅘㅇㅅㅓㄴ	-14950
▁ㅎㅗㅇㅅㅓㅇㅎㅡㄴ	-14951
▁253	-14952
ㄹㅐㄱㅌㅓ	-14953
ㄹㅣㄴㄴㅐ	-14954
▁ㅇㅏㅇㄷㅡ	-14955
▁ㅁㅗㅅㅅㅐㅇ	-14956
▁ㅊㅗㅇㄹㅕㄱ	-14957
ㅉㅡ	-14958
▁ㅃㅐㄹ	-14959
▁look	-14960
▁ㄱㅣㅂㅅㅡ	-14961
▁ㅋㅐㄴㅂㅓ	-14962
▁ㅎㅡㄱㅈㅏ	-14963
▁ㄴㅡㄹㄹㅣㄴ	-14964
▁ㅊㅓㄴㅁㅕㅇ	-14965
▁ㅎㅏㄴㅅㅣㄱ	-14966
inity	-14967
ㅋㅣㄴㅌㅗ	-14968
▁ㄱㅡㄹㄹㅜ	-14969
▁ㅎㅏㅂㅈㅓㄴ	-14970
po	-14971
}}}	-14972
ㅋㅓㅇ	-14973
ㄹㅏㄹㄹㅏ	-14974
▁ㅅㅐㄴㄱㅏ	-14975
▁ㅇㅓㅅㅂㅣ	-14976
▁ㄱㅗㅇㄷㅓㄱ	-14977
▁WS	-14978
▁ㅂㅓㄹㅋㅡ	-14979
▁ㅇㅓㄹㅂㅓ	-14980
▁ㅁㅏㅈㅅㅓㄹ	-14981
▁ㅂㅓㄹㅈㅓㅁ	-14982
TLE	-14983
ote	-14984
▁Ins	-14985
▁ㄷㅗㅇㅅㅜ	-14986
▁ㄱㅓㄹㅊㅜㄹ	-14987
▁ㅁㅓㄱㅎㅣㄹ	-14988
▁ㅊㅣㅁㅇㅣㅂㅈㅏ	-14989
▁ㅌㅏㄹㅂㅜㄱㅈㅏ	-14990
VERS	-14991
▁268	-14992
▁610	-14993
ㅇㅛㅇㅈㅜ	-14994
▁ㄴㅏㄱㅇㅗ	-14995
▁ㅋㅣㄴㅋㅣ	-14996
ㅅㅡㅇㅊㅓㄹ	-14997
▁ㅁㅏㅈㄷㅏㅎ	-14998
▁ㅇㅕㅁㅈㅏㅇ	-14999
▁ㅎㅗㄱㅎㅏㄴ	-15000
ㅌㅡㄹㄱㅓ	-15001
ㅂㅏㅇㅇㅣㄴ	-15002
ㅊㅜㄱㄱㅜㄱ	-15003
▁EDITION	-15004
ㄷㅓㄹㄱㅓ	-15005
▁Young	-15006
▁ㄱㅕㄹㅍㅣㅂ	-15007
▁ㅅㅣㄴㄹㅏㅇ	-15008
▁blog	-15009
▁Sword	-15010
▁ㄱㅗㅇㅊㅏ	-15011
▁ㅇㅣㅂㄷㅏㅁ	-15012
▁Android	-15013
aze	-15014
ㅇㅝㄹㅈㅜ	-15015
▁ㄱㅡㅁㄱㅘㅇ	-15016
▁ㅍㅗㄱㅈㅏㅇ	-15017
▁ㅎㅠㅇㅍㅗㄱ	-15018
▁ㅂㅏㄹㅇㅕㄴㄱㅣ	-15019
▁ㅌㅓㄱㅇㅓㅄㅇㅣ	-15020
55	-15021
▁Eyes	-15022
▁ㅈㅓㄱㅅㅜ	-15023
▁ㅎㅘㅇㄷㅗ	-15024
ㅅㅣㄴㅅㅓㅇ	-15025
ought	-15026
ㄷㅏㄱㄱㅓ	-15027
ㅁㅕㄴㅊㅔ	-15028
▁Fight	-15029
▁ㄱㅜㄴㅇㅏㄱ	-15030
HS	-15031
hes	-15032
▁Imp	-15033
ㅂㅏㅇㄷㅐ	-15034
ㅅㅡㅇㅇㅝㄴ	-15035
▁ㅅㅗㄴㅇㅣㄱ	-15036
▁ㅅㅡㄹㄹㅣㅇ	-15037
ㅂㅕㅆ	-15038
▁Dep	-15039
▁ㅋㅚㄹ	-15040
▁ㅇㅕㅇㅊㅓㄴ	-15041
ora	-15042
▁HO	-15043
▁267	-15044
ㄷㅓㄴㅈㅕ	-15045
▁ㅂㅓㄹㄱㅛ	-15046
ㅌㅐㄱㄱㅡㄴ	-15047
▁ㅅㅣㄴㄱㅝㄴ	-15048
▁ㅎㅓㄴㅈㅓㅇ	-15049
▁ㅎㅏㄴㅋㅏ	-15050
▁ㄱㅘㄴㅊㅓㄹ	-15051
▁ㅇㅕㅁㄹㅕㄱ	-15052
▁}}}}}}}}}	-15053
ative	-15054
▁ㄱㅡㄹㄱㅟ	-15055
▁ㅂㅏㄹㅂㅏ	-15056
ㄷㅗㅇㅎㅜㄴ	-15057
▁ㅁㅐㅇㄱㅗㅇ	-15058
▁ㅎㅕㄹㅌㅜ	-15059
ㄹㅡㅁㄷㅏㄹ	-15060
▁ㅅㅏㅇㅅㅣㅁ	-15061
▁ㄲㅗㄱㅈㅣ	-15062
ㅅㅓㅇㄹㅛㅇ	-15063
ㅊㅗㄴㄷㅗㅇ	-15064
▁ㄷㅏㄹㅅㅓ	-15065
▁ㅅㅗㄴㅈㅐ	-15066
▁ㅁㅐㄴㅅㅕㄴ	-15067
▁ㄱㅗㄴㅈㅏㄹㄹㅔ	-15068
▁ㅈㅜㅇㅇㅏㅇㅇㅕㄱ	-15069
▁ㅊㅗㅇㄷㅗㅇㅇㅝㄴ	-15070
▁AST	-15071
▁Cre	-15072
ㅇㅕㅁㅂㅕㅇ	-15073
AF	-15074
▁WBC	-15075
▁ㄱㅏㅇㅌㅐ	-15076
▁ㅆㅗㄹㄹㅣ	-15077
▁ㅇㅏㄴㄷㅏㄹ	-15078
▁ㅊㅏㄴㅂㅏㅂ	-15079
▁730	-15080
▁ㅋㅘㅇ	-15081
▁ㄴㅏㄴㄹㅣㅂ	-15082
▁ㄷㅓㄱㅅㅓㄴ	-15083
▁ㅈㅓㄴㅁㅏㅇㄷㅐ	-15084
▁ㄷㅏㅅㅈㅣ	-15085
▁ㄸㅟㄴㄷㅏ	-15086
ㅎㅕㄴㅈㅓㅇ	-15087
▁ㅈㅓㄴㄹㅏㄴ	-15088
▁ㅎㅕㅂㄹㅕㄱㅈㅏ	-15089
▁af	-15090
▁259	-15091
▁DEST	-15092
▁ㅁㅏㄴㅅㅣㄴㅊㅏㅇ	-15093
ㅅㅡㅅㅂㅣ	-15094
▁ㄴㅏㄴㅈㅗ	-15095
▁ㅇㅏㅇㅋㅡ	-15096
▁ㅎㅕㄹㄱㅣ	-15097
▁ㄱㅣㅁㅇㅡㅇㅇㅛㅇ	-15098
ids	-15099
lear	-15100
▁620	-15101
▁Dan	-15102
▁Div	-15103
▁ㅁㅗㅇㄱㅗ	-15104
▁ㅅㅣㄴㅌㅗ	-15105
▁ㅇㅡㄴㄱㅓ	-15106
▁ㄱㅓㅁㅈㅣㄴ	-15107
▁ㄷㅓㅍㅂㅏㅂ	-15108
INY	-15109
▁273	-15110
▁525	-15111
ㅁㅏㄱㅇㅣ	-15112
ㅅㅏㅇㅎㅏㄴ	-15113
▁Engine	-15114
▁ㅇㅘㄴㅊㅜㅇ	-15115
▁ㅇㅕㅇㄴㅏㅁㄷㅐ	-15116
▁ㄱㅜㄱㅁㅣㄴㅇㅡㄴㅎㅐㅇ	-15117
▁Ak	-15118
▁386	-15119
▁mag	-15120
ㅅㅓㅇㅎㅗ	-15121
▁ㅇㅕㅇㅇㅖ	-15122
▁ㅎㅏㅂㅊㅏㅇㄷㅏㄴ	-15123
ㄲㅜㅈ	-15124
▁AIR	-15125
▁ㄱㅗㄱㅇㅖ	-15126
▁ㅅㅏㅇㅇㅣ	-15127
▁ㅅㅣㄹㅌㅐ	-15128
▁ㅊㅐㄱㅈㅏ	-15129
▁ㄱㅡㄱㅈㅣㄴ	-15130
▁ㅁㅏㅈㅇㅡㄴ	-15131
▁ㅇㅘㄴㅂㅗㅇ	-15132
▁ㅇㅣㄴㅍㅜㅁ	-15133
▁?"	-15134
▁COL	-15135
▁GUN	-15136
▁Two	-15137
▁ㄴㅏㅁㄷㅗ	-15138
▁ㅎㅐㅇㅍㅐ	-15139
▁ㄱㅗㅇㄹㅕㄱ	-15140
▁ㅎㅘㅇㅇㅣㄴ	-15141
mo	-15142
▁NX	-15143
▁ㄱㅜㅇㅅㅏ	-15144
▁ㅇㅣㄹㄱㅘ	-15145
ㅅㅓㄱㅎㅕㄴ	-15146
▁ㅇㅠㄴㅅㅏㅇ	-15147
▁php	-15148
ㅅㅓㄴㅎㅢ	-15149
▁Enter	-15150
▁ㅅㅣㄴㅇㅝㄹ	-15151
▁ㅊㅏㄴㅌㅏㄹ	-15152
ja	-15153
▁ㄸㅓㄱㅎㅏ	-15154
▁ㅅㅣㅂㅇㅣ	-15155
▁ㄲㅗㅇㄲㅗㅇ	-15156
▁ㄱㅏㅁㄷㅗㄱㄱㅘㄴ	-15157
▁ㅁㅏㅈㅇㅡㄴㅍㅕㄴ	-15158
OME	-15159
▁960	-15160
▁ㄱㅕㄱㅎㅏㄴ	-15161
▁ㅂㅏㄹㅅㅗㅇ	-15162
▁America	-15163
arn	-15164
ㅈㅏㄱㅈㅓㅁ	-15165
▁ㄷㅗㄱㅇㅑㄱ	-15166
▁ㅇㅣㄴㅁㅜㄴㅎㅏㄱ	-15167
ollow	-15168
ㄷㅔㅇㅇㅣ	-15169
▁ㅂㅔㄴㄷㅓ	-15170
▁ㅅㅓㄴㄹㅖ	-15171
▁ㅋㅗㅁㅂㅏ	-15172
▁ㅇㅝㄴㄱㅠㄴ	-15173
▁mac	-15174
▁ㄷㅣㅅ	-15175
ㄷㅏㄹㅍㅡ	-15176
▁ㅂㅜㄺㅎㅣ	-15177
▁ㄱㅕㄱㅅㅏㅇ	-15178
▁ㄱㅡㅂㅂㅏㄱ	-15179
▁ㅈㅓㅁㅅㅓㅇ	-15180
▁ㅈㅗㄴㅊㅣㅇ	-15181
▁Network	-15182
▁ㄱㅣㅁㅂㅕㅇㅁㅏㄴ	-15183
AE	-15184
▁Ju	-15185
▁SY	-15186
▁ㄴㅏㅁㅁㅏㄴ	-15187
▁ㄱㅜㄱㅁㅣㄴㅎㅚ	-15188
▁Ah	-15189
▁ke	-15190
▁ㅊㅝ	-15191
▁ㅅㅜㅊ	-15192
imited	-15193
▁ㅅㅓㄴㅇㅢ	-15194
▁ㅇㅝㄴㅊㅗ	-15195
▁ㅈㅏㅇㅇㅠ	-15196
ㄱㅕㅇㅎㅘㄴ	-15197
▁ㄷㅗㅇㄱㅗㅇ	-15198
▁ㅇㅗㄱㅅㅕㄴ	-15199
▁ㅁㅏㄴㅈㅏㅇㅇㅣㄹㅊㅣ	-15200
▁DU	-15201
ㄲㅏㄱ	-15202
ㄹㅏㄱㅂㅜ	-15203
ㅎㅏㄴㅂㅜ	-15204
▁ㅇㅡㅂㄴㅐ	-15205
▁ㅁㅏㄴㅊㅏㄴ	-15206
▁ㅂㅏㅇㄱㅡㄹㄹㅏ	-15207
▁ㄱㅣㅁㄷㅗㅇㅎㅕㄴ	-15208
▁ㅂㅓㄴㅅㅡ	-15209
▁ㅍㅔㅂㅅㅣ	-15210
ㅅㅐㅇㅁㅕㅇ	-15211
YPE	-15212
▁ㄷㅏㄺㄱㅗ	-15213
▁ㄹㅔㄴㅌㅡ	-15214
▁ㅁㅗㄴㅈㅣ	-15215
▁ㅎㅗㄹㄷㅓ	-15216
▁ㅌㅐㄱㄱㅕㄴ	-15217
▁ㅇㅠㄱㄱㅜㄴㅅㅏ	-15218
▁ㅋㅓㅁㅍㅣㄹㄹㅔ	-15219
▁ㄱㅗㅇㅈㅏㄱㅇㅝㄴ	-15220
▁ㄷㅗㄱㄹㅣㅂㄱㅜㄴ	-15221
▁CAT	-15222
▁ㅂㅜㄱㅅㅡ	-15223
▁ㅅㅏㄹㅇㅢ	-15224
▁ㅁㅜㄹㄷㅡㄴ	-15225
▁Iron	-15226
ㅇㅠㄱㄱㅏㅁ	-15227
ota	-15228
uke	-15229
▁Hz	-15230
▁ㅁㅣㄴㅎㅗ	-15231
▁ㅈㅏㅇㄱㅘㅇ	-15232
▁ㅇㅑㅇㅅㅏㄴㅂㅏㄱ	-15233
▁sky	-15234
ㅇㅓㅂㅊㅔ	-15235
▁ㅅㅓㅇㅅㅣㅁ	-15236
▁ㄱㅘㄴㅅㅣㅁㅅㅏ	-15237
▁MOON	-15238
▁ㄱㅡㄱㅂㅣ	-15239
▁ㅇㅘㅇㅈㅓㄴ	-15240
▁ㅌㅗㅇㅎㅏㄹ	-15241
▁276	-15242
▁ㄱㅏㄱㅅㅣ	-15243
▁ㄱㅣㄴㄷㅏ	-15244
▁ㅇㅕㅇㅈㅏ	-15245
▁ㅈㅓㅂㅈㅣ	-15246
DMA	-15247
▁TAKA	-15248
▁ㅈㅓㅇㅇㅡㅂ	-15249
▁ㅎㅕㅂㅇㅓㅂ	-15250
ㅇㅗㄹㄹㅣㄴㄷㅏ	-15251
▁top	-15252
▁ㅌㅐㅅㅇㅔ	-15253
▁ㅎㅑㅇㅌㅗ	-15254
ㄴㅔㄴㅌㅏㄹ	-15255
▁ㄱㅡㄹㄲㅗㄹ	-15256
▁ㅁㅏㅅㅂㅗㄹ	-15257
▁ㅈㅓㅁㅊㅏㄱ	-15258
▁ㅋㅓㄹㄹㅓㅁㅂㅣ	-15259
▁ㅍㅣㅇㅋㅣ	-15260
ㅈㅜㅇㄱㅡㄴ	-15261
▁ㅈㅓㅇㅅㅣㄹ	-15262
▁ㅉㅚ	-15263
▁309	-15264
▁324	-15265
▁set	-15266
▁ㅂㅏㄴㅇㅣㄹ	-15267
▁VV	-15268
▁game	-15269
▁ㄹㅓㄱㅂㅣ	-15270
▁ㄱㅜㄴㄱㅜㄱㅈㅜ	-15271
▁ㄷㅟㅅㄷㅏㅁㅎㅘ	-15272
▁!'	-15273
▁|[	-15274
ㄱㅔㅅ	-15275
▁read	-15276
ㅇㅕㄱㄲㅜ	-15277
▁ㄹㅜㅁㅁㅔ	-15278
▁ㅎㅡㄱㅅㅏ	-15279
ㅈㅣㄴㅈㅗㄱ	-15280
▁ㅅㅗㄴㄷㅡㅇ	-15281
▁ㅂㅕㄹㅅㅔ	-15282
▁ㅎㅕㅂㅅㅗ	-15283
▁ㅊㅜㄱㅈㅓㄴ	-15284
▁==	-15285
▁Lu	-15286
▁AIM	-15287
▁Ray	-15288
ㅁㅗㄴㅈㅡ	-15289
ㄷㅗㅇㄸㅏㄹ	-15290
▁ㅋㅐㅁㅂㅔㄹ	-15291
▁Ben	-15292
ㅂㅏㄷㅇㅣ	-15293
▁ㄲㅐㄴㄷㅏ	-15294
▁ㅊㅜㄹㅈㅏ	-15295
▁ㅇㅏㄴㅈㅓㄴㅈㅏㅇㅊㅣ	-15296
▁AJ	-15297
▁SI	-15298
▁TAG	-15299
▁ㄱㅕㅇㅊㅣ	-15300
▁ㅁㅏㄴㅁㅜ	-15301
▁ㅇㅠㄴㅎㅢ	-15302
▁ㄱㅏㅇㄹㅕㄱㅎㅣ	-15303
iter	-15304
ㅅㅓㄱㄱㅜ	-15305
▁Wanna	-15306
ㅌㅏㄹㅊㅜㄹ	-15307
▁ㅅㅗㄱㅅㅔㅁ	-15308
▁ㅇㅑㄱㄱㅘㄴ	-15309
▁ㅇㅣㅂㄱㅡㅁ	-15310
▁Dam	-15311
▁3535	-15312
▁Mnet	-15313
▁ㅇㅑㅇㅎㅐ	-15314
▁ㅇㅕㅇㅇㅠ	-15315
▁ㄹㅗㄹㄹㅐㄴㄷㅡ	-15316
▁ㅎㅏㄴㄱㅜㄱㅈㅓㄴㄹㅕㄱ	-15317
▁BY	-15318
▁ㄱㅡㄱㅊㅔ	-15319
▁ㅌㅏㄹㅅㅓㄴ	-15320
▁787	-15321
▁MOM	-15322
▁HAPP	-15323
▁ㅈㅓㄴㅇㅠ	-15324
▁ㅈㅣㅇㅈㅗ	-15325
▁ㅈㅏㅁㅅㅣㄹㅇㅕㄱ	-15326
▁261	-15327
▁ㅂㅗㄴㄸㅏ	-15328
▁ㅋㅜㅇㅍㅜ	-15329
▁ㅁㅏㅇㅈㅓㅇ	-15330
▁ㅂㅡㄹㄹㅏㄱ	-15331
▁ㅉㅏㅂㅉㅏㄹ	-15332
of	-15333
▁317	-15334
▁ㅈㅏㅂㅇㅣ	-15335
ㄴㅝㅆ	-15336
▁INT	-15337
▁ㅈㅏㅇㄱㅜ	-15338
▁ㅁㅜㄴㅇㅣㄴ	-15339
▁ㅅㅣㄴㄱㅜㅇ	-15340
▁ㅊㅏㅇㅊㅓㄴ	-15341
DR	-15342
▁ㄸㅔㄴ	-15343
▁ANIM	-15344
▁light	-15345
▁ㅅㅏㅇㄱㅖ	-15346
▁ㅌㅗㅇㅈㅣ	-15347
▁ㅇㅡㅁㅊㅣㅁ	-15348
▁ㅈㅏㄱㅅㅔㄴ	-15349
▁ㅈㅣㄴㅇㅕㄹ	-15350
▁True	-15351
▁ㄱㅗㄴㅂㅗㅇ	-15352
▁ㅋㅚㄹㄹㅡㄴ	-15353
▁ㅌㅏㄴㅅㅓㅇ	-15354
▁ㅌㅗㅇㅎㅏㅂㅈㅣㄴㅂㅗ	-15355
98	-15356
ㄲㅘㅇ	-15357
▁OVER	-15358
ㄱㅜㄴㄷㅔ	-15359
ㄴㅡㅇㅅㅏ	-15360
▁ㅅㅏㅇㄱㅡㄱ	-15361
▁ㅊㅓㄴㅇㅣㄴ	-15362
ㄹㅣㅇㅍㅣㄹㄷㅡ	-15363
ㄸㅓㄴㅈㅣ	-15364
▁ㄴㅏㄲㅇㅏ	-15365
▁ㅁㅜㄴㄹㅏ	-15366
▁FFFFFF	-15367
▁ㅍㅜㅇㄹㅣㅁ	-15368
ㅊㅓㄴㄴㅕㄴㅁㅣㄴㅈㅜ	-15369
ㄹㅓㄴㅌㅣ	-15370
ㅍㅏㄹㅇㅣ	-15371
▁ㄱㅣㅁㅁㅜ	-15372
▁ㅆㅜㄱㄷㅐ	-15373
▁ㅅㅏㄴㄹㅏㄴ	-15374
▁ㅎㅏㄱㅂㅓㄹ	-15375
▁ㅇㅜㅇㄷㅓㅇㅇㅣ	-15376
▁ㅅㅓㅇㅈㅓㄴㅎㅘㄴ	-15377
ㄱㅏㅎ	-15378
▁ㅅㅏㄴㄱㅗ	-15379
▁ㅇㅝㄹㄱㅣ	-15380
ㅅㅣㅂㅁㅏㄴ	-15381
▁ㄱㅗㅁㅍㅏㅇㅇㅣ	-15382
▁ㅅㅓㄴㅍㅜㅇㄱㅣ	-15383
▁ㅍㅡㄹㄹㅔㄱㅅㅡ	-15384
▁314	-15385
▁ㅂㅏㅇㄷㅗ	-15386
▁ㅇㅣㅁㅅㅜ	-15387
▁ㄷㅗㄴㄷㅗㄱ	-15388
▁ㅁㅏㄹㄹㅣㄴㄷㅏ	-15389
▁ㅅㅏㅁㅅㅓㅇㄱㅡ	-15390
YY	-15391
▁2300	-15392
▁ㄱㅏㄴㅎㅐㅇ	-15393
▁ㅁㅕㄴㅈㅓㄴ	-15394
▁ㅂㅏㄱㅇㅡㄴ	-15395
▁KL	-15396
▁npc	-15397
▁ㅂㅐㄱㄱㅣ	-15398
▁ㅂㅐㄱㄷㅗ	-15399
▁ㅂㅐㄹㄹㅠ	-15400
▁ㅇㅣㄴㄷㅡ	-15401
▁ㅎㅏㄴㅅㅏㅇ	-15402
▁ㅅㅗㅇㅇㅡㄴㅂㅓㅁ	-15403
▁people	-15404
▁ㄱㅕㄹㅂㅏㅇ	-15405
▁ㅂㅕㄱㅇㅏㄴ	-15406
▁ㅎㅘㅇㄱㅡㅁㅅㅐㄱ	-15407
▁ㅂㅜㄹㄲㅗㅊㄴㅗㄹㅇㅣ	-15408
ㄴㅏㄹㄹㅣㄴ	-15409
▁ㅈㅏㅇㄱㅏㅇ	-15410
▁ㄴㅏㄱㄹㅚ	-15411
▁ㅁㅐㄱㅋㅡ	-15412
ㅁㅣㄴㅌㅓㄴ	-15413
ㅈㅏㄱㄱㅝㄴ	-15414
ㅊㅓㄴㅁㅏㄴ	-15415
▁ㅅㅏㅁㅊㅓㄱ	-15416
▁American	-15417
▁ㄱㅕㅌㄷㅡㄹㅇㅕ	-15418
▁ㅎㅡㄴㄷㅡㄹㄹㅣㅁ	-15419
▁CIN	-15420
under	-15421
▁1907	-15422
▁Cast	-15423
▁Video	-15424
▁ㄱㅏㅈㅇㅡㄴ	-15425
▁ㅇㅏㄴㅁㅗㄱ	-15426
▁ㅎㅘㅇㄱㅓㄴㅈㅓㄱ	-15427
▁QS	-15428
▁020	-15429
ㄷㅡㅂㄴㅏ	-15430
▁ㄱㅗㄱㄷㅗ	-15431
ㅁㅜㄴㄴㅏㄴ	-15432
▁ㅅㅓㅇㄱㅘㄴ	-15433
ㅎㅐㄴ	-15434
ELLA	-15435
▁WOW	-15436
▁Land	-15437
▁ㅂㅜㄹㅅㅏㅇ	-15438
▁ㅇㅑㅇㅎㅏㄱ	-15439
iko	-15440
▁284	-15441
▁ㄷㅗㅇㄱㅗ	-15442
▁ㄷㅡㄹㄹㅡ	-15443
▁ㅋㅗㄹㄹㅓㅁ	-15444
▁ㅍㅏㄴㄷㅗㄱ	-15445
▁ㅎㅏㄴㅅㅡㅇ	-15446
▁ㅍㅜㅇㄱㅣㄴㄷㅏ	-15447
▁318	-15448
▁ㅍㅗㄱㅇㅜ	-15449
▁ㅎㅏㅇㅊㅔ	-15450
ㅈㅗㅇㅎㅜㄴ	-15451
▁ㄱㅘㅇㅇㅏㄴ	-15452
▁ㄷㅏㅇㅅㅓㄴㅈㅏ	-15453
▁AOS	-15454
ㅁㅏㅈㅇㅣ	-15455
▁ㅈㅓㄹㅁㅕㅇ	-15456
▁ㄱㅏㄱㅅㅓㅇㄱㅣ	-15457
OG	-15458
▁Award	-15459
▁ㅂㅔㄴㅈㅏ	-15460
▁ㅎㅗㄱㅇㅕ	-15461
▁ㅂㅗㄱㅇㅕㄱ	-15462
▁ㅅㅓㄴㅅㅡㅇ	-15463
▁ㅇㅣㅂㅇㅏㄴ	-15464
▁ㅎㅏㄱㅈㅏㅇ	-15465
ㄴㅐㅇ	-15466
▁Alt	-15467
ㄷㅓㄴㅅㅡ	-15468
ㅁㅏㄴㅊㅣ	-15469
▁ㄷㅗㄴㅋㅣ	-15470
▁ㅈㅏㅇㅎㅢ	-15471
▁ㅇㅓㅇㅅㅓㅇ	-15472
▁ㅂㅡㄹㄹㅗㄱㅂㅓ	-15473
▁BEAT	-15474
▁ㅅㅓㅇㄹㅣ	-15475
ㄷㅡㄹㄹㅣㄴ	-15476
▁ㄷㅗㅇㄱㅡㄹ	-15477
umi	-15478
▁Wel	-15479
▁ㅁㅛㄹ	-15480
▁ㅈㅏㅆ	-15481
▁Glob	-15482
ㅎㅏㄱㅂㅜ	-15483
▁ㅇㅕㅇㅇㅐ	-15484
▁ㅇㅣㅂㅂㅜ	-15485
▁ㅈㅏㅇㅅㅡㅇ	-15486
▁ㅈㅜㄱㅈㅓㄴ	-15487
▁tri	-15488
ㅅㄱㅏㅄ	-15489
▁1908	-15490
ㅈㅜㄴㅇㅕㅇ	-15491
▁353535	-15492
▁ㅇㅠㄹㅂㅓㅂ	-15493
▁CHALLENGE	-15494
▁ㄱㅗㅇㄱㅝㄴㄹㅕㄱ	-15495
▁Maj	-15496
▁EDGE	-15497
ㅅㅓㅇㅅㅏ	-15498
ㅈㅣㄴㅇㅕ	-15499
▁ㅅㅗㄴㅈㅓㄴㄷㅡㅇ	-15500
▁JS	-15501
ives	-15502
▁312	-15503
▁CLG	-15504
▁Etern	-15505
▁ㅈㅓㅁㅎㅗ	-15506
▁ㅇㅛㅇㅅㅏㄴㄱㅜ	-15507
▁ㅈㅏㅇㅇㅝㄴㅅㅏㅁ	-15508
ㅆㄷㅏ	-15509
▁inf	-15510
ㅁㅏㄴㄱㅗ	-15511
▁ㄲㅏㄲㅇㅏ	-15512
▁ㅇㅠㄴㅂㅗ	-15513
▁ㅌㅗㅇㄴㅏ	-15514
▁ㅍㅣㄴㅈㅏㄴ	-15515
▁ㅇㅡㅁㅇㅑㅇㅅㅏ	-15516
ML	-15517
ㅁㅜㄴㅇㅔ	-15518
▁ㅇㅑㅇㄱㅡㄱ	-15519
▁ㅇㅣㄴㅈㅡㄱ	-15520
▁ㅁㅜㄴㅅㅓㅇㅇㅝㄴ	-15521
▁ass	-15522
▁ㅎㅕㄴㅅㅣ	-15523
ㅍㅕㅇㅅㅓㄴ	-15524
▁ㄴㅏㄱㄹㅏㅇ	-15525
▁ㅅㅏㄹㅇㅣㄴㅈㅏ	-15526
▁670	-15527
▁Low	-15528
▁Beautiful	-15529
▁OME	-15530
aking	-15531
▁Ctrl	-15532
▁Look	-15533
ㄷㅏㄱㄸㅡ	-15534
ECTION	-15535
▁ㄷㅏㄴㄷㅜ	-15536
▁ㅈㅜㅇㄱㅐ	-15537
ㅇㅣㄴㅇㅝㄴ	-15538
▁ㄷㅗㄱㅅㅣㄱ	-15539
▁ㅂㅐㄱㄱㅡㅁ	-15540
▁ㅇㅏㅁㅇㅑㄱ	-15541
▁ㅂㅐㄱㅈㅏㅇㅁㅣ	-15542
▁ㅈㅣㅂㅎㅐㅇㅇㅠ	-15543
▁Fe	-15544
▁UL	-15545
▁KCC	-15546
▁Circ	-15547
▁North	-15548
▁ㅇㅕㄱㄹㅣㄴ	-15549
▁ㅈㅕㅆㅇㅡㄹ	-15550
▁ㅁㅏㅈㄷㅏㄱㄸㅡ	-15551
ju	-15552
ㅉㅣㅁ	-15553
▁List	-15554
ㅂㅏㄴㄱㅜ	-15555
▁ㄷㅏㅇㄷㅗ	-15556
▁ㅊㅔㄹㄹㅗ	-15557
▁ㅂㅜㄹㅅㅜㄴ	-15558
▁ㅈㅓㅇㄷㅗㄴ	-15559
▁#.	-15560
▁ㄱㅘㄴㅅㅓ	-15561
▁ㅅㅣㄴㅇㅜ	-15562
▁ㅈㅗㅇㅂㅜㄱ	-15563
▁ㅌㅜㅇㅌㅜㅇ	-15564
▁ㅉㅕ	-15565
▁Lie	-15566
▁ㅉㅘㄱ	-15567
▁ㅊㅐㄹ	-15568
ㅇㅡㄹㅎㅗ	-15569
▁ㅇㅑㄱㅇㅓ	-15570
▁ㅈㅐㅂㅆㅏ	-15571
▁ㄴㅗㅇㄹㅣㅁ	-15572
▁ㅅㅐㄹㄹㅣ	-15573
▁ㅇㅝㄹㅎㅢ	-15574
ㅈㅗㅇㅎㅘㄴ	-15575
▁ㅅㅡㄹㄹㅣㅁ	-15576
▁ㅇㅣㄹㅊㅜㄱ	-15577
ㄷㅏㅅㅇㅓㅄㅇㅣ	-15578
▁SIM	-15579
▁Arch	-15580
▁Wild	-15581
ㅇㅣㄴㅇㅐ	-15582
▁ㄷㅏㄴㅍㅜㅇ	-15583
▁ㄹㅗㄹㅂㅐㄱ	-15584
▁ㅈㅓㄴㅁㅏㄹ	-15585
hone	-15586
orrow	-15587
▁Hand	-15588
ㅈㅣㅂㄱㅣ	-15589
▁ㅂㅕㅇㄷㅗㅇ	-15590
▁NEO	-15591
ㅁㅕㄴㅈㅔ	-15592
▁ㅁㅕㄴㅅㅏ	-15593
▁ㅅㅣㄹㄱㅘ	-15594
▁ㅇㅑㅇㅂㅐ	-15595
▁ㅊㅓㅇㅎㅐ	-15596
▁ㅅㅓㅇㄴㅕㄴ	-15597
▁ㅇㅑㅇㅈㅣㄹ	-15598
▁ㅇㅣㄹㅁㅏㄹ	-15599
▁ㅌㅓㄹㅌㅓㄹ	-15600
▁ㅎㅏㅇㄱㅗㅇㅈㅓㄴ	-15601
ㄷㅠㅁ	-15602
ㅉㅐㅆㄱㅓㄴ	-15603
▁ㄷㅜㅇㄷㅜㅇ	-15604
▁ㅁㅕㄴㅁㅗㄱ	-15605
▁ㅂㅗㄹㅍㅔㄴ	-15606
▁ㅇㅖㅅㅁㅏㄹ	-15607
▁ㅈㅜㅇㄱㅜㄱㅅㅣㄱ	-15608
▁ㅈㅣㅂㅇㅏㄴㅇㅣㄹ	-15609
NER	-15610
▁UX	-15611
▁MBT	-15612
▁Ryu	-15613
▁ㅈㅡㅂ	-15614
ㅃㅜㄹㅅㅗ	-15615
▁ㅁㅐㄱㄱㅣ	-15616
▁ㅁㅣㄴㅇㅛ	-15617
▁ㅎㅏㄱㅇㅜ	-15618
▁Evolution	-15619
▁1001	-15620
ㅈㅓㅇㅈㅔ	-15621
▁ㅇㅣㅁㅎㅐ	-15622
▁Strike	-15623
ㅊㅡㄴ	-15624
ground	-15625
▁ㅇㅕㅇㅎㅏ	-15626
▁ㅎㅑㅇㅇㅕㄴ	-15627
soft	-15628
▁278	-15629
▁294	-15630
▁297	-15631
▁ITX	-15632
▁ㅌㅖㄴ	-15633
ㅅㅔㅁㅂㅜ	-15634
▁ㅂㅏㄴㅌㅜ	-15635
▁ㅋㅡㄹㄹㅣㅇ	-15636
▁ㄹㅜㄱㅅㅔㅁㅂㅜ	-15637
▁boy	-15638
▁ㄹㅔㄹㄹㅣ	-15639
▁ㅇㅟㅅㅂㅜ	-15640
ㅇㅝㄴㅊㅏㄶ	-15641
▁ㅅㅏㅇㅋㅡㅁ	-15642
▁ㅅㅗㅇㅎㅕㄴ	-15643
ini	-15644
▁West	-15645
▁ㅅㅜㅁㅇㅓ	-15646
▁ㅇㅏㄴㄴㅗ	-15647
▁ㅇㅓㄹㅊㅜ	-15648
▁ㅊㅣㄴㅎㅣ	-15649
▁ㄱㅗㅇㅎㅗㅁ	-15650
▁ㅅㅐㅇㄱㅏㄱㅇㅓㅄㅇㅣ	-15651
blem	-15652
▁ㄱㅓㄹㅇㅡ	-15653
▁ㅇㅝㄴㄱㅣ	-15654
ㅇㅓㄴㅈㅏㅇ	-15655
▁ㅅㅣㄱㅊㅜㅇ	-15656
▁ㄱㅗㄹㅁㅗㄱㄱㅣㄹ	-15657
▁4500	-15658
▁ㅅㅏㅁㅂㅗ	-15659
▁ㅇㅏㄴㅇㅟ	-15660
ㅂㅜㄱㅅㅓㄴ	-15661
▁ㄲㅡㄴㄲㅡㄴ	-15662
▁ㄷㅗㄱㅎㅏㄱ	-15663
▁ㅂㅏㄹㄹㅕㅆ	-15664
ORY	-15665
ㄲㅡㅀ	-15666
▁323	-15667
▁ㄷㅗㄱㅊㅏ	-15668
ㅌㅓㄹㄹㅣㅇ	-15669
▁ㄱㅘㄱㅈㅓㅇ	-15670
uts	-15671
▁HC	-15672
▁Thank	-15673
▁ㄱㅜㄴㅅㅗ	-15674
▁ㅅㅏㅁㅇㅑㅇ	-15675
▁ㅇㅕㄴㅈㅓㄱ	-15676
▁ㅅㅓㅇㅍㅗㄱㄹㅕㄱ	-15677
UB	-15678
ㅇㅓㅋ	-15679
▁PRE	-15680
▁1915	-15681
ㄹㅗㅂㅅㅡ	-15682
ㅈㅓㅇㅈㅏ	-15683
▁ㅊㅗㄱㅁㅐ	-15684
▁ㅍㅗㄹㄹㅗ	-15685
▁ㅁㅗㅇㅅㅏㅇ	-15686
▁ㅍㅣㅅㅂㅣㅊ	-15687
mar	-15688
ㅈㅔㄴㅌㅡ	-15689
ㅎㅡㄴㄷㅡㄹ	-15690
▁ㅎㅗㅇㅂㅐㄱ	-15691
94	-15692
▁ㄱㅜㄴㄷㅗ	-15693
▁ㅂㅏㅁㅎㅏ	-15694
▁ㅈㅡㅇㅁㅕㅇㅅㅓ	-15695
py	-15696
[...]
