[PAD]
[UNK]
[BOS]
[EOS]
[CLS]
[SEP]
[MASK]
▁▃
▁이
▁.
▁에
▁다
▁의
▁는
▁,
▁하
▁을
▁은
▁가
▁1
▁고
▁를
▁한
▁으
▁년
▁로
▁으로
▁에서
▁2
▁지
▁있
▁대
▁기
▁되
▁사
▁인
▁었
▁그
▁도
▁일
▁시
▁과
▁아
▁들
▁수
▁했
▁어
▁전
▁적
▁였
▁여
▁와
▁자
▁20
▁월
▁부
▁제
▁19
▁라
▁주
▁정
▁중
▁위
▁된
▁공
▁보
▁해
▁세
▁나
▁경
▁게
▁개
▁것
▁유
▁3
▁"
▁조
▁한다
▁등
▁선
▁스
▁마
▁성
▁만
▁미
▁연
▁동
▁오
▁상
▁소
▁서
▁모
▁구
▁영
▁비
▁국
▁발
▁면
▁며
▁201
▁'
▁4
▁후
▁관
▁명
▁신
▁5
▁프
▁때
▁200
▁할
▁장
▁던
▁-
▁방
▁거
▁바
▁교
▁리
▁대한
▁문
▁역
▁차
▁당
▁우
▁무
▁원
▁통
▁내
▁진
▁계
▁현
▁군
▁남
▁노
▁포
▁분
▁6
▁또
▁화
▁않
▁까
▁학
▁생
▁았
▁까지
▁같
▁작
▁결
▁강
▁출
▁파
▁에게
▁불
▁받
▁함
▁으며
▁단
▁번
▁7
▁최
▁반
▁10
▁8
▁된다
▁알
▁호
▁데
▁안
▁회
▁지만
▁실
▁배
▁형
▁초
▁카
▁두
▁말
▁예
▁재
▁따
▁없
▁부터
▁타
▁사용
▁9
▁미국
▁라고
▁요
▁종
▁음
▁이후
▁라는
▁설
▁특
▁면서
▁산
▁코
▁일본
▁는데
▁레
▁운
▁감
▁권
으며
▁더
▁독
▁활
▁행
▁추
▁왕
▁처
▁건
▁베
민국
▁김
▁간
▁입
▁크
▁지역
▁피
▁양
▁매
▁199
▁민
▁다음
▁평
▁태
▁많
▁12
▁올
▁참
▁대한민국
▁18
▁및
▁경기
▁승
▁본
▁다른
▁다고
▁드
▁목
▁임
▁대학
▁열
▁;
리아
00
▁총
▁프로
▁속
▁그리
스트
▁위해
▁북
▁야
▁S
▁집
or
▁때문
▁법
▁달
▁11
▁시작
▁물
▁외
▁체
▁각
▁변
▁트
▁천
▁토
▁표
▁직
▁메
▁사람
▁&
▁따라
▁그러
▁함께
▁또한
▁A
▁점
▁박
▁팀
▁항
▁투
▁한국
▁청
▁선수
▁저
▁치
▁브
▁사이
▁세계
▁)
▁영화
▁자신
▁광
▁약
▁버
la
▁판
▁새
▁C
▁M
▁디
▁경우
▁용
▁f
▁루
▁기록
▁네
▁T
▁축
▁F
▁현재
▁복
▁하나
▁국가
▁존
시아
▁편
▁이름
▁198
▁다는
▁당시
▁확
▁가장
▁삼
▁위치
▁_
▁필
▁테
▁합
▁활동
▁가지
▁조선
▁학교
▁이나
▁뒤
▁철
주의
▁그러나
▁살
▁리그
▁15
▁(
▁금
▁증
▁페
▁for
▁언
▁째
▁플
mu
▁심
▁백
▁창
▁의해
mula
▁formula
▁16
▁식
▁못
▁대표
▁병
레이
▁연구
▁근
▁또는
▁쓰
▁프랑
부터
▁니
▁통해
▁그리고
▁/
▁황
▁사회
으나
▁돌
▁규
▁m
▁0
▁애
▁D
▁충
▁17
▁시즌
▁순
▁클
▁]
▁첫
▁[
▁패
▁197
▁러
▁B
▁아니
▁완
▁히
▁보다
▁다시
▁만들
랜드
▁높
▁중국
▁협
▁키
▁서울
▁정부
▁프랑스
▁영국
학교
▁K
▁채
▁시대
▁I
▁:
▁는다
▁대해
▁포함
▁k
▁여러
▁뜻
▁도시
▁196
▁전쟁
▁14
▁독일
▁다가
▁으나
▁친
▁로서
▁죽
▁아이
▁큰
er
▁길
▁문화
▁대회
▁~
▁g
▁취
▁13
▁축구
▁엔
▁온
▁모두
▁가능
▁위원
▁별
▁동안
▁P
▁뉴
▁모든
in
▁준
▁이상
▁손
▁곡
▁감독
▁정치
▁환
▁194
▁일부
▁문제
▁l
▁석
▁방송
▁허
▁처음
▁개발
▁대학교
▁알려
▁위한
▁L
▁지방
▁이루
▁제작
▁%
▁구성
▁검
▁논
▁골
▁였으며
▁국제
▁캐
▁농
▁될
▁배우
▁케
▁사건
라이
▁끝
▁날
▁세기
▁시간
▁이용
▁씨
▁일반
▁존재
▁작품
▁향
▁G
▁게임
▁정도
▁운동
▁주장
▁폭
▁걸
▁밀
▁볼
▁쿠
▁티
▁급
▁역사
▁gt
▁관계
▁섬
▁앞
▁곳
▁즉
▁N
니아
▁교육
▁인구
▁려
▁음악
▁효
on
▁195
▁km
▁접
▁거나
▁나타
▁중심
▁lt
리스
▁육
▁이러
▁맡
▁극
▁U
▁귀
▁새로
▁맞
▁30
▁R
▁터
▁했으며
▁절
▁경제
▁선거
부분
▁블
▁질
통령
▁발견
▁전투
▁담
이스
▁민주
▁H
▁글
▁올림
▁봉
▁발표
화국
▁갖
▁측
▁홍
▁누
▁슈
▁기술
▁E
▁막
▁줄
▁도록
▁암
▁시키
▁아들
▁잘
▁책
▁우승
▁로부터
▁들어
▁공격
▁헤
▁2010
▁대통령
▁대부분
▁커
▁영향
▁사망
▁올림픽
an
▁결과
▁갈
▁밝
▁앨
000
▁송
▁라이
▁지원
▁프로그
리카
▁과정
▁잡
▁탄
▁193
▁발생
▁의미
▁관련
▁참여
▁머
▁중앙
▁유럽
▁센
▁업
▁진행
▁최초
▁얻
▁c
란드
▁범
20
▁25
▁부분
지만
▁특히
▁고등
▁독립
▁자유
▁결정
▁난
▁제국
▁태어
▁됐
▁구조
▁다양
▁설립
▁탈
▁어서
버지
▁설치
▁상태
나라
▁폐
▁형태
▁악
▁발매
▁W
▁초등
▁일어
▁소속
▁좌
▁러시아
▁같이
▁사실
▁2008
▁하지만
▁침
▁이전
▁그녀
우스
▁21
▁새로운
▁스타
▁르
▁좋
▁인해
▁로마
디오
▁여성
▁으로서
▁나라
▁폴
▁생각
▁팔
▁인민
▁주로
▁프로그램
▁필요
▁타이
▁벌
▁2011
▁2012
▁이것
▁혼
▁출신
▁싱
▁참가
▁이탈
▁조직
▁관리
▁100
어진
▁기준
▁운영
▁위원회
▁중요
▁윤
므로
▁생산
en
▁2009
▁란
▁여자
▁계획
▁2007
▁기관
▁2014
▁t
▁상대
▁행정
▁등장
▁정보
▁계속
▁성공
▁음반
▁바이
▁지정
▁국민
▁매우
▁데이
▁콘
▁a
▁헌
▁해서
▁빌
▁넘
▁데뷔
▁해당
▁2013
▁O
he
▁레이
▁뿐
▁과학
▁철도
▁아버지
▁고려
▁칼
▁대전
스터
▁발전
▁몇
▁이탈리아
리즈
▁주요
르크
▁자리
▁따르
프트
▁사업
▁엘
▁191
▁찾
▁시스
▁묘
▁24
▁23
▁억
▁쇼
▁처럼
▁방법
▁차지
▁000
▁2015
ar
▁2018
▁보이
▁이어
남도
▁월드
▁능
▁앨범
라마
▁돌아
▁2016
레스
▁최고
▁그룹
▁인도
▁결국
▁후보
▁마이
▁출연
▁아래
▁시리즈
▁생활
▁전체
이션
▁J
▁22
es
▁고등학교
▁둘
▁한편
▁이유
▁떨
▁회사
▁내용
▁졌
▁2006
▁그리스
이트
▁격
▁우리
FA
▁얼
▁192
▁퍼
비아
▁였으나
▁층
▁제공
▁풍
▁인간
▁힘
▁연합
▁스페
운데
▁방식
▁못하
▁의원
▁빠
▁많이
▁공식
▁2017
▁인터
▁떠
▁항공
▁시기
▁역할
▁잠
▁컴
▁몸
▁군사
▁가운데
▁조사
▁드라마
한다
▁시스템
▁워
▁초기
▁기업
▁거의
▁출전
▁유명
▁제도
▁반대
▁민족
▁먼
▁s
▁으로써
▁지구
▁교회
▁색
▁수상
▁대신
▁텔
▁유지
▁평가
▁표현
▁해야
▁울
비스
인다
▁느
▁으로부터
▁분류
▁26
▁동시
▁홈
▁대상
▁특별
▁!
▁녹
▁현대
▁졸
▁이르
▁웨
▁기능
▁류
▁규모
▁언어
▁이미
▁모습
▁몰
▁공개
▁따라서
at
▁응
▁프리
▁마지
▁노동
▁열린
▁자연
▁28
▁승리
▁개인
야기
▁각각
▁놓
▁연결
▁이론
▁27
▁인정
▁푸
▁밖
▁여기
▁2019
▁붙
▁칸
▁진출
▁단체
▁지도
▁시켰
▁브라
▁임명
▁마지막
▁가진
▁긴
북도
▁핵
▁시장
▁V
▁2005
▁가리
▁목적
▁상황
▁2000
▁밴
머니
▁수도
▁시절
▁아르
▁정책
▁샤
▁전문
▁눈
▁알려져
▁정의
▁기간
▁경상
▁희
▁왔
▁직접
▁산업
▁목록
▁족
▁습
▁이야기
▁뛰
▁먹
▁서로
ic
al
니다
▁빈
▁했으나
▁계약
▁압
▁혁
▁불리
▁슬
▁오스트
스크
▁야구
▁추가
▁기원
▁공동
▁모델
▁건설
BS
▁2004
▁콜
▁개최
▁경찰
▁건물
▁FC
▁플레이
▁망
▁공간
▁형성
▁50
▁벨
▁활약
▁자동
▁결혼
▁보여
▁관한
▁부산
▁스페인
▁훈
▁31
▁태어났
▁29
▁변화
학자
▁거리
▁노래
▁너
▁사상
▁그것
▁졸업
▁교수
▁으면
▁변경
▁나이
▁의하
▁b
▁국회
▁인물
▁TV
▁완전
▁마을
is
re
▁공화국
▁궁
it
▁텔레
▁부르
▁비롯
▁사랑
▁역시
▁낮
▁190
▁노선
▁인민공
▁휴
▁인민공화국
이드
비전
▁실제
▁2020
▁학생
ou
▁맥
▁중학교
▁보통
▁최대
▁요구
▁지금
▁견
▁서비스
▁잉
대로
▁딸
▁겠
▁보호
▁탑
▁전국
▁일으
▁속하
▁지지
프리카
▁소설
▁우주
▁의회
▁거쳐
▁중화
른다
▁겸
▁없이
▁메이
▁실시
▁기본
▁자기
르트
▁판매
▁지하
▁혹
▁황제
▁다이
▁론
▁옥
운드
▁비판
▁가수
역시
▁전통
▁싱글
▁달리
▁한다는
▁엄
▁밴드
▁원래
▁기반
▁어떤
▁퇴
▁싸
▁만든
▁종교
▁세력
▁그래
▁차이
▁2002
▁위하
▁지나
▁경기도
▁탐
로스
▁40
▁못했
▁소련
▁자료
스탄
▁수행
▁환경
▁기타
▁2003
▁아닌
▁회의
▁전기
▁모양
▁센터
▁부대
▁월드컵
린다
▁시설
▁운행
▁흐
▁특징
어져
▁공연
▁전자
▁앤
러스
▁도쿄
▁나오
▁교황
▁설명
▁뮤
▁컵
▁기념
▁통합
▁이동
▁예술
나다
▁분야
▁기독
▁승강
▁명칭
▁작업
le
▁득
▁도로
▁풀
▁대해서
mp
▁남자
▁텔레비전
▁행동
▁염
▁도입
▁동물
▁연방
▁십
▁구역
▁선정
▁의한
▁바로
▁군대
▁숙
▁전라
▁능력
▁애니
스타
▁출시
▁가족
▁증가
▁작용
▁넓
▁확인
▁남쪽
▁기존
어지
▁방향
▁소프트
▁행위
▁나가
▁지휘
너지
▁북쪽
▁이때
▁제외
▁문학
▁교통
▁기독교
▁피해
▁이끌
▁차량
▁착
진다
▁옮
▁작가
▁=
▁므로
▁사고
의원
▁비슷
▁국내
▁형식
▁클럽
▁어머니
▁혁명
▁윌
▁작곡
킨다
▁효과
▁지배
▁낙
▁마다
▁런
▁몽
▁태양
▁왕국
▁역임
▁과거
▁유일
▁캐나다
▁컴퓨
▁승강장
▁FI
▁챔
▁갑
▁한다고
▁사무
▁열차
▁이적
BC
▁보내
▁혹은
▁높이
▁협회
리오
▁남부
▁비교
▁흥
▁추정
▁잔
▁공산
▁정당
▁솔
▁뉴욕
▁흔
▁담당
▁시민
자리
▁이사
▁적용
▁동일
▁획
▁육군
▁주변
▁베이
▁인기
▁돈
▁1990
▁장관
▁홀
▁대사
▁즈
▁2001
▁동쪽
▁시켜
▁챔피
▁스포
▁스트
▁어린
▁맨
▁쪽
▁X
▁세포
▁윈
▁곧
▁상당
▁건축
▁예정
▁공사
▁사단
▁성장
▁덴
▁마음
▁징
▁개념
▁데이터
▁p
▁구간
▁오늘
▁컴퓨터
▁조지
▁품
▁차례
▁움
▁에너지
▁크기
▁대하
▁마르
▁멤
▁가까
▁서쪽
▁189
▁버스
▁넣
▁흑
이지
▁충청
▁액
▁록
▁자체
▁땅
▁어느
▁칭
▁작전
▁조건
▁실패
▁민주주의
▁물리
▁다르
▁연기
▁디자
▁올라
▁이런
▁율
▁반응
▁덕
▁늘
▁컨
▁선언
▁연주
▁FIFA
▁부족
▁종류
▁특정
▁버전
▁d
▁연속
▁페르
드리
▁선택
메이션
▁국립
▁익
▁대체
▁쌍
▁규정
▁방영
카이
▁수록
▁곤
el
▁해군
▁대구
▁공항
▁고대
▁내부
가지
루스
▁위해서
et
▁멤버
▁체제
▁속도
버스
▁지냈
▁결승
▁조약
▁정신
▁북부
▁명령
▁아시아
▁기원전
▁이라
▁는지
▁밝혔
▁연대
▁왜
▁인지
글랜드
▁선출
▁헌법
▁인천
▁벤
▁크리스
▁애니메이션
거리
▁몬
▁옛
▁가치
▁단계
▁포르
▁찬
▁개혁
▁링
▁걸쳐
▁친구
▁최종
ion
▁물질
▁보인다
▁영어
웨어
▁달러
▁분석
▁자치
▁최근
ing
▁일어나
▁밤
▁설계
▁척
▁의사
▁팬
트남
▁강화
▁더욱
▁핀
▁출판
▁평균
▁비행
▁소비
시마
▁1999
▁지명
▁널
▁체계
▁휘
▁로스
난다
▁술
▁법원
▁북한
▁집단
ol
▁배치
▁잉글랜드
라스
▁관심
▁내려
▁1998
▁표준
▁머리
메리카
▁겨
▁언급
▁쥐
▁개월
▁치료
▁Y
▁획득
▁부문
▁씩
▁엔진
▁cm
▁하이
▁현상
21
▁o
렇게
▁헬
▁지속
▁조정
▁실험
▁분리
▁당하
▁부상
▁맺
▁1980
▁유사
▁선발
▁60
▁하계
▁함수
▁파리
▁처리
▁확장
▁스테
▁스포츠
▁공원
▁챔피언
스코
▁대중
▁마리
▁베르
▁소유
▁어야
▁어려
▁칠
▁제품
▁35
▁입단
리지
▁고자
▁시도
▁관할
▁통일
▁목표
▁도움
▁이해
▁자동차
▁요소
▁장군
▁뛰어
▁공립
▁재판
아들
▁주도
▁정규
디어
▁mm
▁문자
▁에스
▁후반
▁점령
▁외국
▁꽃
▁요시
▁나무
▁거주
▁구단
▁려고
▁가문
▁주인
▁들어가
▁편성
▁앙
▁주민
▁기사
▁잃
▁시험
▁원자
▁네덜
▁네덜란드
▁다면
▁학자
▁행사
▁책임
▁통신
▁안정
▁n
▁괴
▁동맹
광역시
▁사령
▁결합
▁투표
▁파이
▁혈
▁수준
▁일종
▁알렉
▁웹
▁고속
▁언론
▁깊
▁불구
▁장치
▁불교
▁예선
om
▁제한
▁길이
▁디자인
▁아프리카
▁개봉
나무
야마
▁준비
▁1997
▁듯
젝트
▁나타나
▁베트남
▁문서
▁빛
▁방문
▁본선
▁촉
▁광주
▁사진
일랜드
▁통치
▁만나
▁인데
▁비해
▁캠
▁갔
▁신문
▁바르
▁정권
▁유전
▁믿
▁가정
▁경험
▁정확
▁드러
메달
▁구분
▁성적
▁제조
st
▁그림
▁대로
▁1996
▁The
▁폴란드
▁요리
▁올랐
▁평화
▁1995
▁비디오
▁끌
▁오늘날
▁원인
▁amp
▁부인
▁통과
▁거두
▁왕조
▁용어
▁부여
▁알려진
▁아직
▁려는
▁32
▁정리
▁70
▁일제
▁값
▁그런
▁추진
▁아마
▁쉽
▁프로젝트
스로
▁런던
특별
▁병원
▁이곳
▁신라
▁종합
▁멀
▁쓴
▁입장
▁은퇴
▁멸
▁해석
스턴
▁프레
▁경쟁
▁방어
▁경영
▁슈퍼
인트
▁영역
▁500
▁발달
▁이듬
▁노력
▁폐지
▁인터넷
▁널리
▁훈련
▁보도
▁사라
▁오르
▁파괴
▁민주당
▁미사
웨이
▁츠
▁제안
▁주제
▁제주
▁총리
▁부정
▁the
▁놀
am
레일
▁면적
▁회장
▁주연
▁80
▁세워
▁완전히
▁기여
▁미술
▁꼬
▁델
▁서부
▁이듬해
▁유래
▁만화
▁번호
리트
▁요청
▁188
▁나온
▁국회의원
▁정상
▁가르
▁빅
▁경기장
▁도서
▁남성
▁야마
▁식민
▁여겨
▁자주
▁투수
▁생물
▁연맹
라인
▁UE
▁법률
▁궤
▁경계
▁동부
▁아서
▁+
▁폰
▁1994
▁무기
il
▁1970
▁행성
▁움직
▁잇
▁금지
▁펼
▁수용
▁UEFA
▁인식
▁등록
▁소재
▁깨
톨릭
▁철학
▁삼성
▁연구소
▁무대
▁바탕
▁외교
▁더불
▁끼
▁전해
▁영토
ac
머지
▁라디오
▁접근
▁나머지
▁반면
▁아시
▁스스로
▁지진
▁지대
▁든
▁받아들
▁강원
▁KBS
▁발사
▁노르
▁거부
▁조각
▁뇌
▁업무
▁박물
▁뉴스
▁오른
▁오래
▁정식
▁표기
▁마찬
▁마찬가지
▁벽
▁오스
▁아일랜드
▁결성
▁당했
▁지난
▁상호
▁은행
▁서식
▁논란
▁필리
▁보수
▁의식
▁펜
▁다수
▁1992
▁찾아
▁기초
▁짧
▁득점
▁공작
▁45
▁가톨릭
요일
▁복귀
▁소리
▁다리
▁주의
▁박사
▁성격
▁아카
▁트리
임스
▁임시
▁스웨
ro
시코
▁바다
▁수학
▁로써
▁돼
▁해결
▁총선
▁패배
▁장애
▁그대로
▁실제로
▁36
모토
▁윌리
▁케이
▁of
▁검사
ed
▁지도자
워드
▁파일
▁습니다
▁장소
▁둔
▁밝혀
▁초대
▁브라질
▁유로
▁강력
▁마이크
▁이스
▁바뀌
▁린
▁스위
▁박물관
▁여행
▁제시
▁차원
▁묘사
▁표시
▁여름
▁기구
▁오브
▁카드
▁화학
▁식물
▁인사
▁단순
▁1960
▁집합
▁안전
ig
▁차트
▁이외
▁관측
▁계열
▁그린
▁유니
▁에이
▁연극
▁권력
▁쓰이
▁활용
▁1991
토리
▁스웨덴
▁무역
로나
▁멕
▁오스트리아
▁먼저
▁지적
▁회원
▁아무
▁기계
▁디지
▁히로
▁개국
▁캐릭
부르크
▁형제
▁근처
▁셀
▁가져
▁1993
▁반란
▁조성
▁33
레일리아
▁위험
트리
▁중단
▁중간
▁붕
▁세대
▁만큼
▁흡
▁소프트웨어
▁일정
▁발행
▁분포
▁도착
▁시행
▁굴
낸다
베이
배우
▁협력
▁기자
▁캘
▁쉬
▁다만
▁스코
▁스튜
▁량
트로
▁나타내
특별시
od
버트
▁사이트
▁멜
▁여객
▁캐릭터
▁죽음
▁서울특별시
▁하루
▁단어
사카
▁186
▁해안
▁지하철
▁",
▁윈도
▁파견
▁죄
주시
▁세상
▁렌
ve
▁꾸
▁수많
▁연장
▁통하
니스
▁떠나
워크
▁삶
▁카이
▁겪
▁투자
▁순위
▁혜
as
▁공장
▁코드
▁제기
▁태평
▁혐
▁감소
나이
▁본부
▁전시
▁다카
▁내각
▁뮤직
▁근거
▁오스트레일리아
▁확대
▁후기
▁경상남도
지션
▁번역
▁생성
▁옹
소년
▁윌리엄
▁귀족
▁?
▁위기
▁지상
▁지식
▁경상북도
▁네트
▁보유
▁균
▁보존
▁달성
▁양식
▁유형
간다
▁바꾸
▁숨
무원
▁관광
▁1988
▁동생
▁상징
▁유대
▁세웠
▁촬
▁전략
▁떨어진
▁래
▁187
▁수사
▁멕시코
▁춘
▁극장
▁당선
▁h
▁완성
▁성립
▁유리
▁촌
▁상업
▁영상
▁원소
▁보였
▁이렇게
▁대응
▁학위
▁근무
▁디지털
▁님
▁특수
▁계승
▁촬영
▁34
▁체포
▁단위
티아
▁이슬
▁그렇
▁옆
▁올리
▁나중
▁권리
▁수비
▁식민지
▁38
▁체결
▁몇몇
▁따른
▁코치
▁이루어진
▁전달
▁미래
▁이집
▁이집트
회사
가리
▁생명
id
▁마사
어졌
▁판단
▁알렉산
▁듀
▁90
▁으므로
▁맹
아시아
▁타이틀
▁국왕
▁시티
▁이란
▁아내
▁종목
▁직후
▁헨
가와
▁싶
▁관찰
▁이라고
▁승격
▁1989
▁시청
▁측정
▁자본
▁이주
▁크로
▁톤
▁률
▁젊
▁주식
▁미군
▁대륙
▁즐
모리
▁소수
▁전환
▁개통
▁낳
▁다루
▁밑
▁도서관
▁설정
▁48
▁2021
ec
▁채널
▁컬
▁엘리
▁동계
▁세르
▁얼마
us
▁스키
▁라인
▁의견
▁특성
▁납
NA
▁홍콩
▁발매되
▁정치인
▁',
▁개정
▁문화재
▁시위
and
▁부른다
▁포르투
▁신경
▁종료
▁텍
▁지위
▁취임
▁져
▁셰
▁제정
▁미사일
▁기획
▁1950
▁|
▁쌓
▁은하
▁헝
▁교체
▁300
▁빨
▁사회주의
▁가리킨다
▁결승전
▁예수
디아
▁천황
▁후쿠
▁주인공
스티
▁본관
▁MBC
▁주목
▁범죄
▁청년
▁벗
▁전차
코드
▁소개
▁못한
▁해외
▁출생
▁충돌
▁강한
ad
▁제임스
▁찰
▁장기
▁녹음
▁이래
▁수정
▁아키
▁비용
▁e
▁계산
교회
▁개선
▁스티
▁전라남도
전히
▁본래
▁남북
▁바이러스
▁1945
라도
▁음식
러운
▁즉위
▁보냈
▁계기
▁비밀
▁자격
▁합류
리학
▁공부
▁건강
▁소장
▁공급
▁만드
▁카운
▁부모
▁옮겨
ent
▁펠
▁배경
▁홈런
▁원정
▁제거
▁물론
▁네트워크
스카
▁체육
▁에드
▁궤도
50
▁각종
▁거대
▁인근
▁으면서
▁시내
▁오후
▁듣
▁작성
▁명예
▁왼
▁자원
▁집중
▁신학
▁가격
▁입학
▁감염
▁공군
▁랑
▁가입
▁읽
▁피아
▁객
▁베네
▁국경
▁군인
▁병력
▁가리키
▁전사
▁롤
베르
▁준다
▁썼
▁강조
▁천문
▁저항
▁나누
▁통제
▁다니
▁성우
티나
▁이슬람
▁측면
▁울산
▁명단
▁농업
▁일어난
▁소송
▁포지션
피아
▁신호
니어
▁인수
▁샌
▁만약
▁가까운
▁병사
▁세이
▁학문
▁지내
▁기후
리포
▁마치
▁너무
▁이번
▁기회
▁실행
▁블랙
어나
▁질량
▁아우
▁St
▁플로
▁이루어져
▁터미
▁털
▁콩
▁틀
ot
▁변호
▁증명
▁터키
▁빼
도로
▁태평양
▁최소
▁겨울
▁약간
▁광고
▁정착
▁강원도
▁노동자
▁엑
아가
▁비트
동안
▁x
▁무장
▁외부
▁잎
▁해방
▁마리아
▁미디어
▁짓
un
▁환자
▁가졌
▁둘러
▁몽골
▁37
▁바람
▁국방
▁전반
▁냉
ow
▁제목
▁편집
▁나왔
▁마쓰
▁in
▁도중
▁터미널
▁인한
▁건너
▁무렵
▁마련
▁금융
▁표면
▁지점
스키
▁허용
철도
▁라운드
▁혐의
▁충분
▁밀도
▁재산
▁가스
소리
▁유도
▁1987
▁카르
▁여전히
▁힐
오카
▁쇠
▁그해
▁겐
▁인디
▁학년
▁루이
▁고전
▁갖추
▁시킨
▁합병
▁모리
▁현실
▁흰
▁전력
▁보고
▁민간
▁뒷
▁윈도우
▁헝가리
▁숲
▁재직
▁오사카
▁꼬리
▁충청남도
▁전역
▁양성
▁킹
▁등급
▁포르투갈
▁41
▁영화배우
▁재정
▁령
▁봄
▁w
▁붕괴
▁적극
마크
▁계급
▁동료
▁선수단
드로
▁51
▁강제
▁라이브
▁위협
▁그려
▁공주
▁인하
▁1986
▁엔터
▁공공
▁짐
▁조치
▁대대
▁이하
▁위원장
▁근대
ur
▁1984
▁오리
▁온도
▁승인
▁스튜디오
▁전선
▁불러
▁군주
▁캘리포
▁유엔
▁구축
▁이미지
▁수입
▁답
▁범위
▁상하
▁전하
▁점차
▁대수
▁꿈
▁논문
▁원칙
▁클라
▁임무
▁불린다
▁업체
▁확보
▁둥
▁항상
▁출발
▁경력
▁위성
▁다섯
▁그래서
▁미치
▁킬
▁고구
▁공산당
▁거래
▁양자
▁전개
▁교사
▁회복
▁대학원
▁잭
▁채택
▁캘리포니아
▁수단
▁후지
▁성인
▁증거
▁공업
마스
▁토론
▁수립
▁핀란드
▁섭
▁필리핀
▁강의
▁잡지
주교
테르
▁드래
▁첨
▁합의
▁아시안
▁남아
ch
▁얼굴
▁39
▁흘
▁남편
▁됨
▁만족
▁사례
▁스파
▁개편
▁의료
▁400
▁냈
▁부근
▁선생
▁일원
▁라며
바이
▁폭발
▁매년
▁기지
▁시인
▁나카
▁욕
고리
▁이스라
▁아라
▁이승
▁스위스
▁끊
▁간주
▁장면
▁1985
▁장비
▁모스크
▁붉
▁64
▁군단
▁대형
▁아름
▁토지
▁종종
로드
▁대기
▁불가
▁아주
▁스리
데미
▁경향
▁규칙
▁띠
ay
▁이스라엘
▁롭
▁경주
▁분자
ir
리스트
▁종이
▁게이
키아
▁알리
▁수원
▁라면
▁항성
▁캄
▁버리
ut
▁II
▁조합
▁열렸
▁확실
▁기억
▁낭
▁기대
▁튀
▁진화
▁불렀
▁이제
▁그곳
▁아랍
▁에게서
▁일어났
▁귀국
▁해체
백질
▁맛
▁탑재
레이드
▁대장
▁해도
고기
▁좀
우드
▁43
▁레코드
um
▁아나
▁향상
▁강점
▁서양
▁장식
▁세우
▁아카데미
▁스피
▁어떻
▁br
▁평양
▁신화
어들
▁가로
▁투어
▁클래
▁침공
▁고양
▁보장
▁아메리카
▁융
▁청나라
im
▁불과
▁의학
▁청소년
▁선고
▁폼
▁42
▁떨어져
▁감정
요시
▁박쥐
▁고구려
▁자금
▁랭
▁남동
▁가사
▁사후
▁켄
오스
▁성과
▁보병
▁잠시
보드
▁세운
▁카운티
▁메이저
▁스타일
▁에피
▁독자
네스
▁카메
▁빠르
▁이끄
▁고문
ver
▁소년
▁아야
▁우선
▁단지
▁신설
▁나치
▁살해
▁확정
▁55
▁만주
▁1982
라노
타인
▁중화민국
▁갖춘
▁우수
▁단백질
▁숭
▁모르
에르
일러
▁라틴
▁지시
▁스카
▁편입
▁신앙
▁의해서
틀랜드
▁함대
▁복잡
▁알려졌
▁스케
▁나폴
▁삭
▁철도역
▁예상
▁비율
▁광역시
▁차별
네시아
▁왕위
▁태풍
▁검찰
▁구체
▁의장
누스
▁전화
▁44
▁마크
▁1983
▁덴마크
▁뛰어난
▁재단
▁창설
다이
▁고향
▁세종
▁대립
▁동의
▁판결
▁i
▁법인
▁성당
▁LG
▁온라인
▁역대
▁쓰인다
▁공유
▁나뉘
▁태어난
▁나와
▁시킬
▁전설
트라
FC
▁참석
▁보급
▁브리
▁냐
▁수출
▁선거구
▁솔로
▁반도
▁47
셔널
▁육상
▁하늘
하라
▁삼국
▁브랜드
운동
▁이루어지
▁유학
싱턴
없이
▁했었
룬다
▁고정
▁올렸
▁노예
▁협상
▁통한
▁집행
의회
▁핵심
▁본격
▁아파
▁뿌
▁후손
이크
▁저장
▁텐
비드
▁카를
▁애플
반도
▁75
▁태어나
오프
▁보안
▁탄생
▁초반
▁자세
▁앞두
▁184
▁댄
▁180
▁대비
▁강점기
▁중반
▁오픈
▁산맥
▁옷
▁사전
▁주교
▁대항
▁이성
▁Z
▁마드리
▁암살
▁회전
▁아르헨
▁전혀
▁사우
▁숫
▁지키
원군
▁권한
▁연고
각형
▁시킨다
문화
▁로버트
▁1972
▁플랫
▁베이스
▁법칙
▁이익
▁헤이
▁마드리드
▁의무
▁어린이
▁프란
▁단일
▁켈
▁공기
▁직원
▁아르헨티나
▁인상
▁조금
▁전용
소드
▁46
▁공학
▁1920
▁순서
▁말기
▁베를
▁묻
▁운전
▁바라
▁시각
레이션
▁요한
터리
▁공포
▁잘못
▁비난
▁사항
▁유적
▁수여
▁별도
▁중심지
▁아스
▁1979
해졌
CA
▁에선
▁협정
▁아미
▁보조
▁흔히
▁상품
▁덮
▁변호사
▁스크
▁창조
▁원주
▁전라북도
▁물러
▁효소
▁워싱턴
▁전후
▁롯
▁인권
▁글로
▁관료
▁kg
정부
▁CD
▁넘어
▁투입
▁저지
▁통계
▁파크
▁작곡가
▁방면
▁소식
▁장착
퍼드
▁1930
ra
▁심각
▁우크
▁현장
▁셋
▁레드
▁앞서
무라
▁갈등
▁정복
▁항복
▁저서
▁오히
▁훨
▁1981
▁In
▁금메달
▁엠
▁아침
▁150
▁1973
▁본인
▁하드
▁중세
▁돌아가
▁강하
▁어떻게
▁헨리
▁호텔
▁공무원
퍼스
▁출마
사키
▁오랜
10
▁니콜
▁훨씬
▁공산주의
리어
▁교류
▁벡
▁논의
▁v
▁마이클
▁공화
▁성경
▁플라
▁요새
▁건국
▁교토
▁오른쪽
▁무리
▁노스
▁짜
▁인류
os
▁택
▁중부
▁건조
▁유전자
▁멘
▁코미
▁김정
▁한때
▁인정받
▁오토
▁연합군
▁산하
▁빙
▁방출
▁플레이어
▁왼쪽
▁추측
▁세인트
▁예산
▁로드
▁금속
▁낸
▁서기
▁창립
▁성질
▁인가
▁주위
▁찍
▁투쟁
30
▁1940
▁베이징
▁사태
▁라도
▁에어
일보
▁태국
▁원작
▁릴
▁일으키
▁1974
▁185
▁절대
▁형사
▁사령관
▁오전
▁열리
BO
▁노르웨이
▁에피소드
▁북서
▁제자
em
▁탁
▁코스
▁멸망
▁복합
▁내렸
ter
▁군수
▁논쟁
▁제출
▁플레이오프
▁운용
▁효율
▁반복
▁뽑
▁모스크바
▁집안
▁파라
▁읍
▁구별
▁오히려
▁스코틀랜드
▁SBS
▁정비
▁입자
▁마침
▁메시
카와
▁진다
▁해양
▁합성
▁인공
▁전철
▁사법
▁갤
▁중대
▁1948
▁노부
▁숫자
▁포위
▁거절
▁이어지
▁인종
▁흡수
▁미니
듀서
▁지니
▁프로듀서
▁주기
▁지닌
▁해상
▁블루
▁연산
▁54
머스
▁원리
▁그레
▁연관
▁출장
▁인조
▁활발
▁시점
▁1968
▁우스
▁각본
▁목사
▁포기
▁1976
▁불렸
▁베를린
▁웨스트
▁수송
▁아름다
▁인터뷰
▁슬로
▁생겨
▁소녀
▁신체
▁개시
▁이민
▁붙여
▁밖에
▁경성
도르
▁취급
▁들어갔
다리
▁북동
▁머물
▁이기
▁출입
▁주전
▁전공
▁건립
▁안타
▁내리
▁1975
▁고용
▁통해서
▁보스
▁명성
▁분쟁
시스
▁동원
▁자라
▁음력
▁어렵
▁디스
▁히데
▁주택
데스
▁사령부
▁장악
▁죽이
▁취득
op
▁비록
▁구속
나이티
▁축제
▁진보
▁신성
▁트랙
▁생기
▁활성
▁국도
▁유나이티
▁농민
▁일치
▁영화제
▁견해
▁하나님
▁써
▁보컬
▁전부
▁프라
▁1978
▁56
서트
▁1971
▁총독
▁미드
▁국장
▁불법
▁고유
▁부활
ag
▁1963
▁유물
▁직전
▁소스
▁더라도
▁52
에트
▁속한다
▁관점
▁보험
▁해졌
산시
▁북아
▁편지
▁49
▁후원
▁정체
▁자이
▁약속
▁폭력
▁상당히
▁도달
키스탄
▁혼란
▁하위
쿠라
▁65
다가
▁대리
▁코미디
▁주관
▁연료
▁한자
▁교차
▁학습
▁항공기
▁철수
▁포도
▁지낸
▁타이완
▁수술
▁그리스도
▁시리아
▁일으켰
▁닌
▁직업
▁여부
ce
세이
▁다운
▁반영
▁취하
▁1969
▁여객철도
▁아테
메리
▁임금
▁선교
▁관직
자기
▁179
기에
▁다며
릭스
▁천체
▁고종
▁무엇
▁Q
▁백제
▁브레
▁한국어
▁랜
젤레스
▁팝
▁떠났
▁명명
▁상륙
▁수집
▁의존
리케
▁논리
▁대화
▁장교
▁00
▁성능
▁본사
▁넷
▁미나
▁심리
▁제어
▁주간
▁테러
▁데이비드
▁부임
▁교환
▁이른
▁예비
▁1946
▁보관
▁십자
▁화물
▁그런데
▁판서
▁백작
▁일대
▁학술
▁영업
▁톰
▁프리미
▁좁
▁아사
▁콘서트
▁스미
▁정지
▁해산
▁도구
준다
▁개체
▁주식회사
▁폴리
▁불상
공항
▁허가
▁53
▁소방
OS
▁전파
▁로운
▁스마
▁상승
▁하우스
▁자살
▁반발
▁김영
▁빠른
라비아
▁전문가
▁간단
▁거기
▁방사
▁연재
▁프로세
▁코로나
▁제일
이어
▁박정
▁접하
▁핑
▁알아
▁영향력
▁진입
▁살인
▁렀
미터
▁1964
oc
병대
▁대략
프리
▁정원
▁공통
▁쳐
▁모여
▁헤르
▁화성
▁니시
▁리스
▁충청북도
▁셔
▁보건
▁영입
▁재료
▁베스트
▁갈라
▁신분
▁락
▁미터
▁학부
▁당한
▁피아노
▁US
▁소비에트
▁기도
▁사장
▁승진
▁파트
▁항구
▁가을
▁꼭
▁벨기에
▁포트
▁외국인
▁도망
▁벼
▁고도
▁부장
▁발언
▁서버
▁학원
▁한반도
▁and
노스
▁진압
▁지붕
▁국제공항
▁스프
▁고리
▁1000
▁58
▁모아
ri
▁99
▁인도네시아
▁질병
▁사운드
▁학회
어스
▁감사
▁탈락
▁탈출
▁다스
▁횡
▁구성원
▁현역
▁시호
▁닥
▁주년
▁채용
▁루이스
▁의도
하마
▁리더
▁스토
▁참전
▁신청
▁브루
▁식품
▁창단
▁공동체
▁쫓
▁콤
▁통상
▁트랜
▁픽
▁합격
▁계통
▁복무
▁PC
▁응용
▁장수
천군
▁임대
▁스러운
▁모드
▁변환
▁1977
▁망명
아버지
저우
▁조작
▁포로
▁위반
▁민법
▁임의
▁요코
▁작사
▁SK
▁에도
▁문헌
▁롯데
▁1949
▁말레이
▁친일
▁화면
▁마케
▁흐르
▁..
▁트라
▁페이
▁빠져
▁부부
▁청구
성군
▁문장
▁생긴
▁라이트
▁동남
▁절차
▁로스앤
▁로스앤젤레스
▁방송국
igh
▁FA
▁요인
▁젠
▁이치
▁분열
▁저작
▁예측
▁트로
▁탄소
▁이뤄
▁변형
▁학과
▁선보
▁신인
▁배출
▁수영
▁지급
▁누구
▁연출
▁1962
▁선조
문화재
드시
▁88
▁보낸
▁캠퍼스
▁상원
▁자녀
▁엑스
▁주둔
▁레오
▁조절
정식
▁수소
▁선전
▁시카
▁62
▁코파
▁메모리
ation
▁이중
▁1967
▁막부
▁기하
▁전동
▁국무
▁레스
▁출간
▁큐
▁흉
▁스럽
▁처형
▁광장
▁정기
▁어떠
타르
▁수리
▁기호
▁화재
▁이승만
크스
▁실수
▁황금
▁콘스탄
로그
▁취소
▁태어났으며
▁서원
▁오페
▁방지
카이도
천시
▁로켓
▁r
▁기법
▁생존
▁샘
▁달하
▁장르
▁오스만
▁는가
▁이시
▁호수
▁57
▁서구
▁증상
▁왕자
▁You
▁흑인
▁남서
▁동성
▁동작
수록
▁카메라
▁앵
▁연안
▁남겼
▁현지
▁루트
브리
▁개조
▁반드시
▁나갔
▁늦
▁히트
▁롱
▁희망
▁등지
▁제대로
바르
▁메인
▁나타났
▁뿌리
▁고지
▁그라
바라
▁Ch
▁기체
▁좌우
▁위상
포르
▁농구
▁여단
▁싸움
▁전주
▁뜨
▁분명
▁무덤
▁임진
▁우려
▁된다는
▁천연
▁입니다
▁공정
▁도전
▁톱
▁크리
▁일본군
▁맞이
▁여야
▁진주
비치
▁181
▁전면
▁치렀
▁파악
▁동아
▁터널
▁압력
▁엄청
▁둘째
▁코르
▁전형
▁끝나
▁꺾
▁독특
▁살아
▁1966
▁해리
nd
▁목소리
▁스탠
▁특이
방송
▁이온
▁66
라이언
▁물체
▁리처
▁법정
▁녹색
▁매일
▁치러
▁%,
▁미국인
▁그레이
▁경로
▁글자
▁성향
▁에르
▁동기
▁독립운동
▁타임
▁1965
▁이룬다
▁노벨
▁바둑
▁덧
에이
▁신뢰
▁부사
▁아프
▁유기
▁68
▁방정식
▁183
▁KBO
더스
▁체코
티브
베스
▁처벌
▁분해
▁묶
▁지리
▁클레
▁개신
▁방해
▁추구
치아
▁나타난다
▁알렉산드
▁밥
▁실질
▁61
▁람
▁나들
▁일식
ST
▁타격
▁삽
▁일찍
▁유행
▁싸우
▁김일
▁웅
▁퀸
▁구하
▁간행
▁완료
▁분할
▁찰스
▁묵
이치
▁풍부
▁움직임
르타
▁올려
▁먹이
▁내전
질랜드
▁홋
▁아리
▁화산
▁끝난
▁부진
▁사립
▁아동
▁희생
▁복지
▁아파트
▁뉴질랜드
▁마르크
▁범주
▁손자
▁버렸
▁순환
▁평등
▁마침내
먼트
▁나들목
▁빼앗
▁향해
▁대개
▁1961
▁별명
▁비평
▁어도
▁플래
▁캔
▁집권
▁최다
▁오프
▁800
ER
▁갈색
▁점점
art
▁한정
▁첼
▁한계
▁시조
▁전원
▁파르
▁향하
▁86
▁600
▁분기
▁사냥
▁마시
▁판사
▁가상
▁리가
▁대법
ice
▁시드
▁의지
▁창원
▁쓸
▁부하
▁구현
▁120
투스
유럽
▁근본
▁모형
▁분위
▁기둥
▁테이
▁명확
▁훗
▁가시
▁충격
▁교향
▁사원
ON
▁완공
▁달라
▁IS
▁맞추
▁일본인
텐츠
▁메리
▁웨이
▁중기
▁사형
▁사임
▁무게
▁확산
▁벡터
▁스토리
▁프린
▁오페라
▁출범
▁카라
▁션
다는
디션
▁날개
▁마법
▁둘러싸
est
▁단독
▁대공
▁1919
은행
라드
▁제이
피스
▁사마
▁호주
틀러
▁물리학
▁의혹
▁적절
▁상위
▁뚜
▁악화
▁으려
▁레인
▁된다고
▁통산
ia
▁났
▁훌
▁의심
▁re
▁이자
▁도와
▁회담
▁명나라
▁닛
TV
▁모토
▁영웅
▁유치
▁무시
▁연구원
리히
▁98
▁조종
▁당초
▁알파
▁서명
▁가나
사자
ap
▁편찬
▁새겨
▁1944
▁발굴
▁함락
▁득표
▁이닝
▁문명
▁새롭
▁사실상
사스
▁추천
▁나뉜
▁인접
▁자극
▁징역
ak
▁넓이
▁광복
▁연간
▁나아가
▁포인트
▁느끼
▁개입
▁순간
▁모임
▁인증
▁여론
▁밝히
▁저술
라이나
▁접촉
▁도쿠
▁포항
▁곽
▁각지
▁그때
▁진정
▁사정
▁순수
▁등판
연히
▁흘러
▁올해
▁홍보
▁동서
▁프리미어
▁1941
▁구원
▁악기
▁고속도로
▁세르비아
▁개막
▁독일군
▁63
우리
▁골든
▁오랫
▁드라이
▁루스
▁정하
AR
▁기온
▁95
▁뮤지
▁탐사
▁DNA
▁태도
▁꼽
▁기기
메이
일리
▁학살
▁팽
▁74
시오
학생
▁백성
민주
버그
▁실현
▁Lo
▁임기
▁59
▁공로
▁언제
▁한국인
무부
▁바위
▁변수
▁수석
믹스
▁시카고
▁성분
▁경전
▁행렬
숭이
▁예전
▁네이
▁178
▁공헌
▁앤드
▁보고서
▁입법
▁양쪽
▁오랫동안
▁추산
▁훗날
▁심사
▁스마트
▁아티
▁떨어지
ct
▁페르시아
▁닉
▁감시
대부
▁확률
▁춤
▁뱅
▁튜
▁균형
▁혼합
▁자전
▁방위
▁1958
▁침략
▁프로그래
▁매장
▁미쓰
▁시사
▁띄
▁왕실
▁분위기
ul
▁에드워드
▁합쳐
▁한다면
▁특별시
▁영지
▁리처드
러리
▁출력
▁1947
▁IC
▁신부
▁피터
▁82
▁160
코스
▁승부
▁커뮤
▁대량
▁조별
▁to
▁저녁
▁개신교
▁원형
▁내셔널
▁멀리
▁무사
▁타자
▁이라크
▁대선
거운
▁76
▁단편
▁1956
▁경남
▁동해
▁안토
▁다케
이너
▁프라이
▁;/
▁72
▁줄기
▁권위
▁에서부터
▁여왕
▁승객
▁미야
▁흐름
▁텍사스
▁그래픽
▁마무
▁랜드
▁제사
▁발발
▁재건
▁아이돌
▁프랑크
▁SS
▁커뮤니
▁가와
리노
▁확립
▁앉
ie
▁안동
▁우라
▁받아들여
▁속한
▁동명
▁바깥
▁펼쳐
▁77
▁복원
▁작위
▁긍
▁석유
▁일상
▁과학자
▁데스
▁참고
▁교구
▁침입
▁섞
▁복수
▁점수
▁비상
▁테스트
▁입력
▁수익
▁밝혀졌
▁정해
▁1939
▁기울
레나
▁잠수
▁어깨
▁폭탄
▁Th
▁당국
▁시상
▁67
메리칸
▁브라운
▁리버
▁민중
▁벌였
▁일시
▁신자
▁지켜
▁축구단
▁복음
▁심지
▁도요
▁본질
▁사자
레옹
▁기에
▁자식
▁기소
▁계층
▁재배
▁타워
▁포켓
ud
▁더블
▁연예
일스
▁병합
▁AFC
▁움직이
▁겹
▁나폴레옹
▁그렇게
▁쌀
▁신고
▁혁신
▁주최
▁한글
▁대왕
▁시마
▁어디
▁가공
▁가진다
▁부지
▁도모
▁가량
ly
og
에른
이센
▁파워
▁벗어나
▁정수
▁빌보드
▁빅토
▁동양
▁돌아왔
▁지형
▁85
▁사제
▁가담
▁보물
▁대성
▁턴
▁듯이
▁창작
th
▁거듭
▁공중
▁평안
▁1954
▁힌
▁폐쇄
마니아
▁어려운
ist
▁깃
▁돕
▁암호
▁노출
▁가설
레인
▁인쇄
▁후계
▁누르
아티아
▁크로아티아
▁훈장
▁급제
▁아름다운
▁국기
▁산화
▁구글
▁고통
▁평론
ight
▁총회
▁비서
왜란
▁1952
▁임진왜란
AS
▁가이
▁참모
▁다소
▁력
▁고기
▁곱
▁탱
▁세리
▁실력
▁블라
▁전신
▁보상
▁대지
▁73
▁후속
▁보살
▁상관
▁동방
▁박정희
▁바닥
▁그만
▁아테네
▁김대
▁라스
조합
▁96
▁행복
▁도덕
▁따로
▁절반
▁나타낸다
▁발음
▁탈퇴
▁국정
▁조조
▁뮤지컬
▁스타디
▁비례
▁오카
▁타운
바로
▁인용
▁81
▁무한
하여
▁*
▁개설
▁Al
필더
▁수도원
▁피해자
▁미드필더
▁소득
▁뤼
▁덜
▁불만
▁뷰
▁심장
▁좋아
▁가까이
▁78
마르
▁장남
▁로봇
▁부담
▁청주
AT
▁나뉜다
▁옮겼
▁재학
체스터
▁전투기
▁화이트
의정
▁화장
▁센트
▁손상
▁전남
▁안드로
▁이혼
▁전직
▁바이에른
▁여섯
▁지향
▁는다는
▁김성
너스
▁중력
▁뮌
▁기리
타이
▁교리
▁아트
▁하인
▁포스트
▁께
▁천안
▁콘스탄티
▁녀
나가
▁국군
▁벌이
▁주력
▁산소
▁피하
▁보르
▁작동
▁끝내
▁백만
▁1959
▁검토
▁총장
▁202
▁진단
▁NH
▁결론
▁인생
▁지사
▁마무리
▁디아
▁레알
▁생물학
▁유한
▁177
BA
▁당나라
▁윗
ess
▁관여
▁빌딩
자치
직자
▁기상
▁질환
▁와이
인물
토스
▁Li
▁상실
▁심지어
▁사무소
▁포스
▁황후
▁91
▁화합
▁설득
▁호소
▁71
▁AT
▁아웃
▁패션
▁문신
▁메시지
▁상역
▁피부
▁;,
▁선박
▁유통
▁사우스
가락
▁사유
▁엄청난
▁가마
▁DV
세포
▁처분
클리
▁개방
▁신사
▁결의
▁분노
스트라
▁수요
▁이어졌
쿠스
▁오직
▁프로이센
▁가슴
▁골드
▁액션
▁1942
▁두려
▁승려
▁하원
▁여겨진다
▁규제
▁약물
▁연습
▁이명
▁햄
▁가요
▁모터
▁역학
▁혼인
▁적합
▁글로벌
▁김일성
▁페이지
드리히
▁매체
IV
▁구매
▁조카
▁심판
▁선임
▁개성
▁디스크
▁올라가
▁모바
▁위대
▁좌상
▁이른다
▁부친
▁87
▁왕비
▁통화
▁돌아와
▁비치
▁잭슨
▁맞서
▁위키
ub
미야
▁159
▁나온다
▁프랭
▁1943
▁st
▁소멸
▁긍정
▁1955
▁프리드리히
▁야스
▁부산광역시
▁억제
IA
▁서식지
▁발탁
가니
▁원년
▁쿠데
▁크루
▁말레이시아
▁일기
▁홋카이도
▁어려움
▁벌어진
▁1953
▁스타디움
▁진영
▁퀴
▁예방
▁주석
▁음악가
▁왕후
▁였을
▁드래프트
▁톨
▁테크
▁불안
▁\
▁조차
▁필드
▁자이언
▁무료
▁700
ab
▁사도
▁1936
▁굳
▁조지아
▁주어진
▁일체
▁싱가
▁싱가포르
▁대책
▁사격
▁사무실
미르
▁84
▁힙
▁시나
▁카스
▁일컫
▁즉시
▁웃
▁AP
▁타인
▁폭격
▁유고
▁태조
아내
▁본다
▁일본어
▁루마니아
해서
▁졌으며
▁티베
▁인원
▁궁전
▁쾌
▁리드
▁쿠데타
▁천주교
▁유형문화재
▁세자
▁막대
데이
▁여우
▁1910
▁상속
▁이와
▁기동
▁모바일
▁정차
▁창당
▁김종
▁자는
▁깊이
▁크로스
▁전북
▁대체로
▁연설
▁스티븐
슬러
주군
▁닫
ine
▁쓰여
유산
▁후쿠오카
▁전동차
▁히틀러
▁Re
▁구입
▁오이
▁누리
▁딜
▁97
▁요금
▁전당
▁학사
▁진격
▁딘
▁챔피언십
▁개칭
▁남아프리카
▁독재
▁아메리칸
구리
▁속해
▁강릉
▁1957
▁원주민
란색
▁발명
▁알바
▁자국
리나
오르
▁대우
▁조상
▁보여준다
▁추방
▁느낌
▁검색
머리
▁초점
▁알고리
▁부동
▁본명
▁필수
▁광범
▁스미스
▁사과
베르트
ew
▁콘텐츠
▁타이거
▁휴대
독부
▁수호
히로
▁급격
▁음성
▁동북
▁생태
▁전송
▁늘어
▁1914
▁69
▁세트
▁테마
▁메이지
▁사기
원경
▁신장
▁천만
▁빚
▁이즈
▁92
▁수업
시스코
▁이마
▁덩
▁원수
▁주소
▁인디언
▁알고리즘
ue
▁업적
미니
▁똑
▁="
▁핫
▁미리
▁연락
▁완벽
▁포켓몬
▁신도
▁게르
▁게다가
▁이내
▁불가리아
▁렀다
▁후임
▁토론토
▁도마
리그
▁최우
▁1900
구치
▁세부
▁코리아
▁1938
▁와서
▁클로
▁림
▁섹
▁상인
▁서술
▁전술
▁랄
▁닥터
▁스프링
▁밀려
래프트
▁려면
▁펑
▁달려
▁부위
▁스탈
지사
▁유효
▁화려
▁고급
▁빌리
▁물건
▁라이프
▁고시
▁석사
드라
EC
▁재즈
▁미술관
▁배포
▁주니어
다란
▁언덕
▁노트
▁질문
▁101
▁소비자
▁핸
▁각국
▁암컷
▁오키
비히
▁바르셀
▁연평
▁바르셀로나
▁돌려
▁늑
총리
▁영양
▁마르크스
▁1918
▁01
▁HD
로지
▁해발
▁립
▁내세
▁라틴어
자키
▁오가
▁개량
▁소형
▁윙
산화
▁손실
▁라우
▁느냐
▁만났
▁랩
▁실천
▁마스터
▁선형
여금
▁고위
▁백인
▁료
▁일련
▁갑자기
▁등장인물
▁DVD
친다
▁사퇴
▁집회
▁조선총
▁언스
▁웰
▁유산
▁줄어들
▁조선총독부
▁당해
▁화석
▁풋
▁상주
▁1951
▁저자
▁프랑스군
제국
▁1932
▁시내버스
▁감각
▁추기
▁경비
▁반사
▁메달
▁운항
▁주체
▁계곡
BM
▁미스
▁영주
▁개별
▁격파
드레
▁국적
▁생겼
▁알레
▁on
▁1937
▁블록
▁{
▁정교회
▁노리
▁선포
▁용인
▁거짓
▁의문
▁차단
무늬
▁짝
▁발간
▁받아들이
▁다다
▁미시
▁자본주의
▁고객
▁진학
▁대만
▁마틴
민주당
▁성남
▁상수
▁올스타
필드
펙트
▁이웃
▁흰색
▁89
▁설치류
▁엘리자
▁변하
▁화제
▁넥
어도
▁당원
▁재개
▁광범위
▁첩
바키아
▁사양
▁실업
▁방언
▁찬성
▁타율
▁후계자
▁182
▁1935
▁비스
▁환승
▁되돌
▁칭호
▁접한다
ect
▁우크라
▁항의
▁93
▁수치
▁비행기
▁기부
▁덧붙
▁트레이드
▁분교
▁크라
▁내놓
▁구상
▁이스트
▁뮌헨
▁꾸준
▁합니다
동생
▁모음
▁Be
▁로렌
▁사찰
▁추기경
▁허락
▁퀘
▁시트
▁커버
▁탄압
▁고양이
▁질서
▁파티
▁항공사
사전
▁중추
▁경제학
▁남기
▁수백
▁줄이
▁증언
▁싱어
▁최후
▁구멍
▁면역
▁체험
▁촉진
가시
하이
▁일으켜
▁분화
▁반지
▁겉
▁자산
다수
▁극단
▁옵
▁남녀
▁회로
▁이념
▁마주
▁곡선
▁목성
▁화폐
▁마루
▁법학
▁소문
▁클리
센트
▁양산
▁공신
▁아티스트
▁쿨
▁소화
▁거치
▁습격
▁영원
▁소위
▁클래식
▁개척
런스
저스
리우스
슈타인
▁가속
ore
▁보편
▁대법원
▁시모
▁강남
▁축소
▁94
▁OS
▁1933
▁탄핵
▁잠수함
▁소집
▁물고기
▁FM
▁탕
▁오버
▁운송
our
▁힘들
▁산지
▁티베트
▁유배
▁수십
▁약화
▁툴
▁충분히
▁쿼
▁선호
IN
▁하여금
▁쓰였
▁지수
▁그리하여
▁아오
▁1928
▁군부
▁동화
▁원시
▁혼자
▁치르
▁당신
▁베리
▁CP
▁조항
▁매치
▁주일
▁태종
도사
▁전적
▁이른바
▁경사
▁직무
▁동경
▁지불
▁누스
▁돌아오
▁팩
▁뼈
▁칠레
▁1924
ell
▁국토
▁시신
▁프랑스어
▁틈
▁세월
▁멈
▁콜로
공사
▁영구
▁용도
▁정통
▁밸
▁이행
▁돌아온
▁간부
▁발레
▁끈
프레
▁재능
▁이어진
▁개명
▁상대식
▁79
▁전망
▁정면
▁조기
▁토대
▁댄스
▁틴
▁으니
▁익스
▁토마스
▁사막
벤트
▁펀
▁메트로
▁09
▁김해
▁의정부
닉스
▁110
▁손해
▁실내
▁형상
▁입대
▁종사
▁이재
▁콜롬
▁걸친
▁프로그래밍
▁가난
▁대칭
▁회색
▁단순히
▁개장
▁브로
▁진실
슬링
티스
▁170
▁쟁
사이
▁동인
▁러브
end
▁04
▁액체
▁지중
▁파키스탄
▁구름
▁동굴
▁판정
▁합동
▁수컷
▁열매
▁무력
▁초상
▁존스
▁토착
과이
▁자랑
▁가깝
▁해제
코프
▁무용
▁사이드
▁베네치아
ain
▁유아
▁양국
▁경고
▁전제
▁안토니
ill
▁법안
▁엄격
▁하와
▁뻗
리다
브라
▁고교
▁당대
▁총재
▁흔적
▁로즈
베리아
▁못한다
▁밀리
▁원자력
ID
테스
▁안티
▁쏘
▁들어오
▁08
▁재생
▁대승
▁일단
▁룸
ers
▁우에
▁주문
▁인민군
▁퓨
▁멀티
▁세로
▁Co
▁정류
▁오케
▁힙합
▁부속
▁개찰
▁경북
▁스카이
▁분산
▁늑대
▁서방
▁스톤
▁행하
▁강도
▁장로
▁대가
▁드물
뜨리
▁부서
▁비잔
▁프로토
▁다큐
▁마저
▁오류
▁주재
▁83
▁안쪽
▁한성
▁배열
▁세워졌
▁지표
▁국방부
▁엉
데르
▁레닌
페이스
에도
▁페리
▁동지
▁벼슬
▁MS
▁강요
▁호흡
▁탓
▁함경
ard
▁경찰서
▁스크린
▁마감
▁메탈
▁추적
▁혈액
▁할아버지
▁중동
▁평면
▁선로
▁나섰
▁편의
▁주자
▁중지
▁포드
고속
야스
▁메르
▁이벤트
▁성서
조선
▁놓여
▁대원
▁아인
▁대사관
▁농장
▁쿠바
▁철거
▁1934
AN
어로
▁간다
키퍼
▁아프가니
▁북미
▁자매
▁골키퍼
▁투스
▁De
▁구사
▁빵
▁입구
▁스케이
▁요코하마
▁놀이
베르크
세대
▁스탈린
▁보스턴
▁닐
▁거느
▁근육
▁리아
▁판타
유키
▁동구
▁장례
▁노동당
▁정확히
▁히어로
▁본토
▁봉기
▁광산
▁뱀
레오
▁130
▁현존
▁페이스
▁구로
▁킨
▁야당
공업
▁Me
▁얀
▁식량
무르
▁정조
아르
▁나이트
▁토머스
▁대동
▁철학자
▁거점
▁꾼
제르
▁유키
▁동메달
성기
즈니
▁항해
▁젤
▁은메달
▁선물
▁글리
▁사망자
ne
▁코어
▁대다수
▁접속
▁관계자
▁도쿠가와
▁시계
▁140
▁남극
▁중계
▁부처
▁맨체스터
▁사카
▁아프가니스탄
▁카리
▁초청
▁필립
▁돔
▁레지
▁새끼
▁풍속
▁복사
▁알렉산더
▁모자
▁나선
▁발전소
▁Sh
▁김구
▁테르
▁재판소
사르
위대
▁중성
▁칼리지
▁특별히
▁역전
▁훼
▁안내
▁교향곡
▁독점
돌프
▁그러므로
▁농촌
▁매주
▁증권
안군
▁휘하
▁화합물
▁곤충
▁주어졌
▁새벽
우치
▁세금
▁위안
▁르네
▁봉해졌
▁유력
▁토너
▁합리
OR
힌다
▁th
▁로맨
크래프트
▁1931
▁오염
▁재임
▁생애
▁이정
▁비중
▁체육관
베리
▁부호
▁파울
▁펼쳤
▁일곱
▁타점
▁강등
▁모노
▁히로시마
레이크
▁간격
▁부드
▁종전
▁진동
▁코너
▁훌륭
▁관객
▁석방
▁펄
▁기병
▁문재
▁존슨
▁뚜렷
▁이어서
▁그리스어
▁계수
▁타카
▁대변
▁감옥
▁박근
▁부품
▁클래스
▁금강
▁멸종
▁미카
▁꺼
▁명시
▁사신
▁원조
느님
all
▁목포
▁ST
▁후퇴
▁아비
▁하느님
▁자유주의
▁하사
게이
▁cod
▁놀라
▁폭풍
▁타원
AM
▁무늬
▁심리학
▁1921
▁장점
▁구리
▁대결
▁배웠
나르
▁해협
▁버지
▁An
▁176
▁250
▁교도
▁좌파
▁커다란
▁숙종
▁그래프
▁가구
▁지휘관
▁윤리
▁캠프
▁킬로
▁아이스
▁지칭
▁수비수
▁물려
▁공룡
▁기생
▁유발
▁마그
▁목숨
▁동성애
▁유대인
ang
널드
▁일환
▁토너먼트
▁덕분
▁코트
▁하버
▁스트라이
▁필라
여서
▁단장
▁첫째
▁1929
▁닮
둥이
▁연호
▁착용
▁빗
▁공세
▁소요
▁성명
▁김대중
▁트랜스
▁강전
▁칙
▁조문
▁약탈
시스트
▁극복
▁특허
▁집필
▁수반
▁바이올
수량
▁비즈
▁아틀
▁05
▁사관
▁스테이션
▁운동가
▁자이언츠
▁캡
▁드리
▁키스
▁쯤
▁도메
▁는다고
▁기갑
▁연상
▁y
▁부작
▁곰
▁평론가
▁1923
▁동반
▁1925
▁빠지
▁공국
▁그럼
▁조화
산물
▁크레
투아
▁첸
▁갤럭
▁매니
▁의석
▁잠재
밀리
▁라트
▁건담
▁인터페이스
▁롬
미아
▁성직자
▁험
▁연평균
▁삼각
▁북아메리카
▁고고
▁번지
ss
▁협약
▁가끔
▁입사
▁비틀
▁램
▁섬유
클린
▁도호
▁지부
▁과일
▁발휘
▁어두
▁딱
▁요원
▁이수
▁플로리다
무게
▁몸무게
▁살아남
▁장갑
▁추대
▁갤럭시
▁원장
▁전한
▁틱
▁근로
▁연계
▁불화
▁영감
▁임신
타카
▁관리자
▁AC
▁모로
▁발렌
▁샤를
▁압축
▁07
▁중립
▁무너
▁영혼
▁타입
▁북서쪽
▁지역구
▁디오
▁추락
▁선교사
▁웨일스
▁우드
▁대한제국
▁똑같
▁트레이
▁비하
▁시게
ity
▁지질
▁카페
대문
마이
▁모험
카스
베이스
▁고분
▁유성
▁진술
▁남아메리카
▁갱
▁영광
추어
▁사당
▁삭제
▁단선
▁유비
▁일자
▁박근혜
키스
▁이조
▁망원경
▁박스
▁드러나
▁캘리포니아주
▁데리
▁수직
▁진흥
▁레벨
▁페루
▁161
▁돌아갔
▁리스트
▁하와이
▁서인
▁채권
▁종로
▁북극
▁미분
▁필름
▁결심
▁압도
▁철저
▁제약
▁다이묘
▁기관차
▁돌파
▁모시
▁그려져
▁SC
▁그랜드
▁사거리
▁저널
▁민속
▁부탁
▁준우
▁변신
▁향토
▁홀로
ff
▁설비
▁유가
▁카자
▁EP
▁주류
보이
▁복구
▁빅토리아
▁파운드
▁교과
▁청동
부사
▁성씨
▁도마뱀
슬리
▁중시
▁피트
▁175
▁넘겨
▁프로세서
▁1922
▁바오
▁codice
▁무릎
▁수장
▁트럼
▁삼각형
▁나서
▁부유
▁여인
▁문인
▁레이블
▁엽
행성
즈키
▁각자
▁틸
▁빨간
▁아기
▁떼
▁평생
▁이날
▁화가
▁de
▁서적
▁프레임
▁명사
▁쓰러
일본
▁My
▁고서
▁모래
▁중구
애나
▁칼리
▁엘리자베스
▁인천광역시
▁규슈
▁유역
▁윤치
▁음모
▁버지니아
▁고안
▁가톨릭교회
▁투구
▁루트비히
▁공격수
▁지연
▁1912
▁일어난다
▁토벌
▁황태
▁굽
▁유용
▁직위
▁리치
▁직선
▁파트너
▁도어
▁표지
오리
프란
▁최상
▁KT
▁WW
▁노무
▁라마
▁아과
▁왕가
▁국민당
메니아
▁교차로
▁Love
▁죠
니즘
▁164
▁자치구
▁무산
▁무인
▁노비
양군
▁고르
▁베토
▁수상자
▁구미
▁네이션
눅스
▁글씨
▁인력
▁간섭
▁어워드
▁Go
▁봉사
▁문법
▁패턴
▁넬
▁왈
ong
▁올린
▁들어서
▁사토
▁상처
▁영조
▁포유
▁동일본
▁퍼시
타운
▁""
▁납치
▁리눅스
▁소설가
▁아르메니아
▁침해
▁블라디
▁1908
▁남겨
멘트
▁모니
▁릭
▁SM
▁MV
라이터
▁지중해
▁아마추어
▁벨라
▁장사
▁주사
▁행해
▁목조
▁경유
▁랭킹
▁자책
▁호조
▁1906
▁실점
▁사촌
야수
▁연령
▁건축물
▁보통학교
▁연소
▁이종
▁스케이팅
▁06
▁돼지
▁옮기
up
▁교역
▁전향
보살
▁태자
▁토르
▁베타
멘터리
▁제주도
지마
▁남동쪽
▁1917
슬로
▁아울
▁과도
▁마카
▁가해
▁배상
사관
▁플레
▁관하
▁마라
▁적응
도니아
▁준우승
ip
▁매각
▁띤
▁삽입
▁수지
▁히가시
▁싫
▁정자
▁낸다
▁1927
▁시아
▁크림
▁적어도
▁커피
▁다양체
▁에스파
▁JR
▁들여
▁조명
ant
▁육성
▁시상식
▁전승
▁통로
ld
▁명문
▁안양
▁출현
IS
▁우익
란다
스팅
▁03
▁쇠퇴
▁시집
▁앨런
▁이토
▁북동쪽
▁1907
▁모듈
▁사라지
▁우루
▁유인
▁굿
ED
▁정서
▁몬테
▁스와
▁낼
▁세워진
▁과장
▁배급
▁인자
▁전작
▁호르
OM
▁대행
▁보좌
▁렉
▁외계
▁탐험
▁BBC
▁베토벤
영상
▁석조
▁럭
▁옹호
▁아무런
▁노인
▁색상
▁다큐멘터리
▁진지
▁별로
▁흙
▁종족
▁창간
▁폐기
▁표본
▁부동산
▁1926
▁밀라노
▁우크라이나
▁관중
▁아가
▁체인
몬드
이즈
▁항목
▁산타
▁단행
▁의병
▁앱
▁SN
▁협의회
▁때로
▁산악
▁호남
▁데려
▁자문
▁포크
▁맞춰
▁걷
▁왕립
▁슐
▁지름
av
▁탑승
▁168
▁상하이
▁동아시아
생물
페이지
▁송라이터
▁He
다니
어트
티움
▁무선
▁문하
▁대교
▁해설
▁유입
▁수감
스토
▁내장
▁노조
▁선제
▁연금
▁겨우
▁PD
▁안보
▁패러
▁여서
▁자전거
▁급속
▁상영
▁세조
▁묘지
▁비전
ind
▁연고지
슬라
▁스틸
▁디즈니
런트
▁사료
▁헤드
▁찌
튜브
▁기아
다이라
▁162
▁꾸준히
▁하천
▁NHK
▁기압
▁에릭
▁좌익
▁166
▁이어져
로프
▁기종
▁동사
▁합계
▁레이다
▁최우수
▁1905
ame
▁정사
긴다
▁홈페이지
AC
▁제후
▁기름
▁원로
se
▁콩고
▁유튜브
다른
▁오리지
▁민족주의
텐도
▁닌텐도
▁룩
▁대조
▁엄마
▁시에
▁예외
▁유신
▁기하학
▁비평가
▁Sp
▁||
▁칭하
▁비단
▁딴
▁151
▁독일어
▁문화유산
브스
세스
페인
▁그쳤
▁버그
총장
▁소니
▁가르치
▁사이클
▁조선인
▁뚫
▁증기
▁늘어나
▁스승
▁해진
▁색깔
▁줬
▁시외
▁펼치
▁흥미
▁가쓰
▁주말
▁모집
▁품질
▁곧바로
ry
▁트럭
▁요미
▁데이터베이스
ES
▁수천
▁158
▁목격
▁참조
▁칩
▁수명
▁역과
▁운명
플레이
▁스페셜
▁리듬
▁리얼
▁셋째
▁드래곤
나카
▁구마
▁선진
▁악장
▁전해진다
▁마일
▁커뮤니티
무네
▁상소
▁아크
▁쥬
스케
▁원산
ith
▁광역
▁문과
스티벌
▁정류장
▁크리스토
▁지바
▁유고슬
▁유고슬라비아
엘라
▁나폴리
▁유닛
▁랴
▁거둔
▁대안
▁반환
▁페스티벌
▁02
▁점성
▁협의
▁십자군
▁라이온
▁옛날
▁이오
▁주거
▁주한
ort
▁가미
▁도리
▁신비
▁심하
▁야생
▁입증
▁자바
▁주의자
▁일행
▁할리
▁라이벌
▁방안
▁남서쪽
▁수수
▁주파
▁레이스
▁이리
▁푸른
▁플루
▁도심
▁무관
▁입문
ok
▁기단
▁되찾
▁토니
▁브라이언
▁기점
▁스피드
프란시스코
▁거친
▁오디션
▁일으킨
▁운반
▁향년
▁샌프란시스코
▁재무
▁특급
▁기용
▁인텔
으므로
▁동치
▁사면
▁베이스볼
▁사직
▁적색
▁안드로이드
▁이루어진다
▁배제
▁한나라
해군
▁디자이너
▁챌
▁쿠르
▁한나라당
▁서북
▁연주자
▁콜롬비아
회의
▁출판사
▁걸려
▁단층
▁기념물
▁동영상
▁미네
▁미만
▁인치
프스
▁마스
▁우르
▁케이블
▁렌즈
▁붙잡
▁와카
▁드러내
▁마케도니아
▁가하
▁정교
▁초래
▁당사자
루살
▁묘소
▁오리지널
▁분배
▁직장
▁1904
▁다녔
▁신임
▁출산
▁평소
▁프랜
▁그럼에도
▁복제
▁시달
루살렘
▁지휘자
▁련
▁개수
▁폭스
▁석탑
▁알라
▁살펴
▁나타난
▁부패
▁예술가
▁스테이지
▁콘스탄티노
▁템
▁왕족
▁긴급
▁사로
▁예언
▁165
▁관장
▁서경
프라
▁교전
▁단종
▁용기
▁진도
▁기재
▁쓴다
▁의거
▁Un
▁좌석
▁파생
▁걸리
▁센트럴
▁마쓰다이라
▁모순
▁가게
▁상무
▁Wh
▁급행
▁자사
▁신하
▁판타지
▁내륙
▁아도
▁트레
▁154
교육
▁여동생
ob
▁계단
리케이션
ord
문학
▁수면
▁오타
▁합작
▁비즈니스
▁Se
▁동전
▁무신
▁무슬
▁파나
▁예루살렘
▁권고
qu
▁받침
▁드림
터스
▁사르
▁압박
▁용산
▁두려워
▁봐
▁옌
▁만난
▁신용
▁163
페이
▁156
▁스펙트
▁바이올린
▁정계
▁가득
▁항일
▁연애
가스
▁도메인
▁무슬림
▁링크
▁DJ
▁167
모니
우옌
▁사범
▁무라
▁그랑
▁크리스티
▁스쿨
디스
▁SF
▁선보였
▁여신
▁스펙트럼
▁상임
▁리투아
▁리투아니아
▁얼음
▁진상
▁두드
▁퍼져
ate
▁마쳤
▁호환
▁훼손
경기
▁회원국
▁부리
▁끼리
▁머물렀
▁900
▁AM
▁대단
▁밀접
랑이
▁전염
식물
▁부수
▁타마
▁말라
▁이지
PS
▁비로
▁서울시
▁조국
▁충남
▁이명박
▁자회사
▁한양
카르
▁참판
▁스마트폰
아지
▁조류
▁노무현
▁장편
▁게시
▁챌린
▁팅
▁번식
▁고립
▁바그
껍질
▁니스
▁발효
▁우지
▁자마
▁과제
▁어항
▁뛰어나
▁분지
▁선사
▁친정
▁혜성
▁비잔티움
▁샹
▁미얀
▁지주
리크
▁애국
▁싸웠
▁샬
▁좋아하
▁착륙
▁쇼군
▁와중
▁지장
▁일요일
▁교섭
▁오다
킨스
▁오케스트라
IC
▁주립
▁예능
▁식사
▁피렌
▁댐
길이
▁UN
▁시체
▁포맷
커스
▁성종
▁차관
▁139
▁서브
▁파동
잡이
▁농도
▁진나라
▁벌어지
▁저기
▁피스
▁사리
▁알바니아
▁구장
▁아베
▁융합
마치
▁선두
▁최신
▁요크
럼비아
▁행정부
▁부흥
▁AS
▁대령
▁하트
▁145
▁디비전
로디
예프
▁쿠스
▁낱
▁소나
ET
▁바티
▁사인
▁월간
▁기타리스트
▁잊
▁강연
▁심한
부인
▁발족
▁용량
▁거인
▁야기
ast
▁공과
▁위주
▁벌어졌
▁아이디
▁보전
▁하드웨어
▁충성
▁사라졌
▁주머니
▁전이
▁투명
▁개발자
▁관찰사
▁킬로미터
▁학파
▁해인
▁마리오
▁빨리
▁점유
▁간접
▁브라우
▁착수
▁MVP
▁부통령
▁스트리트
DP
들리
▁번주
▁깔
▁고조
▁임상
▁HIV
▁아이디어
▁굉
▁부도
▁아세
▁몸길이
▁피렌체
▁부자
▁중국어
▁사사
▁전임
▁제네
▁응우옌
▁푼
▁김동
▁페어
랑크
▁관광객
▁마케팅
▁미나미
▁알렸
▁전지
▁측근
수아
▁마산
▁규명
▁배정
데이트
▁던지
▁완화
if
▁하노
▁정벌
▁업데이트
▁부시
▁전두
▁전류
▁이에
▁1896
▁권유
트니
▁맥스
▁차체
아리
▁성공회
레이터
▁피에르
ive
▁경선
▁아울러
주곡
ack
▁DS
▁공용
▁사바
▁다이아
▁귀환
▁중도
▁형법
란트
트롤
▁제의
▁여덟
▁들어간
IT
균관
▁공전
▁출구
▁로빈
ure
▁트윈
리티
▁뱅크
▁스콧
▁구동
▁친선
▁붓
▁짙
▁연수
▁존경
▁게이트
▁IP
▁성벽
▁젖
▁들어와
악기
▁중독
▁스타크래프트
로운
▁검증
▁174
▁세례
▁수학자
▁디젤
▁석탄
▁오렌
▁달아
▁마운
▁붙이
▁청와
▁152
▁요미우리
▁애플리케이션
루미
▁관습
▁노동조합
▁다룬
운서
츠키
▁수산
▁시라
▁우즈
▁지각
▁플라스
▁5000
▁옐
▁미하
▁조용
ock
▁서열
▁실용
▁정찰
iv
▁인과
▁피난
문관
▁변동
▁아나운서
▁시드니
▁찾아가
▁청와대
▁메디
▁전장
▁소송법
▁테일러
▁사명
▁쇼핑
결승
나와
▁157
▁서일본
▁리오
▁행진
▁뷔
▁자면
▁전진
토미
▁얼마나
▁전문학교
▁Ar
▁테오
▁꼴
▁밀양
▁장성
▁한강
▁해전
ck
폴리스
▁금성
▁루수
▁규격
▁빌헬
▁자율
▁준공
▁퇴각
▁한화
▁호평
▁곁
▁룬
▁쏟
▁수신
▁고사
▁상상
▁프로세스
▁고개
▁염색
▁좌표
▁뿔
▁번뇌
▁신전
▁미스터
▁어릴
▁하버드
▁적대
▁책봉
▁회수
▁가질
▁구제
▁보드
▁관현
▁급진
가루
▁연구자
▁저기압
▁판매량
▁관념
▁신칸
▁이슈
▁물러나
▁성균관
▁취약
▁가즈
외선
▁백신
▁장인
▁카시
▁자손
▁흥행
산군
▁무효
▁복소
▁비극
▁지분
트랙
▁해임
원숭이
▁MP
▁몰락
▁소금
▁이순
수수
전자
▁응답
▁제휴
니스트
▁연루
▁국어
▁문재인
▁상류
▁할당
▁125
▁j
▁메가
▁식당
▁WWE
▁휩
카드
포스
하르트
▁146
▁서독
▁악마
▁통행
▁쇄
▁에티
▁천문학
악단
▁김용
▁105
▁1500
▁니아
▁마찰
혁명
▁소총
▁승차
▁카나
▁히스
메르
▁문제점
자와
▁흩
▁비아
▁파스
▁패전
▁히라
▁남양
▁박영
▁남인
▁믿음
▁여수
▁자고
▁창업
▁충족
▁나미
▁로고
▁루터
▁3000
▁동남아시아
▁매출
▁강사
▁술탄
12
▁마오
▁유출
▁저택
▁외무
▁우정
▁1911
▁이노
▁착공
▁노드
▁소지
ime
▁윌슨
▁가라
▁자책점
▁서서
▁됐으며
▁곳곳
▁민국
고속도로
▁이복
▁조언
▁신칸센
▁성전
▁153
▁지지자
▁얇
▁나열
▁원나라
▁소닉
▁떨어졌
▁항공모
▁프로토콜
라트
일드
▁단원
▁하마
▁고원
▁내내
▁소관
▁청사
▁PS
▁여래
▁소재지
▁석가
▁일렉
one
▁순천
▁이이
서양
▁디비
▁중점
▁지목
▁Le
▁과목
▁매개
▁빌헬름
▁사지
▁카트
▁봤
▁회견
▁희극
▁예배
제프
▁MC
▁못해
▁유언
▁103
▁고무
▁환원
▁시외버스
▁힌두
▁폴리스
▁아즈
▁강수량
▁눈물
▁증후
▁환상
▁두드러
네이
▁동위
▁우주선
▁배구
토시
▁조르
▁편곡
▁셈
▁없애
대군
▁따위
▁와인
팩트
▁마천
▁특유
▁회계
▁성모
▁중장
▁보잉
▁후자
▁Pro
▁연인
▁이글
▁카자흐
▁미얀마
▁떠난
▁비틀즈
▁법령
▁주권
▁천사
▁ISO
▁사로잡
▁참가자
▁공자
▁오클
▁개업
▁취재
▁포장
▁일관
▁한데
▁고베
델피아
▁필라델피아
▁여의
▁진리
▁기장
▁클린
▁매사
▁채무
어리
▁겸임
▁반격
▁제트
▁공략
▁선원
▁해역
▁닭
▁친척
ML
▁공인
▁별개
즈카
▁버튼
노리
▁시립
▁우편
▁점프
AP
기니
▁근접
▁굵
▁나리
▁최적
▁오렌지
OC
▁패스
▁삿
▁각기
▁상자
▁내지
▁155
▁출입구
받침
▁약한
▁중종
▁추모
▁대답
▁각본가
▁회화
▁토크
▁독립운동가
▁보충
▁여진
▁테스
▁협동
마사
▁격렬
▁아군
동물
▁밭
▁게재
▁허브
▁발해
▁모으
▁인격
▁카타
▁얘
▁나고
▁유격
▁이원
▁주파수
▁유해
▁동등
▁정치가
▁Bo
▁위장
▁컨트롤
노프
시온
▁사가
▁인형
▁별자리
te
▁법무
소스
▁담배
▁사물
▁실종
▁민영
▁앞면
▁증후군
▁이인
▁항공모함
▁생일
▁토리
▁포수
▁108
▁갓
▁리메
▁미소
▁성주
▁이영
▁즐기
▁북동부
▁매력
▁평행
▁이바
▁합법
▁금액
▁유교
▁컸
▁오디오
▁레전
▁민사
▁거슬러
▁토요일
▁감지
▁두산
▁영동
▁트라이
▁Con
▁일찍이
때로
리언
플러
▁아바
▁하얀
▁룰
▁자발
Pa
▁베르크
▁스파이
▁히데요시
▁양상
▁아리스
▁서해
▁외곽
▁개찰구
▁사우디아
▁건의
▁스터
▁전두환
▁준결승
산면
상스
▁서서히
▁어두운
▁마친
▁하우
▁펴
▁상대방
io
▁고체
▁박탈
▁상부
▁가르침
▁승무원
항공
▁일족
▁에디
▁이사장
▁퍼시픽
ber
▁아케
▁시청자
▁교장
▁화살
산리
▁때때로
▁에이스
▁헐
▁야간
▁추격
▁김영삼
▁브래
▁입상
▁트럼프
▁드라이브
▁크리스마스
▁전례
▁나고야
▁꾀
▁세균
▁앙리
▁호세
▁생명체
▁하인리히
베이터
▁상장
▁IT
▁무려
러미
▁홍수
▁튼
▁해운
▁아우구
▁1909
퍼니
화점
▁고발
▁교단
▁만세
▁궁정
▁남긴
▁전함
▁외국어
▁대주교
▁이슬람교
▁기금
▁사다
▁물자
▁부착
▁캠페인
가타
▁128
▁149
▁레이저
▁옴
▁골프
▁긴장
▁톈
▁102
▁대군
▁수성
▁운동장
모어
▁명의
▁복장
▁전도
▁콜라
▁트위
▁향교
▁보스니아
칠리아
▁사용자
구장
▁정밀
▁#
▁메타
▁트루
▁물러났
▁자마자
▁연도
▁호칭
라미
▁고가
▁짜리
▁기다리
▁제작자
▁끊임
▁배틀
라이트
▁피고
▁존중
▁건축가
▁대외
▁안장
▁집계
▁치세
▁르네상스
▁슬라
▁후안
▁중국인
▁지나치
람회
▁어드
▁남한
▁중재
▁안드레
▁최저
▁에스파냐
▁발원
▁텍스트
▁사우디아라비아
ge
트릭
▁주지사
▁전대
▁직책
▁계절
▁송나라
▁발현
▁쉐
먼드
age
▁차남
붙이
▁셸
다드
▁여주
▁Bl
▁자유당
▁섭취
▁시오
▁팽창
▁포괄
▁네이버
생활
iz
▁방침
▁세미
▁최소한
집합
▁단기
▁사절
▁키프
▁레전드
▁강경
▁패하
백과
▁문양
▁향후
▁손가락
▁아미타
▁$
▁상세
▁초창
▁향한
▁둥근
▁사이버
▁대니
▁에우
▁원자로
▁포도주
▁턱
▁낙선
▁수평
▁굉장
▁다중
▁원하
차례
▁토스
▁프랭크
▁청장
▁촉구
우라
▁갑작
▁객관
▁고래
▁끌어
AD
▁팔레스
▁충주
▁캄보
▁탐지
▁건너가
사기
▁147
▁유니폼
▁룽
▁로프
▁조반
▁태생
▁수군
▁그랑프리
▁127
▁단점
▁블루스
▁동독
▁죽였
▁토마
▁CPU
▁명목
▁볼리
▁속성
▁경부
수엘라
▁딩
리즘
태우
▁기수
▁스릴
▁노란색
▁1915
▁진군
▁아미노
▁엘리베이터
▁초연
▁캐스팅
▁뢰
▁무죄
▁겔
행위
▁왜성
▁케네
▁171
▁음원
노부
▁버린
▁숭배
▁입체
▁주축
▁취지
▁하이드
▁컬러
▁로맨스
▁역명
▁협조
▁1913
▁윌리엄스
sp
다고
▁침몰
보기
▁난민
▁달린
orld
▁북방
▁심의
▁알코
▁뉘
▁오키나와
▁마비
▁북구
▁황해
▁상당수
▁이어받
▁엔지
▁제곱
▁유소년
▁따뜻
▁라파
▁원고
▁추증
▁후일
▁천문학자
▁베네수엘라
▁부천
▁투르크
▁동당
▁가져왔
▁언제나
ik
▁광년
서리
창군
▁김재
▁신흥
▁마하
▁부과
▁재미
▁문학상
▁수동
▁옥스
▁추상
▁테니스
▁동년
▁분광
▁출토
시티
▁도라
▁위키백과
▁센서
▁보리
▁창건
▁코프
▁닿
▁김수
▁이민자
▁초창기
▁둘레
▁미쳤
▁타르
▁서사
▁이틀
▁조리
▁전한다
▁팜
▁대포
▁동래
▁태수
기지
▁강과
▁기습
▁버려
▁어업
▁GT
▁든지
▁169
▁김진
▁수렴
▁시그
▁탈환
▁개미
▁머신
자치도
▁제주특별
▁제주특별자치도
▁창시
▁가르쳤
▁병역
▁원반
▁라이언
포구
▁수령
▁CE
명사전
▁디스플레이
▁대역
▁바흐
▁스파르타
▁넨
▁휠
▁종결
▁청원
크리트
▁1895
▁정말
▁SP
▁광부
▁모스
▁유수
▁hPa
▁무제
▁인재
▁카탈
▁프레스
▁나가사키
▁리메이크
▁걱
▁링컨
▁아폴
▁총선거
▁al
▁대처
▁대제
▁141
▁한동안
▁팔레스타인
석기
▁남원
▁다녀
▁유연
▁초상화
평군
포트
▁통칭
▁효력
▁계몽
▁멈추
▁적자
▁풀려
▁아사히
▁반박
▁주차
▁둘러싼
▁언론인
▁거느리
MS
▁동력
▁법제
와라
▁비문
▁시공
박쥐
▁국사
▁135
▁다운로드
▁Tr
▁부른
▁총괄
▁신세
▁북서부
▁섭정
공신
▁고백
▁나주
▁삼진
네스코
▁하부
▁후세
▁온천
▁탤
벌레
무기
ust
▁소실
▁양주
▁111
▁번영
그라드
▁수용소
▁김태
자스
▁서머
▁도호쿠
▁십자가
▁자기장
▁바실
▁중순
▁차기
▁풋볼
▁지냈으며
ep
선거
▁신중
▁이진
▁대위
▁개관
▁귀중
▁저명
▁문화방송
▁여겼
▁해병대
▁어스
▁영리
▁서울대
▁캄보디아
▁144
▁더글
▁후대
▁원내
▁명백
▁날짜
▁내외
▁오빠
▁첨가
▁스핀
▁자랐
▁풍경
▁께서
▁폐위
▁조달
▁스티브
▁그로
▁김포
▁식별
▁휴식
▁함유
▁병조
▁걱정
▁며칠
▁중소
▁연세대
▁기요
▁두루
▁정전
▁파업
▁리버풀
▁전성기
▁컴퍼니
▁당일
▁써서
▁불편
▁장미
▁아레나
int
▁정무
▁제수
▁충실
▁평야
▁It
▁교원
▁무상
▁이광
누엘
▁119
▁지나가
▁컬럼비아
▁소환
▁스릴러
▁꽤
▁캉
▁천도
키지
▁TH
▁고인
▁공채
▁관통
▁드럼
▁에다
▁편리
▁신학교
▁우연히
▁바꿔
▁총사
▁다니엘
릴라
▁CO
▁매카
▁교양
▁버린다
▁케네디
▁간호
▁고민
트리올
▁몬트리올
▁카이사르
▁드라
▁모방
▁북위
▁위임
▁인산
▁172
▁도스
▁언더
▁별칭
▁사회학
EN
▁룡
▁선구
▁요르
▁총대
GC
리에
말라
▁유니버
푸스
▁겸하
▁휴전
▁그렸
▁덤
시로
▁아종
▁해수
▁관람
▁엔지니어
ib
▁루시
▁테레
▁신학자
▁이글스
▁리어
▁바치
▁106
▁왓
▁가벼
▁껍질
▁미주
▁연패
▁넘어가
▁니콜라
▁베드
▁평일
▁바퀴
▁선종
▁스러
▁의상
▁장안
▁증진
▁진짜
▁평범
▁친일인
▁유네스코
▁친일인명사전
그로
▁미즈
▁세계관
▁스페이스
ome
▁묘역
▁보완
▁쇼트
▁신기
▁애덤
▁아틀레
▁한성부
ian
▁공모
▁좌절
▁아이템
니치
라리
▁김상
▁실린
▁카리브
ude
▁중량
▁초과
▁표명
져서
▁서남
▁장난
케이션
▁도주
▁몰려
▁공직
▁누군
▁아벨
▁장려
▁느낀
▁미토
▁소통
▁승점
▁슈트
▁영남
▁항소
▁케이스
▁콘크리트
▁멋
▁도왔
▁마인
▁어요
▁제갈
▁프랑수아
▁콰
▁고수
▁열대
▁치열
▁들어온
▁마츠
▁지혜
▁들어왔
▁에스토
▁잦
▁쿤
▁훔
▁바라보
▁We
▁등재
▁방패
▁돌연
▁배신
▁쓰인
▁차종
▁해변
▁아이슬
▁생전
▁포격
▁일어날
▁책임자
▁정렬
▁쫓겨
▁탱크
▁그루
▁낱말
▁외교관
ere
▁지폐
▁충북
▁역설
내셔널
주의자
▁인터내셔널
▁닷
▁우울
▁일화
▁전압
루션
블로
세츠
페르
▁영장
▁합창
선스
▁입지
실록
▁공단
▁양도
▁투르
▁매사추
▁황태자
치오
ire
▁불명
▁쉬운
▁일조
▁단식
▁발트
▁상서
▁에버
▁공의회
▁매사추세츠
▁부채
▁업계
▁청하
▁퍼센트
▁아이슬란드
▁대웅
▁신속
▁암석
▁호위
▁우라늄
▁중추원
▁기어
나리
▁냄
유행
▁시나리오
▁밟
▁나스
▁부재
라이더
▁구이
▁레바
▁소유자
▁협주곡
▁도르
오피아
▁에티오피아
▁도루
▁탈당
ace
▁교외
▁친왕
▁무거운
▁오노
▁오비
▁스페인어
▁에스토니아
▁시흥
▁실전
▁여지
▁위탁
▁호프
ment
▁오세
▁인연
pe
▁고령
▁마약
▁지능
▁횟
▁기인
▁김기
▁난다
▁봉쇄
▁어울
▁닝
▁로열
▁상담
▁육지
▁중심부
▁라이선스
▁햇
▁서정
▁물리학자
▁창고
▁평택
리케인
ide
▁바리
▁보일
▁해소
▁리비아
▁슬로바키아
마드
▁통근
▁파장
▁시선
▁즈음
▁나쁜
▁숨겨
▁오사
▁대전광역시
▁돌리
▁허리케인
▁현금
바이잔
▁148
▁전라도
야시
▁병행
▁사슬
▁하락
▁할리우드
의자
▁격투
▁신생
▁애틀
▁페르난
석탑
▁의뢰
하면
▁NBA
▁끓
▁벗어
▁호기
층석탑
▁1916
▁바뀐
▁이사회
중국
▁내린
▁추세
▁치즈
▁136
▁아제르
▁스튜어트
▁부적
제리
▁바닷
▁결혼식
▁극동
▁낭만
▁바른
▁순회
▁마이너
▁실시간
▁아제르바이잔
▁HT
▁TO
▁빠졌
▁추출
▁배터리
▁앓
승지
▁닛폰
▁특집
▁막내
▁서재
위원
▁성운
▁입당
▁우루과이
▁끌려
▁허리
지리아
▁급격히
▁파이어
▁나이지리아
▁동상
▁조연
▁말리
▁명제
▁사헌
▁우세
▁솜
▁격퇴
▁IBM
▁네이션스
IM
▁얘기
▁주행
▁작센
▁세션
바다
▁바스
▁아마도
▁DC
▁구도
▁다항
▁산다
▁산림
▁원숭이
▁되게
▁신탁
▁실장
▁내려가
▁패키지
▁국무총리
▁전념
시피
▁의약
▁거론
▁실리
▁첼시
▁쌍둥이
▁데이비스
▁시초
▁유동
▁138
▁노부나가
▁깨달
▁수습
▁워드
▁한지
람쥐
▁가동
▁개그
▁박해
▁저하
▁중위
▁포터
▁현종
▁솟
▁구릉
▁안성
▁한스
▁딕
▁면허
▁모른다
▁객체
▁고소
▁반감
▁신규
▁백색
▁회고
▁리우스
▁페르디
▁내보
▁약칭
▁평원
▁백화점
▁치러진
▁구호
▁극히
▁지류
▁브라우저
▁실려
▁자아
▁사헌부
cl
▁경연
▁분당
▁전했
▁후방
▁리틀
▁치명
▁la
▁신한
어버
▁레논
▁구조물
▁시칠리아
리니
타로
▁거제
▁시즈
▁이세
▁해밀
▁붙였
▁잡아
▁지선
▁탐구
▁360
▁펌
▁성숙
▁냉각
▁나타낼
▁후쿠시마
▁상공
▁여겨졌
▁영의정
▁거행
▁중성자
▁뭉
타나
▁고성
▁토성
▁환영
드리아
▁도미
▁재위
양함
▁최악
▁그날
▁춘천
▁104
▁최상위
토모
▁복선
▁한쪽
▁할지
▁아부
▁오바
▁이를
▁바이오
브레
▁LP
▁가면
▁생식
대신
▁결선
래스카
▁게르만
▁다스리
▁라이브러리
아이
▁재현
▁택시
▁해적
여래
▁혈통
▁반도체
▁라트비아
스틴
▁En
▁감리
▁그램
▁임용
▁갑작스
곡리
▁춘추
▁새겨져
▁동점
▁리라
▁비시
▁차장
▁횟수
베르토
▁성체
▁장학
▁정한
▁피에
마쓰
▁도장
▁보인
▁트래
회장
▁송시
▁주가
▁애틀랜
▁테이블
▁릉
데시
타고
▁가짜
▁반경
▁어휘
▁모니터
은색
▁우위
ark
▁고치
▁제독
▁스트레스
▁미라
▁왜냐
▁오피스
▁휴스턴
▁나비
▁잔류
▁주름
▁109
▁Pr
푸르트
▁개원
▁축하
하시
▁매달
▁행적
▁목판
▁힘입
▁방송사
▁별다른
▁하워드
▁스톡
▁현저
▁123
▁부당
▁몰아
▁이케
▁정점
▁칼라
▁대학생
▁호랑이
▁견제
▁교황청
▁치아
▁통증
리안
▁억압
▁대표작
▁성취
▁폭동
▁사우루스
▁아홉
▁코무네
▁공수
▁육체
▁주주
▁공산주의자
고쿠
▁열정
▁야구장
차기
▁바나
▁비리
▁소매
▁여당
▁한인
더슨
란히
포드
▁공천
▁루프
▁이식
▁매입
▁민회
▁눌
▁고장
▁타이거즈
▁순교
▁아담
▁적당
▁축적
▁펜실
▁연합회
베이니아
▁펜실베이니아
랜트
▁NC
▁시바
▁일러
▁명령어
▁모이
▁벌금
▁인플
은이
헤이
▁143
▁카자흐스탄
▁나눌
▁노바
▁못할
▁터치
▁종로구
▁AK
▁요하
▁응원
▁주역
▁처녀
▁AR
▁경관
▁광물
▁암시
글리
▁너비
▁분비
▁팔라
▁분기점
법인
▁동아일보
▁상점
▁가죽
▁수련
▁덧붙여
▁리우
▁산란
▁부르크
바시
▁다발
▁베스
▁청춘
▁관해서
▁관해
▁기적
▁성사
▁신조
▁오해
▁돋
▁롤링
▁사모
▁이화
▁폭행
▁해명
▁상단
▁이윤
▁CS
▁존속
▁증대
▁피츠
▁이에야스
▁팡
▁목재
▁신주
▁염기
▁토모
▁소나타
▁히메
AL
▁자민
▁제프
▁출처
▁마야
▁비자
▁차이점
▁플라이
▁근교
▁상반
▁신념
▁킥
▁CC
▁아예
▁col
▁그동안
▁유로파
▁조선일보
▁다이아몬드
▁김경
▁블라디미르
산동
▁만남
▁컴파
▁펑크
▁경상도
▁엿
ile
▁규범
▁살리
▁남동부
▁블로그
▁맵
▁광학
▁모았
▁누군가
▁박람회
▁생산량
▁관구
▁유죄
▁음료
▁통영
▁부설
▁늘어났
▁래퍼
▁법조
▁드문
▁시골
▁알코올
기업
▁무지
▁상용
▁운하
▁충전
▁친일파
▁쳤
▁나트
브리지
권자
ies
▁원했
▁헤라
▁Op
▁부제
▁이소
▁화해
▁태양계
▁갇
▁황실
▁누가
▁누이
▁보석
▁설탕
▁카롤
▁달했
▁뜨거운
▁끄
▁적분
▁단단
▁깨닫
▁사육
▁이타
▁티스
▁흠
▁동국
비나
살이
▁상사
▁확신
▁조세
▁비유
▁라오스
▁왜냐하면
레기
▁떨어
▁공관
▁공습
▁공익
▁경찰청
▁베어스
▁협박
▁히사
▁브라더스
xt
▁누나
▁126
▁중의원
▁속했
▁신민
▁112
▁CON
▁트위터
▁카를로스
도리
▁언니
▁이순신
▁장거리
▁대폭
▁마디
▁시베리아
▁레일
▁품종
▁후한
▁루이지
수리
ite
▁미르
▁시어
▁어원
▁굉장히
▁구축함
▁이산화
▁트윈스
▁국소
▁후사
▁107
▁빠진
▁RNA
▁키프로스
▁수법
▁우유
▁거북
▁드러났
▁왜곡
▁이긴
▁법무부
▁사업자
▁창원시
▁Te
▁경보
▁구출
▁우호
▁제재
▁허위
▁범인
▁헤비
▁삼층석탑
▁is
▁우승자
▁조종사
거진
▁신선
▁교과서
▁플러스
▁받아들였
▁가군
▁아랍어
고래
▁당주
▁성단
▁세라
▁입원
▁117
▁맥락
▁여파
▁옆면
▁할머니
▁곡인
▁느껴
▁몰리
▁소셜
▁실체
▁탐사선
스부르크
랑카
▁몰래
▁송시열
▁보증
▁천장
▁포럼
▁줄무늬
도바
▁근원
▁그만두
ft
▁살아가
▁거울
▁나르
▁맥주
▁빌려
▁지평
▁핸드
▁연쇄
▁인문
▁대웅전
▁동문
▁생겨났
▁결함
▁드로
▁소원
▁담긴
▁퐁
▁네스
▁빈곤
▁키우
갈색
다지
▁평의회
▁도마뱀붙이
▁이경
▁인체
▁릿
▁담겨
▁희생자
▁SE
▁교정
▁일방
▁350
▁물리치
▁가마쿠라
▁내려오
▁다룬다
▁일반인
▁제니
▁찾아볼
▁화장실
▁신약
▁com
▁통틀
▁을지
▁제대
▁탐색
▁양키스
▁날씨
▁성별
▁테이프
▁데모
▁드레
▁이브
▁해고
ound
▁121
시타
▁기다
▁샘플
▁아카데미상
▁만일
▁후궁
▁고속도
▁왔으며
끼리
▁진급
▁빨간색
▁삼성전자
▁CF
▁173
승부
▁펠리
▁필터
▁개교
▁결코
▁철회
▁137
▁바오로
▁전자기
무스
▁승계
ath
▁요동
▁맘
조부
지붕
▁띤다
▁양측
▁연합국
의장
ond
▁나눠
▁비르
▁포병
▁근로자
▁킴
연합
▁주이
▁지미
▁물려받
▁가축
▁거쳤
▁방화
▁라이너
▁필리프
OL
▁문예
▁진공
▁1894
▁구해
▁일가
▁헥
▁궁극
▁뒤집
▁왕복
▁투옥
▁힘든
게이머
▁수용체
▁총독부
▁프로게이머
ory
▁바우
▁서진
마루
▁가장자리
▁문구
베니아
▁다크
▁무어
▁워터
▁최강
▁떠올
▁세속
▁태권
▁미션
▁수색
크라
man
▁칭찬
▁113
수소
▁레온
그레이드
▁클라우드
▁붐
규모
▁공민
▁믹스
▁슬로베니아
대기
▁공방
▁크리스토퍼
나스
▁핵무기
▁극심
▁서민
▁도미니
▁업그레이드
▁IM
▁요건
▁뒷면
▁용병
▁일컬
▁멜로디
ov
▁농림
▁유년
▁카카
▁게스트
▁대의원
▁주어지
▁LC
▁적도
▁즉각
▁바티칸
▁최대한
▁땃
단체
톨레
▁대피
로이
▁계정
▁그냥
▁브로드
▁알제리
번스
▁성도
▁치안
▁곤란
▁로이
▁신시
▁공백
▁군정
▁둥지
▁더니
▁상해
▁하동
▁코스타
▁강서
▁124
▁먼지
▁혈관
셰비
▁".
▁미키
▁초월
▁타당
퍼런스
iver
▁프랑크푸르트
▁김현
▁미루
▁게이지
▁부딪
▁독일인
▁개종
▁캐시
▁땄
▁모친
▁제인
▁몬스터
▁시뮬
▁국내외
▁z
아프리카
▁On
▁횡단
▁륙
mer
▁관음
▁판본
▁탤런트
박스
▁로우
▁서초
▁항쟁
▁야마토
▁갈릴
▁스캔
▁구절
로니
블리
▁내정
▁상표
▁성문
▁욕구
▁피오
▁자연수
▁고고학
▁World
▁커뮤니케이션
▁be
▁배후
▁붙인
▁가루
▁말씀
▁일생
▁제압
▁학계
▁오리콘
▁돌격
린스
▁SU
▁야쿠
▁디렉
▁원전
▁자선
▁자오
▁초록
대원군
▁김정일
▁이어진다
▁감자
▁예조
▁남서부
▁양호
▁유저
▁체크
▁검찰청
▁베네딕
▁영산
▁아랫
▁풍자
▁침투
▁New
▁CR
▁기질
▁1890
▁들어간다
▁므
ich
▁옵션
▁우파
▁자비
▁분명히
▁소규모
줄기
▁그치
▁브리지
▁라이온즈
축구
▁데르
▁러시
▁맑
▁시위대
▁윤치호
드르
▁오라
▁정세
▁평정
▁오프닝
▁고쳐
▁조부
▁따른다
▁발라
▁베니
▁선비
▁연이
▁114
▁냉전
▁이준
▁팔리
▁사상자
▁대거
▁에미
▁안토니오
▁땃쥐
▁슨
▁EC
▁과반
▁그대
▁김규
▁시정
▁징계
프레스
▁자택
▁기업인
▁알루미
▁깎
▁대명
▁매매
▁구스타
▁사쿠라
▁증손
▁미노
▁정주
▁블랙홀
▁컷
▁방사선
▁빔
▁어긋
▁어미
▁원로원
IP
렉스
▁관세
▁내주
▁봉건
▁연승
▁가드
▁군중
▁이남
▁흔하
▁118
ign
▁심해
▁지침
▁태극
▁드라이버
ial
▁구와
▁은데
▁히어로즈
▁괴물
▁파인
타리오
▁일리노
▁파이널
러드
조건
▁경신
▁대부
▁만료
▁이드
▁주부
▁퍼지
지스
▁악단
▁예시
▁요정
▁매니저
▁도청
▁자음
▁크리스티안
▁뉴턴
▁답변
▁비로소
▁플래시
▁1898
▁일리노이
▁나올
▁세이브
▁줄여서
▁승부차기
▁Sc
▁재상
▁프로덕
▁벵
▁본국
▁서자
▁용이
▁학명
▁경찰관
▁공감
▁인명
▁중형
▁진사
▁체스
▁115
▁파란색
저지
▁공조
▁체조
▁미하일
hn
▁스칼
▁럼
황후
▁반해
▁종착
▁디비시온
▁SD
▁하르
▁통치자
▁트로이
▁로그
▁이끈
닐라
▁지인
교도
▁순조
▁우측
▁헬리
벨트
▁동정
▁변이
▁극장판
▁우즈베
하루
▁였음
▁전년
▁컨셉
▁어렸
▁키르
▁반지름
▁봉안
▁한족
▁희귀
▁계열사
▁남구
▁밀집
▁축출
▁무승부
▁앵글
▁직면
▁모로코
▁기각
▁카우
▁레바논
▁챌린지
▁극작
▁하프
▁뉴저지
▁시가지
▁`
▁커널
▁웨스턴
▁왕세
▁외모
▁통보
▁셨
▁팰
▁JT
▁남미
문트
▁가옥
▁무성
▁대변인
마이오스
바닥
보르
▁선도
▁외야수
▁날아
▁취업
▁필사
▁헬기
▁혜택
▁그레고
기념
▁기증
▁나눈
▁소모
▁성리학
▁체코슬로
▁체코슬로바키아
▁말미
▁정변
▁패럴
▁광해군
▁달한다
▁연예인
▁닦
▁부스
▁케냐
▁GS
▁사위
▁129
▁범유행
타니
▁센티
▁살펴보
▁젊은이
레타
▁켈리
▁렐
▁믹
아키
▁코카
▁개막전
▁실망
▁웹툰
▁폭넓
▁핑크
▁학업
▁어려워
쟁이
▁GP
▁맏
먼스
미사
히코
▁뇌물
▁마력
▁비주
▁의약품
▁옳
▁글루
▁러셀
▁맥도
▁종속
▁캔자스
▁꿀
rom
▁미세
▁종래
▁중산
▁천재
▁쾌속
▁알루미늄
▁리뷰
▁지우
▁척추
▁구할
▁숙청
▁승자
▁총사령
▁스타리그
개미
▁호출
▁마운트
▁예하
▁커지
▁케빈
타리
▁끼쳤
▁바빌
▁발급
▁어른
▁재혼
▁첨단
▁회관
▁쯔
레아
▁남작
▁로비
▁재선
▁황족
▁끌어들
▁퉁
온다
▁서신
▁유라
▁퇴임
▁벨라루스
▁Ne
▁창출
ph
▁사간
▁화력
니까
▁밝기
▁흔들
▁확실히
그리
속기
▁괘
치기
▁벽돌
▁예고
▁적혀
▁카디
▁토미
▁기술자
▁스크립
▁장례식
방송공사
TS
▁웬
▁각도
▁III
▁스트리
▁오오
▁유방
▁흔한
우트
▁생체
▁옹립
▁전속
▁중공
▁파산
▁형조
▁조지프
천리
▁난징
▁부피
▁양반
▁응시
느러미
▁142
▁무명
▁임원
▁브리튼
▁등기
▁바꾼
▁채워
▁토양
▁1899
▁감행
▁워크
▁부여받
▁월요일
▁천문대
▁타임스
테르부르크
▁대패
화물
▁관제
▁미들
▁뒷받침
▁레슬링
▁세이부
▁마르티
▁청주시
▁프란츠
▁콕
urn
▁워너
▁케임
▁플라스틱
시즘
▁대치
▁컴백
▁토끼
▁폭포
진군
포로
▁저주
셰비키
▁더글러스
코딩
▁구경
▁무함
▁발병
▁배수
▁설화
▁성폭
▁소생
▁학기
▁ch
▁리프
▁모나
▁싸이
▁지출
롤라이나
▁얹
▁힌두교
▁CJ
▁룩셈
▁시범
▁에밀
▁유진
▁총칭
▁축물
▁프로덕션
▁룩셈부르크
로우
토르
함수
▁자크
▁정려
▁사본
▁오크
▁청산
▁대서양
틱스
▁화상
▁화자
▁거래소
▁스즈키
럴드
▁신원
▁안테
▁페널
ction
▁설교
▁지옥
▁혼동
▁발리
▁희곡
▁1902
▁만성
▁원천
▁광주광역시
▁가야
▁동네
▁왼손
파이어
▁금요일
▁잃어버
▁온타리오
▁걸렸
▁던져
▁운수
▁부의장
브르
▁중복
▁Man
▁그래미
두리
ens
▁공적
▁극한
▁벨트
▁ID
▁광둥
▁명종
▁의자
▁피신
▁프톨레
▁프톨레마이오스
덩이
▁늘리
▁플랫폼
▁끊임없이
▁썬
올라
▁보위
▁위쪽
lan
▁독서
▁물품
▁병기
▁스턴
MA
타주
▁정성
▁피겨
▁그릇
▁기차
▁니코
▁혐오
▁연산자
▁키보드
▁쟈
▁대성당
pp
▁우체
▁체류
▁가벼운
▁바깥쪽
▁아리아
▁지식인
샤바
▁표적
▁도카이
▁수분
▁머무르
▁연꽃
▁포획
▁''
▁느꼈
▁발기
▁서류
▁감마
▁강변
▁단절
▁부를
▁채소
▁코시
▁BS
▁대손
▁시코
▁영등
▁원종
▁의의
▁가까워
▁갈수록
글라
▁마녀
▁기사단
▁선배
▁시가
▁가신
▁간선
▁게리
▁캐서
▁태그
TA
▁국영
▁로라
▁사슴
▁코끼리
▁외관
▁촉매
▁하단
▁개소
▁따온
▁탄도
▁비석
▁참의
▁고양시
▁아돌프
lic
▁깃발
▁동행
▁밍
▁영문
▁함정
▁이관
▁주조
▁제네바
▁마스크
▁보이스
▁비행장
나우
▁버드
▁교통국
▁페르디난
▁기니
▁나갈
폴리
▁유체
크로
▁정적
▁부회장
▁소나무
▁빌라
▁한테
▁헌신
▁매카트니
▁김창
▁단축
▁대합
▁매수
▁울프
▁강동
▁김지
▁생생
▁선행
▁정동
▁이용자
TC
▁얽
카가
▁둥글
▁수확
▁입성
▁스위치
▁제국주의
그룹
▁단의
▁들이
▁오를
▁익스프레스
▁겁
국사
▁둔다
▁드러머
▁동학
▁스폰
▁토착종
▁몫
ary
▁광대
▁광명
▁부가
▁아산
▁해밀턴
out
▁가환
▁간토
▁쌓았
▁압둘
▁이겼
▁폭격기
▁초신
▁당한다
▁서유럽
▁고아
▁역량
▁이단
▁화강
▁경성부
▁포켓몬스터
▁면제
▁색채
▁직결
▁아이오
▁호르몬
▁1901
▁러시아어
구르
▁세비
▁약자
▁어류
▁입국
▁일으킬
▁코믹스
▁브뤼
▁이건
▁일산
▁채우
▁부작용
짓점
ert
▁공리
▁생략
▁성지
▁습지
▁열도
▁조립
▁사이토
▁트리플
▁나노
▁민감
▁복용
▁축조
▁꼭짓점
테인
ach
▁경과
▁본문
▁퀘벡
▁쓰촨
▁전방
피어
▁보트
▁여운
▁임관
▁No
▁갱신
▁소시
▁크롬
▁어려서
타임
▁체르
▁알렉산드르
▁울산광역시
모스
▁권총
▁염증
그라
▁날카
▁코코
▁특권
▁패했
▁표방
▁하치
▁그다지
▁연기자
▁다항식
▁삿포로
▁영국인
미트
▁즐겨
ys
디나
▁기숙
▁수축
▁입각
▁자작
▁정립
▁정문
▁체중
▁커스
▁아시카가
▁렘
▁염색체
자르
▁동조
▁무궁
▁불꽃
▁바이킹
▁점성술
루아
일으
▁검열
▁손꼽
▁실버
▁현은
▁불러일으
▁쿄
▁MB
▁보복
▁잡혀
▁카미
▁간단히
LS
▁낫
▁괴롭
▁김제
▁누적
▁서문
▁원료
▁차르
▁천하
파르
▁엔딩
IG
▁이현
▁사회당
▁옥스퍼드
LE
링턴
▁두께
▁박지
▁제치
▁페니
▁134
▁고산
▁공고
▁선동
▁조수
▁토기
▁패한
▁학대
▁개인전
▁조이
▁호모
레슬링
▁광저우
▁장기간
▁케임브리지
▁보헤
▁슈팅
▁카프
▁요르단
▁크레이
▁}
▁례
▁대두
▁어뢰
▁원본
▁쓰레기
▁무함마드
▁아라비아
▁시네
▁하비
▁KIA
▁파이터
▁푸에르
▁분수
▁불신
▁토요
베트남
▁모서리
▁마우
▁상금
▁스님
▁연봉
노미야
▁갈리아
▁대구광역시
ug
기스
대장
펜하
▁독성
▁동이
▁삼촌
▁주된
▁All
▁공예
▁레즈
▁소말
▁THE
▁노태우
▁사업가
▁1903
▁공명
▁좌측
▁가역
▁명하
▁섹스
▁전염병
▁정해진
▁아리스토
▁극대
▁루타
▁산출
▁직경
ase
▁남매
▁미륵
▁패널
클레스
▁트로피
▁피고인
▁1884
▁프로레슬링
카미
▁개화
▁군산
▁기르
▁패밀리
▁페널티
▁아인슈타인
▁Gr
▁회상
▁One
▁당연히
▁노보
▁모은
▁오쿠
▁미시시피
▁타케
▁홈구장
아웃
테르담
▁신도비
리코
정리
▁교대
라이어
▁만주국
▁이성계
▁지도부
▁엇
사리
카타
▁다마
▁아브
▁들어갈
▁쓰시마
▁알렉산드리아
처스
퀘어
▁강간
▁구형
▁어둠
▁이병
▁차가
▁언어학
▁EX
▁메커
▁정선
▁중령
▁터보
올로
▁라그
▁퇴역
▁하리
▁관광지
▁잘라
▁뮤지션
▁로저
▁쥐과
ke
▁AN
▁스텔
▁표기법
▁에콰
▁질소
▁드레스
▁프레드
▁에콰도르
▁도널드
▁검출
▁니콜라이
▁군함
▁벌인
▁클라이
히토
▁강대
▁이태
▁조형
▁퇴적
▁함선
▁아폴로
▁야마구치
▁Cl
▁갈래
▁실재
▁전위
▁제로
▁지녔
▁헌정
▁방글라
▁충청도
▁방글라데시
도스
▁비타
▁히타
▁1800
▁도요토미
고스
텍처
▁구스
▁기분
▁우치
▁파병
▁되돌아
▁아키텍처
▁LA
▁공황
▁대문
▁따왔
▁더욱이
▁슬라브
▁조반니
▁발렌시아
▁실무
▁원더
▁꼭대기
▁프란체
▁물가
▁우회
▁농부
▁뒤쪽
▁복합체
▁히로시
▁륜
▁경작
▁반공
▁마르틴
라이언트
▁김홍
▁인질
▁정유
▁무너지
간지
그레
▁곡물
▁다름
▁도선
▁비뉴
▁의결
▁장벽
사이드
테이션
▁마르코
▁불린
▁하차
▁거짓말
▁클라이언트
방울
▁건륭
▁단면
▁달걀
▁마키
▁상고
▁득표율
▁삼국지
▁컨트리
▁진전
▁카사
사우
▁까닭
▁당수
▁발칸
▁철폐
▁회피
▁기념관
▁콤팩트
▁돌기
▁해남
니시
ree
▁싸워
▁토시
▁간신
▁흥선
▁소방서
▁기념비
▁아나키
▁총대주교
▁가오
▁리만
▁밝힌
▁상가
▁선우
▁전복
▁리더십
▁밀란
▁방사성
▁분출
▁염소
▁용서
▁유부
▁가브리
▁상경
▁소행성
▁올라간다
▁일렉트로
▁감안
▁강희
▁무슨
▁전구
▁소수자
가르
개골
▁맞붙
▁분량
▁창녕
▁취항
▁코믹
▁활주
▁에디션
▁카를로
▁북아프리카
▁IN
▁가려
▁경인
가와현
▁모리스
▁메커니즘
▁팟
불교
산맥
하키
▁권장
▁기슭
▁살라
▁안경
▁우물
▁자형
▁남동생
▁가산
▁궁중
▁냄새
▁상응
▁중앙아시아
▁CN
▁복소수
▁부드러운
▁발령
▁불타
▁시야
▁신축
▁이룬
▁이북
▁정화
▁민간인
▁해진다
▁with
▁그레이트
ass
▁깨끗
▁상트
▁교도소
▁스토어
▁견인
▁데카
▁세바
▁현감
▁다케다
▁등용
▁러스
▁모모
▁소자
▁쑤
▁관절
▁대출
▁반군
▁수목
▁한층
▁거주지
▁기관총
▁뉴욕주
▁와일드
▁으려고
▁볼리비아
▁찐
▁Br
▁막스
▁116
▁220
▁오사카부
▁페이스북
구역
act
▁침체
▁새겨진
▁아미노산
▁씌
▁브란
▁세키
▁시킴
▁몰아내
▁일자리
곡동
사업
▁각색
▁기저
▁준주
▁폭로
▁프론
번뇌
▁Ad
▁농사
▁홍문관
▁1897
▁낙동
▁평창
▁전시회
파리
▁가계
▁상법
▁추첨
▁후작
▁포스터
11
▁교량
▁일파
▁장자
▁일부분
▁가의
▁취미
쿠버
▁요약
▁스트라이크
▁한국방송공사
▁가열
▁반전
▁샌드
▁심화
▁강남구
▁보성
▁절단
▁티코
▁버클리
▁마가
▁캐서린
pt
▁안산
▁태백
▁효고
ream
▁마카오
▁방송인
▁지지율
▁카스티
역학
▁라오
▁마니
▁1860
▁구약
▁느리
▁델타
▁리조
▁오로
▁올드
▁추론
▁시켰으며
▁앰
▁홉
▁네오
▁음향
▁접수
▁교육청
▁데스크
▁생겨나
▁겐지
▁나루
▁민정
▁아소
▁체력
▁효종
▁그려진
▁격차
▁넘기
▁다를
▁마블
▁연대기
바른
버리
벤처
▁;&
▁델라
▁르노
▁북경
▁사살
▁어드벤처
▁GO
▁공약
▁배우자
▁이주하
▁장제
▁적군
▁찰리
▁타우
▁휴가
▁바르샤바
▁Ex
▁수료
▁온대
▁아름답
▁알프레
▁글래
▁대관
▁서리
▁저렴
▁확진
▁줘
▁Is
기념물
▁샌디
▁애리
▁전산
▁카타르
▁후반기
나드
푸아
▁랍
▁특색
▁122
▁청색
▁합당
▁중공업
▁스크립트
캐롤라이나
피언
▁공손
▁메라
▁중원
▁집결
▁쿠니
▁돌입
▁청소
▁카즈
▁게릴라
▁경제학자
▁안드레아
포터
▁거처
▁이반
▁사카이
츠크
▁가가
▁거뒀
▁리히
▁떡
▁석불
▁수중
스카르
▁가져오
▁미네소
산성
▁두꺼
▁석회
▁세네
▁신정
▁짐작
▁타협
반구
부리
퍼슨
▁아닐
▁전격
▁마라톤
▁모티브
▁솔루션
▁마당
▁이빨
▁쥐속
▁2022
▁버마
▁종파
푸르
▁갑옷
▁막시
▁브룩
▁소행
▁입주
▁클라크
▁보강
▁새로이
▁스퀘어
▁유닉스
으니
▁고토
▁실적
▁안치
▁나간다
▁1880
▁마애
▁벽화
▁봉해
▁인테르
▁였으므로
▁과실
▁동형
▁약하
▁피치
▁두개골
▁상트페
▁아마존
▁상트페테르부르크
콥터
▁루크
▁신동
▁창의
▁호응
▁화순
▁정경
▁옥수수
▁그레고리오
▁무로
▁윤보
▁나란히
▁유대교
▁뻔
▁다툼
▁모용
▁무술
▁사적
▁con
▁갤러리
▁설립자
▁BM
▁메릴
▁빈도
▁진해
▁흥선대원군
ii
▁엮
▁강철
▁선장
▁연동
▁종말
▁그리스인
▁군청
▁종점
▁팔레
▁확고
▁유정
▁지켰
▁쳐들
▁출석
▁호쿠
▁NGC
▁공용어
▁진행자
▁파라과이
▁따랐
▁복권
▁용암
▁이언
▁133
▁극작가
▁셜
▁극도
▁급수
▁열심
▁을까
▁조인
▁옮겨졌
▁노이
▁장원
▁콘테
▁함양
▁함부르크
기구
네시
▁기성
▁어로
▁입양
▁경쟁력
▁제작사
▁무스
▁어리
▁예명
▁일괄
▁제리
▁제왕
▁그림자
▁붙여진
▁이동하
나미
▁살려
▁소령
▁야시
▁연못
▁자결
▁추종
▁키예프
▁그렇지만
니지
타케
iss
▁등극
▁번성
▁수녀
▁가네
▁도사
▁진료
▁디트로
▁디트로이트
ake
▁가볍
▁스노
▁오락
▁이장
자치시
사관학교
▁천연기념물
▁특별자치시
own
▁빛나
▁왕정
▁치른
▁프렌
▁교육부
▁준결승전
▁프랭클린
▁블리
▁유령
케이
▁타지
▁명분
▁몽고
▁숙주
▁심야
몰로지
▁Mus
▁엘리트
▁덮여
▁주어진다
▁프롤
▁CBS
▁앞장
▁CEO
▁아래쪽
▁일러스트
▁국유
▁스로
▁이규
▁이데
▁평민
▁미생물
▁사무총장
▁된다면
▁법정동
▁낚
▁우상
▁원격
▁위생
▁탁월
▁무궁화
▁넌
▁ES
▁미셸
▁수년
▁아치
▁이득
▁파우
▁위나라
▁장흥
▁GDP
▁포도당
▁애틀랜타
세기
▁고추
▁반역
▁온갖
▁재난
▁조계
▁칼뱅
▁펜싱
▁그레고리
뜨렸
▁강풍
▁농어
▁듀얼
▁자카
▁타석
▁헬륨
▁대사헌
▁앨리스
▁문경
▁겉보기
▁기상청
▁열린다
▁동성애자
미스
▁개항
▁들려
▁자생
▁결핍
▁무조건
▁스트라이커
▁섀
clude
▁스리랑카
▁툰
그래
멘스
타마
old
▁감동
▁도우
▁속편
▁132
Hz
UR
▁김민
▁빈번
▁정인
▁지청
끄러운
▁지방산
▁니카
▁워치
▁진수
▁후진
▁대성전
HO
▁더비
▁유스
▁주지
림픽
버러
원장
▁자르
▁재해
▁정관
▁시뮬레이션
▁샐
에미
▁동요
▁듀오
▁상연
▁수심
▁대지진
▁아니하
▁애칭
▁총무
▁글로브
▁인프라
▁삼국사기
위성
▁광양
▁동참
▁아데
▁파이프
헌영
▁결제
▁리모
▁기병대
▁마우스
스기
▁++
▁베른
▁울리
미즈
▁시종
▁불행
▁인디애나
메다
▁초원
▁호족
▁슛
거래
운다
ork
▁NE
▁속주
▁조병
▁현직
▁맹세
▁주화
GA
▁현행
바야시
▁마다가
▁자세히
렉션
▁격자
▁닫힌
▁대국
▁모인
▁하고
ix
▁른
▁헛
파크
▁발각
▁신상
▁암흑
▁La
▁극락
▁낮추
▁상기
▁미주리
▁세워져
▁요제프
▁통틀어
▁보헤미아
▁쾰
▁vs
▁브랜
ence
▁농산물
▁kt
▁or
▁호의
벨라
할시
▁가타
▁복음서
▁국수
▁둘러싸여
변이
천사
해튼
ick
▁요법
위원회
▁돌연변이
▁패럴림픽
▁Ro
▁파문
▁pro
▁단과
▁대본
▁피로
▁해부
▁붙여졌
▁볼셰비키
()
lo
▁공표
▁대각
▁현황
▁감금
▁김옥
▁루비
▁의과
▁초고
▁평안남도
마리
어질
▁공파
▁청자
▁투항
▁김병
▁밀러
▁세손
▁시리
▁우체국
▁활주로
라기
루냐
▁낙하
▁메일
▁아빠
▁저격
▁올바른
▁1870
▁합스부르크
테면
▁소울
▁후속작
▁이를테면
▁뾰
▁앗
▁양육
▁입수
▁매거진
▁댓
▁만년
▁생계
▁장대
▁재질
▁총기
▁황도
CAF
▁서장
▁포고
▁소피아
▁오로지
▁PR
▁페로
▁표창
브리아
▁우아
▁이븐
▁정국
▁제너
▁Mar
▁NAS
▁모터스
▁창시자
▁숀
▁관동
▁난이
▁단행본
▁대장군
다르
삭스
▁호리
ance
▁아스널
▁중앙부
▁타이베이
▁계시
▁돌출
▁리터
▁비늘
▁시국
▁애리조
▁평안북도
플로
홀름
▁To
▁내면
▁말년
▁머스
▁부조
▁왜구
▁1885
▁앞쪽
▁450
▁꼽힌다
▁선보이
▁우즈베키스탄
▁엥
▁전날
▁활발히
▁un
▁감수
▁국악
▁청동기
▁1871
▁프랜시스
EM
공산
▁DM
▁로페
▁배속
▁복식
▁성령
▁중상
▁제조업
▁아이스하키
▁마르크스주의
▁아쿠
▁원심
▁Ph
▁지로
테리아
십자
▁국당
▁벤치
▁세븐
▁신종
▁비주얼
▁수염
▁일리
▁퇴장
▁USS
▁로렌스
▁짱
쩌둥
▁카바
▁마오쩌둥
▁줄어
▁편집자
▁1600
▁쿡
지오
▁리바
▁매직
▁반성
▁중생
▁다람쥐
▁알래스카
ection
ear
irl
▁미친
▁증인
▁참사
▁빅토르
▁맷
제이
티시
▁경질
▁볼프
▁유러
▁케라
▁푸르
타이드
▁일으킨다
▁콘스탄티노폴리스
▁수교
▁지성
▁흉노
▁앤더슨
▁프레이
▁감싸
▁자칭
▁휴게
▁양성자
▁유러피언
▁내성
▁콜레
▁티켓
lass
▁내무부
▁자란다
▁오클랜드
▁올랐으며
▁관행
▁반하
▁시애
▁카터
▁즘
▁유료
▁이양
▁줄여
▁화랑
▁only
▁로리
▁수다
▁스태
▁요지
▁위스
▁청룡
▁마닐라
▁센고쿠
▁수원시
▁1200
ild
▁끝났
▁바디
▁수인
▁테일
▁박헌영
▁반란군
으로
테쓰
▁냐는
▁온다
▁이완
▁240
파이
▁루카
▁시달리
▁알렉스
▁잡아먹
▁파나마
▁갈리
▁걸린
▁당내
▁불어
▁장단
▁제동
▁중서
▁친분
▁해저
▁쉴
▁GN
▁능선
▁민요
▁역도
▁조광
텔레스
▁케이프
▁봉수
▁이룩
▁지오
▁다나카
▁프로리그
▁SL
▁개개
▁려던
▁부각
▁성실
▁이모
▁이방
▁탑신
▁김정은
▁역사가
관리
▁카니
▁예정자
라고
▁전단
▁부원군
▁시애틀
▁왕세자
▁다투
▁무척
▁플랜
▁오른손
▁윤보선
▁마다가스카르
▁멍
▁분과
▁재외
▁초빙
▁출가
▁부드럽
체고
▁교실
▁구니
▁남용
▁상급
▁김규식
▁실험실
▁앤드루
체고비나
맥스
▁궁궐
▁몸통
▁섬세
▁넘어갔
▁프라하
▁하노이
지기
▁조례
▁AD
▁정제
▁맨해튼
▁아무것
▁아리스토텔레스
▁사쿠
▁구마모토
컨대
▁리비
▁생선
▁시중
▁통역
▁공민왕
▁루돌프
▁해리슨
▁바트
▁미군정
메스
ans
▁송도
▁징병
▁총애
▁동물원
▁재활
▁차용
▁창문
OV
면체
▁관문
▁글러
▁오미
▁지쿠
▁동대문
사상
▁경희
▁서산
▁헬리콥터
드슨
천면
▁고쿠
▁돌보
▁칼럼
▁호크
▁대대로
▁각성
▁개헌
▁경시
▁국보
▁실존
▁신문사
▁위너스
▁러시아인
▁괄
코토
▁Sy
▁농경
▁배려
▁줄거리
▁독창
▁처하
▁퍼포
▁EBS
▁나타냈
▁크라이
ivers
▁CM
▁남산
▁커플
▁퍼스
▁함자
▁경영자
▁리조트
▁어려웠
▁유권자
무소
▁독도
▁수필
▁성남시
▁퍼포먼스
▁얕
▁뾰족
▁시합
▁약혼
▁포착
▁유치원
어사
ype
▁구청
▁하반
▁화기
▁제퍼슨
▁싣
▁남해
▁에프
▁동유럽
▁뉴클
▁칙령
▁해져
▁퍼스트
▁브레이크
▁총통
▁테라
▁클레이
▁클린턴
▁경호
▁드미
▁는다면
include
▁파도
▁학설
▁MTV
▁사각형
▁올림피아
ish
▁김원
▁통용
▁하류
▁가져온
▁브루스
▁서재필
▁선거법
▁솔로몬
▁시노
▁안녕
▁효자
▁레이크
▁해리스
▁모의
▁유혹
▁카지
▁스테파
▁가늘
▁마차
▁모호
▁욕망
GM
▁보라
▁산호
▁스가
▁어쩔
▁주임
▁주입
▁내려졌
▁Jo
▁나우
▁연한
토랑
▁":
▁신발
▁씨앗
▁전래
▁절망
▁레스토랑
▁관청
▁광도
▁일당
▁케인
▁하키
▁화엄
▁케플러
▁자제
▁허정
▁자치체
▁총사령관
원수
oun
▁NT
▁보로
▁성화
▁시부
▁평형
▁대합실
▁예수회
에스
지르
▁나인
▁보행
▁수양
▁천왕
OD
통일
▁실정
▁카테
▁트릭
▁호스
▁분류군
▁함경남도
▁이렇
▁아키라
▁예선전
▁요시다
fe
▁@
히트
▁로버
▁보낸다
AF
신문
아나
▁만장
▁메뉴
▁무실
▁찬사
▁포식
▁비밀리
▁ex
▁라서
▁분파
정원
▁마술
▁전무
▁제물
▁긴테쓰
▁소음
▁침묵
▁검정
▁폭파
▁향했
▁정의당
환경
are
▁가솔
▁메카
▁박종
▁이점
▁테리
▁내야수
▁방어선
군다
창호
▁고든
▁리보
▁보수당
바흐
▁sc
▁다테
▁당연
▁맞대
▁이겨
▁플라톤
려서
▁도둑
▁블레
▁원통
▁뉴클레오
▁네이션스컵
▁벅
▁샀
▁라자
▁문고
▁시몬
▁다저스
▁비타민
▁색소
▁신지
▁서대문
▁아키타
▁올라갔
▁스톡홀름
▁본성
▁어군
▁엄밀
▁천국
▁캐롤
▁컴퓨팅
▁넷째
▁마셜
▁블로
▁카피
ical
▁ABC
▁바이트
▁알프스
등식
▁수복
▁그래도
▁드루
▁전담
▁강령
▁김유
▁영유
▁타스
▁파손
▁개구리
▁쓰여진
▁유아기
메드
lat
▁도교
▁방콕
▁자치주
▁친위대
▁와이번스
▁동로
▁리베
▁묘비
▁나트륨
▁오리온
▁프린스
▁소극
▁소중
▁웨인
▁찬양
▁황소
▁스폰서
IR
TP
라니
암동
▁노론
▁대북
▁릴리
▁한미
▁북아일랜드
EG
▁넘치
▁리사
▁모어
▁백두
▁우림
▁리프트
▁멧
매매
▁선천
▁스텝
▁럭비
▁모셔
▁불변
▁실권
▁추이
▁치과
▁마천루
▁투자자
▁아름다움
▁피아니스트
▁구실
▁마켓
▁왕권
▁장시
▁채취
▁천거
▁ATP
▁대원군
▁로드리
▁가브리엘
▁DD
▁슬픔
▁포토
질러
▁CH
▁Fr
▁화약
▁피라미
대표
▁AV
▁사방
▁상행
▁야드
▁야전
▁와라
▁퇴직
▁헬싱
▁마누엘
▁결별
▁구내
▁국공
▁벤처
▁톈진
▁합친
▁연산군
▁토스카
▁튀르크
▁구두
▁담보
▁로크
▁정거
▁210
▁동시대
덴부르크
▁삼존
▁슬하
▁이의
▁특전
▁선구자
▁용인시
▁연극배우
지능
▁감찰
▁제노
▁쾰른
▁정부군
▁화강암
▁인공지능
▁적외선
▁콘테스트
FL
놀이
▁간첩
▁스칸
▁안드
▁여유
▁져서
▁가이드
▁유격수
티넘
▁Ma
▁방치
▁약사
▁어는
▁차출
▁아나톨
▁플래티넘
▁헤르체고비나
ey
언스
▁pr
▁별세
▁즐길
▁알파벳
▁주차장
▁프레데
대교
러지
▁강렬
▁위그
▁잇따
▁펌프
ica
▁마에
▁유선
▁중퇴
▁이뤄졌
EL
▁가락
▁왕건
▁준수
▁목요일
사고
▁본작
▁켈트
▁오바마
▁딥
수스
▁그저
▁죽인
▁경전철
▁나타낸
▁두려움
들여
▁러서
▁로얄
▁리본
▁불참
▁삼림
▁종식
▁추리
▁he
▁공존
▁봉화
▁실록
▁어찌
▁임정
▁칸국
▁안테나
▁초신성
▁1889
▁모하
▁아날
▁유목
▁기관지
▁스카우트
클레
▁강해
▁밸리
▁취했
▁말미암
▁엔트리
60
▁김형
▁끼치
▁마땅
▁반포
▁영정
▁요충
▁이송
▁직통
▁늙
난성
소통
천동
▁갈아
▁건전
▁벌여
▁산성
▁여권
▁영예
▁예약
▁전전
▁집정
▁처지
▁플리
▁하시
공산당
와라노
▁메이커
▁아이폰
▁후지와라노
▁가맹
▁사역
▁송신
▁중합
▁형질
▁밴쿠버
▁고속버스
부로
▁로트
▁모금
▁정형
▁패트릭
▁다윈
▁대영
▁베트
▁드디어
▁열심히
▁타이어
충류
▁겹쳐
▁자란
▁절정
▁투여
▁피지
테이너
▁비엔
▁호대
▁간신히
▁찾아내
▁의사소통
▁불량
▁사설
▁연말
▁캐리
▁똑같이
▁타이거스
▁So
▁감성
▁니혼
▁열강
▁의류
▁판례
▁휩쓸
▁소말리아
▁극우
▁비야
▁나아
▁매트
▁바꿨
▁종자
▁주계
▁For
▁메디치
▁스트로
▁악보
▁발라드
▁사라진
▁챙
위안
▁감상
▁김준
▁미수
▁작물
▁지자
▁쿠퍼
▁낙동강
▁로마인
▁혀
▁격리
▁라리
▁수락
▁애정
▁중수
▁힘썼
추부사
▁엣
바나
▁사탕
▁시크
▁정작
블랜드
▁CONCA
카리
휴일
▁사서
▁삼중
▁생존자
다운
부르
▁생긴다
▁JTBC
bo
가미
유예
▁의령
▁후배
▁Live
▁프란체스코
▁CONCACAF
▁무형
▁원군
▁센티미터
▁금호
▁서임
▁정읍
▁들어올
▁클리블랜드
▁고쳤
▁목회
▁하야
▁나카무라
sh
망디
▁도피
▁메소
▁모색
▁잠정
▁정종
▁제명
▁징수
▁미야자키
▁훙
▁앙골
▁요격
▁고딕
▁비추
▁은거
▁프랑스인
▁공소
▁반기
캐슬
▁기이
▁내걸
▁Sou
▁카카오
에미리트
▁아랍에미리트
풀이
▁가도
▁백과
▁송출
▁페트
마르크
바이트
▁놀라운
▁뛰어났
▁시네마
IL
란토
프로
▁금산
▁볼트
▁레이싱
▁장학금
▁가나가와현
▁깜
▁싼
▁비준
▁습윤
도르프
▁드러냈
▁여배우
▁카탈루냐
▁자유민주당
▁김명
▁연정
▁유의
▁치환
▁트렌
▁피라미드
EE
▁리옹
▁성곽
▁익숙
하이오
▁오하이오
말로
▁EU
▁노면
▁모욕
▁서태
▁유희
▁평평
▁광복군
▁교통부
tern
▁Com
▁가솔린
▁에이즈
화문
▁벨리
▁미야기
▁Time
에몽
ood
▁격추
▁무네
▁자서
▁검은색
▁레이더
▁순종
▁한중
▁항만
▁Col
▁캅
대사
▁거미
▁김광
▁베어
▁워커
▁마이어
▁유니버설
ost
▁"&
▁GB
▁귀신
▁양심
▁AKB
▁스타트
▁츄
▁수로
▁암스
▁여고
▁탄약
▁int
▁기숙사
▁1848
▁Part
자루
▁급여
▁때려
▁매킨
▁문집
▁뉴캐슬
▁토리노
▁어시스트
나마
현동
▁바지
▁여사
▁추억
▁라이더
▁레이트
▁프랑스령
워하
▁느린
▁무과
▁천주
▁티아
▁우루스
▁사쓰
▁최진
▁포털
▁도래
▁줄리
▁한림
▁해태
▁브레이
▁여의도
row
▁꼽히
▁추력
▁해피
▁시켜서
▁프란치
거스
▁사민
▁오만
▁명확히
▁바그너
▁국한
▁공휴일
▁대리인
브로
애미
의사
▁재팬
▁파란
span
▁부총리
▁졌으나
▁지상파
▁마이애미
지부
▁TR
▁가혹
▁걸어
▁댄서
▁맞춘
▁워즈
▁하행
나오
워서
▁모건
▁토트
▁해독
▁지배자
▁튀니지
▁onlyinclude
uc
정동
ous
▁남군
▁볼로
▁재일
▁절벽
▁어긋나
lay
▁공성
▁누렸
▁비정
▁우한
▁종군
▁코리
프랑크
▁정치학
▁카스티야
▁공대
▁라르
▁셀레
▁총격
▁대니얼
▁섰
▁굴절
▁방대
▁병자
▁업자
▁클라우
orn
▁EM
▁무안
▁비토
▁산둥
▁안개
▁클러
▁정거장
▁보령
▁부합
▁유식
▁특화
▁고인돌
▁법원장
▁일본국
▁Your
▁대승불교
▁보수주의
▁로키
▁비대
파니아
▁페트로
▁교의
▁든다
▁바꿀
▁음절
▁합치
페스트
▁대단히
▁이뤄지
지아
▁경복
▁다치
▁제위
▁치카
▁국제법
▁대법관
▁마법사
관계
▁리카
▁선봉
▁설문
▁신곡
▁관현악단
ows
▁랴오
▁부평
▁선명
▁인칭
olog
▁SNS
메니
ann
▁가쿠
▁김인
▁단결
▁그랜트
▁시코쿠
▁아이즈
▁모라
▁모빌
▁문단
▁커서
▁시멘트
▁시켜야
▁맬
▁사수
▁숙부
해살이
▁NASA
▁고로
▁류큐
▁마테
▁용액
▁Bla
▁OST
▁저지대
▁하노버
az
▁대마
▁지법
▁케르
▁제우스
aw
거지
▁BC
▁거란
▁공영
▁소외
▁연립
▁항체
▁131
OP
▁댈
▁찔
▁동산
▁사림
▁진로
메이카
▁대나무
▁방사능
▁카메룬
▁자메이카
▁줄기세포
▁메스
▁오디
▁평지
▁황색
▁API
▁정보원
서스
▁검거
▁동진
▁서귀
▁초콜
▁명소
클리드
▁1883
▁레드삭스
틀리
▁GM
▁도키
▁모범
▁안방
▁재편
▁적료
▁점포
▁접한
▁영화상
▁줄리아
▁쾨
▁국교
▁전보
▁항우
▁형벌
▁뛰어들
▁욱
▁at
▁종양
▁최선
빌라이
▁ref
▁부상자
칼리
▁가중
▁글꼴
▁남방
▁속력
▁연희
▁외치
▁지석
▁팔렸
▁라파엘
▁제이슨
▁다듬
▁다우
▁실증
▁편견
▁혼다
▁가져다
▁패러디
▁그라운드
▁골격
▁기와
▁녹화
▁중엽
▁하코
레스트
▁쳐들어
히사
▁기해
▁도박
▁바쳤
▁절감
른스트
▁달라지
▁노르망디
▁녕
시노
▁가토
▁수식
▁응급
▁평판
▁한신
네그로
▁곶
용차
▁고생
▁관상
▁라디
▁봉인
▁부다
▁카네
▁홀리
▁비서관
▁교향악단
▁기세
▁무작
▁탄자
▁파일럿
▁판소리
▁선대
▁u
▁촛
합성
▁계주
▁밀어
▁산요
▁은혜
▁코소
▁타락
▁연구회
▁대좌
▁삽화
▁송파
▁식스
▁쌍대
▁경위
▁유우
▁큐브
▁에스페
▁체인지
▁해상도
▁텍사스주
80
▁간략
▁기량
▁리즈
▁야외
▁열전
▁피리
▁고분군
▁tv
▁공무
▁근사
▁꿈꾸
▁나간
▁라바
▁약해
▁유공
▁조교
▁예컨대
▁흐른다
▁중소기업
들이
센스
제품
▁라기
▁모세
▁온난
▁이터
▁자명
▁콘솔
▁가우
▁너머
▁발상
▁병마
▁이회
▁하남
▁프로그래머
▁단군
▁리마
▁세습
▁위로
▁지극
▁카마
▁연장전
▁뫼
▁걸쳐서
▁니키
▁달랐
▁우산
▁유생
▁에이전
▁위구르
돌이
▁Ge
▁고의
▁배분
▁수위
▁월터
▁달아났
▁쿠빌라이
▁간사
▁단속
▁도네
▁램프
▁상어
▁엔드
▁요절
▁전반기
▁토마토
▁안나
▁해치
▁이용객
▁잃어버린
ink
▁관례
▁부왕
▁사학
▁학력
▁함량
▁만화가
▁봇
워스
치히
ern
▁고마
▁고흥
▁국외
▁권역
▁북군
▁다이어
▁해안선
▁1882
에고
▁단정
▁부교
▁성동
▁요양
▁야마가타
▁RP
▁군데
▁왕궁
▁친족
▁330
▁Day
▁통신사
▁Wind
40
CC
▁콥
버른
프턴
▁내일
▁루키
▁주선
▁거성
▁고노
▁기전
▁동포
▁맞춤
▁보루
▁스루
▁유서
▁헬레
스트리
▁슈퍼컵
▁올리브
▁관계없이
토프
포시
▁덮개
▁세련
▁내세우
▁너무나
▁급증
▁위조
▁파벌
▁단체전
▁대표자
▁스칼라
▁아이언
▁원산지
▁가고
▁관악
▁느낄
▁받들
▁범행
▁정월
▁국정원
▁데니스
▁필립스
II
교통
여객
▁RS
▁SA
▁새우
▁씨족
▁자수
▁장덕
▁조셉
▁공화정
▁카스트
▁아날로그
▁몹
서니
오르크
▁레오폴
▁결사
▁배달
▁타수
▁부르주
▁선진국
▁Girl
나갔
▁여도
▁직속
▁플러
▁미토콘
▁영원히
▁미토콘드리아
▁FK
▁묻혔
▁산시
▁시안
▁우시
▁정정
▁주창
▁최영
▁표정
▁미스터리
▁성원
▁세요
▁옮긴
▁제천
▁Sch
▁강당
▁강행
▁상록
▁아유
▁재래
▁지르
▁태후
▁항원
▁남하
▁몰타
▁사영
도라
팡이
▁그릴
▁아목
▁염려
▁형편
▁군사력
▁북유럽
▁비해서
▁중공군
▁지닌다
▁4000
▁관목
▁협업
▁노벨상
▁무실점
▁생겨난
▁해운대
▁시즈오카
▁넬슨
▁랭크
▁맡기
▁양보
▁진한
▁경주시
▁어울리
▁브루클린
▁신입
▁외래
▁잠깐
▁천수
▁테네시
▁호스트
▁괌
▁냥
▁딜런
▁발동
▁서면
▁조슈
▁독수리
▁안티오
게스
▁규탄
▁사치
▁앞선
▁정은
▁콜럼
▁파푸아
▁타일
▁떠오르
▁줌
▁쪼
본부
▁놓인
▁보름
▁빙하
▁소프
▁일각
▁만난다
▁우의정
▁지붕돌
▁파시즘
▁휴게소
데라
▁우월
▁제단
▁키워
▁급속히
▁사업소
▁제갈량
▁1868
US
융합
▁단말
▁영덕
티모어
▁대상자
▁베이커
▁산티아
▁알아보
▁치러졌
OT
▁노사
▁사안
▁하의
▁회귀
▁new
▁멜버른
▁메릴랜드
▁뇨
▁대인
▁뒤이
▁라미
▁번창
▁종영
▁라인업
▁컨테이너
▁쩐
지리
▁OB
▁Or
▁과테
▁수열
▁할인
▁후예
스탄불
▁접어들
▁과테말라
▁유클리드
▁이스탄불
oll
▁거세
▁고트
▁족보
▁LED
▁핵융합
▁사이타마
▁대도
▁오아
▁전수
▁스캔들
▁요충지
▁이바지
▁컨트롤러
협회
▁객차
▁동적
▁어파
▁출자
▁피핀
▁앙골라
▁오스틴
▁몬테네그로
▁사회민주당
▁교부
▁군벌
▁외형
▁증폭
▁청계
▁사운드트랙
▁찢
▁농지
▁저조
▁피할
▁렛
▁샨
▁무서
▁았었
▁영월
▁법관
▁절제
▁충렬
▁리믹스
▁좌의정
▁프랜차
▁장병
▁성산
▁위력
▁잔인
▁기념일
▁폐기물
▁노후
▁라카
▁사천
▁우왕
▁초안
▁켄트
▁항로
펜하겐
▁코펜하겐
히드
▁러일
▁복종
▁영암
▁위촉
▁증오
▁주계열
▁커리어
▁베르나르
▁야마모토
▁교직
▁버터
▁안무
▁호아
웨이트
▁게끔
▁금전
▁밀레
▁사비
▁은신
▁차선
▁청도
▁흩어져
▁아케이드
▁요하네스
내리
▁부파
▁스콜
▁양수
▁320
▁히브리
▁프란시스코
바오
▁끝날
▁출동
▁타리
▁프랜차이즈
▁colspan
▁동향
▁새긴
▁성악
▁식용
▁외과
▁이메
▁주심
▁카세
▁피드
▁헌장
▁수요일
▁신주쿠
▁암스테르담
▁고온
▁도상
▁우연
▁정몽
▁치유
▁공안
▁꾀하
▁내분
▁네티
▁분단
▁종신
▁피우
▁김옥균
▁떠난다
▁사이먼
▁슌
공주
호란
▁대청
▁매리
▁위함
▁준장
▁추서
▁자서전
▁DF
▁능동
▁대덕
▁배리
▁슈테
▁습관
▁시비
▁이항
▁치하
▁end
▁동맹국
디나비아
▁게오르크
▁니콜라스
▁스칸디나비아
▁분사
▁상국
▁소아
▁카툰
▁컨설
▁효고현
▁여성주의
우에
익스
▁고이
▁긴밀
▁순차
▁전세
▁첼로
▁그만큼
걸이
▁국철
▁바울
▁양대
▁자재
▁정령
▁축산
토리코
▁오일러
▁산티아고
RT
▁김윤
▁조영
▁직행
▁톰슨
▁서해안
▁철저히
▁육군사관학교
▁놈
꼬리
▁by
▁거지
▁모차
▁무언
▁샤프
▁압록
▁전락
▁결과물
amp
gin
▁당할
▁문종
▁서주
▁데이브
▁헤이안
▁에른스트
▁쿠웨이트
니파
▁김선
▁노아
▁점거
▁정했
▁차츰
▁타로
▁한번
▁함흥
▁브뤼셀
▁서사시
▁늪
셀러
▁었었
▁칭송
▁280
▁로마자
▁시트콤
▁루이지애나
▁코스타리카
독립
웍스
▁정반
▁주성
▁퍼즐
▁발전기
▁위안부
▁텔레콤
▁내무
▁브릿
▁아흐
▁가라앉
▁어웨이
▁윗부분
▁장로교
▁푸에르토리코
LA
▁고집
▁문무
▁원활
▁전학
▁짐승
▁천천
▁흡사
▁법조인
▁천안시
▁결핵
▁김승
▁리코
▁박성
▁보여준
▁펠릭스
▁포르노
▁화장품
▁함경북도
▁촐
계승
▁높여
▁정재
▁피크
▁후유
▁203
▁IOC
▁나타날
▁유학자
▁1893
▁각료
▁격려
▁데드
▁백악
▁소대
▁수량
▁유족
▁척도
▁편향
▁부르고
▁갯
▁리튬
▁앤디
▁온화
▁천마
▁축전
▁충무
▁폐렴
▁학장
▁트리오
▁복음주의
OW
게임
▁Fe
▁과시
▁레프
▁박상
▁배드
▁생리
▁접종
▁집착
▁코네
▁탈취
▁천천히
북구
업자
▁기쁨
▁대종
▁배양
▁이아
▁측량
▁민병대
퍼레이션
▁가했
▁영천
▁우두
▁데일리
▁가고시마
gr
세유
ung
▁높였
▁서스
▁선인
▁아드
▁자진
라이드
▁교육자
▁이탈리아어
▁막판
▁이황
▁해왕
▁마이크로
▁탄자니아
▁톡
▁Mo
▁NP
▁숨기
▁조니
▁조제
▁도자기
▁로베르
▁해안가
상시
화학
les
▁le
▁심포
▁하타
▁헤로
▁동맹군
▁갚
▁간직
▁김치
▁서초구
▁Rock
티에
▁도출
▁취한
▁하급
로이드
▁관우
▁애인
▁헌터
▁흥분
▁노미야
▁왔으나
▁초콜릿
eth
▁관성
▁김천
▁도이
▁미성
▁심상
▁톱니
▁아라곤
▁후쿠오카현
들러
몬트
비크
▁금동
▁불경
▁유영
▁한문
▁한큐
▁도로는
▁유적지
익스피어
▁Comp
▁핏
▁공양
▁구금
▁림프
▁보낼
▁칼슘
▁컬렉션
▁플랑크
▁셰익스피어
▁기뻐
▁심부
▁점검
▁주세
루이스
▁고려대
▁비스타
▁마타
▁전미
▁녹색당
▁레인저스
▁아츠
▁조롱
▁합하
▁지켜보
▁케이크
▁픽처스
▁Univers
▁Am
▁견고
▁바비
▁버섯
▁불사
▁강화도
▁글래스
▁스포르
▁미나모토
▁부르고뉴
나기
oth
▁귀속
▁라흐
▁오하
▁장녀
▁현판
▁다면서
▁다스렸
▁도야마
▁사상가
▁우울증
▁상관없이
▁구독
▁까마
▁명인
▁물결
▁미아
▁버러
▁소사
▁아메
▁에마
▁TBS
▁밝혀진
▁서바이
▁AB
▁대주
▁배역
▁스런
▁시속
▁에로
▁페더
▁휘말
▁Rec
▁불계승
▁러시아군
▁겹치
▁노랑
▁반동
▁월트
▁휴양
▁게오르
▁로스쿨
▁발사체
▁순양함
▁인공위성
레드
태평
▁구치
▁구한
▁라즈
▁무단
▁발목
▁상정
▁도카이도
트르
▁마트
▁심문
▁재차
▁내린다
▁참모총장
▁낚시
▁미츠
▁청량
▁특사
▁황산
▁230
▁끝냈
▁대접
▁달라진다
▁매끄러운
폭탄
▁Do
▁노프
▁에바
▁베르타
▁프리스
▁from
▁플로리다주
▁핼
▁연회
▁이우
▁침례
▁파편
▁GNU
▁들어섰
▁스탠리
▁가르시아
▁가와사키
▁에스페란토
▁Sup
▁국제선
▁기업가
▁둘러싸인
▁마르세유
▁율리우스
국적
그마
바리
▁강진
▁나뭇
▁당뇨
▁슈타
▁용품
▁평안도
▁프로모
ublic
▁뮐
헤드
▁대진
▁라가
▁스투
▁유포
▁이범
▁수차례
▁중앙은행
▁가부
▁대차
▁동종
▁운임
▁취해
▁향기
민스터
▁로빈슨
▁지바현
▁펠리페
▁1888
▁Su
▁리차
▁산수
▁소용
▁재발
▁철강
▁피사
▁수나라
▁조선왕
▁박테리아
▁IV
▁견디
▁사커
▁스킴
▁애초
▁울릉
▁웃음
▁제창
▁페오
유사
▁제철
▁카야
▁하이퍼
▁허드슨
▁1892
▁네모
▁배기
▁청송
▁다이빙
▁로이드
▁이바라
▁노스캐롤라이나
둘기
▁닉슨
▁명부
▁장래
▁재앙
▁경계선
▁사간원
▁세네갈
▁쇠고기
▁CG
▁Sw
▁무르
▁소동
▁시우
▁주먹
▁터지
▁Car
▁덧붙였
▁세비야
▁케이트
AI
▁공법
▁납부
▁데미
▁메틸
▁유무
연수
▁백자
▁아와
▁원유
▁활동가
▁우에스기
▁푹
티노
홍색
▁고스
▁마요
▁붕어
▁사변
▁사키
▁하구
▁애덤스
▁절도사
AE
▁ar
▁강성
▁공시
▁모던
▁순례
▁시문
▁어의
▁옥타
▁입헌
▁관현악
▁소학교
▁굶
▁과연
▁과잉
▁새뮤
▁펠트
로니아
▁스탠드
▁차세대
▁낙양
▁면모
▁온건
▁위계
▁레이디
▁뱃
철수
▁맥아
▁반주
▁이봉
미디어
▁공방전
▁대명사
▁대전차
▁산스크
▁산스크리트
▁펩
사태
암리
▁미식
▁일진
▁자립
▁코사
▁고려사
▁논리학
▁다카라
▁대공국
▁더블린
▁스테판
▁앤서니
▁알렉산드로스
▁씻
네트
▁농축
▁미미
▁세레
▁자코
▁직계
▁하임
▁해병
▁아브라
▁지리학
▁1876
자동
▁IR
▁계량
▁니켈
▁산청
▁문자열
▁사절단
▁후원자
▁프린스턴
▁대금
▁으리
▁도르트
▁볼로냐
▁성매매
▁데스크톱
▁겟
▁펫
보리
클라
▁당황
▁죄수
▁중고
▁북조선
▁올리버
▁전주시
▁카운트
ah
▁생모
▁선양
▁USB
▁사단장
▁wh
▁댓글
▁두각
▁이산
▁채색
▁아무리
▁집행유예
▁프레임워크
로쿠
▁거룩
▁단조
▁로브
▁부양
▁손녀
▁수력
▁수하
▁정진
▁조개
▁통폐
▁풍습
▁Gre
▁브래드
▁1866
▁페르난도
▁베이시스트
▁간혹
▁깃털
▁발의
▁완도
▁축성
▁토이
리카락
▁보좌관
▁1886
▁머리카락
▁가면라이더
▁덱
▁물류
▁복싱
▁알폰
▁에반
▁이호
▁전권
▁포탄
▁260
▁덩어리
광성
▁부류
▁송환
▁약점
▁유능
▁카레
▁퍼졌
▁서기관
▁으려는
▁프란치스코
네임
▁군관
▁라드
▁아디
▁조현
▁파파
르타뉴
▁게시판
▁장제스
▁베네딕토
▁브르타뉴
너드
뮬러
코르
▁나름
▁너스
▁번갈
▁앨리
▁조소
▁교구장
▁생리학
▁조나라
▁인플레이션
▁꽂
▁거스
▁도성
▁베일
▁엘런
▁저우
▁즐거
▁스테인
▁Tour
EST
▁이니
▁합천
▁270
▁구스타프
분열
▁co
▁마린
▁바시
▁박수
▁본체
▁얼룩
▁접해
▁펀드
▁바이어
▁코소보
▁웨스트민스터
라호
▁몰랐
▁신진
▁필하
▁독립군
▁베이비
▁이즈미
▁페미니
▁해결책
▁돌아다니
▁드미트리
▁구르
▁무수
▁서예
▁원상
▁유다
▁강서구
▁민영화
꿈치
레시
▁긴키
▁배척
▁임계
▁초전
▁파커
▁행방
▁새뮤얼
▁통폐합
큐어
▁거칠
▁도약
▁악곡
▁제르
▁역사학
▁용의자
▁마르쿠스
▁카르타고
쓰기
ron
▁도하
▁출혈
▁현과
▁간사이
▁서포터
▁주니치
▁1887
▁모차르트
우회
직경
▁경무
▁마나
▁빅뱅
▁산물
▁중개
▁지면
▁퇴위
▁경영학
▁바람직
▁보살상
▁삼각주
짜기
▁KB
▁ML
▁광선
▁위패
▁음운
▁타구
▁프루
▁금나라
▁시직경
▁이어주
▁장난감
▁1861
▁프리미엄
▁펭
▁도제
▁박자
▁배운
▁아자
▁여타
▁포츠
▁피어
land
▁사쓰마
▁브리티시
슈타
▁급히
▁놓이
▁동창
▁레트
▁습득
▁오지
▁유전학
▁집정관
▁축구팀
▁화요일
▁가로지르
ave
▁비지
▁슬램
▁근거지
▁Dream
19
왕후
ble
▁라니
▁성기
▁에두
▁위시
▁지아
▁페스
▁클레멘스
하임
▁Up
▁갖춰
▁고창
▁마구
▁오산
▁유머
▁편안
▁Wii
른베르크
▁재단법인
▁지나간다
▁싹
제비
▁가닥
▁무자
▁자궁
▁펠로
▁달아나
▁장애물
▁도미니카
▁볼티모어
▁세분
▁코호
▁특기
▁홈경기
▁Life
동자
비안
▁SV
▁몰두
▁여건
▁해냈
▁알아내
▁1864
▁it
▁버크
▁부름
▁올레
▁정예
▁직사
▁천지
▁형용
▁환관
▁단거리
▁부분군
코타
▁라시
▁유타
▁죽임
DA
▁돗
▁뭐
ult
▁레버
▁외환
▁익명
▁촛불
▁포화
▁당선자
▁다행
▁오대
▁자릿
▁뛰어넘
▁황해도
▁만점
▁불분
▁사내
▁파직
▁신세계
▁코스트
▁후세인
▁나마
▁만날
▁모국
▁모닝
▁양현
▁완결
▁깁
▁교지
▁기밀
▁내포
▁수이
▁바로크
▁1850
▁석가모니
열차
▁왕관
▁장전
▁전과
솔리니
▁공연장
▁데이빗
린트
▁RT
▁발톱
▁세무
▁오메
▁네티즌
▁보안법
▁음악원
▁좌표계
▁프랑코
▁스트리밍
예술
▁SH
▁경건
▁뒤늦
▁섞여
▁재결
▁증세
▁개정안
▁백악기
▁재판부
▁카이로
즐리
콘신
▁구문
▁리트
▁스모
▁승단
▁혼혈
▁홍성
▁내보내
▁위스콘신
디슨
▁복위
▁실각
▁예의
▁잔디
▁치우
▁토목
▁가해자
▁노동력
▁모나코
▁TC
▁근래
▁이력
▁홈즈
▁두려워하
▁다카라즈카
▁눈치
▁홀딩
▁인해서
ition
▁남베트남
▁렙
니오
▁평탄
▁히토
▁도라에몽
ational
orm
▁라라
▁암모
▁응하
▁접합
▁보너스
▁주나라
▁토트넘
▁마을버스
플린
▁객원
▁공판
▁쓰루
▁열려
▁오일
▁처해
▁허블
라호마
▁재판관
▁컨텐츠
▁Music
▁오클라호마
▁계보
▁관내
▁군세
▁승지
▁왕성
▁추존
▁평했
▁사나이
▁생성물
▁1881
EP
▁쑨
▁쥘
▁AG
▁헌납
▁흘리
바도르
▁아카이
▁1830
▁헤라클레스
브웨
ton
▁강세
▁구례
▁도산
▁워킹
▁이별
▁쿼크
▁푸아
▁참의원
▁행정동
▁루스벨트
▁리에
▁전리
▁조심
▁짐바
▁패권
▁유니버스
▁매진
▁방공
▁백업
▁삼척
▁알맞
▁잠실
▁침대
▁황자
▁미네소타
▁크리에이
다오
▁en
▁if
▁말단
▁민물
▁선율
▁요괴
▁정황
▁끝난다
▁대표단
▁압록강
▁요금소
▁날카로운
▁남송
▁남조
▁산기
▁재벌
▁차수
▁카와
▁필연
▁관련자
▁대교구
▁무작위
두르
▁구획
▁기통
▁승하
▁아타
▁여학생
▁트레이닝
▁DR
▁괘불
▁모신
▁목욕
▁배트
▁판관
▁갔으며
▁합창단
▁복직
▁세간
▁자판
▁로맨틱
▁야구단
▁외무부
▁1872
▁낭만주의
▁컴파일러
렌스
▁경도
▁러닝
▁마티
▁생도
▁소라
▁전교
▁태우
▁해석학
▁화성시
뛰기
화경
▁Ed
▁경매
▁관용
▁닛산
▁다비
▁동차
▁벌레
▁뷰티
▁스윙
▁아다
▁아편
▁오우
▁종업
▁현미
ject
▁까마귀
▁반대파
▁대한항공
▁오스트리
▁발자
▁발포
▁스몰
▁신봉
▁조경
▁흑백
▁마르셀
라이어티
아메리카
▁버라이어티
타입
평리
▁XP
▁대강
▁별장
▁이누
▁익산
▁코난
▁iOS
▁도망치
▁부르주아
▁등등
▁미상
▁뽑혔
▁스기
▁죽여
▁콘티
▁로니
▁묻혀
▁삭스
▁지경
▁쿠로
▁투하
▁파기
▁파주
▁헤일
▁감리교
▁불분명
▁이메일
러진
▁기고
▁레비
▁시원
▁용사
▁다비드
▁세르게이
▁이시카와
께끼
ION
▁금고
▁베풀
▁부전
▁양면
▁의례
▁파열
▁750
▁선제골
▁피닉스
▁수수께끼
덕왕
▁교제
▁루나
▁여호
▁팔작
▁헤어
▁다시금
▁무솔리니
리야
림사
비오
▁an
▁고모
▁김희
▁당진
▁매스
▁야망
▁종묘
▁중랑
▁트란
▁햇빛
슬라프
▁라치오
▁롬바르
▁범죄자
▁전해졌
▁Open
▁엡
바인
▁꼬마
▁두어
▁배아
▁상한
▁애슬
▁열릴
▁원동
▁이례
▁진흙
▁친밀
브리드
태평양
▁난이도
▁도르트문트
나파
루크
▁교동
▁레아
▁애완
▁이은
▁청문
▁켄터
▁농어촌
▁라이스
▁화학자
▁대중교통
▁유라시아
달마
쿠니
▁BL
▁몸돌
▁승상
▁양조
▁어우
▁주고
▁Don
▁기획사
▁모멘트
느리
번에
클럽
▁당과
▁미칠
▁배향
▁복역
▁앞세
▁캐피
▁걸린다
▁아이콘
▁te
▁그란
▁반죽
▁변종
▁브렌
▁샤이
▁음주
▁인위
▁센다이
▁하얀색
▁부다페스트
▁Ab
▁경량
▁단국
▁도봉
▁섬기
▁의용
▁페라
▁개체군
▁였음을
▁청년회
▁초록색
▁호크스
데자
ics
▁리브
▁조시
▁취향
▁타임즈
데자네이
▁1865
▁하이브리드
▁쵸
더지
리드
▁Sm
▁구슬
▁닌자
▁모란
▁발산
▁사나
▁살짝
▁순항
▁왓슨
▁탄산
▁허목
리아스
▁격투기
▁승용차
▁유전체
ru
▁넥센
▁머무
▁부실
▁인제
▁장쑤
▁통지
변속기
올로기
▁파충류
▁1863
▁이데올로기
▁감추
▁엘라
▁열렬
▁일지
▁작년
▁계승자
▁세군다
▁폼페이
매김
ier
▁가두
▁가든
▁대의
▁맡겼
▁보정
▁슈고
▁오트
▁휩싸
▁경복궁
▁그나마
▁박영효
▁탐험가
워즈
▁가독
▁거꾸
▁옹주
▁티모
▁무언가
▁밀가루
▁시간대
▁이뤄진
▁작품상
리쿠
지로
▁과다
▁납작
▁내재
▁뒤따
▁입시
▁토로
▁한창
▁항아리
▁1873
▁"-
▁AL
▁병단
▁비싼
▁처방
▁충당
▁피카
▁안산시
▁챌린저
▁반항
▁봉황
▁조공
▁편제
▁피셔
▁고성군
▁승정원
단위
▁덴쇼
▁조장
▁코마
▁우간다
▁1891
▁Good
▁HTML
▁교통사고
▁오카야마
데자네이루
▁Night
▁리우데자네이루
▁대목
▁박진
▁잡히
▁직관
▁클릭
▁킹스
▁탐정
▁포대
▁발기인
▁아닌가
▁제프리
▁공군기지
▁자리매김
친왕
ool
▁가비
▁고난
▁볼넷
▁유니언
▁걸작
▁경지
▁곡면
▁메츠
▁부추
▁야심
▁요즘
▁정명
▁진이
▁태아
▁계좌
▁곱셈
▁어선
▁어촌
▁착취
▁공식전
▁공통점
▁앤드류
▁베스트셀러
▁샵
거나
훈장
▁경마
▁굴복
▁란스
▁루즈
▁머니
▁모함
▁신대
▁이야
▁재고
▁페인
▁아이디얼
▁괜
미쓰
참찬
쿠르
▁법전
▁입술
▁철종
▁촉발
▁해킹
▁두꺼운
▁따라가
▁조선소
▁켄터키
▁구강
▁미인
▁반점
▁픽셀
▁ret
▁국민회
▁발가락
▁여진족
▁시진
▁완비
▁자켓
▁와이드
▁짐바브웨
TE
UC
▁꿰
타스
ise
▁--
▁과격
▁여대
▁카슈
이스케
▁벗어난
▁수시로
▁세계유산
바지
che
▁쇼크
▁적발
▁필두
▁후미
▁제너럴
▁두드러지
QL
▁나탈
▁상파
▁위법
▁다국적
▁받침돌
▁자유형
▁테무르
▁극찬
▁단자
▁마모
▁세단
▁튼튼
▁합금
▁가리켜
▁포항시
ai
▁NS
▁계엄
▁도도
▁리자
▁매립
▁분경
▁불로
▁유태
▁최장
▁코뮌
▁혈압
플렉스
▁IMF
▁몰도바
▁시티즌
▁PM
▁국호
▁라크
▁매도
▁소작
▁외상
▁용감
▁주저
부아르
stem
▁노르드
▁릴레이
▁백악관
▁종업원
▁온타리오주
NG
동맹
▁당당
▁더러
▁등단
▁리키
레타리아
▁프롤레타리아
레반
무제
▁구시
▁신의
▁오즈
▁키즈
▁Can
ode
▁MA
▁병과
▁원한
▁체내
▁해시
▁캐스트
▁야쿠르트
▁Black
▁콧
성경
▁나빠
▁무고
▁성가
▁에치
▁연행
▁하스
▁거꾸로
▁다마스
▁하반기
▁무로마치
▁팔작지붕
세다
▁간판
▁교서
▁노란
▁베라
▁산책
▁앞둔
▁연화
▁을사
▁헌병
▁현무
합중국
▁슬로건
▁믈
상어
으면
킨슨
▁네임
▁서위
▁서지
▁양궁
▁양양
▁조준
▁650
▁김성수
▁크루즈
▁트로트
70
▁샴
▁파랑
ower
▁연주회
▁씬
▁기운
▁증강
▁증발
▁채굴
▁커졌
선거구
▁반정부
▁용산구
▁지자체
▁삼국유사
▁스테이트
▁이바라키
▁페르디난트
▁버펄
▁황폐
▁조선왕조
▁피츠버그
▁강호
▁광배
▁농성
▁다닌
▁앵커
▁우마
▁이강
▁550
▁section
▁qu
▁문정
▁부에
▁연달
▁전멸
▁진원
▁토록
▁토유
▁취리히
▁1867
▁국부
▁터빈
▁패해
타나베
▁705
▁Let
▁미카엘
▁아비달마
▁심정
▁아델
▁진언
▁타도
▁갈라져
▁거쳐서
▁스코어
▁앨버트
▁자외선
▁1862
단지
티야
ank
▁군자
▁대담
▁독주
▁무도
▁사교
▁송진
▁열쇠
▁캐논
▁q
고르
대전
진구
펠러
▁El
▁들리
▁사하
▁산신
▁접전
스코트
▁숨겨진
▁스테이
▁AI
▁MM
▁경은
▁국력
▁모반
▁조어
▁현도
▁활자
▁경희대
▁광업
▁예종
드라마
▁미친다
▁엑스포
▁아오모리
▁이노우에
▁코호몰로지
▁광자
▁사드
▁엇갈
▁조서
▁투신
▁노르만
▁언론사
해살이풀
▁미합중국
▁라이프치히
▁챈
방군
정사
활약
▁루피
▁북벌
▁스킬
▁오름
▁위헌
▁잔존
▁저축
ings
▁손잡이
▁알폰소
곡면
포타
▁수퍼
▁처장
▁흡연
▁MSL
▁갈라지
▁움직일
▁다이노스
렐라
▁AU
▁간결
▁에겐
▁이선
▁체하
▁맹활약
▁증조부
▁프로모션
▁Ac
▁걸프
▁도발
▁서한
▁완수
▁용해
▁유구
▁증식
▁지탱
세우스
▁변광성
▁타이탄
중추부사
▁국민학교
▁썩
조리
▁꺼내
▁노브
▁양군
▁코모
▁표절
▁가르쳐
▁연출가
▁페드로
포타미아
▁6000
▁사이타마현
▁메소포타미아
DS
▁됩
▁던졌
▁상선
▁오보
▁장신
▁지그
▁낡
▁LS
▁변증
▁보직
▁옥시
▁유망
▁임하
절도사
▁건륭제
▁캣
비언
▁UC
▁기묘
▁논하
▁변모
▁새겼
▁성수
▁처한
▁횡령
▁레인저
▁사무국
▁사보이
인구
lar
▁번개
▁캐치
▁신한은행
센터
▁꽃잎
▁꾸며
▁신해
▁쿠라
▁티저
▁푸드
▁해지
▁-&
▁온두
▁유림
▁자행
▁조석
▁키릴
▁감염증
▁대리석
▁편집장
▁온두라스
▁궐
북면
위치
▁고찰
▁나사
▁충칭
▁키로
▁기원후
▁라면서
▁신기록
▁일본식
▁저지른
▁출입문
▁행해졌
디언
사화
▁구부
▁그럴
▁무사히
▁1878
▁고등학생
▁미나모토노
▁비스마르크
ky
▁동자
▁세토
▁엘레
▁작중
▁절약
▁참패
▁하중
▁치료제
▁협동조합
tr
젤로
▁건널
▁버진
▁직교
▁차림
▁취할
▁표출
▁회유
rist
▁웨이브
▁자릿수
▁타타르
▁팍
퉁이
할린
▁내란
▁동탁
▁스톰
▁아지
▁줄일
▁경쟁자
▁제조사
▁프로테
▁밋
▁당파
▁완만
▁지린
▁충신
▁행군
▁Ser
▁마그네
▁부여군
▁컴파일
ta
구나
▁Qu
▁떠날
▁시역
▁자부
▁정박
▁필명
▁주고받
▁백과사전
ee
끄러
▁가극
▁국인
▁급성
▁옥천
▁적정
▁중용
▁후드
▁히노
hem
▁바쿠
▁보류
▁시르
▁청각
▁HMS
▁사대부
▁입법부
▁프리츠
▁해부학
빌리
일치
▁Ag
▁벵골
▁봉하
▁생길
▁손님
▁이끼
▁점진
플로러
▁외교부
▁홀딩스
▁익스플로러
산부
시게
▁고국
▁괄호
▁구아
▁다량
▁라다
▁서거
▁영사
▁지체
▁현악
시아드
▁And
▁불가피
▁이성질
▁인지도
▁플러그
내티
▁길드
▁부군
▁수당
▁일설
▁잉크
▁저해
▁직물
▁참수
▁토라
▁뉴기니
▁유엔군
▁스케이트
▁신시내티
▁유니버시아드
▁삐
▁킷
니티
▁북대
▁스에
▁일선
▁폴라
▁행보
▁802
▁액세스
▁영유권
▁이브스
▁1869
▁프라이즈
▁일리노이주
▁팻
▁매슈
▁서점
▁솔라
▁수급
▁수레
▁유화
▁지문
▁집어
뉴기니
▁수비대
▁특별법
사우루스
▁글로브상
▁요리토모
▁밧
다발
루엔
▁과자
▁길러
▁버티
▁잔해
▁피처
▁골짜기
▁베르나
▁제작진
▁플루토
▁핵분열
▁후지와라
마디
벤션
▁SO
▁개기
▁넘겼
▁부두
▁상의
▁애기
▁다가오
▁봉우리
▁업로드
▁줄어든
뜨려
▁tr
▁객실
▁근방
▁기조
▁대타
▁몸체
▁소피
▁아뢰
▁육식
▁이목
▁팔린
▁마포구
▁변한다
▁사생활
▁와세다
▁와타나베
▁코퍼레이션
정보
▁가방
▁강우
▁박원
▁방위군
▁쿠르드
누마
질렀
▁용수
▁추후
▁됩니다
▁며느리
▁아이젠
▁포뮬러
▁스파이더
▁프랑스와
▁모티
▁민심
▁저그
▁헤더
▁내세웠
▁수도회
▁페르미
셔주
▁내림
▁자정
▁칭했
▁포천
▁원자핵
▁Song
▁아우구스
ae
▁로시
▁면직
▁부풀
▁시시
▁토키
가르트
▁1840
▁낯
▁다목
▁포탑
▁하라
▁형주
스타인
▁기동전
▁1592
▁키르기스
노르
▁글렌
▁멋진
▁무비
▁무색
▁반입
▁변질
▁자처
▁텍스
▁패킷
▁강력히
▁사라져
▁명성황후
▁린다
▁목동
▁성품
▁오자
▁축일
▁치사
▁콜드
▁연예계
▁오스카
▁장로회
▁프라임
▁데카르트
▁친선경기
▁탬
르바
▁고을
▁귀인
▁부관
▁숙소
▁절친
▁항생
▁516
▁바닷물
▁밝혀져
▁안동시
▁팔꿈치
▁PL
▁그랬
▁그물
▁금색
▁냐고
▁다닐
▁단서
▁벤츠
▁소박
▁수증
▁위도
▁생화학
▁둠
▁벳
암사
▁AA
▁가곡
▁단역
▁빈민
▁사귀
▁사소
▁컴필
ount
▁운동량
▁인코딩
▁매킨토시
▁사이언스
▁컴필레이션
▁끔
▁겨루
▁사부
▁위즈
▁입히
▁헤겔
▁금강산
▁목적지
▁파시스트
자원
티컷
▁거사
▁괜찮
▁논산
▁자취
▁출국
▁포자
▁도망쳤
▁로타르
▁부등식
▁여객기
▁운전자
▁유년기
▁코네티컷
▁크리스티나
수염
찬성
▁RC
▁넘버
▁분별
▁상식
▁최하
▁풀리
▁지하역
pr
구스
▁국세
▁렉스
▁영미
▁처치
▁추축
▁쿼터
▁하수
▁Mon
▁맥아더
작전
ade
per
▁공상
▁날려
▁빅터
▁수만
▁인승
▁자루
▁튜브
▁패망
▁채권자
▁패스트
▁로드리게스
▁랙
▁내려와
▁네이트
▁예언자
▁레지스터
▁마스코트
▁아나키스트
ata
▁고제
▁마레
▁병풍
▁악명
▁암수
▁영수
▁이거
▁천상
▁캐슬
▁휘발
▁끌어올
▁힐베르트
▁Heart
▁아나톨리아
▁닉스
▁다쓰
▁아어
▁어사
▁펼친
▁과반수
▁시니어
▁파주시
▁여우원숭이
블릿
▁거창
▁블러
▁양파
▁유자
▁구단주
▁머물러
크라테스
▁심리학자
▁me
▁농가
▁디나
▁자질
▁댈러스
▁에이전트
▁볶
효소
▁Pe
▁강인
▁능가
▁반론
▁성대
▁유이
▁출세
▁글러브
▁창립자
▁찾아와
▁return
▁KN
▁ab
▁규율
▁란트
▁루도
▁백조
▁삭감
▁심소
▁아쉬
▁염화
▁중견
▁청취
▁세미나
▁스트림
▁정해져
▁준다는
▁차가운
▁필사본
▁지장보살
90
세르
히메
▁DB
▁Gl
▁계룡
▁국화
▁늘려
▁발착
▁에트
▁오도
▁유골
▁입출
▁관심사
▁적십자
▁종착역
▁테크놀
▁히타치
▁8000
선언
전선
테랑
▁겸직
▁문중
▁시찰
▁실상
▁연해
▁워스
▁초음
▁탁구
▁흥원
이치로
▁나치오
▁내세워
▁떨어진다
히데
ium
▁미학
▁사주
▁쌍성
▁의주
▁이카
▁지요
▁비둘기
▁Windows
▁펜실베이니아주
수단
▁변혁
▁스택
▁이심
▁임종
▁직렬
▁친한
▁페레
▁지질학
▁고등교육
▁와카야마
▁권익
▁김연
▁라프
▁상과
▁온실
▁왜군
▁피살
▁담당자
▁보유자
▁크메르
▁남아시아
▁영등포구
▁세인트루이스
▁여포
▁오시
▁퀴즈
▁어도비
▁올라오
▁지나친
▁한다며
▁그린란드
IX
던트
조사
▁기행
▁바보
▁바인
▁베오
▁사와
▁설리
▁연중
▁외면
▁질투
▁안창호
▁피의자
▁1875
IF
▁As
▁걸음
▁뉴런
▁니케
▁몹시
▁윤휴
▁은밀
▁의복
▁정오
▁침식
▁호그
▁치료법
▁토요타
구니
넌트
욕장
▁Aw
▁다룰
▁디바
▁막강
▁볼록
▁불려
▁숙련
▁잠입
▁예비역
놀드
링겐
테이
▁에리
▁외척
▁조비
▁호른
▁시미즈
▁진주시
▁헤르만
계사
로움
▁동호
▁변해
▁열세
▁위크
▁Out
▁집단군
▁풀려났
▁강습
▁교훈
▁면담
▁사각
▁상동
▁착각
▁친화
▁컵스
▁키드
▁키리
▁해트
▁모자이크
날레
보당
▁교파
▁미지
▁오마
▁유카
▁준동
▁콜린
▁KTX
▁고문서
▁나리타
▁노현
▁불복
▁웍스
▁출품
▁Gen
▁강대국
▁보리스
▁이와테
▁알프레드
▁뉘른베르크
▁랠
기즈
▁기린
▁독살
▁방울
▁어부
▁예프
▁타나
▁폐허
▁혼잡
세데스
▁이랜드
▁학술지
▁회고록
▁근본번뇌
기아
탄두
▁도적
▁비키
▁이길
▁인먼
▁표제
▁게임기
▁사이즈
▁종사자
▁친환경
▁표트르
▁메르세데스
▁문체
▁슈투
▁여럿
▁원단
▁의정
▁일명
▁징집
▁철자
▁일부러
사유
이에
son
▁VS
▁노원
▁선상
▁야수
▁최남
▁취직
레이트
▁클리어
▁페널티킥
itt
▁김두
▁로사
▁목장
▁생원
▁셔틀
▁순식
▁한민
▁리스본
▁남양주시
▁sh
▁용지
▁절충
▁첩보
▁터너
▁380
▁컨벤션
▁안드로메다
BI
날드
세서
▁기한
▁다자
▁서약
▁월화
▁텐서
에이고
▁AMD
▁데이트
▁돌고래
▁매디슨
▁함경도
▁샌디에이고
▁달콤
▁리크
▁에레
▁율법
▁의성
▁이희
▁집전
▁차명
록대부
▁송파구
▁테오도
▁통도사
▁땀
▁니까
▁성행
▁실명
▁아노
▁태안
▁성폭행
▁스케치
▁스피커
▁칭기즈
▁타일러
▁몽고메리
▁병자호란
▁브란덴부르크
▁뵈
▁날리
▁로큰
▁특공
▁강희제
▁돌아갈
▁아세틸
▁통신망
▁파라오
PA
방향
ale
▁TS
▁문관
▁버트
▁비료
▁싫어
▁쏟아
▁예식
▁왕래
▁활기
▁북극점
▁쇼핑몰
▁이사벨
▁장갑차
▁중앙선
▁채무자
▁클레어
▁항공대
더링
어류
▁격하
▁금정
▁기판
▁단양
▁선체
▁안중
▁일차
▁타쿠
▁획기
able
▁레스터
▁베르트
▁부적절
▁신석기
▁크라운
▁포르투갈어
은사
▁바늘
▁배반
▁상반기
▁슈타인
▁코트디
▁코트디부아르
▁싯
알라
엽수
▁극소
▁생쥐
▁정언
▁체로
▁환율
▁가환환
▁광둥성
▁다이쇼
▁로큰롤
부대
▁KO
▁결전
▁구루
▁레몬
▁명상
▁슬리
▁양지
▁영락
▁원효
해방군
▁꽃차례
▁달린다
▁연속극
▁프론트
▁쇼트트랙
▁바빌로니아
▁인민해방군
ng
세키
윽고
▁동거
▁서당
▁세일
▁술라
▁칸트
▁포인
▁로버츠
▁야마다
▁이윽고
▁파스칼
▁가세
▁교관
▁라울
▁실렸
▁야권
▁"()
▁아리랑
▁저널리스트
UN
두사
르카
몽골
시대
▁교화
▁기공
▁이질
▁장정
▁중일
▁출격
▁되풀이
▁바나나
▁벙
▁구세
▁기마
▁박재
▁방호
▁수역
▁스펜
▁실은
▁안식
▁안톤
▁애착
▁비단털
▁최성기
▁펼쳐져
▁오프라인
촌리
▁거머
▁경의
▁구타
▁로바
▁모체
▁모피
▁보우
▁엔젤
▁지치
▁찌르
루엔자
▁Par
▁됐으나
▁보호법
스코리아
▁비단털쥐
▁보컬리스트
박사
▁가모
▁수마
▁수은
▁염두
▁자장
▁치킨
▁케리
▁헤센
▁반감기
▁순식간
데기
우주
▁가명
▁문수
▁배워
▁샤르
▁잉카
▁대항전
▁정치국
▁흔들리
▁WC
▁골라
▁기미
▁나쁘
▁래리
▁보그
▁열악
▁위트
▁정에
▁205
▁맥스웰
▁선거인
▁썼으며
▁University
▁금환
▁노라
▁망치
▁모사
▁에코
▁이룰
▁이홍
▁708
▁개그맨
▁데뷔작
▁사학자
▁관음보살
▁텅
보내
연구
행파
▁묶여
▁배당
▁서클
▁아끼
▁향신
▁후루
very
▁터뜨리
▁합성어
▁형용사
▁라이베리아
▁탭
▁경순
▁대류
▁동군
▁무능
▁실사
▁야코
▁NBC
▁Vol
▁스케줄
건설
▁규약
▁재화
▁정칙
▁ATC
▁보조금
▁아우구스투스
▁At
▁경종
▁월남
▁빼앗기
▁사할린
▁콘라트
▁통계청
양이
▁cc
▁라벨
▁미첼
▁복부
▁시의
▁안심
▁안팎
▁외손
▁집사
▁한겨
▁해질
▁슈미트
▁못했으며
르산
쿠사
▁거시
▁데일
▁베티
▁불쾌
▁불태
▁외할
▁조봉
▁타시
▁캐스터
▁테두리
▁엑스박스
▁인플루엔자
▁잼
▁GR
▁군복
▁등산
▁뮐러
▁박용
▁양서
▁올릴
▁치마
▁김해시
▁물려주
▁조선공산당
▁JC
▁빨라
▁상계
▁서안
▁싱크
▁아연
▁안기
▁양극
▁235
▁가이아
▁name
▁로베르토
▁맴
라르
anc
▁남단
▁신병
▁웨어
▁자위
▁재보
▁정글
▁족장
▁초계
▁칼륨
▁토피
▁후이
▁다녀왔
▁시마즈
▁썰
루즈
모음
보라
주크
▁가뭄
▁나기
▁맡겨
▁비옥
▁손목
▁실효
▁외삼
▁차오
▁DOS
▁스케일
▁호흡기
▁가졌으며
▁그레이엄
화당
net
ody
▁골절
▁균일
▁에노
▁자키
▁줄곧
▁축복
▁포니
▁풀백
▁호로
폴리탄
▁tvN
▁안양시
▁오르간
▁메트로폴리탄
▁뜰
▁퀄
사와
황색
IVE
▁고층
▁노카
▁마흐
▁베크
▁세스
▁솜씨
▁이달
▁젠더
▁키트
▁패치
▁하산
▁화승
▁반대편
▁자격증
▁전해져
▁뤄
▁기스
▁놓치
▁라지
▁사미
▁석기
▁창구
▁쳐서
▁리차드
▁지하철역
▁셴
열대
▁경화
▁나한
▁리나
▁바니
▁유충
▁잔혹
▁정승
▁코바
▁통솔
▁화원
▁간호사
▁남극점
▁동아리
▁사무관
▁서스펜
▁손꼽히
▁열역학
▁조각상
▁1874
▁This
▁우두머리
벌리
▁결말
▁버니
▁병렬
▁싸울
▁안겨
▁일간
▁일삼
▁카로
▁확충
▁교육감
▁카디널
▁한겨레
▁브로드웨이
에쓰
▁가온
▁시제
▁잔여
▁쫓아
▁침범
▁로페스
▁신호장
▁해준다
▁가로질러
▁일렉트릭
18
so
큐슈
▁무가
▁부엌
▁소양
▁요직
▁종가
▁키타
진보당
▁거주자
▁당뇨병
▁시달렸
▁알렉산데르
악산
ATO
▁내릴
▁발판
▁소론
▁양평
▁코로
▁향수
▁조각가
▁천도교
▁미스코리아
▁낭비
▁뉴멕
▁마늘
▁석권
▁악당
▁은폐
▁일주
▁품목
▁협곡
▁라스트
▁시그마
▁재미있
▁뉴멕시코
▁슈퍼스타
▁중앙아메리카
▁파푸아뉴기니
▁동백
▁리시
▁몰수
▁숙박
▁잉여
▁칠성
▁공주시
▁무지개
▁오아시스
▁컨퍼런스
텐셜
▁떨쳤
▁리타
▁무예
▁볼드
▁빌드
▁산조
▁중남
▁한복
▁홍익
스크림
▁가요제
▁책임지
▁바그다드
▁스틸러스
▁유가행파
▁콘퍼런스
시험
신저
▁다쿠
▁발작
▁산문
▁이색
▁재회
야누스
▁성폭력
▁저스틴
▁호소카와
ala
▁강국
▁맞물
올리언
▁아놀드
▁트레일
▁항공편
프랑
▁sp
▁끼친
▁레나
▁메모
▁받치
▁싸운
▁코크
▁판명
▁하지
▁204
▁동남쪽
▁청문회
▁퍼텐셜
▁트라야누스
징어
▁나일
▁넷플
▁라플
▁쓰일
▁읍성
▁인스
▁조동
▁쿠마
▁셀주크
▁올라와
▁클로드
▁넷플릭스
▁벚
▁강좌
▁격전
▁델리
▁묘호
▁미겔
▁인성
▁주군
▁학당
▁대수학
▁에스컬
▁휴대폰
▁1877
▁바이마르
▁에스컬레이터
me
▁띈
▁되살
▁사중
▁송이
▁앨라
▁옥사
▁캠벨
▁행선
▁Bab
▁게임즈
▁아우르
▁앞바다
▁지리산
▁핸드볼
▁후쿠이
▁콜럼버스
▁SR
▁YG
▁감축
▁공문
▁모치
▁법규
▁우니
▁이문
▁클랜
▁화염
▁참전하
▁뉴올리언
ax
co
소문
▁AE
▁단발
▁복속
▁선단
▁에페
▁프레슬리
▁서아프리카
더릭
비에
▁너희
▁도형
▁민원
▁앞뒤
▁애드
▁예금
▁출사
▁퇴진
▁화음
▁루이즈
▁물러난
▁여운형
▁중거리
▁포식자
▁허베이
▁7000
au
yn
▁곤살
▁북측
▁엄지
▁예멘
▁지크
▁교육학
▁사하라
▁Best
▁쿰
▁탔
민당
운수
▁처마
▁Her
▁대사간
▁수백만
▁원주시
▁한국군
범죄
▁AF
▁아킬
▁양천
▁전조
▁지령
▁총영
▁탄수
▁CIA
▁비잔틴
▁컨설팅
▁멀티미디어
▁켜
ash
oid
▁고승
▁돌렸
▁무주
▁본존
▁블랑
▁승낙
▁의제
▁재물
▁추운
▁518
▁공학자
▁스타드
▁콘티넨
▁갈릴레오
▁레닌주의
GB
▁툼
계약
네르
▁김우
▁나투
▁두뇌
▁소인
▁에볼
▁요가
▁APG
▁오릭스
바드
혈구
▁결장
▁경내
▁바야
▁바투
▁밸브
▁산체
▁순찰
▁시발
▁우표
▁제지
▁토바
▁브리스
▁외계인
▁클러스터
ps
▁얄
뜨린
양구
일기
ose
▁로망
▁바쳐
▁박찬
▁상환
▁추계
▁1859
변수
ict
▁et
▁도읍
▁방학
▁소주
▁인계
▁카일
▁코린
▁하층
▁부르봉
▁연방군
▁콜린스
▁1700
▁만장일치
▁사무라이
22
▁곡식
▁변론
▁사연
▁소르
▁숙명
▁승률
▁억울
▁원사
▁유창
▁통찰
▁강화군
▁Hell
▁갑작스럽
▁다카하시
▁플루토늄
▁했으므로
HC
장사
피크
▁대입
▁라임
▁문물
▁스펙
▁오구
▁앙드레
▁캄파니아
14
의식
▁도안
▁뒤덮
▁맹렬
▁완장
▁경부선
▁곧이어
▁엘비스
▁뜬
▁켐
제철
▁가선
▁경합
▁관아
▁문맥
▁오니
▁자성
▁퇴치
▁후회
▁가져가
▁현미경
▁메모리얼
▁과세
▁뚜껑
▁레크
▁보어
▁불릴
▁사병
▁산재
▁상감
▁이씨
▁난쟁이
▁루카스
▁이주민
▁클레오
▁스테파노
▁랏
남면
다보
무장
토크
▁결여
▁미켈
▁비싸
▁제비
▁타선
▁625
▁게이밍
▁전시관
▁챠
배마
▁KS
▁se
▁구가
▁니즈
▁두르
▁서품
▁스플
▁중건
▁라이센스
▁앨라배마
▁샷
▁us
▁도부
▁만류
▁미트
▁서체
▁선과
▁여정
▁요도
▁원문
▁개화파
▁억제제
▁오리엔
▁울트라
▁혼합물
▁프리큐어
▁짚
형제
▁네브
▁매기
▁블룸
▁투사
▁펭귄
▁플랑
▁길거리
▁사다리
▁아키텐
▁아파치
▁이론가
▁이케다
▁인류학
▁멱
EEE
▁리안
▁명왕
▁적법
▁태화
▁셰퍼드
▁순천시
▁튀어나
13
15
동원
▁구전
▁모교
▁부식
▁결의안
▁안철수
▁찾아오
데일
마을
▁공병
▁반달
▁왕당
▁미트라
▁우에노
▁뮈
▁웜
나시
로트
▁관위
▁백운
▁북인
▁율리
▁자갈
▁평하
▁푸젠
▁함장
▁후견
▁미야기현
▁소아시아
▁자이언트
▁자카르타
▁테크놀로지
▁뉴클레오타이드
과학
매기
완다
투리
▁어지
▁원만
▁원점
▁전범
▁전서
▁츠카
▁제니퍼
▁출장소
▁카리스
▁핵탄두
VA
주석
▁군기
▁롤러
▁바젤
▁베다
▁알로
▁화소
▁가치관
▁서태지
▁트레인
▁크리스틴
재판
크리
티지
uck
▁근간
▁무공
▁발터
▁일면
▁타파
reak
▁미성년
▁빈센트
▁빌바오
▁아드리아
▁^
들였
▁미러
▁백지
▁이만
▁헬스
▁후면
▁직사각
▁페스트
장조
▁거병
▁다윗
▁레티
▁속국
▁아누
▁이창
▁장경
▁예문관
▁환승역
▁세웠으며
▁아이스크림
de
둘러
▁관군
▁문건
▁산남
▁왕명
▁진심
▁처칠
▁테헤
▁희미
▁목표물
▁선제후
▁출판물
▁탈레반
▁IEEE
▁서바이벌
▁어라
▁오인
▁자백
▁피자
▁로저스
▁바스크
▁순교자
▁실린더
▁케이드
▁카디널스
HL
소니
▁공석
▁김학
▁도끼
▁로보
▁사산
▁산술
▁용맹
▁정청
▁주포
▁총감
▁퇴출
▁호투
▁홀수
▁회차
▁기념장
▁쓰촨성
▁엄청나
스톤
조류
▁경원
▁논증
▁로코
▁리언
▁발광
▁수주
▁자네
▁하후
▁호화
▁340
▁아이치
▁이치현
▁저질렀
▁정착지
▁통계학
▁아미타불
나주
주사
▁뉴잉
▁로디
▁상층
▁안주
▁코이
▁튜링
▁특명
▁대제학
▁마코토
▁아스카
▁고바야시
oo
ail
▁FF
▁갇혀
▁달력
▁오와
▁으러
▁조회
▁화풍
하마드
▁정해졌
▁Star
고사
스퍼
패드
▁개경
▁발진
▁섹션
▁청정
▁교황령
▁대혁명
▁로스트
▁볼프강
▁향신료
▁오토바이
▁as
▁교인
▁넓혀
▁넓히
▁담양
▁보국
▁보디
▁상설
▁수프
▁진천
▁타밀
▁통감
게이트
▁디에고
▁레이건
▁아니면
▁해인사
▁콘스탄티누스
▁펙
▁금관
▁놓였
▁도매
▁세제
▁유틸
▁의인
▁전봉
▁호적
▁310
▁떠올랐
▁지석묘
▁국가원수
▁두드러진
▁유틸리티
▁사생
▁사탄
▁수문
▁양동
▁잡힌
▁정역
▁지검
▁폐차
▁Sun
▁개척자
▁국내선
▁오슬로
▁원정대
▁이광수
▁매사추세츠주
버터
팩스
▁구라
▁나바
▁동급
▁두터
▁젤리
▁짝수
▁터스
▁허물
▁중앙일보
▁뽀
▁DO
▁거문
▁멜라
▁베가
▁부락
▁소서
▁손수
▁입찰
▁추장
▁커브
▁you
▁가우스
▁개막식
▁대관식
▁대대장
▁브레멘
▁스러워
▁Super
플레
▁my
▁김도
▁김주
▁비어
▁선별
▁센타
▁수구
▁어학
▁지날
▁호이
▁슈투트
▁여러분
▁슈투트가르트
댓값
바퀴
▁교감
▁근세
▁모션
▁아칸
▁템플
▁흐트
▁209
▁리바이
▁무사시
▁에이브
▁울주군
▁조르주
▁1812
구미
vel
▁과달
▁무위
▁시력
▁은지
▁평방
▁무신론
▁바빌론
▁셀레우
▁자본가
▁뉴잉글랜드
학파
▁강유
▁무찌
▁배타
▁산정
▁추밀
▁충동
▁바뀐다
▁그래픽스
▁명륜
▁빨강
▁속초
▁카파
▁토프
▁피그
▁하강
▁항문
▁황위
▁에세이
▁윤치영
▁모니터링
▁유니코드
▁안토니우스
▁후쿠시마현
초프
▁ad
▁걸스
▁로컬
▁루드
▁메드
▁박경
▁세밀
▁장지
▁정실
▁한하
▁해커
▁자오선
▁자치현
▁클라리
▁Soul
▁아이파크
TF
iel
▁Kn
▁근위
▁김덕
▁나시
▁닷컴
▁당상
▁산인
▁성조
▁죽일
▁르완다
▁송진우
▁에이지
▁북대서양
▁서비스업
▁선거관리
▁무형문화재
▁선거관리위원회
티어
▁Tw
▁과감
▁맞배
▁수질
▁스쿼
▁안면
▁장강
▁조던
▁지카
▁탄두
▁호국
하우스
▁206
▁물리쳤
▁삼거리
▁주거지
▁알렉세이
▁Christ
▁규합
▁루손
▁의논
▁점토
시아키
▁단말기
▁여수시
▁음식점
▁접미사
▁조광조
▁한자어
▁ICBM
▁John
▁름
그램
라는
▁논평
▁로런
▁슬러
▁주유
▁천자
▁코우
▁타라
▁풀이
59
네오
디드
샤오
▁고후
▁그늘
▁끔찍
▁매듭
▁산동
▁아호
▁위축
▁잡혔
▁카보
▁콘스
▁기울이
▁연대장
▁주제가
▁1879
▁막시밀리
▁ON
▁교재
▁귀순
▁금천
▁니치
▁도자
▁동맥
▁로지
▁무진
▁법상
▁익히
▁투니
공화당
▁개개인
▁록히드
▁민주공화당
gh
▁쏜
▁쑹
버라
ute
▁Mi
▁개표
▁샤오
▁영도
▁장이
▁철기
▁춘계
▁베르사유
TR
도감
탄올
▁IF
▁Mr
▁구비
▁노마
▁눌러
▁집적
▁747
▁기생충
▁레코딩
▁로널드
▁보이즈
▁안데스
▁치른다
▁건국훈장
▁아브라함
▁궈
▁썸
면적
여지
▁가창
▁버밍
▁범람
▁수라
▁스완
▁폐하
▁포상
▁휴일
라이스
▁고지대
▁슈트라
▁의병장
▁테헤란
▁파르마
EA
▁떠돌
▁방탄
▁변성
▁소량
▁양원
▁양정
▁유세
▁전열
▁차역
▁청일
▁초식
▁카토
▁콜론
▁그러면
▁도망쳐
▁사우디
▁석회암
▁에다가
▁리바운드
레앙
방스
▁관개
▁꾸몄
▁농담
▁동대
▁우기
▁카펠
▁택하
▁끌려가
▁백두산
▁붙잡혀
▁조봉암
▁파르티아
▁슈트라우스
▁일렉트로닉
태자
▁김시
▁단수
▁당장
▁듀스
▁딱딱
▁부기
▁상이
▁아람
▁양념
▁울루
▁유보
▁자각
▁정맥
▁체질
▁독재자
▁바닷가
▁카지노
▁태어날
▁피어스
나들
▁HP
▁공경
▁도파
▁리퍼
▁불문
▁예보
▁자석
▁풍요
▁제이크
분투
블릭
슐리
▁노역
▁대방
▁대여
▁모태
▁빛깔
▁소포
▁실베
▁용역
▁유계
▁유상
▁임실
▁해주
▁des
▁게이오
▁태블릿
▁뜯
▁군마
▁부화
▁이코
▁일보
▁죄인
▁중등
▁초회
▁쿠시
▁420
▁기울였
▁뉴올리언스
OK
네프
화산
▁감당
▁게놈
▁대등
▁사스
▁수족
▁차차
로세서
▁CoA
▁라그랑
▁펼쳐진
▁불러일으켰
반정
정변
▁기권
▁능숙
▁두부
▁무겁
▁불능
▁상회
▁스킨
▁영종
▁조우
▁촐라
▁현수
▁App
▁리그컵
▁변호인
▁사가미
▁암스트
▁여행자
▁영사관
▁즐거움
▁최진실
▁트리스
▁드러난다
신보
▁국문
▁사체
▁사파
▁온전
▁적힌
▁최용
▁클럭
▁Str
▁아이작
리아누스
▁당했으며
▁불법행위
▁강가
▁말려
▁아요
▁애호
▁열람
▁유민
▁전곡
▁제고
레틱스
▁국방군
▁애슬레틱스
▁Record
▁반납
▁변함
▁스텐
▁인삼
▁컬링
▁호시
연맹
의금
자드
VID
▁광시
▁남경
▁두스
▁카다
▁글리제
▁본거지
▁여주인
▁테크노
▁원종공신
▁꽝
▁쿵
ull
▁Gu
▁권투
▁노엘
▁도나
▁머큐
▁보아
▁인척
▁자존
▁후추
▁440
▁니가타
▁수영장
▁알칼리
▁인산화
▁사이클론
산업
▁수아
▁왕좌
▁접목
▁항전
▁군주제
▁엘리엇
▁오메가
▁올라왔
▁유기체
▁조용히
▁주머니쥐
▁퀼
러져
링크
수지
▁레저
▁성자
▁소진
▁유관
▁입혔
▁증축
▁체리
▁커리
▁투기
▁들어선
▁야구부
▁지극히
▁페르시
▁아우구스트
선교
장군
▁시타
▁역동
▁제방
▁트림
▁공성전
▁엘리스
▁잠비아
▁2500
▁엔지니어링
티보
▁"|
▁PA
▁부트
▁압수
▁이한
▁할구
▁Per
▁광합성
▁매니아
▁바실리
▁양산시
▁항생제
▁print
▁다마스쿠스
가요
▁강했
▁금기
▁라쿠
▁세울
▁양구
▁왕녀
▁왕릉
▁요셉
▁용문
▁이석
▁폴로
▁환산
로그램
▁합병증
▁타지키스탄
▁public
길준
덕궁
▁CA
▁궁주
▁동두
▁리지
▁무패
▁미타
▁신익
▁안락
▁앙상
▁열거
▁쿠루
▁화이
▁256
▁스위트
▁실리콘
▁영화관
▁이회창
▁제시카
▁춘천시
▁플래닛
▁이루어질
▁헬레니즘
니에
대비
▁po
▁리노
▁망가
▁매복
▁종실
▁탈피
▁투병
리오스
▁Hot
▁엔리케
▁오토모
▁페이퍼
▁호기심
▁대법원장
▁균등
▁날렸
▁따지
▁작자
▁콜리
▁파고
▁되돌려
▁바레인
▁허버트
바이러스
레미
발트
일체
황제
▁nm
▁나토
▁마거
▁명동
▁문어
▁성현
▁연하
▁은평
▁정직
▁퀸스
▁행운
▁라고도
▁산투스
▁습니까
▁카스텔
▁판매고
무지
자나
▁ER
▁고요
▁광동
▁내시
▁담수
▁바바
▁북마
▁섞인
▁시영
▁아루
▁워낙
▁이설
▁버스터
▁왕당파
16
25
ty
▁앳
데오
빨리
▁고독
▁교학
▁사목
▁식이
▁향로
▁환초
▁기본법
▁날아가
▁오우치
▁접근성
▁초고층
▁짠
쿠치
▁가결
▁득실
▁셔츠
▁실책
▁중신
▁즐겼
▁코니
▁호찌
▁Win
▁고다이
▁비행사
▁시에라
▁캅카스
▁천문단위
▁크리스탈
높이
▁군도
▁담임
▁성형
▁접시
▁코인
▁킬러
▁패자
▁돌아간다
다임
ual
▁바타
▁반향
▁석재
▁성교
▁우타
▁카츠
고로드
▁랴오닝
▁생산자
▁재결합
는점
자락
포리
▁금리
▁깊숙
▁동률
▁아역
▁여관
▁오차
▁피질
ogle
▁남북조
▁토론회
▁후유증
▁Ke
▁강자
▁내기
▁노골
▁농협
▁동체
▁따돌
▁미녀
▁유미
▁즉흥
▁칠곡
▁거느렸
▁냈으며
▁렌더링
▁이세이
▁프리드
스틱
울루
▁HS
▁mu
▁교명
▁느슨
▁멘델
▁반정
▁브이
▁침수
▁할로
▁힐스
▁911
▁브루노
▁예비군
▁예수교
▁요나라
▁웨슬리
▁을수록
▁주둔지
▁리치먼드
▁패러다임
커우
▁기피
▁대용
▁라사
▁변한
▁스팀
▁쌍용
▁지브
▁사무엘
▁스텔스
▁알베르
▁압둘라
▁잠재력
▁조연상
▁1789
▁1801
▁Back
▁캥
불명
▁간지
▁관저
▁도화
▁마른
▁사조
▁아님
▁악어
▁응력
▁이보
▁정중
▁코일
그래피
▁208
▁베이직
▁제주시
▁후반전
▁플랑드르
무트
스텐
▁NM
▁군림
▁봉분
▁부안
▁아구
▁유독
▁진성
▁초석
▁탄력
던지기
▁다행히
▁오이타
▁기타큐슈
▁아미타여래
▁뭔
▁강타
▁솔직
▁시온
▁우디
▁조율
▁트램
▁광주시
▁방법론
▁유도탄
▁조제프
▁Kore
▁ㅣ
▁쐐
▁귀여
▁누마
▁소노
▁히코
프리드
▁길버트
▁넘어서
▁유길준
▁1400
▁암스트롱
▁포틀랜드
▁쏠
RNA
▁Fl
▁KD
▁겨냥
▁구애
▁군량
▁로만
▁엿볼
▁원곡
▁머큐리
▁폼페이우스
평면
▁신천
▁쐐기
▁아로
▁악의
▁총생
▁폐교
▁네바다
▁아르테
ll
득점
▁MD
▁균열
▁모였
▁변했
▁성부
▁세타
▁에픽
▁청중
▁MIT
▁디아스
▁브릿지
▁영문학
▁영장류
▁인문학
▁NATO
▁독립선언
인산
▁가전
▁교란
▁궁수
▁기일
▁면하
▁안시
▁애프
▁영성
▁윤곽
▁이크
▁파피
▁Get
▁동일시
▁마운틴
▁브루크
▁사망률
▁사천왕
▁앙상블
▁유물론
▁지배했
▁드래곤즈
▁뿜
제사
▁NL
▁갑신
▁거품
▁고는
▁이가
▁책정
▁첫날
lect
▁370
▁내몽골
▁로런스
▁붉은색
▁선수상
▁스태프
▁남한산성
▁비로자나
ox
이상
▁NA
▁국산
▁변천
▁오웬
▁중학
▁채집
▁총국
▁급속도
▁마거릿
▁선보인
▁킵
라과
▁구명
▁깨지
▁다채
▁발열
▁약품
▁열기
▁유감
▁장차
▁만주족
▁양평군
▁이유로
▁추축국
▁트럼펫
▁Baby
▁미식축구
▁생물학자
▁가령
▁격화
▁극회
▁청군
▁최순
▁출정
▁트론
ames
▁225
▁오른다
▁펼쳐지
▁시킨다는
▁프린세스
▁Intern
▁렬
남동
든가
ove
▁나날
▁만물
▁미디
▁수표
▁어둡
▁예편
▁유재
▁제타
▁코디
▁호전
▁나와서
▁클라인
▁항공우주
YP
모닉
▁관원
▁먼로
▁미로
▁민선
▁박태
▁승선
▁신궁
▁안건
▁장승
▁지킬
▁커넥
▁코딩
▁탄성
▁현관
▁후난
▁흑색
▁Mag
▁디렉터
▁부천시
▁요시카
ology
▁리하르트
▁탄수화물
▁해수욕장
▁셀레우코스
GO
레븐
파니
▁Cr
▁격침
▁고관
▁도식
▁생포
▁오랑
▁제헌
▁카인
▁행한
▁황하
▁남아공
▁메신저
▁오리건
▁와이어
▁행해진
▁이리하여
▁이마가와
▁둑
▁강구
▁공훈
▁교내
▁군위
▁김장
▁노름
▁다라
▁명장
▁무소
▁소마
▁승마
▁야만
▁유익
▁의대
▁지회
▁치밀
▁타키
▁하세
▁미요시
▁방문객
▁부사장
ature
▁레오나르
▁트로츠키
▁안티오키아
피카
▁가변
▁듀엣
▁버거
▁아쉽
▁조엘
▁진위
▁호지
▁기네스
▁나카노
▁베테랑
▁해수면
▁니카라과
▁로베르트
▁서귀포시
백색
훈련
let
▁공평
▁배지
▁사일
▁출항
▁캔터
▁캡틴
▁케로
▁통킹
▁효성
▁콜라보
그라운드
▁소크라테스
능력
스레
투르
▁결렬
▁결투
▁명중
▁무쓰
▁초판
▁친히
▁탄광
▁흉내
피에르
▁고스트
▁블러드
▁시나노
▁태양광
▁돼지고기
▁에두아르
▁베오그라드
17
무실
박이
심원
▁BO
▁그간
▁누에
▁니트
▁대소
▁무루
▁비방
▁생장
▁수화
▁약수
▁양위
▁직각
▁총수
▁화교
스트림
inal
▁리카르
경찰
메랄
enn
▁개축
▁굳이
▁던전
▁서곡
▁알마
▁카노
▁풍기
▁피시
▁Way
▁신안군
▁올라갈
▁주세페
▁프레더릭
TN
락부
처럼
▁MR
▁건네
▁결단
▁경산
▁공지
▁비긴
▁사옥
▁외가
▁주스
▁출병
▁한꺼
▁합장
코비치
▁다카시
▁범어사
▁사법부
▁스트라
▁아열대
▁페라리
▁함부로
▁한꺼번에
가키
금속
▁BB
▁고취
▁꾸미
▁끼워
▁도보
▁라테
▁베아
▁불길
▁인노
▁천태
▁카불
▁파출
▁두더지
▁알아차
▁어드밴
▁이치로
▁태극기
▁항소심
▁혈액형
▁게오르기
▁나왔으며
UM
ors
▁개리
▁레반
▁매튜
▁증류
▁철근
▁춘향
▁하츠
▁효모
▁흡입
▁207
▁GPS
▁Res
▁강릉시
▁김종직
▁나눈다
▁알레산
▁굴욕
▁깁슨
▁레르
▁봉헌
▁연어
▁윈드
▁잔치
▁재심
말라야
▁내려갔
▁스펜서
▁시아파
▁리얼리티
▁아르바이트
갱이
▁내역
▁에인
▁운석
▁조너
▁폭주
▁동북부
▁무정부
▁일제히
▁정몽주
의금부사
▁1815
▁1820
▁서대문구
즈미
▁DA
▁결실
▁미추
▁벗겨
▁베컴
▁사계
▁살레
▁시편
▁이구
▁365
▁사이다
▁이지스
▁조합원
▁직할시
▁체육회
▁선거인단
▁이오니아
덱스
월드
현실
app
▁결집
▁기형
▁내게
▁도량
▁맞닿
▁북송
▁습도
▁에든
▁키치
▁국무부
▁페레스
노스아이
▁Amer
▁에든버러
노스아이레스
▁부에노스아이레스
광사
나비
시카
▁"'
▁Dr
▁OK
▁노하
▁박동
▁설과
▁세도
▁천적
▁치루
▁타오
▁토의
▁퇴계
▁풋살
▁필로
▁핼리
스티안
▁돌아올
▁Cent
▁카롤루스
▁공보
▁산마
▁술집
▁신안
▁좌랑
▁허구
이즈미
▁유명세
▁지방도
▁프린터
▁라이온스
▁히말라야
24
끄럽
▁담장
▁변조
▁해머
레이즈
▁감마선
▁노무라
▁일진회
▁진정한
▁유럽연합
▁욘
ret
▁김은
▁더라
▁로제
▁모잠
▁서역
▁시성
▁양분
▁천리
▁충고
▁표어
ange
▁리그전
▁모터쇼
▁야행성
▁연습생
▁오징어
▁전동기
▁제품군
▁후베이
▁모잠비크
로프로세서
▁레닌그라드
▁막시밀리안
▁마이크로프로세서
▁훅
오드
ina
▁격상
▁마취
▁만수
▁봐야
▁분담
▁스틱
▁으뜸
▁전극
▁조나
▁쿠사
▁학도
▁한라
▁호박
▁힘쓰
ater
▁농민군
▁도나우
▁혁명가
▁사라진다
FS
▁김석
▁살피
▁센다
▁영위
▁지반
▁테살
▁트롤
▁피쳐
▁도망가
▁저지르
▁System
마니
▁리서
▁본능
▁본진
▁시차
▁어인
▁월경
▁장서
▁청했
▁디나모
▁조병옥
▁지포스
▁1858
▁고고학자
▁마쓰모토
▁알베르트
▁알렉산드라
▁갸
다스
비츠
▁갑오
▁경구
▁기욤
▁데니
▁모질
▁세실
▁위태
▁융기
▁이부
▁펜스
▁모델링
▁아드리
▁연금술
▁지팡이
▁합쳐져
za
베인
▁SW
▁노총
▁달마
▁당사
▁디펜
▁마초
▁슐레
▁실태
▁이삭
▁출루
▁퍼플
▁허들
▁형광
지먼트
▁선데이
▁유공자
▁중심핵
▁쫓겨나
▁모노이드
▁프로방스
▁매니지먼트
거루
▁광서
▁만연
▁사보
▁사악
▁성찬
▁소정
▁소켓
▁쓰리
▁자막
▁직류
▁코넬
▁탈리
▁전망대
▁총생산
▁오스트로
쓰네
ons
▁능하
▁미완
▁벅스
▁아토
▁이게
▁장론
▁종단
▁특혜
▁Int
▁Mac
▁가디언
▁모조리
▁민의원
▁적절히
▁마그네슘
니츠
입자
퍼트
ley
▁견지
▁급사
▁기주
▁도난
▁매질
▁엠마
▁옵티
▁위배
▁지뢰
▁특위
▁합산
▁라이드
▁스와프
▁신익희
▁안티고
▁조너선
▁크레타
▁파블로
▁알베르토
▁이성질체
▁필하모닉
▁폴리네시아
토바
▁'-
▁갈비
▁관대
▁궁내
▁기민
▁녹말
▁새해
▁선서
▁육박
▁음양
▁커져
▁콘셉
▁하카
▁대학살
▁도치기
▁제노바
▁즐거운
▁class
ux
던스
동리
▁납품
▁더빙
▁던진
▁에뮬
▁전액
▁정현
▁좌천
▁창씨
▁태상
▁테드
ions
▁Tra
▁광화문
▁군산시
▁내려온
▁분홍색
▁필리스
▁합쳐서
▁맞배지붕
▁천연가스
▁기교
▁기근
▁니라
▁수강
▁완산
▁이철
▁장택
▁재주
▁정공
▁포섭
▁프록
▁핑계
▁USA
▁관찰자
▁노트북
▁마에다
▁봉수대
▁시게루
▁High
실험
정제
▁낙태
▁남궁
▁농작
▁늘렸
▁니체
▁덕수
▁소탕
▁수선
▁의왕
▁토드
▁펠레
▁그리드
▁마피아
▁무너져
▁베일리
▁유성구
▁포인터
▁갑작스런
▁무궁화호
▁엎
라나
사랑
코인
att
▁NX
▁대정
▁마도
▁안재
▁정과
▁진구
▁푸틴
▁Not
▁막아내
▁목포시
▁전철역
▁평상시
▁받아들일
▁서프랑크
▁조선왕조실록
싸움
컨드
▁고택
▁독실
▁동티
▁마틸
▁말소
▁총살
지스터
▁평의원
▁1300
▁1814
테일
▁SG
▁기악
▁모를
▁미자
▁민가
▁벨벳
▁선지
▁성제
▁손쉽
▁아말
▁알렌
▁예일
▁음역
▁증원
▁콤비
▁패퇴
▁비올라
▁트랜싯
▁티무르
▁플래그
▁피드백
▁동아프리카
▁클라이맥스
▁귤
촌동
토쿠
▁공해
▁로타
▁마고
▁마신
▁문성
▁어쨌
▁우도
▁유승
▁제보
▁틈타
▁헬렌
▁휴먼
▁MHz
▁거머쥐
▁수도사
▁쌍방울
▁What
▁type
▁돌아와서
당류
랭크
재단
ART
▁고갈
▁군비
▁급기
▁보육
▁비욘
▁소치
▁아픔
▁우이
▁이덕
▁주상
▁키아
▁키웠
▁건너편
▁맞대결
▁미우라
▁성명서
▁보호구역
▁트랜지스터
기둥
자유
▁Of
▁RA
▁목화
▁비호
▁스팅
▁아약
▁애매
▁전집
▁퀘이
▁흥덕
▁IEC
▁건널목
▁겨울철
▁깨달음
▁세컨드
▁그래미상
BN
거성
데냐
마일
▁구석
▁보카
▁완주
▁이뤘
▁전란
▁증직
▁쿠리
▁홍천
▁290
▁수증기
▁액티브
▁오나라
▁우승컵
▁충주시
▁커티스
▁평택시
▁사르데냐
▁산업단지
▁토스카나
▁Google
림동
민정
어냈
▁로어
▁면은
▁수의
▁스쿠
▁슬퍼
▁신관
▁우대
▁진하
▁총액
▁한가
▁War
▁어려울
▁여긴다
▁연구실
▁재빨리
▁주교좌
▁준다고
▁한정판
▁혁명군
▁1795
▁암모니아
▁크리스천
▁kW
▁규장
▁미에
▁바사
▁부탄
▁석등
▁윗면
▁이다
▁포진
정보부
▁가져갔
▁라쿠텐
▁성북구
▁올라온
▁패트리
▁FS
▁견훤
▁군집
▁레미
▁려다
▁바하
▁북상
▁어쩌
▁열망
▁옥상
▁정일
▁캐럴
▁할양
▁헤임
씨식물
▁MLB
▁WHO
▁니스트
▁프렌즈
▁석가여래
ger
▁리온
▁멘토
▁선회
▁실크
▁앨버
▁열풍
▁지층
▁직권
▁초당
▁페데
▁헨드
▁혼돈
▁훈족
▁LCK
▁고조선
▁미시간
▁아약스
▁포스코
▁프리킥
살바도르
▁보였으나
▁부위원장
▁샌드위치
▁그리스도인
구멍
전차
▁구자
▁도표
▁루지
▁암초
▁에린
▁켈빈
▁사이공
▁통신부
▁트루먼
▁플라자
▁다리우스
▁플레이스
▁윔
식스
회원
▁군락
▁발췌
▁세베
▁스톨
▁아랑
▁원생
▁포교
▁Dis
▁국문학
▁돌아간
▁리포트
▁무너졌
▁원정군
▁익산시
▁정확도
▁프로이트
ye
▁밈
alk
▁PH
▁감기
▁괴뢰
▁데인
▁도정
▁리츠
▁매춘
▁본초
▁에런
▁인대
▁장조
▁패드
▁850
▁TBC
▁대항해
▁바로잡
▁홉킨스
▁With
▁렝
▁모식
▁몬태
▁부녀
▁약학
▁우사
▁이효
▁블루어
▁창업자
▁디렉터리
yle
▁고해
▁로동
▁미숙
▁브람
▁쇠약
▁얼터
▁웅진
▁풍수
▁480
▁남조선
▁드러난
▁선언문
▁스타즈
▁창덕궁
▁하모니
▁받아들인
▁카테고리
▁뱌
부미
enc
▁광택
▁나눔
▁보훈
▁줄였
▁코지
▁토비
▁학급
▁함의
주니어
▁남해군
▁로렌초
▁보행자
▁스레드
▁타블로
▁합천군
▁수마트라
NT
▁켓
니코
▁머피
▁보궐
▁아핀
▁유원
▁종친
디우스
▁Art
▁찾아왔
▁안드레이
건적
레프
팽이
▁당명
▁랜덤
▁미코
▁반야
▁어딘
▁웰스
▁유시
▁장준
▁착한
▁천정
▁첨부
▁헤지
▁헬로
▁공직자
▁돋보이
▁등록금
▁에히메
▁페테르
▁헬싱키
▁사탕수수
▁아틀레틱
▁요시아키
▁COVID
▁그리스도교
쳐서
카라
▁Di
▁경이
▁굶주
▁김세
▁니나
▁불평
▁승전
▁차분
▁효용
▁238
▁개최지
▁북반구
▁지방관
▁충렬왕
▁Blue
▁드레이크
글러
▁간디
▁감탄
▁교묘
▁국지
▁권하
▁소도
▁숭실
▁씨름
▁연유
▁영재
▁원술
▁윈터
▁팀장
▁평신
IO
블린
하스
▁각광
▁걸치
▁고운
▁논설
▁덩굴
▁데쓰
▁맛있
▁설사
▁언젠
▁엄정
플레잉
ough
▁남반구
▁빅토리
▁손바닥
▁스타인
▁쓰여졌
▁학생회
▁가나자와
▁롤플레잉
▁자연주의
▁꼼
▁먀
▁골수
▁구토
▁남포
▁민권
▁박승
▁버시
▁세탁
▁율령
▁존엄
가하라
▁넥스트
▁보호관
▁빼앗겼
▁산체스
▁안데르
▁1793
▁이베리아
뉴스
전쟁
천국
▁기시
▁노화
▁당분
▁리저
▁수렵
▁와해
▁이트
▁장항
▁정여
▁판다
네소스
▁공기업
▁여객선
▁이완용
▁아나키즘
▁자유민주
▁중앙정보부
UI
ING
▁교주
▁데메
▁묘법
▁신구
▁역모
▁쿠릴
▁하디
독립당
▁데려가
▁보라색
▁수번뇌
▁에밀리
▁유격대
▁취약점
▁페인트
▁한국독립당
▁키르기스스탄
▁낀
que
▁ED
▁Vf
▁갤러
▁과부
▁괴멸
▁국과
▁내구
▁만기
▁멜론
▁몸집
▁보츠
▁서강
▁올랭
▁용접
▁정병
▁직함
▁페터
▁하순
다람쥐
연화경
▁Rev
▁기뻐하
▁문하시
▁크라스
스트리트
▁1846
▁MPEG
▁물리학상
▁에드먼드
26
메트
적분
OVE
▁구룡
▁대뇌
▁무당
▁미묘
▁민생
▁오호
▁윤원
▁이국
▁천구
웨스트
▁노르트
▁아산시
▁아칸소
▁지난해
▁1839
▁브루나이
든지
르모
바람
운전
ump
▁다지
▁새기
▁서보
▁참배
▁펀치
비우스
시우스
▁농작물
▁메이트
▁엉덩이
▁윤리학
▁이브라
▁중서부
▁기념사업
▁어드밴스
▁하시모토
▁넉
▁'.
▁경멸
▁느라
▁니콘
▁말린
▁억류
▁월북
▁인출
▁총체
▁퇴단
▁가입자
▁버나드
▁베드로
▁변속기
▁시어터
▁추밀원
▁1854
▁time
▁여주인공
▁자동변속기
▁뚱
나물
대성
래시
스테
파스
▁귀양
▁낙타
▁산불
▁성내
▁순정
▁추위
▁표결
▁학창
슬라브
▁LCD
▁국무원
▁배수량
▁아테나
▁외무성
▁체스터
▁최하위
▁테트라
▁히로부미
▁시즈오카현
▁아오모리현
질량
der
▁걸맞
▁공덕
▁구인
▁깜짝
▁도색
▁망루
▁박기
▁사흘
▁솔트
▁준하
▁해자
▁상속인
▁후임자
▁초등학생
▁촘
후이
▁갑각
▁게일
▁군국
▁독소
▁심플
▁윤석
▁이견
▁이형
▁인신
▁존상
▁쪼개
▁치중
▁케도
▁클루
▁휘트
티우스
▁건너갔
▁기부금
▁아쿠아
▁알레르
▁전기장
▁황태후
▁기독교인
▁이해관계
▁뺏
모자
재란
▁개전
▁마는
▁범용
▁본당
▁부윤
▁심근
▁정강
▁톨킨
▁현충
니다드
학생회
▁214
▁737
▁대머리
▁러서는
▁상대론
▁시공간
▁하카타
▁정유재란
▁트리니다드
▁중앙아프리카
우어
▁고하
▁내수
▁디디
▁루머
▁방조
▁분양
▁아민
▁여과
▁유폐
▁칼레
▁특례
▁환기
코스트
▁가시마
▁분류학
▁산둥성
▁절대로
▁지난다
▁키워드
▁파트리
▁팩토리
▁평화상
▁마음대로
▁언어학자
▁총학생회
고트
패스
▁가니
▁걸로
▁교포
▁미모
▁바일
▁박인
▁야로
▁찬탈
▁파드
▁필기
▁후시
▁낙하산
▁향한다
총리대신
▁끌어들이
▁미성년자
▁세키가하라
▁내각총리대신
BT
▁두껍
▁등대
▁라몬
▁매번
▁매월
▁박준
▁브론
▁비참
▁상작
▁석상
▁손책
▁오닐
▁오딘
▁웅장
▁종주
▁코레
캐스트
쿠스틱
▁COM
▁Min
▁경비대
▁돗토리
▁보나파
▁조계종
▁증명서
▁비지니스
▁어쿠스틱
▁보나파르트
▁돛
▁BR
▁마한
▁상투
▁새턴
▁수류
▁어이
▁육아
▁장령
▁치가
▁페드
▁화북
프랑스
▁안중근
▁에리크
▁1849
▁Beat
▁소용돌이
▁플로이드
▁퓌
▁ME
▁광경
▁단성
▁분장
▁소홀
▁시경
▁제식
▁제학
▁팬아
▁교토부
▁북극해
▁비행대
▁갈릴레이
▁공화주의
▁비트코인
▁견습
▁고압
▁디온
▁바덴
▁베버
▁비크
▁사죄
▁시주
▁실로
▁유품
▁적재
▁태세
▁페가
▁갖가지
▁데포르
▁초대칭
▁파출소
▁하이든
▁1856
▁오브젝트
▁페더레이션
28
▁럴
담회
사회
탐정
▁간염
▁계투
▁낯선
▁담론
▁북해
▁분쇄
▁신작
▁악역
▁인피
▁팔려
▁해일
▁현령
직할시
▁건국대
▁구청장
▁나가노
▁쓰여져
▁델라웨어
HD
▁깡
▁쥔
누아
렁이
▁낙랑
▁남로
▁모기
▁반열
▁본디
▁소란
▁수배
▁엠블
▁예속
▁우동
▁이안
▁철원
▁트러
▁틀리
▁아가씨
▁찬드라
▁포위전
▁노동자당
▁네덜란드어
러기
리가
오린
정권
호르
호프
▁대세
▁배설
▁변방
▁봉작
▁역습
▁연임
▁오기
▁웨일
▁으론
▁파격
타니아
atch
▁430
▁교직원
▁식물원
▁어리석
▁취한다
▁해럴드
베이거스
▁캐나다인
▁크레이그
▁하이웨이
23
섬유
케스
▁반려
▁요아
▁적성
▁추궁
▁헤엄
▁화전
▁효능
▁언젠가
▁장택상
▁1851
▁빠져나가
▁스탠퍼드
▁캔자스시티
▁라스베이거스
OU
▁녜
개혁
려야
체어
▁단호
▁드니
▁라티
▁마자
▁만국
▁메사
▁밀스
▁볼륨
▁유장
▁잇달
▁조승
▁촌은
▁치수
▁태워
▁한서
리어스
▁419
▁감염자
▁다이나
▁참모장
▁상파울루
▁차량기지
니크
▁PP
▁간장
▁낙엽
▁셔먼
▁쌓여
▁원성
▁윤영
▁친절
▁후백
트로피
▁FBI
▁Top
▁디스코
▁레인보
▁바란다
▁벤피카
▁보르도
▁입출력
▁집어넣
▁테이크
▁투데이
▁사보이아
▁크리에이티브
처리
▁계란
▁김문
▁단사
▁도독
▁상체
▁수서
▁심슨
▁알비
▁외동
▁노스케
▁다닌다
▁레이어
▁오비탈
▁진보당
▁하동군
츠부르크
▁블레이드
▁스티븐스
▁오하이오주
86
▁힉
전기
하늘
ery
▁결탁
▁경색
▁국면
▁대광
▁빌미
▁서천
▁쇼팽
▁아모
▁언약
▁정시
▁주경
▁착안
▁헐리
▁히다
고양이
▁공사관
▁기념식
▁시부야
▁애벌레
▁잇따라
▁캥거루
▁핵폭탄
▁1855
▁1857
▁서스펜션
▁정사각형
▁폴란드인
▁프란시스
왕국
천년
투안
▁TG
▁대열
▁랜디
▁명주
▁보문
▁분개
▁생가
▁여생
▁욕설
▁조력
▁카잔
▁페티
▁한참
▁Med
▁대주주
▁배트맨
▁상세히
▁세운다
▁수산물
▁작사가
▁휠체어
▁갑신정변
▁다이스케
깨비
봉사
산읍
일라
카테
▁거액
▁발송
▁벽면
▁타고
▁현명
cess
▁모여서
▁베르디
▁봉사자
▁서북쪽
▁수수료
▁일간지
▁행정관
▁반공주의
▁열렸으며
▁민족주의자
▁뛴
바꿈
하르
▁YM
▁권세
▁맛보
▁무왕
▁비이
▁서상
▁성채
▁수훈
▁어기
▁쟁점
▁주치
▁캔디
▁핵산
icro
▁211
▁Pop
▁구미시
▁글리코
▁시흥시
▁들어와서
▁여러해살이풀
▁좡
▁정년
▁택지
▁포구
콥스키
▁301
▁웨이트
▁제이스
▁지평선
▁쫓아내
▁포천시
▁데포르티보
댄스
테른
▁롤리
▁몰라
▁압송
▁잊혀
▁체첸
▁친목
▁템포
▁해금
▁동의어
▁시우바
▁은하단
▁저작물
▁펠로폰
▁포브스
▁Will
▁불렀으며
▁이와테현
▁병마절도사
▁펠로폰네소스
레토
버거
버드
서구
소득
재기
증권
지대
▁까다
▁버퍼
▁셀룰
▁소망
▁신영
▁인테
▁폰트
루리아
▁223
▁무서운
▁변증법
▁컨디션
메니스탄
▁서아시아
▁투르크메니스탄
흐트
▁돌핀
▁변장
▁살림
▁수스
▁슬픈
▁실습
▁외벽
▁이로
▁이학
▁임베
▁지소
▁크세
▁탄원
▁팔자
▁그로스
▁려다가
▁스나이
▁카운터
▁헤이스
▁임베디드
쇼프
연대
▁CL
▁간파
▁노회
▁대적
▁만리
▁벚꽃
▁액수
▁찬스
▁히나
▁NAD
▁나주시
▁비엔나
▁좋아했
▁1776
▁Free
▁엔트로피
니엄
▁급습
▁박격
▁성간
▁슈바
▁장구
▁한도
▁회부
▁오카다
▁핵실험
▁클라리넷
▁통합진보당
로아
ont
▁FR
▁IA
▁고증
▁노다
▁미안
▁신명
▁알론
▁열반
▁원제
▁율곡
▁음경
▁지병
▁카렐
▁퇴사
▁항모
시오날
▁대각선
▁찾아온
타고라스
▁나시오날
▁올랐으나
▁플루오린
day
▁골목
▁구운
▁김한
▁방한
▁버릴
▁이공
▁지남
▁현청
▁다면체
▁보니파
▁수송기
▁하이델
▁가까스로
▁무라카미
▁미주리주
▁원내대표
27
스탕
▁당기
▁버즈
▁요네
▁조식
▁총알
▁코민
▁현생
▁독립국
▁루터교
▁마그마
▁바이스
▁형무소
▁사카모토
▁태평천국
광선
▁UR
▁과업
▁끊이
▁뇌졸
▁대흥
▁문교
▁부총
▁센스
▁윤선
▁잠복
노벨라
중국해
▁거제시
▁레너드
▁병원체
▁이범석
▁올랭피크
▁그레고리력
▁텔레노벨라
활성
▁개요
▁금광
▁사극
▁상시
▁와트
▁재원
▁중첩
▁호가
▁급기야
▁새천년
▁아세트
모습
볼트
평가
aut
▁MW
▁누각
▁라데
▁비기
▁서던
▁양손
▁여긴
▁입안
▁조참
▁지어
▁지워
궐선거
레시브
▁XML
▁가까웠
▁가속기
▁달라이
▁동북쪽
▁이어질
▁청교도
▁출생지
▁클라라
▁재보궐선거
▁캄파니아주
▁프로그레시브
돼지
▁Po
▁누락
▁땅콩
▁몬트
▁산탄
▁성추
▁심신
▁영아
▁원가
▁장타
▁준위
▁케니
▁표했
▁다시피
▁모티프
▁비정규
▁서둘러
▁국민회의
29
ma
가야
를린
쿠젠
its
▁로로
▁맞섰
▁명지
▁미움
▁반가
▁이연
▁천명
▁타현
▁퇴화
▁혹독
▁김종필
▁마인드
▁심포니
▁영등포
▁영산회
▁청구인
▁피에트로
▁10000
▁레오나르도
마타
▁ne
▁간소
▁계파
▁괴팅
▁교복
▁국고
▁기물
▁미망
▁발주
▁방수
▁본기
▁시왕
▁안다
▁역행
▁음란
▁지단
▁직제
▁진안
▁파사
▁표상
▁하쿠
▁합체
▁가로막
▁베르그
▁원한다
▁묘법연화경
▁쉰
연료
저민
▁CV
▁각별
▁로젠
▁만다
▁사성
▁셰이
▁수잔
▁연좌
▁최경
▁화신
들랜드
▁Bro
▁End
▁del
▁단기간
▁메이플
▁버려진
▁베리아
▁벤저민
▁사모아
▁쓰러져
▁에인절
▁황도대
▁조기어류
▁네브래스카
페리
▁가메
▁감명
▁국채
▁세브
▁습성
▁어필
▁처했
▁치이
▁홀드
메네스
메데스
▁215
▁샘플링
▁서기장
▁팰리스
▁포위망
개발
▁로미
▁반일
▁체임
▁콘월
▁포에
irst
▁Big
▁DFB
니발
슐린
▁나나
▁대양
▁배영
▁세가
▁에나
▁점하
▁편하
▁포탈
▁퓨전
▁황보
▁논산시
▁돌려주
▁리서치
▁크리켓
▁캔터베리
BL
계리
급시
미치
에리
▁DL
▁공녀
▁노미
▁로자
▁밑면
▁부이
▁생사
▁우문
▁청화
▁포즈
▁픽업
▁게이츠
▁서남쪽
▁특공대
▁돌아온다
▁미시간주
▁스포르팅
▁코미디언
▁포레스트
빼미
▁개간
▁노먼
▁니즘
▁독감
▁린드
▁마마
▁미팅
▁어진
▁열광
▁요세
▁장보
▁정철
▁주둥
▁타가
▁문화사
▁부제학
▁떨어뜨리
▁begin
▁WH
▁달렸
▁라비
▁레베
▁몰입
▁시로
▁원화
▁위드
▁코다
▁틈새
▁미카사
▁브레인
▁엑스선
▁프리랜
▁해설자
HS
br
▁큼
연의
지않
코바
▁가인
▁메콩
▁브롱
▁살상
▁서드
▁서킷
▁실드
▁연천
▁위아
▁유즈
▁정약
▁징후
▁추석
▁한방
더니즘
▁239
▁경기력
▁구석기
▁부활절
▁서로마
▁월리스
▁전년도
▁특이점
▁후반부
▁언더그라운드
▁다의
▁루소
▁우메
▁전갈
▁접착
▁정파
▁주어
▁질레
▁쿠키
▁패주
▁계약금
▁기장군
▁목걸이
▁보호자
▁수메르
▁1792
▁소선거구
▁HK
▁경수
▁경치
▁낭독
▁내쫓
▁딸린
▁래스
▁비슈
▁시동
▁창안
▁촌락
▁칸타
▁픽션
▁510
▁계약서
▁권력자
▁사중주
▁유니온
▁젬
보스
aff
oss
▁KC
▁녀석
▁루아
▁시암
▁아그
▁우랄
▁종택
▁청탁
▁평년
▁향리
▁호치
파트라
▁BMW
▁브리트
▁사생아
▁Mnet
▁Rain
▁프라이스
▁클레오파트라
▁까치
▁덤불
▁도기
▁듀크
▁명절
▁부원
▁세관
▁위니
▁유실
▁제반
▁즐겁
▁틀림
▁Des
▁앞장섰
▁동대문구
▁모하메드
▁아틀라스
▁프로토타입
▁감히
▁귀납
▁금화
▁대검
▁덧셈
▁돼서
▁시료
▁안상
▁영연
▁욕심
▁이족
▁제향
▁커트
▁set
▁게이머
▁미술가
▁브람스
▁외삼촌
▁재정난
▁퍼펙트
▁1853
▁void
▁알레르기
▁플레이트
▁슈퍼주니어
▁독신
▁비츠
▁성년
▁예천
▁정량
▁함안
▁과선교
▁목격자
▁정말로
▁파이브
▁LIVE
▁권위주의
루이
막염
삼문
▁RE
▁do
▁난간
▁버락
▁불황
▁산토
▁시판
▁약정
▁양력
▁자락
▁카쿠
▁트인
▁티르
▁호엔
▁훔쳐
너티브
메이트
제르맹
▁명백히
▁성추행
▁시설물
▁표준어
▁Show
▁얼터너티브
노동
버섯
IDS
▁가평
▁구나
▁도고
▁동복
▁라벤
▁박중
▁상피
▁섬멸
▁숙성
▁시구
▁아속
▁오쓰
▁절멸
▁최북
▁춤추
▁쿠페
▁홍백
덜랜드
▁레일리
▁요리사
▁지도력
▁1791
▁1852
▁경향신문
▁인테리어
▁엘살바도르
▁퓰
그림
타라
▁CT
▁JP
▁SI
▁바크
▁생김
▁수첩
▁아쓰
▁연작
▁이면
▁입적
▁최치
▁케스
▁튀르
▁TOP
▁벌어들
▁중생대
▁프레디
▁프로파
▁테러리스트
▁콘스탄티노플
얼빈
이인
행사
▁갑판
▁구급
▁구면
▁만찬
▁모후
▁밥상
▁북제
▁사구
▁상권
▁수온
▁스커
▁영세
▁일람
▁제각
▁착오
▁캄포
▁탄환
▁검사장
▁꽃받침
▁무안군
▁무인역
▁버밍엄
▁아르카
▁양서류
▁호위함
▁사다하루
▁생제르맹
▁속씨식물
▁크래프트
▁옅
▁잣
바타
티드
하워
▁FN
▁강물
▁메트
▁방과
▁배울
▁수전
▁슬럼
▁실화
▁예견
▁출소
핵생물
▁레프트
▁에르난
▁재판장
▁중학생
▁지원자
▁한마디
▁도네츠크
▁아이젠하워
be
▁빽
경궁
방식
살라
이다
vis
▁교우
▁근연
▁매너
▁부응
▁비고
▁선방
▁수뇌
▁실황
▁에타
▁월급
▁음색
▁친숙
▁회중
▁후신
▁희박
▁212
▁그려지
▁성동구
▁조나단
ement
▁퍼레이드
oup
▁관서
▁구보
▁노던
▁도금
▁셰프
▁식료
▁신재
▁완투
▁원망
즐랜드
▁동인도
▁앞장서
▁점성가
▁찻
귀비
팔렌
하트
▁EN
▁FX
▁가한
▁독려
▁불펜
▁우쓰
▁장영
▁제법
▁플뢰
▁히브
▁233
▁게이초
▁관악구
▁좀처럼
▁움직인다
▁퀸즐랜드
오세
▁귀향
▁기치
▁능통
▁띈다
▁보두
▁색인
▁서하
▁수찬
▁여태
▁윤상
▁은둔
▁필살
▁해동
▁호감
▁경영진
▁늘어난
▁분화구
▁상류층
▁앵글로
▁유목민
▁잎자루
▁1847
▁Like
▁다운타운
▁천주교회
▁히로시마현
▁뚝
▁즌
노헤
▁고작
▁국물
▁김호
▁남짓
▁대파
▁들였
▁베인
▁아만
▁요트
▁장터
▁청진
▁Bar
▁느낀다
▁싫어하
▁음악회
▁이스턴
▁최적화
▁퀘스트
▁현저히
▁황갈색
▁LOVE
▁도쿠시마
▁루키우스
▁뱀파이어
▁필리포스
▁롬바르디아
▁덥
에어
▁EF
▁고질
▁고타
▁망상
▁수난
▁쑨원
▁오에
▁점심
▁쾌락
▁팔각
▁품계
하이머
▁개찰기
▁세례명
▁에버턴
▁옹진군
▁플랜트
▁현악기
▁옥타비아
▁콘티넨털
▁Sound
개명
▁마조
▁미일
▁박주
▁벨레
▁섬겼
▁신숙
▁영해
▁이계
▁지기
▁학점
▁황성
▁가져와
▁내세운
▁릴리스
▁베이컨
▁올빼미
▁시트르산
▁프리랜서
▁똥
비어
way
▁OC
▁강압
▁경감
▁과천
▁관사
▁나팔
▁버블
▁안젤
▁약국
▁연사
▁연일
▁초중
▁최재
▁포리
▁강아지
▁김포시
▁다각형
▁이베이
▁저술가
▁핵연료
▁가이우스
▁레인보우
▁은행나무
▁Light
▁안티고노스
본다
▁NK
▁es
▁mg
▁가봉
▁공물
▁궁금
▁기노
▁냉동
▁동족
▁마로
▁미신
▁밀턴
▁수작
▁슬롯
▁야채
▁오목
▁유위
▁조만
▁주술
▁지드
▁크릭
▁회군
▁더구나
▁브룩스
▁생태학
▁유학생
▁인슐린
▁하얼빈
▁Over
▁옵티머스
▁버지니아주
WS
▁읊
랄라
▁UK
▁골자
▁궤멸
▁낙인
▁마누
▁발화
▁베레
▁얼리
▁왈라
▁음소
▁파니
▁혈청
리오카
▁221
▁뇌졸중
▁레슬리
▁찾아보
▁Sing
임수
▁계명
▁뿌려
▁서간
▁송금
▁신예
▁외화
▁우성
▁자력
▁진과
▁차드
▁클론
▁푸시
▁호러
▁후각
자위대
ouse
▁Red
▁가오슝
▁미망인
▁세일러
▁수류탄
▁유가족
▁중대장
▁편의점
▁해적단
루트
야구
타바
▁강수
▁라피
▁비약
▁색조
▁스벤
▁신빙
▁쓰가
▁커크
▁회기
▁Sec
▁세포막
▁탈수소
브레히트
▁계몽주의
▁시라카와
▁카리브해
색슨
어내
워키
▁RO
▁계략
▁고부
▁나니
▁들러
▁명품
▁보현
▁앙주
▁추월
▁친하
▁카멜
▁콕스
▁판별
▁한류
▁나뭇잎
▁리히텐
▁배상금
▁정보국
▁할수록
▁1100
▁곤살레스
▁브래들리
▁창씨개명
▁알려졌으며
▁앵글로색슨
거슨
시간
옹주
▁JS
▁나츠
▁드릴
▁아워
▁업소
▁유주
▁혹평
대주의
ason
▁231
▁Eng
▁구한다
▁여름철
▁참가국
▁카이저
▁피스톤
▁1844
▁동명이인
▁사회단체
▁네덜란드인
▁즙
▁ac
▁그랜
▁다키
▁동천
▁마왕
▁뭔가
▁부결
▁안구
▁오경
▁울음
▁이등
▁타코
▁하체
하이드
▁산화물
▁자신감
▁요코스카
어난
▁갑상
▁과수
▁그람
▁미약
▁비니
▁식년
▁이도
▁장현
▁정구
▁청풍
▁티나
▁정착민
▁조교수
▁콘셉트
▁랜드마크
▁좋아한다
▁알레산드로
aj
프슨
iet
▁간편
▁걸릴
▁레딧
▁미오
▁실바
▁아론
▁어음
▁재야
▁쟁취
▁정연
▁정태
▁취락
▁토토
▁해류
▁갑각류
▁박격포
▁정찰기
▁평창군
▁프로필
▁하루카
▁합쳐진
▁1837
▁오를레앙
▁민속문화재
▁꽁
코로
▁TA
▁균류
▁맨틀
▁봉산
▁북진
▁비명
▁삼부
▁숙고
▁요안
▁원판
▁유루
▁체온
▁해왔
▁390
▁Net
▁반대쪽
▁발자국
▁부사관
▁현급시
▁후견인
▁개인주의
▁포리스트
▁삼국지연의
소시
쿠로
red
▁교착
▁무거
▁북단
▁선승
▁아저
▁키는
▁폐간
▁독립성
▁예배당
고도
보레
▁광종
▁면접
▁무방
▁벙커
▁속이
▁운문
▁전륜
▁카오
▁케어
▁토사
▁판도
베를린
▁가야금
▁아저씨
▁연장선
▁화순군
▁북베트남
▁아시리아
▁오렌지색
교동
니언
승람
오밍
▁RD
▁걸즈
▁경학
▁디어
▁린치
▁바예
▁반증
▁수유
▁열등
▁오데
▁우미
▁유흥
▁윤회
▁자니
▁주청
▁치타
▁친형
▁코노
▁탄화
▁테츠
▁합방
▁호라
▁히치
슈타트
▁Har
▁비스트
▁쓰러지
▁지켜야
▁프런트
▁환경부
▁트레이너
▁Pa
▁개년
▁고군
▁다방
▁담화
▁만경
▁성왕
▁여순
▁유예
▁청렴
▁흡혈
정대부
▁228
▁목판본
▁미스트
▁밀워키
▁서산시
▁렸
슈티
실론
ana
ric
▁강판
▁김응
▁냉정
▁도핑
▁성직
▁송병
▁알현
▁장엄
▁패미
▁도지사
▁제작소
▁글래스고
▁ro
▁노년
▁노시
▁반민
▁반원
▁성녀
▁앞당
▁영흥
▁익주
▁일직
▁총지
▁프롬
▁한옥
자동차
echn
▁950
▁fun
▁로스터
▁케네스
▁테레사
▁1836
▁마르티네스
개석
호크
▁거장
▁구했
▁나방
▁넓혔
▁말러
▁방전
▁빈약
▁상석
▁소변
▁의금
▁정순
▁주앙
▁중흥
▁지터
▁초보
▁홍대
노세키
▁군단장
▁노원구
▁멤피스
▁모국어
▁무척추
▁이준용
▁최남단
▁최치원
▁취임식
▁스테레오
▁요시노부
▁팁
부스
▁각인
▁고즈
▁로랑
▁매드
▁반구
▁슈가
▁아레
▁약제
▁예우
▁외젠
▁익사
▁제례
▁칼초
▁핀다
▁혼용
▁007
▁가져올
▁명륜당
▁발명가
▁발행인
▁브리즈
▁비대칭
▁알론소
▁예카테
▁항저우
▁휘두르
▁구스타브
▁저널리즘
99
ech
▁MX
▁건안
▁군현
▁길목
▁눈부
▁도노
▁문부
▁샬럿
▁예리
▁일신
▁전황
▁주살
▁트랩
▁홍명
▁226
▁버틀러
▁움직여
▁Road
▁Hello
치카
▁GD
▁냉방
▁노숙
▁때리
▁라코
▁만능
▁본적
▁서동
▁소토
▁숙의
▁아문
▁여가
▁연마
▁이천
▁이프
▁전폭
▁척탄
▁출근
▁키노
▁Sum
▁도깨비
▁성범죄
▁스턴트
▁에리트
▁요시노
▁울릉도
▁유리수
▁CCTV
▁고속철도
▁레오폴트
▁블레이크
▁프라이드
IE
우며
제곱
체인
ven
▁HE
▁거물
▁기만
▁김나
▁난사
▁독단
▁마태
▁매운
▁물의
▁봐서
▁북면
▁스털
▁썬더
▁엘프
▁전광
▁짝짓
▁출진
소시엄
▁간행물
▁경작지
▁동식물
▁밀양시
▁비서실
▁빼앗긴
▁스타스
▁윈스턴
데하이드
▁컨소시엄
▁콘스탄티노스
뿌리
상도
조작
▁GL
▁가자
▁디시
▁마셨
▁망막
▁바랐
▁병영
▁비오
▁선덕
▁오거
▁우부
▁워런
▁증산
▁증서
▁찬가
▁척수
▁포사
▁폭우
▁풍토
▁갈라진
▁공로자
▁군사령
▁마리나
▁원통형
▁자연사
▁증손자
▁헤이룽
▁1794
▁모모야마
▁블리자드
▁페미니즘
▁알브레히트
▁피타고라스
영향
회로
▁메로
▁섭씨
▁소단
▁속죄
▁아명
▁옴니
▁타국
니우스
미사일
▁520
▁LTE
▁관동군
▁기다렸
▁베르너
▁비디아
▁에스테
▁연천군
▁정규군
▁코르테스
07
시설
bum
ner
▁Af
▁EV
▁OF
▁XX
▁고드
▁고야
▁성희
▁셀러
▁야르
▁일류
▁자급
▁집약
▁키나
컨트리
vent
▁315
▁757
▁관리국
▁아닌지
▁알렉시
▁호찌민
코프스키
▁무너뜨리
▁밀리미터
▁카리스마
▁비로자나불
▁쉘
타야
▁각오
▁난자
▁낸시
▁녹스
▁랭커
▁리턴
▁명맥
▁벨로
▁상도
▁셀프
▁용매
▁이대
▁이매
▁조위
▁코라
▁투영
▁헌제
▁640
▁720
▁게임스
▁다이너
▁도승지
▁아타리
▁Stud
▁콘스탄틴
▁크로스컨트리
yl
기술
서면
젤란
▁el
▁관공
▁마포
▁매표
▁보사
▁사세
▁선더
▁설법
▁성충
▁쇼니
▁잔당
▁재귀
▁접경
▁주시
▁편모
▁217
▁농경지
▁드래건
▁본회의
▁슐레스
▁오미야
▁산마리노
링거
서기
여왕
전력
ism
▁낙농
▁방랑
▁사표
▁살롱
▁심층
▁우화
▁함평
▁화사
바이크
사이클
ital
▁Boy
▁Sci
▁갈아탈
▁끊임없
▁신인왕
▁콩쿠르
▁퍼블릭
루프
피오
하나
▁OP
▁PK
▁김부
▁내사
▁덴버
▁라운
▁러더
▁모레
▁불순
▁여장
▁외전
▁은사
▁이각
▁이근
▁지에
▁티노
▁퍼부
▁퍼진
국민당
ator
▁거문고
▁규장각
▁떠올리
▁불명예
▁오보에
▁위클리
▁허난성
ution
▁1806
▁승부조작
▁우리나라
▁에트루리아
자재
장자
▁고어
▁누워
▁돈녕
▁레고
▁리부
▁슈뢰
▁액정
▁우트
▁임업
▁조모
▁체격
▁테베
▁히바
▁SQL
▁갔으나
▁고창군
▁배포판
▁스코트
▁제작비
▁지린성
▁밝혔으며
▁팬아메리칸
▁리히텐슈타인
셔스
이나
테롤
▁결속
▁낙향
▁산간
▁숨졌
▁욕계
▁주방
▁파헤
▁문화원
▁시크릿
▁야구팀
▁연주가
▁예산군
▁후쿠다
▁매트릭스
처분
▁IB
▁김만
▁단판
▁달래
▁데시
▁박제
▁방황
▁선무
▁송정
▁스퍼
▁승천
▁아의
▁여전
▁이발
▁절연
▁타계
▁표범
▁한진
▁허영
▁후학
▁RPG
▁경제력
▁니케아
▁수호자
▁옆구리
▁이교도
▁Play
▁플라스마
▁ㄱ
우병
▁공회
▁급부
▁단련
▁동결
▁막혀
▁박세
▁스즈
▁시술
▁암벽
▁오정
▁위선
▁인회
▁칼빈
▁토우
▁폐단
▁합전
민정음
▁조선조
▁집합론
▁보냈으며
▁세르비아인
▁딤
▁얌
도체
사병
생명
시계
전리
ony
▁김보
▁낙원
▁대축
▁도큐
▁만두
▁비닐
▁상향
▁원치
▁이교
▁인솔
▁자의
▁주니
▁중사
▁차리
▁치역
▁키시
▁회랑
스타파
oney
▁610
▁기후현
▁남겨진
▁달려가
▁모아서
▁생산력
▁설리번
▁헤이그
▁1842
▁근본주의
▁애기박쥐
▁프레데리크
08
▁쁘
▁웁
곡선
무덤
외과
젠더
▁궁지
▁깔끔
▁노량
▁돌풍
▁릭스
▁만석
▁부마
▁서광
▁아일
▁정설
▁제스
▁주안
▁주필
▁철제
▁카밀
▁탈선
▁희소
클랜드
▁그린다
▁상나라
▁에볼라
▁온전히
▁인구수
▁징병제
▁풀려나
▁1796
▁1798
▁교섭단체
uk
▁칵
돈나
바스
성이
▁군용
▁놓쳤
▁니컬
▁동태
▁미용
▁보비
▁서라
▁순창
▁승소
▁오성
▁추봉
▁키움
▁토고
▁파벨
▁해구
▁현안
▁...
▁wid
▁엄격히
▁완주군
▁족제비
▁코코넛
▁브리트니
▁이스마일
더기
▁간청
▁개회
▁관방
▁구식
▁민자
▁복고
▁신데
▁실라
▁쓸모
▁이륙
▁집현
▁편수
▁윈난성
▁포워드
▁흰개미
▁2030
▁라플라스
▁매일신보
▁보였으며
▁프레드릭
▁훈민정음
MP
요리
IST
▁노획
▁마현
▁밀교
▁번번
▁번복
▁사시
▁수생
▁양부
▁윤봉
▁자폐
▁장부
▁저압
▁절터
▁종과
▁책판
▁캡슐
▁켈러
사와라
▁815
▁다가가
▁닭고기
▁마티아
▁문학사
▁술탄국
▁아이유
▁연구관
▁웰링턴
▁충실히
▁테슬라
▁1832
▁에드워즈
▁코민테른
시프
▁김혜
▁로움
▁비핵
▁성급
▁세나
▁쇼난
▁유혈
▁이젠
▁인장
▁증여
▁차후
▁채팅
▁후생
▁EMI
▁라이터
▁무찌르
▁스털링
▁아즈치
▁앞세워
▁에탄올
▁영화사
▁임팩트
▁철원군
▁That
▁맥도널드
▁페르난데스
HT
▁뺨
고시
야르
화가
▁구국
▁대면
▁문묘
▁소각
▁애도
▁열중
▁위문
▁의화
▁조그
▁치소
▁투고
▁후왕
▁Bad
▁ROM
▁고분자
▁앞부분
▁이주한
▁쿠르트
▁학부모
▁스위프트
▁슐레스비히
UT
▁봅
▁옙
날두
▁금상
▁네프
▁동과
▁동면
▁밀착
▁밤중
▁백국
▁불멸
▁실물
▁이을
▁인현
▁전경
▁탐욕
▁표류
▁하향
▁헌종
port
▁남양주
▁비핵화
▁자치령
▁쫓겨났
▁최북단
▁후백제
▁오가사와라
동면
▁구레
▁기함
▁누설
▁도감
▁도합
▁부록
▁신간
▁염료
▁정산
▁정희
▁진양
▁철권
▁펄스
▁편차
▁호송
▁Rem
▁공모전
▁문학가
▁보두앵
▁사사키
▁에르빈
▁전사자
▁좌찬성
▁호날두
▁레즈비언
▁애틀랜틱
▁소선거구제
들레
밍고
ady
ush
▁대일
▁딸기
▁라나
▁반유
▁방계
▁병인
▁습기
▁알토
▁외출
▁이레
▁최충
▁학제
▁한산
▁감독상
▁단체장
▁불태우
▁스톤스
▁아랍인
▁앙코르
▁연해주
▁전투력
▁주황색
▁헥타르
여지승람
▁King
▁멩
▁젯
공원
눌프
플리
lex
▁KR
▁거둬
▁국명
▁럭키
▁선풍
▁소경
▁수능
▁애너
▁잡음
▁전소
▁조미
▁치앙
▁토레
▁학비
▁660
▁NHL
▁나가토
▁실종자
▁안성시
▁엄밀히
▁오와리
▁주간지
▁칭한다
▁한니발
▁그레이스
▁마우리아
▁아르눌프
▁받아들여졌
▁브라이언트
▁외할아버지
▁경부고속도로
▁다뤄
▁박현
▁벤자
▁양재
▁유추
▁의종
▁인턴
▁다섯째
▁대문자
▁미즈노
▁본다면
▁인터랙
▁재정부
▁지원금
▁하코다
▁해산물
▁헤이룽장
▁Colle
뿔소
▁MT
▁누벨
▁두만
▁래드
▁명은
▁묵시
▁상온
▁수륙
▁신현
▁와다
▁왜적
▁절도
▁정토
▁질산
▁처단
▁철교
▁침전
form
▁222
▁다름없
▁박지원
▁플루트
▁시켰으나
▁이오시프
▁지느러미
▁뛸
급수
상가
▁로메
▁명회
▁물병
▁소감
▁암술
▁의리
▁의외
▁임사
▁참봉
▁태사
orce
▁Met
▁도리어
▁메이어
▁밀어내
▁생김새
▁어쨌든
▁원동력
▁조직원
▁상륙작전
▁뺀
▁젓
농사
테아
▁간간
▁고금
▁관철
▁기흥
▁마수
▁반장
▁변제
▁출제
▁피노
▁화친
이스터
▁각운동
▁귀족원
▁미완성
▁이시다
▁잉글리
▁코러스
▁트래픽
▁마이니치
▁아이패드
공간
▁견딜
▁당부
▁모셨
▁사향
▁영하
▁작인
▁종일
▁파샤
▁필적
스토크
▁232
▁min
▁구독자
▁김유신
▁명탐정
▁사림파
▁오리올
▁완도군
▁유망주
▁카네기
▁코페르
▁1790
▁모노레일
▁이끌어냈
병원
연장
▁교두
▁구어
▁김소
▁메우
▁방비
▁보임
▁수개
▁수계
▁아코
▁연성
▁유유
▁일례
▁참호
▁철로
▁쿼드
▁글리세
▁독립당
▁비행단
▁수감자
▁오시마
▁참정권
▁창세기
▁1810
▁1831
▁트랜스젠더
04
YS
영화
iew
▁기틀
▁단가
▁레퍼
▁몰살
▁소드
▁알카
▁야후
▁오두
▁지루
▁차질
▁티오
▁페퍼
▁폐막
▁피르
유철도
▁가부장
▁소시지
▁앙투안
▁의성군
▁해남군
▁일본국유철도
▁핍
국수
그란
에즈
평동
▁괴로
▁노릇
▁당도
▁도립
▁봉승
▁선왕
▁어판
▁존호
▁지토
▁총합
▁투과
껍데기
수산부
raph
▁216
▁264
▁not
▁글라스
▁밀려나
▁진동수
▁척탄병
▁브루크너
▁시스템즈
▁어니스트
▁총영사관
▁프로테스탄
대왕
등기
차크
케인
▁no
▁공생
▁괴산
▁꾸짖
▁노포
▁떨치
▁명창
▁빌레
▁시메
▁신년
▁아강
▁양당
▁유약
▁클락
▁파가
▁핸들
▁황궁
연수원
▁Run
▁선발전
▁아즈마
▁자위대
▁콜레스
▁라그랑주
▁스트라스
▁사법연수원
pm
sc
키타
트론
elf
▁pH
▁간통
▁국자
▁보손
▁분실
▁삼남
▁승탑
▁윤지
▁제군
▁주공
▁초본
▁초조
▁촉한
▁침착
▁후버
▁흐루
레이스
▁괴팅겐
▁생산지
▁정반대
▁제이미
▁타이밍
▁테크니
▁퍼거슨
▁포터블
▁피난민
▁우쓰노미야
▁노스캐롤라이나주
af
▁엷
바노
슬란
▁노토
▁다롄
▁덕흥
▁불도
▁빽빽
▁신변
▁였었
▁키요
▁현내
사우스
▁달팽이
▁도요타
▁미시마
▁울타리
▁휴양지
▁that
▁각운동량
▁다다요시
▁인사이드
▁Great
▁width
▁알렉산드로
권력
라프
레도
루브
치니
▁군무
▁극좌
▁레흐
▁루브
▁방형
▁성호
▁속현
▁송강
▁아슈
▁엣지
▁영일
▁자객
▁장진
▁전량
▁조산
▁항거
그래프
스트로
▁Are
▁RCA
▁노동부
▁정나라
컬럼비아
▁다카마쓰
▁align
▁무척추동물
▁브리티시컬럼비아
▁쉼
▁횃
가슴
오버
▁나자
▁루르
▁바뀔
▁범하
▁수월
▁승패
▁아픈
▁윤종
▁최규
▁피플
▁410
▁460
▁레인지
▁아소카
▁애슐리
▁이와키
▁주둥이
▁클리프
▁호프만
▁레퍼토리
▁밀레니엄
▁사회주의자
마켓
ane
▁고우
▁구워
▁김봉
▁다나
▁로워
▁배럴
▁살균
▁쌍방
▁양시
▁에니
▁중문
▁코흐
▁호골
▁다케시
▁달성군
▁부스터
▁예비치
▁은평구
▁타고난
▁합법화
▁Every
▁콜레스테롤
▁깅
테리
폭스
▁we
▁난방
▁남문
▁발단
▁서훈
▁설가
▁성층
▁수제
▁어가
▁엥겔
▁이여
▁지파
▁차우
▁청두
▁하일
▁스러웠
▁어딘가
▁오로라
▁일레븐
▁일수록
▁제사장
▁요시히로
▁워싱턴주
WA
▁꿇
넬리
누이
묘지
장어
ama
▁겸했
▁근해
▁로펌
▁마더
▁북로
▁어셈
▁전군
▁중주
▁파노
르트르
▁로런츠
▁의금부
▁인더스
▁지휘봉
▁진흥왕
▁호몰로지
▁노브고로드
▁숄
보냈
우마
틸렌
▁EL
▁광석
▁난입
▁누명
▁라부
▁린네
▁분대
▁생후
▁오수
▁채운
▁파월
▁가극단
▁고르바
▁법학자
▁벗어났
▁안후이
▁테크닉
▁비정규직
▁나가사키현
09
렉트
를로
▁가위
▁뜨겁
▁매겨
▁몽케
▁비사
▁신디
▁여류
▁옐친
▁위엄
▁윈저
▁유색
▁정장
▁졸라
▁판권
▁허무
▁후스
▁Cor
▁가속도
▁김천시
▁복잡도
▁슈바르
▁애프터
▁1841
▁요시타카
▁모터사이클
▁갈레
▁계책
▁극성
▁남측
▁레니
▁색슨
▁석학
▁석호
▁에렌
▁연골
▁원예
▁임차
▁장력
▁티니
▁프시
▁홍준
▁회합
▁군주국
▁귀퉁이
▁리오스
▁탈바꿈
▁통영시
▁멕시코시티
▁Project
KA
무드
물질
복음
상부
▁Je
▁고비
▁군왕
▁그걸
▁멜리
▁시퀀
▁친필
▁카렌
▁튜버
▁파탄
tain
▁공예품
▁몰아넣
▁보성군
▁보이콧
▁빠진다
▁야나기
▁엡실론
▁올바르
▁음식물
▁총동원
▁케이지
▁터키어
▁토착민
▁this
▁스토리지
▁스파이크
▁베른하르트
▁캇
넬라
테크
ney
▁UI
▁결부
▁곤도
▁다원
▁린턴
▁만과
▁본드
▁북조
▁성찰
▁실격
▁안트
▁업종
▁울림
▁유모
▁입교
▁정대
▁져야
▁조예
▁커비
▁버펄로
▁보이저
▁서양식
▁안타깝
▁위아래
▁인도인
▁칭다오
스티누스
▁Inst
▁호쿠리쿠
▁고르바초프
▁귄
미드
카레
ene
uth
▁FL
▁꾸려
▁만력
▁맬컴
▁색계
▁선법
▁심볼
▁안달
▁야인
▁원추
▁정랑
▁처남
▁청조
▁타사
거래소
라이즈
▁UAE
▁구로다
▁반다이
▁벤자민
▁찾아갔
▁프로페
▁고이즈미
lement
▁School
단조
숭아
티니
ott
▁ha
▁각계
▁개폐
▁교위
▁레게
▁불허
▁셰리
▁수완
▁애버
▁양전
▁양제
▁엘튼
▁외세
▁이따
▁이랑
▁전처
▁전횡
▁휘그
웨일스
▁YTN
▁제이콥
▁차이나
▁1843
▁남태평양
퇴근
퓨터
ins
ize
▁노블
▁느려
▁사멸
▁신창
▁신촌
▁연선
▁연필
▁원균
▁처우
▁체이
▁총력
▁코팅
▁타다
▁판각
▁234
▁괴롭히
▁뱅크스
▁소방관
▁애스턴
▁전쟁터
▁집현전
▁가선대부
▁뉴사우스
▁아나스타
▁코페르니
▁뉴사우스웨일스
▁웸
북동
▁궁예
▁권영
▁궤간
▁금하
▁니르
▁뒤편
▁매료
▁매핑
▁미혼
▁박차
▁보답
▁신파
▁연체
▁지의
▁진관
▁찬반
▁키미
▁판문
ript
▁강진군
▁거주민
▁기술력
▁밤하늘
▁설득력
▁아니한
▁에이미
▁태그팀
▁맥도날드
▁원더러스
뉴얼
rag
▁감로
▁건지
▁김효
▁다짐
▁사네
▁사족
▁산군
▁아포
▁어간
▁은상
▁임지
▁자상
▁재량
▁통사
▁퍼드
▁Rad
▁구로구
▁로망스
▁바이든
▁생물체
▁설계자
▁양주군
▁여겨져
▁케로로
▁와이파이
▁안드레아스
길동
룬궁
티엄
▁겸손
▁권선
▁내비
▁동음
▁마의
▁수혈
▁체의
▁페론
▁213
▁그리핀
▁남원시
▁막바지
▁만화책
▁명명법
▁미나토
▁미야코
▁파룬궁
▁펜티엄
▁흘러가
▁고다이고
가쿠
장식
조치
▁꼭두
▁리빙
▁보은
▁야자
▁장직
▁주오
▁탈옥
▁허니
▁Web
▁key
▁그려졌
▁호르헤
▁1804
▁1809
▁오카자키
▁하비에르
▁옥타비아누스
▁샛
경제
로리
마뉴
에타
웨시
▁가노
▁간헐
▁국판
▁근심
▁넥슨
▁도민
▁도조
▁비안
▁뽑히
▁신드
▁예제
▁옐로
▁울진
▁음극
▁텐트
▁파멸
▁하룻
▁219
▁255
▁GPU
▁강동구
▁광명시
▁김제시
▁라이히
▁리스크
▁마돈나
▁마애불
▁바꾼다
▁서보장
▁송광사
▁우참찬
▁유태인
▁주택지
▁파올로
▁하야시
▁1623
▁더글라스
▁샤를마뉴
▁술라웨시
▁신데렐라
▁score
▁스파이더맨
▁욜
키르
푸라
eng
▁DE
▁DP
▁Im
▁up
▁구파
▁그립
▁금품
▁드롭
▁머릿
▁법당
▁산학
▁수기
▁온양
▁총상
▁캐스
▁탄탄
▁특파
▁함포
▁홍주
라리온
▁버몬트
▁출퇴근
▁프렌치
▁1783
▁트랜스포
▁20120
▁농어촌버스
▁시에라리온
노신
사촌
암면
▁급유
▁무적
▁배송
▁선주
▁스메
▁야노
▁우의
▁정열
▁총관
▁치를
▁회생
▁Mod
▁부대원
▁비트겐
▁샐러드
▁생산물
▁안기부
▁양주시
▁편집기
▁홋스퍼
▁카슈미르
▁비트겐슈타인
SI
더드
룩스
▁UF
▁금주
▁길쭉
▁남명
▁박철
▁본점
▁분립
▁석물
▁유람
▁이변
▁임박
▁전법
▁정운
▁지세
▁탁발
▁포체
▁혈연
▁환생
어도어
▁EOS
▁val
▁공포증
▁담양군
▁하룻밤
라이언스
▁1805
▁1819
▁가시광선
▁궁수자리
▁손꼽힌다
▁시어도어
민턴
중미
▁결점
▁농노
▁다기
▁단념
▁마네
▁발데
▁삼가
▁섹시
▁유복
▁재기
▁쟁탈
▁지국
▁찔러
▁취역
▁카도
▁커맨
▁호우
▁Rob
▁과도기
▁대해선
▁북중미
▁신숙주
▁진도군
▁초능력
▁형이상
▁1813
▁1835
▁디바이스
▁허베이성
▁오키나와현
▁헤르베르트
▁퀵
난히
사지
청정
rop
▁VR
▁nt
▁가파
▁간척
▁고주
▁괴테
▁농악
▁라야
▁문답
▁배재
▁부역
atic
▁감염병
▁사토시
▁줄리엣
▁지낸다
▁이야말로
05
▁라빈
▁라타
▁레노
▁민병
▁부러
▁불의
▁비탈
▁장본
▁조희
▁집시
▁포지
▁혼재
▁Sub
▁관광업
▁넘어섰
▁메이크
▁방문자
▁베니스
▁불안감
▁스포트
▁키루스
▁1799
▁1803
▁1821
▁나카지마
▁매개변수
▁였음에도
▁클라우스
▁땐
럭스
조약
▁광원
▁교신
▁네온
▁놀랍
▁도당
▁돌방
▁돌진
▁레터
▁마역
▁메기
▁박희
▁사노
▁생부
▁소부
▁수미
▁순치
▁조안
▁증설
▁최승
▁타니
▁드나들
▁무너진
▁미소녀
▁옮겨져
▁장시간
▁지구대
▁훈련소
▁배드민턴
▁법무법인
▁애리조나주
▁뎀
런드
롤터
춘기
▁겸비
▁달인
▁대간
▁루빈
▁마세
▁명기
▁몰렸
▁바드
▁배합
▁보주
▁성상
▁성시
▁셀라
▁속박
▁송영
▁수험
▁심혈
▁암반
▁엿보
▁원대
▁유랑
▁유례
▁응고
▁저마
▁하랄
그레브
레우스
▁275
▁Off
▁She
▁구조대
▁비무장
▁카세트
▁파스타
▁소프라노
▁슬라이드
▁아사쿠라
▁에인절스
▁자그레브
▁지브롤터
▁프로펠러
▁크리스토프
광석
시다
야카
엄경
코어
▁기류
▁놀란
▁다승
▁따를
▁무마
▁무학
▁밀로
▁선산
▁수차
▁순국
▁순사
▁쓰키
▁연례
▁오존
▁유쾌
▁인맥
▁주루
▁지망
▁지온
▁창사
▁친교
▁티미
▁Ind
▁모여들
▁밑부분
▁상주시
▁소유주
▁시스터
▁어려우
▁영동군
▁플뢰레
▁1845
▁YMCA
▁다이렉트
▁슈바르츠
▁신약성경
▁인기가요
ations
na
블러
입상
ams
▁Mc
▁UP
▁am
▁계면
▁나포
▁레디
▁리포
▁마유
▁병리
▁보천
▁서영
▁스무
▁엘렌
▁옮길
▁체사
▁축약
▁충절
▁탈라
▁파머
▁혼슈
▁히포
드랑이
적으로
▁Bel
▁내려지
▁멧돼지
▁번역본
▁저수지
▁제후국
▁주사위
▁홍준표
▁전자기파
▁인터랙티브
we
로메
함대
▁Em
▁공제
▁데릭
▁만호
▁부계
▁서군
▁임성
▁정육
▁진봉
▁크래
즈버그
▁ARM
▁기울기
▁발레리
▁브란트
▁블레어
▁소시에
▁아이비
▁칼리파
▁와이오밍
▁핵미사일
AX
노지
바야
▁VV
▁각서
▁격돌
▁다호
▁라모
▁리호
▁버디
▁세세
▁신겐
▁여흥
▁유린
▁조밀
▁조앤
▁종용
▁중류
▁총신
▁구락부
▁레이드
▁아프간
▁얼스터
▁완성도
▁이영호
▁창녕군
▁함양군
▁휘트니
▁마스터스
▁전체주의
▁구마모토현
UL
스프
시효
erm
oph
▁MY
▁만지
▁매화
▁비장
▁시군
▁아령
▁우등
▁원뿔
▁절개
▁조운
▁주정
▁질의
▁참새
▁한일
▁함인
리스타
복지부
▁FTA
▁OEC
▁기울여
▁로열스
▁번역가
▁에드윈
▁올린다
▁지원군
▁출연진
▁혁명당
▁영지주의
▁코르도바
▁해양수산부
▁넵
두스
봉산
▁RF
▁격분
▁근친
▁나크
▁눈앞
▁민진
▁분투
▁성유
▁심했
▁왕전
▁재가
▁주동
▁중창
▁클립
▁흑자
▁교회법
▁근거리
▁모리슨
▁바울로
▁양방향
▁오마르
▁웸블리
▁자존심
▁호스팅
▁루즈벨트
▁킬로그램
▁플러그인
▁20100
미츠
바겐
▁WK
▁경직
▁군소
▁데루
▁무오
▁비법
▁산도
▁애비
▁양공
▁예거
▁와시
▁유병
▁육류
▁인방
▁전각
▁중년
▁청천
티나무
▁레이터
▁색소폰
▁의석수
▁출발점
▁퇴적물
▁흑사병
▁Down
▁엑스트라
▁카스트로
▁페미니스트
▁코페르니쿠스
NS
▁댁
▁펨
칼라
▁강탈
▁급하
▁김익
▁랄프
▁로잔
▁리티
▁목도
▁밀수
▁알린
▁완충
▁원지
▁일광
▁지산
▁파면
▁피력
▁활력
▁횃불
프리트
▁금산군
▁떨어질
▁사회부
▁알아냈
▁연나라
▁요시오
▁음성군
▁파르티
▁피루브
▁HTTP
▁Just
▁증권거래소
▁평양직할시
러니
보전
▁광무
▁남진
▁밀정
▁반탁
▁산양
▁스물
▁외쳤
▁저당
▁친다
▁탱화
▁행했
▁헌트
어진다
▁기쿠치
▁디지몬
▁마우리
▁브리핑
▁비욘세
▁산사태
▁전반전
▁파이낸
▁해져서
▁화물선
▁이탈리아인
xy
▁헴
렌츠
별초
비노
신기
아노
콘티
하리
▁구지
▁김순
▁노팅
▁만네
▁뭉치
▁미케
▁밀크
▁바레
▁상보
▁세그
▁압승
▁앵무
▁왕망
▁은총
▁전령
▁진폭
▁청양
▁친근
▁타트
▁프티
▁하녀
▁행법
atur
▁Ste
▁모기업
▁밝혀냈
▁사춘기
▁영암군
▁오쿠보
▁트렌드
▁현무암
▁에마누엘
▁엠파이어
▁트리니티
▁미네소타주
▁아케메네스
▁에리트레아
▁갠
어놓
혈병
▁견과
▁결번
▁금오
▁마두
▁무녀
▁벌리
▁변의
▁앤젤
▁양사
▁오귀
▁오드
▁이비
▁지와
▁타치
▁포프
가르드
▁결론지
▁노나라
▁라이즈
▁점령지
▁크레인
▁파이썬
▁어린아이
▁주계열성
▁금메달리스트
03
▁윅
네세
르노
해져
▁GE
▁Sk
▁동관
▁마드
▁면치
▁목축
▁본가
▁섹터
▁쌓이
▁야오
▁역법
▁오코
▁옥중
▁진남
▁키라
▁회가
▁OVA
▁가져야
▁간담회
▁고구마
▁느냐고
▁동반자
▁사마의
▁사바나
▁이즈모
▁작용소
▁정읍시
▁지원병
▁칼데라
▁토레스
보스토크
▁스트로스
▁가고시마현
▁야마구치현
▁얼라이언스
▁블라디보스토크
▁International
06
▁웡
곡사
마트
지도
ues
▁Mk
▁루가
▁모계
▁미화
▁순절
▁요나
▁윙스
▁입선
▁자가
▁전태
▁황조
▁are
▁도에이
▁득점자
▁수니파
▁수행원
▁스텔라
▁오사무
▁자라나
▁친동생
▁학년도
▁헤비급
▁호나우
▁1802
▁마츠모토
▁비스콘티
▁아랫부분
▁일어났으며
기군
버린
air
▁공구
▁궁녀
▁기로
▁도체
▁무릅
▁분청
▁시보
▁아방
▁얽힌
▁주미
▁투라
▁투아
▁팔로
▁한수
▁Act
▁경순왕
▁고생물
▁다이라
▁동작구
▁로도스
▁빌리지
▁수공업
▁아르마
▁아무르
▁징역형
▁크롬웰
▁1775
▁OECD
▁마사히로
▁스포르차
예보
타기
▁계림
▁산현
▁석축
▁엄호
▁오언
▁용자
▁은색
▁이분
▁정미
▁주법
▁특진
▁한눈
어머니
▁거창군
▁메이드
▁문교부
▁박원순
▁불어넣
▁사이키
▁식료품
▁영연방
▁음악상
▁전임자
▁전환점
▁느티나무
▁Korea
▁팥
벌린
▁게코
▁드론
▁랭스
▁메노
▁버림
▁병장
▁본따
▁시랑
▁아난
▁우먼
▁유현
▁푸트
▁햇볕
▁행태
세이돈
▁218
▁227
▁Che
▁POS
▁내려진
▁서커스
▁아르타
▁정한다
▁푸른색
▁1824
▁중합효소
▁포세이돈
▁피루브산
▁Award
▁소시에다드
만금
요크
지우
클로
튠즈
튿날
▁다각
▁단테
▁막말
▁미쿠
▁미티
▁백금
▁상아
▁오피
▁완패
▁자모
▁자일
▁장충
▁직구
▁추도
▁해면
▁BSD
▁ver
▁새만금
티아누스
aster
▁개혁주의
▁세그먼트
▁아이튠즈
▁Micro
EX
레마
쿼이
투라
파업
▁급식
▁들판
▁문공
▁미역
▁민첩
▁선분
▁소이
▁신당
▁에베
▁옥고
▁이쿠
▁중군
▁차내
▁차인
▁측도
▁크누
▁Ang
▁Who
▁매출액
▁세이버
▁위안스
▁중국식
▁터뜨렸
▁폭발물
▁피에로
▁1808
▁AIDS
▁모른다는
▁켄터키주
▁페가수스
▁Power
게니
들인
러햄
슈빌
에다
▁OR
▁강민
▁굴곡
▁기즈
▁높일
▁미처
▁미쳐
▁어퍼
▁에그
▁의향
▁취입
▁패소
리스토
▁325
▁CNN
▁Inc
▁노키아
▁메이슨
▁바르트
▁에반스
▁에이커
▁중앙당
▁차일드
▁총파업
▁함안군
▁Fire
▁comp
▁스피어스
MC
▁깼
▁폈
궤도
란도
마당
정지
▁감속
▁금당
▁넓적
▁눈길
▁문란
▁발부
▁비비
▁상학
▁완행
▁원순
▁장방
▁처참
▁추앙
▁판독
샤오핑
▁224
▁How
▁껍데기
▁남대문
▁마사카
▁몽골족
▁무용가
▁쌍계사
▁애호가
▁에리히
▁에스터
▁올라프
▁이튿날
▁전산망
▁중견수
▁태권도
▁확고히
ittle
▁9000
▁덩샤오핑
▁수양대군
▁야마시타
▁야마자키
▁올렸으며
▁오스트로네시아
▁콴
놀룰
분별
아비
riv
▁고보
▁나베
▁데어
▁러너
▁리야
▁망하
▁소하
▁시련
▁시연
▁약체
▁어종
▁원당
▁유파
▁임해
▁접대
▁주박
▁찬송
▁해법
▁화의
▁환호
놀룰루
ates
▁253
▁316
▁512
▁공격력
▁맞물려
▁매크로
▁문인석
▁보령시
▁에이드
▁여호와
▁청년단
▁피어슨
▁합중국
▁1807
▁1834
▁에스파뇰
▁호놀룰루
▁홀로코스트
▁뭄
oud
▁Bu
▁기예
▁누드
▁명곡
▁문항
▁복건
▁볼라
▁섀도
▁스이
▁여종
▁이륜
▁정석
▁책상
▁헤아
오피스
▁305
▁관람객
▁날카롭
▁노선도
▁안보리
▁체이스
▁동프랑크
▁마리우스
▁요시쓰네
▁이사벨라
▁에이브러햄
▁아르메니아인
▁텃
리시
사쿠
▁DX
▁TF
▁계모
▁도저
▁돌궐
▁말갈
▁소급
▁수려
▁야산
▁오레
▁입회
▁작화
▁투척
▁티어
▁평온
▁501
▁교통량
▁미하엘
▁밀리언
▁보상금
▁안타까
▁유타카
▁짝사랑
▁팬클럽
▁평양성
▁휘발유
irect
▁행방불명
▁위안스카이
▁씹
▁가릴
▁기약
▁김택
▁덩치
▁보가
▁삼위
▁생년
▁쉬르
▁신보
▁양치
▁제원
▁지났
▁행차
▁헤딩
▁후천
▁고흥군
▁기업체
▁노이즈
▁마쓰이
▁무제한
▁발사대
▁2023
▁비상사태
▁아오야마
▁카롤링거
▁췌
가라
기름
마침
와르
케라
ava
▁그쳐
▁나혜
▁남만
▁냉장
▁뒷날
▁부치
▁빌럼
▁성결
▁송준
▁오위
▁장화
▁정다
▁호에
샘프턴
▁괴산군
▁내려왔
▁쉐보레
▁웨이크
▁청계천
▁홍성군
▁삼위일체
▁시리우스
랜도
촌면
▁노우
▁뒤셀
▁반월
▁영창
▁우여
▁응축
▁카고
▁커밍
▁특산
▁940
▁감사원
▁니제르
▁덕양구
▁마산시
▁발상지
▁스피릿
▁스피어
▁완벽히
▁하르트
▁Game
▁콤플렉스
▁Dance
▁뒤셀도르프
▁반유대주의
MI
▁RX
▁간쑤
▁강박
▁귀박
▁랜스
▁손오
▁아수
▁알프
▁위세
▁잠들
▁태클
▁합세
▁행주
▁후두
트리스
▁303
▁경사면
▁당분간
▁미코토
▁처해졌
▁스키타이
▁불러일으키
TO
도어
메라
정책
▁거센
▁넘긴
▁데라
▁반칙
▁시급
▁쓰쿠
▁영제
▁웨딩
▁장유
▁보수파
▁세포질
▁외래어
▁말레이어
▁사고방식
▁스트라스부르
du
내려
문왕
바사
ape
▁가석
▁가압
▁경쾌
▁고레
▁김좌
▁박명
▁백마
▁백석
▁불발
▁상쇄
▁세드
▁진왕
▁터리
간지주
ster
▁Tim
▁all
▁강우량
▁유키오
▁테레비
▁당간지주
▁레버쿠젠
▁아라카와
▁알려준다
▁페니키아
▁폭스바겐
▁라이프니츠
▁힝
래곤
베그
▁구드
▁뒤지
▁드와
▁바쁜
▁봉선
▁부령
▁소공
▁수모
▁승화
▁역간
▁원호
▁이숙
▁이요
▁체구
▁편평
▁폐암
▁포티
▁황룡
룸푸르
▁777
▁AEK
▁Ass
▁par
▁교차점
▁마쓰다
▁마인츠
▁보병대
▁수녀원
▁신생아
▁아오이
▁으라고
▁신비주의
▁트랜스포머
멘토
시장
진법
▁고단
▁끝낸
▁단락
▁따내
▁라브
▁로카
▁민방
▁백범
▁산세
▁석굴
▁소조
▁심취
▁쓰시
▁윔블
▁유황
▁제석
▁조망
▁줘야
▁충정
▁코비
▁키보
▁탑비
▁테너
▁퇴학
▁티비
▁훔치
▁Dav
▁Hol
▁국경선
▁귀여운
▁그레그
▁대장경
▁미카와
▁바나흐
▁상거래
▁상상력
▁수족관
▁케이시
▁타악기
▁힐러리
▁리카르도
▁우르바노
▁인조반정
▁콜로라도
▁시모노세키
▁잘츠부르크
bs
▁쭉
냅스
룬디
햄프
호텔
▁TP
▁가내
▁감형
▁고라
▁내통
▁명실
▁속기
▁음각
▁입힌
▁전치
▁코토
▁토구
▁특보
▁판교
헌대부
▁Pre
▁net
▁동구권
▁밸런스
▁부산물
▁비키니
▁시냅스
▁아폴론
▁옥타브
▁원거리
▁조사단
▁집대성
▁철도선
▁플레어
▁홍천군
▁회의소
▁Mark
▁스테로이드
▁항공우주국
▁프로테스탄트
CO
DR
비시
슈나
카쓰
톱스
▁감영
▁공위
▁남코
▁대시
▁미구
▁소현
▁육조
▁인어
▁컴포
▁해충
▁헬멧
게임넷
오스트
▁눈동자
▁뉴햄프
▁모니카
▁앨리슨
▁올랜도
▁윔블던
▁이동식
▁행진곡
케라톱스
▁온게임넷
▁포츠머스
▁하코다테
45
zy
구동
레알
▁가만
▁각하
▁대연
▁데크
▁동주
▁면화
▁명망
▁반투
▁방목
▁살린
▁용법
▁책자
▁하토
ield
▁Now
▁나바라
▁두만강
▁무릅쓰
▁스턴스
▁아비뇽
▁악영향
▁안재홍
▁초음파
▁카오스
▁하남시
▁1392
▁러더퍼드
▁보인다고
▁스포츠카
공격
미분
와트
저기
정기
▁김남
▁납북
▁다로
▁단풍
▁벌써
▁병참
▁볼가
▁예장
▁원초
▁음수
▁이서
▁잡스
▁최국
▁치부
▁칸토
▁코덱
노스케
ited
▁Air
▁KAI
▁마틸다
▁모음곡
▁속임수
▁에테르
▁으리라
▁케이티
▁다이라노
▁Again
▁보건복지부
오스트레일리아
▁긁
고백
바트
발라
정신
페라
학사
ARD
▁노섬
▁방직
▁전영
▁카누
▁카베
▁쿠프
▁토후
▁학식
▁해탈
▁홍진
▁힉스
▁530
▁Pol
▁극소수
▁두터운
▁때마침
▁사브르
▁추진력
▁허정숙
▁신앙고백
▁이뤄지지
▁등지느러미
▁보니파시오
▁Records
곡절
코더
err
▁IL
▁굴뚝
▁내과
▁봉천
▁성역
▁속곡
▁아퀴
▁악한
▁완강
▁입방
▁잡종
▁접견
▁조아
▁진법
▁포경
▁피파
▁헬라
아가라
▁560
▁999
▁계엄령
▁긴꼬리
▁리소스
▁복숭아
▁윤선도
▁1597
▁구약성경
▁들어올렸
▁바티스타
▁나이아가라
널리
춘추
타일
▁관부
▁근현
▁나침
▁다트
▁당산
▁도맡
▁두아
▁마정
▁무아
▁무찔
▁문리
▁응집
▁집게
▁초인
▁퀴어
▁택했
▁터진
로니카
▁401
▁교두보
▁글쓰기
▁나혜석
▁마사키
▁바바라
▁아라이
▁에드거
▁였으니
▁의용군
▁지배층
▁표준시
▁1833
▁그리피스
▁아이오딘
자브
준호
징금
▁di
▁고차
▁고환
▁더그
▁만인
▁본대
▁사샤
▁세아
▁소국
▁써야
▁아머
▁우가
▁육사
▁저온
▁전업
▁지프
▁쫓기
▁천성
▁최성
▁판무
▁평단
▁횡포
소년단
▁237
▁Und
▁계획안
▁느냐는
▁니코스
▁리저브
▁살펴볼
▁스파크
▁자부심
▁좌참찬
▁코나미
▁블루투스
▁우여곡절
▁크리스털
▁꼰
▁젝
너리
비르
원사
ari
▁MK
▁레우
▁록맨
▁마름
▁말엽
▁명작
▁묶음
▁뮤즈
▁미뤄
▁분신
▁쉬워
▁스맥
▁정할
▁제논
▁조중
▁조짐
▁초급
▁트립
ning
▁Cal
▁Tri
▁아우디
▁에릭슨
▁엘리사
▁접두사
▁툴루즈
▁파이트
▁거듭제곱
▁차이콥스키
▁툭
그러
통감
▁고귀
▁군역
▁꾸란
▁낙관
▁맞먹
▁베넷
▁봉토
▁순응
▁시세
▁식읍
▁우암
▁입석
▁진평
▁청해
▁포이
▁호분
ther
▁공양왕
▁부산시
▁산기슭
▁중랑장
▁1787
▁1816
▁Real
▁못했으나
▁여기저기
▁꽉
▁텀
관총
토끼
mas
▁LD
▁근소
▁기라
▁김철
▁깔려
▁난해
▁망설
▁민다
▁볼링
▁정혜
▁중경
▁코칭
▁항법
▁540
▁가나안
▁가평군
▁데이먼
▁말라위
▁밝혀내
▁성행위
▁아라키
▁이뤄져
▁차라리
▁청도군
▁카톨릭
▁프레시
▁1818
▁대통령령
▁아세트산
▁트라우마
▁파이어폭스
니히
수사
이츠
▁그게
▁노린
▁리허
▁미그
▁사선
▁삼매
▁수탈
▁시한
▁재실
▁좌완
▁진중
▁최윤
▁캐넌
▁캐머
▁팀원
▁풀럼
▁회동
레슈티
▁244
▁321
▁Fre
▁RFC
▁가석방
▁가와치
▁개정판
▁로미오
▁벌어져
▁세바스
▁시행령
▁쓰러졌
▁유미르
▁지하수
▁콜레라
▁펀자브
▁중앙유럽
▁파이터스
▁파트너십
▁하이델베르크
네일
네즈
다녔
무로
무진
부패
카시
▁노렸
▁도총
▁동리
▁문의
▁반년
▁법대
▁변태
▁브렛
▁생육
▁스탄
▁실링
▁심복
▁양명
▁외직
▁일인
▁재림
▁정우
▁총명
▁파급
▁풍미
▁환각
ated
ring
▁Ver
▁공학부
▁다녀온
▁대동강
▁루도비
▁명목상
▁미에현
▁인디아
▁프리덤
other
▁다이오드
▁형이상학
▁gr
▁가출
▁고영
▁공론
▁길가
▁꾸민
▁루벤
▁만행
▁묵살
▁산후
▁선화
▁성심
▁성안
▁앤트
▁인내
▁칸나
▁칼날
▁킬리
▁포용
▁풍선
▁한상
▁265
▁SUV
▁남북한
▁레이테
▁마라도
▁박중양
▁정선군
▁직선제
▁청량리
▁캐롤라
▁킵차크
▁프로스
▁후시미
보르기니
▁부정부패
GE
ME
가이
계선
권법
시니
포도
▁간극
▁끈질
▁난부
▁데프
▁봐도
▁스탬
▁양털
▁엄중
▁외피
▁저상
▁코메
▁풍력
▁풍산
▁행각
▁강경파
▁곁들여
▁마일스
▁방어력
▁베로나
▁알파인
▁에이트
▁에치젠
▁전해진
▁히데키
▁스맥다운
▁Never
▁람보르기니
▁셉
미나
저리
주제
플라
▁;"
▁게양
▁기복
▁눈금
▁더미
▁돌이
▁문호
▁반시
▁발문
▁소제
▁시녀
▁전초
▁차려
▁타개
▁풍화
▁혼수
▁효행
▁남해안
▁바르톨
▁유배지
▁의령군
▁의사당
▁정약용
▁칠곡군
▁Home
▁교통수단
▁못한다는
▁사쿠라이
▁오스카르
▁제네시스
▁찜
샤르
▁OG
▁Si
▁고상
▁대례
▁될지
▁람다
▁레브
▁박은
▁버금
▁사철
▁선적
▁수박
▁수세
▁순화
▁일축
▁천억
▁팬텀
▁필즈
▁헌팅
▁호두
▁회남
루시아
▁262
▁311
▁680
▁기록물
▁달서구
▁대국민
▁대사성
▁리처즈
▁부안군
▁붙인다
▁수산화
▁원작자
▁홍백가
▁레이아웃
▁뻘
델라
양동
전동
카즈
ATA
vil
▁개천
▁고명
▁교배
▁금발
▁기쁘
▁명승
▁샤먼
▁식단
▁악용
▁유괴
▁유토
▁이충
▁치솟
▁후량
▁245
▁imp
▁김원봉
▁나침반
▁단양군
▁대마도
▁머레이
▁불명확
▁옹정제
▁이주해
▁줄어드
▁체로키
▁국민정부
▁마사유키
▁카를로만
▁히타이트
any
▁OH
▁간택
▁객사
▁독학
▁마샬
▁모면
▁백련
▁병부
▁사돈
▁아보
▁양각
▁외양
▁요사
▁우레
▁원류
▁유표
▁정광
▁태위
▁토막
▁풀밭
티스트
ling
▁레슬러
▁모닝구
▁부딪혀
▁상록수
▁성장률
▁신뢰도
▁이따금
▁초나라
▁페라라
▁화학식
▁스탠다드
▁프레이저
▁20200
▁프로페셔널
ek
▁눔
▁켤
디트
쓰키
inc
ook
▁갇힌
▁농심
▁바루
▁박문
▁변명
▁소신
▁악몽
▁에워
▁장도
▁철새
▁판화
▁학관
▁흘려
평대군
ival
▁263
▁DMB
▁Mer
▁UTC
▁골프장
▁관공서
▁내보냈
▁마땅히
▁수성구
▁안도라
▁우메다
▁재방송
▁존스턴
▁Jour
▁그라나다
▁브롱크스
▁파르티잔
▁플리머스
보쿠
애자
▁Ig
▁그분
▁누릴
▁눈썹
▁도트
▁동선
▁레위
▁메탄
▁물량
▁분구
▁속명
▁신수
▁양태
▁이두
▁진무
▁채식
▁통학
컴퓨터
▁거쳐야
▁드레이
▁비행선
▁수신기
▁여학교
▁연기력
▁정신병
▁조선족
▁카다피
▁학술원
▁헬레나
▁2600
▁마르코스
▁시킨다고
▁아카이브
▁인도주의
gy
▁솅
OCA
▁KF
▁고루
▁기뢰
▁다인
▁달빛
▁대홍
▁산초
▁영공
▁월등
▁인왕
▁일요
▁자파
▁최단
▁평산
▁피코
▁org
▁돌아보
▁스노우
▁슬럼프
▁시바타
▁아브루
▁여고생
▁잠자리
▁참으로
▁평화통일
▁메달리스트
▁쇤
카쿠
터우
▁Wr
▁군의
▁궁핍
▁기제
▁넘쳐
▁다정
▁대첩
▁리쿠
▁맞선
▁모씨
▁번가
▁비각
▁사누
▁사담
▁압류
▁온몸
▁지라
▁참관
▁티탄
▁팬덤
▁편대
▁퓨처
▁휴고
▁마운드
▁벗어날
▁슬퍼하
▁엠블럼
▁유기물
▁적혈구
▁항구역
▁후지타
Force
▁라치오주
▁펼쳐진다
셀라
콜라
터슨
▁강기
▁군내
▁김미
▁꺼려
▁노자
▁반짝
▁방파
▁소가
▁소명
▁수조
▁신춘
▁역적
▁우방
▁위급
▁잉어
▁진통
▁크론
▁폐업
▁포커
트리아
▁out
▁로이스
▁문무왕
▁붙여서
▁수뇌부
▁야전군
▁억지로
▁이동한
▁자주포
▁1763
▁레이더스
▁버펄로스
▁스탠더드
▁시라쿠사
▁뽕
도전
리처
변사
저트
히라
▁KM
▁PV
▁경국
▁속출
▁스매
▁습작
▁식생
▁신격
▁오퍼
▁월계
▁익혔
▁임영
▁접할
▁제청
▁헤스
▁현자
▁386
▁괴롭힘
▁구례군
▁대륙군
▁동남아
▁문학부
▁미란다
▁보일러
▁산청군
▁수페르
▁야마노
▁역무원
▁이제동
▁진보신
▁진행할
▁합격자
▁1778
▁Moon
▁Summer
발디
전설
추얼
raw
▁도지
▁딱정
▁뭉쳐
▁볼레
▁식수
▁양왕
▁양질
▁역인
▁연혁
▁제복
▁징발
▁총탄
▁캡콤
▁폴드
▁허나
▁호부
▁Soc
▁놓여졌
▁리버스
▁바하마
▁부드러
▁브라만
▁사이고
▁손오공
▁시간표
▁아우렐
▁여서는
▁조소앙
▁찾아냈
ouble
▁1780
▁사실주의
▁앨프리드
▁연꽃무늬
▁트라키아
▁파피루스
▁해발고도
▁방탄소년단
▁페널티킥을
lt
이동
자카
전서
지드
츠만
ely
▁갈대
▁관립
▁교각
▁김화
▁나요
▁닛코
▁도원
▁맹자
▁박병
▁비버
▁심도
▁원광
▁이극
▁저희
▁전근
▁진자
▁황기
▁휴지
▁힘써
▁Fri
▁거둔다
▁경덕왕
▁고메스
▁기관사
▁내슈빌
▁더욱더
▁드러낸
▁무자비
▁아닐까
▁아르키
▁적갈색
▁조슈아
▁진안군
▁1453
▁Type
▁left
▁머리장식
르템
버려
이시
▁과대
▁국권
▁명료
▁미우
▁배차
▁사피
▁셜록
▁시치
▁심경
▁에지
▁에토
▁외야
▁이권
▁장주
▁재킷
▁즉석
▁훈구
▁MLS
▁Pet
▁Sil
▁반혁명
▁벌인다
▁시작점
▁아바스
▁플레밍
르템베르크
▁아르키메데스
▁HR
▁가용
▁꾀했
▁랜더
▁매시
▁부쿠
▁빙상
▁성군
▁성혼
▁수재
▁신식
▁엽록
▁우뚝
▁워프
▁유르
▁음계
▁장동
▁코요
▁티그
▁티타
▁푸앵
▁한학
▁흥국
플러스
▁Die
▁Swe
▁mod
▁겉모습
▁달라질
▁도저히
▁동역학
▁레이첼
▁연수구
▁이자겸
▁최우선
▁City
▁랭커스터
▁한국은행
▁한국전력
▁부쿠레슈티
▁쏴
극장
케로
▁BJ
▁Hz
▁UD
▁레자
▁망라
▁세차
▁쇄신
▁수체
▁수혜
▁승문
▁시디
▁유량
▁육안
▁적시
▁진산
▁통수
▁펴낸
커버리
▁Ber
▁Vis
▁부룬디
▁비활성
▁사라이
▁쇼펜하
▁애니콜
▁카트린
▁퓨처스
▁1825
▁모리오카
▁사라예보
▁카를루스
▁쇼펜하우어
슬론
하타
▁Sn
▁노령
▁돼야
▁미달
▁범종
▁병세
▁빙판
▁성신
▁승무
▁신토
▁약어
▁엘람
▁장막
▁철갑
애슬론
클라베
▁313
▁def
▁강연회
▁광산구
▁매장량
▁세르비
▁영천시
▁재계약
▁적시타
▁전해질
▁코르넬
▁클레르
▁탈리아
▁훈련장
▁흔들림
▁1817
▁딱정벌레
▁치렀으며
▁콘클라베
yr
간드
뚜기
신론
중앙
코이
포화
lin
▁-.
▁누아
▁단추
▁두리
▁비구
▁셰르
▁워렌
▁응모
▁장공
▁제패
▁지네
▁퍼트
▁학무
▁호메
노비치
차일드
apan
▁980
▁Fun
▁노비타
▁노이만
▁도봉구
▁레이철
▁무안타
▁바이런
▁수집가
▁옥개석
▁충성심
▁컨셉트
▁특산물
▁플레인
▁나카가와
▁말라리아
▁무라야마
▁카트리지
▁Album
▁렴
베쓰
찰사
페어
ino
▁AW
▁관입
▁기득
▁기려
▁대림
▁대월
▁더운
▁무굴
▁바친
▁안지
▁열혈
▁오고
▁용모
▁정액
▁중진
▁질주
▁침실
▁호종
▁고려인
▁광양시
▁동인지
▁원피스
▁웨일즈
▁자연히
▁집합체
▁필살기
▁스웨덴어
▁헤르메스
강도
펠트
▁NO
▁Sa
▁강정
▁관인
▁기오
▁김신
▁남도
▁납세
▁닐스
▁다산
▁던스
▁리니
▁미호
▁민스
▁빈혈
▁사문
▁서유
▁석실
▁쌓인
▁영가
▁울라
▁의전
▁클랩
곰자리
본주의
▁관측자
▁구사론
▁아스타
▁영광군
▁이방인
▁조그마
▁채플린
▁Team
▁Enter
▁Techn
▁크로스오버
▁판의금부사
▁우크라이나인
각시
덕리
치산
ope
▁검역
▁난폭
▁누비
▁미흡
▁산개
▁스냅
▁양기
▁우로
▁원경
▁원구
▁잉태
▁잔재
▁준용
▁팰컨
▁폐비
▁핀치
▁항변
연구소
ican
▁.."
▁금정구
▁레지옹
▁로버스
▁사진가
▁스티커
▁신조어
▁외조부
▁요크셔
▁위해선
▁조그만
▁초이스
▁쿠알라
▁황금기
▁열린집합
▁코린토스
▁하드코어
▁할지라도
▁호메로스
▁쿠알라룸푸르
yp
▁뮬
나잇
레즈
슈트
스름
충사
ves
▁곡사
▁광릉
▁기꺼
▁니더
▁당면
▁도내
▁리디
▁마장
▁망토
▁백합
▁범퍼
▁비바
▁상전
▁셔터
▁손잡
▁재키
▁종반
▁케토
▁코즈
▁한영
▁한탄
reet
work
▁금지법
▁노르딕
▁리누스
▁모듈러
▁미술사
▁백혈병
▁셰필드
▁소장품
▁순환선
▁올라간
▁코발트
축구협회
▁문하시중
▁분리주의
▁비토리오
▁테네시주
▁포항제철
▁흐루쇼프
▁대한축구협회
▁사우스캐롤라이나
▁눕
게르
그너
티콘
포동
▁간절
▁개역
▁격노
▁근절
▁남강
▁마제
▁만루
▁신랑
▁악행
▁양광
▁예민
▁전등
▁출몰
▁충선
▁회자
itch
▁고쿠라
▁광무제
▁김홍집
▁마사코
▁부총재
▁시나이
▁신해철
▁아리마
▁아이누
▁에디터
▁워터스
▁의화단
▁장덕수
▁장본인
▁포르쉐
▁마사무네
▁아니한다
▁이브라힘
▁세워졌으며
▁홑
바위
팔로
환국
▁고착
▁고품
▁공범
▁금방
▁네버
▁누출
▁동궁
▁미끄
▁반송
▁소우
▁속옷
▁아밀
▁안도
▁야나
▁염전
▁원어
▁이그
▁조원
▁참된
▁초구
▁콥트
▁푸코
▁피레
▁힐튼
▁Cre
▁관측소
▁끌어내
▁도로시
▁뒷부분
▁런타임
▁레트로
▁모자라
▁사업비
▁수사관
▁아리안
▁죽인다
▁코베인
▁1788
▁사로잡혀
▁초전도체
▁판타스틱
▁앨라배마주
▁아우구스티누스
▁쩌
일점
출마
▁fe
▁굳건
▁더듬
▁디랙
▁떠오
▁무정
▁보크
▁살포
▁약초
▁임재
▁주현
▁태정
▁편도
▁흑연
▁나루토
▁레오니
▁보호령
▁사냥개
▁시마네
▁시퀀스
▁전봉준
▁조선어
▁카이두
▁퍼킨스
▁해왕성
▁1593
▁무스타파
▁브리즈번
▁First
▁Little
록색
화사
▁MI
▁갯벌
▁경왕
▁구기
▁녹훈
▁단언
▁숨진
▁신승
▁아달
▁어귀
▁역병
▁오현
▁용담
▁원각
▁칩셋
▁품류
도토스
메이슨
무스메
바니아
▁기동성
▁나이토
▁무분별
▁서천군
▁슬라이
▁실비아
▁에디슨
▁클로즈
▁포병대
▁1828
▁무한도전
▁민다나오
▁한국일보
▁헐리우드
▁모닝구무스메
럽트
장성
첼로
ird
ler
▁VL
▁갈망
▁경리
▁고른
▁권했
▁노기
▁도일
▁뒤섞
▁라메
▁로슈
▁바카
▁방진
▁불운
▁브록
▁비신
▁비웃
▁시일
▁역관
▁전편
▁황주
▁후주
▁860
▁가처분
▁록펠러
▁매표소
▁미켈란
▁빙그레
▁삼별초
▁장신구
▁저소득
▁진사시
▁퓰리처
▁모더니즘
▁세종실록
▁이집트인
▁히로유키
▁자유주의자
임새
키리
패닉
ars
▁강태
▁계비
▁교상
▁내밀
▁능률
▁동강
▁법치
▁비우
▁뼈대
▁안국
▁알콜
▁앙헬
▁열녀
▁오동
▁위화
▁장마
▁지안
▁질타
▁천진
▁카가
▁타바
▁테루
▁표고
▁해요
▁혜왕
▁960
▁Dig
▁극락전
▁꽃가루
▁나선다
▁나오키
▁마젤란
▁미도리
▁사이코
▁성희롱
▁안세이
▁에미상
▁역전승
▁이스터
▁크랭크
▁파티마
▁피오나
▁Happ
▁SEED
▁다이애나
▁로트링겐
▁모하마드
▁물병자리
▁펩타이드
▁히스패닉
▁수페르리가
▁새천년민주당
▁안드로메다자리
ts
메인
코니
ike
▁OL
▁경당
▁구소
▁리뉴
▁비춰
▁송수
▁알림
▁어제
▁울창
▁인목
▁작아
▁정준
▁종위
▁주걱
▁진달
▁333
▁가파른
▁고용주
▁법상종
▁부끄러
▁수호신
▁신경망
▁이규완
▁제미니
▁주제곡
▁휘그당
▁국제기구
▁모리셔스
▁주간고속도로
켄지
▁Nt
▁굴드
▁기침
▁다뉴
▁도프
▁박혀
▁불연
▁빈스
▁산발
▁슈만
▁신광
▁에비
▁역경
▁영내
▁우와
▁원세
▁자영
▁저승
▁최인
▁통가
▁퇴거
▁티티
▁하대
▁하목
▁혈전
스티스
ress
▁구매자
▁내려놓
▁동두천
▁몽골어
▁밝힌다
▁베이시
▁움직였
▁일라이
▁정상부
▁지표면
▁차베스
▁헤이케
▁1797
▁스타트업
▁에너지원
▁인터럽트
▁Stage
▁히스파니아
ha
개토
롤라
베다
자료
지상
하치
▁낙점
▁레몽
▁명랑
▁변주
▁빼내
▁소학
▁속인
▁수고
▁에라
▁열병
▁예기
▁왕상
▁인트
▁접했
▁조강
▁코먼
▁콜트
▁큼직
▁할까
리아노
▁대표부
▁말버러
▁산리쿠
▁송준길
▁수호이
▁스크롤
▁양성소
▁탐험대
▁패미컴
▁프랑켄
▁1838
▁나카모리
▁세웠으나
▁인디애나주
아보
지움
oom
▁If
▁남대
▁대박
▁로더
▁루니
▁루앙
▁마미
▁베릴
▁사별
▁알란
▁연경
▁연접
▁은닉
▁의열
▁제회
▁좡족
▁찬미
▁찰나
▁한기
머니즘
카이치
▁229
▁거느린
▁관박쥐
▁남동구
▁메소드
▁선인장
▁섬네일
▁수십만
▁수에즈
▁영양분
▁유스티
▁카르타
▁캐머런
▁특파원
▁1636
▁Hist
▁집적회로
PN
관광
소프
털루
폭력
▁검교
▁교민
▁규소
▁다드
▁도면
▁면도
▁보단
▁복도
▁올가
▁주종
▁탐라
▁파시
▁피했
자유당
파고스
▁POP
▁Tom
▁경호원
▁공문서
▁광개토
▁기꺼이
▁베니토
▁사투리
▁청취자
▁표지판
▁피그미
▁항등식
▁황무지
▁보호관찰
▁이로쿼이
▁헝가리인
▁민주자유당
▁예카테리나
ze
가치
umb
▁EA
▁ed
▁검단
▁구주
▁기내
▁단부
▁동질
▁말뚝
▁박순
▁반미
▁부츠
▁비앙
▁영인
▁용두
▁편광
▁호구
군주제
스탕스
▁TNA
▁갑상선
▁공작원
▁눈부신
▁도파민
▁리베라
▁마사토
▁브라이
▁초거성
▁페드루
▁poem
▁차가타이
▁크로노스
▁트레이시
▁하나하나
▁레지스탕스
디니
무사
시드
틀린
▁고졸
▁굴착
▁두른
▁무령
▁물음
▁북주
▁용호
▁일약
▁일일
▁장한
▁졸리
▁증보
▁지으
▁직역
▁채웠
▁초각
▁피델
▁한우
▁황화
▁MBN
▁Pla
▁데려오
▁리허설
▁마술사
▁몰려들
▁사육신
▁서귀포
▁소작농
▁진천군
▁나뭇가지
▁로테이션
▁트레일러
▁솔트레이크
▁프리스타일
PG
현리
▁금과
▁내연
▁내해
▁락스
▁보소
▁볼턴
▁신증
▁어근
▁용납
▁유임
▁유종
▁종별
▁최동
▁편년
▁허적
▁화단
▁흐른
삼각형
▁가쓰라
▁경산시
▁관중석
▁미추홀
▁캐피탈
▁텅스텐
▁한해서
수염박쥐
▁2024
▁Conc
▁김나지움
▁대학원생
▁드레스덴
▁브라이트
▁야마나시
▁플랑크톤
▁해졌으며
▁미시시피주
▁미켈란젤로
▁페르세우스
뜨릴
리프
▁MG
▁MO
▁곡성
▁남면
▁니노
▁듀이
▁모성
▁바벨
▁양해
▁연제
▁조진
▁창법
▁처자
▁초명
▁커튼
▁페달
▁평시
▁관리법
▁김정희
▁남수단
▁메디아
▁민스크
▁스코프
▁웹스터
▁하인츠
슈바이크
▁1777
▁Plan
▁레이먼드
▁right
▁노스웨스트
yc
▁ㅇ
▁쑥
▁씽
덕사
착륙
ris
▁ph
▁도운
▁방역
▁본받
▁비와
▁사공
▁석장
▁순열
▁심재
▁애용
▁약재
▁외장
▁인동
▁풍성
▁학상
▁협연
▁황토
▁249
▁323
▁AES
▁PSP
▁SAR
▁경사각
▁내려다
▁발트해
▁십시오
▁아르민
▁은하수
▁편집국
▁화엄경
ative
▁다치바나
▁스케이프
▁브라운슈바이크
▁떴
렁크
의어
천후
텍스
▁TE
▁거든
▁공비
▁광교
▁구균
▁난바
▁무량
▁빗물
▁서른
▁선량
▁소품
▁솔리
▁암사
▁연명
▁임오
▁죄목
▁질감
▁태실
▁항등
line
▁266
▁der
▁갈라타
▁도플러
▁되돌리
▁법무관
▁보급품
▁영주시
▁의정서
▁정여립
▁총감독
▁코스닥
▁크루스
▁회색빛
▁히메지
▁네이티브
▁돌려보내
▁마티아스
▁브리타니아
걸스
림리
마에
빌라
get
▁DT
▁난소
▁니어
▁메토
▁문지
▁붓다
▁은화
▁잔기
▁장명
▁캘빈
▁콘도
▁파로
▁파타
▁허셜
uman
▁May
▁가르친
▁군자금
▁금지령
▁라이징
▁서울역
▁선교회
▁셰이크
▁예천군
▁오베르
▁외손자
▁유력자
▁윤원형
▁토후국
▁호남선
▁Gold
▁테마파크
▁아일랜드어
태영
포츠
els
uro
▁고뇌
▁과소
▁급감
▁도킹
▁두목
▁법사
▁분분
▁비누
▁엉뚱
▁유두
▁의탁
▁인두
▁저런
▁추수
▁칙서
▁쾌적
▁하한
▁회선
▁효시
에이터
혁명당
ross
▁810
▁걸어서
▁공격자
▁근연종
▁기무라
▁다뉴브
▁라벤나
▁미술품
▁신간회
▁연합체
▁온건파
▁위스키
▁이니셜
▁일대기
▁재통일
▁조언자
▁통일부
▁More
▁나가오카
▁문화재청
▁디스커버리
▁콜라보레이션
RA
▁왁
덕면
사장
소녀
연사
키치
ECT
▁Ap
▁Km
▁굴리
▁류성
▁만슈
▁모유
▁물어
▁선군
▁세터
▁순방
▁안수
▁애쉬
▁원안
▁읍내
▁이혜
▁카구
▁코보
▁태즈
▁파치
▁해마
바라기
베르데
▁353
▁Sky
▁긴장감
▁나아갔
▁너구리
▁대구경
▁미노루
▁빠져나
▁세기말
▁워털루
▁조건부
▁지멘스
▁허스트
▁선덜랜드
▁크리슈나
WC
르담
링스
실히
티르
포항
▁Vo
▁뉴펀
▁다진
▁대불
▁도가
▁로직
▁루미
▁막론
▁방아
▁법의
▁삼보
▁스틴
▁왼발
▁원외
▁월성
▁진시
▁징용
▁프릴
엽수림
▁257
▁570
▁건너온
▁관리인
▁다거나
▁런던탑
▁레반트
▁모셔져
▁부딪히
▁부평구
▁수자원
▁우분투
▁이승훈
▁자본금
▁전람회
▁1826
▁가와카미
▁노트르담
▁모리타니
▁삼성그룹
▁아브루초
▁아유타야
▁패러데이
▁Gener
▁뉴펀들랜드
▁윗수염박쥐
▁function
라티
랜즈
케르
쿠마
ACK
ero
▁Pi
▁고봉
▁국학
▁금석
▁니우
▁더더
▁도인
▁등식
▁마노
▁말레
▁배서
▁분가
▁사복
▁서화
▁숨지
▁야유
▁에덴
▁이과
▁천인
▁하네
▁회령
ific
orth
▁306
▁But
▁GHz
▁RAM
▁var
▁갈매기
▁스토크
▁저압부
▁진주성
▁춘추관
▁펌웨어
▁평신도
▁Char
▁LGBT
▁main
▁카나리아
▁팔레르모
찰청
춘다
후미
▁군공
▁기절
▁당구
▁대권
▁랄리
▁비소
▁삼도
▁상비
▁섭동
▁수납
▁에센
▁쟁이
▁최정
▁파비
▁페소
▁헥사
▁회송
▁훌린
디비시
스카야
▁광주군
▁대역폭
▁로베스
▁리디아
▁미크로
▁발원문
▁부조리
▁붙잡혔
▁신대륙
▁쓰러진
▁아가미
▁운전사
▁은밀히
▁조이스
▁주원장
▁테이트
▁홍건적
▁1784
▁TOUR
▁대검찰청
▁드래건스
▁매리너스
▁블록체인
▁옥스포드
▁에레디비시
▁로베스피에르
▁럽
언군
첼리
AND
▁so
▁건반
▁그야
▁노려
▁다부
▁대산
▁드가
▁말투
▁백남
▁북문
▁슈마
▁신나
▁신령
▁어벤
▁이음
▁이춘
▁장석
▁치매
▁평영
▁함축
▁God
▁TCP
▁감독관
▁마커스
▁수출입
▁애국심
▁양양군
▁워크스
▁인도양
▁재조합
▁주자학
▁트렁크
▁페르마
▁펼쳐졌
▁프리즘
▁하이데
▁ISIL
▁니가타현
▁Class
▁아일랜드인
▁위스콘신주
▁하이라이트
▁짤
리기
▁간언
▁군악
▁날로
▁레그
▁변위
▁봉신
▁상산
▁성토
▁수르
▁액자
▁요요
▁우고
▁이응
▁지간
▁질책
▁토치
▁화구
▁환공
▁273
▁404
▁630
▁군포시
▁마테오
▁미적분
▁사령탑
▁생방송
▁실력자
▁에일리
▁이시이
▁충선왕
▁커진다
▁스티븐슨
▁쓰러뜨리
▁카탈로그
▁받아들인다
야식
ful
▁가꾸
▁링고
▁성탄
▁스탭
▁어마
▁재조
▁천공
▁초순
▁토종
▁파블
▁향유
▁화평
▁620
▁STX
▁Vir
▁app
▁과학부
▁관습법
▁대마초
▁마오리
▁배심원
▁부지사
▁불신임
▁슈바벤
▁시프트
▁저항성
▁1680
▁고전주의
▁끌어들여
▁에노모토
▁영산회상
▁이복동생
▁메릴랜드주
누르
디크
밍턴
사항
에나
엔드
왕도
티늄
ius
▁경공
▁라키
▁보타
▁불우
▁비관
▁사색
▁석좌
▁야역
▁염원
▁오족
▁오펜
▁인화
▁정호
▁천호
▁측실
▁환수
세서리
▁880
▁겨울잠
▁노후화
▁드레드
▁맘루크
▁몽구스
▁문하생
▁장흥군
▁정치범
▁참석자
itude
▁part
▁하마마쓰
▁갈라파고스
▁솥
놀즈
성장
장이
타자
▁Da
▁Rh
▁갑과
▁구심
▁나설
▁룬드
▁번사
▁봉투
▁부아
▁성하
▁수안
▁아계
▁얽매
▁이찬
▁작별
▁짜여
▁코아
▁튀김
▁패닉
▁풍조
▁한결
▁화정
▁힘러
메이커
▁구릉지
▁군부인
▁릴리즈
▁세르히
▁스피너
▁야코프
▁은언군
▁음악인
▁정복자
▁제트기
▁하리마
▁휘말려
니아누스
▁Dark
▁마라도나
▁전용도로
▁해바라기
▁Beaut
▁카운트다운
olution
▁미크로네시아
가드
강원
녜스
ren
▁BP
▁가람
▁거둘
▁건기
▁고함
▁곡률
▁교목
▁날조
▁데비
▁뒤쫓
▁란다
▁로쿠
▁병설
▁비티
▁설날
▁세인
▁양모
▁여중
▁옥산
▁웨버
▁정릉
▁좌초
▁타슈
▁특검
▁파평
▁폰티
▁후륜
▁NGO
▁경영난
▁그로브
▁리포터
▁미국식
▁벨리즈
▁살아온
▁아메리
▁양천구
▁어두워
▁연면적
▁요아힘
▁중남부
▁중앙동
▁포츠담
▁현대식
umber
▁Long
▁나미비아
▁되돌아왔
▁에히메현
▁올렸으나
▁적십자사
▁페데리코
▁Japan
▁댕
▁폄
▁Sl
▁nd
▁경장
▁광천
▁교점
▁귀한
▁납득
▁내년
▁랠리
▁로건
▁리토
▁산국
▁신다
▁완봉
▁이걸
▁인포
▁장연
▁저빌
▁적국
▁정평
▁진부
▁한시
▁호도
▁Fla
▁구덩이
▁국세청
▁뒷다리
▁마니아
▁볼거리
▁봉화군
▁셀틱스
▁소득세
▁수필가
▁제럴드
▁천태종
▁키케로
▁페트라
▁혼마루
▁희극인
▁다카사키
▁언더우드
▁민코프스키
무역
어드
판윤
▁경서
▁구정
▁궁도
▁귀부
▁노정
▁레코
▁멈춰
▁미제
▁방산
▁상군
▁성황
▁시무
▁안료
▁우당
▁재거
▁췌장
▁팩터
▁하퍼
▁후크
▁SNK
▁bes
▁계산기
▁곰팡이
▁남학생
▁닉네임
▁의왕시
▁이코마
▁일일이
▁재래식
▁지치부
▁카이퍼
▁활화산
▁소방본부
▁아키타현
▁잉글리시
▁한성부판윤
GS
데나
음악
임자
테로
▁LL
▁px
▁가례
▁강선
▁곧장
▁노고
▁대작
▁독보
▁똑똑
▁맥라
▁번진
▁봉급
▁샤크
▁시럽
▁안현
▁야고
▁우현
▁인부
▁재적
▁전가
▁체급
▁탈영
▁하청
▁한두
▁허벅
네이터
less
▁236
▁고속철
▁광진구
▁기차역
▁대방광
▁도전자
▁메네스
▁무한히
▁밀려났
▁벨라스
▁상징물
▁아루바
▁아메바
▁영남대
▁인덱스
▁주동자
▁토바고
▁파울리
▁풀타임
▁헨리크
▁휘말리
투아네트
▁8859
▁Year
▁국민은행
▁그야말로
▁진핵생물
▁다이어그램
to
종합
즈다
▁KP
▁__
▁대식
▁레토
▁배교
▁선한
▁순진
▁앞섰
▁언양
▁오치
▁입궁
▁정창
▁주례
▁지마
▁최익
▁퀴리
▁터전
▁페놀
▁피보
▁헬름
▁화천
프레임
▁304
▁고릴라
▁달라졌
▁따라잡
▁르베그
▁마가렛
▁스트링
▁쏟아져
▁은신처
▁이와타
▁제레미
▁제천시
▁카니발
▁파이퍼
▁현충원
프레이즈
▁1822
▁Fall
▁남중국해
▁전통문화
▁체임벌린
▁크리스트
▁테크니컬
▁페르미온
▁Stand
▁ㄷ
르겐
소네
쓰카
era
led
▁KL
▁광기
▁네빌
▁도니
▁백상
▁병약
▁사타
▁수론
▁악사
▁약관
▁연변
▁위인
▁융성
▁절지
▁청백
▁최창
▁켤레
▁폭설
▁폴더
크루스
ople
▁Aut
▁MGM
▁데미지
▁마이트
▁아카시
▁앙카라
▁의료진
▁정류소
▁충무공
▁콜로니
▁갈라진다
▁로테르담
▁석불입상
▁시마네현
▁아킬레스
▁Girls
▁Group
AV
험자
▁검진
▁게스
▁기년
▁김안
▁번안
▁본위
▁분묘
▁사경
▁음파
▁잠금
▁절기
▁접영
▁정촌
▁직할
▁항암
▁행상
▁247
▁415
▁470
▁Bus
▁res
▁공로상
▁공손찬
▁다득점
▁따라야
▁리아스
▁명부전
▁문화상
▁반대자
▁비슈누
▁승문원
▁신의주
▁안무가
▁인천시
▁자작곡
▁주성분
▁1620
▁1811
▁레이놀즈
▁Sweet
득이
▁OM
▁고케
▁꼽혔
▁농수
▁도의
▁마담
▁머드
▁멸치
▁묵인
▁밧줄
▁북청
▁쇄도
▁스스
▁시복
▁아탈
▁양안
▁에머
▁용골
▁웅변
▁재빠
▁출하
▁태고
▁폭락
▁확증
달레나
▁OFC
▁기동대
▁로고스
▁로리타
▁루시아
▁영월군
▁일반직
▁중심가
▁태안군
▁튀링겐
▁파열음
▁하행선
▁홍길동
▁후원회
iness
▁1660
▁비엔날레
▁포메이션
▁표현주의
▁White
▁앙투아네트
▁크리스티아
CE
▁놉
댑터
딩턴
사토
소수
시안
체계
통신
팬지
ald
asy
▁교조
▁남이
▁남초
▁뇌터
▁다졌
▁마실
▁아센
▁아톰
▁육신
▁의기
▁자드
▁제과
▁조프
▁죄책
▁청대
▁체액
▁티토
▁GUI
▁UFC
▁마르키
▁방어전
▁변경백
▁분석가
▁불포화
▁삼척시
▁서라벌
▁성주군
▁신중도
▁어댑터
▁오세아
▁지리지
▁파이리
▁플라잉
lease
▁스테파니
▁요시미쓰
▁푸앵카레
▁유스티니아누스
메데
배상
소송
▁Na
▁감귤
▁기모
▁말살
▁벌목
▁본과
▁부석
▁산대
▁소다
▁알자
▁약소
▁연개
▁일절
▁잡이
▁치바
▁카포
▁토큰
▁파수
▁한나
▁후카
슬레이
▁Bra
▁군부대
▁누리꾼
▁불태워
▁수세기
▁외로움
▁이데아
▁지하실
▁처한다
▁출입국
▁침팬지
▁캐리어
▁플렉스
▁하루히
▁흘러들
▁흩어지
▁1610
▁Roll
▁로버트슨
▁포클랜드
▁헨드릭스
▁Christmas
무이
차오
▁가트
▁강론
▁노크
▁대함
▁면세
▁북키
▁상술
▁성금
▁습한
▁와우
▁용융
▁은유
▁이괄
▁입건
▁적립
▁채드
▁츠나
▁쿼리
▁토가
▁플롯
텐디크
▁345
▁Ret
▁SHO
▁고케닌
▁광우병
▁넘어선
▁데이비
▁마주치
▁매개체
▁메디컬
▁목적물
▁세미놀
▁시발점
▁실업자
▁알레포
▁우주국
▁임진강
▁저마다
▁조로아
▁칼리프
▁피아트
▁되돌아가
▁보르네오
▁스탠포드
▁그로텐디크
▁Direct
fr
▁쎄
거북
비지
추리
토닌
▁각막
▁내력
▁다뤘
▁모지
▁몬티
▁몰린
▁백양
▁사재
▁선착
▁스컬
▁언행
▁일깨
▁전생
▁초간
▁태원
▁터져
▁피임
▁형평
▁후송
디스트
순양함
▁710
▁거북이
▁다비트
▁발표회
▁사나다
▁신고식
▁유의미
▁패터슨
▁헬무트
▁1770
▁Miss
▁마요르카
▁스프린트
▁오카모토
▁지그문트
▁캔자스주
▁프리메이슨
대상
랴쿠
렌트
민관
산역
erv
▁공진
▁내선
▁단총
▁루주
▁룰라
▁막히
▁목초
▁무모
▁박창
▁백스
▁비드
▁소성
▁스톱
▁스필
▁양준
▁입혀
▁진종
▁터졌
▁펴냈
▁호드
레인지
예비치
▁개혁가
▁깨어나
▁끓는점
▁법주사
▁부코바
▁블랙번
▁세이프
▁수행자
▁스트롱
▁암살자
▁으려면
▁이사금
▁정무직
▁체세포
▁꼭두각시
▁볼리바르
▁슬라이더
▁헤로도토스
▁하드리아누스
디브
문제
▁Fi
▁검소
▁공교
▁기입
▁끊기
▁능히
▁만회
▁무반
▁문맹
▁문선
▁물산
▁미마
▁민트
▁방광
▁불선
▁소독
▁아롱
▁어택
▁에콜
▁오션
▁완승
▁육영
▁자화
▁조업
▁초승
▁코피
▁키가
▁통설
▁판시
▁페미
▁화분
▁회개
▁효령
▁히우
메랄드
▁Cry
▁갈루아
▁나이츠
▁능력자
▁데이지
▁마린스
▁매달려
▁부적합
▁비변사
▁산호초
▁스트립
▁식물학
▁에어컨
▁유스케
▁자연법
▁청송군
▁침례교
▁가니메데
▁루도비코
▁사다리꼴
▁에메랄드
▁해운대구
gg
더미
떡잎
산염
엑스
좌상
▁근신
▁기력
▁다임
▁배스
▁비노
▁비파
▁씨방
▁얽혀
▁원담
▁의관
▁자퇴
▁작은
▁창극
▁충만
▁피격
테우스
▁243
▁괘불탱
▁넥서스
▁울진군
▁위그노
▁이동해
▁카디프
▁클랜시
▁char
▁오리건주
▁지주회사
▁컴포넌트
▁Elect
▁에르난데스
가나
뎅이
사의
타다
▁라싱
▁링스
▁받쳐
▁배추
▁부로
▁북두
▁분말
▁빗대
▁선국
▁수보
▁신채
▁엑소
▁주당
▁첨탑
▁통째
토니오
oman
▁김종서
▁나이키
▁더더욱
▁맞아들
▁바우어
▁수송선
▁시흥군
▁쑤저우
▁오다큐
▁이스타
▁임실군
▁재건축
▁재경기
▁주둔군
▁참나무
▁크로마
▁포커스
▁프로메
▁하우젠
▁험프리
▁헤럴드
▁확장팩
▁흘러드
▁히라이
▁1604
▁미쓰나리
▁아뢰야식
▁탄화수소
▁해군기지
88
▁ㅅ
예트
nal
▁Ca
▁공역
▁굽히
▁귀도
▁급한
▁기선
▁난시
▁다네
▁덴분
▁로아
▁매혹
▁벌집
▁변할
▁별시
▁뽑힌
▁순무
▁액면
▁역수
▁웨스
▁유향
▁점막
▁중임
▁카게
▁팬터
▁흥업
▁대구시
▁동해안
▁불가침
▁시그널
▁오랜만
▁유원지
▁인스트
▁전리품
▁전시실
▁제이컵
▁최고봉
▁카시오
▁코카인
▁클랩튼
▁페루자
▁헤어지
▁3500
▁마쓰야마
▁소행성대
▁에이로쿠
▁크리에이터
mb
sy
청사
태후
텔라
▁AH
▁갖췄
▁고배
▁라구
▁명신
▁방벽
▁봄바
▁상봉
▁양화
▁어순
▁토번
▁화법
▁930
▁Mat
▁pop
▁끌려갔
▁물방울
▁수사학
▁이방원
▁졸업식
▁중남미
▁최신형
▁출루율
▁특별상
▁드러낸다
▁퍼져나갔
▁이바라키현
▁GeForce
노미
렐리
잭션
조프
fin
▁HM
▁Tu
▁Us
▁거동
▁교세
▁늦추
▁답습
▁메티
▁봉행
▁비운
▁사포
▁아커
▁양복
▁엘베
▁왕사
▁요일
▁이징
▁조간
▁종인
▁질식
▁크롤
▁키츠
▁페름
▁하양
▁호성
▁후아
레흐트
▁NCA
▁간사장
▁공백기
▁동음이
▁로비치
▁로지스
▁메콩강
▁모회사
▁몰디브
▁무용수
▁비스듬
▁빈번히
▁우익수
▁초음속
▁카메오
▁통감부
▁판문점
▁한림원
▁홀랜드
▁1519
▁Comm
▁나카소네
▁요시노리
▁타카하시
▁트랜잭션
KO
▁캬
닝스
뮤다
워프
키오
▁CI
▁계양
▁고신
▁공허
▁군체
▁나그
▁낙후
▁네리
▁다도
▁등각
▁디리
▁뜻밖
▁몸소
▁방망
▁스펠
▁오모
▁장호
▁중정
▁초의
▁카제
▁탄창
▁특무
▁플린
▁UFO
▁경시청
▁도망친
▁동호회
▁드래그
▁마자르
▁반역자
▁버뮤다
▁아쉬움
▁영양소
▁전교조
▁중립국
▁중시조
▁카펠라
▁통찰력
▁파비아
▁드래곤볼
▁봅슬레이
▁석불좌상
▁오피스텔
▁줄어든다
▁중심주의
▁태어난다
▁호나우두
▁캐치프레이즈
bc
ka
▁깍
▁찹
군트
디시
진흥
트만
▁LM
▁QS
▁가늠
▁그렉
▁녹지
▁덮인
▁스며
▁스팟
▁아헨
▁우량
▁정각
▁증조
▁체신
▁초토
▁탱고
▁테디
▁표수
▁허준
▁혈당
ents
ible
▁Mem
▁mac
▁공급원
▁라이플
▁마르텔
▁배급사
▁사마르
▁시리얼
▁아그리
▁앞다리
▁유난히
▁인디펜
▁쥐라기
▁타이타
▁IDOL
▁고생물학
▁고스란히
▁끌어들였
▁나갔으며
▁부르군트
▁아드리안
▁아흐마드
▁통정대부
▁핀란드어
▁이슬람교도
▁플루오린화
ml
▁ㅁ
▁숯
규어
록스
밴드
BSD
▁고다
▁귀의
▁내뿜
▁두건
▁방재
▁샤론
▁서얼
▁서프
▁석고
▁신혼
▁옷감
▁와의
▁완구
▁자회
▁정윤
▁종성
▁팔달
▁푸이
▁하숙
▁협찬
즈베리
▁근위대
▁노히트
▁달리기
▁브라흐
▁생활비
▁설계도
▁스쿼드
▁인텔리
▁중합체
▁통행료
▁헤이시
▁호시노
▁횡성군
▁달마티아
▁조지아주
▁Young
▁파이프라인
▁럿
이행
▁괴담
▁낙성
▁대잠
▁램지
▁배격
▁배움
▁비겼
▁사저
▁석성
▁소추
▁손견
▁아고
▁알랭
▁영안
▁음표
▁저속
▁청혼
▁티크
▁파베
롭스크
바르드
부쿠로
aven
illa
▁246
▁286
▁네모난
▁도호부
▁랜더스
▁링네임
▁분당선
▁영락제
▁이홍장
▁장성군
▁존재감
▁쫓겨난
▁티라노
▁플리트
▁후보자
▁1827
▁1829
▁갑오개혁
▁기요모리
▁동부승지
▁미야모토
▁약사여래
▁익스트림
▁파우스트
▁Story
▁세바스티안
▁안티오코스
▁Season
▁프라이부르크
▁일러스트레이터
▁ㄹ
▁젼
▁춥
고원
아과
아스
에라
지방
트린
▁골대
▁군장
▁데바
▁도살
▁목련
▁베츠
▁불기
▁성비
▁손톱
▁신심
▁야사
▁유코
▁정민
▁집요
▁징시
▁채찍
▁충적
▁태인
▁표식
▁홍영
▁307
▁DDR
▁교육법
▁김성근
▁다이요
▁디오니
▁레드불
▁맥라렌
▁문화부
▁미즈키
▁백혈구
▁법률가
▁보험료
▁아스트
▁지상군
▁커맨드
▁콜롬비
▁히카리
▁Kiss
▁chem
▁네바다주
▁니코니코
▁롯데월드
▁스나이퍼
▁행해진다
▁Staff
▁Under
▁위트레흐트
스컵
워했
콜리
und
▁UH
▁검문
▁격납
▁동중
▁둘렀
▁바브
▁백군
▁역원
▁완치
▁원회
▁전패
▁정묘
▁칭화
▁쾌거
▁특질
▁핑거
마리아
▁251
▁Sur
▁권위자
▁드리블
▁레시피
▁레이지
▁로그인
▁마르타
▁목욕탕
▁수리남
▁엄정화
▁에리카
▁엘레나
▁연수원
▁초승달
▁클로버
▁털어놓
떡잎식물
▁BEST
▁STER
▁디아블로
▁주니어스
▁챔피언스컵
li
경사
라크
막이
쓰구
하드
▁Er
▁검술
▁교로
▁도바
▁론도
▁목과
▁상량
▁세심
▁잡식
▁청담
▁파지
▁피쉬
▁합한
▁휴스
▁302
▁LNG
▁발루아
▁부주석
▁분류법
▁수개월
▁아미르
▁우에다
▁커플링
▁흥덕구
예술종합
▁1598
▁1823
▁리처드슨
▁상무위원
▁실증주의
▁알카에다
▁어셈블리
▁올림푸스
▁자연환경
▁일으켰으며
예술종합학교
▁American
▁한국예술종합학교
모트
십리
처치
▁거류
▁낭트
▁레빈
▁매클
▁바를
▁배위
▁벤트
▁소호
▁실외
▁암묵
▁양봉
▁왜관
▁전우
▁제강
▁천둥
▁친위
▁피폐
▁후국
▁히든
다이스
사무소
▁285
▁288
▁TTC
▁공격기
▁베르토
▁뽑아내
▁옥천군
▁유사시
▁이기붕
▁장애인
▁전도사
▁청양군
▁키르케
▁틀림없
르크세스
▁Spec
▁아데노신
▁안드레스
▁칼뱅주의
▁Child
▁카트라이더
▁크세르크세스
구로
코지
▁기거
▁난류
▁닥치
▁매점
▁백기
▁병상
▁부토
▁석주
▁싸여
▁양키
▁예스
▁오군
▁우발
▁유허
▁임직
▁제호
▁조도
▁킹덤
▁팽팽
▁흑해
프로스
▁EXO
▁map
▁고기압
▁더라면
▁버팔로
▁사타케
▁상층부
▁서부터
▁서태후
▁세라믹
▁스러움
▁아르투
▁여행기
▁진달래
▁한국사
▁후이족
▁1018
▁자동차도
▁황소자리
▁스테인리스
VF
▁숍
▁츨
사위
와프
헤르
▁JO
▁NR
▁개점
▁걸림
▁겸한
▁뉴딜
▁대미
▁로토
▁목공
▁묻힌
▁벌일
▁뽑혀
▁사대
▁실기
▁아덴
▁염분
▁일까
▁자구
▁작풍
▁접점
▁주범
▁지롱
▁진척
▁출원
▁폐포
▁홍가
▁화형
▁휴즈
▁242
▁Lee
▁PCI
▁Val
▁뉴타운
▁당진시
▁메이든
▁메이스
▁소비량
▁아세안
▁유리창
▁이고르
▁이나바
▁자연석
▁장수군
▁주택가
축구연맹
▁1689
▁Last
▁간선도로
▁대하드라마
by
▁젱
더넷
델리
도치
롭스
mun
▁국조
▁도다
▁레진
▁말초
▁반부
▁반승
▁빈부
▁서무
▁스캐
▁시화
▁아웅
▁암행
▁연전
▁원죄
▁일찌
▁재촉
▁지낼
▁평점
▁해답
▁615
▁겐로쿠
▁반자동
▁베르겐
▁복사본
▁소유스
▁이더넷
▁장방형
▁카시니
▁판무관
▁1750
▁뉴저지주
▁요한네스
▁핼리팩스
▁Inter
▁Party
▁깐
▁뤽
아먹
자매
bit
▁jp
▁갤리
▁공언
▁광의
▁금수
▁나눗
▁단형
▁대운
▁랠프
▁록과
▁멀린
▁베텔
▁부차
▁사루
▁상형
▁수각
▁숙적
▁식욕
▁신월
▁예지
▁위서
▁차고
▁최현
▁충효
▁통달
▁협공
▁히젠
레이저
스턴트
▁580
▁GSL
▁동래구
▁로이터
▁성악가
▁신천지
▁제곱근
▁최고점
▁평가전
▁협력자
▁확장자
▁mark
▁구이저우
▁모른다고
▁분청사기
▁스타워즈
▁요시모토
▁에뮬레이터
31
루치
▁결산
▁고심
▁그건
▁농상
▁두들
▁루블
▁막심
▁반디
▁삼색
▁쇼어
▁수크
▁시추
▁쌍극
▁씌워
▁악성
▁앙겔
▁옹기
▁요로
▁용강
▁이쪽
▁잎겨
▁적위
▁조양
▁주영
▁참지
▁카산
▁캘러
▁태초
▁틀린
▁피복
▁희종
나이더
▁Cap
▁JYP
▁URL
▁곡성군
▁나눗셈
▁대축일
▁분당구
▁불국사
▁성전환
▁오세훈
▁오스본
▁요시마
▁처인구
▁총인구
▁Want
▁오리온스
▁하세가와
▁하토야마
▁헤이세이
▁호그와트
▁잎겨드랑이
▁테오도시우스
▁넛
장치
▁거침
▁건재
▁고흐
▁기화
▁남침
▁닫혀
▁대보
▁리전
▁반출
▁생강
▁샤흐
▁수운
▁슈리
▁식초
▁예니
▁의창
▁자강
▁촘촘
▁치프
▁컬럼
▁크렘
▁후금
절제사
soft
▁dis
▁고이치
▁니시노
▁디제이
▁볼프스
▁불러오
▁사업장
▁소대장
▁알렉상
▁쥐아과
▁집행부
▁1774
▁Boys
▁도치기현
▁마르코프
▁무하마드
▁아이러니
▁아칸소주
▁전륜구동
▁해방전선
▁style
▁알려졌으나
▁조로아스터
▁National
96
츠카
lus
oon
▁CW
▁GA
▁Oh
▁강직
▁군축
▁굳혔
▁노장
▁당근
▁도굴
▁막사
▁메흐
▁면책
▁박노
▁생동
▁샤토
▁순결
▁연의
▁이왕
▁조스
▁편이
▁하도
▁해미
베스트
빌리시
의사당
ends
▁대유행
▁로터리
▁법체계
▁상당구
▁수없이
▁역사관
▁윌리암
▁전화기
▁정의역
▁퀘벡주
▁1624
▁마르티노
▁바르바로
▁트빌리시
UB
ms
▁륭
새우
쿠프
틸라
▁-"
▁감바
▁강주
▁경련
▁교습
▁굽타
▁김무
▁남우
▁데빌
▁뒤떨
▁레테
▁롬멜
▁물망
▁부팅
▁비축
▁빅스
▁산골
▁슬립
▁시프
▁장판
▁차녀
▁참회
▁캘리
▁택배
▁토와
▁펜타
▁현세
▁후부
▁흐리
gram
▁403
▁가만히
▁공고히
▁미라이
▁버추얼
▁세자빈
▁신속히
▁신정부
▁에라스
▁윤봉길
▁적당히
▁종교인
▁킹스턴
▁테일즈
▁피터슨
▁헤르츠
▁1617
▁Take
▁배웠으며
▁올리비아
▁남해고속도로
▁룹
▁잿
나디
몬테
소나
펄스
▁CB
▁가운
▁각류
▁곱하
▁과당
▁광구
▁남사
▁리의
▁밤낮
▁빠짐
▁시해
▁실형
▁악수
▁암각
▁우바
▁이티
▁임수
▁전능
▁정안
▁중턱
▁천동
▁할레
▁후불
망원경
ould
▁252
▁274
▁295
▁670
▁910
▁Som
▁Son
▁per
▁그라드
▁루치아
▁빨치산
▁수영복
▁아사노
▁알자스
▁이용해
▁제자리
▁지급시
▁진다는
▁커스텀
▁플라워
▁1603
▁Come
▁바이너리
▁스테이크
▁이와쿠라
▁인스턴트
▁중성자별
▁크라쿠프
yo
바니
흥사
▁각칙
▁고슴
▁내심
▁넬리
▁러쉬
▁민수
▁밀폐
▁벤조
▁삼지
▁소의
▁실학
▁양립
▁에일
▁연원
▁영변
▁오무
▁왜건
▁원환
▁육로
▁행의
▁혜종
▁호군
벌랜드
arth
▁강북구
▁갤러거
▁고조부
▁고품질
▁구치소
▁도함수
▁리에주
▁미라클
▁발사기
▁야마나
▁지부장
리니스트
ATION
▁베트남어
▁절지동물
▁큰곰자리
▁There
▁color
▁북키프로스
▁바이올리니스트
UE
▁뽐
박해
▁HC
▁견뎌
▁경미
▁나경
▁도농
▁도수
▁리세
▁보닌
▁보부
▁사오
▁석관
▁솅겐
▁어획
▁여산
▁철조
▁통풍
▁트렉
▁펀딩
▁합해
▁행장
▁호퍼
▁PHP
▁add
▁고아원
▁리간드
▁부유층
▁세이지
▁슈테판
▁신이치
▁알타이
▁에나쓰
▁투성이
▁트러스
▁허벅지
▁Core
▁고슴도치
▁베네딕트
▁보인다는
▁아이치현
▁액세서리
▁외무대신
▁케이블카
▁독립선언서
▁이케부쿠로
▁페르디난도
48
ki
▁헵
긴스
로빈
셔츠
신경
와서
총사
▁RB
▁결절
▁꿀벌
▁나돌
▁남정
▁네발
▁대모
▁딱히
▁루체
▁만을
▁발하
▁비나
▁산전
▁상좌
▁서도
▁오송
▁완고
▁유경
▁윤정
▁천일
▁포물
▁품위
▁화차
▁Que
▁USD
▁관리원
▁나오미
▁발원지
▁베르가
▁살인범
▁알버트
▁에가와
▁오른팔
▁응원가
▁재규어
▁최강전
▁컨버터
▁트란실
▁프리마
▁1650
▁Club
▁long
▁나카야마
▁팟캐스트
▁국회의사당
▁볼프스부르크
▁트란실바니아
▁깬
멜로
삼국
임관
토키
ISC
▁권상
▁남연
▁뇌전
▁대당
▁대호
▁레슨
▁박규
▁비결
▁소백
▁수달
▁스나
▁스베
▁실세
▁예부
▁외측
▁유마
▁장문
▁전립
▁찍혀
▁청서
▁케미
▁풍년
▁풍물
▁하진
iful
rown
▁312
▁ITV
▁기술원
▁당상관
▁리어스
▁마리안
▁맞춤법
▁무한대
▁문경시
▁소문자
▁솔리드
▁수용액
▁어쩌면
▁에미넴
▁유위법
▁표시기
안토니오
▁1758
▁아시아나
▁오리엔트
▁주체사상
▁코스모스
▁코네티컷주
DC
발리
숨에
예스
▁IG
▁간과
▁갇히
▁감도
▁기강
▁김책
▁답사
▁대추
▁디미
▁류지
▁리암
▁멸시
▁바움
▁분동
▁샬롯
▁설파
▁성무
▁요란
▁익혀
▁자포
▁차륜
▁최명
▁파마
사회당
▁248
▁경전선
▁남북국
▁다방면
▁단숨에
▁돌핀스
▁동급생
▁매뉴얼
▁매카시
▁새마을
▁스콜라
▁신청서
▁에번스
▁오두막
▁으니까
▁죄책감
▁지대공
▁축구장
▁코뿔소
▁클레멘
▁한양대
▁헌병대
▁생겼으며
▁스페인인
▁시킨다면
▁어우러져
▁전기철도
▁중선거구
▁크레이지
▁와카야마현
▁아시아나항공
▁퀀
문예
ada
▁관보
▁교행
▁국을
▁글라
▁남중
▁놀랐
▁당인
▁대격
▁또래
▁라만
▁레시
▁린스
▁변절
▁비가
▁사암
▁속속
▁스팸
▁심청
▁자임
▁종시
▁진경
▁체전
▁치욕
▁친부
▁친해
▁코브
▁트릴
▁황진
리스크
▁308
▁und
▁가창력
▁고령군
▁기흥구
▁무색계
▁문학관
▁받침대
▁보건부
▁상대편
▁스테드
▁알아볼
▁오야마
▁후쿠치
erson
▁Park
▁Radio
▁가이드라인
▁뜸
▁숱
미도
lad
▁*/
▁게티
▁금연
▁금은
▁기우
▁라싸
▁사행
▁상냥
▁샐리
▁수형
▁실러
▁연지
▁예절
▁유탄
▁이피
▁작정
▁장손
▁쿠즈
▁키를
▁탈북
스코샤
iano
obal
▁달라붙
▁몬태나
▁미네랄
▁비너스
▁스키장
▁승강기
▁완전열
▁월간지
▁직제학
오세티야
▁1080
▁니시무라
▁마이너스
▁신춘문예
▁처녀자리
▁나타났으며
▁우주망원경
대리
덕동
라다
레트
성사
요스
웰스
▁가재
▁꺼리
▁노니
▁도브
▁물색
▁반다
▁분전
▁빌린
▁예쁜
▁정방
▁정위
▁증득
▁천민
▁청국
▁체형
▁탐진
▁폐선
▁협소
로니키
린다는
ters
▁346
▁거듭나
▁경전차
▁괴로움
▁그라스
▁대공포
▁도시락
▁리버티
▁목적어
▁산토스
▁상행선
▁스플릿
▁신고전
▁오라클
▁이세민
▁인버터
▁장보고
▁전용선
▁체르노
▁추징금
▁클로스
▁회사법
▁브레스트
▁오디세이
▁해왔으며
▁David
▁노바스코샤
▁박스오피스
▁보수주의자
▁테살로니키
ex
▁떤
반응
벨리
슨스
시기
의지
oul
▁강착
▁건원
▁권속
▁나로
▁미남
▁바주
▁비엘
▁성관
▁신야
▁신오
▁썸머
▁아길
▁야훼
▁예브
▁예테
▁왜소
▁요는
▁익룡
▁일소
▁조군
▁초라
▁최연
▁컬트
▁토속
▁팬더
▁피폭
▁혈장
▁훌라
드리치
클레어
iter
▁241
▁970
▁PSV
▁고려조
▁고위직
▁과천시
▁녹는점
▁드리스
▁로페즈
▁발매될
▁빼어난
▁사용법
▁순서수
▁알바로
▁지휘부
▁총연장
▁축전기
▁코브라
▁화천군
▁회의실
▁휴식기
▁2025
▁리얼리즘
▁슈퍼마켓
▁싸웠으나
▁예테보리
▁요시마사
▁차례차례
▁남오세티야
▁스프링필드
46
노바
물관
사람
참모
SQL
con
▁결방
▁괴인
▁넉넉
▁돋보
▁듀란
▁미정
▁방편
▁산로
▁산모
▁선례
▁순경
▁시지
▁시파
▁왔었
▁외성
▁제제
▁청어
▁태운
▁퇴원
▁호앙
야구장
▁269
▁276
▁490
▁MiG
▁구속력
▁도로망
▁라이어
▁모퉁이
▁부총장
▁불출마
▁서고트
▁소화기
▁시에나
▁아와지
▁오타쿠
▁제러미
▁채권법
▁최충헌
▁피난처
▁화산재
▁훈련기
▁흩어진
▁1506
▁1786
▁알렉상드르
▁카보베르데
▁동지중추부사
대륙
돋움
fer
rib
ube
▁GC
▁UM
▁gl
▁개구
▁관등
▁권신
▁김이
▁김중
▁대남
▁동고
▁뒷산
▁뜨거
▁맞은
▁미개
▁병무
▁불거
▁사해
▁선망
▁성터
▁스푸
▁신태
▁십육
▁알선
▁애들
▁역내
▁재치
▁조음
▁휘장
수수색
▁318
▁가드너
▁건축학
▁구리시
▁김연아
▁몰아냈
▁법화경
▁샌더스
▁서강대
▁아래층
▁아바타
▁오로치
▁와이즈
▁운전석
▁이치카
▁지배력
▁철광석
▁체사레
▁톰프슨
▁형태학
▁1413
▁1781
▁1785
▁NCAA
▁PROD
▁드와이트
▁살아간다
▁압수수색
▁우즈베크
▁청소년기
▁필라멘트
▁라디에이터
▁오카야마현
▁레트로바이러스
LD
▁ㄴ
▁긋
교구
이익
▁경동
▁고경
▁레기
▁무례
▁문희
▁봉지
▁불공
▁어법
▁여제
▁예매
▁우다
▁정영
▁차갑
▁치켜
▁캄차
▁탁자
▁하바
▁행할
▁회도
▁가리킬
▁감비아
▁구한말
▁나무과
▁리라는
▁문제삼
▁버금가
▁부산항
▁수출품
▁아오키
▁조에쓰
▁함평군
▁헨더슨
ember
▁temp
▁will
▁미네르바
▁오세아니아
▁입헌군주제
▁BA
▁관작
▁교유
▁군법
▁군포
▁그친
▁노모
▁녹차
▁동단
▁목수
▁몸값
▁배선
▁변칙
▁병용
▁서성
▁서수
▁스도
▁에브
▁일전
▁임씨
▁좌안
▁줄인
▁킬링
▁파테
▁팔츠
▁호자
▁299
▁OBS
▁Sal
▁TNT
▁고위급
▁나세르
▁바이크
▁부득이
▁사야카
▁사유지
▁아토스
▁알레한
▁어울려
▁이상재
▁탈북자
▁파도바
▁1618
▁Band
▁안달루시아
▁하우스도르프
35
킹엄
100
▁==
▁강병
▁공납
▁군신
▁귀결
▁노런
▁다빈
▁단맛
▁망고
▁문왕
▁문익
▁사외
▁석영
▁석패
▁성소
▁셜리
▁슐츠
▁앗딘
▁외주
▁위정
▁유조
▁입소
▁조속
▁태산
▁토륨
▁포카
▁폭정
▁퐁텐
▁해달
▁허수
▁헤밍
▁회절
▁히가
평장사
▁258
▁279
▁581
▁발돋움
▁볼츠만
▁생명력
▁요시키
▁제니스
▁총면적
▁치타스
earch
▁1614
▁Mach
▁쓰였으며
▁요구사항
▁유한회사
▁트리오스
▁히로히토
▁루이지애나주
▁잖
게티
렉틱
실린
윳값
▁강산
▁강신
▁개창
▁대내
▁랍비
▁백선
▁백호
▁베시
▁아귀
▁오너
▁잠식
▁전연
▁조커
▁촉탁
▁타츠
▁행실
▁혈중
▁형량
▁홀트
▁희석
▁525
▁고윳값
▁득표자
▁마그나
▁밑바닥
▁보은군
▁사라왁
▁사부로
▁아이다
▁지요다
▁통한다
▁파슨스
▁퍼블리
▁편집인
▁하지메
▁한자음
▁흥천사
▁히다카
▁1590
▁도미니크
▁마쓰마에
▁슈베르트
▁심플렉틱
▁파이낸셜
▁프레스코
▁형제자매
▁에마누엘레
▁와일드카드
▁트리케라톱스
▁솝
▁잰
공연
버시
조각
▁Hy
▁JK
▁Kh
▁TW
▁금욕
▁내막
▁딜러
▁매키
▁면밀
▁법명
▁부검
▁비견
▁선의
▁섬진
▁셰어
▁소상
▁소질
▁손발
▁시전
▁앰프
▁양곤
▁양말
▁얼티
▁예르
▁위층
▁접두
▁제소
▁첨사
▁초속
▁커질
▁학산
▁해온
▁혼례
▁홀름
▁화질
▁회이
안데르
▁254
▁324
▁730
▁GTX
▁경비원
▁돌출부
▁바스티
▁삽입곡
▁스쿼시
▁신채호
▁여행객
▁자유시
▁주고쿠
▁충실하
▁한라산
▁해파리
▁독립신문
▁서베를린
▁순회공연
▁플로렌스
▁자유민주연합
VB
▁놔
▁쌈
레르
열왕
체육
sch
▁가다
▁관복
▁구진
▁난항
▁대야
▁망각
▁번트
▁불쌍
▁섭외
▁셀틱
▁신일
▁오븐
▁용성
▁위례
▁전상
▁조재
▁조피
▁찬란
▁협시
▁혹시
가사키
리아나
izza
▁게시물
▁노이드
▁동북아
▁막대기
▁맞은편
▁메구미
▁사누키
▁선전관
▁시구르
▁오마이
▁유프라
▁저고리
▁필리포
▁왼손잡이
▁유프라테스
LO
달라
레로
사드
청년
호쿠
ift
▁가칭
▁감격
▁계신
▁계측
▁도울
▁무연
▁미비
▁반스
▁보필
▁본연
▁비숍
▁사에
▁산산
▁송사
▁아전
▁알릴
▁엑셀
▁유후
▁음대
▁참파
▁행세
▁혈증
▁후나
▁히에
폴리오
▁272
▁293
▁Ext
▁JAP
▁KNN
▁갈고리
▁갈아타
▁경찰대
▁누에바
▁다무라
▁들려주
▁변주곡
▁병리학
▁생산품
▁승하차
▁올라서
▁위르겐
▁컴팩트
▁햄버거
▁News
▁라인란트
▁막내아들
▁보냈으나
▁새마을호
▁시구르드
▁야마우치
▁인류학자
▁폴란드어
▁동음이의어
▁튕
벡스
시리
에프
포이
▁FP
▁각급
▁격변
▁국책
▁니야
▁니티
▁단바
▁돌린
▁동초
▁로베
▁못함
▁미연
▁브룬
▁비화
▁영묘
▁오소
▁와타
▁장계
▁젊음
▁정법
▁정씨
▁첨지
▁최병
▁폴스
▁한식
▁화족
레이라
베르투
프스키
ache
ving
▁870
▁Del
▁Kid
▁VfL
▁cle
▁김장생
▁나탈리
▁내버려
▁다라니
▁동화사
▁방화벽
▁상공업
▁쏟아지
▁엥겔스
▁영상물
▁이그나
▁장학생
▁최익현
▁출신자
▁칭하이
▁코시모
▁크누트
▁투수진
▁파이팅
press
▁cent
▁text
▁베이루트
▁스키피오
▁트러스트
▁Songs
▁Trans
▁PRODUC
▁냇
▁셍
감치
다닌
소닉
여름
호테
irc
▁LE
▁간이
▁경정
▁경조
▁굴러
▁기염
▁만민
▁몸담
▁버들
▁봉양
▁섞이
▁쇠락
▁신교
▁신랄
▁연남
▁외인
▁울려
▁유류
▁정가
▁죄악
▁주산
▁징조
▁최유
▁출옥
▁코만
▁코언
▁피침
▁해골
▁행크
▁흔치
쿠츠크
ious
▁335
▁351
▁TBN
▁경유지
▁경의선
▁물리량
▁성삼문
▁순례자
▁아카드
▁작업장
▁지배인
▁테라스
▁행렬식
▁0000
▁1609
▁NADP
▁다이어트
▁로체스터
▁머라이어
▁사르트르
▁사우스다
▁슈나이더
▁코카서스
▁이르쿠츠크
▁크라이슬러
▁포트폴리오
딩거
소총
양성
ERT
INE
▁개울
▁건넌
▁고선
▁다낭
▁대천
▁상왕
▁올슨
▁유속
▁유어
▁일문
▁임했
▁자꾸
▁정간
▁정이
▁지친
▁타결
▁필러
▁허균
▁호안
▁황국
ider
▁421
▁990
▁CSS
▁HBO
▁Say
▁maj
▁내용물
▁네우스
▁디나르
▁리아노
▁만든다
▁부녀자
▁사마소
▁삼총사
▁수출국
▁아담스
▁옹호자
▁일개미
▁자가용
▁저격수
▁좌익수
▁지나갈
▁1718
▁Mind
▁over
▁암행어사
▁하치노헤
▁수동변속기
▁페르디난드
▁프라이버시
pl
내기
서관
운사
ets
uss
▁;-
▁OO
▁강계
▁구포
▁극진
▁김근
▁두근
▁마호
▁몽테
▁무속
▁무임
▁믈라
▁비보
▁소래
▁수일
▁수피
▁숙이
▁알스
▁양민
▁에딘
▁우생
▁일회
▁잠자
▁쟁의
▁주보
▁중증
▁징벌
▁해짐
▁히키
대표제
스토이
ruct
▁Fly
▁GPL
▁Lin
▁가마터
▁간쑤성
▁노하우
▁봉은사
▁실내악
▁아즈텍
▁유제품
▁조리법
▁주모자
▁지나간
▁탐지기
▁흡혈귀
▁히로키
▁Work
▁공동묘지
▁군사령관
▁기독교도
▁부분집합
▁소프트볼
▁오이라트
▁인문주의
▁지명타자
▁Count
HA
SS
▁옻
▁푀
▁헹
네사
숙왕
팔트
프먼
▁공증
▁남안
▁다쳤
▁단파
▁드골
▁랩퍼
▁바가
▁변인
▁본떠
▁비인
▁산천
▁소바
▁아체
▁알류
▁야즈
▁연약
▁외르
▁운트
▁위수
▁유순
▁장형
▁적개
▁중핵
▁처소
▁팍스
▁향사
▁홍조
▁황인
립니다
코타주
▁BGM
▁Cat
▁Mad
▁대륙성
▁무찔렀
▁미유키
▁번식기
▁사계절
▁살라딘
▁세계사
▁제라드
▁주유소
▁줄리안
▁충숙왕
▁콘트라
▁태양풍
▁히데오
▁Hard
▁경국대전
▁두루마리
▁마사요시
▁애너하임
▁중등학교
▁프레데릭
▁IDOLM
78
▁넋
보트
사슬
센테
제도
▁골반
▁기문
▁논어
▁다미
▁라세
▁료마
▁루디
▁매상
▁명과
▁미공
▁방주
▁부곡
▁석비
▁소꿉
▁어구
▁오더
▁장내
▁장어
▁장재
▁적설
▁제전
▁직간
▁채광
▁체가
▁칭한
▁탈린
▁통곡
▁플립
▁핍박
▁학예
▁환대
▁환멸
▁후렴
드로스
사이저
▁405
▁갈라졌
▁공화제
▁데이즈
▁레베카
▁버려졌
▁부수찬
▁불태웠
▁성장기
▁실학자
▁에어백
▁오티스
▁재처리
▁제닝스
▁제철소
▁조만식
▁크로우
▁크리크
▁폭발력
▁허가서
▁헤일리
안데르탈
▁수아레스
▁슬라브족
▁통근열차
▁티베트족
▁네안데르탈
▁묀
동국
110
mus
▁HN
▁공청
▁국원
▁군영
▁굴지
▁기보
▁끊겼
▁데브
▁런닝
▁마코
▁무종
▁박선
▁본원
▁삭과
▁샌타
▁성진
▁수해
▁심성
▁야영
▁양승
▁연비
▁영릉
▁인덕
▁임천
▁자경
▁존자
▁창가
▁쿠엔
▁크립
▁타령
▁타히
▁판자
▁펄프
▁푸리
▁황우
▁히카
▁Dec
▁고유종
▁공대공
▁김좌진
▁딜레마
▁렀으며
▁로스엔
▁메시아
▁사리탑
▁사무처
▁세자르
▁순창군
▁유방암
▁작용기
▁챈들러
▁캔버라
▁파이크
▁피오르
▁형태소
▁1050
▁Feel
▁끌어올리
▁시나가와
▁저스티스
▁코르시카
▁로스엔젤레스
ga
ti
▁딛
▁롄
당기
여겨
조림
▁TT
▁고니
▁공여
▁권제
▁남평
▁노퍽
▁늘릴
▁된장
▁로터
▁명정
▁문동
▁백서
▁볶음
▁성좌
▁아네
▁아함
▁영생
▁오야
▁응징
▁이본
▁임자
▁전야
▁측선
▁코타
▁탈주
▁트이
▁항속
▁형세
▁홍종
소수점
아비브
▁Mot
▁간다는
▁급성장
▁대장균
▁도이치
▁마르스
▁미워하
▁부교수
▁신호기
▁애국자
▁오랑캐
▁우편물
▁음모론
▁이산해
▁지휘권
▁퀘이사
▁포유류
▁회의장
지느러미
cript
▁두려워한
▁백조자리
▁불가사의
▁불러들였
▁선덕여왕
▁신시사이저
▁지중추부사
▁티베리우스
▁클라우디우스
▁듬
▁챕
뭉치
뱅이
사건
용수
충제
▁XL
▁건수
▁극본
▁김관
▁노로
▁니조
▁닐슨
▁린지
▁만만
▁묶인
▁반목
▁발성
▁부성
▁삼청
▁상복
▁숭상
▁안영
▁원론
▁원부
▁일월
▁주서
▁최루
▁쿠타
▁터프
▁필치
▁혈류
박물관
▁Max
▁남긴다
▁노래방
▁다카오
▁브렌트
▁사들였
▁사마시
▁수산업
▁식별자
▁신분증
▁싸운다
▁아스투
▁유행어
▁이사국
▁쟁탈전
▁불러들여
▁코먼웰스
▁텔아비브
▁하이패스
▁아방가르드
▁아스투리아스
▁슝
애플
121
▁BE
▁강림
▁구개
▁낙마
▁남위
▁랑고
▁맞췄
▁매겼
▁모독
▁문전
▁봉했
▁서포
▁소연
▁아악
▁어거
▁여느
▁영당
▁운남
▁위너
▁음정
▁자우
▁쥬얼
▁참혹
▁천궁
▁출고
▁키티
▁투리
▁판과
▁프랫
▁하로
▁항고
▁험준
▁힐데
베이라
▁기계식
▁나아갈
▁덕수궁
▁드웨이
▁만토바
▁말린스
▁매도인
▁미끄러
▁보관소
▁아라시
▁오모리
▁조직법
▁진출권
▁페넌트
▁프로비
▁행선지
▁훈련원
▁비행대대
▁자유로이
▁페르소나
▁JAPAN
▁랑고바르드
▁올림피아드
▁일으켰으나
▁파라다이스
▁팬터그래프
III
ury
▁가택
▁고음
▁군제
▁루마
▁사동
▁송곳
▁시책
▁아실
▁악셀
▁안사
▁양인
▁어색
▁어차
▁엔도
▁오파
▁우계
▁위암
▁일로
▁자자
▁직급
▁직영
▁진저
▁집산
▁촌의
▁풀러
▁혜공
르트헤
플라이
▁고니시
▁금천구
▁깊숙이
▁대성공
▁도망갔
▁무령왕
▁부교리
▁북극성
▁산화제
▁아람어
▁엔리코
▁영덕군
▁이시영
▁임산부
▁지방선
젠테이션
bject
▁1644
▁cont
▁손해배상
▁자격정지
▁퓰리처상
▁바르톨로메
▁꿩
▁땡
내면
전지
카인
ola
▁거버
▁골문
▁더럽
▁르비
▁마쿠
▁매국
▁맹주
▁변국
▁불빛
▁서핑
▁스지
▁신통
▁임치
▁장가
▁전계
▁종중
▁착하
▁철인
▁초유
▁최면
▁칠리
▁퇴폐
▁포시
▁해식
시아스
지원군
프레드
ular
▁Mil
▁rem
▁기계어
▁노스다
▁다빈치
▁다카다
▁모리타
▁심상정
▁애국가
▁에비스
▁웨이드
▁캄차카
▁태양신
▁호치민
▁1648
▁Only
▁When
▁글리세롤
▁아스팔트
▁일찌감치
▁자유자재
▁제곱미터
▁체르노빌
▁현대그룹
▁월스트리트
▁인민지원군
▁숏
겨운
교사
순환
은하
참배
ENT
▁갑사
▁공저
▁난동
▁너클
▁돌림
▁디모
▁뚫려
▁라로
▁매그
▁베링
▁보나
▁분견
▁분홍
▁서두
▁앉히
▁영접
▁장량
▁천보
▁천식
▁흉년
상가상
아지에
ense
▁268
▁780
▁CGV
▁MBA
▁경마장
▁경쟁사
▁공급자
▁구세주
▁그림책
▁다이시
▁대용량
▁덮개돌
▁동해선
▁따돌리
▁사업단
▁스크리
▁윌리스
▁응답자
▁이바르
▁작곡자
▁판매자
▁펼친다
▁그려진다
▁들어온다
▁벌였으나
▁설상가상
▁신사참배
▁테오도르
▁후쿠야마
▁Break
▁베스트팔렌
▁탠
가족
같이
공단
ray
▁go
▁고법
▁곤잘
▁광운
▁끈다
▁뉴먼
▁래피
▁몽키
▁미도
▁바란
▁반찬
▁백수
▁섬인
▁셋쓰
▁송치
▁심벌
▁에러
▁에크
▁의안
▁인양
▁제하
▁초프
▁충원
▁치뤄
▁카슨
▁칼데
▁팬택
▁한발
▁현손
▁환도
▁NFL
▁WOR
▁나치스
▁노량진
▁다이스
▁단단히
▁디저트
▁못지않
▁앨릭스
▁영업소
▁왈라비
▁창업주
▁타카시
렌부르크
타르코스
▁1637
▁떨어져서
▁메인보드
▁안토니우
▁에스메랄
▁윈체스터
▁인피니티
▁라부아지에
▁Microsoft
귀족
러시
▁ll
▁가경
▁곤경
▁굳히
▁나물
▁비음
▁사투
▁아멘
▁앤티
▁여공
▁염오
▁예문
▁우구
▁웬디
▁을과
▁재검
▁조쉬
▁초소
▁추돌
▁타타
▁포그
▁현주
▁호황
▁휴학
스티니
▁Reg
▁Two
▁jpg
▁다카기
▁루브르
▁만하임
▁미니애
▁미쓰이
▁베릴륨
▁보르자
▁부시장
▁샤프트
▁서정시
▁세계인
▁엘레오
▁올라섰
▁자라났
▁피카르
▁현대인
지상주의
▁1605
▁Perf
▁글로리아
▁봄바디어
▁라디오헤드
▁바르바로사
▁부동소수점
▁샌안토니오
▁키르케고르
▁Street
▁미니애폴리스
GL
리얼
어붙
ily
put
uch
▁낭인
▁단죄
▁뛰쳐
▁마부
▁모른
▁문산
▁불그
▁사만
▁서호
▁성리
▁소천
▁시들
▁
▃
이
다
.
에
의
는
로
하
,
을
1
가
고
지
서
한
은
기
0
사
리
으
대
시
스
를
2
도
인
년
아
자
어
라
수
있
일
나
부
그
전
되
정
국
9
과
해
주
었
제
들
성
장
구
여
상
적
동
했
와
3
위
원
선
공
게
였
마
트
보
드
만
5
조
며
중
4
화
8
월
우
미
경
학
소
유
교
비
세
오
신
르
6
치
문
7
개
계
명
역
회
연
후
관
면
진
것
등
된
터
모
영
용
프
발
군
산
러
무
니
당
타
"
작
민
데
방
레
단
재
거
음
카
e
통
바
간
반
분
안
크
생
a
포
체
차
행
내
호
운
식
노
o
파
본
현
남
할
물
t
요
출
'
양
r
종
때
m
속
실
야
임
두
토
루
l
함
결
던
형
강
코
설
표
려
키
i
히
-
각
법
초
디
승
배
n
업
태
독
건
직
버
까
불
래
입
록
합
력
S
피
점
A
매
번
최
예
또
않
받
C
티
았
같
천
베
른
권
약
메
브
말
왕
더
알
목
심
격
판
감
립
u
청
s
투
금
추
처
항
네
북
란
달
없
활
평
린
따
외
열
저
언
집
특
즈
테
석
편
복
향
T
병
류
F
광
변
준
질
령
B
M
족
페
난
근
올
I
랑
름
람
황
급
존
축
총
송
많
김
능
c
론
술
박
참
울
철
쪽
별
g
f
살
D
환
증
악
및
온
창
P
품
E
절
쿠
;
곡
육
료
백
플
d
h
망
새
쓰
애
림
필
케
졌
순
돌
께
&
져
머
든
확
글
량
워
규
패
팀
클
탈
색
극
N
범
쟁
견
너
련
)
날
삼
탄
k
O
랜
L
친
째
R
충
K
막
손
봉
책
접
p
퍼
완
_
G
못
츠
뒤
협
런
션
(
담
V
밀
채
블
골
길
습
/
녀
엔
측
혼
누
취
럽
험
즌
커
귀
슬
암
곳
슈
벌
찰
H
겨
갈
웨
[
앙
]
씨
U
y
첫
뉴
허
침
칭
높
쳐
효
널
났
볼
:
죽
획
센
뜻
응
락
착
큰
례
폭
검
논
움
헌
징
잡
렸
~
득
엘
희
b
농
픽
캐
섬
걸
틀
럼
홍
풍
느
퇴
택
폴
%
좌
헤
W
먼
왔
될
층
폐
싱
끝
압
줄
념
덕
턴
앞
맞
즉
슨
찬
혁
윤
긴
맡
율
익
릭
링
늘
갖
써
텔
빈
델
염
잘
빌
얼
램
v
벨
묘
킨
컵
엄
콘
궁
냈
맹
렌
앨
닌
칸
균
팔
몇
억
밝
흥
훈
휘
객
옥
칼
얻
콜
푸
쇼
맥
갔
됐
숙
J
괴
넘
샤
므
좋
뷔
흐
몰
핵
찾
덴
붙
떠
w
릴
둘
빠
낸
켰
템
X
률
몬
혀
컴
액
탑
룹
뿐
욕
혹
쥐
굴
놓
십
끌
잠
힘
롯
죄
칙
갑
떨
핀
싸
촌
벽
척
벤
졸
먹
몸
략
끼
잉
춘
렉
맨
눈
풀
잔
휴
틴
켜
몽
녹
!
쳤
컬
칠
홈
앤
곤
뮤
밴
밖
폰
털
렇
뛰
륙
탁
셀
꾸
탕
멸
혜
둥
겼
솔
톤
렀
웠
Y
돈
홀
혈
윈
x
혔
팅
넷
컨
겸
딸
님
텐
롤
낮
냐
둔
쿄
탐
랐
톨
퓨
욱
헨
촉
겠
셔
낙
떤
콩
넓
꽃
킬
펜
왜
랙
뇌
렬
읍
붕
옹
킹
=
멘
튜
덜
섭
융
흔
놀
윌
슷
옮
닝
젤
듬
빛
헬
넣
깨
흑
겐
챔
땅
쉬
곧
힌
쌍
딩
롭
룬
답
켓
팬
즘
큐
멤
쇄
튼
짓
룡
듀
밤
젠
릉
값
닉
뢰
웅
렵
옛
랭
흡
납
씩
롱
맺
랫
짜
멜
닥
젝
쉽
웃
숭
꼬
궤
z
펠
섯
숨
듯
빙
멀
깊
+
잃
핑
셰
웹
캠
잇
|
즐
틱
밍
믿
쓴
빅
끄
뷰
텍
뜨
찍
큼
덤
짐
잎
틸
돼
펼
멕
럭
힐
빨
엽
롬
쇠
짧
뀌
럴
딘
폼
삭
릿
켈
곱
랍
첨
혐
캘
?
Z
켄
랄
삶
겪
닐
낭
썼
촬
얀
컷
Q
옆
벗
콤
밑
꿈
흘
첩
싶
곽
젊
낳
쌓
뉘
셜
냥
옷
룩
헝
빼
냉
듣
닛
톱
맛
븐
읽
샌
엑
왼
믹
봄
퀴
픈
벡
띠
엇
숲
잭
튀
낼
쿨
뱅
넬
흰
묵
셋
섰
뒷
됨
캄
벼
괄
앗
댄
엠
붉
좀
끊
슴
둑
뿌
씬
웰
첼
뤄
덮
떻
밥
늄
녕
톰
앵
륜
팽
찌
탱
팩
뤼
숫
묻
뱀
짝
늬
캔
렐
j
춤
렴
셈
샘
쓸
쾌
옌
훨
꼽
팝
쫓
륨
깔
겔
닫
갤
횡
꺼
뽑
늦
룸
렘
뼈
끈
앉
덩
딜
꼭
흉
좁
끔
멍
햄
룰
봇
펙
뚜
깃
꾼
딕
윗
춰
탠
퀸
랩
륭
빗
퀘
궐
덧
첸
킴
쿼
듭
싼
윙
삽
슐
뮌
펴
꺾
긍
q
셉
묶
쌀
홋
렛
넌
펄
펑
툰
꼴
겹
눌
훌
훗
섞
녁
*
뉜
넥
녔
돔
넨
띄
펀
곰
밭
\
깥
낌
섹
툴
돕
셸
닷
빵
랴
엉
핸
똑
콧
톡
딱
갱
뿔
훼
깝
팡
닭
늑
틈
풋
킷
{
콕
콰
맷
굳
힙
컫
콥
흙
룽
뇨
빚
핫
뮬
밸
굽
겁
옵
껍
쏘
킥
벳
멈
굿
겉
턱
봐
푼
떼
럿
샹
퉁
왈
딴
뻗
캡
탓
홉
렷
죠
꿀
샬
닮
눅
쑤
쯤
툼
붓
엣
쉐
띤
쁜
뚫
릇
굉
릎
쥬
줬
듈
칩
셨
댐
싫
웬
앱
헐
걷
놈
닿
퐁
쩌
갓
낀
챌
낱
슘
젖
흠
옴
삿
톈
쿤
펌
얄
걱
둠
쯔
솟
#
봤
팜
옐
잊
륵
솜
캉
렁
덟
냄
짙
곁
멋
돋
쏟
탤
휩
흩
떡
$
껴
긋
얇
밟
핍
굵
얘
덱
뚝
뭉
꾀
컸
텀
훔
꿔
왓
쁘
맵
끓
햇
댓
휠
맘
썬
밋
빔
괘
꽤
촨
뀐
픔
펫
잦
앓
횟
붐
벅
줌
엿
씀
샨
슭
벵
싯
멧
}
뒀
짱
팟
갇
헥
눠
딪
꼈
츄
땄
랏
줘
깎
튬
땃
맑
얹
곶
몫
`
뭇
찐
낫
닦
텝
팰
찔
걀
팍
맏
옳
쟈
얽
깐
윅
캅
씌
끗
슛
엥
앰
쭉
뻔
핏
궈
귄
뱃
욘
뚱
듐
낚
믈
볍
찮
촐
탬
뻐
챙
캣
헛
엮
훙
귤
쩔
넛
쾰
섀
숀
뫼
샐
쿡
꿨
렝
쉴
@
뭄
뜬
뾰
싹
녜
갯
푹
셴
뮈
챈
싣
얕
돗
딥
삐
낄
뤘
샀
랬
깜
웍
렙
눔
늙
펩
댈
딧
샵
슌
탭
꽂
쾨
겟
맬
냅
볶
뇽
췄
갚
껏
촛
쩐
꽝
몹
펭
깁
썩
쁨
퀼
짚
쪼
뜸
릅
짖
늪
췌
괌
츰
큘
즙
찢
숍
엡
쿰
훤
뜰
룻
넉
롄
퓌
빽
뮐
핼
뿜
씻
잼
굶
젯
뵈
뭐
쵸
퀄
쥘
샴
잣
똥
쑨
촘
벚
샷
슝
탔
욤
뜯
팻
벙
퓰
젓
썰
밧
엎
껑
멩
윽
땀
괜
댕
꿰
켐
둡
둬
킵
밈
쥔
튠
텅
됩
낡
뽀
낯
츨
꼼
랠
깅
뇰
쉰
캇
멱
뎀
퀀
좡
^
딤
맴
쑹
뮴
챠
팎
웜
헴
썸
엌
쿵
뱌
띈
팥
칫
캥
왁
꽁
솥
몄
쏠
쏜
훅
앳
ㅣ
댁
짠
갸
욜
윔
먀
옙
뎅
쉘
뭔
쐐
젬
퍽
얌
덥
폈
넴
칵
깡
쨌
뽕
돛
콴
툭
쑥
잖
쩍
눕
뛴
핌
놉
뺏
힉
웁
찻
찜
늠
룀
팁
캬
옅
읊
갠
ㄱ
닙
볕
뺨
쭈
꼰
땐
뛸
봅
딛
샛
썹
뀔
넵
팸
뎌
퀵
뺀
븀
숄
텡
쉼
쌈
엷
횃
꿇
냇
젼
웸
펨
웡
텃
줍
깬
쎄
힝
씹
짤
땡
튿
춧
텟
깼
씽
뻘
긁
켤
댑
휼
깍
꽉
귈
ㅇ
눗
솝
폄
솅
쇤
찼
떴
뱉
꺽
랗
쏴
뢴
얏
홑
뤽
뎃
뎬
ㅅ
윳
ㅡ
ㄷ
젱
됭
숯
쭤
뜩
ㄹ
잰
륀
꿩
ㅁ
쩡
춥
찹
숏
텁
ㄴ
빴
탸
륄
맙
잿
놔
꿉
푀
헵
놨
숱
굼
뽐
컹
셍
볜
헹
빡
튕
쌌
볏
옻
땜
묄
갬
넋
흄
랸
묀
댜
챕
낵
뵤
좇
녘
첵
꿋
껌
놋
댔
햐
밌
몯
뷸
냑
얗
줏
짬
뻣
핥
헷
챗
셤
탯
썽
뎠
쳇
쥰
툇
쌔
짊
쁠
똘
쟝
탉
덫
눙
휜
넝
욧
갭
겜
듦
넙
쿱
췬
괭
앴
젭
쭝
뷜
훠
뵐
앎
쨩
껀
뉠
ㅂ
눴
귓
콸
솽
뺄
숴
닳
튤
폿
꾹
긱
윕
넜
텨
궂
벰
헉
섣
뚤
쏙
몐
팹
햅
셧
셩
늉
깟
돤
ㅈ
펍
뭘
ㅋ
씰
쳅
톳
뷴
숟
괵
뗀
긔
ㅎ
껄
뗏
믐
빤
숑
쫄
왑
팠
푈
끽
냘
떳
켠
냔
솁
닻
겅
쥴
쳄
듄
쬐
왐
텼
꿍
챘
힛
톄
맣
갉
욥
꼿
샥
묽
쉔
쪄
챤
넹
샅
왠
뻑
쩨
칡
쳉
믄
뺑
웩
퉈
ㅏ
켁
뭍
퓸
죤
휨
뒬
땔
륌
횔
꽈
껫
윰
쭐
뎁
튈
갛
섐
짰
됴
넸
뻬
탰
팃
뀜
뜀
빳
ㅗ
씁
틋
휫
쾡
뢸
빻
윷
쾅
퍄
뗄
츤
튄
녓
섕
좨
잽
틔
홰
웻
잴
켕
솀
ㅊ
멎
찧
뵙
쫑
냠
퓔
ㅍ
짼
퀜
밉
훑
웽
녠
띵
꽌
쐈
깻
뵘
뺐
둣
쎈
깰
셌
햘
뼛
쉥
쟌
빕
ㅌ
졍
쯩
뷧
뻤
쿈
깽
쏭
쫒
ㅜ
쇳
얍
홧
겊
뎨
땋
욀
읜
졔
짭
뱁
볐
잤
찡
꽹
맸
먄
롼
섶
쿳
혓
젋
멥
삯
옘
줴
틍
ㅓ
듸
헙
똔
뻥
켑
궬
쭌
쌘
쌩
ㅐ
뒹
삵
낟
묠
뿍
읏
푄
뎐
붑
찟
쳔
룅
룔
큅
낏
뷘
큔
씸
ㅔ
텄
묜
녤
떫
굄
뚬
띌
쑈
엾
ㅆ
뇬
숩
헀
뽁
쏨
읫
폽
껐
젹
ㅕ
띨
쇽
컥
큄
툐
툠
갗
겡
닢
벋
쉿
ㄲ
뉼
섄
츈
괸
쮸
툽
똠
얉
ㅠ
뗐
뿡
졈
귐
퇼
귬
땠
룝
퇘
믜
뱐
쐬
퓐
ㅑ
빰
쌤
툉
푯
띔
졀
짢
펏
뒨
뽈
솎
옝
죌
쯕
촙
괼
밂
쇨
좆
ㅃ
륑
벱
큉
ㅛ
갹
뮨
슥
싀
쾃
틂
ㅉ
궉
셱
숌
낑
삔
ㄸ
넒
죈
죵
쌉
캑
갰
궜
뺌
짇
덞
떵
쓱
짦
큇
퉜
녯
돠
쉈
옇
츳
캴
꾐
뱡
쨍
훵
ㅢ
뼉
삥
얭
ㅒ
뵬
붇
쌕
옭
ㅖ
덛
뿅
샾
썻
쎌
쫀
딨
쨋
쩜
퀠
틉
휙
ㅟ
묑
쟀
퇀
푁
햏
끙
뚠
뵌
횬
껩
꿎
뎡
맟
몌
ㅚ
곪
귿
꿴
됸
땝
묏
벧
볘
븓
븡
잌
젔
쳥
캰
쿌
큥
걔
븨
샙
쒀
웟
푤
흭
겋
랖
솃
쉑
곗
랼
뼘
솨
앏
윾
펐
굠
떰
쏸
왬
챵
ㅘ
긷
놘
돝
똣
롸
싁
졉
텬
팼
꺅
뤠
슙
읒
쳬
쳰
걍
겍
꾜
륍
슉
쪘
큭
킁
퇸
퍌
ㅄ
꽥
멓
밞
쉭
죗
킈
튐
곬
굣
궃
덖
릐
쁩
섈
쌋
좐
짹
춉
췐
탼
귁
끎
녈
닑
닯
뭡
뭣
엳
읗
쟉
쫌
챨
췰
쿽
풰
ㅙ
ㅝ
갼
겯
뀨
낍
냣
뉸
댠
됙
뜷
롹
몆
밎
뱟
뽄
삑
얜
옯
츌
햔
뉵
똬
믯
붸
쀼
쌰
읕
읖
쟤
찿
켸
큽
햑
흗
ㅞ
궨
긑
녬
늡
듕
샜
솬
슯
읻
죡
쵤
춍
핬
혠
훕
휀
늴
댱
돐
먁
셕
셥
쑬
얠
왝
윁
읔
쥣
즁
쫙
쬔
찝
틑
퍈
겝
굘
뇩
뒴
떱
룟
왱
좃
즛
쨈
쨔
쬘
캤
쾍
튱
ㄺ
ㄼ
껭
꿘
뀍
녑
됀
묫
믕
엊
읓
졘
쳡
햣
겻
곯
낢
뉨
밪
볓
붜
삘
슾
옉
죔
쥠
짯
쩬
쮠
챡
캪
텽
풂
ㄳ
ㄻ
ㅀ
걲
깸
꺄
뙈
뚧
륏
륩
맻
벛
섥
앝
엹
읃
잍
잛
쭘
쯧
촤
퀑
큠
튁
푠
횐

ㄿ
꼍
뇸
뉙
뙤
뜽
렜
뢱
밷
봬
뻰
솓
썅
쎅
쏱
쒸
욺
윱
첬
촹
츔
퀌
턔
햠
헸
ㄽ
겇
꼳
꾄
눞
늣
딫
맽
멨
뱔
섁
섦
슁
씐
엤
왹
욍
읠
읺
짫
츼
픙
ㄵ
ㄾ
겄
귑
껸
꽛
눼
닏
뎜
듧
묭
묾
뵨
븜
빋
빱
뺘
삳
얐
얶
옜
왯
욷
졋
쨘
쭙
쮜
켯
콀
쾬
쿙
푕
휭
ㄶ
갣
겿
꿕
낻
뉻
닸
덪
돟
둗
듁
땟
뚯
띡
렫
롐
룐
멉
벴
쏫
얆
얾
욋
웤
잏
잗
쟛
쫏
챰
쳑
컁
켬
콱
탘
퍙
픕
픠
햤
횻
흴
곂
곈
곷
괏
깯
꽅
꾿
넗
뉩
늗
닜
닺
땁
땨
땸
떄
뙡
랟
럇
룁
몃
뭏
볻
봔
븍
뺴
뻴
섿
슽
쌴
씼
엶
옫
옸
쟐
좔
짔
쩝
쬼
쯘
챱
촥
쵹
쵼
춋
쾀
톺
톼
퐝
혤
훽
걈
걺
겆
곙
굥
깆
깩
꽆
꾕
끕
넀
넢
넫
녇
닽
댛
덨
뎰
됫
뒸
뗑
띰
럄
뢨
먈
멂
몔
뫃
뮹
믓
믾
뱄
뷁
빝
샇
쇵
싻
쎙
쐰
쑜
욈
읆
쟂
쟙
젇
쩽
쬠
찓
쳘
쳣
춈
츅
츙
콛
콬
퀍
탙
텦
툿
튽
폘
햗
헿
홤
홥
횰
횽
휑
흝
흫
힁
갂
갘
걑
걘
곌
괂
깉
깠
꺠
껜
껶
꽦
꿏
꿸
뀀
뀝
냬
넖
녣
놰
뇻
늇
덝
뎍
뎦
돴
됄
됏
됮
둄
뒈
듫
떽
뗬
뗴
띱
럅
렢
롈
뤀
뤗
륻
뫄
밣
붘
뷕
븥
빎
뽓
뿟
삠
삡
삮
샏
섓
셖
솦
솻
쇘
숰
숳
쉉
쉡
쎔
쓔
앟
앧
얖
얺
엜
엵
욌
욯
윶
읭
읳
읹
쟘
졜
졷
좽
줫
쩄
쩰
쫜
쬬
찣
챦
쵝
츕
츩
콮
퀭
툥
튝
푱
풉
퓬
핟
핮
핶
핻
홛
홱
횄
횩
훍
훓
훝
흿
갃
걋
겂
겣
곅
곘
굑
굔
궅
귝
깂
깢
깹
껙
껼
꼇
꼐
꽐
뀠
냡
넎
넡
넶
녝
뇐
뇔
뉫
늚
늰
댤
덣
돎
돚
돵
돽
둰
둴
둿
뒁
뒥
뒫
듥
딷
뗌
뗘
똫
뙨
뛔
뜁
뜌
띳
랒
럐
럔
렡
롑
롓
뤌
맄
맆
맜
먗
먿
몀
몴
뫙
뭅
뭰
뮝
믏
믠
밒
밨
밫
밯
뱆
뱜
벉
봍
봘
뵉
뵷
붏
붖
붛
붴
뷋
뺩
뺵
뼁
뼤
삣
삻
샂
샊
셑
쇗
숡
숸
슼
싈
싰
싲
싾
쎕
쎴
쏩
쏳
쐇
쑴
쒜
쓿
씃
씉
앃
앋
얅
얬
엩
옄
옰
옲
옺
왰
윘
윟
읅
읶
읿
잋
잩
쟨
젣
젿
죰
줓
쥭
즤
짗
쨉
쩸
쫃
쫍
춴
췅
칲
칳
캌
캭
컈
켙
콙
퀏
킼
턀
텉
텥
톹
퇌
퇻
퉤
틧
팈
팯
퍅
퍠
폅
폔
폳
퐈
푣
풜
핔
핳
햊
햋
헜
혿
홅
홯
횓
횢
휄
휏
힜
갅
갆
갊
갋
갌
갍
갎
갏
갞
갟
갡
갢
갥
갦
갧
갨
갩
갪
갫
갮
갲
갳
갴
갵
갶
갷
갺
갻
갽
갾
갿
걁
걂
걃
걄
걅
걆
걇
걉
걊
걌
걎
걏
걐
걒
걓
걕
걖
걗
걙
걚
걛
걜
걝
걞
걟
걠
걡
걢
걣
걤
걥
걦
걧
걨
걩
걪
걫
걬
걭
걮
걯
걳
걵
걶
걹
걻
걼
걽
걾
걿
겈
겎
겏
겑
겒
겓
겕
겖
겘
겙
겚
겛
겞
겢
겤
겥
겦
겧
겫
겭
겮
겱
겲
겳
겴
겵
겶
겷
겺
겾
곀
곃
곆
곇
곉
곊
곋
곍
곎
곏
곐
곑
곒
곓
곔
곕
곖
곚
곛
곜
곝
곲
곹
곺
괁
괍
괕
괗
괠
굇
굦
굻
궇
궎
궘
궝
궡
궷
귯
긆
긜
긧
긪
긾
깄
깋
깓
깖
꺌
껠
껬
꼮
꾈
꿧
끟
낛
낣
낲
냤
넁
넏
넑
넚
넞
녋
녙
놃
놧
놩
뇍
뇓
뇜
눋
눝
늅
늏
늕
늩
늿
닁
닞
닟
닠
댇
댚
댝
댸
덙
덯
뎗
뎝
돇
돍
돓
돰
됍
됢
됬
됰
됼
둉
둏
둙
둚
둟
둧
뒵
듲
듳
듹
듼
딀
딈
딭
딯
딲
땍
땽
떘
떙
떢
떥
떦
떪
떯
뗼
뚷
뚸
뚼
뜹
띁
띅
랃
랓
랕
랛
랢
랰
랲
럈
럘
럲
럻
렃
렆
렗
렠
렣
롣
롲
뢀
뢉
룍
룧
룯
뤈
뤨
뤰
뤳
뤵
륐
륫
륱
륽
릌
릍
릏
릘
릫
릳
맀
맃
맊
맍
맔
맕
맗
맠
맢
먓
먕
먘
먾
멏
멪
멵
몊
몪
뫂
뫈
뫔
묺
뭌
뭬
뭴
믁
밚
밠
밬
뱍
뱓
벏
벐
벓
벹
볃
볈
볿
봋
봌
봣
봥
뵛
뵝
붊
붔
붠
붵
뷀
뷃
뷤
븃
븕
븝
븟
빍
빧
빩
뺙
뺬
뺸
뺼
뻇
뻠
뻡
뻩
뻼
뽝
뿗
뿝
쀍
쁭
삜
샆
샞
섊
섡
섧
섨
섵
섷
셒
솏
솑
쇡
쇰
숔
숖
숮
쉅
쉠
슢
슦
슳
싄
싡
싦
싪
싵
싿
쌁
썊
썪
쎗
쎘
쎼
쎾
쐉
쐑
쐼
쑷
쒼
쓘
씜
앀
앆
앖
앚
앛
앹
앾
얂
얃
얊
얨
얫
엗
엪
옂
옏
옽
옾
왇
왘
왙
왤
왿
욨
욽
욿
웆
웇
웑
웝
윋
윥
읂
읇
읋
읐
읙
읟
읷
잂
잆
잙
잚
잧
잨
쟃
쟇
쟎
쟬
젃
젆
젏
젗
젙
젲
젵
졩
졶
좍
좧
죕
죳
줃
줜
줼
쥉
쥤
쥥
쥼
쥿
즑
즞
짎
짛
짥
쨀
쨜
쨤
쩟
쩩
쩹
쩻
쪗
쪤
쫗
쫘
쭁
찯
챂
첟
첯
첲
쳠
촏
촣
쵀
쵣
춛
춝
춟
춭
췍
췡
췩
췽
츹
칯
칱
캎
캿
컅
컺
켭
켱
켼
콭
쾁
쾩
쾻
쾽
쿸
쿹
퀩
퀫
큎
큣
큹
킄
킌
킽
탇
탣
탶
턚
텛
텤
텰
텸
텻
툅
툘
툱
튭
튻
틜
틩
팉
팑
팤
팦
퍁
펲
폏
폶
퐃
퐅
퐌
퐷
푓
푝
픅
픝
픞
핃
핓
핝
핞
핢
핦
핧
핱
핲
햝
햡
