[PAD]	0
[UNK]	0
[BOS]	0
[EOS]	0
[CLS]	0
[SEP]	0
[MASK]	0
▁▃	-0
▁ㅇ	-1
▁ㅇㅡ	-2
▁하	-3
ㄷㅏ	-4
▁.	-5
▁ㅇㅔ	-6
▁⊸	-7
▁⊸⊸	-8
▁ㄱ	-9
▁이	-10
ㅡㄴ	-11
ㄴㅡㄴ	-12
▁ㄷㅏ	-13
▁ㅇㅢ	-14
▁ㄴㅡㄴ	-15
▁ㄹ	-16
▁,	-17
▁ㅇㅡㄹ	-18
▁ㅇㅓ	-19
▁ㅇㅏ	-20
▁ㅇㅡㄴ	-21
▁1	-22
ㅅㅓ	-23
▁되	-24
▁ㅇㅣ	-25
ㅡㄹ	-26
▁ㄹㅡㄹ	-27
▁ㅇㅓㅆ	-28
▁년	-29
▁ㄱㅗ	-30
ㄹㅗ	-31
▁2	-32
▁있	-33
▁ㅇㅏㅆ	-34
▁대	-35
▁ㄹㅗ	-36
▁ㄱㅏ	-37
▁사	-38
▁지	-39
▁그	-40
ㅁㅕ	-41
▁일	-42
▁시	-43
▁ㄷ	-44
▁ㅇㅕ	-45
ㄴㄷㅏ	-46
▁들	-47
▁ㄱㅘ	-48
▁수	-49
▁가	-50
▁기	-51
▁전	-52
ㅈㅣ	-53
▁적	-54
▁아	-55
▁20	-56
▁ㅇㅘ	-57
▁ㄷㅗ	-58
▁월	-59
▁주	-60
▁제	-61
▁ㅁㅕ	-62
▁19	-63
▁다	-64
▁정	-65
▁자	-66
▁중	-67
▁위	-68
▁인	-69
▁ㅇㅕㅆ	-70
▁공	-71
▁보	-72
▁세	-73
▁경	-74
▁것	-75
▁ㅈㅣ	-76
▁개	-77
▁부	-78
▁ㄹㅏ	-79
▁ㄱㅣ	-80
▁오	-81
▁유	-82
▁3	-83
▁"	-84
▁조	-85
▁나	-86
▁등	-87
▁스	-88
▁선	-89
▁ㄱㅔ	-90
▁성	-91
▁미	-92
▁동	-93
▁연	-94
▁마	-95
▁상	-96
▁소	-97
▁모	-98
▁한	-99
▁고	-100
▁비	-101
▁영	-102
▁의	-103
▁구	-104
ㄴㅏ	-105
▁국	-106
▁도	-107
▁발	-108
ㄱㅗ	-109
▁여	-110
▁201	-111
▁서	-112
▁'	-113
ㅁㅏ	-114
▁4	-115
▁후	-116
▁관	-117
▁명	-118
ㅁㅏㄴ	-119
▁신	-120
▁만	-121
▁프	-122
▁5	-123
▁때	-124
▁ㅁㅕㄴ	-125
▁200	-126
▁장	-127
▁-	-128
▁ㄷㅓ	-129
▁방	-130
▁ㄷㅓㄴ	-131
▁바	-132
▁교	-133
▁리	-134
▁해	-135
▁문	-136
▁역	-137
▁내	-138
▁차	-139
ㅌㅓ	-140
ㅂㅜ	-141
▁당	-142
▁무	-143
▁우	-144
▁원	-145
▁통	-146
▁계	-147
▁현	-148
▁남	-149
▁군	-150
▁노	-151
▁포	-152
▁분	-153
▁어	-154
▁6	-155
▁화	-156
▁또	-157
▁않	-158
ㄲㅏ	-159
▁거	-160
▁학	-161
▁생	-162
▁ㄲㅏ	-163
▁작	-164
▁같	-165
▁강	-166
▁결	-167
▁출	-168
▁파	-169
ㄱㅔ	-170
▁진	-171
▁받	-172
▁대하	-173
▁크	-174
▁단	-175
▁7	-176
▁번	-177
▁최	-178
▁10	-179
▁반	-180
▁불	-181
▁8	-182
▁알	-183
▁데	-184
▁위하	-185
▁호	-186
▁두	-187
▁회	-188
▁배	-189
▁안	-190
▁카	-191
▁실	-192
▁형	-193
▁초	-194
▁말	-195
▁따	-196
▁예	-197
▁에	-198
▁재	-199
▁ㅂㅜ	-200
▁없	-201
▁로	-202
▁타	-203
▁사용	-204
ㄷㅔ	-205
▁9	-206
▁미국	-207
▁종	-208
▁라	-209
▁이후	-210
▁요	-211
▁함	-212
▁설	-213
▁과	-214
ㅈㅏ	-215
▁특	-216
▁ㅁㅕㄴㅅㅓ	-217
▁일본	-218
▁코	-219
▁ㄴㅡㄴㄷㅔ	-220
▁산	-221
▁운	-222
▁권	-223
▁감	-224
▁독	-225
▁레	-226
▁활	-227
▁추	-228
▁베	-229
▁행	-230
▁ㅈㅏ	-231
▁왕	-232
민국	-233
▁피	-234
▁김	-235
▁그리	-236
▁지역	-237
▁음	-238
▁대한	-239
▁양	-240
▁더	-241
▁199	-242
▁다음	-243
▁매	-244
▁민	-245
▁태	-246
▁평	-247
▁많	-248
▁12	-249
▁입	-250
▁따르	-251
▁건	-252
▁대한민국	-253
▁참	-254
▁18	-255
▁간	-256
▁및	-257
▁경기	-258
▁승	-259
▁열	-260
▁가지	-261
▁목	-262
▁대학	-263
▁다른	-264
▁;	-265
리아	-266
00	-267
▁프로	-268
▁의하	-269
▁드	-270
▁총	-271
▁속	-272
스트	-273
▁ㅁㅏㄴ	-274
▁북	-275
or	-276
▁S	-277
▁집	-278
▁11	-279
▁법	-280
▁때문	-281
▁트	-282
▁시작	-283
▁체	-284
▁각	-285
▁외	-286
▁물	-287
▁천	-288
▁달	-289
▁변	-290
▁메	-291
▁시키	-292
▁임	-293
▁직	-294
▁표	-295
▁올	-296
▁처	-297
▁ᄆ	-298
▁토	-299
▁그러	-300
▁본	-301
▁사람	-302
▁&	-303
▁쓰	-304
▁점	-305
▁저	-306
▁함께	-307
▁A	-308
▁또한	-309
▁팀	-310
▁박	-311
어지	-312
어나	-313
▁치	-314
▁투	-315
▁선수	-316
▁청	-317
▁한국	-318
▁항	-319
▁)	-320
▁브	-321
▁영화	-322
▁세계	-323
▁사이	-324
▁버	-325
▁광	-326
▁약	-327
▁새	-328
la	-329
▁자신	-330
▁C	-331
▁게	-332
▁M	-333
▁경우	-334
▁용	-335
▁통하	-336
▁f	-337
▁판	-338
▁ㄴㅏ	-339
▁디	-340
▁축	-341
▁T	-342
▁현재	-343
▁F	-344
▁기록	-345
▁복	-346
▁야	-347
▁하나	-348
▁국가	-349
시아	-350
▁아니	-351
▁존	-352
▁네	-353
▁이름	-354
▁198	-355
▁편	-356
▁당시	-357
▁가장	-358
▁확	-359
▁삼	-360
▁위치	-361
▁_	-362
▁조선	-363
▁학교	-364
▁활동	-365
▁보이	-366
▁뒤	-367
▁철	-368
▁만들	-369
▁리그	-370
주의	-371
▁(	-372
▁필	-373
▁그러나	-374
▁15	-375
▁살	-376
▁for	-377
▁금	-378
▁페	-379
▁증	-380
mu	-381
▁합	-382
▁째	-383
▁루	-384
▁플	-385
▁백	-386
▁테	-387
▁창	-388
▁심	-389
mula	-390
▁formula	-391
▁애	-392
▁언	-393
ㄱㅏ	-394
▁식	-395
▁16	-396
레이	-397
▁대표	-398
▁연구	-399
▁병	-400
▁근	-401
▁못	-402
▁또는	-403
▁프랑	-404
▁/	-405
▁그리고	-406
▁황	-407
▁사회	-408
▁m	-409
▁돌	-410
▁규	-411
▁0	-412
▁D	-413
▁충	-414
▁17	-415
▁시즌	-416
▁순	-417
▁첫	-418
▁패	-419
▁197	-420
▁]	-421
▁[	-422
ㅇㅑ	-423
▁B	-424
▁완	-425
랜드	-426
▁히	-427
▁이루	-428
▁높	-429
▁중국	-430
▁못하	-431
▁알리	-432
▁협	-433
▁다시	-434
▁길	-435
▁클	-436
▁서울	-437
▁정부	-438
▁프랑스	-439
학교	-440
▁K	-441
▁영국	-442
▁I	-443
▁ㅂ	-444
▁채	-445
▁:	-446
▁시대	-447
▁ㄴㅡㄴㄷㅏ	-448
▁키	-449
▁도시	-450
▁k	-451
▁포함	-452
▁뜻	-453
▁여러	-454
▁196	-455
ㅁㅕㄴ	-456
▁14	-457
▁은	-458
▁전쟁	-459
▁아이	-460
▁독일	-461
▁면	-462
er	-463
▁죽	-464
▁대회	-465
▁~	-466
▁문화	-467
▁g	-468
▁배우	-469
▁13	-470
▁축구	-471
▁취	-472
▁위원	-473
▁별	-474
▁P	-475
▁허	-476
▁가능	-477
▁모두	-478
▁ㅅㅓ	-479
▁뉴	-480
▁동안	-481
in	-482
ㄴㅣ	-483
▁ㅂㅗ	-484
▁모든	-485
▁이상	-486
▁친	-487
▁감독	-488
▁손	-489
▁곡	-490
▁194	-491
▁정치	-492
▁환	-493
▁일부	-494
▁방송	-495
▁l	-496
▁석	-497
▁문제	-498
▁대학교	-499
▁처음	-500
▁개발	-501
▁L	-502
▁지방	-503
▁제작	-504
▁구성	-505
▁%	-506
▁캐	-507
▁검	-508
▁인하	-509
▁국제	-510
▁러	-511
▁농	-512
▁터	-513
라이	-514
▁사건	-515
▁니	-516
▁골	-517
▁세기	-518
▁끝	-519
▁시간	-520
▁이용	-521
▁ㄱㅓ	-522
▁논	-523
▁일반	-524
▁씨	-525
▁부르	-526
▁존재	-527
▁G	-528
▁작품	-529
▁향	-530
▁게임	-531
▁밀	-532
▁날	-533
▁운동	-534
▁정도	-535
▁폭	-536
▁급	-537
▁역사	-538
▁주장	-539
▁gt	-540
▁나오	-541
▁N	-542
▁곳	-543
ㄹㅗㄱ	-544
▁섬	-545
▁관계	-546
▁인구	-547
▁즉	-548
니아	-549
▁앞	-550
▁ㅅ	-551
on	-552
▁티	-553
▁195	-554
▁효	-555
▁km	-556
▁교육	-557
▁음악	-558
▁접	-559
▁중심	-560
▁나타	-561
▁육	-562
▁lt	-563
▁ㄹㅕ	-564
▁맡	-565
리스	-566
▁이러	-567
▁U	-568
▁귀	-569
▁극	-570
▁30	-571
▁쿠	-572
▁R	-573
▁절	-574
▁맞	-575
▁선거	-576
▁블	-577
▁경제	-578
부분	-579
▁발견	-580
▁전투	-581
통령	-582
▁H	-583
▁담	-584
▁민주	-585
화국	-586
▁봉	-587
▁발표	-588
▁E	-589
▁글	-590
▁홍	-591
▁갖	-592
▁기술	-593
▁올림	-594
▁측	-595
▁누	-596
▁막	-597
▁암	-598
▁아들	-599
이스	-600
▁책	-601
▁우승	-602
▁2010	-603
▁공격	-604
▁엔	-605
▁대부분	-606
▁들어	-607
▁대통령	-608
▁올림픽	-609
▁잘	-610
▁사망	-611
an	-612
▁영향	-613
▁걸	-614
▁케	-615
▁헤	-616
▁질	-617
000	-618
▁불리	-619
▁결과	-620
▁슈	-621
▁열리	-622
▁여기	-623
▁송	-624
▁밝	-625
▁새롭	-626
▁라이	-627
▁지원	-628
▁프로그	-629
▁앨	-630
리카	-631
▁193	-632
▁과정	-633
▁잡	-634
▁의미	-635
▁발생	-636
▁관련	-637
▁참여	-638
▁중앙	-639
▁유럽	-640
▁업	-641
▁진행	-642
▁c	-643
▁최초	-644
란드	-645
▁머	-646
20	-647
▁얻	-648
▁범	-649
▁준	-650
▁25	-651
▁고등	-652
▁부분	-653
▁독립	-654
ㅆㅓ	-655
▁특히	-656
▁자유	-657
▁태어나	-658
▁제국	-659
▁세우	-660
▁결정	-661
▁다양	-662
지만	-663
▁구조	-664
▁설립	-665
▁팔	-666
▁설치	-667
▁속하	-668
▁초등	-669
버지	-670
▁당하	-671
▁발매	-672
▁폐	-673
▁형태	-674
나라	-675
▁상태	-676
▁소속	-677
▁탄	-678
▁탈	-679
▁W	-680
▁악	-681
▁온	-682
▁벌	-683
▁좌	-684
▁2008	-685
▁러시아	-686
▁이전	-687
▁21	-688
▁침	-689
▁좋	-690
▁센	-691
우스	-692
▁사실	-693
▁하지만	-694
▁일어나	-695
▁그녀	-696
▁르	-697
▁줄	-698
▁스타	-699
디오	-700
▁커	-701
▁같이	-702
ㄹㅏ	-703
▁폴	-704
▁로마	-705
▁여성	-706
▁인민	-707
▁주로	-708
▁프로그램	-709
▁이것	-710
▁타이	-711
▁나라	-712
▁2012	-713
▁2011	-714
▁생각	-715
▁갈	-716
▁필요	-717
▁출신	-718
▁참가	-719
▁싱	-720
▁혼	-721
▁이탈	-722
▁관리	-723
▁기준	-724
▁조직	-725
▁100	-726
▁운영	-727
en	-728
▁위원회	-729
▁2009	-730
▁보내	-731
▁여자	-732
▁2007	-733
▁오르	-734
▁윤	-735
▁중요	-736
▁생산	-737
▁2014	-738
▁계획	-739
▁기관	-740
▁t	-741
▁행정	-742
▁등장	-743
▁정보	-744
▁상대	-745
▁음반	-746
▁이르	-747
▁지정	-748
▁계속	-749
▁데이	-750
▁바이	-751
▁성공	-752
▁a	-753
▁매우	-754
▁콘	-755
▁지나	-756
▁국민	-757
▁데뷔	-758
▁2013	-759
▁해당	-760
▁O	-761
▁넘	-762
he	-763
▁밝히	-764
▁레이	-765
▁철도	-766
ㄹㅓ	-767
▁대전	-768
▁아버지	-769
스터	-770
▁과학	-771
▁칼	-772
▁고려	-773
리즈	-774
▁이탈리아	-775
ㄷㅗ	-776
▁주요	-777
프트	-778
▁몇	-779
▁발전	-780
▁자리	-781
▁191	-782
▁사업	-783
▁묘	-784
▁시스	-785
▁와	-786
▁23	-787
▁24	-788
▁ㅊ	-789
▁찾	-790
▁지내	-791
▁000	-792
▁2015	-793
남도	-794
ar	-795
▁억	-796
▁차지	-797
ㅁㅡ	-798
▁2018	-799
▁방법	-800
▁ㅊㅓ	-801
ㄹㅓㅁ	-802
라마	-803
▁헌	-804
▁2016	-805
▁월드	-806
▁앨범	-807
▁얼	-808
레스	-809
▁능	-810
▁그룹	-811
▁최고	-812
▁쇼	-813
▁인도	-814
▁돌아	-815
▁빌	-816
▁출연	-817
▁마이	-818
▁아래	-819
▁시리즈	-820
이션	-821
르크	-822
▁결국	-823
▁엘	-824
▁관하	-825
▁J	-826
es	-827
▁고등학교	-828
▁전체	-829
▁후보	-830
▁22	-831
▁생활	-832
▁떨	-833
▁이루어지	-834
▁빠	-835
▁2006	-836
▁회사	-837
이트	-838
▁그리스	-839
FA	-840
▁이유	-841
▁한편	-842
▁192	-843
▁내용	-844
▁ㅇㅡㅁ	-845
▁거치	-846
비아	-847
▁우리	-848
▁격	-849
▁층	-850
▁나가	-851
▁제공	-852
▁스페	-853
▁연합	-854
▁풍	-855
▁방식	-856
▁2017	-857
▁항공	-858
▁공식	-859
운데	-860
▁의원	-861
▁인터	-862
▁힘	-863
▁많이	-864
▁인간	-865
▁시기	-866
▁컴	-867
▁역할	-868
▁드라마	-869
▁잠	-870
▁희	-871
▁가운데	-872
▁몸	-873
▁군사	-874
▁시스템	-875
▁초기	-876
▁조사	-877
▁출전	-878
▁유명	-879
▁워	-880
▁기업	-881
▁민족	-882
▁거의	-883
▁제도	-884
▁반대	-885
▁류	-886
▁s	-887
▁놓	-888
▁쓰이	-889
▁나타나	-890
▁퍼	-891
▁지구	-892
▁푸	-893
▁가리	-894
▁둘	-895
▁텔	-896
▁교회	-897
▁색	-898
▁수상	-899
▁대신	-900
▁떠	-901
비스	-902
▁달리	-903
▁유지	-904
▁평가	-905
▁울	-906
▁분류	-907
▁표현	-908
▁ㄹㅏㄴ	-909
▁26	-910
▁!	-911
▁몰	-912
▁특별	-913
▁올리	-914
▁홈	-915
▁언어	-916
▁대상	-917
▁녹	-918
▁동시	-919
at	-920
▁기능	-921
▁현대	-922
▁규모	-923
▁응	-924
▁프리	-925
▁공개	-926
▁28	-927
▁졸	-928
▁마지	-929
▁모습	-930
▁자연	-931
▁노동	-932
▁ㅇㅑ	-933
▁이미	-934
▁연결	-935
▁각각	-936
▁웨	-937
야기	-938
▁개인	-939
▁27	-940
▁2019	-941
▁들어가	-942
▁이론	-943
▁승리	-944
▁전하	-945
▁뛰	-946
▁붙	-947
▁인정	-948
▁단체	-949
▁진출	-950
▁지도	-951
▁브라	-952
▁ㅅㅣ	-953
북도	-954
▁임명	-955
▁2005	-956
▁핵	-957
▁V	-958
▁2000	-959
▁떨어지	-960
▁마지막	-961
▁시장	-962
▁목적	-963
머니	-964
▁시절	-965
▁메이	-966
▁아르	-967
▁수도	-968
▁경상	-969
▁전문	-970
▁정의	-971
▁목록	-972
▁난	-973
▁멀	-974
▁정책	-975
▁기간	-976
▁족	-977
▁너	-978
▁상황	-979
▁눈	-980
ic	-981
▁산업	-982
▁직접	-983
▁이야기	-984
al	-985
▁먹	-986
▁서로	-987
ㅂㄴㅣ	-988
▁야구	-989
스크	-990
▁혁	-991
▁오스트	-992
▁압	-993
▁밴	-994
▁계약	-995
▁기원	-996
▁슬	-997
▁추가	-998
BS	-999
▁건설	-1000
▁2004	-1001
▁공동	-1002
▁모델	-1003
▁개최	-1004
▁콜	-1005
▁FC	-1006
▁건물	-1007
▁샤	-1008
▁공간	-1009
▁플레이	-1010
▁경찰	-1011
▁망	-1012
▁50	-1013
▁활약	-1014
▁형성	-1015
▁결혼	-1016
▁거리	-1017
▁스페인	-1018
▁부산	-1019
▁31	-1020
▁훈	-1021
▁자동	-1022
▁29	-1023
학자	-1024
▁졸업	-1025
▁그것	-1026
▁칸	-1027
▁b	-1028
▁변화	-1029
▁노래	-1030
▁교수	-1031
▁사상	-1032
▁변경	-1033
▁TV	-1034
으키	-1035
▁국회	-1036
▁ㄴㅣ	-1037
is	-1038
▁인물	-1039
▁나이	-1040
▁뿐	-1041
▁마을	-1042
re	-1043
it	-1044
▁공화국	-1045
▁텔레	-1046
▁완전	-1047
▁다르	-1048
▁벨	-1049
▁궁	-1050
▁190	-1051
▁비롯	-1052
▁노선	-1053
▁사랑	-1054
▁흐	-1055
▁인민공	-1056
▁낮	-1057
▁인민공화국	-1058
비전	-1059
▁휴	-1060
▁역시	-1061
▁2020	-1062
▁중학교	-1063
▁학생	-1064
ou	-1065
▁느	-1066
▁맥	-1067
▁보통	-1068
▁실제	-1069
▁지지	-1070
▁최대	-1071
▁서비스	-1072
이드	-1073
▁만나	-1074
▁볼	-1075
▁잉	-1076
▁요구	-1077
▁탑	-1078
▁지금	-1079
▁견	-1080
▁따라	-1081
▁보호	-1082
▁전국	-1083
프리카	-1084
대로	-1085
▁일으키	-1086
▁의회	-1087
▁소설	-1088
▁싸	-1089
▁중화	-1090
▁우주	-1091
▁딸	-1092
▁겸	-1093
▁실시	-1094
▁지하	-1095
▁ㄱㅔㅆ	-1096
역시	-1097
▁혹	-1098
▁기본	-1099
▁없이	-1100
▁황제	-1101
▁다이	-1102
운드	-1103
▁가수	-1104
▁판매	-1105
▁자기	-1106
▁싱글	-1107
▁전통	-1108
르트	-1109
▁밴드	-1110
▁높이	-1111
▁원래	-1112
▁비판	-1113
▁ㅁㅏ	-1114
▁차이	-1115
▁기반	-1116
▁옥	-1117
▁떠나	-1118
▁엄	-1119
▁퇴	-1120
▁론	-1121
▁2002	-1122
너지	-1123
▁종교	-1124
▁경기도	-1125
▁탐	-1126
▁세력	-1127
▁어떤	-1128
로스	-1129
▁내리	-1130
▁40	-1131
▁버리	-1132
▁자료	-1133
스탄	-1134
▁소련	-1135
▁수행	-1136
▁가리키	-1137
▁이끌	-1138
▁2003	-1139
▁환경	-1140
▁기타	-1141
▁ㄴ	-1142
▁회의	-1143
▁센터	-1144
▁모양	-1145
▁전기	-1146
▁운행	-1147
▁풀	-1148
▁시설	-1149
▁도쿄	-1150
▁월드컵	-1151
▁부대	-1152
▁전자	-1153
▁특징	-1154
▁나타내	-1155
나다	-1156
러스	-1157
▁밖	-1158
▁승강	-1159
▁공연	-1160
▁기념	-1161
▁컵	-1162
▁걸치	-1163
▁그래	-1164
▁명칭	-1165
▁교황	-1166
▁분야	-1167
le	-1168
▁뮤	-1169
▁예술	-1170
▁이동	-1171
▁설명	-1172
▁기독	-1173
▁텔레비전	-1174
▁통합	-1175
mp	-1176
▁작업	-1177
▁연방	-1178
▁남자	-1179
▁구역	-1180
▁도입	-1181
▁염	-1182
▁동물	-1183
▁득	-1184
▁행동	-1185
▁따라서	-1186
▁선정	-1187
▁전라	-1188
▁애니	-1189
▁숙	-1190
스타	-1191
▁군대	-1192
▁소프트	-1193
▁남쪽	-1194
▁넓	-1195
▁바로	-1196
▁작용	-1197
들이	-1198
▁할	-1199
▁가족	-1200
▁능력	-1201
▁출시	-1202
▁북쪽	-1203
▁방향	-1204
▁증가	-1205
▁확인	-1206
▁기존	-1207
▁=	-1208
▁지휘	-1209
▁행위	-1210
▁제외	-1211
▁차량	-1212
▁교통	-1213
▁문학	-1214
의원	-1215
▁기독교	-1216
▁옮	-1217
▁작가	-1218
▁이때	-1219
▁착	-1220
▁비슷	-1221
▁클럽	-1222
▁사고	-1223
▁국내	-1224
▁윌	-1225
▁형식	-1226
▁ㅁㅡ	-1227
▁도로	-1228
▁십	-1229
▁어머니	-1230
▁혁명	-1231
▁마르	-1232
▁작곡	-1233
▁강하	-1234
▁역임	-1235
▁승강장	-1236
▁빈	-1237
▁효과	-1238
▁태양	-1239
▁지배	-1240
▁낙	-1241
▁캐나다	-1242
▁몽	-1243
▁그렇	-1244
▁컴퓨	-1245
▁열차	-1246
▁왕국	-1247
▁유일	-1248
▁FI	-1249
▁과거	-1250
▁사무	-1251
▁거두	-1252
▁옮기	-1253
▁이적	-1254
▁챔	-1255
BC	-1256
ㄴㄷㅔ	-1257
▁협회	-1258
▁혹은	-1259
▁남부	-1260
▁갑	-1261
▁추정	-1262
리오	-1263
▁흥	-1264
▁뉴욕	-1265
▁베이	-1266
▁비교	-1267
▁솔	-1268
▁흔	-1269
▁공산	-1270
자리	-1271
▁생기	-1272
▁담당	-1273
▁갖추	-1274
▁육군	-1275
▁이어지	-1276
▁정당	-1277
▁이사	-1278
▁동일	-1279
▁시민	-1280
▁주변	-1281
▁획	-1282
▁2001	-1283
▁런	-1284
▁1990	-1285
▁홀	-1286
▁즈	-1287
▁늘	-1288
▁동쪽	-1289
▁장관	-1290
▁인기	-1291
▁대사	-1292
▁스포	-1293
▁물리	-1294
▁스트	-1295
▁적용	-1296
▁넣	-1297
▁X	-1298
▁챔피	-1299
▁윈	-1300
▁세포	-1301
▁건축	-1302
▁예정	-1303
▁공사	-1304
▁p	-1305
▁데이터	-1306
▁구간	-1307
▁쪽	-1308
▁사단	-1309
▁컴퓨터	-1310
▁개념	-1311
▁성장	-1312
▁조지	-1313
▁상당	-1314
▁곧	-1315
드리	-1316
▁오늘	-1317
▁크기	-1318
▁서쪽	-1319
▁마음	-1320
▁품	-1321
▁189	-1322
▁차례	-1323
▁징	-1324
▁에너지	-1325
▁버스	-1326
▁멤	-1327
▁충청	-1328
▁돈	-1329
▁맨	-1330
▁비하	-1331
ㄴㅈㅣ	-1332
▁흑	-1333
▁바르	-1334
▁록	-1335
이지	-1336
▁바꾸	-1337
▁치르	-1338
▁어리	-1339
▁액	-1340
▁칭	-1341
▁작전	-1342
▁땅	-1343
▁민주주의	-1344
▁조건	-1345
▁자체	-1346
▁실패	-1347
▁디자	-1348
▁연기	-1349
▁잔	-1350
▁어느	-1351
▁율	-1352
▁반응	-1353
▁덕	-1354
▁FIFA	-1355
▁이런	-1356
▁d	-1357
▁선언	-1358
▁돌아오	-1359
▁이어	-1360
▁버전	-1361
▁애니메	-1362
▁종류	-1363
▁특정	-1364
▁연주	-1365
▁부족	-1366
▁컨	-1367
▁페르	-1368
▁국립	-1369
▁방영	-1370
▁움	-1371
카이	-1372
▁익	-1373
▁쉽	-1374
▁연속	-1375
가지	-1376
▁쌍	-1377
▁피해	-1378
▁공항	-1379
el	-1380
▁선택	-1381
▁대체	-1382
▁대구	-1383
▁해군	-1384
▁다루	-1385
et	-1386
▁ㄹㅓ	-1387
▁규정	-1388
▁고대	-1389
거리	-1390
버스	-1391
▁멤버	-1392
▁체제	-1393
▁조약	-1394
▁북부	-1395
라지	-1396
▁내부	-1397
▁수록	-1398
루스	-1399
▁속도	-1400
▁결승	-1401
▁기원전	-1402
▁아시아	-1403
▁선출	-1404
▁연대	-1405
▁애니메이션	-1406
글랜드	-1407
▁헌법	-1408
▁쥐	-1409
▁명령	-1410
▁정신	-1411
▁인천	-1412
▁크리스	-1413
▁포르	-1414
▁옛	-1415
▁ㄴㅡㄴㅈㅣ	-1416
▁휘	-1417
ion	-1418
▁왜	-1419
▁가치	-1420
웨어	-1421
▁단계	-1422
▁영어	-1423
▁개혁	-1424
▁최종	-1425
▁자치	-1426
ing	-1427
▁물질	-1428
▁친구	-1429
▁달러	-1430
▁설계	-1431
▁나누	-1432
▁최근	-1433
▁분석	-1434
▁밤	-1435
▁비행	-1436
▁척	-1437
▁출판	-1438
트남	-1439
▁가깝	-1440
▁평균	-1441
▁의사	-1442
시마	-1443
▁강화	-1444
▁지명	-1445
▁1999	-1446
▁로스	-1447
▁체계	-1448
아가	-1449
널리	-1450
▁더욱	-1451
ol	-1452
라스	-1453
▁표준	-1454
▁롭	-1455
▁소비	-1456
▁술	-1457
▁잉글랜드	-1458
▁배치	-1459
메리카	-1460
▁1998	-1461
▁법원	-1462
▁머리	-1463
▁집단	-1464
▁cm	-1465
21	-1466
▁Y	-1467
▁치료	-1468
▁북한	-1469
▁획득	-1470
▁개월	-1471
▁부문	-1472
▁남기	-1473
▁파이	-1474
▁o	-1475
▁씩	-1476
▁팬	-1477
▁언급	-1478
▁관심	-1479
▁헬	-1480
▁함수	-1481
▁하이	-1482
▁하계	-1483
▁분리	-1484
▁겨	-1485
▁공원	-1486
▁1980	-1487
▁유사	-1488
▁지속	-1489
▁현상	-1490
▁부상	-1491
▁60	-1492
▁파리	-1493
▁먼	-1494
▁벤	-1495
▁맺	-1496
▁스포츠	-1497
▁스테	-1498
▁실험	-1499
▁조정	-1500
▁선발	-1501
▁처리	-1502
▁확장	-1503
스코	-1504
▁입단	-1505
▁베르	-1506
리지	-1507
▁관할	-1508
▁제품	-1509
▁엔진	-1510
▁지니	-1511
▁공립	-1512
▁35	-1513
▁마치	-1514
▁챔피언	-1515
▁대중	-1516
▁마리	-1517
▁소유	-1518
▁문자	-1519
▁빠르	-1520
▁목표	-1521
▁꽃	-1522
▁도움	-1523
▁장군	-1524
▁mm	-1525
▁어렵	-1526
▁시도	-1527
▁요소	-1528
▁통일	-1529
▁주도	-1530
▁재판	-1531
디어	-1532
▁에스	-1533
▁정규	-1534
▁자동차	-1535
▁요시	-1536
⊸⊸	-1537
⊸⊸⊸	-1538
▁나무	-1539
▁외국	-1540
▁거주	-1541
▁이해	-1542
▁구단	-1543
▁점령	-1544
▁향하	-1545
▁후반	-1546
▁원자	-1547
▁시험	-1548
▁편성	-1549
▁주인	-1550
▁네덜	-1551
▁네덜란드	-1552
▁기사	-1553
▁바뀌	-1554
▁미치	-1555
▁n	-1556
광역시	-1557
▁괴	-1558
▁주민	-1559
▁앤	-1560
▁학자	-1561
▁가르	-1562
▁행사	-1563
▁잃	-1564
▁일종	-1565
▁통신	-1566
▁사령	-1567
▁결합	-1568
▁웹	-1569
▁혈	-1570
▁투표	-1571
▁고속	-1572
▁안정	-1573
▁동맹	-1574
▁스럽	-1575
▁끌	-1576
▁예선	-1577
▁알렉	-1578
▁불교	-1579
▁책임	-1580
▁잇	-1581
▁길이	-1582
om	-1583
▁수준	-1584
▁앙	-1585
▁개봉	-1586
나무	-1587
▁장치	-1588
야마	-1589
▁아프리카	-1590
▁깊	-1591
▁끝나	-1592
▁1997	-1593
▁언론	-1594
젝트	-1595
▁본선	-1596
▁디자인	-1597
▁문서	-1598
▁모르	-1599
▁광주	-1600
▁불구	-1601
▁정하	-1602
일랜드	-1603
▁베트남	-1604
▁준비	-1605
▁사진	-1606
▁촉	-1607
▁캠	-1608
▁칠	-1609
▁방문	-1610
▁신문	-1611
▁가문	-1612
메달	-1613
▁빛	-1614
▁유전	-1615
▁ㄱㅜ	-1616
st	-1617
▁폴란드	-1618
▁다니	-1619
▁구분	-1620
▁1996	-1621
▁정권	-1622
▁가정	-1623
▁정확	-1624
▁The	-1625
▁1995	-1626
▁제조	-1627
▁경험	-1628
▁그림	-1629
▁성적	-1630
▁요리	-1631
▁핀	-1632
▁비디오	-1633
▁드러	-1634
▁용어	-1635
▁amp	-1636
▁평화	-1637
▁믿	-1638
▁정리	-1639
▁부인	-1640
▁32	-1641
▁오늘날	-1642
▁통과	-1643
▁70	-1644
▁값	-1645
▁부여	-1646
▁일제	-1647
특별	-1648
▁원인	-1649
▁왕조	-1650
ㅇㅓ	-1651
▁찬	-1652
▁아마	-1653
▁프로젝트	-1654
▁런던	-1655
▁추진	-1656
▁덴	-1657
▁아직	-1658
▁은퇴	-1659
▁병원	-1660
▁이곳	-1661
▁널리	-1662
스로	-1663
▁종합	-1664
▁방어	-1665
ㅇㅓㅆ	-1666
▁올라	-1667
▁깨	-1668
▁멸	-1669
▁프레	-1670
스턴	-1671
인트	-1672
▁슈퍼	-1673
▁신라	-1674
▁500	-1675
▁폐지	-1676
▁인터넷	-1677
▁이듬	-1678
▁몬	-1679
▁영역	-1680
▁습	-1681
▁해석	-1682
▁통치	-1683
▁끼	-1684
▁경쟁	-1685
웨이	-1686
▁훈련	-1687
▁미사	-1688
▁경영	-1689
▁제주	-1690
▁입장	-1691
▁the	-1692
▁면적	-1693
▁주연	-1694
▁총리	-1695
▁츠	-1696
▁발달	-1697
▁보도	-1698
am	-1699
레일	-1700
▁노력	-1701
아들이	-1702
▁파괴	-1703
▁민주당	-1704
▁기여	-1705
▁제안	-1706
▁80	-1707
▁만화	-1708
▁회장	-1709
▁유래	-1710
▁접하	-1711
▁죽이	-1712
▁미술	-1713
▁번호	-1714
▁서부	-1715
▁주제	-1716
▁부정	-1717
▁188	-1718
▁이듬해	-1719
▁모으	-1720
▁경기장	-1721
▁야마	-1722
▁도서	-1723
▁놀	-1724
▁국회의원	-1725
리트	-1726
▁UE	-1727
▁연맹	-1728
▁생물	-1729
▁남성	-1730
▁지키	-1731
▁완전히	-1732
▁식민	-1733
▁빅	-1734
▁궤	-1735
라인	-1736
▁동부	-1737
▁자주	-1738
▁투수	-1739
▁경계	-1740
▁요청	-1741
▁+	-1742
il	-1743
▁ㄹㅜ	-1744
▁그런	-1745
▁1994	-1746
▁정상	-1747
▁폰	-1748
▁법률	-1749
▁UEFA	-1750
▁나뉘	-1751
▁1970	-1752
▁행성	-1753
▁벌이	-1754
▁소재	-1755
▁무기	-1756
▁수용	-1757
▁등록	-1758
▁금지	-1759
▁돕	-1760
▁연구소	-1761
▁삼성	-1762
▁움직	-1763
톨릭	-1764
▁ㅅㅡ	-1765
ac	-1766
▁지진	-1767
▁인식	-1768
▁제한	-1769
▁펼	-1770
▁라디오	-1771
▁바탕	-1772
▁링	-1773
▁강원	-1774
▁무대	-1775
▁박물	-1776
▁꼬	-1777
▁노르	-1778
▁발사	-1779
▁아시	-1780
▁영토	-1781
머지	-1782
▁지대	-1783
▁나머지	-1784
▁KBS	-1785
▁외교	-1786
▁표기	-1787
▁접근	-1788
▁조각	-1789
▁철학	-1790
▁린	-1791
▁반면	-1792
▁오래	-1793
▁업무	-1794
▁스스로	-1795
▁뉴스	-1796
▁빠지	-1797
▁정식	-1798
▁뇌	-1799
▁ㅅㅡㅂㄴㅣ	-1800
▁거부	-1801
▁다리	-1802
▁아일랜드	-1803
▁결성	-1804
▁서식	-1805
▁마찬	-1806
▁마찬가지	-1807
▁오스	-1808
▁더불	-1809
▁벽	-1810
▁필리	-1811
▁붙이	-1812
▁1992	-1813
▁돌아가	-1814
▁받아들이	-1815
▁펜	-1816
▁상호	-1817
▁은행	-1818
요일	-1819
▁굴	-1820
▁45	-1821
▁다수	-1822
▁아카	-1823
▁공작	-1824
▁짧	-1825
▁가톨릭	-1826
▁기초	-1827
ro	-1828
▁박사	-1829
ㅁㅕㄴㅅㅓ	-1830
▁복귀	-1831
▁소리	-1832
임스	-1833
▁임시	-1834
▁스웨	-1835
▁보수	-1836
▁논란	-1837
▁바다	-1838
▁트리	-1839
▁수학	-1840
▁주의	-1841
▁이기	-1842
▁득점	-1843
▁성격	-1844
▁의식	-1845
시코	-1846
▁36	-1847
ed	-1848
▁장애	-1849
▁이렇	-1850
▁of	-1851
모토	-1852
▁윌리	-1853
▁실제로	-1854
▁지도자	-1855
▁박물관	-1856
▁유로	-1857
▁초대	-1858
▁이스	-1859
▁마이크	-1860
▁해결	-1861
▁장소	-1862
▁검사	-1863
ㄴㄱㅏ	-1864
▁그대로	-1865
▁에이	-1866
▁스위	-1867
워드	-1868
▁브라질	-1869
▁긴	-1870
▁여행	-1871
▁카드	-1872
▁총선	-1873
트리	-1874
▁집합	-1875
▁여름	-1876
▁화학	-1877
▁표시	-1878
▁차원	-1879
▁기구	-1880
▁강력	-1881
▁식물	-1882
▁패배	-1883
▁묘사	-1884
▁느끼	-1885
▁오브	-1886
▁1960	-1887
ig	-1888
▁계열	-1889
▁관측	-1890
▁제시	-1891
▁이외	-1892
▁연극	-1893
▁1991	-1894
▁안전	-1895
▁유니	-1896
토리	-1897
▁단순	-1898
▁인사	-1899
▁스웨덴	-1900
▁차트	-1901
로나	-1902
▁파일	-1903
▁뛰어나	-1904
▁활용	-1905
▁무역	-1906
▁디지	-1907
▁멕	-1908
▁곤	-1909
▁권력	-1910
▁개국	-1911
▁회원	-1912
▁히로	-1913
▁오스트리아	-1914
▁자라	-1915
▁꾸	-1916
부르크	-1917
▁1993	-1918
레일리아	-1919
▁근처	-1920
▁기계	-1921
▁싸우	-1922
▁33	-1923
▁형제	-1924
▁캐릭	-1925
▁소프트웨어	-1926
▁보다	-1927
▁조성	-1928
▁반란	-1929
▁붕	-1930
배우	-1931
▁취하	-1932
▁분포	-1933
▁먼저	-1934
▁지적	-1935
베이	-1936
▁중간	-1937
▁중단	-1938
▁흡	-1939
▁발행	-1940
▁위험	-1941
▁아무	-1942
▁세대	-1943
트로	-1944
▁시행	-1945
▁일정	-1946
▁스튜	-1947
▁스코	-1948
▁여객	-1949
특별시	-1950
▁도착	-1951
▁량	-1952
od	-1953
▁기자	-1954
▁띠	-1955
▁협력	-1956
▁서울특별시	-1957
버트	-1958
▁사이트	-1959
사카	-1960
▁윈도	-1961
▁지하철	-1962
주시	-1963
▁186	-1964
▁단어	-1965
▁해안	-1966
▁하루	-1967
▁캐릭터	-1968
니스	-1969
▁다만	-1970
ve	-1971
▁",	-1972
▁렌	-1973
워크	-1974
▁코드	-1975
▁파견	-1976
▁죽음	-1977
as	-1978
▁혜	-1979
▁수많	-1980
▁연장	-1981
▁들어오	-1982
▁내각	-1983
▁순위	-1984
▁전시	-1985
▁세상	-1986
▁태평	-1987
▁경상남도	-1988
▁오스트레일리아	-1989
지션	-1990
▁다카	-1991
▁내려	-1992
▁공장	-1993
▁본부	-1994
▁죄	-1995
나이	-1996
▁생성	-1997
▁투자	-1998
▁후기	-1999
소년	-2000
▁번역	-2001
▁카이	-2002
▁삶	-2003
▁케이	-2004
▁겪	-2005
▁윌리엄	-2006
▁감소	-2007
▁근거	-2008
▁경상북도	-2009
▁혐	-2010
▁옹	-2011
▁지상	-2012
▁네트	-2013
▁뮤직	-2014
▁제기	-2015
▁보유	-2016
▁확대	-2017
▁귀족	-2018
▁보존	-2019
▁유형	-2020
▁관광	-2021
▁양식	-2022
▁1988	-2023
무원	-2024
▁지식	-2025
▁듣	-2026
▁동생	-2027
▁균	-2028
▁멜	-2029
▁위기	-2030
▁상징	-2031
▁?	-2032
▁달성	-2033
▁187	-2034
▁구하	-2035
▁유대	-2036
▁숨	-2037
▁촬	-2038
▁캘	-2039
▁촌	-2040
▁극장	-2041
▁원소	-2042
▁멕시코	-2043
▁전략	-2044
▁상업	-2045
▁h	-2046
▁근무	-2047
▁디지털	-2048
▁영상	-2049
▁학위	-2050
▁유리	-2051
▁당선	-2052
▁성립	-2053
▁수사	-2054
▁완성	-2055
▁대응	-2056
ㅜㄴ	-2057
▁단위	-2058
▁34	-2059
▁특수	-2060
▁짓	-2061
▁계승	-2062
▁발매되	-2063
▁옆	-2064
▁촬영	-2065
▁체포	-2066
▁이슬	-2067
▁흐르	-2068
티아	-2069
▁수비	-2070
▁코치	-2071
▁님	-2072
▁38	-2073
▁몇몇	-2074
▁식민지	-2075
▁나중	-2076
▁체결	-2077
id	-2078
▁이렇게	-2079
▁ㅇㅗ	-2080
▁전달	-2081
회사	-2082
▁마사	-2083
아내	-2084
▁이집	-2085
▁권리	-2086
▁이집트	-2087
▁알렉산	-2088
▁종목	-2089
가리	-2090
▁국왕	-2091
▁생명	-2092
▁90	-2093
가와	-2094
▁듀	-2095
아시아	-2096
▁싶	-2097
▁벌어지	-2098
▁낳	-2099
▁걸리	-2100
▁승격	-2101
▁아내	-2102
▁맹	-2103
▁시티	-2104
▁톤	-2105
▁ㄷㅐ	-2106
▁1989	-2107
▁헨	-2108
▁직후	-2109
▁이주	-2110
▁판단	-2111
▁2021	-2112
▁개통	-2113
▁시청	-2114
▁타이틀	-2115
모리	-2116
▁률	-2117
▁주식	-2118
▁관찰	-2119
▁크로	-2120
▁도서관	-2121
▁48	-2122
ec	-2123
▁대륙	-2124
▁동계	-2125
▁측정	-2126
▁펼치	-2127
▁소수	-2128
▁틀	-2129
▁미군	-2130
▁젊	-2131
▁미래	-2132
▁맞추	-2133
▁채널	-2134
▁엘리	-2135
▁즐	-2136
▁홍콩	-2137
▁밑	-2138
▁문화재	-2139
us	-2140
▁정치인	-2141
▁스키	-2142
▁전환	-2143
▁설정	-2144
▁자본	-2145
▁세르	-2146
▁포르투	-2147
and	-2148
▁특성	-2149
▁라인	-2150
▁텍	-2151
NA	-2152
▁',	-2153
▁쌓	-2154
▁새로	-2155
▁미사일	-2156
▁개정	-2157
▁신경	-2158
▁얼마	-2159
▁납	-2160
▁종료	-2161
▁시위	-2162
▁취임	-2163
▁상하	-2164
▁1950	-2165
▁의견	-2166
▁제정	-2167
▁기획	-2168
▁지위	-2169
▁|	-2170
▁후쿠	-2171
▁달하	-2172
▁본관	-2173
▁주어지	-2174
▁300	-2175
▁결승전	-2176
▁은하	-2177
ㅇㅔ	-2178
▁청년	-2179
스티	-2180
▁전차	-2181
▁MBC	-2182
디아	-2183
코드	-2184
▁사회주의	-2185
▁아키	-2186
▁e	-2187
▁천황	-2188
▁헝	-2189
▁출생	-2190
▁주인공	-2191
▁교체	-2192
▁범죄	-2193
ad	-2194
▁전라남도	-2195
▁셀	-2196
▁제임스	-2197
▁답	-2198
▁계산	-2199
▁충돌	-2200
▁주목	-2201
▁예수	-2202
▁ㅃ	-2203
▁소개	-2204
▁춘	-2205
▁해외	-2206
▁수정	-2207
▁녹음	-2208
교회	-2209
▁ㅇㅏㅆㅇㅓㅆ	-2210
▁장기	-2211
▁빼	-2212
▁ㅃㅜㄴ	-2213
▁1945	-2214
▁음식	-2215
▁바이러스	-2216
▁즉위	-2217
▁비용	-2218
▁스티	-2219
▁벗	-2220
▁모이	-2221
▁카운	-2222
▁남북	-2223
▁개선	-2224
▁본래	-2225
▁소장	-2226
ent	-2227
▁합류	-2228
▁자격	-2229
▁건강	-2230
리학	-2231
▁비밀	-2232
전히	-2233
▁공부	-2234
▁펠	-2235
▁네트워크	-2236
▁건너	-2237
▁공급	-2238
▁궤도	-2239
스카	-2240
▁이래	-2241
▁계기	-2242
▁배경	-2243
▁부모	-2244
▁체육	-2245
▁시내	-2246
▁에드	-2247
▁만드	-2248
▁ㄷㅡ	-2249
50	-2250
▁인근	-2251
▁털	-2252
▁제거	-2253
▁셰	-2254
▁원정	-2255
▁컬	-2256
▁작성	-2257
▁누구	-2258
▁명예	-2259
▁오후	-2260
▁각종	-2261
▁공군	-2262
▁거대	-2263
▁자원	-2264
▁홈런	-2265
▁입학	-2266
▁물론	-2267
▁신학	-2268
▁가입	-2269
▁왼	-2270
▁감염	-2271
▁성우	-2272
▁읽	-2273
▁국경	-2274
▁베네	-2275
▁군인	-2276
▁전사	-2277
▁집중	-2278
▁피아	-2279
▁천문	-2280
▁가격	-2281
베르	-2282
▁명단	-2283
▁포지션	-2284
보이	-2285
▁객	-2286
▁울산	-2287
▁병력	-2288
▁저항	-2289
▁신호	-2290
▁줄이	-2291
티나	-2292
▁통제	-2293
▁이슬람	-2294
▁농업	-2295
리포	-2296
▁기후	-2297
▁아우	-2298
피아	-2299
▁찰	-2300
▁질량	-2301
▁강조	-2302
▁소송	-2303
▁측면	-2304
▁인수	-2305
▁St	-2306
▁터미	-2307
▁만약	-2308
▁플로	-2309
▁실행	-2310
▁학문	-2311
▁블랙	-2312
▁세이	-2313
▁던	-2314
▁병사	-2315
▁콩	-2316
▁터키	-2317
도로	-2318
ot	-2319
▁강원도	-2320
▁오른	-2321
▁겨울	-2322
▁태평양	-2323
니어	-2324
▁x	-2325
▁정착	-2326
▁피하	-2327
▁나서	-2328
▁증명	-2329
▁약간	-2330
▁비트	-2331
▁최소	-2332
▁잎	-2333
▁변호	-2334
▁엑	-2335
▁기회	-2336
▁너무	-2337
▁미디어	-2338
▁무장	-2339
un	-2340
▁외부	-2341
▁광고	-2342
▁마리아	-2343
▁노동자	-2344
▁쉬	-2345
▁37	-2346
ow	-2347
▁in	-2348
▁몽골	-2349
▁해방	-2350
▁이번	-2351
▁터미널	-2352
동안	-2353
▁환자	-2354
▁국방	-2355
▁편집	-2356
철도	-2357
▁쇠	-2358
▁마쓰	-2359
▁제목	-2360
스키	-2361
▁지점	-2362
▁밀도	-2363
▁사라지	-2364
▁냉	-2365
▁표면	-2366
▁무렵	-2367
▁라운드	-2368
▁금융	-2369
▁ㄹㅣ	-2370
▁도중	-2371
▁바라	-2372
▁바람	-2373
▁전반	-2374
▁유도	-2375
▁1987	-2376
오카	-2377
▁가스	-2378
▁마련	-2379
▁혐의	-2380
▁허용	-2381
▁그해	-2382
▁카르	-2383
▁윈도우	-2384
▁힐	-2385
▁학년	-2386
소리	-2387
▁충분	-2388
▁합병	-2389
▁충청남도	-2390
▁빨	-2391
▁인디	-2392
▁루이	-2393
▁래	-2394
▁꼬리	-2395
▁여전히	-2396
▁영화배우	-2397
▁재산	-2398
▁재직	-2399
▁오사카	-2400
▁민간	-2401
▁전력	-2402
▁포르투갈	-2403
▁숲	-2404
▁w	-2405
▁양성	-2406
마크	-2407
▁고전	-2408
▁등급	-2409
▁선수단	-2410
▁전역	-2411
▁41	-2412
▁령	-2413
▁뒷	-2414
▁붕괴	-2415
▁킹	-2416
▁헝가리	-2417
▁가져	-2418
▁오리	-2419
▁라이브	-2420
▁후지	-2421
▁1986	-2422
▁현실	-2423
드로	-2424
▁1984	-2425
▁51	-2426
▁공주	-2427
▁재정	-2428
ur	-2429
▁행하	-2430
▁캘리포	-2431
▁이하	-2432
▁보고	-2433
▁스튜디오	-2434
▁공공	-2435
▁엔터	-2436
▁동료	-2437
▁대수	-2438
▁봄	-2439
▁계급	-2440
▁전선	-2441
▁승인	-2442
▁위원장	-2443
▁강제	-2444
▁적극	-2445
▁군주	-2446
▁온도	-2447
▁대대	-2448
▁샌	-2449
▁위협	-2450
▁구축	-2451
▁조치	-2452
▁근대	-2453
▁유엔	-2454
▁롤	-2455
▁수입	-2456
▁업체	-2457
▁둥	-2458
▁범위	-2459
▁캘리포니아	-2460
▁임무	-2461
▁클라	-2462
▁경력	-2463
▁이미지	-2464
▁대학원	-2465
▁핀란드	-2466
▁양자	-2467
▁위성	-2468
▁논문	-2469
▁출발	-2470
▁고구	-2471
▁꿈	-2472
▁교사	-2473
▁다섯	-2474
▁이제	-2475
▁항상	-2476
▁거래	-2477
▁점차	-2478
▁성인	-2479
▁토론	-2480
▁공산당	-2481
▁필리핀	-2482
▁채택	-2483
▁전개	-2484
▁수단	-2485
▁회복	-2486
▁원칙	-2487
▁올라가	-2488
▁확보	-2489
▁아시안	-2490
마스	-2491
러지	-2492
▁강의	-2493
▁잡지	-2494
▁수립	-2495
▁잭	-2496
▁섭	-2497
▁드래	-2498
테르	-2499
▁남아	-2500
ch	-2501
▁공업	-2502
▁증거	-2503
▁첨	-2504
주교	-2505
▁앞서	-2506
▁39	-2507
▁남편	-2508
▁400	-2509
▁개편	-2510
▁매년	-2511
ㅇㅛ	-2512
▁기지	-2513
▁스파	-2514
▁얼굴	-2515
▁일원	-2516
▁선생	-2517
고리	-2518
▁의료	-2519
▁합의	-2520
▁사례	-2521
▁만족	-2522
바이	-2523
▁시인	-2524
▁앞두	-2525
▁나카	-2526
▁스위스	-2527
▁이스라	-2528
▁1985	-2529
▁부근	-2530
▁폭발	-2531
▁64	-2532
▁장비	-2533
▁그래서	-2534
▁붉	-2535
▁간주	-2536
로드	-2537
▁모스크	-2538
▁이승	-2539
▁종종	-2540
▁대형	-2541
데미	-2542
▁욕	-2543
▁튀	-2544
▁어떻	-2545
▁경주	-2546
▁대기	-2547
▁스리	-2548
▁군단	-2549
ay	-2550
▁이스라엘	-2551
▁분자	-2552
▁끊	-2553
▁규칙	-2554
▁둘러	-2555
ir	-2556
▁뜨	-2557
▁장면	-2558
▁토지	-2559
▁항성	-2560
▁아름	-2561
▁종이	-2562
▁아주	-2563
▁불가	-2564
▁II	-2565
▁수원	-2566
다리	-2567
ut	-2568
▁어린	-2569
▁움직이	-2570
▁게이	-2571
▁캄	-2572
▁까	-2573
▁경향	-2574
▁조합	-2575
백질	-2576
▁맛	-2577
키아	-2578
▁해체	-2579
▁낭	-2580
▁탑재	-2581
▁진화	-2582
um	-2583
▁귀국	-2584
▁ㄷㅡㄴ	-2585
▁아랍	-2586
▁기대	-2587
우드	-2588
▁레코드	-2589
▁강점	-2590
▁아카데미	-2591
▁43	-2592
고기	-2593
레이드	-2594
▁대장	-2595
▁그곳	-2596
▁심하	-2597
▁br	-2598
▁저지	-2599
▁확실	-2600
▁기억	-2601
▁서양	-2602
▁신화	-2603
▁평양	-2604
▁짐	-2605
im	-2606
▁향상	-2607
▁고양	-2608
▁클래	-2609
▁스피	-2610
▁장식	-2611
▁아메리카	-2612
▁아나	-2613
▁박쥐	-2614
어들	-2615
▁투어	-2616
▁청소년	-2617
▁란	-2618
▁침공	-2619
▁42	-2620
▁좀	-2621
▁변하	-2622
▁융	-2623
▁보장	-2624
▁의학	-2625
▁청나라	-2626
▁카운티	-2627
▁남동	-2628
▁아름답	-2629
▁폼	-2630
▁랭	-2631
오스	-2632
▁새기	-2633
▁메이저	-2634
▁사후	-2635
▁고구려	-2636
▁켄	-2637
▁만큼	-2638
요시	-2639
▁카메	-2640
▁가로	-2641
▁에피	-2642
▁보병	-2643
ver	-2644
▁자금	-2645
보드	-2646
▁가사	-2647
네스	-2648
▁불과	-2649
▁신설	-2650
▁선고	-2651
▁잠시	-2652
▁1982	-2653
▁소년	-2654
▁나치	-2655
▁성과	-2656
라비아	-2657
▁단백질	-2658
▁55	-2659
타인	-2660
▁스타일	-2661
▁독자	-2662
▁이끄	-2663
▁중화민국	-2664
▁고문	-2665
에르	-2666
▁만주	-2667
▁숭	-2668
▁라틴	-2669
▁편입	-2670
▁철도역	-2671
▁살해	-2672
▁우수	-2673
▁감정	-2674
▁우선	-2675
▁스카	-2676
라노	-2677
▁단지	-2678
무르	-2679
▁확정	-2680
▁합치	-2681
네시아	-2682
틀랜드	-2683
▁광역시	-2684
▁스케	-2685
▁함대	-2686
▁1983	-2687
▁ㅂㅏ	-2688
▁복잡	-2689
▁덴마크	-2690
▁차별	-2691
▁비율	-2692
▁i	-2693
▁신앙	-2694
▁의장	-2695
▁왕위	-2696
▁나폴	-2697
▁지시	-2698
▁삭	-2699
▁세종	-2700
▁44	-2701
▁재단	-2702
다이	-2703
▁창설	-2704
▁예상	-2705
▁온라인	-2706
▁LG	-2707
누스	-2708
일러	-2709
▁태풍	-2710
FC	-2711
▁법인	-2712
▁공유	-2713
▁마크	-2714
▁고향	-2715
▁구체	-2716
▁전설	-2717
▁성당	-2718
▁선거구	-2719
▁전화	-2720
▁역대	-2721
▁검찰	-2722
▁브리	-2723
▁육상	-2724
▁짜	-2725
뜨리	-2726
▁동의	-2727
▁킬	-2728
▁47	-2729
▁반도	-2730
▁참석	-2731
▁삼국	-2732
▁판결	-2733
▁솔로	-2734
▁보급	-2735
▁브랜드	-2736
운동	-2737
하라	-2738
트라	-2739
▁둘러싸	-2740
▁묻	-2741
뿌리	-2742
▁대립	-2743
싱턴	-2744
▁하늘	-2745
의회	-2746
▁저장	-2747
▁유학	-2748
▁노예	-2749
▁고정	-2750
▁수출	-2751
이크	-2752
▁후손	-2753
비드	-2754
▁애플	-2755
▁카를	-2756
▁핵심	-2757
▁오픈	-2758
▁헤이	-2759
▁듯	-2760
▁75	-2761
▁집행	-2762
▁강점기	-2763
▁협상	-2764
▁본격	-2765
▁184	-2766
▁ㄴㅑ	-2767
▁산맥	-2768
▁보안	-2769
▁180	-2770
▁가하	-2771
▁Z	-2772
▁마드리	-2773
오프	-2774
▁초반	-2775
▁회전	-2776
셔널	-2777
원군	-2778
▁탄생	-2779
▁자세	-2780
▁암살	-2781
문화	-2782
없이	-2783
▁중반	-2784
▁대비	-2785
▁연고	-2786
▁사전	-2787
각형	-2788
▁숫	-2789
▁대항	-2790
▁무엇	-2791
▁로버트	-2792
▁1972	-2793
▁마드리드	-2794
▁옷	-2795
▁이성	-2796
▁베이스	-2797
반도	-2798
▁주교	-2799
▁ㅈ	-2800
▁플랫	-2801
▁아르헨	-2802
▁법칙	-2803
▁켈	-2804
▁어린이	-2805
리스트	-2806
▁사우	-2807
▁전용	-2808
▁순서	-2809
▁공학	-2810
소드	-2811
▁권한	-2812
▁46	-2813
▁단일	-2814
▁말기	-2815
▁이란	-2816
▁1920	-2817
바르	-2818
▁공기	-2819
▁유적	-2820
▁베를	-2821
▁프란	-2822
▁의무	-2823
레이션	-2824
▁직원	-2825
▁아르헨티나	-2826
▁수여	-2827
▁전혀	-2828
▁조금	-2829
CA	-2830
▁중심지	-2831
▁요한	-2832
터리	-2833
▁시각	-2834
▁인상	-2835
▁이익	-2836
▁1979	-2837
▁별도	-2838
▁공포	-2839
▁아미	-2840
▁운전	-2841
▁가르치	-2842
▁전라북도	-2843
▁효소	-2844
▁사항	-2845
▁아스	-2846
▁흔히	-2847
▁스크	-2848
▁보조	-2849
▁모리	-2850
▁덮	-2851
▁원주	-2852
▁글로	-2853
▁비난	-2854
▁롯	-2855
▁워싱턴	-2856
▁협정	-2857
▁CD	-2858
▁잘못	-2859
▁밀리	-2860
▁상품	-2861
▁kg	-2862
▁변호사	-2863
▁아파	-2864
▁파크	-2865
▁전후	-2866
▁기하	-2867
▁관료	-2868
▁우크	-2869
▁통계	-2870
▁방면	-2871
정부	-2872
ra	-2873
▁을	-2874
▁인권	-2875
▁창조	-2876
퍼드	-2877
▁1930	-2878
▁레드	-2879
▁금메달	-2880
▁In	-2881
▁작곡가	-2882
▁1981	-2883
▁마시	-2884
▁투입	-2885
▁저서	-2886
▁1973	-2887
▁현장	-2888
무라	-2889
▁항복	-2890
▁하드	-2891
▁셋	-2892
▁아침	-2893
▁소식	-2894
▁장착	-2895
▁정복	-2896
▁벡	-2897
▁놓이	-2898
▁150	-2899
사키	-2900
퍼스	-2901
10	-2902
▁넘어	-2903
▁호텔	-2904
▁공무원	-2905
▁엠	-2906
▁심각	-2907
▁중세	-2908
▁훨	-2909
▁헨리	-2910
▁노스	-2911
▁니콜	-2912
▁건국	-2913
os	-2914
▁오른쪽	-2915
▁교류	-2916
▁중부	-2917
▁교토	-2918
▁공화	-2919
▁v	-2920
▁본인	-2921
▁산하	-2922
▁갈등	-2923
▁물러	-2924
▁공산주의	-2925
▁코미	-2926
▁마이클	-2927
▁훨씬	-2928
▁요새	-2929
▁세인트	-2930
▁빙	-2931
겨나	-2932
리어	-2933
▁유전자	-2934
▁오랜	-2935
▁김정	-2936
▁한때	-2937
▁ㄷㅡㅅ	-2938
▁건조	-2939
▁무리	-2940
▁플라	-2941
▁택	-2942
▁뿌리	-2943
▁왼쪽	-2944
▁인정받	-2945
▁출마	-2946
▁플레이어	-2947
▁서기	-2948
▁오히	-2949
▁논의	-2950
▁패하	-2951
▁성경	-2952
▁창립	-2953
▁인류	-2954
▁형사	-2955
▁오토	-2956
▁로드	-2957
▁연합군	-2958
▁방출	-2959
▁금속	-2960
▁추측	-2961
▁어떻게	-2962
▁1940	-2963
30	-2964
▁태국	-2965
▁원작	-2966
▁1974	-2967
▁베이징	-2968
BO	-2969
▁아프	-2970
▁주위	-2971
▁185	-2972
▁예산	-2973
▁성질	-2974
▁노르웨이	-2975
em	-2976
▁북서	-2977
▁찍	-2978
▁릴	-2979
▁제자	-2980
▁복합	-2981
▁에피소드	-2982
▁코스	-2983
▁투쟁	-2984
▁드러나	-2985
▁군수	-2986
일보	-2987
ter	-2988
▁탁	-2989
▁운용	-2990
▁사령관	-2991
▁에어	-2992
▁플레이오프	-2993
▁모스크바	-2994
▁사태	-2995
▁벗어나	-2996
▁전철	-2997
▁효율	-2998
▁멸망	-2999
▁SBS	-3000
▁논쟁	-3001
▁입자	-3002
▁오전	-3003
▁해양	-3004
▁반복	-3005
▁스코틀랜드	-3006
카와	-3007
▁합성	-3008
▁집안	-3009
▁뽑	-3010
▁정비	-3011
▁절대	-3012
▁구별	-3013
▁노부	-3014
▁제출	-3015
▁1948	-3016
▁주기	-3017
▁숫자	-3018
▁메시	-3019
▁블루	-3020
▁연산	-3021
▁가져오	-3022
▁각본	-3023
▁인종	-3024
▁미니	-3025
▁사법	-3026
듀서	-3027
▁프로듀서	-3028
▁54	-3029
머스	-3030
▁포위	-3031
▁인조	-3032
▁흡수	-3033
▁1968	-3034
▁거절	-3035
▁인공	-3036
▁출장	-3037
▁퍼지	-3038
붙이	-3039
▁댄	-3040
▁델	-3041
▁1976	-3042
▁중대	-3043
▁웨스트	-3044
▁원리	-3045
아오	-3046
▁슬로	-3047
▁연관	-3048
▁베를린	-3049
▁경성	-3050
도르	-3051
▁빌리	-3052
▁목사	-3053
▁수송	-3054
▁시점	-3055
▁활발	-3056
▁마침	-3057
▁신체	-3058
▁북동	-3059
▁출입	-3060
▁소녀	-3061
▁오히려	-3062
▁전공	-3063
▁해상	-3064
▁이민	-3065
▁개시	-3066
▁건립	-3067
▁주전	-3068
▁1975	-3069
▁포기	-3070
▁읍	-3071
▁보스	-3072
▁음력	-3073
▁인터뷰	-3074
▁사령부	-3075
▁우스	-3076
ㅇㅣ	-3077
▁취급	-3078
▁프라	-3079
▁국도	-3080
▁즐기	-3081
op	-3082
▁명성	-3083
▁실리	-3084
▁넘기	-3085
데스	-3086
▁디스	-3087
▁던지	-3088
▁축제	-3089
▁트랙	-3090
▁고용	-3091
나이티	-3092
▁영화제	-3093
▁봉하	-3094
▁활성	-3095
시스	-3096
▁파라	-3097
▁취득	-3098
▁히데	-3099
▁동원	-3100
▁ㅂㅏㄲ	-3101
▁ㅂㅏㄲㅇㅔ	-3102
▁유나이티	-3103
▁농민	-3104
▁분쟁	-3105
▁1978	-3106
▁신성	-3107
▁국장	-3108
▁주택	-3109
▁1971	-3110
▁56	-3111
▁장악	-3112
▁미드	-3113
ag	-3114
▁갤	-3115
▁소스	-3116
▁텐	-3117
▁안타	-3118
▁총독	-3119
▁비록	-3120
▁보컬	-3121
▁고유	-3122
▁1963	-3123
▁구속	-3124
▁견해	-3125
▁일치	-3126
▁진보	-3127
산시	-3128
▁전부	-3129
▁52	-3130
서트	-3131
▁북아	-3132
▁불법	-3133
▁유물	-3134
▁49	-3135
▁한자	-3136
▁직전	-3137
라크	-3138
▁자이	-3139
▁하위	-3140
▁후원	-3141
▁코미디	-3142
에트	-3143
▁부활	-3144
키스탄	-3145
▁늘어나	-3146
▁65	-3147
▁포도	-3148
▁교차	-3149
▁끝내	-3150
▁여객철도	-3151
▁학습	-3152
비치	-3153
▁폭력	-3154
▁대리	-3155
▁연료	-3156
▁정체	-3157
▁관점	-3158
▁닌	-3159
▁타이완	-3160
▁주관	-3161
▁보험	-3162
▁도달	-3163
▁수술	-3164
메리	-3165
세이	-3166
▁스미	-3167
▁1969	-3168
ce	-3169
▁천체	-3170
▁항공기	-3171
▁혼란	-3172
▁아테	-3173
▁179	-3174
▁약속	-3175
▁시리아	-3176
▁한국어	-3177
▁Q	-3178
기에	-3179
▁편지	-3180
▁관직	-3181
▁철수	-3182
젤레스	-3183
▁직업	-3184
▁본사	-3185
▁상당히	-3186
릭스	-3187
▁고종	-3188
쿠라	-3189
▁미나	-3190
▁00	-3191
▁여부	-3192
리케	-3193
▁수집	-3194
▁명명	-3195
▁물러나	-3196
▁선교	-3197
▁모시	-3198
▁장교	-3199
▁누리	-3200
▁반영	-3201
▁데이비드	-3202
▁넷	-3203
▁임금	-3204
▁제어	-3205
자기	-3206
▁테러	-3207
▁팝	-3208
▁성능	-3209
▁그리스도	-3210
▁1946	-3211
▁논리	-3212
▁브레	-3213
▁아사	-3214
▁화물	-3215
▁백제	-3216
▁의존	-3217
▁주간	-3218
▁상륙	-3219
공항	-3220
▁영업	-3221
▁부임	-3222
▁일대	-3223
▁폴리	-3224
▁보관	-3225
▁학술	-3226
어스	-3227
▁하나님	-3228
▁프리미	-3229
▁소방	-3230
▁백작	-3231
▁불상	-3232
▁톰	-3233
▁주식회사	-3234
▁도구	-3235
▁심리	-3236
▁해산	-3237
OS	-3238
▁연재	-3239
▁대화	-3240
▁53	-3241
▁프로세	-3242
▁정지	-3243
▁좁	-3244
▁콘서트	-3245
▁교환	-3246
▁허가	-3247
▁스마	-3248
▁하우스	-3249
▁개체	-3250
▁전파	-3251
▁코로나	-3252
▁박정	-3253
미터	-3254
▁십자	-3255
▁제일	-3256
▁1964	-3257
oc	-3258
▁전문가	-3259
▁정원	-3260
▁충청북도	-3261
▁방사	-3262
▁대략	-3263
▁니시	-3264
▁자살	-3265
▁헤르	-3266
▁핑	-3267
▁고리	-3268
▁나아가	-3269
▁간단	-3270
▁판서	-3271
▁반발	-3272
▁화성	-3273
▁진입	-3274
▁보건	-3275
▁영향력	-3276
▁재료	-3277
▁살인	-3278
▁김영	-3279
▁베스트	-3280
▁학부	-3281
▁미터	-3282
병대	-3283
▁리스	-3284
▁벨기에	-3285
▁포트	-3286
▁US	-3287
▁드리	-3288
▁서버	-3289
▁공통	-3290
▁겐	-3291
▁원하	-3292
▁거기	-3293
ㄹㅕ	-3294
▁신분	-3295
▁항구	-3296
▁국제공항	-3297
▁먹이	-3298
▁상승	-3299
▁스프	-3300
ri	-3301
▁인도네시아	-3302
▁지붕	-3303
▁and	-3304
▁영입	-3305
▁학원	-3306
이어	-3307
▁승진	-3308
▁58	-3309
▁그런데	-3310
▁피아노	-3311
▁소비에트	-3312
▁사장	-3313
▁꼭	-3314
▁시호	-3315
▁가을	-3316
▁약하	-3317
▁학회	-3318
노스	-3319
▁파트	-3320
▁1000	-3321
▁부장	-3322
▁루이스	-3323
▁외국인	-3324
▁ㄹㅔ	-3325
▁99	-3326
▁그레	-3327
▁랜	-3328
▁진압	-3329
▁스토	-3330
하마	-3331
▁식품	-3332
▁아라	-3333
▁사운드	-3334
▁창단	-3335
▁콤	-3336
▁질병	-3337
▁횡	-3338
▁채용	-3339
▁브루	-3340
▁도망	-3341
▁주년	-3342
▁복무	-3343
▁계통	-3344
▁누르	-3345
▁구성원	-3346
▁변환	-3347
▁임대	-3348
▁참전	-3349
▁응용	-3350
▁현역	-3351
▁PC	-3352
▁픽	-3353
▁1977	-3354
▁다스	-3355
오르	-3356
▁요코	-3357
▁머무르	-3358
저우	-3359
▁통상	-3360
▁공동체	-3361
▁감사	-3362
▁임의	-3363
천군	-3364
▁탈출	-3365
▁트랜	-3366
▁합격	-3367
▁작사	-3368
▁장수	-3369
▁리더	-3370
▁민법	-3371
▁벼	-3372
▁그치	-3373
▁기도	-3374
아버지	-3375
▁망명	-3376
▁SK	-3377
▁모드	-3378
▁쫓	-3379
▁롯데	-3380
▁의도	-3381
▁말레이	-3382
▁한반도	-3383
▁문헌	-3384
▁탈락	-3385
▁고도	-3386
▁조작	-3387
▁화면	-3388
▁로스앤	-3389
▁로스앤젤레스	-3390
▁1949	-3391
다가	-3392
▁포로	-3393
▁친일	-3394
▁페이	-3395
▁에도	-3396
▁위반	-3397
▁신청	-3398
▁라이트	-3399
문화재	-3400
▁문장	-3401
▁탄소	-3402
성군	-3403
▁발언	-3404
프리	-3405
igh	-3406
▁마케	-3407
▁띄	-3408
▁방송국	-3409
▁부부	-3410
▁트라	-3411
▁학과	-3412
▁FA	-3413
▁이치	-3414
▁동남	-3415
▁닥	-3416
▁88	-3417
▁수영	-3418
▁선조	-3419
▁변형	-3420
▁캠퍼스	-3421
▁ㅋ	-3422
▁저작	-3423
정식	-3424
▁수소	-3425
▁배출	-3426
▁트로	-3427
▁1962	-3428
▁메모리	-3429
▁연출	-3430
▁상원	-3431
▁엑스	-3432
▁칭하	-3433
ation	-3434
▁62	-3435
▁예측	-3436
▁시카	-3437
▁레오	-3438
▁자녀	-3439
▁코파	-3440
▁절차	-3441
▁청구	-3442
▁1967	-3443
▁주둔	-3444
▁전동	-3445
려움	-3446
▁조절	-3447
▁이중	-3448
▁분열	-3449
▁..	-3450
▁기호	-3451
▁요인	-3452
카이도	-3453
▁큐	-3454
▁서원	-3455
▁신인	-3456
▁화재	-3457
▁레스	-3458
▁정기	-3459
▁처형	-3460
▁r	-3461
드시	-3462
▁흉	-3463
타르	-3464
▁로켓	-3465
▁국무	-3466
▁호수	-3467
크스	-3468
▁출간	-3469
로그	-3470
▁57	-3471
천시	-3472
▁광장	-3473
▁선전	-3474
▁막부	-3475
▁수리	-3476
▁실수	-3477
▁이승만	-3478
▁남서	-3479
▁황금	-3480
▁등지	-3481
▁방지	-3482
▁증상	-3483
▁카메라	-3484
▁루트	-3485
▁동작	-3486
▁이시	-3487
▁기법	-3488
페라	-3489
▁연안	-3490
▁동성	-3491
▁왕자	-3492
▁취소	-3493
브리	-3494
▁오스만	-3495
▁장르	-3496
▁흑인	-3497
▁개조	-3498
▁You	-3499
▁힘들	-3500
▁콘스탄	-3501
▁앵	-3502
▁어떠	-3503
▁생존	-3504
▁롱	-3505
라드	-3506
▁Ch	-3507
▁위상	-3508
포르	-3509
▁지급	-3510
▁서구	-3511
▁예비	-3512
▁기체	-3513
▁현지	-3514
▁농구	-3515
▁히트	-3516
▁고지	-3517
▁선보이	-3518
▁전주	-3519
▁좌우	-3520
▁여단	-3521
▁늦	-3522
▁천연	-3523
▁진주	-3524
▁반드시	-3525
아나	-3526
▁임진	-3527
▁고치	-3528
▁일본군	-3529
▁ㄴㅡㄴㄱㅏ	-3530
▁희망	-3531
▁무덤	-3532
▁공정	-3533
▁터널	-3534
▁181	-3535
▁크리	-3536
▁노리	-3537
▁동아	-3538
▁맞서	-3539
▁제대로	-3540
▁톱	-3541
▁코르	-3542
방송	-3543
▁전면	-3544
▁도전	-3545
▁맞이	-3546
▁스탠	-3547
nd	-3548
▁글자	-3549
▁1966	-3550
▁특이	-3551
▁바둑	-3552
▁이온	-3553
▁미국인	-3554
▁압력	-3555
▁66	-3556
▁녹색	-3557
▁둘째	-3558
▁분명	-3559
▁독립운동	-3560
▁그레이	-3561
▁%,	-3562
▁전형	-3563
▁파악	-3564
▁싸움	-3565
▁흘	-3566
▁노벨	-3567
▁방정식	-3568
이치	-3569
▁경로	-3570
▁독특	-3571
▁드물	-3572
▁KBO	-3573
▁1965	-3574
▁리처	-3575
▁묵	-3576
▁68	-3577
▁매일	-3578
라이언	-3579
▁법정	-3580
▁해리	-3581
▁에르	-3582
▁꺾	-3583
▁아리	-3584
티브	-3585
▁물체	-3586
▁183	-3587
▁엄청	-3588
더스	-3589
▁부사	-3590
▁유기	-3591
▁체코	-3592
▁ㄹㅏㅇ	-3593
▁목소리	-3594
▁타임	-3595
▁돌리	-3596
▁지리	-3597
▁일식	-3598
▁신뢰	-3599
▁개신	-3600
▁61	-3601
▁분해	-3602
▁인지	-3603
▁가시	-3604
▁클레	-3605
ST	-3606
▁성향	-3607
▁덧	-3608
▁알렉산드	-3609
▁간행	-3610
▁밥	-3611
▁어디	-3612
▁퀸	-3613
치아	-3614
▁묶	-3615
베스	-3616
에이	-3617
▁처벌	-3618
▁홋	-3619
▁찰스	-3620
르타	-3621
▁우려	-3622
▁일찍	-3623
▁동기	-3624
▁화산	-3625
▁타격	-3626
▁완료	-3627
▁유행	-3628
▁나들	-3629
▁분할	-3630
▁사립	-3631
▁나들목	-3632
▁내전	-3633
▁손자	-3634
▁웅	-3635
질랜드	-3636
바라	-3637
▁김일	-3638
▁실질	-3639
▁범주	-3640
▁풍부	-3641
▁방해	-3642
▁찌	-3643
▁뉴질랜드	-3644
▁삽	-3645
▁순환	-3646
▁아동	-3647
▁갈색	-3648
▁1961	-3649
▁추구	-3650
ER	-3651
▁별명	-3652
▁평등	-3653
▁대개	-3654
▁플래	-3655
▁아파트	-3656
art	-3657
▁복지	-3658
▁800	-3659
▁곱	-3660
먼트	-3661
▁마르크	-3662
▁흰	-3663
ice	-3664
▁리가	-3665
▁희생	-3666
▁비평	-3667
▁빼앗	-3668
▁최다	-3669
▁가상	-3670
▁오프	-3671
▁파르	-3672
▁분기	-3673
▁가까	-3674
▁창원	-3675
▁시조	-3676
▁600	-3677
▁부진	-3678
▁86	-3679
▁시드	-3680
▁전원	-3681
▁집권	-3682
ON	-3683
▁사냥	-3684
▁마침내	-3685
▁구현	-3686
▁기둥	-3687
▁모형	-3688
▁IS	-3689
▁완공	-3690
▁점점	-3691
▁판사	-3692
▁벡터	-3693
▁엄청나	-3694
▁한정	-3695
▁120	-3696
▁메리	-3697
▁중기	-3698
텐츠	-3699
▁프린	-3700
▁첼	-3701
유럽	-3702
▁테이	-3703
▁대법	-3704
▁명확	-3705
다르	-3706
▁웨이	-3707
▁사임	-3708
est	-3709
▁훗	-3710
▁스토리	-3711
피스	-3712
▁근본	-3713
은행	-3714
틀러	-3715
▁무게	-3716
▁일본인	-3717
▁확산	-3718
▁한계	-3719
▁사마	-3720
▁부하	-3721
▁re	-3722
▁물리학	-3723
▁호주	-3724
▁대공	-3725
ia	-3726
▁출범	-3727
▁들어서	-3728
▁캔	-3729
▁날개	-3730
▁레인	-3731
▁교향	-3732
▁충격	-3733
투스	-3734
▁단독	-3735
▁사형	-3736
▁닛	-3737
▁오페라	-3738
▁알파	-3739
▁의지	-3740
▁명나라	-3741
▁뚜	-3742
▁바치	-3743
▁상위	-3744
▁마법	-3745
▁98	-3746
▁가나	-3747
ap	-3748
▁1919	-3749
▁제이	-3750
▁사원	-3751
▁분위	-3752
▁통산	-3753
디션	-3754
TV	-3755
▁연구원	-3756
▁넓이	-3757
사스	-3758
▁편찬	-3759
▁악화	-3760
▁1944	-3761
▁의혹	-3762
▁모토	-3763
▁서명	-3764
▁이자	-3765
▁적절	-3766
▁유치	-3767
▁인접	-3768
라이나	-3769
▁렀	-3770
▁조종	-3771
ak	-3772
▁영웅	-3773
▁굽	-3774
▁드러내	-3775
▁당초	-3776
나가	-3777
▁인증	-3778
▁의심	-3779
▁문명	-3780
▁발굴	-3781
▁연간	-3782
▁도쿠	-3783
▁추천	-3784
세우	-3785
▁샘	-3786
▁모임	-3787
▁훌	-3788
▁포인트	-3789
▁저술	-3790
▁키우	-3791
▁곽	-3792
▁고속도로	-3793
▁광복	-3794
▁카라	-3795
▁함락	-3796
▁무시	-3797
▁동서	-3798
▁각지	-3799
▁기리	-3800
▁생겨나	-3801
▁회담	-3802
▁사실상	-3803
▁포항	-3804
▁63	-3805
▁1941	-3806
▁프리미어	-3807
사자	-3808
▁홍보	-3809
▁기온	-3810
▁접촉	-3811
AR	-3812
▁쏘	-3813
▁드라이	-3814
▁골든	-3815
▁자극	-3816
▁개입	-3817
▁기기	-3818
우리	-3819
▁95	-3820
아보	-3821
▁올해	-3822
▁탐사	-3823
▁순수	-3824
▁멘	-3825
▁사정	-3826
▁징역	-3827
▁독일군	-3828
▁개막	-3829
▁순간	-3830
▁세르비아	-3831
▁74	-3832
▁공로	-3833
▁뮤지	-3834
▁경전	-3835
▁학살	-3836
▁등판	-3837
▁그때	-3838
▁성분	-3839
숭이	-3840
▁바위	-3841
▁변수	-3842
▁DNA	-3843
▁행렬	-3844
▁시카고	-3845
▁임기	-3846
▁득표	-3847
▁악기	-3848
▁오랫	-3849
▁추산	-3850
연히	-3851
▁루스	-3852
민주	-3853
▁59	-3854
▁진정	-3855
믹스	-3856
▁앤드	-3857
▁178	-3858
버그	-3859
ct	-3860
▁Lo	-3861
▁꼽	-3862
▁그라	-3863
학생	-3864
▁언제	-3865
▁구원	-3866
▁수석	-3867
▁한국인	-3868
▁락	-3869
일리	-3870
▁닉	-3871
▁예전	-3872
대부	-3873
▁팽	-3874
▁여론	-3875
▁자전	-3876
▁실현	-3877
▁공헌	-3878
▁확률	-3879
무부	-3880
▁네이	-3881
▁보고서	-3882
▁ㄴㅡ	-3883
▁프로그래	-3884
▁입법	-3885
▁스마트	-3886
▁백성	-3887
▁태도	-3888
▁혼합	-3889
▁1958	-3890
▁아티	-3891
▁훗날	-3892
▁튜	-3893
▁IC	-3894
▁매장	-3895
▁방위	-3896
▁페르시아	-3897
▁감시	-3898
▁오랫동안	-3899
▁양쪽	-3900
▁미쓰	-3901
▁특별시	-3902
▁이닝	-3903
▁심사	-3904
▁줄어들	-3905
▁피터	-3906
▁1947	-3907
러리	-3908
ul	-3909
▁왕실	-3910
▁to	-3911
코스	-3912
▁82	-3913
▁;/	-3914
▁160	-3915
▁출력	-3916
▁에드워드	-3917
▁줄기	-3918
▁영지	-3919
▁춤	-3920
▁침략	-3921
▁리처드	-3922
리히	-3923
▁커뮤	-3924
▁뱅	-3925
▁개신교	-3926
▁원형	-3927
▁균형	-3928
▁1956	-3929
▁텍사스	-3930
▁다케	-3931
▁대량	-3932
▁경남	-3933
▁72	-3934
▁단편	-3935
▁조별	-3936
▁SS	-3937
▁저녁	-3938
▁76	-3939
▁안토	-3940
▁승객	-3941
▁그래픽	-3942
이너	-3943
▁시사	-3944
▁랜드	-3945
▁멀리	-3946
▁신부	-3947
▁팔리	-3948
▁프라이	-3949
▁제사	-3950
▁아이돌	-3951
▁여왕	-3952
▁가와	-3953
▁미야	-3954
▁발발	-3955
▁승부	-3956
▁고르	-3957
ㅡㅁ	-3958
▁안동	-3959
▁분위기	-3960
▁무사	-3961
▁커뮤니	-3962
▁권위	-3963
▁동명	-3964
▁작위	-3965
ie	-3966
▁이라크	-3967
▁대선	-3968
▁흐름	-3969
▁재건	-3970
▁타자	-3971
▁교구	-3972
▁점수	-3973
▁기울	-3974
▁프랑크	-3975
▁77	-3976
▁입력	-3977
▁마무	-3978
▁데스	-3979
리노	-3980
▁바깥	-3981
▁비치	-3982
▁참고	-3983
▁복원	-3984
▁테스트	-3985
▁1939	-3986
▁앉	-3987
▁잠수	-3988
▁ㄲ	-3989
▁축구단	-3990
▁확립	-3991
▁과학자	-3992
▁섞	-3993
▁67	-3994
▁일상	-3995
메리칸	-3996
▁석유	-3997
▁폭탄	-3998
▁원수	-3999
▁시상	-4000
▁도요	-4001
▁타워	-4002
▁리버	-4003
레나	-4004
▁포켓	-4005
▁Th	-4006
▁침입	-4007
▁어깨	-4008
▁비상	-4009
▁AFC	-4010
▁긍	-4011
▁병합	-4012
ㄹㅈㅣ	-4013
ud	-4014
▁겹	-4015
▁사자	-4016
▁복음	-4017
▁신자	-4018
▁한글	-4019
ly	-4020
▁주최	-4021
▁민중	-4022
▁부지	-4023
▁수익	-4024
▁일시	-4025
일스	-4026
▁복수	-4027
▁자식	-4028
og	-4029
▁정수	-4030
▁대왕	-4031
▁시마	-4032
▁다운	-4033
▁당국	-4034
▁더블	-4035
▁재배	-4036
▁기소	-4037
▁빅토	-4038
▁브라운	-4039
메이	-4040
▁혁신	-4041
th	-4042
레옹	-4043
마르	-4044
▁대성	-4045
▁내셔널	-4046
▁보물	-4047
▁도모	-4048
▁신고	-4049
▁평안	-4050
에른	-4051
▁85	-4052
▁암호	-4053
▁가량	-4054
▁지형	-4055
▁1954	-4056
▁가공	-4057
ist	-4058
▁동양	-4059
▁나폴레옹	-4060
▁덜	-4061
▁본질	-4062
▁계층	-4063
▁우라	-4064
▁창작	-4065
▁연예	-4066
마니아	-4067
▁공중	-4068
▁국기	-4069
▁사제	-4070
▁가담	-4071
▁인쇄	-4072
▁훈장	-4073
▁깃	-4074
이센	-4075
▁쌀	-4076
▁ㄴㅔ	-4077
▁끼치	-4078
▁심지	-4079
▁힌	-4080
▁폐쇄	-4081
레인	-4082
▁구글	-4083
▁빌보드	-4084
▁산화	-4085
▁파워	-4086
▁거듭	-4087
▁후계	-4088
▁고기	-4089
ight	-4090
▁ㅁ	-4091
▁1952	-4092
왜란	-4093
▁임진왜란	-4094
▁급제	-4095
AS	-4096
▁참모	-4097
▁노출	-4098
▁가설	-4099
▁움직임	-4100
▁비서	-4101
▁들이	-4102
▁평론	-4103
▁탱	-4104
▁보살	-4105
▁력	-4106
▁세리	-4107
아티아	-4108
▁크로아티아	-4109
▁73	-4110
▁발음	-4111
▁가이	-4112
▁조조	-4113
▁다소	-4114
▁아테네	-4115
아지	-4116
▁스타디	-4117
▁전신	-4118
조합	-4119
▁총회	-4120
▁박정희	-4121
▁타운	-4122
▁대지	-4123
▁바닥	-4124
▁오가	-4125
▁96	-4126
▁동방	-4127
▁람	-4128
▁*	-4129
▁그렇게	-4130
▁뷰	-4131
▁고통	-4132
▁라스	-4133
▁후속	-4134
▁탈퇴	-4135
▁ㅇㅜ	-4136
▁오카	-4137
▁채우	-4138
느리	-4139
▁81	-4140
▁실력	-4141
필더	-4142
아하	-4143
▁무한	-4144
▁미드필더	-4145
▁따로	-4146
AT	-4147
▁절반	-4148
▁셔	-4149
▁뮤지컬	-4150
▁78	-4151
▁Al	-4152
▁수도원	-4153
▁장남	-4154
▁상관	-4155
▁행복	-4156
▁개설	-4157
▁청주	-4158
▁뤼	-4159
▁재학	-4160
바로	-4161
▁전투기	-4162
▁인용	-4163
▁화이트	-4164
▁그만	-4165
시오	-4166
▁로봇	-4167
▁센트	-4168
▁국정	-4169
▁좋아하	-4170
▁가까이	-4171
▁중력	-4172
▁젠	-4173
▁보상	-4174
▁비례	-4175
▁전남	-4176
▁아트	-4177
▁이혼	-4178
▁화장	-4179
▁도덕	-4180
▁산소	-4181
▁심장	-4182
▁하인	-4183
▁202	-4184
▁보르	-4185
▁뮌	-4186
▁김성	-4187
▁손상	-4188
▁천안	-4189
▁안드로	-4190
▁바이에른	-4191
의정	-4192
▁여섯	-4193
너스	-4194
▁생물학	-4195
▁1959	-4196
▁빌딩	-4197
▁레알	-4198
체스터	-4199
ess	-4200
▁피해자	-4201
▁전직	-4202
▁177	-4203
자치	-4204
▁지향	-4205
타이	-4206
▁NH	-4207
▁국군	-4208
▁김대	-4209
▁포스트	-4210
▁붓	-4211
▁블라	-4212
▁상역	-4213
▁문신	-4214
▁살리	-4215
▁지사	-4216
▁사무소	-4217
▁주력	-4218
▁Li	-4219
▁백만	-4220
▁불만	-4221
▁와이	-4222
▁윗	-4223
▁71	-4224
▁AT	-4225
▁교리	-4226
BA	-4227
인물	-4228
▁처하	-4229
▁사우스	-4230
▁녀	-4231
토스	-4232
▁질환	-4233
▁91	-4234
▁포스	-4235
▁황후	-4236
▁당나라	-4237
▁DV	-4238
▁작동	-4239
▁화합	-4240
▁콘스탄티	-4241
▁인생	-4242
▁일컫	-4243
▁피부	-4244
▁관여	-4245
▁소득	-4246
하여	-4247
▁패션	-4248
세포	-4249
클리	-4250
▁기상	-4251
▁승려	-4252
▁검토	-4253
▁가마	-4254
▁하원	-4255
▁선박	-4256
▁총장	-4257
▁마무리	-4258
▁액션	-4259
직자	-4260
▁1942	-4261
▁유통	-4262
▁호소	-4263
▁메시지	-4264
▁신사	-4265
▁사유	-4266
▁부담	-4267
▁결론	-4268
▁의대	-4269
▁상실	-4270
▁약물	-4271
▁가슴	-4272
▁역학	-4273
가락	-4274
스트라	-4275
▁골드	-4276
▁;,	-4277
▁좌상	-4278
쿠스	-4279
▁개방	-4280
▁혼인	-4281
▁글로벌	-4282
▁동해	-4283
▁모바	-4284
▁위키	-4285
▁디스크	-4286
▁햄	-4287
▁조카	-4288
▁프로이센	-4289
▁설득	-4290
▁아웃	-4291
▁87	-4292
▁그린	-4293
▁오직	-4294
▁페이지	-4295
터스	-4296
▁적합	-4297
ub	-4298
미야	-4299
▁규제	-4300
▁수요	-4301
▁내려오	-4302
▁결의	-4303
▁심지어	-4304
▁st	-4305
▁연습	-4306
▁진단	-4307
▁159	-4308
▁1943	-4309
▁매체	-4310
▁통화	-4311
▁부산광역시	-4312
▁넘어가	-4313
▁홋카이도	-4314
▁구매	-4315
▁가요	-4316
▁1955	-4317
▁처분	-4318
▁서식지	-4319
▁원년	-4320
▁김일성	-4321
▁말레이시아	-4322
▁분노	-4323
▁선임	-4324
▁야스	-4325
가니	-4326
▁\	-4327
IV	-4328
▁이명	-4329
▁스타디움	-4330
▁왕비	-4331
▁위대	-4332
▁억제	-4333
▁심판	-4334
▁지나가	-4335
▁드래프트	-4336
IA	-4337
▁개성	-4338
▁1953	-4339
▁발탁	-4340
▁테크	-4341
▁퀴	-4342
▁ㅎ	-4343
▁일기	-4344
▁쿠데	-4345
드리히	-4346
▁잭슨	-4347
▁주석	-4348
▁1936	-4349
▁싱가	-4350
▁무료	-4351
▁소멸	-4352
▁싱가포르	-4353
히로	-4354
▁크루	-4355
▁예방	-4356
▁AP	-4357
▁필드	-4358
ab	-4359
▁84	-4360
▁왕후	-4361
미르	-4362
▁유형문화재	-4363
▁톨	-4364
▁일본어	-4365
▁700	-4366
▁프랭	-4367
▁사무실	-4368
▁자이언	-4369
▁사격	-4370
▁티베	-4371
▁음악가	-4372
▁어려움	-4373
▁힙	-4374
▁일체	-4375
▁여우	-4376
▁태조	-4377
▁프리드리히	-4378
▁이와	-4379
▁정차	-4380
▁루마니아	-4381
▁진영	-4382
▁긍정	-4383
▁모바일	-4384
▁사도	-4385
▁인원	-4386
▁나쁘	-4387
▁천주교	-4388
▁폭격	-4389
▁1910	-4390
▁궁전	-4391
데이	-4392
▁리드	-4393
▁세자	-4394
유산	-4395
▁카스	-4396
▁쿠데타	-4397
▁후쿠오카	-4398
▁기동	-4399
▁즉시	-4400
▁창당	-4401
▁굳	-4402
주군	-4403
▁전동차	-4404
▁전북	-4405
ine	-4406
▁대책	-4407
▁타인	-4408
▁Re	-4409
▁사라	-4410
▁히틀러	-4411
▁불안	-4412
▁시나	-4413
▁유고	-4414
▁스티븐	-4415
▁쾌	-4416
▁크로스	-4417
▁디아	-4418
버리	-4419
▁개칭	-4420
▁조지아	-4421
▁학사	-4422
▁김종	-4423
▁에서	-4424
▁상속	-4425
▁막대	-4426
▁전당	-4427
▁딜	-4428
▁오이	-4429
▁닫	-4430
▁강릉	-4431
▁대체로	-4432
▁깊이	-4433
▁몰리	-4434
▁1957	-4435
▁남아프리카	-4436
란색	-4437
구리	-4438
▁아메리칸	-4439
▁알고리	-4440
▁97	-4441
▁구입	-4442
구치	-4443
▁요금	-4444
우치	-4445
▁챔피언십	-4446
올리	-4447
▁원주민	-4448
▁연설	-4449
▁본명	-4450
▁진격	-4451
ew	-4452
독부	-4453
▁딘	-4454
달리	-4455
베르트	-4456
▁조상	-4457
▁발명	-4458
▁콘텐츠	-4459
▁타이거	-4460
▁휴대	-4461
머리	-4462
▁메이지	-4463
▁1914	-4464
▁독재	-4465
▁흔하	-4466
▁스미스	-4467
▁전송	-4468
▁필수	-4469
▁생태	-4470
▁추방	-4471
▁음성	-4472
▁늘리	-4473
▁광범	-4474
▁69	-4475
▁자국	-4476
▁수호	-4477
ㄴㅑ	-4478
▁검색	-4479
▁동북	-4480
▁테마	-4481
▁알고리즘	-4482
▁이즈	-4483
▁초점	-4484
▁세트	-4485
▁부동	-4486
▁대우	-4487
▁주소	-4488
▁포켓몬	-4489
ue	-4490
▁="	-4491
▁도마	-4492
시스코	-4493
▁사과	-4494
▁토론토	-4495
▁인디언	-4496
▁담기	-4497
▁덩	-4498
▁이마	-4499
▁사기	-4500
▁92	-4501
미니	-4502
▁천만	-4503
▁신장	-4504
▁1900	-4505
원경	-4506
▁렀다	-4507
▁느낌	-4508
▁수업	-4509
▁신도	-4510
▁급격	-4511
▁알바	-4512
▁기다리	-4513
▁코리아	-4514
▁불가리아	-4515
▁최우	-4516
▁세부	-4517
▁미리	-4518
▁업적	-4519
▁후임	-4520
▁1938	-4521
▁림	-4522
▁이내	-4523
▁클로	-4524
▁랑	-4525
▁미술관	-4526
▁빚	-4527
▁섹	-4528
▁핫	-4529
▁펑	-4530
래프트	-4531
▁석사	-4532
▁잡히	-4533
▁부위	-4534
EC	-4535
다랗	-4536
▁서술	-4537
▁주니어	-4538
▁배포	-4539
▁연락	-4540
▁똑	-4541
▁끌어	-4542
비히	-4543
▁101	-4544
▁완벽	-4545
▁해발	-4546
지사	-4547
▁바르셀	-4548
▁스프링	-4549
▁유효	-4550
▁바르셀로나	-4551
▁상인	-4552
자키	-4553
▁노트	-4554
▁전술	-4555
▁재즈	-4556
▁라이프	-4557
총리	-4558
▁HD	-4559
▁고시	-4560
▁언덕	-4561
▁화려	-4562
▁다스리	-4563
▁오키	-4564
▁01	-4565
▁게다가	-4566
▁고급	-4567
▁립	-4568
▁선형	-4569
▁안드	-4570
▁연평	-4571
다니	-4572
▁영양	-4573
▁윙	-4574
로지	-4575
▁라틴어	-4576
리그	-4577
▁1918	-4578
▁DVD	-4579
산화	-4580
▁스탈	-4581
▁암컷	-4582
▁마스터	-4583
▁늑	-4584
총독부	-4585
▁조선총독부	-4586
▁소형	-4587
▁웰	-4588
▁등장인물	-4589
▁풋	-4590
▁랩	-4591
▁션	-4592
▁각국	-4593
▁개량	-4594
▁숨기	-4595
▁시내버스	-4596
▁소비자	-4597
▁1951	-4598
▁ㄲㅔ	-4599
▁상주	-4600
▁백인	-4601
▁유산	-4602
BM	-4603
▁마르크스	-4604
▁물건	-4605
▁1932	-4606
▁일련	-4607
제국	-4608
▁실천	-4609
▁운항	-4610
▁{	-4611
▁on	-4612
▁화석	-4613
▁손실	-4614
▁언스	-4615
▁고위	-4616
▁저자	-4617
▁계곡	-4618
▁국적	-4619
▁메달	-4620
▁내놓	-4621
▁질문	-4622
▁게르	-4623
▁추기	-4624
무늬	-4625
▁사퇴	-4626
▁ㄷㅡㅅㅇㅣ	-4627
▁1937	-4628
▁집회	-4629
▁반사	-4630
▁블록	-4631
▁설치류	-4632
▁알레	-4633
▁정교회	-4634
▁미시	-4635
가시	-4636
▁미스	-4637
▁영주	-4638
▁짝	-4639
▁경비	-4640
여금	-4641
▁상수	-4642
▁번지	-4643
▁만든	-4644
▁개별	-4645
▁방언	-4646
▁대만	-4647
▁용인	-4648
▁흰색	-4649
▁주체	-4650
▁진학	-4651
▁말리	-4652
▁선포	-4653
▁마틴	-4654
▁엘리자	-4655
민주당	-4656
▁89	-4657
▁차단	-4658
▁환승	-4659
▁우크라	-4660
▁첩	-4661
ect	-4662
▁고객	-4663
▁올스타	-4664
▁1935	-4665
펙트	-4666
▁분교	-4667
필드	-4668
▁감각	-4669
▁격파	-4670
▁부친	-4671
▁광범위	-4672
▁타율	-4673
▁갑자기	-4674
▁넥	-4675
▁둥글	-4676
▁실업	-4677
▁의문	-4678
▁182	-4679
▁칭호	-4680
▁프랑스군	-4681
▁닥터	-4682
▁이스트	-4683
▁이웃	-4684
▁후계자	-4685
사전	-4686
▁트레이드	-4687
▁사찰	-4688
▁비행기	-4689
▁크라	-4690
▁ㄱㅗㄴ	-4691
▁93	-4692
바키아	-4693
▁재개	-4694
▁경제학	-4695
▁화제	-4696
▁뮌헨	-4697
▁중추	-4698
▁항공사	-4699
▁로렌	-4700
▁싱어	-4701
▁고양이	-4702
▁Be	-4703
▁찬성	-4704
▁커버	-4705
▁면역	-4706
▁베리	-4707
▁퀘	-4708
▁거짓	-4709
▁추기경	-4710
▁자본주의	-4711
ㅅㅜ	-4712
▁수치	-4713
▁구상	-4714
동생	-4715
▁당원	-4716
▁탄압	-4717
▁비스	-4718
브라	-4719
▁항의	-4720
▁발간	-4721
▁체험	-4722
▁되돌	-4723
▁겉	-4724
▁수백	-4725
▁기부	-4726
▁파티	-4727
▁질서	-4728
▁회로	-4729
▁꾸준	-4730
▁자산	-4731
▁데리	-4732
▁클리	-4733
▁최후	-4734
▁분화	-4735
▁푸르	-4736
▁허락	-4737
▁OS	-4738
▁사양	-4739
▁성남	-4740
▁촉진	-4741
▁남녀	-4742
센트	-4743
▁곡선	-4744
▁공신	-4745
▁마루	-4746
▁쿨	-4747
런스	-4748
▁양산	-4749
▁법학	-4750
▁이념	-4751
ore	-4752
▁FM	-4753
▁증언	-4754
▁반지	-4755
▁클래식	-4756
▁웃	-4757
저스	-4758
▁잠수함	-4759
▁94	-4760
▁마주	-4761
▁화폐	-4762
▁1933	-4763
▁목성	-4764
▁시모	-4765
슈타인	-4766
▁구멍	-4767
▁소화	-4768
▁아티스트	-4769
▁시트	-4770
▁티베트	-4771
▁영원	-4772
▁탕	-4773
▁개척	-4774
▁대법원	-4775
▁가속	-4776
▁극단	-4777
IN	-4778
▁덧붙이	-4779
▁물고기	-4780
▁습격	-4781
▁소문	-4782
▁아오	-4783
▁소위	-4784
▁지수	-4785
리우스	-4786
▁쿼	-4787
▁툴	-4788
다수	-4789
▁보편	-4790
▁축소	-4791
▁1928	-4792
▁수십	-4793
our	-4794
▁강남	-4795
▁내세우	-4796
도사	-4797
▁CP	-4798
▁소집	-4799
▁군부	-4800
▁유배	-4801
▁탄핵	-4802
▁태종	-4803
리나	-4804
▁동경	-4805
▁동화	-4806
▁펴	-4807
▁운송	-4808
▁원시	-4809
▁선호	-4810
▁경사	-4811
▁프랑스어	-4812
▁팩	-4813
▁영구	-4814
▁상대식	-4815
돼지	-4816
▁1924	-4817
ell	-4818
▁조항	-4819
공사	-4820
▁콜로	-4821
▁핸	-4822
▁전적	-4823
▁료	-4824
프레	-4825
▁칠레	-4826
▁누스	-4827
▁용도	-4828
▁시신	-4829
▁개명	-4830
▁어둡	-4831
▁79	-4832
▁익스	-4833
▁충분히	-4834
▁간부	-4835
▁국토	-4836
▁대로	-4837
▁메트로	-4838
▁하여금	-4839
▁주일	-4840
닉스	-4841
▁지불	-4842
▁세월	-4843
▁약화	-4844
▁혼자	-4845
▁09	-4846
▁따오	-4847
▁전망	-4848
▁무너지	-4849
▁사막	-4850
▁프로그래밍	-4851
▁정면	-4852
▁걷	-4853
▁회색	-4854
▁틈	-4855
▁조기	-4856
▁콜롬	-4857
벤트	-4858
▁뼈	-4859
▁멈	-4860
▁ㅈㅗ	-4861
▁개장	-4862
▁이행	-4863
▁김해	-4864
▁댄스	-4865
▁발레	-4866
▁110	-4867
▁대칭	-4868
▁재능	-4869
▁펀	-4870
end	-4871
들리	-4872
▁의정부	-4873
▁입대	-4874
슬링	-4875
사이	-4876
▁토대	-4877
▁그리하여	-4878
▁정통	-4879
▁종사	-4880
▁지나치	-4881
ㅊㅏ	-4882
른바	-4883
▁열매	-4884
▁직무	-4885
▁형상	-4886
▁존스	-4887
▁실내	-4888
티스	-4889
▁러브	-4890
▁04	-4891
려가	-4892
▁동굴	-4893
▁브로	-4894
▁토마스	-4895
▁토착	-4896
▁파키스탄	-4897
▁당신	-4898
▁합동	-4899
▁이른바	-4900
▁원자력	-4901
ill	-4902
▁구름	-4903
▁액체	-4904
▁쟁	-4905
▁오버	-4906
코프	-4907
▁법안	-4908
ain	-4909
▁지중	-4910
▁하와	-4911
▁플로리	-4912
▁08	-4913
▁매치	-4914
▁ㅎㅏ	-4915
▁정류	-4916
베리아	-4917
▁170	-4918
▁이재	-4919
▁총재	-4920
▁안토니	-4921
▁반하	-4922
▁해제	-4923
▁퓨	-4924
어도	-4925
▁가난	-4926
▁진실	-4927
▁틴	-4928
▁Co	-4929
▁고교	-4930
▁단순히	-4931
▁초상	-4932
▁대승	-4933
▁수컷	-4934
▁뻗	-4935
▁세로	-4936
▁스카이	-4937
▁베네치아	-4938
▁유아	-4939
▁재생	-4940
▁개찰	-4941
▁우에	-4942
▁프로토	-4943
ID	-4944
ers	-4945
▁부리	-4946
▁자르	-4947
▁판정	-4948
▁흔적	-4949
▁경북	-4950
▁자랑	-4951
▁룸	-4952
▁멀티	-4953
▁손해	-4954
ㅋㅡㅁ	-4955
▁83	-4956
▁당대	-4957
▁부속	-4958
▁안티	-4959
▁오케	-4960
▁스톤	-4961
▁다큐	-4962
과이	-4963
▁장로	-4964
▁주문	-4965
▁안쪽	-4966
페이스	-4967
테스	-4968
▁엄격	-4969
▁지표	-4970
▁힙합	-4971
▁무력	-4972
▁무용	-4973
▁사이드	-4974
데르	-4975
▁벼슬	-4976
▁부서	-4977
▁서방	-4978
▁오류	-4979
▁메탈	-4980
▁경고	-4981
▁함경	-4982
ard	-4983
▁전제	-4984
▁경찰서	-4985
▁강도	-4986
▁비잔	-4987
고속	-4988
▁늑대	-4989
▁페리	-4990
▁평면	-4991
▁국방부	-4992
▁스크린	-4993
어로	-4994
▁불러	-4995
▁할아버지	-4996
▁주재	-4997
▁배열	-4998
▁한성	-4999
▁아프가니	-5000
▁호흡	-5001
▁인민군	-5002
▁1934	-5003
조선	-5004
▁쌓이	-5005
▁MS	-5006
▁레닌	-5007
▁선로	-5008
▁닐	-5009
▁성서	-5010
▁요코하마	-5011
즈니	-5012
▁맡기	-5013
▁편의	-5014
▁혈액	-5015
▁이벤트	-5016
▁마감	-5017
▁분산	-5018
▁중동	-5019
▁일단	-5020
▁대사관	-5021
▁메르	-5022
AN	-5023
▁빵	-5024
▁거스	-5025
▁농장	-5026
▁대가	-5027
▁동지	-5028
▁포드	-5029
▁De	-5030
▁철거	-5031
▁ㄹㅣㅇ	-5032
▁대원	-5033
▁양국	-5034
▁보스턴	-5035
▁히어로	-5036
▁ㅁㅏㄴㅋㅡㅁ	-5037
▁자매	-5038
▁놀이	-5039
▁중지	-5040
▁판타	-5041
▁스케이	-5042
▁입구	-5043
유키	-5044
▁구사	-5045
▁추적	-5046
▁근육	-5047
키퍼	-5048
▁장례	-5049
세대	-5050
아르	-5051
▁광산	-5052
▁골키퍼	-5053
▁탓	-5054
▁찾아가	-5055
▁동구	-5056
▁Me	-5057
▁주자	-5058
▁노동당	-5059
▁강요	-5060
▁130	-5061
▁북미	-5062
▁동메달	-5063
야스	-5064
▁거느리	-5065
▁느리	-5066
▁대동	-5067
▁본토	-5068
▁유키	-5069
▁은메달	-5070
제르	-5071
▁토머스	-5072
▁현존	-5073
▁뱀	-5074
▁거점	-5075
▁봉기	-5076
▁투스	-5077
▁글리	-5078
▁카리	-5079
▁코어	-5080
▁떼	-5081
▁쿠바	-5082
▁남극	-5083
사르	-5084
▁정확히	-5085
▁밸	-5086
▁젤	-5087
베르크	-5088
레오	-5089
▁가볍	-5090
▁멈추	-5091
▁140	-5092
▁접속	-5093
▁나이트	-5094
▁사카	-5095
▁아프가니스탄	-5096
▁항해	-5097
공업	-5098
▁도쿠가와	-5099
워하	-5100
▁정조	-5101
▁사망자	-5102
▁레지	-5103
▁부처	-5104
ne	-5105
▁테르	-5106
하이	-5107
▁중계	-5108
드라	-5109
▁알렉산더	-5110
▁로즈	-5111
▁선물	-5112
▁필립	-5113
▁Sh	-5114
▁복사	-5115
▁김구	-5116
▁스탈린	-5117
▁철학자	-5118
▁시계	-5119
▁내려가	-5120
▁새끼	-5121
▁발전소	-5122
▁칼리지	-5123
▁돔	-5124
레아	-5125
▁매주	-5126
▁초청	-5127
▁식량	-5128
▁재판소	-5129
돌프	-5130
안군	-5131
▁야당	-5132
▁중성	-5133
위대	-5134
▁페이스	-5135
OR	-5136
보내	-5137
▁안내	-5138
▁th	-5139
▁곤충	-5140
▁맨체스터	-5141
▁농촌	-5142
▁화합물	-5143
▁건너가	-5144
▁대다수	-5145
▁특별히	-5146
성기	-5147
▁로맨	-5148
▁1931	-5149
▁구로	-5150
▁관계자	-5151
▁구리	-5152
▁모자	-5153
▁부호	-5154
▁강등	-5155
▁아비	-5156
▁위안	-5157
크래프트	-5158
▁새벽	-5159
▁재임	-5160
▁훼	-5161
▁독점	-5162
▁존슨	-5163
▁토너	-5164
▁펄	-5165
▁겸하	-5166
▁간격	-5167
▁세금	-5168
▁증권	-5169
▁타카	-5170
▁체육관	-5171
▁금강	-5172
▁생애	-5173
▁멸종	-5174
▁교향곡	-5175
▁그리스어	-5176
▁유력	-5177
▁오염	-5178
▁휘하	-5179
베리	-5180
▁르네	-5181
▁역전	-5182
▁cod	-5183
므로	-5184
▁이정	-5185
▁히로시마	-5186
▁일곱	-5187
▁클래스	-5188
▁목포	-5189
▁파울	-5190
▁풍속	-5191
▁부드	-5192
▁계수	-5193
▁기병	-5194
all	-5195
▁ㄷㅜ	-5196
게이	-5197
▁모노	-5198
▁종전	-5199
▁진동	-5200
▁명시	-5201
▁물리치	-5202
▁버지	-5203
▁코너	-5204
▁ST	-5205
▁뚜렷	-5206
▁타원	-5207
▁달라지	-5208
▁커다랗	-5209
▁석방	-5210
▁An	-5211
▁비중	-5212
▁기르	-5213
▁킬로	-5214
▁해협	-5215
AM	-5216
▁꾼	-5217
▁미카	-5218
▁아이스	-5219
▁그래프	-5220
▁그러므로	-5221
나르	-5222
▁하사	-5223
레이크	-5224
▁무늬	-5225
▁부품	-5226
ㄹㅏㄴ	-5227
▁타점	-5228
▁하버	-5229
▁관객	-5230
▁1921	-5231
▁공룡	-5232
▁지칭	-5233
▁자유주의	-5234
▁감옥	-5235
▁코트	-5236
▁176	-5237
▁기생	-5238
▁연호	-5239
▁원조	-5240
▁좌파	-5241
▁교도	-5242
▁250	-5243
▁찾아오	-5244
▁숙종	-5245
▁장점	-5246
▁수비수	-5247
널드	-5248
▁훌륭	-5249
▁대변	-5250
▁특허	-5251
ang	-5252
▁가구	-5253
▁캠프	-5254
▁도망치	-5255
▁1929	-5256
느님	-5257
밀리	-5258
▁유발	-5259
▁필라	-5260
▁조문	-5261
▁하느님	-5262
수량	-5263
▁심리학	-5264
▁지휘관	-5265
▁닮	-5266
▁비즈	-5267
▁동성애	-5268
▁아틀	-5269
▁운동가	-5270
▁스트라이	-5271
▁유대인	-5272
▁합리	-5273
▁부드럽	-5274
둥이	-5275
▁토너먼트	-5276
▁y	-5277
▁박근	-5278
▁소요	-5279
▁윤리	-5280
▁강전	-5281
▁빗	-5282
▁05	-5283
▁집필	-5284
▁후퇴	-5285
▁사관	-5286
▁단장	-5287
▁마그	-5288
▁성명	-5289
▁스테이션	-5290
▁도메	-5291
▁착용	-5292
▁트랜스	-5293
▁무겁	-5294
▁폭풍	-5295
▁갤럭	-5296
▁라트	-5297
▁일환	-5298
▁키스	-5299
▁칙	-5300
▁수반	-5301
▁캡	-5302
▁올라오	-5303
▁자이언츠	-5304
투아	-5305
▁기갑	-5306
▁연평균	-5307
▁부작	-5308
▁비틀	-5309
▁1925	-5310
▁목숨	-5311
▁인터페이스	-5312
▁대결	-5313
▁1923	-5314
시스트	-5315
ss	-5316
▁다다	-5317
▁공세	-5318
▁문재	-5319
▁입사	-5320
▁건담	-5321
슬리	-5322
▁덕분	-5323
▁도호	-5324
미아	-5325
▁연상	-5326
▁갤럭시	-5327
▁쯤	-5328
▁공국	-5329
▁동반	-5330
▁지부	-5331
▁첫째	-5332
▁과일	-5333
▁플로리다	-5334
▁고고	-5335
▁극복	-5336
▁마라	-5337
▁삼각	-5338
산물	-5339
▁추대	-5340
▁롬	-5341
▁살아	-5342
▁평론가	-5343
▁북아메리카	-5344
▁약탈	-5345
▁조화	-5346
▁첸	-5347
무게	-5348
▁몸무게	-5349
▁잠재	-5350
▁협약	-5351
▁07	-5352
▁ㅋㅜ	-5353
▁틱	-5354
▁압축	-5355
타카	-5356
▁샤를	-5357
▁가끔	-5358
마이	-5359
▁매니	-5360
▁발렌	-5361
▁AC	-5362
▁요원	-5363
▁장갑	-5364
▁북서쪽	-5365
▁연계	-5366
베이스	-5367
▁관리자	-5368
▁대한제국	-5369
ity	-5370
▁유비	-5371
▁단선	-5372
▁섬유	-5373
▁시게	-5374
▁원장	-5375
▁불화	-5376
▁남아메리카	-5377
▁캘리포니아주	-5378
▁얀	-5379
▁성직자	-5380
▁추락	-5381
▁딱	-5382
▁사당	-5383
▁의석	-5384
▁미분	-5385
▁김대중	-5386
클린	-5387
▁웨일스	-5388
대문	-5389
카스	-5390
▁유성	-5391
▁우드	-5392
▁임신	-5393
▁이수	-5394
▁램	-5395
▁며	-5396
▁영감	-5397
▁중립	-5398
▁페루	-5399
▁트레이	-5400
▁하와이	-5401
▁북극	-5402
키스	-5403
▁SC	-5404
▁ㅅㅠ	-5405
추어	-5406
페인	-5407
▁ㅇㅛ	-5408
▁진흥	-5409
▁갱	-5410
▁선교사	-5411
▁모로	-5412
▁박스	-5413
▁필름	-5414
▁종로	-5415
▁리스트	-5416
▁근로	-5417
▁향토	-5418
▁주사	-5419
▁161	-5420
▁사거리	-5421
▁살아남	-5422
▁모험	-5423
▁민속	-5424
▁고분	-5425
▁서인	-5426
▁기관차	-5427
▁다이묘	-5428
▁발휘	-5429
▁타입	-5430
▁동인	-5431
▁삭제	-5432
▁수직	-5433
▁도마뱀	-5434
▁codice	-5435
▁똑같	-5436
▁꼽히	-5437
▁영광	-5438
▁그랜드	-5439
▁일자	-5440
▁카자	-5441
▁빅토리아	-5442
▁영혼	-5443
▁프로세서	-5444
▁준우	-5445
ff	-5446
▁모음	-5447
▁망원경	-5448
▁삼각형	-5449
▁EP	-5450
▁복구	-5451
즈키	-5452
행성	-5453
▁청동	-5454
▁레벨	-5455
▁1922	-5456
▁문인	-5457
▁파운드	-5458
▁유가	-5459
▁진술	-5460
▁명사	-5461
▁칼리	-5462
▁175	-5463
▁곰	-5464
▁윤치	-5465
▁화가	-5466
▁de	-5467
▁수장	-5468
▁홀로	-5469
ㅅㅣ	-5470
▁성씨	-5471
▁버지니아	-5472
▁제약	-5473
▁돌파	-5474
▁변신	-5475
일본	-5476
▁중구	-5477
▁레이블	-5478
▁루트비히	-5479
▁엽	-5480
▁결심	-5481
▁청하	-5482
▁무릎	-5483
▁중시	-5484
오리	-5485
▁압도	-5486
▁틸	-5487
애나	-5488
▁주류	-5489
▁평생	-5490
▁규슈	-5491
▁이조	-5492
▁박근혜	-5493
▁인천광역시	-5494
▁투구	-5495
▁피트	-5496
▁엘리자베스	-5497
▁교과	-5498
▁바오	-5499
▁My	-5500
▁서적	-5501
▁공격수	-5502
▁모래	-5503
▁1912	-5504
▁유역	-5505
▁채권	-5506
▁교차로	-5507
▁지역구	-5508
▁가톨릭교회	-5509
▁아과	-5510
▁프레임	-5511
▁고안	-5512
▁부유	-5513
▁표지	-5514
▁황태	-5515
▁자치구	-5516
프란	-5517
▁직선	-5518
▁때로	-5519
▁둔	-5520
▁설비	-5521
▁여인	-5522
▁트럼	-5523
▁리치	-5524
▁최상	-5525
▁지연	-5526
▁부수	-5527
▁없애	-5528
▁토벌	-5529
▁글씨	-5530
▁부탁	-5531
양군	-5532
▁유용	-5533
눅스	-5534
▁왕가	-5535
▁164	-5536
▁각자	-5537
▁문법	-5538
메니아	-5539
▁이날	-5540
▁직위	-5541
▁철저	-5542
▁수상자	-5543
▁구미	-5544
▁사토	-5545
▁포유	-5546
▁네이션	-5547
▁동일본	-5548
▁왈	-5549
▁Go	-5550
▁아기	-5551
▁벨라	-5552
▁리눅스	-5553
▁Love	-5554
▁음모	-5555
▁국민당	-5556
니즘	-5557
▁무산	-5558
▁블라디	-5559
ong	-5560
▁KT	-5561
▁소설가	-5562
▁파트너	-5563
▁1908	-5564
부사	-5565
▁목조	-5566
멘트	-5567
타운	-5568
▁""	-5569
라이터	-5570
▁크레	-5571
▁퍼시	-5572
야수	-5573
▁보통학교	-5574
▁아르메니아	-5575
▁봉사	-5576
▁영조	-5577
▁모니	-5578
▁무인	-5579
▁1906	-5580
up	-5581
▁랭킹	-5582
보살	-5583
▁06	-5584
▁건축물	-5585
▁경유	-5586
▁인력	-5587
▁납치	-5588
▁자책	-5589
▁토르	-5590
▁베타	-5591
▁장사	-5592
ㅈㅓ	-5593
▁마카	-5594
▁사촌	-5595
▁지중해	-5596
▁간섭	-5597
▁도어	-5598
▁남동쪽	-5599
▁아마추어	-5600
▁릭	-5601
▁노비	-5602
▁어워드	-5603
▁히가시	-5604
▁패턴	-5605
멘터리	-5606
▁스케이팅	-5607
▁MV	-5608
▁연령	-5609
▁다양체	-5610
▁돼지	-5611
▁태자	-5612
▁연소	-5613
▁침해	-5614
▁플레	-5615
ip	-5616
▁노무	-5617
▁크림	-5618
▁1917	-5619
▁정자	-5620
▁이종	-5621
▁준우승	-5622
▁모듈	-5623
▁전향	-5624
ㄹㅅㅜ	-5625
도니아	-5626
IS	-5627
ld	-5628
사관	-5629
슬로	-5630
아리	-5631
▁삽입	-5632
▁1927	-5633
▁JR	-5634
▁교역	-5635
▁상처	-5636
▁제주도	-5637
▁이토	-5638
▁호조	-5639
▁03	-5640
▁SM	-5641
▁커피	-5642
▁통로	-5643
▁적응	-5644
태우	-5645
▁앨런	-5646
▁과도	-5647
▁안양	-5648
▁북동쪽	-5649
마치	-5650
▁매각	-5651
▁명문	-5652
▁탐험	-5653
▁호르	-5654
다드	-5655
▁우익	-5656
▁굿	-5657
ant	-5658
▁조명	-5659
▁1907	-5660
▁우크라이나	-5661
▁적어도	-5662
▁BBC	-5663
▁석조	-5664
▁럭	-5665
▁시아	-5666
▁창간	-5667
▁시상식	-5668
영상	-5669
▁대행	-5670
▁라우	-5671
▁배급	-5672
▁베토	-5673
▁전승	-5674
▁에스파	-5675
OM	-5676
▁배상	-5677
▁인자	-5678
▁수지	-5679
▁스와	-5680
▁보좌	-5681
▁1926	-5682
▁과장	-5683
▁외계	-5684
▁육성	-5685
▁다큐멘터리	-5686
▁흙	-5687
▁몬테	-5688
▁전작	-5689
▁산악	-5690
▁밀라노	-5691
▁앱	-5692
▁유인	-5693
▁옵	-5694
스팅	-5695
▁항목	-5696
▁싫	-5697
▁정서	-5698
▁산타	-5699
ED	-5700
▁대교	-5701
▁리아	-5702
▁옹호	-5703
▁협의회	-5704
▁쇠퇴	-5705
▁노인	-5706
▁시집	-5707
▁송라이터	-5708
▁출현	-5709
▁문하	-5710
▁의병	-5711
▁폐기	-5712
av	-5713
▁표본	-5714
▁슐	-5715
생물	-5716
▁체인	-5717
▁왕립	-5718
▁자전거	-5719
이즈	-5720
▁SN	-5721
▁색상	-5722
▁포크	-5723
몬드	-5724
▁168	-5725
▁상하이	-5726
▁별로	-5727
▁지름	-5728
▁탑승	-5729
▁동아시아	-5730
▁자문	-5731
스토	-5732
▁He	-5733
▁세조	-5734
▁묘지	-5735
▁디즈니	-5736
▁종족	-5737
페이지	-5738
▁단행	-5739
▁해설	-5740
▁비전	-5741
▁무선	-5742
다이라	-5743
▁부동산	-5744
▁연고지	-5745
런트	-5746
▁커지	-5747
▁수감	-5748
▁험	-5749
슬라	-5750
▁PD	-5751
▁상영	-5752
▁스틸	-5753
▁패러	-5754
로프	-5755
티움	-5756
ind	-5757
▁관중	-5758
▁머물	-5759
▁렉	-5760
▁동사	-5761
▁사신	-5762
▁유입	-5763
se	-5764
▁1905	-5765
▁||	-5766
▁기종	-5767
▁호남	-5768
▁꺼	-5769
▁콩고	-5770
▁내장	-5771
▁시에	-5772
텐도	-5773
▁닌텐도	-5774
▁NHK	-5775
▁레이다	-5776
▁노조	-5777
▁산지	-5778
▁합계	-5779
▁166	-5780
▁하천	-5781
▁오리지	-5782
ame	-5783
▁162	-5784
튜브	-5785
▁꾸미	-5786
▁사료	-5787
AC	-5788
▁아가	-5789
▁제후	-5790
▁문화유산	-5791
▁룩	-5792
▁독일어	-5793
세스	-5794
▁최우수	-5795
▁기름	-5796
▁정사	-5797
▁기하학	-5798
▁홈페이지	-5799
▁버그	-5800
▁151	-5801
▁민족주의	-5802
▁시외	-5803
▁좌익	-5804
▁물려	-5805
▁에릭	-5806
▁유튜브	-5807
▁데이터베이스	-5808
▁엄마	-5809
▁유신	-5810
▁진지	-5811
총장	-5812
▁Sp	-5813
▁베토벤	-5814
▁역과	-5815
▁묻히	-5816
▁참조	-5817
▁꾸준히	-5818
브스	-5819
▁가쓰	-5820
▁선제	-5821
▁다가	-5822
▁비평가	-5823
▁놀라	-5824
무네	-5825
▁연금	-5826
▁예외	-5827
ry	-5828
나카	-5829
▁사이클	-5830
▁정류장	-5831
▁158	-5832
▁카페	-5833
▁헤드	-5834
▁아무런	-5835
▁조선인	-5836
ES	-5837
▁수명	-5838
▁아울	-5839
▁비단	-5840
▁주말	-5841
▁지바	-5842
▁트럭	-5843
▁급속	-5844
▁드래곤	-5845
▁스승	-5846
▁품질	-5847
▁크리스토	-5848
▁색깔	-5849
▁증기	-5850
플레이	-5851
려나	-5852
ith	-5853
▁원로	-5854
▁엉	-5855
어트	-5856
▁대조	-5857
▁모집	-5858
지마	-5859
▁아크	-5860
▁우르	-5861
▁칩	-5862
▁원산	-5863
▁겨우	-5864
▁광역	-5865
▁상소	-5866
▁커뮤니티	-5867
스케	-5868
▁요미	-5869
▁자바	-5870
ort	-5871
▁02	-5872
▁문과	-5873
엘라	-5874
▁목격	-5875
▁안보	-5876
▁스페셜	-5877
▁도리	-5878
▁주거	-5879
▁남서쪽	-5880
▁수천	-5881
▁리얼	-5882
▁주파	-5883
▁마일	-5884
▁선진	-5885
▁야생	-5886
▁할리	-5887
▁향년	-5888
▁유고슬	-5889
▁유고슬라비아	-5890
▁리듬	-5891
▁셋째	-5892
▁라이온	-5893
▁반환	-5894
▁바라보	-5895
▁옛날	-5896
▁라이벌	-5897
▁바이올	-5898
▁특급	-5899
스티벌	-5900
▁레이스	-5901
ok	-5902
▁라마	-5903
▁점성	-5904
▁나폴리	-5905
▁뚫	-5906
▁가미	-5907
▁입문	-5908
▁플루	-5909
▁곧바로	-5910
▁수수	-5911
▁흥미	-5912
▁동치	-5913
▁주의자	-5914
▁베이스볼	-5915
▁실점	-5916
▁대안	-5917
▁사리	-5918
▁조르	-5919
▁페스티벌	-5920
▁인텔	-5921
프란시스코	-5922
▁기점	-5923
▁유닛	-5924
▁구마	-5925
▁샌프란시스코	-5926
▁무관	-5927
▁도심	-5928
▁기념물	-5929
▁단층	-5930
▁신비	-5931
▁악장	-5932
▁재무	-5933
▁토니	-5934
▁소니	-5935
▁쿠르	-5936
▁스피드	-5937
▁방안	-5938
잡히	-5939
▁와카	-5940
▁운반	-5941
▁협의	-5942
▁빨리	-5943
▁주한	-5944
▁디자이너	-5945
▁서북	-5946
▁운명	-5947
▁동영상	-5948
▁콜롬비아	-5949
해군	-5950
▁마스	-5951
▁묘소	-5952
프스	-5953
▁기압	-5954
▁사직	-5955
▁미네	-5956
▁오리지널	-5957
▁안드로이드	-5958
▁렌즈	-5959
▁적색	-5960
▁1904	-5961
▁이리	-5962
▁부시	-5963
▁석탑	-5964
▁브라이언	-5965
▁기용	-5966
▁프랜	-5967
▁출판사	-5968
▁미만	-5969
▁되찾	-5970
▁십자군	-5971
▁마케도니아	-5972
▁이오	-5973
▁일행	-5974
▁입증	-5975
▁오디션	-5976
▁출산	-5977
▁연주자	-5978
▁케이블	-5979
▁모터	-5980
▁직장	-5981
▁지휘자	-5982
▁알라	-5983
▁복제	-5984
▁진도	-5985
▁마쓰다이라	-5986
▁Un	-5987
▁관장	-5988
▁한나라	-5989
▁인치	-5990
회의	-5991
▁한나라당	-5992
▁개수	-5993
쳐지	-5994
▁왕족	-5995
▁상무	-5996
▁정교	-5997
▁평소	-5998
▁저지르	-5999
▁교전	-6000
▁배제	-6001
▁신임	-6002
리케이션	-6003
▁챌	-6004
▁서경	-6005
▁급행	-6006
▁파생	-6007
▁날리	-6008
▁판타지	-6009
▁동전	-6010
▁의거	-6011
▁템	-6012
▁부패	-6013
▁분배	-6014
▁154	-6015
▁165	-6016
▁센트럴	-6017
ord	-6018
▁무신	-6019
▁계단	-6020
▁자사	-6021
▁비즈니스	-6022
루살	-6023
프라	-6024
▁긴급	-6025
▁내륙	-6026
▁초래	-6027
▁예술가	-6028
ob	-6029
▁기재	-6030
▁받침	-6031
▁용기	-6032
▁수면	-6033
▁예언	-6034
▁오타	-6035
루살렘	-6036
▁Se	-6037
▁합작	-6038
▁스테이지	-6039
▁Wh	-6040
▁파나	-6041
qu	-6042
▁사로	-6043
▁폭스	-6044
▁좌석	-6045
▁콘스탄티노	-6046
▁트레	-6047
▁163	-6048
▁아서	-6049
문학	-6050
▁가게	-6051
▁권고	-6052
▁당사자	-6053
▁사르	-6054
▁156	-6055
▁도메인	-6056
모니	-6057
▁단종	-6058
▁스펙트	-6059
▁여동생	-6060
우옌	-6061
▁SF	-6062
▁사범	-6063
▁신하	-6064
디스	-6065
▁용산	-6066
▁입히	-6067
▁링크	-6068
▁리투아	-6069
▁리투아니아	-6070
ate	-6071
▁신용	-6072
가스	-6073
▁무슬	-6074
▁연애	-6075
▁항일	-6076
▁167	-6077
▁겹치	-6078
▁그랑	-6079
▁스쿨	-6080
▁스펙트럼	-6081
▁모순	-6082
▁사면	-6083
▁타마	-6084
▁호환	-6085
▁DJ	-6086
PS	-6087
▁예루살렘	-6088
▁크리스티	-6089
▁여신	-6090
▁무슬림	-6091
▁900	-6092
▁충남	-6093
▁회원국	-6094
▁상임	-6095
▁어항	-6096
▁진상	-6097
교육	-6098
카르	-6099
▁혜성	-6100
경기	-6101
▁정계	-6102
▁챌린	-6103
▁스마트폰	-6104
▁아인	-6105
▁분지	-6106
▁자회사	-6107
껍질	-6108
▁끼리	-6109
▁조류	-6110
▁한양	-6111
▁압박	-6112
▁착륙	-6113
▁미얀	-6114
페이	-6115
▁AM	-6116
▁가득	-6117
▁발효	-6118
▁선사	-6119
▁샹	-6120
려오	-6121
▁니스	-6122
▁무라	-6123
▁장편	-6124
IC	-6125
길이	-6126
▁번식	-6127
▁밀접	-6128
▁주립	-6129
▁바이올린	-6130
▁게시	-6131
▁일요일	-6132
지르	-6133
▁바그	-6134
▁이지	-6135
▁지장	-6136
▁조국	-6137
▁지주	-6138
▁피렌	-6139
▁시달리	-6140
▁비로	-6141
커스	-6142
▁WW	-6143
▁애국	-6144
▁훼손	-6145
▁서울시	-6146
식물	-6147
▁고립	-6148
▁얼음	-6149
▁전염	-6150
▁친정	-6151
▁깔	-6152
킨스	-6153
▁교섭	-6154
▁포맷	-6155
▁UN	-6156
▁오다	-6157
▁서브	-6158
▁비잔티움	-6159
▁피스	-6160
▁139	-6161
▁팅	-6162
▁농도	-6163
▁예능	-6164
럼비아	-6165
▁우지	-6166
▁오케스트라	-6167
랑이	-6168
▁AS	-6169
▁요크	-6170
▁씌	-6171
▁대단	-6172
▁옌	-6173
▁낱	-6174
▁유하	-6175
▁하트	-6176
▁진나라	-6177
잡이	-6178
▁대령	-6179
▁식사	-6180
▁최신	-6181
▁ㅇㅓㅆㅇㅓㅆ	-6182
▁우루	-6183
예프	-6184
▁쇼군	-6185
▁브라우	-6186
▁아베	-6187
▁하드웨어	-6188
ET	-6189
▁끄	-6190
▁성종	-6191
▁아이디	-6192
▁구장	-6193
▁145	-6194
▁개발자	-6195
▁킬로미터	-6196
부인	-6197
ast	-6198
▁용량	-6199
▁차관	-6200
▁행정부	-6201
▁노무현	-6202
▁번주	-6203
▁주머니	-6204
▁월간	-6205
▁융합	-6206
▁알바니아	-6207
▁지질	-6208
▁시체	-6209
▁과제	-6210
▁기아	-6211
▁발족	-6212
▁참판	-6213
▁쿠스	-6214
DP	-6215
▁뜨겁	-6216
▁미나미	-6217
▁스트리트	-6218
▁마리오	-6219
▁몸길이	-6220
▁강연	-6221
▁전이	-6222
▁디비전	-6223
▁기타리스트	-6224
▁바티	-6225
▁선두	-6226
▁이명박	-6227
▁파동	-6228
▁응우옌	-6229
▁관광객	-6230
▁임상	-6231
▁부통령	-6232
▁페어	-6233
▁공과	-6234
▁피렌체	-6235
수아	-6236
▁소나	-6237
▁와중	-6238
▁학파	-6239
▁중국어	-6240
▁부자	-6241
▁투명	-6242
▁부흥	-6243
로디	-6244
▁성공회	-6245
▁사사	-6246
▁아세	-6247
▁해인	-6248
데이트	-6249
레이터	-6250
▁1896	-6251
if	-6252
▁보전	-6253
▁야기	-6254
▁전지	-6255
▁전임	-6256
▁MVP	-6257
▁부도	-6258
▁위주	-6259
▁정벌	-6260
▁관찰사	-6261
▁업데이트	-6262
랑크	-6263
▁DS	-6264
▁잊	-6265
ack	-6266
▁아이디어	-6267
▁규명	-6268
▁배정	-6269
▁사바	-6270
▁피에르	-6271
▁김동	-6272
▁착수	-6273
▁거스르	-6274
ive	-6275
▁전류	-6276
▁넬	-6277
▁스콧	-6278
▁충성	-6279
▁간접	-6280
▁공용	-6281
ure	-6282
▁마케팅	-6283
▁마산	-6284
▁IP	-6285
▁공전	-6286
▁귀환	-6287
▁하노	-6288
▁저기	-6289
트니	-6290
▁HIV	-6291
▁고조	-6292
▁측근	-6293
▁디오	-6294
▁보드	-6295
▁제네	-6296
▁중도	-6297
▁중독	-6298
▁여덟	-6299
▁수학자	-6300
▁애플리케이션	-6301
IT	-6302
▁친선	-6303
▁맥스	-6304
▁게이트	-6305
란트	-6306
▁로빈	-6307
▁스타크래프트	-6308
▁굉	-6309
▁권유	-6310
▁점유	-6311
▁히라	-6312
▁둘러싸이	-6313
▁거인	-6314
▁완화	-6315
▁샬	-6316
▁짙	-6317
▁젖	-6318
균관	-6319
▁연수	-6320
▁성벽	-6321
▁이에	-6322
어내	-6323
▁턴	-6324
▁마운	-6325
▁우즈	-6326
iv	-6327
▁차체	-6328
▁출구	-6329
▁형법	-6330
▁152	-6331
▁174	-6332
ock	-6333
▁경선	-6334
▁수산	-6335
▁오렌	-6336
▁서일본	-6337
▁시드니	-6338
▁테일러	-6339
▁5000	-6340
▁관습	-6341
▁소송법	-6342
악기	-6343
▁메디	-6344
▁미하	-6345
▁트윈	-6346
▁요미우리	-6347
운서	-6348
▁노동조합	-6349
▁서열	-6350
▁쇼핑	-6351
▁제의	-6352
토미	-6353
트롤	-6354
주곡	-6355
▁아나운서	-6356
▁피난	-6357
▁157	-6358
루미	-6359
▁플라스	-6360
▁옐	-6361
리티	-6362
▁련	-6363
▁밀양	-6364
▁정찰	-6365
▁지각	-6366
▁살아가	-6367
▁규격	-6368
▁세례	-6369
▁조용	-6370
ck	-6371
▁금성	-6372
▁사인	-6373
▁석탄	-6374
▁꼴	-6375
▁사명	-6376
▁장성	-6377
▁으	-6378
결승	-6379
▁구동	-6380
▁번뇌	-6381
▁존경	-6382
▁변동	-6383
▁좌표	-6384
ㄹㄲㅏ	-6385
▁검증	-6386
▁실용	-6387
▁전장	-6388
▁Ar	-6389
▁루수	-6390
▁한화	-6391
▁하버드	-6392
▁전문학교	-6393
▁한강	-6394
▁프로세스	-6395
▁준공	-6396
▁행진	-6397
▁수신	-6398
▁곁	-6399
▁신칸	-6400
▁뱅크	-6401
ㅓㄴ	-6402
▁백신	-6403
▁복소	-6404
▁뷔	-6405
▁전진	-6406
▁킨	-6407
▁책봉	-6408
▁카나	-6409
가루	-6410
▁염색	-6411
▁테오	-6412
문관	-6413
원숭이	-6414
▁청와	-6415
사기	-6416
츠키	-6417
▁고개	-6418
▁가즈	-6419
▁관현	-6420
▁빌헬	-6421
▁장인	-6422
▁신전	-6423
▁취약	-6424
폴리스	-6425
▁다이아	-6426
▁급진	-6427
▁미스터	-6428
▁j	-6429
▁여의	-6430
포스	-6431
▁구제	-6432
▁메가	-6433
▁이슈	-6434
▁청와대	-6435
▁인과	-6436
▁기울이	-6437
전자	-6438
▁힘쓰	-6439
▁자손	-6440
▁성균관	-6441
▁얼마나	-6442
산군	-6443
외선	-6444
카드	-6445
▁할당	-6446
니스트	-6447
▁디젤	-6448
▁국어	-6449
▁카시	-6450
▁퇴각	-6451
자와	-6452
▁소총	-6453
▁자율	-6454
▁MP	-6455
▁호평	-6456
끄럽	-6457
악단	-6458
▁연구자	-6459
▁뿔	-6460
▁식당	-6461
▁연루	-6462
▁통행	-6463
하르트	-6464
▁제휴	-6465
▁회수	-6466
▁상상	-6467
▁이순	-6468
▁105	-6469
▁박영	-6470
▁해전	-6471
▁146	-6472
트랙	-6473
▁소금	-6474
▁파스	-6475
▁쥬	-6476
▁해임	-6477
▁판매량	-6478
▁몰락	-6479
▁무효	-6480
▁적대	-6481
▁남인	-6482
▁125	-6483
▁승차	-6484
▁여수	-6485
▁1911	-6486
12	-6487
수수	-6488
▁따위	-6489
▁상류	-6490
▁남양	-6491
▁1500	-6492
혁명	-6493
▁이노	-6494
▁착공	-6495
▁히스	-6496
▁전두	-6497
▁아울러	-6498
ime	-6499
▁루터	-6500
▁신칸센	-6501
▁강사	-6502
▁김용	-6503
▁창업	-6504
▁서독	-6505
▁적히	-6506
▁외무	-6507
▁윌슨	-6508
▁흥행	-6509
▁응답	-6510
▁자책점	-6511
▁천문학	-6512
▁이복	-6513
▁패전	-6514
고속도로	-6515
▁쏟	-6516
▁나열	-6517
▁여래	-6518
▁달아나	-6519
▁프로토콜	-6520
▁관념	-6521
▁술탄	-6522
▁유출	-6523
▁3000	-6524
▁민국	-6525
▁소관	-6526
▁에티	-6527
▁두르	-6528
▁비극	-6529
▁소닉	-6530
▁153	-6531
▁쳐	-6532
메르	-6533
▁나미	-6534
▁석가	-6535
▁동남아시아	-6536
▁마찰	-6537
▁흩	-6538
▁지분	-6539
▁원나라	-6540
▁쇄	-6541
▁하마	-6542
▁휩	-6543
▁PS	-6544
▁디비	-6545
▁순천	-6546
▁두드	-6547
▁들리	-6548
▁매출	-6549
▁청사	-6550
▁소재지	-6551
▁시외버스	-6552
▁고원	-6553
▁문제점	-6554
▁얇	-6555
▁노드	-6556
▁사지	-6557
▁갈라지	-6558
▁끈	-6559
▁항공모	-6560
one	-6561
라트	-6562
▁과목	-6563
▁악마	-6564
▁우정	-6565
일드	-6566
제프	-6567
▁Le	-6568
▁믿음	-6569
▁카트	-6570
▁저기압	-6571
▁로고	-6572
▁마천	-6573
▁이이	-6574
▁저택	-6575
▁강수량	-6576
▁마오	-6577
서양	-6578
▁단원	-6579
▁성전	-6580
▁증후	-6581
▁충족	-6582
팩트	-6583
▁동위	-6584
▁희극	-6585
▁곳곳	-6586
▁일렉	-6587
▁매개	-6588
▁배구	-6589
▁ISO	-6590
▁예배	-6591
▁서서	-6592
▁유언	-6593
대군	-6594
▁조언	-6595
네이	-6596
▁아니하	-6597
▁아즈	-6598
▁지목	-6599
▁Pro	-6600
▁보잉	-6601
▁이글	-6602
▁미얀마	-6603
▁카자흐	-6604
▁중점	-6605
▁고베	-6606
▁폴리스	-6607
▁환원	-6608
▁103	-6609
▁매사	-6610
▁소지	-6611
▁내내	-6612
토시	-6613
▁공자	-6614
▁빌헬름	-6615
▁우주선	-6616
델피아	-6617
▁필라델피아	-6618
▁시립	-6619
▁연인	-6620
▁오클	-6621
▁떠오르	-6622
ML	-6623
▁개업	-6624
▁문재인	-6625
▁찾아보	-6626
▁중장	-6627
▁회계	-6628
▁MC	-6629
▁환상	-6630
▁비아	-6631
▁지지자	-6632
기니	-6633
▁선원	-6634
▁편곡	-6635
▁취재	-6636
▁클린	-6637
AP	-6638
▁주권	-6639
▁회견	-6640
▁출입구	-6641
▁고무	-6642
▁포장	-6643
▁힌두	-6644
즈카	-6645
▁겸임	-6646
▁기장	-6647
▁제트	-6648
노리	-6649
노프	-6650
▁성모	-6651
▁해역	-6652
▁각본가	-6653
▁매기	-6654
▁특유	-6655
▁굵	-6656
▁법령	-6657
펴보	-6658
▁천사	-6659
▁살펴보	-6660
▁155	-6661
▁참가자	-6662
▁나리	-6663
▁독립운동가	-6664
▁근접	-6665
▁눈물	-6666
▁비틀즈	-6667
▁삿	-6668
▁셈	-6669
OC	-6670
▁최적	-6671
시온	-6672
▁후자	-6673
▁공인	-6674
▁버튼	-6675
▁친척	-6676
▁오렌지	-6677
어리	-6678
▁사가	-6679
▁정치가	-6680
▁앞면	-6681
▁협동	-6682
▁주파수	-6683
마사	-6684
▁유해	-6685
▁카타	-6686
▁허브	-6687
▁각기	-6688
▁중종	-6689
▁터지	-6690
te	-6691
▁공략	-6692
▁보충	-6693
▁토리	-6694
▁증후군	-6695
▁밭	-6696
▁별개	-6697
▁일관	-6698
▁진리	-6699
▁추모	-6700
▁닭	-6701
받침	-6702
▁반격	-6703
▁점프	-6704
▁토크	-6705
▁별자리	-6706
▁이원	-6707
동물	-6708
리크	-6709
▁포수	-6710
▁북동부	-6711
▁게재	-6712
▁와인	-6713
▁회화	-6714
▁Bo	-6715
▁법무	-6716
▁항공모함	-6717
▁유격	-6718
▁108	-6719
▁리메	-6720
▁우편	-6721
▁인형	-6722
▁오키나	-6723
▁위장	-6724
▁성주	-6725
▁상자	-6726
▁나고	-6727
▁이바	-6728
산면	-6729
▁생일	-6730
▁Con	-6731
▁토요일	-6732
▁태우	-6733
▁평행	-6734
▁미소	-6735
▁빼앗기	-6736
▁두드러지	-6737
▁오디오	-6738
소스	-6739
▁트라이	-6740
▁격렬	-6741
▁동등	-6742
▁두산	-6743
▁사물	-6744
▁아바	-6745
▁사우디아	-6746
▁담배	-6747
▁민영	-6748
▁베르크	-6749
▁이어서	-6750
▁가라	-6751
▁개찰구	-6752
▁민사	-6753
▁실종	-6754
▁이인	-6755
▁테스	-6756
▁룰	-6757
▁영동	-6758
▁지우	-6759
▁하우	-6760
▁합법	-6761
산리	-6762
▁패스	-6763
플러	-6764
▁레전	-6765
▁서해	-6766
▁나고야	-6767
▁승무원	-6768
▁컨트롤	-6769
io	-6770
▁감지	-6771
▁유교	-6772
▁입상	-6773
ber	-6774
▁고체	-6775
▁상부	-6776
▁매력	-6777
▁외곽	-6778
▁인격	-6779
▁일찍이	-6780
때로	-6781
▁금액	-6782
▁미루	-6783
▁아군	-6784
▁야간	-6785
▁스파이	-6786
▁아리스	-6787
▁퍼시픽	-6788
▁준결승	-6789
▁교장	-6790
▁이영	-6791
베이터	-6792
▁드라이브	-6793
▁박탈	-6794
▁세균	-6795
▁건의	-6796
▁대답	-6797
▁브래	-6798
▁아케	-6799
▁에우	-6800
▁하인리히	-6801
▁IT	-6802
▁상장	-6803
▁자발	-6804
▁해운	-6805
▁이사장	-6806
▁앙리	-6807
▁화살	-6808
▁외국어	-6809
▁1909	-6810
가타	-6811
퍼니	-6812
▁전례	-6813
▁양상	-6814
▁일족	-6815
▁호세	-6816
▁생명체	-6817
▁에이스	-6818
상스	-6819
항공	-6820
▁스터	-6821
▁크리스마스	-6822
▁교단	-6823
▁채무	-6824
▁때때로	-6825
▁상대방	-6826
▁갓	-6827
▁내지	-6828
▁에디	-6829
▁트럼프	-6830
러미	-6831
▁서서히	-6832
▁시청자	-6833
▁128	-6834
화점	-6835
▁섞이	-6836
▁싸이	-6837
▁향교	-6838
▁149	-6839
▁사다	-6840
▁이슬람교	-6841
▁톈	-6842
▁보스니아	-6843
람회	-6844
▁캠페인	-6845
▁맵	-6846
▁102	-6847
▁꾀	-6848
모어	-6849
▁시라	-6850
▁연도	-6851
▁복장	-6852
▁부착	-6853
▁추격	-6854
▁콜라	-6855
▁대주교	-6856
▁명의	-6857
▁궁정	-6858
▁기금	-6859
▁히데요시	-6860
▁홍수	-6861
▁사용자	-6862
▁#	-6863
▁안장	-6864
▁건축가	-6865
▁고가	-6866
▁전도	-6867
라이트	-6868
▁메타	-6869
▁수성	-6870
▁트루	-6871
칠리아	-6872
▁제작자	-6873
age	-6874
▁호칭	-6875
▁그만두	-6876
▁얘	-6877
▁발원	-6878
▁후안	-6879
▁텍스트	-6880
▁사우디아라비아	-6881
구장	-6882
▁어드	-6883
트릭	-6884
▁아우구	-6885
▁차남	-6886
집합	-6887
▁배틀	-6888
▁최저	-6889
▁치세	-6890
▁트위	-6891
▁펼쳐지	-6892
백과	-6893
▁짜리	-6894
먼드	-6895
▁고발	-6896
▁남한	-6897
▁주지사	-6898
ge	-6899
▁집계	-6900
Pa	-6901
▁계절	-6902
▁발현	-6903
▁가르침	-6904
▁아미타	-6905
▁대외	-6906
▁여주	-6907
▁운동장	-6908
iz	-6909
▁셸	-6910
▁긴장	-6911
▁대군	-6912
▁물자	-6913
▁직책	-6914
▁자유당	-6915
▁슬라	-6916
▁전대	-6917
▁키프	-6918
▁무려	-6919
▁$	-6920
▁네이버	-6921
▁중국인	-6922
▁대니	-6923
▁원자로	-6924
라미	-6925
▁정밀	-6926
▁포도주	-6927
▁에스파냐	-6928
▁Bl	-6929
▁사이버	-6930
▁르네상스	-6931
▁쉐	-6932
▁다중	-6933
▁세미	-6934
▁시오	-6935
▁흘러	-6936
나리	-6937
▁섭취	-6938
▁레이저	-6939
창기	-6940
▁포괄	-6941
AD	-6942
▁룽	-6943
▁충주	-6944
▁조리	-6945
언스	-6946
▁향후	-6947
▁팔레스	-6948
▁고래	-6949
▁태생	-6950
▁김영삼	-6951
▁중재	-6952
▁CPU	-6953
▁청장	-6954
▁골프	-6955
▁여진	-6956
▁송나라	-6957
▁레전드	-6958
▁로프	-6959
▁보리	-6960
▁조반	-6961
▁존중	-6962
▁탐지	-6963
▁블루스	-6964
차례	-6965
▁단기	-6966
▁127	-6967
▁노란색	-6968
▁넓히	-6969
▁리오	-6970
▁왜성	-6971
▁강경	-6972
▁만세	-6973
▁문양	-6974
▁뽑히	-6975
▁147	-6976
▁수평	-6977
▁스릴	-6978
▁경부	-6979
▁그랑프리	-6980
▁댐	-6981
▁엘리베이터	-6982
▁토마	-6983
▁프랭크	-6984
▁팽창	-6985
▁손가락	-6986
▁최소한	-6987
▁기수	-6988
▁토스	-6989
▁피고	-6990
▁아미노	-6991
▁하이드	-6992
sp	-6993
▁며칠	-6994
▁수군	-6995
수엘라	-6996
▁1915	-6997
▁상세	-6998
생활	-6999
▁고사	-7000
▁볼리	-7001
▁턱	-7002
▁단점	-7003
노부	-7004
서리	-7005
▁메인	-7006
▁알코	-7007
▁역명	-7008
▁제곱	-7009
▁황해	-7010
▁로맨스	-7011
▁케네	-7012
▁난민	-7013
▁추증	-7014
orld	-7015
▁1913	-7016
울리	-7017
▁캄보	-7018
▁유소년	-7019
▁명목	-7020
▁사절	-7021
▁속성	-7022
행위	-7023
▁갑작	-7024
▁부천	-7025
▁딩	-7026
▁동독	-7027
▁분광	-7028
▁초연	-7029
▁겔	-7030
▁테니스	-7031
▁위키백과	-7032
▁동당	-7033
▁171	-7034
▁북구	-7035
ik	-7036
라리	-7037
▁굉장	-7038
▁라파	-7039
▁마비	-7040
▁숭배	-7041
▁전두환	-7042
▁오키나와	-7043
▁윌리엄스	-7044
▁방침	-7045
▁북방	-7046
▁입체	-7047
▁주축	-7048
▁후일	-7049
▁베네수엘라	-7050
창군	-7051
우라	-7052
▁동래	-7053
▁문학상	-7054
▁둘레	-7055
▁무죄	-7056
▁창건	-7057
▁유니폼	-7058
기지	-7059
▁전함	-7060
▁캐스팅	-7061
시티	-7062
▁광년	-7063
▁침몰	-7064
▁천문학자	-7065
▁강과	-7066
▁마하	-7067
▁심의	-7068
▁추상	-7069
▁타르	-7070
▁동년	-7071
▁협조	-7072
▁시그	-7073
▁출토	-7074
▁취지	-7075
▁태수	-7076
자치도	-7077
▁투르크	-7078
▁제주특별	-7079
▁제주특별자치도	-7080
▁센서	-7081
명사전	-7082
▁낙선	-7083
▁따뜻	-7084
▁부과	-7085
▁신흥	-7086
▁팜	-7087
▁개미	-7088
▁촉구	-7089
▁진군	-7090
▁창시	-7091
▁초창기	-7092
포구	-7093
▁상당수	-7094
▁김수	-7095
▁김재	-7096
▁컬러	-7097
▁이어받	-7098
▁낮추	-7099
▁대역	-7100
▁음원	-7101
▁대포	-7102
▁GT	-7103
▁서사	-7104
▁수렴	-7105
▁원고	-7106
두르	-7107
▁언제나	-7108
▁닿	-7109
▁옥스	-7110
▁원반	-7111
▁카탈	-7112
▁1895	-7113
▁스파르타	-7114
▁이민자	-7115
▁al	-7116
▁수령	-7117
▁코프	-7118
▁ㄱㅓㄴ	-7119
평군	-7120
▁객관	-7121
▁SP	-7122
▁병역	-7123
크리트	-7124
▁디스플레이	-7125
▁팔레스타인	-7126
▁통칭	-7127
▁남원	-7128
▁총선거	-7129
여지	-7130
▁CE	-7131
▁탈환	-7132
▁141	-7133
▁광부	-7134
▁리메이크	-7135
박쥐	-7136
▁어업	-7137
▁169	-7138
▁모스	-7139
▁바흐	-7140
▁재미	-7141
▁딴	-7142
▁프레스	-7143
▁나가사키	-7144
▁법제	-7145
▁아폴	-7146
네스코	-7147
MS	-7148
▁아사히	-7149
▁나주	-7150
▁링컨	-7151
▁머신	-7152
▁이틀	-7153
▁다운로드	-7154
▁울리	-7155
▁135	-7156
▁Tr	-7157
▁무제	-7158
▁비문	-7159
▁인재	-7160
▁총괄	-7161
▁언론인	-7162
공신	-7163
▁온천	-7164
▁유수	-7165
▁주차	-7166
▁수동	-7167
▁ㄹㅐ	-7168
▁북서부	-7169
무기	-7170
▁국사	-7171
▁내주	-7172
▁적자	-7173
▁하부	-7174
▁탤	-7175
포트	-7176
▁기습	-7177
▁풋볼	-7178
보기	-7179
▁동력	-7180
▁도호쿠	-7181
▁문화방송	-7182
석기	-7183
자스	-7184
▁김진	-7185
그라드	-7186
▁대처	-7187
▁수용소	-7188
▁자기장	-7189
벌레	-7190
ust	-7191
▁양주	-7192
▁계몽	-7193
▁소실	-7194
▁흩어지	-7195
▁엔지	-7196
▁이진	-7197
▁쓰러지	-7198
▁개관	-7199
▁서머	-7200
▁섭정	-7201
▁유연	-7202
▁종결	-7203
▁찾아내	-7204
▁144	-7205
▁귀중	-7206
▁어스	-7207
▁초상화	-7208
▁해병대	-7209
ep	-7210
▁때리	-7211
▁한동안	-7212
와라	-7213
▁더글	-7214
▁시공	-7215
▁후세	-7216
▁111	-7217
▁스핀	-7218
▁청원	-7219
▁걱	-7220
▁김포	-7221
▁영리	-7222
▁차기	-7223
▁대제	-7224
▁바실	-7225
▁신세	-7226
▁나르	-7227
▁효력	-7228
▁후대	-7229
▁신중	-7230
▁폐위	-7231
int	-7232
▁식별	-7233
▁풍경	-7234
선거	-7235
▁서울대	-7236
▁첨가	-7237
▁아레나	-7238
▁저명	-7239
▁평야	-7240
▁함유	-7241
▁컴퍼니	-7242
▁고백	-7243
▁장미	-7244
▁몰아내	-7245
▁번영	-7246
▁중순	-7247
▁스티브	-7248
▁ㄷㅡㄴㅈㅣ	-7249
▁정전	-7250
▁컬럼비아	-7251
▁공채	-7252
▁119	-7253
▁스릴러	-7254
▁연세대	-7255
▁정말	-7256
▁TH	-7257
▁조달	-7258
▁기요	-7259
▁인산	-7260
▁천도	-7261
▁면하	-7262
▁오빠	-7263
▁이광	-7264
▁휴식	-7265
▁캄보디아	-7266
▁큰	-7267
▁김태	-7268
▁끊임	-7269
▁제수	-7270
▁신학교	-7271
▁십자가	-7272
▁CO	-7273
▁반박	-7274
▁언더	-7275
GC	-7276
▁도스	-7277
▁두루	-7278
▁파업	-7279
트리올	-7280
▁리버풀	-7281
▁몬트리올	-7282
누엘	-7283
▁날짜	-7284
▁내외	-7285
▁별칭	-7286
▁아종	-7287
▁대위	-7288
▁요르	-7289
키지	-7290
▁It	-7291
▁정무	-7292
▁총사	-7293
▁룡	-7294
시로	-7295
▁친일인	-7296
▁케네디	-7297
▁친일인명사전	-7298
▁172	-7299
▁hPa	-7300
▁유네스코	-7301
EN	-7302
▁드럼	-7303
▁편리	-7304
ib	-7305
▁불편	-7306
▁삼진	-7307
▁중소	-7308
▁껍질	-7309
▁병조	-7310
▁평일	-7311
▁유니버	-7312
푸스	-7313
▁간호	-7314
▁매카	-7315
▁선구	-7316
▁이글스	-7317
▁묘역	-7318
▁애덤	-7319
▁충실	-7320
▁테레	-7321
▁106	-7322
▁무상	-7323
▁다니엘	-7324
▁니콜라	-7325
ome	-7326
▁관통	-7327
▁미주	-7328
▁바퀴	-7329
▁아벨	-7330
▁원내	-7331
▁아틀레	-7332
▁페르난	-7333
▁북위	-7334
▁신기	-7335
▁카리브	-7336
릴라	-7337
▁선종	-7338
▁소환	-7339
▁전성기	-7340
▁관람	-7341
▁교원	-7342
▁장안	-7343
▁신학자	-7344
ude	-7345
▁해수	-7346
▁사회학	-7347
▁우연히	-7348
▁덤	-7349
따르	-7350
▁공모	-7351
▁중량	-7352
▁꽤	-7353
그로	-7354
▁제갈	-7355
▁걱정	-7356
▁교양	-7357
▁WWE	-7358
스럽	-7359
▁위임	-7360
▁휴전	-7361
▁프랑수아	-7362
▁스페이스	-7363
▁당일	-7364
▁루시	-7365
▁명백	-7366
▁미즈	-7367
▁엔지니어	-7368
▁에스토	-7369
▁등재	-7370
▁콰	-7371
니치	-7372
▁슈트	-7373
▁총대	-7374
▁평하	-7375
ian	-7376
▁베드	-7377
▁아이슬	-7378
▁낱말	-7379
▁의상	-7380
케이션	-7381
▁승점	-7382
▁지폐	-7383
▁리어	-7384
▁초과	-7385
▁콘크리트	-7386
▁서남	-7387
세츠	-7388
▁김상	-7389
▁마츠	-7390
▁한성부	-7391
▁We	-7392
▁정렬	-7393
▁증진	-7394
내셔널	-7395
▁인터내셔널	-7396
▁마인	-7397
▁연패	-7398
▁지혜	-7399
▁충북	-7400
▁쇼트	-7401
▁표명	-7402
▁매사추	-7403
말라	-7404
ere	-7405
▁전압	-7406
▁대웅	-7407
▁방패	-7408
▁매사추세츠	-7409
선스	-7410
페르	-7411
▁소통	-7412
▁아이템	-7413
▁우라늄	-7414
▁공직	-7415
▁미토	-7416
▁생전	-7417
블로	-7418
▁평범	-7419
▁해변	-7420
▁아이슬란드	-7421
▁중추원	-7422
▁케이스	-7423
▁발트	-7424
▁세계관	-7425
▁책임자	-7426
ire	-7427
▁고수	-7428
▁장려	-7429
▁외교관	-7430
▁보완	-7431
▁우울	-7432
▁좌절	-7433
▁잦	-7434
▁단식	-7435
▁돌연	-7436
▁모방	-7437
▁상서	-7438
▁암석	-7439
▁도주	-7440
▁투르	-7441
▁황태자	-7442
▁멋	-7443
▁고민	-7444
▁나스	-7445
▁알아	-7446
주의자	-7447
유행	-7448
치오	-7449
▁공단	-7450
▁열대	-7451
루션	-7452
▁공의회	-7453
▁도라	-7454
▁일화	-7455
▁탱크	-7456
▁퍼센트	-7457
라이더	-7458
▁훔	-7459
▁치열	-7460
ment	-7461
▁스페인어	-7462
▁영남	-7463
▁에스토니아	-7464
▁그루	-7465
▁불명	-7466
▁일조	-7467
▁입지	-7468
실록	-7469
ace	-7470
▁역설	-7471
pe	-7472
▁구이	-7473
▁바리	-7474
▁양도	-7475
▁영장	-7476
▁호프	-7477
▁요하	-7478
▁호위	-7479
▁다치	-7480
▁도루	-7481
▁진짜	-7482
▁레바	-7483
▁라이선스	-7484
▁부채	-7485
▁실전	-7486
▁평택	-7487
▁시흥	-7488
▁신속	-7489
▁교외	-7490
▁배신	-7491
▁통근	-7492
야시	-7493
▁합창	-7494
▁닝	-7495
ide	-7496
▁김기	-7497
▁로열	-7498
▁오사	-7499
▁쿤	-7500
▁기어	-7501
▁조이	-7502
▁물리학자	-7503
▁대전광역시	-7504
▁고령	-7505
▁오비	-7506
석탑	-7507
▁친왕	-7508
▁포격	-7509
▁소유자	-7510
▁시나리오	-7511
▁푼	-7512
마드	-7513
▁업계	-7514
▁중심부	-7515
▁괴롭	-7516
▁장난	-7517
층석탑	-7518
▁리비아	-7519
리케인	-7520
바이잔	-7521
▁내려지	-7522
▁148	-7523
▁도르	-7524
▁서정	-7525
▁애틀	-7526
▁HT	-7527
▁마약	-7528
▁봉쇄	-7529
▁창고	-7530
▁치즈	-7531
▁허리케인	-7532
▁횟	-7533
▁친하	-7534
▁에버	-7535
▁136	-7536
▁할리우드	-7537
▁육지	-7538
오피아	-7539
▁에티오피아	-7540
▁견디	-7541
▁닛폰	-7542
▁인연	-7543
▁현금	-7544
▁아제르	-7545
▁사슬	-7546
▁상담	-7547
▁오노	-7548
▁1916	-7549
▁슬로바키아	-7550
▁끓	-7551
제리	-7552
▁기인	-7553
▁부재	-7554
▁시선	-7555
▁신생	-7556
▁오세	-7557
▁지능	-7558
▁전라도	-7559
▁협주곡	-7560
▁카이사르	-7561
▁밟	-7562
▁마이너	-7563
▁네이션스	-7564
▁덮이	-7565
지리아	-7566
▁나이지리아	-7567
▁아제르바이잔	-7568
위원	-7569
▁서재	-7570
▁성운	-7571
▁파장	-7572
▁그로	-7573
▁즈음	-7574
▁가로지르	-7575
▁스튜어트	-7576
▁격투	-7577
▁여지	-7578
▁IBM	-7579
▁파이어	-7580
IM	-7581
▁TO	-7582
중국	-7583
▁순회	-7584
▁다항	-7585
▁탈당	-7586
▁극동	-7587
▁동이	-7588
▁명제	-7589
▁조연	-7590
▁NBA	-7591
▁실시간	-7592
▁갈리	-7593
▁아드	-7594
▁산림	-7595
▁의뢰	-7596
▁입당	-7597
▁작센	-7598
▁이사회	-7599
아이	-7600
▁위탁	-7601
▁항소	-7602
▁추출	-7603
▁동상	-7604
▁병행	-7605
▁어쩌	-7606
람쥐	-7607
▁해소	-7608
바다	-7609
▁바닷	-7610
▁바스	-7611
▁특집	-7612
▁노부나가	-7613
의자	-7614
▁구릉	-7615
▁막내	-7616
▁배터리	-7617
▁기단	-7618
▁추세	-7619
▁솜	-7620
▁호기	-7621
▁흘리	-7622
▁원숭이	-7623
▁앓	-7624
시피	-7625
▁약칭	-7626
▁라이언	-7627
▁브라우저	-7628
▁DC	-7629
▁낭만	-7630
▁부적	-7631
▁시초	-7632
▁안성	-7633
▁의약	-7634
▁하락	-7635
▁결혼식	-7636
▁쌍둥이	-7637
▁패키지	-7638
▁지류	-7639
cl	-7640
▁데이비스	-7641
▁닷	-7642
▁니아	-7643
▁한스	-7644
▁138	-7645
▁리틀	-7646
▁중위	-7647
▁평원	-7648
▁허리	-7649
▁급격히	-7650
▁국무총리	-7651
▁실장	-7652
▁알아내	-7653
▁ㄷㅚ	-7654
▁구도	-7655
▁전념	-7656
▁워드	-7657
▁페르디	-7658
▁구호	-7659
▁해밀	-7660
타로	-7661
▁격퇴	-7662
▁사헌	-7663
하면	-7664
▁반감	-7665
▁유동	-7666
▁리우스	-7667
▁아마도	-7668
▁가동	-7669
▁차종	-7670
▁분당	-7671
▁시즈	-7672
▁솟	-7673
▁la	-7674
▁거제	-7675
▁되게	-7676
▁면허	-7677
▁얘기	-7678
▁후쿠시마	-7679
▁지선	-7680
▁객체	-7681
▁백색	-7682
▁우루과이	-7683
▁경연	-7684
▁섬기	-7685
▁이세	-7686
▁백화점	-7687
▁딕	-7688
파르	-7689
▁개그	-7690
▁거론	-7691
▁고성	-7692
▁포터	-7693
나오	-7694
승지	-7695
▁저하	-7696
▁현종	-7697
▁구조물	-7698
▁첼시	-7699
여래	-7700
▁라이브러리	-7701
▁바이오	-7702
▁결선	-7703
▁수습	-7704
타나	-7705
▁라트비아	-7706
▁시칠리아	-7707
▁뭉	-7708
▁박해	-7709
▁복선	-7710
▁상공	-7711
▁안기	-7712
▁토성	-7713
래스카	-7714
▁360	-7715
▁영의정	-7716
▁중성자	-7717
▁최상위	-7718
▁레논	-7719
▁주행	-7720
▁회고	-7721
곡리	-7722
▁세션	-7723
▁신규	-7724
▁치명	-7725
▁도미	-7726
▁익히	-7727
▁104	-7728
마쓰	-7729
▁아부	-7730
▁우세	-7731
▁재위	-7732
▁탐구	-7733
대신	-7734
▁가면	-7735
▁냉각	-7736
▁돌려	-7737
▁춘천	-7738
▁사헌부	-7739
▁En	-7740
▁고소	-7741
▁오바	-7742
▁오피스	-7743
거지	-7744
▁그램	-7745
▁어울리	-7746
▁릉	-7747
▁감리	-7748
▁깨달	-7749
▁신탁	-7750
토모	-7751
▁거행	-7752
▁임용	-7753
▁트래	-7754
▁랄	-7755
ark	-7756
▁극히	-7757
▁피에	-7758
▁어휘	-7759
▁비시	-7760
▁한쪽	-7761
▁혈통	-7762
▁모니터	-7763
▁애틀랜	-7764
▁LP	-7765
▁도장	-7766
▁송시	-7767
▁춘추	-7768
▁109	-7769
리에	-7770
양함	-7771
하시	-7772
▁목판	-7773
▁장학	-7774
▁반도체	-7775
▁테이블	-7776
브레	-7777
▁주가	-7778
▁개원	-7779
▁성체	-7780
▁신한	-7781
▁게르만	-7782
회장	-7783
▁생식	-7784
▁제독	-7785
▁차장	-7786
▁택시	-7787
▁펌	-7788
은색	-7789
▁나비	-7790
▁성숙	-7791
ㅇㅗ	-7792
▁고인	-7793
▁돌보	-7794
▁코무네	-7795
▁Pr	-7796
▁스톡	-7797
▁주름	-7798
▁횟수	-7799
▁123	-7800
데시	-7801
▁잔류	-7802
▁행적	-7803
베르토	-7804
▁스트레스	-7805
▁이케	-7806
▁해적	-7807
▁대학생	-7808
▁혀	-7809
고쿠	-7810
▁칼라	-7811
▁ㅅㅗ	-7812
▁공수	-7813
▁외치	-7814
▁최악	-7815
▁환영	-7816
▁교황청	-7817
리니	-7818
▁데모	-7819
▁민회	-7820
▁비리	-7821
▁소매	-7822
▁후방	-7823
어버리	-7824
▁방송사	-7825
▁뢰	-7826
▁명령어	-7827
▁가짜	-7828
▁바나	-7829
▁반경	-7830
▁재현	-7831
▁그날	-7832
▁정점	-7833
▁대표작	-7834
▁옴	-7835
▁축하	-7836
▁펜실	-7837
▁휴스턴	-7838
베이니아	-7839
▁펜실베이니아	-7840
더슨	-7841
헤이	-7842
▁아홉	-7843
▁별다르	-7844
▁하워드	-7845
▁AK	-7846
▁루프	-7847
▁종로구	-7848
▁올바르	-7849
▁햇	-7850
포드	-7851
▁연하	-7852
▁우위	-7853
▁통증	-7854
▁폭동	-7855
푸르트	-7856
▁143	-7857
▁매입	-7858
▁분기점	-7859
▁타이거즈	-7860
▁너비	-7861
▁ㄹㅏㄹ	-7862
▁카자흐스탄	-7863
▁광물	-7864
▁인플	-7865
▁적당	-7866
▁공산주의자	-7867
▁AR	-7868
▁억압	-7869
▁헐	-7870
타고	-7871
▁부당	-7872
▁연합회	-7873
▁NC	-7874
▁수련	-7875
▁경관	-7876
▁성취	-7877
▁시바	-7878
▁아담	-7879
▁터치	-7880
란히	-7881
바시	-7882
▁견제	-7883
▁노바	-7884
▁사모	-7885
▁순교	-7886
▁신조	-7887
랜트	-7888
법인	-7889
▁다발	-7890
▁상점	-7891
▁분비	-7892
▁청춘	-7893
▁고장	-7894
▁베스	-7895
▁산란	-7896
▁이화	-7897
▁주역	-7898
AL	-7899
▁CS	-7900
▁동점	-7901
▁왜냐	-7902
▁히메	-7903
▁부르크	-7904
은이	-7905
▁리우	-7906
▁마야	-7907
글리	-7908
▁이식	-7909
▁출처	-7910
▁힘입	-7911
▁col	-7912
▁호랑이	-7913
▁상단	-7914
▁신주	-7915
▁열정	-7916
▁축적	-7917
▁컴파	-7918
▁한인	-7919
산동	-7920
차기	-7921
▁박람회	-7922
▁염기	-7923
▁야구장	-7924
▁팡	-7925
▁동아일보	-7926
▁비자	-7927
▁팔라	-7928
ile	-7929
▁벌금	-7930
▁여당	-7931
▁돋	-7932
▁롤링	-7933
▁성사	-7934
▁육체	-7935
▁토모	-7936
▁통영	-7937
▁남동부	-7938
▁CC	-7939
▁관구	-7940
▁유한	-7941
▁피츠	-7942
▁현저	-7943
▁블라디미르	-7944
▁플라이	-7945
▁누이	-7946
▁자민	-7947
▁제하	-7948
▁처녀	-7949
러스트	-7950
▁근교	-7951
▁에미	-7952
▁존속	-7953
▁펑크	-7954
▁목재	-7955
▁응원	-7956
▁알코올	-7957
브리지	-7958
▁유로파	-7959
▁음료	-7960
▁태양계	-7961
▁래퍼	-7962
스틴	-7963
▁설탕	-7964
▁블로그	-7965
▁룬	-7966
▁적분	-7967
ies	-7968
▁상용	-7969
▁암시	-7970
▁제프	-7971
▁경상도	-7972
▁차이점	-7973
▁Op	-7974
▁소나타	-7975
▁왓	-7976
▁기적	-7977
▁부설	-7978
▁티스	-7979
▁김경	-7980
▁법조	-7981
▁상반	-7982
▁오해	-7983
▁친일파	-7984
▁갈라	-7985
▁비싸	-7986
면체	-7987
▁나트	-7988
▁시골	-7989
▁CON	-7990
▁다이아몬드	-7991
▁주주	-7992
xt	-7993
비나	-7994
▁생산량	-7995
▁조선일보	-7996
라클	-7997
▁보석	-7998
▁사육	-7999
▁다녀	-8000
▁휠	-8001
살이	-8002
▁가죽	-8003
▁운하	-8004
▁충전	-8005
▁폭행	-8006
▁라오스	-8007
▁이에야스	-8008
▁말라	-8009
▁광학	-8010
▁신념	-8011
▁이윤	-8012
▁중의원	-8013
기업	-8014
▁국소	-8015
▁아예	-8016
▁이타	-8017
▁카롤	-8018
▁황실	-8019
▁경찰청	-8020
▁히사	-8021
▁RNA	-8022
▁지르	-8023
▁킥	-8024
▁계시	-8025
▁해명	-8026
▁107	-8027
▁112	-8028
▁베어스	-8029
▁어원	-8030
▁유죄	-8031
▁그동안	-8032
▁키프로스	-8033
▁만남	-8034
▁브라더스	-8035
도리	-8036
▁공관	-8037
▁단단	-8038
▁합하	-8039
▁가군	-8040
▁거칠	-8041
▁공익	-8042
▁규범	-8043
▁누나	-8044
▁빨간	-8045
▁내보내	-8046
▁사업자	-8047
▁아랍어	-8048
▁is	-8049
▁우유	-8050
▁구축함	-8051
▁루이지	-8052
▁삼층석탑	-8053
▁놀랍	-8054
▁동국	-8055
▁미르	-8056
▁후사	-8057
▁흠	-8058
▁옆면	-8059
▁시베리아	-8060
▁다투	-8061
▁레일	-8062
▁이산화	-8063
▁장거리	-8064
▁창원시	-8065
▁성단	-8066
▁상사	-8067
▁126	-8068
▁우승자	-8069
▁트윈스	-8070
ite	-8071
▁공습	-8072
▁신민	-8073
▁언니	-8074
▁사우루스	-8075
랑카	-8076
▁부제	-8077
▁이순신	-8078
▁탐사선	-8079
▁Te	-8080
▁당주	-8081
▁비유	-8082
▁시어	-8083
▁117	-8084
▁대웅전	-8085
▁무지	-8086
▁증대	-8087
▁줄무늬	-8088
ft	-8089
▁거북	-8090
도바	-8091
▁맥주	-8092
▁소셜	-8093
지붕	-8094
▁트위터	-8095
고래	-8096
▁수법	-8097
▁조종사	-8098
▁도마뱀붙이	-8099
▁품종	-8100
▁플러스	-8101
▁맥락	-8102
▁신선	-8103
▁송시열	-8104
▁동문	-8105
▁갇	-8106
▁연쇄	-8107
스부르크	-8108
권자	-8109
레기	-8110
▁헤비	-8111
▁카를로스	-8112
갈색	-8113
▁범인	-8114
▁핸드	-8115
▁평의회	-8116
수리	-8117
▁드로	-8118
▁여파	-8119
▁조세	-8120
▁천장	-8121
▁SE	-8122
▁교정	-8123
▁퐁	-8124
▁네스	-8125
▁발해	-8126
나스	-8127
▁이경	-8128
▁지평	-8129
▁확신	-8130
▁할머니	-8131
▁구출	-8132
▁교과서	-8133
▁왜냐하면	-8134
▁포럼	-8135
▁아카데미상	-8136
▁깨닫	-8137
▁입원	-8138
▁인체	-8139
▁제재	-8140
▁풀리	-8141
▁고속도	-8142
▁희생자	-8143
▁왜곡	-8144
▁경보	-8145
▁허위	-8146
▁실체	-8147
▁인문	-8148
▁협박	-8149
▁화장실	-8150
▁빈곤	-8151
▁진급	-8152
▁피우	-8153
▁com	-8154
조부	-8155
▁근원	-8156
▁굉장히	-8157
▁법무부	-8158
▁양키스	-8159
ath	-8160
▁곡인	-8161
▁121	-8162
▁137	-8163
▁빨간색	-8164
▁삼성전자	-8165
▁뉘	-8166
의장	-8167
▁날씨	-8168
▁350	-8169
▁가마쿠라	-8170
▁신약	-8171
▁펠리	-8172
▁173	-8173
▁전자기	-8174
OL	-8175
▁갇히	-8176
▁다지	-8177
▁대폭	-8178
▁비르	-8179
▁세라	-8180
▁소원	-8181
▁임하	-8182
▁탐색	-8183
▁통틀	-8184
ound	-8185
▁필리프	-8186
▁킴	-8187
▁몰래	-8188
▁이브	-8189
▁요동	-8190
▁제니	-8191
▁진하	-8192
▁CF	-8193
▁제대	-8194
▁필터	-8195
▁후궁	-8196
▁일반인	-8197
▁주이	-8198
▁꾀하	-8199
▁샘플	-8200
ond	-8201
게이머	-8202
▁프로게이머	-8203
다지	-8204
시타	-8205
▁1894	-8206
무스	-8207
▁ㄴㅗ	-8208
▁왕복	-8209
▁바오로	-8210
마루	-8211
▁가축	-8212
▁워터	-8213
▁연합국	-8214
연합	-8215
ory	-8216
▁방화	-8217
끼리	-8218
▁113	-8219
▁라이너	-8220
▁헥	-8221
▁마디	-8222
▁문예	-8223
▁우호	-8224
베니아	-8225
▁개교	-8226
▁물려받	-8227
▁가장자리	-8228
수소	-8229
▁믹스	-8230
▁일방	-8231
▁태권	-8232
▁포병	-8233
▁크리스토퍼	-8234
▁땃	-8235
승부	-8236
▁줄리	-8237
▁대의원	-8238
▁테이프	-8239
▁클라우드	-8240
▁수용체	-8241
대기	-8242
▁레온	-8243
▁아야	-8244
▁지미	-8245
▁진공	-8246
▁핵무기	-8247
ov	-8248
▁거울	-8249
▁근로자	-8250
▁슬로베니아	-8251
▁냄	-8252
▁맘	-8253
▁다크	-8254
▁미션	-8255
▁해고	-8256
▁브로드	-8257
▁총독부	-8258
▁엿	-8259
▁둥지	-8260
▁불타	-8261
▁성별	-8262
▁투옥	-8263
man	-8264
▁수색	-8265
▁양측	-8266
번스	-8267
▁뒷면	-8268
▁문구	-8269
▁보증	-8270
▁코스타	-8271
▁궁극	-8272
▁승계	-8273
▁낫	-8274
단체	-8275
▁결함	-8276
▁공민	-8277
▁드레	-8278
▁알제리	-8279
그레이드	-8280
▁계정	-8281
▁일가	-8282
▁택하	-8283
로이	-8284
▁바우	-8285
▁적도	-8286
▁캐시	-8287
그리	-8288
▁농림	-8289
▁업그레이드	-8290
아키	-8291
▁무어	-8292
▁용병	-8293
▁유년	-8294
▁자아	-8295
▁바티칸	-8296
▁z	-8297
▁로이	-8298
▁하동	-8299
▁124	-8300
규모	-8301
▁강서	-8302
▁대피	-8303
▁서민	-8304
▁철회	-8305
iver	-8306
▁붐	-8307
▁".	-8308
▁On	-8309
▁몬스터	-8310
톨레	-8311
▁뒤집	-8312
▁제인	-8313
▁치안	-8314
아프리카	-8315
퍼런스	-8316
▁게스트	-8317
▁관음	-8318
▁군정	-8319
▁놓치	-8320
▁만일	-8321
▁게이지	-8322
▁be	-8323
▁독일인	-8324
▁탤런트	-8325
▁극심	-8326
▁신시	-8327
▁최강	-8328
▁판본	-8329
▁도미니	-8330
▁자연수	-8331
▁LC	-8332
▁횡단	-8333
ㄷㅡㄴ	-8334
▁시뮬	-8335
▁칭찬	-8336
▁화해	-8337
▁가져가	-8338
셰비	-8339
▁IM	-8340
▁먼지	-8341
▁비추	-8342
▁상표	-8343
▁명하	-8344
▁성도	-8345
▁서진	-8346
대원군	-8347
▁륙	-8348
박스	-8349
▁공방	-8350
▁세속	-8351
▁즉각	-8352
로니	-8353
▁공백	-8354
▁김현	-8355
▁서초	-8356
▁World	-8357
▁카카	-8358
▁국내외	-8359
mer	-8360
▁체크	-8361
▁초록	-8362
▁멜로디	-8363
▁혈관	-8364
▁고고학	-8365
▁야마토	-8366
▁쑤	-8367
▁공천	-8368
▁모친	-8369
▁피오	-8370
▁김정일	-8371
▁남서부	-8372
▁최대한	-8373
린스	-8374
▁가루	-8375
▁성문	-8376
▁CR	-8377
▁SU	-8378
▁개종	-8379
▁디렉	-8380
▁베네딕	-8381
▁구절	-8382
▁로우	-8383
▁스캔	-8384
▁영산	-8385
▁커뮤니케이션	-8386
블리	-8387
▁양호	-8388
▁풍자	-8389
크라	-8390
ich	-8391
▁감자	-8392
▁내정	-8393
▁학계	-8394
▁New	-8395
▁브리지	-8396
▁윤치호	-8397
▁1890	-8398
줄기	-8399
▁그냥	-8400
▁넘치	-8401
▁두껍	-8402
▁러시	-8403
▁타당	-8404
드르	-8405
▁그대	-8406
▁닫히	-8407
▁데르	-8408
▁야쿠	-8409
▁일생	-8410
▁항쟁	-8411
▁오리콘	-8412
▁프랑크푸르트	-8413
축구	-8414
▁땃쥐	-8415
▁아랫	-8416
▁우파	-8417
▁곤란	-8418
▁욕구	-8419
▁유저	-8420
▁제치	-8421
▁조부	-8422
프레스	-8423
▁114	-8424
▁기업인	-8425
▁결코	-8426
▁김규	-8427
▁원전	-8428
▁선비	-8429
▁검찰청	-8430
▁돌격	-8431
▁베니	-8432
▁평정	-8433
▁맑	-8434
▁대명	-8435
▁자오	-8436
▁라이온즈	-8437
▁미노	-8438
▁시위대	-8439
▁이소	-8440
▁정주	-8441
▁증손	-8442
▁초월	-8443
▁므	-8444
▁이거	-8445
▁ㄷㅣ	-8446
▁발리	-8447
▁배후	-8448
▁어미	-8449
▁자비	-8450
▁자선	-8451
▁구스타	-8452
▁다녀오	-8453
▁소규모	-8454
▁부딪	-8455
타리오	-8456
▁안토니오	-8457
▁자음	-8458
▁이준	-8459
▁일리노	-8460
IP	-8461
렉스	-8462
ial	-8463
▁EC	-8464
▁과반	-8465
▁기질	-8466
▁118	-8467
▁드라이버	-8468
▁악단	-8469
▁히어로즈	-8470
▁어긋	-8471
▁이드	-8472
▁제압	-8473
▁침투	-8474
▁일리노이	-8475
▁정세	-8476
▁학명	-8477
▁파이널	-8478
러드	-8479
▁냉전	-8480
▁미키	-8481
▁옵션	-8482
▁자택	-8483
▁떨치	-8484
▁블랙홀	-8485
▁오프닝	-8486
▁Sc	-8487
▁도청	-8488
ign	-8489
▁만료	-8490
▁서자	-8491
▁프로덕	-8492
▁플래시	-8493
▁디비시온	-8494
▁관세	-8495
▁스칼	-8496
▁종착	-8497
▁알아보	-8498
▁깎	-8499
▁구와	-8500
▁이남	-8501
▁하르	-8502
▁가드	-8503
▁시정	-8504
▁체스	-8505
▁체조	-8506
▁다가오	-8507
▁알루미	-8508
▁파란색	-8509
▁예조	-8510
▁요정	-8511
▁극장판	-8512
▁미하일	-8513
▁1898	-8514
황후	-8515
▁예시	-8516
▁지침	-8517
▁사상자	-8518
▁진사	-8519
hn	-8520
▁크리스티안	-8521
▁주부	-8522
▁경신	-8523
▁태극	-8524
▁115	-8525
▁경찰관	-8526
▁대부	-8527
닐라	-8528
▁빛나	-8529
▁지인	-8530
▁반지름	-8531
▁방사선	-8532
▁분명히	-8533
▁우즈베	-8534
▁ㅇㅡㄹㅈㅣ	-8535
▁벵	-8536
▁대거	-8537
▁모로코	-8538
▁풀려나	-8539
▁연이	-8540
▁저널	-8541
▁커널	-8542
▁헬리	-8543
저지	-8544
히코	-8545
▁봉안	-8546
▁순조	-8547
▁용이	-8548
▁인명	-8549
▁재상	-8550
고스	-8551
▁괴물	-8552
▁남구	-8553
▁계열사	-8554
▁로그	-8555
▁말씀	-8556
▁징계	-8557
▁레바논	-8558
▁트로이	-8559
▁컷	-8560
▁봉건	-8561
▁챌린지	-8562
▁갑작스럽	-8563
▁SD	-8564
▁연승	-8565
▁통치자	-8566
지스	-8567
▁우측	-8568
▁키르	-8569
▁웨스턴	-8570
▁빔	-8571
ㄹㅣ	-8572
교도	-8573
▁패럴	-8574
▁희귀	-8575
▁세이브	-8576
▁외야수	-8577
▁ㅋㅔ	-8578
▁카우	-8579
▁헬기	-8580
▁매니저	-8581
기념	-8582
▁GS	-8583
▁축출	-8584
▁시가지	-8585
▁원로원	-8586
하루	-8587
▁범유행	-8588
▁성리학	-8589
▁승부차기	-8590
벨트	-8591
조건	-8592
보르	-8593
아먹	-8594
▁JT	-8595
▁두려	-8596
▁센티	-8597
▁케냐	-8598
▁웹툰	-8599
▁중형	-8600
▁GP	-8601
▁가옥	-8602
▁변이	-8603
▁뉴저지	-8604
▁남미	-8605
▁선도	-8606
타니	-8607
▁극작	-8608
▁동정	-8609
▁본국	-8610
▁필사	-8611
▁비로소	-8612
▁모나	-8613
▁취업	-8614
▁129	-8615
▁공조	-8616
▁매매	-8617
▁무성	-8618
▁정변	-8619
▁켈리	-8620
▁무승부	-8621
▁렐	-8622
부리	-8623
▁비기	-8624
▁소모	-8625
▁혜택	-8626
▁앵글	-8627
▁왕세	-8628
▁핑크	-8629
마이오스	-8630
▁맏	-8631
▁뉴턴	-8632
▁사위	-8633
▁전년	-8634
rom	-8635
▁외모	-8636
▁광해군	-8637
▁ㅌ	-8638
개미	-8639
타리	-8640
▁기증	-8641
▁쫓겨나	-8642
▁캔자스	-8643
▁글루	-8644
▁코카	-8645
▁통보	-8646
▁믹	-8647
▁부스	-8648
▁비주	-8649
▁캉	-8650
▁천하	-8651
▁`	-8652
▁의약품	-8653
▁젊은이	-8654
▁재혼	-8655
▁하프	-8656
▁체코슬로	-8657
▁체코슬로바키아	-8658
▁뭐	-8659
▁쯔	-8660
미사	-8661
▁러셀	-8662
▁직면	-8663
▁컨셉	-8664
▁쾌속	-8665
▁폭넓	-8666
▁마운트	-8667
▁벨라루스	-8668
▁공감	-8669
▁밀집	-8670
▁숙청	-8671
▁개막전	-8672
▁맥도	-8673
▁미세	-8674
▁예하	-8675
▁중산	-8676
▁괘	-8677
문트	-8678
▁답변	-8679
▁승자	-8680
▁한족	-8681
▁호출	-8682
▁기각	-8683
▁바빌	-8684
▁첨단	-8685
▁황족	-8686
▁스크립	-8687
방송공사	-8688
▁스타리그	-8689
▁닦	-8690
▁말미	-8691
▁학업	-8692
▁퉁	-8693
▁발급	-8694
▁회관	-8695
▁총사령	-8696
▁럼	-8697
바닥	-8698
▁Ne	-8699
▁III	-8700
▁스트리	-8701
▁군중	-8702
▁밝기	-8703
쟁이	-8704
▁빌라	-8705
▁퇴임	-8706
▁천문대	-8707
▁로비	-8708
▁종속	-8709
▁벽돌	-8710
▁그레고	-8711
▁조지프	-8712
ph	-8713
레타	-8714
▁1899	-8715
천리	-8716
▁리뷰	-8717
▁부피	-8718
▁척추	-8719
▁카디	-8720
▁월요일	-8721
우트	-8722
▁알루미늄	-8723
▁무명	-8724
▁오오	-8725
▁유라	-8726
▁케빈	-8727
▁142	-8728
▁장례식	-8729
▁ㅇㅡㄴㄷㅔ	-8730
▁남작	-8731
TS	-8732
▁폭포	-8733
▁레슬링	-8734
▁연예인	-8735
▁생체	-8736
▁응시	-8737
▁케임	-8738
▁터뜨리	-8739
▁옳	-8740
▁뇌물	-8741
▁양반	-8742
▁어른	-8743
▁대변인	-8744
▁일컬	-8745
▁임원	-8746
▁부여받	-8747
▁청주시	-8748
테르부르크	-8749
▁웬	-8750
진군	-8751
화물	-8752
▁사쿠라	-8753
먼스	-8754
urn	-8755
▁감싸	-8756
▁기차	-8757
▁옹립	-8758
▁요건	-8759
▁천재	-8760
▁총칭	-8761
▁토끼	-8762
ㄷㅓㄴ	-8763
▁어긋나	-8764
롤라이나	-8765
▁끌어들이	-8766
슬러	-8767
▁각도	-8768
▁관제	-8769
▁난징	-8770
▁창출	-8771
▁토미	-8772
▁화력	-8773
▁세이부	-8774
▁룩셈	-8775
▁중공	-8776
▁축물	-8777
느러미	-8778
▁더글러스	-8779
▁프로덕션	-8780
▁설화	-8781
▁토양	-8782
▁브리튼	-8783
▁룩셈부르크	-8784
▁콕	-8785
코딩	-8786
포로	-8787
함수	-8788
▁소생	-8789
▁예고	-8790
▁재선	-8791
▁마르티	-8792
ction	-8793
▁무함	-8794
▁배수	-8795
▁사본	-8796
▁워너	-8797
▁워크	-8798
▁정려	-8799
▁타임스	-8800
▁자크	-8801
▁스즈키	-8802
▁두려워하	-8803
수록	-8804
▁유방	-8805
▁하얗	-8806
▁구경	-8807
▁전속	-8808
▁파산	-8809
▁대서양	-8810
▁온타리오	-8811
▁플라스틱	-8812
로우	-8813
틱스	-8814
▁사간	-8815
▁학기	-8816
시즘	-8817
▁CJ	-8818
▁오크	-8819
셰비키	-8820
▁광주광역시	-8821
브르	-8822
▁넘어서	-8823
▁부의장	-8824
럴드	-8825
▁미들	-8826
▁발병	-8827
▁거래소	-8828
▁프란츠	-8829
▁1902	-8830
▁ch	-8831
▁기술자	-8832
▁얹	-8833
도스	-8834
토르	-8835
▁실망	-8836
▁리프	-8837
▁저주	-8838
▁금요일	-8839
▁시범	-8840
▁뒷받침	-8841
MA	-8842
ens	-8843
▁ID	-8844
▁종래	-8845
▁혼동	-8846
▁화상	-8847
▁연산자	-8848
▁신원	-8849
▁안테	-8850
▁유진	-8851
▁Man	-8852
pp	-8853
타주	-8854
▁대치	-8855
▁성폭	-8856
▁지옥	-8857
▁광둥	-8858
▁대패	-8859
▁명종	-8860
▁왼손	-8861
▁만성	-8862
▁도카이	-8863
▁감행	-8864
▁공적	-8865
▁독서	-8866
▁서신	-8867
▁대성당	-8868
▁키보드	-8869
▁확실히	-8870
▁힌두교	-8871
▁가야	-8872
▁연꽃	-8873
덩이	-8874
lan	-8875
▁니코	-8876
▁보위	-8877
▁피겨	-8878
▁플랫폼	-8879
▁동네	-8880
▁발기	-8881
▁기사단	-8882
▁거세	-8883
▁병기	-8884
▁중복	-8885
▁코시	-8886
▁화자	-8887
두리	-8888
▁의자	-8889
파이어	-8890
▁''	-8891
▁대손	-8892
▁우체	-8893
▁채소	-8894
▁그래미	-8895
▁잃어버리	-8896
치기	-8897
▁시코	-8898
▁지출	-8899
▁컴백	-8900
▁프톨레	-8901
▁프톨레마이오스	-8902
▁수분	-8903
▁위쪽	-8904
▁드림	-8905
▁스턴	-8906
▁운수	-8907
▁체류	-8908
▁탄도	-8909
▁비석	-8910
▁촉매	-8911
▁바깥쪽	-8912
샤바	-8913
▁감마	-8914
▁원종	-8915
▁지치	-8916
▁찌르	-8917
▁아리아	-8918
▁그릇	-8919
lic	-8920
▁원천	-8921
▁형조	-8922
▁교통국	-8923
▁게리	-8924
▁마녀	-8925
▁시가	-8926
▁피신	-8927
▁개소	-8928
▁붙잡히	-8929
▁국영	-8930
▁아돌프	-8931
▁설교	-8932
▁고양시	-8933
▁비행장	-8934
▁지식인	-8935
폴리	-8936
▁BS	-8937
▁대합	-8938
▁강변	-8939
▁희곡	-8940
▁소나무	-8941
글라	-8942
크로	-8943
▁사슴	-8944
▁영등	-8945
▁지켜	-8946
▁표적	-8947
국사	-8948
▁기니	-8949
▁포획	-8950
▁하단	-8951
▁깃발	-8952
▁마력	-8953
▁물품	-8954
▁버드	-8955
▁토착종	-8956
▁익스프레스	-8957
▁간선	-8958
▁생생	-8959
▁정성	-8960
TC	-8961
▁밍	-8962
▁가환	-8963
▁선배	-8964
▁습지	-8965
▁외관	-8966
▁참의	-8967
▁페르디난	-8968
▁춥	-8969
▁김지	-8970
▁동학	-8971
▁스폰	-8972
▁마스크	-8973
TA	-8974
▁영문	-8975
▁유체	-8976
▁해밀턴	-8977
ary	-8978
▁단축	-8979
▁코끼리	-8980
▁포켓몬스터	-8981
▁아산	-8982
▁정적	-8983
▁주조	-8984
▁경성부	-8985
▁코믹스	-8986
▁흔들리	-8987
▁뛰어	-8988
▁서류	-8989
▁강동	-8990
▁벨트	-8991
▁세비	-8992
▁울프	-8993
▁부회장	-8994
▁사이토	-8995
▁호르몬	-8996
▁러시아어	-8997
▁단절	-8998
▁직결	-8999
▁얽	-9000
▁나노	-9001
▁등기	-9002
▁서리	-9003
▁스위치	-9004
▁몫	-9005
구르	-9006
히토	-9007
▁광명	-9008
▁브뤼	-9009
▁압둘	-9010
▁화강	-9011
▁갈수록	-9012
▁아이오	-9013
▁동행	-9014
▁복용	-9015
▁선행	-9016
▁의의	-9017
▁함정	-9018
▁드러머	-9019
▁끊임없이	-9020
▁매카트니	-9021
테인	-9022
▁소시	-9023
▁열도	-9024
▁이용자	-9025
▁1901	-9026
ach	-9027
▁생략	-9028
▁어류	-9029
▁응하	-9030
▁제국주의	-9031
out	-9032
▁단의	-9033
▁보이스	-9034
▁광대	-9035
▁입성	-9036
▁축조	-9037
▁다항식	-9038
그룹	-9039
▁고아	-9040
▁약자	-9041
▁청산	-9042
▁페널	-9043
▁울산광역시	-9044
미트	-9045
▁No	-9046
▁수확	-9047
▁혐오	-9048
짓점	-9049
▁쓰촨	-9050
▁임관	-9051
▁제네바	-9052
▁폭격기	-9053
▁공리	-9054
▁본문	-9055
▁꼭짓점	-9056
ert	-9057
▁보트	-9058
▁색채	-9059
▁염증	-9060
▁입국	-9061
▁체르	-9062
▁헌신	-9063
▁부작용	-9064
▁권총	-9065
▁하치	-9066
▁현은	-9067
▁연기자	-9068
▁알렉산드르	-9069
디나	-9070
카가	-9071
▁간토	-9072
▁일산	-9073
피어	-9074
▁정문	-9075
▁바이킹	-9076
▁렘	-9077
▁무궁	-9078
▁부가	-9079
▁퀘벡	-9080
▁기숙	-9081
▁자작	-9082
▁초신	-9083
▁치아	-9084
▁삿포로	-9085
모스	-9086
자르	-9087
▁수축	-9088
▁카미	-9089
링턴	-9090
LE	-9091
▁갱신	-9092
▁김창	-9093
▁매수	-9094
▁여운	-9095
▁체중	-9096
▁서유럽	-9097
루아	-9098
▁MB	-9099
▁사회당	-9100
LS	-9101
타임	-9102
▁서문	-9103
▁성지	-9104
▁역량	-9105
▁조립	-9106
▁주되	-9107
▁코코	-9108
IG	-9109
▁고산	-9110
▁논하	-9111
▁실버	-9112
▁이현	-9113
▁영국인	-9114
ys	-9115
나우	-9116
▁드라	-9117
▁손꼽	-9118
▁이단	-9119
▁례	-9120
▁정동	-9121
▁커스	-9122
▁간단히	-9123
▁광저우	-9124
▁점성술	-9125
▁대구광역시	-9126
▁케임브리지	-9127
▁쿄	-9128
▁검열	-9129
▁보복	-9130
▁염색체	-9131
ug	-9132
▁표방	-9133
▁134	-9134
▁푸에르	-9135
▁}	-9136
▁갈릴	-9137
▁경과	-9138
▁면제	-9139
▁페니	-9140
▁호모	-9141
베트남	-9142
ㅌㅔ	-9143
▁가역	-9144
▁스님	-9145
▁토기	-9146
노미야	-9147
▁요르단	-9148
▁두께	-9149
▁크롬	-9150
▁썰	-9151
▁ㅈㅛ	-9152
▁김제	-9153
▁차르	-9154
▁캐서	-9155
▁민감	-9156
그라	-9157
▁누적	-9158
▁미륵	-9159
▁분수	-9160
▁상금	-9161
▁조수	-9162
▁ㅎㅏㄴ	-9163
▁아라비아	-9164
▁엔딩	-9165
▁입각	-9166
▁파이터	-9167
▁무함마드	-9168
내리	-9169
ase	-9170
▁독성	-9171
▁동조	-9172
▁시리	-9173
▁원료	-9174
▁정립	-9175
일으키	-9176
▁KIA	-9177
▁THE	-9178
▁불러일으키	-9179
▁버티	-9180
▁보헤	-9181
▁오쿠	-9182
▁그다지	-9183
▁남매	-9184
▁모서리	-9185
▁장기간	-9186
▁1903	-9187
▁아시카가	-9188
▁공명	-9189
▁날카	-9190
레슬링	-9191
정리	-9192
▁레즈	-9193
▁크레이	-9194
▁다마	-9195
▁카프	-9196
▁1884	-9197
▁아브	-9198
▁직경	-9199
▁특권	-9200
▁신도비	-9201
▁언어학	-9202
▁트리플	-9203
▁ㅎㅏㄴㅌㅔ	-9204
기스	-9205
대장	-9206
▁마우	-9207
▁불꽃	-9208
▁전방	-9209
▁All	-9210
▁홈구장	-9211
▁옥스퍼드	-9212
▁연봉	-9213
▁이병	-9214
▁쥐과	-9215
▁사업가	-9216
▁쟈	-9217
사리	-9218
퀘어	-9219
▁Gr	-9220
▁섹스	-9221
▁원본	-9222
▁개인전	-9223
▁만주국	-9224
▁표기법	-9225
▁아인슈타인	-9226
▁노보	-9227
▁학대	-9228
▁One	-9229
▁이성계	-9230
▁미시시피	-9231
펜하	-9232
▁공예	-9233
▁라그	-9234
▁박지	-9235
▁하리	-9236
▁관광지	-9237
▁개화	-9238
▁태그	-9239
▁갈리아	-9240
속기	-9241
▁강간	-9242
▁불신	-9243
▁중령	-9244
테르담	-9245
처스	-9246
카미	-9247
▁EX	-9248
▁대두	-9249
▁에콰	-9250
▁토요	-9251
▁쓰레기	-9252
▁지켜보	-9253
▁트로피	-9254
▁에콰도르	-9255
▁프로레슬링	-9256
카타	-9257
▁공고	-9258
▁퇴역	-9259
▁아리스토	-9260
ke	-9261
▁AN	-9262
▁극대	-9263
▁산출	-9264
▁삼촌	-9265
▁야마구치	-9266
▁릿	-9267
텍처	-9268
▁교대	-9269
▁루타	-9270
▁어둠	-9271
▁도널드	-9272
▁아키텍처	-9273
▁이관	-9274
▁ㅅㅑ	-9275
▁구형	-9276
▁선동	-9277
▁좌측	-9278
▁퇴적	-9279
▁쓰시마	-9280
▁알렉산드리아	-9281
아웃	-9282
▁비타	-9283
▁소말	-9284
▁질소	-9285
▁하비	-9286
▁도요토미	-9287
▁슈팅	-9288
▁스텔	-9289
▁정선	-9290
▁히타	-9291
▁전염병	-9292
▁니콜라이	-9293
▁군산	-9294
▁발렌시아	-9295
▁메커	-9296
▁패널	-9297
▁꼭대기	-9298
▁복합체	-9299
▁패밀리	-9300
푸르	-9301
▁Cl	-9302
▁어뢰	-9303
▁아폴로	-9304
▁클라이	-9305
▁검출	-9306
▁1800	-9307
▁로저	-9308
▁비뉴	-9309
▁조반니	-9310
▁프란체	-9311
▁대문	-9312
▁훔치	-9313
▁콤팩트	-9314
▁마키	-9315
▁제로	-9316
▁헌정	-9317
그레	-9318
방울	-9319
▁달걀	-9320
▁마르틴	-9321
▁충청도	-9322
▁깨지	-9323
▁타케	-9324
▁해남	-9325
▁삼국지	-9326
▁소방서	-9327
라이언트	-9328
▁LA	-9329
▁군함	-9330
▁우치	-9331
▁뮤지션	-9332
리코	-9333
▁구스	-9334
▁흥선	-9335
▁방글라	-9336
▁방글라데시	-9337
▁클라이언트	-9338
ree	-9339
▁지도부	-9340
▁프레드	-9341
▁뒤쪽	-9342
▁실재	-9343
▁장벽	-9344
▁철폐	-9345
▁마르코	-9346
▁히로시	-9347
▁유부	-9348
▁정유	-9349
▁드레스	-9350
▁소행성	-9351
테이션	-9352
▁날카롭	-9353
▁선우	-9354
▁실무	-9355
▁회상	-9356
나미	-9357
▁전위	-9358
▁함선	-9359
가와현	-9360
▁기념관	-9361
▁슬라브	-9362
▁공황	-9363
▁반공	-9364
▁토시	-9365
라이어	-9366
▁피고인	-9367
올로	-9368
▁당수	-9369
사이드	-9370
▁가오	-9371
▁김홍	-9372
▁농부	-9373
▁단면	-9374
▁염소	-9375
▁원더	-9376
▁인질	-9377
▁복소수	-9378
▁팟	-9379
가르	-9380
불교	-9381
▁경작	-9382
▁도선	-9383
▁에밀	-9384
▁자형	-9385
▁기념비	-9386
▁방사성	-9387
간지	-9388
▁내걸	-9389
▁로라	-9390
▁활주	-9391
▁북아프리카	-9392
▁팰	-9393
네마	-9394
▁IN	-9395
▁우회	-9396
▁이태	-9397
▁코믹	-9398
▁당연히	-9399
▁경인	-9400
▁곡물	-9401
▁기슭	-9402
▁분출	-9403
▁전복	-9404
▁조형	-9405
▁남동생	-9406
▁묶이	-9407
▁발칸	-9408
▁뉴욕주	-9409
▁소수자	-9410
▁스토어	-9411
▁일렉트로	-9412
산맥	-9413
▁상가	-9414
▁with	-9415
니시	-9416
▁강대	-9417
▁기분	-9418
▁하차	-9419
▁카를로	-9420
▁오사카부	-9421
아들	-9422
하키	-9423
▁분량	-9424
▁우물	-9425
▁카사	-9426
▁권장	-9427
▁발령	-9428
▁상경	-9429
▁기관총	-9430
번뇌	-9431
▁궁중	-9432
▁세바	-9433
▁터보	-9434
▁리더십	-9435
ass	-9436
▁러스	-9437
▁모모	-9438
▁물가	-9439
▁밀란	-9440
▁상트	-9441
▁창녕	-9442
▁가브리	-9443
▁그레이트	-9444
▁아미노산	-9445
act	-9446
▁견인	-9447
▁상응	-9448
▁수목	-9449
▁어찌	-9450
▁현감	-9451
▁더욱이	-9452
11	-9453
구역	-9454
▁전구	-9455
▁준주	-9456
▁파병	-9457
▁후작	-9458
▁116	-9459
▁중앙아시아	-9460
▁가산	-9461
▁교량	-9462
▁세키	-9463
▁취항	-9464
개골	-9465
▁Ad	-9466
▁전시회	-9467
▁메커니즘	-9468
▁관절	-9469
▁막스	-9470
▁브란	-9471
▁소자	-9472
▁교도소	-9473
▁모리스	-9474
▁페널티	-9475
곡동	-9476
사우	-9477
▁강희	-9478
▁220	-9479
▁거주지	-9480
▁한국방송공사	-9481
ㄴㄷ	-9482
▁의결	-9483
▁추첨	-9484
▁민간인	-9485
▁Br	-9486
▁까닭	-9487
▁캐서린	-9488
▁포스터	-9489
pt	-9490
▁건륭	-9491
▁등용	-9492
▁보성	-9493
▁용서	-9494
▁회피	-9495
▁와일드	-9496
▁총대주교	-9497
▁냄새	-9498
▁신축	-9499
▁이북	-9500
▁효고	-9501
▁다케다	-9502
▁에디션	-9503
▁볼리비아	-9504
▁각색	-9505
▁감안	-9506
▁안경	-9507
▁1897	-9508
▁가계	-9509
▁정화	-9510
▁마카오	-9511
▁카스티	-9512
▁평창	-9513
쿠버	-9514
▁델타	-9515
▁돌기	-9516
▁절단	-9517
▁진전	-9518
▁1860	-9519
▁스트라이크	-9520
▁홉	-9521
역학	-9522
▁기저	-9523
▁샌드	-9524
ream	-9525
▁데스크	-9526
▁되돌리	-9527
▁일부분	-9528
▁컨트리	-9529
사업	-9530
▁CN	-9531
▁맞붙	-9532
▁반군	-9533
▁태백	-9534
▁델라	-9535
▁시야	-9536
▁요약	-9537
▁티코	-9538
▁방송인	-9539
▁르노	-9540
▁취미	-9541
▁교육청	-9542
▁꿀	-9543
▁낙동	-9544
▁대출	-9545
▁리조	-9546
▁마블	-9547
▁오로	-9548
▁올드	-9549
벤처	-9550
▁GO	-9551
▁갈래	-9552
▁상법	-9553
▁장자	-9554
▁폭로	-9555
▁휴가	-9556
기념물	-9557
▁아나키	-9558
▁어드벤처	-9559
▁가열	-9560
▁깨끗	-9561
▁농사	-9562
▁배우자	-9563
▁알프레	-9564
▁페이스북	-9565
▁미라	-9566
▁강남구	-9567
▁버클리	-9568
▁사살	-9569
▁일파	-9570
▁침체	-9571
▁거짓말	-9572
▁일자리	-9573
▁데카	-9574
▁수료	-9575
▁이주하	-9576
▁가의	-9577
▁마니	-9578
▁타우	-9579
▁ㅇㅡㄹㄲㅏ	-9580
▁상고	-9581
▁음향	-9582
▁노태우	-9583
▁스크립트	-9584
▁Is	-9585
▁마가	-9586
▁안산	-9587
▁접수	-9588
▁카타르	-9589
▁고이	-9590
▁나루	-9591
▁반전	-9592
▁석불	-9593
▁청색	-9594
스카르	-9595
캐롤라이나	-9596
▁Ex	-9597
▁네오	-9598
▁리히	-9599
▁민정	-9600
▁샌디	-9601
▁확진	-9602
▁효종	-9603
파리	-9604
▁;&	-9605
▁공손	-9606
▁대관	-9607
▁카즈	-9608
▁쿠니	-9609
▁한층	-9610
▁사카이	-9611
▁장제	-9612
▁쥐속	-9613
▁연대기	-9614
▁바르샤바	-9615
▁앰	-9616
▁구약	-9617
▁북경	-9618
▁아소	-9619
▁전산	-9620
▁타지	-9621
▁중공업	-9622
▁경제학자	-9623
▁간신	-9624
▁무슨	-9625
▁심화	-9626
▁저렴	-9627
▁모티브	-9628
▁유닉스	-9629
도비	-9630
▁안치	-9631
▁2022	-9632
나드	-9633
산성	-9634
퍼슨	-9635
▁마애	-9636
▁122	-9637
츠크	-9638
▁엇	-9639
반구	-9640
▁쓸	-9641
▁이반	-9642
▁입주	-9643
▁체력	-9644
▁추론	-9645
▁미네소	-9646
▁스퀘어	-9647
▁홍문관	-9648
▁떡	-9649
▁가신	-9650
▁소행	-9651
▁클라크	-9652
▁안드레아	-9653
▁고토	-9654
▁동형	-9655
▁막시	-9656
▁종파	-9657
▁화순	-9658
▁게릴라	-9659
포터	-9660
▁중원	-9661
▁모용	-9662
▁버마	-9663
▁윤보	-9664
▁아마존	-9665
▁후반기	-9666
▁죠	-9667
푸아	-9668
▁글래	-9669
▁이빨	-9670
▁흥선대원군	-9671
▁군청	-9672
▁브룩	-9673
▁석회	-9674
▁짐작	-9675
▁인테르	-9676
▁수중	-9677
▁적군	-9678
▁전격	-9679
▁NGC	-9680
▁상트페	-9681
▁1880	-9682
▁상트페테르부르크	-9683
콥터	-9684
▁애리	-9685
▁집결	-9686
▁con	-9687
▁급수	-9688
▁리만	-9689
▁살피	-9690
▁치우	-9691
▁솔루션	-9692
▁BM	-9693
▁갑옷	-9694
▁메라	-9695
▁종점	-9696
▁마라톤	-9697
거진	-9698
▁사적	-9699
▁타협	-9700
▁신동	-9701
▁호쿠	-9702
▁설립자	-9703
▁세네	-9704
▁용암	-9705
▁콘테	-9706
▁공용어	-9707
▁마당	-9708
▁메릴	-9709
▁옥수수	-9710
▁셜	-9711
▁엮	-9712
▁보강	-9713
▁예명	-9714
▁장원	-9715
▁제리	-9716
▁함양	-9717
▁그리스인	-9718
▁천연기념물	-9719
▁노이	-9720
▁벽화	-9721
▁빈도	-9722
▁어로	-9723
▁유정	-9724
네시	-9725
▁루크	-9726
▁정경	-9727
▁창의	-9728
▁합당	-9729
▁갤러리	-9730
▁두개골	-9731
▁제작사	-9732
▁진행자	-9733
iss	-9734
▁이장	-9735
▁함부르크	-9736
▁과실	-9737
▁무술	-9738
▁입양	-9739
▁유대교	-9740
▁눕	-9741
니지	-9742
▁실적	-9743
▁프렌	-9744
몰로지	-9745
▁133	-9746
▁붙여지	-9747
▁손꼽히	-9748
리즘	-9749
ake	-9750
▁감추	-9751
▁강철	-9752
▁신정	-9753
▁일괄	-9754
자치시	-9755
▁나란히	-9756
▁새로이	-9757
▁특별자치시	-9758
▁가네	-9759
▁기성	-9760
▁돌입	-9761
▁소령	-9762
▁청소	-9763
▁쳐들	-9764
ㄹㄹㅗ	-9765
▁키예프	-9766
▁돌아다니	-9767
타케	-9768
▁번성	-9769
▁이언	-9770
▁디트로	-9771
▁디트로이트	-9772
▁무로	-9773
▁스노	-9774
▁극작가	-9775
own	-9776
▁ㄷㅔ	-9777
▁블리	-9778
▁연못	-9779
▁왕정	-9780
▁호응	-9781
▁법정동	-9782
ii	-9783
케이	-9784
▁지지율	-9785
▁괴롭히	-9786
▁득표율	-9787
▁이동하	-9788
▁일러스트	-9789
리안	-9790
▁수녀	-9791
▁심야	-9792
▁연동	-9793
▁이규	-9794
▁특색	-9795
▁팔레	-9796
▁CBS	-9797
▁무궁화	-9798
사관학교	-9799
▁랍	-9800
▁자결	-9801
▁처지	-9802
▁랴	-9803
▁뻔	-9804
기구	-9805
▁장흥	-9806
▁조계	-9807
▁펜싱	-9808
▁헬륨	-9809
▁확고	-9810
▁가가	-9811
▁농어	-9812
▁몽고	-9813
▁종말	-9814
▁진료	-9815
▁찰리	-9816
▁추리	-9817
▁Mus	-9818
▁교육부	-9819
▁파라과이	-9820
▁고추	-9821
▁복권	-9822
▁준결승전	-9823
ㄱㅣ	-9824
▁격차	-9825
▁유령	-9826
▁자생	-9827
▁그림자	-9828
▁미생물	-9829
▁그레고리	-9830
▁등극	-9831
▁오락	-9832
▁오지	-9833
어뜨리	-9834
▁포도당	-9835
clude	-9836
▁그렇지만	-9837
▁출석	-9838
▁파우	-9839
▁GDP	-9840
▁겉보기	-9841
▁경쟁력	-9842
▁극도	-9843
▁개항	-9844
▁공약	-9845
▁도사	-9846
▁자카	-9847
▁평민	-9848
▁앨리스	-9849
▁사무총장	-9850
타마	-9851
▁선장	-9852
▁그레고리오	-9853
▁낚	-9854
▁ES	-9855
▁미셸	-9856
▁아치	-9857
▁스리랑카	-9858
▁애틀랜타	-9859
그래	-9860
미스	-9861
▁무스	-9862
▁문경	-9863
▁사쿠	-9864
▁아래쪽	-9865
림픽	-9866
▁국유	-9867
▁위생	-9868
HO	-9869
▁열심	-9870
▁추종	-9871
▁위나라	-9872
원장	-9873
▁유스	-9874
▁제왕	-9875
▁탁월	-9876
▁지방산	-9877
UR	-9878
▁수심	-9879
▁아데	-9880
▁재해	-9881
▁CEO	-9882
old	-9883
▁더비	-9884
▁스로	-9885
▁우상	-9886
▁지청	-9887
▁대성전	-9888
▁엘리트	-9889
▁++	-9890
▁광양	-9891
▁주지	-9892
▁132	-9893
▁스트라이커	-9894
▁싣	-9895
멘스	-9896
▁수년	-9897
▁재난	-9898
▁진수	-9899
Hz	-9900
▁툰	-9901
위성	-9902
▁애칭	-9903
▁글로브	-9904
▁니카	-9905
▁숙주	-9906
▁즐겁	-9907
▁섀	-9908
▁까지	-9909
▁듀오	-9910
▁마다가	-9911
▁인디애나	-9912
미즈	-9913
스기	-9914
▁결핍	-9915
▁주화	-9916
▁초원	-9917
▁동성애자	-9918
▁시뮬레이션	-9919
버러	-9920
▁격자	-9921
▁결제	-9922
▁명분	-9923
▁반역	-9924
▁정인	-9925
▁조병	-9926
▁칼뱅	-9927
바야시	-9928
▁대지진	-9929
ork	-9930
▁NE	-9931
▁극락	-9932
▁김민	-9933
▁리모	-9934
▁이득	-9935
▁프롤	-9936
▁삼국사기	-9937
▁감동	-9938
▁듀얼	-9939
▁미주리	-9940
거래	-9941
세기	-9942
에미	-9943
▁ㄹㅑ	-9944
▁앞장	-9945
▁이데	-9946
▁인프라	-9947
▁동요	-9948
▁빈번	-9949
GA	-9950
ix	-9951
파크	-9952
▁베른	-9953
▁브랜	-9954
▁속편	-9955
▁프랭클린	-9956
▁요제프	-9957
헌영	-9958
▁국수	-9959
▁온갖	-9960
▁원격	-9961
▁총무	-9962
▁pro	-9963
▁마우스	-9964
▁패럴림픽	-9965
해튼	-9966
▁or	-9967
▁정관	-9968
▁타석	-9969
벨라	-9970
해지	-9971
▁김옥	-9972
▁시종	-9973
▁현직	-9974
▁복음서	-9975
▁파이프	-9976
렉션	-9977
▁꿈꾸	-9978
위원회	-9979
()	-9980
lo	-9981
▁동참	-9982
▁무조건	-9983
▁평안남도	-9984
▁쾰	-9985
▁상연	-9986
ㄹㄹㅏ	-9987
▁보헤미아	-9988
천사	-9989
▁호족	-9990
러피	-9991
루냐	-9992
메다	-9993
ick	-9994
▁발각	-9995
▁상기	-9996
▁요법	-9997
▁현황	-9998
▁호리	-9999
▁농산물	-10000
▁저널리	-10001
CAF	-10002
▁La	-10003
▁Ro	-10004
▁속이	-10005
▁신상	-10006
▁현행	-10007
ence	-10008
▁우체국	-10009
▁PR	-10010
▁강풍	-10011
▁대국	-10012
▁숨지	-10013
▁암흑	-10014
▁통틀어	-10015
▁활주로	-10016
▁무르	-10017
▁청자	-10018
▁대사헌	-10019
▁자세히	-10020
마리	-10021
▁총기	-10022
▁피로	-10023
▁후속작	-10024
를테	-10025
▁kt	-10026
▁대각	-10027
▁두렵	-10028
▁페로	-10029
를테면	-10030
▁이를테면	-10031
▁밀러	-10032
▁세손	-10033
▁워치	-10034
▁기상청	-10035
▁볼셰비키	-10036
▁파문	-10037
▁해치	-10038
▁황도	-10039
▁단행본	-10040
▁뾰	-10041
변이	-10042
▁단과	-10043
▁의과	-10044
▁투항	-10045
▁트리니	-10046
▁돌연변이	-10047
▁합스부르크	-10048
라기	-10049
▁빠져	-10050
▁매거진	-10051
▁모터스	-10052
▁창시자	-10053
▁1870	-10054
▁평안북도	-10055
홀름	-10056
▁To	-10057
▁관동	-10058
▁만년	-10059
브리아	-10060
▁숀	-10061
▁DM	-10062
▁공파	-10063
▁막히	-10064
▁속주	-10065
▁초고	-10066
▁해부	-10067
▁매끄럽	-10068
삭스	-10069
할시	-10070
▁공표	-10071
▁왜구	-10072
▁장대	-10073
▁표창	-10074
▁가타	-10075
▁아쿠	-10076
▁재질	-10077
▁저격	-10078
▁타이베이	-10079
▁낙하	-10080
▁말년	-10081
▁생계	-10082
▁소울	-10083
▁제너	-10084
▁중앙부	-10085
플로	-10086
▁서장	-10087
▁호의	-10088
▁애리조	-10089
▁청동기	-10090
▁우즈베키스탄	-10091
공산	-10092
▁라오	-10093
▁맹세	-10094
▁배속	-10095
▁이븐	-10096
▁정국	-10097
▁댓	-10098
▁머스	-10099
▁불행	-10100
▁450	-10101
▁NAS	-10102
▁USS	-10103
▁아스널	-10104
▁짱	-10105
▁복식	-10106
▁Mar	-10107
▁1885	-10108
▁프랜시스	-10109
ection	-10110
▁Ph	-10111
▁국악	-10112
▁로페	-10113
▁세븐	-10114
▁우아	-10115
▁입수	-10116
▁소피아	-10117
▁른	-10118
▁시국	-10119
▁기병대	-10120
▁다람쥐	-10121
▁슛	-10122
▁엥	-10123
▁감금	-10124
▁따라가	-10125
▁비주얼	-10126
▁아이스하키	-10127
EM	-10128
▁헛	-10129
▁un	-10130
▁김병	-10131
▁돌출	-10132
▁카바	-10133
▁1871	-10134
▁알래스카	-10135
십자	-10136
▁맞대	-10137
▁양성자	-10138
▁아빠	-10139
▁앞쪽	-10140
▁포고	-10141
ance	-10142
ear	-10143
▁수염	-10144
▁신종	-10145
▁쿡	-10146
▁양육	-10147
▁중생	-10148
▁휴게	-10149
테리아	-10150
▁only	-10151
▁맷	-10152
티시	-10153
▁프레이	-10154
▁오클랜드	-10155
▁틀리	-10156
lass	-10157
▁대장군	-10158
▁빅토르	-10159
제이	-10160
▁카터	-10161
러피언	-10162
▁로렌스	-10163
▁수원시	-10164
▁1600	-10165
▁로리	-10166
▁비늘	-10167
▁성령	-10168
▁이모	-10169
▁센고쿠	-10170
ild	-10171
▁내성	-10172
▁위스	-10173
▁전날	-10174
▁테일	-10175
▁오로지	-10176
▁요지	-10177
▁참사	-10178
▁앤더슨	-10179
▁활발히	-10180
▁1200	-10181
▁유러피언	-10182
▁유료	-10183
▁청룡	-10184
▁케이프	-10185
▁파나마	-10186
▁마르크스주의	-10187
▁매직	-10188
▁봉수	-10189
▁오라	-10190
▁휩쓸	-10191
테쓰	-10192
▁GN	-10193
▁경질	-10194
▁내면	-10195
▁벤치	-10196
▁시애	-10197
▁마닐라	-10198
▁루비	-10199
▁릴리	-10200
▁역도	-10201
▁장단	-10202
타이드	-10203
▁예정자	-10204
▁편집자	-10205
▁볼프	-10206
▁중상	-10207
▁중서	-10208
▁화랑	-10209
▁윤보선	-10210
▁마다가스카르	-10211
▁리터	-10212
▁내무부	-10213
틀리	-10214
파이	-10215
▁자칭	-10216
▁지성	-10217
▁해저	-10218
돌리	-10219
▁루카	-10220
▁부조	-10221
▁이양	-10222
▁재외	-10223
▁흉노	-10224
▁난이	-10225
▁김규식	-10226
▁부원군	-10227
체고	-10228
▁SL	-10229
▁감수	-10230
▁능선	-10231
▁차리	-10232
▁잡아먹	-10233
체고비나	-10234
▁박헌영	-10235
▁출가	-10236
▁친분	-10237
▁케라	-10238
▁240	-10239
▁구마모토	-10240
▁탑신	-10241
▁맨해튼	-10242
▁프로리그	-10243
관리	-10244
▁vs	-10245
▁관행	-10246
▁구니	-10247
▁리바	-10248
▁카니	-10249
▁콜레	-10250
▁퇴장	-10251
▁김정은	-10252
▁다나카	-10253
▁반란군	-10254
▁시애틀	-10255
▁앤드루	-10256
▁해리슨	-10257
쩌둥	-10258
▁생선	-10259
▁수인	-10260
▁조광	-10261
▁플랜	-10262
▁알렉스	-10263
▁마오쩌둥	-10264
irl	-10265
▁교실	-10266
▁반성	-10267
▁빨갛	-10268
▁서산	-10269
▁스태	-10270
맥스	-10271
어오	-10272
▁AD	-10273
▁제동	-10274
▁지쿠	-10275
▁오른손	-10276
OV	-10277
▁즘	-10278
▁수교	-10279
▁원심	-10280
▁초빙	-10281
▁끌려가	-10282
▁제조업	-10283
▁프라하	-10284
▁민요	-10285
▁바디	-10286
▁이완	-10287
▁동물원	-10288
메스	-10289
천면	-10290
▁송도	-10291
▁파인	-10292
텔레스	-10293
▁역사가	-10294
올라	-10295
ans	-10296
▁궁궐	-10297
▁리비	-10298
▁이방	-10299
▁함자	-10300
▁경희	-10301
▁시중	-10302
코토	-10303
▁관문	-10304
▁상급	-10305
▁통역	-10306
▁루돌프	-10307
▁실험실	-10308
ivers	-10309
▁콘스탄티노폴리스	-10310
▁괄	-10311
▁국보	-10312
▁무척	-10313
▁재활	-10314
▁성남시	-10315
▁성실	-10316
▁오미	-10317
▁정제	-10318
▁조례	-10319
▁징병	-10320
▁호크	-10321
▁불태우	-10322
▁왕세자	-10323
▁제퍼슨	-10324
▁헬리콥터	-10325
▁고쿠	-10326
▁증인	-10327
▁EBS	-10328
▁대대로	-10329
▁미군정	-10330
ype	-10331
▁남산	-10332
▁뾰족	-10333
▁허드	-10334
▁공민왕	-10335
▁Sy	-10336
▁구청	-10337
▁부각	-10338
▁동대문	-10339
include	-10340
▁창문	-10341
지로	-10342
▁경시	-10343
▁남용	-10344
▁분과	-10345
▁티켓	-10346
▁리조트	-10347
▁위너스	-10348
▁아리스토텔레스	-10349
▁CM	-10350
▁드미	-10351
▁신문사	-10352
▁클레이	-10353
▁러시아인	-10354
어사	-10355
ish	-10356
▁ㅌㅣ	-10357
▁바트	-10358
▁레이크	-10359
▁하노이	-10360
무소	-10361
▁남해	-10362
▁차용	-10363
▁커플	-10364
▁서재필	-10365
▁줄거리	-10366
▁몸통	-10367
▁섬세	-10368
▁총통	-10369
▁사각형	-10370
▁겁	-10371
▁당내	-10372
▁크라이	-10373
▁":	-10374
▁개헌	-10375
▁카지	-10376
▁한하	-10377
▁얕	-10378
▁칼럼	-10379
▁퍼스	-10380
▁하키	-10381
▁화기	-10382
라니	-10383
▁가늘	-10384
▁각성	-10385
▁시노	-10386
▁이룩	-10387
▁동유럽	-10388
▁자치체	-10389
▁배려	-10390
▁총애	-10391
▁통용	-10392
▁화엄	-10393
▁대합실	-10394
▁클린턴	-10395
▁퍼스트	-10396
GM	-10397
▁NT	-10398
▁나우	-10399
▁뉴클	-10400
▁지오	-10401
▁해리스	-10402
▁개개	-10403
▁광도	-10404
▁김원	-10405
▁에프	-10406
▁주임	-10407
▁효자	-10408
▁농경	-10409
▁안녕	-10410
▁천왕	-10411
▁하반	-10412
▁MTV	-10413
▁올림피아	-10414
oun	-10415
▁씨앗	-10416
▁약혼	-10417
▁아무것	-10418
▁학설	-10419
▁허정	-10420
▁솔로몬	-10421
▁@	-10422
에스	-10423
▁독도	-10424
▁모의	-10425
▁시합	-10426
▁ex	-10427
▁산호	-10428
▁스가	-10429
▁시부	-10430
▁진해	-10431
원수	-10432
▁분류군	-10433
▁요시다	-10434
▁유치원	-10435
▁케플러	-10436
OD	-10437
▁모호	-10438
▁수양	-10439
▁차갑	-10440
▁칙령	-10441
▁테라	-10442
▁선거법	-10443
사상	-10444
▁보라	-10445
▁포착	-10446
▁예선전	-10447
▁총사령관	-10448
RA	-10449
ey	-10450
▁관청	-10451
▁나선	-10452
▁메뉴	-10453
▁내야수	-10454
▁함경남도	-10455
▁메카	-10456
▁지로	-10457
▁카테	-10458
▁파도	-10459
▁하류	-10460
▁브루스	-10461
▁아키라	-10462
▁sc	-10463
▁경호	-10464
▁극한	-10465
▁긴테쓰	-10466
▁네이션스컵	-10467
fe	-10468
정원	-10469
▁로버	-10470
▁문고	-10471
▁성화	-10472
▁주입	-10473
▁브레이크	-10474
▁검정	-10475
▁독창	-10476
▁들여	-10477
▁반기	-10478
▁실존	-10479
▁자제	-10480
▁전래	-10481
▁호스	-10482
▁경영자	-10483
▁아키타	-10484
통일	-10485
▁다테	-10486
▁일당	-10487
▁트릭	-10488
창호	-10489
컨대	-10490
▁마차	-10491
▁만장	-10492
▁보행	-10493
▁블로	-10494
▁어군	-10495
▁평형	-10496
등식	-10497
▁국당	-10498
▁신발	-10499
▁유혹	-10500
▁스톡홀름	-10501
▁분파	-10502
▁퍼포	-10503
ical	-10504
▁데려오	-10505
▁비밀리	-10506
▁비타민	-10507
▁서대문	-10508
▁멍	-10509
토랑	-10510
▁Jo	-10511
▁찬사	-10512
▁케인	-10513
▁레스토랑	-10514
▁보로	-10515
▁수필	-10516
▁욕망	-10517
▁캐롤	-10518
▁퍼포먼스	-10519
lat	-10520
▁제물	-10521
▁카피	-10522
▁테리	-10523
▁알프스	-10524
▁자치주	-10525
신문	-10526
▁원통	-10527
▁전무	-10528
▁포식	-10529
▁뛰어들	-10530
▁스테파	-10531
EG	-10532
TP	-10533
▁드루	-10534
▁타스	-10535
▁메이커	-10536
▁유아기	-10537
▁친위대	-10538
러브	-10539
▁도교	-10540
▁마셜	-10541
▁마술	-10542
▁스폰서	-10543
▁벅	-10544
바흐	-10545
▁박종	-10546
▁ABC	-10547
▁마천루	-10548
▁뉴클레오	-10549
▁와이번스	-10550
환경	-10551
▁방콕	-10552
▁수복	-10553
▁컴퓨팅	-10554
암동	-10555
▁색소	-10556
▁엄밀	-10557
▁유권자	-10558
히트	-10559
▁CH	-10560
▁매리	-10561
▁프론	-10562
▁다저스	-10563
▁로드리	-10564
▁바이트	-10565
▁보수당	-10566
▁프린스	-10567
▁고든	-10568
▁럭비	-10569
▁모어	-10570
▁묘비	-10571
▁헬싱	-10572
▁황소	-10573
▁ATP	-10574
▁예수회	-10575
메드	-10576
▁AV	-10577
▁김유	-10578
▁리베	-10579
▁블레	-10580
▁대원군	-10581
▁강령	-10582
▁구내	-10583
▁불변	-10584
▁치과	-10585
▁북아일랜드	-10586
▁멧	-10587
▁DD	-10588
▁넷째	-10589
▁실정	-10590
▁웨인	-10591
▁천국	-10592
▁플라톤	-10593
▁리보	-10594
▁마켓	-10595
▁본성	-10596
▁야드	-10597
▁장시	-10598
▁개구리	-10599
▁연극배우	-10600
▁나인	-10601
▁상행	-10602
▁시몬	-10603
▁일리	-10604
▁천거	-10605
▁추이	-10606
▁파손	-10607
▁투자자	-10608
▁피아니스트	-10609
▁소음	-10610
▁전담	-10611
▁톈진	-10612
▁포토	-10613
▁정부군	-10614
▁콘테스트	-10615
매매	-10616
▁삼존	-10617
▁영유	-10618
▁210	-10619
▁나트륨	-10620
▁마누엘	-10621
▁용인시	-10622
are	-10623
▁도둑	-10624
▁리사	-10625
▁폭파	-10626
▁방어선	-10627
▁오리온	-10628
▁피라미	-10629
▁화강암	-10630
▁샐	-10631
▁벤처	-10632
▁약사	-10633
▁이점	-10634
▁특전	-10635
▁튀르크	-10636
▁헤르체고비나	-10637
놀이	-10638
▁Fr	-10639
▁실권	-10640
▁주차장	-10641
▁프레데	-10642
덴부르크	-10643
대교	-10644
▁pr	-10645
▁구실	-10646
▁대본	-10647
▁스칸	-10648
▁슬하	-10649
▁절망	-10650
▁선구자	-10651
▁알파벳	-10652
▁동로	-10653
▁야전	-10654
▁왕권	-10655
▁퇴직	-10656
FL	-10657
군다	-10658
▁Ma	-10659
▁무실	-10660
▁홀리	-10661
부르	-10662
티넘	-10663
▁정거	-10664
▁토스카	-10665
▁플래티넘	-10666
EL	-10667
▁노론	-10668
▁마에	-10669
▁백두	-10670
▁스텝	-10671
▁찬양	-10672
▁침묵	-10673
▁쾰른	-10674
▁경전철	-10675
▁아나톨	-10676
▁가브리엘	-10677
▁결별	-10678
▁선천	-10679
▁위그	-10680
▁목요일	-10681
ica	-10682
▁중퇴	-10683
▁he	-10684
▁밸리	-10685
▁별세	-10686
▁유선	-10687
▁채취	-10688
▁1889	-10689
▁가락	-10690
▁국공	-10691
▁뭉치	-10692
▁봉화	-10693
▁차출	-10694
▁화약	-10695
▁적외선	-10696
▁리본	-10697
▁사방	-10698
▁소극	-10699
▁준수	-10700
▁유격수	-10701
사고	-10702
수스	-10703
▁아날	-10704
공산당	-10705
▁책임지	-10706
▁가맹	-10707
▁본작	-10708
▁소중	-10709
▁송신	-10710
▁영정	-10711
▁이의	-10712
▁제노	-10713
▁동시대	-10714
▁앞장서	-10715
▁감찰	-10716
▁부치	-10717
▁가이드	-10718
60	-10719
▁따지	-10720
▁방치	-10721
▁슬픔	-10722
▁실록	-10723
▁켈트	-10724
▁연산군	-10725
▁스카우트	-10726
난성	-10727
천동	-10728
▁로크	-10729
▁호대	-10730
▁패트릭	-10731
대표	-10732
충류	-10733
▁베트	-10734
▁요충	-10735
▁직통	-10736
▁아이폰	-10737
▁오바마	-10738
▁정의당	-10739
소통	-10740
▁정형	-10741
▁종식	-10742
▁주계	-10743
▁하시	-10744
테이너	-10745
▁밴쿠버	-10746
카리	-10747
▁So	-10748
▁갈아	-10749
▁대북	-10750
▁반포	-10751
▁투여	-10752
▁기관지	-10753
▁안테나	-10754
▁비엔	-10755
▁산성	-10756
▁삼림	-10757
클레	-10758
▁니혼	-10759
▁대영	-10760
▁야시	-10761
▁여권	-10762
▁의류	-10763
▁임정	-10764
▁칸국	-10765
▁사로잡	-10766
▁엔트리	-10767
▁CONCA	-10768
▁간첩	-10769
▁공존	-10770
▁여유	-10771
말리	-10772
▁모금	-10773
▁미수	-10774
▁메디치	-10775
▁의사소통	-10776
위안	-10777
▁당연	-10778
▁이송	-10779
▁전전	-10780
▁중수	-10781
▁형질	-10782
▁For	-10783
▁타이거스	-10784
▁CONCACAF	-10785
▁늙	-10786
▁구르	-10787
▁다윈	-10788
▁불량	-10789
▁새우	-10790
▁영예	-10791
▁초신성	-10792
▁고속버스	-10793
▁딥	-10794
▁강렬	-10795
▁김형	-10796
▁비야	-10797
▁중합	-10798
▁한미	-10799
▁잇따르	-10800
▁능하	-10801
▁로트	-10802
▁연말	-10803
▁유목	-10804
▁플리	-10805
▁도망가	-10806
▁Live	-10807
드레	-10808
▁김준	-10809
▁불참	-10810
▁정읍	-10811
와라노	-10812
▁말미암	-10813
▁접어들	-10814
▁센티미터	-10815
▁후지와라노	-10816
▁라리	-10817
▁라자	-10818
▁모하	-10819
▁받치	-10820
▁사설	-10821
▁시크	-10822
▁리프트	-10823
▁금호	-10824
▁무형	-10825
▁사서	-10826
▁아끼	-10827
▁의령	-10828
▁치루	-10829
▁피지	-10830
▁타이어	-10831
▁JTBC	-10832
▁미야자키	-10833
AF	-10834
▁건전	-10835
▁구두	-10836
▁우림	-10837
▁정종	-10838
▁종자	-10839
▁떨어뜨리	-10840
▁인가	-10841
▁프란체스코	-10842
sh	-10843
부로	-10844
▁감성	-10845
▁앙골	-10846
▁절정	-10847
bo	-10848
란토	-10849
휴일	-10850
▁격리	-10851
▁매트	-10852
▁원군	-10853
▁은거	-10854
▁지자	-10855
▁캐리	-10856
▁쿠퍼	-10857
▁하야	-10858
▁스트로	-10859
▁시네마	-10860
▁가나가와현	-10861
▁감상	-10862
▁왕건	-10863
▁판례	-10864
▁권하	-10865
▁작물	-10866
▁후배	-10867
블랜드	-10868
▁카탈루냐	-10869
프로	-10870
▁백과	-10871
▁두려움	-10872
▁훙	-10873
▁메소	-10874
▁수락	-10875
▁습윤	-10876
▁열강	-10877
▁요격	-10878
▁Sou	-10879
▁낙동강	-10880
▁똑같이	-10881
▁로마인	-10882
▁가도	-10883
▁송출	-10884
▁나카무라	-10885
▁자유민주당	-10886
EE	-10887
▁사탕	-10888
▁애정	-10889
▁집정	-10890
▁치환	-10891
▁펌프	-10892
바이트	-10893
망디	-10894
바나	-10895
▁바지	-10896
▁잠정	-10897
하이오	-10898
tern	-10899
▁미야기	-10900
▁생존자	-10901
▁열심히	-10902
▁오하이오	-10903
▁클리블랜드	-10904
가미	-10905
캐슬	-10906
▁극우	-10907
▁기이	-10908
▁리옹	-10909
▁서임	-10910
▁예약	-10911
IL	-10912
▁연정	-10913
▁레이싱	-10914
지기	-10915
▁고딕	-10916
▁징수	-10917
▁AKB	-10918
▁소말리아	-10919
▁프랑스인	-10920
▁캅	-10921
▁금산	-10922
▁마땅	-10923
▁비준	-10924
▁int	-10925
▁광복군	-10926
▁발라드	-10927
▁피라미드	-10928
▁김명	-10929
▁트렌	-10930
도르프	-10931
지능	-10932
▁GB	-10933
▁거미	-10934
▁공소	-10935
▁평평	-10936
▁인공지능	-10937
대사	-10938
▁모색	-10939
▁장학금	-10940
▁Time	-10941
▁유니버설	-10942
ood	-10943
▁여고	-10944
▁항만	-10945
▁Com	-10946
▁레이트	-10947
▁여배우	-10948
에미리트	-10949
▁아랍에미리트	-10950
자루	-10951
ost	-10952
▁격추	-10953
▁무네	-10954
▁워커	-10955
▁정작	-10956
▁Col	-10957
▁카카오	-10958
▁Part	-10959
▁그저	-10960
▁벨리	-10961
간다	-10962
▁가솔	-10963
▁삼중	-10964
▁순종	-10965
▁추력	-10966
▁페트	-10967
▁토리노	-10968
▁챙	-10969
▁EU	-10970
▁도피	-10971
▁사역	-10972
▁유의	-10973
▁유희	-10974
추부사	-10975
▁검은색	-10976
현동	-10977
▁성곽	-10978
▁자서	-10979
span	-10980
▁교통부	-10981
▁기숙사	-10982
▁드디어	-10983
거스	-10984
row	-10985
▁"&	-10986
▁목회	-10987
▁볼트	-10988
▁수로	-10989
▁암스	-10990
▁1848	-10991
▁츄	-10992
풀이	-10993
▁담보	-10994
▁서태	-10995
마르크	-10996
▁뉴캐슬	-10997
▁부총리	-10998
▁onlyinclude	-10999
에몽	-11000
▁가두	-11001
▁당기	-11002
▁하행	-11003
ㄱㅜ	-11004
▁댄서	-11005
▁문집	-11006
▁제명	-11007
▁한림	-11008
▁로얄	-11009
▁탄약	-11010
▁해태	-11011
▁해피	-11012
▁공휴일	-11013
유예	-11014
▁모욕	-11015
▁티아	-11016
프랑크	-11017
찌르	-11018
▁라르	-11019
▁매킨	-11020
▁무과	-11021
▁사쓰	-11022
▁재팬	-11023
▁포털	-11024
▁튀니지	-11025
▁카스티야	-11026
애미	-11027
정동	-11028
지부	-11029
▁오만	-11030
▁익숙	-11031
▁추억	-11032
▁토트	-11033
▁해독	-11034
▁간신히	-11035
▁대니얼	-11036
▁라이더	-11037
▁마이어	-11038
▁여의도	-11039
▁마이애미	-11040
▁프랑스령	-11041
▁깜	-11042
▁김광	-11043
▁보령	-11044
▁셀레	-11045
▁재일	-11046
▁절벽	-11047
▁브레이	-11048
▁대승불교	-11049
uc	-11050
나마	-11051
의사	-11052
화문	-11053
lay	-11054
▁음절	-11055
▁레이더	-11056
▁일본국	-11057
ous	-11058
▁남군	-11059
▁우한	-11060
▁유식	-11061
▁페트로	-11062
▁급여	-11063
▁볼로	-11064
▁악보	-11065
▁여사	-11066
▁천주	-11067
▁고인돌	-11068
▁무안	-11069
▁비토	-11070
▁종군	-11071
페스트	-11072
▁국제법	-11073
▁법원장	-11074
▁정치학	-11075
▁병자	-11076
▁치카	-11077
▁스타트	-11078
▁지상파	-11079
▁도래	-11080
▁사민	-11081
▁양심	-11082
▁코리	-11083
▁한중	-11084
olog	-11085
▁부딪히	-11086
ows	-11087
▁국한	-11088
▁랴오	-11089
▁인칭	-11090
▁조인	-11091
▁바그너	-11092
▁클라우	-11093
메니	-11094
▁공대	-11095
▁교의	-11096
▁특화	-11097
파니아	-11098
▁관현악단	-11099
▁비정	-11100
▁명확히	-11101
▁무찌르	-11102
▁EM	-11103
▁업자	-11104
▁워즈	-11105
▁제위	-11106
해살이	-11107
▁Bla	-11108
▁시코쿠	-11109
▁정거장	-11110
▁가혹	-11111
▁경복	-11112
▁굴절	-11113
▁로키	-11114
▁부평	-11115
▁시멘트	-11116
▁리카	-11117
▁모건	-11118
▁API	-11119
▁우루스	-11120
▁지배자	-11121
▁카메룬	-11122
▁보수주의	-11123
▁줄기세포	-11124
히사	-11125
▁공성	-11126
OP	-11127
브로	-11128
▁김인	-11129
▁선명	-11130
▁안개	-11131
▁클러	-11132
▁항체	-11133
클리드	-11134
▁SNS	-11135
▁그랜트	-11136
▁어시스트	-11137
도라	-11138
▁단결	-11139
▁류큐	-11140
▁산둥	-11141
▁황색	-11142
▁대리인	-11143
▁마법사	-11144
▁에이즈	-11145
▁저지대	-11146
▁제우스	-11147
▁가쿠	-11148
▁부다	-11149
▁평지	-11150
▁아이즈	-11151
orn	-11152
▁at	-11153
▁거란	-11154
▁숙부	-11155
▁총격	-11156
▁케르	-11157
▁131	-11158
▁문단	-11159
▁비대	-11160
▁연립	-11161
▁적료	-11162
▁하노버	-11163
az	-11164
▁쾨	-11165
ann	-11166
▁글꼴	-11167
▁마테	-11168
▁명소	-11169
빌라이	-11170
▁대나무	-11171
▁귀신	-11172
▁방대	-11173
▁용액	-11174
▁종양	-11175
▁욱	-11176
▁쪼	-11177
서스	-11178
칼리	-11179
▁사수	-11180
▁서귀	-11181
▁안방	-11182
▁점포	-11183
▁지법	-11184
▁NASA	-11185
▁Your	-11186
▁레드삭스	-11187
시노	-11188
▁검거	-11189
▁메일	-11190
▁모빌	-11191
▁베어	-11192
▁전한	-11193
메이카	-11194
▁자메이카	-11195
▁녕	-11196
▁BC	-11197
▁고로	-11198
▁동산	-11199
▁신곡	-11200
▁지석	-11201
▁하코	-11202
▁곶	-11203
▁기와	-11204
▁선봉	-11205
▁재편	-11206
▁영화상	-11207
▁제이슨	-11208
▁헤어지	-11209
▁1883	-11210
▁남방	-11211
▁대마	-11212
▁항우	-11213
▁OST	-11214
▁ref	-11215
▁u	-11216
▁설문	-11217
드리아	-11218
▁공영	-11219
▁사림	-11220
▁오디	-11221
▁탄자	-11222
른스트	-11223
▁계주	-11224
▁도키	-11225
▁줄리아	-11226
▁텍사스주	-11227
지아	-11228
▁부합	-11229
▁수식	-11230
▁초콜	-11231
네그로	-11232
레스트	-11233
▁라파엘	-11234
▁방사능	-11235
▁부상자	-11236
▁정보원	-11237
▁교향악단	-11238
▁골격	-11239
▁쌍대	-11240
▁연희	-11241
▁한신	-11242
▁날아가	-11243
▁다툼	-11244
▁동진	-11245
▁응급	-11246
▁중엽	-11247
80	-11248
▁근사	-11249
▁몰아	-11250
▁무작	-11251
▁속력	-11252
▁식스	-11253
▁진로	-11254
▁대단히	-11255
▁대좌	-11256
▁모범	-11257
▁혼다	-11258
▁비서관	-11259
▁연구회	-11260
▁패러디	-11261
▁관상	-11262
▁유공	-11263
▁대법관	-11264
▁에스페	-11265
▁판소리	-11266
▁그라운드	-11267
▁노르망디	-11268
▁프로그래머	-11269
관계	-11270
▁가우	-11271
▁메스	-11272
▁본뜨	-11273
▁코소	-11274
▁피리	-11275
▁하남	-11276
으로	-11277
▁간략	-11278
▁기세	-11279
▁병마	-11280
▁산요	-11281
▁삽화	-11282
▁온난	-11283
▁유우	-11284
▁형벌	-11285
▁고분군	-11286
▁뫼	-11287
▁tv	-11288
▁가토	-11289
▁다듬	-11290
▁야외	-11291
▁우산	-11292
▁자명	-11293
▁최진	-11294
▁카네	-11295
▁쿠빌라이	-11296
▁노면	-11297
▁니키	-11298
▁단군	-11299
▁도박	-11300
▁실증	-11301
▁이터	-11302
▁전보	-11303
▁절감	-11304
▁만화가	-11305
▁녹화	-11306
▁라바	-11307
▁리마	-11308
▁큐브	-11309
▁편견	-11310
▁에이전	-11311
▁해상도	-11312
센스	-11313
ern	-11314
▁공무	-11315
▁리즈	-11316
▁열전	-11317
▁위구르	-11318
▁이용객	-11319
▁토마토	-11320
▁봉인	-11321
▁월터	-11322
▁야마가타	-11323
▁Ge	-11324
▁RP	-11325
▁경위	-11326
▁안나	-11327
▁평판	-11328
▁함량	-11329
▁파일럿	-11330
▁해안선	-11331
▁콥	-11332
합성	-11333
▁성동	-11334
▁요절	-11335
▁1882	-11336
▁Wind	-11337
버른	-11338
▁고흥	-11339
▁북군	-11340
▁카마	-11341
▁촛	-11342
▁GM	-11343
▁가중	-11344
▁고노	-11345
▁기전	-11346
▁소외	-11347
▁슈퍼컵	-11348
40	-11349
워스	-11350
제품	-11351
프턴	-11352
▁꺼내	-11353
▁덮개	-11354
▁부왕	-11355
▁세습	-11356
▁송파	-11357
▁스루	-11358
▁조교	-11359
스트리	-11360
▁Day	-11361
▁다이어	-11362
▁스칼라	-11363
▁체인지	-11364
▁봇	-11365
▁권역	-11366
▁기량	-11367
▁모세	-11368
▁은혜	-11369
▁타락	-11370
포시	-11371
ink	-11372
▁가고	-11373
▁간사	-11374
▁거성	-11375
▁관례	-11376
▁올리브	-11377
▁원산지	-11378
CC	-11379
▁몰타	-11380
▁받들	-11381
▁엔드	-11382
▁최선	-11383
▁후진	-11384
▁데니스	-11385
II	-11386
용차	-11387
▁고생	-11388
▁유생	-11389
▁유서	-11390
▁아이언	-11391
▁중소기업	-11392
▁FK	-11393
▁콘솔	-11394
▁학력	-11395
▁SA	-11396
▁내일	-11397
▁루키	-11398
▁발상	-11399
▁상어	-11400
▁수위	-11401
▁우시	-11402
▁정월	-11403
▁프란치	-11404
▁아날로그	-11405
RT	-11406
교통	-11407
▁RS	-11408
▁라디	-11409
▁친족	-11410
▁항원	-11411
▁통신사	-11412
돌이	-11413
에고	-11414
토프	-11415
▁ㅅㅕ	-11416
▁사영	-11417
▁수다	-11418
▁아목	-11419
▁조셉	-11420
▁관악	-11421
▁국외	-11422
오르크	-11423
▁단체전	-11424
▁대표자	-11425
▁무섭	-11426
▁제천	-11427
▁플러	-11428
▁헬레	-11429
▁330	-11430
▁Sch	-11431
치히	-11432
▁관목	-11433
▁국교	-11434
▁단정	-11435
▁배분	-11436
▁범하	-11437
▁직속	-11438
▁공화정	-11439
▁연장전	-11440
▁해운대	-11441
▁미스터리	-11442
▁시즈오카	-11443
▁강당	-11444
▁단속	-11445
▁딜런	-11446
▁상록	-11447
▁요양	-11448
▁최영	-11449
▁가솔린	-11450
▁전반기	-11451
▁브루클린	-11452
▁앗	-11453
데라	-11454
▁왕궁	-11455
▁재래	-11456
▁정정	-11457
▁경주시	-11458
▁결사	-11459
▁시안	-11460
▁씨족	-11461
▁미토콘	-11462
▁미토콘드리아	-11463
게스	-11464
서니	-11465
여객	-11466
▁멋지	-11467
▁노벨상	-11468
▁선진국	-11469
▁지붕돌	-11470
▁카스트	-11471
▁파푸아	-11472
▁필립스	-11473
▁호스트	-11474
▁관계없이	-11475
▁급증	-11476
▁자수	-11477
▁장덕	-11478
▁지극	-11479
▁협업	-11480
▁후예	-11481
▁북유럽	-11482
▁휴게소	-11483
▁사로잡히	-11484
본부	-11485
▁고의	-11486
▁배달	-11487
▁부교	-11488
▁산시	-11489
▁위로	-11490
▁위조	-11491
▁주선	-11492
▁레오폴	-11493
▁사업소	-11494
▁제갈량	-11495
▁테네시	-11496
▁정은	-11497
▁주창	-11498
▁파벌	-11499
▁new	-11500
▁도네	-11501
▁빙하	-11502
▁성원	-11503
▁외래	-11504
▁예컨대	-11505
▁단말	-11506
▁사학	-11507
▁소프	-11508
▁수열	-11509
▁멜버른	-11510
▁4000	-11511
▁유클리드	-11512
갈리	-11513
융합	-11514
▁라미	-11515
▁타수	-11516
▁컨테이너	-11517
OT	-11518
▁규탄	-11519
▁번창	-11520
▁붙잡	-11521
▁어기	-11522
▁영덕	-11523
▁대상자	-11524
▁베이커	-11525
▁부르주	-11526
▁안티오	-11527
▁넬슨	-11528
▁보름	-11529
▁세련	-11530
▁어파	-11531
▁회귀	-11532
ㅇㅏ	-11533
▁과테	-11534
▁동포	-11535
▁제단	-11536
▁피핀	-11537
스탄불	-11538
▁산티아	-11539
▁영원히	-11540
▁1868	-11541
▁과테말라	-11542
▁사이타마	-11543
▁이스탄불	-11544
▁괌	-11545
▁OB	-11546
▁Or	-11547
▁베풀	-11548
▁사치	-11549
▁일각	-11550
▁할인	-11551
▁중공군	-11552
▁핵융합	-11553
▁남하	-11554
▁랭크	-11555
▁콜럼	-11556
US	-11557
▁동적	-11558
▁램프	-11559
▁보루	-11560
▁염려	-11561
▁조슈	-11562
티모어	-11563
▁앙골라	-11564
▁메릴랜드	-11565
팡이	-11566
▁밝혀	-11567
▁서면	-11568
▁Girl	-11569
▁잠깐	-11570
▁태후	-11571
▁군사력	-11572
▁스캔들	-11573
▁겨루	-11574
▁발동	-11575
▁신입	-11576
▁얽히	-11577
▁요충지	-11578
▁몬테네그로	-11579
▁노사	-11580
▁주계열	-11581
협회	-11582
▁객차	-11583
▁군벌	-11584
▁우의정	-11585
▁파시즘	-11586
▁사회민주당	-11587
▁냥	-11588
▁버터	-11589
▁범행	-11590
▁선대	-11591
▁종영	-11592
▁충렬	-11593
▁국정원	-11594
▁기념일	-11595
▁몹	-11596
히드	-11597
▁청도	-11598
▁표정	-11599
▁폐기물	-11600
▁컨트롤러	-11601
▁사천	-11602
▁항로	-11603
▁형편	-11604
▁프랜차	-11605
▁colspan	-11606
▁고트	-11607
▁배리	-11608
▁부파	-11609
▁양보	-11610
▁하의	-11611
펜하겐	-11612
▁밝혀내	-11613
▁이바지	-11614
▁코펜하겐	-11615
▁노후	-11616
▁대인	-11617
▁영암	-11618
▁영월	-11619
▁천수	-11620
▁트이	-11621
▁독수리	-11622
oll	-11623
▁농지	-11624
▁오아	-11625
▁전수	-11626
▁320	-11627
▁김옥균	-11628
▁신주쿠	-11629
▁오스틴	-11630
▁커리어	-11631
▁히브리	-11632
▁프란시스코	-11633
▁너머	-11634
▁사안	-11635
▁우왕	-11636
▁우월	-11637
▁위촉	-11638
▁너무나	-11639
▁다우	-11640
▁뒤이	-11641
▁법관	-11642
▁성산	-11643
▁저조	-11644
▁차선	-11645
▁초안	-11646
▁추서	-11647
▁카세	-11648
▁베르나르	-11649
▁아케이드	-11650
해자	-11651
▁러일	-11652
▁식용	-11653
▁아유	-11654
▁카툰	-11655
▁end	-11656
▁ㅅㅕㄴ	-11657
▁급속히	-11658
▁요하네스	-11659
우에	-11660
▁교직	-11661
▁장병	-11662
▁족보	-11663
▁헌장	-11664
▁효고현	-11665
다운	-11666
호란	-11667
▁대덕	-11668
▁대청	-11669
웨이트	-11670
▁라인업	-11671
▁수요일	-11672
▁야마모토	-11673
▁사운드트랙	-11674
▁프랜차이즈	-11675
바오	-11676
지리	-11677
▁사비	-11678
▁준장	-11679
▁오일러	-11680
디나비아	-11681
▁스칸디나비아	-11682
당기	-11683
▁강행	-11684
▁밀레	-11685
▁상국	-11686
▁외과	-11687
▁외형	-11688
▁이메	-11689
▁정령	-11690
▁청계	-11691
▁치하	-11692
ㄲㅡㅁ	-11693
▁슌	-11694
▁은신	-11695
▁이항	-11696
▁컨설	-11697
▁사이먼	-11698
▁좌의정	-11699
▁암스테르담	-11700
gin	-11701
▁DF	-11702
▁대도	-11703
▁샤프	-11704
▁양수	-11705
▁종신	-11706
▁증폭	-11707
▁타리	-11708
토리코	-11709
▁무실점	-11710
▁게오르크	-11711
▁by	-11712
▁도상	-11713
▁소아	-11714
▁축산	-11715
▁출동	-11716
▁로마자	-11717
▁니콜라스	-11718
공주	-11719
꼬리	-11720
▁TR	-11721
▁거처	-11722
▁끊기	-11723
▁자재	-11724
▁직행	-11725
▁타일	-11726
▁피드	-11727
▁피치	-11728
▁LED	-11729
▁코스타리카	-11730
▁네티	-11731
▁문종	-11732
▁복종	-11733
▁절제	-11734
▁산티아고	-11735
걸이	-11736
▁교부	-11737
▁시비	-11738
▁전세	-11739
▁치유	-11740
▁서해안	-11741
▁어웨이	-11742
▁자서전	-11743
▁천안시	-11744
▁헤이안	-11745
▁찢	-11746
단지	-11747
amp	-11748
▁고온	-11749
아다니	-11750
▁리믹스	-11751
▁브뤼셀	-11752
▁에른스트	-11753
계승	-11754
니파	-11755
셀러	-11756
웍스	-11757
▁동향	-11758
▁양대	-11759
▁위력	-11760
▁타로	-11761
▁법조인	-11762
▁함경북도	-11763
▁각료	-11764
▁김선	-11765
▁내분	-11766
▁성악	-11767
▁순차	-11768
▁우연	-11769
▁조영	-11770
▁데이브	-11771
▁시트콤	-11772
▁푸에르토리코	-11773
LA	-11774
▁노아	-11775
▁슈테	-11776
▁주성	-11777
▁호아	-11778
▁데려가	-11779
▁발전기	-11780
▁텔레콤	-11781
익스	-11782
▁스콜	-11783
▁정몽	-11784
▁유학자	-11785
▁렛	-11786
▁거지	-11787
▁공안	-11788
▁금전	-11789
▁내무	-11790
▁모차	-11791
▁정반	-11792
▁증오	-11793
▁복음주의	-11794
▁쿠웨이트	-11795
▁육군사관학교	-11796
▁놈	-11797
어넣	-11798
▁결핵	-11799
▁김윤	-11800
▁아흐	-11801
▁압록	-11802
▁이우	-11803
▁포르노	-11804
북구	-11805
▁리튬	-11806
▁박성	-11807
▁분사	-11808
▁브릿	-11809
▁습관	-11810
▁잔인	-11811
▁켄트	-11812
▁윗부분	-11813
▁1893	-11814
▁맬	-11815
▁안무	-11816
▁정재	-11817
▁출자	-11818
▁코네	-11819
▁203	-11820
▁280	-11821
▁IOC	-11822
▁장로교	-11823
▁가고시마	-11824
▁루이지애나	-11825
▁늪	-11826
나기	-11827
▁능동	-11828
▁영천	-11829
▁천마	-11830
▁측량	-11831
▁칭송	-11832
▁해왕	-11833
▁후유	-11834
▁위안부	-11835
▁펠릭스	-11836
퍼레이션	-11837
게임	-11838
▁le	-11839
▁문무	-11840
▁배드	-11841
▁유족	-11842
▁이황	-11843
▁이회	-11844
▁축전	-11845
▁함흥	-11846
▁서사시	-11847
▁여성주의	-11848
▁탄자니아	-11849
gr	-11850
▁Fe	-11851
▁김승	-11852
▁백악	-11853
▁수량	-11854
▁퍼즐	-11855
▁폐렴	-11856
▁화장품	-11857
▁이탈리아어	-11858
OW	-11859
세유	-11860
▁리코	-11861
▁생리	-11862
▁심포	-11863
▁전학	-11864
▁점거	-11865
▁척도	-11866
▁결과물	-11867
▁망치	-11868
▁서주	-11869
▁조제	-11870
▁학장	-11871
▁한번	-11872
▁흡사	-11873
로이드	-11874
▁민병대	-11875
▁트리오	-11876
▁마이크로	-11877
ung	-11878
▁관우	-11879
▁국철	-11880
▁배양	-11881
▁원활	-11882
▁톰슨	-11883
▁하타	-11884
▁교육자	-11885
▁도자기	-11886
▁로베르	-11887
▁부르고	-11888
▁갯	-11889
려들	-11890
몬트	-11891
▁Mo	-11892
▁금동	-11893
▁긴밀	-11894
▁레프	-11895
▁접종	-11896
▁천천	-11897
▁첼로	-11898
▁편향	-11899
▁서초구	-11900
▁유적지	-11901
▁해안가	-11902
화학	-11903
▁선인	-11904
▁짐승	-11905
▁차츰	-11906
▁충무	-11907
▁그만큼	-11908
▁톡	-11909
상시	-11910
▁라카	-11911
▁박상	-11912
▁소대	-11913
▁피크	-11914
▁헤로	-11915
▁노미야	-11916
▁NP	-11917
▁고집	-11918
▁관성	-11919
▁도우	-11920
▁분단	-11921
▁온화	-11922
▁전락	-11923
▁조니	-11924
라이드	-11925
▁데일리	-11926
▁비스타	-11927
▁아라곤	-11928
▁후쿠오카현	-11929
les	-11930
▁대종	-11931
▁불경	-11932
▁우두	-11933
▁집착	-11934
▁한문	-11935
▁한큐	-11936
▁헌터	-11937
▁Comp	-11938
▁데드	-11939
▁이아	-11940
▁천천히	-11941
독립	-11942
레드	-11943
티에	-11944
▁김천	-11945
▁버섯	-11946
▁아츠	-11947
▁주심	-11948
▁칼슘	-11949
▁Rock	-11950
▁김치	-11951
▁마타	-11952
▁바울	-11953
▁도야마	-11954
▁동맹국	-11955
▁스포르	-11956
▁플랑크	-11957
▁Univers	-11958
▁끓이	-11959
▁앤디	-11960
▁주세	-11961
▁탈취	-11962
▁가라앉	-11963
▁강화도	-11964
▁녹색당	-11965
▁불계승	-11966
▁아우르	-11967
▁컬렉션	-11968
aw	-11969
▁핏	-11970
▁노랑	-11971
▁미성	-11972
▁전미	-11973
▁하급	-11974
루이스	-11975
▁Car	-11976
▁레인저스	-11977
▁간직	-11978
▁도이	-11979
▁버러	-11980
▁아메	-11981
▁장녀	-11982
▁TBS	-11983
▁동맹군	-11984
▁덥	-11985
▁촐	-11986
eth	-11987
▁공양	-11988
▁림프	-11989
▁심부	-11990
▁에마	-11991
▁휴양	-11992
▁발사체	-11993
▁철저히	-11994
▁우울증	-11995
▁미나모토	-11996
▁Am	-11997
▁격려	-11998
▁라흐	-11999
▁월트	-12000
▁페더	-12001
▁초콜릿	-12002
▁픽처스	-12003
▁도카이도	-12004
AI	-12005
oth	-12006
▁격하	-12007
▁도출	-12008
▁비지	-12009
▁시속	-12010
▁애인	-12011
▁Rec	-12012
익스피어	-12013
▁참모총장	-12014
업자	-12015
▁라즈	-12016
▁심상	-12017
▁오하	-12018
▁자진	-12019
▁점검	-12020
▁현판	-12021
▁GNU	-12022
▁베르타	-12023
▁셰익스피어	-12024
▁에스페란토	-12025
▁AB	-12026
▁대차	-12027
▁소사	-12028
▁후하	-12029
▁고려대	-12030
▁순양함	-12031
▁인공위성	-12032
▁플로리다주	-12033
폭탄	-12034
▁강진	-12035
▁과시	-12036
▁까마	-12037
▁낚시	-12038
▁명인	-12039
▁미츠	-12040
▁사귀	-12041
▁에로	-12042
▁230	-12043
▁Sup	-12044
▁로스쿨	-12045
▁스탠리	-12046
▁from	-12047
▁부르고뉴	-12048
▁노프	-12049
▁당뇨	-12050
▁막판	-12051
▁황산	-12052
ublic	-12053
▁갚	-12054
민스터	-12055
▁게오르	-12056
▁사상가	-12057
▁케이크	-12058
▁중앙은행	-12059
▁핼	-12060
들러	-12061
▁구독	-12062
▁지바현	-12063
▁가와사키	-12064
국적	-12065
▁마트	-12066
▁무단	-12067
▁이범	-12068
▁카레	-12069
▁파편	-12070
▁프리스	-12071
▁가르시아	-12072
▁마르세유	-12073
▁IV	-12074
▁귀속	-12075
▁기쁨	-12076
▁바비	-12077
▁상정	-12078
▁스킴	-12079
▁대진	-12080
▁유영	-12081
▁기업가	-12082
태평	-12083
▁Do	-12084
▁서스	-12085
▁심문	-12086
▁울릉	-12087
▁향기	-12088
▁1888	-12089
▁율리우스	-12090
▁가부	-12091
▁네모	-12092
▁미아	-12093
▁반동	-12094
▁발목	-12095
▁배역	-12096
▁청량	-12097
▁톱니	-12098
▁특사	-12099
▁페오	-12100
▁물려주	-12101
▁밀려나	-12102
▁서바이	-12103
▁상관없이	-12104
유사	-12105
▁굳히	-12106
▁시우	-12107
▁청송	-12108
▁노스캐롤라이나	-12109
트르	-12110
▁구금	-12111
▁구치	-12112
▁닉슨	-12113
▁백자	-12114
▁슈타	-12115
▁스투	-12116
▁용품	-12117
▁운임	-12118
▁피사	-12119
▁경계선	-12120
▁로빈슨	-12121
▁쇠고기	-12122
▁이바라	-12123
▁견고	-12124
▁끼우	-12125
▁아와	-12126
▁유포	-12127
▁흥분	-12128
▁세비야	-12129
▁수나라	-12130
그마	-12131
헤드	-12132
▁명부	-12133
▁산수	-12134
▁국제선	-12135
▁로이드	-12136
▁펠리페	-12137
▁평안도	-12138
▁하이퍼	-12139
바리	-12140
▁대접	-12141
▁대주	-12142
▁사키	-12143
▁글래스	-12144
▁Su	-12145
▁Sw	-12146
▁ar	-12147
▁메틸	-12148
▁배기	-12149
▁붕어	-12150
▁사커	-12151
▁공법	-12152
▁꾸리	-12153
▁시문	-12154
▁에바	-12155
▁입헌	-12156
▁재차	-12157
▁다이빙	-12158
▁산스크	-12159
▁애덤스	-12160
▁1892	-12161
▁박테리아	-12162
▁산스크리트	-12163
▁동종	-12164
▁매달	-12165
▁성기	-12166
▁수차례	-12167
▁허드슨	-12168
▁우에스기	-12169
▁깁	-12170
▁푹	-12171
▁제창	-12172
▁다카라	-12173
▁절도사	-12174
▁케이트	-12175
▁프로모	-12176
▁러시아군	-12177
자동	-12178
▁낙양	-12179
▁리차	-12180
▁연회	-12181
▁조롱	-12182
▁펠트	-12183
▁대전차	-12184
▁문자열	-12185
▁소학교	-12186
▁휘말리	-12187
IR	-12188
비크	-12189
▁농축	-12190
▁모던	-12191
▁사변	-12192
▁유무	-12193
▁제철	-12194
미디어	-12195
▁대명사	-12196
▁자라나	-12197
▁쫓아내	-12198
암리	-12199
연수	-12200
홍색	-12201
▁계량	-12202
▁산청	-12203
▁어의	-12204
▁온대	-12205
▁대공국	-12206
▁데스크톱	-12207
둘기	-12208
티노	-12209
▁물결	-12210
▁미식	-12211
▁새뮤	-12212
▁코사	-12213
▁공방전	-12214
▁스테판	-12215
▁군데	-12216
▁데미	-12217
▁라드	-12218
▁자립	-12219
▁재발	-12220
▁해병	-12221
보리	-12222
▁고스	-12223
▁니켈	-12224
▁옥타	-12225
▁웃음	-12226
▁하임	-12227
▁펩	-12228
▁CG	-12229
▁공시	-12230
▁납부	-12231
▁완도	-12232
▁위계	-12233
▁주먹	-12234
▁직계	-12235
▁카야	-12236
▁더블린	-12237
▁레이디	-12238
▁프레임워크	-12239
▁wh	-12240
▁나뭇	-12241
▁불사	-12242
▁생모	-12243
▁자코	-12244
▁조개	-12245
▁중고	-12246
▁볼로냐	-12247
▁조선왕	-12248
▁차세대	-12249
▁활동가	-12250
ah	-12251
▁강성	-12252
▁복싱	-12253
▁선양	-12254
▁침례	-12255
▁북조선	-12256
▁사간원	-12257
▁성매매	-12258
▁앤서니	-12259
▁1866	-12260
▁1876	-12261
광성	-12262
▁소동	-12263
▁필하	-12264
로니아	-12265
▁관현악	-12266
▁논리학	-12267
▁스탠드	-12268
▁가면라이더	-12269
다오	-12270
▁알폰	-12271
▁축성	-12272
▁아브라	-12273
▁올리버	-12274
▁지리학	-12275
▁페르난도	-12276
▁프린스턴	-12277
AE	-12278
▁간혹	-12279
▁노랗	-12280
▁로브	-12281
▁손녀	-12282
▁순례	-12283
▁전권	-12284
▁토이	-12285
▁서기관	-12286
▁세네갈	-12287
▁후원자	-12288
▁1886	-12289
▁베네딕토	-12290
▁펫	-12291
너드	-12292
네트	-12293
뮬러	-12294
▁군관	-12295
▁세레	-12296
▁이봉	-12297
▁이산	-12298
▁장래	-12299
▁지난	-12300
▁고려사	-12301
▁알렉산드로스	-12302
▁이나	-12303
▁Gre	-12304
▁도르트	-12305
▁보좌관	-12306
▁전주시	-12307
▁웨스트민스터	-12308
▁굶	-12309
▁씻	-12310
네임	-12311
로쿠	-12312
EST	-12313
▁애초	-12314
▁재앙	-12315
▁파파	-12316
르타뉴	-12317
▁USB	-12318
▁헤라클	-12319
▁브르타뉴	-12320
▁뱃	-12321
분열	-12322
사태	-12323
▁co	-12324
▁두각	-12325
▁바시	-12326
▁저우	-12327
▁채색	-12328
▁통폐	-12329
▁풍습	-12330
▁교구장	-12331
▁이즈미	-12332
▁구스타프	-12333
▁송환	-12334
▁원유	-12335
▁포탄	-12336
▁브래드	-12337
▁생리학	-12338
큐어	-12339
▁거룩	-12340
▁미미	-12341
▁반주	-12342
▁수력	-12343
▁임계	-12344
▁정진	-12345
▁초전	-12346
▁파커	-12347
▁펀드	-12348
▁합천	-12349
▁드미트리	-12350
▁발의	-12351
▁번갈	-12352
▁소용	-12353
▁아디	-12354
▁펴내	-12355
▁260	-12356
▁베이시스트	-12357
▁덱	-12358
코르	-12359
▁긴키	-12360
▁대금	-12361
▁신진	-12362
▁조소	-12363
▁죄수	-12364
▁사단장	-12365
▁조나라	-12366
▁인플레이션	-12367
직경	-12368
▁댓글	-12369
▁살라	-12370
▁270	-12371
▁게시판	-12372
▁바이어	-12373
▁시직경	-12374
▁펭	-12375
▁깃털	-12376
▁너스	-12377
▁부양	-12378
▁서예	-12379
▁얼룩	-12380
▁보살상	-12381
▁스테인	-12382
레시	-12383
▁마나	-12384
▁마린	-12385
▁앨리	-12386
▁음운	-12387
▁일진	-12388
▁경영학	-12389
▁코소보	-12390
▁Tour	-12391
▁뮐	-12392
다보	-12393
우회	-12394
ron	-12395
▁맥아	-12396
▁유다	-12397
▁잘리	-12398
▁제르	-12399
▁현과	-12400
▁독립군	-12401
▁삼각주	-12402
▁새뮤얼	-12403
▁장제스	-12404
▁1887	-12405
▁도하	-12406
▁비우	-12407
▁퇴위	-12408
▁간사이	-12409
▁축구팀	-12410
꿈치	-12411
▁면모	-12412
▁모라	-12413
▁아자	-12414
▁약점	-12415
▁위패	-12416
▁포츠	-12417
▁강서구	-12418
▁금나라	-12419
▁이어주	-12420
▁통폐합	-12421
▁페미니	-12422
▁꽂	-12423
라호	-12424
▁수하	-12425
리카락	-12426
▁카운트	-12427
▁화요일	-12428
▁머리카락	-12429
▁브리티시	-12430
슈타	-12431
왕후	-12432
ave	-12433
▁ML	-12434
▁당황	-12435
▁도제	-12436
▁산물	-12437
▁서포터	-12438
▁유전학	-12439
▁도미니카	-12440
클라	-12441
ble	-12442
▁경무	-12443
▁도약	-12444
▁박수	-12445
▁오산	-12446
▁원상	-12447
▁유능	-12448
▁조현	-12449
▁코호	-12450
▁펠로	-12451
▁프루	-12452
land	-12453
▁근거지	-12454
▁덩어리	-12455
▁마르쿠스	-12456
19	-12457
지오	-12458
▁동창	-12459
▁레트	-12460
▁자궁	-12461
▁부분군	-12462
▁사절단	-12463
쓰기	-12464
코타	-12465
▁본체	-12466
▁출혈	-12467
▁역사학	-12468
▁용의자	-12469
▁모차르트	-12470
▁Dream	-12471
▁Up	-12472
▁it	-12473
▁망하	-12474
▁부류	-12475
▁단거리	-12476
▁재단법인	-12477
비안	-12478
▁KB	-12479
▁고창	-12480
▁도성	-12481
▁버크	-12482
▁여타	-12483
▁행방	-12484
▁사쓰마	-12485
▁1861	-12486
제비	-12487
▁무수	-12488
▁중개	-12489
▁직사	-12490
▁표하	-12491
▁집행유예	-12492
▁SV	-12493
▁단조	-12494
▁배척	-12495
▁악곡	-12496
▁엘런	-12497
▁유타	-12498
▁Life	-12499
▁프리미엄	-12500
▁물류	-12501
▁유머	-12502
▁타구	-12503
▁편안	-12504
▁형용	-12505
▁베이비	-12506
▁주니치	-12507
▁황해도	-12508
▁볼티모어	-12509
짜기	-12510
▁모닝	-12511
▁세분	-12512
▁에리	-12513
▁민영화	-12514
▁1864	-12515
▁석가모니	-12516
▁클레멘스	-12517
▁가닥	-12518
▁기밀	-12519
▁지아	-12520
러뜨리	-12521
▁해결책	-12522
철수	-12523
하임	-12524
▁오대	-12525
▁왕관	-12526
▁이호	-12527
▁데이빗	-12528
▁좌표계	-12529
ult	-12530
▁구문	-12531
▁불분	-12532
▁세무	-12533
▁장전	-12534
▁백악기	-12535
▁음악원	-12536
▁불러들이	-12537
▁스트리밍	-12538
DA	-12539
라르	-12540
콘신	-12541
▁급히	-12542
▁수이	-12543
▁승단	-12544
▁익명	-12545
▁공연장	-12546
▁장애물	-12547
▁위스콘신	-12548
▁SH	-12549
▁교지	-12550
▁박자	-12551
▁사하	-12552
▁에두	-12553
▁올레	-12554
▁완결	-12555
▁환관	-12556
▁당선자	-12557
▁쏟아지	-12558
▁광선	-12559
▁꺼리	-12560
▁나름	-12561
▁내포	-12562
▁홀딩	-12563
▁신세계	-12564
▁다카라즈카	-12565
즐리	-12566
플린	-12567
▁RT	-12568
▁모국	-12569
▁발톱	-12570
▁지면	-12571
솔리니	-12572
▁코스트	-12573
▁홈경기	-12574
▁남베트남	-12575
▁과연	-12576
▁슬램	-12577
▁오메	-12578
▁페스	-12579
▁홍성	-12580
▁후세인	-12581
▁1850	-12582
열차	-12583
▁라시	-12584
▁습득	-12585
▁모나코	-12586
▁프랑코	-12587
▁마을버스	-12588
ational	-12589
▁TC	-12590
▁과잉	-12591
▁마구	-12592
▁사내	-12593
▁슬프	-12594
▁오일	-12595
▁잔디	-12596
▁정예	-12597
▁천지	-12598
▁평탄	-12599
▁포화	-12600
▁Wii	-12601
▁바로크	-12602
▁집정관	-12603
EP	-12604
▁암모	-12605
▁양현	-12606
▁추존	-12607
▁특기	-12608
ition	-12609
▁1881	-12610
orm	-12611
▁ㄴㅛ	-12612
▁고모	-12613
▁위시	-12614
▁쿼크	-12615
▁허블	-12616
▁생성물	-12617
▁아무리	-12618
▁컨텐츠	-12619
▁행정동	-12620
▁렙	-12621
디슨	-12622
▁무자	-12623
▁실각	-12624
▁자릿	-12625
▁증세	-12626
▁촛불	-12627
▁파직	-12628
바도르	-12629
▁네티즌	-12630
▁참의원	-12631
▁토트넘	-12632
▁구례	-12633
▁레버	-12634
▁리트	-12635
▁만점	-12636
▁복위	-12637
▁워킹	-12638
▁착하	-12639
▁철강	-12640
▁홈즈	-12641
▁개정안	-12642
▁뛰어넘	-12643
▁마요	-12644
▁몰두	-12645
▁스모	-12646
▁하얀	-12647
▁혼혈	-12648
▁사나이	-12649
▁요금소	-12650
브웨	-12651
▁if	-12652
▁경건	-12653
▁백업	-12654
▁승하	-12655
▁어우	-12656
▁토목	-12657
▁히토	-12658
▁카이로	-12659
▁싹	-12660
▁삼척	-12661
▁짐바	-12662
▁푸아	-12663
▁크리에이	-12664
동자	-12665
▁객원	-12666
▁관내	-12667
▁괘불	-12668
▁다행	-12669
▁리에	-12670
▁차수	-12671
▁카와	-12672
▁노동력	-12673
▁대교구	-12674
▁사들이	-12675
▁유니버스	-12676
▁돗	-12677
린트	-12678
▁en	-12679
▁군세	-12680
▁외환	-12681
▁휘두르	-12682
▁1830	-12683
▁Music	-12684
예술	-12685
▁근래	-12686
▁방공	-12687
▁산기	-12688
▁아타	-12689
▁이력	-12690
▁잠실	-12691
▁재결	-12692
라호마	-12693
▁컴파일러	-12694
▁오클라호마	-12695
니오	-12696
뛰기	-12697
ton	-12698
▁도산	-12699
▁뷰티	-12700
▁에반	-12701
▁무작위	-12702
▁외무부	-12703
렌스	-12704
▁구획	-12705
▁동차	-12706
▁쓰루	-12707
▁자판	-12708
▁재판관	-12709
▁루스벨트	-12710
▁AG	-12711
▁계보	-12712
▁여건	-12713
▁코난	-12714
▁가해자	-12715
▁아카이	-12716
▁도라에몽	-12717
▁카르타고	-12718
▁XP	-12719
▁공판	-12720
▁남조	-12721
▁매진	-12722
▁스몰	-12723
▁예의	-12724
▁왕성	-12725
▁판관	-12726
▁화성시	-12727
아메리카	-12728
화경	-12729
▁러닝	-12730
▁민물	-12731
▁오우	-12732
▁요괴	-12733
▁전리	-12734
▁헌납	-12735
▁iOS	-12736
▁관련자	-12737
▁대표단	-12738
▁로맨틱	-12739
른베르크	-12740
▁미네소타	-12741
▁강세	-12742
▁건네	-12743
▁더하	-12744
▁부풀	-12745
▁승지	-12746
ject	-12747
▁경도	-12748
▁소라	-12749
▁아쉽	-12750
▁파주	-12751
▁마르셀	-12752
▁야구단	-12753
▁장난감	-12754
▁재판부	-12755
▁다비	-12756
▁말단	-12757
▁미상	-12758
▁벌레	-12759
▁아편	-12760
▁재벌	-12761
▁보너스	-12762
▁압록강	-12763
▁여학생	-12764
▁헤라클레스	-12765
평리	-12766
▁목욕	-12767
▁스윙	-12768
▁익산	-12769
▁침대	-12770
▁팔작	-12771
▁현미	-12772
▁황자	-12773
▁까마귀	-12774
▁보안법	-12775
라이어티	-12776
▁세르게이	-12777
▁버라이어티	-12778
림사	-12779
ION	-12780
▁Ed	-12781
▁남송	-12782
▁뒤늦	-12783
▁스기	-12784
▁이별	-12785
▁편하	-12786
타입	-12787
▁고하	-12788
▁김희	-12789
▁눈치	-12790
▁애슬	-12791
▁찍히	-12792
▁패권	-12793
▁농어촌	-12794
▁돋보이	-12795
▁바람직	-12796
▁불분명	-12797
달마	-12798
비오	-12799
▁딸리	-12800
▁루나	-12801
▁몸돌	-12802
▁별장	-12803
▁세간	-12804
▁이누	-12805
▁켄터	-12806
▁쿠로	-12807
▁파열	-12808
▁감리교	-12809
▁모멘트	-12810
▁반대파	-12811
▁1872	-12812
▁Open	-12813
▁an	-12814
▁금고	-12815
▁당진	-12816
▁마티	-12817
▁발포	-12818
▁양조	-12819
▁정황	-12820
▁체하	-12821
슬라프	-12822
▁ㄹㅓㄴ	-12823
▁이메일	-12824
▁주나라	-12825
▁이시카와	-12826
▁관용	-12827
▁닛산	-12828
▁엿보	-12829
▁용사	-12830
▁이은	-12831
▁조경	-12832
▁흑백	-12833
▁750	-12834
▁트레이닝	-12835
께끼	-12836
▁te	-12837
▁승상	-12838
▁신봉	-12839
▁트란	-12840
▁라치오	-12841
▁무솔리니	-12842
▁수수께끼	-12843
▁유라시아	-12844
덕왕	-12845
▁BL	-12846
▁교동	-12847
▁발자	-12848
▁베일	-12849
▁빅뱅	-12850
▁인제	-12851
▁종묘	-12852
▁종업	-12853
▁라이스	-12854
▁롬바르	-12855
▁합창단	-12856
▁대중교통	-12857
▁부다페스트	-12858
▁프란치스코	-12859
▁부전	-12860
▁조심	-12861
▁콘티	-12862
▁햇빛	-12863
▁허목	-12864
▁피닉스	-12865
어드	-12866
▁경매	-12867
▁배트	-12868
▁시원	-12869
▁알맞	-12870
▁다비드	-12871
▁초록색	-12872
▁대한항공	-12873
나파	-12874
ics	-12875
▁등등	-12876
▁레비	-12877
▁레아	-12878
▁모란	-12879
▁브렌	-12880
▁샤이	-12881
▁양면	-12882
▁원동	-12883
▁음주	-12884
▁중랑	-12885
▁Don	-12886
▁세군다	-12887
▁센다이	-12888
▁화학자	-12889
ru	-12890
더지	-12891
▁가든	-12892
▁경량	-12893
▁교제	-12894
▁꼬마	-12895
▁생도	-12896
▁전교	-12897
▁접합	-12898
브리드	-12899
▁하얀색	-12900
▁호크스	-12901
▁낭만주의	-12902
데자	-12903
쿠니	-12904
▁도봉	-12905
▁반죽	-12906
▁발산	-12907
▁복역	-12908
▁탄산	-12909
▁티모	-12910
▁범죄자	-12911
▁아이콘	-12912
▁청년회	-12913
▁파충류	-12914
데자네이	-12915
▁도르트문트	-12916
▁꿰	-12917
ier	-12918
▁두어	-12919
▁순항	-12920
▁야망	-12921
▁옹주	-12922
▁주고	-12923
ㅌㅇㅣ	-12924
▁탐험가	-12925
▁부르주아	-12926
▁ㄱㅏㅌㅇㅣ	-12927
▁엡	-12928
▁튼	-12929
▁가독	-12930
▁그란	-12931
▁기고	-12932
▁오트	-12933
▁의용	-12934
바인	-12935
번에	-12936
▁"-	-12937
▁납작	-12938
▁넥센	-12939
▁보정	-12940
▁삭스	-12941
▁장쑤	-12942
태평양	-12943
▁작품상	-12944
▁1863	-12945
▁1865	-12946
▁쵸	-12947
▁Ab	-12948
▁Sm	-12949
▁복직	-12950
▁친밀	-12951
▁캐피	-12952
▁개체군	-12953
▁계승자	-12954
▁밀가루	-12955
▁박영효	-12956
▁HTML	-12957
단위	-12958
워즈	-12959
클럽	-12960
▁과다	-12961
▁닌자	-12962
▁단국	-12963
▁대강	-12964
▁덴쇼	-12965
▁변종	-12966
▁슈고	-12967
▁의례	-12968
▁필연	-12969
▁격투기	-12970
▁하이브리드	-12971
루크	-12972
▁배향	-12973
▁이례	-12974
▁지경	-12975
▁챙기	-12976
▁페라	-12977
▁피카	-12978
▁유전체	-12979
▁챌린저	-12980
▁공군기지	-12981
▁발하	-12982
▁투하	-12983
▁편제	-12984
▁다시금	-12985
▁Night	-12986
리쿠	-12987
ode	-12988
▁곱셈	-12989
▁조시	-12990
▁탐정	-12991
▁피셔	-12992
▁경복궁	-12993
▁시간대	-12994
▁유니언	-12995
리야	-12996
▁봉황	-12997
▁어촌	-12998
▁코마	-12999
▁승정원	-13000
▁항아리	-13001
▁아이디얼	-13002
데자네이루	-13003
▁리우데자네이루	-13004
매김	-13005
▁진흙	-13006
▁태아	-13007
▁우간다	-13008
▁1891	-13009
▁교통사고	-13010
▁오카야마	-13011
훈장	-13012
▁기통	-13013
▁메츠	-13014
▁이니	-13015
▁작년	-13016
▁ret	-13017
▁고성군	-13018
▁기획사	-13019
▁조선소	-13020
▁켄터키	-13021
ool	-13022
▁거꾸	-13023
▁경마	-13024
▁당과	-13025
▁완비	-13026
▁철종	-13027
▁클릭	-13028
리아스	-13029
▁앤드류	-13030
▁여진족	-13031
▁타임즈	-13032
TE	-13033
▁AL	-13034
▁곡면	-13035
▁메우	-13036
▁애완	-13037
▁여호	-13038
▁처방	-13039
▁포대	-13040
▁발기인	-13041
▁세계유산	-13042
▁베스트셀러	-13043
타스	-13044
▁배아	-13045
▁법전	-13046
▁선율	-13047
▁잠기	-13048
▁청문	-13049
▁카슈	-13050
▁앞세우	-13051
▁해석학	-13052
QL	-13053
UC	-13054
친왕	-13055
▁--	-13056
▁대목	-13057
▁대의	-13058
▁란스	-13059
▁매스	-13060
▁미인	-13061
▁요즘	-13062
▁조공	-13063
▁받침돌	-13064
▁안산시	-13065
▁자유형	-13066
▁1873	-13067
▁려	-13068
ise	-13069
▁경지	-13070
▁두텁	-13071
▁픽셀	-13072
▁수시로	-13073
▁오스트리	-13074
▁자리매김	-13075
▁짐바브웨	-13076
▁반점	-13077
▁코뮌	-13078
▁혈압	-13079
▁휩싸	-13080
이스케	-13081
▁몰도바	-13082
▁쩔	-13083
▁매립	-13084
▁박진	-13085
▁벌리	-13086
▁살짝	-13087
▁상파	-13088
▁시진	-13089
▁여대	-13090
▁직관	-13091
▁해킹	-13092
▁후미	-13093
▁노르드	-13094
▁릴레이	-13095
ai	-13096
▁샨	-13097
ㅇㅜ	-13098
▁NS	-13099
▁도도	-13100
▁리브	-13101
▁조장	-13102
▁다국적	-13103
▁테무르	-13104
▁온타리오주	-13105
미쓰	-13106
쿠르	-13107
▁고난	-13108
▁구강	-13109
▁마모	-13110
▁쇼크	-13111
▁왓슨	-13112
▁입시	-13113
동맹	-13114
che	-13115
▁취향	-13116
올로기	-13117
▁포항시	-13118
▁이데올로기	-13119
레반	-13120
▁계좌	-13121
▁고마	-13122
▁단자	-13123
▁등단	-13124
▁신대	-13125
▁정명	-13126
▁충당	-13127
▁킹스	-13128
stem	-13129
▁와이드	-13130
▁제너럴	-13131
스레	-13132
▁MA	-13133
▁굴복	-13134
▁비키	-13135
▁자켓	-13136
▁재고	-13137
▁현무	-13138
부아르	-13139
▁난이도	-13140
▁승용차	-13141
▁시티즌	-13142
▁팔작지붕	-13143
▁Black	-13144
▁리키	-13145
▁어는	-13146
▁착취	-13147
▁촉발	-13148
▁필두	-13149
합중국	-13150
ㄱㅓ	-13151
린더	-13152
무제	-13153
▁루즈	-13154
▁부실	-13155
▁부추	-13156
▁열렬	-13157
▁튼튼	-13158
▁파기	-13159
▁한창	-13160
플렉스	-13161
▁발가락	-13162
▁제프리	-13163
세다	-13164
▁걸작	-13165
▁교서	-13166
▁국호	-13167
▁내재	-13168
▁라크	-13169
▁인위	-13170
▁입술	-13171
▁적발	-13172
▁합금	-13173
▁해시	-13174
ower	-13175
▁Can	-13176
▁슬로건	-13177
▁믈	-13178
▁과격	-13179
▁구슬	-13180
▁리자	-13181
▁반항	-13182
▁페인	-13183
▁공통점	-13184
▁백악관	-13185
70	-13186
▁PM	-13187
▁계엄	-13188
▁급하	-13189
▁라면	-13190
▁모함	-13191
▁버펄	-13192
▁볼넷	-13193
▁분경	-13194
▁불로	-13195
▁외상	-13196
▁체내	-13197
▁키즈	-13198
▁Good	-13199
▁스테이트	-13200
▁야쿠르트	-13201
▁section	-13202
NG	-13203
▁켜	-13204
성경	-13205
킨슨	-13206
▁광배	-13207
▁서위	-13208
▁양양	-13209
▁조준	-13210
▁최장	-13211
▁토유	-13212
▁헤어	-13213
▁공식전	-13214
▁매달리	-13215
▁삼국유사	-13216
▁네임	-13217
▁신의	-13218
▁그나마	-13219
▁트로트	-13220
▁아비달마	-13221
▁이바라키	-13222
바지	-13223
▁구시	-13224
▁병과	-13225
▁산책	-13226
▁양궁	-13227
▁위법	-13228
▁유태	-13229
▁터빈	-13230
▁토로	-13231
▁파랑	-13232
선거구	-13233
▁다마스	-13234
▁괜	-13235
▁qu	-13236
▁기쁘	-13237
▁부에	-13238
▁아뢰	-13239
▁야심	-13240
▁에치	-13241
▁을사	-13242
▁이강	-13243
▁하스	-13244
▁Let	-13245
▁선제골	-13246
▁종업원	-13247
▁증강	-13248
▁캐논	-13249
ㅂㅅㅣ	-13250
▁캐스트	-13251
▁q	-13252
▁머니	-13253
▁오즈	-13254
▁용감	-13255
▁현도	-13256
스코트	-13257
타나베	-13258
▁550	-13259
▁650	-13260
▁거꾸로	-13261
▁하반기	-13262
▁샵	-13263
▁El	-13264
▁MM	-13265
▁국부	-13266
▁당당	-13267
▁연화	-13268
▁우마	-13269
▁헌병	-13270
드라마	-13271
▁아오모리	-13272
▁이노우에	-13273
▁피츠버그	-13274
▁코호몰로지	-13275
펠러	-13276
ank	-13277
▁간판	-13278
▁광자	-13279
▁문정	-13280
▁산신	-13281
▁아델	-13282
▁진원	-13283
▁피어	-13284
▁국민회	-13285
▁앨버트	-13286
▁1862	-13287
▁1867	-13288
▁페르디난트	-13289
▁콧	-13290
▁AI	-13291
▁조어	-13292
▁진언	-13293
▁705	-13294
▁반정부	-13295
▁용산구	-13296
▁무로마치	-13297
▁미합중국	-13298
방군	-13299
▁모반	-13300
ings	-13301
▁알폰소	-13302
▁삐	-13303
▁극찬	-13304
▁무도	-13305
▁앵커	-13306
▁온건	-13307
▁채굴	-13308
▁투신	-13309
▁활자	-13310
▁김성수	-13311
▁지자체	-13312
해살이풀	-13313
▁댈	-13314
ㄹㅜ	-13315
▁경은	-13316
▁농성	-13317
▁맞춤	-13318
▁주저	-13319
▁경희대	-13320
▁변광성	-13321
▁폼페이	-13322
상어	-13323
정사	-13324
진구	-13325
▁소작	-13326
▁수퍼	-13327
▁흡연	-13328
▁미카엘	-13329
▁증조부	-13330
리언	-13331
▁무고	-13332
▁송진	-13333
▁해지	-13334
▁엑스포	-13335
▁국민학교	-13336
▁증발	-13337
▁통지	-13338
▁황폐	-13339
▁손잡이	-13340
▁자외선	-13341
▁사이타마현	-13342
DS	-13343
▁AU	-13344
▁스킬	-13345
▁연행	-13346
▁열쇠	-13347
▁조서	-13348
▁흔들	-13349
절도사	-13350
▁스코어	-13351
고르	-13352
렐라	-13353
티야	-13354
▁Ac	-13355
▁엘라	-13356
▁전멸	-13357
▁IMF	-13358
▁레인저	-13359
▁사보이	-13360
▁스테이	-13361
▁신한은행	-13362
대전	-13363
포타	-13364
▁광업	-13365
▁독주	-13366
▁옥시	-13367
▁코모	-13368
세우스	-13369
▁MSL	-13370
▁노르만	-13371
▁언론사	-13372
▁크루즈	-13373
▁타이탄	-13374
북면	-13375
▁대담	-13376
▁예종	-13377
▁온두	-13378
▁쿠라	-13379
레타리아	-13380
▁온두라스	-13381
▁프롤레타리아	-13382
인구	-13383
활약	-13384
▁걸프	-13385
▁꽃잎	-13386
▁병단	-13387
▁사교	-13388
▁성수	-13389
▁세단	-13390
▁심정	-13391
▁증식	-13392
▁푸드	-13393
▁서두르	-13394
▁연출가	-13395
▁조선왕조	-13396
비언	-13397
센터	-13398
▁군자	-13399
▁노브	-13400
▁보직	-13401
▁북벌	-13402
▁양군	-13403
▁타도	-13404
▁출입문	-13405
▁페드로	-13406
포타미아	-13407
▁6000	-13408
▁메소포타미아	-13409
lar	-13410
▁UC	-13411
▁나사	-13412
▁서한	-13413
▁위헌	-13414
▁충칭	-13415
▁캐치	-13416
▁감염증	-13417
▁맹활약	-13418
▁사무국	-13419
▁일본식	-13420
▁편집장	-13421
tr	-13422
▁썩	-13423
곡면	-13424
▁-&	-13425
▁LS	-13426
▁연달	-13427
▁장신	-13428
▁키릴	-13429
▁곁들이	-13430
▁기원후	-13431
할린	-13432
▁간결	-13433
▁나탈	-13434
▁동탁	-13435
▁버진	-13436
▁세토	-13437
▁신해	-13438
▁엘레	-13439
▁유구	-13440
▁잔존	-13441
▁조석	-13442
▁취리히	-13443
▁컴파일	-13444
▁다이노스	-13445
▁빠져나가	-13446
▁협동조합	-13447
▁캣	-13448
조리	-13449
투르	-13450
▁시역	-13451
▁유망	-13452
▁처치	-13453
▁갈아타	-13454
▁1878	-13455
▁라이프치히	-13456
ky	-13457
참찬	-13458
▁기묘	-13459
▁완수	-13460
▁치이	-13461
▁연주회	-13462
▁치료제	-13463
▁타타르	-13464
▁프로모션	-13465
사화	-13466
위치	-13467
▁Qu	-13468
▁번개	-13469
▁차림	-13470
▁필명	-13471
▁대리석	-13472
▁부여군	-13473
▁제조사	-13474
▁미나모토노	-13475
ta	-13476
젤로	-13477
퉁이	-13478
▁가극	-13479
▁동자	-13480
▁상선	-13481
▁유림	-13482
▁이끼	-13483
rist	-13484
▁웨이브	-13485
▁홀딩스	-13486
▁백과사전	-13487
▁궐	-13488
▁밋	-13489
디언	-13490
▁강호	-13491
▁괄호	-13492
▁저축	-13493
▁절약	-13494
▁충신	-13495
▁HMS	-13496
▁Ser	-13497
▁사대부	-13498
▁이성질	-13499
hem	-13500
▁ㅁㅗ	-13501
▁스톰	-13502
▁씌우	-13503
▁작중	-13504
▁지그	-13505
▁직교	-13506
▁신기록	-13507
▁낡	-13508
▁샴	-13509
▁DR	-13510
▁자행	-13511
▁처장	-13512
▁하중	-13513
▁히노	-13514
플로러	-13515
▁802	-13516
▁익스플로러	-13517
ee	-13518
▁뵈	-13519
빌리	-13520
산부	-13521
▁개기	-13522
▁국력	-13523
▁바쿠	-13524
▁사드	-13525
▁옥천	-13526
▁뉴기니	-13527
▁글로브상	-13528
▁일리노이주	-13529
▁킷	-13530
▁팍	-13531
▁당파	-13532
▁부군	-13533
▁자부	-13534
▁접전	-13535
▁지린	-13536
뉴기니	-13537
▁플루토	-13538
▁핵분열	-13539
▁팻	-13540
▁무너	-13541
▁서지	-13542
▁시르	-13543
▁완만	-13544
▁횡령	-13545
중추부사	-13546
▁무너뜨리	-13547
▁널	-13548
벤션	-13549
▁가물	-13550
▁국인	-13551
▁다량	-13552
▁라다	-13553
▁매슈	-13554
▁스에	-13555
▁애기	-13556
▁영사	-13557
▁일설	-13558
▁중용	-13559
▁지탱	-13560
▁참패	-13561
▁후드	-13562
▁And	-13563
▁액세스	-13564
▁입법부	-13565
▁주고받	-13566
▁플러그	-13567
▁스케이트	-13568
일치	-13569
▁tr	-13570
▁급성	-13571
▁행군	-13572
▁와세다	-13573
▁1869	-13574
다스	-13575
루엔	-13576
▁고찰	-13577
▁과자	-13578
▁매도	-13579
▁변모	-13580
▁적정	-13581
▁참수	-13582
▁자릿수	-13583
▁포뮬러	-13584
▁프라이즈	-13585
누마	-13586
다발	-13587
▁Ag	-13588
▁보류	-13589
▁업로드	-13590
▁페르미	-13591
▁프로테	-13592
▁고등학생	-13593
▁되돌아가	-13594
시게	-13595
▁길드	-13596
▁서점	-13597
▁육식	-13598
▁잉크	-13599
▁정박	-13600
시아드	-13601
▁마포구	-13602
▁와타나베	-13603
▁코퍼레이션	-13604
셔주	-13605
▁도발	-13606
▁솔라	-13607
▁점진	-13608
▁표출	-13609
▁봉우리	-13610
▁쿠르드	-13611
▁프리츠	-13612
▁유니버시아드	-13613
내티	-13614
▁객실	-13615
▁다목	-13616
▁청각	-13617
▁현악	-13618
▁형주	-13619
▁회유	-13620
▁ㄹㅏㄱ	-13621
▁원자핵	-13622
▁특별법	-13623
▁해부학	-13624
▁신시내티	-13625
▁키르기스	-13626
▁벵골	-13627
▁용해	-13628
▁무사히	-13629
▁방위군	-13630
▁수비대	-13631
▁비스마르크	-13632
▁몸체	-13633
▁북대	-13634
▁소피	-13635
▁오보	-13636
▁저해	-13637
▁직물	-13638
▁추후	-13639
▁포천	-13640
▁이브스	-13641
▁1592	-13642
▁명성황후	-13643
▁요리토모	-13644
정보	-13645
▁로시	-13646
▁면직	-13647
▁변증	-13648
▁텍스	-13649
▁패킷	-13650
▁포탑	-13651
▁표절	-13652
▁경쟁자	-13653
▁베르나	-13654
▁안동시	-13655
ae	-13656
▁밧	-13657
▁썬	-13658
▁강우	-13659
▁고국	-13660
▁영유권	-13661
▁친선경기	-13662
▁고을	-13663
▁근방	-13664
▁맛보	-13665
▁부관	-13666
▁부두	-13667
▁일선	-13668
▁잔해	-13669
▁항생	-13670
▁기동전	-13671
▁외교부	-13672
▁운동량	-13673
▁인코딩	-13674
▁장로회	-13675
▁AA	-13676
▁목동	-13677
▁서거	-13678
▁아이젠	-13679
▁인지도	-13680
▁프라임	-13681
OU	-13682
암사	-13683
▁글렌	-13684
▁논산	-13685
▁무비	-13686
▁손님	-13687
▁오자	-13688
▁용수	-13689
▁위도	-13690
▁치사	-13691
▁건륭제	-13692
▁부등식	-13693
▁생화학	-13694
▁탬	-13695
▁대타	-13696
▁무색	-13697
▁사부	-13698
▁수당	-13699
▁시시	-13700
▁콜드	-13701
ount	-13702
▁골짜기	-13703
▁제작진	-13704
▁지하역	-13705
▁기조	-13706
▁성품	-13707
▁수레	-13708
▁컴필	-13709
▁피처	-13710
▁오스카	-13711
▁스파이더	-13712
▁후지와라	-13713
▁컴필레이션	-13714
▁박원	-13715
▁빈민	-13716
▁자처	-13717
▁행보	-13718
▁마그네	-13719
▁수도회	-13720
▁팔꿈치	-13721
▁크리스티나	-13722
세르	-13723
티컷	-13724
▁그물	-13725
▁금색	-13726
▁지체	-13727
▁축일	-13728
▁토라	-13729
▁헤더	-13730
▁여객기	-13731
▁코네티컷	-13732
BI	-13733
네르	-13734
노르	-13735
▁RC	-13736
▁모티	-13737
▁반입	-13738
▁이목	-13739
▁쫓기	-13740
▁토키	-13741
▁폴라	-13742
▁금강산	-13743
▁불가피	-13744
▁Song	-13745
▁마스코트	-13746
▁로드리게스	-13747
▁단역	-13748
▁루피	-13749
▁린다	-13750
▁아어	-13751
▁자정	-13752
가르트	-13753
▁Mon	-13754
▁며느리	-13755
▁목적지	-13756
▁1840	-13757
▁파시스트	-13758
▁여우원숭이	-13759
pr	-13760
구스	-13761
수염	-13762
ata	-13763
▁귀인	-13764
▁내란	-13765
▁민심	-13766
▁상의	-13767
▁위즈	-13768
▁유화	-13769
▁지문	-13770
▁캐슬	-13771
▁516	-13772
▁레지스터	-13773
▁me	-13774
▁가비	-13775
▁고제	-13776
▁병풍	-13777
▁빅터	-13778
▁수급	-13779
▁사생활	-13780
▁연예계	-13781
▁유년기	-13782
▁힐베르트	-13783
▁랙	-13784
per	-13785
▁닉스	-13786
▁디나	-13787
▁사소	-13788
▁추축	-13789
▁하라	-13790
▁헤일	-13791
▁네이트	-13792
▁로타르	-13793
▁창립자	-13794
▁return	-13795
▁볶	-13796
마디	-13797
자원	-13798
ade	-13799
▁KN	-13800
▁다쓰	-13801
▁소박	-13802
▁심소	-13803
▁출국	-13804
▁하수	-13805
스타인	-13806
▁리차드	-13807
▁에이전트	-13808
▁프랑스와	-13809
▁Heart	-13810
블릿	-13811
▁블러	-13812
▁자취	-13813
▁유엔군	-13814
▁매킨토시	-13815
▁사이언스	-13816
▁심리학자	-13817
▁지장보살	-13818
▁아나톨리아	-13819
작전	-13820
효소	-13821
히메	-13822
▁국화	-13823
▁유이	-13824
▁절친	-13825
▁쿼터	-13826
▁풍기	-13827
▁헤겔	-13828
▁글러브	-13829
▁종착역	-13830
▁히타치	-13831
▁Pe	-13832
▁가방	-13833
▁공상	-13834
▁그거	-13835
▁발착	-13836
▁분별	-13837
▁유골	-13838
▁유자	-13839
▁입출	-13840
▁탁구	-13841
▁튜브	-13842
▁티저	-13843
▁테크놀	-13844
▁파주시	-13845
▁필사본	-13846
사우루스	-13847
90	-13848
찬성	-13849
▁ab	-13850
▁거창	-13851
▁벤츠	-13852
▁성가	-13853
▁숙소	-13854
▁자질	-13855
▁출세	-13856
▁바닷물	-13857
▁패스트	-13858
▁와카야마	-13859
▁Windows	-13860
▁펜실베이니아주	-13861
▁낯	-13862
▁영미	-13863
▁영수	-13864
ㅇㅡㄴ	-13865
이치로	-13866
▁과반수	-13867
▁스트림	-13868
▁시니어	-13869
▁예언자	-13870
테랑	-13871
▁계룡	-13872
▁국세	-13873
▁농가	-13874
▁라라	-13875
▁변질	-13876
▁여포	-13877
▁이카	-13878
▁전단	-13879
▁천상	-13880
▁나치오	-13881
▁보유자	-13882
▁어도비	-13883
▁벳	-13884
날드	-13885
ium	-13886
▁겸직	-13887
▁넘버	-13888
▁란트	-13889
▁상과	-13890
▁상식	-13891
▁쌍성	-13892
▁자루	-13893
▁패망	-13894
▁강력히	-13895
▁구단주	-13896
▁영등포구	-13897
▁바쁘	-13898
▁백조	-13899
▁성대	-13900
▁수만	-13901
▁암수	-13902
▁퀴즈	-13903
▁8000	-13904
▁그린란드	-13905
▁남아시아	-13906
IX	-13907
▁단서	-13908
▁라프	-13909
▁바인	-13910
▁스택	-13911
▁염화	-13912
▁청취	-13913
▁최하	-13914
▁그래도	-13915
▁알프레드	-13916
▁세인트루이스	-13917
IF	-13918
▁강인	-13919
▁거사	-13920
▁온실	-13921
▁워스	-13922
▁조비	-13923
▁초음	-13924
▁흥원	-13925
▁적십자	-13926
▁지질학	-13927
▁Gl	-13928
▁렉스	-13929
▁악명	-13930
▁연중	-13931
▁윤휴	-13932
▁의주	-13933
▁휘발	-13934
계사	-13935
던트	-13936
부시	-13937
어하	-13938
▁괜찮	-13939
▁기행	-13940
▁베오	-13941
▁오시	-13942
▁페레	-13943
넌트	-13944
전선	-13945
히데	-13946
▁PL	-13947
▁권익	-13948
▁동호	-13949
▁중견	-13950
▁떠올리	-13951
▁세미나	-13952
▁시미즈	-13953
▁안창호	-13954
▁헤르만	-13955
▁1875	-13956
링겐	-13957
선언	-13958
욕장	-13959
▁문중	-13960
▁삭감	-13961
▁준동	-13962
▁하구	-13963
변속기	-13964
▁고문서	-13965
▁집단군	-13966
▁휩싸이	-13967
▁Aw	-13968
▁노현	-13969
▁상동	-13970
▁실상	-13971
▁Out	-13972
▁이와테	-13973
▁진주시	-13974
▁근본번뇌	-13975
▁데카르트	-13976
수단	-13977
탄두	-13978
▁As	-13979
▁가곡	-13980
▁에트	-13981
▁외척	-13982
▁의복	-13983
▁피살	-13984
▁보리스	-13985
기즈	-13986
테이	-13987
▁능가	-13988
▁독살	-13989
▁바보	-13990
▁웍스	-13991
▁유카	-13992
▁뒤따르	-13993
▁비둘기	-13994
▁되돌아오	-13995
▁기린	-13996
▁끌리	-13997
▁숙련	-13998
▁콜린	-13999
▁나리타	-14000
▁댈러스	-14001
▁맥아더	-14002
▁예비역	-14003
▁VS	-14004
▁강습	-14005
▁반론	-14006
▁볼록	-14007
▁수증	-14008
▁왜군	-14009
▁임종	-14010
▁저그	-14011
▁침식	-14012
▁키리	-14013
▁사이즈	-14014
▁엇갈리	-14015
기아	-14016
itt	-14017
▁니케	-14018
▁미지	-14019
▁설리	-14020
▁아다	-14021
▁철자	-14022
▁최남	-14023
▁혼잡	-14024
▁Gen	-14025
▁KTX	-14026
▁담당자	-14027
▁회고록	-14028
▁아우구스	-14029
구니	-14030
▁들르	-14031
▁선상	-14032
▁월화	-14033
▁텐서	-14034
▁파랗	-14035
레이트	-14036
▁AMD	-14037
▁관심사	-14038
▁컨벤션	-14039
어가	-14040
이에	-14041
son	-14042
▁sh	-14043
▁다름	-14044
▁디바	-14045
▁사각	-14046
▁신지	-14047
▁용지	-14048
▁이선	-14049
▁표제	-14050
▁게임기	-14051
사유	-14052
▁걸음	-14053
▁김두	-14054
▁다자	-14055
▁예프	-14056
▁원단	-14057
▁이심	-14058
▁친화	-14059
▁컵스	-14060
▁리스본	-14061
▁안타깝	-14062
▁치료법	-14063
▁고등교육	-14064
▁아나키스트	-14065
▁귀엽	-14066
▁규율	-14067
▁노원	-14068
▁도적	-14069
▁생원	-14070
▁어사	-14071
▁이희	-14072
▁일명	-14073
▁아세틸	-14074
▁통도사	-14075
▁파라오	-14076
▁남양주시	-14077
보당	-14078
▁교파	-14079
▁뉴런	-14080
▁로사	-14081
▁박히	-14082
▁인승	-14083
▁징집	-14084
▁키드	-14085
▁타나	-14086
▁해트	-14087
▁호그	-14088
▁돌고래	-14089
▁북극점	-14090
▁운전자	-14091
▁칭기즈	-14092
▁함경도	-14093
세서	-14094
▁DB	-14095
▁단양	-14096
▁뒤지	-14097
▁미학	-14098
▁방울	-14099
▁시찰	-14100
▁여럿	-14101
▁위크	-14102
▁은밀	-14103
▁표트르	-14104
▁모자이크	-14105
▁포르투갈어	-14106
어류	-14107
▁금정	-14108
▁셔틀	-14109
에이고	-14110
▁매디슨	-14111
▁친환경	-14112
▁병자호란	-14113
▁샌디에이고	-14114
PA	-14115
방향	-14116
▁TS	-14117
▁교훈	-14118
▁목장	-14119
▁에레	-14120
▁태안	-14121
세데스	-14122
▁가환환	-14123
▁다이쇼	-14124
▁레스터	-14125
▁크메르	-14126
▁피의자	-14127
▁학술지	-14128
알라	-14129
▁구루	-14130
▁문체	-14131
▁서약	-14132
▁아지	-14133
▁질투	-14134
▁집전	-14135
▁출품	-14136
▁취직	-14137
able	-14138
▁꽃차례	-14139
▁스케치	-14140
▁테오도	-14141
▁뉘른베르크	-14142
▁메르세데스	-14143
날레	-14144
▁기운	-14145
▁김연	-14146
▁닥치	-14147
▁로큰	-14148
▁생쥐	-14149
▁실명	-14150
▁안중	-14151
▁양파	-14152
▁원효	-14153
▁의성	-14154
▁의정	-14155
▁잠입	-14156
▁직렬	-14157
▁타쿠	-14158
해방군	-14159
▁광둥성	-14160
▁이사벨	-14161
▁토요타	-14162
크라테스	-14163
▁몽고메리	-14164
▁인민해방군	-14165
▁브란덴부르크	-14166
▁눌	-14167
▁땀	-14168
▁리크	-14169
▁서당	-14170
▁슈투	-14171
▁절충	-14172
▁정오	-14173
▁첩보	-14174
▁포인	-14175
록대부	-14176
▁신석기	-14177
▁연속극	-14178
▁장갑차	-14179
▁중앙선	-14180
▁디디	-14181
▁문관	-14182
▁바늘	-14183
▁체로	-14184
▁한민	-14185
▁성폭행	-14186
▁일부러	-14187
▁코트디	-14188
▁클리어	-14189
▁항공대	-14190
▁쳐들어오	-14191
▁코트디부아르	-14192
은사	-14193
ale	-14194
▁버트	-14195
▁선체	-14196
▁양지	-14197
▁열세	-14198
▁터너	-14199
▁호른	-14200
▁"()	-14201
▁비단털	-14202
▁쇼핑몰	-14203
▁크라운	-14204
▁클레어	-14205
ng	-14206
몽골	-14207
▁교관	-14208
▁달콤	-14209
▁로바	-14210
▁막강	-14211
▁면담	-14212
▁380	-14213
▁로큰롤	-14214
▁바나나	-14215
▁슈타인	-14216
▁아리랑	-14217
▁야마다	-14218
스코리아	-14219
▁비단털쥐	-14220
▁저널리스트	-14221
더링	-14222
▁기공	-14223
▁몹시	-14224
▁방호	-14225
▁변혁	-14226
▁인먼	-14227
▁로버츠	-14228
▁반감기	-14229
▁부적절	-14230
▁통신망	-14231
▁파스칼	-14232
▁안드로메다	-14233
놀드	-14234
부대	-14235
▁교화	-14236
▁레몬	-14237
▁모질	-14238
▁스펜	-14239
▁어부	-14240
▁영락	-14241
▁자장	-14242
▁폐허	-14243
▁데이트	-14244
▁스피커	-14245
엽수	-14246
우주	-14247
조사	-14248
촌리	-14249
▁래리	-14250
▁배반	-14251
▁야수	-14252
▁외면	-14253
▁강대국	-14254
▁싫어하	-14255
▁행해지	-14256
▁금환	-14257
▁세일	-14258
▁착각	-14259
▁특공	-14260
루엔자	-14261
▁708	-14262
▁선거인	-14263
▁송파구	-14264
▁정치국	-14265
▁바빌로니아	-14266
박사	-14267
행파	-14268
▁감기	-14269
▁명상	-14270
▁서클	-14271
▁순식	-14272
▁잉카	-14273
▁정에	-14274
▁향신	-14275
▁상반기	-14276
▁이랜드	-14277
▁종사자	-14278
▁오프라인	-14279
두사	-14280
르카	-14281
크리	-14282
▁가모	-14283
▁구아	-14284
▁모피	-14285
▁보그	-14286
▁비료	-14287
▁성행	-14288
▁수마	-14289
▁수은	-14290
▁술라	-14291
▁안식	-14292
▁예식	-14293
▁왕래	-14294
▁일차	-14295
▁환율	-14296
▁대항전	-14297
▁베르트	-14298
▁University	-14299
니에	-14300
뻐하	-14301
▁기마	-14302
▁보우	-14303
▁아노	-14304
▁엔젤	-14305
▁이홍	-14306
▁장정	-14307
▁정칙	-14308
▁즐거	-14309
▁헤센	-14310
▁후루	-14311
▁ATC	-14312
▁Vol	-14313
▁ㄹㅗㄹ	-14314
▁기뻐하	-14315
▁맥스웰	-14316
▁프론트	-14317
▁합성어	-14318
▁관음보살	-14319
▁라이베리아	-14320
▁탭	-14321
세키	-14322
▁At	-14323
▁문수	-14324
▁사주	-14325
▁슬리	-14326
▁Par	-14327
▁형용사	-14328
▁끌어올리	-14329
▁KO	-14330
▁WC	-14331
▁구세	-14332
▁규약	-14333
▁라울	-14334
▁마레	-14335
▁모체	-14336
▁위트	-14337
▁205	-14338
▁강희제	-14339
▁보호법	-14340
▁사할린	-14341
▁콘라트	-14342
건설	-14343
▁경순	-14344
▁데일	-14345
▁샤르	-14346
▁야코	-14347
▁정언	-14348
▁데뷔작	-14349
▁채권자	-14350
▁쇼트트랙	-14351
▁보컬리스트	-14352
쿠사	-14353
▁거머	-14354
▁동거	-14355
▁야권	-14356
▁율법	-14357
very	-14358
▁슈미트	-14359
▁벙	-14360
시대	-14361
▁JC	-14362
▁경의	-14363
▁극소	-14364
▁로니	-14365
▁실은	-14366
▁중일	-14367
▁건너오	-14368
▁캐스터	-14369
▁통계청	-14370
▁엑스박스	-14371
▁페널티킥	-14372
▁싯	-14373
연구	-14374
▁가명	-14375
▁결전	-14376
▁미첼	-14377
▁베티	-14378
▁외손	-14379
▁조봉	-14380
▁출격	-14381
▁치마	-14382
▁활기	-14383
▁보조금	-14384
ㄴㄷㅏㄴ	-14385
▁조선공산당	-14386
▁텅	-14387
모음	-14388
▁IR	-14389
▁기판	-14390
▁박용	-14391
▁실사	-14392
▁월남	-14393
▁이질	-14394
▁토피	-14395
▁235	-14396
▁DOS	-14397
▁되풀이	-14398
▁마주치	-14399
▁인플루엔자	-14400
▁동군	-14401
▁등산	-14402
▁라벨	-14403
▁상계	-14404
▁수역	-14405
▁시의	-14406
▁외할	-14407
▁칸트	-14408
▁후한	-14409
▁NBC	-14410
▁가이아	-14411
▁개그맨	-14412
▁사학자	-14413
▁호흡기	-14414
▁name	-14415
벌리	-14416
사와	-14417
▁군복	-14418
▁양서	-14419
▁에노	-14420
▁자키	-14421
▁호로	-14422
▁획기	-14423
▁스케줄	-14424
▁시마즈	-14425
▁가세	-14426
▁구타	-14427
▁기미	-14428
▁사미	-14429
▁안톤	-14430
▁에코	-14431
▁우기	-14432
▁정글	-14433
폴리탄	-14434
▁메트로폴리탄	-14435
▁엣	-14436
▁남단	-14437
▁모사	-14438
▁불쾌	-14439
▁서안	-14440
▁석기	-14441
▁염두	-14442
▁자위	-14443
▁후이	-14444
▁남극점	-14445
▁스케일	-14446
▁로베르토	-14447
화당	-14448
▁내림	-14449
▁비옥	-14450
▁초계	-14451
▁코바	-14452
▁화승	-14453
▁지하철역	-14454
▁셴	-14455
황색	-14456
▁경화	-14457
▁노카	-14458
▁리나	-14459
▁마흐	-14460
▁아연	-14461
▁외삼	-14462
▁웨어	-14463
▁재화	-14464
▁집사	-14465
▁타시	-14466
▁풀백	-14467
▁사무관	-14468
▁자격증	-14469
데기	-14470
▁cc	-14471
▁경종	-14472
▁금하	-14473
▁나기	-14474
▁버니	-14475
▁양극	-14476
▁종가	-14477
▁카로	-14478
▁칼륨	-14479
▁포니	-14480
▁순식간	-14481
▁브로드웨이	-14482
co	-14483
so	-14484
루즈	-14485
르산	-14486
▁골절	-14487
▁나한	-14488
▁병렬	-14489
▁실효	-14490
▁열악	-14491
▁하산	-14492
▁tvN	-14493
▁당뇨병	-14494
▁로페스	-14495
▁조각상	-14496
▁미스코리아	-14497
18	-14498
그램	-14499
보라	-14500
에쓰	-14501
▁라가	-14502
▁배당	-14503
▁유충	-14504
▁화원	-14505
ㄴㄷㅐ	-14506
▁시그마	-14507
▁신호장	-14508
▁열역학	-14509
▁천도교	-14510
▁테두리	-14511
▁랠	-14512
양이	-14513
▁복부	-14514
▁불복	-14515
▁시제	-14516
▁안팎	-14517
▁창구	-14518
▁키트	-14519
▁그레이엄	-14520
▁파푸아뉴기니	-14521
yn	-14522
큐슈	-14523
텐셜	-14524
ATO	-14525
▁고층	-14526
▁균일	-14527
▁띄우	-14528
▁부엌	-14529
▁세스	-14530
▁신병	-14531
▁양평	-14532
▁요직	-14533
▁족장	-14534
▁칠성	-14535
▁키타	-14536
▁패치	-14537
▁공주시	-14538
▁동아리	-14539
▁카디널	-14540
▁유가행파	-14541
▁중앙아메리카	-14542
열대	-14543
▁뉴멕	-14544
▁마늘	-14545
▁무능	-14546
▁무예	-14547
▁산조	-14548
▁솜씨	-14549
▁케리	-14550
▁협곡	-14551
▁라스트	-14552
▁안드레	-14553
▁최성기	-14554
▁뉴멕시코	-14555
▁우두머리	-14556
IVE	-14557
ala	-14558
▁박재	-14559
▁오마	-14560
▁은폐	-14561
▁이달	-14562
▁일주	-14563
▁정승	-14564
▁줄곧	-14565
▁홍익	-14566
▁안양시	-14567
▁스틸러스	-14568
▁일렉트릭	-14569
▁리시	-14570
▁일간	-14571
▁중남	-14572
▁침범	-14573
스크림	-14574
▁간호사	-14575
▁거주자	-14576
▁무지개	-14577
▁퍼텐셜	-14578
▁1874	-14579
▁This	-14580
악산	-14581
주크	-14582
▁결말	-14583
▁넷플	-14584
▁동백	-14585
▁레나	-14586
▁안심	-14587
▁애착	-14588
▁이색	-14589
▁통솔	-14590
▁넷플릭스	-14591
▁맴	-14592
시험	-14593
▁ㅅㅏ	-14594
▁기닿	-14595
▁기스	-14596
▁묘호	-14597
▁악당	-14598
▁축복	-14599
▁포자	-14600
▁김해시	-14601
▁동남쪽	-14602
▁반대편	-14603
▁콘퍼런스	-14604
▁잼	-14605
윽고	-14606
징어	-14607
▁sp	-14608
▁읍성	-14609
▁잔혹	-14610
▁재보	-14611
▁대수학	-14612
▁앞바다	-14613
▁에스컬	-14614
▁이윽고	-14615
▁조각가	-14616
▁항공편	-14617
▁후쿠이	-14618
▁바그다드	-14619
▁에스컬레이터	-14620
▁벚	-14621
신저	-14622
▁다쿠	-14623
▁숙박	-14624
▁젠더	-14625
▁조동	-14626
▁학당	-14627
▁204	-14628
▁컨퍼런스	-14629
▁퀄	-14630
운수	-14631
▁가뭄	-14632
▁라플	-14633
▁소론	-14634
▁이문	-14635
▁일삼	-14636
▁쿠마	-14637
진보당	-14638
▁게임즈	-14639
▁저스틴	-14640
▁지리산	-14641
▁프레슬리	-14642
ax	-14643
me	-14644
나들	-14645
▁리타	-14646
▁베크	-14647
▁잔여	-14648
▁캠벨	-14649
▁판명	-14650
▁한복	-14651
▁향수	-14652
▁클로드	-14653
소문	-14654
ody	-14655
▁낭비	-14656
▁몰수	-14657
▁발작	-14658
▁싱크	-14659
▁인스	-14660
▁한겨	-14661
▁가요제	-14662
▁뉴올리	-14663
▁트레일	-14664
▁1877	-14665
▁콜럼버스	-14666
▁뤄	-14667
▁송이	-14668
▁옥사	-14669
▁잉여	-14670
▁품목	-14671
▁루이즈	-14672
▁휴대폰	-14673
▁호소카와	-14674
▁서아프리카	-14675
▁알렉산데르	-14676
프랑	-14677
▁대류	-14678
▁메모	-14679
▁사중	-14680
▁애드	-14681
▁차오	-14682
▁클랜	-14683
▁다가가	-14684
▁원주시	-14685
▁바이마르	-14686
▁멀티미디어	-14687
더릭	-14688
민당	-14689
▁단발	-14690
▁도형	-14691
▁무가	-14692
▁상한	-14693
▁에페	-14694
▁코로	-14695
▁공학자	-14696
net	-14697
▁GR	-14698
▁강좌	-14699
▁손목	-14700
▁탄수	-14701
▁하지	-14702
▁APG	-14703
▁Bab	-14704
▁교육감	-14705
▁재미있	-14706
▁참전하	-14707
▁슈퍼스타	-14708
GB	-14709
▁쿰	-14710
anc	-14711
▁SR	-14712
▁델리	-14713
▁본존	-14714
▁소양	-14715
▁순찰	-14716
▁예멘	-14717
▁확충	-14718
▁흐리	-14719
▁사하라	-14720
▁허베이	-14721
▁7000	-14722
▁오아시스	-14723
양구	-14724
혈구	-14725
ash	-14726
ose	-14727
▁격전	-14728
▁곤살	-14729
▁그르	-14730
▁바니	-14731
▁복속	-14732
▁빌드	-14733
▁주군	-14734
▁코크	-14735
▁토바	-14736
▁행선	-14737
▁브리스	-14738
▁핸드볼	-14739
oid	-14740
▁경내	-14741
▁그립	-14742
▁양천	-14743
▁총영	-14744
▁컨설팅	-14745
▁Best	-14746
바드	-14747
변수	-14748
▁가온	-14749
▁고승	-14750
▁맞물	-14751
▁아킬	-14752
▁출사	-14753
▁성폭력	-14754
▁스타드	-14755
▁중거리	-14756
▁채무자	-14757
▁플루토늄	-14758
22	-14759
au	-14760
를레	-14761
▁AF	-14762
▁로망	-14763
▁모치	-14764
▁무주	-14765
▁오구	-14766
▁재회	-14767
▁처마	-14768
▁카일	-14769
야누스	-14770
▁비잔틴	-14771
▁셀주크	-14772
▁콜린스	-14773
14	-14774
ps	-14775
높이	-14776
ict	-14777
▁et	-14778
▁너희	-14779
▁산체	-14780
▁선단	-14781
▁엄지	-14782
▁에볼	-14783
▁인성	-14784
▁한겨레	-14785
▁기울어지	-14786
▁캄파니아	-14787
비에	-14788
▁미겔	-14789
▁블랑	-14790
▁석권	-14791
▁시발	-14792
▁요가	-14793
▁점하	-14794
▁추계	-14795
▁코린	-14796
▁Her	-14797
▁강화군	-14798
▁부르봉	-14799
▁수백만	-14800
▁엘비스	-14801
▁다카하시	-14802
▁트라야누스	-14803
▁아우구스투스	-14804
일기	-14805
▁AE	-14806
▁강국	-14807
▁산문	-14808
▁소인	-14809
▁인계	-14810
▁자성	-14811
▁여운형	-14812
▁오릭스	-14813
▁Hell	-14814
▁돌려보내	-14815
▁메모리얼	-14816
▁클러스터	-14817
남면	-14818
피크	-14819
▁관아	-14820
▁깔리	-14821
▁나투	-14822
▁바야	-14823
▁방학	-14824
▁소르	-14825
▁앞뒤	-14826
▁유창	-14827
어나오	-14828
▁한국군	-14829
▁1859	-14830
▁만장일치	-14831
▁KS	-14832
▁ㅁㅓ	-14833
▁감축	-14834
▁공문	-14835
▁노하	-14836
▁문맥	-14837
▁원사	-14838
▁전조	-14839
▁제지	-14840
▁ㄹㅏㅁ	-14841
▁경부선	-14842
▁오르간	-14843
▁전시관	-14844
▁콘티넨	-14845
▁포식자	-14846
▁툼	-14847
▁us	-14848
▁결장	-14849
▁도안	-14850
▁라임	-14851
▁민원	-14852
▁사연	-14853
▁선과	-14854
▁숙명	-14855
▁지령	-14856
▁CIA	-14857
▁서스펜	-14858
▁앙드레	-14859
▁1700	-14860
▁프리큐어	-14861
범죄	-14862
장사	-14863
제철	-14864
토크	-14865
▁가선	-14866
▁거시	-14867
▁레크	-14868
▁뮐러	-14869
▁소주	-14870
▁승률	-14871
▁중건	-14872
▁펭귄	-14873
▁아파치	-14874
▁청문회	-14875
▁혼합물	-14876
형제	-14877
▁건지	-14878
▁도부	-14879
▁도읍	-14880
▁두뇌	-14881
▁명왕	-14882
▁미켈	-14883
▁미트	-14884
▁우표	-14885
▁율리	-14886
▁이씨	-14887
▁태화	-14888
▁퇴진	-14889
▁교육학	-14890
▁루카스	-14891
▁연방군	-14892
▁클레오	-14893
13	-14894
15	-14895
EEE	-14896
▁곡식	-14897
▁네브	-14898
▁니즈	-14899
▁뚜껑	-14900
▁발판	-14901
▁밸브	-14902
▁스플	-14903
▁완장	-14904
▁화염	-14905
▁개화파	-14906
▁거머쥐	-14907
▁게이밍	-14908
▁아놀드	-14909
▁오리엔	-14910
▁외계인	-14911
▁갈릴레오	-14912
▁문물	-14913
▁볼드	-14914
▁스펙	-14915
▁원문	-14916
▁제비	-14917
▁퇴치	-14918
▁518	-14919
▁사다리	-14920
▁우에노	-14921
▁현미경	-14922
데일	-14923
란다	-14924
로트	-14925
▁대입	-14926
▁서품	-14927
▁요도	-14928
▁통찰	-14929
▁플랑	-14930
▁순천시	-14931
▁울트라	-14932
▁미야기현	-14933
▁자이언트	-14934
▁자카르타	-14935
계약	-14936
나시	-14937
▁공병	-14938
▁나일	-14939
▁리안	-14940
▁모교	-14941
▁산재	-14942
▁예금	-14943
▁의제	-14944
▁허물	-14945
▁곧이어	-14946
▁억제제	-14947
▁인류학	-14948
▁핵탄두	-14949
▁사무라이	-14950
▁테크놀로지	-14951
VA	-14952
완다	-14953
▁se	-14954
▁롤러	-14955
▁사병	-14956
▁앨라	-14957
▁재물	-14958
▁푸젠	-14959
▁함장	-14960
▁화소	-14961
▁625	-14962
▁아키텐	-14963
▁라이센스	-14964
▁멱	-14965
마을	-14966
▁구가	-14967
▁되살	-14968
▁뒤덮	-14969
▁벗기	-14970
▁상감	-14971
▁왕당	-14972
▁전범	-14973
▁이론가	-14974
주석	-14975
uck	-14976
▁SO	-14977
▁구전	-14978
▁바투	-14979
▁백운	-14980
▁블룸	-14981
▁츠카	-14982
▁투사	-14983
▁화음	-14984
▁빌바오	-14985
▁레닌주의	-14986
▁^	-14987
▁뮈	-14988
▁챠	-14989
무장	-14990
▁과세	-14991
▁부식	-14992
▁쓰리	-14993
▁지크	-14994
▁이케다	-14995
de	-14996
▁켐	-14997
매기	-14998
투리	-14999
▁YG	-15000
▁아누	-15001
▁제니퍼	-15002
▁스테파노	-15003
동원	-15004
버터	-15005
▁만지	-15006
▁바젤	-15007
▁박찬	-15008
▁발터	-15009
▁북측	-15010
▁산남	-15011
▁차명	-15012
▁후견	-15013
▁바스크	-15014
▁직사각	-15015
▁환승역	-15016
▁IEEE	-15017
▁아드리아	-15018
▁크리스틴	-15019
HL	-15020
고사	-15021
▁거병	-15022
▁경합	-15023
▁레티	-15024
▁기념장	-15025
▁목표물	-15026
▁서태지	-15027
▁탈레반	-15028
▁아이스크림	-15029
▁웜	-15030
과학	-15031
나주	-15032
재판	-15033
▁무공	-15034
▁억울	-15035
▁총감	-15036
▁테헤	-15037
▁후회	-15038
▁난쟁이	-15039
▁돌려주	-15040
▁미성년	-15041
▁아이치	-15042
▁이치현	-15043
▁쓰러뜨리	-15044
▁샷	-15045
▁변론	-15046
▁사와	-15047
▁상환	-15048
▁속국	-15049
▁왕명	-15050
▁원점	-15051
▁자갈	-15052
▁피자	-15053
▁하후	-15054
▁회차	-15055
reak	-15056
▁결의안	-15057
▁선제후	-15058
▁출장소	-15059
▁트레인	-15060
▁고바야시	-15061
주사	-15062
▁덮치	-15063
▁북인	-15064
▁산술	-15065
▁서체	-15066
▁오와	-15067
▁전서	-15068
▁코이	-15069
▁튜링	-15070
▁340	-15071
▁케이드	-15072
▁아미타불	-15073
▁뉴클레오타이드	-15074
스톤	-15075
▁ㄱㅡ	-15076
▁김학	-15077
▁리언	-15078
▁이창	-15079
▁일어	-15080
▁정청	-15081
▁특명	-15082
▁가치관	-15083
▁마코토	-15084
▁빈센트	-15085
▁셰퍼드	-15086
▁순교자	-15087
▁쓰촨성	-15088
▁향신료	-15089
▁FF	-15090
▁경원	-15091
▁뉴잉	-15092
▁담양	-15093
▁로디	-15094
▁만류	-15095
▁알로	-15096
▁여정	-15097
▁자네	-15098
▁장경	-15099
▁적법	-15100
▁하층	-15101
▁희미	-15102
▁로저스	-15103
▁이주민	-15104
▁출판물	-15105
▁소아시아	-15106
▁카디널스	-15107
oo	-15108
티지	-15109
ail	-15110
▁as	-15111
▁로보	-15112
▁진천	-15113
▁청정	-15114
▁후면	-15115
▁미트라	-15116
▁지석묘	-15117
▁통계학	-15118
스퍼	-15119
▁관군	-15120
▁근간	-15121
▁논증	-15122
▁도끼	-15123
▁전봉	-15124
▁조회	-15125
▁화풍	-15126
게이트	-15127
▁길거리	-15128
▁볼프강	-15129
▁해인사	-15130
▁Star	-15131
▁서바이벌	-15132
▁매사추세츠주	-15133
HC	-15134
▁펙	-15135
패드	-15136
▁관위	-15137
▁백지	-15138
▁법규	-15139
▁사산	-15140
▁섹션	-15141
▁용맹	-15142
▁원만	-15143
▁정역	-15144
▁헬스	-15145
▁달려가	-15146
▁레이건	-15147
▁로스트	-15148
▁이광수	-15149
▁정착지	-15150
▁긋	-15151
르바	-15152
조류	-15153
▁군기	-15154
▁맹렬	-15155
▁베다	-15156
▁보어	-15157
▁어선	-15158
▁우니	-15159
▁이만	-15160
▁주포	-15161
▁헤라	-15162
▁홀수	-15163
▁가우스	-15164
▁실린더	-15165
▁튀어나오	-15166
▁구라	-15167
▁발광	-15168
▁베가	-15169
▁양동	-15170
▁일면	-15171
▁입찰	-15172
▁자백	-15173
하마드	-15174
▁310	-15175
▁대혁명	-15176
▁국가원수	-15177
▁Super	-15178
▁my	-15179
▁나바	-15180
▁보국	-15181
▁수주	-15182
▁아칸	-15183
▁오인	-15184
▁젤리	-15185
▁퇴출	-15186
▁개막식	-15187
▁개척자	-15188
▁대사간	-15189
▁얄	-15190
▁짚	-15191
댓값	-15192
배마	-15193
장조	-15194
▁거문	-15195
▁달력	-15196
▁사생	-15197
▁수프	-15198
▁커브	-15199
▁평방	-15200
▁Sun	-15201
▁국내선	-15202
▁예문관	-15203
▁원정대	-15204
▁카리스	-15205
▁앨라배마	-15206
플레	-15207
▁개경	-15208
▁결여	-15209
▁공석	-15210
▁도매	-15211
▁멜라	-15212
▁발진	-15213
▁상설	-15214
▁안주	-15215
▁짝수	-15216
▁추장	-15217
▁209	-15218
▁바빌론	-15219
▁불러오	-15220
▁울주군	-15221
▁끔	-15222
▁교감	-15223
▁김우	-15224
▁로코	-15225
▁사탄	-15226
▁손수	-15227
▁폐차	-15228
▁호화	-15229
떨어지	-15230
▁후쿠시마현	-15231
소니	-15232
▁김도	-15233
▁승낙	-15234
▁추밀	-15235
▁타밀	-15236
▁통감	-15237
▁폐하	-15238
▁you	-15239
▁오슬로	-15240
▁자치현	-15241
▁그래픽스	-15242
▁어우러지	-15243
▁유니코드	-15244
▁뉴잉글랜드	-15245
▁뽀	-15246
학파	-15247
iel	-15248
▁교인	-15249
▁근세	-15250
▁금관	-15251
▁김주	-15252
▁명륜	-15253
▁미러	-15254
▁부락	-15255
▁산정	-15256
▁시력	-15257
▁연해	-15258
▁토프	-15259
▁무신론	-15260
▁브레멘	-15261
▁셀레우	-15262
▁윤치영	-15263
▁콘스탄티누스	-15264
TF	-15265
어놓	-15266
▁과달	-15267
▁맞배	-15268
▁박경	-15269
▁성조	-15270
▁타파	-15271
▁탄두	-15272
▁피그	-15273
▁교황령	-15274
▁르완다	-15275
▁삼거리	-15276
▁1812	-15277
▁Soul	-15278
▁ad	-15279
▁김덕	-15280
▁로컬	-15281
▁상층	-15282
▁정실	-15283
▁터스	-15284
▁대관식	-15285
▁디에고	-15286
▁에이브	-15287
▁자오선	-15288
▁오토바이	-15289
▁무형문화재	-15290
초프	-15291
티어	-15292
vel	-15293
▁Kn	-15294
▁강유	-15295
▁로런	-15296
▁보디	-15297
▁속초	-15298
▁수문	-15299
▁유틸	-15300
▁의인	-15301
▁장강	-15302
▁충동	-15303
▁206	-15304
▁대제학	-15305
▁송진우	-15306
▁아스카	-15307
▁에이지	-15308
▁페스트	-15309
▁ICBM	-15310
▁모니터링	-15311
▁선거관리	-15312
▁알렉세이	-15313
▁유틸리티	-15314
▁선거관리위원회	-15315
59	-15316
의식	-15317
▁닷컴	-15318
▁떠돌	-15319
▁뚫리	-15320
▁루손	-15321
▁산인	-15322
▁선별	-15323
▁어학	-15324
▁장지	-15325
▁지검	-15326
▁지카	-15327
▁템플	-15328
▁항문	-15329
▁호국	-15330
▁호이	-15331
▁단말기	-15332
▁아니면	-15333
▁자본가	-15334
▁한자어	-15335
▁근위	-15336
▁나시	-15337
▁무진	-15338
▁아호	-15339
▁안면	-15340
▁주유	-15341
▁투니	-15342
하우스	-15343
▁대대장	-15344
▁에세이	-15345
▁아이파크	-15346
▁Christ	-15347
▁쑹	-15348
디드	-15349
▁늦추	-15350
▁다윗	-15351
▁무위	-15352
▁센타	-15353
▁수구	-15354
▁어지	-15355
▁코우	-15356
▁여수시	-15357
▁음식점	-15358
▁서비스업	-15359
▁중앙일보	-15360
도감	-15361
샤오	-15362
ute	-15363
▁금천	-15364
▁루드	-15365
▁메드	-15366
▁모션	-15367
▁문건	-15368
▁빨강	-15369
▁산동	-15370
▁샤오	-15371
▁스쿼	-15372
▁주거지	-15373
▁안토니우스	-15374
구미	-15375
면적	-15376
▁배타	-15377
▁법상	-15378
▁세제	-15379
▁장이	-15380
▁쪼개	-15381
▁풀이	-15382
시아키	-15383
▁록히드	-15384
▁슈투트	-15385
▁조광조	-15386
▁주제가	-15387
▁건국훈장	-15388
▁슈투트가르트	-15389
EA	-15390
탄올	-15391
▁ON	-15392
▁Tw	-15393
▁매듭	-15394
▁변성	-15395
▁수질	-15396
▁점토	-15397
▁차역	-15398
▁철기	-15399
▁콜론	-15400
▁해주	-15401
공화당	-15402
▁조르주	-15403
▁1879	-15404
▁막시밀리	-15405
▁민주공화당	-15406
OK	-15407
네오	-15408
▁Mi	-15409
▁그늘	-15410
▁동급	-15411
▁솔리	-15412
▁기생충	-15413
▁로널드	-15414
▁안데스	-15415
▁접미사	-15416
▁John	-15417
버라	-15418
▁로지	-15419
▁버밍	-15420
▁수라	-15421
▁조던	-15422
▁집적	-15423
▁춘계	-15424
▁747	-15425
▁고지대	-15426
▁보이즈	-15427
▁테헤란	-15428
▁베르사유	-15429
▁북대서양	-15430
구나	-15431
▁HP	-15432
▁걸스	-15433
▁당상	-15434
▁마다	-15435
▁범람	-15436
▁세밀	-15437
▁슬러	-15438
▁이건	-15439
▁초식	-15440
▁카보	-15441
▁하강	-15442
▁안철수	-15443
▁파르마	-15444
gh	-15445
무지	-15446
▁교재	-15447
▁대방	-15448
▁도자	-15449
▁손쉽	-15450
▁양원	-15451
▁의논	-15452
▁천자	-15453
▁백두산	-15454
▁연대장	-15455
▁제이크	-15456
▁조봉암	-15457
▁카지노	-15458
▁피어스	-15459
RI	-15460
방스	-15461
▁Mr	-15462
▁울루	-15463
▁유계	-15464
▁진심	-15465
▁초회	-15466
▁석회암	-15467
▁의병장	-15468
▁IF	-15469
▁도파	-15470
▁양념	-15471
▁카토	-15472
▁CoA	-15473
▁des	-15474
▁독재자	-15475
▁사우디	-15476
▁름	-15477
화산	-15478
▁귀순	-15479
▁영도	-15480
▁위축	-15481
▁유세	-15482
▁이코	-15483
▁콘스	-15484
▁App	-15485
▁바닷가	-15486
네프	-15487
▁공경	-15488
▁규합	-15489
▁대여	-15490
▁아람	-15491
▁임실	-15492
▁자석	-15493
▁청일	-15494
▁포상	-15495
▁420	-15496
▁라그랑	-15497
▁태블릿	-15498
▁아브라함	-15499
▁뉴올리언스	-15500
▁일렉트로닉	-15501
슐리	-15502
▁관개	-15503
▁구비	-15504
▁농담	-15505
▁동맥	-15506
▁부기	-15507
▁사파	-15508
▁소량	-15509
▁유보	-15510
▁카펠	-15511
▁쿠시	-15512
▁클럭	-15513
▁휴일	-15514
로세서	-15515
▁개개인	-15516
▁레코딩	-15517
▁여행자	-15518
정변	-15519
팩스	-15520
▁노역	-15521
▁듀스	-15522
▁방탄	-15523
▁스완	-15524
▁스텐	-15525
▁영종	-15526
▁카파	-15527
▁컬링	-15528
레틱스	-15529
▁사가미	-15530
▁암스트	-15531
▁여러분	-15532
리아누스	-15533
▁애슬레틱스	-15534
분투	-15535
▁국문	-15536
▁군마	-15537
▁노마	-15538
▁단수	-15539
▁두부	-15540
▁딱딱	-15541
▁모태	-15542
▁수족	-15543
▁호시	-15544
▁황위	-15545
라이스	-15546
▁글리제	-15547
▁리그컵	-15548
▁무사시	-15549
▁썸	-15550
바퀴	-15551
연맹	-15552
▁가창	-15553
▁과감	-15554
▁권투	-15555
▁동대	-15556
▁머큐	-15557
▁반달	-15558
▁불문	-15559
▁스킨	-15560
▁일보	-15561
▁카다	-15562
를레앙	-15563
▁니가타	-15564
▁아이작	-15565
▁인산화	-15566
신보	-15567
▁고후	-15568
▁기권	-15569
▁두스	-15570
▁비오	-15571
▁소포	-15572
▁전열	-15573
▁최용	-15574
▁트리스	-15575
▁주머니쥐	-15576
▁꽝	-15577
▁보아	-15578
▁상이	-15579
▁원한	-15580
▁인삼	-15581
▁체리	-15582
▁국방군	-15583
▁알칼리	-15584
▁Record	-15585
블릭	-15586
VID	-15587
ull	-15588
▁강가	-15589
▁김시	-15590
▁니치	-15591
▁반납	-15592
▁양정	-15593
▁정맥	-15594
▁현수	-15595
▁440	-15596
▁원종공신	-15597
▁쿵	-15598
▁"|	-15599
▁광시	-15600
▁불능	-15601
▁인척	-15602
▁할구	-15603
▁호적	-15604
▁잠비아	-15605
▁테크노	-15606
▁print	-15607
▁아우구스트	-15608
▁PA	-15609
▁끊이	-15610
▁시타	-15611
▁애호	-15612
▁용역	-15613
▁유상	-15614
▁조우	-15615
▁처칠	-15616
▁풍요	-15617
▁변호인	-15618
▁들어올리	-15619
▁타지키스탄	-15620
▁public	-15621
링크	-15622
박이	-15623
산업	-15624
선교	-15625
▁끔찍	-15626
▁대등	-15627
▁리퍼	-15628
▁폴로	-15629
▁후추	-15630
▁Str	-15631
▁바실리	-15632
▁수영장	-15633
▁오메가	-15634
▁항생제	-15635
길준	-15636
자드	-15637
▁DO	-15638
▁po	-15639
▁궁주	-15640
▁능숙	-15641
▁도나	-15642
▁부트	-15643
▁부화	-15644
▁빛깔	-15645
▁왕녀	-15646
▁중등	-15647
▁커리	-15648
▁타라	-15649
▁게이오	-15650
▁스위트	-15651
▁엘리스	-15652
▁영사관	-15653
▁퀼	-15654
반정	-15655
태자	-15656
▁Gu	-15657
▁낯설	-15658
▁동하	-15659
▁미타	-15660
▁신익	-15661
▁아로	-15662
▁용문	-15663
▁차차	-15664
▁해커	-15665
▁Per	-15666
▁그러면	-15667
▁본거지	-15668
▁오토모	-15669
▁유기체	-15670
▁클라리	-15671
▁합병증	-15672
NT	-15673
수지	-15674
장군	-15675
티보	-15676
▁nm	-15677
▁나토	-15678
▁남경	-15679
▁노엘	-15680
▁성현	-15681
▁열람	-15682
▁은평	-15683
▁자각	-15684
▁종실	-15685
▁항전	-15686
▁환산	-15687
▁산투스	-15688
▁실리콘	-15689
▁여주인	-15690
▁허버트	-15691
▁쑨	-15692
레미	-15693
자나	-15694
▁감당	-15695
▁금기	-15696
▁리노	-15697
▁아루	-15698
▁예보	-15699
▁유민	-15700
▁이한	-15701
▁잇달	-15702
▁전곡	-15703
▁제고	-15704
▁군주제	-15705
▁야구부	-15706
▁양산시	-15707
▁엔리케	-15708
▁영화관	-15709
▁페이퍼	-15710
바이러스	-15711
▁파르티아	-15712
덕궁	-15713
▁교학	-15714
▁사나	-15715
▁성자	-15716
▁소진	-15717
▁유관	-15718
▁접목	-15719
▁제방	-15720
▁증축	-15721
▁퀸스	-15722
▁환초	-15723
▁흐트	-15724
▁공성전	-15725
▁바레인	-15726
▁오우치	-15727
▁엔지니어링	-15728
대비	-15729
▁기시	-15730
▁동두	-15731
▁라쿠	-15732
▁문어	-15733
▁압수	-15734
▁콜리	-15735
▁타선	-15736
▁투병	-15737
▁시에라	-15738
▁2500	-15739
▁천문단위	-15740
▁ㅇㅡㄹㅅㅜ	-15741
▁다마스쿠스	-15742
황제	-15743
▁리지	-15744
▁명동	-15745
▁무패	-15746
▁북마	-15747
▁앙상	-15748
▁열거	-15749
▁요셉	-15750
▁이설	-15751
▁코인	-15752
▁화이	-15753
로그램	-15754
▁256	-15755
▁기본법	-15756
▁엘리엇	-15757
▁제시카	-15758
▁조용히	-15759
▁초고층	-15760
▁카스텔	-15761
▁플래닛	-15762
▁불법행위	-15763
16	-15764
쿠치	-15765
▁게놈	-15766
▁군도	-15767
▁담수	-15768
▁당장	-15769
▁식이	-15770
▁온전	-15771
▁자존	-15772
▁파고	-15773
▁Win	-15774
▁비행사	-15775
▁왕당파	-15776
▁캅카스	-15777
▁리바운드	-15778
25	-15779
포리	-15780
ual	-15781
▁바바	-15782
▁사스	-15783
▁수아	-15784
▁우타	-15785
▁투기	-15786
▁ㅁㅓㄴ	-15787
▁랴오닝	-15788
▁살아오	-15789
▁즐거움	-15790
발트	-15791
일체	-15792
▁논평	-15793
▁매복	-15794
▁사목	-15795
▁사체	-15796
▁아역	-15797
▁앉히	-15798
▁코니	-15799
▁피질	-15800
▁헐리	-15801
ogle	-15802
▁부추기	-15803
▁크리스탈	-15804
▁헬레니즘	-15805
데오	-15806
▁실베	-15807
▁오차	-15808
▁왕좌	-15809
▁유미	-15810
▁카츠	-15811
▁Hot	-15812
▁리바이	-15813
▁이세이	-15814
▁접근성	-15815
자락	-15816
▁교명	-15817
▁균등	-15818
▁내시	-15819
▁농협	-15820
▁성교	-15821
▁역동	-15822
▁이석	-15823
▁접시	-15824
▁중신	-15825
▁패자	-15826
▁향로	-15827
▁호찌	-15828
▁호투	-15829
고로드	-15830
▁광합성	-15831
▁남북조	-15832
▁브루노	-15833
▁리치먼드	-15834
ty	-15835
스틱	-15836
커우	-15837
▁라사	-15838
▁셔츠	-15839
▁응력	-15840
그래피	-15841
▁버스터	-15842
▁부서지	-15843
▁예수교	-15844
▁사이클론	-15845
▁뜯	-15846
▁캥	-15847
▁담임	-15848
▁동체	-15849
▁시영	-15850
▁왕릉	-15851
▁코일	-15852
▁힐스	-15853
▁208	-15854
▁예비군	-15855
▁제주시	-15856
▁조연상	-15857
▁주둔지	-15858
▁춘천시	-15859
▁대법원장	-15860
ㅁㅏㄹㄹㅗ	-15861
▁아미타여래	-15862
무트	-15863
울루	-15864
▁CA	-15865
▁Ke	-15866
▁마거	-15867
▁상회	-15868
▁석재	-15869
▁아구	-15870
▁이보	-15871
▁베이직	-15872
▁오이타	-15873
▁유도탄	-15874
▁페르시	-15875
▁프리드	-15876
▁1789	-15877
▁ㅣ	-15878
다임	-15879
▁가결	-15880
▁광동	-15881
▁부안	-15882
▁시온	-15883
▁탈피	-15884
▁행운	-15885
던지기	-15886
▁맞물리	-15887
▁Back	-15888
RNA	-15889
▁HS	-15890
▁mu	-15891
▁미녀	-15892
▁성형	-15893
▁스팀	-15894
▁정직	-15895
▁촐라	-15896
▁칠곡	-15897
▁할로	-15898
프리드	-15899
▁911	-15900
▁머큐리	-15901
▁부러지	-15902
▁사무엘	-15903
▁스텔스	-15904
▁유길준	-15905
▁잠재력	-15906
▁조제프	-15907
▁후유증	-15908
▁1801	-15909
▁플랑드르	-15910
는점	-15911
평면	-15912
▁금리	-15913
▁반정	-15914
▁반향	-15915
▁소노	-15916
▁양구	-15917
▁예쁘	-15918
▁쿠루	-15919
▁킬러	-15920
▁트램	-15921
▁히코	-15922
▁지극히	-15923
▁기타큐슈	-15924
▁곱하	-15925
▁느슨	-15926
▁득실	-15927
▁지브	-15928
▁진성	-15929
▁초석	-15930
리오스	-15931
▁네바다	-15932
▁렌더링	-15933
▁아르테	-15934
▁1400	-15935
▁암스트롱	-15936
▁패러다임	-15937
▁포틀랜드	-15938
ll	-15939
인산	-15940
▁Fl	-15941
▁녹이	-15942
▁누마	-15943
▁바타	-15944
▁봉분	-15945
▁악어	-15946
▁안시	-15947
▁MIT	-15948
▁고다이	-15949
▁들여오	-15950
▁영문학	-15951
▁Kore	-15952
▁KD	-15953
▁강자	-15954
▁고독	-15955
▁이크	-15956
▁파피	-15957
▁Get	-15958
▁재결합	-15959
▁호기심	-15960
▁남한산성	-15961
▁비로자나	-15962
▁MD	-15963
▁NM	-15964
▁영성	-15965
▁원곡	-15966
▁유독	-15967
▁윤곽	-15968
▁총생	-15969
▁치킨	-15970
▁침수	-15971
▁깨어나	-15972
▁NATO	-15973
스텐	-15974
▁개표	-15975
▁기피	-15976
▁신천	-15977
▁실책	-15978
▁애프	-15979
▁오웬	-15980
▁중학	-15981
▁폐교	-15982
▁370	-15983
▁길버트	-15984
▁내몽골	-15985
▁로런스	-15986
▁사망률	-15987
▁사천왕	-15988
▁양평군	-15989
ox	-15990
▁갑신	-15991
▁강타	-15992
▁군량	-15993
▁그릴	-15994
▁기한	-15995
▁깊숙	-15996
▁여관	-15997
▁작자	-15998
▁영장류	-15999
▁웨슬리	-16000
▁프린세스	-16001
불명	-16002
▁가전	-16003
▁거품	-16004
▁교란	-16005
▁구부	-16006
▁동률	-16007
▁멘델	-16008
▁정중	-16009
▁조율	-16010
▁즉흥	-16011
ames	-16012
▁다행히	-16013
▁슈트라	-16014
▁판매고	-16015
▁NA	-16016
▁NL	-16017
▁겨냥	-16018
▁구애	-16019
▁약품	-16020
▁워낙	-16021
▁채집	-16022
lect	-16023
▁매니아	-16024
▁생산자	-16025
▁선수상	-16026
▁요나라	-16027
▁항공우주	-16028
▁Intern	-16029
▁킵	-16030
로움	-16031
제사	-16032
▁균열	-16033
▁극회	-16034
▁대용	-16035
▁도화	-16036
▁승선	-16037
▁전과	-16038
▁준하	-16039
▁총국	-16040
▁치밀	-16041
▁방법론	-16042
▁붉은색	-16043
▁브릿지	-16044
▁앙상블	-16045
▁토론회	-16046
▁드래곤즈	-16047
▁슈트라우스	-16048
▁렬	-16049
▁쐐	-16050
▁국산	-16051
▁군림	-16052
▁노골	-16053
▁발열	-16054
▁승마	-16055
▁에픽	-16056
▁우디	-16057
▁커넥	-16058
▁코딩	-16059
▁타키	-16060
▁트론	-16061
▁마운틴	-16062
▁불거지	-16063
▁알베르	-16064
ology	-16065
▁미식축구	-16066
▁탄수화물	-16067
▁관원	-16068
▁관저	-16069
▁내기	-16070
▁노름	-16071
▁미로	-16072
▁민선	-16073
▁사조	-16074
▁얼리	-16075
▁예편	-16076
▁첫날	-16077
▁출정	-16078
▁코디	-16079
▁현관	-16080
▁호지	-16081
▁후난	-16082
▁오리건	-16083
▁지배하	-16084
피카	-16085
let	-16086
▁세타	-16087
▁신궁	-16088
▁쐐기	-16089
▁제헌	-16090
▁청중	-16091
▁탄력	-16092
▁남아공	-16093
▁동일시	-16094
▁디렉터	-16095
▁부천시	-16096
▁추축국	-16097
▁흘러가	-16098
ature	-16099
▁독립선언	-16100
▁생물학자	-16101
▁이마가와	-16102
▁해수욕장	-16103
▁셀레우코스	-16104
YP	-16105
빨리	-16106
▁먼로	-16107
▁변천	-16108
▁쌍용	-16109
▁케로	-16110
▁Mag	-16111
그라운드	-16112
▁Baby	-16113
▁리하르트	-16114
레븐	-16115
모닉	-16116
▁가변	-16117
▁기일	-16118
▁니트	-16119
▁무루	-16120
▁미디	-16121
▁성부	-16122
▁안건	-16123
▁열기	-16124
▁장승	-16125
▁지회	-16126
▁카인	-16127
▁캔터	-16128
▁디아스	-16129
▁마거릿	-16130
▁메신저	-16131
▁미요시	-16132
▁클라인	-16133
▁레오나르	-16134
라과	-16135
ove	-16136
▁군위	-16137
▁궁수	-16138
▁악의	-16139
▁책정	-16140
▁광주시	-16141
▁방문객	-16142
▁베테랑	-16143
▁작아지	-16144
▁서귀포시	-16145
▁에두아르	-16146
경찰	-16147
락부	-16148
백색	-16149
의금	-16150
이상	-16151
▁구명	-16152
▁누에	-16153
▁다채	-16154
▁생포	-16155
▁안락	-16156
▁초판	-16157
▁흉내	-16158
▁급속도	-16159
▁범어사	-16160
▁블러드	-16161
▁신안군	-16162
▁와이어	-16163
▁주세페	-16164
▁태양광	-16165
▁돼지고기	-16166
17	-16167
남동	-16168
enn	-16169
▁Cr	-16170
▁공훈	-16171
▁레저	-16172
▁로만	-16173
▁베아	-16174
▁오랑	-16175
▁주스	-16176
▁진위	-16177
▁최순	-16178
▁탄광	-16179
▁효성	-16180
코비치	-16181
피에르	-16182
▁225	-16183
▁고스트	-16184
▁기네스	-16185
▁부사장	-16186
▁요시카	-16187
▁최진실	-16188
▁콜라보	-16189
▁페라리	-16190
GO	-16191
득점	-16192
▁BB	-16193
▁고관	-16194
▁레반	-16195
▁리라	-16196
▁무소	-16197
▁제타	-16198
▁출항	-16199
▁카노	-16200
▁캡틴	-16201
▁탄성	-16202
▁파출	-16203
▁하세	-16204
스트림	-16205
inal	-16206
▁GPS	-16207
▁나카노	-16208
▁다카시	-16209
▁리카르	-16210
▁시나노	-16211
▁베오그라드	-16212
▁안티오키아	-16213
▁둠	-16214
▁씬	-16215
▁강구	-16216
▁경산	-16217
▁김장	-16218
▁나날	-16219
▁도보	-16220
▁사옥	-16221
▁수화	-16222
▁유재	-16223
▁천태	-16224
▁카불	-16225
▁피시	-16226
▁합장	-16227
▁호전	-16228
▁김종직	-16229
▁두더지	-16230
▁이치로	-16231
▁게오르기	-16232
▁트로츠키	-16233
▁프레더릭	-16234
▁갸	-16235
파니	-16236
ors	-16237
▁매튜	-16238
▁박태	-16239
▁비방	-16240
▁사일	-16241
▁생장	-16242
▁연어	-16243
▁철근	-16244
▁하츠	-16245
▁황하	-16246
말라야	-16247
▁강릉시	-16248
▁만주족	-16249
▁혈액형	-16250
능력	-16251
무실	-16252
▁DA	-16253
▁가령	-16254
▁무쓰	-16255
▁잔치	-16256
▁출병	-16257
▁365	-16258
▁유물론	-16259
▁이유로	-16260
▁체육회	-16261
▁니카라과	-16262
▁서대문구	-16263
▁선거인단	-16264
▁뿜	-16265
덱스	-16266
훈련	-16267
▁대소	-16268
▁불길	-16269
▁운석	-16270
▁틈타	-16271
▁Res	-16272
▁거듭나	-16273
▁스펜서	-16274
▁이지스	-16275
▁타일러	-16276
▁Amer	-16277
▁로베르트	-16278
광사	-16279
금속	-16280
심원	-16281
▁개리	-16282
▁고취	-16283
▁공지	-16284
▁교내	-16285
▁깁슨	-16286
▁도식	-16287
▁명장	-16288
▁살레	-16289
▁외가	-16290
▁조너	-16291
▁키치	-16292
▁포메	-16293
▁효모	-16294
▁흡입	-16295
▁207	-16296
▁동북부	-16297
▁브루크	-16298
▁아열대	-16299
▁인문학	-16300
▁해수면	-16301
TN	-16302
마니	-16303
메랄	-16304
▁결투	-16305
▁레르	-16306
▁만물	-16307
▁명중	-16308
▁베라	-16309
▁브이	-16310
▁야만	-16311
▁유감	-16312
▁장차	-16313
▁통킹	-16314
▁풋살	-16315
▁스태프	-16316
▁스트라	-16317
▁지방도	-16318
▁프린터	-16319
▁후반전	-16320
노스아이	-16321
노스아이레스	-16322
▁부에노스아이레스	-16323
24	-16324
app	-16325
▁개축	-16326
▁도량	-16327
▁듀엣	-16328
▁사계	-16329
▁에든	-16330
▁조엘	-16331
▁직각	-16332
▁천적	-16333
▁청군	-16334
▁한꺼	-16335
▁감마선	-16336
▁무정부	-16337
▁알레산	-16338
▁압둘라	-16339
▁에든버러	-16340
▁한꺼번에	-16341
▁히말라야	-16342
▁아르바이트	-16343
FS	-16344
즈미	-16345
질량	-16346
▁OK	-16347
▁공평	-16348
▁라테	-16349
▁봉헌	-16350
▁세도	-16351
▁솔직	-16352
▁습도	-16353
▁신안	-16354
▁유익	-16355
▁친히	-16356
▁퇴계	-16357
▁흑색	-16358
이즈미	-16359
▁Way	-16360
▁일제히	-16361
▁페레스	-16362
▁맞닿	-16363
▁모잠	-16364
▁미끄	-16365
▁미추	-16366
▁박동	-16367
▁북송	-16368
▁비이	-16369
▁전극	-16370
▁폭주	-16371
▁한라	-16372
▁핼리	-16373
▁농민군	-16374
▁어드밴	-16375
▁조합원	-16376
▁1815	-16377
▁1820	-16378
▁모잠비크	-16379
갱이	-16380
나비	-16381
시카	-16382
월드	-16383
ina	-16384
▁격침	-16385
▁내역	-16386
▁담장	-16387
▁변조	-16388
▁양위	-16389
▁증류	-16390
▁표어	-16391
▁야행성	-16392
▁오징어	-16393
▁태극기	-16394
▁라이온스	-16395
▁레닌그라드	-16396
▁낸	-16397
차리	-16398
현실	-16399
▁Dr	-16400
▁격화	-16401
▁굳이	-16402
▁베컴	-16403
▁소마	-16404
▁시성	-16405
▁약수	-16406
▁월경	-16407
▁호박	-16408
스티안	-16409
ater	-16410
▁리그전	-16411
▁시아파	-16412
▁지포스	-16413
▁리얼리티	-16414
▁마쓰모토	-16415
로프로세서	-16416
▁System	-16417
▁마이크로프로세서	-16418
▁공보	-16419
▁부이	-16420
▁알마	-16421
▁에다	-16422
▁춘향	-16423
▁트롤	-16424
▁국무부	-16425
▁디나모	-16426
▁제품군	-16427
▁조병옥	-16428
▁후베이	-16429
▁Cent	-16430
MP	-16431
▁결단	-16432
▁결렬	-16433
▁그간	-16434
▁김석	-16435
▁마취	-16436
▁서곡	-16437
▁에인	-16438
▁지반	-16439
▁천리	-16440
▁총수	-16441
▁해머	-16442
▁허들	-16443
▁ㄱㅜㄴ	-16444
▁모노이드	-16445
▁이리하여	-16446
▁막시밀리안	-16447
▁둑	-16448
거루	-16449
▁노총	-16450
▁담그	-16451
▁데니	-16452
▁설과	-16453
▁소켓	-16454
▁어인	-16455
▁피쳐	-16456
▁필로	-16457
▁도나우	-16458
▁유명세	-16459
▁전망대	-16460
▁트럼펫	-16461
▁알베르트	-16462
▁오스트로	-16463
▁카롤루스	-16464
za	-16465
▁김은	-16466
▁리서	-16467
▁산마	-16468
▁성내	-16469
▁스틱	-16470
▁양분	-16471
▁장론	-16472
▁조나	-16473
▁죄인	-16474
▁쿠사	-16475
▁아드리	-16476
▁혁명가	-16477
▁유럽연합	-16478
▁알렉산드라	-16479
▁앳	-16480
쓰네	-16481
▁BO	-16482
▁SW	-16483
▁격상	-16484
▁당사	-16485
▁마초	-16486
▁미완	-16487
▁술집	-16488
▁아토	-16489
▁옵티	-16490
▁인노	-16491
▁장서	-16492
▁학도	-16493
레이즈	-16494
▁Mac	-16495
▁사법부	-16496
▁유공자	-16497
▁일진회	-16498
▁전동기	-16499
▁정몽주	-16500
▁파블로	-16501
▁이성질체	-16502
▁이오니아	-16503
입자	-16504
▁'-	-16505
▁던전	-16506
▁로제	-16507
▁서역	-16508
▁세실	-16509
▁이구	-16510
▁코넬	-16511
▁하카	-16512
어들이	-16513
▁넘어지	-16514
▁민의원	-16515
▁총생산	-16516
▁1858	-16517
▁고고학자	-16518
▁프로방스	-16519
▁class	-16520
▁폴리네시아	-16521
▁폼페이우스	-16522
가요	-16523
동리	-16524
비츠	-16525
ons	-16526
▁갈비	-16527
▁녹말	-16528
▁만수	-16529
▁에뮬	-16530
▁윈드	-16531
▁융기	-16532
▁좌랑	-16533
▁모델링	-16534
▁신익희	-16535
▁제노바	-16536
▁맞배지붕	-16537
오드	-16538
토바	-16539
▁갑오	-16540
▁결실	-16541
▁기주	-16542
▁배지	-16543
▁슐레	-16544
▁장택	-16545
▁재심	-16546
▁창씨	-16547
▁탈리	-16548
▁테살	-16549
ange	-16550
▁도치기	-16551
▁봉수대	-16552
▁조너선	-16553
▁필리스	-16554
▁함부로	-16555
가라	-16556
▁더빙	-16557
▁본진	-16558
▁성찬	-16559
▁직류	-16560
▁특위	-16561
▁형광	-16562
▁화교	-16563
ions	-16564
▁연습생	-16565
▁크레타	-16566
▁포인터	-16567
코인	-16568
▁"'	-16569
▁결집	-16570
▁달마	-16571
▁벅스	-16572
▁시편	-16573
▁엠마	-16574
▁으뜸	-16575
▁태상	-16576
▁펜스	-16577
▁합산	-16578
▁Tra	-16579
▁날아오	-16580
▁노트북	-16581
▁마에다	-16582
▁목포시	-16583
▁스와프	-16584
▁유성구	-16585
▁무궁화호	-16586
▁써	-16587
니츠	-16588
러기	-16589
처럼	-16590
▁고택	-16591
▁동티	-16592
▁상해	-16593
▁수강	-16594
▁완산	-16595
▁이철	-16596
▁자막	-16597
▁출루	-16598
▁노무라	-16599
▁시게루	-16600
▁중심핵	-16601
▁서프랑크	-16602
▁천연가스	-16603
▁필하모닉	-16604
att	-16605
▁SG	-16606
▁굴욕	-16607
▁낙태	-16608
▁농작	-16609
▁매질	-16610
▁새해	-16611
▁소정	-16612
▁의왕	-16613
▁정공	-16614
▁지뢰	-16615
▁특혜	-16616
▁군산시	-16617
▁선데이	-16618
▁안티고	-16619
▁트랜싯	-16620
사랑	-16621
ret	-16622
▁광서	-16623
▁기민	-16624
▁기욤	-16625
▁남궁	-16626
▁디펜	-16627
▁만연	-16628
▁본능	-16629
▁성제	-16630
▁소탕	-16631
▁아말	-16632
▁안재	-16633
▁좌천	-16634
▁포섭	-16635
▁푸틴	-16636
▁해내	-16637
▁헬렌	-16638
지먼트	-16639
▁USA	-16640
▁가디언	-16641
▁그리드	-16642
▁type	-16643
▁동아프리카	-16644
▁매니지먼트	-16645
ux	-16646
▁챈	-16647
당류	-16648
라나	-16649
▁대정	-16650
▁도난	-16651
▁분담	-16652
▁영위	-16653
▁육박	-16654
▁정과	-16655
▁종단	-16656
▁진구	-16657
▁총살	-16658
▁토의	-16659
▁Int	-16660
▁쌍방울	-16661
▁직할시	-16662
▁귤	-16663
널목	-16664
ART	-16665
▁기형	-16666
▁미자	-16667
▁수선	-16668
▁이삭	-16669
▁재주	-16670
▁정현	-16671
▁충고	-16672
▁콘셉	-16673
▁토드	-16674
▁펠레	-16675
▁헤지	-16676
▁IEC	-16677
▁Not	-16678
▁건널목	-16679
▁넘어오	-16680
▁대학살	-16681
▁라이드	-16682
▁분홍색	-16683
▁전철역	-16684
▁지팡이	-16685
▁평의원	-16686
▁1300	-16687
▁High	-16688
▁알아차리	-16689
실험	-16690
자유	-16691
촌동	-16692
▁궁내	-16693
▁급사	-16694
▁납품	-16695
▁덕수	-16696
▁문성	-16697
▁사보	-16698
▁MHz	-16699
▁ㄱㅔㅅ	-16700
▁충주시	-16701
▁1814	-16702
▁보호구역	-16703
▁알베르토	-16704
▁소크라테스	-16705
거성	-16706
컨드	-16707
ley	-16708
▁로타	-16709
▁마틸	-16710
▁벨벳	-16711
▁소치	-16712
▁아약	-16713
▁테드	-16714
▁토하	-16715
▁겨울철	-16716
▁깨달음	-16717
▁적절히	-16718
▁평상시	-16719
▁평택시	-16720
▁산업단지	-16721
▁Google	-16722
기둥	-16723
재단	-16724
▁경구	-16725
▁귀하	-16726
▁달래	-16727
▁바사	-16728
▁부탄	-16729
▁석등	-16730
▁선서	-16731
▁위태	-16732
▁음역	-16733
▁휴먼	-16734
▁마피아	-16735
▁성북구	-16736
▁연구실	-16737
▁오나라	-16738
▁티무르	-16739
마일	-16740
정제	-16741
테일	-16742
▁독실	-16743
▁음양	-16744
▁이덕	-16745
▁증직	-16746
▁핑계	-16747
▁미우라	-16748
▁석가여래	-16749
BN	-16750
림동	-16751
민정	-16752
▁견지	-16753
▁기교	-16754
▁마도	-16755
▁모여	-16756
▁전집	-16757
▁주상	-16758
▁퍼플	-16759
▁헤임	-16760
▁홍천	-16761
▁War	-16762
▁건너편	-16763
▁패트리	-16764
▁프렌즈	-16765
▁플래그	-16766
▁암모니아	-16767
니코	-16768
랭크	-16769
▁Of	-16770
▁목화	-16771
▁미에	-16772
▁버거	-16773
▁스팅	-16774
▁위배	-16775
▁윗면	-16776
▁퀘이	-16777
▁흥덕	-16778
씨식물	-16779
▁WHO	-16780
▁광화문	-16781
▁밀어내	-16782
▁비올라	-16783
▁세컨드	-16784
▁혁명군	-16785
살바도르	-16786
▁What	-16787
▁플레이스	-16788
▁엎	-16789
토쿠	-16790
▁FS	-16791
▁고요	-16792
▁군락	-16793
▁규장	-16794
▁도표	-16795
▁신관	-16796
▁콤비	-16797
▁튀기	-16798
▁헨드	-16799
▁막아내	-16800
▁미시간	-16801
▁아약스	-16802
▁액티브	-16803
▁연금술	-16804
▁우승컵	-16805
▁통신부	-16806
▁플라자	-16807
▁항소심	-16808
▁1795	-16809
▁그래미상	-16810
▁부위원장	-16811
▁클라이맥스	-16812
▁윔	-16813
식스	-16814
싸움	-16815
전차	-16816
▁간지	-16817
▁군집	-16818
▁기근	-16819
▁민가	-16820
▁바하	-16821
▁보카	-16822
▁사악	-16823
▁시차	-16824
▁실태	-16825
▁완주	-16826
▁유승	-16827
▁전란	-16828
▁지층	-16829
정보부	-16830
▁국문학	-16831
▁수도사	-16832
▁피드백	-16833
▁다리우스	-16834
▁토스카나	-16835
▁조선왕조실록	-16836
데냐	-16837
ger	-16838
▁PH	-16839
▁고갈	-16840
▁군비	-16841
▁루지	-16842
▁리츠	-16843
▁멘토	-16844
▁본초	-16845
▁수의	-16846
▁스쿠	-16847
▁우도	-16848
▁초당	-16849
▁캐럴	-16850
▁페데	-16851
▁니스트	-16852
▁블루어	-16853
▁디렉터리	-16854
▁사르데냐	-16855
퍼트	-16856
▁레미	-16857
▁말소	-16858
▁아난	-16859
▁암초	-16860
▁애매	-16861
▁원생	-16862
▁켈빈	-16863
▁키아	-16864
▁프록	-16865
▁LCK	-16866
▁TBC	-16867
▁관찰자	-16868
▁라쿠텐	-16869
▁맞대결	-16870
▁성명서	-16871
▁주교좌	-16872
▁홉킨스	-16873
▁With	-16874
▁샌드위치	-16875
회원	-16876
▁공해	-16877
▁도정	-16878
▁라지	-16879
▁로어	-16880
▁발췌	-16881
▁스톨	-16882
▁약학	-16883
▁에런	-16884
▁예일	-16885
▁우대	-16886
▁우사	-16887
▁증원	-16888
▁코지	-16889
▁포진	-16890
▁290	-16891
▁Dis	-16892
▁MLB	-16893
▁로렌초	-16894
▁스레드	-16895
▁원정군	-16896
▁익산시	-16897
▁하모니	-16898
ye	-16899
▁켓	-16900
yle	-16901
▁모식	-16902
▁몬태	-16903
▁보육	-16904
▁보훈	-16905
▁아핀	-16906
▁열풍	-16907
▁인대	-16908
▁잊히	-16909
▁전액	-16910
▁제보	-16911
▁허구	-16912
▁남조선	-16913
▁한정판	-16914
UN	-16915
▁쥘	-16916
구멍	-16917
부미	-16918
카라	-16919
▁비욘	-16920
▁애쓰	-16921
▁얼터	-16922
▁쿠리	-16923
▁패드	-16924
▁패퇴	-16925
▁480	-16926
▁남해군	-16927
▁모조리	-16928
▁에히메	-16929
▁이회창	-16930
▁진정하	-16931
▁커티스	-16932
▁헬싱키	-16933
▁ㅁㅕㄴㅇㅡㄴ	-16934
고나	-16935
라도	-16936
▁kW	-16937
▁구석	-16938
▁로동	-16939
▁비호	-16940
▁세베	-16941
▁아랑	-16942
▁우이	-16943
▁장준	-16944
▁헬로	-16945
▁238	-16946
▁850	-16947
▁리포트	-16948
▁모터쇼	-16949
▁선언문	-16950
▁마그네슘	-16951
▁수마트라	-16952
▁아틀레틱	-16953
▁안드레이	-16954
▁렝	-16955
enc	-16956
▁견훤	-16957
▁괴뢰	-16958
▁김세	-16959
▁당명	-16960
▁아픔	-16961
▁앨버	-16962
▁정일	-16963
▁종친	-16964
▁춤추	-16965
▁포교	-16966
▁혼돈	-16967
디우스	-16968
▁창덕궁	-16969
▁창업자	-16970
▁트루먼	-16971
▁드레이크	-16972
팽이	-16973
alk	-16974
▁니나	-16975
▁니체	-16976
▁반야	-16977
▁부녀	-16978
▁실크	-16979
▁열망	-16980
▁영재	-16981
▁웰스	-16982
▁유원	-16983
▁천정	-16984
▁토비	-16985
▁풍수	-16986
▁할양	-16987
▁함의	-16988
▁훈족	-16989
지스터	-16990
▁고조선	-16991
▁대항해	-16992
▁스타즈	-16993
▁정확도	-16994
▁합천군	-16995
▁가나자와	-16996
▁그리스도인	-16997
스테	-16998
▁광택	-16999
▁덩굴	-17000
▁버시	-17001
▁보궐	-17002
▁숭실	-17003
▁트림	-17004
주니어	-17005
▁개최지	-17006
▁보행자	-17007
▁북반구	-17008
의금부사	-17009
▁크리스천	-17010
▁COVID	-17011
▁비어	-17012
▁알렌	-17013
▁총액	-17014
▁Art	-17015
▁안데르	-17016
▁페테르	-17017
▁요시아키	-17018
레프	-17019
▁미숙	-17020
▁브람	-17021
▁정여	-17022
플레잉	-17023
▁ㄷㅔㄴ	-17024
▁남반구	-17025
▁수번뇌	-17026
▁충렬왕	-17027
▁롤플레잉	-17028
▁카테고리	-17029
▁트랜지스터	-17030
▁키르기스스탄	-17031
UI	-17032
렁이	-17033
천국	-17034
▁Di	-17035
▁관대	-17036
▁노화	-17037
▁랜덤	-17038
▁매춘	-17039
▁박승	-17040
▁보츠	-17041
▁에린	-17042
▁연유	-17043
▁장조	-17044
▁장항	-17045
가하라	-17046
다람쥐	-17047
▁보호관	-17048
▁빅토리	-17049
▁타블로	-17050
▁Blue	-17051
▁MPEG	-17052
베인	-17053
블린	-17054
▁RA	-17055
▁구룡	-17056
▁더럽	-17057
▁머피	-17058
▁묘법	-17059
▁민권	-17060
▁승전	-17061
▁정병	-17062
▁첨부	-17063
▁평신	-17064
네소스	-17065
ough	-17066
▁Rev	-17067
▁공기업	-17068
▁노르트	-17069
▁보라색	-17070
▁아산시	-17071
▁아칸소	-17072
▁취약점	-17073
▁1846	-17074
▁프로이트	-17075
적분	-17076
OVE	-17077
que	-17078
▁ㄲㅗ	-17079
▁골수	-17080
▁구토	-17081
▁급기	-17082
▁대뇌	-17083
▁데메	-17084
▁데쓰	-17085
▁리저	-17086
▁미코	-17087
▁북상	-17088
▁서강	-17089
▁선회	-17090
▁용접	-17091
▁이트	-17092
▁효용	-17093
연화경	-17094
▁문하시	-17095
▁산체스	-17096
▁스타인	-17097
▁이완용	-17098
▁지방관	-17099
▁크라스	-17100
▁학생회	-17101
▁물리학상	-17102
▁브루나이	-17103
▁그리스도교	-17104
26	-17105
▁각광	-17106
▁기악	-17107
▁신구	-17108
▁웅진	-17109
▁율령	-17110
▁팀장	-17111
▁페터	-17112
웨스트	-17113
▁유격대	-17114
▁1793	-17115
▁time	-17116
▁사탕수수	-17117
▁에드먼드	-17118
▁하시모토	-17119
▁중앙정보부	-17120
ING	-17121
▁갤러	-17122
▁국지	-17123
▁니콘	-17124
▁당분	-17125
▁오호	-17126
▁올랭	-17127
▁윈터	-17128
▁천구	-17129
▁시즈오카현	-17130
▁아오모리현	-17131
나물	-17132
던스	-17133
르모	-17134
파스	-17135
▁'.	-17136
▁ED	-17137
▁경이	-17138
▁교주	-17139
▁구자	-17140
▁국과	-17141
▁소도	-17142
▁수렵	-17143
▁역모	-17144
▁월북	-17145
▁직함	-17146
▁쿠릴	-17147
▁공직자	-17148
▁농작물	-17149
▁사이공	-17150
▁추밀원	-17151
▁페인트	-17152
▁이베리아	-17153
▁밈	-17154
건적	-17155
전쟁	-17156
▁공덕	-17157
▁논설	-17158
▁독소	-17159
▁무당	-17160
▁옥상	-17161
▁와해	-17162
▁존상	-17163
▁차분	-17164
▁퇴단	-17165
▁배수량	-17166
▁시어터	-17167
▁아쿠아	-17168
▁엉덩이	-17169
▁여객선	-17170
▁전기장	-17171
▁중서부	-17172
▁1839	-17173
▁히로부미	-17174
IO	-17175
운전	-17176
ump	-17177
▁MT	-17178
▁남포	-17179
▁맛있	-17180
▁하순	-17181
▁휘트	-17182
비우스	-17183
▁737	-17184
▁대머리	-17185
▁외무성	-17186
▁체스터	-17187
▁테트라	-17188
▁자유민주	-17189
▁트리니다드	-17190
▁중앙아프리카	-17191
▁뱌	-17192
▁촘	-17193
▁훅	-17194
래시	-17195
메트	-17196
바람	-17197
der	-17198
▁Vf	-17199
▁게일	-17200
▁군국	-17201
▁굶주	-17202
▁도색	-17203
▁멜론	-17204
▁부윤	-17205
▁설사	-17206
▁심플	-17207
▁해자	-17208
▁가시마	-17209
▁상대론	-17210
▁아테나	-17211
▁재빨리	-17212
▁포스코	-17213
▁프리킥	-17214
▁1854	-17215
▁언어학자	-17216
▁경멸	-17217
▁과부	-17218
▁괴멸	-17219
▁몸집	-17220
▁범용	-17221
▁본당	-17222
▁쇠약	-17223
▁아민	-17224
▁엄정	-17225
▁유시	-17226
▁직권	-17227
▁추위	-17228
▁현충	-17229
슬라브	-17230
시우스	-17231
▁214	-17232
▁ㅇㅗㅂ	-17233
▁돌아서	-17234
▁바로잡	-17235
▁손바닥	-17236
▁수증기	-17237
▁알레르	-17238
총리대신	-17239
▁기념사업	-17240
ㄷㅡㄴㄱㅏ	-17241
▁내각총리대신	-17242
고트	-17243
뉴스	-17244
재란	-17245
후이	-17246
▁간디	-17247
▁걸맞	-17248
▁낙타	-17249
▁불평	-17250
▁삼키	-17251
▁손책	-17252
▁순정	-17253
▁윤원	-17254
▁정강	-17255
▁펀치	-17256
▁필기	-17257
티우스	-17258
▁COM	-17259
▁국무원	-17260
▁분류학	-17261
▁조계종	-17262
▁팩토리	-17263
▁하카타	-17264
▁비지니스	-17265
▁아나키즘	-17266
▁정유재란	-17267
▁꼼	-17268
패스	-17269
▁등대	-17270
▁망루	-17271
▁방조	-17272
▁서보	-17273
▁야로	-17274
▁이국	-17275
▁인신	-17276
▁표결	-17277
▁메이트	-17278
▁버나드	-17279
대성	-17280
▁마한	-17281
▁브론	-17282
▁상작	-17283
▁세탁	-17284
▁솔트	-17285
▁이효	-17286
▁제식	-17287
▁코레	-17288
▁클루	-17289
▁학급	-17290
▁학창	-17291
▁교토부	-17292
▁비행대	-17293
▁산둥성	-17294
▁윤리학	-17295
▁이브라	-17296
▁키워드	-17297
▁평화상	-17298
스트리트	-17299
▁갈릴레이	-17300
▁비트코인	-17301
▁어드밴스	-17302
▁자연주의	-17303
▁초등학생	-17304
▁세키가하라	-17305
▁감탄	-17306
▁구인	-17307
▁미묘	-17308
▁바일	-17309
▁이형	-17310
▁인출	-17311
▁칼레	-17312
▁특례	-17313
▁Min	-17314
▁돗토리	-17315
▁안중근	-17316
▁초대칭	-17317
▁기독교인	-17318
▁미성년자	-17319
▁여주인공	-17320
28	-17321
▁돛	-17322
▁퓌	-17323
탐정	-17324
▁ME	-17325
▁교묘	-17326
▁북해	-17327
▁상투	-17328
▁새턴	-17329
▁석상	-17330
▁심근	-17331
▁억류	-17332
▁이부	-17333
▁종주	-17334
▁페가	-17335
▁환기	-17336
▁후시	-17337
▁가입자	-17338
▁데포르	-17339
▁베일리	-17340
▁파출소	-17341
▁델라웨어	-17342
▁오브젝트	-17343
▁플로이드	-17344
▁ㅇㅠ	-17345
▁간염	-17346
▁개전	-17347
▁만기	-17348
▁매월	-17349
▁바덴	-17350
▁박기	-17351
▁박준	-17352
▁시주	-17353
▁오딘	-17354
▁잠들	-17355
▁참배	-17356
▁총체	-17357
▁파드	-17358
▁팬아	-17359
▁하디	-17360
캐스트	-17361
▁경비대	-17362
▁구청장	-17363
▁북극해	-17364
▁황태후	-17365
▁1849	-17366
▁네덜란드어	-17367
HD	-17368
사회	-17369
▁갑각	-17370
▁분양	-17371
▁산불	-17372
▁찬탈	-17373
직할시	-17374
▁나가노	-17375
▁등록금	-17376
▁에리크	-17377
▁최하위	-17378
베이거스	-17379
▁1856	-17380
정권	-17381
호프	-17382
▁견습	-17383
▁계투	-17384
▁고압	-17385
▁교포	-17386
▁남로	-17387
▁베버	-17388
▁오기	-17389
▁존엄	-17390
독립당	-17391
학생회	-17392
▁가파르	-17393
▁기부금	-17394
▁장택상	-17395
▁후임자	-17396
▁공화주의	-17397
▁크레이그	-17398
▁한국독립당	-17399
▁라스베이거스	-17400
23	-17401
▁뚱	-17402
누아	-17403
모자	-17404
호르	-17405
▁귀양	-17406
▁라몬	-17407
▁루머	-17408
▁매번	-17409
▁분장	-17410
▁수표	-17411
▁신작	-17412
▁요아	-17413
▁우동	-17414
▁웅장	-17415
▁웨일	-17416
▁유폐	-17417
▁육아	-17418
▁장령	-17419
▁치중	-17420
▁페드	-17421
▁화북	-17422
▁넥스트	-17423
▁보나파	-17424
▁증명서	-17425
▁1851	-17426
▁총학생회	-17427
▁하이웨이	-17428
▁보나파르트	-17429
▁페더레이션	-17430
▁줌	-17431
▁만국	-17432
▁밀스	-17433
▁본디	-17434
▁분쇄	-17435
▁씨름	-17436
▁어이	-17437
▁윤영	-17438
쿠스틱	-17439
타니아	-17440
atch	-17441
▁LCD	-17442
▁입출력	-17443
▁절대로	-17444
▁사보이아	-17445
▁스탠퍼드	-17446
▁어쿠스틱	-17447
오린	-17448
▁디온	-17449
▁미모	-17450
▁비크	-17451
▁수류	-17452
▁시경	-17453
▁유장	-17454
▁이견	-17455
▁적재	-17456
▁철원	-17457
▁체질	-17458
▁촌은	-17459
▁해일	-17460
▁효능	-17461
프랑스	-17462
▁419	-17463
▁건국대	-17464
▁낙하산	-17465
▁벤피카	-17466
▁포위전	-17467
▁Beat	-17468
▁차량기지	-17469
▁캔자스시티	-17470
86	-17471
▁넉	-17472
체어	-17473
▁내수	-17474
▁수서	-17475
▁예속	-17476
▁인피	-17477
▁주경	-17478
▁430	-17479
▁에밀리	-17480
▁참모장	-17481
▁캥거루	-17482
▁하동군	-17483
▁해럴드	-17484
▁1855	-17485
▁블레이드	-17486
▁상파울루	-17487
▁오하이오주	-17488
▁깡	-17489
▁럴	-17490
처리	-17491
▁NX	-17492
▁낙엽	-17493
▁라티	-17494
▁메사	-17495
▁배설	-17496
▁생가	-17497
▁서천	-17498
▁셔먼	-17499
▁쇼팽	-17500
▁현령	-17501
코스트	-17502
▁FBI	-17503
▁베드로	-17504
▁상속인	-17505
▁진보당	-17506
▁파트리	-17507
▁핵폭탄	-17508
▁캐나다인	-17509
▁크리에이티브	-17510
산읍	-17511
우어	-17512
케스	-17513
하늘	-17514
▁광경	-17515
▁도독	-17516
▁변방	-17517
▁볼륨	-17518
▁상체	-17519
▁알비	-17520
▁오닐	-17521
▁원성	-17522
▁이안	-17523
▁적성	-17524
▁한서	-17525
▁레인보	-17526
▁서북쪽	-17527
▁1857	-17528
담회	-17529
▁간장	-17530
▁김문	-17531
▁여과	-17532
▁연임	-17533
▁카잔	-17534
▁후백	-17535
트로피	-17536
icro	-17537
▁Top	-17538
▁공사관	-17539
▁교직원	-17540
▁글리코	-17541
▁디스코	-17542
▁수산물	-17543
▁시부야	-17544
▁오비탈	-17545
▁노동자당	-17546
▁스티븐스	-17547
▁폴란드인	-17548
▁좡	-17549
봉사	-17550
섬유	-17551
하르	-17552
ery	-17553
▁PP	-17554
▁계란	-17555
▁단사	-17556
▁반려	-17557
▁봉작	-17558
▁사흘	-17559
▁외동	-17560
콥스키	-17561
cess	-17562
▁Med	-17563
▁애벌레	-17564
▁작사가	-17565
▁지난해	-17566
▁테이크	-17567
▁포천시	-17568
▁휠체어	-17569
▁갑신정변	-17570
▁다이스케	-17571
개혁	-17572
▁결탁	-17573
▁깜짝	-17574
▁내구	-17575
▁단성	-17576
▁소홀	-17577
▁정시	-17578
▁체첸	-17579
▁변속기	-17580
▁보르도	-17581
▁시공간	-17582
▁식물원	-17583
▁지평선	-17584
▁소용돌이	-17585
▁이와테현	-17586
▁데포르티보	-17587
▁여러해살이풀	-17588
BT	-17589
댄스	-17590
버거	-17591
일라	-17592
▁모기	-17593
▁보문	-17594
▁소란	-17595
▁수훈	-17596
▁여생	-17597
▁추궁	-17598
▁헤엄	-17599
▁기념식	-17600
▁시우바	-17601
메니스탄	-17602
▁반공주의	-17603
▁프란시스	-17604
▁병마절도사	-17605
▁투르크메니스탄	-17606
카테	-17607
▁TG	-17608
▁대광	-17609
▁버퍼	-17610
▁벽면	-17611
▁수배	-17612
▁실로	-17613
▁임베	-17614
▁주치	-17615
▁착안	-17616
▁캔디	-17617
▁톨킨	-17618
▁해금	-17619
고양이	-17620
▁301	-17621
▁ㄷㅏㄴ	-17622
▁갖가지	-17623
▁구미시	-17624
▁베르디	-17625
▁찬드라	-17626
▁펠로폰	-17627
▁포브스	-17628
▁임베디드	-17629
▁정사각형	-17630
▁민족주의자	-17631
▁펠로폰네소스	-17632
▁힉	-17633
레토	-17634
서구	-17635
전기	-17636
▁대세	-17637
▁비참	-17638
▁셀룰	-17639
▁아모	-17640
▁택지	-17641
▁팔자	-17642
▁핵산	-17643
▁211	-17644
▁223	-17645
▁수수료	-17646
▁은하단	-17647
▁저작물	-17648
츠부르크	-17649
깨비	-17650
니엄	-17651
▁CL	-17652
▁경색	-17653
▁서상	-17654
▁수스	-17655
▁지소	-17656
▁치수	-17657
▁태세	-17658
▁폰트	-17659
▁히나	-17660
▁동의어	-17661
▁헤이스	-17662
▁마음대로	-17663
쇼프	-17664
▁YM	-17665
▁담론	-17666
▁롤리	-17667
▁박격	-17668
▁벚꽃	-17669
▁사죄	-17670
▁압송	-17671
▁외벽	-17672
▁유품	-17673
▁음경	-17674
▁정년	-17675
▁NAD	-17676
▁감염자	-17677
▁노스케	-17678
▁일간지	-17679
▁이해관계	-17680
천년	-17681
흐트	-17682
ont	-17683
▁권세	-17684
▁변장	-17685
▁분개	-17686
▁성간	-17687
▁성채	-17688
▁신영	-17689
▁페티	-17690
▁포구	-17691
▁Pop	-17692
▁보니파	-17693
▁봉사자	-17694
▁상세히	-17695
▁아가씨	-17696
▁어리석	-17697
▁올라서	-17698
▁투데이	-17699
▁행정관	-17700
▁Free	-17701
재기	-17702
day	-17703
▁IA	-17704
▁고증	-17705
▁명주	-17706
▁민생	-17707
▁실습	-17708
▁엠블	-17709
▁열반	-17710
▁율곡	-17711
▁이학	-17712
▁제학	-17713
▁친목	-17714
▁크세	-17715
▁현청	-17716
▁나주시	-17717
▁대주주	-17718
▁수송기	-17719
▁시흥시	-17720
▁컨디션	-17721
▁1776	-17722
▁Will	-17723
▁사카모토	-17724
▁서아시아	-17725
니크	-17726
테른	-17727
▁CT	-17728
▁단호	-17729
▁대흥	-17730
▁돌핀	-17731
▁랜디	-17732
▁심슨	-17733
▁욕설	-17734
▁원제	-17735
▁조식	-17736
▁지병	-17737
노벨라	-17738
시오날	-17739
▁루터교	-17740
▁비엔나	-17741
▁제이스	-17742
▁집어넣	-17743
▁카운터	-17744
▁나시오날	-17745
▁무라카미	-17746
▁미주리주	-17747
▁엔트로피	-17748
▁그레고리력	-17749
▁텔레노벨라	-17750
광선	-17751
왕국	-17752
지대	-17753
▁거액	-17754
▁노회	-17755
▁슈바	-17756
▁윤선	-17757
▁읽히	-17758
▁카렐	-17759
▁그로스	-17760
▁바이스	-17761
▁오카다	-17762
▁형무소	-17763
▁태평천국	-17764
▁플루오린	-17765
▁국면	-17766
▁급습	-17767
▁낙랑	-17768
▁만리	-17769
▁반열	-17770
▁빌미	-17771
▁소망	-17772
▁쟁점	-17773
▁퇴사	-17774
▁XML	-17775
▁늘어지	-17776
▁다면체	-17777
▁다이나	-17778
▁달라이	-17779
▁레너드	-17780
▁이범석	-17781
▁하이든	-17782
▁핵실험	-17783
타고라스	-17784
▁캄파니아주	-17785
▁뺏	-17786
볼트	-17787
▁뇌졸	-17788
▁무왕	-17789
▁부총	-17790
▁서던	-17791
▁악역	-17792
▁언약	-17793
▁조력	-17794
▁탄원	-17795
리어스	-17796
27	-17797
ma	-17798
가야	-17799
로아	-17800
스탕	-17801
하스	-17802
▁MW	-17803
▁간파	-17804
▁누각	-17805
▁알론	-17806
▁요네	-17807
▁인테	-17808
▁장구	-17809
▁타오	-17810
▁현명	-17811
▁현생	-17812
▁병원체	-17813
▁영산회	-17814
▁청구인	-17815
▁올랭피크	-17816
29	-17817
연대	-17818
▁Po	-17819
▁ne	-17820
▁골목	-17821
▁괴팅	-17822
▁까다	-17823
▁대적	-17824
▁상시	-17825
▁오도	-17826
▁중첩	-17827
▁진안	-17828
▁코민	-17829
▁타현	-17830
▁한참	-17831
▁회부	-17832
▁동북쪽	-17833
고도	-17834
마타	-17835
▁개요	-17836
▁땅콩	-17837
▁로젠	-17838
▁버즈	-17839
▁살림	-17840
▁센스	-17841
▁시왕	-17842
▁역습	-17843
▁이로	-17844
▁잠복	-17845
▁항모	-17846
레시브	-17847
루리아	-17848
▁del	-17849
▁가속기	-17850
▁김종필	-17851
▁배트맨	-17852
▁심포니	-17853
▁청교도	-17854
▁조기어류	-17855
▁10000	-17856
▁프로그레시브	-17857
를린	-17858
버드	-17859
소득	-17860
연료	-17861
▁가메	-17862
▁국채	-17863
▁마고	-17864
▁명지	-17865
▁발송	-17866
▁Bro	-17867
▁거제시	-17868
▁대각선	-17869
▁독립국	-17870
▁마그마	-17871
▁마인드	-17872
▁사모아	-17873
▁출생지	-17874
▁클라라	-17875
▁타고나	-17876
▁하이델	-17877
▁가까스로	-17878
▁레오나르도	-17879
▁묘법연화경	-17880
투안	-17881
▁금광	-17882
▁누락	-17883
▁로로	-17884
▁몬트	-17885
▁방한	-17886
▁사성	-17887
▁셰이	-17888
▁와트	-17889
▁장타	-17890
▁호가	-17891
▁메이플	-17892
▁모여들	-17893
▁서기장	-17894
▁네브래스카	-17895
▁통합진보당	-17896
슐린	-17897
저민	-17898
쿠젠	-17899
▁간소	-17900
▁교복	-17901
▁미안	-17902
▁산탄	-17903
▁수잔	-17904
▁연좌	-17905
▁윤석	-17906
▁입안	-17907
▁케니	-17908
▁템포	-17909
▁파격	-17910
irst	-17911
▁굳어지	-17912
▁벤저민	-17913
▁어지럽	-17914
급시	-17915
모습	-17916
바꿈	-17917
its	-17918
▁각별	-17919
▁공녀	-17920
▁김한	-17921
▁로미	-17922
▁미망	-17923
▁미움	-17924
▁역행	-17925
▁음란	-17926
▁찬스	-17927
▁청화	-17928
▁최경	-17929
▁홀드	-17930
들랜드	-17931
▁베르그	-17932
▁뽑아내	-17933
▁샘플링	-17934
▁스나이	-17935
▁아세트	-17936
▁팰리스	-17937
▁황도대	-17938
페리	-17939
aut	-17940
▁CV	-17941
▁ER	-17942
▁나나	-17943
▁노미	-17944
▁대열	-17945
▁밑면	-17946
▁발주	-17947
▁본기	-17948
▁비비	-17949
▁사극	-17950
▁신명	-17951
▁이연	-17952
▁직제	-17953
▁친절	-17954
▁콘월	-17955
▁파사	-17956
▁하쿠	-17957
▁Big	-17958
▁논산시	-17959
▁단기간	-17960
▁모자라	-17961
▁모티프	-17962
▁새천년	-17963
▁서남쪽	-17964
▁크리켓	-17965
▁스포르팅	-17966
▁캔터베리	-17967
▁begin	-17968
미치	-17969
증권	-17970
▁DL	-17971
▁독감	-17972
▁마마	-17973
▁습성	-17974
▁액수	-17975
▁정철	-17976
▁지단	-17977
▁퓨전	-17978
중국해	-17979
▁End	-17980
▁웨이트	-17981
▁미시간주	-17982
평가	-17983
활성	-17984
▁BR	-17985
▁문교	-17986
▁반일	-17987
▁브롱	-17988
▁시로	-17989
▁심신	-17990
▁위드	-17991
▁유즈	-17992
▁이공	-17993
▁준위	-17994
▁질리	-17995
▁화신	-17996
메데스	-17997
▁리서치	-17998
▁피에트로	-17999
빼미	-18000
연의	-18001
▁경치	-18002
▁다의	-18003
▁듯이	-18004
▁배영	-18005
▁양손	-18006
▁에나	-18007
▁우메	-18008
▁퇴화	-18009
▁화전	-18010
더니즘	-18011
▁레이어	-18012
▁해설자	-18013
▁원내대표	-18014
▁코미디언	-18015
▁포레스트	-18016
▁언더그라운드	-18017
ㅔㄴ	-18018
▁과업	-18019
▁노먼	-18020
▁라비	-18021
▁로자	-18022
▁연천	-18023
▁장보	-18024
▁천명	-18025
▁총알	-18026
▁픽업	-18027
▁히다	-18028
▁215	-18029
▁239	-18030
▁510	-18031
▁DFB	-18032
▁ㅇㅓㅇ	-18033
▁가로막	-18034
▁문화사	-18035
▁비정규	-18036
▁유니온	-18037
▁서스펜션	-18038
BL	-18039
개발	-18040
코바	-18041
aff	-18042
▁HK	-18043
▁SI	-18044
▁WH	-18045
▁개간	-18046
▁기물	-18047
▁서킷	-18048
▁세브	-18049
▁전갈	-18050
▁종택	-18051
▁질레	-18052
▁쿠키	-18053
▁평년	-18054
▁합체	-18055
▁구석기	-18056
▁베리아	-18057
▁변증법	-18058
▁에인절	-18059
▁치우치	-18060
▁특이점	-18061
▁포위망	-18062
계리	-18063
▁대양	-18064
▁레베	-18065
▁린드	-18066
▁생사	-18067
▁서드	-18068
▁성추	-18069
▁언젠	-18070
▁위니	-18071
▁주둥	-18072
▁혹독	-18073
▁BMW	-18074
▁아틀라스	-18075
▁KC	-18076
▁까치	-18077
▁듀크	-18078
▁루아	-18079
▁징후	-18080
▁촌락	-18081
▁칸타	-18082
▁황보	-18083
메네스	-18084
파트라	-18085
▁set	-18086
▁기장군	-18087
▁빠뜨리	-18088
▁언젠가	-18089
▁프리랜	-18090
▁1792	-18091
▁void	-18092
▁클레오파트라	-18093
HS	-18094
br	-18095
가키	-18096
보스	-18097
▁낭독	-18098
▁니즘	-18099
▁방수	-18100
▁시료	-18101
▁시암	-18102
▁우랄	-18103
▁우문	-18104
▁원가	-18105
▁재원	-18106
▁정약	-18107
▁창안	-18108
▁체임	-18109
▁포에	-18110
▁픽션	-18111
▁한도	-18112
▁함안	-18113
▁Des	-18114
▁과선교	-18115
▁목걸이	-18116
▁서로마	-18117
▁월리스	-18118
▁전년도	-18119
▁특공대	-18120
▁소선거구	-18121
▁랏	-18122
▁젬	-18123
▁가인	-18124
▁감명	-18125
▁덧셈	-18126
▁메콩	-18127
▁바크	-18128
▁부원	-18129
▁살상	-18130
▁열광	-18131
▁예천	-18132
▁원화	-18133
▁위아	-18134
▁코다	-18135
▁틈새	-18136
▁한방	-18137
▁호엔	-18138
궐선거	-18139
▁계약서	-18140
▁권력자	-18141
▁목격자	-18142
▁사중주	-18143
▁엑스선	-18144
▁재보궐선거	-18145
▁프로토타입	-18146
버섯	-18147
삼문	-18148
oss	-18149
▁난간	-18150
▁내쫓	-18151
▁덤불	-18152
▁도기	-18153
▁매드	-18154
▁상피	-18155
▁아그	-18156
▁양력	-18157
▁오쓰	-18158
▁유실	-18159
▁최북	-18160
▁패주	-18161
▁포탈	-18162
▁까다롭	-18163
▁미술가	-18164
▁사생아	-18165
▁수메르	-18166
▁영등포	-18167
▁Rain	-18168
▁알레르기	-18169
▁엘살바도르	-18170
▁ㄴㅜ	-18171
▁경수	-18172
▁도고	-18173
▁루소	-18174
▁명절	-18175
▁박중	-18176
▁비슈	-18177
▁산토	-18178
▁선하	-18179
▁세관	-18180
▁실드	-18181
▁접착	-18182
▁다다르	-18183
▁레일리	-18184
▁부활절	-18185
▁브레인	-18186
▁살아나	-18187
▁표준어	-18188
▁1853	-18189
▁동대문구	-18190
루이	-18191
▁RE	-18192
▁do	-18193
▁가평	-18194
▁금화	-18195
▁동복	-18196
▁마자	-18197
▁모후	-18198
▁성년	-18199
▁아속	-18200
▁영연	-18201
▁요세	-18202
▁입적	-18203
▁정파	-18204
▁제향	-18205
▁포즈	-18206
▁홍백	-18207
너티브	-18208
덜랜드	-18209
▁ㅇㅜㅁ	-18210
▁계약금	-18211
▁꽃받침	-18212
▁무인역	-18213
▁시설물	-18214
▁외삼촌	-18215
▁1791	-18216
▁크래프트	-18217
▁얼터너티브	-18218
니발	-18219
막염	-18220
서면	-18221
이인	-18222
행사	-18223
▁JP	-18224
▁구급	-18225
▁시구	-18226
▁실화	-18227
▁아쓰	-18228
▁티르	-18229
▁급기야	-18230
▁무안군	-18231
▁중생대	-18232
▁프레디	-18233
▁1852	-18234
▁속씨식물	-18235
ㄷㅡㄴㅈㅣ	-18236
▁슈퍼주니어	-18237
vis	-18238
▁녀석	-18239
▁다라	-18240
▁몰입	-18241
▁밥상	-18242
▁방과	-18243
▁어필	-18244
▁절멸	-18245
▁조참	-18246
▁청탁	-18247
▁캄포	-18248
▁향리	-18249
▁TOP	-18250
▁게이머	-18251
▁버밍엄	-18252
▁보호자	-18253
▁성동구	-18254
▁프로파	-18255
▁호위함	-18256
▁LIVE	-18257
▁Show	-18258
▁도네츠크	-18259
▁퓰	-18260
경궁	-18261
그림	-18262
바타	-18263
▁노던	-18264
▁비츠	-18265
▁상권	-18266
▁셰프	-18267
▁숙성	-18268
▁스커	-18269
▁으로	-18270
▁탄환	-18271
▁튀르	-18272
핵생물	-18273
▁경기력	-18274
▁따돌리	-18275
▁레프트	-18276
▁파이브	-18277
▁모하메드	-18278
▁클라리넷	-18279
be	-18280
노동	-18281
지않	-18282
oup	-18283
▁FN	-18284
▁국고	-18285
▁메트	-18286
▁버락	-18287
▁비고	-18288
▁사구	-18289
▁시동	-18290
▁시판	-18291
▁영아	-18292
▁자락	-18293
▁장영	-18294
▁표상	-18295
▁플뢰	-18296
제르맹	-18297
▁233	-18298
▁부제학	-18299
▁브람스	-18300
▁아르카	-18301
ement	-18302
▁프라이스	-18303
▁플레이트	-18304
▁옅	-18305
팔렌	-18306
▁관서	-18307
▁교우	-18308
▁근연	-18309
▁부름	-18310
▁수전	-18311
▁수첩	-18312
▁식료	-18313
▁실황	-18314
▁안상	-18315
▁최치	-18316
▁케스	-18317
즐랜드	-18318
▁분화구	-18319
▁양서류	-18320
▁요리사	-18321
▁잎자루	-18322
▁퍼뜨리	-18323
▁후반부	-18324
노헤	-18325
얼빈	-18326
▁FX	-18327
▁감히	-18328
▁국물	-18329
▁귀납	-18330
▁독신	-18331
▁미팅	-18332
▁박인	-18333
▁에타	-18334
▁욕심	-18335
▁우쓰	-18336
▁제반	-18337
▁해동	-18338
▁황갈색	-18339
▁도쿠시마	-18340
▁퀸즐랜드	-18341
▁히로시마현	-18342
▁잣	-18343
ㅍㅣ	-18344
타라	-18345
티드	-18346
▁EN	-18347
▁도금	-18348
▁연작	-18349
▁잠그	-18350
▁제법	-18351
▁차가	-18352
▁카쿠	-18353
▁호치	-18354
▁회중	-18355
▁히브	-18356
▁212	-18357
▁개찰기	-18358
▁게이초	-18359
▁퍼펙트	-18360
▁LOVE	-18361
▁다운타운	-18362
▁루키우스	-18363
▁벌어들이	-18364
▁생제르맹	-18365
▁빽	-18366
▁구보	-18367
▁그려	-18368
▁벨레	-18369
▁색인	-18370
▁서하	-18371
▁신재	-18372
▁요트	-18373
▁장터	-18374
▁후신	-18375
▁동인도	-18376
▁상류층	-18377
▁세례명	-18378
▁앵글로	-18379
▁음악회	-18380
▁조나단	-18381
▁1847	-18382
▁권위주의	-18383
▁천주교회	-18384
▁필리포스	-18385
▁테러리스트	-18386
개명	-18387
에어	-18388
▁갑판	-18389
▁고타	-18390
▁능통	-18391
▁래스	-18392
▁만다	-18393
▁매너	-18394
▁보두	-18395
▁불황	-18396
▁여태	-18397
▁영세	-18398
▁이족	-18399
▁일람	-18400
▁김포시	-18401
▁에르난	-18402
▁옹진군	-18403
▁이베이	-18404
▁이스턴	-18405
▁재정난	-18406
▁Like	-18407
▁시트르산	-18408
▁인테리어	-18409
▁콘스탄티노플	-18410
하워	-18411
▁EF	-18412
▁OC	-18413
▁mg	-18414
▁가봉	-18415
▁기노	-18416
▁대검	-18417
▁북제	-18418
▁세가	-18419
▁신숙	-18420
▁영해	-18421
▁월급	-18422
▁은둔	-18423
▁이계	-18424
▁친숙	-18425
▁포리	-18426
▁희박	-18427
▁관악구	-18428
▁끊어지	-18429
▁성추행	-18430
▁인슐린	-18431
▁재판장	-18432
▁중학생	-18433
▁최적화	-18434
▁핵연료	-18435
▁옵티머스	-18436
▁은행나무	-18437
▁퍼레이드	-18438
▁롬바르디아	-18439
▁아이젠하워	-18440
하트	-18441
▁ㅅㅜ	-18442
▁강물	-18443
▁과천	-18444
▁마누	-18445
▁슬럼	-18446
▁쑨원	-18447
▁안젤	-18448
▁야채	-18449
▁오에	-18450
▁유위	-18451
▁윤상	-18452
▁음소	-18453
리오카	-18454
▁생태학	-18455
▁올빼미	-18456
▁점성가	-18457
▁지원자	-18458
▁퀘스트	-18459
▁국민회의	-18460
▁사다하루	-18461
▁옥타비아	-18462
▁뚝	-18463
▁NK	-18464
▁김호	-18465
▁마로	-18466
▁버블	-18467
▁수온	-18468
▁약국	-18469
▁완투	-18470
▁음색	-18471
자위대	-18472
▁검사장	-18473
▁레슬리	-18474
▁레오니	-18475
▁브룩스	-18476
▁세일러	-18477
▁저술가	-18478
▁중대장	-18479
▁편의점	-18480
▁Mnet	-18481
▁버지니아주	-18482
▁안티고노스	-18483
▁뿌	-18484
▁젓	-18485
▁찻	-18486
랄라	-18487
야구	-18488
way	-18489
▁UK	-18490
▁es	-18491
▁고질	-18492
▁관사	-18493
▁구면	-18494
▁귀향	-18495
▁기치	-18496
▁독려	-18497
▁라벤	-18498
▁망상	-18499
▁밀턴	-18500
▁성하	-18501
▁약정	-18502
▁연사	-18503
▁정량	-18504
▁제각	-18505
▁착오	-18506
ouse	-18507
▁221	-18508
▁Red	-18509
▁강아지	-18510
▁그려지	-18511
▁지도력	-18512
▁레인보우	-18513
▁뱀파이어	-18514
WS	-18515
▁똥	-18516
▁냉동	-18517
▁보현	-18518
▁수뇌	-18519
▁수찬	-18520
▁스벤	-18521
▁쓰가	-18522
▁왈라	-18523
▁주어	-18524
▁차드	-18525
▁초중	-18526
▁최재	-18527
▁품계	-18528
▁황성	-18529
▁회군	-18530
▁Sec	-18531
▁뇌졸중	-18532
▁다각형	-18533
▁릴리스	-18534
▁미카사	-18535
▁탈수소	-18536
▁현악기	-18537
▁Over	-18538
▁Sing	-18539
▁콘티넨털	-18540
▁프리랜서	-18541
▁Sound	-18542
▁계명	-18543
▁나츠	-18544
▁남짓	-18545
▁라피	-18546
▁마조	-18547
▁미일	-18548
▁발라	-18549
▁슬롯	-18550
▁연일	-18551
▁우성	-18552
▁원망	-18553
▁조만	-18554
▁진과	-18555
▁청진	-18556
▁출소	-18557
▁쿠페	-18558
▁클론	-18559
▁팔각	-18560
▁푸시	-18561
▁231	-18562
▁리히텐	-18563
▁정말로	-18564
▁정보국	-18565
▁1100	-18566
▁1844	-18567
▁경향신문	-18568
▁창씨개명	-18569
▁Light	-18570
귀비	-18571
비어	-18572
▁ac	-18573
▁경감	-18574
▁계파	-18575
▁고작	-18576
▁나팔	-18577
▁미신	-18578
▁발화	-18579
▁불펜	-18580
▁여야	-18581
▁예견	-18582
▁커크	-18583
▁혈청	-18584
하이드	-18585
▁가오슝	-18586
▁게이츠	-18587
▁미망인	-18588
▁세포막	-18589
▁여름철	-18590
▁하얼빈	-18591
▁가이우스	-18592
▁동명이인	-18593
색슨	-18594
IDS	-18595
▁갑상	-18596
▁동족	-18597
▁따내	-18598
▁명품	-18599
▁섬멸	-18600
▁송금	-18601
▁식년	-18602
▁안구	-18603
▁오목	-18604
▁외화	-18605
▁이등	-18606
▁정구	-18607
▁크릭	-18608
▁파니	-18609
▁회기	-18610
하이머	-18611
ason	-18612
▁유목민	-18613
▁피스톤	-18614
브레히트	-18615
▁곤살레스	-18616
▁브래들리	-18617
▁카리브해	-18618
▁앵글로색슨	-18619
aj	-18620
▁즌	-18621
▁즙	-18622
거슨	-18623
방식	-18624
옹주	-18625
▁고부	-18626
▁골자	-18627
▁낙인	-18628
▁수작	-18629
▁유주	-18630
▁조승	-18631
▁주술	-18632
▁하체	-18633
▁Bar	-18634
▁부끄럽	-18635
▁사이다	-18636
▁산화물	-18637
▁카이저	-18638
▁하루카	-18639
▁계몽주의	-18640
▁랜드마크	-18641
▁민속문화재	-18642
▁읊	-18643
타바	-18644
프슨	-18645
▁공물	-18646
▁다키	-18647
▁대파	-18648
▁만찬	-18649
▁베레	-18650
▁삼가	-18651
▁서간	-18652
▁아워	-18653
▁요안	-18654
▁유루	-18655
▁자력	-18656
▁학점	-18657
▁호감	-18658
▁Eng	-18659
▁Net	-18660
▁ㅇㅏㄴ	-18661
▁박격포	-18662
▁수류탄	-18663
▁유학생	-18664
▁참가국	-18665
▁플랜트	-18666
▁현급시	-18667
▁요코스카	-18668
루트	-18669
시간	-18670
▁마왕	-18671
▁삼부	-18672
▁색조	-18673
▁수난	-18674
▁슬퍼	-18675
▁신빙	-18676
▁신예	-18677
▁오경	-18678
▁재야	-18679
▁점심	-18680
▁커트	-18681
▁토토	-18682
▁배상금	-18683
▁정착민	-18684
▁사회단체	-18685
▁오를레앙	-18686
▁포리스트	-18687
▁삼국지연의	-18688
▁자동변속기	-18689
▁JS	-18690
▁굴리	-18691
▁궁금	-18692
▁동천	-18693
▁박주	-18694
▁북단	-18695
▁이도	-18696
▁정연	-18697
▁체온	-18698
▁추석	-18699
▁취락	-18700
▁호러	-18701
대주의	-18702
▁한마디	-18703
▁시라카와	-18704
니언	-18705
오밍	-18706
▁TA	-18707
▁간편	-18708
▁과수	-18709
▁균류	-18710
▁디어	-18711
▁부응	-18712
▁테츠	-18713
▁390	-18714
▁갑각류	-18715
▁프로필	-18716
▁1837	-18717
승람	-18718
오세	-18719
쿠로	-18720
red	-18721
▁RD	-18722
▁강압	-18723
▁레딧	-18724
▁봉산	-18725
▁숙고	-18726
▁운문	-18727
▁콕스	-18728
▁후각	-18729
▁흡혈	-18730
▁명백히	-18731
▁목판본	-18732
▁서산시	-18733
▁예배당	-18734
▁조교수	-18735
▁아시리아	-18736
워키	-18737
iet	-18738
▁걸즈	-18739
▁선방	-18740
▁실바	-18741
▁업소	-18742
▁오니	-18743
▁우미	-18744
베를린	-18745
슈타트	-18746
▁228	-18747
▁미스트	-18748
▁비스트	-18749
▁정찰기	-18750
▁좀처럼	-18751
▁현저히	-18752
▁화순군	-18753
▁후견인	-18754
▁북베트남	-18755
▁오렌지색	-18756
▁네덜란드인	-18757
▁알레산드로	-18758
실론	-18759
코로	-18760
▁계략	-18761
▁그람	-18762
▁김응	-18763
▁노시	-18764
▁도핑	-18765
▁만경	-18766
▁맨틀	-18767
▁면접	-18768
▁미약	-18769
▁미오	-18770
▁부결	-18771
▁선승	-18772
▁수유	-18773
▁아론	-18774
▁앙주	-18775
▁여순	-18776
▁원판	-18777
▁청렴	-18778
▁치타	-18779
▁코노	-18780
▁패미	-18781
자동차	-18782
▁Har	-18783
▁유가족	-18784
▁제작소	-18785
▁프런트	-18786
▁뜰	-18787
ana	-18788
▁ro	-18789
▁교착	-18790
▁바예	-18791
▁아저	-18792
▁오데	-18793
▁주앙	-18794
▁필살	-18795
▁한류	-18796
▁히치	-18797
▁가야금	-18798
▁군단장	-18799
▁이준용	-18800
▁콘셉트	-18801
▁평창군	-18802
▁개인주의	-18803
HT	-18804
▁꽁	-18805
호크	-18806
▁Pa	-18807
▁벙커	-18808
▁비명	-18809
▁송병	-18810
▁영흥	-18811
▁울음	-18812
▁유흥	-18813
▁익주	-18814
▁쟁취	-18815
▁폐간	-18816
echn	-18817
▁fun	-18818
▁도지사	-18819
▁명륜당	-18820
▁발명가	-18821
▁아저씨	-18822
▁에버턴	-18823
▁최남단	-18824
소시	-18825
ech	-18826
ric	-18827
▁MX	-18828
▁강수	-18829
▁나방	-18830
▁담화	-18831
▁비약	-18832
▁상석	-18833
▁성녀	-18834
▁일직	-18835
▁토사	-18836
▁티에	-18837
▁한옥	-18838
정대부	-18839
▁멤피스	-18840
▁모국어	-18841
▁발자국	-18842
▁슬퍼하	-18843
▁케네스	-18844
▁테레사	-18845
▁스테레오	-18846
▁트레이너	-18847
99	-18848
부스	-18849
▁고해	-18850
▁광종	-18851
▁노년	-18852
▁로랑	-18853
▁반민	-18854
▁약제	-18855
▁연마	-18856
▁영하	-18857
▁외젠	-18858
▁정태	-18859
▁주청	-18860
▁칼초	-18861
▁트랩	-18862
▁호라	-18863
▁혹평	-18864
▁홍대	-18865
▁226	-18866
▁경영진	-18867
[...]
