[PAD]
[UNK]
[BOS]
[EOS]
[CLS]
[SEP]
[MASK]
▁▃
▁ㅇ
▁ㅇㅡ
▁하
ㄷㅏ
▁.
▁ㅇㅔ
▁⊸
▁⊸⊸
▁ㄱ
▁이
ㅡㄴ
ㄴㅡㄴ
▁ㄷㅏ
▁ㅇㅢ
▁ㄴㅡㄴ
▁ㄹ
▁,
▁ㅇㅡㄹ
▁ㅇㅓ
▁ㅇㅏ
▁ㅇㅡㄴ
▁1
ㅅㅓ
▁되
▁ㅇㅣ
ㅡㄹ
▁ㄹㅡㄹ
▁ㅇㅓㅆ
▁년
▁ㄱㅗ
ㄹㅗ
▁2
▁있
▁ㅇㅏㅆ
▁대
▁ㄹㅗ
▁ㄱㅏ
▁사
▁지
▁그
ㅁㅕ
▁일
▁시
▁ㄷ
▁ㅇㅕ
ㄴㄷㅏ
▁들
▁ㄱㅘ
▁수
▁가
▁기
▁전
ㅈㅣ
▁적
▁아
▁20
▁ㅇㅘ
▁ㄷㅗ
▁월
▁주
▁제
▁ㅁㅕ
▁19
▁다
▁정
▁자
▁중
▁위
▁인
▁ㅇㅕㅆ
▁공
▁보
▁세
▁경
▁것
▁ㅈㅣ
▁개
▁부
▁ㄹㅏ
▁ㄱㅣ
▁오
▁유
▁3
▁"
▁조
▁나
▁등
▁스
▁선
▁ㄱㅔ
▁성
▁미
▁동
▁연
▁마
▁상
▁소
▁모
▁한
▁고
▁비
▁영
▁의
▁구
ㄴㅏ
▁국
▁도
▁발
ㄱㅗ
▁여
▁201
▁서
▁'
ㅁㅏ
▁4
▁후
▁관
▁명
ㅁㅏㄴ
▁신
▁만
▁프
▁5
▁때
▁ㅁㅕㄴ
▁200
▁장
▁-
▁ㄷㅓ
▁방
▁ㄷㅓㄴ
▁바
▁교
▁리
▁해
▁문
▁역
▁내
▁차
ㅌㅓ
ㅂㅜ
▁당
▁무
▁우
▁원
▁통
▁계
▁현
▁남
▁군
▁노
▁포
▁분
▁어
▁6
▁화
▁또
▁않
ㄲㅏ
▁거
▁학
▁생
▁ㄲㅏ
▁작
▁같
▁강
▁결
▁출
▁파
ㄱㅔ
▁진
▁받
▁대하
▁크
▁단
▁7
▁번
▁최
▁10
▁반
▁불
▁8
▁알
▁데
▁위하
▁호
▁두
▁회
▁배
▁안
▁카
▁실
▁형
▁초
▁말
▁따
▁예
▁에
▁재
▁ㅂㅜ
▁없
▁로
▁타
▁사용
ㄷㅔ
▁9
▁미국
▁종
▁라
▁이후
▁요
▁함
▁설
▁과
ㅈㅏ
▁특
▁ㅁㅕㄴㅅㅓ
▁일본
▁코
▁ㄴㅡㄴㄷㅔ
▁산
▁운
▁권
▁감
▁독
▁레
▁활
▁추
▁베
▁행
▁ㅈㅏ
▁왕
민국
▁피
▁김
▁그리
▁지역
▁음
▁대한
▁양
▁더
▁199
▁다음
▁매
▁민
▁태
▁평
▁많
▁12
▁입
▁따르
▁건
▁대한민국
▁참
▁18
▁간
▁및
▁경기
▁승
▁열
▁가지
▁목
▁대학
▁다른
▁;
리아
00
▁프로
▁의하
▁드
▁총
▁속
스트
▁ㅁㅏㄴ
▁북
or
▁S
▁집
▁11
▁법
▁때문
▁트
▁시작
▁체
▁각
▁외
▁물
▁천
▁달
▁변
▁메
▁시키
▁임
▁직
▁표
▁올
▁처
▁ᄆ
▁토
▁그러
▁본
▁사람
▁&
▁쓰
▁점
▁저
▁함께
▁A
▁또한
▁팀
▁박
어지
어나
▁치
▁투
▁선수
▁청
▁한국
▁항
▁)
▁브
▁영화
▁세계
▁사이
▁버
▁광
▁약
▁새
la
▁자신
▁C
▁게
▁M
▁경우
▁용
▁통하
▁f
▁판
▁ㄴㅏ
▁디
▁축
▁T
▁현재
▁F
▁기록
▁복
▁야
▁하나
▁국가
시아
▁아니
▁존
▁네
▁이름
▁198
▁편
▁당시
▁가장
▁확
▁삼
▁위치
▁_
▁조선
▁학교
▁활동
▁보이
▁뒤
▁철
▁만들
▁리그
주의
▁(
▁필
▁그러나
▁15
▁살
▁for
▁금
▁페
▁증
mu
▁합
▁째
▁루
▁플
▁백
▁테
▁창
▁심
mula
▁formula
▁애
▁언
ㄱㅏ
▁식
▁16
레이
▁대표
▁연구
▁병
▁근
▁못
▁또는
▁프랑
▁/
▁그리고
▁황
▁사회
▁m
▁돌
▁규
▁0
▁D
▁충
▁17
▁시즌
▁순
▁첫
▁패
▁197
▁]
▁[
ㅇㅑ
▁B
▁완
랜드
▁히
▁이루
▁높
▁중국
▁못하
▁알리
▁협
▁다시
▁길
▁클
▁서울
▁정부
▁프랑스
학교
▁K
▁영국
▁I
▁ㅂ
▁채
▁:
▁시대
▁ㄴㅡㄴㄷㅏ
▁키
▁도시
▁k
▁포함
▁뜻
▁여러
▁196
ㅁㅕㄴ
▁14
▁은
▁전쟁
▁아이
▁독일
▁면
er
▁죽
▁대회
▁~
▁문화
▁g
▁배우
▁13
▁축구
▁취
▁위원
▁별
▁P
▁허
▁가능
▁모두
▁ㅅㅓ
▁뉴
▁동안
in
ㄴㅣ
▁ㅂㅗ
▁모든
▁이상
▁친
▁감독
▁손
▁곡
▁194
▁정치
▁환
▁일부
▁방송
▁l
▁석
▁문제
▁대학교
▁처음
▁개발
▁L
▁지방
▁제작
▁구성
▁%
▁캐
▁검
▁인하
▁국제
▁러
▁농
▁터
라이
▁사건
▁니
▁골
▁세기
▁끝
▁시간
▁이용
▁ㄱㅓ
▁논
▁일반
▁씨
▁부르
▁존재
▁G
▁작품
▁향
▁게임
▁밀
▁날
▁운동
▁정도
▁폭
▁급
▁역사
▁주장
▁gt
▁나오
▁N
▁곳
ㄹㅗㄱ
▁섬
▁관계
▁인구
▁즉
니아
▁앞
▁ㅅ
on
▁티
▁195
▁효
▁km
▁교육
▁음악
▁접
▁중심
▁나타
▁육
▁lt
▁ㄹㅕ
▁맡
리스
▁이러
▁U
▁귀
▁극
▁30
▁쿠
▁R
▁절
▁맞
▁선거
▁블
▁경제
부분
▁발견
▁전투
통령
▁H
▁담
▁민주
화국
▁봉
▁발표
▁E
▁글
▁홍
▁갖
▁기술
▁올림
▁측
▁누
▁막
▁암
▁아들
이스
▁책
▁우승
▁2010
▁공격
▁엔
▁대부분
▁들어
▁대통령
▁올림픽
▁잘
▁사망
an
▁영향
▁걸
▁케
▁헤
▁질
000
▁불리
▁결과
▁슈
▁열리
▁여기
▁송
▁밝
▁새롭
▁라이
▁지원
▁프로그
▁앨
리카
▁193
▁과정
▁잡
▁의미
▁발생
▁관련
▁참여
▁중앙
▁유럽
▁업
▁진행
▁c
▁최초
란드
▁머
20
▁얻
▁범
▁준
▁25
▁고등
▁부분
▁독립
ㅆㅓ
▁특히
▁자유
▁태어나
▁제국
▁세우
▁결정
▁다양
지만
▁구조
▁설립
▁팔
▁설치
▁속하
▁초등
버지
▁당하
▁발매
▁폐
▁형태
나라
▁상태
▁소속
▁탄
▁탈
▁W
▁악
▁온
▁벌
▁좌
▁2008
▁러시아
▁이전
▁21
▁침
▁좋
▁센
우스
▁사실
▁하지만
▁일어나
▁그녀
▁르
▁줄
▁스타
디오
▁커
▁같이
ㄹㅏ
▁폴
▁로마
▁여성
▁인민
▁주로
▁프로그램
▁이것
▁타이
▁나라
▁2012
▁2011
▁생각
▁갈
▁필요
▁출신
▁참가
▁싱
▁혼
▁이탈
▁관리
▁기준
▁조직
▁100
▁운영
en
▁위원회
▁2009
▁보내
▁여자
▁2007
▁오르
▁윤
▁중요
▁생산
▁2014
▁계획
▁기관
▁t
▁행정
▁등장
▁정보
▁상대
▁음반
▁이르
▁지정
▁계속
▁데이
▁바이
▁성공
▁a
▁매우
▁콘
▁지나
▁국민
▁데뷔
▁2013
▁해당
▁O
▁넘
he
▁밝히
▁레이
▁철도
ㄹㅓ
▁대전
▁아버지
스터
▁과학
▁칼
▁고려
리즈
▁이탈리아
ㄷㅗ
▁주요
프트
▁몇
▁발전
▁자리
▁191
▁사업
▁묘
▁시스
▁와
▁23
▁24
▁ㅊ
▁찾
▁지내
▁000
▁2015
남도
ar
▁억
▁차지
ㅁㅡ
▁2018
▁방법
▁ㅊㅓ
ㄹㅓㅁ
라마
▁헌
▁2016
▁월드
▁앨범
▁얼
레스
▁능
▁그룹
▁최고
▁쇼
▁인도
▁돌아
▁빌
▁출연
▁마이
▁아래
▁시리즈
이션
르크
▁결국
▁엘
▁관하
▁J
es
▁고등학교
▁전체
▁후보
▁22
▁생활
▁떨
▁이루어지
▁빠
▁2006
▁회사
이트
▁그리스
FA
▁이유
▁한편
▁192
▁내용
▁ㅇㅡㅁ
▁거치
비아
▁우리
▁격
▁층
▁나가
▁제공
▁스페
▁연합
▁풍
▁방식
▁2017
▁항공
▁공식
운데
▁의원
▁인터
▁힘
▁많이
▁인간
▁시기
▁컴
▁역할
▁드라마
▁잠
▁희
▁가운데
▁몸
▁군사
▁시스템
▁초기
▁조사
▁출전
▁유명
▁워
▁기업
▁민족
▁거의
▁제도
▁반대
▁류
▁s
▁놓
▁쓰이
▁나타나
▁퍼
▁지구
▁푸
▁가리
▁둘
▁텔
▁교회
▁색
▁수상
▁대신
▁떠
비스
▁달리
▁유지
▁평가
▁울
▁분류
▁표현
▁ㄹㅏㄴ
▁26
▁!
▁몰
▁특별
▁올리
▁홈
▁언어
▁대상
▁녹
▁동시
at
▁기능
▁현대
▁규모
▁응
▁프리
▁공개
▁28
▁졸
▁마지
▁모습
▁자연
▁노동
▁ㅇㅑ
▁이미
▁연결
▁각각
▁웨
야기
▁개인
▁27
▁2019
▁들어가
▁이론
▁승리
▁전하
▁뛰
▁붙
▁인정
▁단체
▁진출
▁지도
▁브라
▁ㅅㅣ
북도
▁임명
▁2005
▁핵
▁V
▁2000
▁떨어지
▁마지막
▁시장
▁목적
머니
▁시절
▁메이
▁아르
▁수도
▁경상
▁전문
▁정의
▁목록
▁난
▁멀
▁정책
▁기간
▁족
▁너
▁상황
▁눈
ic
▁산업
▁직접
▁이야기
al
▁먹
▁서로
ㅂㄴㅣ
▁야구
스크
▁혁
▁오스트
▁압
▁밴
▁계약
▁기원
▁슬
▁추가
BS
▁건설
▁2004
▁공동
▁모델
▁개최
▁콜
▁FC
▁건물
▁샤
▁공간
▁플레이
▁경찰
▁망
▁50
▁활약
▁형성
▁결혼
▁거리
▁스페인
▁부산
▁31
▁훈
▁자동
▁29
학자
▁졸업
▁그것
▁칸
▁b
▁변화
▁노래
▁교수
▁사상
▁변경
▁TV
으키
▁국회
▁ㄴㅣ
is
▁인물
▁나이
▁뿐
▁마을
re
it
▁공화국
▁텔레
▁완전
▁다르
▁벨
▁궁
▁190
▁비롯
▁노선
▁사랑
▁흐
▁인민공
▁낮
▁인민공화국
비전
▁휴
▁역시
▁2020
▁중학교
▁학생
ou
▁느
▁맥
▁보통
▁실제
▁지지
▁최대
▁서비스
이드
▁만나
▁볼
▁잉
▁요구
▁탑
▁지금
▁견
▁따라
▁보호
▁전국
프리카
대로
▁일으키
▁의회
▁소설
▁싸
▁중화
▁우주
▁딸
▁겸
▁실시
▁지하
▁ㄱㅔㅆ
역시
▁혹
▁기본
▁없이
▁황제
▁다이
운드
▁가수
▁판매
▁자기
▁싱글
▁전통
르트
▁밴드
▁높이
▁원래
▁비판
▁ㅁㅏ
▁차이
▁기반
▁옥
▁떠나
▁엄
▁퇴
▁론
▁2002
너지
▁종교
▁경기도
▁탐
▁세력
▁어떤
로스
▁내리
▁40
▁버리
▁자료
스탄
▁소련
▁수행
▁가리키
▁이끌
▁2003
▁환경
▁기타
▁ㄴ
▁회의
▁센터
▁모양
▁전기
▁운행
▁풀
▁시설
▁도쿄
▁월드컵
▁부대
▁전자
▁특징
▁나타내
나다
러스
▁밖
▁승강
▁공연
▁기념
▁컵
▁걸치
▁그래
▁명칭
▁교황
▁분야
le
▁뮤
▁예술
▁이동
▁설명
▁기독
▁텔레비전
▁통합
mp
▁작업
▁연방
▁남자
▁구역
▁도입
▁염
▁동물
▁득
▁행동
▁따라서
▁선정
▁전라
▁애니
▁숙
스타
▁군대
▁소프트
▁남쪽
▁넓
▁바로
▁작용
들이
▁할
▁가족
▁능력
▁출시
▁북쪽
▁방향
▁증가
▁확인
▁기존
▁=
▁지휘
▁행위
▁제외
▁차량
▁교통
▁문학
의원
▁기독교
▁옮
▁작가
▁이때
▁착
▁비슷
▁클럽
▁사고
▁국내
▁윌
▁형식
▁ㅁㅡ
▁도로
▁십
▁어머니
▁혁명
▁마르
▁작곡
▁강하
▁역임
▁승강장
▁빈
▁효과
▁태양
▁지배
▁낙
▁캐나다
▁몽
▁그렇
▁컴퓨
▁열차
▁왕국
▁유일
▁FI
▁과거
▁사무
▁거두
▁옮기
▁이적
▁챔
BC
ㄴㄷㅔ
▁협회
▁혹은
▁남부
▁갑
▁추정
리오
▁흥
▁뉴욕
▁베이
▁비교
▁솔
▁흔
▁공산
자리
▁생기
▁담당
▁갖추
▁육군
▁이어지
▁정당
▁이사
▁동일
▁시민
▁주변
▁획
▁2001
▁런
▁1990
▁홀
▁즈
▁늘
▁동쪽
▁장관
▁인기
▁대사
▁스포
▁물리
▁스트
▁적용
▁넣
▁X
▁챔피
▁윈
▁세포
▁건축
▁예정
▁공사
▁p
▁데이터
▁구간
▁쪽
▁사단
▁컴퓨터
▁개념
▁성장
▁조지
▁상당
▁곧
드리
▁오늘
▁크기
▁서쪽
▁마음
▁품
▁189
▁차례
▁징
▁에너지
▁버스
▁멤
▁충청
▁돈
▁맨
▁비하
ㄴㅈㅣ
▁흑
▁바르
▁록
이지
▁바꾸
▁치르
▁어리
▁액
▁칭
▁작전
▁땅
▁민주주의
▁조건
▁자체
▁실패
▁디자
▁연기
▁잔
▁어느
▁율
▁반응
▁덕
▁FIFA
▁이런
▁d
▁선언
▁돌아오
▁이어
▁버전
▁애니메
▁종류
▁특정
▁연주
▁부족
▁컨
▁페르
▁국립
▁방영
▁움
카이
▁익
▁쉽
▁연속
가지
▁쌍
▁피해
▁공항
el
▁선택
▁대체
▁대구
▁해군
▁다루
et
▁ㄹㅓ
▁규정
▁고대
거리
버스
▁멤버
▁체제
▁조약
▁북부
라지
▁내부
▁수록
루스
▁속도
▁결승
▁기원전
▁아시아
▁선출
▁연대
▁애니메이션
글랜드
▁헌법
▁쥐
▁명령
▁정신
▁인천
▁크리스
▁포르
▁옛
▁ㄴㅡㄴㅈㅣ
▁휘
ion
▁왜
▁가치
웨어
▁단계
▁영어
▁개혁
▁최종
▁자치
ing
▁물질
▁친구
▁달러
▁설계
▁나누
▁최근
▁분석
▁밤
▁비행
▁척
▁출판
트남
▁가깝
▁평균
▁의사
시마
▁강화
▁지명
▁1999
▁로스
▁체계
아가
널리
▁더욱
ol
라스
▁표준
▁롭
▁소비
▁술
▁잉글랜드
▁배치
메리카
▁1998
▁법원
▁머리
▁집단
▁cm
21
▁Y
▁치료
▁북한
▁획득
▁개월
▁부문
▁남기
▁파이
▁o
▁씩
▁팬
▁언급
▁관심
▁헬
▁함수
▁하이
▁하계
▁분리
▁겨
▁공원
▁1980
▁유사
▁지속
▁현상
▁부상
▁60
▁파리
▁먼
▁벤
▁맺
▁스포츠
▁스테
▁실험
▁조정
▁선발
▁처리
▁확장
스코
▁입단
▁베르
리지
▁관할
▁제품
▁엔진
▁지니
▁공립
▁35
▁마치
▁챔피언
▁대중
▁마리
▁소유
▁문자
▁빠르
▁목표
▁꽃
▁도움
▁장군
▁mm
▁어렵
▁시도
▁요소
▁통일
▁주도
▁재판
디어
▁에스
▁정규
▁자동차
▁요시
⊸⊸
⊸⊸⊸
▁나무
▁외국
▁거주
▁이해
▁구단
▁점령
▁향하
▁후반
▁원자
▁시험
▁편성
▁주인
▁네덜
▁네덜란드
▁기사
▁바뀌
▁미치
▁n
광역시
▁괴
▁주민
▁앤
▁학자
▁가르
▁행사
▁잃
▁일종
▁통신
▁사령
▁결합
▁웹
▁혈
▁투표
▁고속
▁안정
▁동맹
▁스럽
▁끌
▁예선
▁알렉
▁불교
▁책임
▁잇
▁길이
om
▁수준
▁앙
▁개봉
나무
▁장치
야마
▁아프리카
▁깊
▁끝나
▁1997
▁언론
젝트
▁본선
▁디자인
▁문서
▁모르
▁광주
▁불구
▁정하
일랜드
▁베트남
▁준비
▁사진
▁촉
▁캠
▁칠
▁방문
▁신문
▁가문
메달
▁빛
▁유전
▁ㄱㅜ
st
▁폴란드
▁다니
▁구분
▁1996
▁정권
▁가정
▁정확
▁The
▁1995
▁제조
▁경험
▁그림
▁성적
▁요리
▁핀
▁비디오
▁드러
▁용어
▁amp
▁평화
▁믿
▁정리
▁부인
▁32
▁오늘날
▁통과
▁70
▁값
▁부여
▁일제
특별
▁원인
▁왕조
ㅇㅓ
▁찬
▁아마
▁프로젝트
▁런던
▁추진
▁덴
▁아직
▁은퇴
▁병원
▁이곳
▁널리
스로
▁종합
▁방어
ㅇㅓㅆ
▁올라
▁깨
▁멸
▁프레
스턴
인트
▁슈퍼
▁신라
▁500
▁폐지
▁인터넷
▁이듬
▁몬
▁영역
▁습
▁해석
▁통치
▁끼
▁경쟁
웨이
▁훈련
▁미사
▁경영
▁제주
▁입장
▁the
▁면적
▁주연
▁총리
▁츠
▁발달
▁보도
am
레일
▁노력
아들이
▁파괴
▁민주당
▁기여
▁제안
▁80
▁만화
▁회장
▁유래
▁접하
▁죽이
▁미술
▁번호
▁서부
▁주제
▁부정
▁188
▁이듬해
▁모으
▁경기장
▁야마
▁도서
▁놀
▁국회의원
리트
▁UE
▁연맹
▁생물
▁남성
▁지키
▁완전히
▁식민
▁빅
▁궤
라인
▁동부
▁자주
▁투수
▁경계
▁요청
▁+
il
▁ㄹㅜ
▁그런
▁1994
▁정상
▁폰
▁법률
▁UEFA
▁나뉘
▁1970
▁행성
▁벌이
▁소재
▁무기
▁수용
▁등록
▁금지
▁돕
▁연구소
▁삼성
▁움직
톨릭
▁ㅅㅡ
ac
▁지진
▁인식
▁제한
▁펼
▁라디오
▁바탕
▁링
▁강원
▁무대
▁박물
▁꼬
▁노르
▁발사
▁아시
▁영토
머지
▁지대
▁나머지
▁KBS
▁외교
▁표기
▁접근
▁조각
▁철학
▁린
▁반면
▁오래
▁업무
▁스스로
▁뉴스
▁빠지
▁정식
▁뇌
▁ㅅㅡㅂㄴㅣ
▁거부
▁다리
▁아일랜드
▁결성
▁서식
▁마찬
▁마찬가지
▁오스
▁더불
▁벽
▁필리
▁붙이
▁1992
▁돌아가
▁받아들이
▁펜
▁상호
▁은행
요일
▁굴
▁45
▁다수
▁아카
▁공작
▁짧
▁가톨릭
▁기초
ro
▁박사
ㅁㅕㄴㅅㅓ
▁복귀
▁소리
임스
▁임시
▁스웨
▁보수
▁논란
▁바다
▁트리
▁수학
▁주의
▁이기
▁득점
▁성격
▁의식
시코
▁36
ed
▁장애
▁이렇
▁of
모토
▁윌리
▁실제로
▁지도자
▁박물관
▁유로
▁초대
▁이스
▁마이크
▁해결
▁장소
▁검사
ㄴㄱㅏ
▁그대로
▁에이
▁스위
워드
▁브라질
▁긴
▁여행
▁카드
▁총선
트리
▁집합
▁여름
▁화학
▁표시
▁차원
▁기구
▁강력
▁식물
▁패배
▁묘사
▁느끼
▁오브
▁1960
ig
▁계열
▁관측
▁제시
▁이외
▁연극
▁1991
▁안전
▁유니
토리
▁단순
▁인사
▁스웨덴
▁차트
로나
▁파일
▁뛰어나
▁활용
▁무역
▁디지
▁멕
▁곤
▁권력
▁개국
▁회원
▁히로
▁오스트리아
▁자라
▁꾸
부르크
▁1993
레일리아
▁근처
▁기계
▁싸우
▁33
▁형제
▁캐릭
▁소프트웨어
▁보다
▁조성
▁반란
▁붕
배우
▁취하
▁분포
▁먼저
▁지적
베이
▁중간
▁중단
▁흡
▁발행
▁위험
▁아무
▁세대
트로
▁시행
▁일정
▁스튜
▁스코
▁여객
특별시
▁도착
▁량
od
▁기자
▁띠
▁협력
▁서울특별시
버트
▁사이트
사카
▁윈도
▁지하철
주시
▁186
▁단어
▁해안
▁하루
▁캐릭터
니스
▁다만
ve
▁",
▁렌
워크
▁코드
▁파견
▁죽음
as
▁혜
▁수많
▁연장
▁들어오
▁내각
▁순위
▁전시
▁세상
▁태평
▁경상남도
▁오스트레일리아
지션
▁다카
▁내려
▁공장
▁본부
▁죄
나이
▁생성
▁투자
▁후기
소년
▁번역
▁카이
▁삶
▁케이
▁겪
▁윌리엄
▁감소
▁근거
▁경상북도
▁혐
▁옹
▁지상
▁네트
▁뮤직
▁제기
▁보유
▁확대
▁귀족
▁보존
▁유형
▁관광
▁양식
▁1988
무원
▁지식
▁듣
▁동생
▁균
▁멜
▁위기
▁상징
▁?
▁달성
▁187
▁구하
▁유대
▁숨
▁촬
▁캘
▁촌
▁극장
▁원소
▁멕시코
▁전략
▁상업
▁h
▁근무
▁디지털
▁영상
▁학위
▁유리
▁당선
▁성립
▁수사
▁완성
▁대응
ㅜㄴ
▁단위
▁34
▁특수
▁짓
▁계승
▁발매되
▁옆
▁촬영
▁체포
▁이슬
▁흐르
티아
▁수비
▁코치
▁님
▁38
▁몇몇
▁식민지
▁나중
▁체결
id
▁이렇게
▁ㅇㅗ
▁전달
회사
▁마사
아내
▁이집
▁권리
▁이집트
▁알렉산
▁종목
가리
▁국왕
▁생명
▁90
가와
▁듀
아시아
▁싶
▁벌어지
▁낳
▁걸리
▁승격
▁아내
▁맹
▁시티
▁톤
▁ㄷㅐ
▁1989
▁헨
▁직후
▁이주
▁판단
▁2021
▁개통
▁시청
▁타이틀
모리
▁률
▁주식
▁관찰
▁크로
▁도서관
▁48
ec
▁대륙
▁동계
▁측정
▁펼치
▁소수
▁틀
▁미군
▁젊
▁미래
▁맞추
▁채널
▁엘리
▁즐
▁홍콩
▁밑
▁문화재
us
▁정치인
▁스키
▁전환
▁설정
▁자본
▁세르
▁포르투
and
▁특성
▁라인
▁텍
NA
▁',
▁쌓
▁새로
▁미사일
▁개정
▁신경
▁얼마
▁납
▁종료
▁시위
▁취임
▁상하
▁1950
▁의견
▁제정
▁기획
▁지위
▁|
▁후쿠
▁달하
▁본관
▁주어지
▁300
▁결승전
▁은하
ㅇㅔ
▁청년
스티
▁전차
▁MBC
디아
코드
▁사회주의
▁아키
▁e
▁천황
▁헝
▁출생
▁주인공
▁교체
▁범죄
ad
▁전라남도
▁셀
▁제임스
▁답
▁계산
▁충돌
▁주목
▁예수
▁ㅃ
▁소개
▁춘
▁해외
▁수정
▁녹음
교회
▁ㅇㅏㅆㅇㅓㅆ
▁장기
▁빼
▁ㅃㅜㄴ
▁1945
▁음식
▁바이러스
▁즉위
▁비용
▁스티
▁벗
▁모이
▁카운
▁남북
▁개선
▁본래
▁소장
ent
▁합류
▁자격
▁건강
리학
▁비밀
전히
▁공부
▁펠
▁네트워크
▁건너
▁공급
▁궤도
스카
▁이래
▁계기
▁배경
▁부모
▁체육
▁시내
▁에드
▁만드
▁ㄷㅡ
50
▁인근
▁털
▁제거
▁셰
▁원정
▁컬
▁작성
▁누구
▁명예
▁오후
▁각종
▁공군
▁거대
▁자원
▁홈런
▁입학
▁물론
▁신학
▁가입
▁왼
▁감염
▁성우
▁읽
▁국경
▁베네
▁군인
▁전사
▁집중
▁피아
▁천문
▁가격
베르
▁명단
▁포지션
보이
▁객
▁울산
▁병력
▁저항
▁신호
▁줄이
티나
▁통제
▁이슬람
▁농업
리포
▁기후
▁아우
피아
▁찰
▁질량
▁강조
▁소송
▁측면
▁인수
▁St
▁터미
▁만약
▁플로
▁실행
▁학문
▁블랙
▁세이
▁던
▁병사
▁콩
▁터키
도로
ot
▁강원도
▁오른
▁겨울
▁태평양
니어
▁x
▁정착
▁피하
▁나서
▁증명
▁약간
▁비트
▁최소
▁잎
▁변호
▁엑
▁기회
▁너무
▁미디어
▁무장
un
▁외부
▁광고
▁마리아
▁노동자
▁쉬
▁37
ow
▁in
▁몽골
▁해방
▁이번
▁터미널
동안
▁환자
▁국방
▁편집
철도
▁쇠
▁마쓰
▁제목
스키
▁지점
▁밀도
▁사라지
▁냉
▁표면
▁무렵
▁라운드
▁금융
▁ㄹㅣ
▁도중
▁바라
▁바람
▁전반
▁유도
▁1987
오카
▁가스
▁마련
▁혐의
▁허용
▁그해
▁카르
▁윈도우
▁힐
▁학년
소리
▁충분
▁합병
▁충청남도
▁빨
▁인디
▁루이
▁래
▁꼬리
▁여전히
▁영화배우
▁재산
▁재직
▁오사카
▁민간
▁전력
▁포르투갈
▁숲
▁w
▁양성
마크
▁고전
▁등급
▁선수단
▁전역
▁41
▁령
▁뒷
▁붕괴
▁킹
▁헝가리
▁가져
▁오리
▁라이브
▁후지
▁1986
▁현실
드로
▁1984
▁51
▁공주
▁재정
ur
▁행하
▁캘리포
▁이하
▁보고
▁스튜디오
▁공공
▁엔터
▁동료
▁대수
▁봄
▁계급
▁전선
▁승인
▁위원장
▁강제
▁적극
▁군주
▁온도
▁대대
▁샌
▁위협
▁구축
▁조치
▁근대
▁유엔
▁롤
▁수입
▁업체
▁둥
▁범위
▁캘리포니아
▁임무
▁클라
▁경력
▁이미지
▁대학원
▁핀란드
▁양자
▁위성
▁논문
▁출발
▁고구
▁꿈
▁교사
▁다섯
▁이제
▁항상
▁거래
▁점차
▁성인
▁토론
▁공산당
▁필리핀
▁채택
▁전개
▁수단
▁회복
▁원칙
▁올라가
▁확보
▁아시안
마스
러지
▁강의
▁잡지
▁수립
▁잭
▁섭
▁드래
테르
▁남아
ch
▁공업
▁증거
▁첨
주교
▁앞서
▁39
▁남편
▁400
▁개편
▁매년
ㅇㅛ
▁기지
▁스파
▁얼굴
▁일원
▁선생
고리
▁의료
▁합의
▁사례
▁만족
바이
▁시인
▁앞두
▁나카
▁스위스
▁이스라
▁1985
▁부근
▁폭발
▁64
▁장비
▁그래서
▁붉
▁간주
로드
▁모스크
▁이승
▁종종
▁대형
데미
▁욕
▁튀
▁어떻
▁경주
▁대기
▁스리
▁군단
ay
▁이스라엘
▁분자
▁끊
▁규칙
▁둘러
ir
▁뜨
▁장면
▁토지
▁항성
▁아름
▁종이
▁아주
▁불가
▁II
▁수원
다리
ut
▁어린
▁움직이
▁게이
▁캄
▁까
▁경향
▁조합
백질
▁맛
키아
▁해체
▁낭
▁탑재
▁진화
um
▁귀국
▁ㄷㅡㄴ
▁아랍
▁기대
우드
▁레코드
▁강점
▁아카데미
▁43
고기
레이드
▁대장
▁그곳
▁심하
▁br
▁저지
▁확실
▁기억
▁서양
▁신화
▁평양
▁짐
im
▁향상
▁고양
▁클래
▁스피
▁장식
▁아메리카
▁아나
▁박쥐
어들
▁투어
▁청소년
▁란
▁침공
▁42
▁좀
▁변하
▁융
▁보장
▁의학
▁청나라
▁카운티
▁남동
▁아름답
▁폼
▁랭
오스
▁새기
▁메이저
▁사후
▁고구려
▁켄
▁만큼
요시
▁카메
▁가로
▁에피
▁보병
ver
▁자금
보드
▁가사
네스
▁불과
▁신설
▁선고
▁잠시
▁1982
▁소년
▁나치
▁성과
라비아
▁단백질
▁55
타인
▁스타일
▁독자
▁이끄
▁중화민국
▁고문
에르
▁만주
▁숭
▁라틴
▁편입
▁철도역
▁살해
▁우수
▁감정
▁우선
▁스카
라노
▁단지
무르
▁확정
▁합치
네시아
틀랜드
▁광역시
▁스케
▁함대
▁1983
▁ㅂㅏ
▁복잡
▁덴마크
▁차별
▁비율
▁i
▁신앙
▁의장
▁왕위
▁나폴
▁지시
▁삭
▁세종
▁44
▁재단
다이
▁창설
▁예상
▁온라인
▁LG
누스
일러
▁태풍
FC
▁법인
▁공유
▁마크
▁고향
▁구체
▁전설
▁성당
▁선거구
▁전화
▁역대
▁검찰
▁브리
▁육상
▁짜
뜨리
▁동의
▁킬
▁47
▁반도
▁참석
▁삼국
▁판결
▁솔로
▁보급
▁브랜드
운동
하라
트라
▁둘러싸
▁묻
뿌리
▁대립
싱턴
▁하늘
의회
▁저장
▁유학
▁노예
▁고정
▁수출
이크
▁후손
비드
▁애플
▁카를
▁핵심
▁오픈
▁헤이
▁듯
▁75
▁집행
▁강점기
▁협상
▁본격
▁184
▁ㄴㅑ
▁산맥
▁보안
▁180
▁가하
▁Z
▁마드리
오프
▁초반
▁회전
셔널
원군
▁탄생
▁자세
▁암살
문화
없이
▁중반
▁대비
▁연고
▁사전
각형
▁숫
▁대항
▁무엇
▁로버트
▁1972
▁마드리드
▁옷
▁이성
▁베이스
반도
▁주교
▁ㅈ
▁플랫
▁아르헨
▁법칙
▁켈
▁어린이
리스트
▁사우
▁전용
▁순서
▁공학
소드
▁권한
▁46
▁단일
▁말기
▁이란
▁1920
바르
▁공기
▁유적
▁베를
▁프란
▁의무
레이션
▁직원
▁아르헨티나
▁수여
▁전혀
▁조금
CA
▁중심지
▁요한
터리
▁시각
▁인상
▁이익
▁1979
▁별도
▁공포
▁아미
▁운전
▁가르치
▁전라북도
▁효소
▁사항
▁아스
▁흔히
▁스크
▁보조
▁모리
▁덮
▁원주
▁글로
▁비난
▁롯
▁워싱턴
▁협정
▁CD
▁잘못
▁밀리
▁상품
▁kg
▁변호사
▁아파
▁파크
▁전후
▁기하
▁관료
▁우크
▁통계
▁방면
정부
ra
▁을
▁인권
▁창조
퍼드
▁1930
▁레드
▁금메달
▁In
▁작곡가
▁1981
▁마시
▁투입
▁저서
▁1973
▁현장
무라
▁항복
▁하드
▁셋
▁아침
▁소식
▁장착
▁정복
▁벡
▁놓이
▁150
사키
퍼스
10
▁넘어
▁호텔
▁공무원
▁엠
▁심각
▁중세
▁훨
▁헨리
▁노스
▁니콜
▁건국
os
▁오른쪽
▁교류
▁중부
▁교토
▁공화
▁v
▁본인
▁산하
▁갈등
▁물러
▁공산주의
▁코미
▁마이클
▁훨씬
▁요새
▁세인트
▁빙
겨나
리어
▁유전자
▁오랜
▁김정
▁한때
▁ㄷㅡㅅ
▁건조
▁무리
▁플라
▁택
▁뿌리
▁왼쪽
▁인정받
▁출마
▁플레이어
▁서기
▁오히
▁논의
▁패하
▁성경
▁창립
▁인류
▁형사
▁오토
▁로드
▁연합군
▁방출
▁금속
▁추측
▁어떻게
▁1940
30
▁태국
▁원작
▁1974
▁베이징
BO
▁아프
▁주위
▁185
▁예산
▁성질
▁노르웨이
em
▁북서
▁찍
▁릴
▁제자
▁복합
▁에피소드
▁코스
▁투쟁
▁드러나
▁군수
일보
ter
▁탁
▁운용
▁사령관
▁에어
▁플레이오프
▁모스크바
▁사태
▁벗어나
▁전철
▁효율
▁멸망
▁SBS
▁논쟁
▁입자
▁오전
▁해양
▁반복
▁스코틀랜드
카와
▁합성
▁집안
▁뽑
▁정비
▁절대
▁구별
▁노부
▁제출
▁1948
▁주기
▁숫자
▁메시
▁블루
▁연산
▁가져오
▁각본
▁인종
▁미니
▁사법
듀서
▁프로듀서
▁54
머스
▁포위
▁인조
▁흡수
▁1968
▁거절
▁인공
▁출장
▁퍼지
붙이
▁댄
▁델
▁1976
▁중대
▁웨스트
▁원리
아오
▁슬로
▁연관
▁베를린
▁경성
도르
▁빌리
▁목사
▁수송
▁시점
▁활발
▁마침
▁신체
▁북동
▁출입
▁소녀
▁오히려
▁전공
▁해상
▁이민
▁개시
▁건립
▁주전
▁1975
▁포기
▁읍
▁보스
▁음력
▁인터뷰
▁사령부
▁우스
ㅇㅣ
▁취급
▁프라
▁국도
▁즐기
op
▁명성
▁실리
▁넘기
데스
▁디스
▁던지
▁축제
▁트랙
▁고용
나이티
▁영화제
▁봉하
▁활성
시스
▁파라
▁취득
▁히데
▁동원
▁ㅂㅏㄲ
▁ㅂㅏㄲㅇㅔ
▁유나이티
▁농민
▁분쟁
▁1978
▁신성
▁국장
▁주택
▁1971
▁56
▁장악
▁미드
ag
▁갤
▁소스
▁텐
▁안타
▁총독
▁비록
▁보컬
▁고유
▁1963
▁구속
▁견해
▁일치
▁진보
산시
▁전부
▁52
서트
▁북아
▁불법
▁유물
▁49
▁한자
▁직전
라크
▁자이
▁하위
▁후원
▁코미디
에트
▁부활
키스탄
▁늘어나
▁65
▁포도
▁교차
▁끝내
▁여객철도
▁학습
비치
▁폭력
▁대리
▁연료
▁정체
▁관점
▁닌
▁타이완
▁주관
▁보험
▁도달
▁수술
메리
세이
▁스미
▁1969
ce
▁천체
▁항공기
▁혼란
▁아테
▁179
▁약속
▁시리아
▁한국어
▁Q
기에
▁편지
▁관직
▁철수
젤레스
▁직업
▁본사
▁상당히
릭스
▁고종
쿠라
▁미나
▁00
▁여부
리케
▁수집
▁명명
▁물러나
▁선교
▁모시
▁장교
▁누리
▁반영
▁데이비드
▁넷
▁임금
▁제어
자기
▁테러
▁팝
▁성능
▁그리스도
▁1946
▁논리
▁브레
▁아사
▁화물
▁백제
▁의존
▁주간
▁상륙
공항
▁영업
▁부임
▁일대
▁폴리
▁보관
▁학술
어스
▁하나님
▁프리미
▁소방
▁백작
▁불상
▁톰
▁주식회사
▁도구
▁심리
▁해산
OS
▁연재
▁대화
▁53
▁프로세
▁정지
▁좁
▁콘서트
▁교환
▁허가
▁스마
▁하우스
▁개체
▁전파
▁코로나
▁박정
미터
▁십자
▁제일
▁1964
oc
▁전문가
▁정원
▁충청북도
▁방사
▁대략
▁니시
▁자살
▁헤르
▁핑
▁고리
▁나아가
▁간단
▁판서
▁반발
▁화성
▁진입
▁보건
▁영향력
▁재료
▁살인
▁김영
▁베스트
▁학부
▁미터
병대
▁리스
▁벨기에
▁포트
▁US
▁드리
▁서버
▁공통
▁겐
▁원하
▁거기
ㄹㅕ
▁신분
▁항구
▁국제공항
▁먹이
▁상승
▁스프
ri
▁인도네시아
▁지붕
▁and
▁영입
▁학원
이어
▁승진
▁58
▁그런데
▁피아노
▁소비에트
▁사장
▁꼭
▁시호
▁가을
▁약하
▁학회
노스
▁파트
▁1000
▁부장
▁루이스
▁외국인
▁ㄹㅔ
▁99
▁그레
▁랜
▁진압
▁스토
하마
▁식품
▁아라
▁사운드
▁창단
▁콤
▁질병
▁횡
▁채용
▁브루
▁도망
▁주년
▁복무
▁계통
▁누르
▁구성원
▁변환
▁임대
▁참전
▁응용
▁현역
▁PC
▁픽
▁1977
▁다스
오르
▁요코
▁머무르
저우
▁통상
▁공동체
▁감사
▁임의
천군
▁탈출
▁트랜
▁합격
▁작사
▁장수
▁리더
▁민법
▁벼
▁그치
▁기도
아버지
▁망명
▁SK
▁모드
▁쫓
▁롯데
▁의도
▁말레이
▁한반도
▁문헌
▁탈락
▁고도
▁조작
▁화면
▁로스앤
▁로스앤젤레스
▁1949
다가
▁포로
▁친일
▁페이
▁에도
▁위반
▁신청
▁라이트
문화재
▁문장
▁탄소
성군
▁발언
프리
igh
▁마케
▁띄
▁방송국
▁부부
▁트라
▁학과
▁FA
▁이치
▁동남
▁닥
▁88
▁수영
▁선조
▁변형
▁캠퍼스
▁ㅋ
▁저작
정식
▁수소
▁배출
▁트로
▁1962
▁메모리
▁연출
▁상원
▁엑스
▁칭하
ation
▁62
▁예측
▁시카
▁레오
▁자녀
▁코파
▁절차
▁청구
▁1967
▁주둔
▁전동
려움
▁조절
▁이중
▁분열
▁..
▁기호
▁요인
카이도
▁큐
▁서원
▁신인
▁화재
▁레스
▁정기
▁처형
▁r
드시
▁흉
타르
▁로켓
▁국무
▁호수
크스
▁출간
로그
▁57
천시
▁광장
▁선전
▁막부
▁수리
▁실수
▁이승만
▁남서
▁황금
▁등지
▁방지
▁증상
▁카메라
▁루트
▁동작
▁이시
▁기법
페라
▁연안
▁동성
▁왕자
▁취소
브리
▁오스만
▁장르
▁흑인
▁개조
▁You
▁힘들
▁콘스탄
▁앵
▁어떠
▁생존
▁롱
라드
▁Ch
▁위상
포르
▁지급
▁서구
▁예비
▁기체
▁현지
▁농구
▁히트
▁고지
▁선보이
▁전주
▁좌우
▁여단
▁늦
▁천연
▁진주
▁반드시
아나
▁임진
▁고치
▁일본군
▁ㄴㅡㄴㄱㅏ
▁희망
▁무덤
▁공정
▁터널
▁181
▁크리
▁노리
▁동아
▁맞서
▁제대로
▁톱
▁코르
방송
▁전면
▁도전
▁맞이
▁스탠
nd
▁글자
▁1966
▁특이
▁바둑
▁이온
▁미국인
▁압력
▁66
▁녹색
▁둘째
▁분명
▁독립운동
▁그레이
▁%,
▁전형
▁파악
▁싸움
▁흘
▁노벨
▁방정식
이치
▁경로
▁독특
▁드물
▁KBO
▁1965
▁리처
▁묵
▁68
▁매일
라이언
▁법정
▁해리
▁에르
▁꺾
▁아리
티브
▁물체
▁183
▁엄청
더스
▁부사
▁유기
▁체코
▁ㄹㅏㅇ
▁목소리
▁타임
▁돌리
▁지리
▁일식
▁신뢰
▁개신
▁61
▁분해
▁인지
▁가시
▁클레
ST
▁성향
▁덧
▁알렉산드
▁간행
▁밥
▁어디
▁퀸
치아
▁묶
베스
에이
▁처벌
▁홋
▁찰스
르타
▁우려
▁일찍
▁동기
▁화산
▁타격
▁완료
▁유행
▁나들
▁분할
▁사립
▁나들목
▁내전
▁손자
▁웅
질랜드
바라
▁김일
▁실질
▁범주
▁풍부
▁방해
▁찌
▁뉴질랜드
▁삽
▁순환
▁아동
▁갈색
▁1961
▁추구
ER
▁별명
▁평등
▁대개
▁플래
▁아파트
art
▁복지
▁800
▁곱
먼트
▁마르크
▁흰
ice
▁리가
▁희생
▁비평
▁빼앗
▁최다
▁가상
▁오프
▁파르
▁분기
▁가까
▁창원
▁시조
▁600
▁부진
▁86
▁시드
▁전원
▁집권
ON
▁사냥
▁마침내
▁구현
▁기둥
▁모형
▁IS
▁완공
▁점점
▁판사
▁벡터
▁엄청나
▁한정
▁120
▁메리
▁중기
텐츠
▁프린
▁첼
유럽
▁테이
▁대법
▁명확
다르
▁웨이
▁사임
est
▁훗
▁스토리
피스
▁근본
은행
틀러
▁무게
▁일본인
▁확산
▁한계
▁사마
▁부하
▁re
▁물리학
▁호주
▁대공
ia
▁출범
▁들어서
▁캔
▁날개
▁레인
▁교향
▁충격
투스
▁단독
▁사형
▁닛
▁오페라
▁알파
▁의지
▁명나라
▁뚜
▁바치
▁상위
▁마법
▁98
▁가나
ap
▁1919
▁제이
▁사원
▁분위
▁통산
디션
TV
▁연구원
▁넓이
사스
▁편찬
▁악화
▁1944
▁의혹
▁모토
▁서명
▁이자
▁적절
▁유치
▁인접
라이나
▁렀
▁조종
ak
▁영웅
▁굽
▁드러내
▁당초
나가
▁인증
▁의심
▁문명
▁발굴
▁연간
▁도쿠
▁추천
세우
▁샘
▁모임
▁훌
▁포인트
▁저술
▁키우
▁곽
▁고속도로
▁광복
▁카라
▁함락
▁무시
▁동서
▁각지
▁기리
▁생겨나
▁회담
▁사실상
▁포항
▁63
▁1941
▁프리미어
사자
▁홍보
▁기온
▁접촉
AR
▁쏘
▁드라이
▁골든
▁자극
▁개입
▁기기
우리
▁95
아보
▁올해
▁탐사
▁순수
▁멘
▁사정
▁징역
▁독일군
▁개막
▁순간
▁세르비아
▁74
▁공로
▁뮤지
▁경전
▁학살
▁등판
▁그때
▁성분
숭이
▁바위
▁변수
▁DNA
▁행렬
▁시카고
▁임기
▁득표
▁악기
▁오랫
▁추산
연히
▁루스
민주
▁59
▁진정
믹스
▁앤드
▁178
버그
ct
▁Lo
▁꼽
▁그라
학생
▁언제
▁구원
▁수석
▁한국인
▁락
일리
▁닉
▁예전
대부
▁팽
▁여론
▁자전
▁실현
▁공헌
▁확률
무부
▁네이
▁보고서
▁ㄴㅡ
▁프로그래
▁입법
▁스마트
▁백성
▁태도
▁혼합
▁1958
▁아티
▁훗날
▁튜
▁IC
▁매장
▁방위
▁페르시아
▁감시
▁오랫동안
▁양쪽
▁미쓰
▁특별시
▁이닝
▁심사
▁줄어들
▁피터
▁1947
러리
ul
▁왕실
▁to
코스
▁82
▁;/
▁160
▁출력
▁에드워드
▁줄기
▁영지
▁춤
▁침략
▁리처드
리히
▁커뮤
▁뱅
▁개신교
▁원형
▁균형
▁1956
▁텍사스
▁다케
▁대량
▁경남
▁72
▁단편
▁조별
▁SS
▁저녁
▁76
▁안토
▁승객
▁그래픽
이너
▁시사
▁랜드
▁멀리
▁신부
▁팔리
▁프라이
▁제사
▁아이돌
▁여왕
▁가와
▁미야
▁발발
▁승부
▁고르
ㅡㅁ
▁안동
▁분위기
▁무사
▁커뮤니
▁권위
▁동명
▁작위
ie
▁이라크
▁대선
▁흐름
▁재건
▁타자
▁교구
▁점수
▁기울
▁프랑크
▁77
▁입력
▁마무
▁데스
리노
▁바깥
▁비치
▁참고
▁복원
▁테스트
▁1939
▁앉
▁잠수
▁ㄲ
▁축구단
▁확립
▁과학자
▁섞
▁67
▁일상
메리칸
▁석유
▁폭탄
▁원수
▁시상
▁도요
▁타워
▁리버
레나
▁포켓
▁Th
▁침입
▁어깨
▁비상
▁AFC
▁긍
▁병합
ㄹㅈㅣ
ud
▁겹
▁사자
▁복음
▁신자
▁한글
ly
▁주최
▁민중
▁부지
▁수익
▁일시
일스
▁복수
▁자식
og
▁정수
▁대왕
▁시마
▁다운
▁당국
▁더블
▁재배
▁기소
▁빅토
▁브라운
메이
▁혁신
th
레옹
마르
▁대성
▁내셔널
▁보물
▁도모
▁신고
▁평안
에른
▁85
▁암호
▁가량
▁지형
▁1954
▁가공
ist
▁동양
▁나폴레옹
▁덜
▁본질
▁계층
▁우라
▁창작
▁연예
마니아
▁공중
▁국기
▁사제
▁가담
▁인쇄
▁훈장
▁깃
이센
▁쌀
▁ㄴㅔ
▁끼치
▁심지
▁힌
▁폐쇄
레인
▁구글
▁빌보드
▁산화
▁파워
▁거듭
▁후계
▁고기
ight
▁ㅁ
▁1952
왜란
▁임진왜란
▁급제
AS
▁참모
▁노출
▁가설
▁움직임
▁비서
▁들이
▁평론
▁탱
▁보살
▁력
▁세리
아티아
▁크로아티아
▁73
▁발음
▁가이
▁조조
▁다소
▁아테네
아지
▁스타디
▁전신
조합
▁총회
▁박정희
▁타운
▁대지
▁바닥
▁오가
▁96
▁동방
▁람
▁*
▁그렇게
▁뷰
▁고통
▁라스
▁후속
▁탈퇴
▁ㅇㅜ
▁오카
▁채우
느리
▁81
▁실력
필더
아하
▁무한
▁미드필더
▁따로
AT
▁절반
▁셔
▁뮤지컬
▁78
▁Al
▁수도원
▁장남
▁상관
▁행복
▁개설
▁청주
▁뤼
▁재학
바로
▁전투기
▁인용
▁화이트
▁그만
시오
▁로봇
▁센트
▁국정
▁좋아하
▁가까이
▁중력
▁젠
▁보상
▁비례
▁전남
▁아트
▁이혼
▁화장
▁도덕
▁산소
▁심장
▁하인
▁202
▁보르
▁뮌
▁김성
▁손상
▁천안
▁안드로
▁바이에른
의정
▁여섯
너스
▁생물학
▁1959
▁빌딩
▁레알
체스터
ess
▁피해자
▁전직
▁177
자치
▁지향
타이
▁NH
▁국군
▁김대
▁포스트
▁붓
▁블라
▁상역
▁문신
▁살리
▁지사
▁사무소
▁주력
▁Li
▁백만
▁불만
▁와이
▁윗
▁71
▁AT
▁교리
BA
인물
▁처하
▁사우스
▁녀
토스
▁질환
▁91
▁포스
▁황후
▁당나라
▁DV
▁작동
▁화합
▁콘스탄티
▁인생
▁일컫
▁피부
▁관여
▁소득
하여
▁패션
세포
클리
▁기상
▁승려
▁검토
▁가마
▁하원
▁선박
▁총장
▁마무리
▁액션
직자
▁1942
▁유통
▁호소
▁메시지
▁신사
▁사유
▁부담
▁결론
▁의대
▁상실
▁약물
▁가슴
▁역학
가락
스트라
▁골드
▁;,
▁좌상
쿠스
▁개방
▁혼인
▁글로벌
▁동해
▁모바
▁위키
▁디스크
▁햄
▁조카
▁프로이센
▁설득
▁아웃
▁87
▁그린
▁오직
▁페이지
터스
▁적합
ub
미야
▁규제
▁수요
▁내려오
▁결의
▁심지어
▁st
▁연습
▁진단
▁159
▁1943
▁매체
▁통화
▁부산광역시
▁넘어가
▁홋카이도
▁구매
▁가요
▁1955
▁처분
▁서식지
▁원년
▁김일성
▁말레이시아
▁분노
▁선임
▁야스
가니
▁\
IV
▁이명
▁스타디움
▁왕비
▁위대
▁억제
▁심판
▁지나가
▁드래프트
IA
▁개성
▁1953
▁발탁
▁테크
▁퀴
▁ㅎ
▁일기
▁쿠데
드리히
▁잭슨
▁주석
▁1936
▁싱가
▁무료
▁소멸
▁싱가포르
히로
▁크루
▁예방
▁AP
▁필드
ab
▁84
▁왕후
미르
▁유형문화재
▁톨
▁일본어
▁700
▁프랭
▁사무실
▁자이언
▁사격
▁티베
▁음악가
▁어려움
▁힙
▁일체
▁여우
▁태조
▁프리드리히
▁이와
▁정차
▁루마니아
▁진영
▁긍정
▁모바일
▁사도
▁인원
▁나쁘
▁천주교
▁폭격
▁1910
▁궁전
데이
▁리드
▁세자
유산
▁카스
▁쿠데타
▁후쿠오카
▁기동
▁즉시
▁창당
▁굳
주군
▁전동차
▁전북
ine
▁대책
▁타인
▁Re
▁사라
▁히틀러
▁불안
▁시나
▁유고
▁스티븐
▁쾌
▁크로스
▁디아
버리
▁개칭
▁조지아
▁학사
▁김종
▁에서
▁상속
▁막대
▁전당
▁딜
▁오이
▁닫
▁강릉
▁대체로
▁깊이
▁몰리
▁1957
▁남아프리카
란색
구리
▁아메리칸
▁알고리
▁97
▁구입
구치
▁요금
우치
▁챔피언십
올리
▁원주민
▁연설
▁본명
▁진격
ew
독부
▁딘
달리
베르트
▁조상
▁발명
▁콘텐츠
▁타이거
▁휴대
머리
▁메이지
▁1914
▁독재
▁흔하
▁스미스
▁전송
▁필수
▁생태
▁추방
▁음성
▁늘리
▁광범
▁69
▁자국
▁수호
ㄴㅑ
▁검색
▁동북
▁테마
▁알고리즘
▁이즈
▁초점
▁세트
▁부동
▁대우
▁주소
▁포켓몬
ue
▁="
▁도마
시스코
▁사과
▁토론토
▁인디언
▁담기
▁덩
▁이마
▁사기
▁92
미니
▁천만
▁신장
▁1900
원경
▁렀다
▁느낌
▁수업
▁신도
▁급격
▁알바
▁기다리
▁코리아
▁불가리아
▁최우
▁세부
▁미리
▁업적
▁후임
▁1938
▁림
▁이내
▁클로
▁랑
▁미술관
▁빚
▁섹
▁핫
▁펑
래프트
▁석사
▁잡히
▁부위
EC
다랗
▁서술
▁주니어
▁배포
▁연락
▁똑
▁끌어
비히
▁101
▁완벽
▁해발
지사
▁바르셀
▁스프링
▁유효
▁바르셀로나
▁상인
자키
▁노트
▁전술
▁재즈
▁라이프
총리
▁HD
▁고시
▁언덕
▁화려
▁다스리
▁오키
▁01
▁게다가
▁고급
▁립
▁선형
▁안드
▁연평
다니
▁영양
▁윙
로지
▁라틴어
리그
▁1918
▁DVD
산화
▁스탈
▁암컷
▁마스터
▁늑
총독부
▁조선총독부
▁소형
▁웰
▁등장인물
▁풋
▁랩
▁션
▁각국
▁개량
▁숨기
▁시내버스
▁소비자
▁1951
▁ㄲㅔ
▁상주
▁백인
▁유산
BM
▁마르크스
▁물건
▁1932
▁일련
제국
▁실천
▁운항
▁{
▁on
▁화석
▁손실
▁언스
▁고위
▁저자
▁계곡
▁국적
▁메달
▁내놓
▁질문
▁게르
▁추기
무늬
▁사퇴
▁ㄷㅡㅅㅇㅣ
▁1937
▁집회
▁반사
▁블록
▁설치류
▁알레
▁정교회
▁미시
가시
▁미스
▁영주
▁짝
▁경비
여금
▁상수
▁번지
▁만든
▁개별
▁방언
▁대만
▁용인
▁흰색
▁주체
▁진학
▁말리
▁선포
▁마틴
▁엘리자
민주당
▁89
▁차단
▁환승
▁우크라
▁첩
ect
▁고객
▁올스타
▁1935
펙트
▁분교
필드
▁감각
▁격파
▁부친
▁광범위
▁타율
▁갑자기
▁넥
▁둥글
▁실업
▁의문
▁182
▁칭호
▁프랑스군
▁닥터
▁이스트
▁이웃
▁후계자
사전
▁트레이드
▁사찰
▁비행기
▁크라
▁ㄱㅗㄴ
▁93
바키아
▁재개
▁경제학
▁화제
▁뮌헨
▁중추
▁항공사
▁로렌
▁싱어
▁고양이
▁Be
▁찬성
▁커버
▁면역
▁베리
▁퀘
▁거짓
▁추기경
▁자본주의
ㅅㅜ
▁수치
▁구상
동생
▁당원
▁탄압
▁비스
브라
▁항의
▁발간
▁체험
▁되돌
▁겉
▁수백
▁기부
▁파티
▁질서
▁회로
▁꾸준
▁자산
▁데리
▁클리
▁최후
▁분화
▁푸르
▁허락
▁OS
▁사양
▁성남
▁촉진
▁남녀
센트
▁곡선
▁공신
▁마루
▁쿨
런스
▁양산
▁법학
▁이념
ore
▁FM
▁증언
▁반지
▁클래식
▁웃
저스
▁잠수함
▁94
▁마주
▁화폐
▁1933
▁목성
▁시모
슈타인
▁구멍
▁소화
▁아티스트
▁시트
▁티베트
▁영원
▁탕
▁개척
▁대법원
▁가속
▁극단
IN
▁덧붙이
▁물고기
▁습격
▁소문
▁아오
▁소위
▁지수
리우스
▁쿼
▁툴
다수
▁보편
▁축소
▁1928
▁수십
our
▁강남
▁내세우
도사
▁CP
▁소집
▁군부
▁유배
▁탄핵
▁태종
리나
▁동경
▁동화
▁펴
▁운송
▁원시
▁선호
▁경사
▁프랑스어
▁팩
▁영구
▁상대식
돼지
▁1924
ell
▁조항
공사
▁콜로
▁핸
▁전적
▁료
프레
▁칠레
▁누스
▁용도
▁시신
▁개명
▁어둡
▁79
▁익스
▁충분히
▁간부
▁국토
▁대로
▁메트로
▁하여금
▁주일
닉스
▁지불
▁세월
▁약화
▁혼자
▁09
▁따오
▁전망
▁무너지
▁사막
▁프로그래밍
▁정면
▁걷
▁회색
▁틈
▁조기
▁콜롬
벤트
▁뼈
▁멈
▁ㅈㅗ
▁개장
▁이행
▁김해
▁댄스
▁발레
▁110
▁대칭
▁재능
▁펀
end
들리
▁의정부
▁입대
슬링
사이
▁토대
▁그리하여
▁정통
▁종사
▁지나치
ㅊㅏ
른바
▁열매
▁직무
▁형상
▁존스
▁실내
티스
▁러브
▁04
려가
▁동굴
▁브로
▁토마스
▁토착
▁파키스탄
▁당신
▁합동
▁이른바
▁원자력
ill
▁구름
▁액체
▁쟁
▁오버
코프
▁법안
ain
▁지중
▁하와
▁플로리
▁08
▁매치
▁ㅎㅏ
▁정류
베리아
▁170
▁이재
▁총재
▁안토니
▁반하
▁해제
▁퓨
어도
▁가난
▁진실
▁틴
▁Co
▁고교
▁단순히
▁초상
▁대승
▁수컷
▁뻗
▁세로
▁스카이
▁베네치아
▁유아
▁재생
▁개찰
▁우에
▁프로토
ID
ers
▁부리
▁자르
▁판정
▁흔적
▁경북
▁자랑
▁룸
▁멀티
▁손해
ㅋㅡㅁ
▁83
▁당대
▁부속
▁안티
▁오케
▁스톤
▁다큐
과이
▁장로
▁주문
▁안쪽
페이스
테스
▁엄격
▁지표
▁힙합
▁무력
▁무용
▁사이드
데르
▁벼슬
▁부서
▁서방
▁오류
▁메탈
▁경고
▁함경
ard
▁전제
▁경찰서
▁강도
▁비잔
고속
▁늑대
▁페리
▁평면
▁국방부
▁스크린
어로
▁불러
▁할아버지
▁주재
▁배열
▁한성
▁아프가니
▁호흡
▁인민군
▁1934
조선
▁쌓이
▁MS
▁레닌
▁선로
▁닐
▁성서
▁요코하마
즈니
▁맡기
▁편의
▁혈액
▁이벤트
▁마감
▁분산
▁중동
▁일단
▁대사관
▁메르
AN
▁빵
▁거스
▁농장
▁대가
▁동지
▁포드
▁De
▁철거
▁ㄹㅣㅇ
▁대원
▁양국
▁보스턴
▁히어로
▁ㅁㅏㄴㅋㅡㅁ
▁자매
▁놀이
▁중지
▁판타
▁스케이
▁입구
유키
▁구사
▁추적
▁근육
키퍼
▁장례
세대
아르
▁광산
▁골키퍼
▁탓
▁찾아가
▁동구
▁Me
▁주자
▁노동당
▁강요
▁130
▁북미
▁동메달
야스
▁거느리
▁느리
▁대동
▁본토
▁유키
▁은메달
제르
▁토머스
▁현존
▁뱀
▁거점
▁봉기
▁투스
▁글리
▁카리
▁코어
▁떼
▁쿠바
▁남극
사르
▁정확히
▁밸
▁젤
베르크
레오
▁가볍
▁멈추
▁140
▁접속
▁나이트
▁사카
▁아프가니스탄
▁항해
공업
▁도쿠가와
워하
▁정조
▁사망자
▁레지
▁부처
ne
▁테르
하이
▁중계
드라
▁알렉산더
▁로즈
▁선물
▁필립
▁Sh
▁복사
▁김구
▁스탈린
▁철학자
▁시계
▁내려가
▁새끼
▁발전소
▁칼리지
▁돔
레아
▁매주
▁초청
▁식량
▁재판소
돌프
안군
▁야당
▁중성
위대
▁페이스
OR
보내
▁안내
▁th
▁곤충
▁맨체스터
▁농촌
▁화합물
▁건너가
▁대다수
▁특별히
성기
▁로맨
▁1931
▁구로
▁관계자
▁구리
▁모자
▁부호
▁강등
▁아비
▁위안
크래프트
▁새벽
▁재임
▁훼
▁독점
▁존슨
▁토너
▁펄
▁겸하
▁간격
▁세금
▁증권
▁타카
▁체육관
▁금강
▁생애
▁멸종
▁교향곡
▁그리스어
▁유력
▁오염
▁휘하
베리
▁르네
▁역전
▁cod
므로
▁이정
▁히로시마
▁일곱
▁클래스
▁목포
▁파울
▁풍속
▁부드
▁계수
▁기병
all
▁ㄷㅜ
게이
▁모노
▁종전
▁진동
▁명시
▁물리치
▁버지
▁코너
▁ST
▁뚜렷
▁타원
▁달라지
▁커다랗
▁석방
▁An
▁비중
▁기르
▁킬로
▁해협
AM
▁꾼
▁미카
▁아이스
▁그래프
▁그러므로
나르
▁하사
레이크
▁무늬
▁부품
ㄹㅏㄴ
▁타점
▁하버
▁관객
▁1921
▁공룡
▁지칭
▁자유주의
▁감옥
▁코트
▁176
▁기생
▁연호
▁원조
▁좌파
▁교도
▁250
▁찾아오
▁숙종
▁장점
▁수비수
널드
▁훌륭
▁대변
▁특허
ang
▁가구
▁캠프
▁도망치
▁1929
느님
밀리
▁유발
▁필라
▁조문
▁하느님
수량
▁심리학
▁지휘관
▁닮
▁비즈
▁동성애
▁아틀
▁운동가
▁스트라이
▁유대인
▁합리
▁부드럽
둥이
▁토너먼트
▁y
▁박근
▁소요
▁윤리
▁강전
▁빗
▁05
▁집필
▁후퇴
▁사관
▁단장
▁마그
▁성명
▁스테이션
▁도메
▁착용
▁트랜스
▁무겁
▁폭풍
▁갤럭
▁라트
▁일환
▁키스
▁칙
▁수반
▁캡
▁올라오
▁자이언츠
투아
▁기갑
▁연평균
▁부작
▁비틀
▁1925
▁목숨
▁인터페이스
▁대결
▁1923
시스트
ss
▁다다
▁공세
▁문재
▁입사
▁건담
슬리
▁덕분
▁도호
미아
▁연상
▁갤럭시
▁쯤
▁공국
▁동반
▁지부
▁첫째
▁과일
▁플로리다
▁고고
▁극복
▁마라
▁삼각
산물
▁추대
▁롬
▁살아
▁평론가
▁북아메리카
▁약탈
▁조화
▁첸
무게
▁몸무게
▁잠재
▁협약
▁07
▁ㅋㅜ
▁틱
▁압축
타카
▁샤를
▁가끔
마이
▁매니
▁발렌
▁AC
▁요원
▁장갑
▁북서쪽
▁연계
베이스
▁관리자
▁대한제국
ity
▁유비
▁단선
▁섬유
▁시게
▁원장
▁불화
▁남아메리카
▁캘리포니아주
▁얀
▁성직자
▁추락
▁딱
▁사당
▁의석
▁미분
▁김대중
클린
▁웨일스
대문
카스
▁유성
▁우드
▁임신
▁이수
▁램
▁며
▁영감
▁중립
▁페루
▁트레이
▁하와이
▁북극
키스
▁SC
▁ㅅㅠ
추어
페인
▁ㅇㅛ
▁진흥
▁갱
▁선교사
▁모로
▁박스
▁필름
▁종로
▁리스트
▁근로
▁향토
▁주사
▁161
▁사거리
▁살아남
▁모험
▁민속
▁고분
▁서인
▁기관차
▁다이묘
▁발휘
▁타입
▁동인
▁삭제
▁수직
▁도마뱀
▁codice
▁똑같
▁꼽히
▁영광
▁그랜드
▁일자
▁카자
▁빅토리아
▁영혼
▁프로세서
▁준우
ff
▁모음
▁망원경
▁삼각형
▁EP
▁복구
즈키
행성
▁청동
▁레벨
▁1922
▁문인
▁파운드
▁유가
▁진술
▁명사
▁칼리
▁175
▁곰
▁윤치
▁화가
▁de
▁수장
▁홀로
ㅅㅣ
▁성씨
▁버지니아
▁제약
▁돌파
▁변신
일본
▁중구
▁레이블
▁루트비히
▁엽
▁결심
▁청하
▁무릎
▁중시
오리
▁압도
▁틸
애나
▁주류
▁평생
▁규슈
▁이조
▁박근혜
▁인천광역시
▁투구
▁피트
▁엘리자베스
▁교과
▁바오
▁My
▁서적
▁공격수
▁모래
▁1912
▁유역
▁채권
▁교차로
▁지역구
▁가톨릭교회
▁아과
▁프레임
▁고안
▁부유
▁표지
▁황태
▁자치구
프란
▁직선
▁때로
▁둔
▁설비
▁여인
▁트럼
▁리치
▁최상
▁지연
▁부수
▁없애
▁토벌
▁글씨
▁부탁
양군
▁유용
눅스
▁왕가
▁164
▁각자
▁문법
메니아
▁이날
▁직위
▁철저
▁수상자
▁구미
▁사토
▁포유
▁네이션
▁동일본
▁왈
▁Go
▁아기
▁벨라
▁리눅스
▁Love
▁음모
▁국민당
니즘
▁무산
▁블라디
ong
▁KT
▁소설가
▁파트너
▁1908
부사
▁목조
멘트
타운
▁""
라이터
▁크레
▁퍼시
야수
▁보통학교
▁아르메니아
▁봉사
▁영조
▁모니
▁무인
▁1906
up
▁랭킹
보살
▁06
▁건축물
▁경유
▁인력
▁납치
▁자책
▁토르
▁베타
▁장사
ㅈㅓ
▁마카
▁사촌
▁지중해
▁간섭
▁도어
▁남동쪽
▁아마추어
▁릭
▁노비
▁어워드
▁히가시
▁패턴
멘터리
▁스케이팅
▁MV
▁연령
▁다양체
▁돼지
▁태자
▁연소
▁침해
▁플레
ip
▁노무
▁크림
▁1917
▁정자
▁이종
▁준우승
▁모듈
▁전향
ㄹㅅㅜ
도니아
IS
ld
사관
슬로
아리
▁삽입
▁1927
▁JR
▁교역
▁상처
▁제주도
▁이토
▁호조
▁03
▁SM
▁커피
▁통로
▁적응
태우
▁앨런
▁과도
▁안양
▁북동쪽
마치
▁매각
▁명문
▁탐험
▁호르
다드
▁우익
▁굿
ant
▁조명
▁1907
▁우크라이나
▁적어도
▁BBC
▁석조
▁럭
▁시아
▁창간
▁시상식
영상
▁대행
▁라우
▁배급
▁베토
▁전승
▁에스파
OM
▁배상
▁인자
▁수지
▁스와
▁보좌
▁1926
▁과장
▁외계
▁육성
▁다큐멘터리
▁흙
▁몬테
▁전작
▁산악
▁밀라노
▁앱
▁유인
▁옵
스팅
▁항목
▁싫
▁정서
▁산타
ED
▁대교
▁리아
▁옹호
▁협의회
▁쇠퇴
▁노인
▁시집
▁송라이터
▁출현
▁문하
▁의병
▁폐기
av
▁표본
▁슐
생물
▁체인
▁왕립
▁자전거
이즈
▁SN
▁색상
▁포크
몬드
▁168
▁상하이
▁별로
▁지름
▁탑승
▁동아시아
▁자문
스토
▁He
▁세조
▁묘지
▁디즈니
▁종족
페이지
▁단행
▁해설
▁비전
▁무선
다이라
▁부동산
▁연고지
런트
▁커지
▁수감
▁험
슬라
▁PD
▁상영
▁스틸
▁패러
로프
티움
ind
▁관중
▁머물
▁렉
▁동사
▁사신
▁유입
se
▁1905
▁||
▁기종
▁호남
▁꺼
▁콩고
▁내장
▁시에
텐도
▁닌텐도
▁NHK
▁레이다
▁노조
▁산지
▁합계
▁166
▁하천
▁오리지
ame
▁162
튜브
▁꾸미
▁사료
AC
▁아가
▁제후
▁문화유산
▁룩
▁독일어
세스
▁최우수
▁기름
▁정사
▁기하학
▁홈페이지
▁버그
▁151
▁민족주의
▁시외
▁좌익
▁물려
▁에릭
▁유튜브
▁데이터베이스
▁엄마
▁유신
▁진지
총장
▁Sp
▁베토벤
▁역과
▁묻히
▁참조
▁꾸준히
브스
▁가쓰
▁선제
▁다가
▁비평가
▁놀라
무네
▁연금
▁예외
ry
나카
▁사이클
▁정류장
▁158
▁카페
▁헤드
▁아무런
▁조선인
ES
▁수명
▁아울
▁비단
▁주말
▁지바
▁트럭
▁급속
▁드래곤
▁스승
▁품질
▁크리스토
▁색깔
▁증기
플레이
려나
ith
▁원로
▁엉
어트
▁대조
▁모집
지마
▁아크
▁우르
▁칩
▁원산
▁겨우
▁광역
▁상소
▁커뮤니티
스케
▁요미
▁자바
ort
▁02
▁문과
엘라
▁목격
▁안보
▁스페셜
▁도리
▁주거
▁남서쪽
▁수천
▁리얼
▁주파
▁마일
▁선진
▁야생
▁할리
▁향년
▁유고슬
▁유고슬라비아
▁리듬
▁셋째
▁라이온
▁반환
▁바라보
▁옛날
▁라이벌
▁바이올
▁특급
스티벌
▁레이스
ok
▁라마
▁점성
▁나폴리
▁뚫
▁가미
▁입문
▁플루
▁곧바로
▁수수
▁흥미
▁동치
▁주의자
▁베이스볼
▁실점
▁대안
▁사리
▁조르
▁페스티벌
▁인텔
프란시스코
▁기점
▁유닛
▁구마
▁샌프란시스코
▁무관
▁도심
▁기념물
▁단층
▁신비
▁악장
▁재무
▁토니
▁소니
▁쿠르
▁스피드
▁방안
잡히
▁와카
▁운반
▁협의
▁빨리
▁주한
▁디자이너
▁서북
▁운명
▁동영상
▁콜롬비아
해군
▁마스
▁묘소
프스
▁기압
▁사직
▁미네
▁오리지널
▁안드로이드
▁렌즈
▁적색
▁1904
▁이리
▁부시
▁석탑
▁브라이언
▁기용
▁프랜
▁출판사
▁미만
▁되찾
▁십자군
▁마케도니아
▁이오
▁일행
▁입증
▁오디션
▁출산
▁연주자
▁케이블
▁모터
▁직장
▁지휘자
▁알라
▁복제
▁진도
▁마쓰다이라
▁Un
▁관장
▁한나라
▁인치
회의
▁한나라당
▁개수
쳐지
▁왕족
▁상무
▁정교
▁평소
▁저지르
▁교전
▁배제
▁신임
리케이션
▁챌
▁서경
▁급행
▁파생
▁날리
▁판타지
▁동전
▁의거
▁템
▁부패
▁분배
▁154
▁165
▁센트럴
ord
▁무신
▁계단
▁자사
▁비즈니스
루살
프라
▁긴급
▁내륙
▁초래
▁예술가
ob
▁기재
▁받침
▁용기
▁수면
▁예언
▁오타
루살렘
▁Se
▁합작
▁스테이지
▁Wh
▁파나
qu
▁사로
▁폭스
▁좌석
▁콘스탄티노
▁트레
▁163
▁아서
문학
▁가게
▁권고
▁당사자
▁사르
▁156
▁도메인
모니
▁단종
▁스펙트
▁여동생
우옌
▁SF
▁사범
▁신하
디스
▁용산
▁입히
▁링크
▁리투아
▁리투아니아
ate
▁신용
가스
▁무슬
▁연애
▁항일
▁167
▁겹치
▁그랑
▁스쿨
▁스펙트럼
▁모순
▁사면
▁타마
▁호환
▁DJ
PS
▁예루살렘
▁크리스티
▁여신
▁무슬림
▁900
▁충남
▁회원국
▁상임
▁어항
▁진상
교육
카르
▁혜성
경기
▁정계
▁챌린
▁스마트폰
▁아인
▁분지
▁자회사
껍질
▁끼리
▁조류
▁한양
▁압박
▁착륙
▁미얀
페이
▁AM
▁가득
▁발효
▁선사
▁샹
려오
▁니스
▁무라
▁장편
IC
길이
▁번식
▁밀접
▁주립
▁바이올린
▁게시
▁일요일
지르
▁바그
▁이지
▁지장
▁조국
▁지주
▁피렌
▁시달리
▁비로
커스
▁WW
▁애국
▁훼손
▁서울시
식물
▁고립
▁얼음
▁전염
▁친정
▁깔
킨스
▁교섭
▁포맷
▁UN
▁오다
▁서브
▁비잔티움
▁피스
▁139
▁팅
▁농도
▁예능
럼비아
▁우지
▁오케스트라
랑이
▁AS
▁요크
▁씌
▁대단
▁옌
▁낱
▁유하
▁하트
▁진나라
잡이
▁대령
▁식사
▁최신
▁ㅇㅓㅆㅇㅓㅆ
▁우루
예프
▁쇼군
▁브라우
▁아베
▁하드웨어
ET
▁끄
▁성종
▁아이디
▁구장
▁145
▁개발자
▁킬로미터
부인
ast
▁용량
▁차관
▁행정부
▁노무현
▁번주
▁주머니
▁월간
▁융합
▁알바니아
▁지질
▁시체
▁과제
▁기아
▁발족
▁참판
▁쿠스
DP
▁뜨겁
▁미나미
▁스트리트
▁마리오
▁몸길이
▁강연
▁전이
▁디비전
▁기타리스트
▁바티
▁선두
▁이명박
▁파동
▁응우옌
▁관광객
▁임상
▁부통령
▁페어
▁공과
▁피렌체
수아
▁소나
▁와중
▁학파
▁중국어
▁부자
▁투명
▁부흥
로디
▁성공회
▁사사
▁아세
▁해인
데이트
레이터
▁1896
if
▁보전
▁야기
▁전지
▁전임
▁MVP
▁부도
▁위주
▁정벌
▁관찰사
▁업데이트
랑크
▁DS
▁잊
ack
▁아이디어
▁규명
▁배정
▁사바
▁피에르
▁김동
▁착수
▁거스르
ive
▁전류
▁넬
▁스콧
▁충성
▁간접
▁공용
ure
▁마케팅
▁마산
▁IP
▁공전
▁귀환
▁하노
▁저기
트니
▁HIV
▁고조
▁측근
▁디오
▁보드
▁제네
▁중도
▁중독
▁여덟
▁수학자
▁애플리케이션
IT
▁친선
▁맥스
▁게이트
란트
▁로빈
▁스타크래프트
▁굉
▁권유
▁점유
▁히라
▁둘러싸이
▁거인
▁완화
▁샬
▁짙
▁젖
균관
▁연수
▁성벽
▁이에
어내
▁턴
▁마운
▁우즈
iv
▁차체
▁출구
▁형법
▁152
▁174
ock
▁경선
▁수산
▁오렌
▁서일본
▁시드니
▁테일러
▁5000
▁관습
▁소송법
악기
▁메디
▁미하
▁트윈
▁요미우리
운서
▁노동조합
▁서열
▁쇼핑
▁제의
토미
트롤
주곡
▁아나운서
▁피난
▁157
루미
▁플라스
▁옐
리티
▁련
▁밀양
▁정찰
▁지각
▁살아가
▁규격
▁세례
▁조용
ck
▁금성
▁사인
▁석탄
▁꼴
▁사명
▁장성
▁으
결승
▁구동
▁번뇌
▁존경
▁변동
▁좌표
ㄹㄲㅏ
▁검증
▁실용
▁전장
▁Ar
▁루수
▁한화
▁하버드
▁전문학교
▁한강
▁프로세스
▁준공
▁행진
▁수신
▁곁
▁신칸
▁뱅크
ㅓㄴ
▁백신
▁복소
▁뷔
▁전진
▁킨
▁책봉
▁카나
가루
▁염색
▁테오
문관
원숭이
▁청와
사기
츠키
▁고개
▁가즈
▁관현
▁빌헬
▁장인
▁신전
▁취약
폴리스
▁다이아
▁급진
▁미스터
▁j
▁여의
포스
▁구제
▁메가
▁이슈
▁청와대
▁인과
▁기울이
전자
▁힘쓰
▁자손
▁성균관
▁얼마나
산군
외선
카드
▁할당
니스트
▁디젤
▁국어
▁카시
▁퇴각
자와
▁소총
▁자율
▁MP
▁호평
끄럽
악단
▁연구자
▁뿔
▁식당
▁연루
▁통행
하르트
▁제휴
▁회수
▁상상
▁이순
▁105
▁박영
▁해전
▁146
트랙
▁소금
▁파스
▁쥬
▁해임
▁판매량
▁몰락
▁무효
▁적대
▁남인
▁125
▁승차
▁여수
▁1911
12
수수
▁따위
▁상류
▁남양
▁1500
혁명
▁이노
▁착공
▁히스
▁전두
▁아울러
ime
▁루터
▁신칸센
▁강사
▁김용
▁창업
▁서독
▁적히
▁외무
▁윌슨
▁흥행
▁응답
▁자책점
▁천문학
▁이복
▁패전
고속도로
▁쏟
▁나열
▁여래
▁달아나
▁프로토콜
▁관념
▁술탄
▁유출
▁3000
▁민국
▁소관
▁에티
▁두르
▁비극
▁소닉
▁153
▁쳐
메르
▁나미
▁석가
▁동남아시아
▁마찰
▁흩
▁지분
▁원나라
▁쇄
▁하마
▁휩
▁PS
▁디비
▁순천
▁두드
▁들리
▁매출
▁청사
▁소재지
▁시외버스
▁고원
▁문제점
▁얇
▁노드
▁사지
▁갈라지
▁끈
▁항공모
one
라트
▁과목
▁악마
▁우정
일드
제프
▁Le
▁믿음
▁카트
▁저기압
▁로고
▁마천
▁이이
▁저택
▁강수량
▁마오
서양
▁단원
▁성전
▁증후
▁충족
팩트
▁동위
▁희극
▁곳곳
▁일렉
▁매개
▁배구
▁ISO
▁예배
▁서서
▁유언
대군
▁조언
네이
▁아니하
▁아즈
▁지목
▁Pro
▁보잉
▁이글
▁미얀마
▁카자흐
▁중점
▁고베
▁폴리스
▁환원
▁103
▁매사
▁소지
▁내내
토시
▁공자
▁빌헬름
▁우주선
델피아
▁필라델피아
▁시립
▁연인
▁오클
▁떠오르
ML
▁개업
▁문재인
▁찾아보
▁중장
▁회계
▁MC
▁환상
▁비아
▁지지자
기니
▁선원
▁편곡
▁취재
▁클린
AP
▁주권
▁회견
▁출입구
▁고무
▁포장
▁힌두
즈카
▁겸임
▁기장
▁제트
노리
노프
▁성모
▁해역
▁각본가
▁매기
▁특유
▁굵
▁법령
펴보
▁천사
▁살펴보
▁155
▁참가자
▁나리
▁독립운동가
▁근접
▁눈물
▁비틀즈
▁삿
▁셈
OC
▁최적
시온
▁후자
▁공인
▁버튼
▁친척
▁오렌지
어리
▁사가
▁정치가
▁앞면
▁협동
▁주파수
마사
▁유해
▁카타
▁허브
▁각기
▁중종
▁터지
te
▁공략
▁보충
▁토리
▁증후군
▁밭
▁별개
▁일관
▁진리
▁추모
▁닭
받침
▁반격
▁점프
▁토크
▁별자리
▁이원
동물
리크
▁포수
▁북동부
▁게재
▁와인
▁회화
▁Bo
▁법무
▁항공모함
▁유격
▁108
▁리메
▁우편
▁인형
▁오키나
▁위장
▁성주
▁상자
▁나고
▁이바
산면
▁생일
▁Con
▁토요일
▁태우
▁평행
▁미소
▁빼앗기
▁두드러지
▁오디오
소스
▁트라이
▁격렬
▁동등
▁두산
▁사물
▁아바
▁사우디아
▁담배
▁민영
▁베르크
▁이어서
▁가라
▁개찰구
▁민사
▁실종
▁이인
▁테스
▁룰
▁영동
▁지우
▁하우
▁합법
산리
▁패스
플러
▁레전
▁서해
▁나고야
▁승무원
▁컨트롤
io
▁감지
▁유교
▁입상
ber
▁고체
▁상부
▁매력
▁외곽
▁인격
▁일찍이
때로
▁금액
▁미루
▁아군
▁야간
▁스파이
▁아리스
▁퍼시픽
▁준결승
▁교장
▁이영
베이터
▁드라이브
▁박탈
▁세균
▁건의
▁대답
▁브래
▁아케
▁에우
▁하인리히
▁IT
▁상장
▁자발
▁해운
▁이사장
▁앙리
▁화살
▁외국어
▁1909
가타
퍼니
▁전례
▁양상
▁일족
▁호세
▁생명체
▁에이스
상스
항공
▁스터
▁크리스마스
▁교단
▁채무
▁때때로
▁상대방
▁갓
▁내지
▁에디
▁트럼프
러미
▁서서히
▁시청자
▁128
화점
▁섞이
▁싸이
▁향교
▁149
▁사다
▁이슬람교
▁톈
▁보스니아
람회
▁캠페인
▁맵
▁102
▁꾀
모어
▁시라
▁연도
▁복장
▁부착
▁추격
▁콜라
▁대주교
▁명의
▁궁정
▁기금
▁히데요시
▁홍수
▁사용자
▁#
▁안장
▁건축가
▁고가
▁전도
라이트
▁메타
▁수성
▁트루
칠리아
▁제작자
age
▁호칭
▁그만두
▁얘
▁발원
▁후안
▁텍스트
▁사우디아라비아
구장
▁어드
트릭
▁아우구
▁차남
집합
▁배틀
▁최저
▁치세
▁트위
▁펼쳐지
백과
▁짜리
먼드
▁고발
▁남한
▁주지사
ge
▁집계
Pa
▁계절
▁발현
▁가르침
▁아미타
▁대외
▁여주
▁운동장
iz
▁셸
▁긴장
▁대군
▁물자
▁직책
▁자유당
▁슬라
▁전대
▁키프
▁무려
▁$
▁네이버
▁중국인
▁대니
▁원자로
라미
▁정밀
▁포도주
▁에스파냐
▁Bl
▁사이버
▁르네상스
▁쉐
▁다중
▁세미
▁시오
▁흘러
나리
▁섭취
▁레이저
창기
▁포괄
AD
▁룽
▁충주
▁조리
언스
▁향후
▁팔레스
▁고래
▁태생
▁김영삼
▁중재
▁CPU
▁청장
▁골프
▁여진
▁송나라
▁레전드
▁로프
▁보리
▁조반
▁존중
▁탐지
▁블루스
차례
▁단기
▁127
▁노란색
▁넓히
▁리오
▁왜성
▁강경
▁만세
▁문양
▁뽑히
▁147
▁수평
▁스릴
▁경부
▁그랑프리
▁댐
▁엘리베이터
▁토마
▁프랭크
▁팽창
▁손가락
▁최소한
▁기수
▁토스
▁피고
▁아미노
▁하이드
sp
▁며칠
▁수군
수엘라
▁1915
▁상세
생활
▁고사
▁볼리
▁턱
▁단점
노부
서리
▁메인
▁알코
▁역명
▁제곱
▁황해
▁로맨스
▁케네
▁난민
▁추증
orld
▁1913
울리
▁캄보
▁유소년
▁명목
▁사절
▁속성
행위
▁갑작
▁부천
▁딩
▁동독
▁분광
▁초연
▁겔
▁테니스
▁위키백과
▁동당
▁171
▁북구
ik
라리
▁굉장
▁라파
▁마비
▁숭배
▁전두환
▁오키나와
▁윌리엄스
▁방침
▁북방
▁입체
▁주축
▁후일
▁베네수엘라
창군
우라
▁동래
▁문학상
▁둘레
▁무죄
▁창건
▁유니폼
기지
▁전함
▁캐스팅
시티
▁광년
▁침몰
▁천문학자
▁강과
▁마하
▁심의
▁추상
▁타르
▁동년
▁협조
▁시그
▁출토
▁취지
▁태수
자치도
▁투르크
▁제주특별
▁제주특별자치도
▁센서
명사전
▁낙선
▁따뜻
▁부과
▁신흥
▁팜
▁개미
▁촉구
▁진군
▁창시
▁초창기
포구
▁상당수
▁김수
▁김재
▁컬러
▁이어받
▁낮추
▁대역
▁음원
▁대포
▁GT
▁서사
▁수렴
▁원고
두르
▁언제나
▁닿
▁옥스
▁원반
▁카탈
▁1895
▁스파르타
▁이민자
▁al
▁수령
▁코프
▁ㄱㅓㄴ
평군
▁객관
▁SP
▁병역
크리트
▁디스플레이
▁팔레스타인
▁통칭
▁남원
▁총선거
여지
▁CE
▁탈환
▁141
▁광부
▁리메이크
박쥐
▁어업
▁169
▁모스
▁바흐
▁재미
▁딴
▁프레스
▁나가사키
▁법제
▁아폴
네스코
MS
▁아사히
▁나주
▁링컨
▁머신
▁이틀
▁다운로드
▁울리
▁135
▁Tr
▁무제
▁비문
▁인재
▁총괄
▁언론인
공신
▁온천
▁유수
▁주차
▁수동
▁ㄹㅐ
▁북서부
무기
▁국사
▁내주
▁적자
▁하부
▁탤
포트
▁기습
▁풋볼
보기
▁동력
▁도호쿠
▁문화방송
석기
자스
▁김진
그라드
▁대처
▁수용소
▁자기장
벌레
ust
▁양주
▁계몽
▁소실
▁흩어지
▁엔지
▁이진
▁쓰러지
▁개관
▁서머
▁섭정
▁유연
▁종결
▁찾아내
▁144
▁귀중
▁어스
▁초상화
▁해병대
ep
▁때리
▁한동안
와라
▁더글
▁시공
▁후세
▁111
▁스핀
▁청원
▁걱
▁김포
▁영리
▁차기
▁대제
▁바실
▁신세
▁나르
▁효력
▁후대
▁신중
▁폐위
int
▁식별
▁풍경
선거
▁서울대
▁첨가
▁아레나
▁저명
▁평야
▁함유
▁컴퍼니
▁고백
▁장미
▁몰아내
▁번영
▁중순
▁스티브
▁ㄷㅡㄴㅈㅣ
▁정전
▁컬럼비아
▁공채
▁119
▁스릴러
▁연세대
▁정말
▁TH
▁조달
▁기요
▁인산
▁천도
▁면하
▁오빠
▁이광
▁휴식
▁캄보디아
▁큰
▁김태
▁끊임
▁제수
▁신학교
▁십자가
▁CO
▁반박
▁언더
GC
▁도스
▁두루
▁파업
트리올
▁리버풀
▁몬트리올
누엘
▁날짜
▁내외
▁별칭
▁아종
▁대위
▁요르
키지
▁It
▁정무
▁총사
▁룡
시로
▁친일인
▁케네디
▁친일인명사전
▁172
▁hPa
▁유네스코
EN
▁드럼
▁편리
ib
▁불편
▁삼진
▁중소
▁껍질
▁병조
▁평일
▁유니버
푸스
▁간호
▁매카
▁선구
▁이글스
▁묘역
▁애덤
▁충실
▁테레
▁106
▁무상
▁다니엘
▁니콜라
ome
▁관통
▁미주
▁바퀴
▁아벨
▁원내
▁아틀레
▁페르난
▁북위
▁신기
▁카리브
릴라
▁선종
▁소환
▁전성기
▁관람
▁교원
▁장안
▁신학자
ude
▁해수
▁사회학
▁우연히
▁덤
따르
▁공모
▁중량
▁꽤
그로
▁제갈
▁걱정
▁교양
▁WWE
스럽
▁위임
▁휴전
▁프랑수아
▁스페이스
▁당일
▁루시
▁명백
▁미즈
▁엔지니어
▁에스토
▁등재
▁콰
니치
▁슈트
▁총대
▁평하
ian
▁베드
▁아이슬
▁낱말
▁의상
케이션
▁승점
▁지폐
▁리어
▁초과
▁콘크리트
▁서남
세츠
▁김상
▁마츠
▁한성부
▁We
▁정렬
▁증진
내셔널
▁인터내셔널
▁마인
▁연패
▁지혜
▁충북
▁쇼트
▁표명
▁매사추
말라
ere
▁전압
▁대웅
▁방패
▁매사추세츠
선스
페르
▁소통
▁아이템
▁우라늄
▁공직
▁미토
▁생전
블로
▁평범
▁해변
▁아이슬란드
▁중추원
▁케이스
▁발트
▁세계관
▁책임자
ire
▁고수
▁장려
▁외교관
▁보완
▁우울
▁좌절
▁잦
▁단식
▁돌연
▁모방
▁상서
▁암석
▁도주
▁투르
▁황태자
▁멋
▁고민
▁나스
▁알아
주의자
유행
치오
▁공단
▁열대
루션
▁공의회
▁도라
▁일화
▁탱크
▁퍼센트
라이더
▁훔
▁치열
ment
▁스페인어
▁영남
▁에스토니아
▁그루
▁불명
▁일조
▁입지
실록
ace
▁역설
pe
▁구이
▁바리
▁양도
▁영장
▁호프
▁요하
▁호위
▁다치
▁도루
▁진짜
▁레바
▁라이선스
▁부채
▁실전
▁평택
▁시흥
▁신속
▁교외
▁배신
▁통근
야시
▁합창
▁닝
ide
▁김기
▁로열
▁오사
▁쿤
▁기어
▁조이
▁물리학자
▁대전광역시
▁고령
▁오비
석탑
▁친왕
▁포격
▁소유자
▁시나리오
▁푼
마드
▁업계
▁중심부
▁괴롭
▁장난
층석탑
▁리비아
리케인
바이잔
▁내려지
▁148
▁도르
▁서정
▁애틀
▁HT
▁마약
▁봉쇄
▁창고
▁치즈
▁허리케인
▁횟
▁친하
▁에버
▁136
▁할리우드
▁육지
오피아
▁에티오피아
▁견디
▁닛폰
▁인연
▁현금
▁아제르
▁사슬
▁상담
▁오노
▁1916
▁슬로바키아
▁끓
제리
▁기인
▁부재
▁시선
▁신생
▁오세
▁지능
▁전라도
▁협주곡
▁카이사르
▁밟
▁마이너
▁네이션스
▁덮이
지리아
▁나이지리아
▁아제르바이잔
위원
▁서재
▁성운
▁파장
▁그로
▁즈음
▁가로지르
▁스튜어트
▁격투
▁여지
▁IBM
▁파이어
IM
▁TO
중국
▁순회
▁다항
▁탈당
▁극동
▁동이
▁명제
▁조연
▁NBA
▁실시간
▁갈리
▁아드
▁산림
▁의뢰
▁입당
▁작센
▁이사회
아이
▁위탁
▁항소
▁추출
▁동상
▁병행
▁어쩌
람쥐
▁해소
바다
▁바닷
▁바스
▁특집
▁노부나가
의자
▁구릉
▁막내
▁배터리
▁기단
▁추세
▁솜
▁호기
▁흘리
▁원숭이
▁앓
시피
▁약칭
▁라이언
▁브라우저
▁DC
▁낭만
▁부적
▁시초
▁안성
▁의약
▁하락
▁결혼식
▁쌍둥이
▁패키지
▁지류
cl
▁데이비스
▁닷
▁니아
▁한스
▁138
▁리틀
▁중위
▁평원
▁허리
▁급격히
▁국무총리
▁실장
▁알아내
▁ㄷㅚ
▁구도
▁전념
▁워드
▁페르디
▁구호
▁해밀
타로
▁격퇴
▁사헌
하면
▁반감
▁유동
▁리우스
▁아마도
▁가동
▁차종
▁분당
▁시즈
▁솟
▁la
▁거제
▁되게
▁면허
▁얘기
▁후쿠시마
▁지선
▁객체
▁백색
▁우루과이
▁경연
▁섬기
▁이세
▁백화점
▁딕
파르
▁개그
▁거론
▁고성
▁포터
나오
승지
▁저하
▁현종
▁구조물
▁첼시
여래
▁라이브러리
▁바이오
▁결선
▁수습
타나
▁라트비아
▁시칠리아
▁뭉
▁박해
▁복선
▁상공
▁안기
▁토성
래스카
▁360
▁영의정
▁중성자
▁최상위
▁레논
▁주행
▁회고
곡리
▁세션
▁신규
▁치명
▁도미
▁익히
▁104
마쓰
▁아부
▁우세
▁재위
▁탐구
대신
▁가면
▁냉각
▁돌려
▁춘천
▁사헌부
▁En
▁고소
▁오바
▁오피스
거지
▁그램
▁어울리
▁릉
▁감리
▁깨달
▁신탁
토모
▁거행
▁임용
▁트래
▁랄
ark
▁극히
▁피에
▁어휘
▁비시
▁한쪽
▁혈통
▁모니터
▁애틀랜
▁LP
▁도장
▁송시
▁춘추
▁109
리에
양함
하시
▁목판
▁장학
▁반도체
▁테이블
브레
▁주가
▁개원
▁성체
▁신한
▁게르만
회장
▁생식
▁제독
▁차장
▁택시
▁펌
은색
▁나비
▁성숙
ㅇㅗ
▁고인
▁돌보
▁코무네
▁Pr
▁스톡
▁주름
▁횟수
▁123
데시
▁잔류
▁행적
베르토
▁스트레스
▁이케
▁해적
▁대학생
▁혀
고쿠
▁칼라
▁ㅅㅗ
▁공수
▁외치
▁최악
▁환영
▁교황청
리니
▁데모
▁민회
▁비리
▁소매
▁후방
어버리
▁방송사
▁뢰
▁명령어
▁가짜
▁바나
▁반경
▁재현
▁그날
▁정점
▁대표작
▁옴
▁축하
▁펜실
▁휴스턴
베이니아
▁펜실베이니아
더슨
헤이
▁아홉
▁별다르
▁하워드
▁AK
▁루프
▁종로구
▁올바르
▁햇
포드
▁연하
▁우위
▁통증
▁폭동
푸르트
▁143
▁매입
▁분기점
▁타이거즈
▁너비
▁ㄹㅏㄹ
▁카자흐스탄
▁광물
▁인플
▁적당
▁공산주의자
▁AR
▁억압
▁헐
타고
▁부당
▁연합회
▁NC
▁수련
▁경관
▁성취
▁시바
▁아담
▁터치
란히
바시
▁견제
▁노바
▁사모
▁순교
▁신조
랜트
법인
▁다발
▁상점
▁분비
▁청춘
▁고장
▁베스
▁산란
▁이화
▁주역
AL
▁CS
▁동점
▁왜냐
▁히메
▁부르크
은이
▁리우
▁마야
글리
▁이식
▁출처
▁힘입
▁col
▁호랑이
▁상단
▁신주
▁열정
▁축적
▁컴파
▁한인
산동
차기
▁박람회
▁염기
▁야구장
▁팡
▁동아일보
▁비자
▁팔라
ile
▁벌금
▁여당
▁돋
▁롤링
▁성사
▁육체
▁토모
▁통영
▁남동부
▁CC
▁관구
▁유한
▁피츠
▁현저
▁블라디미르
▁플라이
▁누이
▁자민
▁제하
▁처녀
러스트
▁근교
▁에미
▁존속
▁펑크
▁목재
▁응원
▁알코올
브리지
▁유로파
▁음료
▁태양계
▁래퍼
스틴
▁설탕
▁블로그
▁룬
▁적분
ies
▁상용
▁암시
▁제프
▁경상도
▁차이점
▁Op
▁소나타
▁왓
▁기적
▁부설
▁티스
▁김경
▁법조
▁상반
▁오해
▁친일파
▁갈라
▁비싸
면체
▁나트
▁시골
▁CON
▁다이아몬드
▁주주
xt
비나
▁생산량
▁조선일보
라클
▁보석
▁사육
▁다녀
▁휠
살이
▁가죽
▁운하
▁충전
▁폭행
▁라오스
▁이에야스
▁말라
▁광학
▁신념
▁이윤
▁중의원
기업
▁국소
▁아예
▁이타
▁카롤
▁황실
▁경찰청
▁히사
▁RNA
▁지르
▁킥
▁계시
▁해명
▁107
▁112
▁베어스
▁어원
▁유죄
▁그동안
▁키프로스
▁만남
▁브라더스
도리
▁공관
▁단단
▁합하
▁가군
▁거칠
▁공익
▁규범
▁누나
▁빨간
▁내보내
▁사업자
▁아랍어
▁is
▁우유
▁구축함
▁루이지
▁삼층석탑
▁놀랍
▁동국
▁미르
▁후사
▁흠
▁옆면
▁시베리아
▁다투
▁레일
▁이산화
▁장거리
▁창원시
▁성단
▁상사
▁126
▁우승자
▁트윈스
ite
▁공습
▁신민
▁언니
▁사우루스
랑카
▁부제
▁이순신
▁탐사선
▁Te
▁당주
▁비유
▁시어
▁117
▁대웅전
▁무지
▁증대
▁줄무늬
ft
▁거북
도바
▁맥주
▁소셜
지붕
▁트위터
고래
▁수법
▁조종사
▁도마뱀붙이
▁품종
▁플러스
▁맥락
▁신선
▁송시열
▁동문
▁갇
▁연쇄
스부르크
권자
레기
▁헤비
▁카를로스
갈색
▁범인
▁핸드
▁평의회
수리
▁드로
▁여파
▁조세
▁천장
▁SE
▁교정
▁퐁
▁네스
▁발해
나스
▁이경
▁지평
▁확신
▁할머니
▁구출
▁교과서
▁왜냐하면
▁포럼
▁아카데미상
▁깨닫
▁입원
▁인체
▁제재
▁풀리
▁고속도
▁희생자
▁왜곡
▁경보
▁허위
▁실체
▁인문
▁협박
▁화장실
▁빈곤
▁진급
▁피우
▁com
조부
▁근원
▁굉장히
▁법무부
▁양키스
ath
▁곡인
▁121
▁137
▁빨간색
▁삼성전자
▁뉘
의장
▁날씨
▁350
▁가마쿠라
▁신약
▁펠리
▁173
▁전자기
OL
▁갇히
▁다지
▁대폭
▁비르
▁세라
▁소원
▁임하
▁탐색
▁통틀
ound
▁필리프
▁킴
▁몰래
▁이브
▁요동
▁제니
▁진하
▁CF
▁제대
▁필터
▁후궁
▁일반인
▁주이
▁꾀하
▁샘플
ond
게이머
▁프로게이머
다지
시타
▁1894
무스
▁ㄴㅗ
▁왕복
▁바오로
마루
▁가축
▁워터
▁연합국
연합
ory
▁방화
끼리
▁113
▁라이너
▁헥
▁마디
▁문예
▁우호
베니아
▁개교
▁물려받
▁가장자리
수소
▁믹스
▁일방
▁태권
▁포병
▁크리스토퍼
▁땃
승부
▁줄리
▁대의원
▁테이프
▁클라우드
▁수용체
대기
▁레온
▁아야
▁지미
▁진공
▁핵무기
ov
▁거울
▁근로자
▁슬로베니아
▁냄
▁맘
▁다크
▁미션
▁해고
▁브로드
▁총독부
▁엿
▁둥지
▁불타
▁성별
▁투옥
man
▁수색
▁양측
번스
▁뒷면
▁문구
▁보증
▁코스타
▁궁극
▁승계
▁낫
단체
▁결함
▁공민
▁드레
▁알제리
그레이드
▁계정
▁일가
▁택하
로이
▁바우
▁적도
▁캐시
그리
▁농림
▁업그레이드
아키
▁무어
▁용병
▁유년
▁자아
▁바티칸
▁z
▁로이
▁하동
▁124
규모
▁강서
▁대피
▁서민
▁철회
iver
▁붐
▁".
▁On
▁몬스터
톨레
▁뒤집
▁제인
▁치안
아프리카
퍼런스
▁게스트
▁관음
▁군정
▁놓치
▁만일
▁게이지
▁be
▁독일인
▁탤런트
▁극심
▁신시
▁최강
▁판본
▁도미니
▁자연수
▁LC
▁횡단
ㄷㅡㄴ
▁시뮬
▁칭찬
▁화해
▁가져가
셰비
▁IM
▁먼지
▁비추
▁상표
▁명하
▁성도
▁서진
대원군
▁륙
박스
▁공방
▁세속
▁즉각
로니
▁공백
▁김현
▁서초
▁World
▁카카
▁국내외
mer
▁체크
▁초록
▁멜로디
▁혈관
▁고고학
▁야마토
▁쑤
▁공천
▁모친
▁피오
▁김정일
▁남서부
▁최대한
린스
▁가루
▁성문
▁CR
▁SU
▁개종
▁디렉
▁베네딕
▁구절
▁로우
▁스캔
▁영산
▁커뮤니케이션
블리
▁양호
▁풍자
크라
ich
▁감자
▁내정
▁학계
▁New
▁브리지
▁윤치호
▁1890
줄기
▁그냥
▁넘치
▁두껍
▁러시
▁타당
드르
▁그대
▁닫히
▁데르
▁야쿠
▁일생
▁항쟁
▁오리콘
▁프랑크푸르트
축구
▁땃쥐
▁아랫
▁우파
▁곤란
▁욕구
▁유저
▁제치
▁조부
프레스
▁114
▁기업인
▁결코
▁김규
▁원전
▁선비
▁검찰청
▁돌격
▁베니
▁평정
▁맑
▁대명
▁자오
▁라이온즈
▁미노
▁시위대
▁이소
▁정주
▁증손
▁초월
▁므
▁이거
▁ㄷㅣ
▁발리
▁배후
▁어미
▁자비
▁자선
▁구스타
▁다녀오
▁소규모
▁부딪
타리오
▁안토니오
▁자음
▁이준
▁일리노
IP
렉스
ial
▁EC
▁과반
▁기질
▁118
▁드라이버
▁악단
▁히어로즈
▁어긋
▁이드
▁제압
▁침투
▁일리노이
▁정세
▁학명
▁파이널
러드
▁냉전
▁미키
▁옵션
▁자택
▁떨치
▁블랙홀
▁오프닝
▁Sc
▁도청
ign
▁만료
▁서자
▁프로덕
▁플래시
▁디비시온
▁관세
▁스칼
▁종착
▁알아보
▁깎
▁구와
▁이남
▁하르
▁가드
▁시정
▁체스
▁체조
▁다가오
▁알루미
▁파란색
▁예조
▁요정
▁극장판
▁미하일
▁1898
황후
▁예시
▁지침
▁사상자
▁진사
hn
▁크리스티안
▁주부
▁경신
▁태극
▁115
▁경찰관
▁대부
닐라
▁빛나
▁지인
▁반지름
▁방사선
▁분명히
▁우즈베
▁ㅇㅡㄹㅈㅣ
▁벵
▁대거
▁모로코
▁풀려나
▁연이
▁저널
▁커널
▁헬리
저지
히코
▁봉안
▁순조
▁용이
▁인명
▁재상
고스
▁괴물
▁남구
▁계열사
▁로그
▁말씀
▁징계
▁레바논
▁트로이
▁컷
▁봉건
▁챌린지
▁갑작스럽
▁SD
▁연승
▁통치자
지스
▁우측
▁키르
▁웨스턴
▁빔
ㄹㅣ
교도
▁패럴
▁희귀
▁세이브
▁외야수
▁ㅋㅔ
▁카우
▁헬기
▁매니저
기념
▁GS
▁축출
▁시가지
▁원로원
하루
▁범유행
▁성리학
▁승부차기
벨트
조건
보르
아먹
▁JT
▁두려
▁센티
▁케냐
▁웹툰
▁중형
▁GP
▁가옥
▁변이
▁뉴저지
▁남미
▁선도
타니
▁극작
▁동정
▁본국
▁필사
▁비로소
▁모나
▁취업
▁129
▁공조
▁매매
▁무성
▁정변
▁켈리
▁무승부
▁렐
부리
▁비기
▁소모
▁혜택
▁앵글
▁왕세
▁핑크
마이오스
▁맏
▁뉴턴
▁사위
▁전년
rom
▁외모
▁광해군
▁ㅌ
개미
타리
▁기증
▁쫓겨나
▁캔자스
▁글루
▁코카
▁통보
▁믹
▁부스
▁비주
▁캉
▁천하
▁`
▁의약품
▁젊은이
▁재혼
▁하프
▁체코슬로
▁체코슬로바키아
▁뭐
▁쯔
미사
▁러셀
▁직면
▁컨셉
▁쾌속
▁폭넓
▁마운트
▁벨라루스
▁공감
▁밀집
▁숙청
▁개막전
▁맥도
▁미세
▁예하
▁중산
▁괘
문트
▁답변
▁승자
▁한족
▁호출
▁기각
▁바빌
▁첨단
▁황족
▁스크립
방송공사
▁스타리그
▁닦
▁말미
▁학업
▁퉁
▁발급
▁회관
▁총사령
▁럼
바닥
▁Ne
▁III
▁스트리
▁군중
▁밝기
쟁이
▁빌라
▁퇴임
▁천문대
▁로비
▁종속
▁벽돌
▁그레고
▁조지프
ph
레타
▁1899
천리
▁리뷰
▁부피
▁척추
▁카디
▁월요일
우트
▁알루미늄
▁무명
▁오오
▁유라
▁케빈
▁142
▁장례식
▁ㅇㅡㄴㄷㅔ
▁남작
TS
▁폭포
▁레슬링
▁연예인
▁생체
▁응시
▁케임
▁터뜨리
▁옳
▁뇌물
▁양반
▁어른
▁대변인
▁일컬
▁임원
▁부여받
▁청주시
테르부르크
▁웬
진군
화물
▁사쿠라
먼스
urn
▁감싸
▁기차
▁옹립
▁요건
▁천재
▁총칭
▁토끼
ㄷㅓㄴ
▁어긋나
롤라이나
▁끌어들이
슬러
▁각도
▁관제
▁난징
▁창출
▁토미
▁화력
▁세이부
▁룩셈
▁중공
▁축물
느러미
▁더글러스
▁프로덕션
▁설화
▁토양
▁브리튼
▁룩셈부르크
▁콕
코딩
포로
함수
▁소생
▁예고
▁재선
▁마르티
ction
▁무함
▁배수
▁사본
▁워너
▁워크
▁정려
▁타임스
▁자크
▁스즈키
▁두려워하
수록
▁유방
▁하얗
▁구경
▁전속
▁파산
▁대서양
▁온타리오
▁플라스틱
로우
틱스
▁사간
▁학기
시즘
▁CJ
▁오크
셰비키
▁광주광역시
브르
▁넘어서
▁부의장
럴드
▁미들
▁발병
▁거래소
▁프란츠
▁1902
▁ch
▁기술자
▁얹
도스
토르
▁실망
▁리프
▁저주
▁금요일
▁시범
▁뒷받침
MA
ens
▁ID
▁종래
▁혼동
▁화상
▁연산자
▁신원
▁안테
▁유진
▁Man
pp
타주
▁대치
▁성폭
▁지옥
▁광둥
▁대패
▁명종
▁왼손
▁만성
▁도카이
▁감행
▁공적
▁독서
▁서신
▁대성당
▁키보드
▁확실히
▁힌두교
▁가야
▁연꽃
덩이
lan
▁니코
▁보위
▁피겨
▁플랫폼
▁동네
▁발기
▁기사단
▁거세
▁병기
▁중복
▁코시
▁화자
두리
▁의자
파이어
▁''
▁대손
▁우체
▁채소
▁그래미
▁잃어버리
치기
▁시코
▁지출
▁컴백
▁프톨레
▁프톨레마이오스
▁수분
▁위쪽
▁드림
▁스턴
▁운수
▁체류
▁탄도
▁비석
▁촉매
▁바깥쪽
샤바
▁감마
▁원종
▁지치
▁찌르
▁아리아
▁그릇
lic
▁원천
▁형조
▁교통국
▁게리
▁마녀
▁시가
▁피신
▁개소
▁붙잡히
▁국영
▁아돌프
▁설교
▁고양시
▁비행장
▁지식인
폴리
▁BS
▁대합
▁강변
▁희곡
▁소나무
글라
크로
▁사슴
▁영등
▁지켜
▁표적
국사
▁기니
▁포획
▁하단
▁깃발
▁마력
▁물품
▁버드
▁토착종
▁익스프레스
▁간선
▁생생
▁정성
TC
▁밍
▁가환
▁선배
▁습지
▁외관
▁참의
▁페르디난
▁춥
▁김지
▁동학
▁스폰
▁마스크
TA
▁영문
▁유체
▁해밀턴
ary
▁단축
▁코끼리
▁포켓몬스터
▁아산
▁정적
▁주조
▁경성부
▁코믹스
▁흔들리
▁뛰어
▁서류
▁강동
▁벨트
▁세비
▁울프
▁부회장
▁사이토
▁호르몬
▁러시아어
▁단절
▁직결
▁얽
▁나노
▁등기
▁서리
▁스위치
▁몫
구르
히토
▁광명
▁브뤼
▁압둘
▁화강
▁갈수록
▁아이오
▁동행
▁복용
▁선행
▁의의
▁함정
▁드러머
▁끊임없이
▁매카트니
테인
▁소시
▁열도
▁이용자
▁1901
ach
▁생략
▁어류
▁응하
▁제국주의
out
▁단의
▁보이스
▁광대
▁입성
▁축조
▁다항식
그룹
▁고아
▁약자
▁청산
▁페널
▁울산광역시
미트
▁No
▁수확
▁혐오
짓점
▁쓰촨
▁임관
▁제네바
▁폭격기
▁공리
▁본문
▁꼭짓점
ert
▁보트
▁색채
▁염증
▁입국
▁체르
▁헌신
▁부작용
▁권총
▁하치
▁현은
▁연기자
▁알렉산드르
디나
카가
▁간토
▁일산
피어
▁정문
▁바이킹
▁렘
▁무궁
▁부가
▁퀘벡
▁기숙
▁자작
▁초신
▁치아
▁삿포로
모스
자르
▁수축
▁카미
링턴
LE
▁갱신
▁김창
▁매수
▁여운
▁체중
▁서유럽
루아
▁MB
▁사회당
LS
타임
▁서문
▁성지
▁역량
▁조립
▁주되
▁코코
IG
▁고산
▁논하
▁실버
▁이현
▁영국인
ys
나우
▁드라
▁손꼽
▁이단
▁례
▁정동
▁커스
▁간단히
▁광저우
▁점성술
▁대구광역시
▁케임브리지
▁쿄
▁검열
▁보복
▁염색체
ug
▁표방
▁134
▁푸에르
▁}
▁갈릴
▁경과
▁면제
▁페니
▁호모
베트남
ㅌㅔ
▁가역
▁스님
▁토기
노미야
▁요르단
▁두께
▁크롬
▁썰
▁ㅈㅛ
▁김제
▁차르
▁캐서
▁민감
그라
▁누적
▁미륵
▁분수
▁상금
▁조수
▁ㅎㅏㄴ
▁아라비아
▁엔딩
▁입각
▁파이터
▁무함마드
내리
ase
▁독성
▁동조
▁시리
▁원료
▁정립
일으키
▁KIA
▁THE
▁불러일으키
▁버티
▁보헤
▁오쿠
▁그다지
▁남매
▁모서리
▁장기간
▁1903
▁아시카가
▁공명
▁날카
레슬링
정리
▁레즈
▁크레이
▁다마
▁카프
▁1884
▁아브
▁직경
▁특권
▁신도비
▁언어학
▁트리플
▁ㅎㅏㄴㅌㅔ
기스
대장
▁마우
▁불꽃
▁전방
▁All
▁홈구장
▁옥스퍼드
▁연봉
▁이병
▁쥐과
▁사업가
▁쟈
사리
퀘어
▁Gr
▁섹스
▁원본
▁개인전
▁만주국
▁표기법
▁아인슈타인
▁노보
▁학대
▁One
▁이성계
▁미시시피
펜하
▁공예
▁라그
▁박지
▁하리
▁관광지
▁개화
▁태그
▁갈리아
속기
▁강간
▁불신
▁중령
테르담
처스
카미
▁EX
▁대두
▁에콰
▁토요
▁쓰레기
▁지켜보
▁트로피
▁에콰도르
▁프로레슬링
카타
▁공고
▁퇴역
▁아리스토
ke
▁AN
▁극대
▁산출
▁삼촌
▁야마구치
▁릿
텍처
▁교대
▁루타
▁어둠
▁도널드
▁아키텍처
▁이관
▁ㅅㅑ
▁구형
▁선동
▁좌측
▁퇴적
▁쓰시마
▁알렉산드리아
아웃
▁비타
▁소말
▁질소
▁하비
▁도요토미
▁슈팅
▁스텔
▁정선
▁히타
▁전염병
▁니콜라이
▁군산
▁발렌시아
▁메커
▁패널
▁꼭대기
▁복합체
▁패밀리
푸르
▁Cl
▁어뢰
▁아폴로
▁클라이
▁검출
▁1800
▁로저
▁비뉴
▁조반니
▁프란체
▁대문
▁훔치
▁콤팩트
▁마키
▁제로
▁헌정
그레
방울
▁달걀
▁마르틴
▁충청도
▁깨지
▁타케
▁해남
▁삼국지
▁소방서
라이언트
▁LA
▁군함
▁우치
▁뮤지션
리코
▁구스
▁흥선
▁방글라
▁방글라데시
▁클라이언트
ree
▁지도부
▁프레드
▁뒤쪽
▁실재
▁장벽
▁철폐
▁마르코
▁히로시
▁유부
▁정유
▁드레스
▁소행성
테이션
▁날카롭
▁선우
▁실무
▁회상
나미
▁전위
▁함선
가와현
▁기념관
▁슬라브
▁공황
▁반공
▁토시
라이어
▁피고인
올로
▁당수
사이드
▁가오
▁김홍
▁농부
▁단면
▁염소
▁원더
▁인질
▁복소수
▁팟
가르
불교
▁경작
▁도선
▁에밀
▁자형
▁기념비
▁방사성
간지
▁내걸
▁로라
▁활주
▁북아프리카
▁팰
네마
▁IN
▁우회
▁이태
▁코믹
▁당연히
▁경인
▁곡물
▁기슭
▁분출
▁전복
▁조형
▁남동생
▁묶이
▁발칸
▁뉴욕주
▁소수자
▁스토어
▁일렉트로
산맥
▁상가
▁with
니시
▁강대
▁기분
▁하차
▁카를로
▁오사카부
아들
하키
▁분량
▁우물
▁카사
▁권장
▁발령
▁상경
▁기관총
번뇌
▁궁중
▁세바
▁터보
▁리더십
ass
▁러스
▁모모
▁물가
▁밀란
▁상트
▁창녕
▁가브리
▁그레이트
▁아미노산
act
▁견인
▁상응
▁수목
▁어찌
▁현감
▁더욱이
11
구역
▁전구
▁준주
▁파병
▁후작
▁116
▁중앙아시아
▁가산
▁교량
▁세키
▁취항
개골
▁Ad
▁전시회
▁메커니즘
▁관절
▁막스
▁브란
▁소자
▁교도소
▁모리스
▁페널티
곡동
사우
▁강희
▁220
▁거주지
▁한국방송공사
ㄴㄷ
▁의결
▁추첨
▁민간인
▁Br
▁까닭
▁캐서린
▁포스터
pt
▁건륭
▁등용
▁보성
▁용서
▁회피
▁와일드
▁총대주교
▁냄새
▁신축
▁이북
▁효고
▁다케다
▁에디션
▁볼리비아
▁각색
▁감안
▁안경
▁1897
▁가계
▁정화
▁마카오
▁카스티
▁평창
쿠버
▁델타
▁돌기
▁절단
▁진전
▁1860
▁스트라이크
▁홉
역학
▁기저
▁샌드
ream
▁데스크
▁되돌리
▁일부분
▁컨트리
사업
▁CN
▁맞붙
▁반군
▁태백
▁델라
▁시야
▁요약
▁티코
▁방송인
▁르노
▁취미
▁교육청
▁꿀
▁낙동
▁대출
▁리조
▁마블
▁오로
▁올드
벤처
▁GO
▁갈래
▁상법
▁장자
▁폭로
▁휴가
기념물
▁아나키
▁어드벤처
▁가열
▁깨끗
▁농사
▁배우자
▁알프레
▁페이스북
▁미라
▁강남구
▁버클리
▁사살
▁일파
▁침체
▁거짓말
▁일자리
▁데카
▁수료
▁이주하
▁가의
▁마니
▁타우
▁ㅇㅡㄹㄲㅏ
▁상고
▁음향
▁노태우
▁스크립트
▁Is
▁마가
▁안산
▁접수
▁카타르
▁고이
▁나루
▁반전
▁석불
▁청색
스카르
캐롤라이나
▁Ex
▁네오
▁리히
▁민정
▁샌디
▁확진
▁효종
파리
▁;&
▁공손
▁대관
▁카즈
▁쿠니
▁한층
▁사카이
▁장제
▁쥐속
▁연대기
▁바르샤바
▁앰
▁구약
▁북경
▁아소
▁전산
▁타지
▁중공업
▁경제학자
▁간신
▁무슨
▁심화
▁저렴
▁모티브
▁유닉스
도비
▁안치
▁2022
나드
산성
퍼슨
▁마애
▁122
츠크
▁엇
반구
▁쓸
▁이반
▁입주
▁체력
▁추론
▁미네소
▁스퀘어
▁홍문관
▁떡
▁가신
▁소행
▁클라크
▁안드레아
▁고토
▁동형
▁막시
▁종파
▁화순
▁게릴라
포터
▁중원
▁모용
▁버마
▁윤보
▁아마존
▁후반기
▁죠
푸아
▁글래
▁이빨
▁흥선대원군
▁군청
▁브룩
▁석회
▁짐작
▁인테르
▁수중
▁적군
▁전격
▁NGC
▁상트페
▁1880
▁상트페테르부르크
콥터
▁애리
▁집결
▁con
▁급수
▁리만
▁살피
▁치우
▁솔루션
▁BM
▁갑옷
▁메라
▁종점
▁마라톤
거진
▁사적
▁타협
▁신동
▁호쿠
▁설립자
▁세네
▁용암
▁콘테
▁공용어
▁마당
▁메릴
▁옥수수
▁셜
▁엮
▁보강
▁예명
▁장원
▁제리
▁함양
▁그리스인
▁천연기념물
▁노이
▁벽화
▁빈도
▁어로
▁유정
네시
▁루크
▁정경
▁창의
▁합당
▁갤러리
▁두개골
▁제작사
▁진행자
iss
▁이장
▁함부르크
▁과실
▁무술
▁입양
▁유대교
▁눕
니지
▁실적
▁프렌
몰로지
▁133
▁붙여지
▁손꼽히
리즘
ake
▁감추
▁강철
▁신정
▁일괄
자치시
▁나란히
▁새로이
▁특별자치시
▁가네
▁기성
▁돌입
▁소령
▁청소
▁쳐들
ㄹㄹㅗ
▁키예프
▁돌아다니
타케
▁번성
▁이언
▁디트로
▁디트로이트
▁무로
▁스노
▁극작가
own
▁ㄷㅔ
▁블리
▁연못
▁왕정
▁호응
▁법정동
ii
케이
▁지지율
▁괴롭히
▁득표율
▁이동하
▁일러스트
리안
▁수녀
▁심야
▁연동
▁이규
▁특색
▁팔레
▁CBS
▁무궁화
사관학교
▁랍
▁자결
▁처지
▁랴
▁뻔
기구
▁장흥
▁조계
▁펜싱
▁헬륨
▁확고
▁가가
▁농어
▁몽고
▁종말
▁진료
▁찰리
▁추리
▁Mus
▁교육부
▁파라과이
▁고추
▁복권
▁준결승전
ㄱㅣ
▁격차
▁유령
▁자생
▁그림자
▁미생물
▁그레고리
▁등극
▁오락
▁오지
어뜨리
▁포도당
clude
▁그렇지만
▁출석
▁파우
▁GDP
▁겉보기
▁경쟁력
▁극도
▁개항
▁공약
▁도사
▁자카
▁평민
▁앨리스
▁사무총장
타마
▁선장
▁그레고리오
▁낚
▁ES
▁미셸
▁아치
▁스리랑카
▁애틀랜타
그래
미스
▁무스
▁문경
▁사쿠
▁아래쪽
림픽
▁국유
▁위생
HO
▁열심
▁추종
▁위나라
원장
▁유스
▁제왕
▁탁월
▁지방산
UR
▁수심
▁아데
▁재해
▁CEO
old
▁더비
▁스로
▁우상
▁지청
▁대성전
▁엘리트
▁++
▁광양
▁주지
▁132
▁스트라이커
▁싣
멘스
▁수년
▁재난
▁진수
Hz
▁툰
위성
▁애칭
▁글로브
▁니카
▁숙주
▁즐겁
▁섀
▁까지
▁듀오
▁마다가
▁인디애나
미즈
스기
▁결핍
▁주화
▁초원
▁동성애자
▁시뮬레이션
버러
▁격자
▁결제
▁명분
▁반역
▁정인
▁조병
▁칼뱅
바야시
▁대지진
ork
▁NE
▁극락
▁김민
▁리모
▁이득
▁프롤
▁삼국사기
▁감동
▁듀얼
▁미주리
거래
세기
에미
▁ㄹㅑ
▁앞장
▁이데
▁인프라
▁동요
▁빈번
GA
ix
파크
▁베른
▁브랜
▁속편
▁프랭클린
▁요제프
헌영
▁국수
▁온갖
▁원격
▁총무
▁pro
▁마우스
▁패럴림픽
해튼
▁or
▁정관
▁타석
벨라
해지
▁김옥
▁시종
▁현직
▁복음서
▁파이프
렉션
▁꿈꾸
위원회
()
lo
▁동참
▁무조건
▁평안남도
▁쾰
▁상연
ㄹㄹㅏ
▁보헤미아
천사
▁호족
러피
루냐
메다
ick
▁발각
▁상기
▁요법
▁현황
▁호리
▁농산물
▁저널리
CAF
▁La
▁Ro
▁속이
▁신상
▁현행
ence
▁우체국
▁PR
▁강풍
▁대국
▁숨지
▁암흑
▁통틀어
▁활주로
▁무르
▁청자
▁대사헌
▁자세히
마리
▁총기
▁피로
▁후속작
를테
▁kt
▁대각
▁두렵
▁페로
를테면
▁이를테면
▁밀러
▁세손
▁워치
▁기상청
▁볼셰비키
▁파문
▁해치
▁황도
▁단행본
▁뾰
변이
▁단과
▁의과
▁투항
▁트리니
▁돌연변이
▁합스부르크
라기
▁빠져
▁매거진
▁모터스
▁창시자
▁1870
▁평안북도
홀름
▁To
▁관동
▁만년
브리아
▁숀
▁DM
▁공파
▁막히
▁속주
▁초고
▁해부
▁매끄럽
삭스
할시
▁공표
▁왜구
▁장대
▁표창
▁가타
▁아쿠
▁재질
▁저격
▁타이베이
▁낙하
▁말년
▁생계
▁소울
▁제너
▁중앙부
플로
▁서장
▁호의
▁애리조
▁청동기
▁우즈베키스탄
공산
▁라오
▁맹세
▁배속
▁이븐
▁정국
▁댓
▁머스
▁불행
▁450
▁NAS
▁USS
▁아스널
▁짱
▁복식
▁Mar
▁1885
▁프랜시스
ection
▁Ph
▁국악
▁로페
▁세븐
▁우아
▁입수
▁소피아
▁른
▁시국
▁기병대
▁다람쥐
▁슛
▁엥
▁감금
▁따라가
▁비주얼
▁아이스하키
EM
▁헛
▁un
▁김병
▁돌출
▁카바
▁1871
▁알래스카
십자
▁맞대
▁양성자
▁아빠
▁앞쪽
▁포고
ance
ear
▁수염
▁신종
▁쿡
▁양육
▁중생
▁휴게
테리아
▁only
▁맷
티시
▁프레이
▁오클랜드
▁틀리
lass
▁대장군
▁빅토르
제이
▁카터
러피언
▁로렌스
▁수원시
▁1600
▁로리
▁비늘
▁성령
▁이모
▁센고쿠
ild
▁내성
▁위스
▁전날
▁테일
▁오로지
▁요지
▁참사
▁앤더슨
▁활발히
▁1200
▁유러피언
▁유료
▁청룡
▁케이프
▁파나마
▁마르크스주의
▁매직
▁봉수
▁오라
▁휩쓸
테쓰
▁GN
▁경질
▁내면
▁벤치
▁시애
▁마닐라
▁루비
▁릴리
▁역도
▁장단
타이드
▁예정자
▁편집자
▁볼프
▁중상
▁중서
▁화랑
▁윤보선
▁마다가스카르
▁리터
▁내무부
틀리
파이
▁자칭
▁지성
▁해저
돌리
▁루카
▁부조
▁이양
▁재외
▁흉노
▁난이
▁김규식
▁부원군
체고
▁SL
▁감수
▁능선
▁차리
▁잡아먹
체고비나
▁박헌영
▁출가
▁친분
▁케라
▁240
▁구마모토
▁탑신
▁맨해튼
▁프로리그
관리
▁vs
▁관행
▁구니
▁리바
▁카니
▁콜레
▁퇴장
▁김정은
▁다나카
▁반란군
▁시애틀
▁앤드루
▁해리슨
쩌둥
▁생선
▁수인
▁조광
▁플랜
▁알렉스
▁마오쩌둥
irl
▁교실
▁반성
▁빨갛
▁서산
▁스태
맥스
어오
▁AD
▁제동
▁지쿠
▁오른손
OV
▁즘
▁수교
▁원심
▁초빙
▁끌려가
▁제조업
▁프라하
▁민요
▁바디
▁이완
▁동물원
메스
천면
▁송도
▁파인
텔레스
▁역사가
올라
ans
▁궁궐
▁리비
▁이방
▁함자
▁경희
▁시중
코토
▁관문
▁상급
▁통역
▁루돌프
▁실험실
ivers
▁콘스탄티노폴리스
▁괄
▁국보
▁무척
▁재활
▁성남시
▁성실
▁오미
▁정제
▁조례
▁징병
▁호크
▁불태우
▁왕세자
▁제퍼슨
▁헬리콥터
▁고쿠
▁증인
▁EBS
▁대대로
▁미군정
ype
▁남산
▁뾰족
▁허드
▁공민왕
▁Sy
▁구청
▁부각
▁동대문
include
▁창문
지로
▁경시
▁남용
▁분과
▁티켓
▁리조트
▁위너스
▁아리스토텔레스
▁CM
▁드미
▁신문사
▁클레이
▁러시아인
어사
ish
▁ㅌㅣ
▁바트
▁레이크
▁하노이
무소
▁남해
▁차용
▁커플
▁서재필
▁줄거리
▁몸통
▁섬세
▁총통
▁사각형
▁겁
▁당내
▁크라이
▁":
▁개헌
▁카지
▁한하
▁얕
▁칼럼
▁퍼스
▁하키
▁화기
라니
▁가늘
▁각성
▁시노
▁이룩
▁동유럽
▁자치체
▁배려
▁총애
▁통용
▁화엄
▁대합실
▁클린턴
▁퍼스트
GM
▁NT
▁나우
▁뉴클
▁지오
▁해리스
▁개개
▁광도
▁김원
▁에프
▁주임
▁효자
▁농경
▁안녕
▁천왕
▁하반
▁MTV
▁올림피아
oun
▁씨앗
▁약혼
▁아무것
▁학설
▁허정
▁솔로몬
▁@
에스
▁독도
▁모의
▁시합
▁ex
▁산호
▁스가
▁시부
▁진해
원수
▁분류군
▁요시다
▁유치원
▁케플러
OD
▁모호
▁수양
▁차갑
▁칙령
▁테라
▁선거법
사상
▁보라
▁포착
▁예선전
▁총사령관
RA
ey
▁관청
▁나선
▁메뉴
▁내야수
▁함경남도
▁메카
▁지로
▁카테
▁파도
▁하류
▁브루스
▁아키라
▁sc
▁경호
▁극한
▁긴테쓰
▁네이션스컵
fe
정원
▁로버
▁문고
▁성화
▁주입
▁브레이크
▁검정
▁독창
▁들여
▁반기
▁실존
▁자제
▁전래
▁호스
▁경영자
▁아키타
통일
▁다테
▁일당
▁트릭
창호
컨대
▁마차
▁만장
▁보행
▁블로
▁어군
▁평형
등식
▁국당
▁신발
▁유혹
▁스톡홀름
▁분파
▁퍼포
ical
▁데려오
▁비밀리
▁비타민
▁서대문
▁멍
토랑
▁Jo
▁찬사
▁케인
▁레스토랑
▁보로
▁수필
▁욕망
▁캐롤
▁퍼포먼스
lat
▁제물
▁카피
▁테리
▁알프스
▁자치주
신문
▁원통
▁전무
▁포식
▁뛰어들
▁스테파
EG
TP
▁드루
▁타스
▁메이커
▁유아기
▁친위대
러브
▁도교
▁마셜
▁마술
▁스폰서
▁벅
바흐
▁박종
▁ABC
▁마천루
▁뉴클레오
▁와이번스
환경
▁방콕
▁수복
▁컴퓨팅
암동
▁색소
▁엄밀
▁유권자
히트
▁CH
▁매리
▁프론
▁다저스
▁로드리
▁바이트
▁보수당
▁프린스
▁고든
▁럭비
▁모어
▁묘비
▁헬싱
▁황소
▁ATP
▁예수회
메드
▁AV
▁김유
▁리베
▁블레
▁대원군
▁강령
▁구내
▁불변
▁치과
▁북아일랜드
▁멧
▁DD
▁넷째
▁실정
▁웨인
▁천국
▁플라톤
▁리보
▁마켓
▁본성
▁야드
▁장시
▁개구리
▁연극배우
▁나인
▁상행
▁시몬
▁일리
▁천거
▁추이
▁파손
▁투자자
▁피아니스트
▁소음
▁전담
▁톈진
▁포토
▁정부군
▁콘테스트
매매
▁삼존
▁영유
▁210
▁나트륨
▁마누엘
▁용인시
are
▁도둑
▁리사
▁폭파
▁방어선
▁오리온
▁피라미
▁화강암
▁샐
▁벤처
▁약사
▁이점
▁특전
▁튀르크
▁헤르체고비나
놀이
▁Fr
▁실권
▁주차장
▁프레데
덴부르크
대교
▁pr
▁구실
▁대본
▁스칸
▁슬하
▁절망
▁선구자
▁알파벳
▁동로
▁야전
▁왕권
▁퇴직
FL
군다
▁Ma
▁무실
▁홀리
부르
티넘
▁정거
▁토스카
▁플래티넘
EL
▁노론
▁마에
▁백두
▁스텝
▁찬양
▁침묵
▁쾰른
▁경전철
▁아나톨
▁가브리엘
▁결별
▁선천
▁위그
▁목요일
ica
▁중퇴
▁he
▁밸리
▁별세
▁유선
▁채취
▁1889
▁가락
▁국공
▁뭉치
▁봉화
▁차출
▁화약
▁적외선
▁리본
▁사방
▁소극
▁준수
▁유격수
사고
수스
▁아날
공산당
▁책임지
▁가맹
▁본작
▁소중
▁송신
▁영정
▁이의
▁제노
▁동시대
▁앞장서
▁감찰
▁부치
▁가이드
60
▁따지
▁방치
▁슬픔
▁실록
▁켈트
▁연산군
▁스카우트
난성
천동
▁로크
▁호대
▁패트릭
대표
충류
▁베트
▁요충
▁직통
▁아이폰
▁오바마
▁정의당
소통
▁정형
▁종식
▁주계
▁하시
테이너
▁밴쿠버
카리
▁So
▁갈아
▁대북
▁반포
▁투여
▁기관지
▁안테나
▁비엔
▁산성
▁삼림
클레
▁니혼
▁대영
▁야시
▁여권
▁의류
▁임정
▁칸국
▁사로잡
▁엔트리
▁CONCA
▁간첩
▁공존
▁여유
말리
▁모금
▁미수
▁메디치
▁의사소통
위안
▁당연
▁이송
▁전전
▁중수
▁형질
▁For
▁타이거스
▁CONCACAF
▁늙
▁구르
▁다윈
▁불량
▁새우
▁영예
▁초신성
▁고속버스
▁딥
▁강렬
▁김형
▁비야
▁중합
▁한미
▁잇따르
▁능하
▁로트
▁연말
▁유목
▁플리
▁도망가
▁Live
드레
▁김준
▁불참
▁정읍
와라노
▁말미암
▁접어들
▁센티미터
▁후지와라노
▁라리
▁라자
▁모하
▁받치
▁사설
▁시크
▁리프트
▁금호
▁무형
▁사서
▁아끼
▁의령
▁치루
▁피지
▁타이어
▁JTBC
▁미야자키
AF
▁건전
▁구두
▁우림
▁정종
▁종자
▁떨어뜨리
▁인가
▁프란체스코
sh
부로
▁감성
▁앙골
▁절정
bo
란토
휴일
▁격리
▁매트
▁원군
▁은거
▁지자
▁캐리
▁쿠퍼
▁하야
▁스트로
▁시네마
▁가나가와현
▁감상
▁왕건
▁판례
▁권하
▁작물
▁후배
블랜드
▁카탈루냐
프로
▁백과
▁두려움
▁훙
▁메소
▁수락
▁습윤
▁열강
▁요격
▁Sou
▁낙동강
▁똑같이
▁로마인
▁가도
▁송출
▁나카무라
▁자유민주당
EE
▁사탕
▁애정
▁집정
▁치환
▁펌프
바이트
망디
바나
▁바지
▁잠정
하이오
tern
▁미야기
▁생존자
▁열심히
▁오하이오
▁클리블랜드
가미
캐슬
▁극우
▁기이
▁리옹
▁서임
▁예약
IL
▁연정
▁레이싱
지기
▁고딕
▁징수
▁AKB
▁소말리아
▁프랑스인
▁캅
▁금산
▁마땅
▁비준
▁int
▁광복군
▁발라드
▁피라미드
▁김명
▁트렌
도르프
지능
▁GB
▁거미
▁공소
▁평평
▁인공지능
대사
▁모색
▁장학금
▁Time
▁유니버설
ood
▁여고
▁항만
▁Com
▁레이트
▁여배우
에미리트
▁아랍에미리트
자루
ost
▁격추
▁무네
▁워커
▁정작
▁Col
▁카카오
▁Part
▁그저
▁벨리
간다
▁가솔
▁삼중
▁순종
▁추력
▁페트
▁토리노
▁챙
▁EU
▁도피
▁사역
▁유의
▁유희
추부사
▁검은색
현동
▁성곽
▁자서
span
▁교통부
▁기숙사
▁드디어
거스
row
▁"&
▁목회
▁볼트
▁수로
▁암스
▁1848
▁츄
풀이
▁담보
▁서태
마르크
▁뉴캐슬
▁부총리
▁onlyinclude
에몽
▁가두
▁당기
▁하행
ㄱㅜ
▁댄서
▁문집
▁제명
▁한림
▁로얄
▁탄약
▁해태
▁해피
▁공휴일
유예
▁모욕
▁티아
프랑크
찌르
▁라르
▁매킨
▁무과
▁사쓰
▁재팬
▁포털
▁튀니지
▁카스티야
애미
정동
지부
▁오만
▁익숙
▁추억
▁토트
▁해독
▁간신히
▁대니얼
▁라이더
▁마이어
▁여의도
▁마이애미
▁프랑스령
▁깜
▁김광
▁보령
▁셀레
▁재일
▁절벽
▁브레이
▁대승불교
uc
나마
의사
화문
lay
▁음절
▁레이더
▁일본국
ous
▁남군
▁우한
▁유식
▁페트로
▁급여
▁볼로
▁악보
▁여사
▁천주
▁고인돌
▁무안
▁비토
▁종군
페스트
▁국제법
▁법원장
▁정치학
▁병자
▁치카
▁스타트
▁지상파
▁도래
▁사민
▁양심
▁코리
▁한중
olog
▁부딪히
ows
▁국한
▁랴오
▁인칭
▁조인
▁바그너
▁클라우
메니
▁공대
▁교의
▁특화
파니아
▁관현악단
▁비정
▁명확히
▁무찌르
▁EM
▁업자
▁워즈
▁제위
해살이
▁Bla
▁시코쿠
▁정거장
▁가혹
▁경복
▁굴절
▁로키
▁부평
▁시멘트
▁리카
▁모건
▁API
▁우루스
▁지배자
▁카메룬
▁보수주의
▁줄기세포
히사
▁공성
OP
브로
▁김인
▁선명
▁안개
▁클러
▁항체
클리드
▁SNS
▁그랜트
▁어시스트
도라
▁단결
▁류큐
▁산둥
▁황색
▁대리인
▁마법사
▁에이즈
▁저지대
▁제우스
▁가쿠
▁부다
▁평지
▁아이즈
orn
▁at
▁거란
▁숙부
▁총격
▁케르
▁131
▁문단
▁비대
▁연립
▁적료
▁하노버
az
▁쾨
ann
▁글꼴
▁마테
▁명소
빌라이
▁대나무
▁귀신
▁방대
▁용액
▁종양
▁욱
▁쪼
서스
칼리
▁사수
▁서귀
▁안방
▁점포
▁지법
▁NASA
▁Your
▁레드삭스
시노
▁검거
▁메일
▁모빌
▁베어
▁전한
메이카
▁자메이카
▁녕
▁BC
▁고로
▁동산
▁신곡
▁지석
▁하코
▁곶
▁기와
▁선봉
▁재편
▁영화상
▁제이슨
▁헤어지
▁1883
▁남방
▁대마
▁항우
▁OST
▁ref
▁u
▁설문
드리아
▁공영
▁사림
▁오디
▁탄자
른스트
▁계주
▁도키
▁줄리아
▁텍사스주
지아
▁부합
▁수식
▁초콜
네그로
레스트
▁라파엘
▁방사능
▁부상자
▁정보원
▁교향악단
▁골격
▁쌍대
▁연희
▁한신
▁날아가
▁다툼
▁동진
▁응급
▁중엽
80
▁근사
▁몰아
▁무작
▁속력
▁식스
▁진로
▁대단히
▁대좌
▁모범
▁혼다
▁비서관
▁연구회
▁패러디
▁관상
▁유공
▁대법관
▁에스페
▁판소리
▁그라운드
▁노르망디
▁프로그래머
관계
▁가우
▁메스
▁본뜨
▁코소
▁피리
▁하남
으로
▁간략
▁기세
▁병마
▁산요
▁삽화
▁온난
▁유우
▁형벌
▁고분군
▁뫼
▁tv
▁가토
▁다듬
▁야외
▁우산
▁자명
▁최진
▁카네
▁쿠빌라이
▁노면
▁니키
▁단군
▁도박
▁실증
▁이터
▁전보
▁절감
▁만화가
▁녹화
▁라바
▁리마
▁큐브
▁편견
▁에이전
▁해상도
센스
ern
▁공무
▁리즈
▁열전
▁위구르
▁이용객
▁토마토
▁봉인
▁월터
▁야마가타
▁Ge
▁RP
▁경위
▁안나
▁평판
▁함량
▁파일럿
▁해안선
▁콥
합성
▁성동
▁요절
▁1882
▁Wind
버른
▁고흥
▁북군
▁카마
▁촛
▁GM
▁가중
▁고노
▁기전
▁소외
▁슈퍼컵
40
워스
제품
프턴
▁꺼내
▁덮개
▁부왕
▁세습
▁송파
▁스루
▁조교
스트리
▁Day
▁다이어
▁스칼라
▁체인지
▁봇
▁권역
▁기량
▁모세
▁은혜
▁타락
포시
ink
▁가고
▁간사
▁거성
▁관례
▁올리브
▁원산지
CC
▁몰타
▁받들
▁엔드
▁최선
▁후진
▁데니스
II
용차
▁고생
▁유생
▁유서
▁아이언
▁중소기업
▁FK
▁콘솔
▁학력
▁SA
▁내일
▁루키
▁발상
▁상어
▁수위
▁우시
▁정월
▁프란치
▁아날로그
RT
교통
▁RS
▁라디
▁친족
▁항원
▁통신사
돌이
에고
토프
▁ㅅㅕ
▁사영
▁수다
▁아목
▁조셉
▁관악
▁국외
오르크
▁단체전
▁대표자
▁무섭
▁제천
▁플러
▁헬레
▁330
▁Sch
치히
▁관목
▁국교
▁단정
▁배분
▁범하
▁직속
▁공화정
▁연장전
▁해운대
▁미스터리
▁시즈오카
▁강당
▁단속
▁딜런
▁상록
▁요양
▁최영
▁가솔린
▁전반기
▁브루클린
▁앗
데라
▁왕궁
▁재래
▁정정
▁경주시
▁결사
▁시안
▁씨족
▁미토콘
▁미토콘드리아
게스
서니
여객
▁멋지
▁노벨상
▁선진국
▁지붕돌
▁카스트
▁파푸아
▁필립스
▁호스트
▁관계없이
▁급증
▁자수
▁장덕
▁지극
▁협업
▁후예
▁북유럽
▁휴게소
▁사로잡히
본부
▁고의
▁배달
▁부교
▁산시
▁위로
▁위조
▁주선
▁레오폴
▁사업소
▁제갈량
▁테네시
▁정은
▁주창
▁파벌
▁new
▁도네
▁빙하
▁성원
▁외래
▁예컨대
▁단말
▁사학
▁소프
▁수열
▁멜버른
▁4000
▁유클리드
갈리
융합
▁라미
▁타수
▁컨테이너
OT
▁규탄
▁번창
▁붙잡
▁어기
▁영덕
▁대상자
▁베이커
▁부르주
▁안티오
▁넬슨
▁보름
▁세련
▁어파
▁회귀
ㅇㅏ
▁과테
▁동포
▁제단
▁피핀
스탄불
▁산티아
▁영원히
▁1868
▁과테말라
▁사이타마
▁이스탄불
▁괌
▁OB
▁Or
▁베풀
▁사치
▁일각
▁할인
▁중공군
▁핵융합
▁남하
▁랭크
▁콜럼
US
▁동적
▁램프
▁보루
▁염려
▁조슈
티모어
▁앙골라
▁메릴랜드
팡이
▁밝혀
▁서면
▁Girl
▁잠깐
▁태후
▁군사력
▁스캔들
▁겨루
▁발동
▁신입
▁얽히
▁요충지
▁몬테네그로
▁노사
▁주계열
협회
▁객차
▁군벌
▁우의정
▁파시즘
▁사회민주당
▁냥
▁버터
▁범행
▁선대
▁종영
▁충렬
▁국정원
▁기념일
▁몹
히드
▁청도
▁표정
▁폐기물
▁컨트롤러
▁사천
▁항로
▁형편
▁프랜차
▁colspan
▁고트
▁배리
▁부파
▁양보
▁하의
펜하겐
▁밝혀내
▁이바지
▁코펜하겐
▁노후
▁대인
▁영암
▁영월
▁천수
▁트이
▁독수리
oll
▁농지
▁오아
▁전수
▁320
▁김옥균
▁신주쿠
▁오스틴
▁커리어
▁히브리
▁프란시스코
▁너머
▁사안
▁우왕
▁우월
▁위촉
▁너무나
▁다우
▁뒤이
▁법관
▁성산
▁저조
▁차선
▁초안
▁추서
▁카세
▁베르나르
▁아케이드
해자
▁러일
▁식용
▁아유
▁카툰
▁end
▁ㅅㅕㄴ
▁급속히
▁요하네스
우에
▁교직
▁장병
▁족보
▁헌장
▁효고현
다운
호란
▁대덕
▁대청
웨이트
▁라인업
▁수요일
▁야마모토
▁사운드트랙
▁프랜차이즈
바오
지리
▁사비
▁준장
▁오일러
디나비아
▁스칸디나비아
당기
▁강행
▁밀레
▁상국
▁외과
▁외형
▁이메
▁정령
▁청계
▁치하
ㄲㅡㅁ
▁슌
▁은신
▁이항
▁컨설
▁사이먼
▁좌의정
▁암스테르담
gin
▁DF
▁대도
▁샤프
▁양수
▁종신
▁증폭
▁타리
토리코
▁무실점
▁게오르크
▁by
▁도상
▁소아
▁축산
▁출동
▁로마자
▁니콜라스
공주
꼬리
▁TR
▁거처
▁끊기
▁자재
▁직행
▁타일
▁피드
▁피치
▁LED
▁코스타리카
▁네티
▁문종
▁복종
▁절제
▁산티아고
걸이
▁교부
▁시비
▁전세
▁치유
▁서해안
▁어웨이
▁자서전
▁천안시
▁헤이안
▁찢
단지
amp
▁고온
아다니
▁리믹스
▁브뤼셀
▁에른스트
계승
니파
셀러
웍스
▁동향
▁양대
▁위력
▁타로
▁법조인
▁함경북도
▁각료
▁김선
▁내분
▁성악
▁순차
▁우연
▁조영
▁데이브
▁시트콤
▁푸에르토리코
LA
▁노아
▁슈테
▁주성
▁호아
▁데려가
▁발전기
▁텔레콤
익스
▁스콜
▁정몽
▁유학자
▁렛
▁거지
▁공안
▁금전
▁내무
▁모차
▁정반
▁증오
▁복음주의
▁쿠웨이트
▁육군사관학교
▁놈
어넣
▁결핵
▁김윤
▁아흐
▁압록
▁이우
▁포르노
북구
▁리튬
▁박성
▁분사
▁브릿
▁습관
▁잔인
▁켄트
▁윗부분
▁1893
▁맬
▁안무
▁정재
▁출자
▁코네
▁203
▁280
▁IOC
▁장로교
▁가고시마
▁루이지애나
▁늪
나기
▁능동
▁영천
▁천마
▁측량
▁칭송
▁해왕
▁후유
▁위안부
▁펠릭스
퍼레이션
게임
▁le
▁문무
▁배드
▁유족
▁이황
▁이회
▁축전
▁함흥
▁서사시
▁여성주의
▁탄자니아
gr
▁Fe
▁김승
▁백악
▁수량
▁퍼즐
▁폐렴
▁화장품
▁이탈리아어
OW
세유
▁리코
▁생리
▁심포
▁전학
▁점거
▁척도
▁결과물
▁망치
▁서주
▁조제
▁학장
▁한번
▁흡사
로이드
▁민병대
▁트리오
▁마이크로
ung
▁관우
▁국철
▁배양
▁원활
▁톰슨
▁하타
▁교육자
▁도자기
▁로베르
▁부르고
▁갯
려들
몬트
▁Mo
▁금동
▁긴밀
▁레프
▁접종
▁천천
▁첼로
▁편향
▁서초구
▁유적지
▁해안가
화학
▁선인
▁짐승
▁차츰
▁충무
▁그만큼
▁톡
상시
▁라카
▁박상
▁소대
▁피크
▁헤로
▁노미야
▁NP
▁고집
▁관성
▁도우
▁분단
▁온화
▁전락
▁조니
라이드
▁데일리
▁비스타
▁아라곤
▁후쿠오카현
les
▁대종
▁불경
▁우두
▁집착
▁한문
▁한큐
▁헌터
▁Comp
▁데드
▁이아
▁천천히
독립
레드
티에
▁김천
▁버섯
▁아츠
▁주심
▁칼슘
▁Rock
▁김치
▁마타
▁바울
▁도야마
▁동맹국
▁스포르
▁플랑크
▁Univers
▁끓이
▁앤디
▁주세
▁탈취
▁가라앉
▁강화도
▁녹색당
▁불계승
▁아우르
▁컬렉션
aw
▁핏
▁노랑
▁미성
▁전미
▁하급
루이스
▁Car
▁레인저스
▁간직
▁도이
▁버러
▁아메
▁장녀
▁TBS
▁동맹군
▁덥
▁촐
eth
▁공양
▁림프
▁심부
▁에마
▁휴양
▁발사체
▁철저히
▁우울증
▁미나모토
▁Am
▁격려
▁라흐
▁월트
▁페더
▁초콜릿
▁픽처스
▁도카이도
AI
oth
▁격하
▁도출
▁비지
▁시속
▁애인
▁Rec
익스피어
▁참모총장
업자
▁라즈
▁심상
▁오하
▁자진
▁점검
▁현판
▁GNU
▁베르타
▁셰익스피어
▁에스페란토
▁AB
▁대차
▁소사
▁후하
▁고려대
▁순양함
▁인공위성
▁플로리다주
폭탄
▁강진
▁과시
▁까마
▁낚시
▁명인
▁미츠
▁사귀
▁에로
▁230
▁Sup
▁로스쿨
▁스탠리
▁from
▁부르고뉴
▁노프
▁당뇨
▁막판
▁황산
ublic
▁갚
민스터
▁게오르
▁사상가
▁케이크
▁중앙은행
▁핼
들러
▁구독
▁지바현
▁가와사키
국적
▁마트
▁무단
▁이범
▁카레
▁파편
▁프리스
▁가르시아
▁마르세유
▁IV
▁귀속
▁기쁨
▁바비
▁상정
▁스킴
▁대진
▁유영
▁기업가
태평
▁Do
▁서스
▁심문
▁울릉
▁향기
▁1888
▁율리우스
▁가부
▁네모
▁미아
▁반동
▁발목
▁배역
▁청량
▁톱니
▁특사
▁페오
▁물려주
▁밀려나
▁서바이
▁상관없이
유사
▁굳히
▁시우
▁청송
▁노스캐롤라이나
트르
▁구금
▁구치
▁닉슨
▁백자
▁슈타
▁스투
▁용품
▁운임
▁피사
▁경계선
▁로빈슨
▁쇠고기
▁이바라
▁견고
▁끼우
▁아와
▁유포
▁흥분
▁세비야
▁수나라
그마
헤드
▁명부
▁산수
▁국제선
▁로이드
▁펠리페
▁평안도
▁하이퍼
바리
▁대접
▁대주
▁사키
▁글래스
▁Su
▁Sw
▁ar
▁메틸
▁배기
▁붕어
▁사커
▁공법
▁꾸리
▁시문
▁에바
▁입헌
▁재차
▁다이빙
▁산스크
▁애덤스
▁1892
▁박테리아
▁산스크리트
▁동종
▁매달
▁성기
▁수차례
▁허드슨
▁우에스기
▁깁
▁푹
▁제창
▁다카라
▁절도사
▁케이트
▁프로모
▁러시아군
자동
▁낙양
▁리차
▁연회
▁조롱
▁펠트
▁대전차
▁문자열
▁소학교
▁휘말리
IR
비크
▁농축
▁모던
▁사변
▁유무
▁제철
미디어
▁대명사
▁자라나
▁쫓아내
암리
연수
홍색
▁계량
▁산청
▁어의
▁온대
▁대공국
▁데스크톱
둘기
티노
▁물결
▁미식
▁새뮤
▁코사
▁공방전
▁스테판
▁군데
▁데미
▁라드
▁자립
▁재발
▁해병
보리
▁고스
▁니켈
▁옥타
▁웃음
▁하임
▁펩
▁CG
▁공시
▁납부
▁완도
▁위계
▁주먹
▁직계
▁카야
▁더블린
▁레이디
▁프레임워크
▁wh
▁나뭇
▁불사
▁생모
▁자코
▁조개
▁중고
▁볼로냐
▁조선왕
▁차세대
▁활동가
ah
▁강성
▁복싱
▁선양
▁침례
▁북조선
▁사간원
▁성매매
▁앤서니
▁1866
▁1876
광성
▁소동
▁필하
로니아
▁관현악
▁논리학
▁스탠드
▁가면라이더
다오
▁알폰
▁축성
▁아브라
▁올리버
▁지리학
▁페르난도
▁프린스턴
AE
▁간혹
▁노랗
▁로브
▁손녀
▁순례
▁전권
▁토이
▁서기관
▁세네갈
▁후원자
▁1886
▁베네딕토
▁펫
너드
네트
뮬러
▁군관
▁세레
▁이봉
▁이산
▁장래
▁지난
▁고려사
▁알렉산드로스
▁이나
▁Gre
▁도르트
▁보좌관
▁전주시
▁웨스트민스터
▁굶
▁씻
네임
로쿠
EST
▁애초
▁재앙
▁파파
르타뉴
▁USB
▁헤라클
▁브르타뉴
▁뱃
분열
사태
▁co
▁두각
▁바시
▁저우
▁채색
▁통폐
▁풍습
▁교구장
▁이즈미
▁구스타프
▁송환
▁원유
▁포탄
▁브래드
▁생리학
큐어
▁거룩
▁미미
▁반주
▁수력
▁임계
▁정진
▁초전
▁파커
▁펀드
▁합천
▁드미트리
▁발의
▁번갈
▁소용
▁아디
▁펴내
▁260
▁베이시스트
▁덱
코르
▁긴키
▁대금
▁신진
▁조소
▁죄수
▁사단장
▁조나라
▁인플레이션
직경
▁댓글
▁살라
▁270
▁게시판
▁바이어
▁시직경
▁펭
▁깃털
▁너스
▁부양
▁서예
▁얼룩
▁보살상
▁스테인
레시
▁마나
▁마린
▁앨리
▁음운
▁일진
▁경영학
▁코소보
▁Tour
▁뮐
다보
우회
ron
▁맥아
▁유다
▁잘리
▁제르
▁현과
▁독립군
▁삼각주
▁새뮤얼
▁장제스
▁1887
▁도하
▁비우
▁퇴위
▁간사이
▁축구팀
꿈치
▁면모
▁모라
▁아자
▁약점
▁위패
▁포츠
▁강서구
▁금나라
▁이어주
▁통폐합
▁페미니
▁꽂
라호
▁수하
리카락
▁카운트
▁화요일
▁머리카락
▁브리티시
슈타
왕후
ave
▁ML
▁당황
▁도제
▁산물
▁서포터
▁유전학
▁도미니카
클라
ble
▁경무
▁도약
▁박수
▁오산
▁원상
▁유능
▁조현
▁코호
▁펠로
▁프루
land
▁근거지
▁덩어리
▁마르쿠스
19
지오
▁동창
▁레트
▁자궁
▁부분군
▁사절단
쓰기
코타
▁본체
▁출혈
▁역사학
▁용의자
▁모차르트
▁Dream
▁Up
▁it
▁망하
▁부류
▁단거리
▁재단법인
비안
▁KB
▁고창
▁도성
▁버크
▁여타
▁행방
▁사쓰마
▁1861
제비
▁무수
▁중개
▁직사
▁표하
▁집행유예
▁SV
▁단조
▁배척
▁악곡
▁엘런
▁유타
▁Life
▁프리미엄
▁물류
▁유머
▁타구
▁편안
▁형용
▁베이비
▁주니치
▁황해도
▁볼티모어
짜기
▁모닝
▁세분
▁에리
▁민영화
▁1864
▁석가모니
▁클레멘스
▁가닥
▁기밀
▁지아
러뜨리
▁해결책
철수
하임
▁오대
▁왕관
▁이호
▁데이빗
▁좌표계
ult
▁구문
▁불분
▁세무
▁장전
▁백악기
▁음악원
▁불러들이
▁스트리밍
DA
라르
콘신
▁급히
▁수이
▁승단
▁익명
▁공연장
▁장애물
▁위스콘신
▁SH
▁교지
▁박자
▁사하
▁에두
▁올레
▁완결
▁환관
▁당선자
▁쏟아지
▁광선
▁꺼리
▁나름
▁내포
▁홀딩
▁신세계
▁다카라즈카
즐리
플린
▁RT
▁모국
▁발톱
▁지면
솔리니
▁코스트
▁홈경기
▁남베트남
▁과연
▁슬램
▁오메
▁페스
▁홍성
▁후세인
▁1850
열차
▁라시
▁습득
▁모나코
▁프랑코
▁마을버스
ational
▁TC
▁과잉
▁마구
▁사내
▁슬프
▁오일
▁잔디
▁정예
▁천지
▁평탄
▁포화
▁Wii
▁바로크
▁집정관
EP
▁암모
▁양현
▁추존
▁특기
ition
▁1881
orm
▁ㄴㅛ
▁고모
▁위시
▁쿼크
▁허블
▁생성물
▁아무리
▁컨텐츠
▁행정동
▁렙
디슨
▁무자
▁실각
▁자릿
▁증세
▁촛불
▁파직
바도르
▁네티즌
▁참의원
▁토트넘
▁구례
▁레버
▁리트
▁만점
▁복위
▁워킹
▁착하
▁철강
▁홈즈
▁개정안
▁뛰어넘
▁마요
▁몰두
▁스모
▁하얀
▁혼혈
▁사나이
▁요금소
브웨
▁if
▁경건
▁백업
▁승하
▁어우
▁토목
▁히토
▁카이로
▁싹
▁삼척
▁짐바
▁푸아
▁크리에이
동자
▁객원
▁관내
▁괘불
▁다행
▁리에
▁차수
▁카와
▁노동력
▁대교구
▁사들이
▁유니버스
▁돗
린트
▁en
▁군세
▁외환
▁휘두르
▁1830
▁Music
예술
▁근래
▁방공
▁산기
▁아타
▁이력
▁잠실
▁재결
라호마
▁컴파일러
▁오클라호마
니오
뛰기
ton
▁도산
▁뷰티
▁에반
▁무작위
▁외무부
렌스
▁구획
▁동차
▁쓰루
▁자판
▁재판관
▁루스벨트
▁AG
▁계보
▁여건
▁코난
▁가해자
▁아카이
▁도라에몽
▁카르타고
▁XP
▁공판
▁남조
▁매진
▁스몰
▁예의
▁왕성
▁판관
▁화성시
아메리카
화경
▁러닝
▁민물
▁오우
▁요괴
▁전리
▁헌납
▁iOS
▁관련자
▁대표단
▁로맨틱
른베르크
▁미네소타
▁강세
▁건네
▁더하
▁부풀
▁승지
ject
▁경도
▁소라
▁아쉽
▁파주
▁마르셀
▁야구단
▁장난감
▁재판부
▁다비
▁말단
▁미상
▁벌레
▁아편
▁재벌
▁보너스
▁압록강
▁여학생
▁헤라클레스
평리
▁목욕
▁스윙
▁익산
▁침대
▁팔작
▁현미
▁황자
▁까마귀
▁보안법
라이어티
▁세르게이
▁버라이어티
림사
ION
▁Ed
▁남송
▁뒤늦
▁스기
▁이별
▁편하
타입
▁고하
▁김희
▁눈치
▁애슬
▁찍히
▁패권
▁농어촌
▁돋보이
▁바람직
▁불분명
달마
비오
▁딸리
▁루나
▁몸돌
▁별장
▁세간
▁이누
▁켄터
▁쿠로
▁파열
▁감리교
▁모멘트
▁반대파
▁1872
▁Open
▁an
▁금고
▁당진
▁마티
▁발포
▁양조
▁정황
▁체하
슬라프
▁ㄹㅓㄴ
▁이메일
▁주나라
▁이시카와
▁관용
▁닛산
▁엿보
▁용사
▁이은
▁조경
▁흑백
▁750
▁트레이닝
께끼
▁te
▁승상
▁신봉
▁트란
▁라치오
▁무솔리니
▁수수께끼
▁유라시아
덕왕
▁BL
▁교동
▁발자
▁베일
▁빅뱅
▁인제
▁종묘
▁종업
▁라이스
▁롬바르
▁합창단
▁대중교통
▁부다페스트
▁프란치스코
▁부전
▁조심
▁콘티
▁햇빛
▁허목
▁피닉스
어드
▁경매
▁배트
▁시원
▁알맞
▁다비드
▁초록색
▁대한항공
나파
ics
▁등등
▁레비
▁레아
▁모란
▁브렌
▁샤이
▁양면
▁원동
▁음주
▁중랑
▁Don
▁세군다
▁센다이
▁화학자
ru
더지
▁가든
▁경량
▁교제
▁꼬마
▁생도
▁전교
▁접합
브리드
▁하얀색
▁호크스
▁낭만주의
데자
쿠니
▁도봉
▁반죽
▁발산
▁복역
▁탄산
▁티모
▁범죄자
▁아이콘
▁청년회
▁파충류
데자네이
▁도르트문트
▁꿰
ier
▁두어
▁순항
▁야망
▁옹주
▁주고
ㅌㅇㅣ
▁탐험가
▁부르주아
▁ㄱㅏㅌㅇㅣ
▁엡
▁튼
▁가독
▁그란
▁기고
▁오트
▁의용
바인
번에
▁"-
▁납작
▁넥센
▁보정
▁삭스
▁장쑤
태평양
▁작품상
▁1863
▁1865
▁쵸
▁Ab
▁Sm
▁복직
▁친밀
▁캐피
▁개체군
▁계승자
▁밀가루
▁박영효
▁HTML
단위
워즈
클럽
▁과다
▁닌자
▁단국
▁대강
▁덴쇼
▁변종
▁슈고
▁의례
▁필연
▁격투기
▁하이브리드
루크
▁배향
▁이례
▁지경
▁챙기
▁페라
▁피카
▁유전체
▁챌린저
▁공군기지
▁발하
▁투하
▁편제
▁다시금
▁Night
리쿠
ode
▁곱셈
▁조시
▁탐정
▁피셔
▁경복궁
▁시간대
▁유니언
리야
▁봉황
▁어촌
▁코마
▁승정원
▁항아리
▁아이디얼
데자네이루
▁리우데자네이루
매김
▁진흙
▁태아
▁우간다
▁1891
▁교통사고
▁오카야마
훈장
▁기통
▁메츠
▁이니
▁작년
▁ret
▁고성군
▁기획사
▁조선소
▁켄터키
ool
▁거꾸
▁경마
▁당과
▁완비
▁철종
▁클릭
리아스
▁앤드류
▁여진족
▁타임즈
TE
▁AL
▁곡면
▁메우
▁애완
▁여호
▁처방
▁포대
▁발기인
▁세계유산
▁베스트셀러
타스
▁배아
▁법전
▁선율
▁잠기
▁청문
▁카슈
▁앞세우
▁해석학
QL
UC
친왕
▁--
▁대목
▁대의
▁란스
▁매스
▁미인
▁요즘
▁조공
▁받침돌
▁안산시
▁자유형
▁1873
▁려
ise
▁경지
▁두텁
▁픽셀
▁수시로
▁오스트리
▁자리매김
▁짐바브웨
▁반점
▁코뮌
▁혈압
▁휩싸
이스케
▁몰도바
▁쩔
▁매립
▁박진
▁벌리
▁살짝
▁상파
▁시진
▁여대
▁직관
▁해킹
▁후미
▁노르드
▁릴레이
ai
▁샨
ㅇㅜ
▁NS
▁도도
▁리브
▁조장
▁다국적
▁테무르
▁온타리오주
미쓰
쿠르
▁고난
▁구강
▁마모
▁쇼크
▁왓슨
▁입시
동맹
che
▁취향
올로기
▁포항시
▁이데올로기
레반
▁계좌
▁고마
▁단자
▁등단
▁신대
▁정명
▁충당
▁킹스
stem
▁와이드
▁제너럴
스레
▁MA
▁굴복
▁비키
▁자켓
▁재고
▁현무
부아르
▁난이도
▁승용차
▁시티즌
▁팔작지붕
▁Black
▁리키
▁어는
▁착취
▁촉발
▁필두
합중국
ㄱㅓ
린더
무제
▁루즈
▁부실
▁부추
▁열렬
▁튼튼
▁파기
▁한창
플렉스
▁발가락
▁제프리
세다
▁걸작
▁교서
▁국호
▁내재
▁라크
▁인위
▁입술
▁적발
▁합금
▁해시
ower
▁Can
▁슬로건
▁믈
▁과격
▁구슬
▁리자
▁반항
▁페인
▁공통점
▁백악관
70
▁PM
▁계엄
▁급하
▁라면
▁모함
▁버펄
▁볼넷
▁분경
▁불로
▁외상
▁체내
▁키즈
▁Good
▁스테이트
▁야쿠르트
▁section
NG
▁켜
성경
킨슨
▁광배
▁서위
▁양양
▁조준
▁최장
▁토유
▁헤어
▁공식전
▁매달리
▁삼국유사
▁네임
▁신의
▁그나마
▁트로트
▁아비달마
▁이바라키
바지
▁구시
▁병과
▁산책
▁양궁
▁위법
▁유태
▁터빈
▁토로
▁파랑
선거구
▁다마스
▁괜
▁qu
▁기쁘
▁부에
▁아뢰
▁야심
▁에치
▁을사
▁이강
▁하스
▁Let
▁선제골
▁종업원
▁증강
▁캐논
ㅂㅅㅣ
▁캐스트
▁q
▁머니
▁오즈
▁용감
▁현도
스코트
타나베
▁550
▁650
▁거꾸로
▁하반기
▁샵
▁El
▁MM
▁국부
▁당당
▁연화
▁우마
▁헌병
드라마
▁아오모리
▁이노우에
▁피츠버그
▁코호몰로지
펠러
ank
▁간판
▁광자
▁문정
▁산신
▁아델
▁진원
▁피어
▁국민회
▁앨버트
▁1862
▁1867
▁페르디난트
▁콧
▁AI
▁조어
▁진언
▁705
▁반정부
▁용산구
▁무로마치
▁미합중국
방군
▁모반
ings
▁알폰소
▁삐
▁극찬
▁무도
▁앵커
▁온건
▁채굴
▁투신
▁활자
▁김성수
▁지자체
해살이풀
▁댈
ㄹㅜ
▁경은
▁농성
▁맞춤
▁주저
▁경희대
▁변광성
▁폼페이
상어
정사
진구
▁소작
▁수퍼
▁흡연
▁미카엘
▁증조부
리언
▁무고
▁송진
▁해지
▁엑스포
▁국민학교
▁증발
▁통지
▁황폐
▁손잡이
▁자외선
▁사이타마현
DS
▁AU
▁스킬
▁연행
▁열쇠
▁조서
▁흔들
절도사
▁스코어
고르
렐라
티야
▁Ac
▁엘라
▁전멸
▁IMF
▁레인저
▁사보이
▁스테이
▁신한은행
대전
포타
▁광업
▁독주
▁옥시
▁코모
세우스
▁MSL
▁노르만
▁언론사
▁크루즈
▁타이탄
북면
▁대담
▁예종
▁온두
▁쿠라
레타리아
▁온두라스
▁프롤레타리아
인구
활약
▁걸프
▁꽃잎
▁병단
▁사교
▁성수
▁세단
▁심정
▁증식
▁푸드
▁서두르
▁연출가
▁조선왕조
비언
센터
▁군자
▁노브
▁보직
▁북벌
▁양군
▁타도
▁출입문
▁페드로
포타미아
▁6000
▁메소포타미아
lar
▁UC
▁나사
▁서한
▁위헌
▁충칭
▁캐치
▁감염증
▁맹활약
▁사무국
▁일본식
▁편집장
tr
▁썩
곡면
▁-&
▁LS
▁연달
▁장신
▁키릴
▁곁들이
▁기원후
할린
▁간결
▁나탈
▁동탁
▁버진
▁세토
▁신해
▁엘레
▁유구
▁잔존
▁조석
▁취리히
▁컴파일
▁다이노스
▁빠져나가
▁협동조합
▁캣
조리
투르
▁시역
▁유망
▁처치
▁갈아타
▁1878
▁라이프치히
ky
참찬
▁기묘
▁완수
▁치이
▁연주회
▁치료제
▁타타르
▁프로모션
사화
위치
▁Qu
▁번개
▁차림
▁필명
▁대리석
▁부여군
▁제조사
▁미나모토노
ta
젤로
퉁이
▁가극
▁동자
▁상선
▁유림
▁이끼
rist
▁웨이브
▁홀딩스
▁백과사전
▁궐
▁밋
디언
▁강호
▁괄호
▁저축
▁절약
▁충신
▁HMS
▁Ser
▁사대부
▁이성질
hem
▁ㅁㅗ
▁스톰
▁씌우
▁작중
▁지그
▁직교
▁신기록
▁낡
▁샴
▁DR
▁자행
▁처장
▁하중
▁히노
플로러
▁802
▁익스플로러
ee
▁뵈
빌리
산부
▁개기
▁국력
▁바쿠
▁사드
▁옥천
▁뉴기니
▁글로브상
▁일리노이주
▁킷
▁팍
▁당파
▁부군
▁자부
▁접전
▁지린
뉴기니
▁플루토
▁핵분열
▁팻
▁무너
▁서지
▁시르
▁완만
▁횡령
중추부사
▁무너뜨리
▁널
벤션
▁가물
▁국인
▁다량
▁라다
▁매슈
▁스에
▁애기
▁영사
▁일설
▁중용
▁지탱
▁참패
▁후드
▁And
▁액세스
▁입법부
▁주고받
▁플러그
▁스케이트
일치
▁tr
▁급성
▁행군
▁와세다
▁1869
다스
루엔
▁고찰
▁과자
▁매도
▁변모
▁적정
▁참수
▁자릿수
▁포뮬러
▁프라이즈
누마
다발
▁Ag
▁보류
▁업로드
▁페르미
▁프로테
▁고등학생
▁되돌아가
시게
▁길드
▁서점
▁육식
▁잉크
▁정박
시아드
▁마포구
▁와타나베
▁코퍼레이션
셔주
▁도발
▁솔라
▁점진
▁표출
▁봉우리
▁쿠르드
▁프리츠
▁유니버시아드
내티
▁객실
▁다목
▁청각
▁현악
▁형주
▁회유
▁ㄹㅏㄱ
▁원자핵
▁특별법
▁해부학
▁신시내티
▁키르기스
▁벵골
▁용해
▁무사히
▁방위군
▁수비대
▁비스마르크
▁몸체
▁북대
▁소피
▁오보
▁저해
▁직물
▁추후
▁포천
▁이브스
▁1592
▁명성황후
▁요리토모
정보
▁로시
▁면직
▁변증
▁텍스
▁패킷
▁포탑
▁표절
▁경쟁자
▁베르나
▁안동시
ae
▁밧
▁썬
▁강우
▁고국
▁영유권
▁친선경기
▁고을
▁근방
▁맛보
▁부관
▁부두
▁일선
▁잔해
▁항생
▁기동전
▁외교부
▁운동량
▁인코딩
▁장로회
▁AA
▁목동
▁서거
▁아이젠
▁인지도
▁프라임
OU
암사
▁글렌
▁논산
▁무비
▁손님
▁오자
▁용수
▁위도
▁치사
▁건륭제
▁부등식
▁생화학
▁탬
▁대타
▁무색
▁사부
▁수당
▁시시
▁콜드
ount
▁골짜기
▁제작진
▁지하역
▁기조
▁성품
▁수레
▁컴필
▁피처
▁오스카
▁스파이더
▁후지와라
▁컴필레이션
▁박원
▁빈민
▁자처
▁행보
▁마그네
▁수도회
▁팔꿈치
▁크리스티나
세르
티컷
▁그물
▁금색
▁지체
▁축일
▁토라
▁헤더
▁여객기
▁코네티컷
BI
네르
노르
▁RC
▁모티
▁반입
▁이목
▁쫓기
▁토키
▁폴라
▁금강산
▁불가피
▁Song
▁마스코트
▁로드리게스
▁단역
▁루피
▁린다
▁아어
▁자정
가르트
▁Mon
▁며느리
▁목적지
▁1840
▁파시스트
▁여우원숭이
pr
구스
수염
ata
▁귀인
▁내란
▁민심
▁상의
▁위즈
▁유화
▁지문
▁캐슬
▁516
▁레지스터
▁me
▁가비
▁고제
▁병풍
▁빅터
▁수급
▁사생활
▁연예계
▁유년기
▁힐베르트
▁랙
per
▁닉스
▁디나
▁사소
▁추축
▁하라
▁헤일
▁네이트
▁로타르
▁창립자
▁return
▁볶
마디
자원
ade
▁KN
▁다쓰
▁소박
▁심소
▁출국
▁하수
스타인
▁리차드
▁에이전트
▁프랑스와
▁Heart
블릿
▁블러
▁자취
▁유엔군
▁매킨토시
▁사이언스
▁심리학자
▁지장보살
▁아나톨리아
작전
효소
히메
▁국화
▁유이
▁절친
▁쿼터
▁풍기
▁헤겔
▁글러브
▁종착역
▁히타치
▁Pe
▁가방
▁공상
▁그거
▁발착
▁분별
▁유골
▁유자
▁입출
▁탁구
▁튜브
▁티저
▁테크놀
▁파주시
▁필사본
사우루스
90
찬성
▁ab
▁거창
▁벤츠
▁성가
▁숙소
▁자질
▁출세
▁바닷물
▁패스트
▁와카야마
▁Windows
▁펜실베이니아주
▁낯
▁영미
▁영수
ㅇㅡㄴ
이치로
▁과반수
▁스트림
▁시니어
▁예언자
테랑
▁계룡
▁국세
▁농가
▁라라
▁변질
▁여포
▁이카
▁전단
▁천상
▁나치오
▁보유자
▁어도비
▁벳
날드
ium
▁겸직
▁넘버
▁란트
▁상과
▁상식
▁쌍성
▁자루
▁패망
▁강력히
▁구단주
▁영등포구
▁바쁘
▁백조
▁성대
▁수만
▁암수
▁퀴즈
▁8000
▁그린란드
▁남아시아
IX
▁단서
▁라프
▁바인
▁스택
▁염화
▁청취
▁최하
▁그래도
▁알프레드
▁세인트루이스
IF
▁강인
▁거사
▁온실
▁워스
▁조비
▁초음
▁흥원
▁적십자
▁지질학
▁Gl
▁렉스
▁악명
▁연중
▁윤휴
▁의주
▁휘발
계사
던트
부시
어하
▁괜찮
▁기행
▁베오
▁오시
▁페레
넌트
전선
히데
▁PL
▁권익
▁동호
▁중견
▁떠올리
▁세미나
▁시미즈
▁안창호
▁헤르만
▁1875
링겐
선언
욕장
▁문중
▁삭감
▁준동
▁하구
변속기
▁고문서
▁집단군
▁휩싸이
▁Aw
▁노현
▁상동
▁실상
▁Out
▁이와테
▁진주시
▁근본번뇌
▁데카르트
수단
탄두
▁As
▁가곡
▁에트
▁외척
▁의복
▁피살
▁보리스
기즈
테이
▁능가
▁독살
▁바보
▁웍스
▁유카
▁뒤따르
▁비둘기
▁되돌아오
▁기린
▁끌리
▁숙련
▁콜린
▁나리타
▁댈러스
▁맥아더
▁예비역
▁VS
▁강습
▁반론
▁볼록
▁수증
▁왜군
▁임종
▁저그
▁침식
▁키리
▁사이즈
▁엇갈리
기아
itt
▁니케
▁미지
▁설리
▁아다
▁철자
▁최남
▁혼잡
▁Gen
▁KTX
▁담당자
▁회고록
▁아우구스
구니
▁들르
▁선상
▁월화
▁텐서
▁파랗
레이트
▁AMD
▁관심사
▁컨벤션
어가
이에
son
▁sh
▁다름
▁디바
▁사각
▁신지
▁용지
▁이선
▁표제
▁게임기
사유
▁걸음
▁김두
▁다자
▁예프
▁원단
▁이심
▁친화
▁컵스
▁리스본
▁안타깝
▁치료법
▁고등교육
▁아나키스트
▁귀엽
▁규율
▁노원
▁도적
▁생원
▁어사
▁이희
▁일명
▁아세틸
▁통도사
▁파라오
▁남양주시
보당
▁교파
▁뉴런
▁로사
▁박히
▁인승
▁징집
▁키드
▁타나
▁해트
▁호그
▁돌고래
▁북극점
▁운전자
▁칭기즈
▁함경도
세서
▁DB
▁단양
▁뒤지
▁미학
▁방울
▁시찰
▁여럿
▁위크
▁은밀
▁표트르
▁모자이크
▁포르투갈어
어류
▁금정
▁셔틀
에이고
▁매디슨
▁친환경
▁병자호란
▁샌디에이고
PA
방향
▁TS
▁교훈
▁목장
▁에레
▁태안
세데스
▁가환환
▁다이쇼
▁레스터
▁크메르
▁피의자
▁학술지
알라
▁구루
▁문체
▁서약
▁아지
▁질투
▁집전
▁출품
▁취직
able
▁꽃차례
▁스케치
▁테오도
▁뉘른베르크
▁메르세데스
날레
▁기운
▁김연
▁닥치
▁로큰
▁생쥐
▁실명
▁안중
▁양파
▁원효
▁의성
▁의정
▁잠입
▁직렬
▁타쿠
해방군
▁광둥성
▁이사벨
▁토요타
크라테스
▁몽고메리
▁인민해방군
▁브란덴부르크
▁눌
▁땀
▁리크
▁서당
▁슈투
▁절충
▁정오
▁첩보
▁포인
록대부
▁신석기
▁연속극
▁장갑차
▁중앙선
▁디디
▁문관
▁바늘
▁체로
▁한민
▁성폭행
▁일부러
▁코트디
▁클리어
▁항공대
▁쳐들어오
▁코트디부아르
은사
ale
▁버트
▁선체
▁양지
▁열세
▁터너
▁호른
▁"()
▁비단털
▁쇼핑몰
▁크라운
▁클레어
ng
몽골
▁교관
▁달콤
▁로바
▁막강
▁면담
▁380
▁로큰롤
▁바나나
▁슈타인
▁아리랑
▁야마다
스코리아
▁비단털쥐
▁저널리스트
더링
▁기공
▁몹시
▁방호
▁변혁
▁인먼
▁로버츠
▁반감기
▁부적절
▁통신망
▁파스칼
▁안드로메다
놀드
부대
▁교화
▁레몬
▁모질
▁스펜
▁어부
▁영락
▁자장
▁폐허
▁데이트
▁스피커
엽수
우주
조사
촌리
▁래리
▁배반
▁야수
▁외면
▁강대국
▁싫어하
▁행해지
▁금환
▁세일
▁착각
▁특공
루엔자
▁708
▁선거인
▁송파구
▁정치국
▁바빌로니아
박사
행파
▁감기
▁명상
▁서클
▁순식
▁잉카
▁정에
▁향신
▁상반기
▁이랜드
▁종사자
▁오프라인
두사
르카
크리
▁가모
▁구아
▁모피
▁보그
▁비료
▁성행
▁수마
▁수은
▁술라
▁안식
▁예식
▁왕래
▁일차
▁환율
▁대항전
▁베르트
▁University
니에
뻐하
▁기마
▁보우
▁아노
▁엔젤
▁이홍
▁장정
▁정칙
▁즐거
▁헤센
▁후루
▁ATC
▁Vol
▁ㄹㅗㄹ
▁기뻐하
▁맥스웰
▁프론트
▁합성어
▁관음보살
▁라이베리아
▁탭
세키
▁At
▁문수
▁사주
▁슬리
▁Par
▁형용사
▁끌어올리
▁KO
▁WC
▁구세
▁규약
▁라울
▁마레
▁모체
▁위트
▁205
▁강희제
▁보호법
▁사할린
▁콘라트
건설
▁경순
▁데일
▁샤르
▁야코
▁정언
▁데뷔작
▁채권자
▁쇼트트랙
▁보컬리스트
쿠사
▁거머
▁동거
▁야권
▁율법
very
▁슈미트
▁벙
시대
▁JC
▁경의
▁극소
▁로니
▁실은
▁중일
▁건너오
▁캐스터
▁통계청
▁엑스박스
▁페널티킥
▁싯
연구
▁가명
▁결전
▁미첼
▁베티
▁외손
▁조봉
▁출격
▁치마
▁활기
▁보조금
ㄴㄷㅏㄴ
▁조선공산당
▁텅
모음
▁IR
▁기판
▁박용
▁실사
▁월남
▁이질
▁토피
▁235
▁DOS
▁되풀이
▁마주치
▁인플루엔자
▁동군
▁등산
▁라벨
▁상계
▁수역
▁시의
▁외할
▁칸트
▁후한
▁NBC
▁가이아
▁개그맨
▁사학자
▁호흡기
▁name
벌리
사와
▁군복
▁양서
▁에노
▁자키
▁호로
▁획기
▁스케줄
▁시마즈
▁가세
▁구타
▁기미
▁사미
▁안톤
▁에코
▁우기
▁정글
폴리탄
▁메트로폴리탄
▁엣
▁남단
▁모사
▁불쾌
▁서안
▁석기
▁염두
▁자위
▁후이
▁남극점
▁스케일
▁로베르토
화당
▁내림
▁비옥
▁초계
▁코바
▁화승
▁지하철역
▁셴
황색
▁경화
▁노카
▁리나
▁마흐
▁아연
▁외삼
▁웨어
▁재화
▁집사
▁타시
▁풀백
▁사무관
▁자격증
데기
▁cc
▁경종
▁금하
▁나기
▁버니
▁양극
▁종가
▁카로
▁칼륨
▁포니
▁순식간
▁브로드웨이
co
so
루즈
르산
▁골절
▁나한
▁병렬
▁실효
▁열악
▁하산
▁tvN
▁당뇨병
▁로페스
▁조각상
▁미스코리아
18
그램
보라
에쓰
▁라가
▁배당
▁유충
▁화원
ㄴㄷㅐ
▁시그마
▁신호장
▁열역학
▁천도교
▁테두리
▁랠
양이
▁복부
▁불복
▁시제
▁안팎
▁창구
▁키트
▁그레이엄
▁파푸아뉴기니
yn
큐슈
텐셜
ATO
▁고층
▁균일
▁띄우
▁부엌
▁세스
▁신병
▁양평
▁요직
▁족장
▁칠성
▁키타
▁패치
▁공주시
▁동아리
▁카디널
▁유가행파
▁중앙아메리카
열대
▁뉴멕
▁마늘
▁무능
▁무예
▁산조
▁솜씨
▁케리
▁협곡
▁라스트
▁안드레
▁최성기
▁뉴멕시코
▁우두머리
IVE
ala
▁박재
▁오마
▁은폐
▁이달
▁일주
▁정승
▁줄곧
▁홍익
▁안양시
▁스틸러스
▁일렉트릭
▁리시
▁일간
▁중남
▁침범
스크림
▁간호사
▁거주자
▁무지개
▁퍼텐셜
▁1874
▁This
악산
주크
▁결말
▁넷플
▁동백
▁레나
▁안심
▁애착
▁이색
▁통솔
▁넷플릭스
▁맴
시험
▁ㅅㅏ
▁기닿
▁기스
▁묘호
▁악당
▁축복
▁포자
▁김해시
▁동남쪽
▁반대편
▁콘퍼런스
▁잼
윽고
징어
▁sp
▁읍성
▁잔혹
▁재보
▁대수학
▁앞바다
▁에스컬
▁이윽고
▁조각가
▁항공편
▁후쿠이
▁바그다드
▁에스컬레이터
▁벚
신저
▁다쿠
▁숙박
▁젠더
▁조동
▁학당
▁204
▁컨퍼런스
▁퀄
운수
▁가뭄
▁라플
▁소론
▁이문
▁일삼
▁쿠마
진보당
▁게임즈
▁저스틴
▁지리산
▁프레슬리
ax
me
나들
▁리타
▁베크
▁잔여
▁캠벨
▁판명
▁한복
▁향수
▁클로드
소문
ody
▁낭비
▁몰수
▁발작
▁싱크
▁인스
▁한겨
▁가요제
▁뉴올리
▁트레일
▁1877
▁콜럼버스
▁뤄
▁송이
▁옥사
▁잉여
▁품목
▁루이즈
▁휴대폰
▁호소카와
▁서아프리카
▁알렉산데르
프랑
▁대류
▁메모
▁사중
▁애드
▁차오
▁클랜
▁다가가
▁원주시
▁바이마르
▁멀티미디어
더릭
민당
▁단발
▁도형
▁무가
▁상한
▁에페
▁코로
▁공학자
net
▁GR
▁강좌
▁손목
▁탄수
▁하지
▁APG
▁Bab
▁교육감
▁재미있
▁참전하
▁슈퍼스타
GB
▁쿰
anc
▁SR
▁델리
▁본존
▁소양
▁순찰
▁예멘
▁확충
▁흐리
▁사하라
▁허베이
▁7000
▁오아시스
양구
혈구
ash
ose
▁격전
▁곤살
▁그르
▁바니
▁복속
▁빌드
▁주군
▁코크
▁토바
▁행선
▁브리스
▁핸드볼
oid
▁경내
▁그립
▁양천
▁총영
▁컨설팅
▁Best
바드
변수
▁가온
▁고승
▁맞물
▁아킬
▁출사
▁성폭력
▁스타드
▁중거리
▁채무자
▁플루토늄
22
au
를레
▁AF
▁로망
▁모치
▁무주
▁오구
▁재회
▁처마
▁카일
야누스
▁비잔틴
▁셀주크
▁콜린스
14
ps
높이
ict
▁et
▁너희
▁산체
▁선단
▁엄지
▁에볼
▁인성
▁한겨레
▁기울어지
▁캄파니아
비에
▁미겔
▁블랑
▁석권
▁시발
▁요가
▁점하
▁추계
▁코린
▁Her
▁강화군
▁부르봉
▁수백만
▁엘비스
▁다카하시
▁트라야누스
▁아우구스투스
일기
▁AE
▁강국
▁산문
▁소인
▁인계
▁자성
▁여운형
▁오릭스
▁Hell
▁돌려보내
▁메모리얼
▁클러스터
남면
피크
▁관아
▁깔리
▁나투
▁바야
▁방학
▁소르
▁앞뒤
▁유창
어나오
▁한국군
▁1859
▁만장일치
▁KS
▁ㅁㅓ
▁감축
▁공문
▁노하
▁문맥
▁원사
▁전조
▁제지
▁ㄹㅏㅁ
▁경부선
▁오르간
▁전시관
▁콘티넨
▁포식자
▁툼
▁us
▁결장
▁도안
▁라임
▁민원
▁사연
▁선과
▁숙명
▁지령
▁CIA
▁서스펜
▁앙드레
▁1700
▁프리큐어
범죄
장사
제철
토크
▁가선
▁거시
▁레크
▁뮐러
▁소주
▁승률
▁중건
▁펭귄
▁아파치
▁청문회
▁혼합물
형제
▁건지
▁도부
▁도읍
▁두뇌
▁명왕
▁미켈
▁미트
▁우표
▁율리
▁이씨
▁태화
▁퇴진
▁교육학
▁루카스
▁연방군
▁클레오
13
15
EEE
▁곡식
▁네브
▁니즈
▁뚜껑
▁발판
▁밸브
▁스플
▁완장
▁화염
▁개화파
▁거머쥐
▁게이밍
▁아놀드
▁오리엔
▁외계인
▁갈릴레오
▁문물
▁볼드
▁스펙
▁원문
▁제비
▁퇴치
▁518
▁사다리
▁우에노
▁현미경
데일
란다
로트
▁대입
▁서품
▁요도
▁통찰
▁플랑
▁순천시
▁울트라
▁미야기현
▁자이언트
▁자카르타
계약
나시
▁공병
▁나일
▁리안
▁모교
▁산재
▁예금
▁의제
▁허물
▁곧이어
▁억제제
▁인류학
▁핵탄두
▁사무라이
▁테크놀로지
VA
완다
▁se
▁롤러
▁사병
▁앨라
▁재물
▁푸젠
▁함장
▁화소
▁625
▁아키텐
▁라이센스
▁멱
마을
▁구가
▁되살
▁뒤덮
▁벗기
▁상감
▁왕당
▁전범
▁이론가
주석
uck
▁SO
▁구전
▁바투
▁백운
▁블룸
▁츠카
▁투사
▁화음
▁빌바오
▁레닌주의
▁^
▁뮈
▁챠
무장
▁과세
▁부식
▁쓰리
▁지크
▁이케다
de
▁켐
매기
투리
▁YG
▁아누
▁제니퍼
▁스테파노
동원
버터
▁만지
▁바젤
▁박찬
▁발터
▁북측
▁산남
▁차명
▁후견
▁바스크
▁직사각
▁환승역
▁IEEE
▁아드리아
▁크리스틴
HL
고사
▁거병
▁경합
▁레티
▁기념장
▁목표물
▁서태지
▁탈레반
▁아이스크림
▁웜
과학
나주
재판
▁무공
▁억울
▁총감
▁테헤
▁후회
▁난쟁이
▁돌려주
▁미성년
▁아이치
▁이치현
▁쓰러뜨리
▁샷
▁변론
▁사와
▁상환
▁속국
▁왕명
▁원점
▁자갈
▁피자
▁하후
▁회차
reak
▁결의안
▁선제후
▁출장소
▁트레인
▁고바야시
주사
▁덮치
▁북인
▁산술
▁서체
▁오와
▁전서
▁코이
▁튜링
▁340
▁케이드
▁아미타불
▁뉴클레오타이드
스톤
▁ㄱㅡ
▁김학
▁리언
▁이창
▁일어
▁정청
▁특명
▁가치관
▁마코토
▁빈센트
▁셰퍼드
▁순교자
▁쓰촨성
▁향신료
▁FF
▁경원
▁뉴잉
▁담양
▁로디
▁만류
▁알로
▁여정
▁자네
▁장경
▁적법
▁하층
▁희미
▁로저스
▁이주민
▁출판물
▁소아시아
▁카디널스
oo
티지
ail
▁as
▁로보
▁진천
▁청정
▁후면
▁미트라
▁지석묘
▁통계학
스퍼
▁관군
▁근간
▁논증
▁도끼
▁전봉
▁조회
▁화풍
게이트
▁길거리
▁볼프강
▁해인사
▁Star
▁서바이벌
▁매사추세츠주
HC
▁펙
패드
▁관위
▁백지
▁법규
▁사산
▁섹션
▁용맹
▁원만
▁정역
▁헬스
▁달려가
▁레이건
▁로스트
▁이광수
▁정착지
▁긋
르바
조류
▁군기
▁맹렬
▁베다
▁보어
▁어선
▁우니
▁이만
▁주포
▁헤라
▁홀수
▁가우스
▁실린더
▁튀어나오
▁구라
▁발광
▁베가
▁양동
▁일면
▁입찰
▁자백
하마드
▁310
▁대혁명
▁국가원수
▁Super
▁my
▁나바
▁보국
▁수주
▁아칸
▁오인
▁젤리
▁퇴출
▁개막식
▁개척자
▁대사간
▁얄
▁짚
댓값
배마
장조
▁거문
▁달력
▁사생
▁수프
▁커브
▁평방
▁Sun
▁국내선
▁예문관
▁원정대
▁카리스
▁앨라배마
플레
▁개경
▁결여
▁공석
▁도매
▁멜라
▁발진
▁상설
▁안주
▁짝수
▁추장
▁209
▁바빌론
▁불러오
▁울주군
▁끔
▁교감
▁김우
▁로코
▁사탄
▁손수
▁폐차
▁호화
떨어지
▁후쿠시마현
소니
▁김도
▁승낙
▁추밀
▁타밀
▁통감
▁폐하
▁you
▁오슬로
▁자치현
▁그래픽스
▁어우러지
▁유니코드
▁뉴잉글랜드
▁뽀
학파
iel
▁교인
▁근세
▁금관
▁김주
▁명륜
▁미러
▁부락
▁산정
▁시력
▁연해
▁토프
▁무신론
▁브레멘
▁셀레우
▁윤치영
▁콘스탄티누스
TF
어놓
▁과달
▁맞배
▁박경
▁성조
▁타파
▁탄두
▁피그
▁교황령
▁르완다
▁삼거리
▁1812
▁Soul
▁ad
▁김덕
▁로컬
▁상층
▁정실
▁터스
▁대관식
▁디에고
▁에이브
▁자오선
▁오토바이
▁무형문화재
초프
티어
vel
▁Kn
▁강유
▁로런
▁보디
▁속초
▁수문
▁유틸
▁의인
▁장강
▁충동
▁206
▁대제학
▁송진우
▁아스카
▁에이지
▁페스트
▁ICBM
▁모니터링
▁선거관리
▁알렉세이
▁유틸리티
▁선거관리위원회
59
의식
▁닷컴
▁떠돌
▁뚫리
▁루손
▁산인
▁선별
▁어학
▁장지
▁지검
▁지카
▁템플
▁항문
▁호국
▁호이
▁단말기
▁아니면
▁자본가
▁한자어
▁근위
▁나시
▁무진
▁아호
▁안면
▁주유
▁투니
하우스
▁대대장
▁에세이
▁아이파크
▁Christ
▁쑹
디드
▁늦추
▁다윗
▁무위
▁센타
▁수구
▁어지
▁코우
▁여수시
▁음식점
▁서비스업
▁중앙일보
도감
샤오
ute
▁금천
▁루드
▁메드
▁모션
▁문건
▁빨강
▁산동
▁샤오
▁스쿼
▁주거지
▁안토니우스
구미
면적
▁배타
▁법상
▁세제
▁장이
▁쪼개
▁풀이
시아키
▁록히드
▁슈투트
▁조광조
▁주제가
▁건국훈장
▁슈투트가르트
EA
탄올
▁ON
▁Tw
▁매듭
▁변성
▁수질
▁점토
▁차역
▁철기
▁콜론
▁해주
공화당
▁조르주
▁1879
▁막시밀리
▁민주공화당
OK
네오
▁Mi
▁그늘
▁동급
▁솔리
▁기생충
▁로널드
▁안데스
▁접미사
▁John
버라
▁로지
▁버밍
▁수라
▁조던
▁집적
▁춘계
▁747
▁고지대
▁보이즈
▁테헤란
▁베르사유
▁북대서양
구나
▁HP
▁걸스
▁당상
▁마다
▁범람
▁세밀
▁슬러
▁이건
▁초식
▁카보
▁하강
▁안철수
▁파르마
gh
무지
▁교재
▁대방
▁도자
▁손쉽
▁양원
▁의논
▁천자
▁백두산
▁연대장
▁제이크
▁조봉암
▁카지노
▁피어스
RI
방스
▁Mr
▁울루
▁유계
▁진심
▁초회
▁석회암
▁의병장
▁IF
▁도파
▁양념
▁카토
▁CoA
▁des
▁독재자
▁사우디
▁름
화산
▁귀순
▁영도
▁위축
▁유세
▁이코
▁콘스
▁App
▁바닷가
네프
▁공경
▁규합
▁대여
▁아람
▁임실
▁자석
▁청일
▁포상
▁420
▁라그랑
▁태블릿
▁아브라함
▁뉴올리언스
▁일렉트로닉
슐리
▁관개
▁구비
▁농담
▁동맥
▁부기
▁사파
▁소량
▁유보
▁카펠
▁쿠시
▁클럭
▁휴일
로세서
▁개개인
▁레코딩
▁여행자
정변
팩스
▁노역
▁듀스
▁방탄
▁스완
▁스텐
▁영종
▁카파
▁컬링
레틱스
▁사가미
▁암스트
▁여러분
리아누스
▁애슬레틱스
분투
▁국문
▁군마
▁노마
▁단수
▁두부
▁딱딱
▁모태
▁수족
▁호시
▁황위
라이스
▁글리제
▁리그컵
▁무사시
▁썸
바퀴
연맹
▁가창
▁과감
▁권투
▁동대
▁머큐
▁반달
▁불문
▁스킨
▁일보
▁카다
를레앙
▁니가타
▁아이작
▁인산화
신보
▁고후
▁기권
▁두스
▁비오
▁소포
▁전열
▁최용
▁트리스
▁주머니쥐
▁꽝
▁보아
▁상이
▁원한
▁인삼
▁체리
▁국방군
▁알칼리
▁Record
블릭
VID
ull
▁강가
▁김시
▁니치
▁반납
▁양정
▁정맥
▁현수
▁440
▁원종공신
▁쿵
▁"|
▁광시
▁불능
▁인척
▁할구
▁호적
▁잠비아
▁테크노
▁print
▁아우구스트
▁PA
▁끊이
▁시타
▁애호
▁용역
▁유상
▁조우
▁처칠
▁풍요
▁변호인
▁들어올리
▁타지키스탄
▁public
링크
박이
산업
선교
▁끔찍
▁대등
▁리퍼
▁폴로
▁후추
▁Str
▁바실리
▁수영장
▁오메가
▁항생제
길준
자드
▁DO
▁po
▁궁주
▁능숙
▁도나
▁부트
▁부화
▁빛깔
▁왕녀
▁중등
▁커리
▁타라
▁게이오
▁스위트
▁엘리스
▁영사관
▁퀼
반정
태자
▁Gu
▁낯설
▁동하
▁미타
▁신익
▁아로
▁용문
▁차차
▁해커
▁Per
▁그러면
▁본거지
▁오토모
▁유기체
▁클라리
▁합병증
NT
수지
장군
티보
▁nm
▁나토
▁남경
▁노엘
▁성현
▁열람
▁은평
▁자각
▁종실
▁항전
▁환산
▁산투스
▁실리콘
▁여주인
▁허버트
▁쑨
레미
자나
▁감당
▁금기
▁리노
▁아루
▁예보
▁유민
▁이한
▁잇달
▁전곡
▁제고
▁군주제
▁야구부
▁양산시
▁엔리케
▁영화관
▁페이퍼
바이러스
▁파르티아
덕궁
▁교학
▁사나
▁성자
▁소진
▁유관
▁접목
▁제방
▁증축
▁퀸스
▁환초
▁흐트
▁공성전
▁바레인
▁오우치
▁엔지니어링
대비
▁기시
▁동두
▁라쿠
▁문어
▁압수
▁콜리
▁타선
▁투병
▁시에라
▁2500
▁천문단위
▁ㅇㅡㄹㅅㅜ
▁다마스쿠스
황제
▁리지
▁명동
▁무패
▁북마
▁앙상
▁열거
▁요셉
▁이설
▁코인
▁화이
로그램
▁256
▁기본법
▁엘리엇
▁제시카
▁조용히
▁초고층
▁카스텔
▁플래닛
▁불법행위
16
쿠치
▁게놈
▁군도
▁담수
▁당장
▁식이
▁온전
▁자존
▁파고
▁Win
▁비행사
▁왕당파
▁캅카스
▁리바운드
25
포리
ual
▁바바
▁사스
▁수아
▁우타
▁투기
▁ㅁㅓㄴ
▁랴오닝
▁살아오
▁즐거움
발트
일체
▁논평
▁매복
▁사목
▁사체
▁아역
▁앉히
▁코니
▁피질
▁헐리
ogle
▁부추기
▁크리스탈
▁헬레니즘
데오
▁실베
▁오차
▁왕좌
▁유미
▁카츠
▁Hot
▁리바이
▁이세이
▁접근성
자락
▁교명
▁균등
▁내시
▁농협
▁성교
▁역동
▁이석
▁접시
▁중신
▁패자
▁향로
▁호찌
▁호투
고로드
▁광합성
▁남북조
▁브루노
▁리치먼드
ty
스틱
커우
▁라사
▁셔츠
▁응력
그래피
▁버스터
▁부서지
▁예수교
▁사이클론
▁뜯
▁캥
▁담임
▁동체
▁시영
▁왕릉
▁코일
▁힐스
▁208
▁예비군
▁제주시
▁조연상
▁주둔지
▁춘천시
▁대법원장
ㅁㅏㄹㄹㅗ
▁아미타여래
무트
울루
▁CA
▁Ke
▁마거
▁상회
▁석재
▁아구
▁이보
▁베이직
▁오이타
▁유도탄
▁페르시
▁프리드
▁1789
▁ㅣ
다임
▁가결
▁광동
▁부안
▁시온
▁탈피
▁행운
던지기
▁맞물리
▁Back
RNA
▁HS
▁mu
▁미녀
▁성형
▁스팀
▁정직
▁촐라
▁칠곡
▁할로
프리드
▁911
▁머큐리
▁부러지
▁사무엘
▁스텔스
▁유길준
▁잠재력
▁조제프
▁후유증
▁1801
▁플랑드르
는점
평면
▁금리
▁반정
▁반향
▁소노
▁양구
▁예쁘
▁쿠루
▁킬러
▁트램
▁히코
▁지극히
▁기타큐슈
▁곱하
▁느슨
▁득실
▁지브
▁진성
▁초석
리오스
▁네바다
▁렌더링
▁아르테
▁1400
▁암스트롱
▁패러다임
▁포틀랜드
ll
인산
▁Fl
▁녹이
▁누마
▁바타
▁봉분
▁악어
▁안시
▁MIT
▁고다이
▁들여오
▁영문학
▁Kore
▁KD
▁강자
▁고독
▁이크
▁파피
▁Get
▁재결합
▁호기심
▁남한산성
▁비로자나
▁MD
▁NM
▁영성
▁원곡
▁유독
▁윤곽
▁총생
▁치킨
▁침수
▁깨어나
▁NATO
스텐
▁개표
▁기피
▁신천
▁실책
▁애프
▁오웬
▁중학
▁폐교
▁370
▁길버트
▁내몽골
▁로런스
▁사망률
▁사천왕
▁양평군
ox
▁갑신
▁강타
▁군량
▁그릴
▁기한
▁깊숙
▁여관
▁작자
▁영장류
▁웨슬리
▁프린세스
불명
▁가전
▁거품
▁교란
▁구부
▁동률
▁멘델
▁정중
▁조율
▁즉흥
ames
▁다행히
▁슈트라
▁판매고
▁NA
▁NL
▁겨냥
▁구애
▁약품
▁워낙
▁채집
lect
▁매니아
▁생산자
▁선수상
▁요나라
▁항공우주
▁Intern
▁킵
로움
제사
▁균열
▁극회
▁대용
▁도화
▁승선
▁전과
▁준하
▁총국
▁치밀
▁방법론
▁붉은색
▁브릿지
▁앙상블
▁토론회
▁드래곤즈
▁슈트라우스
▁렬
▁쐐
▁국산
▁군림
▁노골
▁발열
▁승마
▁에픽
▁우디
▁커넥
▁코딩
▁타키
▁트론
▁마운틴
▁불거지
▁알베르
ology
▁미식축구
▁탄수화물
▁관원
▁관저
▁내기
▁노름
▁미로
▁민선
▁사조
▁얼리
▁예편
▁첫날
▁출정
▁코디
▁현관
▁호지
▁후난
▁오리건
▁지배하
피카
let
▁세타
▁신궁
▁쐐기
▁제헌
▁청중
▁탄력
▁남아공
▁동일시
▁디렉터
▁부천시
▁추축국
▁흘러가
ature
▁독립선언
▁생물학자
▁이마가와
▁해수욕장
▁셀레우코스
YP
빨리
▁먼로
▁변천
▁쌍용
▁케로
▁Mag
그라운드
▁Baby
▁리하르트
레븐
모닉
▁가변
▁기일
▁니트
▁무루
▁미디
▁성부
▁안건
▁열기
▁장승
▁지회
▁카인
▁캔터
▁디아스
▁마거릿
▁메신저
▁미요시
▁클라인
▁레오나르
라과
ove
▁군위
▁궁수
▁악의
▁책정
▁광주시
▁방문객
▁베테랑
▁작아지
▁서귀포시
▁에두아르
경찰
락부
백색
의금
이상
▁구명
▁누에
▁다채
▁생포
▁안락
▁초판
▁흉내
▁급속도
▁범어사
▁블러드
▁신안군
▁와이어
▁주세페
▁태양광
▁돼지고기
17
남동
enn
▁Cr
▁공훈
▁레저
▁로만
▁베아
▁오랑
▁주스
▁진위
▁최순
▁탄광
▁효성
코비치
피에르
▁225
▁고스트
▁기네스
▁부사장
▁요시카
▁최진실
▁콜라보
▁페라리
GO
득점
▁BB
▁고관
▁레반
▁리라
▁무소
▁제타
▁출항
▁카노
▁캡틴
▁탄성
▁파출
▁하세
스트림
inal
▁GPS
▁나카노
▁다카시
▁리카르
▁시나노
▁베오그라드
▁안티오키아
▁둠
▁씬
▁강구
▁경산
▁김장
▁나날
▁도보
▁사옥
▁수화
▁유재
▁천태
▁카불
▁피시
▁합장
▁호전
▁김종직
▁두더지
▁이치로
▁게오르기
▁트로츠키
▁프레더릭
▁갸
파니
ors
▁매튜
▁박태
▁비방
▁사일
▁생장
▁연어
▁철근
▁하츠
▁황하
말라야
▁강릉시
▁만주족
▁혈액형
능력
무실
▁DA
▁가령
▁무쓰
▁잔치
▁출병
▁365
▁유물론
▁이유로
▁체육회
▁니카라과
▁서대문구
▁선거인단
▁뿜
덱스
훈련
▁대소
▁불길
▁운석
▁틈타
▁Res
▁거듭나
▁스펜서
▁이지스
▁타일러
▁Amer
▁로베르트
광사
금속
심원
▁개리
▁고취
▁공지
▁교내
▁깁슨
▁도식
▁명장
▁살레
▁외가
▁조너
▁키치
▁포메
▁효모
▁흡입
▁207
▁동북부
▁브루크
▁아열대
▁인문학
▁해수면
TN
마니
메랄
▁결투
▁레르
▁만물
▁명중
▁베라
▁브이
▁야만
▁유감
▁장차
▁통킹
▁풋살
▁스태프
▁스트라
▁지방도
▁프린터
▁후반전
노스아이
노스아이레스
▁부에노스아이레스
24
app
▁개축
▁도량
▁듀엣
▁사계
▁에든
▁조엘
▁직각
▁천적
▁청군
▁한꺼
▁감마선
▁무정부
▁알레산
▁압둘라
▁에든버러
▁한꺼번에
▁히말라야
▁아르바이트
FS
즈미
질량
▁OK
▁공평
▁라테
▁봉헌
▁세도
▁솔직
▁습도
▁신안
▁유익
▁친히
▁퇴계
▁흑색
이즈미
▁Way
▁일제히
▁페레스
▁맞닿
▁모잠
▁미끄
▁미추
▁박동
▁북송
▁비이
▁전극
▁폭주
▁한라
▁핼리
▁농민군
▁어드밴
▁조합원
▁1815
▁1820
▁모잠비크
갱이
나비
시카
월드
ina
▁격침
▁내역
▁담장
▁변조
▁양위
▁증류
▁표어
▁야행성
▁오징어
▁태극기
▁라이온스
▁레닌그라드
▁낸
차리
현실
▁Dr
▁격화
▁굳이
▁베컴
▁소마
▁시성
▁약수
▁월경
▁호박
스티안
ater
▁리그전
▁시아파
▁지포스
▁리얼리티
▁마쓰모토
로프로세서
▁System
▁마이크로프로세서
▁공보
▁부이
▁알마
▁에다
▁춘향
▁트롤
▁국무부
▁디나모
▁제품군
▁조병옥
▁후베이
▁Cent
MP
▁결단
▁결렬
▁그간
▁김석
▁마취
▁서곡
▁에인
▁지반
▁천리
▁총수
▁해머
▁허들
▁ㄱㅜㄴ
▁모노이드
▁이리하여
▁막시밀리안
▁둑
거루
▁노총
▁담그
▁데니
▁설과
▁소켓
▁어인
▁피쳐
▁필로
▁도나우
▁유명세
▁전망대
▁트럼펫
▁알베르트
▁오스트로
▁카롤루스
za
▁김은
▁리서
▁산마
▁성내
▁스틱
▁양분
▁장론
▁조나
▁죄인
▁쿠사
▁아드리
▁혁명가
▁유럽연합
▁알렉산드라
▁앳
쓰네
▁BO
▁SW
▁격상
▁당사
▁마초
▁미완
▁술집
▁아토
▁옵티
▁인노
▁장서
▁학도
레이즈
▁Mac
▁사법부
▁유공자
▁일진회
▁전동기
▁정몽주
▁파블로
▁이성질체
▁이오니아
입자
▁'-
▁던전
▁로제
▁서역
▁세실
▁이구
▁코넬
▁하카
어들이
▁넘어지
▁민의원
▁총생산
▁1858
▁고고학자
▁프로방스
▁class
▁폴리네시아
▁폼페이우스
가요
동리
비츠
ons
▁갈비
▁녹말
▁만수
▁에뮬
▁윈드
▁융기
▁좌랑
▁모델링
▁신익희
▁제노바
▁맞배지붕
오드
토바
▁갑오
▁결실
▁기주
▁배지
▁슐레
▁장택
▁재심
▁창씨
▁탈리
▁테살
ange
▁도치기
▁봉수대
▁조너선
▁필리스
▁함부로
가라
▁더빙
▁본진
▁성찬
▁직류
▁특위
▁형광
▁화교
ions
▁연습생
▁크레타
▁포인터
코인
▁"'
▁결집
▁달마
▁벅스
▁시편
▁엠마
▁으뜸
▁태상
▁펜스
▁합산
▁Tra
▁날아오
▁노트북
▁마에다
▁목포시
▁스와프
▁유성구
▁무궁화호
▁써
니츠
러기
처럼
▁고택
▁동티
▁상해
▁수강
▁완산
▁이철
▁자막
▁출루
▁노무라
▁시게루
▁중심핵
▁서프랑크
▁천연가스
▁필하모닉
att
▁SG
▁굴욕
▁낙태
▁농작
▁매질
▁새해
▁소정
▁의왕
▁정공
▁지뢰
▁특혜
▁군산시
▁선데이
▁안티고
▁트랜싯
사랑
ret
▁광서
▁기민
▁기욤
▁남궁
▁디펜
▁만연
▁본능
▁성제
▁소탕
▁아말
▁안재
▁좌천
▁포섭
▁푸틴
▁해내
▁헬렌
지먼트
▁USA
▁가디언
▁그리드
▁type
▁동아프리카
▁매니지먼트
ux
▁챈
당류
라나
▁대정
▁도난
▁분담
▁영위
▁육박
▁정과
▁종단
▁진구
▁총살
▁토의
▁Int
▁쌍방울
▁직할시
▁귤
널목
ART
▁기형
▁미자
▁수선
▁이삭
▁재주
▁정현
▁충고
▁콘셉
▁토드
▁펠레
▁헤지
▁IEC
▁Not
▁건널목
▁넘어오
▁대학살
▁라이드
▁분홍색
▁전철역
▁지팡이
▁평의원
▁1300
▁High
▁알아차리
실험
자유
촌동
▁궁내
▁급사
▁납품
▁덕수
▁문성
▁사보
▁MHz
▁ㄱㅔㅅ
▁충주시
▁1814
▁보호구역
▁알베르토
▁소크라테스
거성
컨드
ley
▁로타
▁마틸
▁벨벳
▁소치
▁아약
▁테드
▁토하
▁겨울철
▁깨달음
▁적절히
▁평상시
▁평택시
▁산업단지
▁Google
기둥
재단
▁경구
▁귀하
▁달래
▁바사
▁부탄
▁석등
▁선서
▁위태
▁음역
▁휴먼
▁마피아
▁성북구
▁연구실
▁오나라
▁티무르
마일
정제
테일
▁독실
▁음양
▁이덕
▁증직
▁핑계
▁미우라
▁석가여래
BN
림동
민정
▁견지
▁기교
▁마도
▁모여
▁전집
▁주상
▁퍼플
▁헤임
▁홍천
▁War
▁건너편
▁패트리
▁프렌즈
▁플래그
▁암모니아
니코
랭크
▁Of
▁목화
▁미에
▁버거
▁스팅
▁위배
▁윗면
▁퀘이
▁흥덕
씨식물
▁WHO
▁광화문
▁밀어내
▁비올라
▁세컨드
▁혁명군
살바도르
▁What
▁플레이스
▁엎
토쿠
▁FS
▁고요
▁군락
▁규장
▁도표
▁신관
▁콤비
▁튀기
▁헨드
▁막아내
▁미시간
▁아약스
▁액티브
▁연금술
▁우승컵
▁통신부
▁플라자
▁항소심
▁1795
▁그래미상
▁부위원장
▁클라이맥스
▁윔
식스
싸움
전차
▁간지
▁군집
▁기근
▁민가
▁바하
▁보카
▁사악
▁시차
▁실태
▁완주
▁유승
▁전란
▁지층
정보부
▁국문학
▁수도사
▁피드백
▁다리우스
▁토스카나
▁조선왕조실록
데냐
ger
▁PH
▁고갈
▁군비
▁루지
▁리츠
▁멘토
▁본초
▁수의
▁스쿠
▁우도
▁초당
▁캐럴
▁페데
▁니스트
▁블루어
▁디렉터리
▁사르데냐
퍼트
▁레미
▁말소
▁아난
▁암초
▁애매
▁원생
▁켈빈
▁키아
▁프록
▁LCK
▁TBC
▁관찰자
▁라쿠텐
▁맞대결
▁성명서
▁주교좌
▁홉킨스
▁With
▁샌드위치
회원
▁공해
▁도정
▁라지
▁로어
▁발췌
▁스톨
▁약학
▁에런
▁예일
▁우대
▁우사
▁증원
▁코지
▁포진
▁290
▁Dis
▁MLB
▁로렌초
▁스레드
▁원정군
▁익산시
▁하모니
ye
▁켓
yle
▁모식
▁몬태
▁보육
▁보훈
▁아핀
▁열풍
▁인대
▁잊히
▁전액
▁제보
▁허구
▁남조선
▁한정판
UN
▁쥘
구멍
부미
카라
▁비욘
▁애쓰
▁얼터
▁쿠리
▁패드
▁패퇴
▁480
▁남해군
▁모조리
▁에히메
▁이회창
▁진정하
▁커티스
▁헬싱키
▁ㅁㅕㄴㅇㅡㄴ
고나
라도
▁kW
▁구석
▁로동
▁비호
▁세베
▁아랑
▁우이
▁장준
▁헬로
▁238
▁850
▁리포트
▁모터쇼
▁선언문
▁마그네슘
▁수마트라
▁아틀레틱
▁안드레이
▁렝
enc
▁견훤
▁괴뢰
▁김세
▁당명
▁아픔
▁앨버
▁정일
▁종친
▁춤추
▁포교
▁혼돈
디우스
▁창덕궁
▁창업자
▁트루먼
▁드레이크
팽이
alk
▁니나
▁니체
▁반야
▁부녀
▁실크
▁열망
▁영재
▁웰스
▁유원
▁천정
▁토비
▁풍수
▁할양
▁함의
▁훈족
지스터
▁고조선
▁대항해
▁스타즈
▁정확도
▁합천군
▁가나자와
▁그리스도인
스테
▁광택
▁덩굴
▁버시
▁보궐
▁숭실
▁트림
주니어
▁개최지
▁보행자
▁북반구
의금부사
▁크리스천
▁COVID
▁비어
▁알렌
▁총액
▁Art
▁안데르
▁페테르
▁요시아키
레프
▁미숙
▁브람
▁정여
플레잉
▁ㄷㅔㄴ
▁남반구
▁수번뇌
▁충렬왕
▁롤플레잉
▁카테고리
▁트랜지스터
▁키르기스스탄
UI
렁이
천국
▁Di
▁관대
▁노화
▁랜덤
▁매춘
▁박승
▁보츠
▁에린
▁연유
▁장조
▁장항
가하라
다람쥐
▁보호관
▁빅토리
▁타블로
▁Blue
▁MPEG
베인
블린
▁RA
▁구룡
▁더럽
▁머피
▁묘법
▁민권
▁승전
▁정병
▁첨부
▁평신
네소스
ough
▁Rev
▁공기업
▁노르트
▁보라색
▁아산시
▁아칸소
▁취약점
▁1846
▁프로이트
적분
OVE
que
▁ㄲㅗ
▁골수
▁구토
▁급기
▁대뇌
▁데메
▁데쓰
▁리저
▁미코
▁북상
▁서강
▁선회
▁용접
▁이트
▁효용
연화경
▁문하시
▁산체스
▁스타인
▁이완용
▁지방관
▁크라스
▁학생회
▁물리학상
▁브루나이
▁그리스도교
26
▁각광
▁기악
▁신구
▁웅진
▁율령
▁팀장
▁페터
웨스트
▁유격대
▁1793
▁time
▁사탕수수
▁에드먼드
▁하시모토
▁중앙정보부
ING
▁갤러
▁국지
▁니콘
▁당분
▁오호
▁올랭
▁윈터
▁천구
▁시즈오카현
▁아오모리현
나물
던스
르모
파스
▁'.
▁ED
▁경이
▁교주
▁구자
▁국과
▁소도
▁수렵
▁역모
▁월북
▁직함
▁쿠릴
▁공직자
▁농작물
▁사이공
▁추밀원
▁페인트
▁이베리아
▁밈
건적
전쟁
▁공덕
▁논설
▁독소
▁무당
▁옥상
▁와해
▁존상
▁차분
▁퇴단
▁배수량
▁시어터
▁아쿠아
▁엉덩이
▁여객선
▁전기장
▁중서부
▁1839
▁히로부미
IO
운전
ump
▁MT
▁남포
▁맛있
▁하순
▁휘트
비우스
▁737
▁대머리
▁외무성
▁체스터
▁테트라
▁자유민주
▁트리니다드
▁중앙아프리카
▁뱌
▁촘
▁훅
래시
메트
바람
der
▁Vf
▁게일
▁군국
▁굶주
▁도색
▁멜론
▁부윤
▁설사
▁심플
▁해자
▁가시마
▁상대론
▁아테나
▁재빨리
▁포스코
▁프리킥
▁1854
▁언어학자
▁경멸
▁과부
▁괴멸
▁몸집
▁범용
▁본당
▁쇠약
▁아민
▁엄정
▁유시
▁직권
▁추위
▁현충
슬라브
시우스
▁214
▁ㅇㅗㅂ
▁돌아서
▁바로잡
▁손바닥
▁수증기
▁알레르
총리대신
▁기념사업
ㄷㅡㄴㄱㅏ
▁내각총리대신
고트
뉴스
재란
후이
▁간디
▁걸맞
▁낙타
▁불평
▁삼키
▁손책
▁순정
▁윤원
▁정강
▁펀치
▁필기
티우스
▁COM
▁국무원
▁분류학
▁조계종
▁팩토리
▁하카타
▁비지니스
▁아나키즘
▁정유재란
▁꼼
패스
▁등대
▁망루
▁방조
▁서보
▁야로
▁이국
▁인신
▁표결
▁메이트
▁버나드
대성
▁마한
▁브론
▁상작
▁세탁
▁솔트
▁이효
▁제식
▁코레
▁클루
▁학급
▁학창
▁교토부
▁비행대
▁산둥성
▁윤리학
▁이브라
▁키워드
▁평화상
스트리트
▁갈릴레이
▁비트코인
▁어드밴스
▁자연주의
▁초등학생
▁세키가하라
▁감탄
▁구인
▁미묘
▁바일
▁이형
▁인출
▁칼레
▁특례
▁Min
▁돗토리
▁안중근
▁초대칭
▁기독교인
▁미성년자
▁여주인공
28
▁돛
▁퓌
탐정
▁ME
▁교묘
▁북해
▁상투
▁새턴
▁석상
▁심근
▁억류
▁이부
▁종주
▁페가
▁환기
▁후시
▁가입자
▁데포르
▁베일리
▁파출소
▁델라웨어
▁오브젝트
▁플로이드
▁ㅇㅠ
▁간염
▁개전
▁만기
▁매월
▁바덴
▁박기
▁박준
▁시주
▁오딘
▁잠들
▁참배
▁총체
▁파드
▁팬아
▁하디
캐스트
▁경비대
▁구청장
▁북극해
▁황태후
▁1849
▁네덜란드어
HD
사회
▁갑각
▁분양
▁산불
▁찬탈
직할시
▁나가노
▁등록금
▁에리크
▁최하위
베이거스
▁1856
정권
호프
▁견습
▁계투
▁고압
▁교포
▁남로
▁베버
▁오기
▁존엄
독립당
학생회
▁가파르
▁기부금
▁장택상
▁후임자
▁공화주의
▁크레이그
▁한국독립당
▁라스베이거스
23
▁뚱
누아
모자
호르
▁귀양
▁라몬
▁루머
▁매번
▁분장
▁수표
▁신작
▁요아
▁우동
▁웅장
▁웨일
▁유폐
▁육아
▁장령
▁치중
▁페드
▁화북
▁넥스트
▁보나파
▁증명서
▁1851
▁총학생회
▁하이웨이
▁보나파르트
▁페더레이션
▁줌
▁만국
▁밀스
▁본디
▁분쇄
▁씨름
▁어이
▁윤영
쿠스틱
타니아
atch
▁LCD
▁입출력
▁절대로
▁사보이아
▁스탠퍼드
▁어쿠스틱
오린
▁디온
▁미모
▁비크
▁수류
▁시경
▁유장
▁이견
▁적재
▁철원
▁체질
▁촌은
▁해일
▁효능
프랑스
▁419
▁건국대
▁낙하산
▁벤피카
▁포위전
▁Beat
▁차량기지
▁캔자스시티
86
▁넉
체어
▁내수
▁수서
▁예속
▁인피
▁주경
▁430
▁에밀리
▁참모장
▁캥거루
▁하동군
▁해럴드
▁1855
▁블레이드
▁상파울루
▁오하이오주
▁깡
▁럴
처리
▁NX
▁낙엽
▁라티
▁메사
▁배설
▁생가
▁서천
▁셔먼
▁쇼팽
▁현령
코스트
▁FBI
▁베드로
▁상속인
▁진보당
▁파트리
▁핵폭탄
▁캐나다인
▁크리에이티브
산읍
우어
케스
하늘
▁광경
▁도독
▁변방
▁볼륨
▁상체
▁알비
▁오닐
▁원성
▁이안
▁적성
▁한서
▁레인보
▁서북쪽
▁1857
담회
▁간장
▁김문
▁여과
▁연임
▁카잔
▁후백
트로피
icro
▁Top
▁공사관
▁교직원
▁글리코
▁디스코
▁수산물
▁시부야
▁오비탈
▁노동자당
▁스티븐스
▁폴란드인
▁좡
봉사
섬유
하르
ery
▁PP
▁계란
▁단사
▁반려
▁봉작
▁사흘
▁외동
콥스키
cess
▁Med
▁애벌레
▁작사가
▁지난해
▁테이크
▁포천시
▁휠체어
▁갑신정변
▁다이스케
개혁
▁결탁
▁깜짝
▁내구
▁단성
▁소홀
▁정시
▁체첸
▁변속기
▁보르도
▁시공간
▁식물원
▁지평선
▁소용돌이
▁이와테현
▁데포르티보
▁여러해살이풀
BT
댄스
버거
일라
▁모기
▁보문
▁소란
▁수훈
▁여생
▁추궁
▁헤엄
▁기념식
▁시우바
메니스탄
▁반공주의
▁프란시스
▁병마절도사
▁투르크메니스탄
카테
▁TG
▁대광
▁버퍼
▁벽면
▁수배
▁실로
▁임베
▁주치
▁착안
▁캔디
▁톨킨
▁해금
고양이
▁301
▁ㄷㅏㄴ
▁갖가지
▁구미시
▁베르디
▁찬드라
▁펠로폰
▁포브스
▁임베디드
▁정사각형
▁민족주의자
▁펠로폰네소스
▁힉
레토
서구
전기
▁대세
▁비참
▁셀룰
▁아모
▁택지
▁팔자
▁핵산
▁211
▁223
▁수수료
▁은하단
▁저작물
츠부르크
깨비
니엄
▁CL
▁경색
▁서상
▁수스
▁지소
▁치수
▁태세
▁폰트
▁히나
▁동의어
▁헤이스
▁마음대로
쇼프
▁YM
▁담론
▁롤리
▁박격
▁벚꽃
▁사죄
▁압송
▁외벽
▁유품
▁음경
▁정년
▁NAD
▁감염자
▁노스케
▁일간지
▁이해관계
천년
흐트
ont
▁권세
▁변장
▁분개
▁성간
▁성채
▁신영
▁페티
▁포구
▁Pop
▁보니파
▁봉사자
▁상세히
▁아가씨
▁어리석
▁올라서
▁투데이
▁행정관
▁Free
재기
day
▁IA
▁고증
▁명주
▁민생
▁실습
▁엠블
▁열반
▁율곡
▁이학
▁제학
▁친목
▁크세
▁현청
▁나주시
▁대주주
▁수송기
▁시흥시
▁컨디션
▁1776
▁Will
▁사카모토
▁서아시아
니크
테른
▁CT
▁단호
▁대흥
▁돌핀
▁랜디
▁심슨
▁욕설
▁원제
▁조식
▁지병
노벨라
시오날
▁루터교
▁비엔나
▁제이스
▁집어넣
▁카운터
▁나시오날
▁무라카미
▁미주리주
▁엔트로피
▁그레고리력
▁텔레노벨라
광선
왕국
지대
▁거액
▁노회
▁슈바
▁윤선
▁읽히
▁카렐
▁그로스
▁바이스
▁오카다
▁형무소
▁태평천국
▁플루오린
▁국면
▁급습
▁낙랑
▁만리
▁반열
▁빌미
▁소망
▁쟁점
▁퇴사
▁XML
▁늘어지
▁다면체
▁다이나
▁달라이
▁레너드
▁이범석
▁하이든
▁핵실험
타고라스
▁캄파니아주
▁뺏
볼트
▁뇌졸
▁무왕
▁부총
▁서던
▁악역
▁언약
▁조력
▁탄원
리어스
27
ma
가야
로아
스탕
하스
▁MW
▁간파
▁누각
▁알론
▁요네
▁인테
▁장구
▁타오
▁현명
▁현생
▁병원체
▁영산회
▁청구인
▁올랭피크
29
연대
▁Po
▁ne
▁골목
▁괴팅
▁까다
▁대적
▁상시
▁오도
▁중첩
▁진안
▁코민
▁타현
▁한참
▁회부
▁동북쪽
고도
마타
▁개요
▁땅콩
▁로젠
▁버즈
▁살림
▁센스
▁시왕
▁역습
▁이로
▁잠복
▁항모
레시브
루리아
▁del
▁가속기
▁김종필
▁배트맨
▁심포니
▁청교도
▁조기어류
▁10000
▁프로그레시브
를린
버드
소득
연료
▁가메
▁국채
▁마고
▁명지
▁발송
▁Bro
▁거제시
▁대각선
▁독립국
▁마그마
▁마인드
▁사모아
▁출생지
▁클라라
▁타고나
▁하이델
▁가까스로
▁레오나르도
▁묘법연화경
투안
▁금광
▁누락
▁로로
▁몬트
▁방한
▁사성
▁셰이
▁와트
▁장타
▁호가
▁메이플
▁모여들
▁서기장
▁네브래스카
▁통합진보당
슐린
저민
쿠젠
▁간소
▁교복
▁미안
▁산탄
▁수잔
▁연좌
▁윤석
▁입안
▁케니
▁템포
▁파격
irst
▁굳어지
▁벤저민
▁어지럽
급시
모습
바꿈
its
▁각별
▁공녀
▁김한
▁로미
▁미망
▁미움
▁역행
▁음란
▁찬스
▁청화
▁최경
▁홀드
들랜드
▁베르그
▁뽑아내
▁샘플링
▁스나이
▁아세트
▁팰리스
▁황도대
페리
aut
▁CV
▁ER
▁나나
▁노미
▁대열
▁밑면
▁발주
▁본기
▁비비
▁사극
▁신명
▁이연
▁직제
▁친절
▁콘월
▁파사
▁하쿠
▁Big
▁논산시
▁단기간
▁모자라
▁모티프
▁새천년
▁서남쪽
▁크리켓
▁스포르팅
▁캔터베리
▁begin
미치
증권
▁DL
▁독감
▁마마
▁습성
▁액수
▁정철
▁지단
▁퓨전
중국해
▁End
▁웨이트
▁미시간주
평가
활성
▁BR
▁문교
▁반일
▁브롱
▁시로
▁심신
▁위드
▁유즈
▁이공
▁준위
▁질리
▁화신
메데스
▁리서치
▁피에트로
빼미
연의
▁경치
▁다의
▁듯이
▁배영
▁양손
▁에나
▁우메
▁퇴화
▁화전
더니즘
▁레이어
▁해설자
▁원내대표
▁코미디언
▁포레스트
▁언더그라운드
ㅔㄴ
▁과업
▁노먼
▁라비
▁로자
▁연천
▁장보
▁천명
▁총알
▁픽업
▁히다
▁215
▁239
▁510
▁DFB
▁ㅇㅓㅇ
▁가로막
▁문화사
▁비정규
▁유니온
▁서스펜션
BL
개발
코바
aff
▁HK
▁SI
▁WH
▁개간
▁기물
▁서킷
▁세브
▁전갈
▁종택
▁질레
▁쿠키
▁평년
▁합체
▁구석기
▁베리아
▁변증법
▁에인절
▁치우치
▁특이점
▁포위망
계리
▁대양
▁레베
▁린드
▁생사
▁서드
▁성추
▁언젠
▁위니
▁주둥
▁혹독
▁BMW
▁아틀라스
▁KC
▁까치
▁듀크
▁루아
▁징후
▁촌락
▁칸타
▁황보
메네스
파트라
▁set
▁기장군
▁빠뜨리
▁언젠가
▁프리랜
▁1792
▁void
▁클레오파트라
HS
br
가키
보스
▁낭독
▁니즘
▁방수
▁시료
▁시암
▁우랄
▁우문
▁원가
▁재원
▁정약
▁창안
▁체임
▁포에
▁픽션
▁한도
▁함안
▁Des
▁과선교
▁목걸이
▁서로마
▁월리스
▁전년도
▁특공대
▁소선거구
▁랏
▁젬
▁가인
▁감명
▁덧셈
▁메콩
▁바크
▁부원
▁살상
▁열광
▁예천
▁원화
▁위아
▁코다
▁틈새
▁한방
▁호엔
궐선거
▁계약서
▁권력자
▁목격자
▁사중주
▁엑스선
▁재보궐선거
▁프로토타입
버섯
삼문
oss
▁난간
▁내쫓
▁덤불
▁도기
▁매드
▁상피
▁아그
▁양력
▁오쓰
▁유실
▁최북
▁패주
▁포탈
▁까다롭
▁미술가
▁사생아
▁수메르
▁영등포
▁Rain
▁알레르기
▁엘살바도르
▁ㄴㅜ
▁경수
▁도고
▁루소
▁명절
▁박중
▁비슈
▁산토
▁선하
▁세관
▁실드
▁접착
▁다다르
▁레일리
▁부활절
▁브레인
▁살아나
▁표준어
▁1853
▁동대문구
루이
▁RE
▁do
▁가평
▁금화
▁동복
▁마자
▁모후
▁성년
▁아속
▁영연
▁요세
▁입적
▁정파
▁제향
▁포즈
▁홍백
너티브
덜랜드
▁ㅇㅜㅁ
▁계약금
▁꽃받침
▁무인역
▁시설물
▁외삼촌
▁1791
▁크래프트
▁얼터너티브
니발
막염
서면
이인
행사
▁JP
▁구급
▁시구
▁실화
▁아쓰
▁티르
▁급기야
▁무안군
▁중생대
▁프레디
▁1852
▁속씨식물
ㄷㅡㄴㅈㅣ
▁슈퍼주니어
vis
▁녀석
▁다라
▁몰입
▁밥상
▁방과
▁어필
▁절멸
▁조참
▁청탁
▁캄포
▁향리
▁TOP
▁게이머
▁버밍엄
▁보호자
▁성동구
▁프로파
▁호위함
▁LIVE
▁Show
▁도네츠크
▁퓰
경궁
그림
바타
▁노던
▁비츠
▁상권
▁셰프
▁숙성
▁스커
▁으로
▁탄환
▁튀르
핵생물
▁경기력
▁따돌리
▁레프트
▁파이브
▁모하메드
▁클라리넷
be
노동
지않
oup
▁FN
▁국고
▁메트
▁버락
▁비고
▁사구
▁시동
▁시판
▁영아
▁자락
▁장영
▁표상
▁플뢰
제르맹
▁233
▁부제학
▁브람스
▁아르카
ement
▁프라이스
▁플레이트
▁옅
팔렌
▁관서
▁교우
▁근연
▁부름
▁수전
▁수첩
▁식료
▁실황
▁안상
▁최치
▁케스
즐랜드
▁분화구
▁양서류
▁요리사
▁잎자루
▁퍼뜨리
▁후반부
노헤
얼빈
▁FX
▁감히
▁국물
▁귀납
▁독신
▁미팅
▁박인
▁에타
▁욕심
▁우쓰
▁제반
▁해동
▁황갈색
▁도쿠시마
▁퀸즐랜드
▁히로시마현
▁잣
ㅍㅣ
타라
티드
▁EN
▁도금
▁연작
▁잠그
▁제법
▁차가
▁카쿠
▁호치
▁회중
▁히브
▁212
▁개찰기
▁게이초
▁퍼펙트
▁LOVE
▁다운타운
▁루키우스
▁벌어들이
▁생제르맹
▁빽
▁구보
▁그려
▁벨레
▁색인
▁서하
▁신재
▁요트
▁장터
▁후신
▁동인도
▁상류층
▁세례명
▁앵글로
▁음악회
▁조나단
▁1847
▁권위주의
▁천주교회
▁필리포스
▁테러리스트
개명
에어
▁갑판
▁고타
▁능통
▁래스
▁만다
▁매너
▁보두
▁불황
▁여태
▁영세
▁이족
▁일람
▁김포시
▁에르난
▁옹진군
▁이베이
▁이스턴
▁재정난
▁Like
▁시트르산
▁인테리어
▁콘스탄티노플
하워
▁EF
▁OC
▁mg
▁가봉
▁기노
▁대검
▁북제
▁세가
▁신숙
▁영해
▁월급
▁은둔
▁이계
▁친숙
▁포리
▁희박
▁관악구
▁끊어지
▁성추행
▁인슐린
▁재판장
▁중학생
▁최적화
▁핵연료
▁옵티머스
▁은행나무
▁퍼레이드
▁롬바르디아
▁아이젠하워
하트
▁ㅅㅜ
▁강물
▁과천
▁마누
▁슬럼
▁쑨원
▁안젤
▁야채
▁오에
▁유위
▁윤상
▁음소
리오카
▁생태학
▁올빼미
▁점성가
▁지원자
▁퀘스트
▁국민회의
▁사다하루
▁옥타비아
▁뚝
▁NK
▁김호
▁마로
▁버블
▁수온
▁약국
▁완투
▁음색
자위대
▁검사장
▁레슬리
▁레오니
▁브룩스
▁세일러
▁저술가
▁중대장
▁편의점
▁Mnet
▁버지니아주
▁안티고노스
▁뿌
▁젓
▁찻
랄라
야구
way
▁UK
▁es
▁고질
▁관사
▁구면
▁귀향
▁기치
▁독려
▁라벤
▁망상
▁밀턴
▁성하
▁약정
▁연사
▁정량
▁제각
▁착오
ouse
▁221
▁Red
▁강아지
▁그려지
▁지도력
▁레인보우
▁뱀파이어
WS
▁똥
▁냉동
▁보현
▁수뇌
▁수찬
▁스벤
▁쓰가
▁왈라
▁주어
▁차드
▁초중
▁최재
▁품계
▁황성
▁회군
▁Sec
▁뇌졸중
▁다각형
▁릴리스
▁미카사
▁탈수소
▁현악기
▁Over
▁Sing
▁콘티넨털
▁프리랜서
▁Sound
▁계명
▁나츠
▁남짓
▁라피
▁마조
▁미일
▁발라
▁슬롯
▁연일
▁우성
▁원망
▁조만
▁진과
▁청진
▁출소
▁쿠페
▁클론
▁팔각
▁푸시
▁231
▁리히텐
▁정말로
▁정보국
▁1100
▁1844
▁경향신문
▁창씨개명
▁Light
귀비
비어
▁ac
▁경감
▁계파
▁고작
▁나팔
▁미신
▁발화
▁불펜
▁여야
▁예견
▁커크
▁혈청
하이드
▁가오슝
▁게이츠
▁미망인
▁세포막
▁여름철
▁하얼빈
▁가이우스
▁동명이인
색슨
IDS
▁갑상
▁동족
▁따내
▁명품
▁섬멸
▁송금
▁식년
▁안구
▁오목
▁외화
▁이등
▁정구
▁크릭
▁파니
▁회기
하이머
ason
▁유목민
▁피스톤
브레히트
▁곤살레스
▁브래들리
▁카리브해
▁앵글로색슨
aj
▁즌
▁즙
거슨
방식
옹주
▁고부
▁골자
▁낙인
▁수작
▁유주
▁조승
▁주술
▁하체
▁Bar
▁부끄럽
▁사이다
▁산화물
▁카이저
▁하루카
▁계몽주의
▁랜드마크
▁민속문화재
▁읊
타바
프슨
▁공물
▁다키
▁대파
▁만찬
▁베레
▁삼가
▁서간
▁아워
▁요안
▁유루
▁자력
▁학점
▁호감
▁Eng
▁Net
▁ㅇㅏㄴ
▁박격포
▁수류탄
▁유학생
▁참가국
▁플랜트
▁현급시
▁요코스카
루트
시간
▁마왕
▁삼부
▁색조
▁수난
▁슬퍼
▁신빙
▁신예
▁오경
▁재야
▁점심
▁커트
▁토토
▁배상금
▁정착민
▁사회단체
▁오를레앙
▁포리스트
▁삼국지연의
▁자동변속기
▁JS
▁굴리
▁궁금
▁동천
▁박주
▁북단
▁이도
▁정연
▁체온
▁추석
▁취락
▁호러
대주의
▁한마디
▁시라카와
니언
오밍
▁TA
▁간편
▁과수
▁균류
▁디어
▁부응
▁테츠
▁390
▁갑각류
▁프로필
▁1837
승람
오세
쿠로
red
▁RD
▁강압
▁레딧
▁봉산
▁숙고
▁운문
▁콕스
▁후각
▁흡혈
▁명백히
▁목판본
▁서산시
▁예배당
▁조교수
▁아시리아
워키
iet
▁걸즈
▁선방
▁실바
▁업소
▁오니
▁우미
베를린
슈타트
▁228
▁미스트
▁비스트
▁정찰기
▁좀처럼
▁현저히
▁화순군
▁후견인
▁북베트남
▁오렌지색
▁네덜란드인
▁알레산드로
실론
코로
▁계략
▁그람
▁김응
▁노시
▁도핑
▁만경
▁맨틀
▁면접
▁미약
▁미오
▁부결
▁선승
▁수유
▁아론
▁앙주
▁여순
▁원판
▁청렴
▁치타
▁코노
▁패미
자동차
▁Har
▁유가족
▁제작소
▁프런트
▁뜰
ana
▁ro
▁교착
▁바예
▁아저
▁오데
▁주앙
▁필살
▁한류
▁히치
▁가야금
▁군단장
▁이준용
▁콘셉트
▁평창군
▁개인주의
HT
▁꽁
호크
▁Pa
▁벙커
▁비명
▁송병
▁영흥
▁울음
▁유흥
▁익주
▁쟁취
▁폐간
echn
▁fun
▁도지사
▁명륜당
▁발명가
▁아저씨
▁에버턴
▁최남단
소시
ech
ric
▁MX
▁강수
▁나방
▁담화
▁비약
▁상석
▁성녀
▁일직
▁토사
▁티에
▁한옥
정대부
▁멤피스
▁모국어
▁발자국
▁슬퍼하
▁케네스
▁테레사
▁스테레오
▁트레이너
99
부스
▁고해
▁광종
▁노년
▁로랑
▁반민
▁약제
▁연마
▁영하
▁외젠
▁정태
▁주청
▁칼초
▁트랩
▁호라
▁혹평
▁홍대
▁226
▁경영진
▁독립성
▁반대쪽
▁연장선
▁유리수
▁항저우
▁환경부
▁고속철도
슈티
▁ㅅㅔ
▁건안
▁궤멸
▁마태
▁방전
▁본적
▁북면
▁생김
▁아레
▁아만
▁열등
▁예우
▁유예
▁총지
▁친형
▁타코
▁합방
▁혼용
클레스
▁노원구
▁버틀러
▁브리즈
▁에리트
데하이드
상도
ven
▁군현
▁길목
▁노숙
▁성왕
▁슈가
▁알현
▁윤회
▁적시
▁제례
▁증서
▁지터
▁판도
▁판별
▁나뭇잎
▁마리나
▁부사관
▁브리트
▁스타스
▁울릉도
▁저널리즘
치카
헤치
▁HE
▁거장
▁경학
▁난사
▁다방
▁문부
▁서동
▁소토
▁스털
▁악하
▁이천
▁정순
▁주살
▁티나
▁007
▁LTE
▁비디아
▁연천군
▁예카테
▁자신감
▁최치원
▁1794
▁1836
▁Road
▁구스타브
▁모모야마
▁Hello
▁마르티네스
▁녜
▁FR
▁ㅁㅑ
▁고군
▁반증
▁소단
▁습하
▁이면
▁전광
▁초보
▁카오
▁키노
노세키
니우스
▁Sum
▁경작지
▁공로자
▁로스터
▁밀워키
▁비대칭
▁요시노
▁자연사
▁증손자
▁취임식
▁헤이룽
코프스키
▁글래스고
▁요시노부
▁코르테스
▁비로자나불
보레
회로
▁Af
▁OF
▁개년
▁만능
▁북진
▁섭씨
▁아명
▁야르
▁엘프
▁용매
▁이매
▁이프
▁졸리
▁척탄
▁헌제
vent
▁950
▁간행물
▁관동군
▁도깨비
▁무척추
▁베이컨
▁스턴트
▁아타리
▁알론소
▁정규군
▁처해지
▁피타고라스
▁욘
▁팁
시설
젤란
▁가자
▁고드
▁매표
▁선더
▁성충
▁셀러
▁익사
▁일신
▁장엄
▁재귀
▁중흥
▁증산
▁카멜
▁코라
▁탄화
▁해류
▁757
▁관리국
▁동식물
▁밀양시
▁앞당기
▁윈스턴
▁헤아리
▁알브레히트
07
임수
전력
ner
▁그랜
▁냉정
▁망막
▁메로
▁무방
▁설법
▁성직
▁소변
▁쇼니
▁썬더
▁조위
▁짝짓
▁척수
▁추월
▁출근
▁포사
▁폭우
▁217
▁315
▁Sci
▁게임스
▁농경지
▁비서실
▁에스테
▁오미야
▁콩쿠르
▁CCTV
▁프라이드
기술
제곱
bum
ism
▁관공
▁낸시
▁녹스
▁랭커
▁물의
▁반구
▁병영
▁빈약
▁셀프
▁오거
▁워런
▁이각
▁청풍
▁함평
▁화사
바이크
▁640
▁군사령
▁원통형
▁밀리미터
▁콘스탄틴
yl
▁쉘
개석
성이
조작
▁el
▁고즈
▁난자
▁도노
▁러더
▁레고
▁말러
▁보사
▁슈뢰
▁우화
▁일류
▁전황
▁접경
미사일
소시엄
ator
▁SQL
▁더구나
▁베르너
▁슐레스
▁알렉시
ution
▁컨소시엄
테롤
▁RO
▁XX
▁고어
▁낙농
▁독단
▁라운
▁숙의
▁여가
▁욕계
▁우트
▁조모
▁투영
▁프롬
국민당
컨트리
▁720
▁거문고
▁고창군
▁드래건
▁문화원
▁배포판
▁성범죄
▁시크릿
▁야구팀
▁호찌민
▁블리자드
▁페미니즘
▁리히텐슈타인
IE
셔스
피오
▁GL
▁IB
▁굽히
▁기만
▁내사
▁단판
▁덴버
▁리턴
▁박제
▁반원
▁벨로
▁상도
▁선덕
▁예리
▁우부
▁의금
▁임업
▁전폭
▁출진
▁타국
▁편모
▁홍명
사이클
ital
▁허난성
▁Stud
▁콘스탄티노스
▁크로스컨트리
도체
루프
▁EV
▁OP
▁가니
▁냉방
▁마포
▁박세
▁빼내
▁속죄
▁쾌락
▁타계
▁풍토
▁RPG
▁규장각
▁본회의
▁스코트
▁지린성
▁팬아메리칸
생명
▁낙향
▁돈녕
▁라코
▁살롱
▁스즈
▁암벽
▁액정
▁오정
▁자급
▁잔당
▁주시
▁지에
▁집약
▁치역
민정음
▁Boy
▁기후현
▁불명예
▁신인왕
▁해적단
▁1806
▁애기박쥐
▁우리나라
▁카리스마
▁프레데리크
▁딤
▁웁
곡선
교동
서기
여왕
▁PK
▁거물
▁공회
▁노다
▁도큐
▁린치
▁산간
▁선지
▁심층
▁장현
▁좁히
▁케어
▁테베
▁티노
▁합전
▁520
▁예산군
▁인피니
▁집합론
▁퍼블릭
▁근본주의
▁승부조작
08
▁쁘
바스
▁군용
▁단련
▁만두
▁방랑
▁부마
▁서광
▁선무
▁스퍼
▁외전
▁이발
▁주방
▁추봉
▁키시
▁토고
▁토우
▁후학
클랜드
▁610
▁에볼라
▁제작비
▁조선조
▁징병제
▁1842
▁산마리노
자재
장자
젠더
ony
▁GD
▁김나
▁낙원
▁노량
▁만석
▁보비
▁불순
▁비니
▁순창
▁승천
▁아의
▁이륙
▁주니
▁파벨
▁회랑
스타파
▁다이너
▁수호자
▁헤이그
▁후쿠다
▁1796
▁Play
▁교섭단체
▁레오폴트
▁세르비아인
링거
시계
외과
▁각인
▁관방
▁김만
▁대축
▁모레
▁사세
▁시술
▁여전
▁위선
▁은사
▁인회
▁절터
▁집현
▁책판
▁탈선
▁편수
▁해구
▁wid
▁ㅁㅗㄴ
▁니케아
▁옆구리
▁완주군
▁족제비
▁코코넛
▁이스마일
▁훈민정음
uk
이나
▁마현
▁성희
▁쇼난
▁양부
▁오성
▁옴니
▁중사
▁채팅
▁철제
▁허영
▁에탄올
▁연구관
▁연주가
▁위클리
▁테슬라
▁라플라스
▁에드워즈
▁플라스마
를로
사병
▁개회
▁김혜
▁리부
▁명맥
▁사시
▁송정
▁수생
▁숙이
▁이대
▁정설
▁체격
▁카밀
▁켈러
▁표범
▁끊임없
▁마티아
▁부딪치
▁아즈치
▁웰링턴
▁윈난성
▁임팩트
▁흰개미
▁매일신보
영향
요리
전리
▁노획
▁니컬
▁동결
▁문묘
▁민자
▁밀교
▁비닐
▁사표
▁이교
▁이근
▁제스
▁종과
▁지드
▁차후
▁치소
▁후생
▁드나들
▁라이터
▁스털링
▁최북단
▁1798
▁1832
▁매트릭스
▁블레이크
타야
▁UR
▁결속
▁구식
▁궁지
▁금상
▁김부
▁네프
▁동태
▁릭스
▁백국
▁샬럿
▁서라
▁신간
▁윤봉
▁절연
▁주안
▁진양
▁칼빈
▁헌종
사와라
▁사사키
▁쿠르트
▁파헤치
▁ㅇㅡㄴㅈㅣ
▁에트루리아
▁페르난데스
▁옙
동면
ush
▁데시
▁동과
▁밀착
▁소각
▁알토
▁에게
▁위문
▁의화
▁인솔
▁저압
▁증여
▁최충
▁캡슐
▁투고
▁폐단
▁후왕
oney
port
▁ROM
▁술탄국
▁스톤스
▁2030
▁애틀랜틱
▁슐레스비히
▁얌
공원
눌프
화가
▁각오
▁동면
▁미용
▁병인
▁자의
▁자폐
▁전륜
▁치앙
▁푸른
▁한산
▁희소
▁끌어내
▁나가토
▁오와리
▁충실히
여지승람
▁그레이스
▁아르눌프
▁코민테른
▁젯
야르
우병
▁국명
▁부록
▁성급
▁소경
▁여장
▁인장
▁일구
▁전경
▁하향
▁한진
▁히바
▁Rem
▁공모전
▁단체장
▁문학사
▁발행인
▁보두앵
▁설리번
▁온전히
▁이교도
▁이주한
▁후백제
▁오가사와라
04
▁칵
들레
처분
하나
▁급부
▁대일
▁도감
▁딸기
▁래드
▁방계
▁복고
▁상향
▁선풍
▁쓸모
▁어음
▁염료
▁전해
▁정토
▁정희
▁편차
▁학제
▁222
▁815
▁감독상
▁안성시
▁엄밀히
▁인터랙
▁주간지
▁주황색
시프
플리
▁구국
▁내밀
▁럭키
▁로메
▁밤중
▁번번
▁습기
▁신현
▁암술
▁양재
▁의종
▁조미
▁철교
▁표류
form
orce
▁NHL
▁경제력
▁대문자
▁미즈노
▁생산력
▁엄격히
▁연해주
▁영화사
▁자치령
▁좌찬성
▁하코다
▁That
▁레즈비언
▁맥도널드
▁헤이룽장
▁소선거구제
▁뺨
고시
▁기흥
▁수능
▁유혈
▁조그
▁탐욕
▁토레
▁학비
▁각운동
▁귀족원
▁남양주
▁미완성
▁아랍인
▁아이유
▁앞부분
▁재정부
▁해산물
▁King
▁아이패드
▁Colle
▁외할아버지
공간
더기
lex
▁반유
▁방황
▁벤자
▁애너
▁열중
▁주필
▁찬가
▁참봉
▁피노
▁호송
이스터
▁메이어
▁명탐정
▁문학가
▁완도군
▁인구수
▁트래픽
▁헥타르
▁마이니치
▁모노레일
▁스위프트
▁프레드릭
급수
무덤
테아
▁간간
▁기함
▁누설
▁명은
▁불멸
▁수륙
▁애도
▁유유
▁장부
▁펄스
스토크
▁232
▁min
▁글리세
▁되살리
▁오시마
밍고
체인
ady
iew
▁두만
▁번복
▁상온
▁왜적
▁유추
▁인현
▁질산
▁침전
▁페퍼
유철도
▁EMI
▁Met
▁닭고기
▁비행단
▁소시지
▁에르빈
▁의성군
▁전사자
▁전투력
▁참정권
▁카네기
▁코러스
▁포워드
▁일본국유철도
군가
병원
▁간청
▁누벨
▁누비
▁도립
▁도합
▁돌풍
▁반장
▁사향
▁연성
▁전소
▁철로
▁출제
▁폐막
▁글라스
▁도승지
▁생김새
▁앙코르
▁철원군
▁해남군
▁마우리아
▁시스템즈
▁트랜스젠더
▁경부고속도로
YS
국수
▁no
▁공생
▁괴산
▁구어
▁깔끔
▁박현
▁아코
▁어판
▁외출
▁의외
▁지토
▁264
▁660
▁not
▁사림파
▁오보에
▁원동력
▁이시다
▁콜레스
▁1790
▁지느러미
UM
sc
농사
케인
▁강판
▁노포
▁마저
▁보손
▁빌레
▁승탑
▁실물
▁야후
▁존호
▁파샤
수산부
▁고분자
▁괴팅겐
▁상나라
▁조직원
▁테크니
▁포터블
▁플루트
▁1810
▁라그랑주
▁이오시프
af
▁멩
영화
평동
▁고금
▁다롄
▁묵시
▁소드
▁시메
▁알카
▁임사
▁종일
▁참호
▁티오
▁평사
▁필적
▁현내
연수원
raph
▁...
▁가부장
▁구독자
▁누군가
▁창세기
▁1831
▁각운동량
▁상륙작전
▁어니스트
▁사법연수원
UT
대왕
루브
연장
차크
▁pH
▁극좌
▁노토
▁루브
▁마수
▁방비
▁삼남
▁속현
▁수계
▁아강
▁아쉬
▁유약
▁처단
▁흐루
레이스
사우스
▁216
▁다섯째
▁도요타
▁휴양지
컬럼비아
▁총영사관
▁알렉산드로
▁우쓰노미야
▁노스캐롤라이나주
▁브리티시컬럼비아
누르
레도
치니
트론
elf
▁레흐
▁불도
▁절도
▁정산
▁조산
▁촉한
▁태사
▁현안
▁황궁
메이트
▁Bad
▁Run
▁독립당
▁선발전
▁수감자
▁아즈마
▁유망주
▁잉글리
▁척탄병
▁퍼거슨
ㅆㅇㅓㅆ
▁that
▁밀레니엄
▁스트라스
▁width
마켓
▁간통
▁국자
▁기틀
▁대면
▁살균
▁일례
▁전량
▁짜이
▁초본
▁최규
▁화친
그래프
▁460
▁달팽이
▁은평구
▁이와키
▁정나라
▁제이미
▁타이밍
▁피난민
▁호프만
▁다카마쓰
▁Great
▁align
▁콜레스테롤
▁엷
날두
라프
추리
키타
IST
ane
▁명회
▁물병
▁자객
▁지루
▁철권
▁코흐
▁파가
▁후버
▁RCA
▁달성군
▁돌아보
▁레인지
▁미시마
▁박지원
▁생산지
▁예비치
▁오로라
▁학부모
▁한니발
▁워싱턴주
▁사회주의자
WA
상가
오버
폭스
▁we
▁군무
▁김소
▁남문
▁명창
▁비핵
▁수개
▁양시
▁어셈
▁오두
▁윤지
▁지파
▁청두
▁총합
▁키요
스트로
▁Are
▁김유신
▁다케시
▁도리어
▁로런츠
▁울타리
▁클리프
▁호날두
▁호몰로지
▁깅
▁횃
가슴
묘지
장어
▁관철
▁레퍼
▁로펌
▁루르
▁빽빽
▁선왕
▁성호
▁수제
▁승소
▁신년
▁신변
▁주공
▁초조
▁쿼드
▁투과
▁하일
▁한지
▁가극단
▁다름없
▁부스터
▁오리올
▁자위대
▁합법화
▁이끌어내
09
누이
리가
▁광석
▁교두
▁근해
▁김봉
▁린네
▁북로
▁서훈
▁설가
▁엣지
▁여류
▁영일
▁피플
▁노동부
▁복잡도
▁비핵화
▁슈바르
▁애슐리
▁정반대
▁주둥이
▁요시히로
▁Every
▁나가사키현
▁프로테스탄
▁쉼
넬리
슬란
▁덕흥
▁디시
▁방형
▁배럴
▁비사
▁성층
▁승패
▁아도
▁양당
▁윈저
▁인턴
▁잡음
▁장진
▁클락
▁티니
▁파노
▁판권
▁410
▁Cor
▁군주국
▁지휘봉
▁코페르
▁1841
▁요시타카
▁무척추동물
▁숄
▁극성
▁몰살
▁분실
▁석호
▁신디
▁오수
▁의리
▁임차
▁중주
▁차질
▁파월
▁피르
▁고르바
▁귀퉁이
▁애프터
▁야나기
▁엡실론
▁일레븐
▁지원금
▁this
▁노브고로드
pm
도나
렉트
뿔소
살라
▁MR
▁나자
▁린턴
▁열린
▁커비
▁틀림
▁항거
▁가속도
▁버펄로
▁실종자
▁안후이
▁터키어
▁Inst
▁스토리지
▁모터사이클
▁캇
물질
상부
우마
카레
틸렌
▁EL
▁고비
▁꾸짖
▁난방
▁마더
▁멜리
▁봉승
▁색계
▁소감
▁실격
▁안달
▁어쨌
▁정장
▁청조
▁친필
▁타사
▁회합
거래소
tain
▁눈부시
▁법학자
▁인더스
▁제사장
▁진동수
▁통영시
▁베른하르트
▁Project
KA
▁핍
넬라
복음
ene
▁FL
▁UI
▁견주
▁군왕
▁노릇
▁당도
▁당부
▁라부
▁맬컴
▁머무
▁분대
▁색슨
▁선법
▁심볼
▁쌍방
▁안트
▁애버
▁엥겔
▁정대
▁조예
▁호골
▁휘그
▁리오스
▁보성군
▁음식물
▁레퍼토리
▁스파이크
▁인사이드
lement
▁멕시코시티
▁꿇
숭아
에즈
퓨터
▁Je
▁갈레
▁만과
▁몽케
▁박차
▁본드
▁야인
▁양전
▁연골
▁일지
▁중문
▁체이
▁판각
웨일스
▁YTN
▁보이저
▁서양식
▁고이즈미
▁다다요시
▁고르바초프
▁School
권력
테리
ize
ney
uth
▁남측
▁북조
▁생후
▁신창
▁엘튼
▁울림
▁위엄
▁유색
▁제군
▁침착
▁키미
▁핸들
ript
▁반다이
▁인도인
▁집현전
▁테크닉
▁토착민
▁뉴사우스
▁호쿠리쿠
▁뉴사우스웨일스
돈나
ott
▁가위
▁감로
▁김효
▁다원
▁도지
▁사멸
▁시퀀
▁어간
▁입교
▁자상
▁진관
▁타다
▁후스
껍데기
▁234
▁벤자민
▁총동원
▁케로로
▁프로페
스티누스
▁1843
▁가선대부
려주
테크
티엄
▁매핑
▁셰리
▁신촌
▁연선
▁연체
▁이따
▁전횡
▁정랑
▁통사
▁튜버
▁강진군
▁구로다
▁로망스
▁밤하늘
▁소방관
▁아소카
▁앙투안
▁에이미
▁진흥왕
▁차이나
▁케이지
▁펜티엄
▁브루크너
▁아나스타
▁웸
미드
퇴근
▁궤간
▁노블
▁누명
▁니르
▁사네
▁신데
▁아일
▁원예
▁은상
▁전군
▁주오
▁처남
▁코팅
▁페론
라이즈
▁Rad
▁key
▁구로구
▁남원시
▁미야코
▁위아래
▁의금부
▁칭다오
로리
웨시
▁꼭두
▁넥슨
▁데인
▁동음
▁레게
▁리빙
▁미혼
▁보은
▁업종
▁윤종
▁임지
▁장력
▁체의
▁파탄
▁프시
라리온
▁213
▁GPU
▁거주민
▁마애불
▁명명법
▁서보장
▁송광사
▁호르헤
▁비정규직
▁술라웨시
▁score
▁안드레아스
뉴얼
장식
키르
ama
▁교위
▁구파
▁도조
▁뒤편
▁마의
▁사족
▁어가
▁옐친
▁울진
▁전처
▁차우
▁찬반
▁처우
▁텐트
▁퍼드
르트르
▁UAE
▁김천시
▁만화책
▁몰아넣
▁미나토
▁버몬트
▁1809
▁더글라스
▁맥도날드
▁미끄러지
▁브리트니
▁20120
▁농어촌버스
▁시에라리온
▁옥타비아누스
▁귄
▁샛
노신
암면
조치
푸라
ins
rag
▁Im
▁up
▁개폐
▁계책
▁곤도
▁권영
▁반가
▁발단
▁배송
▁법당
▁성찰
▁수완
▁에니
▁온양
▁유모
▁장직
▁재량
▁판문
▁허니
▁허무
▁219
▁공예품
▁리스크
▁보이콧
▁설계자
▁애스턴
▁양주시
▁탈바꿈
▁신데렐라
SI
eng
▁고우
▁국판
▁남명
▁레니
▁만력
▁스메
▁신파
▁양제
▁예제
▁총상
▁험하
▁EOS
▁Mod
▁val
▁김제시
▁편집기
▁프렌치
▁1623
▁가시광선
▁카슈미르
▁브라이언트
경제
민턴
북동
중미
▁ha
▁간헐
▁드롭
▁발데
▁수월
▁야자
▁옐로
▁우의
▁총력
▁특파
▁파멸
▁Web
▁북중미
▁양주군
▁제이콥
▁진도군
▁1804
▁남태평양
▁와이파이
▁원더러스
EX
가쿠
마뉴
사촌
티니
▁nt
▁각계
▁겸손
▁권선
▁메기
▁불허
▁산군
▁석물
▁석학
▁수기
▁유람
▁총관
▁취역
▁탈옥
atic
▁감염병
▁광명시
▁기술력
▁담양군
▁라이히
▁생물체
▁출퇴근
▁홋스퍼
▁1783
▁1819
▁1835
▁샤를마뉴
▁헤르베르트
05
▁찔
더드
사지
rop
▁DP
▁ㅅㅛ
▁금품
▁급유
▁꺾이
▁아포
▁야노
▁유복
▁전법
▁조희
▁Rob
▁Sub
▁그리핀
▁바이든
▁뱅크스
▁부대원
▁샐러드
▁신숙주
▁초능력
▁클라우스
▁허베이성
▁오키나와현
말로
바노
▁궁예
▁근심
▁금주
▁김보
▁농악
▁마역
▁머릿
▁비탈
▁산학
▁생부
▁스무
▁연필
▁하룻
▁홍주
▁255
▁강동구
▁공포증
▁사토시
▁시어도
라이언스
▁궁수자리
▁매개변수
▁배드민턴
▁큼
에타
청정
▁고주
▁도민
▁매료
▁무적
▁박철
▁변제
▁보답
▁보주
▁부역
▁셀라
▁유랑
▁정운
▁최승
▁탁발
▁홍준
▁환생
▁회생
▁관광업
▁구조대
▁설득력
▁유태인
▁줄리엣
▁지구대
▁1799
▁1805
▁시어도어
▁프로펠러
▁애리조나주
▁ㅆ
▁퀵
네세
단조
룩스
룬궁
엄경
▁UF
▁가노
▁길쭉
▁네온
▁도당
▁레노
▁루빈
▁밀어
▁박희
▁배재
▁수미
▁암반
▁쟁탈
▁주루
▁캐스
▁티미
▁하랄
그레브
▁메이크
▁방문자
▁파룬궁
▁파스타
▁플뢰레
▁하룻밤
▁1803
▁1813
▁슈바르츠
▁자그레브
▁코페르니
입상
코어
▁am
▁계면
▁난입
▁보천
▁성시
▁오존
▁원균
▁조안
▁지망
▁지요
▁카도
▁포지
▁혼슈
▁275
▁막바지
▁상주시
▁시스터
▁영동군
▁장시간
▁키루스
▁하야시
▁1821
▁디바이스
블러
춘기
ams
▁광원
▁대간
▁돌방
▁리포
▁명기
▁무학
▁민병
▁사노
▁외세
▁진봉
▁축약
▁탄탄
▁함포
레우스
즈버그
▁미소녀
▁밑부분
▁스포트
▁아이비
▁안기부
▁카세트
▁파올로
▁고다이고
▁소프라노
▁아사쿠라
▁와이오밍
▁트랜스포
▁하비에르
▁인터랙티브
NS
na
▁쉴
▁쎄
생기
조약
▁Mc
▁교신
▁리호
▁문답
▁보태
▁분립
▁서영
▁선산
▁선주
▁소부
▁신드
▁여흥
▁와시
▁외롭
▁원대
▁저마
▁증설
▁지국
▁창사
▁타니
▁혈연
드랑이
▁ARM
▁Ind
▁구락부
▁번역본
▁브란트
▁비무장
▁소시에
▁알아채
▁다이렉트
▁법무법인
▁신약성경
ations
▁구마모토현
▁크리스토프
길동
롤터
erm
▁UP
▁간척
▁단념
▁매화
▁본점
▁송영
▁순사
▁애비
▁엘렌
▁연례
▁장본
▁재기
▁조밀
▁참새
▁충절
▁친교
▁파머
▁히포
▁번역가
▁전쟁터
▁주사위
▁주택지
▁훈련소
▁마스터스
▁지브롤터
▁스파이더맨
▁넵
광석
난히
봉산
oph
▁RF
▁기류
▁레디
▁부계
▁순국
▁순치
▁심혈
▁인맥
▁조운
▁지세
▁총신
▁저수지
▁함양군
▁슬라이드
▁영지주의
▁전자기파
▁20100
▁뎀
노지
야카
▁MY
▁VV
▁결점
▁나크
▁다승
▁다호
▁데릭
▁돌진
▁레터
▁바드
▁버디
▁수험
▁실라
▁양공
▁유쾌
▁임성
▁정열
▁조차
▁클립
▁Bel
▁Off
▁근거리
▁로열스
▁비트겐
▁아프간
▁양방향
▁이끌리
▁칼리파
▁호스팅
▁1845
▁YMCA
▁나카지마
▁코르도바
▁킬로그램
▁해양수산부
▁비트겐슈타인
럭스
함대
▁격돌
▁겸비
▁김익
▁나포
▁농노
▁불의
▁속박
▁쓰키
▁주정
▁지산
복지부
▁She
▁기울기
▁두드리
▁멧돼지
▁오마르
▁제후국
▁창녕군
▁파르티
▁피루브
▁형이상
▁HTTP
▁플러그인
▁증권거래소
런드
로메
▁KR
▁WK
▁각서
▁결부
▁고서
▁근친
▁민진
▁배합
▁비법
▁성상
▁섹시
▁아령
▁원뿔
▁중류
▁청천
▁체사
▁탱화
▁과도기
▁기쿠치
▁디지몬
▁레이드
▁레이터
▁발레리
▁사회부
▁얼스터
▁에드윈
▁웸블리
▁지원군
▁출연진
▁퇴적물
▁에인절스
▁오카자키
▁핵미사일
▁평양직할시
▁펨
두스
레알
미츠
바야
비노
시효
칼라
▁로잔
▁마유
▁만네
▁밀정
▁밀크
▁반탁
▁산도
▁산양
▁성유
▁세세
▁송강
▁시군
▁왕망
▁유린
▁유병
▁음극
▁일광
▁탈라
▁혼재
티나무
프리트
▁OEC
▁현무암
▁Down
▁에마누엘
▁전체주의
▁트리니티
▁미네소타주
▁에리트레아
▁페미니스트
we
xy
보전
▁EA
▁Em
▁구지
▁금오
▁다나
▁리티
▁만호
▁망가
▁무오
▁미쿠
▁비안
▁상보
▁응고
▁중창
▁질의
▁청양
▁크래
▁호우
▁금산군
▁오쿠보
▁파이낸
▁주계열성
▁댁
렌츠
무드
별초
▁가꾸
▁광무
▁괴테
▁랄프
▁무마
▁병리
▁분투
▁세그
▁오코
▁완충
▁종용
▁중년
▁진남
▁커맨
▁파면
▁포프
▁헌트
▁횃불
atur
▁OVA
▁바울로
▁베니스
▁사마의
▁사바나
▁영암군
▁음성군
▁이즈모
▁작용소
▁칼데라
▁파이썬
▁혁명당
▁화물선
▁휘트니
▁흑사병
▁스트로스
▁엠파이어
▁가고시마현
▁금메달리스트
03
▁헴
콘티
▁견과
▁결번
▁마네
▁밀로
▁아문
▁왕전
▁원지
▁윙스
▁이변
▁전령
▁진폭
▁타트
▁행법
▁교회법
▁노나라
▁불안감
▁사춘기
▁연나라
▁요시오
▁정읍시
보스토크
▁마츠모토
▁야마구치현
▁블라디보스토크
곡사
마트
혈병
▁강탈
▁격분
▁공제
▁군소
▁데루
▁도체
▁동관
▁무녀
▁섹터
▁신겐
▁앤젤
▁오드
▁요나
▁원추
▁육류
▁임박
▁재가
▁저당
▁활력
가르드
▁경순왕
▁동반자
▁라이즈
▁모기업
▁오사무
▁카스트로
▁International
▁거르
▁경직
▁계림
▁모계
▁목도
▁바레
▁서군
▁순절
▁스물
▁야오
▁역법
▁우등
▁은색
▁인방
▁전각
▁한수
▁회가
적으로
▁Act
▁다이라
▁우참찬
▁1775
▁1802
▁Just
▁스포르차
▁이탈리아인
▁윅
▁팥
아노
예보
ues
▁Sk
▁게코
▁마두
▁미화
▁본가
▁분청
▁비장
▁유례
▁유현
▁퍼부
▁푸트
▁POS
▁Ste
▁are
▁고구마
▁로도스
▁메이드
▁모리슨
▁빌리지
▁사이키
▁색소폰
▁수행원
▁아르마
▁완성도
▁출발점
▁크롬웰
▁루즈벨트
▁비스콘티
▁아랫부분
▁인기가요
▁피루브산
▁소시에다드
▁얼라이언스
06
만금
타기
▁GE
▁ㅇㅞ
▁구레
▁궁녀
▁김순
▁눈앞
▁메노
▁백금
▁변의
▁산현
▁수혈
▁시보
▁오귀
▁전태
▁절개
▁정미
▁추도
▁투라
▁227
▁BSD
▁ver
▁거창군
▁고생물
▁블레어
▁새만금
▁식료품
▁자존심
▁친동생
▁Korea
▁Micro
▁쏠
벌린
쿼이
▁남진
▁랭스
▁미케
▁아방
▁앵무
▁양사
▁오피
▁옥중
▁입선
▁자모
▁주법
▁지와
▁직구
▁집시
▁크누
▁팔로
▁프티
▁끝마치
▁도에이
▁산사태
▁수공업
▁전임자
▁점령지
▁토레스
▁트렌드
▁학년도
▁느티나무
▁마사히로
▁중합효소
▁페가수스
▁Power
▁아케메네스
게니
에다
▁단테
▁라빈
▁마드
▁문공
▁미역
▁시랑
▁에그
▁은총
▁측도
▁친근
▁Ang
▁Inc
▁노키아
▁마우리
▁서커스
▁수니파
▁아르타
▁아무르
▁중국식
▁크레인
▁푸른색
▁OECD
▁세그먼트
▁켄터키주
▁Award
닥치
러니
레마
슈빌
요크
클로
air
▁DE
▁기즈
▁드론
▁밀수
▁오언
▁이쿠
▁차내
▁투아
▁한일
▁흑자
어머니
▁218
▁Che
▁FTA
▁담아내
▁득점자
▁마사카
▁몰려들
▁브리핑
▁에이커
▁영연방
▁올라프
▁전환점
▁태권도
▁홍준표
aster
ittle
▁comp
▁수양대군
▁야마시타
▁어린아이
▁흘러내리
▁오스트로네시아
▁콴
가이
궤도
신기
파업
riv
▁굴곡
▁금당
▁나베
▁넓적
▁노팅
▁루가
▁목축
▁병장
▁에베
▁원순
▁자가
▁장충
▁카렌
▁특진
▁황조
세이돈
▁결론지
▁매크로
▁보령시
▁비욘세
▁스텔라
▁쌍계사
▁애호가
▁에스터
▁음악상
▁전산망
▁중견수
▁청년단
▁1824
▁야마자키
▁포세이돈
▁코페르니쿠스
▁웡
놀룰
아비
튠즈
▁감속
▁강민
▁기로
▁데어
▁라브
▁민첩
▁상아
▁선분
▁어종
▁어퍼
▁에렌
▁우먼
▁원당
▁이륜
▁정육
▁주박
▁한눈
놀룰루
ates
▁316
▁간담회
▁동작구
▁메이슨
▁몽골족
▁바르트
▁에이드
▁징역형
▁총파업
▁1808
▁1834
▁아이튠즈
▁에스파뇰
▁이사벨라
▁호놀룰루
45
▁Bu
▁VR
▁누드
▁러너
▁스이
▁장방
▁주동
▁타치
▁판독
▁해법
▁화의
샤오핑
▁305
▁512
▁How
▁Who
▁문인석
▁박원순
▁불어넣
▁세이버
▁의석수
▁지원병
▁헤비급
irect
▁1807
▁덩샤오핑
▁동프랑크
▁요시쓰네
▁아르메니아인
MC
ㅇㅘ
러햄
튿날
▁기예
▁들판
▁복건
▁빗대
▁시연
▁엄호
▁완행
▁유파
▁자일
▁제원
▁추앙
리스토
▁325
▁공격력
▁밀리언
▁중앙당
▁차일드
▁피어슨
▁피에로
▁2023
▁9000
▁개혁주의
▁뭄
▁줍
란도
▁고보
▁기약
▁나혜
▁라데
▁미처
▁발부
▁상학
▁수차
▁쉬르
▁신당
▁중군
▁찬송
▁501
▁노선도
▁마쓰이
▁발사대
▁생산물
▁안보리
▁이영호
▁호나우
▁엑스트라
▁췌
기름
인자
촌면
ava
▁DX
▁OR
▁TF
▁김택
▁문항
▁소하
▁야산
▁여종
▁이분
▁접대
▁정석
▁취입
▁티어
▁해면
▁고흥군
▁남대문
▁노이즈
▁니제르
▁덕양구
▁마돈나
▁무용가
▁스피릿
▁아오이
▁어쨌든
▁짝사랑
▁체이스
▁평양성
▁함안군
기군
릅쓰
리시
마당
사쿠
▁간쑤
▁귀박
▁노우
▁대보
▁돌궐
▁랜스
▁명곡
▁문란
▁석축
▁성결
▁용자
▁이비
▁작화
▁포체
▁호에
샘프턴
오피스
▁303
▁940
▁CNN
▁관람객
▁문교부
▁유타카
▁이튿날
▁Fire
▁아오야마
▁에이브러햄
와르
▁다각
▁수려
▁쓰쿠
▁오위
▁장유
▁특산
▁파란
▁피력
▁행주
▁행차
▁후천
트리스
▁253
▁경사면
▁괴산군
▁매출액
▁무릅쓰
▁스피어
▁에리히
▁외래어
▁Game
MI
du
랜도
바사
분별
ape
oud
▁구기
▁남만
▁덩치
▁반월
▁보가
▁섀도
▁예거
▁의향
▁이과
▁주미
▁지온
▁책상
▁햇볕
간지주
다나오
▁Tim
▁all
▁마산시
▁무제한
▁미코토
▁하르트
▁합중국
▁홍성군
▁확고히
티아누스
▁당간지주
▁콤플렉스
▁씹
▁힝
도어
문왕
▁가압
▁구드
▁김좌
▁뒷날
▁미티
▁백석
▁신보
▁압승
▁옥고
▁입회
▁카고
▁투척
▁폐암
▁행태
▁황룡
▁후두
룸푸르
▁ㄴㅏㅁ
▁보내오
▁빼어나
▁웨이크
▁유키오
▁페니키아
▁행방불명
TR
시장
진법
▁냉장
▁눈길
▁말갈
▁봉선
▁산세
▁삼위
▁생년
▁소조
▁송준
▁알프
▁우여
▁윔블
▁탑비
▁해롭
▁환호
▁par
▁감사원
▁교통량
▁대장경
▁미하엘
▁바나흐
▁전반전
▁테레비
▁휘발유
▁비상사태
▁스트라스부르
룬디
햄프
▁강박
▁고단
▁로카
▁부령
▁상쇄
▁속기
▁시련
▁쓰시
▁양치
▁영창
▁웨딩
▁음각
▁커밍
▁코토
▁키보
▁터리
▁토구
▁판교
▁하녀
리스타
ster
▁777
▁Ass
▁미카와
▁부산물
▁힐러리
▁말레이어
▁삼위일체
▁반유대주의
▁스테로이드
▁항공우주국
정책
지우
▁TP
▁가내
▁감영
▁고레
▁남코
▁민방
▁빌럼
▁소현
▁시급
▁응축
▁인어
▁장화
▁전치
▁조망
▁진왕
▁충정
▁키라
헌대부
▁강우량
▁경사지
▁뉴햄프
▁당분간
▁루도비
▁수녀원
▁수족관
▁위안스
▁윔블던
▁텃
베그
비시
▁가석
▁공위
▁다짐
▁단락
▁도저
▁박명
▁세차
▁소공
▁손오
▁아수
▁원호
▁체구
▁티그
▁패소
▁합세
오스트
ield
▁224
▁Hol
▁교차점
▁기업체
▁모니카
▁발상지
▁보수파
▁비키니
▁철도선
▁하남시
▁회의소
▁Mark
▁레버쿠젠
▁리카르도
▁카롤링거
▁잘츠부르크
미분
정지
ARD
▁다로
▁뒤셀
▁리온
▁미구
▁백마
▁백범
▁불발
▁석굴
▁예장
▁음수
▁칸토
▁컴포
▁코덱
▁평온
▁Dav
▁KAI
▁국경선
▁눈치채
▁상거래
▁세포질
▁신생아
▁아비뇽
▁안재홍
▁이동식
▁케이티
▁팬클럽
▁폭발물
▁1392
▁러더퍼드
▁아라카와
▁하코다테
▁Dance
▁뒤셀도르프
▁홀로코스트
CO
멘토
정기
하리
▁LD
▁동주
▁드와
▁약체
▁영제
▁오페
▁유황
▁자니
▁전영
▁제석
▁카누
▁편평
▁하토
게임넷
▁Pre
▁그레그
▁껍데기
▁나바라
▁사브르
▁상상력
▁앨리슨
▁올랜도
▁완벽히
▁플레어
▁허정숙
▁AIDS
▁마리우스
▁신비주의
▁온게임넷
▁보니파시오
오스트레일리아
▁Records
TO
zy
고백
바트
학사
▁감형
▁공구
▁납북
▁내통
▁노섬
▁대연
▁막말
▁명실
▁역간
▁처참
▁티비
▁헬멧
▁Air
▁마인츠
▁보상금
▁스턴스
▁1597
▁신앙고백
▁포츠머스
▁라이프니츠
터우
▁IL
▁나침
▁다트
▁당산
▁데크
▁두아
▁마정
▁무아
▁반칙
▁반투
▁완패
▁위세
▁카베
▁퀴어
▁해탈
노스케
ited
▁401
▁긴꼬리
▁나혜석
▁동구권
▁마사키
▁밸런스
▁복숭아
▁쉐보레
▁아폴론
▁에테르
▁원거리
▁윤선도
▁조사단
▁케이시
▁인조반정
▁보건복지부
▁시모노세키
▁위안스카이
냅스
타일
▁관부
▁굴뚝
▁단풍
▁달인
▁문리
▁방목
▁승화
▁와다
▁책자
▁최국
▁피파
▁헤딩
▁홍진
그러지
아가라
▁Now
▁Und
▁net
▁눈동자
▁두만강
▁모음곡
▁시냅스
▁에드거
▁옥타브
▁추진력
▁코나미
▁행진곡
▁그리피스
▁나이아가라
너리
니히
비르
코더
호텔
▁di
▁록맨
▁명망
▁성역
▁소이
▁육조
▁응집
▁잡종
▁집게
▁특보
▁판무
▁포티
로니카
▁Tri
▁계획안
▁바바라
▁보병대
▁집대성
▁카오스
▁타악기
▁홍천군
▁1833
▁시리우스
▁아이오딘
▁차이콥스키
▁트랜스포머
발라
ari
▁꾸란
▁나니
▁내과
▁더그
▁레우
▁식읍
▁심취
▁지프
▁진법
▁치부
▁코비
▁테너
▁토후
▁퇴학
▁해충
ning
ring
ther
▁530
▁공양왕
▁리저브
▁마틸다
▁여호와
▁의용군
▁초음파
▁파이트
▁표준시
▁구약성경
▁크리스털
곡절
관총
원사
저기
준호
▁군역
▁대시
▁도맡
▁묶음
▁병들
▁수모
▁완강
▁우가
▁원초
▁육사
▁입석
▁제논
▁진평
▁천성
▁최성
▁태클
▁트립
▁AEK
▁가평군
▁니코스
▁리소스
▁산기슭
▁아라키
▁접두사
▁조그맣
▁중랑장
▁찢어지
▁청계천
▁청도군
▁Real
▁사고방식
▁파이어폭스
▁프로테스탄트
bs
마침
자브
토끼
▁각하
▁근현
▁만인
▁면화
▁베넷
▁병참
▁볼가
▁봉천
▁삼매
▁이숙
▁재실
▁정다
▁좌완
▁중경
▁지기
▁초인
▁평단
▁항법
▁힉스
▁237
▁244
▁999
▁Cal
▁RFC
▁데이먼
▁말라위
▁아라이
▁아우디
▁등지느러미
네일
이츠
통감
▁경쾌
▁기라
▁도총
▁미그
▁세아
▁소급
▁우암
▁쿠프
▁헬라
▁호분
▁540
▁때마침
▁마쓰다
▁소유주
▁인디아
▁자부심
▁지배층
▁거듭제곱
▁블루투스
▁우여곡절
▁파이터스
▁욜
▁젝
무로
바겐
정신
카시
카쓰
▁MK
▁gr
▁계모
▁급식
▁브렛
▁세드
▁앤트
▁용법
▁전업
▁총명
▁최윤
▁캐머
▁학식
▁Mer
▁Ver
▁로미오
▁박중양
▁부산시
▁카톨릭
▁캐롤라
▁프로스
other
▁1787
▁Again
▁쭉
▁텀
ㅏㅇ
공격
권법
케라
포도
mas
▁고귀
▁고환
▁김남
▁난부
▁마름
▁말엽
▁방직
▁법대
▁벤투
▁사선
▁산후
▁순응
▁정혜
▁포이
▁풀럼
▁환각
▁회동
▁횡포
ated
▁265
▁Pol
▁가와치
▁깨뜨리
▁미에현
▁성행위
▁세바스
▁악영향
▁알파인
▁에릭슨
▁에이트
▁지하수
▁프리덤
보르기니
▁1816
▁1818
GE
▁긁
플라
▁ㅅㅖ
▁가만
▁고차
▁루벤
▁반시
▁선화
▁성안
▁소국
▁칸나
▁풍산
▁한상
▁321
▁560
▁ㅋㅏㅇ
▁가나안
▁개정판
▁계엄령
▁공학부
▁대동강
▁명목상
▁미워하
▁의사당
▁툴루즈
▁펀자브
▁다이라노
▁대통령령
▁트라우마
▁람보르기니
▁봅
▁셉
계선
수사
▁;"
▁OG
▁길가
▁난해
▁대례
▁레브
▁반년
▁발문
▁봉토
▁생육
▁성심
▁스탬
▁시세
▁양털
▁잡스
▁전초
▁초급
▁팬텀
▁포경
▁풍미
▁풍선
루시아
소년단
▁680
▁Fre
▁가석방
▁강경파
▁교두보
▁기록물
▁레이테
▁리처즈
▁속임수
▁일어서
▁킵차크
▁후시미
▁히데키
▁여기저기
▁파트너십
▁툭
양동
▁게양
▁고야
▁고영
▁교배
▁리허
▁명작
▁벌써
▁볼링
▁소제
▁수박
▁순화
▁시한
▁실링
▁아머
▁외피
▁유토
▁재림
▁코메
▁킬리
▁헌팅
▁호두
▁효행
▁후량
레슈티
▁나침반
▁뒤덮이
▁방어력
▁베로나
▁부안군
▁에치젠
▁체로키
▁프레시
▁Home
▁바티스타
▁스피어스
▁카를로만
▁하이델베르크
등기
미나
춘추
ATA
vil
▁OH
▁Si
▁객사
▁겐지
▁고명
▁맞먹
▁백련
▁수세
▁스탄
▁시녀
▁양명
▁이서
▁저온
▁풀밭
▁글쓰기
▁달서구
▁엘리사
▁유미르
▁유배지
▁정약용
▁홍백가
▁화학식
▁오스카르
▁20200
ME
▁간극
▁개천
▁농심
▁데라
▁마샬
▁망설
▁명승
▁변태
▁수탈
▁심복
▁양각
▁접견
▁칼날
▁태위
▁팀원
▁풍력
▁필즈
▁회남
▁245
▁262
▁263
▁DMB
▁ㅇㅏㅅ
▁걸어가
▁극소수
▁김원봉
▁남해안
▁단양군
▁모닝구
▁상록수
▁안도라
▁직선제
▁칠곡군
▁브롱크스
▁아세트산
▁중앙유럽
▁파르티잔
▁프레이저
DR
▁뻘
구동
보쿠
샤르
쓰키
와트
저리
주제
카즈
any
ook
▁RX
▁눈금
▁달라
▁더미
▁만행
▁모면
▁묵살
▁문의
▁박은
▁병부
▁샤먼
▁선적
▁원류
▁이충
▁저상
▁정우
▁조중
▁천억
▁코칭
▁판화
▁풍화
컴퓨터
평대군
▁SUV
▁imp
▁관공서
▁바르톨
▁의령군
▁이따금
▁카다피
▁Jour
▁우르바노
▁인도주의
▁히타이트
▁Never
▁프로페셔널
▁눔
▁찜
부패
전동
질기
징금
▁Ig
▁데프
▁도트
▁박문
▁사철
▁속명
▁식단
▁신수
▁아보
▁외양
▁요사
▁유표
▁인왕
▁조짐
▁진무
▁파급
ling
▁311
▁ㅇㅜㄹ
▁건드리
▁성장률
▁수산화
▁아브루
▁우메다
▁조선족
▁존스턴
▁줄어드
▁청량리
▁학술원
▁레이아웃
▁마르코스
▁꽉
다우
레네
톱스
OCA
▁KF
▁가출
▁간택
▁기뢰
▁다인
▁대홍
▁돌이
▁동리
▁레위
▁메탄
▁문호
▁사돈
▁산초
▁속곡
▁악용
▁우레
▁장도
▁정광
▁채식
▁철새
노비치
▁org
▁대국민
▁빚어지
▁수신기
▁스노우
▁이주해
▁적혈구
▁정선군
▁차라리
▁항구역
▁휘어지
케라톱스
Force
▁2600
▁다이오드
▁라치오주
▁부정부패
▁스탠다드
▁메달리스트
▁솅
inc
▁고상
▁군내
▁낙관
▁눈썹
▁독학
▁뮤즈
▁번가
▁비각
▁치솟
▁크론
▁토막
▁학관
티스트
▁UTC
▁out
▁골프장
▁불명확
▁시행령
▁원작자
▁유기물
▁시라쿠사
▁형이상학
ek
gy
▁뽕
콜라
히라
▁PV
▁Wr
▁강기
▁고루
▁악몽
▁양태
▁이두
▁인내
▁진중
▁폐업
▁포용
▁포커
▁피코
▁혼수
ival
▁386
▁대륙군
▁마운드
▁마일스
▁수성구
▁스파크
▁신뢰도
▁야마노
▁여고생
▁여학교
▁역무원
▁자주포
▁재방송
▁페라라
▁1778
▁그라나다
▁마사유키
▁버펄로스
▁아카이브
▁플리머스
네즈
변사
터슨
▁공론
▁군의
▁기복
▁기제
▁딱정
▁매시
▁바루
▁방파
▁버금
▁소가
▁스매
▁식생
▁신춘
▁양왕
▁어제
▁영공
▁Ber
▁끈질기
▁드레이
▁로이스
▁머레이
▁콜레라
▁태그팀
▁국민정부
▁레이더스
▁스키타이
▁스탠더드
▁연꽃무늬
▁해발고도
도전
디트
셀라
저트
전설
ely
▁경국
▁금발
▁닛코
▁모씨
▁변명
▁비버
▁습작
▁신격
▁연혁
▁임영
▁자파
▁진자
▁최단
▁캡콤
▁티탄
▁편대
▁폴드
▁행각
▁헤스
▁휴고
▁구례군
▁산청군
▁수페르
▁시바타
▁아르키
▁야전군
▁옹정제
▁후지타
▁left
▁앨프리드
▁제네시스
▁파피루스
lt
리처
발디
이시
▁교각
▁궁핍
▁근소
▁김화
▁달빛
▁대첩
▁리쿠
▁박병
▁배차
▁볼레
▁분신
▁비에
▁사담
▁엄중
▁에토
▁월계
▁일요
▁입방
▁장주
▁제복
▁통학
▁팬덤
▁Fri
▁기관사
▁내슈빌
▁대마도
▁미란다
▁비행선
▁슬럼프
▁조소앙
▁진보신
▁초나라
▁플레밍
▁Moon
▁교통수단
▁머리장식
▁트라키아
▁Summer
▁아르키메데스
추얼
츠만
raw
▁고라
▁김미
▁랜더
▁본대
▁성혼
▁셜록
▁수조
▁진통
▁코요
▁푸앵
▁퓨처
플러스
▁Die
▁경덕왕
▁레슬러
▁문무왕
▁문학부
▁이자겸
▁조슈아
▁1763
▁Type
▁스포츠카
▁평화통일
▁한국전력
르템
이동
카쿠
▁BJ
▁UD
▁갈대
▁관립
▁노자
▁도원
▁맹자
▁분구
▁수체
▁심도
▁역인
▁역적
▁오퍼
▁위급
▁유괴
▁잉어
▁제청
▁진산
▁한학
▁휴지
트리아
▁Pet
▁Soc
▁mod
▁동역학
▁부룬디
▁시작점
▁이제동
▁잠자리
▁적갈색
▁정신병
▁좌참찬
▁진안군
▁진행하
▁카트린
ouble
▁1780
▁City
▁모리오카
▁사라예보
르템베르크
슬론
애자
지드
케로
하타
▁Hz
▁동선
▁레자
▁물량
▁범종
▁빙판
▁시디
▁신식
▁약어
▁엽록
▁오행
▁온몸
▁옮겨
▁원광
▁월등
▁유량
▁저희
▁전근
▁조아
▁징발
▁찔리
▁참관
▁티타
▁현자
▁흥국
애슬론
커버리
클라베
▁Sil
▁def
▁고메스
▁대사성
▁사이고
▁이동한
▁퓨처스
▁1817
▁딱정벌레
▁사쿠라이
▁카를루스
▁콘클라베
시니
▁-.
▁국권
▁김철
▁누아
▁사누
▁사피
▁속출
▁엘람
▁외야
▁유르
▁즉석
▁타개
▁학무
▁313
▁Fun
▁Swe
▁남북한
▁노이만
▁레이철
▁반혁명
▁수뇌부
▁시간표
▁아우렐
▁애니콜
▁영천시
▁훈련장
▁랭커스터
▁말라리아
▁카트리지
베쓰
신론
lin
▁관입
▁그분
▁빙상
▁소신
▁식수
▁양질
▁열혈
▁육안
▁장공
차일드
▁겉모습
▁광산구
▁동인지
▁마땅히
▁보살피
▁보일러
▁사라이
▁손오공
▁아바스
▁최우선
▁특산물
▁1453
▁사실주의
▁스웨덴어
▁한국은행
▁헤르메스
yr
간드
극장
찰사
코이
▁Mk
▁NO
▁다산
▁다정
▁대월
▁던스
▁드니
▁반짝
▁비구
▁빈혈
▁시치
▁일축
▁장막
▁재킷
▁호종
▁훈구
곰자리
apan
▁MLS
▁Vis
▁구사론
▁리버스
▁무안타
▁에반스
▁웨일즈
▁코르넬
▁플레인
▁1825
▁나카가와
▁무라야마
▁우크라이나인
강도
델라
뚜기
레즈
중앙
ino
▁Sn
▁관인
▁기오
▁남도
▁닐스
▁대림
▁동그
▁병세
▁부쿠
▁사문
▁소명
▁수재
▁스냅
▁승무
▁오고
▁이극
▁지네
▁총탄
▁클랩
▁팰컨
ican
▁강연회
▁광양시
▁금정구
▁더욱더
▁사진가
▁수집가
▁아스타
▁억지로
▁재계약
▁채플린
▁쿠알라
▁열린집합
▁Album
▁Enter
▁방탄소년단
▁부쿠레슈티
▁쿠알라룸푸르
각시
스프
전서
충사
페어
err
▁곡사
▁광릉
▁노령
▁도내
▁람다
▁백합
▁산개
▁셰르
▁승문
▁신토
▁야나
▁에지
▁영가
▁응모
▁철갑
▁통수
▁호부
work
▁고려인
▁노르딕
▁도봉구
▁매장량
▁모듈러
▁바하마
▁비활성
▁세르비
▁외조부
▁헤엄치
▁헬레나
▁폭스바겐
▁하드코어
▁Techn
yp
▁뮬
나잇
덕리
빠르
자카
티콘
펠트
포동
포화
▁납세
▁니더
▁루도
▁마장
▁망토
▁미호
▁비바
▁서유
▁셔터
▁양광
▁외직
▁우뚝
▁우방
▁워프
▁이권
▁장동
▁제패
▁출몰
▁캐넌
▁코즈
▁호메
itch
▁980
▁고쿠라
▁금지법
▁레지옹
▁마사코
▁미술사
▁순환선
▁아이누
▁연수구
▁원피스
▁장덕수
▁클레르
▁Team
▁비토리오
▁코린토스
▁테네시주
▁흐루쇼프
그너
래곤
슈트
▁단추
▁동궁
▁망라
▁명료
▁성군
▁아밀
▁염전
▁우로
▁원구
▁음계
▁잔재
▁전등
▁충선
▁콥트
▁폐비
▁푸코
▁핀치
본주의
연구소
reet
▁관측자
▁광무제
▁김홍집
▁동남아
▁무자비
▁백혈병
▁소장품
▁신조어
▁엠블럼
▁영광군
▁집합체
▁1788
▁문하시중
▁분리주의
▁초전도체
▁크로스오버
▁사우스캐롤라이나
일점
치산
팔로
ope
▁KM
▁MI
▁과대
▁남강
▁디랙
▁무굴
▁미달
▁상전
▁소우
▁수혜
▁심경
▁아퀴
▁외우
▁워렌
▁정액
▁편도
▁황기
▁도로시
▁도저히
▁리누스
▁부총재
▁브라만
▁사업비
▁스티커
▁아리마
▁전봉준
▁조그마
▁카이두
▁마사무네
▁포항제철
▁호메로스
▁앨라배마주
▁Little
▁홑
화사
▁fe
▁가용
▁강정
▁검역
▁경왕
▁근절
▁김신
▁꺼지
▁반송
▁오현
▁의전
▁이요
▁조원
▁칩셋
▁케토
▁태정
▁품류
메이슨
▁ㅇㅔㅅ
▁네모나
▁레트로
▁셰필드
▁시나이
▁시마네
▁에디터
▁연기력
▁요크셔
▁의화단
▁조선어
▁코발트
▁퍼킨스
▁해왕성
축구협회
▁1593
▁1828
▁무스타파
▁민다나오
▁판타스틱
▁First
▁대한축구협회
럽트
록색
슈나
스름
ird
ler
▁VL
▁개역
▁갯벌
▁고품
▁기득
▁성신
▁손잡
▁쇄신
▁약초
▁용모
▁원어
▁질주
▁초구
▁한영
▁허나
▁흑연
도토스
무스메
▁Cre
▁관측소
▁기동성
▁뒷부분
▁런타임
▁매표소
▁사냥개
▁서천군
▁신해철
▁워터스
▁참으로
▁합격자
▁히로유키
▁모닝구무스메
메인
무진
바위
▁AW
▁HR
▁네버
▁녹훈
▁누출
▁도일
▁무정
▁사샤
▁역관
▁용담
▁이그
▁주현
▁지안
▁테루
▁표고
▁후주
▁.."
▁극락전
▁나이토
▁마젤란
▁빙그레
▁실비아
▁안세이
▁이방인
▁진사시
▁충성심
▁탈리아
▁황금기
▁모더니즘
▁무한도전
▁브리즈번
▁이브라힘
▁페널티킥을
다라
ike
ves
▁Nt
▁격노
▁경당
▁교상
▁난폭
▁먹히
▁방진
▁비신
▁석실
▁아달
▁오동
▁원경
▁준용
바니아
▁860
▁나오키
▁미도리
▁법상종
▁삼별초
▁신경망
▁이규완
▁이스터
▁제미니
▁휘그당
▁SEED
▁구부러지
▁한국일보
▁자유주의자
▁주간고속도로
▁아우구스티누스
첼로
패닉
▁노기
▁도프
▁리뉴
▁리디
▁미우
▁보크
▁속옷
▁안도
▁앙헬
▁에비
▁열녀
▁예민
▁저승
▁전편
▁종반
▁주걱
▁타바
▁통가
▁티티
▁하목
▁한탄
▁회자
ress
▁333
▁로버스
▁록펠러
▁미켈란
▁베이시
▁보호령
▁사이코
▁쇼펜하
▁수사관
▁아리안
▁에미상
▁옥개석
▁자연히
▁장본인
▁장신구
▁초이스
▁퓰리처
▁Happ
▁모리셔스
▁모하마드
▁세종실록
▁인터럽트
▁헐리우드
▁히스패닉
▁Stage
▁쇼펜하우어
▁수페르리가
UL
ha
▁쉰
개토
게르
▁계비
▁고착
▁굴드
▁낙점
▁로슈
▁마제
▁바카
▁불연
▁시럽
▁알콜
▁엄하
▁역병
▁울창
▁임재
▁진달
리아노
▁960
▁몽골어
▁산리쿠
▁수호이
▁시퀀스
▁에디슨
▁일라이
▁정상부
▁패미컴
▁프랑켄
▁스타트업
▁안드로메다자리
임새
장성
코니
▁다뉴
▁동강
▁송수
▁알란
▁어귀
▁연경
▁연접
▁우와
▁울라
▁원각
▁인목
▁인트
▁장마
▁재키
▁좡족
▁침실
▁카가
▁코먼
▁혜왕
▁황주
▁힐튼
카이치
▁레이첼
▁메소드
▁선인장
▁섬네일
▁지표면
▁클로즈
▁탐험대
▁포르쉐
▁피오나
▁필살기
▁다이애나
▁로트링겐
▁집적회로
▁펩타이드
ts
지상
키리
털루
하치
▁공범
▁교민
▁더듬
▁미흡
▁민스
▁뼈대
▁살포
▁소학
▁신나
▁악행
▁안국
▁양기
▁종위
▁큼직
▁탐라
▁하대
▁항변
스티스
파고스
▁Dig
▁광개토
▁남동구
▁수십만
▁양성소
▁잡아내
▁주제곡
▁차베스
▁크랭크
▁피그미
▁항등식
▁황무지
▁1636
▁에너지원
▁이로쿼이
▁인디애나주
ze
관광
소프
출마
ars
oom
▁If
▁OL
▁ㅈㅜ
▁간절
▁굳건
▁규소
▁기침
▁다드
▁단부
▁당면
▁왕상
▁의열
▁제회
▁퇴거
▁파시
머니즘
자유당
▁229
▁POP
▁갑상선
▁꽃가루
▁내려놓
▁도파민
▁무분별
▁수호신
▁캐머런
▁특파원
▁페드루
▁포병대
▁헤이케
▁Hist
▁poem
▁국제기구
▁이집트인
▁차가타이
▁크로노스
▁민주자유당
▁된
리프
베다
시드
켄지
ECT
umb
▁검교
▁경리
▁굴착
▁남대
▁단언
▁도면
▁법치
▁사별
▁산발
▁신광
▁오레
▁올가
▁이라
▁잉태
▁정준
▁초각
▁콜트
▁혈전
▁관박쥐
▁따라오
▁마사토
▁베니토
▁청취자
▁초거성
▁표지판
▁1797
▁1838
▁물병자리
▁보호관찰
▁트레이시
▁예카테리나
PG
▁ed
▁강태
▁구주
▁기내
▁로더
▁보소
▁빈스
▁아슈
▁예기
▁용호
▁자영
▁최동
▁편년
▁한우
군주제
▁Pla
▁가쓰라
▁가처분
▁경산시
▁고용주
▁공문서
▁공작원
▁동두천
▁브라이
▁송준길
수염박쥐
▁2024
▁프리스타일
▁새천년민주당
자료
환국
▁Sa
▁곡성
▁금방
▁대박
▁뒤섞
▁루앙
▁명랑
▁무령
▁물들
▁볼라
▁불운
▁시일
▁신승
▁신증
▁역경
▁영내
▁용두
▁유임
▁질타
▁초명
▁호구
▁화단
▁황화
▁힘차
▁Tom
▁남수단
▁노비타
▁사투리
▁성희롱
▁슬라이
▁컨셉트
▁야마나시
▁헝가리인
▁히스파니아
yc
덕사
지움
현리
▁MG
▁ㅎㅣ
▁구소
▁듀이
▁박순
▁베인
▁부츠
▁비웃
▁순열
▁약재
▁연제
▁직역
▁천진
▁평시
▁허적
스탕스
▁AES
▁경사각
▁경호원
▁대표부
▁리베라
▁민스크
▁사육신
▁파티마
슈바이크
▁1777
▁Plan
▁다치바나
▁스케이프
▁노스웨스트
▁레지스탕스
▁페르세우스
워싸
의어
텍스
▁광교
▁구균
▁남면
▁니노
▁만루
▁말뚝
▁무량
▁바벨
▁반미
▁석장
▁압류
▁어진
▁은닉
▁지라
▁찰나
▁태실
▁편광
▁학상
▁황토
▁249
▁323
▁MBN
▁SAR
▁나루토
▁서귀포
▁스코프
▁에워싸
▁영양분
▁영주시
▁웹스터
▁저소득
▁적시타
▁진천군
▁회색빛
▁나카모리
▁마티아스
▁미켈란젤로
▁브라운슈바이크
PN
가치
림리
마에
착륙
get
ris
▁락스
▁소품
▁수고
▁신랑
▁원세
▁종별
▁중진
▁증보
▁캘빈
삼각형
uman
▁PSP
▁김정희
▁리허설
▁마술사
▁말버러
▁발트해
▁예천군
▁정여립
▁총감독
▁카르타
▁편집국
▁화엄경
▁히메지
▁네이티브
▁로테이션
▁테마파크
▁플랑크톤
▁솔트레이크
▁아일랜드어
빌라
천후
▁ph
▁갈망
▁공비
▁금과
▁난바
▁내연
▁니어
▁도킹
▁멀린
▁볼턴
▁붓다
▁브록
▁비누
▁열병
▁유종
▁인두
▁주종
▁질감
▁찬미
▁참되
▁항등
ross
▁266
▁810
▁갈라타
▁기무라
▁도플러
▁서울역
▁신간회
▁온건파
▁코스닥
▁크루스
▁나가오카
▁드레스덴
▁레이먼드
▁트레일러
▁right
▁쑥
▁씽
덕면
롤라
무사
포츠
폭력
uro
▁Ap
▁DT
▁검단
▁고졸
▁구한
▁난소
▁만슈
▁북주
▁사공
▁성나
▁슈만
▁애쉬
▁애용
▁일약
▁처자
▁쾌적
▁파로
▁der
▁관리법
▁근연종
▁너구리
▁미추홀
▁스크롤
▁역전승
▁워털루
▁은하수
▁텅스텐
▁토후국
▁하인츠
▁호남선
▁김나지움
▁문화재청
▁브라이트
▁디스커버리
▁미시시피주
▁브리타니아
▁콜라보레이션
르담
켤레
키치
▁Km
▁동질
▁로직
▁루미
▁메토
▁모유
▁법사
▁선군
▁세터
▁원안
▁유두
▁인동
▁쟁이
▁죄목
▁카구
▁페달
▁피델
▁구매자
▁다뉴브
▁레반트
▁미노루
▁미술품
▁법무관
▁불어나
▁셰이크
▁외손자
▁우분투
▁재통일
▁전람회
▁지멘스
ative
▁Conc
▁Gold
▁나뭇가지
▁노트르담
▁모리타니
▁아브루초
▁윗수염박쥐
▁function
▁쩌
랜즈
els
▁MO
▁TE
▁Vo
▁ㅆㅣ
▁능률
▁니우
▁대불
▁도인
▁레몽
▁루니
▁류성
▁마미
▁면도
▁본받
▁비앙
▁서화
▁암사
▁의탁
바라기
ific
▁353
▁570
▁May
▁var
▁보급품
▁부평구
▁오베르
▁의정서
▁조건부
▁진주성
▁털어놓
▁펌웨어
▁허스트
ㄴㄷㅡㄹ
▁main
▁대학원생
▁선덜랜드
▁카나리아
▁판의금부사
▁왁
케르
티르
▁급감
▁기꺼
▁내해
▁도가
▁마노
▁모성
▁법의
▁분가
▁분분
▁비소
▁빗물
▁섭동
▁순방
▁위화
▁읍내
▁장명
▁조강
▁천인
▁추수
▁태즈
▁파치
▁파타
▁하네
▁회령
▁회송
▁효시
ㄱㅜㄴ
스카야
line
▁257
▁306
▁Sky
▁관중석
▁광주군
▁대역폭
▁로베스
▁메디아
▁유력자
▁주원장
▁춘추관
▁캐피탈
▁테이트
▁팔레르모
▁Gener
▁로베스피에르
▁럽
소녀
언군
ACK
▁Pi
▁so
▁고봉
▁국학
▁극하
▁리야
▁말레
▁복도
▁북문
▁서른
▁양해
▁어근
▁에덴
▁에센
▁용납
▁월성
▁일일
▁임오
▁콘도
▁페소
▁평영
▁풍성
▁하한
디비시
베르데
야말로
혁명당
orth
▁갈매기
▁공격자
▁나아지
▁들려주
▁라이징
▁미크로
▁발원문
▁일대기
▁자본금
▁조언자
▁페르마
▁1784
▁1826
▁니가타현
▁블록체인
▁패러데이
▁에레디비시
WC
에나
태영
후미
ero
▁고맙
▁과소
▁군공
▁뉴펀
▁등식
▁랄리
▁안수
▁은화
▁잔기
▁진시
▁창법
▁한기
▁협연
▁화구
▁화나
▁RAM
▁TCP
▁군포시
▁라벤나
▁세기말
▁수에즈
▁신대륙
▁연합체
▁위스키
▁윤원형
▁이니셜
▁이승훈
▁인도양
▁재조합
▁평신도
▁Char
▁ISIL
▁매리너스
▁콜로라도
▁하나하나
▁뉴펀들랜드
▁위스콘신주
렁크
링스
사장
야식
AND
▁간언
▁당구
▁드가
▁방역
▁사복
▁삼도
▁선량
▁외장
▁이다
▁최정
▁치매
▁칙서
▁620
▁Vir
▁관습법
▁미적분
▁슈바벤
▁워크스
▁조이스
▁충선왕
▁에노모토
▁영산회상
▁카탈로그
▁Class
▁하이라이트
디크
왕도
▁대산
▁링고
▁물음
▁삼보
▁상비
▁성토
▁신령
▁액자
▁야역
▁어마
▁어벤
▁오족
▁원외
▁지간
▁측실
▁토종
▁함축
▁환공
엽수림
▁273
▁404
▁STX
▁app
▁과학부
▁군자금
▁금지령
▁기꺼이
▁긴장감
▁드레드
▁맘루크
▁바이런
▁부지사
▁수출입
▁양양군
▁에일리
▁운전사
▁유스티
▁장흥군
▁저압부
▁하이데
▁part
▁드래건스
▁하마마쓰
▁갈라파고스
라티
밍턴
엔드
첼리
쿠마
▁Da
▁Rh
▁경공
▁군악
▁더더
▁라키
▁막론
▁변위
▁수납
▁이혜
▁천공
▁코아
▁파비
▁헥사
▁힘러
▁630
▁But
▁겨울잠
▁구릉지
▁노후화
▁대구경
▁마오리
▁마커스
▁불신임
▁스피너
▁시집가
▁애국심
▁은언군
▁이시이
▁하리마
▁TOUR
▁삼성그룹
▁옥스포드
▁이복동생
▁전용도로
▁찾아다니
▁아일랜드인
놀즈
티늄
ren
▁건기
▁곡률
▁교목
▁다부
▁두목
▁룬드
▁범퍼
▁보타
▁상산
▁석좌
▁수르
▁수안
▁옥산
▁인화
▁좌초
▁최인
▁토치
▁파블
▁퍼트
세서리
▁GHz
▁군부인
▁리디아
▁문하생
▁벨리즈
▁부조리
▁세르히
▁소작농
▁수자원
▁스토크
▁아메리
▁야코프
▁연면적
▁은밀히
▁저항성
▁포츠담
▁Dark
▁More
▁에히메현
olution
▁미크로네시아
▁가람
▁광천
▁날로
▁데비
▁레그
▁말투
▁방아
▁성탄
▁슈마
▁스탭
▁야유
▁여리
▁이춘
▁장연
▁저빌
▁절실
▁절이
▁접히
▁징용
▁코보
▁튀김
▁향유
▁화평
▁880
▁God
▁국세청
▁그로브
▁릴리즈
▁생방송
▁요아힘
▁제럴드
▁중남부
▁중앙동
▁참석자
▁희극인
umber
▁1680
▁Long
▁다카사키
▁언더우드
▁해바라기
▁민코프스키
걸스
녜스
장이
포항
ful
ius
▁경장
▁교점
▁구심
▁날조
▁로쿠
▁백남
▁봉신
▁비관
▁세나
▁세인
▁양모
▁엉뚱
▁연명
▁이찬
▁재조
▁정릉
▁화정
▁회선
메이커
▁bes
▁감독관
▁닉네임
▁몽구스
▁시프트
▁양천구
▁음악인
▁재래식
▁정치범
▁지치부
▁천태종
▁카이퍼
▁키케로
▁통일부
▁현대식
▁혼마루
▁활화산
itude
▁소방본부
▁아키타현
▁페데리코
▁Japan
▁찹
데나
▁px
▁경서
▁궁도
▁늘이
▁사색
▁설날
▁아계
▁염원
▁이음
▁장석
▁재거
▁저런
▁정호
▁천호
▁췌장
▁판다
▁Fla
▁고속철
▁대마초
▁대방광
▁메네스
▁몰려오
▁배심원
▁선교회
▁수필가
▁아루바
▁영남대
▁인덱스
▁정복자
▁제트기
▁토바고
▁파울리
▁헨리크
▁8859
▁국민은행
▁다이어그램
▁메릴랜드주
GS
▁솥
타자
▁Sl
▁__
▁nd
▁귀부
▁랠리
▁레코
▁방산
▁번사
▁변주
▁스틴
▁야고
▁언양
▁얽매
▁여중
▁오치
▁이가
▁입궁
▁정평
▁초순
▁커튼
▁팩터
less
▁ㅁㅔㄴ
▁기차역
▁남학생
▁마니아
▁미국식
▁벨라스
▁봉화군
▁아메바
▁의왕시
▁이와타
▁이코마
▁자아내
▁트렁크
▁나미비아
▁진핵생물
▁테크니컬
▁페르미온
▁흘러나오
to
▁갠
▁밉
무역
산역
쓰카
연사
즈다
테로
era
led
▁KP
▁갑과
▁고뇌
▁대식
▁리토
▁봉투
▁불우
▁상군
▁수론
▁시무
▁안료
▁완봉
▁요요
▁인포
▁질책
▁최창
▁켤레
▁페놀
▁폴더
▁하퍼
▁헬름
프레임
▁236
▁TNA
▁마가렛
▁마테오
▁볼거리
▁사령탑
▁상징물
▁앙카라
▁제레미
▁로테르담
▁석불입상
▁적십자사
▁Group
▁Stand
▁댕
ㄹㅐ
발리
새우
찰청
▁BP
▁광기
▁구정
▁노고
▁도니
▁로건
▁미제
▁심해
▁오펜
▁인부
▁재적
▁접영
▁정창
▁정촌
▁퀴리
▁풍조
▁호도
네이터
ople
▁Aut
▁NGO
▁SNK
▁경영난
▁곰팡이
▁공손찬
▁명부전
▁셀틱스
▁아가미
▁아르민
▁정류소
▁제천시
▁충무공
▁코베인
▁현충원
▁휩쓸리
▁Fall
▁Year
▁대검찰청
▁시마네현
▁잉글리시
▁체임벌린
▁Girls
모트
사항
임자
지방
▁OM
▁가례
▁건반
▁금석
▁병설
▁부아
▁북청
▁샤크
▁성황
▁시복
▁안현
▁이응
▁진부
▁청백
▁타슈
▁파평
▁폰티
▁항암
▁304
▁OFC
▁계산기
▁구덩이
▁도전자
▁루시아
▁리포터
▁문화상
▁스트링
▁실력자
▁주자학
▁튀링겐
▁파열음
▁페트라
▁홍건적
투아네트
프레이즈
▁1620
▁가와카미
▁남중국해
▁레이놀즈
▁전통문화
▁Beaut
소수
와프
운사
▁LL
▁게스
▁고함
▁기절
▁남이
▁내년
▁네빌
▁노정
▁농수
▁뇌터
▁대작
▁똑똑
▁멸치
▁아센
▁연변
▁우고
▁융성
▁제과
▁주례
▁체급
▁폭설
▁하청
▁한결
▁호드
▁화천
▁470
▁GUI
▁res
▁고릴라
▁공로상
▁기동대
▁내버리
▁뒷다리
▁로리타
▁르베그
▁리아스
▁무한히
▁반대자
▁부풀리
▁삼척시
▁신중도
▁중심가
▁콜로니
iness
▁비엔날레
▁스티븐슨
▁아유타야
▁아킬레스
▁표현주의
▁푸앵카레
가드
메데
성장
▁기년
▁남초
▁도의
▁뒤쫓
▁들뜨
▁레토
▁마담
▁법체
▁분묘
▁비티
▁사경
▁사타
▁산국
▁아탈
▁악사
▁알자
▁약관
▁에머
▁연개
▁우현
▁위인
▁절기
▁청대
▁최익
▁태고
▁후크
달레나
슬레이
▁247
▁415
▁Bra
▁MGM
▁UFC
▁관리인
▁데미지
▁마이트
▁버금가
▁아카시
▁의료진
▁일반직
▁주성분
▁지리지
▁카니발
▁태안군
▁하루히
▁하행선
▁후원회
▁1822
▁날아다니
▁포클랜드
▁Sweet
ㄴㅔ
강원
댑터
득이
키오
▁납득
▁대권
▁본과
▁북키
▁산대
▁소다
▁스스
▁양안
▁용골
▁이괄
▁잡이
▁직할
▁출하
▁치바
▁쿼리
▁터전
▁토큰
▁프릴
▁한두
▁한시
텐디크
▁Ret
▁ㅇㅓㄴ
▁광진구
▁세미놀
▁신의주
▁안무가
▁어댑터
▁재빠르
▁주동자
▁캐리어
▁파이퍼
▁프리즘
▁고전주의
▁크리스트
▁헨드릭스
▁White
▁그로텐디크
▁Direct
나크
르겐
사토
토닌
▁검진
▁고자
▁곧장
▁기모
▁노크
▁백양
▁병약
▁본위
▁봉급
▁부석
▁아톰
▁왼발
▁자드
▁작별
▁적국
▁탈영
▁티토
▁플롯
▁허벅
▁확증
▁후송
디스트
▁Bus
▁군부대
▁로고스
▁메디컬
▁방어전
▁비슈누
▁사나다
▁승문원
▁우주국
▁출입국
▁풀타임
▁헬무트
▁1660
▁1811
▁LGBT
▁보르네오
▁캔자스주
▁앙투아네트
▁프리메이슨
AX
깨우
디니
소네
이라
▁CI
▁강론
▁내력
▁노라
▁면세
▁몬티
▁묵인
▁배교
▁백상
▁비드
▁선착
▁양준
▁우당
▁의기
▁전생
▁체액
▁태원
▁파수
▁피임
▁환수
예비치
▁SHO
▁매개체
▁변경백
▁부코바
▁성주군
▁소득세
▁수행자
▁신고식
▁오세아
▁외로움
▁이사금
▁자작곡
▁정무직
▁파이리
▁플렉스
lease
▁Miss
▁로버트슨
▁마요르카
▁볼리바르
▁카운트다운
▁크리스티아
▁헤로도토스
fr
배상
시안
음악
▁KL
▁공진
▁김안
▁내선
▁독보
▁루주
▁미마
▁번안
▁벌목
▁불선
▁순진
▁시들
▁심재
▁아롱
▁용융
▁음파
▁적립
▁전가
▁특검
▁패닉
▁히우
▁345
▁710
▁Cry
▁갈루아
▁능력자
▁다득점
▁데이비
▁법주사
▁불포화
▁서라벌
▁수세기
▁스트롱
▁스트립
▁시발점
▁알레포
▁우거지
▁유스케
▁은신처
▁일일이
▁패터슨
▁플라잉
▁가니메데
▁그야말로
▁꼭두각시
▁스탠포드
▁스프린트
▁오카모토
▁하드리아누스
▁Christmas
gg
▁놉
렌트
좌상
erv
▁Fi
▁각막
▁감귤
▁다임
▁단총
▁무반
▁민트
▁상술
▁소독
▁소성
▁스톱
▁씨방
▁육영
▁자퇴
▁초간
▁초승
▁폭락
▁행상
▁허셜
▁화분
▁후카
▁괘불탱
▁넥서스
▁다비트
▁비변사
▁저마다
▁체세포
▁1610
▁루도비코
▁마라도나
▁사다리꼴
▁슬라이더
▁해운대구
▁렴
거북
무이
산염
종합
타다
asy
▁교조
▁룰라
▁박창
▁방광
▁배추
▁사재
▁언행
▁엑소
▁은유
▁절지
▁첨탑
▁페미
▁한나
▁효령
▁훌린
순양함
테우스
▁나이키
▁달려오
▁발표회
▁산호초
▁식물학
▁실업자
▁쑤저우
▁암살자
▁영월군
▁임진강
▁칼리프
▁Roll
▁아뢰야식
▁오리건주
▁지주회사
차오
ald
▁가트
▁강선
▁검소
▁공역
▁난시
▁능히
▁라싱
▁문맹
▁물산
▁부로
▁비노
▁비파
▁스필
▁에콜
▁오션
▁와우
▁완승
▁유향
▁일인
▁일절
▁조업
▁조프
▁진종
▁흥업
▁개혁가
▁나이츠
▁누리꾼
▁마린스
▁수송선
▁시흥군
▁울진군
▁이데아
▁이스타
▁인천시
▁조로아
▁청송군
▁클랜시
▁포커스
▁피아트
▁히라이
니아누스
▁1770
▁소행성대
▁요시미쓰
▁컴포넌트
▁해군기지
▁Elect
▁크리에이터
sy
대상
디브
예트
nal
▁AH
▁공교
▁덴분
▁라타
▁말살
▁맥라
▁밧줄
▁배스
▁백스
▁별시
▁봄바
▁수보
▁약소
▁어순
▁웨버
▁의관
▁입건
▁자화
▁작은
▁조진
▁채드
▁토번
▁판시
▁피레
▁피보
▁해마
ㄹㅏㅇ
▁pop
▁거북이
▁대구시
▁물방울
▁자연법
▁주둔군
▁최고봉
▁카시오
▁크로마
▁클랩튼
▁마쓰야마
▁이바라키현
▁ㅇㅕㅆㅇㅓㅆ
▁GeForce
CE
가나
노미
뎅이
떡잎
랴쿠
문제
잭션
청사
fin
▁Ca
▁근신
▁기력
▁기입
▁매혹
▁메티
▁북두
▁액면
▁어택
▁엘베
▁웅변
▁조간
▁죄책
▁중임
▁차인
▁통째
▁팬터
▁243
▁끓는점
▁동음이
▁망설이
▁모회사
▁바우어
▁위그노
▁유의미
▁일깨우
▁임실군
▁전시실
▁제이컵
▁최신형
▁코카인
▁특별상
▁험프리
▁홀랜드
▁트랜잭션
▁포메이션
88
뮤다
▁Tu
▁고신
▁나그
▁등각
▁로아
▁링스
▁목초
▁무모
▁분말
▁사포
▁상봉
▁선국
▁쇄도
▁순무
▁스치
▁신채
▁오모
▁이징
▁카포
▁키츠
▁토가
▁페름
▁하양
▁형평
레흐트
메랄드
토니오
▁Mat
▁NCA
▁간사장
▁동호회
▁로비치
▁버뮤다
▁불가침
▁영양소
▁유원지
▁이동해
▁인스트
▁재건축
▁중남미
▁참나무
▁초음속
▁출루율
▁하우젠
▁1604
▁Comm
▁드래곤볼
▁봅슬레이
▁석불좌상
▁에메랄드
▁오피스텔
▁타카하시
bc
ka
닝스
판윤
▁HM
▁Na
▁Us
▁거동
▁계양
▁교세
▁그렉
▁다도
▁무디
▁스컬
▁장호
▁표수
▁혈당
▁호성
▁후륜
레인지
oman
▁Mem
▁광우병
▁데이지
▁드래그
▁분석가
▁수사학
▁시리얼
▁얽매이
▁우익수
▁졸업식
▁중시조
▁쥐라기
▁침례교
▁카디프
▁카펠라
▁헤럴드
▁3500
▁IDOL
▁맞아들이
▁미쓰나리
▁요시노리
▁에르난데스
▁한성부판윤
ml
군트
렐리
록스
소송
워프
진흥
태후
트만
BSD
▁QS
▁서얼
▁양화
▁요일
▁우량
▁주당
▁카제
▁탄창
▁테디
▁팔달
▁푸이
▁플린
▁피격
▁허준
▁화법
에이터
▁930
▁mac
▁더더욱
▁동해안
▁로지스
▁마르텔
▁부적합
▁블랙번
▁호시노
▁부르군트
▁지그문트
▁핀란드어
아과
아스
▁괴담
▁귀도
▁네리
▁대함
▁램지
▁명신
▁봉행
▁스펠
▁웨스
▁점막
▁정각
▁종성
▁증조
▁질식
▁충만
▁크롤
▁협찬
롭스크
부쿠로
즈베리
aven
ible
▁경시청
▁공급원
▁달리기
▁랜더스
▁마르키
▁마자르
▁몰디브
▁브라흐
▁시그널
▁오랜만
▁이홍장
▁중합체
▁지하실
▁타이타
▁페루자
▁한림원
▁홍길동
▁1519
▁스테파니
▁아드리안
▁아흐마드
▁약사여래
▁에이로쿠
▁중심주의
▁탄화수소
▁파우스트
▁파이프라인
▁캐치프레이즈
mb
▁ㄸ
▁겟
▁깍
팬지
▁군장
▁기선
▁답습
▁두건
▁뜻밖
▁머드
▁목련
▁방재
▁사저
▁성비
▁손견
▁에라
▁역수
▁왕사
▁외지
▁유코
▁징시
▁초의
▁초토
▁카게
▁통설
▁특무
▁파베
▁회개
ents
▁286
▁307
▁런던탑
▁맥라렌
▁메콩강
▁미즈키
▁아그리
▁아스트
▁이방원
▁인디펜
▁장성군
▁전리품
▁카메오
▁통감부
▁통행료
▁플리트
▁히카리
▁1827
▁1829
▁고생물학
▁네바다주
▁니코니코
▁롯데월드
▁Staff
▁Story
▁Under
▁플루오린화
▁일러스트레이터
▁폄
고원
다주
민관
밴드
사의
스컵
und
▁UH
▁ㅊㅣ
▁검문
▁고다
▁귀의
▁낙후
▁데바
▁디리
▁문선
▁바브
▁방망
▁방벽
▁양복
▁완구
▁육신
▁저속
▁정민
▁코피
▁태인
▁탱고
▁티크
마리아
illa
▁DDR
▁김성근
▁도호부
▁레이지
▁마르타
▁백혈구
▁법률가
▁빈번히
▁설계도
▁수리남
▁에리카
▁오다큐
▁재경기
▁침팬지
▁통찰력
▁파비아
▁판문점
▁STER
▁chem
▁고스란히
▁통정대부
▁Young
▁안티오코스
▁위트레흐트
▁챔피언스컵
▁Season
▁프라이부르크
디시
조프
콜리
텔라
▁Er
▁검술
▁공허
▁대잠
▁도드
▁만회
▁벌집
▁베츠
▁불기
▁상량
▁샤론
▁성금
▁신심
▁신혼
▁역원
▁옷감
▁원담
▁자회
▁충적
▁하숙
▁246
▁UFO
▁노히트
▁레시피
▁반역자
▁배급사
▁부주석
▁분당선
▁세이프
▁에어컨
▁엘레나
▁유난히
▁초승달
▁콜롬비
▁클로버
▁BEST
▁char
▁나카소네
▁리처드슨
▁상무위원
▁알카에다
▁어셈블리
▁올림푸스
▁조지아주
▁세바스티안
▁유스티니아누스
▁American
KO
li
▁숯
▁젼
더미
세나
▁가늠
▁거류
▁고케
▁교로
▁낭트
▁녹지
▁라나
▁백군
▁소추
▁스팟
▁실외
▁양봉
▁영안
▁원회
▁잡식
▁저리
▁정묘
▁중정
▁청담
▁체신
▁파지
▁핑거
▁홍영
▁후국
▁후아
▁휴스
▁TTC
▁공격기
▁권위자
▁길들이
▁링네임
▁발루아
▁사마르
▁연수원
▁영락제
▁커플링
▁확장팩
▁흘러드
▁Kiss
▁아데노신
▁익스트림
▁싼
▁캬
쓰구
엑스
통신
하드
▁군체
▁내뿜
▁목과
▁몸소
▁배서
▁석주
▁알랭
▁유허
▁음표
▁제강
▁제호
▁청혼
▁흑해
프로스
▁288
▁302
▁공백기
▁굶주리
▁다이요
▁드리블
▁레드불
▁비스듬
▁세라믹
▁스쿼드
▁옥천군
▁우에다
▁전도사
▁헤이시
▁후보자
떡잎식물
▁1598
▁갑오개혁
▁디아블로
▁실증주의
▁자연환경
▁황소자리
▁카트라이더
사위
처치
▁GA
▁낙성
▁도살
▁레빈
▁배격
▁아덴
▁아헨
▁완치
▁왜관
▁킹덤
▁폐포
▁표식
▁피쉬
바르드
▁Lee
▁PCI
▁Sur
▁김종서
▁뉴타운
▁목적물
▁문화부
▁버팔로
▁사타케
▁아미르
▁인텔리
▁횡성군
축구연맹
▁1018
▁달마티아
▁자동차도
▁칼뱅주의
▁Child
▁대하드라마
▁젱
규어
더넷
도치
드기
롭스
이행
헤르
▁ㅈㅠ
▁난류
▁레진
▁매점
▁매클
▁반승
▁서무
▁서프
▁영인
▁천둥
▁친위
▁피폐
▁251
▁285
▁EXO
▁map
▁고케닌
▁메이든
▁무용수
▁반자동
▁베르토
▁생활비
▁소유스
▁시끄럽
▁아르투
▁아세안
▁이더넷
▁진달래
▁청양군
▁프로메
▁1823
▁안드레스
▁크리슈나
▁숍
▁츨
글러
딩턴
코지
험자
bit
▁JO
▁jp
▁개점
▁갤리
▁나눗
▁단형
▁동중
▁목공
▁백기
▁불어
▁소호
▁오군
▁와의
▁위서
▁전패
▁최현
▁출원
▁홍가
스턴트
▁242
▁GSL
▁LNG
▁Val
▁겐로쿠
▁동래구
▁색다르
▁수개월
▁여행기
▁이고르
▁이나바
▁장수군
▁장애인
▁제곱근
▁지상군
▁판무관
▁확장자
르크세스
▁mark
▁동부승지
▁분청사기
▁요시모토
▁Inter
▁스테인리스
▁에뮬레이터
▁크세르크세스
31
VF
▁궈
▁럿
▁LM
▁격납
▁뉴딜
▁록과
▁론도
▁반디
▁삼색
▁쇼어
▁수크
▁스캐
▁신월
▁실기
▁쌍극
▁잎겨
▁적위
▁전우
▁쾌거
▁태초
▁피복
▁나눗셈
▁당진시
▁복사본
▁불국사
▁성악가
▁유사시
▁자연석
▁처인구
▁총인구
▁후이족
▁흥덕구
▁1689
▁1750
▁Last
▁Spec
▁주니어스
▁헤이세이
▁호나우두
▁Party
▁이슬람교도
▁잎겨드랑이
by
나디
mun
▁고흐
▁광의
▁국조
▁금수
▁기거
▁농상
▁로토
▁리전
▁말초
▁반부
▁반출
▁베텔
▁병상
▁생강
▁식욕
▁양키
▁요로
▁의창
▁접점
▁차고
▁참지
▁크렘
▁통달
▁희종
▁히젠
다이스
soft
▁580
▁615
▁dis
▁니시노
▁디제이
▁메이스
▁목욕탕
▁베르겐
▁분당구
▁알렉상
▁장방형
▁전교조
▁쥐아과
▁협력자
▁구이저우
▁아칸소주
▁style
▁National
▁넛
십리
▁공언
▁대운
▁도바
▁배위
▁손톱
▁수운
▁시추
▁식초
▁아깝
▁암행
▁앙겔
▁연의
▁예니
▁예지
▁용강
▁원죄
▁일찌
▁조양
▁카산
▁컬럼
▁특질
▁해미
▁후금
▁히든
나이더
베스트
사무소
절제사
▁Cap
▁URL
▁곡성군
▁대축일
▁로이터
▁분류법
▁신천지
▁아쉬움
▁유리창
▁전화기
▁정의역
▁주택가
▁중립국
▁최고점
▁1774
▁뉴저지주
▁도치기현
▁바르바로
▁하토야마
▁해방전선
▁핼리팩스
96
▁뤽
구로
▁CW
▁당근
▁데빌
▁레테
▁막심
▁부팅
▁빅스
▁사루
▁상형
▁샤토
▁시화
▁암묵
▁염분
▁작풍
▁조도
▁주리
▁지롱
▁집요
▁촘촘
▁충효
▁택배
▁해답
▁근위대
▁디오니
▁미라이
▁법체계
▁상층부
▁신정부
▁역사관
▁존재감
▁퀘벡주
▁테일즈
▁투성이
▁피터슨
▁한국사
▁마르코프
▁스타워즈
▁하세가와
ㄷㅓ
겨지
분리
자매
▁-"
▁닫힌
▁더러
▁리의
▁막사
▁면책
▁샤흐
▁수각
▁시프
▁아커
▁악성
▁암각
▁우발
▁이왕
▁이티
▁임직
▁차녀
▁창극
▁채찍
▁캘러
▁캘리
▁평점
▁화형
▁후불
빌리시
ends
gram
▁403
▁Son
▁per
▁고기압
▁고이치
▁그라드
▁따라잡
▁로그인
▁볼프스
▁성전환
▁세자빈
▁엄정화
▁윌리암
▁윤봉길
▁이기붕
▁지급시
▁카시니
▁틀림없
▁플라워
▁간선도로
▁바이너리
▁이와쿠라
▁인스턴트
▁트빌리시
▁남해고속도로
▁테오도시우스
ms
▁륭
장치
쿠프
틸라
lus
oon
▁CB
▁값싸
▁강주
▁고배
▁고슴
▁나돌
▁남사
▁단가
▁메흐
▁물망
▁벤조
▁빈부
▁석성
▁세심
▁숙적
▁슬립
▁아웅
▁오무
▁우바
▁원환
▁이쪽
▁재촉
▁정안
▁정윤
▁조스
▁주범
▁천동
▁한가
▁혜종
▁휴즈
arth
ould
▁JYP
▁도함수
▁미라클
▁버추얼
▁상당구
▁아사노
▁알자스
▁오스본
▁종교인
▁집행부
예술종합
▁1603
▁Take
▁마르티노
▁베트남어
▁스테이크
▁올리비아
▁큰곰자리
▁color
▁북키프로스
예술종합학교
▁한국예술종합학교
델리
루치
▁각류
▁강직
▁기우
▁남우
▁박노
▁보닌
▁부차
▁부토
▁비축
▁삼지
▁생동
▁소의
▁연전
▁자강
▁장판
▁주영
▁펜타
▁행의
▁호퍼
▁후부
의사당
▁295
▁add
▁고조부
▁교육법
▁대유행
▁세이지
▁소비량
▁신이치
▁알타이
▁적당히
▁커스텀
▁트러스
▁헤르츠
ATION
▁1617
▁1624
▁Come
▁고슴도치
▁기요모리
▁무하마드
▁아이치현
▁케이블카
▁크라쿠프
▁이케부쿠로
48
ki
로빈
막이
츠카
펄스
▁HC
▁NR
▁건재
▁교습
▁꿀벌
▁노장
▁루블
▁루체
▁산골
▁어획
▁연원
▁중턱
▁츠나
▁트렉
▁할레
벌랜드
▁252
▁670
▁910
▁PHP
▁강북구
▁관리원
▁리에주
▁빨치산
▁사업장
▁야마나
▁에가와
▁응원가
▁최강전
▁커맨드
▁키르케
▁평가전
▁Core
▁바이올리
▁외무대신
▁There
▁조로아스터
▁페르디난도
▁바이올리니스트
▁헵
몬테
바니
박해
소나
신경
임관
ISC
▁Oh
▁경련
▁고심
▁과당
▁군축
▁남연
▁뇌전
▁대미
▁도굴
▁도수
▁두들
▁벤트
▁상좌
▁솅겐
▁수달
▁스베
▁여산
▁오송
▁유마
▁종인
▁참회
▁천일
▁통풍
▁풍년
▁하도
▁하진
▁행장
▁호군
rown
▁274
▁ITV
▁Que
▁갤러거
▁고품질
▁기술원
▁라이플
▁루치아
▁리간드
▁서태후
▁솔리드
▁유위법
▁제자리
▁Want
▁뒤떨어지
▁스나이퍼
▁액세서리
▁요한네스
▁코네티컷주
DC
yo
▁잿
노바
멜로
셔츠
흥사
▁가운
▁결산
▁경미
▁골대
▁권상
▁김책
▁남정
▁네발
▁넬리
▁보부
▁석관
▁소백
▁슈리
▁시해
▁실학
▁악수
▁영변
▁예부
▁예스
▁외측
▁육로
▁전립
▁진척
▁차륜
▁청서
▁케미
▁협공
레이저
▁경전선
▁맞춤법
▁문경시
▁발원지
▁보험료
▁소대장
▁소문자
▁수용액
▁지대공
▁축구장
▁티라노
▁프리마
▁나카야마
▁주체사상
▁중선거구
▁와카야마현
UE
경사
사람
삼국
아치
ada
▁IG
▁광구
▁교행
▁놀리
▁대모
▁도농
▁바움
▁비가
▁스팸
▁실형
▁양립
▁유경
▁윤정
▁자마
▁진경
▁철조
▁칭화
▁코브
▁펀딩
▁편이
▁풍물
▁화차
사회당
▁248
▁Som
▁공고히
▁기흥구
▁매카시
▁무색계
▁문학관
▁물러가
▁발사기
▁새마을
▁신속히
▁에나쓰
▁에미넴
▁에번스
▁이름나
▁지부장
▁클레멘
▁킹스턴
▁트란실
▁후쿠치
▁Boys
▁Club
▁Park
▁베네딕트
▁오리엔트
▁전기철도
▁팟캐스트
▁볼프스부르크
▁트란실바니아
▁퀀
미도
▁*/
▁게티
▁결절
▁금연
▁남중
▁내심
▁대격
▁대추
▁대호
▁들키
▁라싸
▁리세
▁밀폐
▁샬롯
▁이피
▁청해
▁최명
▁치프
▁쿠즈
▁품위
▁현세
▁황진
망원경
▁USD
▁남다르
▁베르가
▁살인범
▁슈테판
▁오른팔
▁완전열
▁이용해
erson
▁아이러니
▁코스모스
▁국회의사당
▁룹
▁뽐
대리
덕동
문예
웰스
▁각칙
▁감바
▁관보
▁글라
▁김무
▁답사
▁대당
▁레시
▁롬멜
▁린스
▁멸시
▁멸하
▁변절
▁분동
▁사행
▁샐리
▁수형
▁스나
▁실러
▁완고
▁장손
▁증득
▁체전
▁치키
▁탐진
▁팽팽
▁폐선
iano
▁308
▁346
▁ㅇㅏㅇ
▁경전차
▁구부리
▁그라스
▁로터리
▁목적어
▁무한대
▁받침대
▁보건부
▁부유층
▁비너스
▁스테드
▁알버트
▁에라스
▁오라클
▁월간지
▁전용선
▁한양대
안토니오
▁1758
▁long
▁스페인인
▁중성자별
▁Radio
▁독립선언서
ex
레트
요스
총사
lad
▁건원
▁꼬이
▁도브
▁디미
▁또래
▁러쉬
▁리암
▁민수
▁바주
▁박규
▁밤낮
▁사암
▁산전
▁신야
▁예브
▁예테
▁옹기
▁요는
▁익룡
▁자임
▁장문
▁파마
▁포물
iter
obal
ters
▁312
▁PSV
▁가만히
▁고아원
▁남북국
▁매뉴얼
▁몬태나
▁미네랄
▁상행선
▁수없이
▁순서수
▁앞다리
▁이세민
▁축전기
▁컨버터
▁1650
▁2025
▁브레스트
▁슈퍼마켓
▁신춘문예
▁예테보리
VE
긴스
슨스
시기
SQL
oul
▁국을
▁권속
▁나로
▁변함
▁비결
▁산로
▁신오
▁안지
▁정위
▁제제
▁최연
▁컬트
▁탈북
▁토와
▁혈장
드리치
리스크
▁MiG
▁고령군
▁구치소
▁다방면
▁대공포
▁동급생
▁망가지
▁산토스
▁소화기
▁스플릿
▁아와지
▁오야마
▁인버터
▁채권법
▁최충헌
▁허벅지
▁훈련기
▁1080
▁절지동물
▁알렉상드르
46
물관
반응
아라
의지
토키
혀가
con
▁gl
▁기화
▁남침
▁당인
▁랠프
▁레슨
▁사대
▁산모
▁설파
▁속속
▁시파
▁심청
▁자포
▁조군
▁조음
▁청어
▁체형
스코샤
클레어
▁318
▁und
▁구리시
▁달라붙
▁도시락
▁돌핀스
▁리버티
▁리어스
▁신고전
▁알바로
▁와이즈
▁요시마
▁이치카
▁재규어
▁톰프슨
▁회사법
▁1781
▁1786
▁NCAA
▁PROD
▁오리온스
▁우즈베크
▁처녀자리
▁오카야마현
LD
▁뜸
교구
대륙
돋움
라다
비지
예스
울림
참모
rib
▁RB
▁UM
▁경동
▁고경
▁괴인
▁김이
▁동고
▁미남
▁비나
▁비엘
▁사납
▁석고
▁성관
▁성무
▁성터
▁야훼
▁역내
▁외성
▁유탄
▁잠자
▁정영
▁청국
▁캄차
▁토속
▁훌라
▁휘장
▁가드너
▁과천시
▁나무과
▁녹는점
▁라이어
▁부총장
▁스키장
▁승강기
▁아래층
▁아오키
▁장보고
▁제러미
▁직제학
▁화산재
▁temp
▁will
▁마이너스
▁아시아나
▁David
▁노바스코샤
▁박스오피스
▁보수주의자
▁레트로바이러스
던지
fer
▁가재
▁개구
▁결방
▁관등
▁군포
▁권신
▁라만
▁순결
▁십육
▁아길
▁알선
▁애들
▁에브
▁예절
▁임씨
▁킬링
▁팬더
▁협소
▁회도
iful
▁241
▁269
▁276
▁299
▁490
▁OBS
▁TNT
▁감비아
▁구속력
▁도로망
▁드리스
▁법화경
▁부산항
▁상대편
▁서강대
▁수영복
▁시에나
▁아바타
▁잡혀가
▁조에쓰
▁체르노
▁함평군
▁헨더슨
▁형태학
▁회의실
▁휴식기
ember
▁1413
▁1506
▁Band
▁니시무라
▁드와이트
▁호그와트
▁안달루시아
▁입헌군주제
▁아시아나항공
▁하우스도르프
▁께
다코
100
ube
▁기강
▁동단
▁듀란
▁딱히
▁문익
▁물색
▁미정
▁배선
▁불공
▁서도
▁선망
▁순경
▁스도
▁아고
▁자구
▁토륨
▁트릴
▁팔츠
▁하바
▁해달
▁헤밍
▁호앙
로니키
평장사
▁581
▁건축학
▁고려조
▁구한말
▁로페즈
▁모퉁이
▁바이크
▁사용법
▁사유지
▁샌더스
▁엿보이
▁오두막
▁옮겨가
▁제니스
▁죄책감
▁지휘부
▁총면적
▁치타스
▁클로스
▁헌병대
▁전륜구동
▁청소년기
▁가이드라인
▁스프링필드
▁우주망원경
▁카보베르데
▁테살로니키
35
▁숱
렉틱
윳값
킹엄
▁==
▁강산
▁금은
▁노모
▁다빈
▁단맛
▁대남
▁류지
▁망고
▁백선
▁붐비
▁상냥
▁서수
▁슐츠
▁스푸
▁시지
▁초라
▁치욕
▁친부
▁타츠
▁태산
▁파테
▁포카
▁홀트
▁히가
▁Sal
▁고윳값
▁당상관
▁득표자
▁발돋움
▁보은군
▁볼츠만
▁사라왁
▁알레한
▁어쩌면
▁이상재
▁지요다
▁총연장
▁코브라
▁타오르
▁탈북자
▁표시기
▁하지메
▁흥천사
▁1785
▁Mach
▁리얼리즘
▁마쓰마에
▁미네르바
▁심플렉틱
▁오디세이
▁차례차례
▁트리오스
▁에마누엘레
▁루이지애나주
게티
성사
숨에
▁JK
▁Kh
▁감도
▁강신
▁관작
▁교유
▁맞은
▁매키
▁베시
▁병용
▁봉지
▁석영
▁성소
▁셜리
▁신태
▁예르
▁위정
▁일소
▁입소
▁재치
▁접두
▁첨사
▁퇴원
▁호자
▁회이
▁희석
▁258
▁970
▁GTX
▁고위직
▁단숨에
▁둘러보
▁문제삼
▁바스티
▁사부로
▁서고트
▁스쿼시
▁신청서
▁아토스
▁오타쿠
▁지배력
▁철광석
▁파슨스
▁한라산
▁한자음
earch
▁1618
▁독립신문
▁오세아니아
벨리
열왕
▁Hy
▁공납
▁구진
▁김중
▁넉넉
▁뒷산
▁방편
▁백호
▁번트
▁법명
▁분전
▁서성
▁선례
▁신일
▁양곤
▁얼티
▁여제
▁용성
▁위례
▁유조
▁전상
▁전연
▁초속
▁퐁텐
▁허수
▁혈중
▁홀름
▁화질
가사키
izza
▁254
▁279
▁730
▁가창력
▁고위급
▁불출마
▁시구르
▁여행객
▁요시키
▁자유시
▁주고쿠
▁퍼블리
▁피난처
▁News
▁요구사항
▁파이낸셜
▁플로렌스
▁히로히토
▁자유민주연합
공연
이익
호쿠
ift
▁GC
▁군법
▁군신
▁귀결
▁노런
▁대야
▁레기
▁무치
▁비견
▁양말
▁요란
▁위층
▁일전
▁작정
▁종시
▁탁자
▁학산
▁혈증
▁협시
▁후나
리아나
▁324
▁525
▁Ext
▁KNN
▁누에바
▁다무라
▁사누키
▁생명력
▁수출품
▁오로치
▁체사레
▁필리포
▁1590
▁1614
▁라인란트
▁서베를린
▁순회공연
▁슈베르트
▁시구르드
▁인류학자
▁폴란드어
▁필라멘트
▁동음이의어
▁와일드카드
▁동지중추부사
VB
체육
▁BA
▁FP
▁TW
▁간과
▁강착
▁국책
▁금욕
▁단바
▁동초
▁맞히
▁목수
▁몸값
▁무연
▁미개
▁사에
▁선의
▁셰어
▁송사
▁실세
▁어법
▁예매
▁오소
▁유후
▁이롭
▁정법
▁정씨
▁조피
▁좌안
▁지마
▁폭정
▁행실
폴리오
ache
▁cle
▁김장생
▁동화사
▁마그나
▁막대기
▁사야카
▁삽입곡
▁코시모
▁크누트
▁cent
▁text
▁도미니크
▁새마을호
▁야마우치
▁프레스코
▁형제자매
▁Trans
▁PRODUC
LO
시리
irc
▁가칭
▁강병
▁경조
▁관복
▁내막
▁로베
▁무례
▁변칙
▁아귀
▁아전
▁연남
▁와타
▁왜건
▁왜소
▁정방
▁촉탁
▁행세
▁형량
▁화족
레이라
베르투
안데르
프스키
▁293
▁870
▁경유지
▁뒤섞이
▁물리량
▁부득이
▁스콜라
▁승하차
▁신채호
▁영상물
▁오세훈
▁칭하이
▁컴팩트
▁파이팅
▁편집인
▁행렬식
오세티야
▁0000
▁1609
▁NADP
▁크레이지
▁트러스트
UB
▁셍
딩거
버시
벡스
소닉
소총
양성
이다
ERT
INE
ets
uss
▁LE
▁개창
▁굽타
▁랍비
▁망각
▁몸담
▁병무
▁본연
▁비숍
▁소상
▁소질
▁썸머
▁엑셀
▁영묘
▁올슨
▁외주
▁정가
▁조속
▁징조
▁출옥
▁코만
▁코언
▁폴스
▁피침
▁피폭
▁호안
▁히에
수수색
ious
▁272
▁351
▁CSS
▁Del
▁JAP
▁maj
▁경비원
▁경의선
▁나세르
▁네우스
▁방화벽
▁사마소
▁선전관
▁성삼문
▁아카드
▁유프라
▁일개미
▁장학생
▁저고리
▁테라스
press
▁Mind
▁over
▁다이어트
▁로체스터
▁스키피오
▁압수수색
▁왼손잡이
▁하치노헤
▁유프라테스
▁포트폴리오
pl
레르
서관
조각
▁;-
▁OO
▁가다
▁각급
▁구포
▁나경
▁다낭
▁대천
▁마호
▁만민
▁면밀
▁무속
▁믈라
▁반스
▁베릴
▁상왕
▁섬진
▁소래
▁수피
▁앰프
▁어려
▁오너
▁유어
▁조재
▁회절
ruct
ving
▁335
▁GPL
▁VfL
▁가마터
▁간쑤성
▁갈고리
▁경찰대
▁노이드
▁다라니
▁동북아
▁맞은편
▁병리학
▁아담스
▁저격수
▁조리법
▁추징금
▁출신자
▁충실하
▁코뿔소
▁파도바
▁햄버거
▁흡혈귀
▁히로키
▁소프트볼
▁슈나이더
▁코카서스
▁Songs
▁남오세티야
▁페르디난드
SS
▁푀
네사
실린
에프
을리
청년
프먼
▁강계
▁난항
▁당해
▁대내
▁라모
▁봉양
▁비보
▁셀틱
▁신교
▁알류
▁알스
▁에딘
▁오븐
▁위수
▁장계
▁장형
▁중증
▁참파
▁천민
▁최병
▁한식
▁혼례
▁황국
▁히키
▁421
▁HBO
▁Kid
▁TBN
▁ㄹㅣㄴ
▁가로채
▁게시물
▁대륙성
▁돌출부
▁살라딘
▁생산품
▁엥겔스
▁위르겐
▁이그나
▁지배인
▁탐지기
다코타주
▁1718
▁공동묘지
▁부분집합
▁IDOLM
감치
보트
숙왕
sch
▁개울
▁경정
▁계측
▁극진
▁녹차
▁몽테
▁문왕
▁문희
▁보필
▁비화
▁소바
▁아체
▁외르
▁유속
▁이야
▁장어
▁장재
▁주보
▁탈린
▁통곡
▁혹시
스토이
야구장
ider
▁405
▁990
▁Fly
▁Mad
▁Say
▁내용물
▁디나르
▁미유키
▁밑바닥
▁변주곡
▁실내악
▁오마이
▁유제품
▁재처리
▁조만식
▁주유소
▁최익현
▁충숙왕
▁크리크
▁투수진
▁허가서
▁헤일리
▁Hard
▁Work
▁막내아들
▁요시마사
▁통근열차
▁티베트족
78
HA
▁묀
110
▁골반
▁국원
▁굴지
▁기염
▁남안
▁데브
▁명과
▁무종
▁미비
▁부곡
▁삭과
▁산산
▁샌타
▁섭외
▁쇠락
▁외인
▁음대
▁인덕
▁임천
▁쟁의
▁정간
▁제소
▁제전
▁체가
▁크립
▁타히
▁펄프
▁해골
▁히카
▁BGM
▁Lin
▁고유종
▁나오미
▁데이즈
▁부녀자
▁실학자
▁아이다
▁아즈텍
▁작업장
▁작용기
▁제닝스
▁주모자
▁폭발력
▁경국대전
▁군사령관
▁마사요시
▁미야모토
▁시나가와
▁암행어사
▁애너하임
▁인문주의
▁프레데릭
▁Count
ga
ti
▁헹
그란
동국
사슬
팔트
호테
▁HN
▁TT
▁격변
▁남평
▁노퍽
▁논어
▁두근
▁루디
▁미연
▁바가
▁방주
▁볶음
▁부검
▁불쌍
▁석비
▁성진
▁수일
▁아네
▁영릉
▁오더
▁오야
▁유류
▁유순
▁일문
▁일회
▁장내
▁정이
▁채광
▁측선
▁코타
▁행크
▁황우
소수점
아비브
▁Dec
▁Mot
▁공대공
▁김좌진
▁부교수
▁사리탑
▁수출국
▁순창군
▁이산해
▁제철소
▁캔버라
▁콘트라
▁크로우
▁태양풍
▁포유류
▁화천군
▁히다카
cript
▁1050
▁백조자리
▁베이루트
▁지명타자
▁티베리우스
▁프라이버시
뭉치
여름
▁WA
▁XL
▁군영
▁기문
▁김근
▁닐슨
▁단파
▁된장
▁랩퍼
▁런닝
▁린지
▁마코
▁매상
▁문동
▁박선
▁산천
▁상복
▁소꿉
▁수해
▁스맥
▁어구
▁어서
▁지의
▁징벌
▁창가
▁카푸
▁타령
▁항속
▁혈류
▁홍조
다코타
▁괴로움
▁다카오
▁딜레마
▁레베카
▁메구미
▁사계절
▁삼총사
▁상공업
▁성장기
▁세자르
▁순례자
▁식별자
▁신분증
▁아스투
▁옹호자
▁유방암
▁자가용
▁제라드
▁풀어내
▁히데오
지느러미
▁코먼웰스
▁텔아비브
▁하이패스
▁아스투리아스
▁클라우디우스
▁롄
▁튕
를리
뱅이
센테
충제
121
mus
▁고니
▁공증
▁권제
▁극본
▁니티
▁로터
▁변인
▁부성
▁브룬
▁사외
▁시전
▁신랄
▁심성
▁안영
▁양민
▁영당
▁이여
▁임자
▁젊음
▁죄악
▁중핵
▁쿠엔
▁쿠타
▁키티
▁터프
▁푸리
▁필러
▁험준
▁힐데
드로스
박물관
베이라
사이저
쿠츠크
▁도이치
▁마르스
▁봉은사
▁애국자
▁좌익수
▁진출권
▁피오르
▁회의장
안데르탈
▁Feel
▁두루마리
▁따라다니
▁비행대대
▁사르트르
▁오이라트
▁유한회사
▁저스티스
▁중등학교
▁쳐들어가
▁코르시카
▁네안데르탈
▁올림피아드
▁이르쿠츠크
▁넋
▁슝
제도
▁강림
▁건수
▁구개
▁김관
▁노로
▁드골
▁라세
▁루마
▁버들
▁사동
▁삼청
▁손발
▁아악
▁야영
▁우계
▁위너
▁잠식
▁전능
▁존자
▁직간
▁진저
▁타가
▁팍스
▁플립
▁항고
▁형세
▁혜공
▁홍종
▁황인
▁Max
▁금천구
▁급성장
▁대장균
▁만토바
▁북극성
▁브렌트
▁세계사
▁아라시
▁지방선
▁파이크
▁슬라브족
▁챕
용수
카인
ola
▁깃들
▁낙마
▁남위
▁다미
▁딜러
▁료마
▁명정
▁발성
▁백서
▁서포
▁서핑
▁소연
▁야즈
▁양승
▁연약
▁영생
▁오파
▁운남
▁원부
▁이본
▁장가
▁적설
▁조커
▁종중
▁주서
▁찬란
▁처소
▁투리
▁판과
▁풀러
▁필치
▁해식
▁허균
▁환대
대표제
르트헤
시아스
지원군
▁Cat
▁rem
▁노래방
▁노하우
▁드웨이
▁로스엔
▁말린스
▁산화제
▁신호기
▁아람어
▁에비스
▁엔리코
▁오랑캐
▁임산부
▁쟁탈전
▁조직법
▁캄차카
▁페넌트
bject
▁cont
▁글리세롤
▁선덕여왕
▁제곱미터
▁신시사이저
▁아방가르드
▁인민지원군
▁크라이슬러
▁팬터그래프
▁로스엔젤레스
FF
ㄴㅕ
내면
르노
애플
III
▁갑사
▁공청
▁모지
▁베링
▁뽐내
▁석패
▁엔도
▁운트
▁위암
▁자경
▁장량
▁집산
▁천보
▁철인
▁최유
▁출고
▁칠리
▁판자
▁핍박
▁하로
▁헤매
▁환멸
▁흉년
ense
▁MBA
▁Mil
▁경마장
▁고니시
▁공화제
▁기계어
▁다빈치
▁다이시
▁다카다
▁덮개돌
▁뒤집히
▁무령왕
▁번식기
▁스크리
▁애국가
▁오모리
▁오티스
▁유행어
▁이바르
▁이시영
▁형태소
젠테이션
▁Only
▁JAPAN
▁듬
▁솝
▁쌈
어마
조림
ray
▁BE
▁ㄸㅏ
▁감격
▁거버
▁공여
▁디모
▁래피
▁르비
▁맹주
▁분홍
▁섬인
▁성좌
▁송곳
▁숭상
▁어색
▁응징
▁의안
▁쥬얼
▁직급
▁천궁
▁초유
▁초프
▁최루
▁타결
▁팬택
▁프랫
▁후렴
프레드
ular
▁WOR
▁김연아
▁깊숙이
▁노량진
▁사업단
▁앨릭스
▁영덕군
▁왈라비
▁운전석
▁음모론
▁이사국
▁지휘권
▁창업주
▁퀘이사
▁타카시
▁태양신
렌부르크
▁1644
▁메인보드
▁안토니우
▁테오도르
▁페르소나
▁퓰리처상
▁베스트팔렌
▁Microsoft
은하
▁군제
▁나물
▁뉴먼
▁돌림
▁마쿠
▁미공
▁뻗치
▁스지
▁시책
▁안사
▁앤티
▁어차
▁에러
▁여느
▁염오
▁음정
▁천식
▁포그
▁jpg
▁기계식
▁다이스
▁동해선
▁루브르
▁미니애
▁베릴륨
▁부수찬
▁수산업
▁영업소
▁챈들러
▁프로비
▁1648
▁끌어당기
▁봄바디어
▁손해배상
▁스맥다운
▁아스팔트
▁자유로이
▁후쿠야마
▁바르바로사
▁부동소수점
▁미니애폴리스
▁딛
사드
ENT
ury
▁ll
▁가택
▁곤잘
▁공저
▁낭인
▁너클
▁다그
▁랑고
▁반다
▁번진
▁변국
▁비음
▁서호
▁성리
▁셋쓰
▁에크
▁영접
▁영통
▁우구
▁우생
▁울버
▁웬디
▁인양
▁일로
▁자우
▁자자
▁초소
▁촌의
▁추돌
▁카슨
▁타타
▁향사
플라이
▁Reg
▁Two
▁log
▁대성공
▁디저트
▁묘지명
▁미쓰이
▁사무처
▁사우드
▁윌리스
▁작곡자
▁전문점
▁피카르
▁햄스터
▁훈련원
▁글로리아
▁기독교도
▁윈체스터
▁일찌감치
▁체르노빌
▁major
▁랑고바르드
▁바르톨로메
▁월스트리트
▁파라다이스
▁숏
▁탠
교사
귀족
내기
러시
불화
포이
ily
put
▁go
▁가경
▁모독
▁무이
▁문전
▁미도
▁반찬
▁백수
▁밴더
▁본원
▁불그
▁사량
▁사만
▁송치
▁신통
▁심벌
▁예문
▁을과
▁전야
▁조디
▁직영
▁타역
▁탈주
▁플란
▁학예
▁혜화
▁호황
▁268
▁780
▁각본상
▁나탈리
▁다카기
▁덕수궁
▁보르자
▁선댄스
▁세계인
▁쇼헤이
▁스토아
▁우편물
▁이마트
▁제물포
▁중원소
▁카라스
▁파킨슨
▁해파리
지상주의
▁1637
▁When
▁불가사의
▁에스메랄
▁에픽하이
▁초등학교
알데하이드
▁Break
▁뉴멕시코주
▁덕흥대원군
▁클라우디오
▁패트리어트
▁Instit
▁Street
▁오클라호마주
GL
▁늄
비트
IME
▁KA
▁검지
▁광운
▁리도
▁만만
▁무임
▁문산
▁반목
▁소천
▁시현
▁아멘
▁원론
▁임수
▁전분
▁조난
▁조쉬
▁종손
▁첨지
▁초성
▁최태
▁Key
▁NFL
▁경쟁사
▁노팅엄
▁보관소
▁사마시
▁사용량
▁샤프트
▁줄리안
▁창경궁
▁1605
▁Perf
▁밀어붙이
▁셀룰로스
▁에밀리아
▁예브게니
▁애들레이드
▁지중추부사
▁트리케라톱스
가족
공단
달라
uch
▁Cy
▁Hi
▁거침
▁권기
▁딕슨
▁매국
▁밀직
▁불빛
▁생합
▁실례
▁심양
▁악셀
▁야곱
▁어거
▁어와
▁여분
▁육수
▁장윤
▁적개
▁전계
▁지스
▁참혹
▁창호
▁쿠도
▁퇴폐
▁포시
▁합주
▁홈스
아지에
edia
▁EFL
▁TOK
▁one
▁간간히
▁나치스
▁노리오
▁대용량
▁메시아
▁스폰지
▁여단장
▁웨이드
▁판매자
▁피터스
▁행선지
숭록대부
▁FIBA
▁Here
▁브레이커
▁수아레스
▁신증동국
▁신해혁명
▁인피니티
▁자유자재
▁카타리나
▁샌안토니오
▁신증동국여지승람
▁옻
나귀
무리
벤토
웨인
턴트
ula
▁감실
▁고법
▁디노
▁매그
▁배쪽
▁사투
▁여공
▁오웰
▁점근
▁정답
▁추크
▁친자
▁켄지
▁쿨라
▁트롬
▁협성
글로빈
네이도
▁284
▁Hel
▁경공업
▁구세주
▁단단히
▁도리아
▁마키노
▁못지않
▁살인죄
▁서정시
▁시황제
▁응답자
▁의열단
▁인제군
▁집무실
▁카르텔
▁카자크
▁하시바
▁하이트
▁호치민
▁후원금
▁히카루
타르코스
▁가져다주
▁동물학자
▁베네벤토
▁슈뢰딩거
▁연합뉴스
▁토네이도
▁현대그룹
▁라부아지에
▁넌
궐기
배기
순환
잔디
전지
참배
oot
une
▁각주
▁계위
▁꼭지
▁네로
▁니조
▁동광
▁라멘
▁랑선
▁분고
▁산역
▁스오
▁열흘
▁장산
▁재검
▁템스
▁하북
▁화포
▁힐드
스티니
▁259
▁475
▁AAA
▁과수원
▁김덕령
▁니시오
▁돌이키
▁마찰음
▁뭄바이
▁부시장
▁쌍극자
▁이심률
▁총궐기
▁칵테일
▁키치너
▁틀어지
▁폭풍우
▁고해상도
▁메가데스
▁베르베르
▁사라고사
▁세르히오
▁신사참배
▁조선귀족
르트헤이트
▁아파르트헤이트
SA
go
바루
사건
지도
치현
하탄
후보
▁MF
▁걸림
▁덩이
▁마부
▁메클
▁보른
▁사오
▁샤워
▁소거
▁속리
▁알트
▁위관
▁윤기
▁이신
▁재연
▁지노
▁처사
▁초저
▁총열
▁카티
▁칼데
▁튜더
▁호노
▁흑룡
▁흑점
ㄴㅕㅇ
▁261
▁707
▁Bet
▁공급자
▁그림책
▁나카쓰
▁네이선
▁다코타
▁만하임
▁바누아
▁사이비
▁상속자
▁심상정
▁울리히
자치단체
▁Some
▁수소폭탄
▁컨설턴트
▁메클렌부르크
▁PRODUCE
OX
oy
▁꼰
▁꿩
같이
러우
뮤직
PER
▁게으
▁고음
▁나흘
▁난동
▁농약
▁단막
▁동역
▁리엄
▁버릇
▁번스
▁분견
▁붕당
▁상중
▁선녀
▁스켈
▁야크
▁어질
▁외딴
▁원폭
▁위저
▁윤두
▁입점
▁재계
▁정한
▁종수
▁청학
▁튕기
▁파조
▁헤즈
▁회심
모비치
부인과
주머니
▁840
▁CGV
▁was
▁건축사
▁궁내부
▁나한상
▁모리타
▁사파리
▁아키코
▁원자재
▁인증서
▁적어지
▁중력장
▁증기선
▁철자법
▁함재기
▁현대인
▁활기차
onder
▁마법소녀
▁아시아인
▁테레지아
▁워크래프트
my
남북
의동
테론
▁계유
▁고액
▁다기
▁다당
▁단신
▁디프
▁물어
▁상궁
▁임피
▁적기
▁전의
▁콜먼
▁토호
▁틸라
▁패튼
▁포춘
▁행랑
▁현손
▁혼성
▁황새
▁휴학
상가상
alth
▁317
▁326
▁331
▁다케오
▁라운지
▁마도카
▁면역계
▁무인기
▁바운드
▁불기소
▁사라센
▁슈퍼맨
▁에드먼
▁역전사
▁최고령
▁컬리지
▁표준궤
▁프리즈
▁1492
▁1760
▁Face
▁군국주의
▁돗토리현
▁사단법인
▁설상가상
▁오르내리
▁프로스트
▁하타모토
▁while
▁라디에이터
43
▁땡
날리
방위
어붙
이터
크롬
▁Bi
▁FE
▁그제
▁노반
▁덕성
▁르망
▁면회
▁무심
▁반자
▁복리
▁서현
▁시몽
▁신평
▁쏠리
▁악취
▁압구
▁연비
▁우키
▁윤동
▁윤성
▁자꾸
▁장한
▁적진
▁중편
▁충원
▁치치
▁평강
▁폐번
▁한발
▁향약
▁현주
▁황혼
코스터
▁OEM
▁SSG
▁Thr
▁fis
▁교수진
▁군위군
▁더블유
▁라일리
▁리아노
▁부교리
▁불순물
▁십진법
▁양산박
▁엘레오
▁이창호
▁장준하
▁카르멘
▁편미분
▁행정학
▁현대사
비르스크
▁대프랑스
▁자격정지
▁폐번치현
▁푸에르토
▁라디오헤드
▁롤러코스터
▁서울특별시장
▁Beautiful
▁볏
▁햐
메탈
배추
양요
여대
▁Ju
▁거위
▁고미
▁고현
▁김사
▁노련
▁뒤바
▁뒷발
▁디언
▁바츠
▁벌거
▁부강
▁비올
▁산면
▁산부
▁석판
▁수꽃
▁실과
▁심기
▁양인
▁연두
▁왕도
▁외조
▁재지
▁전출
▁점액
▁점자
▁천시
▁첨정
▁초지
▁쿠파
▁태반
▁호저
▁화보
▁277
▁830
▁걸림돌
▁기관포
▁기념탑
▁냉장고
▁니코틴
▁돌려받
▁맡아보
▁명문가
▁묵시록
▁빙하기
▁사과문
▁사자상
▁수목원
▁엎드리
▁연구가
▁태백시
프라데시
anger
ather
▁1759
▁1779
▁다카히로
▁만리장성
▁콜론타이
▁수군절도사
▁애니메이터
▁키르케고르
▁념
▁랫
▁몯
▁좇
▁쭈
ㄷㅐ
국영
기성
다비
레로
웅렬
als
▁BN
▁cl
▁감면
▁곤경
▁귀비
▁나하
▁로커
▁리놀
▁몽키
▁밋밋
▁불륜
▁서운
▁선문
▁소보
▁시효
▁역부
▁오테
▁유호
▁일격
▁정력
▁제롬
▁종회
▁집터
▁창제
▁챔프
▁최면
▁치경
▁침탈
▁페닐
▁핸콕
▁홍차
▁히고
아오르
▁485
▁Got
▁개혁파
▁계양구
▁관절염
▁대화재
▁번호판
▁산책로
▁상장군
▁생식기
▁스타니
▁스티스
▁암트랙
▁연방제
▁유인원
▁전보국
▁페메니
▁마흐무드
▁비야레알
▁올림포스
▁임상시험
▁통일민주당
▁브리티시컬럼비아주
▁사우스캐롤라이나주
바바
밸리
표범
헨글
ita
ume
▁KV
▁격식
▁교편
▁매지
▁미끼
▁민란
▁발차
▁보시
▁선악
▁스핑
▁신서
▁양감
▁어빙
▁여명
▁오줌
▁온돌
▁위독
▁육계
▁조윤
▁콩트
▁펠라
▁폐색
▁홉스
▁홍경
▁환도
▁휴직
ㄹㄹㅕ
나파소
▁328
▁375
▁NET
▁SIG
▁WWF
▁기억력
▁라우터
▁리버럴
▁망주석
▁매립지
▁묀헨글
▁무수히
▁베티스
▁부르키
▁새크라
▁생원시
▁소리치
▁쇼토쿠
▁순전히
▁이코스
▁재무부
▁충격파
▁치료사
▁페렌츠
라트바흐
▁나무껍질
▁들이닥치
▁라파예트
▁머라이어
▁시어머니
▁아우크스
▁아흐메드
▁양아버지
▁장로교회
▁House
▁새크라멘토
▁올리베이라
▁부르키나파소
▁묀헨글라트바흐
▁아우크스부르크
120
ERS
▁견도
▁경운
▁골문
▁괴한
▁구술
▁권능
▁달구
▁도처
▁로웰
▁명군
▁밍크
▁별거
▁본교
▁불시
▁선관
▁송가
▁식인
▁앗딘
▁용군
▁일용
▁장생
▁재수
▁좌도
▁주희
▁폐사
▁황희
▁740
▁건조물
▁김택용
▁다르마
▁매도인
▁브레스
▁소인수
▁애버딘
▁얼어붙
▁외동딸
▁우스터
▁장타율
▁킴벌리
▁티투스
▁하늘색
▁흥국사
▁1782
▁Fore
▁From
▁동두천시
▁마리아나
▁비토리아
▁캐롤라인
▁힌덴부르크
▁Concert
런즈
중심
치슨
amb
box
ste
▁IQ
▁bl
▁mi
▁귀가
▁나체
▁낙서
▁눌리
▁더디
▁도너
▁딜리
▁떠들
▁라베
▁무니
▁바부
▁박형
▁수포
▁술부
▁술어
▁숱하
▁식도
▁요람
▁우장
▁입항
▁황동
▁흥사
대장경
디푸스
▁760
▁KOF
▁고양군
▁고장나
▁나오토
▁루아르
▁리오넬
▁마리안
▁바버라
▁스마일
▁스카웃
▁스타킹
▁안식일
▁얼티밋
▁외아들
▁운전대
▁지부티
▁출산율
▁훈구파
▁1772
▁Mart
▁SLBM
▁요르요스
▁오이디푸스
85
dy
▁든
▁룻
▁흄
결핵
음계
제트
토무
ICE
ael
uff
▁BD
▁BY
▁가급
▁가덕
▁계율
▁근년
▁내국
▁눈여
▁대곡
▁도회
▁동제
▁레츠
▁무언
▁미덕
▁봉래
▁성욕
▁수병
▁쑤이
▁연군
▁예과
▁우금
▁우노
▁우베
▁우어
▁원역
▁일월
▁잡아
▁재사
▁친서
▁파키
▁폐역
데우스
▁경수로
▁그라프
▁뉴포트
▁대덕구
▁라우팅
▁류성룡
▁생활상
▁서포트
▁예술인
▁이동성
▁접두어
▁쫓아가
▁찬송가
▁청원군
▁트레블
▁폐막식
브리아기
▁1526
▁1580
▁Mich
▁발렌타인
▁프레스턴
▁피에몬테
▁Happy
▁브래드퍼드
▁자유민주주의
St
모프
집행
칠성
켄트
콜로
혜진
ASS
ini
ule
▁-,
▁간경
▁감무
▁강지
▁국령
▁국전
▁다층
▁동탄
▁목종
▁백설
▁북스
▁사액
▁샤우
▁신제
▁알츠
▁어용
▁오역
▁울주
▁일국
▁주형
▁퀄컴
▁토포
▁학내
▁한명
▁항이
▁호서
군다나
노이드
돌리드
재판소
lish
▁267
▁게리온
▁고속화
▁당나귀
▁마이티
▁불변량
▁블라인
▁사형수
▁아다치
▁원자량
▁이착륙
▁인형극
▁전국구
▁천연두
▁크리티
▁티셔츠
▁플로우
▁1627
▁Java
▁니컬러스
▁도야마현
▁마이스터
▁어마어마
▁에일리언
▁하이드로
▁Apple
▁바야돌리드
▁알츠하이머
▁오브라이언
▁키보디스트
▁져
소자
재지
▁김완
▁노랫
▁노상
▁다와
▁단청
▁당쟁
▁동갑
▁라보
▁럭스
▁마기
▁문민
▁별동
▁보례
▁분관
▁블럭
▁사발
▁상리
▁송대
▁수림
▁연단
▁오순
▁우다
▁이무
▁재밌
▁증시
▁청라
▁칠드
▁쿠미
▁튀코
▁피조
▁한랭
▁후설
라노스
ware
▁395
▁ICT
▁계절풍
▁동해시
▁드레퓌
▁들어맞
▁마수드
▁메르켈
▁보안관
▁빼돌리
▁옷자락
▁음악제
▁음운론
▁인쇄물
▁전문지
▁진공관
▁코스모
▁플레잉
▁플로피
▁하타케
▁히파르
불화엄경
▁1649
▁더군다나
▁스미토모
▁오리엔탈
▁Human
▁미야자키현
▁수동변속기
▁히파르코스
▁네브래스카주
▁Entertain
▁큘
디치
사다
제동
혈증
▁Wi
▁강현
▁건주
▁결석
▁경악
▁내비
▁니이
▁도롱
▁등반
▁등분
▁디즈
▁로케
▁명복
▁베나
▁부국
▁분하
▁상생
▁연가
▁유노
▁육단
▁육전
▁윤증
▁음서
▁자칫
▁정략
▁죽산
▁지모
▁짱구
▁카펜
▁트윗
▁힘겹
비사우
cept
▁338
▁357
▁767
▁Div
▁도코로
▁렉싱턴
▁박물학
▁발명품
▁브로스
▁시모쓰
▁애플렉
▁이사야
▁정규직
▁청백리
▁칼로리
▁크리올
▁베르누이
▁자치통감
▁macOS
▁기니비사우
결사
모델
심판
전위
틀린
화기
▁"/
▁ve
▁군가
▁금곡
▁금세
▁꽃피
▁넥스
▁노심
▁노즐
▁당직
▁두문
▁디우
▁명산
▁미량
▁벤더
▁분모
▁삼계
▁소종
▁소파
▁속어
▁쇄국
▁시학
▁식구
▁아멜
▁어두
▁윤년
▁은진
▁응오
▁접선
▁조폐
▁치리
▁치요
▁티치
▁편마
▁폐수
▁환국
트리히
ines
ones
▁319
▁820
▁Set
▁Spe
▁man
▁std
▁대동맥
▁도리스
▁레이프
▁리보솜
▁모란봉
▁뮌스터
▁방면군
▁본존불
▁수문장
▁예산안
▁우선시
▁윤웅렬
▁전문의
▁지렁이
▁1762
▁2100
▁Fest
▁Head
▁VVVF
▁love
▁글리코젠
▁발칸반도
▁비밀결사
▁세로토닌
▁을사조약
▁타타르족
▁바이애슬론
▁텡
무시
음기
해협
허가
▁가래
▁광안
▁괴링
▁난형
▁내동
▁네츠
▁대계
▁두꺼
▁롤프
▁리피
▁마군
▁맥길
▁배관
▁보나
▁서녀
▁소고
▁순행
▁안병
▁염불
▁윤용
▁장고
▁장창
▁정남
▁제련
▁조훈
▁직종
▁테무
▁학적
▁해학
▁황사
데이터
인트호
▁309
▁get
▁마음먹
▁버킹엄
▁베르니
▁스트룀
▁아레스
▁연구생
▁연장자
▁전광판
▁절댓값
▁접착제
▁크로네
▁타나카
▁플라멩
▁흑기군
현실주의
▁1607
▁보조정리
▁스미요시
▁알프레도
▁에인트호
▁외할머니
▁크리스찬
▁게르하르트
▁Digital
두근
면증
사사
장구
충분
str
▁Ev
▁TD
▁감미
▁격문
▁교미
▁그렌
▁단죄
▁동편
▁롤라
▁명대
▁목관
▁문도
▁밀약
▁박민
▁반수
▁법리
▁보임
▁뷰트
▁쇼나
▁수액
▁
▃
⊸
ㅇ
ㄴ
ㅡ
ㅏ
ㄹ
하
ㄷ
이
ㅔ
ㅓ
ㅗ
ㄱ
.
ㅢ
ㅆ
,
ㅣ
1
리
지
0
ㅕ
사
ㅅ
대
시
스
되
2
기
년
ㅘ
ㅁ
가
있
수
아
일
자
전
그
국
정
9
주
나
인
제
도
부
들
성
장
ㅈ
구
상
적
어
동
로
르
라
3
위
다
오
원
공
선
트
보
우
드
마
5
치
조
중
의
4
한
8
화
월
미
고
경
학
비
소
유
교
세
6
신
문
7
서
개
계
명
역
회
연
후
것
관
등
모
영
프
용
발
군
무
산
타
크
작
당
"
민
방
내
니
단
레
재
여
카
e
러
만
해
통
음
바
반
분
안
a
생
포
거
차
체
행
키
진
간
호
식
o
노
파
현
남
t
물
ㅂ
히
양
과
본
'
r
출
종
요
m
두
때
속
실
루
토
ㅜ
임
l
데
터
형
결
강
설
코
표
i
-
각
법
초
디
운
승
n
배
태
업
에
독
ㅌ
직
버
함
건
래
입
피
S
력
합
점
불
ㄲ
A
매
최
예
번
또
C
받
않
야
티
베
천
같
권
메
약
브
추
말
알
면
왕
목
격
u
립
심
감
록
s
판
청
투
더
금
북
항
활
네
달
평
없
따
열
저
외
집
특
언
즈
석
편
복
테
향
T
류
병
F
광
처
변
른
령
B
M
족
페
게
I
근
름
황
란
축
급
람
총
쓰
존
송
랑
많
c
능
김
박
술
질
론
참
철
쪽
f
별
g
살
D
울
준
환
증
및
올
악
창
P
품
E
절
;
애
육
곡
쿠
료
백
d
h
플
새
망
은
돌
글
순
&
필
ㅑ
량
머
확
려
림
ᄆ
께
팀
규
패
N
색
극
너
탈
범
쟁
케
)
견
클
련
삼
k
O
L
랜
탄
와
R
째
충
K
린
봉
막
손
책
접
p
럽
날
_
퍼
완
G
츠
뒤
(
협
못
션
담
V
밀
길
누
채
런
블
는
/
골
녀
측
혼
온
취
벌
든
험
즌
귀
암
곳
H
할
찰
허
슬
워
U
웨
앙
씨
y
[
]
친
첫
슈
뉴
칭
습
높
침
효
커
:
널
획
죽
뜻
롭
응
착
난
락
희
엔
센
례
폭
검
징
~
잡
b
논
캐
득
픽
농
헌
갈
틀
엘
섬
홍
풍
움
퇴
폴
택
%
좌
층
W
폐
싱
헤
끝
압
념
덕
느
앞
맞
즉
혁
윤
걸
맡
턴
율
슨
늘
릭
익
얼
갖
텔
염
찬
v
램
묘
팔
컵
벨
콘
엄
잘
링
궁
빌
맹
렌
줄
균
몇
흥
훈
억
밝
휘
앨
객
푸
옥
칼
을
으
칸
먼
델
콜
얻
빈
맥
흐
J
쇼
숙
괴
넘
좋
끼
뷔
샤
몰
싸
ㅊ
핵
붙
찾
w
볼
끌
템
빠
놓
쥐
X
률
굴
컴
탑
액
룹
떠
욕
혹
꾸
잠
갑
롯
십
죄
덴
칙
떨
둘
몬
힘
던
렇
촌
벽
척
풀
먹
몸
졸
략
잉
렉
핀
벤
맨
휴
틴
몽
녹
!
잔
뛰
홈
눈
털
멀
컬
뮤
폰
륙
밴
렵
탁
겨
탕
둥
멸
혜
답
톤
솔
Y
x
홀
혈
윈
팅
넷
셀
겸
돈
컨
낮
쿄
뿐
딸
칠
를
탐
텐
롤
톨
님
퓨
헨
럼
욱
촉
곤
낙
콩
꽃
넓
앤
떤
릴
펜
밖
랙
왜
섭
뇌
렬
붕
읍
=
킹
옹
덜
튜
깨
융
흔
윌
춘
넣
셔
놀
슷
옮
젤
듬
헬
닝
빛
흑
짓
챔
땅
쉽
쌍
딩
곧
멘
켓
즘
팬
뜨
큐
쇄
멤
룡
듀
릉
밤
값
닉
깝
웅
뢰
옛
랭
튼
흡
쉬
잇
납
짜
닌
씩
롱
젠
ㅛ
맺
랫
젝
숭
뉘
닥
겐
궤
z
ㅐ
뀌
펠
멜
빙
섯
+
숨
깊
웹
까
잃
웃
꼬
끄
핑
캠
|
즐
킨
밍
셰
틱
빅
텍
믿
뷰
찍
긴
덤
엽
잎
냐
돕
랍
펼
틸
멕
띠
쇠
럭
곱
롬
짧
폼
삭
켈
릿
첨
혐
Z
켄
빨
?
딘
듣
삶
낭
져
겪
럴
촬
찌
혀
캘
힐
Q
컷
둔
콤
옆
빼
밑
벗
싶
낳
첩
곽
쌓
엇
젊
꿈
셜
짐
킬
룩
옷
냥
헝
ㅃ
큼
냉
닛
ㅋ
맛
톱
읽
엑
믹
왼
겁
븐
퀴
벡
숲
튀
얀
봄
잭
묵
쿨
셋
샌
뱅
뒷
닐
캄
랄
괄
넬
붉
엠
둑
떻
뿌
웰
끊
좀
앗
첼
슴
덮
늄
밥
씬
쳐
톰
앵
묻
듯
탱
팽
팩
픈
뤼
녕
쁘
뱀
숫
늬
흘
짝
j
렐
댄
캔
셈
렴
쾌
옌
훨
꼽
춤
륨
팝
깔
쫓
겔
횡
닫
뽑
늦
샘
갤
렘
뼈
룸
덩
앉
랗
꼭
흉
펴
벼
좁
륜
룬
햄
봇
펙
뚜
멍
깃
굽
딕
윗
탠
퀸
랩
띄
므
륭
빗
딜
퀘
힌
겹
궐
첸
쿼
덧
윙
슐
뮌
듭
삽
q
꺾
홋
셉
쏘
묶
펄
껍
긍
렛
펑
흰
꼴
쌀
훗
섞
훌
툰
붓
*
녁
렀
넥
돔
펀
꺼
끔
\
밭
ㅠ
깥
섹
곰
셸
빵
툴
낌
닷
콧
똑
톡
ㅎ
갱
딱
훼
뿔
팡
컫
쩌
{
늑
풋
닭
킷
콰
콕
틈
맷
핸
콥
힙
굳
흙
룽
룰
뮬
떼
핫
빚
킴
둡
엉
꾼
넌
며
벳
킥
밸
큰
멈
닿
돼
굿
겉
턱
걷
럿
샹
퉁
왈
쑤
뻗
홉
캡
탓
볍
끈
렷
눅
닮
쓸
샬
쯤
쉐
릎
릇
듈
굉
뚫
옵
랴
칩
켜
앱
뇨
웬
싫
놈
툼
긋
퐁
갓
낱
젖
푼
슘
챌
흠
씌
삿
톈
쥬
딴
엣
맵
쿤
펌
쯔
#
넨
솟
걱
팜
륵
옐
ㅚ
솜
댐
얄
렁
잊
덟
짙
곁
돋
멋
헐
탤
$
떡
쏟
흩
휩
얇
굵
밟
핍
덱
뭉
텀
뚝
꾀
둠
훔
얘
끓
댓
맘
캉
옴
밋
괘
햇
촨
빔
꽤
왓
픔
펫
잦
앓
횟
붐
벅
슭
싯
벵
낫
멧
}
눌
꿀
휠
엿
짱
팟
헥
냄
갇
샨
츄
씀
땃
죠
딪
튬
곶
깎
맑
얹
얗
몫
`
텝
닦
눕
걀
썰
뭇
팍
맏
뭐
얽
옳
캅
윅
끗
춥
엥
쟈
랏
슛
쭉
앰
뻔
뱃
팰
핏
듐
낚
뚱
믈
깐
갛
캣
촐
엮
훙
귤
넛
챙
쾰
뫼
숀
헛
귄
섀
쿡
썬
싣
렝
@
욘
뾰
뭄
찮
탬
푹
갯
셴
싹
뮈
삐
얕
녜
딥
덥
샐
돗
웍
줌
렙
깜
낸
펩
늙
딧
슌
탭
써
쾨
꽂
샵
볶
뇽
쪼
깁
펭
꽝
갚
촛
껏
퀼
썩
췌
몹
냅
늪
뻐
큘
괌
즙
짖
츰
짚
숍
쿰
엡
찢
롄
맬
훤
룻
퓌
텁
빽
뵈
뜸
넉
핼
쁨
씻
뮐
뿜
젯
잼
굶
젓
쵸
릅
잣
퀄
똥
벚
촘
슝
쩔
팻
샴
샷
뤄
꿰
벙
퓰
껑
밧
엎
멩
땀
궈
뜯
댕
켐
괜
욤
댈
윽
튠
텅
츨
뽀
낡
낯
킵
깅
꼼
뇰
캇
멱
뎀
퀀
좡
밈
^
쑹
랠
맴
뜰
챠
뮴
팎
헴
엌
딤
웜
쿵
썸
팥
캥
뱌
칫
왁
꽁
솥
갸
댁
쑨
윔
ㅍ
옙
챈
쉘
뎅
훅
앳
쐐
젬
퍽
얌
넴
쉰
욜
깡
맣
칵
뽕
돛
콴
쥘
ㅖ
쑥
툭
줍
눔
놉
쩍
힉
쎄
찻
찜
룀
뺏
ㅞ
웁
팁
캬
옅
늠
찔
읊
쭈
맙
뺨
볕
겟
샛
썹
넵
딛
팸
쉴
븀
퀵
숄
쉼
쏠
엷
횃
텡
핌
쨌
꿇
젼
쌈
웸
펨
웡
힝
텃
씹
춧
텟
튿
싼
된
땡
씽
뻘
댑
봅
깍
휼
긁
눗
꽉
솅
꺽
뱉
냇
솝
홑
폄
갠
뎃
뎬
뤽
윳
밉
귈
쥔
켤
꼰
젱
됭
뢴
찹
숯
쭤
ㄸ
륀
뜩
꿩
숏
쩡
탸
륄
잿
짤
푀
헵
쌔
컹
뽐
숱
꿉
셍
볜
헹
굼
잖
볏
묄
튕
묀
빡
랸
넋
얏
챕
낵
옻
녘
흄
첵
좇
햐
땜
껌
몯
뷸
꿋
놋
밌
냑
줏
짠
쩐
챗
헷
갬
짬
뻣
셤
핥
탯
썽
쥰
쳇
툇
됨
짊
탉
똘
쟝
넝
눙
덫
갭
겜
닙
넙
쿱
췬
괭
젭
쭝
훠
쇤
쨩
쓴
뷜
귓
솽
콸
튤
껴
닳
꾹
긱
앎
윕
폿
헉
둬
벰
쏙
뜬
섣
몐
궂
팹
뚤
셩
욧
깟
햅
ㄶ
놔
쬐
찐
늉
돤
펍
쳅
톳
괵
뷴
숟
뗏
숑
왑
믐
껄
잰
냘
푈
끽
뵐
솁
겅
닻
듄
쁠
쥴
쳄
왐
긔
톄
힛
먀
꿍
갉
꼿
샥
욥
묽
넹
옇
챤
칡
뻑
샅
쩨
뺄
뺑
쳉
웩
껀
셧
뵤
켁
퓸
죤
휨
뭍
륌
꽈
왠
껫
쭐
뎁
떳
섐
쫄
댜
됴
팃
낼
줘
빳
뻬
휫
쾡
빻
윰
윷
쾅
퍄
땔
틋
뜀
뵙
츤
녓
뢸
잽
솀
켕
섕
씁
틔
홰
믄
웻
찧
퉈
쫑
냠
멎
좨
퀜
쉔
퓔
녠
웽
켠
깻
띵
빤
훑
갔
꽌
둣
뵘
햘
쟌
튈
뼛
졍
쯩
꿔
뷧
빕
쉥
쿈
깽
쏭
쇳
얍
ㅒ
겊
뎨
땋
홧
졔
짭
찡
꽹
먄
롼
섶
쿳
뱁
봐
멥
옘
젋
줴
틍
혓
삯
헙
겼
듸
뻥
궬
똔
쭌
뒬
쌩
켑
뒹
삵
쫒
묠
읏
붑
찟
푄
낟
룅
룔
씰
낏
뷘
뿍
쳔
큅
큔
씸
뎐
깬
띤
묜
쏴
녤
떫
뚬
었
ㅉ
쑈
엾
굄
뇬
뽁
숩
읫
폽
쏨
젹
쇽
큄
툐
툠
갗
겡
벋
쉿
뉼
닢
숴
츈
컥
쮸
툽
듦
똠
ㅝ
얉
붇
뿡
횔
낄
쐬
졈
귬
룝
퇘
퇼
믜
뱐
퓐
빰
쌤
툉
섄
쏜
졀
짢
펏
푯
뒨
뽈
솎
옝
쯕
촙
밂
쇨
좆
륑
벱
큉
띔
싀
쾃
틂
겋
궉
뮨
셱
숌
슥
갹
낑
멓
웠
튄
낀
넒
릏
캑
짇
덞
떵
짦
큇
ㅟ
녯
욀
캴
텨
뭔
뱡
였
츳
훵
뗀
삥
얭
뵬
뼉
쌕
옭
쨍
덛
뿅
긷
샾
쓱
쨋
쩜
쫀
춰
퀠
틉
꾐
묑
뺌
쌉
썻
왔
죈
죌
퇀
푁
햏
걔
끙
뚠
횬
휙
껩
뎡
몌
귿
됸
딨
땝
맟
묏
벧
볘
븓
븡
잌
젔
쳥
캰
쿌
큥
꿎
냔
븨
샙
웟
푤
흭
곪
랖
솃
쉑
쪄
곗
랼
뼘
솨
앏
았
윾
ㅄ
굠
땁
떰
쏸
왬
챵
놘
돝
똣
랐
싁
졉
텬
꺅
뤠
슙
읒
잴
쳬
쳰
걍
겍
꾜
륍
슉
큭
킁
퇸
퍌
뭣
킈
궃
덖
릐
밞
섈
쉭
쌋
짹
춉
췐
굣
귁
귐
꽥
끎
녈
닑
닯
엳
읗
쟉
좐
죗
쩧
챨
쿽
탼
풰
ㅙ
겯
곬
냣
됙
뜷
롹
몆
밎
뱟
뽄
삑
췰
츌
했
햔
뀨
뉵
뉸
댠
믯
붸
쀼
쌰
옯
읕
읖
졌
찿
켸
흗
괸
궨
녬
늡
뎌
듕
솬
슯
읻
쟤
죡
쵤
춍
튐
핬
햑
혠
훕
긑
댱
돐
똬
먁
셕
셥
왝
윁
읔
쥣
즁
쫌
퍈
휀
괼
뇩
늴
뒴
떱
룟
왱
좃
즛
쨈
쨔
쫙
찝
쾍
튱
틑
ㄺ
ㄼ
굘
꿘
뀍
녑
됀
묫
믕
섧
섰
쎌
읓
졘
쳡
햣
궜
낢
밪
볓
뺀
뺐
삘
슾
옉
짯
쩬
쮠
챡
캪
텽
ㄳ
ㄻ
ㅀ
걲
겻
곯
뙈
뚧
륏
륩
벛
섥
앝
엹
읃
잍
잛
쭘
쯧
촤
퀑
큠
튁
푠
횐

ㄿ
꺄
꼍
녔
뇸
뉙
뙤
뜽
뢱
밷
뻰
삔
솓
썅
쎅
쒸
욺
윱
짼
촹
츔
퀌
턔
풂
햠
휜
ㄽ
겇
꼳
눞
늣
딫
땐
맻
맽
뱔
섁
슁
엤
왹
욍
읜
읺
짫
첬
츼
픙
ㄵ
ㄾ
귑
껸
꽛
눼
닏
뎜
될
듧
묭
묾
뵨
븜
빋
빱
뺘
쁜
삳
얶
엊
옜
왯
욷
읠
졋
죔
쨘
쭙
쮜
켯
콀
쾬
쿙
푕
휭
갣
겿
꿕
낻
뉻
닸
덪
돟
둗
듁
땟
띡
띨
랬
렫
렸
롐
룐
멉
벴
쌘
쏫
얆
얾
욋
웤
잏
잗
쫏
챰
쳑
컁
켬
콱
큽
탘
퍙
픠
햤
횻
곂
곈
곷
괏
깯
깸
꾿
넗
뉨
늗
닜
닺
됩
땨
땸
떄
뙡
뚯
랟
럇
룁
몃
뭏
볻
봔
븍
뺴
뻴
섿
슽
쌴
씼
엶
옫
옸
쟐
좔
짔
쩝
쬼
쯘
챱
촥
쵹
쵼
춋
쾀
톺
톼
퐝
혤
훽
걈
겆
곙
굥
깆
깩
꽅
꽆
꾕
넀
넢
넫
녇
닽
댛
덨
뎰
됫
둏
뗑
럄
롸
뢨
먈
멂
몔
뫃
뮹
믓
믾
뷁
빝
샇
쇵
싻
쎙
쑜
욈
읆
쟂
쟙
젇
쩽
찓
쳘
쳣
춈
츅
츙
콛
콬
퀍
탙
텦
툿
튽
폘
햗
헿
홥
횰
횽
휑
흝
흫
힁
ᄀ
갂
갘
걑
걺
곌
괂
깉
꺠
껭
껶
꽦
꾄
뀀
났
넖
녣
놰
뇻
늇
덝
뎍
뎦
돴
됄
됮
둄
뒸
듫
떽
뗴
띱
럅
렢
롈
뤀
뤗
륻
몄
뫄
밣
붘
뷕
븥
빎
뽓
뿟
삠
삡
삮
샏
섓
셖
솦
솻
쇘
숰
숳
쉉
쉡
쎔
쓔
앟
앧
얖
엜
엵
욌
욯
윶
읭
읳
읹
쟘
졜
졷
좽
쥠
쩄
쩰
쫜
쬔
쬬
찣
챦
쵝
츕
츩
콮
퀭
툥
튝
푱
풉
퓬
핟
핮
핶
핻
홛
홤
홱
횄
횩
훍
훓
훝
흿
갃
걋
겂
겣
곅
곘
굑
굔
궅
귝
깂
깢
깹
껙
껼
꼇
꼐
꽐
꿏
끕
냡
넎
넡
넶
녝
뇔
뉫
늚
댤
덣
뎠
돎
돚
돵
돽
됏
둰
둿
뒁
뒥
뒫
듥
딷
뗌
뗘
똫
뙨
뛔
뜌
띳
랒
럐
럔
렜
렡
롑
롓
뤌
맄
맆
맜
먗
먿
몀
몴
뫙
뭅
뭘
뭰
뮝
믏
믠
밒
밨
밫
밯
뱆
뱜
벉
봍
봘
뵉
뵷
붏
붖
붛
붜
붴
뷋
뺩
뺵
뼁
뼤
삣
삻
샂
샊
섦
셑
쇗
숡
숸
슼
싈
싰
싲
싾
쎕
쎴
쏩
쏱
쏳
쐇
쑴
쒜
쓿
씃
씉
앃
앋
얅
얺
엩
옄
옰
옲
옺
왰
윘
윟
읅
읶
읿
잋
잩
젣
젿
죰
죵
줓
줫
쥭
즤
짗
쨉
쩸
쫃
쫍
춴
췅
칲
칳
캌
캭
컈
켙
콙
퀏
킼
턀
텉
텥
톹
퇌
퇻
퉤
틧
팈
팯
퍅
퍠
폅
폔
폳
퐈
푣
풜
핔
핳
햊
햋
혔
혿
홅
홯
횓
횢
휄
휏
힜
갅
갆
갊
갋
갌
갍
갎
갏
갞
갟
갡
갢
갥
갦
갧
갨
갩
갪
갫
갮
갰
갲
갳
갴
갵
갶
갷
갺
갻
갽
갾
갿
걁
걂
걃
걄
걅
걆
걇
걉
걊
걌
걎
걏
걐
걒
걓
걕
걖
걗
걙
걚
걛
걝
걞
걟
걠
걡
걢
걣
걤
걥
걦
걧
걨
걩
걪
걫
걬
걭
걮
걯
걳
걵
걶
걹
걻
걼
걽
걾
걿
겈
겎
겏
겑
겒
겓
겕
겖
겘
겙
겚
겛
겞
겢
겤
겥
겦
겧
겫
겭
겮
겱
겲
겳
겴
겵
겶
겷
겺
겾
곀
곃
곆
곇
곉
곊
곋
곍
곎
곏
곐
곑
곒
곓
곔
곕
곖
곚
곛
곜
곝
곲
곹
곺
괍
괕
괗
괠
굇
굦
굻
궇
궎
궘
궝
궡
궷
귯
긆
긜
긧
긪
긾
깄
깋
깓
깖
꺌
껠
껬
꼈
꼮
꾈
꿧
뀜
끟
낛
낣
낲
냤
넁
넏
넑
넚
넞
녋
녙
놃
놧
놩
뇍
뇓
뇜
눋
눝
뉩
늅
늏
늕
늩
늰
늿
닁
닞
닟
닠
댇
댔
댚
댝
댸
덙
덯
뎗
뎝
돇
돍
돓
돰
됍
됢
됰
됼
둉
둙
둚
둟
둧
둴
뒈
뒵
듲
듳
듹
듼
딀
딈
딭
딯
딲
땍
땽
떘
떙
떢
떥
떦
떪
떯
뗄
뗼
뚷
뚸
뚼
뜁
띁
띅
랃
랓
랕
랛
랢
랰
랲
럈
럘
럻
렃
렆
렗
렠
렣
롣
롲
뢀
뢉
룍
룧
룯
뤈
뤘
뤨
뤰
뤳
뤵
륐
륫
륱
륽
릌
릍
릘
릫
릳
맀
맃
맊
맍
맔
맕
맗
맠
맢
먓
먕
먘
먾
멏
멪
멵
몊
몪
뫂
뫈
뫔
묺
뭌
뭴
믁
밚
밠
밬
뱍
뱓
벏
벐
벓
벹
볃
볈
볿
봋
봌
봣
봥
뵛
뵝
붊
붔
붠
붵
뷀
뷃
뷤
븃
븕
븝
븟
빍
빧
빩
뺙
뺬
뺸
뺼
뻠
뻡
뻤
뻩
뻼
뽝
뿗
뿝
쀍
쁭
삜
샆
샞
섊
섡
섨
섵
섷
셒
솏
솑
쇡
쇰
숔
숖
숮
쉅
쉠
슢
슦
슳
싄
싡
싦
싪
싵
싿
쌁
썊
썪
쎗
쎼
쎾
쐉
쐑
쐼
쑷
쓘
씜
앀
앆
앖
앚
앛
앹
앾
얂
얃
얊
얜
얨
엗
엪
옂
옏
옽
옾
왘
왙
왤
왿
욨
욽
욿
웆
웇
웑
웝
윋
윥
읂
읇
읋
읐
읙
읟
읷
잂
잆
잙
잚
잧
잨
쟃
쟇
쟬
젃
젆
젏
젗
젲
젵
졩
졶
좧
죕
죳
줃
줜
줼
쥉
쥤
쥥
쥼
쥿
즑
즞
짎
짛
짥
쨜
쨤
쩟
쩩
쩹
쩻
쪗
쪤
쫗
쫘
쭁
찯
챂
첟
첯
첲
쳠
쳤
촏
촣
쵀
쵣
춛
춝
춟
춭
췍
췡
췩
췽
츹
칯
칱
캎
캿
컅
컺
켰
켱
켼
콭
쾁
쾩
쾻
쾽
쿸
쿹
퀩
퀫
큎
큣
큹
킄
킌
킽
탇
탣
탶
턚
텛
텤
텰
텸
텻
텼
툅
툘
툱
퉜
튭
튻
틜
틩
팉
팑
팠
팤
팦
퍁
펲
폏
폶
퐃
퐅
퐌
퐷
푓
푝
픅
픝
픞
핃
핓
핝
핞
핢
핦
핧
