[UNK]
[CLS]
[SEP]
[PAD]
[MASK]
!
"
#
$
%
&
'
(
)
*
+
,
-
.
/
0
1
2
3
4
5
6
7
8
9
:
;
<
=
>
?
@
A
B
C
D
E
F
G
H
I
J
K
L
M
N
O
P
Q
R
S
T
U
V
W
X
Y
Z
[
\
]
^
_
`
a
b
c
d
e
f
g
h
i
j
k
l
m
n
o
p
q
r
s
t
u
v
w
x
y
z
{
|
}
~

ᄀ
ᄁ
ᄂ
ᄃ
ᄄ
ᄅ
ᄆ
ᄇ
ᄈ
ᄉ
ᄊ
ᄋ
ᄌ
ᄍ
ᄎ
ᄏ
ᄐ
ᄑ
ᄒ
ᅡ
ᅢ
ᅣ
ᅤ
ᅥ
ᅦ
ᅧ
ᅨ
ᅩ
ᅪ
ᅬ
ᅭ
ᅮ
ᅯ
ᅰ
ᅱ
ᅲ
ᅳ
ᅴ
ᅵ
ᆨ
ᆩ
ᆫ
ᆭ
ᆮ
ᆯ
ᆷ
ᆸ
ᆹ
ᆺ
ᆻ
ᆼ
ᆽ
ᇀ
ᇂ
ㄱ
ㄲ
ㄳ
ㄴ
ㄵ
ㄶ
ㄷ
ㄸ
ㄹ
ㄺ
ㄻ
ㄼ
ㄽ
ㄾ
ㄿ
ㅀ
ㅁ
ㅂ
ㅃ
ㅄ
ㅅ
ㅆ
ㅇ
ㅈ
ㅉ
ㅊ
ㅋ
ㅌ
ㅍ
ㅎ
ㅏ
ㅐ
ㅑ
ㅒ
ㅓ
ㅔ
ㅕ
ㅖ
ㅗ
ㅘ
ㅙ
ㅚ
ㅛ
ㅜ
ㅝ
ㅞ
ㅟ
ㅠ
ㅡ
ㅢ
ㅣ
가
각
갂
갃
간
갅
갆
갇
갈
갉
갊
갋
갌
갍
갎
갏
감
갑
값
갓
갔
강
갖
갗
갘
같
갚
갛
개
객
갞
갟
갠
갡
갢
갣
갤
갥
갦
갧
갨
갩
갪
갫
갬
갭
갮
갯
갰
갱
갲
갳
갴
갵
갶
갷
갸
갹
갺
갻
갽
갾
갿
걀
걁
걂
걃
걄
걅
걆
걇
걈
걉
걊
걋
걌
걍
걎
걏
걐
걑
걒
걓
걔
걕
걖
걗
걙
걚
걛
걝
걞
걟
걠
걡
걢
걣
걤
걥
걦
걧
걨
걩
걪
걫
걬
걭
걮
걯
거
걱
걲
걳
건
걵
걶
걷
걸
걹
걺
걻
걼
걽
걾
걿
검
겁
겂
것
겄
겅
겆
겇
겈
겉
겊
겋
게
겍
겎
겏
겐
겑
겒
겓
겔
겕
겖
겗
겘
겙
겚
겛
겜
겞
겟
겠
겡
겢
겣
겤
겥
겦
겧
겨
격
겪
겫
견
겭
겮
겯
결
겱
겲
겳
겴
겵
겶
겷
겸
겹
겺
겻
겼
경
겾
겿
곀
곁
곂
곃
계
곅
곆
곇
곈
곉
곊
곋
곌
곍
곎
곏
곐
곑
곒
곓
곔
곕
곖
곗
곘
곙
곚
곛
곜
곝
곞
곟
고
곡
곢
곣
곤
곥
곦
곧
골
곩
곪
곫
곬
곭
곮
곯
곰
곱
곲
곳
곴
공
곶
곷
곸
곹
곺
곻
과
곽
곾
곿
관
괁
괂
괃
괄
괅
괆
괇
괈
괉
괊
괋
괌
괍
괎
괏
괐
광
괒
괓
괔
괕
괖
괗
괘
괙
괚
괛
괜
괝
괞
괟
괠
괡
괢
괣
괤
괥
괦
괧
괨
괩
괪
괫
괬
괭
괮
괯
괰
괱
괲
괳
괴
괵
괶
괷
괸
괹
괺
괻
괼
괽
괾
괿
굀
굁
굂
굃
굄
굅
굆
굇
굈
굉
굊
굋
굌
굍
굎
굏
교
굑
굒
굓
굔
굕
굖
굗
굘
굙
굚
굛
굜
굝
굞
굟
굠
굡
굢
굣
굤
굥
굦
굧
굨
굩
굪
굫
구
국
굮
굯
군
굱
굲
굳
굴
굵
굶
굷
굸
굹
굺
굻
굼
굽
굾
굿
궀
궁
궂
궃
궄
궅
궆
궇
궈
궉
궊
궋
권
궍
궎
궏
궐
궑
궒
궓
궔
궕
궖
궗
궘
궙
궚
궛
궜
궝
궞
궟
궠
궡
궢
궣
궤
궥
궦
궧
궨
궩
궪
궫
궬
궭
궮
궯
궰
궱
궲
궳
궴
궵
궶
궷
궸
궹
궺
궻
궼
궽
궾
궿
귀
귁
귂
귃
귄
귅
귆
귇
귈
귉
귊
귋
귌
귍
귎
귏
귐
귑
귒
귓
귔
귕
귖
귗
귘
귙
귚
귛
규
귝
귞
귟
균
귡
귢
귣
귤
귥
귦
귧
귨
귩
귪
귫
귬
귭
귮
귯
귰
귱
귲
귳
귴
귵
귶
귷
그
극
귺
귻
근
귽
귾
귿
글
긁
긂
긃
긄
긅
긆
긇
금
급
긊
긋
긌
긍
긎
긏
긐
긑
긒
긓
긔
긕
긖
긗
긘
긙
긚
긛
긜
긝
긞
긟
긠
긡
긢
긣
긤
긥
긦
긧
긨
긩
긪
긫
긬
긭
긮
긯
기
긱
긲
긳
긴
긵
긶
긷
길
긹
긺
긻
긼
긽
긾
긿
김
깁
깂
깃
깄
깅
깆
깇
깈
깉
깊
깋
까
깍
깎
깏
깐
깑
깒
깓
깔
깕
깖
깗
깘
깙
깚
깛
깜
깝
깞
깟
깡
깢
깣
깤
깥
깦
깧
깨
깩
깪
깫
깬
깭
깮
깯
깱
깲
깳
깴
깵
깶
깷
깸
깹
깺
깻
깽
깾
깿
꺀
꺁
꺂
꺃
꺄
꺅
꺆
꺇
꺈
꺉
꺊
꺋
꺌
꺍
꺎
꺏
꺐
꺑
꺒
꺓
꺔
꺕
꺖
꺗
꺘
꺙
꺚
꺛
꺜
꺝
꺞
꺟
꺠
꺡
꺢
꺣
꺤
꺥
꺦
꺧
꺨
꺩
꺪
꺫
꺬
꺭
꺮
꺯
꺰
꺱
꺲
꺳
꺴
꺵
꺶
꺷
꺸
꺹
꺺
꺻
꺼
꺽
꺾
꺿
껀
껁
껂
껃
껄
껅
껆
껇
껈
껉
껊
껋
껌
껍
껎
껏
껑
껒
껓
껔
껕
껖
껗
께
껙
껚
껛
껝
껞
껟
껠
껡
껢
껣
껤
껥
껦
껧
껨
껩
껪
껫
껬
껭
껮
껯
껰
껱
껲
껳
껴
껵
껶
껷
껸
껹
껺
껻
껼
껽
껾
껿
꼀
꼁
꼂
꼃
꼄
꼅
꼆
꼇
꼈
꼉
꼊
꼋
꼌
꼍
꼎
꼏
꼐
꼑
꼒
꼓
꼔
꼕
꼖
꼗
꼘
꼙
꼚
꼛
꼜
꼝
꼞
꼟
꼠
꼡
꼢
꼣
꼤
꼥
꼦
꼧
꼨
꼩
꼪
꼫
꼬
꼭
꼮
꼯
꼰
꼱
꼲
꼳
꼴
꼵
꼶
꼷
꼸
꼹
꼺
꼻
꼼
꼽
꼾
꼿
꽀
꽁
꽂
꽃
꽄
꽅
꽆
꽇
꽈
꽉
꽊
꽋
꽌
꽍
꽎
꽏
꽐
꽑
꽒
꽓
꽔
꽕
꽖
꽗
꽘
꽙
꽚
꽛
꽜
꽝
꽞
꽟
꽠
꽡
꽢
꽣
꽤
꽥
꽦
꽧
꽨
꽩
꽪
꽫
꽬
꽭
꽮
꽯
꽰
꽱
꽲
꽳
꽴
꽵
꽶
꽷
꽸
꽹
꽺
꽻
꽼
꽽
꽾
꽿
꾀
꾁
꾂
꾃
꾄
꾅
꾆
꾇
꾈
꾉
꾊
꾋
꾌
꾍
꾎
꾏
꾐
꾑
꾒
꾓
꾔
꾕
꾖
꾗
꾘
꾙
꾚
꾛
꾜
꾝
꾞
꾟
꾠
꾡
꾢
꾣
꾤
꾥
꾦
꾧
꾨
꾩
꾪
꾫
꾬
꾭
꾮
꾯
꾰
꾱
꾲
꾳
꾴
꾵
꾶
꾷
꾸
꾹
꾺
꾻
꾼
꾽
꾾
꾿
꿀
꿁
꿂
꿃
꿄
꿅
꿆
꿇
꿈
꿉
꿊
꿋
꿌
꿍
꿎
꿏
꿐
꿑
꿒
꿓
꿔
꿕
꿖
꿗
꿘
꿙
꿚
꿛
꿜
꿝
꿞
꿟
꿠
꿡
꿢
꿣
꿤
꿥
꿦
꿧
꿨
꿩
꿪
꿫
꿬
꿭
꿮
꿯
꿰
꿱
꿲
꿳
꿵
꿶
꿷
꿹
꿺
꿻
꿼
꿽
꿾
꿿
뀀
뀁
뀂
뀃
뀅
뀆
뀇
뀈
뀉
뀊
뀋
뀌
뀍
뀎
뀏
뀐
뀑
뀒
뀓
뀕
뀖
뀗
뀘
뀙
뀚
뀛
뀜
뀝
뀞
뀟
뀠
뀡
뀢
뀣
뀤
뀥
뀦
뀧
뀨
뀩
뀪
뀫
뀬
뀭
뀮
뀯
뀰
뀱
뀲
뀳
뀴
뀵
뀶
뀷
뀸
뀹
뀺
뀻
뀼
뀽
뀾
뀿
끀
끁
끂
끃
끄
끅
끆
끇
끈
끉
끊
끋
끌
끍
끎
끏
끐
끑
끒
끓
끔
끕
끖
끗
끘
끙
끚
끛
끜
끝
끞
끟
끠
끡
끢
끣
끤
끥
끦
끧
끨
끩
끪
끫
끬
끭
끮
끯
끰
끱
끲
끳
끴
끵
끶
끷
끸
끹
끺
끻
끼
끽
끾
끿
낀
낁
낂
낃
낄
낅
낆
낇
낈
낉
낊
낋
낌
낍
낎
낏
낐
낑
낒
낓
낔
낕
낖
낗
나
낙
낚
낛
난
낝
낞
낟
날
낡
낢
낣
낤
낥
낦
낧
남
납
낪
낫
났
낭
낮
낯
낰
낱
낲
낳
내
낵
낶
낷
낸
낹
낺
낻
낼
낽
낾
낿
냀
냁
냂
냃
냄
냅
냆
냇
냈
냉
냊
냋
냌
냍
냎
냏
냐
냑
냒
냓
냔
냕
냖
냗
냘
냙
냚
냛
냜
냝
냞
냟
냠
냡
냢
냣
냤
냥
냦
냧
냨
냩
냪
냫
냬
냭
냮
냯
냱
냲
냳
냴
냵
냶
냷
냸
냹
냺
냻
냼
냽
냾
냿
넀
넁
넂
넃
넄
넅
넆
넇
너
넉
넊
넋
넌
넍
넎
넏
널
넑
넒
넓
넔
넕
넖
넗
넘
넙
넚
넛
넜
넝
넞
넟
넠
넡
넢
넣
네
넥
넦
넧
넨
넩
넪
넫
넬
넭
넮
넯
넰
넱
넲
넳
넴
넵
넶
넷
넸
넹
넺
넻
넼
넽
넾
넿
녀
녁
녂
녃
년
녅
녆
녇
녈
녉
녊
녋
녌
녍
녎
녏
념
녑
녒
녓
녔
녕
녖
녗
녘
녙
녚
녛
녜
녝
녞
녟
녠
녡
녢
녣
녤
녥
녦
녧
녨
녩
녪
녫
녬
녭
녮
녯
녰
녱
녲
녳
녴
녵
녶
녷
노
녹
녺
녻
논
녽
녾
녿
놀
놁
놂
놃
놄
놅
놆
놇
놈
놉
놊
놋
놌
농
놎
놏
놐
놑
높
놓
놔
놕
놖
놗
놘
놙
놚
놛
놜
놝
놞
놟
놠
놡
놢
놣
놤
놥
놦
놧
놨
놩
놪
놫
놬
놭
놮
놯
놰
놱
놲
놳
놴
놵
놶
놷
놸
놹
놺
놻
놼
놽
놾
놿
뇀
뇁
뇂
뇃
뇄
뇅
뇆
뇇
뇈
뇉
뇊
뇋
뇌
뇍
뇎
뇏
뇐
뇑
뇒
뇓
뇔
뇕
뇖
뇗
뇘
뇙
뇚
뇛
뇜
뇝
뇞
뇟
뇠
뇡
뇢
뇣
뇤
뇥
뇦
뇧
뇨
뇩
뇪
뇫
뇬
뇭
뇮
뇯
뇰
뇱
뇲
뇳
뇴
뇵
뇶
뇷
뇸
뇹
뇺
뇻
뇼
뇽
뇾
뇿
눀
눁
눂
눃
누
눅
눆
눇
눈
눉
눊
눋
눌
눍
눎
눏
눐
눑
눒
눓
눔
눕
눖
눗
눘
눙
눚
눛
눜
눝
눞
눟
눡
눢
눣
눤
눥
눦
눧
눨
눩
눪
눫
눬
눭
눮
눯
눰
눱
눲
눳
눵
눶
눷
눸
눹
눺
눻
눼
눽
눾
눿
뉀
뉁
뉂
뉃
뉄
뉅
뉆
뉇
뉈
뉉
뉊
뉋
뉌
뉍
뉎
뉏
뉐
뉑
뉒
뉓
뉔
뉕
뉖
뉗
뉘
뉙
뉚
뉛
뉜
뉝
뉞
뉟
뉡
뉢
뉣
뉤
뉥
뉦
뉧
뉨
뉩
뉪
뉫
뉬
뉭
뉮
뉯
뉰
뉱
뉲
뉳
뉴
뉵
뉶
뉷
뉸
뉹
뉺
뉻
뉼
뉽
뉾
뉿
늀
늁
늂
늃
늄
늅
늆
늇
늈
늉
늊
늋
늌
늍
늎
늏
느
늑
늒
늓
는
늕
늖
늗
늘
늙
늚
늛
늜
늝
늞
늟
늠
늡
늢
늣
늤
능
늦
늧
늨
늩
늪
늫
늬
늭
늮
늯
늰
늱
늲
늳
늴
늵
늶
늷
늸
늹
늺
늻
늼
늽
늾
늿
닀
닁
닂
닃
닄
닅
닆
닇
니
닉
닊
닋
닌
닍
닎
닏
닐
닑
닒
닓
닔
닕
닖
닗
님
닙
닚
닛
닜
닝
닞
닟
닠
닡
닢
닣
다
닥
닦
닧
단
닩
닪
닫
달
닭
닮
닯
닰
닱
닲
닳
담
답
닶
닷
닸
당
닺
닻
닼
닽
닾
닿
대
댁
댂
댃
댄
댅
댆
댇
댈
댉
댊
댋
댌
댍
댎
댏
댐
댑
댒
댓
댔
댕
댖
댗
댘
댙
댚
댛
댜
댝
댞
댟
댠
댡
댢
댣
댤
댥
댦
댧
댨
댩
댪
댫
댬
댭
댮
댯
댰
댱
댲
댳
댴
댵
댶
댷
댸
댹
댺
댻
댼
댽
댾
댿
덀
덁
덂
덃
덄
덅
덆
덇
덈
덉
덊
덋
덌
덍
덎
덏
덐
덑
덒
덓
더
덕
덖
덗
던
덙
덚
덛
덜
덝
덞
덟
덠
덡
덢
덣
덤
덥
덦
덧
덨
덩
덪
덫
덬
덭
덮
덯
데
덱
덲
덳
덴
덵
덶
덷
델
덹
덺
덻
덼
덽
덾
덿
뎀
뎁
뎂
뎃
뎄
뎅
뎆
뎇
뎈
뎉
뎊
뎋
뎌
뎍
뎎
뎏
뎐
뎑
뎒
뎓
뎔
뎕
뎖
뎗
뎘
뎙
뎚
뎛
뎜
뎝
뎞
뎟
뎠
뎡
뎢
뎣
뎤
뎥
뎦
뎧
뎨
뎩
뎪
뎫
뎬
뎭
뎮
뎯
뎰
뎱
뎲
뎳
뎴
뎵
뎶
뎷
뎸
뎹
뎺
뎻
뎼
뎽
뎾
뎿
돀
돁
돂
돃
도
독
돆
돇
돈
돉
돊
돋
돌
돍
돎
돏
돐
돑
돒
돓
돔
돕
돖
돗
돘
동
돚
돛
돜
돝
돞
돟
돠
돡
돢
돣
돤
돥
돦
돧
돨
돩
돪
돫
돬
돭
돮
돯
돰
돱
돲
돳
돴
돵
돶
돷
돸
돹
돺
돻
돼
돽
돾
돿
됀
됁
됂
됃
됄
됅
됆
됇
됈
됉
됊
됋
됌
됍
됎
됏
됐
됑
됒
됓
됔
됕
됖
됗
되
됙
됚
됛
된
됝
됞
됟
될
됡
됢
됣
됤
됥
됦
됧
됨
됩
됪
됫
됬
됭
됮
됯
됰
됱
됲
됳
됴
됵
됶
됷
됸
됹
됺
됻
됼
됽
됾
됿
둀
둁
둂
둃
둄
둅
둆
둇
둈
둉
둊
둋
둌
둍
둎
둏
두
둑
둒
둓
둔
둕
둖
둗
둘
둙
둚
둛
둜
둝
둞
둟
둠
둡
둢
둣
둤
둥
둦
둧
둨
둩
둪
둫
둬
둭
둮
둯
둰
둱
둲
둳
둴
둵
둶
둷
둸
둹
둺
둻
둼
둽
둾
둿
뒁
뒂
뒃
뒄
뒅
뒆
뒇
뒈
뒉
뒊
뒋
뒌
뒍
뒎
뒏
뒐
뒑
뒒
뒓
뒔
뒕
뒖
뒗
뒘
뒙
뒚
뒛
뒜
뒝
뒞
뒟
뒠
뒡
뒢
뒣
뒤
뒥
뒦
뒧
뒨
뒩
뒪
뒫
뒬
뒭
뒮
뒯
뒰
뒱
뒲
뒳
뒴
뒵
뒶
뒷
뒸
뒹
뒺
뒻
뒼
뒽
뒾
뒿
듀
듁
듂
듃
듄
듅
듆
듇
듈
듉
듊
듋
듌
듍
듎
듏
듐
듑
듒
듓
듔
듕
듖
듗
듘
듙
듚
듛
드
득
듞
듟
든
듡
듢
듣
들
듥
듦
듧
듨
듩
듪
듫
듬
듭
듮
듯
듰
등
듲
듳
듴
듵
듶
듷
듸
듹
듺
듻
듼
듽
듾
듿
딀
딁
딂
딃
딄
딅
딆
딇
딈
딉
딊
딋
딌
딍
딎
딏
딐
딑
딒
딓
디
딕
딖
딗
딘
딙
딚
딛
딜
딝
딞
딟
딠
딡
딢
딣
딤
딥
딦
딧
딨
딩
딪
딫
딬
딭
딮
딯
따
딱
딲
딳
딴
딵
딶
딷
딸
딹
딺
딻
딼
딽
딾
딿
땀
땁
땂
땃
땅
땆
땇
땈
땉
땊
땋
때
땍
땎
땏
땐
땑
땒
땓
땔
땕
땖
땗
땘
땙
땚
땛
땜
땝
땞
땟
땠
땡
땢
땣
땤
땥
땦
땧
땨
땩
땪
땫
땬
땭
땮
땯
땰
땱
땲
땳
땴
땵
땶
땷
땸
땹
땺
땻
땼
땽
땾
땿
떀
떁
떂
떃
떄
떅
떆
떇
떈
떉
떊
떋
떌
떍
떎
떏
떐
떑
떒
떓
떔
떕
떖
떗
떘
떙
떚
떛
떜
떝
떞
떟
떠
떡
떢
떣
떤
떥
떦
떧
떨
떩
떪
떫
떬
떭
떮
떯
떰
떱
떲
떳
떵
떶
떷
떸
떹
떺
떻
떼
떽
떾
떿
뗀
뗁
뗂
뗃
뗄
뗅
뗆
뗇
뗈
뗉
뗊
뗋
뗌
뗍
뗎
뗏
뗑
뗒
뗓
뗔
뗕
뗖
뗗
뗘
뗙
뗚
뗛
뗜
뗝
뗞
뗟
뗠
뗡
뗢
뗣
뗤
뗥
뗦
뗧
뗨
뗩
뗪
뗫
뗭
뗮
뗯
뗰
뗱
뗲
뗳
뗴
뗵
뗶
뗷
뗸
뗹
뗺
뗻
뗼
뗽
뗾
뗿
똀
똁
똂
똃
똄
똅
똆
똇
똈
똉
똊
똋
똌
똍
똎
똏
또
똑
똒
똓
똔
똕
똖
똗
똘
똙
똚
똛
똜
똝
똞
똟
똠
똡
똢
똣
똤
똥
똦
똧
똨
똩
똪
똫
똬
똭
똮
똯
똰
똱
똲
똳
똴
똵
똶
똷
똸
똹
똺
똻
똼
똽
똾
똿
뙀
뙁
뙂
뙃
뙄
뙅
뙆
뙇
뙈
뙉
뙊
뙋
뙌
뙍
뙎
뙏
뙐
뙑
뙒
뙓
뙔
뙕
뙖
뙗
뙘
뙙
뙚
뙛
뙜
뙝
뙞
뙟
뙠
뙡
뙢
뙣
뙤
뙥
뙦
뙧
뙨
뙩
뙪
뙫
뙬
뙭
뙮
뙯
뙰
뙱
뙲
뙳
뙴
뙵
뙶
뙷
뙸
뙹
뙺
뙻
뙼
뙽
뙾
뙿
뚀
뚁
뚂
뚃
뚄
뚅
뚆
뚇
뚈
뚉
뚊
뚋
뚌
뚍
뚎
뚏
뚐
뚑
뚒
뚓
뚔
뚕
뚖
뚗
뚘
뚙
뚚
뚛
뚜
뚝
뚞
뚟
뚠
뚡
뚢
뚣
뚤
뚥
뚦
뚧
뚨
뚩
뚪
뚫
뚬
뚭
뚮
뚯
뚰
뚱
뚲
뚳
뚴
뚵
뚶
뚷
뚸
뚹
뚺
뚻
뚼
뚽
뚾
뚿
뛀
뛁
뛂
뛃
뛄
뛅
뛆
뛇
뛈
뛉
뛊
뛋
뛌
뛍
뛎
뛏
뛐
뛑
뛒
뛓
뛔
뛕
뛖
뛗
뛘
뛙
뛚
뛛
뛜
뛝
뛞
뛟
뛠
뛡
뛢
뛣
뛤
뛥
뛦
뛧
뛨
뛩
뛪
뛫
뛬
뛭
뛮
뛯
뛰
뛱
뛲
뛳
뛵
뛶
뛷
뛸
뛹
뛺
뛻
뛼
뛽
뛾
뛿
뜀
뜁
뜂
뜃
뜄
뜅
뜆
뜇
뜈
뜉
뜊
뜋
뜌
뜍
뜎
뜏
뜐
뜑
뜒
뜓
뜔
뜕
뜖
뜗
뜘
뜙
뜚
뜛
뜜
뜝
뜞
뜟
뜠
뜡
뜢
뜣
뜤
뜥
뜦
뜧
뜨
뜩
뜪
뜫
뜬
뜭
뜮
뜯
뜰
뜱
뜲
뜳
뜴
뜵
뜶
뜷
뜸
뜹
뜺
뜻
뜼
뜽
뜾
뜿
띀
띁
띂
띃
띄
띅
띆
띇
띉
띊
띋
띍
띎
띏
띐
띑
띒
띓
띔
띕
띖
띗
띘
띙
띚
띛
띜
띝
띞
띟
띠
띡
띢
띣
띤
띥
띦
띧
띨
띩
띪
띫
띬
띭
띮
띯
띰
띱
띲
띳
띴
띵
띶
띷
띸
띹
띺
띻
라
락
띾
띿
란
랁
랂
랃
랄
랅
랆
랇
랈
랉
랊
랋
람
랍
랎
랏
랐
랑
랒
랓
랔
랕
랖
랗
래
랙
랚
랛
랜
랝
랞
랟
랠
랡
랢
랣
랤
랥
랦
랧
램
랩
랪
랫
랬
랭
랮
랯
랰
랱
랲
랳
랴
략
랶
랷
랸
랹
랺
랻
랼
랽
랾
랿
럀
럁
럂
럃
럄
럅
럆
럇
럈
량
럊
럋
럌
럍
럎
럏
럐
럑
럒
럓
럔
럕
럖
럗
럘
럙
럚
럛
럜
럝
럞
럟
럠
럡
럢
럣
럤
럥
럦
럧
럨
럩
럪
럫
러
럭
럮
럯
런
럱
럲
럳
럴
럵
럶
럷
럸
럹
럺
럻
럼
럽
럾
럿
렀
렁
렂
렃
렄
렅
렆
렇
레
렉
렊
렋
렌
렍
렎
렏
렐
렑
렒
렓
렔
렕
렖
렗
렘
렙
렚
렛
렜
렝
렞
렟
렠
렡
렢
렣
려
력
렦
렧
련
렩
렪
렫
렬
렭
렮
렯
렰
렱
렲
렳
렴
렵
렶
렷
렸
령
렺
렻
렼
렽
렾
렿
례
롁
롂
롃
롄
롅
롆
롇
롈
롉
롊
롋
롌
롍
롎
롏
롐
롑
롒
롓
롔
롕
롖
롗
롘
롙
롚
롛
로
록
롞
롟
론
롡
롢
롣
롤
롥
롦
롧
롨
롩
롪
롫
롬
롭
롮
롯
롰
롱
롲
롳
롴
롵
롶
롷
롸
롹
롺
롻
롼
롽
롾
롿
뢀
뢁
뢂
뢃
뢄
뢅
뢆
뢇
뢈
뢉
뢊
뢋
뢌
뢍
뢎
뢏
뢐
뢑
뢒
뢓
뢔
뢕
뢖
뢗
뢘
뢙
뢚
뢛
뢜
뢝
뢞
뢟
뢠
뢡
뢢
뢣
뢤
뢥
뢦
뢧
뢨
뢩
뢪
뢫
뢬
뢭
뢮
뢯
뢰
뢱
뢲
뢳
뢴
뢵
뢶
뢷
뢸
뢹
뢺
뢻
뢼
뢽
뢾
뢿
룀
룁
룂
룃
룄
룅
룆
룇
룈
룉
룊
룋
료
룍
룎
룏
룐
룑
룒
룓
룔
룕
룖
룗
룘
룙
룚
룛
룜
룝
룞
룟
룠
룡
룢
룣
룤
룥
룦
룧
루
룩
룪
룫
룬
룭
룮
룯
룰
룱
룲
룳
룴
룵
룶
룷
룸
룹
룺
룻
룼
룽
룾
룿
뤀
뤁
뤂
뤃
뤄
뤅
뤆
뤇
뤈
뤉
뤊
뤋
뤌
뤍
뤎
뤏
뤐
뤑
뤒
뤓
뤔
뤕
뤖
뤗
뤘
뤙
뤚
뤛
뤜
뤝
뤞
뤟
뤠
뤡
뤢
뤣
뤤
뤥
뤦
뤧
뤨
뤩
뤪
뤫
뤬
뤭
뤮
뤯
뤰
뤱
뤲
뤳
뤴
뤵
뤶
뤷
뤸
뤹
뤺
뤻
뤼
뤽
뤾
뤿
륀
륁
륂
륃
륄
륅
륆
륇
륈
륉
륊
륋
륌
륍
륎
륏
륐
륑
륒
륓
륔
륕
륖
륗
류
륙
륚
륛
륜
륝
륞
륟
률
륡
륢
륣
륤
륥
륦
륧
륨
륩
륪
륫
륬
륭
륮
륯
륰
륱
륲
륳
르
륵
륶
륷
른
륹
륺
륻
를
륽
륾
륿
릀
릁
릂
릃
름
릅
릆
릇
릈
릉
릊
릋
릌
릍
릎
릏
릐
릑
릒
릓
릔
릕
릖
릗
릘
릙
릚
릛
릜
릝
릞
릟
릠
릡
릢
릣
릤
릥
릦
릧
릨
릩
릪
릫
리
릭
릮
릯
린
릱
릲
릳
릴
릵
릶
릷
릸
릹
릺
릻
림
립
릾
릿
맀
링
맂
맃
맄
맅
맆
맇
마
막
맊
맋
만
맍
많
맏
말
맑
맒
맓
맔
맕
맖
맗
맘
맙
맚
맛
맜
망
맞
맟
맠
맡
맢
맣
매
맥
맦
맧
맨
맩
맪
맫
맬
맭
맮
맯
맰
맱
맲
맳
맴
맵
맶
맷
맹
맺
맻
맼
맽
맾
맿
먀
먁
먂
먃
먄
먅
먆
먇
먈
먉
먊
먋
먌
먍
먎
먏
먐
먑
먒
먓
먔
먕
먖
먗
먘
먙
먚
먛
먜
먝
먞
먟
먠
먡
먢
먣
먤
먥
먦
먧
먨
먩
먪
먫
먬
먭
먮
먯
먰
먱
먲
먳
먴
먵
먶
먷
머
먹
먺
먻
먼
먽
먾
먿
멀
멁
멂
멃
멄
멅
멆
멇
멈
멉
멊
멋
멌
멍
멎
멏
멐
멑
멒
멓
메
멕
멖
멗
멘
멙
멚
멛
멜
멝
멞
멟
멠
멡
멢
멣
멤
멥
멦
멧
멨
멩
멪
멫
멬
멭
멮
멯
며
멱
멲
멳
면
멵
멶
멷
멸
멹
멺
멻
멼
멽
멾
멿
몀
몁
몂
몃
몄
명
몆
몇
몈
몉
몊
몋
몌
몍
몎
몏
몐
몑
몒
몓
몔
몕
몖
몗
몘
몙
몚
몛
몜
몝
몞
몟
몠
몡
몢
몣
몤
몥
몦
몧
모
목
몪
몫
몬
몭
몮
몯
몰
몱
몲
몳
몴
몵
몶
몷
몸
몹
몺
못
몼
몽
몾
몿
뫀
뫁
뫂
뫃
뫄
뫅
뫆
뫇
뫈
뫉
뫊
뫋
뫌
뫍
뫎
뫏
뫐
뫑
뫒
뫓
뫔
뫕
뫖
뫗
뫘
뫙
뫚
뫛
뫜
뫝
뫞
뫟
뫠
뫡
뫢
뫣
뫤
뫥
뫦
뫧
뫨
뫩
뫪
뫫
뫬
뫭
뫮
뫯
뫰
뫱
뫲
뫳
뫴
뫵
뫶
뫷
뫸
뫹
뫺
뫻
뫼
뫽
뫾
뫿
묀
묁
묂
묃
묄
묅
묆
묇
묈
묉
묊
묋
묌
묍
묎
묏
묐
묑
묒
묓
묔
묕
묖
묗
묘
묙
묚
묛
묜
묝
묞
묟
묠
묡
묢
묣
묤
묥
묦
묧
묨
묩
묪
묫
묬
묭
묮
묯
묰
묱
묲
묳
무
묵
묶
묷
문
묹
묺
묻
물
묽
묾
묿
뭀
뭁
뭂
뭃
뭄
뭅
뭆
뭇
뭈
뭉
뭊
뭋
뭌
뭍
뭎
뭏
뭐
뭑
뭒
뭓
뭔
뭕
뭖
뭗
뭘
뭙
뭚
뭛
뭜
뭝
뭞
뭟
뭠
뭡
뭢
뭣
뭤
뭥
뭦
뭧
뭨
뭩
뭪
뭫
뭬
뭭
뭮
뭯
뭰
뭱
뭲
뭳
뭴
뭵
뭶
뭷
뭸
뭹
뭺
뭻
뭼
뭽
뭾
뭿
뮀
뮁
뮂
뮃
뮄
뮅
뮆
뮇
뮈
뮉
뮊
뮋
뮌
뮍
뮎
뮏
뮐
뮑
뮒
뮓
뮔
뮕
뮖
뮗
뮘
뮙
뮚
뮛
뮜
뮝
뮞
뮟
뮠
뮡
뮢
뮣
뮤
뮥
뮦
뮧
뮨
뮩
뮪
뮫
뮬
뮭
뮮
뮯
뮰
뮱
뮲
뮳
뮴
뮵
뮶
뮷
뮸
뮹
뮺
뮻
뮼
뮽
뮾
뮿
므
믁
믂
믃
믄
믅
믆
믇
믈
믉
믊
믋
믌
믍
믎
믏
믐
믑
믒
믓
믔
믕
믖
믗
믘
믙
믚
믛
믜
믝
믞
믟
믠
믡
믢
믣
믤
믥
믦
믧
믨
믩
믪
믫
믬
믭
믮
믯
믰
믱
믲
믳
믴
믵
믶
믷
미
믹
믺
믻
민
믽
믾
믿
밀
밁
밂
밃
밄
밅
밆
밇
밈
밉
밊
밋
밌
밍
밎
및
밐
밑
밒
밓
바
박
밖
밗
반
밙
밚
받
발
밝
밞
밟
밠
밡
밢
밣
밤
밥
밦
밧
밨
방
밪
밫
밬
밭
밮
밯
배
백
밲
밳
밴
밵
밶
밷
밸
밹
밺
밻
밼
밽
밾
밿
뱀
뱁
뱂
뱃
뱅
뱆
뱇
뱈
뱉
뱊
뱋
뱌
뱍
뱎
뱏
뱐
뱑
뱒
뱓
뱔
뱕
뱖
뱗
뱘
뱙
뱚
뱛
뱜
뱝
뱞
뱟
뱠
뱡
뱢
뱣
뱤
뱥
뱦
뱧
뱨
뱩
뱪
뱫
뱬
뱭
뱮
뱯
뱰
뱱
뱲
뱳
뱴
뱵
뱶
뱷
뱸
뱹
뱺
뱻
뱼
뱽
뱾
뱿
벀
벁
벂
벃
버
벅
벆
벇
번
벉
벊
벋
벌
벍
벎
벏
벐
벑
벒
벓
범
법
벖
벗
벘
벙
벚
벛
벜
벝
벞
벟
베
벡
벢
벣
벤
벥
벦
벧
벨
벩
벪
벫
벬
벭
벮
벯
벰
벱
벲
벳
벴
벵
벶
벷
벸
벹
벺
벻
벼
벽
벾
벿
변
볁
볂
볃
별
볅
볆
볇
볈
볉
볊
볋
볌
볍
볎
볏
볐
병
볒
볓
볔
볕
볖
볗
볘
볙
볚
볛
볜
볝
볞
볟
볠
볡
볢
볣
볤
볥
볦
볧
볨
볩
볪
볫
볬
볭
볮
볯
볰
볱
볲
볳
보
복
볶
볷
본
볹
볺
볻
볼
볽
볾
볿
봀
봁
봂
봃
봄
봅
봆
봇
봈
봉
봊
봋
봌
봍
봎
봏
봐
봑
봒
봓
봔
봕
봖
봗
봘
봙
봚
봛
봜
봝
봞
봟
봠
봡
봢
봣
봤
봥
봦
봧
봨
봩
봪
봫
봬
봭
봮
봯
봰
봱
봲
봳
봴
봵
봶
봷
봸
봹
봺
봻
봼
봽
봾
봿
뵁
뵂
뵃
뵄
뵅
뵆
뵇
뵈
뵉
뵊
뵋
뵍
뵎
뵏
뵐
뵑
뵒
뵓
뵔
뵕
뵖
뵗
뵘
뵙
뵚
뵛
뵝
뵞
뵟
뵠
뵡
뵢
뵣
뵤
뵥
뵦
뵧
뵨
뵩
뵪
뵫
뵬
뵭
뵮
뵯
뵰
뵱
뵲
뵳
뵴
뵵
뵶
뵷
뵸
뵹
뵺
뵻
뵼
뵽
뵾
뵿
부
북
붂
붃
분
붅
붆
붇
불
붉
붊
붋
붌
붍
붎
붏
붐
붑
붒
붓
붔
붕
붖
붗
붘
붙
붚
붛
붜
붝
붞
붟
붠
붡
붢
붣
붤
붥
붦
붧
붨
붩
붪
붫
붬
붭
붮
붯
붰
붱
붲
붳
붴
붵
붶
붷
붸
붹
붺
붻
붼
붽
붾
붿
뷀
뷁
뷂
뷃
뷄
뷅
뷆
뷇
뷈
뷉
뷊
뷋
뷌
뷍
뷎
뷏
뷐
뷑
뷒
뷓
뷔
뷕
뷖
뷗
뷘
뷙
뷚
뷛
뷜
뷝
뷞
뷟
뷠
뷡
뷢
뷣
뷤
뷥
뷦
뷧
뷨
뷩
뷪
뷫
뷬
뷭
뷮
뷯
뷰
뷱
뷲
뷳
뷴
뷵
뷶
뷷
뷸
뷹
뷺
뷻
뷼
뷽
뷾
뷿
븀
븁
븂
븃
븄
븅
븆
븇
븈
븉
븊
븋
브
븍
븎
븏
븐
븑
븒
븓
블
븕
븖
븗
븘
븙
븚
븛
븜
븝
븞
븟
븠
븡
븢
븣
븤
븥
븦
븧
븨
븩
븪
븫
븬
븭
븮
븯
븰
븱
븲
븳
븴
븵
븶
븷
븸
븹
븺
븻
븼
븽
븾
븿
빀
빁
빂
빃
비
빅
빆
빇
빈
빉
빊
빋
빌
빍
빎
빏
빐
빑
빒
빓
빔
빕
빖
빗
빘
빙
빚
빛
빜
빝
빞
빟
빠
빡
빢
빣
빤
빥
빦
빧
빨
빩
빪
빫
빬
빭
빮
빯
빰
빱
빲
빳
빴
빵
빶
빷
빸
빹
빺
빻
빼
빽
빾
빿
뺀
뺁
뺂
뺃
뺄
뺅
뺆
뺇
뺈
뺉
뺊
뺋
뺌
뺍
뺎
뺏
뺐
뺑
뺒
뺓
뺔
뺕
뺖
뺗
뺘
뺙
뺚
뺛
뺜
뺝
뺞
뺟
뺠
뺡
뺢
뺣
뺤
뺥
뺦
뺧
뺨
뺩
뺪
뺫
뺬
뺭
뺮
뺯
뺰
뺱
뺲
뺳
뺴
뺵
뺶
뺷
뺸
뺹
뺺
뺻
뺼
뺽
뺾
뺿
뻀
뻁
뻂
뻃
뻄
뻅
뻆
뻇
뻈
뻉
뻊
뻋
뻌
뻍
뻎
뻏
뻐
뻑
뻒
뻓
뻔
뻕
뻖
뻗
뻘
뻙
뻚
뻛
뻜
뻝
뻞
뻟
뻠
뻡
뻢
뻣
뻤
뻥
뻦
뻧
뻨
뻩
뻪
뻫
뻬
뻭
뻮
뻯
뻰
뻱
뻲
뻳
뻴
뻵
뻶
뻷
뻸
뻹
뻺
뻻
뻼
뻽
뻾
뻿
뼀
뼁
뼂
뼃
뼄
뼅
뼆
뼇
뼈
뼉
뼊
뼋
뼌
뼍
뼎
뼏
뼐
뼑
뼒
뼓
뼔
뼕
뼖
뼗
뼘
뼙
뼚
뼛
뼜
뼝
뼞
뼟
뼠
뼡
뼢
뼣
뼤
뼥
뼦
뼧
뼨
뼩
뼪
뼫
뼬
뼭
뼮
뼯
뼰
뼱
뼲
뼳
뼴
뼵
뼶
뼷
뼸
뼹
뼺
뼻
뼼
뼽
뼾
뼿
뽀
뽁
뽂
뽃
뽄
뽅
뽆
뽇
뽈
뽉
뽊
뽋
뽌
뽍
뽎
뽏
뽐
뽑
뽒
뽓
뽔
뽕
뽖
뽗
뽘
뽙
뽚
뽛
뽜
뽝
뽞
뽟
뽠
뽡
뽢
뽣
뽤
뽥
뽦
뽧
뽨
뽩
뽪
뽫
뽬
뽭
뽮
뽯
뽰
뽱
뽲
뽳
뽴
뽵
뽶
뽷
뽸
뽹
뽺
뽻
뽼
뽽
뽾
뽿
뾀
뾁
뾂
뾃
뾄
뾅
뾆
뾇
뾈
뾉
뾊
뾋
뾌
뾍
뾎
뾏
뾐
뾑
뾒
뾓
뾔
뾕
뾖
뾗
뾘
뾙
뾚
뾛
뾜
뾝
뾞
뾟
뾠
뾡
뾢
뾣
뾤
뾥
뾦
뾧
뾨
뾩
뾪
뾫
뾬
뾭
뾮
뾯
뾰
뾱
뾲
뾳
뾴
뾵
뾶
뾷
뾸
뾹
뾺
뾻
뾼
뾽
뾾
뾿
뿀
뿁
뿂
뿃
뿄
뿅
뿆
뿇
뿈
뿉
뿊
뿋
뿌
뿍
뿎
뿏
뿐
뿑
뿒
뿓
뿔
뿕
뿖
뿗
뿘
뿙
뿚
뿛
뿜
뿝
뿞
뿟
뿡
뿢
뿣
뿤
뿥
뿦
뿧
뿨
뿩
뿪
뿫
뿬
뿭
뿮
뿯
뿰
뿱
뿲
뿳
뿴
뿵
뿶
뿷
뿸
뿹
뿺
뿻
뿼
뿽
뿾
뿿
쀀
쀁
쀂
쀃
쀄
쀅
쀆
쀇
쀈
쀉
쀊
쀋
쀌
쀍
쀎
쀏
쀐
쀑
쀒
쀓
쀔
쀕
쀖
쀗
쀘
쀙
쀚
쀛
쀜
쀝
쀞
쀟
쀠
쀡
쀢
쀣
쀤
쀥
쀦
쀧
쀨
쀩
쀪
쀫
쀬
쀭
쀮
쀯
쀰
쀱
쀲
쀳
쀴
쀵
쀶
쀷
쀸
쀹
쀺
쀻
쀼
쀽
쀾
쀿
쁀
쁁
쁂
쁃
쁄
쁅
쁆
쁇
쁈
쁉
쁊
쁋
쁌
쁍
쁎
쁏
쁐
쁑
쁒
쁓
쁔
쁕
쁖
쁗
쁘
쁙
쁚
쁛
쁜
쁝
쁞
쁟
쁠
쁡
쁢
쁣
쁤
쁥
쁦
쁧
쁨
쁩
쁪
쁫
쁬
쁭
쁮
쁯
쁰
쁱
쁲
쁳
쁴
쁵
쁶
쁷
쁸
쁹
쁺
쁻
쁼
쁽
쁾
쁿
삀
삁
삂
삃
삄
삅
삆
삇
삈
삉
삊
삋
삌
삍
삎
삏
삐
삑
삒
삓
삔
삕
삖
삗
삘
삙
삚
삛
삜
삝
삞
삟
삠
삡
삢
삣
삤
삥
삦
삧
삨
삩
삪
삫
사
삭
삮
삯
산
삱
삲
삳
살
삵
삶
삷
삸
삹
삺
삻
삼
삽
삾
삿
상
샂
샃
샄
샅
샆
샇
새
색
샊
샋
샌
샍
샎
샏
샐
샑
샒
샓
샔
샕
샖
샗
샘
샙
샚
샛
생
샞
샟
샠
샡
샢
샣
샤
샥
샦
샧
샨
샩
샪
샫
샬
샭
샮
샯
샰
샱
샲
샳
샴
샵
샶
샷
샸
샹
샺
샻
샼
샽
샾
샿
섀
섁
섂
섃
섄
섅
섆
섇
섈
섉
섊
섋
섌
섍
섎
섏
섐
섑
섒
섓
섔
섕
섖
섗
섘
섙
섚
섛
서
석
섞
섟
선
섡
섢
섣
설
섥
섦
섧
섨
섩
섪
섫
섬
섭
섮
섯
섰
성
섲
섳
섴
섵
섶
섷
세
섹
섺
섻
센
섽
섿
셀
셁
셂
셃
셄
셅
셆
셇
셈
셉
셊
셋
셍
셎
셏
셐
셑
셒
셓
셔
셕
셖
셗
션
셙
셚
셛
셜
셝
셞
셟
셠
셡
셢
셣
셤
셥
셦
셧
셨
셩
셪
셫
셬
셭
셮
셯
셰
셱
셲
셳
셴
셵
셶
셷
셸
셹
셺
셻
셼
셽
셾
셿
솀
솁
솂
솃
솄
솅
솆
솇
솈
솉
솊
솋
소
속
솎
솏
손
솑
솒
솓
솔
솕
솖
솗
솘
솙
솚
솛
솜
솝
솞
솟
솠
송
솢
솣
솤
솥
솦
솧
솨
솩
솪
솫
솬
솭
솮
솯
솰
솱
솲
솳
솴
솵
솶
솷
솸
솹
솺
솻
솼
솽
솾
솿
쇀
쇁
쇂
쇃
쇄
쇅
쇆
쇇
쇈
쇉
쇊
쇋
쇌
쇍
쇎
쇏
쇐
쇑
쇒
쇓
쇔
쇕
쇖
쇗
쇘
쇙
쇚
쇛
쇜
쇝
쇞
쇟
쇠
쇡
쇢
쇣
쇤
쇥
쇦
쇧
쇨
쇩
쇪
쇫
쇬
쇭
쇮
쇯
쇰
쇱
쇲
쇳
쇴
쇵
쇶
쇷
쇸
쇹
쇺
쇻
쇼
쇽
쇾
쇿
숀
숁
숂
숃
숄
숅
숆
숇
숈
숉
숊
숋
숌
숍
숎
숏
숐
숑
숒
숓
숔
숕
숖
숗
수
숙
숚
숛
순
숝
숞
숟
술
숡
숢
숣
숤
숥
숦
숧
숨
숩
숪
숫
숬
숭
숮
숯
숰
숱
숲
숳
숴
숵
숶
숷
숸
숹
숺
숻
숼
숽
숾
숿
쉀
쉁
쉂
쉃
쉄
쉅
쉆
쉇
쉈
쉉
쉊
쉋
쉌
쉍
쉎
쉏
쉐
쉑
쉒
쉓
쉔
쉕
쉖
쉗
쉘
쉙
쉚
쉛
쉜
쉝
쉞
쉟
쉠
쉡
쉢
쉣
쉤
쉥
쉦
쉧
쉨
쉩
쉪
쉫
쉬
쉭
쉮
쉯
쉰
쉱
쉲
쉳
쉴
쉵
쉶
쉷
쉸
쉹
쉺
쉻
쉼
쉽
쉾
쉿
슀
슁
슂
슃
슄
슅
슆
슇
슈
슉
슊
슋
슌
슍
슎
슏
슐
슑
슒
슓
슔
슕
슖
슗
슘
슙
슚
슛
슜
슝
슞
슟
슠
슡
슢
슣
스
슥
슦
슧
슨
슩
슪
슫
슬
슭
슮
슯
슰
슱
슲
슳
슴
습
슶
슷
슸
승
슺
슻
슼
슽
슾
슿
싀
싁
싂
싃
싄
싅
싆
싇
싈
싉
싊
싋
싌
싍
싎
싏
싐
싑
싒
싓
싔
싕
싖
싗
싘
싙
싚
싛
시
식
싞
싟
신
싡
싢
싣
실
싥
싦
싧
싨
싩
싪
싫
심
십
싮
싯
싰
싱
싲
싳
싴
싵
싶
싷
싸
싹
싺
싻
싼
싽
싾
싿
쌀
쌁
쌂
쌃
쌄
쌅
쌆
쌇
쌈
쌉
쌊
쌋
쌍
쌎
쌏
쌐
쌑
쌒
쌓
쌔
쌕
쌖
쌗
쌘
쌙
쌚
쌛
쌜
쌝
쌞
쌟
쌠
쌡
쌢
쌣
쌤
쌥
쌦
쌧
쌩
쌪
쌫
쌬
쌭
쌮
쌯
쌰
쌱
쌲
쌳
쌴
쌵
쌶
쌷
쌸
쌹
쌺
쌻
쌼
쌽
쌾
쌿
썀
썁
썂
썃
썄
썅
썆
썇
썈
썉
썊
썋
썌
썍
썎
썏
썐
썑
썒
썓
썔
썕
썖
썗
썘
썙
썚
썛
썜
썝
썞
썟
썠
썡
썢
썣
썤
썥
썦
썧
써
썩
썪
썫
썬
썭
썮
썯
썰
썱
썲
썳
썴
썵
썶
썷
썸
썹
썺
썻
썼
썽
썾
썿
쎀
쎁
쎂
쎃
쎄
쎅
쎆
쎇
쎈
쎉
쎊
쎋
쎌
쎍
쎎
쎏
쎐
쎑
쎒
쎓
쎔
쎕
쎖
쎗
쎙
쎚
쎛
쎜
쎝
쎞
쎟
쎠
쎡
쎢
쎣
쎤
쎥
쎦
쎧
쎨
쎩
쎪
쎫
쎬
쎭
쎮
쎯
쎰
쎱
쎲
쎳
쎴
쎵
쎶
쎷
쎸
쎹
쎺
쎻
쎼
쎽
쎾
쎿
쏀
쏁
쏂
쏃
쏄
쏅
쏆
쏇
쏈
쏉
쏊
쏋
쏌
쏍
쏎
쏏
쏐
쏑
쏒
쏓
쏔
쏕
쏖
쏗
쏘
쏙
쏚
쏛
쏜
쏝
쏞
쏟
쏠
쏡
쏢
쏣
쏤
쏥
쏦
쏧
쏨
쏩
쏪
쏫
쏬
쏭
쏮
쏯
쏰
쏱
쏲
쏳
쏴
쏵
쏶
쏷
쏸
쏹
쏺
쏻
쏼
쏽
쏾
쏿
쐀
쐁
쐂
쐃
쐄
쐅
쐆
쐇
쐉
쐊
쐋
쐌
쐍
쐎
쐏
쐐
쐑
쐒
쐓
쐔
쐕
쐖
쐗
쐘
쐙
쐚
쐛
쐜
쐝
쐞
쐟
쐠
쐡
쐢
쐣
쐤
쐥
쐦
쐧
쐨
쐩
쐪
쐫
쐬
쐭
쐮
쐯
쐱
쐲
쐳
쐵
쐶
쐷
쐸
쐹
쐺
쐻
쐼
쐽
쐾
쐿
쑀
쑁
쑂
쑃
쑄
쑅
쑆
쑇
쑈
쑉
쑊
쑋
쑌
쑍
쑎
쑏
쑐
쑑
쑒
쑓
쑔
쑕
쑖
쑗
쑘
쑙
쑚
쑛
쑜
쑝
쑞
쑟
쑠
쑡
쑢
쑣
쑤
쑥
쑦
쑧
쑨
쑩
쑪
쑫
쑭
쑮
쑯
쑰
쑱
쑲
쑳
쑴
쑵
쑶
쑷
쑸
쑹
쑺
쑻
쑼
쑽
쑾
쑿
쒀
쒁
쒂
쒃
쒄
쒅
쒆
쒇
쒈
쒉
쒊
쒋
쒌
쒍
쒎
쒏
쒐
쒑
쒒
쒓
쒕
쒖
쒗
쒘
쒙
쒚
쒛
쒜
쒝
쒞
쒟
쒠
쒡
쒢
쒣
쒤
쒥
쒦
쒧
쒨
쒩
쒪
쒫
쒬
쒭
쒮
쒯
쒰
쒱
쒲
쒳
쒴
쒵
쒶
쒷
쒸
쒹
쒺
쒻
쒽
쒾
쒿
쓀
쓁
쓂
쓃
쓄
쓅
쓆
쓇
쓈
쓉
쓊
쓋
쓌
쓍
쓎
쓏
쓐
쓑
쓒
쓓
쓔
쓕
쓖
쓗
쓘
쓙
쓚
쓛
쓜
쓝
쓞
쓟
쓠
쓡
쓢
쓣
쓤
쓥
쓦
쓧
쓨
쓩
쓪
쓫
쓬
쓭
쓮
쓯
쓰
쓱
쓲
쓳
쓴
쓵
쓶
쓷
쓸
쓹
쓺
쓻
쓼
쓽
쓾
쓿
씀
씁
씂
씃
씄
씅
씆
씇
씈
씉
씊
씋
씌
씍
씎
씏
씑
씒
씓
씔
씕
씖
씗
씘
씙
씚
씛
씜
씝
씞
씟
씠
씡
씢
씣
씤
씥
씦
씧
씨
씩
씪
씫
씬
씭
씮
씯
씰
씱
씲
씳
씴
씵
씶
씷
씸
씹
씺
씻
씼
씽
씾
씿
앀
앁
앂
앃
아
악
앆
앇
안
앉
않
앋
알
앍
앎
앏
앐
앑
앒
앓
암
압
앖
앗
았
앙
앚
앛
앜
앝
앞
앟
애
액
앢
앣
앤
앥
앦
앧
앨
앩
앪
앫
앬
앭
앮
앯
앰
앱
앲
앳
앵
앶
앷
앸
앹
앺
앻
야
약
앾
앿
얀
얁
얂
얃
얄
얅
얆
얇
얈
얉
얊
얋
얌
얍
얎
얏
얐
양
얒
얓
얔
얕
얖
얗
얘
얙
얚
얛
얜
얝
얞
얟
얡
얢
얣
얤
얥
얦
얧
얨
얩
얪
얫
얬
얭
얮
얯
얰
얱
얲
얳
어
억
얶
얷
언
얹
얺
얻
얼
얽
얾
얿
엀
엁
엂
엃
엄
업
없
엇
었
엉
엊
엋
엌
엍
엎
엏
에
엑
엒
엓
엔
엕
엖
엗
엘
엙
엚
엛
엜
엝
엞
엟
엠
엡
엢
엣
엤
엥
엦
엧
엨
엩
엪
엫
여
역
엮
엯
연
엱
엲
엳
열
엵
엶
엷
엸
엹
엺
엻
염
엽
엾
엿
였
영
옂
옃
옄
옅
옆
옇
예
옉
옊
옋
옌
옍
옎
옏
옐
옑
옒
옓
옔
옕
옖
옗
옘
옙
옚
옛
옜
옝
옞
옟
옠
옡
옢
옣
오
옥
옦
옧
온
옩
옪
옫
올
옭
옮
옯
옰
옱
옲
옳
옴
옵
옶
옷
옸
옹
옺
옻
옼
옽
옾
옿
와
왁
왂
왃
완
왅
왆
왇
왈
왉
왊
왋
왌
왍
왎
왏
왐
왑
왒
왓
왔
왕
왖
왗
왘
왙
왚
왛
왜
왝
왞
왟
왠
왡
왢
왣
왤
왥
왦
왧
왨
왩
왪
왫
왬
왭
왮
왯
왰
왱
왲
왳
왴
왵
왶
왷
외
왹
왺
왻
왼
왽
왾
왿
욀
욁
욂
욃
욄
욅
욆
욇
욈
욉
욊
욋
욌
욍
욎
욏
욐
욑
욒
욓
요
욕
욖
욗
욘
욙
욚
욛
욜
욝
욞
욟
욠
욡
욢
욣
욤
욥
욦
욧
욨
용
욪
욫
욬
욭
욮
욯
우
욱
욲
욳
운
욵
욶
욷
울
욹
욺
욻
욼
욽
욾
욿
움
웁
웂
웃
웄
웅
웆
웇
웈
웉
웊
웋
워
웍
웎
웏
원
웑
웒
월
웕
웖
웗
웘
웙
웚
웛
웜
웝
웞
웟
웠
웡
웢
웣
웤
웥
웦
웧
웨
웩
웪
웫
웬
웭
웮
웯
웰
웱
웲
웳
웴
웵
웶
웷
웸
웹
웺
웻
웼
웽
웾
웿
윀
윁
윂
윃
위
윅
윆
윇
윈
윉
윊
윋
윌
윍
윎
윏
윐
윑
윒
윓
윔
윕
윖
윗
윘
윙
윚
윛
윜
윝
윞
윟
유
육
윢
윣
윤
윥
윦
윧
율
윩
윪
윫
윬
윭
윮
윯
윰
윱
윲
윳
윴
융
윶
윷
윸
윹
윺
윻
으
윽
윾
윿
은
읁
읂
읃
을
읅
읆
읇
읈
읉
읊
읋
음
읍
읎
읏
읐
응
읒
읓
읔
읕
읖
읗
의
읙
읚
읛
읜
읝
읞
읟
읠
읡
읢
읣
읤
읥
읦
읧
읨
읩
읪
읫
읬
읭
읮
읯
읰
읱
읲
읳
이
익
읶
읷
인
읹
읺
읻
일
읽
읾
읿
잀
잁
잂
잃
임
입
잆
잇
있
잉
잊
잋
잌
잍
잎
잏
자
작
잒
잓
잔
잕
잖
잗
잘
잙
잚
잛
잜
잝
잞
잟
잠
잡
잢
잣
장
잦
잧
잨
잩
잪
잫
재
잭
잮
잯
잰
잱
잲
잳
잴
잵
잶
잷
잸
잹
잺
잻
잼
잽
잾
잿
쟁
쟂
쟃
쟄
쟅
쟆
쟇
쟈
쟉
쟊
쟋
쟌
쟍
쟎
쟏
쟐
쟑
쟒
쟓
쟔
쟕
쟖
쟗
쟘
쟙
쟚
쟛
쟜
쟝
쟞
쟟
쟠
쟡
쟢
쟣
쟤
쟥
쟦
쟧
쟩
쟪
쟫
쟬
쟭
쟮
쟯
쟰
쟱
쟲
쟳
쟴
쟵
쟶
쟷
쟸
쟹
쟺
쟻
쟼
쟽
쟾
쟿
저
적
젂
젃
전
젅
젆
젇
절
젉
젊
젋
젌
젍
젎
젏
점
접
젒
젓
젔
정
젖
젗
젘
젙
젚
젛
제
젝
젞
젟
젠
젡
젢
젣
젤
젥
젦
젧
젨
젩
젪
젫
젬
젭
젮
젯
젰
젱
젲
젳
젴
젵
젶
젷
져
젹
젺
젻
젼
젽
젾
젿
졀
졁
졂
졃
졄
졅
졆
졇
졈
졉
졊
졋
졌
졍
졎
졏
졐
졑
졒
졓
졔
졕
졖
졗
졘
졙
졚
졛
졜
졝
졞
졟
졠
졡
졢
졣
졤
졥
졦
졧
졨
졩
졪
졫
졬
졭
졮
졯
조
족
졲
졳
존
졵
졶
졷
졸
졹
졺
졻
졼
졽
졾
졿
좀
좁
좂
좃
좄
종
좆
좇
좈
좉
좊
좋
좌
좍
좎
좏
좐
좑
좒
좓
좔
좕
좖
좗
좘
좙
좚
좛
좜
좝
좞
좟
좠
좡
좢
좣
좤
좥
좦
좧
좨
좩
좪
좫
좬
좭
좮
좯
좰
좱
좲
좳
좴
좵
좶
좷
좸
좹
좺
좻
좼
좽
좾
좿
죀
죁
죂
죃
죄
죅
죆
죇
죈
죉
죊
죋
죌
죍
죎
죏
죐
죑
죒
죓
죔
죕
죖
죗
죙
죚
죛
죜
죝
죞
죟
죠
죡
죢
죣
죤
죥
죦
죧
죨
죩
죪
죫
죬
죭
죮
죯
죰
죱
죲
죳
죴
죵
죶
죷
죸
죹
죺
죻
주
죽
죾
죿
준
줁
줂
줃
줄
줅
줆
줇
줈
줉
줊
줋
줌
줍
줎
줏
줐
중
줒
줓
줔
줕
줖
줗
줘
줙
줚
줛
줜
줝
줞
줟
줠
줡
줢
줣
줤
줥
줦
줧
줨
줩
줪
줫
줬
줭
줮
줯
줰
줱
줲
줳
줴
줵
줶
줷
줸
줹
줺
줻
줼
줽
줾
줿
쥀
쥁
쥂
쥃
쥄
쥅
쥆
쥇
쥈
쥉
쥊
쥋
쥌
쥍
쥎
쥏
쥐
쥑
쥒
쥓
쥔
쥕
쥖
쥗
쥘
쥙
쥚
쥛
쥜
쥝
쥞
쥟
쥠
쥡
쥢
쥣
쥤
쥥
쥦
쥧
쥨
쥩
쥪
쥫
쥬
쥭
쥮
쥯
쥰
쥱
쥲
쥳
쥴
쥵
쥶
쥷
쥸
쥹
쥺
쥻
쥼
쥽
쥾
쥿
즀
즁
즂
즃
즄
즅
즆
즇
즈
즉
즊
즋
즌
즍
즎
즏
즐
즑
즒
즓
즔
즕
즖
즗
즘
즙
즚
즛
즜
증
즞
즟
즠
즡
즢
즣
즤
즥
즦
즧
즨
즩
즪
즫
즬
즭
즮
즯
즰
즱
즲
즳
즴
즵
즶
즷
즸
즹
즺
즻
즼
즽
즾
즿
지
직
짂
짃
진
짅
짆
짇
질
짉
짊
짋
짌
짍
짎
짏
짐
집
짒
짓
짔
징
짖
짗
짘
짙
짚
짛
짜
짝
짞
짟
짠
짡
짢
짣
짤
짥
짦
짧
짨
짩
짪
짫
짬
짭
짮
짯
짱
짲
짳
짴
짵
짶
짷
째
짹
짺
짻
짼
짽
짾
짿
쨀
쨁
쨂
쨃
쨄
쨅
쨆
쨇
쨈
쨉
쨊
쨋
쨌
쨍
쨎
쨏
쨐
쨑
쨒
쨓
쨔
쨕
쨖
쨗
쨘
쨙
쨚
쨛
쨜
쨝
쨞
쨟
쨠
쨡
쨢
쨣
쨤
쨥
쨦
쨧
쨨
쨩
쨪
쨫
쨬
쨭
쨮
쨯
쨰
쨱
쨲
쨳
쨴
쨵
쨶
쨷
쨸
쨹
쨺
쨻
쨼
쨽
쨾
쨿
쩀
쩁
쩂
쩃
쩄
쩅
쩆
쩇
쩈
쩉
쩊
쩋
쩌
쩍
쩎
쩏
쩐
쩑
쩒
쩓
쩔
쩕
쩖
쩗
쩘
쩙
쩚
쩛
쩜
쩝
쩞
쩟
쩠
쩡
쩢
쩣
쩤
쩥
쩦
쩧
쩨
쩩
쩪
쩫
쩬
쩭
쩮
쩯
쩰
쩱
쩲
쩳
쩴
쩵
쩶
쩷
쩸
쩹
쩺
쩻
쩼
쩽
쩾
쩿
쪀
쪁
쪂
쪃
쪄
쪅
쪆
쪇
쪈
쪉
쪊
쪋
쪌
쪍
쪎
쪏
쪐
쪑
쪒
쪓
쪔
쪕
쪖
쪗
쪘
쪙
쪚
쪛
쪜
쪝
쪞
쪟
쪠
쪡
쪢
쪣
쪤
쪥
쪦
쪧
쪨
쪩
쪪
쪫
쪬
쪭
쪮
쪯
쪰
쪱
쪲
쪳
쪴
쪵
쪶
쪷
쪸
쪹
쪺
쪻
쪼
쪽
쪾
쪿
쫀
쫁
쫂
쫃
쫄
쫅
쫆
쫇
쫈
쫉
쫊
쫋
쫌
쫍
쫎
쫏
쫐
쫑
쫒
쫓
쫔
쫕
쫖
쫗
쫘
쫙
쫚
쫛
쫜
쫝
쫞
쫟
쫠
쫡
쫢
쫣
쫤
쫥
쫦
쫧
쫨
쫩
쫪
쫫
쫭
쫮
쫯
쫰
쫱
쫲
쫳
쫴
쫵
쫶
쫷
쫸
쫹
쫺
쫻
쫼
쫽
쫾
쫿
쬀
쬁
쬂
쬃
쬄
쬅
쬆
쬇
쬈
쬉
쬊
쬋
쬌
쬍
쬎
쬏
쬐
쬑
쬒
쬓
쬔
쬕
쬖
쬗
쬙
쬚
쬛
쬜
쬝
쬞
쬟
쬡
쬢
쬣
쬤
쬥
쬦
쬧
쬨
쬩
쬪
쬫
쬬
쬭
쬮
쬯
쬰
쬱
쬲
쬳
쬴
쬵
쬶
쬷
쬸
쬹
쬺
쬻
쬼
쬽
쬾
쬿
쭀
쭁
쭂
쭃
쭄
쭅
쭆
쭇
쭈
쭉
쭊
쭋
쭌
쭍
쭎
쭏
쭐
쭑
쭒
쭓
쭔
쭕
쭖
쭗
쭘
쭙
쭚
쭛
쭜
쭝
쭞
쭟
쭠
쭡
쭢
쭣
쭤
쭥
쭦
쭧
쭨
쭩
쭪
쭫
쭬
쭭
쭮
쭯
쭰
쭱
쭲
쭳
쭴
쭵
쭶
쭷
쭸
쭹
쭺
쭻
쭼
쭽
쭾
쭿
쮀
쮁
쮂
쮃
쮄
쮅
쮆
쮇
쮈
쮉
쮊
쮋
쮌
쮍
쮎
쮏
쮐
쮑
쮒
쮓
쮔
쮕
쮖
쮗
쮘
쮙
쮚
쮛
쮜
쮝
쮞
쮟
쮠
쮡
쮢
쮣
쮤
쮥
쮦
쮧
쮨
쮩
쮪
쮫
쮬
쮭
쮮
쮯
쮰
쮱
쮲
쮳
쮴
쮵
쮶
쮷
쮸
쮹
쮺
쮻
쮼
쮽
쮾
쮿
쯀
쯁
쯂
쯃
쯄
쯅
쯆
쯇
쯈
쯉
쯊
쯋
쯌
쯍
쯎
쯏
쯐
쯑
쯒
쯓
쯔
쯕
쯖
쯗
쯘
쯙
쯚
쯛
쯜
쯝
쯞
쯟
쯠
쯡
쯢
쯣
쯤
쯥
쯦
쯧
쯨
쯩
쯪
쯫
쯬
쯭
쯮
쯯
쯰
쯱
쯲
쯳
쯴
쯵
쯶
쯷
쯸
쯹
쯺
쯻
쯼
쯽
쯾
쯿
찀
찁
찂
찃
찄
찅
찆
찇
찈
찉
찊
찋
찌
찍
찎
찏
찐
찑
찒
찓
찔
찕
찖
찗
찘
찙
찚
찛
찜
찝
찞
찟
찠
찡
찢
찣
찤
찥
찦
찧
차
착
찪
찫
찬
찭
찮
찯
찰
찱
찲
찳
찴
찵
찶
찷
참
찹
찺
찻
창
찾
찿
챀
챁
챂
챃
채
책
챆
챇
챈
챉
챊
챋
챌
챍
챎
챏
챐
챑
챒
챓
챔
챕
챖
챗
챘
챙
챚
챛
챜
챝
챞
챟
챠
챡
챢
챣
챤
챥
챦
챧
챨
챩
챪
챫
챬
챭
챮
챯
챰
챱
챲
챳
챴
챵
챶
챷
챸
챹
챺
챻
챼
챽
챾
챿
첀
첁
첂
첃
첄
첅
첆
첇
첈
첉
첊
첋
첌
첍
첎
첏
첐
첑
첒
첓
첔
첕
첖
첗
처
척
첚
첛
천
첝
첞
첟
철
첡
첢
첣
첤
첥
첦
첧
첨
첩
첪
첫
첬
청
첮
첯
첰
첱
첲
첳
체
첵
첶
첷
첸
첹
첺
첻
첼
첽
첾
첿
쳀
쳁
쳂
쳃
쳄
쳅
쳆
쳇
쳈
쳉
쳊
쳋
쳌
쳍
쳎
쳏
쳐
쳑
쳒
쳓
쳔
쳕
쳖
쳗
쳘
쳙
쳚
쳛
쳜
쳝
쳞
쳟
쳠
쳡
쳢
쳣
쳤
쳥
쳦
쳧
쳨
쳩
쳪
쳫
쳬
쳭
쳮
쳯
쳰
쳱
쳲
쳳
쳴
쳵
쳶
쳷
쳸
쳹
쳺
쳻
쳼
쳽
쳾
쳿
촀
촁
촂
촃
촄
촅
촆
촇
초
촉
촊
촋
촌
촍
촎
촏
촐
촑
촒
촓
촔
촕
촖
촗
촘
촙
촚
촛
촜
총
촞
촟
촠
촡
촢
촣
촤
촥
촦
촧
촨
촩
촪
촫
촬
촭
촮
촯
촰
촱
촲
촳
촴
촵
촶
촷
촸
촹
촺
촻
촼
촽
촾
촿
쵀
쵁
쵂
쵃
쵄
쵅
쵆
쵇
쵈
쵉
쵊
쵋
쵌
쵍
쵎
쵏
쵐
쵑
쵒
쵓
쵔
쵕
쵖
쵗
쵘
쵙
쵚
쵛
최
쵝
쵞
쵟
쵠
쵡
쵢
쵣
쵤
쵥
쵦
쵧
쵨
쵩
쵪
쵫
쵬
쵭
쵮
쵯
쵰
쵱
쵲
쵳
쵴
쵵
쵶
쵷
쵸
쵹
쵺
쵻
쵼
쵽
쵾
쵿
춀
춁
춂
춃
춄
춅
춆
춇
춈
춉
춊
춋
춌
춍
춎
춏
춐
춑
춒
춓
추
축
춖
춗
춘
춙
춚
춛
출
춝
춞
춟
춠
춡
춢
춣
춤
춥
춦
춧
춨
충
춪
춫
춬
춭
춮
춯
춰
춱
춲
춳
춴
춵
춶
춷
춸
춹
춺
춻
춼
춽
춾
춿
췀
췁
췂
췃
췄
췅
췆
췇
췈
췉
췊
췋
췌
췍
췎
췏
췐
췑
췒
췓
췔
췕
췖
췗
췘
췙
췚
췛
췜
췝
췞
췟
췠
췡
췢
췣
췤
췥
췦
췧
취
췩
췪
췫
췬
췭
췮
췯
췰
췱
췲
췳
췴
췵
췶
췷
췸
췹
췺
췻
췼
췽
췾
췿
츀
츁
츂
츃
츄
츅
츆
츇
츈
츉
츊
츋
츌
츍
츎
츏
츐
츑
츒
츓
츔
츕
츖
츗
츘
츙
츚
츛
츜
츝
츞
츟
츠
측
츢
츣
츤
츥
츦
츧
츨
츩
츪
츫
츬
츭
츮
츯
츰
츱
츲
츳
츴
층
츶
츷
츸
츹
츺
츻
츼
츽
츾
츿
칀
칁
칂
칃
칄
칅
칆
칇
칈
칉
칊
칋
칌
칍
칎
칏
칐
칑
칒
칓
칔
칕
칖
칗
치
칙
칚
칛
친
칝
칞
칟
칠
칡
칢
칣
칤
칥
칦
칧
침
칩
칪
칫
칬
칭
칮
칯
칰
칱
칲
칳
카
칵
칶
칷
칸
칹
칺
칻
칼
칽
칾
칿
캀
캁
캂
캃
캄
캅
캆
캇
캈
캉
캊
캋
캌
캍
캎
캏
캐
캑
캒
캓
캔
캕
캖
캗
캘
캙
캚
캛
캜
캝
캞
캟
캠
캡
캢
캣
캥
캦
캧
캨
캩
캪
캫
캬
캭
캮
캯
캰
캱
캲
캳
캴
캵
캶
캷
캸
캹
캺
캻
캼
캽
캾
캿
컀
컁
컂
컃
컄
컅
컆
컇
컈
컉
컊
컋
컌
컍
컎
컏
컐
컑
컒
컓
컔
컕
컖
컗
컘
컙
컚
컛
컜
컝
컞
컟
컠
컡
컢
컣
커
컥
컦
컧
컨
컩
컪
컫
컬
컭
컮
컯
컰
컱
컲
컳
컴
컵
컶
컷
컹
컺
컻
컼
컽
컾
컿
케
켁
켂
켃
켄
켅
켆
켇
켈
켉
켊
켋
켌
켍
켎
켏
켐
켑
켒
켓
켔
켕
켖
켗
켘
켙
켚
켛
켜
켝
켞
켟
켠
켡
켢
켣
켤
켥
켦
켧
켨
켩
켪
켫
켬
켭
켮
켯
켰
켱
켲
켳
켴
켵
켶
켷
켸
켹
켺
켻
켼
켽
켾
켿
콀
콁
콂
콃
콄
콅
콆
콇
콈
콉
콊
콋
콌
콍
콎
콏
콐
콑
콒
콓
코
콕
콖
콗
콘
콙
콚
콛
콜
콝
콞
콟
콠
콡
콢
콣
콤
콥
콦
콧
콨
콩
콪
콫
콬
콭
콮
콯
콰
콱
콲
콳
콴
콵
콶
콷
콸
콹
콺
콻
콼
콽
콾
콿
쾀
쾁
쾂
쾃
쾄
쾅
쾆
쾇
쾈
쾉
쾊
쾋
쾌
쾍
쾎
쾏
쾐
쾑
쾒
쾓
쾔
쾕
쾖
쾗
쾘
쾙
쾚
쾛
쾜
쾝
쾞
쾟
쾠
쾡
쾢
쾣
쾤
쾥
쾦
쾧
쾨
쾩
쾪
쾫
쾬
쾭
쾮
쾯
쾰
쾱
쾲
쾳
쾴
쾵
쾶
쾷
쾸
쾹
쾺
쾻
쾼
쾽
쾾
쾿
쿀
쿁
쿂
쿃
쿄
쿅
쿆
쿇
쿈
쿉
쿊
쿋
쿌
쿍
쿎
쿏
쿐
쿑
쿒
쿓
쿔
쿕
쿖
쿗
쿘
쿙
쿚
쿛
쿜
쿝
쿞
쿟
쿠
쿡
쿢
쿣
쿤
쿥
쿦
쿧
쿨
쿩
쿪
쿫
쿬
쿭
쿮
쿯
쿰
쿱
쿲
쿳
쿴
쿵
쿶
쿷
쿸
쿹
쿺
쿻
쿼
쿽
쿾
쿿
퀀
퀁
퀂
퀃
퀄
퀅
퀆
퀇
퀈
퀉
퀊
퀋
퀌
퀍
퀎
퀏
퀐
퀑
퀒
퀓
퀔
퀕
퀖
퀗
퀘
퀙
퀚
퀛
퀜
퀝
퀞
퀟
퀠
퀡
퀢
퀣
퀤
퀥
퀦
퀧
퀨
퀩
퀪
퀫
퀬
퀭
퀮
퀯
퀰
퀱
퀲
퀳
퀴
퀵
퀶
퀷
퀸
퀹
퀺
퀻
퀼
퀽
퀾
퀿
큀
큁
큂
큃
큄
큅
큆
큇
큈
큉
큊
큋
큌
큍
큎
큏
큐
큑
큒
큓
큔
큕
큖
큗
큘
큙
큚
큛
큜
큝
큞
큟
큠
큡
큢
큣
큤
큥
큦
큧
큨
큩
큪
큫
크
큭
큮
큯
큰
큱
큲
큳
클
큵
큶
큷
큸
큹
큺
큻
큼
큽
큾
큿
킀
킁
킂
킃
킄
킅
킆
킇
킈
킉
킊
킋
킌
킍
킎
킏
킐
킑
킒
킓
킔
킕
킖
킗
킘
킙
킚
킛
킜
킝
킞
킟
킠
킡
킢
킣
키
킥
킦
킧
킨
킩
킪
킫
킬
킭
킮
킯
킰
킱
킲
킳
킴
킵
킶
킷
킸
킹
킺
킻
킼
킽
킾
킿
타
탁
탂
탃
탄
탅
탆
탇
탈
탉
탊
탋
탌
탍
탎
탏
탐
탑
탒
탓
탔
탕
탖
탗
탘
탙
탚
탛
태
택
탞
탟
탠
탡
탢
탣
탤
탥
탦
탧
탨
탩
탪
탫
탬
탭
탮
탯
탰
탱
탲
탳
탴
탵
탶
탷
탸
탹
탺
탻
탼
탽
탾
탿
턀
턁
턂
턃
턄
턅
턆
턇
턈
턉
턊
턋
턌
턍
턎
턏
턐
턑
턒
턓
턔
턕
턖
턗
턘
턙
턚
턛
턜
턝
턞
턟
턠
턡
턢
턣
턤
턥
턦
턧
턨
턩
턪
턫
턬
턭
턮
턯
터
턱
턲
턳
턴
턵
턶
턷
털
턹
턺
턻
턼
턽
턾
턿
텀
텁
텂
텃
텅
텆
텇
텈
텉
텊
텋
테
텍
텎
텏
텐
텑
텒
텓
텔
텕
텖
텗
텘
텙
텚
텛
템
텝
텞
텟
텠
텡
텢
텣
텤
텥
텦
텧
텨
텩
텪
텫
텬
텭
텮
텯
텰
텱
텲
텳
텴
텵
텶
텷
텸
텹
텺
텻
텼
텽
텾
텿
톀
톁
톂
톃
톄
톅
톆
톇
톈
톉
톊
톋
톌
톍
톎
톏
톐
톑
톒
톓
톔
톕
톖
톗
톘
톙
톚
톛
톜
톝
톞
톟
토
톡
톢
톣
톤
톥
톦
톧
톨
톩
톪
톫
톬
톭
톮
톯
톰
톱
톲
톳
톴
통
톶
톷
톸
톹
톺
톻
톼
톽
톾
톿
퇀
퇁
퇂
퇃
퇄
퇅
퇆
퇇
퇈
퇉
퇊
퇋
퇌
퇍
퇎
퇏
퇐
퇑
퇒
퇓
퇔
퇕
퇖
퇗
퇘
퇙
퇚
퇛
퇜
퇝
퇞
퇟
퇠
퇡
퇢
퇣
퇤
퇥
퇦
퇧
퇨
퇩
퇪
퇫
퇬
퇭
퇮
퇯
퇰
퇱
퇲
퇳
퇴
퇵
퇶
퇷
퇸
퇹
퇺
퇻
퇼
퇽
퇾
퇿
툀
툁
툂
툃
툄
툅
툆
툇
툈
툉
툊
툋
툌
툍
툎
툏
툐
툑
툒
툓
툔
툕
툖
툗
툘
툙
툚
툛
툜
툝
툞
툟
툠
툡
툢
툣
툤
툥
툦
툧
툨
툩
툪
툫
투
툭
툮
툯
툰
툱
툲
툳
툴
툵
툶
툷
툸
툹
툺
툻
툼
툽
툾
툿
퉀
퉁
퉂
퉃
퉄
퉅
퉆
퉇
퉈
퉉
퉊
퉋
퉌
퉍
퉎
퉏
퉐
퉑
퉒
퉓
퉔
퉕
퉖
퉗
퉘
퉙
퉚
퉛
퉜
퉝
퉞
퉟
퉠
퉡
퉢
퉣
퉤
퉥
퉦
퉧
퉨
퉩
퉪
퉫
퉬
퉭
퉮
퉯
퉰
퉱
퉲
퉳
퉴
퉵
퉶
퉷
퉸
퉹
퉺
퉻
퉼
퉽
퉾
퉿
튀
튁
튂
튃
튄
튅
튆
튇
튈
튉
튊
튋
튌
튍
튎
튏
튐
튑
튒
튓
튔
튕
튖
튗
튘
튙
튚
튛
튜
튝
튞
튟
튠
튡
튢
튣
튤
튥
튦
튧
튨
튩
튪
튫
튬
튭
튮
튯
튰
튱
튲
튳
튴
튵
튶
튷
트
특
튺
튻
튼
튽
튾
튿
틀
틁
틂
틃
틄
틅
틆
틇
틈
틉
틊
틋
틌
틍
틎
틏
틐
틑
틒
틓
틔
틕
틖
틗
틘
틙
틚
틛
틜
틝
틞
틟
틠
틡
틢
틣
틤
틥
틦
틧
틨
틩
틪
틫
틬
틭
틮
틯
티
틱
틲
틳
틴
틵
틶
틷
틸
틹
틺
틻
틼
틽
틾
틿
팀
팁
팂
팃
팄
팅
팆
팇
팈
팉
팊
팋
파
팍
팎
팏
판
팑
팒
팓
팔
팕
팖
팗
팘
팙
팚
팛
팜
팝
팞
팟
팠
팡
팢
팣
팤
팥
팦
팧
패
팩
팪
팫
팬
팭
팮
팯
팰
팱
팲
팳
팴
팵
팶
팷
팸
팹
팺
팻
팽
팾
팿
퍀
퍁
퍂
퍃
퍄
퍅
퍆
퍇
퍈
퍉
퍊
퍋
퍌
퍍
퍎
퍏
퍐
퍑
퍒
퍓
퍔
퍕
퍖
퍗
퍘
퍙
퍚
퍛
퍜
퍝
퍞
퍟
퍠
퍡
퍢
퍣
퍤
퍥
퍦
퍧
퍨
퍩
퍪
퍫
퍬
퍭
퍮
퍯
퍰
퍱
퍲
퍳
퍴
퍵
퍶
퍷
퍸
퍹
퍺
퍻
퍼
퍽
퍾
퍿
펀
펁
펂
펃
펄
펅
펆
펇
펈
펉
펊
펋
펌
펍
펎
펏
펐
펑
펒
펓
펔
펕
펖
펗
페
펙
펚
펛
펜
펝
펞
펟
펠
펡
펢
펣
펤
펥
펦
펧
펨
펩
펪
펫
펬
펭
펮
펯
펰
펱
펲
펳
펴
펵
펶
펷
편
펹
펺
펻
펼
펽
펾
펿
폀
폁
폂
폃
폄
폅
폆
폇
평
폊
폋
폌
폍
폎
폏
폐
폑
폒
폓
폔
폕
폖
폗
폘
폙
폚
폛
폜
폝
폞
폟
폠
폡
폢
폣
폤
폥
폦
폧
폨
폩
폪
폫
포
폭
폮
폯
폰
폱
폲
폳
폴
폵
폶
폷
폸
폹
폺
폻
폼
폽
폾
폿
퐀
퐁
퐂
퐃
퐄
퐅
퐆
퐇
퐈
퐉
퐊
퐋
퐌
퐍
퐎
퐏
퐐
퐑
퐒
퐓
퐔
퐕
퐖
퐗
퐘
퐙
퐚
퐛
퐜
퐝
퐞
퐟
퐠
퐡
퐢
퐣
퐤
퐥
퐦
퐧
퐨
퐩
퐪
퐫
퐬
퐭
퐮
퐯
퐰
퐱
퐲
퐳
퐴
퐵
퐶
퐷
퐸
퐹
퐺
퐻
퐼
퐽
퐾
퐿
푀
푁
푂
푃
푄
푅
푆
푇
푈
푉
푊
푋
푌
푍
푎
푏
푐
푑
푒
푓
푔
푕
푖
푗
푘
푙
푚
푛
표
푝
푞
푟
푠
푡
푢
푣
푤
푥
푦
푧
푨
푩
푪
푫
푬
푭
푮
푯
푰
푱
푲
푳
푴
푵
푶
푷
푸
푹
푺
푻
푼
푽
푾
푿
풀
풁
풂
풃
풄
풅
풆
풇
품
풉
풊
풋
풌
풍
풎
풏
풐
풑
풒
풓
풔
풕
풖
풗
풘
풙
풚
풛
풜
풝
풞
풟
풠
풡
풢
풣
풤
풥
풦
풧
풨
풩
풪
풫
풬
풭
풮
풯
풰
풱
풲
풳
풴
풵
풶
풷
풸
풹
풺
풻
풼
풽
풾
풿
퓀
퓁
퓂
퓃
퓄
퓅
퓆
퓇
퓈
퓉
퓊
퓋
퓌
퓍
퓎
퓏
퓐
퓑
퓒
퓓
퓔
퓕
퓖
퓗
퓘
퓙
퓚
퓛
퓜
퓝
퓞
퓟
퓠
퓡
퓢
퓣
퓤
퓥
퓦
퓧
퓨
퓩
퓪
퓫
퓬
퓭
퓮
퓯
퓰
퓱
퓲
퓳
퓴
퓵
퓶
퓷
퓸
퓹
퓺
퓻
퓼
퓽
퓾
퓿
픀
픁
픂
픃
프
픅
픆
픇
픈
픉
픊
픋
플
픍
픎
픏
픐
픑
픒
픓
픔
픕
픖
픗
픘
픙
픚
픛
픜
픝
픞
픟
픠
픡
픢
픣
픤
픥
픦
픧
픨
픩
픪
픫
픬
픭
픮
픯
픰
픱
픲
픳
픴
픵
픶
픷
픸
픹
픺
픻
피
픽
픾
픿
핀
핁
핂
핃
필
핅
핆
핇
핈
핉
핊
핋
핌
핍
핎
핏
핐
핑
핒
핓
핔
핕
핖
핗
하
학
핚
핛
한
핝
핞
핟
할
핡
핢
핣
핤
핥
핦
핧
함
합
핪
핫
핬
항
핮
핯
핰
핱
핲
핳
해
핵
핶
핷
핸
핹
핺
핻
핼
핽
핾
핿
햀
햁
햂
햃
햄
햅
햆
햇
했
행
햊
햋
햌
햍
햎
햏
햐
햑
햒
햓
햔
햕
햖
햗
햘
햙
햚
햛
햜
햝
햞
햟
햠
햡
햢
햣
햤
향
햦
햧
햨
햩
햪
햫
햬
햭
햮
햯
햰
햱
햲
햳
햴
햵
햶
햷
햸
햹
햺
햻
햼
햽
햾
햿
헁
헂
헃
헄
헅
헆
헇
허
헉
헊
헋
헌
헍
헎
헏
헐
헑
헒
헓
헔
헕
헖
헗
험
헙
헚
헛
헝
헞
헟
헠
헡
헢
헣
헤
헥
헦
헧
헨
헩
헪
헫
헬
헭
헮
헯
헰
헱
헲
헳
헴
헵
헶
헷
헹
헺
헻
헼
헽
헾
헿
혀
혁
혂
혃
현
혅
혆
혇
혈
혉
혊
혋
혌
혍
혎
혏
혐
협
혒
혓
혔
형
혖
혗
혘
혙
혚
혛
혜
혝
혞
혟
혠
혡
혢
혣
혤
혥
혦
혧
혨
혩
혪
혫
혬
혭
혮
혯
혰
혱
혲
혳
혴
혵
혶
혷
호
혹
혺
혻
혼
혽
혾
혿
홀
홁
홂
홃
홄
홅
홆
홇
홈
홉
홊
홋
홌
홍
홎
홏
홐
홑
홒
홓
화
확
홖
홗
환
홙
홚
홛
활
홝
홞
홟
홠
홡
홢
홣
홤
홥
홦
홧
홨
황
홪
홫
홬
홭
홮
홯
홰
홱
홲
홳
홴
홵
홶
홷
홸
홹
홺
홻
홼
홽
홾
홿
횀
횁
횂
횃
횄
횅
횆
횇
횈
횉
횊
횋
회
획
횎
횏
횐
횑
횒
횓
횔
횕
횖
횗
횘
횙
횚
횛
횜
횝
횞
횟
횠
횡
횢
횣
횤
횥
횦
횧
효
횩
횪
횫
횬
횭
횮
횯
횰
횱
횲
횳
횴
횵
횶
횷
횸
횹
횺
횻
횼
횽
횾
횿
훀
훁
훂
훃
후
훅
훆
훇
훈
훉
훊
훋
훌
훍
훎
훏
훐
훑
훒
훓
훔
훕
훖
훗
훘
훙
훚
훛
훜
훝
훞
훟
훠
훡
훢
훣
훤
훥
훦
훧
훨
훩
훪
훫
훬
훭
훮
훯
훰
훱
훲
훳
훴
훵
훶
훷
훸
훹
훺
훻
훼
훽
훾
훿
휀
휁
휂
휃
휄
휅
휆
휇
휈
휉
휊
휋
휌
휍
휎
휏
휐
휑
휒
휓
휔
휕
휖
휗
휘
휙
휚
휛
휜
휝
휞
휟
휠
휡
휢
휣
휤
휥
휦
휧
휨
휩
휪
휫
휬
휭
휮
휯
휰
휱
휲
휳
휴
휵
휶
휷
휸
휹
휺
휻
휼
휽
휾
휿
흀
흁
흂
흃
흄
흅
흆
흇
흈
흉
흊
흋
흌
흍
흎
흏
흐
흑
흒
흓
흔
흕
흖
흗
흘
흙
흚
흛
흜
흝
흞
흟
흠
흡
흢
흣
흤
흥
흦
흧
흨
흩
흪
흫
희
흭
흮
흯
흰
흱
흲
흳
흵
흶
흷
흸
흹
흺
흻
흼
흽
흾
흿
힀
힁
힂
힃
힄
힅
힆
힇
히
힉
힊
힋
힌
힍
힎
힏
힐
힑
힒
힓
힔
힕
힖
힗
힘
힙
힚
힛
힜
힝
힞
힟
힠
힡
힢
힣
##이
##크
##체
##리
##장
##질
##A
##L
##테
##레
##와
##말
##q
##t
##y
##f
##r
##a
##l
##g
##수
##석
##s
##e
##m
##n
##o
##i
##c
##h
##u
##W
##I
##F
##T
##B
##C
##O
##p
##E
##S
##D
##0
##4
##9
##U
##사
##단
##d
##2
##3
##6
##V
##도
##형
##오
##미
##란
##용
##접
##R
##N
##흥
##면
##답
##게
##v
##5
##8
##1
##언
##k
##7
##춘
##영
##동
##죄
##Z
##ㅅ
##ㅎ
##ㄹ
##ㅁ
##작
##르
##H
##소
##인
##부
##절
##차
##ㄱ
##b
##w
##쑥
##불
##효
##헌
##티
##라
##벨
##로
##z
##경
##자
##키
##나
##제
##항
##곡
##본
##기
##슨
##똘
##식
##승
##X
##P
##원
##타
##임
##은
##J
##혈
##군
##암
##어
##닭
##탁
##랜
##더
##시
##웬
##윌
##스
##G
##M
##j
##힌
##다
##고
##트
##회
##연
##신
##교
##x
##진
##택
##병
##짝
##ㅠ
##ㄵ
##"
##노
##재
##복
##ㅇ
##만
##씩
##허
##린
##준
##강
##의
##생
##희
##뻑
##지
##주
##림
##호
##ㅑ
##상
##집
##세
##룡
##누
##카
##해
##선
##족
##힉
##유
##물
##드
##?
##~
##욱
##모
##Y
##남
##를
##ㄲ
##현
##천
##읍
##알
##합
##태
##날
##직
##간
##촌
##창
##훈
##빔
##길
##넣
##산
##파
##K
##퀘
##ㅙ
##ㄶ
##명
##숙
##!
##.
##론
##센
##구
##쿠
##순
##걸
##코
##마
##발
##벵
##쳐
##혔
##으
##며
##문
##릴
##아
##손
##후
##셈
##츠
##저
##랑
##너
##데
##블
##링
##일
##네
##토
##멜
##조
##종
##셔
##녈
##류
##]
##운
##뎃
##가
##락
##하
##웨
##털
##빠
##에
##무
##앤
##화
##할
##땐
##급
##쉐
##첸
##컬
##청
##디
##울
##루
##페
##헤
##ㅏ
##능
##학
##덕
##방
##우
##성
##반
##팔
##새
##비
##셴
##료
##치
##롭
##프
##ㅍ
##탑
##염
##머
##끼
##들
##철
##요
##엔
##콤
##ㅢ
##클
##을
##열
##독
##범
##찬
##개
##렉
##ᅢ
##ᄆ
##ᅧ
##ᆫ
##ᄉ
##ᅥ
##풍
##담
##환
##킥
##난
##감
##칸
##규
##젖
##퍼
##옥
##잉
##두
##농
##낙
##촬
##버
##전
##긍
##표
##맹
##쌍
##위
##베
##겨
##먼
##케
##홍
##늘
##충
##랙
##션
##쓰
##거
##정
##한
##박
##각
##초
##넷
##대
##포
##립
##니
##안
##Q
##찰
##봉
##법
##ㅉ
##필
##_
##'
##켄
##과
##역
##슘
##바
##약
##씨
##근
##획
##결
##적
##혁
##터
##려
##잠
##점
##짱
##넌
##쏼
##\
##균
##람
##롬
##친
##ㅋ
##맷
##궐
##륭
##율
##히
##득
##앙
##헐
##래
##틴
##롱
##칠
##록
##견
##익
##는
##캐
##릭
##월
##턴
##온
##띠
##흡
##뿌
##백
##검
##엘
###
##갤
##핀
##멕
##ㅜ
##쇄
##공
##쥐
##중
##ㅔ
##ㅆ
##큐
##뉘
##목
##서
##퓨
##되
##었
##련
##젝
##메
##금
##ㅖ
##ㄳ
##윤
##낼
##잡
##커
##폰
##뷔
##관
##야
##쉬
##녀
##뎐
##쿤
##향
##른
##곤
##살
##배
##빗
##빈
##총
##애
##브
##룩
##딩
##등
##그
##통
##광
##셀
##좌
##낭
##끈
##매
##댑
##싸
##멤
##짬
##피
##ㅟ
##ㄻ
##텔
##릿
##계
##귁
##므
##막
##황
##즈
##앗
##렌
##출
##러
##삼
##당
##슈
##여
##객
##런
##워
##탄
##톈
##ㅈ
##ㄴ
##ㅊ
##앵
##갱
##홀
##보
##킨
##줄
##큅
##-
##닝
##콜
##렛
##귀
##쿙
##폭
##찐
##졸
##격
##품
##뼈
##쟁
##꺄
##톤
##췛
##뿛
##음
##ㅀ
##쟈
##판
##내
##활
##분
##놈
##육
##참
##북
##흘
##킬
##둘
##몽
##던
##넬
##꽃
##ᅡ
##ᄂ
##폐
##ᅦ
##ᄋ
##ᅭ
##웅
##즘
##혜
##빙
##평
##맨
##틀
##즙
##캘
##ㅓ
##롯
##댓
##값
##량
##양
##몬
##캉
##민
##국
##켰
##콘
##빤
##꾸
##극
##ᅨ
##ᄅ
##권
##붙
##륙
##달
##업
##예
##빅
##입
##럭
##깐
##틸
##젠
##}
##,
##칼
##늬
##푼
##젤
##융
##님
##ㅡ
##푸
##램
##뱀
##욀
##+
##삭
##섬
##속
##실
##듯
##ㅕ
##덜
##먹
##색
##례
##ᅵ
##ᆸ
##ᄃ
##깃
##ᄁ
##얀
##처
##럼
##취
##셰
##덱
##행
##채
##름
##송
##/
##습
##골
##맥
##설
##짜
##혹
##쩍
##탠
##쓴
##빛
##뮤
##랏
##(
##추
##력
##섭
##슬
##겁
##까
##축
##받
##플
##궁
##렁
##;
##댄
##협
##>
##햄
##맴
##딱
##샤
##착
##벌
##흐
##굿
##술
##뇨
##냐
##척
##투
##텐
##침
##뚜
##룹
##튜
##ㄷ
##[
##{
##엄
##럿
##뚝
##같
##렬
##밀
##망
##늕
##쇠
##빽
##액
##존
##완
##변
##겐
##낰
##^
##글
##령
##갈
##샌
##잘
##응
##랩
##덴
##<
##ㅚ
##ㄼ
##탕
##싱
##닌
##풀
##잇
##:
##건
##악
##넘
##@
##큼
##)
##둔
##ㅂ
##&
##숭
##꼭
##험
##였
##윗
##븐
##념
##갑
##올
##팩
##=
##놀
##랭
##ㅛ
##젼
##냉
##맣
##슥
##잔
##멘
##ㅝ
##ㄿ
##룸
##|
##녕
##랄
##밴
##ᄀ
##ᅩ
##징
##괴
##증
##앱
##`
##델
##책
##슴
##찌
##펀
##흔
##돌
##략
##찹
##짐
##압
##외
##빌
##촉
##젓
##벅
##닥
##측
##뢰
##긴
##렐
##널
##딴
##곳
##뉴
##꼬
##슐
##없
##ㅒ
##얼
##혼
##딜
##벡
##엿
##닉
##왕
##십
##뤼
##김
##셍
##뀌
##꽂
##옌
##쉰
##옹
##쥔
##켜
##굼
##또
##떼
##탈
##웰
##웩
##별
##윈
##꺼
##끝
##핵
##몸
##년
##챠
##삿
##갓
##벽
##ᅲ
##심
##퀸
##첩
##릉
##쇼
##휴
##ᅮ
##겔
##젯
##칭
##곗
##냥
##콩
##싯
##돈
##떡
##팅
##쿼
##뼥
##띄
##쯔
##샹
##솔
##빵
##컨
##ㅣ
##텝
##밍
##굉
##ㅞ
##함
##뚤
##빼
##깥
##있
##몰
##졔
##킹
##삾
##밭
##냄
##넨
##멍
##퀴
##된
##탓
##났
##둥
##굴
##져
##붕
##퐁
##뱃
##녹
##쩌
##죽
##엽
##ㄽ
##ᅳ
##팡
##퉁
##숀
##퓰
##뇌
##냑
##륜
##뜨
##긋
##핏
##ㅌ
##률
##왜
##든
##댁
##힐
##볼
##묵
##팍
##퇴
##앟
##%
##$
##*
##훗
##랍
##ㅗ
##츤
##움
##펑
##따
##쥬
##룰
##확
##패
##꾼
##맛
##셸
##럴
##궶
##궫
##궻
##랤
##궢
##뺴
##찷
##큰
##것
##팽
##뮐
##핑
##홋
##ㄾ
##춤
##뜸
##휘
##덤
##번
##냇
##셋
##엉
##툴
##붸
##톡
##곰
##큘
##뎨
##샷
##밥
##닐
##뒤
##랕
##멀
##팀
##펜
##앨
##벤
##넝
##ㄺ
##ᆼ
##톰
##ㄸ
##ㅃ
##뿐
##딘
##엑
##폴
##똥
##듁
##켈
##픤
##웃
##뮴
##톱
##캠
##덥
##멸
##느
##톨
##벗
##ㅄ
##졌
##픠
##걱
##꾜
##퍄
##윳
##챌
##듀
##챦
##됨
##뱅
##밤
##엇
##삽
##렇
##논
##슝
##탐
##뽀
##께
##뻬
##쭙
##툽
##넥
##써
##쏙
##딕
##곽
##쉑
##닿
##옷
##롸
##ᅰ
##ᆯ
##ᄈ
##깔
##튼
##끔
##흠
##곶
##쪽
##돋
##폿
##팥
##콕
##칙
##휼
##밋
##즐
##퍽
##맡
##컵
##잎
##챔
##웁
##틱
##벞
##겼
##ㅐ
##펭
##쿰
##흑
##딤
##룽
##맵
##벙
##뽕
##쌀
##팜
##퓌
##끌
##숲
##렷
##힘
##편
##낑
##뿎
##뭇
##갬
##흙
##꿀
##봐
##뵈
##았
##탬
##ᄌ
##빕
##웜
##쭝
##궈
##짤
##볕
##랸
##쫑
##왐
##닫
##씽
##때
##ᅣ
##땡
##펠
##랴
##둙
##팟
##댜
##굥
##껏
##삐
##펌
##랫
##ᆺ
##븨
##눈
##옳
##앓
##엃
##깨
##억
##띤
##잼
##얄
##탤
##맘
##솥
##쪄
##첼
##옙
##찜
##꼽
##렴
##샬
##킷
##녘
##숯
##웠
##룬
##롤
##텁
##쾅
##팝
##쌓
##쨩
##봤
##맞
##덩
##쑹
##쓸
##떄
##텟
##녜
##왈
##납
##쥽
##싼
##듬
##첨
##쿨
##톳
##층
##틷
##괭
##풋
##잣
##촤
##됭
##펙
##뎬
##뎀
##픽
##낸
##갰
##롄
##홱
##묘
##꽁
##럽
##샨
##깽
##쪼
##될
##덧
##뢴
##틈
##꿍
##끄
##촨
##캔
##믈
##빰
##탱
##콥
##뒿
##벜
##턱
##쳇
##솜
##컴
##엌
##릵
##낵
##빩
##풉
##둣
##텃
##놓
##떨
##ᆷ
##렸
##쭈
##얌
##쮸
##웡
##뇰
##툼
##욕
##륨
##킴
##혀
##쳤
##튀
##옴
##했
##겸
##뜻
##쀏
##켓
##팬
##ㅘ
##최
##횡
##핳
##샥
##뎡
##햇
##캄
##헬
##펄
##짓
##콰
##귿
##팸
##앉
##뚯
##듣
##릅
##밑
##샘
##볶
##삠
##흉
##룻
##둑
##싹
##폼
##컷
##엎
##훕
##즌
##똟
##쾌
##잋
##봄
##넉
##셜
##츄
##텍
##뷰
##렙
##횽
##텡
##멧
##쌩
##끗
##쑤
##벳
##꿩
##퀀
##횟
##쒸
##엠
##닷
##첵
##믹
##쁜
##곈
##짚
##잭
##빚
##뷘
##줴
##탸
##춰
##엣
##찔
##퇼
##꼴
##칵
##녁
##뮺
##썼
##쉘
##뀨
##얭
##쩜
##맠
##끙
##똑
##뽜
##ᅤ
##뿔
##봙
##특
##밝
##먁
##츨
##깡
##렘
##갯
##뾰
##뾲
##뼛
##믕
##ᄏ
##쁘
##깍
##챈
##숨
##췍
##늄
##쿵
##겠
##멋
##얘
##잽
##껴
##쌈
##헯
##젧
##앜
##돔
##썩
##텀
##핸
##렝
##땅
##댔
##괘
##뢍
##섯
##겹
##굇
##콧
##쳉
##숍
##싀
##튽
##줌
##즉
##쉴
##볘
##킵
##뺵
##ᄐ
##윅
##뎅
##쐐
##쎄
##왁
##헹
##핰
##뚱
##빨
##촐
##찻
##왓
##떵
##뎜
##슛
##겅
##썽
##콱
##갸
##헣
##떅
##뤵
##뤠
##륵
##못
##잨
##뇽
##멈
##곖
##쵮
##곲
##읪
##횞
##콦
##낪
##밊
##좁
##윙
##붐
##챱
##긱
##촘
##눌
##챰
##솰
##찟
##흨
##릐
##겟
##쩨
##릇
##샙
##찍
##삣
##죠
##휏
##눗
##맙
##켐
##흣
##쾡
##셉
##뭉
##툰
##좍
##챃
##늦
##욜
##쓱
##읭
##늠
##헨
##곱
##뮨
##댕
##깅
##읶
##템
##뗑
##늑
##째
##솟
##겻
##밈
##봊
##췩
##꼼
##믜
##ᆨ
##먀
##좀
##셩
##딧
##궤
##냘
##꿔
##떽
##뚠
##댱
##쉽
##뜰
##쏘
##딸
##눝
##뒷
##뉼
##높
##놋
##넛
##훠
##콴
##딛
##뻔
##렵
##랗
##몆
##깎
##땨
##쟝
##쌰
##첬
##뛰
##옐
##쾰
##갉
##낮
##흫
##퀌
##힝
##샵
##찡
##뿜
##흄
##뿡
##쑴
##캇
##븀
##귄
##눙
##혠
##슌
##ᅯ
##뷸
##졷
##씉
##펨
##텨
##쯤
##ᆻ
##칩
##썬
##뇸
##잆
##븞
##릾
##듮
##뤄
##뽁
##돗
##륀
##됴
##멱
##듐
##칞
##쿄
##봇
##꾹
##젭
##웽
##쌕
##혐
##뫼
##껄
##둠
##괜
##찮
##헥
##쳰
##엥
##곀
##밸
##늉
##츼
##훌
##퀼
##않
##뮈
##묄
##몇
##몃
##숑
##뵹
##쟌
##뢸
##긤
##줘
##돚
##볈
##홓
##떠
##뮬
##찎
##빡
##쨌
##딪
##낚
##쨔
##벼
##킄
##컼
##컄
##캌
##눞
##훔
##쭁
##퀄
##툐
##듭
##헵
##쪘
##췌
##붓
##릎
##겜
##벚
##썰
##핍
##먕
##옇
##잖
##햅
##푈
##슭
##줏
##숩
##왔
##벱
##홈
##쟉
##뺏
##밟
##쵸
##뷉
##삑
##쬭
##퐐
##쯰
##큠
##쇅
##뵤
##낫
##씁
##챨
##슷
##넹
##쁨
##튬
##줍
##돤
##꽈
##휭
##훤
##맬
##괄
##띵
##캥
##꼐
##덫
##욘
##춧
##붚
##돕
##쭉
##샐
##꽝
##ᄒ
##퉤
##빱
##찾
##탯
##륄
##덞
##쩡
##륍
##큽
##킁
##닛
##뻗
##몐
##컹
##펫
##휙
##갠
##컥
##셕
##찧
##궂
##댐
##맢
##룅
##헴
##옻
##졀
##긔
##뱌
##즤
##쑝
##놉
##츈
##볏
##넵
##봅
##짼
##앰
##꿈
##괆
##캡
##튕
##쌤
##츙
##뫄
##웻
##썹
##쟣
##냏
##젬
##냅
##뗏
##굽
##짢
##픈
##꿰
##촷
##팰
##읔
##엏
##윽
##뜩
##얻
##앞
##읖
##좹
##캑
##쾨
##훑
##칡
##냠
##셱
##뮌
##둡
##콸
##꽥
##웍
##띡
##꽹
##맑
##ᄎ
##꼿
##룝
##붉
##넙
##챳
##헱
##롻
##몫
##껑
##귬
##꾁
##섈
##ᆭ
##싟
##및
##퀵
##뤽
##낛
##읷
##덗
##섹
##룀
##걀
##홥
##늡
##뎌
##칫
##쫜
##뽄
##듈
##윷
##쪠
##떰
##씬
##닙
##ᅪ
##땜
##묻
##ᄇ
##ᆩ
##쯧
##훼
##끅
##텅
##챙
##훅
##귤
##툵
##퇗
##힠
##돵
##홰
##힛
##틋
##깜
##뽝
##욤
##댈
##짹
##겿
##죵
##냈
##낀
##덮
##끓
##솀
##홉
##돼
##믄
##엡
##젱
##됐
##싣
##깟
##끵
##옛
##푠
##슽
##톄
##쩐
##읏
##딥
##퍅
##쏜
##뜯
##엒
##멩
##ᅴ
##얏
##퓔
##냌
##뜽
##읅
##뻥
##츩
##넴
##췄
##씅
##낌
##캬
##냙
##뿝
##싕
##씰
##숫
##쌜
##웹
##쁅
##뺡
##뗡
##갛
##밖
##굣
##캣
##뗠
##뺌
##헙
##쬬
##섕
##숴
##몹
##폘
##큿
##쇽
##켬
##쁴
##씸
##닻
##줓
##뺙
##섴
##죡
##잿
##듸
##껠
##쥰
##죤
##땀
##꿎
##쏭
##곧
##쑈
##왠
##눕
##눅
##ᅬ
##쥠
##툠
##퇀
##덦
##늿
##밧
##늙
##겡
##큄
##땃
##슙
##쩔
##쥩
##꺾
##큉
##읽
##녔
##쨍
##꿇
##팃
##쁠
##앳
##냬
##볜
##엤
##뜬
##릊
##쒹
##낏
##헑
##긇
##흟
##핡
##좟
##갚
##윔
##툭
##꺌
##엊
##샅
##숏
##쁑
##뙈
##뿍
##큣
##푹
##쉼
##릣
##썸
##핫
##폔
##셧
##많
##곁
##헷
##딯
##갹
##겕
##깤
##뺑
##싮
##뱉
##쎠
##핌
##짠
##쬴
##됼
##굑
##삘
##쒜
##탭
##듹
##릏
##즹
##돘
##걔
##쌋
##쫄
##쭐
##췬
##뷫
##떻
##뺘
##씌
##흗
##둬
##픖
##캆
##빖
##젮
##롮
##좂
##늅
##폄
##쌐
##쭊
##솬
##뿅
##헿
##ᄊ
##쌔
##섞
##깄
##퓩
##펩
##퍝
##챗
##솽
##엮
##딍
##뽭
##훙
##뒹
##꺅
##봡
##뻴
##겆
##춱
##ᄑ
##뻐
##띙
##켠
##헝
##푀
##슾
##쯱
##뻘
##휠
##캅
##짖
##눔
##푯
##꿏
##튱
##숄
##겍
##꾿
##쌉
##닦
##쟙
##펔
##궬
##껍
##뭄
##겉
##솁
##벰
##쬐
##둈
##랔
##뾘
##헛
##옵
##닮
##뛟
##꿉
##뾸
##햘
##솹
##엫
##쿡
##쌱
##씹
##훍
##큥
##딨
##쨉
##켑
##뀽
##씻
##랃
##헼
##쳑
##챸
##탘
##쎔
##깬
##끤
##짘
##뉵
##햐
##뤌
##펴
##괵
##갔
##끊
##긞
##긏
##귺
##낄
##삯
##쉥
##멬
##샛
##뀩
##졧
##쫙
##쉏
##뵷
##뱐
##묺
##붛
##깊
##쾃
##싈
##뗀
##꺽
##뺀
##쓔
##짞
##뚫
##놏
##뵙
##떤
##롇
##뽑
##잍
##땗
##꼰
##깁
##랰
##폕
##퀑
##딈
##닑
##넓
##돫
##삔
##꺵
##겊
##퀜
##톼
##셒
##쨈
##짧
##벫
##퉈
##놔
##팁
##엙
##얗
##슶
##틊
##펍
##푝
##긁
##떙
##뱡
##윾
##낟
##좡
##웸
##킼
##헉
##빻
##쳡
##뗻
##빧
##띧
##랖
##삷
##샢
##쳣
##귈
##햏
##뿨
##쭤
##쥿
##삗
##잰
##숕
##겴
##쀼
##닏
##솝
##쨘
##떈
##뇩
##됸
##졉
##ᅱ
##픔
##틍
##듄
##옿
##섀
##띰
##뤨
##샴
##먐
##왘
##훜
##뒑
##뒓
##랒
##닢
##뺼
##돨
##꼇
##퐝
##젴
##녠
##긿
##냣
##뇻
##뇾
##휀
##숟
##죌
##둇
##켕
##갖
##뜀
##쓩
##슼
##ᄄ
##좸
##퐈
##얽
##쌥
##욧
##빳
##쿳
##옆
##튠
##뻣
##칯
##뒫
##먄
##놰
##뒈
##똠
##횔
##쩝
##뉻
##뒨
##붱
##좇
##흰
##욋
##큮
##놘
##뇬
##섶
##쑨
##맇
##뚸
##괳
##덟
##똔
##뷜
##팻
##젹
##윱
##깝
##얹
##옘
##껌
##긧
##쉠
##홧
##풱
##퉷
##꺘
##뙤
##굵
##졍
##웆
##쯕
##킳
##뎁
##똏
##윰
##헠
##훟
##핱
##뾱
##쩬
##츰
##롈
##껫
##잌
##앝
##넠
##쳔
##좋
##펼
##씃
##졋
##츔
##켁
##뻉
##볍
##쯉
##읋
##쏠
##왉
##촙
##괼
##챤
##땽
##밣
##쿱
##뎊
##퐳
##녤
##힙
##싴
##꾱
##뺄
##돓
##줆
##쫓
##쌘
##쏴
##뤙
##핥
##쨕
##쥭
##옾
##돠
##왼
##쥣
##툿
##랼
##뭔
##횻
##뜜
##뚞
##싁
##꿋
##롼
##짒
##볓
##삥
##끕
##숎
##셤
##츺
##뵐
##쫭
##땁
##켸
##궃
##뺨
##쉔
##줜
##볐
##쳄
##꺐
##폯
##훓
##쳅
##셨
##횅
##뻡
##뼤
##뤯
##룱
##냔
##끠
##뤂
##웈
##씤
##낱
##삡
##믓
##몌
##줭
##뫌
##큭
##쥘
##쉭
##묭
##붑
##웉
##퉅
##쫀
##먗
##묜
##뷴
##볫
##삶
##씀
##촹
##촥
##혯
##쨋
##뽱
##솩
##럐
##붇
##솅
##콬
##톹
##퐆
##읗
##꾀
##훁
##맺
##귪
##궸
##궭
##궼
##덿
##흿
##뫞
##뿷
##땞
##밪
##뒗
##렜
##됵
##롊
##쬽
##뗄
##쏨
##쭘
##씍
##잏
##믌
##좆
##뤀
##앆
##풑
##먏
##믐
##헔
##걷
##픋
##퀠
##혓
##뭘
##돜
##좔
##뎂
##닶
##뗘
##좐
##핧
##홑
##댠
##쑜
##넡
##핟
##끽
##륑
##뜳
##멓
##벓
##읒
##뼸
##칰
##쫒
##젊
##닾
##롣
##킅
##틉
##돛
##쎌
##뒬
##륶
##탙
##몊
##댸
##쟘
##촾
##뀐
##흇
##띔
##쵁
##앍
##쬲
##혬
##굳
##꺠
##뭏
##뀪
##귡
##긮
##깑
##앚
##쯪
##옅
##겧
##쁶
##엾
##쯋
##굠
##둍
##쒕
##췅
##뫅
##뺭
##욣
##웝
##묶
##핲
##탉
##겋
##뤕
##찢
##떳
##섣
##깩
##썀
##댧
##댯
##쁙
##꿱
##쿜
##듕
##낯
##쀳
##첫
##죗
##뜝
##딫
##욷
##솨
##옠
##쏩
##툇
##촵
##쎈
##켤
##뜵
##끎
##뛸
##뜷
##뙗
##퀙
##욹
##뭍
##눼
##퍗
##둉
##룔
##붘
##쟛
##썷
##콫
##룳
##큪
##핔
##왑
##놨
##뢔
##싄
##얶
##읕
##탒
##픗
##쭵
##뜐
##쎅
##셥
##팠
##듟
##띨
##ᆮ
##걲
##몄
##닯
##맏
##죰
##쩧
##봑
##쭓
##뭐
##뉨
##샠
##쭨
##늪
##걍
##뵥
##륷
##핼
##욺
##졬
##즛
##윕
##갭
##췽
##맓
##싧
##댋
##핿
##줊
##셟
##섧
##갊
##핣
##닚
##닧
##쿶
##턻
##ᇀ
##얫
##껨
##쁌
##츌
##셷
##휵
##얅
##꽦
##껚
##빋
##썅
##럇
##눟
##덯
##팎
##썝
##뿉
##둗
##쎃
##갗
##닜
##귖
##궺
##긲
##깒
##깛
##긛
##썄
##뼝
##쨥
##컫
##껰
##넽
##귱
##ᆹ
##벐
##킦
##끾
##죳
##탇
##껒
##슆
##쵼
##븃
##밗
##횸
##삧
##쥴
##쀠
##뻤
##뀰
##곯
##픓
##닼
##릯
##쇳
##곬
##훳
##
##녑
##틔
##뤩
##햣
##ᄍ
##왧
##뷃
##얇
##븝
##셣
##읓
##쵹
##춸
##챘
##퍙
##퉹
##훽
##짇
##뉸
##돩
##늏
##텤
##튝
##츳
##땝
##졈
##쮜
##쮝
##뿀
##륽
##퇵
##랆
##롓
##깻
##쎼
##즁
##뢱
##돖
##왒
##밦
##맫
##엷
##뀍
##걋
##푱
##횩
##띱
##풔
##퐄
##햟
##븅
##렞
##쫩
##뼉
##젏
##폵
##숧
##뜫
##긑
##밌
##챡
##뺩
##뭬
##퇘
##픳
##땍
##훨
##뀜
##믿
##츹
##힡
##벋
##밉
##듶
##힁
##믁
##잫
##싐
##븓
##춉
##릘
##뼜
##쥥
##뿓
##굛
##댦
##뷁
##꽤
##곺
##뚬
##랠
##쪙
##컭
##옺
##팉
##뚥
##뽈
##쯩
##괏
##킈
##캎
##둅
##촡
##멨
##뀫
##캰
##롹
##귝
##꺆
##줛
##놗
##솫
##뗛
##몼
##돇
##돣
##뢐
##홳
##잓
##웫
##룫
##뺃
##뗣
##댬
##췃
##듳
##낳
##젔
##뎍
##꼈
##슁
##칽
##벲
##귶
##뙓
##봬
##됬
##묑
##삜
##몯
##땩
##땠
##얍
##돡
##큇
##꿨
##꽉
##꽐
##챵
##퉱
##끍
##휽
##큾
##벖
##텂
##몔
##싶
##텬
##쒀
##쏫
##삮
##밐
##쉿
##꼳
##걕
##뺅
##컿
##튿
##뱔
##즑
##뉜
##왱
##췁
##뙇
##갷
##왂
##콣
##쮹
##헗
##꿝
##쿸
##닳
##괂
##읳
##짙
##핤
##팈
##홐
##혻
##꺢
##슢
##쟤
##벧
##윿
##엓
##핻
##셭
##놑
##룍
##캭
##퓻
##쭌
##칟
##듧
##튄
##찓
##탵
##쩠
##뮹
##큔
##벩
##펡
##곻
##읃
##풒
##뿟
##귯
##긶
##쁐
##텽
##뱨
##긕
##뚀
##슉
##줬
##샻
##깏
##좨
##죔
##흧
##숱
##풮
##웟
##햑
##웗
##뛃
##꽯
##뒥
##뀻
##퓸
##귓
##룺
##렫
##튺
##녓
##촛
##둴
##쨰
##꼮
##괸
##끆
##섰
##ᇂ
##땛
##싰
##뿁
##엨
##굄
##웳
##쬷
##홅
##욿
##쌻
##풇
##롑
##쏟
##밻
##샒
##읫
##홝
##꽇
##튤
##흓
##꺕
##톻
##얃
##룟
##렀
##끜
##쪨
##쑊
##흩
##췰
##푴
##뺚
##쏚
##듫
##앸
##휗
##붹
##뚮
##쐙
##뽟
##켚
##왇
##횦
##뷀
##뛩
##쉟
##렣
##쳌
##쵤
##뎋
##룐
##빎
##몀
##얔
##ᆽ
##꽊
##싫
##붏
##믱
##꿘
##봫
##닊
##샄
##굘
##픨
##끨
##뿮
##뱦
##윹
##쳬
##픅
##멉
##줵
##찝
##꺙
##웤
##븟
##꽌
##밬
##푷
##썻
##왷
##탼
##췻
##궖
##궋
##껸
##뿗
##쩅
##탹
##쑼
##콻
##횬
##옮
##쭀
##컁
##힗
##탔
##둩
##늰
##뒁
##샇
##뫃
##뚷
##붖
##뽓
##똬
##챝
##쯸
##맄
##붝
##풹
##쉡
##휩
##곂
##삒
##엪
##펐
##랣
##껙
##뭭
##뫟
##듥
##뙳
##홂
##쫣
##똵
##뽧
##꽑
##멦
##뇓
##쁟
##얒
##칣
##뭅
##뷇
##윘
##눤
##삵
##홁
##툉
##뗔
##챞
##퇸
##뼬
##껀
##돿
##낲
##휫
##쑁
##볽
##딺
##핚
##쵠
##얺
##뫀
##괧
##쏀
##븍
##튭
##얖
##뚧
##튮
##죨
##먳
##맻
##뮻
##뭋
##뛣
##홣
##꾫
##냟
##횢
##캢
##욦
##롷
##뎻
##좊
##랐
##듦
##퓍
##랋
##툑
##툥
##챕
##롫
##팂
##쥉
##뗶
##뗵
##쬰
##꼍
##낻
##윻
##냫
##숌
##떱
##띾
##짭
##젋
##엗
##뫙
##귐
##츀
##춋
##녯
##쭛
##갇
##뷓
##솎
##깈
##렡
##맆
##춈
##뒝
##뱁
##롁
##벍
##얐
##튐
으
##ᅳᆫ
에
는
다
의
을
어
아
이
##서
##ᅳᆯ
를
은
가
고
##다
##로
었
에서
로
으로
ᆫ다
도
았
며
지
라
기
게
##ᅡᆫ
과
면
와
20
##고
##는
##며
##만
지만
##지
더
##게
에게
##데
던
여
##나
201
으며
만
는데
때문
19
까
까지
아서
##00
아니
라고
라는
자
나오
다고
면서
보이
경우
10
어서
사용
##터
##ᅮ터
##가
다는
공격
이후
나
##도
자신
그리
##니
##면
였
##레이
사람
위하
정도
대하
부터
##야
##스트
가능
시키
다른
12
으나
이나
가지
200
등장
는다
아이
보
11
보다
그러
그리고
버리
##어지
게임
하나
경기
..
서
만들
못하
##er
사실
시간
다가
니
거
사이
시작
일본
이상
모습
이름
##니다
함께
##라
따르
려
상대
한국
##어나
##지만
문제
15
거나
##in
으면
하지만
프로
##스터
생각
다시
겠
##러
또한
가장
들어
캐릭
당시
##대로
시즌
ᆫ데
아야
##ᅥ러
처러
처럼
캐릭터
당하
플레이
18
##on
능력
##이트
ᆫ지
모두
상황
상태
그렇
아도
야
모든
추가
결국
세계
선수
##an
16
##or
스킬
카드
##미지
현재
많이
ᆫ다는
통하
전투
효과
다음
30
다만
그러나
존재
지역
13
미국
여기
시리
14
199
##라이
매우
##ar
라이
17
달리
대학
그런
상당
ᄇ니다
레벨
기록
##he
시리즈
##at
스타
인하
기술
레이
##요
물론
무기
##ᅳ로
이용
##리아
의하
처음
다면
이유
시
자체
부르
방송
100
이것
마
이런
필요
영화
실제
여러
해당
25
들어가
마법
모르
주인
일반
ᆫ다고
돌아
어야
거의
역시
##거리
바로
리그
##리스
학교
나가
사건
##이스
##en
다르
같이
특히
관련
기본
2017
부분
그래
##이지
위치
피해
##야기
##록
진행
##ou
아무
방어
2018
이야기
##부분
대표
국가
는지
없이
냐
##지막
음
제작
##까
활동
인간
동안
작품
증가
대부분
알리
##al
마지막
본인
자기
2019
일부
지나
계속
ᆫ가
##시아
떨어지
21
서울
내용
##es
우리
올리
주인공
2016
감독
참고
속도
관계
50
##전히
생기
스
중국
대신
수준
이전
그냥
어도
습
비슷
어느
으니
전쟁
타이
비하
지금
라면
강하
만나
성공
22
기준
도시
밝히
인물
습니다
이루
도록
198
상당히
공격력
그녀
대한
24
배우
최대
기사
올라
##민국
결과
지원
그대로
평가
시절
너무
빠르
자리
보스
제외
##it
므로
죽이
란
##토리
연구
##버지
의미
##에
나타
실제로
소속
##라지
이미
로서
승리
직접
전체
2015
영상
대한민국
보내
메이
23
어렵
원래
유닛
체력
여자
마다
언급
##부터
그것
개발
데미지
멤버
##ing
유저
##st
##le
##학교
##ic
이동
마음
설정
40
싸우
정보
ᆫ다면
방법
문서
선택
애니
##가지
##re
과거
차이
러
##운드
머리
몬스터
출연
성우
친구
포함
##랜드
##dd
##이션
불리
대상
설명
거리
엄청
사회
소리
바람
플레이어
장면
힘들
우승
최고
여성
버전
사랑
이러
바뀌
아버지
프리
동시
드
공식
든
유명
스럽
시대
2014
발생
영향
사망
이렇
주로
대회
프랑
##주의
남자
결정
조금
려고
파이
발매
26
주장
출신
아이템
##ff
초반
000
인터
일어나
학생
전부
나라
버스
마이
공개
역사
28
운영
오르
서로
유지
빠지
스토리
걸리
모드
##el
27
구성
대사
파괴
제대로
##am
정부
방식
만큼
음악
강화
31
자주
중요
아직
후반
이때
나타나
또는
월드
the
과정
##이드
형태
최종
정치
새롭
독일
시스
역할
나이
최초
노래
##벤트
다니
대전
쓰이
이벤트
누구
##om
##어
강력
마리
스테
정말
변경
회복
##머니
##이도
기존
##우스
그런데
영국
보통
비교
드래
소환
대
느끼
정신
##아가
##다가
마찬
마찬가지
##la
어떤
이기
조선
라도
당연
##었
특성
인기
##is
엄청나
성능
##프트
확률
속성
마을
듯
행동
바꾸
2013
슈퍼
오히
노선
대로
모양
오히려
##리어
어떻
드라
아래
##라도
이제
가깝
자유
아들
교육
197
발견
차량
바이
라인
29
사라지
##너지
게다가
32
부족
특수
프랑스
##et
이번
00
대학교
확인
성격
끝나
문화
유일
활약
차지
수록
##ol
2012
관리
장비
##ion
영웅
모델
일단
입장
아예
구하
내리
생산
맞추
스트
따라
시스템
이렇게
제국
고등
심지
다이
어리
돌아오
심지어
먼저
경찰
반대
계획
주변
거기
##레이드
운동
2010
앨범
##디오
어요
자동
완전히
조건
드러
우주
기간
사진
##레스
난이도
들어오
부대
적용
발동
개인
기능
##ow
지구
구
건물
60
감소
위원
##nd
##써
km
##20
축구
##통령
자세
##il
떠나
##ig
중심
으로서
##인트
##ed
실패
애니메
그래서
하이
세트
혹은
중앙
선거
바
지키
어디
라며
현대
35
회사
덕분
돌아가
초기
전혀
얼굴
데이
작가
시기
표현
국내
원작
민주
대통령
패배
물리
처리
오브
순간
TV
동일
##버스
모으
지속
프로그
드라마
반응
지방
무엇
얼마
날리
열리
도움
더라도
인정
참여
기관
애니메이션
출시
##니아
명칭
##ac
판매
담당
데뷔
##as
##없이
##나마
##BS
정확
요구
획득
196
##리카
굉장
스페
하루
생활
그렇게
of
루
시점
2011
설치
밖
밖에
작중
넘어
다양
발표
후보
그룹
상승
진출
선발
아군
구조
기억
항목
##아내
Lv
영어
만화
가격
움직
단계
##소드
그림
##므로
특별
##들이
올라가
마스터
실력
##ve
그나마
으므로
드래곤
아마
##자
다며
에피
세우
이거
01
야구
았었
시장
The
가족
##이
범위
사고
특징
경제
려는
##소리
시청
방향
연기
대체
패치
경험
##뜨리
계약
미치
한
수비
##테
고려
##ot
한테
조
##차
조차
아르
확실
참가
국제
지니
디자
에피소드
500
세대
발사
폭발
##로스
브라
남기
묘사
로부터
##스크
밀리
주의
프로그램
고등학교
80
##비스
활용
2000
던지
어떻게
피하
어머니
상위
결혼
무시
라서
##으키
비판
목적
더욱
준비
중간
심하
각각
##ad
37
보호
러시아
45
아주
버프
챔피
오리
라운드
굉장히
이미지
패턴
국민
히로
이어지
위험
진짜
참조
세이
내려
대미지
생명
조직
조사
단순
싸움
과학
여담
크리스
약하
이라
이루어지
전하
나쁘
타입
다루
ᆯ지
세력
현실
파워
St
안타
시도
소모
제공
주요
구간
194
유리
불구
전문
가리
지하
유럽
일으키
연속
부산
세기
##머지
나머지
혼자
순위
논란
조합
한정
포인트
사실상
약간
아프
동료
랑
##아오
노리
##id
70
뛰어나
나무
분위
성장
##ᅳᆷ
09
##ay
무장
여전히
바라
디자인
분위기
당연히
취급
항공
출전
90
이해
으면서
트리
학년
##스로
일정
규모
등급
훨씬
FC
##ER
지도
투수
소설
##나라
한편
예정
##려
운행
블랙
성적
인구
##러지
부상
자연
##마
엔딩
기타
그래도
마치
삼성
오
기대
계열
mm
02
해결
2009
03
사업
가져
##ch
스테이지
향하
센터
방면
연결
미션
300
##이크
##시
방영
최근
의견
기에
연합
수정
##us
48
변화
도망
종류
##ir
자면
ᆯ까
그거
이탈
표기
잘못
전용
이르
태어나
05
퀘스트
배치
195
추정
33
for
2008
발전
터지
##다리
소녀
36
08
대화
변하
거대
정상
직업
안정
07
움직이
##ur
도중
네
죽음
엔진
충분
올라오
스스로
종료
##스타
##ᅮᆫ
작전
넘어가
##티브
수상
챔피언
펼치
세상
오래
나중
붙이
독립
일행
비행
요소
##큼
느낌
속하
거치
당신
나누
HP
벌어지
벌이
보상
에너지
지내
방어력
달성
비롯
전설
수도
##..
공연
##od
무리
미사
06
만드
동물
만큼
배틀
##러스
##BC
부활
특정
관하
장착
훈련
스피
절대
th
스카
졸업
철도
유니
지지
##im
##자기
기업
전기
포켓
위기
지휘
행정
싱글
##저
번역
다리
번호
근접
##란드
더불
아이돌
제목
점수
건설
04
관심
만약
미래
##어들
황제
내부
남성
반면
따라서
득점
##un
충격
##ut
신경
SK
시험
전차
요리
군사
가르
목소리
목표
거두
홈런
소재
이끌
전사
2007
##데이트
업데이트
바르
정체
you
공간
##지션
똑같
가끔
저지
돌리
무대
스파
어찌
시설
사이트
올림
타격
로마
오늘
34
##인물
배경
링크
지정
장소
각성
전작
##리오
서비스
공중
마르
항상
느
##다니
##ro
최소
교체
그만
전국
파티
으려
분노
##너스
##트리
생존
작곡
북한
넘기
등장인물
정식
얘기
예상
마저
자랑
의원
부여
으로써
클래
작업
높이
도로
포켓몬
사냥
##디어
분류
종족
늘어나
스포
인사
인도
악마
##ag
##igh
소개
야마
38
스타일
비밀
##ver
엘리
단체
애초
제한
인터뷰
괜찮
ᆯ로
가수
필드
##ec
결승
##동안
cm
판정
크리
듯이
기계
이어
베이
클리어
75
목록
연출
각종
외국
카이
리
하늘
이외
타카
명령
정하
##ent
제일
2006
초등
##운데
기체
병력
지상
카운
로봇
개념
55
##보이
전반
확정
기동
in
교통
정작
193
건담
레어
비용
별로
##드리
파일
##ak
화력
장갑
올림픽
케이
수행
뿐
니까
군대
드러나
사항
갖추
표시
크기
가운데
프레
따로
인식
시티
행위
사격
수치
경쟁
라이브
##라인
2020
사거리
to
##um
아카
기반
변신
갑자기
저항
감정
',
나름
포지션
##젝트
언제
누르
진화
이탈리아
완전
평균
왕국
아키
단점
집중
인천
보유
교수
근처
통합
기회
병원
살리
vs
직전
던전
노력
특이
냐고
임무
##아들이
의식
코스
드리
자원
전자
국회
설립
탈출
레인
##화국
정의
오버
압도
##ST
오른
이닝
월드컵
부모
단어
다크
때리
부정
환경
##em
고양
현상
##ub
정리
마시
사례
잠시
사정
##비아
판단
효율
시전
제품
이쪽
어쩌
##라스
아파
극장
더니
치명
본래
##르트
느리
나서
주제
무슨
촬영
아스
##000
삭제
상관
의외
주문
위원회
전력
가문
ㅏㅆ
동생
고속
원인
주민
대구
여행
물건
옮기
제거
지배
강제
발언
키우
소련
연습
치료
##ᅥᆫ
병사
##어로
포기
스코
골드
위력
파트
요시
도전
##무리
전개
2005
기다리
이하
노트
역대
책임
해군
중학교
기념
##요일
사무
도입
정책
점프
나이트
완성
복귀
앞서
실험
##ight
화면
새로
42
##야마
루트
려면
고정
공주
도쿄
살인
유사
바다
의사
음식
41
##학생
레드
##냐
페이
모이
별명
차원
직후
선생
끝내
이적
히어로
불가
다수
버티
사기
중반
39
받아들이
잡히
티어
전략
히트
어둠
밴드
에게서
분명
마나
공동
숨기
도착
2004
무려
미니
##모토
접근
언어
녀석
가치
제도
일러
EX
LG
은데
정당
으로부터
오프
회피
ㅓㅆ
추천
타임
조종
정규
사상
시민
대기
빌리
로드
예전
##ce
살아
확장
아파트
신체
빨리
##루스
##그레이드
업그레이드
마사
구매
##AR
##드시
줄이
연장
롯데
리더
자료
랭크
이곳
반드시
폭탄
##os
투표
탈락
타이틀
인터넷
부탁
장치
학원
단지
완벽
크로
라이트
미사일
종교
44
우선
##ri
일러스트
소유
형식
해외
고대
##시마
##AN
구역
장점
사령
최강
데스
심각
산업
아내
##던
##ula
Ch
금지
하드
죠
##ON
##역시
추측
버그
##이치
실시
No
위키
마무리
##ap
43
이라고
99
곤
대장
클럽
몇몇
공포
가사
노동
##and
2002
연재
가드
구분
취하
st
검사
범죄
합류
점점
달러
즐기
서버
로스
조정
##아하
요청
이사
행사
차례
##ᅮ록
##트라
form
옵션
재료
보병
그야
##러리
##이어
조작
선정
선언
수많
마법사
다소
전통
교회
타자
걱정
프로젝트
kg
그리스
종종
개그
47
스포츠
자마
46
데이터
51
191
좋아하
컴퓨
개월
암살
부하
광고
입히
형제
열차
##르크
formula
에이
채우
성향
뉴스
##말로
대중
개최
평범
자마자
##나이
KBS
포스
아쉽
##조건
그야말로
실점
한계
스페인
구단
고르
재미
채널
대결
설계
코드
##ter
거부
통신
언론
아무리
워낙
생물
다행
비중
보조
복수
종합
고자
전화
행성
기지
컴퓨터
민족
디스
and
한글
무한
투입
개봉
해석
알아
무조건
##아지
본격
영혼
정확히
연주
냐는
모자
운용
굳이
##ul
MA
평소
실수
회장
원정
광주
##IN
지적
소년
##타임
지명
와중
##무라
인상
1000
##수록
위협
미드
박사
##버리
2003
줄어들
회의
상징
충분히
##op
등록
는가
사태
집단
대형
가정
대응
카메
대비
보너스
터미
아웃
자동차
소비
##ck
전원
보컬
대로
체제
공사
페르
시청자
%,
다운
##로드
태양
특유
희생
150
조각
플래
가면
개조
65
##FA
군단
##자리
##ation
무사
편성
뿌리
도망치
봉인
##리트
여름
MBC
마력
##니스
SP
일종
기자
##로그
##ra
##려가
192
육군
발음
장군
공항
네이
스크
생성
통과
벗어나
얼마나
##든
##의원
분리
시나
방문
64
오리지
II
가하
로써
드러내
장르
보다
동맹
빼앗
장기
간단
을지
함정
고양이
반복
ㅏ서
서술
##튜브
오랜
##일러
소식
의도
##려오
##오르
사쿠
분야
디지
전환
근데
52
불과
합치
유튜브
바닥
영입
먹이
안전
경기도
그때
치르
브레이
괴물
저격
마크
##텐츠
제안
흡수
점령
You
의지
##시스
는다는
예선
초대
필살
미리
최후
##니티
따지
400
개선
공략
유도
##남도
화염
숫자
놀라
독자
전술
##art
코치
그저
방해
##나가
주력
원하
액션
확보
외모
인원
가져오
매일
평화
비트
진입
터미널
이론
##런스
규정
관통
VS
클래스
라디오
에스
오토
찾아오
장난
수사
##오스
49
들리
이치
투자
느냐
승부
컨셉
눈물
체육
목숨
형성
지나가
적극
방패
AP
56
가스
패러
상자
음반
모험
사과
아름
서브
리어
왼쪽
적절
부수
흐르
인류
한국어
계기
보도
2001
##올리
함대
구축
##동생
거짓
저지르
살아남
의심
ᆫ지라
약점
예술
공화국
들이
역전
##스케
인형
기원
53
오리지널
54
비디오
##페이지
작성
완료
더블
##모리
...
자라
공부
은퇴
수리
코어
솔로
회전
스위
##라이더
쓰러지
풀리
단순히
대단
질문
In
걸치
PC
편집
황금
끌어
민주당
마침
뮤직
##래프트
알렉
시내
##로우
안드
##시브
홈페이지
착용
필수
트랙
상대방
꾸준
85
보수
해제
미스
엄마
카페
아프리카
드라이
경상
##ia
사단
습격
장관
편하
1990
현장
날개
사장
코스트
비난
포르
희망
원거리
##ill
데리
오스
수원
##ie
재판
선보이
분석
하위
##레이션
명중
아시아
진정
무력
코믹
선물
##RA
##나다
인지
성인
수호
ST
모티브
##IA
비고
에이스
청소
확실히
블루
아름답
행복
경계
부리
저주
감안
카즈
중단
태도
가슴
190
요
##ik
임명
남편
공원
기획
지식
관광
표정
허용
승강
스마
쿨타임
장애
무섭
수단
지나치
오른쪽
탑재
바탕
본선
멈추
딱히
인민
제시
친하
소프트
상처
주도
##무원
당장
59
망하
##연히
가까
##북도
의문
영역
유래
기점
테마
소울
테크
고통
리스
보급
유우
##ab
직원
불명
날아가
비싸
돌파
기어
베이스
위주
멀티
작용
아요
주목
제압
대답
챙기
120
58
나카
잠깐
##마스
##워드
주연
을까
카운터
여부
##울리
고유
순서
제기
측면
꺼내
베르
체계
도서
##est
게이
57
업무
박스
진영
부인
우수
##th
MP
멀리
문명
이스
카메라
패스
횟수
드립
후속
멸망
통일
온라인
##all
어라
버튼
공장
##트롤
텔레
시나리오
지점
거주
케이스
귀족
나뉘
##ea
66
95
코너
문자
당선
내려가
에어
겨우
협력
차별
특기
계산
소수
지옥
후지
약속
듀얼
삼국
최악
눈치
마츠
크로스
건너
에다
뉴욕
달라지
Sh
연계
ᆯ수록
건
딜러
시체
은행
##붙이
다가
##머리
Lo
##ct
스펙
늘리
살해
가볍
ddd
on
나타내
개편
상하
그라
오후
유키
가져가
1999
퍼지
##다르
스케
Re
붕괴
처치
##라리
배신
대놓
자격
혁명
게시
매치
군주
부담
110
##ddd
dddddd
Sp
컨트롤
게이지
1998
##AL
해금
##스티
그레이
겨울
국회의원
어울리
견제
증거
레이저
스탠
외부
최대한
군인
장전
ㅓ서
교사
필살기
##AT
62
출발
진실
자살
제조
핵심
##바이
##PS
정권
##워하
어린
##피아
대원
여왕
전장
드물
궁극
미군
##OR
중화
연방
용병
마왕
##니어
스프
로켓
귀엽
아침
댄스
##VE
##레인
거절
제로
충전
##아리
한화
타이밍
출생
쓰러
자이
유용
가르치
공산
체인
SS
일본어
기분
SBS
이성
##터리
커뮤
조준
만족
충돌
고급
브랜드
도구
단위
취소
애매
교환
는다고
스피드
부진
고서
##달리
거래
##ate
스킨
쿠
##로이드
미나
##사카
수학
가로
흔히
##ess
피해자
극장판
아라
토스
Th
카르
##ell
61
반란
제주
##광역시
발휘
세계관
얼음
##ard
무게
76
오스트
끼리
장수
파악
후반부
하트
##ang
단독
##래도
아무래도
겹치
인생
모션
레전
홍콩
패시브
공통
##IC
갈리
근무
판타
자르
##ue
신화
비록
격투
아머
막히
한자
헤드
##ant
##ack
순수
##ers
따위
피아
몰리
Al
NP
웨이
77
구입
##두르
정령
파이터
브리
##ine
88
공군
1997
##다수
운전
72
등등
혼란
계급
자식
가입
수입
##하라
아메
스코어
닥터
레
##심히
내주
트레이
회수
권력
자고
경력
##어내
##아
본부
채용
지시
공작
근거
마이크
커버
##피스
탄생
생일
밸런스
해방
조지
비율
누리
외치
기절
우려
남부
건강
지하철
언니
용도
테러
꾸준히
##가락
프라
병기
엑스
표준
갤러리
BG
ㅕ서
타워
실질
돌격
지대
##ok
##OS
납치
증명
협회
반영
홍보
모리
지급
무너지
대공
강조
아사
입학
be
플라
오오
업체
트위
불안
랜덤
373
FI
유형
외교
요원
##디션
경영
왕자
##아나
or
##유키
아라
감염
대륙
경향
##세이
98
fff
##거
온갖
훌륭
광역
감사
CD
gt
연대
마녀
실행
맡기
장식
문학
##ive
패러디
##웨이
기독
트라
페이스
메탈
찌르
물질
600
주어지
없애
##오리
내놓
입단
재생
가까이
##크래프트
아나
울트라
스페셜
화살
추진
주년
어차
찾아가
집안
고민
내내
설득
대다수
계승
1996
서포
선배
승강장
살짝
사카
##트로
어차피
부문
폐지
##ast
이슬
캐나다
##고기
PS
##AS
영원
미야
정지
대놓고
##들리
신문
베트
1995
보물
적당
##메달
신뢰
사전
##바로
브라질
##어리
파라
연예
작사
지우
즉시
아리
ㅓ야
기기
##uby
",
우
전선
당황
##ED
미소
내려오
함선
흘리
괴롭
##tt
##즈키
##이터
68
뒤집
페이지
##ee
폭풍
등판
은근
lt
오픈
800
소문
탑승
명예
열심히
스파이
상품
화장
입수
레전드
오프닝
군
갑옷
별도
경유
러브
심리
시행
경기장
단일
파리
63
아야
말리
의회
1980
변호
라스
통제
마련
##카와
댓글
반격
##ong
##AM
ruby
스티
운명
가면라이더
오류
정류
응원
푸르
트레
##세우
레오
후쿠
한때
커뮤니티
신청
쓰레
트위터
격파
라이벌
사령관
##ort
김성
주전
고전
기독교
출판
습득
이승
##웨어
중계
공기
편의
##ith
수업
하수
심장
처하
##리티
오해
불만
신고
마인
마주
두산
울산
##아먹
71
##if
74
관객
##다지
전라
외국인
카나
정말로
랜드
보정
주위
##ly
크루
##fff
건축
##아버지
출장
....
스트라이
##나무
용어
MV
##ld
고기
공유
그곳
전달
73
여론
67
아트
메이저
ffffff
민간
사운드
짜리
절반
가리키
조치
##티컬
고치
지형
갈등
여신
##도우
붙잡
임시
무적
자치
##학자
재능
가득
전함
아오
전공
요새
압박
NC
##ain
리버
별개
엔터
초월
##ist
96
카라
##겨나
쌓이
종점
연구소
오로
네이버
스튜
니시
1994
##ind
북쪽
전형
추적
메가
TH
그다지
메타
시각
##타인
180
컨텐츠
남쪽
제하
늑대
보장
발매되
지켜
테이
AC
돌진
소멸
##서트
판타지
하
시야
81
AT
결승전
전시
널리
클라
타점
든지
다행히
파이어
일부러
##per
불꽃
그만큼
동네
화이트
환자
##듀서
프로듀서
##ps
강원
동기
가이
##지컬
##EN
서부
여동생
문제점
흔하
적히
화려
##츠키
쓰러뜨리
그림자
선호
왕조
동원
폭력
상향
우스
지켜보
파이널
회원
대만
뛰어
본명
치명타
신라
유로
북부
유비
신세
맞서
물러
##EC
소드
자는
따오
78
##가와
##식간
91
##거나
##OL
##스탄
수요
순식간
연상
무난
##ew
도서관
테스트
향상
아시
메시
전역
매력
클로
학과
##돌리
차트
전적
##더스
변형
스토
최상
전방
시드
부품
찾아
지르
84
CP
체포
영토
아일
일상
수집
크리티컬
암흑
전투력
게이트
##사키
코믹스
아우
키스
영업
##LC
마술
me
인수
토모
##드라
##ry
수용
이마
저런
조절
파견
드디어
폭격
복잡
학살
복장
유전
##려움
오빠
##어스
82
바라보
대우
떡밥
##lo
입력
그래픽
구현
편지
개통
생명력
호환
현지
97
추락
신인
사자
천사
도달
아무런
고향
동부
닌자
사토
##덜란드
네덜란드
청년
86
창작
아가
디아
경비
점차
반지
작동
맞이
콜라
콘서트
연관
프레임
교황
엘프
종이
한국인
쓰레기
수송
출현
노예
스톤
기초
그치
##레나
제이
모바
추격
단
해설
it
해체
69
##퍼스
##피
다시
다시피
몰래
달하
##어버리
구도
조용
충청
의상
##노스
심판
##크스
간격
공급
녹음
아티
##오카
is
주먹
아무것
##히로
식물
토리
막장
시위
조성
NPC
프리미
전투기
사쿠라
께
##오프
##IT
제자
조조
잉글
연사
둘러
##둥이
돌아다니
수술
무효
스마트
연애
검색
슬롯
잖
실드
만든
##시코
마스
감시
##타로
레스
스카이
US
일제
블록
꼬리
헤이
법원
##스트라
동쪽
##특별
마리오
나루
경험치
구체
MS
고교
옛날
놓치
##보내
An
통상
총기
김정
##티나
범인
탱크
구속
베트남
라이더
진지
##모로
##버트
##ust
신분
대립
신규
장교
성과
은하
연락
국립
예외
쿠키
250
어깨
##주시
KT
강의
인근
##어도
입구
지도자
신성
다섯
차단
규칙
글자
##50
되찾
##니까
불편
대대
메카
마도
평타
프린
요정
언제나
바보
창조
박살
코인
마리아
안습
총선
유희
모바일
동작
토론
##도로
후기
##비전
##일리
여러모로
환상
아크
에드
189
거짓말
##디아
노출
기여
의료
##파이어
##브리
권총
세월
소총
접하
이래
##자키
이리
이득
농구
어택
일원
자이언
무료
신호
블레이드
202
서쪽
가시
##영상
이날
1992
부위
출처
정복
개혁
음성
미술
폭주
극단
잠수
##스턴
고생
띄우
92
헌터
##BO
##ore
##저히
간부
##톨릭
Ar
참전
반발
전직
교전
고용
투어
대체로
양산
일자
보석
고문
폴란드
대량
키리
연도
상점
83
글로
라이프
제법
호평
상상
제어
사마
길이
동영상
수영
정류장
랄
승격
전대
Te
##보드
출력
사양
합격
89
기습
잖아
휘두르
하고
터치
##FF
101
93
1993
공학
잉글랜드
반하
지휘관
북미
De
MAX
제작진
태우
기병
득표
윌리
중대
94
요괴
마루
합성
미디어
이랑
다이아
머신
환승
인증
링
법률
com
79
끼치
메인
적어도
##일드
탄약
조심
가량
박근
런던
회차
구출
요즘
탱커
##FC
파일럿
의혹
원소
re
매니
리얼
활성
사이드
동방
유령
포탑
하수인
알파
노멀
삼진
히데
침공
다면서
87
마이클
디지털
분기
이재
##란색
개정
서양
멋지
가톨릭
묘지
인공
의무
##우드
볼넷
훔치
이슬람
똑같이
네임
가속
결성
##one
예비
축제
대략
On
가게
블러
학자
패널
경고
레인저
계정
이시
##se
타케
이자
##ip
헌법
소화
전면
이내
아일랜드
##AC
AI
부부
스키
DJ
특화
##RE
익숙
용사
상호
##미야
나아가
##ᇀ이
같이
미츠
었었
갤럭
##ere
캐스
##먼트
스웨
##임스
문장
바이러스
메모리
슈트
도망가
루시
어지
워치
실리
근육
대항
커맨
불법
넘치
##PG
리메
BGM
MC
플레이오프
핸드
베스트
어둡
오가
플로
##오
SN
자매
유행
묻히
한방
개체
##ity
도발
냐며
들어서
##ath
김영
##창기
보안
쿠로
육성
##조리
예측
빛나
어린이
예고
트로
소닉
이즈
자금
갤럭시
##라이언
신기
총리
으니까
노르
검찰
취임
멕시코
형사
FIFA
터키
정면
려다
결론
사제
길드
##end
국방
웬만
차리
리스트
스톰
고백
1991
##끄럽
루타
파크
구멍
캐리
식사
움직임
불러
마구
일시
레이스
리치
세이브
호텔
곧바로
상업
앞두
감옥
이명
!!
##펙트
저장
여유
절망
제임스
찾아보
개방
부서
진심
##워크
투구
사이즈
구원
틀리
유대
볼트
초창기
플랫
##기
세르
THE
700
타마
플레
대가
FA
피부
너무나
와이
배차
##요시
##고리
박정
듯이
청소년
오랫
팀원
흥행
ㅕㅆ
강철
번개
바치
카타
착각
좌우
##특별시
전철
커플
##릭스
여지
1988
##구리
바위
파트너
발달
어떠
##레이터
세포
리메이크
MVP
소형
##로나
아끼
처벌
그동안
스미
서울특별시
떠오르
현역
다스
레이드
아기
신설
긍정
아빠
주식
융합
##데스
##네스
주간
원자
망치
외계
분량
차라리
프라이
정착
Ro
위장
물러나
미카
##OT
인정받
돼지
반사
챕터
카스
합의
##디언
식민
랭킹
내성
##성기
목격
인연
누적
커지
협박
전문가
내장
장악
단장
게스트
의뢰
화학
빌드
보고
CC
방지
에서부터
포스트
클리
야스
브레이크
잡지
박근혜
Wh
해병
영향력
공지
논리
대리
방출
안드로이드
동의
태그
국왕
사우
방사
는다면
AK
시즈
깨지
타이거
먹히
조약
고지
포트
각자
그대
몰아
떠올리
요코
배트
한번
괴롭히
관할
저녁
지능
##ect
DLC
골든
국군
하필
칭하
htt
라면서
대폭
Se
1970
의존
##스키
최소한
양쪽
으려고
손가락
호주
토르
Le
악역
마침내
루이
스턴
##지마
동화
홀로
연맹
과목
변호사
대지
어다
실버
공무원
유치
'.
후속작
막차
기구
수련
본작
그럼
무역
섞이
수수
He
면역
소지
보관
소원
오랫동안
무덤
PD
##age
오사카
웹툰
주말
역임
##IS
귀신
오카
육체
연인
##밀리
크라
기원전
al
혐의
스튜디오
해리
내구
명중률
확대
재산
카오스
접촉
호감
어쨌
불교
다가오
적대
##구치
네트
kt
##잡이
노부
대처
명성
써먹
강남
스틸
태평
계단
올해
전후
비행기
Go
연료
예능
정비
Me
출마
통치
테일
간혹
슈팅
##페인
팔리
오늘날
합체
트레이드
피스
로즈
모모
예쁘
정치인
부장
컬러
마키
정원
퀄리티
흐름
개성
ᆫ다며
소장
블리
리드
시마
안내
놀랍
학부
이지
오전
게시판
소스
GT
놓이
##다이
준수
휴대
접속
더라
저그
수익
권리
##베르
1989
떨어
##라드
KIA
권한
원수
특집
패하
연극
하우스
##og
외형
금융
##ake
##ide
필리
##어나오
박물
코미
선전
화제
김태
새벽
허리
윌리엄
상당수
##OM
Be
피격
이집
##구
My
초간
이집트
주기
WW
무렵
따라가
공공
담기
환영
편곡
페이즈
##바라
일기
130
최다
금속
포르투
갇히
꼽히
알아보
##려주
나치
AR
둘째
메르
고구
원칙
##ss
카미
결합
SC
##ark
##티아
누나
##ime
깨닫
연타
##ire
알렉산
할아버지
치우
SM
편입
식당
시계
굴리
유물
개입
문재
캠퍼스
한동안
기도
인조
매직
어른
##세스
지진
거인
188
전신
으러
소중
아니면
극복
wh
116
블로그
전진
시선
까다
성립
영문
주사
my
Su
##ES
정찰
은근히
정글
헤비
회상
아바
기사단
##프레
사도
SD
협상
ㅓ도
캐스팅
메뉴
궤도
스웨덴
##ID
그로
시내버스
팬덤
Tr
음원
는지라
대개
##닉스
작곡가
손해
##ite
익히
대충
튀어나오
##던가
독특
재단
수십
동굴
##다랗
우위
더더
별다르
##아시아
복무
무겁
고수
안티
민주주의
용기
식량
##부르크
털리
트럭
160
교차
리아
종목
이익
해안
##회사
처형
##ound
조언
일찍
멀쩡
트랜
SR
아이스
클래식
과제
리듬
이끄
세이버
위상
##iv
원본
더더욱
##가시
HD
''
펀치
커맨드
신비
커스
##리그
김민
빼앗기
타인
박물관
까다롭
트윈
##가미
애플
##iz
##OP
삼국지
##쳐지
훗날
##ge
증언
해적
멘탈
천재
날짜
허나
절대로
적군
IC
자국
갈수
일격
살아가
마비
신앙
위원장
구사
##가리
신부
##큐어
##OW
갈수록
구나
노인
재미있
각본
무릎
코우
중독
하얗
느라
기적
재정
죄다
바리
세종
주포
집행
양성
##무르
스승
철학
하락
우라
참석
놀이
지위
##바르
마이너
캠페인
과연
비례
데모
유이
정수
개시
예산
결코
모자라
국적
적응
패션
교류
관중
호위
작화
크리스마스
한참
탄창
매체
이브
이중
##덩이
##LL
열쇠
안경
히메
##ome
하야
활발
시아
경기력
Gr
내세우
원주
선출
투명
십자
##테르
해상
with
바퀴
우연히
김종
루수
체크
##BA
희귀
명단
비추
녹색
충성
##UN
화성
클레
##마디
진보
미안
스타크래프트
드레
데려오
이영
칭찬
개수
사막
개막
첫차
주일
로그
결말
##아웃
IS
##미니
위대
행적
으라
##지로
전성기
##몬드
제정
당일
의대
모래
기르
인지도
흔적
칼리
1987
상급
기종
챌린
흔들리
후방
업적
오스트리아
de
미터
강점
BE
px
임대
상성
140
농담
어지간
김동
웃음
포로
호수
계통
겟
사유
도우
보라
##MA
Pr
버스터
재현
대학원
취미
면적
무작
새기
매년
##ord
스프링
어쨌든
Love
비상
오직
토끼
어려움
체육관
클릭
심사
##ud
일반인
포항
고스트
개량
사후
신장
거점
프리큐어
생존자
유적
이정
남북
어마
강도
기아
자책
과장
니코
새끼
ch
본체
으시
모조리
##양함
자본
대수
괴수
자극
##려나
예수
이주
가을
##mp
부지
파츠
##사자
화물
##데미
울리
사라
##10
로우
부작
맥스
저작
전멸
##ame
기용
소위
UE
선고
##ance
아메리카
캡틴
연금
추구
기울
아티스트
SKT
##ax
##카드
미라
구리
인격
자세히
에리
an
##치기
가짜
출입
행하
판매량
JR
공세
##ure
아카데미
유나이
유니폼
불타
##ix
흥미
900
일치
차기
GS
승점
채택
어스
시달리
포격
##코드
공룡
일방
단편
유나이티
취향
무지
##ick
소송
##mer
스마트폰
도주
덧붙이
포드
탈퇴
메리
카트
##이즈
코코
일본인
##ice
막대
사형
연패
기량
색깔
타율
피아노
스트리
바깥
몽골
귀찮
##our
제작자
잘리
한마디
Bo
유통
건조
노벨
코리아
상실
아즈
타선
화장실
할머니
드라이브
런
구경
후계
생겨나
영구
치유
집어
마린
라이온
측정
EP
식민지
비주
내지
미루
요금
##시로
아미
자전
보존
1986
거듭
로고
날아오
다름
##공화국
선택지
쌍둥이
어드
무라
잠재
1960
아이콘
##이너
OST
상인
무방
커피
##비드
빨갛
사신
강요
레이더
##랭크
메시지
##코토
인민공화국
KO
##{{
Un
간신
언스
이민
##고속
이슈
통산
가요
동력
가상
박히
##랑이
Ex
포수
신사
넥센
도끼
조연
색상
피터
다치
데드
캐논
##AD
명확
오타
몰락
연승
##qu
주택
화재
사원
여객
ᆫᄃ
##멘트
루카
교장
네트워크
그러니
주소
타락
곡명
귀환
##oc
가루
냄새
브루
안타깝
{{{
외전
즐겁
초보
콜라보
##반도
유희왕
터뜨리
제갈
실망
판결
##80
구르
##시스트
아서
칭호
모토
등지
GB
##카리
대선
찾아내
경로
레알
수장
UEFA
항공기
이터
스페이스
광역시
슈
남녀
위반
깔끔
매니저
거미
비치
포르투갈
DS
고구려
타수
연합군
186
##own
sh
##ys
아케
반동
##나카
아마도
라인업
순환
CPU
##노우
혐오
교실
영주
##럼프
그만두
베네
소라
법인
항복
ᄇ시
백성
##라노
래
##라이트
너희
관찰
복지
##든가
타운
잠수함
미스터
##ber
단단
비서
주역
주자
적합
캠프
스터
배터리
매장
수류
We
관람
익스
AM
커다랗
예시
유효
강원도
커리어
드래프트
싱크
흘러
##저스
히어로즈
끊기
105
공성
카츠
공업
##av
아쿠
둘러싸
##OC
흑인
인치
하단
고도
유학
벌레
트라이
이스라
승객
##old
예언
용량
김재
##정부
동성
.."
고작
본사
##로디
##시타
상단
승률
##일보
국경
추억
소프트웨어
CF
면모
천만
마약
포위
휴식
서구
티켓
관측
LI
철수
수출
일대
그러니까
##orld
도적
곤란
중립
자폭
카운트
생략
스텔
구글
개국
표지
적당히
수류탄
터널
상술
변환
음모
조별
클랜
인디
마드리
기생
좌석
허가
합병
다름없
추종
형상
##위대
고맙
소대
대인
시그
사이버
실전
오크
히나
치루
정기
후술
아랍
##가스
김대
문구
내전
마드리드
통계
1984
디스크
더럽
보험
인종
차이점
메달
마디
##ont
1985
글로벌
연예인
최신
근본
복구
##려들
지경
언더
액티브
입지
사명
187
서포터
증오
SH
지뢰
후손
이스라엘
스트라이크
후배
아시안
용서
에르
구석
담배
성남
##데이
3000
사정거리
위성
일족
시너지
타로
크리스탈
떨어뜨리
AD
##ies
허락
LC
기숙
고위
DF
급격
그랜드
자막
즉위
리타
숙련
##머스
함수
논의
부각
전주
하차
고개
텔레비전
구슬
공방
lo
꾸미
KBO
행보
오라
어뢰
미묘
경주
##팩트
토벌
시노
쓸모
감각
모니
발행
해피
데려가
아츠
모노
들키
언덕
서식
It
왕위
마그
##lay
연령
특전
네요
튕기
XX
준우
중첩
태평양
부딪
취약
가만
뜬금
후원
오랜만
제약
쿼터
블러드
루나
베리
노동자
무척
침략
저렴
정화
간신히
##자드
총알
기관총
##OD
침입
##하면
눈치채
세븐
노스
MF
드롭
간접
일본군
생년
오마
##US
아르헨
방어구
##블린
제트
워커
흡혈
분쟁
법정
입대
##어마
알아내
헬기
파르
학습
혹시
균형
드럼
맛있
가동
찍히
아테
전이
CV
사귀
진압
강자
##프리
카카
산하
WWE
.....
##PM
아르헨티나
##ann
잡아먹
곳곳
레슬
찬스
공용
텍스트
소방
평생
머무르
여우
조이
분열
스리
NE
아이언
SE
어마어마
주차
모시
비스
자이언츠
관점
##40
중세
네오
신전
동인
약화
악당
금방
정차
나리
125
##pe
깨어나
플라이
이토
잡아내
거울
##30
우르
트랜스
애정
부적
페널
결심
지리
이수
경상북도
딜링
라기
반전
##말리
제작사
나폴
격추
내보내
제출
상기
##네임
성당
앨리스
##sh
연고
보호막
your
니콜
이혼
되돌리
통화
양자
크림
스팀
이란
던지
토너
표면
호흡
##NA
폐쇄
##배우
사령부
금액
아저
##마크
결전
큐브
구축함
엘리트
미즈
아저씨
간주
코르
히토
악화
저택
보완
뮤지컬
창원
구름
이식
세인트
얻어
인권
뽑히
충실
##VD
채팅
스크린
헤어지
CJ
김현
불사
선거구
착하
AS
용인
상관없
라면
##란
참모
전파
초록
열매
##나미
부자
주둔
지불
DE
발리
인용
하루카
유력
##은행
암시
대왕
천안
##ng
##키아
##io
낚시
긴장
정예
교과
분해
물리치
묘하
##천시
해치
##베이
빠져
토니
프란
동양
유발
문재인
소
서서
보건
존재감
성별
공정
경남
체결
남아
시인
배포
학력
상세
소유자
낮추
지라
엮이
수석
##거지
우에
후계자
;&
악기
언젠
언젠가
답변
드라이버
마주치
걸어
에요
짜증
##리나
상영
##oo
토너먼트
원리
수호자
재밌
도둑
전승
엑스트라
바이오
악명
안기
행운
로버트
개설
##라기
호기
170
이듬
도박
Pro
구미
본관
뜨겁
천하
업로드
잔뜩
미쿠
도라
기인
선두
은신
견디
기숙사
##싱턴
##월일
##ave
뱀파이어
양식
실종
쏟아지
교도
중량
에다가
지팡
루비
##포트
릴리
요인
백인
##걸이
로리
탐험
정황
##LE
부임
임신
난입
중력
아동
처분
대책
임금
동점
비아
LV
관리자
캐스터
디지몬
미키
심심
##번트
건드리
만남
방송국
that
논문
야생
칼날
UP
항의
테라
관계자
헨리
미네
생년월일
해명
백작
시카
유독
탄환
##센트
분명히
베타
호칭
##우마
복합
도루
서번트
카와
##스럽
금메달
말투
윈도우
##ION
동명
생명체
진주
문단
이라
발렌
##ream
와일드
할인
법칙
수백
가방
다이아몬드
려던
콜로
ED
1500
단축
자녀
절차
정통
루이스
잃어버리
EN
다니
해골
분신
외계인
무관
영광
기상
보드
운동장
하향
이드
온도
지치
시합
조리
라틴
이듬해
브레
주술
분대
프로필
인력
리뷰
##리스트
##ond
창고
1982
치즈
->
딜레이
부스터
##펴보
살펴보
이온
니스
그르
끔찍
광장
##어하
로얄
기름
플래시
##게임
##iss
Com
5000
왠지
사살
의학
기둥
크레
창설
그린
뛰어넘
전동
건국
성질
울프
전북
마블
한쪽
유인
막내
공허
엔젤
체험
레딧
장인
부드
##에르
퇴장
그렇지만
물고기
부사
유격
존경
민첩
집착
##태우
우정
##운서
삽입
디젤
##군다
아나운서
걸맞
웨스트
상식
##래
참가자
아키라
승자
1950
##도르
공산당
##플레이
##IP
##11
깔리
창단
요약
블라
휘말리
시상
감지
시원
작년
진학
모터
시공
그램
가라
증상
전제
독재
##카이
수면
감추
1983
하츠
의장
불펜
##60
학기
샌드
출구
복제
##ian
??
by
##비치
##소녀
아틀
부드럽
오디션
he
두르
싫어하
나츠
유산
##커스
께서
비전
철저
선제
덩치
발굴
가공
시라
BL
하이퍼
헤어
단원
스위스
투스
유전자
스폰
&#
반박
##유럽
go
##갈리
그럭
레지
트럼프
여주
항구
타석
리스크
코트
미만
##세대
돌입
##저럭
웃기
안녕
갑작
중형
스쿨
사인
콘텐츠
스위치
펼쳐지
##티스
비주얼
다카
그럭저럭
사법
주니어
##쟁이
노바
기운
##Hz
통로
준우승
배정
##TV
수명
백제
마스크
사용자
대거
어필
출격
휘하
기재
상륙
라이플
논쟁
웨이브
정교
이펙트
본진
단행
자전거
##투스
가죽
배트맨
보충
토마
##베스
##ory
신도
깨달
트리플
훈장
##필드
호소
##TE
시리아
##우리
식품
회담
스트레스
격차
국장
축복
속이
인질
##ace
##rom
코미디
시트
##크라
Co
##세서
실책
##틀러
스펠
근대
완결
위안
Bl
옹호
학문
파편
##카이도
태국
케인
평양
##누스
공화
카를
지사
처지
싸이
유기
마우스
;&#
경전
공립
갈아
루스
워싱턴
팬텀
이글
부근
마케
적중
DVD
##필더
승인
미드필더
Br
원문
오키
토지
침묵
소음
피우
메이드
디즈
슬로
##부로
기갑
기동성
경직
소요
플래그
와타
Or
##무시
##게이
중국어
세부
커녕
빅토
##oth
두들
근거리
트롤
조기
축하
치킨
배출
##ows
내각
막판
결투
경상남도
신나
##시오
보이스
복선
##산시
시신
오염
솔직
파동
방위
##MP
연습생
마감
부실
남매
동계
리카
수능
내일
삼각
간단히
그레
차체
과학자
급하
##아다니
후퇴
동급
테츠
##그리
기후
고객
임기
날카
##TS
고리
밀어
센스
넘버
슬라이
우세
##키지
헝가리
##먼스
무작위
수급
망가지
왜곡
무인
상담
학위
손상
##화점
##신교
국정
한반도
괜히
지향
규격
##IG
영지
장거리
노조
바쁘
리오
야수
##셔널
CG
약탈
마법소녀
일당
##다보
중시
기세
철거
하마
##주교
무사히
##경기
##aw
끼우
선행
185
##하마
토크
요한
유성
날카롭
##텐도
닌텐도
패키지
스즈
##타이
최상위
장탄
멜로디
과도
##포르
미나미
야구장
간간
신발
엔드
##군다나
양상
록맨
대포
성전
##ale
SNS
출루
즈음
프리미엄
지칭
질리
타쿠
그날
변수
개발자
PV
킬러
스트리트
핑크
주류
##ike
대치
독일군
개별
페이스북
후자
에서
안개
무산
##하시
##틀랜드
특별히
더군다나
여러분
영원히
뭉치
임팩트
전망
사키
초인
1945
입주
물체
Cl
챌린지
집권
##에이
업계
바디
농업
For
무시무시
데이비드
군수
리프
부착
원조
흰색
브로
동남
##키퍼
##야수
암살자
장사
첼시
매번
RPG
나미
왜냐
청주
만주
중복
##OU
브라운
계시
##자와
Dr
질병
##지만
손실
야마토
최적
악몽
##바닥
서서히
필리핀
##ep
선조
피트
취득
##irl
##man
폭행
##우치
동아리
##ach
##ile
175
##든지
동경
수비력
1981
슬프
Sc
인방
BB
호랑이
##여객
골키퍼
OP
서클
벨트
부동
올스타
해양
여인
구별
102
##공항
호시
잠입
117
지팡이
헤르
놀리
어이
진격
인피
나르
파생
##12
고장
Team
106
며칠
배역
끌려가
교토
##VA
LA
물량
해킹
##철도
##ink
플러스
Sk
선임
일람
제독
##아이
상한
퍼포
의외로
사회주의
Mo
체인지
퍼포먼스
ᆯ게
감싸
페널티
직장
GP
합계
권위
중장
가만히
국당
기호
레코드
모로
공수
청와
DD
##데드
마물
무술
115
ᄇ시오
##아키
응용
시크
메이커
김경
해내
##어놓
세팅
사립
오이
데이트
여야
코난
원형
이웃
평점
라그
이종
##플렉
약물
가디언
기동전
주행
귀국
언데드
신입
최우
연산
##ial
FM
##승부
청와대
건네
밀도
투쟁
##토스
##메이
개장
##런트
##ish
엘리자
국어
장로
당대
에릭
SU
파란색
1979
서기
마다
레일
냐면
후임
나비
여전
에디
긴급
집합
UN
만만
배달
##래시
이와
징역
챔피언십
억지로
스파이더
프로토
비틀
포즈
오스만
트릭
선사
합리
옵
쇼핑
개신교
권장
분포
뽑아내
히가시
트루
장신
김상
기장
행방
폴리
추방
택시
##ower
저하
천연
다가가
공백
감동
회색
##네시아
안양
전무
프레이
해산
일화
궁금
프리미어
연구원
독점
증폭
신자
수동
즉사
모스크
확산
명의
##II
관여
야간
주관
더러
Bla
면허
교단
여학생
공인
방치
스캔
재회
임의
모집
폐기
듀오
##하르트
빌딩
유미
##오루
대단히
조상
잠들
혼돈
만일
명백
뱅크
김진
##GE
전남
썬더
##숭이
라이너
##운동
코멘트
감상
노
아레나
캘리
##버그
바둑
이란
성경
렌즈
버섯
사무소
##크로
택하
CH
매출
분당
we
캐치
고블린
피닉스
끊임
발목
돌연
BS
##IM
출간
조명
타이거즈
처참
Ne
추리
##!!
불량
Star
장미
부서지
광산
깜짝
오메
광선
박지
로빈
##프리카
승무원
사리
김기
자비
##레일
전라남도
모듈
구성원
포켓몬스터
비웃
##벌레
무스
상관없이
복원
뚫리
PR
해머
우월
고소
실장
ID
우주선
고로
질투
목사
뒤지
되게
스타디
통틀
평일
하인
계수
만지
간호
기쁘
지연
와카
##번에
배급
##히코
##쿠라
드루
Wind
미국인
버드
수색
우드
ᆫ데다
화산
350
라이온즈
유출
대조
벌리
난사
협정
##99
유언
두
파이트
수립
탐정
엄격
시외
조롱
up
스탠드
풍부
##전자
운수
서포트
##나오
LP
재학
파멸
심의
DC
히라
골렘
한두
우익
##카락
국무
메이플
산맥
War
머리카락
fe
체감
And
정발
스텝
우유
의자
검술
온천
##체스터
도저히
##ass
바스
쿠라
당사자
##가드
청구
치열
나기
모험가
센트
합동
육상
토미
포장
국제공항
뒤늦
사이코
##ms
반부
키타
##me
루크
젤리
##타카
360
Man
소용
실내
이라크
오로지
다운로드
에픽
본토
112
마코토
축소
토시
기력
권유
제네
특급
조용히
극도
규제
디즈니
승진
배수
##gh
##블로
따뜻
티
우치
##CG
낙하
##렐라
루머
비명
아쉬
마냥
108
##도리
##릴라
All
베를
라라
묶이
나마
거스
자꾸
러시
AKB
나노
티아
##tle
하계
##pp
사이클
##ble
##amp
충청남도
반감
범죄자
지인
바르셀
루피
오락
파울
출범
바르셀로나
디바
비유
우즈
##ft
여섯
지목
수직
시바
베이징
시사
알라
안쪽
토큰
중지
단종
오우
일요일
프렌
103
수월
경북
세금
탐지
폭파
스테이
황후
능력자
전당
붙잡히
협의
꼬이
리즈
어시스트
##yle
스타디움
서머
##70
기리
실은
페리
이글스
여파
##ous
물품
중순
직선
막아내
##려받
세리
실현
배제
조우
##슬라
스태
모임
##now
##atch
베테
신학
##sp
넘어지
리버풀
카구
##페라
불행
분산
세라
부딪히
당당
조커
One
넘어서
타르
아가씨
Mar
##orm
수염
생전
손자
드림
김해
평론
얻어맞
캐시
토키
유의
신용
나스
New
To
ON
명문
거북
기묘
드론
추세
바론
여고
무승부
조르
ex
막상
체중
낙선
##스티벌
나루토
진상
페스티벌
수비수
IN
경악
##란히
던가
살아나
토요일
BR
로이
##사이
##민주
천문
까이
Part
맥주
스미스
수습
태풍
가난
더빙
채보
KR
기수
두렵
연봉
함락
마카
김용
Gam
강등
비극
센서
강사
되살
SF
주최
후회
패전
힙합
이나
##저리
##ING
대성
극히
집어넣
잠실
리온
산탄
고속도로
CS
좌절
ᆫ다거나
엄밀
국판
듀스
명목
배려
동반
배드
타일
훼손
스핀
인접
유망
대시
노가
실시간
개척
힐러
코마
철권
##ment
리가
기부
PP
##방송
에반
사무실
##ae
빨간
반짝
케이블
##64
주체
하여
128
원시
스티븐
압력
모스
상반
고증
장탄수
쇼크
스테이션
##불명
유재
나요
혜택
스와
투척
도장
신속
포탄
닉네임
꼬마
도리
인자
바지
##ase
혈액
쳐들
호남
중화민국
##사기
농장
마땅
아이러
각지
##ree
장성
이타
샤이
초콜
되돌
재개
##사리
조카
역습
다투
주교
걸즈
고시
음료
##리
모
휴가
유니크
벤치
히틀러
반도
엑시
암호
구조물
달려가
구장
날씨
샷건
##구장
때려
변동
번지
총장
En
캘리포
시로
네티
확장팩
퍼즐
##노리
제갈량
그라운드
에로
시상식
짐작
하프
1978
질서
1973
ᄇ니까
근원
레온
믹스
JT
함부로
트로피
해병대
동해
기뻐
기뻐하
어쩌면
야쿠
184
로맨
사퇴
거론
오브젝트
##az
여의
##bo
대행
캘리포니아
보라색
슬라
제치
시비
소니
찬성
라즈
##브라
갈색
첫째
짐승
AN
상사
가담
깊이
##블리
##러그
각오
인재
사로
World
##ason
양손
구동
##AY
111
그랑
##케이션
쿠데
220
여럿
안심
호불
##iki
호불호
퇴각
##베리
무용
백화점
최저
혁신
거칠
공감
183
강림
키보드
정반
##돌이
##리온
결제
##키스탄
알바
베기
감수
지수
JP
##저기
오더
포스터
##느리
사야
돌보
동서
프린세스
말기
트레이너
진급
마계
전날
계층
베어스
고무
네티즌
알렉스
원더
동아
##ear
So
경호
중동
빨간색
거든
대령
특별시
동행
산타
흡사
##hen
후반기
라크
빠져나가
장례
셔틀
노란색
여기저기
갤러
중부
장난감
마오
240
평하
흔들
사관
막강
타이탄
리처
##MS
뜬금없이
신선
당기
sp
수지
세뇌
핀란드
학생회
가두
피로
##are
포획
드레스
견해
밀어내
클린
려다가
FW
베를린
탐색
두들기
차갑
보좌
인과
유혹
GO
깎이
매주
선수단
날뛰
양반
ᆯ려
교복
패밀리
유입
봉쇄
국도
영감
우호
강렬
원곡
스코틀랜드
연쇄
뮌헨
상주
입자
##직자
페어
케이드
선진
##우트
1974
##차기
돋보이
방송사
무공
##기에
문화재
마일
프랑스어
생체
끌리
재건
tv
클론
우측
박쥐
소재지
트라우마
도어
역명
점유
운송
##냥
토대
마냥
콤비
##스카
##루미
방탄
요미
경찰서
아이러니
드로우
아베
위로
왕실
결계
김준
서바이
잭슨
후미
박살나
약자
와인
신중
공격수
무실
결혼식
세로
비스트
http
수여
##하나
침대
지부
1972
연금술
알레
복사
##90
##ven
래퍼
트윈스
##ife
포터
##아치
관료
제물
화폐
도덕
전락
집회
통칭
바나
윈드
https
##싸움
로이드
완공
튼튼
트랩
토하
##ade
허무
장판
순양함
프라임
엔지
리안
밀려나
##AP
Wi
취업
##베이터
역량
스즈키
선장
콘솔
소금
##박스
폭스
탐사
덴마크
세자
영양
출혈
##렉션
강경
우회
쓸데
빈도
나아지
##act
##데레
도감
MB
하스
글씨
~!
도트
홀드
##ai
대타
일곱
##ank
아바타
##깨비
##gin
연설
억제
이순
간섭
여단
%/
관통력
상무
공대
낭비
do
단행본
##aby
루프
히든
홀리
부작용
노무
메이지
모형
신데
창문
104
영화제
오노
청나라
라니
승차
##out
전동차
인도네시아
책임지
소통
법무
Fate
no
트레일러
전격
침투
성씨
술사
재직
태클
오지
워크래프트
페미니
손꼽
넘어오
디시
당초
매니아
한창
블로
다큐
1975
커스텀
쿠데타
##지르
마트
되
마피아
##lect
시카고
신데렐라
실상
히로시
LIVE
간간히
부재
형편
백업
제재
파밍
123
설령
손오
출산
성실
스탈
##므로
손쉽
깃발
끊임없이
범용
##ET
##에른
하하
##토니
공산주의
장애물
스나이
을수록
경연
마라
강간
김일
스트라이커
##oll
NH
벨기에
우승자
끌어들이
전향
소득
비비
스타리그
시호
미미
검증
조종사
##UM
##모스
##른바
할리
토요
중점
Up
이른바
품질
왕비
OS
여타
카자
1976
라스트
소나
are
근접전
말레이
변이
항해
외곽
III
##ork
딸리
워크
##천군
다스리
스피릿
파도
강릉
성분
최선
원주민
이스트
정석
마산
사악
##더라
대접
사사
혈통
섀도우
모니터
##추어
그러므로
발명
따라오
판사
유료
##바야
Do
단기
##ary
이어받
하급
구상
특공
선박
리코
리모
카더라
Oh
제왕
공통점
왜냐하면
검열
광물
하반
##way
티스
전생
왼손
끌어올리
##루션
동전
입문
119
브라이언
키라
유연
트리거
천천
포도
##바지
중상
메일
맞붙
명분
올드
탄핵
##ey
마틴
##ich
명사
공헌
고종
스플
장남
원장
전송
사로잡
##께끼
135
수수께끼
급행
소모량
중심지
단검
109
##슈타인
##모함
초콜릿
중고
박정희
바이에른
초상
우울
코스튬
미지
지선
##저우
중기
##타입
ES
중위
확신
대변
김수
##미터
올바르
Mk
공단
입증
으려는
베테랑
일체
한나라
모스크바
잔인
##으로
##능력
한나라당
관우
##키리
엘리베이터
검토
오페라
시모
수인
Ad
잉여
예약
자네
시온
단발
조국
부패
질주
친절
불태우
손오공
대법
아이디어
lv
땅볼
부유
대동
히스
꿈꾸
부시
##벤처
교리
all
##동자
Day
어드벤처
씌우
시게
##니시
존스
강호
발판
보스턴
비기
성배
아스카
터스
유망주
천황
케빈
로보
콘스탄
AFC
시외버스
곡인
스태프
도쿠
부속
이병
##다운
천천히
nd
체코
버스트
다지
압축
충족
학사
##pt
고는
182
##orn
과자
카카오
흩어지
메리트
이현
니혼
비리
고스
카시
굴욕
##페이
구독
무제
도깨비
##스레
에이지
앤드
그릇
갑작스럽
쓰리
##하루
프로게이
프로게이머
##르타
분할
동정
손님
크레이
오메가
강전
화상
군부
연수
자제
나폴레
루마
토마스
##라미
친분
플랜
어색
후일
대박
라이언
지붕
민중
위엄
싱가
싱가포르
항공모함
디자이너
기하
평등
##가루
121
홋카이도
치카
미궁
레이디
나폴레옹
마운
지력
##레일리아
삼성전자
라그나
1971
일관
노르웨이
머니
Windows
고고
까지
저자
레이블
##의자
메트로
##어드
##네마
왕복
박살내
와이번
달아나
FF
테이블
폭격기
스택
너머
발레
머물
리라
동구
145
사촌
107
렉스
맹세
디펜
이모
망명
##테이션
바이올
극대
="
이경
현금
RA
기울이
열정
찰스
이틀
엑시즈
스케일
광기
합작
1977
점검
강점기
진에
대전차
##ah
김포
엔트리
퍼스트
##EM
터트리
그립
하이라이트
카리스
여포
질량
유탄
쫓겨나
창립
DP
변태
리틀
종결
할로
원숭이
##사스
촉수
후드
으라고
##쿠스
하사
##군가
작위
마타
에버
ML
고집
사체
AA
##very
신동
자율
리퍼
블레이
##uck
화해
마술사
일가
보고서
저기
재배
존중
누군가
조화
츠카
본질
그레이트
독일어
##리스타
표절
무지막
사족
무지막지
##마치
오렌
챔프
총합
외우
원전
ne
크라이
여서
잊히
천장
선교
이대로
IT
공신
평행
엔지니어
보르
기차
br
석유
부스
쥬
쳐들어
중거리
자존
감탄
브라더스
임진
전라북도
##ph
Sw
DPS
호크
자책점
면하
피카
##슬리
BPM
게이머
JTBC
소집
정사
지분
농민
진단
##마르
물자
210
지오
스포일러
메카닉
봉사
노무현
연간
해소
178
인칭
꺼리
##ero
란스
몸통
스가
1969
우루
다이스
떨치
과일
113
니아
스티브
유가
관장
리처드
".
대위
유격수
교과서
파랗
무실점
쿠스
교차로
##ool
로키
사수
타구
서적
동속
검정
노가다
165
##바나
오스트레일리아
광명
파스
브레이커
마유
시뮬
##군
김지
##아들
1968
하치
맨체스터
동대
러스
냉정
1963
데빌
주식회사
임하
철저히
##ical
저렇
총독
토트
불쌍
빙판
명시
출판사
시골
손꼽히
NBA
부원
프랜
힘입
이오
입사
필름
장타
주축
다니엘
##urn
부산광역시
가구
아깝
착륙
##퍼드
백만
##ype
Ph
병역
블리자드
오케
탄압
슬픔
실체
##ARD
부천
Con
##리안
말씀
에드워드
2021
윤리
모순
##구미
##anc
주사위
호의
##센스
스노우
매각
고아
광경
##우라
제니
지장
깨끗
유치원
터보
미오
매드
불능
프론
마인드
카리
스폰서
목걸이
{{{#
은지
어벤
부스트
##은색
김유
155
서열
레이어
완화
겸하
지혜
용산
Cr
마당
파운드
변장
##ung
참사
평론가
엄연히
줄기
유니버스
날아다니
이라도
내버리
물어
멍청
OVA
사우스
김승
수천
울트라맨
답답
아드
명명
나나
문양
하나하나
보편
개명
122
Qu
우타
서류
트윗
납득
상금
미러
아아
초청
워프
##항공
배구
모델링
씨앗
외국어
평상
##테일
미르
Station
181
까마
레인지
프로그래
제리
##업자
압권
TVA
뚜렷
이노
감자
치안
열혈
가설
144
정문
중구
난무
친척
어나
진동
취재
닥치
엘레
집계
중원
엘리자베스
에미
박수
##소년
본능
수위
LO
발키리
향후
도마
##ww
절친
좌익
이케
KOF
재앙
철갑
마케팅
서명
자산
리나
주석
츠바
헷갈리
성명
디오
오죽
녹화
우연
고등학생
##끼리
##시피
도심
##iver
케이크
애칭
무늬
초능력
소생
작정
비우
어나더
at
패자
행진
서방
고사
강민
매트
국토
트래
카지
사연
사직
덤비
시조
페스
##DD
곤충
신하
테스
어이없
152
서울대
일렉
셔
시어
드래곤볼
용암
유아
골프
가이드
love
결의
아리아
로프
타츠
아마추어
경부
실용
액체
학대
실사
##폭탄
##ens
경사
국방부
정성
산소
발발
멋대로
자사
쿠니
표적
##리칸
전지
as
워터
편리
벙커
라마
트릴
좌측
유엔
카레
##ost
스카우트
아스트
민간인
도색
##이동
##어트
TR
자칭
##드러지
카네
다케
침몰
114
엄밀히
워즈
사투
주머니
마음대로
##워즈
##ence
일컫
1930
라이즈
wiki
몰살
거지
마하
박성
만점
인성
미성
롤러
##려워하
IM
변명
##nt
의정부
이대
##이나
직책
때로
##마루
자아
개교
초록색
망토
알아채
##변이
돌연변이
from
초점
항모
##드로
샤
##ise
옥상
습니까
이이
각도
신지
코토
각인
법사
##int
리본
##시스코
이진
기질
포크
모음
텍사스
플라스
이누
1920
개구리
원피스
템플
마모
아자
스컬
루리
아지
179
방학
##이치로
만능
고의
유스
이념
정밀
달려들
!"
발급
일리
##AK
##베트
죄책
통째
등극
학급
풍기
Super
브래
션
이원
포탈
매달리
에디션
적자
MG
Fr
격려
1940
이명박
BJ
can
이어서
##oy
##자치
용자
##지능
인공지능
##하여
동성애
조항
방심
아담
생김
포병
슈퍼맨
미인
혼인
정신력
이빨
www
##ign
발탁
적절히
CM
##떨어지
선동
비키
오렌지
엉망
관직
종영
인벤
극한
연전
협동
##ans
스타트
177
북아
휩쓸
마찰
안동
대역
어설
##타운
남동생
들여
기소
죄책감
소비자
##과이
튜버
추후
네이션
리사
호러
##ug
포착
최순
Dream
헬멧
펌프
풍선
정반대
부러지
##바이트
다거나
장벽
##바야시
이태
쿠마
아케이드
공속
감당
덮치
124
은폐
이윤
##전차
블럭
억울
1967
금강
##야스
선로
너스
저서
유진
갱신
고가
원로
반경
127
다시금
##말
USB
흘러가
마에
그해
아무튼
오른손
교역
협조
페어리
뛰어들
정점
오다
도약
용이
예의
아사히
부동산
아쿠아
신곡
해운
this
##IR
내기
유카
##나베
페르시아
스틱
1200
중국인
##코트
시오
분홍
지로
##vel
대차
쉴드
타치
450
잔혹
시타
고발
맞히
카운티
아이디
연동
왕족
기본기
사나
녹이
욕설
##철수
독립운동
##질랜드
컴백
ERA
##지사
##ode
민감
뉴질랜드
출동
교도소
초과
필립
크래프트
누스
절벽
선원
바쿠
##uk
##VER
##젤레스
수신
지역구
카마
비단
호드
부채
시크릿
제사
수감
무도
후쿠오카
사방
프레스
베스
침착
사무라이
서리
Fl
발각
방침
스토어
덩어리
Pl
후유
회관
청춘
우마
대세
팔라
뺏기
##말로
로렌
물려받
카테
보강
Ver
스로
대피
##역사
제의
CE
##나기
##생활
연이
이소
그러면
피오
구형
급격히
키미
아랫
##끔
게끔
EC
종전
철도역
진에어
디스플레이
EXP
연소
카리스마
재즈
##공사
style
내외
애완
함장
구로
측근
얽히
##민주당
발전소
##ᆸ시
방사능
도르
기스
##헤이
스쿼
코스프레
애인
실존
선포
아울
레나
##다드
유재석
히카
##ier
게르
신한
궁합
마야
퇴치
반성
판도
가마
강대
가위
현자
카쿠
리바
격렬
하이드
기법
분자
워리어
가오
Sch
예방
잔류
나인
##페이스
김구
Girl
당국
Season
두드러지
사물
인문
군요
미아
1962
##ash
징계
IP
오퍼
러쉬
박자
문신
##속기
왕가
ar
자이언트
근로
La
모빌
이놈
코노
DM
모욕
전담
약혼
화기
강타
NO
반역
162
이카
흡혈귀
유동
이단
정조
흑마
tr
사치
중견
118
종로
흥분
치
친애
화석
WC
시종
점심
쿠바
퀴즈
불러오
고립
제주도
벗기
패트
노아
기동력
##믹스
그루
분배
##reat
1966
##IX
아처
유우키
잠기
브론
돌려주
이용자
피자
명나라
위쪽
부가
헬리
카피
레이싱
로스트
단백
오니
황당
##ib
타이어
박진
경성
계곡
왕후
벌써
이행
##마리
314
##돌프
에도
자존심
학술
생김새
##치아
제노
스나이퍼
한하
탈환
태생
##usic
월간
저글
Max
##사랑
##보기
중소
피지컬
##크리
##탐정
관문
우두
실적
망설
모나
한양
750
##방울
1964
##틀리
머
건지
금요일
노랗
대검
고인
입시
그간
##ᆸ시고
안무
적시타
불길
##리얼
Vol
TS
뱅가드
##수리
숙소
라미
유고
DNA
그쪽
여태
정전
토트넘
내셔널
얼티
급속
스파이더맨
능가
Ed
아오이
천상
##}}
--
궁전
시범
중재
요격
호리
##ose
ld
할로윈
통솔
레아
남동
모종
성사
코파
스피어
대학생
##서스
중도
나이프
사슬
탈취
진술
갈라지
스타즈
이야
AV
존슨
부끄럽
에메
직위
섬기
한꺼
한꺼번에
까마귀
소소
입원
두려워하
##시대
괴인
과시
치이
나이츠
황태
amp
욕망
계절
불참
청하
Col
거세
혼합
##부키
야당
##te
so
생태
기껏
아비
학년도
항공사
GM
비자
저글링
점멸
HE
건너가
질환
##사르
미정
극심
다녀
오만
##ail
##msys
페르소
##ition
ldmsys
원판
간판
머스
그란
스탈린
천국
충청북도
스탭
일지
히드라
이별
우지
도대
테르
필사
얼리
과금
시시
마기
rd
Night
각국
##닐라
##티노
욕심
##구니
BC
차장
마르코
테리
상냥
토우
강인
나들
not
조립
레버
샘플
시안
회로
##키스
##당초
앨런
미녀
헤라
나들목
리버스
##워프
달려오
##IL
이사장
지루
김주
단자
스매
승패
지지율
요코하마
암컷
인텔
공국
##당기
##히토
##러브
##ild
##무지
하여금
168
김치
일일
김광
페르소나
오토바이
Let
수소
알렉산드
지크
물약
도미
스윙
마쓰
ᆯ래
병행
희생자
디아블로
오사
키요
학회
고이
하지
피난
단백질
상부
난민
스크롤
##ody
토라
돌려
데
바텀
만렙
테니스
등재
목욕
사탕
빙결
Black
들르
어원
펑크
159
##바리
일환
어서
코끼리
밀리언
신작
무녀
이승만
##세지
##파이
도배
퍼펙트
##와라
BD
칼라
평택
##클린
무신
춤추
말레이시아
라인하르트
부처
아마존
미노
일어
내밀
리자
인쇄
여주인
보로
해변
##진호
해역
아리스
오즈
파고
아인
신생
화신
금발
부친
환생
둥지
마도카
가해
직행
1948
mar
##ough
응답
해전
발사기
아메리칸
국기
아무렇
진흥
수라
엉덩이
AF
MM
챔스
절단
대니
1944
미소녀
세례
도대체
모의
무능
1965
성벽
OG
부제
히사
##33
삼키
##모습
명장
두껍
맛보
쿠르
유머
중공
프롤
일조
##앤젤레스
로스앤젤레스
##레아
퓨전
스텔스
섬멸
노부나가
석사
충남
방언
프랑크
간지
회계
불상
스쿼드
노릇
##멘터리
아카네
아포
주저
RE
섭취
아슬
울음
와이번스
수중
식스
수아
약체
필라
4000
눈앞
Op
##gr
데몬
일명
대국
안토니
스네
카일
스케이
좌파
전임
빅토리아
사임
동상
집필
고래
객관
출석
##aster
접수
##스크림
ㅔ요
빌보드
공교
외야수
##app
마을버스
그리스도
메디
##orts
##타리
평상시
목포
확립
벨라
비평
인피니티
선회
사이토
대안
##성군
그리핀
대승
연세대
두루
유메
##uc
보살
쿄코
베이비
사천
교향
드워프
애용
혼혈
1946
걸어가
##고속도로
십자군
아수
신관
##은이
워드
아니하
공동체
성지
이계
##시티
주공
PK
에코
다큐멘터리
주입
##렉터
루미
장본
해고
꺼지
알렉산더
무자
서울시
최상급
보우
컨디션
그랑프리
동북
위시
휴게
스카웃
김대중
이무
##CE
주파
제발
스기
##ject
en
편의점
껍질
스타워즈
평판
교대
##OO
EXT
몬
탄소
##티니
침해
..?
블라디
득표율
가령
##ari
단련
폭로
math
믿음
카게
비로
자력
컴뱃
전도
방안
아유
면제
수컷
##그라
사지
퍼시
##긋나
민폐
집사
le
휴대폰
AL
흑막
테이프
CR
독백
정답
아쉬움
크롬
라우
라비
솔저
히로시마
정서
숙청
섬광
아르바이트
EZ
두려움
리프트
대면
막부
소마
스모
뻔하
성대
##프란
리부
##각형
와타나베
구호
달콤
원한
라가
큐어
경제학
항성
원자력
감성
##iel
##트론
떠돌
우미
둥글
프랭크
단서
강동
냉장
지각
남학생
공명
##퍼니
관광객
##디스
홈경기
151
찬양
보복
유즈
격퇴
138
타우
Gu
하와
신념
신조
으려면
SA
##미르
던지라
가해자
배리
장본인
드라
티저
광복
남양
개업
사르
케리
320
하도
172
GSL
눈동자
은메달
로비
적이
##애나
점하
타카하시
샤를
권하
정우
휴먼
벡터
수성
##오피스
상시
무지개
남한
가이아
##TA
조수
김병
천주교
ATK
살아오
##ats
순천
##도전
##ye
지면
의의
강아지
어벤져
단역
보직
우기
EU
##eah
##바람
아폴
불화
동아시아
개막전
자루
주한
315
시네마
1961
##총장
사와
컬렉션
##부인
풍경
GD
서바이벌
일각
천지
걸음
배후
##은
##중간
얼티밋
투고
##운수
고난
트이
TOP
테레
Mag
오공
158
케
균열
동사
어기
대교
찔리
바닷
내정
그리하여
라이드
CL
표기법
상원
재질
도스
탁월
다녀오
깃털
흑역사
카사
손잡이
가왕
악행
캡슐
무한도전
통보
스칼
로크
마미
스톡
##이센
시련
추모
로맨스
AB
민병
NT
물리학
ver
리믹스
수확
흉내
스파크
동메달
카이저
내면
숭배
일산
루마니아
UC
매그
여수
##oh
치고
##eth
이순신
충고
표식
##ron
박스오피스
소꿉
이세
쿠사
슬라이드
동이
제대
독보
##성이
결과물
병살
금고
##ings
아이즈
주차장
마저
이호
김일성
유마
구제
##내리
청사
##메리카
사범
신상
제인
어판
쿠리
그레이드
건립
레이지
176
공로
##ᅳᆺ
컴퍼니
도요
방정
크라운
다저스
##맥스
삽질
will
간파
운반
지미
Is
ME
재수
예고편
보가
직무
##느님
병과
계략
저항력
테란
호응
발톱
타리
##inal
궁수
군데
심정
##==
126
김윤
마수
차림
신임
1949
오로치
정의당
주의자
Am
과격
대명
완벽히
하느님
자작
ᆯ라
기온
폴아웃
승려
상어
친일
우두머리
이점
10000
리볼
어그
보루
몸매
Don
테오
문법
감금
서원
타스
갈기
##ult
겨루
인플
크로우
라이트닝
무선
바이킹
응급
코로나
154
사망자
like
레시피
LE
패왕
세르비아
총사
쫓기
흉악
WH
방울
스치
맷집
{{{-
KB
뒤쪽
풀려나
Time
132
##총리
##MAN
주황
전법
총선거
법안
유해
드루이드
무비
자카
도사
웨폰
거꾸
김성근
표하
습하
##클리
레슬링
센트럴
아테나
new
##덕션
성폭
강서
성직자
멸종
##13
응시
##저래
##빨리
지배자
빗나가
이즈미
강습
천체
니트
저승
이래저래
반기
218
완성도
코프
이용객
테크닉
이리저리
르노
Mi
피드
##슬링
장신구
##GA
떨구
로열
코디
국민당
난리
##ov
취지
##oul
스콜
급식
충격파
트론
##18
상의
라이징
손목
선봉
리츠
##조합
엠블
이영호
안젤
탐구
유신
쥬얼
키노
당나라
노비
짝사랑
더미
지터
##ob
제너
##라이나
핑계
보트
태조
전염
무슬
리우스
야망
##나르
미남
과언
블랙홀
유능
후반전
어드밴
고조
##ould
이쿠
통틀어
으리
156
##보우
마가
..!
iOS
무궁
Ser
##친구
one
마마
164
##alk
버거
진하
리리
##처럼
마지
##tern
재벌
##레븐
##yn
카제
숙련도
139
나란히
배율
필두
##던지
렀다
##활약
놔두
ᆫ가요
유카리
이나마
##15
능하
몰려오
모에
시간대
미세
이인
##up
구청
153
매기
조던
네크로
하츠네
하우
교정
저격수
Gaming
먼지
플리
하나님
##레이크
##reak
반장
콜롬
감기
공격기
거꾸로
커플링
무슬림
양심
합법
초등학생
김두
나열
이광
##고사
##der
##able
GK
오키나
하드웨어
접전
##제스
ᆫ듯
유라
리터
엉뚱
전두
청장
성숙
누이
후면
지성
상공
세미
##라이언스
##바스
최하
148
어제
디비전
가히
Car
맞먹
##ions
비즈
허브
신주
인천광역시
연달
##사고
진도
탄막
범하
실업
##엘라
스케줄
표창
동등
얼라이언스
Your
타키
셋째
오바
단의
벌금
주유
##문화
롤
167
##널드
볼드
ᆫ단
고우
김선
장시
냉장고
스마일
쟁이
대등
호스
맞대
203
동지
북서
봉하
달인
배열
지표
몰아넣
애드
쫓아내
로제
황혼
프로덕션
어긋나
애국
데미
SSR
창작물
##백과
##주의자
##PA
무색
사료
1958
브라우
가나
1941
음향
174
오역
주술사
야마모토
승급
아수라
영화배우
##ull
휴스턴
도모
공모
무죄
갈구
꾸리
사야카
##프란시스코
샌프란시스코
전례
라틴어
종말
여주인공
se
유타
타당
##재기
노하
동년
시끄럽
이니
Min
설탕
법학
##전사
깨우
버블
번식
앞세우
무안
RO
##셉트
시뮬레이션
142
자키
##퀘어
통행
지지자
바이크
처녀
##상가
LTE
광범
레이븐
##차리
굳히
영등
문헌
사내
헤드샷
빈약
인명
##니코
염색
스페인어
쳐들어오
##타르
카인
주가
순간이동
##무네
163
혼동
런처
원화
과감
박탈
파이프
가라앉
한층
##기업
배상
수령
차일드
맹활약
토비
레인보우
득실
생각나
이오리
프로이센
##ube
##ECT
일련
러너
마스코트
꼴찌
1954
염두
우편
BGA
레바
리볼버
제자리
##아티아
졸업식
네스
크로아티아
강수
월요일
진로
드로
디
안보
##ll
전학
have
후쿠시마
사가
pr
태권
회견
맥락
제지
단식
찰나
황실
설마
out
레슨
절정
음력
오리온
밀레
수하
기관포
페미니즘
대목
연막
능숙
발현
대외
득표수
크리스토
장례식
상속
약칭
이만
카토
##ICE
##립트
##랄드
초상화
환호
카렌
단총
연고지
사소
NM
제프
복음
토론토
미트
##터스
##스티스
대군
파우
143
밀어붙이
137
##보라
대법원
공고
죄수
부호
##물리
앞면
##타니
당원
한강
무너
무너뜨리
소우
따내
너클
시흥
릴리스
방벽
공짜
쳐다보
##베르트
바나나
투사
창당
313
현직
노골
격하
혹평
Sum
무단
솔직히
망설이
평창
다지만
내뱉
한정판
##프라
소꿉친구
박종
사당
양국
빙의
북동
코레
차분
##바루
HS
외관
인체
ALL
플라스틱
오비
경찰청
가미
자포
테일즈
트러
두뇌
무식
CN
IV
추출
랜서
이력
##구나
##소수
1943
십자가
230
이준
앵커
전반기
알아차리
반란군
베어
오딘
아테네
뮤지션
태자
##대사
델타
북구
순찰
맹독
키드
남미
난투
오케스트라
프로스트
기술력
플레임
개미
고질
우산
157
관계없이
해상도
##모어
강탈
극악
오쿠
숙주
133
ᆯ까요
##FL
슬슬
공자
기이
미시
브레스
거스르
갈리아
몰아내
un
출제
146
팬티
##박이
129
극우
잔해
확고
구독자
##더슨
000000
폴리스
플레이버
1942
광범위
세키
별칭
지극
청룡
화약
##STER
비참
173
나카무라
카오루
BO
##트랙
워너
##결승
종사
설비
미쓰
진구
박명
발하
달래
치마
힌트
키즈
경선
채찍
리뉴
리셋
여장
기쁨
##천사
클리셰
원년
폐허
margin
실바
수영복
know
서치
카테고리
라시
오디오
연안
멘붕
전수
해태
호출
##무게
텔레포트
몸무게
바티
후대
팀장
##MAX
끓이
set
##무이
방화
##DX
나락
생물학
청원
칠레
##날두
OF
통증
호날두
공천
공습
기행
136
Play
체스
생애
BT
사나이
팩션
미하
테러리
파랑
바그
시초
##던지
##ica
정교회
CB
메테
##che
##소총
Of
서장
태종
##ock
히카루
번갈
포니
##생기
얼터
As
la
개판
미모
##풀이
우크라
망상
크리스티
증기
##YP
제조사
메세지
빈번
저조
Red
##회장
럭키
Type
BM
하의
##제국
양대
##14
불문
섹스
##산역
오른팔
시에
애쓰
줄리
브루스
일러스트레이터
하비
잠그
심화
조력
클라우드
149
다만
정준
바인
혼다
로지
라이센스
복도
캐슬
박영
우파
대패
친정
산탄총
##에몽
치바
##전설
교육청
유선
##스틴
때려잡
트랜스포
넓히
샤오
BA
포맷
오키나와
##ict
미끼
범주
##17
심야
134
1900
슬라임
1956
미숙
인터페이스
불쾌
미도리
맞물리
스트로
경지
해독
##지않
가의
야전
로라
스나
TP
입국
냉동
가혹
지주
목재
DI
라파
##ster
레슬러
신세계
진리
책상
공손
퍼센트
##ange
나사
##ater
대사관
EV
부흥
운항
가로막
거느리
깡패
진짜로
김천
##티넘
플래티넘
슈가
비꼬
왕관
High
태미
슬램
사일
오세
##ons
##권자
무수
##메라
로그인
열세
심히
자부
파손
파괴력
트레이닝
제이슨
장갑차
pro
중후
##레슬링
분쇄
교양
스매시
초래
개개
무명
자켓
feat
진형
요우
입법
TE
원망
프로그래밍
NEW
펭귄
미들
섹시
수시로
외면
페이크
프로레슬링
슬러그
재림
찰리
축구단
##왜란
악곡
임진왜란
증인
##ple
열기
중급
랜스
싱어
경질
인트
방정식
퇴역
쇼트
사천왕
전두환
스바루
지난
시집
모어
주고
##교통
%.
뒷면
연말
##니스트
147
스팅
공과
골목
비로소
Light
웨일
##차례
아래쪽
패스트
앞뒤
미식
박해
호프
자회사
리플렉
퓨처
상대식
심상
AE
생선
안철수
##주군
##무늬
폐선
280
세일러
배우자
##나리
실로
##세서리
엄폐
최정
2500
소령
제우스
헐크
나뭇
하지메
저스티스
드리블
오프라인
MO
수용소
선인
##티지
GHz
철갑탄
세츠
착지
##카미
##텍스
직통
메구미
Gen
아랑
##지오
관절
222
차관
마켓
토막
##to
CO
의아
격리
테일러
##에트
히나타
보디
##구역
편견
##토랑
고추
##니즘
실천
##의회
레스토랑
가브리
굴러
따라잡
~"
보잉
강세
애쉬
클러
수상자
1939
음색
불리우
##더기
김연
배속
브랜
##CC
개그맨
was
What
제단
소행
로브
꼼수
면접
템포
감행
레귤
프로세서
배신자
용의자
##산동
복용
Kor
거르
166
라든가
미호
립스
증권
고음
하시
##고래
원종
##베리아
##컨드
연기력
1959
물어보
지요
반론
도쿠가와
지문
##ics
1936
타고
프랜차
명탐정
세컨드
달라
동조
섬유
소설가
롤링
냉기
일삼
두목
##바다
##사관
신칸
준공
술집
탈당
하후
우물
재임
##녀
##ACK
화소
Heart
러닝
산화
##투아
레프
공영
Tw
종착
소노
스콧
조교
프랜차이즈
##les
케리건
내역
역학
LOVE
필터
웨인
oh
1955
GPU
삼촌
##레드
미스터리
##레이트
##ex
##사와
기피
병종
##BM
이아
트랜스포머
##데르
모함
골치
##어붙
어벤져스
퍼붓
체격
아이스크림
##모니
하카
투신
NHK
라임
##로프
AG
##ᅥ녀
##ᅥ녕
투성이
에그
반환
찌질
아이폰
성기
전광
위키백과
어린아이
Mr
파문
##니스탄
신칸센
책략
동문
루키
콘셉트
채취
토가
사모
기술자
Blo
동호
재활
둘러싸이
PL
하이브리
경보
속편
호무
영등포
참으로
이방
그제
야마다
물가
락
하이브리드
##lass
더구나
전열
가르침
시가
장학
##16
인구수
특훈
##테스
부도
냉각
응하
레귤러
자질
반군
FPS
틀어
MK
플루
##두리
깃들
##AND
다면
부당
준결승
##무실
방호
장편
TO
스트리밍
쫓아가
최대치
봉기
좌표
방송인
주되
서민
마의
안드로
##아슬
아슬아슬
말년
Par
윈터
보행
정형
##전트
소사
메우
##nder
##플러스
##규모
패드
인사이드
스크립트
로테이션
모던
1952
라바
상행
time
포식
뇌물
적립
수량
가와
닫히
악하
전반전
공존
범행
ll
330
되살리
내뿜
수도원
##교육
##더링
하반기
엣지
270
사슴
캔디
베일
카즈야
##ors
Fe
##볼루션
교통사고
얼어붙
패닉
노래방
도청
더하
도호
조그
##ME
접어들
##란트
표본
단과
죠죠
김도
LED
정계
카니
불가리아
경과
오타쿠
속력
유대인
몹시
서해
스텔라
담임
직속
중년
끝장
스윕
어미
카우
태극
순정
여배우
뚜껑
##드리히
버터
입양
에메랄드
매지
멋있
미수
발라드
교섭
테러리스트
구마
함성
파키스탄
출고
소매
1947
GTA
파격
동로
원고
##단지
저거
춘천
#!
솜씨
##대기
헤일
225
르네
평안
모양새
Good
우체
두근
##콥터
전속
거품
박상
심문
방공
직격
상쇄
스퀘어
영동
짤리
곡선
우상
재빨리
저희
무고
발간
현존
세스
Per
유지비
적색
초코
현황
서두르
메이트
다이노스
프리드리히
사투리
핸드폰
쓰러트리
멜론
영남
로저
순교
자각
##려보
광대
배리어
호구
단말
자칫
이에
산악
하행
##글라스
오락실
스파이크
##수수
시가지
프랑스군
카를로스
마초
신흥
월등
그랜
벚꽃
어워드
앤디
SL
am
##HT
마테
사탄
##파리
넉넉
성서
털어놓
석상
발렌타인
신병
라프
레즈
적재
260
급히
마신
##eep
격전
우천
1800
래스터
유나
바닐라
요미우리
유니콘
미유키
하리
갈라
MSL
타이완
더욱이
선우
구절
부관
1919
리바운드
홀딩
##무기
본의
클레이
호투
실력자
브이
휩싸
IIDX
몰아붙이
고산
호박
새우
트렌
부사관
공약
추궁
중학생
보리
호르
불신
아홉
##ott
받치
원내
즉각
프로모
심연
질풍
비타
간호사
야만
기함
상용
차용
핸들
Kn
쳐내
ab
정정
상장
신정
일례
0900
유니온
군림
남작
소실
징크스
Li
로스터
ㅓㅆ었
눈빛
꿰뚫
시부
증발
카이사르
부류
선형
유방
운석
장원
이례
EBS
단정
##메다
고분
적성
다중
카탈
wid
유정
포워드
프로토타입
Wii
클라이
##수아
##문트
츤데레
ᆯ려고
에바
타고나
도시락
최우수
소리치
This
프롤로그
드레드
근력
##메스
안성
브레인
호그
ㅏ야
훈훈
미로
여관
미티
설화
성비
ᆯ지라도
하와이
악령
조준경
##산물
축적
저러
픽셀
길거리
##IV
헬리콥터
구타
##자동
양보
유무
지름
유승
회귀
더라면
Baby
##25
본가
소규모
##IK
페인
망원
후루
라던가
남서
##anna
유
격투기
허위
기관차
##파크
##두사
자본주의
프린스
교훈
트러블
실정
제보
페르난
전산
농사
켈리
정재
진수
카디
습관
HARD
Sm
바오
불평
신수
일레븐
ONE
스토커
탄탄
동요
충북
서정
유코
빈틈
히데요시
루터
킹덤
1953
대중교통
에필
에필로그
레이트
서태
하라
라구
자문
게임즈
밀집
대진
샤워
중성
##포드
##델피아
필라델피아
GN
민정
##넘기
1938
심리학
##other
총괄
관념
리키
원작자
Rock
송출
격침
첫날
##행위
169
프렌즈
us
단속
줄어드
회화
##19
박용
청산
석방
##바키아
미팅
책정
독서
리부트
550
야외
우가
만료
만루
자격증
##앙스
총회
장풍
width
고토
양측
파벌
수수료
말미
수평
##icro
Live
밀어주
##케인
루루
고든
수복
요시다
일품
김원
호세
생산량
병장
노트북
Ac
특이점
온몸
뉘앙스
술탄
보증
죄송
##ins
황태자
여권
히카리
멀리서
유유
리우
클립
##토르
할리우드
##oss
미니언
##ru
DB
희대
결사
연금술사
플로리
동래
킬로
그리드
대마
에일리
무르
좁히
미라이
결함
페이커
여당
가창
##하이
왕좌
독수리
장동
리조
완구
교내
의석
혜성
##플렉스
##받침
하부
협약
성수
요하
윌슨
쇠퇴
cc
살피
교시
유배
크롤
은혜
후안
홈즈
OK
연의
캐스트
##gain
##ction
Blue
브릿
정체불명
경쟁자
잊어버리
Dark
누명
버릇
##EL
움
재위
1957
배송
도라에몽
사안
제작비
고성
체형
KTX
구두
원활
가축
니카
갈아타
초교
프랭
##리케이션
우루과이
아르카
오리진
무사시
저술
메모
서대
##0000
펠리
##킨스
머릿
전세
""
자크
켄지
방과
게시물
토마토
셰프
편안
진행자
천마
강팀
주거
로컬
Champ
말소
자발
환수
더비
말아먹
소비에트
예배
속박
수강
특허
마차
포대
으리라
격기
원흉
경순
##na
발차기
분기점
RC
편찬
빠뜨리
Im
주파수
실루
유비트
분장
Sun
첨단
##ood
쫓아오
##agon
브론즈
##UT
진군
진정하
##자재
트로이
게릴라
오시
##버드
탯이
넥서스
타다
바이올린
++
##어쓰
친목
OCG
모친
닉스
돌아보
Can
직결
일일이
장제스
스케이팅
포럼
리액
아까
Bat
해적단
깨알
선곡
라트
수녀
MHz
back
타카시
소시
환사
텍스
슬퍼
니나
자손
요리사
북극
##ky
연루
코즈
##페르
DR
유영
205
##토리얼
쓸데없이
재무
센티
매달
찢어지
경감
미성년
용감
통수
##지부
키트
기획사
본성
정동
튜토리얼
커트
이창
주고받
##통수
달라붙
유로파
na
박재
미즈키
열람
열악
무제한
기성
##코스
디렉터
불어
수식
데스티니
Summer
대출
금색
##놀이
RP
단선
권능
모범
니코니코
##일으키
요시노
##ty
불러일으키
플레어
김명
##irst
분홍색
야마구치
넘사
넘사벽
매수
오클
명곡
##DS
민영
상가
야심
농촌
당주
살상
연하
브레이브
빅토르
##기지
산책
자판
저것
도검
##ady
목동
양키스
##land
Korea
##무소
밀치
흠좀
흠좀무
대대로
Music
탄도
원천
헌신
##소스
제스
피치
중추
항아리
창세
페니
동족
하워드
##박히
스파르타
비시
그래프
서초
아울러
남발
자처
엘리스
##코프
레이첼
레이너
##저드
휴게소
함재기
발광
소극
BEMAN
루이지
코지
타나카
##균관
병합
급기
줄줄
1914
행렬
어느새
라드
개칭
노동당
토이
계란
프리즘
도마뱀
귀하
무진
안산
합하
카타르
기괴
슈터
필연
빼내
험하
베이스볼
강행
반대편
잠재력
합당
임원
##누르
BEMANI
장안
파산
악의
##현우
만행
화내
일렉트로
엿보
##OID
감전
토로
루팡
나레이션
Fire
##석민
무상
다이스케
설상가
리턴
윌리엄스
프로모션
설상가상
제휴
##스트림
피에르
금호
##현진
##마당
인어
성모
재난
OB
피에
##세포
now
쪼개
학점
교관
김형
댄서
성균관
밀란
유난
650
야기
하원
살인마
음악가
힐링
##커녕
정벌
펜듈
펜듈럼
창업
글리
조직원
211
손톱
실습
주심
##곡동
목적지
마운트
화합
대각
문고
북방
입체
복면
위탁
이질
##리히
고자
아타
총격
후궁
##프스
슬퍼하
악어
차선
포토
광속
지온
##ium
청동
호기심
달걀
여정
평원
휩싸이
미스트
보구
정립
폭동
늦추
쐐기
농락
세션
##테이너
귀중
듀크
후예
치사
GG
시코
점사
Life
CA
뒤통수
서독
미끄
진나라
##혁명
계열사
가성
육지
사다
3164
##즈카
##ush
냉전
배기
해수
STR
고령
재판소
##메어
블래
양호
문어
반항
소동
한발
실명
실무
##기사
박찬
성도
##로니
##와
퓨리
Ma
분화
피카츄
스냅
##ount
어설프
가급
모닝
스캔들
드릴
까닭
But
숙이
리엘
세탁
염려
별점
1951
세레
동탁
호노
Just
똑똑
어퍼
##크리트
로저스
풍속
증가량
204
로코
자수
총재
한탄
돌이
진성
투니
월급
내륙
동체
준하
대상자
쓸어버리
네이트
스킵
진료
##리우스
선제골
##따르
불로
선대
DX
##CH
나이트메어
고속도
지극히
창시
네코
대공포
사로잡히
시몬
플로리다
선방
Ste
##때로
끌어내
우아
이복
day
마요
캐리어
##노스케
향기
##년기
한숨
Sy
##ger
프로리그
박경
사면
##퍼런스
FFF
하타
##르기
pt
감히
남극
몬테
개개인
야드
Dance
##주리
에스파
강연
사찰
마운드
박명수
스완
일본식
개연
공익
노블
해임
행방불명
끼어들
츠바사
출근
파장
할당
##저것
이것저것
현상금
FB
상표
한도
발칸
Gold
여친
석탄
홍성
CON
지상파
실루엣
국산
호로
Grand
주황색
네놈
빌라
적료
스퍼
이노우
솔리
피츠
연회
테루
##그룹
지휘자
Pre
오의
회고
저상
Ev
민법
기복
음주
페루
##티콘
1600
나폴리
광전사
VOC
구단주
효소
##레스트
암울
##ne
##블릿
##ally
##줌마
HK
##일라
아프가
채집
##ution
서지
이속
망가
바니
시간표
LCK
따라다니
예언자
성체
슬로우
##미스
대주
아르메
기타리스트
##준표
괴상
괴력
아줌마
차후
콘티
난감
슬리
영진
지중
화자
##pr
번트
일식
대표작
피고
관동
스네이크
가브리엘
##징어
매너
신대
전교
접점
구급
파수
파업
열등
바비
수락
캐롤
##보그
반짝이
get
통신사
세일
부여받
카이토
사우루스
화나
##마침
논하
##클럽
다짐
아델
외롭
내걸
매스
##미즈
아부
정세
TW
Over
대본
##얼거리
목요일
케이지
군복
코다
이변
콘크리트
꽂히
내수
부평
교직
투하
램프
1937
카르마
나고
##사이드
리마
##ator
ARM
추기
포효
호쿠
경찰관
정확도
아틀레
신축
정자
딸기
때마침
beat
##장난
해치우
출루율
미사키
출연진
소피아
전리
박치기
러셀
합창
일어서
한스
아이유
매출액
무궁화
UF
변질
##체스
금화
외래
ᆫ들
차종
일진
##베르토
홍진호
DJMAX
서인
행정부
예지
선구
회오리
각기
##air
연발
자진
트리스
클레어
뷰티
Sec
코바야시
비장
어리석
남아프리카
퇴출
tvN
픽업
대부
챌린저
처절
크루즈
대쉬
일절
최영
##르드
##네이터
개인전
베네치아
백신
코카
세세
파인
##나드
##토시
카밀
출중
여진
아카리
교향곡
아프가니스탄
BBC
부과
동창
Out
지침
따돌리
아제
조영
커비
영리
사극
접근성
고릴라
느니
한성
마누
##아라
태수
신원
우습
만세
광부
##inc
간선
점거
상류
스릴
헤매
간략
회심
경매
그려
뽐내
경희
딱딱
수험
코요
검은색
리에
소서
이은
##장이
콜드
##축구
##포스
영조
완수
부대원
스피커
파파
컨트롤러
##츠카
풍자
달빛
상체
리티
양주
El
Dis
but
책임자
Win
전년
미판
케이트
사이보그
##꿈치
강판
사스케
유난히
##동원
상하이
수요일
저렇게
VOCAL
조형
군함
베이더
총열
빅뱅
은밀
리브
캐서
##...
뒤덮
이용해
용맹
천공
후문
계좌
ᆫ다던가
콜롬비아
다비
##휴일
총사령
연구실
소수자
##바시
##ART
백색
촉진
천둥
카구라
미술관
UI
소감
잔디
##use
평민
바우
고속버스
전류
sc
케로
정크
6000
##수스
런닝
##테이
못지않
미코토
자신감
Mon
예명
##베이스
혹사
노려보
기밀
웨어
HG
워낙에
제다이
김두한
영장
쿠시
성형
안면
##ring
민원
앙리
중견수
판권
##XT
리베
페이트
man
조제
차남
퍼부
비즈니스
~~
매칭
##LS
코시
레이나
Af
역과
조류
오인
퓨어
이동하
권고
레몬
장기간
카가미
힘쓰
Power
막아
임관
태블릿
샤프
학계
다툼
대문
타니
함포
사출
##여지
##ina
튜닝
##대교
Res
철회
매개
정렬
스님
##관총
집결
우체국
내야수
정거
##히트
소절
형편없
망령
380
퀄컴
매진
발전기
기합
오피스
At
호전
섀도
리전
무효화
##소문
체리
건전
OPS
도피
베인
}}}
바주
피스트
혈액형
지자
퇴사
경쟁력
여덟
노엘
256
제라
솔라
입술
키무라
추첨
나고야
직구
SCP
캐서린
NG
욕구
웨이트
유서
전전
이성계
조달
Fem
강성
금성
국사
##범죄
당첨
저리
베니
자취
동갑
때때로
카지노
공휴일
동참
속공
와이어
농협
섬세
아카이
존속
볼륨
이야말로
다기
타치바나
야시
어쌔
총탄
김영삼
어쌔신
증후
##ittle
무빙
영미
타국
글래
적발
sm
에밀
경량
##아르
##카스
김택
유포
Fi
서사
MR
옵티
레기
오징어
직역
제르
색채
성역
아르메니아
MX
초고
##라이어
악용
##심장
채소
여사
명대사
궤적
가호
방어선
집중력
##베르크
내구력
애시
공성전
건재
부추
화가
지그
허공
가급적
대인배
Sing
카노
조력자
낙인
거제
본국
1910
FL
등교
##부시
##하하
##숨에
단숨에
거니
마에다
장병
도메
저널
페더
##ERO
츠나
SG
카즈마
코이
##de
노기
페가
가솔
패미
광탈
넥슨
타나
##be
피드백
gr
궁지
레닌
횡단
고안
랩터
젊은이
러시아어
부식
에밀리
##ello
갈래
베토
괴리
이우
공방전
리트
재고
정거장
사육
MT
가명
태세
##reen
SV
쿠루
서진
##ual
피라미
김정은
억지
창의
피처
승천
IG
적진
족장
생산력
견인
세조
##대부
예장
근성
로사
무전
증세
튀기
포지
##라비아
막바지
기미
복싱
절규
##코어
정명
줄거리
돌격소총
통용
군사력
소용돌이
노이즈
휴전
주재
MLB
##바퀴
동인지
데우스
Pv
모방
꺾이
디펜스
Rem
라지만
돌아서
맥도
바실
건축물
서킷
표방
허구
에우
카오리
Ep
가뜩
친선
추적자
역병
##ational
##프레스
원격
999
연예계
군기
대파
돌려보내
어인
수군
##riend
발상
##af
아이작
히토미
##ars
파이브
##bs
신주쿠
하임
설계도
루카스
결장
소진
출몰
Vo
두부
깊숙
카에
둘러보
##IE
가뜩이나
초당
카바
슈퍼스타
베드
정은
홍준표
양파
##해군
스타팅
발악
이선
급기야
##ivers
주방
##퇴근
수비진
증후군
노드
네모
테이크
폭포
흐리
자유자재
길들이
인벤토리
조폭
VOCALOID
모호
양현
IDOL
아폴로
그려지
리쿠
악랄
초선
오로라
럼블
판서
타시
뒤이
포트리스
박격
고양시
Leg
King
##지리
수원시
상임
블래스트
##에이터
애교
중전차
고원
김희
연호
풋볼
베가
부럽
##회의
미야자키
##리에
마이어
병단
깽판
실황
HT
핵무기
##클레스
스위트
YOU
BF
강변
자유주의
벽돌
just
시스터
히노
이치고
무림
아몬
태그팀
에이전트
제시카
상회
엄지
##외선
물들
표출
쏠쏠
징징
분경
응원가
코타로
추기경
억압
##SS
일자리
School
신시
왠만
지령
##MC
운운
람
Miss
선도
김창
CEO
키사
랜턴
1935
팔찌
##atic
간행
##질기
인맥
UFC
진가
Rec
GR
대제
삼거리
끈질기
수다
##일본
바루
##토미
##니클
유토
what
배분
사사키
수고
옥타
고베
경유지
???
벅스
스티커
극소수
뒷받침
밀접
재사
1918
치명상
##ern
소피
티베트
마르크스
다단
자바
포고
##itch
블루스
코스타
조지아
당분
알고리
데카
이노우에
##ts
장타율
빨강
##스톤
STER
별자리
1934
운동가
반갑
레스터
Che
리플
허리케인
쿠파
창병
131
아이언맨
되살아나
본디
스타크
ADV
'''
기마
일보
국력
손아
임상
아의
##연합
##사전
여고생
플래닛
어드밴스
평면
게임기
천도
하르
##셔츠
고폭탄
라자
##카즈
End
퍼시픽
프론트
방금
유하
자주포
천적
##날드
로만
시중
VR
##rain
Ge
Di
피겨
##스트로
##그레
##큘라
위나라
함경
도리어
독성
인내
라오
어우
Air
쇼군
단골
##tr
마이너스
편대
세간
불러들이
##투르
방황
과부
군산
##루살
##서야
새로이
대명사
무성
입성
고어
##루살렘
넓이
노조미
도도
명령어
성문
알고리즘
헬스
##oot
Mod
줄곧
한심
마사키
올라서
강유
글러브
##노미야
군벌
메라
if
사부
전편
마이트
종일
야쿠자
그리스어
교주
단조
##칼리
걸작
인프라
토네
멀쩡히
뒤집히
이과
자민
표명
예술가
실험실
바흐
안나
경신
정인
##재판
무언
흡연
교란
남구
##어먹
##의사
초사
드라큘라
서드
취직
위즈
포털
마커
##ren
굴복
에일리언
정유
이화
피리
박주
착수
남용
##정
관악
시립
우크
송도
##슬러
솔로몬
col
담당자
요건
광신
욕하
##같이
체질
금전
작별
단절
타케시
샤크
첨가
비토
악장
##UE
상반기
EMP
아이리스
우크라이나
지망
##려드
카스미
##55
예비군
부풀
집정
예루살렘
해운대
여의도
저격총
PVP
직관
천계
왕궁
콘테
시드니
레지스
관제
이치로
학번
##UR
옵티머스
##도스
원호
휴일
성추
제후
##데아
초원
광석
로딩
추이
토오루
미성년자
메스
만류
다이나
리오
##rist
night
매사
비늘
주범
사교
손녀
진흙
킹스
타노스
도미니
##ony
디디
청색
##ma
카린
##무스
Sound
토착
사쿠라이
POP
##쿠로
오디
느냐는
애틀
Hy
염소
지기
키워드
회복력
총대
화요일
##린스
##중국
양도
제식
뛰쳐
##사우
문과
정중
연희
광저우
##레오
메꾸
불멸
컨테이너
하세
백합
무작정
김전
부치
##세데스
메르세데스
##iew
요동
고독
괴담
아역
프런트
거주지
DO
유소년
출퇴근
군중
상수
블라디미르
진작
연구자
팔라딘
작아지
don
벼슬
##ope
해커
행태
좌익수
양면
유교
##데기
조운
##시계
MASTER
빼돌리
노숙
대칭
오너
현명
요르
성채
아산
모터스
바주카
애틀랜
잉크
##수엘라
법무부
발트
신디
우시
인테르
민족주의
바이스
시한
에티
MD
고려대
EM
ㅋㅋ
나날
퍼스
징병
##ana
손바닥
유목
미끄러지
아야카
게리온
후유증
빌헬
배지
먹방
##atale
드라군
선비
##어찌
과실
카무이
제멋
교육부
조장
커리
##던트
데이비스
프레데
스코프
골리
하야토
굳어지
Femme
##oon
베토벤
청량
로망
사업자
콜로니
볼리
효력
그닥
기한
SO
Cat
사에
칼럼
시그마
way
황족
액셀
##패스
명작
이마트
농어
##ox
BAS
애프
의거
이안
빈사
어찌어찌
레이터
무어
##ield
대용
재팬
언행
마도사
브라더
금기
들려오
일부분
득점자
경인
박준
사우디아
얼핏
##천동
bl
내려지
피어
학업
텔레콤
섭외
가치관
애당초
##22
티코
베르크
파고들
다나카
베네수엘라
역설
##먹이
EA
미토
1100
##티어
매복
수산
##안군
소심
펄스
##노이
쟁탈
##무장
1932
극찬
타협
##야샤
이누야샤
WE
생사
흑백
각색
경장
한몫
리노
성주
즐거
친밀
활주
##레미
##의정
비오
##olog
알프레
트림
1931
그놈
피라미드
광학
1933
XP
수준급
링컨
민국
알코
초토
해인
선체
택배
미지수
대잠
보답
총통
겉보기
폴더
친위대
사바
이윽
이윽고
증원
재혼
확연히
아루
패기
되돌아가
양념
창원시
아그
일쑤
##ᆫ정
브릿지
조율
중앙선
광주광역시
강적
##변속기
스루
##Fatale
전리품
조선일보
설레
FemmeFatale
아멜
With
반말
##지원
든가
병살타
Hard
자연스레
Run
다던가
스테이트
대두
효과음
빅터
외출
위화
카도
안토니오
다정
마모루
건의
미타
##징가
시력
참패
피곤
##돼지
##언정
XXX
자잘
쾌속
지중해
다인
김전일
마징가
부회장
두께
바하
추석
##니치
임용
복종
CT
가든
칭송
##구나
연비
##AA
후타
탈옥
낯설
번영
##쿠버
반다이
##블랜드
무찌
수작
미셸
성폭행
미디
토머스
340
부화
클리블랜드
Not
정장
겨누
중령
커브
전념
폭발물
유수
봉황
게리
이스터
App
가토
카가
직감
셜록
신이치
진공
가솔린
손흥
승기
안테
##elf
Rev
슈타인
가산
여건
##암동
입맛
추대
##ouse
도전자
RS
설득력
말장난
살라
프랑켄
1928
##선거
제정신
캡콤
214
세나
##사의
기병대
CCTV
식신
스폰지
동봉
송구
흑화
압살
##네
RG
충주
환원
무찌르
도널드
토탈
호대
##레트
성공회
셀프
제이스
dis
후세
부츠
명인
채무
술법
##저트
예리
키퍼
난전
악세
Da
꼭두
바늘
치중
사
환각
체조
게재
손흥민
사용법
든든
무의
쓸모없
스크래
들이대
박격포
듀엣
외무
아지트
서문
송이
쇼핑몰
##75
VIP
가출
뾰족
장래
시동
##인드
쓸데없
의병
페로
기와
접시
안도
서식지
순진
육식
충성심
키리토
마포
경위
##투수
SHOW
좀처럼
피신
미라클
유감
##무니
##거진
재사용
##폴리스
재해
허세
협곡
반칙
스왑
분사
고장나
마작
삼각형
메테오
서면
광양
도호쿠
완전체
공채
위생
선발투수
아종
변종
아즈사
##득점
상권
선진국
진과
사우디아라비아
UM
트린
시궁
계보
##로이
육박
Elect
임창
하코
관습
안치
오스카
꾀하
마음껏
사각
서북
기만
물려주
윈스턴
시구
RAW
북유럽
어처
온화
아치
시위대
리포트
초식
##방향
빌미
혼종
##마사
##라이즈
불가사의
종자
폭사
co
##ORE
##언스
미츠루
Ke
141
She
학창
##컨대
310
대강
동국
체이
사마의
순조
호노카
체가
##러드
8000
만회
데이브
제비
모라
잠복
스플래시
##투표
격돌
결별
사위
작살
액세서리
저번
카세
##we
##ecial
석궁
최전
홈구장
도르트
마니
동물원
에리카
연주자
백미
조세
현행
제구
향수
입학식
늘어지
##세
철학자
사과문
패트릭
Get
낙원
버지
김혜
입당
협의회
사다리
존댓
존댓말
대여
앞쪽
발산
옐로
퍼뜨리
수법
정적
탄종
풀백
##조각
단테
대관
디에
##아아
##요환
틀어지
홍대
가물
본문
##asy
제이크
호스트
##ane
아벨
포르노
라거나
수렴
##66
승부차기
콜라보레이션
불사조
##케이
넘쳐
가네
샌디
평정
##its
DT
Ang
스크래치
애플리케이션
world
상정
블레이즈
사설
치아
걸어오
비석
임요환
##28
##네트
##슬로
김세
오미
수레
와우
정제
어처구니
비정
구자
오리콘
시엘
##테리
무자비
1924
정류소
##미사
열풍
까먹
김인
왼팔
유죄
프레디
최면
##히사
white
크로니클
당당히
듀티
엑소
480
스튜어트
대담
속삭
송병
설사
식별
학파
베라
소인
스몰
##짜기
기각
##먼드
순교자
차세대
강당
볼텍스
제이드
거물
분수
양동
##EX
재선
느냐고
촉구
안장
##ze
밸리
손수
SW
알루미
앞장
영분
침체
007
##용차
원동
가까스로
밀라노
박병
더스트
수배
0000
Cy
##치오
로드리
다이브
탐욕
한조
대전광역시
추산
프리즈
부합
시애
하드코어
아픔
틀림
영락
헤딩
ᆫ다면서
되돌아오
선공
자니
부추기
열받
대변인
니키
스칼렛
##무진
우익수
콘스탄티노
su
노브
##ness
##그라드
망원경
난동
베른
지아
720
주주
사이퍼
기총
착공
플랫폼
어비스
##링크
네메
전태
##포로
에덴
Song
목성
##지대
흘러나오
Big
다이어트
Comm
시저
호조
발렌시아
국무총리
##24
비약
자위대
편제
합방
Back
선명
처단
##인간
클로즈
만두
애리
동포
##appy
주작
데이빗
도르트문트
420
팔꿈치
강남구
신민
정무
Arm
류현진
##틱스
안드레아
##매매
마더
##도니아
선교사
##즈마
시애틀
의미심장
디트로
디트로이트
서점
꼬
교구
바시
광화
검찰청
빌헬름
레트
유한
커먼
승계
품종
황자
삽화
화수
방대
망자
여도
익스프레스
유쾌
##ny
##느
출입구
화장품
격노
이산
동대문
코리
코이치
대한항공
오버로드
매거진
##제리
조선인
자라나
리젠
##벨트
항로
목표물
##ke
교감
보태
##평가
히로유키
특권
창출
Order
유명세
##제품
늘어놓
두텁
##RAM
##sc
##슬라비아
유고슬라비아
적정
##부대
1929
떠들
으라는
대각선
##모자
바바
1911
브란
빡빡
##제이
##드래
민병대
와이드
포화
역기
로마자
후일담
알루미늄
대장군
Skill
##부리
리액션
카야
테크노
기라
젤다
스케치
미련
나우
단신
전복
꼭대기
서재
정현
프리스트
송파
휩쓸리
방랑
야하
노이
마티
커넥
인디언
con
주군
>,
이따
##35
김준호
대머리
괴로
법령
KS
플러그
배척
벌칙
선천
유추
집정관
독재자
농부
서커스
##chor
스탠다드
웨일스
매입
주성
씁쓸
TB
나주
어도
케네
##평군
리조트
태연
가가
사이오
퇴근
안드로메다
첩보
##공격
클락
허영
오드
인즈
차출
##러미
UR
겸임
발효
1925
시즈카
문의
아론
열전
Every
페인트
사토시
자택
과반
행선
좀비
타라
##버린
##let
박세
김정일
토네이도
세균
버금
노후
새해
수분
일직
졸개
토의
무협
정규군
연기자
##느니
##실히
당분간
오재
보유자
PSP
cl
투르
서경
윤종
분교
국정원
디테일
병영
입상
조회
##푸스
난폭
장단
경이
내년
모티
##UC
태고
##예프
양아치
##AG
##니트
운전자
짤방
석화
영화판
리히
That
가즈
##빠르
비행선
사상자
나나미
위조
알코올
어휘
속옷
총사령관
##각시
상대편
마늘
수반
왕녀
난해
1917
성추행
커터
구이
느긋
성취
##자카
qu
##파니
208
해협
화랑
빡세
이에야스
활주로
간식
내려놓
동거
##눅스
단거리
##양군
지독
전염병
생리
치타
##패드
가차
비숍
추월
##작전
합산
##타자
##페스트
노랑
조비
심포
헌데
공병
괴도
크래
갈고리
상경
펜스
선발전
프랭클린
te
국수
온전히
지체
라운
춘추
마장
자석
TCG
인민군
신종
##자루
##비우스
시노부
샤아
복권
홍수
자부심
##마이
단말기
스펙트
개화
숙종
거슬리
켄타
##버거
212
서부터
마는
츠카사
리눅스
공직
에프
출세
역전승
해저
마그마
비욘
원산
##정역
##애미
세이부
##나가와
관광지
유행어
##bps
Des
올라타
마이애미
최진
이어인
동남아시아
교재
대적
이관
제멋대로
Har
##운전
##레인지
갑판
위임
##바위
##ert
교원
##리즘
콩고
초급
잔당
토요타
낭만
불운
##ious
##정동
볼프
나츠미
FX
등산
171
##ient
라이터
NL
Top
끊이
앞마당
왕따
게이밍
타쿠미
구세
튜너
항쟁
235
자아내
모건
요일
침식
##단체
올리버
체이스
판본
##net
연방군
슈타
채굴
능동
##모사
스펙터
GL
##렉트
파열
엇갈리
산지
영창
자의
개종
850
유체
Tri
누마
법조
심부
##위치
의리
##비히
EXH
##유산
크리스토퍼
야채
중얼거리
하얀
##노기
##ᆸ니다
##ret
사절
255
이제동
1927
조슈
FR
농도
조인
##ideo
비올
후작
NS
..'
서스
##리아나
패거리
##라이터
다이너
악보
리오스
##라이언트
어중간
일선
직계
키메라
푸드
##르바
근래
정진
마츠모토
가변
##튀기
플레이트
들려주
심플
영기
장녀
##니지
레이크
일찍이
백악
비대
법정동
클라이언트
마드
래스
뻥튀기
##pl
주임
RF
해밀
구치
푸른
알아듣
##호도
##둘기
##olution
떨어트리
신한은행
Amer
골대
헌병
공전
는군
중산
와일드카드
내심
미완
매트릭스
어로
햇빛
어지간히
바트
왕건
##토록
Em
용품
초동
206
스플릿
가메
카멜
투기
##주곡
트리오
연평
특출
유니버
이의
상고
이승엽
유세
애틀랜타
부메
나탈
자며
안중
PO
텐션
DEF
드레이크
인신
##IST
##자스
LCD
작렬
off
삿포로
모기
##나들
##co
경호원
##버릇
소량
##ERS
각본가
유민
앗
버디
오아
인스
정직
##비언
리바이
사역
성남시
##피어
알파벳
중공업
구애
벨벳
이지스
##러기
우로
주스
켄이치
##교도
333
거듭나
게르만
장학금
피크
Act
소이
프라이즈
기통
진해
UFO
부메랑
요크
타지
프레드
원제
가쿠
정경
후려
드리프트
치부
데뷔작
209
두드리
앨리
이메
메아리
이신
카터
파드
청주시
##ful
엘런
##mania
ve
판도라
절묘
과다
한가
부딪치
290
Pe
지바
kn
기겁
LS
케르
메소
우메
줄줄이
꼭두각시
남원
##노프
자드
작물
무난히
튜브
KG
사비
코지마
##렉스
리투아
암석
여리
토템
##틀링
리투아니아
동선
면은
소아
정종
소음기
##ner
뇌격
##ham
##고쿠
TD
버니
형법
##사우루스
관대
특공대
팔레스
토와
주름
츠루
##캐슬
인기투표
Bar
Fre
215
받침
진전
고모
선풍
친근
##어들이
오바마
가창력
트레이서
데프
성녀
외야
단단히
랴
세단
치밀
Ext
소중히
##조선
비틀즈
루즈
런닝맨
브로드
##럭스
AMD
시정
이민자
시궁창
가로지르
God
자연수
데일리
Str
1926
생계
통역
데스크
송곳
희미
##서리
나루호도
되려
레미
다이묘
뉴캐슬
항우
독립운동가
나시
##곡리
동산
##ning
GDP
괴멸
부두
나가사키
브라우저
탈리
때우
Hot
팩토리
Bea
재상
뒤틀리
##미아
가중
##마츠
Ab
경관
##캐스트
##ERT
STAR
오마주
규명
RAM
anchor
덩크
위화감
김제
우투
어린애
음양
##ump
아우구
마고
샤이닝
가세
클라우
나츠키
Char
항소
성종
전폭
자정
보전
고스란히
러블리
버금가
'-
케네디
ᆯ지도
레고
##ward
##그러지
심심찮
마카오
Met
Rain
심슨
시발
점포
##day
Sil
소셜
초중
every
대의
서남
주시
중소기업
공시
마천
최성
헛소리
ᆯ게요
알맞
##ATION
위인
인장
데이즈
FN
금하
##여행
경상도
무심
랄까
탄수
오일
최적화
간장
동유럽
산호
##레즈
박민
투여
**
뮤즈
만화가
해결책
수리검
시르
영재
체류
이시다
want
노사
아이리
성령
앵글
로페
##상스
이목
재화
FE
이분
White
##88
비하인드
Inf
옥스
헤라클레스
랜디
찬사
최우선
신촌
1400
헌납
yout
세무
팔레스타인
채권
셔츠
경의
미얀
인피니트
##하늘
기판
대리인
레비
ᄇ시다
로버
문호
##매니아
카자흐
제각
십상
##내기
바사
수료
유우야
이송
계승자
사생활
코나미
KD
명품
북두
루드
충동
성동
바람직
선하
##겨지
군단장
수영장
안테나
세토
조승
현수
밀러
역관
평지
앤더슨
김태균
down
최재
긴장감
more
멸자
과잉
황무지
오덕
May
불분
##트니
버지니아
길목
오피
애리조
##대표
건너편
정연
포이
207
마케도니아
그물
키바
감속
스트레이트
이치카
Pop
빈스
울부
잔여
시세
한인
찾아다니
IDOLM
다이렉트
주부
도보
개틀링
권역
오퍼레이터
발령
로로
##살이
저스틴
여행자
근로자
Master
청문
장막
주권
내무
흑룡
##소통
배럴
터무니
대한제국
##대군
의류
이가
휘둘
의사소통
하렘
##son
지자체
한결
창세기
하데스
편집자
영국인
##드래곤
투항
##뮤직
부녀
분과
##au
서울역
유부
##ANC
체로
PA
외교관
우사
자음
##oud
과하
농어촌
냐면서
병맛
머들
박기
심리전
##ves
익명
아르테
사단장
감도
나이지
단연
나이지리아
몸체
포유
##피탈
앞장서
Game
대입
숙명
초연
나기사
공석
카프
불분명
이범
이라든가
무언가
랄프
멧돼지
지갑
##실록
노동조합
무법
여객철도
OR
사병
촛불
플라워
스펙트럼
는데도
로자
충실히
수년
분전
수뇌
안식
161
경희대
미분
며느리
어머
they
끝판
감시자
##지물
1922
사카모토
##ift
송라이터
티탄
행동력
몰아치
뛰어다니
여대
란트
체급
보단
만화책
재빠르
리비아
엠파이어
##ship
즉석
전용기
명확히
서유럽
호타
전과
##ape
애프터
COM
너구리
동독
쿠미
##블랑
유시
제품군
성검
중심부
울부짖
Are
##도사
경시
한중
카에데
신령
##감치
GAM
그토록
기공
공적
오반
##찌감치
피고인
체르
치세
미하일
들통
경합
리언
1923
열렬
##레인저
지출
체내
세츠나
TN
쏠리
행각
WAR
기생충
국물
무로
절약
역전패
간편
터리
1921
고갈
기린
자재
##현동
TG
외래어
김택용
##lock
좌석버스
불가피
카트라이더
반자동
사시
차마
메커
산출
요양
몸집
트레인
Bu
맞춤
무네
Bra
조로
520
나데
후하
only
로미
##쩌둥
언론사
마오쩌둥
##ien
뿜어내
아노
##고스
마우
크러
시프트
익스트림
천문학
Yeah
명하
부설
아킬
버즈
경전철
##관계
마비노기
애덤
DA
단번에
의약
민지
필기
##less
준장
쿼드
ㅏ요
비둘기
이장
##ize
스노
특색
news
학부모
소망
짓밟
체하
크림슨
##산면
개드
말라
폐하
도타
순순
##뿌리
##zy
음식점
루시퍼
니콜라
Cont
마취
##LD
완패
절감
##니케이션
메이크
솔리드
피니시
리시
헤더
성급
커뮤니케이션
오스틴
pl
티나
터미네이터
걸스
신공
하얀색
등용
프란츠
제네시스
##EE
##형제
탤런트
밴시
산산
예하
Hea
창간
서약
친화
케어
트레버
제명
인분
가야
레베
##45
월터
르네상스
항속
장대
활기
##마드
##led
유스케
##고루
##omb
일갈
누
강령
섹터
전투원
자치구
당근
아세
궁정
극동
포괄
##준호
붙여지
비범
콘테스트
일생
영화관
남아공
ᆫ대
설문
##마트
##렁이
구스타
급여
노스케
무패
붉은색
종로구
뒤바
운임
간첩
구비
급제
치키
독설
위태
독도
포진
단간
댈러스
##기어
출생지
재차
##ited
Project
교직원
##HD
##법인
그지
락스
온게임
팀킬
온게임넷
와타루
7000
세련
리포
민속
##문화재
노마
복부
##소타
Joh
회자
##조작
##ALL
Off
온전
자위
Battle
불허
헤지
이상민
TEC
응징
붕대
생포
힘겹
##람쥐
1912
척하
TF
세실
플라잉
불안감
선상
정선
멀린
이유로
스릴러
다트
메츠
우동
계약자
순순히
##ita
승부조작
빼놓
유다
다이빙
눈부시
발자
배고
회유
이어폰
##준혁
JC
선별
Open
톡톡
##ORM
성유
반죽
원상
태후
##ton
DDR
~'
정국
협공
빵빵
성품
조나
##29
순차
천연가스
wiz
칸나
우와
아이슬
Sky
돌풍
지못
##장구
지못미
패미컴
Moon
나뭇잎
브룩
전투복
조니
브리핑
휘둘리
케미
번거
아란
##플러
......
221
##ENT
날아오르
BASIC
이석
스켈
연장전
노원
요지
조부
관건
기염
알비
미네소타
##선스
일직선
777
얀데레
맞대결
good
##23
카르타
힌두
백지
저력
타츠야
하늘색
전라도
다마
레코
##row
##27
1300
아쉬워하
꼼짝
섭정
야자
외침
짤막
##우
급진
미카엘
넵튠
소주
##개골
네타
카즈키
감염자
Like
다듬
남짓
##com
##위원
내려찍
체구
아이슬란드
무모
성원
마코
청취
라이선스
초회
수족
WCS
##그마
벌어들이
##ling
매도
소탕
희박
라든지
경비원
김현수
Special
라리
우이
화속
2022
순항
오모
음란
흉터
성가시
여느
갱단
졸지
##의지
비밀리
beatmania
니즘
방어전
##타기
네메시스
개드립
Bad
눈썹
소프
탈탈
노프
샌드박스
아틀라스
도메인
재주
비서관
강호동
##교회
톱니
누락
검거
특촬
관현
둔화
막말
낙하산
이나즈마
중사
음모론
루리웹
경영학
디에고
류지
하천
TT
탈주
티셔츠
일정량
산체스
악인
업자
이북
릭스
통학
데이터베이스
Soul
합금
바이올렛
##일관
노라
파병
##레타
백수
쪽지
치과
다이크
밝혀
추위
팽창
부상자
Med
코팅
사납
파나
세이지
는구나
##rop
미달
줄리아
프라이드
급상
주립
탈것
ᆫ다든가
성범죄
착취
##즐리
원로원
사죄
임프
브래드
벤츠
타가
213
드래곤즈
##방식
거창
조개
반대쪽
##어내리
이천
이시카와
크레이지
막아서
지폐
##트리스
호라이
진행하
칠흑
흐트
##UB
박태
사하
서스펜
형벌
end
Po
##vent
마사무네
티타
Hey
over
정관
눕히
피쳐
환불
생방송
대지진
FBI
##산리
모치
픽처
이메일
일간
##line
##ute
Now
WOR
무당
반납
일파
조현
자기장
시빌
Dragon
성희
Bur
여하
조원
223
유노
##play
죄인
페트
명백히
our
사카이
철벽
##xt
275
아브
그
밀양
밸브
##메르
가주
드미
해프
햄버거
히코
전갈
어우러지
메커니즘
스탠딩
막스
부통령
baby
관용
자자
파괴자
정부군
래쉬
##가요
##stem
001
밝혀내
니즈
#,
리아
신봉
이바
##oney
세속
Eng
미유
에테르
장동민
넘쳐나
매점
피버
순례
이끌리
버퍼
치히로
대장장이
이로
리온
베풀
fl
성운
반달
브라이
왕립
급습
원나라
구스
거머
부끄
1907
헬로
##방사기
화염방사기
하시모토
만장
민심
연성
팬클럽
##96
스탠스
수차례
폭군
구루
마호
일찌감치
자선
##나우
본드
액트
ac
신탁
옥수수
손책
영령
에로게
비행장
개관
대도
아카기
Way
코브라
##규어
일개
올리브
##아내리
제너럴
민사
급증
강서구
결선
인승
종속
##두근
슬쩍
Alb
##FFF
노보
##IGHT
골리앗
##미츠
결단
외환
##소니
패권
수당
원어
타오르
일컬
##eng
설립자
써니
해프닝
수납
레그
##닥치
see
겸비
볼일
마리사
라이브러리
1905
관전
바빌
암기
펠트
황소
미처
이도
카논
연대기
케니
테슬라
행군
##벅지
새신
디비
설교
포자
럭스
문성
승하
##lt
번번
수퍼
참모총장
라파엘
제국주의
갈아입
DAY
튀김
##라트
러시아군
골짜기
아득
##나시
빈센트
뒤쳐지
태백
슬라이딩
Int
송신
365
##린더
고하
Cent
린다
방관
엠마
조문
max
스스
악질
속사
미나토
Comp
증진
향년
현무
사드
벨리
초전
전령
티모
모리스
일괄
##파르
쓸쓸
희생양
Match
인
타케루
앤드류
부기
##툭튀
선글라스
##시즘
##홍철
골고루
##영향
수송선
모로코
료마
클로버
Ass
갑툭튀
거행
극성
코일
코로
216
대구광역시
최형
두개골
백두
지탱
##26
보급품
바깥쪽
변모
제드
블루투스
반주
총구
명장면
검출
데니스
탄두
"'
미용
사생
거니와
고마
물음
Yes
불거지
욕먹
초필
충무
템플러
명실
밴쿠버
본거지
자결
##탕스
##건설
370
레지스탕스
언락
왕성
구라
다량
동아일보
마공
프리드
막론
선지
파기
##원군
내리치
리더십
say
블랑
시베리아
NAS
최하위
폴라
서프
여명
행세
Fla
라지
증강
사업가
레프트
right
알제리
이남
자판기
복식
메두사
변함
어부
재규어
격납
매지컬
이문
암흑기
재발
푸른색
덕택
미공
수속
정대
##독부
정주
토토
만년
서유
코칭
kr
매매
양육
##열차
##세이더
크루세이더
경전차
텐더
해발
ᆫ다든지
세레나
소란
한복
##ude
교제
##데라
##혀가
포상
메르시
자릿
##맹이
이달
전위
CIA
블레
잡혀가
##원지
##천리
장기전
Ook
##내셔널
부르크
인터내셔널
사파이어
좌완
드래그
거머쥐
광동
하버드
포레스트
오카다
PvP
잠식
##ata
레오나
베이커
SUP
##공주
에어컨
해지
아츠시
사서
스투
왕세
토사
하남
구실
##큐버스
케로로
마자
수혜
시오리
공안
사력
아날
연화
폐위
선역
시연
Last
몽땅
잘생기
XY
에러
총애
호우
상승세
시종일관
짊어지
우즈베
거미줄
덤벼
동맹군
IF
보호자
날라
척추
밀가루
이터널
개찰
장담
화판
TWICE
후진
무안타
결투장
##부르
누님
현질
바드
부전
처방
어지럽
##ius
북서쪽
쟁탈전
거유
래리
명왕
크로노스
헤븐
##스코
카메오
소름
쿠퍼
명은
화질
자멸
급상승
아랍어
플레인
야구단
도입부
440
가신
정윤
공중전
##대
막시
미약
나카노
##III
빅토리
##이프
##red
부적절
수뇌부
배반
유족
마운틴
난장
적기
세비
자치령
사주
하반신
퍼트
기어이
간직
의존도
추상
순삭
##오피아
에티오피아
팰리스
이강
불발
Core
BRV
졸리
무소
부러
##ets
퇴임
자백
크리에이터
정보원
지도부
한국군
Mir
더러
Show
##76
##ated
납품
시라이
보이드
there
스맥
좌상
발병
##매치
##ara
두각
왕정
철퇴
카트리
관세
츠바키
감찰
본뜨
석가
아이젠
배급사
돌기
최장
필승
예매
원반
국내외
스맥다운
쌍용
공민
비잔
혼나
Nor
네로
데스매치
1908
##페어
편도
조선소
원성
백룡
센트리
엎드리
##cl
사이먼
깜빡
임페
신약
피칭
장려
##가타
his
아리사
울
HOT
정몽
##부수
프론티어
무서
나트
우대
크리드
박차
슬러
소모품
떨리
MI
동하
수전
저축
횡령
승낙
또래
보름
시어터
악수
얌전
퇴마
바이퍼
##44
##테리어
보좌관
대북
견고
묵직
테츠야
판과
리비
적도
아레스
호화
특출나
pe
##천역
가넷
오보
micro
신격
자가
필적
잔재
바운드
##일기
슬로건
성단
솔루션
물류
엘소드
에노
모탈
위아
##ely
반려
수박
슬래시
연못
tw
승승
원자로
몰입
통근
노태우
##산군
무방비
Mark
문인
쿠도
투석
시녀
이를
컨퍼런스
##거스
저항군
신빙
폰트
전문학교
변속기
비운
오산
##테면
미얀마
노획
후지와라
얼룩
은가
커맨더
If
##이즈미
이를테면
##UST
빈곤
소나무
제복
충공
근위
컬링
비열
다크니스
에어리어
각별
뜬공
Art
지명타자
Best
레니
First
##영수
##임수
이니셜
팝픈
혈관
팝픈뮤직
쿠폰
RPM
수제
허술
난쟁이
##디난
이탈리아어
스케이트
Sur
블리츠
서태지
got
남산
##KO
오클랜드
김소
뛰어내리
악영향
터프
삼국사기
호르몬
How
##더스트
다구
가늠
맨날
베아
그제서야
##다오
첨부
액수
재미없
크리스티안
who
시미즈
츠치
틈새
##스기
잠자
##OCK
용왕
id
허벅지
식인
여운
큰일
칼리지
들여오
-.
부피
직면
통찰
금서
키시
Sl
고뇌
베끼
열광
Christ
언론인
##85
Ap
히이
근방
적시
인플레
219
##INE
이대호
위안부
감마
이형
피그
##니르
분출
샤르
간절
연합국
파주
후리
압둘
이규
가르시아
중론
페달
훈련소
구미호
##ga
발해
부토
푸쉬
후카
아스타
알몸
웨딩
자유당
##udio
해밀턴
어쩌다
틀어막
##ERF
문관
무리수
평의회
머릿속
토코
한족
시리우스
비타민
린치
Down
소폭
김신
난징
복각
급속도
RED
중화기
FFFFFF
임페리얼
저음
남친
후려치
곧장
정시
스피리
책봉
Never
NA
##푸르트
동급생
추론
##ric
유창
Sam
투르크
포메
950
벼락
키치
민트
전황
오자
Tour
겉모습
약수
키프
##지기
마키나
끊어지
말살
파탄
feel
군세
화전
##칠리아
송병구
밤중
백과
뛰어오르
##work
Free
NAT
티거
활약상
##요리
##통일
하이브
540
아유미
##ther
골수
금곡
닛산
덩달
시커
나오키
##ley
퍼니
내쫓
소홀
이조
용인시
고고학
매그넘
활발히
화룡
ᆫ데다가
Na
시술
김호
단타
미워하
Side
질질
검도
뚱뚱
전우
대나무
동결
장자
##세우스
마토
아이오
##ux
GX
화끈
416
GPS
미움
Magic
병신
환산
리벤
옵스
##NG
##HC
##럴드
전쟁터
독단
카츠키
하쿠
분비
중의원
키쿠
일기토
나리타
궤멸
그분
제동
사쿠야
사복
영수
개리
선후
이롭
##다듬
나선
##erm
미니게임
동성애자
yeah
##hy
엑셀
인테리어
투수진
페이퍼
Track
몸싸움
##황후
세가
전패
정치가
미완성
서동
판명
##제프
##사람
투표율
곡사
외장
유역
허니
탐험가
페미니스트
아만
이반
엄폐물
덮이
토바
트라웃
개더링
다채
형주
지석
통영
Sim
그러다가
정승
##사관학교
동남아
갑주
개헌
9000
직진
창시자
상서
배틀필드
정착지
로토
픽처스
지하실
시속
##피드
KN
##총독부
조선총독부
부디
전곡
검색어
진범
페라리
해설자
체크카드
KCC
내공
라르
스커
##가르드
경비병
엠블럼
다발
끝없이
톰슨
제곱
거액
동그
아재
알프레드
윤성
충원
태양계
마크로스
신년
##ird
KA
한미
랍시고
공연장
바그너
마라톤
앉히
한눈
Pol
면도
어시
퍼블
적어지
페드로
포식자
girl
보리스
사학
알트
성희롱
City
프리킥
노선도
PM
##생물
##전쟁
나지
조공
##스부르크
##월드
걷어
화보
대영
조짐
245
##이인
드러머
오아시스
Happy
스턴트
방망
공황
불계
대구경
주지
Party
##고생
##BOX
절제
축출
밧줄
##삭스
야말로
광화문
충공깽
슬립
우여
포섭
Edition
두근두근
##UL
##덱스
현종
지상군
이쁘
##리아스
김한
잠정
족보
플랑
##rew
끌어오
김하
##김없이
야마자키
Perf
메탈기어
AW
초계
##니컬
험악
곁들이
##21
골절
재결
능욕
평준
##소년단
비룡
야인
짱구
캄보
##슬쩍
090
라카
멘토
##디우스
벤트
##UK
청문회
라다
어려
카르텔
의뢰인
##파일
Cap
낙동
버겁
BP
YG
클럭
넷째
쥬라기
Fall
숙지
234
고아원
굴러가
di
신천
물결
미코
샬롯
성시
이츠키
Final
실감
천왕
치프
옴니
초딩
콩두
엑스맨
노라
아와
약사
코러스
##aka
선율
##코스터
로어
아날로그
RT
그리폰
끌어당기
##yes
고요
퍼플
수사관
life
후후
EB
블룸
박병호
차우
삽입곡
엘릭
롤러코스터
다라
토우마
온건
애니메이터
다비드
226
싱크로
Will
신드
##ris
난장판
우디
##미트
249
알바니아
엠블렘
주화
로스쿨
야스오
동명이인
미식축구
송나라
아야노
규율
##거래
판단력
마사토
포구
즐거움
부우
출국
이어주
로렌스
풀이
블로킹
PT
다그
세바스
허다
부록
스트림
악평
안톤
메트
위닝
##레톤
방사선
망각
##오버
##분투
시프
카툰
호각
소방서
업종
거라
북동쪽
넬슨
도봉
바알
사냥터
소나타
티라노
방탄소년단
만성
백병
Angel
호라이즌
생식
토카
켈트
우선시
메가트론
RX
저명
스켈레톤
소양
카자마
관현악
야구부
유승민
분양
Stage
Net
Spring
make
강진
흡입
##게스
효용
겁쟁이
이룩
적과
##린트
물러서
클라크
니퍼
재보
맥시
##que
##arius
최원
SEED
우먼
217
곧이어
보이즈
함유
짜이
스테이크
오리지날
WHIP
상소
퇴직
410
참수
컬럼
신태
점치
##하임
배수량
김은
방영일
BMW
증대
엘더스
제주특별
##자치도
제주특별자치도
##ONE
경순양함
카라스
##재욱
인삼
재일
동률
슈리
흉기
##tain
##곡절
사적
속주
린이
Boy
플랜트
보성
파비
Club
생몰
예민
우여곡절
루돌프
##헤치
##ision
자행
에이미
라티
웍스
그레이브
주루
애시당초
하강
괄호
반도체
기교
전자기
디럭스
호족
표준어
샌드위치
ff
##다가
올레
슬라이더
발사체
다다르
다이어
도래
##모델
경부선
요가
1906
월등히
228
ABC
BW
소품
Come
Great
사요
혼잡
##str
RR
남인
미상
빨아들이
압승
양지
##걸음
233
매료
산전
중순양함
레바논
향토
잔존
##폴트
라이토
계약서
##보스
##깐
최연
애니플러스
가맹
익산
한승
##95
Cor
경멸
초라
토드
파커
아로
캠핑
마석
받아치
내용물
##ASS
검기
억양
아돌프
루기
##ader
김시
칼질
##ama
혈압
##하니
교무실
재래
차오르
##OWN
궁궐
치토
옥타브
유상
##부사
고철
미도
과열
이보
##ague
고드
기념일
발기
잡아
소대장
악단
양말
독살
여중
티르
보그
##신기
##블루
part
보아
수만
천진
캄보디아
골격
철자
용호
중대장
미네랄
Class
미우
황폐
트렌드
별거
타원
##ause
진기
예컨대
차크라
##팔로
##IME
스팟
편애
흥하
224
IMF
평이
##올로
라니
잔소리
파라오
Break
MY
Fly
투영
포커
##시장
속임수
약품
375
##ross
텐트
슬래
황색
##ival
실탄
연마
취항
역전재판
사우디
has
아르타
SKE
im
Legend
염동
발열
설진
친왕
##보살
바티칸
발포
버크
신진
피파
초구
항일
리제
목조
카로
자릿수
cont
산림
서주
Little
하자드
PH
구가
단다
##해야
티격
경대
##바인
인원수
강대국
##브레
##ism
센고쿠
피노
사이비
##와르
##83
##로지
##ᆯ래
임재
들어올리
환율
최형우
멜리
##모트
aqu
기증
하인리히
허약
##관리
복수심
머독
힘내
시부야
기압
신승
청자
문경
조각상
위저드
코퍼
젠지
자서
레볼루션
##장치
광폭
양방향
라우
##아오르
Girls
북벌
시우
틀림없
용납
우등
##att
Univers
클러치
발족
코우지
집요
만우
예비역
황해
##테라
아디
##IVE
코바
낙서
##날리
##걸
엘라
거든요
만악
보스니아
RB
세터
안
어설트
##불리
는커녕
세계수
Swe
구식
##erry
수송기
'~
ER
NFL
교황청
고참
서산
키사라기
정찰기
매
승용차
회원국
fr
코요미
##대왕
공평
초음
는다며
뮐러
사춘
김구라
시급
파워레인저
강정
이트
John
EXO
조동
프랑크푸르트
은색
##마니
모금
아누
APC
윤종신
폭언
수목
심복
김규
로젠
숨결
이완
치하
##피온
##네즈
연합회
##르슈
빙글
어르
대주교
아소
전주시
도네
로니
##도어
카자흐스탄
겨냥
몬트리
박원
##슐리
never
몬트리올
출진
301
음료수
녹스
레인저스
셔먼
스틸러스
비방
##교사
코미디언
모차
출연자
글래스
포메이션
마이티
린드
남아메리카
우왕
목장
##uch
증표
냉혹
again
비야
천자
초심
성우진
바이트
만우절
에마
야나기
##래스카
순회
##구멍
##매김
평야
##트릭
heart
이바라
##티티
Gl
몰두
해부
허물
후사
빈민
추축
내비치
치솟
##헤드
우려먹
자객
컵스
자리매김
미스테리
CGV
개전
박하
오거
호위함
위아래
광해군
오정
스테판
크로스오버
시메
227
폭넓
하동
##ords
PRO
조그맣
브록
정민
헌트
Mem
Take
러스트
호문
매끄럽
악연
올인
착안
하로
##시온
##전함
마사히로
도요토미
램지
봄버
##충류
레이카
히브리
성소
어웨이
국보
사츠키
사춘기
무예
헤엄
노홍철
실록
담보
스탬
##샤인
인제
TBS
쇼타
조슈아
강국
쇼코
390
1913
악세사리
명지
대기실
##지우
비평가
em
##로그램
헤이세이
에버튼
통폐
건축가
기울어지
미공개
보류
지원군
눈보라
볶음
##람회
원사
인계
한판
모자이크
낙양
누비
로트
코만
라몬
512
교묘
숨지
화성시
괴이
니르
윤영
##ubl
강희
화합물
라이엇
우울증
요령
제때
매튜
1909
아토
차고
오우거
은신처
레티
루시안
캔자스
프렌드
##베트남
동탄
##조림
##칼리버
징집
비견
휴지
지식인
제천
프로토콜
ㅕ야
생생
미시마
숙박
sk
북위
브리지
정설
줄무늬
서신
점성
편향
##브론
대련
임정
1915
마방
스미레
교명
이리스
정치력
알라딘
중종
대니얼
남동쪽
##포동
은빛
011
무함
인턴
토치
xx
갈비
계엄
유권자
정근
##body
Cry
mA
뻔뻔
##링턴
의약품
오승
오컬
큐트
저상버스
Hol
가온
도가
##서니
1700
타쿠야
근황
의결
##정리
각광
맹렬
북아메리카
마레
반입
나오미
견습
##토모
##ital
김종국
외지
유키노
크류
흑색
뜬금없
모하
철혈
제네레이션
에디터
대성공
##리언
사칭
총수
##apan
스냅드래곤
수첩
뜻밖
돌변
종파
품목
##주니어
##세움
쌍검
재기
##말라
맹수
원가
정명훈
분파
식용
활력
시티즌
위드
페가수스
애착
양양
##로리
ISO
내분
뜯어
ㅏ라
개표
##iny
크리스티나
시트콤
울산광역시
EPL
건너오
반공
쿄스케
타도
##넌트
껄끄럽
나크
마르셀
거래소
ad
모사
반쪽
##ura
더듬
투덜
폐업
##뉴스
OO
예거
주선
##시간
##전대
서대문
통폐합
나성
비터
전압
시칠리아
##상부
##빠지
##ople
기권
둔기
아틀란
재계
##ler
뇨
##cy
걷어차
김종민
귀속
숙제
##마을
here
폐인
##REME
Ho
간과
오컬트
마르티
Gal
꼬시
도맡
DSP
오사무
어썰
어썰트
뉴타입
담원
틈타
Sn
억누르
클레멘
니콜라스
1904
##DDR
오현
##펠러
문예
올려
이븐
크레인
##스틱
관람객
747
꼬박
푸시
Ind
OM
거침
무마
Mbps
ᆫ답시고
##라이어티
HR
~?
경복
버라이어티
##oun
테드
표류
슬로바키아
기금
둘째치
bb
정박
쾌락
펠릭스
남서쪽
군청
##ino
바닷가
데미안
##수염
게으
전조
카오
인기가요
##훈련
##irect
소외
손발
김장
naver
매크로
어려우
MUS
에너
코라
##메이트
\]
동자
릴레이
##발리
내레이션
##78
합숙
공소
풀타임
기념관
##IO
##TH
##팽이
요르단
기시
로더
시제
엄연
일면
카즈미
GTX
도넛
자물
식구
입점
확진
##다카
모용
상층
231
다이노
단결
세이야
체이서
성북
역도
##십자
설리
##길이
전광판
수록
고온
방아
벗겨지
떠나가
오라클
FO
루가
극하
트리니티
노미야
여차
증식
추격전
|[
우즈베키스탄
Real
프레데터
aquarius
사고방식
1916
일전
자물쇠
Rad
선샤인
마스터즈
##aker
bo
백스
운하
무트
NORM
상역
조경
252
슴
SMG
when
류우
지효
##소연
급감
튀르크
어진
환장
꽃잎
금세
당부
단호
진중
가비
완주
##후미
타카히로
닛폰
사각형
섬뜩
염증
인가
라이덴
경비대
Sou
강급
그늘
##AE
##by
컬트
실물
암묵
교통부
닷컴
역적
짝퉁
238
서바이버
트롤링
특혜
##식물
백종
서강
나카지마
아라시
선단
장시간
gu
그딴
노노
주지사
수학자
let
툭하면
Aut
##lex
순전히
##요이
아오키
장지
중용
##UD
NORMAL
친일파
코스모스
길래
이동기
When
야요이
이면
이따금
조만
질책
열대
협주곡
신뢰도
신해
##줄기
아이파크
430
any
구기
돌려받
##유예
주변인
계주
데이지
기대감
다리우스
지저
가락
뿌요
주조
Park
만신
손길
명심
Single
##BY
무함마드
새턴
스쿠
뒤바뀌
이코
세이프
고체
수없이
##너드
똑바로
로켓단
공모전
##36
조건부
웨스턴
담그
츳코
##숭아
성매매
##노트
##리스크
카니발
송곳니
불러내
Who
샤이니
Esp
독소
등기
엑스포
나츠메
고영
멱살
EXTREME
play
마커스
##lection
근교
노미
##onder
머큐
PG
공표
신노스케
Hi
마일리
웬디
하룻
##anger
숙적
이그
##gy
스타킹
금정
집게
타사
폭투
롱주
방주
영도
탁구
실컷
양분
##48
농성
매춘
도키
향신
브리튼
냅다
우의
테디
하르트
원정대
선량
출토
피렌
가계
차차
타카오
##나타
카디널
고군
허드
##사노
Feel
퍼레이드
달려드
래빗
min
육신
하가
##설수
이크
일루
카모
을시
기념비
Du
기요
레타
##raft
Album
Je
가늘
공구
무례
그랜트
mAh
루팅
수양
합격자
버팔로
JYP
광란
프리퀄
북아프리카
무서워하
명제
어쩐
##립스
어쩐지
뜯어내
여제
전범
파헤치
##RO
##ONG
서슴
동맹국
아틀란티스
개요
진명
하즈
백웅
팔다리
한국식
Cal
Mix
낙사
ap
개머리
금단
사무총장
아카이브
우터
동시대
hp
다다
데르
des
차츰
##방지
기형
타깃
플리트
Inv
스프레이
홍익
격분
파충류
볼링
업소
오웬
서스펜션
부대장
하야테
분광
분실
지평
팽팽
##로니카
신스
열강
치요
##마르크
레베카
비어
풍습
##산부
SNK
외동
계책
포커스
##98
코스모
주점
##ya
이효
탄산
red
WWF
Ret
방콕
완승
사이다
안주
츠네
Hero
가도
박동
음파
Kim
규슈
도면
테두리
주유소
수식어
광년
앙상
연정
##비슷
우치하
베가스
브리스
##타마
세인
조반
유괴
쿠보
##태격
티격태격
항공대
##ations
리라
실권
재편
투지
Ult
껍데기
놀러
은혼
짓거리
근육질
QP
판다
236
공문
넥스트
대첩
저질
이광수
킬로미터
장민
감격
사보
##ouble
뭉개
바래
플롯
굳건
다테
##다주
껴안
단국
브렌
모차르트
##뮬러
란다
공무
면담
슈테
작자
계몽
뒤섞
성물
지네
##ball
##제비
눈길
서큐버스
Blood
소자
코아
##병기
뒤집어쓰
관내
윤석민
지브
Fun
some
은근슬쩍
역행
대장간
어떡
음절
##그래
STA
한신
로아
KE
배당
속출
경제력
자습
평온
불계승
치환
장문
##르도
지원자
국지
나자
보크
요절
야유
##나르도
어정
엄하
통통
##정사
##uture
피시
Sol
수트
크래시
공예
난데
몽환
별장
루트비히
수비대
를르슈
터너
코타
##eck
셀레
최민
콜린
아구
탄력
성화
자일
총무
##vil
보살피
스메
라이스
독일인
하야시
need
##제트
##푸르
이라든지
오기
원안
Sweet
지질
##더미
010
격납고
##eek
승승장구
매혹
악재
변기
##사태
##ocal
KBL
Ag
뒤떨어지
바카
##ather
스콜피온
라디
앞부분
잭스
시게루
Val
원료
##배기
일렉트릭
스무
제련
횃불
Tech
피어스
화순
열화
중수
자서전
요요
피통
##TC
혹독
천안시
유니버설
다람쥐
신야
이견
사타
햄튼
##더리
265
반열
사념
실격
홀수
실린더
하모니
##볼트
마리나
##로트
CBS
꼼꼼
##비어
들이닥치
잘나
워스
이언
유품
조련
스트롱
결번
돌고래
##리역
하룻밤
넷플
투자자
넷플릭스
강북
정액
희소
금천
앙쥬
개머리판
Say
밝기
왕권
내신
료코
한류
##HN
주둔지
로드리게스
스펜
조례
루디
##틀린
USS
전면전
돌이키
피쉬
순종
##암리
##날레
끌어안
##ANCED
재탕
##arth
윤지
3500
거처
봉건
초밥
명계
비화
치어리
한없이
격변
클라라
나돌
로데
가열
불륜
이윤열
설날
제
최승
Def
테크놀
눈여
복판
야가미
##onna
교육감
510
Space
언뜻
도카이
왼발
호크스
802
컷인
야권
##여
위너스
홍차
기색
난도
232
맥도날드
자오
손대
다케다
충당
로밍
##티시
흑발
정신병
매카
반년
제이미
제이콥
말뚝
사루
##34
them
대항전
사이클론
노련
##뚜기
Beat
레터
##태인
옐로우
최준
##바탕
프리랜
##ours
빙하
앞머리
특별자치
노리코
특별자치시
공판
경계선
사들이
하루히
예선전
르블랑
이불
조시
상디
##도나
국한
메릴
기니
염기
시영
히타
굴림
페르디난
일제히
대서
풀어내
her
라나
훌쩍
레이브
다르크
산산조각
대항해
쓸리
이연
한문
기껏해야
메기
판례
타이베이
로빈슨
위그
가우스
명절
변칙
빗대
##사무소
##ena
실기
##클레
##hammer
작센
안드레
WORLD
셰이
엽기
잔치
태반
대덕
수교
원군
히로미
변속
알렌
##그로
640
안즈
외과
프랑켄슈타인
내던지
번성
##빙글
Orig
영정
컨버
##ames
클리프
제각각
소서
ADVANCED
따
꼬맹이
딱지
세카
메모리얼
몰아가
부포
직사
희한
랠리
인위
내려치
GC
미우라
공식전
우라늄
애호
코니
하네
카리브
서초구
마니아
액스
향신료
만연
사오
족족
팔아먹
견주
총체
펠레
##출력
스캇
이부키
그레이스
통솔력
얼른
월트
Dest
내치
파라과이
Mac
##토니아
이리야
세습
##매기
스트링
불명예
마음먹
레드삭스
LCS
칼데아
다던
##ement
##thing
히데키
엘사
사일런트
외할
##게일
굴절
레테
이국
연막탄
신영
Zero
발진
황녀
!!!
LOL
오소
홍련
##rough
##aid
##노부
밀리터리
속죄
##욕장
리크
세네
##ways
동떨어지
장영
아라비아
베네딕
밀짚
병풍
젠더
##투사
GOT
분단
결속
밀수
오도
##입구역
자하
코피
포박
프로세스
한테서
독창
분담
##게이트
포뮬러
신재
카나코
고딕
번쩍
트란
Story
장발
종업
타타
무궁화호
워킹
황룡
푸딩
305
강좌
덴마
폭죽
파피
교량
심해
첩자
형용
##알라
325
들이받
she
쇼우
PERF
클라이맥스
Home
길가
모란
유린
장이
편차
##DER
아스가르드
##경민
##우옌
피의자
##UG
##자락
##느러미
공격진
프리랜서
##ta
연장선
분하
한라
역마
이모티콘
뫼비우스
##ano
와해
살포
수렵
실비아
안영
파이팅
철구
다는데
디스코
-!
깨뜨리
마즈
후추
##une
정근우
뒤따르
자초
등록금
러프
열도
쿠루미
동일본
다의
##so
불어넣
KC
조병
##뉴얼
비지
이사벨
주저앉
달랑
더욱더
##테르담
겐지
수로
정변
머큐리
Ry
대방
케일
권력자
웅장
쿠즈
##ait
