[PAD]	0
[UNK]	0
[BOS]	0
[EOS]	0
[CLS]	0
[SEP]	0
[MASK]	0
▁▃	-0
▁이	-1
▁.	-2
▁에	-3
▁는	-4
▁다	-5
▁의	-6
▁을	-7
▁하	-8
▁가	-9
▁,	-10
▁한	-11
▁고	-12
▁를	-13
▁은	-14
▁1	-15
▁지	-16
▁으	-17
▁도	-18
▁기	-19
▁있	-20
▁2	-21
▁로	-22
▁아	-23
▁그	-24
▁에서	-25
▁으로	-26
▁사	-27
▁인	-28
▁시	-29
▁어	-30
▁들	-31
▁대	-32
▁라	-33
▁수	-34
▁게	-35
▁보	-36
▁자	-37
▁나	-38
▁일	-39
▁되	-40
▁전	-41
▁해	-42
▁었	-43
▁과	-44
▁-	-45
▁면	-46
▁적	-47
▁마	-48
▁것	-49
▁만	-50
▁스	-51
▁3	-52
▁와	-53
▁주	-54
▁했	-55
▁정	-56
▁부	-57
▁상	-58
▁모	-59
▁20	-60
▁년	-61
▁공	-62
▁때	-63
▁'	-64
▁한다	-65
▁:	-66
▁여	-67
▁경	-68
▁제	-69
▁유	-70
▁중	-71
▁된	-72
▁오	-73
▁위	-74
▁없	-75
▁지만	-76
▁4	-77
▁소	-78
▁무	-79
▁비	-80
▁성	-81
▁등	-82
▁할	-83
▁거	-84
▁않	-85
▁5	-86
▁에게	-87
▁던	-88
▁개	-89
▁미	-90
▁0	-91
▁조	-92
▁세	-93
▁며	-94
▁바	-95
▁"	-96
▁월	-97
▁서	-98
▁201	-99
▁장	-100
▁방	-101
▁/	-102
▁내	-103
▁동	-104
▁선	-105
▁카	-106
▁연	-107
▁구	-108
▁타	-109
▁신	-110
▁안	-111
▁영	-112
▁말	-113
▁화	-114
▁후	-115
▁생	-116
▁당	-117
▁리	-118
▁발	-119
▁버	-120
▁진	-121
▁까	-122
▁차	-123
▁레	-124
▁는데	-125
▁더	-126
▁때문	-127
▁6	-128
▁원	-129
▁파	-130
▁강	-131
▁우	-132
▁10	-133
▁명	-134
▁실	-135
▁최	-136
▁까지	-137
▁노	-138
▁문	-139
▁불	-140
▁번	-141
▁데	-142
▁7	-143
▁같	-144
▁단	-145
▁였	-146
▁라는	-147
▁라고	-148
▁포	-149
▁회	-150
▁된다	-151
▁관	-152
▁받	-153
▁S	-154
▁특	-155
▁8	-156
▁많	-157
▁결	-158
▁초	-159
▁반	-160
▁!	-161
▁았	-162
▁다고	-163
▁작	-164
▁드	-165
▁알	-166
▁역	-167
▁프	-168
▁19	-169
▁면서	-170
▁처	-171
▁배	-172
▁코	-173
▁계	-174
▁9	-175
▁경우	-176
▁피	-177
▁분	-178
▁공격	-179
▁남	-180
▁추	-181
▁함	-182
▁건	-183
▁아니	-184
▁A	-185
▁다는	-186
▁사용	-187
▁물	-188
▁출	-189
▁본	-190
▁국	-191
▁못	-192
▁야	-193
▁현	-194
▁자신	-195
▁크	-196
▁매	-197
레이	-198
▁달	-199
▁편	-200
▁M	-201
▁좋	-202
▁치	-203
▁니	-204
▁이후	-205
▁입	-206
▁점	-207
▁패	-208
▁감	-209
▁%	-210
▁호	-211
▁요	-212
▁트	-213
▁학	-214
▁교	-215
▁따	-216
▁두	-217
▁정도	-218
▁재	-219
▁사람	-220
▁저	-221
▁메	-222
▁통	-223
▁C	-224
▁예	-225
▁속	-226
▁또	-227
▁그리	-228
▁플	-229
스트	-230
▁B	-231
▁가능	-232
▁T	-233
▁김	-234
▁설	-235
▁캐	-236
▁걸	-237
▁참	-238
▁형	-239
▁평	-240
▁등장	-241
▁D	-242
▁다른	-243
▁~	-244
▁부터	-245
▁군	-246
▁+	-247
▁쓰	-248
▁돌	-249
▁토	-250
▁살	-251
▁..	-252
▁죽	-253
▁올	-254
▁이나	-255
▁종	-256
▁12	-257
▁음	-258
▁으며	-259
▁승	-260
▁아이	-261
▁?	-262
▁체	-263
▁보다	-264
▁권	-265
▁게임	-266
▁외	-267
▁키	-268
▁팀	-269
▁는다	-270
▁간	-271
▁판	-272
er	-273
▁200	-274
▁11	-275
▁잘	-276
▁직	-277
▁용	-278
▁루	-279
▁L	-280
00	-281
▁그리고	-282
▁해서	-283
▁네	-284
▁맞	-285
▁확	-286
▁심	-287
▁애	-288
▁하나	-289
▁행	-290
▁경기	-291
▁변	-292
▁사실	-293
▁필	-294
in	-295
▁박	-296
▁운	-297
▁듯	-298
▁테	-299
▁다가	-300
▁시간	-301
▁F	-302
▁엔	-303
▁날	-304
▁P	-305
▁뒤	-306
▁위해	-307
▁투	-308
▁디	-309
▁모습	-310
니다	-311
▁히	-312
▁목	-313
▁베	-314
▁집	-315
▁언	-316
▁높	-317
▁약	-318
▁대한	-319
▁활	-320
▁G	-321
▁이상	-322
▁순	-323
▁사이	-324
▁이름	-325
▁준	-326
지만	-327
▁각	-328
▁상대	-329
▁표	-330
▁양	-331
▁나오	-332
▁E	-333
▁그러	-334
▁클	-335
스터	-336
▁능	-337
an	-338
▁려	-339
▁볼	-340
▁시작	-341
▁존	-342
▁효	-343
▁문제	-344
▁15	-345
on	-346
▁일본	-347
▁잡	-348
▁함께	-349
▁어서	-350
▁거나	-351
▁힘	-352
▁왕	-353
▁하지만	-354
▁손	-355
▁증	-356
▁병	-357
▁생각	-358
▁별	-359
▁겠	-360
▁한국	-361
▁난	-362
▁너	-363
▁으면	-364
▁다시	-365
▁#	-366
▁임	-367
▁캐릭	-368
▁H	-369
▁합	-370
▁브	-371
▁R	-372
▁막	-373
▁완	-374
▁천	-375
▁K	-376
▁만들	-377
▁폭	-378
▁열	-379
▁캐릭터	-380
▁끝	-381
▁들어	-382
▁능력	-383
대로	-384
▁프로	-385
▁t	-386
▁총	-387
▁플레이	-388
▁독	-389
▁블	-390
▁시즌	-391
▁I	-392
▁먹	-393
▁N	-394
▁스킬	-395
▁항	-396
▁페	-397
이트	-398
▁처럼	-399
▁근	-400
▁커	-401
▁광	-402
▁추가	-403
▁줄	-404
▁복	-405
▁가지	-406
▁식	-407
▁m	-408
▁검	-409
▁상황	-410
▁가장	-411
▁친	-412
▁새	-413
▁쿠	-414
▁태	-415
▁또한	-416
▁카드	-417
▁삼	-418
▁따라	-419
미지	-420
or	-421
▁상태	-422
▁채	-423
▁당시	-424
▁누	-425
▁느	-426
▁모두	-427
▁빠	-428
▁결국	-429
ar	-430
▁백	-431
▁충	-432
▁효과	-433
▁산	-434
▁길	-435
▁다만	-436
▁터	-437
▁곡	-438
▁업	-439
▁모든	-440
▁얼	-441
▁앞	-442
▁18	-443
▁티	-444
▁16	-445
▁보여	-446
▁악	-447
▁그런	-448
▁넘	-449
▁금	-450
▁많이	-451
▁눈	-452
▁보이	-453
▁러	-454
▁전투	-455
▁30	-456
▁O	-457
▁시리	-458
▁및	-459
at	-460
▁급	-461
▁될	-462
▁온	-463
▁민	-464
▁13	-465
▁레벨	-466
▁선수	-467
▁슈	-468
▁그래	-469
he	-470
▁세계	-471
▁]	-472
▁s	-473
▁싸	-474
▁W	-475
▁머	-476
▁존재	-477
▁케	-478
라이	-479
▁나온	-480
▁14	-481
▁[	-482
▁현재	-483
▁라이	-484
▁습	-485
▁골	-486
▁큰	-487
▁매우	-488
▁시리즈	-489
▁취	-490
▁으나	-491
▁무기	-492
▁상당	-493
▁긴	-494
▁갈	-495
▁스타	-496
▁물론	-497
▁팬	-498
▁그러나	-499
▁레이	-500
▁다면	-501
▁첫	-502
▁마법	-503
▁극	-504
▁절	-505
▁탄	-506
인다	-507
▁엄	-508
므로	-509
en	-510
▁얻	-511
▁17	-512
▁황	-513
▁찾	-514
▁c	-515
▁자체	-516
▁창	-517
▁그렇	-518
▁기술	-519
▁100	-520
▁밀	-521
▁뿐	-522
▁00	-523
▁이런	-524
▁실제	-525
▁청	-526
▁탈	-527
▁주인	-528
▁아닌	-529
▁피해	-530
▁해야	-531
▁이유	-532
으나	-533
▁25	-534
▁관련	-535
▁벌	-536
▁허	-537
거리	-538
▁떨	-539
ou	-540
▁같이	-541
▁V	-542
▁시키	-543
이지	-544
al	-545
린다	-546
▁이용	-547
▁필요	-548
▁U	-549
▁방송	-550
▁여기	-551
▁해당	-552
▁다음	-553
▁기본	-554
▁인데	-555
▁몬	-556
▁인지	-557
▁철	-558
▁지역	-559
▁역시	-560
▁바로	-561
▁법	-562
▁워	-563
▁처음	-564
▁질	-565
▁기록	-566
▁대해	-567
▁곳	-568
▁방어	-569
▁일반	-570
▁거의	-571
▁환	-572
▁돌아	-573
▁째	-574
▁잠	-575
▁귀	-576
▁혼	-577
▁몰	-578
▁이야	-579
리스	-580
▁2017	-581
▁199	-582
▁북	-583
▁둘	-584
▁범	-585
▁대학	-586
▁글	-587
이스	-588
▁아무	-589
으며	-590
▁좀	-591
▁붙	-592
▁냐	-593
▁사건	-594
▁2018	-595
▁여러	-596
▁미국	-597
▁놓	-598
▁에선	-599
▁란	-600
▁격	-601
▁특히	-602
▁는지	-603
▁이야기	-604
▁밖	-605
진다	-606
▁엘	-607
▁k	-608
▁없이	-609
▁부분	-610
▁떨어	-611
▁진행	-612
리아	-613
▁싶	-614
▁영화	-615
es	-616
지막	-617
▁통해	-618
▁달리	-619
▁학교	-620
▁본인	-621
▁인간	-622
▁헤	-623
▁아서	-624
▁증가	-625
▁못하	-626
▁즉	-627
▁2019	-628
▁참고	-629
it	-630
▁버리	-631
▁담	-632
▁슬	-633
▁라면	-634
▁풀	-635
▁리그	-636
▁주인공	-637
▁해도	-638
부분	-639
▁제작	-640
▁든	-641
▁만큼	-642
▁마지막	-643
▁속도	-644
▁작품	-645
▁자기	-646
▁몸	-647
▁그냥	-648
▁21	-649
▁덕	-650
▁50	-651
▁X	-652
▁밝	-653
▁내용	-654
▁보인다	-655
▁2016	-656
▁공격력	-657
▁계속	-658
▁대표	-659
▁수준	-660
▁대부분	-661
▁인물	-662
▁접	-663
▁개요	-664
is	-665
▁암	-666
▁올라	-667
▁몇	-668
▁&	-669
▁팔	-670
▁쪽	-671
전히	-672
▁떠	-673
re	-674
▁어느	-675
▁동안	-676
▁위치	-677
▁비슷	-678
▁딜	-679
어나	-680
▁대신	-681
▁국가	-682
▁22	-683
▁인해	-684
▁w	-685
토리	-686
▁습니다	-687
le	-688
▁홈	-689
▁지금	-690
▁상당히	-691
▁평가	-692
▁축	-693
▁기사	-694
▁활동	-695
▁일부	-696
▁관계	-697
▁타이	-698
▁이전	-699
▁우리	-700
▁낮	-701
▁영상	-702
▁보스	-703
▁J	-704
▁울	-705
▁서울	-706
한다	-707
▁d	-708
▁규	-709
▁체력	-710
▁그대로	-711
▁너무	-712
▁24	-713
▁마다	-714
▁유닛	-715
▁퍼	-716
▁감독	-717
▁최대	-718
▁맡	-719
▁문서	-720
▁괴	-721
▁성공	-722
▁기준	-723
▁시절	-724
▁논	-725
▁홍	-726
ing	-727
▁넣	-728
ic	-729
▁먼	-730
▁제외	-731
▁데미지	-732
▁f	-733
▁중국	-734
▁므로	-735
▁망	-736
▁몬스터	-737
▁츠	-738
▁실제로	-739
▁유저	-740
▁바람	-741
as	-742
▁결과	-743
▁맨	-744
▁뛰	-745
▁정보	-746
▁멤	-747
▁설정	-748
▁센	-749
▁b	-750
▁그녀	-751
시아	-752
▁전쟁	-753
▁지원	-754
▁승리	-755
▁이미	-756
▁23	-757
▁멤버	-758
▁대로	-759
▁소속	-760
▁2015	-761
▁언급	-762
▁쓸	-763
▁자리	-764
▁빌	-765
▁애니	-766
▁님	-767
▁원래	-768
▁칼	-769
▁40	-770
▁도록	-771
▁직접	-772
다가	-773
▁성우	-774
▁컨	-775
▁으니	-776
▁설명	-777
버지	-778
▁링	-779
▁육	-780
▁전체	-781
▁선택	-782
▁이동	-783
▁의미	-784
▁쉽	-785
▁도시	-786
▁마음	-787
▁a	-788
▁씩	-789
▁여자	-790
▁희	-791
운드	-792
▁다르	-793
▁과거	-794
▁봐	-795
▁돈	-796
▁나온다	-797
▁머리	-798
랜드	-799
▁협	-800
▁<	-801
▁봉	-802
▁엄청	-803
▁플레이어	-804
▁들어가	-805
▁묘	-806
▁친구	-807
▁방법	-808
▁갑	-809
▁늘	-810
▁아이템	-811
▁측	-812
▁나타	-813
▁장면	-814
▁출연	-815
이션	-816
▁뉴	-817
▁됐	-818
▁나왔	-819
라도	-820
▁나가	-821
▁준다	-822
▁버전	-823
▁스토리	-824
▁차이	-825
▁새로	-826
▁탑	-827
om	-828
▁향	-829
▁소리	-830
▁꽤	-831
가지	-832
▁즈	-833
am	-834
▁p	-835
▁깨	-836
▁대사	-837
▁놀	-838
▁비해	-839
이드	-840
▁h	-841
▁사랑	-842
▁공식	-843
▁모드	-844
▁혹	-845
벤트	-846
▁압	-847
▁프리	-848
▁조금	-849
▁이것	-850
▁빨	-851
▁개발	-852
▁당하	-853
▁송	-854
▁갖	-855
▁대상	-856
▁198	-857
▁거리	-858
el	-859
▁초반	-860
▁책	-861
▁지나	-862
학교	-863
▁전부	-864
▁파이	-865
▁이어	-866
▁버스	-867
▁연구	-868
▁씨	-869
▁o	-870
▁침	-871
▁려고	-872
▁이벤트	-873
▁답	-874
▁최고	-875
▁남자	-876
▁만든	-877
▁속성	-878
▁로서	-879
▁제대로	-880
▁쇼	-881
▁사라	-882
▁26	-883
▁궁	-884
▁알려	-885
▁동시	-886
▁2014	-887
▁여성	-888
▁기타	-889
▁강화	-890
▁유명	-891
▁파괴	-892
이도	-893
▁듣	-894
▁나이	-895
▁층	-896
▁잔	-897
▁스테	-898
▁정말	-899
▁n	-900
▁아버지	-901
▁역사	-902
▁쉬	-903
▁28	-904
▁류	-905
▁드래	-906
▁색	-907
▁성능	-908
▁자주	-909
▁소환	-910
▁찍	-911
▁학생	-912
▁샤	-913
▁27	-914
▁최종	-915
▁아직	-916
▁앨	-917
▁운영	-918
▁의해	-919
▁우승	-920
▁the	-921
▁회복	-922
▁후반	-923
▁이렇	-924
▁석	-925
▁멀	-926
▁31	-927
▁왜	-928
▁모르	-929
▁당연	-930
▁출신	-931
▁농	-932
▁마이	-933
▁특성	-934
▁그런데	-935
▁=	-936
▁인터	-937
▁라도	-938
▁강력	-939
▁한다는	-940
▁공개	-941
부터	-942
▁확률	-943
▁이때	-944
▁사망	-945
▁유지	-946
▁서로	-947
▁콘	-948
▁마리	-949
▁주로	-950
▁노래	-951
리어	-952
▁착	-953
▁노선	-954
▁움	-955
▁그것	-956
▁발매	-957
어난	-958
▁턴	-959
ol	-960
▁했으나	-961
▁방식	-962
▁위한	-963
▁시켜	-964
▁슈퍼	-965
▁나라	-966
▁발생	-967
▁000	-968
▁써	-969
▁라인	-970
▁마찬	-971
▁특수	-972
▁마찬가지	-973
▁시스	-974
▁정신	-975
▁영향	-976
▁결정	-977
▁오히	-978
▁끌	-979
▁대전	-980
▁월드	-981
▁솔	-982
▁오히려	-983
ion	-984
▁빼	-985
▁변경	-986
▁장비	-987
et	-988
▁영웅	-989
▁비교	-990
▁기존	-991
▁포함	-992
ac	-993
▁수록	-994
▁역할	-995
른다	-996
▁드라	-997
▁인기	-998
▁배우	-999
▁보통	-1000
▁게다가	-1001
▁르	-1002
▁뜻	-1003
▁어떤	-1004
머니	-1005
▁작중	-1006
▁32	-1007
▁섬	-1008
▁억	-1009
▁그래도	-1010
▁차량	-1011
▁중요	-1012
▁마을	-1013
▁아예	-1014
▁가진	-1015
▁형태	-1016
▁술	-1017
▁싱	-1018
▁성격	-1019
▁세트	-1020
▁일단	-1021
▁Y	-1022
▁좌	-1023
▁행동	-1024
▁이번	-1025
▁버렸	-1026
▁그래서	-1027
▁난이도	-1028
▁이루	-1029
▁못했	-1030
il	-1031
us	-1032
프트	-1033
▁29	-1034
▁부르	-1035
▁과정	-1036
우스	-1037
▁모양	-1038
▁맵	-1039
▁주장	-1040
▁액	-1041
▁흑	-1042
▁v	-1043
▁졌	-1044
ig	-1045
▁시대	-1046
▁음악	-1047
▁심지	-1048
▁빈	-1049
▁이러	-1050
▁대회	-1051
레이드	-1052
ow	-1053
▁부족	-1054
▁뽑	-1055
▁끼	-1056
▁최초	-1057
민국	-1058
ed	-1059
▁사회	-1060
▁심지어	-1061
▁구성	-1062
▁2013	-1063
▁빛	-1064
▁윤	-1065
▁스트	-1066
▁발동	-1067
▁숨	-1068
▁이렇게	-1069
▁왔	-1070
▁풍	-1071
▁입장	-1072
▁찾아	-1073
▁휴	-1074
▁만나	-1075
▁폐	-1076
▁확인	-1077
▁힘들	-1078
▁유일	-1079
간다	-1080
▁l	-1081
▁가까	-1082
▁칸	-1083
▁거기	-1084
▁어려	-1085
▁바이	-1086
▁넘어	-1087
▁다이	-1088
▁사진	-1089
▁먼저	-1090
▁획	-1091
▁애니메	-1092
▁정치	-1093
▁x	-1094
▁60	-1095
▁흔	-1096
▁아래	-1097
▁응	-1098
▁여담	-1099
▁항목	-1100
▁활약	-1101
▁조건	-1102
▁어떻	-1103
▁모델	-1104
▁자세	-1105
▁원작	-1106
▁훈	-1107
▁콜	-1108
▁35	-1109
▁덕분	-1110
▁시킨	-1111
▁곤	-1112
▁바뀌	-1113
▁득	-1114
▁시스템	-1115
▁하이	-1116
▁대한민국	-1117
▁녹	-1118
▁이제	-1119
▁Lv	-1120
▁완전히	-1121
▁감소	-1122
▁굉	-1123
▁주변	-1124
▁드러	-1125
▁합니다	-1126
▁어야	-1127
인트	-1128
▁프랑	-1129
id	-1130
▁내려	-1131
▁챔	-1132
▁명칭	-1133
▁뭐	-1134
▁자유	-1135
▁독일	-1136
▁갤	-1137
▁따르	-1138
▁순간	-1139
ay	-1140
▁메이	-1141
▁얼굴	-1142
▁애니메이션	-1143
▁전혀	-1144
▁푸	-1145
▁특징	-1146
▁관리	-1147
ad	-1148
▁경찰	-1149
▁2012	-1150
▁잃	-1151
▁라며	-1152
▁우주	-1153
▁차지	-1154
▁자동	-1155
버스	-1156
▁웨	-1157
▁적용	-1158
▁부대	-1159
▁01	-1160
▁교육	-1161
▁영어	-1162
▁굉장	-1163
▁가격	-1164
나마	-1165
▁듀	-1166
▁정부	-1167
▁패배	-1168
▁더라도	-1169
▁뮤	-1170
▁고등	-1171
▁드래곤	-1172
▁아군	-1173
▁of	-1174
▁마스터	-1175
▁r	-1176
▁실패	-1177
▁기간	-1178
없이	-1179
▁다니	-1180
소드	-1181
▁오브	-1182
▁쳐	-1183
▁개인	-1184
▁그렇게	-1185
▁생산	-1186
▁앨범	-1187
▁짓	-1188
▁얼마	-1189
ot	-1190
▁건물	-1191
▁죠	-1192
▁시점	-1193
▁한다고	-1194
ve	-1195
▁그나마	-1196
▁새로운	-1197
▁견	-1198
▁하루	-1199
▁지속	-1200
▁상승	-1201
▁혹은	-1202
▁덱	-1203
▁아들	-1204
and	-1205
주의	-1206
▁기능	-1207
▁벨	-1208
▁반대	-1209
▁국내	-1210
▁밖에	-1211
▁작가	-1212
▁지구	-1213
▁획득	-1214
▁처리	-1215
디오	-1216
▁TV	-1217
▁패치	-1218
레스	-1219
▁휘	-1220
▁딸	-1221
▁기억	-1222
▁에피	-1223
▁발견	-1224
▁실력	-1225
▁반응	-1226
▁소개	-1227
▁제국	-1228
▁도움	-1229
▁위해서	-1230
너지	-1231
▁정확	-1232
▁퀘	-1233
▁랭	-1234
▁만화	-1235
▁y	-1236
▁익	-1237
▁영국	-1238
▁동일	-1239
▁참조	-1240
▁킹	-1241
20	-1242
▁홀	-1243
▁선발	-1244
▁대학교	-1245
▁보내	-1246
▁현대	-1247
▁랑	-1248
▁조차	-1249
▁어도	-1250
▁담당	-1251
▁맛	-1252
▁출시	-1253
▁그림	-1254
ch	-1255
▁맥	-1256
▁땅	-1257
▁에피소드	-1258
▁계획	-1259
▁기관	-1260
▁쿨	-1261
▁초기	-1262
▁량	-1263
▁세대	-1264
▁드라마	-1265
▁단계	-1266
▁아마	-1267
▁밤	-1268
▁쓴	-1269
▁딱	-1270
▁움직	-1271
▁판매	-1272
▁범위	-1273
▁라서	-1274
▁또는	-1275
un	-1276
▁헌	-1277
▁폴	-1278
▁다며	-1279
▁한테	-1280
▁가져	-1281
▁헬	-1282
▁했으며	-1283
▁버프	-1284
▁퇴	-1285
소리	-1286
▁시청	-1287
▁37	-1288
BS	-1289
▁The	-1290
▁2010	-1291
▁틀	-1292
▁패턴	-1293
▁졸	-1294
▁상위	-1295
▁탐	-1296
▁회사	-1297
▁싸우	-1298
▁빠르	-1299
▁데이	-1300
▁문화	-1301
▁폭발	-1302
▁시기	-1303
▁등급	-1304
▁나와	-1305
▁물리	-1306
▁대미지	-1307
▁표현	-1308
▁따라서	-1309
▁요구	-1310
▁g	-1311
▁타입	-1312
▁무시	-1313
▁80	-1314
▁겨	-1315
▁확실	-1316
▁수비	-1317
▁500	-1318
▁사고	-1319
▁라운드	-1320
▁굉장히	-1321
▁St	-1322
▁웃	-1323
▁죽이	-1324
▁진짜	-1325
▁스페	-1326
▁어떻게	-1327
▁인정	-1328
▁이미지	-1329
▁돼	-1330
▁45	-1331
▁경험	-1332
▁발사	-1333
▁불리	-1334
ER	-1335
▁가족	-1336
▁소모	-1337
▁파워	-1338
▁어디	-1339
▁컴	-1340
▁생활	-1341
▁주의	-1342
▁*	-1343
▁아야	-1344
▁밝혀	-1345
▁묘사	-1346
▁낙	-1347
▁려는	-1348
▁세이	-1349
▁특별	-1350
▁09	-1351
▁족	-1352
▁활용	-1353
▁)	-1354
▁오리	-1355
▁굴	-1356
▁율	-1357
▁아주	-1358
▁펼	-1359
▁중앙	-1360
▁줬	-1361
dd	-1362
▁대체	-1363
▁디자	-1364
▁연기	-1365
▁km	-1366
▁진출	-1367
▁히로	-1368
▁방향	-1369
▁듯이	-1370
▁운동	-1371
▁트리	-1372
▁으로서	-1373
로스	-1374
▁197	-1375
▁한정	-1376
▁싸움	-1377
▁중간	-1378
▁엑	-1379
▁꿈	-1380
▁데뷔	-1381
▁02	-1382
▁프랑스	-1383
▁03	-1384
▁그룹	-1385
▁믿	-1386
인물	-1387
▁숙	-1388
▁생명	-1389
▁어렵	-1390
▁제한	-1391
▁준비	-1392
▁포인트	-1393
▁엔딩	-1394
▁핵	-1395
▁린	-1396
▁유리	-1397
▁야구	-1398
▁2011	-1399
▁밴	-1400
▁스테이지	-1401
▁혼자	-1402
▁어린	-1403
▁당연히	-1404
▁선거	-1405
ff	-1406
▁안타	-1407
▁낸	-1408
▁위험	-1409
▁등장인물	-1410
▁현실	-1411
▁옆	-1412
▁후보	-1413
▁짜	-1414
▁시장	-1415
▁엄청난	-1416
▁논란	-1417
▁조합	-1418
▁사실상	-1419
▁기에	-1420
ir	-1421
▁아르	-1422
▁욕	-1423
▁순위	-1424
▁텐	-1425
▁버린다	-1426
▁무장	-1427
통령	-1428
▁더욱	-1429
어지	-1430
▁05	-1431
▁십	-1432
▁흡	-1433
▁퀘스트	-1434
▁어머니	-1435
▁미션	-1436
▁스러	-1437
▁죄	-1438
▁분위	-1439
▁Z	-1440
▁묻	-1441
▁싫	-1442
▁런	-1443
▁표기	-1444
▁떨어지	-1445
스크	-1446
▁크리스	-1447
▁괜	-1448
▁비판	-1449
os	-1450
▁챔피	-1451
▁고등학교	-1452
▁브라	-1453
▁단순	-1454
▁민주	-1455
▁프로그	-1456
▁참여	-1457
▁70	-1458
▁구조	-1459
▁얘	-1460
▁90	-1461
▁분위기	-1462
▁블랙	-1463
▁계약	-1464
▁학년	-1465
▁동료	-1466
▁훨	-1467
▁08	-1468
im	-1469
▁갔	-1470
▁약간	-1471
▁중심	-1472
▁꾸	-1473
▁대통령	-1474
▁꼬	-1475
▁취급	-1476
▁투수	-1477
▁찬	-1478
▁조선	-1479
▁링크	-1480
▁못한	-1481
▁론	-1482
▁07	-1483
▁방어력	-1484
▁직업	-1485
▁으므로	-1486
▁똑	-1487
▁흥	-1488
▁콤	-1489
▁48	-1490
▁나무	-1491
▁보호	-1492
▁대해서	-1493
▁HP	-1494
▁훨씬	-1495
리카	-1496
▁여전히	-1497
비스	-1498
▁즐	-1499
▁결혼	-1500
▁줘	-1501
▁나머	-1502
▁염	-1503
▁설치	-1504
▁구간	-1505
▁시도	-1506
▁계열	-1507
▁다양	-1508
▁자면	-1509
ter	-1510
▁위원	-1511
▁방면	-1512
▁나머지	-1513
▁전용	-1514
이크	-1515
▁불구	-1516
▁올리	-1517
▁보였	-1518
▁살아	-1519
▁주요	-1520
▁져	-1521
▁디자인	-1522
▁성적	-1523
▁일정	-1524
티브	-1525
▁읽	-1526
▁탓	-1527
▁축구	-1528
니아	-1529
▁2000	-1530
▁mm	-1531
▁300	-1532
▁보상	-1533
▁06	-1534
려서	-1535
▁목적	-1536
▁소녀	-1537
▁메인	-1538
▁옵	-1539
▁연속	-1540
▁...	-1541
▁탱	-1542
▁33	-1543
▁강한	-1544
▁도망	-1545
▁수정	-1546
▁킬	-1547
▁배틀	-1548
▁지하	-1549
▁고려	-1550
▁기대	-1551
▁세력	-1552
ur	-1553
▁징	-1554
▁성장	-1555
▁쌍	-1556
▁삼성	-1557
▁률	-1558
▁벽	-1559
▁대화	-1560
▁부산	-1561
▁종류	-1562
▁36	-1563
▁잘못	-1564
▁롤	-1565
▁각각	-1566
스로	-1567
▁04	-1568
▁이해	-1569
▁캠	-1570
▁지방	-1571
▁팩	-1572
▁해결	-1573
▁보여준	-1574
▁참가	-1575
▁e	-1576
▁의견	-1577
od	-1578
▁발표	-1579
▁력	-1580
▁으면서	-1581
▁랜	-1582
▁일행	-1583
▁부상	-1584
▁쓰러	-1585
▁당신	-1586
▁입니다	-1587
▁포켓	-1588
▁전설	-1589
▁th	-1590
▁픽	-1591
▁마저	-1592
▁느낌	-1593
▁큐	-1594
▁전문	-1595
ag	-1596
▁거대	-1597
▁짧	-1598
▁예정	-1599
▁방영	-1600
▁일으	-1601
▁굳	-1602
▁벗	-1603
▁스피	-1604
▁끊	-1605
▁힐	-1606
▁프로그램	-1607
▁종족	-1608
▁센터	-1609
▁you	-1610
▁옥	-1611
▁운행	-1612
▁다운	-1613
▁과학	-1614
▁소설	-1615
▁버린	-1616
▁종료	-1617
▁근접	-1618
▁죽음	-1619
▁부활	-1620
▁각성	-1621
▁충분	-1622
▁녀	-1623
▁도중	-1624
지션	-1625
▁FC	-1626
▁조사	-1627
▁배치	-1628
▁렌	-1629
난다	-1630
ub	-1631
▁봤	-1632
▁흐	-1633
▁최근	-1634
▁장착	-1635
▁빅	-1636
▁칭	-1637
▁국민	-1638
▁무리	-1639
▁삭	-1640
▁러시아	-1641
▁정상	-1642
▁아이돌	-1643
▁척	-1644
데이트	-1645
▁세상	-1646
▁업데이트	-1647
▁안정	-1648
▁덤	-1649
▁스카	-1650
▁절대	-1651
▁나중	-1652
▁래	-1653
▁항공	-1654
▁벤	-1655
▁경제	-1656
▁cm	-1657
▁SK	-1658
▁제공	-1659
▁지도	-1660
▁점수	-1661
▁유니	-1662
▁스스로	-1663
▁엔진	-1664
▁제목	-1665
▁만드	-1666
igh	-1667
▁달성	-1668
▁자연	-1669
▁꺼	-1670
▁충격	-1671
▁번호	-1672
▁오른	-1673
▁켄	-1674
▁챔피언	-1675
▁오래	-1676
▁곧	-1677
▁미사	-1678
▁추정	-1679
▁배경	-1680
▁작전	-1681
ver	-1682
▁나타나	-1683
자기	-1684
▁번역	-1685
▁셈	-1686
▁비행	-1687
▁목록	-1688
▁똑같	-1689
▁목소리	-1690
▁사이트	-1691
▁조직	-1692
스타	-1693
▁가끔	-1694
▁정체	-1695
▁날아	-1696
▁요소	-1697
▁포켓몬	-1698
너스	-1699
ak	-1700
▁규모	-1701
▁미래	-1702
▁레어	-1703
▁34	-1704
▁스파	-1705
▁당했	-1706
▁남성	-1707
▁전작	-1708
다는	-1709
▁196	-1710
▁앤	-1711
▁출전	-1712
▁품	-1713
▁훈련	-1714
▁이라	-1715
▁전차	-1716
▁악마	-1717
▁빙	-1718
▁전사	-1719
▁파티	-1720
▁공중	-1721
▁타격	-1722
▁스타일	-1723
▁돌아가	-1724
▁강하	-1725
▁로부터	-1726
▁타카	-1727
▁클리어	-1728
▁만약	-1729
▁위기	-1730
▁멘	-1731
ent	-1732
▁괜찮	-1733
▁분노	-1734
▁사냥	-1735
▁누구	-1736
▁변화	-1737
▁에너지	-1738
▁혈	-1739
▁홈런	-1740
▁생존	-1741
▁동물	-1742
▁그만	-1743
▁신경	-1744
▁클래	-1745
▁자랑	-1746
▁했었	-1747
▁득점	-1748
▁애초	-1749
▁뒷	-1750
▁더불	-1751
BC	-1752
▁한데	-1753
▁션	-1754
리오	-1755
▁요리	-1756
▁수상	-1757
▁단점	-1758
▁75	-1759
▁연결	-1760
▁필드	-1761
um	-1762
▁장갑	-1763
▁건담	-1764
▁로봇	-1765
▁국제	-1766
▁포지션	-1767
▁얘기	-1768
ut	-1769
▁소재	-1770
▁크리	-1771
러스	-1772
디어	-1773
수록	-1774
▁냉	-1775
▁특정	-1776
어들	-1777
▁vs	-1778
▁반면	-1779
▁기동	-1780
▁연합	-1781
▁생긴	-1782
▁한편	-1783
▁38	-1784
▁시험	-1785
▁판정	-1786
ec	-1787
▁비용	-1788
▁전기	-1789
▁일러	-1790
▁장소	-1791
▁무엇	-1792
▁싱글	-1793
▁사항	-1794
▁맹	-1795
▁공연	-1796
▁니까	-1797
▁아파	-1798
▁롯	-1799
▁한다면	-1800
▁항상	-1801
▁멸	-1802
▁화력	-1803
▁목표	-1804
▁예상	-1805
▁정작	-1806
▁무대	-1807
▁연출	-1808
▁기체	-1809
▁칠	-1810
▁최소	-1811
▁이게	-1812
▁사거리	-1813
▁55	-1814
▁사업	-1815
▁시설	-1816
▁관심	-1817
▁꽃	-1818
▁유럽	-1819
▁인터뷰	-1820
▁던전	-1821
인지	-1822
▁케이	-1823
▁교체	-1824
▁in	-1825
▁2009	-1826
아들	-1827
▁빠른	-1828
▁내부	-1829
▁하늘	-1830
▁비밀	-1831
▁흘	-1832
▁지휘	-1833
▁제일	-1834
▁다리	-1835
▁야마	-1836
▁철도	-1837
▁였으나	-1838
▁Q	-1839
▁사격	-1840
▁카이	-1841
▁이걸	-1842
▁별로	-1843
▁엘리	-1844
▁인사	-1845
▁파일	-1846
ST	-1847
▁다크	-1848
▁변신	-1849
ro	-1850
▁시켰	-1851
▁록	-1852
▁수치	-1853
▁나름	-1854
▁넓	-1855
▁to	-1856
▁기계	-1857
▁수도	-1858
▁정식	-1859
▁쓰이	-1860
▁작곡	-1861
▁깔	-1862
어났	-1863
▁스포	-1864
▁으려	-1865
▁뜨	-1866
▁시전	-1867
▁털	-1868
▁결승	-1869
▁도로	-1870
▁카운	-1871
▁옷	-1872
▁교통	-1873
▁놈	-1874
▁오버	-1875
▁비롯	-1876
▁인가	-1877
동안	-1878
▁나올	-1879
▁각종	-1880
▁따로	-1881
▁부여	-1882
▁확정	-1883
▁마나	-1884
▁오늘	-1885
해서	-1886
▁코스	-1887
▁졸업	-1888
나라	-1889
▁황제	-1890
다고	-1891
▁쥬	-1892
▁지상	-1893
▁일어나	-1894
▁이탈	-1895
▁치명	-1896
▁쌓	-1897
▁진화	-1898
▁전반	-1899
▁달려	-1900
▁북한	-1901
▁특이	-1902
▁이쪽	-1903
▁병력	-1904
▁갑자기	-1905
▁둔	-1906
▁아도	-1907
▁불러	-1908
▁오르	-1909
▁냐고	-1910
▁라이브	-1911
▁기업	-1912
▁발전	-1913
▁컬	-1914
▁_	-1915
▁왼	-1916
▁시티	-1917
▁알아	-1918
▁건설	-1919
▁쯤	-1920
▁아키	-1921
▁압도	-1922
▁이외	-1923
▁언제	-1924
▁이기	-1925
▁의외	-1926
어진	-1927
▁사정	-1928
em	-1929
▁무슨	-1930
▁EX	-1931
말로	-1932
▁가사	-1933
▁일러스트	-1934
▁외국	-1935
▁역대	-1936
▁나이트	-1937
▁2008	-1938
▁당한	-1939
▁삭제	-1940
▁납	-1941
▁탈출	-1942
▁감정	-1943
▁주문	-1944
▁직전	-1945
▁저항	-1946
▁이건	-1947
▁지지	-1948
▁티어	-1949
ight	-1950
▁빠져	-1951
▁임무	-1952
▁쏘	-1953
▁고양	-1954
▁이닝	-1955
▁뭔	-1956
▁마치	-1957
▁보유	-1958
어로	-1959
▁위력	-1960
▁골드	-1961
▁더니	-1962
▁자원	-1963
▁프레	-1964
라인	-1965
AN	-1966
▁지키	-1967
▁아카	-1968
▁기다	-1969
▁로드	-1970
▁바라	-1971
▁지켜	-1972
▁봐도	-1973
▁세기	-1974
▁스러운	-1975
▁집중	-1976
▁서비스	-1977
▁표시	-1978
▁점프	-1979
▁노트	-1980
▁깊	-1981
AR	-1982
▁사례	-1983
▁어둠	-1984
▁가르	-1985
▁잉	-1986
▁파트	-1987
▁아프	-1988
▁전국	-1989
▁인구	-1990
▁떠나	-1991
▁',	-1992
▁분류	-1993
▁튀	-1994
▁효율	-1995
▁달라	-1996
▁꾼	-1997
▁페이	-1998
▁뇌	-1999
▁상관	-2000
▁랭크	-2001
▁작업	-2002
▁명령	-2003
젝트	-2004
▁완전	-2005
▁인식	-2006
▁히어로	-2007
▁댄	-2008
▁아스	-2009
▁기회	-2010
▁공간	-2011
▁루트	-2012
▁연습	-2013
▁생기	-2014
▁회피	-2015
▁도전	-2016
▁물건	-2017
▁가수	-2018
▁극장	-2019
ap	-2020
▁경쟁	-2021
▁화면	-2022
▁장점	-2023
▁잠시	-2024
▁42	-2025
ON	-2026
▁41	-2027
▁별명	-2028
▁셀	-2029
▁던지	-2030
▁옛	-2031
▁폰	-2032
▁컵	-2033
▁녀석	-2034
▁사기	-2035
▁부모	-2036
▁촬	-2037
▁군사	-2038
▁레드	-2039
▁가문	-2040
▁개념	-2041
그레이드	-2042
▁업그레이드	-2043
▁행정	-2044
▁단어	-2045
▁인천	-2046
▁몽	-2047
▁스럽	-2048
▁추천	-2049
▁근처	-2050
▁병원	-2051
▁No	-2052
▁올라가	-2053
▁오프	-2054
▁어요	-2055
▁발언	-2056
▁짐	-2057
▁려면	-2058
▁전력	-2059
▁39	-2060
▁살인	-2061
▁펜	-2062
▁무려	-2063
▁이끌	-2064
▁Ch	-2065
▁가까운	-2066
▁의식	-2067
▁불가	-2068
▁포기	-2069
▁은데	-2070
▁끝나	-2071
▁전개	-2072
▁신체	-2073
학생	-2074
마자	-2075
▁194	-2076
▁정리	-2077
▁아파트	-2078
▁미니	-2079
▁크기	-2080
▁겸	-2081
▁지난	-2082
▁판단	-2083
▁주제	-2084
▁촬영	-2085
▁>	-2086
▁강제	-2087
▁저지	-2088
▁본래	-2089
▁노력	-2090
▁밑	-2091
▁히트	-2092
▁고정	-2093
▁kg	-2094
▁밀리	-2095
ul	-2096
▁붕	-2097
▁부정	-2098
페이지	-2099
▁타임	-2100
▁라이트	-2101
▁44	-2102
▁공주	-2103
▁셋	-2104
▁st	-2105
▁버그	-2106
▁스코	-2107
▁이하	-2108
▁평균	-2109
▁데스	-2110
▁구하	-2111
무리	-2112
▁독립	-2113
▁롭	-2114
▁선생	-2115
▁뿌	-2116
ce	-2117
▁최강	-2118
▁시킬	-2119
▁홈페이지	-2120
000	-2121
▁제거	-2122
▁병사	-2123
▁왕국	-2124
▁학원	-2125
▁띄	-2126
▁분명	-2127
▁구매	-2128
▁폭탄	-2129
▁베이	-2130
운데	-2131
▁2020	-2132
▁조종	-2133
▁제품	-2134
▁;	-2135
▁꼭	-2136
▁생겼	-2137
▁LG	-2138
▁99	-2139
▁부탁	-2140
▁롯데	-2141
▁군대	-2142
▁윈	-2143
▁동생	-2144
▁마법사	-2145
▁위키	-2146
다니	-2147
▁닌	-2148
▁닥	-2149
▁가드	-2150
▁중반	-2151
라스	-2152
▁여행	-2153
▁리더	-2154
요일	-2155
▁고속	-2156
▁예전	-2157
믹스	-2158
▁멜	-2159
▁단체	-2160
▁행위	-2161
▁붉	-2162
▁웹	-2163
▁떡	-2164
▁노리	-2165
▁음식	-2166
▁옵션	-2167
▁겪	-2168
▁밸	-2169
▁완벽	-2170
ik	-2171
▁전자	-2172
▁현상	-2173
트리	-2174
▁2007	-2175
▁수행	-2176
▁쫓	-2177
▁대구	-2178
▁195	-2179
▁43	-2180
▁탈락	-2181
▁원인	-2182
▁요시	-2183
▁구분	-2184
all	-2185
▁레인	-2186
▁그야	-2187
드시	-2188
▁완성	-2189
IN	-2190
야마	-2191
▁대기	-2192
▁반드시	-2193
모토	-2194
▁바다	-2195
▁통합	-2196
▁의원	-2197
▁개그	-2198
란드	-2199
▁전략	-2200
▁MA	-2201
이치	-2202
▁바꾸	-2203
▁주민	-2204
▁직후	-2205
져서	-2206
▁차원	-2207
▁재료	-2208
▁하드	-2209
▁에게서	-2210
▁복귀	-2211
▁단지	-2212
▁널	-2213
▁크로	-2214
▁템	-2215
▁마사	-2216
▁가리	-2217
▁환경	-2218
▁광역	-2219
▁그야말로	-2220
르트	-2221
▁기반	-2222
▁도와	-2223
이어	-2224
▁으로써	-2225
튜브	-2226
▁걱	-2227
▁늦	-2228
▁샷	-2229
▁마무리	-2230
타임	-2231
▁치료	-2232
러리	-2233
▁연재	-2234
▁올려	-2235
▁한글	-2236
nd	-2237
트라	-2238
▁걱정	-2239
▁46	-2240
▁인도	-2241
▁해군	-2242
▁서버	-2243
▁걸리	-2244
▁정규	-2245
▁47	-2246
▁지정	-2247
▁느끼	-2248
▁연장	-2249
▁다행	-2250
▁다수	-2251
▁대장	-2252
▁해외	-2253
▁2006	-2254
▁평범	-2255
▁보병	-2256
▁밥	-2257
▁심각	-2258
▁타이틀	-2259
▁보너스	-2260
▁보여준다	-2261
▁워낙	-2262
▁옮	-2263
▁우선	-2264
▁월드컵	-2265
▁공포	-2266
▁받아들	-2267
▁책임	-2268
▁조작	-2269
조건	-2270
▁미사일	-2271
▁포스	-2272
▁뻔	-2273
▁도착	-2274
▁빨리	-2275
▁유사	-2276
▁아무리	-2277
▁추측	-2278
▁실험	-2279
▁재미	-2280
th	-2281
▁뛰어난	-2282
▁점점	-2283
▁51	-2284
▁캡	-2285
▁상세	-2286
▁자마자	-2287
▁코스트	-2288
▁가면	-2289
루스	-2290
▁굳이	-2291
▁필살	-2292
▁디스	-2293
▁택	-2294
▁였으며	-2295
▁다소	-2296
▁타자	-2297
▁폼	-2298
▁맞추	-2299
▁그걸	-2300
▁성향	-2301
▁접근	-2302
▁좋아	-2303
▁시킨다	-2304
▁걸로	-2305
▁중학교	-2306
▁실점	-2307
▁무조건	-2308
▁한계	-2309
▁닉	-2310
▁교수	-2311
▁찌	-2312
▁의사	-2313
op	-2314
▁대결	-2315
▁영혼	-2316
▁냐는	-2317
▁톤	-2318
▁부하	-2319
▁SP	-2320
▁무한	-2321
▁잭	-2322
▁국회	-2323
▁모자	-2324
▁사무	-2325
st	-2326
▁비중	-2327
▁멋	-2328
▁복수	-2329
시마	-2330
▁암살	-2331
▁보조	-2332
▁앙	-2333
▁함정	-2334
▁지배	-2335
▁아내	-2336
▁정의	-2337
▁정확히	-2338
▁그린	-2339
▁평소	-2340
아내	-2341
▁엠	-2342
▁마르	-2343
▁덴	-2344
ation	-2345
▁광고	-2346
▁장르	-2347
tt	-2348
▁인터넷	-2349
▁의하	-2350
ra	-2351
▁혁	-2352
▁마력	-2353
▁투표	-2354
▁범죄	-2355
▁세요	-2356
▁숲	-2357
▁다루	-2358
▁와중	-2359
▁1000	-2360
▁봉인	-2361
ia	-2362
▁확장	-2363
무라	-2364
▁내리	-2365
ack	-2366
▁채널	-2367
▁운용	-2368
▁사령	-2369
▁밝혔	-2370
▁넘어가	-2371
▁도쿄	-2372
나이	-2373
▁공략	-2374
▁고자	-2375
▁이곳	-2376
▁합류	-2377
▁소련	-2378
▁장치	-2379
▁몇몇	-2380
▁가치	-2381
▁그럼	-2382
▁어려운	-2383
▁전화	-2384
▁빵	-2385
▁기념	-2386
▁검사	-2387
▁금지	-2388
▁낫	-2389
▁이적	-2390
▁냈	-2391
▁종종	-2392
▁잇	-2393
▁초등	-2394
▁시청자	-2395
▁펼치	-2396
▁아웃	-2397
▁소유	-2398
▁150	-2399
▁and	-2400
▁도입	-2401
▁가운데	-2402
▁오리지	-2403
▁65	-2404
로그	-2405
▁충분히	-2406
▁비하	-2407
▁특유	-2408
▁정당	-2409
▁네이	-2410
▁플래	-2411
▁모른다	-2412
시브	-2413
▁유튜브	-2414
▁보컬	-2415
▁실수	-2416
▁미드	-2417
▁뚫	-2418
▁코드	-2419
▁셔	-2420
▁사쿠	-2421
▁브레이	-2422
▁모아	-2423
▁클럽	-2424
▁근데	-2425
▁VS	-2426
▁잊	-2427
▁맞춰	-2428
▁화염	-2429
▁소년	-2430
oc	-2431
뜨리	-2432
▁프로젝트	-2433
▁본격	-2434
▁시민	-2435
▁올림	-2436
▁뉴스	-2437
▁투입	-2438
▁개조	-2439
▁고대	-2440
▁기지	-2441
▁저격	-2442
▁시나	-2443
▁무사	-2444
▁인한	-2445
▁전원	-2446
▁는가	-2447
▁종교	-2448
▁괴물	-2449
▁형제	-2450
일러	-2451
다면	-2452
▁수많	-2453
▁얼마나	-2454
ie	-2455
▁드립	-2456
▁로스	-2457
▁고양이	-2458
▁에이	-2459
▁스포츠	-2460
▁희생	-2461
▁행사	-2462
ill	-2463
▁인상	-2464
▁로마	-2465
▁요청	-2466
비아	-2467
▁릴	-2468
▁%,	-2469
▁이탈리아	-2470
▁이라고	-2471
▁흉	-2472
로드	-2473
▁대중	-2474
▁아라	-2475
라이더	-2476
▁엄청나	-2477
▁원정	-2478
▁카메	-2479
▁상징	-2480
▁사태	-2481
▁들어오	-2482
▁KBS	-2483
▁발음	-2484
▁52	-2485
▁II	-2486
▁밴드	-2487
▁2005	-2488
▁종합	-2489
▁터미	-2490
art	-2491
▁구역	-2492
▁넥	-2493
▁숫	-2494
▁클래스	-2495
▁대형	-2496
▁64	-2497
▁군단	-2498
▁외모	-2499
텐츠	-2500
▁대비	-2501
▁힘든	-2502
▁스크	-2503
▁위협	-2504
니까	-2505
▁된다는	-2506
▁방패	-2507
▁조정	-2508
▁랍	-2509
▁이사	-2510
▁뭔가	-2511
▁패러	-2512
▁최후	-2513
▁서브	-2514
니티	-2515
▁인원	-2516
▁해졌	-2517
▁움직이	-2518
▁그저	-2519
▁락	-2520
▁불명	-2521
▁서술	-2522
▁간단	-2523
▁생물	-2524
▁일본어	-2525
▁형식	-2526
▁컨셉	-2527
▁자료	-2528
▁관통	-2529
▁약점	-2530
▁장난	-2531
▁가깝	-2532
▁광주	-2533
▁섞	-2534
▁몹	-2535
런스	-2536
▁달러	-2537
▁정책	-2538
▁행성	-2539
▁2004	-2540
▁눈물	-2541
▁통신	-2542
ri	-2543
▁전술	-2544
▁상자	-2545
▁비고	-2546
▁액션	-2547
시스	-2548
▁모험	-2549
▁49	-2550
▁You	-2551
▁바닥	-2552
ab	-2553
▁앉	-2554
RA	-2555
▁거부	-2556
▁오리지널	-2557
uby	-2558
▁AP	-2559
▁사라지	-2560
▁젊	-2561
▁미리	-2562
▁박사	-2563
▁앞서	-2564
▁못한다	-2565
▁빠지	-2566
▁의도	-2567
▁트랙	-2568
▁인형	-2569
로우	-2570
▁데려	-2571
▁56	-2572
▁쿨타임	-2573
▁반복	-2574
▁ST	-2575
▁빼앗	-2576
래프트	-2577
▁회장	-2578
est	-2579
▁리어	-2580
▁명중	-2581
▁400	-2582
▁매일	-2583
▁등록	-2584
▁영입	-2585
▁이치	-2586
▁챙	-2587
▁개월	-2588
▁구단	-2589
▁대응	-2590
▁MBC	-2591
▁의지	-2592
▁는다는	-2593
▁공동	-2594
▁해석	-2595
▁마크	-2596
▁지적	-2597
▁dd	-2598
▁ruby	-2599
▁언론	-2600
▁와서	-2601
▁In	-2602
▁값	-2603
▁열차	-2604
▁오토	-2605
▁지명	-2606
▁오랜	-2607
▁개봉	-2608
▁주력	-2609
AL	-2610
▁젠	-2611
▁원거리	-2612
▁코어	-2613
▁났	-2614
▁목숨	-2615
▁덜	-2616
스케	-2617
▁85	-2618
▁한국어	-2619
▁선언	-2620
▁웬	-2621
▁뜬	-2622
▁언어	-2623
▁날려	-2624
▁소식	-2625
▁혐	-2626
▁윌	-2627
▁사상	-2628
▁설계	-2629
▁차례	-2630
▁데이터	-2631
▁흡수	-2632
▁간다	-2633
▁더블	-2634
자리	-2635
▁그때	-2636
▁탯	-2637
▁자동차	-2638
▁53	-2639
▁피하	-2640
▁사과	-2641
▁나쁘	-2642
▁카즈	-2643
▁승부	-2644
▁방해	-2645
▁역전	-2646
▁거짓	-2647
▁54	-2648
▁관한	-2649
▁텔	-2650
▁살아남	-2651
리트	-2652
▁혜	-2653
▁193	-2654
▁디지	-2655
▁카페	-2656
▁2002	-2657
퓨터	-2658
▁여름	-2659
온다	-2660
▁모티브	-2661
▁대단	-2662
▁연계	-2663
▁이르	-2664
▁느냐	-2665
▁엄마	-2666
▁필살기	-2667
▁숫자	-2668
▁닮	-2669
▁핑	-2670
▁조각	-2671
▁미스	-2672
▁끝내	-2673
▁저주	-2674
▁기자	-2675
▁소울	-2676
▁누군	-2677
▁유우	-2678
▁을지	-2679
▁진입	-2680
▁체육	-2681
▁불과	-2682
▁황금	-2683
▁랄	-2684
오스	-2685
▁PC	-2686
▁완료	-2687
▁상대방	-2688
▁수리	-2689
▁쿄	-2690
▁텍	-2691
▁쥐	-2692
▁맺	-2693
▁수호	-2694
▁장기	-2695
▁가정	-2696
▁산업	-2697
▁Sh	-2698
▁dddd	-2699
▁dddddd	-2700
▁적절	-2701
▁덩	-2702
▁착용	-2703
▁공화	-2704
▁해제	-2705
▁생성	-2706
▁컴퓨터	-2707
으니	-2708
▁당해	-2709
▁단순히	-2710
ttp	-2711
▁질문	-2712
▁모리	-2713
여서	-2714
동생	-2715
▁겹	-2716
▁http	-2717
▁꼴	-2718
▁진다	-2719
▁드라이	-2720
▁테마	-2721
▁썼	-2722
▁필수	-2723
니스	-2724
▁터미널	-2725
▁멈	-2726
▁실시	-2727
▁ff	-2728
▁에이스	-2729
▁딱히	-2730
▁컷	-2731
▁카운터	-2732
▁독자	-2733
▁겐	-2734
▁편성	-2735
▁표정	-2736
▁선정	-2737
▁행적	-2738
▁비트	-2739
▁의심	-2740
▁유도	-2741
▁아쉬	-2742
▁전환	-2743
▁확실히	-2744
▁기어	-2745
▁감안	-2746
▁습격	-2747
▁무력	-2748
▁특기	-2749
▁선물	-2750
▁훌	-2751
up	-2752
▁델	-2753
▁날개	-2754
▁꾸준	-2755
▁뮤직	-2756
▁페르	-2757
▁기점	-2758
▁패시브	-2759
▁안전	-2760
▁당장	-2761
▁집단	-2762
▁왼쪽	-2763
▁인류	-2764
▁핸	-2765
▁소비	-2766
▁아름	-2767
▁솔로	-2768
▁함대	-2769
▁퓨	-2770
▁개선	-2771
▁셰	-2772
▁제도	-2773
낸다	-2774
▁박스	-2775
▁횟	-2776
▁돌려	-2777
▁59	-2778
▁높이	-2779
▁i	-2780
▁연주	-2781
▁MP	-2782
▁위원회	-2783
▁잖	-2784
▁가스	-2785
▁경력	-2786
▁심하	-2787
▁바르	-2788
▁확보	-2789
▁잠깐	-2790
▁회전	-2791
VE	-2792
▁구축	-2793
▁행복	-2794
▁돌파	-2795
▁코치	-2796
▁사장	-2797
▁스킨	-2798
▁마츠	-2799
▁지옥	-2800
▁희망	-2801
▁거두	-2802
▁설립	-2803
▁테크	-2804
힌다	-2805
▁으로부터	-2806
▁올림픽	-2807
▁Re	-2808
▁스마	-2809
▁블루	-2810
▁Sp	-2811
▁시나리오	-2812
▁전통	-2813
▁장군	-2814
▁일종	-2815
레이션	-2816
▁제압	-2817
▁58	-2818
▁지닌	-2819
▁안드	-2820
▁가슴	-2821
▁시내	-2822
▁진정	-2823
▁통과	-2824
▁듀얼	-2825
▁횟수	-2826
▁라디오	-2827
▁상처	-2828
▁하위	-2829
▁공항	-2830
▁적극	-2831
▁120	-2832
▁멀티	-2833
▁공사	-2834
▁선보	-2835
▁수사	-2836
▁체제	-2837
모리	-2838
▁로써	-2839
AT	-2840
▁촉	-2841
▁초대	-2842
워서	-2843
▁캔	-2844
▁마침	-2845
▁문명	-2846
▁샌	-2847
▁패스	-2848
▁딜러	-2849
OR	-2850
▁그라	-2851
▁57	-2852
▁편집	-2853
드리	-2854
ang	-2855
▁대답	-2856
▁해금	-2857
▁비디오	-2858
▁버튼	-2859
▁어찌	-2860
▁방문	-2861
▁펀	-2862
▁re	-2863
ate	-2864
▁뱀	-2865
▁위주	-2866
▁롱	-2867
▁의문	-2868
연히	-2869
▁수원	-2870
▁95	-2871
▁묶	-2872
▁케이스	-2873
▁66	-2874
▁리스	-2875
▁이어지	-2876
▁됨	-2877
▁핀	-2878
트롤	-2879
▁그려	-2880
▁댓	-2881
▁현장	-2882
▁동맹	-2883
▁엉	-2884
▁태도	-2885
▁눈치	-2886
▁료	-2887
▁2003	-2888
▁지니	-2889
▁고통	-2890
▁처치	-2891
▁작성	-2892
▁진영	-2893
▁콩	-2894
▁코너	-2895
▁투자	-2896
▁대놓	-2897
▁마시	-2898
▁전장	-2899
▁갱	-2900
▁태양	-2901
▁분리	-2902
▁장전	-2903
▁유키	-2904
ard	-2905
▁크로스	-2906
▁계기	-2907
▁노동	-2908
▁비난	-2909
▁예선	-2910
IA	-2911
▁스페인	-2912
▁마왕	-2913
▁전해	-2914
▁한자	-2915
르크	-2916
▁최악	-2917
▁랩	-2918
▁육군	-2919
▁봄	-2920
▁삼국	-2921
▁제안	-2922
▁을까	-2923
▁고유	-2924
▁공부	-2925
▁에스	-2926
PS	-2927
▁떼	-2928
▁스위	-2929
▁후속	-2930
▁느껴	-2931
▁스펙	-2932
▁게시	-2933
▁미친	-2934
▁깎	-2935
▁버려	-2936
▁레이저	-2937
▁겨우	-2938
▁Bl	-2939
▁BG	-2940
ess	-2941
▁시체	-2942
▁좁	-2943
▁배신	-2944
▁평화	-2945
▁회의	-2946
ant	-2947
▁제로	-2948
▁개최	-2949
▁110	-2950
▁놀라	-2951
▁be	-2952
▁에겐	-2953
▁바꿔	-2954
▁성인	-2955
▁부른다	-2956
▁오른쪽	-2957
▁꼽	-2958
▁아머	-2959
▁빌리	-2960
래도	-2961
▁조준	-2962
▁나카	-2963
▁게이지	-2964
▁여부	-2965
▁룰	-2966
▁용병	-2967
▁견제	-2968
▁기획	-2969
▁컨트롤	-2970
▁궤	-2971
▁궁극	-2972
▁어울	-2973
▁멀리	-2974
▁젤	-2975
▁극장판	-2976
▁탑재	-2977
▁점령	-2978
▁타이밍	-2979
▁매치	-2980
IC	-2981
▁다름	-2982
▁SS	-2983
▁청소	-2984
▁보급	-2985
▁on	-2986
▁춤	-2987
▁카메라	-2988
ell	-2989
머리	-2990
▁or	-2991
▁베이스	-2992
▁애매	-2993
▁진실	-2994
▁62	-2995
▁373	-2996
ct	-2997
▁최대한	-2998
▁충전	-2999
▁관광	-3000
ue	-3001
마스	-3002
▁남편	-3003
▁직원	-3004
ine	-3005
▁순서	-3006
▁스피드	-3007
▁구해	-3008
▁날리	-3009
▁댄스	-3010
▁정령	-3011
▁게이	-3012
▁보도	-3013
▁에어	-3014
▁은퇴	-3015
▁온라인	-3016
▁낼	-3017
▁기분	-3018
▁그레이	-3019
▁누군가	-3020
▁수단	-3021
의원	-3022
▁한화	-3023
▁모션	-3024
▁누가	-3025
▁오스	-3026
▁틈	-3027
▁후반부	-3028
▁NP	-3029
▁레전	-3030
▁아무래도	-3031
▁터지	-3032
▁하트	-3033
라리	-3034
▁튜	-3035
▁Al	-3036
▁트레	-3037
▁멸망	-3038
▁세계관	-3039
▁격투	-3040
▁갓	-3041
▁빔	-3042
▁교회	-3043
▁밸런스	-3044
▁허용	-3045
▁민주당	-3046
▁미치	-3047
무원	-3048
▁얼음	-3049
▁스코어	-3050
▁76	-3051
ist	-3052
▁알렉	-3053
▁보수	-3054
▁트위	-3055
▁약속	-3056
▁바뀐	-3057
▁여왕	-3058
▁스탠	-3059
▁파이터	-3060
ove	-3061
▁우수	-3062
▁갤러리	-3063
▁미나	-3064
▁Th	-3065
▁오오	-3066
▁스프	-3067
ore	-3068
▁대원	-3069
▁그게	-3070
▁부담	-3071
▁토스	-3072
▁유용	-3073
▁등등	-3074
▁울트라	-3075
▁겁	-3076
▁로켓	-3077
▁77	-3078
▁헤드	-3079
▁융	-3080
▁뛰어	-3081
▁알리	-3082
▁61	-3083
▁돌격	-3084
▁벌이	-3085
▁....	-3086
아리	-3087
▁무게	-3088
▁고급	-3089
▁생일	-3090
oo	-3091
▁지식	-3092
▁판타	-3093
▁기절	-3094
▁삶	-3095
▁규정	-3096
▁{	-3097
▁본선	-3098
▁커뮤	-3099
▁아프리카	-3100
▁차별	-3101
▁뱅	-3102
▁렉	-3103
▁알려져	-3104
▁병기	-3105
▁해진	-3106
▁가면라이더	-3107
피스	-3108
▁72	-3109
▁돌아오	-3110
▁88	-3111
▁그리스	-3112
▁중단	-3113
▁랜덤	-3114
▁는다고	-3115
▁분야	-3116
▁측면	-3117
▁장애	-3118
▁끼리	-3119
▁인지라	-3120
▁스케	-3121
▁트레이	-3122
▁자이	-3123
▁com	-3124
심히	-3125
▁나누	-3126
어도	-3127
▁지점	-3128
▁된다고	-3129
로이드	-3130
▁자고	-3131
▁2001	-3132
▁누르	-3133
▁패러디	-3134
▁마녀	-3135
▁경기도	-3136
▁삽	-3137
▁입수	-3138
▁찰	-3139
▁주목	-3140
▁발휘	-3141
바이	-3142
▁언니	-3143
▁닥터	-3144
▁넷	-3145
▁자살	-3146
▁커버	-3147
▁회수	-3148
▁}	-3149
▁도서	-3150
▁포르	-3151
▁ffff	-3152
▁외부	-3153
▁룬	-3154
▁그럴	-3155
▁생겨	-3156
▁카나	-3157
ive	-3158
▁제시	-3159
▁웨이	-3160
▁인생	-3161
▁공통	-3162
▁피해자	-3163
▁나아	-3164
▁유래	-3165
OS	-3166
▁쉬운	-3167
▁미야	-3168
▁경계	-3169
▁살해	-3170
ort	-3171
▁도구	-3172
▁취소	-3173
▁교환	-3174
▁군주	-3175
▁후지	-3176
ong	-3177
▁공원	-3178
▁국적	-3179
워드	-3180
▁지내	-3181
▁ffffff	-3182
▁릭	-3183
▁SBS	-3184
▁둘러	-3185
▁아사	-3186
▁오프닝	-3187
▁개편	-3188
▁트위터	-3189
▁승강	-3190
AM	-3191
▁스페셜	-3192
▁민족	-3193
▁장수	-3194
ers	-3195
▁서포	-3196
▁아침	-3197
▁윙	-3198
▁어차	-3199
▁킥	-3200
▁공장	-3201
▁페이스	-3202
오리	-3203
▁나쁜	-3204
크래프트	-3205
▁떨어져	-3206
▁핵심	-3207
▁기다리	-3208
▁부진	-3209
▁짤	-3210
▁어차피	-3211
▁재판	-3212
▁계산	-3213
▁대놓고	-3214
▁PS	-3215
▁건지	-3216
AS	-3217
▁붕괴	-3218
▁이거	-3219
▁제기	-3220
▁사단	-3221
하라	-3222
▁어째	-3223
▁98	-3224
▁브랜드	-3225
▁구입	-3226
▁이성	-3227
▁바탕	-3228
▁단독	-3229
친다	-3230
유키	-3231
▁온갖	-3232
▁교사	-3233
▁용도	-3234
▁출생	-3235
▁무서	-3236
니어	-3237
터리	-3238
▁겨울	-3239
▁메탈	-3240
스티	-3241
다수	-3242
▁당선	-3243
▁갑옷	-3244
▁소수	-3245
▁탄생	-3246
▁영역	-3247
▁약한	-3248
▁데리	-3249
티컬	-3250
▁191	-3251
▁펠	-3252
▁좋아하	-3253
▁거절	-3254
ED	-3255
▁살짝	-3256
▁오후	-3257
▁함선	-3258
▁아시아	-3259
▁늘어나	-3260
▁출발	-3261
▁은근	-3262
어리	-3263
▁꾸준히	-3264
ip	-3265
▁요원	-3266
▁주연	-3267
▁봐야	-3268
▁분석	-3269
▁페이지	-3270
▁작사	-3271
▁줄어들	-3272
▁어쩔	-3273
피아	-3274
▁납치	-3275
▁우려	-3276
▁스파이	-3277
▁은행	-3278
▁끝난	-3279
▁CD	-3280
▁귀족	-3281
▁화살	-3282
즈키	-3283
▁선배	-3284
▁순수	-3285
ain	-3286
▁숨겨	-3287
쳐서	-3288
▁타워	-3289
▁재생	-3290
▁600	-3291
▁습득	-3292
▁자식	-3293
▁하수	-3294
▁엑스	-3295
▁섭	-3296
▁파악	-3297
▁대공	-3298
if	-3299
▁가로	-3300
▁증거	-3301
▁홍보	-3302
▁자격	-3303
▁예술	-3304
▁업무	-3305
▁따지	-3306
▁이스	-3307
▁쏟	-3308
▁일어난	-3309
리티	-3310
▁드리	-3311
가락	-3312
▁협력	-3313
ee	-3314
▁유형	-3315
▁고서	-3316
다운	-3317
▁|	-3318
▁1990	-3319
▁고민	-3320
▁쓴다	-3321
▁보정	-3322
▁군인	-3323
디션	-3324
▁훌륭	-3325
▁못해	-3326
▁당황	-3327
EN	-3328
▁사카	-3329
▁베르	-3330
▁테러	-3331
▁레전드	-3332
거나	-3333
▁파라	-3334
▁신화	-3335
▁경유	-3336
▁폭풍	-3337
▁적당	-3338
▁밟	-3339
▁미소	-3340
▁MV	-3341
▁열심히	-3342
▁댓글	-3343
▁열린	-3344
▁흔히	-3345
▁응원	-3346
▁영원	-3347
▁플라	-3348
▁마인	-3349
▁카르	-3350
▁내내	-3351
▁쓰레	-3352
▁당한다	-3353
▁프라	-3354
▁잖아	-3355
▁63	-3356
▁보물	-3357
▁불안	-3358
▁뒤집	-3359
▁퀄	-3360
나가	-3361
▁주도	-3362
▁비록	-3363
▁틱	-3364
▁종점	-3365
▁탑승	-3366
▁향해	-3367
▁왕자	-3368
▁러브	-3369
▁소드	-3370
▁때려	-3371
세이	-3372
▁챠	-3373
▁장관	-3374
▁밀려	-3375
▁거래	-3376
▁출처	-3377
▁만족	-3378
▁부인	-3379
▁채용	-3380
▁정말로	-3381
▁68	-3382
▁무적	-3383
▁버티	-3384
▁혼란	-3385
▁전함	-3386
▁네이버	-3387
▁스트라이	-3388
▁가졌	-3389
▁컨텐츠	-3390
▁감사	-3391
▁본명	-3392
▁문제점	-3393
▁대다수	-3394
▁운전	-3395
ith	-3396
▁운명	-3397
▁실질	-3398
▁늑	-3399
ly	-3400
▁71	-3401
▁옹	-3402
▁반격	-3403
▁800	-3404
▁계급	-3405
▁커뮤니티	-3406
▁균	-3407
긴다	-3408
▁중계	-3409
▁정류	-3410
ld	-3411
▁로운	-3412
▁라이벌	-3413
▁미군	-3414
▁트라	-3415
ind	-3416
▁김성	-3417
▁초월	-3418
▁지급	-3419
▁오해	-3420
▁짝	-3421
▁넌	-3422
▁연도	-3423
▁오류	-3424
▁74	-3425
▁수입	-3426
▁AC	-3427
▁두산	-3428
▁돌진	-3429
▁치명타	-3430
OL	-3431
아먹	-3432
▁전공	-3433
▁연예	-3434
▁가까이	-3435
▁랜드	-3436
▁라스	-3437
▁돌리	-3438
▁모으	-3439
▁파이어	-3440
▁카라	-3441
▁메타	-3442
▁67	-3443
▁공군	-3444
▁체계	-3445
다지	-3446
▁흰	-3447
▁기기	-3448
▁낚	-3449
이터	-3450
▁아트	-3451
▁아나	-3452
▁통일	-3453
▁피아	-3454
▁반영	-3455
▁설득	-3456
▁소문	-3457
▁충돌	-3458
▁따른	-3459
▁여신	-3460
▁거주	-3461
▁즉시	-3462
▁흔들	-3463
ew	-3464
▁코믹스	-3465
▁단위	-3466
▁73	-3467
▁불꽃	-3468
▁끌어	-3469
▁문자	-3470
▁화장	-3471
▁낳	-3472
ry	-3473
▁TH	-3474
▁안습	-3475
▁그림자	-3476
▁아오	-3477
▁건너	-3478
▁메가	-3479
▁NC	-3480
▁아리	-3481
▁홍콩	-3482
▁닿	-3483
▁학과	-3484
▁전투력	-3485
▁편의	-3486
▁96	-3487
바로	-3488
▁AT	-3489
▁주년	-3490
▁레오	-3491
ast	-3492
▁크리티컬	-3493
▁크루	-3494
▁지시	-3495
IT	-3496
▁짜리	-3497
카와	-3498
▁시야	-3499
▁다행히	-3500
▁비율	-3501
▁슬롯	-3502
시오	-3503
▁정해	-3504
츠키	-3505
▁국회의원	-3506
▁해방	-3507
▁강해	-3508
▁상향	-3509
▁떡밥	-3510
LC	-3511
▁생명력	-3512
▁됩	-3513
▁me	-3514
▁들어갔	-3515
▁신뢰	-3516
▁정지	-3517
▁제조	-3518
▁약하	-3519
▁일부러	-3520
EC	-3521
▁변하	-3522
▁공화국	-3523
▁격파	-3524
▁지나가	-3525
▁그런지	-3526
▁그다지	-3527
▁81	-3528
▁소프트	-3529
▁CP	-3530
▁꺼내	-3531
▁파이널	-3532
▁토모	-3533
▁깃	-3534
▁암흑	-3535
▁심장	-3536
▁관객	-3537
▁닌자	-3538
▁오로	-3539
▁신고	-3540
▁난다	-3541
▁무난	-3542
▁판타지	-3543
▁수업	-3544
▁곰	-3545
▁사전	-3546
▁등판	-3547
▁늑대	-3548
FA	-3549
▁됩니다	-3550
▁동네	-3551
▁그만큼	-3552
▁유비	-3553
사카	-3554
▁가입	-3555
▁디아	-3556
▁가득	-3557
▁별개	-3558
▁연사	-3559
▁엘프	-3560
나다	-3561
▁1999	-3562
▁붙잡	-3563
▁192	-3564
▁사운드	-3565
▁맘	-3566
▁마주	-3567
▁NPC	-3568
▁마술	-3569
▁덮	-3570
▁j	-3571
▁78	-3572
▁본부	-3573
▁저런	-3574
▁창작	-3575
▁고기	-3576
▁킨	-3577
▁압박	-3578
▁집안	-3579
식간	-3580
▁84	-3581
▁막장	-3582
▁춘	-3583
▁재능	-3584
▁의한	-3585
▁91	-3586
▁건강	-3587
▁근무	-3588
end	-3589
▁짱	-3590
▁순식간	-3591
▁실드	-3592
▁벌어	-3593
▁리버	-3594
▁아티	-3595
▁반란	-3596
▁지하철	-3597
▁제주	-3598
고기	-3599
▁든지	-3600
▁업체	-3601
▁장식	-3602
▁추적	-3603
▁룡	-3604
▁드디어	-3605
▁드러나	-3606
▁사쿠라	-3607
▁화이트	-3608
▁an	-3609
▁지형	-3610
▁팝	-3611
▁신세	-3612
▁전적	-3613
▁1998	-3614
▁불만	-3615
▁수학	-3616
▁경험치	-3617
▁입학	-3618
▁어쨌	-3619
▁경향	-3620
▁떨어진	-3621
▁남기	-3622
▁상품	-3623
▁천사	-3624
▁증명	-3625
▁브리	-3626
▁쿼	-3627
▁묵	-3628
▁게이트	-3629
▁보단	-3630
▁내놓	-3631
▁땐	-3632
▁기원	-3633
▁형성	-3634
▁나서	-3635
▁대만	-3636
▁An	-3637
▁예고	-3638
▁낭	-3639
▁테이	-3640
▁전방	-3641
▁신청	-3642
오르	-3643
▁통하	-3644
▁스티	-3645
▁가이	-3646
▁블레이드	-3647
▁오픈	-3648
▁노멀	-3649
▁여동생	-3650
▁it	-3651
▁겟	-3652
▁매력	-3653
▁걸려	-3654
▁콜라	-3655
▁절반	-3656
▁97	-3657
▁사령관	-3658
▁정권	-3659
▁쓰레기	-3660
▁쿠키	-3661
▁팅	-3662
▁흘러	-3663
▁감염	-3664
▁클로	-3665
▁우스	-3666
▁빨간	-3667
▁섹	-3668
▁떠올	-3669
광역	-3670
▁아가	-3671
▁마도	-3672
▁의상	-3673
▁주먹	-3674
▁여론	-3675
▁나루	-3676
▁다시피	-3677
▁마이크	-3678
아버지	-3679
▁이마	-3680
▁Ar	-3681
▁외국인	-3682
▁타점	-3683
▁유희	-3684
▁샘	-3685
▁만난	-3686
▁라이더	-3687
▁걷	-3688
▁령	-3689
▁강조	-3690
▁단일	-3691
▁82	-3692
▁69	-3693
▁키스	-3694
▁사토	-3695
▁회차	-3696
▁이승	-3697
▁어택	-3698
▁이론	-3699
▁선호	-3700
▁알려진	-3701
▁연상	-3702
▁메카	-3703
▁거쳐	-3704
▁복장	-3705
▁엔터	-3706
▁소멸	-3707
▁He	-3708
▁코인	-3709
▁별도	-3710
▁오빠	-3711
▁근거	-3712
로운	-3713
▁!!	-3714
▁전선	-3715
지컬	-3716
트로	-3717
▁250	-3718
광역시	-3719
▁주전	-3720
▁실행	-3721
▁버릴	-3722
▁바보	-3723
▁스톤	-3724
▁일으키	-3725
▁여서	-3726
▁할지	-3727
▁작용	-3728
▁최상	-3729
▁공작	-3730
▁MAX	-3731
▁대륙	-3732
▁공기	-3733
▁한때	-3734
가와	-3735
▁180	-3736
타로	-3737
▁아닐	-3738
▁평타	-3739
▁아메	-3740
▁부품	-3741
▁플레	-3742
▁뛰어나	-3743
▁해진다	-3744
▁SN	-3745
▁반지	-3746
▁86	-3747
▁화려	-3748
▁요정	-3749
▁스토	-3750
▁때리	-3751
▁몰아	-3752
▁for	-3753
드라	-3754
▁190	-3755
▁출현	-3756
▁is	-3757
▁간격	-3758
▁호환	-3759
▁벗어나	-3760
▁아무것	-3761
어버	-3762
▁불렀	-3763
▁헌터	-3764
파이어	-3765
모로	-3766
▁푸른	-3767
▁해설	-3768
▁전형	-3769
▁대하	-3770
▁총기	-3771
▁니시	-3772
▁뉴욕	-3773
▁출장	-3774
▁권력	-3775
운다	-3776
▁퀸	-3777
▁아무런	-3778
▁끔	-3779
▁따위	-3780
▁올렸	-3781
▁박살	-3782
둥이	-3783
▁움직임	-3784
▁토리	-3785
▁사자	-3786
▁추격	-3787
▁울산	-3788
▁탱크	-3789
▁몰래	-3790
▁이랑	-3791
▁사라졌	-3792
▁당할	-3793
▁무효	-3794
▁키리	-3795
▁BGM	-3796
▁마스	-3797
▁조용	-3798
▁경상	-3799
▁요새	-3800
▁주위	-3801
더스	-3802
▁스카이	-3803
▁연애	-3804
서트	-3805
▁프레임	-3806
▁구도	-3807
▁벌어지	-3808
▁탁	-3809
▁여러모로	-3810
레나	-3811
ath	-3812
▁명예	-3813
에도	-3814
▁권총	-3815
RE	-3816
▁동기	-3817
av	-3818
▁시드	-3819
▁폭격	-3820
▁이슬	-3821
▁경비	-3822
▁범인	-3823
▁붙여	-3824
▁Te	-3825
50	-3826
▁1997	-3827
▁De	-3828
▁추락	-3829
▁테스트	-3830
▁신규	-3831
▁자는	-3832
▁경영	-3833
▁대우	-3834
▁모바	-3835
타인	-3836
▁지대	-3837
▁심리	-3838
▁되돌	-3839
▁블록	-3840
▁후쿠	-3841
듀서	-3842
▁프로듀서	-3843
▁심판	-3844
▁하수인	-3845
▁폭주	-3846
▁소총	-3847
▁영업	-3848
▁MS	-3849
웨이	-3850
▁공유	-3851
▁클라	-3852
▁수요	-3853
▁일상	-3854
▁아크	-3855
히로	-3856
▁갈등	-3857
▁께	-3858
▁뿌리	-3859
▁탄약	-3860
se	-3861
와서	-3862
어스	-3863
▁계승	-3864
▁전대	-3865
▁외교	-3866
▁제이	-3867
▁들어간	-3868
▁이래	-3869
▁변호	-3870
▁진지	-3871
▁거짓말	-3872
▁마리오	-3873
▁그래픽	-3874
▁메이저	-3875
▁환상	-3876
▁물러	-3877
▁고교	-3878
one	-3879
▁열리	-3880
▁고전	-3881
▁브라질	-3882
▁북미	-3883
▁학살	-3884
▁사양	-3885
▁요괴	-3886
▁통제	-3887
▁렙	-3888
▁상점	-3889
▁보석	-3890
남도	-3891
▁언제나	-3892
사키	-3893
▁Be	-3894
▁편하	-3895
▁입력	-3896
▁밝히	-3897
▁시각	-3898
러운	-3899
▁마련	-3900
▁변형	-3901
▁이득	-3902
▁무너	-3903
▁썬	-3904
og	-3905
▁83	-3906
▁터치	-3907
▁죽여	-3908
▁공학	-3909
▁갖추	-3910
▁제법	-3911
▁다이아	-3912
▁폭력	-3913
▁탱커	-3914
▁귀여	-3915
▁혁명	-3916
▁빗	-3917
▁블러	-3918
▁훔	-3919
▁유령	-3920
▁통상	-3921
▁불편	-3922
▁커맨	-3923
▁KT	-3924
퍼스	-3925
▁리아	-3926
▁미츠	-3927
▁지나치	-3928
▁옛날	-3929
▁제작진	-3930
▁리스트	-3931
▁믹	-3932
스트라	-3933
어져	-3934
▁작동	-3935
▁89	-3936
▁용사	-3937
▁92	-3938
▁그곳	-3939
▁예외	-3940
▁전투기	-3941
▁동원	-3942
▁조치	-3943
▁승강장	-3944
ust	-3945
▁밀어	-3946
▁94	-3947
▁타케	-3948
▁밝혀졌	-3949
▁미디어	-3950
▁구현	-3951
▁수집	-3952
▁스마트	-3953
▁연대	-3954
▁프로필	-3955
▁민간	-3956
▁파일럿	-3957
도우	-3958
▁조심	-3959
▁고생	-3960
▁치가	-3961
▁둥	-3962
거운	-3963
▁일자	-3964
▁한국인	-3965
ide	-3966
▁현지	-3967
▁빠진	-3968
▁포탑	-3969
▁머신	-3970
▁79	-3971
▁어쩌	-3972
▁날아가	-3973
▁검색	-3974
▁이리	-3975
▁챕	-3976
▁네임	-3977
▁워치	-3978
노스	-3979
▁앵	-3980
나무	-3981
▁쿠로	-3982
▁Le	-3983
▁사이즈	-3984
▁쓰인다	-3985
▁들어간다	-3986
▁모바일	-3987
▁신인	-3988
▁조조	-3989
▁여겨	-3990
▁경기장	-3991
▁메시	-3992
일드	-3993
▁Se	-3994
다른	-3995
▁조절	-3996
메달	-3997
▁신장	-3998
▁",	-3999
ity	-4000
PG	-4001
▁꺾	-4002
▁콘서트	-4003
▁93	-4004
▁US	-4005
▁두려	-4006
▁동영	-4007
▁되찾	-4008
▁부위	-4009
▁쟈	-4010
▁키우	-4011
▁챕터	-4012
▁표준	-4013
▁요즘	-4014
▁레인저	-4015
▁감시	-4016
▁눌	-4017
워하	-4018
▁음반	-4019
▁입구	-4020
▁보장	-4021
▁긍	-4022
▁교전	-4023
OT	-4024
▁부수	-4025
▁정류장	-4026
▁동방	-4027
▁수송	-4028
▁시행	-4029
▁레스	-4030
▁편지	-4031
저히	-4032
▁카미	-4033
▁87	-4034
▁공산	-4035
▁마루	-4036
▁도발	-4037
▁스톰	-4038
일리	-4039
▁101	-4040
▁떨어진다	-4041
▁덧	-4042
▁1996	-4043
▁동영상	-4044
▁배차	-4045
▁리얼	-4046
▁패널	-4047
▁프린	-4048
북도	-4049
▁차단	-4050
▁맞이	-4051
▁길드	-4052
▁DJ	-4053
▁용어	-4054
▁상상	-4055
▁기습	-4056
▁AI	-4057
▁MC	-4058
▁줘야	-4059
AC	-4060
▁자이언	-4061
▁볼넷	-4062
▁음성	-4063
▁프리미	-4064
▁1995	-4065
▁폐지	-4066
▁앱	-4067
▁쇠	-4068
▁전하	-4069
▁구출	-4070
▁연락	-4071
▁한방	-4072
▁호평	-4073
▁올라오	-4074
▁텔레	-4075
▁연방	-4076
▁하고	-4077
▁루타	-4078
▁김정	-4079
▁특화	-4080
▁슛	-4081
▁똑같이	-4082
▁이재	-4083
▁라이프	-4084
▁On	-4085
▁다면서	-4086
▁어깨	-4087
ere	-4088
▁마냥	-4089
▁쟁	-4090
▁세월	-4091
▁추진	-4092
▁도달	-4093
▁드러내	-4094
▁계정	-4095
▁볼트	-4096
▁흥행	-4097
▁강철	-4098
▁도서관	-4099
▁사이드	-4100
age	-4101
▁없애	-4102
▁이날	-4103
▁연관	-4104
▁슈트	-4105
▁잠수	-4106
펙트	-4107
▁무료	-4108
▁익숙	-4109
▁간부	-4110
▁핸드	-4111
▁나와서	-4112
▁결승전	-4113
▁파란	-4114
▁어지	-4115
▁.....	-4116
▁만났	-4117
▁농구	-4118
▁매니	-4119
▁통한	-4120
▁걸어	-4121
▁신문	-4122
▁괴롭	-4123
▁지휘관	-4124
▁번개	-4125
▁레이드	-4126
▁통해서	-4127
▁향상	-4128
▁극단	-4129
▁삼진	-4130
▁전달	-4131
오프	-4132
▁노예	-4133
▁신분	-4134
자키	-4135
▁주소	-4136
▁전직	-4137
▁겉	-4138
▁리메	-4139
▁@	-4140
이즈	-4141
▁루시	-4142
▁이란	-4143
▁양산	-4144
▁고향	-4145
▁출력	-4146
▁나갔	-4147
▁누리	-4148
▁빌드	-4149
▁묘지	-4150
▁수술	-4151
레이터	-4152
▁사마	-4153
▁냐며	-4154
▁켈	-4155
▁가상	-4156
▁환자	-4157
▁노출	-4158
▁캐리	-4159
▁으니까	-4160
▁신성	-4161
▁즐기	-4162
▁돌아온	-4163
▁마구	-4164
▁레이스	-4165
▁던져	-4166
▁신기	-4167
▁먹이	-4168
▁박근	-4169
▁가속	-4170
▁장교	-4171
▁스튜	-4172
▁제자	-4173
▁복잡	-4174
▁px	-4175
▁헨	-4176
▁부문	-4177
▁전역	-4178
▁임명	-4179
▁왠	-4180
▁환승	-4181
▁소닉	-4182
▁팀원	-4183
▁갤럭	-4184
▁동작	-4185
▁베트	-4186
▁웬만	-4187
▁글자	-4188
▁멕	-4189
▁들이	-4190
▁그랬	-4191
▁입단	-4192
▁진심	-4193
▁낸다	-4194
▁일지	-4195
▁세이브	-4196
▁적어도	-4197
▁봇	-4198
▁씬	-4199
qu	-4200
▁커플	-4201
▁DLC	-4202
▁아우	-4203
▁올랐	-4204
▁느리	-4205
▁살려	-4206
▁내구	-4207
▁무언	-4208
▁쾌	-4209
▁대체로	-4210
▁캐스	-4211
▁'.	-4212
▁달린	-4213
▁써서	-4214
▁AK	-4215
준다	-4216
ood	-4217
▁성별	-4218
▁절망	-4219
▁내성	-4220
▁해체	-4221
조리	-4222
▁가게	-4223
▁타마	-4224
▁넘기	-4225
창기	-4226
▁명중률	-4227
▁기병	-4228
▁임시	-4229
▁드물	-4230
BO	-4231
▁THE	-4232
▁브레이크	-4233
▁페이즈	-4234
▁가시	-4235
▁핫	-4236
▁막차	-4237
▁아쉽	-4238
▁MVP	-4239
▁부리	-4240
▁알파	-4241
▁구속	-4242
▁착각	-4243
▁전시	-4244
▁종이	-4245
▁갤럭시	-4246
▁육성	-4247
▁근육	-4248
▁여유	-4249
▁너무나	-4250
▁연구소	-4251
▁득표	-4252
▁수영	-4253
▁차라리	-4254
▁아빠	-4255
IS	-4256
▁중화	-4257
PM	-4258
▁도우	-4259
▁심한	-4260
▁이즈	-4261
▁뼈	-4262
오카	-4263
▁CC	-4264
▁보일	-4265
▁멍	-4266
▁대량	-4267
▁융합	-4268
▁개통	-4269
▁인수	-4270
▁공지	-4271
▁고백	-4272
▁자매	-4273
▁빡	-4274
▁리메이크	-4275
▁분기	-4276
▁창조	-4277
▁경고	-4278
▁$	-4279
▁그럼에도	-4280
▁강원	-4281
▁물질	-4282
are	-4283
▁카오스	-4284
▁1994	-4285
▁인증	-4286
전자	-4287
▁엮	-4288
▁하필	-4289
▁람	-4290
▁배트	-4291
▁Wh	-4292
▁럭	-4293
▁협회	-4294
▁초창기	-4295
▁규칙	-4296
▁리치	-4297
▁날짜	-4298
▁대대	-4299
▁지능	-4300
▁소화	-4301
▁인연	-4302
▁파리	-4303
▁된다면	-4304
▁이자	-4305
▁참전	-4306
▁시즈	-4307
▁실버	-4308
▁글로	-4309
▁셨	-4310
지마	-4311
▁1980	-4312
▁드림	-4313
▁의뢰	-4314
▁게스트	-4315
▁구체	-4316
▁입히	-4317
▁톱	-4318
브리	-4319
▁점차	-4320
디아	-4321
OM	-4322
▁카타	-4323
▁뭉	-4324
▁분량	-4325
▁이시	-4326
▁제어	-4327
▁가량	-4328
▁성과	-4329
▁악역	-4330
▁700	-4331
크스	-4332
▁청년	-4333
▁이뤄	-4334
▁태그	-4335
▁의혹	-4336
▁남부	-4337
▁고용	-4338
▁도망치	-4339
▁Tr	-4340
▁식사	-4341
▁대립	-4342
▁투구	-4343
▁누적	-4344
▁미카	-4345
▁무언가	-4346
▁객	-4347
▁회원	-4348
▁테일	-4349
▁이내	-4350
▁합격	-4351
▁돼지	-4352
▁정복	-4353
▁흠	-4354
▁냄	-4355
▁몰려	-4356
티나	-4357
▁김영	-4358
▁반발	-4359
▁고르	-4360
▁어울리	-4361
▁메모리	-4362
ock	-4363
▁일어났	-4364
▁''	-4365
▁중대	-4366
▁여지	-4367
▁호감	-4368
먼트	-4369
▁그동안	-4370
▁귀신	-4371
▁합체	-4372
▁웅	-4373
▁녹음	-4374
▁험	-4375
▁뚜	-4376
▁의료	-4377
▁이명	-4378
▁위장	-4379
구리	-4380
▁인하	-4381
▁협박	-4382
▁조지	-4383
OW	-4384
▁감옥	-4385
ake	-4386
▁꼬리	-4387
▁결론	-4388
▁파트너	-4389
ect	-4390
▁으론	-4391
▁피격	-4392
▁FI	-4393
▁는다면	-4394
▁써먹	-4395
▁어쨌든	-4396
▁아시	-4397
▁서부	-4398
▁웹툰	-4399
▁자라	-4400
▁체포	-4401
our	-4402
▁한번	-4403
▁라면서	-4404
▁뷰	-4405
▁출판	-4406
보드	-4407
▁사신	-4408
도로	-4409
▁후속작	-4410
▁차트	-4411
▁넘겨	-4412
ass	-4413
ire	-4414
▁세우	-4415
▁잦	-4416
▁비아	-4417
▁삼국지	-4418
▁모모	-4419
▁외계	-4420
▁게시판	-4421
oy	-4422
▁유로	-4423
ark	-4424
▁스턴	-4425
▁합성	-4426
▁베스트	-4427
▁곧바로	-4428
▁츄	-4429
▁강의	-4430
▁아기	-4431
▁히데	-4432
▁기초	-4433
▁썩	-4434
▁부서	-4435
ob	-4436
▁he	-4437
ite	-4438
▁정면	-4439
▁발매되	-4440
▁축제	-4441
▁마키	-4442
▁랭킹	-4443
어날	-4444
▁카스	-4445
▁림	-4446
▁예비	-4447
▁블리	-4448
웨어	-4449
▁에다	-4450
▁문장	-4451
▁구멍	-4452
▁사제	-4453
▁편곡	-4454
▁햄	-4455
▁쉴	-4456
▁본작	-4457
▁일시	-4458
▁퀄리티	-4459
▁동화	-4460
▁한지	-4461
▁나간	-4462
주시	-4463
▁보낸	-4464
▁공급	-4465
▁안드로이드	-4466
▁토르	-4467
▁토론	-4468
▁대가	-4469
▁SR	-4470
▁개방	-4471
▁깜	-4472
▁수련	-4473
▁돕	-4474
▁단장	-4475
▁FA	-4476
▁떨어졌	-4477
레인	-4478
▁횡	-4479
▁렛	-4480
▁kt	-4481
FC	-4482
▁다섯	-4483
▁소형	-4484
▁부부	-4485
▁전면	-4486
▁매체	-4487
▁걸린	-4488
▁룸	-4489
▁내주	-4490
▁대폭	-4491
▁저그	-4492
▁유행	-4493
▁인공	-4494
▁소원	-4495
ES	-4496
▁Cl	-4497
▁트로	-4498
▁AR	-4499
▁은하	-4500
▁살리	-4501
▁고문	-4502
▁립	-4503
▁플랫	-4504
성기	-4505
▁예능	-4506
▁슈팅	-4507
▁뺏	-4508
▁초간	-4509
▁찾아가	-4510
▁문학	-4511
▁투어	-4512
▁활성	-4513
UN	-4514
▁마리아	-4515
▁캐나다	-4516
라이언	-4517
▁끈	-4518
▁해병	-4519
ah	-4520
릭스	-4521
▁클리	-4522
▁곁	-4523
▁세이버	-4524
▁과목	-4525
▁아일	-4526
▁파견	-4527
▁매직	-4528
▁내장	-4529
▁대략	-4530
▁신호	-4531
▁왕조	-4532
▁보냈	-4533
▁wh	-4534
▁싸울	-4535
▁GT	-4536
▁외형	-4537
▁시위	-4538
▁넉	-4539
▁커맨드	-4540
▁연타	-4541
▁체인	-4542
▁관중	-4543
▁적군	-4544
▁김태	-4545
▁손가락	-4546
▁마이클	-4547
▁간혹	-4548
ound	-4549
iz	-4550
▁스틸	-4551
▁목격	-4552
▁옮겨	-4553
▁포스트	-4554
▁긍정	-4555
▁일원	-4556
▁팬덤	-4557
▁야스	-4558
▁더라	-4559
▁컬러	-4560
▁정글	-4561
▁에드	-4562
▁플레이오프	-4563
▁피부	-4564
▁희귀	-4565
▁식물	-4566
▁구원	-4567
ime	-4568
▁박근혜	-4569
▁의무	-4570
▁반사	-4571
던가	-4572
▁소지	-4573
▁SD	-4574
▁블로그	-4575
▁펀치	-4576
▁프라이	-4577
▁코우	-4578
▁김민	-4579
▁챌	-4580
▁최소한	-4581
▁가볍	-4582
▁수수	-4583
▁PD	-4584
▁바위	-4585
▁육체	-4586
▁은근히	-4587
▁Gr	-4588
▁그건	-4589
▁상성	-4590
▁연인	-4591
▁타이거	-4592
우드	-4593
▁준수	-4594
스턴	-4595
▁KIA	-4596
LL	-4597
▁이지	-4598
▁신라	-4599
▁크라	-4600
iv	-4601
잡이	-4602
▁SC	-4603
▁my	-4604
▁피스	-4605
▁대처	-4606
▁Me	-4607
▁합쳐	-4608
▁그대	-4609
▁주말	-4610
▁수용	-4611
▁멘탈	-4612
▁는지라	-4613
▁섀	-4614
▁오카	-4615
▁아름다운	-4616
▁인근	-4617
▁대충	-4618
▁파크	-4619
▁취하	-4620
▁아니면	-4621
ID	-4622
▁나뉘	-4623
버트	-4624
페인	-4625
▁붙이	-4626
▁불법	-4627
▁메뉴	-4628
▁116	-4629
▁특집	-4630
▁상하	-4631
▁일격	-4632
▁개체	-4633
▁곡명	-4634
▁까다	-4635
▁예측	-4636
▁전철	-4637
▁홀로	-4638
▁미라	-4639
큐어	-4640
▁각자	-4641
▁자치	-4642
▁박정	-4643
▁동부	-4644
▁영토	-4645
▁환영	-4646
▁구나	-4647
▁헤이	-4648
▁조성	-4649
▁적대	-4650
▁헤비	-4651
▁펼쳐	-4652
▁My	-4653
▁뜯	-4654
MA	-4655
▁다스	-4656
▁로즈	-4657
시코	-4658
▁멀쩡	-4659
▁대지	-4660
▁그로	-4661
▁영문	-4662
▁기사단	-4663
▁끌려	-4664
OP	-4665
▁건축	-4666
▁딩	-4667
▁더더	-4668
디언	-4669
▁보안	-4670
▁국군	-4671
▁커스	-4672
▁하얀	-4673
▁130	-4674
▁다를	-4675
▁쏴	-4676
▁서양	-4677
미야	-4678
▁원본	-4679
▁오랫	-4680
▁침공	-4681
▁어떠	-4682
▁빨라	-4683
▁왈	-4684
▁바리	-4685
▁소중	-4686
▁형사	-4687
▁지우	-4688
▁냥	-4689
▁계단	-4690
▁주포	-4691
▁접속	-4692
▁튀어나	-4693
▁누나	-4694
▁{{	-4695
▁강남	-4696
▁좌우	-4697
▁더더욱	-4698
▁끄	-4699
▁아바	-4700
▁안내	-4701
▁Pr	-4702
▁탄창	-4703
▁훗	-4704
▁결말	-4705
▁갇	-4706
▁어린이	-4707
▁어른	-4708
▁사우	-4709
▁올린	-4710
으면	-4711
▁첨	-4712
▁플로	-4713
▁기독	-4714
▁유이	-4715
ge	-4716
▁호주	-4717
▁정찰	-4718
▁면역	-4719
▁뭘	-4720
▁지도자	-4721
▁이길	-4722
▁{{{	-4723
▁아닌가	-4724
▁액티브	-4725
▁골든	-4726
▁스미	-4727
▁시내버스	-4728
데스	-4729
가미	-4730
▁깡	-4731
▁호텔	-4732
▁죄다	-4733
▁허나	-4734
▁펫	-4735
▁회상	-4736
▁대항	-4737
▁처벌	-4738
▁시선	-4739
▁후기	-4740
▁BE	-4741
▁거인	-4742
▁현역	-4743
▁학부	-4744
▁비해서	-4745
▁음원	-4746
▁작화	-4747
▁으려고	-4748
▁딘	-4749
▁와이	-4750
▁남겨	-4751
ax	-4752
▁괴수	-4753
다리	-4754
▁이루어지	-4755
▁상당수	-4756
▁퀴	-4757
▁미안	-4758
▁빛나	-4759
▁식당	-4760
▁절대로	-4761
▁히메	-4762
▁닫	-4763
▁로그	-4764
▁에서부터	-4765
▁포트	-4766
▁메르	-4767
▁취미	-4768
▁DF	-4769
▁하야	-4770
▁아이스	-4771
▁해적	-4772
ome	-4773
바라	-4774
▁과연	-4775
▁버스터	-4776
▁캐스팅	-4777
▁재미있	-4778
▁일기	-4779
▁고스트	-4780
ance	-4781
덜란드	-4782
▁네덜란드	-4783
▁요코	-4784
▁돌아왔	-4785
▁MF	-4786
▁져서	-4787
▁전문가	-4788
▁저녁	-4789
▁라인업	-4790
▁전진	-4791
▁바라보	-4792
▁새벽	-4793
▁주간	-4794
▁프리큐어	-4795
▁과제	-4796
▁느라	-4797
uc	-4798
▁리듬	-4799
▁아티스트	-4800
▁튼	-4801
▁돌아다니	-4802
▁꽂	-4803
ick	-4804
▁시계	-4805
밀리	-4806
▁헤어	-4807
▁유치	-4808
▁스키	-4809
▁비행기	-4810
▁한동안	-4811
스탄	-4812
▁열쇠	-4813
▁Pl	-4814
▁천재	-4815
▁첫차	-4816
▁오스트	-4817
▁줄어	-4818
▁기적	-4819
▁ch	-4820
▁총선	-4821
닉스	-4822
▁HD	-4823
▁고지	-4824
▁방지	-4825
▁WW	-4826
구치	-4827
▁검찰	-4828
▁한참	-4829
▁승격	-4830
▁트레이드	-4831
▁니코	-4832
▁세워	-4833
▁촌	-4834
▁자금	-4835
▁삐	-4836
▁죽일	-4837
▁고수	-4838
▁드레	-4839
▁깨닫	-4840
▁리드	-4841
▁SM	-4842
요시	-4843
ix	-4844
▁파츠	-4845
▁트윈	-4846
▁마비	-4847
mer	-4848
▁용기	-4849
▁경기력	-4850
▁어릴	-4851
▁트럭	-4852
▁우위	-4853
▁방사	-4854
ord	-4855
▁몰랐	-4856
▁이슬람	-4857
▁잡혀	-4858
▁속하	-4859
▁안경	-4860
▁어지간	-4861
▁스타크래프트	-4862
▁주사	-4863
▁160	-4864
▁저장	-4865
▁들어갈	-4866
▁양쪽	-4867
▁외치	-4868
▁휴대	-4869
아웃	-4870
▁코코	-4871
▁상한	-4872
▁허리	-4873
▁갈수록	-4874
▁위하	-4875
▁캠페인	-4876
▁디지털	-4877
▁개성	-4878
아지	-4879
ure	-4880
▁못할	-4881
▁한마	-4882
▁신비	-4883
▁GB	-4884
▁램	-4885
▁농담	-4886
▁청소년	-4887
프레	-4888
▁캠퍼스	-4889
▁상급	-4890
▁할아버지	-4891
▁보고	-4892
▁캡틴	-4893
▁토끼	-4894
▁크리스마스	-4895
고리	-4896
▁내려가	-4897
▁국어	-4898
▁동굴	-4899
특별	-4900
▁보라	-4901
▁나갈	-4902
덩이	-4903
▁OST	-4904
▁빚	-4905
10	-4906
▁불린다	-4907
▁무덤	-4908
▁영향력	-4909
▁문재	-4910
▁유희왕	-4911
▁어두	-4912
▁\	-4913
▁다룬	-4914
▁이영	-4915
▁받아들이	-4916
▁화제	-4917
▁오랫동안	-4918
▁1992	-4919
▁방출	-4920
▁북부	-4921
▁체크	-4922
▁인지도	-4923
▁터키	-4924
▁개정	-4925
▁김동	-4926
▁마이너	-4927
▁기독교	-4928
▁조언	-4929
▁KO	-4930
▁모여	-4931
▁나눠	-4932
▁클래식	-4933
▁아이콘	-4934
▁미술	-4935
▁with	-4936
▁죽인	-4937
▁바퀴	-4938
▁마침내	-4939
▁호위	-4940
▁시아	-4941
▁올해	-4942
▁웃음	-4943
▁해리	-4944
▁연료	-4945
▁곽	-4946
ud	-4947
라드	-4948
▁릿	-4949
▁1993	-4950
▁안티	-4951
▁원소	-4952
▁나간다	-4953
▁맞서	-4954
▁어마	-4955
▁장악	-4956
▁극복	-4957
▁정원	-4958
양함	-4959
▁클릭	-4960
▁별다른	-4961
▁베트남	-4962
▁접촉	-4963
▁SKT	-4964
▁의존	-4965
톨릭	-4966
▁중독	-4967
▁시마	-4968
▁가져가	-4969
▁텐데	-4970
▁국방	-4971
▁일제	-4972
▁귀찮	-4973
라이트	-4974
치기	-4975
▁다닌	-4976
▁바이러스	-4977
▁사도	-4978
▁인정받	-4979
▁노인	-4980
▁하락	-4981
▁아쉬운	-4982
▁식량	-4983
▁선택지	-4984
▁무작	-4985
▁140	-4986
▁태어난	-4987
▁멈추	-4988
▁흐름	-4989
▁생존자	-4990
▁Ex	-4991
▁결코	-4992
▁기도	-4993
▁놀이	-4994
▁톰	-4995
▁전신	-4996
▁윌리	-4997
▁우라	-4998
▁하우스	-4999
▁쉐	-5000
▁https	-5001
80	-5002
ame	-5003
▁모조리	-5004
▁로우	-5005
▁헛	-5006
▁신설	-5007
▁수익	-5008
▁비싸	-5009
▁JR	-5010
▁보관	-5011
▁본체	-5012
▁칭찬	-5013
멘트	-5014
임스	-5015
▁캐논	-5016
▁??	-5017
▁투명	-5018
▁커리어	-5019
▁챌린	-5020
▁전멸	-5021
AD	-5022
▁찔	-5023
▁외전	-5024
▁핏	-5025
▁부장	-5026
▁sh	-5027
▁체육관	-5028
▁기아	-5029
▁공무원	-5030
▁도끼	-5031
▁휘두	-5032
▁개수	-5033
▁칩	-5034
▁취향	-5035
▁대리	-5036
▁손해	-5037
▁적혀	-5038
▁전성기	-5039
▁노부	-5040
▁논리	-5041
▁이브	-5042
몬드	-5043
▁예시	-5044
▁어째서	-5045
▁IC	-5046
▁켜	-5047
▁치유	-5048
▁후방	-5049
▁으라	-5050
▁비주	-5051
▁한마디	-5052
▁카트	-5053
▁스승	-5054
▁씹	-5055
▁de	-5056
▁갈리	-5057
▁루수	-5058
▁모래	-5059
▁쳤	-5060
▁기종	-5061
▁수십	-5062
▁최다	-5063
리그	-5064
ost	-5065
세스	-5066
▁심해	-5067
▁돋	-5068
▁눌러	-5069
▁나타난	-5070
▁우연히	-5071
▁억지	-5072
▁데드	-5073
▁에리	-5074
▁김종	-5075
▁충성	-5076
▁무릎	-5077
▁Love	-5078
▁들어온	-5079
▁교장	-5080
▁이터	-5081
▁어스	-5082
▁가톨릭	-5083
▁올라왔	-5084
▁콜라보	-5085
▁제작자	-5086
▁오가	-5087
▁마린	-5088
▁정비	-5089
▁툴	-5090
코토	-5091
카리	-5092
▁유니폼	-5093
▁첼	-5094
▁재현	-5095
▁동의	-5096
▁레이더	-5097
▁GS	-5098
▁변호사	-5099
▁힙	-5100
▁구경	-5101
▁일반인	-5102
▁무지	-5103
old	-5104
▁반동	-5105
▁사막	-5106
▁소라	-5107
out	-5108
▁당일	-5109
▁노란	-5110
▁세르	-5111
▁집어	-5112
▁900	-5113
▁들리	-5114
▁로고	-5115
▁으러	-5116
든가	-5117
▁Un	-5118
스키	-5119
▁적응	-5120
▁명성	-5121
▁충청	-5122
▁작곡가	-5123
▁제임스	-5124
▁이정	-5125
▁맥스	-5126
▁구사	-5127
▁타선	-5128
▁기여	-5129
▁.."	-5130
▁트랜	-5131
▁카츠	-5132
▁오전	-5133
▁사정거리	-5134
own	-5135
▁소스	-5136
▁코미	-5137
네스	-5138
▁업적	-5139
▁202	-5140
▁쵸	-5141
▁거미	-5142
▁멕시코	-5143
▁선전	-5144
▁수류	-5145
▁타인	-5146
▁패션	-5147
▁합의	-5148
▁증언	-5149
▁자세히	-5150
▁무방	-5151
▁잉글	-5152
▁개입	-5153
▁기량	-5154
▁아일랜드	-5155
워크	-5156
▁아즈	-5157
▁둘째	-5158
▁유통	-5159
▁연금	-5160
▁판매량	-5161
▁더러	-5162
▁초보	-5163
▁꿀	-5164
카드	-5165
▁타락	-5166
▁몰라도	-5167
▁스트리	-5168
▁잡지	-5169
▁채워	-5170
▁바깥	-5171
▁가짜	-5172
▁상업	-5173
▁법원	-5174
▁드라이브	-5175
▁스웨	-5176
▁아요	-5177
▁찢	-5178
▁자국	-5179
▁폴란드	-5180
▁썰	-5181
US	-5182
▁SH	-5183
▁무라	-5184
▁넥센	-5185
▁아쿠	-5186
▁내세	-5187
▁사라진	-5188
▁취임	-5189
시로	-5190
▁향하	-5191
▁조연	-5192
▁할머니	-5193
▁LI	-5194
▁놔	-5195
▁북쪽	-5196
▁신부	-5197
▁지켜보	-5198
▁의회	-5199
▁EP	-5200
▁유물	-5201
▁포격	-5202
▁정수	-5203
▁법률	-5204
▁루카	-5205
▁수류탄	-5206
▁치킨	-5207
▁화장실	-5208
▁전후	-5209
▁닭	-5210
▁일방	-5211
▁차기	-5212
▁숨겨진	-5213
미니	-5214
▁찌르	-5215
▁가루	-5216
▁벌레	-5217
▁깔끔	-5218
다이	-5219
▁복무	-5220
▁쏠	-5221
▁주기	-5222
▁FF	-5223
▁쌍둥이	-5224
▁출마	-5225
▁똥	-5226
ok	-5227
▁주식	-5228
▁어드	-5229
▁교실	-5230
▁금속	-5231
pe	-5232
▁IS	-5233
▁펑	-5234
▁대개	-5235
▁히나	-5236
▁챙겨	-5237
▁드롭	-5238
▁오사카	-5239
▁과장	-5240
▁결성	-5241
▁싱크	-5242
▁인조	-5243
▁위상	-5244
▁남쪽	-5245
▁정착	-5246
ace	-5247
▁인격	-5248
▁승점	-5249
▁포드	-5250
ave	-5251
▁도주	-5252
per	-5253
▁비례	-5254
▁팽	-5255
노우	-5256
▁흔적	-5257
▁동력	-5258
▁들려	-5259
▁XX	-5260
▁줘서	-5261
▁교차	-5262
▁연패	-5263
▁그러니까	-5264
▁독특	-5265
▁채우	-5266
달리	-5267
▁주일	-5268
ng	-5269
▁자폭	-5270
▁헐	-5271
▁처형	-5272
▁잠재	-5273
▁도적	-5274
▁방어구	-5275
▁훗날	-5276
▁비싼	-5277
▁스텔	-5278
▁숭	-5279
▁튕	-5280
네임	-5281
▁스터	-5282
▁공성	-5283
▁냄새	-5284
▁권한	-5285
▁스마트폰	-5286
▁1991	-5287
▁스프링	-5288
ice	-5289
▁라이온	-5290
▁상호	-5291
▁간신	-5292
▁부작	-5293
▁글러	-5294
▁자책	-5295
▁강도	-5296
▁블러드	-5297
▁정치인	-5298
▁화학	-5299
▁모를	-5300
▁네요	-5301
▁위대	-5302
▁거점	-5303
▁남녀	-5304
▁공룡	-5305
▁매니저	-5306
▁국립	-5307
▁잡히	-5308
▁CV	-5309
▁일찍	-5310
▁CF	-5311
▁포항	-5312
▁연승	-5313
▁오라	-5314
▁클레	-5315
▁AD	-5316
▁시너지	-5317
▁포수	-5318
▁비상	-5319
▁1988	-5320
▁기용	-5321
▁클랜	-5322
OD	-5323
▁타수	-5324
▁새끼	-5325
▁귀환	-5326
▁불타	-5327
▁몰락	-5328
▁크리스탈	-5329
▁추억	-5330
▁런던	-5331
▁일으킨	-5332
▁스페이스	-5333
가스	-5334
ov	-5335
▁스튜디오	-5336
▁행보	-5337
▁개량	-5338
▁각본	-5339
▁고작	-5340
▁유대	-5341
▁제갈	-5342
▁이슈	-5343
▁풀리	-5344
▁김재	-5345
랑이	-5346
▁오타	-5347
▁We	-5348
▁적당히	-5349
▁대인	-5350
랭크	-5351
▁시노	-5352
▁지뢰	-5353
▁어려움	-5354
▁상술	-5355
▁트라이	-5356
나카	-5357
ont	-5358
▁사유	-5359
▁승률	-5360
▁후술	-5361
▁색깔	-5362
▁아츠	-5363
▁주역	-5364
▁실망	-5365
▁내보	-5366
▁숙련	-5367
▁개막	-5368
▁혈액	-5369
자드	-5370
▁공세	-5371
▁광역시	-5372
▁아케	-5373
▁흥미	-5374
▁AM	-5375
▁쫓아	-5376
▁갈라	-5377
▁혐오	-5378
▁105	-5379
▁거치	-5380
▁줄이	-5381
▁미스터	-5382
▁녹색	-5383
▁길이	-5384
▁루나	-5385
▁가해	-5386
▁뜬금	-5387
▁카운트	-5388
▁언젠	-5389
▁태어났	-5390
가시	-5391
▁커피	-5392
러지	-5393
로나	-5394
▁이중	-5395
▁타로	-5396
▁약해	-5397
▁봐서	-5398
팡이	-5399
▁일람	-5400
▁히어로즈	-5401
orld	-5402
▁자막	-5403
▁해피	-5404
▁서포터	-5405
블린	-5406
ies	-5407
▁DS	-5408
▁다름없	-5409
▁생년	-5410
▁소위	-5411
▁코리아	-5412
▁재단	-5413
▁리온	-5414
▁학력	-5415
▁널리	-5416
▁나타난다	-5417
▁컸	-5418
▁색상	-5419
▁인민	-5420
▁화성	-5421
▁망치	-5422
▁계통	-5423
▁금융	-5424
▁나아가	-5425
▁스트라이크	-5426
ann	-5427
▁노르	-5428
▁이젠	-5429
▁SNS	-5430
▁티켓	-5431
▁제작사	-5432
▁특전	-5433
▁관람	-5434
▁너희	-5435
▁요금	-5436
▁나치	-5437
▁면모	-5438
▁흡혈	-5439
OC	-5440
▁국왕	-5441
특별시	-5442
▁구슬	-5443
▁이겨	-5444
고속	-5445
▁미터	-5446
▁몰라	-5447
▁리타	-5448
▁아이언	-5449
▁심사	-5450
시타	-5451
▁아마도	-5452
▁차이점	-5453
▁배터리	-5454
▁덧붙	-5455
▁ED	-5456
▁오크	-5457
▁디지몬	-5458
▁영구	-5459
▁쓸모	-5460
럼프	-5461
▁단단	-5462
▁흘리	-5463
▁개시	-5464
▁뿔	-5465
▁온다	-5466
▁하단	-5467
▁세종	-5468
▁기숙	-5469
▁싸워	-5470
▁오랜만	-5471
▁느린	-5472
▁서울특별시	-5473
▁오직	-5474
▁펄	-5475
▁CPU	-5476
BA	-5477
▁중량	-5478
▁까진	-5479
▁소대	-5480
다란	-5481
▁사이버	-5482
▁추종	-5483
▁칭호	-5484
▁미묘	-5485
▁어뢰	-5486
▁증오	-5487
▁공공	-5488
▁재산	-5489
▁이루어진	-5490
LE	-5491
▁세븐	-5492
▁스팀	-5493
▁보호막	-5494
▁잉글랜드	-5495
▁시그	-5496
▁DE	-5497
▁호수	-5498
▁중첩	-5499
▁올라온	-5500
▁생략	-5501
▁내지	-5502
▁오마	-5503
▁좌석	-5504
▁민첩	-5505
▁연령	-5506
▁엿	-5507
티아	-5508
▁고구	-5509
▁wik	-5510
▁맛있	-5511
▁편입	-5512
▁언더	-5513
▁밝혀진	-5514
▁만날	-5515
▁뎀	-5516
▁혐의	-5517
▁히토	-5518
▁부지	-5519
▁워커	-5520
▁지경	-5521
▁총알	-5522
▁가만	-5523
▁애플	-5524
▁십자	-5525
▁부른	-5526
베르	-5527
▁협상	-5528
▁전라	-5529
▁LC	-5530
▁마약	-5531
▁해상	-5532
▁실전	-5533
▁혹시	-5534
▁단편	-5535
▁상단	-5536
▁지르	-5537
▁휴식	-5538
▁메리	-5539
▁가요	-5540
▁LV	-5541
▁노벨	-5542
▁타율	-5543
▁쿼터	-5544
▁딴	-5545
▁신사	-5546
어마	-5547
▁아저	-5548
시스트	-5549
▁하차	-5550
▁연예인	-5551
▁후배	-5552
저스	-5553
로디	-5554
▁예언	-5555
▁태어나	-5556
▁네트	-5557
▁이익	-5558
▁걸쳐	-5559
▁상인	-5560
▁흐르	-5561
▁NE	-5562
▁딜링	-5563
▁본다	-5564
▁정화	-5565
ber	-5566
▁펌	-5567
▁곤란	-5568
▁중국어	-5569
▁수장	-5570
▁구석	-5571
▁아저씨	-5572
▁탈퇴	-5573
▁막대	-5574
▁남겼	-5575
▁강자	-5576
ys	-5577
▁익스	-5578
▁강요	-5579
▁기관총	-5580
▁어마어마	-5581
▁찬스	-5582
▁임대	-5583
▁카카	-5584
▁SE	-5585
▁예산	-5586
▁동쪽	-5587
▁189	-5588
▁어려워	-5589
▁언스	-5590
▁용량	-5591
▁용서	-5592
▁턱	-5593
▁느낄	-5594
▁네오	-5595
▁문구	-5596
ION	-5597
▁모노	-5598
▁공방	-5599
▁어리	-5600
▁개혁	-5601
사자	-5602
▁가하	-5603
▁하루카	-5604
der	-5605
▁바꾼	-5606
▁캠프	-5607
▁수호자	-5608
▁your	-5609
aw	-5610
▁악당	-5611
▁자극	-5612
▁김현	-5613
▁진보	-5614
▁소장	-5615
▁넘치	-5616
▁드럼	-5617
▁부각	-5618
▁3000	-5619
▁원칙	-5620
▁상실	-5621
▁잠수함	-5622
▁금방	-5623
60	-5624
▁총리	-5625
▁큐브	-5626
▁칼리	-5627
▁틸	-5628
▁포로	-5629
FF	-5630
▁포르투	-5631
▁BPM	-5632
▁인치	-5633
이너	-5634
▁원수	-5635
▁EN	-5636
▁교류	-5637
▁학자	-5638
▁굿	-5639
▁It	-5640
▁루이	-5641
40	-5642
▁원하	-5643
▁메달	-5644
▁얀	-5645
▁남긴	-5646
▁데몬	-5647
▁상관없	-5648
▁결전	-5649
▁원주	-5650
▁앨리스	-5651
▁마디	-5652
▁집행	-5653
ream	-5654
▁원문	-5655
▁저작	-5656
▁유효	-5657
▁표지	-5658
▁얻어	-5659
▁자전	-5660
▁엑스트라	-5661
▁활발	-5662
▁뱀파이어	-5663
▁가을	-5664
ike	-5665
▁일족	-5666
▁미쿠	-5667
▁125	-5668
▁입지	-5669
▁후계	-5670
▁모토	-5671
▁나나	-5672
▁채팅	-5673
▁로리	-5674
▁든다	-5675
▁간신히	-5676
▁Com	-5677
▁중립	-5678
술사	-5679
▁타운	-5680
▁엘리트	-5681
▁에요	-5682
▁신앙	-5683
▁헬기	-5684
▁무척	-5685
▁저렴	-5686
▁도루	-5687
▁1989	-5688
▁제트	-5689
▁서번	-5690
▁카와	-5691
▁사형	-5692
월일	-5693
▁메시지	-5694
▁들여	-5695
▁낚시	-5696
위대	-5697
▁기생	-5698
▁피터	-5699
▁화물	-5700
▁이끄	-5701
▁PV	-5702
▁칼날	-5703
▁벌어진	-5704
▁힌	-5705
▁그레	-5706
▁마그	-5707
▁담배	-5708
▁서번트	-5709
▁무렵	-5710
▁첩	-5711
▁정예	-5712
▁성남	-5713
▁요약	-5714
▁짜증	-5715
▁루비	-5716
▁사명	-5717
▁미즈	-5718
▁모이	-5719
▁더군	-5720
▁신지	-5721
▁느낀	-5722
▁복지	-5723
▁일본인	-5724
▁구축함	-5725
▁어라	-5726
▁추구	-5727
▁행운	-5728
▁생년월일	-5729
▁거울	-5730
▁재밌	-5731
▁존재감	-5732
▁UP	-5733
▁지라	-5734
팩트	-5735
▁레알	-5736
▁딜레이	-5737
iss	-5738
▁위원장	-5739
▁말리	-5740
▁동아	-5741
▁여야	-5742
▁잡아먹	-5743
▁안녕	-5744
▁대학원	-5745
▁바이오	-5746
▁테라	-5747
▁터널	-5748
▁ww	-5749
▁거듭	-5750
▁그랜드	-5751
▁부딪	-5752
▁순환	-5753
▁도망가	-5754
▁영주	-5755
▁애정	-5756
▁음모	-5757
▁주자	-5758
▁반전	-5759
▁캐스터	-5760
데이	-5761
▁철학	-5762
▁최신	-5763
▁해골	-5764
▁라기	-5765
▁AS	-5766
▁따라가	-5767
▁도둑	-5768
하면	-5769
▁텍스트	-5770
▁나리	-5771
▁가동	-5772
▁무역	-5773
▁피아노	-5774
▁엔젤	-5775
▁격추	-5776
라기	-5777
▁나선	-5778
▁잔뜩	-5779
▁태평	-5780
▁사라진다	-5781
보이	-5782
▁서쪽	-5783
▁사원	-5784
▁저질	-5785
▁참석	-5786
▁공허	-5787
▁멋진	-5788
▁부스터	-5789
▁심심	-5790
▁휩	-5791
▁기구	-5792
▁BL	-5793
▁모니	-5794
▁플라이	-5795
▁돼서	-5796
▁알렉산	-5797
▁www	-5798
걸이	-5799
▁기숙사	-5800
▁무서운	-5801
▁늘어난	-5802
▁취약	-5803
▁드래프트	-5804
▁->	-5805
▁부적	-5806
▁이집	-5807
▁이집트	-5808
30	-5809
▁마신	-5810
▁언젠가	-5811
▁공용	-5812
▁주차	-5813
chor	-5814
▁분신	-5815
ian	-5816
▁준우	-5817
▁비서	-5818
▁통산	-5819
▁써야	-5820
테르	-5821
▁CJ	-5822
▁체중	-5823
▁유나이	-5824
▁궤도	-5825
▁상기	-5826
회사	-5827
▁분대	-5828
▁명단	-5829
▁초록	-5830
▁유적	-5831
▁확대	-5832
▁쭉	-5833
▁훼	-5834
▁윌리엄	-5835
▁토벌	-5836
▁탄환	-5837
▁유나이티	-5838
io	-5839
▁종목	-5840
▁이토	-5841
▁옳	-5842
▁교황	-5843
▁Pro	-5844
▁페널	-5845
▁스펠	-5846
▁난입	-5847
▁식민	-5848
▁알려졌	-5849
▁귀여운	-5850
▁권리	-5851
▁경로	-5852
▁피할	-5853
▁왠지	-5854
소녀	-5855
▁하츠	-5856
▁브루	-5857
▁나츠	-5858
▁도박	-5859
우마	-5860
▁악명	-5861
▁출입	-5862
게임	-5863
▁말투	-5864
▁복구	-5865
▁밍	-5866
▁은신	-5867
▁대선	-5868
▁that	-5869
▁글로벌	-5870
▁외계인	-5871
▁빠졌	-5872
▁건조	-5873
▁신전	-5874
▁이식	-5875
▁1970	-5876
▁불사	-5877
▁기울	-5878
▁트랜스	-5879
▁간접	-5880
▁형상	-5881
▁도라	-5882
▁업로드	-5883
▁둠	-5884
▁코멘트	-5885
▁조리	-5886
▁시라	-5887
▁Fl	-5888
정부	-5889
▁기뻐	-5890
▁윗	-5891
▁기운	-5892
▁발달	-5893
▁아미	-5894
▁양성	-5895
▁연맹	-5896
ory	-5897
▁레딧	-5898
▁와일드	-5899
▁레슬	-5900
0000	-5901
▁에다가	-5902
▁하향	-5903
▁물려	-5904
▁장탄	-5905
▁적합	-5906
▁김대	-5907
▁디스크	-5908
▁Br	-5909
▁이수	-5910
▁가라	-5911
▁소유자	-5912
▁전이	-5913
▁일치	-5914
▁제약	-5915
▁가방	-5916
▁;&	-5917
▁명확	-5918
▁릴리	-5919
▁anchor	-5920
▁천만	-5921
▁숨기	-5922
▁유독	-5923
▁라이플	-5924
▁드라이버	-5925
▁뿜	-5926
▁연극	-5927
▁이드	-5928
▁아메리카	-5929
▁미키	-5930
▁어딘	-5931
▁사후	-5932
▁이펙트	-5933
▁구글	-5934
▁정황	-5935
▁살펴	-5936
▁화재	-5937
▁나타났	-5938
▁고개	-5939
▁커다란	-5940
▁WWE	-5941
▁강점	-5942
▁고도	-5943
▁그램	-5944
▁크림	-5945
▁리스크	-5946
▁딕	-5947
▁매장	-5948
▁구리	-5949
▁팬텀	-5950
리나	-5951
▁울프	-5952
▁커녕	-5953
▁나타내	-5954
▁해요	-5955
▁주택	-5956
▁헌법	-5957
▁끔찍	-5958
▁곳곳	-5959
▁&#	-5960
▁갖춘	-5961
IP	-5962
▁로얄	-5963
▁저택	-5964
▁아키라	-5965
▁실책	-5966
▁리뷰	-5967
▁이민	-5968
포트	-5969
▁할인	-5970
▁셜	-5971
▁170	-5972
▁보완	-5973
IG	-5974
UM	-5975
▁비주얼	-5976
▁렐	-5977
▁백성	-5978
▁Or	-5979
▁암시	-5980
▁사인	-5981
▁앞두	-5982
▁다이아몬드	-5983
▁그럭	-5984
▁문단	-5985
▁조별	-5986
▁평생	-5987
VD	-5988
▁하이퍼	-5989
▁만남	-5990
▁마블	-5991
▁운동장	-5992
▁단축	-5993
▁야수	-5994
▁이겼	-5995
▁우르	-5996
저럭	-5997
▁웨이브	-5998
▁언덕	-5999
▁충실	-6000
▁어필	-6001
TE	-6002
▁le	-6003
▁금액	-6004
▁나마	-6005
▁메이드	-6006
▁치즈	-6007
▁그럭저럭	-6008
▁승객	-6009
▁플래시	-6010
▁고위	-6011
▁허락	-6012
▁라니	-6013
▁망가	-6014
▁걸맞	-6015
▁박물	-6016
▁뻗	-6017
▁테츠	-6018
▁호기	-6019
가리	-6020
▁여우	-6021
▁원자	-6022
▁생긴다	-6023
▁자이언츠	-6024
▁답변	-6025
▁비스	-6026
▁샌드	-6027
▁토니	-6028
▁모자라	-6029
▁by	-6030
▁이른	-6031
▁이어서	-6032
▁덩치	-6033
▁1987	-6034
▁불펜	-6035
▁항공기	-6036
▁감각	-6037
▁라라	-6038
▁가벼	-6039
▁상식	-6040
▁시합	-6041
▁파편	-6042
▁였을	-6043
az	-6044
▁~!	-6045
▁성립	-6046
▁승자	-6047
▁스웨덴	-6048
▁뛰어넘	-6049
▁상영	-6050
▁Dr	-6051
▁토너	-6052
▁스크린	-6053
oth	-6054
▁에르	-6055
▁출격	-6056
▁위반	-6057
man	-6058
▁기동성	-6059
데미	-6060
▁트롤	-6061
ep	-6062
▁입대	-6063
▁잃어버	-6064
▁꼼	-6065
▁구미	-6066
▁매년	-6067
▁시원	-6068
▁부자	-6069
▁긴장	-6070
▁;&#	-6071
비드	-6072
▁축복	-6073
▁록맨	-6074
▁필리	-6075
▁가르쳐	-6076
OU	-6077
▁급격	-6078
▁걸린다	-6079
ale	-6080
▁문재인	-6081
란다	-6082
▁배트맨	-6083
▁집착	-6084
▁사살	-6085
▁천하	-6086
▁OP	-6087
▁흩	-6088
▁려던	-6089
▁니스	-6090
▁권장	-6091
▁유학	-6092
▁캘	-6093
VA	-6094
▁킬러	-6095
▁넘버	-6096
▁서구	-6097
▁놓치	-6098
▁작년	-6099
▁미네	-6100
▁평점	-6101
▁기인	-6102
▁일대	-6103
▁호칭	-6104
▁플래그	-6105
▁동성	-6106
▁마법소녀	-6107
▁싫어	-6108
▁보드	-6109
▁대수	-6110
▁퇴장	-6111
▁아카데미	-6112
▁적중	-6113
▁통치	-6114
▁토마	-6115
▁스테이	-6116
▁내전	-6117
▁우에	-6118
▁참가자	-6119
▁창고	-6120
어진다	-6121
▁놨	-6122
▁스즈	-6123
▁해명	-6124
▁스폰	-6125
ky	-6126
▁RPG	-6127
▁보인	-6128
▁따온	-6129
▁노바	-6130
▁맷	-6131
▁시공	-6132
▁리오	-6133
▁정하	-6134
▁분명히	-6135
▁케인	-6136
▁휘말	-6137
쟁이	-6138
ach	-6139
▁서서	-6140
▁구름	-6141
70	-6142
▁탐험	-6143
▁교과	-6144
운서	-6145
arg	-6146
▁아나운서	-6147
▁관할	-6148
▁중형	-6149
다나	-6150
▁실종	-6151
▁1500	-6152
▁열매	-6153
부르크	-6154
▁결심	-6155
▁근거리	-6156
▁내렸	-6157
▁전주	-6158
▁Sc	-6159
▁떠났	-6160
▁용인	-6161
▁약화	-6162
▁읍	-6163
▁선고	-6164
ows	-6165
▁결합	-6166
▁5000	-6167
아나	-6168
▁경직	-6169
▁사키	-6170
▁학기	-6171
▁동점	-6172
▁결투	-6173
▁두들	-6174
▁리플	-6175
▁그렇지만	-6176
▁정기	-6177
▁흑인	-6178
▁법인	-6179
▁싹	-6180
▁팟	-6181
▁죽였	-6182
▁어판	-6183
▁타쿠	-6184
▁본진	-6185
▁해안	-6186
▁치르	-6187
orm	-6188
▁토너먼트	-6189
▁쓰러뜨	-6190
▁가려	-6191
▁잘라	-6192
▁떠올리	-6193
▁111	-6194
▁호흡	-6195
▁노려	-6196
▁믹스	-6197
▁등지	-6198
▁솜	-6199
▁헝	-6200
▁전승	-6201
▁마스크	-6202
▁암살자	-6203
▁채보	-6204
▁발렌	-6205
▁생명체	-6206
▁완결	-6207
▁호시	-6208
▁야생	-6209
▁간지	-6210
▁센스	-6211
▁Team	-6212
▁럼	-6213
▁괜히	-6214
▁KBO	-6215
ish	-6216
▁수능	-6217
▁천안	-6218
▁막내	-6219
▁페이스북	-6220
▁내일	-6221
▁연합군	-6222
▁쓰러뜨리	-6223
▁겹치	-6224
▁악몽	-6225
▁BB	-6226
▁파르	-6227
▁정차	-6228
▁동아리	-6229
▁근본	-6230
▁변환	-6231
▁불교	-6232
▁지위	-6233
▁본사	-6234
▁엔드	-6235
▁박물관	-6236
▁슬라이	-6237
▁}}	-6238
ae	-6239
▁스위치	-6240
GE	-6241
▁인디	-6242
▁연습생	-6243
무시	-6244
▁우정	-6245
▁베리	-6246
▁베타	-6247
▁부를	-6248
▁지팡이	-6249
▁휠	-6250
▁와타	-6251
▁보이스	-6252
▁휘두르	-6253
ook	-6254
▁침략	-6255
Hz	-6256
▁소음	-6257
▁침묵	-6258
▁침입	-6259
▁마우스	-6260
▁부실	-6261
▁솔직	-6262
▁장인	-6263
▁통화	-6264
▁초인	-6265
ug	-6266
▁올릴	-6267
▁머물	-6268
ade	-6269
▁알아보	-6270
커스	-6271
▁유발	-6272
▁동급	-6273
▁한쪽	-6274
▁크레	-6275
▁선두	-6276
▁면적	-6277
▁들어왔	-6278
▁벌어졌	-6279
▁유력	-6280
ile	-6281
▁트리플	-6282
▁통계	-6283
▁FIFA	-6284
▁타석	-6285
든지	-6286
▁뮤지컬	-6287
▁관리자	-6288
▁돌입	-6289
▁리카	-6290
일보	-6291
▁참모	-6292
▁챈	-6293
▁유격	-6294
▁사용자	-6295
▁대왕	-6296
rom	-6297
▁마물	-6298
▁키타	-6299
yle	-6300
▁서클	-6301
▁임팩트	-6302
▁했으니	-6303
▁갈아	-6304
▁영광	-6305
▁지진	-6306
반도	-6307
irl	-6308
▁새롭	-6309
▁수급	-6310
ash	-6311
▁법정	-6312
▁ㅣ	-6313
ower	-6314
▁소방	-6315
▁교도	-6316
▁무작위	-6317
▁출구	-6318
데드	-6319
▁철수	-6320
▁무시무시	-6321
▁인피	-6322
▁가죽	-6323
▁건가	-6324
프리	-6325
▁1986	-6326
▁노스	-6327
▁지불	-6328
▁대거	-6329
▁wiki	-6330
부로	-6331
▁벙	-6332
▁프리미엄	-6333
▁수비력	-6334
▁균형	-6335
▁우타	-6336
▁CH	-6337
ink	-6338
▁허가	-6339
▁재정	-6340
▁가디언	-6341
▁CG	-6342
▁걸렸	-6343
▁세팅	-6344
▁히라	-6345
▁구할	-6346
TS	-6347
▁FW	-6348
▁임신	-6349
▁무관	-6350
▁언데드	-6351
▁어렸	-6352
▁보험	-6353
▁채택	-6354
▁간간	-6355
▁쓰러지	-6356
▁감지	-6357
▁깨달	-6358
▁콜로	-6359
▁항복	-6360
▁더군다나	-6361
▁폐쇄	-6362
▁디젤	-6363
▁안개	-6364
▁썬더	-6365
▁인력	-6366
▁격차	-6367
▁인질	-6368
▁인종	-6369
▁스쿨	-6370
▁몽골	-6371
▁신발	-6372
▁삽입	-6373
▁막판	-6374
▁블라	-6375
▁남북	-6376
IM	-6377
▁기름	-6378
atch	-6379
▁망했	-6380
▁인방	-6381
▁판결	-6382
▁철저	-6383
▁시켜서	-6384
▁비전	-6385
▁바디	-6386
▁사라져	-6387
▁핑크	-6388
▁DD	-6389
▁창원	-6390
▁아끼	-6391
▁고블린	-6392
▁선보였	-6393
▁어딘가	-6394
▁반박	-6395
센트	-6396
CG	-6397
▁관계자	-6398
▁이혼	-6399
머스	-6400
▁리프	-6401
▁단원	-6402
▁제정	-6403
▁데모	-6404
ial	-6405
▁포켓몬스터	-6406
▁경남	-6407
sh	-6408
▁트럼프	-6409
은행	-6410
▁텟	-6411
▁we	-6412
▁출루	-6413
▁유인	-6414
▁배포	-6415
▁코르	-6416
▁남매	-6417
▁포위	-6418
▁여주	-6419
▁후계자	-6420
▁일본군	-6421
▁의외로	-6422
▁백인	-6423
▁여러분	-6424
▁존경	-6425
▁스파이더	-6426
▁들어서	-6427
▁투스	-6428
▁이타	-6429
▁살아가	-6430
▁아틀	-6431
▁고구려	-6432
먼스	-6433
▁수면	-6434
▁아닌데	-6435
▁싸웠	-6436
▁아인	-6437
▁War	-6438
▁신나	-6439
▁인용	-6440
래시	-6441
▁김경	-6442
▁무사히	-6443
▁ID	-6444
▁체인지	-6445
▁복제	-6446
▁일당	-6447
▁쏜	-6448
▁쿠라	-6449
▁어두운	-6450
▁쓰였	-6451
▁스트레스	-6452
▁씌	-6453
여객	-6454
▁복선	-6455
▁매번	-6456
▁영원히	-6457
끄러	-6458
▁골렘	-6459
전차	-6460
▁륜	-6461
▁동양	-6462
▁예수	-6463
▁오늘날	-6464
▁Star	-6465
▁팁	-6466
▁챌린지	-6467
▁학습	-6468
▁LA	-6469
▁포르투갈	-6470
▁개설	-6471
▁벼	-6472
▁기세	-6473
▁국당	-6474
▁중복	-6475
▁캐치	-6476
▁106	-6477
▁메이플	-6478
▁고마	-6479
리스트	-6480
▁무너지	-6481
▁갑작	-6482
코드	-6483
▁빌려	-6484
▁준우승	-6485
▁아테	-6486
▁물량	-6487
▁일으켜	-6488
▁다녀	-6489
▁소송	-6490
▁지리	-6491
▁반해	-6492
▁어이	-6493
▁에픽	-6494
▁이글	-6495
▁끝난다	-6496
▁동명	-6497
▁코난	-6498
▁수출	-6499
▁레지	-6500
▁보충	-6501
▁탕	-6502
필드	-6503
▁선행	-6504
▁해치	-6505
카이	-6506
▁날카	-6507
▁장신	-6508
▁해머	-6509
오루	-6510
▁간단히	-6511
▁물고기	-6512
▁오디션	-6513
▁가만히	-6514
▁토크	-6515
▁바뀐다	-6516
▁대책	-6517
▁축하	-6518
▁미나미	-6519
▁기상	-6520
천시	-6521
▁up	-6522
▁왜곡	-6523
▁정통	-6524
▁못지	-6525
▁동인	-6526
▁냐면	-6527
▁상담	-6528
▁네트워크	-6529
▁미만	-6530
▁분열	-6531
▁DVD	-6532
▁귀엽	-6533
▁오키	-6534
▁뽀	-6535
▁데이트	-6536
▁코트	-6537
▁중력	-6538
키지	-6539
▁이주	-6540
▁보건	-6541
티스	-6542
▁닉네임	-6543
▁시크	-6544
▁드릴	-6545
▁만만	-6546
▁PR	-6547
▁버섯	-6548
▁자르	-6549
▁웰	-6550
▁잠입	-6551
▁피닉스	-6552
▁멜로디	-6553
▁배정	-6554
▁전북	-6555
▁메이커	-6556
▁오우	-6557
▁부드	-6558
▁공업	-6559
▁밝힌	-6560
▁혼돈	-6561
▁나미	-6562
▁체험	-6563
▁포즈	-6564
▁즉사	-6565
▁ON	-6566
▁처분	-6567
▁골라	-6568
▁여전	-6569
▁115	-6570
▁개업	-6571
▁해킹	-6572
▁후원	-6573
▁하마	-6574
▁넨	-6575
▁수석	-6576
▁단행	-6577
▁오메	-6578
▁항의	-6579
▁줍	-6580
▁102	-6581
▁야마토	-6582
▁패키지	-6583
화점	-6584
▁진압	-6585
▁선제	-6586
▁줄어든	-6587
▁벨트	-6588
▁트릭	-6589
▁아랍	-6590
▁입주	-6591
▁억지로	-6592
▁마드리	-6593
▁자전거	-6594
▁악기	-6595
▁기동전	-6596
▁기재	-6597
▁사령부	-6598
ING	-6599
▁다녔	-6600
▁배역	-6601
▁수백	-6602
▁장탄수	-6603
▁fe	-6604
▁장거리	-6605
▁퍼포	-6606
▁자본	-6607
▁퍼포먼스	-6608
▁서포트	-6609
▁Ne	-6610
ous	-6611
▁플러스	-6612
▁유산	-6613
▁For	-6614
▁수명	-6615
▁이루어져	-6616
▁기갑	-6617
amp	-6618
세대	-6619
▁돔	-6620
▁마드리드	-6621
▁오스트리아	-6622
att	-6623
▁콘텐츠	-6624
▁대포	-6625
▁악화	-6626
▁성전	-6627
▁라그	-6628
▁파이트	-6629
▁}}}	-6630
▁고리	-6631
▁Go	-6632
▁닛	-6633
▁야구장	-6634
▁호랑이	-6635
▁옹호	-6636
▁파동	-6637
게이	-6638
▁사이코	-6639
▁And	-6640
▁파멸	-6641
▁정발	-6642
▁분쟁	-6643
▁은지	-6644
야수	-6645
▁대치	-6646
▁GP	-6647
▁통로	-6648
▁분해	-6649
▁우세	-6650
▁유미	-6651
▁전제	-6652
▁이스라	-6653
▁도감	-6654
▁세부	-6655
▁프레이	-6656
▁지냈	-6657
▁궁금	-6658
▁가공	-6659
▁모험가	-6660
▁신입	-6661
▁토키	-6662
▁드러났	-6663
▁첼시	-6664
▁꿰	-6665
▁175	-6666
▁주니어	-6667
▁께서	-6668
▁Cr	-6669
▁탐정	-6670
▁Wind	-6671
▁늘어났	-6672
▁배달	-6673
▁무술	-6674
▁188	-6675
바닥	-6676
▁최상위	-6677
▁김상	-6678
아키	-6679
▁조약	-6680
▁재회	-6681
▁넬	-6682
▁논의	-6683
▁다닌다	-6684
▁기력	-6685
▁느려	-6686
▁그날	-6687
▁젤리	-6688
▁공정	-6689
▁처참	-6690
▁광선	-6691
▁".	-6692
▁파생	-6693
크로	-6694
하시	-6695
▁친한	-6696
▁아르헨	-6697
▁디즈	-6698
me	-6699
자와	-6700
▁커지	-6701
▁세포	-6702
▁행방	-6703
▁깜짝	-6704
▁모터	-6705
▁1985	-6706
▁시트	-6707
▁진주	-6708
▁무스	-6709
▁산하	-6710
▁유성	-6711
▁wid	-6712
▁차체	-6713
▁노조	-6714
▁버드	-6715
▁체감	-6716
▁받아들여	-6717
▁박지	-6718
▁양상	-6719
▁장미	-6720
▁마코토	-6721
▁위안	-6722
▁조이	-6723
▁조우	-6724
▁비웃	-6725
▁리라	-6726
▁자꾸	-6727
▁터스	-6728
ms	-6729
▁후손	-6730
텐도	-6731
▁진학	-6732
▁닌텐도	-6733
가드	-6734
▁증폭	-6735
AY	-6736
▁강원도	-6737
▁김진	-6738
▁롬	-6739
▁부착	-6740
▁여학생	-6741
▁bl	-6742
▁카구	-6743
64	-6744
▁터져	-6745
▁금메달	-6746
▁아르헨티나	-6747
▁즈음	-6748
▁레일	-6749
▁앗	-6750
▁나비	-6751
▁규격	-6752
▁나기	-6753
▁독재	-6754
▁저지르	-6755
▁업계	-6756
▁고로	-6757
▁니콜	-6758
▁아동	-6759
▁퍼지	-6760
▁폭행	-6761
▁방치	-6762
▁휘하	-6763
▁검술	-6764
▁주둔	-6765
▁관점	-6766
▁드루	-6767
▁커서	-6768
▁조기	-6769
▁시카	-6770
▁사귀	-6771
▁난사	-6772
▁페널티	-6773
▁쪼	-6774
▁width	-6775
▁듀오	-6776
▁베네	-6777
▁350	-6778
▁띠	-6779
▁이긴	-6780
▁al	-6781
12	-6782
ib	-6783
▁전파	-6784
ft	-6785
▁공수	-6786
▁왜냐	-6787
▁한두	-6788
▁Gam	-6789
벌레	-6790
▁반부	-6791
▁훈장	-6792
▁브레	-6793
▁개발자	-6794
▁신데	-6795
▁전무	-6796
▁질투	-6797
now	-6798
▁무인	-6799
▁PP	-6800
▁이걸로	-6801
▁제독	-6802
▁톨	-6803
▁중세	-6804
▁경주	-6805
▁택시	-6806
▁고장	-6807
▁파란색	-6808
승부	-6809
MP	-6810
▁BS	-6811
▁세웠	-6812
▁베테	-6813
ps	-6814
▁스트리트	-6815
렐라	-6816
▁IN	-6817
▁감상	-6818
▁측정	-6819
▁이온	-6820
▁방송국	-6821
▁소요	-6822
비전	-6823
▁김기	-6824
▁속한다	-6825
▁전동	-6826
▁조커	-6827
▁떠난	-6828
▁오염	-6829
▁스탠드	-6830
▁중장	-6831
▁불량	-6832
▁이스라엘	-6833
▁면허	-6834
▁능력자	-6835
▁늘리	-6836
▁세인트	-6837
▁감동	-6838
▁루스	-6839
▁토큰	-6840
▁승무원	-6841
oll	-6842
▁도저히	-6843
▁최적	-6844
▁BR	-6845
히코	-6846
▁1984	-6847
▁기원전	-6848
▁산탄	-6849
▁부사	-6850
▁시상	-6851
▁드론	-6852
TV	-6853
▁AKB	-6854
▁약탈	-6855
▁나요	-6856
▁Man	-6857
▁운수	-6858
▁지사	-6859
▁국판	-6860
▁후자	-6861
▁발목	-6862
▁트루	-6863
▁디바	-6864
▁대단히	-6865
▁유니크	-6866
▁토시	-6867
▁우치	-6868
태프	-6869
▁신도	-6870
▁UN	-6871
▁피트	-6872
▁스캔	-6873
▁위성	-6874
▁기장	-6875
▁닝	-6876
▁루머	-6877
▁나루토	-6878
▁티아	-6879
▁우월	-6880
▁그래서인지	-6881
▁맡기	-6882
▁에디	-6883
▁sp	-6884
▁All	-6885
▁선거구	-6886
▁이종	-6887
▁바론	-6888
▁아아	-6889
▁세운	-6890
▁스텝	-6891
▁주행	-6892
▁돌아와	-6893
▁후퇴	-6894
▁코마	-6895
신교	-6896
▁브로	-6897
▁아시안	-6898
▁부러	-6899
▁룩	-6900
▁아레나	-6901
▁혈액형	-6902
▁히가시	-6903
▁광장	-6904
▁옮기	-6905
▁내려오	-6906
▁식민지	-6907
▁루이스	-6908
▁샷건	-6909
▁왕위	-6910
▁상관없이	-6911
▁틴	-6912
▁창단	-6913
▁베기	-6914
▁선보이	-6915
▁루크	-6916
번에	-6917
▁Part	-6918
▁나노	-6919
▁반짝	-6920
▁자비	-6921
▁SU	-6922
▁서서히	-6923
▁철권	-6924
카락	-6925
▁머리카락	-6926
▁달라지	-6927
▁하하	-6928
▁KR	-6929
▁소용	-6930
▁과도	-6931
▁자녀	-6932
▁친해	-6933
▁까이	-6934
▁일화	-6935
▁라이너	-6936
▁붐	-6937
더라	-6938
▁올라갔	-6939
▁던가	-6940
▁토미	-6941
▁112	-6942
▁다운로드	-6943
▁공백	-6944
▁En	-6945
경기	-6946
▁분당	-6947
▁기둥	-6948
▁노가	-6949
▁조용히	-6950
▁연고	-6951
▁제출	-6952
▁야간	-6953
▁조롱	-6954
▁원리	-6955
▁아가씨	-6956
▁고인	-6957
▁힐러	-6958
세서	-6959
▁요인	-6960
▁얻어맞	-6961
▁명의	-6962
▁간호	-6963
▁끊임	-6964
▁수월	-6965
▁철거	-6966
ond	-6967
▁향한	-6968
▁투척	-6969
▁뻥	-6970
▁대시	-6971
▁프렌	-6972
▁DC	-6973
▁마감	-6974
키퍼	-6975
▁돌연	-6976
▁Sup	-6977
▁바꿀	-6978
▁중시	-6979
▁쇼핑	-6980
▁Fate	-6981
▁줄거리	-6982
▁비명	-6983
▁LP	-6984
▁려다	-6985
▁캣	-6986
▁루피	-6987
▁처지	-6988
▁라우	-6989
▁더빙	-6990
▁굵	-6991
▁보존	-6992
▁고증	-6993
▁타이거즈	-6994
▁타일	-6995
▁쓰여	-6996
필더	-6997
▁미드필더	-6998
▁전망	-6999
▁Mar	-7000
▁장사	-7001
▁몫	-7002
▁잡아내	-7003
▁엑시	-7004
▁진이	-7005
어놓	-7006
▁막히	-7007
▁절차	-7008
▁프란	-7009
▁백작	-7010
데레	-7011
▁ex	-7012
▁듀스	-7013
▁AN	-7014
▁막상	-7015
▁108	-7016
▁모로	-7017
▁뒤늦	-7018
아이	-7019
▁범죄자	-7020
▁스리	-7021
▁무산	-7022
▁시신	-7023
▁온천	-7024
▁라이온즈	-7025
▁시바	-7026
▁쇼크	-7027
▁갑작스	-7028
▁수동	-7029
▁오락	-7030
▁저하	-7031
▁주류	-7032
▁특급	-7033
ase	-7034
▁합병	-7035
▁닐	-7036
도리	-7037
▁리즈	-7038
▁챙기	-7039
▁십시오	-7040
유럽	-7041
▁세라	-7042
▁스러워	-7043
▁호소	-7044
▁실장	-7045
▁긴급	-7046
▁원조	-7047
▁메일	-7048
ool	-7049
▁여인	-7050
▁식품	-7051
▁합계	-7052
▁가까워	-7053
pl	-7054
▁경악	-7055
▁배급	-7056
▁수색	-7057
▁인권	-7058
▁평일	-7059
▁줄여	-7060
▁빅토	-7061
▁유재	-7062
▁배드	-7063
▁에릭	-7064
▁360	-7065
▁풀려	-7066
▁시외	-7067
▁오이	-7068
▁낙하	-7069
▁골키퍼	-7070
▁생애	-7071
▁고객	-7072
▁걸즈	-7073
▁만일	-7074
하르트	-7075
▁117	-7076
▁에반	-7077
▁와카	-7078
▁나폴	-7079
블로	-7080
투스	-7081
런트	-7082
▁꼬마	-7083
▁킷	-7084
▁마계	-7085
▁러시	-7086
▁우유	-7087
▁청와	-7088
▁바스	-7089
▁발굴	-7090
▁복합	-7091
▁안양	-7092
▁지칭	-7093
▁키워	-7094
▁로빈	-7095
▁잠실	-7096
▁달하	-7097
▁교단	-7098
▁직장	-7099
▁샤이	-7100
▁실은	-7101
▁증상	-7102
▁남아	-7103
▁임금	-7104
▁One	-7105
▁의자	-7106
▁방위	-7107
▁성당	-7108
▁스포일러	-7109
▁강림	-7110
▁확장팩	-7111
▁막아내	-7112
▁공인	-7113
▁어시스트	-7114
▁부임	-7115
혀서	-7116
▁며칠	-7117
▁폭파	-7118
▁미루	-7119
▁개별	-7120
▁국경	-7121
산시	-7122
▁고소	-7123
▁청와대	-7124
▁로이	-7125
▁유의	-7126
▁팡	-7127
▁꽉	-7128
▁그라운드	-7129
▁기묘	-7130
▁극한	-7131
▁당당	-7132
▁여고	-7133
▁코스튬	-7134
▁예고편	-7135
▁버려서	-7136
▁배수	-7137
▁뱅크	-7138
구나	-7139
▁거북	-7140
플레이	-7141
▁로버트	-7142
틀러	-7143
ree	-7144
ph	-7145
▁비치	-7146
▁포스터	-7147
▁후회	-7148
▁교복	-7149
▁특별히	-7150
▁뱃	-7151
▁청주	-7152
▁오로지	-7153
▁개장	-7154
▁히든	-7155
▁사나	-7156
▁통틀	-7157
▁학생회	-7158
▁명백	-7159
▁선사	-7160
▁헨리	-7161
▁As	-7162
▁아이러	-7163
▁올라간다	-7164
▁해라	-7165
▁역습	-7166
학자	-7167
▁극도	-7168
▁시로	-7169
▁New	-7170
▁하이라이트	-7171
리온	-7172
▁도트	-7173
▁집어넣	-7174
▁파울	-7175
▁회담	-7176
▁쳐서	-7177
▁곱	-7178
ason	-7179
▁프린세스	-7180
▁조명	-7181
카이도	-7182
▁엎	-7183
▁수염	-7184
▁퍼즐	-7185
베스	-7186
▁쉬워	-7187
▁쓸데	-7188
▁FM	-7189
▁케이드	-7190
▁여객	-7191
불명	-7192
aby	-7193
▁개신교	-7194
▁뜬금없이	-7195
▁되살	-7196
릴라	-7197
▁103	-7198
▁Oh	-7199
불호	-7200
▁술사	-7201
▁호불호	-7202
▁렌즈	-7203
ai	-7204
▁관찰	-7205
▁두들겨	-7206
▁실존	-7207
▁오더	-7208
▁트레일러	-7209
우리	-7210
▁모집	-7211
▁비스트	-7212
▁GO	-7213
▁불행	-7214
▁헷	-7215
▁되게	-7216
▁흰색	-7217
▁양손	-7218
▁마케	-7219
▁바른	-7220
▁성질	-7221
▁니아	-7222
▁엇	-7223
▁사야	-7224
크라	-7225
▁저지른	-7226
▁그거	-7227
▁유기	-7228
▁어쩌면	-7229
▁매출	-7230
▁에로	-7231
▁JP	-7232
▁동경	-7233
▁보라색	-7234
▁220	-7235
▁부동	-7236
▁라크	-7237
▁장로	-7238
▁1960	-7239
▁셔틀	-7240
▁유언	-7241
▁트레이너	-7242
▁CS	-7243
러그	-7244
도르	-7245
▁올스타	-7246
▁흔들리	-7247
ment	-7248
▁라즈	-7249
▁바지	-7250
▁햇	-7251
그리	-7252
▁거든	-7253
▁과학자	-7254
▁프로토	-7255
▁우주선	-7256
저리	-7257
▁z	-7258
▁무섭	-7259
▁샬	-7260
▁결계	-7261
▁찾아보	-7262
▁물품	-7263
▁모듈	-7264
▁지인	-7265
▁샵	-7266
▁오브젝트	-7267
▁UE	-7268
▁구르	-7269
▁유망	-7270
▁항구	-7271
▁심의	-7272
▁떠오르	-7273
키아	-7274
▁코미디	-7275
▁타르	-7276
▁윈드	-7277
▁캐시	-7278
▁여파	-7279
▁들어올	-7280
▁회색	-7281
▁손상	-7282
▁240	-7283
▁타이탄	-7284
에이	-7285
▁웨스트	-7286
▁각오	-7287
▁tv	-7288
▁원곡	-7289
▁지향	-7290
▁초콜	-7291
▁알라	-7292
▁나스	-7293
▁세뇌	-7294
▁법칙	-7295
▁우즈	-7296
▁연봉	-7297
▁비유	-7298
oon	-7299
▁폐기	-7300
돌이	-7301
▁태평양	-7302
▁포탄	-7303
마크	-7304
▁엘리자	-7305
▁이와	-7306
▁진격	-7307
▁늘려	-7308
▁거친	-7309
▁무승부	-7310
▁풋	-7311
싱턴	-7312
▁un	-7313
▁홀드	-7314
▁128	-7315
▁손실	-7316
▁정반	-7317
▁드로우	-7318
▁국정	-7319
MS	-7320
▁김용	-7321
베이	-7322
▁유출	-7323
▁담긴	-7324
▁치열	-7325
▁포장	-7326
▁광산	-7327
90	-7328
▁건국	-7329
▁늙	-7330
▁가져오	-7331
▁신선	-7332
▁이글스	-7333
▁국장	-7334
▁추리	-7335
▁무공	-7336
▁지워	-7337
▁즉위	-7338
▁장판	-7339
act	-7340
▁갤러	-7341
▁브라운	-7342
ox	-7343
▁제네	-7344
▁따뜻	-7345
▁맥주	-7346
▁중순	-7347
거지	-7348
▁발리	-7349
▁우드	-7350
▁제갈량	-7351
저기	-7352
▁임기	-7353
▁슬로	-7354
▁함부로	-7355
▁코믹	-7356
▁영지	-7357
토스	-7358
▁패전	-7359
▁내게	-7360
▁단기	-7361
▁엄밀	-7362
라노	-7363
▁짐승	-7364
▁반감	-7365
▁워크래프트	-7366
▁클론	-7367
▁노동자	-7368
ARD	-7369
▁닷	-7370
▁트랩	-7371
▁모스	-7372
▁서머	-7373
▁탐지	-7374
▁네티	-7375
▁배려	-7376
▁리버풀	-7377
▁이웃	-7378
▁스핀	-7379
메이	-7380
hen	-7381
▁합리	-7382
▁생길	-7383
▁여기저기	-7384
▁아바타	-7385
▁TVA	-7386
▁최우	-7387
▁%/	-7388
▁쿤	-7389
▁계수	-7390
▁안심	-7391
▁사이클	-7392
▁양자	-7393
▁리안	-7394
▁간주	-7395
▁먹히	-7396
▁하스	-7397
▁하프	-7398
▁섀도우	-7399
▁커스텀	-7400
▁매달	-7401
▁지녔	-7402
▁독점	-7403
▁기수	-7404
ank	-7405
▁라틴	-7406
▁로이드	-7407
▁관통력	-7408
▁트로피	-7409
▁트리거	-7410
▁살펴보	-7411
▁후미	-7412
▁생전	-7413
▁알렉스	-7414
▁트라우마	-7415
▁당대	-7416
▁신용	-7417
▁단검	-7418
▁스나이	-7419
▁백제	-7420
▁원더	-7421
▁방탄	-7422
▁신자	-7423
▁여럿	-7424
▁지연	-7425
깨비	-7426
▁레온	-7427
▁대조	-7428
▁휴가	-7429
▁장난감	-7430
▁김준	-7431
▁마땅	-7432
▁상륙	-7433
▁키라	-7434
▁벤치	-7435
▁시비	-7436
▁소프트웨어	-7437
▁옐	-7438
▁World	-7439
▁야쿠	-7440
▁콤비	-7441
▁사립	-7442
▁JT	-7443
▁디시	-7444
▁단종	-7445
▁날씨	-7446
▁일요일	-7447
▁나르	-7448
▁아이러니	-7449
포르	-7450
▁디즈니	-7451
ich	-7452
▁시인	-7453
▁우익	-7454
▁신데렐라	-7455
ary	-7456
lect	-7457
▁프라임	-7458
▁Mk	-7459
▁이모	-7460
▁토요일	-7461
▁챔피언십	-7462
▁1982	-7463
▁태국	-7464
▁쏟아	-7465
▁혜택	-7466
▁수습	-7467
▁신속	-7468
ife	-7469
▁시리아	-7470
▁손오	-7471
블리	-7472
▁방송사	-7473
▁네티즌	-7474
▁선임	-7475
란히	-7476
▁음료	-7477
▁할까	-7478
ear	-7479
▁잡아	-7480
▁동해	-7481
▁파밍	-7482
▁변수	-7483
▁센서	-7484
▁권유	-7485
▁추세	-7486
▁카더라	-7487
▁쳐들	-7488
▁스트라이커	-7489
하마	-7490
▁주어지	-7491
▁서기	-7492
▁그만두	-7493
▁서바이	-7494
▁근원	-7495
에르	-7496
▁일으켰	-7497
▁도장	-7498
▁막강	-7499
▁스피릿	-7500
▁사법	-7501
▁독일군	-7502
반기	-7503
▁순양함	-7504
▁권위	-7505
▁갚	-7506
▁실내	-7507
▁허무	-7508
▁자아	-7509
uk	-7510
▁지목	-7511
▁튕겨	-7512
▁의학	-7513
▁당사자	-7514
▁벡	-7515
렉션	-7516
▁라스트	-7517
▁LIVE	-7518
하나	-7519
▁SF	-7520
▁슬라	-7521
ET	-7522
▁상사	-7523
▁약물	-7524
▁려다가	-7525
▁버스트	-7526
싸움	-7527
▁동속	-7528
▁키보드	-7529
▁후임	-7530
11	-7531
▁프론	-7532
▁끓	-7533
▁기다려	-7534
▁경호	-7535
▁데려가	-7536
쿠라	-7537
키리	-7538
▁전남	-7539
▁불렸	-7540
▁비틀	-7541
▁추방	-7542
▁결제	-7543
▁마카	-7544
▁탭	-7545
▁지력	-7546
▁쌀	-7547
사기	-7548
▁김해	-7549
▁유혹	-7550
▁선장	-7551
▁짐작	-7552
▁185	-7553
타카	-7554
▁배출	-7555
▁Day	-7556
▁흡사	-7557
way	-7558
우치	-7559
▁후반기	-7560
▁표면	-7561
▁all	-7562
▁구조물	-7563
▁극히	-7564
▁실시간	-7565
ple	-7566
▁될지	-7567
▁드레스	-7568
▁얽	-7569
▁낙선	-7570
▁엽	-7571
▁근접전	-7572
▁벌였	-7573
▁논쟁	-7574
▁기호	-7575
▁전생	-7576
▁조상	-7577
▁Fr	-7578
▁경북	-7579
▁태클	-7580
▁정석	-7581
▁진상	-7582
▁1983	-7583
▁유전자	-7584
▁고치	-7585
▁줌	-7586
▁니혼	-7587
▁새겨	-7588
▁침대	-7589
▁흔한	-7590
▁감수	-7591
▁몰리	-7592
▁았었	-7593
▁로보	-7594
▁설령	-7595
▁스타디	-7596
▁좌절	-7597
▁매니아	-7598
▁패밀리	-7599
▁끌어올	-7600
▁창설	-7601
숭이	-7602
▁강사	-7603
노리	-7604
▁간간히	-7605
▁포획	-7606
▁페리	-7607
▁울트라맨	-7608
사리	-7609
▁마피아	-7610
▁타가	-7611
▁합동	-7612
▁lv	-7613
▁{{{#	-7614
ype	-7615
▁성배	-7616
나미	-7617
▁비극	-7618
▁둘러보	-7619
▁nd	-7620
▁119	-7621
▁역임	-7622
▁원형	-7623
▁DPS	-7624
▁시온	-7625
ens	-7626
▁집권	-7627
▁물체	-7628
▁맞춘	-7629
▁범용	-7630
▁중상	-7631
▁소모량	-7632
▁느꼈	-7633
aster	-7634
▁백화점	-7635
▁거둔	-7636
▁MB	-7637
▁낭비	-7638
▁찾아오	-7639
▁손오공	-7640
▁튼튼	-7641
▁특공	-7642
▁정교	-7643
▁피로	-7644
▁해병대	-7645
orn	-7646
▁연구원	-7647
▁빌딩	-7648
▁퀵	-7649
▁구동	-7650
▁명목	-7651
ork	-7652
▁도리	-7653
▁전날	-7654
▁출혈	-7655
▁페어	-7656
던지	-7657
▁베어스	-7658
▁미궁	-7659
▁사무소	-7660
▁go	-7661
▁그치	-7662
▁한반도	-7663
▁동남	-7664
▁생체	-7665
▁지선	-7666
▁엄격	-7667
▁띄우	-7668
▁콘솔	-7669
▁굴러	-7670
▁변태	-7671
▁펼쳤	-7672
▁마트	-7673
▁삼각	-7674
스티벌	-7675
▁부스트	-7676
▁페스티벌	-7677
버려	-7678
▁DP	-7679
▁104	-7680
▁123	-7681
▁공감	-7682
▁수직	-7683
▁질병	-7684
▁사악	-7685
▁헤르	-7686
▁Wi	-7687
▁미미	-7688
▁가벼운	-7689
▁푼	-7690
▁복원	-7691
▁스태프	-7692
▁땡	-7693
▁혀	-7694
▁배제	-7695
▁위로	-7696
▁베테랑	-7697
▁가진다	-7698
▁Ad	-7699
▁의장	-7700
▁강렬	-7701
▁Sw	-7702
▁질주	-7703
▁are	-7704
▁RA	-7705
▁래퍼	-7706
▁AA	-7707
▁해져	-7708
▁호남	-7709
▁엑시즈	-7710
▁하인	-7711
▁오메가	-7712
▁OVA	-7713
▁데이비드	-7714
▁특별시	-7715
ans	-7716
▁109	-7717
▁대타	-7718
▁동행	-7719
▁실상	-7720
▁바나	-7721
▁젖	-7722
▁Up	-7723
버그	-7724
▁개국	-7725
▁관측	-7726
▁내린	-7727
▁직선	-7728
사이	-7729
▁탐색	-7730
▁단행본	-7731
▁가질	-7732
▁스즈키	-7733
▁공대	-7734
▁빨간색	-7735
▁제물	-7736
▁KOF	-7737
▁style	-7738
▁본토	-7739
▁토요	-7740
▁양반	-7741
ons	-7742
어졌	-7743
▁휘둘	-7744
▁케이블	-7745
▁쨩	-7746
▁도깨비	-7747
▁페미니	-7748
▁진급	-7749
▁스플	-7750
▁전락	-7751
ey	-7752
▁리코	-7753
▁돌아간다	-7754
▁do	-7755
▁우측	-7756
▁약자	-7757
▁디펜	-7758
▁장성	-7759
▁무실	-7760
▁블로	-7761
▁브레이커	-7762
▁센트	-7763
▁오지	-7764
▁들어와	-7765
▁관여	-7766
▁선조	-7767
▁광기	-7768
▁발라	-7769
▁거론	-7770
▁앰	-7771
▁연쇄	-7772
▁엔지	-7773
very	-7774
▁라그나	-7775
NA	-7776
▁ES	-7777
▁메리트	-7778
▁잉여	-7779
▁비추	-7780
▁우호	-7781
▁즐겨	-7782
▁다가오	-7783
▁총합	-7784
▁변동	-7785
▁III	-7786
▁본관	-7787
ung	-7788
공항	-7789
▁마타	-7790
▁스테이션	-7791
차기	-7792
▁아스카	-7793
▁바둑	-7794
렉스	-7795
▁차리	-7796
▁워싱턴	-7797
▁촉수	-7798
▁UEFA	-7799
▁히로시	-7800
▁모음	-7801
▁소니	-7802
▁끼치	-7803
▁인재	-7804
▁전격	-7805
▁세금	-7806
▁모은	-7807
▁백업	-7808
▁오노	-7809
▁한창	-7810
타입	-7811
▁유탄	-7812
▁논문	-7813
▁훼손	-7814
▁시달리	-7815
▁군수	-7816
▁해양	-7817
▁고무	-7818
▁단발	-7819
▁싼	-7820
▁친절	-7821
▁위엄	-7822
▁코토	-7823
▁스와	-7824
▁친하	-7825
▁옴	-7826
▁수비수	-7827
능력	-7828
▁장애물	-7829
▁괴롭히	-7830
▁마술사	-7831
▁구장	-7832
▁축소	-7833
▁하급	-7834
EM	-7835
▁오니	-7836
▁대박	-7837
▁에이지	-7838
▁을수록	-7839
▁감싸	-7840
▁땅볼	-7841
▁리모	-7842
▁스타디움	-7843
▁친다	-7844
▁응용	-7845
▁긁	-7846
▁프리미어	-7847
나기	-7848
▁그랑	-7849
▁카를	-7850
▁라가	-7851
박스	-7852
▁중지	-7853
▁벅	-7854
▁스위스	-7855
▁박살내	-7856
▁성실	-7857
▁민주주의	-7858
께끼	-7859
▁어색	-7860
▁수수께끼	-7861
▁역명	-7862
▁형편	-7863
다보	-7864
▁할로	-7865
▁명문	-7866
▁강호	-7867
▁마오	-7868
▁이럴	-7869
▁트윈스	-7870
anc	-7871
▁취업	-7872
▁구성원	-7873
▁치카	-7874
▁쫒	-7875
▁역량	-7876
▁최저	-7877
▁사리	-7878
▁데빌	-7879
AK	-7880
▁안쪽	-7881
▁돌아갔	-7882
▁짙	-7883
ll	-7884
▁징역	-7885
▁확산	-7886
▁바르셀	-7887
으로	-7888
▁Windows	-7889
▁제왕	-7890
▁바르셀로나	-7891
어내	-7892
▁미지	-7893
▁츠카	-7894
▁노란색	-7895
▁이어졌	-7896
▁우회	-7897
▁재학	-7898
▁워크	-7899
▁유망주	-7900
▁겜	-7901
▁노가다	-7902
▁드문	-7903
▁빈도	-7904
▁아지	-7905
▁코바	-7906
체스터	-7907
▁메카닉	-7908
▁창문	-7909
우트	-7910
▁초콜릿	-7911
▁카카오	-7912
▁경상북도	-7913
▁묘하	-7914
▁공통점	-7915
▁해질	-7916
▁원피스	-7917
▁쫓겨	-7918
▁ne	-7919
▁란스	-7920
▁인자	-7921
▁리퍼	-7922
▁이현	-7923
▁천연	-7924
▁썸	-7925
▁강등	-7926
▁여타	-7927
▁키미	-7928
▁깃발	-7929
▁대행	-7930
▁고스	-7931
▁윈도우	-7932
▁렉스	-7933
누스	-7934
▁힙합	-7935
▁폴리	-7936
▁중고	-7937
▁과자	-7938
▁부작용	-7939
▁산타	-7940
▁찾아온	-7941
▁온도	-7942
▁우승자	-7943
▁분산	-7944
35	-7945
▁as	-7946
argin	-7947
▁마유	-7948
▁변해	-7949
▁승차	-7950
▁티스	-7951
▁눈치채	-7952
▁물러나	-7953
▁퇴각	-7954
▁껍	-7955
▁포터	-7956
▁가리키	-7957
▁유료	-7958
▁나빠	-7959
▁굴욕	-7960
▁불쌍	-7961
지막지	-7962
▁무지막지	-7963
▁의해서	-7964
ero	-7965
▁en	-7966
▁여의	-7967
▁레이디	-7968
▁뉘	-7969
▁농장	-7970
▁팰	-7971
▁수인	-7972
▁일어날	-7973
▁구독	-7974
▁봉쇄	-7975
▁전당	-7976
▁드래곤볼	-7977
▁최선	-7978
▁통칭	-7979
▁스미스	-7980
▁고는	-7981
▁취득	-7982
▁젬	-7983
▁이병	-7984
▁아까	-7985
▁원한	-7986
▁동반	-7987
▁스노우	-7988
모스	-7989
▁대령	-7990
▁시상식	-7991
▁관우	-7992
▁칭하	-7993
▁어나	-7994
루미	-7995
▁발판	-7996
▁Station	-7997
▁대접	-7998
벤처	-7999
▁187	-8000
▁Ph	-8001
▁어드벤처	-8002
▁올드	-8003
▁클린	-8004
▁루프	-8005
브라	-8006
▁파도	-8007
▁성씨	-8008
▁부숴	-8009
▁치우	-8010
▁Qu	-8011
▁no	-8012
oss	-8013
▁LO	-8014
▁챔프	-8015
▁츠바	-8016
▁화산	-8017
▁margin	-8018
▁크레이	-8019
▁레이어	-8020
▁어벤	-8021
▁진에	-8022
▁로맨	-8023
▁So	-8024
▁다이스	-8025
▁건네	-8026
▁규제	-8027
▁물어	-8028
▁블레이	-8029
▁렘	-8030
동자	-8031
비치	-8032
▁ML	-8033
▁발키리	-8034
▁발행	-8035
▁오스만	-8036
▁키를	-8037
▁급행	-8038
▁공산당	-8039
▁천천	-8040
붙이	-8041
▁결혼식	-8042
▁흔하	-8043
▁요한	-8044
▁원시	-8045
▁135	-8046
▁잔인	-8047
▁후드	-8048
▁대전차	-8049
▁나섰	-8050
▁카마	-8051
▁두드	-8052
▁드러난다	-8053
▁아님	-8054
▁매드	-8055
▁공단	-8056
▁210	-8057
▁손님	-8058
▁톡	-8059
▁평양	-8060
▁머니	-8061
▁사족	-8062
▁강간	-8063
▁빙판	-8064
ise	-8065
▁변이	-8066
▁가난	-8067
▁표절	-8068
pt	-8069
▁겔	-8070
본다	-8071
구장	-8072
▁황후	-8073
▁손꼽	-8074
port	-8075
▁타치	-8076
▁시사	-8077
▁주사위	-8078
▁신중	-8079
▁국무	-8080
99	-8081
▁121	-8082
▁요미	-8083
▁털리	-8084
▁검열	-8085
▁이대로	-8086
▁소재지	-8087
▁침투	-8088
▁경연	-8089
▁미오	-8090
▁카리스	-8091
▁샐	-8092
▁수지	-8093
▁멍청	-8094
▁인과	-8095
▁사로	-8096
▁스케일	-8097
▁피카	-8098
ical	-8099
▁다가가	-8100
▁날뛰	-8101
▁아베	-8102
AP	-8103
▁너머	-8104
▁특훈	-8105
▁예약	-8106
▁블리자드	-8107
▁여포	-8108
▁107	-8109
네마	-8110
▁와인	-8111
▁쿵	-8112
▁개척	-8113
▁선출	-8114
베이터	-8115
▁겹쳐	-8116
▁준다는	-8117
▁와이번	-8118
구미	-8119
▁뮌	-8120
▁건데	-8121
셔널	-8122
▁찾아내	-8123
▁스택	-8124
▁목걸이	-8125
▁쯔	-8126
▁게이머	-8127
▁고쳐	-8128
▁지오	-8129
▁안타까	-8130
▁스타리그	-8131
▁뜬다	-8132
▁세리	-8133
▁김수	-8134
▁열혈	-8135
▁이라크	-8136
▁천천히	-8137
▁캄	-8138
▁주체	-8139
▁페어리	-8140
▁쇄	-8141
▁Ver	-8142
▁넘어갔	-8143
▁난무	-8144
리안	-8145
▁왼손	-8146
▁강경	-8147
▁여섯	-8148
▁끊임없이	-8149
▁신동	-8150
▁MG	-8151
▁호크	-8152
▁마인드	-8153
▁타츠	-8154
▁강민	-8155
▁패자	-8156
▁엔트리	-8157
▁1981	-8158
▁!"	-8159
리스타	-8160
모함	-8161
▁퍼져	-8162
▁사체	-8163
▁인칭	-8164
▁떠난다	-8165
▁이순	-8166
▁부재	-8167
▁지수	-8168
▁케빈	-8169
▁쫄	-8170
▁불태	-8171
▁퍼스트	-8172
▁기부	-8173
▁어나더	-8174
▁시외버스	-8175
루션	-8176
▁광물	-8177
▁일까	-8178
▁사관	-8179
▁조종사	-8180
▁워프	-8181
▁프랑스어	-8182
▁주관	-8183
▁사수	-8184
테이션	-8185
▁점검	-8186
▁제재	-8187
▁대성	-8188
▁교토	-8189
▁맞붙	-8190
▁중거리	-8191
▁끌어들	-8192
▁본다면	-8193
▁명분	-8194
ign	-8195
하루	-8196
▁착한	-8197
▁베인	-8198
▁김지	-8199
▁혈통	-8200
▁슌	-8201
▁--	-8202
▁소통	-8203
▁답답	-8204
▁ㅋ	-8205
▁압권	-8206
▁소금	-8207
▁모니터	-8208
▁감탄	-8209
게이머	-8210
▁프로게이머	-8211
▁스티븐	-8212
▁서식	-8213
▁아닐까	-8214
▁그레이트	-8215
니시	-8216
▁트윗	-8217
▁폭스	-8218
▁pl	-8219
▁자네	-8220
▁알바	-8221
▁선진	-8222
▁무용	-8223
▁첫째	-8224
▁스컬	-8225
▁미국인	-8226
▁토지	-8227
▁김승	-8228
▁이노	-8229
▁미정	-8230
▁철갑	-8231
▁냉정	-8232
▁미러	-8233
▁고시	-8234
▁루리	-8235
▁자존	-8236
▁출간	-8237
▁처하	-8238
▁love	-8239
▁우린	-8240
▁아픈	-8241
▁엄연히	-8242
▁첸	-8243
▁모델링	-8244
▁점유	-8245
▁평론	-8246
▁레인지	-8247
▁이어진	-8248
▁으려는	-8249
▁해산	-8250
▁이라도	-8251
▁경찰서	-8252
▁카시	-8253
▁라마	-8254
▁이대	-8255
IR	-8256
gh	-8257
▁가르치	-8258
▁임의	-8259
▁흙	-8260
테일	-8261
▁망토	-8262
▁사사	-8263
▁열렸	-8264
▁공격수	-8265
▁폭격기	-8266
▁헷갈	-8267
▁TR	-8268
센스	-8269
▁아스트	-8270
▁자제	-8271
▁으라고	-8272
▁오죽	-8273
▁다닐	-8274
▁페스	-8275
▁구별	-8276
▁크라이	-8277
▁장타	-8278
▁이경	-8279
▁Sk	-8280
▁마일	-8281
▁중동	-8282
바나	-8283
▁친분	-8284
▁러스	-8285
▁플랜	-8286
▁스런	-8287
▁라이즈	-8288
▁보좌	-8289
▁용자	-8290
▁고사	-8291
ail	-8292
▁하여	-8293
▁리나	-8294
▁연산	-8295
▁주최	-8296
▁도어	-8297
▁손쉽	-8298
▁재개	-8299
▁186	-8300
▁math	-8301
▁외곽	-8302
▁풍부	-8303
▁중위	-8304
▁개교	-8305
▁화상	-8306
▁굴리	-8307
▁JTBC	-8308
▁붓	-8309
▁실사	-8310
▁본능	-8311
▁엣	-8312
urn	-8313
▁항공모함	-8314
▁상무	-8315
▁디오	-8316
▁질서	-8317
▁마산	-8318
ode	-8319
▁유니버스	-8320
추어	-8321
▁예쁘	-8322
▁열정	-8323
민주	-8324
▁어이없	-8325
▁맹세	-8326
▁크래프트	-8327
VER	-8328
▁불능	-8329
ence	-8330
▁Super	-8331
▁유입	-8332
▁고속도로	-8333
▁고집	-8334
▁사퇴	-8335
▁훔쳐	-8336
▁동정	-8337
▁그릇	-8338
▁트릴	-8339
▁정해진	-8340
▁초능력	-8341
▁아냐	-8342
▁하나하나	-8343
▁영감	-8344
▁To	-8345
▁꼽히	-8346
틀랜드	-8347
▁웜	-8348
베리	-8349
▁납득	-8350
▁BJ	-8351
▁가져다	-8352
▁스폰서	-8353
▁왜냐하면	-8354
▁공속	-8355
▁바이올	-8356
▁(	-8357
▁지부	-8358
▁화해	-8359
▁저렇	-8360
▁정신력	-8361
▁우울	-8362
▁변장	-8363
▁122	-8364
▁생김	-8365
▁군요	-8366
▁잊혀	-8367
▁국제공항	-8368
▁Dream	-8369
의자	-8370
▁찬성	-8371
▁시타	-8372
바지	-8373
▁EC	-8374
▁박성	-8375
▁라이언	-8376
▁광경	-8377
▁기스	-8378
▁김유	-8379
▁어설	-8380
▁삼성전자	-8381
▁유연	-8382
▁검정	-8383
▁레시	-8384
!!	-8385
▁코노	-8386
▁움직일	-8387
▁에디션	-8388
▁에버	-8389
▁사무실	-8390
▁인벤	-8391
이동	-8392
▁리틀	-8393
▁="	-8394
▁LE	-8395
▁벙커	-8396
▁올바	-8397
▁까마	-8398
▁몸통	-8399
▁애칭	-8400
▁작정	-8401
▁로키	-8402
▁근대	-8403
▁중점	-8404
▁기본기	-8405
▁출범	-8406
▁따왔	-8407
▁히틀러	-8408
라미	-8409
▁일가	-8410
▁확신	-8411
▁왓	-8412
▁쉴드	-8413
▁원숭이	-8414
▁극대	-8415
▁너스	-8416
▁멋대로	-8417
▁법사	-8418
▁평상	-8419
▁닦	-8420
▁우마	-8421
▁템플	-8422
▁찾아볼	-8423
▁엘리베이터	-8424
배우	-8425
▁장례	-8426
▁하치	-8427
▁박수	-8428
▁EXP	-8429
▁홋	-8430
▁카레	-8431
▁카자	-8432
▁토트	-8433
▁스가	-8434
ier	-8435
▁김포	-8436
▁마모	-8437
▁광명	-8438
▁엘레	-8439
▁올라갈	-8440
▁체결	-8441
이나	-8442
▁굽	-8443
▁민국	-8444
▁아쿠아	-8445
▁만능	-8446
▁슈퍼맨	-8447
▁쓰인	-8448
▁카쿠	-8449
▁1979	-8450
▁곡인	-8451
▁변했	-8452
▁이어진다	-8453
▁총장	-8454
▁유치원	-8455
▁마라	-8456
뜨려	-8457
▁145	-8458
IX	-8459
버리	-8460
▁워즈	-8461
▁창작물	-8462
▁기르	-8463
▁투쟁	-8464
▁아닌지	-8465
▁도색	-8466
▁청구	-8467
버렸	-8468
▁출산	-8469
▁퍽	-8470
▁이어받	-8471
▁워리어	-8472
▁변명	-8473
▁카네	-8474
ble	-8475
▁안타깝	-8476
▁브라더스	-8477
▁쳐들어	-8478
▁모임	-8479
▁무제	-8480
▁붙인	-8481
▁블럭	-8482
▁싫어하	-8483
▁더럽	-8484
▁부근	-8485
▁할리	-8486
▁롤러	-8487
▁조카	-8488
▁만주	-8489
▁매주	-8490
▁슬픔	-8491
▁잠들	-8492
워즈	-8493
▁유격수	-8494
▁부스	-8495
▁버틸	-8496
▁이누	-8497
▁헬멧	-8498
▁실현	-8499
oun	-8500
▁테이블	-8501
들이	-8502
▁후일	-8503
▁IM	-8504
▁타구	-8505
▁가이드	-8506
▁NO	-8507
▁방심	-8508
▁쳐도	-8509
▁Ap	-8510
▁펭	-8511
▁부천	-8512
▁무실점	-8513
▁튜버	-8514
▁113	-8515
▁재앙	-8516
▁씨앗	-8517
▁암호	-8518
▁니다	-8519
▁우루	-8520
▁싸운	-8521
▁히스	-8522
▁쿠니	-8523
▁풍선	-8524
▁마운	-8525
iver	-8526
▁비리	-8527
▁can	-8528
이치로	-8529
▁고등학생	-8530
▁165	-8531
▁써도	-8532
▁왕복	-8533
▁헝가리	-8534
▁항모	-8535
▁학급	-8536
▁철저히	-8537
▁스쿼	-8538
▁복사	-8539
▁동전	-8540
▁엮이	-8541
▁호러	-8542
▁맞춰서	-8543
▁터보	-8544
▁인접	-8545
▁검증	-8546
▁이카	-8547
▁브라이언	-8548
▁깨지	-8549
▁노무	-8550
▁명사	-8551
▁몰살	-8552
▁케이크	-8553
ott	-8554
▁글씨	-8555
▁IT	-8556
▁사연	-8557
▁병역	-8558
▁손자	-8559
▁엉망	-8560
▁각인	-8561
▁포탈	-8562
으므로	-8563
▁아처	-8564
▁1950	-8565
▁상주	-8566
역사	-8567
▁144	-8568
▁레이블	-8569
▁이이	-8570
▁운송	-8571
▁리가	-8572
▁알레	-8573
▁인성	-8574
▁엄밀히	-8575
▁쿠마	-8576
▁되돌아	-8577
▁카지	-8578
▁ATK	-8579
▁놀라운	-8580
▁CM	-8581
▁절친	-8582
▁155	-8583
▁사투	-8584
▁옥상	-8585
▁화폐	-8586
▁시뮬	-8587
▁쿠데	-8588
▁유우키	-8589
▁한다며	-8590
▁조국	-8591
▁매트	-8592
▁배운	-8593
슬라	-8594
▁세로	-8595
▁두려워	-8596
▁통째	-8597
▁Max	-8598
▁연전	-8599
▁젼	-8600
▁승인	-8601
▁품질	-8602
▁연수	-8603
▁간섭	-8604
▁제니	-8605
▁죄책	-8606
▁사로잡	-8607
▁영양	-8608
▁기리	-8609
폭탄	-8610
▁바치	-8611
▁방학	-8612
페이	-8613
▁버텨	-8614
▁아무튼	-8615
▁츤	-8616
▁현금	-8617
▁마당	-8618
▁망하	-8619
진호	-8620
▁독일어	-8621
▁상금	-8622
▁유재석	-8623
▁ERA	-8624
▁제리	-8625
▁114	-8626
▁마음대로	-8627
▁BD	-8628
▁목사	-8629
▁버거	-8630
▁입문	-8631
▁엔지니어	-8632
▁at	-8633
▁기차	-8634
▁집회	-8635
II	-8636
▁천장	-8637
▁일곱	-8638
▁태우	-8639
▁습니까	-8640
코트	-8641
uck	-8642
▁양식	-8643
▁함락	-8644
▁히카	-8645
▁원전	-8646
자치	-8647
▁우연	-8648
▁즐거	-8649
▁뮌헨	-8650
▁바쿠	-8651
▁시크릿	-8652
▁쓰리	-8653
▁스나이퍼	-8654
▁페르소	-8655
▁거지	-8656
▁깊이	-8657
▁잃어버린	-8658
oh	-8659
▁싸이	-8660
▁깐	-8661
▁유메	-8662
▁유카	-8663
▁아자	-8664
▁지로	-8665
▁죄책감	-8666
▁수위	-8667
▁다큐	-8668
▁스틱	-8669
▁밝혀진다	-8670
▁미르	-8671
▁솟	-8672
▁호드	-8673
▁기동력	-8674
▁동대	-8675
▁리본	-8676
▁혁신	-8677
▁쿠스	-8678
▁스카우트	-8679
▁시모	-8680
eah	-8681
▁개구리	-8682
킵니다	-8683
▁부패	-8684
▁성경	-8685
▁할로윈	-8686
▁멧	-8687
▁초록색	-8688
▁승진	-8689
▁이놈	-8690
▁스피어	-8691
▁스티브	-8692
▁전동차	-8693
▁변한	-8694
가루	-8695
▁감자	-8696
▁나인	-8697
▁용암	-8698
▁참사	-8699
▁이케	-8700
▁전향	-8701
▁토대	-8702
▁궁합	-8703
▁티저	-8704
▁오렌	-8705
▁괴로	-8706
▁다거나	-8707
▁코스프레	-8708
버린	-8709
▁호의	-8710
끼리	-8711
주교	-8712
▁종결	-8713
▁친애	-8714
▁정문	-8715
▁최순	-8716
▁750	-8717
▁GK	-8718
▁이룬	-8719
▁녹화	-8720
▁메트로	-8721
▁고아	-8722
▁현자	-8723
네시아	-8724
▁러쉬	-8725
케이션	-8726
▁사무라이	-8727
▁정반대	-8728
▁아드	-8729
▁깨끗	-8730
▁레나	-8731
변이	-8732
▁이소	-8733
▁아리아	-8734
▁돌연변이	-8735
▁시게	-8736
▁토우	-8737
▁한나라	-8738
▁디자이너	-8739
▁..?	-8740
▁자율	-8741
▁페르소나	-8742
▁만점	-8743
야시	-8744
▁무거운	-8745
▁한나라당	-8746
▁미성	-8747
▁평행	-8748
방송	-8749
▁OS	-8750
▁은폐	-8751
▁원장	-8752
▁협의	-8753
▁메이지	-8754
▁아이디어	-8755
▁필리핀	-8756
▁this	-8757
들리	-8758
▁미인	-8759
▁이력	-8760
▁진에어	-8761
▁흑마	-8762
bs	-8763
▁아오이	-8764
▁교과서	-8765
int	-8766
▁오퍼	-8767
▁기후	-8768
▁슨	-8769
▁대위	-8770
▁자칭	-8771
▁도약	-8772
▁정성	-8773
▁항해	-8774
▁HE	-8775
▁유전	-8776
▁Season	-8777
▁450	-8778
▁이스트	-8779
▁적절히	-8780
▁AB	-8781
▁나이프	-8782
▁실체	-8783
▁흡혈귀	-8784
▁저글	-8785
▁스매	-8786
▁충족	-8787
▁지분	-8788
▁잭슨	-8789
▁합작	-8790
▁종영	-8791
▁다니엘	-8792
▁끼워	-8793
▁갯	-8794
▁파스	-8795
▁NBA	-8796
▁from	-8797
▁치안	-8798
▁이태	-8799
▁로라	-8800
운동	-8801
▁브론	-8802
IL	-8803
▁이틀	-8804
▁{{{-	-8805
▁동서	-8806
▁자이언트	-8807
▁뜨거운	-8808
▁학문	-8809
▁지혜	-8810
▁tr	-8811
▁트래	-8812
▁가위	-8813
▁마에	-8814
▁리사	-8815
▁좌측	-8816
▁사와	-8817
▁얼티	-8818
▁여단	-8819
ose	-8820
▁잼	-8821
itt	-8822
▁일관	-8823
▁욕설	-8824
▁가담	-8825
▁EXT	-8826
직자	-8827
▁시골	-8828
▁레코드	-8829
▁스타트	-8830
▁마기	-8831
▁히드라	-8832
▁침착	-8833
철도	-8834
▁피자	-8835
▁외국어	-8836
▁얇	-8837
▁EZ	-8838
▁중원	-8839
▁헥	-8840
▁La	-8841
▁내기	-8842
▁어려울	-8843
▁말씀	-8844
▁서류	-8845
렉터	-8846
▁떨어질	-8847
▁각지	-8848
▁입증	-8849
▁계층	-8850
▁학대	-8851
▁스쿼드	-8852
▁314	-8853
▁뱅가드	-8854
▁분홍	-8855
▁포병	-8856
▁떴	-8857
탐정	-8858
▁울리	-8859
▁억울	-8860
▁베이징	-8861
▁협정	-8862
▁겐지	-8863
▁잔혹	-8864
▁소생	-8865
▁물자	-8866
▁미쳐	-8867
▁밀도	-8868
▁해소	-8869
▁툰	-8870
▁Im	-8871
▁new	-8872
▁미아	-8873
▁일리	-8874
▁무도	-8875
▁추후	-8876
▁끝날	-8877
▁놀랍	-8878
▁Vol	-8879
시고	-8880
▁돌아갈	-8881
▁로스트	-8882
▁밀어내	-8883
▁감당	-8884
▁존중	-8885
▁준다고	-8886
▁초상	-8887
▁Con	-8888
▁해냈	-8889
▁갈색	-8890
▁카리스마	-8891
▁토라	-8892
▁저글링	-8893
▁강릉	-8894
▁카테	-8895
▁대동	-8896
▁머무	-8897
▁격려	-8898
▁부원	-8899
▁학년도	-8900
▁스파이더맨	-8901
▁신곡	-8902
▁나이츠	-8903
ats	-8904
▁고고	-8905
지능	-8906
▁고의	-8907
▁인공지능	-8908
▁rd	-8909
린다는	-8910
▁이오	-8911
나베	-8912
▁주석	-8913
▁가오	-8914
▁뿌려	-8915
슈타인	-8916
▁124	-8917
▁Sch	-8918
▁스타즈	-8919
▁스탈	-8920
▁피지컬	-8921
려고	-8922
▁Ed	-8923
▁강타	-8924
▁존스	-8925
▁아케이드	-8926
▁대세	-8927
▁익히	-8928
▁점멸	-8929
마루	-8930
▁어째서인지	-8931
▁시어	-8932
▁판도	-8933
철수	-8934
▁출판사	-8935
▁부유	-8936
▁쌓이	-8937
▁에메	-8938
부키	-8939
▁물약	-8940
▁ld	-8941
은색	-8942
▁Girl	-8943
▁워터	-8944
▁펌프	-8945
▁속한	-8946
▁유스	-8947
▁강전	-8948
바이트	-8949
▁배구	-8950
▁황당	-8951
▁힘입	-8952
▁Gre	-8953
▁과금	-8954
▁밀레	-8955
▁부속	-8956
▁민간인	-8957
15	-8958
▁함장	-8959
▁퀴즈	-8960
▁점심	-8961
워프	-8962
▁세자	-8963
▁디아블로	-8964
▁RE	-8965
▁Night	-8966
ube	-8967
▁대검	-8968
▁하지	-8969
▁압력	-8970
▁대변	-8971
▁정사	-8972
▁틀린	-8973
▁압축	-8974
ari	-8975
▁표적	-8976
▁저기	-8977
▁괴인	-8978
▁시킵니다	-8979
▁183	-8980
▁USB	-8981
▁강했	-8982
ition	-8983
usic	-8984
msys	-8985
▁이빨	-8986
▁ldmsys	-8987
13	-8988
▁터졌	-8989
▁샀	-8990
오피스	-8991
▁건드리	-8992
▁생김새	-8993
▁산맥	-8994
▁빙결	-8995
▁둘러싸	-8996
▁제발	-8997
▁달라진다	-8998
▁테스	-8999
▁그쪽	-9000
▁그러므로	-9001
▁애완	-9002
▁소서	-9003
▁마틴	-9004
▁갇혀	-9005
▁마하	-9006
▁예의	-9007
▁키요	-9008
▁후유	-9009
▁레이싱	-9010
▁뚱	-9011
▁내역	-9012
▁벌인	-9013
▁벌써	-9014
▁달려들	-9015
▁즐길	-9016
▁그러면	-9017
업자	-9018
▁법무	-9019
▁동구	-9020
▁소소	-9021
▁리버스	-9022
▁TS	-9023
▁경부	-9024
▁김주	-9025
▁나뉜	-9026
▁다시금	-9027
▁씻	-9028
▁보스턴	-9029
항공	-9030
25	-9031
▁이어져	-9032
리얼	-9033
▁마케팅	-9034
▁중견	-9035
▁퇴치	-9036
▁날린다	-9037
▁발사기	-9038
▁기껏	-9039
▁노아	-9040
▁집계	-9041
▁1200	-9042
▁일어	-9043
▁Black	-9044
▁기질	-9045
▁만렙	-9046
▁스탭	-9047
▁덩어리	-9048
▁아카네	-9049
▁박스오피스	-9050
▁자책점	-9051
▁이른바	-9052
▁망설	-9053
▁병살	-9054
▁모형	-9055
▁련	-9056
▁WC	-9057
▁잡힌	-9058
▁출동	-9059
▁골프	-9060
사랑	-9061
▁연설	-9062
페라	-9063
▁재건	-9064
▁인해서	-9065
▁제노	-9066
▁박진	-9067
▁자존심	-9068
▁토마스	-9069
▁대차	-9070
▁주축	-9071
▁철도역	-9072
▁변한다	-9073
▁농업	-9074
▁에미	-9075
▁로프	-9076
▁무녀	-9077
끄럽	-9078
▁모종	-9079
▁저질렀	-9080
▁NH	-9081
▁입힌다	-9082
▁도덕	-9083
▁사촌	-9084
▁바텀	-9085
▁위해선	-9086
▁댐	-9087
▁얄	-9088
▁일렉	-9089
▁리처	-9090
▁장벽	-9091
▁도대	-9092
시대	-9093
▁선동	-9094
yn	-9095
▁포착	-9096
▁보낼	-9097
▁유진	-9098
▁마도카	-9099
세지	-9100
▁통솔	-9101
▁그레이드	-9102
▁구상	-9103
▁연동	-9104
▁귀국	-9105
▁등극	-9106
토니	-9107
▁레아	-9108
▁넘쳐	-9109
▁절벽	-9110
▁억제	-9111
▁원판	-9112
▁BC	-9113
▁천상	-9114
▁드워프	-9115
▁예요	-9116
▁문양	-9117
▁상냥	-9118
아치	-9119
▁킴	-9120
▁127	-9121
▁각도	-9122
▁남동생	-9123
▁달려가	-9124
▁이원	-9125
▁교차로	-9126
▁현황	-9127
▁노무현	-9128
▁불길	-9129
▁애인	-9130
▁MM	-9131
▁모빌	-9132
▁발레	-9133
▁졌으며	-9134
▁발명	-9135
▁모스크	-9136
▁DM	-9137
▁관장	-9138
18	-9139
▁앓	-9140
DD	-9141
▁오른손	-9142
당초	-9143
▁이윤	-9144
▁타이어	-9145
▁내보내	-9146
app	-9147
▁ver	-9148
▁탄핵	-9149
▁리바	-9150
▁쿠데타	-9151
▁아담	-9152
▁적시타	-9153
▁육상	-9154
▁섞여	-9155
▁Let	-9156
▁봉사	-9157
▁왕실	-9158
▁스크롤	-9159
▁스토어	-9160
▁원주민	-9161
▁날카로운	-9162
▁프랜	-9163
▁아마추어	-9164
▁올라와	-9165
▁도배	-9166
▁퓨전	-9167
▁118	-9168
▁OG	-9169
▁그란	-9170
▁솔저	-9171
▁사치	-9172
▁아포	-9173
▁날아오	-9174
▁SSR	-9175
▁왕비	-9176
▁베를	-9177
▁방사능	-9178
▁전담	-9179
▁향후	-9180
▁카게	-9181
▁까마귀	-9182
▁섬광	-9183
▁뻘	-9184
▁라미	-9185
▁발급	-9186
▁챔스	-9187
▁사방	-9188
▁용산	-9189
▁환생	-9190
▁Am	-9191
▁입시	-9192
▁서울대	-9193
▁Op	-9194
▁회관	-9195
▁184	-9196
▁시시	-9197
▁쿄코	-9198
▁서적	-9199
▁제치	-9200
▁뤼	-9201
▁착륙	-9202
▁AF	-9203
▁Col	-9204
▁라인하르트	-9205
▁하사	-9206
▁학사	-9207
gr	-9208
▁Str	-9209
▁여태	-9210
▁시안	-9211
▁던진	-9212
ye	-9213
▁지장	-9214
▁피오	-9215
▁박자	-9216
▁베스	-9217
▁정밀	-9218
▁루마	-9219
▁인피니티	-9220
▁서열	-9221
▁잎	-9222
▁이무	-9223
▁퍼펙트	-9224
▁GM	-9225
▁다카	-9226
▁시오	-9227
타이	-9228
▁행진	-9229
▁밀리언	-9230
▁얌	-9231
▁리자	-9232
▁지루	-9233
▁숙소	-9234
▁우두	-9235
▁청춘	-9236
▁not	-9237
▁필름	-9238
ough	-9239
▁프롤	-9240
▁협동	-9241
▁선박	-9242
▁컴뱃	-9243
▁미녀	-9244
어트	-9245
▁152	-9246
▁민폐	-9247
▁큐어	-9248
▁실용	-9249
CE	-9250
▁Mag	-9251
▁카리	-9252
▁그쳤	-9253
▁화기	-9254
▁루미	-9255
▁싱가	-9256
▁싱가포르	-9257
▁유가	-9258
▁게끔	-9259
▁반성	-9260
▁지크	-9261
▁스로	-9262
▁강인	-9263
▁도대체	-9264
▁..!	-9265
▁감추	-9266
▁편리	-9267
▁교도소	-9268
iel	-9269
▁스타워즈	-9270
▁날렸	-9271
▁브래	-9272
▁마을버스	-9273
▁그간	-9274
▁욕심	-9275
▁선원	-9276
▁승패	-9277
▁금발	-9278
▁오렌지	-9279
▁직책	-9280
▁카피	-9281
▁홀리	-9282
▁보우	-9283
▁갱신	-9284
▁스네	-9285
▁아수	-9286
▁바꿨	-9287
▁조화	-9288
▁툭	-9289
▁AV	-9290
▁000000	-9291
▁시호	-9292
▁까다롭	-9293
▁가져온	-9294
▁모순	-9295
▁폴아웃	-9296
▁침몰	-9297
▁팔라	-9298
▁김치	-9299
▁취재	-9300
▁주공	-9301
▁테리	-9302
vel	-9303
▁아슬	-9304
▁일일	-9305
▁AL	-9306
▁과일	-9307
▁친척	-9308
▁어벤져	-9309
ull	-9310
▁김광	-9311
▁이진	-9312
▁탐사	-9313
▁욱	-9314
▁화신	-9315
▁스카웃	-9316
▁섬멸	-9317
▁한꺼	-9318
▁한꺼번에	-9319
▁완화	-9320
▁경전	-9321
▁흥분	-9322
▁1978	-9323
▁어려웠	-9324
▁전송	-9325
프리카	-9326
▁전지	-9327
▁올린다	-9328
▁우미	-9329
▁구울	-9330
크리	-9331
▁이계	-9332
▁발각	-9333
▁태워	-9334
▁군부	-9335
▁182	-9336
▁모아서	-9337
▁스기	-9338
▁쿠사	-9339
▁까다로운	-9340
▁싸운다	-9341
..	-9342
▁흑막	-9343
▁한가	-9344
▁보강	-9345
▁능가	-9346
▁이별	-9347
▁시간대	-9348
▁높여	-9349
▁리부	-9350
헤이	-9351
▁보낸다	-9352
▁해운	-9353
▁안무	-9354
▁성명	-9355
▁오즈	-9356
▁중구	-9357
키스탄	-9358
▁진단	-9359
▁앞선	-9360
▁천국	-9361
▁오토바이	-9362
ult	-9363
▁구형	-9364
▁178	-9365
▁컴백	-9366
▁아사히	-9367
▁홋카이도	-9368
▁소나	-9369
▁CL	-9370
서스	-9371
▁토트넘	-9372
▁반경	-9373
▁도르	-9374
에른	-9375
▁모욕	-9376
바리	-9377
▁흑역사	-9378
▁달인	-9379
▁스텔스	-9380
▁못해서	-9381
▁관문	-9382
▁용이	-9383
▁들키	-9384
▁가구	-9385
▁민감	-9386
▁미소녀	-9387
▁고맙	-9388
소년	-9389
▁호리	-9390
able	-9391
▁#!	-9392
▁쓰러진	-9393
▁아름답	-9394
▁경상남도	-9395
▁신관	-9396
▁깨어나	-9397
▁약혼	-9398
ject	-9399
▁동계	-9400
▁이단	-9401
기에	-9402
▁그리핀	-9403
▁최상급	-9404
▁완공	-9405
▁대역	-9406
▁인문	-9407
구니	-9408
▁반역	-9409
▁스윙	-9410
▁모에	-9411
▁주머니	-9412
▁레버	-9413
▁일체	-9414
▁헬리	-9415
▁CE	-9416
▁등재	-9417
▁마야	-9418
▁었었	-9419
▁라비	-9420
▁유즈	-9421
▁안겨	-9422
▁시카고	-9423
▁빠져나가	-9424
▁타카하시	-9425
▁직행	-9426
▁얼티밋	-9427
▁줍니다	-9428
▁사직	-9429
바람	-9430
▁신작	-9431
▁PK	-9432
▁터진	-9433
▁오만	-9434
▁1945	-9435
▁강대	-9436
▁껴	-9437
▁만난다	-9438
▁매각	-9439
▁엉덩이	-9440
▁저자	-9441
▁간판	-9442
▁에코	-9443
모습	-9444
MAN	-9445
▁이나마	-9446
마리	-9447
▁갖춰	-9448
방울	-9449
▁머스	-9450
▁시종	-9451
eth	-9452
▁소득	-9453
oot	-9454
▁마수	-9455
▁엘리자베스	-9456
▁코레	-9457
▁플라스	-9458
세요	-9459
▁패트	-9460
▁부채	-9461
▁베이비	-9462
▁디스플레이	-9463
▁매그	-9464
▁장남	-9465
타리	-9466
▁적자	-9467
▁쿠리	-9468
▁명장	-9469
▁단자	-9470
▁울음	-9471
▁정점	-9472
▁프레스	-9473
▁레시피	-9474
▁Co	-9475
▁약체	-9476
속기	-9477
▁사탕	-9478
▁라이트닝	-9479
▁스마일	-9480
▁피치	-9481
▁터뜨리	-9482
▁늘어난다	-9483
▁정답	-9484
▁금요일	-9485
▁수아	-9486
▁요격	-9487
▁se	-9488
▁파운드	-9489
▁여주인	-9490
▁바이에른	-9491
▁불참	-9492
▁늪	-9493
▁탈취	-9494
▁짬	-9495
▁오다	-9496
▁카제	-9497
▁카사	-9498
▁마미	-9499
▁던지라	-9500
▁패왕	-9501
▁걸까	-9502
▁배울	-9503
무지	-9504
▁수천	-9505
▁cl	-9506
▁카일	-9507
▁얹	-9508
▁아랫	-9509
▁밈	-9510
▁파고	-9511
▁도심	-9512
▁TOP	-9513
▁레이지	-9514
▁실적	-9515
▁비비	-9516
▁소마	-9517
▁일러스트레이터	-9518
▁도쿠	-9519
▁BO	-9520
▁휴먼	-9521
▁노릇	-9522
▁오케	-9523
▁눈앞	-9524
▁교리	-9525
▁태풍	-9526
▁AFC	-9527
▁편의점	-9528
스크림	-9529
▁휩쓸	-9530
▁독백	-9531
▁맨체스터	-9532
▁애용	-9533
▁무능	-9534
▁대피	-9535
▁박정희	-9536
▁탔	-9537
▁과시	-9538
▁찔러	-9539
▁가왕	-9540
ild	-9541
▁어그	-9542
▁짠	-9543
▁입사	-9544
▁카이저	-9545
▁구로	-9546
▁욕망	-9547
파이	-9548
▁펴	-9549
니코	-9550
▁시범	-9551
▁평상시	-9552
▁BGA	-9553
▁Is	-9554
▁목욕	-9555
▁4000	-9556
생활	-9557
inal	-9558
▁삽질	-9559
▁곤충	-9560
▁자사	-9561
▁신하	-9562
▁함수	-9563
▁물리치	-9564
▁드루이드	-9565
▁연이	-9566
▁오공	-9567
▁스모	-9568
▁신한	-9569
▁진동	-9570
▁렀	-9571
▁눈동자	-9572
▁크로우	-9573
▁집사	-9574
▁굶	-9575
▁네크로	-9576
▁김일	-9577
▁공신	-9578
도전	-9579
▁급하	-9580
▁물려받	-9581
▁웨폰	-9582
▁이쿠	-9583
▁아이디	-9584
▁맷집	-9585
▁남학생	-9586
▁무지개	-9587
▁Do	-9588
▁소집	-9589
▁평론가	-9590
아시아	-9591
▁스파크	-9592
▁좌익	-9593
▁Gaming	-9594
▁가이아	-9595
▁놓여	-9596
▁고가	-9597
▁보르	-9598
▁유머	-9599
▁단련	-9600
▁부가	-9601
▁말려	-9602
쿠스	-9603
▁CR	-9604
▁유아	-9605
▁아쉬움	-9606
▁선회	-9607
▁정우	-9608
랍니다	-9609
▁사천	-9610
▁GSL	-9611
▁SA	-9612
▁다간	-9613
▁중소	-9614
▁320	-9615
▁아유	-9616
▁아마존	-9617
▁달콤	-9618
▁리볼	-9619
▁검토	-9620
▁투고	-9621
▁명시	-9622
▁숙련도	-9623
DX	-9624
▁장본	-9625
▁캡슐	-9626
▁포크	-9627
▁컬렉션	-9628
▁315	-9629
▁이용자	-9630
▁징계	-9631
▁케리	-9632
▁하도	-9633
▁냉장	-9634
▁장신구	-9635
▁ME	-9636
▁성분	-9637
▁테란	-9638
▁식스	-9639
▁당초	-9640
ings	-9641
▁무한도전	-9642
▁Gl	-9643
▁일어난다	-9644
중간	-9645
▁으신	-9646
▁마마	-9647
14	-9648
▁자력	-9649
▁타리	-9650
▁초과	-9651
TA	-9652
▁아르바이트	-9653
트론	-9654
▁1973	-9655
▁중기	-9656
▁모의	-9657
▁산다	-9658
▁오를	-9659
▁일명	-9660
▁라이드	-9661
▁슬라이드	-9662
▁배웠	-9663
▁바랍니다	-9664
르타	-9665
▁대면	-9666
▁Gu	-9667
▁중부	-9668
▁와타나베	-9669
대사	-9670
▁컨디션	-9671
▁키노	-9672
▁하이드	-9673
▁위쪽	-9674
▁오로치	-9675
▁협조	-9676
▁시련	-9677
▁유동	-9678
▁중국인	-9679
▁민중	-9680
▁미노	-9681
히토	-9682
▁마찰	-9683
▁군데	-9684
reak	-9685
▁궁수	-9686
▁리리	-9687
▁저항력	-9688
수리	-9689
ron	-9690
▁슬퍼	-9691
▁헤라	-9692
▁주술사	-9693
▁잔류	-9694
▁이호	-9695
▁무늬	-9696
▁이명박	-9697
▁장본인	-9698
▁코끼리	-9699
티니	-9700
▁공교	-9701
▁속해	-9702
▁소꿉	-9703
저래	-9704
▁금강	-9705
▁무자	-9706
▁와이번스	-9707
▁표식	-9708
▁캘리	-9709
▁강아지	-9710
타운	-9711
▁접하	-9712
▁이니	-9713
▁급식	-9714
▁대해선	-9715
▁외야수	-9716
▁상시	-9717
▁인도네시아	-9718
▁고발	-9719
▁끌려가	-9720
▁앤드	-9721
▁벨기에	-9722
▁알아내	-9723
▁나폴레	-9724
▁서바이벌	-9725
▁모인	-9726
▁비키	-9727
▁급격히	-9728
▁보로	-9729
▁네이션	-9730
▁학위	-9731
▁가령	-9732
슬러	-9733
▁그루	-9734
▁주저	-9735
▁재수	-9736
▁고우	-9737
▁이용객	-9738
▁배리	-9739
▁뺨	-9740
▁부산광역시	-9741
▁주술	-9742
▁168	-9743
▁밭	-9744
17	-9745
▁NM	-9746
▁국도	-9747
▁유카리	-9748
▁혼혈	-9749
▁도마	-9750
▁멈춰	-9751
▁공헌	-9752
▁판사	-9753
▁아무렇	-9754
▁모나	-9755
▁라이징	-9756
▁성대	-9757
▁도미	-9758
▁평택	-9759
▁크라운	-9760
▁방침	-9761
▁203	-9762
PA	-9763
▁so	-9764
사와	-9765
▁수신	-9766
▁막혀	-9767
▁나폴레옹	-9768
▁개명	-9769
▁낯	-9770
▁적힌	-9771
▁초청	-9772
▁이즈미	-9773
▁몸매	-9774
▁휴대폰	-9775
▁218	-9776
▁조립	-9777
▁내외	-9778
▁체코	-9779
▁흉악	-9780
▁승급	-9781
▁돌아올	-9782
▁이래저래	-9783
▁보직	-9784
▁김병	-9785
▁내각	-9786
▁강동	-9787
▁쥬얼	-9788
▁악행	-9789
▁like	-9790
▁Min	-9791
▁벗겨	-9792
▁지면	-9793
▁시네마	-9794
▁균열	-9795
▁국토	-9796
▁꿈꾸	-9797
▁오페라	-9798
▁수립	-9799
▁충청남도	-9800
▁윤리	-9801
▁뚜렷	-9802
▁천지	-9803
▁자산	-9804
▁단총	-9805
우라	-9806
▁아테나	-9807
전사	-9808
▁단역	-9809
▁레이븐	-9810
▁런처	-9811
▁모시	-9812
GA	-9813
▁독보	-9814
▁ㄷ	-9815
▁어원	-9816
▁황혼	-9817
르드	-9818
▁두꺼	-9819
▁배율	-9820
▁소우	-9821
▁베를린	-9822
▁저격수	-9823
▁will	-9824
▁볶	-9825
▁사슬	-9826
▁위시	-9827
▁휴게	-9828
▁테크닉	-9829
닐라	-9830
▁비자	-9831
MAX	-9832
▁오사	-9833
▁저승	-9834
▁10000	-9835
▁서방	-9836
▁의정부	-9837
▁탄압	-9838
▁대학생	-9839
러진	-9840
▁리믹스	-9841
주의자	-9842
▁차장	-9843
ECT	-9844
▁보가	-9845
▁로크	-9846
▁노린	-9847
▁번지	-9848
▁부동산	-9849
▁마친	-9850
▁트론	-9851
▁내린다	-9852
그라	-9853
▁하츠네	-9854
▁지지율	-9855
▁수중	-9856
▁절단	-9857
▁교역	-9858
▁니트	-9859
▁난리	-9860
▁웃기	-9861
▁국방부	-9862
▁iOS	-9863
▁충격파	-9864
성이	-9865
▁필사	-9866
▁경사	-9867
▁수라	-9868
▁시켜야	-9869
▁RO	-9870
▁탄막	-9871
ICE	-9872
▁리츠	-9873
▁스코틀랜드	-9874
▁단서	-9875
▁튀어나오	-9876
▁리프트	-9877
▁예쁜	-9878
운수	-9879
▁이오리	-9880
▁마주치	-9881
▁변함	-9882
▁실린	-9883
▁시간표	-9884
▁성지	-9885
▁인명	-9886
▁마지	-9887
▁면제	-9888
▁엠블	-9889
▁오역	-9890
▁피우	-9891
▁비단	-9892
▁ALL	-9893
▁히사	-9894
▁덧붙여	-9895
▁지터	-9896
▁one	-9897
AND	-9898
보우	-9899
▁자루	-9900
▁플레임	-9901
▁거스	-9902
▁견해	-9903
▁대법	-9904
▁원로	-9905
▁타우	-9906
▁칼라	-9907
▁김성근	-9908
▁정전	-9909
▁이리저리	-9910
▁미남	-9911
▁말레이	-9912
▁설마	-9913
▁버블	-9914
▁na	-9915
▁작위	-9916
▁Red	-9917
▁흉내	-9918
oul	-9919
▁Type	-9920
▁걸음	-9921
▁중화민국	-9922
▁멋지	-9923
▁해역	-9924
▁펑크	-9925
▁1974	-9926
나와	-9927
▁더미	-9928
▁평판	-9929
▁KB	-9930
저우	-9931
▁으려면	-9932
▁Play	-9933
▁대국	-9934
▁Ser	-9935
▁사이토	-9936
▁아수라	-9937
▁성사	-9938
▁주황	-9939
▁NT	-9940
▁사물	-9941
뜨린	-9942
▁타키	-9943
te	-9944
친구	-9945
▁둥지	-9946
▁UC	-9947
▁오른다	-9948
보기	-9949
▁토비	-9950
▁극심	-9951
▁득표율	-9952
▁가해자	-9953
▁보편	-9954
▁입원	-9955
▁캇	-9956
▁왕족	-9957
▁출석	-9958
▁공격기	-9959
▁요우	-9960
▁샘플	-9961
▁재배	-9962
▁격렬	-9963
▁스나	-9964
ater	-9965
▁완벽히	-9966
▁발톱	-9967
▁반장	-9968
ody	-9969
▁전법	-9970
STER	-9971
16	-9972
과이	-9973
▁희생자	-9974
▁우두머리	-9975
▁액체	-9976
▁플레이버	-9977
▁177	-9978
▁간파	-9979
▁계절	-9980
▁이듬	-9981
▁끝났	-9982
▁연막	-9983
▁깃털	-9984
▁고난	-9985
▁Car	-9986
▁김윤	-9987
▁커플링	-9988
▁사우스	-9989
▁아울	-9990
▁마르코	-9991
▁계략	-9992
▁다케	-9993
▁리볼버	-9994
▁해변	-9995
▁강습	-9996
▁전라남도	-9997
▁순간이동	-9998
▁만지	-9999
▁선로	-10000
▁주입	-10001
▁가져왔	-10002
▁헤드샷	-10003
▁차가	-10004
▁Don	-10005
▁랜서	-10006
▁한양	-10007
▁진형	-10008
▁무비	-10009
▁벚	-10010
▁감성	-10011
▁딥	-10012
▁탈환	-10013
▁맑	-10014
▁짝사랑	-10015
▁의의	-10016
▁손잡이	-10017
▁홈경기	-10018
▁방울	-10019
텍스	-10020
▁덤벼	-10021
▁나뉜다	-10022
▁스콜	-10023
▁태생	-10024
ions	-10025
▁충고	-10026
▁과언	-10027
▁섞인	-10028
▁입자	-10029
▁제의	-10030
ould	-10031
▁사야카	-10032
▁보루	-10033
▁반도	-10034
▁슬라임	-10035
▁안젤	-10036
▁138	-10037
▁맡겨	-10038
▁접수	-10039
▁Es	-10040
▁1975	-10041
▁공명	-10042
▁유지비	-10043
▁이영호	-10044
▁노라	-10045
▁차일드	-10046
▁맹독	-10047
▁주교	-10048
▁병과	-10049
▁중재	-10050
▁금고	-10051
▁크롬	-10052
▁아이즈	-10053
천군	-10054
▁서명	-10055
▁코디	-10056
드로	-10057
▁너클	-10058
▁워드	-10059
▁상어	-10060
▁드러난	-10061
레븐	-10062
▁메테	-10063
▁중도	-10064
▁산탄총	-10065
▁석유	-10066
▁필립	-10067
▁상의	-10068
▁측근	-10069
▁리처드	-10070
▁아리스	-10071
▁부제	-10072
▁레슨	-10073
alk	-10074
▁동성애	-10075
▁완성도	-10076
▁자켓	-10077
▁us	-10078
▁러너	-10079
▁타스	-10080
▁어드밴	-10081
▁냅	-10082
▁졸업식	-10083
▁팍	-10084
▁떠돌	-10085
▁두려움	-10086
▁들으면	-10087
ven	-10088
▁팔리	-10089
라이언스	-10090
▁프로스트	-10091
▁찬양	-10092
▁바이크	-10093
▁낮추	-10094
▁카렌	-10095
▁원화	-10096
▁'''	-10097
▁마스코트	-10098
▁겁니다	-10099
▁데미	-10100
▁테니스	-10101
▁Time	-10102
▁월간	-10103
▁삿	-10104
▁나눈	-10105
▁레인보우	-10106
▁냉장고	-10107
▁얼라이언스	-10108
▁베어	-10109
소총	-10110
▁일각	-10111
야스	-10112
▁162	-10113
▁이사장	-10114
▁다치	-10115
▁떨어뜨리	-10116
▁백만	-10117
▁콘스탄	-10118
▁이념	-10119
▁EU	-10120
af	-10121
▁고래	-10122
▁놀리	-10123
▁분할	-10124
느리	-10125
▁본질	-10126
▁찰스	-10127
▁견디	-10128
▁교대	-10129
스티스	-10130
▁박명	-10131
맥스	-10132
▁126	-10133
▁우지	-10134
▁이듬해	-10135
▁테일즈	-10136
▁뛰어들	-10137
시다	-10138
▁수감	-10139
▁빙의	-10140
▁내려갔	-10141
▁가히	-10142
▁라든가	-10143
▁스바	-10144
▁Sum	-10145
▁조수	-10146
▁WH	-10147
공사	-10148
▁엉뚱	-10149
▁쟁이	-10150
▁키즈	-10151
▁댈	-10152
▁스칼	-10153
▁평등	-10154
▁스매시	-10155
▁카오루	-10156
▁김선	-10157
▁여긴	-10158
▁올라간	-10159
▁인듯	-10160
뜨렸	-10161
▁자키	-10162
ics	-10163
▁신생	-10164
▁연소	-10165
▁적이	-10166
▁노부나가	-10167
▁클리셰	-10168
▁김두	-10169
▁기뻐하	-10170
▁차림	-10171
▁둬	-10172
▁히카루	-10173
▁대니	-10174
▁Bo	-10175
▁영화제	-10176
▁???	-10177
▁기관포	-10178
YP	-10179
▁심정	-10180
▁로그인	-10181
▁폭로	-10182
▁부시	-10183
▁핑계	-10184
▁돌아온다	-10185
▁초등학생	-10186
▁지역구	-10187
▁과격	-10188
▁보고서	-10189
▁말기	-10190
▁응급	-10191
▁주차장	-10192
▁고립	-10193
▁꼴찌	-10194
▁슬러그	-10195
▁고종	-10196
▁동상	-10197
▁왕가	-10198
▁에드워드	-10199
빨리	-10200
랄드	-10201
▁텔레포트	-10202
▁로비	-10203
▁나락	-10204
시스코	-10205
▁민병	-10206
▁실려	-10207
▁회계	-10208
▁득표수	-10209
▁코지	-10210
ACK	-10211
▁로제	-10212
▁손목	-10213
▁사회주의	-10214
▁젝	-10215
▁직위	-10216
▁BT	-10217
▁맞먹	-10218
▁펙	-10219
재기	-10220
▁공짜	-10221
▁병행	-10222
▁조르	-10223
▁끊기	-10224
▁팩션	-10225
▁무식	-10226
▁후반전	-10227
올라	-10228
▁결과물	-10229
▁CB	-10230
▁유라	-10231
▁IIDX	-10232
▁애드	-10233
▁have	-10234
▁팜	-10235
▁카인	-10236
▁BA	-10237
▁신상	-10238
▁카토	-10239
미터	-10240
▁위함	-10241
▁누스	-10242
▁주유	-10243
보라	-10244
▁~"	-10245
▁콰	-10246
▁솔직히	-10247
▁연세대	-10248
▁피드	-10249
▁oh	-10250
▁포도	-10251
▁투사	-10252
▁김구	-10253
▁재질	-10254
▁브레스	-10255
▁후면	-10256
▁조항	-10257
▁정의당	-10258
▁다지만	-10259
▁꾀	-10260
▁난투	-10261
▁멘붕	-10262
▁거꾸	-10263
페이스	-10264
▁종로	-10265
▁아름다	-10266
▁야망	-10267
▁팬티	-10268
▁313	-10269
▁고마워	-10270
tern	-10271
은이	-10272
▁제너	-10273
▁즐겁	-10274
▁보복	-10275
▁EV	-10276
▁숙청	-10277
▁제자리	-10278
전설	-10279
▁도사	-10280
▁분배	-10281
셉트	-10282
▁극악	-10283
▁모른다는	-10284
▁LTE	-10285
▁레귤	-10286
고사	-10287
처럼	-10288
▁볼드	-10289
▁Kore	-10290
▁소꿉친구	-10291
시티	-10292
ins	-10293
▁먹여	-10294
▁이세	-10295
ict	-10296
▁슬슬	-10297
▁한정판	-10298
▁신조	-10299
▁1976	-10300
▁슬픈	-10301
▁난민	-10302
▁페이크	-10303
▁상부	-10304
▁날아다니	-10305
▁리셋	-10306
▁두루	-10307
ange	-10308
ator	-10309
▁know	-10310
▁자포	-10311
▁몰아넣	-10312
▁알려준다	-10313
▁132	-10314
▁out	-10315
▁결의	-10316
▁걸릴	-10317
▁유비트	-10318
▁제주도	-10319
▁모았	-10320
▁테르	-10321
▁뽑아내	-10322
▁표기법	-10323
▁약칭	-10324
▁미트	-10325
▁발전소	-10326
▁방벽	-10327
▁내뱉	-10328
▁넘겼	-10329
▁럭키	-10330
▁Sun	-10331
▁줄여서	-10332
▁DI	-10333
▁빈약	-10334
▁가져갔	-10335
▁그려진	-10336
▁테이프	-10337
▁트랜스포	-10338
▁병종	-10339
▁페미니즘	-10340
▁채찍	-10341
▁조던	-10342
▁갸	-10343
퍼니	-10344
▁해고	-10345
▁개판	-10346
▁내면	-10347
▁세츠	-10348
레이크	-10349
▁set	-10350
▁바나나	-10351
▁연간	-10352
▁수확	-10353
▁카테고리	-10354
▁pr	-10355
▁훔치	-10356
▁어제	-10357
▁캔디	-10358
▁실리	-10359
▁선지	-10360
▁여겼	-10361
무이	-10362
▁근로	-10363
▁츤데레	-10364
▁드러냈	-10365
▁선봉	-10366
▁하지메	-10367
▁수영복	-10368
▁서리	-10369
▁지미	-10370
▁재벌	-10371
▁해전	-10372
▁1972	-10373
▁여주인공	-10374
▁일산	-10375
▁바이킹	-10376
▁당해서	-10377
▁종전	-10378
▁탁월	-10379
▁강탈	-10380
▁메디	-10381
▁산소	-10382
▁찰나	-10383
▁그랑프리	-10384
▁키로	-10385
▁오딘	-10386
▁접전	-10387
▁feat	-10388
▁TP	-10389
상가	-10390
▁넘어갈	-10391
▁자카	-10392
▁지배자	-10393
▁메세지	-10394
▁퉁	-10395
▁MO	-10396
▁일조	-10397
▁정준	-10398
▁158	-10399
▁로렌	-10400
▁환호	-10401
▁구독자	-10402
▁쿠바	-10403
▁IV	-10404
▁교훈	-10405
▁콧	-10406
▁IP	-10407
▁프롤로그	-10408
▁사각	-10409
▁르노	-10410
▁서치	-10411
▁초점	-10412
19	-10413
▁가설	-10414
고속도로	-10415
▁미도리	-10416
▁230	-10417
돌프	-10418
▁폐선	-10419
▁자작	-10420
▁카이사	-10421
▁GD	-10422
▁스케줄	-10423
▁벗어난	-10424
▁제인	-10425
▁구호	-10426
▁레귤러	-10427
▁다저스	-10428
▁최하	-10429
▁다투	-10430
▁띄워	-10431
▁제조사	-10432
▁1977	-10433
▁HS	-10434
▁대등	-10435
▁무궁	-10436
▁응답	-10437
▁인트	-10438
▁거꾸로	-10439
▁힌트	-10440
▁빼앗기	-10441
▁니코니코	-10442
▁내정	-10443
▁마가	-10444
▁프로그래	-10445
▁임진	-10446
▁중급	-10447
▁야마모토	-10448
▁관료	-10449
사스	-10450
활약	-10451
▁진로	-10452
▁수여	-10453
▁앨런	-10454
그마	-10455
▁신념	-10456
▁이점	-10457
▁필두	-10458
▁High	-10459
▁프랭크	-10460
▁껍질	-10461
▁랏	-10462
▁릴리스	-10463
▁깡패	-10464
▁Light	-10465
▁무신	-10466
▁유능	-10467
▁쥰	-10468
▁키드	-10469
▁편한	-10470
▁리뉴	-10471
▁유마	-10472
▁소비자	-10473
▁뚝	-10474
▁TE	-10475
▁충남	-10476
ME	-10477
▁대명	-10478
▁실바	-10479
▁줄기	-10480
▁파인	-10481
▁172	-10482
▁치바	-10483
▁스바루	-10484
▁ㅇ	-10485
천사	-10486
▁개막전	-10487
▁때려잡	-10488
▁태미	-10489
▁컴퍼니	-10490
▁순천	-10491
민주당	-10492
▁트러	-10493
che	-10494
▁푸르	-10495
▁진짜로	-10496
▁테레	-10497
▁헐크	-10498
▁정조	-10499
▁덴마크	-10500
▁혹평	-10501
▁지킬	-10502
▁무서워	-10503
▁주식회사	-10504
▁감금	-10505
▁떨어져서	-10506
키스	-10507
▁피난	-10508
▁133	-10509
▁켄지	-10510
▁죽인다	-10511
▁양심	-10512
▁인텔	-10513
▁재림	-10514
▁지나친	-10515
▁LOVE	-10516
▁박쥐	-10517
▁섭취	-10518
▁공국	-10519
▁해져서	-10520
▁얼터	-10521
▁꿇	-10522
지사	-10523
▁파괴력	-10524
▁도스	-10525
▁아폴	-10526
▁이만	-10527
▁냉기	-10528
▁무색	-10529
▁시달	-10530
▁애쉬	-10531
▁캐슬	-10532
제스	-10533
▁플리	-10534
▁해선	-10535
▁랜스	-10536
▁팀장	-10537
▁보트	-10538
▁강서	-10539
▁차분	-10540
▁박종	-10541
▁기술력	-10542
▁바인	-10543
▁존슨	-10544
▁득실	-10545
덕션	-10546
▁배후	-10547
▁Your	-10548
▁객관	-10549
▁내버려	-10550
▁망상	-10551
▁NEW	-10552
▁Tw	-10553
▁순찰	-10554
▁호응	-10555
▁구청	-10556
▁여장	-10557
▁이순신	-10558
▁수성	-10559
▁윈터	-10560
▁148	-10561
▁지성	-10562
▁저스티스	-10563
▁과감	-10564
▁급속	-10565
▁연달	-10566
▁최정	-10567
▁황태	-10568
▁고질	-10569
▁지붕	-10570
▁펭귄	-10571
▁179	-10572
▁%.	-10573
▁la	-10574
▁제작비	-10575
▁라시	-10576
▁노르웨이	-10577
▁Mr	-10578
▁해준다	-10579
▁미끼	-10580
▁틀어	-10581
▁메구미	-10582
▁OF	-10583
▁매지	-10584
▁스톡	-10585
▁앵커	-10586
▁소노	-10587
ica	-10588
▁판다	-10589
▁망명	-10590
▁능숙	-10591
▁신학	-10592
▁히나타	-10593
▁어벤져스	-10594
▁찌질	-10595
▁사내	-10596
▁틀리	-10597
▁조력	-10598
▁건다	-10599
메라	-10600
산역	-10601
▁샤오	-10602
▁레슬러	-10603
▁출제	-10604
▁트랜스포머	-10605
▁오른팔	-10606
▁모스크바	-10607
세서리	-10608
▁리터	-10609
▁복도	-10610
▁스팅	-10611
▁장갑차	-10612
▁Gen	-10613
▁격퇴	-10614
▁베일	-10615
▁립스	-10616
IK	-10617
▁세례	-10618
▁파랑	-10619
▁두근	-10620
▁Mi	-10621
▁라이센스	-10622
다드	-10623
▁GTA	-10624
▁후쿠오카	-10625
▁로맨스	-10626
▁미숙	-10627
▁심히	-10628
▁교시	-10629
▁게르	-10630
▁포니	-10631
▁성벽	-10632
▁건드	-10633
▁향한다	-10634
교통	-10635
▁철갑탄	-10636
사고	-10637
▁사나이	-10638
▁케리건	-10639
▁제지	-10640
▁풍경	-10641
▁섹시	-10642
리칸	-10643
▁두뇌	-10644
▁통보	-10645
날두	-10646
▁알렸	-10647
▁드로	-10648
▁미모	-10649
▁제대	-10650
▁더러운	-10651
▁반론	-10652
▁염두	-10653
▁유타	-10654
▁Em	-10655
▁156	-10656
▁호날두	-10657
▁표창	-10658
▁탐구	-10659
FL	-10660
ex	-10661
▁Par	-10662
▁헤일	-10663
▁사지	-10664
▁눕	-10665
▁슈가	-10666
▁시조	-10667
▁종말	-10668
▁파우	-10669
▁사소	-10670
▁154	-10671
▁노골	-10672
▁레슬링	-10673
▁명대사	-10674
▁노래방	-10675
▁꼼수	-10676
▁뒤쪽	-10677
▁교육청	-10678
▁사일	-10679
스레	-10680
▁치마	-10681
▁비참	-10682
▁진흥	-10683
▁묻혀	-10684
▁음향	-10685
▁안동	-10686
▁여수	-10687
▁초코	-10688
▁밧	-10689
▁맹활약	-10690
▁바닷	-10691
▁호무	-10692
▁HARD	-10693
▁던졌	-10694
▁재즈	-10695
▁앞세	-10696
▁일컫	-10697
▁중후	-10698
▁176	-10699
▁미호	-10700
▁호구	-10701
▁공립	-10702
▁사가	-10703
▁MK	-10704
▁미세	-10705
HT	-10706
▁냉동	-10707
▁장시	-10708
▁222	-10709
▁날린	-10710
▁춤추	-10711
▁159	-10712
▁생태	-10713
▁발탁	-10714
▁OCG	-10715
▁말라	-10716
▁맞출	-10717
▁ar	-10718
▁기행	-10719
▁전반기	-10720
▁분쇄	-10721
▁블랙홀	-10722
▁발발	-10723
▁착지	-10724
▁아비	-10725
▁죄수	-10726
▁am	-10727
▁맞물	-10728
▁지요	-10729
▁성폭	-10730
▁진술	-10731
▁u	-10732
▁응시	-10733
▁으리	-10734
▁FPS	-10735
퀘어	-10736
▁1971	-10737
▁전학	-10738
클린	-10739
▁사천왕	-10740
▁핀란드	-10741
▁배신자	-10742
▁이른다	-10743
▁AE	-10744
▁대목	-10745
▁오리온	-10746
▁173	-10747
▁129	-10748
▁알아차	-10749
박이	-10750
▁남양	-10751
▁혼인	-10752
▁폐허	-10753
▁통틀어	-10754
티지	-10755
▁엄폐	-10756
▁와라	-10757
어붙	-10758
▁현직	-10759
▁계곡	-10760
▁찾아와	-10761
▁에그	-10762
▁가라앉	-10763
▁리우스	-10764
▁오쿠	-10765
▁코프	-10766
▁전임	-10767
▁레오나	-10768
▁사르	-10769
▁수하	-10770
바스	-10771
▁명탐정	-10772
CH	-10773
▁른	-10774
▁천문	-10775
▁잡혔	-10776
아닌	-10777
▁책상	-10778
▁캘리포	-10779
▁PL	-10780
▁버림	-10781
킨다	-10782
▁가마	-10783
▁153	-10784
▁텍사스	-10785
▁전도	-10786
▁남한	-10787
▁나란히	-10788
▁화석	-10789
▁안드레	-10790
▁프로덕션	-10791
멘터리	-10792
▁시뮬레이션	-10793
▁고음	-10794
▁세키	-10795
▁나카무라	-10796
▁걸려서	-10797
▁Kn	-10798
▁선포	-10799
UT	-10800
▁샹	-10801
▁에메랄드	-10802
▁질풍	-10803
▁테오	-10804
▁꽁	-10805
▁의아	-10806
▁드리블	-10807
▁파이프	-10808
▁토막	-10809
▁테러리	-10810
▁죠죠	-10811
pr	-10812
▁ll	-10813
▁캘리포니아	-10814
▁낀	-10815
▁Of	-10816
▁라곤	-10817
▁믿음	-10818
▁러닝	-10819
▁스탈린	-10820
▁137	-10821
▁세일러	-10822
슬링	-10823
하여	-10824
▁로스터	-10825
▁보였으나	-10826
▁우산	-10827
▁오락실	-10828
eep	-10829
▁무단	-10830
▁에필	-10831
▁부끄러	-10832
▁에필로그	-10833
▁모기	-10834
▁인플	-10835
리언	-10836
▁지각	-10837
▁신주	-10838
▁래스터	-10839
▁문화재	-10840
▁빠진다	-10841
▁절정	-10842
▁GHz	-10843
▁호스	-10844
타니	-10845
▁뭔지	-10846
▁그렸	-10847
▁원했	-10848
▁토가	-10849
▁이광	-10850
▁발렌타인	-10851
▁잔해	-10852
▁다름아닌	-10853
▁대안	-10854
▁목포	-10855
▁책략	-10856
▁어긋	-10857
▁혼다	-10858
▁Ro	-10859
▁말소	-10860
▁로테이션	-10861
les	-10862
▁교정	-10863
▁이행	-10864
▁비기	-10865
▁빅토리아	-10866
▁노하	-10867
▁뺀	-10868
▁불문	-10869
▁청룡	-10870
▁유니콘	-10871
▁영등	-10872
▁요코하마	-10873
▁쓰러져	-10874
▁총선거	-10875
▁대교	-10876
▁로열	-10877
▁슬램	-10878
▁아랑	-10879
▁골치	-10880
▁280	-10881
▁예방	-10882
▁스텔라	-10883
▁BM	-10884
▁벨라	-10885
▁서울시	-10886
▁십자군	-10887
▁멋있	-10888
▁다큐멘터리	-10889
▁얼어붙	-10890
▁원한다	-10891
▁엣지	-10892
▁총사	-10893
▁레바	-10894
▁먼지	-10895
▁숭배	-10896
▁두목	-10897
▁네놈	-10898
▁225	-10899
▁야당	-10900
▁1969	-10901
▁거뒀	-10902
▁was	-10903
▁Per	-10904
▁카즈야	-10905
▁중공	-10906
▁174	-10907
더기	-10908
▁델타	-10909
▁주파	-10910
▁오바	-10911
▁미식	-10912
▁GPU	-10913
▁라던가	-10914
아슬	-10915
▁월요일	-10916
▁아슬아슬	-10917
▁기쁨	-10918
▁악곡	-10919
▁네스	-10920
▁신세계	-10921
▁심연	-10922
▁처녀	-10923
▁하의	-10924
▁139	-10925
▁골목	-10926
▁분포	-10927
▁깽	-10928
▁163	-10929
▁Heart	-10930
플러스	-10931
▁가로막	-10932
▁단의	-10933
▁버터	-10934
▁나사	-10935
▁134	-10936
▁143	-10937
볼루션	-10938
▁땀	-10939
▁167	-10940
▁로지	-10941
▁따라잡	-10942
▁Fe	-10943
컨드	-10944
▁블라디	-10945
▁TO	-10946
▁해상도	-10947
▁열기	-10948
▁오타쿠	-10949
반신	-10950
▁면접	-10951
▁세컨드	-10952
▁스파이크	-10953
▁~~	-10954
총장	-10955
▁스페인어	-10956
▁였음	-10957
▁보디	-10958
▁이준	-10959
▁원망	-10960
▁부친	-10961
▁필라	-10962
▁루루	-10963
▁투성이	-10964
▁쓸데없이	-10965
▁상장	-10966
▁함성	-10967
▁전광	-10968
▁김도	-10969
▁최대치	-10970
▁퍼시	-10971
▁CO	-10972
▁Good	-10973
▁청사	-10974
다닌	-10975
▁왕관	-10976
▁화약	-10977
▁2500	-10978
▁142	-10979
해야	-10980
▁인구수	-10981
▁내밀	-10982
▁부처	-10983
▁유나	-10984
▁태권	-10985
}}	-10986
▁스윕	-10987
▁관광객	-10988
▁끝장	-10989
▁CN	-10990
▁여도	-10991
▁용의자	-10992
▁배리어	-10993
▁스토커	-10994
▁선수단	-10995
▁beat	-10996
▁인사이드	-10997
▁연기력	-10998
▁미유키	-10999
▁국기	-11000
▁드레드	-11001
▁항공사	-11002
▁히카리	-11003
agon	-11004
▁줄어든다	-11005
▁ㅡ	-11006
▁퓨처	-11007
부인	-11008
▁스트로	-11009
▁추모	-11010
▁트레이닝	-11011
EL	-11012
▁164	-11013
ert	-11014
▁때로	-11015
▁무안	-11016
▁왕후	-11017
▁전수	-11018
▁하후	-11019
▁반란군	-11020
공화	-11021
▁패닉	-11022
▁그제	-11023
▁비로	-11024
에몽	-11025
▁yout	-11026
▁What	-11027
▁하우	-11028
어버리	-11029
▁해태	-11030
▁제단	-11031
▁야마다	-11032
▁기소	-11033
▁실로	-11034
▁우투	-11035
▁ONE	-11036
▁할수록	-11037
▁누이	-11038
▁넘어간다	-11039
▁기이	-11040
▁불쾌	-11041
▁음색	-11042
▁심야	-11043
▁뉴질	-11044
▁뉴질랜드	-11045
▁걸어가	-11046
▁김천	-11047
▁청장	-11048
▁바란다	-11049
▁담겨	-11050
▁마의	-11051
▁선인	-11052
▁극우	-11053
▁구제	-11054
지오	-11055
▁직통	-11056
▁직격	-11057
▁킹덤	-11058
▁홍성	-11059
▁리부트	-11060
▁관계없이	-11061
▁벚꽃	-11062
▁악령	-11063
▁회로	-11064
▁야전	-11065
▁콘셉트	-11066
▁뱉	-11067
▁로브	-11068
▁136	-11069
▁패스트	-11070
▁동아시아	-11071
▁공고	-11072
▁페르시아	-11073
▁Dark	-11074
▁꾸미	-11075
▁개그맨	-11076
▁주워	-11077
▁pro	-11078
▁이인	-11079
▁템포	-11080
▁바닐라	-11081
프란	-11082
▁KC	-11083
▁김연	-11084
무실	-11085
▁쓰러트리	-11086
▁징크스	-11087
▁방안	-11088
▁지극	-11089
백과	-11090
▁서장	-11091
▁오프라인	-11092
▁라임	-11093
▁일환	-11094
▁랙	-11095
▁안철수	-11096
디스	-11097
▁적립	-11098
▁조준경	-11099
▁내세우	-11100
▁경찰청	-11101
와라	-11102
▁완구	-11103
리드	-11104
▁텀	-11105
▁궁전	-11106
▁사범	-11107
립트	-11108
좀무	-11109
▁제이슨	-11110
▁흠좀무	-11111
▁유고	-11112
▁아이스크림	-11113
▁자부	-11114
▁0900	-11115
▁한층	-11116
▁훈훈	-11117
▁유선	-11118
슬리	-11119
▁동사	-11120
▁알렉산더	-11121
▁경지	-11122
▁다룰	-11123
▁숙주	-11124
▁중심지	-11125
▁유해	-11126
레이트	-11127
▁번갈	-11128
▁타고	-11129
▁더구나	-11130
▁참으로	-11131
▁모던	-11132
무게	-11133
▁몸무게	-11134
▁어린아이	-11135
▁화소	-11136
▁time	-11137
▁마요	-11138
▁157	-11139
▁330	-11140
▁메이트	-11141
▁중년	-11142
ideo	-11143
▁라바	-11144
▁세미	-11145
▁핸드폰	-11146
▁연의	-11147
▁체격	-11148
▁모양새	-11149
▁출고	-11150
▁뮤지션	-11151
▁혼동	-11152
티넘	-11153
▁플래티넘	-11154
▁근력	-11155
▁열세	-11156
▁좋아한다	-11157
▁술집	-11158
▁Sm	-11159
▁카니	-11160
▁들어온다	-11161
▁갈리아	-11162
▁양대	-11163
▁미라이	-11164
▁내뿜	-11165
▁박살나	-11166
▁Sl	-11167
▁순정	-11168
르도	-11169
▁문신	-11170
▁1963	-11171
풀이	-11172
▁방호	-11173
▁불릴	-11174
▁연금술사	-11175
▁안토니	-11176
▁휴스턴	-11177
▁앞뒤	-11178
▁브루스	-11179
▁퍼부	-11180
▁주한	-11181
▁레프	-11182
▁정서	-11183
▁호박	-11184
▁제우스	-11185
▁샤를	-11186
▁브이	-11187
▁패드	-11188
애나	-11189
▁외면	-11190
▁하카	-11191
▁사투리	-11192
▁전반전	-11193
other	-11194
▁우천	-11195
▁대중교통	-11196
ors	-11197
▁창립	-11198
▁성숙	-11199
▁설탕	-11200
▁270	-11201
▁좌파	-11202
▁침해	-11203
▁코즈	-11204
air	-11205
▁Blue	-11206
land	-11207
▁에일리	-11208
▁저조	-11209
▁출연진	-11210
▁느껴진다	-11211
▁눈빛	-11212
▁합치	-11213
▁찾아왔	-11214
▁본의	-11215
▁집필	-11216
▁워너	-11217
▁투신	-11218
▁플라스틱	-11219
▁AG	-11220
▁Baby	-11221
▁박상	-11222
▁외관	-11223
▁시흥	-11224
▁타당	-11225
▁제프	-11226
▁스케이	-11227
▁장례식	-11228
▁농민	-11229
▁계시	-11230
▁꿰뚫	-11231
▁클라우드	-11232
▁ab	-11233
▁나뭇	-11234
iew	-11235
▁Ac	-11236
▁유코	-11237
▁뒤지	-11238
▁1968	-11239
▁환사	-11240
▁신수	-11241
▁대진	-11242
▁이선	-11243
anna	-11244
▁죄송	-11245
▁제사	-11246
▁전라북도	-11247
▁생겨서	-11248
▁깨알	-11249
▁전열	-11250
▁타다	-11251
▁테러리스트	-11252
▁도시락	-11253
▁하이브리	-11254
▁우상	-11255
▁선교	-11256
▁미니언	-11257
▁이아	-11258
▁체스	-11259
▁벌금	-11260
▁하이브리드	-11261
▁미티	-11262
▁해독	-11263
▁샤워	-11264
▁장풍	-11265
▁히로시마	-11266
▁깔려	-11267
▁동호	-11268
▁테루	-11269
▁수시로	-11270
▁청나라	-11271
▁방언	-11272
▁브레인	-11273
▁세스	-11274
▁달랐	-11275
▁기피	-11276
▁무수	-11277
▁브론즈	-11278
▁오비	-11279
▁미칠	-11280
▁자칫	-11281
▁부사관	-11282
▁김대중	-11283
ush	-11284
▁집합	-11285
▁풀린	-11286
▁심상	-11287
▁취지	-11288
▁들린다	-11289
▁적성	-11290
▁모어	-11291
▁맞대	-11292
▁멜론	-11293
▁센트럴	-11294
▁희대	-11295
▁허브	-11296
▁Li	-11297
▁후루	-11298
▁그려져	-11299
▁마쳤	-11300
▁각국	-11301
▁경제학	-11302
▁149	-11303
▁사탄	-11304
▁트러블	-11305
▁공영	-11306
▁담임	-11307
▁방공	-11308
▁하비	-11309
▁총독	-11310
▁공모	-11311
▁마켓	-11312
▁가혹	-11313
카미	-11314
▁넉넉	-11315
▁푹	-11316
▁모함	-11317
▁손꼽히	-11318
▁후쿠시마	-11319
▁상쇄	-11320
토리얼	-11321
▁강세	-11322
▁남미	-11323
▁확고	-11324
▁벌어진다	-11325
▁Fire	-11326
▁조교	-11327
▁지문	-11328
▁황실	-11329
▁브레이브	-11330
▁풍기	-11331
▁기함	-11332
▁146	-11333
▁마초	-11334
▁튜토리얼	-11335
▁암컷	-11336
▁격전	-11337
▁오리진	-11338
▁거품	-11339
▁연회	-11340
▁크롤	-11341
▁종착	-11342
▁260	-11343
▁환수	-11344
▁OK	-11345
▁주의자	-11346
▁심했	-11347
▁하여금	-11348
▁프로토타입	-11349
▁리액	-11350
▁열린다	-11351
▁뜰	-11352
▁심화	-11353
▁El	-11354
▁라프	-11355
OID	-11356
▁일삼	-11357
▁낡	-11358
▁놀란	-11359
▁페이커	-11360
▁치고	-11361
▁경과	-11362
na	-11363
▁빈틈	-11364
▁마테	-11365
▁아르카	-11366
▁유니온	-11367
▁소사	-11368
▁찰리	-11369
▁럴	-11370
▁거칠	-11371
▁월등	-11372
▁Dis	-11373
▁따른다	-11374
▁프렌즈	-11375
▁일레븐	-11376
▁루키	-11377
▁섹스	-11378
▁웨인	-11379
▁인체	-11380
▁초상화	-11381
▁BEMAN	-11382
▁걸어서	-11383
▁병장	-11384
▁장동	-11385
▁수다	-11386
▁따져	-11387
전트	-11388
▁일품	-11389
▁미스터리	-11390
▁상공	-11391
글라스	-11392
단지	-11393
▁타카시	-11394
▁초교	-11395
▁실력자	-11396
▁브랜	-11397
▁방화	-11398
▁원자력	-11399
▁공손	-11400
▁성비	-11401
▁프로모	-11402
▁랩터	-11403
▁개미	-11404
▁슈터	-11405
▁DJMAX	-11406
▁뒀	-11407
▁다기	-11408
▁파격	-11409
▁정해져	-11410
▁책임지	-11411
▁오의	-11412
▁줄게	-11413
▁sm	-11414
두사	-11415
▁포워드	-11416
▁BEMANI	-11417
▁고추	-11418
▁맥락	-11419
▁고성	-11420
▁별칭	-11421
▁레이너	-11422
▁배우자	-11423
▁므	-11424
▁운반	-11425
▁적재	-11426
▁합법	-11427
▁석상	-11428
▁속력	-11429
▁중학생	-11430
베트	-11431
▁신병	-11432
▁클러	-11433
▁핸들	-11434
▁격기	-11435
▁모른다고	-11436
▁도검	-11437
▁수량	-11438
▁주가	-11439
▁야만	-11440
▁Champ	-11441
티노	-11442
▁말년	-11443
▁문법	-11444
▁미즈키	-11445
▁자질	-11446
ady	-11447
▁다이노스	-11448
▁무선	-11449
▁속공	-11450
▁부턴	-11451
▁생선	-11452
▁연말	-11453
▁STR	-11454
▁편견	-11455
▁오세	-11456
▁진구	-11457
▁프랜차	-11458
▁파손	-11459
▁빈번	-11460
레드	-11461
▁하반기	-11462
▁fl	-11463
▁성기	-11464
▁쏟아지	-11465
▁데스티니	-11466
▁우편	-11467
▁저희	-11468
▁하라	-11469
레슬링	-11470
토랑	-11471
▁명명	-11472
▁박명수	-11473
▁레스토랑	-11474
나리	-11475
▁말아먹	-11476
▁북구	-11477
▁cc	-11478
▁스트리밍	-11479
▁유유	-11480
▁본가	-11481
▁발차기	-11482
▁쐐	-11483
▁뒷면	-11484
▁유승	-11485
더링	-11486
▁Pre	-11487
▁박혀	-11488
▁피카츄	-11489
▁리바운드	-11490
앙스	-11491
▁불화	-11492
▁통행	-11493
ution	-11494
▁프로레슬링	-11495
▁더라면	-11496
▁kr	-11497
▁프랜차이즈	-11498
▁Ev	-11499
▁미로	-11500
▁주고	-11501
더슨	-11502
사벽	-11503
▁소령	-11504
▁넘사벽	-11505
구역	-11506
▁평창	-11507
▁호출	-11508
▁205	-11509
▁솜씨	-11510
▁수컷	-11511
▁DB	-11512
▁수령	-11513
▁뚜껑	-11514
▁퇴역	-11515
▁보구	-11516
▁취한	-11517
▁쑤	-11518
▁돋보이	-11519
▁선곡	-11520
▁가브리	-11521
▁앤디	-11522
▁맴	-11523
저드	-11524
▁움직여	-11525
▁프리즘	-11526
▁단식	-11527
엘라	-11528
▁추출	-11529
▁탯이	-11530
▁뽐	-11531
스틴	-11532
▁대승	-11533
▁1967	-11534
▁지기	-11535
▁뉘앙스	-11536
ium	-11537
▁니나	-11538
▁550	-11539
▁격리	-11540
▁경질	-11541
▁자각	-11542
▁정형	-11543
▁독립운동	-11544
▁라나	-11545
▁박용	-11546
메어	-11547
▁당국	-11548
▁정체불명	-11549
▁클립	-11550
▁재빨리	-11551
치아	-11552
▁전염	-11553
▁RP	-11554
▁신임	-11555
▁구한	-11556
▁하와	-11557
▁정재	-11558
▁Summer	-11559
석민	-11560
▁원흉	-11561
▁배워	-11562
▁아메리칸	-11563
래스	-11564
▁타나카	-11565
▁애국	-11566
▁앞면	-11567
▁이방	-11568
▁디비전	-11569
듈럼	-11570
▁증인	-11571
▁강점기	-11572
▁Grand	-11573
▁일례	-11574
▁질환	-11575
▁관해	-11576
▁광전사	-11577
▁부관	-11578
▁우가	-11579
▁교통사고	-11580
▁무죄	-11581
▁석사	-11582
▁간호사	-11583
▁나레이션	-11584
▁블래	-11585
▁GG	-11586
미르	-11587
▁운석	-11588
▁버려진	-11589
▁개개	-11590
▁네코	-11591
▁우파	-11592
▁원작자	-11593
▁나이트메어	-11594
▁Rock	-11595
▁노블	-11596
▁나열	-11597
▁츠바사	-11598
▁게임즈	-11599
▁가의	-11600
▁오시	-11601
▁콕	-11602
▁미들	-11603
▁퓨리	-11604
▁따돌	-11605
▁넥서스	-11606
▁하드웨어	-11607
▁몹시	-11608
▁범행	-11609
▁여관	-11610
▁플레어	-11611
▁한다거나	-11612
▁수수료	-11613
▁147	-11614
▁펜듈럼	-11615
▁미팅	-11616
▁동년	-11617
▁총평	-11618
▁내셔널	-11619
▁211	-11620
▁놔두	-11621
▁무고	-11622
▁무명	-11623
▁우체	-11624
▁입국	-11625
▁토마토	-11626
퍼드	-11627
▁특이점	-11628
모어	-11629
▁치루	-11630
▁페인	-11631
평가	-11632
현우	-11633
▁유신	-11634
▁브라우	-11635
▁SCP	-11636
▁박찬	-11637
▁탄탄	-11638
▁달라졌	-11639
통수	-11640
▁Over	-11641
▁줄어드	-11642
▁원종	-11643
▁헤어지	-11644
▁동등	-11645
▁복면	-11646
▁멀리서	-11647
gain	-11648
▁유무	-11649
▁배속	-11650
▁은메달	-11651
▁버릇	-11652
▁만루	-11653
▁따윈	-11654
▁back	-11655
▁전례	-11656
▁하시	-11657
▁옌	-11658
노스케	-11659
▁날라	-11660
▁호그	-11661
▁체형	-11662
▁공습	-11663
▁대외	-11664
두리	-11665
▁퓨어	-11666
▁아이폰	-11667
▁감전	-11668
▁호노	-11669
▁말레이시아	-11670
▁통수	-11671
▁군림	-11672
▁포식	-11673
르바	-11674
▁메모	-11675
▁다툼	-11676
▁뜯어	-11677
▁LED	-11678
▁day	-11679
▁인어	-11680
▁그리드	-11681
▁텅	-11682
▁떄	-11683
▁불려	-11684
▁살라	-11685
▁Dance	-11686
▁사슴	-11687
고래	-11688
▁실루	-11689
▁게시물	-11690
▁재활	-11691
▁강팀	-11692
▁추궁	-11693
▁힐링	-11694
ction	-11695
▁무슬	-11696
▁에바	-11697
▁속박	-11698
▁방과	-11699
▁사교	-11700
▁십자가	-11701
▁DR	-11702
▁별자리	-11703
▁심문	-11704
▁파문	-11705
▁광속	-11706
▁대패	-11707
▁살인마	-11708
▁아래쪽	-11709
▁영등포	-11710
▁데려오	-11711
지도	-11712
▁권능	-11713
▁리키	-11714
▁온몸	-11715
▁함재기	-11716
▁전두	-11717
끄러운	-11718
▁알렉산드	-11719
내리	-11720
▁VOC	-11721
▁관절	-11722
▁동북	-11723
▁This	-11724
▁홀딩	-11725
▁한강	-11726
▁했어도	-11727
▁대군	-11728
▁폴리스	-11729
보내	-11730
▁염색	-11731
▁제보	-11732
▁픽셀	-11733
▁내구력	-11734
▁배송	-11735
▁now	-11736
▁누워	-11737
▁노비	-11738
ne	-11739
▁이창	-11740
▁관해서	-11741
▁점사	-11742
▁호투	-11743
▁SL	-11744
▁루팡	-11745
▁미스트	-11746
▁거니	-11747
트랙	-11748
▁격침	-11749
결승	-11750
▁노트북	-11751
파리	-11752
irst	-11753
▁Wii	-11754
▁경순	-11755
▁교내	-11756
▁But	-11757
▁진도	-11758
▁속편	-11759
▁직속	-11760
▁레이첼	-11761
▁박탈	-11762
▁발라드	-11763
▁닥치	-11764
▁오디오	-11765
▁라파	-11766
▁무제한	-11767
▁Gold	-11768
▁길거리	-11769
▁미수	-11770
츠카	-11771
▁자란	-11772
▁미쳤	-11773
▁통증	-11774
▁감기	-11775
▁박재	-11776
▁볼까	-11777
▁3164	-11778
▁진정한	-11779
▁목재	-11780
▁그릴	-11781
▁여배우	-11782
▁우물	-11783
▁박영	-11784
▁카우	-11785
▁캐스트	-11786
▁발현	-11787
기사	-11788
▁기괴	-11789
▁MSL	-11790
▁어느새	-11791
▁하행	-11792
▁보행	-11793
▁채취	-11794
▁무슬림	-11795
▁스퀘어	-11796
▁커졌	-11797
▁Ste	-11798
▁해적단	-11799
▁상행	-11800
▁HG	-11801
▁시초	-11802
▁자격증	-11803
ount	-11804
▁요리사	-11805
▁공천	-11806
▁에도	-11807
▁둔다	-11808
▁인데다	-11809
▁가창	-11810
▁리엘	-11811
▁증가량	-11812
▁륙	-11813
▁성직자	-11814
▁라구	-11815
▁격투기	-11816
▁교양	-11817
▁왕좌	-11818
▁불평	-11819
▁무사시	-11820
콥터	-11821
▁클레이	-11822
▁동메달	-11823
▁DX	-11824
▁지어	-11825
▁국민당	-11826
▁HK	-11827
▁꼽힌다	-11828
▁구타	-11829
▁타치바나	-11830
▁쓰일	-11831
▁스네이크	-11832
▁남발	-11833
▁단말	-11834
▁빌보드	-11835
▁안드로	-11836
▁지지자	-11837
▁자니	-11838
▁첫날	-11839
let	-11840
▁FL	-11841
▁동로	-11842
자동	-11843
▁셋째	-11844
▁Just	-11845
▁성수	-11846
▁머릿	-11847
▁줄줄	-11848
▁지낸	-11849
▁대공포	-11850
현진	-11851
▁노릴	-11852
▁창세	-11853
느님	-11854
▁닉스	-11855
ring	-11856
▁방송인	-11857
▁별점	-11858
▁속이	-11859
▁기획사	-11860
▁줄리	-11861
▁누명	-11862
▁달라붙	-11863
▁일일이	-11864
▁농락	-11865
▁가성	-11866
▁여친	-11867
▁쇼트	-11868
▁뒤통수	-11869
▁지온	-11870
플렉스	-11871
▁1966	-11872
▁미사키	-11873
▁동문	-11874
▁삼촌	-11875
▁204	-11876
줌마	-11877
▁번식	-11878
▁손톱	-11879
▁멸종	-11880
▁물가	-11881
▁증발	-11882
레일	-11883
▁리턴	-11884
DS	-11885
무네	-11886
▁샌프란	-11887
▁샌프란시스코	-11888
▁올바른	-11889
eng	-11890
▁동조	-11891
▁하느님	-11892
▁회복력	-11893
▁오키나와	-11894
▁명나라	-11895
▁DNA	-11896
▁크리스토	-11897
▁스킵	-11898
▁정한	-11899
▁혼합	-11900
▁아줌마	-11901
▁TW	-11902
▁독수리	-11903
저것	-11904
▁이것저것	-11905
▁수강	-11906
▁pt	-11907
▁책정	-11908
▁166	-11909
▁대쉬	-11910
▁회견	-11911
▁공존	-11912
▁뷔	-11913
▁제스	-11914
▁비즈	-11915
▁셰프	-11916
▁카구라	-11917
▁들러	-11918
▁사망자	-11919
▁프로모션	-11920
▁쌓여	-11921
▁기합	-11922
▁괴력	-11923
▁사모	-11924
▁경감	-11925
▁셸	-11926
▁커트	-11927
▁스크립트	-11928
봐도	-11929
▁넘어지	-11930
▁친목	-11931
▁포효	-11932
▁다이스케	-11933
▁news	-11934
▁후대	-11935
▁명곡	-11936
▁들어와서	-11937
▁공자	-11938
▁직무	-11939
▁사료	-11940
▁사우루스	-11941
▁복용	-11942
▁주심	-11943
산동	-11944
▁코바야시	-11945
▁Korea	-11946
▁흘러가	-11947
▁CA	-11948
▁정크	-11949
▁회귀	-11950
▁한숨	-11951
▁VOCAL	-11952
소수	-11953
▁Can	-11954
▁악어	-11955
▁단과	-11956
▁차가운	-11957
자재	-11958
▁시가	-11959
▁기술자	-11960
▁휩싸	-11961
▁슬로우	-11962
▁트렌	-11963
▁롤링	-11964
▁정정	-11965
메스	-11966
파크	-11967
▁현상금	-11968
▁급히	-11969
▁인쇄	-11970
▁호프	-11971
▁카이토	-11972
▁계란	-11973
▁이례	-11974
ina	-11975
▁다스리	-11976
▁연고지	-11977
▁인천광역시	-11978
▁FB	-11979
▁회오리	-11980
▁동족	-11981
▁뽑아	-11982
스트림	-11983
▁도라에몽	-11984
▁아깝	-11985
▁키트	-11986
▁필터	-11987
▁카르마	-11988
▁박치기	-11989
▁실습	-11990
프라	-11991
▁아카리	-11992
▁헬리콥터	-11993
ERO	-11994
나갔	-11995
▁Sec	-11996
▁레이트	-11997
▁합친	-11998
▁고조	-11999
▁박해	-12000
▁다짐	-12001
보그	-12002
▁벌리	-12003
▁캐리어	-12004
▁스냅	-12005
▁비로소	-12006
▁두르	-12007
▁만행	-12008
▁비타	-12009
▁650	-12010
▁KTX	-12011
▁MHz	-12012
▁분장	-12013
▁신정	-12014
▁김원	-12015
▁부류	-12016
UR	-12017
▁장원	-12018
상가상	-12019
▁설상가상	-12020
▁문어	-12021
커녕	-12022
▁회심	-12023
▁로컬	-12024
▁그립	-12025
▁니카	-12026
▁피스트	-12027
▁......	-12028
▁타시	-12029
▁이뤄지	-12030
▁진수	-12031
▁포대	-12032
▁벌인다	-12033
조합	-12034
▁되돌리	-12035
▁광대	-12036
▁홍진호	-12037
▁프린스	-12038
▁우메	-12039
▁미판	-12040
소문	-12041
▁로저	-12042
▁시부	-12043
▁토이	-12044
▁바꿔서	-12045
▁Music	-12046
▁하리	-12047
▁루마니아	-12048
▁경보	-12049
▁브릿	-12050
▁디렉터	-12051
▁얕	-12052
티콘	-12053
▁난감	-12054
▁듀크	-12055
OO	-12056
▁EBS	-12057
▁박경	-12058
▁반군	-12059
▁At	-12060
▁셉	-12061
네이터	-12062
▁이속	-12063
▁유영	-12064
▁미하	-12065
바르	-12066
▁김형	-12067
▁천마	-12068
▁패했	-12069
▁가까웠	-12070
▁분홍색	-12071
▁비꼬	-12072
▁유난	-12073
▁Su	-12074
▁태극	-12075
▁리플렉	-12076
▁가급	-12077
▁옮겼	-12078
ally	-12079
▁살상	-12080
▁파수	-12081
▁퐁	-12082
▁실루엣	-12083
▁총열	-12084
▁달라진	-12085
▁선우	-12086
▁보살	-12087
▁감행	-12088
▁병살타	-12089
▁괴상	-12090
▁Ep	-12091
▁바티	-12092
▁프랑크	-12093
니카	-12094
▁망한	-12095
▁부드러운	-12096
▁한발	-12097
바다	-12098
▁망령	-12099
▁개연	-12100
▁로코	-12101
▁열람	-12102
▁똑똑	-12103
▁스완	-12104
▁즐거운	-12105
▁Live	-12106
▁짚	-12107
▁유정	-12108
▁레즈	-12109
▁뽕	-12110
▁텍스	-12111
▁습관	-12112
▁미성년	-12113
▁퍼센트	-12114
ART	-12115
▁GN	-12116
▁무진	-12117
마당	-12118
▁아타	-12119
▁입양	-12120
▁Comm	-12121
▁내릴	-12122
▁조직원	-12123
▁1962	-12124
▁어퍼	-12125
▁케이지	-12126
▁항아리	-12127
▁대마	-12128
▁기다렸	-12129
▁딸기	-12130
▁홈즈	-12131
널드	-12132
▁장학	-12133
▁달빛	-12134
▁관직	-12135
▁카가미	-12136
▁암울	-12137
▁BF	-12138
▁츠나	-12139
▁주어진	-12140
▁학점	-12141
젤레스	-12142
▁그리하여	-12143
▁악의	-12144
▁고토	-12145
▁왠만	-12146
▁콜롬	-12147
▁요시다	-12148
▁가미	-12149
▁야외	-12150
▁춘천	-12151
장난	-12152
▁엘리스	-12153
▁경유지	-12154
▁무겁	-12155
▁재직	-12156
▁고릴라	-12157
▁MX	-12158
▁진리	-12159
▁서태	-12160
▁합쳐서	-12161
▁가나	-12162
▁돌격소총	-12163
▁`	-12164
▁발광	-12165
▁금색	-12166
▁해내	-12167
▁모라	-12168
▁레기	-12169
▁단정	-12170
▁리티	-12171
▁위키백과	-12172
▁목동	-12173
▁키무라	-12174
▁기법	-12175
▁영진	-12176
▁판권	-12177
son	-12178
▁대인배	-12179
▁주거	-12180
▁터트	-12181
▁양보	-12182
▁모른	-12183
▁UF	-12184
▁사이보그	-12185
▁진성	-12186
▁파벌	-12187
▁클라이	-12188
▁대본	-12189
▁잘려	-12190
▁강수	-12191
▁김명	-12192
▁뇌물	-12193
▁코다	-12194
▁get	-12195
▁후문	-12196
▁요시노	-12197
▁천공	-12198
▁바주	-12199
use	-12200
▁고든	-12201
▁똘	-12202
▁카에	-12203
▁연발	-12204
▁1800	-12205
▁갈래	-12206
▁저서	-12207
▁뛴	-12208
▁코요	-12209
봐야	-12210
▁달아	-12211
▁도청	-12212
▁용감	-12213
문트	-12214
▁섀도	-12215
▁북아	-12216
▁천둥	-12217
▁소절	-12218
▁안보	-12219
▁스퍼	-12220
▁경쟁자	-12221
▁구급	-12222
▁세탁	-12223
▁주된	-12224
관총	-12225
▁169	-12226
▁깁	-12227
▁오케스트라	-12228
▁투니	-12229
▁서민	-12230
▁레이나	-12231
▁GR	-12232
들여	-12233
tr	-12234
▁예지	-12235
▁뢰	-12236
▁바니	-12237
▁산책	-12238
▁gr	-12239
itch	-12240
▁디펜스	-12241
▁Power	-12242
▁실업	-12243
▁단속	-12244
▁로워	-12245
▁비춰	-12246
일라	-12247
▁사스케	-12248
▁잠재력	-12249
▁Leg	-12250
▁Af	-12251
▁한탄	-12252
▁번트	-12253
▁Res	-12254
▁로저스	-12255
▁베이더	-12256
▁차용	-12257
▁주황색	-12258
▁돌이	-12259
▁법안	-12260
▁++	-12261
▁처한	-12262
▁볼텍스	-12263
▁수용소	-12264
attle	-12265
inn	-12266
▁Hard	-12267
체스	-12268
▁타니	-12269
▁RC	-12270
▁바그	-12271
어질	-12272
▁man	-12273
▁치사	-12274
▁급기	-12275
▁MR	-12276
▁결사	-12277
▁달래	-12278
▁추적자	-12279
▁처절	-12280
▁어미	-12281
▁그랜	-12282
▁비운	-12283
▁송출	-12284
▁저렇게	-12285
▁배상	-12286
▁행방불명	-12287
▁살아나	-12288
▁조력자	-12289
▁1940	-12290
▁장제스	-12291
▁Pv	-12292
▁남작	-12293
▁ARM	-12294
서야	-12295
▁페이트	-12296
▁털어놓	-12297
▁히토미	-12298
▁저상	-12299
▁UI	-12300
▁영남	-12301
▁자판	-12302
▁고산	-12303
▁전속	-12304
쌔신	-12305
▁접점	-12306
▁어쌔신	-12307
▁은혜	-12308
▁혹사	-12309
▁쿠루	-12310
75	-12311
▁청원	-12312
▁월급	-12313
▁직결	-12314
▁교관	-12315
▁전산	-12316
니클	-12317
▁수복	-12318
▁열악	-12319
▁호로	-12320
▁커비	-12321
못미	-12322
▁리조	-12323
▁지못미	-12324
▁제다이	-12325
▁Ma	-12326
▁쐐기	-12327
▁공약	-12328
▁출중	-12329
▁냉각	-12330
▁코이	-12331
징어	-12332
▁워낙에	-12333
▁경선	-12334
▁편안	-12335
▁런닝	-12336
놀이	-12337
▁카밀	-12338
▁켈리	-12339
▁강해서	-12340
▁진행자	-12341
장이	-12342
▁Life	-12343
▁미코토	-12344
▁ADV	-12345
▁마운드	-12346
▁블래스트	-12347
▁응원가	-12348
▁준결승	-12349
▁Sing	-12350
XT	-12351
▁매너	-12352
▁라오	-12353
▁여정	-12354
▁카즈마	-12355
▁제원	-12356
▁구두	-12357
▁Che	-12358
▁일수록	-12359
▁Master	-12360
▁보잉	-12361
TC	-12362
▁but	-12363
▁부려	-12364
▁공과	-12365
▁기복	-12366
▁천주교	-12367
▁독서	-12368
▁동요	-12369
▁묘한	-12370
▁줘도	-12371
ern	-12372
▁출근	-12373
규모	-12374
▁느니	-12375
▁카를로스	-12376
큘라	-12377
▁떠날	-12378
▁정확도	-12379
▁뛰쳐	-12380
▁불어	-12381
▁입힐	-12382
▁트리스	-12383
▁아이유	-12384
▁VOCALOID	-12385
ars	-12386
▁코파	-12387
▁나들	-12388
▁선방	-12389
▁설화	-12390
토르	-12391
▁걸친	-12392
▁모닝	-12393
▁크리스티	-12394
▁준공	-12395
▁나들목	-12396
▁놀랐	-12397
▁김두한	-12398
▁출루율	-12399
준표	-12400
▁슬리	-12401
▁튜닝	-12402
니스트	-12403
▁LCK	-12404
▁여권	-12405
▁키사	-12406
▁행하	-12407
▁감히	-12408
▁가두	-12409
▁Fem	-12410
asy	-12411
▁ㅋㅋ	-12412
▁근성	-12413
▁가호	-12414
▁Rem	-12415
▁붙였	-12416
▁예언자	-12417
▁광탈	-12418
▁무효화	-12419
▁주고받	-12420
▁실정	-12421
▁탈당	-12422
▁시가지	-12423
▁무빙	-12424
▁터질	-12425
▁훅	-12426
▁뷰티	-12427
총리	-12428
▁리전	-12429
▁데우스	-12430
rain	-12431
▁휴게소	-12432
▁호기심	-12433
▁co	-12434
▁전세	-12435
▁불신	-12436
▁외우	-12437
IE	-12438
▁충청북도	-12439
▁동탁	-12440
▁Lo	-12441
UE	-12442
▁채집	-12443
▁im	-12444
▁동체	-12445
▁원활	-12446
▁Out	-12447
▁형편없	-12448
▁1944	-12449
▁러시아어	-12450
▁농사	-12451
▁사출	-12452
▁한도	-12453
▁돌려주	-12454
▁카오리	-12455
▁네이트	-12456
▁토로	-12457
▁야심	-12458
▁증기	-12459
▁반대편	-12460
▁""	-12461
▁더비	-12462
▁비장	-12463
▁지주	-12464
▁당첨	-12465
▁전해진다	-12466
▁댄서	-12467
▁부흥	-12468
▁보여서	-12469
▁1930	-12470
▁픽업	-12471
to	-12472
▁제라	-12473
▁OPS	-12474
▁실명	-12475
▁이변	-12476
▁매출액	-12477
▁교향	-12478
▁더욱이	-12479
▁재사	-12480
▁사안	-12481
▁야시	-12482
▁전두환	-12483
ana	-12484
▁금호	-12485
▁소매	-12486
▁징징	-12487
▁부당	-12488
▁유한	-12489
24	-12490
▁열등	-12491
▁매칭	-12492
▁카디	-12493
▁포트리스	-12494
심장	-12495
▁궤적	-12496
▁사당	-12497
테이	-12498
▁선대	-12499
▁무림	-12500
▁상용	-12501
▁창병	-12502
▁체리	-12503
▁득점자	-12504
▁카노	-12505
▁간선	-12506
▁일절	-12507
▁차후	-12508
▁금화	-12509
▁구단주	-12510
▁태자	-12511
▁노기	-12512
▁포맷	-12513
▁151	-12514
▁OB	-12515
▁문고	-12516
▁자회사	-12517
cl	-12518
▁구마	-12519
▁자처	-12520
▁시에	-12521
린다고	-12522
▁이질	-12523
▁유방	-12524
차례	-12525
▁막아	-12526
▁탬	-12527
▁신대	-12528
년기	-12529
▁농협	-12530
▁매운	-12531
▁밀렸	-12532
▁학술	-12533
▁내수	-12534
▁민정	-12535
▁친정	-12536
ield	-12537
▁999	-12538
▁중전차	-12539
▁End	-12540
▁등교	-12541
▁괴리	-12542
▁서지	-12543
마침	-12544
▁고선	-12545
▁256	-12546
▁던진다	-12547
▁돌보	-12548
▁모범	-12549
▁성역	-12550
▁신칸	-12551
▁전과	-12552
▁숀	-12553
▁동지	-12554
▁이은	-12555
▁테일러	-12556
▁인벤토리	-12557
▁목적지	-12558
▁마차	-12559
▁밀려나	-12560
▁따내	-12561
▁치러	-12562
▁팔찌	-12563
▁이노우	-12564
atic	-12565
▁허공	-12566
▁유난히	-12567
▁군복	-12568
▁초선	-12569
▁때마침	-12570
코어	-12571
▁Fi	-12572
▁세레	-12573
▁사극	-12574
▁지극히	-12575
▁동갑	-12576
▁교감	-12577
▁퍼붓	-12578
▁부호	-12579
▁스타팅	-12580
▁POP	-12581
▁깽판	-12582
▁수식	-12583
▁잔디	-12584
▁신칸센	-12585
riend	-12586
클럽	-12587
▁지표	-12588
▁어리석	-12589
▁Hell	-12590
▁소시	-12591
대기	-12592
▁샨	-12593
▁코타로	-12594
▁PVP	-12595
▁시스터	-12596
▁아이언맨	-12597
▁못지않	-12598
▁세세	-12599
▁가르침	-12600
무소	-12601
▁서해	-12602
▁이용해	-12603
▁함포	-12604
▁김일성	-12605
▁퀄컴	-12606
▁법학	-12607
거진	-12608
▁라지만	-12609
▁Miss	-12610
▁배열	-12611
▁빅토르	-12612
▁1965	-12613
지부	-12614
▁어선	-12615
▁주어진다	-12616
▁세일	-12617
▁수험	-12618
▁클레어	-12619
▁쿠노	-12620
▁필연	-12621
▁확립	-12622
▁야마구치	-12623
▁충북	-12624
▁Air	-12625
▁불로	-12626
▁순교	-12627
▁안성	-12628
▁1964	-12629
▁숏	-12630
▁가뜩	-12631
▁아몬	-12632
▁후려	-12633
▁SG	-12634
▁반기	-12635
▁질러	-12636
▁쿠시	-12637
▁타나	-12638
▁터진다	-12639
▁애교	-12640
33	-12641
▁리마	-12642
▁향기	-12643
▁넘긴	-12644
▁이루어진다	-12645
▁부대원	-12646
▁night	-12647
▁포토	-12648
▁파파	-12649
▁뒤틀	-12650
▁음주	-12651
▁넘어간	-12652
▁웨어	-12653
▁구절	-12654
▁전했	-12655
ittle	-12656
▁쑥	-12657
▁본성	-12658
▁커먼	-12659
▁개개인	-12660
▁스캔들	-12661
▁발악	-12662
▁센티	-12663
▁조폭	-12664
▁부드럽	-12665
▁6000	-12666
LS	-12667
▁sc	-12668
▁집중력	-12669
▁교직	-12670
▁가뜩이나	-12671
▁애시	-12672
▁에일리언	-12673
▁카스미	-12674
▁럼블	-12675
▁이치고	-12676
▁설비	-12677
▁아카이	-12678
▁트로이	-12679
▁정동	-12680
▁간다는	-12681
▁q	-12682
▁서정	-12683
▁고요	-12684
▁오징어	-12685
▁영동	-12686
▁절규	-12687
▁380	-12688
▁Hy	-12689
지르	-12690
▁배기	-12691
▁부딪히	-12692
▁일본식	-12693
▁랜턴	-12694
▁Vo	-12695
▁아홉	-12696
▁역병	-12697
▁깰	-12698
▁스타크	-12699
▁가급적	-12700
뮤직	-12701
▁연구실	-12702
▁바비	-12703
▁콜드	-12704
▁just	-12705
▁반항	-12706
▁악랄	-12707
▁케로	-12708
▁중견수	-12709
▁드립니다	-12710
▁세나	-12711
▁고폭탄	-12712
▁바주카	-12713
▁VR	-12714
▁신흥	-12715
▁수녀	-12716
▁밋	-12717
▁국산	-12718
▁팔라딘	-12719
▁넥슨	-12720
▁자주포	-12721
▁손아	-12722
▁Mod	-12723
▁쳐다보	-12724
▁액셀	-12725
▁소동	-12726
▁볼륨	-12727
▁자크	-12728
28	-12729
▁레몬	-12730
▁설계도	-12731
▁출몰	-12732
▁폿	-12733
▁패미	-12734
▁아델	-12735
▁임원	-12736
레스트	-12737
▁넘어서	-12738
▁직역	-12739
▁김택	-12740
▁쏠쏠	-12741
▁샤크	-12742
▁챌린저	-12743
▁토오루	-12744
▁로딩	-12745
▁상체	-12746
▁스콧	-12747
▁일진	-12748
▁직구	-12749
▁포지	-12750
▁보리	-12751
▁라틴어	-12752
▁Di	-12753
▁게릴라	-12754
▁소감	-12755
▁차관	-12756
▁달렸	-12757
▁MT	-12758
▁성형	-12759
▁시코	-12760
▁페니	-12761
▁이야말로	-12762
▁노엘	-12763
▁EMP	-12764
▁토네	-12765
▁학번	-12766
▁접근성	-12767
▁강판	-12768
▁승려	-12769
▁강행	-12770
▁야드	-12771
▁연비	-12772
▁Sy	-12773
사관	-12774
▁1920	-12775
▁전폭	-12776
▁조영	-12777
▁차선	-12778
▁즉각	-12779
▁일렉트로	-12780
▁마도사	-12781
▁예장	-12782
▁서대	-12783
▁YOU	-12784
▁돌릴	-12785
▁수상자	-12786
▁도요	-12787
블릿	-12788
▁소규모	-12789
▁King	-12790
▁매스	-12791
▁공산주의	-12792
▁tvN	-12793
▁하타	-12794
▁XXX	-12795
▁파이브	-12796
▁칙	-12797
▁총탄	-12798
▁지났	-12799
▁what	-12800
▁첨단	-12801
▁후예	-12802
▁노조미	-12803
▁Ang	-12804
이센	-12805
▁최영	-12806
▁호쿠	-12807
▁노이즈	-12808
동원	-12809
▁상가	-12810
ony	-12811
▁기성	-12812
▁IG	-12813
▁남동	-12814
▁한심	-12815
▁자신감	-12816
란트	-12817
▁페가	-12818
▁리우	-12819
▁무전	-12820
▁악용	-12821
▁기보	-12822
▁용맹	-12823
▁건재	-12824
숨에	-12825
▁단숨에	-12826
▁전리	-12827
▁다비	-12828
▁시몬	-12829
▁패기	-12830
포드	-12831
▁진료	-12832
▁콘티	-12833
▁펠리	-12834
▁오로라	-12835
▁태조	-12836
▁UFC	-12837
▁크루즈	-12838
테이너	-12839
▁재사용	-12840
▁인터페이스	-12841
무기	-12842
▁광신	-12843
▁샤프	-12844
▁서킷	-12845
▁떠오	-12846
▁빈사	-12847
▁양측	-12848
▁안산	-12849
▁리에	-12850
▁밀집	-12851
▁자수	-12852
▁카무이	-12853
▁놨다	-12854
▁쌓인	-12855
▁드라군	-12856
mania	-12857
▁마에다	-12858
▁퇴출	-12859
▁동인지	-12860
▁먹방	-12861
▁적진	-12862
▁타케시	-12863
▁샴	-12864
▁생산력	-12865
▁쿠파	-12866
▁초사	-12867
▁밀란	-12868
▁바루	-12869
▁공성전	-12870
▁수고	-12871
▁에밀리	-12872
▁박격	-12873
▁휘말려	-12874
▁타국	-12875
▁였으니	-12876
▁카린	-12877
▁STER	-12878
▁사임	-12879
▁퇴사	-12880
▁카타르	-12881
▁오인	-12882
▁딱딱	-12883
▁와이어	-12884
▁리쿠	-12885
▁실황	-12886
▁도망쳐	-12887
▁승천	-12888
▁우아	-12889
▁자연수	-12890
▁드라큘라	-12891
▁안다	-12892
▁될까	-12893
▁말미	-12894
▁원고	-12895
ma	-12896
춘다	-12897
▁플루	-12898
▁옵티	-12899
▁타노스	-12900
미스	-12901
▁운운	-12902
▁소극	-12903
▁수비진	-12904
▁EA	-12905
▁스피커	-12906
▁저격총	-12907
▁0000	-12908
▁만료	-12909
▁뮬	-12910
▁허위	-12911
▁씁	-12912
▁안면	-12913
▁대상자	-12914
▁원내	-12915
▁솔라	-12916
▁재난	-12917
▁섬기	-12918
▁은밀	-12919
▁총격	-12920
▁카탈	-12921
▁사사키	-12922
▁카지노	-12923
▁소용돌이	-12924
▁Cy	-12925
▁로사	-12926
▁게리온	-12927
타르	-12928
▁간다고	-12929
▁대주	-12930
▁학회	-12931
▁웨이트	-12932
▁변질	-12933
▁지그	-12934
▁대대로	-12935
▁덫	-12936
단체	-12937
▁대출	-12938
▁프랭	-12939
▁IDOL	-12940
▁멀쩡히	-12941
▁유토	-12942
곡동	-12943
▁포럼	-12944
▁벅스	-12945
▁자랐	-12946
▁투하	-12947
▁진가	-12948
▁랴	-12949
▁1600	-12950
밀리아	-12951
▁메테오	-12952
▁지날	-12953
▁태세	-12954
▁선제골	-12955
▁풀렸	-12956
▁관동	-12957
▁131	-12958
▁목요일	-12959
터스	-12960
▁갈린다	-12961
인드	-12962
▁준하	-12963
▁스티커	-12964
▁낙인	-12965
▁스위트	-12966
be	-12967
ual	-12968
▁장편	-12969
▁치명상	-12970
▁떠서	-12971
▁Run	-12972
▁무궁화	-12973
▁아이리스	-12974
▁카이사르	-12975
▁보증	-12976
▁생산량	-12977
▁쏟아져	-12978
▁초래	-12979
▁초당	-12980
▁천계	-12981
▁마이트	-12982
▁white	-12983
▁편해	-12984
▁마사키	-12985
▁부평	-12986
▁좌표	-12987
▁밝힌다	-12988
▁케이트	-12989
▁캐서	-12990
▁야쿠자	-12991
▁괴담	-12992
▁새우	-12993
▁SV	-12994
▁염려	-12995
▁물리학	-12996
▁MASTER	-12997
▁광복	-12998
▁가브리엘	-12999
▁벌여	-13000
▁MLB	-13001
▁다단	-13002
하하	-13003
회장	-13004
▁수요일	-13005
▁페르난	-13006
▁사에	-13007
▁축적	-13008
미즈	-13009
▁경성	-13010
▁자유자재	-13011
▁청산	-13012
▁외래	-13013
▁UM	-13014
▁민원	-13015
페르	-13016
▁우루과이	-13017
▁내야수	-13018
▁램프	-13019
▁습한	-13020
▁틀림	-13021
▁아이작	-13022
▁방금	-13023
▁이승만	-13024
▁전편	-13025
▁머무르	-13026
▁우체국	-13027
▁대각	-13028
▁원호	-13029
▁벡터	-13030
▁전교	-13031
▁하야토	-13032
ecial	-13033
▁부도	-13034
▁그걸로	-13035
▁입학식	-13036
▁통신사	-13037
▁단골	-13038
셔츠	-13039
▁동창	-13040
징가	-13041
▁태블릿	-13042
▁SO	-13043
▁백합	-13044
▁마징가	-13045
▁흘러나	-13046
▁School	-13047
무장	-13048
▁다중	-13049
▁빅뱅	-13050
▁호전	-13051
권자	-13052
▁분기점	-13053
▁서초	-13054
▁뒤덮	-13055
▁미타	-13056
▁아야카	-13057
ane	-13058
▁결함	-13059
▁칠레	-13060
▁인맥	-13061
스트로	-13062
▁테이크	-13063
▁기한	-13064
▁대파	-13065
▁나온다는	-13066
▁흑화	-13067
▁달걀	-13068
▁가축	-13069
▁장타율	-13070
▁영미	-13071
▁경매	-13072
▁김전	-13073
▁Rec	-13074
▁강성	-13075
▁무너져	-13076
▁으리라	-13077
▁도도	-13078
▁주방	-13079
▁한지라	-13080
▁지상파	-13081
▁마커	-13082
▁소실	-13083
▁Sound	-13084
▁궁지	-13085
▁깨어난	-13086
▁탄도	-13087
▁Art	-13088
▁미시	-13089
▁다룬다	-13090
범죄	-13091
Fat	-13092
▁증권	-13093
▁마운트	-13094
▁홍준표	-13095
▁차려	-13096
▁취해	-13097
▁박준	-13098
▁재위	-13099
▁사쿠라이	-13100
▁묶여	-13101
▁막바지	-13102
▁피드백	-13103
▁쉘	-13104
▁웃긴	-13105
ope	-13106
▁제시카	-13107
▁여고생	-13108
▁허구	-13109
▁don	-13110
▁마이너스	-13111
ret	-13112
▁휘둘러	-13113
드립	-13114
마르	-13115
▁합당	-13116
▁대법원	-13117
▁Arm	-13118
▁김희	-13119
▁베가	-13120
▁인내	-13121
▁BAS	-13122
니즘	-13123
티어	-13124
▁끈질	-13125
▁아루	-13126
▁피에	-13127
▁어인	-13128
▁적료	-13129
▁바뀔	-13130
▁way	-13131
▁레지스	-13132
퇴근	-13133
▁계열사	-13134
▁Femme	-13135
▁리트	-13136
▁일련	-13137
베르트	-13138
▁소설가	-13139
▁마모루	-13140
▁루카스	-13141
▁히노	-13142
바퀴	-13143
▁강적	-13144
▁시집	-13145
▁괄	-13146
▁컨트롤러	-13147
▁캐롤	-13148
▁울려	-13149
▁고속도	-13150
▁로스앤	-13151
▁로스앤젤레스	-13152
그러	-13153
수수	-13154
어찌	-13155
▁완수	-13156
▁이마트	-13157
▁부츠	-13158
▁쫓기	-13159
▁고속버스	-13160
▁바이스	-13161
▁EM	-13162
▁매수	-13163
▁헌신	-13164
▁그닥	-13165
일으	-13166
▁불러일으	-13167
▁세르비아	-13168
▁Rev	-13169
▁Cat	-13170
▁소피아	-13171
▁박주	-13172
ision	-13173
▁라드	-13174
대교	-13175
▁굴려	-13176
▁깎이	-13177
▁경희	-13178
▁당나라	-13179
행위	-13180
▁기밀	-13181
▁플래닛	-13182
▁두려워하	-13183
재판	-13184
▁양국	-13185
▁생겨나	-13186
▁스코프	-13187
▁비시	-13188
▁고어	-13189
▁작인	-13190
▁리베	-13191
▁소행	-13192
▁오너	-13193
▁간략	-13194
▁계좌	-13195
▁두부	-13196
에이터	-13197
▁작별	-13198
elf	-13199
▁WE	-13200
▁브라더	-13201
▁Ge	-13202
▁동래	-13203
▁VIP	-13204
▁김전일	-13205
▁부식	-13206
▁어드밴스	-13207
▁프로리그	-13208
▁발칸	-13209
▁자진	-13210
▁태그팀	-13211
▁어찌어찌	-13212
▁레이터	-13213
▁총괄	-13214
▁모친	-13215
▁원천	-13216
▁슈퍼스타	-13217
▁DO	-13218
▁실무	-13219
▁묻히	-13220
▁페더	-13221
▁공방전	-13222
▁키가	-13223
▁무작정	-13224
▁불멸	-13225
▁일보	-13226
▁싣	-13227
야샤	-13228
▁이누야샤	-13229
▁아닙	-13230
즈카	-13231
Fatale	-13232
▁빨강	-13233
▁이가	-13234
▁신다	-13235
▁지령	-13236
▁FemmeFatale	-13237
쿠로	-13238
▁쿠르	-13239
▁피처	-13240
▁입술	-13241
▁극소수	-13242
we	-13243
▁식신	-13244
▁꽝	-13245
수스	-13246
▁경량	-13247
▁그놈	-13248
▁쪼개	-13249
▁발전기	-13250
▁사용법	-13251
▁파산	-13252
▁편대	-13253
▁덥	-13254
▁우크라	-13255
str	-13256
▁석궁	-13257
▁1961	-13258
▁할리우드	-13259
▁치아	-13260
▁저리	-13261
▁군기	-13262
▁족장	-13263
▁시궁	-13264
▁크로니클	-13265
▁나진	-13266
▁여당	-13267
▁술법	-13268
▁일으킬	-13269
▁악한	-13270
▁하세	-13271
ational	-13272
▁못한다는	-13273
▁기마	-13274
▁Yeah	-13275
▁제멋	-13276
▁대잠	-13277
▁예명	-13278
▁후한	-13279
▁다이나	-13280
SS	-13281
꿈치	-13282
▁마작	-13283
생긴	-13284
▁묻혔	-13285
▁성도	-13286
▁다던가	-13287
▁자취	-13288
▁진작	-13289
수아	-13290
카즈	-13291
▁끼어들	-13292
▁ㄱ	-13293
▁황태자	-13294
ouse	-13295
AG	-13296
▁공로	-13297
▁방황	-13298
▁쓸데없	-13299
▁허세	-13300
▁회화	-13301
▁넵	-13302
▁연금술	-13303
▁그려지	-13304
▁정계	-13305
▁수락	-13306
▁반말	-13307
▁이에	-13308
▁이스터	-13309
▁에이전트	-13310
▁소진	-13311
▁준다면	-13312
▁화수	-13313
같이	-13314
▁아의	-13315
▁후타	-13316
▁광석	-13317
▁양파	-13318
▁혼종	-13319
appy	-13320
▁미츠루	-13321
▁얼핏	-13322
▁초필	-13323
▁NHK	-13324
▁렸	-13325
▁정명	-13326
ORE	-13327
▁가명	-13328
▁섬유	-13329
▁호노카	-13330
▁배지	-13331
▁Order	-13332
▁신디	-13333
▁어떨	-13334
▁하임	-13335
▁효과음	-13336
▁아그	-13337
▁악세	-13338
▁유로파	-13339
▁반환	-13340
▁팝픈	-13341
▁팝픈뮤직	-13342
▁껄	-13343
▁소심	-13344
▁1100	-13345
▁창업	-13346
케인	-13347
▁박힌	-13348
▁수준급	-13349
▁병단	-13350
라이나	-13351
▁하워드	-13352
▁MD	-13353
▁헬스	-13354
휴일	-13355
▁스칼렛	-13356
▁양키스	-13357
▁스플래시	-13358
▁하부	-13359
투아	-13360
▁네모	-13361
▁토론토	-13362
▁키퍼	-13363
▁이치로	-13364
언정	-13365
▁쏜다	-13366
▁아즈사	-13367
▁바하	-13368
▁검은색	-13369
▁애당초	-13370
▁Elect	-13371
▁양현	-13372
▁잘리	-13373
▁키리토	-13374
▁급기야	-13375
▁나왔으며	-13376
▁교섭	-13377
▁주범	-13378
▁성채	-13379
▁br	-13380
▁엄지	-13381
▁점거	-13382
▁천적	-13383
ness	-13384
▁당원	-13385
▁코카	-13386
▁제정신	-13387
▁기미	-13388
▁주작	-13389
▁카도	-13390
▁택배	-13391
▁김혜	-13392
델피아	-13393
▁EXH	-13394
▁필라델피아	-13395
▁적발	-13396
▁정립	-13397
▁자잘	-13398
▁완전체	-13399
▁상회	-13400
▁삼거리	-13401
축구	-13402
▁한몫	-13403
▁TCG	-13404
▁펄스	-13405
▁카가	-13406
▁미지수	-13407
▁신주쿠	-13408
▁후일담	-13409
▁블레이즈	-13410
▁프로세서	-13411
▁아멜	-13412
시계	-13413
▁소피	-13414
▁보인다는	-13415
▁교주	-13416
▁폭동	-13417
▁갑작스럽	-13418
▁과부	-13419
▁시엘	-13420
▁CON	-13421
▁미라클	-13422
▁루이지	-13423
▁좌익수	-13424
▁옵티머스	-13425
▁어비스	-13426
▁이안	-13427
▁서드	-13428
▁매진	-13429
▁생겨났	-13430
▁깬	-13431
▁중얼	-13432
▁콜로니	-13433
▁당주	-13434
▁복싱	-13435
▁땜	-13436
투수	-13437
▁연예계	-13438
▁요미우리	-13439
▁조형	-13440
▁RG	-13441
▁말장난	-13442
inc	-13443
▁라자	-13444
▁전리품	-13445
▁선발투수	-13446
▁로만	-13447
▁조운	-13448
▁결장	-13449
▁제르	-13450
▁태종	-13451
▁프랑켄	-13452
▁깊숙	-13453
▁종일	-13454
▁광범	-13455
▁프론트	-13456
▁나고	-13457
▁스크래	-13458
저트	-13459
▁붙여서	-13460
▁수평	-13461
▁운항	-13462
▁지망	-13463
▁돌아간	-13464
▁쓸모없	-13465
▁다인	-13466
▁대사관	-13467
▁빼돌	-13468
▁적색	-13469
히트	-13470
사이드	-13471
▁스왑	-13472
▁후궁	-13473
▁냉전	-13474
▁본디	-13475
▁사이퍼	-13476
▁고령	-13477
▁양호	-13478
그룹	-13479
▁휴일	-13480
▁댔	-13481
▁빠질	-13482
우루스	-13483
▁경장	-13484
날드	-13485
▁214	-13486
▁리노	-13487
▁도리어	-13488
▁키워드	-13489
▁SHOW	-13490
▁부추	-13491
▁폴더	-13492
돼지	-13493
▁피곤	-13494
▁호세	-13495
▁이노우에	-13496
▁리브	-13497
▁봐선	-13498
▁도호	-13499
▁dis	-13500
IV	-13501
▁볼프	-13502
▁재고	-13503
▁탄종	-13504
▁밀어주	-13505
▁작살	-13506
제국	-13507
▁소이	-13508
▁일쑤	-13509
▁놀림	-13510
▁유포	-13511
데아	-13512
▁손흥	-13513
▁당기	-13514
▁정거	-13515
사의	-13516
▁기온	-13517
▁비토	-13518
▁임창	-13519
▁도전자	-13520
▁든가	-13521
▁고독	-13522
▁맞히	-13523
▁강해졌	-13524
▁공휴일	-13525
▁히데요시	-13526
day	-13527
▁교란	-13528
▁당분	-13529
▁정은	-13530
▁압살	-13531
▁성추	-13532
▁프런트	-13533
▁world	-13534
▁ㄴ	-13535
▁유서	-13536
▁She	-13537
▁강유	-13538
▁대표작	-13539
its	-13540
▁산악	-13541
▁다이브	-13542
▁beatmania	-13543
▁노숙	-13544
▁명작	-13545
▁신이치	-13546
▁Da	-13547
▁루터	-13548
▁속삭	-13549
omb	-13550
▁토하	-13551
▁후안	-13552
▁불사조	-13553
▁아지트	-13554
투표	-13555
ham	-13556
퍼런스	-13557
▁340	-13558
▁도쿠가와	-13559
▁시한	-13560
▁승기	-13561
▁더스트	-13562
▁예비군	-13563
▁초토	-13564
▁맞춤	-13565
▁정교회	-13566
▁건전	-13567
▁섭외	-13568
▁까닭	-13569
▁언행	-13570
▁조인	-13571
▁난전	-13572
▁콜라보레이션	-13573
▁킹스	-13574
▁손흥민	-13575
▁정류소	-13576
▁셀프	-13577
다닌다	-13578
▁탄소	-13579
▁141	-13580
▁따라오	-13581
▁에리카	-13582
▁애프	-13583
▁툼	-13584
▁직감	-13585
▁상속	-13586
▁윌슨	-13587
▁개인전	-13588
▁토탈	-13589
EX	-13590
▁레스터	-13591
▁행태	-13592
▁제이드	-13593
▁오버로드	-13594
▁쟁탈	-13595
▁갇힌	-13596
▁스폰지	-13597
▁여사	-13598
아티아	-13599
▁확연히	-13600
▁텔레비전	-13601
▁크로아티아	-13602
▁쩔	-13603
▁naver	-13604
▁사부	-13605
▁해수	-13606
▁날아간다	-13607
▁엑소	-13608
▁프로이센	-13609
무진	-13610
▁상대식	-13611
세데스	-13612
▁박격포	-13613
▁불가사의	-13614
▁메르세데스	-13615
댓말	-13616
▁한조	-13617
▁게임기	-13618
▁존댓말	-13619
▁폭발물	-13620
▁움직인다	-13621
▁오클	-13622
ious	-13623
▁프로그래밍	-13624
▁ap	-13625
▁셜록	-13626
▁찐	-13627
▁창당	-13628
▁느냐는	-13629
▁공익	-13630
▁구자	-13631
▁어처	-13632
▁캡콤	-13633
▁출퇴근	-13634
▁현명	-13635
▁트린	-13636
▁휘말리	-13637
▁액세서리	-13638
==	-13639
▁미성년자	-13640
▁다뤄	-13641
▁장병	-13642
▁도피	-13643
▁오모	-13644
▁합창	-13645
▁자연스레	-13646
▁폭사	-13647
▁글러브	-13648
▁하드코어	-13649
▁모여서	-13650
▁SW	-13651
▁동봉	-13652
▁스크래치	-13653
▁김창	-13654
▁정거장	-13655
▁상권	-13656
▁옥타	-13657
▁제식	-13658
▁광범위	-13659
▁무거	-13660
▁좀비	-13661
인간	-13662
▁증세	-13663
▁신축	-13664
ivers	-13665
▁te	-13666
▁거세	-13667
▁지자	-13668
▁싱어	-13669
▁양주	-13670
▁위즈	-13671
▁이우	-13672
▁입맛	-13673
▁까먹	-13674
▁스파르타	-13675
27	-13676
▁시그마	-13677
▁^	-13678
▁바우	-13679
▁평원	-13680
▁Not	-13681
▁표본	-13682
요환	-13683
▁Ke	-13684
▁다정	-13685
▁로망	-13686
▁군함	-13687
▁서원	-13688
▁저번	-13689
▁종사	-13690
패스	-13691
▁막부	-13692
▁RAW	-13693
▁접어들	-13694
ANC	-13695
▁진군	-13696
▁상반기	-13697
▁네메	-13698
▁장안	-13699
aut	-13700
▁리액션	-13701
▁든든	-13702
▁위탁	-13703
▁망가지	-13704
▁윌리엄스	-13705
▁코시	-13706
던트	-13707
▁화자	-13708
▁공동체	-13709
매니아	-13710
▁피라미	-13711
olution	-13712
▁DEF	-13713
▁술탄	-13714
▁세션	-13715
▁알아채	-13716
▁상표	-13717
▁사이오	-13718
ERS	-13719
▁라지	-13720
▁반다이	-13721
▁위화	-13722
▁국력	-13723
▁설레	-13724
▁러셀	-13725
▁프리즈	-13726
▁꼬이	-13727
▁아부	-13728
▁송구	-13729
23	-13730
▁치이	-13731
데르	-13732
▁체질	-13733
▁프리스트	-13734
▁깠	-13735
▁임요환	-13736
▁With	-13737
레미	-13738
▁캐서린	-13739
▁헌데	-13740
▁질량	-13741
▁마음껏	-13742
▁찍힌	-13743
▁망자	-13744
▁아역	-13745
▁오재	-13746
▁선보인	-13747
▁정세	-13748
▁군사력	-13749
▁브릿지	-13750
▁라거나	-13751
▁체이	-13752
▁Every	-13753
▁정장	-13754
▁와우	-13755
▁마이어	-13756
UC	-13757
▁전전	-13758
▁치뤄	-13759
▁쌈	-13760
▁뾰	-13761
▁꼭두	-13762
▁해커	-13763
▁랫	-13764
라이어	-13765
▁백미	-13766
olog	-13767
▁1943	-13768
▁김준호	-13769
▁왼팔	-13770
▁310	-13771
▁어처구니	-13772
스톤	-13773
▁제구	-13774
르기	-13775
▁카바	-13776
▁탈옥	-13777
▁느껴질	-13778
무늬	-13779
▁외출	-13780
▁손바닥	-13781
아아	-13782
▁코이치	-13783
▁방정	-13784
▁다른데	-13785
▁일으킨다	-13786
▁관념	-13787
▁박병	-13788
▁헷갈리	-13789
45	-13790
▁안나	-13791
▁듀티	-13792
▁평민	-13793
▁열받	-13794
▁집결	-13795
▁환각	-13796
▁수원시	-13797
▁골리	-13798
▁옐로	-13799
▁007	-13800
▁시즈카	-13801
▁생각나	-13802
▁무상	-13803
66	-13804
▁짤방	-13805
▁최면	-13806
▁쾌속	-13807
게요	-13808
▁사다	-13809
▁드러낸	-13810
▁해한다	-13811
▁기하	-13812
▁낙원	-13813
▁신원	-13814
▁최우수	-13815
▁대문	-13816
▁도모	-13817
▁렴	-13818
▁렀다	-13819
▁주파수	-13820
무니	-13821
▁나나미	-13822
29	-13823
▁생사	-13824
▁순진	-13825
▁표출	-13826
▁Chr	-13827
▁미야자키	-13828
지리	-13829
▁부서지	-13830
▁FR	-13831
▁후진	-13832
▁해운대	-13833
▁가솔	-13834
▁나날	-13835
▁피츠	-13836
▁촛	-13837
▁터트리	-13838
▁르네	-13839
▁추석	-13840
▁원제	-13841
▁경찰관	-13842
▁김정은	-13843
▁보답	-13844
▁시저	-13845
▁**	-13846
▁TB	-13847
▁정중	-13848
▁스루	-13849
▁시노부	-13850
▁호르	-13851
▁분경	-13852
▁커터	-13853
▁대명사	-13854
▁김세	-13855
▁해서인지	-13856
▁Get	-13857
▁대부	-13858
▁우시	-13859
▁끌어내	-13860
▁화요일	-13861
가요	-13862
▁기총	-13863
icro	-13864
▁소수자	-13865
조각	-13866
▁Boy	-13867
▁사과문	-13868
▁벵	-13869
▁Skill	-13870
▁불상	-13871
즈마	-13872
▁CT	-13873
▁연희	-13874
▁비하인드	-13875
▁가출	-13876
▁토네이도	-13877
▁메라	-13878
▁류현진	-13879
▁재임	-13880
▁는군	-13881
▁흡연	-13882
ty	-13883
▁빡빡	-13884
데기	-13885
▁키메라	-13886
▁1946	-13887
▁예배	-13888
▁부여받	-13889
▁if	-13890
▁줄곧	-13891
▁탐욕	-13892
▁영화판	-13893
▁Har	-13894
▁720	-13895
다간	-13896
▁타고난	-13897
ny	-13898
나드	-13899
▁중앙선	-13900
▁자발	-13901
▁지름	-13902
ely	-13903
마치	-13904
베르토	-13905
reat	-13906
▁무자비	-13907
베리아	-13908
▁양아치	-13909
노기	-13910
리에	-13911
킨스	-13912
▁무협	-13913
▁지침	-13914
▁추첨	-13915
▁에덴	-13916
▁한스	-13917
▁슈타인	-13918
▁1942	-13919
▁Des	-13920
▁당당히	-13921
▁커리	-13922
▁아폴로	-13923
▁맛보	-13924
▁반칙	-13925
▁스님	-13926
▁민영	-13927
받침	-13928
▁요건	-13929
▁마더	-13930
▁인즈	-13931
▁켄타	-13932
▁금기	-13933
▁1954	-13934
▁육지	-13935
▁줄일	-13936
▁후유증	-13937
▁홍대	-13938
▁캉	-13939
▁추이	-13940
▁마누	-13941
▁바오	-13942
▁영분	-13943
소스	-13944
▁혜성	-13945
▁발상	-13946
▁북방	-13947
▁담당자	-13948
▁받아들였	-13949
▁리포트	-13950
▁걸작	-13951
▁취직	-13952
▁되돌려	-13953
▁리젠	-13954
▁=,	-13955
▁Ab	-13956
▁만세	-13957
▁의미심장	-13958
▁초고	-13959
▁진흙	-13960
▁서부터	-13961
의사	-13962
▁이동하	-13963
▁섬세	-13964
▁윈스턴	-13965
▁설득력	-13966
▁>,	-13967
▁1958	-13968
▁영기	-13969
▁웨일	-13970
리우스	-13971
▁꺼지	-13972
▁생물학	-13973
▁480	-13974
▁이어인	-13975
▁DA	-13976
▁돋보	-13977
▁부메	-13978
▁드리프트	-13979
▁교화	-13980
▁떨구	-13981
▁단테	-13982
▁예리	-13983
ters	-13984
▁고를	-13985
▁단조	-13986
▁체가	-13987
라이즈	-13988
▁171	-13989
▁사마의	-13990
▁겸하	-13991
▁대용	-13992
▁방어선	-13993
▁ㅅ	-13994
▁졸개	-13995
▁매복	-13996
▁시력	-13997
▁수작	-13998
ient	-13999
▁CCTV	-14000
▁듀엣	-14001
테스	-14002
▁다이어트	-14003
▁가든	-14004
▁충성심	-14005
▁미상	-14006
▁Big	-14007
▁괴도	-14008
▁PSP	-14009
▁부메랑	-14010
▁미디	-14011
▁견인	-14012
▁전태	-14013
▁석화	-14014
▁차종	-14015
▁유행어	-14016
▁성녀	-14017
▁성체	-14018
▁조율	-14019
▁츠루	-14020
▁Tri	-14021
▁달아나	-14022
▁쫓아가	-14023
▁1900	-14024
▁양념	-14025
▁튜너	-14026
▁괴롭힘	-14027
▁협곡	-14028
▁총사령	-14029
▁굴복	-14030
▁제이스	-14031
▁피리	-14032
▁카운티	-14033
▁만류	-14034
▁임관	-14035
▁자문	-14036
▁UR	-14037
▁문헌	-14038
▁181	-14039
▁세간	-14040
▁png	-14041
크리트	-14042
▁8000	-14043
▁트림	-14044
▁선공	-14045
▁복음	-14046
▁입힌	-14047
▁경쟁력	-14048
▁DT	-14049
▁잉크	-14050
▁어워드	-14051
▁메스	-14052
▁kn	-14053
▁군벌	-14054
▁스탠다드	-14055
▁이과	-14056
칼리	-14057
▁바바	-14058
▁기라	-14059
▁고분	-14060
▁망해	-14061
▁빅터	-14062
▁상원	-14063
▁연혁	-14064
▁잠금	-14065
▁태연	-14066
▁Ext	-14067
▁입체	-14068
▁유대인	-14069
▁막힌	-14070
▁방랑	-14071
▁봉기	-14072
▁파장	-14073
▁미련	-14074
▁XP	-14075
▁만회	-14076
▁기만	-14077
▁빌라	-14078
▁어우	-14079
▁데카	-14080
▁채소	-14081
▁오피스	-14082
▁무의	-14083
▁생몰	-14084
▁씁쓸	-14085
▁조장	-14086
▁흘려	-14087
▁원격	-14088
▁뒤이	-14089
▁천황	-14090
클레스	-14091
프레스	-14092
▁초식	-14093
▁기관차	-14094
▁동참	-14095
▁어둡	-14096
▁무너진	-14097
토시	-14098
▁스펙터	-14099
▁id	-14100
▁시동	-14101
▁샤이닝	-14102
느니	-14103
▁격노	-14104
ful	-14105
ship	-14106
uch	-14107
▁RS	-14108
▁원년	-14109
▁직관	-14110
bl	-14111
▁성균	-14112
▁클락	-14113
85	-14114
▁박세	-14115
▁부화	-14116
▁가치관	-14117
▁갈기	-14118
▁제비	-14119
▁창의	-14120
▁1941	-14121
▁귀중	-14122
▁츠카사	-14123
▁염소	-14124
▁봉황	-14125
▁오디	-14126
▁최전	-14127
▁통용	-14128
▁가토	-14129
▁샤아	-14130
▁성모	-14131
▁윤종	-14132
▁퍼스	-14133
▁성균관	-14134
▁키운	-14135
▁STAR	-14136
기업	-14137
▁느낀다	-14138
ports	-14139
▁송이	-14140
▁젤다	-14141
▁회고	-14142
▁자위대	-14143
자카	-14144
▁격돌	-14145
▁나츠미	-14146
▁쓰러진다	-14147
▁장기간	-14148
▁EB	-14149
▁피어	-14150
▁내려온	-14151
▁비숍	-14152
▁양면	-14153
▁난동	-14154
▁겨루	-14155
▁틀렸	-14156
▁선체	-14157
▁유감	-14158
▁돌렸	-14159
▁받쳐	-14160
▁학창	-14161
▁히로유키	-14162
▁잠복	-14163
▁증원	-14164
▁드러낸다	-14165
▁역기	-14166
▁밀린다	-14167
▁이성계	-14168
▁모을	-14169
▁송병	-14170
▁쫒아	-14171
▁풍자	-14172
▁디테일	-14173
리케이션	-14174
▁군산	-14175
▁자손	-14176
▁Sil	-14177
▁OO	-14178
▁아제	-14179
▁Inf	-14180
▁뭉치	-14181
▁해지	-14182
▁누군지	-14183
▁수리검	-14184
▁클로즈	-14185
▁노렸	-14186
▁만두	-14187
▁배분	-14188
▁흑백	-14189
▁돌아와서	-14190
▁뫼	-14191
▁웍	-14192
▁서커스	-14193
▁느긋	-14194
▁베니	-14195
▁255	-14196
▁시궁창	-14197
▁텔레콤	-14198
니트	-14199
정역	-14200
▁송도	-14201
▁아테네	-14202
▁White	-14203
레트	-14204
▁KS	-14205
▁한해서	-14206
▁토템	-14207
▁OR	-14208
▁모호	-14209
▁청량	-14210
▁프레데	-14211
▁전년	-14212
▁1948	-14213
▁요일	-14214
▁Bar	-14215
▁여진	-14216
▁불리우	-14217
▁크래	-14218
▁Fre	-14219
▁농어	-14220
버릇	-14221
▁Back	-14222
▁우익수	-14223
▁솔로몬	-14224
▁오드	-14225
▁커브	-14226
▁손녀	-14227
▁Win	-14228
둘러	-14229
▁뽑히	-14230
▁퇴근	-14231
▁판도라	-14232
▁스테이트	-14233
▁콘크리트	-14234
테리	-14235
▁PO	-14236
▁다이너	-14237
▁파키스탄	-14238
혁명	-14239
▁왕궁	-14240
▁그리스도	-14241
산물	-14242
ump	-14243
▁창시	-14244
▁조제	-14245
▁피에르	-14246
26	-14247
▁헤매	-14248
▁진과	-14249
▁특촬	-14250
모사	-14251
▁여의도	-14252
▁성가	-14253
▁재팬	-14254
co	-14255
▁공병	-14256
▁단신	-14257
▁타쿠미	-14258
RAM	-14259
▁치중	-14260
▁열려	-14261
▁던질	-14262
▁바늘	-14263
▁벌칙	-14264
▁왕따	-14265
▁연루	-14266
▁접시	-14267
▁지켰	-14268
호도	-14269
ift	-14270
▁420	-14271
▁착하	-14272
▁qu	-14273
노미야	-14274
▁아울러	-14275
▁바이올린	-14276
▁하와이	-14277
▁폭포	-14278
버릴	-14279
▁간식	-14280
▁태고	-14281
▁고양시	-14282
▁마비노기	-14283
튀기	-14284
▁작렬	-14285
▁초급	-14286
▁색채	-14287
▁초원	-14288
▁아틀레	-14289
▁바쁘	-14290
▁소음기	-14291
▁NG	-14292
▁학계	-14293
▁켄이치	-14294
▁도타	-14295
▁GL	-14296
▁뻥튀기	-14297
▁실험실	-14298
ENT	-14299
▁오덕	-14300
▁카세	-14301
ATION	-14302
▁맏	-14303
▁지독	-14304
▁심리학	-14305
▁러블리	-14306
▁FE	-14307
▁제이크	-14308
▁박민	-14309
▁좀처럼	-14310
▁포털	-14311
▁아픔	-14312
▁허영	-14313
▁텐션	-14314
▁215	-14315
기지	-14316
▁jp	-14317
▁백색	-14318
▁어려우	-14319
▁컨테이너	-14320
▁어지간히	-14321
▁타라	-14322
▁하르	-14323
▁금전	-14324
카스	-14325
▁수소	-14326
▁어중간	-14327
공격	-14328
▁맥도	-14329
▁집정	-14330
▁제멋대로	-14331
▁관악	-14332
▁down	-14333
edia	-14334
▁Sky	-14335
▁정유	-14336
▁자드	-14337
MC	-14338
▁시구	-14339
▁Met	-14340
▁강변	-14341
▁치렀	-14342
▁사토시	-14343
▁친밀	-14344
▁횡단	-14345
레인지	-14346
▁서진	-14347
▁..'	-14348
▁나츠키	-14349
▁메아리	-14350
▁인장	-14351
▁거주지	-14352
▁고려대	-14353
▁프레디	-14354
▁포고	-14355
▁헤딩	-14356
▁갈고리	-14357
▁인기투표	-14358
▁선구	-14359
▁하코	-14360
▁CEO	-14361
▁off	-14362
링크	-14363
▁유엔	-14364
틀링	-14365
▁아론	-14366
▁최성	-14367
▁쇼핑몰	-14368
▁변종	-14369
▁제휴	-14370
▁성폭행	-14371
▁열풍	-14372
▁테크노	-14373
ERT	-14374
▁가차	-14375
▁성서	-14376
▁쇠퇴	-14377
▁욕구	-14378
▁1949	-14379
▁병맛	-14380
▁사육	-14381
ALL	-14382
▁빌미	-14383
각시	-14384
▁실천	-14385
▁이승엽	-14386
모니	-14387
바위	-14388
▁오퍼레이터	-14389
▁FN	-14390
▁라운	-14391
▁앞마당	-14392
▁현존	-14393
▁인프라	-14394
▁갭	-14395
▁Act	-14396
▁듬	-14397
▁광부	-14398
▁서독	-14399
▁안도	-14400
▁양동	-14401
▁육박	-14402
▁엇갈	-14403
▁동선	-14404
▁육식	-14405
▁파업	-14406
▁333	-14407
▁UFO	-14408
▁정현	-14409
▁거제	-14410
▁235	-14411
▁바시	-14412
▁이윽	-14413
▁우기	-14414
▁럽	-14415
▁이윽고	-14416
▁삽화	-14417
▁트레이서	-14418
▁기쁘	-14419
▁208	-14420
▁거물	-14421
▁시중	-14422
▁어머	-14423
▁퍼트	-14424
▁향수	-14425
▁대머리	-14426
득점	-14427
▁도르트	-14428
▁비늘	-14429
▁뇌격	-14430
사우루스	-14431
▁1936	-14432
▁every	-14433
▁어때	-14434
드래	-14435
▁FX	-14436
▁발간	-14437
oud	-14438
▁병영	-14439
▁메소	-14440
▁206	-14441
▁출생지	-14442
케이	-14443
니스탄	-14444
▁런닝맨	-14445
▁유쾌	-14446
▁수배	-14447
▁초동	-14448
▁하렘	-14449
▁체이스	-14450
▁처단	-14451
▁NL	-14452
▁덩크	-14453
▁내비	-14454
▁마장	-14455
▁이를	-14456
▁항속	-14457
어쓰	-14458
▁TD	-14459
▁}{	-14460
▁편제	-14461
▁비행선	-14462
▁패거리	-14463
▁남용	-14464
▁Song	-14465
▁마고	-14466
BM	-14467
▁김하	-14468
▁사다리	-14469
▁나루호도	-14470
▁키바	-14471
less	-14472
▁일지도	-14473
▁멸자	-14474
▁본국	-14475
▁넘어오	-14476
▁디스코	-14477
▁심플	-14478
▁난폭	-14479
▁랄까	-14480
▁지켜야	-14481
▁파고들	-14482
지대	-14483
린스	-14484
▁돌아보	-14485
▁띈	-14486
변속기	-14487
네트	-14488
천동	-14489
▁카멜	-14490
▁미쓰	-14491
▁참패	-14492
▁철회	-14493
▁펼쳐지	-14494
bps	-14495
▁코지마	-14496
ize	-14497
방향	-14498
▁em	-14499
▁비약	-14500
▁가주	-14501
▁팀킬	-14502
▁합방	-14503
▁세츠나	-14504
▁오마주	-14505
▁안타까운	-14506
의회	-14507
▁경인	-14508
나간	-14509
▁May	-14510
VEL	-14511
95	-14512
▁문의	-14513
▁마츠모토	-14514
▁와일드카드	-14515
공화국	-14516
▁계보	-14517
▁댄다	-14518
▁극찬	-14519
▁대여	-14520
▁마그마	-14521
▁배급사	-14522
▁누마	-14523
▁161	-14524
▁850	-14525
▁뭉쳐	-14526
▁가한다	-14527
▁GAM	-14528
▁피라미드	-14529
▁영리	-14530
UB	-14531
▁얀데레	-14532
▁기겁	-14533
▁설사	-14534
▁속옷	-14535
▁우로	-14536
▁빼앗긴	-14537
▁부름	-14538
▁늘어놓	-14539
▁불태우	-14540
▁다구	-14541
▁진해	-14542
ape	-14543
▁스릴	-14544
▁라트	-14545
▁감시자	-14546
▁개틀링	-14547
▁스플릿	-14548
▁젊은이	-14549
▁모를까	-14550
▁ve	-14551
▁김인	-14552
▁얼리	-14553
▁크러	-14554
▁위나라	-14555
▁리오스	-14556
▁헛소리	-14557
▁시킴	-14558
IST	-14559
▁데이브	-14560
마츠	-14561
▁카에데	-14562
▁송곳	-14563
▁도망쳤	-14564
▁모터스	-14565
▁ㅎ	-14566
▁내년	-14567
▁좌석버스	-14568
▁끝판	-14569
▁명인	-14570
▁표방	-14571
▁김태균	-14572
ger	-14573
▁거신	-14574
▁토와	-14575
▁Rain	-14576
▁호대	-14577
▁con	-14578
▁선발전	-14579
▁밴시	-14580
▁성검	-14581
▁RAM	-14582
▁성문	-14583
▁That	-14584
aka	-14585
▁유목	-14586
▁풀백	-14587
▁불가리아	-14588
▁God	-14589
▁독성	-14590
▁페인트	-14591
▁장래	-14592
▁쭈	-14593
▁디에	-14594
▁상대편	-14595
▁북극	-14596
타자	-14597
ita	-14598
▁벽돌	-14599
▁처했	-14600
▁옮긴	-14601
▁끝냈	-14602
▁인피니트	-14603
▁언락	-14604
▁다나카	-14605
▁오미	-14606
▁커넥	-14607
▁정벌	-14608
▁단선	-14609
▁스쳐	-14610
96	-14611
▁RF	-14612
▁떠들	-14613
▁무법	-14614
▁도마뱀	-14615
▁친일	-14616
▁유우야	-14617
▁야기	-14618
▁가까스로	-14619
실히	-14620
▁북두	-14621
▁청색	-14622
▁일자리	-14623
▁Hey	-14624
모자	-14625
▁도르트문트	-14626
▁베라	-14627
▁신시	-14628
▁이복	-14629
▁아이리	-14630
▁정인	-14631
▁단간	-14632
때로	-14633
▁소인	-14634
ORM	-14635
▁버금	-14636
▁290	-14637
▁데려온	-14638
▁Top	-14639
▁심심찮	-14640
▁어린애	-14641
▁채울	-14642
▁하데스	-14643
▁마드	-14644
▁난해	-14645
▁성주	-14646
▁무난히	-14647
▁지아	-14648
▁수레	-14649
▁싸워야	-14650
▁불운	-14651
▁퀑	-14652
▁경위	-14653
▁손수	-14654
▁코스타	-14655
zy	-14656
▁정렬	-14657
▁나기사	-14658
▁알림	-14659
▁영창	-14660
▁끌어들이	-14661
▁플라워	-14662
▁망원	-14663
▁버디	-14664
▁영장	-14665
▁페로	-14666
▁징병	-14667
▁비욘	-14668
▁순교자	-14669
로프	-14670
▁열전	-14671
레인저	-14672
러드	-14673
▁느냐고	-14674
▁데이즈	-14675
▁쓰러졌	-14676
▁복종	-14677
▁여건	-14678
▁마니	-14679
▁선도	-14680
▁대각선	-14681
▁인다	-14682
▁콘테	-14683
▁특출	-14684
▁알프레	-14685
▁정규군	-14686
하니	-14687
▁포이	-14688
▁아닙니다	-14689
▁임하	-14690
▁당분간	-14691
▁야채	-14692
rop	-14693
▁Pe	-14694
▁되려	-14695
▁축구단	-14696
기어	-14697
▁전용기	-14698
▁마른	-14699
▁칼럼	-14700
▁드레이크	-14701
▁대강	-14702
▁석탄	-14703
▁줄줄이	-14704
▁책임자	-14705
▁want	-14706
▁유추	-14707
▁절묘	-14708
▁WAR	-14709
▁서면	-14710
▁으라는	-14711
▁스몰	-14712
IGHT	-14713
▁Battle	-14714
▁역학	-14715
렉트	-14716
▁존속	-14717
▁Moon	-14718
운전	-14719
▁위화감	-14720
76	-14721
▁쳐내	-14722
▁Game	-14723
▁물러났	-14724
▁나선다	-14725
▁자부심	-14726
▁특공대	-14727
▁븐	-14728
▁젯	-14729
암동	-14730
▁울부	-14731
▁미셸	-14732
▁바실	-14733
▁화속	-14734
▁좆	-14735
net	-14736
▁게리	-14737
▁자며	-14738
▁이따	-14739
▁갑판	-14740
▁행동력	-14741
무스	-14742
비우스	-14743
버거	-14744
▁벌어질	-14745
▁1955	-14746
▁매트릭스	-14747
▁칭송	-14748
▁인테르	-14749
▁한다던가	-14750
▁내륙	-14751
▁외로	-14752
▁우습	-14753
▁일직	-14754
▁TEC	-14755
OK	-14756
▁곡선	-14757
▁중성	-14758
▁친위대	-14759
▁꼭두각시	-14760
포스	-14761
▁코로나	-14762
▁스케이팅	-14763
▁노브	-14764
▁SUP	-14765
▁역전승	-14766
com	-14767
ara	-14768
▁최재	-14769
▁호타	-14770
▁스케치	-14771
▁구만	-14772
▁선풍	-14773
블랜드	-14774
ward	-14775
▁괴로워	-14776
▁들어선	-14777
▁성추행	-14778
▁more	-14779
메다	-14780
▁과실	-14781
작전	-14782
리아나	-14783
▁클리블랜드	-14784
▁가창력	-14785
토록	-14786
bo	-14787
▁레트	-14788
▁새로이	-14789
▁반자동	-14790
▁라이터	-14791
ren	-14792
▁KG	-14793
▁조그	-14794
▁총통	-14795
▁허리케인	-14796
▁뚫리	-14797
▁분사	-14798
▁영락	-14799
▁튕기	-14800
▁max	-14801
▁이신	-14802
▁태수	-14803
▁민지	-14804
▁새해	-14805
▁212	-14806
row	-14807
▁플레이트	-14808
▁Bra	-14809
▁NS	-14810
▁코나미	-14811
▁독재자	-14812
▁유명세	-14813
버드	-14814
▁터미네이터	-14815
▁북유럽	-14816
▁인민공화국	-14817
▁골대	-14818
▁개드립	-14819
▁광저우	-14820
▁아란	-14821
▁뛸	-14822
▁국사	-14823
▁바란	-14824
여행	-14825
▁저러	-14826
▁킬로	-14827
▁흑룡	-14828
▁이제동	-14829
▁데프	-14830
▁LCD	-14831
▁Dragon	-14832
▁LS	-14833
▁안기	-14834
▁남구	-14835
연합	-14836
▁꺼리	-14837
▁내심	-14838
▁카야	-14839
▁토요타	-14840
▁의리	-14841
▁진나라	-14842
니엄	-14843
▁피겨	-14844
▁밸리	-14845
▁깨우	-14846
▁사이언	-14847
▁베이스볼	-14848
▁치부	-14849
▁교육부	-14850
▁강당	-14851
▁피고	-14852
▁경이	-14853
▁가솔린	-14854
▁경호원	-14855
▁가메	-14856
▁Special	-14857
▁빗나가	-14858
클리	-14859
▁부과	-14860
▁할당	-14861
▁1959	-14862
▁루시퍼	-14863
▁밀레니엄	-14864
▁밀어붙이	-14865
짜기	-14866
▁빠져서	-14867
▁치타	-14868
뜨린다	-14869
▁나고야	-14870
▁둘러싼	-14871
▁대담	-14872
▁오반	-14873
▁본문	-14874
▁소중히	-14875
▁왕녀	-14876
▁자석	-14877
▁파괴자	-14878
▁호스트	-14879
▁나데	-14880
▁울부짖	-14881
▁해임	-14882
▁단다	-14883
▁팩토리	-14884
▁앙리	-14885
▁추월	-14886
▁치도	-14887
▁목표물	-14888
▁탤	-14889
▁알아듣	-14890
▁발산	-14891
▁티코	-14892
▁연방군	-14893
▁캬	-14894
코프	-14895
▁관제	-14896
▁광화	-14897
▁와이드	-14898
▁플로리	-14899
led	-14900
▁크림슨	-14901
▁핵무기	-14902
▁원동	-14903
▁001	-14904
▁래스	-14905
▁도미니	-14906
▁벗어날	-14907
부대	-14908
aven	-14909
▁노마	-14910
▁의석	-14911
▁협공	-14912
러기	-14913
▁가변	-14914
▁조달	-14915
▁이룬다	-14916
▁십상	-14917
▁카트라이더	-14918
럭스	-14919
▁스트레이트	-14920
▁머들	-14921
▁전투원	-14922
▁행선	-14923
▁초회	-14924
▁쿠미	-14925
▁지친	-14926
▁wiz	-14927
▁뭣	-14928
▁가가	-14929
▁광양	-14930
▁잔당	-14931
▁펜스	-14932
▁서점	-14933
▁종자	-14934
▁가네	-14935
▁레고	-14936
▁서울역	-14937
▁몰린	-14938
▁달라서	-14939
▁넘길	-14940
▁카즈키	-14941
▁Amer	-14942
▁Track	-14943
▁마티	-14944
LD	-14945
▁강연	-14946
▁뮤즈	-14947
테나	-14948
▁벨벳	-14949
▁임프	-14950
▁이치카	-14951
▁안드로메다	-14952
▁우사	-14953
▁Pop	-14954
▁귀도	-14955
▁특허	-14956
▁바쳐	-14957
▁활주	-14958
▁Hot	-14959
▁무성	-14960
▁니키	-14961
▁주군	-14962
▁1956	-14963
▁FFFF	-14964
▁사파이어	-14965
그레	-14966
히사	-14967
▁장막	-14968
▁평했	-14969
▁협약	-14970
▁온전히	-14971
▁기와	-14972
▁김현수	-14973
▁뒷받침	-14974
▁심리전	-14975
▁이로	-14976
▁단단히	-14977
▁칠흑	-14978
▁생겨난	-14979
하이	-14980
▁피니시	-14981
▁미완	-14982
▁베드	-14983
▁날릴	-14984
▁레미	-14985
▁토의	-14986
▁플러그	-14987
▁슐	-14988
▁부회장	-14989
▁여겨진다	-14990
▁무심	-14991
▁슬퍼하	-14992
▁DAY	-14993
▁마포	-14994
▁인분	-14995
▁TG	-14996
▁다라	-14997
▁아산	-14998
▁입성	-14999
▁두드러지	-15000
▁스켈	-15001
▁온화	-15002
▁조회	-15003
▁포르노	-15004
▁백신	-15005
바키아	-15006
▁새겨진	-15007
▁이시다	-15008
▁지갑	-15009
패드	-15010
▁게이밍	-15011
▁이상민	-15012
▁유민	-15013
▁냐면서	-15014
▁신령	-15015
▁계약자	-15016
▁Cont	-15017
▁오스카	-15018
▁합산	-15019
▁몰아내	-15020
▁신공	-15021
겨서	-15022
내기	-15023
▁차남	-15024
▁도망친	-15025
왜란	-15026
▁석방	-15027
▁익스트림	-15028
▁랄프	-15029
▁빈스	-15030
▁파드	-15031
▁에스파	-15032
▁저거	-15033
▁서사	-15034
▁they	-15035
▁네메시스	-15036
▁경신	-15037
▁등산	-15038
▁이분	-15039
▁적정	-15040
▁프랑스군	-15041
▁선진국	-15042
▁트리오	-15043
▁임진왜란	-15044
▁점하	-15045
▁마는	-15046
▁멧돼지	-15047
▁첩보	-15048
▁와타루	-15049
누르	-15050
▁TN	-15051
▁음양	-15052
▁마늘	-15053
▁광주광역시	-15054
▁각기	-15055
▁살릴	-15056
▁이화	-15057
▁젠지	-15058
▁탄다	-15059
▁택하	-15060
▁대적	-15061
▁증후	-15062
▁명령어	-15063
▁황무지	-15064
▁tw	-15065
▁내려찍	-15066
▁쉔	-15067
▁위인	-15068
▁키움	-15069
▁너구리	-15070
▁바쁜	-15071
▁코리	-15072
▁1939	-15073
▁바이올렛	-15074
▁패트릭	-15075
▁빵빵	-15076
▁아치	-15077
▁창세기	-15078
▁데이빗	-15079
▁뺏기	-15080
▁금성	-15081
지물	-15082
▁이지스	-15083
▁주스	-15084
▁기병대	-15085
▁부풀	-15086
▁됐으며	-15087
▁단절	-15088
▁올려서	-15089
▁플라잉	-15090
▁오피	-15091
▁청동	-15092
▁207	-15093
▁baby	-15094
▁차세대	-15095
▁빨려	-15096
▁우와	-15097
▁팔꿈치	-15098
34	-15099
▁넵튠	-15100
▁대한항공	-15101
▁불기	-15102
▁동물원	-15103
쿠버	-15104
▁녹여	-15105
▁새신	-15106
▁단말기	-15107
▁원한다면	-15108
▁슈타	-15109
▁뾰족	-15110
▁애틀	-15111
▁역관	-15112
▁나폴리	-15113
▁520	-15114
▁노랑	-15115
▁위생	-15116
▁초중	-15117
▁통한다	-15118
▁로자	-15119
ands	-15120
▁기타리스트	-15121
두근	-15122
▁티탄	-15123
▁내려놓	-15124
▁COM	-15125
▁외야	-15126
ien	-15127
▁교재	-15128
▁바사	-15129
▁는데도	-15130
▁루리웹	-15131
바시	-15132
▁구세	-15133
▁으시	-15134
▁매지컬	-15135
▁따라다니	-15136
▁푸드	-15137
▁켠	-15138
▁박기	-15139
▁겉보기	-15140
▁이터널	-15141
▁관대	-15142
ze	-15143
▁섰	-15144
▁반가	-15145
▁어긋나	-15146
▁트레버	-15147
▁화장품	-15148
▁에우	-15149
▁BASIC	-15150
▁단백	-15151
▁분자	-15152
▁리바이	-15153
▁영재	-15154
▁각색	-15155
▁모티	-15156
▁황자	-15157
▁미뤄	-15158
▁777	-15159
▁터무니	-15160
뜨릴	-15161
▁문호	-15162
아스	-15163
▁정진	-15164
▁제품군	-15165
다르	-15166
▁나우	-15167
▁무너졌	-15168
▁탈것	-15169
▁재해	-15170
▁배고	-15171
▁천체	-15172
캐스트	-15173
▁고스란히	-15174
▁PA	-15175
▁인신	-15176
▁이관	-15177
orts	-15178
▁조비	-15179
▁IDOLM	-15180
▁친근	-15181
▁의대	-15182
▁붕대	-15183
▁철벽	-15184
큐버스	-15185
▁체급	-15186
▁집정관	-15187
▁도널드	-15188
▁애프터	-15189
▁타츠야	-15190
방사기	-15191
▁화염방사기	-15192
▁Mir	-15193
▁최적화	-15194
▁눈부	-15195
▁구치	-15196
▁비정	-15197
▁타협	-15198
▁서문	-15199
▁진한	-15200
을지도	-15201
▁사면	-15202
▁good	-15203
▁들통	-15204
▁상정	-15205
ited	-15206
▁그래프	-15207
▁호라이	-15208
▁크레이지	-15209
용차	-15210
준호	-15211
▁로로	-15212
▁포화	-15213
▁배럴	-15214
▁정제	-15215
▁항로	-15216
▁블라디미르	-15217
중국	-15218
▁빼내	-15219
▁네타	-15220
▁다트	-15221
▁독설	-15222
▁심슨	-15223
▁Bur	-15224
▁미공	-15225
▁성급	-15226
▁단연	-15227
▁동거	-15228
▁209	-15229
▁나타날	-15230
▁강호동	-15231
▁비어	-15232
play	-15233
▁Yes	-15234
▁흐트	-15235
▁콜롬비아	-15236
▁감속	-15237
▁그지	-15238
▁일부분	-15239
▁소모품	-15240
▁배틀필드	-15241
▁유세	-15242
▁Project	-15243
▁보유자	-15244
▁나지	-15245
▁무어	-15246
▁송파	-15247
▁전투복	-15248
▁밀쳐	-15249
▁상류	-15250
▁동포	-15251
파니	-15252
▁다이렉트	-15253
▁사시	-15254
▁아껴	-15255
▁로드리	-15256
▁지휘자	-15257
▁선명	-15258
▁는구나	-15259
▁데려다	-15260
▁over	-15261
▁한결	-15262
▁끌어올리	-15263
▁TF	-15264
▁쏴서	-15265
▁중령	-15266
블랑	-15267
▁투타	-15268
▁펼쳐진	-15269
▁이라든가	-15270
▁진다는	-15271
▁감도	-15272
▁사설	-15273
▁청하	-15274
▁키웠	-15275
위치	-15276
▁주성	-15277
▁col	-15278
au	-15279
▁살린	-15280
▁일갈	-15281
▁전류	-15282
둘기	-15283
▁로마자	-15284
▁민병대	-15285
▁탈리	-15286
▁나시	-15287
▁마코	-15288
▁억압	-15289
▁두꺼운	-15290
▁스탠딩	-15291
▁비범	-15292
▁자의	-15293
▁키나	-15294
▁Sur	-15295
▁시제	-15296
▁1400	-15297
▁안토니오	-15298
▁대제	-15299
▁채굴	-15300
▁투기	-15301
▁솔리드	-15302
▁~'	-15303
▁간장	-15304
▁이어폰	-15305
드리히	-15306
▁그토록	-15307
▁골리앗	-15308
▁단거리	-15309
▁불러서	-15310
▁이나즈마	-15311
▁모방	-15312
▁시세	-15313
▁현질	-15314
▁Off	-15315
▁터리	-15316
▁쫓아내	-15317
교육	-15318
▁휴전	-15319
▁창원시	-15320
▁글리	-15321
▁김택용	-15322
▁최우선	-15323
▁정직	-15324
▁노사	-15325
▁순순	-15326
▁장단	-15327
▁황족	-15328
▁장동민	-15329
▁버즈	-15330
▁라든지	-15331
▁대두	-15332
▁군중	-15333
▁류지	-15334
▁미토	-15335
▁비즈니스	-15336
▁콥	-15337
▁긴장감	-15338
▁FFFFFF	-15339
▁구했	-15340
▁김영삼	-15341
▁증후군	-15342
▁랜디	-15343
▁버니	-15344
▁톡톡	-15345
▁군단장	-15346
▁역전패	-15347
▁반짝이	-15348
▁백수	-15349
▁선비	-15350
▁칸나	-15351
▁화내	-15352
ius	-15353
▁KD	-15354
▁사바	-15355
▁사카모토	-15356
▁락스	-15357
▁써니	-15358
▁정연	-15359
▁프론티어	-15360
▁신촌	-15361
▁풋볼	-15362
HD	-15363
UK	-15364
▁어기	-15365
▁침식	-15366
▁유스케	-15367
▁욘	-15368
▁당근	-15369
▁액트	-15370
▁선형	-15371
▁제네시스	-15372
36	-15373
▁에로게	-15374
▁치히로	-15375
▁결별	-15376
▁서둘러	-15377
▁운전자	-15378
▁심포	-15379
▁외침	-15380
▁자민	-15381
▁매사	-15382
▁체조	-15383
▁시프트	-15384
▁아노	-15385
▁짓밟	-15386
▁인스	-15387
▁아르테	-15388
▁굶주	-15389
▁노이	-15390
▁탈탈	-15391
▁차마	-15392
21	-15393
▁세이지	-15394
▁행정부	-15395
▁엠파이어	-15396
▁격하	-15397
▁나탈	-15398
▁WOR	-15399
▁이어질	-15400
▁저력	-15401
▁출세	-15402
▁공석	-15403
▁마호	-15404
▁분전	-15405
▁Bad	-15406
▁코브라	-15407
ata	-15408
▁아르메	-15409
▁산화	-15410
▁셔서	-15411
▁전갈	-15412
▁스탠스	-15413
▁yeah	-15414
▁걸스	-15415
▁결투장	-15416
▁프리드리히	-15417
준혁	-15418
▁관건	-15419
▁부서진	-15420
▁템플러	-15421
▁1938	-15422
▁안중	-15423
▁천도	-15424
oney	-15425
▁Int	-15426
▁데뷔작	-15427
▁때릴	-15428
▁매개	-15429
▁취했	-15430
▁명품	-15431
틱스	-15432
▁파열	-15433
▁루드	-15434
드래곤	-15435
▁가산	-15436
▁주시	-15437
▁피버	-15438
▁조류	-15439
INE	-15440
▁영령	-15441
▁DDR	-15442
▁리조트	-15443
▁유노	-15444
방식	-15445
▁맞물려	-15446
▁배척	-15447
▁치프	-15448
제이	-15449
▁학업	-15450
▁'-	-15451
▁구애	-15452
토미	-15453
▁미유	-15454
감치	-15455
▁지체	-15456
▁Po	-15457
▁졸지	-15458
찌감치	-15459
▁라데	-15460
▁이끈	-15461
▁성유	-15462
▁요동	-15463
▁WCS	-15464
▁때때로	-15465
▁외래어	-15466
그래	-15467
▁두께	-15468
▁산산	-15469
▁메두사	-15470
▁섹터	-15471
▁오아	-15472
vent	-15473
▁동대문	-15474
▁메이크	-15475
▁순순히	-15476
AA	-15477
▁Ul	-15478
▁입법	-15479
고루	-15480
▁츠바키	-15481
▁튜브	-15482
페스트	-15483
ck	-15484
▁카논	-15485
▁마공	-15486
▁현행	-15487
▁블루스	-15488
▁탄수	-15489
▁몰려오	-15490
마트	-15491
▁마리사	-15492
▁페루	-15493
▁노스케	-15494
▁JC	-15495
▁자본주의	-15496
▁봐라	-15497
▁상해	-15498
▁총구	-15499
▁완주	-15500
▁조로	-15501
line	-15502
▁275	-15503
▁TWICE	-15504
▁즉석	-15505
▁하늘색	-15506
▁대장장이	-15507
비언	-15508
▁Ass	-15509
▁올리버	-15510
홍철	-15511
▁광학	-15512
▁응징	-15513
▁단번에	-15514
▁즘	-15515
▁소량	-15516
▁다이크	-15517
▁잿	-15518
▁갱단	-15519
▁로미	-15520
▁음모론	-15521
▁Are	-15522
▁팻	-15523
▁면은	-15524
▁org	-15525
▁PvP	-15526
UL	-15527
장구	-15528
▁만화책	-15529
▁221	-15530
▁아만	-15531
컨대	-15532
▁꼼짝	-15533
▁거유	-15534
▁베른	-15535
▁브리핑	-15536
▁노동당	-15537
▁재빠	-15538
▁애틀랜	-15539
▁쓸어버리	-15540
▁쿼드	-15541
▁래쉬	-15542
▁시발	-15543
▁케미	-15544
▁했으므로	-15545
▁수뇌	-15546
▁스스	-15547
▁아츠시	-15548
▁프라이즈	-15549
▁용품	-15550
▁패미컴	-15551
▁멀린	-15552
규어	-15553
ague	-15554
▁쌩	-15555
▁발트	-15556
▁정자	-15557
▁#,	-15558
▁괴멸	-15559
▁건립	-15560
▁레베	-15561
▁사생활	-15562
▁Match	-15563
▁노후	-15564
툭튀	-15565
▁폭군	-15566
▁교직원	-15567
▁신한은행	-15568
▁ㄹ	-15569
▁샌디	-15570
▁법무부	-15571
▁에프	-15572
▁say	-15573
▁내려왔	-15574
▁경전차	-15575
▁샌드박스	-15576
▁최진	-15577
▁재혼	-15578
▁티나	-15579
▁사라질	-15580
▁릭스	-15581
▁모치	-15582
▁행각	-15583
세이더	-15584
▁Eng	-15585
▁크루세이더	-15586
▁번거	-15587
UST	-15588
▁가와	-15589
▁갑툭튀	-15590
ton	-15591
▁몰라서	-15592
▁폭투	-15593
▁AMD	-15594
▁쎄	-15595
▁란트	-15596
▁커맨더	-15597
▁수군	-15598
▁홈구장	-15599
▁제드	-15600
▁바이퍼	-15601
▁여행자	-15602
▁시애	-15603
▁시오리	-15604
피탈	-15605
▁부합	-15606
▁클로버	-15607
▁받아들일	-15608
▁뒤바	-15609
▁디디	-15610
▁여명	-15611
▁짤막	-15612
▁세토	-15613
▁시르	-15614
▁플로리다	-15615
▁피크	-15616
▁대관	-15617
▁타케루	-15618
▁몰렸	-15619
▁셔츠	-15620
▁기린	-15621
▁부두	-15622
▁제각	-15623
▁케르	-15624
▁ac	-15625
▁몬테	-15626
▁희미	-15627
▁고원	-15628
78	-15629
▁척하	-15630
▁중소기업	-15631
매치	-15632
의지	-15633
▁RED	-15634
▁경비원	-15635
▁탈주	-15636
▁엘소드	-15637
▁수도원	-15638
▁트레인	-15639
▁데스매치	-15640
▁리벤	-15641
▁헬로	-15642
▁수영장	-15643
▁방대	-15644
▁Char	-15645
▁요르	-15646
▁최형	-15647
▁리언	-15648
▁시립	-15649
▁데이비스	-15650
▁XY	-15651
▁길목	-15652
▁진공	-15653
▁부녀	-15654
▁유시	-15655
▁퇴마	-15656
▁슬래시	-15657
지기	-15658
▁앞쪽	-15659
▁넘쳐나	-15660
▁일직선	-15661
▁금곡	-15662
▁로니	-15663
▁우이	-15664
▁묵직	-15665
▁티타	-15666
▁돌아다	-15667
erm	-15668
▁안치	-15669
▁아카기	-15670
▁Core	-15671
▁1952	-15672
▁여덟	-15673
▁자판기	-15674
ute	-15675
▁케어	-15676
▁메르시	-15677
▁일정량	-15678
▁조원	-15679
▁사업자	-15680
▁아재	-15681
▁히이	-15682
▁우동	-15683
▁쪽지	-15684
▁노드	-15685
▁욕먹	-15686
▁슬쩍	-15687
▁see	-15688
▁일선	-15689
▁발렌시아	-15690
레즈	-15691
und	-15692
▁농촌	-15693
hy	-15694
▁세단	-15695
▁어딜	-15696
▁위조	-15697
▁216	-15698
▁재규어	-15699
▁시애틀	-15700
▁다크니스	-15701
자루	-15702
▁루즈	-15703
▁화랑	-15704
▁농어촌	-15705
▁리히	-15706
▁모건	-15707
▁수속	-15708
▁명장면	-15709
▁앨리	-15710
▁매거진	-15711
▁브란	-15712
▁햇빛	-15713
▁레비	-15714
▁416	-15715
▁됬	-15716
▁츠치	-15717
▁환불	-15718
▁Now	-15719
▁티셔츠	-15720
▁}}}}	-15721
▁럭스	-15722
▁BW	-15723
▁가쿠	-15724
맹이	-15725
▁마셔	-15726
▁마토	-15727
▁아틀라스	-15728
▁Blood	-15729
▁}}}}}}	-15730
▁유배	-15731
▁현수	-15732
▁흉터	-15733
▁BRV	-15734
일관	-15735
▁누님	-15736
▁매점	-15737
▁213	-15738
▁고베	-15739
▁정적	-15740
▁코칭	-15741
▁헤라클레스	-15742
▁관전	-15743
▁2021	-15744
▁도보	-15745
▁볼일	-15746
▁동국	-15747
▁소름	-15748
▁저스틴	-15749
▁기공	-15750
▁충동	-15751
▁바흐	-15752
▁릉	-15753
▁서스	-15754
▁대장군	-15755
▁해저	-15756
▁에테르	-15757
ILL	-15758
▁숙명	-15759
▁Joh	-15760
▁충공	-15761
▁충실히	-15762
▁Rob	-15763
▁올라온다	-15764
▁장녀	-15765
▁간편	-15766
▁아득	-15767
▁쓰러뜨린	-15768
정동	-15769
▁퍼시픽	-15770
▁마사무네	-15771
▁능동	-15772
▁햄버거	-15773
▁무모	-15774
▁건너편	-15775
▁기염	-15776
▁심부	-15777
▁후후	-15778
아라	-15779
▁놀란다	-15780
red	-15781
▁레그	-15782
▁펼친	-15783
▁따랐	-15784
▁조슈	-15785
▁친선	-15786
게임넷	-15787
▁붙잡혀	-15788
▁온게임넷	-15789
▁악인	-15790
▁세무	-15791
▁our	-15792
▁사력	-15793
▁서유	-15794
▁국물	-15795
▁아리사	-15796
ism	-15797
▁평안	-15798
▁Last	-15799
▁선글라스	-15800
▁둔화	-15801
▁분수	-15802
▁시빌	-15803
▁급상	-15804
▁학부모	-15805
▁헌병	-15806
▁ㅁ	-15807
애미	-15808
코스	-15809
▁선천	-15810
▁빼놓	-15811
▁야자	-15812
▁어쩐	-15813
▁완패	-15814
▁BBC	-15815
III	-15816
▁애리	-15817
▁블리츠	-15818
▁센트리	-15819
▁마이애미	-15820
▁속사	-15821
▁친화	-15822
▁던져서	-15823
▁테츠야	-15824
▁fr	-15825
▁익스프레스	-15826
▁소망	-15827
▁스노	-15828
▁필기	-15829
▁회자	-15830
▁모탈	-15831
▁세실	-15832
▁재화	-15833
▁1300	-15834
55	-15835
먹이	-15836
▁헤븐	-15837
▁벤트	-15838
▁여하	-15839
▁패한	-15840
조작	-15841
▁경의	-15842
▁방어전	-15843
▁기통	-15844
▁디트로	-15845
▁보이드	-15846
▁디트로이트	-15847
▁맞췄	-15848
▁사쿠야	-15849
▁과다	-15850
▁여느	-15851
▁중사	-15852
▁돌풍	-15853
▁잘린	-15854
수엘라	-15855
▁비둘기	-15856
▁짊	-15857
▁기생충	-15858
▁승부조작	-15859
▁리시	-15860
▁임상	-15861
▁슬라이딩	-15862
▁기판	-15863
▁외쳤	-15864
매매	-15865
미츠	-15866
▁앞장	-15867
▁오일	-15868
▁화판	-15869
▁레이크	-15870
OCK	-15871
미사	-15872
▁병신	-15873
▁악질	-15874
▁자자	-15875
는데	-15876
▁통학	-15877
▁근래	-15878
▁right	-15879
▁국수	-15880
▁경영학	-15881
▁물들	-15882
▁아종	-15883
▁안식	-15884
▁토코	-15885
▁백룡	-15886
▁재선	-15887
▁입니까	-15888
ets	-15889
▁강남구	-15890
▁암흑기	-15891
▁승부차기	-15892
▁소아	-15893
▁순삭	-15894
▁표명	-15895
▁알비	-15896
▁직계	-15897
▁검찰청	-15898
▁구미호	-15899
▁남긴다	-15900
▁료마	-15901
▁전고	-15902
▁세레나	-15903
▁쓸쓸	-15904
▁업종	-15905
▁조선일보	-15906
괭이	-15907
▁풍속	-15908
▁두근두근	-15909
▁단백질	-15910
▁유소년	-15911
▁가세	-15912
▁튀김	-15913
▁시라이	-15914
▁눈썹	-15915
▁서인	-15916
▁잽	-15917
add	-15918
▁NA	-15919
▁이천	-15920
▁국정원	-15921
▁나뭇잎	-15922
타기	-15923
▁해프	-15924
▁데스크	-15925
▁희생양	-15926
▁사병	-15927
▁쩌	-15928
▁재판소	-15929
▁찜	-15930
▁무네	-15931
▁총대	-15932
▁토사	-15933
포로	-15934
▁암기	-15935
▁1953	-15936
▁미니게임	-15937
▁Magic	-15938
▁상하이	-15939
▁극성	-15940
▁숨겨져	-15941
▁비석	-15942
xt	-15943
▁홉	-15944
▁cr	-15945
▁박태	-15946
▁죄인	-15947
▁침체	-15948
▁드래곤즈	-15949
▁그해	-15950
▁갈아타	-15951
▁데일리	-15952
▁피신	-15953
▁경희대	-15954
▁약해서	-15955
▁팬클럽	-15956
▁활주로	-15957
▁7000	-15958
▁메탈기어	-15959
▁이도	-15960
▁초딩	-15961
▁권고	-15962
▁키울	-15963
▁피칭	-15964
▁호우	-15965
ama	-15966
▁볼리	-15967
▁HOT	-15968
▁가져와	-15969
▁치밀	-15970
▁영화관	-15971
▁재미없	-15972
▁Like	-15973
▁베네수엘라	-15974
▁농부	-15975
▁서약	-15976
▁양도	-15977
▁중화기	-15978
OWN	-15979
▁가넷	-15980
▁자가	-15981
▁포진	-15982
▁총사령관	-15983
▁히코	-15984
외선	-15985
▁고갈	-15986
이프	-15987
▁망할	-15988
▁엘런	-15989
▁사단장	-15990
88	-15991
니지	-15992
▁막혔	-15993
▁차출	-15994
▁RR	-15995
▁동산	-15996
▁Alb	-15997
▁은가	-15998
▁정종	-15999
▁거리표	-16000
▁프랭클린	-16001
▁다친	-16002
▁부술	-16003
▁첨가	-16004
▁매그넘	-16005
▁카츠키	-16006
▁이대호	-16007
집니다	-16008
▁아킬	-16009
▁관광지	-16010
▁pe	-16011
▁니즘	-16012
▁자정	-16013
▁정윤	-16014
▁망설이	-16015
▁출연자	-16016
▁방관	-16017
▁드래그	-16018
▁마취	-16019
▁불허	-16020
▁신종	-16021
▁이의	-16022
▁잔여	-16023
▁불안감	-16024
▁그물	-16025
▁입혀	-16026
▁권역	-16027
▁남극	-16028
▁내줬	-16029
▁필승	-16030
▁방정식	-16031
▁프라이드	-16032
▁덤비	-16033
▁거미줄	-16034
탕스	-16035
▁텐더	-16036
▁RPM	-16037
▁갈아입	-16038
▁레지스탕스	-16039
▁자멸	-16040
▁Soul	-16041
▁이범	-16042
▁원어	-16043
▁해프닝	-16044
▁몽땅	-16045
▁연안	-16046
▁Happy	-16047
▁토토	-16048
니르	-16049
▁낙하산	-16050
천역	-16051
▁몸집	-16052
▁음란	-16053
▁악보	-16054
▁테슬라	-16055
▁이메	-16056
ader	-16057
▁거니와	-16058
▁수송선	-16059
▁대입	-16060
▁화룡	-16061
▁Nor	-16062
▁범주	-16063
▁미나토	-16064
▁하자드	-16065
▁성남시	-16066
▁철퇴	-16067
▁퍼니	-16068
▁법정동	-16069
▁장기전	-16070
▁포레스트	-16071
▁급한	-16072
▁꾸며	-16073
▁클라우	-16074
이인	-16075
▁사비	-16076
장판	-16077
▁사위	-16078
▁뒤쳐	-16079
▁비대	-16080
▁체로	-16081
OWER	-16082
▁사역	-16083
▁졌으나	-16084
▁쥔	-16085
▁이목	-16086
ga	-16087
▁아레스	-16088
▁본드	-16089
▁TT	-16090
▁223	-16091
▁비룡	-16092
▁생방송	-16093
▁치를	-16094
▁지나갈	-16095
▁체구	-16096
▁there	-16097
▁기어이	-16098
▁막말	-16099
▁나눌	-16100
▁사요	-16101
▁역설	-16102
▁베르크	-16103
▁산체스	-16104
▁마크로스	-16105
▁구워	-16106
▁무당	-16107
▁순조	-16108
▁정대	-16109
ocal	-16110
ther	-16111
▁골고루	-16112
▁성동	-16113
자국	-16114
▁코팅	-16115
▁리포	-16116
▁바트	-16117
렁이	-16118
▁김소	-16119
▁지으며	-16120
▁크리드	-16121
▁갈구	-16122
▁미달	-16123
▁마키나	-16124
만도	-16125
▁Party	-16126
베이스	-16127
▁대의	-16128
▁레프트	-16129
▁하이브	-16130
▁GX	-16131
▁선역	-16132
▁읊	-16133
▁돌린	-16134
▁365	-16135
▁도망친다	-16136
▁임페	-16137
벅지	-16138
▁충주	-16139
▁일찌감치	-16140
▁깜빡	-16141
▁바꾼다	-16142
▁충공깽	-16143
▁조나	-16144
▁영조	-16145
▁계승자	-16146
▁Side	-16147
▁쿠도	-16148
▁삽입곡	-16149
▁나온다고	-16150
▁ph	-16151
▁거라	-16152
▁연성	-16153
▁조세	-16154
▁문성	-16155
▁도입부	-16156
▁잊혀진	-16157
▁공시	-16158
▁지쳐	-16159
▁교향곡	-16160
▁성희	-16161
▁산호	-16162
▁역과	-16163
▁주임	-16164
▁Sim	-16165
▁동명이인	-16166
▁용왕	-16167
▁임용	-16168
▁고모	-16169
▁들이대	-16170
▁Show	-16171
▁크로노스	-16172
▁수법	-16173
▁시위대	-16174
▁이긴다	-16175
uz	-16176
▁시종일관	-16177
▁룽	-16178
▁사우디아	-16179
▁아르메니아	-16180
▁맨날	-16181
▁앞둔	-16182
▁감염자	-16183
▁남친	-16184
▁민트	-16185
▁얌전	-16186
▁공중전	-16187
니치	-16188
ERF	-16189
▁네로	-16190
▁여대	-16191
▁투석	-16192
▁장학금	-16193
▁IF	-16194
▁Edition	-16195
ONE	-16196
▁격납	-16197
▁관하	-16198
▁청문	-16199
▁저질러	-16200
▁net	-16201
▁이츠키	-16202
▁보급품	-16203
▁해결책	-16204
더리	-16205
▁앞세워	-16206
▁카메오	-16207
▁큰일	-16208
▁girl	-16209
▁크리에이터	-16210
▁아유미	-16211
▁Open	-16212
BOX	-16213
▁뜬공	-16214
▁370	-16215
▁불러오	-16216
▁브라이	-16217
▁에티	-16218
▁진행할	-16219
형제	-16220
▁덕택	-16221
▁레타	-16222
▁링컨	-16223
▁남아공	-16224
▁수납	-16225
▁엮인	-16226
ated	-16227
▁쟁탈전	-16228
▁대도	-16229
▁장담	-16230
▁보인다고	-16231
▁미용	-16232
▁플랫폼	-16233
▁성범죄	-16234
▁스피리	-16235
▁불린	-16236
▁재무	-16237
▁음식점	-16238
▁떨어진다는	-16239
▁멱	-16240
▁전복	-16241
▁라이토	-16242
▁처한다	-16243
▁백지	-16244
▁왕건	-16245
▁급상승	-16246
▁에어리어	-16247
ASS	-16248
rew	-16249
▁작물	-16250
▁1957	-16251
▁임페리얼	-16252
▁걷어	-16253
▁김호	-16254
▁노원	-16255
work	-16256
▁Way	-16257
▁능욕	-16258
▁Und	-16259
▁카터	-16260
▁터프	-16261
▁Cap	-16262
▁며느리	-16263
▁알파벳	-16264
▁잣	-16265
▁코로	-16266
▁got	-16267
▁feel	-16268
▁무너뜨리	-16269
▁만악	-16270
▁시커	-16271
ley	-16272
▁경합	-16273
▁구루	-16274
▁에러	-16275
▁유수	-16276
▁Mark	-16277
▁팔려	-16278
▁붉은색	-16279
▁여겨졌	-16280
▁거둬	-16281
▁치른	-16282
▁후카	-16283
트리스	-16284
hammer	-16285
▁위태	-16286
▁아프가	-16287
▁채운	-16288
▁대변인	-16289
▁인플레	-16290
▁일기토	-16291
▁민족주의	-16292
▁신년	-16293
▁쿠폰	-16294
▁토카	-16295
▁his	-16296
▁플레인	-16297
▁활약상	-16298
▁키쿠	-16299
▁who	-16300
▁바람직	-16301
▁총재	-16302
98	-16303
▁전령	-16304
▁베르나	-16305
▁빽	-16306
▁몸체	-16307
▁의존도	-16308
ster	-16309
▁바운드	-16310
▁천연가스	-16311
▁알맞	-16312
▁정경	-16313
▁경순양함	-16314
▁뽑힌	-16315
▁Pol	-16316
▁투표율	-16317
▁푸쉬	-16318
▁효력	-16319
▁도호쿠	-16320
▁구라	-16321
▁지자체	-16322
▁하시모토	-16323
로이	-16324
▁옵스	-16325
▁특권	-16326
선거	-16327
▁입상	-16328
▁프레드	-16329
▁남짓	-16330
▁디에고	-16331
▁블루투스	-16332
▁반달	-16333
▁SKE	-16334
▁심해서	-16335
▁돗	-16336
▁뒤따	-16337
▁복권	-16338
▁희박	-16339
▁윤성	-16340
▁방영일	-16341
▁watch	-16342
▁화끈	-16343
▁빨라서	-16344
▁Angel	-16345
▁잠식	-16346
▁적기	-16347
▁아야노	-16348
▁기각	-16349
▁Val	-16350
▁micro	-16351
▁Na	-16352
▁케니	-16353
▁항우	-16354
▁맞대결	-16355
▁개화	-16356
▁누락	-16357
▁그리폰	-16358
ird	-16359
▁소주	-16360
▁건너가	-16361
▁오리콘	-16362
▁근황	-16363
▁난데	-16364
▁생포	-16365
48	-16366
▁버퍼	-16367
▁헤더	-16368
▁화질	-16369
▁댈러스	-16370
▁토우마	-16371
▁역전재판	-16372
피드	-16373
▁자위	-16374
▁절약	-16375
▁복각	-16376
▁평정	-16377
라비아	-16378
▁에어컨	-16379
▁소탕	-16380
더스트	-16381
▁알루미	-16382
▁카트리	-16383
▁깔리	-16384
▁알코	-16385
▁Comp	-16386
▁식인	-16387
▁폐하	-16388
▁셧	-16389
▁중추	-16390
▁쫓겨나	-16391
▁하반신	-16392
▁금서	-16393
▁미처	-16394
▁꼭대기	-16395
▁배수량	-16396
▁저항군	-16397
▁수족	-16398
넘기	-16399
▁상임	-16400
▁화보	-16401
▁950	-16402
▁무패	-16403
▁봄버	-16404
▁차갑	-16405
▁의류	-16406
▁통역	-16407
레톤	-16408
▁FBI	-16409
▁1947	-16410
▁벼락	-16411
▁분과	-16412
▁엑셀	-16413
▁익명	-16414
▁헌납	-16415
▁레테	-16416
▁부토	-16417
▁수분	-16418
▁선별	-16419
▁엑스맨	-16420
▁스켈레톤	-16421
▁아프가니스탄	-16422
▁벌어들	-16423
▁시드니	-16424
▁상고	-16425
▁애틀랜타	-16426
▁부디	-16427
▁될수록	-16428
▁미카엘	-16429
▁아름다움	-16430
▁행세	-16431
▁내공	-16432
▁교무실	-16433
▁미공개	-16434
벨트	-16435
▁비열	-16436
▁이석	-16437
▁점포	-16438
▁치곤	-16439
▁활기	-16440
▁이유로	-16441
▁상경	-16442
▁지저	-16443
▁치토	-16444
▁유교	-16445
▁촛불	-16446
▁허니	-16447
▁Fly	-16448
▁090	-16449
▁박병호	-16450
▁수박	-16451
▁어쩌다	-16452
▁틀어막	-16453
▁과잉	-16454
▁불분	-16455
▁연기자	-16456
▁피쳐	-16457
▁엘더스	-16458
▁트라웃	-16459
▁Legend	-16460
▁재주	-16461
▁전념	-16462
▁!!!	-16463
▁Stage	-16464
▁Fall	-16465
▁슬러	-16466
▁신민	-16467
▁쓴다는	-16468
▁엄폐물	-16469
▁개더링	-16470
▁경비병	-16471
▁수뇌부	-16472
IVE	-16473
▁검도	-16474
▁예매	-16475
▁주루	-16476
고생	-16477
▁구비	-16478
▁알몸	-16479
▁찍혀	-16480
▁한성	-16481
▁First	-16482
▁중론	-16483
▁추위	-16484
▁중순양함	-16485
소니	-16486
▁로버	-16487
▁조현	-16488
▁중공업	-16489
▁쥴	-16490
무로	-16491
▁번영	-16492
▁전염병	-16493
ura	-16494
stem	-16495
▁빅토리	-16496
▁상승세	-16497
▁호라이즌	-16498
▁단타	-16499
치오	-16500
▁겸비	-16501
▁란다	-16502
▁양평	-16503
▁전경	-16504
▁마운틴	-16505
▁좌완	-16506
▁245	-16507
▁엘릭	-16508
▁배운다	-16509
해군	-16510
▁빌헬	-16511
▁가중	-16512
▁밀린	-16513
▁시연	-16514
▁온전	-16515
▁웨딩	-16516
▁반대쪽	-16517
▁갑주	-16518
▁막론	-16519
▁차린	-16520
▁김구라	-16521
▁Sam	-16522
▁불분명	-16523
▁어설트	-16524
▁세조	-16525
▁승승	-16526
▁코일	-16527
▁유다	-16528
▁무방비	-16529
▁Perf	-16530
▁불가피	-16531
▁랍시고	-16532
▁그리스어	-16533
▁오바마	-16534
▁쉬우	-16535
▁life	-16536
▁물음	-16537
캐슬	-16538
▁버틴	-16539
▁포메	-16540
▁머릿속	-16541
▁린다	-16542
▁후작	-16543
▁갈려	-16544
udio	-16545
▁540	-16546
▁손책	-16547
▁스튜어트	-16548
▁Free	-16549
▁끝낼	-16550
▁마실	-16551
▁부기	-16552
▁경전철	-16553
▁김신	-16554
▁진범	-16555
▁키사라기	-16556
▁총회	-16557
▁후세	-16558
▁만화가	-16559
▁두른	-16560
답시고	-16561
▁카자마	-16562
▁급습	-16563
▁엠마	-16564
▁콩두	-16565
▁판과	-16566
▁오카다	-16567
▁오리지날	-16568
▁바드	-16569
▁234	-16570
▁덩달	-16571
▁알루미늄	-16572
▁접한	-16573
▁Final	-16574
▁언론사	-16575
▁그제서야	-16576
▁부우	-16577
▁자바	-16578
레일리아	-16579
▁운임	-16580
▁처해	-16581
▁늘릴	-16582
▁로페	-16583
▁사죄	-16584
▁소폭	-16585
▁아벨	-16586
▁차오	-16587
▁투르	-16588
▁성우진	-16589
▁명실	-16590
▁무소	-16591
▁허술	-16592
▁Class	-16593
▁복부	-16594
▁겁쟁이	-16595
▁사냥터	-16596
▁푸른색	-16597
슬쩍	-16598
▁-!	-16599
▁Er	-16600
▁뉴캐슬	-16601
▁체내	-16602
피어	-16603
▁질질	-16604
▁top	-16605
▁메츠	-16606
▁Break	-16607
▁파워레인저	-16608
페어	-16609
▁쇼군	-16610
▁퍼진	-16611
err	-16612
▁노프	-16613
▁선상	-16614
▁아스타	-16615
▁돌봐	-16616
▁베아	-16617
▁타지	-16618
▁루기	-16619
▁질수록	-16620
▁반하	-16621
▁수혜	-16622
▁송병구	-16623
▁Spring	-16624
TH	-16625
건설	-16626
틀리	-16627
▁GDP	-16628
▁도망칠	-16629
▁쥬라기	-16630
▁명백히	-16631
arius	-16632
▁준장	-16633
ling	-16634
▁나카노	-16635
▁지명타자	-16636
▁수제	-16637
▁440	-16638
▁무리수	-16639
▁긋	-16640
▁유체	-16641
▁한들	-16642
그라드	-16643
▁엠블럼	-16644
▁창출	-16645
▁City	-16646
▁법조	-16647
▁~?	-16648
▁망각	-16649
▁열렬	-16650
▁잔재	-16651
▁케로로	-16652
▁비평	-16653
▁치워	-16654
▁유죄	-16655
▁프리드	-16656
▁벤츠	-16657
▁이문	-16658
▁Never	-16659
글러	-16660
▁세가	-16661
▁중파	-16662
▁까다로	-16663
▁세워진	-16664
▁슬래	-16665
▁일개	-16666
ux	-16667
AGE	-16668
▁오우거	-16669
▁Down	-16670
▁사우디아라비아	-16671
▁쌍용	-16672
▁대리인	-16673
▁하얀색	-16674
▁김제	-16675
▁또래	-16676
▁신격	-16677
▁악수	-16678
영수	-16679
▁카라스	-16680
선다	-16681
▁베레	-16682
▁동유럽	-16683
▁이시카와	-16684
▁앤더슨	-16685
▁평지	-16686
▁249	-16687
▁김정일	-16688
▁쓴다면	-16689
▁정한다	-16690
▁밀러	-16691
▁스투	-16692
▁끼쳤	-16693
▁헤지	-16694
▁Cor	-16695
▁뚱뚱	-16696
▁번번	-16697
▁조니	-16698
▁"..	-16699
▁MAN	-16700
고쿠	-16701
yes	-16702
▁이니셜	-16703
tm	-16704
▁박히	-16705
▁제복	-16706
▁무안타	-16707
▁동급생	-16708
▁티거	-16709
▁자유주의	-16710
▁로토	-16711
▁자치령	-16712
▁빈센트	-16713
▁분화	-16714
▁PRO	-16715
▁광폭	-16716
▁자재	-16717
▁눈치챈	-16718
▁우려먹	-16719
▁니퍼	-16720
▁청주시	-16721
▁Mon	-16722
▁명은	-16723
▁삿포로	-16724
▁티라노	-16725
즐리	-16726
▁검기	-16727
▁행해	-16728
▁어로	-16729
▁GOT	-16730
▁대전광역시	-16731
▁지중	-16732
▁If	-16733
REME	-16734
▁로선	-16735
▁선후	-16736
▁품종	-16737
▁How	-16738
▁띵	-16739
▁큼	-16740
▁나오키	-16741
스부르크	-16742
제리	-16743
▁시녀	-16744
▁연호	-16745
▁-.	-16746
▁최원	-16747
▁겹쳐서	-16748
▁왔으며	-16749
▁베토	-16750
▁잊어버	-16751
블루	-16752
▁안테나	-16753
▁판본	-16754
피온	-16755
▁BP	-16756
▁도메	-16757
▁한승	-16758
▁KCC	-16759
▁엠블렘	-16760
▁체크카드	-16761
워했	-16762
▁화가	-16763
▁세이부	-16764
▁의뢰인	-16765
▁하나님	-16766
▁섣	-16767
영향	-16768
▁레니	-16769
▁팰리스	-16770
▁메가트론	-16771
▁튀어나와	-16772
▁신태	-16773
▁직진	-16774
tain	-16775
IME	-16776
▁맥시	-16777
현동	-16778
ause	-16779
▁사복	-16780
▁9000	-16781
▁바알	-16782
▁불발	-16783
▁성품	-16784
▁튀어나온	-16785
▁AW	-16786
▁마석	-16787
신기	-16788
▁숙지	-16789
▁1951	-16790
▁이형	-16791
▁219	-16792
▁건축물	-16793
▁예뻐	-16794
▁인승	-16795
▁난장판	-16796
▁랠	-16797
▁짱구	-16798
▁해낼	-16799
▁마카오	-16800
▁오스틴	-16801
칼리버	-16802
▁서스펜	-16803
erry	-16804
▁1914	-16805
▁Sn	-16806
▁반납	-16807
▁승계	-16808
▁알트	-16809
▁청취	-16810
▁끝없이	-16811
▁코우지	-16812
▁저널	-16813
▁저음	-16814
▁야스오	-16815
▁수전	-16816
▁입당	-16817
▁편도	-16818
▁Swe	-16819
라이언트	-16820
▁한중	-16821
▁험한	-16822
▁sk	-16823
▁밸브	-16824
▁어진	-16825
▁염동	-16826
▁현무	-16827
raft	-16828
▁Mem	-16829
▁시프	-16830
▁투여	-16831
▁와도	-16832
▁226	-16833
▁행군	-16834
▁베로	-16835
▁공채	-16836
▁구이	-16837
▁향했	-16838
▁허벅지	-16839
▁클라이언트	-16840
리히	-16841
▁마자	-16842
안군	-16843
▁갇히	-16844
▁성령	-16845
▁최형우	-16846
▁광동	-16847
▁깐다	-16848
▁순항	-16849
▁전우	-16850
▁정치력	-16851
재욱	-16852
iny	-16853
▁야인	-16854
▁시킨다는	-16855
▁강함	-16856
▁이송	-16857
▁결단	-16858
코스터	-16859
평균	-16860
▁신봉	-16861
▁위저드	-16862
▁위닝	-16863
▁들으며	-16864
▁애시당초	-16865
▁곡사	-16866
▁가져간다	-16867
▁가늠	-16868
김없이	-16869
▁변속기	-16870
▁꾹	-16871
다듬	-16872
▁"'	-16873
▁악장	-16874
▁국무총리	-16875
▁롤러코스터	-16876
▁명왕	-16877
▁011	-16878
▁다이빙	-16879
▁세운다	-16880
▁샬롯	-16881
▁페달	-16882
▁뛰어났	-16883
▁그레이브	-16884
▁밀접	-16885
▁서동	-16886
▁주주	-16887
▁오산	-16888
▁픈	-16889
▁합금	-16890
▁니즈	-16891
▁미우	-16892
▁숨결	-16893
▁밀려서	-16894
▁말살	-16895
▁티모	-16896
대표	-16897
▁끼친	-16898
▁내준	-16899
▁사생	-16900
▁들려주	-16901
▁브래드	-16902
▁회유	-16903
▁슬립	-16904
▁훈련소	-16905
▁소란	-16906
▁예술가	-16907
de	-16908
테라	-16909
▁길래	-16910
▁월터	-16911
▁검색어	-16912
▁블로킹	-16913
▁설진	-16914
▁토바	-16915
▁end	-16916
▁보호자	-16917
▁리제	-16918
▁빙글	-16919
▁요양	-16920
▁평준	-16921
▁APC	-16922
▁RX	-16923
▁아다	-16924
▁노선도	-16925
▁시메	-16926
소통	-16927
▁호각	-16928
ival	-16929
▁사츠키	-16930
▁1937	-16931
▁의사소통	-16932
▁뻔하	-16933
▁서재	-16934
▁양양	-16935
▁포자	-16936
▁오스트레일리아	-16937
▁몸싸움	-16938
▁코요미	-16939
▁시리우스	-16940
▁끊이	-16941
▁졸라	-16942
▁폴라	-16943
▁허다	-16944
▁키치	-16945
▁탄두	-16946
▁험악	-16947
▁베네치아	-16948
나들	-16949
리즘	-16950
▁방망	-16951
▁칼질	-16952
▁에버튼	-16953
▁라리	-16954
▁자택	-16955
▁하쿠	-16956
▁크리스토퍼	-16957
▁착수	-16958
▁난다고	-16959
▁얍	-16960
▁고뇌	-16961
▁강령	-16962
▁보성	-16963
▁조개	-16964
▁만우	-16965
▁쉰	-16966
▁반죽	-16967
▁양말	-16968
▁cont	-16969
▁고른	-16970
74	-16971
▁원상	-16972
▁큐트	-16973
테리어	-16974
▁내려와	-16975
▁벗어났	-16976
▁카르텔	-16977
요리	-16978
▁생계	-16979
▁쇼타	-16980
살렘	-16981
▁들켜	-16982
▁캠핑	-16983
▁세계수	-16984
▁PT	-16985
▁반려	-16986
▁연구자	-16987
▁발해	-16988
▁228	-16989
RO	-16990
▁이강	-16991
▁톱니	-16992
▁미약	-16993
루살렘	-16994
▁aqu	-16995
▁make	-16996
▁원성	-16997
▁일어서	-16998
▁과반	-16999
▁224	-17000
▁건의	-17001
▁경시	-17002
▁play	-17003
ATE	-17004
▁박한	-17005
▁착취	-17006
▁판단력	-17007
▁일생	-17008
▁피그	-17009
▁애리조	-17010
▁어시	-17011
▁사상자	-17012
▁김은	-17013
▁펠트	-17014
▁Christ	-17015
▁츳	-17016
▁중산	-17017
▁컬링	-17018
▁제너럴	-17019
▁그러다가	-17020
que	-17021
▁375	-17022
▁ㅈ	-17023
▁면도	-17024
▁디럭스	-17025
▁최하위	-17026
▁야마자키	-17027
▁춘추	-17028
▁힘내	-17029
▁진다고	-17030
▁쌍검	-17031
▁잔소리	-17032
▁EXTREME	-17033
▁뺑	-17034
▁간절	-17035
▁산지	-17036
모델	-17037
▁싫어한다	-17038
▁래리	-17039
▁410	-17040
▁외장	-17041
▁야말로	-17042
넌트	-17043
하늘	-17044
▁정무	-17045
▁Hol	-17046
▁골짜기	-17047
▁슴	-17048
▁미도	-17049
걸음	-17050
▁위아	-17051
▁233	-17052
가르드	-17053
▁싱크로	-17054
▁애니메이터	-17055
▁무찌	-17056
▁잠든	-17057
썰트	-17058
▁악평	-17059
▁어썰트	-17060
▁고안	-17061
▁걸치	-17062
▁나주	-17063
▁애니플러스	-17064
22	-17065
▁성시	-17066
▁성원	-17067
▁찬사	-17068
▁part	-17069
먼드	-17070
▁오보	-17071
▁치는	-17072
▁태후	-17073
ONG	-17074
▁우먼	-17075
▁기보단	-17076
▁Club	-17077
▁KE	-17078
▁놓인	-17079
▁매도	-17080
▁털렸	-17081
▁이달	-17082
▁흉기	-17083
▁러스트	-17084
▁아니하	-17085
임수	-17086
▁다다	-17087
▁만우절	-17088
▁유승민	-17089
▁투수진	-17090
▁김한	-17091
▁노획	-17092
▁슈리	-17093
전함	-17094
erg	-17095
나시	-17096
▁끝낸	-17097
▁전패	-17098
▁노홍철	-17099
▁스테이크	-17100
▁앤드류	-17101
ya	-17102
▁고철	-17103
▁양지	-17104
▁모자란	-17105
▁근위	-17106
▁다마	-17107
▁스맥	-17108
▁MIX	-17109
idd	-17110
▁벌일	-17111
▁아르타	-17112
▁스맥다운	-17113
▁사찰	-17114
▁지하실	-17115
ino	-17116
▁북서	-17117
▁악영향	-17118
▁충원	-17119
▁대구경	-17120
▁깨진	-17121
▁레이카	-17122
▁레전더리	-17123
▁필적	-17124
▁줄리아	-17125
▁예루살렘	-17126
▁린이	-17127
▁에노	-17128
▁파주	-17129
▁again	-17130
일기	-17131
▁실탄	-17132
▁진전	-17133
▁Cry	-17134
▁나왔었	-17135
▁블레	-17136
▁편애	-17137
▁코러스	-17138
▁무로	-17139
▁레코	-17140
▁파탄	-17141
▁겉모습	-17142
▁스미레	-17143
▁순례	-17144
▁식별	-17145
▁둔기	-17146
▁세카	-17147
▁수퍼	-17148
▁황소	-17149
▁급여	-17150
▁교목	-17151
▁편집자	-17152
▁명확히	-17153
▁레볼루션	-17154
▁hp	-17155
▁소프	-17156
▁포상	-17157
이즈미	-17158
▁슬로건	-17159
▁잘생긴	-17160
▁WHIP	-17161
이라	-17162
▁린치	-17163
▁오승	-17164
▁폰트	-17165
▁항쟁	-17166
▁김종국	-17167
▁성희롱	-17168
▁시어터	-17169
▁개칭	-17170
▁차우	-17171
사람	-17172
▁유원	-17173
▁알코올	-17174
lo	-17175
▁참모총장	-17176
▁진기	-17177
베르크	-17178
▁이장	-17179
▁미네랄	-17180
▁내걸	-17181
▁쓴다고	-17182
▁귤	-17183
▁이바	-17184
▁절감	-17185
▁독도	-17186
▁백병	-17187
▁적과	-17188
▁음력	-17189
▁증표	-17190
▁블랑	-17191
▁성소	-17192
▁미완성	-17193
▁갈릴	-17194
▁본거지	-17195
▁깍	-17196
▁Come	-17197
▁성취	-17198
▁곧장	-17199
▁제명	-17200
▁CIA	-17201
▁어휘	-17202
▁heart	-17203
BY	-17204
▁류우	-17205
▁이메일	-17206
▁잖아요	-17207
▁된다며	-17208
▁질려	-17209
▁틈새	-17210
▁수산	-17211
▁한복	-17212
▁인원수	-17213
▁마우	-17214
▁안장	-17215
▁티격	-17216
▁관용	-17217
▁동탄	-17218
▁루시안	-17219
▁악세사리	-17220
▁라이덴	-17221
▁어부	-17222
HN	-17223
공주	-17224
▁KA	-17225
▁거머	-17226
폴리스	-17227
▁PM	-17228
▁정시	-17229
▁윤종신	-17230
▁설문	-17231
▁쿄스케	-17232
▁이탈리아어	-17233
▁뻐	-17234
▁벳	-17235
▁치과	-17236
▁호문	-17237
▁강서구	-17238
회의	-17239
▁동결	-17240
▁카오	-17241
▁마사토	-17242
▁쁘	-17243
▁밤중	-17244
▁은혼	-17245
▁실감	-17246
▁이에야스	-17247
▁재차	-17248
▁멩	-17249
▁신빙	-17250
aker	-17251
▁그분	-17252
▁시정	-17253
▁일루	-17254
▁동남아	-17255
▁never	-17256
▁bb	-17257
▁NORM	-17258
▁xx	-17259
▁끌어당	-17260
자치단체	-17261
cy	-17262
▁환원	-17263
▁PH	-17264
▁개종	-17265
열차	-17266
일본	-17267
▁평이	-17268
NG	-17269
▁밧줄	-17270
▁옴니	-17271
▁지상군	-17272
▁경대	-17273
▁론가	-17274
▁수당	-17275
르슈	-17276
▁눈보라	-17277
▁수사관	-17278
▁순차	-17279
▁세련	-17280
▁우크	-17281
▁해낸다	-17282
▁몰입	-17283
▁수렴	-17284
▁챙겼	-17285
▁데니스	-17286
▁개리	-17287
▁요지	-17288
▁우크라이나	-17289
관계	-17290
▁체이서	-17291
▁깃든	-17292
▁미주	-17293
▁유키노	-17294
▁쇼코	-17295
▁화전	-17296
▁Will	-17297
OUR	-17298
▁아린	-17299
▁고아원	-17300
▁뜬금없	-17301
▁채무	-17302
▁콘테스트	-17303
ORA	-17304
▁XC	-17305
▁겨누	-17306
▁싸인	-17307
▁카모	-17308
▁차크라	-17309
▁퍼플	-17310
▁컨퍼런스	-17311
▁Girls	-17312
▁유부	-17313
메리카	-17314
쩌둥	-17315
▁빨아들	-17316
▁마오쩌둥	-17317
▁페미니스트	-17318
▁민심	-17319
▁카프	-17320
▁수료	-17321
▁우대	-17322
▁임재	-17323
▁김종민	-17324
태우	-17325
▁납품	-17326
▁차인	-17327
▁NORMAL	-17328
▁Ah	-17329
전대	-17330
▁최연	-17331
▁브로드	-17332
▁올인	-17333
▁마이티	-17334
anger	-17335
▁길러	-17336
▁전황	-17337
▁살아온	-17338
▁매입	-17339
▁각별	-17340
▁볶음	-17341
▁온건	-17342
▁다이노	-17343
▁조짐	-17344
▁음악가	-17345
▁게재	-17346
▁열광	-17347
▁투항	-17348
▁골라서	-17349
▁MY	-17350
▁미코	-17351
▁외환	-17352
▁이리스	-17353
▁전쟁터	-17354
▁has	-17355
▁간첩	-17356
▁부전	-17357
▁연하	-17358
▁거든요	-17359
푸스	-17360
▁동그	-17361
전쟁	-17362
▁프렌드	-17363
▁해설자	-17364
▁1919	-17365
▁천진	-17366
▁페이퍼	-17367
▁떠올랐	-17368
▁성공회	-17369
▁RB	-17370
▁포커	-17371
▁용호	-17372
▁트롤링	-17373
▁뽐내	-17374
▁에라	-17375
팔로	-17376
▁메트	-17377
onder	-17378
▁only	-17379
▁Sol	-17380
▁잠자	-17381
▁MUS	-17382
▁복수심	-17383
▁서큐버스	-17384
▁멈출	-17385
▁라파엘	-17386
▁포메이션	-17387
▁비서관	-17388
▁SEED	-17389
▁EXO	-17390
▁짝퉁	-17391
▁우선시	-17392
▁Best	-17393
▁보크	-17394
▁신드	-17395
▁활력	-17396
▁인테리어	-17397
▁낮춰	-17398
▁뻔뻔	-17399
▁능하	-17400
▁첨부	-17401
▁월등히	-17402
▁박차	-17403
▁해인	-17404
▁나츠메	-17405
▁망가진	-17406
▁한국군	-17407
▁제네레이션	-17408
▁개전	-17409
▁가신	-17410
ball	-17411
▁아이젠	-17412
▁문과	-17413
▁정근	-17414
▁배반	-17415
▁뿌요	-17416
▁미식축구	-17417
▁\]	-17418
▁연마	-17419
디우스	-17420
▁SMG	-17421
▁장대	-17422
▁철혈	-17423
▁스턴트	-17424
▁알라딘	-17425
▁굴림	-17426
▁시미즈	-17427
▁옥타브	-17428
▁궤멸	-17429
▁스팟	-17430
오버	-17431
▁수년	-17432
불리	-17433
▁스커	-17434
▁초심	-17435
▁올리브	-17436
osh	-17437
▁페트	-17438
▁여중	-17439
▁소대장	-17440
▁정했	-17441
▁연장전	-17442
▁남산	-17443
▁악연	-17444
▁에너	-17445
▁연화	-17446
▁Net	-17447
겨운	-17448
▁억양	-17449
▁증강	-17450
▁Ind	-17451
▁OM	-17452
UD	-17453
▁북동	-17454
▁사대	-17455
▁사드	-17456
▁우의	-17457
▁217	-17458
▁Little	-17459
▁켐	-17460
세포	-17461
▁하남	-17462
▁난쟁이	-17463
▁비터	-17464
▁액수	-17465
▁초전	-17466
▁소나무	-17467
▁후지와라	-17468
▁호화	-17469
▁부상자	-17470
▁Dest	-17471
▁미스테리	-17472
65	-17473
거렸	-17474
▁뽑혔	-17475
▁시술	-17476
▁다듬	-17477
▁주부	-17478
▁한눈	-17479
▁환산	-17480
▁슬라이더	-17481
▁물류	-17482
▁피노	-17483
▁달린다	-17484
▁미술관	-17485
▁오컬	-17486
▁데미안	-17487
▁몰아붙이	-17488
▁과열	-17489
▁교원	-17490
▁스콜피온	-17491
▁내용물	-17492
▁ㅂ	-17493
▁산전	-17494
▁추기	-17495
▁타쿠야	-17496
▁메모리얼	-17497
▁한판	-17498
샤인	-17499
▁낙서	-17500
▁패하	-17501
▁스러움	-17502
▁카니발	-17503
light	-17504
▁낯선	-17505
▁로어	-17506
▁사주	-17507
▁체르	-17508
▁레닌	-17509
▁라이엇	-17510
▁1911	-17511
▁플랜트	-17512
▁전곡	-17513
▁정승	-17514
▁검거	-17515
▁낭만	-17516
▁이보	-17517
▁찍히	-17518
▁베이커	-17519
▁올라서	-17520
티티	-17521
니컬	-17522
월드	-17523
▁꺼져	-17524
▁은빛	-17525
▁패권	-17526
▁정선	-17527
▁red	-17528
▁'~	-17529
▁노노	-17530
▁서프	-17531
▁자백	-17532
▁부록	-17533
▁약수	-17534
▁픽처	-17535
▁고참	-17536
▁해밀	-17537
소년단	-17538
▁소품	-17539
▁시끄럽	-17540
▁브룩	-17541
▁초라	-17542
▁발령	-17543
▁에이미	-17544
▁귀한	-17545
▁없음	-17546
▁KN	-17547
▁딸리	-17548
▁제후	-17549
ANCED	-17550
▁나성	-17551
▁할지라도	-17552
▁대기실	-17553
▁우치하	-17554
▁우여	-17555
▁정민	-17556
▁하노	-17557
장치	-17558
▁폐업	-17559
▁허약	-17560
▁사이비	-17561
와르	-17562
▁변모	-17563
▁생리	-17564
▁아라시	-17565
▁거쳐서	-17566
▁세이야	-17567
HC	-17568
▁통찰	-17569
▁교명	-17570
▁냉혹	-17571
▁질리	-17572
▁다량	-17573
▁미움	-17574
▁소셜	-17575
▁here	-17576
▁러시아군	-17577
데라	-17578
▁010	-17579
▁맹수	-17580
▁음료수	-17581
▁기교	-17582
▁조선소	-17583
▁Take	-17584
ASY	-17585
▁독단	-17586
▁서태지	-17587
▁고드	-17588
▁크류	-17589
▁301	-17590
▁GPS	-17591
▁나아졌	-17592
▁클러치	-17593
▁오아시스	-17594
▁FO	-17595
▁스러웠	-17596
▁카즈미	-17597
▁상반	-17598
▁앵글	-17599
▁업자	-17600
▁해온	-17601
▁BMW	-17602
▁di	-17603
▁다지	-17604
▁NFL	-17605
▁야나기	-17606
▁유창	-17607
▁남아프리카	-17608
세움	-17609
▁지탱	-17610
▁str	-17611
▁Inv	-17612
▁Mix	-17613
▁는커녕	-17614
▁뮐	-17615
eek	-17616
▁래빗	-17617
▁부적절	-17618
▁오컬트	-17619
▁마스터즈	-17620
▁체류	-17621
▁야구단	-17622
▁무트	-17623
▁세터	-17624
▁액스	-17625
▁재상	-17626
▁커져	-17627
▁화합	-17628
▁붙인다	-17629
▁괴이	-17630
▁로켓단	-17631
▁게르만	-17632
▁강정	-17633
▁익산	-17634
▁나리타	-17635
▁미하일	-17636
▁어떡	-17637
▁헌트	-17638
▁저축	-17639
▁특색	-17640
▁광란	-17641
▁페라리	-17642
▁하계	-17643
▁정국	-17644
▁둘째치	-17645
▁골수	-17646
▁세바스	-17647
▁빌헬름	-17648
▁내레이션	-17649
▁환장	-17650
▁let	-17651
▁야구부	-17652
▁타카히로	-17653
▁Single	-17654
▁영국인	-17655
▁가둬	-17656
▁승하	-17657
▁CGV	-17658
IO	-17659
▁gu	-17660
▁예민	-17661
▁형벌	-17662
▁Aut	-17663
▁프레데터	-17664
▁담원	-17665
▁티르	-17666
▁피파	-17667
▁출입구	-17668
38	-17669
▁내쫓	-17670
▁어르	-17671
▁타카오	-17672
▁방탄소년단	-17673
▁투덜	-17674
▁Ult	-17675
서리	-17676
▁드미	-17677
▁마방	-17678
▁야요	-17679
▁촉진	-17680
ena	-17681
oom	-17682
▁ad	-17683
▁유니버	-17684
비지	-17685
▁신천	-17686
▁오도	-17687
▁뉴타입	-17688
lex	-17689
▁반주	-17690
▁의거	-17691
교사	-17692
시장	-17693
▁요령	-17694
▁aquarius	-17695
▁사오	-17696
▁소홀	-17697
▁지효	-17698
▁252	-17699
▁호위함	-17700
▁껌	-17701
▁우디	-17702
▁백두	-17703
▁폐인	-17704
▁하즈	-17705
uture	-17706
▁퍼블	-17707
▁촉구	-17708
▁퍼졌	-17709
▁통솔력	-17710
▁라다	-17711
▁맡겼	-17712
▁나아지	-17713
▁ADVANCED	-17714
▁니르	-17715
▁스트림	-17716
각형	-17717
▁YG	-17718
▁이룰	-17719
▁파기	-17720
▁mA	-17721
▁재보	-17722
▁밀가루	-17723
▁녹스	-17724
▁승낙	-17725
▁EPL	-17726
▁메커	-17727
▁집요	-17728
▁하로	-17729
▁대성공	-17730
▁이트	-17731
▁얼룩	-17732
▁오자	-17733
▁자음	-17734
▁잠겨	-17735
▁내려서	-17736
32	-17737
모트	-17738
▁공직	-17739
▁교제	-17740
▁백종	-17741
▁이동기	-17742
▁깨졌	-17743
▁아틀란	-17744
세우스	-17745
▁서유럽	-17746
▁스냅드래곤	-17747
▁수차례	-17748
▁카르타	-17749
▁속임수	-17750
▁Real	-17751
▁거창	-17752
▁512	-17753
▁사카이	-17754
▁로젠	-17755
▁코미디언	-17756
브론	-17757
▁파나	-17758
▁Dec	-17759
▁Storm	-17760
▁얏	-17761
▁계신	-17762
▁초계	-17763
니케이션	-17764
▁전한	-17765
▁츠네	-17766
▁정관	-17767
▁케네	-17768
ital	-17769
▁뜸	-17770
덱스	-17771
성어	-17772
▁멜리	-17773
▁버금가	-17774
▁둥글	-17775
▁느려서	-17776
▁포구	-17777
▁DSP	-17778
▁커뮤니케이션	-17779
▁별거	-17780
▁재발	-17781
▁광화문	-17782
▁스케이트	-17783
대왕	-17784
▁최장	-17785
▁폭언	-17786
▁멘토	-17787
▁저상버스	-17788
▁닛산	-17789
▁는다며	-17790
▁어쩐지	-17791
▁하야테	-17792
▁2022	-17793
▁아카이브	-17794
▁알프레드	-17795
▁슬프	-17796
▁제때	-17797
▁하원	-17798
레오	-17799
▁김시	-17800
▁섬뜩	-17801
▁항성	-17802
▁프란츠	-17803
▁헤이세이	-17804
▁견뎌	-17805
▁머독	-17806
▁여차	-17807
▁처방	-17808
▁도넛	-17809
▁Med	-17810
▁돌려서	-17811
▁츳코	-17812
▁|[	-17813
▁꼬박	-17814
▁왕성	-17815
네즈	-17816
▁사이먼	-17817
▁발하	-17818
▁운동가	-17819
ano	-17820
▁강급	-17821
▁그딴	-17822
▁사하	-17823
▁절도	-17824
▁뇨	-17825
▁문관	-17826
▁브록	-17827
▁텐트	-17828
곡절	-17829
▁명지	-17830
▁스탬	-17831
▁Def	-17832
▁샤르	-17833
▁신승	-17834
▁학파	-17835
▁Gun	-17836
▁켓	-17837
▁손길	-17838
▁엿볼	-17839
▁나오미	-17840
▁아쉬웠	-17841
▁커진다	-17842
▁가리킨다	-17843
▁가즈	-17844
▁토드	-17845
▁우여곡절	-17846
▁원치	-17847
▁급속도	-17848
▁받아들인	-17849
▁정찰기	-17850
▁사춘	-17851
▁틀림없	-17852
박혀	-17853
▁횡령	-17854
▁다람	-17855
▁선가	-17856
▁윤석민	-17857
▁포식자	-17858
▁애플리케이션	-17859
▁정몽	-17860
ude	-17861
▁더해	-17862
소타	-17863
▁알아차리	-17864
▁아토	-17865
▁야요이	-17866
▁정착지	-17867
▁지나간	-17868
▁QP	-17869
▁youtu	-17870
▁ER	-17871
▁거침	-17872
▁착공	-17873
▁Hero	-17874
▁HR	-17875
▁자릿	-17876
▁베토벤	-17877
▁Zero	-17878
경민	-17879
▁크래시	-17880
▁어울린다	-17881
▁핍	-17882
▁산출	-17883
마사	-17884
공학	-17885
▁등용	-17886
▁미네소타	-17887
노트	-17888
▁경관	-17889
▁돌변	-17890
▁만신	-17891
▁클럭	-17892
▁거느리	-17893
UG	-17894
▁Rad	-17895
▁히다	-17896
▁데이지	-17897
▁매료	-17898
▁시놉	-17899
▁트렌드	-17900
DDR	-17901
▁거액	-17902
▁공안	-17903
▁정주	-17904
▁취할	-17905
apan	-17906
▁보그	-17907
▁강해진다	-17908
▁Warhammer	-17909
▁격변	-17910
▁라티	-17911
▁부설	-17912
▁송곳니	-17913
▁야가미	-17914
부리	-17915
▁보이즈	-17916
▁EXTRA	-17917
▁대장간	-17918
▁선샤인	-17919
병기	-17920
▁관습	-17921
▁Cal	-17922
ett	-17923
▁재탕	-17924
▁은색	-17925
▁390	-17926
▁시놉시스	-17927
폴트	-17928
▁해봐도	-17929
39	-17930
▁추격전	-17931
▁레터	-17932
▁아슈	-17933
ning	-17934
▁크로스오버	-17935
ours	-17936
▁탐험가	-17937
▁샌드위치	-17938
▁롱주	-17939
▁시급	-17940
▁엄연	-17941
▁스프레이	-17942
▁받아들인다	-17943
▁콴	-17944
▁급증	-17945
▁암석	-17946
▁압승	-17947
▁보리스	-17948
▁알려준	-17949
▁루팅	-17950
▁묻힌	-17951
▁평하	-17952
▁Ry	-17953
어먹	-17954
조림	-17955
▁차고	-17956
▁밝혀져	-17957
▁툭하면	-17958
▁키시	-17959
▁붙여진	-17960
소연	-17961
▁예거	-17962
▁227	-17963
▁Ag	-17964
▁총점	-17965
▁경부선	-17966
▁Park	-17967
▁오거	-17968
▁동맹군	-17969
▁풀이	-17970
▁스러울	-17971
▁다채	-17972
▁머물렀	-17973
lection	-17974
ler	-17975
▁비밀리	-17976
러져	-17977
unt	-17978
▁태백	-17979
unk	-17980
▁주름	-17981
▁표준어	-17982
BE	-17983
▁만장	-17984
▁초구	-17985
▁BLACK	-17986
aid	-17987
▁백악	-17988
▁오정	-17989
▁Mbps	-17990
▁신노스케	-17991
▁Sweet	-17992
arm	-17993
▁예하	-17994
▁빤	-17995
▁찾아갔	-17996
▁투영	-17997
레마	-17998
▁냅다	-17999
▁합숙	-18000
어야	-18001
▁웍스	-18002
▁사춘기	-18003
▁추운	-18004
irect	-18005
▁1934	-18006
▁프리킥	-18007
▁htm	-18008
▁우등	-18009
▁홍련	-18010
une	-18011
▁가야	-18012
▁자습	-18013
리스크	-18014
▁은신처	-18015
▁기신	-18016
▁대련	-18017
▁블룸	-18018
▁윤영	-18019
▁사이다	-18020
▁교가	-18021
▁나크	-18022
▁미시마	-18023
▁동이	-18024
▁이여	-18025
▁시부야	-18026
▁John	-18027
▁최민	-18028
▁정보원	-18029
▁숙제	-18030
▁주변인	-18031
▁when	-18032
▁마사히로	-18033
▁달했	-18034
▁분양	-18035
▁휴지	-18036
▁any	-18037
▁정명훈	-18038
▁아틀란티스	-18039
▁우터	-18040
▁위임	-18041
나타	-18042
▁서북	-18043
▁세균	-18044
▁아랍어	-18045
▁노보	-18046
▁반쪽	-18047
▁파이팅	-18048
▁파비	-18049
▁보좌관	-18050
▁연막탄	-18051
▁조슈아	-18052
▁용납	-18053
▁포섭	-18054
워진	-18055
▁뜻밖	-18056
▁심복	-18057
▁요가	-18058
▁자객	-18059
▁샤이니	-18060
▁멱살	-18061
▁쇼우	-18062
▁실컷	-18063
▁레이브	-18064
▁몽환	-18065
▁사칭	-18066
살이	-18067
▁오현	-18068
▁쿠퍼	-18069
▁대지진	-18070
▁양방향	-18071
▁프리퀄	-18072
▁내려간	-18073
▁Space	-18074
▁리비	-18075
▁을시	-18076
▁쿠보	-18077
oj	-18078
ather	-18079
▁구스	-18080
▁Gal	-18081
ouble	-18082
▁밴쿠버	-18083
숭아	-18084
▁youtube	-18085
로리	-18086
▁난도	-18087
▁안즈	-18088
▁영수	-18089
▁인삼	-18090
▁주재	-18091
▁홍수	-18092
▁린드	-18093
▁토치	-18094
▁공적	-18095
▁나설	-18096
44	-18097
▁페가수스	-18098
▁Hel	-18099
▁장민	-18100
▁구스타	-18101
▁노리코	-18102
▁연대기	-18103
▁오소	-18104
▁치요	-18105
▁컷인	-18106
▁유상	-18107
▁아오키	-18108
▁피고인	-18109
▁기다려야	-18110
▁권하	-18111
▁햐	-18112
ords	-18113
▁개머리	-18114
uct	-18115
▁계약서	-18116
▁쿠루미	-18117
▁폄	-18118
▁제련	-18119
▁효용	-18120
▁정부군	-18121
▁낙사	-18122
▁당겨	-18123
▁용족	-18124
▁에디터	-18125
▁날아갔	-18126
▁서바이버	-18127
▁료코	-18128
▁231	-18129
▁코스모스	-18130
립스	-18131
br	-18132
▁익힌	-18133
▁달려드	-18134
▁죽임	-18135
▁진명	-18136
▁수송기	-18137
▁오라클	-18138
▁태어날	-18139
▁명심	-18140
▁자물	-18141
▁교활	-18142
▁Feel	-18143
oe	-18144
▁사념	-18145
▁케도	-18146
▁베가스	-18147
▁코타	-18148
ames	-18149
▁옅	-18150
▁가할	-18151
▁짓거리	-18152
KO	-18153
▁고영	-18154
▁흡입	-18155
▁관람객	-18156
▁은근슬쩍	-18157
▁LEVEL	-18158
▁젓	-18159
▁op	-18160
▁유족	-18161
▁옥수수	-18162
▁Bu	-18163
▁꺼려	-18164
▁경상도	-18165
▁달릴	-18166
▁판명	-18167
▁PG	-18168
▁중대장	-18169
▁타타	-18170
▁하가	-18171
TER	-18172
▁보름	-18173
▁자물쇠	-18174
END	-18175
▁여긴다	-18176
▁비견	-18177
▁즐거움	-18178
▁텝	-18179
▁Je	-18180
▁거슬러	-18181
사노	-18182
▁웬디	-18183
▁흘렸	-18184
▁근방	-18185
▁두각	-18186
▁안톤	-18187
▁Kim	-18188
개골	-18189
거스	-18190
▁HT	-18191
▁금단	-18192
▁함경	-18193
▁Say	-18194
▁mAh	-18195
▁가르시아	-18196
▁최준	-18197
▁브라우저	-18198
▁약품	-18199
▁코스모	-18200
▁요하	-18201
▁램지	-18202
▁아날	-18203
▁로더	-18204
▁훔친	-18205
▁이부키	-18206
▁나가사키	-18207
▁간직	-18208
▁출진	-18209
▁페드로	-18210
▁방주	-18211
ople	-18212
▁근로자	-18213
▁때렸	-18214
yr	-18215
▁잭스	-18216
▁트리니티	-18217
▁모였	-18218
▁손발	-18219
▁피했	-18220
▁오사무	-18221
▁먹혀	-18222
▁끈질기	-18223
▁법령	-18224
▁조공	-18225
▁나카지마	-18226
▁투지	-18227
▁부착물	-18228
▁앙쥬	-18229
▁견고	-18230
▁대첩	-18231
▁바카	-18232
▁협의회	-18233
▁햄튼	-18234
▁min	-18235
비슷	-18236
▁라몬	-18237
▁마쓰	-18238
▁씌우	-18239
▁need	-18240
▁사루	-18241
리아스	-18242
▁구식	-18243
▁소양	-18244
▁아와	-18245
▁설립자	-18246
▁덮치	-18247
▁지출	-18248
▁피통	-18249
▁병합	-18250
▁일간	-18251
▁주점	-18252
▁청문회	-18253
▁카나코	-18254
thing	-18255
▁경멸	-18256
▁흑발	-18257
▁JYP	-18258
▁마즈	-18259
▁Ret	-18260
▁꼬맹이	-18261
분투	-18262
▁피쉬	-18263
▁남녀공학	-18264
▁조련	-18265
교도	-18266
▁들어도	-18267
▁막스	-18268
▁성물	-18269
▁에니	-18270
▁재기	-18271
vil	-18272
▁레베카	-18273
▁크레인	-18274
▁아누	-18275
▁이그	-18276
자스	-18277
▁도봉	-18278
▁골절	-18279
▁Sou	-18280
후미	-18281
▁치솟	-18282
▁코아	-18283
▁겸임	-18284
▁비우	-18285
▁를르슈	-18286
▁좋아했	-18287
▁여제	-18288
나우	-18289
태격	-18290
▁Dem	-18291
▁티격태격	-18292
동물	-18293
▁백스	-18294
▁헤어진	-18295
▁조동	-18296
설수	-18297
▁덴마	-18298
▁비화	-18299
▁였었	-18300
▁박살난	-18301
▁나타낸다	-18302
▁모리스	-18303
▁컬트	-18304
▁데인	-18305
▁후사	-18306
▁Tour	-18307
▁명계	-18308
▁발열	-18309
▁하강	-18310
▁GTX	-18311
▁딸려	-18312
▁변기	-18313
▁스타킹	-18314
▁지원군	-18315
uel	-18316
곡리	-18317
ODE	-18318
▁부포	-18319
▁평면	-18320
▁버팔로	-18321
▁카로	-18322
▁똑바로	-18323
▁견습	-18324
▁식구	-18325
▁탤런트	-18326
▁동률	-18327
▁쌓았	-18328
▁지네	-18329
▁톰슨	-18330
▁뚫려	-18331
▁역마	-18332
▁전광판	-18333
▁규율	-18334
▁나이지	-18335
▁나이지리아	-18336
▁동남아시아	-18337
▁횃	-18338
뚜기	-18339
▁로밍	-18340
▁어정	-18341
▁커진	-18342
▁430	-18343
▁LOL	-18344
▁개머리판	-18345
▁셔먼	-18346
▁Kill	-18347
▁아로	-18348
▁외친다	-18349
▁포커스	-18350
▁프랑켄슈타인	-18351
▁신스	-18352
▁형주	-18353
aser	-18354
▁위아래	-18355
▁닳	-18356
▁238	-18357
▁어려서	-18358
노프	-18359
린트	-18360
▁도가	-18361
▁부대장	-18362
▁라카	-18363
▁KBL	-18364
▁근육질	-18365
▁노동조합	-18366
▁매튜	-18367
▁마일리	-18368
▁짭	-18369
▁지중해	-18370
부수	-18371
▁껴안	-18372
메이트	-18373
▁달려오	-18374
▁스틸러스	-18375
비야	-18376
▁만년	-18377
▁초밥	-18378
▁끌어안	-18379
▁Orig	-18380
▁사서	-18381
▁요요	-18382
▁정근우	-18383
▁GC	-18384
▁가했	-18385
▁더듬	-18386
▁서남	-18387
▁포이즌	-18388
슬로	-18389
▁스메	-18390
▁치어리	-18391
도어	-18392
▁원가	-18393
▁남원	-18394
▁엘사	-18395
▁입점	-18396
▁르블랑	-18397
▁파병	-18398
arth	-18399
▁some	-18400
▁사절	-18401
▁포츈	-18402
▁떨치	-18403
▁236	-18404
▁싸워서	-18405
▁드럼매니아	-18406
▁참치	-18407
▁철구	-18408
▁타깃	-18409
제트	-18410
▁구한다	-18411
▁엑스칼리버	-18412
▁하피	-18413
▁보여진다	-18414
▁플리트	-18415
▁마로	-18416
▁가까울	-18417
▁간다면	-18418
▁새겨져	-18419
▁Great	-18420
려야	-18421
▁놓이	-18422
▁열화	-18423
▁이북	-18424
▁격납고	-18425
▁넘어선	-18426
▁사일런트	-18427
▁WORLD	-18428
ner	-18429
▁한인	-18430
▁이규	-18431
▁치아키	-18432
▁Beat	-18433
▁놀러	-18434
▁목장	-18435
▁테디	-18436
▁싯	-18437
고스	-18438
▁인턴	-18439
▁미니건	-18440
▁연주자	-18441
▁매크로	-18442
▁파라오	-18443
▁방아	-18444
▁기대감	-18445
▁마커스	-18446
ormal	-18447
▁군세	-18448
▁귀여워	-18449
▁엘라	-18450
▁장문	-18451
▁표류	-18452
▁265	-18453
▁원정대	-18454
▁뫼비우스	-18455
onna	-18456
▁옐로우	-18457
▁간과	-18458
▁선보인다	-18459
▁아스가르드	-18460
팽이	-18461
▁메커니즘	-18462
▁올레	-18463
▁방탄복	-18464
▁Story	-18465
▁팔다리	-18466
상부	-18467
▁아브	-18468
▁일파	-18469
▁감찰	-18470
▁아디	-18471
ways	-18472
▁NAS	-18473
▁누른	-18474
▁하르트	-18475
▁도왔	-18476
▁복식	-18477
▁Luc	-18478
▁them	-18479
▁경기관총	-18480
▁김건	-18481
▁이리야	-18482
▁PERF	-18483
▁이라든지	-18484
UND	-18485
▁세이프	-18486
▁다비드	-18487
▁주유소	-18488
슐리	-18489
▁씌워	-18490
▁넥스트	-18491
▁위안부	-18492
▁상병	-18493
▁통통	-18494
▁마츠다	-18495
▁부순	-18496
▁애써	-18497
▁이윤열	-18498
▁고야	-18499
▁원사	-18500
▁티베트	-18501
▁신야	-18502
▁앞머리	-18503
▁구실	-18504
▁블러디	-18505
▁스트롱	-18506
▁내신	-18507
▁수트	-18508
37	-18509
마니	-18510
▁노미	-18511
▁로아	-18512
▁지킨	-18513
▁좁혀	-18514
▁WWF	-18515
▁3500	-18516
▁밀리터리	-18517
▁루가	-18518
▁일전	-18519
▁저술	-18520
▁사이킥	-18521
▁Tech	-18522
▁백과	-18523
▁항소	-18524
iful	-18525
▁MAD	-18526
리역	-18527
문화	-18528
▁her	-18529
▁바바리	-18530
▁쑨	-18531
▁강민호	-18532
▁놓친	-18533
▁질럿	-18534
▁<<	-18535
▁서슴	-18536
▁숙이	-18537
▁리비아	-18538
▁피스톨	-18539
▁편찬	-18540
▁거처	-18541
▁땅굴	-18542
▁개관	-18543
▁견딜	-18544
▁기울이	-18545
러미	-18546
배기	-18547
▁폭죽	-18548
▁남겨진	-18549
레스타인	-18550
구멍	-18551
입구역	-18552
떨어진	-18553
주니어	-18554
▁쿡	-18555
ANG	-18556
▁빡세	-18557
▁선율	-18558
▁이모티콘	-18559
▁Album	-18560
▁내세운	-18561
▁대나무	-18562
▁사우디	-18563
시간	-18564
▁풀타임	-18565
▁픽처스	-18566
ental	-18567
fl	-18568
▁DIO	-18569
▁순전히	-18570
▁정준하	-18571
▁코코로	-18572
▁When	-18573
▁시속	-18574
▁살아왔	-18575
▁로데	-18576
▁정설	-18577
▁쿠즈	-18578
천리	-18579
▁공평	-18580
▁불굴	-18581
▁상디	-18582
▁조라	-18583
▁한국식	-18584
▁한없이	-18585
▁타오	-18586
▁김장	-18587
▁곧이어	-18588
▁가희	-18589
▁막시	-18590
▁체하	-18591
▁로드리게	-18592
▁약사	-18593
▁족족	-18594
▁출국	-18595
포동	-18596
▁암묵	-18597
▁GE	-18598
▁외화	-18599
▁칼데아	-18600
▁라르	-18601
▁아닌지라	-18602
ations	-18603
▁팔아먹	-18604
▁즌	-18605
▁익혀	-18606
▁기껏해야	-18607
▁케네디	-18608
실록	-18609
▁훌쩍	-18610
▁공연장	-18611
▁희한	-18612
▁마개	-18613
▁Step	-18614
프스	-18615
▁갈비	-18616
▁위드	-18617
▁돌려받	-18618
ene	-18619
▁놓쳤	-18620
▁볼링	-18621
▁232	-18622
가키	-18623
▁급감	-18624
▁노어	-18625
▁세인	-18626
▁범하	-18627
▁샛	-18628
▁마성	-18629
▁실기	-18630
▁조부	-18631
▁집게	-18632
▁오레	-18633
▁레티	-18634
▁일괄	-18635
▁드로이드	-18636
▁공구	-18637
▁물결	-18638
▁진중	-18639
통일	-18640
▁헤엄	-18641
▁나눈다	-18642
▁마레	-18643
▁맨서	-18644
▁얼른	-18645
▁숙적	-18646
▁의약	-18647
▁테드	-18648
▁금세	-18649
▁수첩	-18650
▁옥스	-18651
▁참수	-18652
▁홍차	-18653
▁호루스	-18654
▁음파	-18655
▁조건부	-18656
▁다림	-18657
▁루디	-18658
▁역적	-18659
▁산산조각	-18660
▁번쩍	-18661
▁she	-18662
▁나눠서	-18663
예프	-18664
OSS	-18665
▁두개골	-18666
▁결번	-18667
▁심영	-18668
▁세리카	-18669
▁잃어버렸	-18670
▁재결	-18671
▁행렬	-18672
▁원산	-18673
▁부끄러워	-18674
▁다나	-18675
▁대북	-18676
▁의병	-18677
▁전한다	-18678
질러	-18679
▁언뜻	-18680
▁힛	-18681
▁금빛	-18682
▁깃들	-18683
▁엽기	-18684
페르노	-18685
▁."	-18686
▁플롯	-18687
▁갔으나	-18688
▁공격대	-18689
▁변속	-18690
▁도맡	-18691
▁독살	-18692
▁바빌	-18693
▁소굴	-18694
▁다르크	-18695
▁인페르노	-18696
▁넬슨	-18697
▁서강	-18698
▁전위	-18699
▁푸딩	-18700
▁Death	-18701
시즘	-18702
▁사학	-18703
▁최승	-18704
▁푸시	-18705
▁비타민	-18706
ait	-18707
▁수없이	-18708
▁수식어	-18709
▁죽여야	-18710
▁맥크리	-18711
▁투혼	-18712
▁Champion	-18713
▁괄호	-18714
▁비행장	-18715
▁칭한다	-18716
▁지날수록	-18717
▁대영	-18718
▁양현종	-18719
▁팔레스타인	-18720
▁가한	-18721
▁무례	-18722
▁안영	-18723
▁육신	-18724
▁총애	-18725
▁가져올	-18726
▁찻	-18727
게일	-18728
투사	-18729
▁벨리	-18730
▁천자	-18731
▁혼잡	-18732
▁1931	-18733
▁인기가요	-18734
사전	-18735
body	-18736
▁SNK	-18737
▁착안	-18738
그래피	-18739
▁사이렌	-18740
▁외교관	-18741
▁퍼레이드	-18742
▁뮐러	-18743
▁삼켜	-18744
▁일컬	-18745
▁하네	-18746
로그램	-18747
▁sec	-18748
▁콘스탄티노	-18749
▁서경	-18750
▁양육	-18751
▁왕정	-18752
▁지마	-18753
▁마세요	-18754
▁삼국사기	-18755
뉴스	-18756
▁부러지	-18757
▁장지	-18758
틀린	-18759
▁art	-18760
▁이뤄진	-18761
▁무마	-18762
▁이불	-18763
▁510	-18764
▁찼	-18765
▁흐른	-18766
▁거둔다	-18767
▁Line	-18768
▁승승장구	-18769
IDE	-18770
▁도면	-18771
▁엘더	-18772
AE	-18773
▁닷컴	-18774
▁뜨거	-18775
▁Tra	-18776
▁교묘	-18777
▁박원	-18778
사무소	-18779
▁조각상	-18780
▁디나	-18781
▁세울	-18782
▁카툰	-18783
▁니콜라	-18784
스틱	-18785
▁족보	-18786
▁파커	-18787
▁리더십	-18788
▁쟤	-18789
▁취한다	-18790
▁타츠미	-18791
도스	-18792
ume	-18793
▁불륜	-18794
▁스캇	-18795
▁여길	-18796
▁이면	-18797
▁토모코	-18798
▁다던	-18799
▁미끄	-18800
▁구가	-18801
▁매혹	-18802
▁래디	-18803
▁이크	-18804
▁키는	-18805
▁LCS	-18806
▁Who	-18807
빙글	-18808
▁밀짚	-18809
▁뻔한	-18810
▁자결	-18811
▁장발	-18812
▁쿠토	-18813
바야시	-18814
▁종로구	-18815
▁윤지	-18816
▁흑색	-18817
▁다이어	-18818
▁남서	-18819
▁바빠	-18820
▁워페어	-18821
▁프리티	-18822
rough	-18823
▁1700	-18824
▁이클	-18825
▁황녀	-18826
▁Bus	-18827
주곡	-18828
하임	-18829
▁나즈	-18830
▁포박	-18831
▁데려왔	-18832
▁탈락자	-18833
▁꼼꼼	-18834
▁비방	-18835
▁타사	-18836
▁조성주	-18837
▁첩자	-18838
▁케일	-18839
▁코라	-18840
슬라비아	-18841
▁1935	-18842
▁유고슬라비아	-18843
▁치뤘	-18844
욕장	-18845
▁철자	-18846
상스	-18847
파일	-18848
▁TRA	-18849
▁신뢰도	-18850
▁Apple	-18851
▁존기	-18852
마을	-18853
▁섬머	-18854
▁지석	-18855
orever	-18856
ESS	-18857
▁환율	-18858
▁전면전	-18859
▁XBOX	-18860
▁이코	-18861
▁추축	-18862
▁캡쳐	-18863
▁소리치	-18864
윤수	-18865
ral	-18866
▁재킷	-18867
▁쾌락	-18868
▁기색	-18869
▁뭉개	-18870
▁변칙	-18871
▁신진	-18872
▁747	-18873
▁이민자	-18874
▁클래시	-18875
▁에리스	-18876
듭니다	-18877
▁뛰어다니	-18878
84	-18879
▁자하	-18880
▁횃불	-18881
INAL	-18882
▁백웅	-18883
[...]
