[PAD]
[UNK]
[BOS]
[EOS]
[CLS]
[SEP]
[MASK]
▁▃
▁이
▁.
▁에
▁는
▁다
▁의
▁을
▁하
▁가
▁,
▁한
▁고
▁를
▁은
▁1
▁지
▁으
▁도
▁기
▁있
▁2
▁로
▁아
▁그
▁에서
▁으로
▁사
▁인
▁시
▁어
▁들
▁대
▁라
▁수
▁게
▁보
▁자
▁나
▁일
▁되
▁전
▁해
▁었
▁과
▁-
▁면
▁적
▁마
▁것
▁만
▁스
▁3
▁와
▁주
▁했
▁정
▁부
▁상
▁모
▁20
▁년
▁공
▁때
▁'
▁한다
▁:
▁여
▁경
▁제
▁유
▁중
▁된
▁오
▁위
▁없
▁지만
▁4
▁소
▁무
▁비
▁성
▁등
▁할
▁거
▁않
▁5
▁에게
▁던
▁개
▁미
▁0
▁조
▁세
▁며
▁바
▁"
▁월
▁서
▁201
▁장
▁방
▁/
▁내
▁동
▁선
▁카
▁연
▁구
▁타
▁신
▁안
▁영
▁말
▁화
▁후
▁생
▁당
▁리
▁발
▁버
▁진
▁까
▁차
▁레
▁는데
▁더
▁때문
▁6
▁원
▁파
▁강
▁우
▁10
▁명
▁실
▁최
▁까지
▁노
▁문
▁불
▁번
▁데
▁7
▁같
▁단
▁였
▁라는
▁라고
▁포
▁회
▁된다
▁관
▁받
▁S
▁특
▁8
▁많
▁결
▁초
▁반
▁!
▁았
▁다고
▁작
▁드
▁알
▁역
▁프
▁19
▁면서
▁처
▁배
▁코
▁계
▁9
▁경우
▁피
▁분
▁공격
▁남
▁추
▁함
▁건
▁아니
▁A
▁다는
▁사용
▁물
▁출
▁본
▁국
▁못
▁야
▁현
▁자신
▁크
▁매
레이
▁달
▁편
▁M
▁좋
▁치
▁니
▁이후
▁입
▁점
▁패
▁감
▁%
▁호
▁요
▁트
▁학
▁교
▁따
▁두
▁정도
▁재
▁사람
▁저
▁메
▁통
▁C
▁예
▁속
▁또
▁그리
▁플
스트
▁B
▁가능
▁T
▁김
▁설
▁캐
▁걸
▁참
▁형
▁평
▁등장
▁D
▁다른
▁~
▁부터
▁군
▁+
▁쓰
▁돌
▁토
▁살
▁..
▁죽
▁올
▁이나
▁종
▁12
▁음
▁으며
▁승
▁아이
▁?
▁체
▁보다
▁권
▁게임
▁외
▁키
▁팀
▁는다
▁간
▁판
er
▁200
▁11
▁잘
▁직
▁용
▁루
▁L
00
▁그리고
▁해서
▁네
▁맞
▁확
▁심
▁애
▁하나
▁행
▁경기
▁변
▁사실
▁필
in
▁박
▁운
▁듯
▁테
▁다가
▁시간
▁F
▁엔
▁날
▁P
▁뒤
▁위해
▁투
▁디
▁모습
니다
▁히
▁목
▁베
▁집
▁언
▁높
▁약
▁대한
▁활
▁G
▁이상
▁순
▁사이
▁이름
▁준
지만
▁각
▁상대
▁표
▁양
▁나오
▁E
▁그러
▁클
스터
▁능
an
▁려
▁볼
▁시작
▁존
▁효
▁문제
▁15
on
▁일본
▁잡
▁함께
▁어서
▁거나
▁힘
▁왕
▁하지만
▁손
▁증
▁병
▁생각
▁별
▁겠
▁한국
▁난
▁너
▁으면
▁다시
▁#
▁임
▁캐릭
▁H
▁합
▁브
▁R
▁막
▁완
▁천
▁K
▁만들
▁폭
▁열
▁캐릭터
▁끝
▁들어
▁능력
대로
▁프로
▁t
▁총
▁플레이
▁독
▁블
▁시즌
▁I
▁먹
▁N
▁스킬
▁항
▁페
이트
▁처럼
▁근
▁커
▁광
▁추가
▁줄
▁복
▁가지
▁식
▁m
▁검
▁상황
▁가장
▁친
▁새
▁쿠
▁태
▁또한
▁카드
▁삼
▁따라
미지
or
▁상태
▁채
▁당시
▁누
▁느
▁모두
▁빠
▁결국
ar
▁백
▁충
▁효과
▁산
▁길
▁다만
▁터
▁곡
▁업
▁모든
▁얼
▁앞
▁18
▁티
▁16
▁보여
▁악
▁그런
▁넘
▁금
▁많이
▁눈
▁보이
▁러
▁전투
▁30
▁O
▁시리
▁및
at
▁급
▁될
▁온
▁민
▁13
▁레벨
▁선수
▁슈
▁그래
he
▁세계
▁]
▁s
▁싸
▁W
▁머
▁존재
▁케
라이
▁나온
▁14
▁[
▁현재
▁라이
▁습
▁골
▁큰
▁매우
▁시리즈
▁취
▁으나
▁무기
▁상당
▁긴
▁갈
▁스타
▁물론
▁팬
▁그러나
▁레이
▁다면
▁첫
▁마법
▁극
▁절
▁탄
인다
▁엄
므로
en
▁얻
▁17
▁황
▁찾
▁c
▁자체
▁창
▁그렇
▁기술
▁100
▁밀
▁뿐
▁00
▁이런
▁실제
▁청
▁탈
▁주인
▁아닌
▁피해
▁해야
▁이유
으나
▁25
▁관련
▁벌
▁허
거리
▁떨
ou
▁같이
▁V
▁시키
이지
al
린다
▁이용
▁필요
▁U
▁방송
▁여기
▁해당
▁다음
▁기본
▁인데
▁몬
▁인지
▁철
▁지역
▁역시
▁바로
▁법
▁워
▁처음
▁질
▁기록
▁대해
▁곳
▁방어
▁일반
▁거의
▁환
▁돌아
▁째
▁잠
▁귀
▁혼
▁몰
▁이야
리스
▁2017
▁199
▁북
▁둘
▁범
▁대학
▁글
이스
▁아무
으며
▁좀
▁붙
▁냐
▁사건
▁2018
▁여러
▁미국
▁놓
▁에선
▁란
▁격
▁특히
▁는지
▁이야기
▁밖
진다
▁엘
▁k
▁없이
▁부분
▁떨어
▁진행
리아
▁싶
▁영화
es
지막
▁통해
▁달리
▁학교
▁본인
▁인간
▁헤
▁아서
▁증가
▁못하
▁즉
▁2019
▁참고
it
▁버리
▁담
▁슬
▁라면
▁풀
▁리그
▁주인공
▁해도
부분
▁제작
▁든
▁만큼
▁마지막
▁속도
▁작품
▁자기
▁몸
▁그냥
▁21
▁덕
▁50
▁X
▁밝
▁내용
▁보인다
▁2016
▁공격력
▁계속
▁대표
▁수준
▁대부분
▁인물
▁접
▁개요
is
▁암
▁올라
▁몇
▁&
▁팔
▁쪽
전히
▁떠
re
▁어느
▁동안
▁위치
▁비슷
▁딜
어나
▁대신
▁국가
▁22
▁인해
▁w
토리
▁습니다
le
▁홈
▁지금
▁상당히
▁평가
▁축
▁기사
▁활동
▁일부
▁관계
▁타이
▁이전
▁우리
▁낮
▁영상
▁보스
▁J
▁울
▁서울
한다
▁d
▁규
▁체력
▁그대로
▁너무
▁24
▁마다
▁유닛
▁퍼
▁감독
▁최대
▁맡
▁문서
▁괴
▁성공
▁기준
▁시절
▁논
▁홍
ing
▁넣
ic
▁먼
▁제외
▁데미지
▁f
▁중국
▁므로
▁망
▁몬스터
▁츠
▁실제로
▁유저
▁바람
as
▁결과
▁맨
▁뛰
▁정보
▁멤
▁설정
▁센
▁b
▁그녀
시아
▁전쟁
▁지원
▁승리
▁이미
▁23
▁멤버
▁대로
▁소속
▁2015
▁언급
▁쓸
▁자리
▁빌
▁애니
▁님
▁원래
▁칼
▁40
▁도록
▁직접
다가
▁성우
▁컨
▁으니
▁설명
버지
▁링
▁육
▁전체
▁선택
▁이동
▁의미
▁쉽
▁도시
▁마음
▁a
▁씩
▁여자
▁희
운드
▁다르
▁과거
▁봐
▁돈
▁나온다
▁머리
랜드
▁협
▁<
▁봉
▁엄청
▁플레이어
▁들어가
▁묘
▁친구
▁방법
▁갑
▁늘
▁아이템
▁측
▁나타
▁장면
▁출연
이션
▁뉴
▁됐
▁나왔
라도
▁나가
▁준다
▁버전
▁스토리
▁차이
▁새로
▁탑
om
▁향
▁소리
▁꽤
가지
▁즈
am
▁p
▁깨
▁대사
▁놀
▁비해
이드
▁h
▁사랑
▁공식
▁모드
▁혹
벤트
▁압
▁프리
▁조금
▁이것
▁빨
▁개발
▁당하
▁송
▁갖
▁대상
▁198
▁거리
el
▁초반
▁책
▁지나
학교
▁전부
▁파이
▁이어
▁버스
▁연구
▁씨
▁o
▁침
▁려고
▁이벤트
▁답
▁최고
▁남자
▁만든
▁속성
▁로서
▁제대로
▁쇼
▁사라
▁26
▁궁
▁알려
▁동시
▁2014
▁여성
▁기타
▁강화
▁유명
▁파괴
이도
▁듣
▁나이
▁층
▁잔
▁스테
▁정말
▁n
▁아버지
▁역사
▁쉬
▁28
▁류
▁드래
▁색
▁성능
▁자주
▁소환
▁찍
▁학생
▁샤
▁27
▁최종
▁아직
▁앨
▁운영
▁의해
▁우승
▁the
▁회복
▁후반
▁이렇
▁석
▁멀
▁31
▁왜
▁모르
▁당연
▁출신
▁농
▁마이
▁특성
▁그런데
▁=
▁인터
▁라도
▁강력
▁한다는
▁공개
부터
▁확률
▁이때
▁사망
▁유지
▁서로
▁콘
▁마리
▁주로
▁노래
리어
▁착
▁노선
▁움
▁그것
▁발매
어난
▁턴
ol
▁했으나
▁방식
▁위한
▁시켜
▁슈퍼
▁나라
▁발생
▁000
▁써
▁라인
▁마찬
▁특수
▁마찬가지
▁시스
▁정신
▁영향
▁결정
▁오히
▁끌
▁대전
▁월드
▁솔
▁오히려
ion
▁빼
▁변경
▁장비
et
▁영웅
▁비교
▁기존
▁포함
ac
▁수록
▁역할
른다
▁드라
▁인기
▁배우
▁보통
▁게다가
▁르
▁뜻
▁어떤
머니
▁작중
▁32
▁섬
▁억
▁그래도
▁차량
▁중요
▁마을
▁아예
▁가진
▁형태
▁술
▁싱
▁성격
▁세트
▁일단
▁Y
▁좌
▁행동
▁이번
▁버렸
▁그래서
▁난이도
▁이루
▁못했
il
us
프트
▁29
▁부르
▁과정
우스
▁모양
▁맵
▁주장
▁액
▁흑
▁v
▁졌
ig
▁시대
▁음악
▁심지
▁빈
▁이러
▁대회
레이드
ow
▁부족
▁뽑
▁끼
▁최초
민국
ed
▁사회
▁심지어
▁구성
▁2013
▁빛
▁윤
▁스트
▁발동
▁숨
▁이렇게
▁왔
▁풍
▁입장
▁찾아
▁휴
▁만나
▁폐
▁확인
▁힘들
▁유일
간다
▁l
▁가까
▁칸
▁거기
▁어려
▁바이
▁넘어
▁다이
▁사진
▁먼저
▁획
▁애니메
▁정치
▁x
▁60
▁흔
▁아래
▁응
▁여담
▁항목
▁활약
▁조건
▁어떻
▁모델
▁자세
▁원작
▁훈
▁콜
▁35
▁덕분
▁시킨
▁곤
▁바뀌
▁득
▁시스템
▁하이
▁대한민국
▁녹
▁이제
▁Lv
▁완전히
▁감소
▁굉
▁주변
▁드러
▁합니다
▁어야
인트
▁프랑
id
▁내려
▁챔
▁명칭
▁뭐
▁자유
▁독일
▁갤
▁따르
▁순간
ay
▁메이
▁얼굴
▁애니메이션
▁전혀
▁푸
▁특징
▁관리
ad
▁경찰
▁2012
▁잃
▁라며
▁우주
▁차지
▁자동
버스
▁웨
▁적용
▁부대
▁01
▁교육
▁영어
▁굉장
▁가격
나마
▁듀
▁정부
▁패배
▁더라도
▁뮤
▁고등
▁드래곤
▁아군
▁of
▁마스터
▁r
▁실패
▁기간
없이
▁다니
소드
▁오브
▁쳐
▁개인
▁그렇게
▁생산
▁앨범
▁짓
▁얼마
ot
▁건물
▁죠
▁시점
▁한다고
ve
▁그나마
▁새로운
▁견
▁하루
▁지속
▁상승
▁혹은
▁덱
▁아들
and
주의
▁기능
▁벨
▁반대
▁국내
▁밖에
▁작가
▁지구
▁획득
▁처리
디오
▁TV
▁패치
레스
▁휘
▁딸
▁기억
▁에피
▁발견
▁실력
▁반응
▁소개
▁제국
▁도움
▁위해서
너지
▁정확
▁퀘
▁랭
▁만화
▁y
▁익
▁영국
▁동일
▁참조
▁킹
20
▁홀
▁선발
▁대학교
▁보내
▁현대
▁랑
▁조차
▁어도
▁담당
▁맛
▁출시
▁그림
ch
▁맥
▁땅
▁에피소드
▁계획
▁기관
▁쿨
▁초기
▁량
▁세대
▁드라마
▁단계
▁아마
▁밤
▁쓴
▁딱
▁움직
▁판매
▁범위
▁라서
▁또는
un
▁헌
▁폴
▁다며
▁한테
▁가져
▁헬
▁했으며
▁버프
▁퇴
소리
▁시청
▁37
BS
▁The
▁2010
▁틀
▁패턴
▁졸
▁상위
▁탐
▁회사
▁싸우
▁빠르
▁데이
▁문화
▁폭발
▁시기
▁등급
▁나와
▁물리
▁대미지
▁표현
▁따라서
▁요구
▁g
▁타입
▁무시
▁80
▁겨
▁확실
▁수비
▁500
▁사고
▁라운드
▁굉장히
▁St
▁웃
▁죽이
▁진짜
▁스페
▁어떻게
▁인정
▁이미지
▁돼
▁45
▁경험
▁발사
▁불리
ER
▁가족
▁소모
▁파워
▁어디
▁컴
▁생활
▁주의
▁*
▁아야
▁밝혀
▁묘사
▁낙
▁려는
▁세이
▁특별
▁09
▁족
▁활용
▁)
▁오리
▁굴
▁율
▁아주
▁펼
▁중앙
▁줬
dd
▁대체
▁디자
▁연기
▁km
▁진출
▁히로
▁방향
▁듯이
▁운동
▁트리
▁으로서
로스
▁197
▁한정
▁싸움
▁중간
▁엑
▁꿈
▁데뷔
▁02
▁프랑스
▁03
▁그룹
▁믿
인물
▁숙
▁생명
▁어렵
▁제한
▁준비
▁포인트
▁엔딩
▁핵
▁린
▁유리
▁야구
▁2011
▁밴
▁스테이지
▁혼자
▁어린
▁당연히
▁선거
ff
▁안타
▁낸
▁위험
▁등장인물
▁현실
▁옆
▁후보
▁짜
▁시장
▁엄청난
▁논란
▁조합
▁사실상
▁기에
ir
▁아르
▁욕
▁순위
▁텐
▁버린다
▁무장
통령
▁더욱
어지
▁05
▁십
▁흡
▁퀘스트
▁어머니
▁미션
▁스러
▁죄
▁분위
▁Z
▁묻
▁싫
▁런
▁표기
▁떨어지
스크
▁크리스
▁괜
▁비판
os
▁챔피
▁고등학교
▁브라
▁단순
▁민주
▁프로그
▁참여
▁70
▁구조
▁얘
▁90
▁분위기
▁블랙
▁계약
▁학년
▁동료
▁훨
▁08
im
▁갔
▁약간
▁중심
▁꾸
▁대통령
▁꼬
▁취급
▁투수
▁찬
▁조선
▁링크
▁못한
▁론
▁07
▁방어력
▁직업
▁으므로
▁똑
▁흥
▁콤
▁48
▁나무
▁보호
▁대해서
▁HP
▁훨씬
리카
▁여전히
비스
▁즐
▁결혼
▁줘
▁나머
▁염
▁설치
▁구간
▁시도
▁계열
▁다양
▁자면
ter
▁위원
▁방면
▁나머지
▁전용
이크
▁불구
▁올리
▁보였
▁살아
▁주요
▁져
▁디자인
▁성적
▁일정
티브
▁읽
▁탓
▁축구
니아
▁2000
▁mm
▁300
▁보상
▁06
려서
▁목적
▁소녀
▁메인
▁옵
▁연속
▁...
▁탱
▁33
▁강한
▁도망
▁수정
▁킬
▁배틀
▁지하
▁고려
▁기대
▁세력
ur
▁징
▁성장
▁쌍
▁삼성
▁률
▁벽
▁대화
▁부산
▁종류
▁36
▁잘못
▁롤
▁각각
스로
▁04
▁이해
▁캠
▁지방
▁팩
▁해결
▁보여준
▁참가
▁e
▁의견
od
▁발표
▁력
▁으면서
▁랜
▁일행
▁부상
▁쓰러
▁당신
▁입니다
▁포켓
▁전설
▁th
▁픽
▁마저
▁느낌
▁큐
▁전문
ag
▁거대
▁짧
▁예정
▁방영
▁일으
▁굳
▁벗
▁스피
▁끊
▁힐
▁프로그램
▁종족
▁센터
▁you
▁옥
▁운행
▁다운
▁과학
▁소설
▁버린
▁종료
▁근접
▁죽음
▁부활
▁각성
▁충분
▁녀
▁도중
지션
▁FC
▁조사
▁배치
▁렌
난다
ub
▁봤
▁흐
▁최근
▁장착
▁빅
▁칭
▁국민
▁무리
▁삭
▁러시아
▁정상
▁아이돌
▁척
데이트
▁세상
▁업데이트
▁안정
▁덤
▁스카
▁절대
▁나중
▁래
▁항공
▁벤
▁경제
▁cm
▁SK
▁제공
▁지도
▁점수
▁유니
▁스스로
▁엔진
▁제목
▁만드
igh
▁달성
▁자연
▁꺼
▁충격
▁번호
▁오른
▁켄
▁챔피언
▁오래
▁곧
▁미사
▁추정
▁배경
▁작전
ver
▁나타나
자기
▁번역
▁셈
▁비행
▁목록
▁똑같
▁목소리
▁사이트
▁조직
스타
▁가끔
▁정체
▁날아
▁요소
▁포켓몬
너스
ak
▁규모
▁미래
▁레어
▁34
▁스파
▁당했
▁남성
▁전작
다는
▁196
▁앤
▁출전
▁품
▁훈련
▁이라
▁전차
▁악마
▁빙
▁전사
▁파티
▁공중
▁타격
▁스타일
▁돌아가
▁강하
▁로부터
▁타카
▁클리어
▁만약
▁위기
▁멘
ent
▁괜찮
▁분노
▁사냥
▁누구
▁변화
▁에너지
▁혈
▁홈런
▁생존
▁동물
▁그만
▁신경
▁클래
▁자랑
▁했었
▁득점
▁애초
▁뒷
▁더불
BC
▁한데
▁션
리오
▁요리
▁수상
▁단점
▁75
▁연결
▁필드
um
▁장갑
▁건담
▁로봇
▁국제
▁포지션
▁얘기
ut
▁소재
▁크리
러스
디어
수록
▁냉
▁특정
어들
▁vs
▁반면
▁기동
▁연합
▁생긴
▁한편
▁38
▁시험
▁판정
ec
▁비용
▁전기
▁일러
▁장소
▁무엇
▁싱글
▁사항
▁맹
▁공연
▁니까
▁아파
▁롯
▁한다면
▁항상
▁멸
▁화력
▁목표
▁예상
▁정작
▁무대
▁연출
▁기체
▁칠
▁최소
▁이게
▁사거리
▁55
▁사업
▁시설
▁관심
▁꽃
▁유럽
▁인터뷰
▁던전
인지
▁케이
▁교체
▁in
▁2009
아들
▁빠른
▁내부
▁하늘
▁비밀
▁흘
▁지휘
▁제일
▁다리
▁야마
▁철도
▁였으나
▁Q
▁사격
▁카이
▁이걸
▁별로
▁엘리
▁인사
▁파일
ST
▁다크
▁변신
ro
▁시켰
▁록
▁수치
▁나름
▁넓
▁to
▁기계
▁수도
▁정식
▁쓰이
▁작곡
▁깔
어났
▁스포
▁으려
▁뜨
▁시전
▁털
▁결승
▁도로
▁카운
▁옷
▁교통
▁놈
▁오버
▁비롯
▁인가
동안
▁나올
▁각종
▁따로
▁부여
▁확정
▁마나
▁오늘
해서
▁코스
▁졸업
나라
▁황제
다고
▁쥬
▁지상
▁일어나
▁이탈
▁치명
▁쌓
▁진화
▁전반
▁달려
▁북한
▁특이
▁이쪽
▁병력
▁갑자기
▁둔
▁아도
▁불러
▁오르
▁냐고
▁라이브
▁기업
▁발전
▁컬
▁_
▁왼
▁시티
▁알아
▁건설
▁쯤
▁아키
▁압도
▁이외
▁언제
▁이기
▁의외
어진
▁사정
em
▁무슨
▁EX
말로
▁가사
▁일러스트
▁외국
▁역대
▁나이트
▁2008
▁당한
▁삭제
▁납
▁탈출
▁감정
▁주문
▁직전
▁저항
▁이건
▁지지
▁티어
ight
▁빠져
▁임무
▁쏘
▁고양
▁이닝
▁뭔
▁마치
▁보유
어로
▁위력
▁골드
▁더니
▁자원
▁프레
라인
AN
▁지키
▁아카
▁기다
▁로드
▁바라
▁지켜
▁봐도
▁세기
▁스러운
▁집중
▁서비스
▁표시
▁점프
▁노트
▁깊
AR
▁사례
▁어둠
▁가르
▁잉
▁파트
▁아프
▁전국
▁인구
▁떠나
▁',
▁분류
▁튀
▁효율
▁달라
▁꾼
▁페이
▁뇌
▁상관
▁랭크
▁작업
▁명령
젝트
▁완전
▁인식
▁히어로
▁댄
▁아스
▁기회
▁공간
▁루트
▁연습
▁생기
▁회피
▁도전
▁물건
▁가수
▁극장
ap
▁경쟁
▁화면
▁장점
▁잠시
▁42
ON
▁41
▁별명
▁셀
▁던지
▁옛
▁폰
▁컵
▁녀석
▁사기
▁부모
▁촬
▁군사
▁레드
▁가문
▁개념
그레이드
▁업그레이드
▁행정
▁단어
▁인천
▁몽
▁스럽
▁추천
▁근처
▁병원
▁No
▁올라가
▁오프
▁어요
▁발언
▁짐
▁려면
▁전력
▁39
▁살인
▁펜
▁무려
▁이끌
▁Ch
▁가까운
▁의식
▁불가
▁포기
▁은데
▁끝나
▁전개
▁신체
학생
마자
▁194
▁정리
▁아파트
▁미니
▁크기
▁겸
▁지난
▁판단
▁주제
▁촬영
▁>
▁강제
▁저지
▁본래
▁노력
▁밑
▁히트
▁고정
▁kg
▁밀리
ul
▁붕
▁부정
페이지
▁타임
▁라이트
▁44
▁공주
▁셋
▁st
▁버그
▁스코
▁이하
▁평균
▁데스
▁구하
무리
▁독립
▁롭
▁선생
▁뿌
ce
▁최강
▁시킬
▁홈페이지
000
▁제거
▁병사
▁왕국
▁학원
▁띄
▁분명
▁구매
▁폭탄
▁베이
운데
▁2020
▁조종
▁제품
▁;
▁꼭
▁생겼
▁LG
▁99
▁부탁
▁롯데
▁군대
▁윈
▁동생
▁마법사
▁위키
다니
▁닌
▁닥
▁가드
▁중반
라스
▁여행
▁리더
요일
▁고속
▁예전
믹스
▁멜
▁단체
▁행위
▁붉
▁웹
▁떡
▁노리
▁음식
▁옵션
▁겪
▁밸
▁완벽
ik
▁전자
▁현상
트리
▁2007
▁수행
▁쫓
▁대구
▁195
▁43
▁탈락
▁원인
▁요시
▁구분
all
▁레인
▁그야
드시
▁완성
IN
야마
▁대기
▁반드시
모토
▁바다
▁통합
▁의원
▁개그
란드
▁전략
▁MA
이치
▁바꾸
▁주민
▁직후
져서
▁차원
▁재료
▁하드
▁에게서
▁복귀
▁단지
▁널
▁크로
▁템
▁마사
▁가리
▁환경
▁광역
▁그야말로
르트
▁기반
▁도와
이어
▁으로써
튜브
▁걱
▁늦
▁샷
▁마무리
타임
▁치료
러리
▁연재
▁올려
▁한글
nd
트라
▁걱정
▁46
▁인도
▁해군
▁서버
▁걸리
▁정규
▁47
▁지정
▁느끼
▁연장
▁다행
▁다수
▁대장
▁해외
▁2006
▁평범
▁보병
▁밥
▁심각
▁타이틀
▁보너스
▁보여준다
▁워낙
▁옮
▁우선
▁월드컵
▁공포
▁받아들
▁책임
▁조작
조건
▁미사일
▁포스
▁뻔
▁도착
▁빨리
▁유사
▁아무리
▁추측
▁실험
▁재미
th
▁뛰어난
▁점점
▁51
▁캡
▁상세
▁자마자
▁코스트
▁가면
루스
▁굳이
▁필살
▁디스
▁택
▁였으며
▁다소
▁타자
▁폼
▁맞추
▁그걸
▁성향
▁접근
▁좋아
▁시킨다
▁걸로
▁중학교
▁실점
▁무조건
▁한계
▁닉
▁교수
▁찌
▁의사
op
▁대결
▁영혼
▁냐는
▁톤
▁부하
▁SP
▁무한
▁잭
▁국회
▁모자
▁사무
st
▁비중
▁멋
▁복수
시마
▁암살
▁보조
▁앙
▁함정
▁지배
▁아내
▁정의
▁정확히
▁그린
▁평소
아내
▁엠
▁마르
▁덴
ation
▁광고
▁장르
tt
▁인터넷
▁의하
ra
▁혁
▁마력
▁투표
▁범죄
▁세요
▁숲
▁다루
▁와중
▁1000
▁봉인
ia
▁확장
무라
▁내리
ack
▁채널
▁운용
▁사령
▁밝혔
▁넘어가
▁도쿄
나이
▁공략
▁고자
▁이곳
▁합류
▁소련
▁장치
▁몇몇
▁가치
▁그럼
▁어려운
▁전화
▁빵
▁기념
▁검사
▁금지
▁낫
▁이적
▁냈
▁종종
▁잇
▁초등
▁시청자
▁펼치
▁아웃
▁소유
▁150
▁and
▁도입
▁가운데
▁오리지
▁65
로그
▁충분히
▁비하
▁특유
▁정당
▁네이
▁플래
▁모른다
시브
▁유튜브
▁보컬
▁실수
▁미드
▁뚫
▁코드
▁셔
▁사쿠
▁브레이
▁모아
▁클럽
▁근데
▁VS
▁잊
▁맞춰
▁화염
▁소년
oc
뜨리
▁프로젝트
▁본격
▁시민
▁올림
▁뉴스
▁투입
▁개조
▁고대
▁기지
▁저격
▁시나
▁무사
▁인한
▁전원
▁는가
▁종교
▁괴물
▁형제
일러
다면
▁수많
▁얼마나
ie
▁드립
▁로스
▁고양이
▁에이
▁스포츠
▁희생
▁행사
ill
▁인상
▁로마
▁요청
비아
▁릴
▁%,
▁이탈리아
▁이라고
▁흉
로드
▁대중
▁아라
라이더
▁엄청나
▁원정
▁카메
▁상징
▁사태
▁들어오
▁KBS
▁발음
▁52
▁II
▁밴드
▁2005
▁종합
▁터미
art
▁구역
▁넥
▁숫
▁클래스
▁대형
▁64
▁군단
▁외모
텐츠
▁대비
▁힘든
▁스크
▁위협
니까
▁된다는
▁방패
▁조정
▁랍
▁이사
▁뭔가
▁패러
▁최후
▁서브
니티
▁인원
▁해졌
▁움직이
▁그저
▁락
▁불명
▁서술
▁간단
▁생물
▁일본어
▁형식
▁컨셉
▁자료
▁관통
▁약점
▁장난
▁가깝
▁광주
▁섞
▁몹
런스
▁달러
▁정책
▁행성
▁2004
▁눈물
▁통신
ri
▁전술
▁상자
▁비고
▁액션
시스
▁모험
▁49
▁You
▁바닥
ab
▁앉
RA
▁거부
▁오리지널
uby
▁AP
▁사라지
▁젊
▁미리
▁박사
▁앞서
▁못한다
▁빠지
▁의도
▁트랙
▁인형
로우
▁데려
▁56
▁쿨타임
▁반복
▁ST
▁빼앗
래프트
▁회장
est
▁리어
▁명중
▁400
▁매일
▁등록
▁영입
▁이치
▁챙
▁개월
▁구단
▁대응
▁MBC
▁의지
▁는다는
▁공동
▁해석
▁마크
▁지적
▁dd
▁ruby
▁언론
▁와서
▁In
▁값
▁열차
▁오토
▁지명
▁오랜
▁개봉
▁주력
AL
▁젠
▁원거리
▁코어
▁났
▁목숨
▁덜
스케
▁85
▁한국어
▁선언
▁웬
▁뜬
▁언어
▁날려
▁소식
▁혐
▁윌
▁사상
▁설계
▁차례
▁데이터
▁흡수
▁간다
▁더블
자리
▁그때
▁탯
▁자동차
▁53
▁피하
▁사과
▁나쁘
▁카즈
▁승부
▁방해
▁역전
▁거짓
▁54
▁관한
▁텔
▁살아남
리트
▁혜
▁193
▁디지
▁카페
▁2002
퓨터
▁여름
온다
▁모티브
▁대단
▁연계
▁이르
▁느냐
▁엄마
▁필살기
▁숫자
▁닮
▁핑
▁조각
▁미스
▁끝내
▁저주
▁기자
▁소울
▁누군
▁유우
▁을지
▁진입
▁체육
▁불과
▁황금
▁랄
오스
▁PC
▁완료
▁상대방
▁수리
▁쿄
▁텍
▁쥐
▁맺
▁수호
▁장기
▁가정
▁산업
▁Sh
▁dddd
▁dddddd
▁적절
▁덩
▁착용
▁공화
▁해제
▁생성
▁컴퓨터
으니
▁당해
▁단순히
ttp
▁질문
▁모리
여서
동생
▁겹
▁http
▁꼴
▁진다
▁드라이
▁테마
▁썼
▁필수
니스
▁터미널
▁멈
▁실시
▁ff
▁에이스
▁딱히
▁컷
▁카운터
▁독자
▁겐
▁편성
▁표정
▁선정
▁행적
▁비트
▁의심
▁유도
▁아쉬
▁전환
▁확실히
▁기어
▁감안
▁습격
▁무력
▁특기
▁선물
▁훌
up
▁델
▁날개
▁꾸준
▁뮤직
▁페르
▁기점
▁패시브
▁안전
▁당장
▁집단
▁왼쪽
▁인류
▁핸
▁소비
▁아름
▁솔로
▁함대
▁퓨
▁개선
▁셰
▁제도
낸다
▁박스
▁횟
▁돌려
▁59
▁높이
▁i
▁연주
▁MP
▁위원회
▁잖
▁가스
▁경력
▁심하
▁바르
▁확보
▁잠깐
▁회전
VE
▁구축
▁행복
▁돌파
▁코치
▁사장
▁스킨
▁마츠
▁지옥
▁희망
▁거두
▁설립
▁테크
힌다
▁으로부터
▁올림픽
▁Re
▁스마
▁블루
▁Sp
▁시나리오
▁전통
▁장군
▁일종
레이션
▁제압
▁58
▁지닌
▁안드
▁가슴
▁시내
▁진정
▁통과
▁듀얼
▁횟수
▁라디오
▁상처
▁하위
▁공항
▁적극
▁120
▁멀티
▁공사
▁선보
▁수사
▁체제
모리
▁로써
AT
▁촉
▁초대
워서
▁캔
▁마침
▁문명
▁샌
▁패스
▁딜러
OR
▁그라
▁57
▁편집
드리
ang
▁대답
▁해금
▁비디오
▁버튼
▁어찌
▁방문
▁펀
▁re
ate
▁뱀
▁위주
▁롱
▁의문
연히
▁수원
▁95
▁묶
▁케이스
▁66
▁리스
▁이어지
▁됨
▁핀
트롤
▁그려
▁댓
▁현장
▁동맹
▁엉
▁태도
▁눈치
▁료
▁2003
▁지니
▁고통
▁처치
▁작성
▁진영
▁콩
▁코너
▁투자
▁대놓
▁마시
▁전장
▁갱
▁태양
▁분리
▁장전
▁유키
ard
▁크로스
▁계기
▁노동
▁비난
▁예선
IA
▁스페인
▁마왕
▁전해
▁한자
르크
▁최악
▁랩
▁육군
▁봄
▁삼국
▁제안
▁을까
▁고유
▁공부
▁에스
PS
▁떼
▁스위
▁후속
▁느껴
▁스펙
▁게시
▁미친
▁깎
▁버려
▁레이저
▁겨우
▁Bl
▁BG
ess
▁시체
▁좁
▁배신
▁평화
▁회의
ant
▁제로
▁개최
▁110
▁놀라
▁be
▁에겐
▁바꿔
▁성인
▁부른다
▁오른쪽
▁꼽
▁아머
▁빌리
래도
▁조준
▁나카
▁게이지
▁여부
▁룰
▁용병
▁견제
▁기획
▁컨트롤
▁궤
▁궁극
▁어울
▁멀리
▁젤
▁극장판
▁탑재
▁점령
▁타이밍
▁매치
IC
▁다름
▁SS
▁청소
▁보급
▁on
▁춤
▁카메라
ell
머리
▁or
▁베이스
▁애매
▁진실
▁62
▁373
ct
▁최대한
▁충전
▁관광
ue
마스
▁남편
▁직원
ine
▁순서
▁스피드
▁구해
▁날리
▁댄스
▁정령
▁게이
▁보도
▁에어
▁은퇴
▁온라인
▁낼
▁기분
▁그레이
▁누군가
▁수단
의원
▁한화
▁모션
▁누가
▁오스
▁틈
▁후반부
▁NP
▁레전
▁아무래도
▁터지
▁하트
라리
▁튜
▁Al
▁트레
▁멸망
▁세계관
▁격투
▁갓
▁빔
▁교회
▁밸런스
▁허용
▁민주당
▁미치
무원
▁얼음
▁스코어
▁76
ist
▁알렉
▁보수
▁트위
▁약속
▁바뀐
▁여왕
▁스탠
▁파이터
ove
▁우수
▁갤러리
▁미나
▁Th
▁오오
▁스프
ore
▁대원
▁그게
▁부담
▁토스
▁유용
▁등등
▁울트라
▁겁
▁로켓
▁77
▁헤드
▁융
▁뛰어
▁알리
▁61
▁돌격
▁벌이
▁....
아리
▁무게
▁고급
▁생일
oo
▁지식
▁판타
▁기절
▁삶
▁규정
▁{
▁본선
▁커뮤
▁아프리카
▁차별
▁뱅
▁렉
▁알려져
▁병기
▁해진
▁가면라이더
피스
▁72
▁돌아오
▁88
▁그리스
▁중단
▁랜덤
▁는다고
▁분야
▁측면
▁장애
▁끼리
▁인지라
▁스케
▁트레이
▁자이
▁com
심히
▁나누
어도
▁지점
▁된다고
로이드
▁자고
▁2001
▁누르
▁패러디
▁마녀
▁경기도
▁삽
▁입수
▁찰
▁주목
▁발휘
바이
▁언니
▁닥터
▁넷
▁자살
▁커버
▁회수
▁}
▁도서
▁포르
▁ffff
▁외부
▁룬
▁그럴
▁생겨
▁카나
ive
▁제시
▁웨이
▁인생
▁공통
▁피해자
▁나아
▁유래
OS
▁쉬운
▁미야
▁경계
▁살해
ort
▁도구
▁취소
▁교환
▁군주
▁후지
ong
▁공원
▁국적
워드
▁지내
▁ffffff
▁릭
▁SBS
▁둘러
▁아사
▁오프닝
▁개편
▁트위터
▁승강
AM
▁스페셜
▁민족
▁장수
ers
▁서포
▁아침
▁윙
▁어차
▁킥
▁공장
▁페이스
오리
▁나쁜
크래프트
▁떨어져
▁핵심
▁기다리
▁부진
▁짤
▁어차피
▁재판
▁계산
▁대놓고
▁PS
▁건지
AS
▁붕괴
▁이거
▁제기
▁사단
하라
▁어째
▁98
▁브랜드
▁구입
▁이성
▁바탕
▁단독
친다
유키
▁온갖
▁교사
▁용도
▁출생
▁무서
니어
터리
▁겨울
▁메탈
스티
다수
▁당선
▁갑옷
▁소수
▁탄생
▁영역
▁약한
▁데리
티컬
▁191
▁펠
▁좋아하
▁거절
ED
▁살짝
▁오후
▁함선
▁아시아
▁늘어나
▁출발
▁은근
어리
▁꾸준히
ip
▁요원
▁주연
▁봐야
▁분석
▁페이지
▁작사
▁줄어들
▁어쩔
피아
▁납치
▁우려
▁스파이
▁은행
▁끝난
▁CD
▁귀족
▁화살
즈키
▁선배
▁순수
ain
▁숨겨
쳐서
▁타워
▁재생
▁600
▁습득
▁자식
▁하수
▁엑스
▁섭
▁파악
▁대공
if
▁가로
▁증거
▁홍보
▁자격
▁예술
▁업무
▁따지
▁이스
▁쏟
▁일어난
리티
▁드리
가락
▁협력
ee
▁유형
▁고서
다운
▁|
▁1990
▁고민
▁쓴다
▁보정
▁군인
디션
▁훌륭
▁못해
▁당황
EN
▁사카
▁베르
▁테러
▁레전드
거나
▁파라
▁신화
▁경유
▁폭풍
▁적당
▁밟
▁미소
▁MV
▁열심히
▁댓글
▁열린
▁흔히
▁응원
▁영원
▁플라
▁마인
▁카르
▁내내
▁쓰레
▁당한다
▁프라
▁잖아
▁63
▁보물
▁불안
▁뒤집
▁퀄
나가
▁주도
▁비록
▁틱
▁종점
▁탑승
▁향해
▁왕자
▁러브
▁소드
▁때려
세이
▁챠
▁장관
▁밀려
▁거래
▁출처
▁만족
▁부인
▁채용
▁정말로
▁68
▁무적
▁버티
▁혼란
▁전함
▁네이버
▁스트라이
▁가졌
▁컨텐츠
▁감사
▁본명
▁문제점
▁대다수
▁운전
ith
▁운명
▁실질
▁늑
ly
▁71
▁옹
▁반격
▁800
▁계급
▁커뮤니티
▁균
긴다
▁중계
▁정류
ld
▁로운
▁라이벌
▁미군
▁트라
ind
▁김성
▁초월
▁지급
▁오해
▁짝
▁넌
▁연도
▁오류
▁74
▁수입
▁AC
▁두산
▁돌진
▁치명타
OL
아먹
▁전공
▁연예
▁가까이
▁랜드
▁라스
▁돌리
▁모으
▁파이어
▁카라
▁메타
▁67
▁공군
▁체계
다지
▁흰
▁기기
▁낚
이터
▁아트
▁아나
▁통일
▁피아
▁반영
▁설득
▁소문
▁충돌
▁따른
▁여신
▁거주
▁즉시
▁흔들
ew
▁코믹스
▁단위
▁73
▁불꽃
▁끌어
▁문자
▁화장
▁낳
ry
▁TH
▁안습
▁그림자
▁아오
▁건너
▁메가
▁NC
▁아리
▁홍콩
▁닿
▁학과
▁전투력
▁편의
▁96
바로
▁AT
▁주년
▁레오
ast
▁크리티컬
▁크루
▁지시
IT
▁짜리
카와
▁시야
▁다행히
▁비율
▁슬롯
시오
▁정해
츠키
▁국회의원
▁해방
▁강해
▁상향
▁떡밥
LC
▁생명력
▁됩
▁me
▁들어갔
▁신뢰
▁정지
▁제조
▁약하
▁일부러
EC
▁변하
▁공화국
▁격파
▁지나가
▁그런지
▁그다지
▁81
▁소프트
▁CP
▁꺼내
▁파이널
▁토모
▁깃
▁암흑
▁심장
▁관객
▁닌자
▁오로
▁신고
▁난다
▁무난
▁판타지
▁수업
▁곰
▁사전
▁등판
▁늑대
FA
▁됩니다
▁동네
▁그만큼
▁유비
사카
▁가입
▁디아
▁가득
▁별개
▁연사
▁엘프
나다
▁1999
▁붙잡
▁192
▁사운드
▁맘
▁마주
▁NPC
▁마술
▁덮
▁j
▁78
▁본부
▁저런
▁창작
▁고기
▁킨
▁압박
▁집안
식간
▁84
▁막장
▁춘
▁재능
▁의한
▁91
▁건강
▁근무
end
▁짱
▁순식간
▁실드
▁벌어
▁리버
▁아티
▁반란
▁지하철
▁제주
고기
▁든지
▁업체
▁장식
▁추적
▁룡
▁드디어
▁드러나
▁사쿠라
▁화이트
▁an
▁지형
▁팝
▁신세
▁전적
▁1998
▁불만
▁수학
▁경험치
▁입학
▁어쨌
▁경향
▁떨어진
▁남기
▁상품
▁천사
▁증명
▁브리
▁쿼
▁묵
▁게이트
▁보단
▁내놓
▁땐
▁기원
▁형성
▁나서
▁대만
▁An
▁예고
▁낭
▁테이
▁전방
▁신청
오르
▁통하
▁스티
▁가이
▁블레이드
▁오픈
▁노멀
▁여동생
▁it
▁겟
▁매력
▁걸려
▁콜라
▁절반
▁97
▁사령관
▁정권
▁쓰레기
▁쿠키
▁팅
▁흘러
▁감염
▁클로
▁우스
▁빨간
▁섹
▁떠올
광역
▁아가
▁마도
▁의상
▁주먹
▁여론
▁나루
▁다시피
▁마이크
아버지
▁이마
▁Ar
▁외국인
▁타점
▁유희
▁샘
▁만난
▁라이더
▁걷
▁령
▁강조
▁단일
▁82
▁69
▁키스
▁사토
▁회차
▁이승
▁어택
▁이론
▁선호
▁알려진
▁연상
▁메카
▁거쳐
▁복장
▁엔터
▁소멸
▁He
▁코인
▁별도
▁오빠
▁근거
로운
▁!!
▁전선
지컬
트로
▁250
광역시
▁주전
▁실행
▁버릴
▁바보
▁스톤
▁일으키
▁여서
▁할지
▁작용
▁최상
▁공작
▁MAX
▁대륙
▁공기
▁한때
가와
▁180
타로
▁아닐
▁평타
▁아메
▁부품
▁플레
▁뛰어나
▁해진다
▁SN
▁반지
▁86
▁화려
▁요정
▁스토
▁때리
▁몰아
▁for
드라
▁190
▁출현
▁is
▁간격
▁호환
▁벗어나
▁아무것
어버
▁불렀
▁헌터
파이어
모로
▁푸른
▁해설
▁전형
▁대하
▁총기
▁니시
▁뉴욕
▁출장
▁권력
운다
▁퀸
▁아무런
▁끔
▁따위
▁올렸
▁박살
둥이
▁움직임
▁토리
▁사자
▁추격
▁울산
▁탱크
▁몰래
▁이랑
▁사라졌
▁당할
▁무효
▁키리
▁BGM
▁마스
▁조용
▁경상
▁요새
▁주위
더스
▁스카이
▁연애
서트
▁프레임
▁구도
▁벌어지
▁탁
▁여러모로
레나
ath
▁명예
에도
▁권총
RE
▁동기
av
▁시드
▁폭격
▁이슬
▁경비
▁범인
▁붙여
▁Te
50
▁1997
▁De
▁추락
▁테스트
▁신규
▁자는
▁경영
▁대우
▁모바
타인
▁지대
▁심리
▁되돌
▁블록
▁후쿠
듀서
▁프로듀서
▁심판
▁하수인
▁폭주
▁소총
▁영업
▁MS
웨이
▁공유
▁클라
▁수요
▁일상
▁아크
히로
▁갈등
▁께
▁뿌리
▁탄약
se
와서
어스
▁계승
▁전대
▁외교
▁제이
▁들어간
▁이래
▁변호
▁진지
▁거짓말
▁마리오
▁그래픽
▁메이저
▁환상
▁물러
▁고교
one
▁열리
▁고전
▁브라질
▁북미
▁학살
▁사양
▁요괴
▁통제
▁렙
▁상점
▁보석
남도
▁언제나
사키
▁Be
▁편하
▁입력
▁밝히
▁시각
러운
▁마련
▁변형
▁이득
▁무너
▁썬
og
▁83
▁터치
▁죽여
▁공학
▁갖추
▁제법
▁다이아
▁폭력
▁탱커
▁귀여
▁혁명
▁빗
▁블러
▁훔
▁유령
▁통상
▁불편
▁커맨
▁KT
퍼스
▁리아
▁미츠
▁지나치
▁옛날
▁제작진
▁리스트
▁믹
스트라
어져
▁작동
▁89
▁용사
▁92
▁그곳
▁예외
▁전투기
▁동원
▁조치
▁승강장
ust
▁밀어
▁94
▁타케
▁밝혀졌
▁미디어
▁구현
▁수집
▁스마트
▁연대
▁프로필
▁민간
▁파일럿
도우
▁조심
▁고생
▁치가
▁둥
거운
▁일자
▁한국인
ide
▁현지
▁빠진
▁포탑
▁머신
▁79
▁어쩌
▁날아가
▁검색
▁이리
▁챕
▁네임
▁워치
노스
▁앵
나무
▁쿠로
▁Le
▁사이즈
▁쓰인다
▁들어간다
▁모바일
▁신인
▁조조
▁여겨
▁경기장
▁메시
일드
▁Se
다른
▁조절
메달
▁신장
▁",
ity
PG
▁꺾
▁콘서트
▁93
▁US
▁두려
▁동영
▁되찾
▁부위
▁쟈
▁키우
▁챕터
▁표준
▁요즘
▁레인저
▁감시
▁눌
워하
▁음반
▁입구
▁보장
▁긍
▁교전
OT
▁부수
▁정류장
▁동방
▁수송
▁시행
▁레스
▁편지
저히
▁카미
▁87
▁공산
▁마루
▁도발
▁스톰
일리
▁101
▁떨어진다
▁덧
▁1996
▁동영상
▁배차
▁리얼
▁패널
▁프린
북도
▁차단
▁맞이
▁길드
▁DJ
▁용어
▁상상
▁기습
▁AI
▁MC
▁줘야
AC
▁자이언
▁볼넷
▁음성
▁프리미
▁1995
▁폐지
▁앱
▁쇠
▁전하
▁구출
▁연락
▁한방
▁호평
▁올라오
▁텔레
▁연방
▁하고
▁루타
▁김정
▁특화
▁슛
▁똑같이
▁이재
▁라이프
▁On
▁다면서
▁어깨
ere
▁마냥
▁쟁
▁세월
▁추진
▁도달
▁드러내
▁계정
▁볼트
▁흥행
▁강철
▁도서관
▁사이드
age
▁없애
▁이날
▁연관
▁슈트
▁잠수
펙트
▁무료
▁익숙
▁간부
▁핸드
▁나와서
▁결승전
▁파란
▁어지
▁.....
▁만났
▁농구
▁매니
▁통한
▁걸어
▁신문
▁괴롭
▁지휘관
▁번개
▁레이드
▁통해서
▁향상
▁극단
▁삼진
▁전달
오프
▁노예
▁신분
자키
▁주소
▁전직
▁겉
▁리메
▁@
이즈
▁루시
▁이란
▁양산
▁고향
▁출력
▁나갔
▁누리
▁빌드
▁묘지
▁수술
레이터
▁사마
▁냐며
▁켈
▁가상
▁환자
▁노출
▁캐리
▁으니까
▁신성
▁즐기
▁돌아온
▁마구
▁레이스
▁던져
▁신기
▁먹이
▁박근
▁가속
▁장교
▁스튜
▁제자
▁복잡
▁px
▁헨
▁부문
▁전역
▁임명
▁왠
▁환승
▁소닉
▁팀원
▁갤럭
▁동작
▁베트
▁웬만
▁글자
▁멕
▁들이
▁그랬
▁입단
▁진심
▁낸다
▁일지
▁세이브
▁적어도
▁봇
▁씬
qu
▁커플
▁DLC
▁아우
▁올랐
▁느리
▁살려
▁내구
▁무언
▁쾌
▁대체로
▁캐스
▁'.
▁달린
▁써서
▁AK
준다
ood
▁성별
▁절망
▁내성
▁해체
조리
▁가게
▁타마
▁넘기
창기
▁명중률
▁기병
▁임시
▁드물
BO
▁THE
▁브레이크
▁페이즈
▁가시
▁핫
▁막차
▁아쉽
▁MVP
▁부리
▁알파
▁구속
▁착각
▁전시
▁종이
▁갤럭시
▁육성
▁근육
▁여유
▁너무나
▁연구소
▁득표
▁수영
▁차라리
▁아빠
IS
▁중화
PM
▁도우
▁심한
▁이즈
▁뼈
오카
▁CC
▁보일
▁멍
▁대량
▁융합
▁개통
▁인수
▁공지
▁고백
▁자매
▁빡
▁리메이크
▁분기
▁창조
▁경고
▁$
▁그럼에도
▁강원
▁물질
are
▁카오스
▁1994
▁인증
전자
▁엮
▁하필
▁람
▁배트
▁Wh
▁럭
▁협회
▁초창기
▁규칙
▁리치
▁날짜
▁대대
▁지능
▁소화
▁인연
▁파리
▁된다면
▁이자
▁참전
▁시즈
▁실버
▁글로
▁셨
지마
▁1980
▁드림
▁의뢰
▁게스트
▁구체
▁입히
▁톱
브리
▁점차
디아
OM
▁카타
▁뭉
▁분량
▁이시
▁제어
▁가량
▁성과
▁악역
▁700
크스
▁청년
▁이뤄
▁태그
▁의혹
▁남부
▁고용
▁도망치
▁Tr
▁식사
▁대립
▁투구
▁누적
▁미카
▁무언가
▁객
▁회원
▁테일
▁이내
▁합격
▁돼지
▁정복
▁흠
▁냄
▁몰려
티나
▁김영
▁반발
▁고르
▁어울리
▁메모리
ock
▁일어났
▁''
▁중대
▁여지
▁호감
먼트
▁그동안
▁귀신
▁합체
▁웅
▁녹음
▁험
▁뚜
▁의료
▁이명
▁위장
구리
▁인하
▁협박
▁조지
OW
▁감옥
ake
▁꼬리
▁결론
▁파트너
ect
▁으론
▁피격
▁FI
▁는다면
▁써먹
▁어쨌든
▁아시
▁서부
▁웹툰
▁자라
▁체포
our
▁한번
▁라면서
▁뷰
▁출판
보드
▁사신
도로
▁후속작
▁차트
▁넘겨
ass
ire
▁세우
▁잦
▁비아
▁삼국지
▁모모
▁외계
▁게시판
oy
▁유로
ark
▁스턴
▁합성
▁베스트
▁곧바로
▁츄
▁강의
▁아기
▁히데
▁기초
▁썩
▁부서
ob
▁he
ite
▁정면
▁발매되
▁축제
▁마키
▁랭킹
어날
▁카스
▁림
▁예비
▁블리
웨어
▁에다
▁문장
▁구멍
▁사제
▁편곡
▁햄
▁쉴
▁본작
▁일시
▁퀄리티
▁동화
▁한지
▁나간
주시
▁보낸
▁공급
▁안드로이드
▁토르
▁토론
▁대가
▁SR
▁개방
▁깜
▁수련
▁돕
▁단장
▁FA
▁떨어졌
레인
▁횡
▁렛
▁kt
FC
▁다섯
▁소형
▁부부
▁전면
▁매체
▁걸린
▁룸
▁내주
▁대폭
▁저그
▁유행
▁인공
▁소원
ES
▁Cl
▁트로
▁AR
▁은하
▁살리
▁고문
▁립
▁플랫
성기
▁예능
▁슈팅
▁뺏
▁초간
▁찾아가
▁문학
▁투어
▁활성
UN
▁마리아
▁캐나다
라이언
▁끈
▁해병
ah
릭스
▁클리
▁곁
▁세이버
▁과목
▁아일
▁파견
▁매직
▁내장
▁대략
▁신호
▁왕조
▁보냈
▁wh
▁싸울
▁GT
▁외형
▁시위
▁넉
▁커맨드
▁연타
▁체인
▁관중
▁적군
▁김태
▁손가락
▁마이클
▁간혹
ound
iz
▁스틸
▁목격
▁옮겨
▁포스트
▁긍정
▁일원
▁팬덤
▁야스
▁더라
▁컬러
▁정글
▁에드
▁플레이오프
▁피부
▁희귀
▁식물
▁구원
ime
▁박근혜
▁의무
▁반사
던가
▁소지
▁SD
▁블로그
▁펀치
▁프라이
▁코우
▁김민
▁챌
▁최소한
▁가볍
▁수수
▁PD
▁바위
▁육체
▁은근히
▁Gr
▁그건
▁상성
▁연인
▁타이거
우드
▁준수
스턴
▁KIA
LL
▁이지
▁신라
▁크라
iv
잡이
▁SC
▁my
▁피스
▁대처
▁Me
▁합쳐
▁그대
▁주말
▁수용
▁멘탈
▁는지라
▁섀
▁오카
▁아름다운
▁인근
▁대충
▁파크
▁취하
▁아니면
ID
▁나뉘
버트
페인
▁붙이
▁불법
▁메뉴
▁116
▁특집
▁상하
▁일격
▁개체
▁곡명
▁까다
▁예측
▁전철
▁홀로
▁미라
큐어
▁각자
▁자치
▁박정
▁동부
▁영토
▁환영
▁구나
▁헤이
▁조성
▁적대
▁헤비
▁펼쳐
▁My
▁뜯
MA
▁다스
▁로즈
시코
▁멀쩡
▁대지
▁그로
▁영문
▁기사단
▁끌려
OP
▁건축
▁딩
▁더더
디언
▁보안
▁국군
▁커스
▁하얀
▁130
▁다를
▁쏴
▁서양
미야
▁원본
▁오랫
▁침공
▁어떠
▁빨라
▁왈
▁바리
▁소중
▁형사
▁지우
▁냥
▁계단
▁주포
▁접속
▁튀어나
▁누나
▁{{
▁강남
▁좌우
▁더더욱
▁끄
▁아바
▁안내
▁Pr
▁탄창
▁훗
▁결말
▁갇
▁어린이
▁어른
▁사우
▁올린
으면
▁첨
▁플로
▁기독
▁유이
ge
▁호주
▁정찰
▁면역
▁뭘
▁지도자
▁이길
▁{{{
▁아닌가
▁액티브
▁골든
▁스미
▁시내버스
데스
가미
▁깡
▁호텔
▁죄다
▁허나
▁펫
▁회상
▁대항
▁처벌
▁시선
▁후기
▁BE
▁거인
▁현역
▁학부
▁비해서
▁음원
▁작화
▁으려고
▁딘
▁와이
▁남겨
ax
▁괴수
다리
▁이루어지
▁상당수
▁퀴
▁미안
▁빛나
▁식당
▁절대로
▁히메
▁닫
▁로그
▁에서부터
▁포트
▁메르
▁취미
▁DF
▁하야
▁아이스
▁해적
ome
바라
▁과연
▁버스터
▁캐스팅
▁재미있
▁일기
▁고스트
ance
덜란드
▁네덜란드
▁요코
▁돌아왔
▁MF
▁져서
▁전문가
▁저녁
▁라인업
▁전진
▁바라보
▁새벽
▁주간
▁프리큐어
▁과제
▁느라
uc
▁리듬
▁아티스트
▁튼
▁돌아다니
▁꽂
ick
▁시계
밀리
▁헤어
▁유치
▁스키
▁비행기
▁한동안
스탄
▁열쇠
▁Pl
▁천재
▁첫차
▁오스트
▁줄어
▁기적
▁ch
▁총선
닉스
▁HD
▁고지
▁방지
▁WW
구치
▁검찰
▁한참
▁승격
▁트레이드
▁니코
▁세워
▁촌
▁자금
▁삐
▁죽일
▁고수
▁드레
▁깨닫
▁리드
▁SM
요시
ix
▁파츠
▁트윈
▁마비
mer
▁용기
▁경기력
▁어릴
▁트럭
▁우위
▁방사
ord
▁몰랐
▁이슬람
▁잡혀
▁속하
▁안경
▁어지간
▁스타크래프트
▁주사
▁160
▁저장
▁들어갈
▁양쪽
▁외치
▁휴대
아웃
▁코코
▁상한
▁허리
▁갈수록
▁위하
▁캠페인
▁디지털
▁개성
아지
ure
▁못할
▁한마
▁신비
▁GB
▁램
▁농담
▁청소년
프레
▁캠퍼스
▁상급
▁할아버지
▁보고
▁캡틴
▁토끼
▁크리스마스
고리
▁내려가
▁국어
▁동굴
특별
▁보라
▁나갈
덩이
▁OST
▁빚
10
▁불린다
▁무덤
▁영향력
▁문재
▁유희왕
▁어두
▁\
▁다룬
▁이영
▁받아들이
▁화제
▁오랫동안
▁1992
▁방출
▁북부
▁체크
▁인지도
▁터키
▁개정
▁김동
▁마이너
▁기독교
▁조언
▁KO
▁모여
▁나눠
▁클래식
▁아이콘
▁미술
▁with
▁죽인
▁바퀴
▁마침내
▁호위
▁시아
▁올해
▁웃음
▁해리
▁연료
▁곽
ud
라드
▁릿
▁1993
▁안티
▁원소
▁나간다
▁맞서
▁어마
▁장악
▁극복
▁정원
양함
▁클릭
▁별다른
▁베트남
▁접촉
▁SKT
▁의존
톨릭
▁중독
▁시마
▁가져가
▁텐데
▁국방
▁일제
▁귀찮
라이트
치기
▁다닌
▁바이러스
▁사도
▁인정받
▁노인
▁하락
▁아쉬운
▁식량
▁선택지
▁무작
▁140
▁태어난
▁멈추
▁흐름
▁생존자
▁Ex
▁결코
▁기도
▁놀이
▁톰
▁전신
▁윌리
▁우라
▁하우스
▁쉐
▁https
80
ame
▁모조리
▁로우
▁헛
▁신설
▁수익
▁비싸
▁JR
▁보관
▁본체
▁칭찬
멘트
임스
▁캐논
▁??
▁투명
▁커리어
▁챌린
▁전멸
AD
▁찔
▁외전
▁핏
▁부장
▁sh
▁체육관
▁기아
▁공무원
▁도끼
▁휘두
▁개수
▁칩
▁취향
▁대리
▁손해
▁적혀
▁전성기
▁노부
▁논리
▁이브
몬드
▁예시
▁어째서
▁IC
▁켜
▁치유
▁후방
▁으라
▁비주
▁한마디
▁카트
▁스승
▁씹
▁de
▁갈리
▁루수
▁모래
▁쳤
▁기종
▁수십
▁최다
리그
ost
세스
▁심해
▁돋
▁눌러
▁나타난
▁우연히
▁억지
▁데드
▁에리
▁김종
▁충성
▁무릎
▁Love
▁들어온
▁교장
▁이터
▁어스
▁가톨릭
▁올라왔
▁콜라보
▁제작자
▁오가
▁마린
▁정비
▁툴
코토
카리
▁유니폼
▁첼
▁재현
▁동의
▁레이더
▁GS
▁변호사
▁힙
▁구경
▁일반인
▁무지
old
▁반동
▁사막
▁소라
out
▁당일
▁노란
▁세르
▁집어
▁900
▁들리
▁로고
▁으러
든가
▁Un
스키
▁적응
▁명성
▁충청
▁작곡가
▁제임스
▁이정
▁맥스
▁구사
▁타선
▁기여
▁.."
▁트랜
▁카츠
▁오전
▁사정거리
own
▁소스
▁코미
네스
▁업적
▁202
▁쵸
▁거미
▁멕시코
▁선전
▁수류
▁타인
▁패션
▁합의
▁증언
▁자세히
▁무방
▁잉글
▁개입
▁기량
▁아일랜드
워크
▁아즈
▁둘째
▁유통
▁연금
▁판매량
▁더러
▁초보
▁꿀
카드
▁타락
▁몰라도
▁스트리
▁잡지
▁채워
▁바깥
▁가짜
▁상업
▁법원
▁드라이브
▁스웨
▁아요
▁찢
▁자국
▁폴란드
▁썰
US
▁SH
▁무라
▁넥센
▁아쿠
▁내세
▁사라진
▁취임
시로
▁향하
▁조연
▁할머니
▁LI
▁놔
▁북쪽
▁신부
▁지켜보
▁의회
▁EP
▁유물
▁포격
▁정수
▁법률
▁루카
▁수류탄
▁치킨
▁화장실
▁전후
▁닭
▁일방
▁차기
▁숨겨진
미니
▁찌르
▁가루
▁벌레
▁깔끔
다이
▁복무
▁쏠
▁주기
▁FF
▁쌍둥이
▁출마
▁똥
ok
▁주식
▁어드
▁교실
▁금속
pe
▁IS
▁펑
▁대개
▁히나
▁챙겨
▁드롭
▁오사카
▁과장
▁결성
▁싱크
▁인조
▁위상
▁남쪽
▁정착
ace
▁인격
▁승점
▁포드
ave
▁도주
per
▁비례
▁팽
노우
▁흔적
▁동력
▁들려
▁XX
▁줘서
▁교차
▁연패
▁그러니까
▁독특
▁채우
달리
▁주일
ng
▁자폭
▁헐
▁처형
▁잠재
▁도적
▁방어구
▁훗날
▁비싼
▁스텔
▁숭
▁튕
네임
▁스터
▁공성
▁냄새
▁권한
▁스마트폰
▁1991
▁스프링
ice
▁라이온
▁상호
▁간신
▁부작
▁글러
▁자책
▁강도
▁블러드
▁정치인
▁화학
▁모를
▁네요
▁위대
▁거점
▁남녀
▁공룡
▁매니저
▁국립
▁잡히
▁CV
▁일찍
▁CF
▁포항
▁연승
▁오라
▁클레
▁AD
▁시너지
▁포수
▁비상
▁1988
▁기용
▁클랜
OD
▁타수
▁새끼
▁귀환
▁불타
▁몰락
▁크리스탈
▁추억
▁런던
▁일으킨
▁스페이스
가스
ov
▁스튜디오
▁행보
▁개량
▁각본
▁고작
▁유대
▁제갈
▁이슈
▁풀리
▁김재
랑이
▁오타
▁We
▁적당히
▁대인
랭크
▁시노
▁지뢰
▁어려움
▁상술
▁트라이
나카
ont
▁사유
▁승률
▁후술
▁색깔
▁아츠
▁주역
▁실망
▁내보
▁숙련
▁개막
▁혈액
자드
▁공세
▁광역시
▁아케
▁흥미
▁AM
▁쫓아
▁갈라
▁혐오
▁105
▁거치
▁줄이
▁미스터
▁녹색
▁길이
▁루나
▁가해
▁뜬금
▁카운트
▁언젠
▁태어났
가시
▁커피
러지
로나
▁이중
▁타로
▁약해
▁봐서
팡이
▁일람
▁히어로즈
orld
▁자막
▁해피
▁서포터
블린
ies
▁DS
▁다름없
▁생년
▁소위
▁코리아
▁재단
▁리온
▁학력
▁널리
▁나타난다
▁컸
▁색상
▁인민
▁화성
▁망치
▁계통
▁금융
▁나아가
▁스트라이크
ann
▁노르
▁이젠
▁SNS
▁티켓
▁제작사
▁특전
▁관람
▁너희
▁요금
▁나치
▁면모
▁흡혈
OC
▁국왕
특별시
▁구슬
▁이겨
고속
▁미터
▁몰라
▁리타
▁아이언
▁심사
시타
▁아마도
▁차이점
▁배터리
▁덧붙
▁ED
▁오크
▁디지몬
▁영구
▁쓸모
럼프
▁단단
▁흘리
▁개시
▁뿔
▁온다
▁하단
▁세종
▁기숙
▁싸워
▁오랜만
▁느린
▁서울특별시
▁오직
▁펄
▁CPU
BA
▁중량
▁까진
▁소대
다란
▁사이버
▁추종
▁칭호
▁미묘
▁어뢰
▁증오
▁공공
▁재산
▁이루어진
LE
▁세븐
▁스팀
▁보호막
▁잉글랜드
▁시그
▁DE
▁호수
▁중첩
▁올라온
▁생략
▁내지
▁오마
▁좌석
▁민첩
▁연령
▁엿
티아
▁고구
▁wik
▁맛있
▁편입
▁언더
▁밝혀진
▁만날
▁뎀
▁혐의
▁히토
▁부지
▁워커
▁지경
▁총알
▁가만
▁애플
▁십자
▁부른
베르
▁협상
▁전라
▁LC
▁마약
▁해상
▁실전
▁혹시
▁단편
▁상단
▁지르
▁휴식
▁메리
▁가요
▁LV
▁노벨
▁타율
▁쿼터
▁딴
▁신사
어마
▁아저
시스트
▁하차
▁연예인
▁후배
저스
로디
▁예언
▁태어나
▁네트
▁이익
▁걸쳐
▁상인
▁흐르
▁NE
▁딜링
▁본다
▁정화
ber
▁펌
▁곤란
▁중국어
▁수장
▁구석
▁아저씨
▁탈퇴
▁막대
▁남겼
▁강자
ys
▁익스
▁강요
▁기관총
▁어마어마
▁찬스
▁임대
▁카카
▁SE
▁예산
▁동쪽
▁189
▁어려워
▁언스
▁용량
▁용서
▁턱
▁느낄
▁네오
▁문구
ION
▁모노
▁공방
▁어리
▁개혁
사자
▁가하
▁하루카
der
▁바꾼
▁캠프
▁수호자
▁your
aw
▁악당
▁자극
▁김현
▁진보
▁소장
▁넘치
▁드럼
▁부각
▁3000
▁원칙
▁상실
▁잠수함
▁금방
60
▁총리
▁큐브
▁칼리
▁틸
▁포로
FF
▁포르투
▁BPM
▁인치
이너
▁원수
▁EN
▁교류
▁학자
▁굿
▁It
▁루이
40
▁원하
▁메달
▁얀
▁남긴
▁데몬
▁상관없
▁결전
▁원주
▁앨리스
▁마디
▁집행
ream
▁원문
▁저작
▁유효
▁표지
▁얻어
▁자전
▁엑스트라
▁활발
▁뱀파이어
▁가을
ike
▁일족
▁미쿠
▁125
▁입지
▁후계
▁모토
▁나나
▁채팅
▁로리
▁든다
▁간신히
▁Com
▁중립
술사
▁타운
▁엘리트
▁에요
▁신앙
▁헬기
▁무척
▁저렴
▁도루
▁1989
▁제트
▁서번
▁카와
▁사형
월일
▁메시지
▁들여
▁낚시
위대
▁기생
▁피터
▁화물
▁이끄
▁PV
▁칼날
▁벌어진
▁힌
▁그레
▁마그
▁담배
▁서번트
▁무렵
▁첩
▁정예
▁성남
▁요약
▁짜증
▁루비
▁사명
▁미즈
▁모이
▁더군
▁신지
▁느낀
▁복지
▁일본인
▁구축함
▁어라
▁추구
▁행운
▁생년월일
▁거울
▁재밌
▁존재감
▁UP
▁지라
팩트
▁레알
▁딜레이
iss
▁위원장
▁말리
▁동아
▁여야
▁잡아먹
▁안녕
▁대학원
▁바이오
▁테라
▁터널
▁ww
▁거듭
▁그랜드
▁부딪
▁순환
▁도망가
▁영주
▁애정
▁음모
▁주자
▁반전
▁캐스터
데이
▁철학
▁최신
▁해골
▁라기
▁AS
▁따라가
▁도둑
하면
▁텍스트
▁나리
▁가동
▁무역
▁피아노
▁엔젤
▁격추
라기
▁나선
▁잔뜩
▁태평
▁사라진다
보이
▁서쪽
▁사원
▁저질
▁참석
▁공허
▁멋진
▁부스터
▁심심
▁휩
▁기구
▁BL
▁모니
▁플라이
▁돼서
▁알렉산
▁www
걸이
▁기숙사
▁무서운
▁늘어난
▁취약
▁드래프트
▁->
▁부적
▁이집
▁이집트
30
▁마신
▁언젠가
▁공용
▁주차
chor
▁분신
ian
▁준우
▁비서
▁통산
▁써야
테르
▁CJ
▁체중
▁유나이
▁궤도
▁상기
회사
▁분대
▁명단
▁초록
▁유적
▁확대
▁쭉
▁훼
▁윌리엄
▁토벌
▁탄환
▁유나이티
io
▁종목
▁이토
▁옳
▁교황
▁Pro
▁페널
▁스펠
▁난입
▁식민
▁알려졌
▁귀여운
▁권리
▁경로
▁피할
▁왠지
소녀
▁하츠
▁브루
▁나츠
▁도박
우마
▁악명
▁출입
게임
▁말투
▁복구
▁밍
▁은신
▁대선
▁that
▁글로벌
▁외계인
▁빠졌
▁건조
▁신전
▁이식
▁1970
▁불사
▁기울
▁트랜스
▁간접
▁형상
▁도라
▁업로드
▁둠
▁코멘트
▁조리
▁시라
▁Fl
정부
▁기뻐
▁윗
▁기운
▁발달
▁아미
▁양성
▁연맹
ory
▁레딧
▁와일드
▁레슬
0000
▁에다가
▁하향
▁물려
▁장탄
▁적합
▁김대
▁디스크
▁Br
▁이수
▁가라
▁소유자
▁전이
▁일치
▁제약
▁가방
▁;&
▁명확
▁릴리
▁anchor
▁천만
▁숨기
▁유독
▁라이플
▁드라이버
▁뿜
▁연극
▁이드
▁아메리카
▁미키
▁어딘
▁사후
▁이펙트
▁구글
▁정황
▁살펴
▁화재
▁나타났
▁고개
▁커다란
▁WWE
▁강점
▁고도
▁그램
▁크림
▁리스크
▁딕
▁매장
▁구리
▁팬텀
리나
▁울프
▁커녕
▁나타내
▁해요
▁주택
▁헌법
▁끔찍
▁곳곳
▁&#
▁갖춘
IP
▁로얄
▁저택
▁아키라
▁실책
▁리뷰
▁이민
포트
▁할인
▁셜
▁170
▁보완
IG
UM
▁비주얼
▁렐
▁백성
▁Or
▁암시
▁사인
▁앞두
▁다이아몬드
▁그럭
▁문단
▁조별
▁평생
VD
▁하이퍼
▁만남
▁마블
▁운동장
▁단축
▁야수
▁이겼
▁우르
저럭
▁웨이브
▁언덕
▁충실
▁어필
TE
▁le
▁금액
▁나마
▁메이드
▁치즈
▁그럭저럭
▁승객
▁플래시
▁고위
▁허락
▁라니
▁망가
▁걸맞
▁박물
▁뻗
▁테츠
▁호기
가리
▁여우
▁원자
▁생긴다
▁자이언츠
▁답변
▁비스
▁샌드
▁토니
▁모자라
▁by
▁이른
▁이어서
▁덩치
▁1987
▁불펜
▁항공기
▁감각
▁라라
▁가벼
▁상식
▁시합
▁파편
▁였을
az
▁~!
▁성립
▁승자
▁스웨덴
▁뛰어넘
▁상영
▁Dr
▁토너
▁스크린
oth
▁에르
▁출격
▁위반
man
▁기동성
데미
▁트롤
ep
▁입대
▁잃어버
▁꼼
▁구미
▁매년
▁시원
▁부자
▁긴장
▁;&#
비드
▁축복
▁록맨
▁필리
▁가르쳐
OU
▁급격
▁걸린다
ale
▁문재인
란다
▁배트맨
▁집착
▁사살
▁천하
▁OP
▁흩
▁려던
▁니스
▁권장
▁유학
▁캘
VA
▁킬러
▁넘버
▁서구
▁놓치
▁작년
▁미네
▁평점
▁기인
▁일대
▁호칭
▁플래그
▁동성
▁마법소녀
▁싫어
▁보드
▁대수
▁퇴장
▁아카데미
▁적중
▁통치
▁토마
▁스테이
▁내전
▁우에
▁참가자
▁창고
어진다
▁놨
▁스즈
▁해명
▁스폰
ky
▁RPG
▁보인
▁따온
▁노바
▁맷
▁시공
▁리오
▁정하
▁분명히
▁케인
▁휘말
쟁이
ach
▁서서
▁구름
70
▁탐험
▁교과
운서
arg
▁아나운서
▁관할
▁중형
다나
▁실종
▁1500
▁열매
부르크
▁결심
▁근거리
▁내렸
▁전주
▁Sc
▁떠났
▁용인
▁약화
▁읍
▁선고
ows
▁결합
▁5000
아나
▁경직
▁사키
▁학기
▁동점
▁결투
▁두들
▁리플
▁그렇지만
▁정기
▁흑인
▁법인
▁싹
▁팟
▁죽였
▁어판
▁타쿠
▁본진
▁해안
▁치르
orm
▁토너먼트
▁쓰러뜨
▁가려
▁잘라
▁떠올리
▁111
▁호흡
▁노려
▁믹스
▁등지
▁솜
▁헝
▁전승
▁마스크
▁암살자
▁채보
▁발렌
▁생명체
▁완결
▁호시
▁야생
▁간지
▁센스
▁Team
▁럼
▁괜히
▁KBO
ish
▁수능
▁천안
▁막내
▁페이스북
▁내일
▁연합군
▁쓰러뜨리
▁겹치
▁악몽
▁BB
▁파르
▁정차
▁동아리
▁근본
▁변환
▁불교
▁지위
▁본사
▁엔드
▁박물관
▁슬라이
▁}}
ae
▁스위치
GE
▁인디
▁연습생
무시
▁우정
▁베리
▁베타
▁부를
▁지팡이
▁휠
▁와타
▁보이스
▁휘두르
ook
▁침략
Hz
▁소음
▁침묵
▁침입
▁마우스
▁부실
▁솔직
▁장인
▁통화
▁초인
ug
▁올릴
▁머물
ade
▁알아보
커스
▁유발
▁동급
▁한쪽
▁크레
▁선두
▁면적
▁들어왔
▁벌어졌
▁유력
ile
▁트리플
▁통계
▁FIFA
▁타석
든지
▁뮤지컬
▁관리자
▁돌입
▁리카
일보
▁참모
▁챈
▁유격
▁사용자
▁대왕
rom
▁마물
▁키타
yle
▁서클
▁임팩트
▁했으니
▁갈아
▁영광
▁지진
반도
irl
▁새롭
▁수급
ash
▁법정
▁ㅣ
ower
▁소방
▁교도
▁무작위
▁출구
데드
▁철수
▁무시무시
▁인피
▁가죽
▁건가
프리
▁1986
▁노스
▁지불
▁대거
▁wiki
부로
▁벙
▁프리미엄
▁수비력
▁균형
▁우타
▁CH
ink
▁허가
▁재정
▁가디언
▁CG
▁걸렸
▁세팅
▁히라
▁구할
TS
▁FW
▁임신
▁무관
▁언데드
▁어렸
▁보험
▁채택
▁간간
▁쓰러지
▁감지
▁깨달
▁콜로
▁항복
▁더군다나
▁폐쇄
▁디젤
▁안개
▁썬더
▁인력
▁격차
▁인질
▁인종
▁스쿨
▁몽골
▁신발
▁삽입
▁막판
▁블라
▁남북
IM
▁기름
atch
▁망했
▁인방
▁판결
▁철저
▁시켜서
▁비전
▁바디
▁사라져
▁핑크
▁DD
▁창원
▁아끼
▁고블린
▁선보였
▁어딘가
▁반박
센트
CG
▁관계자
▁이혼
머스
▁리프
▁단원
▁제정
▁데모
ial
▁포켓몬스터
▁경남
sh
▁트럼프
은행
▁텟
▁we
▁출루
▁유인
▁배포
▁코르
▁남매
▁포위
▁여주
▁후계자
▁일본군
▁의외로
▁백인
▁여러분
▁존경
▁스파이더
▁들어서
▁투스
▁이타
▁살아가
▁아틀
▁고구려
먼스
▁수면
▁아닌데
▁싸웠
▁아인
▁War
▁신나
▁인용
래시
▁김경
▁무사히
▁ID
▁체인지
▁복제
▁일당
▁쏜
▁쿠라
▁어두운
▁쓰였
▁스트레스
▁씌
여객
▁복선
▁매번
▁영원히
끄러
▁골렘
전차
▁륜
▁동양
▁예수
▁오늘날
▁Star
▁팁
▁챌린지
▁학습
▁LA
▁포르투갈
▁개설
▁벼
▁기세
▁국당
▁중복
▁캐치
▁106
▁메이플
▁고마
리스트
▁무너지
▁갑작
코드
▁빌려
▁준우승
▁아테
▁물량
▁일으켜
▁다녀
▁소송
▁지리
▁반해
▁어이
▁에픽
▁이글
▁끝난다
▁동명
▁코난
▁수출
▁레지
▁보충
▁탕
필드
▁선행
▁해치
카이
▁날카
▁장신
▁해머
오루
▁간단히
▁물고기
▁오디션
▁가만히
▁토크
▁바뀐다
▁대책
▁축하
▁미나미
▁기상
천시
▁up
▁왜곡
▁정통
▁못지
▁동인
▁냐면
▁상담
▁네트워크
▁미만
▁분열
▁DVD
▁귀엽
▁오키
▁뽀
▁데이트
▁코트
▁중력
키지
▁이주
▁보건
티스
▁닉네임
▁시크
▁드릴
▁만만
▁PR
▁버섯
▁자르
▁웰
▁잠입
▁피닉스
▁멜로디
▁배정
▁전북
▁메이커
▁오우
▁부드
▁공업
▁밝힌
▁혼돈
▁나미
▁체험
▁포즈
▁즉사
▁ON
▁처분
▁골라
▁여전
▁115
▁개업
▁해킹
▁후원
▁하마
▁넨
▁수석
▁단행
▁오메
▁항의
▁줍
▁102
▁야마토
▁패키지
화점
▁진압
▁선제
▁줄어든
▁벨트
▁트릭
▁아랍
▁입주
▁억지로
▁마드리
▁자전거
▁악기
▁기동전
▁기재
▁사령부
ING
▁다녔
▁배역
▁수백
▁장탄수
▁fe
▁장거리
▁퍼포
▁자본
▁퍼포먼스
▁서포트
▁Ne
ous
▁플러스
▁유산
▁For
▁수명
▁이루어져
▁기갑
amp
세대
▁돔
▁마드리드
▁오스트리아
att
▁콘텐츠
▁대포
▁악화
▁성전
▁라그
▁파이트
▁}}}
▁고리
▁Go
▁닛
▁야구장
▁호랑이
▁옹호
▁파동
게이
▁사이코
▁And
▁파멸
▁정발
▁분쟁
▁은지
야수
▁대치
▁GP
▁통로
▁분해
▁우세
▁유미
▁전제
▁이스라
▁도감
▁세부
▁프레이
▁지냈
▁궁금
▁가공
▁모험가
▁신입
▁토키
▁드러났
▁첼시
▁꿰
▁175
▁주니어
▁께서
▁Cr
▁탐정
▁Wind
▁늘어났
▁배달
▁무술
▁188
바닥
▁최상위
▁김상
아키
▁조약
▁재회
▁넬
▁논의
▁다닌다
▁기력
▁느려
▁그날
▁젤리
▁공정
▁처참
▁광선
▁".
▁파생
크로
하시
▁친한
▁아르헨
▁디즈
me
자와
▁커지
▁세포
▁행방
▁깜짝
▁모터
▁1985
▁시트
▁진주
▁무스
▁산하
▁유성
▁wid
▁차체
▁노조
▁버드
▁체감
▁받아들여
▁박지
▁양상
▁장미
▁마코토
▁위안
▁조이
▁조우
▁비웃
▁리라
▁자꾸
▁터스
ms
▁후손
텐도
▁진학
▁닌텐도
가드
▁증폭
AY
▁강원도
▁김진
▁롬
▁부착
▁여학생
▁bl
▁카구
64
▁터져
▁금메달
▁아르헨티나
▁즈음
▁레일
▁앗
▁나비
▁규격
▁나기
▁독재
▁저지르
▁업계
▁고로
▁니콜
▁아동
▁퍼지
▁폭행
▁방치
▁휘하
▁검술
▁주둔
▁관점
▁드루
▁커서
▁조기
▁시카
▁사귀
▁난사
▁페널티
▁쪼
▁width
▁듀오
▁베네
▁350
▁띠
▁이긴
▁al
12
ib
▁전파
ft
▁공수
▁왜냐
▁한두
▁Gam
벌레
▁반부
▁훈장
▁브레
▁개발자
▁신데
▁전무
▁질투
now
▁무인
▁PP
▁이걸로
▁제독
▁톨
▁중세
▁경주
▁택시
▁고장
▁파란색
승부
MP
▁BS
▁세웠
▁베테
ps
▁스트리트
렐라
▁IN
▁감상
▁측정
▁이온
▁방송국
▁소요
비전
▁김기
▁속한다
▁전동
▁조커
▁떠난
▁오염
▁스탠드
▁중장
▁불량
▁이스라엘
▁면허
▁능력자
▁늘리
▁세인트
▁감동
▁루스
▁토큰
▁승무원
oll
▁도저히
▁최적
▁BR
히코
▁1984
▁기원전
▁산탄
▁부사
▁시상
▁드론
TV
▁AKB
▁약탈
▁나요
▁Man
▁운수
▁지사
▁국판
▁후자
▁발목
▁트루
▁디바
▁대단히
▁유니크
▁토시
▁우치
태프
▁신도
▁UN
▁피트
▁스캔
▁위성
▁기장
▁닝
▁루머
▁나루토
▁티아
▁우월
▁그래서인지
▁맡기
▁에디
▁sp
▁All
▁선거구
▁이종
▁바론
▁아아
▁세운
▁스텝
▁주행
▁돌아와
▁후퇴
▁코마
신교
▁브로
▁아시안
▁부러
▁룩
▁아레나
▁혈액형
▁히가시
▁광장
▁옮기
▁내려오
▁식민지
▁루이스
▁샷건
▁왕위
▁상관없이
▁틴
▁창단
▁베기
▁선보이
▁루크
번에
▁Part
▁나노
▁반짝
▁자비
▁SU
▁서서히
▁철권
카락
▁머리카락
▁달라지
▁하하
▁KR
▁소용
▁과도
▁자녀
▁친해
▁까이
▁일화
▁라이너
▁붐
더라
▁올라갔
▁던가
▁토미
▁112
▁다운로드
▁공백
▁En
경기
▁분당
▁기둥
▁노가
▁조용히
▁연고
▁제출
▁야간
▁조롱
▁원리
▁아가씨
▁고인
▁힐러
세서
▁요인
▁얻어맞
▁명의
▁간호
▁끊임
▁수월
▁철거
ond
▁향한
▁투척
▁뻥
▁대시
▁프렌
▁DC
▁마감
키퍼
▁돌연
▁Sup
▁바꿀
▁중시
▁쇼핑
▁Fate
▁줄거리
▁비명
▁LP
▁려다
▁캣
▁루피
▁처지
▁라우
▁더빙
▁굵
▁보존
▁고증
▁타이거즈
▁타일
▁쓰여
필더
▁미드필더
▁전망
▁Mar
▁장사
▁몫
▁잡아내
▁엑시
▁진이
어놓
▁막히
▁절차
▁프란
▁백작
데레
▁ex
▁듀스
▁AN
▁막상
▁108
▁모로
▁뒤늦
아이
▁범죄자
▁스리
▁무산
▁시신
▁온천
▁라이온즈
▁시바
▁쇼크
▁갑작스
▁수동
▁오락
▁저하
▁주류
▁특급
ase
▁합병
▁닐
도리
▁리즈
▁챙기
▁십시오
유럽
▁세라
▁스러워
▁호소
▁실장
▁긴급
▁원조
▁메일
ool
▁여인
▁식품
▁합계
▁가까워
pl
▁경악
▁배급
▁수색
▁인권
▁평일
▁줄여
▁빅토
▁유재
▁배드
▁에릭
▁360
▁풀려
▁시외
▁오이
▁낙하
▁골키퍼
▁생애
▁고객
▁걸즈
▁만일
하르트
▁117
▁에반
▁와카
▁나폴
블로
투스
런트
▁꼬마
▁킷
▁마계
▁러시
▁우유
▁청와
▁바스
▁발굴
▁복합
▁안양
▁지칭
▁키워
▁로빈
▁잠실
▁달하
▁교단
▁직장
▁샤이
▁실은
▁증상
▁남아
▁임금
▁One
▁의자
▁방위
▁성당
▁스포일러
▁강림
▁확장팩
▁막아내
▁공인
▁어시스트
▁부임
혀서
▁며칠
▁폭파
▁미루
▁개별
▁국경
산시
▁고소
▁청와대
▁로이
▁유의
▁팡
▁꽉
▁그라운드
▁기묘
▁극한
▁당당
▁여고
▁코스튬
▁예고편
▁버려서
▁배수
▁뱅크
구나
▁거북
플레이
▁로버트
틀러
ree
ph
▁비치
▁포스터
▁후회
▁교복
▁특별히
▁뱃
▁청주
▁오로지
▁개장
▁히든
▁사나
▁통틀
▁학생회
▁명백
▁선사
▁헨리
▁As
▁아이러
▁올라간다
▁해라
▁역습
학자
▁극도
▁시로
▁New
▁하이라이트
리온
▁도트
▁집어넣
▁파울
▁회담
▁쳐서
▁곱
ason
▁프린세스
▁조명
카이도
▁엎
▁수염
▁퍼즐
베스
▁쉬워
▁쓸데
▁FM
▁케이드
▁여객
불명
aby
▁개신교
▁뜬금없이
▁되살
릴라
▁103
▁Oh
불호
▁술사
▁호불호
▁렌즈
ai
▁관찰
▁두들겨
▁실존
▁오더
▁트레일러
우리
▁모집
▁비스트
▁GO
▁불행
▁헷
▁되게
▁흰색
▁양손
▁마케
▁바른
▁성질
▁니아
▁엇
▁사야
크라
▁저지른
▁그거
▁유기
▁어쩌면
▁매출
▁에로
▁JP
▁동경
▁보라색
▁220
▁부동
▁라크
▁장로
▁1960
▁셔틀
▁유언
▁트레이너
▁CS
러그
도르
▁올스타
▁흔들리
ment
▁라즈
▁바지
▁햇
그리
▁거든
▁과학자
▁프로토
▁우주선
저리
▁z
▁무섭
▁샬
▁결계
▁찾아보
▁물품
▁모듈
▁지인
▁샵
▁오브젝트
▁UE
▁구르
▁유망
▁항구
▁심의
▁떠오르
키아
▁코미디
▁타르
▁윈드
▁캐시
▁여파
▁들어올
▁회색
▁손상
▁240
▁타이탄
에이
▁웨스트
▁각오
▁tv
▁원곡
▁지향
▁초콜
▁알라
▁나스
▁세뇌
▁법칙
▁우즈
▁연봉
▁비유
oon
▁폐기
돌이
▁태평양
▁포탄
마크
▁엘리자
▁이와
▁진격
▁늘려
▁거친
▁무승부
▁풋
싱턴
▁un
▁홀드
▁128
▁손실
▁정반
▁드로우
▁국정
MS
▁김용
베이
▁유출
▁담긴
▁치열
▁포장
▁광산
90
▁건국
▁늙
▁가져오
▁신선
▁이글스
▁국장
▁추리
▁무공
▁지워
▁즉위
▁장판
act
▁갤러
▁브라운
ox
▁제네
▁따뜻
▁맥주
▁중순
거지
▁발리
▁우드
▁제갈량
저기
▁임기
▁슬로
▁함부로
▁코믹
▁영지
토스
▁패전
▁내게
▁단기
▁엄밀
라노
▁짐승
▁반감
▁워크래프트
▁클론
▁노동자
ARD
▁닷
▁트랩
▁모스
▁서머
▁탐지
▁네티
▁배려
▁리버풀
▁이웃
▁스핀
메이
hen
▁합리
▁생길
▁여기저기
▁아바타
▁TVA
▁최우
▁%/
▁쿤
▁계수
▁안심
▁사이클
▁양자
▁리안
▁간주
▁먹히
▁하스
▁하프
▁섀도우
▁커스텀
▁매달
▁지녔
▁독점
▁기수
ank
▁라틴
▁로이드
▁관통력
▁트로피
▁트리거
▁살펴보
▁후미
▁생전
▁알렉스
▁트라우마
▁당대
▁신용
▁단검
▁스나이
▁백제
▁원더
▁방탄
▁신자
▁여럿
▁지연
깨비
▁레온
▁대조
▁휴가
▁장난감
▁김준
▁마땅
▁상륙
▁키라
▁벤치
▁시비
▁소프트웨어
▁옐
▁World
▁야쿠
▁콤비
▁사립
▁JT
▁디시
▁단종
▁날씨
▁일요일
▁나르
▁아이러니
포르
▁디즈니
ich
▁시인
▁우익
▁신데렐라
ary
lect
▁프라임
▁Mk
▁이모
▁토요일
▁챔피언십
▁1982
▁태국
▁쏟아
▁혜택
▁수습
▁신속
ife
▁시리아
▁손오
블리
▁방송사
▁네티즌
▁선임
란히
▁음료
▁할까
ear
▁잡아
▁동해
▁파밍
▁변수
▁센서
▁권유
▁추세
▁카더라
▁쳐들
▁스트라이커
하마
▁주어지
▁서기
▁그만두
▁서바이
▁근원
에르
▁일으켰
▁도장
▁막강
▁스피릿
▁사법
▁독일군
반기
▁순양함
▁권위
▁갚
▁실내
▁허무
▁자아
uk
▁지목
▁튕겨
▁의학
▁당사자
▁벡
렉션
▁라스트
▁LIVE
하나
▁SF
▁슬라
ET
▁상사
▁약물
▁려다가
▁버스트
싸움
▁동속
▁키보드
▁후임
11
▁프론
▁끓
▁기다려
▁경호
▁데려가
쿠라
키리
▁전남
▁불렸
▁비틀
▁추방
▁결제
▁마카
▁탭
▁지력
▁쌀
사기
▁김해
▁유혹
▁선장
▁짐작
▁185
타카
▁배출
▁Day
▁흡사
way
우치
▁후반기
▁표면
▁all
▁구조물
▁극히
▁실시간
ple
▁될지
▁드레스
▁얽
▁낙선
▁엽
▁근접전
▁벌였
▁논쟁
▁기호
▁전생
▁조상
▁Fr
▁경북
▁태클
▁정석
▁진상
▁1983
▁유전자
▁고치
▁줌
▁니혼
▁새겨
▁침대
▁흔한
▁감수
▁몰리
▁았었
▁로보
▁설령
▁스타디
▁좌절
▁매니아
▁패밀리
▁끌어올
▁창설
숭이
▁강사
노리
▁간간히
▁포획
▁페리
▁울트라맨
사리
▁마피아
▁타가
▁합동
▁lv
▁{{{#
ype
▁성배
나미
▁비극
▁둘러보
▁nd
▁119
▁역임
▁원형
▁DPS
▁시온
ens
▁집권
▁물체
▁맞춘
▁범용
▁중상
▁소모량
▁느꼈
aster
▁백화점
▁거둔
▁MB
▁낭비
▁찾아오
▁손오공
▁튼튼
▁특공
▁정교
▁피로
▁해병대
orn
▁연구원
▁빌딩
▁퀵
▁구동
▁명목
ork
▁도리
▁전날
▁출혈
▁페어
던지
▁베어스
▁미궁
▁사무소
▁go
▁그치
▁한반도
▁동남
▁생체
▁지선
▁엄격
▁띄우
▁콘솔
▁굴러
▁변태
▁펼쳤
▁마트
▁삼각
스티벌
▁부스트
▁페스티벌
버려
▁DP
▁104
▁123
▁공감
▁수직
▁질병
▁사악
▁헤르
▁Wi
▁미미
▁가벼운
▁푼
▁복원
▁스태프
▁땡
▁혀
▁배제
▁위로
▁베테랑
▁가진다
▁Ad
▁의장
▁강렬
▁Sw
▁질주
▁are
▁RA
▁래퍼
▁AA
▁해져
▁호남
▁엑시즈
▁하인
▁오메가
▁OVA
▁데이비드
▁특별시
ans
▁109
▁대타
▁동행
▁실상
▁바나
▁젖
▁Up
버그
▁개국
▁관측
▁내린
▁직선
사이
▁탐색
▁단행본
▁가질
▁스즈키
▁공대
▁빨간색
▁제물
▁KOF
▁style
▁본토
▁토요
▁양반
ons
어졌
▁휘둘
▁케이블
▁쨩
▁도깨비
▁페미니
▁진급
▁스플
▁전락
ey
▁리코
▁돌아간다
▁do
▁우측
▁약자
▁디펜
▁장성
▁무실
▁블로
▁브레이커
▁센트
▁오지
▁들어와
▁관여
▁선조
▁광기
▁발라
▁거론
▁앰
▁연쇄
▁엔지
very
▁라그나
NA
▁ES
▁메리트
▁잉여
▁비추
▁우호
▁즐겨
▁다가오
▁총합
▁변동
▁III
▁본관
ung
공항
▁마타
▁스테이션
차기
▁아스카
▁바둑
렉스
▁차리
▁워싱턴
▁촉수
▁UEFA
▁히로시
▁모음
▁소니
▁끼치
▁인재
▁전격
▁세금
▁모은
▁백업
▁오노
▁한창
타입
▁유탄
▁논문
▁훼손
▁시달리
▁군수
▁해양
▁고무
▁단발
▁싼
▁친절
▁위엄
▁코토
▁스와
▁친하
▁옴
▁수비수
능력
▁장애물
▁괴롭히
▁마술사
▁구장
▁축소
▁하급
EM
▁오니
▁대박
▁에이지
▁을수록
▁감싸
▁땅볼
▁리모
▁스타디움
▁친다
▁응용
▁긁
▁프리미어
나기
▁그랑
▁카를
▁라가
박스
▁중지
▁벅
▁스위스
▁박살내
▁성실
▁민주주의
께끼
▁어색
▁수수께끼
▁역명
▁형편
다보
▁할로
▁명문
▁강호
▁마오
▁이럴
▁트윈스
anc
▁취업
▁구성원
▁치카
▁쫒
▁역량
▁최저
▁사리
▁데빌
AK
▁안쪽
▁돌아갔
▁짙
ll
▁징역
▁확산
▁바르셀
으로
▁Windows
▁제왕
▁바르셀로나
어내
▁미지
▁츠카
▁노란색
▁이어졌
▁우회
▁재학
▁워크
▁유망주
▁겜
▁노가다
▁드문
▁빈도
▁아지
▁코바
체스터
▁메카닉
▁창문
우트
▁초콜릿
▁카카오
▁경상북도
▁묘하
▁공통점
▁해질
▁원피스
▁쫓겨
▁ne
▁란스
▁인자
▁리퍼
▁이현
▁천연
▁썸
▁강등
▁여타
▁키미
▁깃발
▁대행
▁고스
▁윈도우
▁렉스
누스
▁힙합
▁폴리
▁중고
▁과자
▁부작용
▁산타
▁찾아온
▁온도
▁우승자
▁분산
35
▁as
argin
▁마유
▁변해
▁승차
▁티스
▁눈치채
▁물러나
▁퇴각
▁껍
▁포터
▁가리키
▁유료
▁나빠
▁굴욕
▁불쌍
지막지
▁무지막지
▁의해서
ero
▁en
▁여의
▁레이디
▁뉘
▁농장
▁팰
▁수인
▁일어날
▁구독
▁봉쇄
▁전당
▁드래곤볼
▁최선
▁통칭
▁스미스
▁고는
▁취득
▁젬
▁이병
▁아까
▁원한
▁동반
▁스노우
모스
▁대령
▁시상식
▁관우
▁칭하
▁어나
루미
▁발판
▁Station
▁대접
벤처
▁187
▁Ph
▁어드벤처
▁올드
▁클린
▁루프
브라
▁파도
▁성씨
▁부숴
▁치우
▁Qu
▁no
oss
▁LO
▁챔프
▁츠바
▁화산
▁margin
▁크레이
▁레이어
▁어벤
▁진에
▁로맨
▁So
▁다이스
▁건네
▁규제
▁물어
▁블레이
▁렘
동자
비치
▁ML
▁발키리
▁발행
▁오스만
▁키를
▁급행
▁공산당
▁천천
붙이
▁결혼식
▁흔하
▁요한
▁원시
▁135
▁잔인
▁후드
▁대전차
▁나섰
▁카마
▁두드
▁드러난다
▁아님
▁매드
▁공단
▁210
▁손님
▁톡
▁평양
▁머니
▁사족
▁강간
▁빙판
ise
▁변이
▁가난
▁표절
pt
▁겔
본다
구장
▁황후
▁손꼽
port
▁타치
▁시사
▁주사위
▁신중
▁국무
99
▁121
▁요미
▁털리
▁검열
▁이대로
▁소재지
▁침투
▁경연
▁미오
▁카리스
▁샐
▁수지
▁멍청
▁인과
▁사로
▁스케일
▁피카
ical
▁다가가
▁날뛰
▁아베
AP
▁너머
▁특훈
▁예약
▁블리자드
▁여포
▁107
네마
▁와인
▁쿵
▁개척
▁선출
베이터
▁겹쳐
▁준다는
▁와이번
구미
▁뮌
▁건데
셔널
▁찾아내
▁스택
▁목걸이
▁쯔
▁게이머
▁고쳐
▁지오
▁안타까
▁스타리그
▁뜬다
▁세리
▁김수
▁열혈
▁이라크
▁천천히
▁캄
▁주체
▁페어리
▁쇄
▁Ver
▁넘어갔
▁난무
리안
▁왼손
▁강경
▁여섯
▁끊임없이
▁신동
▁MG
▁호크
▁마인드
▁타츠
▁강민
▁패자
▁엔트리
▁1981
▁!"
리스타
모함
▁퍼져
▁사체
▁인칭
▁떠난다
▁이순
▁부재
▁지수
▁케빈
▁쫄
▁불태
▁퍼스트
▁기부
▁어나더
▁시외버스
루션
▁광물
▁일까
▁사관
▁조종사
▁워프
▁프랑스어
▁주관
▁사수
테이션
▁점검
▁제재
▁대성
▁교토
▁맞붙
▁중거리
▁끌어들
▁본다면
▁명분
ign
하루
▁착한
▁베인
▁김지
▁혈통
▁슌
▁--
▁소통
▁답답
▁ㅋ
▁압권
▁소금
▁모니터
▁감탄
게이머
▁프로게이머
▁스티븐
▁서식
▁아닐까
▁그레이트
니시
▁트윗
▁폭스
▁pl
▁자네
▁알바
▁선진
▁무용
▁첫째
▁스컬
▁미국인
▁토지
▁김승
▁이노
▁미정
▁철갑
▁냉정
▁미러
▁고시
▁루리
▁자존
▁출간
▁처하
▁love
▁우린
▁아픈
▁엄연히
▁첸
▁모델링
▁점유
▁평론
▁레인지
▁이어진
▁으려는
▁해산
▁이라도
▁경찰서
▁카시
▁라마
▁이대
IR
gh
▁가르치
▁임의
▁흙
테일
▁망토
▁사사
▁열렸
▁공격수
▁폭격기
▁헷갈
▁TR
센스
▁아스트
▁자제
▁으라고
▁오죽
▁다닐
▁페스
▁구별
▁크라이
▁장타
▁이경
▁Sk
▁마일
▁중동
바나
▁친분
▁러스
▁플랜
▁스런
▁라이즈
▁보좌
▁용자
▁고사
ail
▁하여
▁리나
▁연산
▁주최
▁도어
▁손쉽
▁재개
▁186
▁math
▁외곽
▁풍부
▁중위
▁개교
▁화상
▁굴리
▁JTBC
▁붓
▁실사
▁본능
▁엣
urn
▁항공모함
▁상무
▁디오
▁질서
▁마산
ode
▁유니버스
추어
▁예쁘
▁열정
민주
▁어이없
▁맹세
▁크래프트
VER
▁불능
ence
▁Super
▁유입
▁고속도로
▁고집
▁사퇴
▁훔쳐
▁동정
▁그릇
▁트릴
▁정해진
▁초능력
▁아냐
▁하나하나
▁영감
▁To
▁꼽히
틀랜드
▁웜
베리
▁납득
▁BJ
▁가져다
▁스폰서
▁왜냐하면
▁공속
▁바이올
▁(
▁지부
▁화해
▁저렇
▁정신력
▁우울
▁변장
▁122
▁생김
▁군요
▁잊혀
▁국제공항
▁Dream
의자
▁찬성
▁시타
바지
▁EC
▁박성
▁라이언
▁광경
▁기스
▁김유
▁어설
▁삼성전자
▁유연
▁검정
▁레시
!!
▁코노
▁움직일
▁에디션
▁에버
▁사무실
▁인벤
이동
▁리틀
▁="
▁LE
▁벙커
▁올바
▁까마
▁몸통
▁애칭
▁작정
▁로키
▁근대
▁중점
▁기본기
▁출범
▁따왔
▁히틀러
라미
▁일가
▁확신
▁왓
▁쉴드
▁원숭이
▁극대
▁너스
▁멋대로
▁법사
▁평상
▁닦
▁우마
▁템플
▁찾아볼
▁엘리베이터
배우
▁장례
▁하치
▁박수
▁EXP
▁홋
▁카레
▁카자
▁토트
▁스가
ier
▁김포
▁마모
▁광명
▁엘레
▁올라갈
▁체결
이나
▁굽
▁민국
▁아쿠아
▁만능
▁슈퍼맨
▁쓰인
▁카쿠
▁1979
▁곡인
▁변했
▁이어진다
▁총장
▁유치원
▁마라
뜨려
▁145
IX
버리
▁워즈
▁창작물
▁기르
▁투쟁
▁아닌지
▁도색
▁청구
버렸
▁출산
▁퍽
▁이어받
▁워리어
▁변명
▁카네
ble
▁안타깝
▁브라더스
▁쳐들어
▁모임
▁무제
▁붙인
▁블럭
▁싫어하
▁더럽
▁부근
▁할리
▁롤러
▁조카
▁만주
▁매주
▁슬픔
▁잠들
워즈
▁유격수
▁부스
▁버틸
▁이누
▁헬멧
▁실현
oun
▁테이블
들이
▁후일
▁IM
▁타구
▁가이드
▁NO
▁방심
▁쳐도
▁Ap
▁펭
▁부천
▁무실점
▁튜버
▁113
▁재앙
▁씨앗
▁암호
▁니다
▁우루
▁싸운
▁히스
▁쿠니
▁풍선
▁마운
iver
▁비리
▁can
이치로
▁고등학생
▁165
▁써도
▁왕복
▁헝가리
▁항모
▁학급
▁철저히
▁스쿼
▁복사
▁동전
▁엮이
▁호러
▁맞춰서
▁터보
▁인접
▁검증
▁이카
▁브라이언
▁깨지
▁노무
▁명사
▁몰살
▁케이크
ott
▁글씨
▁IT
▁사연
▁병역
▁손자
▁엉망
▁각인
▁포탈
으므로
▁아처
▁1950
▁상주
역사
▁144
▁레이블
▁이이
▁운송
▁리가
▁알레
▁인성
▁엄밀히
▁쿠마
▁되돌아
▁카지
▁ATK
▁놀라운
▁CM
▁절친
▁155
▁사투
▁옥상
▁화폐
▁시뮬
▁쿠데
▁유우키
▁한다며
▁조국
▁매트
▁배운
슬라
▁세로
▁두려워
▁통째
▁Max
▁연전
▁젼
▁승인
▁품질
▁연수
▁간섭
▁제니
▁죄책
▁사로잡
▁영양
▁기리
폭탄
▁바치
▁방학
페이
▁버텨
▁아무튼
▁츤
▁현금
▁마당
▁망하
진호
▁독일어
▁상금
▁유재석
▁ERA
▁제리
▁114
▁마음대로
▁BD
▁목사
▁버거
▁입문
▁엔지니어
▁at
▁기차
▁집회
II
▁천장
▁일곱
▁태우
▁습니까
코트
uck
▁양식
▁함락
▁히카
▁원전
자치
▁우연
▁즐거
▁뮌헨
▁바쿠
▁시크릿
▁쓰리
▁스나이퍼
▁페르소
▁거지
▁깊이
▁잃어버린
oh
▁싸이
▁깐
▁유메
▁유카
▁아자
▁지로
▁죄책감
▁수위
▁다큐
▁스틱
▁밝혀진다
▁미르
▁솟
▁호드
▁기동력
▁동대
▁리본
▁혁신
▁쿠스
▁스카우트
▁시모
eah
▁개구리
킵니다
▁부패
▁성경
▁할로윈
▁멧
▁초록색
▁승진
▁이놈
▁스피어
▁스티브
▁전동차
▁변한
가루
▁감자
▁나인
▁용암
▁참사
▁이케
▁전향
▁토대
▁궁합
▁티저
▁오렌
▁괴로
▁다거나
▁코스프레
버린
▁호의
끼리
주교
▁종결
▁친애
▁정문
▁최순
▁750
▁GK
▁이룬
▁녹화
▁메트로
▁고아
▁현자
네시아
▁러쉬
케이션
▁사무라이
▁정반대
▁아드
▁깨끗
▁레나
변이
▁이소
▁아리아
▁돌연변이
▁시게
▁토우
▁한나라
▁디자이너
▁..?
▁자율
▁페르소나
▁만점
야시
▁무거운
▁한나라당
▁미성
▁평행
방송
▁OS
▁은폐
▁원장
▁협의
▁메이지
▁아이디어
▁필리핀
▁this
들리
▁미인
▁이력
▁진에어
▁흑마
bs
▁아오이
▁교과서
int
▁오퍼
▁기후
▁슨
▁대위
▁자칭
▁도약
▁정성
▁항해
▁HE
▁유전
▁Season
▁450
▁이스트
▁적절히
▁AB
▁나이프
▁실체
▁흡혈귀
▁저글
▁스매
▁충족
▁지분
▁잭슨
▁합작
▁종영
▁다니엘
▁끼워
▁갯
▁파스
▁NBA
▁from
▁치안
▁이태
▁로라
운동
▁브론
IL
▁이틀
▁{{{-
▁동서
▁자이언트
▁뜨거운
▁학문
▁지혜
▁tr
▁트래
▁가위
▁마에
▁리사
▁좌측
▁사와
▁얼티
▁여단
ose
▁잼
itt
▁일관
▁욕설
▁가담
▁EXT
직자
▁시골
▁레코드
▁스타트
▁마기
▁히드라
▁침착
철도
▁피자
▁외국어
▁얇
▁EZ
▁중원
▁헥
▁La
▁내기
▁어려울
▁말씀
▁서류
렉터
▁떨어질
▁각지
▁입증
▁계층
▁학대
▁스쿼드
▁314
▁뱅가드
▁분홍
▁포병
▁떴
탐정
▁울리
▁억울
▁베이징
▁협정
▁겐지
▁잔혹
▁소생
▁물자
▁미쳐
▁밀도
▁해소
▁툰
▁Im
▁new
▁미아
▁일리
▁무도
▁추후
▁끝날
▁놀랍
▁Vol
시고
▁돌아갈
▁로스트
▁밀어내
▁감당
▁존중
▁준다고
▁초상
▁Con
▁해냈
▁갈색
▁카리스마
▁토라
▁저글링
▁강릉
▁카테
▁대동
▁머무
▁격려
▁부원
▁학년도
▁스파이더맨
▁신곡
▁나이츠
ats
▁고고
지능
▁고의
▁인공지능
▁rd
린다는
▁이오
나베
▁주석
▁가오
▁뿌려
슈타인
▁124
▁Sch
▁스타즈
▁스탈
▁피지컬
려고
▁Ed
▁강타
▁존스
▁아케이드
▁대세
▁익히
▁점멸
마루
▁어째서인지
▁시어
▁판도
철수
▁출판사
▁부유
▁쌓이
▁에메
부키
▁물약
▁ld
은색
▁Girl
▁워터
▁펌프
▁속한
▁유스
▁강전
바이트
▁배구
▁황당
▁힘입
▁Gre
▁과금
▁밀레
▁부속
▁민간인
15
▁함장
▁퀴즈
▁점심
워프
▁세자
▁디아블로
▁RE
▁Night
ube
▁대검
▁하지
▁압력
▁대변
▁정사
▁틀린
▁압축
ari
▁표적
▁저기
▁괴인
▁시킵니다
▁183
▁USB
▁강했
ition
usic
msys
▁이빨
▁ldmsys
13
▁터졌
▁샀
오피스
▁건드리
▁생김새
▁산맥
▁빙결
▁둘러싸
▁제발
▁달라진다
▁테스
▁그쪽
▁그러므로
▁애완
▁소서
▁마틴
▁갇혀
▁마하
▁예의
▁키요
▁후유
▁레이싱
▁뚱
▁내역
▁벌인
▁벌써
▁달려들
▁즐길
▁그러면
업자
▁법무
▁동구
▁소소
▁리버스
▁TS
▁경부
▁김주
▁나뉜
▁다시금
▁씻
▁보스턴
항공
25
▁이어져
리얼
▁마케팅
▁중견
▁퇴치
▁날린다
▁발사기
▁기껏
▁노아
▁집계
▁1200
▁일어
▁Black
▁기질
▁만렙
▁스탭
▁덩어리
▁아카네
▁박스오피스
▁자책점
▁이른바
▁망설
▁병살
▁모형
▁련
▁WC
▁잡힌
▁출동
▁골프
사랑
▁연설
페라
▁재건
▁인해서
▁제노
▁박진
▁자존심
▁토마스
▁대차
▁주축
▁철도역
▁변한다
▁농업
▁에미
▁로프
▁무녀
끄럽
▁모종
▁저질렀
▁NH
▁입힌다
▁도덕
▁사촌
▁바텀
▁위해선
▁댐
▁얄
▁일렉
▁리처
▁장벽
▁도대
시대
▁선동
yn
▁포착
▁보낼
▁유진
▁마도카
세지
▁통솔
▁그레이드
▁구상
▁연동
▁귀국
▁등극
토니
▁레아
▁넘쳐
▁절벽
▁억제
▁원판
▁BC
▁천상
▁드워프
▁예요
▁문양
▁상냥
아치
▁킴
▁127
▁각도
▁남동생
▁달려가
▁이원
▁교차로
▁현황
▁노무현
▁불길
▁애인
▁MM
▁모빌
▁발레
▁졌으며
▁발명
▁모스크
▁DM
▁관장
18
▁앓
DD
▁오른손
당초
▁이윤
▁타이어
▁내보내
app
▁ver
▁탄핵
▁리바
▁쿠데타
▁아담
▁적시타
▁육상
▁섞여
▁Let
▁봉사
▁왕실
▁스크롤
▁스토어
▁원주민
▁날카로운
▁프랜
▁아마추어
▁올라와
▁도배
▁퓨전
▁118
▁OG
▁그란
▁솔저
▁사치
▁아포
▁날아오
▁SSR
▁왕비
▁베를
▁방사능
▁전담
▁향후
▁카게
▁까마귀
▁섬광
▁뻘
▁라미
▁발급
▁챔스
▁사방
▁용산
▁환생
▁Am
▁입시
▁서울대
▁Op
▁회관
▁184
▁시시
▁쿄코
▁서적
▁제치
▁뤼
▁착륙
▁AF
▁Col
▁라인하르트
▁하사
▁학사
gr
▁Str
▁여태
▁시안
▁던진
ye
▁지장
▁피오
▁박자
▁베스
▁정밀
▁루마
▁인피니티
▁서열
▁잎
▁이무
▁퍼펙트
▁GM
▁다카
▁시오
타이
▁행진
▁밀리언
▁얌
▁리자
▁지루
▁숙소
▁우두
▁청춘
▁not
▁필름
ough
▁프롤
▁협동
▁선박
▁컴뱃
▁미녀
어트
▁152
▁민폐
▁큐어
▁실용
CE
▁Mag
▁카리
▁그쳤
▁화기
▁루미
▁싱가
▁싱가포르
▁유가
▁게끔
▁반성
▁지크
▁스로
▁강인
▁도대체
▁..!
▁감추
▁편리
▁교도소
iel
▁스타워즈
▁날렸
▁브래
▁마을버스
▁그간
▁욕심
▁선원
▁승패
▁금발
▁오렌지
▁직책
▁카피
▁홀리
▁보우
▁갱신
▁스네
▁아수
▁바꿨
▁조화
▁툭
▁AV
▁000000
▁시호
▁까다롭
▁가져온
▁모순
▁폴아웃
▁침몰
▁팔라
▁김치
▁취재
▁주공
▁테리
vel
▁아슬
▁일일
▁AL
▁과일
▁친척
▁어벤져
ull
▁김광
▁이진
▁탐사
▁욱
▁화신
▁스카웃
▁섬멸
▁한꺼
▁한꺼번에
▁완화
▁경전
▁흥분
▁1978
▁어려웠
▁전송
프리카
▁전지
▁올린다
▁우미
▁구울
크리
▁이계
▁발각
▁태워
▁군부
▁182
▁모아서
▁스기
▁쿠사
▁까다로운
▁싸운다
..
▁흑막
▁한가
▁보강
▁능가
▁이별
▁시간대
▁높여
▁리부
헤이
▁보낸다
▁해운
▁안무
▁성명
▁오즈
▁중구
키스탄
▁진단
▁앞선
▁천국
▁오토바이
ult
▁구형
▁178
▁컴백
▁아사히
▁홋카이도
▁소나
▁CL
서스
▁토트넘
▁반경
▁도르
에른
▁모욕
바리
▁흑역사
▁달인
▁스텔스
▁못해서
▁관문
▁용이
▁들키
▁가구
▁민감
▁미소녀
▁고맙
소년
▁호리
able
▁#!
▁쓰러진
▁아름답
▁경상남도
▁신관
▁깨어나
▁약혼
ject
▁동계
▁이단
기에
▁그리핀
▁최상급
▁완공
▁대역
▁인문
구니
▁반역
▁스윙
▁모에
▁주머니
▁레버
▁일체
▁헬리
▁CE
▁등재
▁마야
▁었었
▁라비
▁유즈
▁안겨
▁시카고
▁빠져나가
▁타카하시
▁직행
▁얼티밋
▁줍니다
▁사직
바람
▁신작
▁PK
▁터진
▁오만
▁1945
▁강대
▁껴
▁만난다
▁매각
▁엉덩이
▁저자
▁간판
▁에코
모습
MAN
▁이나마
마리
▁갖춰
방울
▁머스
▁시종
eth
▁소득
oot
▁마수
▁엘리자베스
▁코레
▁플라스
세요
▁패트
▁부채
▁베이비
▁디스플레이
▁매그
▁장남
타리
▁적자
▁쿠리
▁명장
▁단자
▁울음
▁정점
▁프레스
▁레시피
▁Co
▁약체
속기
▁사탕
▁라이트닝
▁스마일
▁피치
▁터뜨리
▁늘어난다
▁정답
▁금요일
▁수아
▁요격
▁se
▁파운드
▁여주인
▁바이에른
▁불참
▁늪
▁탈취
▁짬
▁오다
▁카제
▁카사
▁마미
▁던지라
▁패왕
▁걸까
▁배울
무지
▁수천
▁cl
▁카일
▁얹
▁아랫
▁밈
▁파고
▁도심
▁TOP
▁레이지
▁실적
▁비비
▁소마
▁일러스트레이터
▁도쿠
▁BO
▁휴먼
▁노릇
▁오케
▁눈앞
▁교리
▁태풍
▁AFC
▁편의점
스크림
▁휩쓸
▁독백
▁맨체스터
▁애용
▁무능
▁대피
▁박정희
▁탔
▁과시
▁찔러
▁가왕
ild
▁어그
▁짠
▁입사
▁카이저
▁구로
▁욕망
파이
▁펴
니코
▁시범
▁평상시
▁BGA
▁Is
▁목욕
▁4000
생활
inal
▁삽질
▁곤충
▁자사
▁신하
▁함수
▁물리치
▁드루이드
▁연이
▁오공
▁스모
▁신한
▁진동
▁렀
▁눈동자
▁크로우
▁집사
▁굶
▁네크로
▁김일
▁공신
도전
▁급하
▁물려받
▁웨폰
▁이쿠
▁아이디
▁맷집
▁남학생
▁무지개
▁Do
▁소집
▁평론가
아시아
▁스파크
▁좌익
▁Gaming
▁가이아
▁놓여
▁고가
▁보르
▁유머
▁단련
▁부가
▁말려
쿠스
▁CR
▁유아
▁아쉬움
▁선회
▁정우
랍니다
▁사천
▁GSL
▁SA
▁다간
▁중소
▁320
▁아유
▁아마존
▁달콤
▁리볼
▁검토
▁투고
▁명시
▁숙련도
DX
▁장본
▁캡슐
▁포크
▁컬렉션
▁315
▁이용자
▁징계
▁케리
▁하도
▁냉장
▁장신구
▁ME
▁성분
▁테란
▁식스
▁당초
ings
▁무한도전
▁Gl
▁일어난다
중간
▁으신
▁마마
14
▁자력
▁타리
▁초과
TA
▁아르바이트
트론
▁1973
▁중기
▁모의
▁산다
▁오를
▁일명
▁라이드
▁슬라이드
▁배웠
▁바랍니다
르타
▁대면
▁Gu
▁중부
▁와타나베
대사
▁컨디션
▁키노
▁하이드
▁위쪽
▁오로치
▁협조
▁시련
▁유동
▁중국인
▁민중
▁미노
히토
▁마찰
▁군데
reak
▁궁수
▁리리
▁저항력
수리
ron
▁슬퍼
▁헤라
▁주술사
▁잔류
▁이호
▁무늬
▁이명박
▁장본인
▁코끼리
티니
▁공교
▁속해
▁소꿉
저래
▁금강
▁무자
▁와이번스
▁표식
▁캘리
▁강아지
타운
▁접하
▁이니
▁급식
▁대해선
▁외야수
▁상시
▁인도네시아
▁고발
▁끌려가
▁앤드
▁벨기에
▁알아내
▁나폴레
▁서바이벌
▁모인
▁비키
▁급격히
▁보로
▁네이션
▁학위
▁가령
슬러
▁그루
▁주저
▁재수
▁고우
▁이용객
▁배리
▁뺨
▁부산광역시
▁주술
▁168
▁밭
17
▁NM
▁국도
▁유카리
▁혼혈
▁도마
▁멈춰
▁공헌
▁판사
▁아무렇
▁모나
▁라이징
▁성대
▁도미
▁평택
▁크라운
▁방침
▁203
PA
▁so
사와
▁수신
▁막혀
▁나폴레옹
▁개명
▁낯
▁적힌
▁초청
▁이즈미
▁몸매
▁휴대폰
▁218
▁조립
▁내외
▁체코
▁흉악
▁승급
▁돌아올
▁이래저래
▁보직
▁김병
▁내각
▁강동
▁쥬얼
▁악행
▁like
▁Min
▁벗겨
▁지면
▁시네마
▁균열
▁국토
▁꿈꾸
▁오페라
▁수립
▁충청남도
▁윤리
▁뚜렷
▁천지
▁자산
▁단총
우라
▁아테나
전사
▁단역
▁레이븐
▁런처
▁모시
GA
▁독보
▁ㄷ
▁어원
▁황혼
르드
▁두꺼
▁배율
▁소우
▁베를린
▁저격수
▁will
▁볶
▁사슬
▁위시
▁휴게
▁테크닉
닐라
▁비자
MAX
▁오사
▁저승
▁10000
▁서방
▁의정부
▁탄압
▁대학생
러진
▁리믹스
주의자
▁차장
ECT
▁보가
▁로크
▁노린
▁번지
▁부동산
▁마친
▁트론
▁내린다
그라
▁하츠네
▁지지율
▁수중
▁절단
▁교역
▁니트
▁난리
▁웃기
▁국방부
▁iOS
▁충격파
성이
▁필사
▁경사
▁수라
▁시켜야
▁RO
▁탄막
ICE
▁리츠
▁스코틀랜드
▁단서
▁튀어나오
▁리프트
▁예쁜
운수
▁이오리
▁마주치
▁변함
▁실린
▁시간표
▁성지
▁인명
▁마지
▁면제
▁엠블
▁오역
▁피우
▁비단
▁ALL
▁히사
▁덧붙여
▁지터
▁one
AND
보우
▁자루
▁플레임
▁거스
▁견해
▁대법
▁원로
▁타우
▁칼라
▁김성근
▁정전
▁이리저리
▁미남
▁말레이
▁설마
▁버블
▁na
▁작위
▁Red
▁흉내
oul
▁Type
▁걸음
▁중화민국
▁멋지
▁해역
▁펑크
▁1974
나와
▁더미
▁평판
▁KB
저우
▁으려면
▁Play
▁대국
▁Ser
▁사이토
▁아수라
▁성사
▁주황
▁NT
▁사물
뜨린
▁타키
te
친구
▁둥지
▁UC
▁오른다
보기
▁토비
▁극심
▁득표율
▁가해자
▁보편
▁입원
▁캇
▁왕족
▁출석
▁공격기
▁요우
▁샘플
▁재배
▁격렬
▁스나
ater
▁완벽히
▁발톱
▁반장
ody
▁전법
STER
16
과이
▁희생자
▁우두머리
▁액체
▁플레이버
▁177
▁간파
▁계절
▁이듬
▁끝났
▁연막
▁깃털
▁고난
▁Car
▁김윤
▁커플링
▁사우스
▁아울
▁마르코
▁계략
▁다케
▁리볼버
▁해변
▁강습
▁전라남도
▁순간이동
▁만지
▁선로
▁주입
▁가져왔
▁헤드샷
▁차가
▁Don
▁랜서
▁한양
▁진형
▁무비
▁벚
▁감성
▁딥
▁탈환
▁맑
▁짝사랑
▁의의
▁손잡이
▁홈경기
▁방울
텍스
▁덤벼
▁나뉜다
▁스콜
▁태생
ions
▁충고
▁과언
▁섞인
▁입자
▁제의
ould
▁사야카
▁보루
▁반도
▁슬라임
▁안젤
▁138
▁맡겨
▁접수
▁Es
▁1975
▁공명
▁유지비
▁이영호
▁노라
▁차일드
▁맹독
▁주교
▁병과
▁중재
▁금고
▁크롬
▁아이즈
천군
▁서명
▁코디
드로
▁너클
▁워드
▁상어
▁드러난
레븐
▁메테
▁중도
▁산탄총
▁석유
▁필립
▁상의
▁측근
▁리처드
▁아리스
▁부제
▁레슨
alk
▁동성애
▁완성도
▁자켓
▁us
▁러너
▁타스
▁어드밴
▁냅
▁졸업식
▁팍
▁떠돌
▁두려움
▁들으면
ven
▁팔리
라이언스
▁프로스트
▁찬양
▁바이크
▁낮추
▁카렌
▁원화
▁'''
▁마스코트
▁겁니다
▁데미
▁테니스
▁Time
▁월간
▁삿
▁나눈
▁레인보우
▁냉장고
▁얼라이언스
▁베어
소총
▁일각
야스
▁162
▁이사장
▁다치
▁떨어뜨리
▁백만
▁콘스탄
▁이념
▁EU
af
▁고래
▁놀리
▁분할
느리
▁본질
▁찰스
▁견디
▁교대
스티스
▁박명
맥스
▁126
▁우지
▁이듬해
▁테일즈
▁뛰어들
시다
▁수감
▁빙의
▁내려갔
▁가히
▁라든가
▁스바
▁Sum
▁조수
▁WH
공사
▁엉뚱
▁쟁이
▁키즈
▁댈
▁스칼
▁평등
▁스매시
▁카오루
▁김선
▁여긴
▁올라간
▁인듯
뜨렸
▁자키
ics
▁신생
▁연소
▁적이
▁노부나가
▁클리셰
▁김두
▁기뻐하
▁차림
▁둬
▁히카루
▁대니
▁Bo
▁영화제
▁???
▁기관포
YP
▁심정
▁로그인
▁폭로
▁부시
▁핑계
▁돌아온다
▁초등학생
▁지역구
▁과격
▁보고서
▁말기
▁응급
▁주차장
▁고립
▁꼴찌
▁슬러그
▁고종
▁동상
▁왕가
▁에드워드
빨리
랄드
▁텔레포트
▁로비
▁나락
시스코
▁민병
▁실려
▁회계
▁득표수
▁코지
ACK
▁로제
▁손목
▁사회주의
▁젝
▁직위
▁BT
▁맞먹
▁펙
재기
▁공짜
▁병행
▁조르
▁끊기
▁팩션
▁무식
▁후반전
올라
▁결과물
▁CB
▁유라
▁IIDX
▁애드
▁have
▁팜
▁카인
▁BA
▁신상
▁카토
미터
▁위함
▁누스
▁주유
보라
▁~"
▁콰
▁솔직히
▁연세대
▁피드
▁oh
▁포도
▁투사
▁김구
▁재질
▁브레스
▁후면
▁조항
▁정의당
▁다지만
▁꾀
▁난투
▁멘붕
▁거꾸
페이스
▁종로
▁아름다
▁야망
▁팬티
▁313
▁고마워
tern
은이
▁제너
▁즐겁
▁보복
▁EV
▁숙청
▁제자리
전설
▁도사
▁분배
셉트
▁극악
▁모른다는
▁LTE
▁레귤
고사
처럼
▁볼드
▁Kore
▁소꿉친구
시티
ins
▁먹여
▁이세
ict
▁슬슬
▁한정판
▁신조
▁1976
▁슬픈
▁난민
▁페이크
▁상부
▁날아다니
▁리셋
▁두루
ange
ator
▁know
▁자포
▁몰아넣
▁알려준다
▁132
▁out
▁결의
▁걸릴
▁유비트
▁제주도
▁모았
▁테르
▁뽑아내
▁표기법
▁약칭
▁미트
▁발전소
▁방벽
▁내뱉
▁넘겼
▁럭키
▁Sun
▁줄여서
▁DI
▁빈약
▁가져갔
▁그려진
▁테이프
▁트랜스포
▁병종
▁페미니즘
▁채찍
▁조던
▁갸
퍼니
▁해고
▁개판
▁내면
▁세츠
레이크
▁set
▁바나나
▁연간
▁수확
▁카테고리
▁pr
▁훔치
▁어제
▁캔디
▁실리
▁선지
▁여겼
무이
▁근로
▁츤데레
▁드러냈
▁선봉
▁하지메
▁수영복
▁서리
▁지미
▁재벌
▁해전
▁1972
▁여주인공
▁일산
▁바이킹
▁당해서
▁종전
▁탁월
▁강탈
▁메디
▁산소
▁찰나
▁그랑프리
▁키로
▁오딘
▁접전
▁feat
▁TP
상가
▁넘어갈
▁자카
▁지배자
▁메세지
▁퉁
▁MO
▁일조
▁정준
▁158
▁로렌
▁환호
▁구독자
▁쿠바
▁IV
▁교훈
▁콧
▁IP
▁프롤로그
▁사각
▁르노
▁서치
▁초점
19
▁가설
고속도로
▁미도리
▁230
돌프
▁폐선
▁자작
▁카이사
▁GD
▁스케줄
▁벗어난
▁제인
▁구호
▁레귤러
▁다저스
▁최하
▁다투
▁띄워
▁제조사
▁1977
▁HS
▁대등
▁무궁
▁응답
▁인트
▁거꾸로
▁힌트
▁빼앗기
▁니코니코
▁내정
▁마가
▁프로그래
▁임진
▁중급
▁야마모토
▁관료
사스
활약
▁진로
▁수여
▁앨런
그마
▁신념
▁이점
▁필두
▁High
▁프랭크
▁껍질
▁랏
▁릴리스
▁깡패
▁Light
▁무신
▁유능
▁쥰
▁키드
▁편한
▁리뉴
▁유마
▁소비자
▁뚝
▁TE
▁충남
ME
▁대명
▁실바
▁줄기
▁파인
▁172
▁치바
▁스바루
▁ㅇ
천사
▁개막전
▁때려잡
▁태미
▁컴퍼니
▁순천
민주당
▁트러
che
▁푸르
▁진짜로
▁테레
▁헐크
▁정조
▁덴마크
▁혹평
▁지킬
▁무서워
▁주식회사
▁감금
▁떨어져서
키스
▁피난
▁133
▁켄지
▁죽인다
▁양심
▁인텔
▁재림
▁지나친
▁LOVE
▁박쥐
▁섭취
▁공국
▁해져서
▁얼터
▁꿇
지사
▁파괴력
▁도스
▁아폴
▁이만
▁냉기
▁무색
▁시달
▁애쉬
▁캐슬
제스
▁플리
▁해선
▁랜스
▁팀장
▁보트
▁강서
▁차분
▁박종
▁기술력
▁바인
▁존슨
▁득실
덕션
▁배후
▁Your
▁객관
▁내버려
▁망상
▁NEW
▁Tw
▁순찰
▁호응
▁구청
▁여장
▁이순신
▁수성
▁윈터
▁148
▁지성
▁저스티스
▁과감
▁급속
▁연달
▁최정
▁황태
▁고질
▁지붕
▁펭귄
▁179
▁%.
▁la
▁제작비
▁라시
▁노르웨이
▁Mr
▁해준다
▁미끼
▁틀어
▁메구미
▁OF
▁매지
▁스톡
▁앵커
▁소노
ica
▁판다
▁망명
▁능숙
▁신학
▁히나타
▁어벤져스
▁찌질
▁사내
▁틀리
▁조력
▁건다
메라
산역
▁샤오
▁레슬러
▁출제
▁트랜스포머
▁오른팔
▁모스크바
세서리
▁리터
▁복도
▁스팅
▁장갑차
▁Gen
▁격퇴
▁베일
▁립스
IK
▁세례
▁파랑
▁두근
▁Mi
▁라이센스
다드
▁GTA
▁후쿠오카
▁로맨스
▁미숙
▁심히
▁교시
▁게르
▁포니
▁성벽
▁건드
▁향한다
교통
▁철갑탄
사고
▁사나이
▁케리건
▁제지
▁풍경
▁섹시
리칸
▁두뇌
▁통보
날두
▁알렸
▁드로
▁미모
▁제대
▁더러운
▁반론
▁염두
▁유타
▁Em
▁156
▁호날두
▁표창
▁탐구
FL
ex
▁Par
▁헤일
▁사지
▁눕
▁슈가
▁시조
▁종말
▁파우
▁사소
▁154
▁노골
▁레슬링
▁명대사
▁노래방
▁꼼수
▁뒤쪽
▁교육청
▁사일
스레
▁치마
▁비참
▁진흥
▁묻혀
▁음향
▁안동
▁여수
▁초코
▁밧
▁맹활약
▁바닷
▁호무
▁HARD
▁던졌
▁재즈
▁앞세
▁일컫
▁중후
▁176
▁미호
▁호구
▁공립
▁사가
▁MK
▁미세
HT
▁냉동
▁장시
▁222
▁날린
▁춤추
▁159
▁생태
▁발탁
▁OCG
▁말라
▁맞출
▁ar
▁기행
▁전반기
▁분쇄
▁블랙홀
▁발발
▁착지
▁아비
▁죄수
▁am
▁맞물
▁지요
▁성폭
▁진술
▁u
▁응시
▁으리
▁FPS
퀘어
▁1971
▁전학
클린
▁사천왕
▁핀란드
▁배신자
▁이른다
▁AE
▁대목
▁오리온
▁173
▁129
▁알아차
박이
▁남양
▁혼인
▁폐허
▁통틀어
티지
▁엄폐
▁와라
어붙
▁현직
▁계곡
▁찾아와
▁에그
▁가라앉
▁리우스
▁오쿠
▁코프
▁전임
▁레오나
▁사르
▁수하
바스
▁명탐정
CH
▁른
▁천문
▁잡혔
아닌
▁책상
▁캘리포
▁PL
▁버림
킨다
▁가마
▁153
▁텍사스
▁전도
▁남한
▁나란히
▁화석
▁안드레
▁프로덕션
멘터리
▁시뮬레이션
▁고음
▁세키
▁나카무라
▁걸려서
▁Kn
▁선포
UT
▁샹
▁에메랄드
▁질풍
▁테오
▁꽁
▁의아
▁드리블
▁파이프
▁토막
▁테러리
▁죠죠
pr
▁ll
▁캘리포니아
▁낀
▁Of
▁라곤
▁믿음
▁러닝
▁스탈린
▁137
▁세일러
슬링
하여
▁로스터
▁보였으나
▁우산
▁오락실
eep
▁무단
▁에필
▁부끄러
▁에필로그
▁모기
▁인플
리언
▁지각
▁신주
▁래스터
▁문화재
▁빠진다
▁절정
▁GHz
▁호스
타니
▁뭔지
▁그렸
▁원했
▁토가
▁이광
▁발렌타인
▁잔해
▁다름아닌
▁대안
▁목포
▁책략
▁어긋
▁혼다
▁Ro
▁말소
▁로테이션
les
▁교정
▁이행
▁비기
▁빅토리아
▁노하
▁뺀
▁불문
▁청룡
▁유니콘
▁영등
▁요코하마
▁쓰러져
▁총선거
▁대교
▁로열
▁슬램
▁아랑
▁골치
▁280
▁예방
▁스텔라
▁BM
▁벨라
▁서울시
▁십자군
▁멋있
▁다큐멘터리
▁얼어붙
▁원한다
▁엣지
▁총사
▁레바
▁먼지
▁숭배
▁두목
▁네놈
▁225
▁야당
▁1969
▁거뒀
▁was
▁Per
▁카즈야
▁중공
▁174
더기
▁델타
▁주파
▁오바
▁미식
▁GPU
▁라던가
아슬
▁월요일
▁아슬아슬
▁기쁨
▁악곡
▁네스
▁신세계
▁심연
▁처녀
▁하의
▁139
▁골목
▁분포
▁깽
▁163
▁Heart
플러스
▁가로막
▁단의
▁버터
▁나사
▁134
▁143
볼루션
▁땀
▁167
▁로지
▁따라잡
▁Fe
컨드
▁블라디
▁TO
▁해상도
▁열기
▁오타쿠
반신
▁면접
▁세컨드
▁스파이크
▁~~
총장
▁스페인어
▁였음
▁보디
▁이준
▁원망
▁부친
▁필라
▁루루
▁투성이
▁쓸데없이
▁상장
▁함성
▁전광
▁김도
▁최대치
▁퍼시
▁CO
▁Good
▁청사
다닌
▁왕관
▁화약
▁2500
▁142
해야
▁인구수
▁내밀
▁부처
▁유나
▁태권
}}
▁스윕
▁관광객
▁끝장
▁CN
▁여도
▁용의자
▁배리어
▁스토커
▁선수단
▁beat
▁인사이드
▁연기력
▁미유키
▁국기
▁드레드
▁항공사
▁히카리
agon
▁줄어든다
▁ㅡ
▁퓨처
부인
▁스트로
▁추모
▁트레이닝
EL
▁164
ert
▁때로
▁무안
▁왕후
▁전수
▁하후
▁반란군
공화
▁패닉
▁그제
▁비로
에몽
▁yout
▁What
▁하우
어버리
▁해태
▁제단
▁야마다
▁기소
▁실로
▁우투
▁ONE
▁할수록
▁누이
▁넘어간다
▁기이
▁불쾌
▁음색
▁심야
▁뉴질
▁뉴질랜드
▁걸어가
▁김천
▁청장
▁바란다
▁담겨
▁마의
▁선인
▁극우
▁구제
지오
▁직통
▁직격
▁킹덤
▁홍성
▁리부트
▁관계없이
▁벚꽃
▁악령
▁회로
▁야전
▁콘셉트
▁뱉
▁로브
▁136
▁패스트
▁동아시아
▁공고
▁페르시아
▁Dark
▁꾸미
▁개그맨
▁주워
▁pro
▁이인
▁템포
▁바닐라
프란
▁KC
▁김연
무실
▁쓰러트리
▁징크스
▁방안
▁지극
백과
▁서장
▁오프라인
▁라임
▁일환
▁랙
▁안철수
디스
▁적립
▁조준경
▁내세우
▁경찰청
와라
▁완구
리드
▁텀
▁궁전
▁사범
립트
좀무
▁제이슨
▁흠좀무
▁유고
▁아이스크림
▁자부
▁0900
▁한층
▁훈훈
▁유선
슬리
▁동사
▁알렉산더
▁경지
▁다룰
▁숙주
▁중심지
▁유해
레이트
▁번갈
▁타고
▁더구나
▁참으로
▁모던
무게
▁몸무게
▁어린아이
▁화소
▁time
▁마요
▁157
▁330
▁메이트
▁중년
ideo
▁라바
▁세미
▁핸드폰
▁연의
▁체격
▁모양새
▁출고
▁뮤지션
▁혼동
티넘
▁플래티넘
▁근력
▁열세
▁좋아한다
▁술집
▁Sm
▁카니
▁들어온다
▁갈리아
▁양대
▁미라이
▁내뿜
▁박살나
▁Sl
▁순정
르도
▁문신
▁1963
풀이
▁방호
▁불릴
▁연금술사
▁안토니
▁휴스턴
▁앞뒤
▁브루스
▁퍼부
▁주한
▁레프
▁정서
▁호박
▁제우스
▁샤를
▁브이
▁패드
애나
▁외면
▁하카
▁사투리
▁전반전
other
▁우천
▁대중교통
ors
▁창립
▁성숙
▁설탕
▁270
▁좌파
▁침해
▁코즈
air
▁Blue
land
▁에일리
▁저조
▁출연진
▁느껴진다
▁눈빛
▁합치
▁찾아왔
▁본의
▁집필
▁워너
▁투신
▁플라스틱
▁AG
▁Baby
▁박상
▁외관
▁시흥
▁타당
▁제프
▁스케이
▁장례식
▁농민
▁계시
▁꿰뚫
▁클라우드
▁ab
▁나뭇
iew
▁Ac
▁유코
▁뒤지
▁1968
▁환사
▁신수
▁대진
▁이선
anna
▁죄송
▁제사
▁전라북도
▁생겨서
▁깨알
▁전열
▁타다
▁테러리스트
▁도시락
▁하이브리
▁우상
▁선교
▁미니언
▁이아
▁체스
▁벌금
▁하이브리드
▁미티
▁해독
▁샤워
▁장풍
▁히로시마
▁깔려
▁동호
▁테루
▁수시로
▁청나라
▁방언
▁브레인
▁세스
▁달랐
▁기피
▁무수
▁브론즈
▁오비
▁미칠
▁자칫
▁부사관
▁김대중
ush
▁집합
▁풀린
▁심상
▁취지
▁들린다
▁적성
▁모어
▁맞대
▁멜론
▁센트럴
▁희대
▁허브
▁Li
▁후루
▁그려져
▁마쳤
▁각국
▁경제학
▁149
▁사탄
▁트러블
▁공영
▁담임
▁방공
▁하비
▁총독
▁공모
▁마켓
▁가혹
카미
▁넉넉
▁푹
▁모함
▁손꼽히
▁후쿠시마
▁상쇄
토리얼
▁강세
▁남미
▁확고
▁벌어진다
▁Fire
▁조교
▁지문
▁황실
▁브레이브
▁풍기
▁기함
▁146
▁마초
▁튜토리얼
▁암컷
▁격전
▁오리진
▁거품
▁연회
▁크롤
▁종착
▁260
▁환수
▁OK
▁주의자
▁심했
▁하여금
▁프로토타입
▁리액
▁열린다
▁뜰
▁심화
▁El
▁라프
OID
▁일삼
▁낡
▁놀란
▁페이커
▁치고
▁경과
na
▁빈틈
▁마테
▁아르카
▁유니온
▁소사
▁찰리
▁럴
▁거칠
▁월등
▁Dis
▁따른다
▁프렌즈
▁일레븐
▁루키
▁섹스
▁웨인
▁인체
▁초상화
▁BEMAN
▁걸어서
▁병장
▁장동
▁수다
▁따져
전트
▁일품
▁미스터리
▁상공
글라스
단지
▁타카시
▁초교
▁실력자
▁브랜
▁방화
▁원자력
▁공손
▁성비
▁프로모
▁랩터
▁개미
▁슈터
▁DJMAX
▁뒀
▁다기
▁파격
▁정해져
▁책임지
▁오의
▁줄게
▁sm
두사
▁포워드
▁BEMANI
▁고추
▁맥락
▁고성
▁별칭
▁레이너
▁배우자
▁므
▁운반
▁적재
▁합법
▁석상
▁속력
▁중학생
베트
▁신병
▁클러
▁핸들
▁격기
▁모른다고
▁도검
▁수량
▁주가
▁야만
▁Champ
티노
▁말년
▁문법
▁미즈키
▁자질
ady
▁다이노스
▁무선
▁속공
▁부턴
▁생선
▁연말
▁STR
▁편견
▁오세
▁진구
▁프랜차
▁파손
▁빈번
레드
▁하반기
▁fl
▁성기
▁쏟아지
▁데스티니
▁우편
▁저희
▁하라
레슬링
토랑
▁명명
▁박명수
▁레스토랑
나리
▁말아먹
▁북구
▁cc
▁스트리밍
▁유유
▁본가
▁발차기
▁쐐
▁뒷면
▁유승
더링
▁Pre
▁박혀
▁피카츄
▁리바운드
앙스
▁불화
▁통행
ution
▁프로레슬링
▁더라면
▁kr
▁프랜차이즈
▁Ev
▁미로
▁주고
더슨
사벽
▁소령
▁넘사벽
구역
▁평창
▁호출
▁205
▁솜씨
▁수컷
▁DB
▁수령
▁뚜껑
▁퇴역
▁보구
▁취한
▁쑤
▁돋보이
▁선곡
▁가브리
▁앤디
▁맴
저드
▁움직여
▁프리즘
▁단식
엘라
▁추출
▁탯이
▁뽐
스틴
▁대승
▁1967
▁지기
▁뉘앙스
ium
▁니나
▁550
▁격리
▁경질
▁자각
▁정형
▁독립운동
▁라나
▁박용
메어
▁당국
▁정체불명
▁클립
▁재빨리
치아
▁전염
▁RP
▁신임
▁구한
▁하와
▁정재
▁Summer
석민
▁원흉
▁배워
▁아메리칸
래스
▁타나카
▁애국
▁앞면
▁이방
▁디비전
듈럼
▁증인
▁강점기
▁Grand
▁일례
▁질환
▁관해
▁광전사
▁부관
▁우가
▁교통사고
▁무죄
▁석사
▁간호사
▁나레이션
▁블래
▁GG
미르
▁운석
▁버려진
▁개개
▁네코
▁우파
▁원작자
▁나이트메어
▁Rock
▁노블
▁나열
▁츠바사
▁게임즈
▁가의
▁오시
▁콕
▁미들
▁퓨리
▁따돌
▁넥서스
▁하드웨어
▁몹시
▁범행
▁여관
▁플레어
▁한다거나
▁수수료
▁147
▁펜듈럼
▁미팅
▁동년
▁총평
▁내셔널
▁211
▁놔두
▁무고
▁무명
▁우체
▁입국
▁토마토
퍼드
▁특이점
모어
▁치루
▁페인
평가
현우
▁유신
▁브라우
▁SCP
▁박찬
▁탄탄
▁달라졌
통수
▁Over
▁줄어드
▁원종
▁헤어지
▁동등
▁복면
▁멀리서
gain
▁유무
▁배속
▁은메달
▁버릇
▁만루
▁따윈
▁back
▁전례
▁하시
▁옌
노스케
▁날라
▁호그
▁체형
▁공습
▁대외
두리
▁퓨어
▁아이폰
▁감전
▁호노
▁말레이시아
▁통수
▁군림
▁포식
르바
▁메모
▁다툼
▁뜯어
▁LED
▁day
▁인어
▁그리드
▁텅
▁떄
▁불려
▁살라
▁Dance
▁사슴
고래
▁실루
▁게시물
▁재활
▁강팀
▁추궁
▁힐링
ction
▁무슬
▁에바
▁속박
▁방과
▁사교
▁십자가
▁DR
▁별자리
▁심문
▁파문
▁광속
▁대패
▁살인마
▁아래쪽
▁영등포
▁데려오
지도
▁권능
▁리키
▁온몸
▁함재기
▁전두
끄러운
▁알렉산드
내리
▁VOC
▁관절
▁동북
▁This
▁홀딩
▁한강
▁했어도
▁대군
▁폴리스
보내
▁염색
▁제보
▁픽셀
▁내구력
▁배송
▁now
▁누워
▁노비
ne
▁이창
▁관해서
▁점사
▁호투
▁SL
▁루팡
▁미스트
▁거니
트랙
▁격침
결승
▁노트북
파리
irst
▁Wii
▁경순
▁교내
▁But
▁진도
▁속편
▁직속
▁레이첼
▁박탈
▁발라드
▁닥치
▁오디오
▁라파
▁무제한
▁Gold
▁길거리
▁미수
츠카
▁자란
▁미쳤
▁통증
▁감기
▁박재
▁볼까
▁3164
▁진정한
▁목재
▁그릴
▁여배우
▁우물
▁박영
▁카우
▁캐스트
▁발현
기사
▁기괴
▁MSL
▁어느새
▁하행
▁보행
▁채취
▁무슬림
▁스퀘어
▁커졌
▁Ste
▁해적단
▁상행
▁HG
▁시초
▁자격증
ount
▁요리사
▁공천
▁에도
▁둔다
▁인데다
▁가창
▁리엘
▁증가량
▁륙
▁성직자
▁라구
▁격투기
▁교양
▁왕좌
▁불평
▁무사시
콥터
▁클레이
▁동메달
▁DX
▁지어
▁국민당
▁HK
▁꼽힌다
▁구타
▁타치바나
▁쓰일
▁스네이크
▁남발
▁단말
▁빌보드
▁안드로
▁지지자
▁자니
▁첫날
let
▁FL
▁동로
자동
▁셋째
▁Just
▁성수
▁머릿
▁줄줄
▁지낸
▁대공포
현진
▁노릴
▁창세
느님
▁닉스
ring
▁방송인
▁별점
▁속이
▁기획사
▁줄리
▁누명
▁달라붙
▁일일이
▁농락
▁가성
▁여친
▁쇼트
▁뒤통수
▁지온
플렉스
▁1966
▁미사키
▁동문
▁삼촌
▁204
줌마
▁번식
▁손톱
▁멸종
▁물가
▁증발
레일
▁리턴
DS
무네
▁샌프란
▁샌프란시스코
▁올바른
eng
▁동조
▁하느님
▁회복력
▁오키나와
▁명나라
▁DNA
▁크리스토
▁스킵
▁정한
▁혼합
▁아줌마
▁TW
▁독수리
저것
▁이것저것
▁수강
▁pt
▁책정
▁166
▁대쉬
▁회견
▁공존
▁뷔
▁제스
▁비즈
▁셰프
▁카구라
▁들러
▁사망자
▁프로모션
▁쌓여
▁기합
▁괴력
▁사모
▁경감
▁셸
▁커트
▁스크립트
봐도
▁넘어지
▁친목
▁포효
▁다이스케
▁news
▁후대
▁명곡
▁들어와서
▁공자
▁직무
▁사료
▁사우루스
▁복용
▁주심
산동
▁코바야시
▁Korea
▁흘러가
▁CA
▁정크
▁회귀
▁한숨
▁VOCAL
소수
▁Can
▁악어
▁단과
▁차가운
자재
▁시가
▁기술자
▁휩싸
▁슬로우
▁트렌
▁롤링
▁정정
메스
파크
▁현상금
▁급히
▁인쇄
▁호프
▁카이토
▁계란
▁이례
ina
▁다스리
▁연고지
▁인천광역시
▁FB
▁회오리
▁동족
▁뽑아
스트림
▁도라에몽
▁아깝
▁키트
▁필터
▁카르마
▁박치기
▁실습
프라
▁아카리
▁헬리콥터
ERO
나갔
▁Sec
▁레이트
▁합친
▁고조
▁박해
▁다짐
보그
▁벌리
▁캐리어
▁스냅
▁비로소
▁두르
▁만행
▁비타
▁650
▁KTX
▁MHz
▁분장
▁신정
▁김원
▁부류
UR
▁장원
상가상
▁설상가상
▁문어
커녕
▁회심
▁로컬
▁그립
▁니카
▁피스트
▁......
▁타시
▁이뤄지
▁진수
▁포대
▁벌인다
조합
▁되돌리
▁광대
▁홍진호
▁프린스
▁우메
▁미판
소문
▁로저
▁시부
▁토이
▁바꿔서
▁Music
▁하리
▁루마니아
▁경보
▁브릿
▁디렉터
▁얕
티콘
▁난감
▁듀크
OO
▁EBS
▁박경
▁반군
▁At
▁셉
네이터
▁이속
▁유영
▁미하
바르
▁김형
▁천마
▁패했
▁가까웠
▁분홍색
▁비꼬
▁유난
▁Su
▁태극
▁리플렉
▁가급
▁옮겼
ally
▁살상
▁파수
▁퐁
▁실루엣
▁총열
▁달라진
▁선우
▁보살
▁감행
▁병살타
▁괴상
▁Ep
▁바티
▁프랑크
니카
▁망한
▁부드러운
▁한발
바다
▁망령
▁개연
▁로코
▁열람
▁똑똑
▁스완
▁즐거운
▁Live
▁짚
▁유정
▁레즈
▁뽕
▁텍스
▁습관
▁미성년
▁퍼센트
ART
▁GN
▁무진
마당
▁아타
▁입양
▁Comm
▁내릴
▁조직원
▁1962
▁어퍼
▁케이지
▁항아리
▁대마
▁기다렸
▁딸기
▁홈즈
널드
▁장학
▁달빛
▁관직
▁카가미
▁암울
▁BF
▁츠나
▁주어진
▁학점
젤레스
▁그리하여
▁악의
▁고토
▁왠만
▁콜롬
▁요시다
▁가미
▁야외
▁춘천
장난
▁엘리스
▁경유지
▁무겁
▁재직
▁고릴라
▁MX
▁진리
▁서태
▁합쳐서
▁가나
▁돌격소총
▁`
▁발광
▁금색
▁해내
▁모라
▁레기
▁단정
▁리티
▁위키백과
▁목동
▁키무라
▁기법
▁영진
▁판권
son
▁대인배
▁주거
▁터트
▁양보
▁모른
▁UF
▁사이보그
▁진성
▁파벌
▁클라이
▁대본
▁잘려
▁강수
▁김명
▁뇌물
▁코다
▁get
▁후문
▁요시노
▁천공
▁바주
use
▁고든
▁똘
▁카에
▁연발
▁1800
▁갈래
▁저서
▁뛴
▁코요
봐야
▁달아
▁도청
▁용감
문트
▁섀도
▁북아
▁천둥
▁소절
▁안보
▁스퍼
▁경쟁자
▁구급
▁세탁
▁주된
관총
▁169
▁깁
▁오케스트라
▁투니
▁서민
▁레이나
▁GR
들여
tr
▁예지
▁뢰
▁바니
▁산책
▁gr
itch
▁디펜스
▁Power
▁실업
▁단속
▁로워
▁비춰
일라
▁사스케
▁잠재력
▁Leg
▁Af
▁한탄
▁번트
▁Res
▁로저스
▁베이더
▁차용
▁주황색
▁돌이
▁법안
▁++
▁처한
▁볼텍스
▁수용소
attle
inn
▁Hard
체스
▁타니
▁RC
▁바그
어질
▁man
▁치사
▁급기
▁MR
▁결사
▁달래
▁추적자
▁처절
▁어미
▁그랜
▁비운
▁송출
▁저렇게
▁배상
▁행방불명
▁살아나
▁조력자
▁1940
▁장제스
▁Pv
▁남작
▁ARM
서야
▁페이트
▁털어놓
▁히토미
▁저상
▁UI
▁영남
▁자판
▁고산
▁전속
쌔신
▁접점
▁어쌔신
▁은혜
▁혹사
▁쿠루
75
▁청원
▁월급
▁직결
▁교관
▁전산
니클
▁수복
▁열악
▁호로
▁커비
못미
▁리조
▁지못미
▁제다이
▁Ma
▁쐐기
▁공약
▁출중
▁냉각
▁코이
징어
▁워낙에
▁경선
▁편안
▁런닝
놀이
▁카밀
▁켈리
▁강해서
▁진행자
장이
▁Life
▁미코토
▁ADV
▁마운드
▁블래스트
▁응원가
▁준결승
▁Sing
XT
▁매너
▁라오
▁여정
▁카즈마
▁제원
▁구두
▁Che
▁일수록
▁Master
▁보잉
TC
▁but
▁부려
▁공과
▁기복
▁천주교
▁독서
▁동요
▁묘한
▁줘도
ern
▁출근
규모
▁느니
▁카를로스
큘라
▁떠날
▁정확도
▁뛰쳐
▁불어
▁입힐
▁트리스
▁아이유
▁VOCALOID
ars
▁코파
▁나들
▁선방
▁설화
토르
▁걸친
▁모닝
▁크리스티
▁준공
▁나들목
▁놀랐
▁김두한
▁출루율
준표
▁슬리
▁튜닝
니스트
▁LCK
▁여권
▁키사
▁행하
▁감히
▁가두
▁Fem
asy
▁ㅋㅋ
▁근성
▁가호
▁Rem
▁붙였
▁예언자
▁광탈
▁무효화
▁주고받
▁실정
▁탈당
▁시가지
▁무빙
▁터질
▁훅
▁뷰티
총리
▁리전
▁데우스
rain
▁휴게소
▁호기심
▁co
▁전세
▁불신
▁외우
IE
▁충청북도
▁동탁
▁Lo
UE
▁채집
▁im
▁동체
▁원활
▁Out
▁형편없
▁1944
▁러시아어
▁농사
▁사출
▁한도
▁돌려주
▁카오리
▁네이트
▁토로
▁야심
▁증기
▁반대편
▁""
▁더비
▁비장
▁지주
▁당첨
▁전해진다
▁댄서
▁부흥
▁보여서
▁1930
▁픽업
to
▁제라
▁OPS
▁실명
▁이변
▁매출액
▁교향
▁더욱이
▁재사
▁사안
▁야시
▁전두환
ana
▁금호
▁소매
▁징징
▁부당
▁유한
24
▁열등
▁매칭
▁카디
▁포트리스
심장
▁궤적
▁사당
테이
▁선대
▁무림
▁상용
▁창병
▁체리
▁득점자
▁카노
▁간선
▁일절
▁차후
▁금화
▁구단주
▁태자
▁노기
▁포맷
▁151
▁OB
▁문고
▁자회사
cl
▁구마
▁자처
▁시에
린다고
▁이질
▁유방
차례
▁막아
▁탬
▁신대
년기
▁농협
▁매운
▁밀렸
▁학술
▁내수
▁민정
▁친정
ield
▁999
▁중전차
▁End
▁등교
▁괴리
▁서지
마침
▁고선
▁256
▁던진다
▁돌보
▁모범
▁성역
▁신칸
▁전과
▁숀
▁동지
▁이은
▁테일러
▁인벤토리
▁목적지
▁마차
▁밀려나
▁따내
▁치러
▁팔찌
▁이노우
atic
▁허공
▁유난히
▁군복
▁초선
▁때마침
코어
▁Fi
▁세레
▁사극
▁지극히
▁동갑
▁교감
▁퍼붓
▁부호
▁스타팅
▁POP
▁깽판
▁수식
▁잔디
▁신칸센
riend
클럽
▁지표
▁어리석
▁Hell
▁소시
대기
▁샨
▁코타로
▁PVP
▁시스터
▁아이언맨
▁못지않
▁세세
▁가르침
무소
▁서해
▁이용해
▁함포
▁김일성
▁퀄컴
▁법학
거진
▁라지만
▁Miss
▁배열
▁빅토르
▁1965
지부
▁어선
▁주어진다
▁세일
▁수험
▁클레어
▁쿠노
▁필연
▁확립
▁야마구치
▁충북
▁Air
▁불로
▁순교
▁안성
▁1964
▁숏
▁가뜩
▁아몬
▁후려
▁SG
▁반기
▁질러
▁쿠시
▁타나
▁터진다
▁애교
33
▁리마
▁향기
▁넘긴
▁이루어진다
▁부대원
▁night
▁포토
▁파파
▁뒤틀
▁음주
▁넘어간
▁웨어
▁구절
▁전했
ittle
▁쑥
▁본성
▁커먼
▁개개인
▁스캔들
▁발악
▁센티
▁조폭
▁부드럽
▁6000
LS
▁sc
▁집중력
▁교직
▁가뜩이나
▁애시
▁에일리언
▁카스미
▁럼블
▁이치고
▁설비
▁아카이
▁트로이
▁정동
▁간다는
▁q
▁서정
▁고요
▁오징어
▁영동
▁절규
▁380
▁Hy
지르
▁배기
▁부딪히
▁일본식
▁랜턴
▁Vo
▁아홉
▁역병
▁깰
▁스타크
▁가급적
뮤직
▁연구실
▁바비
▁콜드
▁just
▁반항
▁악랄
▁케로
▁중견수
▁드립니다
▁세나
▁고폭탄
▁바주카
▁VR
▁신흥
▁수녀
▁밋
▁국산
▁팔라딘
▁넥슨
▁자주포
▁손아
▁Mod
▁쳐다보
▁액셀
▁소동
▁볼륨
▁자크
28
▁레몬
▁설계도
▁출몰
▁폿
▁패미
▁아델
▁임원
레스트
▁넘어서
▁직역
▁김택
▁쏠쏠
▁샤크
▁챌린저
▁토오루
▁로딩
▁상체
▁스콧
▁일진
▁직구
▁포지
▁보리
▁라틴어
▁Di
▁게릴라
▁소감
▁차관
▁달렸
▁MT
▁성형
▁시코
▁페니
▁이야말로
▁노엘
▁EMP
▁토네
▁학번
▁접근성
▁강판
▁승려
▁강행
▁야드
▁연비
▁Sy
사관
▁1920
▁전폭
▁조영
▁차선
▁즉각
▁일렉트로
▁마도사
▁예장
▁서대
▁YOU
▁돌릴
▁수상자
▁도요
블릿
▁소규모
▁King
▁매스
▁공산주의
▁tvN
▁하타
▁XXX
▁파이브
▁칙
▁총탄
▁지났
▁what
▁첨단
▁후예
▁노조미
▁Ang
이센
▁최영
▁호쿠
▁노이즈
동원
▁상가
ony
▁기성
▁IG
▁남동
▁한심
▁자신감
란트
▁페가
▁리우
▁무전
▁악용
▁기보
▁용맹
▁건재
숨에
▁단숨에
▁전리
▁다비
▁시몬
▁패기
포드
▁진료
▁콘티
▁펠리
▁오로라
▁태조
▁UFC
▁크루즈
테이너
▁재사용
▁인터페이스
무기
▁광신
▁샤프
▁서킷
▁떠오
▁빈사
▁양측
▁안산
▁리에
▁밀집
▁자수
▁카무이
▁놨다
▁쌓인
▁드라군
mania
▁마에다
▁퇴출
▁동인지
▁먹방
▁적진
▁타케시
▁샴
▁생산력
▁쿠파
▁초사
▁밀란
▁바루
▁공성전
▁수고
▁에밀리
▁박격
▁휘말려
▁타국
▁였으니
▁카린
▁STER
▁사임
▁퇴사
▁카타르
▁오인
▁딱딱
▁와이어
▁리쿠
▁실황
▁도망쳐
▁승천
▁우아
▁자연수
▁드라큘라
▁안다
▁될까
▁말미
▁원고
ma
춘다
▁플루
▁옵티
▁타노스
미스
▁운운
▁소극
▁수비진
▁EA
▁스피커
▁저격총
▁0000
▁만료
▁뮬
▁허위
▁씁
▁안면
▁대상자
▁원내
▁솔라
▁재난
▁섬기
▁은밀
▁총격
▁카탈
▁사사키
▁카지노
▁소용돌이
▁Cy
▁로사
▁게리온
타르
▁간다고
▁대주
▁학회
▁웨이트
▁변질
▁지그
▁대대로
▁덫
단체
▁대출
▁프랭
▁IDOL
▁멀쩡히
▁유토
곡동
▁포럼
▁벅스
▁자랐
▁투하
▁진가
▁랴
▁1600
밀리아
▁메테오
▁지날
▁태세
▁선제골
▁풀렸
▁관동
▁131
▁목요일
터스
▁갈린다
인드
▁준하
▁스티커
▁낙인
▁스위트
be
ual
▁장편
▁치명상
▁떠서
▁Run
▁무궁화
▁아이리스
▁카이사르
▁보증
▁생산량
▁쏟아져
▁초래
▁초당
▁천계
▁마이트
▁white
▁편해
▁마사키
▁부평
▁좌표
▁밝힌다
▁케이트
▁캐서
▁야쿠자
▁괴담
▁새우
▁SV
▁염려
▁물리학
▁MASTER
▁광복
▁가브리엘
▁벌여
▁MLB
▁다단
하하
회장
▁수요일
▁페르난
▁사에
▁축적
미즈
▁경성
▁자유자재
▁청산
▁외래
▁UM
▁민원
페르
▁우루과이
▁내야수
▁램프
▁습한
▁틀림
▁아이작
▁방금
▁이승만
▁전편
▁머무르
▁우체국
▁대각
▁원호
▁벡터
▁전교
▁하야토
ecial
▁부도
▁그걸로
▁입학식
▁통신사
▁단골
셔츠
▁동창
징가
▁태블릿
▁SO
▁백합
▁마징가
▁흘러나
▁School
무장
▁다중
▁빅뱅
▁호전
권자
▁분기점
▁서초
▁뒤덮
▁미타
▁아야카
ane
▁결함
▁칠레
▁인맥
스트로
▁테이크
▁기한
▁대파
▁나온다는
▁흑화
▁달걀
▁가축
▁장타율
▁영미
▁경매
▁김전
▁Rec
▁강성
▁무너져
▁으리라
▁도도
▁주방
▁한지라
▁지상파
▁마커
▁소실
▁Sound
▁궁지
▁깨어난
▁탄도
▁Art
▁미시
▁다룬다
범죄
Fat
▁증권
▁마운트
▁홍준표
▁차려
▁취해
▁박준
▁재위
▁사쿠라이
▁묶여
▁막바지
▁피드백
▁쉘
▁웃긴
ope
▁제시카
▁여고생
▁허구
▁don
▁마이너스
ret
▁휘둘러
드립
마르
▁합당
▁대법원
▁Arm
▁김희
▁베가
▁인내
▁BAS
니즘
티어
▁끈질
▁아루
▁피에
▁어인
▁적료
▁바뀔
▁way
▁레지스
퇴근
▁계열사
▁Femme
▁리트
▁일련
베르트
▁소설가
▁마모루
▁루카스
▁히노
바퀴
▁강적
▁시집
▁괄
▁컨트롤러
▁캐롤
▁울려
▁고속도
▁로스앤
▁로스앤젤레스
그러
수수
어찌
▁완수
▁이마트
▁부츠
▁쫓기
▁고속버스
▁바이스
▁EM
▁매수
▁헌신
▁그닥
일으
▁불러일으
▁세르비아
▁Rev
▁Cat
▁소피아
▁박주
ision
▁라드
대교
▁굴려
▁깎이
▁경희
▁당나라
행위
▁기밀
▁플래닛
▁두려워하
재판
▁양국
▁생겨나
▁스코프
▁비시
▁고어
▁작인
▁리베
▁소행
▁오너
▁간략
▁계좌
▁두부
에이터
▁작별
elf
▁WE
▁브라더
▁Ge
▁동래
▁VIP
▁김전일
▁부식
▁어드밴스
▁프로리그
▁발칸
▁자진
▁태그팀
▁어찌어찌
▁레이터
▁총괄
▁모친
▁원천
▁슈퍼스타
▁DO
▁실무
▁묻히
▁페더
▁공방전
▁키가
▁무작정
▁불멸
▁일보
▁싣
야샤
▁이누야샤
▁아닙
즈카
Fatale
▁빨강
▁이가
▁신다
▁지령
▁FemmeFatale
쿠로
▁쿠르
▁피처
▁입술
▁극소수
we
▁식신
▁꽝
수스
▁경량
▁그놈
▁쪼개
▁발전기
▁사용법
▁파산
▁편대
▁덥
▁우크라
str
▁석궁
▁1961
▁할리우드
▁치아
▁저리
▁군기
▁족장
▁시궁
▁크로니클
▁나진
▁여당
▁술법
▁일으킬
▁악한
▁하세
ational
▁못한다는
▁기마
▁Yeah
▁제멋
▁대잠
▁예명
▁후한
▁다이나
SS
꿈치
▁마작
생긴
▁묻혔
▁성도
▁다던가
▁자취
▁진작
수아
카즈
▁끼어들
▁ㄱ
▁황태자
ouse
AG
▁공로
▁방황
▁쓸데없
▁허세
▁회화
▁넵
▁연금술
▁그려지
▁정계
▁수락
▁반말
▁이에
▁이스터
▁에이전트
▁소진
▁준다면
▁화수
같이
▁아의
▁후타
▁광석
▁양파
▁혼종
appy
▁미츠루
▁얼핏
▁초필
▁NHK
▁렸
▁정명
ORE
▁가명
▁섬유
▁호노카
▁배지
▁Order
▁신디
▁어떨
▁하임
▁효과음
▁아그
▁악세
▁유로파
▁반환
▁팝픈
▁팝픈뮤직
▁껄
▁소심
▁1100
▁창업
케인
▁박힌
▁수준급
▁병단
라이나
▁하워드
▁MD
▁헬스
휴일
▁스칼렛
▁양키스
▁스플래시
▁하부
투아
▁네모
▁토론토
▁키퍼
▁이치로
언정
▁쏜다
▁아즈사
▁바하
▁검은색
▁애당초
▁Elect
▁양현
▁잘리
▁키리토
▁급기야
▁나왔으며
▁교섭
▁주범
▁성채
▁br
▁엄지
▁점거
▁천적
ness
▁당원
▁코카
▁제정신
▁기미
▁주작
▁카도
▁택배
▁김혜
델피아
▁EXH
▁필라델피아
▁적발
▁정립
▁자잘
▁완전체
▁상회
▁삼거리
축구
▁한몫
▁TCG
▁펄스
▁카가
▁미지수
▁신주쿠
▁후일담
▁블레이즈
▁프로세서
▁아멜
시계
▁소피
▁보인다는
▁교주
▁폭동
▁갑작스럽
▁과부
▁시엘
▁CON
▁미라클
▁루이지
▁좌익수
▁옵티머스
▁어비스
▁이안
▁서드
▁매진
▁생겨났
▁깬
▁중얼
▁콜로니
▁당주
▁복싱
▁땜
투수
▁연예계
▁요미우리
▁조형
▁RG
▁말장난
inc
▁라자
▁전리품
▁선발투수
▁로만
▁조운
▁결장
▁제르
▁태종
▁프랑켄
▁깊숙
▁종일
▁광범
▁프론트
▁나고
▁스크래
저트
▁붙여서
▁수평
▁운항
▁지망
▁돌아간
▁쓸모없
▁다인
▁대사관
▁빼돌
▁적색
히트
사이드
▁스왑
▁후궁
▁냉전
▁본디
▁사이퍼
▁고령
▁양호
그룹
▁휴일
▁댔
▁빠질
우루스
▁경장
날드
▁214
▁리노
▁도리어
▁키워드
▁SHOW
▁부추
▁폴더
돼지
▁피곤
▁호세
▁이노우에
▁리브
▁봐선
▁도호
▁dis
IV
▁볼프
▁재고
▁탄종
▁밀어주
▁작살
제국
▁소이
▁일쑤
▁놀림
▁유포
데아
▁손흥
▁당기
▁정거
사의
▁기온
▁비토
▁임창
▁도전자
▁든가
▁고독
▁맞히
▁강해졌
▁공휴일
▁히데요시
day
▁교란
▁당분
▁정은
▁압살
▁성추
▁프런트
▁world
▁ㄴ
▁유서
▁She
▁강유
▁대표작
its
▁산악
▁다이브
▁beatmania
▁노숙
▁명작
▁신이치
▁Da
▁루터
▁속삭
omb
▁토하
▁후안
▁불사조
▁아지트
투표
ham
퍼런스
▁340
▁도쿠가와
▁시한
▁승기
▁더스트
▁예비군
▁초토
▁맞춤
▁정교회
▁건전
▁섭외
▁까닭
▁언행
▁조인
▁난전
▁콜라보레이션
▁킹스
▁손흥민
▁정류소
▁셀프
다닌다
▁탄소
▁141
▁따라오
▁에리카
▁애프
▁툼
▁직감
▁상속
▁윌슨
▁개인전
▁토탈
EX
▁레스터
▁행태
▁제이드
▁오버로드
▁쟁탈
▁갇힌
▁스폰지
▁여사
아티아
▁확연히
▁텔레비전
▁크로아티아
▁쩔
▁naver
▁사부
▁해수
▁날아간다
▁엑소
▁프로이센
무진
▁상대식
세데스
▁박격포
▁불가사의
▁메르세데스
댓말
▁한조
▁게임기
▁존댓말
▁폭발물
▁움직인다
▁오클
ious
▁프로그래밍
▁ap
▁셜록
▁찐
▁창당
▁느냐는
▁공익
▁구자
▁어처
▁캡콤
▁출퇴근
▁현명
▁트린
▁휘말리
▁액세서리
==
▁미성년자
▁다뤄
▁장병
▁도피
▁오모
▁합창
▁자연스레
▁폭사
▁글러브
▁하드코어
▁모여서
▁SW
▁동봉
▁스크래치
▁김창
▁정거장
▁상권
▁옥타
▁제식
▁광범위
▁무거
▁좀비
인간
▁증세
▁신축
ivers
▁te
▁거세
▁지자
▁싱어
▁양주
▁위즈
▁이우
▁입맛
▁까먹
▁스파르타
27
▁시그마
▁^
▁바우
▁평원
▁Not
▁표본
요환
▁Ke
▁다정
▁로망
▁군함
▁서원
▁저번
▁종사
패스
▁막부
▁RAW
▁접어들
ANC
▁진군
▁상반기
▁네메
▁장안
aut
▁리액션
▁든든
▁위탁
▁망가지
▁윌리엄스
▁코시
던트
▁화자
▁공동체
매니아
▁피라미
olution
▁DEF
▁술탄
▁세션
▁알아채
▁상표
▁사이오
ERS
▁라지
▁반다이
▁위화
▁국력
▁설레
▁러셀
▁프리즈
▁꼬이
▁아부
▁송구
23
▁치이
데르
▁체질
▁프리스트
▁깠
▁임요환
▁With
레미
▁캐서린
▁헌데
▁질량
▁마음껏
▁찍힌
▁망자
▁아역
▁오재
▁선보인
▁정세
▁군사력
▁브릿지
▁라거나
▁체이
▁Every
▁정장
▁와우
▁마이어
UC
▁전전
▁치뤄
▁쌈
▁뾰
▁꼭두
▁해커
▁랫
라이어
▁백미
olog
▁1943
▁김준호
▁왼팔
▁310
▁어처구니
스톤
▁제구
르기
▁카바
▁탈옥
▁느껴질
무늬
▁외출
▁손바닥
아아
▁코이치
▁방정
▁다른데
▁일으킨다
▁관념
▁박병
▁헷갈리
45
▁안나
▁듀티
▁평민
▁열받
▁집결
▁환각
▁수원시
▁골리
▁옐로
▁007
▁시즈카
▁생각나
▁무상
66
▁짤방
▁최면
▁쾌속
게요
▁사다
▁드러낸
▁해한다
▁기하
▁낙원
▁신원
▁최우수
▁대문
▁도모
▁렴
▁렀다
▁주파수
무니
▁나나미
29
▁생사
▁순진
▁표출
▁Chr
▁미야자키
지리
▁부서지
▁FR
▁후진
▁해운대
▁가솔
▁나날
▁피츠
▁촛
▁터트리
▁르네
▁추석
▁원제
▁경찰관
▁김정은
▁보답
▁시저
▁**
▁TB
▁정중
▁스루
▁시노부
▁호르
▁분경
▁커터
▁대명사
▁김세
▁해서인지
▁Get
▁대부
▁우시
▁끌어내
▁화요일
가요
▁기총
icro
▁소수자
조각
▁Boy
▁사과문
▁벵
▁Skill
▁불상
즈마
▁CT
▁연희
▁비하인드
▁가출
▁토네이도
▁메라
▁류현진
▁재임
▁는군
▁흡연
ty
▁빡빡
데기
▁키메라
▁1946
▁예배
▁부여받
▁if
▁줄곧
▁탐욕
▁영화판
▁Har
▁720
다간
▁타고난
ny
나드
▁중앙선
▁자발
▁지름
ely
마치
베르토
reat
▁무자비
베리아
▁양아치
노기
리에
킨스
▁무협
▁지침
▁추첨
▁에덴
▁한스
▁슈타인
▁1942
▁Des
▁당당히
▁커리
▁아폴로
▁맛보
▁반칙
▁스님
▁민영
받침
▁요건
▁마더
▁인즈
▁켄타
▁금기
▁1954
▁육지
▁줄일
▁후유증
▁홍대
▁캉
▁추이
▁마누
▁바오
▁영분
소스
▁혜성
▁발상
▁북방
▁담당자
▁받아들였
▁리포트
▁걸작
▁취직
▁되돌려
▁리젠
▁=,
▁Ab
▁만세
▁의미심장
▁초고
▁진흙
▁서부터
의사
▁이동하
▁섬세
▁윈스턴
▁설득력
▁>,
▁1958
▁영기
▁웨일
리우스
▁꺼지
▁생물학
▁480
▁이어인
▁DA
▁돋보
▁부메
▁드리프트
▁교화
▁떨구
▁단테
▁예리
ters
▁고를
▁단조
▁체가
라이즈
▁171
▁사마의
▁겸하
▁대용
▁방어선
▁ㅅ
▁졸개
▁매복
▁시력
▁수작
ient
▁CCTV
▁듀엣
테스
▁다이어트
▁가든
▁충성심
▁미상
▁Big
▁괴도
▁PSP
▁부메랑
▁미디
▁견인
▁전태
▁석화
▁차종
▁유행어
▁성녀
▁성체
▁조율
▁츠루
▁Tri
▁달아나
▁쫓아가
▁1900
▁양념
▁튜너
▁괴롭힘
▁협곡
▁총사령
▁굴복
▁제이스
▁피리
▁카운티
▁만류
▁임관
▁자문
▁UR
▁문헌
▁181
▁세간
▁png
크리트
▁8000
▁트림
▁선공
▁복음
▁입힌
▁경쟁력
▁DT
▁잉크
▁어워드
▁메스
▁kn
▁군벌
▁스탠다드
▁이과
칼리
▁바바
▁기라
▁고분
▁망해
▁빅터
▁상원
▁연혁
▁잠금
▁태연
▁Ext
▁입체
▁유대인
▁막힌
▁방랑
▁봉기
▁파장
▁미련
▁XP
▁만회
▁기만
▁빌라
▁어우
▁데카
▁채소
▁오피스
▁무의
▁생몰
▁씁쓸
▁조장
▁흘려
▁원격
▁뒤이
▁천황
클레스
프레스
▁초식
▁기관차
▁동참
▁어둡
▁무너진
토시
▁스펙터
▁id
▁시동
▁샤이닝
느니
▁격노
ful
ship
uch
▁RS
▁원년
▁직관
bl
▁성균
▁클락
85
▁박세
▁부화
▁가치관
▁갈기
▁제비
▁창의
▁1941
▁귀중
▁츠카사
▁염소
▁봉황
▁오디
▁최전
▁통용
▁가토
▁샤아
▁성모
▁윤종
▁퍼스
▁성균관
▁키운
▁STAR
기업
▁느낀다
ports
▁송이
▁젤다
▁회고
▁자위대
자카
▁격돌
▁나츠미
▁쓰러진다
▁장기간
▁EB
▁피어
▁내려온
▁비숍
▁양면
▁난동
▁겨루
▁틀렸
▁선체
▁유감
▁돌렸
▁받쳐
▁학창
▁히로유키
▁잠복
▁증원
▁드러낸다
▁역기
▁밀린다
▁이성계
▁모을
▁송병
▁쫒아
▁풍자
▁디테일
리케이션
▁군산
▁자손
▁Sil
▁OO
▁아제
▁Inf
▁뭉치
▁해지
▁누군지
▁수리검
▁클로즈
▁노렸
▁만두
▁배분
▁흑백
▁돌아와서
▁뫼
▁웍
▁서커스
▁느긋
▁베니
▁255
▁시궁창
▁텔레콤
니트
정역
▁송도
▁아테네
▁White
레트
▁KS
▁한해서
▁토템
▁OR
▁모호
▁청량
▁프레데
▁전년
▁1948
▁요일
▁Bar
▁여진
▁불리우
▁크래
▁Fre
▁농어
버릇
▁Back
▁우익수
▁솔로몬
▁오드
▁커브
▁손녀
▁Win
둘러
▁뽑히
▁퇴근
▁판도라
▁스테이트
▁콘크리트
테리
▁PO
▁다이너
▁파키스탄
혁명
▁왕궁
▁그리스도
산물
ump
▁창시
▁조제
▁피에르
26
▁헤매
▁진과
▁특촬
모사
▁여의도
▁성가
▁재팬
co
▁공병
▁단신
▁타쿠미
RAM
▁치중
▁열려
▁던질
▁바늘
▁벌칙
▁왕따
▁연루
▁접시
▁지켰
호도
ift
▁420
▁착하
▁qu
노미야
▁아울러
▁바이올린
▁하와이
▁폭포
버릴
▁간식
▁태고
▁고양시
▁마비노기
튀기
▁작렬
▁초급
▁색채
▁초원
▁아틀레
▁바쁘
▁소음기
▁NG
▁학계
▁켄이치
▁도타
▁GL
▁뻥튀기
▁실험실
ENT
▁오덕
▁카세
ATION
▁맏
▁지독
▁심리학
▁러블리
▁FE
▁제이크
▁박민
▁좀처럼
▁포털
▁아픔
▁허영
▁텐션
▁215
기지
▁jp
▁백색
▁어려우
▁컨테이너
▁어지간히
▁타라
▁하르
▁금전
카스
▁수소
▁어중간
공격
▁맥도
▁집정
▁제멋대로
▁관악
▁down
edia
▁Sky
▁정유
▁자드
MC
▁시구
▁Met
▁강변
▁치렀
▁사토시
▁친밀
▁횡단
레인지
▁서진
▁..'
▁나츠키
▁메아리
▁인장
▁거주지
▁고려대
▁프레디
▁포고
▁헤딩
▁갈고리
▁인기투표
▁선구
▁하코
▁CEO
▁off
링크
▁유엔
틀링
▁아론
▁최성
▁쇼핑몰
▁변종
▁제휴
▁성폭행
▁열풍
▁테크노
ERT
▁가차
▁성서
▁쇠퇴
▁욕구
▁1949
▁병맛
▁사육
ALL
▁빌미
각시
▁실천
▁이승엽
모니
바위
▁오퍼레이터
▁FN
▁라운
▁앞마당
▁현존
▁인프라
▁갭
▁Act
▁듬
▁광부
▁서독
▁안도
▁양동
▁육박
▁엇갈
▁동선
▁육식
▁파업
▁333
▁UFO
▁정현
▁거제
▁235
▁바시
▁이윽
▁우기
▁럽
▁이윽고
▁삽화
▁트레이서
▁기쁘
▁208
▁거물
▁시중
▁어머
▁퍼트
▁향수
▁대머리
득점
▁도르트
▁비늘
▁뇌격
사우루스
▁1936
▁every
▁어때
드래
▁FX
▁발간
oud
▁병영
▁메소
▁206
▁출생지
케이
니스탄
▁런닝맨
▁유쾌
▁수배
▁초동
▁하렘
▁체이스
▁처단
▁NL
▁덩크
▁내비
▁마장
▁이를
▁항속
어쓰
▁TD
▁}{
▁편제
▁비행선
▁패거리
▁남용
▁Song
▁마고
BM
▁김하
▁사다리
▁나루호도
▁키바
less
▁일지도
▁멸자
▁본국
▁넘어오
▁디스코
▁심플
▁난폭
▁랄까
▁지켜야
▁파고들
지대
린스
▁돌아보
▁띈
변속기
네트
천동
▁카멜
▁미쓰
▁참패
▁철회
▁펼쳐지
bps
▁코지마
ize
방향
▁em
▁비약
▁가주
▁팀킬
▁합방
▁세츠나
▁오마주
▁안타까운
의회
▁경인
나간
▁May
VEL
95
▁문의
▁마츠모토
▁와일드카드
공화국
▁계보
▁댄다
▁극찬
▁대여
▁마그마
▁배급사
▁누마
▁161
▁850
▁뭉쳐
▁가한다
▁GAM
▁피라미드
▁영리
UB
▁얀데레
▁기겁
▁설사
▁속옷
▁우로
▁빼앗긴
▁부름
▁늘어놓
▁불태우
▁다구
▁진해
ape
▁스릴
▁라트
▁감시자
▁개틀링
▁스플릿
▁젊은이
▁모를까
▁ve
▁김인
▁얼리
▁크러
▁위나라
▁리오스
▁헛소리
▁시킴
IST
▁데이브
마츠
▁카에데
▁송곳
▁도망쳤
▁모터스
▁ㅎ
▁내년
▁좌석버스
▁끝판
▁명인
▁표방
▁김태균
ger
▁거신
▁토와
▁Rain
▁호대
▁con
▁선발전
▁밴시
▁성검
▁RAM
▁성문
▁That
aka
▁유목
▁풀백
▁불가리아
▁God
▁독성
▁페인트
▁장래
▁쭈
▁디에
▁상대편
▁북극
타자
ita
▁벽돌
▁처했
▁옮긴
▁끝냈
▁인피니트
▁언락
▁다나카
▁오미
▁커넥
▁정벌
▁단선
▁스쳐
96
▁RF
▁떠들
▁무법
▁도마뱀
▁친일
▁유우야
▁야기
▁가까스로
실히
▁북두
▁청색
▁일자리
▁Hey
모자
▁도르트문트
▁베라
▁신시
▁이복
▁아이리
▁정인
▁단간
때로
▁소인
ORM
▁버금
▁290
▁데려온
▁Top
▁심심찮
▁어린애
▁채울
▁하데스
▁마드
▁난해
▁성주
▁무난히
▁지아
▁수레
▁싸워야
▁불운
▁퀑
▁경위
▁손수
▁코스타
zy
▁정렬
▁나기사
▁알림
▁영창
▁끌어들이
▁플라워
▁망원
▁버디
▁영장
▁페로
▁징병
▁비욘
▁순교자
로프
▁열전
레인저
러드
▁느냐고
▁데이즈
▁쓰러졌
▁복종
▁여건
▁마니
▁선도
▁대각선
▁인다
▁콘테
▁특출
▁알프레
▁정규군
하니
▁포이
▁아닙니다
▁임하
▁당분간
▁야채
rop
▁Pe
▁되려
▁축구단
기어
▁전용기
▁마른
▁칼럼
▁드레이크
▁대강
▁석탄
▁줄줄이
▁책임자
▁want
▁유추
▁절묘
▁WAR
▁서면
▁으라는
▁스몰
IGHT
▁Battle
▁역학
렉트
▁존속
▁Moon
운전
▁위화감
76
▁쳐내
▁Game
▁물러났
▁나선다
▁자부심
▁특공대
▁븐
▁젯
암동
▁울부
▁미셸
▁바실
▁화속
▁좆
net
▁게리
▁자며
▁이따
▁갑판
▁행동력
무스
비우스
버거
▁벌어질
▁1955
▁매트릭스
▁칭송
▁인테르
▁한다던가
▁내륙
▁외로
▁우습
▁일직
▁TEC
OK
▁곡선
▁중성
▁친위대
▁꼭두각시
포스
▁코로나
▁스케이팅
▁노브
▁SUP
▁역전승
com
ara
▁최재
▁호타
▁스케치
▁구만
▁선풍
블랜드
ward
▁괴로워
▁들어선
▁성추행
▁more
메다
▁과실
작전
리아나
▁클리블랜드
▁가창력
토록
bo
▁레트
▁새로이
▁반자동
▁라이터
ren
▁KG
▁조그
▁총통
▁허리케인
▁뚫리
▁분사
▁영락
▁튕기
▁max
▁이신
▁태수
▁민지
▁새해
▁212
row
▁플레이트
▁Bra
▁NS
▁코나미
▁독재자
▁유명세
버드
▁터미네이터
▁북유럽
▁인민공화국
▁골대
▁개드립
▁광저우
▁아란
▁뛸
▁국사
▁바란
여행
▁저러
▁킬로
▁흑룡
▁이제동
▁데프
▁LCD
▁Dragon
▁LS
▁안기
▁남구
연합
▁꺼리
▁내심
▁카야
▁토요타
▁의리
▁진나라
니엄
▁피겨
▁밸리
▁깨우
▁사이언
▁베이스볼
▁치부
▁교육부
▁강당
▁피고
▁경이
▁가솔린
▁경호원
▁가메
▁Special
▁빗나가
클리
▁부과
▁할당
▁1959
▁루시퍼
▁밀레니엄
▁밀어붙이
짜기
▁빠져서
▁치타
뜨린다
▁나고야
▁둘러싼
▁대담
▁오반
▁본문
▁소중히
▁왕녀
▁자석
▁파괴자
▁호스트
▁나데
▁울부짖
▁해임
▁단다
▁팩토리
▁앙리
▁추월
▁치도
▁목표물
▁탤
▁알아듣
▁발산
▁티코
▁연방군
▁캬
코프
▁관제
▁광화
▁와이드
▁플로리
led
▁크림슨
▁핵무기
▁원동
▁001
▁래스
▁도미니
▁벗어날
부대
aven
▁노마
▁의석
▁협공
러기
▁가변
▁조달
▁이룬다
▁십상
▁카트라이더
럭스
▁스트레이트
▁머들
▁전투원
▁행선
▁초회
▁쿠미
▁지친
▁wiz
▁뭣
▁가가
▁광양
▁잔당
▁펜스
▁서점
▁종자
▁가네
▁레고
▁서울역
▁몰린
▁달라서
▁넘길
▁카즈키
▁Amer
▁Track
▁마티
LD
▁강연
▁뮤즈
테나
▁벨벳
▁임프
▁이치카
▁안드로메다
▁우사
▁Pop
▁귀도
▁특허
▁바쳐
▁활주
▁Hot
▁무성
▁니키
▁주군
▁1956
▁FFFF
▁사파이어
그레
히사
▁장막
▁평했
▁협약
▁온전히
▁기와
▁김현수
▁뒷받침
▁심리전
▁이로
▁단단히
▁칠흑
▁생겨난
하이
▁피니시
▁미완
▁베드
▁날릴
▁레미
▁토의
▁플러그
▁슐
▁부회장
▁여겨진다
▁무심
▁슬퍼하
▁DAY
▁마포
▁인분
▁TG
▁다라
▁아산
▁입성
▁두드러지
▁스켈
▁온화
▁조회
▁포르노
▁백신
바키아
▁새겨진
▁이시다
▁지갑
패드
▁게이밍
▁이상민
▁유민
▁냐면서
▁신령
▁계약자
▁Cont
▁오스카
▁합산
▁몰아내
▁신공
겨서
내기
▁차남
▁도망친
왜란
▁석방
▁익스트림
▁랄프
▁빈스
▁파드
▁에스파
▁저거
▁서사
▁they
▁네메시스
▁경신
▁등산
▁이분
▁적정
▁프랑스군
▁선진국
▁트리오
▁임진왜란
▁점하
▁마는
▁멧돼지
▁첩보
▁와타루
누르
▁TN
▁음양
▁마늘
▁광주광역시
▁각기
▁살릴
▁이화
▁젠지
▁탄다
▁택하
▁대적
▁증후
▁명령어
▁황무지
▁tw
▁내려찍
▁쉔
▁위인
▁키움
▁너구리
▁바쁜
▁코리
▁1939
▁바이올렛
▁패트릭
▁빵빵
▁아치
▁창세기
▁데이빗
▁뺏기
▁금성
지물
▁이지스
▁주스
▁기병대
▁부풀
▁됐으며
▁단절
▁올려서
▁플라잉
▁오피
▁청동
▁207
▁baby
▁차세대
▁빨려
▁우와
▁팔꿈치
34
▁넵튠
▁대한항공
▁불기
▁동물원
쿠버
▁녹여
▁새신
▁단말기
▁원한다면
▁슈타
▁뾰족
▁애틀
▁역관
▁나폴리
▁520
▁노랑
▁위생
▁초중
▁통한다
▁로자
ands
▁기타리스트
두근
▁티탄
▁내려놓
▁COM
▁외야
ien
▁교재
▁바사
▁는데도
▁루리웹
바시
▁구세
▁으시
▁매지컬
▁따라다니
▁푸드
▁켠
▁박기
▁겉보기
▁이터널
▁관대
ze
▁섰
▁반가
▁어긋나
▁트레버
▁화장품
▁에우
▁BASIC
▁단백
▁분자
▁리바이
▁영재
▁각색
▁모티
▁황자
▁미뤄
▁777
▁터무니
뜨릴
▁문호
아스
▁정진
▁제품군
다르
▁나우
▁무너졌
▁탈것
▁재해
▁배고
▁천체
캐스트
▁고스란히
▁PA
▁인신
▁이관
orts
▁조비
▁IDOLM
▁친근
▁의대
▁붕대
▁철벽
큐버스
▁체급
▁집정관
▁도널드
▁애프터
▁타츠야
방사기
▁화염방사기
▁Mir
▁최적화
▁눈부
▁구치
▁비정
▁타협
▁서문
▁진한
을지도
▁사면
▁good
▁들통
▁상정
ited
▁그래프
▁호라이
▁크레이지
용차
준호
▁로로
▁포화
▁배럴
▁정제
▁항로
▁블라디미르
중국
▁빼내
▁네타
▁다트
▁독설
▁심슨
▁Bur
▁미공
▁성급
▁단연
▁동거
▁209
▁나타날
▁강호동
▁비어
play
▁Yes
▁흐트
▁콜롬비아
▁감속
▁그지
▁일부분
▁소모품
▁배틀필드
▁유세
▁Project
▁보유자
▁나지
▁무어
▁송파
▁전투복
▁밀쳐
▁상류
▁동포
파니
▁다이렉트
▁사시
▁아껴
▁로드리
▁지휘자
▁선명
▁는구나
▁데려다
▁over
▁한결
▁끌어올리
▁TF
▁쏴서
▁중령
블랑
▁투타
▁펼쳐진
▁이라든가
▁진다는
▁감도
▁사설
▁청하
▁키웠
위치
▁주성
▁col
au
▁살린
▁일갈
▁전류
둘기
▁로마자
▁민병대
▁탈리
▁나시
▁마코
▁억압
▁두꺼운
▁스탠딩
▁비범
▁자의
▁키나
▁Sur
▁시제
▁1400
▁안토니오
▁대제
▁채굴
▁투기
▁솔리드
▁~'
▁간장
▁이어폰
드리히
▁그토록
▁골리앗
▁단거리
▁불러서
▁이나즈마
▁모방
▁시세
▁현질
▁Off
▁터리
▁쫓아내
교육
▁휴전
▁창원시
▁글리
▁김택용
▁최우선
▁정직
▁노사
▁순순
▁장단
▁황족
▁장동민
▁버즈
▁라든지
▁대두
▁군중
▁류지
▁미토
▁비즈니스
▁콥
▁긴장감
▁FFFFFF
▁구했
▁김영삼
▁증후군
▁랜디
▁버니
▁톡톡
▁군단장
▁역전패
▁반짝이
▁백수
▁선비
▁칸나
▁화내
ius
▁KD
▁사바
▁사카모토
▁락스
▁써니
▁정연
▁프론티어
▁신촌
▁풋볼
HD
UK
▁어기
▁침식
▁유스케
▁욘
▁당근
▁액트
▁선형
▁제네시스
36
▁에로게
▁치히로
▁결별
▁서둘러
▁운전자
▁심포
▁외침
▁자민
▁매사
▁체조
▁시프트
▁아노
▁짓밟
▁인스
▁아르테
▁굶주
▁노이
▁탈탈
▁차마
21
▁세이지
▁행정부
▁엠파이어
▁격하
▁나탈
▁WOR
▁이어질
▁저력
▁출세
▁공석
▁마호
▁분전
▁Bad
▁코브라
ata
▁아르메
▁산화
▁셔서
▁전갈
▁스탠스
▁yeah
▁걸스
▁결투장
▁프리드리히
준혁
▁관건
▁부서진
▁템플러
▁1938
▁안중
▁천도
oney
▁Int
▁데뷔작
▁때릴
▁매개
▁취했
▁명품
틱스
▁파열
▁루드
드래곤
▁가산
▁주시
▁피버
▁조류
INE
▁영령
▁DDR
▁리조트
▁유노
방식
▁맞물려
▁배척
▁치프
제이
▁학업
▁'-
▁구애
토미
▁미유
감치
▁지체
▁Po
▁졸지
찌감치
▁라데
▁이끈
▁성유
▁요동
▁WCS
▁때때로
▁외래어
그래
▁두께
▁산산
▁메두사
▁섹터
▁오아
vent
▁동대문
▁메이크
▁순순히
AA
▁Ul
▁입법
고루
▁츠바키
▁튜브
페스트
ck
▁카논
▁마공
▁현행
▁블루스
▁탄수
▁몰려오
마트
▁마리사
▁페루
▁노스케
▁JC
▁자본주의
▁봐라
▁상해
▁총구
▁완주
▁조로
line
▁275
▁TWICE
▁즉석
▁하늘색
▁대장장이
비언
▁Ass
▁올리버
홍철
▁광학
▁응징
▁단번에
▁즘
▁소량
▁다이크
▁잿
▁갱단
▁로미
▁음모론
▁Are
▁팻
▁면은
▁org
▁PvP
UL
장구
▁만화책
▁221
▁아만
컨대
▁꼼짝
▁거유
▁베른
▁브리핑
▁노동당
▁재빠
▁애틀랜
▁쓸어버리
▁쿼드
▁래쉬
▁시발
▁케미
▁했으므로
▁수뇌
▁스스
▁아츠시
▁프라이즈
▁용품
▁패미컴
▁멀린
규어
ague
▁쌩
▁발트
▁정자
▁#,
▁괴멸
▁건립
▁레베
▁사생활
▁Match
▁노후
툭튀
▁폭군
▁교직원
▁신한은행
▁ㄹ
▁샌디
▁법무부
▁에프
▁say
▁내려왔
▁경전차
▁샌드박스
▁최진
▁재혼
▁티나
▁사라질
▁릭스
▁모치
▁행각
세이더
▁Eng
▁크루세이더
▁번거
UST
▁가와
▁갑툭튀
ton
▁몰라서
▁폭투
▁AMD
▁쎄
▁란트
▁커맨더
▁수군
▁홈구장
▁제드
▁바이퍼
▁여행자
▁시애
▁시오리
피탈
▁부합
▁클로버
▁받아들일
▁뒤바
▁디디
▁여명
▁짤막
▁세토
▁시르
▁플로리다
▁피크
▁대관
▁타케루
▁몰렸
▁셔츠
▁기린
▁부두
▁제각
▁케르
▁ac
▁몬테
▁희미
▁고원
78
▁척하
▁중소기업
매치
의지
▁RED
▁경비원
▁탈주
▁엘소드
▁수도원
▁트레인
▁데스매치
▁리벤
▁헬로
▁수영장
▁방대
▁Char
▁요르
▁최형
▁리언
▁시립
▁데이비스
▁XY
▁길목
▁진공
▁부녀
▁유시
▁퇴마
▁슬래시
지기
▁앞쪽
▁넘쳐나
▁일직선
▁금곡
▁로니
▁우이
▁묵직
▁티타
▁돌아다
erm
▁안치
▁아카기
▁Core
▁1952
▁여덟
▁자판기
ute
▁케어
▁메르시
▁일정량
▁조원
▁사업자
▁아재
▁히이
▁우동
▁쪽지
▁노드
▁욕먹
▁슬쩍
▁see
▁일선
▁발렌시아
레즈
und
▁농촌
hy
▁세단
▁어딜
▁위조
▁216
▁재규어
▁시애틀
▁다크니스
자루
▁루즈
▁화랑
▁농어촌
▁리히
▁모건
▁수속
▁명장면
▁앨리
▁매거진
▁브란
▁햇빛
▁레비
▁416
▁됬
▁츠치
▁환불
▁Now
▁티셔츠
▁}}}}
▁럭스
▁BW
▁가쿠
맹이
▁마셔
▁마토
▁아틀라스
▁Blood
▁}}}}}}
▁유배
▁현수
▁흉터
▁BRV
일관
▁누님
▁매점
▁213
▁고베
▁정적
▁코칭
▁헤라클레스
▁관전
▁2021
▁도보
▁볼일
▁동국
▁소름
▁저스틴
▁기공
▁충동
▁바흐
▁릉
▁서스
▁대장군
▁해저
▁에테르
ILL
▁숙명
▁Joh
▁충공
▁충실히
▁Rob
▁올라온다
▁장녀
▁간편
▁아득
▁쓰러뜨린
정동
▁퍼시픽
▁마사무네
▁능동
▁햄버거
▁무모
▁건너편
▁기염
▁심부
▁후후
아라
▁놀란다
red
▁레그
▁펼친
▁따랐
▁조슈
▁친선
게임넷
▁붙잡혀
▁온게임넷
▁악인
▁세무
▁our
▁사력
▁서유
▁국물
▁아리사
ism
▁평안
▁Last
▁선글라스
▁둔화
▁분수
▁시빌
▁급상
▁학부모
▁헌병
▁ㅁ
애미
코스
▁선천
▁빼놓
▁야자
▁어쩐
▁완패
▁BBC
III
▁애리
▁블리츠
▁센트리
▁마이애미
▁속사
▁친화
▁던져서
▁테츠야
▁fr
▁익스프레스
▁소망
▁스노
▁필기
▁회자
▁모탈
▁세실
▁재화
▁1300
55
먹이
▁헤븐
▁벤트
▁여하
▁패한
조작
▁경의
▁방어전
▁기통
▁디트로
▁보이드
▁디트로이트
▁맞췄
▁사쿠야
▁과다
▁여느
▁중사
▁돌풍
▁잘린
수엘라
▁비둘기
▁짊
▁기생충
▁승부조작
▁리시
▁임상
▁슬라이딩
▁기판
▁외쳤
매매
미츠
▁앞장
▁오일
▁화판
▁레이크
OCK
미사
▁병신
▁악질
▁자자
는데
▁통학
▁근래
▁right
▁국수
▁경영학
▁물들
▁아종
▁안식
▁토코
▁백룡
▁재선
▁입니까
ets
▁강남구
▁암흑기
▁승부차기
▁소아
▁순삭
▁표명
▁알비
▁직계
▁검찰청
▁구미호
▁남긴다
▁료마
▁전고
▁세레나
▁쓸쓸
▁업종
▁조선일보
괭이
▁풍속
▁두근두근
▁단백질
▁유소년
▁가세
▁튀김
▁시라이
▁눈썹
▁서인
▁잽
add
▁NA
▁이천
▁국정원
▁나뭇잎
타기
▁해프
▁데스크
▁희생양
▁사병
▁쩌
▁재판소
▁찜
▁무네
▁총대
▁토사
포로
▁암기
▁1953
▁미니게임
▁Magic
▁상하이
▁극성
▁숨겨져
▁비석
xt
▁홉
▁cr
▁박태
▁죄인
▁침체
▁드래곤즈
▁그해
▁갈아타
▁데일리
▁피신
▁경희대
▁약해서
▁팬클럽
▁활주로
▁7000
▁메탈기어
▁이도
▁초딩
▁권고
▁키울
▁피칭
▁호우
ama
▁볼리
▁HOT
▁가져와
▁치밀
▁영화관
▁재미없
▁Like
▁베네수엘라
▁농부
▁서약
▁양도
▁중화기
OWN
▁가넷
▁자가
▁포진
▁총사령관
▁히코
외선
▁고갈
이프
▁망할
▁엘런
▁사단장
88
니지
▁막혔
▁차출
▁RR
▁동산
▁Alb
▁은가
▁정종
▁거리표
▁프랭클린
▁다친
▁부술
▁첨가
▁매그넘
▁카츠키
▁이대호
집니다
▁아킬
▁관광지
▁pe
▁니즘
▁자정
▁정윤
▁망설이
▁출연자
▁방관
▁드래그
▁마취
▁불허
▁신종
▁이의
▁잔여
▁불안감
▁그물
▁입혀
▁권역
▁남극
▁내줬
▁필승
▁방정식
▁프라이드
▁덤비
▁거미줄
탕스
▁텐더
▁RPM
▁갈아입
▁레지스탕스
▁자멸
▁Soul
▁이범
▁원어
▁해프닝
▁몽땅
▁연안
▁Happy
▁토토
니르
▁낙하산
천역
▁몸집
▁음란
▁악보
▁테슬라
▁이메
ader
▁거니와
▁수송선
▁대입
▁화룡
▁Nor
▁범주
▁미나토
▁하자드
▁성남시
▁철퇴
▁퍼니
▁법정동
▁장기전
▁포레스트
▁급한
▁꾸며
▁클라우
이인
▁사비
장판
▁사위
▁뒤쳐
▁비대
▁체로
OWER
▁사역
▁졌으나
▁쥔
▁이목
ga
▁아레스
▁본드
▁TT
▁223
▁비룡
▁생방송
▁치를
▁지나갈
▁체구
▁there
▁기어이
▁막말
▁나눌
▁사요
▁역설
▁베르크
▁산체스
▁마크로스
▁구워
▁무당
▁순조
▁정대
ocal
ther
▁골고루
▁성동
자국
▁코팅
▁리포
▁바트
렁이
▁김소
▁지으며
▁크리드
▁갈구
▁미달
▁마키나
만도
▁Party
베이스
▁대의
▁레프트
▁하이브
▁GX
▁선역
▁읊
▁돌린
▁365
▁도망친다
▁임페
벅지
▁충주
▁일찌감치
▁깜빡
▁바꾼다
▁충공깽
▁조나
▁영조
▁계승자
▁Side
▁쿠도
▁삽입곡
▁나온다고
▁ph
▁거라
▁연성
▁조세
▁문성
▁도입부
▁잊혀진
▁공시
▁지쳐
▁교향곡
▁성희
▁산호
▁역과
▁주임
▁Sim
▁동명이인
▁용왕
▁임용
▁고모
▁들이대
▁Show
▁크로노스
▁수법
▁시위대
▁이긴다
uz
▁시종일관
▁룽
▁사우디아
▁아르메니아
▁맨날
▁앞둔
▁감염자
▁남친
▁민트
▁얌전
▁공중전
니치
ERF
▁네로
▁여대
▁투석
▁장학금
▁IF
▁Edition
ONE
▁격납
▁관하
▁청문
▁저질러
▁net
▁이츠키
▁보급품
▁해결책
더리
▁앞세워
▁카메오
▁큰일
▁girl
▁크리에이터
▁아유미
▁Open
BOX
▁뜬공
▁370
▁불러오
▁브라이
▁에티
▁진행할
형제
▁덕택
▁레타
▁링컨
▁남아공
▁수납
▁엮인
ated
▁쟁탈전
▁대도
▁장담
▁보인다고
▁미용
▁플랫폼
▁성범죄
▁스피리
▁불린
▁재무
▁음식점
▁떨어진다는
▁멱
▁전복
▁라이토
▁처한다
▁백지
▁왕건
▁급상승
▁에어리어
ASS
rew
▁작물
▁1957
▁임페리얼
▁걷어
▁김호
▁노원
work
▁Way
▁능욕
▁Und
▁카터
▁터프
▁Cap
▁며느리
▁알파벳
▁잣
▁코로
▁got
▁feel
▁무너뜨리
▁만악
▁시커
ley
▁경합
▁구루
▁에러
▁유수
▁Mark
▁팔려
▁붉은색
▁여겨졌
▁거둬
▁치른
▁후카
트리스
hammer
▁위태
▁아프가
▁채운
▁대변인
▁인플레
▁일기토
▁민족주의
▁신년
▁쿠폰
▁토카
▁his
▁플레인
▁활약상
▁키쿠
▁who
▁바람직
▁총재
98
▁전령
▁베르나
▁빽
▁몸체
▁의존도
ster
▁바운드
▁천연가스
▁알맞
▁정경
▁경순양함
▁뽑힌
▁Pol
▁투표율
▁푸쉬
▁효력
▁도호쿠
▁구라
▁지자체
▁하시모토
로이
▁옵스
▁특권
선거
▁입상
▁프레드
▁남짓
▁디에고
▁블루투스
▁반달
▁SKE
▁심해서
▁돗
▁뒤따
▁복권
▁희박
▁윤성
▁방영일
▁watch
▁화끈
▁빨라서
▁Angel
▁잠식
▁적기
▁아야노
▁기각
▁Val
▁micro
▁Na
▁케니
▁항우
▁맞대결
▁개화
▁누락
▁그리폰
ird
▁소주
▁건너가
▁오리콘
▁근황
▁난데
▁생포
48
▁버퍼
▁헤더
▁화질
▁댈러스
▁토우마
▁역전재판
피드
▁자위
▁절약
▁복각
▁평정
라비아
▁에어컨
▁소탕
더스트
▁알루미
▁카트리
▁깔리
▁알코
▁Comp
▁식인
▁폐하
▁셧
▁중추
▁쫓겨나
▁하반신
▁금서
▁미처
▁꼭대기
▁배수량
▁저항군
▁수족
넘기
▁상임
▁화보
▁950
▁무패
▁봄버
▁차갑
▁의류
▁통역
레톤
▁FBI
▁1947
▁벼락
▁분과
▁엑셀
▁익명
▁헌납
▁레테
▁부토
▁수분
▁선별
▁엑스맨
▁스켈레톤
▁아프가니스탄
▁벌어들
▁시드니
▁상고
▁애틀랜타
▁부디
▁될수록
▁미카엘
▁아름다움
▁행세
▁내공
▁교무실
▁미공개
벨트
▁비열
▁이석
▁점포
▁치곤
▁활기
▁이유로
▁상경
▁지저
▁치토
▁유교
▁촛불
▁허니
▁Fly
▁090
▁박병호
▁수박
▁어쩌다
▁틀어막
▁과잉
▁불분
▁연기자
▁피쳐
▁엘더스
▁트라웃
▁Legend
▁재주
▁전념
▁!!!
▁Stage
▁Fall
▁슬러
▁신민
▁쓴다는
▁엄폐물
▁개더링
▁경비병
▁수뇌부
IVE
▁검도
▁예매
▁주루
고생
▁구비
▁알몸
▁찍혀
▁한성
▁First
▁중론
▁추위
▁중순양함
소니
▁로버
▁조현
▁중공업
▁쥴
무로
▁번영
▁전염병
ura
stem
▁빅토리
▁상승세
▁호라이즌
▁단타
치오
▁겸비
▁란다
▁양평
▁전경
▁마운틴
▁좌완
▁245
▁엘릭
▁배운다
해군
▁빌헬
▁가중
▁밀린
▁시연
▁온전
▁웨딩
▁반대쪽
▁갑주
▁막론
▁차린
▁김구라
▁Sam
▁불분명
▁어설트
▁세조
▁승승
▁코일
▁유다
▁무방비
▁Perf
▁불가피
▁랍시고
▁그리스어
▁오바마
▁쉬우
▁life
▁물음
캐슬
▁버틴
▁포메
▁머릿속
▁린다
▁후작
▁갈려
udio
▁540
▁손책
▁스튜어트
▁Free
▁끝낼
▁마실
▁부기
▁경전철
▁김신
▁진범
▁키사라기
▁총회
▁후세
▁만화가
▁두른
답시고
▁카자마
▁급습
▁엠마
▁콩두
▁판과
▁오카다
▁오리지날
▁바드
▁234
▁덩달
▁알루미늄
▁접한
▁Final
▁언론사
▁그제서야
▁부우
▁자바
레일리아
▁운임
▁처해
▁늘릴
▁로페
▁사죄
▁소폭
▁아벨
▁차오
▁투르
▁성우진
▁명실
▁무소
▁허술
▁Class
▁복부
▁겁쟁이
▁사냥터
▁푸른색
슬쩍
▁-!
▁Er
▁뉴캐슬
▁체내
피어
▁질질
▁top
▁메츠
▁Break
▁파워레인저
페어
▁쇼군
▁퍼진
err
▁노프
▁선상
▁아스타
▁돌봐
▁베아
▁타지
▁루기
▁질수록
▁반하
▁수혜
▁송병구
▁Spring
TH
건설
틀리
▁GDP
▁도망칠
▁쥬라기
▁명백히
arius
▁준장
ling
▁나카노
▁지명타자
▁수제
▁440
▁무리수
▁긋
▁유체
▁한들
그라드
▁엠블럼
▁창출
▁City
▁법조
▁~?
▁망각
▁열렬
▁잔재
▁케로로
▁비평
▁치워
▁유죄
▁프리드
▁벤츠
▁이문
▁Never
글러
▁세가
▁중파
▁까다로
▁세워진
▁슬래
▁일개
ux
AGE
▁오우거
▁Down
▁사우디아라비아
▁쌍용
▁대리인
▁하얀색
▁김제
▁또래
▁신격
▁악수
영수
▁카라스
선다
▁베레
▁동유럽
▁이시카와
▁앤더슨
▁평지
▁249
▁김정일
▁쓴다면
▁정한다
▁밀러
▁스투
▁끼쳤
▁헤지
▁Cor
▁뚱뚱
▁번번
▁조니
▁"..
▁MAN
고쿠
yes
▁이니셜
tm
▁박히
▁제복
▁무안타
▁동급생
▁티거
▁자유주의
▁로토
▁자치령
▁빈센트
▁분화
▁PRO
▁광폭
▁자재
▁눈치챈
▁우려먹
▁니퍼
▁청주시
▁Mon
▁명은
▁삿포로
▁티라노
즐리
▁검기
▁행해
▁어로
▁GOT
▁대전광역시
▁지중
▁If
REME
▁로선
▁선후
▁품종
▁How
▁띵
▁큼
▁나오키
스부르크
제리
▁시녀
▁연호
▁-.
▁최원
▁겹쳐서
▁왔으며
▁베토
▁잊어버
블루
▁안테나
▁판본
피온
▁BP
▁도메
▁한승
▁KCC
▁엠블렘
▁체크카드
워했
▁화가
▁세이부
▁의뢰인
▁하나님
▁섣
영향
▁레니
▁팰리스
▁메가트론
▁튀어나와
▁신태
▁직진
tain
IME
▁맥시
현동
ause
▁사복
▁9000
▁바알
▁불발
▁성품
▁튀어나온
▁AW
▁마석
신기
▁숙지
▁1951
▁이형
▁219
▁건축물
▁예뻐
▁인승
▁난장판
▁랠
▁짱구
▁해낼
▁마카오
▁오스틴
칼리버
▁서스펜
erry
▁1914
▁Sn
▁반납
▁승계
▁알트
▁청취
▁끝없이
▁코우지
▁저널
▁저음
▁야스오
▁수전
▁입당
▁편도
▁Swe
라이언트
▁한중
▁험한
▁sk
▁밸브
▁어진
▁염동
▁현무
raft
▁Mem
▁시프
▁투여
▁와도
▁226
▁행군
▁베로
▁공채
▁구이
▁향했
▁허벅지
▁클라이언트
리히
▁마자
안군
▁갇히
▁성령
▁최형우
▁광동
▁깐다
▁순항
▁전우
▁정치력
재욱
iny
▁야인
▁시킨다는
▁강함
▁이송
▁결단
코스터
평균
▁신봉
▁위저드
▁위닝
▁들으며
▁애시당초
▁곡사
▁가져간다
▁가늠
김없이
▁변속기
▁꾹
다듬
▁"'
▁악장
▁국무총리
▁롤러코스터
▁명왕
▁011
▁다이빙
▁세운다
▁샬롯
▁페달
▁뛰어났
▁그레이브
▁밀접
▁서동
▁주주
▁오산
▁픈
▁합금
▁니즈
▁미우
▁숨결
▁밀려서
▁말살
▁티모
대표
▁끼친
▁내준
▁사생
▁들려주
▁브래드
▁회유
▁슬립
▁훈련소
▁소란
▁예술가
de
테라
▁길래
▁월터
▁검색어
▁블로킹
▁설진
▁토바
▁end
▁보호자
▁리제
▁빙글
▁요양
▁평준
▁APC
▁RX
▁아다
▁노선도
▁시메
소통
▁호각
ival
▁사츠키
▁1937
▁의사소통
▁뻔하
▁서재
▁양양
▁포자
▁오스트레일리아
▁몸싸움
▁코요미
▁시리우스
▁끊이
▁졸라
▁폴라
▁허다
▁키치
▁탄두
▁험악
▁베네치아
나들
리즘
▁방망
▁칼질
▁에버튼
▁라리
▁자택
▁하쿠
▁크리스토퍼
▁착수
▁난다고
▁얍
▁고뇌
▁강령
▁보성
▁조개
▁만우
▁쉰
▁반죽
▁양말
▁cont
▁고른
74
▁원상
▁큐트
테리어
▁내려와
▁벗어났
▁카르텔
요리
▁생계
▁쇼타
살렘
▁들켜
▁캠핑
▁세계수
▁PT
▁반려
▁연구자
▁발해
▁228
RO
▁이강
▁톱니
▁미약
루살렘
▁aqu
▁make
▁원성
▁일어서
▁과반
▁224
▁건의
▁경시
▁play
ATE
▁박한
▁착취
▁판단력
▁일생
▁피그
▁애리조
▁어시
▁사상자
▁김은
▁펠트
▁Christ
▁츳
▁중산
▁컬링
▁제너럴
▁그러다가
que
▁375
▁ㅈ
▁면도
▁디럭스
▁최하위
▁야마자키
▁춘추
▁힘내
▁진다고
▁쌍검
▁잔소리
▁EXTREME
▁뺑
▁간절
▁산지
모델
▁싫어한다
▁래리
▁410
▁외장
▁야말로
넌트
하늘
▁정무
▁Hol
▁골짜기
▁슴
▁미도
걸음
▁위아
▁233
가르드
▁싱크로
▁애니메이터
▁무찌
▁잠든
썰트
▁악평
▁어썰트
▁고안
▁걸치
▁나주
▁애니플러스
22
▁성시
▁성원
▁찬사
▁part
먼드
▁오보
▁치는
▁태후
ONG
▁우먼
▁기보단
▁Club
▁KE
▁놓인
▁매도
▁털렸
▁이달
▁흉기
▁러스트
▁아니하
임수
▁다다
▁만우절
▁유승민
▁투수진
▁김한
▁노획
▁슈리
전함
erg
나시
▁끝낸
▁전패
▁노홍철
▁스테이크
▁앤드류
ya
▁고철
▁양지
▁모자란
▁근위
▁다마
▁스맥
▁MIX
idd
▁벌일
▁아르타
▁스맥다운
▁사찰
▁지하실
ino
▁북서
▁악영향
▁충원
▁대구경
▁깨진
▁레이카
▁레전더리
▁필적
▁줄리아
▁예루살렘
▁린이
▁에노
▁파주
▁again
일기
▁실탄
▁진전
▁Cry
▁나왔었
▁블레
▁편애
▁코러스
▁무로
▁레코
▁파탄
▁겉모습
▁스미레
▁순례
▁식별
▁둔기
▁세카
▁수퍼
▁황소
▁급여
▁교목
▁편집자
▁명확히
▁레볼루션
▁hp
▁소프
▁포상
이즈미
▁슬로건
▁잘생긴
▁WHIP
이라
▁린치
▁오승
▁폰트
▁항쟁
▁김종국
▁성희롱
▁시어터
▁개칭
▁차우
사람
▁유원
▁알코올
lo
▁참모총장
▁진기
베르크
▁이장
▁미네랄
▁내걸
▁쓴다고
▁귤
▁이바
▁절감
▁독도
▁백병
▁적과
▁음력
▁증표
▁블랑
▁성소
▁미완성
▁갈릴
▁본거지
▁깍
▁Come
▁성취
▁곧장
▁제명
▁CIA
▁어휘
▁heart
BY
▁류우
▁이메일
▁잖아요
▁된다며
▁질려
▁틈새
▁수산
▁한복
▁인원수
▁마우
▁안장
▁티격
▁관용
▁동탄
▁루시안
▁악세사리
▁라이덴
▁어부
HN
공주
▁KA
▁거머
폴리스
▁PM
▁정시
▁윤종신
▁설문
▁쿄스케
▁이탈리아어
▁뻐
▁벳
▁치과
▁호문
▁강서구
회의
▁동결
▁카오
▁마사토
▁쁘
▁밤중
▁은혼
▁실감
▁이에야스
▁재차
▁멩
▁신빙
aker
▁그분
▁시정
▁일루
▁동남아
▁never
▁bb
▁NORM
▁xx
▁끌어당
자치단체
cy
▁환원
▁PH
▁개종
열차
일본
▁평이
NG
▁밧줄
▁옴니
▁지상군
▁경대
▁론가
▁수당
르슈
▁눈보라
▁수사관
▁순차
▁세련
▁우크
▁해낸다
▁몰입
▁수렴
▁챙겼
▁데니스
▁개리
▁요지
▁우크라이나
관계
▁체이서
▁깃든
▁미주
▁유키노
▁쇼코
▁화전
▁Will
OUR
▁아린
▁고아원
▁뜬금없
▁채무
▁콘테스트
ORA
▁XC
▁겨누
▁싸인
▁카모
▁차크라
▁퍼플
▁컨퍼런스
▁Girls
▁유부
메리카
쩌둥
▁빨아들
▁마오쩌둥
▁페미니스트
▁민심
▁카프
▁수료
▁우대
▁임재
▁김종민
태우
▁납품
▁차인
▁NORMAL
▁Ah
전대
▁최연
▁브로드
▁올인
▁마이티
anger
▁길러
▁전황
▁살아온
▁매입
▁각별
▁볶음
▁온건
▁다이노
▁조짐
▁음악가
▁게재
▁열광
▁투항
▁골라서
▁MY
▁미코
▁외환
▁이리스
▁전쟁터
▁has
▁간첩
▁부전
▁연하
▁거든요
푸스
▁동그
전쟁
▁프렌드
▁해설자
▁1919
▁천진
▁페이퍼
▁떠올랐
▁성공회
▁RB
▁포커
▁용호
▁트롤링
▁뽐내
▁에라
팔로
▁메트
onder
▁only
▁Sol
▁잠자
▁MUS
▁복수심
▁서큐버스
▁멈출
▁라파엘
▁포메이션
▁비서관
▁SEED
▁EXO
▁짝퉁
▁우선시
▁Best
▁보크
▁신드
▁활력
▁인테리어
▁낮춰
▁뻔뻔
▁능하
▁첨부
▁월등히
▁박차
▁해인
▁나츠메
▁망가진
▁한국군
▁제네레이션
▁개전
▁가신
ball
▁아이젠
▁문과
▁정근
▁배반
▁뿌요
▁미식축구
▁\]
▁연마
디우스
▁SMG
▁장대
▁철혈
▁스턴트
▁알라딘
▁굴림
▁시미즈
▁옥타브
▁궤멸
▁스팟
오버
▁수년
불리
▁스커
▁초심
▁올리브
osh
▁페트
▁여중
▁소대장
▁정했
▁연장전
▁남산
▁악연
▁에너
▁연화
▁Net
겨운
▁억양
▁증강
▁Ind
▁OM
UD
▁북동
▁사대
▁사드
▁우의
▁217
▁Little
▁켐
세포
▁하남
▁난쟁이
▁비터
▁액수
▁초전
▁소나무
▁후지와라
▁호화
▁부상자
▁Dest
▁미스테리
65
거렸
▁뽑혔
▁시술
▁다듬
▁주부
▁한눈
▁환산
▁슬라이더
▁물류
▁피노
▁달린다
▁미술관
▁오컬
▁데미안
▁몰아붙이
▁과열
▁교원
▁스콜피온
▁내용물
▁ㅂ
▁산전
▁추기
▁타쿠야
▁메모리얼
▁한판
샤인
▁낙서
▁패하
▁스러움
▁카니발
light
▁낯선
▁로어
▁사주
▁체르
▁레닌
▁라이엇
▁1911
▁플랜트
▁전곡
▁정승
▁검거
▁낭만
▁이보
▁찍히
▁베이커
▁올라서
티티
니컬
월드
▁꺼져
▁은빛
▁패권
▁정선
▁red
▁'~
▁노노
▁서프
▁자백
▁부록
▁약수
▁픽처
▁고참
▁해밀
소년단
▁소품
▁시끄럽
▁브룩
▁초라
▁발령
▁에이미
▁귀한
▁없음
▁KN
▁딸리
▁제후
ANCED
▁나성
▁할지라도
▁대기실
▁우치하
▁우여
▁정민
▁하노
장치
▁폐업
▁허약
▁사이비
와르
▁변모
▁생리
▁아라시
▁거쳐서
▁세이야
HC
▁통찰
▁교명
▁냉혹
▁질리
▁다량
▁미움
▁소셜
▁here
▁러시아군
데라
▁010
▁맹수
▁음료수
▁기교
▁조선소
▁Take
ASY
▁독단
▁서태지
▁고드
▁크류
▁301
▁GPS
▁나아졌
▁클러치
▁오아시스
▁FO
▁스러웠
▁카즈미
▁상반
▁앵글
▁업자
▁해온
▁BMW
▁di
▁다지
▁NFL
▁야나기
▁유창
▁남아프리카
세움
▁지탱
▁str
▁Inv
▁Mix
▁는커녕
▁뮐
eek
▁래빗
▁부적절
▁오컬트
▁마스터즈
▁체류
▁야구단
▁무트
▁세터
▁액스
▁재상
▁커져
▁화합
▁붙인다
▁괴이
▁로켓단
▁게르만
▁강정
▁익산
▁나리타
▁미하일
▁어떡
▁헌트
▁저축
▁특색
▁광란
▁페라리
▁하계
▁정국
▁둘째치
▁골수
▁세바스
▁빌헬름
▁내레이션
▁환장
▁let
▁야구부
▁타카히로
▁Single
▁영국인
▁가둬
▁승하
▁CGV
IO
▁gu
▁예민
▁형벌
▁Aut
▁프레데터
▁담원
▁티르
▁피파
▁출입구
38
▁내쫓
▁어르
▁타카오
▁방탄소년단
▁투덜
▁Ult
서리
▁드미
▁마방
▁야요
▁촉진
ena
oom
▁ad
▁유니버
비지
▁신천
▁오도
▁뉴타입
lex
▁반주
▁의거
교사
시장
▁요령
▁aquarius
▁사오
▁소홀
▁지효
▁252
▁호위함
▁껌
▁우디
▁백두
▁폐인
▁하즈
uture
▁퍼블
▁촉구
▁퍼졌
▁통솔력
▁라다
▁맡겼
▁나아지
▁ADVANCED
▁니르
▁스트림
각형
▁YG
▁이룰
▁파기
▁mA
▁재보
▁밀가루
▁녹스
▁승낙
▁EPL
▁메커
▁집요
▁하로
▁대성공
▁이트
▁얼룩
▁오자
▁자음
▁잠겨
▁내려서
32
모트
▁공직
▁교제
▁백종
▁이동기
▁깨졌
▁아틀란
세우스
▁서유럽
▁스냅드래곤
▁수차례
▁카르타
▁속임수
▁Real
▁거창
▁512
▁사카이
▁로젠
▁코미디언
브론
▁파나
▁Dec
▁Storm
▁얏
▁계신
▁초계
니케이션
▁전한
▁츠네
▁정관
▁케네
ital
▁뜸
덱스
성어
▁멜리
▁버금가
▁둥글
▁느려서
▁포구
▁DSP
▁커뮤니케이션
▁별거
▁재발
▁광화문
▁스케이트
대왕
▁최장
▁폭언
▁멘토
▁저상버스
▁닛산
▁는다며
▁어쩐지
▁하야테
▁2022
▁아카이브
▁알프레드
▁슬프
▁제때
▁하원
레오
▁김시
▁섬뜩
▁항성
▁프란츠
▁헤이세이
▁견뎌
▁머독
▁여차
▁처방
▁도넛
▁Med
▁돌려서
▁츳코
▁|[
▁꼬박
▁왕성
네즈
▁사이먼
▁발하
▁운동가
ano
▁강급
▁그딴
▁사하
▁절도
▁뇨
▁문관
▁브록
▁텐트
곡절
▁명지
▁스탬
▁Def
▁샤르
▁신승
▁학파
▁Gun
▁켓
▁손길
▁엿볼
▁나오미
▁아쉬웠
▁커진다
▁가리킨다
▁가즈
▁토드
▁우여곡절
▁원치
▁급속도
▁받아들인
▁정찰기
▁사춘
▁틀림없
박혀
▁횡령
▁다람
▁선가
▁윤석민
▁포식자
▁애플리케이션
▁정몽
ude
▁더해
소타
▁알아차리
▁아토
▁야요이
▁정착지
▁지나간
▁QP
▁youtu
▁ER
▁거침
▁착공
▁Hero
▁HR
▁자릿
▁베토벤
▁Zero
경민
▁크래시
▁어울린다
▁핍
▁산출
마사
공학
▁등용
▁미네소타
노트
▁경관
▁돌변
▁만신
▁클럭
▁거느리
UG
▁Rad
▁히다
▁데이지
▁매료
▁시놉
▁트렌드
DDR
▁거액
▁공안
▁정주
▁취할
apan
▁보그
▁강해진다
▁Warhammer
▁격변
▁라티
▁부설
▁송곳니
▁야가미
부리
▁보이즈
▁EXTRA
▁대장간
▁선샤인
병기
▁관습
▁Cal
ett
▁재탕
▁은색
▁390
▁시놉시스
폴트
▁해봐도
39
▁추격전
▁레터
▁아슈
ning
▁크로스오버
ours
▁탐험가
▁샌드위치
▁롱주
▁시급
▁엄연
▁스프레이
▁받아들인다
▁콴
▁급증
▁암석
▁압승
▁보리스
▁알려준
▁루팅
▁묻힌
▁평하
▁Ry
어먹
조림
▁차고
▁밝혀져
▁툭하면
▁키시
▁붙여진
소연
▁예거
▁227
▁Ag
▁총점
▁경부선
▁Park
▁오거
▁동맹군
▁풀이
▁스러울
▁다채
▁머물렀
lection
ler
▁비밀리
러져
unt
▁태백
unk
▁주름
▁표준어
BE
▁만장
▁초구
▁BLACK
aid
▁백악
▁오정
▁Mbps
▁신노스케
▁Sweet
arm
▁예하
▁빤
▁찾아갔
▁투영
레마
▁냅다
▁합숙
어야
▁웍스
▁사춘기
▁추운
irect
▁1934
▁프리킥
▁htm
▁우등
▁홍련
une
▁가야
▁자습
리스크
▁은신처
▁기신
▁대련
▁블룸
▁윤영
▁사이다
▁교가
▁나크
▁미시마
▁동이
▁이여
▁시부야
▁John
▁최민
▁정보원
▁숙제
▁주변인
▁when
▁마사히로
▁달했
▁분양
▁휴지
▁any
▁정명훈
▁아틀란티스
▁우터
▁위임
나타
▁서북
▁세균
▁아랍어
▁노보
▁반쪽
▁파이팅
▁파비
▁보좌관
▁연막탄
▁조슈아
▁용납
▁포섭
워진
▁뜻밖
▁심복
▁요가
▁자객
▁샤이니
▁멱살
▁쇼우
▁실컷
▁레이브
▁몽환
▁사칭
살이
▁오현
▁쿠퍼
▁대지진
▁양방향
▁프리퀄
▁내려간
▁Space
▁리비
▁을시
▁쿠보
oj
ather
▁구스
▁Gal
ouble
▁밴쿠버
숭아
▁youtube
로리
▁난도
▁안즈
▁영수
▁인삼
▁주재
▁홍수
▁린드
▁토치
▁공적
▁나설
44
▁페가수스
▁Hel
▁장민
▁구스타
▁노리코
▁연대기
▁오소
▁치요
▁컷인
▁유상
▁아오키
▁피고인
▁기다려야
▁권하
▁햐
ords
▁개머리
uct
▁계약서
▁쿠루미
▁폄
▁제련
▁효용
▁정부군
▁낙사
▁당겨
▁용족
▁에디터
▁날아갔
▁서바이버
▁료코
▁231
▁코스모스
립스
br
▁익힌
▁달려드
▁죽임
▁진명
▁수송기
▁오라클
▁태어날
▁명심
▁자물
▁교활
▁Feel
oe
▁사념
▁케도
▁베가스
▁코타
ames
▁옅
▁가할
▁짓거리
KO
▁고영
▁흡입
▁관람객
▁은근슬쩍
▁LEVEL
▁젓
▁op
▁유족
▁옥수수
▁Bu
▁꺼려
▁경상도
▁달릴
▁판명
▁PG
▁중대장
▁타타
▁하가
TER
▁보름
▁자물쇠
END
▁여긴다
▁비견
▁즐거움
▁텝
▁Je
▁거슬러
사노
▁웬디
▁흘렸
▁근방
▁두각
▁안톤
▁Kim
개골
거스
▁HT
▁금단
▁함경
▁Say
▁mAh
▁가르시아
▁최준
▁브라우저
▁약품
▁코스모
▁요하
▁램지
▁아날
▁로더
▁훔친
▁이부키
▁나가사키
▁간직
▁출진
▁페드로
▁방주
ople
▁근로자
▁때렸
yr
▁잭스
▁트리니티
▁모였
▁손발
▁피했
▁오사무
▁먹혀
▁끈질기
▁법령
▁조공
▁나카지마
▁투지
▁부착물
▁앙쥬
▁견고
▁대첩
▁바카
▁협의회
▁햄튼
▁min
비슷
▁라몬
▁마쓰
▁씌우
▁need
▁사루
리아스
▁구식
▁소양
▁아와
▁설립자
▁덮치
▁지출
▁피통
▁병합
▁일간
▁주점
▁청문회
▁카나코
thing
▁경멸
▁흑발
▁JYP
▁마즈
▁Ret
▁꼬맹이
분투
▁피쉬
▁남녀공학
▁조련
교도
▁들어도
▁막스
▁성물
▁에니
▁재기
vil
▁레베카
▁크레인
▁아누
▁이그
자스
▁도봉
▁골절
▁Sou
후미
▁치솟
▁코아
▁겸임
▁비우
▁를르슈
▁좋아했
▁여제
나우
태격
▁Dem
▁티격태격
동물
▁백스
▁헤어진
▁조동
설수
▁덴마
▁비화
▁였었
▁박살난
▁나타낸다
▁모리스
▁컬트
▁데인
▁후사
▁Tour
▁명계
▁발열
▁하강
▁GTX
▁딸려
▁변기
▁스타킹
▁지원군
uel
곡리
ODE
▁부포
▁평면
▁버팔로
▁카로
▁똑바로
▁견습
▁식구
▁탤런트
▁동률
▁쌓았
▁지네
▁톰슨
▁뚫려
▁역마
▁전광판
▁규율
▁나이지
▁나이지리아
▁동남아시아
▁횃
뚜기
▁로밍
▁어정
▁커진
▁430
▁LOL
▁개머리판
▁셔먼
▁Kill
▁아로
▁외친다
▁포커스
▁프랑켄슈타인
▁신스
▁형주
aser
▁위아래
▁닳
▁238
▁어려서
노프
린트
▁도가
▁부대장
▁라카
▁KBL
▁근육질
▁노동조합
▁매튜
▁마일리
▁짭
▁지중해
부수
▁껴안
메이트
▁달려오
▁스틸러스
비야
▁만년
▁초밥
▁끌어안
▁Orig
▁사서
▁요요
▁정근우
▁GC
▁가했
▁더듬
▁서남
▁포이즌
슬로
▁스메
▁치어리
도어
▁원가
▁남원
▁엘사
▁입점
▁르블랑
▁파병
arth
▁some
▁사절
▁포츈
▁떨치
▁236
▁싸워서
▁드럼매니아
▁참치
▁철구
▁타깃
제트
▁구한다
▁엑스칼리버
▁하피
▁보여진다
▁플리트
▁마로
▁가까울
▁간다면
▁새겨져
▁Great
려야
▁놓이
▁열화
▁이북
▁격납고
▁넘어선
▁사일런트
▁WORLD
ner
▁한인
▁이규
▁치아키
▁Beat
▁놀러
▁목장
▁테디
▁싯
고스
▁인턴
▁미니건
▁연주자
▁매크로
▁파라오
▁방아
▁기대감
▁마커스
ormal
▁군세
▁귀여워
▁엘라
▁장문
▁표류
▁265
▁원정대
▁뫼비우스
onna
▁옐로우
▁간과
▁선보인다
▁아스가르드
팽이
▁메커니즘
▁올레
▁방탄복
▁Story
▁팔다리
상부
▁아브
▁일파
▁감찰
▁아디
ways
▁NAS
▁누른
▁하르트
▁도왔
▁복식
▁Luc
▁them
▁경기관총
▁김건
▁이리야
▁PERF
▁이라든지
UND
▁세이프
▁다비드
▁주유소
슐리
▁씌워
▁넥스트
▁위안부
▁상병
▁통통
▁마츠다
▁부순
▁애써
▁이윤열
▁고야
▁원사
▁티베트
▁신야
▁앞머리
▁구실
▁블러디
▁스트롱
▁내신
▁수트
37
마니
▁노미
▁로아
▁지킨
▁좁혀
▁WWF
▁3500
▁밀리터리
▁루가
▁일전
▁저술
▁사이킥
▁Tech
▁백과
▁항소
iful
▁MAD
리역
문화
▁her
▁바바리
▁쑨
▁강민호
▁놓친
▁질럿
▁<<
▁서슴
▁숙이
▁리비아
▁피스톨
▁편찬
▁거처
▁땅굴
▁개관
▁견딜
▁기울이
러미
배기
▁폭죽
▁남겨진
레스타인
구멍
입구역
떨어진
주니어
▁쿡
ANG
▁빡세
▁선율
▁이모티콘
▁Album
▁내세운
▁대나무
▁사우디
시간
▁풀타임
▁픽처스
ental
fl
▁DIO
▁순전히
▁정준하
▁코코로
▁When
▁시속
▁살아왔
▁로데
▁정설
▁쿠즈
천리
▁공평
▁불굴
▁상디
▁조라
▁한국식
▁한없이
▁타오
▁김장
▁곧이어
▁가희
▁막시
▁체하
▁로드리게
▁약사
▁족족
▁출국
포동
▁암묵
▁GE
▁외화
▁칼데아
▁라르
▁아닌지라
ations
▁팔아먹
▁즌
▁익혀
▁기껏해야
▁케네디
실록
▁훌쩍
▁공연장
▁희한
▁마개
▁Step
프스
▁갈비
▁위드
▁돌려받
ene
▁놓쳤
▁볼링
▁232
가키
▁급감
▁노어
▁세인
▁범하
▁샛
▁마성
▁실기
▁조부
▁집게
▁오레
▁레티
▁일괄
▁드로이드
▁공구
▁물결
▁진중
통일
▁헤엄
▁나눈다
▁마레
▁맨서
▁얼른
▁숙적
▁의약
▁테드
▁금세
▁수첩
▁옥스
▁참수
▁홍차
▁호루스
▁음파
▁조건부
▁다림
▁루디
▁역적
▁산산조각
▁번쩍
▁she
▁나눠서
예프
OSS
▁두개골
▁결번
▁심영
▁세리카
▁잃어버렸
▁재결
▁행렬
▁원산
▁부끄러워
▁다나
▁대북
▁의병
▁전한다
질러
▁언뜻
▁힛
▁금빛
▁깃들
▁엽기
페르노
▁."
▁플롯
▁갔으나
▁공격대
▁변속
▁도맡
▁독살
▁바빌
▁소굴
▁다르크
▁인페르노
▁넬슨
▁서강
▁전위
▁푸딩
▁Death
시즘
▁사학
▁최승
▁푸시
▁비타민
ait
▁수없이
▁수식어
▁죽여야
▁맥크리
▁투혼
▁Champion
▁괄호
▁비행장
▁칭한다
▁지날수록
▁대영
▁양현종
▁팔레스타인
▁가한
▁무례
▁안영
▁육신
▁총애
▁가져올
▁찻
게일
투사
▁벨리
▁천자
▁혼잡
▁1931
▁인기가요
사전
body
▁SNK
▁착안
그래피
▁사이렌
▁외교관
▁퍼레이드
▁뮐러
▁삼켜
▁일컬
▁하네
로그램
▁sec
▁콘스탄티노
▁서경
▁양육
▁왕정
▁지마
▁마세요
▁삼국사기
뉴스
▁부러지
▁장지
틀린
▁art
▁이뤄진
▁무마
▁이불
▁510
▁찼
▁흐른
▁거둔다
▁Line
▁승승장구
IDE
▁도면
▁엘더
AE
▁닷컴
▁뜨거
▁Tra
▁교묘
▁박원
사무소
▁조각상
▁디나
▁세울
▁카툰
▁니콜라
스틱
▁족보
▁파커
▁리더십
▁쟤
▁취한다
▁타츠미
도스
ume
▁불륜
▁스캇
▁여길
▁이면
▁토모코
▁다던
▁미끄
▁구가
▁매혹
▁래디
▁이크
▁키는
▁LCS
▁Who
빙글
▁밀짚
▁뻔한
▁자결
▁장발
▁쿠토
바야시
▁종로구
▁윤지
▁흑색
▁다이어
▁남서
▁바빠
▁워페어
▁프리티
rough
▁1700
▁이클
▁황녀
▁Bus
주곡
하임
▁나즈
▁포박
▁데려왔
▁탈락자
▁꼼꼼
▁비방
▁타사
▁조성주
▁첩자
▁케일
▁코라
슬라비아
▁1935
▁유고슬라비아
▁치뤘
욕장
▁철자
상스
파일
▁TRA
▁신뢰도
▁Apple
▁존기
마을
▁섬머
▁지석
orever
ESS
▁환율
▁전면전
▁XBOX
▁이코
▁추축
▁캡쳐
▁소리치
윤수
ral
▁재킷
▁쾌락
▁기색
▁뭉개
▁변칙
▁신진
▁747
▁이민자
▁클래시
▁에리스
듭니다
▁뛰어다니
84
▁자하
▁횃불
INAL
▁백웅
▁미츠키
▁대구광역시
▁댁
▁증차
▁셀렉
▁사고방식
▁국지
▁속했
▁경비대
▁다는데
▁모로코
▁노우
▁딱지
▁지으
▁나와야
▁Electr
▁선량
▁추기경
▁괴짜
▁달랑
▁에델
▁걸러
▁권혁
▁래더
▁러프
▁공모전
▁이따금
▁풀려나
▁감격
▁그리워
▁살아갈
▁SB
▁니지
▁자일
▁아오바
▁데스노트
▁about
여겨
▁RT
▁거쳤
▁애덤
ander
▁바퀴벌레
▁기폭
▁305
▁사오리
▁2400
▁SUPER
▁매기
uss
▁개표
덴티티
▁아이덴티티
▁노련
▁원안
▁질책
▁바가지
▁아이슬
법인
▁양의지
▁코만도
▁흩어져
▁에볼루션
▁공전
▁스트링
▁히로미
▁실물
▁혈압
▁인가요
▁무르
▁일찍이
▁합격자
▁모사
▁640
▁Mal
▁화성시
▁자행
▁늘어날
▁이바라
▁빨라진다
▁콜로세움
▁트인
self
펙터
▁뜨겁
▁왼발
▁아날로그
비어
▁설날
▁절제
▁완승
▁백호
▁각본가
▁장화
▁삼각형
▁과하
▁급소
▁오클랜드
▁페널티가
▁해줘
▁물어뜯
lease
▁극동
▁325
▁Pass
▁깨져
▁사벨
▁조경
▁채권
▁천왕
▁타케우치
▁굳히
▁초음
▁Dead
ortex
▁이클립스
▁버크
▁디스트로
▁거너
▁발효
▁살피
▁악재
▁인계
▁바사라
▁한테서
▁come
▁지니어스
▁겨냥
▁띈다
다이스
▁장시간
▁카자흐
▁타이가
▁NV
▁불계
▁야유
▁잔존
▁노기자카
▁수만
▁황천
▁디스트로이어
▁마슈
▁팽팽
▁IEM
31
구스
▁연못
ines
▁Tem
▁얌전히
▁원로원
▁EXPERT
▁독립운동가
▁마구잡이
▁초연
▁파충
▁229
▁예비역
▁정신기
▁개인차
▁루시우
▁무리뉴
▁사업가
▁황폐
▁단도
▁NAT
autiful
▁오기
▁Ant
▁동자
▁장영
▁토머스
▁EASY
awn
▁바운
▁총수
▁공격진
▁시즈쿠
▁망신
▁먹일
▁무예
▁쓸려
▁날카롭
▁밀어붙
▁전주시
▁Green
▁각주
▁굳건
▁1910
▁Home
▁각광
▁고척
▁신룡
▁스펙트
▁흑기사
▁League
▁죠셉
▁코퍼
elie
▁큘
훈련
▁가온
▁새턴
▁Lee
▁시티즌
▁아이슬란드
위원
▁두터
▁이어주
▁했다간
▁쏙
▁시우
▁이연
▁줄인
▁우즈베
▁제각각
▁다리우스
▁검출
▁강대국
▁솔루션
▁아이파크
▁Wanna
▁EL
▁나니
▁비들
▁샤인
▁하얗
▁TEAM
▁가져간
▁제국주의
▁Tom
▁들이받
▁주저앉
창민
▁복판
▁가까우
▁아키코
▁무구
▁송신
▁앙상
▁과부하
바탕
▁마천
▁스구
▁종속
▁ma
▁대물
▁컬쳐
▁껍데기
▁선호도
▁넛
▁북벌
▁유괴
▁백종원
▁혹시나
더미
▁갉
▁실비아
츠미
▁스쿠
▁AAA
▁이하일
IAL
▁간수
▁숙박
▁호조
▁랠리
▁룰렛
▁미분
▁트와
▁파헤
▁하룻
▁후리
▁에그맨
▁분실
▁Del
▁중심부
▁1918
▁프라모델
▁당부
▁컵스
▁ah
▁da
▁노을
▁떠도
▁맡긴
▁이효
▁말뚝
▁사토미
▁추대
아르
트릭
▁이산
▁밀라노
볼트
▁마리나
▁사이코패스
백호
▁장진
리카와
▁건달
▁자초
eter
▁쓰러뜨릴
▁뒤섞
▁IMF
▁히키
▁박동
▁GAME
▁키네
▁눈여겨
▁로스쿨
▁하루히
▁되살아
▁메우
▁토착
▁평온
▁자릿수
▁클로이
ily
▁강국
▁히데키
▁못했으며
▁sw
▁스무
▁들이닥
▁설교
▁마니아
▁지도부
▁모자이크
▁원술
▁자선
▁Friend
▁로건
▁붙일
▁발사체
▁사이키
▁단가
합니다
▁무법자
날리
▁맹렬
문서
▁허접
▁용인시
▁Cha
▁나오토
▁디셉
해머
▁한미
▁결정력
▁시그널
▁무토
▁단호
▁어울려
▁코쿠
▁빼앗겼
▁Level
마드
▁묵묵
▁품목
▁뎁
보잡
▁에비
▁컨버
▁기념일
▁승자전
68
▁걔
테면
▁BMS
▁라이저
▁그레이스
▁듣보잡
▁뿜어내
▁캅
ves
▁코피
▁김상수
▁아쉬워하
rol
▁사보
▁Univers
▁골격
▁신영
▁태반
▁박진영
94
▁조만
▁아라이
onic
▁가관
▁디언
▁라키
▁벼슬
▁왔으나
▁Chap
▁Pack
▁나온다면
ISS
▁박인
▁백설
▁재래
▁Mac
▁비틀즈
▁못한다면
▁이를테면
▁발포
▁불곰
▁정신병
▁후타바
콜로
▁피해야
▁스코어링
▁정액
▁bit
▁눌러서
▁레츠
▁성계
▁황인
▁분대장
▁타오르
▁마르크스
▁렬
▁격분
▁눈길
▁이큐
세이돈
▁알제리
▁휘둘리
▁포세이돈
▁AO
▁머큐
▁영도
ider
▁독소
▁타코
▁하오
▁불량배
▁였으므로
▁돌기
▁요크
▁글래스
▁고군
▁재계
▁기권
▁레일건
▁맥도날드
▁나자
▁완력
사관학교
▁실격
ouch
▁TBS
▁조준기
bsp
▁노린다
▁니까요
▁루시아
▁됐었
▁제이콥
▁DL
▁속출
▁내세워
▁조종당
▁메기
▁핑거
ible
▁머물러
▁바그너
▁크리스티나
▁결선
▁고라
▁골랐
▁차차
▁765
▁미야코
▁hell
▁Young
▁계책
▁노려보
▁251
▁NXT
▁사카키
▁일회
▁이뤄졌
DER
▁약탈자
▁제이미
▁마츠리
▁빈민
▁한류
▁갈라지
▁발랄
▁뱃지
마이트
72
▁오줌
▁케이스케
▁에마
▁외동
▁마음먹
▁무궁화호
▁아이카
▁클리프
▁들렸
▁이다
alent
▁신재
▁치세
▁Japan
my
▁반신
▁빠름
도니아
▁몰아붙
에트
▁대칭
▁뒤엎
▁잠정
▁버지
▁야미
▁ABC
▁클라라
▁순발
▁제아
▁스릴러
▁뒤돌
▁모선
▁묶인
▁노지
▁서주
▁스테판
▁빙글빙글
▁제동
▁조선인
▁!!!!
▁강북
▁마르셀
▁부르크
▁hats
▁그늘
▁신검
▁시게루
▁어설프
▁구축전차
▁스트레인지
구석
▁몰아치
▁아우라
▁nbsp
▁느와르
▁바닷가
▁매뉴
▁상수
▁저편
▁펑펑
▁ATM
▁유희열
▁살벌
▁짜여
▁순발력
▁지켜봐야
▁their
현수
ubl
▁마담
▁Full
▁밀짚모자
독스
▁홍익
▁덧붙이
트니
▁이남
▁특혜
플러
▁바깥쪽
잣집
▁징집
▁업소
▁전조
▁혐한
일라잇
▁트와일라잇
선스
▁알아볼
▁윅
회전
▁개헌
▁펠레
▁조지아
▁피콜로
ha
▁설리
▁조승
▁560
▁Que
▁허물
▁블리치
▁Champions
St
▁안대
▁660
▁잠자리
▁프리랜
▁셰이
▁피시
▁리빌
leep
▁올라타
▁에지
▁미끄러
▁POWER
by
▁역행
▁리투아
▁리투아니아
▁놀려
▁포제
▁승용차
▁어려워졌
▁열릴
▁츠지
icle
▁루돌프
▁약해진
▁어웨이
키오
▁반반
▁스노우볼
송이
헤드
▁형법
▁르브론
▁빠져나
▁그려진다
▁라이선스
▁기형
▁시이
▁정가
▁주권
▁매춘
▁가차없이
▁관세
▁돌려보내
▁켈트
▁포톤
▁황재
▁동호회
▁이타치
▁서스펜션
수염
▁리디
▁보류
▁ㅋㅋㅋ
벌이
OTH
▁낙동
▁동독
▁분식
▁아이오
▁카이바
▁로렌스
▁척추
제품
▁긍지
▁버들
▁황색
▁전해졌
▁다이너마이트
▁끼얹
▁여군
press
▁르네상스
▁재일
ement
▁럿
로트
▁hatsan
▁스도
▁은인
▁콩고
▁퇴임
▁TSM
▁사토루
▁길가
▁res
▁밀수
▁왕세
▁상반신
▁다이애나
▁세속
수아비
▁가격대
▁레이팅
▁사이클론
▁허수아비
▁매매
▁신해
▁어정쩡
툴루
▁야오
▁차징
▁탁구
▁경제력
▁펼친다
▁하룻밤
▁스타더스트
▁생소
▁희소
▁자그마
▁호시노
▁잔잔
멘션
▁절실
▁디멘션
▁수호신
▁금정
▁남코
▁브리스
▁이광수
▁티아라
매기
보스
▁소고
▁들어야
▁호타루
▁심볼
IF
gg
▁레진
▁불태워
▁분출
레이브
▁낄
태인
▁농도
▁레인저스
▁칵
▁경산
▁창시자
바인
▁건만
▁성운
▁코니
▁심부름
▁줄리엣
▁히브리
▁도살
▁면치
▁로미오
삭스
▁모조
▁상층
▁==
▁발당
▁OT
▁요네
▁아카시
▁피어스
▁서산
▁서커
▁웬리
▁들려오
▁마라톤
▁게으
▁반년
▁티오
▁미우라
▁GA
▁도래
▁문파
▁큐라
▁팔렸
▁Ele
▁어떨까
▁일평균
펠러
▁-,
▁짜장
▁소방서
폭풍
▁인제
▁충이
▁지브
▁des
▁아이코
▁넷째
▁다그
▁김광현
▁20000
▁긴가
▁얽힌
▁이반
▁지바
▁237
▁대항해
▁살육
▁단축키
▁알고리
▁살포
▁로트
uj
▁난징
▁마셨
▁성의
▁송정
▁오웬
거래
▁감마
▁장자
▁황룡
▁앞부분
▁하운드
▁패러독스
▁박건
▁애착
▁환술
▁조그만
▁선단
▁송지
▁수기
라이어티
▁Shad
▁가발
▁근친
▁작아
▁판교
▁헤카
▁정상급
▁버라이어티
▁호르몬
▁선한
▁찬란
▁나와도
▁헤드폰
▁활발히
▁프리랜서
▁DH
▁꽃잎
▁노미야
▁봉투
▁쿠지
▁직종
▁SUV
▁노태우
▁유이치
▁갑작스런
▁244
▁지원자
▁늘어
▁반입
▁Mad
▁뉴비
▁명치
▁여운
▁일면
▁패해
▁NMB
▁아사미
▁파라다이스
▁쳇
▁양분
▁스타터
카르
▁카나타
▁아사쿠라
매김
▁망원경
▁려나
▁범퇴
▁와야
▁람보
▁아르테미스
▁돼요
▁서든
미트
▁그렌
▁흔치
▁ㅠ
▁라이스
▁펠릭스
▁해밀턴
▁자리매김
▁달한다
▁레이서
▁강진
▁걸림
▁사타
▁날아간
▁들어섰
▁파우스트
대군
▁메사
▁정훈
떨어지
▁야루
▁유린
▁결속
▁추론
▁시베리아
▁유투
▁조나단
▁타카미
▁덤블
▁발도
▁주화
바위보
▁약혼자
▁연장포
▁가위바위보
▁늄
▁과거사
▁터뜨려
▁MUSIC
▁금천
▁브금
▁제천
▁나아진
▁사나다
▁시트콤
▁두루마리
▁쿠사나기
ground
▁발병
▁Att
▁김재환
▁타일러
▁해야지
럴드
▁체면
▁콜트
▁배틀로
관리
▁자이로
▁전라도
▁알고리즘
▁Lun
▁html
▁속죄
▁마네
ori
▁압둘
▁지드
▁264
▁아키야마
▁미적
▁특례
▁목욕탕
▁계엄
▁모차
▁Mel
▁넷플
▁향신
▁합쳐진
▁넷플릭스
▁떄문
▁화나
▁Mil
스코
▁미역
▁한문
▁008
▁하세가와
▁내무
▁우왕
▁248
▁boy
▁크라이시스
▁안주
▁팬더
▁센고쿠
▁이재명
▁동성애자
▁포신
▁다분
플라이
▁HKT
▁외무
▁1917
▁칸다
▁한라
▁!!"
▁릴레이
▁스크랩
▁워해머
▁하야시
총사
▁국보
▁스레
▁연두
▁카미야
디난
▁명절
▁귀여움
▁망설임
▁바이트
가짐
▁갈망
▁냉철
▁틈타
hn
▁퇴직
▁1933
▁베로니카
▁도류
▁통폐
▁호밍
▁Mer
▁뿅
▁워스
yo
▁짬뽕
▁쉬워진다
▁라이브러리
빠진
▁매뉴얼
▁크툴루
볶이
▁니티
▁쿠우
▁곡괭이
▁하나같이
▁탐지기
말라
▁타도
▁일렉트릭
▁광교
▁동강
▁알렌
▁표지판
▁난다는
▁옆집
▁실례
▁크리스티안
▁ESP
네이션
▁디바인
▁김남
▁이시스
▁카디널
▁보람
▁저속
▁242
▁펌웨어
산리
▁루니
▁커밍
▁판넬
▁인조인간
▁증식
립니다
▁더욱더
서니
▁노장
▁불릿
▁알린
▁장작
▁맹독충
▁카나메
▁아코
▁혹독
▁왕창
▁관리인
▁Ho
▁건방
▁뒤져
▁몰두
▁가맹
▁약했
▁통장
▁카미조
▁Games
▁치하
▁무기고
▁설원
▁신탁
▁항마
▁클라크
▁아귀
▁코드네임
▁거하
▁티비
▁걸쳐서
▁There
▁식용
▁카루
▁불명예
▁전범
▁블로우
▁예컨대
▁쟝
▁낙양
▁내보냈
▁모모코
▁Easy
67
▁대격
▁모셔
▁유품
▁은둔
▁잘난
▁주둔지
▁포터블
▁살렸
우먼
▁고글
▁앤트
▁돌고래
▁난데없이
▁마르티
▁거북이
▁합쳐져
▁기정
▁네기
▁문경
▁작자
▁성북
▁와드
▁Pa
ility
▁동아일보
▁wanna
라트
▁비야
▁데려와
▁김우
▁엘리시
▁따름
▁고비
▁보전
▁시브
▁엎드
▁스테미
▁도키
▁비와
▁이국
avy
▁지폐
▁SKY
▁치어리더
▁입혔
▁Spe
▁반열
▁뼈아
▁엑스포
▁바래
▁위용
▁정박
스기
▁공민
▁궁정
▁시영
▁보안관
▁불어넣
▁구운
▁탄력
▁머큐리
▁Road
드릭
▁발단
▁본대
▁비겁
▁수렵
▁수모
▁스펜
▁노하우
▁타이완
▁버린다는
▁구레
▁신약
▁어르신
▁나트
▁잔치
▁총체
▁콜린
▁편향
▁밑바닥
▁보옥
ense
▁들인
▁한족
▁460
▁이견
▁달라질
▁이매
▁징벌
▁편차
ison
▁우울증
▁철학자
▁펩
내려
▁리어스
▁말버릇
▁명실상부
▁꺼낸
▁뒤쫓
▁칩셋
▁택했
▁VC
▁주지
▁파피
▁신세기
▁백마
▁요나
▁자서
▁구작
▁금물
▁도네
▁섭정
▁적도
▁취항
▁메이스
▁EE
▁사변
▁가져갈
▁들어맞
▁아서스
▁왜냐면
▁농어촌버스
투르
▁254
▁항공대
눅스
▁나돌
▁색적
▁뒷담
▁호라
록스
조선
▁유키코
유산
▁공황
▁부피
▁Brave
▁동백
▁못한다고
▁다의
▁미얀
▁실록
아내리
▁per
▁프로페
▁봐요
▁737
uff
▁1928
▁경원
▁대함
▁스니
▁이블
▁이완
▁파치
▁거쳐야
▁포옹
▁귓
▁꼰
▁모니카
▁포괄
프레이
▁316
▁웨일스
▁던데
▁선더
▁번들
▁통폐합
▁유흥
라이터
▁실린더
▁클라이맥스
▁FT
▁끌리
▁단국
▁와스
▁원대
게이트
▁인파
보레
▁엿보
▁인술
▁교육감
성군
▁역장
깃거리
▁니콜라스
▁dr
이야
▁진풍
▁호도
황후
▁보아
▁패자전
▁성종
▁엔도
▁혈관
▁가우스
▁넘어온
▁냄비
▁누렸
▁다급
▁가샤
▁구판
▁였음에도
▁Esports
▁방수
▁501
▁맞춰야
▁전기톱
▁소림
▁셴
▁윳
▁기로
▁이레
▁페러
▁에미야
▁마부
▁브렌
▁궁궐
▁이을
▁조끼
▁연장선
▁Long
▁규명
▁멈춘
▁빗자루
▁샤먼
▁리눅스
▁선교사
▁Snow
▁사카가미
▁부러진
▁재수없
▁키쿠치
▁나약
▁폐교
▁히로키
oup
영웅
▁이신형
▁탑승자
▁파충류
▁Call
▁나래
▁오토봇
▁대니얼
▁사냥감
▁오피셜
▁비나
▁속주
▁메이크업
▁FS
▁리크
▁숨긴
▁중용
▁홀수
▁아그니
▁굼
▁례
mon
▁민수
▁받침
▁Key
▁알아챈
▁308
▁프리덤
▁left
▁퀀
▁호족
날레
▁삼키
▁월광
▁탄산
92
▁겁먹
▁이룩
▁통조림
미아
▁몸값
▁코그
제비
▁국내외
▁귀걸이
▁만담
▁물방울
▁싸그리
▁테두리
box
▁부팅
▁승조
▁발자국
▁선취
▁유파
▁윽
▁Hi
▁길티
▁모성
▁애원
내셔널
▁Bet
▁WCW
▁자기장
▁인터내셔널
▁팥
▁레퀴
▁에루
오피아
▁에티오피아
▁익사
▁243
▁Port
▁총검
▁슬럼프
ITE
▁곧잘
▁명언
▁어감
▁표했
▁타이머
베다
▁순양
▁양팔
▁마일리지
꼬박
▁돌발
▁임정
▁터너
▁Arc
▁레이코
▁매달려
▁꼬박꼬박
▁흘러나오
▁530
▁구매자
iri
▁et
▁애호
▁평시
▁은어
▁포유
▁향신료
산면
▁떨쳐
▁등록금
▁자연히
▁285
▁802
▁분당선
WAR
▁미행
▁조예
▁노다
▁보태
▁쾌적
▁pop
▁Va
▁살인범
뮬러
▁내분
▁수비대
▁천문학
▁1927
▁LB
▁간담
노세
제프
▁눈알
▁에밀
▁유주
▁제레미
▁1932
▁TECHN
▁배당
▁테크놀
▁사이퍼즈
들인
▁사적
▁야타
▁쿠페
▁유가족
ITAD
▁드러머
▁김학
▁방아쇠
▁크루저
니발
▁ACT
▁방향키
▁크랭크
▁Secret
enn
▁훤
▁친숙
너드
▁벌려
▁자대
▁보컬로이드
VEN
▁기아스
▁리얼리티
▁귀속
▁수목
▁권력자
▁부잣집
▁천안시
▁1929
▁로드리게스
▁교포
▁니어
▁청혼
▁무효표
▁생몰년
▁성대모사
▁만연
▁저것
▁Her
▁박석민
▁구룡
▁치즈루
▁been
▁신예
▁창법
▁NCT
▁연합국
▁1925
▁메꾸
▁사옥
▁지치
▁청자
트린
▁마귀
▁성단
▁한국사
▁비닐
덩어리
▁내세웠
▁MI
▁후추
▁게이츠
▁구원자
▁일제히
LY
▁욕하
▁자상
▁천성
▁알아낸
▁es
▁노무라
▁ZZ
▁통영
▁나코
▁분담
▁지간
▁오지환
▁Knight
산부
십자
▁고고학
▁Gh
▁복서
▁에인
▁666
▁니스트
▁쫓아오
▁나토
▁때린
▁GITAD
▁거행
▁고압
▁아구
▁박찬호
▁템페스트
▁VI
▁우니
▁그지없
▁아르마
▁브라이트
▁아소
▁갖췄
▁나연
▁갈굼
▁선점
▁소각
▁웅장
▁카키
▁팍팍
▁war
▁모의고사
▁찾아다니
▁SDRAM
▁대항전
▁병풍
▁촌장
▁피르
▁백병전
▁연구생
▁클레오
▁농성
▁와해
▁쓰여진
▁졸지에
▁해치우
▁헤비급
▁시라이시
▁요코야마
▁OC
▁동두
▁맨손
바라기
▁까칠
▁아발
▁은총
▁중전
▁카빈
▁남주
▁후우
▁ROX
▁LM
▁앞당
▁학군
▁Kar
▁요마
▁칸자키
GP
▁모금
▁불상사
브레
razy
드런
▁도원
▁580
▁Bro
▁크레용
▁아세
▁양정
알라
전생
▁로메
▁여신전생
▁NR
▁찾아온다
▁대림
▁대방
▁도핑
▁삼총사
▁왔었
▁떡볶이
▁메즈
▁속여
▁육아
▁드래건
▁무의미
▁통근
▁Cortex
▁버트
▁한수
▁625
▁단수
▁속아
파치
▁장이
▁프롬
▁리벤지
▁이방원
▁LPDDR
▁김봉
▁의구
▁거주민
▁바크
▁해부
▁take
▁스펙트럼
▁어려워서
저곳
▁이곳저곳
▁실제론
▁현저히
▁가평
▁김성현
▁into
▁관내
자락
AKA
▁로군
▁로디
▁303
▁거리낌
▁젠더
▁서대문
▁어윤수
▁이루어질
▁뱌
까봐
▁김문
▁김보
▁밀크
▁아즈텍
▁톡톡히
▁가락
▁모하
▁jpg
▁재생성
▁베풀
▁천리
▁의기
▁주선
▁김유진
▁면담
▁뷸
도현
▁미니맵
ember
▁고온
▁스톨
▁행크
▁김강
▁슈우
▁응하
학생회
▁"...
▁MOV
대상
▁경복
▁오열
▁요금제
▁돼지고기
▁아샤
▁미소년
▁Gener
▁직면
지부지
▁흐지부지
▁건대
▁꾸민
▁블랭크
▁해온다
▁Days
▁거들
▁끊겼
▁망언
▁벗기
....
▁태권도
isode
▁강좌
▁아돌프
▁과대
▁결정타
▁앙상블
▁레토
▁발진
▁워킹
▁Stand
▁슈테
▁점프력
▁두세
▁둥근
▁도우미
▁Normal
올로
▁VP
▁진홍
푸르트
REAM
▁양천
▁방망이
▁동방신기
▁외견
▁Fil
▁목격자
▁파스타
ied
▁선술
▁권속
▁몽키
▁브렛
▁외할
▁줄지
▁토모야
▁GITADORA
▁다레
▁일식
▁증진
▁한신
▁따돌리
▁룰루
▁빈곤
▁얼라
▁점장
▁stay
▁엘다
▁조시
공원
ugh
▁의구심
▁타무라
▁수학여행
▁라디
▁궁예
▁번화
▁이데
▁이케다
▁내려간다
▁노카
▁사스
▁교통부
▁오토메
▁타마키
▁슈퍼주니어
▁
▃
이
다
.
는
에
가
의
로
하
을
지
고
,
기
서
한
도
1
리
0
스
를
어
사
은
시
아
나
인
2
라
으
대
자
수
있
게
그
만
해
전
들
일
정
보
면
상
마
장
부
주
3
드
과
트
제
되
우
적
성
e
오
니
었
5
-
와
공
미
신
모
것
4
데
여
소
했
유
위
무
구
동
비
9
중
문
타
치
경
a
원
진
거
터
년
레
국
화
선
용
때
며
6
o
8
'
7
카
히
:
조
i
러
당
후
명
세
력
t
간
n
r
없
내
개
버
작
된
등
연
야
실
할
생
방
바
격
르
려
안
영
계
단
크
차
발
프
요
반
체
역
물
던
않
재
S
월
s
관
분
파
회
키
노
더
점
말
"
운
교
까
본
A
속
학
음
포
래
/
l
피
코
행
건
저
능
호
임
토
식
루
강
C
두
m
군
입
통
번
결
초
각
불
d
출
h
배
였
종
매
즈
현
T
M
디
승
P
처
최
준
티
함
같
메
남
E
설
산
u
직
른
형
린
감
브
B
태
받
심
판
난
편
!
D
특
추
많
투
c
급
달
양
람
패
금
외
알
았
습
테
예
온
약
표
민
I
L
업
살
R
법
언
록
런
못
플
네
든
O
목
너
합
G
복
F
걸
돌
g
워
병
N
y
좋
권
평
올
%
막
천
황
날
름
독
따
박
술
란
집
변
론
절
참
p
청
애
머
존
근
김
또
울
캐
쿠
질
왕
필
K
션
확
별
환
활
페
츠
베
f
k
순
항
죽
쓰
?
열
~
악
V
석
+
망
블
팀
H
커
탄
져
향
맞
류
랑
클
증
느
족
v
잘
량
친
곡
담
릭
광
잡
엔
볼
킬
총
듯
료
케
퍼
손
품
효
송
럼
먹
글
폭
녀
뒤
탈
련
범
백
b
쪽
접
긴
령
창
w
높
완
길
색
졌
U
갈
께
얼
새
벨
극
#
검
X
누
W
혼
철
힘
충
벌
밀
채
줄
움
렇
겠
빠
몬
겨
즌
락
림
끝
삼
귀
험
골
괴
닌
슬
북
왔
렸
슈
득
쳐
립
넘
싸
희
육
취
견
랜
착
링
틀
엄
혀
눈
택
앞
곳
축
규
냥
턴
맨
째
놓
덕
엘
템
허
및
]
냐
될
큰
쟁
[
늘
널
찾
릴
칭
팬
붙
책
찬
봉
응
갑
므
징
몰
첫
침
률
먼
떨
얻
끼
뿐
둘
측
J
x
율
벤
잠
획
암
굴
곤
센
큼
헤
풀
좀
쉬
킨
몇
억
짜
팔
훈
Y
찰
압
켜
밖
혹
답
협
풍
씨
홍
써
럽
싶
몸
떠
즉
궁
갔
논
&
님
빌
났
염
휘
벽
묘
례
밝
닛
딜
뉴
돈
넣
퇴
슷
탑
칼
쉽
숙
슨
컨
컬
홈
웃
빈
익
낮
콘
액
층
깨
낸
샤
쓸
맡
봐
앙
뛰
찍
렌
끌
웅
윤
옥
델
웨
략
갖
꾸
딩
킹
멤
폐
팅
멸
죄
욕
닝
잔
싱
롤
멀
숨
좌
놀
쇼
롯
빨
<
솔
씩
덤
욱
픽
짓
텐
뜨
빛
콜
됐
켓
흑
칸
꽤
=
념
뮤
낙
힌
듣
랙
척
폰
농
혈
뜻
칠
객
왜
앨
맥
헌
흥
맹
렉
섬
겼
Z
냈
닉
푸
듀
랭
큐
휴
롭
빼
닥
십
폴
룡
z
끔
램
튼
탁
떤
혁
맵
럭
흔
홀
넷
쿨
찌
균
죠
뽑
혜
멘
빙
맛
톤
땅
튜
컴
렵
텔
뀌
컵
짝
녹
떻
꽃
뢰
굉
갤
탐
딱
뭐
씬
콤
딸
둔
챔
퀘
졸
덱
뷰
힐
팩
잃
밤
털
젠
밥
밍
셀
흡
헬
옷
쳤
찮
탕
흐
핵
믹
*
꼬
펜
즐
춘
쓴
윈
릿
몽
웠
셔
젤
꿈
돼
밴
봇
쌍
뷔
둥
룹
줬
삭
혔
꺼
줘
겐
)
틴
놈
쿄
뇌
엑
펼
탱
켄
Q
묻
덴
믿
똑
짐
옆
깔
납
핑
켰
엇
싫
랐
얘
괜
랄
섭
롱
훨
{
낌
옵
잉
핀
퓨
럴
}
읽
앤
탓
낼
칙
춰
캠
랍
빅
곧
콩
벗
꾼
셈
봤
>
짧
굳
촌
틱
끊
멜
j
둠
붕
덜
폼
펙
룬
쥬
끄
쇄
앗
튀
셋
륙
흘
닐
냉
렀
뒷
셉
즘
촉
젝
넓
첩
렬
쁘
겁
딘
덩
댄
븐
떡
_
늦
쌓
셜
겸
쇠
샷
픈
빵
쏘
촬
쯤
깊
깝
왼
펠
뿌
틸
텍
값
잇
컷
뭔
밑
랫
쫓
쥐
퀴
;
융
웹
묵
꼭
옛
랩
슴
앉
렛
띄
흉
멋
깐
밸
붉
걱
뻔
멍
엽
겪
뚫
엠
껴
옹
캡
캔
넥
셰
숲
룰
헨
잭
옮
섯
꼽
럿
춤
쁜
톰
텀
겹
톨
톱
낫
잖
웬
녕
얀
섞
잊
q
듬
쾌
뜬
킥
렐
숫
윙
뱀
꼴
혐
뱅
챙
댓
틈
멈
갱
닫
엉
몹
젊
윌
팡
읍
썼
펀
깃
닮
벼
탯
맺
렘
핸
궤
떼
짤
넌
끈
훌
꿔
봄
툰
횟
쩔
뤄
쿼
샌
빗
됨
륜
짱
빔
묶
롬
갓
좁
싼
숭
깎
곰
꿀
켈
탠
퀄
뀐
첨
밟
츄
렙
룩
낭
륭
삽
룸
삶
덮
쩌
렴
릉
곽
눌
빡
넬
뉘
둑
쏟
릇
챠
|
셨
랬
닿
팝
늑
샘
첼
흰
땐
렁
낚
맘
긍
앵
퀸
낳
팽
겟
윗
됩
섹
뼈
껏
섰
녔
쨌
넉
뚜
톡
걷
썬
얄
뜩
킷
핏
뭉
툴
덧
쟈
@
훔
슛
낀
딴
\
쩡
닭
곱
삐
펴
챕
꺾
뚱
핫
썩
흠
뜯
엣
앱
멕
쭉
햄
왈
횡
냄
겉
펫
왠
뻐
쉐
벅
쏠
썰
뿔
$
웰
펑
엮
훗
깜
줌
찔
쉴
낄
챌
잦
똥
뱃
턱
띠
돕
펄
뿜
녁
곁
뺏
꽂
넨
닷
ㅋ
긋
볍
딕
돋
깡
챈
듭
훼
섀
쩍
쏴
뚝
갇
뭘
칩
맷
딧
탭
싹
헐
뮬
눠
뎀
씹
놔
쵸
빚
밋
잎
괄
헛
멧
놨
릎
힙
밭
꼼
듈
깥
찢
엿
팟
킴
푼
몫
펌
튕
둬
겔
뒀
엎
슐
킵
컸
돔
굿
붓
텝
벙
딪
옴
뽀
쿤
캣
줍
밌
씌
휩
퉁
픔
옳
풋
솜
콧
쌀
벳
냅
뻗
흙
늬
캘
흩
텟
툭
꼈
껍
벡
헝
휠
ㅣ
툼
콥
샵
첸
팍
붐
뱉
팁
튬
땡
갯
쏜
캄
뻥
샬
쪼
늄
쑤
꿰
솟
끓
뭇
췄
굵
갚
칫
쿵
뤼
굽
궐
꽉
햇
끗
늙
헷
콕
귄
쯔
볶
젖
귤
앰
옐
썸
얽
큘
쫄
깽
얹
퀵
셸
륨
캇
쨩
츤
ㅇ
젬
퍽
씀
꿨
뮌
긁
숴
넛
겜
쫒
짙
젼
팰
콰
슌
샐
닦
짖
뇨
왓
눕
잼
랴
탬
펭
(
짚
맙
웜
홋
랏
댈
뻘
꽁
텨
잣
삿
탔
팜
홉
댐
렷
떴
헥
ㅡ
얇
샹
쑥
윽
앓
튠
뽕
맑
젯
샀
욘
얌
뉜
씻
밈
옌
ㄷ
뤘
짬
꿉
땀
짠
낯
텅
늪
댔
퐁
궈
굶
뺨
윕
뜰
쁨
젓
벚
푹
딥
껄
꾀
캉
껑
갸
숍
똘
^
쌔
쥰
샨
깁
꿇
뜸
밧
컫
뺀
꽝
쎄
닙
뛴
걀
맴
낡
싯
쉘
쐐
룽
뽐
덥
륵
릅
`
ㅎ
룻
떄
쭈
찐
웍
ㄱ
ㅅ
숀
쌈
훅
얕
핍
폿
덫
탤
멩
찜
굼
윅
벵
ㅠ
샴
ㄴ
깍
숏
땜
깰
댕
쩐
깬
뀔
빽
씁
둡
쥔
왑
뛸
챘
훤
돗
뎌
싣
넵
뾰
뫼
ㄹ
썹
뚤
깠
꿍
왁
촛
뺑
캬
쌩
눅
캅
놉
ㅁ
ㅈ
팻
늠
맏
뎅
갭
꾹
띈
좆
퀑
퀀
켠
췌
뭣
뻑
쉔
괘
쉰
찼
랠
낱
꿋
잿
찝
솥
칵
덟
ㅂ
딛
얏
괭
즙
됬
짊
잽
빴
멱
읊
빤
껌
핌
셧
슘
댁
뷸
팥
쥴
렝
띵
섣
엥
딤
얗
콴
꼰
켐
얍
츳
랗
힛
뭄
톳
쁠
뿅
퀼
뇽
눔
팸
츈
셴
찻
썽
뮐
쿡
깅
궂
쏙
햐
폄
닳
옅
짭
쳇
횃
샛
씽
뱌
쑨
믈
뎃
쟤
뎁
윳
갉
걔
쿰
넴
곶
꺽
톈
펩
츰
쟝
컥
핥
귓
쾅
솝
봅
찡
땄
춥
촘
씰
놋
헴
앳
맣
숄
숟
헉
넋
땠
텃
뮈
걍
녜
쉼
ㅊ
슝
끽
띤
숱
팎
쑹
컹
휙
팠
뺐
갬
텼
쐈
쌌
웁
ㅌ
춧
튤
맬
떳
쌤
ㅏ
쎈
찹
핼
돛
ㅍ
엡
녘
촐
캥
쾰
삑
텁
뵈
쾨
욤
뒹
엌
윔
뇰
줏
뼛
잰
즛
웡
밉
깼
꺄
듦
눴
냠
쓱
뺄
뿍
딨
튄
펍
쥘
듐
륀
듄
갛
삥
볕
퓌
갠
ㅜ
폈
쟌
힉
휼
쫙
묠
롄
뻣
숯
짰
꿎
볐
잤
퓰
쪄
뗀
뵙
쬐
뻤
쭤
뗄
멥
욧
쫀
끙
댑
쨋
긱
큭
훙
슥
훑
괌
챗
넝
낑
욜
샅
홧
귈
뀨
첵
낵
몄
뿡
뵤
슭
먀
앴
닻
쇳
쭐
촨
눗
꽈
텡
챤
ㄲ
헹
츨
ㅆ
겅
펨
벰
빕
쫑
늉
껐
ㅉ
땋
켤
꿩
힝
쏭
뀜
ㅓ
쿈
퓸
ㅗ
튈
죤
냇
돤
쿱
틋
샥
닢
랖
ㅔ
묀
좡
쉈
셌
탉
빰
뗏
삘
냔
횬
웸
햅
딫
팼
땔
씸
띌
킁
깻
긔
맸
뷜
좇
쭝
뭍
쩜
ㅐ
엾
쿳
숑
넙
칰
궜
넸
뵐
읏
윷
멎
깟
뮴
빳
쩝
굇
혓
쑈
뺌
쌘
쇤
헵
콸
윾
떵
냑
큥
꼿
쭘
뜀
뗐
몆
쉿
볏
쪘
붑
쨍
캑
훠
찧
뮨
뒈
죗
봬
믄
웩
튿
춋
셍
ㄸ
짢
옙
흄
셩
젭
ㅑ
꽥
ㅃ
둣
껀
챰
뤽
쐬
쳉
쌉
윰
츙
꼐
욥
챳
슉
썻
젔
헀
옭
짹
썅
띔
빻
댜
뎠
쌰
콱
햏
뻬
젋
멓
촙
믐
틔
띨
슼
쮸
큅
맟
됭
볜
짦
휑
퍄
넒
쩨
뜷
잴
뎬
넜
ㅕ
펐
탰
쨰
옻
쯧
굣
뽈
ㅢ
륄
룀
곪
솎
샙
냘
ㅛ
ㅟ
돡
흣
롸
뺴
ㅚ
ㅖ
잌
갗
탸
엷
뱁
뽁
옉
닼
큔
넹
붇
ㅄ
섕
솩
겡
쨔
ㅒ
쁩
푀
얜
뼉
뭥
휜
픠
옇
ㅞ
겋
텄
햣
곯
꺅
팃
쫌
슾
휀
뫄
ㅙ
퉈
켁
뎐
ㅝ
왐
핳
벛
뉠
묽
솅
ㅘ
궨
앜
쾡
뢴
뭡
묜
돠
죌
췬
퉜
츔
ㄳ
맢
쇽
랸
쳄
닯
밎
퉤
떫
ㄺ
꽐
쌕
졋
챵
줴
춉
곗
앍
뚠
묄
쳅
큄
겄
퐈
됴
왱
겍
뉵
벞
ㄵ
땃
칡
ㄼ
눙
홑
흭
뀝
ㅀ
떽
ㄽ
ㄶ
퀜
ㄾ
ㄿ
쉑
맆
갰
겊
껸
밞
ㄻ
꺠
꿏
쉭
쒀
켕
킼
톄
삵
푈
뷘
퐝
삯
캰
똬
옼
읭
좔
괵
졍
촤
븅
퇘
뼘
샾
똠
읜
뎨
샜
큠
헙
귯
큿
묭
졔
푯
앎
웻
븀
섶
뷁
헣
낍
뷴
읆
벱
팹
풉
홱
쀼
훕
켑
궃
횽
갹
븨
깄
돚
귐
쳔
첬
컁
쏨
꽹
꾐
셤
젱
뤠
햘
홰
걘
뒬
겻
엊
찟
듸
솀
늅
큽
뵘
삔
솁
쏩
챱
왘
쟀
좃
룔
괸
볘
훍
촥
묏
쒸
솽
웽
툽
멬
쭙
훵
믓
녠
쎌
씐
캤
녈
빱
먄
붸
쨉
땁
믜
솬
퀠
숌
좍
튐
뵌
쫘
픕
롈
쟨
쒔
휭
읺
푱
솨
몯
믕
뾱
렜
쳬
섐
춈
왝
푄
쩄
헸
늡
짼
핰
끅
됸
읇
뒴
낏
폽
랼
섥
뉼
몐
뱐
솦
횔
휨
뗌
롹
뽄
췐
헿
흴
밣
큣
툇
뭅
웤
땟
겆
삣
죵
쪙
껫
퀭
툐
뱡
옘
핡
슙
앏
묫
옯
낟
낢
멨
곬
릐
셕
찿
꼇
뙤
쉥
쬔
캎
똔
춍
튽
쬬
흫
뻇
삡
툿
녓
벋
낰
쥠
욀
즤
쯩
듕
럇
맻
웟
젹
숩
앟
꿴
됫
쟛
뎡
줫
뉨
곂
싀
휄
밷
쨜
큇
귿
뗴
벧
쭌
찣
륌
떈
캼
맠
햝
쟘
쨘
퓔
촹
퓽
몌
끕
뜹
쉠
긷
뗑
뙇
흝
먕
뱟
숔
쨀
큡
쳰
꽌
떙
엪
쵼
냣
짯
훓
솓
퓬
횻
핬
깸
눞
왤
켯
섈
휫
쎘
봣
퓐
횐
뇬
덬
헠
귁
뢸
긺
댱
씅
뀽
섄
쥿
햔
궉
깈
떰
읖
좨
쫗
텻
뭬
뽜
웝
풔
뼝
솃
뵹
읎
쨈
녤
쟉
쳣
쳥
싴
섦
앚
똣
뚥
쑴
옾
붜
밐
졀
펏
걼
땍
츌
쿙
셱
먐
묾
읗
갼
꿘
듁
펰
홓
앝
짇
짫
룅
쎼
뚯
멂
섵
힣
흽
씼
옜
읔
곘
슁
윱
캿
퉷
훝
휸
껨
끠
눝
쏼
틉
혠
꺵
눼
띡
븝
뺘
쎔
졈
닠
랲
뷕
빋
덪
맕
쿽
뜽
띱
챨
뱍
엳
튱
팤
뚧
봙
삷
솊
죈
큉
틍
늣
샄
읕
컽
튭
핲
썪
띰
쟙
꾿
벴
뿝
쑬
쳘
슻
쎾
돝
떱
줜
뇸
몪
쌨
즁
쬘
캪
퍅
걲
굥
욬
꾜
넼
풂
핧
봑
콯
덷
뎍
얠
얶
욍
닺
륍
맫
몃
볓
븟
칯
늒
뜌
쓔
캭
귬
껜
얆
츼
괼
뿟
쥑
췍
킅
햑
꿧
늴
츕
엏
욺
졷
쮜
툠
걋
륫
엙
웦
읶
츗
캌
햤
깹
덞
몀
읒
딮
뜁
륑
뺸
쏫
얔
죔
꺨
뵨
뷧
쉣
쐰
쒜
앺
읻
킄
겝
깉
녑
뱄
쳑
춫
괞
룁
븜
뻉
쓩
엶
쟐
틑
꿸
뗘
칲
텬
녯
뉸
뙈
븍
셒
쐴
읷
쯋
톩
꼳
뺙
옝
쵤
켬
톼
뎊
뭏
삠
앖
챡
촵
끎
덖
몿
믾
뺩
뻰
솰
쵹
킈
틩
혤
흗
갞
맜
뮻
쉅
쐇
욌
읫
잆
좝
켚
됏
뒨
듧
뚸
룟
얐
쭁
훽
귑
넖
넗
뼤
쌥
앋
읃
캴
핱
됄
왇
좐
쩬
콬
퓩
겯
뚀
붱
븡
뺵
쎠
엤
읅
졘
죙
탶
뉩
롼
룝
얉
죡
긇
땨
쁑
숮
싈
쌋
쎅
쑝
잍
졉
쯕
굷
덯
뎜
싿
쥭
췃
췩
퐄
궆
롮
룐
뷀
빝
뺭
쌐
썡
씡
짋
픅
뇩
릍
봊
귱
돐
섴
쏸
엨
곈
굄
긓
꾄
넢
놘
믌
밪
벜
뻡
읠
캢
걜
놧
둟
랔
롷
먈
죳
쥼
챦
쾀
뚬
롶
먁
멉
뽝
앧
죨
쯥
쳌
컾
켔
푝
껭
덛
뚭
럄
릏
묙
뱔
봘
앀
윶
쳡
췰
퇵
픗
걺
뀩
늗
돨
밨
옃
욹
읋
쨕
켸
쾍
퀫
툥
곷
괍
댸
딲
뻴
셥
쌜
썖
쥣
쾬
텩
퇼
긑
껒
냨
냬
넀
뇐
쀍
쇨
왬
욷
읓
잏
쮀
츅
텰
톺
퇀
퍈
곌
깩
닜
띁
샼
얬
줭
챃
햡
홥
휏
긜
끉
낛
냡
냤
뇻
럐
뢔
벹
뵀
븥
뺍
솧
슽
쟎
쵀
쵱
칬
턍
퇸
픞
햬
곻
볫
섁
얺
엃
탹
핟
갂
궬
뫃
벫
쉡
슶
옿
웆
푠
핓
횝
훡
휵
긘
뀰
댠
둉
뛔
럅
롑
맀
맽
봔
븓
싑
썌
얙
엹
쨤
쩰
쫏
쯰
튁
튝
퐌
픙
훚
놰
덨
딍
띕
롓
볻
뵬
붗
뻩
샇
쏀
쑵
앆
얖
얫
잋
쩠
쪠
쫍
쿸
탼
팖
햠
갊
굔
꺆
꺗
꺘
껠
늧
댤
됀
딋
랕
륏
뮹
믖
볠
봥
븰
섧
싁
쐉
옺
줸
짘
탙
텤
퉨
튑
팊
팏
횅
힜
궝
긿
넊
돇
돎
랃
믁
븃
뽓
싄
쏵
얊
얭
엵
윜
젧
쩃
찦
틊

깆
듥
맃
묷
삻
왯
챂
춀
캍
켱
쾃
퀌
턀
텦
톸
펔
퐞
푕
힠
괏
껶
꾈
뀀
놜
덭
떔
뜐
뢍
볌
뵜
붏
붘
빧
뽂
쀠
삳
슳
앒
왚
욿
웈
잨
쥡
쩻
펲
핣
굘
긤
긧
긩
낪
눋
됌
땝
랋
롣
뢱
먺
뭠
밫
쁙
샏
셑
싰
쏱
옂
옄
욯
잗
잛
좂
쥤
쥽
쵝
킾
헑
홇
훟
곹
굻
긏
꺙
뀠
끟
닽
뒥
듫
듼
땽
떪
똟
릳
벍
볃
봍
붴
빍
뻠
뿨
쎆
쎕
앛
엫
윘
젴
줗
짔
짞
텹
폔
퐐
풰
퓻
홤
갘
귕
껼
끵
돟
둗
똏
랟
뤌
뤤
먿
뾸
솸
쒯
앶
쟬
즑
췻
켙
콦
툑
헼
혬
훰
흒
뀬
녂
뇔
닁
뎔
룍
륩
륻
밊
밬
뱝
붯
빟
뻿
샆
샊
쑌
씜
얋
욋
잫
쪾
쯱
쳠
쳴
컄
켭
흿
힁
걈
겞
긂
꼉
딀
떢
럈
룄
맊
멌
뫌
봌
붹
삤
숸
쓿
웄
웱
젛
쯉
챼
칮
컼
쾩
퉆
팦
푿
햛
횸
훛
껩
뀄
늫
닾
돞
떘
뗼
똭
뚦
렿
뤈
릘
맄
맇
맍
먜
몔
뫙
밯
벐
붊
븕
뻭
쀏
삧
솹
숼
쉨
쌴
쎗
씃
엍
옫
왹
윁
읉
잪
젏
좄
죰
짥
짪
쫜
찯
컶
퀧
텽
툉
핮
햌
헜
홐
횩
횰
흇
흨
곸
깺
꺔
꾱
꿕
뀡
끆
늇
덣
뎝
됍
둴
듵
떯
뜅
띳
랰
렏
렡
렫
륮
밦
볔
봡
빢
뺼
쀳
쁌
숳
슢
싕
싢
싾
쌱
쎙
쏳
쐑
쒕
얃
엗
옧
쟂
쫭
췤
쿗
퉅
갅
곀
곺
궷
꺤
놂
닑
댇
덍
됵
둏
뗍
랒
뢉
뤂
륶
멭
뭀
뭤
믤
뱊
뱜
뵷
뻈
뻨
쀄
쁴
샒
샠
섡
싦
싵
쌧
썜
쑻
쓲
윹
쟞
죶
줼
쨥
쯜
찎
텸
톲
톹
튓
폇
핻
햋
훜
겓
괃
궅
긶
꺌
꿜
넫
늼
뒝
듰
뚁
뜳
럤
릠
맼
뫅
뱨
벓
벖
벟
볽
뵥
붤
빩
빪
뼸
쁭
섊
쉪
슅
슟
슮
쌸
쎴
쑛
쒠
씔
옒
옸
웉
웓
윢
읪
잩
젶
좊
좟
짆
쬼
쯘
촷
쵮
츩
켘
쿔
퍙
픖
픤
햎
햙
햫
혿
횄
겎
곲
굑
궘
깇
깤
껙
꼍
꼻
꾁
꾾
꿱
뀍
끾
넑
넠
녬
눨
닸
뎦
됙
둿
딈
딯
똡
똰
뛟
띙
랓
롁
롫
롴
륽
릌
맂
맒
멏
몾
묩
뭵
믇
밂
밗
벎
뺃
뼁
뾲
뿛
쀽
삾
셊
슸
쓘
쓺
얾
웷
읿
쩗
쬰
쬽
쭀
쯪
쳈
쵭
춛
춸
캆
캽
컈
퀍
퀙
퍌
풿
퓍
햩
헾
홅
갋
겿
곖
궛
귝
꼮
꿑
끨
낲
넡
뇟
뉭
늕
늚
닏
닞
닲
닶
댯
뎄
뎟
됑
딿
럷
렄
뤁
뤗
릋
릔
먫
먾
묑
묨
뭊
믯
밢
볱
뷥
븉
빂
빞
뻆
뿓
쁐
쁥
삮
슲
쌞
썛
쑐
씉
얅
옰
왂
욛
웊
웥
읙
잀
쟃
졤
졧
줃
줆
줙
줠
즹
쩅
쩼
쪨
쬠
쬤
쭵
쭸
쳿
칟
켝
턔
퉹
펵
폘
폯
퐅
헗
헡
혭
훋
굠
굡
궭
귺
깓
꺃
꽅
뀵
끋
녛
놐
놯
눤
뉙
뉫
늰
닰
뎧
됼
둇
둪
둰
딹
땗
뗬
똇
똫
랎
렆
뢈
룯
뤀
뤨
릊
맗
뫀
뫈
뭴
뮉
뮝
믙
믠
믬
믱
밡
뱓
벆
벝
벸
붖
빆
뿕
삸
샃
셖
솤
쇡
쇵
슦
슺
싐
싲
싷
쌂
쐤
쑉
쒹
씝
씯
앾
얿
엯
옪
옶
옽
웒
읨
읹
쟹
좉
줒
즥
짮
쨧
쩟
쩧
쩸
쫩
쭛
쯍
쳗
춱
춴
췡
췽
츱
쾔
탏
탣
톧
퍗
퍝
핕
햟
혯
홛
횞
흟
힏
힗
걑
걩
괐
귾
긌
긲
깋
깢
껬
꽇
꽨
끍
낔
넚
넽
녝
놎
놑
뇡
뇹
댼
덿
뎈
돓
돜
됒
둙
둫
뒁
듷
땈
뗵
똙
똵
똻
뙨
뚊
뚷
뜃
뜛
띾
룃
룱
뤙
맅
멁
멊
멞
멪
멫
멮
몁
몋
몼
뮛
뮥
믘
밮
뱦
벏
벘
벩
볙
봆
붝
븁
븘
븬
븽
빎
뺜
뻄
뻼
뼌
뼜
뽠
뽤
뽱
뾔
뾴
뿎
삒
삱
셟
쇴
숖
쎽
쏝
쑀
쑦
쒼
쓉
쓋
씺
얒
엋
엒
옦
왉
욨
웕
윝
윟
읐
읩
잒
쟜
젙
젚
졩
죘
줅
줵
즨
쩖
쩩
쩽
쫴
쬲
찱
챞
첡
첮
쵠
칢
캏
켣
쾈
큪
킸
탇
탖
탘
틂
틤
팈
팉
퍠
폅
폮
푤
풒
풸
풾
퓅
퓜
퓹
홯
훱
흼
힡
걌
걹
곅
곩
괙
굈
궹
귪
깕
꺈
껵
꽆
꽛
낣
냏
녃
놏
놕
놤
놥
뇍
눟
눽
닧
댛
덝
뎻
둚
뒿
듓
듨
딉
딻
땛
똿
뜜
띅
렢
롐
뢐
뢨
뤔
륷
릾
먑
몊
뫚
뫠
뭋
뭌
뭎
뭭
뮷
믂
밠
봏
봫
봰
붂
붚
뷍
븸
빖
빸
뻒
뼏
뽇
뽥
뽭
뿩
쀓
쀾
삲
섟
섮
섻
솖
솘
솢
솻
솼
숞
슆
쌵
썐
쎃
쎤
쎵
쑘
쑫
쒓
씄
앑
얂
엓
엸
엺
옡
옲
왭
욉
욭
웛
윞
읾
잚
쟠
젇
졜
쥇
짛
쨴
쪈
쭃
쭊
첲
촏
촴
쵷
췅
췹
췼
콫
쾐
킫
탚
텊
퇄
툵
퉌
퉝
틧
팣
픎
픨
핔
핝
헭
홁
훳
갴
갵
걁
걉
겂
겤
겧
괫
궄
궥
궸
궻
귖
귚
긄
긐
긕
긼
깞
깪
껃
꽊
꽜
꽬
꿂
꿿
뀻
끡
낋
넞
뇠
늨
닊
닡
댝
댬
덗
덙
뎋
돆
돖
돘
돰
돵
둅
둩
둼
뒑
뒵
듳
딺
땰
떅
뗠
뗸
똽
뙉
뙜
뚄
뚕
뚮
뛌
뜵
랅
랣
랳
랻
럔
럲
롇
뢀
뢇
룜
뤅
뤕
뤡
뤳
륧
릃
맓
맔
먖
먗
멑
멛
멷
뫁
묌
묗
뭩
뭰
뭼
믏
믑
밲
뱩
볭
볾
봁
봃
봈
봋
봠
봨
봴
뵛
붒
붛
붼
뷫
뷱
븛
븩
빏
빜
빹
뺡
뺣
뻢
뼬
뽘
뾆
뾼
뿁
뿠
쁍
쁫
섪
섺
셐
셗
쇅
쇱
숛
숝
쉇
쉤
슡
슧
슿
싪
싻
쌑
쌟
썀
썁
썭
썯
쏉
쐭
쒝
쒭
쓧
씍
씤
씪
앫
앸
얎
엩
엱
엻
왒
왰
욝
욣
욲
욾
웇
웗
웚
웳
윀
윸
잞
졎
쥄
쥅
쥌
즞
짒
짗
짴
쨟
쩹
쪗
쬈
쬭
쭂
쮠
쮹
쯀
쯴
챸
챺
첟
촠
촾
쵇
춣
췁
츀
칄
칽
캈
캋
컿
켮
콀
콮
쿌
큟
탗
텉
퇗
퉥
튯
틜
틷
팓
펖
퐆
퐉
풐
풑
풜
풨
풩
풮
풱
픐
픝
핃
핤
핶
혱
홝
횦
훁
갮
갲
겕
겴
괠
괬
굸
궙
궞
궢
궫
궳
궼
귻
깛
깣
꺍
꺴
껚
꼄
꼱
꿻
뀅
끛
끤
넾
녇
녺
뇄
눜
눳
뉍
뉏
늩
늿
닟
닣
닪
댖
댘
댥
덢
덦
돩
돶
됟
됰
뒙
뒸
듟
듮
듴
듶
듹
딷
떣
떧
뗃
뗜
뗶
똈
똒
똗
똴
뙁
뙡
뙭
뚂
뚞
뚵
뛃
뛩
뜝
띃
띧
띯
럳
럻
렣
렦
렺
렼
렾
롕
롥
롵
룥
룳
뤱
뤵
륐
릣
맾
먓
먘
먯
몓
몭
몱
뫔
묯
뭆
뭑
뭷
뮘
믉
믗
밇
뱕
뱤
뱽
벑
벾
볎
볹
봎
봒
봗
뵉
뵫
뵭
뵳
뵴
뵶
붆
붋
붎
붠
붰
뷉
뷋
뷤
뷩
뷮
뷹
븠
븧
빘
뺔
뺚
뺫
뻟
뻽
뼙
뼥
뽟
뽬
뽴
뿗
쀡
쁀
쁄
쁏
쁟
삝
샂
샫
샭
샻
섢
섨
섿
솕
솣
쇀
쇙
숤
숧
숰
쉛
쉩
싥
싨
싮
싳
싺
싽
쌙
썍
썎
썫
썲
쎀
쎨
쏄
쏌
쐔
쐙
쑟
쑷
쒐
쒞
쒰
쒱
쓕
앐
앢
얷
엜
옞
옠
왙
욈
욮
욼
웧
윻
읂
읈
읰
잂
잓
잕
잙
잧
쟆
쟣
젆
젰
젵
졐
좜
좢
좽
죕
죢
죧
죹
줐
쥈
쥉
쥗
쥥
즠
짂
짷
쨖
쪤
쬴
쮓
쮝
쯈
찫
찭
찴
챷
첅
첧
첯
첰
쳼
촊
촒
촞
촟
촡
촢
촣
쵯
춭
췔
츷
칀
캜
켼
콭
쾻
쿭
쿹
퀏
큮
큻
킐
킳
킽
탊
탵
턉
텋
텥
톢
퇫
퉄
퉐
퉸
틘
팂
팛
팧
퍕
펕
폕
폣
폥
폳
퐙
푭
풴
풹
퓝
픋
픓
픱
핞
햍
햾
헁
헏
헔
헕
헯
혙
홣
홨
홭
훃
훎
갌
갣
갦
갿
걕
걥
걳
겇
겈
겦
겱
겳
겾
곃
곙
괆
괱
궇
궋
궶
귍
귔
귛
귡
귨
긃
긎
긒
긮
긹
깏
깑
깳
꺀
꺕
꺢
꼅
꼯
꼲
꽣
꽦
꾑
꾭
꿃
꿝
꿥
꿯
뀙
낞
낻
냙
냩
넏
녋
녿
놞
놩
놴
뇜
뉀
늖
닒
댦
댧
댭
덀
덌
덠
뎂
뎆
뎰
뎽
돒
돧
돱
돳
돴
됈
됻
둄
둍
둽
뒉
뒓
뒛
뒫
뒺
듑
딬
딭
땇
땎
땓
땩
땻
떗
떭
떷
뗆
뗡
뗣
뗫
똝
똧
뙍
뙬
뙴
뚐
뚔
뚢
뚣
뚼
뛈
뛉
뛛
뛯
뛷
뛻
뜄
뜔
뜾
띻
럂
럍
럣
럮
럶
럸
렂
렞
렠
렰
롻
뢋
뢘
룺
뤩
뤰
륳
륾
릀
릆
릞
릥
릯
릵
맋
맚
맮
먆
먏
먚
먛
먽
멐
멟
멦
몉
몟
몥
몲
몳
몴
뫟
뫤
뫽
묍
묟
묳
묺
뭃
뭈
뭗
뭨
뮜
뮽
믭
믻
믽
밁
밒
밚
밻
뱛
뱷
벲
볈
볋
볟
볿
봀
봽
뵽
붌
붍
붭
뷇
뷈
뷛
뷷
븗
븞
븪
븹
븻
빥
빮
빶
빷
빾
뺅
뺒
뺓
뺛
뺠
뺶
뻙
뻞
뻦
뻪
뼇
뼐
뼠
뼡
뽛
뽞
뽧
뽸
뾥
뾻
뿀
뿉
뿏
뿑
뿘
뿙
뿧
뿯
뿰
쀒
쀫
쀵
쁋
쁎
쁢
삗
삜
삺
샑
샢
샸
섑
섲
섷
셓
셙
솄
솑
솗
솫
쇌
쇘
숡
쉄
쉉
쉏
쉒
슀
슄
슏
슞
슠
슫
싞
싧
쌁
쌇
쌒
쌖
쌛
쌷
쌻
썃
썄
썋
썮
쎂
쎋
쎝
쎡
쎥
쎿
쏏
쏑
쏶
쏻
쏽
쐅
쐣
쐽
쑁
쑞
쑩
쑼
쒄
쒈
쒴
쓀
쓈
쓍
쓑
쓜
쓤
쓷
씋
씥
앩
앻
얩
엝
엞
옑
옱
왛
왣
왷
욙
욟
욡
욢
웋
윋
윧
윲
윿
읁
읟
읧
잟
잢
젗
졥
좈
좠
좬
좸
좹
좼
죸
죻
줈
줓
줮
쥩
즂
즊
즏
즣
즬
즴
짣
짲
짿
쨎
쨨
쩢
쪌
쪰
쫃
쫖
쫣
쬡
쬥
쬷
쬿
쭒
쭟
쭨
쮈
쮕
쯸
찓
찥
찵
찷
챀
챁
챚
챯
첞
첣
첥
촰
촳
쵄
쵬
춝
췜
췸
츺
칞
캵
컭
켇
콙
콛
콻
쾁
쿜
쿧
쿫
쿻
퀨
큗
큨
큳
큾
턋
턑
턚
턷
턹
턻
텓
톋
톗
톙
톽
퇑
툄
툘
툳
툻
퉀
퉭
튮
튺
튻
틆
틐
팯
퍀
펁
펎
펬
펻
폑
퐂
퐃
퐑
퐤
풕
풬
퓟
퓦
픜
픟
픳
픵
핖
핚
핪
핽
햰
햿
헚
헫
헱
헲
홒
홴
횹
훒
훞
휅
휗
휳
힑
힒
힚
갃
갍
갏
갢
갥
갨
갶
갷
걂
걄
걇
걏
걐
걓
걠
걤
걵
걽
걾
걿
겢
겥
겷
곕
곟
곫
곮
괧
괨
괩
괳
괺
괻
괾
굅
굗
굛
굮
굯
굾
궏
궔
궖
궚
궮
궯
궴
궵
궺
귇
귊
귏
귘
귥
귭
귽
긊
긛
긞
긠
긡
긢
긣
긥
긬
깂
깒
깧
깶
꺁
꺋
꺏
꺐
꺡
꺰
껇
껗
껰
껱
껻
꼠
꼣
꼤
꼥
꼵
꼶
꼸
꽏
꽑
꽘
꽙
꽫
꽭
꽯
꽸
꾔
꾕
꾫
뀁
뀓
뀟
뀪
뀱
끑
끜
낐
낤
낧
낿
냟
냫
넁
넟
넿
녵
놬
놶
놸
뇝
뇦
뇯
눂
뉑
늜
늟
늭
닱
댊
댋
댗
댙
댚
댶
댷
덲
덳
덻
덾
뎉
뎏
뎒
뎓
뎗
뎘
뎙
뎢
뎩
뎸
뎹
돊
돍
돏
돣
돫
돽
돿
됃
됓
됗
됢
됤
됧
됯
됱
됺
둈
둛
둭
둳
뒌
뒏
뒐
뒕
뒗
뒘
뒜
뒾
듇
듘
듛
듞
듲
듿
딦
딳
딵
딶
땊
땕
땞
땣
땥
땧
땬
땳
땹
땼
떁
떋
떌
떑
떟
떥
떦
뗉
뗋
뗔
뗗
뗙
뗛
뗝
뗞
뗟
뗨
뗩
뗭
뗳
뗻
똄
똅
똚
똛
똤
똩
똷
뙀
뙌
뙏
뙐
뙒
뙓
뙗
뙘
뙙
뙛
뙥
뙫
뙮
뙱
뙳
뙵
뙷
뙸
뙹
뚆
뚩
뚳
뚴
뚶
뚿
뛀
뛇
뛋
뛓
뛗
뛘
뛜
뛝
뛣
뛤
뛥
뛧
뛨
뛹
뛼
뜍
뜏
뜡
뜫
뜮
뜲
뜴
뜼
띇
띎
띿
랂
랆
랈
랤
랮
랱
럌
럑
럘
럪
럯
럵
럾
렑
렓
렚
렟
렧
렳
롊
롨
롲
롳
롽
뢌
뢓
뢛
뢜
뢤
뢥
뢧
뢯
뢵
뢷
룓
룛
룪
룫
룴
룷
룿
뤃
뤋
뤟
뤯
뤴
뤺
뤻
륃
륔
륝
륞
륟
륡
륰
륿
릁
릈
릑
릟
릡
릦
릮
릱
맖
맪
맭
먃
먅
먍
먙
먪
먳
먵
먻
멃
멇
멒
멠
멯
멶
멹
멺
멻
멽
몍
몜
몝
몡
몣
몦
몮
몷
몺
뫋
뫕
뫗
뫘
뫞
뫨
뫱
뫴
뫵
묃
묈
묚
묡
묦
묬
묱
뭁
뭟
뭦
뭧
뭺
뭽
뭿
뮀
뮁
뮊
뮔
뮙
뮧
뮫
뮯
뮳
뮵
뮶
뮿
믊
믛
믝
믲
믺
밄
밓
밙
뱂
뱆
뱇
뱈
뱋
뱏
뱒
뱚
뱞
뱧
뱬
뱰
뱸
뱺
벇
벉
벊
벒
벢
벪
벯
벷
벻
볅
볆
볒
볨
볩
볳
볷
봂
봢
봭
봳
봵
뵊
뵏
뵑
뵝
뵧
뵲
뵵
뵸
뵻
붃
붣
붥
붬
붵
붷
붿
뷃
뷄
뷌
뷏
뷓
뷟
뷦
뷭
뷵
뷼
븈
븎
븏
븣
븤
빒
빓
빣
빫
빺
뺕
뺝
뺟
뺥
뺦
뺧
뺮
뺳
뺹
뺿
뻕
뻖
뻚
뻛
뻫
뻳
뼞
뼟
뼢
뼦
뼱
뼷
뼹
뽆
뽊
뽒
뽔
뽖
뽙
뽚
뽣
뽷
뽿
뾃
뾄
뾅
뾇
뾘
뾤
뾬
뾹
뿃
뿋
뿒
뿚
뿞
뿥
뿦
뿮
뿷
쀈
쀌
쀎
쀐
쀑
쀜
쀟
쀨
쀬
쀲
쁃
쁅
쁉
쁓
쁕
쁖
쁚
쁣
쁶
쁼
삦
삨
삫
삹
샋
샓
샟
샣
샪
샮
샶
샿
섂
섋
섚
섫
섳
셂
셆
셎
셛
셠
셡
셣
셦
셭
셳
셷
솈
솏
솒
솚
솛
솞
솠
쇇
쇈
쇋
쇕
쇝
쇧
쇰
숁
숃
숎
숓
숕
숚
숥
숦
숪
숬
숵
숻
쉖
쉗
쉙
쉚
쉜
쉟
쉳
쉵
쉻
슂
슓
슯
슰
싊
싓
싘
싟
싩
쌆
쌊
쌎
쌚
쌯
쌺
썔
썗
썝
썱
썳
썴
썷
쎜
쎞
쎟
쎧
쎫
쎰
쎱
쎳
쏍
쏐
쏔
쏚
쏢
쏲
쐄
쐏
쐗
쐘
쐠
쐥
쐩
쐳
쐼
쐿
쑊
쑍
쑏
쑙
쑱
쑽
쑾
쒁
쒂
쒇
쒑
쒣
쒤
쒧
쒬
쒺
쒿
쓓
쓚
쓛
쓥
쓹
씟
씱
씿
앃
앇
앦
앲
앷
앹
얟
얨
얰
엕
엟
엦
옏
옓
옟
왖
왧
왿
욂
욒
욚
욦
욫
욳
욵
욻
웂
웎
웖
웞
웫
웯
웴
웼
윂
윎
윓
윚
윪
윮
윺
읤
읦
잜
잲
잳
쟄
쟏
쟗
쟢
쟥
쟴
젂
젉
젒
젟
젨
젮
젲
젺
젿
졁
졂
졓
졵
졺
좒
좥
좧
좩
좯
좰
좻
죅
죋
죥
죱
줋
줕
줛
줟
줦
줨
줩
줳
줻
쥻
즒
즔
즡
즵
즷
짏
짡
짨
짩
짺
쨏
쨚
쨢
쩎
쩒
쩓
쩘
쩛
쩯
쩱
쪁
쪅
쪔
쪱
쪳
쪵
쫅
쫆
쫋
쫔
쫟
쫠
쫫
쫬
쬑
쬗
쬣
쬧
쭞
쭬
쭯
쭴
쭷
쭹
쮁
쮄
쮇
쮋
쮐
쮑
쮣
쮬
쯇
쯛
쯫
쯬
찃
찅
찲
찳
찺
챋
챛
챝
챣
챲
챶
첚
첛
첢
첦
첪
첱
첳
첻
첿
쳃
쳋
쳒
쳕
쳭
촁
촍
촎
촑
촓
촕
촖
촫
촻
쵁
쵕
쵣
쵰
쵿
춇
춏
춗
춟
춠
춢
춨
춪
춬
춮
췈
췎
췛
췝
췟
췠
췯
츬
츸
츻
츽
칌
칍
칏
칑
칚
칣
칻
캟
캧
캩
컌
켉
켞
켳
켹
콉
콪
쾋
쾓
쾜
쾝
쾟
쾹
쾽
쿏
쿕
쿩
쿪
쿶
쿺
퀃
퀶
퀻
큌
큑
큩
큫
킇
킉
킌
킘
킙
킛
킝
킠
킦
킭
킻
탂
탃
탆
탍
탒
턈
턌
턐
턒
턓
턕
턘
턩
턬
턺
텂
텆
텠
텯
텳
톁
톃
톅
톌
톔
톕
톮
퇍
퇙
퇜
퇣
퇬
퇭
퇻
툅
툔
툡
툣
툫
툯
툶
툷
툸
툹
툺
퉃
퉇
퉉
퉏
퉔
퉘
퉙
퉛
퉠
튎
튔
튘
튙
튟
튦
튲
튳
튵
튶
틁
틄
틇
틕
틥
팄
팒
팕
팗
팚
팮
팿
퍁
퍘
퍚
퍿
펃
펅
펋
펗
펟
펡
폂
폗
폠
폵
퐘
퐠
퐳
푁
푐
푑
푓
푣
푥
푧
푩
푫
푬
푴
푷
푾
풘
풤
풥
풧
퓀
퓁
퓃
퓡
픁
픒
픡
픰
핗
핛
핦
핺
핿
햊
햚
햞
헒
헓
헢
헺
헽
혂
혅
혇
혉
혍
혒
혻
혽
혾
홂
홄
홎
홠
홦
홪
홬
홳
홷
홸
횀
횓
횜
횯
횾
훇
훩
훴
훸
휌
휍
휟
휢
휪
휬
휰
휱
휺
휻
휽
흃
흅
흊
흍
흎
흓
흕
흖
흞
흪
힇
힍
갆
갎
갟
갡
갧
갩
갪
갫
갳
갺
갻
갽
갾
걃
걅
걆
걊
걎
걒
걖
걗
걙
걚
걛
걝
걞
걟
걡
걢
걣
걦
걧
걨
걪
걫
걬
걭
걮
걯
걶
걻
겏
겑
겒
겣
겫
겭
겮
겲
곆
곇
곉
곊
곋
곔
곚
곛
곜
곝
곞
곢
곣
곥
곦
곭
곴
곾
곿
괁
괂
괅
괇
괈
괋
괗
괟
괢
괥
괦
괪
괮
괯
괰
괶
괷
괹
괽
괿
굀
굁
굂
굃
굆
굊
굋
굌
굍
굎
굏
굒
굓
굕
굖
굙
굚
굜
굝
굞
굟
굢
굤
굦
굧
굨
굩
굪
굫
굱
굲
굹
굺
궊
궍
궎
궑
궒
궓
궕
궗
궟
궠
궡
궣
궦
궧
궩
궪
궰
궱
궲
궽
궾
궿
귂
귃
귅
귆
귉
귋
귌
귎
귒
귗
귙
귞
귟
귢
귣
귦
귧
귩
귵
귶
귷
긅
긆
긖
긗
긙
긚
긝
긟
긦
긨
긪
긫
긭
긯
긳
긵
긻
긽
긾
깖
깗
깘
깙
깚
깯
깱
깲
깴
깵
깷
깾
깿
꺂
꺇
꺉
꺊
꺎
꺑
꺓
꺚
꺛
꺜
꺝
꺞
꺟
꺣
꺥
꺦
꺧
꺩
꺪
꺫
꺬
꺭
꺮
꺯
껂
껓
껕
껖
껟
껦
껧
껪
껮
껯
껲
껳
껷
껹
껺
껽
껾
껿
꼀
꼁
꼂
꼃
꼑
꼔
꼗
꼙
꼚
꼛
꼜
꼝
꼞
꼟
꼡
꼢
꼦
꼧
꼨
꼩
꼪
꼫
꼷
꼹
꽒
꽓
꽔
꽕
꽖
꽗
꽚
꽞
꽟
꽠
꽡
꽢
꽧
꽩
꽪
꽮
꽰
꽱
꽲
꽳
꽴
꽵
꾇
꾓
꾠
꾣
꾤
꾥
꾩
꾬
꾲
꾳
꾴
꾺
꿁
꿅
꿆
꿐
꿛
꿤
꿲
꿷
뀂
뀃
뀢
뀸
뀹
끏
끚
끧
끫
끰
끳
낃
낕
낗
낦
낶
냀
냃
냊
냌
냎
냗
냛
냦
냴
넍
넎
넔
넧
녆
녙
녚
녣
녭
녱
녻
녾
놁
놃
놅
놇
놊
놗
놛
놟
놠
놡
놢
놣
놦
놪
놫
놭
놮
놱
놲
놳
놵
놷
놹
놺
놻
놼
놽
놾
놿
뇀
뇁
뇂
뇃
뇅
뇆
뇇
뇈
뇉
뇊
뇋
뇎
뇓
뇖
뇗
뇘
뇙
뇚
뇛
뇞
뇢
뇣
뇤
뇥
뇧
뇪
뇫
뇭
뇮
뇱
뇲
뇳
뇴
뇵
뇶
뇷
뇾
눀
눁
눍
눐
눓
눚
눛
눡
눧
눰
눱
눵
눶
뉃
뉄
뉇
뉌
뉐
뉔
뉟
뉯
뉻
뉽
늊
늋
늎
늓
늛
늝
늞
늢
늤
늳
늽
닀
닍
닓
닔
닚
닩
댂
댃
댅
댆
댉
댌
댍
댎
댏
댒
댞
댟
댡
댢
댣
댨
댩
댪
댫
댮
댰
댲
댳
댴
댵
댹
댺
댻
댽
댾
댿
덁
덂
덃
덄
덅
덆
덇
덈
덉
덊
덋
덎
덏
덐
덑
덒
덓
덚
덡
덵
덶
덹
덺
덼
덽
뎇
뎎
뎑
뎕
뎖
뎚
뎛
뎞
뎣
뎤
뎥
뎪
뎫
뎭
뎮
뎯
뎱
뎲
뎳
뎴
뎵
뎶
뎷
뎺
뎼
뎾
뎿
돀
돁
돂
돃
돉
돑
돢
돥
돦
돪
돬
돭
돮
돯
돲
돷
돸
돹
돺
돻
돾
됁
됂
됅
됆
됇
됉
됊
됋
됎
됔
됕
됖
됚
됛
됝
됞
됡
됣
됥
됦
됪
됮
됲
됳
됶
됷
됹
됽
됾
됿
둀
둁
둂
둆
둊
둋
둌
둎
둒
둓
둕
둖
둜
둝
둞
둢
둤
둦
둧
둨
둮
둯
둱
둲
둵
둶
둷
둸
둹
둺
둻
둾
뒂
뒃
뒄
뒅
뒆
뒇
뒊
뒋
뒍
뒎
뒒
뒔
뒖
뒚
뒞
뒟
뒠
뒡
뒢
뒣
뒦
뒧
뒩
뒪
뒭
뒮
뒯
뒰
뒱
뒲
뒳
뒶
뒻
뒼
뒽
듂
듃
듅
듆
듉
듊
듋
듌
듍
듎
듏
듒
듔
듖
듗
듙
듚
듡
듢
듩
듪
듺
듻
듽
듾
딁
딂
딃
딄
딅
딆
딇
딊
딌
딎
딏
딐
딑
딒
딓
딖
딗
딙
딞
딟
딠
딡
딢
딣
딼
딽
딾
땂
땆
땉
땏
땑
땒
땖
땘
땙
땚
땢
땤
땦
땪
땫
땭
땮
땯
땱
땲
땴
땵
땶
땷
땸
땺
땾
땿
떀
떂
떃
떆
떇
떉
떊
떍
떎
떏
떐
떒
떓
떕
떖
떚
떛
떜
떝
떞
떩
떬
떮
떲
떶
떸
떹
떺
떾
떿
뗁
뗂
뗅
뗇
뗈
뗊
뗎
뗒
뗓
뗕
뗖
뗚
뗢
뗤
뗥
뗦
뗧
뗪
뗮
뗯
뗰
뗱
뗲
뗷
뗹
뗺
뗽
똀
똁
똂
똃
똆
똉
똊
똋
똌
똍
똎
똓
똕
똖
똜
똞
똢
똦
똨
똪
똮
똯
똱
똲
똳
똶
똸
똹
똺
똼
똾
뙂
뙃
뙄
뙅
뙆
뙊
뙋
뙎
뙑
뙔
뙕
뙖
뙚
뙝
뙞
뙟
뙠
뙢
뙣
뙦
뙧
뙩
뙪
뙯
뙰
뙲
뙶
뙺
뙻
뙼
뙽
뙾
뙿
뚃
뚅
뚇
뚈
뚉
뚋
뚌
뚍
뚎
뚏
뚑
뚒
뚓
뚖
뚗
뚘
뚙
뚚
뚛
뚟
뚡
뚨
뚪
뚰
뚲
뚹
뚺
뚻
뚽
뚾
뛄
뛅
뛆
뛊
뛍
뛎
뛏
뛐
뛑
뛒
뛕
뛖
뛙
뛚
뛞
뛠
뛡
뛢
뛦
뛪
뛫
뛬
뛭
뛮
뛱
뛲
뛳
뛵
뛶
뛺
뛽
뛾
뛿
뜂
뜆
뜇
뜈
뜉
뜊
뜋
뜎
뜑
뜒
뜓
뜕
뜖
뜗
뜘
뜙
뜚
뜞
뜟
뜠
뜢
뜣
뜤
뜥
뜦
뜧
뜪
뜭
뜱
뜶
뜺
뜿
띀
띂
띆
띉
띊
띋
띍
띏
띐
띑
띒
띓
띖
띗
띘
띚
띛
띜
띝
띞
띟
띢
띣
띥
띦
띩
띪
띫
띬
띭
띮
띲
띴
띶
띷
띸
띹
띺
랁
랇
랉
랊
랚
랛
랡
랢
랥
랦
랧
랪
랯
랶
랷
랹
랺
랽
랾
랿
럀
럁
럃
럆
럊
럋
럎
럏
럒
럓
럕
럖
럗
럙
럚
럛
럜
럝
럞
럟
럠
럡
럢
럥
럦
럧
럨
럩
럫
럱
럹
럺
렃
렅
렊
렋
렍
렎
렒
렔
렕
렖
렗
렩
렪
렭
렮
렯
렱
렲
렶
렻
렽
롂
롃
롅
롆
롉
롋
롌
롍
롎
롏
롒
롔
롖
롗
롘
롙
롚
롛
롞
롟
롡
롢
롦
롧
롩
롪
롰
롺
롾
롿
뢁
뢂
뢅
뢆
뢊
뢎
뢏
뢑
뢒
뢕
뢖
뢗
뢙
뢚
뢝
뢞
뢟
뢠
뢡
뢢
뢣
뢦
뢩
뢪
뢫
뢬
뢭
뢮
뢲
뢳
뢶
뢹
뢺
뢻
뢼
뢽
뢾
뢿
룂
룆
룇
룈
룉
룊
룋
룎
룏
룑
룒
룕
룖
룗
룘
룙
룚
룞
룠
룢
룣
룤
룦
룧
룭
룮
룲
룵
룶
룼
룾
뤆
뤇
뤉
뤊
뤍
뤎
뤏
뤐
뤑
뤒
뤓
뤖
뤚
뤛
뤜
뤝
뤞
뤢
뤣
뤥
뤦
뤧
뤪
뤫
뤬
뤭
뤮
뤲
뤶
뤷
뤸
뤹
뤾
뤿
륁
륂
륅
륆
륇
륈
륉
륊
륋
륎
륒
륓
륕
륖
륗
륚
륛
륢
륣
륤
륥
륦
륪
륬
륯
륱
륲
륹
륺
릂
릒
릓
릕
릖
릗
릙
릚
릛
릜
릝
릢
릤
릧
릨
릩
릪
릫
릲
릶
릷
릸
릹
릺
릻
맦
맧
맩
맯
맰
맱
맲
맳
맶
맿
먂
먇
먉
먊
먋
먌
먎
먒
먔
먝
먞
먟
먠
먡
먢
먣
먤
먥
먦
먧
먨
먩
먬
먭
먮
먰
먱
먲
먴
먶
먷
멄
멆
멖
멗
멙
멚
멝
멡
멢
멣
멲
멳
멵
멼
멾
멿
몂
몈
몎
몏
몑
몒
몕
몖
몗
몘
몙
몚
몛
몞
몠
몢
몤
몧
몵
몶
뫂
뫆
뫇
뫉
뫊
뫍
뫎
뫏
뫐
뫑
뫒
뫓
뫖
뫛
뫜
뫝
뫡
뫢
뫣
뫥
뫦
뫧
뫩
뫪
뫫
뫬
뫭
뫮
뫯
뫰
뫲
뫳
뫶
뫷
뫸
뫹
뫺
뫻
뫾
뫿
묁
묂
묅
묆
묇
묉
묊
묋
묎
묐
묒
묓
묔
묕
묖
묛
묝
묞
묢
묣
묤
묥
묪
묮
묰
묲
묹
묿
뭂
뭒
뭓
뭕
뭖
뭙
뭚
뭛
뭜
뭝
뭞
뭢
뭪
뭫
뭮
뭯
뭱
뭲
뭳
뭶
뭸
뭹
뭻
뭾
뮂
뮃
뮄
뮅
뮆
뮇
뮋
뮍
뮎
뮏
뮑
뮒
뮓
뮕
뮖
뮗
뮚
뮞
뮟
뮠
뮡
뮢
뮣
뮦
뮩
뮪
뮭
뮮
뮰
뮱
뮲
뮸
뮺
뮼
뮾
믃
믅
믆
믋
믍
믎
믒
믔
믚
믞
믟
믡
믢
믣
믥
믦
믧
믨
믩
믪
믫
믮
믰
믳
믴
믵
믶
믷
밃
밅
밆
밳
밵
밶
밹
밺
밼
밽
밾
밿
뱎
뱑
뱖
뱗
뱘
뱙
뱠
뱢
뱣
뱥
뱪
뱫
뱭
뱮
뱯
뱱
뱲
뱳
뱴
뱵
뱶
뱹
뱻
뱼
뱾
뱿
벀
벁
벂
벃
벣
벥
벦
벬
벭
벮
벶
벺
벿
볁
볂
볇
볉
볊
볖
볗
볚
볛
볝
볞
볡
볢
볣
볤
볥
볦
볧
볪
볬
볮
볯
볰
볲
볺
봓
봕
봖
봚
봛
봜
봝
봞
봟
봦
봧
봩
봪
봮
봯
봱
봲
봶
봷
봸
봹
봺
봻
봼
봾
봿
뵁
뵂
뵃
뵄
뵅
뵆
뵇
뵋
뵍
뵎
뵒
뵓
뵔
뵕
뵖
뵗
뵚
뵞
뵟
뵠
뵡
뵢
뵣
뵦
뵩
뵪
뵮
뵯
뵰
뵱
뵺
뵼
뵾
뵿
붅
붔
붞
붟
붡
붢
붦
붧
붨
붩
붪
붫
붮
붲
붳
붶
붺
붻
붽
붾
뷂
뷅
뷆
뷊
뷎
뷐
뷒
뷖
뷗
뷙
뷚
뷝
뷞
뷠
뷡
뷢
뷣
뷨
뷪
뷬
뷯
뷲
뷳
뷶
뷺
뷻
뷽
뷾
뷿
븂
븄
븆
븇
븊
븋
븑
븒
븖
븙
븚
븢
븦
븫
븭
븮
븯
븱
븲
븳
븴
븵
븶
븷
븺
븼
븾
븿
빀
빁
빃
빇
빉
빊
빐
빑
빦
빬
빭
빯
빲
빿
뺁
뺂
뺆
뺇
뺈
뺉
뺊
뺋
뺎
뺖
뺗
뺞
뺢
뺤
뺪
뺬
뺯
뺰
뺱
뺲
뺺
뺻
뺽
뺾
뻀
뻁
뻂
뻃
뻅
뻊
뻋
뻌
뻍
뻎
뻏
뻓
뻜
뻝
뻧
뻮
뻯
뻱
뻲
뻵
뻶
뻷
뻸
뻹
뻺
뻻
뻾
뼀
뼂
뼃
뼄
뼅
뼆
뼊
뼋
뼍
뼎
뼑
뼒
뼓
뼔
뼕
뼖
뼗
뼚
뼣
뼧
뼨
뼩
뼪
뼫
뼭
뼮
뼯
뼰
뼲
뼳
뼴
뼵
뼶
뼺
뼻
뼼
뼽
뼾
뼿
뽃
뽅
뽉
뽋
뽌
뽍
뽎
뽏
뽗
뽡
뽢
뽦
뽨
뽩
뽪
뽫
뽮
뽯
뽰
뽲
뽳
뽵
뽶
뽹
뽺
뽻
뽼
뽽
뽾
뾀
뾂
뾈
뾉
뾊
뾋
뾌
뾍
뾎
뾏
뾐
뾑
뾒
뾓
뾕
뾖
뾗
뾙
뾚
뾛
뾜
뾝
뾞
뾟
뾠
뾡
뾢
뾣
뾦
뾧
뾨
뾩
뾪
뾫
뾭
뾮
뾯
뾳
뾵
뾶
뾷
뾺
뾽
뾾
뾿
뿂
뿄
뿆
뿇
뿈
뿊
뿖
뿢
뿣
뿤
뿪
뿫
뿬
뿭
뿱
뿲
뿳
뿴
뿵
뿶
뿸
뿹
뿺
뿻
뿼
뿽
뿾
뿿
쀀
쀁
쀂
쀃
쀅
쀆
쀇
쀉
쀊
쀋
쀔
쀕
쀖
쀗
쀘
쀙
쀚
쀛
쀝
쀞
쀢
쀣
쀤
쀥
쀦
쀧
쀩
쀪
쀭
쀮
쀯
쀰
쀱
쀴
쀶
쀷
쀸
쀹
쀺
쀻
쀿
쁁
쁂
쁆
쁇
쁈
쁊
쁒
쁔
쁗
쁛
쁝
쁞
쁡
쁤
쁦
쁧
쁪
쁬
쁮
쁯
쁰
쁱
쁵
쁽
삂
삇
삚
삞
삟
삢
삩
삪
샍
샎
샔
샕
샖
샗
샚
샞
샡
샦
샧
샩
샯
샰
샱
샲
샳
샺
샽
섃
섅
섆
섇
섉
섌
섍
섎
섏
섒
섓
섔
섖
섗
섘
섙
섛
섩
섽
섾
셁
셃
셄
셅
셇
셏
셚
셝
셞
셢
셪
셫
셬
셮
셯
셲
셵
셶
셹
셺
셻
셼
셽
셾
셿
솂
솆
솇
솉
솋
솙
솪
솭
솮
솯
솱
솲
솳
솴
솵
솶
솷
솺
솾
솿
쇁
쇂
쇃
쇆
쇉
쇊
쇍
쇎
쇏
쇐
쇑
쇒
쇓
쇔
쇖
쇗
쇚
쇛
쇜
쇞
쇟
쇢
쇣
쇥
쇦
쇩
쇪
쇫
쇬
쇭
쇮
쇯
쇲
쇶
쇷
쇸
쇹
쇺
쇻
쇾
쇿
숂
숅
숆
숇
숈
숉
숊
숋
숐
숒
숗
숢
숶
숷
숹
숺
숽
숾
숿
쉀
쉁
쉂
쉃
쉆
쉊
쉋
쉌
쉍
쉎
쉓
쉕
쉝
쉞
쉢
쉦
쉧
쉫
쉮
쉯
쉱
쉲
쉶
쉷
쉸
쉹
쉺
쉾
슃
슇
슊
슋
슍
슎
슑
슒
슔
슕
슖
슗
슚
슜
슣
슩
슪
슱
싂
싃
싅
싆
싇
싉
싋
싌
싍
싎
싏
싒
싔
싖
싗
싙
싚
싛
싡
쌃
쌄
쌅
쌗
쌝
쌠
쌡
쌢
쌣
쌦
쌪
쌫
쌬
쌭
쌮
쌲
쌳
쌶
쌹
쌼
쌽
쌾
쌿
썂
썆
썇
썈
썉
썊
썏
썑
썒
썓
썕
썘
썙
썚
썞
썟
썠
썢
썣
썤
썥
썦
썧
썵
썶
썺
썾
썿
쎁
쎇
쎉
쎊
쎍
쎎
쎏
쎐
쎑
쎒
쎓
쎖
쎚
쎛
쎢
쎣
쎦
쎩
쎪
쎬
쎭
쎮
쎯
쎲
쎶
쎷
쎸
쎹
쎺
쎻
쏁
쏂
쏃
쏅
쏆
쏇
쏈
쏊
쏋
쏎
쏒
쏓
쏕
쏖
쏛
쏞
쏡
쏣
쏤
쏥
쏦
쏧
쏪
쏬
쏮
쏯
쏰
쏷
쏹
쏺
쏾
쏿
쐀
쐁
쐂
쐃
쐆
쐊
쐋
쐌
쐍
쐎
쐒
쐓
쐕
쐖
쐚
쐛
쐜
쐝
쐞
쐟
쐡
쐢
쐦
쐧
쐨
쐪
쐫
쐮
쐯
쐱
쐲
쐵
쐶
쐷
쐸
쐹
쐺
쐻
쐾
쑂
쑃
쑄
쑅
쑆
쑇
쑋
쑎
쑑
쑒
쑓
쑔
쑕
쑖
쑗
쑚
쑜
쑠
쑡
쑢
쑣
쑧
쑪
쑭
쑮
쑯
쑰
쑲
쑳
쑶
쑸
쑺
쑿
쒃
쒅
쒆
쒉
쒊
쒋
쒌
쒍
쒎
쒏
쒒
쒖
쒗
쒘
쒙
쒚
쒛
쒟
쒡
쒢
쒥
쒦
쒨
쒪
쒫
쒮
쒲
쒳
쒵
쒶
쒷
쒻
쒽
쒾
쓁
쓂
쓃
쓄
쓅
쓆
쓇
쓊
쓌
쓎
쓏
쓐
쓒
쓖
쓗
쓙
쓝
쓞
쓟
쓠
쓡
쓢
쓣
쓦
쓨
쓪
쓫
쓬
쓭
쓮
쓯
쓳
쓵
쓶
쓻
쓼
쓽
쓾
씂
씆
씇
씈
씊
씎
씏
씑
씒
씓
씕
씖
씗
씘
씙
씚
씛
씞
씠
씢
씣
씦
씧
씫
씭
씮
씲
씳
씴
씵
씶
씷
씾
앁
앂
앣
앥
앪
앬
앭
앮
앯
앿
얁
얈
얓
얚
얛
얝
얞
얡
얢
얣
얤
얥
얦
얧
얪
얮
얯
얱
얲
얳
엀
엁
엂
엖
엚
엛
엢
엧
엲
옊
옋
옍
옎
옔
옕
옖
옗
옚
옢
옣
옩
왃
왅
왆
왊
왋
왌
왍
왎
왏
왗
왞
왟
왡
왢
왥
왦
왨
왩
왪
왫
왮
왲
왳
왴
왵
왶
왺
왻
왽
왾
욁
욃
욄
욅
욆
욇
욊
욎
욏
욐
욑
욓
욖
욗
욞
욠
욪
욶
욽
웏
웑
웘
웙
웢
웣
웪
웭
웮
웲
웵
웶
웺
웾
웿
윃
윆
윇
윉
윊
윍
윏
윐
윑
윒
윖
윛
윣
윥
윦
윩
윫
윬
윭
윯
윴
읚
읛
읝
읞
읡
읢
읣
읥
읬
읮
읯
읱
읲
읳
잁
잝
잮
잯
잱
잵
잶
쟅
쟇
쟑
쟔
쟟
쟫
쟵
쟷
쟸
쟻
젃
젅
젘
젣
젻
졃
졇
졏
졑
졒
졕
졬
졲
졽
졾
졿
좓
좕
좦
좪
좫
좭
좮
좱
좲
좳
좴
좵
좶
좷
좺
좾
좿
죀
죁
죂
죃
죆
죇
죉
죊
죍
죎
죏
죐
죑
죒
죓
죖
죚
죛
죜
죝
죞
죟
죣
죷
줊
줎
줔
줖
줚
줝
줞
줡
줢
줣
줤
줥
줧
줪
줯
줰
줱
줲
줶
줷
줹
줺
줽
줾
줿
쥀
쥁
쥂
쥃
쥆
쥮
쥱
쥲
쥳
쥵
쥶
쥷
쥸
쥹
쥺
쥾
즀
즃
즄
즅
즆
즇
즋
즍
즎
즓
즕
즖
즗
즚
즜
즟
즢
즦
즧
즩
즪
즫
즭
즮
즯
짎
짟
짳
짵
짶
짻
짽
짾
쨁
쨂
쨃
쨄
쨅
쨆
쨇
쨊
쨐
쨑
쨒
쨓
쨗
쨙
쨛
쨝
쨞
쨠
쨡
쨣
쨭
쨱
쨸
쨻
쩁
쩇
쩈
쩉
쩊
쩋
쩏
쩑
쩕
쩙
쩚
쩞
쩣
쩤
쩥
쩦
쩪
쩫
쩭
쩮
쩲
쩳
쩴
쩵
쩶
쩷
쩺
쩾
쩿
쪀
쪂
쪃
쪆
쪋
쪕
쪡
쪩
쪪
쪫
쪬
쪭
쪮
쪯
쪲
쪴
쪶
쪷
쪸
쪹
쪺
쪻
쪿
쫁
쫂
쫇
쫈
쫉
쫊
쫎
쫐
쫕
쫚
쫛
쫝
쫞
쫡
쫢
쫤
쫥
쫦
쫧
쫨
쫰
쫵
쫸
쫻
쫼
쬋
쬌
쬍
쬎
쬏
쬒
쬓
쬕
쬖
쬙
쬚
쬛
쬜
쬝
쬞
쬟
쬢
쬦
쬨
쬩
쬪
쬫
쬮
쬯
쬱
쬳
쬵
쬶
쬸
쬹
쬺
쬻
쬾
쭄
쭏
쭓
쭥
쭫
쭭
쭮
쭰
쭱
쭲
쭳
쭶
쭺
쭻
쭼
쭽
쭾
쭿
쮂
쮃
쮅
쮆
쮉
쮊
쮌
쮍
쮎
쮏
쮒
쮔
쮖
쮗
쮘
쮙
쮚
쮛
쮞
쮟
쮡
쮢
쮤
쮭
쮯
쮱
쮼
쯅
쯆
쯊
쯌
쯎
쯏
쯐
쯑
쯒
쯓
쯖
쯗
쯙
쯚
쯝
쯞
쯟
쯠
쯡
쯢
쯣
쯦
쯨
쯭
쯮
쯯
쯲
쯳
쯵
쯶
쯷
쯹
쯺
쯻
쯼
찀
찁
찆
찖
찗
찛
찤
찪
찶
챆
챇
챉
챊
챍
챎
챏
챐
챑
챒
챓
챖
챜
챟
챢
챥
챧
챩
챪
챫
챬
챭
챮
챴
챹
챻
챽
첄
첌
첐
첑
첔
첕
첖
첗
첝
첤
첶
첷
첹
첺
첽
첾
쳀
쳁
쳂
쳆
쳊
쳍
쳎
쳏
쳓
쳖
쳙
쳚
쳧
쳫
쳽
쳾
촀
촂
촃
촄
촅
촆
촇
촋
촔
촗
촚
촜
촦
촧
촩
촪
촭
촮
촯
촱
촲
촶
촸
촺
촼
촽
쵓
쵔
쵡
쵢
쵥
쵦
쵧
쵨
쵩
쵪
쵫
쵲
쵳
쵴
쵵
쵶
쵺
쵻
쵽
쵾
춁
춂
춃
춄
춅
춆
춊
춌
춎
춐
춑
춒
춓
춖
춙
춚
춞
춡
춦
춯
춷
췀
췆
췇
췉
췊
췋
췏
췑
췒
췓
췕
췖
췗
췘
췙
췚
췞
췢
췣
췥
췦
췧
췪
췫
췭
췮
췱
췲
췳
췴
췵
췶
췷
췺
췾
췿
츁
츂
츆
츎
츚
츞
츧
츭
츮
츯
츲
츴
츶
츹
츾
츿
칁
칂
칃
칅
칆
칇
칈
칉
칊
칋
칎
칐
칒
칓
칔
칕
칖
칗
칛
칝
칤
칥
칦
칧
칪
칳
캃
캊
캗
캚
캛
캝
캞
캦
캨
캫
캮
캯
캱
캲
캳
캶
캷
캸
캹
캺
캻
캾
컀
컂
컃
컅
컆
컇
컉
컊
컋
컍
컎
컏
컐
컑
컒
컓
컔
컕
컘
컛
컻
켂
켃
켅
켆
켊
켋
켌
켍
켎
켏
켒
켖
켗
켛
켟
켡
켢
켥
켦
켧
켨
켩
켪
켫
켲
켴
켵
켶
켷
켺
켻
켽
켾
켿
콁
콂
콃
콄
콈
콋
콌
콍
콣
콲
콳
콵
콶
콷
콹
콺
콼
콽
콾
콿
쾂
쾄
쾆
쾇
쾉
쾊
쾎
쾏
쾑
쾒
쾕
쾖
쾗
쾘
쾙
쾚
쾛
쾞
쾠
쾢
쾣
쾤
쾥
쾦
쾧
쾸
쿅
쿍
쿎
쿐
쿑
쿒
쿓
쿖
쿘
쿚
쿛
쿝
쿞
쿟
쿢
쿣
쿥
쿦
쿬
쿮
쿯
쿲
쿴
쿷
쿾
쿿
퀁
퀂
퀅
퀆
퀇
퀈
퀉
퀊
퀐
퀡
퀩
퀬
퀮
퀯
퀰
퀱
퀲
퀳
퀷
퀹
퀺
퀽
퀾
퀿
큀
큁
큂
큃
큆
큈
큊
큋
큍
큎
큏
큒
큓
큕
큖
큙
큚
큛
큜
큝
큞
큢
큤
큦
큧
큯
큱
큲
큶
큺
킆
킕
킖
킗
킚
킜
킞
킟
킡
킢
킣
킧
킩
킪
킮
킯
킰
킱
킲
킶
킺
킿
탅
탋
탌
탎
탢
탥
탺
탿
턁
턅
턆
턇
턊
턎
턏
턖
턗
턙
턛
턜
턝
턞
턟
턠
턡
턢
턣
턤
턥
턦
턧
턨
턪
턫
턭
턮
턯
턲
턳
턵
턶
턼
턽
턾
텇
텈
텗
텞
텣
텪
텮
텱
텲
텴
텵
텶
텷
텺
텾
텿
톀
톂
톆
톇
톉
톊
톍
톎
톏
톐
톑
톒
톓
톖
톘
톚
톛
톜
톝
톞
톟
톣
톥
톦
톶
톷
톻
퇌
퇏
퇐
퇒
퇓
퇔
퇕
퇖
퇚
퇛
퇝
퇞
퇟
퇠
퇡
퇢
퇤
퇥
퇦
퇧
퇨
퇩
퇪
퇮
퇯
퇰
퇱
퇲
퇳
퇶
퇷
퇹
퇺
퇽
퇾
퇿
툀
툁
툂
툃
툆
툈
툒
툓
툝
툩
툪
툮
툱
툲
툾
퉂
퉊
퉋
퉍
퉎
퉑
퉒
퉓
퉕
퉖
퉗
퉚
퉞
퉟
퉡
퉢
퉣
퉦
퉧
퉫
퉬
퉱
퉴
퉵
튇
튍
튏
튒
튖
튗
튚
튛
튞
튡
튢
튣
튥
튧
튨
튩
튪
튫
튰
튴
튷
튾
틃
틅
틌
틎
틏
틒
틓
틠
틻
틼
틽
틾
틿
팆
팇
팋
팑
팘
팙
팞
팢
팪
팫
팭
팱
팲
팳
팴
팵
팶
팷
팺
팾
퍂
퍃
퍆
퍇
퍉
퍐
퍔
퍤
퍪
퍫
퍬
퍭
퍮
퍯
퍰
퍱
퍲
퍳
퍴
퍵
퍶
퍷
퍸
퍹
퍺
퍻
퍾
펂
펆
펇
펈
펉
펊
펒
펓
펚
펛
펝
펞
펢
펣
펤
펥
펦
펧
펪
펮
펹
폃
폙
폚
폛
폜
폝
폞
폟
폡
폢
폤
폦
폧
폨
폩
폪
폫
폱
폲
폶
폷
폸
폹
폺
폻
폾
퐀
퐇
퐊
퐋
퐍
퐎
퐏
퐒
퐓
퐔
퐕
퐖
퐛
퐟
퐸
퐹
퐺
퐻
퐼
퐽
퐾
퐿
푂
푃
푅
푆
푇
푉
푊
푋
푌
푍
푎
푏
푒
푔
푖
푗
푘
푙
푚
푛
푞
푟
푡
푢
푦
푨
푪
푮
푰
푲
풄
풅
풇
풏
풓
풛
풞
풟
풠
풡
풢
풣
풦
풪
풫
풭
풯
풲
풳
풵
풶
풷
풺
풻
풼
풽
퓂
퓄
퓆
퓇
퓈
퓉
퓊
퓋
퓎
퓏
퓑
퓒
퓓
퓕
퓙
퓯
퓳
퓴
퓵
퓾
퓿
픀
픂
픃
픆
픇
픉
픊
픍
픏
픑
픘
픚
픛
픢
픣
픥
픦
픧
픩
픪
픫
픬
픭
픮
픯
픲
픴
픶
픷
픻
핁
핎
핢
핯
핷
핹
핾
햀
햁
햂
햃
햆
햒
햓
햕
햖
햗
햜
햢
햦
햧
햨
햭
햼
헊
헋
헍
헎
헖
헞
헟
헦
헧
헩
헪
헮
헰
헳
헶
헻
혃
혆
혊
혋
혌
혎
혏
혝
혰
홃
홆
홊
홌
홏
홖
홗
홙
홚
홞
홟
홡
홢
홫
홮
홲
홵
홶
홹
홺
홻
홼
홽
홾
홿
횁
횂
횧
횫
횭
횮
횱
횲
횳
횴
횵
횶
횷
횺
횼
횿
훀
훂
훆
훉
훊
훏
훐
훖
훘
훢
훣
훥
훦
훧
훪
훫
훬
훭
훯
휃
휋
휐
휔
휕
휖
휚
휛
휝
휞
휡
휣
휤
휥
휦
휧
휮
휯
휲
휶
휷
휹
휾
휿
흀
흁
흂
흆
흈
흋
흌
흏
흚
흛
흜
흢
흧
흳
힄
힋
힎
힓
힔
힕
힖
힞
힟
힢
겖
겗
겘
겙
겚
겛
겵
겶
겺
곍
곎
곏
곐
곑
곒
곓
괉
괊
괎
괒
괓
괔
괕
괖
괚
괛
괝
괡
괣
괤
괲
궀
귫
귮
귰
귲
귳
귴
깦
깫
깭
깮
꺒
꺖
꺱
꺲
꺳
꺶
꺷
꺸
꺹
꺺
꺻
꺿
껁
껅
껆
껈
껉
껊
껋
껎
껔
껛
껝
껞
껡
껢
껣
껤
껥
꼆
꼊
꼋
꼌
꼎
꼏
꼒
꼓
꼕
꼖
꼘
꼺
꼾
꽀
꽄
꽋
꽍
꽎
꽶
꽷
꽺
꽻
꽼
꽽
꽾
꽿
꾂
꾃
꾅
꾆
꾉
꾊
꾋
꾌
꾍
꾎
꾏
꾒
꾖
꾗
꾘
꾙
꾚
꾛
꾝
꾞
꾟
꾡
꾢
꾦
꾧
꾨
꾪
꾮
꾯
꾰
꾵
꾶
꾷
꾻
꾽
꿄
꿊
꿌
꿒
꿓
꿖
꿗
꿙
꿚
꿞
꿟
꿠
꿡
꿢
꿣
꿦
꿪
꿫
꿬
꿭
꿮
꿳
꿵
꿶
꿹
꿺
꿼
꿽
꿾
뀆
뀇
뀈
뀉
뀊
뀋
뀎
뀏
뀑
뀒
뀕
뀖
뀗
뀘
뀚
뀛
뀞
뀣
뀤
뀥
뀦
뀧
뀫
뀭
뀮
뀯
뀲
뀳
뀴
뀶
뀷
뀺
뀼
뀾
뀿
끀
끁
끂
끃
끇
끐
끒
끖
끘
끞
끢
끣
끥
끦
끩
끪
끬
끭
끮
끯
끱
끲
끴
끶
끷
끸
끹
끺
끻
끿
낁
낂
낅
낆
낇
낈
낉
낊
낎
낒
낓
낖
낝
낥
낷
낹
낺
낽
낾
냁
냂
냆
냋
냍
냒
냓
냕
냖
냚
냜
냝
냞
냢
냧
냪
냭
냮
냯
냰
냱
냲
냳
냵
냶
냷
냸
냹
냺
냻
냼
냽
냾
냿
넂
넃
넄
넅
넆
넇
넕
넦
넩
넪
넭
넮
넯
넰
넱
넲
넳
넶
넺
넻
녅
녉
녊
녌
녍
녎
녏
녒
녖
녗
녞
녟
녡
녢
녥
녦
녧
녨
녩
녪
녫
녮
녰
녲
녳
녴
녶
녷
녽
놄
놆
놌
놖
놙
놚
놝
뇏
뇑
뇒
뇕
뇺
뇼
뇿
눃
눆
눇
눉
눊
눎
눏
눑
눒
눖
눘
눢
눣
눥
눦
눩
눪
눫
눬
눭
눮
눯
눲
눷
눸
눹
눺
눻
눾
눿
뉁
뉂
뉅
뉆
뉈
뉉
뉊
뉋
뉎
뉒
뉓
뉕
뉖
뉗
뉚
뉛
뉝
뉞
뉡
뉢
뉣
뉤
뉥
뉦
뉧
뉪
뉬
뉮
뉰
뉱
뉲
뉳
뉶
뉷
뉹
뉺
뉾
뉿
늀
늁
늂
늃
늆
늈
늌
늍
늏
늮
늯
늱
늲
늵
늶
늷
늸
늹
늺
늻
늾
닂
닃
닄
닅
닆
닇
닋
닎
닕
닖
닗
둃
딚
딝
뗾
뗿
뛁
뛂
랝
랞
뢃
뢄
멅
묧
뷑
뺷
뾁
쁲
쁳
쁷
쁸
쁹
쁺
쁻
쁾
쁿
삀
삁
삃
삄
삅
삆
삈
삉
삊
삋
삌
삍
삎
삏
삓
삕
삖
삙
삛
숣
쌏
쏗
쒩
잷
잸
잹
잺
잻
잾
쟊
쟋
쟍
쟒
쟓
쟕
쟖
쟚
쟡
쟦
쟧
쟩
쟪
쟭
쟮
쟯
쟰
쟱
쟲
쟳
쟶
쟺
쟼
쟽
쟾
쟿
젌
젍
젎
젞
젡
젢
젥
젦
젩
젪
젫
젳
젷
젽
젾
졄
졅
졆
졊
졖
졗
졙
졚
졛
졝
졞
졟
졠
졡
졢
졣
졦
졨
졪
졫
졭
졮
졯
졳
졶
졹
졻
졼
좎
좏
좑
좖
좗
좘
좙
좚
좛
좞
좣
좤
죦
죩
죪
죫
죬
죭
죮
죯
죲
죴
죺
죾
죿
줁
줂
줇
줉
쥊
쥋
쥍
쥎
쥏
쥒
쥓
쥕
쥖
쥙
쥚
쥛
쥜
쥝
쥞
쥟
쥢
쥦
쥧
쥨
쥪
쥫
쥯
즰
즱
즲
즳
즶
즸
즺
즻
즼
즽
즾
즿
짃
짅
짉
짌
짍
쨦
쨪
쨫
쨬
쨮
쨯
쨲
쨳
쨵
쨶
쨷
쨹
쨺
쨼
쨽
쨾
쨿
쩀
쩂
쩆
쪇
쪉
쪊
쪍
쪎
쪏
쪐
쪑
쪒
쪓
쪖
쪚
쪛
쪜
쪝
쪞
쪟
쪢
쪣
쪥
쪦
쪧
쫪
쫮
쫯
쫱
쫲
쫳
쫶
쫷
쫹
쫺
쫽
쫾
쫿
쬀
쬁
쬂
쬃
쬄
쬅
쬆
쬇
쬉
쬊
쭅
쭆
쭇
쭋
쭍
쭎
쭑
쭔
쭕
쭖
쭗
쭚
쭜
쭠
쭡
쭢
쭣
쭦
쭧
쭩
쭪
쮥
쮦
쮧
쮨
쮩
쮪
쮫
쮮
쮰
쮲
쮳
쮴
쮵
쮶
쮷
쮺
쮻
쮽
쮾
쮿
쯁
쯂
쯃
쯄
쯽
쯾
쯿
찂
찄
찇
찈
찉
찊
찋
찏
찑
찒
찕
찘
찙
찚
찞
찠
챾
챿
첀
첁
첂
첃
첆
첇
첈
첉
첊
첋
첍
첎
첏
첒
첓
쳛
쳜
쳝
쳞
쳟
쳢
쳦
쳨
쳩
쳪
쳮
쳯
쳱
쳲
쳳
쳵
쳶
쳷
쳸
쳹
쳺
쳻
촿
쵂
쵃
쵅
쵆
쵈
쵉
쵊
쵋
쵌
쵍
쵎
쵏
쵐
쵑
쵒
쵖
쵗
쵘
쵙
쵚
쵛
쵞
쵟
춲
춳
춵
춶
춹
춺
춻
춼
춽
춾
춿
췂
츃
츇
츉
츊
츋
츍
츏
츐
츑
츒
츓
츖
츘
츛
츜
츝
츟
츢
츣
츥
츦
츪
츫
칱
칶
칷
칹
칺
칾
칿
캀
캁
캂
캒
캓
캕
캖
캙
컖
컗
컙
컚
컜
컝
컞
컟
컠
컡
컢
컣
컦
컧
컩
컪
컮
컯
컰
컱
컲
컳
컺
콅
콆
콇
콊
콎
콏
콐
콑
콒
콓
콖
콗
콚
콝
콞
콟
콠
콡
콢
콨
쾪
쾫
쾭
쾮
쾯
쾱
쾲
쾳
쾴
쾵
쾶
쾷
쾺
쾼
쾾
쾿
쿀
쿁
쿂
쿃
쿆
쿇
쿉
쿊
쿋
퀋
퀎
퀒
퀓
퀔
퀕
퀖
퀗
퀚
퀛
퀝
퀞
퀟
퀢
퀣
퀤
퀥
퀦
퀪
큵
큷
큸
큹
킀
킂
킃
킊
킋
킍
킎
킏
킑
킒
킓
킔
탛
탞
탟
탡
탦
탧
탨
탩
탪
탫
탮
탲
탳
탴
탷
탻
탽
탾
턂
턃
턄
턿
텎
텏
텑
텒
텕
텖
텘
텙
텚
텛
텢
텧
텫
텭
톪
톫
톬
톭
톯
톴
톾
톿
퇁
퇂
퇃
퇅
퇆
퇇
퇈
퇉
퇊
퇋
퇎
툊
툋
툌
툍
툎
툏
툕
툖
툗
툙
툚
툛
툜
툞
툟
툢
툤
툦
툧
툨
퉩
퉪
퉮
퉯
퉰
퉲
퉳
퉶
퉺
퉻
퉼
퉽
퉾
퉿
튂
튃
튅
튆
튉
튊
튋
튌
틖
틗
틙
틚
틛
틝
틞
틟
틡
틢
틣
틦
틨
틪
틫
틬
틭
틮
틯
틲
틳
틵
틶
틹
틺
퍊
퍋
퍍
퍎
퍏
퍑
퍒
퍓
퍖
퍛
퍜
퍞
퍟
퍡
퍢
퍣
퍥
퍦
퍧
퍨
퍩
펯
펱
펳
펶
펷
펺
펽
펾
펿
폀
폁
폆
폊
폋
폌
폍
폎
폏
폒
폓
폖
퐗
퐚
퐜
퐡
퐢
퐣
퐥
퐦
퐧
퐨
퐩
퐪
퐫
퐬
퐭
퐮
퐯
퐰
퐱
퐲
퐴
퐵
퐶
퐷
푳
푵
푶
푺
푻
푽
풁
풃
풆
풊
풌
풎
풖
풗
풙
풚
풝
퓖
퓗
퓘
퓚
퓛
퓞
퓠
퓢
퓣
퓤
퓥
퓧
퓪
퓫
퓭
퓮
퓱
퓲
퓶
퓷
퓺
퓼
픸
픹
픺
픾
픿
핂
핅
핆
핇
핈
핉
핊
핋
핐
핒
햪
햮
햯
햱
햲
햳
햴
햵
햶
햷
햸
햹
햺
햻
햽
헂
헃
헄
헅
헆
헇
혖
혗
혘
혚
혛
혞
혟
혡
혢
혣
혥
혦
혧
혨
혩
혪
혫
혮
혲
혳
혴
혵
혶
혷
혺
횆
횇
횈
횉
횊
횋
횎
횏
횑
횒
횕
횖
횗
횘
횙
횚
횛
횠
횢
횣
횤
횥
횪
훮
훲
훶
훷
훹
훺
훻
훾
훿
휁
휂
휆
휇
휈
휉
휊
휎
휒
휓
