▁▃ -0
▁ㅇ -1
▁ㄱ -2
▁ㄷ -3
▁ㅎ -4
▁ㅈ -5
▁ㅇㅣ -6
▁ㅅ -7
▁ㄴ -8
ㅡㄴ -9
ㅡㄹ -10
▁ㅁ -11
ㅏㄴ -12
▁ㅂ -13
▁ㄹ -14
▁. -15
▁ㅇㅔ -16
▁ㄷㅏ -17
▁ㄴㅡㄴ -18
▁ㅎㅏ -19
ㅏㅇ -20
ㅓㄴ -21
ㅇㅣ -22
▁ㅇㅢ -23
▁ㄱㅏ -24
ㅕㄴ -25
▁ㅇㅡㄹ -26
▁ㅊ -27
ㅅㅓ -28
▁ㄱㅗ -29
▁, -30
▁ㅇㅓ -31
ㄹㅗ -32
ㄹㅣ -33
▁ㅍ -34
▁ㅇㅏ -35
ㅜㄴ -36
ㅕㅇ -37
▁ㅈㅣ -38
ㅈㅣ -39
▁ㄷㅗ -40
ㄷㅏ -41
▁ㅎㅏㄴ -42
▁ㅌ -43
▁ㄹㅡㄹ -44
▁ㅅㅣ -45
▁ㅇㅡㄴ -46
ㅅㅣ -47
▁ㄱㅣ -48
▁ㅋ -49
ㅓㅇ -50
▁1 -51
▁ㅇㅡ -52
ㅅㅡ -53
ㅏㄹ -54
ㅜㄹ -55
ㅗㅇ -56
▁ㅎㅐ -57
ㅏㄱ -58
▁ㄹㅗ -59
▁2 -60
▁ㅇㅣㅆ -61
ㅕㄱ -62
▁ㄱㅡ -63
▁ㄷㅚ -64
ㅗㄱ -65
▁ㅅㅏ -66
▁ㄱㅓ -67
▁ㅈㅜ -68
▁ㅂㅗ -69
▁ㄸ -70
ㅡㅇ -71
ㅇㅓ -72
ㄱㅣ -73
▁ㄴㅏ -74
ㅓㄱ -75
▁ㅇㅣㄴ -76
▁ㅁㅏ -77
ㄴㅏ -78
ㄹㅏ -79
▁ㅈㅏ -80
▁ㄷㅐ -81
▁ㄱㅘ -82
▁ㄱㅔ -83
▁ㄷㅡㄹ -84
ㄱㅏ -85
▁ㅅㅜ -86
ㅗㄴ -87
ㄱㅗ -88
▁ㄹㅏ -89
ㅐㅇ -90
ㅓㅁ -91
ㄷㅗ -92
▁ㅇㅕ -93
▁ㅇㅣㄹ -94
ㅜㄱ -95
▁ㅇㅘ -96
▁ㅁㅗ -97
ㄷㅡ -98
ㄴㅣ -99
ㅝㄴ -100
▁ㅈㅓㄴ -101
ㅓㄹ -102
ㅌㅡ -103
▁- -104
▁ㅇㅓㅆ -105
ㅇㅛ -106
ㅇㅣㄴ -107
ㅅㅏ -108
▁ㅅㅡ -109
ㅈㅏㅇ -110
▁ㅁㅕㄴ -111
ㅇㅜ -112
▁ㄲ -113
▁ㅂㅏ -114
ㅁㅏㄴ -115
▁ㅈㅓㄱ -116
▁3 -117
▁ㅂㅜ -118
ㅈㅏ -119
ㅡㅁ -120
▁ㅁㅏㄴ -121
ㄷㅐ -122
▁ㄱㅓㅅ -123
▁ㅇㅗ -124
ㅊㅣ -125
▁ㅎㅐㅆ -126
▁ㅎㅘ -127
ㅎㅐ -128
▁ㅁㅣ -129
▁ㅈㅓㅇ -130
▁ㅈㅗ -131
ㄹㅓ -132
▁ㅅㅏㅇ -133
ㅁㅣ -134
ㅕㄹ -135
▁20 -136
ㅎㅘ -137
▁ㅇㅠ -138
ㅅㅜ -139
ㅎㅏ -140
▁: -141
▁ㄴㅕㄴ -142
▁ㅂㅣ -143
ㅇㅏ -144
ㅌㅓ -145
ㅈㅓㅇ -146
▁ㄱㅗㅇ -147
▁' -148
▁ㄸㅐ -149
ㅇㅑ -150
▁ㅎㅏㄴㄷㅏ -151
ㄴㅡㄴ -152
ㅅㅏㅇ -153
ㅈㅓㄴ -154
ㄷㅔ -155
▁ㅈㅔ -156
ㅈㅜ -157
ㄱㅔ -158
ㅐㄱ -159
▁ㅇㅟ -160
▁ㄱㅕㅇ -161
ㄹㅕㄱ -162
▁ㅈㅜㅇ -163
▁ㄷㅚㄴ -164
ㅇㅛㅇ -165
▁ㅊㅏ -166
ㅎㅣ -167
▁ㅅㅗ -168
ㅎㅏㄴ -169
ㄹㅕ -170
▁ㅁㅜ -171
▁ㅆ -172
ㅈㅔ -173
▁4 -174
▁ㅇㅓㅄ -175
▁ㅅㅔ -176
ㄹㅡ -177
ㅅㅣㄴ -178
▁ㄴㅗ -179
ㅝㄹ -180
ㄱㅜㄱ -181
ㅡㄱ -182
ㅁㅕㄴ -183
ㄹㅐ -184
ㅅㅓㅇ -185
ㅋㅣ -186
▁ㄷㅡㅇ -187
ㅁㅜㄴ -188
▁ㅅㅓㅇ -189
ㅑㅇ -190
ㅂㅜ -191
ㄹㅔ -192
▁ㄱㅐ -193
ㄱㅕㄱ -194
▁ㅎㅏㄹ -195
ㄱㅜ -196
▁5 -197
ㄱㅘ -198
ㅁㅏ -199
▁ㅇㅏㄶ -200
ㅇㅗ -201
▁ㅁㅕ -202
▁0 -203
ㄱㅏㄴ -204
ㅌㅏ -205
▁ㅌㅏ -206
▁ㄷㅓㄴ -207
ㄷㅗㅇ -208
▁ㄹㅣ -209
ㅇㅝㄴ -210
▁ㄴㅐ -211
▁ㅅㅓ -212
▁ㄱㅜ -213
ㅂㅓ -214
▁ㅇㅝㄹ -215
▁201 -216
▁" -217
▁ㅂㅓ -218
▁/ -219
▁ㄷㅡ -220
ㅈㅣㄴ -221
ㄱㅡ -222
▁ㅍㅣ -223
▁ㅈㅏㅇ -224
▁ㅂㅏㅇ -225
ㄹㄹㅣ -226
▁ㅋㅏ -227
▁ㄷㅗㅇ -228
▁ㅅㅓㄴ -229
▁ㄹㅔ -230
ㅇㅣㄹ -231
ㅂㅣ -232
▁ㅇㅕㄴ -233
▁ㅊㅣ -234
▁ㅇㅜ -235
▁ㅅㅣㄴ -236
▁ㅇㅛ -237
ㅇㅠ -238
▁ㅎㅜ -239
▁ㅇㅕㅇ -240
▁ㅇㅏㄴ -241
▁ㅃ -242
▁ㅅㅐㅇ -243
ㅊㅔ -244
▁ㅁㅏㄹ -245
▁ㄲㅏ -246
ㅅㅓㄴ -247
▁ㅇㅑ -248
▁ㅂㅏㄹ -249
▁ㄷㅏㅇ -250
ㅅㅗ -251
ㄱㅓ -252
▁ㄷㅓ -253
▁ㅈㅣㄴ -254
▁ㄷㅔ -255
ㅈㅏㄱ -256
ㅣㅁ -257
ㅋㅡ -258
ㅁㅕㅇ -259
▁6 -260
▁ㅍㅏ -261
▁ㄴㅡㄴㄷㅔ -262
ㅁㅜ -263
▁ㅎㅚ -264
ㅇㅕ -265
▁ㅊㅜ -266
▁ㅇㅝㄴ -267
▁ㅊㅓ -268
▁10 -269
▁ㅍㅗ -270
▁ㄱㅏㅇ -271
ㅇㅜㄴ -272
ㄱㅖ -273
▁ㅁㅕㅇ -274
ㅂㅗ -275
ㅈㅐ -276
▁ㅊㅚ -277
ㅌㅣ -278
ㅐㄴ -279
▁ㅋㅗ -280
▁ㅉ -281
▁ㅁㅜㄴ -282
ㅅㅣㄱ -283
▁ㅅㅣㄹ -284
ㅈㅡ -285
ㅇㅟ -286
ㅋㅏ -287
▁7 -288
▁ㅂㅜㄹ -289
ㄹㅡㄴ -290
ㅁㅕ -291
ㅇㅣㅁ -292
▁ㅂㅓㄴ -293
ㄷㅏㅇ -294
ㅈㅓ -295
▁ㄷㅏㄴ -296
ㅁㅜㄹ -297
ㄴㅡㅇ -298
ㅎㅜ -299
ㅇㅘ -300
▁ㄱㅏㅌ -301
▁S -302
▁ㅎㅗ -303
▁ㅇㅕㅆ -304
▁8 -305
ㅅㅣㄹ -306
ㅇㅢ -307
▁ㄱㅘㄴ -308
▁ㄷㅚㄴㄷㅏ -309
▁ㅁㅔ -310
▁ㅌㅡㄱ -311
▁ㅂㅐ -312
ㅇㅡㅁ -313
ㅍㅡ -314
ㄹㅜ -315
▁! -316
ㅎㅐㅇ -317
▁ㅊㅗ -318
▁ㅂㅏㄷ -319
▁ㅁㅏㄶ -320
ㄷㅏㄴ -321
ㄹㅏㅁ -322
ㅍㅣ -323
ㄷㅣ -324
▁ㅈㅏㄱ -325
▁ㄱㅕㄹ -326
▁ㅂㅏㄴ -327
ㅌㅗ -328
ㅁㅗ -329
▁ㅇㅏㅆ -330
▁19 -331
ㄱㅛ -332
▁ㅁㅐ -333
▁ㅈㅓ -334
ㅇㅕㄱ -335
ㄱㅗㅇ -336
▁ㅍㅡ -337
ㅅㅗㄱ -338
▁ㅇㅕㄱ -339
ㄷㅡㄹ -340
ㅈㅓㅁ -341
ㅕㅆ -342
ㅊㅏ -343
▁9 -344
ㅅㅔ -345
ㅂㅏㄴ -346
ㅌㅔ -347
▁ㄴㅣ -348
ㄴㅐ -349
▁ㅁㅕㄴㅅㅓ -350
▁ㄱㅖ -351
▁ㅇㅏㄹ -352
ㅎㅏㄱ -353
▁ㄱㅕㅇㅇㅜ -354
▁ㄱㅗㅇㄱㅕㄱ -355
ㅂㅜㄴ -356
▁ㅂㅜㄴ -357
ㅅㅐㅇ -358
▁A -359
ㅎㅚ -360
▁ㄴㅏㅁ -361
ㅈㅗ -362
ㄹㅗㄱ -363
ㅂㅗㄴ -364
▁ㅎㅏㅁ -365
▁ㄱㅓㄴ -366
▁ㅊㅜㄹ -367
ㄱㅏㄱ -368
ㅈㅜㅇ -369
▁ㅋㅣ -370
▁ㅁㅜㄹ -371
▁ㅂㅗㄴ -372
ㅔㄹ -373
▁M -374
ㅇㅕㄴ -375
▁ㅋㅐ -376
ㅅㅏㄴ -377
▁ㄱㅜㄱ -378
ㄹㅓㄴ -379
▁ㅎㅕㄴ -380
▁ㅋㅡ -381
▁ㅍㅐ -382
▁% -383
▁ㅍㅕㄴ -384
ㅎㅗ -385
ㄷㅜ -386
ㄹㅠ -387
▁ㅁㅗㅅ -388
ㄹㅣㄴ -389
▁ㅈㅗㅎ -390
▁ㅇㅣㅂ -391
▁ㅇㅖ -392
ㄹㅡㅁ -393
▁ㄱㅏㅁ -394
▁ㄷㅜ -395
▁ㅈㅓㅁ -396
ㅌㅐ -397
▁ㅌㅡ -398
▁ㅎㅏㄱ -399
▁ㅈㅐ -400
ㄱㅘㄴ -401
▁ㄷㅣ -402
ㅇㅕㅇ -403
ㄴㅗ -404
ㄱㅡㅂ -405
▁ㄸㅏ -406
▁ㄱㅛ -407
ㅋㅗ -408
▁C -409
ㅈㅜㄴ -410
ㅇㅏㄴ -411
ㄱㅜㄴ -412
ㅂㅡ -413
▁ㅈㅓㅇㄷㅗ -414
▁ㅇㅐ -415
▁ㅌㅔ -416
ㅇㅡ -417
ㄱㅡㅁ -418
▁ㅌㅗㅇ -419
ㅂㅏ -420
▁B -421
ㅈㅓㄱ -422
▁ㅅㅗㄱ -423
▁T -424
ㅜㅁ -425
▁ㅍㅡㄹ -426
▁ㄸㅗ -427
ㅂㅓㅂ -428
ㄱㅕㅇ -429
ㅅㅡㅂ -430
ㅂㅏㄹ -431
ㄷㅡㄴ -432
ㄱㅓㄴ -433
▁ㄱㅣㅁ -434
ㄴㅏㄴ -435
▁ㅌㅗ -436
▁ㅅㅓㄹ -437
ㅈㅗㅇ -438
▁ㅊㅏㅁ -439
ㅇㅗㄴ -440
ㅇㅝ -441
ㅂㅏㅇ -442
▁ㄴㅓ -443
▁ㄷㅡㅇㅈㅏㅇ -444
ㅁㅣㄴ -445
▁ㄴㅔ -446
▁D -447
▁ㅎㅕㅇ -448
▁~ -449
▁ㅇㅚ -450
ㄹㅗㄴ -451
▁+ -452
▁ㅍㅕㅇ -453
ㅅㅡㅇ -454
ㅌㅗㅇ -455
ㅅㅜㄹ -456
ㅍㅗ -457
▁12 -458
▁ㅆㅡ -459
ㅇㅓㅂ -460
▁.. -461
ㅅㅕㄴ -462
▁ㄱㅜㄴ -463
ㄹㄹㅏ -464
▁ㅈㅗㅇ -465
▁ㅊㅔ -466
▁? -467
▁ㅇㅡㅁ -468
ㅍㅏ -469
er -470
▁ㅎㅣ -471
▁ㅅㅏㄹ -472
ㄹㅛ -473
▁ㅅㅡㅇ -474
ㅔㄴ -475
ㅇㅑㅇ -476
▁11 -477
▁ㅈㅜㄱ -478
▁200 -479
ㄴㅕ -480
▁L -481
▁ㄱㅝㄴ -482
▁ㅍㅏㄴ -483
▁ㅌㅣㅁ -484
▁ㄴㅡㄴㄷㅏ -485
00 -486
ㅌㅜ -487
▁ㄱㅏㄴ -488
▁ㄹㅜ -489
ㅈㅣㄱ -490
▁ㅇㅛㅇ -491
▁ㄷㅗㄹ -492
▁ㅈㅣㄱ -493
▁ㄱㅓㄹ -494
ㄱㅐ -495
▁ㄷㅟ -496
▁ㅈㅏㄹ -497
ㅇㅣㅂ -498
ㅅㅣㅁ -499
in -500
▁ㅎㅘㄱ -501
▁ㅁㅏㅈ -502
▁ㅅㅣㅁ -503
▁F -504
▁ㅎㅐㅇ -505
▁ㅂㅕㄴ -506
▁ㄱㅕㅇㄱㅣ -507
▁P -508
ㅍㅏㄴ -509
▁ㅂㅏㄱ -510
▁ㅇㅜㄴ -511
▁ㄷㅡㅅ -512
▁ㅇㅔㄴ -513
ㅍㅛ -514
ㅈㅕ -515
ㄹㅣㄱ -516
ㄹㅏㄴ -517
▁ㄴㅏㄹ -518
ㅇㅜㄹ -519
▁ㅂㅔ -520
▁ㅊㅐ -521
ㅇㅔ -522
ㄹㅕㄴ -523
ㅊㅡ -524
▁ㅌㅜ -525
ㄹㅓㅁ -526
ㅅㅓㄱ -527
ㄹㅏㅇ -528
▁ㄲㅡ -529
ㄴㅓ -530
▁ㅍㅣㄹ -531
ㅇㅑㄱ -532
ㅎㅕㅇ -533
ㅈㅗㄱ -534
ㄷㅓ -535
▁G -536
▁ㅋㅓ -537
ㄹㅑㅇ -538
ㅅㅓㄹ -539
▁ㅁㅗㄱ -540
ㅎㅘㅇ -541
ㅁㅐ -542
▁ㄷㅏㄹ -543
▁ㅇㅓㄴ -544
▁ㅈㅣㅂ -545
▁ㄴㅗㅍ -546
ㅋㅣㄹ -547
▁ㅎㅘㄹ -548
▁E -549
ㅁㅔ -550
an -551
▁ㅇㅑㄱ -552
▁ㅅㅜㄴ -553
ㅂㅗㄱ -554
ㄲㅏ -555
ㅊㅜㄹ -556
▁ㅍㅛ -557
ㅍㅜㅁ -558
ㄹㅕㅇ -559
▁ㄱㅏㄱ -560
on -561
ㅊㅓㅇ -562
▁ㅋㅡㄹ -563
ㅎㅕㄴ -564
▁ㅈㅜㄴ -565
▁ㅇㅑㅇ -566
ㅇㅓㄴ -567
▁15 -568
ㅈㅓㄹ -569
▁ㄴㅡㅇ -570
ㅁㅏㅇ -571
▁ㅎㅛ -572
▁ㅅㅏㅇㄷㅐ -573
ㄲㅔ -574
ㄴㅔ -575
ㅎㅑㅇ -576
ㅇㅚ -577
ㅂㄴㅣ -578
▁ㅈㅗㄴ -579
ㅎㅏㅂ -580
▁ㅇㅣㄹㅂㅗㄴ -581
▁# -582
▁ㅍㅔ -583
▁ㄹㅕ -584
▁ㅂㅗㄹ -585
▁H -586
▁ㅌㅣ -587
▁ㅈㅡㅇ -588
▁ㅎㅏㅁㄲㅔ -589
ㅎㅘㄴ -590
▁ㅇㅘㅇ -591
▁ㅂㅕㄹ -592
ㅈㅣㄹ -593
▁ㅁㅜㄴㅈㅔ -594
▁ㅌㅐ -595
ㅁㅓ -596
▁ㅈㅏㅂ -597
▁R -598
▁ㅅㅗㄴ -599
▁ㅎㅏㄴㄱㅜㄱ -600
▁ㅍㅡㄹㄹㅔ -601
▁ㅎㅣㅁ -602
▁ㄴㅏㄴ -603
▁K -604
ㅈㅡㄴ -605
▁ㅂㅕㅇ -606
▁ㅇㅣㅁ -607
▁ㄴㅡ -608
▁ㅂㅡ -609
▁ㅅㅐㅇㄱㅏㄱ -610
▁ㄱㅔㅆ -611
ㄹㅓㅎ -612
▁t -613
▁ㅊㅓㄴ -614
ㄹㅣㄱㅌㅓ -615
▁ㅅㅐ -616
ㅁㅗㄱ -617
ㅎㅕ -618
▁ㅇㅘㄴ -619
▁I -620
▁ㅍㅗㄱ -621
▁ㅁㅏㄴㄷㅡㄹ -622
▁ㅁㅏㄱ -623
▁ㄴㅡㅇㄹㅕㄱ -624
▁N -625
▁ㄲㅡㅌ -626
▁ㅂㅡㄹ -627
▁ㄷㅡㄹㅇㅓ -628
ㄴㄷㅏ -629
▁ㅊㅗㅇ -630
ㅋㅔ -631
ㅂㅕㅇ -632
▁ㄷㅗㄱ -633
▁ㅎㅏㅇ -634
▁m -635
▁ㅋㅜ -636
ㅅㅗㅇ -637
▁ㄱㅘㅇ -638
▁ㅁㅓㄱ -639
ㅊㅓㄴ -640
ㄷㅗㄱ -641
▁ㄱㅡㄴ -642
ㅎㅓㅁ -643
or -644
ㅁㅏㄱ -645
▁ㅂㅗㄱ -646
ㅂㅔㄹ -647
▁ㅈㅜㄹ -648
▁ㄱㅓㅁ -649
ㄹㅕㅆ -650
▁ㅅㅣㄱ -651
▁ㅅㅏㅁ -652
ㅍㅔ -653
ㄷㅏㅁ -654
ㄹㅏㄱ -655
▁ㅆㅏ -656
ㅜㅇ -657
ar -658
ㅂㅐ -659
▁ㄴㅜ -660
▁ㅆㅣ -661
ㅁㅏㄹ -662
ㅈㅕㅆ -663
ㅍㅓ -664
▁ㅅㅏㅇㅌㅐ -665
ㄴㅕㄴ -666
▁ㅊㅣㄴ -667
▁ㅅㅏㅇㅎㅘㅇ -668
▁ㅁㅓ -669
▁ㄷㅏㅇㅅㅣ -670
▁ㅅㅠ -671
▁ㄱㅗㄱ -672
ㅅㅐㄱ -673
▁18 -674
▁ㅃㅏ -675
ㄱㅏㅁ -676
▁16 -677
▁ㅅㅏㄴ -678
▁ㅂㅐㄱ -679
▁ㅇㅓㅂ -680
▁ㅌㅓ -681
▁ㅊㅜㅇ -682
ㄱㅕ -683
▁ㅇㅕㄹ -684
▁ㄱㅣㄹ -685
▁ㄹㅓ -686
ㅅㅏㄹ -687
▁O -688
▁ㄱㅕㄹㄱㅜㄱ -689
ㄹㅣㅂ -690
at -691
ㅎㅐㅆ -692
▁30 -693
ㅌㅏㄴ -694
ㄱㅡㄴ -695
▁ㅇㅏㄱ -696
▁ㅇㅏㅍ -697
▁ㄱㅡㅁ -698
ㅊㅓ -699
ㅋㅜ -700
ㄱㅕㄹ -701
▁ㅁㅏㄶㅇㅣ -702
▁13 -703
▁ㅅㅟ -704
▁ㄴㅜㄴ -705
he -706
ㄹㅣㅁ -707
▁ㅁㅣㅊ -708
▁] -709
▁ㅈㅓㄴㅌㅜ -710
▁ㄴㅓㅁ -711
▁s -712
▁ㅇㅓㄹ -713
▁ㅋㅔ -714
ㅋㅓ -715
ㄴㅣㄴ -716
▁W -717
ㄴㅑㅇ -718
ㅇㅏㄱ -719
▁[ -720
ㅊㅗ -721
▁ㅇㅗㄴ -722
▁ㄱㅡㅂ -723
ㅎㅏㅁ -724
▁14 -725
ㄱㅓㅅ -726
▁ㄷㅚㄹ -727
▁ㅁㅣㄴ -728
ㅓㄹㅇㅓ -729
▁ㅎㅏㅂ -730
▁ㅅㅓㄴㅅㅜ -731
ㅍㅕㄴ -732
▁ㅈㅗㄴㅈㅐ -733
ㅉㅗㄱ -734
▁ㅎㅕㄴㅈㅐ -735
ㅌㅐㄱ -736
ㄷㅡㅇ -737
ㅇㅜㅁ -738
▁ㅊㅟ -739
ㅈㅓㅂ -740
ㅎㅏㄹ -741
ㄴㅏㅁ -742
▁ㅋㅡㄴ -743
en -744
▁ㄱㅚ -745
▁c -746
▁17 -747
ㄱㅡㄹ -748
▁ㅅㅏㅇㄷㅏㅇ -749
▁ㅊㅓㅅ -750
▁ㄱㅣㄴ -751
▁ㅍㅐㄴ -752
ㅇㅖ -753
▁00 -754
ㅎㅏㅇ -755
ㅈㅐㅇ -756
▁ㅌㅏㄴ -757
▁ㅁㅜㄹㄹㅗㄴ -758
ㅇㅣㄴㄷㅏ -759
▁ㄱㅡㄱ -760
▁100 -761
▁ㅎㅘㅇ -762
▁ㅎㅓ -763
▁ㅈㅓㄹ -764
▁ㅇㅓㄷ -765
▁ㅊㅏㅇ -766
▁ㅇㅓㅁ -767
▁ㄱㅗㄹ -768
ㅈㅗㄴ -769
ㅂㅓㅁ -770
ㅌㅔㅁ -771
ou -772
▁25 -773
ㅇㅘㅆ -774
▁ㅊㅏㅈ -775
ㅊㅕ -776
ㄷㅡㄱ -777
al -778
▁ㅊㅓㅇ -779
▁ㅇㅝ -780
▁V -781
ㄱㅅㅡ -782
▁ㄱㅘㄴㄹㅕㄴ -783
▁ㅅㅣㄹㅈㅔ -784
▁ㅌㅏㄹ -785
▁ㅃㅜㄴ -786
▁U -787
ㄱㅏㅇ -788
▁ㅁㅗㄴ -789
ㅍㅐ -790
ㅇㅡㄴ -791
ㅈㅣㅂ -792
ㅌㅡㄹ -793
▁ㅂㅏㅇㅅㅗㅇ -794
ㄴㅓㄹ -795
▁ㄱㅏㅌㅇㅣ -796
ㄱㅠ -797
▁ㅎㅔ -798
ㅇㅘㅇ -799
ㄴㅏㄹ -800
ㅂㅕㄹ -801
▁ㄷㅏㄹㄹㅣ -802
▁ㅍㅣㄹㅇㅛ -803
▁ㄱㅕ -804
ㄱㅕㄴ -805
▁ㄲㅗ -806
▁2017 -807
▁ㅂㅓㅂ -808
▁ㅇㅣㄴㅈㅣ -809
▁ㅂㅏㅇㅇㅓ -810
▁ㅊㅓㄹ -811
ㄱㅗㄱ -812
▁ㅇㅣㄹㅂㅏㄴ -813
▁ㅇㅣㄴㄷㅔ -814
ㄹㅐㄴ -815
▁199 -816
▁ㄱㅟ -817
▁ㅉㅐ -818
▁ㄱㅗㅅ -819
ㅌㅏㄹ -820
▁ㅎㅘㄴ -821
ㅎㅏㄱㄱㅛ -822
▁ㅇㅕㄱㅅㅣ -823
ㅋㅡㅁ -824
▁2018 -825
▁ㄷㅙ -826
ㄴㅡ -827
▁ㅈㅏㅁ -828
ㅇㅕㄹ -829
▁ㄷㅗㄹㅇㅏ -830
▁ㅎㅗㄴ -831
▁ㄱㅡㄹ -832
▁ㅂㅜㄱ -833
▁ㅂㅓㅁ -834
ㅂㅓㄴ -835
▁ㄷㅜㄹ -836
▁ㅈㅣㄹ -837
▁ㅈㅗㅁ -838
▁ㅎㅐㅆㅇㅡ -839
ㅊㅣㅇ -840
▁ㅂㅜㅌ -841
▁ㄹㅠ -842
▁k -843
es -844
ㅂㅡㄹ -845
▁ㄹㅏㄴ -846
▁ㄱㅕㄱ -847
▁ㄱㅏㄹ -848
▁ㄴㅑ -849
▁ㅂㅘ -850
it -851
▁ㅈㅡㅇㄱㅏ -852
▁2019 -853
▁ㅉㅣ -854
ㅈㅣㄴㄷㅏ -855
▁ㄴㅗㅎ -856
ㅂㅏㄱ -857
▁ㅇㅕㅇㅎㅘ -858
▁ㅌㅡㄱㅎㅣ -859
▁ㅎㅏㄱㄱㅛ -860
▁ㅈㅣㄴㅎㅐㅇ -861
▁ㄴㅡㄴㅈㅣ -862
▁ㅊㅏㅁㄱㅗ -863
ㅇㅣㄴㄱㅗㅇ -864
ㅊㅜ -865
ㅊㅏㄱ -866
▁ㅅㅣㅍ -867
▁ㅂㅏㄲ -868
ㅊㅏㅇ -869
▁ㅇㅗㄹ -870
▁ㅌㅗㅇㅎㅐ -871
▁ㅅㅑ -872
▁ㄸㅓㄹㅇㅓ -873
▁ㅇㅗㄹㄹㅏ -874
▁ㅇㅓㅄㅇㅣ -875
▁ㅂㅗㄴㅇㅣㄴ -876
ㄹㅓㅂ -877
▁ㅇㅣㄴㄱㅏㄴ -878
ㄷㅏㄹ -879
▁ㄷㅏㅁ -880
▁ㅅㅡㄹ -881
▁21 -882
ㄱㅚ -883
▁ㄱㅠ -884
ㅊㅏㄴ -885
▁X -886
▁ㅈㅡㄱ -887
ㄹㅓㅎㄱㅔ -888
▁50 -889
▁ㅅㅗㄱㄷㅗ -890
▁ㅇㅞ -891
▁ㅁㅗㅅㅎㅏ -892
▁ㅈㅏㄱㅍㅜㅁ -893
▁ㅍㅜㄹ -894
▁2016 -895
ㅈㅣㅇ -896
ㄸㅐ -897
ㅋㅕ -898
ㅌㅓㄴ -899
ㅂㅕㄴ -900
▁ㄱㅗㅇㄱㅕㄱㄹㅕㄱ -901
▁ㅁㅏㄴㅋㅡㅁ -902
is -903
ㅍㅡㄹ -904
▁ㅎㅕ -905
▁ㅅㅡㅂㄴㅣ -906
▁ㅁㅗㅁ -907
▁ㄷㅓㄱ -908
ㄹㅠㄹ -909
re -910
▁ㄸㅡ -911
ㅎㅢ -912
▁ㄷㅡㄴ -913
▁& -914
▁ㅂㅏㄺ -915
ㅂㅔ -916
ㅇㅗㄴㄷㅏ -917
▁ㄸㅓ -918
ㅇㅡㄹ -919
ㄹㅖ -920
▁w -921
ㅎㅗㄴ -922
le -923
▁ㅇㅣㄴㅁㅜㄹ -924
▁22 -925
ㅎㅘㄹ -926
ㅊㅏㄹ -927
ㄹㄹㅓ -928
ㅅㅡㅅ -929
▁ㅈㅓㅂ -930
ㅇㅓㅄ -931
ㅇㅠㄱ -932
▁ㅇㅏㅁ -933
ㄲㅣ -934
▁ㅍㅏㄹ -935
▁ㅎㅗㅁ -936
▁ㅁㅕㅊ -937
ㅊㅓㄹ -938
▁ㄷㅗㅇㅇㅏㄴ -939
▁ㅉㅗㄱ -940
ㄴㅣㅅ -941
ㄱㅝㄴ -942
▁J -943
ㅂㅔㄴ -944
▁d -945
ㅇㅝㄹ -946
ㅅㅜㄴ -947
▁ㅇㅣㄹㅂㅜ -948
▁ㅊㅜㄱ -949
▁ㅁㅣㄹ -950
ㅈㅓㄴㅎㅣ -951
▁ㅎㅘㄹㄷㅗㅇ -952
▁ㅇㅕㅇㅅㅏㅇ -953
ㄹㅣㄴㄷㅏ -954
▁ㄱㅜㄱㄱㅏ -955
▁24 -956
ㄱㅘㅇ -957
▁ㅁㅜㄴㅅㅓ -958
▁ㅇㅣㄴㅎㅐ -959
▁ㅎㅢ -960
▁ㅅㅏㅇㄷㅏㅇㅎㅣ -961
▁ㅍㅕㅇㄱㅏ -962
ㄹㅣㄹ -963
▁ㅇㅜㄹ -964
ㅁㅂㅓ -965
▁ㄱㅘㄴㄱㅖ -966
ㄷㅗㄹ -967
ㄱㅏㄹ -968
ing -969
▁ㄴㅏㅈ -970
ic -971
▁f -972
ㅅㅡㄴ -973
▁ㅍㅓ -974
ㅎㅏㄴㄷㅏ -975
▁ㅁㅏㅌ -976
▁ㅂㅓㄹ -977
ㄱㅡㄱ -978
▁ㄱㅏㅁㄷㅗㄱ -979
ㅇㅕㅆ -980
ㅇㅐ -981
▁ㅊㅡ -982
as -983
▁ㅁㅡ -984
▁ㅁㅗㄴㅅㅡ -985
▁ㅎㅗㅇ -986
▁ㄸㅟ -987
▁b -988
ㅂㅜㄹ -989
▁ㅎㅡ -990
ㅇㅡㅇ -991
ㄹㅑ -992
▁ㄴㅗㄴ -993
▁ㅅㅓㅇㄱㅗㅇ -994
ㅊㅣㄴ -995
ㅂㅓㄹ -996
ㅇㅠㄹ -997
ㅅㅡㄹ -998
▁23 -999
▁ㄴㅓㅎ -1000
▁ㅁㅓㄴ -1001
ㄹㄹㅗ -1002
▁ㅈㅓㅇㅂㅗ -1003
▁ㅈㅜㅇㄱㅜㄱ -1004
▁ㅁㅏㅇ -1005
▁2015 -1006
ㄹㅑㄱ -1007
▁ㅅㅓㄹㅈㅓㅇ -1008
▁ㅁㅐㄴ -1009
ㅆㅣ -1010
ㅁㅗㄴ -1011
▁ㅁㅔㅁㅂㅓ -1012
▁40 -1013
▁ㄱㅕㄹㄱㅘ -1014
▁ㅉㅏ -1015
▁ㅅㅓㅇㅇㅜ -1016
▁ㅅㅔㄴ -1017
ㄱㅟ -1018
▁ㅅㅡㅇㄹㅣ -1019
ㄱㅜㄹ -1020
ㄴㅏㅆ -1021
▁a -1022
▁ㄴㅣㅁ -1023
▁ㅈㅓㄴㅈㅐㅇ -1024
▁ㅇㅓㄴㄱㅡㅂ -1025
▁ㄹㅣㅇ -1026
▁ㅇㅝㄴㄹㅐ -1027
▁ㅆㅡㄹ -1028
▁ㅁㅗㄹ -1029
▁ㅇㅗㄹㄹㅣ -1030
▁ㅋㅏㄹ -1031
▁ㅅㅓㄹㅁㅕㅇ -1032
▁ㅈㅝ -1033
▁ㅋㅓㄴ -1034
▁ㅆㅓ -1035
ㅈㅡㅇ -1036
▁ㅈㅣㄱㅈㅓㅂ -1037
▁ㅇㅠㄱ -1038
▁ㅈㅓㄴㅊㅔ -1039
▁ㅅㅓㄴㅌㅐㄱ -1040
ㅇㅜㄴㄷㅡ -1041
▁< -1042
▁ㅆㅣㄱ -1043
ㄱㅓㄹ -1044
▁ㄴㅠ -1045
ㅂㅐㄱ -1046
ㄴㅣㅇ -1047
ㅇㅜㅇ -1048
▁ㅅㅟㅂ -1049
ㅉㅏ -1050
▁ㅅㅛ -1051
▁ㅁㅛ -1052
▁ㅎㅠ -1053
ㅁㅐㄴ -1054
▁ㅊㅜㄹㅇㅕㄴ -1055
▁ㅂㅗㅇ -1056
om -1057
am -1058
ㄷㅣㅇ -1059
▁ㅈㅡ -1060
▁ㅎㅕㅂ -1061
▁p -1062
▁ㅊㅣㄴㄱㅜ -1063
▁ㅇㅙ -1064
▁h -1065
ㄴㅡㄹ -1066
▁ㄷㅙㅆ -1067
▁ㄲㅐ -1068
▁ㅂㅏㅇㅂㅓㅂ -1069
▁ㅇㅓㅁㅊㅓㅇ -1070
▁ㄴㅡㄹ -1071
▁ㅈㅏㅇㅁㅕㄴ -1072
▁ㄷㅗㄴ -1073
ㄲㅟ -1074
ㅊㅜㄱ -1075
ㅋㅔㅅ -1076
▁ㅈㅜㄴㄷㅏ -1077
ㄱㅣㄴ -1078
ㅂㅜㄱ -1079
▁ㄱㅏㅂ -1080
ㅊㅐㄱ -1081
▁ㅊㅡㄱ -1082
el -1083
▁ㄲㅙ -1084
▁ㄱㅗㅇㅅㅣㄱ -1085
ㅊㅗㅇ -1086
▁ㅌㅏㅂ -1087
ㄱㅗㄴ -1088
ㅋㅣㄴ -1089
ㅇㅜㄱ -1090
▁198 -1091
▁ㅎㅑㅇ -1092
▁o -1093
ㅎㅚㄱ -1094
▁ㅅㅗㅇ -1095
▁ㅃㅐ -1096
ㄴㅕㅁ -1097
ㅌㅣㅇ -1098
ㅂㅔㄴㅌㅡ -1099
▁ㅇㅔㄹ -1100
ㄹㅡㄹ -1101
▁ㅎㅗㄱ -1102
▁26 -1103
▁ㅅㅗㄱㅅㅓㅇ -1104
▁ㅃㅏㄹ -1105
▁2014 -1106
▁n -1107
ㅅㅟ -1108
▁ㅇㅕㄴㄱㅜ -1109
▁ㅇㅏㅂ -1110
ㅍㅕㅇ -1111
▁ㅈㅓㄴㅂㅜ -1112
▁ㄱㅏㅈ -1113
▁28 -1114
▁ㅊㅐㄱ -1115
ㅋㅡㄹ -1116
▁ㄴㅏㅁㅈㅏ -1117
▁the -1118
▁ㅁㅏㄴㄷㅡㄴ -1119
▁ㄷㅏㅇㅎㅏ -1120
▁27 -1121
▁ㄱㅏㅇㅎㅘ -1122
ㄹㄹㅣㄴ -1123
▁31 -1124
ㅇㅏㅇ -1125
▁ㅊㅣㅁ -1126
ㄹㅐㄱ -1127
▁ㅅㅐㄱ -1128
▁ㅊㅡㅇ -1129
ㅍㅣㄹ -1130
▁ㅇㅏㄹㄹㅕ -1131
▁ㅇㅕㄱㅅㅏ -1132
ㅋㅓㄹ -1133
ㅊㅣㅁ -1134
▁ㄷㅗㅇㅅㅣ -1135
ㅂㅗㅇ -1136
▁ㄱㅜㅇ -1137
▁= -1138
▁ㅈㅏㄴ -1139
▁ㄷㅏㅂ -1140
▁ㄹㅐ -1141
▁ㄷㅣㄹ -1142
ㅇㅓㄹ -1143
▁ㅅㅓㅇㄴㅡㅇ -1144
ㄱㅏㅆ -1145
▁ㅃㅗ -1146
▁ㅅㅓㄱ -1147
▁ㅈㅓㅇㅁㅏㄹ -1148
▁ㅇㅜㄴㅇㅕㅇ -1149
▁ㅎㅏㄱㅅㅐㅇ -1150
▁ㅊㅜㄹㅅㅣㄴ -1151
ㄱㅣㄹ -1152
ol -1153
▁ㅉㅣㄱ -1154
ㄱㅕㅆ -1155
▁ㄱㅗㅇㄱㅐ -1156
▁ㄷㅡㄷ -1157
▁ㅌㅡㄱㅅㅓㅇ -1158
▁ㄴㅗㅇ -1159
▁ㅂㅏㄹㅁㅐ -1160
▁ㅎㅘㄱㄹㅠㄹ -1161
▁000 -1162
ㅁㅓㄱ -1163
▁ㅇㅣㄴㅌㅓ -1164
▁ㅁㅓㄹ -1165
ㅇㅕㅁ -1166
ㄸㅓ -1167
ㅎㅜㄴ -1168
▁ㅋㅗㄴ -1169
ㅁㅍㅣ -1170
ion -1171
ㅁㅣㄹ -1172
ㄱㅏㅂ -1173
et -1174
ㅁㅕㄴㅅㅓ -1175
ㄹㅓㄴㄷㅔ -1176
▁ㅌㅓㄴ -1177
▁ㄷㅏㅇㅇㅕㄴ -1178
▁ㅎㅟ -1179
ac -1180
▁ㄱㅏㅇㄹㅕㄱ -1181
ㄹㅐㄴㄷㅡ -1182
▁ㅇㅣㄹㅇㅓ -1183
▁ㅊㅏㄱ -1184
▁ㅌㅡㄱㅅㅜ -1185
ㄹㅣㅇ -1186
ㅂㅕㄱ -1187
▁ㅂㅕㄴㄱㅕㅇ -1188
▁32 -1189
▁ㅇㅜㅁ -1190
ㄷㅔㄹ -1191
▁ㅇㅝㄹㄷㅡ -1192
▁ㅂㅏㅇㅅㅣㄱ -1193
ㅇㅓㅆ -1194
▁ㄲㅣ -1195
▁ㅂㅏㄹㅅㅐㅇ -1196
▁ㅇㅕㅇㅇㅜㅇ -1197
ㅉㅣ -1198
ㅊㅏㄴㄱㅏ -1199
▁ㅈㅏㅇㅂㅣ -1200
▁ㅇㅕㅇㅎㅑㅇ -1201
▁Y -1202
▁ㄸㅡㅅ -1203
▁ㅇㅣㄴㄱㅣ -1204
ㅎㅘㄱ -1205
▁ㄹㅡ -1206
il -1207
▁ㄱㅕㄹㅈㅓㅇ -1208
us -1209
▁ㅈㅓㅇㅅㅣㄴ -1210
▁ㅈㅏㄱㅈㅜㅇ -1211
ㄹㅡㄴㄷㅏ -1212
▁ㅇㅕㄱㅎㅏㄹ -1213
▁29 -1214
▁ㄴㅏㄴㅇㅣ -1215
▁ㅅㅣㅇ -1216
▁ㅅㅓㅁ -1217
ig -1218
▁ㄲㅡㄹ -1219
ㅇㅗㄹ -1220
▁ㅂㅣㄹ -1221
ow -1222
▁v -1223
▁ㅎㅕㅇㅌㅐ -1224
ㅈㅏㅂ -1225
ㄸㅓㄴ -1226
ed -1227
ㅇㅓㄱ -1228
▁ㅈㅘ -1229
▁ㅇㅓㄱ -1230
▁ㅅㅓㅇㄱㅕㄱ -1231
▁ㅅㅜㄹ -1232
▁2013 -1233
▁ㅇㅕㅆㅇㅡ -1234
▁ㅇㅐㄱ -1235
▁ㅇㅡㅁㅇㅏㄱ -1236
▁ㅁㅐㅂ -1237
ㅁㅣㄴㄱㅜㄱ -1238
▁l -1239
▁ㅈㅜㅇㅇㅛ -1240
▁ㅍㅜ -1241
▁ㅎㅡㄱ -1242
▁ㅎㅐㅇㄷㅗㅇ -1243
ㄱㅐㄱ -1244
ㅍㅜㅇ -1245
▁ㅇㅐㄹ -1246
▁ㅂㅣㅊ -1247
▁ㅈㅕㅆ -1248
▁ㅂㅏㄹㄷㅗㅇ -1249
▁ㅇㅣㄹㄷㅏㄴ -1250
▁ㅁㅗㅅㅎㅐㅆ -1251
ㄸㅡ -1252
▁ㅃㅗㅂ -1253
ㅍㅗㄱ -1254
▁x -1255
▁ㅇㅠㄴ -1256
ㅐㅇㅋㅡ -1257
▁ㅍㅜㅇ -1258
▁ㅂㅣㄴ -1259
▁ㅎㅏㅇㅁㅗㄱ -1260
ㄷㅓㄱ -1261
▁ㅎㅚㄱ -1262
ㅊㅡㄱ -1263
▁ㅍㅖ -1264
▁ㅋㅏㄴ -1265
▁ㅅㅣㅁㅈㅣ -1266
▁60 -1267
▁Lv -1268
▁ㅅㅜㅁ -1269
▁35 -1270
▁ㅎㅘㄱㅇㅣㄴ -1271
▁ㅎㅏㅂㄴㅣ -1272
ㄹㅔㄴ -1273
▁ㅇㅘㅆ -1274
▁ㅁㅏㄴㄴㅏ -1275
id -1276
ㅐㄴㄷㅡ -1277
ㄱㅏㄴㄷㅏ -1278
▁ㅁㅝ -1279
▁ㅇㅝㄴㅈㅏㄱ -1280
▁ㅊㅏㅈㅇㅏ -1281
▁ㅁㅠ -1282
▁ㅁㅕㅇㅊㅣㅇ -1283
ㅎㅟ -1284
ay -1285
ㅎㅏㄴㅁㅣㄴㄱㅜㄱ -1286
▁ㄱㅏㅁㅅㅗ -1287
▁ㅇㅣㅂㅈㅏㅇ -1288
▁ㅇㅡㅇ -1289
▁ㅎㅣㅁㄷㅡㄹ -1290
▁ㄴㅓㅁㅇㅓ -1291
ad -1292
ㄹㅕㅂ -1293
ㅅㅜㄱ -1294
▁ㅎㅘㄹㅇㅑㄱ -1295
▁ㅎㅡㄴ -1296
▁01 -1297
▁2012 -1298
ㄹㅐㅁ -1299
▁ㅈㅓㅇㅊㅣ -1300
▁ㄷㅡㄱ -1301
ㅇㅣㄴㅌㅡ -1302
▁ㄴㅗㄱ -1303
▁ㅁㅓㄴㅈㅓ -1304
ㅉㅐ -1305
▁ㅎㅜㄴ -1306
▁ㄷㅠ -1307
ㅌㅚ -1308
▁ㄱㅗㄴ -1309
▁ㅌㅡㄱㅈㅣㅇ -1310
▁ㄷㅓㄱㅂㅜㄴ -1311
▁of -1312
▁r -1313
ㅇㅈㅏㅇ -1314
ㅌㅡㄴ -1315
▁ㅇㅕㅇㅇㅓ -1316
⊸⊸ -1317
ㅇㅗㄱ -1318
ㄸㅓㅎ -1319
ㄲㅜ -1320
ㅁㅕㄹ -1321
▁ㅇㅓㄹㄱㅜㄹ -1322
▁ㅈㅓㄱㅇㅛㅇ -1323
ㅅㅐ -1324
ot -1325
▁ㄲㅓ -1326
ve -1327
ㅆㅓ -1328
▁ㄱㅘㄴㄹㅣ -1329
▁ㅇㅘㄴㅈㅓㄴㅎㅣ -1330
and -1331
▁ㅆㅗ -1332
ㄱㅌㅡ -1333
▁ㅇㅐㄹㅂㅓㅁ -1334
▁ㄱㅕㅇㅊㅏㄹ -1335
▁ㅈㅛ -1336
▁ㄷㅗㄱㅇㅣㄹ -1337
ㅅㅗㄴ -1338
ㅂㅗㄹ -1339
ㄷㅓㄴ -1340
ㄹㅚ -1341
ㅁㅡ -1342
ㄴㅜ -1343
ㅁㅓㄴ -1344
▁y -1345
ㄴㅐㄴ -1346
ㅇㅜㅅ -1347
▁ㅇㅣㅀ -1348
▁ㅎㅚㄱㄷㅡㄱ -1349
▁ㄱㅚㅇㅈㅏㅇ -1350
▁ㅅㅜㄴㄱㅏㄴ -1351
ㅗㅊ -1352
▁TV -1353
▁ㅅㅏㅇㅅㅡㅇ -1354
▁ㅈㅓㄴㅎㅕ -1355
▁ㅊㅏㅁㅈㅗ -1356
20 -1357
▁ㅈㅏㄱㄱㅏ -1358
▁ㄱㅜㄱㄴㅐ -1359
▁ㅅㅐㅇㅅㅏㄴ -1360
ㄲㅡㅁ -1361
ch -1362
▁ㄱㅓㄴㅁㅜㄹ -1363
ㄱㅗㄹ -1364
ㄹㅛㅇ -1365
▁ㅈㅓㅇㅂㅜ -1366
▁ㅋㅞ -1367
▁ㄷㅔㄱ -1368
▁ㅅㅣㄹㅍㅐ -1369
▁ㅁㅏㄴㅎㅘ -1370
ㅇㅓㅄㅇㅣ -1371
▁ㅊㅕ -1372
▁ㅎㅗㄱㅇㅡㄴ -1373
ㄹㅓㄱ -1374
▁ㄷㅗㅇㅇㅣㄹ -1375
▁ㄸㅏㄹ -1376
un -1377
▁ㅇㅓㄹㅁㅏ -1378
▁ㅈㅓㅇㅎㅘㄱ -1379
▁ㅊㅜㄹㅅㅣ -1380
▁ㅈㅣㅅ -1381
▁ㅅㅓㄴㅂㅏㄹ -1382
▁ㄷㅏㅁㄷㅏㅇ -1383
ㅌㅏㄱ -1384
▁ㅂㅏㄹㄱㅕㄴ -1385
▁ㅎㅕㄴㄷㅐ -1386
▁ㄱㅕㄴ -1387
ㅊㅏㄶ -1388
▁ㅋㅜㄹ -1389
▁ㅋㅣㅇ -1390
▁ㅂㅏㄴㄷㅐ -1391
▁37 -1392
▁ㄹㅏㅇ -1393
▁ㅂㅏㄴㅇㅡㅇ -1394
▁ㅇㅕㅇㄱㅜㄱ -1395
▁The -1396
▁ㄷㅏㄴㄱㅖ -1397
▁ㅅㅡㅂ -1398
▁ㅅㅣㄹㄹㅕㄱ -1399
▁ㄹㅑㅇ -1400
▁ㅂㅏㄲㅇㅔ -1401
ㅊㅜㅇ -1402
ㄹㅗㅅ -1403
ㅌㅠ -1404
▁ㅁㅏㅅ -1405
BS -1406
▁ㅍㅏㄴㅁㅐ -1407
▁g -1408
▁ㅂㅔㄹ -1409
ㄱㅗㅅ -1410
▁ㅁㅐㄱ -1411
▁ㅂㅓㅁㅇㅟ -1412
▁ㅂㅏㅁ -1413
▁2010 -1414
▁ㅆㅡㄴ -1415
▁ㄸㅏㅇ -1416
▁St -1417
▁ㄷㅡㅇㄱㅡㅂ -1418
▁ㅅㅏㅇㅇㅟ -1419
ㅇㅝㅆ -1420
▁500 -1421
▁ㅎㅓㄴ -1422
▁ㄸㅏㄱ -1423
▁80 -1424
▁ㅎㅏㄴㅌㅔ -1425
ㄹㅜㅂ -1426
▁45 -1427
ER -1428
▁* -1429
▁ㅁㅜㄹㄹㅣ -1430
▁ㅇㅜㅁㅈㅣㄱ -1431
▁09 -1432
ㄴㅏㄴㄷㅏ -1433
▁ㅌㅚ -1434
ㅇㅞ -1435
▁ㅌㅏㅁ -1436
dd -1437
▁ㅌㅡㄹ -1438
▁ㅁㅜㄴㅎㅘ -1439
▁) -1440
ㅇㅔㄹ -1441
▁ㅍㅗㄱㅂㅏㄹ -1442
ㅇㅣㄱ -1443
▁ㅂㅜㄹㄹㅣ -1444
ㄷㅓㅁ -1445
▁ㅋㅡㄹㄹㅣ -1446
▁02 -1447
ㅎㅕㅆ -1448
▁03 -1449
▁ㅂㅏㄹㅅㅏ -1450
ㄱㅠㄴ -1451
ㄴㅗㅎ -1452
▁km -1453
ㅇㅣㄴㅁㅜㄹ -1454
ㅅㅠ -1455
▁ㅇㅜㅅ -1456
▁ㅋㅓㅁ -1457
ㅂㅟ -1458
▁ㅌㅡㄱㅂㅕㄹ -1459
▁ㄲㅜ -1460
▁ㅈㅣㄴㅉㅏ -1461
▁197 -1462
▁ㄱㅚㅇㅈㅏㅇㅎㅣ -1463
ff -1464
ㄱㅓㅁ -1465
▁ㅎㅘㄱㅅㅣㄹ -1466
▁ㄱㅕㅇㅎㅓㅁ -1467
▁ㅂㅏㄺㅎㅕ -1468
▁ㅎㅏㄴㅈㅓㅇ -1469
▁ㅈㅓㄹㄷㅐ -1470
▁ㄴㅏㄱ -1471
▁ㅈㅗㄱ -1472
▁2011 -1473
▁ㄷㅡㅇㅈㅏㅇㅇㅣㄴㅁㅜㄹ -1474
▁ㅅㅐㅇㅎㅘㄹ -1475
ir -1476
▁ㅍㅕㄹ -1477
▁ㅇㅣㄴㅈㅓㅇ -1478
ㅍㅗㄴ -1479
▁05 -1480
▁ㅈㅜㅇㅇㅏㅇ -1481
▁ㅇㅕㄴㄱㅣ -1482
ㄴㅔㅅ -1483
▁ㅇㅔㄴㄷㅣㅇ -1484
▁ㄲㅜㅁ -1485
ㅁㅗㅅ -1486
▁ㅅㅐㅇㅁㅕㅇ -1487
▁ㅂㅏㅇㅎㅑㅇ -1488
ㄸㅓㅎㄱㅔ -1489
ㅎㅣㄴ -1490
▁ㅈㅜㄱㅇㅣ -1491
▁ㅎㅘㄹㅇㅛㅇ -1492
▁ㅇㅜㄴㄷㅗㅇ -1493
ㄴㅐㅆ -1494
▁ㅈㅜㅇㄱㅏㄴ -1495
ㄹㅏㅇㅅㅡ -1496
▁ㅈㅣㄴㅊㅜㄹ -1497
ㅈㅚ -1498
os -1499
▁ㄱㅜㄹ -1500
▁ㅈㅗㄹ -1501
▁ㅅㅓㄴㄱㅓ -1502
ㅁㅣㅇ -1503
▁Z -1504
ㅌㅏㅇ -1505
▁08 -1506
ㅊㅝ -1507
▁ㅈㅝㅆ -1508
ㅅㅣㄹㅅㅏㅇ -1509
▁ㅂㅜㄹㄹㅓ -1510
▁ㄱㅙ -1511
▁ㅎㅗㄴㅈㅏ -1512
ㄷㅡㅇㅎㅏㄱㄱㅛ -1513
ㅎㅛ -1514
▁ㄹㅣㄴ -1515
ㅇㅏㅂ -1516
▁ㅅㅜㄱ -1517
▁ㅅㅜㄴㅇㅟ -1518
im -1519
▁ㅇㅏㄴㅌㅏ -1520
▁ㄷㅡㅅㅇㅣ -1521
▁07 -1522
ㅂㅠ -1523
▁70 -1524
▁ㄴㅗㄴㄹㅏㄴ -1525
▁ㅁㅣㄷ -1526
▁ㅈㅜㄴㅂㅣ -1527
ㄷㅏㅂ -1528
ㅎㅗㄱ -1529
▁ㅌㅔㄴ -1530
ㅇㅛㄱ -1531
▁ㅇㅕㅍ -1532
▁ㅎㅐㄱ -1533
▁90 -1534
ㅅㅔㄴ -1535
▁48 -1536
▁ㅎㅏㄱㄴㅕㄴ -1537
▁ㄹㅣㅇㅋㅡ -1538
▁ㅊㅐㅁㅍㅣ -1539
▁ㅎㅡㅂ -1540
▁ㄹㅓㄴ -1541
▁ㅊㅏㅁㅇㅕ -1542
▁ㅂㅡㄹㄹㅐㄱ -1543
▁HP -1544
ter -1545
ㅌㅗㅇㄹㅕㅇ -1546
▁ㄷㅏㅇㅇㅕㄴㅎㅣ -1547
▁ㅂㅏㅇㅁㅕㄴ -1548
▁ㅎㅔㄹ -1549
▁ㅇㅓㅁㅊㅓㅇㄴㅏㄴ -1550
▁ㅅㅣㅀ -1551
▁ㅇㅛㄱ -1552
▁ㅎㅕㄴㅅㅣㄹ -1553
▁ㅈㅣㄱㅇㅓㅂ -1554
▁ㅈㅚ -1555
▁ㅁㅣㄴㅈㅜ -1556
▁06 -1557
ㅊㅐ -1558
▁ㄱㅙㄴ -1559
▁ㅂㅜㄴㅇㅟ -1560
ㅆㅣㄴ -1561
▁ㅅㅐㅇㄱㅣ -1562
ㄱㅜㅇ -1563
▁ㅇㅑㄱㄱㅏㄴ -1564
▁ㅇㅠㄹ -1565
▁ㅈㅓㄴㅇㅛㅇ -1566
▁ㄷㅗㅇㄹㅛ -1567
▁ㅅㅣㅂ -1568
▁33 -1569
ㄴㅑ -1570
▁ㅇㅣㅂㄴㅣ -1571
▁ㅈㅜㅇㅅㅣㅁ -1572
ur -1573
▁ㄴㅗㄹ -1574
▁ㄷㅏㄴㅅㅜㄴ -1575
ㅊㅕㅆ -1576
▁ㅎㅡㅇ -1577
▁mm -1578
▁ㅋㅠ -1579
▁ㅅㅓㄹㅊㅣ -1580
ㅃㅏ -1581
▁ㅋㅗㅁ -1582
▁ㅇㅒ -1583
▁300 -1584
ㅉㅏㄱ -1585
ㅋㅕㅆ -1586
▁ㅇㅕㅁ -1587
▁ㅊㅏㄴ -1588
▁... -1589
▁ㄸㅗㄱ -1590
▁2000 -1591
▁ㄹㅗㄴ -1592
▁04 -1593
▁ㄱㅏㅆ -1594
▁ㅈㅡㄹ -1595
▁36 -1596
▁ㅎㅝㄹ -1597
▁ㅁㅜㄷ -1598
▁ㅇㅣㄹㅈㅓㅇ -1599
ㄲㅣㅁ -1600
▁ㄱㅕㄹㅎㅗㄴ -1601
▁ㅊㅜㄱㄱㅜ -1602
▁ㅇㅣㄺ -1603
▁ㅈㅗㅇㄹㅠ -1604
▁ㅁㅗㅅㅎㅏㄴ -1605
▁e -1606
od -1607
▁ㅈㅕ -1608
▁th -1609
▁ㅇㅕㄴㅅㅗㄱ -1610
▁ㅇㅗㅂ -1611
▁ㅅㅓㅇㅈㅓㄱ -1612
▁ㅅㅏㅁㅅㅓㅇ -1613
▁ㅎㅝㄹㅆㅣㄴ -1614
ag -1615
ㅋㅣㅇ -1616
▁ㅌㅏㅅ -1617
ㄹㅗㅂ -1618
▁ㅆㅏㅇ -1619
▁ㅅㅏㄹㅇㅏ -1620
▁ㅍㅐㄱ -1621
▁ㄱㅏㄱㄱㅏㄱ -1622
▁ㅁㅗㄱㅈㅓㄱ -1623
ㄷㅏㄱ -1624
▁ㄹㅠㄹ -1625
▁you -1626
ㅎㅖ -1627
▁ㅇㅣㄱ -1628
▁ㅈㅣㅇ -1629
▁ㅂㅕㄱ -1630
▁ㅂㅜㄹㄱㅜ -1631
▁ㅊㅏㅁㄱㅏ -1632
▁ㄱㅏㅇㅎㅏㄴ -1633
ㅌㅣㄴ -1634
▁ㅂㅏㄹㅍㅛ -1635
▁ㅌㅟ -1636
▁ㅂㅏㅇㅇㅕㅇ -1637
▁ㄹㅐㄴ -1638
▁ㅈㅓㄴㅅㅓㄹ -1639
▁ㄷㅏㅇㅅㅣㄴ -1640
ub -1641
▁ㅇㅓㄴㅈㅔ -1642
▁ㅇㅜㄴㅎㅐㅇ -1643
▁ㅅㅓㅇㅈㅏㅇ -1644
ㅎㅕㄹ -1645
▁FC -1646
▁ㄴㅕ -1647
ㅂㅣㄴ -1648
▁ㅇㅔㄹㄹㅣ -1649
▁ㄹㅕㄱ -1650
▁ㅈㅗㅇㅈㅗㄱ -1651
ㅎㅕㄱ -1652
ㄱㅏㅌ -1653
▁ㅅㅔㄴㅌㅓ -1654
▁ㅈㅏㄹㅁㅗㅅ -1655
▁ㅂㅔㄴ -1656
ㅌㅔㄴ -1657
▁ㄱㅏㄱㅅㅓㅇ -1658
▁ㅈㅓㄴㅁㅜㄴ -1659
ㅇㅐㄱ -1660
ㅈㅜㄴㄷㅏ -1661
▁ㅉㅏㄼ -1662
▁ㅈㅗㅇㄹㅛ -1663
▁ㄴㅡㄹㅇㅓ -1664
▁cm -1665
igh -1666
▁ㅇㅓㅂㄷㅔ -1667
▁ㅇㅗㄱ -1668
▁ㅋㅐㅁ -1669
▁ㅈㅏㅇㅊㅏㄱ -1670
ㅇㅣㄹㄹㅓ -1671
ㄹㅓㄹ -1672
▁ㄱㅓㄹㄹㅣ -1673
▁ㄱㅡㄴㅈㅓㅂ -1674
▁ㅈㅠ -1675
ㅊㅣㄱ -1676
ㅂㅗㅅ -1677
ver -1678
▁ㅅㅏㄱ -1679
▁ㄹㅔㄴ -1680
▁ㅇㅣㄹㅇㅡ -1681
▁ㅈㅜㄱㅇㅡㅁ -1682
▁ㅇㅣㄹㅎㅐㅇ -1683
ㅊㅏㅁ -1684
▁ㅁㅗㄱㄹㅗㄱ -1685
▁ㅂㅓㄴㅎㅗ -1686
ㅎㅕㅂ -1687
▁ㅅㅗㄹ -1688
▁ㅂㅓㅅ -1689
▁ㄱㅜㄷ -1690
▁ㅁㅏㄴㄷㅡ -1691
ㅇㅘㄴ -1692
ㅁㅐㅇ -1693
ak -1694
▁ㅊㅣㅇ -1695
▁ㄷㅏㄹㅅㅓㅇ -1696
ㅊㅣㄹ -1697
▁ㅍㅣㄱ -1698
▁ㄲㅡㄶ -1699
▁SK -1700
▁34 -1701
ㄱㅌㅓ -1702
▁ㅎㅏㅇㄱㅗㅇ -1703
▁ㅂㅓㄹㅇㅓ -1704
ㅊㅜㄴ -1705
ㅊㅓㄱ -1706
ㅅㅑ -1707
▁ㅈㅓㅇㅅㅏㅇ -1708
▁ㅈㅓㅁㅅㅜ -1709
▁ㅊㅓㄱ -1710
▁ㅂㅓㄴㅇㅕㄱ -1711
▁ㅂㅘㅆ -1712
▁ㅋㅔㄴ -1713
ㅇㅓㅁ -1714
▁ㄷㅓㅁ -1715
▁ㄱㅜㄱㅁㅣㄴ -1716
ent -1717
▁196 -1718
▁ㅇㅔㄴㅈㅣㄴ -1719
ㅇㅓㅅ -1720
ㅋㅔㅅㅁㅗㄴ -1721
▁ㅊㅜㅇㅂㅜㄴ -1722
▁ㅍㅗㄹ -1723
▁ㅇㅏㄴㅈㅓㅇ -1724
▁ㅁㅗㄱㅅㅗ -1725
▁ㅈㅓㄴㅈㅏㄱ -1726
▁ㅊㅜㄹㅈㅓㄴ -1727
▁ㄱㅕㅇㅈㅔ -1728
▁ㅋㅡㄹㄹㅐ -1729
▁ㅊㅜㅇㄱㅕㄱ -1730
▁ㅍㅡㄹㄹㅐ -1731
▁ㄸㅗㄱㄱㅏㅌ -1732
▁ㅂㅣㅇ -1733
um -1734
▁ㅇㅏㄱㅁㅏ -1735
ㄷㅜㅇ -1736
ㄹㅗㄹ -1737
ㅂㅏㄷ -1738
ut -1739
▁ㅈㅏㄱㅈㅓㄴ -1740
▁75 -1741
BC -1742
▁ㅈㅓㅇㅊㅔ -1743
▁ㄱㅗㅇㅈㅜㅇ -1744
▁ㄴㅏㄹㅇㅏ -1745
▁ㅈㅓㄴㅅㅏ -1746
▁ㄴㅏㅁㅅㅓㅇ -1747
▁ㅎㅗㅁㄹㅓㄴ -1748
ec -1749
▁ㅅㅔㅁ -1750
▁ㄷㅗㅇㅁㅜㄹ -1751
▁ㄷㅏㅇㅎㅐㅆ -1752
▁ㅍㅜㅁ -1753
▁38 -1754
▁ㅈㅓㄴㅊㅏ -1755
▁ㄱㅓㄴㄷㅏㅁ -1756
▁vs -1757
▁ㅇㅣㄹㄹㅓ -1758
▁ㅅㅕㄴ -1759
ㄴㅣㄱ -1760
ㅋㅠ -1761
▁ㅎㅜㄴㄹㅕㄴ -1762
▁ㅁㅔㄴ -1763
▁ㄱㅗㄷ -1764
▁ㅎㅕㄹ -1765
▁ㅍㅣㄹㄷㅡ -1766
▁ㄱㅏㅇㅎㅏ -1767
▁ㄱㅙㄴㅊㅏㄶ -1768
▁ㅂㅕㄴㅎㅘ -1769
▁ㅅㅣㅇㄱㅡㄹ -1770
ㅌㅗㄴ -1771
ㅋㅣㄴㄷㅏ -1772
▁in -1773
▁55 -1774
ㅇㅠㄴ -1775
▁ㅅㅐㅇㅈㅗㄴ -1776
▁ㄷㅡㄱㅈㅓㅁ -1777
▁ㅎㅐㅆㅇㅓㅆ -1778
ㅊㅟ -1779
▁ㅇㅣㄴㅅㅏ -1780
▁ㄹㅛ -1781
ㄲㅡ -1782
▁ㅈㅓㄴㄱㅣ -1783
▁ㅈㅏㅇㄱㅏㅂ -1784
ㄹㅣㅅ -1785
▁ㄸㅜ -1786
▁ㅂㅣㄱ -1787
▁ㄱㅜㄱㅈㅔ -1788
▁2009 -1789
▁ㅁㅏㄴㅇㅑㄱ -1790
▁ㄷㅟㅅ -1791
▁ㅅㅣㄴㄱㅕㅇ -1792
▁ㅇㅕㄴㄱㅕㄹ -1793
▁ㄹㅗㅅ -1794
▁ㅌㅡㄱㅈㅓㅇ -1795
▁ㅂㅜㄴㄴㅗ -1796
ro -1797
ST -1798
▁ㄱㅗㅇㅇㅕㄴ -1799
▁ㅎㅏㄴㄷㅔ -1800
▁to -1801
▁ㄲㅗㅊ -1802
▁ㅈㅏㅇㅅㅗ -1803
▁ㄷㅓㄴㅈㅓㄴ -1804
▁ㄷㅏㄴㅈㅓㅁ -1805
▁Q -1806
ㄹㄹㅔ -1807
ㅆㅏ -1808
▁ㅊㅓㄹㄷㅗ -1809
ㅇㅣㄴㅈㅣ -1810
▁ㅍㅏㄴㅈㅓㅇ -1811
▁ㅁㅗㄱㅍㅛ -1812
▁ㅇㅕㄴㅎㅏㅂ -1813
▁ㅈㅏㄱㄱㅗㄱ -1814
▁ㅇㅕㄴㅊㅜㄹ -1815
▁ㄴㅐㅇ -1816
▁ㅎㅏㅇㅅㅏㅇ -1817
▁ㄷㅏㄹㄹㅏ -1818
ㅋㅗㄴ -1819
▁ㅁㅐㅇ -1820
ㅇㅏㄹ -1821
▁ㅁㅕㄹ -1822
▁ㅎㅗㄹ -1823
▁ㅈㅓㅇㅈㅏㄱ -1824
▁ㅁㅣㄹㄹㅣ -1825
▁ㅈㅓㅇㅅㅣㄱ -1826
▁ㅎㅏㄴㅍㅕㄴ -1827
▁ㅂㅕㄴㅅㅣㄴ -1828
ㄴㅠ -1829
▁ㄱㅘㄴㅅㅣㅁ -1830
▁_ -1831
▁ㅂㅏㄴㅁㅕㄴ -1832
▁ㅂㅕㄹㄹㅗ -1833
ㅎㅏㄱㅅㅐㅇ -1834
▁ㅈㅗㄹㅇㅓㅂ -1835
▁ㅈㅣㄴㅎㅘ -1836
▁ㅎㅡㄹ -1837
▁ㄹㅗㄱ -1838
▁ㅇㅣㄴㄱㅏ -1839
ㄹㅕㄹ -1840
ㅘㄹ -1841
▁ㅇㅐㄴ -1842
em -1843
ㅂㅜㅌ -1844
▁ㄱㅕㄹㅅㅡㅇ -1845
▁ㄴㅓㄼ -1846
▁ㅇㅗㅅ -1847
ㄹㅠㄱ -1848
ㅈㅡㅁ -1849
▁ㅋㅓㄹ -1850
▁EX -1851
▁ㅌㅡㄱㅇㅣ -1852
ㅅㅔㅂ -1853
▁ㅎㅘㄱㅈㅓㅇ -1854
ㅃㅡ -1855
▁ㅋㅟ -1856
▁ㄷㅏㄹㄹㅕ -1857
▁ㄱㅏㄱㅈㅗㅇ -1858
ㅇㅏㅁ -1859
ight -1860
▁ㄲㅏㄹ -1861
▁2008 -1862
AN -1863
ㄴㅅㅡ -1864
ㅁㅠ -1865
▁ㄴㅗㅁ -1866
▁ㅇㅚㄴ -1867
▁ㅇㅏㄹㅇㅏ -1868
ㄷㅗㅇㅇㅏㄴ -1869
▁ㄱㅓㄴㅅㅓㄹ -1870
ㅂㅡㄴ -1871
ㅅㅙ -1872
▁ㅎㅘㅇㅈㅔ -1873
▁ㄷㅜㄴ -1874
ㅍㅖ -1875
▁ㅇㅕㄱㄷㅐ -1876
AR -1877
▁ㅅㅏㄱㅈㅔ -1878
▁ㅆㅏㅎ -1879
▁ㄱㅗㄹㄷㅡ -1880
ㄷㅜㅁ -1881
▁ㄱㅐㄹ -1882
▁ㅈㅓㄴㅂㅏㄴ -1883
▁ㅂㅏㄹㅈㅓㄴ -1884
ap -1885
▁ㅉㅡㅁ -1886
ㅌㅔㄹ -1887
▁ㄱㅏㅂㅈㅏ -1888
▁ㅂㅜㄱㅎㅏㄴ -1889
▁ㅂㅜㄴㄹㅠ -1890
ON -1891
ㅈㅣㅅ -1892
▁ㄹㅐㅇㅋㅡ -1893
▁42 -1894
▁41 -1895
ㅎㅓ -1896
▁ㄸㅢ -1897
ㄲㅏㅂ -1898
▁ㅊㅣㄹ -1899
ㅎㅡㅇ -1900
▁ㅈㅓㅁㅍㅡ -1901
▁ㅇㅣㅁㅁㅜ -1902
▁No -1903
▁ㄱㅡㄱㅈㅏㅇ -1904
▁ㅈㅓㄴㄱㅜㄱ -1905
▁ㄷㅏㅇㅎㅏㄴ -1906
ㅁㅏㄹㄹㅗ -1907
▁', -1908
ㅈㅔㄱㅌㅡ -1909
▁ㅌㅏㄹㅊㅜㄹ -1910
▁ㅂㅕㄹㅁㅕㅇ -1911
▁Ch -1912
▁ㅇㅏㅂㄷㅗ -1913
▁ㅁㅝㄴ -1914
ㄴㅏㄱ -1915
▁ㅈㅣㄱㅈㅓㄴ -1916
▁ㅇㅣㅇ -1917
▁39 -1918
ㅍㅡㄴ -1919
▁ㄲㅜㄴ -1920
ㄹㄹㅣㅇ -1921
▁ㄱㅏㅁㅈㅓㅇ -1922
ㄲㅡㄹ -1923
▁ㄴㅚ -1924
ㅈㅜㄹ -1925
▁ㄴㅏㅂ -1926
▁ㄴㅐㄴ -1927
▁ㅂㅕㅇㄹㅕㄱ -1928
▁ㄱㅣㅍ -1929
▁ㅇㅣㄴㅊㅓㄴ -1930
▁ㅈㅏㄱㅇㅓㅂ -1931
▁ㄷㅏㄴㅇㅓ -1932
▁ㅇㅕㄴㅅㅡㅂ -1933
▁ㅇㅘㄴㅈㅓㄴ -1934
ㅇㅏㅅ -1935
▁ㅇㅣㄴㄱㅜ -1936
ul -1937
▁ㅅㅏㅇㄱㅘㄴ -1938
▁ㅊㅘㄹ -1939
▁ㅈㅣㅂㅈㅜㅇ -1940
▁ㅇㅓㅂㄱㅡ -1941
▁ㅍㅗㄴ -1942
▁ㅎㅐㅇㅈㅓㅇ -1943
▁ㄱㅗㅇㄱㅏㄴ -1944
▁kg -1945
▁ㄹㅗㄹ -1946
▁ㅋㅓㅂ -1947
▁st -1948
ㅋㅓㅂ -1949
▁ㅁㅜㄹㄱㅓㄴ -1950
▁ㅂㅜㄹㄱㅏ -1951
▁44 -1952
ce -1953
▁194 -1954
▁ㅇㅖㅅ -1955
▁ㅁㅗㅇ -1956
▁ㄷㅓㄴㅈㅣ -1957
▁ㅍㅔㄴ -1958
▁; -1959
▁ㅎㅗㅁㅍㅔ -1960
▁ㅇㅣㄴㅅㅣㄱ -1961
▁ㅁㅕㅇㄹㅕㅇ -1962
ㅊㅗㄴ -1963
▁ㅈㅏㅇㅈㅓㅁ -1964
▁2020 -1965
▁ㅈㅓㄴㅈㅏ -1966
▁ㄱㅕㅇㅈㅐㅇ -1967
▁ㅂㅕㅇㅇㅝㄴ -1968
000 -1969
▁ㅈㅏㅁㅅㅣ -1970
▁ㅅㅣㄴㅊㅔ -1971
ㅂㅏㅂ -1972
▁ㅊㅘㄹㅇㅕㅇ -1973
▁ㅍㅡㄹㄹㅏ -1974
▁ㅈㅣㅁ -1975
▁> -1976
ㅂㅓㅂㅅㅏ -1977
▁ㄱㅕㅁ -1978
ik -1979
▁ㄱㅡㄴㅊㅓ -1980
ㄹㅔㄱ -1981
▁ㅅㅏㄹㅇㅣㄴ -1982
▁ㅂㅗㄴㄹㅐ -1983
▁99 -1984
▁ㄱㅜㄴㅅㅏ -1985
▁ㅈㅓㅇㄹㅣ -1986
▁ㅈㅓㄴㄱㅐ -1987
▁ㄱㅗㅇㅈㅜ -1988
▁LG -1989
▁ㅇㅡㄴㄷㅔ -1990
▁ㅁㅗㄹㄹㅏ -1991
▁ㅎㅏㄱㅇㅝㄴ -1992
▁ㅇㅗㄹㄹㅕ -1993
all -1994
▁ㅌㅓㄹ -1995
▁ㄹㅗㅅㄷㅔ -1996
▁ㅂㅏㄹㅇㅓㄴ -1997
▁2007 -1998
ㄲㅓ -1999
▁ㄱㅏㄴㄷㅏ -2000
▁ㅇㅞㅂ -2001
▁43 -2002
▁ㄲㅡㅌㄴㅏ -2003
▁ㅍㅕㅇㄱㅠㄴ -2004
IN -2005
▁ㅁㅣㅌ -2006
▁ㅅㅓㄴㅅㅐㅇ -2007
▁ㅈㅓㄴㄹㅕㄱ -2008
▁ㄴㅣㄴ -2009
▁ㅃㅜ -2010
▁195 -2011
▁ㅅㅔㅅ -2012
ㅇㅜㄴㄷㅔ -2013
▁ㅂㅜㅇ -2014
▁ㄱㅏㅇㅈㅔ -2015
▁ㅇㅗㅂㅅㅕㄴ -2016
▁ㅅㅐㅇㄱㅕㅆ -2017
▁ㅇㅘㅇㄱㅜㄱ -2018
▁MA -2019
▁ㅍㅗㄱㅌㅏㄴ -2020
▁ㄹㅗㅂ -2021
▁ㅂㅜㄺ -2022
ㅋㅛ -2023
▁ㄷㅗㄱㄹㅣㅂ -2024
▁ㄲㅗㄱ -2025
▁ㄷㅏㄴㅊㅔ -2026
▁ㄷㅗㅇㅅㅐㅇ -2027
ㅎㅡ -2028
nd -2029
ㅅㅕ -2030
▁ㄸㅓㄱ -2031
ㅌㅏㄹㄹㅣ -2032
▁ㅍㅏㄴㄷㅏㄴ -2033
▁ㅇㅡㅁㅅㅣㄱ -2034
ㅊㅡㅇ -2035
▁46 -2036
▁ㅌㅏㄹㄹㅏㄱ -2037
ㅅㅡㅁ -2038
▁ㅎㅏㄴㄱㅡㄹ -2039
▁ㅈㅜㅇㅂㅏㄴ -2040
▁47 -2041
ㄱㅔㄴ -2042
▁ㅎㅕㄴㅅㅏㅇ -2043
▁ㅇㅕㄴㅈㅐ -2044
▁ㅋㅣㄹ -2045
▁ㅌㅗㅇㅎㅏㅂ -2046
ㅅㅓㅂ -2047
ㄷㅗㅇㅊㅏ -2048
th -2049
▁ㅂㅕㅇㅅㅏ -2050
▁ㅂㅏㄷㅇㅏ -2051
▁ㅂㅜㄴㅁㅕㅇ -2052
▁ㅂㅏㄴㄷㅡ -2053
▁ㅌㅐㅇ -2054
ㅁㅛ -2055
ㅅㅜㅁ -2056
▁2006 -2057
▁ㅅㅏㅇㅅㅔ -2058
▁ㅎㅐㅇㅇㅟ -2059
▁ㄷㅏㄴㅈㅣ -2060
▁ㅇㅘㄴㅂㅕㄱ -2061
▁ㅇㅘㄴㅅㅓㅇ -2062
▁ㄴㅓㄹ -2063
▁ㄱㅜㄴㄷㅐ -2064
▁ㄱㅘㅇㅇㅕㄱ -2065
▁51 -2066
▁ㅈㅜㄹㅇㅓ -2067
▁ㅇㅝㄴㅇㅣㄴ -2068
▁ㄱㅕㄲ -2069
op -2070
ㅊㅓㅂ -2071
▁ㅂㅗㄱㄱㅟ -2072
ㄹㅏㄴㄷㅡ -2073
▁ㅈㅓㅇㄱㅠ -2074
▁ㅍㅕㄹㅊㅣ -2075
▁ㅉㅗㅊ -2076
▁ㅌㅔㅁ -2077
▁ㅅㅑㅅ -2078
ㅁㅔㄴ -2079
st -2080
ㄱㅈㅓㅇ -2081
▁ㅇㅕㄴㅈㅏㅇ -2082
▁ㅈㅣㄱㅎㅜ -2083
▁ㅅㅕ -2084
▁ㅎㅘㄴㄱㅕㅇ -2085
▁ㅎㅣㄹ -2086
▁SP -2087
▁ㅈㅜㅇㅎㅏㄱㄱㅛ -2088
▁ㅂㅗㄱㅅㅜ -2089
ㅉㅣㄱ -2090
ㅂㅕ -2091
▁ㅈㅓㄴㄹㅑㄱ -2092
ation -2093
tt -2094
▁ㅍㅣㄹㅅㅏㄹ -2095
▁ㅍㅕㅇㅂㅓㅁ -2096
▁ㅇㅣㄴㄷㅗ -2097
ra -2098
ㅅㅓㅅ -2099
▁ㄴㅡㅈ -2100
▁ㅋㅐㅂ -2101
ㅅㅣㅇ -2102
▁ㄴㅗㄹㄹㅏ -2103
▁ㄱㅗㅇㅍㅗ -2104
▁ㅈㅣㄴㄷㅏ -2105
ㅎㅗㅇ -2106
ㄷㅠ -2107
▁ㅂㅏㅂ -2108
▁ㅇㅗㄻ -2109
ia -2110
ack -2111
▁ㅅㅣㄹㅎㅓㅁ -2112
▁ㅇㅔㄱㅅㅡ -2113
▁ㅌㅗㄴ -2114
▁ㅍㅗㅁ -2115
▁ㅈㅗㅎㅇㅏ -2116
▁ㄱㅜㄱㅎㅚ -2117
▁ㅋㅗㄹ -2118
▁ㄱㅓㄱㅈㅓㅇ -2119
▁ㅁㅏㅈㅊㅝ -2120
▁ㅈㅏㅇㄹㅡ -2121
▁ㄱㅓㄹㄹㅗ -2122
▁ㅅㅐㅇㄱㅣㄴ -2123
▁ㅃㅏㄹㄹㅣ -2124
▁ㅅㅖ -2125
▁ㅌㅐㄱ -2126
▁and -2127
▁ㅅㅣㄹㅈㅓㅁ -2128
▁ㅇㅕㅇㅎㅗㄴ -2129
ㄴㅣㅁ -2130
▁ㄱㅘㅇㄱㅗ -2131
▁1000 -2132
ㅈㅘ -2133
▁ㅈㅐㄱ -2134
▁ㅎㅏㅁㅈㅓㅇ -2135
▁ㄷㅔㄴ -2136
ㅍㅣㄱ -2137
▁ㅁㅏㅈㅊㅜ -2138
ㅅㅕㄹ -2139
▁65 -2140
▁ㅁㅓㅅ -2141
▁ㅈㅓㅇㅎㅘㄱㅎㅣ -2142
▁ㅈㅓㅁㅈㅓㅁ -2143
▁ㅇㅟㄴ -2144
▁ㅅㅣㅁㄱㅏㄱ -2145
ㅈㅜㄱ -2146
▁ㅃㅓㄴ -2147
▁ㅊㅐㄱㅇㅣㅁ -2148
▁150 -2149
ㅇㅑㅇㅇㅣ -2150
▁ㅎㅏㄴㄱㅖ -2151
ㅁㅏㅈ -2152
ㅂㅣㅇ -2153
▁ㅅㅜㅍ -2154
ㅌㅏㅂ -2155
▁ㅅㅓㅇㅎㅑㅇ -2156
▁ㅈㅓㅇㅇㅢ -2157
ㄲㅝ -2158
▁ㄱㅜㄷㅇㅣ -2159
▁ㅇㅏㅇ -2160
ㅃㅡㄴ -2161
oc -2162
▁VS -2163
ㅊㅚ -2164
ㄲㅗㅊ -2165
ㅊㅓㅇㅈㅏ -2166
▁ㅈㅓㅂㄱㅡㄴ -2167
ㄴㅣㄹ -2168
▁ㅍㅕㅇㅅㅗ -2169
▁ㅇㅏㅁㅅㅏㄹ -2170
▁ㅎㅘㄱㅈㅏㅇ -2171
▁ㅂㅏㄺㅎㅕㅆ -2172
▁ㅂㅐㄹ -2173
ie -2174
▁ㅇㅣㅅ -2175
▁ㅎㅕㄱ -2176
▁ㅂㅗㅇㅇㅣㄴ -2177
ill -2178
▁ㄱㅐㄹㄹㅓ -2179
▁ㄱㅡㄴㄷㅔ -2180
▁ㄱㅓㅁㅅㅏ -2181
▁ㅋㅡㄹㄹㅓㅂ -2182
ㄷㅜㄴ -2183
▁ㄱㅗㅇㄹㅑㄱ -2184
▁ㅂㅡㄹㄹㅜ -2185
▁ㅈㅗㅇㅈㅗㅇ -2186
▁ㄱㅡㅁㅈㅣ -2187
▁ㅂㅓㅁㅈㅚ -2188
▁ㅇㅜㄴㅇㅛㅇ -2189
ㅁㅕㅊ -2190
▁ㅈㅏㅇㅊㅣ -2191
▁ㅁㅕㅊㅁㅕㅊ -2192
▁ㅃㅏㅇ -2193
▁ㄴㅏㅅ -2194
▁ㅎㅏㅂㄹㅠ -2195
art -2196
▁52 -2197
▁ㅇㅔㅁ -2198
▁ㄷㅏㅇㅎㅐ -2199
▁II -2200
▁KBS -2201
▁ㅈㅓㄴㅎㅘ -2202
ㄹㅗㅇ -2203
▁ㅌㅡㄱㅇㅠ -2204
ㅇㅣㅆ -2205
ㄷㅗㄴ -2206
▁2005 -2207
ㅈㅔㄹ -2208
▁ㅇㅣㅈ -2209
▁64 -2210
▁%, -2211
ㄹㅝ -2212
ㅌㅡㄱ -2213
▁ㅇㅏㄹㄹㅣ -2214
▁ㄴㅐㅆ -2215
ㅈㅔㄴ -2216
▁ㅂㅏㄹㅇㅡㅁ -2217
▁ㅈㅟ -2218
▁ㅈㅓㄴㅇㅝㄴ -2219
ㅍㅔㄴ -2220
▁ㅈㅓㅇㄷㅏㅇ -2221
ㅅㅈㅏ -2222
▁ㅂㅐㄴㄷㅡ -2223
▁ㅂㅗㄴㄱㅕㄱ -2224
▁ㅈㅗㅇㅎㅏㅂ -2225
▁ㅂㅡㄹㄹㅔ -2226
ㅅㅣㅂ -2227
▁ㅎㅐㅇㅅㅏ -2228
▁ㅎㅕㅇㅈㅔ -2229
▁ㅇㅣㄹㅂㅗㄴㅇㅓ -2230
▁ㅇㅣㄴㅅㅏㅇ -2231
▁ㅅㅏㅇㅈㅣㅇ -2232
ri -2233
uby -2234
▁ㅅㅣㄹㅅㅜ -2235
▁ㅌㅠ -2236
▁You -2237
ab -2238
ㅎㅓㄴ -2239
▁ㄸㅜㅀ -2240
▁ㅂㅜㄹㅁㅕㅇ -2241
ㄲㅏㄴ -2242
▁49 -2243
AL -2244
▁ㅇㅣㄴㅎㅏㄴ -2245
▁ㅈㅗㅇㄱㅛ -2246
▁ㅊㅜㅇㅂㅜㄴㅎㅣ -2247
ㅌㅓㄹ -2248
ㅌㅔㄴㅊㅡ -2249
▁2004 -2250
▁ST -2251
▁dd -2252
est -2253
▁ㅇㅝㄴㅈㅓㅇ -2254
ㅁㅏㄶ -2255
ㄹㅏㄹ -2256
▁ㅎㅠㅇ -2257
▁ruby -2258
ㄴㅐㄹ -2259
▁56 -2260
▁ㄱㅘㅇㅈㅜ -2261
ㅍㅠ -2262
ㄴㅕㅇ -2263
▁ㅋㅓㄴㅅㅔㅂ -2264
▁ㅎㅕㅇㅅㅣㄱ -2265
OR -2266
ㅁㅗㅇ -2267
▁In -2268
▁ㅅㅐㅇㅁㅜㄹ -2269
ㅂㅣㅊ -2270
▁ㅂㅏㅇㅍㅐ -2271
▁ㄴㅡㄴㄱㅏ -2272
▁AP -2273
▁ㄱㅜㄴㄷㅏㄴ -2274
▁ㄹㅏㄱ -2275
▁ㅇㅓㅁㅊㅓㅇㄴㅏ -2276
▁400 -2277
▁ㄱㅘㄴㅌㅗㅇ -2278
▁MBC -2279
▁ㅋㅜㄹㅌㅏ -2280
▁ㅅㅏㅇㅈㅏ -2281
▁ㅌㅗㅇㅅㅣㄴ -2282
ㄷㅣㄴ -2283
▁ㅈㅏㅇㄴㅏㄴ -2284
▁ㅇㅐㄱㅅㅕㄴ -2285
▁ㅇㅣㄴㅇㅝㄴ -2286
▁85 -2287
▁ㅅㅓㄲ -2288
ㄱㅅㅣ -2289
▁ㄷㅡㅇㄹㅗㄱ -2290
ㅇㅝㄴㅎㅚ -2291
▁ㅇㅣㄴㅎㅕㅇ -2292
▁53 -2293
▁ㅁㅝㄴㄱㅏ -2294
ㄴㅓㅁ -2295
▁ㄱㅏㄴㄷㅏㄴ -2296
ㄲㅕ -2297
▁ㅇㅜㅁㅈㅣㄱㅇㅣ -2298
ㄹㅓㄴㅅㅡ -2299
▁ㅆㅡㄴㄷㅏ -2300
▁54 -2301
▁ㅂㅏㄱㅅㅏ -2302
▁ㅁㅗㅂ -2303
▁ㅇㅏㅍㅅㅓ -2304
▁ㄹㅐㅇ -2305
▁ㄴㅣㄱ -2306
▁ㄹㅏㅂ -2307
▁ㅁㅕㅇㅈㅜㅇ -2308
▁ㄴㅏㄹㄹㅕ -2309
▁ㅎㅣㅁㄷㅡㄴ -2310
ㅁㅐㄱ -2311
▁ㄴㅜㄴㅁㅜㄹ -2312
▁ㅂㅐㄴ -2313
▁ㅎㅐㅇㅅㅓㅇ -2314
▁ㅎㅏㄴㄱㅜㄱㅇㅓ -2315
▁ㅇㅑㄱㅈㅓㅁ -2316
ㅅㅅㅜ -2317
▁ㅋㅛ -2318
▁dddd -2319
▁dddddd -2320
▁ㄱㅗㅇㄷㅗㅇ -2321
▁ㄷㅏㄹㄹㅓ -2322
▁ㅇㅕㄹㅊㅏ -2323
▁ㅇㅝㄴㄱㅓ -2324
ㅍㅣㅇ -2325
▁2002 -2326
ㄴㅐㄴㄷㅏ -2327
ㅇㅕㅂ -2328
▁193 -2329
▁Sh -2330
ㄲㅗ -2331
ㄲㅐ -2332
▁ff -2333
▁ㅈㅓㄻ -2334
ttp -2335
▁ㅈㅓㅇㅊㅐㄱ -2336
▁http -2337
ㅍㅣㄴ -2338
ㅇㅗㅅ -2339
▁ㅇㅏㄵ -2340
▁ㅇㅕㅇㅇㅣㅂ -2341
▁ㅇㅓㄴㅇㅓ -2342
▁ㄷㅏㄻ -2343
ㅋㅟ -2344
▁ㄱㅏㅄ -2345
▁ㅂㅏㄴㅂㅗㄱ -2346
▁ㅌㅐㅅ -2347
ㄷㅡㅁ -2348
▁ㄱㅘㄴㅎㅏㄴ -2349
ㅌㅓㅁ -2350
ㄷㅔㄴ -2351
▁ㅂㅓㅅㅇㅓ -2352
▁ㅍㅠ -2353
ㅍㅏㄹ -2354
up -2355
▁ㅁㅗㅅㅎㅏㄴㄷㅏ -2356
▁ㅇㅗㄹㄹㅣㅁㅍㅣ -2357
▁ㄷㅗㄹㄹㅕ -2358
▁ㄸㅡㄴ -2359
▁ㅍㅣㄹㅅㅏㄹㄱㅣ -2360
▁ㅇㅘㄴㄹㅛ -2361
▁ㅈㅓㄴㅅㅜㄹ -2362
ㅂㅣㄹ -2363
▁ㅎㅖ -2364
▁ㅇㅓㄴㄹㅗㄴ -2365
▁ㅅㅓㄹㄱㅖ -2366
▁ㅎㅘㅇㄱㅡㅁ -2367
▁ㅊㅐㅇ -2368
ㅇㅜㄴㅌㅓ -2369
▁ㄱㅡㄴㄱㅓ -2370
▁ㅎㅡㅂㅅㅜ -2371
▁ㅈㅔㄴ -2372
▁ㅇㅕㄴㄱㅖ -2373
▁ㄴㅏㅆ -2374
▁ㅅㅐㅇㅅㅓㅇ -2375
▁ㅇㅞㄴ -2376
▁ㅋㅡㄹㄹㅏ -2377
▁ㅋㅓㅁㅍㅠ -2378
ㅋㅗㅇ -2379
▁ㅅㅜㅅㅈㅏ -2380
▁ㄴㅏㄹㄱㅐ -2381
▁59 -2382
▁ㅎㅐㅇㅈㅓㄱ -2383
▁ㅊㅏㄱㅇㅛㅇ -2384
▁ㅅㅓㄴㅇㅓㄴ -2385
ㅎㅣㄴㄷㅏ -2386
▁ㄷㅓㄹ -2387
▁ㅎㅕㅁ -2388
▁ㄹㅏㄹ -2389
▁PC -2390
▁ㅂㅏㅇㅎㅐ -2391
▁ㅇㅓㅁㅁㅏ -2392
▁MP -2393
▁ㅍㅕㄴㅅㅓㅇ -2394
▁ㅌㅔㄹ -2395
▁i -2396
▁ㅇㅕㄱㅈㅓㄴ -2397
ㄷㅗㅇㅅㅐㅇ -2398
▁ㅌㅡㄱㄱㅣ -2399
▁ㅋㅓㅅ -2400
▁ㅅㅏㄴㅇㅓㅂ -2401
VE -2402
▁ㅁㅗㄱㅅㅜㅁ -2403
▁ㅅㅓㄴㅈㅓㅇ -2404
▁Re -2405
▁Sp -2406
▁ㅅㅡㅇㅂㅜ -2407
▁ㅍㅣㅇ -2408
▁ㅅㅔㄹ -2409
▁ㄴㅔㄱ -2410
AT -2411
▁ㅅㅣㄹㅅㅣ -2412
ㄹㅜㄴ -2413
▁58 -2414
▁ㅈㅣㄴㅇㅣㅂ -2415
▁ㄷㅓㅇ -2416
▁ㅈㅏㄶ -2417
▁ㄱㅕㅂ -2418
▁ㄱㅗㅇㅎㅘ -2419
▁ㅍㅣㄹㅅㅜ -2420
ㅌㅣㄱ -2421
▁ㅆㅓㅆ -2422
▁ㅁㅐㅈ -2423
ㅁㅣㄱㅅㅡ -2424
ㄴㅗㄴ -2425
AM -2426
▁ㅇㅡㄹㅈㅣ -2427
ㅋㅏㄴ -2428
▁ㅂㅏㄱㅅㅡ -2429
▁re -2430
▁ㅅㅓㄴㅁㅜㄹ -2431
ang -2432
▁ㄲㅡㅌㄴㅐ -2433
▁ㅇㅚㄴㅉㅗㄱ -2434
ㅂㅌㅓ -2435
ㄷㅚ -2436
▁ㅎㅐㄴ -2437
▁ㄱㅕㅇㄹㅕㄱ -2438
▁ㅈㅓㄱㅈㅓㄹ -2439
ate -2440
▁ㅅㅗㄹㄹㅗ -2441
▁ㅈㅏㅇㄱㅣ -2442
▁ㅅㅓㄹㄹㅣㅂ -2443
▁57 -2444
▁ㅇㅕㄴㅈㅜ -2445
▁ㅈㅓㄴㅎㅘㄴ -2446
ㅇㅕㄴㅎㅣ -2447
▁ㄷㅗㄱㅈㅏ -2448
▁120 -2449
▁ㅁㅓㅁ -2450
▁ㄸㅏㄱㅎㅣ -2451
▁ㅎㅚㅅㅅㅜ -2452
▁ㅈㅏㅂㅇㅏ -2453
▁ㄷㅗㄹㄹㅣ -2454
▁ㅇㅏㄴㄷㅡ -2455
▁ㅇㅣㄴㄹㅠ -2456
▁ㅎㅜㄹ -2457
▁66 -2458
▁ㅈㅣㄹㅁㅜㄴ -2459
▁ㅂㅜㄹㄱㅘ -2460
▁ㅅㅡㅂㄱㅕㄱ -2461
▁ㄴㅗㅍㅇㅣ -2462
▁ㅇㅗㄹㄹㅣㅁㅍㅣㄱ -2463
ard -2464
▁95 -2465
▁ㅎㅐㅇㅂㅗㄱ -2466
▁ㅇㅏㄴㅈㅓㄴ -2467
▁ㅈㅏㅁㄲㅏㄴ -2468
▁ㄱㅔㄴ -2469
▁ㄷㅏㄴㅅㅜㄴㅎㅣ -2470
▁ㄷㅗㄹㅍㅏ -2471
▁2003 -2472
▁ㄲㅡㄹㅇㅓ -2473
▁ㅎㅘㄱㅅㅣㄹㅎㅣ -2474
▁ㅎㅏㅁㄷㅐ -2475
▁ㄱㅗㅇㅎㅏㅇ -2476
▁ㄱㅗㅇㅅㅏ -2477
▁ㄲㅗㄹ -2478
▁ㅇㅣㄹㅈㅗㅇ -2479
ㅁㅗㄹ -2480
▁ㅌㅗㅇㄱㅘ -2481
▁ㄱㅏㅁㅇㅏㄴ -2482
ㅇㅔㄴ -2483
▁ㅈㅣㅂㄷㅏㄴ -2484
▁ㅁㅜㄴㅁㅕㅇ -2485
▁ㅁㅗㅅㅎㅐ -2486
▁ㅍㅕㄴㅈㅣㅂ -2487
▁ㄸㅔ -2488
▁ㄷㅚㅁ -2489
▁ㅂㅐㅁ -2490
ㄱㅜㄱㅇㅣㄴ -2491
▁ㅂㅣㄹㄹㅣ -2492
▁ㅎㅏㄴㅈㅏ -2493
▁ㅋㅐㄴ -2494
▁ㅈㅓㄴㅌㅗㅇ -2495
▁be -2496
▁Bl -2497
ess -2498
▁ㅈㅏㄱㅅㅓㅇ -2499
▁ㅍㅓㄴ -2500
▁ㅋㅓㄴㅌㅡ -2501
▁ㅈㅏㅇㄱㅜㄴ -2502
ant -2503
▁ㅅㅣㅁㅎㅏ -2504
▁BG -2505
▁ㄹㅗㅇ -2506
▁ㅋㅗㅇ -2507
▁110 -2508
IA -2509
▁ㅁㅓㄹㅌㅣ -2510
▁ㅅㅓㄴㅂㅗ -2511
▁ㅇㅜㄹㅌㅡ -2512
▁ㅈㅏㅇㅈㅓㄴ -2513
▁ㅎㅘㄱㅂㅗ -2514
▁ㅂㅏㅇㅁㅜㄴ -2515
▁on -2516
▁ㅅㅏㅁㄱㅜㄱ -2517
▁ㅈㅣㄴㅈㅓㅇ -2518
▁ㄷㅐㅅ -2519
ell -2520
▁373 -2521
▁ㅊㅗㄱ -2522
IC -2523
ㅇㅟㄴ -2524
▁ㅅㅏㅇㅊㅓ -2525
▁ㅈㅓㄴㅈㅏㅇ -2526
▁ㅂㅜㄴㄹㅣ -2527
ue -2528
▁or -2529
▁ㄱㅡㄱㅈㅏㅇㅍㅏㄴ -2530
ct -2531
▁ㄷㅏㅇㅈㅏㅇ -2532
ㅍㅜㄹ -2533
ine -2534
▁ㄷㅣㄹㄹㅓ -2535
▁ㅁㅜㄲ -2536
▁62 -2537
▁ㅈㅓㄴㅎㅐ -2538
▁ㅇㅓㅇ -2539
PS -2540
▁ㅎㅕㄴㅈㅏㅇ -2541
▁ㅈㅓㄱㄱㅡㄱ -2542
ㅅㅚ -2543
▁SS -2544
▁ㅈㅣㄴㅇㅕㅇ -2545
▁ㅊㅓㅇㅅㅗ -2546
ㄷㅡㄹㅇㅣ -2547
▁ㄱㅐㅇ -2548
▁ㅇㅕㄹㄹㅣ -2549
▁ㅇㅠㄱㄱㅜㄴ -2550
▁Al -2551
▁ㄱㅞ -2552
▁ㅌㅏㅂㅈㅐ -2553
▁ㅇㅡㄹㄲㅏ -2554
ㄹㅡㄴㅉㅗㄱ -2555
▁ㄷㅐㄴㅅㅡ -2556
▁ㄴㅜㄴㅊㅣ -2557
▁ㄱㅏㄹㄹㅣ -2558
▁ㄷㅗㅇㅁㅐㅇ -2559
▁ㄴㅏㄴㄷㅏ -2560
▁ㅅㅓㅇㅇㅣㄴ -2561
ist -2562
▁ㅅㅜㄴㅅㅓ -2563
▁ㅊㅜㅁ -2564
▁ㄹㅜㄹ -2565
ㅅㅏㅁ -2566
▁ㅇㅗㄴㄹㅏ -2567
▁ㅍㅕㅇㅎㅘ -2568
▁ㄱㅗㅇㅂㅜ -2569
ove -2570
▁ㅍㅣㄴ -2571
▁ㄲㅏㄲ -2572
AS -2573
ore -2574
▁76 -2575
▁Th -2576
▁ㄲㅗㅂ -2577
▁ㅎㅏㄴㅎㅘ -2578
▁ㄸㅓㄹ -2579
ㄱㅣㄴㄷㅏ -2580
▁ㅊㅜㅇㅈㅓㄴ -2581
▁ㅇㅛㅇㅂㅕㅇ -2582
▁NP -2583
▁ㅈㅓㅇㄹㅕㅇ -2584
▁{ -2585
ㅌㅣㅁ -2586
▁ㅂㅡㄹㄹㅗ -2587
▁ㄱㅘㄴㄱㅘㅇ -2588
oo -2589
▁61 -2590
▁77 -2591
▁ㄱㅜㅇㄱㅡㄱ -2592
▁ㅇㅡㄴㅌㅚ -2593
ㅁㅓㄹ -2594
▁ㅈㅗㅂ -2595
▁ㅁㅓㄹㄹㅣ -2596
▁ㅇㅓㄹㅇㅡㅁ -2597
ㅁㅕㄴㄹㅏ -2598
▁ㅂㅣㅁ -2599
▁ㄱㅏㅅ -2600
▁ㅈㅣㄴㅅㅣㄹ -2601
ㅂㅏㄴㅂㅜ -2602
ㅊㅣㄴㄷㅏ -2603
▁.... -2604
ㅅㅟㅂ -2605
▁ㄱㅕㄱㅌㅜ -2606
▁72 -2607
▁com -2608
▁ㅈㅣㄱㅇㅝㄴ -2609
▁ㅍㅏㄴㅌㅏ -2610
▁88 -2611
▁ㄴㅏㅁㅍㅕㄴ -2612
▁ㅅㅐㅇㅇㅣㄹ -2613
▁ffff -2614
▁} -2615
▁ㅈㅓㅁㄹㅕㅇ -2616
ㅜㄹㄹㅓ -2617
▁ㄴㅏㄹㄹㅣ -2618
ㅎㅡㄱ -2619
ㅁㅕㅇㅌㅏ -2620
▁ㅂㅐㄹㄹㅓㄴㅅㅡ -2621
ㄱㅜㄴㄱㅏ -2622
▁ㅂㅗㄴㅅㅓㄴ -2623
▁ㅇㅠㅇ -2624
ive -2625
▁ㄴㅐㄹ -2626
▁2001 -2627
▁ffffff -2628
▁⊸ -2629
▁ㄱㅏㅇㅎㅐ -2630
▁ㄱㅕㄴㅈㅔ -2631
ong -2632
▁ㄹㅐㄴㄷㅓㅁ -2633
ort -2634
▁ㅁㅕㄹㅁㅏㅇ -2635
▁ㅊㅑ -2636
▁ㄷㅡㅇㄷㅡㅇ -2637
▁ㅇㅣㅂㅅㅜ -2638
▁ㄱㅓㄹㄹㅕ -2639
ers -2640
▁ㅁㅣㄹㄹㅕ -2641
OS -2642
▁SBS -2643
▁ㅅㅡㅇㄱㅏㅇ -2644
▁ㅇㅑㄱㅅㅗㄱ -2645
▁ㄱㅜㄱㅈㅓㄱ -2646
▁ㅌㅡㅁ -2647
▁ㅈㅜㅇㄷㅏㄴ -2648
▁ㅂㅗㅁ -2649
▁ㄷㅗㄹㄱㅕㄱ -2650
▁ㄴㅔㅅ -2651
▁ㅂㅕㅇㄱㅣ -2652
ㅈㅓㄴㄷㅡ -2653
ㅎㅔ -2654
▁ㅈㅏㅇㅇㅐ -2655
ip -2656
▁ㅉㅗ -2657
ㅁㅏㄴㅋㅡㅁ -2658
▁ㅊㅜㄹㅅㅐㅇ -2659
▁ㅇㅓㄴㄴㅣ -2660
▁ㄱㅗㅇㅇㅝㄴ -2661
▁ㅈㅏㄱㅅㅏ -2662
ㅈㅓㄴㅈㅏ -2663
▁ㄱㅗㅇㅌㅗㅇ -2664
▁PS -2665
▁ㄹㅜㄴ -2666
▁98 -2667
▁ㅅㅏㅂ -2668
ain -2669
ED -2670
▁ㅂㅜㄴㅇㅑ -2671
ㄴㅚ -2672
if -2673
▁ㅅㅏㄻ -2674
▁ㄷㅜㄹㄹㅓ -2675
▁191 -2676
▁| -2677
ㄹㅠㅇ -2678
ㅅㅛ -2679
ee -2680
▁CD -2681
▁ㄷㅏㄱㅌㅓ -2682
▁ㅇㅣㄴㅅㅐㅇ -2683
▁ㅂㅓㄹㅇㅣ -2684
ㅅㅣㅁㅎㅣ -2685
▁600 -2686
▁ㅅㅡㅂㄷㅡㄱ -2687
▁ㄷㅔㄹ -2688
▁ㅅㅐㅇㄱㅕ -2689
EN -2690
▁ㅇㅟㅇ -2691
▁ㄷㅏㅇㅅㅓㄴ -2692
ㅉㅓㄹ -2693
▁ㅉㅏㄹ -2694
▁ㅊㅏㄹ -2695
▁ㄱㅜㄴㅈㅜ -2696
▁ㄴㅘ -2697
▁ㅂㅏㄹㅎㅟ -2698
▁ㄱㅏㅂㅇㅗㅅ -2699
▁ㅈㅏㅇㅅㅜ -2700
▁ㅋㅣㄱ -2701
▁ㅇㅛㅇㄷㅗ -2702
▁ㅌㅏㄴㅅㅐㅇ -2703
▁ㅈㅗㅇㅈㅓㅁ -2704
▁ㄱㅗㅇㅈㅏㅇ -2705
▁ㄷㅏㄴㄷㅗㄱ -2706
▁63 -2707
▁ㄱㅕㅇㄱㅖ -2708
▁ㅇㅡㄴㅎㅐㅇ -2709
▁ㄱㅕㅇㅇㅠ -2710
▁ㅊㅡㄱㅁㅕㄴ -2711
ㄹㅕㅇㄱㅘㄴ -2712
▁ㅊㅜㄹㅂㅏㄹ -2713
▁ㅎㅏㅁㅅㅓㄴ -2714
▁ㄱㅓㄴㅈㅣ -2715
▁ㅅㅏㄹㅎㅐ -2716
▁ㅊㅜㄹㅊㅓ -2717
▁68 -2718
ㅈㅣㅁ -2719
▁ㅎㅗㅇㅂㅗ -2720
ㅇㅜㄴㄷㅏ -2721
ith -2722
ㄷㅓㄹ -2723
ㅍㅜ -2724
▁ㅇㅡㄴㄱㅡㄴ -2725
ㄹㅐㅅ -2726
▁ㅈㅏㄶㅇㅏ -2727
▁ㅅㅏㄹㅉㅏㄱ -2728
▁ㅋㅝ -2729
▁1990 -2730
ld -2731
▁MV -2732
ㅈㅏㄴ -2733
ly -2734
▁ㅅㅜㅁㄱㅕ -2735
▁ㅇㅕㅇㅇㅕㄱ -2736
▁ㅎㅐㄱㅅㅣㅁ -2737
▁ㅂㅜㅌㅇㅕ -2738
▁ㅅㅣㄴㅎㅘ -2739
▁ㅂㅜㅇㄱㅚ -2740
▁ㅅㅓㄴㅂㅐ -2741
▁71 -2742
▁ㅋㅡㄹㄹㅗ -2743
ㅍㅡㄹㄹㅔ -2744
▁ㅎㅑㅇㅎㅐ -2745
ㅋㅏㄹ -2746
ㄴㅗㅎㄱㅗ -2747
▁ㅂㅗㄴㅁㅕㅇ -2748
▁ㅇㅗㄴㄱㅏ -2749
▁ㅂㅜㄴㅅㅓㄱ -2750
▁ㅇㅕㄴㄷㅗ -2751
▁ㅁㅣㄴㅈㅗㄱ -2752
▁ㅇㅑㄱㅎㅏㄴ -2753
ind -2754
ㅎㅣㄹ -2755
ㅈㅜㄴㅎㅣ -2756
▁ㅇㅕㄹㄹㅣㄴ -2757
▁ㅅㅜㄴㅅㅜ -2758
▁ㄲㅡㅌㄴㅏㄴ -2759
▁ㅇㅓㅂㅁㅜ -2760
ㄴㅟ -2761
▁ㅇㅕㅇㅇㅝㄴ -2762
ㅋㅓㄴ -2763
▁800 -2764
▁ㅍㅗㄱㅍㅜㅇ -2765
OL -2766
▁ㅅㅓㅂ -2767
▁74 -2768
▁ㅈㅓㅇㄹㅠ -2769
ㅅㅗㄹ -2770
▁ㅋㅝㄹ -2771
▁67 -2772
▁ㅇㅡㅇㅇㅝㄴ -2773
▁ㅇㅗㄴㄱㅏㅈ -2774
ㅎㅏㄱㅈㅏ -2775
▁AC -2776
▁ㄴㅏㅂㅊㅣ -2777
▁ㅇㅘㅇㅈㅏ -2778
ㅇㅣㄴㅈㅓ -2779
ㅂㅘ -2780
ew -2781
▁ㄷㅐㅅㄱㅡㄹ -2782
▁TH -2783
▁ㅎㅡㄴㅎㅣ -2784
ry -2785
▁ㅎㅕㅂㄹㅕㄱ -2786
ㄹㅡㅅ -2787
▁ㅁㅔㄹ -2788
▁73 -2789
ㄹㅔㅁ -2790
▁ㅌㅏㅂㅅㅡㅇ -2791
ㅌㅜㄴ -2792
▁ㅎㅜㄹㄹㅠㅇ -2793
▁ㄷㅗㅇㅇㅏ -2794
▁ㄱㅜㄴㅇㅣㄴ -2795
ast -2796
▁ㅌㅣㄱ -2797
RA -2798
▁ㅂㅏㄼ -2799
ㅆㅡ -2800
▁ㅈㅡㅇㄱㅓ -2801
▁ㄹㅐㅂ -2802
▁ㅋㅓㄴㅌㅔㄴㅊㅡ -2803
IT -2804
▁ㅈㅏㅇㄱㅘㄴ -2805
▁ㅈㅜㅇㄱㅖ -2806
▁me -2807
ㄷㅜㄱ -2808
▁ㅈㅓㄱㄷㅏㅇ -2809
▁ㅆㅗㄷ -2810
▁ㅇㅕㄹㅅㅣㅁㅎㅣ -2811
▁96 -2812
▁ㄹㅐㄴㄷㅡ -2813
▁ㅇㅣㄹㅈㅏ -2814
▁ㄱㅏㅁㅅㅏ -2815
▁ㅈㅓㄴㅎㅏㅁ -2816
▁ㄷㅚㅂㄴㅣ -2817
▁ㅎㅢㄴ -2818
▁ㄷㅏㅇㅎㅏㄴㄷㅏ -2819
▁ㅇㅜㄴㅁㅕㅇ -2820
ㅌㅣㄹ -2821
ㅇㅑㄴ -2822
ㅇㅗㄹㄹㅣ -2823
▁ㅁㅏㄴㅈㅗㄱ -2824
▁ㄴㅓㄴ -2825
ㅅㅔㄹ -2826
▁ㅂㅗㄴㄷㅏ -2827
EC -2828
▁ㄴㅡㄱ -2829
▁NC -2830
▁ㅇㅕㄴㅇㅖ -2831
▁ㅈㅓㄴㄱㅗㅇ -2832
▁AT -2833
ㄱㅓㅂ -2834
▁81 -2835
▁ㅁㅗㄹㅇㅏ -2836
ㄹㅣㅁㅈㅏ -2837
▁ㅂㅜㄹㄲㅗㅊ -2838
▁ㅅㅐㅇㅁㅕㅇㄹㅕㄱ -2839
ㅇㅣㄹㄹㅣ -2840
▁ㅅㅡㄹㄹㅗㅅ -2841
▁ㅈㅓㅇㅎㅐ -2842
▁ㅉㅏㄱ -2843
ㅍㅐㄱ -2844
▁ㅎㅏㄱㄱㅘ -2845
▁ㅈㅓㅇㅁㅏㄹㄹㅗ -2846
▁j -2847
▁ㅇㅏㄴㅅㅡㅂ -2848
▁ㄱㅓㄴㄴㅓ -2849
end -2850
▁ㅅㅣㄹㅈㅣㄹ -2851
▁ㄱㅠㄴ -2852
▁ㅎㅗㄴㄹㅏㄴ -2853
LC -2854
▁ㅁㅜㄴㅈㅏ -2855
▁ㄴㅏㄲ -2856
▁78 -2857
▁an -2858
ㅎㅐㅇㅎㅣ -2859
▁ㄱㅣㅁㅅㅓㅇ -2860
ㅉㅓ -2861
▁ㅎㅗㅇㅋㅗㅇ -2862
▁ㅂㅜㄹㅇㅏㄴ -2863
ㄹㅓㄴㅈㅣ -2864
▁ㄷㅗㄹㅈㅣㄴ -2865
ㄹㅐㅆ -2866
▁ㅂㅏㄴㅇㅕㅇ -2867
▁1999 -2868
▁ㅇㅗㅇ -2869
▁ㄱㅗㅇㄱㅜㄴ -2870
ㅁㅣㄹㄹㅣ -2871
ㄹㅡㅁㄷㅏ -2872
▁ㄷㅏㄴㅇㅟ -2873
▁ㄷㅏㅇㅎㅘㅇ -2874
▁84 -2875
▁ㅍㅕㄴㅇㅢ -2876
ㄴㅗㅁ -2877
▁91 -2878
▁ㅂㅏㄴㄱㅕㄱ -2879
▁ㅈㅡㄱㅅㅣ -2880
▁ㅌㅗㅇㅇㅣㄹ -2881
FA -2882
▁CP -2883
▁ㅅㅞ -2884
ㄹㅔㅅ -2885
▁192 -2886
▁ㄷㅏㅎ -2887
ㄹㅡㅇ -2888
▁ㅎㅡㄹㄹㅓ -2889
▁ㄸㅓㄱㅂㅏㅂ -2890
▁An -2891
▁it -2892
▁ㅅㅡㄹㄹㅏ -2893
ㅝㅆ -2894
▁ㄱㅣㅅ -2895
ㅁㅓㅇ -2896
▁ㅊㅜㅇㄷㅗㄹ -2897
▁ㅅㅏㅇㅎㅑㅇ -2898
▁ㅇㅏㅁㅎㅡㄱ -2899
▁ㅊㅏㅇㅈㅏㄱ -2900
▁NPC -2901
▁1998 -2902
▁ㅇㅕㄴㅅㅏ -2903
▁ㅍㅏㅂ -2904
ㅌㅗㅁ -2905
▁ㄴㅏㅎ -2906
▁ㅎㅡㄴㄷㅡㄹ -2907
▁ㄱㅗㅁ -2908
▁ㅂㅕㄴㅎㅏ -2909
▁ㄴㅣㄴㅈㅏ -2910
▁ㅊㅜㄴ -2911
▁ㅈㅓㅇㅈㅣ -2912
▁ㅅㅣㅁㅈㅏㅇ -2913
▁ㄷㅡㅇㅍㅏㄴ -2914
ㅍㅔㄱ -2915
ㅍㅏㅇ -2916
▁ㄴㅏㅁㄱㅣ -2917
▁ㄱㅕㄱㅍㅏ -2918
▁ㄱㅕㅇㅎㅓㅁㅊㅣ -2919
ㄱㅘㅇㅇㅕㄱ -2920
▁ㄹㅛㅇ -2921
▁Ar -2922
▁ㅈㅏㅇㅅㅣㄱ -2923
▁ㅅㅣㄹㄷㅡ -2924
▁97 -2925
▁ㄱㅘㄴㄱㅐㄱ -2926
▁ㅇㅔㄹㅍㅡ -2927
▁ㅉㅏㅇ -2928
▁ㅂㅗㄴㅂㅜ -2929
▁ㅅㅣㄴㄱㅗ -2930
▁He -2931
▁ㄴㅡㄱㄷㅐ -2932
▁ㅁㅏㅁ -2933
▁ㅊㅓㄴㅅㅏ -2934
▁69 -2935
ㄹㅓㅇ -2936
▁ㅇㅑㄱㅎㅏ -2937
▁82 -2938
ㅅㅜㄹㅅㅏ -2939
▁ㅋㅗㄹㄹㅏ -2940
▁ㄷㅗㅇㄴㅔ -2941
ㅁㅜㄱ -2942
▁ㅅㅣㄴㄹㅚ -2943
▁ㄱㅓㄴㄱㅏㅇ -2944
▁ㅂㅕㄹㄱㅐ -2945
▁ㅅㅏㅇㅍㅜㅁ -2946
ㄴㅕㅆ -2947
▁ㅇㅣㅂㅎㅏㄱ -2948
ㄱㅘㅇㅇㅕㄱㅅㅣ -2949
▁for -2950
▁MAX -2951
▁is -2952
▁ㅇㅓㅂㅊㅔ -2953
▁ㅈㅓㄴㅈㅓㄱ -2954
▁250 -2955
ㅎㅠ -2956
▁ㅃㅏㄹㄱㅏㄴ -2957
▁!! -2958
ㅇㅡㅂ -2959
▁ㅅㅓㄹㄷㅡㄱ -2960
▁ㅇㅔㄴㅌㅓ -2961
▁ㄷㅓㅍ -2962
ㅊㅗㄱ -2963
ㅅㅗㄱㄷㅗ -2964
▁86 -2965
▁ㄱㅡㄴㅁㅜ -2966
▁180 -2967
▁ㅈㅑ -2968
▁ㅅㅣㄴㅅㅔ -2969
▁ㅈㅣㅂㅇㅏㄴ -2970
▁ㄱㅔㅅ -2971
▁190 -2972
▁ㅁㅏㄱㅈㅏㅇ -2973
ㄸㅏ -2974
▁ㄸㅐㄴ -2975
▁ㅈㅓㄴㅂㅏㅇ -2976
▁ㅁㅜㄱ -2977
▁ㅂㅗㄱㅈㅏㅇ -2978
ㄹㅕㅁ -2979
▁BGM -2980
ㅋㅗㅁ -2981
RE -2982
▁ㅇㅕㄴㅅㅏㅇ -2983
ㅍㅔㄱㅌㅡ -2984
ath -2985
av -2986
▁ㄷㅡㄴㅈㅣ -2987
▁ㄹㅣㄱ -2988
ㅋㅐ -2989
▁ㄴㅏㅇ -2990
▁ㄴㅐㄴㄷㅏ -2991
▁Te -2992
▁ㅇㅔㄱ -2993
▁SN -2994
▁ㅇㅓㅄㅇㅐ -2995
▁ㄷㅏㄴㅇㅣㄹ -2996
▁De -2997
▁ㅊㅜㄹㅎㅕㄴ -2998
▁ㅂㅜㅌㅈㅏㅂ -2999
▁ㅂㅕㄹㄷㅗ -3000
50 -3001
▁ㄱㅕㅇㅅㅏㅇ -3002
▁ㄱㅏㅁㅇㅕㅁ -3003
▁ㄱㅏㄴㄱㅕㄱ -3004
▁ㅌㅣㅇ -3005
▁ㅌㅗㅇㅎㅏ -3006
▁ㅈㅡㅇㅁㅕㅇ -3007
▁ㅇㅜㄹㅅㅏㄴ -3008
▁ㅂㅏㄴㄹㅏㄴ -3009
▁ㅅㅐㅁ -3010
▁ㅎㅕㅇㅅㅓㅇ -3011
se -3012
▁ㅂㅜㄹㄹㅓㅆ -3013
▁ㅎㅓㄴㅌㅓ -3014
▁ㄱㅕㅇㅎㅑㅇ -3015
▁ㅈㅓㄹㅂㅏㄴ -3016
ㅅㅣㄱㄱㅏㄴ -3017
▁1997 -3018
▁ㅅㅜㄴㅅㅣㄱㄱㅏㄴ -3019
▁ㄹㅕㅇ -3020
▁ㅂㅏㄴㅈㅣ -3021
one -3022
▁ㅈㅜㄱㅇㅕ -3023
▁ㄱㅗㅇㄱㅣ -3024
▁ㅅㅣㄹㅎㅐㅇ -3025
▁ㅊㅜㄹㅈㅏㅇ -3026
▁ㅎㅏㄴㄸㅐ -3027
▁ㄱㅓㄷ -3028
▁ㄱㅗㅇㅇㅠ -3029
▁ㅁㅏㄴㄴㅏㄴ -3030
▁ㄷㅓㄴㅈㅕ -3031
▁ㅅㅓㄴㅎㅗ -3032
▁Be -3033
▁ㅍㅣㄹㄹㅣ -3034
ㅉㅐㅆ -3035
▁ㅂㅡㄹㄹㅗㄱ -3036
▁ㅂㅜㄹㅁㅏㄴ -3037
ㄴㅏㅁㄷㅗ -3038
og -3039
▁ㅎㅏㅂㅊㅕ -3040
▁ㅋㅣㄴ -3041
▁ㅇㅕㅇㅇㅓㅂ -3042
▁ㄱㅏㅇㅈㅗ -3043
▁83 -3044
ㅁㅅㅐ -3045
▁ㅇㅏㅂㅂㅏㄱ -3046
▁ㅅㅣㄴㅊㅓㅇ -3047
▁ㅅㅚ -3048
▁ㅇㅗㄹㄹㅕㅆ -3049
ㄲㅓㅅ -3050
▁ㅈㅓㄴㄷㅐ -3051
▁ㅍㅕㅇㅌㅏ -3052
▁ㅇㅕㄴㅇㅐ -3053
▁ㅅㅏㅇㅈㅓㅁ -3054
ust -3055
▁ㅁㅕㅇㅇㅖ -3056
▁ㅊㅗㅇㄱㅣ -3057
▁ㄱㅕㅇㅇㅕㅇ -3058
▁ㅅㅣㄴㄱㅠ -3059
▁89 -3060
▁ㅈㅓㄴㅎㅕㅇ -3061
▁ㅅㅡㅇㄱㅏㅇㅈㅏㅇ -3062
▁ㅈㅏㄱㅇㅛㅇ -3063
▁ㅌㅐㅇㅋㅡ -3064
▁92 -3065
▁ㄱㅗㅇㅈㅏㄱ -3066
ide -3067
▁ㅈㅓㄴㅅㅓㄴ -3068
▁ㄱㅝㄴㅊㅗㅇ -3069
ㄷㅜㅇㅇㅣ -3070
▁Le -3071
▁ㄲㅔ -3072
▁MS -3073
▁ㅌㅏㄱ -3074
▁ㅆㅓㄴ -3075
▁ㅎㅏㄹㅈㅣ -3076
▁ㄷㅗㅇㄱㅣ -3077
▁79 -3078
▁ㅈㅓㅇㄱㅝㄴ -3079
▁94 -3080
ㄸㅡㄱ -3081
▁ㅇㅣㅂㄹㅕㄱ -3082
▁Se -3083
ㅁㅍㅡ -3084
▁ㅎㅘㄴㅅㅏㅇ -3085
▁ㄲㅡㅁ -3086
▁ㅈㅓㄱㅇㅓ -3087
ity -3088
▁ㅋㅟㄴ -3089
▁ㅌㅏㄴㅇㅑㄱ -3090
▁ㅅㅣㅁㅍㅏㄴ -3091
▁ㅂㅕㄴㅎㅕㅇ -3092
▁ㅇㅝㄴㅅㅜ -3093
▁ㅇㅣㄹㅅㅏㅇ -3094
ㅎㅔㄴ -3095
▁ㅇㅜㅁㅈㅣㄱㅇㅣㅁ -3096
ㅐㅇㅇㅣ -3097
▁ㅂㅏㄺㅎㅣ -3098
▁ㅌㅗㅇㅅㅏㅇ -3099
ㅍㅔㄹ -3100
▁ㅍㅗㄱㅈㅜ -3101
▁ㅂㅜㄱㅁㅣ -3102
▁ㅂㅏㄱㅅㅏㄹ -3103
▁ㅍㅗㄱㄱㅕㄱ -3104
▁ㅂㅡㄹㄹㅓ -3105
▁93 -3106
▁ㄹㅔㅂ -3107
▁ㄱㅕㅇㅂㅣ -3108
▁ㄷㅏㅇㅎㅏㄹ -3109
▁ㅂㅓㅁㅇㅣㄴ -3110
▁ㅂㅠ -3111
OT -3112
▁ㅅㅣㄴㅈㅏㅇ -3113
ㅆㅏㄴ -3114
▁ㄷㅜㅇ -3115
▁ㅇㅜㄴㅈㅓㄴ -3116
▁87 -3117
▁ㅇㅛㅇㅅㅏ -3118
▁ㅁㅗㄹㄹㅐ -3119
ㅂㅜㄱㄷㅗ -3120
▁ㅂㅕㄴㅎㅗ -3121
ㅇㅣㄹㄷㅡ -3122
ㅋㅜㄹ -3123
▁US -3124
▁ㅋㅗㄴㅅㅓ -3125
▁DJ -3126
▁ㅇㅐㅇ -3127
▁ㅈㅣㄴㅈㅣ -3128
▁101 -3129
ㅈㅣㅅㅁㅏㄹ -3130
▁KT -3131
▁ㅅㅣㅁㄹㅣ -3132
ㅇㅣㄹㄹㅓㅅ -3133
▁ㅇㅡㅁㅂㅏㄴ -3134
▁ㄱㅝㄴㄹㅕㄱ -3135
AC -3136
ㅊㅏㅈ -3137
▁ㅍㅕㄴㅎㅏ -3138
ere -3139
▁ㄱㅓㅁㅅㅐㄱ -3140
▁1996 -3141
▁ㅊㅐㅂㅌㅓ -3142
▁ㅁㅓㄱㅇㅣ -3143
▁On -3144
▁ㄷㅗㅇㅂㅏㅇ -3145
PG -3146
age -3147
▁1995 -3148
▁ㅈㅏㄱㄷㅗㅇ -3149
ㅇㅕㅇㅅㅏㅇ -3150
▁ㅇㅖㅅㄴㅏㄹ -3151
▁ㅇㅕㄴㄷㅐ -3152
▁ㅎㅜㅁ -3153
ㅈㅏㄱㅈㅣㄴ -3154
▁ㅁㅣㄱ -3155
▁ㅃㅣ -3156
▁ㅁㅜㄹㄹㅓ -3157
▁ㅅㅏㄹㄹㅕ -3158
▁ㄱㅗㅇㅎㅏㄱ -3159
▁ㅃㅕ -3160
▁ㅇㅡㅁㅅㅓㅇ -3161
▁ㅌㅐㅇㅋㅓ -3162
▁ㄱㅏㅈㅊㅜ -3163
▁ㄱㅓㄹㅇㅓ -3164
▁ㅂㅜㄹㅍㅕㄴ -3165
▁ㅎㅕㄱㅁㅕㅇ -3166
▁ㅇㅛㅇㅇㅓ -3167
▁MC -3168
▁ㄱㅏㄹㄷㅡㅇ -3169
▁ㄷㅗㅇㅇㅕㅇㅅㅏㅇ -3170
▁@ -3171
▁..... -3172
▁ㅅㅣㄴㅇㅣㄴ -3173
▁px -3174
▁ㅍㅗㄱㄹㅕㄱ -3175
ㄴㅏㅂ -3176
▁ㅇㅐㅂ -3177
▁ㅌㅔㄹㄹㅔ -3178
▁ㅎㅏㄴㄱㅜㄱㅇㅣㄴ -3179
ㅌㅗㅂ -3180
▁ㅌㅗㅇㅈㅔ -3181
▁", -3182
▁ㄱㅣㄹㄷㅡ -3183
▁ㅎㅕㄴㅈㅣ -3184
▁ㅇㅣㅂㄱㅜ -3185
▁ㅎㅏㄱㅅㅏㄹ -3186
qu -3187
▁ㅂㅓㄴㄱㅐ -3188
▁ㄱㅏㅇㅊㅓㄹ -3189
▁ㅁㅣㄹㅇㅓ -3190
▁ㄲㅓㄲ -3191
▁ㅁㅣㄴㄱㅏㄴ -3192
▁AI -3193
▁ㄱㅣㅁㅈㅓㅇ -3194
ood -3195
▁ㅂㅗㄹㅌㅡ -3196
▁ㄹㅣㄹㄹㅣ -3197
ㅇㅜㄹㄹㅣ -3198
▁THE -3199
▁ㄷㅓㅅ -3200
ㅉㅓㅇ -3201
▁ㅍㅕㄴㅈㅣ -3202
ㄲㅏㄹ -3203
▁ㄷㅗㅇㅇㅝㄴ -3204
▁ㅁㅏㄱㅊㅏ -3205
▁ㄱㅏㅁㅅㅣ -3206
▁ㅌㅡㄱㅎㅘ -3207
▁ㅂㅗㄹㄴㅔㅅ -3208
▁ㅎㅐㄴㄷㅡ -3209
▁ㄴㅗㅇㄱㅜ -3210
▁ㅎㅡㅇㅎㅐㅇ -3211
ㄷㅓㅇ -3212
▁ㄱㅡㅇ -3213
▁ㄱㅐㄹㄹㅓㄱ -3214
▁ㅇㅕㄴㄱㅘㄴ -3215
▁AK -3216
▁ㅅㅏㅁㅈㅣㄴ -3217
▁ㅅㅣㄴㅁㅜㄴ -3218
▁ㄱㅡㄹㅈㅏ -3219
▁ㅅㅏㅇㅅㅏㅇ -3220
▁'. -3221
▁ㅅㅓㅇㅂㅕㄹ -3222
▁ㅇㅣㅂㄷㅏㄴ -3223
▁ㅈㅗㅇㅇㅣ -3224
▁ㅇㅕㄴㅂㅏㅇ -3225
▁ㅈㅏㅁㅅㅜ -3226
ㄴㅣㄴㄷㅏ -3227
ㅍㅗㅁ -3228
▁ㅈㅓㄴㅈㅣㄱ -3229
▁ㄱㅕㄹㅅㅡㅇㅈㅓㄴ -3230
ㅇㅇㅣ -3231
PM -3232
▁DLC -3233
▁ㅊㅜㄹㄹㅕㄱ -3234
▁ㅎㅑㅇㅅㅏㅇ -3235
▁ㄱㅓㅂ -3236
▁ㄸㅗㄱㄱㅏㅌㅇㅣ -3237
▁ㅁㅏㅈㅇㅣ -3238
▁$ -3239
▁ㅇㅑㅇㅅㅏㄴ -3240
▁ㅈㅓㄴㅎㅏ -3241
IS -3242
ㅋㅓㅁ -3243
are -3244
▁ㅅㅣㄹㅂㅓ -3245
ㅇㅣㅇ -3246
▁ㅅㅣㄴㄱㅣ -3247
▁ㅂㅡㄹㄹㅣ -3248
BO -3249
▁Wh -3250
▁ㅍㅡㄹㄹㅗ -3251
▁ㅎㅘㄴㅅㅡㅇ -3252
ㄹㅠㄴ -3253
ㄹㅏㄴㅅㅐㄱ -3254
▁ㅅㅣㄴㅅㅓㅇ -3255
▁ㅂㅣㄹㄷㅡ -3256
ㅈㅓㄴㅊㅏ -3257
▁ㄱㅐㄹㄹㅓㄱㅅㅣ -3258
▁ㄷㅗㅇㅈㅏㄱ -3259
▁ㅎㅏㅅ -3260
▁ㅋㅙ -3261
▁ㄱㅏㄴㅂㅜ -3262
▁ㅇㅙㄴ -3263
▁ㅇㅣㄱㅅㅜㄱ -3264
▁ㅎㅏㄴㅂㅏㅇ -3265
ㄴㅜㄴ -3266
ㅇㅛㅇㅈㅏ -3267
▁ㅁㅏㄴㄴㅏㅆ -3268
▁ㅁㅕㅇㅈㅜㅇㄹㅠㄹ -3269
▁ㅇㅣㅂㅎㅣ -3270
▁ㅇㅕㄴㄹㅏㄱ -3271
▁1994 -3272
▁ㄱㅗㅇㅅㅏㄴ -3273
▁ㅅㅠㅅ -3274
▁ㄴㅏㄹㅉㅏ -3275
▁ㄱㅓㅌ -3276
▁ㅈㅡㄹㄱㅣ -3277
▁ㅎㅔㄴ -3278
▁ㅆㅣㄴ -3279
▁ㅇㅣㄹㅈㅣ -3280
▁MVP -3281
▁Tr -3282
▁ㄷㅏㄹㄹㅣㄴ -3283
▁ㅋㅡㄹㄹㅔ -3284
▁ㄱㅏㅇㅇㅝㄴ -3285
▁ㅊㅠ -3286
OM -3287
▁ㅇㅏㄹㅍㅏ -3288
▁ㅅㅣㄴㅂㅜㄴ -3289
▁ㅇㅣㅁㅁㅕㅇ -3290
▁ㅂㅏㄱㄱㅡㄴ -3291
▁ㅌㅗㅇㅎㅏㄴ -3292
▁ㅇㅣㅁㅅㅣ -3293
▁ㅇㅗㄹㄹㅏㅆ -3294
▁ㅈㅓㄴㅅㅣ -3295
ㅊㅏㅇㄱㅣ -3296
▁ㅈㅓㄴㄷㅏㄹ -3297
▁ㅇㅠㅇㅎㅏㅂ -3298
▁ㅃㅏㄹㄹㅏ -3299
▁ㄱㅗㅇㅈㅣ -3300
▁ㅇㅗㄴㄷㅏ -3301
▁ㄱㅡㄹㄹㅗ -3302
▁ㄷㅡㄱㅍㅛ -3303
ock -3304
▁700 -3305
▁ㅈㅓㄴㅇㅕㄱ -3306
▁ㅂㅜㄴㄱㅣ -3307
▁ㅂㅗㅅ -3308
ake -3309
ㄹㅓㅆ -3310
▁ㅎㅘㄴㅈㅏ -3311
ㅇㅜㄴㅌㅡ -3312
OW -3313
ect -3314
▁'' -3315
▁ㅋㅝㄹㄹㅣ -3316
▁CC -3317
▁ㄴㅓㅁㄱㅣ -3318
ass -3319
oy -3320
▁ㅂㅗㄱㅈㅏㅂ -3321
ark -3322
ㅁㅣㄱ -3323
▁ㄹㅓㄱ -3324
▁he -3325
▁ㅇㅏㄹㄹㅔㄱ -3326
our -3327
▁ㅇㅣㄴㅈㅡㅇ -3328
▁ㅇㅣㄴㅅㅜ -3329
▁ㅇㅠㄱㅅㅓㅇ -3330
▁ㅇㅣㄴㅇㅕㄴ -3331
ite -3332
ob -3333
▁ㅎㅕㅂㅎㅚ -3334
▁ㅈㅜㅇㅎㅘ -3335
ire -3336
▁ㅅㅕㅆ -3337
▁ㄱㅡㄱㄷㅏㄴ -3338
▁ㄱㅡㄴㅇㅠㄱ -3339
▁ㄹㅏㅁ -3340
▁1980 -3341
▁ㅊㅏㄱㄱㅏㄱ -3342
▁ㅊㅏㅇㅈㅗ -3343
ㅂㅕㅇㄷㅐ -3344
▁ㅈㅏㅇㄱㅛ -3345
▁ㅎㅗㄹㄹㅗ -3346
▁ㅇㅕㄲ -3347
▁ㅈㅣㄴㅅㅣㅁ -3348
▁ㅈㅓㄹㅁㅏㅇ -3349
ㅎㅗㄹ -3350
▁ㅌㅣㅁㅇㅝㄴ -3351
▁ㅇㅞㅂㅌㅜㄴ -3352
▁ㅍㅕㄴㄱㅗㄱ -3353
▁ㅁㅓㅇ -3354
▁ㅅㅓㅇㄱㅘ -3355
▁ㄷㅡㄹㅇㅣ -3356
ㄴㅓㅎ -3357
▁FI -3358
▁ㅁㅜㄹㅈㅣㄹ -3359
▁SR -3360
▁ㅎㅏㅂㅊㅔ -3361
▁ㅂㅜㄴㄹㅑㅇ -3362
▁Cl -3363
ㄷㅡㄹㅇㅕ -3364
▁ㅅㅐㄴ -3365
▁ㅎㅏㅂㅅㅓㅇ -3366
ㅁㅓㄴㅌㅡ -3367
ㄹㄹㅣㄱ -3368
▁ㅅㅏㅁㄱㅜㄱㅈㅣ -3369
ah -3370
▁AR -3371
▁ㅊㅏㅁㅈㅓㄴ -3372
▁ㄱㅣㅁㅇㅕㅇ -3373
ES -3374
UN -3375
▁wh -3376
ㅅㅗㄱㅈㅏㄱ -3377
▁ㅊㅓㅇㄴㅕㄴ -3378
▁ㄴㅏㅁㅂㅜ -3379
ound -3380
▁ㅎㅏㅂㄱㅕㄱ -3381
▁ㅊㅜㄹㅍㅏㄴ -3382
▁ㅇㅏㄱㅇㅕㄱ -3383
▁ㅅㅣㅁㅎㅏㄴ -3384
▁ㅂㅣㅅ -3385
▁ㅁㅗㄹㄹㅕ -3386
▁ㅆㅘ -3387
▁ㅎㅡㅁ -3388
iz -3389
ㄱㅣㅁ -3390
▁ㄴㅗㄱㅇㅡㅁ -3391
▁ㅃㅏㄱ -3392
▁ㄹㅐㅇㅋㅣㅇ -3393
▁ㅊㅜㄱㅈㅔ -3394
▁ㅅㅒ -3395
▁ㅌㅔㄱㅅㅡ -3396
ime -3397
ㄱㅘㄴㅊㅗㅇ -3398
FC -3399
▁ㄱㅐㄱ -3400
▁ㅇㅐㄱㅌㅣ -3401
ㅃㅓ -3402
ㅇㅓㄴㄱㅏ -3403
▁ㄷㅗㅇㅎㅘ -3404
ㅌㅐㄴ -3405
▁ㄱㅕㅇㄱㅗ -3406
▁ㅁㅜㄴㅈㅏㅇ -3407
▁ㅊㅓㄹㅈㅓ -3408
ㅅㅏㄱ -3409
▁ㅇㅣㄴㅎㅏ -3410
▁Gr -3411
ㅇㅠㅇ -3412
▁my -3413
ㅂㅏㄴㄱㅣ -3414
▁ㅈㅓㅇㅂㅗㄱ -3415
▁SD -3416
▁GT -3417
▁ㅍㅔㄹ -3418
▁ㅅㅣㅁㅎㅐ -3419
ㄹㅜㄱ -3420
▁ㅍㅡㄹㄹㅐㅅ -3421
iv -3422
▁kt -3423
▁ㅈㅓㅁㅊㅏ -3424
▁Me -3425
▁ㄱㅗㄱㅁㅕㅇ -3426
LL -3427
▁ㅇㅡㄴㅎㅏ -3428
ㅎㅐㅇㄱㅣ -3429
ㄹㅓㅁㅇㅔ -3430
ㅁㅏㅇㅊㅣ -3431
▁ㅇㅏㄹㄹㅔ -3432
▁FA -3433
▁ㄱㅏㅇㅇㅢ -3434
▁ㅋㅓㄹㄹㅓ -3435
▁ㅎㅓㅁ -3436
▁ㅂㅗㄴㅈㅏㄱ -3437
▁ㅇㅣㄹㅅㅣ -3438
▁116 -3439
▁ㄷㅏㄴㅈㅏㅇ -3440
▁ㅈㅜㅇㄷㅐ -3441
ㅂㅅㅡ -3442
▁ㅈㅏㅈ -3443
ID -3444
▁ㅎㅘㄹㅅㅓㅇ -3445
▁ㅅㅣㄱㅅㅏ -3446
▁ㅎㅏㄴㅂㅓㄴ -3447
▁ㄹㅔㅅ -3448
▁ㅁㅜㄴㅎㅏㄱ -3449
▁KIA -3450
▁ㅇㅕㄴㅌㅏ -3451
ㅅㅓㅆ -3452
▁My -3453
ㅁㅐㄴㄷㅡ -3454
ㅋㅙ -3455
▁ㄹㅜㅁ -3456
▁ㄱㅣㅁㅌㅐ -3457
▁ㅅㅣㄱㅁㅜㄹ -3458
▁ㄱㅏㅁㅇㅗㄱ -3459
▁ㅆㅓㄱ -3460
▁SC -3461
▁ㄲㅏㅁ -3462
▁{{ -3463
▁ㅇㅞㄴㅁㅏㄴ -3464
▁ㅎㅚㅇ -3465
▁ㅇㅣㄴㄱㅗㅇ -3466
▁ㅁㅜㅇ -3467
ㄷㅗㅇㅈㅏ -3468
▁ㅈㅓㄱㄱㅜㄴ -3469
▁ㅎㅏㄴㅈㅣ -3470
ㄷㅏㄷ -3471
▁ㄱㅣㅁㅁㅣㄴ -3472
▁{{{ -3473
▁ㄱㅘㄴㅈㅜㅇ -3474
▁ㄱㅏㄴㅎㅗㄱ -3475
▁ㄴㅓㅁㄱㅕ -3476
▁ㅌㅡㄱㅈㅣㅂ -3477
▁Pr -3478
▁PD -3479
▁ㅈㅓㄴㅊㅓㄹ -3480
▁ㅇㅣㄹㅇㅝㄴ -3481
▁ㄱㅗㅇㄱㅡㅂ -3482
▁ㅍㅕㄹㅊㅕ -3483
▁ㅅㅗㄴㄱㅏ -3484
▁ㅈㅓㄴㅁㅕㄴ -3485
▁ㄱㅕㄹㄹㅗㄴ -3486
▁ㅂㅏㄴㅂㅏㄹ -3487
ㅅㅓㅇㄱㅣ -3488
▁ㄱㅓㄹㄹㅣㄴ -3489
▁130 -3490
▁ㄴㅗㄹㅇㅣ -3491
▁ㄴㅓㄱ -3492
▁ㅅㅣㄴㅎㅗ -3493
ge -3494
OP -3495
ㄴㅕㄱ -3496
▁ㅇㅕㅇㅁㅜㄴ -3497
▁ㄷㅗㅂ -3498
ㅉㅐㅆㄷㅡㄴ -3499
▁ㅎㅕㅂㅂㅏㄱ -3500
▁ㄱㅗㅇㅁㅜ -3501
▁ㄱㅕㅌ -3502
MA -3503
▁ㅇㅗㄻㄱㅕ -3504
▁ㄲㅡㄴ -3505
ㄷㅓㄴㄱㅏ -3506
▁ㅇㅣㄱㅅㅡ -3507
ax -3508
▁ㅇㅘㅇㅈㅗ -3509
▁ㅈㅓㅇㅁㅕㄴ -3510
▁ㅍㅓㄴㅊㅣ -3511
▁BE -3512
▁ㅂㅏㄴㅅㅏ -3513
ㅅㅏㅇㅈㅏ -3514
▁ㅇㅕㄴㅇㅣㄴ -3515
▁DF -3516
▁ㅇㅝㄴㅂㅗㄴ -3517
▁ㅍㅐㄴㄷㅓㅁ -3518
▁MF -3519
ㅈㅏㅂㅇㅣ -3520
▁ㅅㅏㄹㄹㅣ -3521
ome -3522
▁ㅇㅡㄴㄱㅡㄴㅎㅣ -3523
▁ㅅㅣㄴㄹㅏ -3524
▁ㅂㅏㄱㄱㅡㄴㅎㅖ -3525
▁ㅇㅣㄴㄱㅡㄴ -3526
ance -3527
▁ㅅㅏㅇㅎㅏ -3528
▁ㅈㅜㄴㅅㅜ -3529
▁ㅈㅓㅂㅅㅗㄱ -3530
▁ㄱㅗㄷㅂㅏ -3531
▁ㅈㅓㅇㄱㅡㄹ -3532
ㅇㅗㅇ -3533
▁ㅊㅓㅅㅊㅏ -3534
uc -3535
▁ㅃㅐㅅ -3536
▁ㅋㅐㅁㅍㅓ -3537
▁ㄱㅓㄴㅊㅜㄱ -3538
ㅇㅝㄴㅈㅏㅇ -3539
▁ㅈㅏㄱㅎㅘ -3540
▁ㅂㅜㅌㅇㅣ -3541
ick -3542
▁ㄴㅑㅇ -3543
ㅋㅗㄹ -3544
▁ㅍㅔㅅ -3545
▁ㄱㅡㅇㅈㅓㅇ -3546
▁ㅁㅗㄱㄱㅕㄱ -3547
▁ㅂㅐㅇ -3548
▁ㅌㅏㄴㅊㅏㅇ -3549
▁ㅅㅏㅇㅅㅓㅇ -3550
ㄹㅣㄴㅇㅣ -3551
▁ㅇㅠㄱㅊㅔ -3552
▁ㄱㅗㄹㄷㅡㄴ -3553
▁ㅂㅏㄱㅈㅓㅇ -3554
▁ㅅㅟㄹ -3555
▁ㅁㅕㄴㅇㅕㄱ -3556
ㅂㅕㅂ -3557
▁ㅇㅣㄹㄱㅕㄱ -3558
▁ㅎㅘㄴㅇㅕㅇ -3559
▁Pl -3560
▁ㄹㅣㅁ -3561
▁ch -3562
▁ㄷㅣㅇ -3563
▁ㄱㅏㅇㄴㅏㅁ -3564
ix -3565
▁ㄴㅜㄹㄹㅓ -3566
▁ㅇㅡㅁㅇㅝㄴ -3567
▁ㄷㅗㅇㅂㅜ -3568
▁ㅂㅜㄹㅂㅓㅂ -3569
mer -3570
▁ㅇㅏㄴㄴㅐ -3571
ord -3572
ㅇㅣㅁㅅㅡ -3573
ㅆㅡㄹ -3574
▁ㅇㅑㄱㅎㅐ -3575
ㄷㅏㄹㄹㅣ -3576
▁ㅂㅣㅊㄴㅏ -3577
▁ㅎㅜㅅ -3578
▁HD -3579
▁ㅈㅔㄹ -3580
▁ㅉㅗㅊㅇㅏ -3581
▁ㅊㅓㅁ -3582
ㄲㅟㄴ -3583
▁ㄱㅏㄱㅈㅏ -3584
▁ㅎㅕㅇㅅㅏ -3585
▁ㄷㅡㄴㄷㅏ -3586
▁ㅇㅐㄹㄹㅣ -3587
ure -3588
▁ㄱㅕㄹㅁㅏㄹ -3589
▁ㅎㅏㄱㅂㅜ -3590
▁160 -3591
▁ㅈㅓㅇㅊㅏㄹ -3592
ㅇㅣㄴㅇㅓㅂ -3593
▁ㅇㅗㄹㄹㅣㄴ -3594
ㅇㅣㄹㄹㅐㄴㄷㅡ -3595
▁ㅋㅏㄹㄹㅣ -3596
ㅌㅡㄱㅂㅕㄹ -3597
▁WW -3598
10 -3599
▁ㅁㅔㄴㅌㅏㄹ -3600
▁ㅎㅕㄴㅇㅕㄱ -3601
▁ㄸㅡㄷ -3602
▁ㅈㅓㄱㄷㅐ -3603
▁OST -3604
▁ㅁㅓㄹㅉㅓㅇ -3605
▁GB -3606
▁with -3607
▁ㅅㅏㅇㅎㅏㄴ -3608
▁ㅊㅛ -3609
▁ㄱㅜㄱㄱㅜㄴ -3610
ㄴㅣㄴㄱㅏ -3611
▁ㅁㅝㄹ -3612
▁SM -3613
▁ㄲㅡㄹㄹㅕ -3614
▁ㄷㅣㄴ -3615
ud -3616
▁ㅇㅣㄹㄱㅣ -3617
▁ㅊㅣㅁㄱㅗㅇ -3618
▁ㅎㅏㄹㅇㅏ -3619
▁ㅇㅏㄴㄱㅕㅇ -3620
▁ㅇㅟㄹㄹㅣ -3621
▁ㅅㅡㅇㄱㅕㄱ -3622
▁ㄷㅏㄷ -3623
▁ㄱㅜㄱㅇㅓ -3624
▁ㅂㅜㄹㄹㅣㄴㄷㅏ -3625
▁ㄲㅏㅇ -3626
ㄴㅣㄱㅅㅡ -3627
▁ㅇㅕㅇㅌㅗ -3628
▁ㄱㅏㄷ -3629
ㄷㅓㄹㄹㅏㄴㄷㅡ -3630
▁1992 -3631
▁ㅋㅗㄹㄹㅗ -3632
▁ㅅㅣㄱㄷㅏㅇ -3633
▁\ -3634
▁ㅈㅓㄴㄹㅏ -3635
▁ㅅㅣㄴㅂㅣ -3636
▁ㅍㅡㄹㄹㅓ -3637
▁ㅊㅗㄴ -3638
▁ㅊㅓㄴㅈㅐ -3639
ㅋㅡㄴ -3640
▁1993 -3641
ㅈㅓㅇㄱㅓ -3642
ㄲㅜㄴ -3643
▁Ex -3644
▁https -3645
▁ㅋㅐㅁㅍㅔ -3646
▁ㅇㅕㄹㅅㅚ -3647
▁?? -3648
▁ㄴㅏㅁㄱㅕ -3649
ame -3650
▁ㄱㅓㅁㅊㅏㄹ -3651
AD -3652
▁ㅈㅓㄴㅁㅜㄴㄱㅏ -3653
▁ㅊㅗㅇㅅㅓㄴ -3654
▁140 -3655
▁ㅂㅏㅇㅈㅣ -3656
▁JR -3657
▁sh -3658
▁ㅇㅛㅇㄱㅣ -3659
80 -3660
▁ㅇㅜㅇ -3661
▁ㅌㅡㄴ -3662
▁ㅎㅏㄴㄷㅗㅇㅇㅏㄴ -3663
▁ㅅㅗㄱㅎㅏ -3664
▁ㅅㅏㅇㄱㅡㅂ -3665
▁ㅂㅏㅇㅅㅏ -3666
▁ㄹㅔㄱ -3667
▁ㄱㅣㅁㄷㅗㅇ -3668
▁de -3669
▁ㅅㅏㅇㄷㅏㅇㅅㅜ -3670
▁ㅂㅏㅇㅊㅜㄹ -3671
▁ㅈㅓㄴㅈㅣㄴ -3672
▁ㅇㅗㄹㅎㅐ -3673
ㅉㅓㄱ -3674
ㅁㅔㄹ -3675
▁ㄹㅣㅅ -3676
ost -3677
▁ㄷㅗㅇㄱㅜㄹ -3678
▁KO -3679
▁ㄴㅗㅇㄷㅏㅁ -3680
ㄹㅣㄱㅅㅡ -3681
▁ㅇㅑㅇㅉㅗㄱ -3682
▁Love -3683
ㅁㅔㄴㅌㅡ -3684
▁ㅈㅜㄹㅇㅕ -3685
▁ㄲㅗㅈ -3686
▁ㅋㅡㄹㄹㅣㄱ -3687
ㅈㅡㄹ -3688
▁ㅋㅐㅂㅌㅣㄴ -3689
ㅇㅠㄱㄱㅘㄴ -3690
old -3691
▁ㅂㅕㄹㄷㅏ -3692
ㄷㅓㅇㅇㅣ -3693
▁ㅇㅘㄹ -3694
out -3695
▁ㅈㅓㅇㅇㅝㄴ -3696
▁ㅎㅏㄴㅊㅏㅁ -3697
▁ㅅㅣㄴㅅㅓㄹ -3698
▁ㄸㅣ -3699
ㅈㅏㅇㅅㅣㄹ -3700
▁ㅈㅓㄴㅅㅣㄴ -3701
▁ㅃㅓ -3702
▁ㅁㅏㅇㄱㅏ -3703
▁ㄱㅓㄹㅊㅕ -3704
▁ㅇㅝㄴㅅㅗ -3705
▁ㅈㅜㄱㅇㅣㄹ -3706
▁IC -3707
▁ㅂㅡㄹㄹㅏ -3708
▁Un -3709
▁ㅁㅗㄹㄹㅏㅆ -3710
▁ㅊㅐㄹㄹㅣㄴ -3711
▁ㅈㅜㅇㄷㅗㄱ -3712
▁ㅂㅜㄱㅂㅜ -3713
own -3714
▁GS -3715
▁ㅇㅕㄴㄹㅛ -3716
▁ㅎㅏㄴㅁㅏ -3717
▁ㄱㅏㄹㅅㅜ -3718
ㄹㅐㅅㄷㅗㅇㅇㅏㄴ -3719
▁ㅇㅜㅅㅇㅡㅁ -3720
▁900 -3721
ㅂㅜㅇ -3722
ㅈㅏㄱㅈㅏ -3723
ㅈㅟ -3724
ㄴㅝ -3725
▁ㅈㅏㅂㅎㅕ -3726
▁ㅌㅗㅁ -3727
▁ㅈㅏㄱㄱㅗㄱㄱㅏ -3728
ㅋㅓㅅ -3729
▁ㅁㅜㄴㅈㅐ -3730
▁ㅈㅓㄱㅎㅕ -3731
▁ㅊㅜㅇㅊㅓㅇ -3732
ㅇㅑㅇㅎㅏㅁ -3733
ㄲㅣㄹ -3734
▁ㅂㅣㅈ -3735
ㅁㅗㄴㄷㅡ -3736
▁202 -3737
▁ㅅㅓㄴㅌㅐㄱㅈㅣ -3738
ㅅㅡㄹㄹㅏㅁ -3739
▁ㅁㅗㅅㅎㅏㄹ -3740
▁ㅇㅣㄹㅈㅔ -3741
▁ㅇㅟㄹ -3742
▁ㅁㅔㄱㅅㅣ -3743
▁ㅈㅓㅂㅊㅗㄱ -3744
▁ㄱㅜㄱㅂㅏㅇ -3745
ㄷㅗㄱㄱㅛ -3746
▁ㅈㅣㅂㅇㅓ -3747
▁ㅇㅏㄴㅌㅣ -3748
▁LI -3749
▁SH -3750
▁ㅂㅗㄴㅊㅔ -3751
ㅇㅑㄹ -3752
US -3753
▁ㅅㅐㅇㅈㅗㄴㅈㅏ -3754
▁ㅇㅕㅇㅎㅑㅇㄹㅕㄱ -3755
ㅌㅗㄹㄹㅣㄱ -3756
▁ㄱㅣㅁㅈㅗㅇ -3757
▁ㅅㅣㄱㄹㅑㅇ -3758
▁ㅇㅣㄴㅈㅓㅇㅂㅏㄷ -3759
▁FF -3760
▁ㅁㅓㅁㅊㅜ -3761
▁ㅋㅕ -3762
▁ㅈㅜㄱㅇㅣㄴ -3763
ok -3764
▁ㅎㅣㅂ -3765
ㅇㅣㄴㄷㅡ -3766
▁ㅌㅔㄴㄷㅔ -3767
pe -3768
ave -3769
▁EP -3770
▁ㅁㅏㅈㅅㅓ -3771
▁ㅌㅜㄹ -3772
ㅎㅡㅂ -3773
▁ㄷㅡㄹㄹㅣ -3774
ace -3775
▁ㄴㅔㄱㅅㅔㄴ -3776
▁ㄷㅗㄷ -3777
per -3778
ㅊㅣㅁㄴㅐ -3779
▁ㄱㅡㄱㅂㅗㄱ -3780
▁SKT -3781
▁ㅂㅏㄴㄷㅗㅇ -3782
▁ㅇㅓㅂㅈㅓㄱ -3783
▁.." -3784
ㅁㅏㅅ -3785
▁ㄱㅏㄹㄹㅏ -3786
ng -3787
▁ㅌㅔㄱ -3788
ㅈㅓㅇㅂㅜ -3789
▁ㄷㅏㅇㅇㅣㄹ -3790
ㄷㅡㄴㄱㅏ -3791
▁ㅈㅓㄴㅅㅓㅇㄱㅣ -3792
▁ㄷㅏㄱ -3793
▁ㅊㅣㅇㅊㅏㄴ -3794
▁ㅊㅕㅆ -3795
▁ㅈㅓㄴㅁㅕㄹ -3796
ice -3797
ㄷㅣㅅ -3798
▁ㅈㅓㅇㅂㅣ -3799
▁CV -3800
▁ㄷㅡㄹㄹㅕ -3801
▁ㅅㅣㄴㅂㅜ -3802
▁ㄲㅘ -3803
ㄹㅡㅍ -3804
▁ㅈㅏㅂㅈㅣ -3805
▁ㅎㅓㅅ -3806
▁ㅁㅕㅇㅅㅓㅇ -3807
▁XX -3808
▁ㅆㅣㅂ -3809
▁ㅇㅕㄴㄱㅡㅁ -3810
▁ㅇㅣㄴㄷㅣ -3811
ov -3812
ㅈㅛ -3813
ㅋㅔㄴ -3814
▁ㅍㅣㅅ -3815
▁ㅅㅣㅇㅋㅡ -3816
▁ㅈㅏㅇㅇㅏㄱ -3817
▁ㄲㅜㄹ -3818
▁ㅊㅜㄹㅁㅏ -3819
ㄹㅗㅁ -3820
▁ㄱㅕㄹㅋㅗ -3821
▁CF -3822
ㄲㅡㄴ -3823
▁ㅇㅝㄴㅈㅜ -3824
▁ㅇㅣㄹㅂㅏㄴㅇㅣㄴ -3825
▁ㅅㅗㄴㅎㅐ -3826
▁1991 -3827
▁ㅅㅏㅇㅇㅓㅂ -3828
▁We -3829
▁ㄱㅘㄱ -3830
ont -3831
▁ㅈㅓㅇㅅㅜ -3832
▁ㅁㅐㄱㅅㅡ -3833
OD -3834
▁ㅇㅣㅇㄱㅡㄹ -3835
▁ㅇㅣㄹㄹㅏㅁ -3836
▁ㅆㅏㅇㄷㅜㅇㅇㅣ -3837
▁ㅂㅜㄱㅉㅗㄱ -3838
▁ㅊㅜㅇㅅㅓㅇ -3839
▁IS -3840
▁AD -3841
▁ㅎㅏㄹㅁㅓ -3842
▁1988 -3843
▁ㄱㅡㅁㅅㅗㄱ -3844
▁ㄱㅕㄹㅅㅓㅇ -3845
▁ㅇㅣㄴㅈㅗ -3846
▁ㅅㅐㅇㄴㅕㄴ -3847
▁ㅌㅗㅂ -3848
▁ㅂㅓㅂㄹㅠㄹ -3849
orld -3850
▁ㄴㅏㄲㅅㅣ -3851
▁ㄷㅜㄹㅉㅐ -3852
▁ㅂㅓㄹㄹㅔ -3853
ies -3854
ㅃㅏㄹ -3855
▁ㄷㅏㄺ -3856
▁ㄷㅗㅇㅇㅢ -3857
ㄱㅓㄹㄹㅗ -3858
▁ㅎㅏㅂㅇㅢ -3859
ann -3860
▁ㄴㅏㅁㅉㅗㄱ -3861
▁ㅈㅓㄱㅇㅡㅇ -3862
▁ㅋㅔㄹ -3863
▁105 -3864
▁ㅂㅏㄹㄹㅏ -3865
ㄲㅏㅌ -3866
▁ㅇㅓㄱㅈㅣ -3867
▁ㅍㅓㅇ -3868
▁ㄷㅗㅇㄹㅕㄱ -3869
▁ㅈㅡㅇㅇㅓㄴ -3870
▁ㅅㅓㄴㅈㅓㄴ -3871
▁ㅅㅡㄹㄹㅗ -3872
▁ㅈㅓㄴㅈㅜ -3873
▁ㄱㅜㄱㄹㅣㅂ -3874
▁ㅂㅓㅂㅇㅝㄴ -3875
▁ㅂㅜㄹㅌㅏ -3876
▁ㄱㅏㄱㅂㅗㄴ -3877
▁ㅎㅕㄹㅇㅐㄱ -3878
ㅂㅡㄹㄹㅣㄴ -3879
▁ㄷㅗㄱㅌㅡㄱ -3880
ㅌㅡㄱㅂㅕㄹㅅㅣ -3881
▁ㅉㅣㅈ -3882
▁ㄴㅗㄴㄹㅣ -3883
▁ㅆㅓㄹ -3884
▁ㄸㅗㅇ -3885
▁ㄴㅏㅁㄴㅕ -3886
▁ㄷㅣㄹㄹㅔ -3887
▁ㅊㅣㅂ -3888
▁ㅅㅡㅇㅈㅓㅁ -3889
▁ㄲㅏㄹㄲㅡㅁ -3890
ㄷㅠㄹ -3891
▁ㄴㅗㄱㅅㅐㄱ -3892
ㄹㅓㅅ -3893
▁ㄱㅗㅇㄹㅛㅇ -3894
▁ㅎㅡㄴㅈㅓㄱ -3895
ㅆㅏㅇ -3896
ㅎㅏㄱㅇㅝㄴ -3897
▁ㅎㅏㄱㄹㅕㄱ -3898
▁ㅅㅐㄱㅅㅏㅇ -3899
▁ㅋㅡㄹㄹㅐㄴ -3900
▁ㅂㅗㄱㅁㅜ -3901
▁AM -3902
▁ㄱㅘㅇㅇㅕㄱㅅㅣ -3903
ㅇㅜㄹㅌㅡㄱㅂㅕㄹㅅㅣ -3904
OC -3905
ㄷㅗㄹㄹㅣ -3906
▁ㅈㅓㄴㅎㅜ -3907
ㅈㅏㄱㅅㅏ -3908
▁ㅎㅑㅇㅎㅏ -3909
▁DS -3910
▁ㅅㅐㄱㄲㅏㄹ -3911
▁wik -3912
▁ㅍㅗㄹㄹㅣ -3913
▁ㅎㅜㅅㄴㅏㄹ -3914
ㄱㅕㄱㅅㅜ -3915
ㄲㅜㄹ -3916
LE -3917
▁ㅇㅕㄴㅍㅐ -3918
▁ㄱㅣㅁㅈㅐ -3919
▁ㄹㅓㄴㄷㅓㄴ -3920
▁ㅇㅣㄴㄱㅕㄱ -3921
ㄹㅏㅇㅇㅣ -3922
▁ㄷㅡㄹㅇㅕ -3923
ㄷㅡㅂ -3924
▁ED -3925
▁ㄴㅐㅁㅅㅐ -3926
▁ㅇㅕㄴㅅㅡㅇ -3927
ㄸㅡㅅ -3928
▁ㄱㅣㄹㅇㅣ -3929
▁DE -3930
▁ㅎㅐㅁ -3931
▁ㅈㅓㅇㅊㅏㄱ -3932
ㄱㅡㅅ -3933
▁ㅊㅐㅇㄱㅕ -3934
▁ㅌㅟㅇ -3935
▁ㅅㅏㅇㅎㅗ -3936
▁ㅌㅡㄱㅈㅓㄴ -3937
ㅌㅗㄱ -3938
▁ㅊㅔㄹ -3939
ㅈㅕㅆㅇㅡ -3940
▁ㅎㅓㄹ -3941
▁SNS -3942
▁ㅈㅏㅁㅈㅐ -3943
▁LV -3944
▁ㄱㅏㅇㄷㅗ -3945
▁ㄱㅝㄴㅎㅏㄴ -3946
ys -3947
▁ㅍㅗㄹㄹㅏㄴㄷㅡ -3948
ber -3949
▁ㄱㅗㅇㅅㅓㅇ -3950
▁ㄱㅘㄴㄹㅏㅁ -3951
▁ㅅㅡㅇㄹㅠㄹ -3952
ㅅㅖ -3953
▁ㅅㅜㅇ -3954
ㄷㅜㄹ -3955
ㄹㅐㅂ -3956
▁ㅈㅜㅇㄹㅑㅇ -3957
ㄱㅏㅄ -3958
▁ㅇㅣㄹㅉㅣㄱ -3959
ION -3960
▁NE -3961
▁ㄱㅡㄹㄹㅓ -3962
▁ㄱㅡㅁㅇㅠㅇ -3963
▁ㅁㅣㄴㅊㅓㅂ -3964
▁your -3965
▁ㅍㅜㄹㄹㅣ -3966
▁ㅇㅕㅇㄱㅜ -3967
der -3968
▁ㅊㅣㅇㅎㅗ -3969
▁ㅇㅓㄴㅈㅔㄴ -3970
▁ㅃㅜㄹ -3971
▁ㅈㅏㅂㅎㅣ -3972
▁ㅇㅣㄹㅂㅏㅇ -3973
▁ㄴㅓㄹㄹㅣ -3974
▁ㅅㅜㄱㄹㅕㄴ -3975
▁ㅎㅡㅇㅁㅣ -3976
ㅊㅠ -3977
▁CPU -3978
▁ㅎㅡㅂㅎㅕㄹ -3979
▁ㄸㅡㄴㄱㅡㅁ -3980
▁SE -3981
aw -3982
▁ㅁㅗㄹㄹㅏㄱ -3983
▁BPM -3984
▁ㄷㅏㄴㅍㅕㄴ -3985
▁ㅈㅜㅇㅊㅓㅂ -3986
▁189 -3987
FF -3988
▁ㅅㅐㅇㄱㅣㄴㄷㅏ -3989
▁ㅅㅏㅇㅅㅜㄹ -3990
▁It -3991
60 -3992
▁ㅈㅓㄱㄷㅏㅇㅎㅣ -3993
▁ㅎㅐㅇㅂㅗ -3994
▁ㅁㅏㅇㅊㅣ -3995
▁ㅅㅣㅁㅅㅏ -3996
▁ㅆㅗㄷㅇㅏ -3997
ㄹㅐㅇㅋㅡ -3998
BA -3999
▁ㅅㅐㅇㄹㅑㄱ -4000
40 -4001
▁EN -4002
▁ㄱㅗㄹㄹㅏ -4003
ream -4004
▁ㅇㅕㄴㄹㅕㅇ -4005
ㄹㅐㄴㅁㅏㄴ -4006
ㄷㅡㅇㅎㅏㄱㅅㅐㅇ -4007
▁ㅇㅓㄴㄷㅓ -4008
▁ㅈㅜㅇㄱㅜㄱㅇㅓ -4009
▁ㄷㅐㄴ -4010
ike -4011
ㅇㅝㄹㅇㅣㄹ -4012
▁ㅍㅓㄹ -4013
▁ㅇㅣㄹㄹㅔ -4014
▁ㅇㅣㄴㅁㅣㄴ -4015
▁ㅈㅜㄹㅇㅣ -4016
▁Com -4017
▁ㅆㅡㄹㅁㅗ -4018
▁ㅅㅏㅇㄷㅏㄴ -4019
▁ㄱㅜㄱㅇㅘㅇ -4020
▁ㅅㅣㄹㅁㅏㅇ -4021
▁ㅈㅐㅇ -4022
▁ㅌㅏㄹㅌㅚ -4023
▁125 -4024
▁ㅍㅓㅁ -4025
▁ㅍㅕㄴㅇㅣㅂ -4026
▁ㅎㅞ -4027
▁ㅅㅣㄴㅅㅏ -4028
▁ㅅㅐㅇㄴㅕㄴㅇㅝㄹㅇㅣㄹ -4029
▁ㄷㅓㅅㅂㅜㅌ -4030
▁ㅁㅏㄱㅇㅏ -4031
▁ㄷㅏㅁㅂㅐ -4032
▁ㄱㅏㄴㅅㅣㄴ -4033
▁ㅇㅝㄴㅁㅜㄴ -4034
▁ㅎㅕㅁㅇㅗ -4035
ㄷㅗㅇㅅㅓㅇ -4036
▁ㅁㅏㅅㅇㅣㅆ -4037
▁ㅁㅜㄴㄱㅜ -4038
▁ㄱㅗㅇㄱㅗㅇ -4039
▁ㄷㅏㄴㄷㅏㄴ -4040
▁ㅋㅓㅆ -4041
▁ㅇㅓㄴㅅㅡ -4042
▁LC -4043
ㄹㅏㄴㄷㅏ -4044
ㅂㅓㄴㅌㅡ -4045
▁ㅁㅏㄴㄴㅏㄹ -4046
▁ㅇㅣㅇㄱㅡㄹㄹㅐㄴㄷㅡ -4047
▁ㅎㅕㅁㅇㅢ -4048
iss -4049
▁ㅅㅣㅂㅈㅏ -4050
▁ㄱㅜㅅ -4051
▁1989 -4052
▁ㅇㅛㅇㄹㅑㅇ -4053
ㄹㅡㅁㅇㅓㅄ -4054
▁ww -4055
▁UP -4056
▁ㄸㅏㄴ -4057
▁ㅇㅣㅁㄷㅐ -4058
ㅍㅕ -4059
▁ㄱㅣㅁㅎㅕㄴ -4060
▁ㅁㅕㄴㅁㅗ -4061
▁ㅈㅓㅇㅎㅘ -4062
▁ㄷㅗㅇㅉㅗㄱ -4063
chor -4064
▁www -4065
▁ㅅㅏㅇㅇㅣㄴ -4066
▁ㅈㅡㅇㅇㅗ -4067
▁ㄱㅗㅇㅅㅔ -4068
▁ㅇㅏㄴㄴㅕㅇ -4069
▁ㅋㅐㅁㅍㅡ -4070
▁ㅅㅓㅇㄴㅏㅁ -4071
▁ㅎㅡㄹㄹㅣ -4072
▁ㅊㅗㅇㅇㅏㄹ -4073
▁3000 -4074
▁PV -4075
▁ㅇㅕㅅ -4076
ㅌㅏㅁ -4077
▁ㅇㅣㄴㅊㅣ -4078
▁ㄴㅏㅁㄱㅕㅆ -4079
▁ㅅㅣㄹㅈㅓㄴ -4080
ian -4081
▁ㅂㅐㅁㅍㅏ -4082
30 -4083
▁ㄴㅓㅁㅊㅣ -4084
▁ㅇㅏㄱㄷㅏㅇ -4085
▁BL -4086
ㄹㅓㅁㅍㅡ -4087
▁ㅌㅓㄱ -4088
▁ㅎㅗㄱㅅㅣ -4089
ㄸㅏㅇ -4090
▁ㄷㅔㅁ -4091
▁ㄱㅗㅇㅂㅏㅇ -4092
io -4093
▁ㄷㅣㄹㄹㅣㅇ -4094
▁ㅊㅗㅇㄹㅣ -4095
▁ㅋㅏㄹㄴㅏㄹ -4096
ㄴㅔㄹ -4097
▁that -4098
▁ㄱㅕㄹㅈㅓㄴ -4099
▁ㄱㅗㄴㄹㅏㄴ -4100
ㅎㅓㅁㄱㅏ -4101
▁ㅁㅏㄱㄷㅐ -4102
▁ㄱㅗㅇㅇㅛㅇ -4103
▁ㅇㅕㅇㅈㅜ -4104
▁ㅅㅜㄴㅎㅘㄴ -4105
▁AS -4106
▁ㅎㅐㅇㅇㅜㄴ -4107
▁ㄱㅏㅇㅈㅏ -4108
▁ㅈㅣㅂㅎㅐㅇ -4109
▁Pro -4110
▁ㅅㅏㅇㄱㅘㄴㅇㅓㅄ -4111
0000 -4112
ㄱㅏㄴㅎㅣ -4113
▁ㅎㅏㄱㅈㅏ -4114
▁ㅎㅘㄹㅂㅏㄹ -4115
▁ㅅㅣㄴㅈㅣ -4116
ㄷㅣㅈ -4117
▁;& -4118
▁ㅎㅕㅂㅅㅏㅇ -4119
▁anchor -4120
▁ㅇㅛㅇㅅㅓ -4121
▁ㅇㅝㄴㅎㅏ -4122
▁-> -4123
▁ㅇㅣㄹㅈㅗㄱ -4124
ㄹㅐㄴㅅㅡ -4125
▁ㄱㅡㅁㅂㅏㅇ -4126
ory -4127
▁Fl -4128
▁ㅇㅝㄴㅊㅣㄱ -4129
▁ㅈㅜㅇㄹㅣㅂ -4130
▁ㅂㅗㄱㅈㅣ -4131
ㅍㅏㅇㅇㅣ -4132
▁Br -4133
▁ㅊㅓㅂ -4134
▁ㅊㅓㅇㅈㅜ -4135
▁ㅅㅣㄴㅇㅏㅇ -4136
ㅁㅣㅆ -4137
ㅊㅜㄱㅎㅏㅁ -4138
▁ㅅㅏㅇㅅㅣㄹ -4139
▁ㅈㅣㄴㅂㅗ -4140
▁ㅊㅏㄴㅅㅡ -4141
▁ㅌㅗㅇㅅㅏㄴ -4142
▁&# -4143
▁ㅂㅣㄱㅌㅗ -4144
▁ㅈㅓㅇㅇㅖ -4145
ㅍㅐㄱㅌㅡ -4146
▁ㅁㅕㅇㄷㅏㄴ -4147
▁ㅁㅓㅅㅈㅣㄴ -4148
▁ㅈㅜㄴㅇㅜ -4149
ㄸㅜㅇ -4150
▁ㅇㅔㄴㅈㅔㄹ -4151
▁ㅈㅏㅇㅌㅏㄴ -4152
ㄹㅏㅆ -4153
▁ㅁㅏㄹㄹㅣ -4154
▁ㅍㅐㅇ -4155
ㄱㅓㄹㅇㅣ -4156
▁ㅇㅙㄴㅈㅣ -4157
ㅇㅓㄴㅌㅡ -4158
▁ㅇㅓㅂㄹㅗ -4159
▁ㄴㅏㅁㄱㅣㄴ -4160
▁ㅇㅏㄹㄹㅔㄱㅅㅏㄴ -4161
ㅅㅜㄱㅅㅏ -4162
▁ㅇㅣㅂㅈㅣ -4163
▁ㅎㅣㄴ -4164
▁ㅂㅜㄴㅅㅣㄴ -4165
▁ㅁㅔㄹㄹㅗ -4166
▁ㅌㅏㄴㅎㅘㄴ -4167
▁ㄱㅏㅇㅇㅛ -4168
UM -4169
ㄹㅏㅂ -4170
▁ㅁㅜㄹㄹㅕ -4171
▁Or -4172
IG -4173
▁CJ -4174
▁ㅇㅡㅁㅁㅗ -4175
▁ㅇㅣㄹㅂㅗㄴㅇㅣㄴ -4176
▁le -4177
▁ㄱㅗㅇㅎㅓ -4178
▁ㅂㅏㄴㅈㅓㄴ -4179
▁ㅇㅓㄴㅈㅔㄴㄱㅏ -4180
▁170 -4181
▁ㅁㅣㅇ -4182
▁ㅈㅗㅇㅁㅗㄱ -4183
▁ㅇㅓㄷㅇㅓ -4184
▁ㄱㅕㄱㅊㅜ -4185
▁ㅊㅏㅁㅅㅓㄱ -4186
▁ㅅㅣㅁㅅㅣㅁ -4187
▁ㅁㅏㄹㅌㅜ -4188
▁by -4189
▁ㄱㅕㅇㄹㅗ -4190
▁ㅎㅔㄹㄱㅣ -4191
▁WWE -4192
▁1970 -4193
IP -4194
▁ㅊㅜㄹㅇㅣㅂ -4195
▁ㅎㅕㅇㅅㅏㅇ -4196
ㅍㅡㅁ -4197
▁;&# -4198
▁ㅈㅏㄴㄸㅡㄱ -4199
az -4200
▁~! -4201
▁ㅁㅟ -4202
▁ㄱㅓㄴㅈㅗ -4203
man -4204
▁ㅇㅕㄴㅁㅐㅇ -4205
VD -4206
ㅈㅣㅂㅌㅡ -4207
▁ㅎㅘㄱㄷㅐ -4208
ale -4209
▁ㅇㅜㄴㄷㅗㅇㅈㅏㅇ -4210
▁ㅇㅡㄴㅅㅣㄴ -4211
oth -4212
▁ㅇㅕㄴㄱㅡㄱ -4213
ㅅㅡㅇㅈㅏ -4214
▁ㅎㅟㅂ -4215
ep -4216
▁Dr -4217
▁ㅉㅜㄱ -4218
OU -4219
▁ㅂㅜㄴㄷㅐ -4220
▁ㅅㅣㄴㅈㅓㄴ -4221
▁1987 -4222
▁ㅍㅐㄴㅌㅓㅁ -4223
▁ㅂㅜㄹㅅㅏ -4224
▁ㅂㅗㄱㄱㅜ -4225
▁ㅁㅜㄴㄷㅏㄴ -4226
▁ㅇㅑㅇㅅㅓㅇ -4227
▁ㅎㅏㄹㅇㅣㄴ -4228
▁ㅅㅏㅇㄱㅣ -4229
ㅁㅏㅇㄱㅏ -4230
TE -4231
▁ㄱㅏㄴㅅㅣㄴㅎㅣ -4232
▁ㄱㅓㄴㄷㅡ -4233
ky -4234
▁ㄱㅏㄴㅈㅓㅂ -4235
arg -4236
ㅅㅔㅅ -4237
▁ㄱㅣㅁㄷㅐ -4238
▁ㅇㅏㄱㅁㅕㅇ -4239
▁ㅇㅝㄴㅈㅏ -4240
▁ㄷㅏㄴㅊㅜㄱ -4241
▁ㅇㅣㄹㅊㅣ -4242
ach -4243
▁ㅃㅜㅁ -4244
▁ㄹㅗㄱㅁㅐㄴ -4245
▁ㄱㅝㄴㄹㅣ -4246
ㄹㅐㅇ -4247
ㅇㅓㄴㅊㅡ -4248
▁ㅊㅓㄴㅁㅏㄴ -4249
▁ㄱㅕㅇㅈㅜ -4250
ㅅㄱㅏㄹ -4251
VA -4252
▁ㅅㅏㅇㅇㅕㅇ -4253
▁ㅈㅓㄴㅇㅣ -4254
▁ㅍㅕㅇㅈㅓㅁ -4255
▁Sc -4256
▁ㅇㅟㅅ -4257
ㅂㅓㅂㅅㅗ -4258
▁ㅈㅓㄱㅎㅏㅂ -4259
▁ㅅㅐㄴㄷㅡ -4260
70 -4261
▁OP -4262
▁ㅂㅏㄱㅁㅜㄹ -4263
▁ㅆㅗㄹ -4264
▁ㅇㅜㄹㅍㅡ -4265
ㄲㅟㄴㄷㅏ -4266
▁ㄴㅏㄴㅇㅣㅂ -4267
▁ㅈㅓㅇㅎㅘㅇ -4268
ㅇㅔㅅ -4269
▁ㅂㅏㄹㄷㅏㄹ -4270
ㅋㅣㅅ -4271
▁ㄴㅓㅁㅂㅓ -4272
orm -4273
▁ㄷㅜㅁ -4274
ㅍㅐㄴ -4275
▁ㅅㅡㅇㅈㅏ -4276
▁ㅇㅗㅀ -4277
▁ㄱㅗㅅㄱㅗㅅ -4278
▁ㅅㅕㄹ -4279
▁ㅁㅏㄴㄴㅏㅁ -4280
ㄸㅟ -4281
▁ㅂㅏㄴㅎㅐ -4282
ㅅㅡㄹㄹㅓ -4283
▁Team -4284
▁}} -4285
▁ㅈㅡㄹㄱㅓ -4286
ㅇㅜㄴㅅㅓ -4287
ows -4288
▁1500 -4289
▁ㅅㅣㄱㅁㅣㄴ -4290
▁ㅊㅜㄱㅂㅗㄱ -4291
ish -4292
ㅊㅓㅁ -4293
▁ㅎㅓㄴㅂㅓㅂ -4294
ae -4295
ㅇㅗㄹㄹㅏ -4296
▁ㅂㅣㄹㄹㅕ -4297
▁ㅇㅏㅁㅅㅣ -4298
▁ㅊㅜㄹㄱㅕㄱ -4299
▁111 -4300
ㄹㅗㅂㅎㅣ -4301
▁ㅇㅏㅍㄷㅜ -4302
▁5000 -4303
▁ㅈㅕㅆㅇㅡ -4304
▁ㄱㅏㅈㅊㅜㄴ -4305
▁ㄱㅝㄴㅈㅏㅇ -4306
▁ㅅㅜㅁㄱㅣ -4307
▁ㄱㅏㅇㅈㅓㅁ -4308
GE -4309
▁RPG -4310
▁ㄱㅘㄴㅎㅏㄹ -4311
▁ㅁㅣㄱㅅㅡ -4312
▁ㅇㅓㄴㄷㅓㄱ -4313
▁ㅁㅕㅇㅎㅘㄱ -4314
▁ㄱㅡㅁㅇㅐㄱ -4315
ook -4316
▁ㅂㅕ -4317
ㄹㅓㄱㅈㅓ -4318
ade -4319
▁ㄱㅓㄹㅁㅏㅈ -4320
▁ㅅㅡㅇㄱㅐㄱ -4321
▁ㅎㅏㅇㄱㅗㅇㄱㅣ -4322
▁ㅅㅔㄴㅌㅡ -4323
ug -4324
▁ㅇㅕㄹㅁㅐ -4325
▁ㅋㅣㄹㄹㅓ -4326
▁ㅈㅣㄴㅈㅜ -4327
▁ㅅㅣㄹㅊㅐㄱ -4328
▁ㅇㅘㄴㄱㅕㄹ -4329
▁ㅎㅣㄹㄹㅓ -4330
▁BB -4331
yle -4332
Hz -4333
▁ㄹㅓㅁ -4334
▁ㅃㅓㄷ -4335
▁ㄲㅡㅁㅉㅣㄱ -4336
▁ㅊㅜㅇㅅㅣㄹ -4337
▁ㅅㅏㄹㅍㅕ -4338
▁ㅍㅕㅇㅅㅐㅇ -4339
rom -4340
ile -4341
▁ㄱㅓㄹㄹㅣㄴㄷㅏ -4342
▁ㅇㅣㅂㄷㅐ -4343
ㅈㅏㄱㅇㅟ -4344
▁ㅈㅓㅇㅎㅏ -4345
▁ㅈㅓㄱㅈㅜㅇ -4346
▁ㄷㅓㅇㅊㅣ -4347
irl -4348
▁wiki -4349
▁ㅂㅓㅂㅇㅣㄴ -4350
▁ㄱㅏㅁㄱㅏㄱ -4351
▁ㅇㅣㅀㅇㅓ -4352
ash -4353
▁ㅇㅣㄹㄷㅐ -4354
ower -4355
ㄱㅜㄴㄷㅏ -4356
▁ㅇㅛㅇㅇㅣㄴ -4357
▁ㅎㅡㅌ -4358
▁ㅅㅓㅇㄹㅣㅂ -4359
ㅈㅐㅇㅇㅣ -4360
▁ㅈㅓㅇㅊㅏ -4361
▁ㅎㅏㄱㄱㅣ -4362
▁ㅈㅜㅇㅎㅕㅇ -4363
ink -4364
▁KBO -4365
▁ㅊㅓㄴㅎㅏ -4366
▁ㅈㅓㅇㄱㅣ -4367
▁ㅇㅕㅆㅇㅡㄹ -4368
▁ㄱㅕㄹㅎㅏㅂ -4369
▁CH -4370
▁ㅅㅣㅀㅇㅓ -4371
▁ㄱㅏㄴㅈㅣ -4372
▁ㄷㅏㅂㅂㅕㄴ -4373
▁ㄱㅕㅂㅊㅣ -4374
▁ㅊㅓㄴㅇㅏㄴ -4375
▁ㅂㅗㄴㅅㅏ -4376
▁ㅇㅔㄴㄷㅡ -4377
▁ㅂㅜㄹㅍㅔㄴ -4378
atch -4379
▁ㅁㅏㄱㄴㅐ -4380
ㅈㅏㅁ -4381
ㅃㅏㅇ -4382
▁ㅍㅏㅅ -4383
▁ㅈㅏㄱㄴㅕㄴ -4384
▁FW -4385
▁ㅂㅏㄱㅁㅜㄹㄱㅘㄴ -4386
▁ㅅㅣㄹㅈㅗㅇ -4387
▁ㅅㅓㄴㄱㅗ -4388
▁ㅊㅏㅇㄱㅗ -4389
▁ㅂㅐㄱㅅㅓㅇ -4390
▁ㅂㅏㄹㄹㅔㄴ -4391
▁ㅇㅕㄴㅅㅡㅂㅅㅐㅇ -4392
▁1986 -4393
ial -4394
▁ㅁㅕㄴㅈㅓㄱ -4395
▁we -4396
▁ㄹㅣㄹ -4397
IM -4398
▁ㄴㅘㅆ -4399
CG -4400
▁ㄲㅗㅁ -4401
sh -4402
▁FIFA -4403
▁ㅅㅔㄴㅅㅡ -4404
▁ㅂㅕㄴㅎㅘㄴ -4405
▁ㄷㅗㅇㅅㅓㅇ -4406
▁ㄱㅓㄴㄱㅏ -4407
ㅋㅔㅅㅁㅗㄴㅅㅡ -4408
ㅁㅣㅅ -4409
▁ㅇㅡㅂ -4410
▁ㅎㅓㅇ -4411
▁ㅇㅏㄱㅁㅗㅇ -4412
▁ㄱㅣㄴㅈㅏㅇ -4413
▁ㅁㅐㅅ -4414
▁ㅇㅑㄱㅎㅘ -4415
▁ㅈㅣㅂㅊㅏㄱ -4416
▁ㅅㅏㅇㅅㅣㄱ -4417
▁ㄷㅡㅇㅈㅣ -4418
ㅇㅣㄹㅂㅗ -4419
▁War -4420
▁ㄱㅡㅂㄱㅕㄱ -4421
▁ㅅㅐㅇㅁㅕㅇㅊㅔ -4422
▁DD -4423
▁Star -4424
ㄹㅓㅎㅈㅣ -4425
▁ㅂㅜㄹㄱㅛ -4426
▁ㄱㅕㄹㅌㅜ -4427
▁CG -4428
▁ㅊㅜㄹㄱㅜ -4429
▁ㅊㅏㅇㅇㅝㄴ -4430
▁ㅊㅣㅁㅁㅜㄱ -4431
▁ㅈㅏㅇㄱㅓ -4432
▁ID -4433
▁ㅇㅏㅁㅅㅏㄹㅈㅏ -4434
ㅅㅏㄴㅅㅣ -4435
TS -4436
▁ㅅㅗㅁ -4437
▁ㅍㅣㅇㅋㅡ -4438
▁ㅇㅗㄹㄹㅣㄹ -4439
▁ㅇㅣㄴㅍㅣ -4440
▁ㅇㅏㄴㄱㅐ -4441
▁ㄴㅗㅎㅊㅣ -4442
▁ㅁㅜㄹㄱㅗ -4443
▁ㅅㅏㅂㅇㅣㅂ -4444
ㅍㅡㄹㄹㅓ -4445
▁ㅇㅕㅇㄱㅘㅇ -4446
ㅇㅟㅅ -4447
▁ㅆㅏㄱ -4448
▁106 -4449
▁ㅈㅏㄹㄹㅏ -4450
ㄹㅕㅇㅂㅜ -4451
▁ㅆㅓㄴㄷㅓ -4452
▁ㅌㅗㅇㅊㅣ -4453
▁ㄱㅕㅇㅈㅣㄱ -4454
▁ㄷㅣㄱ -4455
▁up -4456
▁ㄱㅕㅇㄴㅏㅁ -4457
▁ㅂㅓㅂㅈㅓㅇ -4458
▁ㅇㅓㄴㄷㅔ -4459
▁ㅅㅣㄴㅂㅏㄹ -4460
▁ㄹㅣㅂ -4461
▁ㅌㅗㅇㄱㅖ -4462
▁ㅈㅏㅇㅇㅣㄴ -4463
ㅇㅡㄴㅎㅐㅇ -4464
ㅌㅠㅁ -4465
▁ㄱㅕㄹㅅㅣㅁ -4466
▁ㅅㅗㄹㅈㅣㄱ -4467
ㄱㅘㄹ -4468
▁ㄷㅗㅇㅁㅕㅇ -4469
▁ㄱㅏㄹㅇㅏ -4470
▁ㅊㅏㅁㅁㅗ -4471
▁ㅈㅜㄱㅇㅕㅆ -4472
ㄷㅗㅇㅈㅓㄴ -4473
▁ㄷㅗㅇㄱㅡㅂ -4474
▁ㅊㅐㄴ -4475
▁ㅇㅣㅁㅍㅐㄱㅌㅡ -4476
▁PR -4477
▁ㅂㅜㄴㅁㅕㅇㅎㅣ -4478
▁ㅎㅏㄴㅉㅗㄱ -4479
ㅂㅏㄹㅈㅏ -4480
▁fe -4481
▁ㅌㅔㅅ -4482
▁ㅊㅣㅁㄹㅑㄱ -4483
ㄷㅗㅇㄹㅕㄱ -4484
ㅅㅡㄹㄹㅣㅇ -4485
ㄷㅡㄴㅈㅣ -4486
▁ㅇㅕㄴㅎㅏㅂㄱㅜㄴ -4487
ㅁㅏㄴㅎㅣ -4488
▁ㅊㅣㅁㅇㅣㅂ -4489
▁115 -4490
ING -4491
ㅊㅓㄴㅅㅣ -4492
ㅇㅏㅆ -4493
▁ON -4494
▁102 -4495
▁}}} -4496
▁ㅎㅡㄱㅇㅣㄴ -4497
▁ㅌㅗㅇㅎㅘ -4498
▁ㅌㅣㅂ -4499
▁ㄱㅙㄴㅎㅣ -4500
▁ㅈㅜㅇㅂㅗㄱ -4501
▁ㄱㅗㄹㄹㅔㅁ -4502
ous -4503
▁ㄴㅣㄱㄴㅔ -4504
ㅅㅓㅁ -4505
▁ㅅㅣㄴㄴㅏ -4506
amp -4507
▁ㅊㅐㄹㄹㅣㄴㅈㅣ -4508
▁ㄴㅏㅁㅂㅜㄱ -4509
▁DVD -4510
att -4511
▁ㅁㅏㅇㅎㅐㅆ -4512
▁For -4513
▁ㄱㅏㅁㅈㅣ -4514
▁Ne -4515
ㅅㅔㄴㅌㅡ -4516
▁ㅅㅓㄴㅎㅐㅇ -4517
▁ㅇㅣㄴㅂㅏㅇ -4518
ㄴㅢ -4519
▁And -4520
▁ㄴㅗㄹㄹㅣ -4521
▁ㅇㅣㄴㅇㅛㅇ -4522
▁LA -4523
▁ㅈㅓㄴㅅㅡㅇ -4524
▁Go -4525
▁ㄱㅣㅁㄱㅕㅇ -4526
▁ㄷㅗㅇㅈㅓㅁ -4527
▁ㅂㅗㄱㅅㅓㄴ -4528
▁ㅈㅏㅇㅌㅏㄴㅅㅜ -4529
▁ㄷㅗㄹㅇㅣㅂ -4530
▁ㅈㅏㅇㅅㅣㄴ -4531
ㄱㅗㅂ -4532
ㄹㅔㄹㄹㅏ -4533
▁ㅇㅣㅂㅈㅜ -4534
▁ㄴㅏㅁㅁㅐ -4535
▁ㅆㅢ -4536
▁ㄱㅓㄹㄹㅕㅆ -4537
▁ㅇㅑㄴ -4538
▁175 -4539
▁ㄷㅗㅇㅇㅣㄴ -4540
▁Cr -4541
▁ㅍㅏㄴㄱㅕㄹ -4542
▁ㅎㅏㄱㅅㅡㅂ -4543
▁ㄹㅠㄴ -4544
ㄷㅣㄴㄱㅏ -4545
ㄸㅏㄱ -4546
▁ㅂㅓㅇ -4547
▁ㅅㅓㄴㄷㅜ -4548
▁ㅇㅣㅁㅅㅣㄴ -4549
▁ㄷㅏㄴㅎㅐㅇ -4550
▁ㅇㅕㅇㅇㅝㄴㅎㅣ -4551
▁ㄹㅐㅁ -4552
ㅈㅓㄴㄱㅓ -4553
▁ㅂㅗㄱㅈㅔ -4554
▁wid -4555
▁ㄷㅏㄴㅇㅝㄴ -4556
▁ㅈㅓㄴㅂㅜㄱ -4557
▁ㄱㅕㅂㅊㅕ -4558
me -4559
▁ㅊㅜㄹㄹㅜ -4560
ㄸㅜㄱ -4561
▁ㅈㅓㅇㅂㅏㄹ -4562
▁ㄷㅗㅇㅇㅑㅇ -4563
▁ㅈㅗㄴㄱㅕㅇ -4564
▁ㅂㅗㄴㅈㅣㄴ -4565
ㅂㅏㄴㄷㅗ -4566
ㅌㅔㅂ -4567
ㅈㅏㄹ -4568
ms -4569
ㅁㅓㄴㅅㅡ -4570
ㅊㅜㅁ -4571
ㅌㅡㄹㄹㅓ -4572
▁ㄱㅠㄴㅎㅕㅇ -4573
▁ㅊㅓㄹㅅㅜ -4574
▁188 -4575
ㅍㅣㄹㄷㅡ -4576
AY -4577
▁bl -4578
64 -4579
▁GP -4580
▁ㅊㅜㄱㅎㅏ -4581
▁ㄱㅡㄴㅂㅗㄴ -4582
▁ㅆㅗㄴ -4583
▁ㅍㅏㅇ -4584
ㄹㅜㄹ -4585
▁Wind -4586
▁ㄴㅔㄴ -4587
▁width -4588
▁ㅂㅔㄹㅌㅡ -4589
ㅁㅗㅁ -4590
▁ㅇㅣㄴㄹㅕㄱ -4591
▁ㅈㅔㄹㄹㅣ -4592
▁ㄴㅏㄹㅋㅏ -4593
▁ㅃㅗㅂㅇㅏ -4594
▁ㅁㅏㄱㅍㅏㄴ -4595
▁ㅁㅗㅇㄱㅗㄹ -4596
▁ㅇㅣㄹㄷㅏㅇ -4597
▁ㅁㅗㄹㄹㅣ -4598
▁ㅂㅜㄴㅎㅐ -4599
▁ㅈㅜㅇㄹㅕㄱ -4600
▁1985 -4601
▁ㅂㅏㅇㅇㅟ -4602
▁ㅋㅗㄴㅌㅔㄴㅊㅡ -4603
▁ㄱㅜㄱㄷㅏㅇ -4604
▁al -4605
▁ㄱㅗㅇㅇㅓㅂ -4606
▁ㄴㅣㅅ -4607
▁ㄱㅕㄱㅊㅏ -4608
▁ㅎㅟㄹ -4609
▁ㅅㅡㅇㅁㅜ -4610
ib -4611
▁ㅌㅏㅇ -4612
ft -4613
▁ㅇㅔㄹㄹㅔ -4614
▁ㅇㅏㄱㄱㅣ -4615
▁ㅇㅣㄴㅈㅗㅇ -4616
▁ㄲㅡㅌㄴㅏㄴㄷㅏ -4617
▁ㅇㅣㄴㅈㅣㄹ -4618
▁ㅎㅏㅇㅂㅗㄱ -4619
12 -4620
ㄴㅡㄹㄴㅏㄹ -4621
now -4622
ㅇㅕㅆㅇㅡ -4623
▁Gam -4624
▁ㅅㅏㅇㄷㅏㅁ -4625
▁ㅎㅏㅁㅂㅜ -4626
▁". -4627
▁ㄱㅏㅂㅈㅏㄱ -4628
▁ㅋㅘ -4629
▁ㄱㅣㅁㅅㅏㅇ -4630
▁ㅎㅗㄴㄷㅗㄴ -4631
ㄴㅣㄴㄷㅔ -4632
▁ㅈㅡㄱㅅㅏ -4633
▁ㅂㅏㄹㄹㅣ -4634
▁ㅌㅏㅁㅈㅓㅇ -4635
▁ㄷㅗㅁ -4636
▁ㅌㅣㄹ -4637
▁ㄱㅏㅇㅇㅝㄴㄷㅗ -4638
▁ㅈㅏㅇㅁㅣ -4639
▁ㄱㅏㄴㄷㅏㄴㅎㅣ -4640
▁BS -4641
▁ㄲㅞ -4642
ㅇㅝㄴㅈㅓㄴ -4643
ㄲㅕㅆ -4644
oll -4645
▁350 -4646
▁ㅂㅐㅇㅋㅡ -4647
ㅌㅔㄴㄷㅗ -4648
▁ㄴㅣㄴㅌㅔㄴㄷㅗ -4649
ㅋㅐㄴ -4650
ㅎㅐㄱ -4651
▁IN -4652
ㄲㅗㅂ -4653
▁Man -4654
▁ㅇㅣㄹㅂㅗㄴㄱㅜㄴ -4655
▁ㅂㅏㄱㅈㅣ -4656
▁ㅇㅜㄴㅅㅜ -4657
▁ㅇㅏㅅ -4658
▁ㅁㅗㅅㅈㅣ -4659
▁ㅅㅓㅇㅈㅓㄴ -4660
▁ㅁㅜㄹㄹㅑㅇ -4661
▁BR -4662
▁ㅂㅏㄴㅂㅏㄱ -4663
▁ㅂㅐㄱㅇㅣㄴ -4664
▁AKB -4665
▁ㅅㅏㄴㅎㅏ -4666
▁ㅂㅜㄴㅇㅕㄹ -4667
▁ㅅㅣㄴㅇㅣㅂ -4668
▁ㄱㅡㅁㅁㅔ -4669
▁ㄱㅜㄱㅍㅏㄴ -4670
ps -4671
pl -4672
ㄷㅡㅅ -4673
▁ㄷㅡㄹㅇㅡ -4674
▁All -4675
▁ㅂㅏㄺㅎㅣㄴ -4676
▁ㅎㅕㄹㅇㅐㄱㅎㅕㅇ -4677
▁PP -4678
▁KR -4679
▁ㅈㅓㅇㅌㅗㅇ -4680
▁1984 -4681
▁ㅈㅏㅁㅇㅣㅂ -4682
▁ㄱㅘㅇㅅㅓㄴ -4683
▁Part -4684
▁ㅍㅜㄹㄹㅕ -4685
▁ㅌㅗㅇㄹㅗ -4686
ㅂㅓㄹㄹㅔ -4687
▁ㅇㅔㄱㅅㅣ -4688
▁ㅎㅜㄴㅈㅏㅇ -4689
▁ㄱㅜㅇㄱㅡㅁ -4690
▁ㄱㅣㅁㅈㅣㄴ -4691
ㅌㅐㄴㄷㅡ -4692
▁ㅊㅣㄴㅎㅏㄴ -4693
▁ㅊㅔㄹㅅㅣ -4694
▁ㅈㅡㅇㅍㅗㄱ -4695
▁ㅇㅡㄴㅈㅣ -4696
▁En -4697
ond -4698
▁ㅈㅣㄴㅇㅏㅂ -4699
▁Sup -4700
▁ㅅㅣㅂㅅㅣ -4701
▁ㅅㅣㄴㄷㅔ -4702
▁112 -4703
▁ㅊㅓㄹㅎㅏㄱ -4704
▁ㅅㅗㄱㅎㅏㄴㄷㅏ -4705
▁Mar -4706
ㅇㅓㅂㅈㅏ -4707
▁ㅊㅣㄴㄷㅏ -4708
▁ㅅㅓㄴㅈㅔ -4709
▁ㄹㅗㅁ -4710
▁ㅂㅜㄴㅈㅐㅇ -4711
▁Fate -4712
▁ㅂㅏㅇㅅㅗㅇㄱㅜㄱ -4713
▁ㅎㅐㅇㅂㅏㅇ -4714
▁ㄲㅏㅁㅉㅏㄱ -4715
▁ㄱㅣㅁㄱㅣ -4716
▁ㄴㅡㄹㄹㅕ -4717
▁ex -4718
▁UN -4719
TV -4720
▁ㄱㅓㅁㅅㅜㄹ -4721
ㅅㅏㅇㅅㅣㄱ -4722
▁SU -4723
▁ㅈㅜㄹㄱㅓ -4724
▁ㅎㅏㅇㅇㅢ -4725
ㅇㅜㄴㄹㅗ -4726
▁ㅈㅓㄴㅍㅏ -4727
▁ㅊㅡㄱㅈㅓㅇ -4728
▁ㅁㅕㅇㅇㅢ -4729
▁ㅈㅣㄴㅎㅏㄱ -4730
ㅅㅏㅇㅇㅟ -4731
ase -4732
▁ㅂㅏㄴㅉㅏㄱ -4733
▁ㄴㅣㅇ -4734
▁ㅅㅏㄴㅌㅏㄴ -4735
ool -4736
MP -4737
▁ㅇㅏㄱㅎㅘ -4738
▁ㅂㅏㄴㅂㅜ -4739
▁ㄴㅗㄴㅇㅢ -4740
▁ㄴㅡㅇㄹㅕㄱㅈㅏ -4741
ㅅㅈㅣ -4742
▁ㅁㅕㄴㅎㅓ -4743
▁108 -4744
▁ㅎㅏㄹㄹㅗ -4745
ㅅㄱㅏ -4746
ㅇㅗㄴㅈㅡ -4747
▁AN -4748
▁sp -4749
▁ㅎㅏㅂㄱㅖ -4750
ㅅㅓㅇㅇㅝㄴ -4751
ㄱㅡㄹㅅㅡ -4752
▁ㄴㅏㄴㅅㅏ -4753
ㅇㅣㄹㅈㅡ -4754
ㅂㅡㄹㄹㅗ -4755
▁ㄱㅏㅁㅅㅏㅇ -4756
ㅂㅓㄱ -4757
▁ㄱㅘㅇㅈㅏㅇ -4758
▁ㅊㅣㄴㅎㅐ -4759
▁DC -4760
▁ㅊㅏㅇㄷㅏㄴ -4761
▁117 -4762
▁ㄴㅏㅁㅇㅏ -4763
ㅈㅗㄹ -4764
▁One -4765
▁ㅇㅓㅂㄱㅖ -4766
▁ㅈㅜㄹㄹㅣ -4767
▁ㅈㅜㅇㅈㅏㅇ -4768
▁ㅌㅐㄱㅅㅣ -4769
▁ㅂㅜㄴㄷㅏㅇ -4770
▁ㅊㅓㄹㄱㅝㄴ -4771
ㅎㅔㄴㅌㅣ -4772
▁ㅍㅕㅇㅇㅣㄹ -4773
ㅇㅓㄴㅅㅡ -4774
ㄷㅏㄴㅎㅣ -4775
▁ㅈㅜㅇㅅㅔ -4776
▁ㅂㅏㅇㅊㅣ -4777
▁ㅂㅜㅁ -4778
▁ㄱㅗㅇㅅㅜ -4779
▁360 -4780
▁ㅈㅓㄴㅈㅔ -4781
▁ㅌㅡㄱㄱㅡㅂ -4782
▁ㅍㅗㄱㅎㅐㅇ -4783
ㄷㅗㄹㅇㅏ -4784
ㅇㅟㅇ -4785
ㅍㅕㅇㅇㅑㅇ -4786
▁LP -4787
▁ㅅㅣㄴㄷㅗ -4788
▁ㅂㅜㄹㄹㅑㅇ -4789
▁ㅇㅑㅇㅅㅏㅇ -4790
▁ㅈㅣㄹㅌㅜ -4791
ㅅㅡㅇㅂㅜ -4792
▁ㅇㅗㄴㅊㅓㄴ -4793
▁ㅅㅐㅇㅇㅐ -4794
ph -4795
▁ㅁㅏㄴㅁㅏㄴ -4796
ree -4797
▁ㅇㅏㄴㅇㅑㅇ -4798
▁ㄹㅜㄱ -4799
▁ㄱㅜㄺ -4800
ㄴㅓㄹㅌㅣ -4801
▁ㅇㅣㄹㅇㅛ -4802
▁As -4803
ㄱㅕㅇㄱㅣ -4804
▁ㅇㅝㄴㄷㅓ -4805
ㄹㅜㄴㄷㅏ -4806
ㄸㅜ -4807
▁ㄱㅓㄹㅈㅡ -4808
▁ㄱㅏㅁㄷㅗㅇ -4809
▁ㅁㅏㄱㅎㅣ -4810
aby -4811
▁ㅇㅗㅇㅎㅗ -4812
▁ㅈㅓㄴㅁㅜ -4813
ason -4814
▁New -4815
ㅂㅣㅅ -4816
ㄱㅣㅅ -4817
ㄴㅗㄹ -4818
▁ㅎㅏㄴㄴㅏ -4819
▁ㅋㅐㅅ -4820
▁Oh -4821
▁ㅅㅑㅅㄱㅓㄴ -4822
▁ㅅㅏㅇㄱㅘㄴㅇㅓㅄㅇㅣ -4823
▁ㅇㅕㄴㄱㅗ -4824
▁ㅋㅣㅅ -4825
▁ㄷㅏㅇㅅㅏ -4826
▁ㅅㅣㄱㅍㅜㅁ -4827
▁ㄷㅗㄹㅇㅕㄴ -4828
ㅁㅏㄴㄷㅜ -4829
▁ㄴㅡㄹㄹㅣ -4830
ㅅㅣㄴㄱㅛ -4831
▁ㅇㅑㄱㅌㅏㄹ -4832
▁JP -4833
▁ㄱㅏㄴㅎㅗ -4834
ai -4835
▁ㄷㅗㄱㅈㅐ -4836
▁ㅈㅏㅁㅅㅣㄹ -4837
▁ㅇㅗㄹㅅㅡ -4838
▁ㅇㅗㄻㄱㅣ -4839
ㄹㅔㄹ -4840
▁ㄱㅗㅇㅈㅓㅇ -4841
▁ㅇㅣㄹㅎㅘ -4842
▁ㅎㅏㄴㄷㅜ -4843
ㅋㅣㄱ -4844
ment -4845
▁ㅇㅝㄴㄹㅣ -4846
▁103 -4847
ㄹㅣㄴㅅㅔ -4848
▁ㅂㅏㄹㅁㅗㄱ -4849
▁ㅎㅘㄱㅈㅏㅇㅍㅐㄱ -4850
▁ㄴㅔㄹ -4851
▁ㅊㅓㄹㄱㅓ -4852
▁ㅎㅏㅂㅂㅕㅇ -4853
▁ㅇㅝㄴㅈㅗ -4854
▁220 -4855
▁ㅌㅣㄴ -4856
▁ㅇㅞㄹ -4857
▁GO -4858
▁ㅃㅓㅇ -4859
oon -4860
▁ㅈㅏㅇㅅㅏ -4861
▁FM -4862
▁ㅎㅑㅇㅎㅏㄴ -4863
▁ㄱㅏㅇㄹㅣㅁ -4864
ㅂㅓㄴㅇㅔ -4865
▁ㅇㅘㅇㅇㅟ -4866
ㅇㅏㄵ -4867
▁ㅂㅐㄱㅎㅘ -4868
▁ㅂㅗㄱㅎㅏㅂ -4869
▁un -4870
▁ㄱㅣㄴㄱㅡㅂ -4871
▁ㅈㅓㄴㅁㅏㅇ -4872
▁z -4873
ㄷㅗㄹㅇㅣ -4874
ㄹㅓㄴㅌㅡ -4875
▁ㄷㅓㄴㄱㅏ -4876
▁ㅁㅏㅌㄱㅣ -4877
▁ㄱㅗㅇㅂㅐㄱ -4878
▁ㅎㅢㄴㅅㅐㄱ -4879
▁240 -4880
▁ㄱㅘㄴㅈㅓㅁ -4881
▁ㅊㅓㅇㅇㅘ -4882
▁ㅈㅓㄹㅊㅏ -4883
▁tv -4884
▁ㅇㅝㄴㄱㅗㄱ -4885
▁ㄴㅏㄱㅎㅏ -4886
▁ㅅㅣㄹㅇㅡㄴ -4887
ㅋㅗㄹㄹㅣ -4888
▁ㅅㅣㄹㅈㅗㄴ -4889
▁ㅇㅏㄹㄹㅏ -4890
▁ㅎㅏㄱㅅㅐㅇㅎㅚ -4891
▁ㄱㅗㅇㅇㅣㄴ -4892
▁128 -4893
▁ㅂㅏㄹㄱㅜㄹ -4894
ㅌㅟ -4895
▁ㅈㅜㅇㅅㅣ -4896
90 -4897
ㄴㅡㅈ -4898
▁ㄱㅘㄴㅎㅐ -4899
ㅇㅛㅇㅎㅣ -4900
ㅇㅘㅆㅇㅡ -4901
ARD -4902
▁ㅈㅡㅇㅅㅏㅇ -4903
▁ㅈㅣㄴㅇㅣ -4904
▁ㅅㅣㄹㅈㅏㅇ -4905
▁ㅅㅓㅇㄷㅏㅇ -4906
act -4907
ㅍㅣㄹㄷㅓ -4908
ox -4909
▁ㅅㅣㄱㅁㅣㄴㅈㅣ -4910
▁ㅂㅕㄴㅎㅐ -4911
▁ㄱㅏㅂㅈㅏㄱㅅㅡ -4912
▁ㅁㅗㄳ -4913
▁%/ -4914
ㅂㅔㅅ -4915
ㄱㅘㄱ -4916
ㅋㅔㄹ -4917
hen -4918
▁ㅅㅜㄹㅅㅏ -4919
▁UE -4920
▁ㄱㅗㅂ -4921
▁ㅂㅐㄱㅈㅏㄱ -4922
ㅅㅇㅣ -4923
ㅅㅔㄹㄹㅗ -4924
▁1960 -4925
▁ㅎㅗㄹㄷㅡ -4926
▁ㅍㅗㄱㅍㅏ -4927
▁ㅈㅣㄱㅈㅏㅇ -4928
▁ㄱㅡㄱㅎㅏㄴ -4929
▁ㄲㅡㄶㅇㅣㅁ -4930
▁ㄹㅔㄴㅈㅡ -4931
▁ㅎㅔㄴㄹㅣ -4932
▁ㅅㅣㅁㅇㅢ -4933
▁ㄲㅘㄱ -4934
ㄹㅣㄹㄹㅏ -4935
ㅂㅜㄹㅁㅕㅇ -4936
MS -4937
ank -4938
▁ㅌㅗㅇㅌㅡㄹ -4939
▁ㅇㅟㄴㄷㅡ -4940
▁ㄷㅗㅇㄱㅕㅇ -4941
ㅂㅜㄹㅎㅗ -4942
▁ㅇㅟㄴㄷㅗ -4943
▁ㅊㅐㅇㄱㅣ -4944
▁ㅇㅑㅇㅅㅗㄴ -4945
▁ㅇㅣㄴㄱㅝㄴ -4946
▁TVA -4947
▁ㅌㅡㄱㅂㅕㄹㅎㅣ -4948
▁World -4949
▁ㄴㅣㄹ -4950
lect -4951
▁ㄱㅗㄹㅋㅣ -4952
ich -4953
▁ㅅㅓㅇㅈㅣㄹ -4954
▁ㅅㅑㅂ -4955
▁CS -4956
▁ㅅㅓㄴㅅㅏ -4957
ary -4958
▁ㅁㅏㄱㅅㅏㅇ -4959
▁ㄷㅏㄹㅎㅏ -4960
▁ㅇㅑㅇㅈㅏ -4961
▁ㄷㅏㅇㄷㅏㅇ -4962
▁ㅊㅐㅁ -4963
▁ㄱㅘㄴㅊㅏㄹ -4964
▁ㅆㅡㄹㄷㅔ -4965
▁ㅍㅜㅅ -4966
ife -4967
▁ㅇㅣㅁㄱㅡㅁ -4968
▁ㄱㅘㅇㅅㅏㄴ -4969
▁ㄸㅡㄴㄱㅡㅁㅇㅓㅄㅇㅣ -4970
ear -4971
ㅈㅜㅁ -4972
ㅈㅝ -4973
▁ㅁㅏㄴㅇㅣㄹ -4974
ㄷㅡㄹㅇㅓ -4975
▁ㄱㅣㅁㅇㅛㅇ -4976
▁ㅁㅏㄹㅆ -4977
▁ㄱㅜㄱㅈㅏㅇ -4978
▁ㅇㅏㄹㅂㅏ -4979
▁ㅂㅓㅂㅊㅣㄱ -4980
▁ㄱㅕㅇㅇㅏㄱ -4981
uk -4982
▁ㄱㅜㄱㄱㅕㅇ -4983
▁ㄱㅓㄴㄱㅜㄱ -4984
▁ㅁㅐㄱㅈㅜ -4985
▁LIVE -4986
ㅅㅣㅇㅌㅓㄴ -4987
▁ㅁㅜㄹㅍㅜㅁ -4988
▁ㅋㅜㄴ -4989
ㅇㅓㄴㅅㅣㅂ -4990
▁1982 -4991
11 -4992
▁Mk -4993
▁ㅈㅣㅁㅅㅡㅇ -4994
▁ㅈㅜㅇㅅㅜㄴ -4995
▁all -4996
▁ㅇㅓㅁㅁㅣㄹ -4997
way -4998
▁ㅈㅓㅇㅂㅏㄴ -4999
▁ㅎㅏㅇㄱㅜ -5000
▁ㅅㅣㄴㅅㅓㄴ -5001
ET -5002
▁ㅈㅏㅇㄹㅗ -5003
▁ㅈㅏㅇㅍㅏㄴ -5004
▁ㄱㅕㄹㄱㅖ -5005
▁ㄱㅜㄱㅈㅓㅇ -5006
▁ㅅㅏㄴㄷㅏ -5007
ple -5008
▁ㅇㅓㅍ -5009
▁ㅅㅗㄴㅅㅏㅇ -5010
ㅅㄷㅐ -5011
▁ㅈㅡㄱㅇㅟ -5012
▁ㅋㅡㄹㄹㅗㄴ -5013
▁{{{# -5014
▁Day -5015
▁ㄷㅗㅇㅅㅗㄱ -5016
▁ㅇㅕㄱㅅㅡㅂ -5017
▁Fr -5018
▁lv -5019
▁185 -5020
▁ㄷㅏㄴㅈㅗㅇ -5021
▁ㅌㅏㅁㅎㅓㅁ -5022
▁ㄷㅏㅁㄱㅣㄴ -5023
▁ㄷㅗㅇㅎㅐ -5024
▁ㅎㅡㄴㄷㅡㄹㄹㅣ -5025
▁ㅇㅣㅁㄱㅣ -5026
▁JT -5027
▁ㄱㅡㄱㄷㅗ -5028
ㄷㅡㄹㄱㅕ -5029
▁ㅎㅐㅅ -5030
▁ㄴㅡㄺ -5031
▁ㄱㅘㄴㅌㅗㅇㄹㅕㄱ -5032
ㄱㅜㄱㅇㅓ -5033
▁ㄱㅣㅁㅈㅜㄴ -5034
ype -5035
▁ㅅㅣㄴㅇㅛㅇ -5036
▁ㅌㅏㅁㅈㅣ -5037
▁ㄷㅗㄷㅂㅗ -5038
▁ㄴㅏㄱㅅㅓㄴ -5039
ens -5040
▁ㅇㅣㄹㄹㅣ -5041
▁ㅇㅕㄴㅂㅗㅇ -5042
ㅂㅡㄹㄹㅣ -5043
▁nd -5044
▁SF -5045
▁ㅈㅏㅇㄴㅏㄴㄱㅏㅁ -5046
▁ㄷㅏㄴㄱㅓㅁ -5047
▁ㅂㅏㅇㅅㅗㅇㅅㅏ -5048
aster -5049
▁ㅁㅕㅇㅂㅐㄱ -5050
▁ㄷㅏㄴㄱㅣ -5051
▁go -5052
▁ㅋㅗㅁㅂㅣ -5053
orn -5054
▁1983 -5055
▁ㄴㅏㄹㅆㅣ -5056
▁ㅈㅣㄴㄱㅕㄱ -5057
ork -5058
▁ㅌㅗㄹ -5059
▁ㅅㅡㄹㄹㅓ -5060
▁ㄱㅣㅁㅎㅐ -5061
▁ㄱㅕㅇㅂㅜㄱ -5062
▁ㅌㅐㅂ -5063
▁119 -5064
▁ㅇㅡㅁㄹㅛ -5065
▁are -5066
ㅁㅠㄹㄹㅔ -5067
▁style -5068
▁ㄱㅏㄱㅇㅗ -5069
▁ㅇㅏㄹㄹㅔㄱㅅㅡ -5070
▁ㅂㅏㅇㅌㅏㄴ -5071
▁Sw -5072
▁ㄹㅔㄹ -5073
▁ㄱㅏㄴㅈㅜ -5074
ㄴㅛ -5075
▁Up -5076
▁Ad -5077
▁ㅈㅓㄴㄴㅏㅁ -5078
▁123 -5079
▁ㅅㅐㅇㅈㅓㄴ -5080
▁ㅇㅕㄱㅇㅣㅁ -5081
▁104 -5082
ans -5083
▁DP -5084
▁ㅂㅜㄹㄹㅕㅆ -5085
▁ㄸㅡㄴㄷㅏ -5086
ㄸㅓㄱ -5087
ons -5088
▁do -5089
▁ㄴㅏㄹㄸㅟ -5090
▁Wi -5091
▁ㅅㅔㄴㅅㅓ -5092
▁ㅅㅣㄹㄴㅐ -5093
▁MB -5094
ㅇㅏㅍ -5095
ㄷㅜㄹㄹㅓ -5096
▁ㅅㅗㄴㅅㅣㄹ -5097
ey -5098
very -5099
▁ㅎㅡㅂㅅㅏ -5100
▁ㅇㅕㅂ -5101
▁ㅂㅏㄴㄱㅏㅁ -5102
▁ㅍㅕ -5103
▁OVA -5104
▁ㅂㅐㄱㅈㅔ -5105
▁ㅌㅡㄱㅂㅕㄹㅅㅣ -5106
▁109 -5107
ung -5108
ㄷㅝㅆ -5109
▁ㅇㅕㅇㅈㅣ -5110
▁ㄲㅡㅀ -5111
▁ㅎㅏㄹㄲㅏ -5112
▁ㄷㅏㄴㅎㅐㅇㅂㅗㄴ -5113
▁RA -5114
▁ㄱㅕㄹㅈㅔ -5115
▁ㅇㅏㄴㅅㅣㅁ -5116
▁ㄷㅗㄱㅈㅓㅁ -5117
▁ㅅㅣㄴㅈㅏ -5118
▁ㅅㅓㅇㅂㅐ -5119
▁ㅅㅐㅇㄱㅣㄹ -5120
ㄱㅏㄹㄹㅑㅇ -5121
▁ㅅㅣㄴㅅㅗㄱ -5122
ㄲㅣㄴ -5123
▁ㄱㅡㄴㅇㅝㄴ -5124
▁ㅅㅏㅇㅅㅏ -5125
▁ㅇㅝㄴㅎㅕㅇ -5126
ㅋㅗㄹㄹㅏ -5127
▁ㅅㅗㄴㅇㅗ -5128
ㄹㅗㄱㅅㅐㄱ -5129
▁ㅉㅑㅇ -5130
▁III -5131
▁ㅇㅔㄴㅌㅡ -5132
▁ㅂㅔㄴㅊㅣ -5133
▁ㅁㅜㄹㅊㅔ -5134
▁ㅅㅓㄴㅇㅣㅁ -5135
▁ㅃㅏㄹㄱㅏㄴㅅㅐㄱ -5136
▁ㅂㅗㄴㄱㅘㄴ -5137
▁ㅊㅏㅇㅅㅓㄹ -5138
AK -5139
▁ㅁㅓㄱㅎㅣ -5140
ㄹㅏㄴㅎㅣ -5141
▁KOF -5142
▁AA -5143
anc -5144
ll -5145
▁ㅂㅓㅁㅇㅛㅇ -5146
▁ㅇㅏㅆㅇㅓㅆ -5147
▁ㄱㅏㄴㄱㅏㄴㅎㅣ -5148
▁ㅆㅏㄹ -5149
▁ㄷㅏㅇㄷㅐ -5150
▁ㅈㅜㅁ -5151
▁ㄱㅝㄴㅇㅠ -5152
▁ㅇㅕㄱㅁㅕㅇ -5153
ㅇㅐㄴ -5154
▁ㅅㅏㅇㄹㅠㄱ -5155
argin -5156
ㅇㅟㄴㅅㅡ -5157
▁ㅎㅏㅂㄷㅗㅇ -5158
ㄱㅗㅇㅎㅏㅇ -5159
▁ㅎㅡㄴㅎㅏㄴ -5160
▁ㅊㅜㄹㅎㅕㄹ -5161
▁ne -5162
▁ㅅㅏㅁㄱㅏㄱ -5163
▁ㅇㅓㄺ -5164
ㅂㅗㄴㄷㅏ -5165
▁ㄱㅏㅇㅅㅏ -5166
▁as -5167
▁ㄱㅕㅇㅅㅏㅇㅂㅜㄱㄷㅗ -5168
▁ㅅㅓㄴㅈㅏㅇ -5169
▁ㅊㅗㅇㅎㅏㅂ -5170
ㅈㅗㅇㅅㅏ -5171
▁ㅂㅣㄹㄷㅣㅇ -5172
▁ㅌㅏㅁㅅㅐㄱ -5173
▁ㅌㅟㅇㄱㅕ -5174
35 -5175
▁ㅅㅜㄴㅇㅑㅇㅎㅏㅁ -5176
▁ES -5177
▁ㄱㅏㅇㄹㅕㄹ -5178
▁Station -5179
ㅂㅏㅌ -5180
▁ㅈㅣㄹㅈㅜ -5181
▁ㅎㅜㅁㅊㅕ -5182
▁ㅂㅗㄱㅇㅝㄴ -5183
▁UEFA -5184
▁ㄷㅚㄹㅈㅣ -5185
▁ㄱㅏㅍ -5186
▁en -5187
▁ㅊㅣㅁㄷㅐ -5188
▁ㅂㅕㄴㅌㅐ -5189
▁ㄹㅔㄱㅅㅡ -5190
▁ㅇㅝㄴㅍㅣ -5191
ero -5192
▁ㅌㅡㄱㄱㅗㅇ -5193
▁DPS -5194
▁ㅇㅑㄱㅁㅜㄹ -5195
▁margin -5196
ㅈㅣㄱㅇㅝㄴ -5197
▁ㅋㅗㄴㅅㅗㄹ -5198
EM -5199
▁ㅌㅡㄹㅇㅓ -5200
▁ㅈㅣㄴㅅㅏㅇ -5201
▁ㅎㅏㅂㄹㅣ -5202
▁ㅈㅓㄴㄱㅕㄱ -5203
▁ㅅㅐㅇㅊㅔ -5204
▁ㅁㅏㄱㄱㅏㅇ -5205
NA -5206
▁ㅈㅣㅁㅈㅏㄱ -5207
▁ㅈㅓㄴㅅㅐㅇ -5208
▁ㅈㅣㄹㅂㅕㅇ -5209
▁ㄴㅗㄴㅈㅐㅇ -5210
▁ㄱㅏㅁㅆㅏ -5211
▁Windows -5212
▁no -5213
▁Ph -5214
oss -5215
▁Qu -5216
▁ㅉㅡ -5217
▁ㅈㅣㄱㅅㅓㄴ -5218
▁ㄷㅗㅇㄴㅏㅁ -5219
ㅅㅑㅅ -5220
▁ㄱㅓㄴㄴㅔ -5221
▁ㅇㅑㄱㅈㅏ -5222
▁ㅈㅡㄹㄱㅕ -5223
▁ㅁㅏㅈㅊㅜㄴ -5224
▁ㄸㅐㅇ -5225
ㅍㅗㄹ -5226
▁So -5227
▁ㅈㅓㅇㅅㅓㄱ -5228
▁ㅎㅔㄹㄹㅣ -5229
ㄴㅡㄴㄷㅔ -5230
▁ㅇㅕㄴㅅㅙ -5231
▁ㄱㅡㄱㅎㅣ -5232
▁ㅂㅕㄴㅅㅜ -5233
▁ㅋㅟㄱ -5234
▁ㅈㅓㄴㄴㅏㄹ -5235
▁ㄷㅗㅇㅎㅐㅇ -5236
▁LO -5237
ㅌㅗㄹ -5238
▁ㄱㅡㄴㅈㅓㅂㅈㅓㄴ -5239
▁ㅈㅓㅈ -5240
ㅅㅏㄴㅇㅕㄱ -5241
ㅎㅡㄴ -5242
▁ㄱㅘㄴㅊㅡㄱ -5243
▁ㅈㅓㄱㅅㅣ -5244
▁ㄱㅝㄴㅇㅟ -5245
▁187 -5246
ㄷㅓㄴㅈㅣ -5247
▁ㅂㅕㄴㄷㅗㅇ -5248
ise -5249
▁ㄷㅏㄴㅂㅏㄹ -5250
ㅂㅔㄴㅊㅓ -5251
▁ㄷㅗㄱㅇㅣㄹㄱㅜㄴ -5252
ㅂㅗㄴㄱㅣ -5253
▁ㄱㅘㅇㄱㅣ -5254
▁ㅇㅣㄴㅈㅏ -5255
port -5256
▁ㅅㅏㅇㅈㅜ -5257
▁ㅌㅡㄴㅌㅡㄴ -5258
▁135 -5259
▁ㅇㅡㄹㅅㅜ -5260
▁ㅇㅣㅇㅇㅕ -5261
▁ㅍㅡㄹㄹㅣ -5262
pt -5263
ㅂㅏㄱㅅㅡ -5264
▁ㅂㅓㄱ -5265
▁ㅅㅏㄴㅌㅏ -5266
▁ㄱㅜㄱㅁㅜ -5267
▁210 -5268
ㄴㅡㅇㄹㅕㄱ -5269
▁ㄱㅏㅈㅊㅝ -5270
▁ㄱㅗㅇㄷㅐ -5271
▁121 -5272
▁ㅇㅔㄴㅈㅣ -5273
▁ㅇㅗㅁ -5274
ical -5275
▁ㄱㅏㅁㅅㅜ -5276
▁ㅅㅓㅇㅆㅣ -5277
ㄱㅗㄴㅂㅗㄹ -5278
▁ㅇㅡㅇㅇㅛㅇ -5279
▁ㅇㅑㅇㅂㅏㄴ -5280
▁ㅊㅓㄴㅇㅕㄴ -5281
▁ㅈㅜㅇㅅㅏㅇ -5282
▁ㅇㅓㅁㄱㅕㄱ -5283
▁ㅌㅗㅇㅊㅣㅇ -5284
▁ㅍㅜㄴ -5285
▁ㄱㅜㄴㅅㅜ -5286
ㄴㅠㅁ -5287
▁ㅈㅣㅇㅇㅕㄱ -5288
ㅋㅗㄹㄹㅣㅅ -5289
▁ㅈㅔㅁ -5290
▁ㅈㅓㄴㄷㅏㅇ -5291
▁ㅈㅓㅇㄱㅛ -5292
▁ㄴㅏㅇㅂㅣ -5293
▁ㅎㅣㅂㅎㅏㅂ -5294
▁ㅁㅕㅇㅁㅗㄱ -5295
▁ㅈㅏㅇㅅㅓㅇ -5296
▁Ver -5297
ㅍㅡㄹㄹㅣㅇ -5298
▁ㅈㅣㄴㄱㅡㅂ -5299
▁ㅅㅓㄴㅈㅗ -5300
▁ㅅㅣㄹㅅㅏㅇ -5301
▁ㄱㅔㅁ -5302
▁ㅂㅣㅇㅍㅏㄴ -5303
▁ㄱㅕㄴㄷㅣ -5304
▁ㅈㅓㄱㅈㅏ -5305
▁ㅊㅣㄴㅈㅓㄹ -5306
99 -5307
▁ㅈㅜㅇㅈㅣ -5308
▁ㅂㅜㄹㅎㅐㅇ -5309
▁ㅊㅗㄱㅅㅜ -5310
▁ㄱㅘㄴㅇㅕ -5311
▁ㅌㅡㄱㅎㅜㄴ -5312
▁ㅊㅣㄴㅎㅏ -5313
▁107 -5314
▁ㅅㅡㅇㅊㅏ -5315
▁ㄱㅗㅇㄱㅏㅁ -5316
▁ㅈㅜㅇㄱㅗ -5317
AP -5318
▁ㅍㅕㄹㅊㅕㅆ -5319
▁ㄱㅗㅇㅌㅗㅇㅈㅓㅁ -5320
IR -5321
▁ㄱㅕㅇㅎㅗ -5322
▁ㄱㅜㄹㄹㅓ -5323
▁ㄱㅣㅅㅂㅏㄹ -5324
ㅋㅝ -5325
ㅅㅏㅇㅅㅣ -5326
▁ㄴㅟ -5327
▁ㅈㅣㅂㄱㅝㄴ -5328
▁ㄱㅡㅂㅎㅐㅇ -5329
▁ㅈㅣㅌ -5330
▁ㅅㅓㅇㅅㅣㄹ -5331
▁ㅎㅏㄴㅂㅏㄴㄷㅗ -5332
▁ㄹㅏㄴㅅㅡ -5333
▁ㄲㅓㅂ -5334
▁ㅊㅜㄱㅅㅗ -5335
▁ㅆㅏㄴ -5336
▁ㅇㅓㄹㄹㅏ -5337
ign -5338
▁ㄴㅗㄴㅁㅜㄴ -5339
▁-- -5340
ㄹㅡㄹㄹㅗ -5341
▁ㅂㅐㄱㅇㅓㅂ -5342
▁ML -5343
▁pl -5344
▁ㅎㅘㄱㅅㅏㄴ -5345
ㄴㅓㄴ -5346
▁ㅇㅗㄹㄷㅡ -5347
▁ㅍㅗㄱㅅㅡ -5348
▁love -5349
ㅈㅏㄱㅇㅛㅇ -5350
▁ㄱㅏㅇㄷㅡㅇ -5351
▁ㅂㅏㄹㅎㅐㅇ -5352
▁ㅇㅗㄴㄷㅗ -5353
▁ㅆㅓㅁ -5354
▁1981 -5355
▁ㅁㅜㄹㅇㅓ -5356
▁ㅂㅣㄴㄷㅗ -5357
▁ㅎㅏㄴㅊㅏㅇ -5358
▁ㅂㅗㄴㅌㅗ -5359
▁ㄱㅗㅇㄷㅏㄴ -5360
ㅅㅡㄹㄹㅏ -5361
▁ㅇㅕㄹㅎㅕㄹ -5362
▁ㅇㅏㄴㅉㅗㄱ -5363
▁ㄱㅏㅇㅎㅗ -5364
ㅅㅓㄴㄷㅏ -5365
▁ㄴㅗㅇㅈㅏㅇ -5366
▁ㅊㅣㅇㅎㅏ -5367
▁ㅈㅓㄴㄹㅏㄱ -5368
▁ㅋㅜㅇ -5369
gh -5370
▁ㅂㅏㄹㅍㅏㄴ -5371
ㅍㅗㄹㄹㅣ -5372
▁Sk -5373
▁TR -5374
▁ㄱㅡㄺ -5375
▁ㅂㅜㄹㅆㅏㅇ -5376
▁ㅂㅏㄹㅋㅣ -5377
▁MG -5378
▁ㅁㅕㅇㅁㅜㄴ -5379
▁ㄷㅗㅇㅂㅏㄴ -5380
▁ㄱㅕㅇㅇㅕㄴ -5381
▁ㅇㅣㄴㅈㅐ -5382
▁ㅇㅣㄴㅊㅣㅇ -5383
▁ㅇㅝㄴㅅㅣ -5384
▁ㄷㅔㄴㅁㅏ -5385
▁ㅂㅕㄴㅇㅣ -5386
ㄷㅚㄴ -5387
▁ㅋㅡㄹㄹㅣㄴ -5388
ㄹㅠㅁ -5389
▁ㅅㅓㄹㄹㅕㅇ -5390
▁ㅂㅜㄴㅅㅏㄴ -5391
▁ㅊㅏㅇㅁㅜㄴ -5392
▁ㄸㅏㅇㅂㅗㄹ -5393
ail -5394
▁ㅌㅗㄱ -5395
urn -5396
ㄹㅕㅆㅇㅡ -5397
ㅁㅣㄴㅈㅜ -5398
▁ㅍㅕㅇㅇㅑㅇ -5399
▁ㅅㅣㄴㄷㅗㅇ -5400
▁ㄹㅔㅁ -5401
ode -5402
▁ㄹㅟ -5403
▁ㅂㅏㄱㅅㅏㄹㄴㅐ -5404
ㅈㅓㄴㅅㅏ -5405
ㅅㅝ -5406
▁Super -5407
▁ㄱㅣㅁㅈㅣ -5408
▁ㄱㅕㄹㅎㅗㄴㅅㅣㄱ -5409
ㅇㅣㄴㅂㅗ -5410
▁To -5411
▁math -5412
ence -5413
▁=" -5414
▁( -5415
▁ㄱㅣㅁㅅㅜ -5416
▁ㅁㅗㄱㄱㅓㄹㅇㅣ -5417
ㄷㅔㄹㄹㅣㅇ -5418
▁!" -5419
▁ㅎㅘㅇㅎㅜ -5420
VER -5421
▁186 -5422
▁ㅊㅜㄹㄱㅏㄴ -5423
▁ㅇㅣㄹㄲㅏ -5424
▁ㅇㅛㅇㅈㅏ -5425
▁ㅉㅗㅊㄱㅕ -5426
▁ㅉㅗㅈ -5427
▁Dream -5428
▁ㄱㅜㄹㅇㅛㄱ -5429
ㄷㅝ -5430
▁ㅎㅕㅇㅍㅕㄴ -5431
▁ㅎㅡㄴㅎㅏ -5432
▁ㅇㅝㄴㅎㅏㄴ -5433
ㅁㅏㄱㅈㅣ -5434
ㅁㅔㅅ -5435
▁ㅅㅗㄴㄴㅣㅁ -5436
▁EXP -5437
ㅁㅏㅇㅈㅜ -5438
▁ㅇㅚㄴㅅㅗㄴ -5439
▁ㅈㅓㅁㄱㅓㅁ -5440
ㅇㅣㄱㅅㅜ -5441
▁122 -5442
▁ㄱㅘㅇㅁㅜㄹ -5443
▁ㅅㅓㄴㅊㅜㄹ -5444
▁ㄱㅓㅁㅇㅕㄹ -5445
▁LE -5446
ier -5447
▁ㄱㅣㅁㅅㅡㅇ -5448
▁ㅂㅗㅇㅅㅙ -5449
▁ㅊㅓㄴㅊㅓㄴ -5450
▁ㅅㅗㄴㄲㅗㅂ -5451
ㄱㅝㄹ -5452
ㅅㅔㄴㅅㅡ -5453
ㄴㅎㅔㄴ -5454
▁ㅇㅕㄱㄹㅑㅇ -5455
▁ㅈㅏㄴㅇㅣㄴ -5456
▁ㅈㅜㅇㄱㅓ -5457
▁ㄱㅜㄴㅇㅛ -5458
▁ㅎㅔㅅㄱㅏㄹ -5459
ㄸㅣ -5460
!! -5461
▁ㄱㅘㄴㅇㅜ -5462
▁ㅁㅏㅇㅌㅗ -5463
▁ㄷㅏㄹㅇㅏ -5464
ㅊㅣㅅ -5465
▁ㅅㅓㄲㅇㅕ -5466
▁ㅅㅙ -5467
▁ㅅㅣㄹㅅㅏ -5468
▁ㅇㅣㅁㅇㅢ -5469
▁ㅇㅏㅂㄱㅝㄴ -5470
▁ㅁㅓㅁㅊㅝ -5471
IX -5472
ble -5473
▁ㄷㅏㅅ -5474
▁ㅅㅏㅇㅁㅜ -5475
▁ㄷㅓㅅㅂㅜㅌㅇㅕ -5476
ㄷㅡㄹㄹㅣ -5477
▁ㅊㅔㄴ -5478
▁ㅅㅣㄴㅈㅜㅇ -5479
▁EC -5480
oun -5481
ㄴㅣㄹㄲㅏ -5482
▁can -5483
▁JTBC -5484
▁ㅂㅗㄱㅅㅏ -5485
▁ㅎㅗㅅ -5486
▁ㄱㅏㅇㅁㅣㄴ -5487
ㅂㅅㅣ -5488
▁145 -5489
▁ㅇㅣㄴㄱㅘ -5490
iver -5491
▁BJ -5492
▁ㅈㅏㅇㅌㅏ -5493
▁ㄱㅓㄴㄷㅔ -5494
▁ㅍㅕㅇㄹㅗㄴ -5495
▁ㅊㅏㄱㅎㅏㄴ -5496
▁ㅁㅓㅇㅊㅓㅇ -5497
▁ㄱㅓㅁㅈㅓㅇ -5498
▁ㅁㅣㄴㄱㅜㄱ -5499
ott -5500
▁ㄱㅕㅇㅊㅏㄹㅅㅓ -5501
▁ㅎㅓㅇㄱㅏ -5502
▁Ap -5503
▁1979 -5504
▁ㄴㅏㄴㅁㅜ -5505
▁ㅎㅕㄹㅌㅗㅇ -5506
▁ㅊㅓㄴㅊㅓㄴㅎㅣ -5507
ㅅㅣㄹㅈㅓㅁ -5508
▁165 -5509
▁ㅅㅏㅁㅅㅓㅇㅈㅓㄴㅈㅏ -5510
▁ㄱㅗㄱㅇㅣㄴ -5511
▁ㅎㅡㄺ -5512
▁ㅎㅏㅇㄱㅗㅇㅁㅗ -5513
▁ㅌㅓㄹㄹㅣ -5514
▁ㅈㅣㄴㅇㅔ -5515
▁113 -5516
▁ㄱㅣㅁㅍㅗ -5517
ㅍㅗㄴㅅㅓ -5518
▁ㅊㅓㄹㄱㅏㅂ -5519
▁ㅇㅘㅅ -5520
▁ㅉㅗㄹ -5521
▁Max -5522
▁144 -5523
▁ㅁㅏㅈㅂㅜㅌ -5524
▁ㄹㅗㄹㄹㅓ -5525
▁ㅈㅓㅇㅅㅣㄴㄹㅕㄱ -5526
▁ㄱㅜㄹㄹㅣ -5527
▁ㅍㅡㄹㄹㅐㄴ -5528
▁ATK -5529
▁ㅇㅣㄴㅂㅔㄴ -5530
▁ㅇㅝㄴㅅㅜㅇㅇㅣ -5531
▁ㅊㅣㄴㅂㅜㄴ -5532
▁ㅂㅡㄹㄹㅓㄱ -5533
▁at -5534
▁ㅂㅜㄹㅌㅐ -5535
▁ㅇㅝㅁ -5536
▁ㅇㅕㄹㅈㅓㅇ -5537
▁ㅊㅓㅅㅉㅐ -5538
▁ㅇㅣㅈㅎㅕ -5539
ㄴㅏㄴㅎㅣ -5540
▁ㅁㅗㅁㅌㅗㅇ -5541
▁ㅊㅜㄹㅂㅓㅁ -5542
ㅂㅜㅌㅇㅣ -5543
▁NO -5544
▁ㄱㅗㅇㅅㅏㄴㄷㅏㅇ -5545
▁ㅊㅏㅇㅈㅏㄱㅁㅜㄹ -5546
▁ㅎㅏㄱㄱㅡㅂ -5547
oh -5548
▁ㅋㅗㄴㅅㅡ -5549
▁ㅎㅏㄹㄹㅣ -5550
▁ㄱㅘㅇㅁㅕㅇ -5551
▁ㅂㅜㅅ -5552
uck -5553
▁ㄱㅏㅇㄱㅏㄴ -5554
▁ㅂㅓㅂㅅㅏ -5555
▁ㅂㅏㄱㅅㅓㅇ -5556
ㅋㅣㅂㄴㅣ -5557
ㄹㅏㄴㅅㅣ -5558
▁ㄱㅏㅇㄱㅕㅇ -5559
eah -5560
▁155 -5561
▁ㅅㅓㄴㅈㅣㄴ -5562
▁ㄱㅗㅇㅅㅗㄱ -5563
▁ㄱㅡㄹㅆㅣ -5564
ㅈㅠ -5565
▁114 -5566
▁ㅍㅗㄱㄱㅕㄱㄱㅣ -5567
▁ㅊㅣㅁㅌㅜ -5568
▁ㅇㅕㅇㄱㅏㅁ -5569
II -5570
▁ㅊㅐㅁㅍㅡ -5571
ㅇㅣㅅ -5572
▁CM -5573
▁ㅂㅜㅌㅇㅣㄴ -5574
▁ㄴㅐㅇㅈㅓㅇ -5575
▁ㅇㅓㅁㅇㅕㄴㅎㅣ -5576
▁ㅅㅔㄱ -5577
▁GK -5578
▁ㅊㅣㄴㅇㅐ -5579
▁ㅂㅗㄴㄴㅡㅇ -5580
▁ㅍㅜㅇㅂㅜ -5581
▁ㅍㅔㅇ -5582
▁ㅊㅓㅇㄱㅜ -5583
▁ㅇㅘㅇㅂㅗㄱ -5584
▁ㅈㅜㅇㅇㅟ -5585
▁ㅂㅜㄹㄴㅡㅇ -5586
▁ㅈㅜㅇㄷㅗㅇ -5587
▁ㅁㅐㅇㅅㅔ -5588
▁ㄲㅡㄶㅇㅣㅁㅇㅓㅄㅇㅣ -5589
▁ㅂㅕㄴㅈㅏㅇ -5590
▁BD -5591
▁ERA -5592
▁ㅁㅕㅇㅅㅏ -5593
▁ㅅㅟㄹㄷㅡ -5594
ㅌㅡㄹㄹㅐㄴㄷㅡ -5595
▁ㅂㅏㄱㅅㅜ -5596
▁ㄱㅓㅂㄴㅣ -5597
▁ㅈㅗㄴㅅㅡ -5598
▁ㅎㅔㄹㅁㅔㅅ -5599
▁this -5600
ㄲㅝㅆ -5601
▁ㅇㅗㄹㅂㅏ -5602
▁ㅈㅕㄴ -5603
▁ㅍㅜㅇㅅㅓㄴ -5604
▁ㄷㅏㅂㄷㅏㅂ -5605
▁ㄷㅗㅇㅈㅓㄴ -5606
▁IT -5607
ㄱㅡㄹㄹㅏ -5608
▁ㅈㅓㅁㅇㅠ -5609
▁ㅈㅣㄹㅅㅓ -5610
▁ㅇㅕㄴㅅㅏㄴ -5611
▁ㅅㅏㅇㄱㅡㅁ -5612
▁750 -5613
▁ㄱㅗㅇㄱㅕㄱㅅㅜ -5614
▁ㄱㅏㅁㅌㅏㄴ -5615
▁ㅂㅗㅇㅅㅏ -5616
▁ㅁㅏㄴㄴㅡㅇ -5617
ㄹㅔㄴㅈㅣ -5618
bs -5619
▁ㄱㅣㅁㅇㅠ -5620
▁ㅂㅕㄴㅎㅐㅆ -5621
int -5622
▁Season -5623
ㅇㅕㄱㅅㅏ -5624
▁{{{- -5625
▁from -5626
▁ㄷㅏㄲ -5627
ㅊㅔㄹ -5628
▁ㅇㅜㅁㅈㅣㄱㅇㅣㄹ -5629
▁ㅇㅕㄴㅅㅜ -5630
▁1950 -5631
▁ㅊㅗㅇㅈㅏㅇ -5632
▁ㅈㅜㅇㅈㅓㅁ -5633
▁ㄲㅗㅂㅎㅣ -5634
▁ㅇㅣㄴㅈㅓㅂ -5635
▁ㄱㅜㅂ -5636
▁ㅇㅏㅁㅎㅗ -5637
▁ㅇㅓㅁㅁㅣㄹㅎㅣ -5638
▁ㄷㅗㄱㅇㅣㄹㅇㅓ -5639
▁ㅇㅕㄲㅇㅣ -5640
▁..? -5641
▁ㅂㅓㄹㅇㅕㅆ -5642
▁ㅇㅣㄹㄱㅏ -5643
ㅂㅏㅁ -5644
▁EXT -5645
▁ㅊㅡㄴ -5646
▁ㅈㅏㅇㄹㅖ -5647
▁AB -5648
▁ㅅㅡㄹㅍㅡㅁ -5649
▁ㅍㅓㄱ -5650
ㅂㅐㅅ -5651
▁ㅁㅣㄹㄹㅔ -5652
▁tr -5653
ose -5654
▁ㄱㅡㄱㄷㅐ -5655
itt -5656
▁ㅇㅣㄹㄱㅗㅂ -5657
▁ㅈㅏㅁㄷㅡㄹ -5658
▁ㅇㅕㄹㄹㅕㅆ -5659
▁ㅅㅗㄴㅈㅏ -5660
▁314 -5661
▁ㅇㅜㄴㅅㅗㅇ -5662
IL -5663
▁450 -5664
▁IM -5665
▁ㅂㅏㅇㅎㅏㄱ -5666
▁HE -5667
▁ㅈㅓㄴㄷㅗㅇㅊㅏ -5668
▁EZ -5669
▁La -5670
ㅇㅞㄹ -5671
▁ㄷㅗㅇㅈㅓㅇ -5672
▁ㅂㅓㅇㅋㅓ -5673
▁ㅋㅏㅁ -5674
▁Vol -5675
ㅈㅣㄴㅎㅗ -5676
▁ㅅㅗㄴㅅㅟㅂ -5677
▁ㄷㅗㅇㄷㅐ -5678
ㅂㅏㅇㅅㅗㅇ -5679
▁Im -5680
▁ㅇㅕㅇㅇㅑㅇ -5681
▁ㅂㅕㅇㅇㅕㄱ -5682
ㄲㅡㅅ -5683
▁ㄱㅏㄱㅇㅣㄴ -5684
ats -5685
ㅇㅣㅁㅈㅡ -5686
▁ld -5687
▁ㅇㅝㄴㅈㅓㄴ -5688
▁ㅈㅓㄹㅊㅣㄴ -5689
▁ㅍㅔㄹㄹㅣ -5690
ㄴㅣㄴㅈㅣ -5691
▁ㄱㅏㅁㅈㅏ -5692
▁ㅁㅔㅅ -5693
▁ㅇㅣㅂㅁㅜㄴ -5694
▁ㅈㅣㅂㅎㅚ -5695
▁ㅁㅓㅅㄷㅐ -5696
▁Sch -5697
▁new -5698
▁Con -5699
▁ㅂㅐㅇㄱㅏ -5700
▁ㄱㅡㄴㄷㅐ -5701
ㅌㅏㅁㅈㅓㅇ -5702
▁Ed -5703
ㅊㅓㄹㄷㅗ -5704
▁ㅊㅏㄴㅅㅓㅇ -5705
ㅅㅣㄴㅈㅏ -5706
▁ㅇㅕㄴㅈㅓㄴ -5707
▁ㅇㅏㄴㄷㅏ -5708
▁ㅇㅓㄹㅌㅣ -5709
ㅎㅠㅇ -5710
▁124 -5711
▁Girl -5712
msys -5713
▁ㅇㅛㅇㅇㅏㅁ -5714
▁ㅈㅗㅇㅇㅕㅇ -5715
▁ㄱㅏㄷㅎㅕ -5716
▁ldmsys -5717
▁ㅅㅗㅅ -5718
ㄱㅡㄹㄹㅣㅇ -5719
▁ㄱㅘㅇㄱㅕㅇ -5720
▁ㅈㅓㅇㅁㅜㄴ -5721
▁ㅂㅜㄴㅎㅗㅇ -5722
▁ㅊㅜㄹㅅㅏㄴ -5723
ari -5724
▁ㅅㅣㄹㅎㅕㄴ -5725
15 -5726
▁ㅊㅓㄴㅈㅏㅇ -5727
ube -5728
▁Gre -5729
▁ㅁㅕㅇㅂㅜㄴ -5730
▁Night -5731
▁OS -5732
▁ㅉㅣㄹㄹㅓ -5733
▁ㅎㅕㄱㅅㅣㄴ -5734
▁ㅇㅣㄴㅅㅓㅇ -5735
▁rd -5736
▁ㅎㅏㅇㅁㅗ -5737
▁ㅁㅗㄱㅅㅏ -5738
▁ㅇㅑㅇㅅㅣㄱ -5739
ition -5740
▁ㄱㅜㅇㅎㅏㅂ -5741
usic -5742
ㄸㅓㄹㅇㅓ -5743
▁ㄴㅗㄱㅎㅘ -5744
ㅊㅐㄱㄱㅏㅁ -5745
▁RE -5746
ㄹㅔㄱㅅㅕㄴ -5747
▁ㅍㅕㅇㅎㅐㅇ -5748
▁ㅂㅏㅇㅅㅣㅁ -5749
▁ㅎㅕㄴㄱㅡㅁ -5750
▁ㄱㅏㄹㅅㅐㄱ -5751
▁ㅅㅣㄴㄱㅗㄱ -5752
13 -5753
▁ㄲㅏㄴ -5754
ㅋㅣㅁ -5755
ㅂㅕㄴㅇㅣ -5756
▁ㄷㅗㄹㅇㅕㄴㅂㅕㄴㅇㅣ -5757
▁ㄴㅏㅂㄷㅡㄱ -5758
▁ㅇㅣㅂㅎㅣㄴㄷㅏ -5759
▁ㅍㅜㅁㅈㅣㄹ -5760
▁ㅁㅟㄴㅎㅔㄴ -5761
▁ㅅㅡㅇㅇㅣㄴ -5762
▁ㅎㅡㅌㅇㅓ -5763
▁183 -5764
ㅉㅏㅇ -5765
▁ㅇㅜㄹㄹㅣ -5766
▁ㅈㅏㄱㅈㅓㅇ -5767
ㅌㅜㅁ -5768
▁ㅎㅕㅂㅇㅢ -5769
ㅃㅏㄱ -5770
▁ㅌㅗㅇㅉㅐ -5771
ㅍㅗㄱㅌㅏㄴ -5772
▁ㅁㅏㄹㄹㅔ -5773
▁ㅊㅏㅁㅅㅏ -5774
▁ㅇㅝㄴㅈㅏㅇ -5775
▁ㅌㅜㄴ -5776
▁ㄱㅓㅁㅈㅡㅇ -5777
▁ㅁㅏㄴㅈㅓㅁ -5778
▁ㅈㅗㅇㄱㅕㄹ -5779
25 -5780
ㅅㅗㄱㄱㅣ -5781
▁ㅇㅗㄱㅅㅏㅇ -5782
ㅅㅂㅜㄹ -5783
▁ㅈㅐㅁ -5784
ㅇㅜㄴㄷㅗㅇ -5785
▁ㅅㅓㅇㄱㅕㅇ -5786
▁ㅇㅓㅇㅁㅏㅇ -5787
▁ㅈㅓㄴㅎㅑㅇ -5788
▁ㅁㅗㄹㅅㅏㄹ -5789
▁ㅅㅡㅇㅈㅣㄴ -5790
▁ㅁㅏㄴㅈㅜ -5791
ㅇㅡㅁㄷㅐ -5792
▁ㅇㅕㄴㅅㅔ -5793
▁ㄱㅏㅇㄹㅡㅇ -5794
▁ㄷㅗㅇㅅㅓ -5795
▁ㄴㅗㅍㅇㅕ -5796
▁ㅎㅘㄱㅅㅣㄴ -5797
ㄸㅏㄴ -5798
▁ㅂㅕㄴㅎㅏㄴ -5799
▁ㅎㅏㄱㄴㅕㄴㄷㅗ -5800
▁Black -5801
▁ㅊㅜㄹㅍㅏㄴㅅㅏ -5802
ㅇㅡㄴㅅㅐㄱ -5803
▁ㅎㅕㄴㅈㅏ -5804
▁ㄱㅣㅍㅇㅣ -5805
yn -5806
▁ㅎㅏㅇㅎㅐ -5807
▁ㅎㅡㅂㅎㅕㄹㄱㅟ -5808
ㄷㅗㅇㅅㅏㄴ -5809
▁ㅎㅏㅂㅈㅏㄱ -5810
▁ㄴㅓㅁㅊㅕ -5811
▁ㅈㅓㅇㅅㅓㅇ -5812
▁ㅈㅓㅇㅂㅏㄴㄷㅐ -5813
ㄴㅗㅇ -5814
ㄱㅗㅇㅅㅏ -5815
▁1200 -5816
▁ㅅㅣㄹㅊㅔ -5817
▁ㅂㅕㄴㅁㅕㅇ -5818
▁ㅎㅡㄱㅁㅏ -5819
▁ㄸㅓㅆ -5820
▁ㄱㅏㄴㅅㅓㅂ -5821
▁ㅍㅓㅁㅍㅡ -5822
DD -5823
ㄹㅜㅁ -5824
▁ㅁㅣㄹㄷㅗ -5825
ㅈㅣㄹㄹㅓㅆ -5826
▁127 -5827
18 -5828
▁ver -5829
▁ㅁㅏㄹㅆㅡㅁ -5830
ㅈㅣㄱㅈㅏ -5831
▁ㅁㅜㄹㅇㅑㄱ -5832
app -5833
▁ㅎㅏㅁㄹㅏㄱ -5834
▁Let -5835
ㅅㅠㄹ -5836
ㄹㅔㅂ -5837
CE -5838
▁USB -5839
▁ㅅㅐㅇㄱㅣㅁㅅㅐ -5840
▁WC -5841
▁ㄷㅗㅇㄱㅜ -5842
ㅅㅁㅏㄹ -5843
▁ㅁㅏㅇㅎㅏ -5844
▁ㅂㅣㅇㄱㅕㄹ -5845
▁ㅅㅔㄹㄹㅔ -5846
▁ㄱㅡㅁㅇㅛ -5847
▁ㅈㅣㅂㄱㅖ -5848
ㅌㅕ -5849
▁ㅊㅜㅇㅈㅗㄱ -5850
ㅌㅐㅂ -5851
▁ㅇㅡㄴㅍㅖ -5852
▁ㅎㅕㄴㅎㅘㅇ -5853
ㅍㅡㄹㄹㅣ -5854
ㅊㅐㄱㅈㅓㅁ -5855
▁Am -5856
▁ㅇㅑㄼ -5857
ㄱㅟㄴ -5858
▁118 -5859
▁Col -5860
▁ㅅㅡㄴ -5861
▁ㅇㅣㄹㄹㅔㄱㅌㅡ -5862
▁NH -5863
▁Str -5864
▁ㅇㅣㄴㅌㅔ -5865
ye -5866
▁Op -5867
gr -5868
ㅇㅝㄴㄱㅜㄴ -5869
▁ㅂㅏㄹㄹㅔ -5870
▁ㅇㅏㅂㅊㅜㄱ -5871
▁ㅈㅓㄱㅈㅓㄹㅎㅣ -5872
▁ㅁㅏㄱㅎㅕ -5873
▁SSR -5874
▁ㅍㅏㄴㄷㅗ -5875
ㅎㅏㅇㄱㅗㅇ -5876
▁ㅈㅐㄱㅅㅡㄴ -5877
▁not -5878
▁ㅇㅗㄹㄹㅣㄴㄷㅏ -5879
▁NBA -5880
▁ㄱㅐㅅ -5881
ough -5882
▁ㄱㅕㅇㅂㅜ -5883
▁ㅂㅐㅅ -5884
▁ㅈㅓㅇㅅㅏ -5885
▁ㅇㅛㄱㅅㅓㄹ -5886
▁ㄱㅏㅇㅌㅏ -5887
▁184 -5888
▁Mag -5889
▁000000 -5890
▁ㄲㅡㅌㄴㅏㄹ -5891
▁ㅎㅏㄱㅁㅜㄴ -5892
▁ㅇㅣㄱㅎㅣ -5893
▁ㄱㅏㅇㅈㅓㄴ -5894
▁ㅈㅏㄴㅎㅗㄱ -5895
▁ㄱㅗㄹㅍㅡ -5896
▁ㅎㅗㄹㄹㅣ -5897
▁ㅇㅣㄴㄱㅗㅇㅈㅣ -5898
iel -5899
▁ㅁㅏㄹㄹㅕ -5900
▁ㅍㅏㄹㄹㅏ -5901
▁ㅇㅝㄴㅍㅏㄴ -5902
▁ㅇㅕㄴㄷㅗㅇ -5903
▁ㅈㅓㅁㅅㅣㅁ -5904
▁ㅂㅕㄴㅎㅏㄴㄷㅏ -5905
ㄷㅡㄹㅇㅣㄴ -5906
▁ㅁㅜㄴㅇㅑㅇ -5907
ㄹㅣㄴㅅㅡ -5908
▁ㄴㅗㄹㄹㅏㅂ -5909
▁DM -5910
▁ㅅㅗㄱㅎㅏㄴ -5911
▁BC -5912
▁ㄹㅕㄴ -5913
ㅊㅓㄹㅅㅜ -5914
▁ㄱㅏㄱㅈㅣ -5915
▁OG -5916
ㄴㅏㅆㅇㅡ -5917
▁ㄴㅏㄹㄹㅣㄴㄷㅏ -5918
▁..! -5919
ㅇㅡㄹㅂㅓ -5920
▁ㅎㅕㅂㅈㅓㅇ -5921
▁ㄸㅜㅇ -5922
vel -5923
▁ㄱㅣㅁㅈㅜ -5924
▁MM -5925
▁ㅂㅓㅂㅁㅜ -5926
ㅉㅜㄱ -5927
▁ㅊㅣㅁㅊㅏㄱ -5928
ull -5929
▁ㅋㅏㄹㄹㅏ -5930
▁ㅈㅡㄹㄱㅣㄹ -5931
▁ㅅㅏㄴㅁㅐㄱ -5932
▁ㅂㅏㄱㅈㅏ -5933
▁ㅂㅕㅇㅅㅏㄹ -5934
▁ㅎㅏㄱㄷㅐ -5935
▁ㅎㅏㅁㅈㅏㅇ -5936
▁ㅌㅡㄹㄹㅣㄴ -5937
▁TS -5938
▁ㅂㅏㄱㅈㅣㄴ -5939
▁#! -5940
▁AF -5941
▁ㄴㅏㅁㄷㅗㅇㅅㅐㅇ -5942
▁152 -5943
▁ㅊㅓㄴㅅㅏㅇ -5944
▁ㅊㅓㅇㅊㅜㄴ -5945
ㅎㅔㄹ -5946
▁ㅎㅗㅅㅋㅏ -5947
▁ㅅㅏㅇㄴㅑㅇ -5948
▁ㅎㅣㅁㅇㅣㅂ -5949
▁ㅂㅓㄹㅆㅓ -5950
▁182 -5951
▁CR -5952
ㄹㅡㄴㅅㅗㄴ -5953
ult -5954
▁ㅁㅏㄴㄹㅔㅂ -5955
▁ㅆㅏㅎㅇㅣ -5956
▁ㅈㅜㅇㄱㅕㄴ -5957
▁ㄱㅕㄱㄹㅕ -5958
▁ㅂㅏㄹㅁㅕㅇ -5959
▁ㅈㅜㅂㄴㅣ -5960
▁ㅅㅠㄴ -5961
ㅅㅏㅇㄱㅡㅂ -5962
▁ㅋㅓㅁㅂㅐㅅ -5963
▁ㅇㅣㅍ -5964
▁ㄱㅘㄴㅈㅏㅇ -5965
able -5966
▁178 -5967
▁ㅇㅣㅂㅈㅡㅇ -5968
▁ㅋㅣㅁ -5969
▁ㄷㅓㅇㅇㅓ -5970
.. -5971
▁ㅅㅏㅆ -5972
▁ㅂㅜㄹㄱㅣㄹ -5973
ㄱㅏㄴㄷㅐ -5974
▁1978 -5975
ject -5976
▁ㅌㅗㅇㅅㅗㄹ -5977
▁ㄱㅕㅇㅅㅏㅇㄴㅏㅁㄷㅗ -5978
▁ㅎㅏㄱㅅㅏ -5979
ㅎㅏㅇㄹㅕㄱ -5980
▁ㅅㅣㄹㄹㅣ -5981
▁ㅆㅣㅅ -5982
ㅇㅣㄴㅎㅏ -5983
▁ㅁㅜㄹㅈㅏ -5984
▁ㅎㅘㄴㅅㅐㅇ -5985
▁ㅇㅏㅂㄹㅕㄱ -5986
▁ㄱㅑ -5987
▁ㄱㅡㅁㅂㅏㄹ -5988
▁ㅇㅣㄹㄱㅘㄴ -5989
▁AL -5990
▁ㅇㅓㄱㅇㅜㄹ -5991
▁ㄷㅐㅁ -5992
▁GM -5993
ㅇㅜㄹㄷㅐ -5994
eth -5995
▁ㄷㅡㅇㄱㅡㄱ -5996
▁AV -5997
▁se -5998
▁ㅈㅗㄴㅈㅜㅇ -5999
oot -6000
▁ㄱㅣㅁㄷㅗ -6001
▁ㅈㅓㄴㄷㅏㅁ -6002
▁ㄱㅏㄱㄷㅗ -6003
▁ㄱㅣㅁㄱㅘㅇ -6004
▁ㅎㅘㅇㄷㅏㅇ -6005
▁cl -6006
▁ㄴㅗㅇㅇㅓㅂ -6007
▁Co -6008
ㅎㅏㄴㄷㅗ -6009
ㅈㅏㅇㄱㅗ -6010
MAN -6011
▁ㅂㅏㄹㄱㅡㅂ -6012
▁ㄱㅐㅇㅅㅣㄴ -6013
ㄷㅡㄴㄷㅏ -6014
▁ㅍㅣㄹㄹㅡㅁ -6015
▁ㄷㅡㅇㅈㅐ -6016
▁ㅊㅜㄹㄷㅗㅇ -6017
ㄹㅝㅆ -6018
▁ㅂㅓㄹㅇㅣㄴ -6019
ㄹㅡㄴㅂㅏ -6020
▁ㅎㅐㅇㅈㅣㄴ -6021
▁BGA -6022
▁ㅅㅣㄹㅇㅛㅇ -6023
▁ㄱㅔㄹ -6024
▁ㅍㅗㄹㅇㅏ -6025
▁ㅇㅐㄱㅅㅔ -6026
▁ㄱㅏㅇㅎㅐㅆ -6027
▁ㅇㅕㄴㅅㅓㄹ -6028
▁ㅎㅕㅂㄷㅗㅇ -6029
ㄲㅜㅁ -6030
▁BO -6031
▁ㅈㅏㅇㅂㅕㄱ -6032
▁ㅂㅏㄴㄱㅕㅇ -6033
▁ㅈㅜㅇㄱㅜ -6034
▁ㅇㅣㅂㅅㅣ -6035
ild -6036
ㅂㅐㄴ -6037
ㅅㅕㅆ -6038
▁ㄷㅏㄴㅈㅏ -6039
▁ㅅㅣㅇㄱㅏ -6040
ㅋㅞ -6041
inal -6042
▁ㅈㅣㄱㅊㅐㄱ -6043
▁ㄱㅕㅇㅈㅓㄴ -6044
▁ㅈㅓㅁㅁㅕㄹ -6045
▁ㅍㅏㄴㄷㅏ -6046
▁Is -6047
▁ㅈㅓㅇㅁㅣㄹ -6048
▁ㅇㅘㅇㅂㅣ -6049
▁ㅅㅓㅇㅁㅕㅇ -6050
▁ㅇㅏㅀ -6051
▁ㄱㅣㅁㅊㅣ -6052
ㅌㅡㅁ -6053
▁ㄱㅏㅁㄷㅏㅇ -6054
▁ㅅㅓㅁㄱㅘㅇ -6055
▁ㅅㅓㄴㅂㅏㄱ -6056
▁ㅁㅣㄴㄱㅏㄴㅇㅣㄴ -6057
ㄷㅟ -6058
▁Do -6059
▁ㄱㅔㄴㅈㅣ -6060
DX -6061
▁ㅎㅏㄴㄱㅏ -6062
▁ㅇㅘㄴㄱㅗㅇ -6063
▁ㅍㅕㄴㄹㅣ -6064
▁ㅁㅏㅇㅅㅓㄹ -6065
▁ㄱㅓㄹㄲㅏ -6066
▁Gaming -6067
ㅋㅡㄹㄹㅔ -6068
▁ㅅㅡㅇㅍㅐ -6069
▁ㅈㅜㅇㅇㅝㄴ -6070
▁ㄱㅏㅇㅇㅣㄴ -6071
▁ㅈㅓㄹㅂㅕㄱ -6072
▁TOP -6073
▁ㅊㅏㄱㄹㅠㄱ -6074
▁ㅈㅓㄴㅅㅗㅇ -6075
▁315 -6076
▁CE -6077
▁ㅋㅓㅁㅂㅐㄱ -6078
▁ㅃㅓㄹ -6079
ㅌㅔㄹㅅㅡ -6080
▁ㅎㅡㄱㅇㅕㄱㅅㅏ -6081
▁ㅎㅑㅇㅎㅜ -6082
▁ㅊㅐㅁㅅㅡ -6083
▁ㅇㅓㄱㅈㅔ -6084
ings -6085
ㅈㅗㄴㅅㅣㅁ -6086
▁ㅅㅣㄴㅈㅏㄱ -6087
▁ㅊㅓㄴㄱㅜㄱ -6088
▁ㄷㅗㅇㄱㅖ -6089
▁ㅈㅓㄴㅈㅣ -6090
▁ㄷㅏㄹㅇㅣㄴ -6091
▁ㅌㅏㅁㅅㅏ -6092
ㄹㅏㅂㄴㅣ -6093
▁ㅇㅏㄹㄹㅔㄱㅅㅏㄴㄷㅡ -6094
▁ㅅㅣㄴㄱㅘㄴ -6095
▁1945 -6096
▁ㅇㅜㄱ -6097
14 -6098
▁AFC -6099
▁Gl -6100
ㅂㅏㅇㅇㅜㄹ -6101
ㄹㅡㅁㄷㅏㅂ -6102
▁CL -6103
▁ㅅㅓㄴㅇㅝㄴ -6104
ㄹㅕㅅ -6105
ㅂㅓㄴㅅㅡ -6106
▁ㅅㅗㄹㅈㅓ -6107
▁ㅇㅏㄴㅁㅜ -6108
▁ㅅㅓㄴㄷㅗㅇ -6109
▁ㅊㅣㅁㅁㅗㄹ -6110
▁ㅎㅡㄱㅁㅏㄱ -6111
▁Gu -6112
▁ㅇㅘㅇㅅㅣㄹ -6113
▁ㅌㅏㄴㅎㅐㄱ -6114
▁ㅇㅑㄹ -6115
ㅌㅔㄱ -6116
▁GSL -6117
▁320 -6118
▁ㅇㅛㅇㅇㅣ -6119
reak -6120
▁ㅇㅑㅁ -6121
▁ㄷㅓㄴㅈㅣㄴ -6122
▁ㅅㅜㄱㅅㅗ -6123
▁ㄲㅕ -6124
▁ㅁㅐㄴㅊㅔ -6125
ㄷㅏㅇㅊㅗ -6126
▁ME -6127
ron -6128
▁4000 -6129
▁ㅈㅣㄴㄷㅏㄴ -6130
▁ㅊㅣㄴㅊㅓㄱ -6131
▁ㅇㅣㄴㅁㅜㄴ -6132
▁ㅇㅘㄴㅎㅘ -6133
▁ㅁㅣㅁ -6134
▁ㅅㅓㅁㅁㅕㄹ -6135
ㄹㅡㄹㄹㅣㄴ -6136
▁ㅋㅓㄹㄹㅔㄱㅅㅕㄴ -6137
▁ㅂㅜㄹㅊㅏㅁ -6138
▁ㅈㅣㄱㅎㅐㅇ -6139
ㅗㄹ -6140
▁ㄱㅏㅁㅊㅜ -6141
▁ㅇㅓㅆㅇㅓㅆ -6142
ㅂㅔㄴㅈㅕ -6143
▁ㅁㅣㄴㅍㅖ -6144
▁1973 -6145
▁ㄷㅏㄹㅋㅗㅁ -6146
▁ㄴㅜㄴㄷㅗㅇㅈㅏ -6147
▁SA -6148
▁ㄱㅏㄴㅍㅏㄴ -6149
ㄴㅔㄴ -6150
▁ㅅㅣㄴㅎㅏㄴ -6151
▁ㅈㅏㅇㄴㅏㅁ -6152
▁ㄱㅗㄴㅊㅜㅇ -6153
▁ㅎㅏㅁㅅㅜ -6154
ㅍㅐㅇ -6155
▁NM -6156
▁so -6157
17 -6158
▁ㅎㅏㄴㄲㅓ -6159
▁ㄱㅘㄴㅁㅜㄴ -6160
▁ㅈㅏㅇㅅㅣㄴㄱㅜ -6161
▁ㅌㅜㄱ -6162
▁218 -6163
▁ㅋㅐㅂㅅㅠㄹ -6164
▁ㅇㅛㄱㅅㅣㅁ -6165
▁ㄴㅡㅍ -6166
▁ㅇㅓㅇㄷㅓㅇㅇㅣ -6167
▁168 -6168
TA -6169
▁like -6170
ㅅㅏㄴㄱㅘㅇㅇㅕㄱㅅㅣ -6171
ㅑㅁ -6172
▁Min -6173
▁ㅇㅜㄹㅇㅡㅁ -6174
▁ㅇㅣㄹㅊㅔ -6175
▁PK -6176
ㅊㅓㄴㄱㅜㄴ -6177
▁ㅎㅡㅇㅂㅜㄴ -6178
▁ㅅㅡㄹㄹㅐ -6179
▁will -6180
ㅇㅜㄴㅅㅜ -6181
▁ㅂㅏㄴㅅㅓㅇ -6182
PA -6183
▁203 -6184
▁ㅇㅣㅂㅅㅏ -6185
▁ㅊㅜㅇㅊㅓㅇㄴㅏㅁㄷㅗ -6186
▁ㅈㅣㅂㅅㅏ -6187
ㅇㅕㅇㅎㅗ -6188
▁ㄴㅡㅇㄱㅏ -6189
▁ㅍㅕㅇㅌㅐㄱ -6190
▁ㅈㅣㄴㄷㅗㅇ -6191
ㅌㅐㅇ -6192
▁ㅍㅕㅇㄹㅗㄴㄱㅏ -6193
▁ㅇㅣㄹㅇㅣㄹ -6194
ㅉㅏㄹ -6195
MAX -6196
▁ㅈㅓㅇㄷㅏㅂ -6197
ECT -6198
▁ㅇㅖㄹㄹㅗ -6199
▁ㅇㅕㄴㅇㅣ -6200
▁ㅌㅏㅆ -6201
▁ㅇㅓㄵ -6202
▁ㄱㅜㄱㄷㅗ -6203
▁ㅎㅐㅆㅇㅓ -6204
▁ㅂㅏㄴㅇㅕㄱ -6205
▁ㅅㅓㄴㅎㅚ -6206
▁ㅂㅜㄹㅇㅓ -6207
▁ㄱㅜㄴㅂㅜ -6208
▁ㅉㅏㄴ -6209
▁ㅁㅣㄴㄱㅏㅁ -6210
ㄹㅣㅂㄴㅣ -6211
▁ㅈㅜㅇㅂㅜ -6212
ㅁㅂㅣ -6213
▁ㄱㅣㅁㅇㅣㄹ -6214
ㄸㅓㄹ -6215
▁ㅁㅏㄴㄴㅏㄴㄷㅏ -6216
▁ㄱㅡㅁㄱㅏㅇ -6217
GA -6218
▁ㅅㅣㄱㅅㅡ -6219
▁ㅍㅕㅇㅅㅏㅇㅅㅣ -6220
▁one -6221
AND -6222
ㄲㅜㅂ -6223
▁ㅋㅐㄹㄹㅣ -6224
▁ㅇㅑㄱㅎㅗㄴ -6225
▁ㅇㅑㄱㅊㅔ -6226
▁ㅈㅓㅇㅈㅓㅁ -6227
ㄴㅣㄹㄹㅏ -6228
▁ㄱㅡㅂㅅㅣㄱ -6229
▁ㅂㅏㄹㄱㅏㄱ -6230
▁ㄴㅗㅎㅇㅕ -6231
▁ㅅㅡㄹㅍㅓ -6232
▁ㅇㅏㄴㄱㅕ -6233
▁ㄷㅏㄴㅇㅕㄱ -6234
▁na -6235
ㅋㅗㅅ -6236
ㄴㅟㄴㄷㅏ -6237
▁ㄱㅜㅇㅅㅜ -6238
▁ㅅㅣㄹㅈㅓㄱ -6239
▁ㅇㅣㄹㅁㅕㅇ -6240
ㅅㅐㅇㅎㅘㄹ -6241
▁10000 -6242
ㅈㅜㅇㄱㅏㄴ -6243
▁Type -6244
ㅇㅛㅇㄱㅐㄱ -6245
▁ㅈㅏㅂㅎㅣㄴ -6246
▁ㅈㅓㅇㅇㅜ -6247
oul -6248
ㅁㅏㅂ -6249
▁ㄴㅏㅁㅎㅏㄱㅅㅐㅇ -6250
ㄸㅏㄹ -6251
ㅅㅏㅇㄷㅗ -6252
▁ㅉㅏㅁ -6253
ICE -6254
▁ALL -6255
ㅇㅝㄴㅅㅣ -6256
▁ㅇㅛㄱㅁㅏㅇ -6257
te -6258
▁ㅁㅗㄱㅇㅛㄱ -6259
▁iOS -6260
▁ㅅㅜㄱㄹㅕㄴㄷㅗ -6261
ㄱㅏㄴㅍㅛ -6262
▁ㅅㅗㄱㅎㅐ -6263
▁ㅁㅕㅇㅈㅏㅇ -6264
▁ㅂㅔㄹㄱㅣ -6265
▁ㅌㅏㄹㅊㅟ -6266
▁ㅈㅏㅇㅂㅗㄴ -6267
▁ㅌㅏㄹㄹㅣ -6268
▁Ser -6269
ody -6270
▁ㄷㅏㄴㄹㅕㄴ -6271
▁ㄱㅓㅁㅌㅗ -6272
▁ㄷㅡㄹㅋㅣ -6273
▁Red -6274
ater -6275
▁ㄱㅗㅇㄱㅛ -6276
▁ㄷㅏㅇㅊㅗ -6277
▁ㅁㅓㄱㅇㅕ -6278
16 -6279
▁ㅁㅕㅇㅅㅣ -6280
▁ㅅㅓㅇㅂㅜㄴ -6281
▁ㅈㅜㅇㄱㅣ -6282
▁Car -6283
▁ㄸㅡㄷㅇㅓ -6284
▁ㅇㅐㄴㄷㅡ -6285
▁177 -6286
ould -6287
▁ㅅㅏㅇㅅㅣ -6288
▁ㅎㅟㅂㅆㅡㄹ -6289
▁ㅃㅛ -6290
▁ㄱㅗㅇㅅㅣㄴ -6291
▁ㅈㅜㅇㅅㅗ -6292
▁Don -6293
▁ㄱㅣㅁㅂㅕㅇ -6294
STER -6295
▁ㄱㅏㅇㄷㅗㅇ -6296
ㅌㅔㄹㄹㅏ -6297
▁ㄱㅏㅇㄷㅐ -6298
ions -6299
▁ㅎㅏㄱㅇㅟ -6300
▁ㅇㅏㄴㅌㅗ -6301
ㅇㅝㄴㅈㅏ -6302
▁ㅇㅔㅁㅂㅡㄹ -6303
▁ㅂㅏㄱㅈㅓㅇㅎㅢ -6304
▁Play -6305
ㅌㅔㄱㅅㅡ -6306
ㅁㅕㅇㅂㅏㄱ -6307
▁ㅅㅡㅇㄱㅡㅂ -6308
▁ㄱㅏㅇㅇㅏ -6309
▁ㅈㅏㄴㄹㅠ -6310
▁ㅈㅏㅇㅂㅗㄴㅇㅣㄴ -6311
▁ㄴㅜㄴㅇㅏㅍ -6312
▁ㅅㅏㅂㅈㅣㄹ -6313
▁ㅁㅗㅁㅁㅐ -6314
ㅍㅗㄹㄹㅔ -6315
▁ㅎㅘㅇㅎㅗㄴ -6316
▁ㅂㅗㄲ -6317
▁1974 -6318
▁ㄲㅜㅁㄲㅜ -6319
▁ㄹㅓㄴㅊㅓ -6320
▁ㅎㅗㄴㅎㅕㄹ -6321
▁138 -6322
▁ㅅㅓㅇㄷㅐ -6323
▁ㄷㅏㄴㅊㅗㅇ -6324
▁ㅍㅏㄴㅅㅏ -6325
▁ㅁㅐㅅㅈㅣㅂ -6326
▁Es -6327
▁UC -6328
▁us -6329
▁ㅇㅣㄴㅌㅡ -6330
▁ㄱㅜㄻ -6331
▁ㅈㅣㅇㄱㅖ -6332
ㄷㅡㄹㅇㅕㅆ -6333
ㄷㅗㄱㅈㅏ -6334
▁ㅂㅓㄴㅈㅣ -6335
▁ㅈㅜㅇㄷㅗ -6336
▁ㄱㅜㄴㄷㅔ -6337
ㄱㅕㄱㅈㅓㄴ -6338
▁ㅁㅜㄷㅎㅕ -6339
ㅇㅕㄴㅅㅜ -6340
alk -6341
▁ㄷㅙㅆㅇㅡ -6342
▁ㅁㅣㄴㅈㅜㅇ -6343
▁KB -6344
ven -6345
▁RO -6346
ㅍㅔㄱㅌㅓ -6347
▁ㅂㅏㅌ -6348
▁NT -6349
▁ㄱㅜㄱㅌㅗ -6350
ㅇㅗㄹㄹㅣㄴ -6351
▁ㅋㅏㅅ -6352
▁ㅅㅣㄴㅎㅏ -6353
▁ㄹㅓㅆ -6354
▁Time -6355
▁ㄱㅗㅇㅎㅓㄴ -6356
▁ㅈㅓㅂㅎㅏ -6357
▁ㅈㅓㄱㅎㅣㄴ -6358
▁ㄱㅡㅂㅎㅏ -6359
▁ㅌㅏㄴㅁㅏㄱ -6360
af -6361
▁ㄹㅐㄴㅅㅓ -6362
▁ㅋㅓㄴㄷㅣ -6363
▁ㄷㅗㄱㅂㅐㄱ -6364
ㅂㅐㅇ -6365
ㅈㅏㅇㄴㅏㄴ -6366
▁ㄴㅏㅊ -6367
ㅅㅡㄹㄹㅣ -6368
▁ㅂㅓㅈ -6369
▁ㅊㅓㄴㅈㅣ -6370
▁ㅈㅗㄹㅇㅓㅂㅅㅣㄱ -6371
▁ㄱㅣㅅㅌㅓㄹ -6372
▁1975 -6373
▁ㅊㅜㅇㄱㅕㄱㅍㅏ -6374
▁ㅇㅠㄱㅅㅏㅇ -6375
▁ㅅㅣㄹㄹㅣㄴ -6376
▁ㅂㅏㅇㅊㅣㅁ -6377
▁162 -6378
▁''' -6379
▁126 -6380
ㅊㅣㄴㄱㅜ -6381
▁??? -6382
▁ㅂㅏㄹㅌㅗㅂ -6383
▁ㅈㅓㅇㅈㅓㄴ -6384
▁ㅍㅓㅇㅋㅡ -6385
▁ㅇㅣㄴㅁㅕㅇ -6386
▁ㅅㅓㄹㅁㅏ -6387
▁ㅊㅜㄹㅅㅓㄱ -6388
▁ㅃㅑㅁ -6389
ㅁㅏㄹㄹㅣ -6390
▁Sum -6391
ㅅㅐㅇㅈㅏ -6392
▁WH -6393
ics -6394
▁ㄱㅠㄴㅇㅕㄹ -6395
ㅃㅡㅁ -6396
▁ㅇㅝㄴㅎㅘ -6397
▁ㅎㅏㄴㅇㅑㅇ -6398
▁ㅁㅏㄺ -6399
▁IIDX -6400
▁ㅁㅕㄴㅈㅔ -6401
▁ㅈㅓㄹㄷㅏㄴ -6402
ACK -6403
▁ㅅㅓㄴㄹㅗ -6404
▁ㅇㅐㄱㅊㅔ -6405
▁ㄱㅓㄹㅇㅡㅁ -6406
▁ㄱㅣㅁㅇㅠㄴ -6407
▁ㄱㅕㅇㅅㅏ -6408
▁ㅅㅓㅇㅈㅣ -6409
▁have -6410
▁ㅇㅘㅆㅇㅡ -6411
▁ㄷㅣㅂ -6412
▁ㅇㅝㄹㄱㅏㄴ -6413
ㅊㅓㄴㅇㅘㅇ -6414
▁ㅅㅗㄴㅈㅏㅂㅇㅣ -6415
▁ㅂㅓㅅㄱㅕ -6416
ㅁㅏㅇㅈㅏ -6417
▁ㅎㅕㅂㅈㅗ -6418
▁ㄱㅡㅂㄱㅕㄱㅎㅣ -6419
▁ㅂㅔㄹㄹㅏ -6420
▁ㅁㅓㅅㅈㅣ -6421
▁ㅅㅏㅇㅇㅢ -6422
▁ㅈㅜㅇㄱㅜㄱㅇㅣㄴ -6423
ㄷㅗㅇㄱㅣ -6424
▁Bo -6425
ㄱㅕㅂ -6426
ㅅㅓㅇㅇㅣ -6427
▁ㄱㅜㄱㅂㅏㅇㅂㅜ -6428
▁DI -6429
▁ㅅㅏㄴㅌㅏㄴㅊㅗㅇ -6430
▁313 -6431
ㅈㅏㅇㄱㅜㄴ -6432
▁ㅎㅠㅇㅇㅏㄱ -6433
▁oh -6434
▁ㅎㅠㅇㄴㅐ -6435
▁ㅅㅏㅇㅇㅓ -6436
▁ㅇㅜㅅㄱㅣ -6437
▁ㅇㅣㄹㅅㅜ -6438
▁ㅇㅠㄴㄹㅣ -6439
▁ㅇㅑㅇㅇㅏ -6440
▁ㄱㅗㅇㄱㅕㄱㄱㅣ -6441
▁ㅎㅗㅁㄱㅕㅇㄱㅣ -6442
tern -6443
▁ㅂㅕㄴㅎㅏㅁ -6444
YP -6445
▁ㄷㅗㄱㅂㅗ -6446
▁CB -6447
▁ㅊㅏㄹㅅㅡ -6448
▁ㅂㅏㅇㅇㅜㄹ -6449
▁BT -6450
▁ㄷㅜㅇㅈㅣ -6451
▁ㅍㅏㄹㄹㅣ -6452
▁ㅍㅕㅇㅍㅏㄴ -6453
ㅇㅕㅇㅂㅗㄱ -6454
ㄹㅏㅇㅋㅡ -6455
▁ㄴㅏㄴㄹㅣ -6456
ㅅㅏㅇㄱㅏ -6457
▁know -6458
ict -6459
ange -6460
ㄹㅔㄴㄷㅡ -6461
▁ㄱㅏㅁㅅㅓㅇ -6462
▁Kore -6463
▁out -6464
▁ㅇㅣㄴㄷㅡㅅ -6465
ㅅㅣㄴㄱㅏㅁ -6466
▁ㅇㅣㄴㅅㅡ -6467
▁ㅈㅏㄱㅇㅟ -6468
▁ㄱㅏㅇㅅㅡㅂ -6469
ㅂㅗㄹㅂㅓ -6470
ins -6471
ator -6472
▁set -6473
▁ㄱㅗㅇㅁㅕㅇ -6474
▁BA -6475
▁132 -6476
▁Sun -6477
▁pr -6478
ㅁㅕㅇㅅㅜ -6479
ㅈㅓㄴㅅㅓㄹ -6480
ㅈㅣㅈ -6481
▁ㅁㅏㄴㅈㅣ -6482
▁feat -6483
▁ㄱㅓㄴㄷㅏ -6484
▁ㅇㅣㅂㅇㅝㄴ -6485
▁ㅉㅏㄱㅅㅏ -6486
▁EV -6487
▁ㅈㅣㄴㅎㅕㅇ -6488
▁LTE -6489
ㄹㅏㄹㄷㅡ -6490
▁ㄱㅣㅁㅅㅓㄴ -6491
▁ㅇㅑㄱㅊㅣㅇ -6492
ㅍㅣㅅ -6493
▁ㅈㅓㅂㅅㅜ -6494
▁ㄷㅏㄴㅅㅓ -6495
▁ㄱㅕㄴㅎㅐ -6496
▁ㅅㅓㅇㅅㅏ -6497
▁ㅁㅐㅇㄷㅗㄱ -6498
ㅌㅗㅇㅅㅜ -6499
▁ㅎㅏㄴㅈㅓㅇㅍㅏㄴ -6500
ㅁㅐㄱㅅㅡ -6501
▁ㄷㅜㄴㄷㅏ -6502
▁ㅂㅏㄴㅈㅏㅇ -6503
▁ㄴㅏㄴㅌㅜ -6504
▁ㅅㅣㄹㄹㅕ -6505
▁1976 -6506
▁ㅋㅓㅁㅍㅓ -6507
▁ㅁㅏㅌㄱㅕ -6508
▁ㅇㅜㅁㅈㅣㄱㅇㅕ -6509
▁ㅇㅣㅂㅈㅏ -6510
▁ㅇㅏㄱㅎㅐㅇ -6511
▁ㅇㅕㄴㅅㅗ -6512
▁ㅂㅏㄴㄷㅗ -6513
ㅅㅏㄴㅁㅜㄹ -6514
▁EU -6515
▁ㅅㅓㄲㅇㅣㄴ -6516
▁ㄲㅚ -6517
▁ㅍㅔㄱ -6518
▁158 -6519
19 -6520
▁ㄱㅡㅁㄱㅗ -6521
▁ㅇㅘㅇㅈㅗㄱ -6522
▁ㄱㅕㄱㄹㅕㄹ -6523
ㄷㅡㅁㅎㅐ -6524
▁ㅅㅜㄴㄱㅏㄴㅇㅣ -6525
ㄲㅣㄴㄷㅏ -6526
▁ㅇㅕㄴㅁㅏㄱ -6527
▁ㅂㅜㄴㅎㅏㄹ -6528
▁MO -6529
▁ㅂㅣㅅㄴㅏ -6530
▁ㅊㅡㄴㄷㅔ -6531
▁~" -6532
ㄹㅗㄹㄹㅗ -6533
▁High -6534
▁IV -6535
▁ㅈㅓㄴㅂㅓㅂ -6536
▁ㅇㅝㄴㄹㅗ -6537
ㄴㅓㅅ -6538
▁HS -6539
▁ㅈㅗㅇㄹㅗ -6540
▁ㅌㅏㄴㅇㅏㅂ -6541
▁ㄷㅝ -6542
▁230 -6543
▁Light -6544
▁ㅈㅜㅇㅈㅐ -6545
ㄱㅘㄴㅍㅗ -6546
▁ㅅㅣㄴㄷㅏ -6547
▁ㅂㅐㄱㅁㅏㄴ -6548
che -6549
▁172 -6550
▁TP -6551
ㅅㅣㄱㅎㅚ -6552
▁ㅂㅕㅇㄱㅘ -6553
▁ㅋㅐㄴㄷㅣ -6554
▁ㅍㅏㄱ -6555
▁ㅌㅏㄹㅎㅘㄴ -6556
▁1972 -6557
▁ㅍㅣㄹㅅㅏ -6558
▁ㄷㅗㅇㅅㅏㅇ -6559
▁ㅇㅘㄴㅅㅓㅇㄷㅗ -6560
▁TE -6561
▁ㄴㅏㄹㄹㅕㅆ -6562
▁ㅂㅣㅇㅇㅢ -6563
▁ㄹㅓㄱㅋㅣ -6564
▁ㅇㅘㄴㅂㅕㄱㅎㅣ -6565
▁ㅅㅣㄹㅂㅏ -6566
ㄲㅜㅂㅊㅣㄴㄱㅜ -6567
▁ㄱㅏㄴㅍㅏ -6568
▁ㄷㅓㅁㅂㅕ -6569
ㅍㅔㄴㅅㅡ -6570
ㄹㅏㅇㅍㅡ -6571
ㄱㅗㅁ -6572
▁ㅈㅣㄱㅇㅟ -6573
▁1977 -6574
▁ㅊㅏㄴㅇㅑㅇ -6575
▁ㅈㅐㅇㅇㅣ -6576
▁ㄱㅡㄱㅅㅣㅁ -6577
ㅎㅕㄴㅇㅜ -6578
ㅅㅔㅂㅌㅡ -6579
▁Your -6580
▁ㅁㅕㅇㄷㅐ -6581
▁ㅅㅓㄱㅇㅠ -6582
▁ㅍㅏㅁ -6583
▁133 -6584
▁ㅅㅣㄴㅈㅗ -6585
▁LOVE -6586
▁la -6587
▁ㄴㅏㅈㅊㅜ -6588
▁NEW -6589
▁ㅅㅣㄴㅅㅐㅇ -6590
▁Tw -6591
▁148 -6592
▁ㅂㅗㄹㄷㅡ -6593
▁ㅅㅣㄴㅇㅣ -6594
▁ㅊㅡㄱㄱㅡㄴ -6595
▁OF -6596
▁ㅈㅠㄴ -6597
▁ㅇㅝㄹㅇㅛ -6598
▁ㅇㅣㄹㄱㅏㄱ -6599
▁ㅈㅓㄱㅇㅣ -6600
▁ㅇㅘㅇㄱㅏ -6601
▁ㅍㅐㄴㅌㅣ -6602
▁ㅇㅏㄴㅈㅔ -6603
▁ㅈㅗㅇㅅㅏ -6604
ica -6605
▁ㄷㅗㅇㅅㅓㅇㅇㅐ -6606
▁ㅂㅕㅇㅎㅐㅇ -6607
▁ㅅㅗㄹㅈㅣㄱㅎㅣ -6608
▁Mr -6609
IK -6610
▁ㅅㅣㄴㅅㅏㅇ -6611
▁ㅇㅛㅇㅅㅏㄴ -6612
▁ㅁㅏㄹㄱㅣ -6613
▁ㅇㅕㄴㄱㅏㄴ -6614
▁ㅊㅏㅁㅇㅡ -6615
ㄱㅠㄹㄹㅓ -6616
▁179 -6617
▁ㅅㅡㄹㅍㅡㄴ -6618
▁ㅈㅜㅇㄱㅡㅂ -6619
▁Gen -6620
▁ㄹㅏㅅ -6621
ㅇㅕㄱㄱㅜ -6622
▁ㅇㅓㅇㄸㅜㅇ -6623
▁ㅂㅟ -6624
ㅁㅏㄱㅈㅓㄴ -6625
▁ㅇㅡㅇㄱㅡㅂ -6626
▁ㄱㅣㅁㄱㅜ -6627
▁ㅂㅕㅇㅈㅗㅇ -6628
▁ㅊㅜㅇㄴㅏㅁ -6629
▁ㅈㅣㄴㄹㅗ -6630
▁ㅇㅓㅅ -6631
▁ㅈㅡㄹㄱㅓㅂ -6632
ㅂㅐㅌ -6633
▁ㅇㅛㅇㅇㅢ -6634
▁HARD -6635
▁ㅇㅏㄱㅅㅔ -6636
ex -6637
▁ㄲㅗㄹㅉㅣ -6638
▁ㅅㅗㄴㅁㅗㄱ -6639
▁Par -6640
▁%. -6641
ㄷㅓㄱㅅㅕㄴ -6642
▁ㅇㅓㄹㅌㅓ -6643
▁ㅂㅏㄴㄷㅏ -6644
▁ㅁㅏㅈㅁㅓㄱ -6645
▁ㅂㅏㄹㅈㅓㄴㅅㅗ -6646
▁ㄱㅗㅇㅉㅏ -6647
▁ㅍㅗㄱㄹㅗ -6648
ㅈㅜㄴㄱㅕㅇ -6649
ㅊㅓㄴㅅㅏ -6650
▁IP -6651
ㄷㅏㄺ -6652
▁ㅊㅜㅇㄱㅗ -6653
▁ㄲㅓㅂㅈㅣㄹ -6654
▁156 -6655
▁Em -6656
▁154 -6657
▁ㅌㅜㅇ -6658
ㅂㅐㅁ -6659
▁ㅋㅔㄴㅈㅣ -6660
HT -6661
▁ㄱㅡㄱㅇㅏㄱ -6662
▁OCG -6663
▁ㄴㅐㅇㄱㅣ -6664
ㅌㅜㅇ -6665
▁ㅅㅜㄴㅊㅓㄴ -6666
▁176 -6667
▁ㅇㅐㄹㄹㅓㄴ -6668
▁ㅂㅜㄴㅂㅐ -6669
▁am -6670
ㅇㅡㄴㅇㅣ -6671
▁ar -6672
▁DR -6673
▁ㄱㅕㄹㅇㅢ -6674
▁ㅅㅣㅁㅈㅓㅇ -6675
ㅇㅣㄴㅂㅐ -6676
▁ㄱㅏㅇㅅㅓ -6677
▁ㅂㅏㄱㅈㅟ -6678
▁ㅂㅏㄱㅈㅗㅇ -6679
▁222 -6680
▁ㅇㅐㅇㅋㅓ -6681
▁ㄱㅡㄴㄹㅗ -6682
▁ㅅㅏㄴㅅㅗ -6683
▁ㅇㅣㄹㅅㅏㄴ -6684
▁ㅇㅡㅇㄷㅏㅂ -6685
▁ㅎㅜㅁㅊㅣ -6686
▁ㅅㅓㄴㅂㅗㅇ -6687
CH -6688
▁ㅈㅗㅇㅈㅓㄴ -6689
▁u -6690
▁ㅍㅐㄱㅅㅕㄴ -6691
▁129 -6692
▁ㅈㅓㅇㅈㅜㄴ -6693
▁ㅁㅔㄴㅂㅜㅇ -6694
▁ㅎㅣㄴㅌㅡ -6695
ㅈㅏㄱㅂㅣ -6696
▁GD -6697
▁173 -6698
▁159 -6699
▁ㄱㅣㅁㄷㅜ -6700
ME -6701
▁AE -6702
ㄷㅏㅅ -6703
▁GTA -6704
▁ㄱㅓㄹㄹㅣㄹ -6705
▁ㄱㅏㅇㅌㅏㄹ -6706
▁ㅅㅏㅇㅂㅜ -6707
▁ㄴㅐㅇㅈㅏㅇㄱㅗ -6708
UT -6709
▁Mi -6710
▁ㅅㅡㄹㅅㅡㄹ -6711
▁ㅍㅕㅇㄷㅡㅇ -6712
ㅇㅣㄴㅇㅓ -6713
▁ㄲㅡㄶㄱㅣ -6714
ㅈㅣㄹㄹㅓ -6715
▁ㄹㅐㄴㅅㅡ -6716
▁ㅂㅗㄴㅈㅣㄹ -6717
▁Kn -6718
▁ll -6719
▁ㅇㅣㄹㅋㅓ -6720
▁ㅈㅜㄹㄱㅣ -6721
▁ㅈㅣㄴㅎㅡㅇ -6722
▁ㅇㅣㄹㅋㅓㄷ -6723
ㅇㅠㄱㅊㅓㅇ -6724
▁153 -6725
▁Of -6726
ㅈㅗㅁ -6727
ㄹㅔㄱㅌㅓ -6728
ㅂㅏㄴㅈㅓㄴ -6729
ㅁㅐㄴㅅㅡ -6730
▁ㅇㅏㄴㄷㅗㅇ -6731
▁ㅁㅕㅇㅌㅏㅁㅈㅓㅇ -6732
▁ㅍㅕㄴㅎㅏㄴ -6733
eep -6734
▁1971 -6735
▁ㅈㅓㅇㅈㅗ -6736
▁ㄱㅗㅇㄹㅣㅂ -6737
▁ㅇㅣㅁㅈㅣㄴ -6738
pr -6739
▁137 -6740
▁MK -6741
▁ㄱㅣㅁㅅㅓㅇㄱㅡㄴ -6742
▁ㅋㅗㄹㄹㅔ -6743
▁ㅅㅓㄴㅈㅣ -6744
▁ㅇㅡㅁㅎㅑㅇ -6745
ㅇㅣㄹㄹㅏ -6746
▁ㅌㅏㄱㅇㅝㄹ -6747
ㅎㅘㄹㅇㅑㄱ -6748
▁ㅇㅣㄹㅈㅗ -6749
les -6750
ㅎㅐㅇㅈㅏ -6751
▁ㅈㅗㄴㅅㅡㄴ -6752
FL -6753
▁ㄸㅜㄱ -6754
ㅃㅏㄹㄹㅣ -6755
▁ㅅㅔㄱㅅㅣ -6756
▁ㅂㅣㄴㅇㅑㄱ -6757
ㅍㅜㄴ -6758
▁GHz -6759
▁ㅊㅜㅁㅊㅜ -6760
ㄹㅔㄴㅈㅡ -6761
▁ㅌㅏㅁㄱㅜ -6762
▁ㅈㅓㅂㅈㅓㄴ -6763
▁ㅎㅘㄴㅎㅗ -6764
▁ㅍㅣㅇㄱㅖ -6765
▁ㅎㅘㅇㅌㅐ -6766
▁ㅇㅠㄹㄹㅣ -6767
▁Ro -6768
▁ㅅㅜㄱㅊㅓㅇ -6769
ㅇㅏㄶ -6770
ㅅㅏㅇㅎㅘ -6771
▁ㄹㅣㅂㅅㅡ -6772
▁was -6773
▁ㄴㅏㅁㅇㅑㅇ -6774
ㄹㅡㄹㄲㅏ -6775
▁ㅍㅔㅇㄱㅟㄴ -6776
ㄷㅣㄹ -6777
▁PL -6778
▁ㄴㅓㅁㄱㅕㅆ -6779
▁174 -6780
ㄷㅗㄹㅍㅡ -6781
▁Per -6782
ㅂㅕㄴㅇㅣㄴ -6783
▁225 -6784
▁143 -6785
▁ㄷㅡㄹㄹㅣㄴㄷㅏ -6786
}} -6787
▁ㅇㅟㄴㅌㅓ -6788
▁280 -6789
▁ㄹㅡㄴ -6790
▁Heart -6791
▁ㄲㅏㅇㅍㅐ -6792
▁ㅍㅜㅇㄱㅕㅇ -6793
▁ㅌㅣㅁㅈㅏㅇ -6794
▁Fe -6795
▁139 -6796
▁163 -6797
▁ㅂㅏㅅ -6798
▁beat -6799
▁ㅌㅡㄹㄹㅣ -6800
▁ㅅㅜㄴㅊㅏㄹ -6801
▁ㄱㅗㅇㄱㅜㄱ -6802
▁167 -6803
▁134 -6804
▁ㅁㅏㄹㅅㅗ -6805
ㅋㅡㄹㄹㅣㄴ -6806
▁ㅍㅣㄹㄷㅜ -6807
▁ㅊㅓㄴㅈㅜ -6808
▁ㅊㅓㄹㄱㅏㅂㅌㅏㄴ -6809
ㄹㅡㄴㅍㅏㄹ -6810
▁Good -6811
▁ㅎㅗㄱㅍㅕㅇ -6812
▁ㅇㅏㄹㅍㅡ -6813
ㅇㅏㅅㄱㅣ -6814
ㄹㅏㄱㅅㅣㄹ -6815
ㅍㅣㄹㄹㅗ -6816
▁ㄱㅏㅁㄱㅡㅁ -6817
▁ㄴㅡㅇㅅㅜㄱ -6818
▁ㅈㅏㅇㄱㅏㅂㅊㅏ -6819
▁ㅎㅕㄴㅈㅣㄱ -6820
▁ㅂㅏㄹㄹㅔㄴㅌㅏ -6821
▁ㅅㅣㄴㄴㅕㅁ -6822
▁ㅇㅑㅇㅋㅣ -6823
▁ㅊㅗㅇㅅㅓㄴㄱㅓ -6824
▁142 -6825
ㅁㅔㄴㅌㅓ -6826
▁ㅅㅐㅇㅌㅐ -6827
▁ㅍㅣㄴㄹㅏㄴㄷㅡ -6828
▁ㄱㅘㄴㄹㅛ -6829
▁1969 -6830
▁ㅅㅓㅂㅊㅟ -6831
ㅂㅗㄹㄹㅜ -6832
agon -6833
▁ㅅㅣㄴㅈㅜ -6834
▁GPU -6835
▁ㅂㅗㄱㄷㅗ -6836
ㅅㅜㄴㅅㅣㄴ -6837
▁ㅇㅏㄱㄱㅗㄱ -6838
▁ㅁㅏㄹㄹㅏ -6839
▁ㅎㅓㄹㅋㅡ -6840
▁ㅅㅣㄴㅎㅏㄱ -6841
▁ㅈㅜㄱㅇㅣㄴㄷㅏ -6842
▁ㅇㅑㅇㅅㅣㅁ -6843
▁~~ -6844
ㄲㅓㅇ -6845
▁ㅇㅕㅇㄷㅡㅇ -6846
▁What -6847
▁ㅋㅔㄴㅌㅏ -6848
▁ㅈㅗㅇㅁㅏㄹ -6849
EL -6850
▁yout -6851
ert -6852
ㅅㅓㅇㄱㅜㄴ -6853
▁ㄷㅡㄱㅅㅣㄹ -6854
▁ㅇㅔㄹㄷㅓ -6855
▁ㅅㅑㅇ -6856
▁ㅁㅏㅇㅅㅏㅇ -6857
▁164 -6858
▁CO -6859
▁ㅅㅣㅁㅎㅣ -6860
▁ㄴㅏㄴㅁㅣㄴ -6861
▁FPS -6862
▁ㅎㅏㅁㅅㅓㅇ -6863
▁ㅈㅏㅇㅅㅣ -6864
▁ㅌㅔㄱㅅㅏ -6865
▁ㅎㅗㄴㄷㅏ -6866
▁ㅂㅏㄹㅌㅏㄱ -6867
▁ㅇㅕㄴㄷㅏㄹ -6868
▁ㅂㅡㄹㄹㅐㄱㅎㅗㄹ -6869
▁ㅊㅏㄱㅈㅣ -6870
ㅂㅏㄱㅇㅣ -6871
▁0900 -6872
▁Dark -6873
▁ㅈㅣㄹㅍㅜㅇ -6874
▁ㅇㅔㅅㅈㅣ -6875
▁ㅊㅜㄹㅈㅔ -6876
▁pro -6877
▁ㄱㅣㅁㅊㅓㄴ -6878
▁ㅊㅓㄴㅁㅜㄴ -6879
OK -6880
ㅅㅏㄴㄷㅗㅇ -6881
ㄴㅕㄴㄱㅣ -6882
▁ㅇㅡㅇㅅㅣ -6883
▁ㅇㅏㅍㅅㅓㄴ -6884
▁ㅈㅓㄴㅎㅏㄱ -6885
▁BM -6886
▁ㅁㅐㅇㅎㅘㄹㅇㅑㄱ -6887
▁136 -6888
▁ㅂㅏㄹㅊㅏ -6889
▁ㅂㅏㄱㅎㅕ -6890
▁ㄲㅜㅀ -6891
▁ㅌㅓㄹㅇㅓ -6892
▁ONE -6893
▁2500 -6894
ideo -6895
▁ㅌㅗㅇㅌㅡㄹㅇㅓ -6896
▁ㅍㅏㄹㄹㅔ -6897
▁ㄱㅕㄱㅌㅚ -6898
ㄱㅗㅇㅍㅗ -6899
▁ㅈㅓㄴㅂㅏㄴㄱㅣ -6900
ㅅㅜㄹㄹㅕㄱ -6901
▁time -6902
ㅅㅡㄹㅇㅏ -6903
▁ㄴㅏㄹㄹㅏ -6904
▁ㅈㅜㅇㅎㅜ -6905
▁ㅈㅓㄴㅇㅣㅁ -6906
▁ㅈㅣㄱㅌㅗㅇ -6907
▁ㅁㅗㄱㅍㅗ -6908
ㅆㅜ -6909
▁ㅁㅏㅇㅁㅕㅇ -6910
ㅇㅓㄴㅈㅏ -6911
▁CN -6912
▁ㅅㅣㅁㅇㅕㄴ -6913
ㅇㅜㄹㅅㅣ -6914
▁ㅅㅓㅇㅂㅕㄱ -6915
▁ㅅㅡㄹㄹㅐㅁ -6916
▁ㄷㅔㄹㅌㅏ -6917
▁ㅊㅓㅇㅅㅏ -6918
▁ㅊㅐㄱㄹㅑㄱ -6919
ㅊㅐㄴ -6920
▁ㄱㅐㄱㄱㅘㄴ -6921
▁ㅇㅣㅈㅇㅓ -6922
▁ㄴㅐㅇㄷㅗㅇ -6923
▁ㅁㅏㅈㅊㅜㄹ -6924
▁ㅇㅕㄹㄹㅣㄴㄷㅏ -6925
▁ㅂㅏㄹㅂㅏㄹ -6926
▁157 -6927
▁ㅊㅓㅇㄹㅛㅇ -6928
▁Sl -6929
ㅋㅓㄴㄷㅡ -6930
▁ㄲㅗㅇ -6931
▁ㅁㅓㅅㅇㅣㅆ -6932
▁ㅇㅓㄹㅇㅓ -6933
ㅌㅜㄹ -6934
ors -6935
▁ㅂㅓㅈㄲㅗㅊ -6936
▁Sm -6937
▁ㄲㅗㅁㅅㅜ -6938
ㅂㅐㄱㄱㅘ -6939
▁ㅇㅕㅁㄷㅜ -6940
ㄴㅏㄹㄷㅜ -6941
▁ㅇㅏㄹㄹㅕㅆ -6942
air -6943
▁Baby -6944
▁Blue -6945
▁ㅂㅜㄴㅍㅗ -6946
▁ㅈㅏㅂㅎㅕㅆ -6947
other -6948
▁ㅈㅓㄴㄷㅗ -6949
▁ㅅㅓㅇㅍㅗㄱ -6950
▁ab -6951
▁ㅁㅓㄴㅈㅣ -6952
▁ㅇㅘㅇㄱㅘㄴ -6953
ㅅㅔㅁ -6954
▁ㅈㅣㄴㅅㅜㄹ -6955
anna -6956
▁ㅊㅐㄱㅅㅏㅇ -6957
▁Ac -6958
▁ㅇㅕㄹㄱㅣ -6959
ㄱㅕㅁ -6960
▁ㄷㅗㄱㅅㅜ -6961
▁ㄴㅏㄹㄹㅣㄴ -6962
▁ㅋㅣㅇㄷㅓㅁ -6963
▁ㄷㅗㅇㅅㅏ -6964
▁ㅃㅐㄴ -6965
ㅇㅣㄹㅅㅡ -6966
▁330 -6967
▁ㄷㅏㄴㅇㅢ -6968
▁ㅅㅣㅁㅇㅑ -6969
ㅊㅗㅇㅈㅏㅇ -6970
▁ㅊㅓㅇㅈㅏㅇ -6971
land -6972
▁ㄴㅜㅂ -6973
▁270 -6974
▁ㄱㅜㄱㄱㅣ -6975
▁ㅂㅜㄴㅅㅙ -6976
▁ㄲㅏㄹㄹㅕ -6977
ush -6978
▁ㄱㅗㅇㅅㅏㄴㅈㅜ -6979
▁ㅈㅏㄴㅎㅐ -6980
ㄹㅕㄱㅈㅏ -6981
iew -6982
▁ㅁㅏㅈㅁㅜㄹ -6983
▁1963 -6984
▁ㅊㅏㄹㄴㅏ -6985
ㅇㅟㅂ -6986
ㅂㅏㄴㅅㅣㄴ -6987
▁ㅈㅣㄴㄷㅗ -6988
▁ㅇㅘㄴㄱㅜ -6989
ㅈㅣㄹㄹㅐㄴㄷㅡ -6990
▁ㅁㅗㅁㅁㅜ -6991
▁ㅌㅗㅇㅂㅗ -6992
▁KC -6993
▁ㄱㅕㅇㅊㅏㄹㅊㅓㅇ -6994
▁Li -6995
▁AG -6996
ㄱㅗㅇㅎㅘ -6997
▁149 -6998
▁ㅂㅣㄹㅂㅗ -6999
ㄱㅔㄹ -7000
▁ㅍㅣㄹㄹㅏ -7001
▁ㅅㅣㄴㅅㅜ -7002
▁ㄴㅘㅆㄷㅏ -7003
▁ㅅㅓㄴㅇㅣㄴ -7004
OID -7005
ㅈㅗㅁㅁㅜ -7006
▁ㅋㅗㄴㅅㅔㅂㅌㅡ -7007
▁ㅎㅡㅁㅈㅗㅁㅁㅜ -7008
▁ㄱㅕㅇㅂㅗ -7009
ㄹㅡㅁㅇㅏ -7010
▁ㅁㅝㄴㅈㅣ -7011
▁ㅂㅏㄴㄹㅗㄴ -7012
▁1968 -7013
▁ㅈㅓㄴㄱㅘㅇ -7014
▁ㅈㅓㄹㅈㅓㅇ -7015
na -7016
▁ㅇㅝㄴㅎㅏㄴㄷㅏ -7017
▁146 -7018
▁ㅈㅜㅇㄱㅗㅇ -7019
▁ㅎㅏㅇㄱㅗㅇㅅㅏ -7020
▁BEMAN -7021
▁ㅇㅡㅁㅅㅐㄱ -7022
▁ㄱㅗㄹㅁㅗㄱ -7023
▁Fire -7024
▁Dis -7025
▁ㅇㅘㅇㅎㅜ -7026
▁ㅂㅜㄹㅁㅜㄴ -7027
▁STR -7028
▁ㅁㅏㅈㄷㅐ -7029
▁ㅎㅗㄴㄷㅗㅇ -7030
▁ㄷㅏㅁㄱㅕ -7031
▁ㅈㅓㄴㅅㅜ -7032
▁ㅁㅣㄷㅇㅡㅁ -7033
▁ㄴㅏㅁㅎㅏㄴ -7034
▁ㅁㅕㄴㅈㅓㅂ -7035
▁ㅊㅏㅇㄹㅣㅂ -7036
▁ㅇㅕㄴㄱㅡㅁㅅㅜㄹㅅㅏ -7037
ㄹㅗㄴㅈㅡ -7038
▁DJMAX -7039
ㅌㅠㄴ -7040
▁BEMANI -7041
▁ㅅㅜㅇㅂㅐ -7042
▁ㅊㅜㄹㄱㅗ -7043
▁El -7044
▁ㅅㅓㄴㅍㅗ -7045
▁ㅇㅏㅍㅅㅔ -7046
ㄹㅣㅂㅌㅡ -7047
ㅂㅜㅅ -7048
▁260 -7049
ㄷㅗㄹㄹㅕ -7050
▁ㅎㅑㅇㅎㅏㄴㄷㅏ -7051
▁ㅂㅏㅇㅂㅕㄱ -7052
ㄱㅗㄷ -7053
▁Champ -7054
▁ㅊㅜㄹㅇㅕㄴㅈㅣㄴ -7055
▁ㅅㅓㄹㅌㅏㅇ -7056
▁ㅈㅣㅇㅋㅡ -7057
▁ㄸㅏㅁ -7058
ㅌㅡㄹㄹㅣ -7059
▁ㄱㅗㅇㄱㅗ -7060
ㅃㅜ -7061
ady -7062
▁ㄷㅡㄹㄹㅓ -7063
▁ㄷㅗㅇㄴㅏㅁㅇㅏ -7064
▁sm -7065
▁ㅊㅗㅇㅅㅏ -7066
▁ㅂㅏㄱㅅㅏㅇ -7067
▁ㅅㅣㄹㄹㅗ -7068
▁ㅎㅏㄹㅅㅜ -7069
▁ㅇㅝㄴㅎㅐㅆ -7070
▁ㅌㅓㅁ -7071
▁fl -7072
ㄴㅓㄱ -7073
▁ㄱㅘㄴㄱㅘㅇㄱㅐㄱ -7074
▁ㅇㅐㅁ -7075
▁ㅅㅜㄴㅈㅓㅇ -7076
▁ㅇㅣㄹㅎㅘㄴ -7077
▁ㄱㅗㅇㅇㅕㅇ -7078
▁ㅈㅗㅇㅊㅏㄱ -7079
ㅇㅑㅇㅅㅣ -7080
▁ㄷㅗㅇㄱㅓ -7081
▁ㅇㅑㅇㅈㅜ -7082
▁ㅎㅘㄴㅅㅏ -7083
▁ㅅㅜㄱㅈㅜ -7084
▁ㄱㅜㅇㅈㅓㄴ -7085
ㅍㅡㄹㄹㅔㄱ -7086
▁ㅁㅔㄹㄹㅗㄴ -7087
ㅈㅜㅇㄱㅛ -7088
▁ㅈㅣㅂㅍㅣㄹ -7089
▁ㅈㅜㄹㄱㅔ -7090
▁ㄹㅐㄱ -7091
ution -7092
▁ㅁㅜㄴㅅㅣㄴ -7093
▁Ev -7094
▁ㅇㅕㄴㅇㅢ -7095
▁ㅇㅏㄹㄹㅔㄱㅅㅏㄴㄷㅓ -7096
▁ㄱㅗㄹㅊㅣ -7097
UR -7098
▁ㅅㅏㅅ -7099
▁ㅇㅓㅁㅍㅖ -7100
▁ㅈㅜㅇㅅㅣㅁㅈㅣ -7101
▁ㅅㅏㅇㅈㅏㅇ -7102
▁Pre -7103
▁ㅂㅐㅌ -7104
▁kr -7105
▁ㅆㅏㅎㅇㅕ -7106
ium -7107
ㄴㅜㄹ -7108
ㄹㅣㄴㅇㅏ -7109
▁ㅂㅓㄴㄱㅏㄹ -7110
▁ㅂㅏㅇㅇㅓㄴ -7111
▁205 -7112
▁ㄱㅗㅇㅁㅗ -7113
ㄹㅗㄹㄹㅓ -7114
▁ㅇㅑㅇㄷㅐ -7115
▁ㅌㅔㅁㅍㅗ -7116
▁ㅇㅕㅆㅇㅡㅁ -7117
▁ㅎㅜㄴㅎㅜㄴ -7118
ㄸㅜㅀ -7119
ㅃㅜㅁ -7120
ㅍㅡㄹㄹㅔㄱㅅㅡ -7121
▁Grand -7122
ㅇㅑㅇㅅㅐ -7123
▁ㅎㅗㄴㅇㅣㄴ -7124
▁ㅎㅘㄴㅅㅜ -7125
▁ㅂㅕㄹㅊㅣㅇ -7126
▁ㅅㅗㄹㄹㅏ -7127
▁ㅈㅣㅂㅎㅏㅂ -7128
▁ㄱㅡㄴㄹㅕㄱ -7129
▁ㄴㅜㄴㅂㅣㅊ -7130
▁ㅎㅏㄴㅊㅡㅇ -7131
▁ㅇㅏㄱㄹㅕㅇ -7132
▁ㄷㅓㄴㅈㅕㅆ -7133
▁ㅅㅓㅇㅅㅜㄱ -7134
▁Rock -7135
▁Summer -7136
▁550 -7137
ㅌㅣㄹㄹㅓ -7138
▁ㄷㅗㅇㅎㅗ -7139
▁ㄷㅏㅇㄴㅏ -7140
▁ㅇㅏㅍㅁㅕㄴ -7141
▁ㅅㅜㄹㅈㅣㅂ -7142
▁ㅇㅏㅁㅋㅓㅅ -7143
▁ㅂㅏㅇㅎㅗ -7144
▁ㄱㅕㅇㄱㅘ -7145
▁ㅎㅏㅂㅊㅣ -7146
▁ㅂㅜㄱㄱㅜ -7147
▁ㅇㅏㄴㅊㅓㄹㅅㅜ -7148
▁OK -7149
▁211 -7150
▁ㅂㅏㄴㄹㅏㄴㄱㅜㄴ -7151
▁ㄲㅐㅇ -7152
▁1967 -7153
▁ㄷㅟㅅㅁㅕㄴ -7154
▁ㅍㅐㄹ -7155
▁ㄱㅣㅁㅇㅕㄴ -7156
▁147 -7157
▁back -7158
▁ㅅㅏㄹㄹㅏ -7159
▁ㅂㅜㄹㄹㅕ -7160
▁ㅇㅝㄴㅁㅏㅇ -7161
▁ㅈㅓㄱㄹㅣㅂ -7162
▁ㅊㅗㅇㅍㅕㅇ -7163
▁ㅂㅏㅇㅇㅏㄴ -7164
▁Over -7165
▁ㅂㅜㄹㅋㅙ -7166
▁DB -7167
▁ㅌㅐㅅㅇㅣ -7168
▁ㅈㅏㅁㅈㅏ -7169
▁ㅈㅗㄴㄷㅐ -7170
▁ㄱㅕㅇㅈㅣ -7171
▁ㄱㅡㄱㅇㅜ -7172
gain -7173
▁Dance -7174
▁ㄱㅏㄹㄱㅜ -7175
▁ㅍㅜㅇㄱㅣ -7176
▁ㅇㅏㅍㄷㅟ -7177
▁ㅂㅓㄹㄱㅡㅁ -7178
ㅍㅏㄱ -7179
▁ㅂㅜㄹㄹㅣㄹ -7180
ㅈㅓㄴㅌㅡ -7181
▁ㅇㅕㄴㅎㅚ -7182
ㄷㅏㄴㅈㅣ -7183
ㅌㅏㄹㄹㅣㄴ -7184
▁ㅈㅣㄱㄱㅕㄱ -7185
▁day -7186
▁ㄹㅚ -7187
▁VOC -7188
▁ㅂㅗㄴㅇㅢ -7189
▁ㅈㅜㅇㄴㅕㄴ -7190
▁ㅅㅓㄴㄱㅗㄱ -7191
▁RP -7192
▁ㅍㅜㄹㅇㅓ -7193
▁ㅁㅚ -7194
ㅎㅕㄴㅈㅣㄴ -7195
▁ㅇㅣㄹㅍㅜㅁ -7196
▁ㄷㅏㅁㅇㅣㅁ -7197
▁ㅁㅕㅇㅁㅕㅇ -7198
▁now -7199
▁ㅍㅜㄱ -7200
ction -7201
ㅍㅜㄹㅇㅣ -7202
ㅅㅜㄹㅈㅏ -7203
▁ㅂㅕㄹㅈㅏ -7204
▁ㅅㅓㄴㄱㅛ -7205
▁ㅊㅣㅁㅎㅐ -7206
▁ㅍㅕㅇㅊㅏㅇ -7207
▁ㅈㅓㅂㅇㅓ -7208
▁This -7209
▁ㅉㅣㅈㅇㅓ -7210
▁3164 -7211
▁ㅅㅗㄱㄹㅕㄱ -7212
▁ㅎㅏㅁㅈㅐ -7213
▁ㅁㅜㄴㅂㅓㅂ -7214
▁ㄴㅏㄺ -7215
▁ㅂㅏㅇㅎㅘ -7216
▁ㅈㅏㅇㄷㅗㅇ -7217
ne -7218
▁ㅅㅣㅁㅅㅏㅇ -7219
▁ㅈㅜㅇㅎㅏㄱㅅㅐㅇ -7220
▁ㅆㅜ -7221
▁ㄸㅡㄹ -7222
▁ㅇㅡㄴㅁㅔ -7223
▁But -7224
▁ㅇㅕㄴㅁㅏㄹ -7225
▁ㅈㅓㄱㅈㅐ -7226
▁ㅈㅓㅇㅈㅐ -7227
▁ㅅㅓㄱㅅㅏ -7228
▁Gold -7229
▁ㅎㅐㄴㄷㅡㄹ -7230
▁cc -7231
▁ㅋㅡㄹㄹㅣㅂ -7232
▁ㅂㅡㄹㄹㅐ -7233
▁ㅅㅓㄱㅅㅏㅇ -7234
▁ㅍㅜㄹㄹㅣㄴ -7235
▁ㄹㅓㄹ -7236
▁ㅆㅙ -7237
▁ㅂㅏㄱㅅㅏㄹㄴㅏ -7238
irst -7239
▁ㅈㅓㄱㅅㅓㅇ -7240
▁ㅅㅔㄱㅅㅡ -7241
▁ㅅㅓㅇㄱㅏ -7242
ㅇㅔㄹㄹㅏ -7243
ount -7244
▁ㅅㅗㄱㄱㅗㅇ -7245
▁Ste -7246
▁ㅅㅐㅇㅅㅓㄴ -7247
▁SCP -7248
ㄴㅏㅇ -7249
▁ㄱㅕㄱㅈㅓㄴ -7250
ㅌㅓㄴㅌㅡ -7251
▁ㅊㅓㅇㄴㅏ -7252
ㄴㅐㅂ -7253
▁ㅎㅏㅇㅇㅏ -7254
▁ㅇㅝㄴㅈㅏㄱㅈㅏ -7255
▁ㄹㅑ -7256
▁ㅇㅣㄴㅊㅔ -7257
▁ㅅㅓㅇㅂㅣ -7258
▁ㅊㅗㅇㄷㅗㄱ -7259
▁ㄱㅏㅇㅅㅔ -7260
▁ㅅㅗㄴㄲㅗㅂㅎㅣ -7261
▁ㅇㅜㄴㅅㅓㄱ -7262
▁LED -7263
▁ㅊㅏㄹㄹㅣ -7264
▁ㅂㅗㄱㅁㅕㄴ -7265
▁ㅅㅏㅇㅎㅐㅇ -7266
▁ㄲㅡㅌㅈㅏㅇ -7267
▁ㅂㅏㄱㅇㅛㅇ -7268
▁ㅎㅘㅇㅅㅣㄹ -7269
▁ㅈㅏㅇㅍㅜㅇ -7270
ㄹㅐㄴㅊㅏ -7271
▁ㅈㅓㅇㅅㅓ -7272
▁ㄱㅏㄱㄱㅜㄱ -7273
▁Just -7274
▁ㅅㅏㅇㅅㅙ -7275
▁ㅅㅡㄹㄹㅣ -7276
▁ㅇㅐㄴㄷㅣ -7277
▁ㅍㅣㄱㅅㅔㄹ -7278
▁ㅆㅡㄹㅇㅓ -7279
▁ㅂㅗㄴㄱㅏ -7280
ring -7281
▁ㄷㅗㅇㄴㅕㄴ -7282
ㅃㅜㄹ -7283
let -7284
▁Wii -7285
ㄷㅠㄹㄹㅓㅁ -7286
▁ㅍㅔㄴㄷㅠㄹㄹㅓㅁ -7287
▁ㅇㅕㅇㄷㅡㅇㅍㅗ -7288
eng -7289
▁FL -7290
ㅅㅓㄱㅁㅣㄴ -7291
▁ㅅㅓㅇㄱㅣ -7292
▁ㄸㅒ -7293
▁ㅇㅕㄹㅅㅔ -7294
▁ㅌㅗㅇㅎㅐㅇ -7295
▁ㅂㅕㅇㅈㅏㅇ -7296
ㅌㅗㅇㅅㅏ -7297
▁ㅋㅡㄹㄹㅓ -7298
▁ㅈㅓㄴㅇㅕㄹ -7299
▁ㅈㅏㅇㅈㅔ -7300
▁ㄴㅏㅁㅁㅣ -7301
▁ㅅㅣㄹㄹㅜ -7302
▁ㅅㅣㄹㄹㅕㄱㅈㅏ -7303
ㅁㅜㄴㅅㅓ -7304
▁pt -7305
▁ㅅㅗㅁㅆㅣ -7306
▁ㅂㅏㄱㅊㅏㄴ -7307
▁OR -7308
▁ㅁㅜㄴㄱㅗ -7309
▁ㄴㅐㅂ -7310
▁ㄱㅏㅁㅈㅓㄴ -7311
▁ㅂㅕㄹㅈㅓㅁ -7312
▁HG -7313
▁ㅇㅣㄴㅇㅓ -7314
▁ㄴㅗㅇㅁㅣㄴ -7315
▁ㅇㅜㄴㅂㅏㄴ -7316
▁ㅂㅏㄱㅁㅕㅇㅅㅜ -7317
▁ㅇㅕㅁㅅㅐㄱ -7318
▁VOCAL -7319
▁ㅂㅗㄹㄲㅏ -7320
▁ㄷㅏㄴㅅㅣㄱ -7321
▁HK -7322
▁ㅂㅏㅇㄱㅗㅇ -7323
▁ㄱㅕㄱㄱㅣ -7324
▁ㄱㅏㅇㅈㅓㅁㄱㅣ -7325
▁204 -7326
▁ㅁㅐㅁ -7327
ㅇㅏㅇㅅㅡ -7328
▁ㄴㅓㄱㄴㅓㄱ -7329
▁ㅅㅏㅇㄱㅗㅇ -7330
▁ㅅㅣㅁㅎㅘ -7331
▁ㄷㅗㅇㅁㅔ -7332
▁ㄷㅗㄱㄹㅣㅂㅇㅜㄴㄷㅗㅇ -7333
▁ㄷㅏㄹㄹㅏㅆ -7334
▁ㅁㅏㄹㅇㅏ -7335
▁ㅅㅣㄴㅂㅕㅇ -7336
▁ㄹㅐㅂㅌㅓ -7337
▁ㅈㅣㄹㅎㅘㄴ -7338
▁ㅁㅏㄹㄴㅕㄴ -7339
▁ㅇㅣㄴㅍㅡㄹㄹㅔ -7340
ina -7341
▁166 -7342
▁Can -7343
ㅈㅔㄹㄹㅔ -7344
ㅃㅐ -7345
▁Korea -7346
▁ㄱㅕㄱㄹㅣ -7347
▁ㄱㅗㅇㅅㅗㄴ -7348
▁CA -7349
▁DX -7350
▁ㄷㅝㅆ -7351
▁SL -7352
ㅅㅓㄹㄱㅏ -7353
▁ㅂㅏㅇㄱㅘ -7354
▁ㅋㅗㄱ -7355
ㅈㅏㅇㅇㅣ -7356
▁ㄱㅕㅇㅅㅜㄴ -7357
▁ㅅㅣㅁㅎㅐㅆ -7358
▁news -7359
▁ㅇㅝㄹㄷㅡㅇ -7360
▁ㅊㅐㄱㅇㅣㅁㅈㅣ -7361
▁ㅂㅏㄱㅈㅐ -7362
ㅅㅡㅇㅁㅣㄴ -7363
▁TW -7364
▁ㄲㅗㅂㅎㅣㄴㄷㅏ -7365
▁1966 -7366
▁ㅇㅣㄴㅊㅓㄴㄱㅘㅇㅇㅕㄱㅅㅣ -7367
ㅈㅓㄱㄷㅏㄴ -7368
▁MHz -7369
▁Sec -7370
▁ㅃㅗㅁ -7371
▁ㅎㅘㄱㄱㅗ -7372
▁ㄱㅘㅇㅈㅓㄴㅅㅏ -7373
▁ㄴㅔㄱㅅㅓ -7374
▁ㅈㅡㅇㅇㅣㄴ -7375
▁ㅈㅣㄹㄹㅣ -7376
▁ㅈㅓㄴㅇㅕㅁ -7377
▁ㅎㅗㄹㄷㅣㅇ -7378
▁ㅈㅓㅇㅎㅕㅇ -7379
▁ㅇㅝㄴㅈㅗㅇ -7380
ㄱㅕㄹㅅㅡㅇ -7381
▁ㅅㅗㄱㅍㅕㄴ -7382
DS -7383
ㅌㅜㄱ -7384
▁ㅁㅗㄱㅈㅐ -7385
▁ㄱㅘㅇㅅㅗㄱ -7386
▁ㅂㅜㄹㅎㅘ -7387
▁ㅅㅓㅇㅅㅜ -7388
▁ㅌㅓㅇ -7389
▁Music -7390
▁ㅈㅓㄴㅂㅏㄴㅈㅓㄴ -7391
▁ㅂㅣㄴㅂㅓㄴ -7392
ally -7393
▁ㄱㅕㅇㅈㅣㄹ -7394
▁ㄱㅏㅆㅇㅡ -7395
▁ㅎㅏㄴㄱㅏㅇ -7396
▁ㅁㅜㅇㅊㅕ -7397
ㄸㅗㄱ -7398
▁ㅁㅐㄱㄹㅏㄱ -7399
▁At -7400
ㄱㅕㄱㅈㅡㅇ -7401
ㅍㅕㅇㄱㅏ -7402
▁ㅂㅣㄴㅌㅡㅁ -7403
▁ㅊㅏㅇㅅㅔ -7404
▁650 -7405
▁ㄴㅓㅁㅅㅏ -7406
ㅂㅗㄱㄹㅕㄱ -7407
▁ㅁㅕㅇㄱㅗㄱ -7408
ㅁㅏㅇㅊㅕ -7409
▁ㅎㅏㅂㅂㅓㅂ -7410
▁ㅎㅣㄹㄹㅣㅇ -7411
▁ㅇㅝㄴㅎㅠㅇ -7412
▁Ep -7413
ㅇㅡㄱ -7414
▁ㄲㅡㅌㄴㅏㅆ -7415
▁Live -7416
▁ㄱㅡㄴㅇㅟ -7417
ERO -7418
ART -7419
▁Comm -7420
▁ㅅㅗㄱㅂㅏㄱ -7421
▁ㅇㅣㄹㅅㅏㅁ -7422
ㄱㅏㄱㅎㅕㅇ -7423
▁ㅂㅓㅁㅎㅐㅇ -7424
▁ㅅㅣㄴㅇㅣㅁ -7425
▁ㅅㅏㄹㅇㅣㄴㅁㅏ -7426
▁GG -7427
ㅁㅏㄹㄹㅕ -7428
▁ㅇㅘㅇㅈㅘ -7429
▁ㄷㅏㅇㄱㅜㄱ -7430
▁ㅇㅣㄴㅌㅔㄹ -7431
ㅎㅘㅇㅅㅐㄱ -7432
▁ㄱㅗㅇㅊㅓㄴ -7433
▁ㅈㅓㄴㄷㅜ -7434
▁ㅂㅏㄱㅇㅕㅇ -7435
▁ㅎㅗㄴㅎㅏㅂ -7436
▁ㄱㅘㄴㅈㅓㄹ -7437
▁GR -7438
▁get -7439
ㅇㅣㄴㅈㅓㄴ -7440
▁...... -7441
▁ㅍㅕㄴㄱㅕㄴ -7442
▁ㄷㅏㄹㄹㅐ -7443
son -7444
▁ㅁㅏㄴㄹㅜ -7445
ㄷㅗㅇㅎㅏ -7446
▁MX -7447
▁ㅇㅗㄴㅁㅗㅁ -7448
▁ㅂㅜㄴㅎㅗㅇㅅㅐㄱ -7449
▁ㄷㅏㄴㅁㅏㄹ -7450
ㅋㅣㅂ -7451
▁ㄱㅕㅇㄱㅏㅁ -7452
▁ㄱㅜㄹㄹㅕ -7453
▁ㅇㅣㅂㄱㅜㄱ -7454
▁ㄱㅏㅁㄱㅣ -7455
▁ㅈㅣㄱㅅㅗㄱ -7456
ㅋㅗㅂㅌㅓ -7457
▁ㄱㅗㅇㅅㅡㅂ -7458
▁ㄴㅗㄹㄹㅏㄴ -7459
use -7460
▁ㄹㅠㄱ -7461
▁ㄲㅣㄴ -7462
▁ㅅㅗㄴㅌㅗㅂ -7463
▁ㅁㅕㄹㅈㅗㅇ -7464
ㅈㅜㅁㅁㅏ -7465
▁ㅂㅏㅇㅅㅗㅇㅇㅣㄴ -7466
▁ㅂㅏㄹㅎㅕㄴ -7467
▁ㄹㅗㄹㄹㅣㅇ -7468
▁ㅅㅔㅅㅉㅐ -7469
▁ㄱㅝㄴㄴㅡㅇ -7470
▁GN -7471
ㅎㅚㄱㅅㅏ -7472
▁ㅁㅗㅂㅅㅣ -7473
ㄷㅡㄹㅇㅣㄹ -7474
▁ㄱㅜㄴㄹㅣㅁ -7475
▁gr -7476
▁ㅅㅐㄴㅍㅡ -7477
▁EBS -7478
▁Su -7479
▁ㅇㅣㄹㄹㅖ -7480
▁ㄷㅗㅇㅂㅜㄱ -7481
▁ㅅㅓㅇㅈㅣㄱㅈㅏ -7482
▁DNA -7483
▁Leg -7484
itch -7485
▁ㅊㅓㅅㄴㅏㄹ -7486
▁ㄱㅕㄱㅊㅣㅁ -7487
▁ㄱㅣㅁㅎㅕㅇ -7488
▁ㄷㅏㄹㅂㅣㅊ -7489
▁ㅈㅣㄴㅈㅓㅇㅎㅏㄴ -7490
▁1962 -7491
▁ㄸㅏㄹㄱㅣ -7492
▁ㅇㅏㄱㅇㅓ -7493
▁ㄱㅣㄹㄱㅓ -7494
▁169 -7495
▁ㅂㅏㄱㅊㅣ -7496
▁Af -7497
attle -7498
▁ㅌㅗㅇㅅㅜ -7499
▁ㄴㅣㄱㅅㅡ -7500
▁ㅂㅏㄱㄱㅕㅇ -7501
▁ㄷㅏㄹㄱ -7502
▁ㅈㅣㄱㅁㅜ -7503
▁Res -7504
inn -7505
▁MSL -7506
▁Power -7507
▁ㅌㅏㄴㅌㅏㄴ -7508
▁ㅈㅓㄴㄹㅖ -7509
▁ㅊㅜㄴㅊㅓㄴ -7510
▁ㅅㅗㄹㄹㅣ -7511
▁ㅍㅗㅇ -7512
▁Hard -7513
ㅆㅐ -7514
ana -7515
▁1800 -7516
▁ㅊㅐㄱㅈㅓㅇ -7517
▁ADV -7518
▁ㅌㅗㅇㅈㅡㅇ -7519
▁BF -7520
▁ㄱㅡㅁㅅㅐㄱ -7521
▁ㅁㅜㄲㅇㅕ -7522
▁ㄱㅣㅁㅇㅝㄴ -7523
▁ㄷㅗㅇㄷㅡㅇ -7524
▁ㅈㅏㅇㅇㅝㄴ -7525
ㅃㅕ -7526
▁ㅁㅜㄴㅇㅓ -7527
75 -7528
▁ㄱㅘㅇㄷㅐ -7529
ㅑㄹ -7530
tr -7531
▁ㅈㅓㅇㅎㅏㄴ -7532
▁ㅇㅣㄴㅅㅙ -7533
▁ㅂㅓㄴㅅㅣㄱ -7534
▁ㄷㅏㄴㄱㅘ -7535
▁ㅎㅕㄴㅅㅏㅇㄱㅡㅁ -7536
▁ㅆㅗㄴㄷㅏ -7537
▁ㅂㅗㄹㅌㅔㄱㅅㅡ -7538
▁Sing -7539
▁but -7540
▁ㅅㅣㄴㅈㅓㅇ -7541
▁ㅈㅣㄴㄱㅜ -7542
▁` -7543
ㄸㅡㄱㅇㅣ -7544
▁Ma -7545
▁ARM -7546
▁ㅅㅣㄹㅅㅡㅂ -7547
▁VOCALOID -7548
▁++ -7549
▁VR -7550
▁ㅍㅣㄹㅌㅓ -7551
▁ㅈㅓㅁㅅㅏ -7552
▁Che -7553
▁ㅊㅗㅇㅇㅕㄹ -7554
▁Life -7555
ㅊㅜㄹㅇㅐㄱ -7556
▁ㅊㅓㄴㅁㅏ -7557
▁FB -7558
▁ㅅㅏㅁㅊㅗㄴ -7559
▁ㅊㅣㄴㅁㅗㄱ -7560
▁Fem -7561
▁Master -7562
ㅉㅗㅊ -7563
ern -7564
▁ㅈㅣㄴㅅㅜ -7565
▁ㅇㅗㄻㄱㅕㅆ -7566
▁MR -7567
▁ㅇㅖㄴ -7568
ㄱㅓㅅㅈㅓ -7569
ars -7570
ㅇㅗㅁ -7571
ㅁㅗㅅㅁㅣ -7572
▁ㅂㅕㅇㅅㅏㄹㅌㅏ -7573
▁ㅍㅏㄴㄱㅝㄴ -7574
▁ㅈㅡㅇㅂㅏㄹ -7575
asy -7576
▁ㅎㅗㅇㅈㅣㄴㅎㅗ -7577
▁ㅊㅓㄴㄱㅗㅇ -7578
▁Rem -7579
▁ㅅㅔㅂ -7580
▁ㅇㅕㄹㄹㅏㅁ -7581
▁ㅇㅡㅇㅇㅝㄴㄱㅏ -7582
▁RC -7583
▁ㅅㅣㅁㅁㅜㄴ -7584
▁UF -7585
rain -7586
▁im -7587
▁ㄷㅏㄱㅊㅣ -7588
▁KTX -7589
ㅈㅏㄶ -7590
▁ㅈㅓㅇㅈㅓㅇ -7591
ㅅㅣㄹㄹㅣ -7592
▁Out -7593
▁ㅅㅗㄱㅇㅣ -7594
▁ㅁㅗㄱㄷㅗㅇ -7595
▁ㄴㅏㅁㅂㅏㄹ -7596
OO -7597
to -7598
▁ㄱㅗㅇㅈㅗㄴ -7599
▁ㅎㅏㅂㅊㅣㄴ -7600
▁UI -7601
▁co -7602
UE -7603
▁man -7604
24 -7605
▁ㅈㅔㄱ -7606
▁ㅂㅜㄹㅍㅕㅇ -7607
▁ㅊㅜㅇㅊㅓㅇㅂㅜㄱㄷㅗ -7608
ㅅㅛㅂ -7609
ㅌㅡㄹㄹㅣㄴ -7610
▁ㅂㅏㄱㅌㅏㄹ -7611
▁ㅅㅓㄴㅇㅜ -7612
ㄴㅓㄹㄷㅡ -7613
▁ㅁㅕㅇㄴㅏ -7614
▁ㄷㅗㄹㄱㅕㄱㅅㅗ -7615
IE -7616
TC -7617
▁ㅁㅜㄹㄱㅏ -7618
▁ㅊㅣㄴㅇㅟ -7619
▁ㅇㅛㅇㄱㅏㅁ -7620
ㅇㅛㅇㅅㅗ -7621
▁ㄷㅗㅇㅁㅜㄴ -7622
▁ㅂㅏㄹㄱㅘㅇ -7623
▁ㅈㅏㅇㅎㅏㄱ -7624
▁Lo -7625
cl -7626
XT -7627
▁ㅈㅜㄴㄱㅗㅇ -7628
ㄹㅔㄴㅅㅡ -7629
▁ㅈㅜㄹㅈㅜㄹ -7630
▁ㄱㅏㄹㄹㅐ -7631
▁ㅂㅗㄱㅇㅛㅇ -7632
▁ㅁㅏㅇㄹㅕㅇ -7633
▁ㅎㅗㅁㅈㅡ -7634
▁ㅎㅏㄱㅈㅓㅁ -7635
▁ㄷㅡㄱㅈㅓㅁㅈㅏ -7636
ㅈㅓㅇㅅㅣㄱ -7637
▁ㄷㅡㅇㄱㅛ -7638
▁ㅈㅣㄴㅅㅓㅇ -7639
ㄷㅡㄹㅁㅗㄱ -7640
▁ㅊㅓㄴㄷㅜㅇ -7641
▁ㅎㅟㅂㅆㅏ -7642
ield -7643
▁ㄱㅡㄱㅅㅗ -7644
▁ㄱㅏㅇㅌㅣㅁ -7645
▁End -7646
▁151 -7647
▁ㅂㅏㄱㅎㅐ -7648
ㅅㅓㅇㄴㅕㄴ -7649
▁"" -7650
ㅋㅗㄱ -7651
▁ㅇㅣㄹㅇㅣㄹㅇㅣ -7652
▁ㄷㅗㄹㅂㅗ -7653
▁ㅃㅗㅇ -7654
ㅈㅣㅇㅇㅓ -7655
▁ㅈㅣㄴㄹㅣ -7656
▁1940 -7657
▁ㅅㅗㅇㅊㅜㄹ -7658
ㄹㅏㄴㅌㅡ -7659
▁ㄴㅗㅇㄹㅏㄱ -7660
ㅊㅜㄴㄷㅏ -7661
riend -7662
▁ㄱㅘㄴㅈㅣㄱ -7663
▁ㄷㅗㅇㅈㅗㄱ -7664
▁ㅈㅓㄴㅅㅏㄴ -7665
▁ㅎㅏㄴㅅㅜㅁ -7666
▁ㄷㅗㅇㄹㅗ -7667
ㅇㅣㅍ -7668
▁Hell -7669
▁256 -7670
▁ㅂㅜㄱㅇㅏ -7671
ㅇㅓㅇ -7672
▁ㅇㅑㅌ -7673
▁ㅁㅗㄱㅇㅛ -7674
▁ㅇㅣㅂㅇㅑㅇ -7675
▁ㅇㅕㅇㅈㅣㄴ -7676
▁ㄸㅗㄱㄸㅗㄱ -7677
▁ㅇㅏㄹㅂㅔ -7678
▁ㅅㅡㅂㄱㅘㄴ -7679
▁ㅅㅓㄴㄷㅐ -7680
ㄷㅡㄷ -7681
▁ㄷㅗㄱㅅㅓ -7682
▁ㅁㅏㅇㅎㅐ -7683
▁Fi -7684
ㅇㅛㅇㄷㅗㄹㅇㅣ -7685
▁Miss -7686
▁night -7687
▁ㅈㅣㄴㅎㅐㅇㅈㅏ -7688
33 -7689
ㄹㅗㄴㅌㅡ -7690
▁ㅅㅏㄴㅊㅐㄱ -7691
▁ㄷㅗㅇㅈㅗ -7692
▁ㅎㅗㅇㅅㅓㅇ -7693
▁ㄱㅡㅁㅎㅗ -7694
▁ㅈㅜㄴㄱㅕㄹㅅㅡㅇ -7695
▁Air -7696
▁ㅅㅓㄹㅎㅘ -7697
atic -7698
ㅃㅣ -7699
▁ㅋㅝㄹㅋㅓㅁ -7700
ㄴㅗㄹㅇㅣ -7701
ㅈㅓㄱㅈㅏ -7702
▁ㅈㅏㄹㄹㅕ -7703
▁ㅈㅓㄴㅅㅗㄱ -7704
▁ㄱㅏㅇㅅㅜ -7705
ㅁㅜㄴㅌㅡ -7706
▁ㅁㅏㅇㅎㅏㄴ -7707
ittle -7708
▁ㅋㅔㄹㄹㅣ -7709
▁ㅇㅕㅇㄴㅏㅁ -7710
ㅎㅐㅇㅇㅓ -7711
▁ㄱㅏㄴㅅㅓㄴ -7712
ㅋㅡㄹㄹㅣ -7713
▁ㅎㅐㅇㅂㅏㅇㅂㅜㄹㅁㅕㅇ -7714
▁sc -7715
▁ㄷㅐㄴㅅㅓ -7716
▁just -7717
ㅌㅡㄹㄹㅏ -7718
▁ㅂㅓㄹㄹㅣ -7719
▁ㄹㅓㄴㄴㅣㅇ -7720
ㅁㅐㅅ -7721
▁ㅎㅏㄴㅂㅏㄹ -7722
▁ㅈㅓㅇㅎㅘㄱㄷㅗ -7723
▁POP -7724
▁ㄴㅏㄴㄱㅏㅁ -7725
ㄴㅘ -7726
▁ㅇㅗㅂㅌㅣ -7727
▁Hy -7728
▁ㅌㅏㄹㄷㅏㅇ -7729
▁ㄱㅜㄱㅁㅣㄴㄷㅏㅇ -7730
▁ㅂㅓㄹㅇㅣㄴㄷㅏ -7731
▁ㅂㅣㄹㄹㅏ -7732
▁ㄱㅗㅇㄱㅘ -7733
ㅇㅜㄴㄷㅐ -7734
▁999 -7735
▁ㄱㅕㅇㅅㅓㄴ -7736
▁ㅂㅓㄹㅇㅕ -7737
▁ㅇㅏㄱㅇㅢ -7738
▁ㅁㅏㄴㅎㅐㅇ -7739
▁ㅅㅣㄴㅋㅏㄴ -7740
▁ㅇㅏㅁㅇㅜㄹ -7741
▁ㅌㅔㅁㅍㅡㄹ -7742
ㅋㅕㅆㅇㅡ -7743
▁Vo -7744
▁ㅈㅣㅍ -7745
▁ㄴㅗㅇㅎㅕㅂ -7746
▁ㅅㅜㄴㄱㅛ -7747
▁ㅇㅕㄴㅂㅏㄹ -7748
▁1964 -7749
▁ㅈㅓㅂㅈㅓㅁ -7750
▁ㅈㅣㄱㄱㅕㄹ -7751
28 -7752
ㅊㅗㅇㄹㅣ -7753
▁ㄱㅡㄹㄹㅏ -7754
▁ㅅㅐㄹㄹㅓ -7755
ㅇㅜㄴㅌㅣ -7756
▁ㅂㅏㄱㅈㅜㄴ -7757
▁Mod -7758
▁ㄸㅗㄹ -7759
▁1965 -7760
▁ㄱㅕㄹㅅㅏ -7761
ㅇㅗㄹㄹㅏㅆ -7762
▁ㅅㅣㄴㅋㅏㄴㅅㅔㄴ -7763
ㅈㅓㅇㅅㅣㄴ -7764
▁ㅇㅣㄴㅂㅔㄴㅌㅗ -7765
▁ㅇㅣㅂㅎㅣㄹ -7766
▁380 -7767
▁ㅈㅡㅇㄱㅣ -7768
▁Di -7769
▁ㅈㅓㅇㅋㅡ -7770
▁SG -7771
▁what -7772
▁ㅎㅑㅇㄱㅣ -7773
▁1944 -7774
▁ㅅㅣㄹㅇㅓㅂ -7775
▁Pv -7776
▁q -7777
▁OPS -7778
▁ㅁㅏㄴㄷㅡㄴㄷㅏ -7779
ㅍㅡㄹㄹㅐ -7780
▁ㅂㅓㅂㅎㅏㄱ -7781
▁ㅂㅜㄴㅈㅏㅇ -7782
▁YOU -7783
▁Sy -7784
ㅁㅐㄴㄷㅓ -7785
▁ㅍㅕㄴㅎㅐ -7786
▁ㄱㅗㅇㅇㅑㄱ -7787
▁ㄷㅗㅇㅊㅔ -7788
▁ㄱㅕㅇㅈㅐㅇㅈㅏ -7789
LS -7790
▁ㅎㅔㄱ -7791
▁ㄱㅡㄴㅅㅓㅇ -7792
▁Ang -7793
▁1930 -7794
mania -7795
ㅇㅓㄹㄱㅓ -7796
▁ㄱㅡㅂㅎㅣ -7797
▁ㅁㅣㄹㄹㅏ -7798
▁ㅍㅣㄱㅇㅓㅂ -7799
ㅋㅡㄹㄹㅓㅂ -7800
▁ㄷㅗㅇㄱㅏㅂ -7801
▁tvN -7802
▁ㅇㅡㄴㅎㅖ -7803
ony -7804
▁ㅇㅙㄴㅁㅏㄴ -7805
▁ㄷㅏㄴㅈㅓㅇ -7806
▁ㅋㅣㅇㅅㅡ -7807
▁ㅊㅜㅇㅂㅜㄱ -7808
▁ㄷㅏㅇㅊㅓㅁ -7809
▁ㅅㅣㄴㄷㅐ -7810
▁OB -7811
ㄴㅏㄱㅇㅔ -7812
▁ㄴㅏㅁㅈㅏㄱ -7813
▁ㄴㅐㅇㄱㅏㄱ -7814
▁ㅎㅏㄴㄷㅗ -7815
ㅅㅡㄹㄹㅣㅁ -7816
▁ㅍㅡㄹㄹㅜ -7817
▁ㄱㅡㅁㅎㅘ -7818
ㅇㅜㄹㄹㅣㄴㄷㅏ -7819
▁ㄷㅏㄴㅅㅗㄱ -7820
▁ㅇㅑㅇㅂㅗ -7821
▁ㅎㅏㄴㅎㅐ -7822
▁ㅅㅣㄹㅁㅕㅇ -7823
▁ㅅㅛㄴ -7824
▁6000 -7825
▁ㅅㅏㄹㅅㅏㅇ -7826
▁King -7827
▁XXX -7828
▁ㄷㅗㅇㅇㅛ -7829
▁STER -7830
ㄷㅗㅇㅇㅝㄴ -7831
ㄷㅣㅈㅎㅣ -7832
▁ㅈㅣㄱㅇㅕㄱ -7833
▁ㅊㅜㄹㄱㅡㄴ -7834
▁0000 -7835
▁ㅍㅕㄴㅇㅏㄴ -7836
▁ㅅㅛㅅ -7837
▁ㅈㅏㄴㄷㅣ -7838
▁ㄱㅏㅁㅎㅐㅇ -7839
ma -7840
ㅌㅣㄴㅇㅓ -7841
▁ㅂㅓㅂㅇㅏㄴ -7842
▁ㅈㅣㅇㅈㅣㅇ -7843
▁ㅅㅓㅇㅇㅕㄱ -7844
▁ㅇㅝㄹㄱㅡㅂ -7845
▁ㄱㅘㅇㅌㅏㄹ -7846
▁ㄷㅗㅇㅌㅏㄱ -7847
▁ㄷㅗㄹㅇㅣ -7848
▁ㄱㅓㄹㅊㅣㄴ -7849
▁ㅇㅕㅇㄷㅗㅇ -7850
ㄷㅏㄴㅈㅜ -7851
▁ㅊㅜㄹㅈㅜㅇ -7852
▁ㅌㅏㄴㄷㅏ -7853
▁ㅇㅏㄴㅂㅗ -7854
▁ㅍㅏㄹㅉㅣ -7855
▁Cy -7856
▁ㅍㅣㄹㄹㅣㅂ -7857
▁IDOL -7858
▁ㅂㅓㄴㅌㅡ -7859
▁ㅋㅗㄴㅌㅣ -7860
ㅎㅗㅂ -7861
▁white -7862
▁ㅂㅏㄴㄱㅜㄴ -7863
ㅎㅞ -7864
▁ㅅㅏㅇㅇㅛㅇ -7865
ㅈㅣㄴㅇㅕㅇ -7866
▁ㅎㅏㄱㅅㅜㄹ -7867
▁ㅅㅑㄴ -7868
▁ㅎㅜㄱ -7869
ㄹㅟ -7870
▁ㄴㅗㄹㄹㅏㅆ -7871
ㅆㅏㄱ -7872
ㅅㅣㅁㅈㅏㅇ -7873
▁ㄷㅓㄴㅈㅣㄴㄷㅏ -7874
be -7875
▁ㅋㅗㄹㄷㅡ -7876
▁ㄹㅐㄴㅌㅓㄴ -7877
▁ㅅㅔㄴㅌㅣ -7878
▁MT -7879
▁ㅅㅓㄹㅂㅣ -7880
▁ㅊㅐㄹㄹㅣㄴㅈㅓ -7881
▁ㅇㅣㄹㅂㅗㄴㅅㅣㄱ -7882
▁ㄱㅗㅇㅈㅏ -7883
▁ㅎㅏㄱㅂㅓㄴ -7884
▁ㅇㅜㄹㄹㅕ -7885
▁ㅎㅏㄴㅌㅏㄴ -7886
▁131 -7887
ual -7888
▁ㅈㅜㅇㅈㅓㄴㅊㅏ -7889
ㅈㅝㅆ -7890
▁Run -7891
▁ㅎㅐㅇㅎㅏ -7892
▁ㄱㅏㄹㄹㅣㄴㄷㅏ -7893
▁ㄴㅔㄱㅅㅡㄴ -7894
▁ㅊㅣㄴㅈㅓㅇ -7895
▁ㅅㅏㅇㄱㅏ -7896
▁ㅇㅏㄴㅅㅓㅇ -7897
▁School -7898
ㄴㅣㅂㄴㅣ -7899
▁ㅇㅡㅁㅈㅜ -7900
▁ㅎㅏㅁㅍㅗ -7901
▁ㅇㅏㄴㅅㅏㄴ -7902
ecial -7903
▁ㅇㅣㄹㅈㅓㄹ -7904
▁ㄷㅗㅇㅇㅣㄴㅈㅣ -7905
ㄱㅗㄱㄷㅗㅇ -7906
▁ㅊㅏㅇㅂㅕㅇ -7907
Fat -7908
▁ㄷㅗㅇㅈㅣ -7909
▁ㅇㅝㄴㅎㅘㄹ -7910
▁MASTER -7911
▁ㄱㅜㄴㅂㅗㄱ -7912
ㅌㅓㄱ -7913
▁PVP -7914
ㅋㅠㄹㄹㅏ -7915
▁ㅂㅜㄹㄹㅗ -7916
▁ㅅㅓㄹㅅㅏㅇㄱㅏ -7917
▁ㅇㅣㅂㅎㅏㄱㅅㅣㄱ -7918
▁ㅃㅏㄹㅇㅏ -7919
▁ㄴㅗㅇㅅㅏ -7920
▁ㄴㅏㅁㄷㅗㅇ -7921
▁ㅈㅓㄴㅅㅔ -7922
▁ㅁㅣㄴㅈㅓㅇ -7923
▁ㅇㅕㄱㅂㅕㅇ -7924
▁1600 -7925
▁ㅈㅓㄴㄹㅣ -7926
▁Sound -7927
ane -7928
▁Rec -7929
▁1920 -7930
ㅇㅓㅍ -7931
ㅅㅈㅣㅂ -7932
▁ㅅㅣㄴㅎㅡㅇ -7933
▁ㅁㅣㅅ -7934
▁Femme -7935
▁ㅂㅓㄱㅅㅡ -7936
▁Art -7937
▁ㅅㅣㄹㅎㅘㅇ -7938
▁don -7939
ope -7940
▁BAS -7941
ㅋㅐㄴㄷㅡㄹ -7942
ㅁㅗㄳ -7943
▁ㅅㅓㄹㄹㅔ -7944
▁ㅈㅓㄴㅍㅗㄱ -7945
▁ㅊㅜㄹㅁㅗㄹ -7946
▁ㅈㅏㅇㅍㅕㄴ -7947
ㅆㅗㄹ -7948
ㄱㅜㄱㅈㅜ -7949
▁ㄲㅐㄹ -7950
▁ㅆㅗㄹㅆㅗㄹ -7951
▁ㄱㅣㅁㅇㅣㄹㅅㅓㅇ -7952
▁ㅈㅓㄴㅎㅐㅆ -7953
ret -7954
▁ㅂㅗㄹㄹㅠㅁ -7955
ㄹㅡㄴㄷㅔ -7956
▁LCK -7957
▁EA -7958
▁ㅎㅓㅅㅅㅗ -7959
▁ㅁㅣㄹㄹㅣㄴㄷㅏ -7960
ㅅㅞ -7961
ㄷㅏㄴㅊㅔ -7962
▁ㅈㅓㄴㄱㅘ -7963
▁UFC -7964
▁Cat -7965
▁ㅎㅗㄱㅅㅏ -7966
ㅈㅜㅇㅎㅣ -7967
▁ㅁㅓㄱㅂㅏㅇ -7968
ision -7969
▁ㅁㅏㄴㄹㅛ -7970
▁ㄱㅡㅂㄱㅣ -7971
▁Arm -7972
▁ㅎㅘㄱㄹㅣㅂ -7973
▁ㅎㅕㅇㅍㅕㄴㅇㅓㅄ -7974
▁ㅁㅗㅅㅎㅐㅆㅇㅡ -7975
▁way -7976
▁ㅅㅓㄴㅂㅏㅇ -7977
▁ㅁㅗㄱㅈㅓㄱㅈㅣ -7978
▁ㅈㅜㅇㄱㅕㄴㅅㅜ -7979
Fatale -7980
▁FemmeFatale -7981
▁ㅂㅜㅌㅇㅕㅆ -7982
▁ㅇㅛㅇㅁㅐㅇ -7983
▁ㅆㅜㄱ -7984
ㄱㅜㅇㅎㅘ -7985
▁ㄱㅏㅁㅎㅣ -7986
▁ㅂㅏㄴㅈㅏ -7987
▁SV -7988
▁ㄹㅓㅁㅂㅡㄹ -7989
▁ㅇㅣㅁㅇㅝㄴ -7990
▁Ge -7991
ㄷㅣㄱ -7992
▁ㅅㅗㄴㅇㅏ -7993
ㅇㅓㄴㅁㅐㄴ -7994
▁ㅅㅓㅇㅎㅕㅇ -7995
▁ㅅㅣㄴㅅㅣ -7996
elf -7997
ㄷㅓㅍ -7998
▁ㅇㅕㄹㅇㅏㄱ -7999
▁ㅅㅡㅇㄹㅕ -8000
▁UM -8001
▁ㅈㅣㄹㄹㅓ -8002
▁ㅊㅓㅁㄷㅏㄴ -8003
▁ㄱㅜㄱㅅㅏㄴ -8004
▁ㅇㅕㄹㄷㅡㅇ -8005
▁ㄱㅘㅇㅂㅗㄱ -8006
▁ㅅㅣㄹㅈㅓㅇ -8007
we -8008
▁ㄱㅣㅁㅁㅕㅇ -8009
ㅇㅕㄹㅅㅏ -8010
▁ㄲㅐㅇㅍㅏㄴ -8011
str -8012
▁ㅎㅏㄱㅎㅚ -8013
▁IG -8014
▁Rev -8015
ㄲㅜㄴㄷㅏ -8016
▁ㄱㅏㅇㅍㅏㄴ -8017
▁Yeah -8018
▁ㄹㅏㄱㅅㅡ -8019
ㄷㅙ -8020
▁ㅅㅏㅇㅊㅔ -8021
▁ㄱㅏㄹㄱㅗ -8022
▁ㅁㅣㄹㄹㅏㄴ -8023
▁ㅂㅏㄴㄱㅣ -8024
ㄲㅟㄹ -8025
▁ㅅㅑㅁ -8026
▁ㅂㅐㄱㅎㅏㅂ -8027
▁ㅂㅏㄱㄱㅕㄱ -8028
▁ㅇㅕㄴㅂㅣ -8029
ational -8030
ㅂㅐㄴㅅㅡ -8031
ㅇㅛㅇㅎㅐ -8032
ouse -8033
▁ㅈㅣㄱㄱㅜ -8034
ㅍㅡㄴㅁㅠ -8035
▁ㅍㅏㅂㅍㅡㄴㅁㅠ -8036
▁ㅈㅓㅂㄱㅡㄴㅅㅓㅇ -8037
ㄱㅡㅂㅈㅓㄱ -8038
▁ㄸㅏㄱㄸㅏㄱ -8039
▁ㅂㅗㄴㅅㅓㅇ -8040
ㅁㅕㅇㅅㅏ -8041
▁ㅈㅡㅇㄱㅝㄴ -8042
▁ㅇㅝㄴㅎㅗ -8043
▁Order -8044
▁ㄱㅣㅁㅈㅓㄴ -8045
appy -8046
▁ㄱㅣㅁㅎㅢ -8047
ORE -8048
▁ㄱㅕㅇㅎㅢ -8049
▁ㅇㅡㄴㅁㅣㄹ -8050
▁ㅋㅔㄴㅇㅣ -8051
ㄹㅡㄱ -8052
AG -8053
▁EM -8054
ㅇㅜㄹㄹㅓ -8055
▁Elect -8056
▁ㅅㅓㅁㄱㅣ -8057
▁ㄷㅚㄹㄲㅏ -8058
ㅅㅏㅇㅍㅏ -8059
▁ㅅㅏㅁㄱㅓ -8060
▁EXH -8061
▁ㅇㅏㄱㄹㅏㄹ -8062
▁ㅈㅣㄴㄹㅛ -8063
▁ㄷㅏㄹㄱㅑㄹ -8064
▁SO -8065
▁ㅅㅐㅇㅅㅏㄴㄹㅕㄱ -8066
▁ㄷㅏㄹㄹㅕㅆ -8067
ness -8068
ㅇㅐㄴㅈㅔㄹㄹㅔ -8069
ㅈㅣㅇㄱㅏ -8070
▁ㅇㅝㄴㄴㅐ -8071
▁1961 -8072
ㄱㅡㄱㅎㅣ -8073
▁ㅅㅣㄱㅅㅣㄴ -8074
▁br -8075
▁ㄹㅐㅁㅍㅡ -8076
▁ㅂㅣㄱㅂㅐㅇ -8077
▁ㅊㅗㅇㅌㅏㄴ -8078
▁ㅈㅓㄹㄱㅠ -8079
▁ㅌㅗㅇㅅㅣㄴㅅㅏ -8080
ㅇㅐㄱㅅㅕㄴ -8081
▁ㄱㅗㅇㅅㅓㅇㅈㅓㄴ -8082
▁WE -8083
ㅈㅜㄴㅎㅗ -8084
▁ㅃㅏㄹㄱㅏㅇ -8085
▁TCG -8086
▁TO -8087
▁EMP -8088
▁ㅇㅕㅇㅁㅣ -8089
▁ㅈㅣㄴㄱㅏ -8090
▁ㅂㅔㄱㅌㅓ -8091
▁ㅈㅓㄴㅍㅕㄴ -8092
▁ㄷㅗㅇㅊㅏㅇ -8093
▁MLB -8094
▁ㅁㅏㄹㅁㅣ -8095
▁ㅈㅓㄴㄱㅛ -8096
▁FR -8097
ㅇㅛㅇㅂㅓㅂ -8098
▁CON -8099
▁ㅇㅣㄹㅈㅣㄴ -8100
▁ㅈㅓㄱㄹㅛ -8101
inc -8102
▁ㄱㅘㅇㅅㅓㄱ -8103
▁1100 -8104
ㅅㅏㄹㅇㅏ -8105
▁ㄷㅗㄹㄹㅣㄹ -8106
▁ㄷㅏㄴㄱㅗㄹ -8107
▁ㅂㅏㄹㅇㅏㄱ -8108
▁ㄱㅘㄴㄷㅗㅇ -8109
▁ㄱㅓㄴㅈㅐ -8110
▁ㄱㅣㅁㅈㅓㄴㅇㅣㄹ -8111
▁ㄷㅓㅊ -8112
▁ㅅㅐㅇㅅㅏㄴㄹㅑㅇ -8113
▁ㅈㅣㅂㅈㅜㅇㄹㅕㄱ -8114
▁ㄱㅘㄹ -8115
▁ㅇㅏㄴㅁㅕㄴ -8116
▁NHK -8117
▁ㅇㅝㄴㄱㅗ -8118
▁ㅊㅜㅇㅈㅜ -8119
▁ㅅㅡㅂㅎㅏㄴ -8120
ㅇㅜㄱㅇㅣ -8121
ㅍㅗㄹㄹㅗ -8122
ㅇㅑㄱㅈㅏ -8123
▁ㅁㅣㄹㄹㅕㅆ -8124
▁ㅂㅣㄴㅅㅏ -8125
▁beatmania -8126
ㅇㅠㄱㅂㅜ -8127
▁dis -8128
▁ㅊㅣㄱ -8129
▁world -8130
▁ㅇㅏㄱㅇㅛㅇ -8131
▁ㅈㅏㄱㅇㅣㄴ -8132
▁ㅁㅣㄹㅈㅣㅂ -8133
▁ㄱㅕㅇㅁㅐ -8134
▁ㄱㅕㅇㅅㅓㅇ -8135
ㅅㅜㅁㅇㅔ -8136
▁ㄷㅗㅇㄹㅐ -8137
▁ㄷㅏㄴㅅㅜㅁㅇㅔ -8138
▁ㅇㅣㅂㅅㅜㄹ -8139
▁ㅍㅣㄹㅇㅕㄴ -8140
▁She -8141
▁SHOW -8142
▁ㅇㅑㅇㅍㅏ -8143
ㅅㅗㄱㅂㅓ -8144
ㄱㅕㄱㅊㅗㅇ -8145
▁ㄱㅣㅁㅌㅐㄱ -8146
day -8147
ㅎㅡㄺ -8148
ㄹㅗㄴㅌㅗ -8149
▁ㅎㅡㄱㅎㅘ -8150
ㅌㅣㄱㅅㅡ -8151
▁ㄱㅗㅇㅎㅠ -8152
▁ㅅㅡㅇㅊㅓㄴ -8153
ㅇㅗㄹㄹㅕ -8154
its -8155
omb -8156
ham -8157
ㅈㅏㅇㅍㅜㅁ -8158
▁VIP -8159
▁ㅆㅏㅎㅇㅣㄴ -8160
▁214 -8161
▁Da -8162
▁ㄱㅣㅁㅎㅖ -8163
▁ㄱㅏㄴㄹㅑㄱ -8164
▁ㄱㅏㅇㅈㅓㄱ -8165
▁MD -8166
▁ㅇㅑㅇㅊㅡㄱ -8167
▁ㅁㅣㄴㅇㅝㄴ -8168
▁ㅂㅏㄴㅎㅏㅇ -8169
▁ㅊㅓㅇㅇㅝㄴ -8170
▁ㅊㅗㅇㄱㅘㄹ -8171
ㅅㅡㅇㅎㅕㄴ -8172
▁RG -8173
ㅂㅡㄹㄹㅣㅅ -8174
ㅂㅔㄹㄹㅣ -8175
▁ㅎㅏㄴㅅㅣㅁ -8176
▁ㄱㅕㅇㄹㅑㅇ -8177
▁ㅈㅡㄱㄱㅏㄱ -8178
ㅎㅐㅇㅅㅓㄴ -8179
▁ㅈㅜㄴㅎㅏ -8180
== -8181
ㅈㅓㅇㅇㅕㄱ -8182
▁ㄱㅏㅇㅎㅐㅇ -8183
▁ㅁㅜㄷㅎㅕㅆ -8184
▁ㅅㅖㄹ -8185
▁ㅊㅓㅇㅅㅏㄴ -8186
▁ㅂㅜㄹㅁㅕㄹ -8187
▁ㄱㅓㅁㅇㅡㄴㅅㅐㄱ -8188
▁141 -8189
▁ㅇㅜㅅㄱㅣㄴ -8190
▁ㅁㅏㄹㅈㅏㅇㄴㅏㄴ -8191
▁ㅅㅓㅁㅇㅠ -8192
▁ㅅㅣㄴㄷㅣ -8193
▁ㅇㅣㄴㄴㅐ -8194
▁ㅍㅜㄹㄹㅕㅆ -8195
ious -8196
SS -8197
ㄱㅝ -8198
▁ㅈㅓㄱㅈㅣㄴ -8199
▁340 -8200
ㅅㅇㅣㅍ -8201
▁naver -8202
▁ㅌㅏㄴㄷㅗ -8203
▁ㅅㅣㄹㅁㅜ -8204
▁ㅊㅜㄱㅈㅓㄱ -8205
▁ㅁㅜㄷㅎㅣ -8206
▁ㅌㅡㄹㄹㅣㅁ -8207
ANC -8208
ㅍㅡㄹㄹㅏ -8209
▁te -8210
▁ㅇㅘㄴㅅㅜ -8211
▁ㄴㅏㄱㅇㅣㄴ -8212
ㅆㅓㄹ -8213
IV -8214
ㅅㅜㅇ -8215
▁Not -8216
▁ㅂㅕㄴㅈㅣㄹ -8217
ㅅㅡㅇㅁㅏㄴ -8218
▁ㅁㅓㄹㅉㅓㅇㅎㅣ -8219
ㅍㅓㅇ -8220
ㅁㅕㅇㅅㅏㅇ -8221
▁ㅊㅓㄴㄱㅖ -8222
ivers -8223
ㅅㅖㄹ -8224
▁ㅂㅏㄹㅋㅏㄴ -8225
ㅖㄴ -8226
▁ㅈㅓㄱㅅㅐㄱ -8227
27 -8228
ㅇㅣㄹㄷㅏㅁ -8229
▁ㅎㅏㅂㄷㅏㅇ -8230
▁ㅊㅏㅇㅇㅓㅂ -8231
▁ㅇㅑㅇㅎㅕㄴ -8232
▁ㅅㅓㄱㄱㅜㅇ -8233
▁ㄲㅘㅇ -8234
▁ㅇㅕㅁㄹㅕ -8235
▁ㄲㅏㄲㅇㅣ -8236
▁ㅂㅏㄹㅈㅓㄴㄱㅣ -8237
ㅊㅜㄱㄱㅜ -8238
olution -8239
aut -8240
ERS -8241
▁ㅍㅗㄹㄷㅓ -8242
▁ㅇㅕㄴㄱㅡㅁㅅㅜㄹ -8243
▁ㄱㅕㄹㅎㅏㅁ -8244
23 -8245
▁ㄷㅐㄴㄷㅏ -8246
▁ㄱㅏㅇㅅㅓㅇ -8247
▁ㅊㅣㄹㄹㅔ -8248
EX -8249
▁ㅁㅏㄱㅂㅏ -8250
▁ap -8251
▁With -8252
ㅓㄴㅈㅣ -8253
▁ㅌㅏㄴㅈㅗㅇ -8254
▁ㅍㅕㄴㄷㅐ -8255
ㅅㅐㅇㄱㅣㄴ -8256
▁ㄷㅗㅇㅂㅗㅇ -8257
▁Every -8258
▁ㅅㅓㅇㄷㅗ -8259
▁ㅈㅗㄱㅈㅏㅇ -8260
ㅂㅓㅁㅈㅚ -8261
▁^ -8262
▁ㅇㅓㅁㅈㅣ -8263
ATION -8264
▁ㅎㅔㄹㅅㅡ -8265
▁DO -8266
▁ㅈㅣㄴㄴㅏ -8267
▁ㅁㅐㄱㅅㅣ -8268
▁ㅇㅣㄹㅂㅗ -8269
▁ㄹㅓㅆㄷㅏ -8270
ㄷㅏㄴㅈㅏㅇ -8271
▁ㅇㅣㄹㄹㅕㄴ -8272
▁ㅇㅜㄴㅎㅏㅇ -8273
▁Ke -8274
▁DEF -8275
ㅇㅡㅁㄱㅣ -8276
ㅅㅣㄴㄱㅣ -8277
ㅇㅣㄴㅈㅡ -8278
▁ㄱㅗㅇㅂㅏㅇㅈㅓㄴ -8279
▁ㅇㅣㄴㅁㅐㄱ -8280
▁ㅎㅗㅇㅈㅜㄴ -8281
▁ㅅㅓㄴㅂㅏㄹㅌㅜ -8282
UC -8283
olog -8284
▁ㅇㅓㄹㄹㅣ -8285
ㅍㅗㄴㅈㅣ -8286
▁ㅅㅜㄹㅂㅓㅂ -8287
▁ㅂㅏㄺㅎㅣㄴㄷㅏ -8288
▁ㅂㅏㄴㅎㅘㄴ -8289
▁ㅇㅏㄱㅎㅏㄴ -8290
29 -8291
45 -8292
ㅇㅣㄹㅇㅡ -8293
▁ㅂㅏㄱㅈㅜ -8294
ㅋㅝㄹ -8295
▁ㅅㅗㄱㅅㅏㄱ -8296
▁ㅇㅘㄴㅈㅓㄴㅊㅔ -8297
▁ㅂㅏㅇㄱㅡㅁ -8298
▁ㅂㅏㅇㅎㅘㅇ -8299
▁310 -8300
▁ㅇㅝㄴㅊㅓㄴ -8301
▁Skill -8302
ㄲㅜㅁㅊㅣ -8303
▁ㄱㅕㅇㅈㅏㅇ -8304
▁ㅂㅏㄴㅁㅏㄹ -8305
▁ㄴㅔㅂ -8306
▁ㅇㅜㄴㅇㅜㄴ -8307
▁ㅇㅏㄴㄴㅏ -8308
66 -8309
▁ㅅㅣㄷ -8310
▁ㅈㅏㄱㅂㅕㄹ -8311
▁ㅈㅓㄱㅂㅏㄹ -8312
▁ㅁㅕㅇㅈㅏㄱ -8313
▁SW -8314
▁ㅇㅓㄹㅍㅣㅅ -8315
▁Chr -8316
▁ㅅㅓㅇㅊㅐ -8317
▁ㅅㅣㅇㅇㅓ -8318
ㅋㅏㄹㄹㅔㅅ -8319
▁ㅇㅝㄴㅈㅔ -8320
icro -8321
▁Get -8322
▁ㅉㅗㅈㅇㅏ -8323
ㅎㅡㄹ -8324
▁ㅋㅗㄹㄹㅗㅁㅂㅣ -8325
▁ㅈㅓㅇㅇㅡㄴ -8326
▁ㅌㅐㄱㅂㅐ -8327
▁ㅅㅔㄹㅍㅡ -8328
▁Boy -8329
ㄷㅔㄹㅍㅣ -8330
▁ㅇㅕㄹㄹㅕ -8331
▁ㅈㅓㅇㄱㅓ -8332
▁ㅇㅑㅇㄱㅜㄱ -8333
▁ㅇㅣㅁㅊㅏㅇ -8334
ㄱㅝㄴㅈㅏ -8335
▁ㄱㅗㅇㄹㅗ -8336
▁ㅎㅓㄴㅅㅣㄴ -8337
ely -8338
▁ㅊㅏㅇㄷㅏㅇ -8339
▁ㅎㅏㅂㅊㅏㅇ -8340
ㄴㅏㄹㄷㅡ -8341
▁=, -8342
▁Har -8343
▁007 -8344
ㄱㅡㄹㄹㅓ -8345
▁ㄱㅡㄹㄹㅐ -8346
▁** -8347
ny -8348
▁ㅇㅑㅇㅎㅗ -8349
ㅈㅜㄴㄱㅡㅂ -8350
▁ㅎㅏㄴㅅㅡ -8351
▁ㅌㅜㅁ -8352
▁ㅇㅔㄱㅅㅗ -8353
▁ㅇㅟㄹㅅㅡㄴ -8354
reat -8355
ty -8356
▁ㄹㅕㅆ -8357
▁Des -8358
▁ㅋㅐㅂㅋㅗㅁ -8359
ㅎㅐㅇㅇㅟ -8360
▁if -8361
▁ㅉㅗㅊㄱㅣ -8362
▁ㄱㅣㅁㅊㅏㅇ -8363
▁ㅎㅗㅇㅈㅜㄴㅍㅛ -8364
▁ㅅㅏㅇㅂㅏㄴㄱㅣ -8365
▁ㄱㅜㅇㅈㅣ -8366
▁ㅅㅏㅇㅍㅛ -8367
▁ㅂㅕㅇㄷㅏㄴ -8368
ㅇㅘㅂ -8369
▁RAW -8370
▁ㄲㅡㄴㅈㅣㄹ -8371
▁ㅍㅣㄱㅅㅣ -8372
ㅇㅣㄴㄱㅏㄴ -8373
▁ㄴㅗㄹㄹㅣㅁ -8374
ㅇㅝㄴㅇㅕㄱ -8375
▁ㅂㅗㄴㄷㅣ -8376
ㄷㅏㄹㄹㅕ -8377
▁ㅂㅗㄹㅍㅡ -8378
▁Ab -8379
▁ㅈㅗㅁㅂㅣ -8380
ㅌㅐㄴㄷㅏ -8381
▁ㅉㅏㄹㅂㅏㅇ -8382
▁ㄴㅡㄴㄱㅜㄴ -8383
▁ㅈㅓㅇㅁㅕㅇ -8384
▁ㄷㅏㅇㅈㅜ -8385
▁png -8386
▁ㅁㅏㅈㅊㅜㅁ -8387
▁ㅎㅗㄴㅈㅗㅇ -8388
ㅅㅡㅇㅇㅕㅂ -8389
ient -8390
▁720 -8391
▁ㄸㅐㅁ -8392
ㄹㅣㅅㅈㅣ -8393
ㅇㅣㅁㄱㅣ -8394
▁ㄱㅕㄹㅈㅏㅇ -8395
▁ㅌㅏㄴㅅㅗ -8396
▁ㅍㅓㄹㅅㅡ -8397
▁171 -8398
▁ㅊㅓㄴㅈㅓㄱ -8399
▁ㅅㅣㄴㅊㅜㄱ -8400
▁ㅎㅔㅅㄱㅏㄹㄹㅣ -8401
▁ㄱㅜㄴㄱㅣ -8402
▁ㄹㅕㅁ -8403
▁ㅈㅓㅇㄱㅖ -8404
▁ㅈㅏㅇㅇㅏㄴ -8405
ㅇㅓㅁㅅㅡ -8406
▁ㅅㅓㅇㅊㅜ -8407
▁ㅅㅐㅁㅍㅡㄹ -8408
▁ㄲㅐㄴ -8409
ters -8410
▁ㅇㅗㄱㅌㅏ -8411
▁ㅈㅓㅇㄹㅣㅂ -8412
ㅋㅏㄹㄹㅣ -8413
▁480 -8414
▁Tri -8415
ㅋㅜㄴ -8416
▁Big -8417
ㅍㅓㄹ -8418
ㄱㅘㄴㅊㅏ -8419
▁ㅂㅗㄱㅅㅣㅇ -8420
▁ㅈㅗㄴㄷㅐㅅㅁㅏㄹ -8421
▁181 -8422
▁ㄱㅓㄴㅈㅓㄴ -8423
▁ㅈㅐㅇㅌㅏㄹ -8424
▁ㅎㅏㄴㅁㅗㄳ -8425
▁TB -8426
ㅂㅕㅇㅎㅗ -8427
▁ㅈㅜㅂ -8428
▁ㅇㅕㅇㄱㅣ -8429
▁ㅅㅏㄴㅇㅏㄱ -8430
▁PSP -8431
▁ㅈㅗㅇㅇㅣㄹ -8432
▁ㅂㅏㄱㄱㅕㄱㅍㅗ -8433
▁ㅇㅜㅁㅈㅣㄱㅇㅣㄴㄷㅏ -8434
▁ㅅㅐㅇㅁㅗㄹ -8435
▁ㅎㅡㄹㄹㅕ -8436
ㄹㅏㅇㅋㅔㄴ -8437
ㅁㅏㅌ -8438
▁Ext -8439
▁ㅈㅣㄴㅈㅏㄱ -8440
▁ㅊㅜㄹㅌㅚ -8441
▁ㅇㅕㄴㅎㅕㄱ -8442
ㅅㅜㄹㄱㅏ -8443
▁ㅂㅏㄱㅎㅣㄴ -8444
ful -8445
ㅈㅓㅇㅎㅕㄴ -8446
▁DA -8447
▁1954 -8448
ship -8449
▁kn -8450
ㄷㅓㄴㅌㅡ -8451
▁ㅅㅓㅂㅇㅚ -8452
▁ㄱㅗㅇㅇㅣㄱ -8453
ㄱㅏㅌㅇㅣ -8454
▁ㄷㅏㅇㄱㅣ -8455
uch -8456
85 -8457
▁UR -8458
▁ㄷㅏㅇㅂㅜㄴ -8459
▁ㅈㅏㄹㄹㅣ -8460
▁ㅈㅓㅇㅈㅏㅇ -8461
▁1943 -8462
bl -8463
▁ㅋㅑ -8464
▁ㄱㅘㅇㅂㅓㅁ -8465
▁ㅅㅡㄹㄹㅔ -8466
▁ㅁㅏㅅㅂㅗ -8467
▁ㅅㅏㅇㄱㅝㄴ -8468
▁STAR -8469
▁ㅎㅘㅇㅁㅜ -8470
▁ㅍㅗㄱㅂㅏㄹㅁㅜㄹ -8471
▁1958 -8472
▁ㄲㅓㄹ -8473
▁1946 -8474
ㅅㅓㅇㄴㅕㄴㅈㅏ -8475
▁ㄱㅣㅁㅈㅜㄴㅎㅗ -8476
▁ㅇㅕㅇㅂㅜㄴ -8477
ports -8478
▁ㄱㅣㅁㅅㅔ -8479
▁ㅍㅗㄱㅅㅏ -8480
▁1900 -8481
ㄷㅜㄴㄷㅏ -8482
▁ㅈㅓㅁㄱㅓ -8483
ㅇㅕㄴㅅㅡ -8484
▁ㅇㅕㄴㅎㅢ -8485
ㅅㅏㅇㅁㅣㄴ -8486
▁ㄱㅜㄴㅎㅏㅁ -8487
▁ㅅㅐㅇㄱㅏㄱㄴㅏ -8488
ㅈㅏㄱㅈㅓㅇ -8489
▁id -8490
▁ㅁㅏㅈㅎㅣ -8491
▁ㄷㅏㅇㅇㅝㄴ -8492
ㄱㅞ -8493
▁ㅁㅏㄱㅂㅜ -8494
▁ㄱㅣㅍㅅㅜㄱ -8495
▁ㄴㅐㅆㅇㅡ -8496
▁Inf -8497
▁EB -8498
▁CT -8499
▁White -8500
▁ㄷㅐㅆ -8501
▁ㅈㅜㅇㅇㅏㅇㅅㅓㄴ -8502
▁ㅈㅏㄱㅅㅏㄹ -8503
▁Sil -8504
▁ㄷㅡㄴㄱㅏ -8505
▁ㅅㅐㅇㅅㅏ -8506
▁ㅇㅓㄴㅎㅐㅇ -8507
▁ㅎㅗㅇㄷㅐ -8508
▁ㄴㅏㄱㅇㅝㄴ -8509
▁ㄱㅗㄹㄹㅣ -8510
▁ㅅㅏㅇㅅㅗㄱ -8511
▁ㅁㅏㅈㅁㅜㄹㄹㅕ -8512
▁ㅅㅑㄹ -8513
▁ㄴㅓㅁㄱㅣㄴ -8514
▁XP -8515
▁ㅉㅣㄹ -8516
▁ㅁㅏㅇㅈㅏ -8517
▁ㅁㅏㄴㅅㅔ -8518
▁1942 -8519
ㅌㅏㄴㅌㅣ -8520
26 -8521
▁ㅇㅠㄴㅈㅗㅇ -8522
▁ㅆㅡㅂ -8523
ㅌㅡㄹㄹㅔ -8524
▁ㅇㅣㅁㅇㅛ -8525
▁>, -8526
▁Fre -8527
ump -8528
▁8000 -8529
▁ㄴㅐㅇㅈㅓㄴ -8530
▁RS -8531
▁255 -8532
▁ㄲㅏㅆ -8533
▁ㅈㅡㅇㅅㅔ -8534
co -8535
▁Bar -8536
▁ㅇㅣㄴㅈㅡ -8537
ㄹㅣㅅㅅㅜ -8538
▁qu -8539
▁ㅍㅗㄱㄷㅗㅇ -8540
▁ㅅㅣㄴㅅㅡ -8541
ㅇㅓㄹㄹㅣ -8542
▁ㅉㅓㄹ -8543
▁ㅋㅏㅇ -8544
▁ㅅㅏㅇㅎㅚ -8545
▁ㅅㅗㄴㅂㅏ -8546
▁ㅇㅚㄴㅍㅏㄹ -8547
▁ㄲㅗㄱㄷㅜ -8548
▁ㅈㅣㄹㄹㅑㅇ -8549
▁Win -8550
ㅎㅐㅇㅅㅏ -8551
▁ㄱㅏㄷㅎㅣㄴ -8552
▁ㅅㅕㄹㄹㅗㄱ -8553
▁jp -8554
▁Back -8555
▁ㅅㅓㅇㄱㅠㄴ -8556
▁ㅎㅘㄱㅇㅕㄴㅎㅣ -8557
ㄱㅡㅅㄴㅏ -8558
▁ㅂㅜㄹㅅㅣㄴ -8559
ENT -8560
▁ㄱㅜㄴㅅㅏㄴ -8561
▁ㄱㅘㅇㅂㅓㅁㅇㅟ -8562
▁ㅇㅕㅁㅅㅗ -8563
▁ㄱㅓㄹㅈㅏㄱ -8564
▁ㅍㅗㅅ -8565
▁ㅇㅏㅂㅅㅏㄹ -8566
▁ㅅㅓㅇㄱㅠㄴㄱㅘㄴ -8567
▁ㅂㅐㄱㅁㅣ -8568
ㅆㅓㅂ -8569
▁ㅇㅟㄴㅅㅡ -8570
▁420 -8571
▁ㅆㅏㅁ -8572
ㅅㅡㅇㅎㅘㄴ -8573
▁DT -8574
▁ㄱㅏㅇㅇㅠ -8575
▁ㅋㅣㄹㄹㅗ -8576
ㄷㅕ -8577
ㄲㅗㄹ -8578
edia -8579
ㄹㅣㅇㅋㅡ -8580
▁ㅅㅗㅇㅇㅣ -8581
▁ㅇㅝㄴㄴㅕㄴ -8582
ㅇㅣㄴㄱㅣ -8583
ㅋㅣㄴㅅㅡ -8584
ALL -8585
▁Sky -8586
ㅈㅓㅇㄱㅘㄴ -8587
ERT -8588
ㅇㅡㄹㅈㅣ -8589
▁ㄷㅡㄴㄷㅡㄴ -8590
▁ㅈㅣㄴㅎㅡㄺ -8591
▁ㅋㅗㅅ -8592
▁ㅂㅏㅇㄹㅏㅇ -8593
▁down -8594
▁ㅅㅗㅇㄷㅗ -8595
ift -8596
▁ㅈㅏㄱㅇㅏ -8597
▁ㄱㅣㅁㅈㅓㅇㅇㅡㄴ -8598
ㅁㅓㅅㄷㅐ -8599
▁ㅎㅕㅂㄱㅗㄱ -8600
▁ㅈㅏㅁㄱㅡㅁ -8601
▁ㄴㅛ -8602
▁ㄷㅏㅁㄷㅏㅇㅈㅏ -8603
▁ㄷㅏㄴㅌㅔ -8604
▁ㄷㅏㄴㅈㅗ -8605
ㄷㅡㄹㅇㅣㄴㄷㅏ -8606
▁OO -8607
▁215 -8608
▁ㅎㅕㄴㅁㅕㅇ -8609
ㅊㅘㄹ -8610
▁ㄱㅕㅇㅊㅏㄹㄱㅘㄴ -8611
▁ㅎㅘㄴㄱㅏㄱ -8612
ㅅㅣㄴㄷㅏ -8613
▁ㅅㅜㄴㅈㅣㄴ -8614
▁ㅈㅏㅇㅂㅕㅇ -8615
▁ㅅㅓㄱㅎㅘ -8616
ㅈㅓㅇㄷㅗㅇ -8617
▁ㅊㅓㅇㄹㅑㅇ -8618
▁off -8619
▁ㅎㅓㄴㄷㅔ -8620
▁ㅅㅣㄴㅇㅝㄴ -8621
▁ㅂㅗㄱㅇㅡㅁ -8622
▁ㅈㅓㅇㅅㅔ -8623
ㅇㅡㅁㄲㅓㅅ -8624
▁ㅂㅗㅇㅎㅘㅇ -8625
▁KS -8626
▁ㄴㅡㄴㄱㅜ -8627
▁Met -8628
▁ㄱㅜㄷㅇㅓ -8629
▁ㅈㅓㅇㄷㅗㅇ -8630
▁ㅎㅡㅂㅇㅕㄴ -8631
▁every -8632
▁ㅈㅣㄱㄱㅏㅁ -8633
▁ㅋㅡㄹㄹㅏㄱ -8634
▁ㅈㅝㅆㅇㅡ -8635
▁ㅈㅓㄴㅈㅓㄴ -8636
▁ㅇㅠㄱㅈㅣ -8637
▁GL -8638
▁333 -8639
▁ㅁㅠㄹ -8640
ㅇㅞㄴ -8641
▁}{ -8642
▁ㄴㅗㅇㅇㅓ -8643
▁ㅇㅣㅂㅁㅏㅅ -8644
▁ㅎㅏㄴㅈㅗ -8645
▁1941 -8646
▁ㅁㅏㄴㄷㅜ -8647
▁ㅁㅣㄴㅇㅕㅇ -8648
▁ㅉㅣㄱㅎㅣㄴ -8649
▁1948 -8650
▁ㅅㅜㄹㅌㅏㄴ -8651
▁ㄱㅣㅁㅎㅏ -8652
▁ㄱㅕㅁㅎㅏ -8653
▁ㅌㅏㅁㅇㅛㄱ -8654
▁FN -8655
▁ㅌㅏㄹㅇㅗㄱ -8656
▁ㅅㅡㅇㄱㅣ -8657
ㅇㅣㄹㄹㅗ -8658
▁ㅂㅏㄱㅅㅔ -8659
▁ㅇㅣㅇㅋㅡ -8660
▁ㅌㅡㄱㅊㅘㄹ -8661
▁ㅂㅜㄴㄱㅕㅇ -8662
▁ㅊㅓㄴㅎㅘㅇ -8663
▁Song -8664
▁ㅇㅣㄹㅆㅜ -8665
▁FE -8666
ize -8667
▁ㅊㅜㄹㅅㅐㅇㅈㅣ -8668
oud -8669
ㅊㅓㄴㄷㅗㅇ -8670
▁Act -8671
▁ㅈㅗㄹㄱㅐ -8672
less -8673
▁208 -8674
▁ㅅㅓㅇㅁㅗ -8675
▁NG -8676
▁235 -8677
▁ㅁㅜㄴㅎㅓㄴ -8678
▁206 -8679
▁ㄸㅓㄹㄱㅜ -8680
▁ㅂㅜㄹㅅㅏㅇ -8681
▁ㅈㅣㄴㄱㅜㄴ -8682
VEL -8683
▁May -8684
▁ㅅㅓㅇㄴㅕ -8685
▁ㅂㅜㄱㅂㅏㅇ -8686
ㅇㅕㅇㅈㅏㅇ -8687
▁ㅇㅑㅇㄴㅕㅁ -8688
▁ㅅㅓㅇㅊㅔ -8689
95 -8690
▁ㅅㅓㅁㅅㅔ -8691
▁ㅇㅝㄴㄱㅕㄱ -8692
ㄱㅗㅇㄱㅕㄱ -8693
▁ㅅㅗㄴㅎㅡㅇ -8694
▁ㅅㅓㄴㅊㅔ -8695
▁ㅋㅐㄹ -8696
▁ㄱㅗㅇㄷㅗㅇㅊㅔ -8697
▁em -8698
▁ㅇㅣㅁㅍㅡ -8699
▁ㄷㅏㅇㄷㅏㅇㅎㅣ -8700
▁ㅇㅣㅁㄱㅘㄴ -8701
▁ㅎㅡㄱㅂㅐㄱ -8702
▁ㄱㅘㄴㅇㅏㄱ -8703
▁ve -8704
▁ㅈㅣㅂㄱㅕㄹ -8705
▁ㅈㅜㄹㅇㅣㄹ -8706
▁ㅅㅏㅂㅎㅘ -8707
▁ㅈㅓㄴㅌㅐ -8708
▁ㅍㅜㅇㅈㅏ -8709
ㄱㅡㅇ -8710
▁161 -8711
▁ㅂㅜㄴㅅㅏ -8712
▁ㄱㅡㅁㄱㅣ -8713
ape -8714
▁ㅈㅜㄹㄱㅗㄷ -8715
▁ㅍㅕㅇㅇㅝㄴ -8716
MC -8717
▁ㅎㅐㅇㅌㅐ -8718
ㄷㅜㅂ -8719
ㅅㅓㄴㅈㅣ -8720
▁ㅅㅗㄴㅎㅡㅇㅁㅣㄴ -8721
aka -8722
▁ㄱㅕㄴㅇㅣㄴ -8723
▁ㅇㅗㄹㄹㅣㅁ -8724
▁TD -8725
▁ㅃㅏㄱㅃㅏㄱ -8726
bps -8727
ger -8728
▁1949 -8729
▁FX -8730
ㅇㅓㄴㅈㅓㅇ -8731
▁ㄴㅗㄱㅇㅕ -8732
▁That -8733
▁Hey -8734
▁ㅇㅕㄹㅂㅏㄷ -8735
▁ㅅㅐㄱㅊㅐ -8736
▁ㅌㅗㅇㅇㅛㅇ -8737
▁Rain -8738
ㄱㅡㅂㅅㅏ -8739
▁ㅊㅏㅇㅇㅢ -8740
▁ㅂㅔㅇ -8741
▁ㅂㅣㄱㅌㅓ -8742
▁ㅋㅏㄴㄴㅏ -8743
UB -8744
ㅇㅕㅇㅅㅜ -8745
ㅈㅜㅇㄱㅜㄱ -8746
▁ㅅㅗㅇㄱㅜ -8747
IST -8748
ORM -8749
▁con -8750
▁ㅎㅏㄱㅊㅏㅇ -8751
▁850 -8752
▁CCTV -8753
96 -8754
▁ㅇㅣㅂㅊㅔ -8755
▁ㅅㅐㅇㅁㅜㄹㅎㅏㄱ -8756
▁ㄴㅗㄱㅇㅏ -8757
▁ㅇㅣㄴㄷㅏ -8758
ㅅㅣㄴㅎㅕㅇ -8759
▁1936 -8760
ㅇㅣㄴㄷㅓ -8761
ㅇㅏㄴㄱㅜㄴ -8762
▁ㅂㅏㄴㅊㅣㄱ -8763
▁ㅊㅏㅇㅅㅣ -8764
▁ㅍㅕㅇㅁㅣㄴ -8765
ㅂㅏㅇㅎㅑㅇ -8766
▁ㅌㅔㄴㅅㅕㄴ -8767
▁ㅈㅣㄴㅎㅐ -8768
▁GAM -8769
▁ㅂㅐㄱㅅㅐㄱ -8770
▁ㅍㅗㄱㅍㅗ -8771
▁ㅈㅔㄹㄷㅏ -8772
▁ㅈㅓㅂㅅㅣ -8773
▁ㅅㅗㄴㄴㅕ -8774
ㄹㅗㅂㅎㅣㅁ -8775
▁ㄱㅘㅇㅂㅜ -8776
ㄱㅙ -8777
▁ㄱㅏㅇㅂㅕㄴ -8778
ita -8779
▁ㅁㅜㅇㅊㅣ -8780
▁ㅂㅓㄹㅊㅣㄱ -8781
▁God -8782
▁ㄴㅏㄴㅈㅓㄴ -8783
zy -8784
▁ㅎㅏㅇㅅㅗㄱ -8785
▁ㅈㅓㅇㅇㅠ -8786
▁ㅂㅏㄱㅁㅣㄴ -8787
▁ㅈㅣㄱㄱㅘㄴ -8788
ㅅㅓㄴㄷㅗ -8789
▁ㅅㅏㅇㅇㅝㄴ -8790
▁ㅇㅣㄴㅈㅏㅇ -8791
▁ㅇㅕㄱㄱㅣ -8792
▁want -8793
▁ㄷㅏㄴㅅㅓㄴ -8794
rop -8795
▁ㅁㅐㄱㄷㅗ -8796
▁ㄱㅏㄴㅅㅣㄱ -8797
▁290 -8798
ㅅㅓㄱㅂㅓ -8799
▁ㅊㅜㅇㅅㅓㅇㅅㅣㅁ -8800
ㅍㅡㄹㄹㅣㅅ -8801
▁ㅈㅏㅁㅂㅗㄱ -8802
IGHT -8803
ㅇㅜㄹㅇㅕㄱ -8804
▁ㅉㅜ -8805
▁ㅁㅏㄷ -8806
76 -8807
▁ㅂㅏㄹㄱㅏㄴ -8808
▁ㄹㅐㅅ -8809
ㄱㅜㅇㅊㅏㅇ -8810
ㅍㅣㅇㅁㅗㄹ -8811
▁ㅃㅗㅂㅎㅣ -8812
▁ㄱㅕㄱㄷㅗㄹ -8813
▁ㄷㅏㄴㄱㅏㄴ -8814
▁ㅈㅓㄴㄴㅕㄴ -8815
▁ㄱㅕㄱㄴㅗ -8816
▁Battle -8817
▁ㅂㅕㅇㅁㅏㅅ -8818
▁ㄱㅏㄹㄱㅣ -8819
▁ㅂㅕㄴㅈㅗㅇ -8820
▁Moon -8821
▁ㅂㅏㄹㅅㅏㅇ -8822
▁Pe -8823
ㄹㅓㄱㅅㅡ -8824
net -8825
▁ㅅㅗㅇㅂㅕㅇ -8826
▁ㄷㅓㄴㅈㅣㄹ -8827
▁ㅇㅏㄹㅂㅣ -8828
ara -8829
▁ㅇㅕㄴㄹㅜ -8830
ㅂㅏㄷㅊㅣㅁ -8831
▁Game -8832
ㅈㅓㄴㄱㅣ -8833
▁more -8834
▁ㅍㅏㄹㅇㅏ -8835
▁UFO -8836
▁ㅅㅣㄹㅎㅓㅁㅅㅣㄹ -8837
▁RF -8838
▁ㅋㅗㄴㅌㅔ -8839
ward -8840
▁CEO -8841
▁ㄱㅜㄱㄹㅕㄱ -8842
com -8843
▁Bra -8844
ren -8845
▁ㅅㅓㄴㄱㅜ -8846
▁ㅋㅗㄴㅋㅡ -8847
▁ㅇㅘㅇㄱㅜㅇ -8848
▁RAM -8849
▁max -8850
ㅇㅙ -8851
▁TEC -8852
▁ㅉㅣㄴ -8853
row -8854
ㅇㅛㄴ -8855
▁ㄱㅘㄴㄴㅕㅁ -8856
▁ㄹㅏㄹㄲㅏ -8857
bo -8858
▁ㄱㅕㅇㅇㅣㄴ -8859
ㄱㅜㄴㅈㅣ -8860
▁ㅂㅜㅌㅈㅏㅂㅎㅕ -8861
▁Top -8862
▁ㅊㅓㅇㅅㅐㄱ -8863
▁ㄱㅐㅂ -8864
▁ㅎㅕㄴㅈㅗㄴ -8865
▁ㅅㅓㅇㅅㅓ -8866
ㅍㅣㅇㅋㅡ -8867
▁ㅇㅑㅇㅁㅕㄴ -8868
▁SUP -8869
ㄹㅣㄴㅌㅡ -8870
ㅇㅔㅁ -8871
▁Dragon -8872
▁ㅊㅣㄴㅁㅣㄹ -8873
▁ㄴㅏㄴㄷㅗㅇ -8874
▁ㅈㅓㅇㅈㅏ -8875
▁ㅊㅏㄱㅎㅏ -8876
▁ㅅㅓㄴㄱㅗㅇ -8877
▁ㅇㅏㄹㄹㅣㅁ -8878
▁ㅎㅚㅇㄷㅏㄴ -8879
▁ㄷㅏㄴㅅㅣㄴ -8880
▁ㅋㅓㄴㅌㅔ -8881
ㅇㅏㅁㄷㅗㅇ -8882
▁ㅆㅡㅂㅆㅡㄹ -8883
▁ㅇㅓㄴㄹㅏㄱ -8884
▁ㅂㅏㄷㅊㅕ -8885
▁ㄷㅗㅇㅊㅏㅁ -8886
▁ㅅㅗㅇㄱㅗㅅ -8887
▁Special -8888
▁ㄷㅡㅁ -8889
ㅌㅡㄹㄹㅣㅇ -8890
ㅈㅓㅇㅅㅏ -8891
▁ㅈㅓㅇㄹㅕㄹ -8892
▁ㅅㅞㄹ -8893
▁ㅉㅓ -8894
ㅈㅣㅂㅇㅓ -8895
▁ㅇㅕㄹㅍㅜㅇ -8896
▁ㄹㅓㄴㄴㅣㅇㅁㅐㄴ -8897
▁ㅇㅑㄴㄷㅔ -8898
▁212 -8899
▁ㅉㅣㄱㅎㅕ -8900
▁ㄹㅓㅂ -8901
▁ㅂㅗㅇㄱㅣ -8902
▁ㅈㅏㄱㄹㅕㄹ -8903
ㅅㅓㅇㄱㅖ -8904
▁Track -8905
LD -8906
▁ㅂㅚ -8907
▁FFFF -8908
▁ㅎㅑㅇㅅㅜ -8909
▁ㅃㅓㅇㅌㅟ -8910
▁PO -8911
▁1955 -8912
ㄱㅏㄱㅅㅣ -8913
▁ㄷㅗㄱㅅㅓㅇ -8914
▁ㄴㅏㅁㄱㅜ -8915
led -8916
▁ㅇㅑㅇㄷㅗㅇ -8917
▁ㅇㅓㅅㄱㅏㄹ -8918
▁ㄷㅓㅇㅋㅡ -8919
▁ㄴㅔㄱㅅㅡ -8920
▁ㅂㅐㄹㄹㅣ -8921
aven -8922
▁..' -8923
ㅈㅔㅅ -8924
▁ㅎㅏㅂㅂㅏㅇ -8925
▁ㅎㅏㄱㄱㅖ -8926
▁ㅂㅜㄱㄱㅡㄱ -8927
▁ㅈㅣㄴㄱㅘ -8928
▁ㄱㅜㄹㅂㅗㄱ -8929
▁Pop -8930
▁ㅈㅓㅇㅎㅕㄴ -8931
▁NS -8932
▁ㅇㅏㄹㄹㅜ -8933
▁ㅇㅘㅇㄸㅏ -8934
ㄱㅅㅕㄴ -8935
▁ㅌㅡㄹㄹㅕㅆ -8936
BM -8937
▁001 -8938
▁ㅁㅜㄴㅇㅢ -8939
ㄷㅗㅇㅂㅕㄴ -8940
▁ㄱㅕㅇㅈㅐㅇㄹㅕㄱ -8941
▁ㅇㅠㄱㅅㅣㄱ -8942
▁ㄴㅏㅁㅇㅛㅇ -8943
▁ㄴㅏㅁㅇㅑㅇㅈㅜ -8944
▁ㅅㅓㄹㄷㅡㄱㄹㅕㄱ -8945
ㄷㅗㅇㅂㅕㄴㅅㅗㄱㄱㅣ -8946
▁ㅎㅔㄹㄹㅔ -8947
▁ㅇㅕㄹㅈㅓㄴ -8948
▁DAY -8949
▁ㄱㅘㅇㅈㅓ -8950
▁1959 -8951
ㅇㅝㅆㅇㅡ -8952
▁Amer -8953
ㅎㅕㄱㅁㅕㅇ -8954
▁ㅈㅓㄴㅇㅛㅇㄱㅣ -8955
▁LS -8956
ㄱㅏㄱㅅㅓㄴ -8957
▁they -8958
▁ㅇㅏㄴㄷㅗ -8959
ㅇㅐㅇ -8960
▁ㄷㅏㄴㄷㅏ -8961
▁ㅅㅣㄹㅊㅓㄴ -8962
ㅁㅜㅅ -8963
▁ㅂㅡㄴ -8964
▁ㄴㅏㄴㅍㅗㄱ -8965
▁ㅅㅓㅇㅈㅜ -8966
▁ㄱㅡㅁㅈㅓㄴ -8967
▁wiz -8968
▁ㅁㅏㄴㅎㅚ -8969
▁ㅂㅜㄱㄷㅜ -8970
ㅁㅕㅇㅅㅔ -8971
▁ㅂㅕㄱㄷㅗㄹ -8972
ㅌㅣㄹㄹㅣ -8973
▁baby -8974
▁ㅈㅗㅈ -8975
▁LCD -8976
▁WAR -8977
▁ㅁㅏㄴㄹㅠ -8978
ㅁㅜㄴㅈㅏ -8979
▁ㅅㅓㅇㅍㅗㄱㅎㅐㅇ -8980
▁ㄱㅗㄱㅅㅓㄴ -8981
▁ㅅㅓㄴㄷㅗ -8982
▁ㅈㅏㅇㄹㅐ -8983
▁ㅌㅣㅁㅋㅣㄹ -8984
ㄷㅡㄱㅈㅓㅁ -8985
▁tw -8986
ㅂㅏㅇㅅㅏ -8987
▁ㅅㅓㄴㅂㅏㄹㅈㅓㄴ -8988
▁Cont -8989
▁ㅈㅔㅅ -8990
▁ㅇㅕㅇㄹㅣ -8991
▁KG -8992
▁ㄱㅜㄴㅂㅓㄹ -8993
▁ㅅㅣㅁㅍㅡㄹ -8994
34 -8995
▁ㅇㅣㅂㅎㅣㄴ -8996
▁ㅇㅕㅇㅈㅏㅇ -8997
▁ㅍㅕㄴㅈㅔ -8998
▁ㅎㅐㅁㅂㅓ -8999
ㅇㅘㅆㅇㅓㅆ -9000
▁ㅎㅐㅇㄷㅗㅇㄹㅕㄱ -9001
ㅊㅓㄴㅇㅕㄱ -9002
▁ㅁㅣㄴㅈㅣ -9003
▁NL -9004
▁ㄱㅏㄹㄹㅕ -9005
▁BASIC -9006
ands -9007
▁ㅅㅗㄱㅇㅗㅅ -9008
▁ㄴㅏㄴㅎㅐ -9009
▁1956 -9010
▁ㅎㅔㄹㄹㅗ -9011
ien -9012
▁ㄲㅡㅌㅍㅏㄴ -9013
▁207 -9014
▁ㅂㅕㅇㅇㅕㅇ -9015
▁ㅅㅓㄱㅌㅏㄴ -9016
ㄲㅡㅌ -9017
▁IDOLM -9018
▁ㄱㅏㅇㄷㅏㅇ -9019
▁ㅇㅣㅂㅎㅕ -9020
▁ㅅㅓㅇㄱㅓㅁ -9021
▁520 -9022
ㄱㅕㅇㅁㅣㄴ -9023
ㅅㅏㅇㅎㅕㄴ -9024
ze -9025
▁TG -9026
▁ㅊㅓㄹㅎㅚ -9027
ㅇㅜㄴㅈㅓㄴ -9028
ㅈㅏㄱㅈㅓㄴ -9029
▁ㅈㅣㄹㄹㅕ -9030
ㅊㅏㅇㄹㅕㄱ -9031
▁ㅂㅗㄴㅁㅜㄴ -9032
▁ㅅㅓㄴㅍㅜㅇ -9033
▁ㄱㅣㅁㅇㅣㄴ -9034
▁COM -9035
▁ㄱㅡㄱㅊㅏㄴ -9036
▁good -9037
▁ㅅㅣㄴㄴㅗ -9038
▁ㄱㅘㅇㅎㅘ -9039
▁ㅇㅠㄱㅂㅏㄱ -9040
▁ㅇㅛㄱㄱㅜ -9041
▁ㅋㅏㄹㄹㅓㅁ -9042
▁Bur -9043
ㅈㅗㅇㅇㅣㄹ -9044
▁ㅌㅟㅇㄱㅣ -9045
▁ㅈㅜㅇㅅㅓㅇ -9046
▁ㅂㅜㄱㅇㅠ -9047
▁ㄱㅜㄱㅅㅏ -9048
▁ㅇㅕㄱㅎㅏㄱ -9049
▁ㅇㅣㄴㅁㅣㄴㄱㅗㅇㅎㅘ -9050
▁ㅍㅐㄱㅌㅗ -9051
▁ㅇㅣㄹㅈㅣㄱ -9052
ㄱㅐㅇ -9053
▁ㅎㅏㄹㄹㅕ -9054
ㅈㅜㄴㅎㅕㄱ -9055
play -9056
▁ㅇㅕㅇㅊㅏㅇ -9057
▁ㅈㅓㄻㅇㅡㄴㅇㅣ -9058
▁ㅂㅐㄴㅅㅣ -9059
▁ㅈㅓㅇㅇㅣㄴ -9060
▁ㄱㅕㅇㅇㅟ -9061
ㅋㅘ -9062
▁ㄷㅗㅇㅅㅓㄴ -9063
▁col -9064
▁ㅈㅗㅁㅊㅓ -9065
au -9066
orts -9067
ㄹㅣㄴㅇㅐ -9068
▁ㅇㅔㅁㅍㅏ -9069
▁ㅇㅕㄴㅂㅏㅇㄱㅜㄴ -9070
▁Project -9071
▁FFFFFF -9072
▁ㅈㅗㄴㅅㅗㄱ -9073
▁over -9074
▁209 -9075
▁ㄱㅘㅇㅅㅣㄴ -9076
▁ㅇㅡㅁㅇㅑㅇ -9077
▁ㅈㅜㅇㅇㅓㄹㄱㅓ -9078
▁ㅆㅔ -9079
▁Hot -9080
▁Mir -9081
▁ㅈㅜㅇㅇㅢ -9082
▁Yes -9083
ㄹㅣㅁㅅㅡㄴ -9084
ㅅㅗㄹㄹㅣㄴ -9085
▁ㅇㅕㅇㄹㅏㄱ -9086
▁ㅎㅡㄱㄹㅛㅇ -9087
▁ㅁㅏㄱㅎㅣㄴ -9088
▁ㅁㅕㅇㄹㅕㅇㅇㅓ -9089
ited -9090
▁ㅁㅕㄹㅈㅏ -9091
ius -9092
▁ㅋㅚ -9093
▁ㅌㅡㄱㅎㅓ -9094
▁ㅍㅏㄹㄹㅕ -9095
ㅇㅣㄴㅅㅡ -9096
▁ㅌㅡㄱㄱㅗㅇㄷㅐ -9097
▁Sur -9098
▁ㅂㅜㄹㄱㅣ -9099
▁ㅂㅔㄹㅂㅔㅅ -9100
▁ㅅㅗㄴㅅㅜ -9101
▁ㅂㅜㄹㅇㅜㄴ -9102
▁777 -9103
▁ㅅㅣㄴㄹㅕㅇ -9104
▁ㅎㅏㅂㅅㅏㄴ -9105
UK -9106
▁ㅈㅡㅇㅎㅜ -9107
▁ㅊㅣㄹㅎㅡㄱ -9108
21 -9109
▁yeah -9110
▁PA -9111
▁ㅈㅗㅇㅈㅏ -9112
ㅇㅕㄴㅎㅏㅂ -9113
▁ㅅㅣㅁㅅㅣㅁㅊㅏㄶ -9114
▁ㅊㅣㄴㅇㅣㄹ -9115
36 -9116
▁1939 -9117
▁ㅁㅏㅇㅇㅝㄴ -9118
▁ㅂㅣㄹㅁㅣ -9119
▁ㅇㅣㄴㅍㅡ -9120
▁ㅊㅏㅁㅍㅐ -9121
ㅂㅡㄹㄹㅐㄴㄷㅡ -9122
▁ㄷㅗㅇㅁㅜㄹㅇㅝㄴ -9123
▁TN -9124
▁ㄷㅏㅇㅂㅜㄴㄱㅏㄴ -9125
▁ㅇㅣㅁㅎㅏ -9126
ㄸㅜㄹ -9127
▁Off -9128
▁ㅌㅡㄱㅊㅜㄹ -9129
▁ㅊㅐㄱㅇㅣㅁㅈㅏ -9130
ㅂㅗㄴㅈㅜ -9131
ㅇㅣㅂㄱㅜ -9132
▁ㅎㅏㄹㄷㅏㅇ -9133
ㅁㅏㅇㅊㅕㅆ -9134
▁ㅇㅐㄴㄷㅓ -9135
INE -9136
▁Int -9137
▁ㅂㅏㄹㅅㅏㄴ -9138
▁ㄱㅕㅇㅇㅣ -9139
▁ㅂㅗㄴㄱㅜㄱ -9140
▁ㅋㅏㄹㄹㅗ -9141
ㄱㅕㄱㄱㅣ -9142
▁ㅁㅗㄴㅌㅔ -9143
ㅇㅏㅅㄱㅣㄴ -9144
ㄴㅏㄴㄷㅗ -9145
▁ㄱㅏㅂㅍㅏㄴ -9146
▁ㄲㅡㅌㄴㅐㅆ -9147
oney -9148
ata -9149
▁ㅂㅐㄱㅅㅣㄴ -9150
▁ㅅㅓㅇㅁㅜㄴ -9151
▁1400 -9152
▁ㅎㅘㄹㅈㅜ -9153
▁ㅈㅓㅇㅂㅓㄹ -9154
▁ㅊㅣㅇㅅㅗㅇ -9155
▁ㅇㅏㄴㄱㅣ -9156
▁ㅈㅏㅇㅁㅏㄱ -9157
▁ㅇㅘㅇㄴㅕ -9158
▁ㅎㅕㅂㅇㅑㄱ -9159
▁WOR -9160
▁ㅊㅗㅇㅌㅗㅇ -9161
ㄹㅗㄴㅌㅣ -9162
ㅍㅜㅁㄱㅜㄴ -9163
▁ㄱㅘㄴㅈㅔ -9164
▁TF -9165
▁Bad -9166
▁ㅅㅏㅇㅎㅐ -9167
ㅎㅏㄴㅎㅏㅇㄱㅗㅇ -9168
ㄹㅔㄱㅌㅡ -9169
▁ㅇㅜㄹㅂㅜ -9170
▁ㅈㅓㄹㅁㅛ -9171
ㄱㅏㅆㅇㅡ -9172
▁Ul -9173
▁ㅈㅓㄴㅇㅜ -9174
vent -9175
▁ㄱㅡㅁㅅㅓㅇ -9176
▁ㅊㅏㅇㅇㅝㄴㅅㅣ -9177
▁ㅈㅓㄱㅈㅓㅇ -9178
▁ac -9179
▁ㄷㅡㅇㅅㅏㄴ -9180
▁ㅇㅕㄱㅈㅓㄴㅅㅡㅇ -9181
▁Po -9182
▁ㅇㅗㄴㅎㅘ -9183
UL -9184
▁ㅂㅏㄱㄱㅣ -9185
▁ㅅㅗㅇㅍㅏ -9186
▁ㅅㅣㄹㅂㅣ -9187
▁ㅈㅣㅇㅂㅕㅇ -9188
▁Match -9189
▁ㅊㅓㄴㅊㅔ -9190
▁ㅁㅔㅅㄷㅙ -9191
▁ㅌㅏㄹㄱㅓㅅ -9192
ㅇㅡㄱㄱㅗ -9193
▁ㄹㅏㄹㅍㅡ -9194
▁ㅈㅜㄹㅈㅜㄹㅇㅣ -9195
ㄸㅔ -9196
ㄲㅓㅂ -9197
line -9198
▁ㅊㅓㅂㅂㅗ -9199
▁ㅇㅕㅇㅈㅐ -9200
▁WCS -9201
▁org -9202
ague -9203
▁ㅁㅕㅇㅇㅣㄴ -9204
ㄸㅗ -9205
▁ㅇㅗㄱㅅㅜ -9206
▁ㅍㅜㄹㅂㅐㄱ -9207
▁275 -9208
▁Ass -9209
ㄴㅏㄴㄷㅔ -9210
▁ㅌㅗㅇㅎㅏㄴㄷㅏ -9211
▁DDR -9212
▁ㅈㅣㄴㅎㅏㄴ -9213
ㅅㅡㅇㅇㅜ -9214
UST -9215
▁say -9216
▁ㅅㅣㄴㅊㅗㄴ -9217
▁ㅂㅗㄱㅈㅗㅇ -9218
▁ㄷㅏㄴㅁㅏㄹㄱㅣ -9219
▁ㅂㅏㄴㅉㅏㄱㅇㅣ -9220
▁Are -9221
ㅈㅓㅇㅎㅗ -9222
▁ㄷㅏㄴㄱㅓ -9223
▁ㄹㅐㄴㄷㅣ -9224
▁ㅇㅏㅇㄹㅣ -9225
▁ㄴㅔㅂㅌㅠㄴ -9226
ㄴㅡㄹㅅㅐㄱ -9227
▁JC -9228
▁ㄱㅕㅇㅅㅣㄴ -9229
▁ㅅㅣㅁㅅㅡㄴ -9230
▁ㄴㅜㄴㅂㅜ -9231
▁ㅍㅔㄴㅅㅡ -9232
ㄱㅡㅂㅍㅜㅁ -9233
▁ㄸㅟㄹ -9234
▁221 -9235
▁ㄱㅏㄱㄱㅣ -9236
▁ㅅㅓㅇㅇㅠ -9237
ㄷㅜㄹㄱㅣ -9238
▁'- -9239
ton -9240
▁ㄱㅏㅇㅇㅕㄴ -9241
▁ㅅㅓㄴㅁㅕㅇ -9242
▁KD -9243
ㅌㅐㄴㄷㅣㅇ -9244
▁ㅅㅓㄹㅅㅏ -9245
ㅅㅣㄹㅎㅣ -9246
▁ㄱㅏㄱㅅㅐㄱ -9247
ㅇㅞㅂ -9248
▁ㅇㅐㄱㅌㅡ -9249
ㅊㅔㄴ -9250
▁ㅅㅣㅁㅍㅗ -9251
ck -9252
▁ㄱㅏㅁㅅㅗㄱ -9253
▁ㄱㅗㅇㅂㅕㅇ -9254
▁ㅁㅜㄴㅎㅗ -9255
▁Eng -9256
▁ㅁㅣㄴㅈㅗㄱㅈㅜ -9257
▁~' -9258
▁ㄴㅏㄹㄹㅣㄹ -9259
▁ㅈㅏㄴㄷㅏㅇ -9260
78 -9261
▁TWICE -9262
▁ㄴㅓㅁㄱㅣㄹ -9263
▁Char -9264
▁ㅃㅏㅇㅃㅏㅇ -9265
ㅂㅏㄼ -9266
HD -9267
ㅆㅏㄹ -9268
▁RED -9269
▁ㅎㅏㅇㄹㅗ -9270
▁ㄷㅏㄴㅂㅐㄱ -9271
▁ㅊㅓㄹㅂㅕㄱ -9272
▁Core -9273
▁ㅇㅕㅇㄹㅕㅇ -9274
▁ㅇㅣㅂㅅㅓㅇ -9275
▁see -9276
▁}}}} -9277
ㅂㅣㄱ -9278
▁ㅈㅓㅇㅇㅕㄴ -9279
▁ㅈㅓㄴㄹㅠ -9280
▁}}}}}} -9281
▁ㄱㅏㄴㅈㅏㅇ -9282
▁ㄱㅗㅇㅅㅓㄱ -9283
▁ㅍㅕㅇㅎㅐㅆ -9284
▁ㄱㅡㅁㄱㅗㄱ -9285
erm -9286
ㅈㅜㄴㅅㅓㄱ -9287
▁ㅂㅜㄴㅈㅏ -9288
ㄸㅗㅇ -9289
▁ㄱㅓㄹㅅㅡ -9290
ㅇㅗㄹㄹㅔㅅ -9291
▁ㅎㅕㅂㄱㅗㅇ -9292
und -9293
▁ㄱㅣㅁㅅㅗ -9294
ㄷㅗㅇㄷㅏㅇ -9295
▁1938 -9296
▁ㅈㅓㅇㅈㅔ -9297
▁ㅂㅐㄱㅅㅜ -9298
hy -9299
ute -9300
▁Now -9301
▁ㄱㅡㄹㄹㅣ -9302
ㅇㅕㅁㅂㅏㅇㅅㅏ -9303
▁ㅂㅏㄹㄷㅗ -9304
▁ㄱㅓㅌㅂㅗ -9305
▁ㄷㅗㄹㄹㅕㅆ -9306
▁BRV -9307
▁ㅅㅓㅆ -9308
▁ㅇㅏㄴㅌㅔ -9309
▁ㅂㅜㅇㄷㅐ -9310
▁ㅅㅣㄴㄱㅗㅇ -9311
▁ㄱㅣㅁㅎㅕㄴㅅㅜ -9312
▁216 -9313
ㅌㅡㄹㅍㅣㄹㄷㅡ -9314
▁ㅅㅓㄱㅂㅏㅇ -9315
ㅇㅜㅅㅇㅡㅁ -9316
▁213 -9317
▁ㅇㅛㄴ -9318
▁ㅈㅔㄴㅈㅣ -9319
AA -9320
▁ㅂㅗㄹㄹㅣ -9321
ㅈㅓㄱㅎㅘ -9322
▁Blood -9323
▁ㅍㅏㄹㄲㅜㅁㅊㅣ -9324
▁ㅈㅓㄴㄱㅏㄹ -9325
▁ㅍㅜㅅㅂㅗㄹ -9326
▁ㅇㅣㅁㅈㅣㄴㅇㅙ -9327
ILL -9328
ㅅㅓㅇㅅㅣ -9329
▁ㅈㅜㄴㅇㅣ -9330
▁ㅎㅐㄱㅁㅜ -9331
ㅂㅓㅂㅇㅝㄴ -9332
▁ㄷㅏㅇㄱㅡㄴ -9333
▁ㅁㅝㅅ -9334
▁Rob -9335
▁our -9336
▁ㅎㅑ -9337
red -9338
▁ㅋㅕㄴ -9339
▁ㄱㅏㅁㄷㅗ -9340
▁Joh -9341
▁ㅂㅣㄴㅅㅡ -9342
▁ㄱㅜㄴㄷㅏㄴㅈㅏㅇ -9343
▁1952 -9344
▁ㅇㅘㄴㅈㅜ -9345
▁ㅌㅏㄴㅅㅜ -9346
ㄴㅘㅆ -9347
▁Last -9348
▁2021 -9349
ㅅㅓㅇㅈㅜ -9350
▁ㅁㅔㄹㄹㅣ -9351
▁ㅇㅣㄹㄹㅜ -9352
▁ㅇㅏㄴㅈㅜㅇ -9353
▁ㅎㅗㅁㄱㅜ -9354
ㅂㅏㅇㅅㅣㄱ -9355
▁fr -9356
▁ㅅㅣㄴㅎㅏㄴㅇㅡㄴㅎㅐㅇ -9357
55 -9358
▁ㄸㅜㅀㄹㅣ -9359
ㄷㅓㄼ -9360
▁ㄷㅗㅇㅍㅗ -9361
▁416 -9362
▁ㅇㅕㄱㄱㅘㄴ -9363
▁ㅈㅏㅇㄷㅏㄴ -9364
ism -9365
▁BW -9366
▁ㅅㅓㄴㅎㅕㅇ -9367
▁ㅊㅣㅁㅅㅣㄱ -9368
▁ㅊㅣㄴㄱㅡㄴ -9369
▁ㅈㅜㅇㄹㅕㅇ -9370
add -9371
▁ㅅㅓㄴㅂㅣ -9372
▁XY -9373
ㅌㅐㄴㅅㅡ -9374
OCK -9375
▁ㅃㅜㅁㅇㅓ -9376
▁ㅂㅏㄴㄱㅏ -9377
▁ㅎㅘㅇㅈㅏ -9378
▁ㅅㅞㄴ -9379
▁ㅊㅓㄴㄷㅗ -9380
▁ㄱㅘㅇㅎㅏㄱ -9381
▁ㅈㅓㅇㅈㅣㄱ -9382
ㄹㅏㄴㅊㅡ -9383
▁right -9384
▁ㅃㅏㄹㄹㅕ -9385
▁ㅅㅏㄹㄹㅣㄴ -9386
ets -9387
III -9388
ㄹㅏㄴㅌㅣ -9389
▁Magic -9390
▁ㅇㅏㅍㅁㅏ -9391
▁ㄷㅏㄴㄷㅏㄴㅎㅣ -9392
▁ㅂㅏㄹㅌㅡ -9393
▁ㅇㅔㄹㅅㅗ -9394
ㅇㅛㅇㅊㅏ -9395
▁ㄷㅗㅇㄱㅜㄱ -9396
ㅅㅏㄴㄹㅣ -9397
▁ㅅㅏㄹㄹㅣㄹ -9398
▁ㅇㅣㅁㅍㅔ -9399
▁ㅈㅏㅇㄷㅗㅇㅁㅣㄴ -9400
ama -9401
ㅊㅐㅆ -9402
▁ㅊㅓㅇㅎㅏ -9403
▁cr -9404
▁ㄷㅓㅂ -9405
▁ㄱㅕㄹㅂㅕㄹ -9406
ㅌㅡㄹㄹㅐㄴ -9407
▁ㅇㅗㄻㄱㅣㄴ -9408
▁ㅎㅘㅇㅈㅗㄱ -9409
▁ㅇㅛㅇㅍㅜㅁ -9410
▁ㄷㅟㅅㅂㅏㄷㅊㅣㅁ -9411
▁ㅁㅗㄹㄹㅣㄴ -9412
▁ㄷㅏㄴㅈㅓㄹ -9413
▁ㄱㅓㄴㄹㅣㅂ -9414
▁ㅇㅗㄴㅈㅓㄴㅎㅣ -9415
▁ㄱㅗㄹㄷㅐ -9416
▁ㄱㅘㄴㄷㅐ -9417
ㅁㅜㄷ -9418
▁ㅉㅏㄹㅁㅏㄱ -9419
ㄱㅡㄴㄷㅜ -9420
▁ㅅㅓㅇㄱㅡㅂ -9421
▁ㅌㅗㄱㅌㅗㄱ -9422
ㅈㅏㅇㅈㅏㅇㅇㅣ -9423
ㅂㅏㄲ -9424
▁ㄱㅣㅁㅇㅕㅇㅅㅏㅁ -9425
88 -9426
▁ㄴㅜㄹ -9427
▁ㅁㅕㅇㅍㅜㅁ -9428
ASS -9429
▁ㅃㅐㅅㄱㅣ -9430
▁ㅅㅏㄴㅎㅘ -9431
xt -9432
▁ㅈㅡㅇㅇㅝㄴ -9433
▁pe -9434
▁ㄱㅕㅇㅈㅓㄴㅊㅏ -9435
▁AMD -9436
ㅍㅏㄴㅅㅗ -9437
▁ㅈㅓㄴㄱㅗ -9438
ㅎㅗㅇㅊㅓㄹ -9439
▁ㅌㅐㄱㅎㅏ -9440
▁Like -9441
▁ㅇㅣㄴㅂㅜㄴ -9442
▁Alb -9443
▁ㄱㅕㄱㅎㅏ -9444
OWN -9445
▁ㅎㅕㄴㅈㅓ -9446
ㄱㅜㄱㅁㅣㄴ -9447
▁ㄷㅏㄴㅇㅕㄴ -9448
▁ㅎㅏㄴㄱㅕㄹ -9449
▁ㅇㅣㄹㅈㅓㅇㄹㅑㅇ -9450
▁ㄱㅜㄻㅈㅜ -9451
▁#, -9452
▁ㅇㅜㄹㅂㅓ -9453
▁ㅇㅣㄴㅅㅣㄴ -9454
▁ㄴㅏㅁㄱㅣㄴㄷㅏ -9455
ㅎㅕㄴㄷㅗㅇ -9456
▁ㅁㅣㄹㅊㅕ -9457
▁1300 -9458
ㅍㅏㄴㄱㅣ -9459
ㅈㅓㅇㅎㅜㄴ -9460
ader -9461
▁ㅎㅏㄱㅇㅓㅂ -9462
▁ㅅㅐㄴㄷㅣ -9463
ㅋㅔㄹㄹㅔ -9464
▁ㄹㅓㄱㅅㅡ -9465
▁ㅎㅕㄴㅈㅣㄹ -9466
▁ㅈㅏㅇㄴㅕ -9467
ㄱㅗㅇㅈㅜ -9468
▁Happy -9469
ㄱㅗㄴㅈㅡ -9470
▁ㅅㅏㅇㄹㅠ -9471
▁ㄱㅜㄴㅈㅜㅇ -9472
ㄴㅕㅁㅇㅣㄹ -9473
OWER -9474
▁ㅍㅗㄱㅌㅜ -9475
ㄴㅕㄴㄷㅏㄴ -9476
▁ㅅㅏㄴㅅㅏㄴ -9477
▁HOT -9478
▁ㅅㅏㅇㅈㅓㅇ -9479
▁ㅋㅗㄹㄹㅣㄴ -9480
▁NA -9481
▁Nor -9482
▁1953 -9483
▁BBC -9484
▁Soul -9485
▁ㅇㅕㄱㅈㅓㄴㅍㅐ -9486
▁ㄷㅓㅁㅂㅣ -9487
▁ㅁㅣㄴㅂㅕㅇㄷㅐ -9488
▁there -9489
▁ㄱㅓㅁㅊㅏㄹㅊㅓㅇ -9490
ocal -9491
ther -9492
▁ㅈㅡㅁ -9493
▁ㅁㅔㄱ -9494
▁ㅎㅐㅇㅈㅓㅇㅂㅜ -9495
▁ㅅㅏㄴㅊㅔ -9496
▁ㅂㅓㅂㅈㅓㅇㄷㅗㅇ -9497
ㅌㅜㄱㅌㅟ -9498
▁ㅍㅕㅇㅇㅏㄴ -9499
▁ㅇㅏㄴㅊㅣ -9500
▁RR -9501
▁ㅊㅗㅇㄱㅜ -9502
ga -9503
▁ㅍㅗㄱㄱㅜㄴ -9504
▁223 -9505
▁ㅈㅡㄱㅅㅓㄱ -9506
▁PvP -9507
▁ㄱㅚㅇ -9508
▁ㅁㅓㄹㄹㅣㄴ -9509
▁ㄴㅏㅈㅊㅝ -9510
▁ㅈㅗㄹㅈㅣ -9511
▁ㄱㅏㅂㅌㅜㄱㅌㅟ -9512
▁ㄷㅡㄹㅌㅗㅇ -9513
▁ㅎㅕㄴㅎㅐㅇ -9514
ㅂㅡㄹㄹㅏㅇ -9515
▁ㄱㅕㅇㅇㅕㅇㅎㅏㄱ -9516
ㅈㅏㅇㄱㅜ -9517
ㅁㅣㄴㅎㅗ -9518
▁ㅅㅜㄱㅁㅕㅇ -9519
▁ㅊㅣㄴㅅㅓㄴ -9520
▁ㄱㅘㄴㄱㅓㄴ -9521
▁ㄹㅡㅇ -9522
ㄷㅐㄴ -9523
▁ㅊㅓㄴㄹㅣ -9524
▁ㄱㅜㄱㅅㅜ -9525
▁ㄱㅝㄴㄱㅗ -9526
▁ㄱㅏㅇㄴㅏㅁㄱㅜ -9527
▁ㄱㅕㅇㅅㅣ -9528
▁ㅎㅐㅅㅂㅣㅊ -9529
▁ㅈㅣㅂㅈㅓㅇㄱㅘㄴ -9530
▁Party -9531
▁ㅌㅐㄹ -9532
▁ㅅㅔㄱㅌㅓ -9533
▁ㅇㅗㅁㄴㅣ -9534
▁ㅇㅣㄹㅈㅣㄱㅅㅓㄴ -9535
▁ㅇㅜㄴㅈㅓㄴㅈㅏ -9536
▁7000 -9537
▁ㅅㅏㅂㅇㅣㅂㄱㅗㄱ -9538
uz -9539
▁ph -9540
▁ㅂㅏㄹㄹㅔㄴㅅㅣ -9541
▁ㅅㅓㄴㅈㅣㄴㄱㅜㄱ -9542
ㅇㅝㄴㅅㅜ -9543
ㄹㅗㄹㄹㅏ -9544
ㅂㅡㄹㄹㅜ -9545
▁ㄷㅜㄴㅎㅘ -9546
ㅋㅡㄹㄹㅐㄴㄷㅡ -9547
▁Show -9548
▁ㅂㅔㄴㅌㅡ -9549
▁Edition -9550
▁Sim -9551
▁girl -9552
ㅁㅐㅇㅇㅣ -9553
▁ㅇㅓㅂㅈㅗㅇ -9554
▁Side -9555
ㅌㅏㄹㄱㅣ -9556
▁ㅌㅏㄹㅌㅏㄹ -9557
▁ㅆㅐㅇ -9558
▁ㅈㅣㅅㅂㅏㄼ -9559
▁ㅁㅜㄱㅈㅣㄱ -9560
▁ㅈㅣㄴㄱㅗㅇ -9561
ㅈㅗㅇㅅㅓㄱ -9562
ㄱㅗㅇㄱㅐ -9563
▁ㅍㅣㄹㄱㅣ -9564
▁ㄹㅏㄴㅌㅡ -9565
▁ㅇㅡㅇㅈㅣㅇ -9566
▁ㅍㅐㄴㅋㅡㄹㄹㅓㅂ -9567
▁ㅈㅓㅁㅎㅏ -9568
rew -9569
▁feel -9570
▁got -9571
▁ㅂㅏㅇㄷㅐ -9572
▁ㄷㅗㅇㅁㅕㅇㅇㅣ -9573
work -9574
▁net -9575
▁ㅂㅔㄱ -9576
▁ㅅㅓㄴㄱㅡㄹㄹㅏ -9577
▁ㄱㅣㄴㅈㅏㅇㄱㅏㅁ -9578
▁365 -9579
▁ㅌㅗㅇㅎㅏㄱ -9580
▁ㅊㅜㄹㅇㅕㄴㅈㅏ -9581
ONE -9582
ated -9583
▁Und -9584
ㅆㅡㄴ -9585
▁ㅊㅜㄹㅅㅔ -9586
▁GX -9587
hammer -9588
▁ㄱㅣㅁㅌㅐㄱㅇㅛㅇ -9589
ley -9590
▁ㅇㅏㅍㅉㅗㄱ -9591
▁ㅅㅓㅇㄴㅏㅁㅅㅣ -9592
▁his -9593
▁ㅇㅗㄴㄱㅔ -9594
ㅅㅣㄴㅈㅓㄴ -9595
ㅅㅓㄴㅇㅣㄹㅂㅗ -9596
▁TT -9597
ㄸㅡㄴ -9598
ERF -9599
ster -9600
▁ㅂㅜㄴㅈㅓㄴ -9601
▁ㄴㅜㄴㅆㅓㅂ -9602
▁RPM -9603
▁ㄱㅘㄴㅈㅓㄴ -9604
▁who -9605
▁ㅎㅠㅇㅌㅓ -9606
▁ㅂㅏㅇㅇㅕㅇㅇㅣㄹ -9607
ㄱㅏㅁㅊㅣ -9608
ㄴㅜㄱ -9609
▁Mark -9610
▁ㅍㅐㄹㄹㅣ -9611
▁ㅊㅜㅇㄱㅗㅇ -9612
ㅇㅣㅁㄴㅔㅅ -9613
98 -9614
▁ㄱㅐㅇㄷㅏㄴ -9615
▁Cap -9616
▁micro -9617
▁Open -9618
▁ㄹㅣㄱㅅㅡ -9619
ㅅㅜㄹㄱㅘㄴ -9620
▁370 -9621
ㅁㅜㅅㅇㅣㅍ -9622
▁Way -9623
▁Pol -9624
ㅁㅏㅇㅊㅣㄴ -9625
▁ㄱㅏㄴㅍㅕㄴ -9626
▁ㅂㅕㅇㅅㅣㄴ -9627
▁ㅅㅐㅇㅂㅏㅇㅅㅗㅇ -9628
▁SKE -9629
▁Angel -9630
▁ㅈㅜㅇㅅㅏ -9631
▁Na -9632
▁ㅂㅓㄴㄱㅓ -9633
▁Val -9634
▁watch -9635
▁ㅌㅔㄴㄷㅓ -9636
▁ㅎㅘㄴㅂㅜㄹ -9637
ㄹㅐㅇㅋㅡㄹㄹㅣㄴ -9638
ㅎㅕㅇㅇㅜ -9639
▁ㅇㅕㄱㄱㅘ -9640
▁ㅎㅐㅇㄱㅏㄱ -9641
▁ㄱㅜㄱㅈㅓㅇㅇㅝㄴ -9642
BOX -9643
▁ㄸㅏㄹㄹㅕ -9644
▁ㅇㅏㄴㅅㅣㄱ -9645
▁ㅈㅓㅇㅈㅗㅇ -9646
ㅈㅣㅍ -9647
▁ㅂㅜㄴㅅㅜ -9648
▁ㄱㅘㄴㄱㅘㅇㅈㅣ -9649
▁1957 -9650
▁ㅇㅓㄱㅇㅏㅂ -9651
ㄱㅕㄱㄷㅐ -9652
ㅅㅓㄴㄱㅓ -9653
48 -9654
▁ㅅㅓㅇㄷㅗㅇ -9655
▁ㅌㅔㅁㅍㅡㄹㄹㅓ -9656
▁ㅈㅓㅇㅈㅜㅇ -9657
▁ㅇㅣㄹㅉㅣ -9658
▁ㅁㅣㄴㅌㅡ -9659
▁ㅇㅝㄴㅇㅓ -9660
▁ㄱㅕㅇㅇㅢ -9661
▁ㅈㅗㄹㄹㅏ -9662
ㅅㅐㅇㅊㅜㅇ -9663
▁Legend -9664
▁ㄴㅏㅁㄱㅡㄱ -9665
▁ㅂㅗㄹㅇㅣㄹ -9666
▁ㅈㅏㄹㄹㅣㄴ -9667
ird -9668
▁ㅍㅜㅇㅅㅗㄱ -9669
ATE -9670
▁ㄷㅚㅆ -9671
▁Stage -9672
▁ㅅㅗㄱㅅㅏ -9673
▁090 -9674
▁Comp -9675
ㅅㅏㅇㄱㅜㄴ -9676
▁ㅅㅣㅁㅂㅜ -9677
▁ㄱㅝㄴㅇㅕㄱ -9678
▁ㅅㅜㄴㅅㅜㄴ -9679
▁ㄷㅏㄴㅂㅓㄴㅇㅔ -9680
▁ㅌㅐㅁ -9681
▁ㄱㅗㄹㄱㅗ -9682
▁ㄱㅣㄹㅁㅗㄱ -9683
ㄴㅐㅆㅇㅡ -9684
▁ㅅㅓㄴㅊㅓㄴ -9685
▁ㅊㅗㅇㅎㅚ -9686
▁ㄷㅏㄴㅂㅐㄱㅈㅣㄹ -9687
▁ㅅㅏㄴㅎㅗ -9688
▁ㄷㅗㅇㅅㅏㄴ -9689
▁ㅂㅏㅇㅈㅓㅇㅅㅣㄱ -9690
▁ㅊㅣㄴㅎㅘ -9691
▁ㅌㅏㄹㅈㅜ -9692
▁ㄱㅡㅂㅅㅏㅇ -9693
▁ㅅㅏㅇㄱㅗ -9694
▁ㅂㅐㄱㄹㅛㅇ -9695
▁ㄸㅟㄴ -9696
ㅁㅣㅌ -9697
▁ㅂㅏㄱㅌㅐ -9698
ㅇㅓㅂㄱㅏ -9699
▁ㅈㅣㄱㄱㅖ -9700
▁ㅊㅓㄱㅎㅏ -9701
AGE -9702
▁ㅉㅗㄱㅈㅣ -9703
▁ㅊㅓㅁㄱㅏ -9704
ura -9705
ㅁㅐㅂ -9706
▁ㄲㅗㅁㅉㅏㄱ -9707
▁ㅂㅗㄴㄷㅡ -9708
▁950 -9709
▁ㅎㅕㄴㅅㅜ -9710
▁ㅆㅡㄹㅆㅡㄹ -9711
▁ㅊㅜㅇㅅㅣㄹㅎㅣ -9712
▁Fall -9713
ㄹㅓㅇㅇㅣ -9714
ㅁㅏㄴㄷㅗ -9715
▁ㅁㅗㅁㅈㅣㅂ -9716
▁Fly -9717
▁ㅇㅕㄱㅈㅓㄴㅈㅐ -9718
▁ㅁㅕㅇㅈㅏㅇㅁㅕㄴ -9719
ㄹㅜㅅ -9720
▁245 -9721
▁Sam -9722
▁life -9723
ㅋㅐㅅ -9724
stem -9725
ㅌㅏㅇㅅㅡ -9726
▁ㅂㅗㄱㄱㅏㄱ -9727
▁ㅇㅏㄱㅂㅗ -9728
▁ㄴㅗㅇㅊㅗㄴ -9729
▁ㄴㅗㅇㅂㅜ -9730
▁ㅈㅓㅇㅈㅓㄱ -9731
▁ㅆㅐ -9732
ㅇㅣㅂㅂㅜ -9733
▁First -9734
▁ㅊㅓㄴㅇㅕㄴㄱㅏ -9735
ㅋㅓㄴㄷㅐ -9736
ㅎㅑㅇㄱㅗㄱ -9737
▁ㅂㅜㄺㅇㅡㄴㅅㅐㄱ -9738
▁Perf -9739
▁ㅇㅡㄴㄱㅏ -9740
▁ㅈㅓㅇㅇㅠㄴ -9741
ㄲㅐㅇ -9742
▁ㄱㅜㄱㅁㅜㄹ -9743
ㅁㅓㅁ -9744
▁ㅇㅛㄱㅁㅓㄱ -9745
▁ㅇㅣㄹㄱㅏㄹ -9746
▁ㅊㅜㅇㄷㅗㅇ -9747
▁ㅅㅡㄹㅉㅓㄱ -9748
▁ㅇㅣㄹㅅㅓㄴ -9749
▁ㅈㅏㄴㅇㅕ -9750
▁ㅁㅏㅈㅊㅝㅆ -9751
▁ㄱㅗㅇㅅㅣ -9752
▁-! -9753
▁ㄱㅘㄴㅎㅏ -9754
udio -9755
arius -9756
▁ㅁㅕㄴㅇㅡㄴ -9757
▁ㄷㅗㄹㅍㅜㅇ -9758
▁ㅇㅕㄲㅇㅣㄴ -9759
▁ㄴㅗㄹㄹㅏㄴㄷㅏ -9760
▁!!! -9761
▁ㄱㅡㅁㅅㅓ -9762
▁ㅅㅜㄴㅅㅜㄴㅎㅣ -9763
▁ㅇㅑㅇㄷㅗ -9764
▁ㅉㅣㅁ -9765
err -9766
▁Class -9767
▁ㄹㅏㄴㄷㅏ -9768
▁234 -9769
▁ㅅㅑㄹㄹㅗ -9770
▁ㅅㅣㄴㄴㅕㄴ -9771
▁540 -9772
▁ㅇㅏㅁㅅㅡ -9773
▁ㅊㅓㄹㅌㅚ -9774
ㅅㅗㅇㅅㅓㄴ -9775
ㄲㅗㅁ -9776
▁Spring -9777
▁City -9778
▁ㅇㅏㄱㅇㅣㄴ -9779
▁ㅇㅡㅁㄹㅏㄴ -9780
▁Break -9781
▁ㅂㅗㅁㅂㅓ -9782
▁Er -9783
▁ㅇㅏㅁㄱㅣ -9784
▁ㅋㅗㄴㄷㅗ -9785
▁Final -9786
ㅎㅕㅇㅈㅔ -9787
▁ㅂㅐㄱㅈㅣ -9788
ㅎㅏㅇㄱㅜㄴ -9789
▁ㅅㅣㄴㅈㅗㅇ -9790
▁ㄴㅡㅇㄷㅗㅇ -9791
▁ㄱㅕㅇㅅㅜㄴㅇㅑㅇㅎㅏㅁ -9792
▁ㅈㅓㄴㄱㅕㅇ -9793
▁Free -9794
▁top -9795
▁ㄹㅣㅇㅋㅓㄴ -9796
ㅅㅂㅣㅊ -9797
▁Down -9798
▁~? -9799
▁IF -9800
ㅅㅓㄹㅈㅏ -9801
▁ㄱㅡㄴㄹㅐ -9802
REME -9803
yes -9804
ling -9805
▁1947 -9806
TH -9807
▁ㄱㅡㄱㅅㅓㅇ -9808
▁ㅇㅑㅇㅍㅕㅇ -9809
▁440 -9810
ㄱㅓㄴㅅㅓㄹ -9811
ㅅㅐㅇㅇㅑㅇ -9812
▁ㅈㅣㄻ -9813
ㅇㅣㄹㄱㅣ -9814
▁Never -9815
ㅇㅣㄴㅅㅜ -9816
▁ㄷㅏㄹㄹㅣㄴㄷㅏ -9817
▁ㄲㅏㅁㅃㅏㄱ -9818
▁249 -9819
▁ㅈㅓㅇㄷㅐ -9820
ux -9821
▁Cor -9822
▁ㅍㅣㄹㅅㅡㅇ -9823
▁ㅊㅜㅇㄱㅗㅇㄲㅐㅇ -9824
▁MAN -9825
▁ㅇㅘㄴㅍㅐ -9826
▁If -9827
▁ㅍㅡㄹㄹㅐㅅㅍㅗㅁ -9828
▁How -9829
ㄴㅜㄴㄷㅏ -9830
▁ㅁㅐㄴㄴㅏㄹ -9831
▁ㅇㅏㅁㅎㅡㄱㄱㅣ -9832
ㅂㅗㄲ -9833
▁Mon -9834
ㄹㅡㄴㅅㅐㄱ -9835
▁ㅁㅏㅇㅎㅏㄹ -9836
▁ㅂㅏㄴㄷㅏㄹ -9837
▁ㄹㅜㅇ -9838
▁ㅇㅡㄿ -9839
ㅅㅓㄹㅌㅡ -9840
▁ㅅㅓㅇㅎㅢ -9841
▁ㅊㅗㅇㅈㅐ -9842
tm -9843
▁ㅇㅣㅁㅇㅛㅇ -9844
ㅂㅓㄱㅈㅣ -9845
▁ㅈㅏㄱㅁㅜㄹ -9846
▁ㄱㅣㅁㅎㅗ -9847
▁ㅈㅏㅇㅎㅏㄱㄱㅡㅁ -9848
▁ㅇㅔㄱㅅㅔㄹ -9849
▁ㅇㅗㅂㅅㅡ -9850
▁ㄷㅗㄹㅂㅘ -9851
▁ㄱㅡㄴㅎㅘㅇ -9852
▁-. -9853
▁ㅎㅐㅇㅎㅐ -9854
▁ㅂㅜㄹㄹㅣㄴ -9855
▁ㅂㅓㅁㅈㅜ -9856
▁ㄱㅕㄱㄴㅏㅂ -9857
▁GOT -9858
▁ㅁㅕㅇㅇㅡㄴ -9859
▁ㅇㅕㄴㅅㅓㅇ -9860
▁ㅈㅣㄴㅎㅐㅇㅎㅏㄹ -9861
ause -9862
▁PRO -9863
▁ㅅㅏㄴㅌㅗ -9864
▁ㅈㅐㅇㅌㅏㄹㅈㅓㄴ -9865
IME -9866
▁ㅇㅑㅁㅈㅓㄴ -9867
▁ㅈㅓㅇㄱㅕㅇ -9868
erry -9869
tain -9870
ㅇㅝㄴㅈㅣ -9871
ㅈㅣㄴㅇㅜ -9872
▁ㅇㅕㄴㅇㅏㄴ -9873
▁Swe -9874
▁ㅁㅗㅁㅊㅔ -9875
▁ㅇㅔㅁㅂㅡㄹㄹㅓㅁ -9876
▁ㅇㅏㄱㅈㅣㄹ -9877
ㅈㅓㄴㄱㅘㅇㅇㅕㄱㅅㅣ -9878
ㅇㅑㅇㄱㅜㄴ -9879
▁Mem -9880
raft -9881
▁219 -9882
▁226 -9883
▁ㅇㅏㄹㅋㅗ -9884
iny -9885
▁ㅂㅜㄴㄱㅘ -9886
▁011 -9887
▁ㄱㅏㄴㅅㅏ -9888
▁ㅅㅓㄴㅇㅕㄱ -9889
▁sk -9890
ㅌㅡㄹㄹㅐㄴㅌㅏ -9891
▁Sn -9892
▁ㄷㅏㅇㄱㅕ -9893
▁ㅇㅛㅇㅇㅘㅇ -9894
▁ㄱㅕㅇㅈㅓㄴㅊㅓㄹ -9895
ㅁㅏㅇㅊㅣㄴㄷㅏ -9896
▁ㄱㅣㅁㅈㅔ -9897
▁ㅅㅏㅅㅍㅗ -9898
▁ㅍㅏㄴㄱㅘ -9899
▁ㅈㅓㅁㅍㅗ -9900
▁ㄸㅡㄴㄱㅗㅇ -9901
▁ㅁㅏㄴㅇㅏㄱ -9902
▁ㅂㅜㄹㅎㅓ -9903
▁ㄷㅐㄹㄹㅓ -9904
▁BP -9905
▁ㅊㅣㅁㅊㅔ -9906
▁ㅇㅏㅍㅈㅏㅇ -9907
ㅇㅜㄴㅌㅣㄴ -9908
▁ㅈㅓㅇㅎㅏㄴㄷㅏ -9909
▁ㅈㅐㅂ -9910
▁ㅊㅓㅇㅁㅜㄴ -9911
▁ㄱㅏㅁㅇㅕㅁㅈㅏ -9912
ㅁㅓㄱㅇㅣ -9913
▁ㅎㅙ -9914
ㄷㅗㅇㄷㅐ -9915
▁ㄱㅗㄷㅇㅣ -9916
ㅇㅑㄴㅅㅐㄱ -9917
▁ㅅㅜㄴㅈㅗ -9918
de -9919
▁end -9920
▁ㅇㅏㅍㄷㅜㄴ -9921
▁ㅇㅐㄱㅅㅔㄹ -9922
▁ㄱㅡㅂㅅㅏㅇㅅㅡㅇ -9923
▁ㄴㅏㅁㅊㅣㄴ -9924
▁ㅁㅗㅇㄸㅏㅇ -9925
▁ㅎㅏㄴㅅㅓㅇ -9926
▁ㄱㅗㅇㅈㅜㅇㅈㅓㄴ -9927
▁ㅎㅘㄹㅇㅑㄱㅅㅏㅇ -9928
▁aqu -9929
ㅃㅏㅆ -9930
▁ㅎㅘㄹㄱㅣ -9931
▁ㅇㅔㅁㅂㅡㄹㄹㅔㅁ -9932
▁ㄱㅏㅂㅈㅜ -9933
ㅈㅏㅇㅍㅏㄴ -9934
▁ㄴㅡㅇㅇㅛㄱ -9935
▁ㅇㅝㄹㅌㅓ -9936
▁ㅂㅗㄱㄱㅝㄴ -9937
ival -9938
74 -9939
▁ㅅㅜㄴㅅㅏㄱ -9940
▁ㅇㅏㄹㅁㅏㅈ -9941
▁ㅈㅜㅇㅅㅜㄴㅇㅑㅇㅎㅏㅁ -9942
▁ㅇㅡㅁㅅㅣㄱㅈㅓㅁ -9943
ㅇㅏㄴㅌㅏ -9944
▁make -9945
▁ㅊㅗㅅㅂㅜㄹ -9946
▁9000 -9947
▁1951 -9948
▁EXTREME -9949
▁".. -9950
▁ㅈㅜㄴㅈㅏㅇ -9951
▁ㅇㅜㄴㅇㅣㅁ -9952
▁ㅊㅗㅇㄷㅐ -9953
ㅍㅕㅇㄱㅠㄴ -9954
▁ㅋㅡㄴㅇㅣㄹ -9955
▁ㅁㅏㄱㅎㅕㅆ -9956
▁ㅅㅣㄱㅇㅣㄴ -9957
▁ㅅㅏㅇㅇㅣㅁ -9958
▁ㅈㅜㅇㅍㅏ -9959
▁ㅅㅓㄴㅂㅕㄹ -9960
▁cont -9961
▁ㅅㅏㅇㄱㅕㅇ -9962
▁ㅈㅓㄴㄹㅕㅇ -9963
▁ㄱㅡㅂㅎㅏㄴ -9964
▁ㅂㅣㄹㅎㅔㄹ -9965
▁AW -9966
ㄸㅡㄷ -9967
▁ㄷㅏㄴㅌㅏ -9968
▁ㅇㅣㄱㅁㅕㅇ -9969
que -9970
▁ㅂㅏㅇㄱㅘㄴ -9971
▁ㅂㅏㄱㅂㅕㅇㅎㅗ -9972
▁play -9973
▁ㅍㅗㄹㄹㅏ -9974
▁Christ -9975
▁ㅂㅓㄴㅇㅕㅇ -9976
▁Hol -9977
▁ㅃㅐㄱ -9978
▁ㅈㅓㄹㅇㅑㄱ -9979
▁ㅇㅑㅇㅈㅣ -9980
▁ㄷㅗㄹㄹㅣㄴ -9981
▁1914 -9982
▁ㄱㅓㅁㄷㅗ -9983
▁ㅁㅔㄴㅌㅗ -9984
22 -9985
RO -9986
▁228 -9987
▁375 -9988
▁ㅁㅏㄱㅁㅏㄹ -9989
▁ㅆㅏㅇㅇㅛㅇ -9990
▁ㅅㅣㄴㅁㅣㄴ -9991
▁ㅁㅏㄴㅇㅜ -9992
▁part -9993
▁ㄱㅘㅇㅍㅗㄱ -9994
▁224 -9995
▁233 -9996
▁MIX -9997
▁ㄱㅗㅇㅊㅐ -9998
▁ㅇㅏㄱㅈㅏㅇ -9999
▁ㅁㅏㅇㅅㅓㄹㅇㅣ -10000
▁ㄱㅓㄷㅇㅓ -10001
▁ㄲㅏㄹㄹㅣ -10002
▁ㄸㅣㅇ -10003
ㅅㅋㅗ -10004
▁ㅈㅜㅇㅊㅜ -10005
▁ㅅㅓㅇㅂㅓㅁㅈㅚ -10006
▁ㅅㅕㅅ -10007
▁ㅉㅏㅇㄱㅜ -10008
ㅅㅗㅅ -10009
▁ㅈㅓㄱㄱㅣ -10010
idd -10011
ㅁㅍㅣㅇ -10012
▁ㅈㅏㅁㅅㅣㄱ -10013
erg -10014
▁ㅈㅣㄹㅅㅜ -10015
▁ㅅㅗㄴㅊㅐㄱ -10016
▁ㄱㅓㅂㅈㅐㅇㅇㅣ -10017
▁ㄷㅗㅇㄱㅡㅂㅅㅐㅇ -10018
ino -10019
▁ㅋㅗㅇㄷㅜ -10020
▁ㄹㅣㄴㄷㅏ -10021
▁again -10022
▁ㅈㅜㅇㄱㅗㅇㅇㅓㅂ -10023
ㄱㅕㄹㅅㅏ -10024
▁ㅋㅓㄹㄹㅣㅇ -10025
▁ㅌㅗㅇㅇㅕㄱ -10026
▁RX -10027
▁ㅈㅓㄴㅂㅗㄱ -10028
ㅂㅔㄹㅌㅡ -10029
▁ㄲㅗㄱㄷㅐ -10030
ㅈㅗㄴㄷㅗ -10031
▁ㅇㅕㄴㅎㅗ -10032
▁ㅇㅏㄹㅁㅗㅁ -10033
ㅁㅏㄴㄷㅏ -10034
▁ㅍㅕㄴㄷㅗ -10035
▁Club -10036
▁ㅇㅕㅇㅈㅗ -10037
ORA -10038
▁ㅈㅓㅇㅁㅜ -10039
▁ㅂㅜㄹㅂㅜㄴ -10040
ONG -10041
▁ㅇㅣㄴㅅㅡㅇ -10042
▁ㅍㅏㄴㅂㅗㄴ -10043
▁410 -10044
ㅁㅣㄴㅅㅜ -10045
▁ㄴㅏㅁㅈㅣㅅ -10046
ya -10047
▁ㅂㅔㄴㅊㅡ -10048
▁ㅈㅓㄴㄴㅕㅁ -10049
▁ㅈㅏㄴㅈㅐ -10050
▁ㅎㅏㅂㄱㅡㅁ -10051
▁Cry -10052
▁ㄱㅓㅁㄱㅣ -10053
▁heart -10054
▁WHIP -10055
▁ㄴㅡㄹㄹㅣㄹ -10056
ㅅㅡㅇㅎㅜㄴ -10057
▁ㅂㅜㄹㅇㅏㄴㄱㅏㅁ -10058
▁Come -10059
▁ㅇㅣㅂㅂㅓㅂ -10060
▁ㅇㅣㅁㅅㅏㅇ -10061
▁KE -10062
▁ㅎㅕㄴㅁㅜ -10063
▁ㄷㅓㄱㅌㅐㄱ -10064
HN -10065
▁APC -10066
▁ㅍㅕㅇㅈㅓㅇ -10067
ㅈㅣㅂㄴㅣ -10068
▁ㅁㅓㄱㅎㅕ -10069
▁ㅂㅓㅂㅈㅗ -10070
▁ㅇㅕㄱㅅㅓㄹ -10071
▁ㄱㅓㅌㅁㅗ -10072
▁ㄱㅣㄹㄹㅓ -10073
ㄹㅏㅁㅈㅣㄱ -10074
▁ㅋㅏㄹㄷㅔ -10075
▁ㅃㅡ -10076
▁ㅂㅜㄹㅂㅜㄴㅁㅕㅇ -10077
▁ㅂㅏㄹㅈㅏ -10078
▁ㅂㅗㄱㅂㅜ -10079
▁ㅎㅣㅁㄴㅐ -10080
lo -10081
ㅇㅑㄱㅅㅓ -10082
▁1937 -10083
▁ㅇㅔㄹㄹㅣㄱ -10084
▁ㄴㅏㄴㄷㅔ -10085
▁ㅍㅕㄹㅊㅣㄴ -10086
▁ㅈㅓㄴㅇㅕㅁㅂㅕㅇ -10087
ㅅㅡㅇㅎㅗ -10088
▁ㅅㅏㄴㅈㅣ -10089
▁ㅃㅗㅂㅎㅣㄴ -10090
▁ㅌㅡㄱㄱㅝㄴ -10091
▁ㅇㅗㄴㅈㅓㄴ -10092
▁NORM -10093
▁ㄱㅕㅁㅂㅣ -10094
▁ㄷㅚㄹㅅㅜ -10095
▁ㅇㅡㅁㄹㅕㄱ -10096
▁never -10097
BY -10098
▁ㅁㅣㄹㄹㅓ -10099
▁ㅈㅣㄻㅇㅓ -10100
ㅅㅏㄴㅁㅕㄴ -10101
▁ㅁㅏㅇㄱㅏㄱ -10102
▁ㅇㅣㅂㄷㅏㅇ -10103
▁ㄱㅓㄴㅊㅜㄱㅁㅜㄹ -10104
▁ㅇㅏㄹㅌㅡ -10105
▁ㅅㅜㅁㄱㅕㄹ -10106
ㅈㅡㄹㄹㅣ -10107
▁ㅎㅏㅇㅇㅜ -10108
▁KCC -10109
ㄴㅑㅇㅌㅓ -10110
▁ㅇㅕㅁㄷㅗㅇ -10111
▁ㅈㅣㄱㅈㅣㄴ -10112
▁FBI -10113
ㅈㅗㅇㅇㅣㄹㄱㅘㄴ -10114
▁ㅇㅏㄴㅈㅔㄹㄹㅣ -10115
ㄷㅗㅇㅈㅗ -10116
ㅂㅏㄱㅎㅕ -10117
ㅅㅏㅇㅇㅣㄹ -10118
▁ㅊㅓㅇㅊㅟ -10119
▁ㅅㅓㅇㄹㅕㅇ -10120
▁ㅇㅡㄴㅎㅗㄴ -10121
▁ㅇㅓㄴㄹㅗㄴㅅㅏ -10122
▁ㅇㅔㄹㄹㅏ -10123
▁ㅅㅓㅇㅇㅝㄴ -10124
ㄹㅗㄹㄹㅣㅇ -10125
▁ㅍㅜㅁㅈㅗㅇ -10126
▁ㄱㅕㅇㅎㅏㅂ -10127
▁ㄸㅜㅇㄸㅜㅇ -10128
▁ㅈㅣㄴㅂㅓㅁ -10129
▁ㅂㅣㅇㄱㅡㄹ -10130
▁ㅇㅔㄹㄹㅓㄴ -10131
▁ㅇㅓㅍㄷㅡ -10132
▁GDP -10133
▁ㅋㅝㅇ -10134
▁ㅂㅣㄴㅅㅔㄴㅌㅡ -10135
▁ㄷㅓㅇㄷㅏㄹ -10136
IVE -10137
▁NORMAL -10138
▁ㅇㅘㅇㄱㅓㄴ -10139
OUR -10140
▁ㅍㅡㄴ -10141
ㄴㅓㅁㄱㅣ -10142
▁ㅅㅓㅇㅅㅣ -10143
▁ㅍㅕㅇㅈㅣ -10144
▁hp -10145
▁ㄷㅗㅇㅇㅠ -10146
▁ㅅㅓㄴㅅㅏㅇ -10147
▁ㄱㅓㅁㅅㅐㄱㅇㅓ -10148
▁ㄱㅣㅁㅈㅓㅇㅇㅣㄹ -10149
ㅈㅓㄴㄷㅓ -10150
▁ㅁㅕㄱ -10151
cy -10152
▁ㄱㅏㅇㅎㅏㅁ -10153
ㅅㅓㄱㄱㅣ -10154
▁ㅇㅠㄴㅈㅗㅇㅅㅣㄴ -10155
▁ㅇㅑㅇㅁㅏㄹ -10156
▁ㅈㅓㅂㅎㅏㄴ -10157
▁KA -10158
▁ㄱㅣㅁㅇㅡㄴ -10159
ㄹㅣㅅㅅㅗㄱ -10160
▁ㄷㅗㅇㅌㅏㄴ -10161
▁ㄲㅜㄱ -10162
▁PH -10163
ㅇㅑㅎ -10164
▁ㅇㅔㅁㅁㅏ -10165
ㄴㅓㄴㅌㅡ -10166
▁ㅅㅡㅁ -10167
▁Girls -10168
▁ㅌㅗㅂㄴㅣ -10169
▁ㅅㅐㅇㅍㅗ -10170
▁Will -10171
▁ㅈㅜㅇㄹㅗㄴ -10172
▁has -10173
▁ㄱㅡㅅ -10174
onder -10175
▁ㄱㅗㄹㅉㅏ -10176
▁ㄷㅗㅇㄱㅡ -10177
▁ㅂㅜㄴㅎㅘ -10178
ㅈㅓㅇㅁㅣㄴ -10179
▁ㅅㅏㅇㅅㅡㅇㅅㅔ -10180
▁ㅁㅜㄴㅈㅣ -10181
▁only -10182
ㅂㅏㅇㅂㅣ -10183
▁Ah -10184
▁MY -10185
▁ㅇㅑㅂ -10186
ㅇㅜㄹㄹㅕ -10187
▁ㅌㅏㄴㄷㅜ -10188
▁ㅇㅕㄹㄹㅕㄹ -10189
▁ㅁㅕㅇㅇㅘㅇ -10190
▁ㅋㅡㅁ -10191
▁ㄱㅗㄱㅅㅏ -10192
▁PT -10193
▁Sol -10194
▁ㅁㅜㄹㅇㅡㅁ -10195
▁ㅍㅗㄴㅌㅡ -10196
▁ㅍㅔㄹㅌㅡ -10197
ㄱㅕㄹㅊㅐㄱ -10198
ㅅㅡㄹㅉㅓㄱ -10199
▁ㅅㅑㄹㄹㅗㅅ -10200
▁XC -10201
▁ㅎㅐㅇㅅㅔ -10202
▁ㅂㅜㄹㅂㅏㄹ -10203
▁PM -10204
▁ㅅㅡㅇㅅㅡㅇ -10205
▁ㅅㅗㄱㅇㅕ -10206
▁"' -10207
anger -10208
ㄸㅡㅁ -10209
▁ㅈㅏㅇㄷㅏㅁ -10210
ㅋㅡㄹㄹㅏ -10211
▁ㅂㅐㄹㅂㅡ -10212
▁ㄲㅡㅌㄴㅐㄹ -10213
▁ㅅㅗㅇㅂㅕㅇㄱㅜ -10214
▁ㄱㅏㅇㄹㅕㅇ -10215
▁ㅅㅡㅇㄱㅖ -10216
▁ㅅㅣㄴㅌㅐ -10217
▁MUS -10218
▁ㅇㅏㄹㅂㅓ -10219
▁ㅅㅡㄹㄹㅣㅂ -10220
ㅅㅓㅇㅁㅣㄴ -10221
▁ㅇㅣㅁㅈㅐ -10222
▁ㅁㅏㄱㄹㅗㄴ -10223
▁ㅎㅘㅇㅅㅗ -10224
▁Best -10225
ㅇㅘㄴㅅㅓㅇ -10226
ㅋㅗㄹㄹㅗ -10227
ㅍㅏㄹㄹㅗ -10228
ㅁㅏㅇㅊㅣㄹ -10229
65 -10230
▁ㅊㅏㅁㅅㅜ -10231
ball -10232
▁ㅂㅏㄴㄴㅏㅂ -10233
▁ㅆㅏㅇㄱㅓㅁ -10234
▁ㅅㅣㄴㄱㅕㄱ -10235
▁ㅊㅜㄴㅊㅜ -10236
▁Net -10237
ㅊㅏㅇㅁㅣㄴ -10238
▁ㄲㅏㄴㄷㅏ -10239
ㅈㅓㄴㅅㅓㄴ -10240
▁Little -10241
▁ㄱㅣㅁㅅㅣㄴ -10242
ㄹㅏㅎ -10243
▁ㅅㅜㄴㅎㅏㅇ -10244
ㅁㅜㅇ -10245
▁ㅁㅣㄹㄹㅣㄴ -10246
▁xx -10247
▁Dest -10248
▁ㄲㅡㄶㅇㅓ -10249
▁ㅎㅓㄴㄴㅏㅂ -10250
▁ㅇㅠㄴㅈㅣ -10251
▁ㅈㅡㅇㅍㅛ -10252
▁Ind -10253
ANCED -10254
▁ㅂㅏㅇㅁㅏㅇ -10255
osh -10256
▁red -10257
ㄴㅏㄹㅅㅜ -10258
▁ㅇㅑㄱㅅㅜ -10259
▁ㅂㅏㄴㅈㅜㄱ -10260
▁ㅇㅓㅄㅇㅡㅁ -10261
▁ㅈㅓㅇㅅㅣ -10262
ㅁㅐㄱㄷㅏ -10263
▁ㄹㅏㅂㅅㅣ -10264
▁ㅅㅓㄴㅎㅜ -10265
▁ㅇㅏㄱㅅㅜ -10266
▁ㅇㅝㄴㅅㅏㅇ -10267
ㅇㅣㄹㅂㅗㄴ -10268
▁ㄱㅘㅇㄷㅗㅇ -10269
▁ㅅㅣㅂㅅㅏㅇ -10270
▁ㅇㅣㄹㅅㅐㅇ -10271
▁ㄷㅜㄴㄱㅣ -10272
▁RB -10273
▁217 -10274
light -10275
▁ㅂㅏㄴㅎㅏ -10276
▁ㄱㅓㄹㅊㅣ -10277
▁SEED -10278
▁ㄲㅡㅌㅇㅓㅄㅇㅣ -10279
▁ㅎㅜㄴㄹㅕㄴㅅㅗ -10280
▁ㅇㅕㄴㅎㅏ -10281
▁bb -10282
ㅍㅏㅅ -10283
▁ㅅㅣㄴㅂㅗㅇ -10284
▁ㅎㅓㅁㅎㅏㄴ -10285
▁ㅎㅏㄴㅈㅜㅇ -10286
▁here -10287
▁ㅂㅕㄴㅅㅗㄱㄱㅣ -10288
▁ㅇㅐㄱㅅㅡ -10289
▁ㅋㅐㅁㅍㅣㅇ -10290
ASY -10291
▁ㅂㅜㄱㅅㅓ -10292
▁EXO -10293
▁ㄱㅡㅂㅅㅡㅂ -10294
▁ㅈㅟㄴ -10295
▁010 -10296
▁ㅍㅕㄴㅈㅣㅂㅈㅏ -10297
ㅂㅕㅇㄱㅣ -10298
ㅈㅗㅇㅇㅝㄴ -10299
ㅎㅕㄴㅁㅣㄴ -10300
▁ㅅㅓㅇㅍㅜㅁ -10301
▁ㅅㅜㄱㅈㅣ -10302
▁ㄱㅣㄹㄹㅐ -10303
▁ㅇㅣㄴㅇㅝㄴㅅㅜ -10304
ㅈㅓㄴㅎㅏㅁ -10305
▁ㅈㅣㄹㅈㅣㄹ -10306
ㄴㅡㅁ -10307
ㅁㅓㄴㄷㅡ -10308
▁Take -10309
ㅆㅓㄹㅌㅡ -10310
▁Mix -10311
▁ㄱㅏㄷㅎㅣ -10312
▁ㅂㅏㄴㄹㅕ -10313
▁ㅍㅣㄱㅊㅓ -10314
▁let -10315
aker -10316
ㄱㅘㅇㅅㅜ -10317
▁ㅂㅏㄱㅎㅏㄴ -10318
▁Inv -10319
▁Single -10320
▁aquarius -10321
UD -10322
⊸⊸⊸ -10323
▁ㅅㅔㄴㄷㅏ -10324
▁ㅈㅏㄴㅅㅗ -10325
▁ㅊㅏㄱㅅㅜ -10326
▁ㅇㅣㅂㅅㅏㅇ -10327
▁di -10328
▁KN -10329
▁ㅎㅏㄴㅂㅗㄱ -10330
▁ㅅㅣㄱㅂㅕㄹ -10331
▁ADVANCED -10332
ㄱㅏㄱㄱㅏㄱ -10333
ㅂㅕㅇㅎㅓㄴ -10334
ㅋㅡㄹㄹㅗㄴ -10335
▁ㅁㅣㄹㅈㅓㅂ -10336
ㅅㅓㅇㅇㅓ -10337
▁gu -10338
oom -10339
▁ㄱㅡㅂㅅㅗㄱ -10340
▁Ult -10341
ㅇㅕㄹㅊㅏ -10342
▁ㅈㅣㄴㄱㅣ -10343
▁ㅊㅏㅇㅊㅜㄹ -10344
▁ㅈㅏㄹㅅㅐㅇㄱㅣㄴ -10345
▁ㄲㅡㄶㅇㅣ -10346
▁ㅅㅜㄴㄹㅖ -10347
▁ㅇㅏㅂㅅㅜ -10348
▁ㄱㅣㅁㅈㅗㅇㄱㅜㄱ -10349
eek -10350
▁ㄹㅣㄹㄹㅔ -10351
ㅁㅜㄹㅅㅓㄴ -10352
▁ㄱㅣㅁㅎㅏㄴ -10353
38 -10354
▁ㅂㅏㄱㅎㅣ -10355
▁str -10356
▁1919 -10357
IO -10358
uture -10359
▁ㅈㅓㄴㄱㅗㄱ -10360
▁ㅎㅘㄴㅇㅝㄴ -10361
▁ㄹㅣㄴㅇㅣ -10362
▁ㅈㅓㄴㅍㅐ -10363
▁ㄱㅜㄹㄹㅣㅁ -10364
▁ㄷㅗㄱㄷㅗ -10365
ㅇㅛㅇㅁㅜㄹ -10366
▁Aut -10367
▁1911 -10368
▁ㄱㅣㅂ -10369
▁ㄱㅓㄴㅇㅢ -10370
▁ad -10371
▁ㅎㅠㅇㄱㅣ -10372
▁ㅇㅏㄴㅈㅏㅇ -10373
ㄷㅡㄴㅇㅛ -10374
ㅇㅣㅁㅅㅜ -10375
▁ㅎㅏㄹㄱㅔ -10376
▁ㅊㅣㄴㅇㅏ -10377
▁ㅅㅓㅇㅅㅗ -10378
▁ㅅㅜㄴㅊㅏ -10379
lex -10380
ena -10381
32 -10382
▁301 -10383
ㄱㅓㄹㅇㅡㅁ -10384
▁ㄱㅕㄹㄷㅏㄴ -10385
▁ㄷㅗㅇㄱㅕㄹ -10386
RAM -10387
▁ㅊㅜㅇㅁㅜ -10388
▁ㄴㅏㄴㅈㅏㅇㅍㅏㄴ -10389
▁OM -10390
▁Dec -10391
▁ㅇㅝㄴㅅㅓㅇ -10392
▁ㅇㅣㄱㅎㅕ -10393
▁'~ -10394
ㅇㅗㄹㄹㅕㅆ -10395
▁ㅂㅓㄴㅂㅓㄴ -10396
▁Storm -10397
HC -10398
▁mA -10399
▁252 -10400
ㅈㅜㄴㄱㅣ -10401
▁ㅌㅓㄹㄹㅕㅆ -10402
▁ㅎㅘㄹㄹㅕㄱ -10403
▁ㅅㅣㄹㅌㅏㄴ -10404
▁ㅇㅏㄱㅍㅕㅇ -10405
▁ㄷㅏㅇㅎㅐㅆㅇㅡ -10406
▁ㅊㅓㅁㅂㅜ -10407
▁ㅁㅏㄹㅅㅏㄹ -10408
▁Real -10409
ㅇㅕㅇㅎㅑㅇ -10410
▁ㅂㅗㄲㅇㅡㅁ -10411
▁ㄱㅠㄹ -10412
▁ㅈㅓㄱㄱㅘ -10413
▁ㄱㅘㄴㅇㅛㅇ -10414
▁ㅅㅓㄹㅁㅜㄴ -10415
▁Med -10416
▁ㅇㅛㅇㅎㅗ -10417
ano -10418
ital -10419
▁ㄴㅓㅁㄴㅏ -10420
▁512 -10421
▁ㅇㅣㄹㄱㅐ -10422
▁ㅋㅏㄹㅈㅣㄹ -10423
▁ㅎㅓㅁㅇㅏㄱ -10424
▁ㄱㅏㄴㅈㅓㄹ -10425
ㅅㅓㅇㄱㅗㅇ -10426
▁ㅈㅏㅁㄷㅡㄴ -10427
▁ㅋㅓㄴㅍㅓ -10428
▁ㅅㅏㄴㅈㅓㄴ -10429
ㅅㅣㄱㅊㅜㄱㄱㅜ -10430
▁ㅇㅡㅁㅇㅏㄱㄱㅏ -10431
ㅅㅏㄴㄱㅜㄴ -10432
▁Def -10433
▁Gun -10434
▁ㅅㅓㄷ -10435
▁ㅍㅣㄹㅈㅓㄱ -10436
ude -10437
ㅇㅝㄹㄷㅡ -10438
▁ㅁㅕㄴㄷㅗ -10439
▁ㅊㅏㄴㅅㅏ -10440
▁ㅊㅓㄴㅈㅣㄴ -10441
▁CIA -10442
ㅇㅛㅇㄹㅑㅇ -10443
▁ㅇㅡㄴㅂㅣㅊ -10444
▁ㅈㅏㅇㄷㅐ -10445
▁ㅂㅐㄱㅂㅕㅇ -10446
▁ㅉㅏㄱㅌㅜㅇ -10447
▁Hero -10448
DDR -10449
▁ㅇㅕㄴㅎㅘ -10450
ㅅㅐㅇㅁㅜㄹ -10451
▁ㅊㅓㄹㅎㅕㄹ -10452
▁ㅁㅕㅇㅂㅐㄱㅎㅣ -10453
ㅈㅓㅇㄹㅣ -10454
▁youtu -10455
▁ㅈㅓㅇㅅㅓㄴ -10456
▁ㅅㅐㅇㄱㅕㅆㅇㅡ -10457
▁ㅁㅕㅇㅈㅣ -10458
▁ㅅㅓㄹㅈㅣㄴ -10459
▁ㄱㅣㅅㄷㅡㄴ -10460
▁ㄱㅡㅂㅇㅕ -10461
▁ㅇㅕㄴㅁㅏ -10462
▁ㄱㅣㅁㅈㅗㅇㅁㅣㄴ -10463
▁ㅇㅠㄴㅅㅓㅇ -10464
▁ㅎㅐㅇㄱㅜㄴ -10465
▁Warhammer -10466
▁ㄴㅗㅎㅇㅣㄴ -10467
▁ㅂㅜㄹㄱㅓ -10468
▁ㅈㅏㅁㄱㅕ -10469
▁ㅋㅓㄴㅂㅓ -10470
▁Ry -10471
▁Cal -10472
▁ㄸㅡㄴㄱㅡㅁㅇㅓㅄ -10473
▁ㄲㅏㄱ -10474
▁ㅅㅐㅇㄱㅖ -10475
▁ㅈㅣㄴㅈㅓㄴ -10476
apan -10477
ㅅㅏㅇㅂㅓ -10478
▁ㅂㅐㄱㅅㅡ -10479
▁ㅎㅏㅇㅈㅐㅇ -10480
▁Zero -10481
▁ㄹㅣㄴㅊㅣ -10482
▁ㅍㅡㄹㄹㅐㄴㅌㅡ -10483
ett -10484
▁Rad -10485
▁|[ -10486
ㅋㅗㄹㅍㅣ -10487
▁ㅂㅡㄹㄹㅏㅇ -10488
▁ㅇㅕㅇㅅㅏ -10489
lection -10490
ㅈㅜㄴㅇㅓ -10491
▁ㅂㅏㅅㅈㅜㄹ -10492
▁ㅂㅏㅇㅌㅏㄴㅅㅗ -10493
▁ㄴㅜㄴㅂㅗ -10494
▁ㅎㅑㅇㅎㅐㅆ -10495
▁ER -10496
▁GPS -10497
▁ㅇㅑㅅ -10498
ㄴㅐㅂㄷㅡ -10499
▁ㅂㅜㄱㄷㅗㅇ -10500
▁ㅍㅕㅇㅇㅣ -10501
▁ㅍㅕㅇㅈㅜㄴ -10502
39 -10503
ㄴㅗㅂㅅㅣ -10504
▁ㅈㅓㄹㄱㅏㅁ -10505
▁ㄴㅏㄱㅅㅓ -10506
▁ㅃㅗㅂㅎㅕㅆ -10507
▁ㅇㅓㄱㅇㅑㅇ -10508
▁ㄱㅏㄴㅊㅓㅂ -10509
▁ㅅㅓㅇㄱㅗㅇㅎㅚ -10510
▁2022 -10511
▁ㅎㅗㅇㅅㅜ -10512
▁ㅎㅘㄴㅅㅏㄴ -10513
ler -10514
▁ㅁㅓㅁㅊㅜㄹ -10515
▁ㅁㅜㄴㄱㅘ -10516
▁EXTRA -10517
▁Sweet -10518
▁ㅂㅏㄱㅊㅏ -10519
▁ㅂㅏㄹㅎㅐ -10520
▁Park -10521
▁BLACK -10522
▁ㅅㅣㄴㅇㅑ -10523
▁ㅌㅡㅁㅅㅐ -10524
ning -10525
▁any -10526
▁ㅈㅓㅇㅎㅐㅆ -10527
▁390 -10528
▁\] -10529
ㄱㅗㅇㅎㅏㄱ -10530
aid -10531
arm -10532
▁ㅂㅏㄴㅈㅜ -10533
une -10534
▁Mbps -10535
ㅈㅓㅇㅇㅜ -10536
▁SMG -10537
▁when -10538
unk -10539
unt -10540
▁ㄸㅜㅀㄹㅕ -10541
▁ㅂㅏㅁㅈㅜㅇ -10542
▁ㅊㅐㅇㄱㅕㅆ -10543
▁Ag -10544
▁ㄴㅡㅇㅎㅏ -10545
▁ㅅㅏㄴㄷㅡ -10546
▁227 -10547
▁CGV -10548
▁YG -10549
oj -10550
▁ㅅㅓㅇㅊㅟ -10551
▁ㅁㅕㅇㅎㅘㄱㅎㅣ -10552
▁ㄷㅗㅅ -10553
ㅂㅡㄹㄹㅔ -10554
▁ㅅㅣㄴㅂㅣㅇ -10555
BE -10556
▁Gal -10557
▁ㅅㅣㄹㄱㅏㅁ -10558
▁HR -10559
▁ㄱㅏㄱㅂㅕㄹ -10560
▁ㄷㅡㄹㅋㅕ -10561
▁ㅂㅜㅌㅇㅣㄴㄷㅏ -10562
ㅅㅏㅇㄱㅡㅁ -10563
▁ㅍㅏㄴㄷㅏㄴㄹㅕㄱ -10564
▁ㅋㅔㅅ -10565
ouble -10566
▁John -10567
ㅅㅓㄴㅅㅗ -10568
▁ㅂㅗㄴㄱㅓ -10569
▁ㅁㅗㄹㄹㅕㅆ -10570
▁ㅊㅗㅇㅈㅓㅁ -10571
▁htm -10572
▁ㄴㅣㅅㅅㅏㄴ -10573
ㅅㅜㅍ -10574
ㅈㅏㅇㄱㅏㄴ -10575
▁ㅊㅜㄹㅇㅣㅂㄱㅜ -10576
▁ㅍㅕㄴㅇㅐ -10577
▁ㅇㅗㄹㅇㅣㄴ -10578
▁ㅁㅜㄹㄹㅠ -10579
▁ㄴㅏㅇㅁㅏㄴ -10580
UG -10581
▁ㄷㅏㅁㅇㅝㄴ -10582
▁LEVEL -10583
44 -10584
▁Space -10585
▁youtube -10586
ords -10587
ather -10588
▁Tour -10589
ㄴㅓㄹㅅㅡ -10590
ㅆㅜㄱ -10591
▁ㅈㅓㅇㅈㅜ -10592
▁ㅇㅕㄹㄱㅘㅇ -10593
▁ㅈㅓㄴㅇㅟ -10594
▁BMW -10595
▁Hel -10596
▁ㅈㅓㅇㄱㅡㄴ -10597
▁ㅁㅔㅇ -10598
ㄱㅏㄴㅇㅣ -10599
▁ㅎㅓㄴㅌㅡ -10600
ㄲㅗㄱ -10601
ㄱㅘㄴㄱㅖ -10602
▁ㅁㅗㅁㅆㅏ -10603
▁ㄱㅘㅇㄹㅏㄴ -10604
▁ㄴㅏㅊㅅㅓㄴ -10605
▁ㅈㅓㅇㄱㅘㄴ -10606
▁ㅈㅡㅇㄱㅏㅇ -10607
ㅉㅓㄴㅈㅣ -10608
ㅈㅓㄴㄹㅕㄱ -10609
▁231 -10610
▁ㅇㅗㄹㄹㅔ -10611
▁ㅊㅏㄱㄱㅗㅇ -10612
▁ㅇㅓㄹㄹㅜㄱ -10613
▁Feel -10614
▁ㅅㅐㅇㄹㅣ -10615
ㅈㅓㄴㅈㅐㅇ -10616
▁ㅂㅓㄹㅇㅣㄹ -10617
ㅃㅓㄴ -10618
uct -10619
▁ㅇㅏㄱㅇㅕㅇㅎㅑㅇ -10620
▁ㅃㅓㄴㅎㅏ -10621
TER -10622
▁ㄲㅓㅁ -10623
▁ㅊㅏㄱㅊㅟ -10624
▁QP -10625
ㅋㅓㄹㅌㅡ -10626
ames -10627
▁ㅇㅡㄴㅅㅐㄱ -10628
▁Kim -10629
▁ㄴㅏㅂㅍㅜㅁ -10630
▁ㅌㅗㅇㅅㅗㄹㄹㅕㄱ -10631
br -10632
END -10633
▁ㅅㅡㅇㅎㅏ -10634
▁DSP -10635
▁ㅇㅣㄴㅈㅔ -10636
▁ㅎㅏㄴㅍㅏㄴ -10637
▁Say -10638
▁ㄹㅗㄴㄱㅏ -10639
▁ㅃㅗㅁㄴㅐ -10640
▁ㅅㅓㄴㅅㅑ -10641
▁Bu -10642
▁ㅎㅏㄴㄴㅜㄴ -10643
▁ㅇㅑㅇㅂㅏㅇㅎㅑㅇ -10644
▁ㅅㅗㅇㄱㅗㅅㄴㅣ -10645
oe -10646
▁ㄱㅓㅁㄱㅓ -10647
▁ㅁㅣㄹㄱㅏ -10648
▁ㅇㅝㄴㅅㅏ -10649
▁ㅈㅓㄴㅈㅐㅇㅌㅓ -10650
▁ㅌㅏㅁㅎㅓㅁㄱㅏ -10651
▁ㅂㅣㄹㅎㅔㄹㄹㅡㅁ -10652
▁ㅃㅐㅇ -10653
ㅈㅏㅇㅊㅣ -10654
yr -10655
▁ㅂㅐㄱㄷㅜ -10656
▁ㄷㅜㅇㄱㅡㄹ -10657
▁ㅊㅗㄱㅈㅣㄴ -10658
▁1934 -10659
▁mAh -10660
▁ㅇㅑㅇㅇㅢ -10661
▁Je -10662
ople -10663
▁need -10664
▁FO -10665
▁ㅈㅜㅇㅅㅏㄴ -10666
▁ㅇㅞㄴㄷㅣ -10667
▁ㅇㅝㄱㅅㅡ -10668
thing -10669
▁ㅉㅣㄱㅎㅣ -10670
▁ㅇㅗㄹㄱㅏ -10671
NG -10672
▁ㅂㅏㄹㄹㅕㅇ -10673
▁ㅌㅡㄱㅅㅐㄱ -10674
▁min -10675
ㄹㅏㅂㅇㅓ -10676
▁ㄱㅣㅁㅅㅣ -10677
ㅈㅓㄱㅈㅣ -10678
▁ㅇㅕㅅㅂㅗ -10679
ㅍㅗㄹㅌㅡ -10680
▁NFL -10681
▁ㅇㅐㅇㄱㅡㄹ -10682
▁ㄴㅏㄴㅈㅐㅇㅇㅣ -10683
irect -10684
ㅅㅣㄱㅈㅏ -10685
ㅊㅓㄴㄹㅣ -10686
▁ㅇㅣㅂㅅㅗ -10687
▁ㅁㅗㄹㅇㅣㅂ -10688
▁ㄸㅡㅁ -10689
▁ㅊㅡㅅㅋㅗ -10690
▁ㅇㅏㄱㅇㅕㄴ -10691
▁op -10692
▁EPL -10693
vil -10694
▁Ret -10695
ㅅㅏㄹㄹㅔㅁ -10696
▁ㅎㅗㅇㄹㅕㄴ -10697
▁ㅁㅗㅇㅎㅘㄴ -10698
▁ㅅㅓㅁㄸㅡㄱ -10699
▁ㅎㅘㄴㅈㅏㅇ -10700
▁ㄱㅗㅇㅈㅣㄱ -10701
▁ㄷㅐㄹ -10702
▁ㅇㅐㄱㅅㅜ -10703
▁ㅊㅜㅇㅇㅝㄴ -10704
▁ㅅㅡㄹㅍㅡ -10705
▁ㅇㅓㅂㅈㅏ -10706
ODE -10707
ㅃㅗ -10708
▁Dem -10709
▁ㄴㅗㄱㅅㅡ -10710
▁ㅎㅏㄴㄷㅡㄹ -10711
ㅍㅔㅅ -10712
▁ㅇㅏㅁㅅㅓㄱ -10713
▁ㅇㅠㄴㅅㅓㄱㅁㅣㄴ -10714
uel -10715
ㅇㅡㅁㅅㅗㄱ -10716
▁ㅇㅣㄱㅅㅏㄴ -10717
▁ㅇㅕㅇㄱㅜㄱㅇㅣㄴ -10718
▁HT -10719
aser -10720
▁Sou -10721
▁ㅇㅝㄹㄷㅡㅇㅎㅣ -10722
▁ㅁㅐㅇㅅㅜ -10723
▁ㅅㅏㄴㅊㅜㄹ -10724
▁ㅅㅗㄴㄱㅣㄹ -10725
▁ㅂㅕㄹㄱㅓ -10726
▁ㅅㅣㄴㄷㅡ -10727
▁ㅅㅣㄴㅈㅐ -10728
ㅋㅔㅅㄷㅏㄴ -10729
ㄱㅗㄱㄹㅣ -10730
▁ㄹㅣㄴㄷㅡ -10731
▁ㅈㅓㅇㅊㅏㄹㄱㅣ -10732
▁some -10733
ㅊㅜㄴㄱㅣ -10734
▁ㅋㅡㄹㄹㅓㄱ -10735
ㄹㅓㅁㅁㅐ -10736
▁ㅂㅕㄴㅁㅗ -10737
ㅈㅓㄱㅈㅓㄹ -10738
ㄷㅗㅇㅁㅜㄹ -10739
ㄴㅏㅈ -10740
▁ㅎㅏㅁㄱㅕㅇ -10741
▁ㄱㅒ -10742
▁ㅎㅏㄴㄱㅜㄱㄱㅜㄴ -10743
ㅋㅏㅁ -10744
▁ㄱㅕㅇㄷㅐ -10745
▁ㅋㅔㄴㅅㅣ -10746
▁ㄸㅏㄹㄹㅣ -10747
▁ㄴㅐㅇㅎㅗㄱ -10748
▁430 -10749
▁ㅈㅒ -10750
arth -10751
▁ㅅㅗㄱㅇㅣㅁㅅㅜ -10752
▁ㄷㅗㅇㅇㅣ -10753
▁ㄱㅕㄱㅂㅕㄴ -10754
▁ㅌㅗㅇㅊㅏㄹ -10755
onna -10756
▁ㅊㅗㄱㄱㅜ -10757
ㄹㅣㅂㅅㅡ -10758
▁ㄱㅕㅇㄱㅘㄴ -10759
▁ㄸㅢㄴㄷㅏ -10760
▁ㅇㅜㄴㄷㅗㅇㄱㅏ -10761
▁238 -10762
▁Kill -10763
ormal -10764
ㅅㅓㄴㅅㅣ -10765
ㅇㅜㄴㅈㅣ -10766
▁ㄱㅗㅇㄱㅜ -10767
ner -10768
▁ㅈㅣㄴㅁㅕㅇ -10769
▁ㄱㅘㄴㄹㅏㅁㄱㅐㄱ -10770
▁Beat -10771
▁ㅋㅓㅅㅇㅣㄴ -10772
▁them -10773
▁PERF -10774
▁Story -10775
▁ㅇㅗㄴㄱㅓㄴ -10776
ㅂㅓㅂㅈㅏ -10777
▁ㅇㅡㄹㅅㅣ -10778
▁ㅁㅜㄷㅎㅣㄴ -10779
▁ㅈㅓㄹㄷㅗ -10780
KO -10781
UND -10782
▁ㅅㅏㅇㅂㅏㄴ -10783
▁ㄴㅏㄴㄷㅗ -10784
▁ㅎㅕㅇㅂㅓㄹ -10785
▁236 -10786
▁Orig -10787
▁Luc -10788
▁ㅌㅏㄱㄱㅜ -10789
▁ㄷㅓㅍㅊㅣ -10790
▁ㅇㅕㅅㅂㅗㄹ -10791
ㄱㅡㅁㄱㅏ -10792
▁Great -10793
▁ㄱㅗㄷㅈㅏㅇ -10794
▁ㅅㅓㅇㅁㅜㄹ -10795
ways -10796
▁265 -10797
▁WORLD -10798
▁ㅂㅔㄹㄹㅣ -10799
▁ㅅㅓㄴㄱㅏ -10800
▁ㅇㅘㅇㅅㅓㅇ -10801
ㄴㅓㄼ -10802
▁ㅂㅐㄴㅋㅜ -10803
▁ㅅㅓㄹㄹㅣㅂㅈㅏ -10804
ㅊㅏㄱㅁㅜㄹ -10805
▁ㅁㅏㄴㅈㅏㅇ -10806
▁ㅈㅓㄴㅎㅏㄴ -10807
37 -10808
▁her -10809
▁ㄹㅗㄹㅅㅡ -10810
ㅁㅜㄹㄹㅓㅆ -10811
▁ㅃㅓㄴㅃㅓㄴ -10812
▁ㅎㅡㄱㅂㅏㄹ -10813
ㅎㅣㅁ -10814
▁ㅎㅏㅂㅅㅜㄱ -10815
▁ㄱㅏㅇㄱㅡㅂ -10816
▁ㅂㅏㄹㅎㅏ -10817
iful -10818
ours -10819
▁Album -10820
▁ㅊㅜㄹㅈㅣㄴ -10821
ㅌㅡㄹㄹㅏㄴㅌㅣ -10822
▁ㅌㅔㅂ -10823
▁ㄱㅕㅁㅇㅣㅁ -10824
▁ㅌㅐㄹㄹㅓㄴㅌㅡ -10825
▁ㅎㅚㅇㄹㅕㅇ -10826
▁ㅈㅓㅇㅊㅏㄱㅈㅣ -10827
▁LOL -10828
▁ㅈㅓㄴㅎㅘㅇ -10829
▁When -10830
▁ㅎㅏㄱㅍㅏ -10831
▁GTX -10832
▁ㅇㅕㄴㅈㅏㅇㅈㅓㄴ -10833
▁ㅍㅜㄹㅇㅣ -10834
▁JYP -10835
▁ㅇㅣㄹㄹㅏ -10836
fl -10837
▁Tech -10838
▁ㅈㅓㅇㄱㅜㄱ -10839
▁ㅃㅏㄴ -10840
▁ㄱㅗㅇㅇㅏㄴ -10841
▁ㄱㅡㅁㄷㅏㄴ -10842
ㅅㅏㄹㅇㅣ -10843
▁ㄱㅗㄹㅅㅜ -10844
ㅊㅠㄴ -10845
▁ㅌㅔㄴㅌㅡ -10846
▁ㅅㅣㄴㅊㅓㄴ -10847
▁ㅇㅠㄴㅇㅕㅇ -10848
ental -10849
ㅁㅜㄹㅅㅚ -10850
▁ㅎㅡㄱㄱㅣ -10851
▁ㅁㅏㅌㄱㅕㅆ -10852
ANG -10853
ㅋㅣㄹㄹㅔ -10854
ㅁㅣㄴㅊㅓㄹ -10855
▁ㅇㅕㄱㅁㅏ -10856
▁ㅌㅡㄹㄹㅣㅁㅇㅓㅄ -10857
▁PG -10858
▁Step -10859
▁ㄴㅏㅁㅅㅏㄴ -10860
▁MAD -10861
ㅅㅡㄹㄹㅗ -10862
▁ㅎㅐㅁㅌㅡㄴ -10863
ㅎㅐㅇㅅㅓㅇ -10864
ㄱㅓㄴㅂㅜ -10865
ations -10866
▁ㅇㅛㅇㅈㅗㄱ -10867
▁<< -10868
▁ㅂㅜㄴㅇㅑㅇ -10869
ene -10870
ㅂㅜㄹㄹㅣ -10871
▁ㅋㅓㄹㅌㅡ -10872
ㅁㅜㄴㅎㅘ -10873
▁ㅍㅏㄴㅁㅕㅇ -10874
ㅇㅣㄹㄹㅓㄴㅌㅡ -10875
▁232 -10876
▁ㅈㅓㅇㅈㅣㄴ -10877
▁ㄱㅣㅁㄱㅓㄴ -10878
▁ㅁㅜㄴㄱㅘㄴ -10879
▁ㅂㅏㄴㅉㅗㄱ -10880
▁ㅅㅗㅅㅇㅏ -10881
ㅇㅕㅇㅎㅜㄴ -10882
▁ㄲㅓㄹㄲㅡ -10883
▁she -10884
▁ㄸㅗㄱㅂㅏ -10885
▁ㅇㅏㄴㅈㅡ -10886
▁ㅇㅣㄴㅅㅏㅁ -10887
▁ㅈㅓㄴㄱㅘㅇㅍㅏㄴ -10888
▁3500 -10889
▁ㄱㅡㅂㅈㅡㅇ -10890
▁ㅅㅜㄱㅈㅔ -10891
▁Champion -10892
▁ㅂㅏㅇㅈㅜ -10893
OSS -10894
▁ㅇㅕㅌ -10895
ㅂㅗㄹㅌㅡ -10896
▁ㄱㅘㄴㅅㅡㅂ -10897
▁ㄷㅗㄹㄱㅗ -10898
▁ㅁㅗㄴㅌㅡ -10899
▁ㄷㅏㄹㄹㅣㄹ -10900
▁ㅅㅡㅇㄴㅏㄱ -10901
ㅅㅣㄴㄹㅛ -10902
▁ㅇㅏㅍㅁㅓ -10903
▁ㅊㅏㅁㅊㅣ -10904
▁Death -10905
▁ㅇㅕㄴㅁㅏㄱㅌㅏㄴ -10906
▁ㅂㅐㄱㄱㅘ -10907
▁ㄱㅕㅇㅅㅏㅇㄷㅗ -10908
▁ㄷㅗㄱㅅㅓㄹ -10909
body -10910
▁ㄸㅡㅅㅂㅏㄲ -10911
ait -10912
▁ㅇㅕㅇㅅㅜ -10913
▁ㅂㅐㄱㅇㅏㄱ -10914
▁ㅇㅑㄱㅍㅜㅁ -10915
▁ㄱㅝㄴㅎㅏ -10916
▁ㅁㅣㄴㅅㅣㅁ -10917
▁ㅇㅣㄹㄱㅏㄴ -10918
ㅇㅕㅇㅈㅣㄴ -10919
ㅅㅗㅇㄱㅣ -10920
▁ㄷㅗㄱㄷㅏㄴ -10921
▁KBL -10922
▁WWF -10923
▁ㅈㅐㄱㅅㅡ -10924
▁Line -10925
▁ㄱㅕㄴㅅㅡㅂ -10926
▁ㄱㅡㅂㅅㅗㄱㄷㅗ -10927
▁ㅈㅓㅇㅁㅕㅇㅎㅜㄴ -10928
▁Tra -10929
▁ㅌㅜㄱㅎㅏ -10930
ume -10931
▁ㄱㅕㄴㄷㅕ -10932
▁ㅅㅓㄴㅇㅠㄹ -10933
rough -10934
ㅇㅓㅂㅅㅗ -10935
▁ㅅㅣㅁㅂㅗㄱ -10936
▁ㅅㅣㅅ -10937
▁ㄱㅘㄹㅎㅗ -10938
▁ㅆㅡㄹㄹㅕ -10939
▁GC -10940
ㅁㅜㄹㄹㅓ -10941
▁ㄱㅣㅁㅇㅜ -10942
▁ㅂㅓㅂㄹㅕㅇ -10943
▁sec -10944
ㅍㅐㅇㅇㅣ -10945
▁ㅍㅕㅇㅎㅏ -10946
▁ㄱㅏㄴㅈㅣㄱ -10947
▁Bus -10948
▁ㅂㅏㄹㅇㅕㄹ -10949
▁ㅌㅗㅁㅅㅡㄴ -10950
▁ㅇㅣㅅㅅㅔ -10951
▁Electr -10952
▁ㅌㅗㅇㅌㅗㅇ -10953
▁art -10954
▁ㅇㅓㅁㅇㅕㄴ -10955
▁ㅇㅏㄴㅌㅗㄴ -10956
▁ㅇㅝㄴㅊㅣ -10957
▁510 -10958
▁ㄱㅡㄴㅂㅏㅇ -10959
orever -10960
▁about -10961
ㄱㅗㄱㅈㅓㄹ -10962
▁ㄱㅕㄹㅂㅓㄴ -10963
▁ㅊㅓㅇㄷㅗㅇ -10964
84 -10965
ㄱㅐㅅ -10966
▁ㅁㅣㅌㅂㅏ -10967
ESS -10968
INAL -10969
IDE -10970
▁ㄱㅗㄹㅈㅓㄹ -10971
▁ㄹㅡㄹㄹㅡ -10972
▁ㄷㅡㅇㅇㅛㅇ -10973
▁ㅁㅜㄹㄷㅡㄹ -10974
▁ㅂㅗㄱㅅㅣㄱ -10975
▁ㅊㅗㅇㄱㅕㄱ -10976
▁ㅈㅜㄱㅇㅣㅁ -10977
▁ㅁㅗㄱㅈㅏㅇ -10978
▁ㅁㅏㄱㅅㅡ -10979
ander -10980
▁ㅍㅗㄱㅈㅜㄱ -10981
ral -10982
▁ㅈㅡㄴ -10983
▁ㅋㅘㄴ -10984
▁ㅅㅜㅅ -10985
▁ㄱㅘㅇㅇㅑㅇ -10986
▁ㅂㅕㅇㅎㅏㅂ -10987
▁ㅁㅕㅇㄱㅖ -10988
▁ㅍㅗㄱㅇㅓㄴ -10989
▁Who -10990
▁ㅋㅜㄱ -10991
ㄷㅏㅇㄱㅣ -10992
▁ㅅㅗㅇㅈㅣ -10993
▁ㅇㅕㄹㅎㅘ -10994
▁ㅌㅔㅁㅍㅔ -10995
ㅃㅡㄹ -10996
▁ㅇㅡㄴㅅㅣㄴㅊㅓ -10997
ㅃㅗㅇ -10998
ㅋㅏㅅ -10999
uss -11000
▁come -11001
▁ㄱㅡㅁㅂㅣㅊ -11002
▁SUPER -11003
▁EXPERT -11004
▁ㅂㅜㄹㄱㅜㄹ -11005
▁ㄱㅕㄴㄱㅗ -11006
▁ㅅㅏㅇㄷㅣ -11007
▁ㄷㅗㄹㅂㅕㄴ -11008
▁ㅎㅏㄴㄱㅜㄱㅅㅣㄱ -11009
▁ㅂㅜㄹㄱㅖ -11010
lease -11011
▁Apple -11012
▁ㅁㅏㄴㄴㅕㄴ -11013
▁ㅇㅕㅆㅇㅓㅆ -11014
▁ㄷㅏㄹㅎㅐㅆ -11015
▁ㅈㅣㅂㅇㅛ -11016
ㅅㅠㄹㄹㅣ -11017
▁ㄱㅡㄴㅇㅠㄱㅈㅣㄹ -11018
▁ㅊㅓㄹㄱㅜ -11019
self -11020
▁ㄴㅡㄴㅋㅓ -11021
▁ㅂㅕㄴㄱㅣ -11022
▁Mal -11023
▁EASY -11024
▁ㅎㅡㄹㄹㅕㅆ -11025
▁ㄷㅗㅇㅁㅐㅇㄱㅜㄴ -11026
▁ㅇㅡㄴㄱㅡㄴㅅㅡㄹㅉㅓㄱ -11027
▁305 -11028
▁ㅇㅣㅂㅈㅓㅁ -11029
▁ㅂㅏㅁㅅㅐ -11030
▁ㅍㅕㅇㅁㅕㄴ -11031
ㅂㅜㄴㅌㅜ -11032
▁ㄱㅗㅇㅈㅓㄱ -11033
▁ㅇㅏㅂㅅㅡㅇ -11034
▁League -11035
▁ㅊㅣㅇㅎㅏㄴㄷㅏ -11036
▁SB -11037
ㄴㅏㄹㄹㅗ -11038
▁Dead -11039
▁325 -11040
ortex -11041
▁ㅁㅕㅇㅅㅣㅁ -11042
ㄹㅏㅁㅈㅟ -11043
94 -11044
▁ㅅㅣㄴㅌㅏ -11045
▁ㅇㅝㄴㅈㅓㅇㄷㅐ -11046
ines -11047
▁XBOX -11048
ㅇㅜㄹㅇㅣ -11049
▁ㄴㅗㄹㄹㅓ -11050
▁ㅈㅏㅇㅈㅣ -11051
▁ㅈㅏㅇㅁㅜㄴ -11052
AE -11053
elie -11054
▁1700 -11055
▁Lee -11056
autiful -11057
▁ㅍㅕㄴㅊㅏㄴ -11058
▁ㅈㅠㄹ -11059
▁ㅈㅣㅂㄱㅔ -11060
▁ㅂㅔㅅ -11061
▁1935 -11062
ㅅㅣㄱㅇㅓ -11063
▁Green -11064
ㅂㅓㅂㅇㅣㄴ -11065
▁ㅈㅓㅇㄱㅡㄴㅇㅜ -11066
▁ㅊㅓㅇㅁㅜㄴㅎㅚ -11067
▁ㄱㅏㄹㅂㅣ -11068
▁ㅎㅏㅇㅅㅗ -11069
ㅇㅛㄱㅈㅏㅇ -11070
▁ㅅㅗㄴㅂㅏㄹ -11071
▁ㄷㅗㅇㄹㅠㄹ -11072
▁GE -11073
▁2400 -11074
▁Pass -11075
ㅅㅏㅇㅅㅡ -11076
▁ㅇㅣㄴㅍㅔ -11077
▁ㅆㅏㅎㅇㅏㅆ -11078
▁ㄱㅕㄱㄴㅏㅂㄱㅗ -11079
31 -11080
▁Ant -11081
▁Home -11082
ㄷㅏㄹㄹㅕㅆ -11083
▁ㅅㅣㅁㅇㅕㅇ -11084
▁Tom -11085
ㄱㅕㄱㅌㅐ -11086
ㅈㅜㅇㅎㅐ -11087
▁Wanna -11088
▁ma -11089
▁DIO -11090
▁ㄷㅏㅀ -11091
▁TEAM -11092
▁ㄴㅐㅂㄷㅏ -11093
▁ㅂㅏㅇㅇㅏ -11094
▁ㅂㅏㄱㅅㅏㄹㄴㅏㄴ -11095
ㅅㅣㄹㄹㅗㄱ -11096
▁ㅅㅏㅁㄱㅜㄱㅅㅏ -11097
awn -11098
▁640 -11099
▁ㄴㅏㄱㅅㅏ -11100
▁ㅁㅜㄹㄱㅕㄹ -11101
▁ㄲㅡㅌㄴㅐㄴ -11102
▁ㅇㅣㄴㅌㅓㄴ -11103
ㅅㅓㅇㄱㅜ -11104
IAL -11105
▁ㅅㅣㄹㄱㅣ -11106
ㅅㅓㄹㅅㅜ -11107
▁ㅉㅏㅂ -11108
▁RT -11109
▁ㄹㅗㅇㅈㅜ -11110
▁ㅂㅕㄴㅅㅗㄱ -11111
▁da -11112
▁ㅌㅏㄹㄹㅏㄱㅈㅏ -11113
eter -11114
ㅎㅐㅇㅈㅏㅇ -11115
▁ㅇㅔㄹㅅㅏ -11116
▁ㅅㅔㄹㄹㅔㄱ -11117
▁Tem -11118
▁ㅇㅝㄴㅇㅏㄴ -11119
▁1931 -11120
▁TRA -11121
▁ㅇㅏㄹㅈㅔ -11122
▁ㄷㅏㅅㅋㅓㅁ -11123
▁ㅅㅓㄴㄷㅓ -11124
▁ㅇㅑㄱㅅㅏ -11125
▁ㅊㅓㄹㅈㅏ -11126
▁SNK -11127
▁ㅎㅣㅅ -11128
▁ㅍㅐㅅ -11129
ㅇㅣㄴㅎㅚ -11130
▁EL -11131
▁Del -11132
ily -11133
▁sw -11134
▁ㄹㅖ -11135
▁ㅅㅓㅁㅁㅓ -11136
▁Friend -11137
▁747 -11138
▁ㅇㅗㄱㅅㅡ -11139
▁ㄱㅗㅇㅇㅕㄴㅈㅏㅇ -11140
▁ㅇㅑㅇㅎㅕㄴㅈㅗㅇ -11141
▁Cha -11142
▁ㅋㅗㅂ -11143
ㅇㅏㄴㅂㅜ -11144
▁ㅅㅣㄹㅋㅓㅅ -11145
▁ㅇㅝㄴㅅㅏㄴ -11146
ㄹㅏㅇㅋㅔㄴㅅㅠ -11147
ㄷㅐㅆ -11148
▁ㅈㅡㅇㅊㅏ -11149
▁ㅂㅓㄴㅉㅓㄱ -11150
ㄱㅏㄱㅅㅏㅇ -11151
▁ㄱㅏㅇㅁㅣㄴㅎㅗ -11152
ㅂㅏㄹㄹㅕㄱ -11153
ㅁㅜㄴㅈㅓㅁ -11154
▁." -11155
▁NAS -11156
▁ㅇㅔㅅ -11157
68 -11158
▁ㄱㅗㅇㄱㅕㄱㄷㅐ -11159
▁ㄱㅏㅁㅊㅝ -11160
ㅅㅗㅇㅇㅣ -11161
▁ㅍㅏㄹㄷㅏ -11162
▁ㅁㅣㄹㅈㅣㅍ -11163
▁ㅇㅏㅇㅅㅏㅇ -11164
ㅂㅏㄱㅅㅏ -11165
▁ㅇㅣㄹㄱㅘㄹ -11166
▁ㅈㅏㅇㅂㅏㄹ -11167
▁ㅎㅗㅇㅊㅏ -11168
bsp -11169
▁ㅎㅡㄱㅅㅐㄱ -11170
▁Chap -11171
▁Level -11172
▁ㄱㅏㅁㅊㅏㄹ -11173
▁ㄴㅏㅁㅅㅓ -11174
ㄴㅏㄹㄹㅣ -11175
▁ㄸㅓㄹㅊㅣ -11176
▁229 -11177
▁ㅅㅐㅅ -11178
ㅇㅜㄴㅅㅡ -11179
▁ㅁㅜㅇㄱㅐ -11180
onic -11181
▁ㄷㅗㅇㅈㅏ -11182
ㅂㅣㅇㄱㅡㄹ -11183
▁ㅇㅝㄴㄱㅏ -11184
▁ㅅㅏㅁㄱㅏㄱㅎㅕㅇ -11185
▁ㅇㅏㄴㅇㅕㅇ -11186
▁ㄴㅔㄹㅅㅡㄴ -11187
▁BMS -11188
▁ㅊㅓㅇㄹㅑㅇㄹㅣ -11189
▁ㅁㅐㄴㅅㅓ -11190
ves -11191
▁ㅊㅏㄱㅇㅏㄴ -11192
ㅋㅗㅂ -11193
▁Pack -11194
▁ㅊㅜㄹㄱㅜㄱ -11195
▁Univers -11196
▁ㅎㅏㅇㅅㅓㅇ -11197
▁ㅂㅑ -11198
▁Mac -11199
▁ㅂㅓㄹㄹㅕ -11200
▁ㅅㅏㅇㅅㅜ -11201
▁ㅈㅏㅇㅎㅘ -11202
▁hell -11203
▁ㅇㅡㅁㅍㅏ -11204
▁ㅎㅜㅁㅊㅣㄴ -11205
alent -11206
▁ㅅㅓㄹㄴㅏㄹ -11207
ouch -11208
▁ㅁㅏㄱㅅㅣ -11209
▁ㄱㅕㅇㅁㅕㄹ -11210
▁ㅂㅏㄱㅇㅝㄴ -11211
rol -11212
▁ㅁㅕㄱㅅㅏㄹ -11213
ider -11214
▁GAME -11215
▁hats -11216
▁ㅇㅕㅂㄱㅣ -11217
ㅋㅡㄹㄹㅣㅂㅅㅡ -11218
▁ㅍㅜㄹㅌㅏ -11219
ㅇㅜㄹㅈㅡㅇ -11220
▁ㅈㅓㅇㅁㅗㅇ -11221
▁nbsp -11222
▁1910 -11223
▁ㅇㅓㄴㄸㅡㅅ -11224
▁ㅇㅛㅇㄴㅏㅂ -11225
ha -11226
DER -11227
▁ㅅㅏㄹㅍㅣ -11228
▁ㅋㅐㅂㅊㅕ -11229
▁Young -11230
▁ㅂㅏㅇㅌㅏㄴㅂㅗㄱ -11231
72 -11232
ISS -11233
▁NV -11234
my -11235
▁251 -11236
▁bit -11237
ible -11238
▁ㅅㅣㅂㄴㅣ -11239
▁ㅎㅐㅇㄹㅕㄹ -11240
▁ㅎㅙㅅㅂㅜㄹ -11241
▁Japan -11242
▁ㅁㅐㄱㅋㅡ -11243
▁ㄲㅡㄴㅈㅣㄹㄱㅣ -11244
▁their -11245
▁ㅍㅏㄴㅌㅔ -11246
▁ㅇㅛㅇㅇㅣㄴㅅㅣ -11247
▁ㅇㅣㄹㅍㅏ -11248
ㅅㅓㄹㅁㅜㄹ -11249
ㅎㅕㅁ -11250
▁ㄱㅓㄹㄹㅓ -11251
ㅇㅣㄴㅊㅡ -11252
▁ㅇㅣㄴㅍㅏ -11253
ㅇㅕㅇㅇㅜㅇ -11254
▁ㅎㅏㄴㅇㅣㄴ -11255
ㅈㅏㅇㅈㅏ -11256
▁ㅅㅣㄱㄱㅜ -11257
▁ㅇㅣㄹㅋㅓㄹ -11258
ㅇㅣㄹㄱㅓㄴ -11259
ㅈㅗㅇㅇㅜㄱ -11260
ㅅㅏㄴㄷㅐ -11261
ㅇㅣㄴㅊㅏ -11262
ㅘㄱ -11263
▁ㅁㅏㄹㅂㅓ -11264
ㅇㅠㄴㅇㅕㄹ -11265
ㅌㅗㅇㅇㅣㄹ -11266
ㄹㄹㅣㅁ -11267
▁ㅈㅣㅅㄱㅓ -11268
▁ㅇㅕㄴㅁㅗㅅ -11269
▁ㄹㅐㅁㅈㅣ -11270
▁ㅅㅏㄴㅅㅏㄴㅈㅗ -11271
▁POWER -11272
▁ㄱㅝㄴㅎㅕㄱ -11273
leep -11274
▁ah -11275
▁ㅈㅓㅇㅅㅓㄹ -11276
▁ㅈㅓㅇㅈㅜㄴㅎㅏ -11277
ㅈㅏㄱㅂㅓㅂ -11278
▁1918 -11279
▁Champions -11280
St -11281
▁hatsan -11282
▁ㅍㅡㄹㄹㅗㅅ -11283
▁Full -11284
ㅌㅡㄹㅈㅡ -11285
▁ㄱㅕㄴㄷㅣㄹ -11286
▁ㅅㅜㄱㅇㅣ -11287
▁ㅅㅜㄱㅈㅓㄱ -11288
ㅇㅠㄴㅅㅜ -11289
▁ㅈㅣㄴㅈㅜㅇ -11290
▁ㅊㅗㅇㅅㅜ -11291
▁ㅎㅐㅆㄷㅏ -11292
▁ㅎㅐㅆㅇㅓㅆㅇㅡ -11293
▁ㅅㅏㅁㅋㅕ -11294
▁TBS -11295
ㄹㅣㄹㄹㅓ -11296
ㅇㅣㄴㄹㅣ -11297
▁ㅅㅣㄹㅁㅜㄹ -11298
▁ㅍㅕㄹㅊㅣㄴㄷㅏ -11299
ㄷㅔㄴㅌㅣ -11300
▁ㅃㅏㄱㅅㅔ -11301
▁ㅎㅜㄹㅉㅓㄱ -11302
▁ㅎㅏㅂㄱㅕㄱㅈㅏ -11303
icle -11304
ㅇㅛㅇㅅㅏ -11305
▁ㅊㅓㄴㅇㅘㅇ -11306
▁ㅎㅗㄴㅈㅏㅂ -11307
▁ㅂㅏㄹㅎㅛ -11308
▁ㄷㅗㄱㄹㅣㅂㅇㅜㄴㄷㅗㅇㄱㅏ -11309
▁res -11310
ement -11311
▁Que -11312
OTH -11313
▁ㅅㅗㄹㄹㅜ -11314
▁ㅋㅗㅇㄱㅗ -11315
by -11316
▁!!!! -11317
▁ㅂㅗㄹㅌㅣ -11318
▁ㅋㅓㄹㅊㅕ -11319
▁ㄹㅜㄹㄹㅔㅅ -11320
▁560 -11321
ubl -11322
▁ㄱㅏㄱㅈㅜ -11323
▁ㅇㅠㄱㅅㅣㄴ -11324
gg -11325
▁ㅂㅐㄱㅎㅗ -11326
▁ㅅㅏㅇㅂㅕㅇ -11327
▁ㅎㅘㅇㅊㅓㄴ -11328
▁== -11329
▁ㅎㅏㄴㅇㅓㅄㅇㅣ -11330
▁LCS -11331
▁ㄷㅗㄱㅅㅏㄹ -11332
▁AO -11333
▁NAT -11334
▁ㄱㅏㄱㅂㅗㄴㄱㅏ -11335
▁ㄱㅗㅇㅈㅓㄴ -11336
▁ㅅㅗㅇㅅㅣㄴ -11337
▁ㅊㅗㅇㅇㅐ -11338
▁ㅇㅣㄱㅎㅣㄴ -11339
▁ㅅㅜㄴㅈㅓㄴㅎㅣ -11340
▁ㄴㅗㄹㄹㅕ -11341
▁ㄴㅗㅎㅊㅕ -11342
▁ㄸㅏㄱㅈㅣ -11343
▁ㄱㅡㅂㄱㅏㅁ -11344
ㄴㅗㅍ -11345
▁ㄸㅏㅇㄱㅜㄹ -11346
▁des -11347
ㅁㅏㄴㅇㅣㄴ -11348
▁ㄱㅣㅅㄷㅡㄹ -11349
press -11350
ㅈㅣㄴㄱㅜ -11351
▁ㄱㅡㅁㅅㅔ -11352
▁Ele -11353
▁ㄴㅗㅎㅇㅣ -11354
▁ㄹㅐㄹㄹㅣ -11355
▁ㅂㅐㅅㅈㅣ -11356
ㅅㅡㄹㄹㅏㄴㄷㅡ -11357
▁660 -11358
▁ㅍㅕㅁ -11359
▁ㅂㅐㄱㅁㅏ -11360
ㄷㅔㅁ -11361
▁ㄱㅓㅁㅊㅜㄹ -11362
▁ㅇㅏㅁㅁㅜㄱ -11363
▁ㄱㅡㅂㅅㅗ -11364
▁ㄱㅗㅇㅍㅕㅇ -11365
▁ㅇㅣㄹㅍㅕㅇㄱㅠㄴ -11366
▁ㅈㅗㅂㅎㅕ -11367
▁ㄴㅗㅎㅊㅕㅆ -11368
▁ㅊㅓㄴㅈㅏ -11369
ㄱㅘㄴㅎㅏㄱㄱㅛ -11370
▁237 -11371
▁ㄲㅓㅂㄷㅔ -11372
▁ㅇㅣㄹㅈㅓㄴ -11373
ㅈㅓㅇㄱㅜ -11374
ㄴㅜㅂ -11375
ㄹㅐㄴㅌㅡ -11376
▁ㅇㅏㄴㄷㅐ -11377
▁ㅈㅗㄱㅂㅗ -11378
▁DL -11379
▁ㅁㅟㄹㄹㅓ -11380
ㄱㅡㄴㄱㅓ -11381
▁ㄷㅏㄴㄷㅗ -11382
▁ㅈㅜㄹㅇㅣㄴ -11383
▁ㄷㅐㄱ -11384
▁ㅇㅓㄴㄹㅣ -11385
▁ㅂㅜㄹㄹㅠㄴ -11386
IF -11387
▁ㄷㅏㄹㄹㅏㅇ -11388
▁-, -11389
▁ㄱㅡㄱㄷㅗㅇ -11390
▁AAA -11391
ㅅㅓㅇㅇㅐ -11392
▁ㄴㅓㅅ -11393
ㄱㅏㄹㅅㅜ -11394
▁ㄹㅕㄹ -11395
ㅈㅗㅇㄷㅏㅇ -11396
▁ㄱㅓㄴㄷㅏㄹ -11397
▁ㅇㅘㄴㅅㅡㅇ -11398
▁IEM -11399
▁ㅊㅏㅆ -11400
▁ㅈㅏㅂㅎㅣㄴㄷㅏ -11401
uj -11402
▁ㄱㅕㄹㅅㅓㄴ -11403
▁ㅎㅕㅇㅈㅜ -11404
▁Shad -11405
▁244 -11406
▁ㄱㅜㄱㅈㅣ -11407
▁Mad -11408
ground -11409
▁ㅇㅓㄹㄹㅡㄴ -11410
▁ㅈㅓㅇㅅㅣㄴㄱㅣ -11411
▁NXT -11412
▁ㅂㅕㄴㅊㅣㄱ -11413
▁ㅎㅗㅂ -11414
▁20000 -11415
▁NMB -11416
▁ㅊㅓㅂㅈㅏ -11417
ㄷㅣㅈㅎㅕ -11418
▁ㅅㅓㄹㄱㅛ -11419
▁ABC -11420
ㅅㅓㄴㅅㅡ -11421
▁ㅇㅣㄴㄱㅖ -11422
▁ㅂㅐㄱㅅㅓㄹ -11423
▁GA -11424
ㅇㅛㅇㅈㅣ -11425
▁ㅂㅏㄱㅈㅣㄴㅇㅕㅇ -11426
▁ㅂㅜㄴㅅㅣㄹ -11427
▁ㅍㅜㅁㅁㅗㄱ -11428
▁ㄱㅜㄴㅅㅔ -11429
ㄷㅏㅇㄱㅕ -11430
▁ㄱㅗㄹㄱㅕㄱ -11431
▁ㅈㅗㄱㅈㅗㄱ -11432
▁Att -11433
▁ㅇㅑㅇㅇㅑㅇ -11434
▁ㅎㅗㅇㅇㅣㄱ -11435
▁ㄲㅗㅁㄲㅗㅁ -11436
▁boy -11437
▁ㅈㅗㄴㄱㅣ -11438
▁ㅎㅘㅇㄴㅕ -11439
▁ㅋㅓㅂㅅㅡ -11440
▁ㅇㅝㄴㅅㅜㄹ -11441
▁Mel -11442
▁ㅂㅣㅇㄱㅡㄹㅂㅣㅇㄱㅡㄹ -11443
ㅂㅏㅇㄱㅜㄴ -11444
▁ㅅㅣㄴㄹㅛㅇ -11445
▁Mil -11446
ㄲㅓㅅㅎㅐ -11447
▁ㄴㅏㅁㅈㅜ -11448
▁ㅅㅓㅇㅇㅜㄴ -11449
▁MUSIC -11450
ㅇㅣㄴㅅㅓㅇ -11451
▁ㅂㅏㄹㄹㅏㄹ -11452
▁ㅅㅗㄱㅎㅐㅆ -11453
▁ㄱㅣㅁㅅㅏㅇㅅㅜ -11454
▁ㅈㅜㅇㅅㅣㅁㅂㅜ -11455
ㅅㅓㄴㅂㅓ -11456
▁ㅎㅘㅇㅅㅐㄱ -11457
▁ㅁㅣㄹㅈㅣㅍㅁㅗ -11458
▁ㅈㅓㄴㅎㅏㄴㄷㅏ -11459
ori -11460
▁ㅂㅜㅌㅇㅣㄹ -11461
ㅅㅠㅁ -11462
ㅍㅔㄹㄹㅓ -11463
▁ㅁㅜㄹㅇㅡ -11464
ㅁㅣㄴㅈㅏ -11465
▁DH -11466
▁248 -11467
▁ㄷㅙㅆㅇㅓㅆ -11468
▁ㄷㅏㄴㅊㅜㄱㅋㅣ -11469
▁HKT -11470
▁ㅅㅡㅇㅅㅡㅇㅈㅏㅇㄱㅜ -11471
yo -11472
▁ㅂㅏㄱㄷㅗㅇ -11473
▁ㄱㅏㅇㅂㅜㄱ -11474
▁ㅎㅘㄴㅇㅠㄹ -11475
ㅎㅜㄴㄹㅕㄴ -11476
▁ㅆㅗㄱ -11477
ㄴㅔㄹㄹㅣ -11478
▁ㅅㅓㅇㄱㅖ -11479
▁ㅍㅕㅇㅇㅗㄴ -11480
▁ㅎㅕㄹㅇㅏㅂ -11481
▁Mer -11482
▁ㅋㅏㄱ -11483
▁ㄱㅣㄴㄱㅏ -11484
▁ㄱㅏㄱㄱㅘㅇ -11485
▁ㅇㅕㄱㅈㅓㄱ -11486
ㄷㅗㄱㅅㅡ -11487
ㅍㅕㅇㄱㅜ -11488
▁ㅇㅣㄹㅎㅚ -11489
▁html -11490
▁008 -11491
▁ㅎㅘㅇㅍㅖ -11492
▁ㅈㅏㅁㅈㅓㅇ -11493
▁264 -11494
ㅁㅔㄴㅅㅕㄴ -11495
▁ㅋㅔㄹㅌㅡ -11496
▁ㅅㅜㄱㅂㅏㄱ -11497
▁765 -11498
▁ㅈㅓㄹㅈㅔ -11499
▁ㅇㅕㅇㄷㅗ -11500
▁ㅍㅔㄹㄹㅔ -11501
ㄱㅙㅇㅇㅣ -11502
▁ㄴㅏㅁㅋㅗ -11503
▁ㄷㅗㄹㄱㅣ -11504
ㅍㅕㅇㄷㅗㅇ -11505
▁ㄲㅗㅊㅇㅣㅍ -11506
hn -11507
▁242 -11508
▁ATM -11509
▁ㅇㅑㅇㅇㅠㄱ -11510
▁ㅁㅏㄹㄸㅜㄱ -11511
ㅅㅓㄲ -11512
▁ㅇㅣㄹㅉㅣㄱㅇㅣ -11513
ㅂㅏㅇㅅㅓ -11514
▁Games -11515
▁ㅅㅣㅁㅂㅗㄹ -11516
▁ㅇㅘㅇㅈㅓㅇ -11517
▁OT -11518
▁ㅆㅜㄴ -11519
▁ㅂㅜㄹㄱㅗㅁ -11520
▁ㅍㅜㄹㄹㅣㄴㄷㅏ -11521
67 -11522
ㅁㅣㄹㄹㅏ -11523
▁There -11524
▁ㄱㅜㄷㅎㅣ -11525
▁ㅈㅓㅇㅇㅐㄱ -11526
▁ㅎㅏㄴㄹㅠ -11527
▁wanna -11528
▁ㄱㅏㅁㄱㅕㄱ -11529
▁Lun -11530
ㅌㅜㄹㄹㅜ -11531
▁ㄱㅗㄴㄷㅗ -11532
▁ㄱㅜㄷㄱㅓㄴ -11533
▁Easy -11534
▁ㅁㅗㅇㅋㅣ -11535
▁ㅉㅣㄹㄹㅣ -11536
▁ㅈㅏㄴㅈㅏㄴ -11537
▁ㅈㅣㄹㄹㅓㅅ -11538
▁ㅇㅝㄴㅎㅐ -11539
▁ㅇㅕㄴㅈㅏㅇㅍㅗ -11540
ㄱㅘㄴㄹㅣ -11541
▁ㄱㅣㅁㅈㅏㅇ -11542
▁ㅅㅓㄴㄹㅑㅇ -11543
▁ㅊㅏㄴㄹㅏㄴ -11544
▁ㅂㅓㅁㅎㅏ -11545
▁ㅂㅜㄴㅅㅣㄱ -11546
▁ㅃㅓㄴㅎㅏㄴ -11547
▁ㅇㅕㄴㄷㅜ -11548
ㄱㅗㅇㄱㅏㄴ -11549
▁ㅁㅓㄱㅇㅣㄹ -11550
▁Pa -11551
ility -11552
▁ㅎㅘㅇㅈㅐ -11553
▁ㅈㅏㄴㅈㅗㄴ -11554
ㅊㅜㄱㅈㅓㄴㅊㅏ -11555
ㅈㅗㅇㅂㅓㅁ -11556
ㅎㅏㅇㅎㅐ -11557
ㅇㅑㄱㄱㅡㅁ -11558
▁ㅂㅐㄱㅈㅗㅇㅇㅝㄴ -11559
ㅅㅡㅇㅈㅜㄴ -11560
▁ㅇㅑㄱㅌㅏㄹㅈㅏ -11561
▁ㅇㅔㄴㄷㅗ -11562
▁ㅍㅕㅇㅇㅢ -11563
ㅅㅏㄱㅅㅡ -11564
▁ㅎㅕㄴㅅㅔ -11565
▁ㄷㅔㅂ -11566
▁ㅂㅏㄱㄱㅓㄴ -11567
▁ㄱㅣㅁㄱㅘㅇㅎㅕㄴ -11568
▁Spe -11569
ㅅㅓㄴㅇㅣㄴ -11570
avy -11571
▁ㅅㅜㄴㅂㅏㄹㄹㅕㄱ -11572
▁ㅍㅏㄴㄱㅛ -11573
▁ㅂㅏㄴㅅㅣㄴ -11574
▁ㅅㅣㄹㄱㅕㄱ -11575
ㅂㅐㄱㅎㅗ -11576
▁ㄱㅘㅇㄱㅛ -11577
▁ㅈㅓㄴㅈㅗ -11578
ison -11579
▁Brave -11580
▁ㄷㅔㄹㄹㅣ -11581
ㅌㅡㄹㄹㅗ -11582
▁ㄴㅜㄴㅇㅕ -11583
▁ㄱㅏㄴㄱㅘ -11584
▁ㅅㅣㄴㅎㅐ -11585
ㄸㅓㄹㄲㅏ -11586
▁ㄷㅡㄷㅂㅗ -11587
▁ㅁㅐㅇㄹㅕㄹ -11588
ense -11589
ㄹㅐㄴㅅㅓ -11590
▁ㅊㅔㅅ -11591
▁Road -11592
▁ㅎㅏㄴㅁㅣ -11593
▁ㅈㅓㅇㄱㅏ -11594
▁ㅍㅣㅇㄱㅓ -11595
▁ㄱㅏㄴㅅㅜ -11596
▁ㅇㅏㅍㅂㅜ -11597
▁ㅈㅓㅇㅅㅣㄴㅂㅕㅇ -11598
▁Ho -11599
▁ㄷㅏㄴㄱㅏ -11600
▁ㄴㅔㅅㅍㅡㄹ -11601
▁ㄴㅔㅅㅍㅡㄹㄹㅣㄱㅅㅡ -11602
ㅂㅘㅆ -11603
ㄹㅡㄹㅌㅔ -11604
ㅂㅜㄱㅇㅣ -11605
▁ㅁㅏㅇㅅㅣㄴ -11606
ㄱㅓㄱ -11607
▁460 -11608
▁ㅇㅏㄱㅈㅐ -11609
▁ㅇㅏㄹㄱㅗ -11610
▁ㅁㅜㄴㄱㅕㅇ -11611
▁ㅎㅕㅇㅂㅓㅂ -11612
▁316 -11613
▁ㅇㅘㅇㅅㅔ -11614
ㅇㅏㅅㄱㅕㅆ -11615
▁254 -11616
ㄷㅏㅅㄱㅏ -11617
▁ㄱㅣㄹㄱㅏ -11618
▁ㅇㅕㄹㄹㅣㄹ -11619
▁ㄷㅗㅇㄸㅓㄹㅇㅓ -11620
▁ㄴㅔㅅㅉㅐ -11621
▁ㅍㅐㄴㄷㅓ -11622
ㄹㅡㅂ -11623
▁ㅇㅚㄴㅂㅏㄹ -11624
ㅊㅗㄴㅂㅓ -11625
▁ㅅㅔㄴㄱㅗ -11626
▁ㅎㅏㄴㅁㅜㄴ -11627
ㅅㅏㄴㄷㅡ -11628
▁ㅊㅓㄱㅊㅜ -11629
▁VC -11630
▁ㄱㅏㅁㅁㅏ -11631
▁ㅇㅓㅂㅅㅗ -11632
ㅇㅝㄴㄱㅡㅁ -11633
▁per -11634
▁ㅅㅏㅇㅂㅏㄴㅅㅣㄴ -11635
uff -11636
▁ㅂㅜㄴㅊㅜㄹ -11637
▁ㅁㅏㅈㅊㅜㄴㄷㅏ -11638
ㅍㅔㄴㅅㅕㄴ -11639
ㄷㅡㄱㅎㅣ -11640
▁ㄱㅗㄱㄱㅙㅇㅇㅣ -11641
▁ㅇㅑㅁㅈㅓㄴㅎㅣ -11642
ㄹㅔㄴㅌㅡ -11643
▁ㅂㅜㄹㄹㅑㅇㅂㅐ -11644
▁ㄱㅣㅁㅂㅗ -11645
ㅅㅏㄴㅂㅜ -11646
ㅊㅗㅇㅅㅏ -11647
▁ㅂㅗㄱㅍㅏㄴ -11648
▁ㅇㅏㅂㄷㅜㄹ -11649
▁ㅋㅗㄹㅌㅡ -11650
▁ㅇㅘㄴㄹㅕㄱ -11651
▁Esports -11652
▁ㅅㅣㄴㅈㅣㄴ -11653
ASH -11654
▁dr -11655
▁ㄱㅡㅇㅈㅣ -11656
▁ㄱㅗㄹㄹㅏㅆ -11657
ㅇㅜㄹㅇㅓ -11658
▁ㄹㅏㅁㅂㅗ -11659
▁ㄱㅡㅁㅊㅓㄴ -11660
▁ㅂㅏㄹㄷㅏㅇ -11661
▁ㄷㅓㅅㅂㅜㅌㅇㅣ -11662
▁ㄴㅜㄴㄱㅣㄹ -11663
ㄹㅓㄹㄷㅡ -11664
ㅈㅏㅅㅈㅣㅂ -11665
▁ㅅㅣㄴㄱㅓㅁ -11666
ㅂㅕㅇㄱㅠ -11667
▁ㅅㅓㄹㄹㅣ -11668
▁ㅎㅏㄴㄹㅏ -11669
▁ㅅㅓㅇㅂㅜㄱ -11670
92 -11671
▁1917 -11672
▁ㅍㅓㅁㅇㅞ -11673
ㅎㅕㄴㅅㅜ -11674
▁ㅂㅏㄱㅅㅗ -11675
▁Long -11676
▁Call -11677
▁ㅃㅛㅇ -11678
▁1933 -11679
▁ㄷㅏㅇㅂㅜ -11680
▁ㄷㅗㄱㅅㅗ -11681
▁ㅋㅡㄹㄹㅜ -11682
▁ㅌㅡㄱㄹㅖ -11683
iri -11684
oup -11685
▁ㅎㅏㄴㅅㅡㅇ -11686
▁left -11687
mon -11688
▁ESP -11689
▁ㅅㅐㄱㅈㅓㄱ -11690
▁ㅎㅕㅁㅎㅏㄴ -11691
ITAD -11692
ㅂㅏㅇㄱㅘㄴ -11693
ITE -11694
▁ㅅㅓㄹㅇㅝㄴ -11695
▁ㅈㅓㄴㅁㅕㄴㅈㅓㄴ -11696
▁ㄱㅜㄱㅂㅗ -11697
▁ㄴㅗㅎㅊㅣㄴ -11698
ㄱㅣㅅㄱㅓ -11699
ㄷㅜㄹㄹㅣ -11700
ㅇㅠㄱㄱㅏㅁ -11701
box -11702
▁TECHN -11703
▁ㅂㅏㄹㅍㅗ -11704
▁ㅇㅏㄴㅈㅜ -11705
▁Arc -11706
▁ㄱㅏㄺ -11707
▁Port -11708
▁ㅎㅘㄹㅂㅏㄹㅎㅣ -11709
▁pop -11710
▁ㄱㅘㄴㅅㅔ -11711
▁ㄱㅘㅇㅎㅐ -11712
▁ㅂㅜㄹㄹㅣㅅ -11713
▁IMF -11714
ㄹㅗㄱㅅㅡ -11715
▁ㄴㅗㅇㄷㅗ -11716
▁et -11717
▁Bet -11718
▁802 -11719
▁SKY -11720
▁ㅁㅕㅇㅊㅣ -11721
▁ㅎㅡㄴㅊㅣ -11722
▁ㅅㅏㄹㅂㅓㄹ -11723
▁ㅈㅏㅇㅇㅕㅇ -11724
ㅍㅏㅂ -11725
▁ㅈㅑㅇ -11726
▁Snow -11727
▁ㅁㅜㄴㅍㅏ -11728
▁ㅁㅣㄹㅅㅜ -11729
▁243 -11730
ㅋㅓㄹㄹㅗ -11731
▁ㅁㅜㄱㅁㅜㄱ -11732
▁ㅇㅓㄺㅎㅣㄴ -11733
▁ㅅㅐㅇㅁㅗㄹㄴㅕㄴ -11734
▁ㅂㅏㄴㅂㅏㄴ -11735
▁ㅍㅓㅇㅍㅓㅇ -11736
▁!!" -11737
▁ㅅㅏㄹㅇㅠㄱ -11738
▁285 -11739
▁ㅎㅐㅇㅋㅡ -11740
enn -11741
▁ㄲㅣㄹ -11742
▁ㄱㅣㅁㄴㅏㅁ -11743
▁ㅂㅏㄹㅂㅕㅇ -11744
▁ㅍㅏㄴㄴㅔㄹ -11745
▁been -11746
▁ㅂㅏㄴㅇㅣㅂ -11747
▁GITAD -11748
▁ㅎㅘㄴㅅㅜㄹ -11749
▁ㅍㅔㄹㄹㅣㄱㅅㅡ -11750
▁ㅈㅏㅇㅈㅏ -11751
▁ㅅㅡㅇㅇㅛㅇㅊㅏ -11752
▁Key -11753
▁ㅌㅗㅇㅍㅖ -11754
VEN -11755
ㅋㅏㅇ -11756
ㄱㅏㄴㅈㅔ -11757
ㅂㅏㄹㄹㅣ -11758
▁ㅅㅗㄱㅊㅜㄹ -11759
▁ㅂㅗㅇㅌㅜ -11760
▁ㅍㅐㅇㅍㅐㅇ -11761
ㄲㅏㅌㅉㅗㄱ -11762
ㄹㅜㅅㅂㅏㅁ -11763
▁ㄱㅏㅇㄱㅜㄱ -11764
▁ㅅㅓㄴㄷㅏㄴ -11765
▁308 -11766
▁Secret -11767
▁ㄷㅏㄹㅎㅏㄴㄷㅏ -11768
▁ㄷㅗㄴㄷㅏ -11769
▁ㄱㅡㄴㅊㅣㄴ -11770
▁ㅁㅏㅇㅇㅝㄴㄱㅕㅇ -11771
LY -11772
▁ㅇㅕㄱㅎㅐㅇ -11773
▁737 -11774
▁SUV -11775
▁ㄴㅔㄱㅌㅏ -11776
▁ㅊㅜㅇㅇㅣ -11777
▁ㄷㅗㅇㅂㅐㄱ -11778
▁501 -11779
▁ㅅㅣㄴㅌㅏㄱ -11780
▁ㄴㅓㅁㄱㅣㄴㄷㅏ -11781
▁ㄱㅕㄹㅈㅓㅇㄹㅕㄱ -11782
▁Her -11783
▁SDRAM -11784
▁ㄷㅏㄴㅎㅗ -11785
▁EE -11786
▁ㅅㅏㄹㅍㅗ -11787
▁ㅁㅕㅇㅈㅓㄹ -11788
ㄱㅝㄴㄷㅗ -11789
ㅇㅗㄹㄹㅗ -11790
▁ㅌㅡㄱㅎㅖ -11791
▁ㅂㅓㄴㄷㅡㄹ -11792
▁ㅎㅏㅇㅁㅏ -11793
▁Hi -11794
ㅈㅓㅅ -11795
▁NCT -11796
▁Knight -11797
▁ㄷㅏㄴㄱㅜㄱ -11798
▁ㅇㅣㄹㅁㅕㄴ -11799
▁530 -11800
ㅂㅓㄹㅇㅣ -11801
▁ㅈㅡㅇㅅㅣㄱ -11802
▁ㅉㅏㅁㅃㅗㅇ -11803
▁FT -11804
▁ACT -11805
▁ㅅㅣㄱㅇㅛㅇ -11806
▁Gh -11807
▁ㅁㅜㄲㅇㅣㄴ -11808
ㅇㅓㄵ -11809
ㅍㅗㄱㅍㅜㅇ -11810
▁ㄱㅓㄴㅁㅏㄴ -11811
▁ㅈㅗㅇㅅㅗㄱ -11812
▁ㄷㅓㄴㄷㅔ -11813
▁ㅅㅓㅇㅇㅢ -11814
ㅊㅜㅇㄹㅠ -11815
▁ㄱㅕㄹㅅㅗㄱ -11816
▁ㅊㅓㄴㅇㅏㄴㅅㅣ -11817
▁ㄴㅠㅁ -11818
▁LPDDR -11819
▁ㅂㅏㄴㄴㅕㄴ -11820
ㅅㅓㅇㅎㅜㄴ -11821
ㄱㅣㅍ -11822
▁ㅇㅑㅇㅂㅜㄴ -11823
▁ㅎㅡㅂㅇㅣㅂ -11824
razy -11825
ㄷㅗㅇㄱㅏㅇ -11826
▁Bro -11827
ㄴㅜㄱㅅㅡ -11828
▁ㅅㅗㄱㅇㅏ -11829
▁ㅇㅏㄹㅁㅏ -11830
▁ㅇㅡㄴㅇㅓ -11831
▁ㅈㅏㅇㅈㅏㄱ -11832
▁es -11833
▁into -11834
▁ㄱㅔㅆㄷㅏ -11835
▁ㅇㅕㄴㄷㅏ -11836
▁ㅂㅣㄴㅁㅣㄴ -11837
▁jpg -11838
ㅁㅏㄹㄹㅏ -11839
▁ㅂㅏㅇㅅㅜ -11840
▁FS -11841
▁ㅅㅐㅇㅅㅗ -11842
▁ㅇㅣㄴㅅㅜㄹ -11843
▁war -11844
▁ㄱㅣㄹㅌㅣ -11845
▁ㅅㅐㄴㄷㅓ -11846
▁ㅇㅑㅇㅈㅐ -11847
▁ㅎㅗㄹㅅㅜ -11848
ㅅㅏㄹㄹㅣ -11849
▁ㅇㅞㄴㄹㅣ -11850
▁VI -11851
ㅇㅛㅇㄱㅠ -11852
ㅎㅘㅇㅎㅜ -11853
▁Cortex -11854
▁ㅇㅣㄴㄷㅓ -11855
▁ㅈㅓㅇㅎㅜㄴ -11856
ㅅㅣㄴㅈㅓㄴㅅㅐㅇ -11857
▁take -11858
▁1928 -11859
AKA -11860
ㅁㅠㄹㄹㅓ -11861
ㅂㅗㄲㅇㅣ -11862
▁ㄱㅗㅇㅁㅣㄴ -11863
▁ㅅㅓㅇㅈㅗㅇ -11864
▁ㅇㅠㅅ -11865
ember -11866
▁ㅅㅓㅇㄷㅏㄴ -11867
▁580 -11868
▁ㅅㅗㄴㄷㅐ -11869
▁MOV -11870
▁ㅇㅐㄴㅌㅡ -11871
▁GITADORA -11872
▁ㅁㅗㄱㅇㅛㄱㅌㅏㅇ -11873
▁LB -11874
▁Normal -11875
ㅁㅣㄹㅌㅓㄴ -11876
▁ㄱㅏㄹㅁㅏㅇ -11877
▁MI -11878
▁ㄴㅏㄴㅈㅣㅇ -11879
ㅈㅓㅇㅉㅓㅇ -11880
▁ㄱㅕㄱㅂㅜㄴ -11881
▁ㄴㅐㅇㅊㅓㄹ -11882
▁ㄷㅗㅇㄱㅏㅇ -11883
▁ㅇㅡㄴㅇㅣㄴ -11884
▁ㅈㅣㄹㅊㅐㄱ -11885
▁ㅁㅜㄹㅂㅏㅇㅇㅜㄹ -11886
ㅆㅓㄱ -11887
▁ㅇㅏㄹㅌㅔ -11888
▁ㅅㅣㄹㄹㅖ -11889
▁625 -11890
▁ㅌㅏㄴㅅㅏㄴ -11891
▁ㅌㅗㅇㅈㅏㅇ -11892
▁Days -11893
▁303 -11894
▁ㅇㅏㄹㄹㅣㄴ -11895
▁ㅂㅜㄴㄷㅏㅇㅅㅓㄴ -11896
ied -11897
▁ㄱㅗㅇㄱㅕㄱㅈㅣㄴ -11898
isode -11899
▁ㅇㅑㄱㅎㅗㄴㅈㅏ -11900
ㄴㅏㄹㄹㅔ -11901
▁ㅅㅗㄱㅈㅚ -11902
▁ㅂㅏㅇㅎㅑㅇㅋㅣ -11903
▁ㅇㅣㄱㅅㅏ -11904
▁ㅈㅓㄱㄷㅗ -11905
▁ㅂㅜㄱㅂㅓㄹ -11906
▁ㅅㅓㄴㅎㅏㄴ -11907
▁ㅇㅕㄱㅈㅏㅇ -11908
▁OC -11909
REAM -11910
▁666 -11911
▁Kar -11912
▁ㄷㅗㅇㄷㅜ -11913
▁ㅂㅣㅅㅈㅏ -11914
▁ㄷㅡㄹㄹㅕㅆ -11915
▁stay -11916
▁ㅅㅣㄴㅇㅑㄱ -11917
▁ㅈㅓㅇㅂㅏㄱ -11918
ㅆㅔ -11919
▁Fil -11920
▁ㅈㅣㄱㅈㅗㅇ -11921
▁ㅅㅣㄹㄹㅣㄴㄷㅓ -11922
▁1929 -11923
ㅅㅏㅇㅈㅜ -11924
▁ㅂㅏㄷㅊㅣㅁ -11925
▁ㅋㅏㄴㄷㅏ -11926
▁1932 -11927
▁ㅊㅣㅂㅅㅔㅅ -11928
WAR -11929
ㅅㅓㄹㅍㅡ -11930
▁Gener -11931
ㅇㅡㅁㅁㅓㄱ -11932
▁ㅈㅓㄹㅅㅣㄹ -11933
ㅈㅓㄴㄷㅐ -11934
ugh -11935
▁ZZ -11936
▁ㅅㅏㅇㅊㅡㅇ -11937
▁ㅉㅣㄹㄹㅕ -11938
▁ㄷㅗㅇㄷㅗㄱ -11939
▁ㅁㅕㄴㅊㅣ -11940
irc -11941
▁Stand -11942
ㅅㅓㄱㅈㅣㄴ -11943
▁ㅂㅏㄹㄷㅏㄴ -11944
ㅅㅣㅂㅈㅏ -11945
▁xC -11946
▁1925 -11947
▁ㅊㅓㅇㅈㅏ -11948
▁ㅈㅣㅇㅈㅣㅂ -11949
▁Eur -11950
ether -11951
ㄷㅜㄴㅈㅣ -11952
▁ㅌㅗㅇㅈㅗ -11953
▁ㅈㅣㅇㅂㅓㄹ -11954
GP -11955
▁WCW -11956
▁ㅍㅏㅌ -11957
▁ㄱㅓㄴㅂㅏㅇ -11958
▁ㅇㅏㅇㅅㅏㅇㅂㅡㄹ -11959
▁ㅋㅏㄴㅈㅏ -11960
ㅇㅏㄴㄱㅘㄴ -11961
▁ㅌㅗㅇㅇㅕㅇ -11962
▁NR -11963
.... -11964
▁1927 -11965
▁long -11966
ella -11967
uction -11968
▁Hello -11969
▁ㅂㅓㅁㅌㅚ -11970
▁ㅇㅕㅍㅈㅣㅂ -11971
▁ㄱㅓㄹㄹㅣㅁ -11972
▁Trans -11973
▁247 -11974
▁ㅅㅗㅇㄹㅏ -11975
▁ㅁㅏㄴㄷㅏㅁ -11976
▁ㅁㅕㅇㅇㅓㄴ -11977
▁sl -11978
▁ㅇㅡㄴㄷㅜㄴ -11979
ault -11980
▁ㄹㅓㅅ -11981
▁ㅋㅝㄴ -11982
ㄷㅏㄹㄹㅣㄴ -11983
▁color -11984
▁ㅌㅏㅂㅅㅡㅇㅈㅏ -11985
▁ㅇㅏㄹㄹㅔㄴ -11986
▁ㄱㅕㅇㅅㅏㄴ -11987
▁ㅇㅝㄴㄷㅐ -11988
▁ㄴㅏㄱㅇㅑㅇ -11989
als -11990
▁246 -11991
▁ㅊㅓㄹㅎㅏㄱㅈㅏ -11992
▁ㅁㅣㄹㅋㅡ -11993
▁ㅈㅏㄹㄴㅏㄴ -11994
▁Cup -11995
ㅈㅏㅇㅊㅏㅇ -11996
▁ㄴㅏㅁㄷㅏ -11997
▁North -11998
▁STAGE -11999
▁ㅈㅏㄴㄷㅏ -12000
icon -12001
▁LM -12002
▁ㅎㅑㅇㅅㅣㄴㄹㅛ -12003
▁ㅈㅏㄱㅈㅏ -12004
▁ㅈㅓㅇㅅㅏㅇㄱㅡㅂ -12005
ㅈㅕㅆㅇㅓㅆ -12006
▁ㅁㅣㄴㅅㅜ -12007
▁ㅇㅝㄹㄱㅘㅇ -12008
ka -12009
▁ㅇㅠㄴㅎㅚ -12010
ㅉㅣㄹ -12011
▁Jack -12012
▁ㄴㅐㅁㅂㅣ -12013
ㄹㅣㄴㅌㅓ -12014
▁Burst -12015
atter -12016
▁game -12017
▁ㅊㅣㄴㅅㅜㄱ -12018
▁ㅎㅏㄴㄱㅜㄱㅅㅏ -12019
▁ㅌㅏㄴㄹㅕㄱ -12020
▁ㅈㅏㄴㅊㅣ -12021
▁ㅇㅜㅇㅈㅏㅇ -12022
▁ㅅㅏㅁㅊㅗㅇㅅㅏ -12023
esh -12024
▁ㅈㅏㅇㅇㅣ -12025
ㅌㅗㅇㅂㅜ -12026
▁Gra -12027
▁ㅂㅏㄴㅇㅕㄹ -12028
▁ㅁㅏㅇㅅㅓㄹㅇㅣㅁ -12029
ㅊㅏㅇㅅㅣㄱ -12030
ience -12031
ㅂㅏㅇㄷㅗ -12032
▁ㄱㅘㄴㄴㅐ -12033
▁ㅇㅣㅂㅎㅕㅆ -12034
▁Ins -12035
▁ㅅㅖㄴ -12036
▁ㄷㅟㅅㄷㅏㅁ -12037
▁470 -12038
ince -12039
ㄹㅓㄴㄱㅏ -12040
▁Mach -12041
▁ㄷㅏㄴㅅㅜ -12042
reen -12043
▁Only -12044
▁ㅎㅕㄹㄱㅘㄴ -12045
▁239 -12046
▁ㄱㅜㅇㄱㅝㄹ -12047
▁ㅇㅘㅇㅊㅏㅇ -12048
ㅂㅓㅇ -12049
▁ㅇㅑㅇㅍㅏㄹ -12050
▁ㅈㅓㄴㅂㅓㅁ -12051
▁ㄱㅜㅇㅈㅓㅇ -12052
▁ㅇㅏㄹㄹㅔㄱㅅㅣ -12053
ㅂㅣㅁ -12054
▁ㄱㅡㅁㅁㅜㄹ -12055
ㅂㅣㄴㅅㅡㄴ -12056
▁ㅈㅣㄴㅎㅗㅇ -12057
ㅈㅣㄴㄱㅣ -12058
▁SHD -12059
▁ㅍㅏㄹㄹㅕㅆ -12060
ㄴㅑㅇㄱㅏㅁ -12061
ㄲㅗㅇ -12062
ㅅㅐㅇㅅㅓㅇ -12063
▁ㅌㅗㅇㄱㅡㄴ -12064
▁"... -12065
ㅅㅣㄹㅅㅏㅇㅂㅜ -12066
▁ㅁㅕㅇㅅㅣㄹㅅㅏㅇㅂㅜ -12067
ents -12068
▁ㄷㅜㅇㄱㅡㄴ -12069
▁ㅈㅣㄴㅍㅜㅇ -12070
mas -12071
▁ㄱㅘㄴㅎㅕㄴ -12072
▁ㅇㅡㄴㅊㅗㅇ -12073
▁ㅂㅗㄱㅅㅓ -12074
▁ㅍㅕㄴㅎㅑㅇ -12075
▁ㅎㅘㅇㅇㅣㄴ -12076
▁ㅍㅕㄴㅊㅏ -12077
▁ㅎㅏㅇㄱㅗㅇㄷㅐ -12078
▁bet -12079
▁ㄱㅜㄴㅍㅗ -12080
ㅂㅔㄴㅈㅣ -12081
▁ㅁㅗㄹㄷㅜ -12082
▁ㅇㅘㄴㄱㅡㅂ -12083
▁ㅌㅡㄱㅂㅕㄹㅈㅏ -12084
ELL -12085
▁ㄷㅡㄹㅇㅣㄴ -12086
IKA -12087
ㅊㅡㅁ -12088
▁ㅂㅜㄹㅁㅕㅇㅇㅖ -12089
▁ㅎㅘㄴㅅㅏㅇㅎㅑㅇ -12090
afe -12091
▁Ice -12092
▁ㅇㅓㄹㄹㅕ -12093
▁ㅅㅣㄹㄹㅗㄱ -12094
▁ㄱㅣㅁㅁㅜㄴ -12095
▁ㄷㅓㅁㅂㅡㄹ -12096
▁ㅂㅏㄱㅅㅓㄱㅁㅣㄴ -12097
▁VP -12098
ㄷㅏㄹㅂㅜ -12099
▁ㅇㅏㅇㅈㅠ -12100
▁ㅂㅕㅇㅍㅜㅇ -12101
▁ㄱㅣㅁㅎㅏㄱ -12102
▁INT -12103
▁Intern -12104
▁ㅅㅏㄹㄹㅕㅆ -12105
emy -12106
ㄴㅛㅇ -12107
▁ㅅㅏㅁㅋㅣ -12108
▁ㄱㅕㅇㅂㅗㄱ -12109
▁ㅂㅏㄱㅊㅏㄴㅎㅗ -12110
▁ser -12111
▁ㄱㅣㅁㄱㅏㅇ -12112
▁ㄱㅏㅇㅈㅘ -12113
ㅇㅜㄱㄷㅓ -12114
ㅋㅓㄹㄹㅣ -12115
▁ㄱㅣㅁㅂㅗㅇ -12116
▁ㅇㅑㅇㅊㅓㄴ -12117
▁ㅂㅓㄴㅇㅚ -12118
▁ㄱㅗㄷㅈㅏㄹ -12119
▁241 -12120
▁ㄱㅜㅁ -12121
su -12122
▁GU -12123
▁~. -12124
▁ㅊㅓㄴㅁㅜㄴㅎㅏㄱ -12125
▁Som -12126
▁look -12127
▁ㄹㅣㄴㅅㅡ -12128
uman -12129
▁ㅍㅕㅇㅅㅣ -12130
▁ㅇㅑㅇㅈㅓㅇ -12131
▁ㅁㅏㄴㅈㅕ -12132
▁ㅅㅓㅂㅈㅓㅇ -12133
▁ㅇㅑㄱㅎㅐㅆ -12134
▁ㅎㅗㅁㅍㅡㄹㄹㅓ -12135
▁ㅇㅕㄴㅈㅏㅇㅅㅓㄴ -12136
ㅁㅏㄴㅇㅡㄴ -12137
▁ㄱㅣㅁㅅㅓㅇㅎㅕㄴ -12138
ANCE -12139
ㄱㅡㅁㅈㅔ -12140
▁ㅅㅜㄴㅇㅑㅇ -12141
▁ㅈㅓㅁㅈㅏㅇ -12142
▁ㅊㅗㅇㄱㅓㅁ -12143
▁ㅇㅕㅆㅇㅡㅁㅇㅔ -12144
▁{{{#! -12145
▁ㅁㅐㅇㄷㅗㄱㅊㅜㅇ -12146
▁ㅂㅣㅇㄱㅡ -12147
▁ㅅㅡㄹㄹㅓㅁㅍㅡ -12148
ㅇㅇㅏ -12149
▁ㅎㅗㄱㄷㅗㄱ -12150
ㅇㅘㄹ -12151
▁ㄴㅜㄴㅇㅏㄹ -12152
▁TC -12153
▁ㄱㅏㄴㄷㅏㅁ -12154
▁ㅈㅓㄴㅅㅏㄴㅁㅏㅇ -12155
▁ㄴㅏㅁㅅㅐㄱ -12156
▁ㄱㅕㅂㅊㅣㄴㄷㅏ -12157
▁DEX -12158
▁ㄲㅡㄹㄹㅣ -12159
▁ㅁㅗㄱㄷㅗ -12160
▁talent -12161
▁ㄲㅗㄴ -12162
URE -12163
ㅂㅓㅁㅅㅜ -12164
▁ㅊㅗㅇㅊㅔ -12165
▁ㅌㅡㅁㅌㅏ -12166
▁WA -12167
▁ㅈㅓㄴㅅㅗ -12168
▁ㅁㅏㄴㅅㅣㄴ -12169
ald -12170
aph -12171
▁ㅅㅗㄱㅈㅜ -12172
▁1926 -12173
▁ㅇㅣㄹㄱㅡ -12174
▁ed -12175
▁music -12176
ㅎㅏㄱㅅㅐㅇㅎㅚ -12177
▁ㄱㅗㅇㅎㅘㅇ -12178
▁ㅇㅘㄴㅌㅜ -12179
▁ㄷㅗㅇㅂㅏㅇㅅㅣㄴㄱㅣ -12180
ology -12181
ㅈㅏㄱㅁㅜㄹ -12182
▁ㅎㅏㄴㅅㅣㄴ -12183
ㅎㅏㄱㅇㅕ -12184
ㄱㅜㅈ -12185
ㅅㅓㅇㅎㅑㅇ -12186
▁iP -12187
ㅊㅏㅇㅎㅗ -12188
▁Direct -12189
ids -12190
▁ㅇㅠㄱㅇㅏ -12191
▁ㅍㅣㄱㅅㅕㄴ -12192
▁ㅁㅓㄱㅎㅣㄴㄷㅏ -12193
▁ㅁㅏㅈㅇㅏ -12194
▁Winter -12195
▁TSM -12196
ㄷㅓㅇㅇㅓ -12197
▁ㄷㅡㅇㄹㅗㄱㄱㅡㅁ -12198
▁think -12199
▁ㅈㅜㅇㅇㅛㅇ -12200
▁ㄸㅓㄱㅂㅗㄲㅇㅣ -12201
▁ㅊㅗㄴㅈㅏㅇ -12202
▁ㅈㅜㅇㅇㅏㅇㅇㅣㄹㅂㅗ -12203
▁262 -12204
▁fff -12205
▁1080 -12206
▁ㅂㅏㄱㅇㅛㅇㅌㅐㄱ -12207
▁PPV -12208
▁ㅅㅐㄹ -12209
ㅎㅏㅇㅈㅓㄴ -12210
▁304 -12211
▁1924 -12212
▁ㅎㅏㄴㅅㅜ -12213
▁ㅎㅣㅁㄷㅡ -12214
▁ㅎㅐㅇㅈㅓㅇㄷㅗㅇ -12215
oph -12216
▁ㄴㅗㅅ -12217
ㅅㅣㄱㅈㅣ -12218
ㅎㅕㄴㅈㅜㄴ -12219
▁ㅁㅐㄴㅅㅗㄴ -12220
▁ㅅㅓㄴㅅㅜㄹ -12221
▁ㅈㅓㄴㄷㅗㅇ -12222
WA -12223
▁002 -12224
▁ㅌㅐㄱㅎㅐㅆ -12225
▁ㅅㅏㄹㅇㅣㄴㅂㅓㅁ -12226
▁AH -12227
ㄹㅜㄱㅅㅡ -12228
ㅇㅏㅁㄹㅣ -12229
▁ㅇㅏㄴㅈㅣ -12230
ㅇㅏㄹㄹㅏ -12231
INK -12232
ㅅㅗㅌ -12233
▁306 -12234
▁ㄱㅣㅁㄱㅠ -12235
▁ㅇㅛㅇㅅㅣ -12236
ㅅㅓㅇㄷㅗㅇ -12237
▁ㅇㅕㄴㅈㅏㅇㅈㅏ -12238
▁980 -12239
▁ㄱㅓㄴㄷㅐ -12240
ARK -12241
▁ㅊㅏㅇㅂㅓㅂ -12242
OLD -12243
ㅈㅡㄱ -12244
tus -12245
▁680 -12246
▁ㅇㅡㄱ -12247
▁ㅂㅗㄹㄹㅣㅇ -12248
▁ㅂㅐㄱㅂㅏㄹ -12249
▁Network -12250
ates -12251
▁ㅊㅗㅇㅎㅏㄱㅅㅐㅇㅎㅚ -12252
▁ㅇㅐㅅ -12253
▁ㅇㅛㅇㄹㅖ -12254
▁Die -12255
▁LF -12256
▁ㅎㅝㄴ -12257
▁ㅅㅜㄴㅎㅘ -12258
▁311 -12259
ㅋㅡㄹㄹㅗ -12260
▁ㄹㅏㅇㄱㅡ -12261
▁ㅅㅡㄹㄱㅣ -12262
ㄷㅡㄹㄹㅓ -12263
▁ㅅㅣㄴㅇㅖ -12264
uth -12265
▁MOD -12266
▁ㅈㅓㄹㅍㅏㄴ -12267
ㄷㅗㅇㅇㅜㄱ -12268
▁ㄴㅏㅁㄱㅜㅇ -12269
ㄸㅜㄹㅇㅓ -12270
▁ㅈㅡㅇㅈㅣㄴ -12271
ㅌㅗㅇㄹㅕㅇㄹㅕㅇ -12272
▁USS -12273
ㅂㅏㄱㄲㅗ -12274
▁ㅇㅕㄱㅅㅜㄴ -12275
▁ㅂㅏㅇㅁㅏㅇㅇㅣ -12276
ㅅㅓㅇㅇㅜㄱ -12277
▁ㅂㅡㄹㄹㅜㅁ -12278
▁ㅅㅐㄱㄱㅣ -12279
▁ㅇㅕㄴㅇㅓ -12280
ㅅㅓㄴㅈㅓㄴ -12281
▁ㅎㅏㄴㅈㅗㄱ -12282
▁253 -12283
▁ㅅㅑㄹㄹㅓ -12284
▁ㅈㅣㅇㅍㅛ -12285
▁ㅍㅔㄴㅌㅏ -12286
▁ㅇㅣㄹㅅㅣㄱ -12287
▁ㅂㅜㄴㅍㅏ -12288
▁ㅇㅔㄹㄷㅏ -12289
iki -12290
▁ㅇㅕㄴㅁㅜ -12291
▁ㄱㅓㅂㅁㅓㄱ -12292
▁ㅁㅗㅁㄱㅏㅄ -12293
ㅅㅔㄴㅌㅓ -12294
▁ㅂㅓㄴㅎㅘ -12295
▁rev -12296
ㄱㅡㄱㄱㅣ -12297
▁ㅎㅐㅁㅅㅡ -12298
▁HA -12299
ㄱㅏㅇㄷㅐ -12300
▁ㄱㅣㅁㄷㅗㅇㅎㅕㄴ -12301
▁630 -12302
▁Sports -12303
▁ㅂㅜㄴㄷㅏㅁ -12304
▁ㅍㅏㄱㅍㅏㄱ -12305
ㅊㅓㅇㅈㅏㅇ -12306
▁ㄴㅏㅁㅎㅐ -12307
ㅊㅜㄹㄹㅕㄱ -12308
▁Inc -12309
ki -12310
▁Cur -12311
▁ㄷㅗㄱㅈㅜ -12312
▁ㄲㅡㄶㄱㅕㅆ -12313
▁ㅅㅡㅇㅈㅗ -12314
▁ㅅㅜㄴㅂㅓㄴ -12315
▁ㅊㅓㄴㅅㅓㅇ -12316
▁ㅊㅓㅇㅎㅗㄴ -12317
ami -12318
ㄱㅗㅇㅇㅝㄴ -12319
▁ㅂㅐㄱㅂㅕㅇㅈㅓㄴ -12320
▁ㅂㅗㄴㄷㅐ -12321
▁ㅇㅗㄹㅃㅐ -12322
▁ㄱㅣㅁㅇㅡㅇ -12323
▁ㄱㅣㄹㄷㅡㄹㅇㅣ -12324
▁302 -12325
▁ㄸㅓㄹㅊㅕ -12326
ㅅㅏㄹㅍㅛ -12327
ㅋㅟㄴ -12328
▁ㅅㅓㄴㅊㅟ -12329
▁SNH -12330
▁ㄹㅕㅁㄱㅜ -12331
▁ㅂㅏㄹㅂㅓ -12332
▁KGC -12333
▁ㅎㅏㄱㄱㅜㄴ -12334
▁HL -12335
▁ROX -12336
ㅇㅗㄹㅈㅣ -12337
▁After -12338
▁ㄹㅔㄴㄷㅓ -12339
▁ㄱㅕㅇㅇㅡㅁ -12340
ures -12341
▁ㄱㅏㅇㅅㅣ -12342
▁ㅅㅣㄴㅇㅕㅇ -12343
▁ㅃㅓㄱ -12344
ㅅㅔㅂㅌㅣ -12345
▁ㅁㅕㄴㄷㅏㅁ -12346
▁ㅈㅓㅇㅍㅜㅁ -12347
ㄱㅗㅅㅈㅓ -12348
▁ㄱㅏㄹㄱㅜㅁ -12349
▁ㅇㅑㅇㄱㅏㄱ -12350
ㅇㅜㅅㅅㅏ -12351
▁ㅅㅣㄴㄱㅛ -12352
▁ㅎㅜㄴㄹㅕㄴㅈㅏㅇ -12353
▁ㅂㅗㅇㅈㅣ -12354
▁ㄱㅏㅈㅊㅝㅆ -12355
▁ㅌㅗㄱㅌㅗㄱㅎㅣ -12356
lin -12357
▁ㅁㅏㄴㅇㅕㄴ -12358
bit -12359
▁Pan -12360
▁ㅅㅓㅇㅂㅜㄹ -12361
▁ㅇㅑㅇㄴㅏㄹ -12362
za -12363
ㅂㅡㄹㄹㅓ -12364
ㅌㅡㄱㄱㅣ -12365
▁ㅎㅘㅇㄹㅛㅇ -12366
▁House -12367
▁ㄷㅗㅇㅂㅗㄱ -12368
▁ㅁㅗㄱㄱㅕㄱㅈㅏ -12369
▁ㄹㅡㅁ -12370
▁away -12371
▁blue -12372
▁ㅇㅛㄱㅎㅏ -12373
▁ㅈㅏㅇㅈㅣㄴ -12374
▁ㅂㅜㄹㅅㅏㅇㅅㅏ -12375
▁Spir -12376
▁dream -12377
▁ㅊㅣㄹㄷㅡ -12378
ㄷㅗㄹㄹㅣㅁ -12379
▁ㄷㅗㄹㅂㅏㄹ -12380
▁ㅇㅓㅄㅇㅐㄹ -12381
▁ㅎㅏㅁㅇㅣㄴ -12382
▁RES -12383
▁Reg -12384
▁ㅇㅣㅂㅅㅓㄱ -12385
▁Roy -12386
▁Lost -12387
▁ㅈㅜㅇㅇㅏㅇㅇㅏ -12388
ㄷㅗㅁ -12389
ㅃㅜㄴ -12390
▁005 -12391
▁ㄱㅝㄴㅅㅗㄱ -12392
▁ㅈㅣㄱㄹㅕㄹ -12393
▁Kiss -12394
▁760 -12395
▁ㅇㅑㄱㅊㅗ -12396
▁ㄱㅝㄴㄹㅕㄱㅈㅏ -12397
▁IZ -12398
reet -12399
▁ㅊㅣㄹㄱㅗㄱ -12400
▁ㅍㅜㅇㅁㅣ -12401
▁ㅂㅓㄴㅈㅏㄱ -12402
▁ㅂㅕㅇㅇㅡㅁ -12403
▁ㅇㅕㄴㅎㅏㅂㅎㅚ -12404
▁ㅅㅐㅁㅍㅡㄹㄹㅣㅇ -12405
▁%] -12406
ㅁㅣㄴㅇㅜ -12407
ㅇㅠㄱㅂㅗㄱ -12408
▁ㄱㅗㅇㅍㅏㄴ -12409
▁ㅅㅗㄱㅊㅣㅇ -12410
▁ㅇㅕㄴㅎㅠ -12411
▁ㅁㅏㅇㅇㅓㄴ -12412
▁Ha -12413
▁ㅈㅜㄹㅈㅣ -12414
▁ㄷㅏㅇㅈㅣㄴ -12415
▁ㅈㅓㅂㅎㅏㄹ -12416
▁ㅅㅗㄹㅌㅡ -12417
▁ㅇㅘㅆㅇㅓㅆ -12418
▁Fun -12419
▁ㄷㅣㅁ -12420
▁ㄹㅔㄹㄹㅡㅁ -12421
▁ㅈㅓㅇㅅㅣㄴㅈㅜㄹ -12422
▁GF -12423
▁Inter -12424
ㅂㅏㄴㅉㅏㄱ -12425
ㅈㅓㄴㅇㅕㄱ -12426
▁ㅌㅡㄱㄱㅓㅁ -12427
ORPG -12428
▁ㅌㅡㄱㅁㅜ -12429
▁ㅎㅘㅇㄱㅣ -12430
▁ㄷㅏㄴㄱㅕㄹ -12431
▁ㅂㅏㄴㅉㅏㄱㅂㅏㄴㅉㅏㄱ -12432
▁ㅁㅣㄴㅅㅏ -12433
▁ㅂㅣㅇㅎㅏ -12434
▁ㅇㅐㄱㅈㅏ -12435
ㄷㅗㄹㄹㅣㄹ -12436
▁ㄱㅜㄴㅊㅓㅇ -12437
▁ㅍㅜㅇㅅㅡㅂ -12438
▁080 -12439
▁ㅌㅖㄴ -12440
▁ㅅㅑㄹㄹㅓㅅ -12441
▁SPEC -12442
▁IR -12443
▁288 -12444
▁ㅇㅝㄴㅂㅏㄴ -12445
▁ㄱㅏㅇㅎㅢ -12446
▁ㅁㅏㄴㅅㅓㅇ -12447
ㄱㅣㅁㅇㅓㅄㅇㅣ -12448
QU -12449
▁Dig -12450
▁ㅂㅕㄴㅎㅏㄹ -12451
▁USA -12452
▁ㅇㅔㅇ -12453
▁ㅈㅣㄱㅅㅏ -12454
▁ㅅㅗㄴㅈㅣㄹ -12455
▁ㅅㅡㅇㅅㅓㄴ -12456
▁ㅈㅓㄴㄷㅏㄴ -12457
▁ㅎㅐㄴㄷㅡㄹㄹㅣㅇ -12458
▁FINAL -12459
▁ㄷㅏㅁㅂㅗ -12460
▁ㅈㅏㄹㄹㅕㅆ -12461
ks -12462
▁Again -12463
ato -12464
▁ㅈㅓㄱㅇㅢ -12465
▁ㄴㅗㅍㅇㅣㄹ -12466
▁ㅅㅓㄴㅈㅓㅁ -12467
▁ㅅㅓㄴㅊㅏㄱ -12468
YS -12469
ㅘㄴ -12470
▁ㄱㅡㄹㄹㅔ -12471
▁ㅇㅕㄴㅎㅏㅂㄱㅜㄱ -12472
▁ㄷㅟㅅㅁㅗ -12473
▁Dan -12474
▁ㄱㅗㅇㅅㅗ -12475
▁ㄱㅜㄱㅇㅚ -12476
▁ㅅㅣㄹㅅㅔ -12477
ㅍㅜㅅ -12478
▁RGB -12479
▁ㅆㅣㄹ -12480
▁2100 -12481
▁ㄱㅏㅁㅁㅕㅇ -12482
GO -12483
▁555 -12484
tor -12485
unch -12486
ㅇㅣㅁㅅㅐ -12487
▁ㅍㅣㅂ -12488
▁ㅈㅗㅇㅎㅚ -12489
▁ㅎㅏㄴㄱㅣ -12490
▁ㄹㅜㄹㄹㅜ -12491
▁ㅎㅏㄱㅅㅣㄹ -12492
▁ㅂㅓㄹㅈㅣㅂ -12493
▁ㅍㅏㅂㅋㅗㄴ -12494
▁ㅇㅜㄹㅅㅏㄴㄱㅘㅇㅇㅕㄱㅅㅣ -12495
▁rem -12496
▁ㅈㅔㄴㄷㅓ -12497
▁ㅅㅜㅁㄱㅣㄴ -12498
▁ㅊㅓㄴㄴㅕㄴㄱㅣ -12499
▁Wol -12500
▁ㅇㅕㄱㄷㅗ -12501
▁ㄴㅗㅇㅅㅓㅇ -12502
▁ㅌㅏㄹㅁㅗ -12503
ㄹㅐㄴㄷㅡㄴ -12504
ㅊㅞ -12505
▁bo -12506
▁ㅋㅏㅂ -12507
ㅈㅓㄹㄹㅗ -12508
ㄴㅕㅁㄱㅘㄴ -12509
ㅅㅏㅇㅎㅜㄴ -12510
▁ㅂㅏㅇㅋㅗㄱ -12511
va -12512
▁ㅅㅜㄹㅈㅏ -12513
▁ㅂㅣㄴㄱㅗㄴ -12514
▁ㅇㅣㄹㅂㅕㅇ -12515
order -12516
▁ㄱㅓㄴㄴㅓㄹ -12517
▁ㅎㅓㄴㅂㅕㅇ -12518
▁Tim -12519
▁ㅎㅏㄴㄱㅕ -12520
ㅍㅓㄴ -12521
ㄱㅐㅅㅅㅗ -12522
▁light -12523
▁TA -12524
▁ㅈㅏㅂㄷㅏㅁ -12525
▁ㅂㅓㅅㄱㅣ -12526
▁ㅇㅡㅇㅎㅏ -12527
▁ㅅㅏㄴㄹㅣㅁ -12528
▁ㅍㅏㄴㄷㅗㄱ -12529
ㅌㅡㄱㅂㅕㄹㅈㅏ -12530
▁ㄲㅡㅌㅁㅏ -12531
▁ㅇㅕㅁㄹㅏ -12532
▁ㄷㅗㄹㄹㅣㄴㄷㅏ -12533
▁ㅅㅜㄱㅈㅗㅇ -12534
▁vol -12535
▁ㄸㅏㅆ -12536
▁ㅎㅏㄴㄴㅣ -12537
▁ㅇㅝㄹㅌㅡ -12538
ㅁㅣㅇㄱㅗ -12539
ITY -12540
▁ㅎㅕㄹㅇㅕㄴ -12541
idae -12542
▁Dri -12543
▁ㅈㅗㅇㅇㅓㅂ -12544
▁ㅍㅐㅇㅊㅏㅇ -12545
▁Heaven -12546
▁ㄱㅏㅇㄱㅣ -12547
▁ㅂㅏㄴㅊㅏㄴ -12548
▁Anim -12549
ㄴㅕㅆㅇㅡ -12550
ㅆㅡㄹㅇㅣ -12551
▁ㅅㅗㄱㅅㅏㄱㅇㅣㅁ -12552
ㄹㅡㄴㅂㅏㄹ -12553
▁ㄱㅜㄹㄹㅣㄹ -12554
▁ㅇㅏㄱㄷㅏㄴ -12555
▁ㅂㅜㅇㅇㅓ -12556
ㅇㅑㄱㅍㅜㅁ -12557
▁ㅊㅐㅇㄱㅣㄹ -12558
▁ㅋㅔㅁ -12559
ㅅㅣㅂㄹㅣ -12560
▁ㄴㅏㄱㅌㅏ -12561
▁ㅁㅗㄱㅈㅗ -12562
▁ㅅㅓㅇㅈㅏ -12563
ㅎㅓㅁㅈㅏㅇ -12564
▁MOM -12565
▁ㅅㅗㅇㅈㅓㅇ -12566
▁ㅅㅣㄴㅎㅗㄴ -12567
▁.? -12568
ㅇㅖㄴ -12569
▁MiG -12570
▁ㅂㅗㄴㅇㅓㅂ -12571
▁ㅈㅏㄴㅅㅏㅇ -12572
▁UK -12573
▁add -12574
ㄷㅏㄹㅇㅡㅁ -12575
▁ㅎㅏㅂㅅㅓㅇㅅㅜ -12576
▁ㅂㅕㄹㅈㅏㅇ -12577
▁ㅇㅏㄴㄱㅓㄴ -12578
ㄹㅡㅂㄴㅣ -12579
▁ㅈㅓㅇㅎㅏㄹ -12580
▁mod -12581
▁ㅈㅓㅇㅌㅐ -12582
▁ㅅㅗㄴㅈㅏㅂ -12583
▁Cent -12584
▁ㅊㅏㄱㅅㅣ -12585
TLE -12586
ㅁㅏㅎ -12587
ething -12588
▁ㄱㅕㄹㅈㅓㅇㅌㅏ -12589
▁NATO -12590
▁stop -12591
▁ㅇㅗㄴㄹㅣ -12592
ㅎㅘㅇㅊㅓㅇ -12593
ㄱㅐㄱㄱㅣ -12594
▁ㅌㅏㄴㅍㅣ -12595
▁ㄴㅗㄹㄹㅏㄹ -12596
▁ㅁㅗㄱㅅㅓㅇ -12597
▁299 -12598
▁ㄱㅗㅇㅅㅣㄱㅈㅓㄴ -12599
▁ㄱㅡㅁㅅㅜ -12600
▁ㅅㅐㄴㅈㅡ -12601
▁ㅇㅕㄱㅇㅣ -12602
ㄱㅡㄹㄹㅣ -12603
▁System -12604
▁QS -12605
▁Remix -12606
▁ㄱㅡㅁㅅㅏㅇ -12607
▁ㅊㅓㄴㅊㅏ -12608
▁ㄷㅡㅇㄷㅐ -12609
▁ㅈㅓㅇㅇㅗ -12610
▁ㅎㅐㄴㄷㅣ -12611
▁ㅈㅓㅂㄷㅜ -12612
ㅇㅟㄱ -12613
▁ㅂㅗㄱㅅㅜㅇㅇㅏ -12614
ury -12615
▁990 -12616
enter -12617
ㄴㅑㅇㄱㅐ -12618
▁ㄲㅡㄶㄱㅕ -12619
▁ㅂㅜㄴㅌㅜ -12620
▁gl -12621
ㅇㅑㅇㄱㅖ -12622
▁ㅂㅏㄹㄱㅣ -12623
▁ㅁㅣㄴㅁㅏㅇ -12624
▁sup -12625
▁2200 -12626
ㅈㅏㄶㅇㅏ -12627
▁ㅋㅓㅁㅍㅡㄹㄹㅔㄱㅅㅡ -12628
▁Sal -12629
▁ㄱㅣㄹㄹㅣ -12630
▁ㅂㅏㄹㅈㅣㄴ -12631
▁ㅅㅣㄹㅋㅡ -12632
ㄱㅜㅂ -12633
▁Fant -12634
▁ㅈㅓㄱㅈㅏㄶ -12635
▁Wr -12636
▁were -12637
ㄱㅡㅁㄲㅓㅅ -12638
▁ㅇㅘㅅㅅㅡㄴ -12639
▁him -12640
▁ㄱㅗㅇㅎㅏㄱㅂㅜ -12641
▁ㄱㅗㅇㅅㅗㄴㅊㅏㄴ -12642
acy -12643
ㄷㅗㄹㄹㅣㄴ -12644
▁ㄱㅜㄴㅈㅏㅇ -12645
▁ㅇㅡㅁㄷㅗㄱ -12646
▁ㅍㅗㄱㄹㅏㄱ -12647
▁ㅇㅗㄹㄹㅏㅆㅇㅡ -12648
▁ㅎㅣㄴㄷㅜ -12649
▁ㄱㅜㄴㅇㅛㅇ -12650
ㄱㅜㄱㅅㅜ -12651
iet -12652
▁ㄹㅔㅇ -12653
▁ㅅㅛㄹ -12654
▁ㄱㅝㄴㅅㅜ -12655
cape -12656
▁ㅂㅓㄴㅇㅕㄱㅂㅗㄴ -12657
▁GEN -12658
▁ㄲㅡㄴㄷㅏ -12659
▁ㅂㅜㄹㅅㅣ -12660
▁ㅁㅏㅅㅈㅣㅂ -12661
▁ㅈㅣㄱㅁㅕㄴ -12662
▁ㅂㅏㄱㅎㅏ -12663
▁ㅈㅏㅁㅈㅓㄱ -12664
▁TM -12665
▁ㅈㅏㅇㄹㅕ -12666
▁ㅍㅡㄹㄹㅣㄱ -12667
aking -12668
▁ㄱㅣㅁㅁㅣ -12669
ㅅㄱㅏㅁ -12670
▁ㅅㅣㅁㄷㅗ -12671
ㅇㅛㅇㅇㅓㅄ -12672
▁ㅊㅏㄱㅌㅏㄴ -12673
▁ㅇㅕㄱㅂㅜ -12674
▁ㅌㅏㄹㅂㅏ -12675
ㄲㅓㄹ -12676
ㄷㅐㄴㄷㅏ -12677
▁display -12678
▁ㅇㅝㄴㄷㅗㅇㄹㅕㄱ -12679
▁ㅅㅗㄱㅊㅗ -12680
▁ㅅㅡㅇㅁㅏ -12681
▁ㄷㅏㄹㄹㅕㄱ -12682
▁ㅁㅓㄱㅇㅣㄴ -12683
▁Why -12684
▁ㅅㅡㅇㅅㅜ -12685
ㅅㅏㅇㅇㅜ -12686
ㄹㅡㅁㄱㅏㅄ -12687
▁ㅈㅣㄱㅅㅓㄹ -12688
▁295 -12689
▁ㅊㅗㅇㅁㅜ -12690
▁ㄱㅑㅇ -12691
▁ㄷㅏㅁㅈㅏㅇ -12692
▁ㅈㅏㅇㅇㅠㄴ -12693
ㅂㅐㅇㅇㅣ -12694
▁ㅎㅠㅇㅂㅜ -12695
iw -12696
▁GRE -12697
▁ㄲㅏㄲㅇㅣㄴ -12698
▁ㅅㅓㄴㄷㅗㅇㅇㅕㄹ -12699
▁ㅁㅏㄹㄹㅣㄴ -12700
▁ㅍㅕㄹㅊㅣㄹ -12701
▁ㅎㅏㄴㅅㅜㄹ -12702
▁ㅅㅐㅇㅎㅘㄹㄱㅘㄴ -12703
ㅅㅑㅂ -12704
▁They -12705
▁ㅇㅕㄹㄷㅡㅇㄱㅏㅁ -12706
ㄱㅜㄴㅂㅜㄴㅌㅜ -12707
ㅋㅜㄹㄹㅜ -12708
▁ㅌㅏㄹㅇㅕㅇ -12709
▁PERFECT -12710
ㅅㅣㄴㅈㅓ -12711
▁ㅇㅓㄱㄴㅜ -12712
ㅇㅗㅂㄴㅣ -12713
▁15000 -12714
▁ㅇㅐㅁㅍㅡ -12715
▁ㅈㅏㅁㅈㅏㅁ -12716
▁ㄴㅏㅁㄷㅐ -12717
▁JB -12718
▁ㅅㅟㅁ -12719
▁ㅌㅠㄴ -12720
ㄷㅗㅇㅅㅗ -12721
irth -12722
▁ㅂㅜㄴㅂㅣ -12723
ㅅㅡㅇㅇㅝㄴ -12724
▁ㅍㅜㅇㅅㅣㄴ -12725
▁ㅍㅣㄹㅁㅕㄹ -12726
▁ㅇㅝㄴㅌㅜ -12727
▁ㅊㅜㄱㅊㅜㄹ -12728
WS -12729
▁ㄴㅓㄳ -12730
ㅊㅕㅆㅇㅡ -12731
▁ㄱㅕㅇㅇㅝㄴ -12732
▁ㅁㅓㄹㄹㅗㄱ -12733
▁ㄱㅜㄴㅁㅜ -12734
▁ㅅㅜㅁㅌㅗㅇ -12735
ㅅㅡㅇㄱㅣ -12736
▁Series -12737
▁GIR -12738
▁ㄴㅜㄴㅁㅐ -12739
▁ㅇㅣㄹㄱㅓ -12740
hem -12741
▁ㅅㅓㅇㅁㅐ -12742
▁ㅂㅣㅇㅂㅣㅇ -12743
77 -12744
82 -12745
▁ㅇㅡㄹㄹㅐ -12746
ㄹㅣㅁㄷㅗㅇ -12747
▁Ann -12748
▁ㅅㅟㄴ -12749
▁ㅈㅓㄴㄹㅠㄴ -12750
ㄱㅓㄴㅊㅏㅇ -12751
EP -12752
▁ㅊㅜㅇㄷㅏㅇ -12753
▁ㅂㅏㄺㅎㅕㅆㅇㅡ -12754
▁Championship -12755
org -12756
▁ㅁㅏㄹㅆㅓㅇ -12757
▁ㅅㅣㄴㅊㅓㄴㅈㅣ -12758
▁ㅁㅕㄴㅅㅏ -12759
▁ㄴㅗㄱㅇㅣ -12760
▁ㅊㅣㄴㅂㅜ -12761
▁ㅇㅣㄴㄷㅐ -12762
▁ㅎㅏㅅㅌㅗ -12763
ㅂㅏㅇㅇㅝㄴ -12764
▁Force -12765
▁ㅍㅕㄴㅍㅏ -12766
ㅇㅗㄹㄹㅣㄹ -12767
▁ㅁㅓㅁㅊㅜㄴ -12768
▁ㅁㅕㅇㄹㅏㅇ -12769
▁405 -12770
ㄷㅗㅇㅎㅏㄴ -12771
▁ㅇㅣㄹㅊㅣㅁ -12772
▁ㅈㅜㅇㄴㅏㅁ -12773
▁TL -12774
▁Vir -12775
ㅊㅏㅁㅎㅣ -12776
▁ㅉㅏㄼㅇㅏ -12777
▁ㅈㅣㄱㄱㅡㅂ -12778
pm -12779
ㅎㅏㄴㅈㅔ -12780
othing -12781
cess -12782
▁ㅇㅗㄻㄱㅣㄹ -12783
▁ㅇㅓㄺㅎㅕ -12784
▁ㅇㅕㄹㅍㅗㄱ -12785
▁ㅈㅏㅇㅊㅏㅇ -12786
▁ㄲㅝ -12787
▁425 -12788
▁490 -12789
ㄱㅡㅂㅎㅣ -12790
ㅍㅕㅇㄱㅜㄴ -12791
▁ㅂㅗㄴㅈㅓㅁ -12792
▁ㅇㅏㄴㅊㅏㄱ -12793
▁ㅍㅏㄹㄹㅣㄴ -12794
▁ㄱㅜㅇㅇㅖ -12795
ㄹㅏㅇㅋㅗ -12796
▁ㅂㅣㄴㅈㅏ -12797
▁ㅅㅣㄴㅊㅏ -12798
▁ㄱㅕㄱㅂㅏㄹ -12799
▁BLUE -12800
ㅍㅔㄴㄷㅓ -12801
▁ㅇㅝㄴㄴㅏ -12802
▁ㅇㅑㅇㅂㅗㄱ -12803
▁ㅁㅐㄴㅁㅗㅁ -12804
ㄴㅔㄱㅌㅡ -12805
▁ㅋㅓㄹㅊㅓ -12806
▁Future -12807
ㅁㅜㅁ -12808
ㄷㅗㅇㅇㅕㄱ -12809
ㅂㅣㄹㄹㅏ -12810
▁ㄱㅓㄴㄱㅜㄱㄷㅐ -12811
▁af -12812
ㅅㅓㄹㅍㅡㄴ -12813
▁ㅎㅕㄴㅈㅗㅇ -12814
adding -12815
▁ㅆㅏㄱㅆㅡㄹㅇㅣ -12816
▁ㅅㅏㅇㄹㅗㄱ -12817
▁ㅇㅡㅁㅈㅓㄹ -12818
▁ㅁㅐㅇㅈㅏㅇ -12819
▁ㅂㅓㄴㅇㅕㄱㄱㅏ -12820
▁ㅍㅏㅅㅋㅐ -12821
▁ㅎㅡㄹㄹㅣㄴㄷㅏ -12822
▁MED -12823
▁ㄴㅏㄱㅌㅐ -12824
▁ㄷㅏㄴㅊㅜ -12825
▁ㅇㅜㄹㅌㅏ -12826
▁ㅎㅘㄴㄱㅣ -12827
▁ㄱㅡㄱㅁㅕㅇ -12828
▁ㅂㅏㄴㄱㅏㅂ -12829
▁ㅈㅏㅇㅂㅗ -12830
ICK -12831
▁ㄱㅣㄴㅌㅗ -12832
▁ㅅㅗㄴㄱㅕㄴ -12833
fore -12834
ㅁㅜㄴㄱㅜ -12835
ㅊㅓㄴㄴㅕㄴ -12836
▁ㅆㅏㅇㅂㅏㅇㅇㅜㄹ -12837
▁ㅅㅓㅇㅎㅘ -12838
▁ㅊㅓㅇㄱㅏㄱ -12839
▁Ta -12840
ㄴㅏㄴㅎㅐ -12841
ㅎㅐㅇㄷㅏㄴ -12842
▁ZERO -12843
▁ㅇㅏㄱㄴㅕ -12844
▁ㅇㅏㅇㅋㅗ -12845
▁XI -12846
▁ㄲㅡㅀㅇㅕ -12847
▁ㅋㅐㄴㅈㅏ -12848
▁ㅇㅣㄴㅁㅣㄴㄱㅜㄴ -12849
▁nm -12850
ㅈㅏㅇㅁㅕㄴ -12851
▁ㅊㅜㅇㅅㅣㄹㅎㅏ -12852
umb -12853
▁Set -12854
ㅇㅡㅁㄱㅏ -12855
▁ㅁㅜㄱㅅㅣ -12856
ㅂㅏㄹㅈㅓㅁ -12857
▁ㅁㅕㅇㅁㅐㄱ -12858
▁ㅈㅓㅇㅅㅏㄴ -12859
▁ㅇㅣㄴㅇㅟ -12860
ㅈㅣㄴㅊㅏㅇ -12861
▁mg -12862
▁Reb -12863
▁ㅅㅗㄹㄹㅓ -12864
▁ㅉㅏㄱㅅㅜ -12865
▁ㄷㅜㄴㄱㅏㅂ -12866
▁ㅇㅔㄹㄹㅔㄴ -12867
ㄱㅝㄹㅅㅓㄴㄱㅓ -12868
▁ㅈㅓㄱㄴㅏ -12869
▁ㅅㅏㄴㅇㅓㅂㄷㅏㄴㅈㅣ -12870
ㅈㅓㅇㅈㅣ -12871
▁ㅁㅣㄹㄹㅣㅁ -12872
ㅇㅕㅇㅇㅜㅇㅈㅓㄴㅅㅓㄹ -12873
▁ㅇㅏㄴㄹㅏㄱ -12874
▁880 -12875
▁ㅅㅏㅇㅅㅓ -12876
▁ㄴㅗㄴㅎㅏ -12877
ㅁㅐㄴㅌㅣㄱ -12878
▁ㅅㅗㄴㅅㅐㄱ -12879
▁ㅇㅕㄴㄱㅕㄱ -12880
▁ㅂㅏㄴㅇㅕㄱㅈㅏ -12881
▁ㅇㅓㄴㄹㅗㄴㅇㅣㄴ -12882
ㅈㅓㅇㅇㅏㄴ -12883
▁ㅂㅕㄹㅂㅏㄴ -12884
▁UB -12885
iant -12886
ㄷㅏㅁㄱㅏㅁ -12887
otion -12888
▁ㅇㅝㄴㅅㅓ -12889
ㅁㅣㄴㅈㅓㅇ -12890
▁Mnet -12891
▁ㄱㅗㅇㅇㅖ -12892
▁ㅊㅣㅁㄹㅑㄱㅈㅏ -12893
▁Mc -12894
orce -12895
▁ㄲㅜㅇ -12896
orry -12897
▁ㅅㅜㄷ -12898
▁ㅂㅜㄹㅂㅣㅊ -12899
▁ㅇㅓㅇㅁㅏㅇㅈㅣㄴㅊㅏㅇ -12900
ㄴㅗㄹㄷㅡ -12901
ㅇㅝㄴㅅㅓㄱ -12902
▁ㅂㅏㅇㅊㅓㅇ -12903
▁ㅇㅕㅇㄹㅕㄱ -12904
▁ㅇㅣㅂㅊㅏㄹ -12905
▁ㅎㅐㅇㅅㅓㄴㅈㅣ -12906
SE -12907
▁Video -12908
▁ㅂㅏㄹㅈㅜ -12909
▁ㅎㅘㄱㅈㅣㄴ -12910
▁ㅇㅏㄴㄱㅜ -12911
▁Mo -12912
▁404 -12913
▁LPL -12914
▁ㅋㅟㄹ -12915
▁Plus -12916
▁ㅅㅔㄹㄹㅓ -12917
▁ㄲㅏㅇㅌㅗㅇ -12918
▁ㄱㅝ -12919
ㄷㅡㄹㄹㅔ -12920
▁ㄱㅘㅇㅅㅣㄴㄷㅗ -12921
▁ㅇㅖㄹ -12922
▁More -12923
▁ㅁㅗㄴㄷㅡ -12924
ㄹㅏㄱㅅㅔ -12925
ㅍㅏㄹㄱㅜ -12926
read -12927
▁ㄱㅏㄹㅁㅐ -12928
ㅅㅏㄴㅇㅓㅂ -12929
▁ㅂㅏㅇㅈㅓㄴ -12930
ㄱㅐㄹ -12931
▁ㄱㅜㄺㅈㅣㄱ -12932
▁ㅅㅣㅂㅈㅜㅇ -12933
▁ㅌㅐㅅㅇㅡㄴ -12934
▁ㅎㅘㄹㄹㅗ -12935
ottom -12936
▁ㅅㅣㄴㅇㅣㄴㅇㅘㅇ -12937
▁ㅅㅣㅂㅈㅜㅇㅍㅏㄹㄱㅜ -12938
▁ㅇㅝㄴㅊㅔ -12939
▁MMORPG -12940
▁ㅂㅏㅇㅎㅏㄴ -12941
▁ㅈㅡㅇㅊㅜㄱ -12942
▁}}}}}}}} -12943
▁ㄱㅏㅇㄴㅏㅁㅇㅕㄱ -12944
▁ㄱㅏㅇㅈㅣㄴ -12945
▁ㄷㅗㅇㅁㅕㄴ -12946
?? -12947
ㅁㅏㄴㅎㅘ -12948
▁ㅅㅐㅇㅅㅐㅇ -12949
▁960 -12950
▁ㅂㅜㅌㅈㅏㅂㅎㅣㄴ -12951
▁ㅊㅗㅇㅅㅣㄴ -12952
ㅈㅓㅇㄱㅠ -12953
ih -12954
▁ㅇㅏㄴㅅㅏㄴㅅㅣ -12955
▁NCR -12956
▁ㄱㅗㅇㅂㅓㅁ -12957
▁ㅂㅗㄴㅅㅣㅁ -12958
▁ㅊㅜㅇㅅㅣㄴ -12959
▁ㄱㅗㄹㅁㅓ -12960
▁ㅅㅜㄱㅂㅜ -12961
sy -12962
▁ㄲㅏㄲㅇㅕ -12963
▁ㅅㅜㄴㅈㅗㅇ -12964
ATA -12965
▁1922 -12966
▁ㅂㅏㅁㅎㅏ -12967
▁ㄱㅣㅁㅇㅕㄴㅇㅏ -12968
▁ㅁㅏㅌㄱㅣㄴㄷㅏ -12969
▁ㅈㅏㅇㄷㅏㄴㅈㅓㅁ -12970
▁266 -12971
▁ㅎㅏㅇㅁㅏㄴ -12972
▁Card -12973
ㅈㅗㅇㅅㅜ -12974
▁ㅇㅜㅇㅈㅣㄴ -12975
▁ISO -12976
ula -12977
ㅍㅣㅂ -12978
ㄱㅓㄹㅅㅡ -12979
▁ㅇㅡㄴㅎㅘ -12980
con -12981
▁345 -12982
▁ㄱㅕㅇㅎㅘ -12983
▁ㅈㅣㄴㅇㅟ -12984
▁ㅊㅜㄹㅅㅗ -12985
▁ㅉㅣㅂ -12986
▁ㅁㅜㄴㅇㅖ -12987
▁ㅅㅏㅇㅇㅏ -12988
▁ㅇㅕㅆㅇㅡㅁㅇㅡㄹ -12989
▁PE -12990
▁ㅁㅣㄴㅂㅓㅂ -12991
79 -12992
▁po -12993
roid -12994
▁ㄱㅏㄹㄹㅕㅆ -12995
ㄹㅑㅇㄱㅣ -12996
▁ㅈㅗㅇㅍㅏ -12997
▁ㅁㅏㅌㄱㅣㄴ -12998
▁xB -12999
▁ㅇㅓㄺㅎㅣ -13000
▁ㅍㅕㅁㅎㅏ -13001
▁Kr -13002
▁TBD -13003
ㄱㅘㅇㅇㅣ -13004
ㅌㅐㄴㄹㅣ -13005
▁ㅇㅕㅇㅇㅜㅇㅈㅓㄴㅅㅓㄹ -13006
ㅇㅣㄱㅅㅡ -13007
▁ㄱㅕㅇㅋㅙ -13008
▁ㅇㅕㅇㅌㅗㅇ -13009
ㅂㅏㄴㅅㅡ -13010
▁ㄷㅗㄱㅅㅏ -13011
▁ㅊㅏㅁㅅㅣㄴ -13012
ery -13013
▁By -13014
▁Nat -13015
ㅎㅏㅁㅁㅏ -13016
▁ㅅㅏㄹㄹㅣㅁ -13017
ㅅㅣㄱㄱㅣ -13018
▁ㅅㅓㄱㄱㅏ -13019
▁ㅇㅓㅄㅇㅐㄴ -13020
TN -13021
ㅌㅏㄹㄹㅗ -13022
▁ㄱㅓㅁㅌㅜ -13023
ㅈㅣㄹㄱㅏㅁ -13024
ke -13025
▁ㅊㅏㅇㄱㅏㄴ -13026
▁ㅂㅏㄹㅅㅓㅇ -13027
▁star -13028
▁would -13029
▁ㅇㅗㄴㅇㅢ -13030
▁ㅈㅏㅇㄹㅛ -13031
ta -13032
aint -13033
▁Squ -13034
ㅇㅛㅇㅎㅏㄴ -13035
▁ㅅㅣㄴㅊㅏㅇ -13036
▁ㅊㅣㅁㅂㅓㅁ -13037
▁ㅎㅕㄴㅎㅗㄱ -13038
erson -13039
ender -13040
▁ㅈㅜㄹㅁㅜ -13041
▁ㅇㅣㄹㅍㅏㄴ -13042
▁SPECIAL -13043
ㄷㅏㅇㅇㅕㄱ -13044
▁ㅇㅠㄱㅌㅏㄴ -13045
▁610 -13046
▁Year -13047
▁ㄱㅏㅇㅈㅣ -13048
▁272 -13049
ㅈㅣㅂㄱㅏ -13050
ㅅㅐㅇㅁㅕㅇ -13051
46 -13052
ㅍㅣㄹㄹㅣ -13053
▁video -13054
▁ㅇㅕㅇㅈㅓㅇ -13055
▁ㅇㅜㄹㄹㅣㅁ -13056
▁ㄷㅗㅇㅁㅐㅇㄱㅜㄱ -13057
▁ㅌㅣㅁㅇㅝ -13058
▁ㅂㅗㄱㄹㅑㅇ -13059
▁Ball -13060
▁ㄱㅡㅂㅅㅜ -13061
▁ㅈㅣㄹㄹㅣㄴ -13062
▁Dyn -13063
▁ㅅㅗㄴㅍㅐ -13064
▁CBS -13065
ㅎㅕㄴㅎㅢ -13066
▁ㄹㅐㄴㄷㅣㅇ -13067
▁Band -13068
▁ㅇㅓㅁㅎㅗ -13069
▁ㅎㅏㄴㅂㅏ -13070
▁ㅎㅏㅇㅈㅓㄴ -13071
▁ㅁㅣㄴㅅㅡ -13072
▁ㅁㅣㄹㅊㅣ -13073
ㅍㅕㅇㅇㅕㄱ -13074
▁ㅈㅜㅇㅈㅓㄴ -13075
ㄱㅕㅇㅇㅜ -13076
▁ㄲㅏㄹㄹㅣㄴ -13077
▁ㅌㅏㅁㅎㅓㅁㄷㅐ -13078
▁ㅁㅣㄹㅇㅝ -13079
▁ㅈㅏㅇㅈㅗ -13080
▁ㅎㅐㄱㅍㅗㄱㅌㅏㄴ -13081
▁had -13082
▁ㅎㅡㅌㅃㅜ -13083
▁780 -13084
▁ㅇㅕㄴㅇㅗㄱ -13085
ㅎㅜㅅ -13086
▁ㄷㅗㄱㄱㅗ -13087
▁ㅅㅣㄴㅂㅕㄴ -13088
▁ㅊㅓㄹㅈㅔ -13089
▁ㄱㅗㄹㄷㅡㄴㄱㅡㄹㄹㅓ -13090
▁ㅈㅏㄱㅁㅕㅇ -13091
▁ㅌㅡㄱㅊㅘㄹㅁㅜㄹ -13092
▁Div -13093
▁ㅎㅏㄴㅋㅠ -13094
▁Wonder -13095
▁ㅈㅓㄴㅇㅣㄹ -13096
ㄱㅕㅇㄱㅠ -13097
▁ㅁㅕㅇㅅㅏㅇ -13098
po -13099
▁ㅌㅓㅅ -13100
ㅈㅓㅇㅇㅝㄴ -13101
▁ㄴㅏㄹㄹㅕㅂ -13102
ㅈㅓㄱㅎㅏㅂ -13103
HA -13104
ㅍㅗㅇ -13105
▁ㅂㅏㄹㄱㅏ -13106
▁ㅂㅗㅇㅎㅘ -13107
▁ㄱㅝㄴㅂㅓㅂ -13108
▁ㄱㅜㄱㄱㅛ -13109
▁ㅂㅜㄴㄱㅛ -13110
▁ㅌㅡㄱㄷㅐ -13111
▁840 -13112
▁ㅁㅗㄹㅇㅣ -13113
▁Lov -13114
els -13115
▁ㄱㅡㅂㅈㅣㄴ -13116
▁ㅎㅘㅇㄱㅡㅁㄱㅣ -13117
▁ㅈㅡㅇㅈㅓㅇ -13118
▁ㅋㅣㄹㄹㅣㅇ -13119
▁ㅂㅕㄴㅈㅗ -13120
▁ㅎㅘㅇㅅㅏㄴ -13121
▁ㅂㅜㄴㄷㅏㄴ -13122
▁SSD -13123
▁ㅅㅗㄱㅁㅏ -13124
▁ㄹㅣㄴㅋㅗ -13125
▁ㅇㅛㅇㄱㅏ -13126
live -13127
▁ㅇㅏㄴㄷㅔ -13128
▁ㅈㅏㅇㅈㅓㅇ -13129
ico -13130
▁810 -13131
▁America -13132
▁}}}}}}}}} -13133
▁Mons -13134
ㅇㅣㄹㅂㅣ -13135
hes -13136
ㄸㅐㅆ -13137
▁Vers -13138
▁ㅅㅏㄱㅅㅡ -13139
▁padding -13140
▁ㄷㅏㄹㅍㅐㅇㅇㅣ -13141
▁ㅈㅡㄹㄱㅣㄴㄷㅏ -13142
▁ㅇㅡㅁㅈㅣㄹ -13143
▁ㅅㅓㄷㅂㅜㄹㄹㅣ -13144
▁Queen -13145
▁Shadow -13146
▁ㅅㅣㅁㄱㅕㅇ -13147
▁Fort -13148
▁ㅂㅜㄹㅍㅐ -13149
▁ㅅㅗㄱㅂㅗ -13150
▁ㅇㅏㄴㅁㅏ -13151
▁ㅎㅘㅇㄱㅜㅇ -13152
wn -13153
▁ㅅㅣㄹㅎㅘ -13154
▁view -13155
ㅂㅐㄴㅌㅣ -13156
▁ㅁㅣㄴㅅㅗㄱ -13157
▁VF -13158
▁INF -13159
▁ㄱㅡㄹㄹㅔㄴ -13160
▁FD -13161
▁Ill -13162
▁pre -13163
▁ㅈㅣㄹㅌㅏ -13164
▁ㅎㅗㄴㄴㅐ -13165
▁ㄱㅘㄴㅎㅕㄴㅇㅏㄱ -13166
▁Exper -13167
▁ㅇㅡㅁㅍㅛ -13168
▁ㄴㅏㄴㄱㅘㄴ -13169
▁ㄱㅏㄴㄱㅏㄴㅇㅣ -13170
86 -13171
▁321 -13172
▁power -13173
▁ㄷㅡㅇㄱㅣ -13174
▁ㄷㅏㄴㄹㅏㄱ -13175
▁ㅅㅣㄴㅁㅕㅇ -13176
▁ㅇㅝㄴㅌㅏㅂ -13177
▁ㅇㅣㅁㅊㅏㅇㅇㅛㅇ -13178
ican -13179
▁LR -13180
▁ㅂㅜㄹㅆㅣ -13181
▁ㅍㅜㅇㅇㅛ -13182
ㅂㅜㄹㅂㅗㄱ -13183
▁Aq -13184
▁1912 -13185
▁ㄴㅏㅂㅂㅜ -13186
▁ㅅㅗㄱㄱㅜㄱ -13187
▁ㅅㅣㄴㅇㅡㅁ -13188
▁ㅂㅗㄱㅂㅜㄹㅂㅗㄱ -13189
▁ACE -13190
▁ㅊㅏㄴㄷㅏ -13191
▁Player -13192
▁ㅇㅏㄹㄹㅣㄴㄷㅏ -13193
ㅎㅡㅁ -13194
▁From -13195
▁ㄱㅡㄴㅅㅗ -13196
ㅁㅏㄴㄱㅏㄴ -13197
ㅅㅓㅇㅈㅏㅇ -13198
▁ㅇㅗㄴㅊㅓㄴㅇㅛㄱ -13199
ㄲㅡㄹㄹㅕ -13200
ㅅㅓㅇㅂㅓㅁ -13201
▁ㅈㅡㅇㅅㅓㄹ -13202
▁ㅎㅡㅇㄱㅜㄱ -13203
▁ㅎㅓㄴㅌㅣㅇ -13204
hed -13205
▁ㄹㅣㄴㄴㅔ -13206
▁ㄷㅏㅁㄷㅏㅁ -13207
▁ㅈㅗㅇㅂㅏㄴ -13208
▁355 -13209
▁Chapter -13210
ㅅㅣㄴㅁㅜㄴ -13211
▁ㅂㅏㄱㅅㅓㅇㅈㅜㄴ -13212
▁ㅊㅜㅂ -13213
ㄱㅜㄱㅅㅣㄱ -13214
▁ㅆㅓㅆㅇㅡ -13215
▁ㅇㅏㄹㄹㅗ -13216
▁ㅍㅏㄴㄹㅖ -13217
ㄸㅐㄴ -13218
▁820 -13219
▁ㅁㅕㄹㅅㅣ -13220
▁ㅂㅗㅁㅇㅣ -13221
▁Ever -13222
▁ㅍㅜㅇㅅㅓㅇ -13223
▁ㅎㅐㅇㅈㅓㅇㅎㅏㄱ -13224
ㅉㅏㄹㅇㅣ -13225
▁ㄱㅗㅇㅁㅜㄹ -13226
▁ㅎㅗㄴㅇㅛㅇ -13227
ㅅㅣㅁㅈㅏ -13228
▁ㅇㅑㄱㄱㅜㄱ -13229
ㅇㅣㅁㅈㅏ -13230
ㅈㅏㅇㅅㅜ -13231
▁ㅇㅑㄴㄷㅏ -13232
▁ㄷㅓㅇㄱㅜㄹ -13233
▁ㅁㅏㄴㅁㅜㄹ -13234
▁ㅍㅏㄴㅂㅏㄱㅇㅣ -13235
▁IB -13236
ㅘㅇ -13237
▁ARC -13238
▁ㅅㅣㄱㅋㅏㄹ -13239
▁ㄴㅡㅈㅊㅜ -13240
▁ㅁㅏㅁㄷㅐ -13241
▁ㅅㅣㄴㄱㅕㅇㅈㅓㄴ -13242
▁JD -13243
ㅇㅑㄴㅁㅏ -13244
▁ㄱㅜㄹㅈㅓㄹ -13245
▁ㅅㅣㄴㅎㅕㅇ -13246
▁ㅊㅏㅁㅎㅗ -13247
▁ㄷㅗㅇㅎㅑㅇ -13248
▁ㅊㅓㄹㅍㅏㄴ -13249
▁Round -13250
▁ㅅㅓㅇㄹㅛㅇ -13251
▁ㅃㅏㄹㄹㅐ -13252
▁ㅇㅏㄱㄱㅟ -13253
▁ㅇㅗㄱㅌㅗ -13254
▁ㄱㅜㄱㄱㅗㅇ -13255
▁ㅉㅜㄱㅉㅜㄱ -13256
▁ㅎㅏㅁㅈㅗㅇ -13257
▁ㅎㅐㅆㅇㅡㄹㅈㅣ -13258
APP -13259
oto -13260
▁ㅎㅗㄴㅅㅜ -13261
ㅁㅗㄱㅁㅣㄴ -13262
▁ㅇㅛㅇㅅㅣㄴ -13263
▁EXE -13264
ㅈㅓㅇㅂㅗ -13265
▁ㄱㅓㅁㅂㅓㅂ -13266
▁ㅅㅗㅇㅇㅡㄴ -13267
▁FOR -13268
▁ㄷㅟㅅㅂㅜ -13269
ㄲㅣㅁㅇㅓㅄㅇㅣ -13270
▁ㅅㅠㄹ -13271
ㄴㅕㅁㅂㅣ -13272
ㅍㅡㄹㄹㅗ -13273
▁ㅇㅗㅂㅈㅓ -13274
▁ㅇㅑㅇㅅㅜ -13275
▁ㅇㅝㄹㅎㅘ -13276
▁ㅅㅣㄴㅌㅗㅇ -13277
▁ㅊㅓㅇㅅㅜㄴ -13278
▁ㅅㅔㄹㅋㅏ -13279
▁ㅅㅣㄹㄱㅝㄴ -13280
ask -13281
▁San -13282
▁ㅂㅏㄹㅇㅏㅁ -13283
▁ㅋㅗㅁㅍㅡㄹㄹㅔㄱㅅㅡ -13284
▁570 -13285
▁911 -13286
▁TFT -13287
ㄷㅓㄱㅈㅣ -13288
ㅇㅗㄴㅈㅣ -13289
▁ㅎㅓㄹㄹㅣ -13290
ㅅㅣㄱㅇㅣㄴ -13291
▁ㅍㅏㄴㅇㅣㄴ -13292
▁ㅍㅗㄱㄴㅓㄼ -13293
▁ㅍㅗㄱㅇㅕㅁ -13294
ㅁㅜㄴㅋㅜㄹㄹㅜ -13295
ㅈㅜㄴㅇㅕㅇ -13296
ㄹㅡㅁㄱㅣㄹ -13297
▁ㅈㅡㄹㄱㅕㅆ -13298
▁CLG -13299
ㅇㅛㅇㅅㅜ -13300
▁ㄱㅜㄱㅁㅜㄴ -13301
zer -13302
▁ㅇㅑㅇㅅㅔ -13303
▁%~ -13304
▁UTC -13305
ㅋㅓㄱ -13306
ㅊㅣㄹㄹㅣ -13307
▁004 -13308
▁could -13309
▁ㄴㅓㄼㅎㅣ -13310
ㄸㅏㅇㅎㅣ -13311
▁ㅁㅕㅇㅅㅐㄱ -13312
▁ㅈㅓㄴㅁㅜㄴㅎㅏㄱㄱㅛ -13313
ㅍㅔㄴㅅㅓ -13314
LA -13315
▁sky -13316
▁ㅉㅣㅇ -13317
▁Enter -13318
▁MOVIE -13319
ㅇㅣㄴㅈㅓㄹ -13320
ㅅㅡㅇㅎㅢ -13321
▁ㄱㅗㅇㅍㅛ -13322
▁ㅎㅕㄴㄹㅏㄴ -13323
aze -13324
▁AJ -13325
▁BEST -13326
▁ㅋㅏㅁㅂㅗ -13327
ㅈㅜㅇㅅㅣㅁ -13328
la -13329
ollow -13330
▁Under -13331
▁ㅈㅡㅇㄷㅐ -13332
▁ㅂㅏㄴㅎㅏㄴ -13333
▁ㅈㅣㄹㅅㅐㄱ -13334
▁ㅇㅟㄱ -13335
▁ㅂㅓㅁㅍㅓ -13336
73 -13337
▁how -13338
▁ㅊㅗㄱㅎㅏㄴ -13339
▁ㅍㅡㄹㄹㅐㅇㅋㅡ -13340
93 -13341
amage -13342
▁ㄱㅣㄹㄷㅗㅇ -13343
▁⊸⊸ -13344
▁620 -13345
▁ㅁㅏㄴㅅㅜ -13346
▁ㄴㅏㄴㄱㅏㄴ -13347
▁ㅈㅏㅂㅎㅣㄹ -13348
▁ㄷㅔㄴㅇㅗ -13349
▁ㄱㅜㄱㅇㅏㄱ -13350
▁ㅎㅘㅇㄱㅓㄴ -13351
▁1923 -13352
▁ㅅㅣㄴㅇㅢ -13353
▁258 -13354
▁ㅅㅡㅂㅎㅏ -13355
▁ㅈㅓㅇㅎㅗ -13356
▁ㅈㅓㅇㅊㅏㄹㅂㅕㅇ -13357
ㅇㅣㄴㅎㅘ -13358
▁ㅂㅡㄹㄹㅐㄱㄹㅣ -13359
▁ㅂㅡㄹㄹㅐㅇㅋㅡ -13360
ㄹㅏㄱㄱㅏ -13361
ㄹㅏㅇㅈㅓㄴㅅㅓㄹ -13362
▁ㅁㅕㅇㅅㅜ -13363
▁ㅅㅗㄱㄱㅣ -13364
▁ㅎㅟㄹㅊㅔ -13365
amb -13366
ㄱㅏㄹㅇㅣ -13367
ㅇㅝㄴㄱㅜ -13368
▁ㅍㅏㄴㅈㅏ -13369
▁ㅎㅏㄴㅎㅏ -13370
ㅎㅡㅇㄱㅜㄴ -13371
▁ㅎㅡㄹㄹㅣㄴ -13372
▁ㅈㅗㄹㄹㅣ -13373
▁ㅇㅝㄴㅌㅏㄱ -13374
▁ㅇㅏㄴㅍㅏ -13375
▁KV -13376
▁ㄱㅘㄴㄹㅖ -13377
▁ㅂㅣㅅㄷㅐ -13378
▁ㅇㅑㅇㅈㅗ -13379
▁Ben -13380
▁JK -13381
▁than -13382
▁ㅎㅔㄱㅌㅓ -13383
▁ㅇㅕㅇㄷㅓㄱ -13384
▁ㅅㅐㅇㅁㅜㄹㅊㅔ -13385
ㅁㅜㅅㄱㅏ -13386
▁ㅊㅓㄴㅅㅜ -13387
▁OGN -13388
▁Old -13389
▁high -13390
ㄸㅜㄱㄸㅜㄱ -13391
▁Aqours -13392
uh -13393
▁ㅅㅓㄲㅇㅣ -13394
▁ㅊㅣㄴㅇㅘㅇ -13395
▁NASA -13396
▁ㅅㅕㄴㅌㅡ -13397
▁ㅇㅡㅁㅇㅕㄱ -13398
▁ㅎㅑㅇㄴㅕㄴ -13399
▁ㅎㅗㄴㅈㅏㅅㅁㅏㄹ -13400
ㅇㅣㅂㅈㅏ -13401
▁ㅇㅏㄴㅍㅏㄲ -13402
▁ㅌㅡㄱㄱㅏㅇ -13403
▁ㄴㅏㅌ -13404
▁ㅎㅔㄹㅅㅣㅇ -13405
▁ㅇㅏㅍㅈㅏㅇㅅㅓ -13406
UMI -13407
▁ㅇㅕㄱㅅㅔ -13408
ㅎㅕㄴㅅㅏㅇ -13409
▁read -13410
▁ㅈㅓㅇㅂㅗㄱㅈㅏ -13411
▁ㅅㅏㄴㅌㅣ -13412
▁ㅅㅓㄱㅍㅏㄴ -13413
ada -13414
▁710 -13415
▁ㅇㅐㄴㅅㅓ -13416
▁ㅇㅘㄹㅊㅡ -13417
▁ㅇㅕㄹㄱㅏㅇ -13418
ㅇㅣㄴㅅㅣ -13419
▁ㅊㅣㅁㅇㅣㅂㅈㅏ -13420
▁ㅇㅣㄹㅇㅣㄹㅎㅣ -13421
▁312 -13422
▁ㄷㅏㄴㅅㅣ -13423
▁ㅇㅡㅇㅁㅗ -13424
▁ㅈㅓㄴㄱㅡㄴ -13425
▁ㅈㅣㄴㅍㅜㅇㄱㅕㅇ -13426
▁335 -13427
▁ㅇㅓㅍㅇㅓ -13428
▁ㅇㅜㄴㄷㅏ -13429
ㅅㅣㄴㄹㅗㄴ -13430
obal -13431
▁ㅎㅕㅂㅈㅜ -13432
ㅅㅓㄴㅇㅘㅇ -13433
▁ㅈㅏㅇㅁㅏㄴ -13434
▁ㅊㅓㄴㄹㅛㅇ -13435
umber -13436
▁ㅈㅜㅇㅅㅜ -13437
▁ㅅㅓㄴㅅㅡㅇ -13438
▁ㅈㅓㅁㅇㅝㄴ -13439
▁ㅂㅐㅅㅅㅗㄱ -13440
▁ㄱㅘㅇㅁㅕㅇㅅㅣ -13441
▁ㅇㅐㅇㄱㅡ -13442
▁ㅈㅏㅇㄷㅗ -13443
▁ㅈㅓㄴㅎㅏㄱㅅㅐㅇ -13444
ㅅㅡㄹㄹㅏㄴ -13445
ㄱㅏㄹㅇㅓ -13446
ney -13447
▁AGE -13448
▁JAP -13449
▁ㅇㅕㅁㅈㅡㅇ -13450
▁ㅇㅝㄴㄱㅜㄴ -13451
▁Another -13452
ㅅㅅㅗㄱ -13453
▁ㄴㅗㄴㅇㅚ -13454
ㄷㅗㅇㅎㅕㄴ -13455
ㅅㅏㄴㅎㅘ -13456
▁ㄱㅝㄴㅌㅜ -13457
▁ㄱㅜㄱㅎㅏㄴ -13458
▁ㅈㅣㄹㄹㅓㅆ -13459
ㅁㅏㅇㄱㅏㄴㄷㅏ -13460
▁ㅇㅕㅇㅇㅓㅂㅅㅗ -13461
ories -13462
▁Leader -13463
▁ㄸㅜㅀㄹㅣㄴ -13464
▁ㅇㅏㄴㅇㅑㅇㅅㅣ -13465
▁ㄲㅣㅁ -13466
▁ㅊㅓㅇㄱㅖ -13467
▁ㅅㅓㅇㅍㅗㄱㄹㅕㄱ -13468
ular -13469
ㅇㅣㄴㅅㅠ -13470
▁EF -13471
▁ㅂㅕㄴㄷㅓㄱ -13472
▁ㅈㅐㅇㅈㅐㅇ -13473
▁1905 -13474
ㄱㅓㄴㅅㅗ -13475
▁ㅁㅜㄴㅎㅏㅇ -13476
▁ㅇㅓㄹㄸㅓㄹ -13477
ㅌㅐㄱㄱㅏ -13478
▁Ra -13479
▁WIN -13480
▁ㅇㅣㄹㅅㅐㄱ -13481
aki -13482
▁ㅅㅓㅇㅇㅏㄱ -13483
▁Plan -13484
ㄹㅏㄱㅅㅡ -13485
▁ㄱㅗㄹㅁㅜㄴ -13486
▁ㅂㅐㄱㅅㅏㅇ -13487
▁Look -13488
▁ㅂㅏㄱㅎㅕㅇ -13489
▁ㅇㅗㄴㅌㅗㅇ -13490
ㄹㅔㄹㄹㅣ -13491
▁ㅇㅐㅇㅁㅜ -13492
▁ㅂㅕㄴㅎㅏㅁㅇㅓㅄ -13493
▁ㄷㅓㅅㅂㅜㅌㅇㅕㅆ -13494
▁ㄷㅏㅂㄴㅣ -13495
▁ㅎㅏㅁㅇㅠ -13496
▁ㅇㅕㄴㅎㅐㅇ -13497
▁ㅇㅘㅇㄹㅣㅂ -13498
▁ㅌㅗㅇㄱㅗㄱ -13499
▁ㅎㅜㄴㄹㅕㄴㅂㅕㅇ -13500
ㅇㅓㅇㅇㅣ -13501
▁ㅁㅕㄴㅅㅔ -13502
ora -13503
▁ㅊㅐㄹ -13504
ㅂㅓㅂㅂㅜ -13505
▁ㅈㅓㅇㅅㅡㅇ -13506
ㅅㅐㅇㅇㅏ -13507
▁ㄱㅓㄴㄱㅘ -13508
▁ㅋㅏㄱㅌㅔ -13509
▁Lu -13510
▁ㅇㅕㅍㄱㅜ -13511
▁ㅈㅜㅇㅁㅜ -13512
ㅇㅏㄴㄱㅕㅇ -13513
▁RM -13514
▁ep -13515
ㅈㅏㅇㄴㅏ -13516
▁ㅅㅡㄹㅎㅏ -13517
▁ㅅㅡㅇㄹㅛㅇ -13518
reas -13519
▁401 -13520
▁ㅂㅓㄴㅂㅗㄱ -13521
▁ㅇㅕㄴㅈㅓㅇ -13522
▁ㅈㅓㅇㅇㅠㄴㅈㅗㅇ -13523
▁ㅇㅕㅇㅊㅏ -13524
▁ㅎㅕㄹㅈㅗㄱ -13525
▁1907 -13526
ㅍㅗㄱㄹㅕㄱ -13527
▁ㄱㅏㅇㅇㅏㅂ -13528
▁ㄷㅣㄷ -13529
▁CHA -13530
ㄱㅕㄹㅎㅏㅂ -13531
▁ㅎㅓㅁㄴㅏㄴ -13532
ㅈㅗㅇㅂㅕㅇㄱㅣ -13533
bow -13534
▁ㄴㅗㅍㅇㅕㅆ -13535
▁ㅇㅕㄴㅍㅣㄹ -13536
▁ㅇㅜㄹㄹㅡㅇ -13537
▁ㅎㅕㄴㄱㅘㄴ -13538
ㅈㅜㅂ -13539
▁Av -13540
▁ㄱㅣㅁㅁㅜ -13541
▁APK -13542
▁1921 -13543
▁ㄱㅣㅁㅎㅗㅇ -13544
▁ㅅㅗㄱㅅㅗㄱ -13545
▁ㅈㅜㅇㅈㅡㅇ -13546
elieve -13547
▁ㅅㅣㅁㄱㅣ -13548
ayer -13549
▁ㄱㅓㄹㄹㅣㅁㄷㅗㄹ -13550
▁die -13551
▁Work -13552
▁ㄷㅣㄹㄹㅓㄴ -13553
▁ㄱㅏㄴㄷㅏㅁㅎㅚ -13554
amu -13555
▁ㄱㅓㄹㄹㅔ -13556
▁Tur -13557
ㅂㅔㄱ -13558
▁ㅌㅗㅇㄴㅏ -13559
▁ㅇㅛㅇㅈㅓㅂ -13560
▁ㄱㅘㄴㅈㅜㅇㅅㅓㄱ -13561
▁ㄷㅔㅅ -13562
▁ㄴㅏㅁㅂㅏㅇ -13563
ㄴㅜㅁ -13564
▁Pat -13565
▁ㅅㅗㄱㅅㅜ -13566
ㅈㅓㄱㄱㅓ -13567
▁ㅂㅏㄹㅎㅘ -13568
▁ㅇㅡㄹㄹㅕ -13569
OME -13570
ㅁㅗㅅㅎㅐ -13571
▁ㅈㅓㄴㅇㅓㅂ -13572
▁ㄸㅡㅅㄷㅐ -13573
▁ㄷㅗㄱㅊㅏㅇ -13574
▁050 -13575
ㅎㅏㄴㅎㅣ -13576
ㅈㅏㄱㄱㅗㄱ -13577
▁ㅈㅏㄱㅅㅓㅇㅈㅏ -13578
ote -13579
▁ㄷㅓㅍㅊㅕ -13580
▁ㅈㅏㅇㄱㅓㅁ -13581
IZ -13582
▁ㅆㅐㅁ -13583
▁ㅃㅏㄹㄹㅏㅆ -13584
▁ㄱㅣㅁㅅㅏ -13585
▁ㅇㅣㅂㄱㅣㅁ -13586
▁ㅁㅔㅇㅅㅡ -13587
▁CU -13588
▁ㅈㅣㄴㅎㅏ -13589
▁ㄱㅣㅁㄱㅏㅂ -13590
▁Ka -13591
▁ㅎㅕㅇㅊㅔ -13592
ㅎㅘㄴㄱㅕㅇ -13593
▁ㅇㅝㄴㅈㅓㅁ -13594
▁ㄱㅗㅇㅂㅐㄱㄱㅣ -13595
▁ㅎㅕㄹㅈㅓㄴ -13596
▁MH -13597
REAK -13598
▁286 -13599
▁ㅁㅜㄴㄱㅓㄴ -13600
▁ㅈㅏㅇㄴㅏㄴㅊㅣ -13601
ㄷㅗㅇㅅㅏ -13602
▁ㅅㅣㄹㅍㅡ -13603
ㅆㅢ -13604
ros -13605
▁ㅈㅣㅈ -13606
▁ㅅㅜㄹㄹㅐ -13607
▁ㅂㅏㄹㅈㅏㄱ -13608
▁ㅂㅗㄴㅈㅓㄴ -13609
▁Pal -13610
▁ㄴㅡㅇㅎㅏㄴ -13611
▁ㅌㅏㄴㅅㅣㄱ -13612
▁ㅅㅡㅇㅎㅘ -13613
▁ㅂㅏㄴㅇㅝㄹ -13614
▁ㅇㅘㅇㄱㅝㄴ -13615
▁ㅍㅓㄴㅌㅡ -13616
▁ㅇㅏㄱㅊㅟ -13617
ㅇㅕㄴㅅㅓㅇ -13618
ㅎㅏㅂㅈㅜㅇㄱㅜㄱ -13619
ister -13620
▁ㅇㅣㄹㅅㅣㄴ -13621
▁ㅉㅣㄱㅎㅕㅆ -13622
▁Mic -13623
ㅇㅜㄹㅇㅕ -13624
▁ㅎㅣㅁㄲㅓㅅ -13625
▁ㅋㅓㅁㅍㅏ -13626
▁ㅎㅏㄴㄷㅐ -13627
▁ㅎㅏㅇㅅㅣ -13628
▁ㅇㅡㅁㅇㅏㄱㅈㅜㅇㅅㅣㅁ -13629
▁ㅂㅜㅌㄷㅡㄹ -13630
oog -13631
▁ㅂㅕㅇㅅㅣㄹ -13632
▁ㅅㅏㅇㄱㅡㅂㅈㅏ -13633
OTHER -13634
▁ㅃㅐㅆ -13635
▁ㅁㅏㄴㅇㅣㄴ -13636
▁ㅂㅗㅇㅅㅣㄴ -13637
▁003 -13638
▁See -13639
▁ㄴㅓㄼㅇㅣ -13640
ㄹㅏㄴㄷㅗ -13641
▁ㅈㅓㅇㅁㅣ -13642
▁ㅊㅓㅇㄹㅏ -13643
▁Double -13644
▁ㄱㅜㄱㅁㅣㄴㅎㅚ -13645
▁ㄱㅗㅇㅇㅑㅇ -13646
▁ㅈㅓㄱㄱㅜㄱ -13647
▁ㅉㅏㄹㅉㅏㄹㅇㅣ -13648
▁Beautiful -13649
▁som -13650
▁Arch -13651
▁Give -13652
▁ㅂㅏㄱㅈㅔ -13653
▁ㅅㅏㄴㅈㅓㄱ -13654
▁ㅁㅜㄴㅎㅢ -13655
▁ㅇㅛㅇㄱㅘㅇ -13656
▁University -13657
▁ㅅㅐㄱㄱㅏㅁ -13658
▁ㅇㅑㅇㄷㅓㄱ -13659
▁ㅆㅣㅇ -13660
▁ㅅㅓㅇㅅㅣㄴ -13661
▁357 -13662
▁SSS -13663
▁yul -13664
▁ㄱㅏㄺㅇㅏ -13665
▁ㅎㅘㅇㅇㅑ -13666
▁ㅅㅓㅁㄱㅘㅇㅌㅏㄴ -13667
▁Sub -13668
▁ㄱㅜㄴㅁㅏ -13669
▁ㅇㅕㅇㅇㅜㅇㅈㅓㄴ -13670
▁np -13671
onight -13672
▁ㅅㅓㅇㅅㅏㄴ -13673
▁ㅇㅕㅁㅇㅝㄴ -13674
▁ㅅㅔㅅㅅㅛ -13675
▁Pur -13676
▁ㄹㅗㄹㄹㅣ -13677
▁ㅅㅜㄴㅇㅣ -13678
▁ㅅㅡㅇㅅㅏㄴ -13679
▁385 -13680
ㄱㅐㅇㅇㅓ -13681
ㄱㅗㅇㅈㅏ -13682
ㅁㅔㄹㄹㅣ -13683
▁ㅃㅗㅂㅎㅕ -13684
ㅍㅡㄹㄱㅐㅇㅇㅓ -13685
ini -13686
▁ㅊㅏㄶ -13687
▁ㄱㅏㄱㅅㅓㅇㄱㅣ -13688
▁ㄱㅐㅁ -13689
ㄱㅕㅇㅈㅣ -13690
▁ㅂㅏㄴㅍㅗ -13691
▁ㅅㅓㄴㄷㅔ -13692
ㅎㅝㄴ -13693
▁ㅆㅘㅆ -13694
iness -13695
ㅌㅡㄹㅂㅓ -13696
▁ㅈㅜㄱㅊㅏㅇ -13697
▁ㅅㅜㄷㄱㅏ -13698
▁ㅍㅓㄴㄷㅡ -13699
▁ㅂㅏㄱㅇㅣㄴ -13700
42 -13701
▁ㅍㅕㄴㅎㅣ -13702
ㄲㅜㅇ -13703
ㅇㅑㄱㅅㅡ -13704
ㅎㅕㄴㅈㅜ -13705
▁ㅇㅕㅇㅍㅏㄴ -13706
▁ㅂㅔㄹㄹㅗ -13707
▁ㅎㅡㅇㅎㅏ -13708
▁Here -13709
▁ㅅㅣㄹㄱㅘ -13710
▁ㄷㅗㄱㅇㅡㅁ -13711
▁ㅇㅛㅇㄷㅗㄴ -13712
▁ㅈㅜㅇㄹㅏㅇ -13713
▁ㅌㅏㄹㅈㅣㄴ -13714
43 -13715
▁PTS -13716
▁ㅈㅣㄴㅅㅣ -13717
▁ㅅㅏㅇㅂㅗㅇ -13718
ㅌㅕㅆ -13719
ja -13720
▁MAR -13721
▁9999 -13722
ㅌㅐㅁㅍㅡ -13723
▁ㅇㅕㄴㅎㅏㅂㄴㅠ -13724
▁FFF -13725
▁ㅎㅏㅁㄱㅛ -13726
▁ㅎㅏㄱㄱㅘㄴ -13727
▁ㅎㅘㅇㅎㅐ -13728
▁ㅂㅓㄴㅂㅓㄴㅎㅣ -13729
▁ㅂㅏㄹㅊㅞ -13730
▁ㅇㅕㄹㄷㅐ -13731
▁ㅋㅣㄹㄹㅣ -13732
▁ㅅㅗㅇㄱㅘㅇ -13733
ㄹㅓㅇㄱㅓ -13734
▁ㅍㅔㄴㄹㅣ -13735
ㅇㅝㄴㄱㅜㄱ -13736
▁ㅈㅏㅁㄱㅣㄴ -13737
ror -13738
▁ㅂㅗㄴㅈㅡ -13739
▁Ref -13740
▁True -13741
▁ㄸㅓㄱㅊㅣㄹ -13742
▁ㅂㅏㅂㄱㅏㅄ -13743
▁ㄱㅏㅇㅂㅐㄱㅎㅗ -13744
▁Oper -13745
▁ㄷㅏㅇㄱㅜ -13746
ㅅㅏㄴㅅㅓㅇ -13747
ㅅㅓㄱㅎㅢ -13748
▁ㄹㅗㅂㅅㅡ -13749
▁ㅇㅏㅇㅌㅜ -13750
▁ㅍㅐㄴㅅㅓ -13751
ㅁㅏㄴㅂㅕㄹ -13752
▁ㄱㅕㅁㅅㅗㄴ -13753
▁ㄷㅏㄹㄷㅏㄹ -13754
▁ㅁㅓㅁㅊㅜㄴㄷㅏ -13755
▁ㄷㅗㅇㅇㅑㅇㅇㅣㄴ -13756
▁OFF -13757
▁ㅇㅝㄴㄹㅛ -13758
▁ㅈㅗㅇㅇㅓㅂㅇㅝㄴ -13759
ㄱㅡㄴㅊㅏ -13760
▁ㄱㅜㄴㅈㅏ -13761
▁ㅎㅔㄱㅌㅗ -13762
▁ㅂㅏㄹㄱㅜㄴ -13763
▁MSI -13764
▁its -13765
▁name -13766
ㅂㅗㄴㅂㅜ -13767
▁ㅂㅕㅇㅇㅏ -13768
▁ㅅㅔㄴㅌㅗ -13769
▁ㅈㅓㄴㄱㅜ -13770
ellow -13771
▁ㄹㅣㅇㄱㅗ -13772
ㄷㅗㅇㅅㅣㄱ -13773
▁ㅇㅣㄹㄹㅠ -13774
ㄱㅗㄱㅇㅕㄱ -13775
▁ㄱㅣㅁㅂㅏㅂ -13776
▁bbq -13777
▁ㅂㅜㄹㅇㅢ -13778
▁ㅅㅐㄱㅅㅗ -13779
▁ㅂㅓㄴㅅㅓㅇ -13780
▁ㅎㅘㄴㅅㅡㅇㅇㅕㄱ -13781
▁307 -13782
▁670 -13783
▁MSM -13784
▁Mov -13785
ㄴㅏㅁㄷㅗㅇ -13786
▁ㄱㅣㅁㅁㅣㄴㅊㅓㄹ -13787
▁under -13788
▁ㅇㅜㄴㅎㅏ -13789
ㅇㅕㄴㅇㅢ -13790
any -13791
▁ㅊㅣㅁㅅㅜ -13792
ㅈㅜㄹㄱㅣ -13793
▁JAPAN -13794
▁ㄲㅓㄲㅇㅣ -13795
▁ㅋㅡㄹㄹㅣㄴㅌㅓㄴ -13796
ㅋㅜㅇ -13797
ㅇㅠㄱㅎㅏㄱ -13798
▁Burn -13799
▁ㅁㅏㅇㅊㅕ -13800
▁ㅅㅐㄱㄷㅏ -13801
▁ㅅㅓㄴㄴㅕ -13802
▁ㅇㅐㄱㅌㅓ -13803
▁ㅇㅕㅇㅇㅕㅇ -13804
ㅇㅣㄴㅈㅓㄹㅅㅡ -13805
▁ㅇㅜㅁㅈㅣㄱㅇㅕㅆ -13806
▁ㅇㅠㄴㅅㅏㅇ -13807
▁ㄱㅗㅇㅇㅛㅇㅇㅓ -13808
▁-.- -13809
▁HERO -13810
ㅂㅡㄴㅅㅡ -13811
▁gonna -13812
▁ㄱㅕㅇㄷㅗ -13813
▁ㅁㅏㅇㄴㅏ -13814
▁ㅎㅕㄴㅇㅏㄱ -13815
KE -13816
▁ㅂㅐㄱㅇㅏㄱㄱㅘㄴ -13817
ㅍㅏㄴㅂㅜ -13818
▁ㄱㅐㄹㄹㅣ -13819
ㄱㅡㅂㅈㅏㅇ -13820
ㄱㅕㅇㅊㅏㄹ -13821
ㅂㅏㅇㅇㅟ -13822
▁ㅂㅏㄺㄱㅣ -13823
▁ㅈㅗㅇㅅㅣㄱ -13824
ANT -13825
▁ㄷㅗㄱㅅㅡ -13826
▁ㅈㅣㅇㅅㅜ -13827
▁TECHNIKA -13828
▁ㅋㅗㄹㄹㅔㄱㅅㅕㄴ -13829
ㅇㅏㅅㄱㅕ -13830
▁ㄷㅗㅇㅊㅏ -13831
▁ㅅㅓㄴㄷㅏ -13832
▁ㅌㅏㄴㅈㅏ -13833
▁ㄴㅡㅇㅌㅗㅇ -13834
▁ㅂㅏㄱㅎㅢ -13835
▁YES -13836
▁ind -13837
▁ㅅㅏㅁㄱㅏ -13838
▁ㅈㅜㄹㄹㅐ -13839
ㅂㅜㅌㅇㅕㅆ -13840
Boy -13841
▁ㄴㅗㄴㄷㅏ -13842
ㅅㅓㅇㅎㅗ -13843
▁ㅈㅜㄹㄲㅏ -13844
▁ㅈㅏㄱㅍㅜㅁㅅㅏㅇ -13845
▁ㅇㅘㅇㄷㅗ -13846
RC -13847
▁Ve -13848
▁ㄱㅗㅇㅅㅐㅇ -13849
▁ㅁㅓㅁㅊㅝㅆ -13850
▁ㅎㅘㄴㄱㅘㄴ -13851
▁VT -13852
▁ㅈㅏㅂㅇㅡㅁ -13853
▁2600 -13854
▁Hal -13855
▁ㅅㅡㅂㅈㅣ -13856
▁Make -13857
ㅇㅗㄹㄹㅔ -13858
▁ㅂㅜㄹㄱㅗ -13859
▁ㅈㅗㅇㅇㅓㄴ -13860
▁Bon -13861
▁ㅎㅏㄾ -13862
▁Mind -13863
▁ㅇㅕㅇㅇㅐ -13864
▁ㅂㅏㅇㄹㅏㅇㅈㅏ -13865
▁icon -13866
▁ㄱㅡㄹㅆㅔ -13867
▁ㅂㅕㅇㅈㅏ -13868
▁ㅈㅏㅇㅌㅓ -13869
▁ㅌㅓㄹㄹㅣㄴ -13870
▁ㅍㅣㄹㅁㅕㅇ -13871
andy -13872
ㄴㅣㅇㄱㅜ -13873
▁ㅅㅗㅇㄴㅏ -13874
uit -13875
ipedia -13876
ㅅㅣㄱㅁㅜㄹ -13877
▁ㅎㅏㄴㄷㅏㅂㅅㅣ -13878
▁525 -13879
▁ㅂㅣㄹㄹㅣㄴ -13880
▁ㅊㅐㄱㅇㅣㅁㄱㅏㅁ -13881
▁DREAM -13882
▁ㄱㅡㄴㄱㅛ -13883
▁ㅋㅔㄴㅌㅡ -13884
▁ml -13885
▁ㄲㅑ -13886
olding -13887
▁ㅎㅏㄴㄷㅏㄴ -13888
ris -13889
▁Hor -13890
ㅌㅓㄱㄷㅐ -13891
▁ㅈㅜㅇㅌㅚ -13892
▁ㄷㅗㅇㅈㅣㄴ -13893
▁BY -13894
▁ㅁㅜㄹㄱㅣ -13895
▁ㅇㅝㄴㅁㅏㄴ -13896
▁ㅂㅕㅇㅂㅓㅂ -13897
▁miss -13898
▁ㄱㅝㄴㅅㅓㄴ -13899
▁ㅇㅜㄴㄷㅗㅇㅎㅚ -13900
ㅇㅘㄱ -13901
▁OUT -13902
▁Head -13903
▁ㅁㅜㄴㅅㅓㄴ -13904
▁ㅅㅗㄴㅅㅡㅇ -13905
▁ㅅㅣㄴㅁㅜㄴㅅㅏ -13906
ots -13907
▁009 -13908
ㅈㅓㅇㄱㅣ -13909
▁ㅂㅏㅇㄱㅟ -13910
▁Silver -13911
▁ㄱㅓㄴㄷㅡㄹ -13912
▁ㅈㅗㅇㅇㅛㅇ -13913
▁Shin -13914
ㅎㅏㄹㅅㅣ -13915
▁ㄱㅏㅇㄱㅏ -13916
▁ㅁㅜㄴㄷㅗ -13917
▁ㅎㅏㄴㅈㅣㄴ -13918
▁ㄹㅜㅅ -13919
▁ㄴㅓㄹㄹㅕ -13920
▁ㅁㅕㄴㅎㅚ -13921
▁ㄱㅏㄴㅎㅐㅇ -13922
ives -13923
▁ㅂㅜㄱㅇㅟ -13924
FE -13925
▁ㄱㅕㄹㅂㅏㅇ -13926
▁ㅇㅡㅁㄱㅏㄱ -13927
▁ㄷㅡㅇㅉㅏㄱ -13928
▁ㅁㅕㄴㅎㅐㅆ -13929
▁ㅈㅜㄹㅇㅕㅆ -13930
ㅁㅏㅈㅊㅜㅁ -13931
▁VO -13932
ㅂㅔㄹㄹㅏ -13933
▁ㄷㅗㄱㅊㅣㅁ -13934
▁ㅅㅣㄹㄹㅕㅆ -13935
▁ㅅㅜㄴㅎㅚ -13936
ㅊㅜㄹㅅㅗ -13937
▁Roll -13938
▁ㅅㅜㄴㅊㅓㄴㅅㅣ -13939
ㅅㅡㅇㄷㅏㄹ -13940
▁ㅅㅣㅁㅅㅏㅇㅈㅓㅇ -13941
ㅅㅣㄱㄱㅏ -13942
▁ㅂㅐㄱㅇㅑ -13943
▁ㄱㅓㄴㅂㅏㄴ -13944
▁ㅇㅣㄴㅇㅑㅇ -13945
ㄴㅗㄱ -13946
▁ㄱㅕㅇㄹㅖ -13947
▁ㅅㅣㄴㅂㅗ -13948
▁ㅌㅏㄹㅇㅢ -13949
YO -13950
▁ㄴㅏㅆㅇㅡ -13951
▁ㅍㅕㅇㅇㅑ -13952
▁ㅍㅕㄴㅂㅓㅂ -13953
▁Cost -13954
ㅇㅑㅇㄱㅜ -13955
▁ㄱㅏㅆㄷㅏ -13956
usion -13957
ㄷㅣㅈㅊㅣ -13958
▁ㅈㅓㅇㅇㅕㄹ -13959
▁ㅂㅐㄱㅈㅗ -13960
▁ㄱㅜㄹㄱㅗㄱ -13961
▁ㄱㅗㅇㅇㅓㄴ -13962
▁ㅈㅏㅈㅇㅏ -13963
▁ㅊㅓㄴㅎㅗ -13964
ㅈㅣㄴㅈㅏㅇ -13965
era -13966
▁Imp -13967
▁ㄷㅡㄹㄹㅣㄹ -13968
63 -13969
▁Doc -13970
▁ㅌㅏㄹㅍㅣ -13971
▁ㅂㅏㄹㄹㅣㄴ -13972
▁ㅅㅗㅇㅇㅡㄴㅂㅓㅁ -13973
▁ㅈㅗㅇㅊㅏㄱㅇㅕㄱ -13974
▁970 -13975
ㅍㅏㄴㅈㅣ -13976
ㅇㅔㄴㄷㅡ -13977
▁ㅁㅜㄴㅊㅔ -13978
▁ㅂㅗㄹㄱㅓ -13979
ㄷㅗㅇㅈㅜㄴ -13980
vice -13981
▁Episode -13982
▁ㄱㅕㅇㅊㅏㄹㅊㅏ -13983
▁ㅂㅜㅌㅈㅏㅂㅎㅣ -13984
ㅌㅓㅇ -13985
▁ㄷㅏㄱㅊㅕ -13986
▁ㅊㅣㄴㅈㅗㄱ -13987
itter -13988
ㄹㅐㄴㄷㅓ -13989
ㅉㅐㅆㄱㅓ -13990
ㅇㅠㅇㅎㅏㅂ -13991
▁Second -13992
▁ㅍㅣㅅㅂㅣㅊ -13993
▁ㅎㅜㄴㄷㅗㄱ -13994
▁ㅁㅣㄴㄷㅏ -13995
▁ㅇㅓㅁㅊㅣㄴ -13996
▁ㅇㅏㄴㅈㅔㄹㄹㅏ -13997
▁ㅎㅐㄱㅇㅠㅇㅎㅏㅂ -13998
▁ㅅㅣㄴㅂㅜㄴㅈㅡㅇ -13999
ㄱㅐㅇㅇㅣ -14000
▁ㅁㅏㅈㅅㅓㄴ -14001
▁ㄱㅐㄱㅊㅏ -14002
▁ㅉㅏㄹㄹㅣ -14003
▁ㅅㅓㅇㅇㅛㄱ -14004
▁ㅎㅣㅁㄱㅕㅂ -14005
▁PART -14006
▁ㅈㅏㄴㄴㅡ -14007
▁ㄱㅐㅇㅅㅐㅇ -14008
▁ㄱㅣㅁㅁㅣㄴㅅㅓㅇ -14009
▁1913 -14010
▁Speed -14011
▁ㅇㅛㅇㅁㅜㄴ -14012
▁ㅎㅕㅂㅇㅓㅂ -14013
ㄹㅐㄱㅌㅓ -14014
▁ㅌㅓㄹㄹㅕ -14015
▁ㄷㅟㅅㅁㅗㄱ -14016
▁ㅅㅡㄹㄹㅣㅇ -14017
ㅎㅏㄹㅁㅓ -14018
▁ㄱㅏㅁㅊㅜㄱ -14019
ㅎㅓㄹ -14020
▁870 -14021
▁ㅌㅗㅇㅈㅣ -14022
ㅇㅕㅇㅁㅣㄴ -14023
▁ㄱㅓㅁㅁㅜㄴ -14024
▁ㄷㅗㄹㅊㅜㄹ -14025
ㅅㅔㄹㄹㅓ -14026
▁ㅁㅏㄹㄷㅏ -14027
ㅎㅕㄴㅈㅓㅇ -14028
▁ㅂㅏㅇㄷㅗㄱ -14029
▁ㅍㅗㄱㅈㅏㅇ -14030
▁RW -14031
▁ㅊㅏㄱㅇㅗ -14032
▁ㅇㅏㄹㄹㅏㅁ -14033
▁ㅈㅜㅇㄷㅗㄱㅈㅏ -14034
▁ㅁㅓㄱㅇㅣㅅㄱㅏㅁ -14035
ㅅㅣㄹㅅㅣㄴ -14036
▁940 -14037
▁att -14038
▁ㅁㅏㄴㄷㅏ -14039
▁ㅇㅓㅇㅌㅓ -14040
▁ㄷㅡㄹㅇㅕㅆ -14041
▁ㅈㅏㅂㅈㅗㄹ -14042
▁ㄱㅗㅇㄱㅕㄱㅈㅏ -14043
▁ㄸㅓㄱㅅㅣㄹㅅㅣㄴ -14044
▁el -14045
▁ㅅㅏㅇㅅㅗ -14046
▁ㅈㅓㄴㅊㅓ -14047
ㅇㅜㄹㄹㅣㄹ -14048
▁Sea -14049
▁ㅋㅚㄹ -14050
▁ㄱㅡㄴㅎㅕㄴ -14051
▁730 -14052
ㄷㅔㅇㅇㅣ -14053
▁ㅊㅐㄱㅂㅗㅇ -14054
ava -14055
ken -14056
▁263 -14057
▁ㄷㅗㅇㅅㅜ -14058
▁402 -14059
▁TUN -14060
ㅅㅓㄴㅇㅕㅇ -14061
▁ㅈㅓㅂㅊㅏㄱ -14062
ㅌㅓㄴㅈㅡ -14063
ㄴㅔㄴㅌㅏㄹ -14064
▁ㅇㅕㄱㄷㅗㅇ -14065
▁sy -14066
97 -14067
▁707 -14068
▁ㄱㅕㄹㅈㅣㅂ -14069
▁ㅅㅓㅇㅎㅐㅇ -14070
USH -14071
▁ㅋㅕㅆ -14072
▁ㅂㅗㄴㅇㅕㄴ -14073
▁ㅈㅓㄴㅂㅏㄴㅂㅜ -14074
▁ㅁㅕㅇㅎㅏㅁ -14075
▁ㅁㅗㅇㄷㅜㅇㅇㅣ -14076
▁HC -14077
▁did -14078
ㅂㅣㄹㄹㅗㄴ -14079
▁ㄴㅗㄴㅅㅏㄴ -14080
ㄹㅓㅇㅋㅡ -14081
ㄲㅜㄹㅁㅓㅇ -14082
▁ㅈㅡㄱㅂㅏㄹ -14083
▁015 -14084
▁283 -14085
▁STAND -14086
▁ㅁㅏㄱㅅㅏ -14087
▁ㅁㅜㄱㅇㅣㄴ -14088
▁ㅇㅑㅇㄱㅜㅇ -14089
▁ㅎㅘㅇㄱㅡㅁㅅㅐㄱ -14090
▁1916 -14091
ㅇㅡㄴㅅㅓㅇ -14092
▁268 -14093
▁ㅂㅏㄷㄷㅡㄹ -14094
ific -14095
ㅅㅏㄹㅈㅏ -14096
▁ㅇㅛㅇㄷㅜ -14097
▁Cloud -14098
▁ㄷㅓㄹㄷㅓㄹ -14099
ㅎㅗㅁ -14100
ㄱㅕㄱㅈㅏ -14101
▁ㅇㅕㄲㅇㅕ -14102
▁ㅂㅜㄴㅌㅏㅇ -14103
▁ㅁㅕㅇㄷㅗㅇ -14104
▁ㅍㅗㄱㅇㅑㄱ -14105
▁XM -14106
▁Fin -14107
▁ㄴㅕㅇ -14108
▁1915 -14109
ㅇㅑㅇㅇㅣㄴ -14110
▁ㄱㅕㅇㅁㅏ -14111
▁ㄱㅣㄹㅉㅜㄱ -14112
▁ㄱㅝㄴㅎㅏㄴㄷㅏ -14113
ese -14114
ㄱㅏㅇㅎㅏ -14115
▁ㄱㅡㅂㅅㅏ -14116
▁ㅂㅏㅇㅌㅗㅇ -14117
▁ㅇㅕㄴㅅㅏㄴㄱㅜㄴ -14118
▁LoL -14119
▁der -14120
▁ㅌㅐㅅㅇㅡㄹ -14121
▁4500 -14122
▁ㅌㅏㅁㅌㅏㄱ -14123
▁ㅈㅓㄴㅅㅓ -14124
ㅎㅘㄱㅇㅣㄴ -14125
ㅇㅗㄹㄹㅣㄴㄷㅏ -14126
hel -14127
▁ㅈㅓㄱㅇㅚ -14128
▁ㅁㅐㅇㄱㅗㅇ -14129
▁ㅂㅏㅇㅈㅣㄴ -14130
▁~!! -14131
▁ㅌㅗㅅ -14132
▁ㅂㅡㄹㄹㅏㄱ -14133
▁ㅍㅣㄹㅈㅜㅇ -14134
▁ㅇㅣㅁㅈㅗㅇ -14135
▁ㄴㅏㄱㄷㅗㅇㄱㅏㅇ -14136
▁International -14137
▁Cross -14138
▁ㄷㅏㅇㅈㅣㄱ -14139
▁ㅂㅓㄹㅈㅓㅁ -14140
▁ㅁㅜㄴㅁㅜ -14141
▁ㅇㅕㄱㅅㅜ -14142
▁ㅊㅓㄹㅇㅣㄴ -14143
ㅊㅗㄴㄷㅗㅇ -14144
▁ㄱㅡㅂㄱㅏㅇㅎㅏ -14145
▁ㅎㅟㅂㅆㅡㄹㄹㅕ -14146
▁ㅂㅕㄱㅎㅘ -14147
ㅂㅕㅇㅇㅝㄴ -14148
▁ㅅㅓㄹㅁㅕㅇㅅㅓ -14149
91 -14150
▁ㄱㅡㅂㅈㅗ -14151
▁ㄴㅗㄹㄹㅐ -14152
▁ㅇㅕㄹㄷㅗ -14153
▁ㅈㅏㅅㄷㅐ -14154
go -14155
form -14156
▁261 -14157
▁Sign -14158
ㅁㅕㅇㄱㅣ -14159
▁257 -14160
▁ㅇㅗㅅㅊㅏ -14161
▁ㄱㅏㄹㄹㅣㄹ -14162
▁ㅎㅐㅅㅅㅏㄹ -14163
▁920 -14164
▁Mid -14165
▁ㄷㅏㄴㄱㅜㄴ -14166
▁ㄷㅗㅇㄱㅟ -14167
▁ㅂㅏㄹㄱㅓㄹㅇㅡㅁ -14168
▁ㅊㅞ -14169
▁Earth -14170
ㅎㅘㄹㅅㅓㅇ -14171
▁ㅇㅝㄴㅌㅗㅇ -14172
▁ㅈㅓㅇㅊㅏㄴ -14173
▁ㅋㅓㄹㄹㅓㅁ -14174
▁ㄱㅏㅇㄱㅜ -14175
▁ㅇㅕㅇㅊㅓㄴ -14176
ㅈㅓㄱㅇㅡ -14177
▁276 -14178
▁ㅊㅓㅇㅂㅜ -14179
▁ㅈㅏㅇㅎㅕㄴ -14180
▁ㅈㅐㅇㅊㅟ -14181
▁ㅁㅕㄴㅎㅏ -14182
▁ㅈㅓㄴㅇㅐㄱ -14183
▁ㄱㅓㄴㅊㅜㄱㄱㅏ -14184
AMP -14185
ㅅㅑㅇ -14186
▁Rep -14187
▁ㄴㅏㄴㅈㅗ -14188
eck -14189
ojo -14190
▁XG -14191
▁GSM -14192
▁ㅊㅣㄴㅎㅐㅆ -14193
▁ㅈㅓㅇㅈㅜㄴㅇㅕㅇ -14194
▁273 -14195
▁ㅂㅐㄱㅅㅓㄱ -14196
▁346 -14197
ㄹㅏㅁㅎㅚ -14198
▁ㄴㅣㅅㅍㅗㄴ -14199
▁ㅊㅓㄱㅌㅏㄴ -14200
ㅍㅏㅁ -14201
▁ㅈㅡㅅ -14202
ㅈㅣㄴㅂㅗ -14203
▁bottom -14204
▁ㄱㅣㅁㄷㅗㅇㅈㅜㄴ -14205
▁-' -14206
▁338 -14207
▁Tok -14208
▁ㅅㅣㅁㅎㅏㄹ -14209
▁ㅂㅜㄱㅅㅡ -14210
▁work -14211
ㅅㅏㅇㄱㅣ -14212
▁ㄷㅔㄱㅅㅡ -14213
▁ㅁㅜㄹㄱㅓ -14214
▁ㅁㅣㄷㄱㅣ -14215
▁ㅍㅣㄱㅅㅡ -14216
▁ㅇㅣㄴㅊㅓㄱ -14217
▁Electrical -14218
▁ㅅㅔㄱㅅㅕㄴ -14219
▁ㅊㅓㄱㄷㅗ -14220
▁JO -14221
▁277 -14222
▁END -14223
▁ㅇㅏㅍㅂㅏ -14224
▁ㅅㅣㄴㅊㅏㅁ -14225
▁ㅊㅓㄴㅈㅓㅇ -14226
▁ㅁㅓㅇㅊㅓㅇㅇㅣ -14227
▁ㅂㅜㄹㄲㅗㅊㄴㅗㄹㅇㅣ -14228
CO -14229
ㅂㅜㄹㅅㅏ -14230
ㄱㅕㅇㅎㅘㄴ -14231
of -14232
▁Water -14233
▁ㅅㅓㅇㅈㅗ -14234
▁ㅅㅜㅁㄱㅕㅆ -14235
▁ㅁㅜㄱㅁㅜㄱㅎㅣ -14236
▁ㅊㅝ -14237
▁COL -14238
▁ㄹㅕㅇㅇㅜ -14239
▁Dav -14240
▁ㄱㅏㅈㄱㅏ -14241
ㄱㅏㅁㄷㅗㄱ -14242
▁ㄷㅗㄱㅅㅣㄹ -14243
▁ㅂㅕㄴㅂㅏㅇ -14244
ㅊㅓㄴㄴㅕㄴㅁㅣㄴㅈㅜ -14245
ㄴㅡㅇㅅㅏ -14246
▁ㅌㅡㄱㅊㅜㄹㄴㅏㄴ -14247
▁ㄱㅡㅁㅈㅜ -14248
▁ㅅㅓㅇㅈㅘ -14249
▁VOL -14250
▁Thank -14251
▁black -14252
▁ㅅㅗㄴㅈㅐ -14253
▁ㄷㅡㅇㅅㅣㄴ -14254
ㅂㅏㄹㄹㅗㄴ -14255
▁ㄱㅜㄴㄹㅑㅇ -14256
▁ㄸㅏㅇㅋㅗㅇ -14257
BT -14258
ima -14259
▁XIII -14260
ㄱㅡㅂㅊㅏ -14261
▁ㅇㅠㄴㅅㅓ -14262
▁ㅎㅐㄱㅈㅓㄴㅈㅐㅇ -14263
HO -14264
ating -14265
▁ㄹㅔㄴㅈㅣ -14266
▁ㅁㅏㄴㅌㅏ -14267
▁ㅇㅑㅇㅊㅣ -14268
▁930 -14269
imate -14270
▁Pres -14271
▁ㅇㅣㅇㅇㅓ -14272
▁Rel -14273
▁pack -14274
ㅍㅣㄴㅅㅡ -14275
▁ㅍㅣㄹㄹㅗ -14276
▁ㅂㅏㄱㅊㅓㄹ -14277
▁ㅇㅕㄹㅇㅕㄴ -14278
▁big -14279
ㄱㅏㄴㅈㅣ -14280
▁ㄱㅕㄹㅅㅏㄴ -14281
▁ㅇㅕㅇㅅㅣㄱ -14282
BLE -14283
▁590 -14284
▁ㄷㅡㄹㄹㅣㄴ -14285
▁ㅎㅏㄴㄱㅜㄱㅈㅓㄴㄹㅕㄱ -14286
GHT -14287
▁ㅂㅏㅂㅅㅏㅇ -14288
arn -14289
▁ㄸㅏㄴㅈㅣ -14290
▁ㄹㅔㄹㄹㅣ -14291
ㅁㅕㄴㅊㅔ -14292
ㅎㅡㅇㅅㅣ -14293
▁ㄱㅡㅁㅅㅏ -14294
▁ㅂㅏㄹㅌㅓ -14295
▁ㅊㅏㅁㅎㅗㄱ -14296
▁ㅋㅚㄹㄹㅡㄴ -14297
▁ㅍㅜㄹㄹㅣㄹ -14298
rip -14299
▁RNG -14300
▁ㄱㅏㅁㅊㅏ -14301
▁ㅍㅏㄹㄹㅗ -14302
ㅍㅏㄴㄱㅘㄴ -14303
ㅎㅐㅁ -14304
▁ㅅㅜㅌ -14305
▁Extra -14306
▁ㄱㅐㄱㅅㅣㄹ -14307
▁ㅍㅣㄹㄹㅣㅂㅅㅡ -14308
▁ㅂㅜㄹㅅㅡ -14309
ㄱㅘㄴㅅㅣㄱ -14310
▁wikipedia -14311
▁ㄷㅗㄱㅇㅣㄹㅇㅣㄴ -14312
oman -14313
▁ㅁㅣㄹㄹㅣㄹ -14314
▁DIS -14315
▁ㅊㅏㅂ -14316
41 -14317
▁TK -14318
▁ㄴㅡㅈㅊㅝ -14319
▁ㅇㅞㄹㅅㅡ -14320
▁ㅁㅏㄴㅊㅏㄴ -14321
▁ㅇㅓㄹㄸㅓㄹㄱㅕㄹ -14322
▁PTSD -14323
ㅌㅏㄴㅂㅜㄹ -14324
▁ㅂㅏㄹㄹㅗ -14325
▁ㅈㅓㅂㅎㅐ -14326
▁ㅋㅗㄴㅌㅡ -14327
▁CI -14328
ㄹㅜㅇ -14329
▁ㅎㅏㅂㅅㅣ -14330
▁ㅂㅓㄴㅇㅏㄴ -14331
▁ㅈㅓㅇㅂㅕㄴ -14332
▁ㅈㅜㄴㅁㅏㄹ -14333
▁ㅍㅡㄹㄹㅣㅅ -14334
▁ㅅㅓㅇㄱㅛ -14335
ㅅㅡㄹㄹㅏㅁㄱㅛ -14336
▁\[ -14337
▁Qual -14338
▁Wel -14339
▁ㄴㅏㅁㅇㅝㄴ -14340
▁ㅁㅣㄹㅊㅏㄱ -14341
47 -14342
IVER -14343
▁Two -14344
ㅂㅓㅁㅎㅗ -14345
▁ㅅㅣㄴㅁㅏ -14346
▁ㅉㅏㄹㄹㅕㅆ -14347
ought -14348
ㅇㅣㄹㅊㅔ -14349
▁ㅁㅐㄱㅇㅏ -14350
▁ㅂㅐㄱㅇㅜㅇ -14351
▁ㅌㅡㅁㅌㅡㅁ -14352
▁ㅎㅏㄴㅇㅑㅇㄷㅐ -14353
▁Id -14354
ㅍㅡㄹㄹㅣㄴ -14355
▁ㅇㅕㄴㅁㅕㅇ -14356
WC -14357
▁VOD -14358
▁nhn -14359
▁ㅎㅓㄱ -14360
▁ㅈㅓㄴㅁㅜㄴㅈㅓㅁ -14361
▁#== -14362
ㄱㅡㅂㅅㅜ -14363
ㄹㅗㅂㅎㅕㅆ -14364
▁ㅅㅣㄱㄱㅏㅁ -14365
▁ㅇㅔㄹㅌㅡㄴ -14366
▁ㅊㅣㅅ -14367
▁30000 -14368
▁Chall -14369
▁ㄷㅗㄱㄱㅏ -14370
▁ㅇㅡㅇㅅㅜ -14371
▁bu -14372
▁ㅅㅣㅁㅈㅐ -14373
▁ㄱㅏㅇㅎㅏㄹ -14374
IUM -14375
ㅁㅏㄴㅅㅜ -14376
▁Guard -14377
▁2800 -14378
▁give -14379
ㅇㅣㄴㅇㅕㄱ -14380
▁ㅇㅏㄹㄹㅗㄴ -14381
▁ㅈㅓㄴㅇㅏㅂ -14382
▁1908 -14383
▁HAPP -14384
ㅇㅣㄹㅊㅣ -14385
ㄷㅗㅇㅈㅣㄴ -14386
▁ㄷㅏㅇㅅㅓㄴㅈㅏ -14387
▁ㅇㅚㄴㅅㅗㄴㅈㅏㅂㅇㅣ -14388
▁ㅋㅐㅇ -14389
▁415 -14390
▁ㄱㅝㄹ -14391
▁1909 -14392
ㅁㅔㄹㄹㅗ -14393
▁ㄷㅡㅇㅂㅜㄹ -14394
▁ㅎㅏㄱㅁㅕㅇ -14395
▁PRE -14396
▁ㅎㅠㅇㄴㅗ -14397
▁ㅈㅣㄹㅅㅣㄱ -14398
▁ㅊㅜㄹㅎㅏㅇ -14399
▁ㅊㅜㄴㅊㅓㄴㅅㅣ -14400
▁ㄷㅗㄱㄱㅣ -14401
▁ㅂㅕㄹㄱㅘㄴ -14402
▁ㄱㅏㅇㅈㅓㅇㅎㅗ -14403
▁Maj -14404
▁Vita -14405
▁ㅅㅏㄴㄷㅗㅇ -14406
▁Original -14407
▁ㅇㅕㅇㄹㅏㄱㅇㅓㅄ -14408
▁ㄱㅡㅁㄱㅚ -14409
axy -14410
ㅅㅏㅇㅇㅓ -14411
▁Prot -14412
▁ㅁㅏㄹㅆㅏ -14413
▁ㅈㅣㄱㅈㅏㅇㅇㅣㄴ -14414
▁Ki -14415
▁ㅎㅏㅂㅅㅔ -14416
▁ㅂㅗㅇㄱㅓㄴ -14417
come -14418
▁ㄱㅏㄴㄱㅕㄹ -14419
▁ㅁㅜㄲㅇㅡㅁ -14420
▁ㅎㅏㄴㄲㅓㅅ -14421
▁Ban -14422
▁518 -14423
▁ㅅㅡㅂㅅㅓㅇ -14424
▁through -14425
▁910 -14426
▁ㄱㅓㄴㅈㅕ -14427
▁ㅇㅕㄴㅇㅑㄱ -14428
▁ㅎㅡㄹㄹㅓㅆ -14429
▁KK -14430
▁ㅆㅜㅇ -14431
▁ㅂㅐㄱㄷㅗ -14432
▁ㅈㅓㅂㄷㅐ -14433
▁ㅈㅓㅇㄱㅗㅇ -14434
ㅅㅏㅇㅈㅓㄴ -14435
ㅈㅡㅂ -14436
▁ㄷㅏㄹㅁㅏ -14437
▁ㅈㅓㄹㄹㅗ -14438
▁ㄲㅏㄹㅂㅗ -14439
▁ㅅㅣㄴㅇㅗ -14440
ㅇㅝㄴㅈㅜㄴ -14441
▁ㄱㅘㄴㄹㅕㄴㅈㅏ -14442
ㅌㅡㄹㄱㅓ -14443
▁ㄷㅏㅇㄴㅐ -14444
ㅅㅓㅇㅇㅕㄹ -14445
ㅈㅓㄴㅂㅏㅇ -14446
▁ㅇㅑㅇㅎㅏㄱ -14447
▁ㅂㅏㄹㅁㅕㅇㅍㅜㅁ -14448
ㅇㅏㄴㄱㅏ -14449
▁ㅇㅕㅁㄱㅣ -14450
▁ㅎㅏㄴㄹㅣㅁ -14451
▁ㅊㅣㄴㅇㅣㄹㅍㅏ -14452
ota -14453
ㄱㅡㄹㄱㅓ -14454
▁ㄷㅏㅇㄷㅗ -14455
ㅎㅕㄴㅅㅓㄱ -14456
▁ㅁㅏㄱㅎㅣㄴㄷㅏ -14457
ection -14458
ㅅㅜㄴㅎㅘㄴ -14459
▁ㅍㅓㄴㄷㅣㅇ -14460
▁ㅂㅏㅇㄷㅗㄱㅁㅕㄴ -14461
▁HO -14462
▁Ob -14463
ㄱㅗㄹㅁㅗㄱ -14464
▁ㄹㅗㄴㄷㅗ -14465
ㅇㅏㅂㄱㅏㅁ -14466
▁ㅅㅏㅁㄱㅜㄱㅈㅓㄴ -14467
▁271 -14468
▁Cho -14469
▁ㄱㅡㅂㅂㅜ -14470
▁ㄴㅗㅎㅇㅏ -14471
▁ㅂㅏㄴㅈㅡㅇ -14472
▁ㄷㅏㄹㅅㅓ -14473
▁ㅅㅏㄴㅇㅛ -14474
▁ㅇㅓㄹㅂㅓ -14475
▁ㅅㅣㄴㅇㅏㄴ -14476
▁ㅇㅏㄱㄷㅗㅇ -14477
▁ㅅㅣㄱㄷㅏㄴ -14478
▁ㅇㅏㄴㅂㅏㅇ -14479
▁ㅇㅝㄴㅋㅣㄹ -14480
▁ㅅㅏㅇㅊㅡㅇㅂㅜ -14481
ㅂㅕㅇㅈㅐ -14482
▁Dynam -14483
▁ㅁㅏㄴㄷㅡㅂㄴㅣ -14484
▁ㄲㅜㅅ -14485
▁Jump -14486
▁ㅂㅔㄴㅈㅏ -14487
▁ㅇㅔㄹㅈㅏ -14488
▁ㅈㅓㅇㅍㅏ -14489
▁ㅅㅏㅁㅊㅓㄱ -14490
▁ㅇㅕㅇㅇㅝㄹ -14491
enc -14492
▁too -14493
▁ㄴㅜㄹㄹㅓㅆ -14494
▁ㅊㅓㅇㄷㅏㅁ -14495
▁ㅋㅔㄴㅅㅣㄴ -14496
▁nic -14497
ㄷㅏㅇㅅㅓㄴ -14498
aeb -14499
▁ㅅㅣㄴㅍㅏ -14500
▁ㄱㅡㅁㅇㅕㄴ -14501
▁ㅇㅕㄱㄱㅗㅇ -14502
ㅆㅗ -14503
▁KM -14504
ㅈㅣㄴㅍㅛ -14505
▁Intel -14506
▁ㅅㅣㄴㅇㅜ -14507
▁ㅈㅓㄴㄱㅜㄱㄱㅜ -14508
▁ㅅㅗㄱㄴㅐ -14509
▁ㅅㅜㄴㅇㅑㅇㅈㅓㄴㅎㅏㅁ -14510
▁ㅎㅗㄴㅁㅏ -14511
ㅈㅓㄱㅂㅜㄴ -14512
▁ㅇㅕㅇㅈㅗㅇ -14513
▁ㅎㅏㅇㄹㅕㄹ -14514
ㅂㅓㅅ -14515
▁ㄹㅗㄴㄷㅡ -14516
ㄷㅗㅇㄱㅜㄱ -14517
▁ㅅㅟㅂㅅㅏ -14518
▁ㅇㅠㄱㅅㅜ -14519
▁ㅂㅡㄹㄹㅓㅁ -14520
ㅆㅓㅆ -14521
ㅊㅏㅁㅅㅏ -14522
ㅌㅣㄴㄷㅏ -14523
▁friend -14524
▁ㅂㅜㄴㅂㅜㄴ -14525
ved -14526
ㅅㅏㅇㅊㅓㄴ -14527
ㅍㅗㄹㄹㅗㄴ -14528
▁ㅇㅛㅇㅇㅕㄱ -14529
▁Forever -14530
▁Ray -14531
▁ㄱㅜㅇㅅㅏ -14532
▁ㅎㅏㅂㅎㅏ -14533
▁ro -14534
▁ㄷㅗㅊ -14535
▁ㅇㅕㅇㄱㅓㄹ -14536
▁ㄱㅏㄴㅅㅓㄴㅂㅓ -14537
▁ㄱㅡㄱㄷㅏㄴㅈㅜ -14538
▁Hand -14539
▁ㅎㅣㅁㅆㅡ -14540
▁ㅅㅜㄴㅎㅕㄹ -14541
▁ㅇㅑㅇㅁㅣㄴ -14542
▁ㄱㅜㄴㄱㅏ -14543
▁ㄷㅏㅁㅇㅏ -14544
▁318 -14545
ㅈㅓㅇㅎㅘㄴ -14546
ㅎㅕㄴㅇㅕㄱ -14547
▁ㅇㅕㄹㅈㅜㅇ -14548
▁ㅎㅕㄱㅁㅕㅇㄱㅜㄴ -14549
▁TRPG -14550
ㅌㅔㄱㅊㅓ -14551
▁ㄴㅏㄴㅌㅏ -14552
▁ㅅㅓㄴㅁㅣ -14553
▁020 -14554
▁Mill -14555
ㄹㅏㄴㅊㅔ -14556
▁Parad -14557
▁ㄷㅚㄴㅈㅏㅇ -14558
▁ㅈㅣㄴㅌㅗㅇ -14559
▁ㅂㅜㄹㄹㅓㅆㅇㅡ -14560
ㅋㅐㅂ -14561
▁che -14562
▁mag -14563
▁ㅁㅗㅁㅅㅗ -14564
▁ㅅㅏㅇㄷㅗㅇ -14565
▁COST -14566
▁ㅇㅕㅇㅅㅐㅇ -14567
ㅈㅜㄴㅇㅜ -14568
ㄷㅏㅇㄷㅏㅇ -14569
▁Chaos -14570
ㅈㅜㄴㅈㅓㅁ -14571
▁Street -14572
▁475 -14573
▁ㅌㅐㄱㅈㅣ -14574
▁ㄱㅏㅆㅇㅓㅆ -14575
▁ㄱㅘㄴㅎㅐㅇ -14576
ㅇㅐㅇㄱㅡㄹ -14577
▁Dep -14578
▁fire -14579
ㄷㅡㄱㅇㅣ -14580
▁ㅁㅣㄴㅂㅕㅇㅎㅓㄴ -14581
ㅃㅜㄹㅅㅗ -14582
ㅅㅓㅇㅈㅐ -14583
ㅊㅜㅇㅈㅓㄴ -14584
▁ㅅㅣㄴㄷㅗㅇㅇㅕㅂ -14585
ㄴㅗㄹㄹㅗ -14586
ㅈㅓㅇㅅㅜ -14587
ㅁㅣㄴㅌㅓㄴ -14588
▁ㄲㅜㅅㄲㅜ -14589
▁ㅂㅗㄴㄱㅛ -14590
▁ㅁㅕㄹㅊㅣㅇ -14591
KA -14592
▁ㅈㅏㅇㄱㅝㄴ -14593
▁sur -14594
ㄴㅏㄴㅂㅓㄴ -14595
▁Cle -14596
▁ㅈㅓㅁㅁㅏㄱ -14597
▁cb -14598
oft -14599
ㄱㅣㄹㄷㅗㅇ -14600
▁ㅂㅓㄹㅂㅓㄹ -14601
▁ㅎㅏㅇㅁㅜㄴ -14602
▁TJ -14603
▁lat -14604
▁Jr -14605
▁323 -14606
▁ㅁㅣㄴㄱㅕㅇ -14607
▁ㅂㅕㄹㅂㅣㅊ -14608
por -14609
▁ㄱㅕㅇㅊㅣ -14610
▁ㅇㅏㄹㅍㅗㄴ -14611
▁ㄱㅏㄹㄱㅕ -14612
▁ㄱㅏㅇㅇㅜ -14613
▁ㅈㅣㄴㅇㅕㄹ -14614
▁Du -14615
ㅇㅕㅇㅁㅜ -14616
▁ㅇㅛㅇㅁㅗ -14617
▁ㄱㅗㄱㅁㅜㄹ -14618
akes -14619
▁Sin -14620
inity -14621
▁Right -14622
▁ㄱㅡㅁㄱㅘㅇ -14623
ㄹㅓㅂㅎㅣ -14624
▁Fight -14625
▁ㄲㅡㄶㄱㅣㄴ -14626
▁ㅇㅕㅇㅇㅕㄴ -14627
ㅂㅗㅁ -14628
▁Lab -14629
▁ㄱㅏㄱㅎㅏ -14630
▁ㅁㅜㄴㄷㅐ -14631
▁ㅌㅗㅇㅎㅐㅇㄹㅛ -14632
ㅇㅕㅇㅈㅐ -14633
ㅇㅕㅁㅂㅕㅇ -14634
▁ㄷㅏㄴㅇㅓㄴ -14635
▁ㅅㅏㅇㅅㅡㅂ -14636
▁ㅅㅗㄱㄱㅗㄱ -14637
▁ㅋㅔㄴㅊㅣ -14638
▁ㅇㅏㄴㅅㅏㅇ -14639
ISE -14640
▁ㅅㅣㅂㅇㅣ -14641
over -14642
▁Cast -14643
▁ㅁㅐㄴㅅㅕㄴ -14644
▁ㅎㅘㄱㅊㅜㅇ -14645
ael -14646
ㅍㅜㅇㅅㅓㄴ -14647
▁Ko -14648
▁ㅂㅜㄴㄱㅐ -14649
ㅈㅓㄴㄷㅡㅇ -14650
▁Global -14651
▁ㅎㅕㅇㅇㅛㅇㅅㅏ -14652
▁MTV -14653
▁ㅇㅕㄴㅅㅣ -14654
▁ㅁㅣㄴㅅㅓㄴ -14655
▁ㄱㅏㅂㄴㅣ -14656
▁ㅃㅑㅁㅊㅣ -14657
▁ㅈㅏㅇㄹㅕㄹ -14658
▁Circ -14659
▁GUMI -14660
ㄴㅕㄴㅊㅡㅇ -14661
▁ㅅㅡㅇㅈㅓㄴ -14662
▁ㅇㅘㅇㅈㅓㄴ -14663
▁ㅎㅐㅇㅈㅣㄴㄱㅗㄱ -14664
▁TER -14665
under -14666
▁Iron -14667
ㄹㅏㄹㄹㅏ -14668
▁ㅎㅡㄱㅅㅏ -14669
▁little -14670
▁ㅅㅗㄴㅇㅣㄱ -14671
▁ㅁㅗㅇㅋㅡ -14672
▁ㅅㅣㄹㅌㅐ -14673
▁Christmas -14674
▁run -14675
▁282 -14676
▁ㅅㅏㄴㅅㅏ -14677
▁ㄱㅜㅇㅈㅜㅇ -14678
▁ㅈㅗㅇㅇㅑㅇ -14679
▁god -14680
▁Studio -14681
▁ㄴㅡㄹㄹㅕㅆ -14682
iko -14683
▁Ur -14684
▁WD -14685
here -14686
ㅅㄱㅏㅄ -14687
▁ㅎㅏㄹㅋㅟ -14688
▁ㄴㅗㄱㅌㅓㄴ -14689
▁ㅅㅏㅇㅈㅏㄱ -14690
ㄷㅗㅇㅎㅐ -14691
▁ㅁㅜㄹㄷㅡㄴ -14692
▁ㅈㅜㅇㅎㅏㄱ -14693
▁XL -14694
▁ㅂㅏㄹㄲㅡㄴ -14695
▁298 -14696
▁ㅋㅜㅁ -14697
▁ㅇㅣㄹㅈㅜ -14698
▁ㅈㅓㄴㄹㅑㅇ -14699
▁ㅊㅗㅇㅅㅏㄹ -14700
▁ㄴㅓㄹㄴㅓㄹ -14701
▁ㄷㅗㅇㄹㅕㄱㅇㅝㄴ -14702
▁ㅅㅣㄴㅂㅜㄴㄷㅏㅇㅅㅓㄴ -14703
▁ElectricalBoy -14704
▁ee -14705
▁act -14706
▁size -14707
▁ㅇㅏㄴㅆㅡ -14708
▁ㅈㅓㄴㄴㅚ -14709
ㅈㅏㅇㅇㅕㄱ -14710
▁ㅈㅗㅇㅈㅏㅇ -14711
▁ㄱㅣㅁㅈㅓㅇㅇㅜ -14712
pha -14713
▁ㅅㅏㄹㅅㅐㅇ -14714
▁ㅇㅜㅇㄷㅓㅇㅇㅣ -14715
▁du -14716
▁ㅇㅡㅁㅇㅠ -14717
▁ㅇㅣㄴㄱㅗㅇㅇㅟ -14718
▁ㅅㅣㅁㅅㅣㄴ -14719
▁ㅇㅣㄴㄱㅓㄴ -14720
▁ㅈㅜㅇㄴㅏㅁㅁㅣ -14721
▁006 -14722
▁ㅋㅣㅂ -14723
▁ㅁㅕㅇㅈㅔ -14724
acle -14725
▁ㅇㅝㄴㅊㅗ -14726
▁ㄱㅗㅇㅅㅏㅇ -14727
ㄹㅔㄴㅊㅣ -14728
ㅎㅏㄹㅇㅏ -14729
▁ㅁㅣㄹㅍㅖ -14730
▁ㄱㅕㅇㅊㅜㄴ -14731
▁mind -14732
▁ㅎㅘㄴㅅㅣ -14733
▁ㅇㅡㅁㅅㅣㄱㅁㅜㄹ -14734
▁ㅈㅡㅂ -14735
ㄲㅏㄱ -14736
▁278 -14737
▁Plat -14738
istory -14739
▁ㄲㅣㅁㅅㅐ -14740
▁ㅇㅓㅅㄱㅏㄹㄹㅣ -14741
▁ㅎㅡㄴㄷㅡㄹㄹㅣㅁ -14742
▁ㅂㅣㅈㅇㅓ -14743
▁ㅎㅏㅂㅅㅓㅇㅇㅓ -14744
▁ㅆㅔㄴ -14745
▁Dist -14746
▁Walk -14747
ㄴㅏㄴㅂㅏㅇ -14748
▁ㄱㅘㅇㅇㅕㄱㅈㅏ -14749
▁ㅇㅝㅇ -14750
▁ㄱㅏㄴㅎㅓㄹ -14751
▁ㄷㅗㅇㄱㅏㅂㄴㅐ -14752
ios -14753
▁ㄷㅗㅇㅇㅡㅁ -14754
▁ㅈㅓㅁㄹㅕㅇㅈㅣ -14755
▁File -14756
▁ㅈㅜㄴㅋㅗ -14757
ㅎㅏㄴㅈㅓㅇ -14758
▁ㅈㅓㅂㅅㅓㄴ -14759
▁sub -14760
▁RK -14761
cept -14762
▁ㄱㅣㅁㄴㅏ -14763
▁ㅇㅘㅆㄷㅏ -14764
▁ㅈㅏㅇㅎㅏㅂ -14765
▁ㅇㅝㄴㅎㅏㄹ -14766
▁ㅊㅜㄹㅇㅣㅂㅁㅜㄴ -14767
▁ㅈㅡㄱㅎㅡㅇ -14768
reme -14769
ㅅㅐㄱㄷㅐ -14770
▁ㅈㅓㅇㅅㅐㄱ -14771
▁324 -14772
▁ㅂㅔㄴㄷㅏ -14773
▁ㄱㅡㄴㄱㅏㄴ -14774
▁Techn -14775
▁ㅁㅏㅌㄱㅣㄹ -14776
▁ㅊㅜㅇㅁㅏㄴ -14777
▁Lord -14778
ㅅㅏㅇㅇㅜㄱ -14779
▁ㅁㅗㄹㅋㅏ -14780
▁ㅈㅓㅁㅊㅕ -14781
▁ㄲㅗㅇㄲㅗㅇ -14782
▁Armor -14783
▁Ak -14784
▁287 -14785
▁309 -14786
ㄴㅓㄹㄹㅣ -14787
▁ㄲㅐㅆ -14788
▁Hall -14789
ㅁㅓㄱㅂㅏㅂ -14790
▁ㅂㅏㄱㄹㅕㄱ -14791
▁Va -14792
▁267 -14793
ㅁㅣㄴㅅㅓㄱ -14794
▁ㅊㅜㄹㅈㅏㅇㅅㅗ -14795
▁ㅈㅜㅇㄱㅏㄴㅈㅜㅇㄱㅏㄴ -14796
ipp -14797
▁ㅅㅣㄹㅍㅣ -14798
▁ㅊㅜㅇㅊㅓㅇㄷㅗ -14799
▁740 -14800
▁ATP -14801
▁TOUR -14802
▁ㅁㅜㄹㅇㅢ -14803
▁ㄱㅕㄹㅍㅏㄴ -14804
▁ㅇㅕㅇㅅㅏㅇㅁㅜㄹ -14805
▁Ju -14806
▁Group -14807
▁ㅈㅜㅇㅈㅗㅇ -14808
HS -14809
▁ㅅㅕㅅㅇㅏ -14810
▁ㅈㅡㄹㅂㅣ -14811
▁ㅎㅡㅁㅈㅣㅂ -14812
Lv -14813
ㄹㅏㅇㅋㅏ -14814
▁ㅇㅏㄹㄹㅐ -14815
▁ㅊㅣㅇㅎㅐㅆ -14816
yl -14817
▁may -14818
▁ㅇㅛㅇㅁㅏ -14819
62 -14820
▁ㅇㅡㅇㅇㅝㄴㄷㅏㄴ -14821
▁Ven -14822
▁ㄱㅗㄹㅊㅣㅅ -14823
▁ㅅㅣㅁㅊㅡㅇ -14824
ㅅㅏㄹㄹㅕ -14825
▁ㄲㅗㄴㄷㅐ -14826
▁ㅇㅏㄴㅈㅐ -14827
▁ㅇㅣㄴㅍㅕㄴ -14828
▁ㅈㅓㄴㄱㅝㄴ -14829
ㅊㅣㅁㅇㅓㅄㅇㅣ -14830
ㅈㅓㄱㅅㅓㄴ -14831
▁ㄴㅏㅁㄱㅣㄹ -14832
▁ㅇㅝㄴㅅㅓㄱ -14833
▁ㅇㅡㅁㅇㅑㅇㅅㅏ -14834
▁ㄴㅏㅁㅇㅣㄴ -14835
▁ㅂㅏㄱㅁㅣㄴㅇㅜ -14836
▁ㅈㅏㅇㅇㅝㄴㅈㅜㄴ -14837
▁ㅂㅏㅇㅈㅗㅇ -14838
▁ㄱㅗㄹㅍㅏㄴㅈㅣ -14839
▁ㅁㅏㄹㄹㅕㅆ -14840
▁ㅈㅏㅇㅎㅏㅇ -14841
▁Collection -14842
▁ㅅㅓㄴㅇㅏㄱ -14843
▁ㅌㅐㄱㅎㅏㄴ -14844
ba -14845
▁ㅅㅓㄴㅇㅢ -14846
▁ㅇㅡㄴㅋㅓ -14847
▁ㅎㅏㅂㅅㅡ -14848
▁ㅅㅜㄱㄷㅏㄹ -14849
pect -14850
▁Cre -14851
ㅅㅣㄱㅈㅏㅇ -14852
▁ㅅㅏㄴㅁㅜㄹ -14853
▁ㅎㅗㄹㄷㅓ -14854
▁Mor -14855
▁vlive -14856
▁ㅎㅗㄱㅅㅓㅇ -14857
XX -14858
▁259 -14859
▁ㅍㅗㄱㅇㅜ -14860
▁ㅎㅗㅇㅁㅕㅇ -14861
raw -14862
▁KAC -14863
▁Disc -14864
▁ㅁㅐㅇㅈㅜ -14865
▁ㅈㅣㄴㄹㅜ -14866
▁ㄱㅕㄹㅈㅓㅁ -14867
▁ㅇㅡㅁㅇㅏㄱㅅㅣㄹ -14868
▁ㅈㅐㅅ -14869
▁Bill -14870
▁ㅂㅔㄴㅊㅓ -14871
ㅁㅏㅇㄱㅏㅆ -14872
▁294 -14873
ㅅㅣㅁㅋㅗ -14874
▁ㄷㅓㅍㅇㅓ -14875
▁ㅇㅝㄴㅅㅑㅅ -14876
▁ㅎㅐㅇㅎㅏㄴ -14877
ㅍㅣㄹㄹㅔ -14878
▁ㅇㅘㄴㅊㅣ -14879
▁GOLD -14880
▁ㄱㅘㄴㅇㅣㅂ -14881
▁Radio -14882
▁ㄱㅡㄹㄱㅟ -14883
▁ㅍㅕㅇㅌㅐㄱㅅㅣ -14884
uke -14885
ㄹㅗㄴㅎㅚ -14886
ㅎㅏㄴㄷㅐ -14887
▁ㄴㅓㄼㅎㅕ -14888
▁ㅂㅗㄴㄱㅣ -14889
ㄴㅑㅇㅈㅓ -14890
▁ㄱㅝㄴㅇㅚ -14891
▁ㅂㅜㄹㅎㅜ -14892
▁ㄱㅐㄱㅇㅝㄴ -14893
▁ㅂㅜㄱㄱㅕㅇ -14894
▁ㅂㅣㄱㅅㅡ -14895
▁ㅇㅣㅅㄸㅏ -14896
▁people -14897
▁ㅇㅏㅁㅅㅏㄹㄷㅏㄴ -14898
ㅂㅓㅂㄱㅘㄴ -14899
▁ㅊㅣㄹㅅㅓㅇ -14900
▁ㅈㅣㅂㅎㅐㅇㅇㅠ -14901
▁ㅈㅓㅇㅈㅓㄴㅅㅣㄱ -14902
▁ㅌㅏㄹㄹㅗ -14903
▁ㅍㅏㄴㅊㅣ -14904
▁wr -14905
▁Where -14906
▁ㄸㅓㄹㄹㅣ -14907
▁ㅊㅗㅇㄹㅕㄱ -14908
▁ㅎㅐㅇㅅㅓㄴ -14909
ㄷㅗㅇㅎㅜㄴ -14910
▁ㅅㅜㄴㅇㅜㄱ -14911
ㄷㅏㄴㅂㅓㅂㅇㅣㄴ -14912
▁ㄴㅐㅁ -14913
▁ㄲㅗㅈㅎㅕ -14914
▁ㅎㅗㄴㄴㅏ -14915
ㅎㅏㄱㅅㅏㄹ -14916
▁ㅇㅕㄴㄲㅗㅊ -14917
▁YTN -14918
ㅈㅏㅂㅎㅕ -14919
▁ㅂㅗㅇㅎㅐ -14920
▁ㅁㅏㄹㅂㅓㄹ -14921
▁ㅂㅏㄹㅅㅗㅇ -14922
▁ㄱㅜㅇㅇㅣ -14923
ㅇㅜㅅㅈㅣㅂ -14924
▁ㅎㅏㅁㄹㅑㅇ -14925
ior -14926
ㄹㅏㄴㅊㅣ -14927
ㄹㅔㄱㅅㅡ -14928
▁ㄱㅜㄱㄱㅘ -14929
▁ㄱㅡㅁㅈㅔ -14930
ㅅㅓㄴㅈㅗㄱ -14931
▁Bell -14932
ㄷㅡㄹㄹㅣㄴ -14933
▁ㅇㅗㄹㄹㅕㅆㅇㅡ -14934
▁Flash -14935
▁ㅍㅔㄴㄷㅓㄴㅌㅡ -14936
ji -14937
▁ㅃㅣㄱ -14938
ㅇㅣㄹㄹㅣㅇ -14939
▁ㄱㅘㅇㄴㅕㄴ -14940
▁ㅎㅗㄱㅈㅏ -14941
ative -14942
ㅁㅜㄴㅇㅔ -14943
▁ㅍㅕㄴㅈㅣㅂㅈㅏㅇ -14944
▁SoC -14945
▁EDG -14946
▁ㄴㅗㅇㄹㅣㅁ -14947
▁ㄱㅜㅇㄴㅕ -14948
▁ㅇㅏㄹㅌㅏ -14949
▁ㅈㅓㄴㅎㅢ -14950
▁ㅂㅏㄱㄱㅓㄴㅇㅜ -14951
▁ㄷㅐㅇ -14952
▁Style -14953
▁ㅌㅏㄹㄹㅔ -14954
▁ㄷㅐㄴㅅㅣㅇ -14955
▁ㅁㅣㄹㅇㅑㅇ -14956
ㅁㅏㄱㅇㅣ -14957
▁ㄱㅡㄹㄹㅜ -14958
▁ㄱㅗㅇㅁㅜㄴ -14959
▁ㅂㅏㄹㅈㅗㄱ -14960
▁ㅎㅡㄴㄷㅡ -14961
▁ㅁㅓㄱㅎㅕㅆ -14962
▁ㄱㅏㅁㄷㅗㄱㄱㅘㄴ -14963
ㅈㅜㅇㅇㅣㄹ -14964
▁ㄷㅣㅅ -14965
▁ㅅㅗㄱㅇㅣㄴ -14966
▁South -14967
▁ㄷㅔㄹㄹㅏ -14968
▁ㅇㅑㅇㅂㅜ -14969
▁ㅎㅏㄹㄹㅐ -14970
▁ㄷㅏㅇㅎㅗㄱ -14971
ㄷㅗㄹㄹㅣㄴㄷㅏ -14972
▁ㅋㅟㄴㅅㅣ -14973
▁ㅇㅏㄴㄷㅏㄹ -14974
▁ㅎㅓㄴㅈㅓㅇ -14975
▁ㅌㅡㄱㅂㅕㄹㅂㅓㅂ -14976
ㅈㅗㅎ -14977
▁ins -14978
▁ㅂㅏㄱㄷㅐ -14979
▁ㅅㅏㄴㅈㅐ -14980
ouri -14981
ㅂㅜㄴㅂㅕㄹ -14982
▁ㅁㅏㅈㅊㅜㅁㅂㅓㅂ -14983
▁ㅅㅣㄴㅇㅣㄹㅂㅗㄴ -14984
▁Royal -14985
▁ㅈㅣㄴㅈㅓ -14986
▁ㄱㅗㄹㅁㅣㅌ -14987
▁ㄲㅗㅂㅎㅕㅆ -14988
▁ㅁㅐㅇㅁㅗㄱ -14989
▁ㅅㅏㄴㄷㅏㄴ -14990
▁ㅈㅓㄹㅁㅕㄹ -14991
▁+, -14992
▁EG -14993
▁ㅁㅜㅅ -14994
ㅅㅡㄹㄹㅔ -14995
▁ㄷㅗㄹㄹㅣㅁ -14996
▁ㅃㅏㅇㅈㅣㅂ -14997
kn -14998
▁435 -14999
▁Want -15000
ㅇㅕㅇㅈㅜㄴ -15001
▁Attack -15002
eca -15003
ㄷㅗㄱㅅㅓㅇ -15004
▁Fa -15005
ㄷㅐㄹ -15006
ㅈㅣㄹㅈㅣ -15007
▁ㅈㅏㅇㅁㅏ -15008
ㄴㅏㄹㄹㅣㄴ -15009
▁284 -15010
ㅅㅗㄱㅅㅓㄴ -15011
▁ㅁㅏㄹㄹㅣㄴㄷㅏ -15012
▁ㅎㅣㄹㄷㅔ -15013
▁ㅈㅡㅇㅁㅕㅇㅅㅓ -15014
ㄷㅡㄹㄱㅣ -15015
▁ㅇㅑㅇㅈㅜㄴㅎㅕㄱ -15016
▁BAT -15017
▁ㄲㅡㅀㅇㅣ -15018
ㅊㅓㄴㅁㅕㄴ -15019
ㅁㅏㅈㅇㅣ -15020
▁ㄷㅏㄴㅁㅏㅅ -15021
▁Jo -15022
ㅇㅗㄴㅅㅡ -15023
▁ㅂㅏㄱㅅㅣ -15024
▁ㄱㅗㅇㅈㅗ -15025
ㄴㅝㅆ -15026
ㅍㅐㅁ -15027
apon -15028
▁ㅅㅓㅇㅎㅗ -15029
ㅈㅓㅇㅍㅏㄴ -15030
▁ㅍㅗㄱㄹㅕㄹ -15031
▁ㅅㅓㄱㅈㅐ -15032
▁ㄴㅏㄱㅈㅓㅁ -15033
▁ㅍㅏㄹㅋㅗㄴ -15034
comm -15035
ㅌㅗㄹㄹㅣ -15036
▁ㅅㅔㄴㅌㅓㅁ -15037
▁ㅅㅜㄱㅅㅓㅇ -15038
▁Mob -15039
▁ㅎㅏㄱㅇㅜ -15040
▁ㅂㅏㄴㅇㅑ -15041
▁ㅊㅏㅁㅎㅚ -15042
▁ㅊㅣㄴㄷㅗㅇㅅㅐㅇ -15043
▁West -15044
▁ㄱㅏㅇㅌㅐ -15045
▁ㄴㅔㄱㅌㅗㄴ -15046
GN -15047
PGA -15048
ief -15049
▁ㅉㅗㅈㄱㅕ -15050
▁ㅅㅏㄴㅇㅕㄱ -15051
▁ㅂㅓㅂㄱㅠ -15052
▁ㅊㅗㄱㅁㅐ -15053
▁ㅅㅣㄹㅈㅡㅇ -15054
ㅁㅓㄴㅈㅣ -15055
ㅈㅣㄴㄹㅕㄱ -15056
▁MIN -15057
▁ㅂㅐㄹㄹㅠ -15058
ㅁㅏㅇㄱㅏㄹ -15059
ㅁㅣㄴㅅㅏㅇ -15060
ㅌㅐㄱㄱㅡㄴ -15061
▁NEXT -15062
▁ㅁㅏㄴㄹㅣ -15063
▁ㅇㅓㄺㅁㅐ -15064
▁ㄱㅜㅇㅇㅡㄹ -15065
▁ㅎㅚㄱㄱㅣ -15066
▁APEX -15067
ㄹㅣㄹㄹㅣ -15068
▁ㅇㅕㄴㅅㅣㄴ -15069
bat -15070
▁ㅃㅓㄴㅎㅣ -15071
▁ㅈㅏㅇㅈㅐ -15072
▁ㅊㅗㅇㄱㅕㄱㅈㅓㄴ -15073
▁ㅅㅓㄴㄹㅏ -15074
▁ㅎㅚㅇㅍㅗ -15075
ㅈㅣㄱㄹㅕㄱ -15076
awa -15077
oke -15078
ㄷㅔㄱ -15079
▁ㅊㅜㄹㅌㅗ -15080
ㅌㅓㄹㄹㅣㅇ -15081
▁ㅊㅜㄹㅍㅜㅁ -15082
▁Pf -15083
▁289 -15084
ㅅㅓㄱㅎㅕㄴ -15085
▁ㄱㅕㄹㅌㅏㄱ -15086
▁ㅂㅕㄴㅂㅕㄴ -15087
ORY -15088
▁Pet -15089
▁real -15090
▁ㅍㅣㄴㅊㅣ -15091
▁ㅇㅡㄴㅂㅏㄹ -15092
▁ㅎㅏㄴㅅㅣㄱ -15093
▁ㅎㅔㅅ -15094
▁ㅈㅜㅇㅂㅗ -15095
▁ㅂㅏㄴㅁㅜㄴ -15096
▁Rh -15097
ㅂㅏㄴㅅㅜ -15098
▁ㄲㅡㅌㅈㅏ -15099
▁ㅂㅏㄹㄷㅔ -15100
▁ㄹㅣㅇㄹㅣㅇ -15101
▁ㅇㅑㄱㅎㅏㅁ -15102
ㅋㅠㄹ -15103
▁ㅂㅐㄱㄱㅣ -15104
▁ㅅㅜㄴㅇㅐ -15105
▁ㅊㅣㅁㅅㅣㄹ -15106
▁444 -15107
ule -15108
▁Us -15109
▁php -15110
▁Know -15111
▁ㅈㅗㅇㄱㅜㄱ -15112
▁ㅈㅣㄱㅎㅏㅁ -15113
ㅇㅓㅋ -15114
▁ㄹㅓㄱㅅㅕ -15115
▁ㅁㅜㄲㅇㅣ -15116
ㅅㅡㅇㅊㅓㄹ -15117
▁ㄱㅜㄱㅇㅕㅇ -15118
▁Vi -15119
▁HYP -15120
ㄷㅗㅇㅎㅘ -15121
▁ㄱㅏㅇㅅㅣㄴ -15122
▁ㅎㅏㄱㅈㅏㅇ -15123
▁Bas -15124
▁NFC -15125
ㅇㅕㄴㄱㅣ -15126
▁still -15127
▁ㅅㅣㄹㅁㅏ -15128
▁ㅅㅣㅁㅊㅟ -15129
▁ㅂㅕㄱㅁㅕㄴ -15130
▁Dear -15131
ㅅㅏㅇㅅㅏ -15132
ㅇㅣㄹㅁㅜ -15133
▁Golden -15134
▁ㅇㅗㅇㄹㅣㅂ -15135
▁ㅎㅗㄴㄹㅕㅇ -15136
roy -15137
▁690 -15138
▁ㄷㅟㅅㅇㅣ -15139
▁ㅂㅣㄴㅌㅣ -15140
▁ㅇㅠㄱㅅㅗㄴ -15141
▁ass -15142
▁ㄱㅏㅇㅂㅏㄱ -15143
▁NTR -15144
▁2300 -15145
ㅅㅏㅇㅇㅛㅇ -15146
▁ㅇㅕㄱㅇㅣㄴ -15147
ones -15148
▁ㄷㅏㅇㄴㅛ -15149
▁ㅇㅛㅇㅂㅓㅂ -15150
ㅂㅔㄴㅈㅓ -15151
▁HAPPY -15152
▁ㄷㅗㄱㅅㅣㄴ -15153
▁ㅁㅣㄴㄴㅏ -15154
▁ㅂㅏㄹㄷㅡ -15155
▁ㅇㅣㄹㅊㅜㄱ -15156
▁ㅎㅘㅇㄱㅡㅂㅎㅣ -15157
▁ㅇㅠㄴㅅㅓㅇㅎㅘㄴ -15158
▁ㅅㅣㄱㅇㅣ -15159
▁ㅁㅏㄴㅎㅏㄴ -15160
▁ㅍㅣㅅㅈㅜㄹ -15161
▁386 -15162
▁Rap -15163
▁Tig -15164
ㅇㅣㄴㄷㅔ -15165
▁ㄱㅏㅇㅁㅜㄹ -15166
akao -15167
▁ㄱㅟㄴ -15168
▁ㅌㅏㅁㅂㅏㅇ -15169
▁ㅅㅗㄱㅇㅓ -15170
▁ㅊㅏㄱㅅㅣㄹ -15171
ㄷㅏㅅㅁㅜㄹ -15172
▁ㅅㅏㅇㅁㅕㅇ -15173
▁ㅅㅣㄱㅌㅏㄱ -15174
ㄷㅏㅎ -15175
▁279 -15176
▁ㅇㅏㅍㄴㅏㄹ -15177
▁ㅈㅓㄴㅁㅏㄹ -15178
▁ㄱㅗㅇㅍㅏ -15179
▁ㅊㅓㄴㅁㅕㅇ -15180
▁ㄱㅏㅁㅎㅘ -15181
▁ㄱㅣㅁㅂㅜ -15182
▁ㅂㅗㄴㅅㅐㄱ -15183
▁FP -15184
▁sing -15185
▁song -15186
▁ㅁㅣㅅㅁㅣㅅ -15187
▁ㅂㅏㄹㅎㅏㄹ -15188
▁Gar -15189
ㅌㅓㄴㅅㅡ -15190
▁ㅁㅐㄱㄱㅣ -15191
▁ㅇㅛㅇㅅㅏㄴㄱㅜ -15192
▁ㅅㅓㅇㅇㅘㅇ -15193
▁ㅅㅣㄴㅍㅏㄴ -15194
ㄷㅗㅇㅁㅜㄹㅁㅜㄴ -15195
TO -15196
▁ㄷㅠㄴ -15197
▁Mart -15198
▁ㅇㅠㄴㅎㅢ -15199
ㅂㅓㄹㅈㅓㄴ -15200
▁ㅅㅜㅁㄱㅣㄹ -15201
71 -15202
ㄷㅣㅆ -15203
▁281 -15204
▁Fair -15205
▁ㄷㅏㄴㄷㅜ -15206
▁ㅈㅓㅇㄷㅏㄴ -15207
▁car -15208
earch -15209
▁fall -15210
▁ㄱㅕㅇㅊㅏ -15211
▁Log -15212
ㄱㅏㅇㅎㅗ -15213
▁ㄱㅘㅇㅎㅟ -15214
▁ㄱㅡㄱㅎㅚ -15215
▁ㅅㅏㅇㄷㅗ -15216
▁ㅊㅏㅇㄴㅕ -15217
ㅌㅏㄹㅊㅜㄹ -15218
▁ㅈㅓㅇㅇㅛㅇ -15219
▁Hz -15220
▁ㅃㅐㄹ -15221
▁Born -15222
▁ㄱㅗㅇㅊㅏ -15223
▁ㅇㅛㅇㄱㅓㅁ -15224
▁ㄱㅣㅍㅅㅜㄱㅎㅣ -15225
▁ㅈㅓㅇㅅㅏㅇㅇㅣㄴ -15226
ㅁㅔㄹㄹㅔ -15227
▁ㄱㅘㄴㅅㅓㅇ -15228
▁FU -15229
ising -15230
▁ㄱㅣㅁㅇㅣ -15231
ㅂㅜㄴㄱㅜㄴ -15232
▁ㅇㅝㄴㄷㅏㄴ -15233
▁ㅊㅓㅅㄴㅜㄴ -15234
ㅅㅐㅁ -15235
▁tell -15236
▁ㅂㅜㄹㄷㅗ -15237
ㅂㅏㅇㅇㅣㄴ -15238
▁356 -15239
▁ㅎㅘㅇㅂㅗ -15240
ㅊㅓㅇㅇㅕㄱ -15241
▁274 -15242
▁Land -15243
ㅈㅏㄱㅈㅓㅁ -15244
ㅇㅕㄱㄲㅜ -15245
▁where -15246
▁ㅂㅏㄱㅁㅜ -15247
▁ㅇㅏㅍㅅㅓㅆ -15248
▁ㅅㅓㅇㅈㅏㅇㄱㅣ -15249
ㅇㅣㄴㅅㅓㄴ -15250
ㅈㅏㅇㅎㅜㄴ -15251
▁ㅇㅣㅂㄱㅏㄱ -15252
▁Alex -15253
▁ㅈㅣㅂㄴㅣ -15254
▁ㅇㅏㄴㅇㅣㄹ -15255
▁Some -15256
▁ㅁㅏㄴㄱㅣ -15257
▁ㅁㅣㄹㅋㅣ -15258
▁ㅍㅏㄴㄱㅜㄱ -15259
mar -15260
▁ㅆㅗㄹㄹㅣ -15261
▁ㄱㅓㅁㅈㅣㄴ -15262
min -15263
▁ㅇㅏㅂㄱㅜ -15264
ㄱㅜㄱㅈㅓㄱ -15265
LV -15266
▁Eyes -15267
▁ㅈㅏㄱㅅㅔㄴ -15268
▁ㄱㅏㅇㄱㅕㅇㅍㅏ -15269
▁LH -15270
▁Wave -15271
ㅅㅓㅇㅅㅜㄱ -15272
▁ㅎㅗㄱㅎㅏㄴ -15273
▁Android -15274
▁ㅎㅏㅂㅎㅐ -15275
▁ㅈㅓㄻㅇㅡㅁ -15276
▁ㅅㅜㄴㅈㅓㅇㅁㅏㄴㅎㅘ -15277
ARE -15278
ㅊㅐㅇㅇㅣ -15279
▁ㅇㅔㄴㄹㅣ -15280
ㄹㅡㅁㄷㅏㄹ -15281
ener -15282
▁ㅅㅗㄱㄷㅏㅁ -15283
▁Ros -15284
▁PVE -15285
▁ㅂㅐㄱㅁㅗ -15286
ㄱㅝㄴㄹㅕㄱ -15287
▁WOW -15288
ㅅㅓㄱㄱㅜ -15289
▁ㅂㅜㄹㄱㅕㅇ -15290
ㅎㅕㅇㅊㅏ -15291
▁ㅂㅣㄴㅇㅠ -15292
▁ㅇㅑㅇㅎㅐ -15293
ㄱㅕㅂㅅㅏㄹ -15294
▁ㅂㅓㅁㄹㅏㅁ -15295
▁ㅅㅓㅁㅁㅕㄹㅈㅓㄴ -15296
ㅋㅓㅇ -15297
▁ㄹㅓㄴㄷㅡㄹ -15298
▁ㅍㅏㅂㅇㅓㅂ -15299
▁Mini -15300
▁ㅂㅏㄱㅇㅝㄴㅅㅜㄴ -15301
▁ㅅㅐㄹㄹㅣ -15302
▁ㅁㅏㄹㄷㅏㄴ -15303
▁ㅈㅓㄴㅇㅣㅁㅈㅏ -15304
▁ㅎㅘㅇㄱㅓㄴㅈㅓㄱ -15305
OB -15306
ㅎㅡㄴㄷㅡㄹ -15307
▁ㅁㅜㄹㅂㅕㅇ -15308
▁ㄷㅏㅅㅈㅣ -15309
▁ㄱㅘㄴㅅㅣㅁㅅㅏ -15310
▁ㅅㅏㅁㄱㅕㅂㅅㅏㄹ -15311
▁ㄱㅏㄱㄱㅐ -15312
▁ㄱㅓㄹㅍㅡ -15313
ㅇㅕㄴㅅㅏㅇ -15314
▁ㄷㅏㄴㅍㅜㅇ -15315
cal -15316
▁ㅅㅏㅇㄹㅠㄱㅈㅏㄱㅈㅓㄴ -15317
▁ㄴㅏㄱㅎㅜ -15318
▁ㅁㅜㄴㅅㅓㅇ -15319
▁ㄱㅕㅇㅈㅐㅇㅅㅏ -15320
▁ㅅㅗㄴㅅㅡㅇㄹㅏㄱ -15321
ues -15322
▁ㅂㅏㅇㄱㅖ -15323
▁ㅂㅗㅇㅇㅜ -15324
▁ㅎㅗㅇㅅㅣ -15325
▁ㅁㅜㄴㅈㅓㅇ -15326
▁ㅊㅗㅇㅇㅐㄱ -15327
ㄴㅏㄴㅁㅣㄴ -15328
▁LD -15329
▁030 -15330
▁ㅈㅓㅇㄹㅑㄱ -15331
▁List -15332
▁ㄷㅏㅇㄱㅘ -15333
... -15334
ira -15335
▁ㄱㅡㄱㅂㅗㄴ -15336
▁ft -15337
ㅅㅏㄴㄱㅣ -15338
▁ㅁㅜㄴㅅㅜ -15339
▁ㅈㅓㄴㅇㅢ -15340
ㄷㅡㅇㅂㅕㅇ -15341
▁ㄱㅕㄹㅇㅕ -15342
▁ㅈㅓㅁㅍㅓ -15343
▁LT -15344
▁ㄸㅓㄹㅊㅕㅆ -15345
▁ㅇㅣㄹㅈㅏㅇ -15346
ㅎㅏㅇㅅㅣ -15347
▁ㅇㅕㄱㅈㅜ -15348
GM -15349
▁ㅍㅔㄹㄹㅏ -15350
▁ㅍㅗㄹㄷㅡ -15351
▁ㅎㅔㄹㄹㅡㅁ -15352
▁770 -15353
▁two -15354
ㅅㅓㅇㅇㅣㄴ -15355
▁ㅁㅓㄱㅇㅕㅆ -15356
▁ㅉㅓㄹㅉㅓㄹ -15357
ㅇㅜㄴㄷㅓ -15358
▁Stars -15359
▁ㅎㅕㄴㅇㅜ -15360
ㄱㅐㄱㅅㅓㄴ -15361
▁ㄱㅏㅇㄹㅛㅇ -15362
▁ㅅㅏㅇㅅㅓㄴ -15363
ㅎㅕㅂㅎㅚ -15364
▁ㅊㅏㅇㄱㅜ -15365
▁ㅅㅏㄱㄱㅏㅁ -15366
▁ㅇㅐㄱㅈㅓㅇ -15367
ric -15368
ㄹㅡㅂㅆㅡ -15369
▁ㅁㅣㄴㅈㅏ -15370
▁ㅈㅏㅇㅌㅐ -15371
▁Engine -15372
▁ㅎㅘㄴㅈㅓㄴ -15373
▁Wild -15374
▁ㄱㅡㅁㅈㅓㅇ -15375
▁269 -15376
▁Element -15377
trl -15378
ㄴㅕㅁㅍㅜㅁ -15379
▁;; -15380
ublic -15381
▁ㄱㅕㄴㅎㅝㄴ -15382
▁ㅂㅜㄴㄱㅘㅇ -15383
▁ㅂㅜㄹㅂㅗㄱ -15384
▁?" -15385
▁Hun -15386
▁IBM -15387
▁ㅅㅏㄴㄷㅗ -15388
▁ㅋㅗㅅㅅㅜ -15389
▁ㄴㅏㅁㄷㅗ -15390
▁ㅇㅏㅁㄷㅡ -15391
▁ㅂㅏㄴㄱㅗㅇ -15392
▁ㅇㅘㄴㅈㅏㅇ -15393
alth -15394
▁ㅈㅑㄴ -15395
▁ㅈㅏㅂㅎㅘ -15396
ㅁㅏㄹㄹㅣㄴ -15397
▁ㅇㅕㄱㄹㅣㄴ -15398
ㄱㅏㅎ -15399
▁ㅈㅓㅇㅁㅗ -15400
▁UD -15401
▁class -15402
▁ㄱㅕㅇㅁㅜ -15403
▁ㄹㅏㄹㄹㅏ -15404
▁ㅇㅐㄹㅂㅓ -15405
▁ㅎㅡㅇㄷㅓㄱ -15406
▁ㅎㅐㅆㅈㅏㄶㅇㅏ -15407
xy -15408
▁ㅈㅏㄱㅇㅕㄹ -15409
▁ㅅㅗㄴㅈㅓㄴㄷㅡㅇ -15410
▁Crazy -15411
▁ㅂㅔㄴㅊㅕ -15412
▁ㅁㅏㅇㅈㅓㄴ -15413
▁PSY -15414
▁ㄱㅜㄱㅊㅓㄹ -15415
▁ㄴㅏㅂㅈㅏㄱ -15416
▁ㅁㅜㄴㅇㅣㄴ -15417
▁ㅎㅡㅇㅇㅝㄴ -15418
sw -15419
ㅃㅜㄱ -15420
▁ㄴㅐㅇㅁㅕㄴ -15421
▁ㅋㅓㄴㅂㅔㄴ -15422
▁hellojo -15423
▁Evil -15424
▁Mich -15425
▁ㅂㅏㄴㅎㅐㅆ -15426
▁ㅋㅓㄴㅅㅓㄹ -15427
▁ㅇㅛㅇㅈㅣ -15428
▁ㅅㅏㅇㅈㅓㅁㄱㅏ -15429
ㅉㅡ -15430
▁336 -15431
AF -15432
ㄹㅓㄹㅆㅏ -15433
▁ㄱㅗㅇㅈㅣㄱㅈㅏ -15434
▁ㅊㅓㄱㅌㅏㄴㅂㅕㅇ -15435
56 -15436
▁KL -15437
orrow -15438
▁dark -15439
▁ㅎㅘㅇㄱㅛ -15440
▁ㅈㅓㅇㅇㅡㅂ -15441
▁ㅍㅗㄱㅍㅜㅇㅇㅜ -15442
▁VV -15443
▁533 -15444
▁comp -15445
▁ㅈㅏㅂㅇㅣ -15446
▁ㅎㅕㄹㅌㅜ -15447
▁ㅁㅜㄴㄷㅡㄱ -15448
▁ㅈㅓㅇㄷㅗㄴ -15449
▁ㅊㅣㄴㄸㅏㄹ -15450
▁ㄷㅜㄴㄱㅏㅁ -15451
▁Ze -15452
▁399 -15453
ㄷㅔㄱㅅㅡ -15454
▁first -15455
▁ㅈㅓㅂㅁㅗㄱ -15456
ㅎㅏㅁㅅㅜ -15457
▁ㅇㅣㅂㄷㅏㅁ -15458
abe -15459
▁Stop -15460
ㅊㅓㄴㅅㅜ -15461
▁ㄹㅔㅅㅊㅡ -15462
▁ㅁㅏㄴㅈㅏㅇㅇㅣㄹㅊㅣ -15463
▁BREAK -15464
▁Princ -15465
▁ㄲㅐㄴㄷㅏ -15466
ㅅㅗㄱㅊㅓㄹㄷㅗ -15467
▁PASS -15468
▁ㄹㅐㄴㄷㅓ -15469
cat -15470
▁~, -15471
ㅈㅐㄱ -15472
▁ㅇㅠㄴㅎㅏ -15473
ㅇㅡㄴㅍㅕㄴ -15474
▁ㅅㅏㅇㅋㅡㅁ -15475
ㅇㅓㅂㅇㅣㄴ -15476
▁296 -15477
ovideo -15478
▁ㄹㅜㅁㅁㅔ -15479
▁ㅈㅣㅇㅈㅗ -15480
▁ㄱㅣㅂㅅㅡㄴ -15481
▁ㅁㅏㅈㄷㅏㅎ -15482
▁070 -15483
ㄴㅣㄹㅈㅣ -15484
▁ㅂㅏㅂㅈㅜㄹ -15485
▁ㅍㅔㄴㅅㅣㅇ -15486
▁nicovideo -15487
▁ㅂㅏㄱㅈㅓㅇㅎㅕㄴ -15488
NER -15489
enz -15490
ips -15491
▁OL -15492
ㅆㄷㅏ -15493
▁bec -15494
ㅎㅕㅇㅅㅜ -15495
▁ㅈㅣㄴㅇㅜ -15496
ㅋㅠㄹㄹㅓㅁ -15497
ternal -15498
▁ㅊㅐㄱㅅㅏ -15499
ㄹㅑㅇㅈㅣㄴ -15500
ㅈㅣㄴㅍㅣㅇ -15501
▁ㅅㅗㅇㄱㅡㅁ -15502
▁ㅁㅏㅈㅇㅡㄴㅍㅕㄴ -15503
AV -15504
▁always -15505
OG -15506
ㄷㅏㄱㄸㅡ -15507
▁ㅅㅣㄹㅂㅔ -15508
▁ㄱㅗㄴㅂㅗㅇ -15509
▁project -15510
▁ㅎㅣㅁㄷㅡㄴㄷㅔ -15511
▁ㄲㅡㄶㅇㅣㅁㅇㅓㅄ -15512
▁ㅅㅣㄴㅇㅏㅇㅅㅣㅁ -15513
ㅅㅣㄴㅅㅜ -15514
▁Sword -15515
▁ㄱㅏㅅㄴㅏㄴ -15516
▁ㄷㅏㅇㅍㅏ -15517
▁ㅈㅓㅇㅁㅣㄴ -15518
▁ㅈㅣㅂㄴㅕㅁ -15519
▁ㅁㅏㅈㄷㅏㄱㄸㅡ -15520
ㅁㅏㅇㄷㅣ -15521
▁Adren -15522
▁317 -15523
▁Honey -15524
▁ㅁㅕㅇㅅㅗ -15525
▁ㄱㅕㅇㅂㅗㄱㄱㅜㅇ -15526
rap -15527
▁VII -15528
▁Code -15529
ㅅㅓㅇㄴㅡㅇ -15530
▁WS -15531
▁ㅈㅣㅂㅅㅣ -15532
▁ㄱㅡㅁㄱㅘㄴ -15533
▁ㅁㅏㄴㅇㅝㄹ -15534
ㅈㅓㅇㅈㅏ -15535
ㅌㅗㅇㅋㅏ -15536
▁ㄷㅓㅍㄱㅐ -15537
▁ㅎㅏㄱㄷㅗ -15538
▁ㄲㅡㄴㄲㅡㄴ -15539
▁ㅋㅏㄹㅈㅣㅂ -15540
mo -15541
▁kill -15542
▁ㅅㅐㄴㄱㅏ -15543
▁ㅋㅘㅇ -15544
ination -15545
EZ -15546
ㅂㅜㄴㅎㅣ -15547
▁ㅇㅡㅁㅊㅏ -15548
▁ㅈㅏㄱㅇㅓㅂㅈㅏㅇ -15549
▁Yo -15550
▁292 -15551
ㄴㅗㄹㄹㅣㅁ -15552
ㅋㅏㄹㄹㅏ -15553
▁ㅂㅕㅇㅁㅜ -15554
▁ㅇㅣㄹㄱㅘ -15555
▁ㅈㅗㄴㄴㅏ -15556
▁ㅎㅔㅅㄱㅏㄹㄹㅕ -15557
▁319 -15558
▁ㅅㅓㄴㄹㅖ -15559
▁3200 -15560
ㅅㅏㅇㅎㅗ -15561
▁ㅅㅏㄴㄱㅜㄴ -15562
▁ㅇㅗㄻㄱㅣㄴㄷㅏ -15563
▁ㄴㅖ -15564
▁ㅂㅓㄴㅈㅡ -15565
▁ㅅㅏㅇㅈㅓㄴ -15566
▁ㅊㅏㅇㅇㅓㅂㅈㅜ -15567
▁ㄹㅔㄱㅌㅓ -15568
▁ㅈㅏㅇㅇㅓ -15569
▁ㅇㅣㄱㅎㅕㅆ -15570
▁1906 -15571
▁ㅍㅏㄴㅂㅕㄹ -15572
ㅈㅣㅁㅇㅓㅄㅇㅣ -15573
▁ㅈㅣㅇㅂㅕㅇㅈㅔ -15574
ㅇㅣㄴㄱㅜ -15575
▁ㅂㅣㄹㄷㅓ -15576
▁ㅇㅣㄴㄷㅓㄱ -15577
▁LW -15578
▁CAN -15579
ITION -15580
▁ㄱㅗㅇㅇㅢ -15581
ㅁㅜㄹㅁㅕ -15582
▁ㅇㅕㅇㄴㅡㅇ -15583
▁ㅈㅓㅇㅍㅏㄴ -15584
▁ㅎㅗㅇㅅㅓㄹ -15585
89 -15586
aeboo -15587
▁ㄷㅏㄹㄹㅔㄱ -15588
ole -15589
▁ㅃㅣㅇ -15590
ㅈㅗㄱㅅㅜ -15591
▁Our -15592
▁show -15593
ㅊㅜㅅㄱㅏ -15594
▁ㅁㅏㅈㅅㅓㄹ -15595
▁ha -15596
▁TIME -15597
ㅁㅓㄱㅈㅣㄹ -15598
▁ㅅㅓㅇㅅㅣㅁ -15599
▁ㅅㅣㄴㅈㅗㄱ -15600
▁ㅈㅓㅁㅅㅓㅇ -15601
▁ㅇㅣㄹㅂㅗㄴㄷㅗ -15602
ev -15603
ashi -15604
▁ㅅㅛㅂ -15605
▁Dawn -15606
ㅇㅕㄴㅈㅜ -15607
ㅇㅣㅁㅊㅏ -15608
ㅈㅜㄴㅎㅕㅇ -15609
▁ㄱㅏㄹㄹㅣㅁ -15610
▁ㅅㅏㄹㅇㅣㄴㅈㅏ -15611
▁ㄱㅜㄱㅂㅏㅇㄱㅜㄴ -15612
49 -15613
▁Lim -15614
▁border -15615
▁ㅎㅏㄴㅇㅣㄹ -15616
ffer -15617
▁ㅍㅗㄱㄹㅚ -15618
▁ㅎㅣㅁㄱㅕ -15619
▁Galaxy -15620
▁ㅇㅏㄹㄹㅗㄴㅅㅗ -15621
▁ever -15622
ㅇㅡㅁㅍㅏ -15623
▁50000 -15624
▁ㄹㅔㄴㅊㅣ -15625
▁ㅋㅗㄹㄹㅓㅁ -15626
▁ㅎㅏㅇㅂㅓㅂ -15627
ㄲㅓㄱ -15628
▁ㅇㅡㅂㄴㅐ -15629
▁ㅈㅏㅇㄱㅗ -15630
▁ㄱㅕㄹㄹㅕㄹ -15631
83 -15632
ㄹㅣㅁㅅㅏ -15633
ㅇㅜㄴㅌㅏ -15634
▁ㄴㅏㄲㅇㅏ -15635
ㅎㅕㄹㅈㅣㄹ -15636
▁ㄱㅓㅁㄷㅏㄴ -15637
ㅇㅛㅇㅈㅜ -15638
▁Caeboo -15639
▁ㅎㅏㅇㅇㅣㄹ -15640
sm -15641
▁mp -15642
▁ㅅㅗㅇㅊㅏㅇㅅㅣㄱ -15643
▁ㅅㅣㄴㄱㅖ -15644
▁ㅇㅕㄱㅁㅜ -15645
▁ㅋㅓㅂㄹㅏ -15646
▁ㄴㅐㅇㅅㅗ -15647
▁ㅁㅣㄴㅎㅗ -15648
▁ㅁㅕㅇㅂㅏㄴ -15649
▁ㅅㅓㅇㄴㅕㄴ -15650
▁ㅎㅘㅇㅊㅜㅇ -15651
▁ㅂㅜㄱㄷㅗㅇㅉㅗㄱ -15652
▁font -15653
▁free -15654
ㅌㅣㄹㄷㅏ -15655
ㅎㅏㄱㅂㅜ -15656
▁ㄱㅘㄴㅊㅓㄹ -15657
▁ND -15658
▁Far -15659
ㄷㅓㄹㄱㅓ -15660
▁ㅇㅘㄴㅍㅏ -15661
ㅇㅜㄹㄹㅔㅅ -15662
▁ㄷㅓㅍㅂㅏㅂ -15663
▁ㅎㅔㄹㄹㅔㄴ -15664
/- -15665
aken -15666
▁LUK -15667
▁ㅅㅣㄹㅈㅐ -15668
▁ㅅㅓㄴㅇㅣㄴㅈㅏㅇ -15669
ㅅㅗㅂ -15670
▁WBC -15671
▁1001 -15672
ㅇㅛㅇㅎㅗ -15673
▁ㅁㅜㄴㅅㅏㄴ -15674
▁Tit -15675
ubeat -15676
▁ㄱㅣㅁㅅㅓㅇㅈㅜ -15677
▁folding -15678
▁ㅋㅓㄴㅂㅔㄴㅅㅕㄴ -15679
ㅇㅣㄴㄱㅘ -15680
ㅈㅗㅇㅎㅜㄴ -15681
ㅌㅔㄱㅌㅓ -15682
▁ㅈㅓㄱㅊㅜㄹ -15683
▁ㅍㅏㄴㄱㅡㅁ -15684
▁must -15685
▁ㅇㅘㅇㄹㅐ -15686
▁ㅁㅏㄹㅍㅜㅇㅅㅓㄴ -15687
▁ㅂㅏㄱㅇㅡㄴ -15688
▁ㅈㅜㅇㅎㅡㅇ -15689
▁ㅁㅓㅇㅎㅏ -15690
ko -15691
▁pp -15692
ㅊㅣㅇㅅㅡ -15693
▁ㅁㅓㄱㅇㅣㄴㄷㅏ -15694
▁ㅋㅓㅁㅍㅣㄹㄹㅔ -15695
▁Ham -15696
▁inf -15697
▁inline -15698
▁MID -15699
▁ZEX -15700
▁def -15701
▁ㄱㅏㄴㅅㅗ -15702
▁ㄱㅣㅁㅎㅛ -15703
▁ㅌㅐㄱㅌㅣㄱㅅㅡ -15704
▁ㄱㅕㅇㅊㅜㄴㅅㅓㄴ -15705
87 -15706
▁ㄱㅗㄹㅁㅗㄱㄱㅣㄹ -15707
▁Child -15708
▁ㄲㅗㅊㅁㅣ -15709
ㅂㅕㅇㄹㅕㄹ -15710
dom -15711
▁505 -15712
▁revision -15713
▁ㄹㅓㄱㅂㅣ -15714
▁ㅎㅏㅂㅂㅗㄴ -15715
▁ㅈㅓㄴㅁㅏㅇㄷㅐ -15716
▁412 -15717
▁ㅍㅣㅁ -15718
ㄷㅓㄱㅇㅣ -15719
ㅅㅕㄴㅅㅡ -15720
▁IX -15721
▁Ring -15722
ㅁㅕㅇㄷㅗ -15723
▁322 -15724
▁406 -15725
▁ㅁㅕㅇㄱㅏ -15726
▁ㅇㅏㅇㄱㅗ -15727
▁ㅁㅏㅇㅎㅏㄴㄷㅏ -15728
▁ㅈㅐㄴ -15729
▁ㄱㅡㄱㅊㅣ -15730
▁STANDARD -15731
▁ㄱㅏㅇㄹㅕㄱㅎㅣ -15732
▁npc -15733
▁ㄱㅣㅇ -15734
▁live -15735
ㅉㅏㄹㅇㅓㅄ -15736
▁ㄷㅡㅁㅃㅜㄱ -15737
▁ㅅㅐㅇㅅㅣㄱ -15738
▁ㅇㅑㄹㅉㅏㄹㅇㅓㅄ -15739
ㄲㅘㅇ -15740
▁349 -15741
▁ㄷㅡㅇㅂㅜ -15742
▁ㅈㅏㅇㄱㅜ -15743
ㄹㅓㄴㄷㅏ -15744
▁break -15745
▁ㄱㅣㅁㅊㅓㄴㅅㅣ -15746
▁ㄱㅣㅁㅇㅕㅇㅊㅓㄹ -15747
ㅂㅏㅇㄷㅐ -15748
▁ㅅㅏㅇㄱㅖ -15749
▁ㄹㅗㄹㅂㅐㄱ -15750
▁ㅁㅣㄴㅇㅕㅇㅎㅘ -15751
ㅇㅘㄴㅈㅣ -15752
▁12000 -15753
[...]
