[PAD]	0
[UNK]	0
[BOS]	0
[EOS]	0
[CLS]	0
[SEP]	0
[MASK]	0
▁▃	-0
▁ㅇ	-1
▁ㅇㅡ	-2
▁ㄷ	-3
▁.	-4
▁ㄱ	-5
▁ㅇㅔ	-6
ㅡㄴ	-7
▁ㄴ	-8
▁ㄷㅏ	-9
▁ㅇㅢ	-10
▁ㄴㅡㄴ	-11
▁ㄹ	-12
▁이	-13
▁,	-14
▁하	-15
▁ㅇㅡㄹ	-16
▁ㅎ	-17
▁ㅇㅣ	-18
ㅏㄴ	-19
▁ㅇㅡㄴ	-20
▁1	-21
ㅅㅓ	-22
ㅡㄹ	-23
▁ㄹㅡㄹ	-24
▁ㅇㅓ	-25
ㄹㅗ	-26
▁년	-27
▁ㄱㅗ	-28
▁ㅎㅏㄴ	-29
▁2	-30
▁ㄱㅏ	-31
▁있	-32
▁ㄹㅗ	-33
▁되	-34
▁ㅇㅕ	-35
▁대	-36
▁사	-37
ㄷㅏ	-38
▁ㅇㅓㅆ	-39
▁ㅎㅐ	-40
ㅁㅕ	-41
▁그	-42
ㅈㅣ	-43
▁일	-44
▁시	-45
▁ㄱㅘ	-46
▁지	-47
▁들	-48
▁수	-49
▁ㅎㅐㅆ	-50
▁기	-51
▁전	-52
▁적	-53
▁ㅇㅕㅆ	-54
▁ㅇㅘ	-55
▁20	-56
▁아	-57
▁ㄷㅗ	-58
▁가	-59
▁월	-60
▁제	-61
▁19	-62
▁ㅁㅕ	-63
▁ㅇㅣㄴ	-64
▁다	-65
▁ㄷㅚ	-66
▁정	-67
▁주	-68
▁ㅂ	-69
▁중	-70
▁자	-71
▁ㅈㅣ	-72
▁공	-73
▁ㄷㅚㄴ	-74
▁경	-75
▁개	-76
▁인	-77
ㅎㅐ	-78
▁ㄱㅣ	-79
▁ㅇㅏ	-80
▁세	-81
▁유	-82
▁것	-83
▁3	-84
▁조	-85
▁"	-86
▁ㄹㅏ	-87
▁부	-88
▁ㅎㅏㄴㄷㅏ	-89
▁등	-90
▁선	-91
▁ㄱㅔ	-92
▁성	-93
▁스	-94
▁연	-95
▁미	-96
▁동	-97
▁보	-98
▁마	-99
▁위	-100
▁상	-101
▁소	-102
▁오	-103
▁한	-104
ㄴㅏ	-105
▁고	-106
▁영	-107
▁구	-108
▁ㅁ	-109
▁국	-110
▁모	-111
▁도	-112
▁발	-113
ㄱㅗ	-114
▁비	-115
ㅓㄴ	-116
ㅎㅏㄴ	-117
▁201	-118
▁'	-119
▁여	-120
ㅕㅆ	-121
▁4	-122
▁나	-123
▁서	-124
▁ㅎㅏ	-125
▁ㅈ	-126
▁후	-127
ㄴㅡㄴ	-128
▁명	-129
▁신	-130
▁ㅅ	-131
ㅣㄴ	-132
▁프	-133
▁5	-134
▁관	-135
▁역	-136
▁ㅁㅕㄴ	-137
▁때	-138
▁200	-139
▁-	-140
▁장	-141
▁방	-142
▁의	-143
ㄹㄹ	-144
▁교	-145
▁ㄷㅓㄴ	-146
▁문	-147
▁만	-148
▁리	-149
▁ㅎㅏㄹ	-150
▁해	-151
▁ㄲ	-152
ㅌㅓ	-153
▁차	-154
▁바	-155
▁우	-156
▁ㅂㅜ	-157
ㅇㅡ	-158
▁무	-159
▁현	-160
▁생	-161
▁계	-162
▁원	-163
▁분	-164
▁군	-165
▁포	-166
▁노	-167
▁화	-168
▁6	-169
▁학	-170
▁당	-171
▁또	-172
▁남	-173
▁않	-174
▁작	-175
ㅇㅓ	-176
▁결	-177
▁ㄲㅏ	-178
▁ㅇㅏㅆ	-179
▁출	-180
▁같	-181
▁ㄴㅏ	-182
ㄱㅔ	-183
▁파	-184
▁내	-185
▁진	-186
▁강	-187
▁ㄷㅐ	-188
▁단	-189
▁7	-190
▁최	-191
▁번	-192
▁어	-193
▁받	-194
▁10	-195
▁반	-196
▁8	-197
▁ㄷㅚㄴㄷㅏ	-198
ㅜㄴ	-199
▁호	-200
▁ㅂㅗ	-201
▁배	-202
▁회	-203
▁초	-204
ㅁㅏㄴ	-205
▁데	-206
▁거	-207
▁형	-208
▁안	-209
▁예	-210
▁카	-211
▁실	-212
▁재	-213
▁에	-214
▁불	-215
▁말	-216
▁ㄸ	-217
▁ㅇㅟ	-218
▁로	-219
▁없	-220
▁두	-221
▁사용	-222
▁종	-223
ㄷㅔ	-224
▁9	-225
▁미국	-226
▁타	-227
▁라	-228
▁특	-229
▁이후	-230
▁요	-231
▁설	-232
▁과	-233
▁통	-234
▁함	-235
▁ㅈㅏ	-236
▁ㅁㅏㄴ	-237
▁ㅁㅕㄴㅅㅓ	-238
▁일본	-239
▁ㅌ	-240
▁코	-241
▁운	-242
▁산	-243
▁ㄴㅡㄴㄷㅔ	-244
▁권	-245
민국	-246
▁활	-247
▁독	-248
▁감	-249
▁레	-250
▁대한	-251
▁행	-252
▁다음	-253
▁왕	-254
▁추	-255
ㄱㅏ	-256
▁김	-257
▁음	-258
▁대한민국	-259
▁베	-260
▁지역	-261
▁크	-262
▁양	-263
ㅈㅣㄴ	-264
▁199	-265
▁평	-266
▁민	-267
▁및	-268
▁더	-269
ㄹㅏ	-270
▁참	-271
▁입	-272
▁12	-273
▁많	-274
▁매	-275
▁피	-276
▁경기	-277
▁18	-278
▁간	-279
▁목	-280
▁승	-281
▁프로	-282
▁대학	-283
▁다른	-284
▁건	-285
▁ㄱㅓ	-286
리아	-287
00	-288
▁;	-289
▁총	-290
스트	-291
ㅇㅎㅐ	-292
▁그리	-293
▁북	-294
▁S	-295
or	-296
▁집	-297
▁알	-298
▁법	-299
▁외	-300
▁11	-301
▁체	-302
▁각	-303
▁트	-304
▁때문	-305
▁시작	-306
▁천	-307
▁드	-308
▁임	-309
▁표	-310
▁직	-311
▁변	-312
▁ㅋ	-313
▁ㄸㅏ	-314
▁토	-315
ㅇㅜㄴ	-316
▁본	-317
▁&	-318
▁선수	-319
▁사람	-320
▁A	-321
▁팀	-322
▁처	-323
▁메	-324
▁함께	-325
▁물	-326
▁속	-327
▁그러	-328
▁한국	-329
▁또한	-330
▁점	-331
▁박	-332
▁투	-333
▁항	-334
▁ㅊ	-335
▁청	-336
▁브	-337
▁)	-338
▁세계	-339
▁영화	-340
▁저	-341
▁사이	-342
▁광	-343
▁게	-344
la	-345
▁C	-346
ㅈㅕ	-347
▁자신	-348
▁M	-349
▁용	-350
▁ㅇㅗ	-351
▁태	-352
▁국가	-353
▁약	-354
▁판	-355
▁경우	-356
▁ㅅㅣ	-357
▁디	-358
▁f	-359
▁달	-360
▁T	-361
▁야	-362
▁축	-363
▁복	-364
▁F	-365
▁기록	-366
▁현재	-367
시아	-368
ㄹㄹㅕ	-369
▁이름	-370
▁하나	-371
▁활동	-372
▁존	-373
▁편	-374
▁198	-375
ㅣㄴㄷㅏ	-376
▁삼	-377
▁확	-378
▁위치	-379
▁당시	-380
▁네	-381
▁가장	-382
▁ㅌㅗ	-383
▁열	-384
▁_	-385
▁테	-386
▁조선	-387
▁철	-388
▁학교	-389
주의	-390
▁ㅇㅕㅆㅇㅡ	-391
▁버	-392
▁리그	-393
▁가지	-394
▁(	-395
▁필	-396
▁올	-397
▁15	-398
▁그러나	-399
▁플	-400
▁증	-401
▁페	-402
▁금	-403
▁for	-404
ㅈㅕㅆ	-405
mu	-406
▁루	-407
▁뒤	-408
▁째	-409
▁대표	-410
▁백	-411
▁창	-412
ㅂㅜ	-413
▁언	-414
▁역사	-415
ㄹㅓ	-416
레이	-417
▁ㅅㅓ	-418
mula	-419
▁formula	-420
▁식	-421
▁연구	-422
▁치	-423
▁16	-424
▁근	-425
ㄴㅐ	-426
▁병	-427
▁프랑	-428
▁또는	-429
▁/	-430
▁심	-431
▁합	-432
▁ㅌㅗㅇㅎㅐ	-433
▁사회	-434
▁황	-435
ㄴㅏㄴ	-436
▁그리고	-437
▁규	-438
▁애	-439
▁시즌	-440
▁D	-441
▁m	-442
▁0	-443
ㅇㅕ	-444
▁살	-445
▁ㅎㅐㅆㅇㅡ	-446
▁ㅁㅗ	-447
▁충	-448
▁17	-449
▁순	-450
ㅇㅑ	-451
▁클	-452
▁첫	-453
▁B	-454
ㅇㅏ	-455
▁]	-456
▁197	-457
▁따	-458
▁[	-459
랜드	-460
▁히	-461
▁완	-462
▁중국	-463
ㄴㅏㅆ	-464
▁ㅆ	-465
▁협	-466
▁아니	-467
▁시대	-468
▁다시	-469
▁K	-470
▁정부	-471
▁서울	-472
▁:	-473
▁프랑스	-474
▁I	-475
▁ㅂㅏ	-476
학교	-477
▁영국	-478
▁패	-479
▁ㄴㅡㄴㄷㅏ	-480
▁높	-481
▁전쟁	-482
▁k	-483
▁은	-484
▁만들	-485
ㄹㅡㄴ	-486
▁도시	-487
▁포함	-488
▁뜻	-489
▁문화	-490
▁여러	-491
▁196	-492
▁14	-493
ㅁㅕㄴ	-494
▁채	-495
▁독일	-496
▁대회	-497
▁~	-498
▁ㅅㅐ	-499
▁아이	-500
▁키	-501
ㅇㅝ	-502
er	-503
▁축구	-504
▁13	-505
▁g	-506
▁면	-507
▁P	-508
ㅣㄹ	-509
▁뉴	-510
▁위원	-511
▁정치	-512
ㅊㅕ	-513
▁가능	-514
▁곡	-515
▁별	-516
in	-517
ㄹㅇㅓ	-518
▁모두	-519
▁ㅋㅡㄴ	-520
▁동안	-521
▁환	-522
▁방송	-523
▁감독	-524
▁모든	-525
▁이상	-526
▁배우	-527
▁문제	-528
▁구성	-529
▁쓰	-530
▁194	-531
▁개발	-532
▁손	-533
▁친	-534
▁일부	-535
▁석	-536
▁L	-537
▁l	-538
▁길	-539
▁대학교	-540
▁지방	-541
▁제작	-542
ㄹㅕ	-543
▁논	-544
▁사건	-545
▁ㅇㅏㄹㄹㅕ	-546
▁처음	-547
▁허	-548
▁ㄴㅐ	-549
▁취	-550
▁죽	-551
▁국제	-552
▁검	-553
▁ㅍ	-554
ㅇㅘ	-555
▁%	-556
▁러	-557
▁농	-558
라이	-559
▁작품	-560
▁이용	-561
▁캐	-562
▁관계	-563
▁니	-564
▁세기	-565
▁게임	-566
▁ㄷㅚㄹ	-567
▁시간	-568
▁골	-569
ㄱㅕ	-570
▁일반	-571
▁새	-572
▁G	-573
▁ㅁㅏ	-574
▁씨	-575
▁운동	-576
▁교육	-577
▁존재	-578
▁인구	-579
▁폭	-580
▁N	-581
▁정도	-582
▁급	-583
▁주장	-584
▁gt	-585
▁음악	-586
▁곳	-587
▁효	-588
▁즉	-589
니아	-590
ㄹㅗㄱ	-591
▁티	-592
on	-593
▁195	-594
▁km	-595
▁육	-596
리스	-597
▁경제	-598
▁섬	-599
▁중심	-600
▁ㅎㅏㅁ	-601
▁lt	-602
▁선거	-603
▁U	-604
▁전투	-605
▁R	-606
▁ㄹㅕ	-607
▁돌	-608
▁쿠	-609
▁극	-610
▁이러	-611
▁ㄷㅙ	-612
▁30	-613
▁블	-614
▁발견	-615
이스	-616
통령	-617
화국	-618
▁귀	-619
▁날	-620
▁절	-621
▁H	-622
▁민주	-623
부분	-624
▁기술	-625
▁E	-626
▁홍	-627
▁글	-628
▁올림	-629
▁측	-630
▁발표	-631
▁맡	-632
▁ㅌㅐ	-633
▁암	-634
▁구조	-635
▁결과	-636
ㄹㄹㅏ	-637
▁밀	-638
▁아들	-639
▁사망	-640
▁영향	-641
▁터	-642
▁2010	-643
▁우승	-644
▁막	-645
▁시키	-646
▁책	-647
▁의미	-648
▁엔	-649
▁대통령	-650
▁공격	-651
▁올림픽	-652
▁대부분	-653
▁과정	-654
an	-655
▁케	-656
▁라이	-657
▁관련	-658
ㅎㅐㅆ	-659
▁송	-660
▁슈	-661
▁프로그	-662
▁질	-663
000	-664
▁지원	-665
리카	-666
▁앨	-667
▁향	-668
▁업	-669
▁ㄸㅓ	-670
▁접	-671
▁잘	-672
▁193	-673
▁참여	-674
▁담	-675
▁발생	-676
ㅆㅓ	-677
▁유럽	-678
▁중앙	-679
▁헤	-680
ㄷㅗ	-681
▁끝	-682
▁봉	-683
▁준	-684
ㄴㄷㅏ	-685
▁진행	-686
ㄹㄹㅣㄴ	-687
20	-688
▁행정	-689
란드	-690
▁c	-691
▁독립	-692
▁앞	-693
▁최초	-694
ㅇㅗ	-695
▁범	-696
▁고등	-697
▁얻	-698
▁25	-699
▁자유	-700
▁부분	-701
▁설립	-702
▁결정	-703
▁형태	-704
▁제국	-705
▁특히	-706
▁다양	-707
▁ㅅㅔ	-708
▁폐	-709
지만	-710
▁ㄷㅙㅆ	-711
▁설치	-712
▁탄	-713
▁발매	-714
▁ㄷㅡㄹ	-715
나라	-716
▁ㅁㅗㅅ	-717
▁상태	-718
▁W	-719
▁초등	-720
버지	-721
▁2008	-722
▁악	-723
▁이전	-724
▁소속	-725
▁못	-726
▁온	-727
▁탈	-728
▁스타	-729
▁러시아	-730
▁좌	-731
ㄹㄹㅓ	-732
▁누	-733
▁센	-734
디오	-735
▁침	-736
▁21	-737
우스	-738
▁잡	-739
▁사실	-740
▁르	-741
▁하지만	-742
▁그녀	-743
▁줄	-744
▁프로그램	-745
▁같이	-746
▁로마	-747
▁인민	-748
ㄴㅣ	-749
▁폴	-750
▁참가	-751
ㅇㅕㅆ	-752
▁타이	-753
▁ㅇㅣㄴㅎㅐ	-754
▁여성	-755
▁나라	-756
▁정보	-757
▁조직	-758
▁2012	-759
▁2011	-760
▁갖	-761
▁등장	-762
▁주로	-763
▁맞	-764
ㅜㄹ	-765
▁주요	-766
▁ㅊㅓ	-767
▁싱	-768
▁출신	-769
▁운영	-770
▁혼	-771
▁관리	-772
▁기준	-773
▁이탈	-774
▁필요	-775
▁생각	-776
▁ㅃ	-777
ㄴㅐㅆ	-778
▁2009	-779
▁지정	-780
▁계획	-781
▁위원회	-782
en	-783
▁2014	-784
▁머	-785
▁100	-786
▁2007	-787
▁ㅂㅓ	-788
▁기관	-789
▁이것	-790
▁여자	-791
▁윤	-792
▁생산	-793
▁좋	-794
▁중요	-795
▁음반	-796
▁t	-797
▁시절	-798
▁바이	-799
▁상대	-800
ㄹㄹㅕㅆ	-801
ㄹㅓㅁ	-802
ㅋㅕㅆ	-803
▁콘	-804
▁성공	-805
▁a	-806
▁데이	-807
▁이루	-808
▁계속	-809
▁데뷔	-810
▁2013	-811
▁O	-812
▁국민	-813
▁철도	-814
▁매우	-815
▁레이	-816
ㅇㅎㅏㄴ	-817
▁갈	-818
▁대전	-819
▁ㄱㅡ	-820
▁시스	-821
▁해당	-822
▁사업	-823
리즈	-824
▁과학	-825
he	-826
프트	-827
▁발전	-828
▁생활	-829
▁고려	-830
▁칼	-831
▁팔	-832
▁이탈리아	-833
▁방법	-834
▁생애	-835
스터	-836
▁아버지	-837
르크	-838
▁와	-839
▁몇	-840
▁191	-841
▁묘	-842
▁커	-843
▁자리	-844
▁초기	-845
▁따르	-846
▁2015	-847
▁23	-848
라마	-849
▁24	-850
▁2018	-851
ar	-852
이션	-853
레스	-854
▁월드	-855
▁헌	-856
▁2016	-857
남도	-858
▁출연	-859
▁000	-860
▁내용	-861
ㅈㅣㄴㄷㅏ	-862
▁앨범	-863
▁차지	-864
▁억	-865
▁보이	-866
▁인도	-867
▁최고	-868
▁그룹	-869
▁쇼	-870
ㄹㅣㄴ	-871
▁시리즈	-872
ㄹㅇㅏ	-873
▁능	-874
▁ㅇㅑ	-875
▁마이	-876
▁후보	-877
▁J	-878
▁평가	-879
▁엘	-880
▁ㅇㅣㄹ	-881
es	-882
▁아래	-883
▁고등학교	-884
▁22	-885
FA	-886
ㄺㅎ	-887
▁결국	-888
▁2006	-889
이트	-890
▁전체	-891
▁방식	-892
▁회사	-893
▁그리스	-894
▁개요	-895
▁이유	-896
▁ㅅㅏ	-897
비아	-898
▁수상	-899
▁분류	-900
▁192	-901
▁ㅈㅕㅆ	-902
▁한편	-903
▁스페	-904
▁연합	-905
▁층	-906
▁2017	-907
▁격	-908
▁항공	-909
▁인터	-910
▁공식	-911
▁제공	-912
▁드라마	-913
▁시기	-914
▁정의	-915
▁우리	-916
▁풍	-917
▁인간	-918
ㄴㅎㅏㄴ	-919
ㅌㅏ	-920
▁의원	-921
▁시스템	-922
▁컴	-923
▁역할	-924
운데	-925
▁군사	-926
▁많이	-927
▁ㅂㅏㄺㅎ	-928
▁조사	-929
▁제도	-930
▁못하	-931
▁출전	-932
▁기업	-933
▁워	-934
▁유명	-935
▁민족	-936
▁몸	-937
▁가운데	-938
▁빌	-939
▁얼	-940
▁기능	-941
▁반대	-942
ㅇㅘㅆ	-943
▁텔	-944
▁s	-945
▁거의	-946
▁교회	-947
비스	-948
▁지구	-949
▁ㅈㅣㄴ	-950
▁언어	-951
▁ㄷㅡㄹㅇㅓ	-952
▁목록	-953
▁ㅂㅗㄹ	-954
▁현대	-955
ㅇㅣㄴ	-956
▁색	-957
▁표현	-958
▁ㅇㅡㅁ	-959
▁대신	-960
▁유지	-961
▁ㄹㅏㄴ	-962
▁개인	-963
▁특별	-964
ㅇㅣㄴㄷㅏ	-965
▁잠	-966
▁26	-967
▁홈	-968
ㅜㄴㄷㅏ	-969
▁대상	-970
▁이론	-971
▁!	-972
at	-973
▁응	-974
▁규모	-975
▁야구	-976
▁동시	-977
▁자연	-978
▁류	-979
▁프리	-980
▁연결	-981
야기	-982
▁노동	-983
▁공개	-984
▁ㄱㅓㄹ	-985
▁녹	-986
▁지도	-987
▁2019	-988
▁28	-989
▁이르	-990
▁특징	-991
▁모습	-992
▁이미	-993
▁진출	-994
▁27	-995
▁각각	-996
▁마지	-997
▁단체	-998
▁졸	-999
▁승리	-1000
▁브라	-1001
▁핵	-1002
▁V	-1003
▁인정	-1004
▁목적	-1005
▁정책	-1006
▁여기	-1007
▁2005	-1008
ㅋㅕ	-1009
▁웨	-1010
▁2000	-1011
▁인물	-1012
▁산업	-1013
북도	-1014
▁시장	-1015
▁기원	-1016
▁임명	-1017
▁플레이	-1018
▁울	-1019
▁족	-1020
▁상황	-1021
▁아르	-1022
▁마지막	-1023
ㅊㅕㅆ	-1024
▁전문	-1025
▁구역	-1026
▁수도	-1027
▁난	-1028
▁기간	-1029
머니	-1030
▁이야기	-1031
ㄱㅏㅆ	-1032
▁경상	-1033
ㄹㅕㅆ	-1034
ㄴㅣㄴ	-1035
▁희	-1036
ic	-1037
al	-1038
▁모델	-1039
▁혁	-1040
스크	-1041
▁직접	-1042
어지	-1043
▁ㅇㅘㅆ	-1044
ㅂㄴㅣ	-1045
▁ㅊㅣ	-1046
▁밴	-1047
▁오스트	-1048
▁서로	-1049
▁압	-1050
▁계약	-1051
ㄱㅕㅆ	-1052
▁건설	-1053
▁불리	-1054
▁ㅇㅣㄹㅇㅓ	-1055
▁추가	-1056
▁FC	-1057
▁힘	-1058
BS	-1059
▁개최	-1060
▁ㅇㅗㄹㄹㅏ	-1061
▁2004	-1062
▁공동	-1063
▁ㅇㅕㄹㄹㅣㄴ	-1064
▁콜	-1065
▁공간	-1066
▁먹	-1067
▁건물	-1068
▁경찰	-1069
▁결혼	-1070
▁샤	-1071
▁형성	-1072
ㅇㅝㅆ	-1073
▁눈	-1074
▁푸	-1075
▁노선	-1076
▁사상	-1077
▁활약	-1078
▁기타	-1079
▁50	-1080
▁스페인	-1081
▁TV	-1082
▁훈	-1083
▁찾	-1084
▁자동	-1085
▁변화	-1086
▁부산	-1087
▁31	-1088
▁국회	-1089
▁ㄱㅘㄴㅎㅏㄴ	-1090
학자	-1091
▁변경	-1092
▁거리	-1093
▁29	-1094
▁졸업	-1095
ㅋㅣㄴㄷㅏ	-1096
▁칸	-1097
ㄷㅡㄴ	-1098
▁넘	-1099
▁교수	-1100
▁b	-1101
▁ㄴㅣ	-1102
▁텔레	-1103
▁노래	-1104
▁공화국	-1105
is	-1106
▁경력	-1107
ㄹㅣ	-1108
it	-1109
▁나이	-1110
re	-1111
▁마을	-1112
▁벨	-1113
▁인민공	-1114
이드	-1115
▁의하	-1116
▁뿐	-1117
▁인민공화국	-1118
▁궁	-1119
▁완전	-1120
▁망	-1121
▁그것	-1122
비전	-1123
▁클럽	-1124
▁퍼	-1125
▁2020	-1126
▁너	-1127
ㅇㅗㄴ	-1128
▁부르	-1129
▁190	-1130
▁휴	-1131
▁사랑	-1132
▁비롯	-1133
▁서비스	-1134
▁학생	-1135
▁ㅈㅓ	-1136
ㅎㅏㄴㄷㅏ	-1137
▁역시	-1138
ou	-1139
▁비판	-1140
▁맥	-1141
▁ㄱㅜ	-1142
▁둘	-1143
▁중학교	-1144
▁볼	-1145
▁ㅂㅣ	-1146
▁보통	-1147
어나	-1148
운드	-1149
▁실제	-1150
프리카	-1151
▁최대	-1152
▁잉	-1153
▁보호	-1154
▁의회	-1155
▁소설	-1156
▁슬	-1157
▁탑	-1158
▁요구	-1159
▁가수	-1160
거리	-1161
▁중화	-1162
▁론	-1163
▁전국	-1164
▁우주	-1165
▁속하	-1166
▁지금	-1167
▁기본	-1168
▁메이	-1169
▁낮	-1170
▁종교	-1171
대로	-1172
▁나타	-1173
▁다이	-1174
▁지지	-1175
ㄹㅡㄴㄷㅏ	-1176
▁지하	-1177
르트	-1178
▁ㅅㅡ	-1179
▁ㄸㅓㄹㅇㅓ	-1180
▁시설	-1181
역시	-1182
▁실시	-1183
▁황제	-1184
▁ㄱㅔㅆ	-1185
▁싱글	-1186
▁판매	-1187
▁자기	-1188
▁전통	-1189
▁혹	-1190
ㅈㅏ	-1191
▁ㄷㅡ	-1192
▁차이	-1193
▁없이	-1194
▁밴드	-1195
ㄷㅡㄹ	-1196
▁퇴	-1197
▁옥	-1198
▁달리	-1199
▁기반	-1200
▁ㅅㅗ	-1201
▁운행	-1202
▁원래	-1203
▁2002	-1204
▁탐	-1205
▁견	-1206
ㅏㄴㄷㅏ	-1207
▁따라	-1208
ㄹㅜ	-1209
▁자료	-1210
로스	-1211
▁교통	-1212
▁경기도	-1213
▁ㄴㅗ	-1214
▁명칭	-1215
▁세력	-1216
▁환경	-1217
▁가족	-1218
▁딸	-1219
▁40	-1220
▁어떤	-1221
▁위하	-1222
▁센터	-1223
▁설명	-1224
스탄	-1225
▁몰	-1226
▁소련	-1227
▁2003	-1228
▁승강	-1229
▁ㅁㅜ	-1230
▁월드컵	-1231
▁전기	-1232
▁수행	-1233
▁겸	-1234
▁ㄷㅗㄹㅇㅏ	-1235
▁ㅁㅗㅅㅎㅐㅆ	-1236
▁회의	-1237
▁ㅆㅡ	-1238
▁애니	-1239
▁뮤	-1240
▁공연	-1241
▁전자	-1242
▁모양	-1243
러스	-1244
▁컵	-1245
나다	-1246
▁도쿄	-1247
▁부대	-1248
▁기념	-1249
▁분야	-1250
▁그래	-1251
▁교황	-1252
▁텔레비전	-1253
▁예술	-1254
▁기독	-1255
▁사고	-1256
▁밖	-1257
le	-1258
▁이동	-1259
mp	-1260
▁통합	-1261
▁도입	-1262
▁ㅈㅓㄴ	-1263
▁남자	-1264
▁동물	-1265
▁연방	-1266
▁나오	-1267
▁작업	-1268
▁염	-1269
▁득	-1270
▁놓	-1271
▁차량	-1272
▁선정	-1273
▁행동	-1274
▁소프트	-1275
▁=	-1276
▁작용	-1277
▁문학	-1278
▁전라	-1279
스타	-1280
의원	-1281
▁따라서	-1282
▁능력	-1283
▁ㅈㅜ	-1284
▁ㅇㅗㄴ	-1285
▁할	-1286
▁출시	-1287
▁도로	-1288
▁군대	-1289
▁벌	-1290
▁숙	-1291
너지	-1292
ㅊㅣㄴ	-1293
▁바로	-1294
▁기독교	-1295
▁방향	-1296
▁승강장	-1297
▁남쪽	-1298
▁형식	-1299
▁행위	-1300
▁지휘	-1301
▁기존	-1302
▁확인	-1303
▁증가	-1304
▁북쪽	-1305
ㄲㅏ	-1306
▁작가	-1307
▁혁명	-1308
▁효과	-1309
▁십	-1310
▁국내	-1311
ㅇㅎㅐㅆ	-1312
▁제외	-1313
▁작곡	-1314
▁과거	-1315
▁비슷	-1316
▁FI	-1317
▁이때	-1318
▁ㅁㅡ	-1319
▁윌	-1320
▁빈	-1321
▁ㅃㅏ	-1322
▁ㅇㅏㄹ	-1323
▁주변	-1324
▁어머니	-1325
▁열차	-1326
▁태양	-1327
▁캐나다	-1328
▁컴퓨	-1329
▁낙	-1330
▁몽	-1331
▁역임	-1332
▁왕국	-1333
▁ㄷㅜ	-1334
▁종류	-1335
▁사무	-1336
▁챔	-1337
▁유일	-1338
▁이적	-1339
▁뉴욕	-1340
▁착	-1341
▁비교	-1342
BC	-1343
▁협회	-1344
▁높이	-1345
▁솔	-1346
리오	-1347
▁남부	-1348
▁혹은	-1349
▁정당	-1350
▁스포	-1351
▁ㄷㅓ	-1352
▁추정	-1353
▁흥	-1354
자리	-1355
▁지배	-1356
▁공산	-1357
▁반응	-1358
▁건축	-1359
▁육군	-1360
▁베이	-1361
▁1990	-1362
▁성장	-1363
▁ㅅㅗㄱ	-1364
▁시민	-1365
▁담당	-1366
▁2001	-1367
▁흐	-1368
▁이사	-1369
▁동일	-1370
▁런	-1371
▁넓	-1372
▁적용	-1373
▁개념	-1374
▁장관	-1375
▁즈	-1376
▁버스	-1377
▁X	-1378
▁ㄱㅓㄴ	-1379
▁획	-1380
▁스트	-1381
▁홀	-1382
▁대사	-1383
ㄱㅣㄴ	-1384
▁이끌	-1385
▁윈	-1386
▁인기	-1387
▁챔피	-1388
▁공사	-1389
▁동쪽	-1390
▁세포	-1391
▁구간	-1392
▁데이터	-1393
메이션	-1394
▁p	-1395
▁ㅁㅏㄴㄷㅡㄴ	-1396
▁컴퓨터	-1397
▁사단	-1398
▁멤	-1399
▁예정	-1400
▁에너지	-1401
▁갑	-1402
▁품	-1403
▁징	-1404
▁크기	-1405
▁쪽	-1406
▁디자	-1407
▁작전	-1408
▁오늘	-1409
▁맨	-1410
▁조지	-1411
▁민주주의	-1412
▁189	-1413
▁마음	-1414
▁마르	-1415
▁상당	-1416
▁ㄹㅓ	-1417
이지	-1418
▁곧	-1419
▁조건	-1420
▁서쪽	-1421
▁차례	-1422
▁충청	-1423
▁흑	-1424
▁액	-1425
▁버전	-1426
▁돈	-1427
▁록	-1428
▁FIFA	-1429
▁대하	-1430
ㅎㅏ	-1431
▁애니메이션	-1432
▁ㅂㅗㄴ	-1433
▁넣	-1434
▁엄	-1435
▁실패	-1436
▁연기	-1437
▁율	-1438
▁땅	-1439
▁자체	-1440
ㄴㅐㄴ	-1441
▁잔	-1442
▁다르	-1443
▁특정	-1444
▁수록	-1445
▁나가	-1446
▁컨	-1447
▁선언	-1448
버스	-1449
▁고대	-1450
▁덕	-1451
▁방영	-1452
▁어느	-1453
▁쌍	-1454
드리	-1455
▁d	-1456
ㅜㅁ	-1457
▁페르	-1458
▁이런	-1459
▁연주	-1460
▁피해	-1461
카이	-1462
▁공항	-1463
▁결승	-1464
▁국립	-1465
▁체제	-1466
▁연속	-1467
▁부족	-1468
▁이어	-1469
el	-1470
▁멤버	-1471
▁해군	-1472
▁선택	-1473
▁내부	-1474
▁규정	-1475
▁대체	-1476
▁대구	-1477
et	-1478
웨어	-1479
▁조약	-1480
▁아시아	-1481
루스	-1482
▁개혁	-1483
▁속도	-1484
▁헌법	-1485
▁선출	-1486
▁연대	-1487
▁북부	-1488
가지	-1489
▁지명	-1490
▁정신	-1491
글랜드	-1492
▁단계	-1493
▁명령	-1494
▁최종	-1495
▁포르	-1496
▁기원전	-1497
▁입단	-1498
▁크리스	-1499
▁인천	-1500
ion	-1501
▁설계	-1502
▁풀	-1503
▁자치	-1504
▁가치	-1505
▁영어	-1506
▁들어	-1507
▁로스	-1508
▁분석	-1509
▁왜	-1510
▁치료	-1511
▁옛	-1512
▁물질	-1513
▁관할	-1514
▁물리	-1515
▁ㄴㅡㄴㅈㅣ	-1516
▁ㅂㅏㄺㅎㅕㅆ	-1517
▁출판	-1518
▁최근	-1519
ing	-1520
▁ㅇㅗㄻ	-1521
▁체계	-1522
트남	-1523
▁ㄱㅓㄹㅊㅕ	-1524
▁친구	-1525
▁비행	-1526
▁ㅇㅣㄹㅇㅡ	-1527
▁의사	-1528
▁달러	-1529
▁논란	-1530
▁척	-1531
ㅈㅊ	-1532
▁평균	-1533
▁1999	-1534
▁밤	-1535
▁표준	-1536
▁강화	-1537
시마	-1538
21	-1539
▁ㅇㅔㄴ	-1540
메리카	-1541
ol	-1542
▁스포츠	-1543
라스	-1544
▁소비	-1545
▁배치	-1546
▁함수	-1547
▁제품	-1548
▁ㅅㅐㅇ	-1549
▁잉글랜드	-1550
▁술	-1551
▁북한	-1552
▁익	-1553
▁1998	-1554
▁집단	-1555
▁대중	-1556
▁더욱	-1557
▁하이	-1558
▁예선	-1559
▁팬	-1560
▁부문	-1561
▁법원	-1562
▁걸	-1563
▁Y	-1564
▁쥐	-1565
▁헬	-1566
▁하계	-1567
널리	-1568
▁후반	-1569
ㅡㅁ	-1570
▁ㅂㅜㄹㄹㅓ	-1571
▁머리	-1572
▁실험	-1573
스코	-1574
▁공원	-1575
▁확장	-1576
▁cm	-1577
▁획득	-1578
▁관심	-1579
▁분리	-1580
▁언급	-1581
▁o	-1582
▁스테	-1583
▁유사	-1584
▁개월	-1585
▁1980	-1586
▁배경	-1587
▁씩	-1588
▁현상	-1589
▁파리	-1590
▁벤	-1591
▁선발	-1592
▁뛰	-1593
ㄴㅏㄴㄷㅏ	-1594
▁처리	-1595
▁문자	-1596
▁조정	-1597
리지	-1598
▁지속	-1599
▁엔진	-1600
▁재판	-1601
디어	-1602
▁부상	-1603
▁60	-1604
▁베르	-1605
▁챔피언	-1606
▁먼	-1607
▁목표	-1608
▁ㅆㅓ	-1609
▁요소	-1610
▁유래	-1611
▁35	-1612
▁주민	-1613
▁편성	-1614
▁통일	-1615
▁정규	-1616
▁당하	-1617
▁소유	-1618
▁마리	-1619
▁공립	-1620
▁구단	-1621
▁가리	-1622
▁흔	-1623
▁겨	-1624
▁외국	-1625
▁자동차	-1626
렇게	-1627
ㅣㅁ	-1628
▁시험	-1629
▁맺	-1630
▁ㅋㅓ	-1631
▁칭	-1632
▁시도	-1633
▁에스	-1634
▁장군	-1635
▁거주	-1636
▁도움	-1637
▁지나	-1638
▁꽃	-1639
▁주도	-1640
▁mm	-1641
▁원자	-1642
▁나무	-1643
▁링	-1644
▁이해	-1645
▁요시	-1646
▁행사	-1647
▁점령	-1648
▁네덜	-1649
▁네덜란드	-1650
▁기사	-1651
▁파이	-1652
▁디자인	-1653
▁주인	-1654
ㅂㅎ	-1655
▁ㄴㅡ	-1656
▁ㄱㅣㄴ	-1657
▁통신	-1658
▁캠	-1659
▁웹	-1660
▁n	-1661
▁원인	-1662
▁투표	-1663
▁본선	-1664
▁고속	-1665
광역시	-1666
▁학자	-1667
▁불교	-1668
ㄹㄹㅣㄴㄷㅏ	-1669
▁앤	-1670
▁혈	-1671
ㅇㅔ	-1672
▁사령	-1673
▁동맹	-1674
▁결합	-1675
▁ㅇㅣㅁ	-1676
▁언론	-1677
▁안정	-1678
▁은퇴	-1679
▁아프리카	-1680
▁개봉	-1681
▁일종	-1682
▁장치	-1683
젝트	-1684
▁준비	-1685
▁용어	-1686
▁알렉	-1687
▁앙	-1688
om	-1689
나무	-1690
▁붙	-1691
▁수준	-1692
▁ㄷㅔ	-1693
야마	-1694
▁베트남	-1695
▁느	-1696
▁1997	-1697
▁길이	-1698
▁성적	-1699
▁구분	-1700
▁문서	-1701
▁광주	-1702
▁비디오	-1703
▁촉	-1704
일랜드	-1705
▁깊	-1706
▁유전	-1707
▁사진	-1708
▁아마	-1709
▁바르	-1710
▁불구	-1711
▁방문	-1712
▁제조	-1713
▁가문	-1714
▁신문	-1715
▁휘	-1716
ㅅㅓㄴ	-1717
▁가정	-1718
▁정권	-1719
▁정리	-1720
st	-1721
▁요리	-1722
▁책임	-1723
▁폴란드	-1724
▁싸	-1725
메달	-1726
▁칠	-1727
▁1996	-1728
▁일제	-1729
▁amp	-1730
▁분포	-1731
▁서식	-1732
▁1995	-1733
▁The	-1734
▁핀	-1735
▁ㄲㅡ	-1736
▁정확	-1737
▁ㄱㅏㅆ	-1738
▁그림	-1739
▁평화	-1740
▁해석	-1741
▁32	-1742
▁경험	-1743
▁ㅇㅣㄴㄷㅔ	-1744
▁ㅈㅜㄹ	-1745
▁프로젝트	-1746
▁왕조	-1747
ㅂㅗ	-1748
▁통과	-1749
▁ㅇㅗㄹㄹㅏㅆ	-1750
▁부인	-1751
▁오늘날	-1752
▁추진	-1753
▁ㅁㅓㄴ	-1754
▁70	-1755
▁믿	-1756
스턴	-1757
▁밝	-1758
▁런던	-1759
▁부여	-1760
▁덴	-1761
▁멸	-1762
▁찬	-1763
인트	-1764
특별	-1765
▁방어	-1766
▁종합	-1767
▁병원	-1768
▁프레	-1769
▁슈퍼	-1770
▁인터넷	-1771
▁몬	-1772
▁폐지	-1773
ㅇㅓㅆ	-1774
▁통치	-1775
▁경기장	-1776
▁아직	-1777
▁경쟁	-1778
▁신라	-1779
▁경영	-1780
▁빠	-1781
▁거두	-1782
▁쉽	-1783
▁영역	-1784
▁이곳	-1785
ㅎㅏㄹ	-1786
스로	-1787
ㅁㅡ	-1788
▁빛	-1789
▁미사	-1790
▁만화	-1791
▁면적	-1792
▁입장	-1793
웨이	-1794
▁ㄴㅓ	-1795
▁훈련	-1796
▁500	-1797
▁주제	-1798
▁습	-1799
▁발달	-1800
▁보도	-1801
▁제주	-1802
▁총리	-1803
▁널리	-1804
▁이듬	-1805
▁부정	-1806
레일	-1807
▁츠	-1808
▁생물	-1809
▁미술	-1810
▁도서	-1811
▁국회의원	-1812
am	-1813
▁움	-1814
▁ㅆㅡㄴ	-1815
▁번호	-1816
▁노력	-1817
▁ㅊㅏ	-1818
▁파괴	-1819
▁the	-1820
▁멀	-1821
▁80	-1822
▁주연	-1823
▁ㅍㅕ	-1824
▁제안	-1825
▁기여	-1826
▁식민	-1827
▁회장	-1828
▁서부	-1829
▁삼성	-1830
▁복귀	-1831
▁궤	-1832
▁행성	-1833
▁UE	-1834
라인	-1835
▁값	-1836
리트	-1837
▁일어나	-1838
▁민주당	-1839
▁야마	-1840
▁오르	-1841
▁188	-1842
▁라디오	-1843
▁법률	-1844
▁연맹	-1845
▁빅	-1846
▁남성	-1847
▁이듬해	-1848
▁세대	-1849
▁+	-1850
▁외교	-1851
▁경계	-1852
▁동부	-1853
▁등록	-1854
▁정상	-1855
▁무기	-1856
▁UEFA	-1857
▁자주	-1858
il	-1859
▁1970	-1860
▁투수	-1861
▁철학	-1862
▁완전히	-1863
▁1994	-1864
▁폰	-1865
▁요청	-1866
▁지진	-1867
▁수용	-1868
▁금지	-1869
▁소재	-1870
▁그런	-1871
▁표기	-1872
▁잃	-1873
톨릭	-1874
▁발사	-1875
▁인식	-1876
▁제한	-1877
▁연구소	-1878
▁박물	-1879
▁아시	-1880
ac	-1881
▁ㄴㅏㅁ	-1882
▁ㅂㅜㅌ	-1883
▁무대	-1884
▁노르	-1885
▁업무	-1886
▁괴	-1887
▁지도자	-1888
▁접근	-1889
▁KBS	-1890
▁결성	-1891
▁뇌	-1892
▁강원	-1893
▁영토	-1894
▁ㄹㅜ	-1895
▁린	-1896
▁뉴스	-1897
▁바탕	-1898
▁지대	-1899
머지	-1900
▁수학	-1901
▁나머지	-1902
▁조각	-1903
▁아일랜드	-1904
▁성격	-1905
▁거부	-1906
▁상호	-1907
▁ㅅㅡㅂㄴㅣ	-1908
▁필리	-1909
▁정식	-1910
▁펜	-1911
▁반면	-1912
ㅋㅣㄴ	-1913
▁오스	-1914
▁스스로	-1915
ㅈㅣㄹ	-1916
▁벽	-1917
▁1992	-1918
▁득점	-1919
▁트리	-1920
▁은행	-1921
▁더불	-1922
▁기초	-1923
▁마찬	-1924
▁가톨릭	-1925
▁마찬가지	-1926
ro	-1927
토리	-1928
▁오래	-1929
▁공작	-1930
▁임시	-1931
▁주의	-1932
▁아카	-1933
▁보수	-1934
요일	-1935
▁ㄷㅏㅇㅎㅐㅆ	-1936
▁45	-1937
시코	-1938
▁다수	-1939
▁스웨	-1940
▁장애	-1941
▁ㄴㅏㄴ	-1942
▁박사	-1943
▁화학	-1944
임스	-1945
▁의식	-1946
▁다리	-1947
▁ㅈㅓㄴㅎㅐ	-1948
▁박물관	-1949
ㅁㅕㄴㅅㅓ	-1950
▁검사	-1951
▁36	-1952
▁장소	-1953
ed	-1954
▁캐릭	-1955
▁바다	-1956
▁카드	-1957
▁꼬	-1958
▁유로	-1959
▁죽음	-1960
▁마이크	-1961
▁이스	-1962
▁초대	-1963
▁차원	-1964
▁관측	-1965
모토	-1966
워드	-1967
▁유니	-1968
▁브라질	-1969
▁of	-1970
▁윌리	-1971
▁스위	-1972
▁소리	-1973
▁해결	-1974
▁활용	-1975
▁순위	-1976
▁ㄷㅡㄴ	-1977
▁차트	-1978
▁여행	-1979
▁긴	-1980
▁지리	-1981
▁짧	-1982
▁집합	-1983
▁기구	-1984
▁계열	-1985
▁식물	-1986
▁묘사	-1987
▁안전	-1988
▁총선	-1989
▁그대로	-1990
▁소프트웨어	-1991
▁실제로	-1992
▁표시	-1993
로나	-1994
▁연극	-1995
▁1960	-1996
▁오브	-1997
▁여름	-1998
▁바뀌	-1999
▁파일	-2000
▁패배	-2001
ig	-2002
▁인사	-2003
▁무역	-2004
▁회원	-2005
▁에이	-2006
▁이외	-2007
▁ㄸㅟ	-2008
▁캐릭터	-2009
▁강력	-2010
▁ㅁㅣ	-2011
▁디지	-2012
아가	-2013
▁1991	-2014
▁멕	-2015
▁일정	-2016
▁제시	-2017
▁스웨덴	-2018
▁권력	-2019
▁단순	-2020
▁쓰이	-2021
부르크	-2022
▁기계	-2023
▁관광	-2024
▁곤	-2025
▁붕	-2026
▁반란	-2027
레일리아	-2028
트리	-2029
▁개국	-2030
▁히로	-2031
▁1993	-2032
▁33	-2033
▁오스트리아	-2034
▁조성	-2035
▁잇	-2036
▁위험	-2037
▁형제	-2038
▁근처	-2039
베이	-2040
▁발행	-2041
▁삶	-2042
▁ㄲㅡㅌ	-2043
▁흡	-2044
배우	-2045
트로	-2046
▁보다	-2047
▁기획	-2048
▁여객	-2049
▁지적	-2050
▁중간	-2051
▁중단	-2052
▁ㅂㅏㄺㅎㅕ	-2053
ㅐㄴ	-2054
▁먼저	-2055
▁스튜	-2056
▁윈도	-2057
▁량	-2058
▁시행	-2059
▁협력	-2060
▁스코	-2061
od	-2062
▁기자	-2063
▁코드	-2064
▁지하철	-2065
▁외부	-2066
▁사이트	-2067
▁아무	-2068
▁소개	-2069
▁뮤직	-2070
▁전시	-2071
▁유형	-2072
소년	-2073
워크	-2074
▁도착	-2075
사카	-2076
니스	-2077
▁렌	-2078
특별시	-2079
▁번역	-2080
나이	-2081
버트	-2082
▁서울특별시	-2083
▁후기	-2084
▁혜	-2085
ve	-2086
▁단어	-2087
주시	-2088
▁186	-2089
▁기후	-2090
▁하루	-2091
▁연장	-2092
▁해안	-2093
▁내각	-2094
as	-2095
무원	-2096
▁오스트레일리아	-2097
▁투자	-2098
▁",	-2099
▁다만	-2100
▁파견	-2101
▁본부	-2102
▁보유	-2103
▁상징	-2104
▁나타나	-2105
▁근거	-2106
지션	-2107
▁성립	-2108
▁공장	-2109
▁생성	-2110
▁카이	-2111
▁케이	-2112
▁보존	-2113
▁네트	-2114
▁경상남도	-2115
▁수많	-2116
▁다카	-2117
▁세상	-2118
▁통하	-2119
▁양식	-2120
▁혐	-2121
▁지상	-2122
▁태평	-2123
▁극장	-2124
▁옹	-2125
▁감소	-2126
▁죄	-2127
▁윌리엄	-2128
▁ㅉ	-2129
▁확대	-2130
▁위기	-2131
▁경상북도	-2132
▁겪	-2133
ㅇㅣㄹ	-2134
▁제기	-2135
▁균	-2136
▁촬	-2137
▁멜	-2138
▁상업	-2139
▁유대	-2140
▁전략	-2141
▁출생	-2142
▁지식	-2143
▁귀족	-2144
▁원소	-2145
▁특수	-2146
▁특성	-2147
▁1988	-2148
▁멕시코	-2149
▁수사	-2150
▁나타내	-2151
▁ㅆㅏ	-2152
▁떠	-2153
▁대응	-2154
▁ㅇㅣㄴㅈㅣ	-2155
▁캘	-2156
▁동생	-2157
▁영상	-2158
▁디지털	-2159
▁?	-2160
▁바꾸	-2161
▁187	-2162
▁ㅋㅔ	-2163
▁달성	-2164
▁촌	-2165
▁단위	-2166
▁종목	-2167
▁유리	-2168
▁당선	-2169
▁h	-2170
▁근무	-2171
▁학위	-2172
▁촬영	-2173
▁이슬	-2174
▁계승	-2175
▁완성	-2176
ㄹㅏㄴ	-2177
▁식민지	-2178
아시아	-2179
▁체포	-2180
▁굴	-2181
▁34	-2182
▁시티	-2183
▁문화재	-2184
▁코치	-2185
티아	-2186
▁2021	-2187
▁률	-2188
▁님	-2189
▁젊	-2190
▁승격	-2191
▁38	-2192
▁이집	-2193
id	-2194
▁이집트	-2195
회사	-2196
▁수비	-2197
▁정치인	-2198
▁옆	-2199
▁권리	-2200
▁전달	-2201
▁올리	-2202
▁체결	-2203
▁시청	-2204
▁직후	-2205
▁생명	-2206
▁듀	-2207
▁소수	-2208
가리	-2209
▁48	-2210
ㅋㅣㄹ	-2211
▁미래	-2212
▁알렉산	-2213
▁나중	-2214
▁이렇게	-2215
▁몇몇	-2216
▁그렇	-2217
▁마사	-2218
▁본관	-2219
▁측정	-2220
▁도서관	-2221
▁국왕	-2222
▁타이틀	-2223
▁설정	-2224
▁90	-2225
가와	-2226
▁채널	-2227
▁대륙	-2228
▁1989	-2229
모리	-2230
▁보내	-2231
▁크로	-2232
▁1950	-2233
▁헨	-2234
▁아내	-2235
▁맹	-2236
▁톤	-2237
▁판단	-2238
▁주식	-2239
▁개통	-2240
ec	-2241
▁이주	-2242
▁스키	-2243
▁관찰	-2244
▁홍콩	-2245
▁개정	-2246
▁미군	-2247
▁라인	-2248
▁엘리	-2249
▁동계	-2250
▁결승전	-2251
▁청년	-2252
▁전환	-2253
▁텍	-2254
▁포르투	-2255
▁신경	-2256
▁미사일	-2257
us	-2258
NA	-2259
▁자본	-2260
▁다루	-2261
▁녹음	-2262
▁세르	-2263
▁깨	-2264
▁발매되	-2265
▁시위	-2266
▁취임	-2267
▁밑	-2268
▁즉위	-2269
▁낳	-2270
▁지위	-2271
▁싶	-2272
▁종료	-2273
▁납	-2274
▁해외	-2275
▁제정	-2276
▁계산	-2277
and	-2278
▁의견	-2279
▁은하	-2280
▁',	-2281
▁범죄	-2282
▁새로	-2283
ㄱㅏㄴ	-2284
▁전차	-2285
▁e	-2286
코드	-2287
▁음식	-2288
▁아키	-2289
▁사회주의	-2290
스티	-2291
디아	-2292
▁얼마	-2293
▁후쿠	-2294
▁300	-2295
▁셀	-2296
▁|	-2297
▁충돌	-2298
ㅇㅣ	-2299
▁사후	-2300
ad	-2301
▁주인공	-2302
▁교체	-2303
▁MBC	-2304
▁헝	-2305
교회	-2306
▁남북	-2307
▁자격	-2308
▁천황	-2309
▁ㄴㅓㅁ	-2310
▁수정	-2311
▁예수	-2312
▁장기	-2313
▁바이러스	-2314
▁춘	-2315
▁건강	-2316
▁전라남도	-2317
▁제임스	-2318
▁주목	-2319
▁소장	-2320
▁비용	-2321
▁명단	-2322
▁신학	-2323
▁1945	-2324
▁개선	-2325
▁궤도	-2326
▁네트워크	-2327
▁ㅃㅜㄴ	-2328
▁원정	-2329
▁ㅁㅗㅅㅎㅏㄴ	-2330
▁스티	-2331
ent	-2332
▁비밀	-2333
▁카운	-2334
▁성우	-2335
▁ㄱㅏㅇㅎㅏㄴ	-2336
▁공급	-2337
▁체육	-2338
▁펠	-2339
▁시내	-2340
스카	-2341
ㄴㅏㄹ	-2342
▁본래	-2343
▁합류	-2344
▁공부	-2345
▁컬	-2346
▁계기	-2347
▁라운드	-2348
▁명예	-2349
▁만드	-2350
전히	-2351
▁부모	-2352
▁ㅎㅑ	-2353
50	-2354
▁제거	-2355
▁ㅈㅕ	-2356
▁에드	-2357
▁감염	-2358
▁셰	-2359
▁자원	-2360
▁심리	-2361
▁입학	-2362
▁농업	-2363
▁인근	-2364
▁이래	-2365
▁가격	-2366
▁천문	-2367
▁작성	-2368
▁공군	-2369
▁늘	-2370
▁군인	-2371
▁터미	-2372
▁객	-2373
▁ㅇㅗㄻㄱㅕ	-2374
▁증명	-2375
▁가입	-2376
▁각종	-2377
▁전사	-2378
▁홈런	-2379
▁거대	-2380
▁베네	-2381
▁오후	-2382
ㄱㅏㄴㄷㅏ	-2383
▁소송	-2384
▁이슬람	-2385
피아	-2386
▁학문	-2387
▁가리키	-2388
ㅁㅏ	-2389
▁저항	-2390
▁미디어	-2391
▁집중	-2392
▁왼	-2393
▁국경	-2394
▁물론	-2395
▁피아	-2396
▁울산	-2397
▁신호	-2398
베르	-2399
니어	-2400
티나	-2401
▁듣	-2402
▁병력	-2403
▁포지션	-2404
▁측면	-2405
▁질량	-2406
▁통제	-2407
▁ㄱㅏㅈㅊ	-2408
▁블랙	-2409
ㅝㅆ	-2410
▁ㅆㅓㅆ	-2411
▁ㅁㅓ	-2412
리포	-2413
▁나누	-2414
▁인수	-2415
▁플로	-2416
▁찰	-2417
▁ㅁㅔ	-2418
ㄹㅡㄹ	-2419
▁세이	-2420
ㄷㅇㅏ	-2421
▁St	-2422
▁ㅈㅜㄴㄷㅏ	-2423
▁실행	-2424
도로	-2425
▁콩	-2426
▁강조	-2427
▁끌	-2428
▁터미널	-2429
▁터키	-2430
▁정착	-2431
▁해방	-2432
▁엑	-2433
ot	-2434
▁광고	-2435
▁만약	-2436
▁변호	-2437
▁ㅈㅜㄴ	-2438
▁비트	-2439
▁x	-2440
▁무장	-2441
▁겨울	-2442
▁병사	-2443
▁마치	-2444
▁강원도	-2445
▁움직	-2446
▁오른	-2447
▁최소	-2448
▁ㅇㅏㅍ	-2449
▁냉	-2450
▁잎	-2451
철도	-2452
▁읽	-2453
ㄹㅡㅁ	-2454
un	-2455
▁유도	-2456
▁약간	-2457
드로	-2458
▁몽골	-2459
▁제목	-2460
▁편집	-2461
▁기회	-2462
▁태평양	-2463
▁국방	-2464
▁노동자	-2465
ow	-2466
▁너무	-2467
▁37	-2468
ㅎㅕ	-2469
▁아우	-2470
ㄴㅓ	-2471
▁in	-2472
▁ㄴㅜ	-2473
▁놀	-2474
▁ㅈㅗ	-2475
▁금융	-2476
▁마쓰	-2477
스키	-2478
▁환자	-2479
▁이번	-2480
▁마리아	-2481
▁밀도	-2482
▁사례	-2483
ㄱㅓ	-2484
▁지점	-2485
동안	-2486
▁다니	-2487
▁ㅍㅕㄹ	-2488
▁쇠	-2489
▁선수단	-2490
▁표면	-2491
▁윈도우	-2492
▁합병	-2493
▁전반	-2494
▁들어가	-2495
▁전개	-2496
▁혐의	-2497
▁가스	-2498
▁인디	-2499
▁학년	-2500
▁이하	-2501
▁고전	-2502
▁래	-2503
▁허용	-2504
▁카르	-2505
▁1987	-2506
▁힐	-2507
▁무렵	-2508
▁ㅇㅣㄴㅎㅏㄴ	-2509
오카	-2510
▁전력	-2511
▁도중	-2512
▁바람	-2513
소리	-2514
▁등급	-2515
▁대수	-2516
▁마련	-2517
▁재산	-2518
▁붕괴	-2519
▁라이브	-2520
▁오사카	-2521
▁재정	-2522
▁샌	-2523
▁포르투갈	-2524
ㄴㅏㅆㅇㅡ	-2525
▁민간	-2526
▁유엔	-2527
ra	-2528
▁근대	-2529
▁충청남도	-2530
▁짓	-2531
▁재직	-2532
▁그해	-2533
▁양성	-2534
▁루이	-2535
마크	-2536
▁충분	-2537
▁영화배우	-2538
▁w	-2539
▁만나	-2540
▁전역	-2541
▁킹	-2542
▁령	-2543
▁가르	-2544
▁꼬리	-2545
▁모리	-2546
▁ㄹㅣ	-2547
▁숲	-2548
▁헝가리	-2549
▁여전히	-2550
▁41	-2551
▁뒷	-2552
▁갖추	-2553
▁범위	-2554
▁공공	-2555
▁ㅂㅓㄹ	-2556
▁51	-2557
▁성질	-2558
▁계급	-2559
▁현실	-2560
▁공주	-2561
ㅈㅇㅏ	-2562
▁1986	-2563
▁엔터	-2564
▁스튜디오	-2565
▁군주	-2566
▁1984	-2567
▁임무	-2568
▁전선	-2569
▁캘리포	-2570
▁대학원	-2571
▁강제	-2572
▁보고	-2573
▁토론	-2574
▁롤	-2575
▁ㅂㅜㄹㄹㅣㄴㄷㅏ	-2576
▁승인	-2577
▁위원장	-2578
▁온도	-2579
▁조치	-2580
▁상하	-2581
▁봄	-2582
▁동료	-2583
▁양자	-2584
▁털	-2585
▁지내	-2586
▁원칙	-2587
▁위협	-2588
▁업체	-2589
▁구축	-2590
▁위성	-2591
▁클라	-2592
▁수입	-2593
▁논문	-2594
▁적극	-2595
▁아시안	-2596
▁오리	-2597
▁이미지	-2598
▁인하	-2599
▁대대	-2600
▁고구	-2601
▁캘리포니아	-2602
▁성인	-2603
▁필리핀	-2604
▁핀란드	-2605
ㄹㅣㄹ	-2606
▁ㅈㅔ	-2607
▁드래	-2608
▁교사	-2609
▁미치	-2610
▁거래	-2611
▁출발	-2612
▁전하	-2613
▁섭	-2614
▁공산당	-2615
테르	-2616
▁수립	-2617
▁수단	-2618
▁공업	-2619
▁장비	-2620
▁역대	-2621
▁회복	-2622
▁ㅂㅏㄷㅇㅏ	-2623
▁다섯	-2624
고리	-2625
▁의료	-2626
▁규칙	-2627
▁채택	-2628
▁후지	-2629
마스	-2630
▁항상	-2631
▁잭	-2632
ch	-2633
▁남아	-2634
▁강의	-2635
▁점차	-2636
▁증거	-2637
ㅇㅛ	-2638
주교	-2639
▁잡지	-2640
▁스타일	-2641
▁확보	-2642
▁첨	-2643
▁시인	-2644
ur	-2645
▁에피	-2646
▁스파	-2647
▁39	-2648
▁신화	-2649
▁개편	-2650
바이	-2651
▁남편	-2652
▁400	-2653
▁선생	-2654
▁폭발	-2655
▁이스라	-2656
▁기지	-2657
▁스위스	-2658
▁진화	-2659
▁일원	-2660
▁강점	-2661
▁합의	-2662
▁ㅊㅏㅈㅇㅏ	-2663
▁매년	-2664
▁얼굴	-2665
▁만족	-2666
▁II	-2667
로드	-2668
▁대기	-2669
▁64	-2670
▁나카	-2671
▁이승	-2672
ㄴㅐㄴㄷㅏ	-2673
▁통계	-2674
▁모스크	-2675
▁해체	-2676
▁1985	-2677
▁꿈	-2678
▁경주	-2679
▁항성	-2680
▁이스라엘	-2681
▁분자	-2682
▁부근	-2683
▁대형	-2684
데미	-2685
▁그래서	-2686
▁스리	-2687
▁간주	-2688
우드	-2689
▁종이	-2690
▁군단	-2691
▁ㄷㅚㅁ	-2692
▁가사	-2693
▁기대	-2694
▁ㄴㅐㅆ	-2695
▁토지	-2696
▁불가	-2697
▁귀국	-2698
▁욕	-2699
▁종종	-2700
▁끼	-2701
▁붉	-2702
▁답	-2703
▁띠	-2704
ut	-2705
▁ㅅㅓㄴ	-2706
▁장면	-2707
▁경향	-2708
▁게이	-2709
▁수원	-2710
▁어린	-2711
▁태풍	-2712
▁조합	-2713
레이드	-2714
▁낭	-2715
▁캄	-2716
백질	-2717
▁아나	-2718
▁i	-2719
▁아주	-2720
▁청소년	-2721
▁아메리카	-2722
▁삼국	-2723
키아	-2724
▁서양	-2725
▁의학	-2726
▁롭	-2727
▁알리	-2728
▁아랍	-2729
▁ㅇㅕㄹㄹㅕㅆ	-2730
▁레코드	-2731
um	-2732
▁사항	-2733
▁꾸	-2734
▁대장	-2735
▁ㅂㅓㄹㅇㅓ	-2736
▁스피	-2737
고기	-2738
▁클래	-2739
▁아카데미	-2740
▁탑재	-2741
▁ㅂㅜㄹㄹㅓㅆ	-2742
▁43	-2743
▁투어	-2744
▁쉬	-2745
▁ㅍㅏ	-2746
▁초반	-2747
▁기억	-2748
▁침공	-2749
▁고양	-2750
▁성과	-2751
▁메이저	-2752
▁폼	-2753
▁LG	-2754
▁이제	-2755
▁확실	-2756
▁그곳	-2757
▁평양	-2758
▁카메	-2759
▁짐	-2760
▁랭	-2761
▁버리	-2762
▁융	-2763
▁향상	-2764
▁란	-2765
▁장식	-2766
오프	-2767
ㅇㅜㄹ	-2768
▁세우	-2769
▁줄거리	-2770
▁틀	-2771
▁보장	-2772
▁청나라	-2773
▁박쥐	-2774
▁고구려	-2775
오스	-2776
▁42	-2777
▁좀	-2778
▁br	-2779
▁소년	-2780
▁자금	-2781
▁나치	-2782
▁켄	-2783
▁카운티	-2784
▁선거구	-2785
▁남동	-2786
보드	-2787
▁중화민국	-2788
요시	-2789
▁보병	-2790
ver	-2791
ㅡㄹㅇㅓ	-2792
네스	-2793
▁단백질	-2794
라비아	-2795
▁전설	-2796
▁만큼	-2797
▁1982	-2798
운동	-2799
▁숭	-2800
소드	-2801
▁신설	-2802
타인	-2803
▁맛	-2804
▁스케	-2805
▁선고	-2806
ir	-2807
ㄱㅏㄹ	-2808
▁만주	-2809
▁철도역	-2810
▁고문	-2811
▁어떻	-2812
▁감정	-2813
▁라틴	-2814
▁55	-2815
▁불과	-2816
▁육상	-2817
라노	-2818
▁스카	-2819
▁잠시	-2820
▁ㅌㅗㅇㅎㅏㄴ	-2821
▁신앙	-2822
에르	-2823
네시아	-2824
▁광역시	-2825
▁독자	-2826
▁의장	-2827
틀랜드	-2828
▁ㅌㅏ	-2829
▁우수	-2830
▁빠르	-2831
FC	-2832
▁차별	-2833
▁우선	-2834
▁단지	-2835
▁이끄	-2836
▁나폴	-2837
▁편입	-2838
▁확정	-2839
▁살해	-2840
▁창설	-2841
▁온라인	-2842
▁함대	-2843
▁ㅅㅏㄹ	-2844
im	-2845
▁복잡	-2846
▁재단	-2847
▁덴마크	-2848
▁왕위	-2849
▁비율	-2850
▁탄생	-2851
일러	-2852
▁판결	-2853
▁강점기	-2854
▁지시	-2855
▁세종	-2856
▁솔로	-2857
▁1983	-2858
다이	-2859
▁브랜드	-2860
▁삭	-2861
▁44	-2862
누스	-2863
▁법인	-2864
▁구체	-2865
▁모르	-2866
▁예상	-2867
▁ㄱㅏㅈㅊㅜㄴ	-2868
▁공유	-2869
▁마크	-2870
▁저서	-2871
▁유학	-2872
▁브리	-2873
▁검찰	-2874
▁성당	-2875
▁고향	-2876
▁전화	-2877
▁킬	-2878
하라	-2879
▁마드리	-2880
의회	-2881
ㅅㅓㅆ	-2882
▁대립	-2883
이크	-2884
▁동의	-2885
▁나뉘	-2886
▁보급	-2887
▁애플	-2888
트라	-2889
싱턴	-2890
▁47	-2891
▁ㄷㅏㅇㅎㅏㄴ	-2892
▁암살	-2893
▁마드리드	-2894
▁반도	-2895
▁참석	-2896
▁노예	-2897
▁수출	-2898
▁후손	-2899
ㄹㅜㄴㄷㅏ	-2900
▁고정	-2901
▁전후	-2902
▁핵심	-2903
▁저장	-2904
▁오픈	-2905
▁회전	-2906
ay	-2907
▁집행	-2908
▁보안	-2909
▁하늘	-2910
▁Z	-2911
▁법칙	-2912
▁ㅎㅏㅂ	-2913
▁협상	-2914
▁ㄴㅔ	-2915
▁롯	-2916
비드	-2917
▁사전	-2918
▁ㅎㅐㅆㅇㅓㅆ	-2919
퍼스	-2920
▁순서	-2921
▁75	-2922
▁카를	-2923
CA	-2924
▁관료	-2925
▁중반	-2926
ㅇㅗㄴㄷㅏ	-2927
▁이성	-2928
▁ㄴㅑ	-2929
▁ㅇㅗㄹㄹㅕㅆ	-2930
▁184	-2931
문화	-2932
셔널	-2933
▁본격	-2934
▁전용	-2935
▁이루어지	-2936
각형	-2937
▁플랫	-2938
▁유적	-2939
원군	-2940
▁180	-2941
▁숫	-2942
반도	-2943
▁공학	-2944
▁산맥	-2945
▁자세	-2946
▁주교	-2947
▁대비	-2948
▁헤이	-2949
▁권한	-2950
▁ㅂㅐ	-2951
▁대항	-2952
▁논리	-2953
레이션	-2954
▁앞두	-2955
▁베이스	-2956
▁플레이오프	-2957
▁아르헨	-2958
▁CD	-2959
▁까	-2960
▁사우	-2961
▁연고	-2962
▁의무	-2963
리스트	-2964
없이	-2965
▁하위	-2966
▁에피소드	-2967
▁1972	-2968
ㅇㅡㄹ	-2969
▁로버트	-2970
▁사라	-2971
▁ㅈㅓㅂ	-2972
▁옷	-2973
▁어린이	-2974
▁이란	-2975
▁켈	-2976
▁말기	-2977
▁베를	-2978
▁1920	-2979
▁시각	-2980
▁스크	-2981
▁단일	-2982
▁공기	-2983
터리	-2984
▁46	-2985
▁상품	-2986
▁v	-2987
▁듯	-2988
▁아르헨티나	-2989
▁중세	-2990
▁직원	-2991
▁프란	-2992
어들	-2993
▁아스	-2994
▁보조	-2995
▁지키	-2996
▁아파	-2997
▁의도	-2998
▁공무원	-2999
▁이익	-3000
▁인상	-3001
▁효소	-3002
▁갈등	-3003
▁수여	-3004
▁아미	-3005
▁글로	-3006
▁요한	-3007
▁공포	-3008
▁전혀	-3009
▁운전	-3010
▁중심지	-3011
▁조금	-3012
▁협정	-3013
▁워싱턴	-3014
▁1979	-3015
▁변호사	-3016
▁떨	-3017
▁인권	-3018
으키	-3019
▁원주	-3020
▁하드	-3021
▁전라북도	-3022
▁ㅍㅓ	-3023
▁별도	-3024
▁레드	-3025
▁빨	-3026
▁흔히	-3027
▁비난	-3028
▁파크	-3029
▁창조	-3030
▁원리	-3031
▁잘못	-3032
▁ㄷㅜㄴ	-3033
▁우크	-3034
▁을	-3035
▁텐	-3036
▁튀	-3037
▁벡	-3038
ㄹㅝ	-3039
퍼드	-3040
정부	-3041
▁정복	-3042
▁방면	-3043
리어	-3044
▁kg	-3045
▁작곡가	-3046
▁1930	-3047
▁교류	-3048
▁In	-3049
▁쌓	-3050
▁건국	-3051
▁엠	-3052
▁ㅋㅣ	-3053
▁논쟁	-3054
10	-3055
▁투입	-3056
▁1981	-3057
▁셋	-3058
▁현장	-3059
▁금메달	-3060
▁항복	-3061
▁공화	-3062
▁성경	-3063
▁호텔	-3064
▁1973	-3065
▁소식	-3066
무라	-3067
▁세인트	-3068
▁빙	-3069
▁아침	-3070
사키	-3071
▁ㄴㅗㅎ	-3072
▁장착	-3073
▁150	-3074
▁노스	-3075
▁창립	-3076
▁유전자	-3077
▁운용	-3078
▁연산	-3079
▁플라	-3080
▁드러	-3081
▁심각	-3082
▁헨리	-3083
os	-3084
▁김정	-3085
▁강하	-3086
▁건조	-3087
▁공산주의	-3088
▁니콜	-3089
▁훨	-3090
▁교토	-3091
▁요새	-3092
▁산하	-3093
▁코스	-3094
▁논의	-3095
▁중부	-3096
▁합성	-3097
▁숨	-3098
▁오른쪽	-3099
▁출마	-3100
▁코미	-3101
▁서기	-3102
▁본인	-3103
▁오토	-3104
▁원작	-3105
▁금속	-3106
▁인류	-3107
▁마이클	-3108
▁연합군	-3109
▁로드	-3110
▁ㄷㅡㅅ	-3111
▁ㅈㅜㄱ	-3112
▁투쟁	-3113
▁플레이어	-3114
▁훨씬	-3115
BO	-3116
▁방출	-3117
▁오랜	-3118
▁1940	-3119
▁추측	-3120
▁멸망	-3121
▁무리	-3122
▁태국	-3123
ㄷㅡㄹㅇㅕ	-3124
▁한때	-3125
▁왼쪽	-3126
▁사태	-3127
▁트랙	-3128
▁베이징	-3129
▁릴	-3130
▁예산	-3131
ㅡㄹㄹㅓ	-3132
▁오히	-3133
▁인정받	-3134
30	-3135
▁ㅂㅣㄴ	-3136
▁복합	-3137
▁에어	-3138
em	-3139
▁노르웨이	-3140
▁형사	-3141
▁1974	-3142
▁제자	-3143
▁어떻게	-3144
▁전철	-3145
▁185	-3146
▁해양	-3147
ter	-3148
▁블루	-3149
▁주위	-3150
일보	-3151
▁미니	-3152
▁자이	-3153
젤레스	-3154
시스	-3155
▁북서	-3156
▁군수	-3157
▁인공	-3158
▁효율	-3159
▁모스크바	-3160
▁사령관	-3161
▁인종	-3162
▁끊	-3163
▁사법	-3164
▁구별	-3165
▁절대	-3166
▁열리	-3167
▁정비	-3168
▁스코틀랜드	-3169
▁메시	-3170
▁반복	-3171
▁주기	-3172
▁출장	-3173
▁입자	-3174
▁숫자	-3175
▁소방	-3176
▁SBS	-3177
카와	-3178
▁일으키	-3179
▁연관	-3180
▁신체	-3181
▁집안	-3182
▁오전	-3183
▁웨스트	-3184
▁노부	-3185
머스	-3186
▁탁	-3187
▁1948	-3188
▁축제	-3189
▁인조	-3190
▁54	-3191
▁슬로	-3192
듀서	-3193
▁각본	-3194
▁프로듀서	-3195
▁베를린	-3196
▁제출	-3197
▁ㄷㅔㄹ	-3198
▁델	-3199
▁포위	-3200
▁흡수	-3201
나이티	-3202
▁댄	-3203
▁디스	-3204
▁ㅂㅕ	-3205
▁유나이티	-3206
▁1968	-3207
▁분쟁	-3208
▁ㅈㅣㄴㄷㅏ	-3209
▁이민	-3210
▁수송	-3211
도르	-3212
▁ㅂㅜㄹㄹㅕㅆ	-3213
▁거절	-3214
▁출입	-3215
라크	-3216
▁건립	-3217
▁이어지	-3218
▁1976	-3219
▁목사	-3220
▁중대	-3221
▁해상	-3222
ㄹㅣㄴㄷㅏ	-3223
▁경성	-3224
▁전공	-3225
▁보스	-3226
▁ㄷㅜㄹㄹㅓ	-3227
▁취급	-3228
▁소녀	-3229
▁시점	-3230
▁읍	-3231
▁개시	-3232
▁활발	-3233
▁사령부	-3234
▁한국어	-3235
▁명성	-3236
▁마침	-3237
▁ㅂㅜㅌㅇㅕ	-3238
▁갤	-3239
▁북동	-3240
▁포기	-3241
▁관점	-3242
op	-3243
▁파라	-3244
▁오히려	-3245
▁1975	-3246
▁우스	-3247
▁응용	-3248
다리	-3249
▁주전	-3250
▁프라	-3251
▁인터뷰	-3252
▁활성	-3253
데스	-3254
▁고용	-3255
▁가로	-3256
▁국도	-3257
▁소스	-3258
▁음력	-3259
▁견해	-3260
▁주택	-3261
▁농민	-3262
▁신성	-3263
▁지니	-3264
▁취득	-3265
▁영화제	-3266
ㅁㅊ	-3267
▁장악	-3268
▁진보	-3269
▁히데	-3270
▁동원	-3271
▁부활	-3272
▁총독	-3273
▁1978	-3274
▁구속	-3275
▁보험	-3276
서트	-3277
▁국장	-3278
▁성능	-3279
▁학습	-3280
▁명명	-3281
ag	-3282
▁56	-3283
▁고유	-3284
▁ㅂㅏㄲ	-3285
▁Q	-3286
▁ㅂㅏㄲㅇㅔ	-3287
▁유물	-3288
▁미드	-3289
▁불법	-3290
▁1971	-3291
▁후원	-3292
▁여부	-3293
▁포도	-3294
▁한자	-3295
▁북아	-3296
▁보컬	-3297
▁1963	-3298
리케	-3299
▁천체	-3300
ㄹㅡㅁㄷㅏ	-3301
▁52	-3302
▁어렵	-3303
▁직전	-3304
▁일치	-3305
▁정체	-3306
키스탄	-3307
▁연료	-3308
▁직업	-3309
▁비록	-3310
▁빼	-3311
▁폭력	-3312
산시	-3313
▁여객철도	-3314
▁ㅅㅗㄱㅎㅏㄴㄷㅏ	-3315
▁생기	-3316
쿠라	-3317
▁문헌	-3318
▁전부	-3319
▁교차	-3320
▁대리	-3321
에트	-3322
▁죽이	-3323
▁수술	-3324
▁49	-3325
▁로스앤	-3326
▁로스앤젤레스	-3327
어스	-3328
▁ㄱㅓㄴㄴㅓ	-3329
▁65	-3330
▁타이완	-3331
메리	-3332
▁코미디	-3333
▁항공기	-3334
▁닌	-3335
▁관직	-3336
▁시리아	-3337
세이	-3338
▁선교	-3339
▁주관	-3340
기에	-3341
▁미나	-3342
▁혼란	-3343
▁아테	-3344
▁일대	-3345
ce	-3346
▁화물	-3347
▁브레	-3348
릭스	-3349
▁둥	-3350
▁캠퍼스	-3351
▁철수	-3352
▁테러	-3353
▁도달	-3354
▁179	-3355
▁이기	-3356
▁1969	-3357
▁편지	-3358
▁수집	-3359
▁떠나	-3360
▁도구	-3361
▁00	-3362
▁본사	-3363
▁예비	-3364
▁고종	-3365
▁약속	-3366
▁프로세	-3367
▁계통	-3368
▁ㅇㅐㄴ	-3369
▁넷	-3370
▁백제	-3371
▁학술	-3372
OS	-3373
▁증상	-3374
▁영업	-3375
▁임금	-3376
▁팝	-3377
노스	-3378
▁정원	-3379
▁그리스도	-3380
▁장교	-3381
▁스마	-3382
▁폴리	-3383
▁상당히	-3384
▁제어	-3385
▁학부	-3386
▁상륙	-3387
자기	-3388
▁롯데	-3389
▁보관	-3390
▁항구	-3391
▁반영	-3392
▁전파	-3393
▁데이비드	-3394
▁아사	-3395
▁주간	-3396
▁해산	-3397
▁재료	-3398
▁코로나	-3399
▁SK	-3400
▁의존	-3401
▁콘서트	-3402
▁하나님	-3403
▁모드	-3404
▁하우스	-3405
▁프리미	-3406
▁1946	-3407
▁톰	-3408
▁스미	-3409
▁취하	-3410
▁정지	-3411
공항	-3412
▁연재	-3413
▁ㄱㅕ	-3414
▁대화	-3415
▁53	-3416
▁십자	-3417
▁교환	-3418
▁자살	-3419
▁방사	-3420
▁백작	-3421
▁부임	-3422
▁주식회사	-3423
▁불상	-3424
▁사운드	-3425
▁구성원	-3426
▁내리	-3427
▁박정	-3428
▁핑	-3429
▁개체	-3430
▁시호	-3431
▁무엇	-3432
▁허가	-3433
▁영향력	-3434
▁헤르	-3435
▁전문가	-3436
▁브루	-3437
아내	-3438
▁ㅍㅣ	-3439
oc	-3440
▁서버	-3441
ㅇㅜ	-3442
▁망명	-3443
▁살인	-3444
▁포트	-3445
▁접하	-3446
▁니시	-3447
▁충청북도	-3448
ㅈㅜㄴㄷㅏ	-3449
미터	-3450
▁보건	-3451
▁사유	-3452
프리	-3453
▁1964	-3454
▁간단	-3455
▁제일	-3456
▁벨기에	-3457
▁질병	-3458
▁리스	-3459
▁화성	-3460
▁반발	-3461
▁자녀	-3462
▁학원	-3463
▁공통	-3464
▁진입	-3465
▁대략	-3466
▁김영	-3467
▁US	-3468
▁ㄹㅔ	-3469
▁파트	-3470
▁베스트	-3471
이어	-3472
▁외국인	-3473
▁신분	-3474
▁변환	-3475
▁고리	-3476
병대	-3477
▁변형	-3478
▁뿌	-3479
▁겐	-3480
ri	-3481
▁위반	-3482
▁ㄴㅐㄴ	-3483
▁인도네시아	-3484
▁상승	-3485
▁미터	-3486
▁참전	-3487
정식	-3488
▁랜	-3489
▁99	-3490
▁영입	-3491
▁저작	-3492
▁판서	-3493
▁시카	-3494
▁임대	-3495
▁창단	-3496
▁학회	-3497
▁복무	-3498
▁국제공항	-3499
▁진압	-3500
▁스토	-3501
▁사장	-3502
▁식품	-3503
▁소비에트	-3504
▁58	-3505
하마	-3506
▁스프	-3507
▁절차	-3508
▁1000	-3509
▁안타	-3510
▁..	-3511
▁PC	-3512
▁거기	-3513
▁지붕	-3514
▁콤	-3515
▁그레	-3516
▁승진	-3517
▁횡	-3518
▁꼭	-3519
▁트랜	-3520
▁루이스	-3521
▁픽	-3522
▁통상	-3523
▁and	-3524
▁감사	-3525
▁피아노	-3526
▁가을	-3527
▁아라	-3528
▁기도	-3529
▁페이	-3530
▁그런데	-3531
▁마케	-3532
▁바라	-3533
▁부장	-3534
▁채용	-3535
▁조작	-3536
▁주년	-3537
▁리더	-3538
▁문장	-3539
▁발언	-3540
▁공동체	-3541
▁요코	-3542
▁현역	-3543
▁작사	-3544
▁한반도	-3545
▁탈출	-3546
▁생태	-3547
▁방송국	-3548
저우	-3549
▁민법	-3550
▁기호	-3551
▁1977	-3552
천군	-3553
▁학과	-3554
▁수영	-3555
▁장수	-3556
▁저지	-3557
▁친일	-3558
▁에도	-3559
▁말레이	-3560
▁큐	-3561
▁화면	-3562
▁합격	-3563
▁임의	-3564
▁라이트	-3565
ㅈㅕㅆㅇㅡ	-3566
▁벼	-3567
▁ㅇㅛ	-3568
▁고도	-3569
▁신청	-3570
▁기하	-3571
▁탄소	-3572
▁요인	-3573
▁청구	-3574
▁동남	-3575
▁트로	-3576
▁트라	-3577
아버지	-3578
▁이중	-3579
▁포로	-3580
▁분열	-3581
▁탈락	-3582
문화재	-3583
▁위상	-3584
▁찍	-3585
ㄴㅐㄹ	-3586
▁엑스	-3587
▁메모리	-3588
▁조절	-3589
▁1949	-3590
▁택	-3591
igh	-3592
▁FA	-3593
▁상원	-3594
▁특이	-3595
다가	-3596
성군	-3597
▁부부	-3598
▁예측	-3599
▁88	-3600
▁서식지	-3601
▁수소	-3602
▁이치	-3603
▁독립운동	-3604
▁연출	-3605
아들	-3606
크스	-3607
▁카메라	-3608
▁코파	-3609
ation	-3610
▁동작	-3611
▁정기	-3612
▁흐르	-3613
▁참고	-3614
▁화재	-3615
▁선조	-3616
▁국무	-3617
▁기법	-3618
▁배출	-3619
▁레오	-3620
▁62	-3621
▁1962	-3622
▁전동	-3623
ㄹㄹㅣㄹ	-3624
▁수리	-3625
로그	-3626
▁개조	-3627
▁처형	-3628
▁로켓	-3629
▁스토리	-3630
▁앵	-3631
▁황금	-3632
타르	-3633
▁레스	-3634
▁신인	-3635
ㄹㅓㅆ	-3636
▁취소	-3637
▁서원	-3638
▁실수	-3639
▁1967	-3640
▁주둔	-3641
카이도	-3642
려움	-3643
▁출간	-3644
▁기체	-3645
▁왕자	-3646
▁호수	-3647
▁57	-3648
브리	-3649
▁방지	-3650
▁장르	-3651
▁이승만	-3652
▁임진	-3653
▁동성	-3654
▁막부	-3655
▁선전	-3656
▁광장	-3657
▁누구	-3658
ㅟㄴㄷㅏ	-3659
▁생존	-3660
▁루트	-3661
천시	-3662
▁롱	-3663
드시	-3664
페라	-3665
▁방정식	-3666
▁ㅇㅣㅂㄴㅣ	-3667
▁먹이	-3668
▁좁	-3669
포르	-3670
▁오스만	-3671
▁경로	-3672
▁이시	-3673
▁ㅈㅕㅆㅇㅡ	-3674
▁남서	-3675
▁연안	-3676
▁흉	-3677
라드	-3678
▁농구	-3679
▁천연	-3680
▁ㅅㅣㅁ	-3681
바르	-3682
▁공정	-3683
▁흑인	-3684
▁지급	-3685
▁Ch	-3686
▁서구	-3687
▁콘스탄	-3688
▁달하	-3689
▁현지	-3690
▁여단	-3691
▁고지	-3692
▁You	-3693
▁전주	-3694
▁스럽	-3695
▁히트	-3696
▁어떠	-3697
▁ㅁㅏㅈ	-3698
▁진주	-3699
▁등지	-3700
▁크리	-3701
비치	-3702
▁ㄴㅏㅁㄱㅕㅆ	-3703
▁좌우	-3704
▁무덤	-3705
▁터널	-3706
▁일본군	-3707
▁도전	-3708
▁희망	-3709
▁의혹	-3710
먼트	-3711
▁동아	-3712
▁시드	-3713
▁반드시	-3714
nd	-3715
인물	-3716
▁이온	-3717
▁181	-3718
▁노벨	-3719
▁ㄴㅡㄴㄱㅏ	-3720
▁ㅇㅜ	-3721
▁성향	-3722
▁코르	-3723
▁톱	-3724
더스	-3725
아오	-3726
▁스탠	-3727
▁ㄱㅏㄹ	-3728
방송	-3729
▁법정	-3730
▁전면	-3731
▁녹색	-3732
ST	-3733
▁내전	-3734
▁그레이	-3735
▁r	-3736
에이	-3737
▁압력	-3738
▁제대로	-3739
티브	-3740
▁동기	-3741
▁범주	-3742
▁KBO	-3743
▁66	-3744
▁싸움	-3745
▁타임	-3746
▁글자	-3747
▁개신	-3748
ㄱㅣㄹ	-3749
ㅁㅜ	-3750
▁ㅍㅜ	-3751
바라	-3752
▁인지	-3753
▁1966	-3754
▁바둑	-3755
▁전형	-3756
▁둘째	-3757
▁미국인	-3758
▁유기	-3759
라이언	-3760
▁68	-3761
▁에르	-3762
▁비평	-3763
▁분명	-3764
▁부사	-3765
▁신뢰	-3766
▁짜	-3767
▁아프	-3768
▁매일	-3769
▁해리	-3770
▁파악	-3771
▁1965	-3772
▁%,	-3773
ㄹㄹㅓㅆ	-3774
▁체코	-3775
▁리처	-3776
▁삽	-3777
▁독특	-3778
▁ㄹㅏㅇ	-3779
▁간행	-3780
▁처벌	-3781
▁유행	-3782
▁퀸	-3783
▁목소리	-3784
▁별명	-3785
▁물체	-3786
▁아파트	-3787
▁한계	-3788
▁모형	-3789
▁ㅇㅣㄴㄱㅏ	-3790
▁183	-3791
▁홋	-3792
▁61	-3793
▁분할	-3794
▁뿌리	-3795
▁순환	-3796
▁오프	-3797
▁복지	-3798
▁분해	-3799
▁알렉산드	-3800
▁밥	-3801
▁나들	-3802
▁클레	-3803
ON	-3804
▁구현	-3805
▁화산	-3806
ER	-3807
▁일식	-3808
▁ㅊㅟ	-3809
질랜드	-3810
치아	-3811
피스	-3812
▁즐	-3813
르타	-3814
▁평등	-3815
베스	-3816
▁타격	-3817
▁뉴질랜드	-3818
▁찰스	-3819
▁집권	-3820
▁아동	-3821
▁던	-3822
이치	-3823
▁광복	-3824
▁벡터	-3825
▁돌아가	-3826
텐츠	-3827
▁사립	-3828
▁김일	-3829
▁시조	-3830
▁가상	-3831
▁방해	-3832
▁일찍	-3833
▁완료	-3834
▁아리	-3835
ㄷㅡ	-3836
▁플래	-3837
▁실질	-3838
▁나들목	-3839
art	-3840
▁최다	-3841
▁마르크	-3842
▁손자	-3843
▁묵	-3844
▁웅	-3845
ㅅㅔ	-3846
▁구하	-3847
▁파르	-3848
▁풍부	-3849
▁한정	-3850
ㅇㅜㅁ	-3851
▁희생	-3852
▁추구	-3853
▁갈색	-3854
▁우려	-3855
▁중기	-3856
▁1961	-3857
ice	-3858
▁800	-3859
▁물리학	-3860
▁호주	-3861
▁분기	-3862
유럽	-3863
▁첼	-3864
▁ㅈㅓㅇㅎㅐ	-3865
▁맞이	-3866
ㄴㅎㅐ	-3867
▁싸우	-3868
▁대개	-3869
▁흰	-3870
▁알파	-3871
▁부진	-3872
▁ㄲㅡㅌㄴㅏㄴ	-3873
▁사냥	-3874
▁대법	-3875
▁IS	-3876
▁리가	-3877
▁86	-3878
▁마시	-3879
▁확산	-3880
▁ㅍㅐ	-3881
▁캔	-3882
▁ㅂㅘ	-3883
디션	-3884
▁레인	-3885
▁전원	-3886
▁창원	-3887
▁ㄱㅏㄴ	-3888
▁일본인	-3889
▁프린	-3890
▁통산	-3891
▁600	-3892
▁테이	-3893
▁완공	-3894
▁출범	-3895
▁판사	-3896
▁ㅁㅏㄴㄴㅏ	-3897
▁닥	-3898
▁ㅁㅐ	-3899
▁기둥	-3900
▁웨이	-3901
▁가까	-3902
▁마법	-3903
est	-3904
▁가시	-3905
▁메리	-3906
▁올라	-3907
▁시카고	-3908
▁120	-3909
은행	-3910
▁근본	-3911
▁마침내	-3912
▁사임	-3913
▁ㅎㅑㅇㅎㅐ	-3914
▁사형	-3915
▁편찬	-3916
▁인증	-3917
▁점점	-3918
투스	-3919
▁사마	-3920
▁무게	-3921
사스	-3922
▁저술	-3923
▁대공	-3924
▁부하	-3925
▁악기	-3926
▁날개	-3927
ap	-3928
틀러	-3929
▁향하	-3930
▁닛	-3931
▁명확	-3932
▁유치	-3933
▁사원	-3934
▁단독	-3935
▁발굴	-3936
▁오페라	-3937
▁충격	-3938
▁인접	-3939
▁훗	-3940
▁re	-3941
▁교향	-3942
▁카라	-3943
▁가나	-3944
ak	-3945
▁탐사	-3946
▁98	-3947
▁영웅	-3948
▁홍보	-3949
▁명나라	-3950
▁기기	-3951
▁의지	-3952
▁늦	-3953
▁제이	-3954
▁조별	-3955
▁상위	-3956
▁성분	-3957
▁문명	-3958
▁뚜	-3959
▁맞추	-3960
TV	-3961
▁연구원	-3962
▁모토	-3963
▁연간	-3964
▁1919	-3965
▁넓이	-3966
▁1944	-3967
▁악화	-3968
▁개입	-3969
▁분위	-3970
▁이자	-3971
▁회담	-3972
리히	-3973
▁포인트	-3974
▁서명	-3975
▁조종	-3976
사자	-3977
▁ㅁㅏㅈㅊ	-3978
라이나	-3979
▁ㅅㅐㅇㄱㅕ	-3980
▁샘	-3981
AR	-3982
▁드라이	-3983
▁함락	-3984
▁등장인물	-3985
▁의심	-3986
▁적절	-3987
▁고속도로	-3988
▁곽	-3989
ia	-3990
▁렀	-3991
▁임기	-3992
믹스	-3993
▁학살	-3994
▁행렬	-3995
▁추천	-3996
▁링크	-3997
▁ㄴㅏㅆ	-3998
▁각지	-3999
▁도쿠	-4000
▁당초	-4001
민주	-4002
▁모임	-4003
▁훌	-4004
▁꺾	-4005
버그	-4006
우리	-4007
▁여론	-4008
▁끝나	-4009
▁접촉	-4010
▁포항	-4011
▁ㄱㅗㄴ	-4012
▁63	-4013
▁새롭	-4014
▁뮤지	-4015
▁변수	-4016
▁동서	-4017
▁무시	-4018
▁입법	-4019
▁멘	-4020
▁자전	-4021
▁그라	-4022
▁프리미어	-4023
▁골든	-4024
▁1941	-4025
ㄹㅏㅆ	-4026
▁독일군	-4027
▁경전	-4028
▁ㅇㅗㄹㄹㅕ	-4029
▁95	-4030
▁자극	-4031
▁순수	-4032
▁스마트	-4033
메이	-4034
▁사정	-4035
▁사실상	-4036
▁올해	-4037
▁기온	-4038
▁개막	-4039
러리	-4040
▁세르비아	-4041
▁74	-4042
▁순간	-4043
▁DNA	-4044
▁확률	-4045
▁프로그래	-4046
ct	-4047
▁징역	-4048
▁팽	-4049
▁ㄷㅏㄹ	-4050
학생	-4051
▁59	-4052
▁ㅂㅗㅇㅎㅐ	-4053
▁루스	-4054
▁득표	-4055
▁바위	-4056
▁공로	-4057
▁락	-4058
▁네이	-4059
▁IC	-4060
숭이	-4061
▁공헌	-4062
▁매장	-4063
▁닉	-4064
▁밝히	-4065
▁심사	-4066
▁혼합	-4067
일리	-4068
▁구원	-4069
▁한국인	-4070
▁아티	-4071
▁정하	-4072
▁앤드	-4073
▁재배	-4074
▁등판	-4075
연히	-4076
▁Lo	-4077
▁느끼	-4078
▁튜	-4079
▁178	-4080
▁보고서	-4081
▁수석	-4082
▁추산	-4083
▁실현	-4084
▁오랫	-4085
▁방위	-4086
▁페르시아	-4087
▁그때	-4088
▁커뮤	-4089
대부	-4090
▁랜드	-4091
▁예전	-4092
▁특별시	-4093
무부	-4094
코스	-4095
▁개신교	-4096
▁태도	-4097
▁감시	-4098
ㄴㅕㅆ	-4099
▁벗	-4100
▁텍사스	-4101
▁줄기	-4102
▁SS	-4103
▁1958	-4104
▁백성	-4105
▁시사	-4106
▁출력	-4107
▁급제	-4108
ul	-4109
▁왕실	-4110
▁훗날	-4111
▁지형	-4112
▁뱅	-4113
▁ㅋㅡㄹ	-4114
▁ㄷㅏㅁ	-4115
▁프라이	-4116
▁언제	-4117
▁안드로	-4118
▁미쓰	-4119
▁이닝	-4120
▁피터	-4121
▁대선	-4122
▁떨어지	-4123
▁양쪽	-4124
▁82	-4125
▁커뮤니	-4126
▁1947	-4127
▁ㅈㅡㄹ	-4128
▁그래픽	-4129
▁오랫동안	-4130
▁균형	-4131
▁침략	-4132
▁160	-4133
▁단편	-4134
▁영지	-4135
▁to	-4136
이너	-4137
▁72	-4138
▁76	-4139
▁ㅂㅓㅅ	-4140
▁;/	-4141
▁복원	-4142
▁재건	-4143
▁원형	-4144
▁에드워드	-4145
▁경남	-4146
▁흐름	-4147
▁ㅁㅜㄹㄹㅓ	-4148
▁긍	-4149
▁ㅎㅏㅂㅊㅕ	-4150
▁다케	-4151
▁리처드	-4152
ㅎㅣㄴ	-4153
▁승객	-4154
▁1956	-4155
▁대량	-4156
▁안토	-4157
▁AFC	-4158
▁이라크	-4159
▁발발	-4160
▁승부	-4161
▁내려	-4162
▁여왕	-4163
▁아이돌	-4164
▁저녁	-4165
▁신부	-4166
▁제사	-4167
▁보물	-4168
▁교구	-4169
▁가와	-4170
▁자라	-4171
▁점수	-4172
▁미야	-4173
▁작위	-4174
리노	-4175
▁테스트	-4176
▁동명	-4177
▁포켓	-4178
▁입력	-4179
▁멀리	-4180
▁무사	-4181
ie	-4182
▁77	-4183
▁권위	-4184
▁춤	-4185
▁시상	-4186
▁안동	-4187
▁프랑크	-4188
▁데스	-4189
▁비상	-4190
ㄹㅡ	-4191
▁타자	-4192
▁리버	-4193
▁분위기	-4194
▁잠수	-4195
메리칸	-4196
ㄱㅎㅏㄴ	-4197
▁타워	-4198
▁한글	-4199
▁확립	-4200
▁석유	-4201
▁ㅅㅗㄱㅎㅏㄴ	-4202
▁정수	-4203
▁일상	-4204
▁1939	-4205
▁침입	-4206
▁축구단	-4207
▁개설	-4208
▁67	-4209
▁마무	-4210
▁업적	-4211
▁도요	-4212
▁복음	-4213
▁ㅂㅔ	-4214
▁바깥	-4215
▁과학자	-4216
▁폭탄	-4217
▁와이	-4218
레나	-4219
▁암호	-4220
▁사자	-4221
ㅇㄴㅏㄴ	-4222
왜란	-4223
▁Th	-4224
▁임진왜란	-4225
▁가설	-4226
▁창작	-4227
▁더블	-4228
▁민중	-4229
▁병합	-4230
ud	-4231
▁혁신	-4232
▁복수	-4233
▁수익	-4234
레옹	-4235
IA	-4236
▁연예	-4237
일스	-4238
▁가공	-4239
▁동양	-4240
og	-4241
▁대왕	-4242
▁기소	-4243
▁다운	-4244
▁일시	-4245
에른	-4246
▁어깨	-4247
▁ㅎㅡ	-4248
▁나폴레옹	-4249
▁자식	-4250
▁브라운	-4251
▁사제	-4252
▁파워	-4253
ly	-4254
▁시마	-4255
▁국기	-4256
▁신고	-4257
▁85	-4258
▁주최	-4259
th	-4260
▁부지	-4261
▁신자	-4262
▁빅토	-4263
▁발음	-4264
▁훈장	-4265
▁우라	-4266
마니아	-4267
▁내셔널	-4268
▁인쇄	-4269
▁대성	-4270
▁산화	-4271
▁ㄷㅏㄹㄹㅏ	-4272
▁후계	-4273
▁ㅂㅓㄹㅇㅕㅆ	-4274
▁계층	-4275
▁공중	-4276
▁본질	-4277
▁진단	-4278
▁힌	-4279
▁구글	-4280
ist	-4281
▁당국	-4282
▁폐쇄	-4283
▁평안	-4284
레인	-4285
▁평론	-4286
이센	-4287
▁1954	-4288
▁력	-4289
▁자이언	-4290
▁도모	-4291
▁ㄴㅡㄹㅇㅓ	-4292
▁움직이	-4293
보이	-4294
▁가량	-4295
▁생물학	-4296
▁쌀	-4297
▁가담	-4298
▁고기	-4299
ㄱㅣㄴㄷㅏ	-4300
▁후속	-4301
▁노출	-4302
ight	-4303
▁DV	-4304
▁레알	-4305
▁빌보드	-4306
BA	-4307
▁어디	-4308
▁탱	-4309
▁동방	-4310
▁참모	-4311
▁ㅊㅣㄴ	-4312
조합	-4313
▁아트	-4314
▁심지	-4315
▁1952	-4316
▁뷰	-4317
▁73	-4318
▁가이	-4319
▁조조	-4320
▁돕	-4321
▁비서	-4322
▁라스	-4323
▁총회	-4324
아티아	-4325
▁세리	-4326
▁역학	-4327
▁아테네	-4328
▁크로아티아	-4329
▁타운	-4330
▁96	-4331
▁대지	-4332
체스터	-4333
▁누르	-4334
▁무한	-4335
▁박정희	-4336
▁움직임	-4337
▁ㅇㅏㅍㅅㅓ	-4338
▁탈퇴	-4339
▁뮤지컬	-4340
▁환승	-4341
▁람	-4342
▁*	-4343
▁ㅎㅣㅁ	-4344
▁포스트	-4345
▁전신	-4346
ㄴㅟㄴㄷㅏ	-4347
▁인용	-4348
▁화이트	-4349
▁로봇	-4350
ㅇㅗㄹ	-4351
▁보상	-4352
▁셔	-4353
▁중력	-4354
▁다소	-4355
▁81	-4356
▁고통	-4357
▁국정	-4358
▁예방	-4359
▁이혼	-4360
▁스타디	-4361
▁Al	-4362
ㄷㅜ	-4363
▁78	-4364
▁ㅊㅐ	-4365
AS	-4366
▁오카	-4367
▁실력	-4368
▁ㅁㅏㄴㄷㅡㄹ	-4369
▁작동	-4370
▁뤼	-4371
▁뮌	-4372
▁그렇게	-4373
▁타이거	-4374
▁매체	-4375
▁행복	-4376
▁청주	-4377
너스	-4378
▁재학	-4379
AT	-4380
마르	-4381
▁상관	-4382
필더	-4383
▁ㅅㅣㄴ	-4384
▁젠	-4385
▁결론	-4386
▁수도원	-4387
▁교리	-4388
▁미드필더	-4389
ㅊㅏ	-4390
시오	-4391
▁바이에른	-4392
▁장남	-4393
▁심장	-4394
ㅝㄴ	-4395
▁따로	-4396
▁비례	-4397
▁도덕	-4398
▁김성	-4399
▁최후	-4400
▁천안	-4401
▁메달	-4402
▁전투기	-4403
▁ㅊㅕ	-4404
▁절반	-4405
▁센트	-4406
▁화합	-4407
▁사무소	-4408
▁화장	-4409
▁전남	-4410
▁지사	-4411
ㅂㅎㅕ	-4412
▁질환	-4413
터스	-4414
토스	-4415
바로	-4416
▁뽑	-4417
▁포스	-4418
▁약물	-4419
타이	-4420
▁202	-4421
▁피해자	-4422
▁김대	-4423
▁보르	-4424
세포	-4425
▁산소	-4426
▁블라	-4427
▁지향	-4428
ㅂㅗㄹ	-4429
ess	-4430
▁인생	-4431
▁기리	-4432
▁손상	-4433
▁하인	-4434
▁AT	-4435
▁황후	-4436
▁빌딩	-4437
자치	-4438
클리	-4439
▁가까이	-4440
의정	-4441
▁71	-4442
▁국군	-4443
▁사우스	-4444
▁기상	-4445
▁ㄴㅓㅁㅇㅓ	-4446
▁ㅇㅗㄻㄱㅕㅆ	-4447
▁모바	-4448
▁NH	-4449
▁1959	-4450
▁ㄲㅣ	-4451
▁바닥	-4452
▁여섯	-4453
▁91	-4454
▁Li	-4455
▁문신	-4456
▁유산	-4457
▁피부	-4458
▁혼인	-4459
▁패션	-4460
▁전직	-4461
▁골드	-4462
▁177	-4463
▁선박	-4464
▁메시지	-4465
▁당나라	-4466
▁불만	-4467
▁소득	-4468
▁글로벌	-4469
▁주력	-4470
▁상역	-4471
▁콘스탄티	-4472
▁세부	-4473
▁총장	-4474
▁유통	-4475
▁녀	-4476
▁윗	-4477
▁하원	-4478
▁백만	-4479
▁위키	-4480
▁액션	-4481
▁인원	-4482
▁묻	-4483
▁깃	-4484
▁관여	-4485
▁규제	-4486
▁승려	-4487
▁신사	-4488
▁심판	-4489
▁디아	-4490
▁개방	-4491
▁검토	-4492
▁아웃	-4493
스트라	-4494
▁피하	-4495
▁햄	-4496
▁가마	-4497
직자	-4498
▁디스크	-4499
하여	-4500
▁부담	-4501
ㅁㅊㅓ	-4502
▁ㅇㅓㅁㅊㅓ	-4503
쿠스	-4504
▁벌이	-4505
▁상실	-4506
▁요금	-4507
▁마무리	-4508
▁긍정	-4509
▁호소	-4510
▁1942	-4511
▁쿠데	-4512
▁가슴	-4513
▁동해	-4514
▁퀴	-4515
▁그린	-4516
▁통화	-4517
가락	-4518
▁AP	-4519
▁수요	-4520
▁왕비	-4521
▁좌상	-4522
▁프로이센	-4523
리학	-4524
▁소멸	-4525
▁창당	-4526
IV	-4527
▁곱	-4528
▁87	-4529
▁결의	-4530
▁이명	-4531
미야	-4532
▁가요	-4533
▁페이지	-4534
▁;,	-4535
▁구매	-4536
▁ㅅㅏㄴ	-4537
▁드래프트	-4538
▁모바일	-4539
▁연습	-4540
ub	-4541
▁적합	-4542
▁말레이시아	-4543
▁비치	-4544
▁설득	-4545
▁덜	-4546
▁st	-4547
▁사격	-4548
나가	-4549
▁처분	-4550
▁알고리	-4551
▁1943	-4552
▁조카	-4553
▁주석	-4554
▁억제	-4555
▁일기	-4556
▁홋카이도	-4557
가니	-4558
▁오직	-4559
▁테크	-4560
▁크루	-4561
▁김일성	-4562
▁부산광역시	-4563
▁전당	-4564
▁159	-4565
▁심지어	-4566
▁위대	-4567
▁싱가	-4568
▁필드	-4569
▁잭슨	-4570
▁싱가포르	-4571
▁음악가	-4572
▁1955	-4573
▁분노	-4574
▁쿠데타	-4575
▁ㅇㅓㅁㅊㅓㅇㄴㅏㄴ	-4576
▁앉	-4577
▁개성	-4578
▁대책	-4579
▁선임	-4580
▁보살	-4581
▁무료	-4582
ㄷㅜㄴ	-4583
▁야스	-4584
▁원년	-4585
▁띄	-4586
▁진정	-4587
▁일본어	-4588
▁톨	-4589
▁1953	-4590
ㄹㅜㄴ	-4591
▁스타디움	-4592
ㅆㅏ	-4593
▁84	-4594
▁\	-4595
ㅊㅣㄹ	-4596
▁1936	-4597
▁ㅂㅗㄴㄷㅏ	-4598
▁일체	-4599
▁ㅅㅟ	-4600
▁발탁	-4601
▁알고리즘	-4602
유산	-4603
▁700	-4604
▁사도	-4605
드리히	-4606
▁천주교	-4607
▁토론토	-4608
▁일컫	-4609
▁쾌	-4610
▁왕후	-4611
▁티베	-4612
▁루마니아	-4613
▁진영	-4614
ab	-4615
미르	-4616
▁크로스	-4617
▁상속	-4618
▁카스	-4619
▁유형문화재	-4620
▁기동	-4621
▁세자	-4622
▁테마	-4623
▁덮	-4624
▁거듭	-4625
▁힙	-4626
▁시나	-4627
▁프랭	-4628
▁이와	-4629
ㄴㅑ	-4630
데이	-4631
▁사무실	-4632
ㅊㅣㄴㄷㅏ	-4633
▁여우	-4634
▁어려움	-4635
▁콘텐츠	-4636
▁조지아	-4637
▁Re	-4638
▁끝내	-4639
▁정차	-4640
▁1910	-4641
▁김종	-4642
▁폭격	-4643
▁ㅇㅜㅁ	-4644
▁태조	-4645
▁궁전	-4646
▁ㅇㅕㅆㅇㅡㄹ	-4647
주군	-4648
▁타인	-4649
▁프리드리히	-4650
▁용도	-4651
▁유고	-4652
ㅂㅎㅕㅆ	-4653
▁불안	-4654
▁전북	-4655
▁전동차	-4656
ine	-4657
▁1900	-4658
▁딜	-4659
▁학사	-4660
▁후쿠오카	-4661
▁챔피언십	-4662
▁ㄷㅔㄴ	-4663
▁리드	-4664
▁ㅅㅐㅇㄱㅣㄴ	-4665
▁즉시	-4666
▁히틀러	-4667
▁독재	-4668
▁음성	-4669
▁발명	-4670
▁남아프리카	-4671
▁원주민	-4672
▁오이	-4673
▁ㅇㅗㄹ	-4674
▁강릉	-4675
▁DVD	-4676
▁메이지	-4677
▁스티븐	-4678
▁ㅂㅓㅅㅇㅓ	-4679
구리	-4680
▁97	-4681
시스코	-4682
▁주소	-4683
▁포켓몬	-4684
▁부동	-4685
▁에서	-4686
래프트	-4687
▁개칭	-4688
▁검색	-4689
▁아메리칸	-4690
▁막대	-4691
▁깊이	-4692
▁딘	-4693
▁연설	-4694
▁1957	-4695
ew	-4696
▁휴대	-4697
리나	-4698
▁진격	-4699
란색	-4700
▁구입	-4701
▁영양	-4702
▁대체로	-4703
▁각국	-4704
▁추방	-4705
▁세트	-4706
베르트	-4707
▁전송	-4708
▁수호	-4709
▁ㅅㅗㄱㅎㅐ	-4710
▁본명	-4711
아들이	-4712
▁조상	-4713
▁코리아	-4714
▁누리	-4715
독부	-4716
▁이즈	-4717
▁ㅅㅓㄴㅂㅗ	-4718
▁1914	-4719
미니	-4720
▁최우	-4721
▁필수	-4722
▁스미스	-4723
▁인디언	-4724
원경	-4725
▁사기	-4726
머리	-4727
▁수업	-4728
▁동북	-4729
▁69	-4730
▁대우	-4731
비히	-4732
▁전술	-4733
리그	-4734
▁광범	-4735
ue	-4736
▁초점	-4737
▁선형	-4738
▁신장	-4739
▁이마	-4740
▁자국	-4741
ㅎㅕㅆ	-4742
구치	-4743
▁92	-4744
▁사양	-4745
▁불가리아	-4746
EC	-4747
▁덩	-4748
▁넥	-4749
▁도마	-4750
▁알바	-4751
▁클로	-4752
▁랑	-4753
제국	-4754
▁섹	-4755
▁바르셀	-4756
▁바르셀로나	-4757
▁="	-4758
▁미리	-4759
▁신도	-4760
▁미술관	-4761
▁핫	-4762
지사	-4763
▁개량	-4764
▁림	-4765
▁라이프	-4766
▁노트	-4767
▁커버	-4768
▁101	-4769
▁서술	-4770
▁천만	-4771
▁렀다	-4772
로지	-4773
▁사과	-4774
▁펑	-4775
▁느낌	-4776
▁배포	-4777
▁재즈	-4778
▁원수	-4779
▁유효	-4780
▁시내버스	-4781
▁주니어	-4782
총리	-4783
▁부위	-4784
▁1938	-4785
▁급격	-4786
▁HD	-4787
▁션	-4788
▁후임	-4789
▁스프링	-4790
▁연락	-4791
▁윙	-4792
▁립	-4793
▁이내	-4794
▁석사	-4795
▁01	-4796
▁완벽	-4797
▁랩	-4798
자키	-4799
산화	-4800
▁상주	-4801
▁저자	-4802
▁상인	-4803
▁오키	-4804
▁ㅎㅐㅇㅎㅐ	-4805
▁마스터	-4806
히로	-4807
▁고시	-4808
▁운항	-4809
▁알레	-4810
▁고급	-4811
▁방언	-4812
▁빌리	-4813
▁화석	-4814
▁해발	-4815
▁ㅍㅕㄹㅊㅕ	-4816
▁웰	-4817
▁국적	-4818
▁마르크스	-4819
▁상수	-4820
BM	-4821
▁연평	-4822
▁추기	-4823
▁라틴어	-4824
▁늑	-4825
▁스탈	-4826
▁언덕	-4827
▁화려	-4828
▁소형	-4829
▁실천	-4830
▁똑	-4831
▁손실	-4832
▁안드	-4833
▁소비자	-4834
▁1918	-4835
▁블록	-4836
▁게다가	-4837
▁풋	-4838
▁대만	-4839
총독부	-4840
▁조선총독부	-4841
▁언스	-4842
▁ㄲㅔ	-4843
ㅆㅏㄴ	-4844
오르	-4845
▁정교회	-4846
▁백인	-4847
▁1951	-4848
▁올스타	-4849
▁암컷	-4850
▁ㅅㅜㅁ	-4851
▁반사	-4852
▁주체	-4853
펙트	-4854
민주당	-4855
ㅈㅓ	-4856
▁고위	-4857
▁집회	-4858
▁게르	-4859
▁사퇴	-4860
▁경제학	-4861
▁그만	-4862
▁물건	-4863
▁의문	-4864
▁1932	-4865
▁계곡	-4866
▁일련	-4867
▁미스	-4868
▁이념	-4869
▁짝	-4870
▁on	-4871
▁미시	-4872
▁질문	-4873
ㄱㅎㅕ	-4874
▁1937	-4875
▁{	-4876
▁개별	-4877
ㅂㅜㅌ	-4878
필드	-4879
▁묶	-4880
▁경비	-4881
▁실업	-4882
무늬	-4883
▁영주	-4884
▁차단	-4885
▁우크라	-4886
▁ㄷㅡㅅㅇㅣ	-4887
▁ㅁㅏㄴㄴㅏㅆ	-4888
▁닥터	-4889
▁뮌헨	-4890
▁탄압	-4891
▁분화	-4892
▁이스트	-4893
▁싱어	-4894
▁고객	-4895
▁면역	-4896
ect	-4897
▁엘리자	-4898
▁설치류	-4899
▁노리	-4900
▁감각	-4901
▁89	-4902
▁만든	-4903
▁선포	-4904
▁첩	-4905
▁퀘	-4906
ㄸㅡ	-4907
여금	-4908
▁크라	-4909
▁칭호	-4910
▁추기경	-4911
▁진학	-4912
▁회로	-4913
▁마틴	-4914
저스	-4915
▁용인	-4916
▁체험	-4917
▁후계자	-4918
사전	-4919
▁1935	-4920
ㅢㄴ	-4921
▁클리	-4922
▁흰색	-4923
▁구상	-4924
▁사찰	-4925
▁ㅅㅐㅇㄱㅕㅆ	-4926
▁분교	-4927
▁부친	-4928
▁재개	-4929
▁ㅈㅓㅂㅎㅏㄴㄷㅏ	-4930
▁찬성	-4931
▁광범위	-4932
▁트레이드	-4933
▁93	-4934
▁격파	-4935
바키아	-4936
▁이웃	-4937
▁ㄱㅘㄴㅎㅐ	-4938
▁182	-4939
▁화제	-4940
▁갑자기	-4941
▁OS	-4942
▁타율	-4943
▁로렌	-4944
▁고양이	-4945
▁비행기	-4946
▁프랑스군	-4947
▁중추	-4948
▁수치	-4949
하이	-4950
▁기부	-4951
▁변하	-4952
▁파티	-4953
▁자본주의	-4954
▁ㅎㅏㅂㄴㅣ	-4955
▁곡선	-4956
▁화폐	-4957
가시	-4958
▁당원	-4959
▁Be	-4960
▁거짓	-4961
▁겉	-4962
▁비스	-4963
▁항공사	-4964
브라	-4965
▁자산	-4966
▁다스	-4967
▁지수	-4968
▁공신	-4969
▁발간	-4970
▁받아들이	-4971
ㅅㅜ	-4972
동생	-4973
▁클래식	-4974
▁질서	-4975
▁성남	-4976
런스	-4977
▁항의	-4978
▁쿨	-4979
▁법학	-4980
▁양산	-4981
▁오버	-4982
▁잠수함	-4983
▁촉진	-4984
▁아티스트	-4985
▁세월	-4986
▁유배	-4987
▁전적	-4988
▁줄이	-4989
▁쿼	-4990
센트	-4991
▁증언	-4992
IN	-4993
ㅇㅏㅆ	-4994
▁남녀	-4995
어로	-4996
▁가속	-4997
▁반지	-4998
▁전망	-4999
▁탕	-5000
▁개척	-5001
▁시트	-5002
▁마루	-5003
▁수백	-5004
슈타인	-5005
▁소화	-5006
▁팩	-5007
▁FM	-5008
▁꾸준	-5009
ore	-5010
▁대법원	-5011
▁티베트	-5012
▁시모	-5013
▁남기	-5014
▁내놓	-5015
▁영원	-5016
▁툴	-5017
▁보편	-5018
▁운송	-5019
▁허락	-5020
▁94	-5021
▁목성	-5022
▁습격	-5023
▁CP	-5024
▁히어로	-5025
벤트	-5026
▁극단	-5027
▁축소	-5028
추어	-5029
▁1933	-5030
▁구멍	-5031
도사	-5032
▁탄핵	-5033
ell	-5034
▁정류	-5035
▁ㅌㅓ	-5036
리우스	-5037
▁물고기	-5038
▁원시	-5039
our	-5040
▁쟁	-5041
▁동화	-5042
▁프랑스어	-5043
▁대칭	-5044
▁아오	-5045
▁거치	-5046
▁군부	-5047
▁소위	-5048
▁강남	-5049
▁1928	-5050
▁조항	-5051
▁프로그래밍	-5052
▁핸	-5053
▁베리	-5054
▁소집	-5055
▁익스	-5056
▁콜로	-5057
공사	-5058
돼지	-5059
다수	-5060
프레	-5061
▁영구	-5062
▁수십	-5063
▁직무	-5064
▁선호	-5065
▁칠레	-5066
▁멀티	-5067
▁동경	-5068
닉스	-5069
슬링	-5070
ㄴㅐㅆㅇㅡ	-5071
▁료	-5072
▁태종	-5073
▁79	-5074
ㅡㄹㄹㅕ	-5075
▁09	-5076
▁개명	-5077
▁1924	-5078
▁시신	-5079
ID	-5080
▁누스	-5081
▁실내	-5082
▁메트로	-5083
▁고교	-5084
▁상대식	-5085
▁간부	-5086
▁줄어들	-5087
▁오가	-5088
▁자매	-5089
▁부속	-5090
사이	-5091
▁무용	-5092
▁국토	-5093
▁해제	-5094
▁이행	-5095
▁자이언츠	-5096
end	-5097
▁콜롬	-5098
▁ㄷㅏㅇㅎㅐ	-5099
▁원자력	-5100
▁조기	-5101
▁주일	-5102
▁파키스탄	-5103
▁댄스	-5104
▁사막	-5105
▁약화	-5106
▁열매	-5107
▁펀	-5108
▁김해	-5109
▁개장	-5110
▁04	-5111
▁입대	-5112
▁지불	-5113
▁발레	-5114
▁프로토	-5115
▁치르	-5116
▁충분히	-5117
▁재능	-5118
▁합동	-5119
▁110	-5120
▁하여금	-5121
▁정통	-5122
▁돌아오	-5123
▁토너	-5124
▁혼자	-5125
페이스	-5126
▁강전	-5127
▁대로	-5128
뜨리	-5129
▁브로	-5130
▁형상	-5131
▁정면	-5132
▁토착	-5133
▁회색	-5134
▁오류	-5135
▁동굴	-5136
▁판정	-5137
▁의정부	-5138
▁구름	-5139
▁매치	-5140
▁이벤트	-5141
▁펼	-5142
리다	-5143
▁08	-5144
▁러브	-5145
▁재생	-5146
드라	-5147
▁대승	-5148
▁존스	-5149
▁퓨	-5150
▁이재	-5151
▁종사	-5152
▁하와	-5153
▁행적	-5154
▁스카이	-5155
▁토마스	-5156
▁아마추어	-5157
코프	-5158
▁안티	-5159
▁지표	-5160
▁지중	-5161
▁그리하여	-5162
▁액체	-5163
▁토대	-5164
▁ㅎㅡㄹㄹㅓ	-5165
ill	-5166
▁진실	-5167
▁Co	-5168
▁틴	-5169
▁법안	-5170
▁보스턴	-5171
른바	-5172
▁ㄹㅣㅇ	-5173
▁웃	-5174
▁당신	-5175
▁주문	-5176
▁총재	-5177
▁스크린	-5178
과이	-5179
▁코너	-5180
▁손해	-5181
▁ㄷㅓㅅ	-5182
베리아	-5183
▁ㄱㅏㄴㄷㅏ	-5184
▁룸	-5185
▁놀이	-5186
▁유아	-5187
▁MS	-5188
▁성서	-5189
▁장점	-5190
▁평면	-5191
▁이른바	-5192
ers	-5193
▁사이드	-5194
▁초상	-5195
▁서방	-5196
▁170	-5197
▁안토니	-5198
ain	-5199
▁세로	-5200
▁ㅆㅡㄹ	-5201
▁ㄱㅓㄹㅊㅣㄴ	-5202
▁가깝	-5203
▁뼈	-5204
▁다큐	-5205
티스	-5206
▁밀리	-5207
ㅈㅣㄱ	-5208
▁베네치아	-5209
▁스톤	-5210
▁배열	-5211
▁우에	-5212
어도	-5213
▁오케	-5214
▁가난	-5215
▁빚	-5216
▁당대	-5217
▁강도	-5218
▁편의	-5219
▁흔적	-5220
▁83	-5221
▁전제	-5222
테스	-5223
▁개찰	-5224
▁중계	-5225
▁단순히	-5226
▁메탈	-5227
▁비잔	-5228
▁봉기	-5229
▁수컷	-5230
▁경북	-5231
▁호흡	-5232
▁경고	-5233
▁장로	-5234
▁젤	-5235
AN	-5236
데르	-5237
▁자랑	-5238
▁중동	-5239
▁힙합	-5240
▁스케이	-5241
▁분산	-5242
▁빼앗	-5243
▁엄격	-5244
▁토너먼트	-5245
ㅇㅣㅁ	-5246
▁페리	-5247
▁요코하마	-5248
▁De	-5249
ㅋㅡㅁ	-5250
ard	-5251
▁늑대	-5252
▁무력	-5253
조선	-5254
▁대사관	-5255
▁안쪽	-5256
▁철거	-5257
▁재임	-5258
고속	-5259
▁메르	-5260
▁ㅎㅢㄴ	-5261
▁국방부	-5262
▁ㅁㅗㅅㅎㅏㄴㄷㅏ	-5263
ㅅㅡ	-5264
▁벼슬	-5265
▁투스	-5266
▁혈액	-5267
▁경찰서	-5268
▁장례	-5269
▁아프가니	-5270
▁선로	-5271
▁들어오	-5272
▁함경	-5273
▁인민군	-5274
▁소문	-5275
▁판타	-5276
▁한성	-5277
▁1934	-5278
제르	-5279
▁레닌	-5280
즈니	-5281
▁근육	-5282
▁닐	-5283
▁빵	-5284
▁주재	-5285
▁해설	-5286
▁대원	-5287
▁북미	-5288
▁나이트	-5289
▁카리	-5290
▁할아버지	-5291
▁접속	-5292
▁농장	-5293
▁코어	-5294
▁포드	-5295
▁발전소	-5296
▁광산	-5297
크래프트	-5298
▁추적	-5299
▁동지	-5300
▁마감	-5301
세대	-5302
▁대가	-5303
▁맨체스터	-5304
▁ㄴㅗㅎㅇㅕ	-5305
성기	-5306
▁안내	-5307
▁양국	-5308
▁쿠바	-5309
▁노동당	-5310
레오	-5311
아르	-5312
▁밸	-5313
키퍼	-5314
▁구사	-5315
▁일단	-5316
▁행하	-5317
▁쏘	-5318
▁입구	-5319
공업	-5320
▁대동	-5321
▁골키퍼	-5322
▁동메달	-5323
▁리스트	-5324
▁중지	-5325
ㅅㅣㄴ	-5326
유키	-5327
▁시계	-5328
▁글리	-5329
▁동구	-5330
▁뱀	-5331
▁사망자	-5332
▁주자	-5333
▁현존	-5334
▁레지	-5335
▁곤충	-5336
▁야당	-5337
▁ㄷㅓㅅㅂㅜㅌ	-5338
베르크	-5339
▁강요	-5340
▁조문	-5341
▁본토	-5342
ㄹㅣㅁ	-5343
▁탓	-5344
▁사카	-5345
▁항해	-5346
▁Me	-5347
▁130	-5348
▁ㅁㅏㄴㅋㅡㅁ	-5349
▁흘	-5350
▁남극	-5351
▁복사	-5352
▁르네	-5353
▁테르	-5354
▁유키	-5355
▁토머스	-5356
야스	-5357
▁거점	-5358
▁화합물	-5359
▁아프가니스탄	-5360
▁정조	-5361
▁140	-5362
▁철학자	-5363
위대	-5364
▁계수	-5365
▁로즈	-5366
▁은메달	-5367
▁재판소	-5368
▁알렉산더	-5369
ne	-5370
▁부호	-5371
ㅎㅏㅁ	-5372
▁Sh	-5373
▁드물	-5374
▁부작	-5375
▁ㅈㅣㄹ	-5376
▁도쿠가와	-5377
▁김구	-5378
ㄷㅡㄹㅇㅕㅆ	-5379
무르	-5380
▁부처	-5381
▁선물	-5382
▁살아	-5383
▁정확히	-5384
▁ㅎㅔ	-5385
OR	-5386
▁식량	-5387
▁ㅇㅜㅁㅈㅣㄱ	-5388
▁중성	-5389
▁스탈린	-5390
레아	-5391
▁심리학	-5392
▁돔	-5393
▁아과	-5394
우치	-5395
▁필립	-5396
▁페이스	-5397
▁멸종	-5398
▁모노	-5399
▁칼리지	-5400
▁오염	-5401
▁펄	-5402
▁종전	-5403
안군	-5404
▁경사	-5405
▁초청	-5406
돌프	-5407
▁새끼	-5408
▁관계자	-5409
▁클래스	-5410
▁증권	-5411
▁th	-5412
▁매주	-5413
▁체육관	-5414
▁농촌	-5415
▁아비	-5416
AM	-5417
▁ㄲㅗ	-5418
▁이정	-5419
▁필라	-5420
▁위안	-5421
▁세금	-5422
▁구로	-5423
▁로맨	-5424
▁석방	-5425
▁역전	-5426
▁훼	-5427
▁독점	-5428
▁휘하	-5429
▁금강	-5430
▁간격	-5431
▁ST	-5432
▁그래프	-5433
▁1931	-5434
▁ㅎㅟ	-5435
▁타카	-5436
▁아틀	-5437
▁존슨	-5438
▁대다수	-5439
▁진동	-5440
▁ㄷㅙㅆㅇㅡ	-5441
▁히로시마	-5442
▁특별히	-5443
▁그리스어	-5444
▁교향곡	-5445
▁아이스	-5446
▁연호	-5447
베리	-5448
▁새벽	-5449
all	-5450
▁타원	-5451
▁특허	-5452
▁파울	-5453
▁성명	-5454
▁기생	-5455
사관	-5456
▁강등	-5457
▁폭풍	-5458
▁풍속	-5459
▁cod	-5460
▁부품	-5461
▁자유주의	-5462
게이	-5463
▁목포	-5464
▁윤리	-5465
▁마그	-5466
▁유력	-5467
▁An	-5468
▁일곱	-5469
▁기병	-5470
레이크	-5471
▁문법	-5472
나르	-5473
므로	-5474
▁명시	-5475
▁ㅁㅣㄹㄹㅕ	-5476
▁코트	-5477
▁인터페이스	-5478
클린	-5479
▁꾼	-5480
▁버지	-5481
▁비즈	-5482
▁공룡	-5483
▁원조	-5484
▁대한제국	-5485
▁도메	-5486
▁비중	-5487
▁관객	-5488
▁미카	-5489
▁사관	-5490
▁캠프	-5491
▁트랜스	-5492
사르	-5493
▁좌파	-5494
▁해협	-5495
▁하버	-5496
▁250	-5497
▁ㅅㅠ	-5498
▁ㅍㅕㄹㅊㅕㅆ	-5499
▁박근	-5500
▁유대인	-5501
▁뚜렷	-5502
▁네이션	-5503
▁스트라이	-5504
▁감옥	-5505
▁킬로	-5506
▁무늬	-5507
▁ㄷㅏㄹㄹㅕ	-5508
▁집필	-5509
▁미분	-5510
▁동성애	-5511
▁건담	-5512
▁교도	-5513
▁그러므로	-5514
▁고고	-5515
▁지휘관	-5516
▁다다	-5517
▁합리	-5518
▁176	-5519
▁1921	-5520
▁뻗	-5521
느님	-5522
ang	-5523
▁유발	-5524
▁가구	-5525
▁수산	-5526
▁타점	-5527
▁단장	-5528
▁박스	-5529
▁ㄴㅗㅍ	-5530
▁1929	-5531
둥이	-5532
▁공세	-5533
▁구리	-5534
▁하느님	-5535
▁입사	-5536
▁스테이션	-5537
▁지칭	-5538
▁05	-5539
▁대결	-5540
▁숙종	-5541
▁키스	-5542
▁훌륭	-5543
▁라트	-5544
▁협약	-5545
▁캡	-5546
널드	-5547
▁삼각	-5548
▁소요	-5549
▁ㅇㅝㄴ	-5550
▁운동가	-5551
▁칙	-5552
수량	-5553
▁대변	-5554
▁힘들	-5555
▁수비수	-5556
▁연계	-5557
ㅇㅡㄴ	-5558
▁갤럭	-5559
▁ㅋㅜ	-5560
▁닮	-5561
▁ㅋㅗ	-5562
▁후퇴	-5563
▁수반	-5564
▁압축	-5565
▁y	-5566
▁동반	-5567
▁원장	-5568
ㄹㄹㅏㅆ	-5569
▁틱	-5570
▁문재	-5571
▁성씨	-5572
생활	-5573
투아	-5574
미아	-5575
▁ㄱㅣㄹ	-5576
▁착용	-5577
▁기갑	-5578
▁지부	-5579
▁AC	-5580
▁발렌	-5581
ss	-5582
키스	-5583
▁SC	-5584
▁경유	-5585
마이	-5586
ㅁㅜㄴ	-5587
▁플로리다	-5588
▁갤럭시	-5589
▁과일	-5590
▁평론가	-5591
▁극복	-5592
▁마라	-5593
▁조화	-5594
베이스	-5595
▁1925	-5596
▁일환	-5597
시스트	-5598
▁롬	-5599
▁공국	-5600
▁07	-5601
▁섬유	-5602
▁약탈	-5603
▁첫째	-5604
▁매니	-5605
▁1923	-5606
페인	-5607
▁연평균	-5608
▁도호	-5609
▁목숨	-5610
▁불화	-5611
▁첸	-5612
▁연상	-5613
▁북아메리카	-5614
▁민속	-5615
▁서적	-5616
▁의석	-5617
▁바이올	-5618
▁유비	-5619
▁추대	-5620
▁안드로이드	-5621
▁번지	-5622
▁덕분	-5623
▁추락	-5624
▁장갑	-5625
▁캘리포니아주	-5626
▁쯤	-5627
밀리	-5628
▁진흥	-5629
ity	-5630
타카	-5631
▁남아메리카	-5632
▁중립	-5633
▁관리자	-5634
▁임신	-5635
▁프로세서	-5636
▁ㄷㅟ	-5637
▁타입	-5638
▁라이온	-5639
▁유성	-5640
▁김대중	-5641
▁트레이	-5642
ㅇㅎㅏㄹ	-5643
▁이수	-5644
무게	-5645
▁샤를	-5646
▁몸무게	-5647
▁영감	-5648
▁웨일스	-5649
니즘	-5650
▁수명	-5651
▁얀	-5652
▁요원	-5653
▁명사	-5654
▁하와이	-5655
▁페루	-5656
▁램	-5657
▁옮	-5658
카스	-5659
▁성직자	-5660
▁가끔	-5661
▁우드	-5662
▁어항	-5663
▁단선	-5664
▁사당	-5665
▁시게	-5666
▁고분	-5667
▁갱	-5668
▁설비	-5669
▁수상자	-5670
▁EP	-5671
▁기관차	-5672
▁북서쪽	-5673
대문	-5674
▁동인	-5675
▁근로	-5676
▁빠지	-5677
▁선교사	-5678
▁망원경	-5679
▁수직	-5680
▁유가	-5681
▁북극	-5682
▁사거리	-5683
▁필름	-5684
▁모로	-5685
▁모험	-5686
▁삭제	-5687
▁레벨	-5688
▁복구	-5689
▁어원	-5690
▁소설가	-5691
▁그랜드	-5692
▁161	-5693
행성	-5694
▁모음	-5695
▁악장	-5696
프란	-5697
▁청동	-5698
▁영광	-5699
▁카자	-5700
ff	-5701
▁서인	-5702
▁향토	-5703
▁교과	-5704
▁빅토리아	-5705
일본	-5706
▁ㅎㅡㄴ	-5707
▁다이묘	-5708
▁삼각형	-5709
▁딱	-5710
▁엽	-5711
▁영혼	-5712
▁일자	-5713
▁종로	-5714
▁codice	-5715
▁진술	-5716
▁제약	-5717
느리	-5718
▁변신	-5719
▁비하	-5720
▁ㅁㅏㅈㅅㅓ	-5721
▁모시	-5722
즈키	-5723
▁프레임	-5724
슬리	-5725
▁도마뱀	-5726
▁살아남	-5727
▁잠재	-5728
▁발휘	-5729
▁박근혜	-5730
▁건축물	-5731
애나	-5732
▁마주	-5733
▁수장	-5734
▁준우	-5735
▁투구	-5736
▁똑같	-5737
▁홀로	-5738
▁곰	-5739
▁황태	-5740
▁화가	-5741
▁음모	-5742
▁채권	-5743
▁랭킹	-5744
▁175	-5745
▁레이블	-5746
▁가톨릭교회	-5747
▁파생	-5748
▁동일본	-5749
▁틸	-5750
▁문인	-5751
▁파운드	-5752
▁주류	-5753
오리	-5754
▁데리	-5755
▁돌파	-5756
ㅃㅡㄴ	-5757
▁어워드	-5758
▁파트너	-5759
▁1922	-5760
▁My	-5761
▁버지니아	-5762
▁규슈	-5763
▁지역구	-5764
타운	-5765
▁왕가	-5766
▁평생	-5767
▁엘리자베스	-5768
IS	-5769
▁쇠퇴	-5770
▁중구	-5771
▁칼리	-5772
눅스	-5773
▁de	-5774
라이터	-5775
▁바오	-5776
▁윤치	-5777
▁자치구	-5778
▁쫓	-5779
▁ㅌㅏㄴ	-5780
▁ㅈㅜㄹㅇㅕ	-5781
▁변동	-5782
▁유역	-5783
▁지연	-5784
▁결심	-5785
▁구미	-5786
▁루트비히	-5787
▁인천광역시	-5788
▁중시	-5789
▁직선	-5790
▁다양체	-5791
멘트	-5792
▁무릎	-5793
▁피트	-5794
▁리눅스	-5795
▁리치	-5796
▁트럼	-5797
▁KT	-5798
▁무인	-5799
▁1912	-5800
▁모래	-5801
▁압도	-5802
▁토벌	-5803
▁교차로	-5804
스팅	-5805
▁여인	-5806
▁유용	-5807
메니아	-5808
▁포유	-5809
▁공격수	-5810
▁모듈	-5811
▁이조	-5812
▁SM	-5813
▁최상	-5814
▁고안	-5815
▁전승	-5816
▁표지	-5817
▁국민당	-5818
▁탐험	-5819
▁연령	-5820
▁왈	-5821
▁모니	-5822
▁부유	-5823
▁글씨	-5824
▁상무	-5825
양군	-5826
▁JR	-5827
▁벨라	-5828
▁봉사	-5829
▁직위	-5830
▁Go	-5831
▁무산	-5832
▁항목	-5833
▁올라가	-5834
▁ㄴㅓㅁㄱㅕ	-5835
▁나서	-5836
▁리아	-5837
▁164	-5838
▁스케이팅	-5839
up	-5840
▁사토	-5841
▁주사	-5842
▁크레	-5843
▁""	-5844
▁각자	-5845
▁베타	-5846
▁부서	-5847
▁건너	-5848
▁아르메니아	-5849
▁납치	-5850
▁아기	-5851
▁드리	-5852
▁철저	-5853
▁부탁	-5854
▁이날	-5855
▁침해	-5856
▁Love	-5857
ong	-5858
▁06	-5859
▁동아시아	-5860
▁도어	-5861
▁색상	-5862
▁퍼시	-5863
▁노비	-5864
▁인력	-5865
▁목조	-5866
▁고르	-5867
▁노무	-5868
▁마카	-5869
▁블라디	-5870
▁단행	-5871
▁토르	-5872
▁간섭	-5873
▁삽입	-5874
▁연소	-5875
▁영조	-5876
▁1908	-5877
▁하사	-5878
보살	-5879
▁패턴	-5880
멘터리	-5881
▁지중해	-5882
▁릭	-5883
ㅁㅏㅇ	-5884
부사	-5885
▁돼지	-5886
▁플레	-5887
▁ㅃㅐ	-5888
▁시외	-5889
▁이종	-5890
▁1906	-5891
▁MV	-5892
▁크림	-5893
ld	-5894
▁적응	-5895
▁전향	-5896
야수	-5897
ㅊㅣ	-5898
▁장사	-5899
▁보통학교	-5900
ip	-5901
▁태자	-5902
지마	-5903
슬로	-5904
▁자책	-5905
OM	-5906
▁사촌	-5907
▁히가시	-5908
▁시아	-5909
▁1917	-5910
▁옵	-5911
▁03	-5912
▁ㅅㅔㄴ	-5913
▁뜨	-5914
▁안양	-5915
▁참조	-5916
▁교역	-5917
▁제주도	-5918
▁커피	-5919
▁며	-5920
도니아	-5921
ED	-5922
▁매각	-5923
▁비전	-5924
▁정자	-5925
▁남동쪽	-5926
▁ㅇㅘㅆㅇㅡ	-5927
▁조명	-5928
▁송라이터	-5929
▁과도	-5930
▁외계	-5931
▁앱	-5932
ㅇㄱ	-5933
▁ㅉㅗ	-5934
▁기하학	-5935
▁배상	-5936
▁호르	-5937
▁굿	-5938
▁럭	-5939
영상	-5940
▁자전거	-5941
▁정류장	-5942
ant	-5943
▁패러	-5944
▁동사	-5945
▁입문	-5946
▁ㄲㅜ	-5947
▁수지	-5948
▁이토	-5949
▁관하	-5950
▁통로	-5951
▁ㄴㅏㅁㄱㅕ	-5952
▁기종	-5953
▁명문	-5954
▁인자	-5955
▁준우승	-5956
▁에스파	-5957
▁우익	-5958
▁창간	-5959
▁옮기	-5960
다드	-5961
▁1927	-5962
▁둔	-5963
▁SN	-5964
▁상처	-5965
▁앨런	-5966
▁정서	-5967
▁시상식	-5968
▁보좌	-5969
▁출현	-5970
▁라우	-5971
▁산타	-5972
▁다큐멘터리	-5973
▁우크라이나	-5974
▁의병	-5975
▁호조	-5976
▁부동산	-5977
▁대행	-5978
▁옹호	-5979
▁스와	-5980
▁밀라노	-5981
이즈	-5982
▁몬테	-5983
▁폐기	-5984
▁사이클	-5985
▁배급	-5986
몬드	-5987
▁석조	-5988
▁육성	-5989
▁북동쪽	-5990
▁무선	-5991
▁전작	-5992
▁ㅇㅗㄹㄹㅣㄴ	-5993
▁산악	-5994
▁종족	-5995
▁BBC	-5996
▁1907	-5997
▁오리지	-5998
▁1926	-5999
▁묘지	-6000
▁유인	-6001
▁체인	-6002
▁적어도	-6003
▁협의회	-6004
▁과장	-6005
▁흙	-6006
▁베토	-6007
▁노인	-6008
▁표본	-6009
▁대교	-6010
AC	-6011
▁ㄴㅐㄴㄷㅏ	-6012
▁최우수	-6013
페이지	-6014
av	-6015
▁관중	-6016
▁스틸	-6017
▁슐	-6018
▁탑승	-6019
튜브	-6020
▁포크	-6021
스토	-6022
▁PD	-6023
▁내장	-6024
▁상영	-6025
▁수감	-6026
▁자문	-6027
▁세조	-6028
플레이	-6029
▁렉	-6030
▁왕립	-6031
▁주거	-6032
▁상하이	-6033
▁비틀	-6034
▁스페셜	-6035
런트	-6036
▁문하	-6037
▁유신	-6038
▁He	-6039
▁예외	-6040
▁번식	-6041
▁트윈	-6042
로프	-6043
▁ㄲㅐ	-6044
▁유닛	-6045
ind	-6046
▁ㅇㅠ	-6047
▁합계	-6048
▁168	-6049
▁사라지	-6050
▁유튜브	-6051
티움	-6052
▁연금	-6053
▁디즈니	-6054
▁할리	-6055
▁지름	-6056
▁버그	-6057
다이라	-6058
▁문화유산	-6059
▁하천	-6060
▁사신	-6061
슬라	-6062
▁노조	-6063
▁사료	-6064
▁모자	-6065
생물	-6066
▁시에	-6067
▁호남	-6068
▁드래곤	-6069
▁데이터베이스	-6070
▁별로	-6071
▁유입	-6072
▁라이벌	-6073
▁연고지	-6074
▁홈페이지	-6075
▁점성	-6076
▁정사	-6077
se	-6078
세스	-6079
▁NHK	-6080
ame	-6081
▁자바	-6082
▁콩고	-6083
브스	-6084
▁Sp	-6085
▁산지	-6086
▁현황	-6087
▁레이다	-6088
▁커뮤니티	-6089
▁독일어	-6090
▁룩	-6091
▁기아	-6092
총장	-6093
텐도	-6094
▁광역	-6095
▁닌텐도	-6096
▁아가	-6097
▁1905	-6098
▁ㅁㅏㅈㅊㅝ	-6099
▁ㅆㅡㄴㄷㅏ	-6100
▁대안	-6101
▁레이스	-6102
▁민족주의	-6103
▁헤드	-6104
▁ㄱㅏㄹㄹㅏ	-6105
▁제후	-6106
▁166	-6107
프란시스코	-6108
▁||	-6109
▁카페	-6110
▁특급	-6111
▁샌프란시스코	-6112
▁진도	-6113
▁칩	-6114
▁틈	-6115
▁증기	-6116
▁162	-6117
라지	-6118
▁묘소	-6119
▁에릭	-6120
▁요미	-6121
▁좌익	-6122
▁때로	-6123
ry	-6124
▁상세	-6125
▁아크	-6126
무네	-6127
▁151	-6128
▁주파	-6129
▁ㅆㅏㅎ	-6130
ES	-6131
▁수수	-6132
▁ㄱㅔㄴ	-6133
▁엄마	-6134
▁칭하	-6135
▁비평가	-6136
▁ㅎㅑㅇㅎㅏㄴ	-6137
▁진지	-6138
▁품질	-6139
▁색깔	-6140
▁주말	-6141
▁모집	-6142
▁단층	-6143
▁나폴리	-6144
▁가쓰	-6145
▁지바	-6146
▁출산	-6147
▁떼	-6148
▁역과	-6149
▁조선인	-6150
▁선제	-6151
▁트럭	-6152
ort	-6153
▁안보	-6154
▁와카	-6155
▁반환	-6156
▁원산	-6157
▁베토벤	-6158
▁02	-6159
▁들어서	-6160
▁크리스토	-6161
나카	-6162
ith	-6163
▁대조	-6164
▁플루	-6165
▁스승	-6166
어트	-6167
▁158	-6168
▁선진	-6169
▁원로	-6170
▁꾸준히	-6171
▁동전	-6172
▁비단	-6173
▁야생	-6174
▁유고슬	-6175
▁유고슬라비아	-6176
▁꼽	-6177
▁리얼	-6178
▁오리지널	-6179
스티벌	-6180
▁아무런	-6181
▁구마	-6182
▁아울	-6183
▁재무	-6184
▁ㅂㅓㄴ	-6185
엘라	-6186
▁상소	-6187
▁리듬	-6188
▁스피드	-6189
▁급속	-6190
▁렌즈	-6191
▁가르치	-6192
▁라마	-6193
▁한화	-6194
▁페스티벌	-6195
▁배정	-6196
▁마일	-6197
ㅂㅓ	-6198
▁도리	-6199
▁동치	-6200
결승	-6201
▁급행	-6202
▁방안	-6203
▁신비	-6204
스케	-6205
▁목격	-6206
▁문과	-6207
▁십자군	-6208
ㄷㅚ	-6209
▁겨우	-6210
다니	-6211
▁기념물	-6212
▁펼치	-6213
▁챌	-6214
▁정계	-6215
리케이션	-6216
▁셋째	-6217
▁쿠르	-6218
ok	-6219
▁둘러	-6220
▁남서쪽	-6221
▁동영상	-6222
▁주의자	-6223
▁ㄴㅐㄹ	-6224
▁보전	-6225
▁수천	-6226
▁인텔	-6227
▁가미	-6228
▁호환	-6229
▁흥미	-6230
▁베이스볼	-6231
▁옛날	-6232
▁주한	-6233
▁실점	-6234
▁향년	-6235
▁굽	-6236
▁복제	-6237
ㅋㅕㅆㅇㅡ	-6238
▁미네	-6239
프스	-6240
▁무관	-6241
▁굳	-6242
▁기점	-6243
▁소니	-6244
▁적색	-6245
▁토니	-6246
▁마스	-6247
▁운명	-6248
▁곧바로	-6249
해군	-6250
▁운반	-6251
▁ㅁㅗㄴ	-6252
▁케이블	-6253
▁도심	-6254
▁모터	-6255
▁지휘자	-6256
▁협의	-6257
▁디자이너	-6258
▁분배	-6259
▁템	-6260
▁교전	-6261
▁스테이지	-6262
▁오디션	-6263
▁출판사	-6264
▁하드웨어	-6265
▁사직	-6266
▁서북	-6267
▁비즈니스	-6268
▁알라	-6269
▁한나라	-6270
▁콜롬비아	-6271
▁석탑	-6272
▁한나라당	-6273
▁마케도니아	-6274
▁우르	-6275
▁이리	-6276
▁직장	-6277
▁프랜	-6278
회의	-6279
▁Un	-6280
▁수면	-6281
▁지질	-6282
▁기압	-6283
▁무신	-6284
▁선사	-6285
▁일행	-6286
▁문제점	-6287
▁이오	-6288
▁도메인	-6289
▁회원국	-6290
▁파나	-6291
▁1904	-6292
▁연주자	-6293
▁브라이언	-6294
▁ㅈㅝㅆ	-6295
▁긴급	-6296
▁ㅇㅏㄴ	-6297
모니	-6298
▁입증	-6299
▁스펙트	-6300
▁관장	-6301
▁예언	-6302
프라	-6303
▁오타	-6304
▁판타지	-6305
▁기용	-6306
▁개수	-6307
▁포맷	-6308
▁예술가	-6309
▁마쓰다이라	-6310
▁부패	-6311
▁미만	-6312
▁되찾	-6313
▁서경	-6314
▁이력	-6315
▁집계	-6316
▁합작	-6317
▁임상	-6318
▁인치	-6319
▁빗	-6320
▁신임	-6321
▁정교	-6322
▁걷	-6323
교육	-6324
▁역명	-6325
▁스펙트럼	-6326
▁내륙	-6327
▁배제	-6328
▁왕족	-6329
▁의거	-6330
▁154	-6331
▁신용	-6332
▁센트럴	-6333
ord	-6334
▁기재	-6335
▁좌석	-6336
루살	-6337
▁용기	-6338
▁챌린	-6339
qu	-6340
▁연애	-6341
▁항일	-6342
▁아서	-6343
루살렘	-6344
▁겹	-6345
▁Se	-6346
▁트레	-6347
▁165	-6348
▁계단	-6349
▁단종	-6350
▁자사	-6351
▁평소	-6352
ob	-6353
문학	-6354
PS	-6355
▁기름	-6356
▁폭스	-6357
▁WW	-6358
▁받침	-6359
ㄹㅓㅁㅇㅔ	-6360
▁Wh	-6361
▁사르	-6362
▁이글	-6363
▁콘스탄티노	-6364
▁심하	-6365
▁모순	-6366
▁번주	-6367
▁초래	-6368
▁엉	-6369
▁사범	-6370
▁신하	-6371
러지	-6372
▁용산	-6373
▁당사자	-6374
▁걸리	-6375
▁리투아	-6376
▁자회사	-6377
▁리투아니아	-6378
ate	-6379
▁가하	-6380
▁권고	-6381
▁사면	-6382
▁가게	-6383
▁163	-6384
가스	-6385
디스	-6386
우옌	-6387
▁SF	-6388
▁스쿨	-6389
▁AM	-6390
▁전염	-6391
▁DJ	-6392
▁여동생	-6393
IC	-6394
▁그랑	-6395
▁156	-6396
▁900	-6397
경기	-6398
▁혜성	-6399
▁무슬	-6400
▁167	-6401
▁타마	-6402
▁스마트폰	-6403
▁상임	-6404
▁아인	-6405
▁행정부	-6406
▁ㄱㅓㄹㄹㅕ	-6407
▁서브	-6408
▁조류	-6409
▁마케팅	-6410
▁팅	-6411
▁착륙	-6412
▁여신	-6413
▁진상	-6414
▁니스	-6415
▁발효	-6416
▁예루살렘	-6417
운서	-6418
▁넘어	-6419
▁AS	-6420
식물	-6421
▁아나운서	-6422
▁무슬림	-6423
▁교섭	-6424
▁한양	-6425
페이	-6426
▁미얀	-6427
커스	-6428
▁분지	-6429
▁크리스티	-6430
아하	-6431
▁이지	-6432
▁UN	-6433
아보	-6434
카르	-6435
▁정벌	-6436
▁장편	-6437
▁규격	-6438
▁충남	-6439
▁ㄷㅓㅍ	-6440
▁성공회	-6441
▁차관	-6442
▁샹	-6443
▁하트	-6444
껍질	-6445
▁스타크래프트	-6446
▁브라우	-6447
▁애국	-6448
▁오다	-6449
▁ㅉㅣ	-6450
▁끼리	-6451
▁피렌	-6452
▁과제	-6453
▁부수	-6454
▁파동	-6455
▁식사	-6456
▁압박	-6457
▁예능	-6458
▁피스	-6459
▁게시	-6460
▁부리	-6461
▁무라	-6462
▁훼손	-6463
▁옌	-6464
▁부통령	-6465
▁서울시	-6466
▁고립	-6467
▁용량	-6468
ㅁㅜㄹㄹㅓㅆ	-6469
▁싫	-6470
▁바그	-6471
▁얼음	-6472
▁지주	-6473
▁바이올린	-6474
▁비잔티움	-6475
▁ㅁㅏㄴㄴㅏㄴ	-6476
ET	-6477
▁우루	-6478
▁진나라	-6479
▁부흥	-6480
▁조국	-6481
▁페어	-6482
▁노무현	-6483
▁요크	-6484
▁주립	-6485
▁아이디	-6486
▁쇼군	-6487
▁친정	-6488
▁일요일	-6489
럼비아	-6490
▁지장	-6491
▁오케스트라	-6492
길이	-6493
▁낱	-6494
잡이	-6495
▁밀접	-6496
▁비로	-6497
▁비아	-6498
데이트	-6499
리크	-6500
마치	-6501
▁출구	-6502
▁학파	-6503
▁구장	-6504
예프	-6505
▁좋아하	-6506
▁이명박	-6507
▁업데이트	-6508
랑이	-6509
▁우지	-6510
▁ㅋㅏㄴ	-6511
킨스	-6512
▁융합	-6513
▁최신	-6514
ast	-6515
▁아베	-6516
▁디비전	-6517
▁ㅁㅗㅅㅎㅐ	-6518
▁농도	-6519
▁귀환	-6520
▁마천	-6521
▁두산	-6522
▁사리	-6523
▁개발자	-6524
▁139	-6525
부인	-6526
▁전이	-6527
▁바티	-6528
▁소나	-6529
▁미나미	-6530
DP	-6531
▁김동	-6532
▁차체	-6533
▁애플리케이션	-6534
▁대단	-6535
▁발족	-6536
▁쿠스	-6537
▁대령	-6538
▁강연	-6539
▁월간	-6540
▁DS	-6541
▁성종	-6542
레이터	-6543
▁스트리트	-6544
▁저기	-6545
▁145	-6546
▁알바니아	-6547
▁도망	-6548
▁전지	-6549
▁피렌체	-6550
로디	-6551
▁몰락	-6552
▁간접	-6553
▁시체	-6554
▁투명	-6555
▁서열	-6556
▁아세	-6557
▁아종	-6558
▁중국어	-6559
▁응우옌	-6560
▁주머니	-6561
▁공용	-6562
▁마리오	-6563
▁킬로미터	-6564
▁다이아	-6565
▁기타리스트	-6566
수아	-6567
▁물려	-6568
▁선두	-6569
▁맥스	-6570
▁벌어지	-6571
▁준결승	-6572
▁공과	-6573
▁시드니	-6574
if	-6575
랑크	-6576
아지	-6577
▁참판	-6578
▁몸길이	-6579
▁부시	-6580
▁점유	-6581
▁관광객	-6582
▁IP	-6583
▁공전	-6584
▁MVP	-6585
▁와중	-6586
▁제네	-6587
▁중독	-6588
▁사바	-6589
들리	-6590
▁게이트	-6591
▁부도	-6592
▁HIV	-6593
산물	-6594
ive	-6595
▁이슈	-6596
▁하노	-6597
▁ㅂㅣㄹ	-6598
트랙	-6599
▁전류	-6600
▁해인	-6601
IT	-6602
▁히라	-6603
▁1896	-6604
트롤	-6605
▁보드	-6606
▁야기	-6607
▁좌표	-6608
카드	-6609
ack	-6610
▁부자	-6611
▁완화	-6612
▁위주	-6613
▁관찰사	-6614
▁서일본	-6615
▁소송법	-6616
▁중도	-6617
▁아이디어	-6618
▁붓	-6619
▁마산	-6620
▁형법	-6621
▁요미우리	-6622
▁경선	-6623
▁규명	-6624
▁착수	-6625
▁측근	-6626
ure	-6627
▁디오	-6628
▁백신	-6629
▁전임	-6630
▁샬	-6631
트니	-6632
▁넬	-6633
▁고조	-6634
▁책봉	-6635
▁피에르	-6636
▁턴	-6637
▁관습	-6638
▁빨리	-6639
▁지각	-6640
▁충성	-6641
▁ㅅㅣㅁㅎㅏㄴ	-6642
▁메디	-6643
▁스콧	-6644
악기	-6645
▁로빈	-6646
▁연수	-6647
▁복소	-6648
▁노동조합	-6649
▁ㅇㅏㄹㄹㅕㅆ	-6650
▁거인	-6651
▁수신	-6652
▁친선	-6653
▁수학자	-6654
▁마운	-6655
란트	-6656
▁흥행	-6657
▁ㅅㅡㄹ	-6658
▁시외버스	-6659
▁프로세스	-6660
토미	-6661
▁우즈	-6662
▁통행	-6663
ㄹㅐ	-6664
▁ㅅㅕ	-6665
▁쇼핑	-6666
▁천문학	-6667
▁험	-6668
균관	-6669
리티	-6670
▁사인	-6671
▁여덟	-6672
▁174	-6673
▁권유	-6674
▁ㅁㅜㄷ	-6675
▁굉	-6676
ock	-6677
iv	-6678
주곡	-6679
▁오렌	-6680
▁정찰	-6681
▁가득	-6682
▁검증	-6683
▁사명	-6684
▁이에	-6685
▁테일러	-6686
▁련	-6687
▁세례	-6688
▁5000	-6689
ck	-6690
▁피난	-6691
▁해전	-6692
▁152	-6693
▁플라스	-6694
▁번뇌	-6695
▁성벽	-6696
▁신칸	-6697
▁꼴	-6698
아리	-6699
▁옐	-6700
▁미하	-6701
▁섞	-6702
루미	-6703
▁실용	-6704
사기	-6705
▁짙	-6706
▁뱅크	-6707
▁구동	-6708
▁금성	-6709
▁행진	-6710
▁독립운동가	-6711
▁전장	-6712
▁밀양	-6713
▁조용	-6714
폴리스	-6715
▁뷔	-6716
▁석탄	-6717
▁157	-6718
▁과목	-6719
▁붙이	-6720
▁닫	-6721
▁자손	-6722
▁ㄸㅡ	-6723
▁장성	-6724
▁유년	-6725
ㅟㄴ	-6726
▁전문학교	-6727
▁Ar	-6728
▁염색	-6729
▁테오	-6730
▁카나	-6731
▁MP	-6732
▁취약	-6733
▁존경	-6734
12	-6735
▁인과	-6736
▁전진	-6737
▁한강	-6738
▁미스터	-6739
▁준공	-6740
▁자율	-6741
▁하버드	-6742
츠키	-6743
포스	-6744
▁신전	-6745
▁청와	-6746
창기	-6747
▁로고	-6748
가루	-6749
혁명	-6750
▁구제	-6751
▁프로토콜	-6752
▁킨	-6753
▁관현	-6754
▁루수	-6755
▁할당	-6756
▁급진	-6757
▁회수	-6758
▁국어	-6759
▁동위	-6760
▁승차	-6761
▁제휴	-6762
▁j	-6763
외선	-6764
▁파스	-6765
▁판매량	-6766
▁청와대	-6767
▁장인	-6768
▁메가	-6769
▁동남아시아	-6770
▁고개	-6771
▁디젤	-6772
▁식당	-6773
▁루터	-6774
▁박영	-6775
▁유출	-6776
▁히스	-6777
니스트	-6778
▁가즈	-6779
▁창업	-6780
산군	-6781
일드	-6782
▁PS	-6783
▁빌헬	-6784
▁신칸센	-6785
전자	-6786
▁무효	-6787
▁카시	-6788
▁퇴각	-6789
원숭이	-6790
▁대외	-6791
▁쥬	-6792
▁소총	-6793
▁일화	-6794
▁성균관	-6795
▁상상	-6796
문관	-6797
▁김용	-6798
▁이순	-6799
▁저기압	-6800
▁희극	-6801
델피아	-6802
▁필라델피아	-6803
▁해임	-6804
▁연루	-6805
▁외무	-6806
붙이	-6807
악단	-6808
▁남인	-6809
▁호평	-6810
▁연구자	-6811
자와	-6812
▁드러내	-6813
▁105	-6814
▁비극	-6815
▁이노	-6816
하르트	-6817
▁전두	-6818
수수	-6819
▁나미	-6820
▁얼마나	-6821
▁마찰	-6822
▁서독	-6823
▁여수	-6824
▁지분	-6825
▁청사	-6826
▁뿔	-6827
▁쇄	-6828
▁ㄷㅗㄹㄹㅕ	-6829
팩트	-6830
▁적대	-6831
▁남양	-6832
▁오클	-6833
▁응답	-6834
▁146	-6835
▁소금	-6836
▁1500	-6837
▁관념	-6838
▁패전	-6839
▁개원	-6840
ㅇㅝㅆㅇㅡ	-6841
▁상류	-6842
▁성전	-6843
▁소닉	-6844
▁매출	-6845
▁악마	-6846
▁항공모	-6847
▁1911	-6848
▁젖	-6849
ㅂㅏ	-6850
▁에티	-6851
▁125	-6852
메르	-6853
▁여래	-6854
▁강사	-6855
AP	-6856
▁착공	-6857
▁사사	-6858
▁예배	-6859
▁증후	-6860
▁원나라	-6861
▁ㅂㅏㄴ	-6862
▁배구	-6863
▁153	-6864
ML	-6865
▁아울러	-6866
고속도로	-6867
▁3000	-6868
ime	-6869
ㄴㅕ	-6870
one	-6871
▁노드	-6872
▁단점	-6873
▁소관	-6874
▁시집	-6875
▁윌슨	-6876
▁MC	-6877
▁매개	-6878
▁술탄	-6879
▁하마	-6880
▁ㅉㅗㅊ	-6881
▁자책점	-6882
▁출입구	-6883
▁민국	-6884
▁Le	-6885
▁순천	-6886
▁우정	-6887
▁이이	-6888
▁추모	-6889
▁초창기	-6890
라트	-6891
서양	-6892
▁나열	-6893
▁유언	-6894
▁카트	-6895
▁환원	-6896
▁마오	-6897
▁석가	-6898
▁이복	-6899
▁폴리스	-6900
▁ㄷㅡㄹㅇㅕ	-6901
▁보잉	-6902
ㄱㅜㄴ	-6903
▁믿음	-6904
▁포장	-6905
▁소재지	-6906
▁저택	-6907
네이	-6908
▁단원	-6909
▁아즈	-6910
▁중점	-6911
▁Pro	-6912
▁고원	-6913
▁사지	-6914
▁힌두	-6915
▁얇	-6916
▁우주선	-6917
▁제트	-6918
▁디비	-6919
▁미얀마	-6920
▁별자리	-6921
▁소지	-6922
▁회계	-6923
▁강수량	-6924
▁문재인	-6925
▁참가자	-6926
OC	-6927
▁일렉	-6928
▁천사	-6929
▁기장	-6930
제프	-6931
▁법령	-6932
▁카자흐	-6933
▁충족	-6934
대군	-6935
▁리메	-6936
▁조언	-6937
▁주권	-6938
▁고베	-6939
▁고무	-6940
▁성모	-6941
▁반격	-6942
▁연인	-6943
▁친척	-6944
▁편곡	-6945
▁이글스	-6946
▁정치가	-6947
▁곳곳	-6948
▁매사	-6949
▁조르	-6950
▁103	-6951
▁ISO	-6952
ㄴㅣㄹ	-6953
▁회화	-6954
▁공자	-6955
ㄲㅇㅕ	-6956
▁근접	-6957
▁서서	-6958
▁유해	-6959
▁지목	-6960
즈카	-6961
토시	-6962
▁개업	-6963
▁주파수	-6964
▁시립	-6965
▁선원	-6966
▁이원	-6967
▁최적	-6968
▁환상	-6969
▁비틀즈	-6970
▁빌헬름	-6971
▁지지자	-6972
▁찌	-6973
기니	-6974
상스	-6975
▁굵	-6976
▁클린	-6977
▁으	-6978
▁증후군	-6979
▁보충	-6980
▁중장	-6981
▁협동	-6982
▁오디오	-6983
동물	-6984
▁내내	-6985
▁취재	-6986
노리	-6987
▁회견	-6988
▁공인	-6989
▁따위	-6990
▁삿	-6991
▁ㅇㅓㄴ	-6992
▁각본가	-6993
▁민사	-6994
▁점프	-6995
▁해역	-6996
▁155	-6997
ㅂㅎㅣㄴ	-6998
▁위장	-6999
▁인형	-7000
▁토리	-7001
te	-7002
▁공략	-7003
▁나리	-7004
▁ㅊㅏㄴ	-7005
▁항공모함	-7006
리언	-7007
▁카타	-7008
▁겸임	-7009
▁트라이	-7010
▁허브	-7011
▁셈	-7012
ㅅㅣ	-7013
▁토크	-7014
▁와인	-7015
▁특유	-7016
▁오렌지	-7017
▁버튼	-7018
▁실종	-7019
▁승무원	-7020
▁닭	-7021
▁중종	-7022
▁법무	-7023
시온	-7024
어리	-7025
▁머물	-7026
▁사가	-7027
▁컨트롤	-7028
▁레전	-7029
노프	-7030
▁진리	-7031
소스	-7032
▁룰	-7033
▁양상	-7034
▁우편	-7035
▁후자	-7036
▁앞면	-7037
▁일관	-7038
io	-7039
▁민영	-7040
▁평행	-7041
▁별개	-7042
▁연도	-7043
▁제의	-7044
ㄷㅚㄴ	-7045
마사	-7046
▁오키나	-7047
▁유격	-7048
▁전례	-7049
▁ㅂㅘㅆ	-7050
▁게재	-7051
▁연혁	-7052
▁Con	-7053
▁각기	-7054
▁인격	-7055
▁포수	-7056
받침	-7057
플러	-7058
▁상자	-7059
▁성주	-7060
▁테스	-7061
▁눈물	-7062
▁미소	-7063
▁생일	-7064
▁밭	-7065
▁Bo	-7066
ㄹㅓㄴ	-7067
▁베르크	-7068
▁ㅇㅑㄱㅎㅏㄴ	-7069
▁#	-7070
▁이영	-7071
▁패스	-7072
▁108	-7073
▁북동부	-7074
▁아바	-7075
▁늘어나	-7076
▁나고	-7077
▁스파이	-7078
▁합법	-7079
▁사우디아	-7080
▁담배	-7081
▁둘러싸	-7082
▁동등	-7083
▁유교	-7084
▁르네상스	-7085
▁세균	-7086
▁IT	-7087
시티	-7088
▁해운	-7089
▁호칭	-7090
▁벗어나	-7091
pe	-7092
▁이바	-7093
▁입상	-7094
▁아리스	-7095
▁이인	-7096
▁캠페인	-7097
▁드라이브	-7098
모어	-7099
▁고체	-7100
▁모으	-7101
▁사물	-7102
베이터	-7103
▁복장	-7104
▁서해	-7105
▁즐기	-7106
ㅅㅡㄹㄹㅓ	-7107
▁하우	-7108
▁토요일	-7109
산면	-7110
▁야간	-7111
▁영동	-7112
ber	-7113
▁상장	-7114
▁일족	-7115
▁나고야	-7116
▁이슬람교	-7117
산리	-7118
가타	-7119
▁ㄲㅓ	-7120
▁개찰구	-7121
▁격렬	-7122
▁외국어	-7123
▁이어서	-7124
▁교장	-7125
▁메타	-7126
▁스터	-7127
▁자발	-7128
▁화살	-7129
▁생명체	-7130
▁이사장	-7131
▁퍼시픽	-7132
▁매력	-7133
▁아군	-7134
ㅇㅘㅆㅇㅡ	-7135
ㅂㅎㅣㄴㄷㅏ	-7136
▁감지	-7137
▁외곽	-7138
퍼니	-7139
▁교단	-7140
▁대답	-7141
▁아케	-7142
▁박탈	-7143
▁배틀	-7144
라이트	-7145
▁크리스마스	-7146
▁콜라	-7147
▁브래	-7148
▁상부	-7149
집합	-7150
▁내지	-7151
▁에디	-7152
▁하인리히	-7153
▁앞서	-7154
▁채무	-7155
▁ㅂㅜㄹ	-7156
▁트럼프	-7157
때로	-7158
▁금액	-7159
▁앙리	-7160
▁향후	-7161
▁일찍이	-7162
러미	-7163
▁가계	-7164
▁건의	-7165
▁다중	-7166
▁일생	-7167
▁레이저	-7168
▁에이스	-7169
▁톈	-7170
화점	-7171
▁치세	-7172
▁유소년	-7173
▁1909	-7174
ge	-7175
항공	-7176
▁128	-7177
▁홍수	-7178
▁ㅋㅓㅆ	-7179
▁사이버	-7180
▁시청자	-7181
▁호세	-7182
▁상대방	-7183
람회	-7184
▁던지	-7185
▁안장	-7186
▁어드	-7187
▁ㅎㅓㄴ	-7188
▁캐스팅	-7189
▁최저	-7190
▁전도	-7191
▁시라	-7192
▁149	-7193
▁태어나	-7194
▁발현	-7195
▁사다	-7196
▁여진	-7197
칠리아	-7198
▁명의	-7199
▁102	-7200
▁ㅁㅏㅌ	-7201
▁때때로	-7202
▁트위	-7203
▁보스니아	-7204
▁개관	-7205
▁기금	-7206
▁향교	-7207
▁건축가	-7208
▁궁정	-7209
▁주지사	-7210
▁트루	-7211
▁대주교	-7212
▁서서히	-7213
▁텍스트	-7214
▁섭취	-7215
▁지나가	-7216
▁멈	-7217
▁추격	-7218
▁원자로	-7219
▁사우디아라비아	-7220
▁Bl	-7221
▁발원	-7222
▁슬라	-7223
라미	-7224
▁포도주	-7225
▁히데요시	-7226
구장	-7227
▁부착	-7228
▁가르침	-7229
▁ㅇㅏㄹㅇㅏ	-7230
▁셸	-7231
▁유니폼	-7232
▁고발	-7233
▁골프	-7234
▁자유당	-7235
백과	-7236
▁속성	-7237
▁계절	-7238
▁세미	-7239
▁레전드	-7240
▁사용자	-7241
▁운동장	-7242
▁고가	-7243
▁아우구	-7244
행위	-7245
▁수성	-7246
▁네이버	-7247
▁GT	-7248
▁제작자	-7249
▁ㅎㅏㄴㄷㅔ	-7250
▁기수	-7251
트릭	-7252
▁긴장	-7253
▁키프	-7254
▁후안	-7255
AD	-7256
iz	-7257
먼드	-7258
▁남한	-7259
▁직책	-7260
▁초연	-7261
▁차남	-7262
▁ㄴㅏㄹ	-7263
▁아미타	-7264
▁시오	-7265
▁여주	-7266
▁조리	-7267
▁중재	-7268
▁룽	-7269
▁대군	-7270
▁물자	-7271
▁전대	-7272
▁정밀	-7273
▁댐	-7274
▁고래	-7275
▁에스파냐	-7276
▁ㄴㅏㅁㄱㅣㄴ	-7277
▁탐지	-7278
▁중국인	-7279
age	-7280
▁가라	-7281
▁무려	-7282
▁짜리	-7283
▁CPU	-7284
▁태생	-7285
▁팽창	-7286
Pa	-7287
▁토스	-7288
▁$	-7289
▁병역	-7290
▁에우	-7291
▁만세	-7292
▁문양	-7293
▁대니	-7294
▁청장	-7295
서리	-7296
▁왜성	-7297
▁충주	-7298
▁포괄	-7299
▁김영삼	-7300
▁송나라	-7301
▁엘리베이터	-7302
▁기다리	-7303
▁단기	-7304
▁토마	-7305
orld	-7306
▁리오	-7307
▁여의	-7308
▁캄보	-7309
▁아미노	-7310
▁팔레스	-7311
▁메인	-7312
▁로프	-7313
▁수평	-7314
▁강경	-7315
▁방침	-7316
▁숭배	-7317
▁입체	-7318
▁존중	-7319
▁블루스	-7320
▁고사	-7321
▁제곱	-7322
▁지나치	-7323
▁하이드	-7324
▁갓	-7325
▁끈	-7326
우라	-7327
▁경부	-7328
▁분광	-7329
▁딩	-7330
▁계몽	-7331
▁피고	-7332
▁그랑프리	-7333
▁볼리	-7334
▁취지	-7335
수엘라	-7336
나리	-7337
▁알코	-7338
▁조반	-7339
▁추증	-7340
▁127	-7341
▁추상	-7342
▁시그	-7343
▁ㄷㅜㅇㄱ	-7344
▁겔	-7345
▁경과	-7346
▁동독	-7347
차례	-7348
▁부천	-7349
▁147	-7350
▁리메이크	-7351
▁타이거즈	-7352
▁팜	-7353
▁스릴	-7354
▁쉐	-7355
▁턱	-7356
▁노란색	-7357
노부	-7358
ㄷㅏㄴ	-7359
▁프랭크	-7360
▁디스플레이	-7361
▁로맨스	-7362
▁난민	-7363
▁북구	-7364
▁수군	-7365
▁최소한	-7366
▁손가락	-7367
▁테니스	-7368
▁김태	-7369
▁마비	-7370
▁침몰	-7371
▁패하	-7372
▁1915	-7373
▁위키백과	-7374
▁북방	-7375
▁사절	-7376
▁케네	-7377
▁전두환	-7378
▁명목	-7379
▁수렴	-7380
▁황해	-7381
▁네이션스	-7382
▁김재	-7383
▁언론인	-7384
기지	-7385
자스	-7386
▁결선	-7387
▁라파	-7388
▁센서	-7389
▁원하	-7390
▁후일	-7391
포트	-7392
▁마하	-7393
▁ㅍㅏㄴ	-7394
▁오키나와	-7395
▁무죄	-7396
▁베네수엘라	-7397
▁낙선	-7398
▁동당	-7399
▁모스	-7400
▁심의	-7401
▁저명	-7402
▁1913	-7403
▁컬러	-7404
▁문학상	-7405
▁어업	-7406
▁171	-7407
ㄹㄹㅣㅁ	-7408
▁김수	-7409
ik	-7410
▁전함	-7411
▁창건	-7412
▁타르	-7413
트리올	-7414
▁몬트리올	-7415
▁얘	-7416
석기	-7417
▁서사	-7418
▁윌리엄스	-7419
▁ㅈㅜㄱㅇㅕㅆ	-7420
창군	-7421
▁SP	-7422
▁개미	-7423
▁동래	-7424
▁머신	-7425
▁신흥	-7426
EN	-7427
▁보리	-7428
▁원반	-7429
▁음원	-7430
무기	-7431
ㄸㅏ	-7432
▁굉장	-7433
▁창시	-7434
▁가져	-7435
▁투르크	-7436
▁트윈스	-7437
▁객관	-7438
▁둘레	-7439
ㄴㅣㄴㄷㅏ	-7440
▁풍경	-7441
ㅇㅜㄴㄷㅏ	-7442
sp	-7443
▁협조	-7444
▁스핀	-7445
▁태수	-7446
▁대역	-7447
▁주축	-7448
▁진군	-7449
▁출토	-7450
자치도	-7451
▁제주특별	-7452
▁제주특별자치도	-7453
▁효력	-7454
▁천문학자	-7455
▁프레스	-7456
▁스파르타	-7457
▁광년	-7458
▁인재	-7459
▁ㅅㅏㄴㄷㅏ	-7460
▁강과	-7461
▁부과	-7462
▁예시	-7463
▁전성기	-7464
▁이민자	-7465
포구	-7466
MS	-7467
▁따뜻	-7468
▁아폴	-7469
▁옥스	-7470
▁원고	-7471
명사전	-7472
▁대포	-7473
▁동년	-7474
▁종결	-7475
▁카탈	-7476
▁코프	-7477
▁ㅈㅓㄴㅎㅏㄴㄷㅏ	-7478
▁비문	-7479
▁지폐	-7480
▁촉구	-7481
▁공직	-7482
▁대처	-7483
▁통칭	-7484
▁이진	-7485
▁바흐	-7486
▁수동	-7487
▁주차	-7488
▁탈환	-7489
▁상당수	-7490
공신	-7491
▁남원	-7492
▁수령	-7493
▁온천	-7494
▁김진	-7495
▁1895	-7496
▁Tr	-7497
ㄷㅓㄴ	-7498
▁세계관	-7499
▁팔레스타인	-7500
▁ㄷㅓㅅㅂㅜㅌㅇㅕ	-7501
네스코	-7502
▁라이언	-7503
▁이어받	-7504
▁자기장	-7505
▁닿	-7506
워하	-7507
평군	-7508
▁동력	-7509
▁섭정	-7510
▁정무	-7511
▁언제나	-7512
▁ㄴㅏㄴㄷㅏ	-7513
▁폐위	-7514
▁al	-7515
▁링컨	-7516
▁별칭	-7517
▁시공	-7518
▁식별	-7519
▁다운로드	-7520
▁유수	-7521
▁하부	-7522
그라드	-7523
▁169	-7524
▁양주	-7525
▁141	-7526
▁총선거	-7527
보기	-7528
▁광부	-7529
▁후대	-7530
▁베어스	-7531
▁아이템	-7532
▁나가사키	-7533
▁딴	-7534
▁나주	-7535
▁법제	-7536
▁어스	-7537
▁총괄	-7538
▁사회학	-7539
▁아사히	-7540
▁ㄷㅏㄹㄹㅣㄴ	-7541
▁탤	-7542
선거	-7543
박쥐	-7544
▁민회	-7545
▁무제	-7546
▁장학	-7547
▁적자	-7548
▁135	-7549
▁아틀레	-7550
▁기습	-7551
▁수용소	-7552
▁이틀	-7553
▁청원	-7554
▁국사	-7555
벌레	-7556
ust	-7557
▁도호쿠	-7558
▁해병대	-7559
▁ㅃㅗ	-7560
▁풋볼	-7561
▁반박	-7562
▁엔지	-7563
ㄱㅣ	-7564
▁유연	-7565
▁후세	-7566
▁문화방송	-7567
▁서머	-7568
▁장미	-7569
▁북위	-7570
▁소실	-7571
▁북서부	-7572
▁뚫	-7573
와라	-7574
▁초상화	-7575
▁카리브	-7576
▁여파	-7577
▁WWE	-7578
▁영리	-7579
▁신세	-7580
▁캄보디아	-7581
GC	-7582
▁번영	-7583
▁정전	-7584
▁144	-7585
ㅂㅕ	-7586
▁NC	-7587
▁무상	-7588
▁천도	-7589
▁ㅂㅕㄹ	-7590
▁리버풀	-7591
선스	-7592
int	-7593
▁차기	-7594
키지	-7595
▁111	-7596
▁관람	-7597
▁김포	-7598
▁재미	-7599
▁날짜	-7600
▁드러나	-7601
▁컴퍼니	-7602
▁바실	-7603
▁파업	-7604
▁언더	-7605
▁첨가	-7606
크리트	-7607
▁거느리	-7608
▁ㄲㅡㄹㅇㅓ	-7609
ㄲㅕ	-7610
▁귀중	-7611
▁조달	-7612
▁CO	-7613
▁고백	-7614
▁한동안	-7615
▁더글	-7616
▁도스	-7617
▁119	-7618
▁컬럼비아	-7619
▁걱	-7620
리에	-7621
▁CE	-7622
▁인산	-7623
ep	-7624
▁멈추	-7625
▁신중	-7626
▁함유	-7627
▁ㄷㅡㄴㅈㅣ	-7628
▁대제	-7629
▁서울대	-7630
▁아벨	-7631
▁이광	-7632
▁제수	-7633
▁아레나	-7634
▁TH	-7635
▁루시	-7636
▁실전	-7637
▁십자가	-7638
ib	-7639
▁교원	-7640
▁정렬	-7641
▁스티브	-7642
▁신학교	-7643
▁ㄷㅜㅇㄱㅡㄴ	-7644
▁선구	-7645
▁외교관	-7646
니치	-7647
푸스	-7648
▁TO	-7649
▁소환	-7650
▁평야	-7651
▁휴전	-7652
▁연세대	-7653
그로	-7654
▁요르	-7655
▁휴식	-7656
▁유네스코	-7657
▁기요	-7658
▁대위	-7659
▁라이선스	-7660
▁룡	-7661
루션	-7662
▁정말	-7663
▁중순	-7664
ㅈㅜㄴ	-7665
리케인	-7666
▁평일	-7667
▁스릴러	-7668
▁할리우드	-7669
누엘	-7670
▁간호	-7671
▁공모	-7672
▁공채	-7673
▁드럼	-7674
▁마이너	-7675
▁교양	-7676
▁중소	-7677
ㄲㅡ	-7678
▁선종	-7679
▁위임	-7680
케이션	-7681
▁신학자	-7682
▁케네디	-7683
▁허리케인	-7684
▁껍질	-7685
▁끊임	-7686
▁의상	-7687
▁스페이스	-7688
▁내외	-7689
▁해수	-7690
ome	-7691
▁It	-7692
▁불편	-7693
▁삼진	-7694
▁오빠	-7695
▁총사	-7696
▁테레	-7697
▁유니버	-7698
▁콘크리트	-7699
릴라	-7700
▁We	-7701
▁매카	-7702
▁원내	-7703
▁172	-7704
시로	-7705
ㄲㅝ	-7706
라리	-7707
▁제갈	-7708
▁편리	-7709
▁묘역	-7710
▁다니엘	-7711
▁마인	-7712
▁미주	-7713
▁슈트	-7714
▁두루	-7715
▁바퀴	-7716
▁친일인	-7717
▁친일인명사전	-7718
▁애덤	-7719
▁바이오	-7720
▁큰	-7721
▁106	-7722
▁케이스	-7723
페르	-7724
▁ㅋㅐ	-7725
▁관통	-7726
▁미즈	-7727
▁hPa	-7728
▁공의회	-7729
▁등재	-7730
▁신기	-7731
▁구조물	-7732
▁김상	-7733
▁병조	-7734
▁중량	-7735
▁충실	-7736
▁아이슬	-7737
▁에스토	-7738
▁콰	-7739
▁니콜라	-7740
▁우라늄	-7741
▁소통	-7742
▁총대	-7743
▁페르난	-7744
▁엔지니어	-7745
▁애틀	-7746
▁인연	-7747
▁장안	-7748
▁전압	-7749
▁우연히	-7750
ude	-7751
▁낱말	-7752
▁당일	-7753
▁프랑수아	-7754
▁쇼트	-7755
▁승점	-7756
러드	-7757
▁공단	-7758
▁서남	-7759
▁지혜	-7760
▁NBA	-7761
▁꽤	-7762
▁도라	-7763
▁미토	-7764
▁베드	-7765
내셔널	-7766
▁인터내셔널	-7767
▁단식	-7768
▁역설	-7769
▁해변	-7770
▁명백	-7771
ㅇㅕㅆㅇㅡ	-7772
▁ㅈㅓㅇㅎㅏㄴ	-7773
▁걱정	-7774
▁차종	-7775
세츠	-7776
라이더	-7777
▁ㅎㅓ	-7778
▁초과	-7779
▁아이슬란드	-7780
▁며칠	-7781
유행	-7782
▁리어	-7783
▁모방	-7784
▁영남	-7785
ian	-7786
ire	-7787
▁발트	-7788
▁증진	-7789
▁매사추	-7790
▁황태자	-7791
▁대웅	-7792
▁돌연	-7793
▁마츠	-7794
▁오세	-7795
블로	-7796
▁HT	-7797
▁나스	-7798
▁매사추세츠	-7799
▁로열	-7800
▁연패	-7801
▁한성부	-7802
말라	-7803
치오	-7804
▁고수	-7805
▁동문	-7806
▁방패	-7807
▁시나리오	-7808
태우	-7809
▁생전	-7810
▁충북	-7811
ㄹㅏㄴㄷㅏ	-7812
▁겸하	-7813
▁장려	-7814
▁통근	-7815
▁다항	-7816
▁상서	-7817
▁라이온즈	-7818
ere	-7819
▁도주	-7820
▁바치	-7821
▁좌절	-7822
▁투르	-7823
▁암석	-7824
▁에버	-7825
주의자	-7826
▁중추원	-7827
▁보완	-7828
▁의의	-7829
▁탱크	-7830
▁표명	-7831
▁책임자	-7832
▁덤	-7833
▁레바	-7834
▁평범	-7835
ㅈㅣㅁ	-7836
▁ㅂㅜㄴ	-7837
▁차이점	-7838
▁스페인어	-7839
실록	-7840
▁양도	-7841
▁열대	-7842
▁호프	-7843
▁오피스	-7844
▁격투	-7845
▁배신	-7846
▁부채	-7847
▁어휘	-7848
▁합창	-7849
▁에스토니아	-7850
IM	-7851
▁구이	-7852
▁입지	-7853
▁고민	-7854
▁시흥	-7855
▁호위	-7856
ace	-7857
▁기울	-7858
▁지능	-7859
ide	-7860
▁그루	-7861
▁쿤	-7862
▁평택	-7863
ment	-7864
▁마약	-7865
▁영장	-7866
▁닝	-7867
▁횟	-7868
▁고령	-7869
▁김기	-7870
▁바리	-7871
▁불명	-7872
▁대전광역시	-7873
▁치열	-7874
번스	-7875
▁봉쇄	-7876
▁리비아	-7877
▁배터리	-7878
▁우울	-7879
▁포격	-7880
▁도루	-7881
▁퍼센트	-7882
▁닛폰	-7883
▁도르	-7884
▁일조	-7885
▁출처	-7886
▁오사	-7887
▁파이어	-7888
▁부재	-7889
▁사슬	-7890
▁청하	-7891
▁파장	-7892
▁교외	-7893
▁신생	-7894
제리	-7895
▁개그	-7896
▁업계	-7897
▁지선	-7898
▁진짜	-7899
▁조연	-7900
▁친왕	-7901
▁특집	-7902
바이잔	-7903
▁상담	-7904
▁신속	-7905
석탑	-7906
위원	-7907
▁생식	-7908
야시	-7909
▁낭만	-7910
▁명제	-7911
▁".	-7912
층석탑	-7913
▁소유자	-7914
▁성운	-7915
▁장난	-7916
▁바라보	-7917
▁재위	-7918
▁첼시	-7919
▁치즈	-7920
▁물리학자	-7921
▁서정	-7922
▁아제르	-7923
▁항소	-7924
마드	-7925
의자	-7926
▁그로	-7927
오피아	-7928
▁협주곡	-7929
▁브라우저	-7930
▁카이사르	-7931
▁에티오피아	-7932
▁푼	-7933
▁오노	-7934
▁ㄹㅐ	-7935
▁아제르바이잔	-7936
지리아	-7937
▁나이지리아	-7938
▁순회	-7939
▁창고	-7940
▁탈당	-7941
▁현금	-7942
▁중심부	-7943
▁ㄴㅗㄹㄹㅏ	-7944
▁지류	-7945
▁패키지	-7946
▁국무총리	-7947
▁슬로바키아	-7948
▁시초	-7949
▁입당	-7950
▁실시간	-7951
▁148	-7952
▁시선	-7953
▁육지	-7954
▁의약	-7955
▁136	-7956
▁대의원	-7957
아이	-7958
중국	-7959
▁추출	-7960
▁전라도	-7961
▁1916	-7962
▁산림	-7963
▁서재	-7964
▁아드	-7965
▁해밀	-7966
▁극동	-7967
▁위탁	-7968
▁기인	-7969
▁리틀	-7970
▁IBM	-7971
▁스튜어트	-7972
▁작센	-7973
▁애틀랜	-7974
▁이사회	-7975
▁약칭	-7976
▁추세	-7977
▁구호	-7978
▁동상	-7979
▁해소	-7980
▁쌍둥이	-7981
▁ㅅㅜㅁㄱㅕ	-7982
▁물러	-7983
▁노부나가	-7984
▁여지	-7985
▁워드	-7986
▁유동	-7987
▁삼국지	-7988
▁라이브러리	-7989
▁병행	-7990
▁의뢰	-7991
▁즈음	-7992
▁원숭이	-7993
▁DC	-7994
▁구도	-7995
시피	-7996
▁경연	-7997
▁분당	-7998
▁닷	-7999
▁응원	-8000
▁객체	-8001
▁안성	-8002
▁솜	-8003
▁부적	-8004
람쥐	-8005
▁하락	-8006
바다	-8007
▁바닷	-8008
▁바스	-8009
▁면허	-8010
▁신념	-8011
▁우루과이	-8012
▁말리	-8013
▁중위	-8014
▁막내	-8015
▁실장	-8016
▁결혼식	-8017
▁주이	-8018
▁실리	-8019
▁구릉	-8020
▁박해	-8021
▁주행	-8022
▁호기	-8023
▁LP	-8024
▁기단	-8025
▁니아	-8026
▁포터	-8027
▁밟	-8028
▁세션	-8029
▁이세	-8030
▁백색	-8031
▁평원	-8032
▁허리	-8033
ㄱㅎㅣㄴ	-8034
▁그램	-8035
▁시즈	-8036
▁택시	-8037
▁한스	-8038
▁백화점	-8039
▁딕	-8040
타로	-8041
▁반감	-8042
▁휴스턴	-8043
▁앓	-8044
▁가동	-8045
▁냉각	-8046
▁수습	-8047
▁신탁	-8048
▁데이비스	-8049
▁라트비아	-8050
cl	-8051
▁돌리	-8052
▁138	-8053
▁가면	-8054
▁토성	-8055
▁격퇴	-8056
▁고성	-8057
▁시칠리아	-8058
▁리우스	-8059
▁ㅈㅓㄴㅎㅏㄴ	-8060
▁대표작	-8061
▁도장	-8062
▁오비	-8063
▁저하	-8064
▁전념	-8065
▁급격히	-8066
▁후쿠시마	-8067
▁거제	-8068
▁도미	-8069
▁중성자	-8070
▁펌	-8071
▁페르디	-8072
하면	-8073
▁AK	-8074
▁la	-8075
▁복선	-8076
▁360	-8077
▁잦	-8078
아나	-8079
▁고소	-8080
▁사헌	-8081
▁트래	-8082
타나	-8083
▁감리	-8084
▁되게	-8085
▁신규	-8086
▁모니터	-8087
▁아마도	-8088
▁영의정	-8089
여래	-8090
▁해적	-8091
▁레논	-8092
▁현종	-8093
▁회고	-8094
▁CON	-8095
▁혈통	-8096
래스카	-8097
승지	-8098
▁적분	-8099
▁명령어	-8100
▁상공	-8101
▁탐구	-8102
▁릉	-8103
▁En	-8104
▁거론	-8105
▁스톡	-8106
▁임용	-8107
ㄱㅓㄴ	-8108
대신	-8109
▁만남	-8110
▁신한	-8111
▁오바	-8112
▁횟수	-8113
▁테이블	-8114
▁목판	-8115
▁춘추	-8116
▁산란	-8117
▁최상위	-8118
▁아부	-8119
▁춘천	-8120
▁104	-8121
곡리	-8122
양함	-8123
▁우세	-8124
▁주가	-8125
▁ㄱㅜㄴ	-8126
토모	-8127
▁깨달	-8128
▁ㅇㅔㄹ	-8129
▁피에	-8130
마쓰	-8131
▁CS	-8132
▁ㄷㅣ	-8133
▁치명	-8134
▁피츠	-8135
▁109	-8136
▁반도체	-8137
▁랄	-8138
리니	-8139
▁성숙	-8140
고쿠	-8141
▁고인	-8142
▁비시	-8143
▁성체	-8144
▁ㄹㅏㄹ	-8145
▁게르만	-8146
▁대학생	-8147
데시	-8148
하시	-8149
ark	-8150
▁비리	-8151
▁순교	-8152
▁코무네	-8153
▁송시	-8154
브레	-8155
▁제독	-8156
▁맵	-8157
▁가짜	-8158
▁거행	-8159
▁방송사	-8160
▁사헌부	-8161
▁나비	-8162
▁루프	-8163
▁옴	-8164
▁칼라	-8165
▁교황청	-8166
▁스트레스	-8167
▁공수	-8168
스틴	-8169
▁잔류	-8170
▁차장	-8171
살이	-8172
▁극히	-8173
▁기어	-8174
회장	-8175
▁AR	-8176
면체	-8177
▁한쪽	-8178
▁뢰	-8179
▁인플	-8180
▁다발	-8181
▁얘기	-8182
▁이식	-8183
▁히어로즈	-8184
▁폭동	-8185
▁관구	-8186
▁래퍼	-8187
▁주름	-8188
▁터치	-8189
▁ㅇㅗㄹㄹㅏㅆㅇㅡ	-8190
▁고치	-8191
▁바나	-8192
AL	-8193
▁오해	-8194
▁이케	-8195
▁법조	-8196
▁사모	-8197
▁환영	-8198
베르토	-8199
은색	-8200
▁수련	-8201
▁음료	-8202
▁재현	-8203
▁다스리	-8204
▁광물	-8205
푸르트	-8206
▁123	-8207
▁성취	-8208
▁주역	-8209
▁소매	-8210
▁팡	-8211
▁ㄱㅚ	-8212
▁최악	-8213
▁부당	-8214
▁정점	-8215
▁플랜	-8216
▁후방	-8217
▁매입	-8218
▁ㅈㅓㄴㅎㅐㅆ	-8219
타고	-8220
헤이	-8221
▁경관	-8222
▁햇	-8223
▁반경	-8224
▁신조	-8225
▁한인	-8226
ㅀㅇㅓ	-8227
▁연합회	-8228
▁노바	-8229
▁시바	-8230
실베이	-8231
실베이니아	-8232
▁마야	-8233
▁카자흐스탄	-8234
▁펜실베이니아	-8235
더슨	-8236
▁그날	-8237
▁아홉	-8238
▁축하	-8239
▁통증	-8240
리안	-8241
▁CC	-8242
▁부르크	-8243
▁하워드	-8244
▁리우	-8245
▁베스	-8246
▁분비	-8247
▁상점	-8248
▁태양계	-8249
라클	-8250
▁견제	-8251
▁광학	-8252
▁없애	-8253
▁우위	-8254
▁컴파	-8255
▁143	-8256
포드	-8257
▁동점	-8258
▁억압	-8259
▁유한	-8260
▁청춘	-8261
▁충전	-8262
▁공산주의자	-8263
법인	-8264
▁아담	-8265
ㄴㅜㄹ	-8266
▁분기점	-8267
▁종로구	-8268
글리	-8269
▁품종	-8270
▁플라이	-8271
▁비자	-8272
▁야구장	-8273
▁Op	-8274
▁너비	-8275
▁폭행	-8276
▁ㅅㅣㄹㄹㅕ	-8277
▁신주	-8278
▁이화	-8279
바시	-8280
▁상용	-8281
▁염기	-8282
▁드로	-8283
▁팔라	-8284
▁히메	-8285
러스트	-8286
▁ㅂㅕㄹㄷㅏ	-8287
▁적당	-8288
▁ㅇㅑㄱ	-8289
▁박람회	-8290
▁ㅎㅏㄹㅈㅣ	-8291
▁다이아몬드	-8292
은이	-8293
▁가군	-8294
브리지	-8295
▁호랑이	-8296
▁태권	-8297
▁통영	-8298
▁ㄴㅔㄴ	-8299
ile	-8300
▁공관	-8301
란히	-8302
▁성사	-8303
▁자민	-8304
▁주주	-8305
산동	-8306
▁국소	-8307
▁목재	-8308
▁여당	-8309
▁모이	-8310
▁부설	-8311
▁열정	-8312
▁축적	-8313
▁동아일보	-8314
▁왜냐	-8315
▁토모	-8316
▁티스	-8317
▁ㅍㅜㄹㄹㅕ	-8318
차기	-8319
▁요하	-8320
▁블로그	-8321
▁소나타	-8322
▁알코올	-8323
▁룬	-8324
▁기적	-8325
▁상단	-8326
▁육체	-8327
▁ㄸㅐ	-8328
▁롤링	-8329
▁힘입	-8330
▁col	-8331
▁벌금	-8332
▁펑크	-8333
▁ㅌㅓㄴ	-8334
ies	-8335
▁김경	-8336
▁처녀	-8337
▁남동부	-8338
▁왓	-8339
▁날씨	-8340
▁공습	-8341
▁해명	-8342
▁사육	-8343
▁이윤	-8344
▁존속	-8345
▁경상도	-8346
▁유로파	-8347
▁신약	-8348
▁운하	-8349
▁생산량	-8350
▁친일파	-8351
▁암시	-8352
▁현저	-8353
▁공익	-8354
▁상반	-8355
▁블라디미르	-8356
▁킥	-8357
▁휠	-8358
▁근교	-8359
▁성단	-8360
▁사우루스	-8361
xt	-8362
▁레일	-8363
▁RNA	-8364
▁나트	-8365
▁이타	-8366
비나	-8367
▁제프	-8368
▁ㅎㅡㅌ	-8369
▁라오스	-8370
▁평의회	-8371
▁말라	-8372
▁조선일보	-8373
의장	-8374
▁보석	-8375
▁설탕	-8376
▁루이지	-8377
▁우승자	-8378
▁규범	-8379
▁살리	-8380
▁양키스	-8381
▁ㅁㅗㅅㅎㅏㄹ	-8382
▁시골	-8383
▁황실	-8384
기업	-8385
▁무지	-8386
▁소셜	-8387
▁포럼	-8388
▁키프로스	-8389
▁부제	-8390
▁카롤	-8391
▁사업자	-8392
ite	-8393
▁맥락	-8394
▁신민	-8395
▁플러스	-8396
▁중의원	-8397
▁112	-8398
▁장거리	-8399
도리	-8400
▁가죽	-8401
▁유죄	-8402
▁히사	-8403
▁이에야스	-8404
▁SE	-8405
▁믹스	-8406
▁인체	-8407
▁필터	-8408
▁탐사선	-8409
▁CF	-8410
▁동국	-8411
▁아랍어	-8412
스부르크	-8413
권자	-8414
▁미르	-8415
▁미션	-8416
▁107	-8417
▁경찰청	-8418
▁구축함	-8419
도바	-8420
▁비유	-8421
▁상사	-8422
▁연쇄	-8423
랑카	-8424
▁범인	-8425
▁ㅅㅣㄹ	-8426
▁브라더스	-8427
▁삼층석탑	-8428
▁시베리아	-8429
▁맥주	-8430
▁왜곡	-8431
▁우유	-8432
▁증대	-8433
▁ㅅㅗㄱㅎㅐㅆ	-8434
▁Pr	-8435
▁시어	-8436
▁조세	-8437
▁그동안	-8438
▁이산화	-8439
달리	-8440
▁거북	-8441
▁누이	-8442
▁이순신	-8443
▁창원시	-8444
▁is	-8445
▁핸드	-8446
▁후사	-8447
▁트위터	-8448
▁허위	-8449
▁전자기	-8450
ft	-8451
▁흠	-8452
▁126	-8453
▁대웅전	-8454
▁희생자	-8455
고래	-8456
▁단단	-8457
▁빨간	-8458
▁서진	-8459
▁수법	-8460
▁ㄸㅣㄴㄷㅏ	-8461
레기	-8462
▁교정	-8463
▁나르	-8464
▁이경	-8465
▁제재	-8466
▁퐁	-8467
▁Te	-8468
▁개교	-8469
▁옆면	-8470
▁인문	-8471
▁ㄷㅏㄹㅎㅐㅆ	-8472
▁당주	-8473
▁117	-8474
▁발해	-8475
▁언니	-8476
▁후궁	-8477
▁KIA	-8478
▁교과서	-8479
▁뛰어나	-8480
▁ㅇㅝㄴㅎㅐㅆ	-8481
▁구출	-8482
▁신선	-8483
▁고속도	-8484
▁클라우드	-8485
수리	-8486
▁갈라	-8487
▁아예	-8488
▁송시열	-8489
▁조종사	-8490
▁근원	-8491
▁탐색	-8492
▁인명	-8493
▁헤비	-8494
OL	-8495
단체	-8496
▁ㅆㅗ	-8497
▁지평	-8498
▁줄무늬	-8499
▁ㅊㅕㅆ	-8500
▁네스	-8501
▁누나	-8502
ㄹㅜㄹ	-8503
ound	-8504
▁핵무기	-8505
▁ㅂㅜㅌㅇㅕㅆ	-8506
지붕	-8507
▁워터	-8508
▁자선	-8509
▁도마뱀붙이	-8510
▁잊	-8511
▁다크	-8512
▁성별	-8513
▁투옥	-8514
그레이드	-8515
▁경보	-8516
▁깔	-8517
ㄷㅣ	-8518
ath	-8519
▁약력	-8520
연합	-8521
▁수색	-8522
▁판본	-8523
▁확신	-8524
▁게스트	-8525
▁카를로스	-8526
▁빈곤	-8527
▁샘플	-8528
▁천장	-8529
▁업그레이드	-8530
▁협박	-8531
▁극장판	-8532
▁할머니	-8533
▁ㄷㅏㄹㅇㅏ	-8534
갈색	-8535
▁CR	-8536
▁실체	-8537
▁제니	-8538
▁com	-8539
▁드레	-8540
▁기업인	-8541
▁냉전	-8542
▁소원	-8543
▁가마쿠라	-8544
▁몰리	-8545
▁세라	-8546
▁킴	-8547
아다니	-8548
▁입원	-8549
▁제대	-8550
▁진급	-8551
▁수용체	-8552
▁왜냐하면	-8553
▁방화	-8554
▁신시	-8555
▁이브	-8556
▁대폭	-8557
▁데모	-8558
▁펠리	-8559
▁121	-8560
▁137	-8561
▁화장실	-8562
게이머	-8563
▁연합국	-8564
▁프로게이머	-8565
▁대명	-8566
▁고고학	-8567
▁비르	-8568
▁내려오	-8569
▁법무부	-8570
▁살아가	-8571
▁삼성전자	-8572
▁아카데미상	-8573
▁문예	-8574
▁진공	-8575
▁라이너	-8576
▁요약	-8577
▁113	-8578
▁굉장히	-8579
▁브로드	-8580
▁가축	-8581
▁보증	-8582
▁173	-8583
▁그만두	-8584
▁공방	-8585
▁말년	-8586
▁키우	-8587
▁350	-8588
▁사생활	-8589
▁헥	-8590
조부	-8591
▁LC	-8592
베니아	-8593
▁물리치	-8594
▁ㄷㅏㅁㄱㅣㄴ	-8595
▁우호	-8596
▁포병	-8597
▁빨간색	-8598
▁1894	-8599
무스	-8600
수소	-8601
▁거울	-8602
▁알제리	-8603
다지	-8604
마루	-8605
▁곡인	-8606
▁깨닫	-8607
끼리	-8608
로니	-8609
▁레온	-8610
▁상표	-8611
▁시뮬	-8612
▁필리프	-8613
▁ㄷㅏㅁㄱㅕ	-8614
ond	-8615
▁결함	-8616
▁무어	-8617
▁스캔	-8618
▁일반인	-8619
▁마디	-8620
▁몰래	-8621
▁승계	-8622
▁치안	-8623
▁통틀	-8624
▁슬로베니아	-8625
ory	-8626
▁왕복	-8627
▁일방	-8628
▁둥지	-8629
▁일가	-8630
시타	-8631
▁지미	-8632
▁몬스터	-8633
▁테이프	-8634
▁아야	-8635
▁요동	-8636
▁계정	-8637
▁김현	-8638
▁자아	-8639
▁바오로	-8640
ㄴㅝ	-8641
▁해고	-8642
▁바티칸	-8643
▁코스타	-8644
아프리카	-8645
ov	-8646
톨레	-8647
▁농림	-8648
▁문구	-8649
▁캐시	-8650
▁크리스토퍼	-8651
▁바우	-8652
▁용병	-8653
▁근로자	-8654
▁도미니	-8655
▁총독부	-8656
MA	-8657
승부	-8658
man	-8659
▁군정	-8660
▁적도	-8661
▁철회	-8662
▁게이지	-8663
▁맘	-8664
나스	-8665
▁SU	-8666
▁대피	-8667
▁ㅂㅣㄹㄹㅕ	-8668
▁땃	-8669
대기	-8670
▁양측	-8671
▁물려받	-8672
▁가장자리	-8673
▁냄	-8674
▁뒷면	-8675
▁항쟁	-8676
로이	-8677
▁끄	-8678
▁피오	-8679
블리	-8680
▁학계	-8681
▁공백	-8682
▁서민	-8683
린스	-8684
▁ㅉㅏ	-8685
▁공민	-8686
▁먼지	-8687
▁세속	-8688
퍼런스	-8689
▁124	-8690
▁z	-8691
▁체크	-8692
▁로이	-8693
▁하동	-8694
프레스	-8695
규모	-8696
▁공천	-8697
▁내정	-8698
▁탤런트	-8699
▁헐	-8700
아키	-8701
크라	-8702
▁강서	-8703
▁궁극	-8704
▁World	-8705
▁원전	-8706
▁최강	-8707
▁횡단	-8708
박스	-8709
▁성문	-8710
▁타당	-8711
▁ㅂㅏㄴㅎㅐ	-8712
▁On	-8713
▁혈관	-8714
iver	-8715
▁독일인	-8716
▁커뮤니케이션	-8717
셰비	-8718
▁Am	-8719
▁제인	-8720
▁화해	-8721
▁사상자	-8722
▁오프닝	-8723
▁자연수	-8724
▁관음	-8725
▁구절	-8726
▁카카	-8727
▁ㅎㅡㅌㅇㅓ	-8728
▁야쿠	-8729
▁멜로디	-8730
▁주어지	-8731
▁러시	-8732
▁ㅎㅣㅁㄷㅡㄴ	-8733
▁륙	-8734
▁쏟	-8735
▁ㄸㅏㅆ	-8736
▁개종	-8737
▁극심	-8738
▁성도	-8739
▁체조	-8740
대원군	-8741
▁브리지	-8742
▁국내외	-8743
▁파이널	-8744
▁나아가	-8745
▁be	-8746
▁만일	-8747
▁서초	-8748
▁칭찬	-8749
▁프랑크푸르트	-8750
축구	-8751
▁가루	-8752
▁디렉	-8753
▁풍자	-8754
▁야마토	-8755
▁드라이버	-8756
▁데르	-8757
▁즉각	-8758
▁김정일	-8759
▁사쿠라	-8760
ㅅㅕ	-8761
줄기	-8762
▁초록	-8763
▁평정	-8764
▁프로덕	-8765
드르	-8766
▁초월	-8767
▁챌린지	-8768
IP	-8769
▁모친	-8770
▁영산	-8771
▁우파	-8772
▁자음	-8773
▁New	-8774
▁감자	-8775
▁남서부	-8776
▁미루	-8777
ㄲㅕㅆ	-8778
▁베네딕	-8779
▁로우	-8780
▁옵션	-8781
▁욕구	-8782
▁1890	-8783
▁ㅂㅜㅌㅇㅣㄴ	-8784
▁그랜	-8785
▁이소	-8786
겨나	-8787
▁고장	-8788
▁기질	-8789
▁미노	-8790
▁자오	-8791
▁곁	-8792
▁스칼	-8793
ich	-8794
▁외모	-8795
▁유저	-8796
▁정세	-8797
▁114	-8798
▁부작용	-8799
▁블랙홀	-8800
▁최대한	-8801
▁그냥	-8802
▁배후	-8803
▁설화	-8804
▁정변	-8805
▁윤치호	-8806
렉스	-8807
▁김규	-8808
▁양호	-8809
▁자비	-8810
▁쾌속	-8811
▁오리콘	-8812
▁플래시	-8813
▁ㄷㅓㄴㅈㅕ	-8814
▁EC	-8815
▁돌격	-8816
▁계열사	-8817
▁악단	-8818
▁이드	-8819
▁이준	-8820
▁베니	-8821
▁아랫	-8822
▁퇴임	-8823
▁학명	-8824
▁트로이	-8825
▁정주	-8826
▁므	-8827
▁곤란	-8828
▁땃쥐	-8829
▁시위대	-8830
▁캔자스	-8831
▁ㄴㅗㄴ	-8832
▁검찰청	-8833
ial	-8834
▁SD	-8835
▁결코	-8836
▁조부	-8837
▁침투	-8838
▁맑	-8839
▁선비	-8840
▁구스타	-8841
▁체스	-8842
▁소규모	-8843
▁미키	-8844
▁에미	-8845
황후	-8846
▁커널	-8847
▁방사선	-8848
▁소방서	-8849
▁도청	-8850
▁태극	-8851
타리오	-8852
▁ㄷㅜㄴㄷㅏ	-8853
▁Sc	-8854
▁ㅁㅔㄴ	-8855
▁뉘	-8856
▁ㄹㅠ	-8857
▁관세	-8858
▁로그	-8859
▁요정	-8860
▁증손	-8861
▁안토니오	-8862
▁그대	-8863
▁팔리	-8864
▁벵	-8865
기념	-8866
▁하르	-8867
▁학업	-8868
▁GP	-8869
▁비주	-8870
▁118	-8871
▁이남	-8872
▁115	-8873
▁일리노	-8874
저지	-8875
ign	-8876
▁경신	-8877
▁가드	-8878
▁말씀	-8879
▁숙청	-8880
▁지침	-8881
▁사로	-8882
▁ㄱㅕㅂ	-8883
hn	-8884
함수	-8885
▁시정	-8886
▁어미	-8887
▁흔하	-8888
▁모로코	-8889
▁일리노이	-8890
▁매매	-8891
▁아름	-8892
▁제압	-8893
▁지인	-8894
▁징계	-8895
▁통치자	-8896
▁서자	-8897
▁반지름	-8898
▁과반	-8899
▁생체	-8900
▁자택	-8901
▁주부	-8902
▁진사	-8903
닐라	-8904
▁구와	-8905
▁뉴턴	-8906
▁헬리	-8907
▁알루미	-8908
▁우즈베	-8909
▁빔	-8910
▁GS	-8911
▁경찰관	-8912
▁파란색	-8913
ㄷㅎㅣㄴ	-8914
▁만료	-8915
▁봉건	-8916
▁키르	-8917
▁미하일	-8918
▁변이	-8919
▁웹툰	-8920
▁레바논	-8921
▁ㅅㅏㄹㅇㅏ	-8922
교도	-8923
▁종착	-8924
▁성리학	-8925
▁ㅁㅣㄹ	-8926
▁범유행	-8927
▁1898	-8928
TS	-8929
▁재상	-8930
▁디비시온	-8931
지스	-8932
고스	-8933
▁대부	-8934
▁저널	-8935
▁헬기	-8936
▁혜택	-8937
▁뉴저지	-8938
▁스크립	-8939
▁크리스티안	-8940
▁괴물	-8941
▁그치	-8942
▁남구	-8943
▁컨셉	-8944
▁바빌	-8945
▁연승	-8946
▁취업	-8947
마이오스	-8948
▁예조	-8949
▁운수	-8950
보르	-8951
▁용이	-8952
▁레슬링	-8953
▁매니저	-8954
▁극작	-8955
▁스폰	-8956
▁카우	-8957
▁퍼지	-8958
▁남미	-8959
▁대거	-8960
▁순조	-8961
▁외관	-8962
▁패럴	-8963
▁하프	-8964
▁III	-8965
▁컷	-8966
▁세이브	-8967
▁축출	-8968
▁분명히	-8969
조건	-8970
▁웨스턴	-8971
▁연이	-8972
먼스	-8973
문트	-8974
틱스	-8975
▁동정	-8976
▁봉안	-8977
미사	-8978
타니	-8979
▁중형	-8980
▁케냐	-8981
▁렐	-8982
▁캉	-8983
ㄷㅐ	-8984
▁가옥	-8985
▁왕세	-8986
▁필사	-8987
▁희귀	-8988
벨트	-8989
▁관제	-8990
▁광해군	-8991
▁선도	-8992
▁재혼	-8993
▁원로원	-8994
▁의약품	-8995
하루	-8996
히코	-8997
▁앵글	-8998
▁우측	-8999
▁시가지	-9000
▁스타리그	-9001
▁승부차기	-9002
▁믹	-9003
▁솟	-9004
▁공조	-9005
▁129	-9006
▁외야수	-9007
▁센티	-9008
▁카디	-9009
▁핑크	-9010
▁체코슬로	-9011
▁체코슬로바키아	-9012
▁사적	-9013
▁코카	-9014
▁물러나	-9015
▁쯔	-9016
▁리뷰	-9017
▁미세	-9018
▁발급	-9019
▁부의장	-9020
▁무성	-9021
▁소모	-9022
▁임원	-9023
▁프로덕션	-9024
ㄴㅎㅏㄴㄷㅏ	-9025
▁붐	-9026
시즘	-9027
▁기증	-9028
▁내주	-9029
▁종속	-9030
개미	-9031
▁본국	-9032
▁글루	-9033
▁뇌물	-9034
ㄲㅡㄴ	-9035
▁넘어가	-9036
▁ㄷㅏㄹㅎㅏㄴㄷㅏ	-9037
▁전년	-9038
▁켈리	-9039
▁마운트	-9040
▁연산자	-9041
▁`	-9042
▁괘	-9043
▁모나	-9044
▁발병	-9045
▁무승부	-9046
▁맏	-9047
화물	-9048
▁응시	-9049
▁ㄷㅏㄴ	-9050
▁비로소	-9051
▁1899	-9052
▁럼	-9053
▁승자	-9054
▁통보	-9055
▁호출	-9056
▁공감	-9057
▁기각	-9058
▁밝기	-9059
▁부피	-9060
▁사위	-9061
▁벨라루스	-9062
타리	-9063
▁로비	-9064
▁배수	-9065
▁중산	-9066
▁ㅅㅣㅁㅎㅐ	-9067
▁무명	-9068
▁빌라	-9069
rom	-9070
▁Ne	-9071
▁척추	-9072
▁젊은이	-9073
▁워크	-9074
▁연예인	-9075
▁JT	-9076
▁답변	-9077
▁그레고	-9078
▁천문대	-9079
슬러	-9080
▁러셀	-9081
▁요건	-9082
▁한족	-9083
▁세이부	-9084
▁장례식	-9085
쟁이	-9086
▁맥도	-9087
▁밀집	-9088
▁첨단	-9089
▁케임	-9090
▁스트리	-9091
우트	-9092
▁부스	-9093
▁직면	-9094
▁황족	-9095
▁개막전	-9096
바닥	-9097
▁예고	-9098
▁예하	-9099
▁화력	-9100
▁ㅇㅗㄴㄷㅏ	-9101
▁회관	-9102
방송공사	-9103
ph	-9104
그리	-9105
▁ㅇㅕㅆㅇㅡㅁ	-9106
레타	-9107
▁군중	-9108
▁폭넓	-9109
▁오오	-9110
테르부르크	-9111
▁ID	-9112
▁말미	-9113
▁오크	-9114
▁토끼	-9115
▁총사령	-9116
▁키보드	-9117
코딩	-9118
▁미들	-9119
▁재선	-9120
▁폭포	-9121
▁퉁	-9122
▁IM	-9123
▁난징	-9124
▁벽돌	-9125
▁지우	-9126
▁파산	-9127
▁덧	-9128
▁사본	-9129
▁성폭	-9130
▁지옥	-9131
▁조지프	-9132
치기	-9133
ㄹㄹㅣ	-9134
ㅎㅇㅏ	-9135
▁월요일	-9136
▁ㅎㅡㄴㅎㅏㄴ	-9137
▁142	-9138
▁알루미늄	-9139
▁웬	-9140
ㅅㅏ	-9141
▁양반	-9142
urn	-9143
▁소생	-9144
▁브리튼	-9145
진군	-9146
▁토양	-9147
▁옳	-9148
펴보	-9149
포로	-9150
▁vs	-9151
▁어른	-9152
▁유라	-9153
▁케빈	-9154
▁살펴보	-9155
▁힌두교	-9156
▁콕	-9157
▁만성	-9158
▁저주	-9159
ction	-9160
도스	-9161
천리	-9162
▁각도	-9163
▁남작	-9164
▁혼동	-9165
pp	-9166
로우	-9167
▁교통국	-9168
▁ㅎㅣㅁㅆㅓ	-9169
▁싸이	-9170
▁워너	-9171
느러미	-9172
▁대변인	-9173
▁대서양	-9174
▁ㅈㅗㅎㅇㅏ	-9175
▁옹립	-9176
▁중공	-9177
▁도카이	-9178
▁청주시	-9179
롤라이나	-9180
▁룩셈	-9181
▁천재	-9182
▁ㅈㅓㄱㅎㅕ	-9183
버리	-9184
▁ch	-9185
▁창출	-9186
▁토미	-9187
▁룩셈부르크	-9188
▁유진	-9189
▁일컬	-9190
▁스즈키	-9191
토르	-9192
▁구경	-9193
▁독서	-9194
▁시범	-9195
▁유방	-9196
▁전속	-9197
▁축물	-9198
▁학기	-9199
▁ㅅㅔㄹ	-9200
▁플라스틱	-9201
▁광주광역시	-9202
▁CJ	-9203
▁김지	-9204
▁대치	-9205
▁드림	-9206
▁무함	-9207
▁총칭	-9208
▁코시	-9209
셰비키	-9210
▁부여받	-9211
▁공적	-9212
▁리프	-9213
▁신원	-9214
▁마르티	-9215
▁온타리오	-9216
브르	-9217
▁자크	-9218
▁거래소	-9219
▁타임스	-9220
타주	-9221
▁안테	-9222
▁더글러스	-9223
▁익스프레스	-9224
럴드	-9225
ens	-9226
▁병기	-9227
▁BS	-9228
▁동학	-9229
▁보위	-9230
▁화상	-9231
▁프란츠	-9232
▁프톨레	-9233
▁프톨레마이오스	-9234
수록	-9235
▁감마	-9236
▁공리	-9237
▁본문	-9238
▁정려	-9239
▁커지	-9240
▁ㅍㅣㄹ	-9241
▁기사단	-9242
▁마녀	-9243
▁피겨	-9244
▁ㅅㅕㅆ	-9245
▁기술자	-9246
▁사간	-9247
▁시코	-9248
▁중복	-9249
▁컴백	-9250
▁아리아	-9251
▁ㅇㅡㄴㄷㅔ	-9252
▁가환	-9253
▁실망	-9254
▁체류	-9255
▁Man	-9256
아먹	-9257
▁가야	-9258
▁광둥	-9259
▁발기	-9260
▁서장	-9261
▁유체	-9262
▁다항식	-9263
▁점성술	-9264
▁1902	-9265
▁니코	-9266
▁서신	-9267
▁촉매	-9268
▁금요일	-9269
▁밍	-9270
▁스턴	-9271
▁닦	-9272
▁수분	-9273
파이어	-9274
▁그래미	-9275
▁대성당	-9276
▁왼손	-9277
▁원천	-9278
▁채소	-9279
▁뒷받침	-9280
lan	-9281
▁의자	-9282
덩이	-9283
▁종래	-9284
크로	-9285
▁명종	-9286
▁지출	-9287
▁ㅇㅕㄴ	-9288
▁표기법	-9289
▁해밀턴	-9290
▁ㅇㅣㅀㅇㅓ	-9291
샤바	-9292
▁대패	-9293
▁동네	-9294
▁우체	-9295
▁정적	-9296
▁설교	-9297
TA	-9298
ㅃㅏ	-9299
▁연꽃	-9300
▁관광지	-9301
글라	-9302
▁감행	-9303
▁대합	-9304
▁화자	-9305
▁희곡	-9306
▁확실히	-9307
▁준결승전	-9308
▁독성	-9309
▁탄도	-9310
두리	-9311
ert	-9312
▁게리	-9313
▁등기	-9314
▁시가	-9315
▁보이스	-9316
▁플랫폼	-9317
▁ㄴㅡㄹ	-9318
▁''	-9319
▁간선	-9320
▁발리	-9321
▁세비	-9322
▁원종	-9323
▁호르몬	-9324
lic	-9325
▁대손	-9326
▁비석	-9327
▁마스크	-9328
▁스위치	-9329
▁러시아어	-9330
▁ㄱㅏㅇㅎㅐ	-9331
▁깃발	-9332
▁영문	-9333
▁정성	-9334
▁포획	-9335
▁피신	-9336
TC	-9337
폴리	-9338
▁위쪽	-9339
▁표적	-9340
▁함정	-9341
ㅓㄹ	-9342
ary	-9343
▁기숙	-9344
▁나노	-9345
▁염증	-9346
▁바깥쪽	-9347
▁코믹스	-9348
▁ㄱㅓㄹㄹㅕㅆ	-9349
▁소나무	-9350
▁토착종	-9351
▁강변	-9352
▁국영	-9353
▁아돌프	-9354
▁개소	-9355
▁그릇	-9356
▁기니	-9357
▁메커	-9358
▁상금	-9359
▁선행	-9360
▁비행장	-9361
▁제국주의	-9362
▁포켓몬스터	-9363
▁늘리	-9364
▁벨트	-9365
▁서류	-9366
▁ㅅㅓㅁ	-9367
▁기차	-9368
▁물품	-9369
▁버드	-9370
▁초신	-9371
▁형조	-9372
▁지식인	-9373
국사	-9374
▁광명	-9375
▁강동	-9376
▁마력	-9377
▁입국	-9378
▁판례	-9379
▁고양시	-9380
▁몫	-9381
▁복용	-9382
▁엔딩	-9383
▁영등	-9384
▁약자	-9385
▁이용자	-9386
▁코끼리	-9387
▁ㅉㅗㅊㄱㅕ	-9388
텍처	-9389
▁소시	-9390
▁아키텍처	-9391
ㅌㅔ	-9392
▁ㅇㅚ	-9393
▁검열	-9394
▁브뤼	-9395
▁선배	-9396
▁아산	-9397
▁주조	-9398
▁참의	-9399
▁청산	-9400
▁아이오	-9401
그룹	-9402
▁사슴	-9403
▁생생	-9404
▁하단	-9405
▁단축	-9406
▁울프	-9407
LS	-9408
링턴	-9409
미트	-9410
테인	-9411
▁고아	-9412
▁수확	-9413
▁페르디난	-9414
▁동행	-9415
▁임관	-9416
▁퀘벡	-9417
▁머무르	-9418
▁부회장	-9419
디나	-9420
ach	-9421
▁직결	-9422
ㄷㅝㅆ	-9423
▁사이토	-9424
▁연기자	-9425
구르	-9426
▁간토	-9427
▁경성부	-9428
▁울산광역시	-9429
▁습지	-9430
▁축조	-9431
▁페널	-9432
▁혐오	-9433
▁사회당	-9434
▁렘	-9435
▁례	-9436
▁단절	-9437
▁쓰촨	-9438
▁제네바	-9439
▁No	-9440
▁서문	-9441
▁열도	-9442
▁1901	-9443
▁채우	-9444
▁호모	-9445
LE	-9446
▁단의	-9447
▁생략	-9448
▁코코	-9449
▁드러머	-9450
자르	-9451
▁갈릴	-9452
▁보복	-9453
▁산출	-9454
▁실버	-9455
▁압둘	-9456
▁커스	-9457
▁갈수록	-9458
ys	-9459
짓점	-9460
▁분수	-9461
▁화강	-9462
▁바이킹	-9463
▁서유럽	-9464
▁폭격기	-9465
▁레즈	-9466
▁보트	-9467
▁현은	-9468
▁꼭짓점	-9469
▁매카트니	-9470
IG	-9471
▁공명	-9472
▁광대	-9473
▁면제	-9474
▁언어학	-9475
ㄱㅡ	-9476
out	-9477
▁색채	-9478
▁성지	-9479
▁어류	-9480
▁이현	-9481
▁페니	-9482
▁삿포로	-9483
▁무궁	-9484
▁수축	-9485
▁정동	-9486
▁체르	-9487
▁하치	-9488
▁뮤지션	-9489
▁에디션	-9490
▁끊임없이	-9491
▁케임브리지	-9492
피어	-9493
▁ㅅㅑ	-9494
▁매수	-9495
▁부가	-9496
▁조립	-9497
▁ㅆㅏㅎㅇㅏㅆ	-9498
루아	-9499
모스	-9500
타임	-9501
▁정문	-9502
▁헌신	-9503
▁갱신	-9504
▁권총	-9505
▁김창	-9506
▁이단	-9507
▁일산	-9508
▁카미	-9509
▁광저우	-9510
▁쿄	-9511
카가	-9512
▁입성	-9513
▁자작	-9514
▁특권	-9515
ype	-9516
▁MB	-9517
▁라그	-9518
▁역량	-9519
▁치아	-9520
파르	-9521
▁개화	-9522
▁불꽃	-9523
▁여운	-9524
▁토기	-9525
▁염색체	-9526
▁메커니즘	-9527
▁알렉산드르	-9528
▁퇴역	-9529
▁아라비아	-9530
▁ㄷㅏㅇㅎㅏㄴㄷㅏ	-9531
▁낫	-9532
아웃	-9533
▁kt	-9534
▁가역	-9535
▁공예	-9536
▁체중	-9537
▁크롬	-9538
ug	-9539
▁고산	-9540
▁드라	-9541
▁방송인	-9542
쿠버	-9543
▁원료	-9544
▁정립	-9545
▁요르단	-9546
▁발렌시아	-9547
정리	-9548
▁ㅈㅛ	-9549
▁미륵	-9550
▁푸에르	-9551
나우	-9552
속기	-9553
▁누적	-9554
▁박지	-9555
▁ㅅㅡㄴ	-9556
▁영국인	-9557
▁민감	-9558
▁보헤	-9559
▁실적	-9560
▁조수	-9561
▁태그	-9562
▁스텔	-9563
▁원본	-9564
▁조이	-9565
베트남	-9566
▁134	-9567
▁사업가	-9568
▁꾀	-9569
▁대두	-9570
▁차르	-9571
노미야	-9572
방울	-9573
▁개인전	-9574
ase	-9575
▁EX	-9576
▁기르	-9577
▁동이	-9578
▁이병	-9579
▁표방	-9580
▁다마	-9581
▁학대	-9582
▁간단히	-9583
▁파이터	-9584
▁아인슈타인	-9585
기스	-9586
▁두께	-9587
▁섹스	-9588
▁스님	-9589
▁입각	-9590
레슬링	-9591
▁THE	-9592
▁홈구장	-9593
▁도요토미	-9594
▁대구광역시	-9595
▁}	-9596
▁AN	-9597
▁강간	-9598
▁김제	-9599
테르담	-9600
▁만주국	-9601
▁크레이	-9602
대장	-9603
퀘어	-9604
▁카프	-9605
▁릿	-9606
그래	-9607
▁동조	-9608
▁캐서	-9609
▁장기간	-9610
▁트로피	-9611
▁무함마드	-9612
펜하	-9613
▁아브	-9614
▁오쿠	-9615
▁천하	-9616
▁트리플	-9617
▁아리스토	-9618
▁마우	-9619
▁쓰레기	-9620
▁쟈	-9621
그레	-9622
어내	-9623
▁검출	-9624
▁교대	-9625
▁극대	-9626
▁모서리	-9627
그라	-9628
▁헌정	-9629
▁갈리아	-9630
▁신도비	-9631
▁아시카가	-9632
▁불신	-9633
▁에콰	-9634
▁에콰도르	-9635
▁옥스퍼드	-9636
▁All	-9637
▁One	-9638
▁미시시피	-9639
▁알렉산드리아	-9640
카미	-9641
▁패밀리	-9642
▁1903	-9643
▁와이번스	-9644
11	-9645
▁남매	-9646
▁제로	-9647
▁질소	-9648
ㅋㅣㅁ	-9649
역학	-9650
▁노보	-9651
▁소말	-9652
▁연봉	-9653
▁직경	-9654
▁하리	-9655
▁아폴로	-9656
▁와일드	-9657
▁1884	-9658
▁프로레슬링	-9659
▁Cl	-9660
▁공황	-9661
▁어둠	-9662
▁전방	-9663
▁그다지	-9664
▁기념관	-9665
▁리더십	-9666
▁콤팩트	-9667
ㅊㅕㅆㅇㅡ	-9668
▁ㅎㅏㄴㅌㅔ	-9669
▁명하	-9670
▁복합체	-9671
▁이성계	-9672
불교	-9673
처스	-9674
천사	-9675
▁둥글	-9676
▁정유	-9677
▁복소수	-9678
카타	-9679
▁토요	-9680
▁전염병	-9681
▁기념비	-9682
▁1800	-9683
번뇌	-9684
▁LA	-9685
▁비타	-9686
▁쓰시마	-9687
라이언트	-9688
리코	-9689
▁쥐과	-9690
하키	-9691
▁IN	-9692
▁유부	-9693
▁장벽	-9694
▁정선	-9695
▁드레스	-9696
▁지도부	-9697
▁클라이언트	-9698
▁공고	-9699
▁제치	-9700
▁패널	-9701
▁야마구치	-9702
ke	-9703
사리	-9704
▁구형	-9705
▁이태	-9706
▁중령	-9707
▁퇴적	-9708
▁로저	-9709
▁삼촌	-9710
▁전위	-9711
▁취미	-9712
▁하비	-9713
▁히타	-9714
▁방글라	-9715
▁방글라데시	-9716
▁실재	-9717
ree	-9718
▁이관	-9719
▁좌측	-9720
▁타케	-9721
라이어	-9722
▁도널드	-9723
▁반공	-9724
▁어뢰	-9725
▁추첨	-9726
▁클라이	-9727
▁Gr	-9728
▁단면	-9729
▁선동	-9730
▁소행성	-9731
▁슬라브	-9732
▁니콜라이	-9733
▁ㄱㅏㅆㅇㅡ	-9734
네마	-9735
▁군산	-9736
▁루타	-9737
▁ㅂㅕㄴ	-9738
▁팰	-9739
올로	-9740
▁각색	-9741
▁구스	-9742
▁샌디	-9743
▁슈팅	-9744
▁우치	-9745
▁티코	-9746
▁꼭대기	-9747
▁팟	-9748
▁대문	-9749
▁염소	-9750
▁준주	-9751
▁마르틴	-9752
▁북아프리카	-9753
ㄴㅡ	-9754
▁마키	-9755
▁인질	-9756
▁프란체	-9757
나미	-9758
▁GO	-9759
▁상응	-9760
테이션	-9761
▁군함	-9762
▁선우	-9763
▁원더	-9764
▁함선	-9765
▁흥선	-9766
▁조반니	-9767
▁충청도	-9768
▁피고인	-9769
▁비뉴	-9770
▁철폐	-9771
▁파병	-9772
▁마르코	-9773
▁ㅅㅏㄹㅍ	-9774
히토	-9775
▁교량	-9776
▁발칸	-9777
▁세키	-9778
▁실무	-9779
▁코믹	-9780
▁해남	-9781
가와현	-9782
▁뉴욕주	-9783
▁소수자	-9784
▁전시회	-9785
▁경작	-9786
▁달걀	-9787
▁밀란	-9788
▁특색	-9789
사이드	-9790
▁프레드	-9791
▁가오	-9792
▁관절	-9793
▁김홍	-9794
▁토시	-9795
▁회상	-9796
▁방사성	-9797
▁중앙아시아	-9798
pt	-9799
가르	-9800
▁상가	-9801
▁전구	-9802
▁스토어	-9803
▁당수	-9804
▁갤러리	-9805
▁Ad	-9806
▁가산	-9807
▁모모	-9808
▁활주	-9809
▁히로시	-9810
▁러스	-9811
▁에밀	-9812
▁우회	-9813
▁조형	-9814
▁진료	-9815
▁데스크	-9816
▁아미노산	-9817
간지	-9818
구역	-9819
▁급수	-9820
▁농부	-9821
▁도선	-9822
▁마니	-9823
▁분출	-9824
▁자형	-9825
▁회피	-9826
▁진행자	-9827
▁오사카부	-9828
▁로라	-9829
▁상트	-9830
▁소자	-9831
▁권장	-9832
▁뒤쪽	-9833
▁음향	-9834
▁꿀	-9835
▁카사	-9836
▁터보	-9837
기념물	-9838
▁경인	-9839
▁기분	-9840
▁상경	-9841
ㅇㅏㅅ	-9842
포터	-9843
ass	-9844
▁곡물	-9845
▁기저	-9846
▁전복	-9847
▁with	-9848
▁그레이트	-9849
▁일렉트로	-9850
▁ㅂㅓㄹㅇㅣㄴ	-9851
▁견인	-9852
▁의결	-9853
▁ㅍㅣㄴ	-9854
▁남동생	-9855
▁스크립트	-9856
▁강대	-9857
▁궁중	-9858
▁우물	-9859
▁이북	-9860
▁116	-9861
▁당연히	-9862
▁카스티	-9863
사업	-9864
▁분량	-9865
▁상고	-9866
몰로지	-9867
▁기관총	-9868
▁아나키	-9869
산맥	-9870
▁막스	-9871
▁물가	-9872
▁세바	-9873
▁정화	-9874
▁창녕	-9875
▁하차	-9876
▁ㄱㅏㅁ	-9877
▁포스터	-9878
▁ㄲㅡㄹㄹㅕ	-9879
act	-9880
▁델타	-9881
▁가브리	-9882
▁카를로	-9883
▁페널티	-9884
▁CN	-9885
▁미라	-9886
▁발령	-9887
▁인테르	-9888
▁데카	-9889
▁샌드	-9890
▁후작	-9891
▁유대교	-9892
개골	-9893
▁기슭	-9894
▁취항	-9895
▁구약	-9896
▁수목	-9897
▁ㄴㅓㄼ	-9898
▁다케다	-9899
▁앰	-9900
벤처	-9901
▁리만	-9902
▁보성	-9903
▁절단	-9904
▁디트로	-9905
▁어드벤처	-9906
▁디트로이트	-9907
▁상법	-9908
▁안경	-9909
▁현감	-9910
▁거주지	-9911
▁민간인	-9912
▁1860	-9913
▁총대주교	-9914
▁Br	-9915
▁브란	-9916
▁220	-9917
▁마카오	-9918
▁모리스	-9919
▁볼리비아	-9920
▁홉	-9921
사우	-9922
▁건륭	-9923
▁등용	-9924
▁신축	-9925
▁ㅇㅡㄹㅈㅣ	-9926
곡동	-9927
▁가열	-9928
▁강희	-9929
▁반전	-9930
▁용서	-9931
▁진전	-9932
▁교도소	-9933
▁더욱이	-9934
▁장자	-9935
▁추론	-9936
▁평창	-9937
▁효고	-9938
ream	-9939
▁무너지	-9940
▁버클리	-9941
▁ㅈㅏㄹㄹㅏ	-9942
▁침체	-9943
▁연대기	-9944
▁페이스북	-9945
▁스트라이크	-9946
▁반군	-9947
▁까닭	-9948
▁캐서린	-9949
▁컨트리	-9950
▁한국방송공사	-9951
▁냄새	-9952
▁카타르	-9953
▁ㅈㅡㄹㄱㅕ	-9954
▁대출	-9955
▁올드	-9956
▁배우자	-9957
▁1897	-9958
▁낙동	-9959
▁오로	-9960
▁리조	-9961
▁단행본	-9962
▁돌기	-9963
▁동형	-9964
▁시야	-9965
▁태백	-9966
니시	-9967
▁감안	-9968
▁뒤집	-9969
▁노태우	-9970
▁떡	-9971
파리	-9972
▁Ex	-9973
▁네오	-9974
▁대관	-9975
▁마블	-9976
▁브랜	-9977
▁종말	-9978
▁ㅇㅕㄹㄹㅣㄴㄷㅏ	-9979
▁타우	-9980
▁델라	-9981
▁민정	-9982
▁전산	-9983
▁확진	-9984
▁휴가	-9985
▁모티브	-9986
▁유닉스	-9987
▁애틀랜타	-9988
▁글래	-9989
▁르노	-9990
▁맞붙	-9991
▁일파	-9992
▁입주	-9993
▁폭로	-9994
▁일부분	-9995
▁공손	-9996
▁마가	-9997
▁수료	-9998
▁교육청	-9999
▁일자리	-10000
▁농사	-10001
▁심화	-10002
▁안산	-10003
▁종파	-10004
▁거짓말	-10005
▁솔루션	-10006
▁갈래	-10007
▁깨끗	-10008
▁장제	-10009
▁경제학자	-10010
▁ㅇㅑㄱㅎㅐ	-10011
▁가의	-10012
▁리히	-10013
▁접수	-10014
도비	-10015
▁사살	-10016
▁청색	-10017
▁카즈	-10018
▁쿠니	-10019
▁미네소	-10020
▁알프레	-10021
▁중공업	-10022
▁후반기	-10023
▁천연기념물	-10024
▁Is	-10025
▁가신	-10026
▁나루	-10027
▁북경	-10028
▁석불	-10029
▁왕정	-10030
▁체력	-10031
▁효종	-10032
▁강남구	-10033
▁바르샤바	-10034
▁죠	-10035
부리	-10036
츠크	-10037
스카르	-10038
나드	-10039
▁아소	-10040
ㅍㅡㄴ	-10041
▁스퀘어	-10042
ㄴㅔ	-10043
푸르	-10044
▁버마	-10045
▁신동	-10046
▁애리	-10047
▁공용어	-10048
▁사카이	-10049
▁이주하	-10050
캐롤라이나	-10051
CAF	-10052
▁BM	-10053
▁2022	-10054
▁ㅊㅜ	-10055
▁벽화	-10056
▁프렌	-10057
▁ㅂㅏㄺㅎㅣㄴ	-10058
리즘	-10059
산성	-10060
피언	-10061
▁노이	-10062
▁복권	-10063
▁소행	-10064
▁중원	-10065
▁한층	-10066
ii	-10067
반구	-10068
▁서리	-10069
▁아마존	-10070
▁함부르크	-10071
▁ㅈㅏㅁ	-10072
▁상트페	-10073
▁상트페테르부르크	-10074
▁++	-10075
▁고토	-10076
▁마애	-10077
▁학력	-10078
퍼슨	-10079
▁;&	-10080
▁간신	-10081
▁무슨	-10082
▁수중	-10083
ㅇㅑㄴ	-10084
▁122	-10085
▁게릴라	-10086
▁과실	-10087
▁빈도	-10088
▁이반	-10089
▁저렴	-10090
▁쥐속	-10091
▁호쿠	-10092
ㄲㅣㄴ	-10093
ake	-10094
▁공약	-10095
▁팔레	-10096
▁마라톤	-10097
▁경위	-10098
▁마당	-10099
▁클라크	-10100
▁흥선대원군	-10101
▁이빨	-10102
▁합당	-10103
▁NGC	-10104
▁ㄹㅠㄴ	-10105
▁제작사	-10106
▁1880	-10107
▁넘기	-10108
▁용암	-10109
▁윤보	-10110
▁con	-10111
▁설립자	-10112
ㄷㅡㄹㅇㅣㄴ	-10113
iss	-10114
▁군청	-10115
▁막시	-10116
▁분파	-10117
▁유스	-10118
▁화순	-10119
▁안드레아	-10120
푸아	-10121
▁무술	-10122
▁브룩	-10123
▁입양	-10124
▁적군	-10125
▁ㅈㅏㅂㅎㅕ	-10126
▁깎	-10127
콥터	-10128
▁ES	-10129
▁석회	-10130
▁전격	-10131
▁다가	-10132
▁정경	-10133
▁홍문관	-10134
니지	-10135
다르	-10136
▁모용	-10137
▁보강	-10138
▁예명	-10139
▁타협	-10140
자치시	-10141
▁특별자치시	-10142
▁셜	-10143
네시	-10144
▁DM	-10145
▁신정	-10146
▁이장	-10147
▁청소	-10148
▁콘테	-10149
▁법정동	-10150
▁옥수수	-10151
▁이용객	-10152
▁키예프	-10153
거진	-10154
케이	-10155
▁블리	-10156
▁세네	-10157
▁장원	-10158
▁집결	-10159
▁타지	-10160
▁파라과이	-10161
▁갑옷	-10162
▁김민	-10163
▁무로	-10164
▁짐작	-10165
▁133	-10166
▁극작가	-10167
▁강철	-10168
▁연동	-10169
▁유령	-10170
▁종점	-10171
▁아름답	-10172
▁루크	-10173
▁유정	-10174
▁이규	-10175
▁창의	-10176
▁펜싱	-10177
▁가져오	-10178
▁두개골	-10179
▁몰아내	-10180
▁지방산	-10181
기구	-10182
▁느리	-10183
▁애칭	-10184
▁장단	-10185
▁재해	-10186
▁칼뱅	-10187
▁헬륨	-10188
▁그리스인	-10189
▁일러스트	-10190
▁메라	-10191
▁메릴	-10192
▁스노	-10193
▁ㅁㅜㄹㄹㅣ	-10194
▁함양	-10195
▁사무총장	-10196
▁고추	-10197
▁더비	-10198
▁안치	-10199
▁지지율	-10200
▁랍	-10201
▁돌입	-10202
▁속편	-10203
▁어로	-10204
▁요법	-10205
▁제리	-10206
▁그림자	-10207
▁득표율	-10208
▁격차	-10209
▁동요	-10210
▁위나라	-10211
사관학교	-10212
▁농어	-10213
HO	-10214
▁기성	-10215
▁번성	-10216
▁위생	-10217
▁일괄	-10218
▁파우	-10219
▁미생물	-10220
해튼	-10221
▁가네	-10222
▁이언	-10223
▁무궁화	-10224
UR	-10225
▁랴	-10226
타케	-10227
▁격자	-10228
▁조계	-10229
▁찰리	-10230
▁겉보기	-10231
▁포도당	-10232
▁ㅎㅏㄴㅈㅣ	-10233
▁소령	-10234
▁심야	-10235
▁오락	-10236
▁ㄷㅓㅍㅇㅕ	-10237
▁쑤	-10238
own	-10239
▁약하	-10240
▁호응	-10241
▁새로이	-10242
GA	-10243
▁듀얼	-10244
▁CBS	-10245
▁나란히	-10246
▁그레고리	-10247
▁결제	-10248
▁무스	-10249
▁수녀	-10250
▁연못	-10251
▁ㅇㅗㄹㅂㅏ	-10252
▁스트라이커	-10253
▁개항	-10254
▁대국	-10255
▁도사	-10256
▁몽고	-10257
▁자카	-10258
▁해부	-10259
▁교육부	-10260
▁그레고리오	-10261
▁가가	-10262
▁문경	-10263
▁진수	-10264
▁GDP	-10265
▁ㄲㅡㄶ	-10266
▁스리랑카	-10267
▁시뮬레이션	-10268
올리	-10269
▁자결	-10270
▁자생	-10271
▁이동하	-10272
▁인프라	-10273
▁결핍	-10274
▁리모	-10275
▁숙주	-10276
▁우상	-10277
▁장흥	-10278
▁경쟁력	-10279
▁앨리스	-10280
삭스	-10281
old	-10282
▁등극	-10283
▁원격	-10284
타마	-10285
▁국악	-10286
▁Mus	-10287
위성	-10288
▁NE	-10289
▁정인	-10290
ㄷㅎㅕ	-10291
▁평민	-10292
▁확고	-10293
▁대지진	-10294
▁섀	-10295
림픽	-10296
미스	-10297
▁PR	-10298
▁출석	-10299
▁ㅅㅐㅇㄱㅣㄴㄷㅏ	-10300
렉션	-10301
▁니카	-10302
▁스로	-10303
▁아치	-10304
▁재난	-10305
▁주화	-10306
▁프롤	-10307
▁가도	-10308
▁국유	-10309
▁극도	-10310
▁파문	-10311
▁Ro	-10312
▁만년	-10313
▁반역	-10314
▁이데	-10315
▁현행	-10316
▁CEO	-10317
▁사로잡	-10318
▁제조업	-10319
clude	-10320
버러	-10321
파크	-10322
▁선장	-10323
▁제왕	-10324
▁그렇지만	-10325
▁광양	-10326
▁미셸	-10327
▁아데	-10328
▁추종	-10329
▁엘리트	-10330
▁인디애나	-10331
멘스	-10332
▁이득	-10333
▁자르	-10334
▁정관	-10335
위원회	-10336
원장	-10337
▁열심	-10338
▁조병	-10339
▁모터스	-10340
▁복음서	-10341
▁선거법	-10342
▁동성애자	-10343
거래	-10344
▁암흑	-10345
▁아래쪽	-10346
▁툰	-10347
▁대성전	-10348
ork	-10349
▁수심	-10350
▁132	-10351
▁비주얼	-10352
lo	-10353
▁빛나	-10354
▁지청	-10355
▁정국	-10356
▁초원	-10357
▁탁월	-10358
▁마우스	-10359
▁ㅁㅗㄹㄹㅕ	-10360
▁듀오	-10361
▁주지	-10362
▁황도	-10363
▁글로브	-10364
▁후속작	-10365
스기	-10366
에미	-10367
▁대각	-10368
▁아스널	-10369
▁파이프	-10370
▁오클랜드	-10371
▁ㅅㅏㄹㄹㅕ	-10372
세기	-10373
▁마다가	-10374
▁ㅇㅡㄹㄲㅏ	-10375
ix	-10376
미즈	-10377
▁삼국사기	-10378
▁쾰	-10379
벨라	-10380
▁ㄹㅑ	-10381
▁수년	-10382
▁워치	-10383
▁총기	-10384
▁명분	-10385
▁베른	-10386
▁총무	-10387
ㅇㄱㅕ	-10388
▁자치체	-10389
Hz	-10390
▁가볍	-10391
▁극락	-10392
▁김옥	-10393
▁신상	-10394
ㄴㅏㅁ	-10395
헌영	-10396
▁시애	-10397
바야시	-10398
▁미주리	-10399
▁프랭클린	-10400
▁아이스하키	-10401
▁패럴림픽	-10402
라기	-10403
▁낙하	-10404
▁어리	-10405
▁보헤미아	-10406
▁or	-10407
▁공파	-10408
▁pro	-10409
▁청동기	-10410
▁합스부르크	-10411
ick	-10412
▁국수	-10413
▁까지	-10414
▁댓	-10415
▁감동	-10416
▁발각	-10417
▁표창	-10418
▁현직	-10419
▁짱	-10420
루냐	-10421
▁저널리	-10422
변이	-10423
▁복식	-10424
▁페로	-10425
▁요제프	-10426
▁활주로	-10427
▁돌연변이	-10428
EM	-10429
홀름	-10430
▁빈번	-10431
▁호족	-10432
▁타이베이	-10433
()	-10434
▁단과	-10435
▁상연	-10436
▁장대	-10437
▁무조건	-10438
세우	-10439
▁La	-10440
▁소울	-10441
▁속주	-10442
▁시종	-10443
▁투항	-10444
▁애리조	-10445
▁얹	-10446
메다	-10447
▁동참	-10448
▁세븐	-10449
▁스태	-10450
▁온갖	-10451
▁저격	-10452
▁시애틀	-10453
보내	-10454
십자	-10455
▁상기	-10456
▁재질	-10457
▁타석	-10458
▁평안남도	-10459
▁네이션스컵	-10460
▁불행	-10461
▁아쿠	-10462
마리	-10463
▁울리	-10464
브리아	-10465
▁농산물	-10466
공산	-10467
▁관동	-10468
▁부드	-10469
▁왜구	-10470
▁청자	-10471
ence	-10472
▁우체국	-10473
▁ㅎㅜ	-10474
▁이모	-10475
▁피로	-10476
▁야구단	-10477
▁ㅂㅜㅌㅈㅏ	-10478
▁로리	-10479
▁세손	-10480
▁자세히	-10481
▁볼셰비키	-10482
▁SL	-10483
▁강풍	-10484
▁의과	-10485
▁제너	-10486
▁초고	-10487
▁카바	-10488
▁맨해튼	-10489
▁트리니	-10490
할시	-10491
▁배속	-10492
▁호리	-10493
▁기상청	-10494
▁예선전	-10495
▁창시자	-10496
를테	-10497
플로	-10498
▁밀러	-10499
를테면	-10500
▁대사헌	-10501
▁스폰서	-10502
▁이를테면	-10503
▁우즈베키스탄	-10504
▁성령	-10505
▁매거진	-10506
▁소피아	-10507
▁통틀어	-10508
▁To	-10509
▁김병	-10510
▁라오	-10511
▁1870	-10512
▁마르크스주의	-10513
▁감금	-10514
▁공표	-10515
▁낚	-10516
▁아니하	-10517
▁른	-10518
ear	-10519
▁매직	-10520
▁머스	-10521
▁센고쿠	-10522
▁평안북도	-10523
▁숀	-10524
울리	-10525
▁가타	-10526
▁시국	-10527
ance	-10528
▁NAS	-10529
관리	-10530
제이	-10531
▁청룡	-10532
▁함자	-10533
▁호의	-10534
▁Mar	-10535
등식	-10536
▁낮추	-10537
▁생계	-10538
▁이븐	-10539
타이드	-10540
▁1885	-10541
▁맹세	-10542
▁양육	-10543
▁입수	-10544
▁슛	-10545
▁엥	-10546
티시	-10547
▁AD	-10548
▁ㅃㅜ	-10549
▁테일	-10550
▁포고	-10551
ection	-10552
▁뾰	-10553
▁쳐	-10554
▁내성	-10555
▁루비	-10556
▁아빠	-10557
▁역도	-10558
▁450	-10559
▁알래스카	-10560
파이	-10561
▁Ph	-10562
▁오라	-10563
▁우아	-10564
▁유료	-10565
▁중생	-10566
▁참사	-10567
▁학설	-10568
▁로렌스	-10569
▁양성자	-10570
▁중앙부	-10571
▁파나마	-10572
▁프레이	-10573
▁프랜시스	-10574
▁쿡	-10575
ild	-10576
▁ㅈㅝ	-10577
▁계시	-10578
▁신종	-10579
▁화랑	-10580
▁휴게	-10581
▁ㅉㅣㄴ	-10582
▁다람쥐	-10583
▁수염	-10584
▁USS	-10585
▁un	-10586
▁돌출	-10587
▁출가	-10588
▁기병대	-10589
▁즘	-10590
▁GN	-10591
▁부조	-10592
테리아	-10593
▁ㄲㅗㅂㅎㅣㄴㄷㅏ	-10594
▁쓸	-10595
테쓰	-10596
▁ㅌㅟ	-10597
▁로페	-10598
▁리터	-10599
▁요지	-10600
▁해저	-10601
▁내려가	-10602
▁대장군	-10603
지오	-10604
lass	-10605
▁1871	-10606
▁맷	-10607
▁ㅌㅣ	-10608
▁난이	-10609
ㄲㅝㅆ	-10610
▁ㅌㅡㄴ	-10611
▁1600	-10612
▁ㄷㅡㄴㄷㅏ	-10613
▁비늘	-10614
▁카니	-10615
▁민요	-10616
▁볼프	-10617
▁유러	-10618
▁마닐라	-10619
▁경질	-10620
▁앞쪽	-10621
▁카터	-10622
▁벤치	-10623
▁위스	-10624
▁재외	-10625
▁파인	-10626
▁240	-10627
▁빅토르	-10628
▁only	-10629
▁유러피언	-10630
▁프로리그	-10631
▁개헌	-10632
▁수인	-10633
▁시리	-10634
▁수원시	-10635
OV	-10636
ㅐㄹ	-10637
▁제동	-10638
▁실험실	-10639
▁앤더슨	-10640
▁케이프	-10641
▁1200	-10642
▁국보	-10643
▁봉수	-10644
▁이양	-10645
▁중서	-10646
▁지성	-10647
▁흉노	-10648
▁편집자	-10649
▁루카	-10650
▁원심	-10651
▁전날	-10652
▁CM	-10653
▁생선	-10654
▁윤보선	-10655
▁활발히	-10656
▁갈리	-10657
▁감수	-10658
▁서산	-10659
▁중상	-10660
▁오로지	-10661
▁프라하	-10662
▁구마모토	-10663
▁마다가스카르	-10664
▁호크	-10665
▁EBS	-10666
▁박헌영	-10667
▁구니	-10668
▁내면	-10669
▁바디	-10670
▁수교	-10671
▁자칭	-10672
▁테라	-10673
텔레스	-10674
맥스	-10675
쩌둥	-10676
체고	-10677
▁붙잡	-10678
▁케라	-10679
▁ㅃㅏㄹ	-10680
체고비나	-10681
▁마오쩌둥	-10682
▁고쿠	-10683
▁관행	-10684
▁교실	-10685
▁남용	-10686
▁리비	-10687
▁콜레	-10688
▁김규식	-10689
▁올림피아	-10690
▁궁궐	-10691
▁능선	-10692
▁정제	-10693
▁조광	-10694
▁탑신	-10695
▁김정은	-10696
▁내무부	-10697
▁예정자	-10698
▁퍼스트	-10699
▁송도	-10700
▁퇴장	-10701
▁동물원	-10702
▁꺼	-10703
▁친분	-10704
▁지쿠	-10705
▁부원군	-10706
▁선보이	-10707
▁앤드루	-10708
▁괄	-10709
▁구청	-10710
▁반성	-10711
▁레이크	-10712
ㄷㅗㄹㅇㅏ	-10713
irl	-10714
▁리바	-10715
▁오미	-10716
▁반란군	-10717
ans	-10718
▁국당	-10719
▁분과	-10720
▁실존	-10721
▁증인	-10722
▁퍼스	-10723
▁알렉스	-10724
▁해리슨	-10725
ㄱㅜㄴㄱㅏ	-10726
GM	-10727
▁Sy	-10728
▁각성	-10729
▁조례	-10730
▁징병	-10731
▁왕세자	-10732
▁아리스토텔레스	-10733
메스	-10734
▁ex	-10735
▁성화	-10736
▁티켓	-10737
ㅆㅇㅡ	-10738
▁클레이	-10739
▁ㅂㅜㄹㄹㅣㄴ	-10740
▁독도	-10741
▁이완	-10742
▁재활	-10743
▁다나카	-10744
▁밴쿠버	-10745
▁유년기	-10746
▁남산	-10747
▁뛰어	-10748
▁무척	-10749
▁상급	-10750
▁루돌프	-10751
▁러시아인	-10752
▁당내	-10753
▁퍼포	-10754
▁화기	-10755
▁동유럽	-10756
▁레이싱	-10757
▁오른손	-10758
▁경희	-10759
▁관문	-10760
▁메뉴	-10761
▁성실	-10762
▁시중	-10763
▁통역	-10764
▁편제	-10765
▁다저스	-10766
ㅁㅗ	-10767
올라	-10768
▁초빙	-10769
▁평형	-10770
▁미군정	-10771
▁시달리	-10772
ivers	-10773
▁퍼포먼스	-10774
▁이방	-10775
▁신문사	-10776
▁역사가	-10777
▁헬리콥터	-10778
▁CONCA	-10779
OD	-10780
ㅔㄴ	-10781
어사	-10782
코토	-10783
▁강령	-10784
▁경시	-10785
▁극한	-10786
▁총통	-10787
▁위너스	-10788
무소	-10789
지로	-10790
▁나우	-10791
▁뉴클	-10792
▁메카	-10793
▁창문	-10794
▁화엄	-10795
▁제퍼슨	-10796
TP	-10797
사상	-10798
천면	-10799
▁대합실	-10800
▁리조트	-10801
▁부드럽	-10802
▁케플러	-10803
▁CONCACAF	-10804
▁콘스탄티노폴리스	-10805
▁성남시	-10806
▁명소	-10807
▁사쿠	-10808
▁영예	-10809
▁칼럼	-10810
▁동대문	-10811
▁검정	-10812
▁지오	-10813
▁천왕	-10814
▁칙령	-10815
▁허드	-10816
▁ㄱㅓㄹㄹㅣㄴ	-10817
ish	-10818
▁바트	-10819
▁커플	-10820
▁공민왕	-10821
▁하노이	-10822
▁ㅁㅗㅅㅎㅐㅆㅇㅡ	-10823
▁광도	-10824
▁김원	-10825
▁몸통	-10826
▁반하	-10827
▁차용	-10828
▁하키	-10829
▁대대로	-10830
RA	-10831
▁@	-10832
▁부각	-10833
▁특전	-10834
▁남해	-10835
▁시합	-10836
라니	-10837
▁드미	-10838
▁시노	-10839
▁약혼	-10840
▁에프	-10841
▁카지	-10842
▁사각형	-10843
include	-10844
에스	-10845
환경	-10846
▁산호	-10847
▁트릭	-10848
▁서재필	-10849
▁솔로몬	-10850
▁유치원	-10851
▁크라이	-10852
통일	-10853
▁나선	-10854
원수	-10855
▁놀라	-10856
▁농경	-10857
▁뾰족	-10858
ㄲㅇㅣㄴ	-10859
▁고속버스	-10860
▁얕	-10861
oun	-10862
▁돌려	-10863
▁섬세	-10864
▁진해	-10865
▁효자	-10866
▁클린턴	-10867
▁엮	-10868
바흐	-10869
▁배려	-10870
▁블로	-10871
▁안녕	-10872
▁총애	-10873
▁추이	-10874
▁포식	-10875
▁컴퓨팅	-10876
▁해리스	-10877
매매	-10878
▁수양	-10879
▁전한	-10880
ㄲㅓ	-10881
▁문고	-10882
▁알아	-10883
▁통용	-10884
▁MTV	-10885
▁긴테쓰	-10886
▁":	-10887
▁다투	-10888
▁도교	-10889
▁모의	-10890
▁씨앗	-10891
▁브레이크	-10892
▁돌보	-10893
▁모호	-10894
▁일당	-10895
▁카테	-10896
▁푸르	-10897
▁경영자	-10898
are	-10899
▁가늘	-10900
▁보행	-10901
▁시부	-10902
▁이룩	-10903
▁주임	-10904
▁허정	-10905
▁호스	-10906
▁생겨나	-10907
▁스톡홀름	-10908
▁돋	-10909
▁마술	-10910
▁전래	-10911
▁주입	-10912
▁하반	-10913
fe	-10914
▁관청	-10915
▁스가	-10916
▁아무것	-10917
▁유권자	-10918
EG	-10919
토랑	-10920
▁NT	-10921
▁개개	-10922
▁보라	-10923
▁지로	-10924
▁파도	-10925
▁친위대	-10926
▁레스토랑	-10927
▁ㄲㅡㄴ	-10928
▁아키라	-10929
▁요시다	-10930
▁sc	-10931
▁보로	-10932
▁수필	-10933
▁케인	-10934
ㅂㅗㄴ	-10935
ㅅㅕㅆ	-10936
▁분류군	-10937
▁브루스	-10938
▁경호	-10939
▁신발	-10940
▁하류	-10941
▁예수회	-10942
▁싣	-10943
▁뉴클레오	-10944
▁로버	-10945
▁마차	-10946
▁불변	-10947
▁어군	-10948
▁포착	-10949
▁김유	-10950
▁독창	-10951
▁럭비	-10952
▁소음	-10953
▁총사령관	-10954
▁겁	-10955
나오	-10956
▁CH	-10957
▁마켓	-10958
▁바이트	-10959
창호	-10960
▁갑작	-10961
▁다테	-10962
▁수복	-10963
▁카피	-10964
▁타스	-10965
▁함경남도	-10966
정원	-10967
▁박종	-10968
▁캐롤	-10969
▁테리	-10970
▁프론	-10971
ical	-10972
▁내야수	-10973
▁비타민	-10974
▁AV	-10975
▁Jo	-10976
▁만장	-10977
▁찬사	-10978
블랜드	-10979
▁아키타	-10980
▁북아일랜드	-10981
러브	-10982
신문	-10983
지르	-10984
컨대	-10985
▁드루	-10986
▁별세	-10987
▁약사	-10988
▁자제	-10989
▁스테파	-10990
▁플라톤	-10991
ㄹㅕㅆㅇㅡ	-10992
놀이	-10993
▁선천	-10994
▁유혹	-10995
▁알파벳	-10996
▁피라미	-10997
▁제물	-10998
▁처하	-10999
▁대원군	-11000
▁서대문	-11001
▁가맹	-11002
▁자치주	-11003
▁프린스	-11004
lat	-11005
▁DD	-11006
▁결별	-11007
▁국공	-11008
▁되돌	-11009
▁방콕	-11010
▁색소	-11011
▁정거	-11012
▁클리블랜드	-11013
▁욕망	-11014
▁원통	-11015
▁포토	-11016
▁210	-11017
▁유아기	-11018
▁타이거스	-11019
EL	-11020
▁묘비	-11021
▁블레	-11022
▁유선	-11023
▁퇴직	-11024
▁황소	-11025
▁ATP	-11026
▁비밀리	-11027
▁마천루	-11028
▁알프스	-11029
히트	-11030
▁리베	-11031
▁마셜	-11032
▁모어	-11033
▁벤처	-11034
▁엄밀	-11035
▁ABC	-11036
▁방어선	-11037
▁보수당	-11038
▁선구자	-11039
▁오리온	-11040
▁투자자	-11041
▁연극배우	-11042
▁개구리	-11043
▁ㅅㅣㄹㄹㅣㄴ	-11044
▁대본	-11045
▁대북	-11046
▁실정	-11047
▁헬싱	-11048
▁경전철	-11049
▁나트륨	-11050
▁전담	-11051
▁전무	-11052
▁치과	-11053
▁톈진	-11054
▁잡아먹	-11055
▁정의당	-11056
▁피아니스트	-11057
▁나인	-11058
▁넷째	-11059
▁ㅎㅏㅇ	-11060
▁로드리	-11061
▁멧	-11062
사고	-11063
암동	-11064
▁도둑	-11065
▁본성	-11066
▁시몬	-11067
▁영유	-11068
▁한미	-11069
ㄹㅝㅆ	-11070
▁주차장	-11071
▁뻔	-11072
대교	-11073
▁고든	-11074
▁구내	-11075
▁리보	-11076
▁맞대	-11077
▁상행	-11078
▁아메	-11079
▁야전	-11080
▁이렇	-11081
▁이점	-11082
▁차출	-11083
▁쾰른	-11084
▁정부군	-11085
▁튀르크	-11086
▁콘테스트	-11087
FL	-11088
▁샐	-11089
▁Fr	-11090
▁Ma	-11091
▁장시	-11092
▁천거	-11093
▁폭파	-11094
▁화약	-11095
▁가이드	-11096
대사	-11097
▁릴리	-11098
▁스텝	-11099
▁웨인	-11100
▁제노	-11101
▁천국	-11102
▁미수	-11103
▁밸리	-11104
▁야드	-11105
▁적외선	-11106
덴부르크	-11107
▁삼존	-11108
▁소극	-11109
▁송신	-11110
▁절망	-11111
ㅉㅓㄹ	-11112
▁초신성	-11113
▁헤르체고비나	-11114
▁동로	-11115
▁침묵	-11116
▁파손	-11117
공산당	-11118
▁ㅎㅑㅇㅎㅐㅆ	-11119
카리	-11120
▁동향	-11121
▁리사	-11122
▁백두	-11123
▁실권	-11124
▁왕권	-11125
▁채취	-11126
▁마누엘	-11127
▁토스카	-11128
ey	-11129
대표	-11130
▁마에	-11131
▁프레데	-11132
언스	-11133
▁스칸	-11134
▁위그	-11135
▁추리	-11136
▁AKB	-11137
▁ㄴㅓㄹ	-11138
▁브루클린	-11139
클레	-11140
▁리본	-11141
▁용인시	-11142
수스	-11143
▁가락	-11144
▁무실	-11145
▁운임	-11146
▁찬양	-11147
▁켈트	-11148
▁화강암	-11149
▁가브리엘	-11150
▁ㅂㅓㄹㅇㅕ	-11151
지기	-11152
티넘	-11153
ica	-11154
▁로크	-11155
▁실록	-11156
▁종식	-11157
해살이	-11158
▁아나톨	-11159
▁플래티넘	-11160
▁봇	-11161
소통	-11162
▁노론	-11163
▁아날	-11164
▁일리	-11165
▁임정	-11166
▁정형	-11167
테이너	-11168
▁ㅎㅏㅂㅊㅣㄴ	-11169
▁감상	-11170
▁여권	-11171
▁목요일	-11172
충류	-11173
▁he	-11174
▁구실	-11175
▁슬하	-11176
▁영정	-11177
▁제명	-11178
60	-11179
군다	-11180
캐슬	-11181
휴일	-11182
▁봉화	-11183
▁준수	-11184
▁직통	-11185
▁친족	-11186
▁형질	-11187
▁동시대	-11188
▁본작	-11189
▁ㄸㅓㄹ	-11190
▁무형	-11191
▁중퇴	-11192
▁메디치	-11193
▁의사소통	-11194
▁감찰	-11195
▁안테나	-11196
▁1889	-11197
▁스카우트	-11198
▁휩	-11199
▁ㅎㅣ	-11200
▁김형	-11201
▁칸국	-11202
▁ㅅㅓㄹ	-11203
▁아이폰	-11204
▁대영	-11205
▁사방	-11206
▁사설	-11207
▁이의	-11208
▁중합	-11209
▁플리	-11210
▁시네마	-11211
▁딥	-11212
위안	-11213
▁넘치	-11214
▁연산군	-11215
▁유격수	-11216
▁ㅈㅡㄹㄱㅣㄹ	-11217
난성	-11218
▁김준	-11219
▁방치	-11220
▁백과	-11221
▁산성	-11222
▁슬픔	-11223
▁시크	-11224
ㄲㅜㄹ	-11225
▁메이커	-11226
▁타이어	-11227
천동	-11228
▁다윈	-11229
▁비야	-11230
▁삼림	-11231
▁소중	-11232
▁송출	-11233
▁지자	-11234
▁하시	-11235
▁호대	-11236
▁오바마	-11237
▁베트	-11238
▁불참	-11239
▁비엔	-11240
▁의류	-11241
▁치환	-11242
ㄲㅟㄴ	-11243
▁기관지	-11244
▁패트릭	-11245
ㅈㅣㄹㄹㅓ	-11246
▁So	-11247
▁사역	-11248
▁전전	-11249
▁리프트	-11250
ㅇㅎㅏㄴㄷㅏ	-11251
AF	-11252
▁멍	-11253
▁pr	-11254
▁간첩	-11255
▁모금	-11256
▁반포	-11257
▁불량	-11258
▁주계	-11259
▁해태	-11260
▁공존	-11261
▁니혼	-11262
▁라리	-11263
▁리옹	-11264
▁요충	-11265
▁토트	-11266
▁기숙사	-11267
▁엔트리	-11268
▁끓	-11269
지능	-11270
합성	-11271
▁당연	-11272
▁음운	-11273
▁뉴캐슬	-11274
▁스트로	-11275
▁인공지능	-11276
망디	-11277
▁라자	-11278
▁메소	-11279
▁야시	-11280
▁요격	-11281
▁정종	-11282
▁투여	-11283
란토	-11284
▁로트	-11285
▁사서	-11286
▁연말	-11287
▁예약	-11288
▁중수	-11289
▁For	-11290
애미	-11291
▁격리	-11292
▁구두	-11293
▁극우	-11294
▁유목	-11295
▁은거	-11296
▁이송	-11297
▁Live	-11298
▁마이애미	-11299
bo	-11300
▁매트	-11301
▁모하	-11302
▁절정	-11303
▁가나가와현	-11304
▁서임	-11305
▁종자	-11306
▁캐리	-11307
IL	-11308
프로	-11309
▁고딕	-11310
▁금호	-11311
▁삽화	-11312
▁외형	-11313
▁트렌	-11314
▁펌프	-11315
ㅈㅎㅕ	-11316
▁피라미드	-11317
sh	-11318
▁늙	-11319
▁끼치	-11320
▁맞서	-11321
▁목회	-11322
▁비준	-11323
▁사탕	-11324
▁의령	-11325
▁피지	-11326
▁자유민주당	-11327
▁훙	-11328
드레	-11329
▁건전	-11330
▁여유	-11331
▁작물	-11332
와라노	-11333
▁후지와라노	-11334
교통	-11335
▁감성	-11336
▁강렬	-11337
▁김명	-11338
▁담보	-11339
▁인가	-11340
▁정읍	-11341
▁OST	-11342
바나	-11343
클리드	-11344
▁Sou	-11345
▁공휴일	-11346
▁생존자	-11347
▁JTBC	-11348
▁미야자키	-11349
EE	-11350
부로	-11351
▁하야	-11352
▁항만	-11353
바이트	-11354
▁말미암	-11355
▁지상파	-11356
▁센티미터	-11357
▁프란체스코	-11358
▁삼중	-11359
▁원군	-11360
▁잠정	-11361
▁징수	-11362
도르프	-11363
▁낙동강	-11364
▁장학금	-11365
▁줄기세포	-11366
▁카탈루냐	-11367
▁EU	-11368
▁공소	-11369
▁병자	-11370
▁애정	-11371
▁우림	-11372
▁집정	-11373
▁처지	-11374
▁쿠퍼	-11375
tern	-11376
▁국제법	-11377
▁토리노	-11378
▁대승불교	-11379
부르	-11380
▁Mo	-11381
▁기이	-11382
▁앙골	-11383
▁연정	-11384
▁유희	-11385
▁볼트	-11386
▁열강	-11387
▁후배	-11388
하이오	-11389
▁Part	-11390
▁소말리아	-11391
▁오하이오	-11392
▁ㄴㅏㄹㅇㅏ	-11393
가미	-11394
▁로마인	-11395
▁왕건	-11396
▁Com	-11397
▁두려움	-11398
▁캅	-11399
▁금산	-11400
▁수락	-11401
▁습윤	-11402
▁유식	-11403
▁해독	-11404
▁레이트	-11405
▁카카오	-11406
▁도피	-11407
▁악보	-11408
▁브레이	-11409
▁츄	-11410
▁거미	-11411
▁광복군	-11412
▁나카무라	-11413
에몽	-11414
▁모색	-11415
▁순종	-11416
▁추력	-11417
▁똑같이	-11418
▁미야기	-11419
▁발라드	-11420
▁프랑스인	-11421
▁반기	-11422
▁유의	-11423
▁API	-11424
▁여배우	-11425
에미리트	-11426
▁레드삭스	-11427
▁아랍에미리트	-11428
▁격추	-11429
▁들이	-11430
▁벨리	-11431
▁암스	-11432
▁음절	-11433
▁한신	-11434
▁Col	-11435
▁열심히	-11436
▁일본국	-11437
▁유니버설	-11438
▁ㅈㅜㄱㅇㅣㄴ	-11439
▁가솔	-11440
▁로얄	-11441
▁마땅	-11442
▁성곽	-11443
▁워커	-11444
▁자서	-11445
▁한중	-11446
▁int	-11447
▁1848	-11448
▁ㅁㅓㅁㅊ	-11449
▁공성	-11450
▁급여	-11451
▁쌍대	-11452
▁천주	-11453
▁교의	-11454
▁문집	-11455
▁응급	-11456
▁ㅈㅔㄴ	-11457
▁벅	-11458
▁무과	-11459
▁평평	-11460
▁튀니지	-11461
▁카스티야	-11462
간다	-11463
▁여고	-11464
▁페트	-11465
▁해피	-11466
▁라이더	-11467
▁Time	-11468
▁보수주의	-11469
거스	-11470
▁기전	-11471
▁양심	-11472
▁워즈	-11473
▁여의도	-11474
메니	-11475
유예	-11476
자루	-11477
화문	-11478
▁김광	-11479
▁탄약	-11480
마르크	-11481
의사	-11482
풀이	-11483
▁EM	-11484
▁굴절	-11485
▁그저	-11486
▁도래	-11487
▁라르	-11488
▁바지	-11489
▁볼로	-11490
▁서태	-11491
▁자명	-11492
▁포털	-11493
▁프랑스령	-11494
row	-11495
▁매킨	-11496
▁무네	-11497
▁인칭	-11498
▁정작	-11499
▁클러	-11500
▁부총리	-11501
▁스타트	-11502
▁정거장	-11503
▁정치학	-11504
uc	-11505
lay	-11506
▁모욕	-11507
▁평판	-11508
▁한림	-11509
▁SNS	-11510
▁우루스	-11511
▁헛	-11512
▁사쓰	-11513
▁교통부	-11514
▁시멘트	-11515
도라	-11516
지부	-11517
현동	-11518
▁공대	-11519
▁수로	-11520
▁하행	-11521
▁드디어	-11522
▁레이더	-11523
▁만화가	-11524
▁비정	-11525
▁셀레	-11526
페스트	-11527
▁검은색	-11528
▁마법사	-11529
▁ㅃㅏㄹㄱㅏㄴ	-11530
▁댄서	-11531
▁비토	-11532
▁오만	-11533
▁코리	-11534
▁티아	-11535
추부사	-11536
프랑크	-11537
span	-11538
▁고인돌	-11539
▁마이어	-11540
ows	-11541
▁"&	-11542
▁권역	-11543
▁우한	-11544
▁재팬	-11545
▁사운드트랙	-11546
▁GB	-11547
▁조인	-11548
▁치카	-11549
▁onlyinclude	-11550
▁공영	-11551
▁보령	-11552
▁추억	-11553
▁시코쿠	-11554
▁페트로	-11555
정동	-11556
▁글꼴	-11557
▁김인	-11558
▁비추	-11559
▁산둥	-11560
▁대니얼	-11561
▁카메룬	-11562
▁하노버	-11563
OP	-11564
▁남군	-11565
▁리카	-11566
▁여사	-11567
▁점포	-11568
▁특화	-11569
▁패러디	-11570
ous	-11571
▁BC	-11572
▁랴오	-11573
▁류큐	-11574
▁재일	-11575
▁줄리	-11576
▁ㅍㅜㄹ	-11577
▁법원장	-11578
▁꼽히	-11579
▁다치	-11580
▁무안	-11581
▁비대	-11582
▁익숙	-11583
▁항체	-11584
olog	-11585
▁간신히	-11586
▁바그너	-11587
지아	-11588
▁절벽	-11589
▁대법관	-11590
나마	-11591
▁경복	-11592
▁근사	-11593
▁제위	-11594
▁종군	-11595
▁ㄱㅕㅁ	-11596
▁거란	-11597
▁동산	-11598
▁동진	-11599
▁로키	-11600
▁사민	-11601
▁연립	-11602
▁관현악단	-11603
▁녕	-11604
ㅟㄹ	-11605
▁ㄸㅢ	-11606
▁검거	-11607
▁국한	-11608
▁지법	-11609
ㅅㅓㄹ	-11610
파니아	-11611
▁Bla	-11612
서스	-11613
▁부평	-11614
▁사수	-11615
▁업자	-11616
▁에이즈	-11617
▁지배자	-11618
▁커리어	-11619
▁클라우	-11620
▁가혹	-11621
▁골격	-11622
▁수식	-11623
▁방사능	-11624
버른	-11625
▁국외	-11626
▁귀신	-11627
▁단결	-11628
▁부다	-11629
▁용액	-11630
▁황색	-11631
▁대리인	-11632
▁아이즈	-11633
▁간략	-11634
▁관상	-11635
▁남방	-11636
▁대마	-11637
▁메일	-11638
▁문단	-11639
▁선명	-11640
▁안개	-11641
▁어긋	-11642
브로	-11643
시노	-11644
orn	-11645
▁사림	-11646
▁총격	-11647
▁욱	-11648
▁모건	-11649
▁진로	-11650
▁합치	-11651
드리아	-11652
▁명확히	-11653
▁곶	-11654
ann	-11655
▁베어	-11656
▁케르	-11657
레스트	-11658
▁131	-11659
▁그랜트	-11660
▁어시스트	-11661
▁u	-11662
▁쾨	-11663
칼리	-11664
▁종양	-11665
메이카	-11666
▁제우스	-11667
▁노르망디	-11668
▁자메이카	-11669
▁가쿠	-11670
▁마테	-11671
▁어찌	-11672
ㄲㅣㄹ	-11673
▁저지대	-11674
▁ㅇㅞ	-11675
▁고로	-11676
▁모빌	-11677
▁숙부	-11678
▁ㄱㅕㄴ	-11679
▁정보원	-11680
▁설문	-11681
▁실증	-11682
▁방대	-11683
▁평지	-11684
▁그라운드	-11685
▁오디	-11686
▁하코	-11687
▁스칼라	-11688
az	-11689
관계	-11690
▁at	-11691
▁적료	-11692
빌라이	-11693
▁ㅎㅟㅂ	-11694
▁대나무	-11695
▁NASA	-11696
▁안방	-11697
▁콘솔	-11698
▁편견	-11699
▁헬레	-11700
▁에스페	-11701
▁유클리드	-11702
센스	-11703
▁속력	-11704
▁유공	-11705
▁재편	-11706
▁판소리	-11707
▁Your	-11708
▁텍사스주	-11709
▁계주	-11710
▁서귀	-11711
▁식스	-11712
▁최진	-11713
▁공화정	-11714
▁영화상	-11715
ㄱㅏㅆㅇㅡ	-11716
▁기와	-11717
▁노면	-11718
▁단군	-11719
▁도박	-11720
▁무작	-11721
▁초콜	-11722
▁항우	-11723
▁고분군	-11724
▁1883	-11725
틀리	-11726
▁모범	-11727
▁배분	-11728
▁사영	-11729
▁선봉	-11730
▁신곡	-11731
▁지석	-11732
른스트	-11733
▁에이전	-11734
▁연구회	-11735
히사	-11736
▁SA	-11737
▁공무	-11738
▁리즈	-11739
▁부합	-11740
▁연희	-11741
네그로	-11742
80	-11743
▁야외	-11744
▁피리	-11745
▁형벌	-11746
▁라파엘	-11747
▁줄리아	-11748
▁교향악단	-11749
CC	-11750
▁도키	-11751
▁병마	-11752
▁탄자	-11753
▁할인	-11754
ㄲㅜㄴ	-11755
▁ref	-11756
▁제이슨	-11757
▁파일럿	-11758
▁ㅈㅓㅂㅎㅏㄴ	-11759
▁기세	-11760
▁온난	-11761
▁코소	-11762
▁플러	-11763
▁노벨상	-11764
▁부상자	-11765
▁촛	-11766
▁가우	-11767
▁라바	-11768
▁이터	-11769
▁절감	-11770
▁혼다	-11771
▁홀리	-11772
▁원산지	-11773
▁해상도	-11774
▁RP	-11775
▁RS	-11776
▁다듬	-11777
▁리마	-11778
▁라인업	-11779
▁콥	-11780
▁Ge	-11781
▁고생	-11782
▁열전	-11783
▁큐브	-11784
티모어	-11785
▁ㅇㅣㅅ	-11786
▁다이어	-11787
▁멜버른	-11788
▁Wind	-11789
▁ㅍㅏㄹㄹㅕㅆ	-11790
ink	-11791
▁다툼	-11792
▁하남	-11793
▁프로그래머	-11794
용차	-11795
워스	-11796
프턴	-11797
▁가중	-11798
▁가토	-11799
▁스루	-11800
▁유우	-11801
▁전보	-11802
▁중엽	-11803
▁Sch	-11804
ern	-11805
ood	-11806
▁대좌	-11807
▁모세	-11808
▁산요	-11809
▁우산	-11810
▁OB	-11811
▁내력	-11812
▁녹화	-11813
▁니키	-11814
▁외래	-11815
▁카네	-11816
▁대단히	-11817
▁비서관	-11818
▁스캔들	-11819
제품	-11820
▁요절	-11821
▁위구르	-11822
거지	-11823
으로	-11824
▁tv	-11825
▁사학	-11826
▁엔드	-11827
▁카마	-11828
▁타락	-11829
RT	-11830
토프	-11831
▁GM	-11832
▁범행	-11833
▁조교	-11834
▁함량	-11835
스트리	-11836
▁야마가타	-11837
▁쿠빌라이	-11838
▁객차	-11839
▁발상	-11840
▁세습	-11841
▁은혜	-11842
▁체인지	-11843
▁토마토	-11844
▁깜	-11845
▁고노	-11846
▁관례	-11847
▁항원	-11848
▁ㅂㅏㄹ	-11849
▁아이언	-11850
▁해안선	-11851
II	-11852
▁간사	-11853
▁루키	-11854
▁봉인	-11855
▁성동	-11856
▁월터	-11857
▁정반	-11858
▁달라지	-11859
▁프란치	-11860
데라	-11861
▁가고	-11862
▁안나	-11863
▁전반기	-11864
40	-11865
▁FK	-11866
▁거성	-11867
▁고흥	-11868
▁덮개	-11869
▁유서	-11870
▁정은	-11871
▁최영	-11872
▁콜럼	-11873
▁흘러	-11874
▁통신사	-11875
▁1882	-11876
▁중소기업	-11877
융합	-11878
▁북군	-11879
▁소외	-11880
▁자수	-11881
▁북유럽	-11882
▁사업소	-11883
▁아날로그	-11884
▁부왕	-11885
▁위조	-11886
▁후진	-11887
ㄹㅗㄴ	-11888
▁해운대	-11889
화학	-11890
▁내일	-11891
▁부파	-11892
▁송파	-11893
▁Day	-11894
▁슈퍼컵	-11895
▁올리브	-11896
포시	-11897
ost	-11898
▁시안	-11899
▁유생	-11900
▁미토콘	-11901
▁미토콘드리아	-11902
▁펴	-11903
돌이	-11904
치히	-11905
▁기량	-11906
▁수위	-11907
▁정정	-11908
▁최선	-11909
▁핵융합	-11910
▁고의	-11911
▁수다	-11912
▁수열	-11913
▁아목	-11914
▁재래	-11915
▁파벌	-11916
▁컨트롤러	-11917
▁앗	-11918
에고	-11919
▁관악	-11920
▁꿈꾸	-11921
▁라디	-11922
▁몰타	-11923
▁보루	-11924
▁우시	-11925
▁협업	-11926
▁회귀	-11927
▁뫼	-11928
▁ㅅㅜ	-11929
▁국교	-11930
▁식용	-11931
▁330	-11932
▁ㅇㅓㅄ	-11933
▁가솔린	-11934
▁호스트	-11935
호란	-11936
▁동적	-11937
▁상록	-11938
▁왕궁	-11939
▁데니스	-11940
▁미스터리	-11941
▁배달	-11942
▁상어	-11943
▁어파	-11944
▁항로	-11945
▁카스트	-11946
▁멋	-11947
들이	-11948
▁단속	-11949
▁외치	-11950
▁제천	-11951
▁조셉	-11952
▁단체전	-11953
▁시즈오카	-11954
▁컨테이너	-11955
▁단말	-11956
▁씨족	-11957
▁정월	-11958
▁주선	-11959
▁대상자	-11960
▁대표자	-11961
▁산티아	-11962
▁폐기물	-11963
▁ㄱㅕㅂㅊㅕ	-11964
▁도네	-11965
▁요양	-11966
▁ㅅㅏㅆ	-11967
▁파시즘	-11968
▁휴게소	-11969
나기	-11970
▁강당	-11971
▁단정	-11972
▁직속	-11973
▁피치	-11974
오르크	-11975
▁기념일	-11976
▁법조인	-11977
▁제갈량	-11978
▁다이노스	-11979
▁새우	-11980
▁연장전	-11981
▁오일러	-11982
▁ㄴㅗㅍㅇㅕ	-11983
OT	-11984
US	-11985
서니	-11986
▁결사	-11987
▁관목	-11988
▁대인	-11989
▁딜런	-11990
▁번창	-11991
▁프로모	-11992
여객	-11993
▁러일	-11994
▁빙하	-11995
▁종영	-11996
▁천수	-11997
▁선진국	-11998
▁ㅁㅜㄷㅎㅕㅆ	-11999
▁대진	-12000
본부	-12001
▁급증	-12002
▁라미	-12003
▁부교	-12004
▁장덕	-12005
▁경주시	-12006
▁국정원	-12007
▁안티오	-12008
▁테네시	-12009
▁파푸아	-12010
▁관계없이	-12011
▁ㅅㅏㅇㅎㅐ	-12012
게스	-12013
▁군벌	-12014
▁소프	-12015
▁족보	-12016
▁ㅅㅕㄴ	-12017
▁레오폴	-12018
▁Or	-12019
▁보름	-12020
▁성원	-12021
▁영덕	-12022
스탄불	-12023
▁베이커	-12024
▁사이타마	-12025
▁이스탄불	-12026
▁노사	-12027
▁법관	-12028
▁산시	-12029
▁위로	-12030
▁주창	-12031
▁지극	-12032
ㄹㅓㄹ	-12033
▁필립스	-12034
▁사회민주당	-12035
▁new	-12036
▁군사력	-12037
▁예컨대	-12038
▁지붕돌	-12039
▁규탄	-12040
▁동포	-12041
▁램프	-12042
▁서면	-12043
▁괌	-12044
다운	-12045
려가	-12046
▁랭크	-12047
▁사치	-12048
▁제단	-12049
▁부르주	-12050
▁중공군	-12051
지리	-12052
▁교직	-12053
▁넬슨	-12054
▁사천	-12055
▁조슈	-12056
▁후예	-12057
▁영원히	-12058
▁4000	-12059
▁매리	-12060
▁지르	-12061
▁타수	-12062
▁로마자	-12063
▁냥	-12064
팡이	-12065
▁과테	-12066
▁내걸	-12067
▁과테말라	-12068
▁TR	-12069
▁버터	-12070
▁피드	-12071
▁각료	-12072
▁남하	-12073
펜하겐	-12074
▁1868	-12075
▁레인저스	-12076
▁코펜하겐	-12077
▁염려	-12078
▁태후	-12079
▁피핀	-12080
▁오스틴	-12081
▁히브리	-12082
▁메릴랜드	-12083
해자	-12084
▁선대	-12085
▁우월	-12086
▁일각	-12087
▁앙골라	-12088
▁프랜차	-12089
▁Girl	-12090
▁몬테네그로	-12091
▁농지	-12092
▁밀레	-12093
▁이항	-12094
▁축전	-12095
▁헌장	-12096
▁독수리	-12097
▁주계열	-12098
▁노후	-12099
▁발동	-12100
▁사안	-12101
▁아유	-12102
▁우왕	-12103
▁잠깐	-12104
▁ㄴㅗㅎㅇㅣㄴ	-12105
협회	-12106
▁DF	-12107
▁분단	-12108
▁생리	-12109
▁신입	-12110
▁양수	-12111
▁컨설	-12112
▁리믹스	-12113
LA	-12114
▁고트	-12115
▁소아	-12116
▁오아	-12117
▁전수	-12118
웨이트	-12119
▁320	-12120
▁end	-12121
▁ㄷㅜㄹ	-12122
▁대명사	-12123
▁알아보	-12124
▁헤이안	-12125
▁여성주의	-12126
바오	-12127
히드	-12128
▁내분	-12129
▁맡기	-12130
▁접종	-12131
▁증폭	-12132
▁추서	-12133
▁충렬	-12134
▁카세	-12135
▁떠오르	-12136
▁요충지	-12137
▁김윤	-12138
▁외과	-12139
ㄹㅐㅆ	-12140
▁내세우	-12141
▁신주쿠	-12142
▁어울리	-12143
▁우의정	-12144
▁산티아고	-12145
▁암스테르담	-12146
웍스	-12147
oll	-12148
▁이메	-12149
▁정령	-12150
▁청계	-12151
▁청도	-12152
▁출자	-12153
▁타리	-12154
루이스	-12155
▁LED	-12156
▁김옥균	-12157
▁발전기	-12158
▁프란시스코	-12159
▁너머	-12160
▁박성	-12161
▁받들	-12162
▁배드	-12163
▁브릿	-12164
▁성산	-12165
▁양보	-12166
▁초안	-12167
▁치하	-12168
▁표정	-12169
▁프랜차이즈	-12170
▁ㅇㅗㄻㄱㅣㄴ	-12171
▁ㅁㅏㄴㄴㅏㄴㄷㅏ	-12172
게임	-12173
▁종신	-12174
▁형편	-12175
▁몹	-12176
▁강행	-12177
▁넥센	-12178
▁다우	-12179
▁대청	-12180
▁성악	-12181
▁시비	-12182
▁영월	-12183
▁위촉	-12184
▁천마	-12185
▁편향	-12186
▁하의	-12187
▁ㄸㅣㄴ	-12188
▁코스타리카	-12189
19	-12190
▁김선	-12191
▁영암	-12192
▁타일	-12193
▁뛰어들	-12194
▁이바지	-12195
▁베르나르	-12196
▁colspan	-12197
▁뭉	-12198
꼬리	-12199
▁대덕	-12200
▁분사	-12201
▁샤프	-12202
▁장병	-12203
▁점거	-12204
▁정재	-12205
▁지켜	-12206
▁차선	-12207
▁효고현	-12208
▁복음주의	-12209
▁요하네스	-12210
▁능동	-12211
▁배리	-12212
▁수량	-12213
▁저조	-12214
▁조영	-12215
▁카툰	-12216
▁위안부	-12217
▁자서전	-12218
▁아케이드	-12219
▁야마모토	-12220
▁루이지애나	-12221
amp	-12222
▁사비	-12223
▁자재	-12224
▁전세	-12225
▁페더	-12226
▁너무나	-12227
디나비아	-12228
ㄷㅡㄹㅇㅓ	-12229
▁스칸디나비아	-12230
▁렛	-12231
ㅌㅐ	-12232
걸이	-12233
gin	-12234
▁습관	-12235
▁절제	-12236
▁준장	-12237
▁척도	-12238
▁축산	-12239
▁치유	-12240
토리코	-12241
▁ㄴㅓㄴ	-12242
▁수요일	-12243
우에	-12244
▁고이	-12245
▁뒤이	-12246
▁상국	-12247
▁스콜	-12248
▁호아	-12249
▁사이먼	-12250
▁ㅇㅓㅄㅇ	-12251
▁슌	-12252
▁대도	-12253
▁도상	-12254
▁퍼즐	-12255
▁급속히	-12256
▁네티	-12257
▁복종	-12258
▁직행	-12259
▁출동	-12260
▁무실점	-12261
▁쿠웨이트	-12262
▁우연	-12263
▁위력	-12264
▁은신	-12265
▁정몽	-12266
ㄲㅡㅁ	-12267
▁서사시	-12268
▁포르노	-12269
▁화장품	-12270
▁니콜라스	-12271
▁교부	-12272
▁국철	-12273
▁김승	-12274
▁노아	-12275
▁문종	-12276
▁서주	-12277
▁스킴	-12278
▁타로	-12279
▁브뤼셀	-12280
▁게오르크	-12281
▁마이크로	-12282
gr	-12283
공주	-12284
▁by	-12285
▁공안	-12286
▁양대	-12287
▁주성	-12288
▁측량	-12289
▁시트콤	-12290
▁좌의정	-12291
▁텔레콤	-12292
▁ㅈㅜㄹㅇㅓ	-12293
OW	-12294
▁거처	-12295
▁결핵	-12296
▁고온	-12297
▁리튬	-12298
▁순차	-12299
로이드	-12300
ㅇㅣㄹㅇㅡ	-12301
▁맬	-12302
단지	-12303
▁금동	-12304
▁슈테	-12305
▁이아	-12306
▁피우	-12307
▁헌터	-12308
▁교육자	-12309
▁서해안	-12310
▁유적지	-12311
▁천안시	-12312
▁에른스트	-12313
▁ㅎㅣㅁㅆㅓㅆ	-12314
▁육군사관학교	-12315
▁푸에르토리코	-12316
니파	-12317
▁NP	-12318
▁대차	-12319
▁증오	-12320
▁페오	-12321
▁후유	-12322
라이드	-12323
▁금전	-12324
▁리코	-12325
▁배역	-12326
▁해왕	-12327
▁도자기	-12328
▁어웨이	-12329
▁컬렉션	-12330
▁ㅅㅓㄲㅇㅕ	-12331
▁ㅇㅏㅆㅇㅓㅆ	-12332
▁늪	-12333
▁데이브	-12334
▁장로교	-12335
▁가고시마	-12336
익스	-12337
▁거지	-12338
▁관성	-12339
▁모차	-12340
▁압록	-12341
▁코네	-12342
▁함흥	-12343
▁스포르	-12344
▁함경북도	-12345
▁이탈리아어	-12346
▁ㅇㅕㄴㅎㅏㄴ	-12347
▁갯	-12348
계승	-12349
셀러	-12350
▁배양	-12351
▁영천	-12352
▁켄트	-12353
▁203	-12354
▁톡	-12355
▁안무	-12356
▁이회	-12357
▁학장	-12358
▁헤로	-12359
▁ㅁㅜㄴ	-12360
▁부르고	-12361
▁1893	-12362
몬트	-12363
les	-12364
▁박상	-12365
▁백악	-12366
▁심포	-12367
▁잔인	-12368
▁폐렴	-12369
▁피크	-12370
▁IOC	-12371
▁비스타	-12372
퍼레이션	-12373
▁ㅁㅗㄹㅇㅏ	-12374
▁ㄲㅡㅌㄴㅏㅆ	-12375
aw	-12376
레드	-12377
▁내무	-12378
▁조제	-12379
▁유학자	-12380
▁펠릭스	-12381
▁AB	-12382
▁Fe	-12383
▁꾀하	-12384
▁데드	-12385
▁레프	-12386
▁문무	-12387
▁세련	-12388
▁소대	-12389
▁아흐	-12390
▁유족	-12391
▁전학	-12392
▁280	-12393
▁ㄷㅗㄹ	-12394
▁ㅇㅜㄹ	-12395
▁발사체	-12396
▁Comp	-12397
북구	-12398
세유	-12399
ung	-12400
▁le	-12401
▁관우	-12402
▁대종	-12403
▁충무	-12404
▁톰슨	-12405
▁한큐	-12406
▁해치	-12407
▁노미야	-12408
▁트리오	-12409
▁플랑크	-12410
어넣	-12411
▁공양	-12412
▁선인	-12413
▁이황	-12414
▁TBS	-12415
▁결과물	-12416
▁생리학	-12417
▁아라곤	-12418
▁ㄲㅡㅌㄴㅏㄹ	-12419
독립	-12420
▁라카	-12421
▁칭송	-12422
▁하타	-12423
▁ㅎㅜㅁ	-12424
▁윗부분	-12425
▁놈	-12426
상시	-12427
▁낚시	-12428
▁민병대	-12429
▁탄자니아	-12430
▁김치	-12431
▁로베르	-12432
▁지리학	-12433
▁바울	-12434
▁전락	-12435
▁ㅈㅓㅇㅎㅐㅆ	-12436
IR	-12437
▁도우	-12438
▁마타	-12439
▁버러	-12440
▁우두	-12441
▁흡사	-12442
▁핏	-12443
▁미성	-12444
▁버섯	-12445
▁재발	-12446
▁탈취	-12447
▁녹색당	-12448
티에	-12449
▁소사	-12450
▁원활	-12451
▁조니	-12452
▁짐승	-12453
▁천천	-12454
▁첼로	-12455
▁한번	-12456
▁ㅊㅣㄹ	-12457
▁긴밀	-12458
▁아츠	-12459
▁차츰	-12460
▁칼슘	-12461
▁한문	-12462
▁우울증	-12463
▁해안가	-12464
▁주심	-12465
▁집착	-12466
▁공방전	-12467
▁그만큼	-12468
▁논리학	-12469
▁동맹국	-12470
▁서초구	-12471
▁어긋나	-12472
▁에스페란토	-12473
▁후쿠오카현	-12474
▁ㅇㅓㅆㅇㅓㅆ	-12475
▁촐	-12476
eth	-12477
▁당뇨	-12478
▁마트	-12479
▁불경	-12480
▁전미	-12481
▁휴양	-12482
▁도야마	-12483
▁핼	-12484
▁IV	-12485
▁김천	-12486
▁온화	-12487
▁GNU	-12488
▁강화도	-12489
▁데일리	-12490
▁순양함	-12491
▁인공위성	-12492
oth	-12493
▁고집	-12494
▁주세	-12495
▁하급	-12496
▁천천히	-12497
▁플로리다주	-12498
▁Univers	-12499
ㅋㅏ	-12500
폭탄	-12501
▁도이	-12502
▁림프	-12503
▁심부	-12504
▁앤디	-12505
▁Rec	-12506
▁Sup	-12507
▁로스쿨	-12508
▁초콜릿	-12509
▁하이퍼	-12510
▁도카이도	-12511
▁참모총장	-12512
▁ㄷㅏㅇㅎㅏㄹ	-12513
▁노랑	-12514
▁명부	-12515
▁위즈	-12516
▁장녀	-12517
▁ㅁㅗㄹ	-12518
▁글래스	-12519
▁기업가	-12520
▁동맹군	-12521
▁사상가	-12522
▁Rock	-12523
▁부르고뉴	-12524
ㄸㅓ	-12525
메드	-12526
▁미츠	-12527
▁반동	-12528
▁심상	-12529
▁이우	-12530
▁황산	-12531
민스터	-12532
▁수나라	-12533
들러	-12534
업자	-12535
▁라즈	-12536
▁자진	-12537
▁제철	-12538
▁케이크	-12539
▁프리스	-12540
▁중앙은행	-12541
▁ㅅㅏㄹㅍㅕ	-12542
▁도출	-12543
▁애인	-12544
▁에로	-12545
▁오하	-12546
▁유포	-12547
▁특기	-12548
▁불계승	-12549
▁성매매	-12550
▁픽처스	-12551
▁미나모토	-12552
▁공법	-12553
▁구독	-12554
▁서스	-12555
▁에마	-12556
▁월트	-12557
▁유영	-12558
▁서바이	-12559
▁서포터	-12560
▁접어들	-12561
익스피어	-12562
▁가와사키	-12563
▁데스크톱	-12564
국적	-12565
▁간직	-12566
▁강진	-12567
▁격려	-12568
▁합하	-12569
▁현판	-12570
▁더블린	-12571
▁지바현	-12572
▁철저히	-12573
▁셰익스피어	-12574
▁Su	-12575
▁가부	-12576
▁라흐	-12577
▁이범	-12578
▁점검	-12579
▁특사	-12580
▁경계선	-12581
▁절도사	-12582
▁ㅂㅏㄹㄹㅏ	-12583
▁혀	-12584
유사	-12585
▁까마	-12586
▁노프	-12587
▁바비	-12588
▁용품	-12589
▁입헌	-12590
▁파편	-12591
▁230	-12592
연의	-12593
▁귀속	-12594
▁무단	-12595
▁스투	-12596
▁위계	-12597
▁자립	-12598
▁피사	-12599
▁게오르	-12600
▁다이빙	-12601
▁베르타	-12602
▁시속	-12603
▁심문	-12604
▁아와	-12605
▁청량	-12606
▁고려대	-12607
▁스탠리	-12608
▁갚	-12609
태평	-12610
헤드	-12611
▁계량	-12612
▁과시	-12613
▁닉슨	-12614
▁상정	-12615
▁코사	-12616
▁코호	-12617
▁풍습	-12618
▁도르트	-12619
▁마르세유	-12620
자동	-12621
▁명인	-12622
▁미아	-12623
▁숨기	-12624
▁울릉	-12625
▁서기관	-12626
ublic	-12627
▁율리우스	-12628
▁펫	-12629
ㄹㅔ	-12630
▁톱니	-12631
▁흥분	-12632
▁국제선	-12633
▁from	-12634
▁가르시아	-12635
▁ㄴㅏㄹㅋㅏ	-12636
▁프레임워크	-12637
▁Do	-12638
▁ㄱㅟ	-12639
▁막판	-12640
▁발자	-12641
▁직계	-12642
▁향기	-12643
▁1888	-12644
바리	-12645
▁공시	-12646
▁산수	-12647
▁에바	-12648
ㅂㅘ	-12649
비크	-12650
▁구치	-12651
▁무르	-12652
▁복싱	-12653
▁시우	-12654
▁청송	-12655
로니아	-12656
미디어	-12657
▁로이드	-12658
▁문자열	-12659
▁세비야	-12660
▁쇠고기	-12661
그마	-12662
▁Sw	-12663
▁구금	-12664
▁기쁨	-12665
▁대주	-12666
▁모던	-12667
▁미식	-12668
▁사변	-12669
▁사키	-12670
▁소동	-12671
▁슈타	-12672
▁산스크	-12673
▁이바라	-12674
▁대중교통	-12675
▁산스크리트	-12676
▁형용	-12677
트르	-12678
▁강성	-12679
▁견고	-12680
▁농축	-12681
▁붕어	-12682
▁시문	-12683
▁악곡	-12684
▁하임	-12685
▁펠리페	-12686
▁평안도	-12687
▁노스캐롤라이나	-12688
▁겹치	-12689
▁발목	-12690
▁USB	-12691
▁유전학	-12692
▁차세대	-12693
▁박테리아	-12694
▁상관없이	-12695
▁ㄷㅏㄷㅎㅣㄴ	-12696
▁ㄷㅏㄹㄹㅏㅆ	-12697
▁펩	-12698
▁푹	-12699
▁유무	-12700
▁제창	-12701
▁조롱	-12702
▁중고	-12703
▁펠트	-12704
▁로빈슨	-12705
▁소학교	-12706
▁헤라클	-12707
▁볼티모어	-12708
▁가면라이더	-12709
AI	-12710
▁CG	-12711
▁대접	-12712
▁리차	-12713
▁메틸	-12714
▁자코	-12715
▁다카라	-12716
▁애덤스	-12717
둘기	-12718
보리	-12719
▁계보	-12720
▁백자	-12721
▁1892	-12722
연수	-12723
mer	-12724
▁ar	-12725
▁서예	-12726
▁재차	-12727
▁퇴위	-12728
▁Car	-12729
▁아브라	-12730
▁우에스기	-12731
▁ㅇㅣㅅㄸㅏ	-12732
▁구문	-12733
▁동종	-12734
▁변종	-12735
▁세레	-12736
▁연회	-12737
▁웃음	-12738
▁대전차	-12739
▁볼로냐	-12740
▁좌표계	-12741
▁케이트	-12742
▁감싸	-12743
▁데미	-12744
▁라드	-12745
▁물결	-12746
▁불사	-12747
▁사커	-12748
▁침례	-12749
▁해병	-12750
▁관현악	-12751
▁보좌관	-12752
▁스탠드	-12753
▁조선왕	-12754
뮬러	-12755
큐어	-12756
▁고스	-12757
▁낙양	-12758
▁선양	-12759
▁어의	-12760
▁이나	-12761
▁이산	-12762
▁ㅂㅔㄹ	-12763
▁교구장	-12764
▁허드슨	-12765
▁활동가	-12766
▁덱	-12767
분열	-12768
티노	-12769
ron	-12770
▁새뮤	-12771
▁수력	-12772
▁임계	-12773
▁대공국	-12774
▁지켜보	-12775
▁찾아내	-12776
▁러시아군	-12777
▁니켈	-12778
▁주먹	-12779
▁수차례	-12780
AE	-12781
광성	-12782
▁산청	-12783
▁순례	-12784
▁애슬	-12785
▁옥타	-12786
▁온대	-12787
▁초전	-12788
▁레이디	-12789
▁프린스턴	-12790
홍색	-12791
▁견디	-12792
▁나뭇	-12793
▁납부	-12794
▁이봉	-12795
▁토이	-12796
▁웨스트민스터	-12797
▁군관	-12798
▁긴키	-12799
▁완도	-12800
▁포츠	-12801
▁스테판	-12802
▁ㅈㅓㅂㅎㅐ	-12803
네트	-12804
암리	-12805
▁카야	-12806
▁펀드	-12807
▁ㅊㅜㄹ	-12808
▁고려사	-12809
▁북조선	-12810
▁카운트	-12811
▁1876	-12812
사태	-12813
EST	-12814
▁SV	-12815
▁도제	-12816
▁신진	-12817
▁죄수	-12818
▁축성	-12819
▁통폐	-12820
▁게시판	-12821
▁세네갈	-12822
▁후원자	-12823
▁ㅆㅓㅆㅇㅡ	-12824
▁경무	-12825
▁배기	-12826
▁생모	-12827
▁아디	-12828
▁원유	-12829
▁카레	-12830
▁ㅅㅓㅆ	-12831
▁경영학	-12832
▁바이어	-12833
▁앤서니	-12834
▁토트넘	-12835
▁1866	-12836
코르	-12837
▁거룩	-12838
▁너스	-12839
▁알폰	-12840
▁전권	-12841
▁조개	-12842
▁파파	-12843
▁Gre	-12844
라호	-12845
▁co	-12846
▁wh	-12847
▁로브	-12848
▁송환	-12849
▁재앙	-12850
▁저우	-12851
▁조현	-12852
▁금나라	-12853
▁조나라	-12854
▁주니치	-12855
▁구스타프	-12856
▁도미니카	-12857
▁뱃	-12858
▁펭	-12859
ㄱㅜ	-12860
네임	-12861
쓰기	-12862
▁군데	-12863
▁댓글	-12864
▁손녀	-12865
▁장래	-12866
▁채색	-12867
▁터지	-12868
르타뉴	-12869
▁올리버	-12870
▁용의자	-12871
▁브르타뉴	-12872
▁삼국지연의	-12873
▁인플레이션	-12874
▁알렉산드로스	-12875
로쿠	-12876
▁간혹	-12877
▁부양	-12878
▁실각	-12879
▁ㅈㅏㄴ	-12880
▁독립군	-12881
▁사간원	-12882
▁베네딕토	-12883
▁페르난도	-12884
ble	-12885
▁ML	-12886
▁SH	-12887
▁구르	-12888
▁마나	-12889
▁바시	-12890
▁지난	-12891
▁전주시	-12892
▁1886	-12893
▁ㅈㅜㄱㅇㅕ	-12894
너드	-12895
우회	-12896
▁반주	-12897
▁유다	-12898
▁조소	-12899
▁파커	-12900
▁필하	-12901
▁이즈미	-12902
ㅂㅎㅏㄴ	-12903
▁두각	-12904
▁두려	-12905
▁마린	-12906
▁메스	-12907
▁재결	-12908
▁제르	-12909
▁차수	-12910
▁Wii	-12911
▁ㄱㅏㅌ	-12912
▁페미니	-12913
▁해결책	-12914
ah	-12915
▁도약	-12916
▁브래드	-12917
▁장제스	-12918
▁코소보	-12919
철수	-12920
▁미미	-12921
▁약점	-12922
▁포탄	-12923
▁사단장	-12924
▁요금소	-12925
▁통폐합	-12926
클라	-12927
▁대금	-12928
▁라시	-12929
▁레버	-12930
▁비지	-12931
▁살라	-12932
▁수하	-12933
▁아자	-12934
▁애초	-12935
▁270	-12936
▁ㅋㅣㄹ	-12937
▁프리미엄	-12938
▁불러	-12939
▁오산	-12940
▁펠로	-12941
▁합천	-12942
▁간사이	-12943
▁모나코	-12944
▁베이시스트	-12945
▁ㄲㅡㅌㄴㅐㅆ	-12946
▁뮐	-12947
▁깃털	-12948
▁박수	-12949
▁본체	-12950
▁세무	-12951
▁앨리	-12952
▁중개	-12953
▁260	-12954
▁ㄴㅜㄴ	-12955
▁삼각주	-12956
▁스테인	-12957
▁역사학	-12958
▁Tour	-12959
▁드미트리	-12960
슈타	-12961
▁레트	-12962
▁모라	-12963
▁발의	-12964
▁번갈	-12965
▁소용	-12966
▁원상	-12967
▁프루	-12968
▁부분군	-12969
▁새뮤얼	-12970
▁면모	-12971
▁출혈	-12972
▁ㅇㅕㅅ	-12973
▁축구팀	-12974
▁Dream	-12975
레시	-12976
직경	-12977
하임	-12978
▁과잉	-12979
▁구획	-12980
▁스모	-12981
▁익명	-12982
▁일진	-12983
▁자판	-12984
▁작중	-12985
▁현과	-12986
▁보살상	-12987
▁1887	-12988
▁브리티시	-12989
비안	-12990
▁KB	-12991
▁두드	-12992
▁강서구	-12993
▁사절단	-12994
▁시직경	-12995
▁도하	-12996
▁동창	-12997
▁맥아	-12998
▁부류	-12999
▁유능	-13000
▁직사	-13001
▁민영화	-13002
▁바로크	-13003
▁베이비	-13004
▁화요일	-13005
▁재단법인	-13006
DA	-13007
즐리	-13008
▁TC	-13009
▁세분	-13010
▁유머	-13011
▁행방	-13012
리카락	-13013
▁컨텐츠	-13014
▁머리카락	-13015
꿈치	-13016
▁Up	-13017
▁고창	-13018
▁당황	-13019
▁성기	-13020
▁자궁	-13021
▁홍성	-13022
왕후	-13023
▁모닝	-13024
▁물류	-13025
▁산물	-13026
▁완결	-13027
▁위패	-13028
land	-13029
▁사쓰마	-13030
▁1861	-13031
▁모차르트	-13032
▁렙	-13033
▁버크	-13034
▁사내	-13035
▁오대	-13036
▁오메	-13037
▁공연장	-13038
▁이어주	-13039
▁Life	-13040
▁마르쿠스	-13041
▁집행유예	-13042
▁ㄷㅓㅅㅂㅜㅌㅇㅕㅆ	-13043
코타	-13044
▁여타	-13045
스코트	-13046
▁당선자	-13047
▁덩어리	-13048
▁장애물	-13049
ition	-13050
▁RT	-13051
▁도성	-13052
▁갑작스	-13053
▁1850	-13054
제비	-13055
▁it	-13056
▁무수	-13057
▁천지	-13058
▁근거지	-13059
▁단거리	-13060
ult	-13061
▁기밀	-13062
▁동차	-13063
▁배척	-13064
▁수이	-13065
▁승단	-13066
▁에두	-13067
▁유타	-13068
▁홀딩	-13069
▁ㄹㅓㄴ	-13070
▁ㅅㅗㄴ	-13071
▁스테이	-13072
▁코스트	-13073
▁교지	-13074
▁남조	-13075
▁슬램	-13076
▁엘런	-13077
▁지아	-13078
아메리카	-13079
▁마을버스	-13080
▁ㅇㅕㄹㄹㅕ	-13081
린트	-13082
▁광선	-13083
▁복위	-13084
▁요괴	-13085
▁이호	-13086
▁촛불	-13087
▁페스	-13088
▁편안	-13089
▁포화	-13090
▁신세계	-13091
▁가로지르	-13092
▁석가모니	-13093
▁유니버스	-13094
▁클레멘스	-13095
EP	-13096
달마	-13097
▁오지	-13098
▁올레	-13099
▁허블	-13100
▁환관	-13101
브리드	-13102
▁Open	-13103
▁내포	-13104
▁추존	-13105
▁타구	-13106
▁토목	-13107
▁백악기	-13108
▁보너스	-13109
▁프랑코	-13110
▁황해도	-13111
▁돌아다니	-13112
▁스트리밍	-13113
열차	-13114
짜기	-13115
orm	-13116
▁박자	-13117
▁앵커	-13118
▁왕관	-13119
▁음주	-13120
▁장전	-13121
▁개정안	-13122
▁ㄱㅏㅈㅊㅝ	-13123
▁ㅁㅗㄹㄹㅏㅆ	-13124
진우	-13125
콘신	-13126
▁가닥	-13127
▁놓이	-13128
▁습득	-13129
▁철강	-13130
▁평탄	-13131
▁참의원	-13132
▁1864	-13133
▁위스콘신	-13134
▁다카라즈카	-13135
▁강세	-13136
▁불분	-13137
▁암모	-13138
▁오일	-13139
▁워킹	-13140
▁증세	-13141
라호마	-13142
▁오클라호마	-13143
라르	-13144
▁AG	-13145
▁가독	-13146
▁모국	-13147
▁뷰티	-13148
▁지면	-13149
▁데이빗	-13150
▁음악원	-13151
니오	-13152
플린	-13153
▁백업	-13154
▁쿼크	-13155
솔리니	-13156
▁남베트남	-13157
▁하이브리드	-13158
디슨	-13159
▁급히	-13160
▁마구	-13161
▁발톱	-13162
▁잔디	-13163
▁정예	-13164
ㄴㅜㄴ	-13165
▁생성물	-13166
▁도라에몽	-13167
▁컴파일러	-13168
▁크리에이	-13169
ational	-13170
▁ㄴㅛ	-13171
▁마요	-13172
해살이풀	-13173
▁프로모션	-13174
▁헤라클레스	-13175
ION	-13176
▁과연	-13177
▁구례	-13178
▁리트	-13179
▁무자	-13180
▁푸아	-13181
▁사나이	-13182
▁행정동	-13183
▁후세인	-13184
▁낭만주의	-13185
▁경건	-13186
▁방공	-13187
▁외환	-13188
▁자릿	-13189
▁아무리	-13190
▁아카이	-13191
▁홈경기	-13192
▁캣	-13193
▁양현	-13194
▁위시	-13195
▁파직	-13196
바도르	-13197
▁가해자	-13198
브웨	-13199
타입	-13200
▁매달	-13201
▁승하	-13202
▁혼혈	-13203
▁격투기	-13204
▁네티즌	-13205
▁노동력	-13206
▁집정관	-13207
른베르크	-13208
▁1881	-13209
▁도르트문트	-13210
▁Ed	-13211
▁공판	-13212
▁광업	-13213
▁나름	-13214
▁러닝	-13215
▁아편	-13216
▁여건	-13217
▁이은	-13218
▁짐바	-13219
▁카와	-13220
▁코난	-13221
▁현미	-13222
▁히토	-13223
▁iOS	-13224
라이어티	-13225
▁버라이어티	-13226
▁깁	-13227
▁관내	-13228
▁리에	-13229
▁홈즈	-13230
▁미네소타	-13231
▁객원	-13232
▁관용	-13233
▁하얀	-13234
ject	-13235
▁뛰어넘	-13236
▁무작위	-13237
▁ㄷㅏㅇㅎㅐㅆㅇㅡ	-13238
렌스	-13239
▁XP	-13240
▁루나	-13241
▁에반	-13242
▁관련자	-13243
▁모멘트	-13244
▁장난감	-13245
▁1830	-13246
동자	-13247
예술	-13248
ton	-13249
▁말단	-13250
▁몰두	-13251
▁삭스	-13252
▁스윙	-13253
▁양조	-13254
▁대교구	-13255
▁보안법	-13256
▁재판관	-13257
▁카이로	-13258
▁돗	-13259
다오	-13260
▁if	-13261
▁김희	-13262
▁만점	-13263
▁보정	-13264
▁스몰	-13265
▁잠실	-13266
▁전리	-13267
▁패권	-13268
▁감리교	-13269
▁농어촌	-13270
▁외무부	-13271
▁아이디얼	-13272
뛰기	-13273
▁괘불	-13274
▁근래	-13275
▁삼척	-13276
▁오우	-13277
▁전교	-13278
▁침대	-13279
▁킷	-13280
ave	-13281
▁다행	-13282
▁도산	-13283
▁소라	-13284
ㄱㅎㅕㅆ	-13285
▁카르타고	-13286
TE	-13287
▁en	-13288
▁ㅇㅝ	-13289
▁메츠	-13290
▁이누	-13291
▁조경	-13292
▁가라앉	-13293
▁대표단	-13294
▁재판부	-13295
▁피닉스	-13296
▁루스벨트	-13297
▁Music	-13298
▁an	-13299
▁곱셈	-13300
▁군세	-13301
▁민물	-13302
▁파주	-13303
▁반대파	-13304
▁유전체	-13305
▁HTML	-13306
화경	-13307
▁목욕	-13308
▁미상	-13309
▁산기	-13310
▁스기	-13311
▁아타	-13312
▁해석학	-13313
▁트레이닝	-13314
ㅈㅜ	-13315
리드	-13316
▁남송	-13317
▁벌레	-13318
▁쓰루	-13319
▁예의	-13320
▁접합	-13321
▁정황	-13322
▁이메일	-13323
▁피츠버그	-13324
▁ㅁㅏㄴㄴㅏㄹ	-13325
클럽	-13326
▁경매	-13327
▁다비	-13328
▁판관	-13329
▁마르셀	-13330
▁압록강	-13331
▁두려워하	-13332
▁프란치스코	-13333
QL	-13334
께끼	-13335
▁세간	-13336
▁익산	-13337
▁재벌	-13338
▁헌납	-13339
▁황자	-13340
▁ㄹㅏㄱ	-13341
▁수수께끼	-13342
▁ㄴㅗㅍㅇㅕㅆ	-13343
ㅍㅏ	-13344
▁BL	-13345
▁왕성	-13346
▁이별	-13347
▁쿠로	-13348
▁750	-13349
▁ㅂㅔㄴ	-13350
▁라치오	-13351
▁아이콘	-13352
▁화성시	-13353
▁ㄱㅕㄴㄷ	-13354
▁마티	-13355
▁매진	-13356
▁배트	-13357
▁부전	-13358
▁파열	-13359
▁로맨틱	-13360
▁슬로건	-13361
▁경도	-13362
▁용사	-13363
▁응하	-13364
▁까마귀	-13365
▁여학생	-13366
▁주나라	-13367
▁캐스트	-13368
▁ㄴㅐㅆㅇㅡ	-13369
▁뭐	-13370
림사	-13371
ics	-13372
▁당진	-13373
▁뒤늦	-13374
▁발포	-13375
▁생도	-13376
▁순항	-13377
▁애완	-13378
▁트란	-13379
▁흘리	-13380
▁롬바르	-13381
▁참가국	-13382
▁이시카와	-13383
▁부다페스트	-13384
▁경량	-13385
▁등등	-13386
▁베일	-13387
▁켄터	-13388
▁코뮌	-13389
▁표절	-13390
ㄱㅅㅡ	-13391
▁바람직	-13392
▁1872	-13393
▁세계유산	-13394
▁오스트리	-13395
▁쵸	-13396
덕왕	-13397
평리	-13398
▁"-	-13399
▁가든	-13400
▁곡면	-13401
▁닛산	-13402
▁대강	-13403
▁라이스	-13404
▁세르게이	-13405
▁te	-13406
▁그란	-13407
▁금고	-13408
▁기고	-13409
▁닌자	-13410
▁별장	-13411
▁샤이	-13412
▁승지	-13413
▁종묘	-13414
▁종업	-13415
▁팔작	-13416
▁흑백	-13417
▁불분명	-13418
▁파충류	-13419
▁훔	-13420
비오	-13421
▁꼬마	-13422
▁승상	-13423
▁양면	-13424
▁옹주	-13425
▁합창단	-13426
▁무솔리니	-13427
▁ㅃㅗㅂㅎㅕㅆ	-13428
▁ㄲㅡㅌㄴㅏㄴㄷㅏ	-13429
리쿠	-13430
▁교제	-13431
▁레비	-13432
▁발산	-13433
▁완비	-13434
▁원동	-13435
▁청문	-13436
▁태우	-13437
▁해킹	-13438
▁센다이	-13439
▁호크스	-13440
나파	-13441
두르	-13442
바인	-13443
어드	-13444
▁고모	-13445
▁교동	-13446
▁레아	-13447
▁몸돌	-13448
▁북벌	-13449
▁신봉	-13450
▁야망	-13451
▁콘티	-13452
▁허목	-13453
슬라프	-13454
▁기획사	-13455
▁코호몰로지	-13456
▁국호	-13457
▁모란	-13458
▁브렌	-13459
▁의례	-13460
▁중랑	-13461
▁캐피	-13462
▁탄산	-13463
▁범죄자	-13464
▁화학자	-13465
▁교통사고	-13466
▁유라시아	-13467
▁ㅁㅜㄷㅎㅕ	-13468
데자	-13469
▁배향	-13470
▁복직	-13471
▁빅뱅	-13472
▁시원	-13473
▁알맞	-13474
▁개체군	-13475
데자네이	-13476
▁대한항공	-13477
ru	-13478
성경	-13479
ode	-13480
▁Sm	-13481
▁반죽	-13482
▁의용	-13483
▁클릭	-13484
▁티모	-13485
▁계승자	-13486
▁다비드	-13487
▁아비달마	-13488
쿠니	-13489
▁탐정	-13490
ㅂㅈㅏ	-13491
▁Don	-13492
▁챌린저	-13493
ㅂㅈㅏㄱㅅㅡ	-13494
▁댈	-13495
▁엡	-13496
루크	-13497
워즈	-13498
▁Ab	-13499
▁과다	-13500
▁복역	-13501
▁불타	-13502
▁이니	-13503
▁조심	-13504
▁필연	-13505
▁햇빛	-13506
태평양	-13507
▁청년회	-13508
▁초록색	-13509
▁부르주아	-13510
더지	-13511
리야	-13512
ier	-13513
▁경마	-13514
▁단국	-13515
▁상파	-13516
▁오트	-13517
▁을사	-13518
▁탐험가	-13519
▁하얀색	-13520
▁마스코트	-13521
▁AL	-13522
▁인제	-13523
▁주고	-13524
▁피카	-13525
▁해시	-13526
▁세군다	-13527
▁여진족	-13528
▁유니언	-13529
▁당과	-13530
▁부실	-13531
▁어촌	-13532
▁장쑤	-13533
▁태아	-13534
▁투하	-13535
리아스	-13536
▁경복궁	-13537
▁밀가루	-13538
▁ㅇㅕㄹㄹㅣㄹ	-13539
▁도봉	-13540
▁등단	-13541
▁버펄	-13542
▁슈고	-13543
▁양궁	-13544
▁친밀	-13545
▁페라	-13546
▁작품상	-13547
▁1863	-13548
▁ㄱㅏㅌㅇㅣ	-13549
▁튼	-13550
▁두어	-13551
▁봉황	-13552
▁지경	-13553
올로기	-13554
▁박영효	-13555
▁1865	-13556
▁Night	-13557
▁이데올로기	-13558
▁ㅈㅣㄴㅎㅏㄴ	-13559
▁ㅍㅕㅇㅎㅐㅆ	-13560
단위	-13561
▁--	-13562
▁납작	-13563
▁덴쇼	-13564
▁배아	-13565
▁법전	-13566
▁조시	-13567
▁진흙	-13568
▁피셔	-13569
▁픽셀	-13570
데자네이루	-13571
▁리우데자네이루	-13572
UC	-13573
번에	-13574
▁내재	-13575
▁이례	-13576
▁입시	-13577
▁난이도	-13578
▁노르드	-13579
▁공군기지	-13580
▁NS	-13581
▁조장	-13582
▁코마	-13583
▁혈압	-13584
▁도망치	-13585
▁조선소	-13586
▁ㅇㅓㄺㅎ	-13587
▁오카야마	-13588
▁려	-13589
ool	-13590
▁섬기	-13591
▁여호	-13592
▁직관	-13593
▁철종	-13594
▁합금	-13595
▁고성군	-13596
▁몰도바	-13597
▁항아리	-13598
▁단자	-13599
▁머니	-13600
▁정명	-13601
▁취향	-13602
▁현무	-13603
stem	-13604
▁다시금	-13605
▁발기인	-13606
▁타임즈	-13607
훈장	-13608
▁기통	-13609
▁대목	-13610
▁도도	-13611
▁미인	-13612
▁처방	-13613
▁포대	-13614
▁시간대	-13615
▁우간다	-13616
▁켄터키	-13617
▁1891	-13618
▁ㄴㅡㄹㄹㅕ	-13619
동맹	-13620
매김	-13621
인구	-13622
타스	-13623
▁ㅇㅖ	-13624
▁란스	-13625
▁매립	-13626
▁쇼크	-13627
▁후한	-13628
▁생화학	-13629
▁시티즌	-13630
▁안산시	-13631
▁앤드류	-13632
▁1873	-13633
▁짐바브웨	-13634
▁ㄱㅓㄹㄹㅣㄴㄷㅏ	-13635
사화	-13636
쿠르	-13637
ise	-13638
▁가곡	-13639
▁구강	-13640
▁대의	-13641
▁카슈	-13642
부아르	-13643
▁승정원	-13644
▁와이드	-13645
▁MA	-13646
▁거스	-13647
▁선율	-13648
▁신대	-13649
▁외상	-13650
▁작년	-13651
▁조공	-13652
▁킹스	-13653
▁ret	-13654
▁다국적	-13655
▁야쿠르트	-13656
▁ㅁㅏㅌㄱㅕㅆ	-13657
린더	-13658
▁경지	-13659
▁계좌	-13660
▁리브	-13661
▁리자	-13662
▁공통점	-13663
▁릴레이	-13664
친왕	-13665
▁AI	-13666
▁MM	-13667
▁감추	-13668
▁마모	-13669
▁매스	-13670
▁엄청	-13671
▁요즘	-13672
▁위법	-13673
▁캐치	-13674
▁제너럴	-13675
▁루즈	-13676
이스케	-13677
플렉스	-13678
▁베스트셀러	-13679
▁온타리오주	-13680
▁ㅇㅕㅆㅇㅡㅁㅇㅡㄹ	-13681
▁씻	-13682
미쓰	-13683
▁가두	-13684
▁계엄	-13685
▁반점	-13686
▁산책	-13687
▁여대	-13688
▁자리매김	-13689
NG	-13690
▁샨	-13691
레반	-13692
▁적발	-13693
▁터빈	-13694
▁받침돌	-13695
▁자유형	-13696
▁지자체	-13697
▁삼국유사	-13698
▁Black	-13699
▁거꾸	-13700
▁맞춤	-13701
▁살짝	-13702
▁시진	-13703
▁왓슨	-13704
▁착취	-13705
▁하스	-13706
▁수시로	-13707
▁스테이트	-13708
che	-13709
▁PM	-13710
▁스킬	-13711
▁키즈	-13712
▁제프리	-13713
▁테무르	-13714
▁포항시	-13715
▁ㅇㅏㅍㅅㅓㄴ	-13716
▁라크	-13717
▁재고	-13718
▁투신	-13719
▁페인	-13720
▁다마스	-13721
▁트로트	-13722
▁Good	-13723
▁샵	-13724
시대	-13725
▁단조	-13726
▁라면	-13727
▁부에	-13728
▁잡히	-13729
▁체내	-13730
▁한창	-13731
▁무로마치	-13732
70	-13733
▁믈	-13734
▁교서	-13735
▁굴복	-13736
▁손꼽	-13737
▁에치	-13738
▁우마	-13739
▁인위	-13740
▁충당	-13741
합중국	-13742
▁국민회	-13743
▁백악관	-13744
세다	-13745
▁고마	-13746
▁어는	-13747
▁자켓	-13748
▁조준	-13749
▁증강	-13750
▁진원	-13751
▁촉발	-13752
▁최장	-13753
▁통지	-13754
▁파기	-13755
ower	-13756
▁승용차	-13757
무제	-13758
바지	-13759
▁리키	-13760
▁모함	-13761
▁반항	-13762
▁불로	-13763
▁열렬	-13764
▁유태	-13765
▁입술	-13766
▁직교	-13767
▁필두	-13768
▁흡연	-13769
▁찾아가	-13770
킨슨	-13771
▁과격	-13772
▁국부	-13773
▁토로	-13774
▁헤어	-13775
▁해부학	-13776
▁팔작지붕	-13777
DS	-13778
ai	-13779
▁El	-13780
▁qu	-13781
▁걸작	-13782
▁네임	-13783
▁문정	-13784
▁튼튼	-13785
▁활자	-13786
▁Can	-13787
▁공식전	-13788
▁노르만	-13789
▁발가락	-13790
▁알아내	-13791
진구	-13792
▁광자	-13793
▁신의	-13794
▁조어	-13795
▁650	-13796
▁이성질	-13797
▁종업원	-13798
▁이바라키	-13799
▁서위	-13800
▁수퍼	-13801
▁이강	-13802
▁채굴	-13803
▁캐논	-13804
▁타이탄	-13805
▁광배	-13806
▁분경	-13807
▁양양	-13808
▁토유	-13809
▁헌병	-13810
타나베	-13811
▁550	-13812
▁제작진	-13813
▁q	-13814
펠러	-13815
▁모반	-13816
▁볼넷	-13817
▁서지	-13818
▁오즈	-13819
▁위헌	-13820
▁레인저	-13821
ㅇㅗㄹㄹㅏㅆ	-13822
▁section	-13823
내티	-13824
▁걸프	-13825
▁내역	-13826
▁무도	-13827
▁병과	-13828
▁신해	-13829
▁야심	-13830
▁조석	-13831
▁파랑	-13832
ㅈㅏㅇ	-13833
▁거꾸로	-13834
▁선제골	-13835
▁신시내티	-13836
ㄷㅏㄹㄹㅕㅆ	-13837
포타	-13838
ank	-13839
▁Qu	-13840
▁농성	-13841
선거구	-13842
▁그나마	-13843
▁콧	-13844
▁당당	-13845
▁무고	-13846
▁사하	-13847
▁산신	-13848
▁진언	-13849
▁현도	-13850
▁Let	-13851
▁부등식	-13852
▁연출가	-13853
▁아오모리	-13854
ㄴㅣㄴㄱㅏ	-13855
▁반론	-13856
▁온두	-13857
▁용감	-13858
드라마	-13859
▁변광성	-13860
▁엑스포	-13861
▁두드러지	-13862
▁온두라스	-13863
▁ㄱㅏㅂㅈㅏㄱㅅㅡ	-13864
고르	-13865
내리	-13866
센터	-13867
정사	-13868
▁간판	-13869
▁아델	-13870
▁연화	-13871
▁705	-13872
▁김성수	-13873
▁반정부	-13874
▁입법부	-13875
▁플러그	-13876
▁하반기	-13877
포타미아	-13878
▁1862	-13879
▁미합중국	-13880
▁사이타마현	-13881
▁메소포타미아	-13882
티야	-13883
▁기묘	-13884
▁박진	-13885
▁심소	-13886
ings	-13887
▁IMF	-13888
▁사보이	-13889
▁자외선	-13890
▁크루즈	-13891
▁타타르	-13892
▁이노우에	-13893
방군	-13894
▁Ac	-13895
▁성수	-13896
▁양군	-13897
▁연행	-13898
▁온건	-13899
▁장신	-13900
▁푸드	-13901
▁후미	-13902
▁앨버트	-13903
▁용산구	-13904
▁폼페이	-13905
▁1867	-13906
▁협동조합	-13907
▁페르디난트	-13908
▁ㅇㅏㅍㄷㅜㄴ	-13909
상어	-13910
▁쿠라	-13911
▁사무국	-13912
▁스코어	-13913
▁알폰소	-13914
▁백과사전	-13915
▁-&	-13916
▁극찬	-13917
▁나사	-13918
▁사교	-13919
▁열쇠	-13920
▁주저	-13921
▁증발	-13922
▁증식	-13923
세우스	-13924
▁경희대	-13925
▁미카엘	-13926
▁페드로	-13927
▁괜	-13928
다발	-13929
▁AU	-13930
▁경은	-13931
▁길드	-13932
▁소작	-13933
▁옥시	-13934
대전	-13935
비언	-13936
▁LS	-13937
▁UC	-13938
▁병단	-13939
▁스톰	-13940
▁코모	-13941
▁황폐	-13942
▁히노	-13943
▁MSL	-13944
▁ㅁㅓㅅ	-13945
▁감염증	-13946
▁동탁	-13947
▁베풀	-13948
▁엘라	-13949
▁키릴	-13950
▁증조부	-13951
▁조선왕조	-13952
▁ㄱㅔㄴㅈㅣ	-13953
▁궐	-13954
루엔	-13955
▁객실	-13956
▁구슬	-13957
▁노브	-13958
▁조서	-13959
▁횡령	-13960
절도사	-13961
▁Ser	-13962
▁페르미	-13963
▁플루토	-13964
▁6000	-13965
▁국민학교	-13966
렐라	-13967
▁DR	-13968
▁세단	-13969
▁적정	-13970
▁손잡이	-13971
▁언론사	-13972
▁제조사	-13973
▁취리히	-13974
레타리아	-13975
▁신한은행	-13976
▁프롤레타리아	-13977
▁탬	-13978
려들	-13979
lar	-13980
▁괄호	-13981
▁대담	-13982
▁분별	-13983
▁타도	-13984
▁갈라지	-13985
▁이브스	-13986
▁라이프치히	-13987
디언	-13988
위치	-13989
▁당파	-13990
▁독주	-13991
▁서한	-13992
▁전멸	-13993
▁체하	-13994
▁행보	-13995
▁휩쓸	-13996
▁마그네	-13997
▁웨이브	-13998
▁치료제	-13999
▁군자	-14000
▁버진	-14001
▁보직	-14002
▁사드	-14003
▁예종	-14004
▁저축	-14005
▁저해	-14006
▁충칭	-14007
▁하중	-14008
▁일본식	-14009
▁컴파일	-14010
ㄱㅇㅣㄴ	-14011
▁ㄱㅣㄹㄹㅓ	-14012
▁팍	-14013
▁가극	-14014
▁교훈	-14015
▁나탈	-14016
▁엘레	-14017
▁절약	-14018
▁출입문	-14019
▁특별법	-14020
▁편집장	-14021
▁홀딩스	-14022
▁ㅇㅜㅁㅈㅣㄱㅇㅣㄹ	-14023
북면	-14024
활약	-14025
▁교화	-14026
▁꽃잎	-14027
▁동자	-14028
▁성품	-14029
▁유구	-14030
▁필명	-14031
▁802	-14032
ky	-14033
▁심정	-14034
▁항생	-14035
ㄱㅔㄴ	-14036
ㄱㅣㅁ	-14037
ㄷㅣㄴ	-14038
▁And	-14039
▁지질학	-14040
▁ㄷㅡㄹㄹㅕ	-14041
젤로	-14042
할린	-14043
▁간결	-14044
▁잔존	-14045
▁차림	-14046
▁처장	-14047
rist	-14048
▁맹활약	-14049
▁사대부	-14050
▁1878	-14051
▁샴	-14052
▁국화	-14053
▁잉크	-14054
▁청각	-14055
▁나치오	-14056
▁연주회	-14057
ta	-14058
tr	-14059
산부	-14060
▁벵골	-14061
▁세토	-14062
▁유망	-14063
▁충신	-14064
▁기원후	-14065
ee	-14066
▁각주	-14067
▁강호	-14068
▁들리	-14069
▁오보	-14070
▁텍스	-14071
▁프로테	-14072
▁프라이즈	-14073
▁번개	-14074
▁상선	-14075
▁연달	-14076
▁완수	-14077
▁유림	-14078
▁피어	-14079
플로러	-14080
▁대리석	-14081
▁포뮬러	-14082
▁핵분열	-14083
▁미나모토노	-14084
▁익스플로러	-14085
▁썬	-14086
벤션	-14087
빌리	-14088
hem	-14089
▁RC	-14090
▁고찰	-14091
▁국력	-14092
▁매도	-14093
▁시역	-14094
▁뉴기니	-14095
▁신기록	-14096
▁명성황후	-14097
▁ㅈㅜㄱㅇㅣㅁ	-14098
▁밋	-14099
참찬	-14100
▁라다	-14101
▁바쿠	-14102
▁옥천	-14103
▁이끼	-14104
▁접전	-14105
▁지그	-14106
▁참수	-14107
▁형주	-14108
▁부여군	-14109
▁원자핵	-14110
퉁이	-14111
▁추축	-14112
에이고	-14113
▁키르기스	-14114
▁샌디에이고	-14115
▁일리노이주	-14116
▁세인트루이스	-14117
▁팻	-14118
▁변증	-14119
▁시르	-14120
▁일설	-14121
▁중용	-14122
▁후드	-14123
▁HMS	-14124
▁인코딩	-14125
▁과자	-14126
▁급성	-14127
▁부군	-14128
▁서점	-14129
▁습성	-14130
▁자행	-14131
▁정진	-14132
▁콜드	-14133
▁행군	-14134
가르트	-14135
▁액세스	-14136
▁프라임	-14137
▁스케이트	-14138
▁낡	-14139
다스	-14140
자원	-14141
▁글렌	-14142
▁변모	-14143
▁보류	-14144
▁부관	-14145
▁솔라	-14146
▁수당	-14147
▁영사	-14148
▁용수	-14149
▁용해	-14150
▁지린	-14151
▁직물	-14152
▁추계	-14153
▁회유	-14154
뉴기니	-14155
▁운동량	-14156
▁글로브상	-14157
누마	-14158
▁논하	-14159
▁완만	-14160
▁자부	-14161
▁패킷	-14162
▁폴라	-14163
▁현악	-14164
▁와세다	-14165
▁인지도	-14166
▁자릿수	-14167
▁쿠르드	-14168
▁스파이더	-14169
▁싹	-14170
네르	-14171
▁Ag	-14172
▁SO	-14173
▁도발	-14174
▁모조	-14175
▁봉하	-14176
▁애기	-14177
▁영미	-14178
▁점진	-14179
▁기동전	-14180
▁종사자	-14181
정보	-14182
▁tr	-14183
▁매슈	-14184
▁스에	-14185
▁육식	-14186
▁지문	-14187
▁표출	-14188
ㅂㅇㅏ	-14189
▁ㅂㅐㄴ	-14190
▁주고받	-14191
▁고등학생	-14192
▁비스마르크	-14193
▁ㅈㅜㄹㅇㅣㄹ	-14194
일치	-14195
▁북대	-14196
▁서거	-14197
▁지탱	-14198
▁참패	-14199
▁댈러스	-14200
▁수도회	-14201
▁와타나베	-14202
▁코퍼레이션	-14203
▁엇	-14204
▁개기	-14205
▁국인	-14206
▁다량	-14207
▁면직	-14208
▁무비	-14209
▁소피	-14210
시아드	-14211
▁봉우리	-14212
중추부사	-14213
▁1869	-14214
▁레지스터	-14215
▁힐베르트	-14216
BI	-14217
▁밧	-14218
시게	-14219
테이	-14220
▁강우	-14221
▁닉스	-14222
▁임하	-14223
▁정박	-14224
▁축일	-14225
▁출국	-14226
▁퀴즈	-14227
▁포천	-14228
▁아이젠	-14229
▁업로드	-14230
▁요리토모	-14231
▁유니버시아드	-14232
셔주	-14233
▁박원	-14234
▁잔해	-14235
▁추후	-14236
▁포탑	-14237
▁경쟁자	-14238
▁마포구	-14239
▁방위군	-14240
▁베르나	-14241
▁수비대	-14242
▁프리츠	-14243
▁내란	-14244
▁로시	-14245
▁아뢰	-14246
▁치사	-14247
▁컴필	-14248
▁연예계	-14249
▁영유권	-14250
▁외교부	-14251
▁컴필레이션	-14252
▁ㅁㅏㅈㅊㅜㄴ	-14253
탄두	-14254
▁다목	-14255
▁디나	-14256
▁무색	-14257
▁쿼터	-14258
▁피처	-14259
▁랙	-14260
▁그물	-14261
▁근방	-14262
▁목동	-14263
▁손님	-14264
▁출세	-14265
▁헤더	-14266
▁에이전트	-14267
▁고국	-14268
▁모티	-14269
▁몸체	-14270
▁반입	-14271
▁사부	-14272
▁오자	-14273
▁의정	-14274
▁516	-14275
▁건륭제	-14276
블릿	-14277
암사	-14278
▁AA	-14279
▁KN	-14280
▁VS	-14281
▁사소	-14282
▁시시	-14283
▁입출	-14284
▁ㄱㅜㄷ	-14285
▁무사히	-14286
▁보유자	-14287
▁안동시	-14288
▁1592	-14289
▁친선경기	-14290
▁기조	-14291
▁논산	-14292
▁버티	-14293
▁부두	-14294
▁수레	-14295
▁초음	-14296
ㅅㅣㄹ	-14297
ount	-14298
▁네이트	-14299
▁오스카	-14300
▁패스트	-14301
▁프랑스와	-14302
세르	-14303
티컷	-14304
ata	-14305
▁고제	-14306
▁위도	-14307
▁헤겔	-14308
▁코네티컷	-14309
▁ㅅㅐㅇㄱㅣㄹ	-14310
IF	-14311
노르	-14312
효소	-14313
▁귀인	-14314
▁루피	-14315
▁수급	-14316
▁쌍성	-14317
▁유화	-14318
▁일선	-14319
▁지체	-14320
▁청취	-14321
▁토라	-14322
▁금강산	-14323
▁여객기	-14324
▁장로회	-14325
▁지하역	-14326
▁ㄴㅏㄹㄹㅕ	-14327
▁ㅂㅕㄴㅎㅏㄴㄷㅏ	-14328
▁고을	-14329
▁교파	-14330
▁넘버	-14331
▁빈민	-14332
▁처치	-14333
▁캐슬	-14334
▁컵스	-14335
▁토키	-14336
▁티저	-14337
▁며느리	-14338
▁사이언스	-14339
▁후지와라	-14340
▁크리스티나	-14341
▁ㅊㅣㅇㅎㅐㅆ	-14342
pr	-14343
곡면	-14344
작전	-14345
▁Pe	-14346
▁ㅍㅛ	-14347
▁대타	-14348
▁바인	-14349
▁베오	-14350
▁전단	-14351
▁하수	-14352
▁헤일	-14353
▁골짜기	-14354
▁스트림	-14355
▁1840	-14356
▁데카르트	-14357
▁me	-14358
▁공상	-14359
▁단역	-14360
▁스택	-14361
▁텐서	-14362
▁패망	-14363
스타인	-14364
▁Mon	-14365
▁시니어	-14366
▁ㅍㅏㄹㄹㅣㄴ	-14367
마디	-14368
수염	-14369
ade	-14370
per	-14371
▁PL	-14372
▁블러	-14373
▁빅터	-14374
▁자질	-14375
▁어도비	-14376
▁남아시아	-14377
▁매킨토시	-14378
▁ㄷㅚㅂㄴㅣ	-14379
▁볶	-14380
구스	-14381
▁가비	-14382
▁온실	-14383
▁유골	-14384
▁자처	-14385
▁철자	-14386
ㅈㅜㄹ	-14387
▁글러브	-14388
▁목적지	-14389
▁창립자	-14390
▁팔꿈치	-14391
▁Song	-14392
▁근본번뇌	-14393
▁ㄴㅓㅁㄱㅕㅆ	-14394
▁Windows	-14395
▁거사	-14396
▁겨루	-14397
▁병풍	-14398
▁여포	-14399
▁유자	-14400
▁자정	-14401
▁준동	-14402
▁천상	-14403
▁탁구	-14404
▁리차드	-14405
▁병자호란	-14406
▁파시스트	-14407
ㅈㅣㄹㄹㅓㅆ	-14408
IX	-14409
선언	-14410
ium	-14411
▁금색	-14412
▁린다	-14413
▁아어	-14414
▁이거	-14415
▁이목	-14416
▁불가피	-14417
▁적십자	-14418
▁로드리게스	-14419
▁ㅁㅓㅅㅈㅣㄴ	-14420
90	-14421
▁민심	-14422
▁상의	-14423
▁유이	-14424
▁ㅌㅡㄹ	-14425
▁예언자	-14426
▁테크놀	-14427
▁ㅂㅜㄹㄹㅕ	-14428
▁여우원숭이	-14429
▁가방	-14430
▁계룡	-14431
▁상식	-14432
▁성가	-14433
▁자취	-14434
ㅇㅓㄴ	-14435
▁치료법	-14436
▁필사본	-14437
▁기행	-14438
▁라라	-14439
▁소박	-14440
▁의복	-14441
▁피살	-14442
▁하라	-14443
▁휘발	-14444
이치로	-14445
ㄷㅡㄹㅇㅣㄹ	-14446
▁변질	-14447
▁숙소	-14448
▁에트	-14449
▁웍스	-14450
▁이카	-14451
▁절친	-14452
▁튜브	-14453
▁ㅋㅣㄴ	-14454
▁심리학자	-14455
▁Heart	-14456
▁return	-14457
쳐지	-14458
▁국세	-14459
▁독살	-14460
▁벤츠	-14461
▁얼룩	-14462
▁영수	-14463
▁KTX	-14464
▁로타르	-14465
▁유엔군	-14466
▁히타치	-14467
▁지장보살	-14468
▁널	-14469
▁벳	-14470
려오	-14471
▁강인	-14472
▁다쓰	-14473
▁동호	-14474
▁란트	-14475
▁상동	-14476
▁바닷물	-14477
▁종착역	-14478
▁그린란드	-14479
▁와카야마	-14480
▁아나톨리아	-14481
▁펜실베이니아주	-14482
욕장	-14483
히메	-14484
▁성대	-14485
▁ㅉㅓㄴ	-14486
▁세미나	-14487
▁파주시	-14488
▁형용사	-14489
사우루스	-14490
넌트	-14491
던트	-14492
▁ab	-14493
▁거창	-14494
▁발착	-14495
▁백조	-14496
▁암수	-14497
▁염화	-14498
▁원문	-14499
▁윤휴	-14500
▁풀리	-14501
ㅁㅜㄹㄹㅓ	-14502
▁ㅈㅡㄹㄱㅓ	-14503
ae	-14504
날레	-14505
수단	-14506
찬성	-14507
▁Gl	-14508
▁라프	-14509
▁상과	-14510
▁워스	-14511
▁자루	-14512
▁전조	-14513
▁조비	-14514
변속기	-14515
▁리스본	-14516
보당	-14517
전선	-14518
테랑	-14519
▁ㅌㅡ	-14520
▁농가	-14521
▁렉스	-14522
▁수증	-14523
▁연중	-14524
▁의주	-14525
▁ㅂㅕㄴㅎㅐ	-14526
ㅁㅏㅇㅊㅕㅆ	-14527
날드	-14528
링겐	-14529
▁겸직	-14530
▁단서	-14531
▁슈투	-14532
▁입히	-14533
▁중일	-14534
▁흥원	-14535
▁과반수	-14536
▁구단주	-14537
▁다가오	-14538
▁8000	-14539
▁고등교육	-14540
기아	-14541
▁Aw	-14542
▁실사	-14543
▁오시	-14544
▁포인	-14545
▁한민	-14546
▁호그	-14547
▁환율	-14548
▁가환환	-14549
▁집단군	-14550
▁헤르만	-14551
▁영등포구	-14552
기즈	-14553
▁셔틀	-14554
▁외척	-14555
▁강력히	-14556
▁보호법	-14557
▁모자이크	-14558
ale	-14559
▁강습	-14560
▁미학	-14561
▁비키	-14562
▁수만	-14563
▁악명	-14564
▁저그	-14565
▁그래도	-14566
▁비둘기	-14567
▁1875	-14568
▁알프레드	-14569
계사	-14570
사유	-14571
히데	-14572
▁권익	-14573
▁니케	-14574
▁다자	-14575
▁바보	-14576
▁사귀	-14577
▁신지	-14578
▁유카	-14579
▁임종	-14580
▁최하	-14581
▁친화	-14582
레이트	-14583
▁AMD	-14584
▁개그맨	-14585
▁시미즈	-14586
▁안창호	-14587
▁이와테	-14588
▁클리어	-14589
▁기린	-14590
▁아다	-14591
▁페레	-14592
▁Out	-14593
▁관심사	-14594
▁사이즈	-14595
▁성폭행	-14596
▁신석기	-14597
▁아나키스트	-14598
▁ㄷㅓㄴㅈㅕㅆ	-14599
PA	-14600
방향	-14601
▁괜찮	-14602
▁노현	-14603
▁볼록	-14604
▁삭감	-14605
▁실상	-14606
▁이심	-14607
▁콜린	-14608
▁키리	-14609
▁하구	-14610
▁해트	-14611
▁고문서	-14612
▁다이쇼	-14613
▁대항전	-14614
▁레스터	-14615
▁컨벤션	-14616
세서	-14617
▁문중	-14618
▁서약	-14619
▁Gen	-14620
▁보리스	-14621
▁아우구스	-14622
▁뉘른베르크	-14623
▁포르투갈어	-14624
▁썩	-14625
▁As	-14626
▁디바	-14627
▁선상	-14628
▁설리	-14629
▁숙련	-14630
▁예식	-14631
▁원단	-14632
▁이희	-14633
▁정칙	-14634
▁중견	-14635
루엔자	-14636
▁진주시	-14637
▁피의자	-14638
▁항공대	-14639
itt	-14640
▁DB	-14641
▁ㅆㅢ	-14642
▁도적	-14643
▁이선	-14644
▁징집	-14645
▁침식	-14646
▁이랜드	-14647
▁친환경	-14648
▁회고록	-14649
▁바빌로니아	-14650
son	-14651
▁sh	-14652
▁능가	-14653
▁로사	-14654
▁몰아	-14655
▁문체	-14656
▁생원	-14657
▁위크	-14658
▁최남	-14659
▁혼잡	-14660
▁380	-14661
▁나리타	-14662
▁돌고래	-14663
▁스케치	-14664
▁칭기즈	-14665
▁파라오	-14666
구니	-14667
행파	-14668
▁TS	-14669
▁뉴런	-14670
▁미지	-14671
▁아세틸	-14672
▁예비역	-14673
▁크라운	-14674
▁파스칼	-14675
▁구루	-14676
▁바늘	-14677
▁변혁	-14678
▁사각	-14679
▁선체	-14680
▁이씨	-14681
▁표제	-14682
▁ㅅㅟㄹ	-14683
▁게임기	-14684
▁담당자	-14685
▁맥아더	-14686
▁열역학	-14687
크라테스	-14688
▁ㅁㅜㄲㅇㅕ	-14689
이에	-14690
▁결말	-14691
▁김두	-14692
▁다름	-14693
▁직렬	-14694
그래피	-14695
▁매디슨	-14696
▁운전자	-14697
▁코트디	-14698
▁코트디부아르	-14699
▁걸음	-14700
▁단양	-14701
▁엔젤	-14702
▁왜군	-14703
▁집전	-14704
▁키드	-14705
▁태안	-14706
▁ㄷㅏㅇ	-14707
▁테오도	-14708
▁규율	-14709
▁묘호	-14710
▁어사	-14711
▁월화	-14712
▁정오	-14713
▁질투	-14714
▁슈타인	-14715
▁통신망	-14716
▁학술지	-14717
VA	-14718
▁노원	-14719
▁목장	-14720
▁비료	-14721
▁서클	-14722
▁아지	-14723
▁안중	-14724
▁에리	-14725
▁용지	-14726
▁일명	-14727
▁자장	-14728
▁절충	-14729
▁터너	-14730
▁토피	-14731
▁DOS	-14732
▁스피커	-14733
▁올라오	-14734
▁중앙선	-14735
▁통도사	-14736
▁합성어	-14737
▁남양주시	-14738
▁몽고메리	-14739
르카	-14740
▁금정	-14741
▁기판	-14742
▁로바	-14743
▁명상	-14744
▁시찰	-14745
▁실명	-14746
▁예프	-14747
▁인승	-14748
▁잠입	-14749
▁특공	-14750
▁맥스웰	-14751
▁크메르	-14752
▁함경도	-14753
▁ㅇㅗㄹㄹㅕㅆㅇㅡ	-14754
알라	-14755
▁거칠	-14756
▁리크	-14757
▁여럿	-14758
▁원효	-14759
▁첩보	-14760
▁향신	-14761
▁Vol	-14762
▁스케줄	-14763
▁표트르	-14764
▁인플루엔자	-14765
▁ㅍㅕㄹㅊㅣㄴ	-14766
13	-14767
UN	-14768
더링	-14769
두사	-14770
▁김연	-14771
▁등산	-14772
▁모피	-14773
▁문관	-14774
▁버트	-14775
▁생쥐	-14776
▁은밀	-14777
▁재보	-14778
▁타쿠	-14779
able	-14780
▁ㅌㅐㄱ	-14781
▁데이트	-14782
▁선거인	-14783
▁아리랑	-14784
▁채권자	-14785
▁오프라인	-14786
모음	-14787
어류	-14788
화당	-14789
▁격하	-14790
▁방울	-14791
▁서당	-14792
▁출품	-14793
ㄱㅓㄹ	-14794
세데스	-14795
▁235	-14796
▁북극점	-14797
▁장갑차	-14798
▁땀	-14799
▁엿	-14800
부대	-14801
임새	-14802
▁교관	-14803
▁수은	-14804
▁안식	-14805
▁양파	-14806
▁의성	-14807
▁광둥성	-14808
▁꽃차례	-14809
▁베르트	-14810
▁쇼핑몰	-14811
▁이사벨	-14812
▁메르세데스	-14813
▁브란덴부르크	-14814
▁로큰	-14815
▁방호	-14816
▁에레	-14817
▁체로	-14818
▁초회	-14819
▁취직	-14820
▁호른	-14821
해방군	-14822
▁토요타	-14823
ㄲㅟㄴㄷㅏ	-14824
▁인민해방군	-14825
▁ㅇㅏㅍㅈㅏㅇ	-14826
▁벙	-14827
시험	-14828
은사	-14829
▁WC	-14830
▁레몬	-14831
▁야마다	-14832
우주	-14833
▁규약	-14834
▁슬리	-14835
▁아노	-14836
▁야권	-14837
▁영락	-14838
▁인먼	-14839
▁ㅆㅏㄴ	-14840
▁부적절	-14841
▁일부러	-14842
▁캐스터	-14843
▁클레어	-14844
▁기공	-14845
▁기마	-14846
▁달콤	-14847
▁박용	-14848
▁술라	-14849
▁열세	-14850
▁외면	-14851
▁일차	-14852
▁잉카	-14853
▁지치	-14854
ㅇㅡㅁ	-14855
록대부	-14856
▁"()	-14857
▁Par	-14858
▁ㄹㅗㄹ	-14859
▁연속극	-14860
▁자격증	-14861
▁정치국	-14862
스코리아	-14863
▁ㄷㅏㄹㄹㅣㄴㄷㅏ	-14864
▁삐	-14865
몽골	-14866
박사	-14867
▁IR	-14868
▁구시	-14869
▁면담	-14870
▁배반	-14871
▁스펜	-14872
▁어부	-14873
▁율법	-14874
▁강대국	-14875
▁로큰롤	-14876
▁바나나	-14877
▁안드로메다	-14878
▁중앙아메리카	-14879
▁ㅂㅜㄹㄹㅓㅆㅇㅡ	-14880
건설	-14881
세키	-14882
엽수	-14883
▁KO	-14884
▁동거	-14885
▁라벨	-14886
▁막강	-14887
▁반감기	-14888
▁저널리스트	-14889
▁ㅂㅏㄺㅎㅕㅆㅇㅡ	-14890
ng	-14891
▁싯	-14892
놀드	-14893
르산	-14894
벌리	-14895
▁보우	-14896
▁시제	-14897
▁야수	-14898
▁에코	-14899
▁위트	-14900
▁이홍	-14901
▁장정	-14902
▁동아리	-14903
▁로버츠	-14904
▁비단털	-14905
▁통계청	-14906
▁프론트	-14907
▁쇼트트랙	-14908
▁라이베리아	-14909
올리언	-14910
▁카디널	-14911
▁비단털쥐	-14912
▁탭	-14913
▁텅	-14914
촌리	-14915
ody	-14916
▁결전	-14917
▁내림	-14918
▁문수	-14919
▁웨어	-14920
▁조봉	-14921
▁칸트	-14922
▁헤센	-14923
▁엑스박스	-14924
▁ㅎㅡㄴㄷㅡㄹ	-14925
▁꽂	-14926
쿠사	-14927
▁가모	-14928
▁경순	-14929
▁래리	-14930
▁마레	-14931
▁모사	-14932
▁몹시	-14933
▁보그	-14934
▁세일	-14935
▁착각	-14936
▁키트	-14937
▁폐허	-14938
▁708	-14939
▁상반기	-14940
▁스케일	-14941
▁유가행파	-14942
▁콜럼버스	-14943
18	-14944
ㅐㅆ	-14945
▁At	-14946
▁구세	-14947
▁구아	-14948
▁극소	-14949
▁금환	-14950
▁데일	-14951
▁메모	-14952
▁배당	-14953
▁사주	-14954
▁상계	-14955
▁석기	-14956
▁야코	-14957
▁오마	-14958
▁자키	-14959
▁가이아	-14960
▁송파구	-14961
▁조선공산당	-14962
▁University	-14963
니에	-14964
▁라울	-14965
▁모체	-14966
▁베티	-14967
▁병렬	-14968
▁사미	-14969
▁성행	-14970
▁수마	-14971
▁순식	-14972
▁월남	-14973
▁정에	-14974
▁후루	-14975
▁205	-14976
▁ATC	-14977
▁대수학	-14978
▁관음보살	-14979
▁ㅅㅣㄹㄹㅕㅆ	-14980
루즈	-14981
텐셜	-14982
▁JC	-14983
▁경의	-14984
▁젤리	-14985
▁콘스	-14986
▁ㅁㅜㅇ	-14987
▁강희제	-14988
▁보조금	-14989
▁사할린	-14990
▁시그마	-14991
▁뉴올리언	-14992
▁브로드웨이	-14993
▁ㅊㅣㄴㅎㅏㄴ	-14994
▁날리	-14995
▁미첼	-14996
▁샤르	-14997
▁양서	-14998
▁왕래	-14999
▁은폐	-15000
▁정글	-15001
▁집사	-15002
▁슈미트	-15003
▁콘라트	-15004
▁호흡기	-15005
▁외할	-15006
▁출격	-15007
▁당뇨병	-15008
▁데뷔작	-15009
▁스틸러스	-15010
▁지하철역	-15011
▁엣	-15012
사와	-15013
▁가명	-15014
▁경화	-15015
▁라플	-15016
▁로니	-15017
▁에노	-15018
▁이달	-15019
▁자위	-15020
▁정언	-15021
▁패치	-15022
▁퍼텐셜	-15023
▁Hell	-15024
▁보컬리스트	-15025
▁뤄	-15026
▁샷	-15027
▁구타	-15028
▁기운	-15029
▁동군	-15030
▁아연	-15031
▁이질	-15032
▁초계	-15033
very	-15034
▁사학자	-15035
▁페널티킥	-15036
ㄷㅗㄹㄹㅕ	-15037
▁셴	-15038
▁경종	-15039
▁군복	-15040
▁수역	-15041
▁시의	-15042
▁애착	-15043
▁정승	-15044
▁출사	-15045
▁폐교	-15046
▁NBC	-15047
▁되풀이	-15048
에쓰	-15049
연구	-15050
▁근세	-15051
▁시성	-15052
▁실은	-15053
▁실효	-15054
▁카로	-15055
▁타시	-15056
▁호로	-15057
▁ㄷㅗㅇ	-15058
▁무지개	-15059
▁서비스업	-15060
IVE	-15061
▁기미	-15062
▁박재	-15063
▁숙박	-15064
▁양극	-15065
▁외손	-15066
▁읍성	-15067
▁치마	-15068
▁코바	-15069
▁ㅁㅏㄹㄹㅏ	-15070
변수	-15071
▁변천	-15072
▁애드	-15073
진보당	-15074
▁시마즈	-15075
▁흔들리	-15076
▁name	-15077
14	-15078
▁라가	-15079
▁리시	-15080
▁무능	-15081
▁안기	-15082
▁에볼	-15083
▁옥사	-15084
▁포니	-15085
▁후이	-15086
폴리탄	-15087
▁전시관	-15088
▁조각상	-15089
ㅁㅎㅏㄴ	-15090
▁메트로폴리탄	-15091
▁랠	-15092
보라	-15093
▁가세	-15094
▁노카	-15095
▁단발	-15096
▁불복	-15097
▁서안	-15098
▁악당	-15099
▁신호장	-15100
▁ㅃㅏㄹㄹㅏ	-15101
▁나기	-15102
▁마흐	-15103
▁비옥	-15104
▁세스	-15105
▁신병	-15106
▁유충	-15107
▁일주	-15108
▁재화	-15109
▁획기	-15110
▁사무관	-15111
so	-15112
양이	-15113
▁균일	-15114
▁불쾌	-15115
▁빌드	-15116
▁안톤	-15117
▁염두	-15118
▁종가	-15119
▁칼륨	-15120
▁풀백	-15121
▁오릭스	-15122
▁터뜨리	-15123
▁ㄴㅏㅈㅊ	-15124
주크	-15125
anc	-15126
▁AE	-15127
▁ㅅㅛ	-15128
▁골절	-15129
▁남단	-15130
▁리나	-15131
▁망치	-15132
▁무예	-15133
▁찌르	-15134
▁포자	-15135
▁화승	-15136
▁화원	-15137
▁가요제	-15138
▁남극점	-15139
▁물려주	-15140
▁그레이엄	-15141
▁로베르토	-15142
▁미스코리아	-15143
▁ㅇㅗㄹㄹㅣㄹ	-15144
▁벚	-15145
데기	-15146
민당	-15147
열대	-15148
▁sp	-15149
▁나쁘	-15150
▁나한	-15151
▁버니	-15152
▁양평	-15153
▁열악	-15154
▁예제	-15155
▁중남	-15156
▁칠성	-15157
▁학당	-15158
스크림	-15159
▁간호사	-15160
▁거주자	-15161
▁내보내	-15162
▁라스트	-15163
신저	-15164
황색	-15165
▁복부	-15166
▁산조	-15167
▁외삼	-15168
▁잉여	-15169
▁젠더	-15170
▁족장	-15171
▁축복	-15172
▁품목	-15173
▁하산	-15174
▁한복	-15175
▁ㄹㅏㅁ	-15176
▁순식간	-15177
▁천도교	-15178
me	-15179
바드	-15180
소문	-15181
ATO	-15182
ala	-15183
▁cc	-15184
▁동백	-15185
▁아끼	-15186
▁창구	-15187
▁키타	-15188
▁tvN	-15189
▁로페스	-15190
▁핵탄두	-15191
▁일렉트릭	-15192
▁멀티미디어	-15193
▁파푸아뉴기니	-15194
데일	-15195
큐슈	-15196
▁고층	-15197
▁기스	-15198
▁도형	-15199
▁사중	-15200
▁안팎	-15201
▁이문	-15202
▁일간	-15203
▁자성	-15204
▁침범	-15205
▁흔들	-15206
▁유명세	-15207
▁바이마르	-15208
▁슈퍼스타	-15209
▁우두머리	-15210
▁유니코드	-15211
▁콘퍼런스	-15212
▁멱	-15213
▁SR	-15214
▁뉴멕	-15215
▁발작	-15216
▁스펙	-15217
▁요직	-15218
▁조동	-15219
▁케리	-15220
ㅊㅏㄴ	-15221
▁김해시	-15222
▁손꼽히	-15223
▁안드레	-15224
▁조각가	-15225
▁테두리	-15226
▁뉴멕시코	-15227
▁클러스터	-15228
▁플루토늄	-15229
15	-15230
악산	-15231
▁대류	-15232
▁무가	-15233
▁솜씨	-15234
▁안심	-15235
▁잔혹	-15236
▁총영	-15237
▁쿠마	-15238
▁홍익	-15239
▁공주시	-15240
▁공학자	-15241
▁출판물	-15242
▁1874	-15243
스퍼	-15244
조사	-15245
피크	-15246
▁낭비	-15247
▁마늘	-15248
▁부엌	-15249
▁상한	-15250
▁이색	-15251
▁탄수	-15252
▁협곡	-15253
▁최성기	-15254
▁컨설팅	-15255
▁핸드볼	-15256
▁후쿠이	-15257
GB	-15258
ax	-15259
yn	-15260
▁퀄	-15261
oid	-15262
▁거시	-15263
▁리타	-15264
▁소론	-15265
▁싱크	-15266
▁요가	-15267
▁클랜	-15268
▁통솔	-15269
▁게임즈	-15270
▁교육감	-15271
▁안양시	-15272
▁트레일	-15273
▁휴대폰	-15274
▁This	-15275
▁잼	-15276
▁가뭄	-15277
▁강좌	-15278
▁넷플	-15279
▁레나	-15280
▁우표	-15281
▁줄곧	-15282
▁향수	-15283
▁회차	-15284
▁에스컬	-15285
▁지리산	-15286
▁넷플릭스	-15287
▁바그다드	-15288
▁컨퍼런스	-15289
▁ㄱㅗㄹㄹㅏ	-15290
▁에스컬레이터	-15291
▁GR	-15292
▁바니	-15293
▁베크	-15294
▁인스	-15295
▁전범	-15296
▁204	-15297
▁반대편	-15298
▁성폭력	-15299
ㅇㅜㄹㅇㅓ	-15300
▁ㅂㅜㄹㅌㅐ	-15301
운수	-15302
징어	-15303
▁송이	-15304
▁즐거	-15305
▁한겨	-15306
▁확충	-15307
▁Dra	-15308
▁동남쪽	-15309
▁부르봉	-15310
▁빼앗기	-15311
▁청문회	-15312
▁항공편	-15313
▁ㄱㅓㄴㄴㅔ	-15314
▁ㅁㅏㅌㄱㅕ	-15315
▁서아프리카	-15316
윽고	-15317
일기	-15318
프랑	-15319
▁다쿠	-15320
▁델리	-15321
▁몰수	-15322
▁에페	-15323
▁차오	-15324
▁행선	-15325
▁이윽고	-15326
▁저스틴	-15327
▁프레슬리	-15328
au	-15329
▁맴	-15330
혈구	-15331
ash	-15332
▁소양	-15333
▁코크	-15334
▁따라가	-15335
▁비잔틴	-15336
▁앞바다	-15337
▁허베이	-15338
▁오아시스	-15339
범죄	-15340
▁AF	-15341
▁눈치	-15342
▁일삼	-15343
▁캠벨	-15344
▁코로	-15345
▁코린	-15346
▁판명	-15347
ㅅㅜㄹ	-15348
▁개화파	-15349
net	-15350
▁경내	-15351
▁받치	-15352
▁소인	-15353
▁잔여	-15354
▁하지	-15355
▁APG	-15356
▁사하라	-15357
▁셀주크	-15358
▁책임지	-15359
▁1877	-15360
▁알렉산데르	-15361
▁쿰	-15362
더릭	-15363
▁무주	-15364
▁엄지	-15365
▁예멘	-15366
야누스	-15367
어들이	-15368
▁스타드	-15369
▁원주시	-15370
▁클로드	-15371
▁호소카와	-15372
ose	-15373
▁가온	-15374
▁문맥	-15375
▁바투	-15376
▁적법	-15377
▁루이즈	-15378
▁브리스	-15379
▁재미있	-15380
▁ㅇㅏㄴㄱㅕ	-15381
▁모치	-15382
▁산문	-15383
▁손목	-15384
▁인성	-15385
▁토바	-15386
▁트라야누스	-15387
22	-15388
를레	-15389
▁Mi	-15390
▁고승	-15391
▁레크	-15392
▁바야	-15393
▁법규	-15394
▁본존	-15395
▁블랑	-15396
▁제비	-15397
▁Bab	-15398
▁교육학	-15399
▁오리엔	-15400
▁갈릴레오	-15401
계약	-15402
비에	-15403
▁KS	-15404
▁격전	-15405
▁논증	-15406
▁복속	-15407
▁사연	-15408
▁소주	-15409
▁순찰	-15410
▁스플	-15411
▁아킬	-15412
▁원사	-15413
▁주군	-15414
▁CIA	-15415
▁아우르	-15416
▁포식자	-15417
▁7000	-15418
▁Best	-15419
▁프리큐어	-15420
▁ㄱㅓㄹㅇㅓ	-15421
co	-15422
양구	-15423
▁강국	-15424
▁라임	-15425
▁문물	-15426
▁서품	-15427
▁선단	-15428
▁소르	-15429
▁양천	-15430
▁재회	-15431
▁템플	-15432
▁퇴치	-15433
▁울트라	-15434
▁인류학	-15435
▁참전하	-15436
▁채무자	-15437
▁현미경	-15438
▁아우구스투스	-15439
ict	-15440
▁et	-15441
▁미트	-15442
▁사다리	-15443
▁서스펜	-15444
▁억제제	-15445
▁외계인	-15446
▁중거리	-15447
▁콜린스	-15448
▁한겨레	-15449
재판	-15450
▁ㅈㅐ	-15451
▁곤살	-15452
▁과세	-15453
▁놓치	-15454
▁로망	-15455
▁산술	-15456
▁처마	-15457
▁퇴진	-15458
▁게이밍	-15459
▁엘비스	-15460
▁여운형	-15461
▁캄파니아	-15462
제철	-15463
▁감축	-15464
▁거병	-15465
▁산체	-15466
▁시발	-15467
▁의제	-15468
▁차명	-15469
▁펭귄	-15470
ㅈㅇㅓ	-15471
▁경부선	-15472
▁아키텐	-15473
▁케이드	-15474
▁ㅇㅏㅍㅅㅔ	-15475
▁챠	-15476
토크	-15477
▁공문	-15478
▁도안	-15479
▁명왕	-15480
▁미겔	-15481
▁바젤	-15482
▁오구	-15483
▁제지	-15484
▁카일	-15485
▁해지	-15486
▁화염	-15487
▁화음	-15488
▁Her	-15489
▁강화군	-15490
▁오르간	-15491
▁한국군	-15492
▁다카하시	-15493
▁나투	-15494
▁도부	-15495
▁두뇌	-15496
▁롤러	-15497
▁밸브	-15498
▁숙명	-15499
▁승률	-15500
▁차역	-15501
▁1700	-15502
▁자이언트	-15503
▁카디널스	-15504
▁툼	-15505
로트	-15506
▁석권	-15507
▁아파치	-15508
▁관아	-15509
▁김주	-15510
▁미켈	-15511
▁방학	-15512
▁부식	-15513
▁산정	-15514
▁성조	-15515
▁요도	-15516
▁유창	-15517
▁인계	-15518
▁투사	-15519
▁빌바오	-15520
▁수백만	-15521
▁앙드레	-15522
▁연방군	-15523
▁이론가	-15524
▁콘티넨	-15525
▁1859	-15526
▁라이센스	-15527
▁만장일치	-15528
ps	-15529
장사	-15530
형제	-15531
EEE	-15532
▁가선	-15533
▁너희	-15534
▁네브	-15535
▁달력	-15536
▁뮐러	-15537
▁백운	-15538
▁볼드	-15539
▁선과	-15540
▁지령	-15541
▁메모리얼	-15542
▁자카르타	-15543
▁웜	-15544
고사	-15545
남면	-15546
마을	-15547
▁us	-15548
▁공병	-15549
▁니즈	-15550
▁도읍	-15551
▁리안	-15552
▁민원	-15553
▁백지	-15554
▁앞뒤	-15555
▁태화	-15556
▁순천시	-15557
▁클레오	-15558
▁통계학	-15559
▁혼합물	-15560
나시	-15561
란다	-15562
▁결장	-15563
▁무공	-15564
▁블룸	-15565
▁중건	-15566
▁함장	-15567
▁루카스	-15568
▁트레인	-15569
▁ㅉㅗㅊㅇㅏ	-15570
▁ㄷㅗㄹㄹㅕㅆ	-15571
티지	-15572
▁YG	-15573
▁나일	-15574
▁대입	-15575
▁변론	-15576
▁재물	-15577
▁테헤	-15578
▁통찰	-15579
▁518	-15580
▁625	-15581
▁우에노	-15582
▁출장소	-15583
▁레닌주의	-15584
▁사무라이	-15585
버터	-15586
완다	-15587
uck	-15588
▁구전	-15589
▁뚜껑	-15590
▁발판	-15591
▁사병	-15592
▁산재	-15593
▁여정	-15594
▁예금	-15595
▁완장	-15596
▁폐차	-15597
▁푸젠	-15598
▁플랑	-15599
▁아놀드	-15600
▁테크놀로지	-15601
▁경합	-15602
▁이창	-15603
▁지크	-15604
▁튜링	-15605
▁가우스	-15606
▁바스크	-15607
▁향신료	-15608
▁미야기현	-15609
▁스테파노	-15610
ㅇㅗㄹㄹㅕㅆ	-15611
▁뉴클레오타이드	-15612
매기	-15613
스톤	-15614
▁se	-15615
▁곡식	-15616
▁박찬	-15617
▁상설	-15618
▁정역	-15619
▁츠카	-15620
▁기념장	-15621
▁이케다	-15622
HL	-15623
정변	-15624
▁김도	-15625
▁두르	-15626
▁북인	-15627
▁왕당	-15628
▁주포	-15629
▁피자	-15630
▁후견	-15631
▁개최지	-15632
▁직사각	-15633
▁아이스크림	-15634
de	-15635
▁뮈	-15636
▁켐	-15637
투리	-15638
▁레티	-15639
▁앨라	-15640
▁율리	-15641
▁하후	-15642
게이트	-15643
▁대혁명	-15644
▁갑작스럽	-15645
동원	-15646
무장	-15647
▁모교	-15648
▁발광	-15649
▁베다	-15650
▁보어	-15651
▁산남	-15652
▁원점	-15653
▁입찰	-15654
▁코이	-15655
▁홀수	-15656
▁화소	-15657
레틱스	-15658
▁개막식	-15659
▁곧이어	-15660
▁미성년	-15661
▁미트라	-15662
▁IEEE	-15663
▁서바이벌	-15664
▁애슬레틱스	-15665
▁구가	-15666
▁사산	-15667
▁상감	-15668
▁수프	-15669
▁오와	-15670
▁제니퍼	-15671
▁페스트	-15672
HC	-15673
▁^	-15674
▁펙	-15675
과학	-15676
댓값	-15677
주사	-15678
패드	-15679
▁로디	-15680
▁리언	-15681
▁발터	-15682
▁변성	-15683
▁사생	-15684
▁서체	-15685
▁장경	-15686
▁전봉	-15687
▁총감	-15688
▁무신론	-15689
▁바빌론	-15690
▁카리스	-15691
▁로코	-15692
▁양지	-15693
▁헬스	-15694
▁화풍	-15695
▁ㄲㅡㅀ	-15696
▁결의안	-15697
▁브레멘	-15698
▁빈센트	-15699
▁서태지	-15700
▁순교자	-15701
▁쓰촨성	-15702
▁이치현	-15703
▁찾아오	-15704
▁탈레반	-15705
TF	-15706
oo	-15707
▁FF	-15708
▁경원	-15709
▁담양	-15710
▁로보	-15711
▁북측	-15712
▁사와	-15713
▁아누	-15714
▁어학	-15715
▁정청	-15716
▁학창	-15717
reak	-15718
▁난쟁이	-15719
▁아이치	-15720
▁국가원수	-15721
▁크리스틴	-15722
ㅇㅓㄴㄱㅏ	-15723
▁무형문화재	-15724
그램	-15725
장조	-15726
크리	-15727
티어	-15728
▁김우	-15729
▁뉴잉	-15730
▁상환	-15731
▁섹션	-15732
▁속국	-15733
ㅂㅅㅣ	-15734
공화당	-15735
▁340	-15736
▁가치관	-15737
▁목표물	-15738
▁환승역	-15739
▁선거관리	-15740
▁아드리아	-15741
▁민주공화당	-15742
▁선거관리위원회	-15743
나주	-15744
학파	-15745
▁김학	-15746
▁매기	-15747
▁억울	-15748
▁전서	-15749
▁퇴출	-15750
▁후회	-15751
▁셰퍼드	-15752
▁슈투트	-15753
▁그래픽스	-15754
▁Super	-15755
▁슈투트가르트	-15756
르바	-15757
▁군기	-15758
▁조회	-15759
▁헤라	-15760
▁후면	-15761
▁310	-15762
▁로스트	-15763
▁마코토	-15764
▁선제후	-15765
▁이주민	-15766
▁정착지	-15767
▁고바야시	-15768
▁사이클론	-15769
ㅉㅣ	-15770
ail	-15771
▁미러	-15772
▁수질	-15773
▁시력	-15774
▁왕명	-15775
▁우니	-15776
▁이만	-15777
▁진천	-15778
▁개척자	-15779
▁로저스	-15780
▁볼프강	-15781
▁아미타불	-15782
주석	-15783
▁베가	-15784
▁알로	-15785
▁자갈	-15786
▁자백	-15787
▁짝수	-15788
▁철기	-15789
▁청정	-15790
▁길거리	-15791
▁레이건	-15792
▁원정대	-15793
▁ㅂㅜㄹㄹㅣㄹ	-15794
▁관위	-15795
▁나바	-15796
▁도끼	-15797
▁만류	-15798
▁사탄	-15799
▁특명	-15800
▁하층	-15801
▁호국	-15802
▁희미	-15803
▁합병증	-15804
▁소아시아	-15805
▁뉴올리언스	-15806
▁매사추세츠주	-15807
다보	-15808
vel	-15809
▁구라	-15810
▁금관	-15811
▁멜라	-15812
▁무진	-15813
▁버밍	-15814
▁선별	-15815
▁수구	-15816
▁수주	-15817
▁어선	-15818
▁오인	-15819
▁터스	-15820
▁평하	-15821
▁기생충	-15822
▁라그랑	-15823
▁Star	-15824
▁모니터링	-15825
▁ㅅㅏㄴㅈㅣ	-15826
▁ㄸㅓㄹㅊㅕㅆ	-15827
디드	-15828
▁as	-15829
▁거문	-15830
▁과달	-15831
▁관군	-15832
▁교감	-15833
▁용맹	-15834
▁국내선	-15835
▁대관식	-15836
▁실린더	-15837
▁울주군	-15838
▁해인사	-15839
OK	-15840
니언	-15841
▁결여	-15842
▁로런	-15843
▁문건	-15844
▁박경	-15845
▁발진	-15846
▁보국	-15847
▁안주	-15848
▁양동	-15849
▁일면	-15850
하마드	-15851
▁오슬로	-15852
▁이광수	-15853
▁지석묘	-15854
조류	-15855
▁ad	-15856
▁근간	-15857
▁무위	-15858
▁세제	-15859
▁아칸	-15860
▁연해	-15861
▁원만	-15862
▁퀸스	-15863
▁ㅁㅏㅇ	-15864
▁단말기	-15865
▁분류학	-15866
▁한자어	-15867
▁ICBM	-15868
▁Soul	-15869
▁짚	-15870
ㅇㅢ	-15871
버라	-15872
▁모션	-15873
▁승낙	-15874
▁타밀	-15875
▁209	-15876
▁Sun	-15877
▁아이파크	-15878
▁뉴잉글랜드	-15879
구미	-15880
iel	-15881
▁도매	-15882
▁로컬	-15883
▁맹렬	-15884
▁손수	-15885
▁의인	-15886
▁커브	-15887
▁토프	-15888
▁App	-15889
▁아스카	-15890
▁파르마	-15891
▁1812	-15892
▁쑹	-15893
배마	-15894
의식	-15895
플레	-15896
▁Kn	-15897
▁my	-15898
▁닷컴	-15899
▁스완	-15900
▁아호	-15901
▁유틸	-15902
▁추밀	-15903
▁추장	-15904
▁타파	-15905
▁탄두	-15906
▁피그	-15907
▁호화	-15908
▁교황령	-15909
▁앨라배마	-15910
▁유틸리티	-15911
▁후쿠시마현	-15912
EA	-15913
▁공석	-15914
▁김덕	-15915
▁다윗	-15916
▁명륜	-15917
▁부락	-15918
▁샤오	-15919
▁수문	-15920
▁스쿼	-15921
▁투니	-15922
▁르완다	-15923
▁송진우	-15924
▁에세이	-15925
▁에이지	-15926
▁콘스탄티누스	-15927
▁끔	-15928
도감	-15929
▁공경	-15930
▁교인	-15931
▁매듭	-15932
▁보디	-15933
▁센타	-15934
▁통감	-15935
▁평방	-15936
▁호이	-15937
▁you	-15938
▁ㅅㅜㄴ	-15939
▁대사간	-15940
▁안철수	-15941
59	-15942
샤오	-15943
ray	-15944
▁ON	-15945
▁개경	-15946
▁금기	-15947
▁산인	-15948
▁주유	-15949
▁ㅍㅏㄹ	-15950
▁셀레우	-15951
▁예문관	-15952
▁자오선	-15953
▁주거지	-15954
▁테헤란	-15955
탄올	-15956
▁강유	-15957
▁금천	-15958
▁상층	-15959
▁속초	-15960
▁유계	-15961
▁충동	-15962
하우스	-15963
▁206	-15964
▁윤치영	-15965
▁자치현	-15966
▁베르사유	-15967
▁헬레니즘	-15968
▁ㅈㅏㅂㅎㅣㄴ	-15969
▁HP	-15970
▁근위	-15971
▁기권	-15972
▁메드	-15973
▁천적	-15974
▁청일	-15975
▁포상	-15976
▁공성전	-15977
▁디에고	-15978
▁삼거리	-15979
▁인산화	-15980
▁중앙일보	-15981
▁IF	-15982
▁걸스	-15983
▁나시	-15984
▁도파	-15985
▁동급	-15986
▁법상	-15987
▁유보	-15988
▁이건	-15989
▁장지	-15990
▁정실	-15991
▁ㅍㅕㄴ	-15992
▁오토바이	-15993
▁Christ	-15994
초프	-15995
▁DO	-15996
▁Mr	-15997
▁맞배	-15998
▁예보	-15999
▁장강	-16000
▁지카	-16001
▁항문	-16002
▁에이브	-16003
▁조봉암	-16004
▁안토니우스	-16005
RI	-16006
ute	-16007
▁관개	-16008
▁노마	-16009
▁루손	-16010
▁부기	-16011
▁산동	-16012
▁수라	-16013
▁안면	-16014
▁울루	-16015
▁장이	-16016
▁코우	-16017
▁콜론	-16018
▁패자	-16019
▁남북조	-16020
▁아니면	-16021
▁자본가	-16022
▁조광조	-16023
▁John	-16024
▁알렉세이	-16025
ㄷㅜㄹㄹㅓ	-16026
ㅅㅓㄴㄷㅏ	-16027
▁ㄴㅓㄼㅎㅕ	-16028
네오	-16029
방스	-16030
▁넓히	-16031
▁지검	-16032
▁카보	-16033
▁여수시	-16034
▁음식점	-16035
▁접미사	-16036
▁태블릿	-16037
▁북대서양	-16038
▁ㅎㅟㅂㅆㅏ	-16039
gh	-16040
▁굶	-16041
▁뽀	-16042
▁도자	-16043
▁배타	-16044
▁영도	-16045
▁이코	-16046
▁자석	-16047
▁점토	-16048
▁하강	-16049
▁록히드	-16050
▁조르주	-16051
팩스	-16052
▁PA	-16053
▁Tw	-16054
▁갑신	-16055
▁교재	-16056
▁귀순	-16057
▁로지	-16058
▁빨강	-16059
▁소포	-16060
▁수족	-16061
▁식이	-16062
▁천자	-16063
▁해주	-16064
로세서	-16065
시아키	-16066
▁ㅆㅓㄴ	-16067
▁대대장	-16068
▁백두산	-16069
▁보이즈	-16070
▁의병장	-16071
▁건국훈장	-16072
16	-16073
▁루드	-16074
▁반정	-16075
▁사파	-16076
▁컬링	-16077
▁효능	-16078
▁747	-16079
▁주제가	-16080
네프	-16081
면적	-16082
분투	-16083
▁당상	-16084
▁머큐	-16085
▁아람	-16086
▁인척	-16087
▁조던	-16088
▁춘계	-16089
▁풀이	-16090
ㄱㅇㅕ	-16091
▁대제학	-16092
▁독재자	-16093
▁안데스	-16094
▁엄청나	-16095
▁영사관	-16096
▁1879	-16097
▁아브라함	-16098
▁얄	-16099
▁익히	-16100
▁총생	-16101
▁휴일	-16102
▁로널드	-16103
▁사우디	-16104
▁피어스	-16105
▁막시밀리	-16106
스레	-16107
▁NM	-16108
▁대여	-16109
▁듀스	-16110
▁세밀	-16111
▁양념	-16112
▁양원	-16113
▁우기	-16114
▁진심	-16115
▁초식	-16116
▁카토	-16117
▁현수	-16118
▁황위	-16119
▁420	-16120
▁선수상	-16121
▁카지노	-16122
▁ㄱㅏㄷㅎㅕ	-16123
▁썸	-16124
바퀴	-16125
티보	-16126
▁게놈	-16127
▁범람	-16128
▁스킨	-16129
▁집적	-16130
▁카펠	-16131
▁항생제	-16132
17	-16133
▁름	-16134
구나	-16135
반정	-16136
블릭	-16137
산업	-16138
슐리	-16139
여지	-16140
▁구비	-16141
▁대방	-16142
▁방탄	-16143
▁유세	-16144
▁폐하	-16145
▁폴로	-16146
▁CoA	-16147
▁ㄱㅕㅌ	-16148
▁고지대	-16149
▁제이크	-16150
▁불법행위	-16151
▁가창	-16152
▁두부	-16153
▁클럭	-16154
▁한하	-16155
▁호시	-16156
ㅁㅕㅆ	-16157
라이스	-16158
▁des	-16159
▁글리제	-16160
▁레코딩	-16161
▁무사시	-16162
▁아이작	-16163
▁연대장	-16164
▁트리스	-16165
▁ㅁㅗㄹㄹㅏ	-16166
▁꽝	-16167
자드	-16168
▁국문	-16169
▁군마	-16170
▁반달	-16171
▁불문	-16172
▁유상	-16173
▁의논	-16174
▁조우	-16175
▁쿠시	-16176
▁할구	-16177
▁석회암	-16178
▁오메가	-16179
리아누스	-16180
▁일렉트로닉	-16181
YP	-16182
▁썰	-16183
▁쿵	-16184
▁김시	-16185
▁단수	-16186
▁라쿠	-16187
▁반납	-16188
▁부트	-16189
▁시영	-16190
▁임실	-16191
▁카다	-16192
▁힐스	-16193
▁사가미	-16194
▁페이퍼	-16195
연맹	-16196
화산	-16197
▁규합	-16198
▁영종	-16199
▁카파	-16200
를레앙	-16201
▁ㅅㅐㄴ	-16202
▁ㅇㅘㄴ	-16203
▁게이오	-16204
▁리그컵	-16205
▁바닷가	-16206
▁암스트	-16207
▁여행자	-16208
▁테크노	-16209
▁고후	-16210
▁동맥	-16211
▁리퍼	-16212
▁모태	-16213
▁소량	-16214
▁스텐	-16215
▁위축	-16216
▁이설	-16217
▁인삼	-16218
▁커리	-16219
▁투병	-16220
ㄹㄹㅗ	-16221
링크	-16222
선교	-16223
▁농담	-16224
▁동대	-16225
▁두스	-16226
▁시타	-16227
▁중등	-16228
▁체리	-16229
▁ㅊㅜㄴ	-16230
▁산투스	-16231
▁알칼리	-16232
▁여러분	-16233
▁파르티아	-16234
▁퀼	-16235
대비	-16236
VID	-16237
▁Gu	-16238
▁권투	-16239
▁노역	-16240
▁딱딱	-16241
▁양정	-16242
▁유민	-16243
▁자네	-16244
▁최용	-16245
▁개개인	-16246
▁포틀랜드	-16247
ㄲㅣㄴㄷㅏ	-16248
ㄷㅓ	-16249
ull	-16250
▁사목	-16251
▁유관	-16252
▁일보	-16253
▁코인	-16254
▁호적	-16255
▁광합성	-16256
▁니가타	-16257
▁베이직	-16258
▁접근성	-16259
▁타지키스탄	-16260
수지	-16261
신보	-16262
ual	-16263
▁과감	-16264
▁니치	-16265
▁반향	-16266
▁불능	-16267
▁상이	-16268
▁열람	-16269
▁전열	-16270
▁정맥	-16271
▁처칠	-16272
▁타라	-16273
▁할로	-16274
리오스	-16275
▁Per	-16276
▁기울이	-16277
▁변호인	-16278
바이러스	-16279
ㄴㅜㄴㄷㅏ	-16280
▁Record	-16281
▁ㄲㅚ	-16282
▁남경	-16283
▁압수	-16284
▁앙상	-16285
▁원한	-16286
▁자존	-16287
▁차차	-16288
▁항전	-16289
▁해커	-16290
▁국방군	-16291
▁스텔스	-16292
▁영화관	-16293
▁원종공신	-16294
▁크리스탈	-16295
일체	-16296
▁강가	-16297
▁부화	-16298
▁애호	-16299
▁요셉	-16300
▁화이	-16301
▁환산	-16302
▁440	-16303
▁스위트	-16304
▁주머니쥐	-16305
▁ㅂㅜㅌㅈㅏㅂㅎㅕ	-16306
▁나토	-16307
▁리노	-16308
▁미타	-16309
▁신익	-16310
▁아역	-16311
▁응력	-16312
▁이한	-16313
▁증축	-16314
▁후추	-16315
ㄴㅣㅁ	-16316
▁그러면	-16317
▁기본법	-16318
▁버스터	-16319
▁잠비아	-16320
ㅁㅏㅇㅊㅕ	-16321
▁아우구스트	-16322
▁ㅈㅏㅂㅎㅕㅆ	-16323
▁쑨	-16324
다임	-16325
▁po	-16326
▁광시	-16327
▁도나	-16328
▁수아	-16329
▁용역	-16330
▁킬러	-16331
▁풍요	-16332
▁수영장	-16333
▁양산시	-16334
▁다마스쿠스	-16335
길준	-16336
울루	-16337
장군	-16338
피카	-16339
▁"|	-16340
▁교명	-16341
▁궁주	-16342
▁끔찍	-16343
▁능숙	-16344
▁무겁	-16345
▁빛깔	-16346
▁성현	-16347
▁용문	-16348
▁제방	-16349
▁타선	-16350
▁투기	-16351
▁파출	-16352
▁군주제	-16353
▁바실리	-16354
▁엔리케	-16355
▁유기체	-16356
▁print	-16357
▁엔지니어링	-16358
▁public	-16359
▁ㅈㅓㄱㅎㅣㄴ	-16360
▁ㅈㅜㄱㅇㅣㄹ	-16361
레미	-16362
자나	-16363
태자	-16364
▁MD	-16365
▁논평	-16366
▁대등	-16367
▁바바	-16368
▁영성	-16369
▁왕녀	-16370
▁쿠루	-16371
로그램	-16372
▁실리콘	-16373
▁엘리스	-16374
▁오우치	-16375
쿠치	-16376
▁KD	-16377
▁교학	-16378
▁문어	-16379
▁사나	-16380
▁성자	-16381
▁이석	-16382
▁제고	-16383
▁트램	-16384
▁Win	-16385
▁재결합	-16386
▁클라리	-16387
▁패러다임	-16388
▁노엘	-16389
▁라사	-16390
▁북마	-16391
▁아루	-16392
▁역동	-16393
▁열거	-16394
▁자각	-16395
▁코니	-16396
▁콜리	-16397
▁택하	-16398
▁환초	-16399
▁256	-16400
▁바레인	-16401
▁본거지	-16402
▁시에라	-16403
▁야구부	-16404
▁오토모	-16405
▁플래닛	-16406
덕궁	-16407
▁CA	-16408
▁nm	-16409
▁균등	-16410
▁동두	-16411
▁성형	-16412
▁시온	-16413
▁유미	-16414
▁은평	-16415
▁접목	-16416
▁피질	-16417
▁디스코	-16418
▁랴오닝	-16419
▁비행사	-16420
▁스태프	-16421
▁엘리엇	-16422
▁여주인	-16423
▁카스텔	-16424
▁캅카스	-16425
▁허버트	-16426
데오	-16427
발트	-16428
스틱	-16429
황제	-16430
RNA	-16431
▁담수	-16432
▁레저	-16433
▁성교	-16434
▁소진	-16435
▁오차	-16436
▁이보	-16437
▁전곡	-16438
▁종실	-16439
▁911	-16440
▁제시카	-16441
▁2500	-16442
▁리치먼드	-16443
25	-16444
무지	-16445
▁감당	-16446
▁기피	-16447
▁무패	-16448
▁사스	-16449
▁스팀	-16450
▁에다	-16451
▁우타	-16452
▁코일	-16453
▁머큐리	-16454
▁왕당파	-16455
▁조용히	-16456
▁초고층	-16457
▁대법원장	-16458
▁군도	-16459
▁금리	-16460
▁내시	-16461
▁농협	-16462
▁리지	-16463
▁명동	-16464
▁비싸	-16465
▁호찌	-16466
▁유도탄	-16467
▁천문단위	-16468
포리	-16469
▁'.	-16470
▁온전	-16471
▁카츠	-16472
▁리바이	-16473
▁예비군	-16474
▁이세이	-16475
높이	-16476
▁개표	-16477
▁고난	-16478
▁노름	-16479
▁당장	-16480
▁왕릉	-16481
▁히코	-16482
고로드	-16483
ogle	-16484
▁Str	-16485
▁즐거움	-16486
▁콜라보	-16487
▁후유증	-16488
▁리바운드	-16489
▁ㄴㅜㄹㄹㅓ	-16490
▁아미타여래	-16491
▁ㅇㅣㅂㅎㅕㅆ	-16492
평면	-16493
▁담임	-16494
▁동체	-16495
▁매복	-16496
▁무루	-16497
▁사체	-16498
▁안시	-16499
▁왕좌	-16500
▁원곡	-16501
▁드래곤즈	-16502
ll	-16503
ty	-16504
무트	-16505
커우	-16506
▁강자	-16507
▁상회	-16508
▁아구	-16509
▁접시	-16510
▁정직	-16511
ㅇㅊㅣ	-16512
▁ㅇㅓㄹ	-16513
▁잠재력	-16514
▁프리드	-16515
▁프린세스	-16516
▁ㄴㅗㅎㅇㅕㅆ	-16517
능력	-16518
▁NA	-16519
▁기한	-16520
▁마다	-16521
▁무소	-16522
▁실베	-16523
▁중신	-16524
▁향로	-16525
던지기	-16526
▁Hot	-16527
▁길버트	-16528
▁렌더링	-16529
▁브루노	-16530
▁브릿지	-16531
는점	-16532
스텐	-16533
자락	-16534
▁HS	-16535
▁광동	-16536
▁셔츠	-16537
▁소노	-16538
▁애프	-16539
▁연하	-16540
▁커넥	-16541
▁파피	-16542
▁행운	-16543
▁호지	-16544
▁호투	-16545
▁208	-16546
▁주둔지	-16547
▁춘천시	-16548
▁페르시	-16549
▁Ke	-16550
▁멘델	-16551
▁미녀	-16552
▁부안	-16553
▁석재	-16554
▁아로	-16555
▁현관	-16556
▁사무엘	-16557
▁사천왕	-16558
▁총생산	-16559
▁추축국	-16560
▁토론회	-16561
▁프로필	-16562
▁캥	-16563
로로	-16564
▁mu	-16565
▁따지	-16566
▁마거	-16567
▁신천	-16568
▁악어	-16569
▁양구	-16570
▁이크	-16571
▁진성	-16572
▁촐라	-16573
▁치킨	-16574
▁함의	-16575
▁고스트	-16576
▁사망률	-16577
▁예수교	-16578
▁제품군	-16579
▁1789	-16580
▁Back	-16581
▁플랑드르	-16582
ㅁㅏㄹㄹㅗ	-16583
▁ㅣ	-16584
어놓	-16585
제사	-16586
훈련	-16587
▁가전	-16588
▁고독	-16589
▁승마	-16590
▁조율	-16591
▁지브	-16592
▁칠곡	-16593
▁탈피	-16594
▁트론	-16595
▁고다이	-16596
▁앙상블	-16597
▁영문학	-16598
▁오이타	-16599
▁유길준	-16600
▁제주시	-16601
▁조연상	-16602
▁1801	-16603
▁ㄱㅏㅇㅎㅐㅆ	-16604
▁ㅅㅓㄲㅇㅣㄴ	-16605
▁쐐	-16606
▁찢	-16607
▁가결	-16608
▁바타	-16609
▁생김	-16610
레이즈	-16611
▁1400	-16612
▁기타큐슈	-16613
▁독립선언	-16614
▁탄수화물	-16615
로움	-16616
▁거품	-16617
▁제타	-16618
▁진위	-16619
▁코딩	-16620
▁225	-16621
▁ㅌㅏㅆ	-16622
▁아르테	-16623
▁요나라	-16624
▁지극히	-16625
▁비로자나	-16626
▁암스트롱	-16627
인산	-16628
▁Fl	-16629
▁교내	-16630
▁세타	-16631
▁쐐기	-16632
▁오웬	-16633
▁중학	-16634
▁침수	-16635
▁타키	-16636
스트림	-16637
프리드	-16638
▁웨슬리	-16639
▁조제프	-16640
▁페라리	-16641
▁ㅈㅡㄹㄱㅕㅆ	-16642
▁NL	-16643
▁구애	-16644
▁느슨	-16645
▁미디	-16646
▁사조	-16647
▁실책	-16648
▁여관	-16649
▁윤곽	-16650
ames	-16651
▁Get	-16652
▁네바다	-16653
▁디아스	-16654
▁마운틴	-16655
▁영장류	-16656
▁후반전	-16657
▁Kore	-16658
▁해수욕장	-16659
▁ㅇㅡㄹㅅㅜ	-16660
▁베오그라드	-16661
▁DA	-16662
▁그릴	-16663
▁누마	-16664
▁대용	-16665
▁약품	-16666
▁우디	-16667
▁유독	-16668
▁초석	-16669
▁총국	-16670
▁카인	-16671
▁370	-16672
▁슈트라	-16673
▁NATO	-16674
▁ㄴㅏㄹㄹㅕㅆ	-16675
GO	-16676
▁킵	-16677
▁봉분	-16678
▁생장	-16679
▁안건	-16680
▁운석	-16681
▁작자	-16682
▁채집	-16683
▁철근	-16684
lect	-16685
▁MIT	-16686
▁ㅇㅓㅇ	-16687
▁남아공	-16688
▁매니아	-16689
▁오리건	-16690
▁남한산성	-16691
▁미식축구	-16692
▁Intern	-16693
▁ㅇㅗㄹㄹㅣㅁ	-16694
▁렬	-16695
라과	-16696
모닉	-16697
이상	-16698
let	-16699
ors	-16700
▁관저	-16701
▁균열	-16702
▁득실	-16703
▁박태	-16704
▁쌍용	-16705
▁정중	-16706
▁탄성	-16707
▁흡입	-16708
▁내몽골	-16709
▁양평군	-16710
▁호기심	-16711
▁이성질체	-16712
▁항공우주	-16713
▁슈트라우스	-16714
불명	-16715
▁BO	-16716
▁깊숙	-16717
▁끌어	-16718
▁내기	-16719
▁먼로	-16720
▁안락	-16721
▁예편	-16722
▁탄력	-16723
▁GPS	-16724
▁로런스	-16725
▁생산자	-16726
▁판매고	-16727
그라운드	-16728
UM	-16729
ox	-16730
ove	-16731
▁BB	-16732
▁강타	-16733
▁관원	-16734
▁교란	-16735
▁구명	-16736
▁니트	-16737
▁도화	-16738
▁미로	-16739
▁즉흥	-16740
▁초판	-16741
▁코디	-16742
▁메신저	-16743
▁방법론	-16744
▁생물학자	-16745
경찰	-16746
▁군량	-16747
▁극회	-16748
▁던전	-16749
▁동률	-16750
▁발열	-16751
▁신궁	-16752
▁첫날	-16753
▁출정	-16754
▁브루크	-16755
▁이지스	-16756
▁가변	-16757
▁군림	-16758
▁민선	-16759
▁사일	-16760
▁승선	-16761
▁에픽	-16762
▁워낙	-16763
▁천태	-16764
▁최순	-16765
▁표어	-16766
▁흉내	-16767
▁다행히	-16768
▁미요시	-16769
▁민의원	-16770
▁와이어	-16771
▁유물론	-16772
▁태양광	-16773
▁ㅇㅏㄴㄷㅏ	-16774
▁ㅇㅕㅅㅂㅗㄹ	-16775
레븐	-16776
투르	-16777
▁거머	-16778
▁레반	-16779
▁보아	-16780
▁열기	-16781
▁의대	-16782
▁전과	-16783
▁청중	-16784
▁후난	-16785
▁Mag	-16786
▁기네스	-16787
▁디렉터	-16788
▁붉은색	-16789
▁쌍방울	-16790
ㅂㅐ	-16791
▁국산	-16792
▁기일	-16793
▁노골	-16794
▁베아	-16795
▁제헌	-16796
▁부천시	-16797
▁블러드	-16798
▁사법부	-16799
▁알베르	-16800
▁전망대	-16801
▁클라인	-16802
ology	-16803
▁니카라과	-16804
▁레오나르	-16805
▁리하르트	-16806
▁모노이드	-16807
▁선거인단	-16808
▁셀레우코스	-16809
▁둠	-16810
락부	-16811
▁강구	-16812
▁군위	-16813
▁김장	-16814
▁브이	-16815
▁사옥	-16816
▁수화	-16817
▁장승	-16818
▁폭주	-16819
▁동일시	-16820
▁방문객	-16821
▁범어사	-16822
▁최진실	-16823
▁이마가와	-16824
▁ㅌㅗㅇㅊㅣ	-16825
덱스	-16826
빨리	-16827
심원	-16828
▁OK	-16829
▁궁수	-16830
▁도식	-16831
▁면하	-16832
▁지회	-16833
▁카노	-16834
▁캔터	-16835
▁키치	-16836
▁하세	-16837
▁핼리	-16838
▁나카노	-16839
▁시나노	-16840
▁지포스	-16841
ature	-16842
▁결투	-16843
▁성부	-16844
▁악의	-16845
▁유재	-16846
▁출항	-16847
▁통킹	-16848
▁풋살	-16849
▁피시	-16850
inal	-16851
▁넘어서	-16852
▁마거릿	-16853
▁신안군	-16854
▁체육회	-16855
▁혈액형	-16856
노스아이	-16857
▁Baby	-16858
▁돼지고기	-16859
▁안티오키아	-16860
노스아이레스	-16861
▁부에노스아이레스	-16862
박이	-16863
enn	-16864
▁SG	-16865
▁겨냥	-16866
▁깨지	-16867
▁비고	-16868
▁생포	-16869
▁어인	-16870
▁연어	-16871
▁오랑	-16872
▁주스	-16873
▁카불	-16874
▁황하	-16875
▁효모	-16876
▁광주시	-16877
▁디나모	-16878
▁인문학	-16879
▁펼쳐지	-16880
▁서귀포시	-16881
TN	-16882
파니	-16883
▁나날	-16884
▁누에	-16885
▁도보	-16886
▁책정	-16887
▁캡틴	-16888
▁탄광	-16889
▁효성	-16890
코비치	-16891
▁365	-16892
▁감마선	-16893
▁리그전	-16894
▁베테랑	-16895
▁어드밴	-16896
▁이치로	-16897
▁게오르기	-16898
▁트로츠키	-16899
▁ㅂㅕㄴㅎㅐㅆ	-16900
▁씬	-16901
남동	-16902
▁고관	-16903
▁공훈	-16904
▁로만	-16905
▁박동	-16906
▁변조	-16907
▁세도	-16908
▁수선	-16909
▁장론	-16910
▁출병	-16911
▁호박	-16912
▁호전	-16913
피에르	-16914
▁ㅍㅡㄹ	-16915
▁급속도	-16916
▁김종직	-16917
▁부사장	-16918
▁요시카	-16919
▁주세페	-16920
▁에두아르	-16921
▁프레더릭	-16922
▁ㅇㅜㅁㅈㅣㄱㅇㅣㅁ	-16923
마니	-16924
백색	-16925
오드	-16926
월드	-16927
의금	-16928
▁PH	-16929
▁경산	-16930
▁다채	-16931
▁리라	-16932
▁매튜	-16933
▁비방	-16934
▁야만	-16935
▁ㅁㅏㄹ	-16936
▁아열대	-16937
▁포인터	-16938
▁한정판	-16939
▁해수면	-16940
▁라이온스	-16941
FS	-16942
득점	-16943
민정	-16944
▁SW	-16945
▁라테	-16946
▁만물	-16947
▁사계	-16948
▁서곡	-16949
▁습도	-16950
▁어둡	-16951
▁재심	-16952
▁전극	-16953
▁체질	-16954
▁하츠	-16955
말라야	-16956
▁Res	-16957
▁다카시	-16958
▁두더지	-16959
▁리카르	-16960
▁스트라	-16961
▁프린터	-16962
▁필리스	-16963
▁가령	-16964
▁공평	-16965
▁꾸미	-16966
▁대소	-16967
▁듀엣	-16968
▁성찬	-16969
▁알마	-16970
▁에뮬	-16971
▁창씨	-16972
▁합장	-16973
▁강릉시	-16974
▁스펜서	-16975
▁Amer	-16976
▁System	-16977
24	-16978
금속	-16979
나비	-16980
무실	-16981
app	-16982
▁공지	-16983
▁도난	-16984
▁명장	-16985
▁명중	-16986
▁무쓰	-16987
▁베라	-16988
▁북송	-16989
▁시편	-16990
▁에든	-16991
▁월경	-16992
▁잔치	-16993
▁장서	-16994
▁동북부	-16995
▁만주족	-16996
▁에든버러	-16997
▁ㅎㅐㅇㅎㅏㄴ	-16998
za	-16999
메랄	-17000
즈미	-17001
현실	-17002
▁갑오	-17003
▁개축	-17004
▁격침	-17005
▁고취	-17006
▁도량	-17007
▁모질	-17008
▁봉헌	-17009
▁불길	-17010
▁설과	-17011
▁약수	-17012
▁옵티	-17013
▁윈드	-17014
▁유익	-17015
▁증류	-17016
▁춘향	-17017
▁해머	-17018
▁흑색	-17019
이즈미	-17020
▁207	-17021
▁농민군	-17022
▁대학살	-17023
▁라이드	-17024
▁야행성	-17025
▁타일러	-17026
▁서대문구	-17027
ㄷㅏㄹㄹㅕ	-17028
로프로세서	-17029
▁마이크로프로세서	-17030
ㄲㅗ	-17031
입자	-17032
▁Cr	-17033
▁개리	-17034
▁깁슨	-17035
▁살레	-17036
▁에인	-17037
▁외가	-17038
▁풍기	-17039
▁학도	-17040
▁무정부	-17041
▁유공자	-17042
▁이유로	-17043
▁로베르트	-17044
ㅇㅜㄹㅇㅕㅆ	-17045
시카	-17046
컨드	-17047
ina	-17048
▁Dr	-17049
▁김은	-17050
▁레르	-17051
▁롤리	-17052
▁양위	-17053
▁유감	-17054
▁조너	-17055
▁트롤	-17056
▁알레산	-17057
▁히말라야	-17058
▁아르바이트	-17059
▁쪼	-17060
광사	-17061
▁격화	-17062
▁리서	-17063
▁모잠	-17064
▁스틱	-17065
▁신안	-17066
▁아약	-17067
▁장차	-17068
▁직각	-17069
▁필로	-17070
▁한라	-17071
ater	-17072
▁Dis	-17073
▁War	-17074
▁시아파	-17075
▁전동기	-17076
▁조합원	-17077
▁트랜싯	-17078
▁페레스	-17079
▁리얼리티	-17080
▁모잠비크	-17081
▁낸	-17082
니츠	-17083
▁기주	-17084
▁맞닿	-17085
▁소켓	-17086
▁솔직	-17087
▁조엘	-17088
▁특위	-17089
▁TOP	-17090
▁국무부	-17091
▁압둘라	-17092
▁지방도	-17093
▁1815	-17094
▁1820	-17095
▁오스트로	-17096
▁레닌그라드	-17097
▁폴리네시아	-17098
자유	-17099
ons	-17100
▁결렬	-17101
▁결집	-17102
▁마초	-17103
▁천리	-17104
▁청군	-17105
▁퇴계	-17106
▁한꺼	-17107
▁태극기	-17108
▁유럽연합	-17109
▁프로방스	-17110
▁한꺼번에	-17111
갱이	-17112
▁결단	-17113
▁김석	-17114
▁담장	-17115
▁본진	-17116
▁선서	-17117
▁소마	-17118
▁쟁점	-17119
▁친히	-17120
▁탈리	-17121
▁특혜	-17122
▁Way	-17123
▁그리드	-17124
▁세컨드	-17125
▁오징어	-17126
▁제노바	-17127
▁조병옥	-17128
▁마쓰모토	-17129
▁ㅁㅏㄹㄹㅕ	-17130
▁'-	-17131
▁노총	-17132
▁노하	-17133
▁녹말	-17134
▁로제	-17135
▁미추	-17136
▁지반	-17137
▁직류	-17138
▁콘셉	-17139
▁허들	-17140
▁형광	-17141
스티안	-17142
▁생김새	-17143
▁일제히	-17144
▁정몽주	-17145
▁혁명가	-17146
▁후베이	-17147
▁Cent	-17148
▁이오니아	-17149
▁둑	-17150
실험	-17151
▁공보	-17152
▁당사	-17153
▁더빙	-17154
▁떨어	-17155
▁마취	-17156
▁미완	-17157
▁배지	-17158
▁서역	-17159
▁완산	-17160
▁음역	-17161
▁피쳐	-17162
▁도나우	-17163
▁아약스	-17164
가요	-17165
거루	-17166
당류	-17167
쓰네	-17168
테일	-17169
토바	-17170
▁고택	-17171
▁굳이	-17172
▁벅스	-17173
▁베컴	-17174
▁실태	-17175
▁으뜸	-17176
▁이부	-17177
▁총수	-17178
▁화교	-17179
▁Mac	-17180
▁모델링	-17181
▁트럼펫	-17182
▁캔자스시티	-17183
끄럽	-17184
적분	-17185
▁발췌	-17186
▁본능	-17187
▁산마	-17188
▁인노	-17189
▁자막	-17190
▁정현	-17191
▁치루	-17192
▁코넬	-17193
▁쿠사	-17194
▁태상	-17195
▁파고	-17196
▁하카	-17197
▁신익희	-17198
▁알베르트	-17199
▁이리하여	-17200
▁카롤루스	-17201
▁필하모닉	-17202
▁ㅆㅗㄷㅇㅏ	-17203
▁ㅈㅣㄴㅇㅣ	-17204
▁알렉산드라	-17205
▁갸	-17206
가라	-17207
▁그간	-17208
▁기교	-17209
▁데니	-17210
▁세실	-17211
▁수훈	-17212
▁아토	-17213
▁융기	-17214
▁조나	-17215
ions	-17216
▁Tra	-17217
▁USA	-17218
▁목포시	-17219
▁연금술	-17220
▁1858	-17221
▁ㅂㅜㄹㅌㅏ	-17222
▁막시밀리안	-17223
러기	-17224
▁RA	-17225
▁격상	-17226
▁낙태	-17227
▁도표	-17228
▁만수	-17229
▁새해	-17230
▁술집	-17231
▁슐레	-17232
▁이구	-17233
▁전란	-17234
▁종단	-17235
▁징후	-17236
▁테살	-17237
ange	-17238
▁ㅈㅣㅁ	-17239
▁노트북	-17240
▁프렌즈	-17241
▁피드백	-17242
▁Type	-17243
▁마그네슘	-17244
▁귤	-17245
▁꿰	-17246
비츠	-17247
▁상해	-17248
▁소탕	-17249
▁양분	-17250
▁죄인	-17251
▁지뢰	-17252
▁헬로	-17253
▁가디언	-17254
▁아드리	-17255
▁직할시	-17256
▁파블로	-17257
▁고고학자	-17258
▁폼페이우스	-17259
▁챈	-17260
동리	-17261
코인	-17262
▁"'	-17263
▁달마	-17264
▁동티	-17265
▁디펜	-17266
▁수강	-17267
▁음양	-17268
▁이삭	-17269
▁치밀	-17270
▁힘쓰	-17271
▁ㄱㅔㅅ	-17272
▁노무라	-17273
▁도치기	-17274
▁봉수대	-17275
▁일진회	-17276
▁크레타	-17277
▁학생회	-17278
▁함부로	-17279
▁항소심	-17280
▁class	-17281
운전	-17282
▁FS	-17283
▁갈비	-17284
▁굴욕	-17285
▁기형	-17286
▁떠돌	-17287
▁쓰리	-17288
▁아핀	-17289
▁안재	-17290
▁용접	-17291
▁위배	-17292
▁마피아	-17293
▁액티브	-17294
▁오나라	-17295
▁무궁화호	-17296
▁보호구역	-17297
▁동아프리카	-17298
랭크	-17299
▁공해	-17300
▁대정	-17301
▁매질	-17302
▁분담	-17303
▁사보	-17304
▁엠마	-17305
▁장택	-17306
▁좌랑	-17307
▁좌천	-17308
▁진구	-17309
▁퀘이	-17310
▁퍼플	-17311
▁펜스	-17312
가하라	-17313
지먼트	-17314
▁라쿠텐	-17315
▁연습생	-17316
▁조너선	-17317
▁type	-17318
▁맞배지붕	-17319
▁매니지먼트	-17320
▁소크라테스	-17321
ux	-17322
ART	-17323
ret	-17324
▁결실	-17325
▁기민	-17326
▁남궁	-17327
▁농작	-17328
▁멘토	-17329
▁성제	-17330
▁전집	-17331
▁정공	-17332
▁ㄸㅏㄴ	-17333
▁군산시	-17334
▁미우라	-17335
▁시게루	-17336
▁안티고	-17337
▁유성구	-17338
▁천연가스	-17339
ㅍㅣ	-17340
기둥	-17341
라나	-17342
사랑	-17343
처럼	-17344
촌동	-17345
▁노화	-17346
▁이철	-17347
▁출루	-17348
▁포섭	-17349
▁푸틴	-17350
▁IEC	-17351
▁Not	-17352
▁ㅁㅣㄴ	-17353
▁마에다	-17354
▁선데이	-17355
▁스와프	-17356
▁중심핵	-17357
▁ㅊㅓㅇㅎㅐㅆ	-17358
널목	-17359
스테	-17360
재단	-17361
▁능하	-17362
▁로타	-17363
▁리츠	-17364
▁벨벳	-17365
▁아말	-17366
▁아쉽	-17367
▁영재	-17368
▁의왕	-17369
▁제법	-17370
▁증직	-17371
▁토의	-17372
▁패드	-17373
▁펠레	-17374
▁합산	-17375
▁휴먼	-17376
▁Int	-17377
▁건널목	-17378
▁티무르	-17379
▁패트리	-17380
▁High	-17381
▁서프랑크	-17382
▁암모니아	-17383
ㅅㅓㅆㅇㅡ	-17384
거성	-17385
att	-17386
▁군집	-17387
▁기근	-17388
▁기욤	-17389
▁바사	-17390
▁보카	-17391
▁소정	-17392
▁스팅	-17393
▁재주	-17394
▁충고	-17395
▁콤비	-17396
▁헬렌	-17397
▁WHO	-17398
▁지팡이	-17399
▁파출소	-17400
▁혁명군	-17401
▁플레이스	-17402
▁ㄷㅓㄴㅈㅣㄴ	-17403
▁여러해살이풀	-17404
식스	-17405
▁경구	-17406
▁광서	-17407
▁급사	-17408
▁로어	-17409
▁만연	-17410
▁문성	-17411
▁미자	-17412
▁바하	-17413
▁부탄	-17414
▁앨버	-17415
▁육박	-17416
▁선언문	-17417
▁수번뇌	-17418
▁산업단지	-17419
▁알베르토	-17420
▁독실	-17421
▁마틸	-17422
▁시차	-17423
▁완주	-17424
▁원생	-17425
▁총살	-17426
▁쿠리	-17427
▁테드	-17428
▁팬아	-17429
▁리포트	-17430
▁분홍색	-17431
▁취약점	-17432
▁플라자	-17433
▁1300	-17434
▁토스카나	-17435
▁밈	-17436
니코	-17437
정제	-17438
▁고갈	-17439
▁군락	-17440
▁궁내	-17441
▁납품	-17442
▁당명	-17443
▁덕수	-17444
▁마도	-17445
▁버거	-17446
▁신관	-17447
▁약학	-17448
▁영위	-17449
▁정과	-17450
▁주상	-17451
▁토드	-17452
▁깨달음	-17453
▁미시간	-17454
▁비올라	-17455
▁스레드	-17456
▁정확도	-17457
▁충주시	-17458
▁평상시	-17459
▁평의원	-17460
▁1814	-17461
마일	-17462
카라	-17463
ley	-17464
▁EN	-17465
▁Of	-17466
▁루지	-17467
▁빠져	-17468
▁석등	-17469
▁소치	-17470
▁수의	-17471
▁스쿠	-17472
▁유승	-17473
▁이덕	-17474
▁프록	-17475
▁LCK	-17476
▁ㅌㅡㅁ	-17477
▁광화문	-17478
▁스타즈	-17479
▁전철역	-17480
▁평택시	-17481
▁플래그	-17482
▁샌드위치	-17483
▁ㅅㅔㄴㄷㅏ	-17484
▁Google	-17485
▁조선왕조실록	-17486
BN	-17487
던스	-17488
▁군비	-17489
▁레딧	-17490
▁말소	-17491
▁모식	-17492
▁병인	-17493
▁우대	-17494
▁위태	-17495
▁캐럴	-17496
ㄷㅣㅈ	-17497
씨식물	-17498
▁MHz	-17499
▁MLB	-17500
▁겨울철	-17501
▁수도사	-17502
▁연구실	-17503
▁저지르	-17504
▁지방관	-17505
▁서아시아	-17506
▁ㅆㅏㅎㅇㅕ	-17507
싸움	-17508
전차	-17509
천국	-17510
회원	-17511
▁ED	-17512
▁고요	-17513
▁규장	-17514
▁애매	-17515
▁올랭	-17516
▁풍수	-17517
▁헤임	-17518
▁효용	-17519
▁니스트	-17520
▁블루어	-17521
▁상대론	-17522
▁성북구	-17523
▁적절히	-17524
▁하모니	-17525
살바도르	-17526
▁그래미상	-17527
▁석가여래	-17528
▁아틀레틱	-17529
▁페더레이션	-17530
▁윔	-17531
토쿠	-17532
▁Vf	-17533
▁견지	-17534
▁목화	-17535
▁미에	-17536
▁보궐	-17537
▁정여	-17538
▁제보	-17539
▁지층	-17540
▁핑계	-17541
▁혼돈	-17542
정보부	-17543
▁ㅌㅏㄹ	-17544
▁건너편	-17545
▁남조선	-17546
▁What	-17547
ye	-17548
▁쥘	-17549
▁니체	-17550
▁민권	-17551
▁보육	-17552
▁인대	-17553
▁포진	-17554
▁헨드	-17555
▁홍천	-17556
▁흥덕	-17557
▁238	-17558
▁290	-17559
▁주교좌	-17560
▁디렉터리	-17561
▁자유민주	-17562
▁세키가하라	-17563
▁클라이맥스	-17564
데냐	-17565
림동	-17566
퍼트	-17567
yle	-17568
▁사악	-17569
▁아랑	-17570
▁열풍	-17571
▁정일	-17572
ㅅㅔㄴ	-17573
▁TBC	-17574
▁관찰자	-17575
▁다면체	-17576
▁맞대결	-17577
▁1795	-17578
▁With	-17579
▁갑신정변	-17580
▁다리우스	-17581
▁사르데냐	-17582
▁ㅇㅝㄴㅅㅜㄹ	-17583
▁김세	-17584
▁라지	-17585
▁민가	-17586
▁승전	-17587
▁실크	-17588
▁엠블	-17589
▁우도	-17590
▁우이	-17591
▁윗면	-17592
▁장준	-17593
▁코지	-17594
▁키아	-17595
▁트림	-17596
▁허구	-17597
▁거머쥐	-17598
▁국문학	-17599
▁달아나	-17600
▁막아내	-17601
▁그리스도인	-17602
UI	-17603
▁앳	-17604
▁켓	-17605
▁간지	-17606
▁레미	-17607
▁보훈	-17608
▁살피	-17609
▁아난	-17610
▁암초	-17611
▁초당	-17612
▁페데	-17613
▁헤지	-17614
학생회	-17615
▁공기업	-17616
▁대항해	-17617
▁우승컵	-17618
▁통신부	-17619
▁헬싱키	-17620
▁부위원장	-17621
르모	-17622
팽이	-17623
ger	-17624
▁MT	-17625
▁NX	-17626
▁갈아	-17627
▁도정	-17628
▁본초	-17629
▁비호	-17630
▁손쉽	-17631
▁예일	-17632
▁일람	-17633
▁증원	-17634
▁켈빈	-17635
▁고조선	-17636
▁성명서	-17637
▁원정군	-17638
▁창업자	-17639
▁초대칭	-17640
▁홉킨스	-17641
▁총학생회	-17642
▁프로이트	-17643
▁렝	-17644
구멍	-17645
라도	-17646
enc	-17647
▁ㄸㅜ	-17648
▁랜덤	-17649
▁반야	-17650
▁수표	-17651
▁스톨	-17652
▁얼터	-17653
▁에런	-17654
▁우사	-17655
▁포교	-17656
ㅅㄱㅏ	-17657
▁ㄴㅗㄹ	-17658
▁등록금	-17659
▁로렌초	-17660
▁이회창	-17661
▁언어학자	-17662
부미	-17663
▁감기	-17664
▁견훤	-17665
▁도색	-17666
▁비욘	-17667
▁열망	-17668
▁웰스	-17669
디우스	-17670
주니어	-17671
▁850	-17672
▁모조리	-17673
▁모터쇼	-17674
▁익산시	-17675
▁MPEG	-17676
▁드레이크	-17677
▁자연주의	-17678
▁카테고리	-17679
▁그리스도교	-17680
▁키르기스스탄	-17681
레프	-17682
ING	-17683
alk	-17684
▁괴뢰	-17685
▁니나	-17686
▁독소	-17687
▁로동	-17688
▁알렌	-17689
▁전액	-17690
▁토비	-17691
▁훈족	-17692
▁480	-17693
▁남반구	-17694
▁남해군	-17695
▁벤피카	-17696
▁커티스	-17697
▁ㅁㅕㄴㅇㅡㄴ	-17698
▁Di	-17699
▁개전	-17700
▁군국	-17701
▁몬태	-17702
▁버시	-17703
▁세베	-17704
▁패퇴	-17705
▁필기	-17706
▁할양	-17707
네소스	-17708
▁Art	-17709
▁빅토리	-17710
▁가나자와	-17711
▁아나키즘	-17712
▁COVID	-17713
23	-17714
▁그늘	-17715
▁비어	-17716
▁숭실	-17717
▁심플	-17718
▁종친	-17719
▁직함	-17720
▁알레르	-17721
▁에히메	-17722
▁윤리학	-17723
▁창덕궁	-17724
▁합천군	-17725
▁수마트라	-17726
▁ㅈㅣㄴㅈㅓ	-17727
▁ㅈㅣㄴㅈㅓㅇㅎㅏㄴ	-17728
블린	-17729
▁kW	-17730
▁ㅇㅐ	-17731
▁광택	-17732
▁매춘	-17733
▁묘법	-17734
▁브람	-17735
▁아픔	-17736
▁웅진	-17737
▁유원	-17738
▁율령	-17739
▁장항	-17740
▁정강	-17741
▁천구	-17742
▁천정	-17743
지스터	-17744
ough	-17745
▁Rev	-17746
▁ㄷㅐㄴ	-17747
▁ㄹㅜㄴ	-17748
▁노르트	-17749
▁보행자	-17750
▁아쿠아	-17751
▁크라스	-17752
▁트루먼	-17753
▁안드레이	-17754
▁크리스천	-17755
IO	-17756
▁골수	-17757
▁관대	-17758
▁구룡	-17759
▁기악	-17760
▁덩굴	-17761
▁소도	-17762
▁인신	-17763
▁장조	-17764
▁정병	-17765
▁주경	-17766
▁특례	-17767
▁페터	-17768
▁데포르	-17769
▁북반구	-17770
▁사이공	-17771
▁체스터	-17772
▁페테르	-17773
▁황태후	-17774
건적	-17775
OVE	-17776
▁대뇌	-17777
▁데메	-17778
▁미숙	-17779
▁박승	-17780
▁부녀	-17781
▁북상	-17782
▁서강	-17783
▁신구	-17784
▁월북	-17785
▁진하	-17786
▁총액	-17787
▁평신	-17788
▁223	-17789
▁유격대	-17790
▁요시아키	-17791
26	-17792
베인	-17793
재란	-17794
▁구자	-17795
▁기시	-17796
▁남포	-17797
▁리저	-17798
▁머피	-17799
▁미코	-17800
▁바일	-17801
▁보츠	-17802
▁어쩌	-17803
▁에린	-17804
▁윈터	-17805
▁이트	-17806
▁이형	-17807
▁첨부	-17808
연화경	-17809
플레잉	-17810
▁COM	-17811
▁안데르	-17812
▁여객선	-17813
▁전기장	-17814
▁팩토리	-17815
의금부사	-17816
▁Blue	-17817
▁갈릴레이	-17818
▁롤플레잉	-17819
▁브루나이	-17820
▁사탕수수	-17821
▁정유재란	-17822
ㄷㅡㄴㄱㅏ	-17823
▁트랜지스터	-17824
개혁	-17825
나물	-17826
▁교주	-17827
▁국과	-17828
▁돌핀	-17829
▁브롱	-17830
▁선회	-17831
▁순정	-17832
▁연유	-17833
▁오호	-17834
▁차분	-17835
▁팀장	-17836
ㄴㅜㅁ	-17837
다람쥐	-17838
▁737	-17839
▁ㅁㅝㄴ	-17840
▁ㅇㅗㅂ	-17841
▁보호관	-17842
▁스타인	-17843
▁아칸소	-17844
▁키워드	-17845
▁1846	-17846
▁기념사업	-17847
▁하이웨이	-17848
▁중앙정보부	-17849
▁중앙아프리카	-17850
▁훅	-17851
뉴스	-17852
질량	-17853
▁갤러	-17854
▁과부	-17855
▁논설	-17856
▁본당	-17857
▁직권	-17858
▁학급	-17859
시우스	-17860
웨스트	-17861
▁문하시	-17862
▁보라색	-17863
▁산체스	-17864
▁수증기	-17865
▁이완용	-17866
▁충렬왕	-17867
▁타블로	-17868
▁테트라	-17869
▁time	-17870
▁물리학상	-17871
▁비지니스	-17872
▁어드밴스	-17873
ㅊㅜ	-17874
que	-17875
▁국지	-17876
▁니콘	-17877
▁데쓰	-17878
▁베버	-17879
▁성내	-17880
▁솔트	-17881
▁씨름	-17882
▁옥상	-17883
▁ㅋㅐㄹ	-17884
▁돋보이	-17885
▁아산시	-17886
▁제이스	-17887
▁페인트	-17888
▁평화상	-17889
▁1793	-17890
▁하시모토	-17891
▁줌	-17892
▁촘	-17893
처리	-17894
패스	-17895
▁공덕	-17896
▁구토	-17897
▁낙타	-17898
▁루머	-17899
▁마조	-17900
▁방조	-17901
▁범용	-17902
▁수렵	-17903
캐스트	-17904
▁ㅁㅜㄹ	-17905
▁농작물	-17906
▁시어터	-17907
▁입출력	-17908
▁중서부	-17909
▁추밀원	-17910
총리대신	-17911
▁오브젝트	-17912
▁아오모리현	-17913
▁내각총리대신	-17914
▁뱌	-17915
래시	-17916
바람	-17917
파스	-17918
der	-17919
▁각광	-17920
▁게일	-17921
▁급기	-17922
▁부윤	-17923
▁역모	-17924
▁쿠릴	-17925
▁표결	-17926
▁현충	-17927
비우스	-17928
슬라브	-17929
▁Min	-17930
▁포스코	-17931
▁포위전	-17932
▁블레이드	-17933
▁에드먼드	-17934
▁시즈오카현	-17935
▁ㅇㅜㅁㅈㅣㄱㅇㅕ	-17936
HD	-17937
리가	-17938
ump	-17939
▁ME	-17940
▁감탄	-17941
▁경이	-17942
▁당분	-17943
▁마한	-17944
▁멜론	-17945
▁무당	-17946
▁이국	-17947
▁존상	-17948
▁펀치	-17949
▁해자	-17950
▁휘트	-17951
코스트	-17952
▁공직자	-17953
▁엉덩이	-17954
▁외무성	-17955
▁1839	-17956
▁이베리아	-17957
▁히로부미	-17958
▁ㄴㅡㄹㄹㅕㅆ	-17959
▁ㅅㅓㅁㄱㅕㅆ	-17960
정권	-17961
▁간염	-17962
▁등대	-17963
▁손책	-17964
▁심근	-17965
▁와해	-17966
▁이효	-17967
▁페가	-17968
▁해일	-17969
▁214	-17970
▁가시마	-17971
▁넥스트	-17972
▁바로잡	-17973
▁배수량	-17974
▁아테나	-17975
▁차량기지	-17976
▁트리니다드	-17977
28	-17978
▁뿜	-17979
▁퓌	-17980
사회	-17981
▁걸치	-17982
▁경멸	-17983
▁디디	-17984
▁만기	-17985
▁맛있	-17986
▁부이	-17987
▁세탁	-17988
▁아민	-17989
▁유시	-17990
▁추위	-17991
▁산둥성	-17992
▁손바닥	-17993
▁오비탈	-17994
▁미성년자	-17995
▁상파울루	-17996
고트	-17997
모자	-17998
▁박기	-17999
▁박준	-18000
▁볼륨	-18001
▁부딪	-18002
▁브론	-18003
▁산불	-18004
▁상작	-18005
▁제식	-18006
▁퇴단	-18007
▁하순	-18008
티우스	-18009
▁Top	-18010
▁메이트	-18011
▁변속기	-18012
▁비행대	-18013
▁재빨리	-18014
▁진보당	-18015
▁프리킥	-18016
대성	-18017
메트	-18018
섬유	-18019
후이	-18020
▁괴멸	-18021
▁구인	-18022
▁쇠약	-18023
▁엄정	-18024
▁파드	-18025
ㅈㅔㄴ	-18026
▁구청장	-18027
▁국무원	-18028
▁낙하산	-18029
▁대머리	-18030
▁조계종	-18031
▁하카타	-18032
▁1854	-18033
▁비트코인	-18034
▁ㅌㅡㅁㅌㅏ	-18035
▁데포르티보	-18036
ㅇㅏㅅㄱㅕㅆ	-18037
▁ㅊㅏㄱㅎㅏㄴ	-18038
▁간디	-18039
▁권하	-18040
▁망루	-18041
▁몸집	-18042
▁바덴	-18043
▁봉작	-18044
▁설사	-18045
▁야로	-18046
▁칼레	-18047
▁코레	-18048
▁핵산	-18049
▁환기	-18050
▁후시	-18051
독립당	-18052
타니아	-18053
▁교토부	-18054
▁안중근	-18055
베이거스	-18056
▁공화주의	-18057
▁초등학생	-18058
▁ㅍㅏㄹㄹㅕ	-18059
▁한국독립당	-18060
▁꼼	-18061
▁뚱	-18062
▁불평	-18063
▁새턴	-18064
▁서보	-18065
▁석상	-18066
▁억류	-18067
▁우동	-18068
▁유장	-18069
▁육아	-18070
▁인출	-18071
▁인피	-18072
▁제원	-18073
▁종주	-18074
▁참배	-18075
▁클루	-18076
▁후백	-18077
▁ㄴㅏㅊ	-18078
▁경비대	-18079
▁버나드	-18080
스트리트	-18081
▁라스베이거스	-18082
▁ㅎㅘ	-18083
▁걸맞	-18084
▁새기	-18085
▁셔먼	-18086
▁여과	-18087
▁윤원	-18088
▁찬탈	-18089
▁하디	-18090
atch	-18091
▁ㅇㅐㄹ	-18092
▁건국대	-18093
▁돗토리	-18094
▁크레이그	-18095
▁플로이드	-18096
▁ㅎㅜㅁㅊㅕ	-18097
▁돛	-18098
탐정	-18099
호프	-18100
▁PP	-18101
▁갑각	-18102
▁고압	-18103
▁교묘	-18104
▁내수	-18105
▁메사	-18106
▁윤영	-18107
▁폰트	-18108
▁419	-18109
▁LCD	-18110
▁가입자	-18111
▁나가노	-18112
▁레인보	-18113
▁기독교인	-18114
86	-18115
BT	-18116
▁KC	-18117
▁미묘	-18118
▁상투	-18119
▁시주	-18120
▁유폐	-18121
▁임베	-18122
▁총체	-18123
▁한서	-18124
icro	-18125
▁이브라	-18126
▁델라웨어	-18127
▁사보이아	-18128
▁여주인공	-18129
▁임베디드	-18130
▁ㅅㅗㄴㄲㅗ	-18131
▁네덜란드어	-18132
▁견습	-18133
▁교포	-18134
▁구석	-18135
▁귀양	-18136
▁남로	-18137
▁단사	-18138
▁매월	-18139
▁반려	-18140
▁북해	-18141
▁분양	-18142
▁오딘	-18143
▁웨일	-18144
▁기부금	-18145
▁베일리	-18146
▁북극해	-18147
▁상속인	-18148
▁증명서	-18149
▁1849	-18150
▁오하이오주	-18151
▁럴	-18152
누아	-18153
렁이	-18154
뻐하	-18155
▁김문	-18156
▁낙엽	-18157
▁만국	-18158
▁밀스	-18159
▁발단	-18160
▁알비	-18161
▁존엄	-18162
▁화북	-18163
리어스	-18164
직할시	-18165
트로피	-18166
프랑스	-18167
▁기뻐하	-18168
▁1856	-18169
▁반공주의	-18170
▁ㄱㅓㄹㄹㅗ	-18171
오린	-18172
재기	-18173
▁간장	-18174
▁배설	-18175
▁분장	-18176
▁생가	-18177
▁성추	-18178
▁센스	-18179
▁어이	-18180
▁오기	-18181
▁원성	-18182
▁이안	-18183
▁적성	-18184
▁교직원	-18185
▁식물원	-18186
▁특이점	-18187
▁핵폭탄	-18188
▁후임자	-18189
▁1851	-18190
OU	-18191
니엄	-18192
▁계투	-18193
▁고하	-18194
▁라몬	-18195
▁라티	-18196
▁분쇄	-18197
▁상체	-18198
▁서상	-18199
▁시경	-18200
▁신작	-18201
▁요아	-18202
▁장령	-18203
▁철원	-18204
▁틀리	-18205
▁페드	-18206
▁현령	-18207
▁211	-18208
▁430	-18209
▁FBI	-18210
▁ㄱㅏㅄ	-18211
▁ㅎㅡㄹ	-18212
▁보나파	-18213
▁보르도	-18214
▁에리크	-18215
▁에밀리	-18216
▁장택상	-18217
▁최하위	-18218
▁올랭피크	-18219
▁보나파르트	-18220
깨비	-18221
우어	-18222
천년	-18223
호르	-18224
▁DL	-18225
▁수류	-18226
▁수서	-18227
▁욕설	-18228
▁조력	-18229
▁준하	-18230
▁촌은	-18231
▁치수	-18232
▁치중	-18233
▁ㄸㅜㅀ	-18234
▁명명법	-18235
▁저작물	-18236
▁지평선	-18237
▁스탠퍼드	-18238
▁ㄷㅡㄹㅇㅡ	-18239
▁크리에이티브	-18240
일라	-18241
하늘	-18242
oup	-18243
▁IA	-18244
▁TG	-18245
▁미모	-18246
▁박격	-18247
▁변방	-18248
▁본디	-18249
▁비크	-18250
▁여생	-18251
▁웅장	-18252
▁이견	-18253
▁카잔	-18254
쿠스틱	-18255
▁301	-18256
▁Med	-18257
▁글리코	-18258
▁시공간	-18259
▁파트리	-18260
▁1855	-18261
▁Beat	-18262
▁끌어들이	-18263
▁어쿠스틱	-18264
▁정사각형	-18265
29	-18266
봉사	-18267
체어	-18268
케스	-18269
▁계란	-18270
▁도독	-18271
▁두껍	-18272
▁매번	-18273
▁악역	-18274
▁어기	-18275
▁예속	-18276
▁적재	-18277
▁히나	-18278
cess	-18279
▁가속기	-18280
▁베드로	-18281
▁절대로	-18282
▁테이크	-18283
▁펠로폰	-18284
▁하동군	-18285
▁1857	-18286
▁Free	-18287
▁캐나다인	-18288
▁펠로폰네소스	-18289
▁넉	-18290
담회	-18291
연료	-18292
전기	-18293
쿠젠	-18294
하르	-18295
ery	-18296
▁디온	-18297
▁모기	-18298
▁버퍼	-18299
▁서천	-18300
▁쇼팽	-18301
▁연임	-18302
▁음경	-18303
▁지소	-18304
▁다이나	-18305
▁수산물	-18306
▁시부야	-18307
▁은하단	-18308
▁참모장	-18309
▁캥거루	-18310
▁해럴드	-18311
▁핵실험	-18312
메니스탄	-18313
ㄲㅜㄴㄷㅏ	-18314
▁투르크메니스탄	-18315
버드	-18316
▁CL	-18317
▁결탁	-18318
▁민생	-18319
▁성간	-18320
▁소란	-18321
▁잠복	-18322
▁정시	-18323
▁체첸	-18324
▁톨킨	-18325
▁애벌레	-18326
▁청교도	-18327
▁카운터	-18328
타고라스	-18329
▁노동자당	-18330
▁다이스케	-18331
▁이와테현	-18332
레토	-18333
버거	-18334
산읍	-18335
▁벚꽃	-18336
▁보문	-18337
▁비이	-18338
▁열반	-18339
▁오닐	-18340
▁주치	-18341
고양이	-18342
▁공사관	-18343
▁구석기	-18344
▁작사가	-18345
▁찬드라	-18346
▁황도대	-18347
▁소용돌이	-18348
▁폴란드인	-18349
▁ㅇㅕㄹㄹㅕㅆㅇㅡ	-18350
쇼프	-18351
왕국	-18352
▁ER	-18353
▁광경	-18354
▁단성	-18355
▁덧셈	-18356
▁명주	-18357
▁실로	-18358
▁외동	-18359
▁추궁	-18360
▁페티	-18361
▁해금	-18362
들랜드	-18363
제르맹	-18364
콥스키	-18365
▁서북쪽	-18366
▁시흥시	-18367
▁포천시	-18368
▁휠체어	-18369
츠부르크	-18370
▁스티븐스	-18371
▁태평천국	-18372
▁프란시스	-18373
▁ㅈㅏㅂㅇㅏ	-18374
▁ㅎㅑㅇㅎㅏㄴㄷㅏ	-18375
27	-18376
▁좡	-18377
댄스	-18378
카테	-18379
▁내구	-18380
▁담론	-18381
▁들여	-18382
▁비참	-18383
▁사흘	-18384
▁수배	-18385
▁위니	-18386
▁캔디	-18387
▁기념식	-18388
▁루터교	-18389
▁베르디	-18390
▁봉사자	-18391
▁수수료	-18392
▁지난해	-18393
▁포브스	-18394
▁스포르팅	-18395
▁엔트로피	-18396
▁병마절도사	-18397
▁통합진보당	-18398
ㄷㅡㄹㅇㅣㄴㄷㅏ	-18399
▁깡	-18400
흐트	-18401
▁YM	-18402
▁경색	-18403
▁깜짝	-18404
▁대세	-18405
▁벽면	-18406
▁성년	-18407
▁수스	-18408
▁언약	-18409
▁유품	-18410
▁정년	-18411
루리아	-18412
▁감염자	-18413
▁동의어	-18414
▁일간지	-18415
▁항구역	-18416
▁힉	-18417
연대	-18418
지대	-18419
하스	-18420
▁대광	-18421
▁셀룰	-18422
▁아모	-18423
▁택지	-18424
▁헐리	-18425
▁활기	-18426
▁구미시	-18427
▁그로스	-18428
▁마인드	-18429
▁병원체	-18430
▁출생지	-18431
▁형무소	-18432
▁생제르맹	-18433
▁민족주의자	-18434
려나	-18435
ont	-18436
▁CT	-18437
▁고증	-18438
▁낙랑	-18439
▁사죄	-18440
▁슈바	-18441
▁실습	-18442
▁외벽	-18443
▁이학	-18444
▁인테	-18445
▁잇달	-18446
▁착안	-18447
▁태세	-18448
▁픽션	-18449
▁현생	-18450
시오날	-18451
▁NAD	-18452
▁갖가지	-18453
▁시우바	-18454
▁헤이스	-18455
▁나시오날	-18456
▁씌	-18457
서구	-18458
▁니즘	-18459
▁다지	-18460
▁압송	-18461
▁중첩	-18462
▁카렐	-18463
▁크세	-18464
▁항모	-18465
▁ㄸㅡㄴ	-18466
▁나주시	-18467
▁노스케	-18468
▁대각선	-18469
▁대주주	-18470
▁마그마	-18471
▁샘플링	-18472
▁아가씨	-18473
▁이해관계	-18474
로아	-18475
▁뇌졸	-18476
▁대흥	-18477
▁변장	-18478
▁소망	-18479
▁신영	-18480
▁역행	-18481
▁율곡	-18482
▁지병	-18483
▁팔자	-18484
궐선거	-18485
▁XML	-18486
▁보니파	-18487
▁어리석	-18488
▁컨디션	-18489
▁투데이	-18490
▁팰리스	-18491
▁행정관	-18492
▁마음대로	-18493
▁ㅇㅣㅈㅎㅕ	-18494
▁재보궐선거	-18495
ma	-18496
가야	-18497
나들	-18498
니크	-18499
테른	-18500
▁명지	-18501
▁방수	-18502
▁본기	-18503
▁분개	-18504
▁소홀	-18505
▁심슨	-18506
▁조식	-18507
▁타오	-18508
▁퇴사	-18509
▁달라이	-18510
▁베르그	-18511
▁새천년	-18512
▁수송기	-18513
▁청구인	-18514
▁해설자	-18515
▁Will	-18516
▁미주리주	-18517
▁사카모토	-18518
▁플루오린	-18519
▁그레고리력	-18520
마타	-18521
day	-18522
▁HK	-18523
▁국면	-18524
▁기물	-18525
▁노회	-18526
▁랜디	-18527
▁성채	-18528
▁역습	-18529
▁연천	-18530
▁윤선	-18531
▁친목	-18532
노벨라	-18533
▁233	-18534
▁Pop	-18535
▁메이플	-18536
▁상세히	-18537
▁스나이	-18538
▁이범석	-18539
▁1776	-18540
▁무라카미	-18541
▁텔레노벨라	-18542
▁ㄴㅏㅊㅅㅓㄴ	-18543
광선	-18544
스탕	-18545
▁교복	-18546
▁국채	-18547
▁권세	-18548
▁단호	-18549
▁서드	-18550
▁셰이	-18551
▁요네	-18552
▁음소	-18553
▁포구	-18554
▁현청	-18555
▁바이스	-18556
▁비엔나	-18557
▁성추행	-18558
▁오카다	-18559
▁하이델	-18560
▁하이든	-18561
모습	-18562
소득	-18563
▁ne	-18564
▁김한	-18565
▁네모	-18566
▁만리	-18567
▁사성	-18568
▁음란	-18569
▁칸타	-18570
▁Bro	-18571
▁서기장	-18572
▁시설물	-18573
▁크리켓	-18574
를린	-18575
버섯	-18576
▁Po	-18577
▁금광	-18578
▁급습	-18579
▁누락	-18580
▁로로	-18581
▁마고	-18582
▁맛보	-18583
▁무왕	-18584
▁버즈	-18585
▁서던	-18586
▁원가	-18587
▁원제	-18588
▁장구	-18589
▁회부	-18590
ㄱㅏㅁ	-18591
메데스	-18592
▁배트맨	-18593
▁집어넣	-18594
▁프로파	-18595
▁10000	-18596
ㅃㅓ	-18597
바꿈	-18598
증권	-18599
페리	-18600
행사	-18601
▁FX	-18602
▁거액	-18603
▁괴팅	-18604
▁몬트	-18605
▁반열	-18606
▁방한	-18607
▁부총	-18608
▁산탄	-18609
▁오도	-18610
▁이로	-18611
▁일어	-18612
▁찬스	-18613
▁코민	-18614
▁탄원	-18615
▁파사	-18616
▁퓨전	-18617
▁현명	-18618
▁독립국	-18619
▁레너드	-18620
▁모티프	-18621
▁영산회	-18622
볼트	-18623
슐린	-18624
▁BR	-18625
▁가메	-18626
▁땅콩	-18627
▁부풀	-18628
▁빌미	-18629
▁신명	-18630
▁알론	-18631
▁연좌	-18632
▁와트	-18633
▁이연	-18634
▁제학	-18635
▁직제	-18636
▁진안	-18637
▁친절	-18638
ㅌㅏㄹ	-18639
▁거제시	-18640
▁김종필	-18641
▁사모아	-18642
▁유니온	-18643
▁포위망	-18644
▁레오나르도	-18645
▁묘법연화경	-18646
▁캄파니아주	-18647
▁ㅅㅡㄹㅍㅡㄴ	-18648
ㄷㅝ	-18649
▁MW	-18650
▁간파	-18651
▁과업	-18652
▁교우	-18653
▁로젠	-18654
▁발송	-18655
▁상시	-18656
▁시왕	-18657
▁윤석	-18658
▁케니	-18659
▁타나	-18660
▁타현	-18661
▁픽업	-18662
더니즘	-18663
레시브	-18664
▁End	-18665
▁심포니	-18666
▁아세트	-18667
▁웨이트	-18668
▁ㄴㅗㄹㄹ	-18669
▁코미디언	-18670
▁포레스트	-18671
▁프로그레시브	-18672
고도	-18673
평가	-18674
▁누각	-18675
▁대적	-18676
▁살림	-18677
▁준위	-18678
▁클론	-18679
▁합체	-18680
덜랜드	-18681
▁del	-18682
▁리서치	-18683
▁베리아	-18684
▁비정규	-18685
▁네브래스카	-18686
BL	-18687
투안	-18688
활성	-18689
▁JP	-18690
▁TN	-18691
▁골목	-18692
▁노미	-18693
▁최경	-18694
▁쿠키	-18695
▁파격	-18696
메네스	-18697
▁510	-18698
▁동북쪽	-18699
▁레이어	-18700
▁클라라	-18701
▁미시간주	-18702
▁서스펜션	-18703
▁각별	-18704
▁독감	-18705
▁로미	-18706
▁미망	-18707
▁미움	-18708
▁발주	-18709
▁사극	-18710
▁생사	-18711
▁수잔	-18712
▁아속	-18713
▁이공	-18714
▁장타	-18715
▁청화	-18716
▁템포	-18717
▁화신	-18718
irst	-18719
▁set	-18720
▁에인절	-18721
▁조기어류	-18722
▁ㄸㅢㄴㄷㅏ	-18723
▁프로토타입	-18724
▁언더그라운드	-18725
계리	-18726
급시	-18727
저민	-18728
▁간소	-18729
▁괴롭	-18730
▁끊이	-18731
▁대열	-18732
▁도핑	-18733
▁명절	-18734
▁미안	-18735
▁비기	-18736
▁심신	-18737
▁입안	-18738
▁정철	-18739
▁청탁	-18740
▁퇴화	-18741
▁하쿠	-18742
▁한참	-18743
▁호가	-18744
중국해	-18745
▁벤저민	-18746
▁변증법	-18747
▁엑스선	-18748
▁가까스로	-18749
▁알레르기	-18750
HS	-18751
▁뜯	-18752
▁뵈	-18753
its	-18754
▁나나	-18755
▁라비	-18756
▁반일	-18757
▁상피	-18758
▁위드	-18759
[...]
