[PAD]
[UNK]
[BOS]
[EOS]
[CLS]
[SEP]
[MASK]
▁▃
▁이
▁하
▁.
▁에
▁다
▁의
▁ㄴ
▁는
▁,
▁을
▁은
▁가
▁1
▁으
▁고
▁되
▁아
▁를
▁었
▁지
▁년
▁로
▁으로
▁에서
▁2
▁있
▁어
▁대
▁았
▁기
▁사
▁그
▁도
▁시
▁일
▁과
▁ㄴ다
▁들
▁수
▁전
▁적
▁여
▁자
▁와
▁20
▁부
▁월
▁주
▁제
▁19
▁ㄹ
▁라
▁정
▁보
▁중
▁위
▁인
▁였
▁나
▁공
▁세
▁경
▁것
▁게
▁개
▁오
▁유
▁3
▁"
▁조
▁등
▁스
▁선
▁마
▁성
▁만
▁미
▁동
▁연
▁상
▁서
▁소
▁한
▁모
▁비
▁구
▁영
▁국
▁발
▁면
▁며
▁으며
▁201
▁'
▁4
▁후
▁관
▁명
▁신
▁프
▁5
▁때
▁200
▁장
▁던
▁-
▁거
▁방
▁바
▁교
▁리
▁해
▁문
▁내
▁역
▁차
▁당
▁우
▁무
▁원
▁통
▁계
▁현
▁남
▁노
▁군
▁포
▁분
▁6
▁또
▁화
▁않
▁까
▁학
▁생
▁까지
▁같
▁작
▁결
▁강
▁에게
▁출
▁파
▁대하
▁받
▁진
▁크
▁단
▁7
▁번
▁최
▁반
▁불
▁10
▁8
▁알
▁데
▁위하
▁두
▁호
▁회
▁지만
▁안
▁배
▁카
▁실
▁형
▁초
▁말
▁따
▁예
▁재
▁부터
▁없
▁타
▁사용
▁9
▁미국
▁음
▁라고
▁종
▁요
▁이후
▁라는
▁함
▁설
▁특
▁면서
▁일본
▁는데
▁코
▁레
▁산
▁운
▁권
▁감
▁더
▁독
▁활
▁추
▁행
▁베
▁왕
▁처
▁피
민국
▁그리
▁김
▁지역
▁양
▁으나
▁매
▁대한
▁199
▁다음
▁민
▁평
▁태
▁많
▁건
▁입
▁12
▁따르
▁간
▁참
▁대한민국
▁18
▁및
▁경기
▁승
▁다고
▁가지
▁열
▁목
▁드
▁다른
▁대학
▁;
▁의하
리아
00
▁프로
▁총
▁속
스트
▁북
▁야
▁S
or
▁집
▁때문
▁법
▁11
▁시작
▁트
▁물
▁외
▁체
▁각
▁시키
▁달
▁변
▁천
▁메
▁직
▁임
▁표
▁올
▁ᄆ
▁그러
▁토
▁사람
▁본
▁&
▁점
▁저
▁쓰
▁함께
▁또한
▁A
▁아서
어지
▁박
▁팀
어나
▁치
▁투
▁한국
▁청
▁선수
▁항
▁브
▁사이
▁세계
▁)
▁영화
▁버
▁자신
▁새
▁광
▁약
la
▁C
▁M
▁디
▁경우
▁통하
▁네
▁용
▁판
▁루
▁f
▁기록
▁T
▁축
▁F
▁현재
▁복
▁아니
▁하나
▁국가
시아
▁존
▁이름
▁198
▁다는
▁편
▁당시
▁확
▁가장
▁삼
▁위치
▁_
▁보이
▁활동
▁조선
▁학교
▁뒤
▁이나
▁철
▁만들
주의
▁그러나
▁리그
▁필
▁15
▁(
▁살
▁금
▁페
▁증
▁for
▁합
▁째
mu
▁플
▁백
▁테
▁심
▁창
▁언
▁애
mula
▁formula
▁식
▁16
▁못
▁대표
레이
▁병
▁연구
▁근
▁또는
▁프랑
부터
▁니
▁그리고
▁/
▁황
▁사회
▁돌
▁규
▁m
▁0
▁D
▁충
▁17
▁시즌
▁어서
▁패
▁]
▁첫
▁순
▁[
▁197
▁B
▁보다
▁러
▁이루
▁완
▁다시
▁히
▁못하
랜드
▁높
▁중국
▁협
▁알리
▁길
▁서울
▁클
▁정부
▁프랑스
▁채
▁영국
학교
▁K
▁I
▁시대
▁:
▁는다
▁키
▁도시
▁포함
▁k
▁여러
▁뜻
▁196
▁전쟁
▁14
▁아이
▁독일
▁다가
▁로서
▁죽
er
▁문화
▁대회
▁~
▁g
▁취
▁13
▁배우
▁축구
▁허
▁모두
▁가능
▁위원
▁별
▁P
▁동안
▁뉴
▁모든
in
▁이상
▁친
▁손
▁곡
▁감독
▁정치
▁환
▁194
▁일부
▁문제
▁l
▁방송
▁석
▁처음
▁대학교
▁개발
▁L
▁지방
▁제작
▁%
▁구성
▁검
▁캐
▁인하
▁국제
▁농
▁사건
▁터
라이
▁골
▁끝
▁세기
▁논
▁시간
▁씨
▁이용
▁일반
▁부르
▁존재
▁향
▁작품
▁G
▁날
▁밀
▁게임
▁정도
▁운동
▁폭
▁주장
▁티
▁쿠
▁급
▁역사
▁gt
▁나오
▁관계
▁곳
▁앞
▁즉
▁N
▁려
▁섬
니아
▁인구
▁교육
▁음악
▁효
on
▁195
▁km
▁거나
▁접
▁나타
▁중심
▁이러
▁lt
▁육
▁맡
리스
▁극
▁U
▁귀
▁맞
▁30
▁절
▁R
▁경제
▁선거
▁블
부분
통령
▁발견
▁민주
▁전투
▁담
▁누
▁H
▁도록
▁봉
▁발표
화국
▁갖
▁측
▁홍
▁글
▁E
▁기술
▁슈
▁막
▁올림
▁암
▁아들
이스
▁책
▁케
▁우승
▁로부터
▁공격
▁엔
▁2010
▁들어
▁대통령
▁대부분
▁잘
▁영향
▁걸
▁사망
▁올림픽
an
▁결과
▁질
▁헤
▁밝
▁여기
000
▁열리
▁새롭
▁불리
▁송
▁라이
▁지원
▁앨
▁프로그
리카
▁과정
▁잡
▁193
▁발생
▁의미
▁관련
▁머
▁참여
▁중앙
▁유럽
▁업
▁진행
▁최초
▁c
▁얻
란드
▁범
▁준
20
▁25
▁부분
지만
▁고등
▁특히
▁독립
▁자유
▁결정
▁제국
▁태어나
▁구조
▁세우
▁다양
▁설립
▁팔
▁당하
▁ㄴ다는
버지
▁설치
▁속하
▁상태
나라
▁폐
▁형태
▁발매
▁악
▁초등
▁W
▁탈
▁벌
▁탄
▁온
▁소속
▁아야
▁좌
▁러시아
▁같이
▁2008
▁사실
▁하지만
▁좋
▁이전
▁침
▁그녀
▁일어나
▁21
우스
▁줄
▁스타
▁센
▁르
▁커
▁로마
디오
▁이것
▁으로서
▁여성
▁폴
▁나라
▁생각
▁인민
▁주로
▁프로그램
▁타이
▁필요
▁갈
▁2011
▁2012
▁출신
▁혼
▁싱
▁참가
▁이탈
▁조직
▁관리
▁보내
▁100
▁기준
▁운영
▁오르
▁위원회
▁중요
▁윤
en
▁2009
▁란
▁생산
므로
▁여자
▁계획
▁2007
▁기관
▁2014
▁t
▁행정
▁상대
▁등장
▁이르
▁정보
▁성공
▁계속
▁음반
▁바이
▁데이
▁지나
▁지정
▁매우
▁국민
▁a
▁콘
▁넘
▁데뷔
▁밝히
▁해당
▁2013
▁O
he
▁레이
▁뿐
▁과학
▁철도
▁아버지
▁고려
▁ㄴ다고
▁칼
스터
▁대전
▁몇
▁발전
▁이탈리아
리즈
▁주요
▁자리
프트
▁사업
▁191
▁찾
▁시스
▁묘
▁24
▁23
▁억
▁처럼
▁지내
▁차지
▁방법
▁000
▁2015
ar
▁2018
▁얼
▁쇼
남도
▁헌
▁월드
라마
▁능
▁앨범
▁돌아
▁2016
레스
▁최고
▁그룹
▁인도
▁빌
▁결국
▁후보
▁관하
▁마이
르크
▁출연
▁아래
▁시리즈
▁엘
▁생활
이션
▁전체
▁J
▁떨
▁빠
▁22
es
▁우리
▁이루어지
▁고등학교
▁한편
▁회사
▁이유
▁내용
▁2006
▁그리스
이트
▁격
▁거치
FA
▁192
▁나가
비아
▁층
▁제공
▁풍
▁인간
▁연합
▁힘
▁스페
▁방식
▁의원
▁공식
▁2017
▁많이
운데
▁인터
▁항공
▁시기
▁희
▁역할
▁잠
▁컴
▁몸
▁군사
▁가운데
▁조사
▁드라마
▁시스템
▁초기
▁류
▁워
▁거의
▁출전
▁기업
▁제도
▁유명
▁반대
▁민족
▁놓
▁나타나
▁으로써
▁s
▁퍼
▁둘
▁지구
▁쓰이
▁교회
▁울
▁푸
▁떠
▁색
▁수상
▁가리
▁텔
▁대신
▁평가
▁유지
▁달리
▁표현
비스
▁느
▁으로부터
▁분류
▁몰
▁26
▁동시
▁홈
▁올리
▁대상
▁특별
▁!
▁녹
▁현대
▁웨
▁기능
▁규모
▁언어
▁모습
▁이미
▁공개
at
▁프리
▁응
▁마지
▁노동
▁자연
▁28
▁승리
▁어야
야기
▁개인
▁졸
▁각각
▁들어가
▁연결
▁27
▁이론
▁전하
▁인정
▁밖
▁뛰
▁붙
▁2019
▁단체
▁진출
▁지도
▁브라
▁임명
▁마지막
북도
▁핵
▁V
▁떨어지
▁시장
▁2005
▁2000
▁목적
▁상황
머니
▁시절
▁샤
▁너
▁수도
▁아르
▁전문
▁정책
▁난
▁눈
▁멀
▁메이
▁정의
▁기간
▁경상
▁직접
▁목록
▁족
▁산업
▁습
▁이야기
▁먹
▁서로
ic
니다
al
▁계약
▁혁
▁압
▁오스트
스크
▁야구
▁추가
▁밴
▁슬
▁기원
▁으면
▁건설
▁공동
BS
▁모델
▁2004
▁콜
▁개최
▁경찰
▁FC
▁플레이
▁건물
▁공간
▁망
▁형성
▁50
▁활약
▁그것
▁자동
▁결혼
▁거리
▁부산
▁스페인
▁훈
▁31
▁29
▁변화
학자
▁노래
▁사상
▁졸업
▁교수
▁변경
으키
▁칸
▁나이
▁b
▁국회
▁TV
▁인물
▁완전
▁마을
is
▁다르
re
▁공화국
▁궁
it
▁텔레
▁벨
▁비롯
▁사랑
▁역시
▁190
▁낮
▁흐
▁노선
▁인민공
▁휴
▁인민공화국
비전
▁ㅏ
▁지지
▁2020
▁학생
▁실제
ou
▁맥
▁중학교
▁보통
▁최대
▁만나
▁요구
▁볼
▁따라
▁지금
이드
▁서비스
▁견
▁잉
대로
▁겠
▁싸
▁보호
▁탑
▁전국
▁일으키
프리카
▁소설
▁우주
▁의회
▁중화
▁딸
▁없이
▁겸
▁실시
▁자기
▁기본
▁판매
▁지하
▁혹
▁황제
▁다이
▁옥
운드
▁가수
▁비판
역시
▁전통
▁싱글
르트
▁차이
▁엄
▁높이
▁밴드
▁떠나
▁원래
▁기반
▁론
▁퇴
너지
▁종교
▁어떤
▁버리
▁세력
▁내리
▁2002
▁경기도
▁탐
로스
▁40
▁소련
▁이끌
▁자료
스탄
▁수행
▁환경
▁기타
▁2003
▁가리키
▁회의
▁전기
▁모양
▁풀
▁센터
▁월드컵
▁부대
▁시설
▁운행
▁나타내
▁그래
▁특징
▁전자
▁공연
▁도쿄
러스
▁걸치
▁교황
▁설명
▁뮤
▁컵
▁기념
나다
▁통합
▁이동
▁예술
▁분야
▁기독
▁승강
▁명칭
▁작업
le
▁득
mp
▁남자
▁텔레비전
▁염
▁행동
▁도입
▁동물
▁연방
▁따라서
▁구역
▁선정
▁바로
▁군대
▁숙
들이
▁전라
▁애니
▁능력
스타
▁출시
▁가족
▁작용
▁증가
▁넓
▁할
▁남쪽
▁확인
▁기존
▁방향
▁소프트
▁행위
▁북쪽
▁지휘
▁제외
▁이때
▁교통
▁기독교
▁문학
▁차량
▁착
▁옮
▁작가
▁=
▁사고
의원
▁비슷
▁국내
▁형식
▁십
▁므로
▁강하
▁클럽
▁어머니
▁혁명
▁그렇
▁윌
▁작곡
▁도로
▁마르
▁빈
▁지배
▁효과
▁낙
▁런
▁마다
▁거두
▁몽
▁왕국
▁역임
▁태양
▁과거
▁유일
▁캐나다
▁컴퓨
▁승강장
▁FI
▁챔
▁옮기
▁사무
▁열차
▁이적
▁갑
▁ㄴ데
BC
▁혹은
▁협회
▁남부
리오
▁비교
▁흥
▁추정
▁생기
▁공산
▁베이
▁정당
▁솔
▁뉴욕
▁흔
▁갖추
▁담당
▁이어지
자리
▁시민
▁이사
▁적용
▁동일
▁획
▁늘
▁육군
▁주변
▁1990
▁홀
▁인기
▁장관
▁즈
▁2001
▁대사
▁동쪽
▁물리
▁챔피
▁넣
▁스포
▁스트
▁쪽
▁X
▁세포
▁윈
▁곧
▁상당
▁건축
▁예정
▁사단
▁공사
▁성장
▁마음
▁징
▁개념
▁맨
▁데이터
▁p
▁구간
▁오늘
▁컴퓨터
▁조지
▁차례
드리
▁품
▁움
▁크기
▁돈
▁에너지
▁비하
▁멤
▁서쪽
▁189
▁ㄴ지
▁버스
▁흑
▁바꾸
▁어리
▁바르
이지
▁잔
▁치르
▁충청
▁록
▁액
▁자체
▁땅
▁칭
▁어느
▁작전
▁조건
▁실패
▁민주주의
▁연기
▁디자
▁이라
▁이런
▁율
▁반응
▁돌아오
▁덕
▁이어
▁선언
▁연주
▁FIFA
▁피해
▁쉽
▁부족
▁컨
▁d
▁버전
▁종류
▁특정
▁연속
▁페르
가지
▁선택
메이션
▁국립
▁익
▁대체
▁쌍
카이
▁수록
▁방영
▁규정
el
▁다루
▁해군
거리
▁대구
▁공항
▁고대
라지
루스
▁내부
et
▁멤버
▁체제
▁속도
버스
▁조약
▁결승
▁정신
▁북부
▁아시아
▁명령
▁기원전
▁는지
▁연대
▁왜
글랜드
▁선출
▁헌법
▁인천
▁크리스
▁쥐
▁애니메이션
▁ㅓ
▁휘
▁옛
▁가치
▁단계
▁포르
▁개혁
▁링
▁먼
ion
▁친구
▁최종
▁물질
▁영어
웨어
▁자치
▁분석
▁달러
▁최근
ing
▁나누
▁설계
▁밤
▁척
트남
▁의사
▁가깝
▁강화
▁출판
▁더욱
▁평균
아가
▁비행
▁소비
시마
▁롭
▁지명
▁1999
▁체계
▁로스
▁술
널리
▁법원
▁북한
▁집단
ol
라스
▁배치
▁잉글랜드
▁머리
▁관심
▁남기
▁표준
▁곤
▁1998
메리카
▁언급
▁팬
▁개월
▁Y
▁치료
▁획득
▁씩
▁부문
▁엔진
▁파이
▁cm
▁하이
▁현상
21
▁겨
▁o
▁헬
▁지속
▁분리
▁실험
▁부상
▁지니
▁조정
▁고자
▁1980
▁맺
▁유사
▁함수
▁60
▁하계
▁선발
▁파리
▁벤
▁처리
▁스테
▁확장
▁공원
▁스포츠
▁마치
스코
▁챔피언
▁대중
▁베르
▁소유
리지
▁제품
▁35
▁마리
▁입단
▁관할
▁시도
▁통일
▁어렵
▁목표
▁빠르
▁이해
▁자동차
▁도움
▁공립
▁요소
▁장군
▁향하
▁재판
▁주도
▁정규
디어
▁mm
▁문자
▁에스
▁점령
▁후반
▁꽃
▁외국
▁요시
▁나무
▁거주
▁구단
▁ㅂ
▁려고
▁주인
▁미치
▁편성
▁앙
▁주민
▁기사
▁바뀌
▁잃
▁시험
▁원자
▁네덜
▁네덜란드
▁가르
▁다면
▁학자
▁행사
▁스럽
▁괴
▁책임
▁끌
▁통신
▁n
▁안정
▁앤
광역시
▁동맹
▁사령
▁결합
▁투표
▁혈
▁일종
▁수준
▁웹
▁모르
▁고속
▁알렉
▁언론
▁깊
▁불구
▁끝나
▁잇
▁장치
▁불교
▁예선
▁듯
om
▁다니
▁길이
▁디자인
▁아프리카
▁개봉
야마
▁1997
▁준비
젝트
나무
▁정하
▁덴
▁베트남
▁문서
▁본선
▁촉
▁빛
▁방문
▁광주
▁칠
일랜드
▁사진
▁캠
▁신문
▁정권
▁가문
▁유전
▁경험
▁정확
▁믿
▁가정
▁드러
메달
▁구분
▁몬
st
▁성적
▁대로
▁폴란드
▁1996
▁요리
▁The
▁제조
▁그림
▁평화
▁1995
▁비디오
▁핀
▁오늘날
▁원인
▁amp
▁부인
▁통과
▁용어
▁부여
▁왕조
▁찬
▁아직
▁32
▁정리
▁70
▁려는
▁일제
▁값
▁추진
▁깨
▁아마
▁프로젝트
▁런던
스로
▁방어
특별
▁올라
▁병원
▁이곳
▁신라
▁종합
▁민주당
▁널리
▁은퇴
▁멸
스턴
▁해석
▁입장
▁프레
▁으므로
▁경쟁
▁통치
▁경영
인트
▁슈퍼
▁영역
▁끼
▁500
▁발달
▁이듬
▁폐지
▁노력
▁인터넷
▁훈련
아들이
▁보도
▁죽이
▁파괴
웨이
▁미사
▁츠
▁제주
▁그런
▁주제
▁제안
▁총리
▁꼬
▁the
▁부정
am
▁놀
레일
▁면적
▁회장
▁80
▁주연
▁기여
▁지키
▁완전히
▁미술
▁모으
▁서부
▁만화
▁유래
▁접하
▁이듬해
▁번호
▁요청
리트
▁국회의원
▁188
▁빅
▁경기장
▁정상
▁도서
▁야마
▁식민
▁남성
▁자주
▁생물
▁연맹
▁투수
▁ㅂ니다
▁UE
라인
▁법률
▁경계
▁궤
▁동부
▁벌이
▁+
▁폰
▁무기
▁1994
▁린
il
▁1970
▁행성
▁돕
▁나뉘
▁금지
▁움직
▁수용
▁UEFA
▁등록
▁소재
▁인식
▁제한
톨릭
▁삼성
▁철학
▁펼
▁연구소
▁무대
▁바탕
▁아시
▁외교
▁영토
ac
▁더불
▁빠지
▁라디오
머지
▁나머지
▁접근
▁반면
▁지진
▁스스로
▁지대
▁강원
▁KBS
▁노르
▁다리
▁발사
▁거부
▁뇌
▁조각
▁업무
▁박물
▁오래
▁돌아가
▁받아들이
▁뉴스
▁표기
▁정식
▁마찬
▁마찬가지
▁벽
▁오스
▁아일랜드
▁결성
▁붙이
▁상호
▁서식
▁은행
▁필리
▁논란
▁굴
▁펜
▁의식
▁1992
▁다수
▁보수
▁이렇
▁기초
▁소리
▁이기
▁짧
▁득점
▁ㅕ
▁공작
▁45
▁가톨릭
▁복귀
요일
▁주의
▁박사
▁성격
▁아카
▁트리
임스
▁아도
▁바다
▁임시
▁스웨
ro
▁실제로
시코
▁수학
▁로써
▁장애
▁해결
▁총선
▁36
▁패배
▁그대로
모토
▁윌리
▁of
ed
▁검사
워드
▁지도자
▁장소
▁느끼
▁초대
▁브라질
▁습니다
▁유로
▁긴
▁에이
▁마이크
▁이스
▁강력
트리
▁박물관
▁스위
▁ㄴ가
▁여행
▁차원
▁제시
▁표시
▁여름
▁묘사
▁오브
▁카드
▁기구
▁식물
▁화학
▁단순
▁인사
▁1960
▁집합
ig
▁안전
▁차트
▁이외
▁계열
▁관측
▁유니
▁연극
▁권력
▁뛰어나
▁활용
▁1991
토리
▁스웨덴
▁무역
▁히로
▁싸우
▁멕
▁오스트리아
▁꾸
▁먼저
▁회원
▁지적
▁기계
▁아무
▁디지
▁파일
▁자라
▁캐릭
▁개국
부르크
로나
▁취하
▁근처
▁형제
▁1993
▁33
▁반란
▁조성
레일리아
▁위험
▁중단
▁중간
▁붕
▁만큼
▁세대
▁소프트웨어
▁흡
▁발행
▁일정
▁분포
▁도착
▁시행
배우
베이
▁기자
▁협력
▁다만
▁스코
▁스튜
트로
▁량
▁띠
특별시
od
버트
▁여객
▁사이트
▁캐릭터
▁서울특별시
▁죽음
▁죄
▁하루
▁단어
사카
▁들어오
▁186
▁해안
▁윈도
▁지하철
주시
▁파견
▁",
▁렌
ve
▁세상
▁수많
▁연장
워크
니스
▁삶
▁카이
▁혜
▁내려
▁순위
as
▁코드
▁겪
▁공장
▁투자
▁제기
▁태평
▁혐
나이
▁다카
▁감소
▁본부
▁전시
▁내각
▁뮤직
▁오스트레일리아
▁근거
▁후기
▁이라고
▁확대
▁경상남도
지션
▁번역
▁생성
▁케이
▁옹
소년
▁윌리엄
▁귀족
▁?
▁듣
▁지상
▁경상북도
▁지식
▁위기
▁네트
▁보유
▁보존
▁균
▁양식
▁유형
▁구하
▁달성
무원
▁숨
▁관광
▁1988
▁동생
▁상징
▁멜
▁촬
▁전략
▁유대
▁187
▁수사
▁멕시코
▁극장
▁래
▁h
▁당선
▁완성
▁유리
▁성립
▁캘
▁촌
▁상업
▁영상
▁원소
▁대응
▁학위
▁디지털
▁근무
▁이렇게
▁님
▁계승
▁특수
▁짓
▁촬영
▁34
▁단위
▁체포
티아
▁이슬
아내
▁흐르
▁옆
▁나중
▁수비
▁권리
▁식민지
▁몇몇
▁싶
▁38
▁발매되
▁체결
▁코치
▁전달
▁이집
가리
회사
▁이집트
▁미래
id
▁마사
▁생명
▁벌어지
▁알렉산
▁판단
▁걸리
▁듀
▁낳
▁90
아시아
▁맹
▁국왕
▁타이틀
▁아내
▁이란
▁시티
▁종목
▁직후
가와
▁헨
▁승격
▁관찰
▁1989
▁이주
▁톤
▁시청
▁측정
▁자본
▁률
▁크로
▁펼치
▁주식
▁젊
▁맞추
▁틀
▁미군
모리
▁대륙
▁즐
▁소수
▁개통
▁ㄴ다면
▁전환
▁밑
▁도서관
▁48
▁2021
▁설정
ec
▁채널
▁동계
▁엘리
▁얼마
us
▁세르
▁스키
▁라인
▁새로
▁의견
▁특성
▁홍콩
▁정치인
▁쌓
▁',
▁납
NA
▁개정
▁문화재
▁시위
and
▁포르투
▁신경
▁종료
▁텍
▁지위
▁답
▁취임
▁셰
▁제정
▁미사일
▁상하
▁달하
▁1950
▁기획
▁|
▁헝
▁주어지
▁은하
▁300
▁교체
▁사회주의
▁결승전
▁아라
▁으면서
디아
▁후쿠
▁예수
▁주인공
▁본관
▁MBC
▁천황
스티
▁청년
▁범죄
▁빼
▁전차
▁주목
코드
▁소개
▁벗
▁출생
▁해외
▁충돌
ad
▁제임스
▁았었
▁녹음
▁장기
▁아키
▁수정
▁셀
▁춘
▁e
▁계산
▁비용
교회
▁개선
▁스티
▁전라남도
전히
▁본래
▁남북
▁1945
▁음식
▁모이
▁바이러스
▁즉위
▁비밀
▁계기
▁자격
▁합류
리학
▁공부
▁건강
▁소장
▁공급
▁건너
▁카운
▁부모
▁이래
ent
▁펠
▁만드
▁원정
▁배경
▁누구
▁홈런
▁제거
▁네트워크
스카
▁물론
▁체육
▁에드
▁궤도
▁털
50
▁각종
▁인근
▁ㅏㅆ
▁시내
▁거대
▁컬
▁오후
▁작성
보이
▁명예
▁신학
▁집중
▁자원
▁가입
▁감염
▁입학
▁가격
▁공군
▁왼
▁읽
▁베네
▁랑
▁객
▁피아
▁국경
▁군인
▁전사
▁롤
베르
▁병력
▁천문
라도
▁강조
▁저항
▁통제
▁성우
▁이슬람
티나
▁측면
▁울산
▁명단
▁아우
▁찰
▁농업
▁줄이
▁신호
▁포지션
▁소송
피아
▁인수
▁만약
▁병사
▁세이
▁학문
리포
▁기후
▁질량
▁블랙
▁실행
▁나서
▁너무
▁기회
▁St
▁플로
▁이번
▁피하
▁터미
▁콩
ot
▁오른
▁터키
도로
▁증명
▁변호
▁최소
▁태평양
니어
▁겨울
▁광고
▁약간
▁강원도
▁정착
▁노동자
▁엑
▁비트
▁x
▁마리아
▁쉬
동안
▁무장
▁잎
▁외부
▁미디어
▁해방
un
▁환자
▁몽골
▁쇠
▁37
▁바라
▁사라지
▁국방
▁바람
ow
▁전반
▁편집
▁제목
▁마쓰
▁냉
▁in
▁도중
▁터미널
▁무렵
▁표면
스키
▁마련
▁지점
철도
▁금융
▁허용
▁라운드
▁혐의
▁충분
▁밀도
▁재산
▁가스
소리
▁유도
▁카르
▁1987
▁여전히
▁빨
▁ㅕ서
오카
▁힐
▁그해
▁학년
▁인디
▁루이
▁오리
▁합병
▁고전
▁가져
▁현실
▁전력
▁민간
▁보고
▁윈도우
▁헝가리
▁뒷
▁숲
▁재직
▁오사카
▁꼬리
▁충청남도
▁전역
▁양성
▁포르투갈
▁킹
▁41
▁영화배우
▁재정
▁령
▁w
▁등급
마크
▁붕괴
▁후지
▁계급
▁적극
▁행하
▁동료
▁선수단
드로
▁강제
▁51
▁공주
▁라이브
▁1986
▁위협
▁공공
▁엔터
▁대대
▁이하
ur
▁조치
▁위원장
▁1984
▁근대
▁스튜디오
▁승인
▁봄
▁전선
▁군주
▁캘리포
▁유엔
▁온도
▁수입
▁구축
▁이미지
▁범위
▁대수
▁이제
▁점차
▁샌
▁업체
▁꿈
▁논문
▁원칙
▁클라
▁임무
▁항상
▁둥
▁확보
▁출발
▁경력
▁위성
▁다섯
▁공산당
▁거래
▁양자
▁교사
▁앞서
러지
▁전개
▁고구
▁캘리포니아
▁채택
▁회복
▁대학원
▁잭
▁수단
▁성인
▁올라가
▁든
▁공업
▁증거
마스
▁토론
▁수립
▁핀란드
▁필리핀
▁섭
▁강의
▁잡지
주교
테르
▁드래
▁첨
▁합의
▁아시안
ch
▁남아
▁어떻
▁그래서
▁39
▁얼굴
▁남편
▁만족
▁사례
▁스파
▁개편
▁400
▁일원
▁의료
▁선생
▁부근
▁기지
▁라며
▁매년
▁폭발
바이
▁시인
▁나카
▁앞두
고리
▁욕
▁이스라
▁간주
▁이승
▁스위스
▁1985
▁장면
▁끊
▁모스크
▁붉
▁장비
▁64
▁대형
▁군단
▁종종
▁아름
▁토지
▁튀
로드
다리
▁스리
▁아주
▁대기
▁불가
▁둘러
데미
▁뜨
▁규칙
▁경향
ay
▁이스라엘
▁움직이
ir
▁경주
▁기대
▁어린
▁분자
▁종이
▁ㅏ서
▁게이
키아
▁수원
▁항성
▁캄
ut
▁라면
▁II
▁조합
▁기억
▁심하
▁낭
▁확실
▁진화
▁에게서
▁저지
▁아랍
▁그곳
▁해체
▁귀국
▁맛
백질
▁탑재
레이드
고기
우드
▁대장
▁43
▁레코드
um
▁좀
어들
▁강점
▁향상
▁서양
▁짐
▁장식
▁아나
▁아카데미
▁스피
▁br
▁신화
▁평양
▁투어
▁변하
▁클래
▁고양
▁침공
▁아메리카
▁아름답
▁보장
▁청나라
▁융
im
▁청소년
▁불과
▁의학
▁폼
▁42
▁선고
▁박쥐
▁감정
요시
▁고구려
오스
▁남동
▁랭
▁자금
▁사후
▁켄
▁가로
▁가사
▁새기
▁성과
▁보병
▁잠시
보드
▁카운티
▁메이저
▁스타일
▁에피
네스
▁카메
▁독자
▁이끄
ver
▁고문
▁소년
▁신설
▁우선
▁나치
▁살해
▁단지
▁1982
▁만주
▁55
▁확정
▁중화민국
타인
▁우수
▁단백질
▁숭
▁라틴
무르
에르
라노
▁스카
▁지시
▁편입
▁신앙
▁합치
▁함대
틀랜드
▁복잡
▁스케
▁철도역
▁삭
▁나폴
▁비율
▁예상
▁광역시
▁차별
네시아
▁왕위
▁태풍
▁구체
▁검찰
▁의장
▁44
▁마크
▁전화
▁덴마크
▁1983
다이
▁재단
누스
▁창설
▁냐
뜨리
▁i
▁세종
▁법인
▁고향
▁동의
▁LG
▁성당
▁온라인
일러
▁판결
▁대립
▁공유
▁역대
▁짜
트라
▁전설
FC
▁참석
▁브리
▁가하
▁묻
▁보급
▁선거구
▁반도
▁솔로
▁수출
▁47
▁육상
▁킬
▁삼국
▁하늘
▁둘러싸
▁브랜드
뿌리
운동
▁어도
▁유학
싱턴
▁고정
없이
▁노예
▁무엇
▁협상
의회
▁핵심
▁집행
▁본격
▁저장
▁후손
비드
이크
▁카를
▁애플
▁헤이
반도
▁75
오프
▁보안
▁탄생
하라
▁초반
▁자세
▁184
▁180
▁강점기
▁오픈
▁대비
▁산맥
▁중반
▁사전
▁옷
▁대항
▁마드리
▁Z
▁주교
▁암살
▁이성
▁회전
▁사우
▁숫
▁아르헨
원군
▁전혀
셔널
▁연고
각형
문화
▁플랫
▁로버트
▁마드리드
▁베이스
▁1972
▁법칙
▁권한
▁의무
▁이익
▁어린이
리스트
▁프란
▁단일
▁켈
▁공기
▁직원
▁조금
소드
▁인상
▁아르헨티나
▁46
바르
▁전용
▁공학
▁순서
▁1920
▁말기
▁베를
▁시각
레이션
▁운전
▁요한
터리
▁공포
▁가르치
▁유적
▁비난
▁잘못
▁모리
▁사항
▁수여
▁별도
▁중심지
▁아스
▁1979
CA
▁아미
▁상품
▁흔히
▁밀리
▁보조
▁원주
▁스크
▁협정
▁덮
▁전라북도
▁창조
▁변호사
▁워싱턴
▁효소
▁전후
▁롯
▁글로
▁아파
▁인권
▁기하
▁관료
▁kg
▁CD
정부
▁투입
▁통계
▁파크
▁마시
▁작곡가
▁방면
▁소식
퍼드
▁장착
▁1930
▁넘어
ra
▁우크
▁심각
▁현장
▁셋
▁레드
무라
▁정복
▁항복
▁저서
▁훨
▁1981
▁갈등
▁In
▁엠
▁150
▁아침
▁금메달
▁1973
▁오히
▁하드
▁중세
▁본인
▁놓이
▁어떻게
▁호텔
▁헨리
퍼스
▁공무원
사키
10
▁니콜
▁훨씬
▁물러
▁공산주의
▁벡
▁교류
▁출마
▁마이클
▁공화
▁논의
▁성경
▁플라
▁v
▁요새
▁건국
▁교토
▁무리
겨나
▁오른쪽
▁노스
▁오랜
os
리어
▁택
▁중부
▁뿌리
▁건조
▁패하
▁인류
▁코미
▁유전자
▁김정
▁한때
▁연합군
▁산하
▁오토
▁인정받
▁빙
▁방출
▁플레이어
▁왼쪽
▁세인트
▁예산
▁추측
▁드러나
▁형사
▁라도
▁로드
▁금속
▁창립
▁서기
▁성질
▁벗어나
▁주위
▁1940
30
▁투쟁
▁찍
▁베이징
▁아프
▁던지
일보
▁태국
▁릴
▁에어
▁원작
▁사태
▁1974
▁185
▁오전
▁사령관
▁노르웨이
BO
▁절대
▁에피소드
em
▁북서
▁제자
▁코스
▁탁
▁복합
▁멸망
▁플레이오프
▁군수
ter
▁운용
▁효율
▁반복
▁논쟁
▁모스크바
▁가져오
▁뽑
▁제출
▁집안
▁구별
▁읍
▁SBS
▁정비
▁메시
▁입자
▁스코틀랜드
▁오히려
카와
▁해양
▁합성
▁전철
▁1948
▁마침
▁사법
▁노부
▁중대
▁숫자
▁거절
▁포위
붙이
▁인종
▁주기
▁흡수
▁미니
아오
듀서
▁프로듀서
▁인공
▁해상
▁연산
▁퍼지
▁블루
▁빌리
▁원리
머스
▁54
▁연관
▁출장
▁인조
▁댄
▁각본
▁시점
▁1968
▁활발
▁포기
▁델
▁목사
▁1976
▁웨스트
▁수송
▁슬로
▁베를린
▁인터뷰
▁신체
▁넘기
▁개시
▁밖에
▁이민
▁소녀
▁경성
▁우스
▁취급
▁북동
▁주전
▁출입
▁전공
▁건립
▁즐기
▁1975
▁고용
▁보스
▁명성
▁안타
▁분쟁
▁동원
▁디스
▁파라
▁음력
▁실리
데스
▁히데
▁사령부
▁주택
도르
▁취득
op
▁장악
나이티
▁비록
▁축제
시스
▁트랙
▁신성
▁구속
▁활성
▁국도
▁유나이티
▁진보
▁농민
▁끝내
▁봉하
▁영화제
▁견해
▁보컬
▁전부
▁일치
▁하나님
▁1978
▁56
▁프라
▁총독
서트
▁1971
▁미드
▁국장
▁갤
▁불법
ag
▁고유
▁늘어나
▁부활
▁텐
▁1963
▁소스
▁직전
▁더라도
▁52
에트
▁보험
▁관점
▁북아
산시
▁유물
▁후원
▁49
▁편지
▁대리
▁정체
▁약속
▁폭력
▁상당히
▁도달
▁자이
▁하위
▁65
▁혼란
▁코미디
키스탄
▁주관
다가
▁한자
▁교차
▁연료
▁학습
▁누리
▁항공기
비치
▁철수
▁포도
▁타이완
▁수술
▁시리아
▁닌
▁그리스도
▁스미
ce
▁여부
▁직업
세이
▁여객철도
▁1969
메리
▁다며
▁반영
▁아테
▁임금
▁선교
▁물러나
▁관직
기에
▁179
▁천체
릭스
▁Q
▁고종
자기
▁브레
▁한국어
젤레스
▁랜
▁백제
▁명명
▁상륙
쿠라
▁팝
▁수집
▁대화
▁논리
▁의존
▁장교
▁본사
▁넷
▁00
리케
▁성능
▁미나
▁모시
▁제어
▁심리
▁주간
▁테러
▁데이비드
어스
▁1946
▁교환
▁부임
▁화물
▁십자
▁아사
▁보관
▁일대
▁백작
▁학술
▁톰
▁프리미
▁영업
▁그런데
▁좁
▁콘서트
▁정지
▁주식회사
라비아
▁폴리
▁개체
▁도구
▁해산
▁판서
▁나아가
공항
▁허가
▁불상
▁소방
▁53
OS
▁전파
▁스마
▁자살
▁상승
▁반발
▁전문가
▁프로세
▁하우스
▁거기
▁연재
▁김영
▁제일
▁박정
▁방사
▁영향력
▁핑
▁그레
▁원하
▁코로나
▁진입
oc
▁살인
▁대략
▁1964
미터
병대
▁간단
▁정원
▁먹이
▁헤르
▁공통
▁고리
▁니시
▁드리
▁리스
▁화성
▁충청북도
▁보건
▁재료
▁영입
▁신분
▁베스트
▁미터
▁약하
▁겐
▁학부
▁US
▁스프
▁피아노
▁소비에트
이어
▁승진
▁파트
▁사장
▁항구
▁가을
▁벨기에
▁꼭
▁포트
▁외국인
▁서버
▁학원
▁도망
▁부장
▁고도
▁한반도
▁기도
▁and
노스
▁지붕
▁진압
▁국제공항
▁발언
ri
▁1000
▁58
▁99
▁인도네시아
▁학회
▁감사
▁사운드
오르
▁누르
▁탈출
▁그치
▁탈락
▁락
▁다스
▁횡
▁질병
▁현역
▁구성원
▁닥
▁시호
▁루이스
▁머무르
▁주년
▁채용
하마
▁리더
▁스토
▁의도
▁쫓
▁브루
▁참전
▁창단
▁콤
▁통상
▁트랜
▁공동체
▁식품
▁신청
▁픽
▁벼
▁합격
▁복무
▁PC
▁계통
▁장수
천군
▁임대
▁응용
▁변환
▁1977
▁모드
아버지
저우
▁조작
▁망명
▁포로
▁요코
▁SK
▁위반
▁임의
▁작사
▁민법
▁에도
▁문헌
▁1949
▁말레이
▁친일
▁롯데
▁화면
▁띄
▁마케
▁페이
프리
▁트라
▁부부
성군
▁청구
▁문장
▁..
▁라이트
▁로스앤
▁로스앤젤레스
▁동남
▁방송국
igh
▁절차
▁FA
▁요인
▁저작
려움
▁분열
▁트로
▁예측
▁탄소
▁학과
▁이치
▁수영
▁지급
▁배출
▁연출
▁변형
문화재
▁선조
▁1962
▁88
▁신인
드시
▁캠퍼스
▁상원
▁자녀
▁엑스
▁주둔
▁레오
정식
▁조절
▁수소
▁선전
▁시카
▁칭하
▁62
▁코파
▁메모리
▁이중
ation
▁1967
▁전동
▁국무
▁레스
▁막부
▁출간
▁흉
▁큐
▁정기
▁광장
▁처형
타르
▁기호
▁수리
▁화재
▁선보이
크스
▁이승만
▁실수
▁황금
▁서원
▁취소
▁힘들
▁오페
로그
카이도
▁등지
▁방지
천시
▁로켓
▁r
▁어떠
▁콘스탄
▁기법
▁생존
▁오스만
▁장르
▁이시
▁호수
▁57
▁증상
▁왕자
▁서구
▁남서
▁는가
▁You
▁흑인
▁동작
▁카메라
수록
▁동성
▁앵
▁연안
라드
▁현지
▁루트
▁개조
브리
▁반드시
▁예비
▁히트
▁늦
▁롱
▁희망
아나
▁제대로
▁Ch
▁고지
▁위상
▁좌우
포르
▁맞서
▁농구
▁여단
▁기체
▁고치
▁전주
▁무덤
▁싸움
▁임진
▁공정
▁분명
▁톱
▁크리
▁노리
▁일본군
▁진주
▁천연
▁도전
▁맞이
▁181
▁전면
▁파악
▁터널
▁동아
▁코르
▁엄청
▁둘째
▁으려
▁전형
▁꺾
▁흘
▁독특
▁압력
▁해리
▁1966
nd
▁스탠
▁묵
▁특이
▁돌리
▁목소리
방송
▁우려
▁이온
▁66
바라
라이언
▁%,
▁물체
▁미국인
▁녹색
▁리처
▁매일
▁법정
이치
▁경로
▁글자
▁그레이
▁드물
▁독립운동
▁동기
▁에르
▁성향
▁타임
▁노벨
▁1965
▁바둑
▁덧
▁부사
▁인지
▁68
▁아리
▁신뢰
▁유기
▁방정식
▁멘
▁어디
▁183
더스
▁체코
▁KBO
티브
▁지리
베스
▁처벌
▁묶
▁클레
▁가시
▁개신
▁추구
에이
▁알렉산드
▁61
▁방해
치아
▁실질
▁람
▁밥
▁분해
ST
▁타격
▁유행
▁일찍
▁일식
▁퀸
▁김일
▁완료
▁간행
▁웅
▁분할
▁찰스
▁풍부
르타
▁내전
질랜드
▁홋
▁화산
▁찌
▁아동
▁부진
▁사립
▁삽
▁빼앗
▁뉴질랜드
▁복지
▁손자
▁희생
▁순환
▁범주
▁평등
▁나들
▁아파트
▁마르크
▁나들목
먼트
▁마침내
▁대개
▁엄청나
▁별명
▁1961
▁비평
▁플래
▁가까
▁집권
▁오프
ER
▁갈색
▁최다
▁800
art
▁점점
▁첼
▁한정
▁전원
▁파르
▁곱
▁흰
▁시조
▁86
▁으니
▁한계
▁분기
▁사냥
▁600
▁리가
▁가상
▁대법
▁시드
▁판사
ice
▁창원
▁구현
▁부하
▁의지
유럽
▁기둥
▁120
▁근본
▁모형
▁분위
다르
▁테이
▁훗
투스
▁명확
▁바치
▁충격
▁사원
▁그라
ON
▁교향
▁완공
▁일본인
텐츠
▁IS
▁메리
▁웨이
▁중기
▁사형
▁무게
▁벡터
▁사임
▁확산
▁들어서
▁스토리
▁오페라
▁프린
▁출범
▁날개
▁마법
디션
▁단독
▁드러내
▁1919
▁션
est
은행
▁대공
▁사마
▁제이
피스
틀러
▁호주
▁캔
▁물리학
▁레인
▁상위
▁적절
▁렀
▁뚜
▁의혹
▁악화
ia
▁통산
▁훌
세우
▁re
▁이자
▁의심
▁명나라
▁닛
▁모토
▁영웅
▁무시
▁회담
▁연구원
▁알파
TV
▁98
▁유치
▁당초
▁서명
▁굽
▁가나
ap
▁편찬
▁조종
▁키우
▁함락
▁1944
▁발굴
▁이닝
사자
▁문명
▁득표
사스
▁추천
▁쏘
▁인접
▁사실상
▁카라
ak
▁넓이
▁광복
▁연간
▁자극
▁샘
▁그때
▁포인트
▁모임
▁인증
라이나
▁징역
▁생겨나
▁개입
▁도쿠
▁저술
▁곽
▁순간
▁접촉
▁각지
▁진정
▁포항
아보
▁여론
▁순수
▁사정
▁등판
▁올해
▁홍보
연히
▁프리미어
▁동서
▁1941
▁기리
▁악기
▁구원
▁고속도로
▁세르비아
▁독일군
▁개막
▁63
▁골든
우리
▁언제
▁오랫
▁루스
▁드라이
▁95
▁뮤지
AR
나가
▁기기
▁기온
▁탐사
▁꼽
메이
시오
▁태도
▁학살
▁74
▁여야
▁DNA
▁팽
민주
버그
학생
▁백성
▁59
▁실현
▁공로
▁Lo
▁임기
일리
▁바위
무부
▁한국인
▁변수
▁시카고
믹스
▁수석
▁경전
숭이
▁성분
▁행렬
▁예전
▁178
▁네이
▁공헌
▁앤드
▁입법
▁줄어들
▁양쪽
▁추산
▁오랫동안
▁보고서
▁심사
▁훗날
▁스마트
ct
▁페르시아
▁닉
▁감시
▁아티
대부
▁확률
▁춤
▁뱅
▁혼합
▁자전
▁튜
▁균형
▁방위
▁1958
▁프로그래
▁매장
▁침략
▁미쓰
▁시사
ul
▁에드워드
▁왕실
▁특별시
▁분위기
▁영지
▁리처드
러리
▁IC
▁1947
▁출력
▁신부
리히
▁82
▁피터
▁160
▁커뮤
▁승부
▁조별
코스
▁to
▁대량
▁개신교
▁원형
▁저녁
▁멀리
▁무사
▁이라크
▁타자
▁팔리
▁76
▁단편
▁안토
▁1956
▁경남
▁대선
▁프라이
▁;/
▁다케
이너
▁줄기
▁기울
▁72
▁승객
▁권위
▁미야
▁에서부터
▁고르
▁여왕
▁텍사스
▁랜드
▁제사
▁그래픽
▁흐름
▁마무
▁발발
▁프랑크
▁아이돌
▁재건
▁SS
▁커뮤니
▁가와
▁점수
▁앉
▁확립
▁안동
ie
▁우라
▁동명
▁바깥
▁77
▁복원
▁작위
▁긍
▁일상
▁데스
▁참고
▁석유
▁비치
▁교구
리노
▁과학자
▁원수
▁ㄹ지
▁섞
▁입력
▁테스트
▁침입
▁복수
▁비상
▁1939
▁수익
▁잠수
▁폭탄
▁Th
▁어깨
▁시상
메리칸
▁67
레나
▁당국
▁리버
▁겹
▁젠
▁심지
▁브라운
▁축구단
▁신자
▁민중
▁복음
▁도요
▁사자
▁덜
▁일시
▁자식
레옹
▁본질
▁타워
▁포켓
ud
▁계층
▁기소
▁더블
일스
▁병합
▁재배
▁AFC
▁연예
▁나폴레옹
▁한글
▁시마
마르
▁주최
▁대왕
▁그렇게
▁가공
▁신고
▁혁신
▁부지
▁도모
ly
에른
▁가량
이센
▁끼치
▁다운
▁파워
▁정수
og
▁빅토
▁동양
▁빌보드
▁지형
▁85
▁사제
▁가담
▁보물
▁대성
▁창작
▁내셔널
th
▁공중
▁평안
▁거듭
▁힌
▁듯이
마니아
▁1954
▁움직임
ist
▁폐쇄
▁암호
▁깃
레인
▁가설
▁노출
▁들이
▁인쇄
▁후계
아티아
▁크로아티아
▁훈장
▁국기
▁산화
▁쌀
▁구글
▁급제
▁총회
▁평론
ight
▁고통
왜란
▁비서
▁1952
▁임진왜란
▁고기
▁참모
아지
AS
▁력
▁다소
▁가이
▁세리
▁탱
▁실력
▁채우
▁보상
▁전신
▁대지
▁73
▁후속
▁보살
▁상관
느리
▁오가
▁박정희
▁바닥
▁아테네
▁셔
▁동방
▁라스
조합
▁96
▁그만
▁김대
▁행복
▁발음
아하
▁따로
▁조조
▁탈퇴
▁절반
▁뮤지컬
▁스타디
▁오카
▁타운
▁국정
▁81
▁비례
바로
▁인용
▁*
▁무한
▁Al
필더
▁개설
▁도덕
▁미드필더
▁수도원
▁피해자
▁불만
▁소득
▁심장
▁뷰
▁뤼
하여
▁가까이
▁좋아하
▁장남
▁78
▁부담
▁청주
AT
▁로봇
▁재학
▁살리
체스터
▁전남
▁전투기
▁화이트
▁손상
▁처하
▁화장
▁센트
▁안드로
의정
▁전직
▁바이에른
▁여섯
▁이혼
▁지향
▁뮌
▁중력
타이
▁김성
▁는다는
▁아트
▁하인
▁께
너스
▁포스트
▁녀
▁교리
▁천안
▁국군
▁주력
▁산소
▁블라
▁보르
▁작동
▁콘스탄티
▁인생
▁붓
▁1959
▁검토
▁202
▁NH
▁백만
▁총장
▁지사
▁레알
▁생물학
▁마무리
▁177
▁결론
BA
▁당나라
ess
▁윗
▁관여
▁빌딩
직자
▁질환
▁와이
자치
인물
토스
▁사무소
▁심지어
▁Li
▁상실
▁기상
▁포스
▁화합
▁황후
▁91
▁71
▁호소
▁아웃
▁AT
▁문신
▁설득
▁패션
▁메시지
▁상역
▁피부
▁선박
▁사우스
▁사유
▁;,
가락
▁유통
▁DV
▁가마
▁개방
▁신사
클리
▁처분
▁일컫
스트라
세포
쿠스
▁수요
▁분노
▁오직
▁결의
▁프로이센
▁가슴
▁액션
▁골드
▁1942
▁승려
▁하원
▁의대
▁규제
▁햄
▁이명
▁가요
▁연습
▁넘어가
▁모터
▁내려오
▁역학
▁약물
▁혼인
▁적합
▁동해
▁글로벌
▁페이지
▁김일성
▁매체
▁조카
▁구매
▁디스크
▁선임
▁모바
▁위대
▁심판
▁좌상
▁그린
드리히
▁개성
▁왕비
▁87
IV
▁통화
▁잭슨
▁진단
▁위키
미야
ub
▁159
▁1943
▁st
▁소멸
▁프랭
▁지나가
▁1955
▁긍정
▁야스
▁부산광역시
▁서식지
IA
▁발탁
▁원년
▁말레이시아
▁쿠데
▁크루
가니
▁홋카이도
▁억제
▁일기
▁프리드리히
▁스타디움
▁퀴
▁1953
▁어려움
▁예방
▁주석
▁왕후
▁진영
▁음악가
▁드래프트
▁톨
▁테크
히로
▁\
▁불안
▁필드
▁무료
▁1936
ab
▁사도
▁조차
▁700
▁싱가
▁일체
▁싱가포르
▁나쁘
▁사격
▁굳
미르
▁84
▁사무실
▁시나
▁대책
▁자이언
▁AP
▁즉시
▁힙
▁유고
▁태조
▁폭격
▁타인
▁일본어
▁루마니아
▁디아
▁카스
▁궁전
▁티베
▁천주교
▁리드
▁유형문화재
▁인원
▁쿠데타
▁쾌
▁세자
▁조지아
▁여우
데이
▁막대
▁상속
▁1910
▁이와
버리
▁모바일
▁정차
▁기동
▁크로스
▁김종
▁자는
▁창당
▁몰리
▁전북
▁깊이
▁연설
▁대체로
▁스티븐
주군
▁사라
유산
ine
▁후쿠오카
▁닫
올리
▁전동차
▁히틀러
▁Re
▁오이
▁구입
▁딜
▁요금
▁97
▁학사
▁진격
▁전당
▁딘
▁개칭
▁챔피언십
달리
▁남아프리카
▁아메리칸
구리
▁독재
▁강릉
▁1957
▁원주민
란색
우치
▁알바
▁발명
▁자국
▁조상
▁대우
▁늘리
▁추방
▁검색
▁초점
▁알고리
▁느낌
구치
▁부동
머리
▁사과
▁필수
▁스미스
ew
▁본명
베르트
▁콘텐츠
▁광범
▁타이거
독부
▁휴대
▁수호
▁생태
▁음성
▁전송
▁흔하
▁담기
▁동북
▁기다리
▁1914
▁급격
▁세트
▁69
▁렀다
▁사기
원경
▁테마
▁신장
▁메이지
▁천만
다랗
▁빚
▁이즈
▁92
시스코
▁이마
▁덩
▁주소
▁인디언
▁알고리즘
ue
▁수업
▁="
미니
▁업적
▁포켓몬
▁잡히
▁핫
▁미리
▁똑
▁연락
▁완벽
▁끌어
▁신도
▁이내
▁토론토
▁도마
▁게다가
▁게르
▁후임
▁최우
▁1900
▁불가리아
▁세부
▁1938
▁상인
▁코리아
▁클로
▁림
▁섹
▁서술
▁전술
▁랄
▁닥터
▁스프링
래프트
▁펑
▁려면
▁스탈
지사
▁부위
▁화려
▁유효
▁다스리
▁고급
▁물건
▁고시
▁라이프
▁미술관
EC
▁석사
▁숨기
다니
▁배포
▁주니어
▁언덕
▁재즈
▁101
▁노트
▁질문
▁소비자
비히
▁바르셀
▁연평
▁바르셀로나
▁암컷
▁각국
▁늑
총리
▁안드
▁오키
▁1918
▁HD
▁영양
▁마르크스
▁01
로지
▁해발
▁립
자키
▁라틴어
리그
▁개량
▁윙
▁내놓
▁소형
산화
▁손실
▁랩
▁느냐
▁마스터
▁선형
▁실천
▁료
▁고위
▁백인
▁일련
▁DVD
▁등장인물
여금
총독부
▁조선총독부
▁사퇴
▁언스
▁집회
▁웰
▁풋
▁유산
▁라우
▁상주
▁화석
▁1951
▁저자
▁프랑스군
▁갑자기
▁1932
▁시내버스
제국
▁감각
▁추기
▁경비
▁반사
▁운항
BM
▁미스
▁영주
▁주체
▁계곡
▁국적
▁알레
▁개별
▁메달
▁on
▁격파
▁블록
▁1937
▁{
▁정교회
▁선포
▁의문
▁차단
무늬
▁짝
▁말리
▁번지
▁용인
▁거짓
▁고객
▁미시
▁자본주의
▁만든
▁마틴
민주당
▁상수
▁진학
필드
▁대만
▁부친
가시
▁설치류
▁엘리자
펙트
▁올스타
▁넥
▁흰색
▁이웃
▁89
▁첩
▁화제
▁둥글
▁광범위
▁재개
▁당원
바키아
▁방언
▁찬성
▁후계자
▁실업
▁182
▁1935
▁사양
▁환승
▁비스
▁칭호
▁타율
ect
▁우크라
▁되돌
▁항의
▁93
▁트레이드
▁수치
▁비행기
▁분교
▁크라
▁기부
▁뮌헨
▁이스트
▁데리
▁구상
▁고양이
▁꾸준
▁로렌
▁추기경
▁Be
▁사찰
동생
▁베리
▁허락
▁퀘
▁항공사
사전
▁탄압
▁파티
▁질서
▁수백
▁중추
▁커버
▁경제학
▁시트
▁싱어
▁증언
▁구멍
▁최후
▁발간
▁체험
▁웃
▁촉진
▁반지
▁겉
▁분화
▁면역
▁어요
▁자산
▁회로
▁극단
▁남녀
▁클리
▁덧붙이
▁이념
다수
▁목성
▁마주
센트
▁법학
▁화폐
▁곡선
▁공신
▁소문
▁소화
▁양산
▁마루
▁내세우
▁옵
▁습격
▁쿨
▁아티스트
▁푸르
▁성남
▁영원
저스
런스
▁소위
▁가속
▁개척
ore
▁기에
▁클래식
▁시모
▁대법원
리우스
슈타인
▁94
▁보편
▁축소
▁OS
▁1933
▁탄핵
▁강남
▁소집
▁잠수함
▁물고기
▁탕
▁FM
▁운송
▁티베트
▁수십
▁유배
our
▁쿼
▁툴
▁펴
리나
▁약화
IN
▁충분히
▁선호
▁아오
▁지수
▁1928
▁하여금
▁그리하여
▁핸
▁동화
▁혼자
▁원시
▁군부
▁CP
려가
돼지
른바
▁영구
▁태종
▁전적
▁무너지
도사
▁조항
▁경사
▁당신
▁주일
▁직무
▁동경
▁누스
▁어둡
▁지불
▁매치
▁지나치
▁팩
▁칠레
ell
▁이른바
▁1924
▁뼈
▁시신
▁프랑스어
▁걷
▁콜로
공사
▁국토
▁멈
▁용도
▁틈
▁이행
▁간부
▁세월
▁정통
프레
▁발레
▁개명
▁재능
▁상대식
▁79
▁정면
▁댄스
▁전망
▁조기
▁토대
▁익스
▁토마스
▁사막
들리
벤트
▁메트로
▁09
▁김해
▁반하
닉스
▁펀
▁실내
▁110
▁손해
▁형상
▁입대
▁콜롬
사이
▁따오
▁종사
▁이재
▁프로그래밍
▁의정부
▁개장
▁가난
▁대칭
▁회색
▁브로
▁단순히
슬링
티스
▁170
▁진실
▁쟁
end
▁러브
▁04
▁구름
▁동굴
▁판정
▁액체
▁열매
▁지중
▁합동
▁오버
▁수컷
▁존스
▁토착
▁파키스탄
▁ㅓㅆ
▁초상
과이
▁무력
어도
▁무용
▁베네치아
▁자랑
코프
▁안토니
▁해제
ill
▁유아
▁법안
브라
ain
▁경고
▁당대
▁흔적
▁뻗
▁엄격
▁하와
▁전제
▁사이드
▁로즈
▁자르
베리아
▁원자력
▁양국
테스
▁부리
▁고교
ID
▁총재
▁플로리
사르
▁08
▁재생
▁대승
▁불러
ers
▁우에
▁주문
▁인민군
▁틴
▁안티
▁퓨
▁멀티
▁일단
▁정류
▁세로
▁룸
▁Co
▁개찰
▁오케
▁부속
▁스카이
▁경북
▁늑대
▁강도
▁서방
▁스톤
▁장로
▁분산
▁힙합
▁프로토
▁부서
▁주재
▁다큐
▁대가
▁오류
▁83
▁비잔
▁마저
▁안쪽
▁맡기
▁쌓이
▁엉
▁배열
▁지표
페이스
데르
▁페리
▁레닌
▁벼슬
▁국방부
▁MS
▁한성
▁호흡
▁강요
▁동지
▁함경
▁스크린
▁찾아가
ard
▁메탈
▁혈액
▁경찰서
▁중동
▁추적
▁할아버지
▁선로
▁마감
▁평면
▁편의
▁포드
▁탓
▁주자
▁중지
고속
야스
조선
▁거스
▁이벤트
▁대원
▁메르
▁성서
▁느리
▁1934
AN
▁철거
▁대사관
어로
▁농장
워하
키퍼
▁아프가니
▁자매
▁골키퍼
▁북미
▁De
▁투스
▁입구
▁스케이
▁요코하마
▁빵
베르크
▁구사
▁스탈린
▁떼
▁놀이
▁멈추
▁보스턴
▁닐
▁가볍
세대
▁근육
▁쿠바
▁판타
▁거느리
유키
▁동구
▁히어로
▁장례
▁정확히
▁봉기
▁노동당
▁본토
▁광산
▁130
▁현존
공업
▁Me
▁페이스
레오
▁구로
▁정조
▁얀
▁대동
▁나이트
▁야당
▁토머스
▁밸
▁거점
▁식량
▁철학자
아르
제르
▁유키
▁동메달
드라
▁뱀
성기
▁은메달
▁젤
즈니
▁선물
▁글리
▁사망자
▁카리
▁항해
▁코어
ne
▁도쿠가와
▁시계
▁접속
▁140
▁관계자
▁중계
▁내려가
▁부처
▁대다수
▁남극
▁아프가니스탄
보내
▁사카
▁맨체스터
하이
▁필립
▁돔
▁레지
▁새끼
▁복사
▁알렉산더
▁초청
▁Sh
▁김구
▁모자
▁풍속
▁발전소
▁테르
레아
▁중성
▁특별히
▁재판소
▁칼리지
위대
▁안내
▁건너가
▁역전
▁독점
▁농촌
돌프
▁그러므로
▁훼
▁교향곡
▁증권
▁매주
안군
▁화합물
▁곤충
▁구리
▁커다랗
▁새벽
▁위안
▁휘하
▁겸하
▁세금
▁토너
▁르네
OR
▁th
▁로맨
크래프트
▁유력
▁1931
▁오염
▁재임
▁리아
▁합리
▁체육관
베리
▁부호
▁생애
▁이정
▁파울
▁물리치
▁비중
▁강등
▁히로시마
▁모노
▁일곱
▁달라지
▁간격
▁부드
▁타점
▁코너
레이크
▁종전
▁훌륭
▁진동
▁석방
▁아비
▁펄
▁관객
▁기병
▁존슨
▁타카
▁뚜렷
▁그리스어
▁계수
▁금강
▁멸종
▁부품
▁클래스
▁감옥
▁대변
▁찾아오
▁명시
▁문재
▁미카
느님
▁기르
▁원조
▁도망치
밀리
all
▁ST
▁목포
▁하느님
▁박근
▁자유주의
게이
▁하사
▁cod
▁후퇴
▁타원
AM
▁무늬
▁1921
▁심리학
▁꾼
▁폭풍
▁해협
나르
▁버지
▁176
▁좌파
▁An
▁숙종
▁장점
▁250
▁대결
▁교도
▁킬로
▁아이스
▁지휘관
▁가구
▁캠프
▁수비수
▁공룡
▁기생
▁유발
▁지칭
▁그래프
▁올라오
ang
▁마그
▁목숨
▁동성애
널드
▁유대인
▁윤리
▁부드럽
▁스트라이
▁토너먼트
▁덕분
▁하버
▁일환
▁1929
▁연호
▁착용
▁필라
▁닮
둥이
▁소요
▁첫째
▁공세
▁단장
▁코트
▁트랜스
▁빗
▁강전
▁비틀
▁성명
▁김대중
▁무겁
▁칙
▁조문
시스트
▁극복
▁특허
▁집필
수량
▁수반
▁아틀
▁약탈
▁사관
▁05
▁비즈
▁운동가
▁스테이션
▁캡
▁키스
▁자이언츠
▁도메
▁살아
▁쯤
▁기갑
▁y
▁는다고
▁연상
▁곰
▁부작
▁동반
▁평론가
▁다다
▁1923
▁1925
산물
투아
▁첸
▁갤럭
▁조화
▁라트
▁잠재
▁인터페이스
▁롬
▁공국
미아
슬리
▁성직자
▁의석
▁연평균
▁삼각
▁북아메리카
▁고고
▁매니
ss
▁입사
▁협약
▁가끔
▁건담
▁램
▁섬유
▁도호
▁지부
▁과일
▁요원
▁플로리다
마이
▁딱
클린
무게
▁몸무게
▁장갑
▁추대
▁갤럭시
▁틱
▁원장
타카
▁발휘
▁불화
▁영감
▁AC
▁모로
▁근로
▁연계
▁임신
▁발렌
▁압축
▁07
▁관리자
▁샤를
▁중립
▁고서
▁영혼
▁북서쪽
▁선교사
▁웨일스
▁디오
▁우드
▁이수
▁추락
▁시게
▁타입
▁대한제국
▁살아남
▁지역구
ity
대문
▁똑같
카스
▁모험
▁카페
베이스
추어
▁고분
▁유성
▁남아메리카
▁영광
▁트레이
▁갱
▁단선
▁사당
▁삭제
▁유비
▁일자
▁진술
키스
▁박스
▁망원경
▁캘리포니아주
▁수직
▁페루
▁161
▁레벨
▁둔
▁채권
▁리스트
▁하와이
▁미분
▁진흥
▁북극
▁필름
▁이조
▁서인
▁압도
▁주사
▁결심
▁꼽히
▁박근혜
▁기관차
▁동인
▁제약
▁종로
▁다이묘
▁SC
▁철저
▁돌파
▁그랜드
▁민속
▁사거리
▁준우
▁향토
▁변신
ff
▁부탁
▁카자
▁홀로
▁복구
▁빅토리아
▁EP
▁파운드
▁성씨
▁유가
▁도마뱀
▁주류
▁청동
▁때로
▁설비
▁175
▁교과
▁프로세서
▁1922
▁중시
▁codice
▁모음
▁바오
▁트럼
▁피트
▁청하
▁삼각형
▁칼리
▁엽
행성
▁무릎
▁문인
▁여인
즈키
▁수장
▁레이블
▁각자
▁틸
▁부유
부사
▁없애
▁평생
▁이날
▁화가
▁de
▁프레임
일본
▁명사
▁부수
▁중구
애나
▁서적
▁엘리자베스
▁모래
태우
▁My
▁규슈
▁윤치
▁버지니아
▁인천광역시
▁루트비히
▁고안
▁유역
▁투구
▁공격수
▁가톨릭교회
▁음모
▁1912
▁지연
▁토벌
▁황태
▁유용
▁도어
▁직선
▁리치
▁직위
▁최상
▁파트너
오리
프란
▁KT
▁아기
▁라마
▁표지
▁노무
▁아과
▁국민당
메니아
▁교차로
▁왕가
▁Love
▁164
▁자치구
니즘
▁무인
▁죠
양군
▁크레
▁무산
▁수상자
눅스
▁구미
▁간섭
▁글씨
▁어워드
▁네이션
▁문법
▁인력
▁왈
▁Go
▁봉사
▁사토
ong
▁포유
▁동일본
▁퍼시
▁""
▁납치
▁상처
▁패턴
▁리눅스
▁영조
▁아르메니아
▁소설가
▁블라디
▁1908
타운
▁노비
▁침해
▁릭
▁모니
멘트
▁베토
라이터
▁지중해
▁아마추어
▁장사
▁SM
▁벨라
▁MV
▁경유
▁랭킹
▁자책
▁1906
▁목조
▁호조
▁보통학교
야수
▁WW
▁실점
▁연령
▁건축물
▁사촌
▁스케이팅
▁06
▁이종
▁ㄹ수록
up
▁돼지
▁연소
▁교역
▁태자
보살
▁토르
▁전향
▁베타
멘터리
▁남동쪽
▁제주도
▁1917
슬로
▁과도
▁마카
아리
▁배상
▁아가
▁플레
▁매각
도니아
ip
▁준우승
사관
▁히가시
▁수지
▁정자
▁삽입
▁적응
▁1927
▁싫
▁적어도
▁크림
▁다양체
▁에스파
마치
▁JR
▁육성
▁조명
▁커피
ant
▁안양
▁통로
▁전승
▁시상식
IS
ld
▁명문
▁03
▁앨런
▁출현
스팅
▁쇠퇴
▁시집
▁우익
▁이토
▁북동쪽
▁모듈
▁시아
▁우루
▁1907
▁굿
ED
▁스와
▁과장
▁몬테
▁배급
▁유인
OM
▁정서
▁탐험
▁BBC
▁대행
▁보좌
▁커지
영상
▁호르
▁렉
▁옹호
▁외계
▁인자
▁럭
▁석조
▁노인
▁전작
▁색상
▁다큐멘터리
▁별로
▁폐기
▁표본
▁부동산
▁1926
▁흙
▁창간
▁우크라이나
▁밀라노
▁체인
▁관중
▁사신
▁항목
몬드
▁SN
▁앱
▁산타
▁단행
▁산악
▁의병
▁호남
▁종족
▁베토벤
▁협의회
▁꺼
▁험
▁왕립
av
▁168
▁슐
▁상하이
▁놀라
▁탑승
▁동아시아
▁송라이터
▁자문
페이지
▁아무런
▁He
▁문하
▁대교
▁무선
▁포크
생물
▁해설
▁유입
이즈
티움
▁노조
스토
▁머물
▁선제
▁수감
▁연금
▁내장
▁PD
▁지름
▁자전거
▁세조
▁패러
▁묘지
▁꾸미
ind
▁겨우
▁비전
▁상영
▁연고지
▁스틸
슬라
▁급속
▁안보
런트
튜브
▁디즈니
▁사료
다이라
▁진지
▁헤드
▁NHK
▁아울
▁에릭
▁162
▁꾸준히
로프
▁기종
▁동사
▁합계
▁166
▁레이다
▁기압
▁좌익
▁하천
▁최우수
▁1905
ame
▁정사
▁홈페이지
▁제후
se
▁기름
▁유튜브
AC
▁콩고
▁오리지
텐도
▁닌텐도
▁룩
▁물려
▁민족주의
▁시에
▁대조
▁원로
▁비평가
나카
▁Sp
▁||
▁엄마
▁예외
▁유신
▁기하학
▁비단
▁산지
▁151
▁묻히
▁바이올
▁문화유산
세스
▁독일어
려나
브스
▁버그
총장
페인
▁소니
▁조선인
▁뚫
▁스승
▁시외
▁가쓰
▁주말
▁색깔
▁바라보
▁증기
▁트럭
▁데이터베이스
ry
▁요미
▁흥미
▁158
ES
▁수천
▁참조
▁품질
▁사이클
▁수명
▁역과
▁곧바로
▁모집
▁목격
플레이
▁우르
▁스페셜
지마
▁도리
▁리듬
▁드래곤
▁셋째
▁운명
▁커뮤니티
무네
스케
▁마일
▁아크
▁쥬
어트
▁상소
▁광역
▁선진
▁칩
ith
▁정류장
▁크리스토
▁유고슬
▁유고슬라비아
엘라
▁문과
▁지바
▁리얼
▁조르
▁나폴리
▁주의자
▁원산
▁반환
▁대안
▁악장
▁점성
스티벌
▁십자군
▁랴
잡히
▁이오
▁주거
ort
▁02
▁신비
▁야생
▁옛날
▁자바
▁협의
▁라이온
▁가미
▁라이벌
▁빨리
▁입증
▁할리
▁페스티벌
▁구마
▁남서쪽
▁일행
▁방안
▁수수
▁유닛
▁주파
▁이리
▁레이스
▁주한
▁도심
▁사리
▁플루
▁입문
▁토니
▁브라이언
▁스피드
▁무관
프란시스코
ok
▁기점
▁되찾
▁향년
▁운반
▁오디션
▁샌프란시스코
▁인텔
▁기용
▁동치
▁재무
▁특급
▁사면
▁날리
▁베이스볼
▁사직
▁안드로이드
▁적색
해군
▁저지르
▁배제
▁한나라
▁서북
▁쿠르
▁디자이너
▁콜롬비아
▁한나라당
회의
▁단층
▁동영상
▁연주자
▁출판사
▁마라
▁미네
▁미만
▁인치
▁기념물
프스
▁케이블
▁마케도니아
▁와카
▁정교
▁오리지널
루살
▁렌즈
▁분배
▁마스
▁직장
▁초래
▁묘소
▁1904
▁신임
▁출산
▁부시
▁평소
▁프랜
▁복제
루살렘
▁지휘자
▁개수
▁석탑
▁알라
쳐지
▁부패
▁당사자
▁예술가
▁템
▁폭스
▁스테이지
▁예언
▁긴급
▁사로
▁왕족
▁관장
▁교전
▁서경
▁165
프라
▁진도
▁콘스탄티노
▁용기
▁기재
▁단종
▁의거
▁챌
▁Un
▁좌석
▁파생
▁마쓰다이라
▁센트럴
▁급행
▁모순
▁상무
▁자사
▁입히
▁판타지
▁신하
▁Wh
▁154
▁내륙
▁계단
리케이션
▁가게
ob
ord
▁여동생
▁수면
▁오타
▁트레
▁파나
▁Se
▁동전
문학
▁합작
▁무신
▁비즈니스
교육
▁무슬
▁예루살렘
qu
▁권고
▁받침
▁겹치
▁사르
터스
▁압박
페이
▁신용
▁용산
▁163
▁156
▁바이올린
▁항일
▁스펙트
▁정계
▁도메인
▁링크
▁연애
▁무슬림
가스
▁DJ
모니
우옌
▁사범
▁167
▁가득
▁그랑
▁크리스티
▁SF
디스
려오
▁여신
▁리투아
▁리투아니아
▁상임
▁진상
▁스펙트럼
ate
▁스쿨
▁호환
경기
▁끼리
▁회원국
▁깔
▁AM
▁훼손
▁900
식물
▁대단
▁아인
▁전염
▁타마
랑이
▁이지
▁밀접
▁서울시
PS
지르
▁비로
▁충남
▁시달리
▁자회사
카르
▁조국
▁스마트폰
▁조류
▁이명박
▁씌
▁챌린
▁한양
▁게시
▁노무현
▁장편
껍질
▁고립
▁니스
▁바그
▁번식
▁얼음
▁우지
▁발효
▁어항
▁혜성
▁샹
▁미얀
▁선사
▁자마
▁분지
▁지주
▁친정
▁애국
▁과제
▁었었
▁비잔티움
▁쇼군
▁끄
▁무라
▁교섭
킨스
▁착륙
▁일요일
▁팅
▁주립
▁참판
IC
▁기아
▁예능
▁오다
▁와중
▁지장
▁오케스트라
▁피렌
길이
▁UN
▁포맷
커스
▁식사
▁성종
▁시체
▁139
▁서브
잡이
▁진나라
▁농도
▁저기
▁피스
▁알바니아
▁구장
▁아베
▁옌
▁융합
▁파동
▁선두
▁차관
▁최신
▁요크
럼비아
▁AS
▁대령
▁부흥
▁145
▁행정부
▁하트
로디
예프
▁쿠스
▁디비전
▁낱
ET
▁바티
▁유하
▁기타리스트
▁뜨겁
부인
▁월간
▁련
▁강연
▁발족
▁소나
▁용량
▁아이디
▁잊
▁보전
▁부자
▁야기
▁위주
▁하드웨어
▁거인
▁충성
▁개발자
▁주머니
▁킬로미터
ast
▁전이
▁투명
▁마리오
▁해인
▁브라우
▁간접
▁공과
▁착수
▁학파
▁부통령
▁지질
▁스트리트
▁번주
▁MVP
DP
▁관찰사
▁부도
▁몸길이
▁피렌체
▁아이디어
▁고조
▁임상
▁사사
▁응우옌
▁굉
▁김동
랑크
▁전임
▁페어
▁관광객
▁마케팅
▁미나미
▁전지
▁측근
▁넬
수아
▁마산
▁제네
▁아세
데이트
▁중국어
▁규명
▁배정
▁완화
▁거스르
if
▁하노
▁업데이트
▁이에
▁전류
▁정벌
▁전두
▁1896
▁점유
▁HIV
어내
▁맥스
트니
▁성공회
▁샬
레이터
▁피에르
▁권유
▁차체
ack
▁DS
▁공용
▁사바
▁귀환
란트
ive
▁경선
트롤
▁중도
▁형법
▁보드
▁공전
▁여덟
▁제의
▁출구
IT
균관
▁로빈
▁턴
ure
▁스콧
▁트윈
주곡
▁뱅크
▁친선
▁게이트
▁IP
▁구동
▁짙
▁연수
▁성벽
▁둘러싸이
▁스타크래프트
▁젖
악기
▁중독
리티
▁검증
▁석탄
▁오렌
▁174
▁존경
▁살아가
▁수학자
▁마운
▁세례
▁152
▁애플리케이션
▁관습
▁노동조합
▁요미우리
루미
▁디젤
▁수산
▁우즈
▁지각
▁플라스
▁옐
▁미하
운서
츠키
ock
▁실용
▁5000
▁서열
▁정찰
▁피난
▁조용
iv
▁시드니
▁인과
▁청와
▁아나운서
▁메디
▁소송법
▁테일러
▁ㄹ까
결승
문관
▁변동
▁사명
▁쇼핑
▁전장
▁157
▁서일본
▁행진
▁뷔
▁리오
▁청와대
▁얼마나
▁전문학교
▁곁
▁Ar
▁시라
▁꼴
토미
▁자면
▁전진
▁기울이
▁사인
▁밀양
▁테오
▁장성
ck
▁금성
▁규격
▁루수
▁자율
▁준공
▁한화
▁해전
▁한강
▁빌헬
▁퇴각
▁호평
폴리스
▁프로세스
▁고사
▁염색
▁뿔
▁고개
▁번뇌
▁수신
▁좌표
▁다이아
▁신전
▁책봉
▁미스터
▁하버드
▁킨
▁구제
▁쏟
▁적대
▁회수
가루
▁관현
▁상상
▁아울러
▁급진
▁신칸
▁이슈
▁카나
▁판매량
▁관념
▁여의
▁취약
▁저기압
▁성균관
▁가즈
▁백신
▁장인
▁연구자
외선
▁카시
▁힘쓰
산군
▁흥행
▁복소
▁지분
▁자손
트랙
▁무효
▁해임
원숭이
끄럽
▁비극
▁MP
전자
▁몰락
수수
니스트
▁국어
▁응답
▁제휴
▁연루
▁j
▁메가
▁상류
▁식당
▁125
카드
▁따위
▁이순
▁할당
▁쳐
포스
▁146
▁휩
▁소금
▁통행
▁들리
▁문재인
▁쇄
▁달아나
악단
▁서독
하르트
▁105
▁니아
▁소총
▁승차
▁천문학
메르
혁명
▁히스
▁1500
자와
▁악마
▁흩
▁김용
▁적히
▁마찰
▁문제점
▁남양
▁두드
▁패전
▁아니하
▁파스
▁끈
▁박영
▁창업
▁나미
▁남인
▁로고
▁루터
▁여수
▁3000
▁동남아시아
▁믿음
▁에티
▁강사
▁술탄
▁자고
12
▁충족
▁1911
▁마오
▁외무
▁우정
▁이노
▁착공
▁매출
▁유출
▁노드
▁저택
▁윌슨
ime
▁자책점
▁소지
▁히라
고속도로
▁민국
▁서서
▁신칸센
▁곳곳
▁이복
▁두르
▁성전
▁153
▁얇
▁나열
▁지지자
▁원나라
라트
▁소닉
▁조언
▁하마
▁갈라지
▁프로토콜
일드
▁고원
▁내내
▁단원
▁소관
▁떠오르
▁항공모
▁PS
▁여래
▁청사
▁석가
▁소재지
▁이이
▁일렉
one
▁순천
▁중점
▁WWE
▁Le
▁디비
▁지목
▁과목
서양
▁매개
▁사지
▁카트
▁찾아보
▁희극
▁빌헬름
▁예배
▁회견
제프
▁MC
▁유언
▁103
▁환원
▁시외버스
▁폴리스
▁강수량
▁고무
▁힌두
네이
▁증후
▁우주선
▁동위
▁매기
▁배구
▁환상
▁눈물
▁아즈
토시
대군
펴보
▁비아
▁편곡
▁살펴보
팩트
▁마천
▁보잉
▁중장
▁회계
▁셈
▁Pro
▁연인
▁이글
▁특유
▁후자
▁카자흐
▁미얀마
▁클린
▁비틀즈
▁법령
▁성모
▁주권
▁천사
▁ISO
▁오클
▁개업
▁공자
▁취재
▁터지
▁참가자
▁포장
▁고베
▁얘
▁가라
▁일관
델피아
▁필라델피아
▁기장
▁매사
노프
▁제트
▁채무
▁공략
▁나리
▁겸임
▁반격
▁선원
▁진리
▁해역
ML
즈카
▁친척
노리
▁공인
▁별개
▁시립
▁와인
▁점프
AP
▁우편
기니
▁굵
▁버튼
▁최적
▁오렌지
OC
▁패스
▁이어서
▁삿
어리
▁155
▁출입구
▁각기
▁상자
▁중종
▁추모
▁닭
▁근접
▁각본가
받침
▁회화
▁토크
▁독립운동가
▁대답
▁테스
▁빼앗기
마사
▁격렬
▁보충
▁협동
동물
리크
▁허브
▁아군
▁게재
▁카타
▁두드러지
▁나고
▁인격
▁주파수
▁유해
▁밭
▁유격
▁정치가
▁이원
▁태우
시온
▁Bo
▁위장
▁별자리
te
▁사가
▁컨트롤
소스
▁인형
▁담배
▁법무
▁사물
▁앞면
▁동등
▁지우
▁오키나
▁증후군
▁실종
▁토리
▁포수
▁민영
▁생일
▁108
▁성주
▁항공모함
▁리메
▁미소
▁북동부
▁매력
▁이바
▁이영
▁이인
▁평행
▁합법
▁금액
▁레전
▁오디오
▁민사
▁유교
▁감지
▁영동
▁토요일
▁트라이
▁미루
▁Con
플러
▁두산
▁룰
▁내지
▁아바
▁일찍이
▁자발
▁베르크
▁스파이
때로
Pa
▁양상
▁개찰구
▁아리스
▁사우디아
▁히데요시
▁건의
▁서해
▁준결승
산면
상스
▁전두환
▁외곽
▁하우
▁상대방
▁서서히
io
▁스터
▁박탈
▁상부
▁승무원
▁고체
항공
▁일족
▁에디
▁퍼시픽
▁쉐
▁에우
▁꾀
ber
▁아케
▁화살
산리
▁교장
▁추격
▁야간
▁이사장
▁브래
▁에이스
▁트럼프
▁크리스마스
▁나고야
▁때때로
▁드라이브
▁앙리
▁입상
▁전례
▁호세
▁시청자
▁하인리히
베이터
▁갓
▁상장
▁섞이
▁IT
▁생명체
러미
▁해운
▁홍수
▁아우구
▁1909
화점
▁교단
퍼니
▁만세
▁무려
▁김영삼
▁궁정
▁세균
▁고발
▁싸이
▁외국어
▁대주교
▁이슬람교
▁기금
▁사다
다드
▁부착
▁그만두
가타
▁128
▁149
▁물자
▁캠페인
▁톈
▁긴장
▁102
▁가르침
▁운동장
모어
▁명의
▁복장
▁향교
▁보스니아
▁맵
▁콜라
▁트위
▁사용자
구장
▁전도
▁메타
▁골프
▁대군
▁수성
▁트루
▁호칭
칠리아
▁#
라미
▁고가
▁연도
▁짜리
▁자마자
▁제작자
▁배틀
▁정밀
라이트
▁건축가
▁안장
▁르네상스
▁대외
▁집계
▁치세
▁후안
▁펼쳐지
람회
▁어드
▁남한
▁슬라
▁피고
▁존중
▁에스파냐
▁발원
▁최저
▁사우디아라비아
▁중국인
▁텍스트
ge
▁중재
▁주지사
트릭
▁전대
▁레이저
▁계절
▁직책
▁송나라
▁발현
age
▁차남
먼드
▁흘러
▁셸
▁며칠
▁자유당
▁여주
▁섭취
▁시오
▁Bl
▁팽창
▁네이버
iz
▁포괄
집합
▁사절
▁세미
▁키프
▁레전드
▁강경
▁넓히
백과
▁최소한
생활
▁단기
▁문양
▁아미타
▁방침
▁상세
▁초창
▁향후
▁$
▁사이버
언스
▁손가락
▁원자로
▁포도주
▁댐
▁대니
▁턱
▁다중
▁수평
▁굉장
▁뽑히
▁프랭크
AD
차례
▁고래
▁청장
▁촉구
▁팔레스
▁갑작
▁캄보
▁탐지
사기
▁객관
▁147
▁룽
▁조반
▁충주
▁태생
▁유니폼
▁그랑프리
▁낙선
▁조리
▁토스
▁127
▁로프
▁수군
울리
▁블루스
▁동독
▁보리
▁토마
▁CPU
▁단점
▁명목
▁볼리
▁경부
▁속성
수엘라
▁딩
▁스릴
▁노란색
▁여진
▁아미노
▁1915
▁엘리베이터
▁뢰
▁기수
행위
▁무죄
▁왜성
▁초연
▁캐스팅
▁메인
▁진군
▁케네
▁171
노부
▁입체
▁주축
▁하이드
▁숭배
▁음원
▁로맨스
▁역명
▁전함
▁컬러
▁1913
sp
두르
▁취지
▁협조
▁겔
▁난민
라리
▁심의
▁알코
▁오키나와
▁마비
▁북구
▁북방
▁침몰
▁황해
orld
▁윌리엄스
우라
▁제곱
▁유소년
▁이어받
▁추증
▁상당수
▁따뜻
▁라파
▁베네수엘라
▁부천
▁후일
서리
▁투르크
▁천문학자
▁동당
ik
▁원고
▁낮추
▁내주
창군
▁신흥
▁문학상
▁김재
▁마하
▁부과
▁옥스
▁언제나
▁테니스
▁분광
시티
▁재미
▁위키백과
▁광년
▁동년
▁수동
▁센서
▁창건
▁닿
▁김수
▁추상
▁출토
▁이민자
▁초창기
▁둘레
▁타르
▁서사
▁이틀
기지
▁동래
▁태수
▁팜
▁코프
▁강과
▁대포
▁기습
▁시그
▁탈환
▁쓰러지
▁개미
자치도
▁169
▁제주특별
▁제주특별자치도
▁수렴
▁머신
▁창시
▁울리
▁병역
▁원반
포구
▁GT
▁김진
▁수령
▁CE
명사전
▁디스플레이
▁대역
▁바흐
▁스파르타
▁어업
▁청원
▁종결
▁찾아내
▁1895
▁든지
크리트
▁유수
▁카탈
여지
▁모스
▁hPa
▁나가사키
▁SP
▁광부
▁링컨
▁아폴
▁정말
▁리메이크
▁무제
▁총선거
▁프레스
▁흩어지
▁딴
▁al
▁인재
▁때리
▁141
▁팔레스타인
▁걱
▁남원
▁대처
평군
포트
▁계몽
▁유연
▁통칭
▁아사히
▁초상화
▁한동안
▁적자
▁언론인
▁대제
▁엔지
▁주차
▁효력
MS
▁께서
▁동력
▁반박
▁법제
▁비문
박쥐
▁국사
▁135
▁Tr
▁시공
▁끊임
▁총괄
▁다운로드
▁섭정
▁신세
공신
▁나주
네스코
▁북서부
석기
▁고백
▁후세
▁하부
▁온천
▁탤
벌레
▁양주
무기
ust
▁소실
그라드
▁수용소
▁김태
▁번영
보기
자스
▁서머
▁도호쿠
와라
▁자기장
▁풋볼
▁십자가
ep
▁바실
▁차기
▁나르
▁삼진
▁이진
▁중순
▁111
선거
▁신중
▁문화방송
▁귀중
▁대위
▁오빠
▁해병대
▁어스
▁캄보디아
▁개관
▁면하
▁영리
▁144
▁서울대
▁더글
▁저명
▁후대
▁몰아내
▁내외
▁첨가
▁큰
▁스핀
▁원내
▁폐위
▁풍경
▁날짜
▁스티브
▁그로
▁김포
▁명백
▁두루
▁식별
▁함유
따르
▁휴식
▁기요
▁정전
▁파업
▁전성기
▁컴퍼니
▁평하
▁리버풀
▁연세대
▁걱정
▁장미
▁아레나
int
▁알아
▁조달
▁당일
▁무상
▁병조
▁불편
▁제수
▁It
▁교원
▁이광
▁정무
▁119
누엘
▁충실
▁스릴러
▁컬럼비아
▁캉
▁천도
▁평야
▁꽤
키지
▁TH
▁공채
▁편리
▁관통
▁드럼
▁에다
▁총사
▁신학교
▁CO
▁매카
▁소환
▁중소
▁우연히
▁교양
▁다니엘
트리올
▁몬트리올
▁간호
▁모방
▁위임
▁인산
▁172
▁케네디
▁카이사르
▁도스
▁별칭
▁언더
▁룡
▁신기
▁총대
GC
▁고민
▁북위
▁선구
▁요르
▁유니버
EN
스럽
푸스
▁사회학
릴라
▁아종
▁휴전
▁덤
시로
▁엔지니어
▁관람
▁드라
▁루시
▁테레
▁신학자
▁리어
▁이글스
▁껍질
▁미주
▁106
ib
▁베드
▁평일
▁장안
▁니콜라
▁바퀴
▁선종
▁해수
▁친일인
▁유네스코
▁친일인명사전
▁연패
▁의상
나리
ome
▁묘역
▁미즈
▁쇼트
▁애덤
▁증진
▁진짜
▁세계관
▁아틀레
▁아이템
▁스페이스
그로
니치
ian
▁공모
▁페르난
▁보완
▁카리브
ude
▁좌절
▁평범
▁김상
▁중량
▁표명
▁장난
케이션
▁한성부
▁도주
▁서남
▁공직
▁미토
▁승점
▁아벨
▁초과
▁장려
▁마인
▁소통
▁슈트
▁제갈
▁케이스
▁멋
▁콘크리트
▁프랑수아
▁마츠
▁열대
▁영남
▁지혜
▁치열
▁항소
▁에스토
▁잦
▁콰
▁고수
▁등재
▁We
▁방패
▁아이슬
▁훔
▁돌연
▁생전
▁해변
▁책임자
▁정렬
▁차종
▁그루
▁낱말
▁배신
ere
▁포격
▁외교관
▁지폐
▁충북
▁닷
▁역설
▁전압
내셔널
▁인터내셔널
블로
세츠
페르
▁탱크
주의자
▁쿤
루션
▁영장
▁우울
▁일화
말라
선스
▁합창
▁공단
▁양도
▁투르
▁매사추
실록
ire
▁요하
▁입지
▁황태자
치오
▁단식
▁일조
▁매사추세츠
▁발트
▁부채
▁불명
▁상서
▁바리
▁퍼센트
▁아이슬란드
▁괴롭
▁대웅
▁업계
▁호위
▁우라늄
▁신속
▁암석
▁공의회
▁중추원
▁시나리오
▁기어
▁나스
▁에버
라이더
▁밟
유행
▁다치
▁부재
▁소유자
▁도르
▁구이
▁레바
▁어쩌
ace
▁교외
▁친왕
▁내려지
▁오노
▁오비
▁스페인어
▁에스토니아
▁시흥
▁위탁
▁친하
▁호프
ment
pe
▁견디
▁도루
▁실전
▁횟
▁마약
▁얘기
▁닝
▁고령
▁기인
▁김기
▁여지
▁지능
▁탈당
▁로열
▁봉쇄
▁육지
▁인연
▁라이선스
▁중심부
▁협주곡
▁물리학자
▁상담
▁서정
▁조이
리케인
마드
▁오세
오피아
▁리비아
▁슬로바키아
▁에티오피아
ide
▁창고
▁통근
▁어다
▁오사
▁파장
▁평택
▁해소
▁시선
▁허리케인
▁대전광역시
▁푼
▁즈음
▁현금
바이잔
▁148
▁을지
▁도라
▁사슬
▁전라도
▁애틀
▁할리우드
석탑
야시
▁병행
▁의뢰
▁하락
▁흘리
▁NBA
층석탑
▁호기
▁이사회
▁1916
중국
하면
▁격투
▁가로지르
▁신생
▁추세
▁136
▁아제르
▁끓
▁어라
▁치즈
제리
▁덮이
▁부적
▁결혼식
▁극동
▁스튜어트
▁낭만
▁순회
▁마이너
▁실시간
▁아제르바이잔
▁바닷
▁알아내
▁HT
▁TO
▁닛폰
의자
▁추출
▁허리
▁앓
아이
▁갈리
▁서재
▁아드
▁배터리
▁막내
▁우루과이
위원
▁성운
지리아
▁파이어
▁나이지리아
▁조연
▁입당
▁특집
▁급격히
▁동상
▁사헌
▁IBM
▁네이션스
IM
▁격퇴
▁솜
▁동이
▁우세
▁세션
▁주행
▁라이언
▁명제
▁작센
▁DC
▁구도
▁다항
▁바스
▁산림
▁원숭이
▁기단
▁신탁
▁패키지
▁국무총리
▁전념
시피
▁되게
▁의약
▁첼시
▁쌍둥이
▁아마도
▁데이비스
▁실장
바다
승지
▁거론
▁시초
▁138
▁수습
▁워드
▁유동
▁노부나가
람쥐
▁가동
▁개그
▁구릉
▁현종
▁딕
▁솟
▁면허
▁박해
▁저하
▁중위
▁한스
▁반감
▁안성
▁포터
▁객체
▁고소
▁페르디
▁돌려
▁약칭
▁평원
▁리우스
▁백화점
거지
▁구호
▁백색
▁지류
▁회고
▁브라우저
▁안기
▁깨달
▁극히
▁신규
cl
▁사헌부
▁리틀
▁섬기
▁치명
파르
▁la
▁분당
▁신한
▁외치
▁경연
▁레논
▁구조물
타로
▁거제
▁시즈
▁해밀
▁어울리
▁시칠리아
▁지선
▁360
▁펌
▁성숙
▁후쿠시마
▁혀
▁후방
▁거행
▁영의정
▁중성자
▁고성
▁상공
▁토성
▁탐구
▁뭉
▁냉각
▁도미
▁이세
▁재위
▁환영
양함
▁돌보
▁춘천
▁최상위
토모
▁복선
▁익히
▁104
▁아부
타나
▁오바
▁LP
▁가면
▁최악
▁한쪽
▁바이오
▁결선
▁그날
▁생식
▁피에
▁라이브러리
▁택시
▁해적
여래
▁재현
래스카
▁반도체
▁라트비아
▁감리
▁그램
▁임용
▁혈통
▁게르만
리에
▁En
▁동점
▁비시
▁횟수
곡리
리니
▁리라
▁비리
▁춘추
마쓰
▁장학
▁트래
베르토
▁별다르
▁도장
▁송시
▁애틀랜
▁릉
대신
▁차장
▁테이블
타고
회장
▁가짜
▁반경
▁성체
▁어휘
▁모니터
▁올바르
▁주가
어버리
ark
브레
▁나비
▁우위
▁제독
▁스트레스
은색
▁오피스
▁109
▁휴스턴
▁주름
푸르트
▁왜냐
▁잔류
데시
하시
▁고인
▁데모
▁Pr
▁개원
▁목판
▁행적
▁방송사
▁스톡
▁옴
▁축하
▁하워드
▁이케
▁현저
▁123
▁대학생
▁부당
▁정점
▁힘입
▁견제
▁칼라
▁교황청
▁호랑이
▁통증
▁억압
▁폭동
▁사우루스
▁아홉
▁코무네
▁공수
▁대표작
▁햇
▁성취
▁육체
▁주주
▁야구장
고쿠
차기
▁바나
▁공산주의자
▁소매
▁열정
더슨
포드
▁여당
▁루프
▁이식
▁한인
란히
▁민회
▁고장
▁매입
▁순교
▁아담
▁연하
▁적당
▁헐
랜트
▁NC
▁펜실
▁연합회
베이니아
▁타이거즈
▁펜실베이니아
▁시바
▁명령어
▁벌금
▁인플
▁축적
헤이
▁143
▁카자흐스탄
▁노바
▁발해
▁터치
은이
▁AK
▁종로구
▁AR
▁광물
▁응원
▁경관
▁너비
▁암시
▁주역
▁처녀
▁분기점
▁휠
▁분비
▁팔라
▁동아일보
글리
▁오해
법인
▁가죽
▁누이
▁상점
▁수련
▁리우
바시
▁공천
▁다발
▁청춘
▁베스
▁신조
▁부르크
▁롤링
▁사모
▁아예
▁해명
▁산란
▁상단
▁유한
▁이화
▁제하
▁돋
▁놀랍
▁성사
▁존속
▁피츠
▁이에야스
▁팡
▁토모
▁신주
▁히메
▁목재
▁염기
▁폭행
AL
▁비싸
▁자민
▁제프
스틴
▁CS
▁출처
▁기적
▁비자
▁이윤
▁차이점
▁플라이
▁계시
▁근교
▁마야
▁소나타
▁CC
▁상반
▁col
▁유로파
▁다이아몬드
▁킥
산동
▁컴파
▁펑크
▁블라디미르
나오
ile
▁다투
▁에미
▁남동부
▁조선일보
▁박람회
▁관구
▁김경
▁신념
▁음료
▁증대
▁지르
▁통영
▁그동안
▁부설
▁경상도
▁내보내
▁블로그
▁왓
▁광학
▁래퍼
▁유죄
▁시골
▁생산량
▁룬
▁상용
▁운하
▁충전
러스트
▁알코올
▁친일파
▁나트
브리지
▁누나
▁만남
ies
▁미라
▁이소
▁태양계
권자
▁법조
▁설탕
▁황실
▁Op
▁다녀
▁시어
▁갈라
▁규범
▁깨닫
▁보석
▁적분
▁무지
▁카롤
▁이타
▁티스
▁갇
▁단단
▁동국
▁사육
비나
기업
살이
▁흠
▁부제
▁거칠
▁조세
▁라오스
▁확신
▁공습
▁공익
▁말라
▁비유
▁상사
▁경찰청
▁히사
▁브라더스
▁왜냐하면
xt
수리
▁중의원
▁공관
▁CON
▁트위터
도리
▁합하
▁112
▁126
▁장거리
▁엿
▁신민
▁협박
▁베어스
▁헤라
▁루이지
▁카를로스
ite
▁마디
▁미르
▁어원
▁시베리아
▁대폭
▁빨간
▁후사
▁구축함
▁국소
▁107
▁RNA
▁트윈스
▁키프로스
레기
▁레일
▁우유
▁굉장히
▁이산화
▁이순신
▁거북
▁수법
▁언니
▁품종
▁사업자
▁창원시
▁Te
▁법무부
▁다지
▁제재
▁헤비
▁삼층석탑
▁is
▁구출
▁범인
▁우승자
▁왜곡
▁허위
▁가군
▁갇히
▁신선
▁우호
▁교과서
▁아랍어
▁플러스
고래
▁당주
▁성단
나스
▁경보
▁옆면
▁입원
▁할머니
▁세라
▁소셜
▁여파
스부르크
▁뉘
랑카
▁송시열
▁몰래
▁실체
▁천장
▁포럼
▁117
▁조종사
▁줄무늬
▁곡인
▁근원
▁맥락
▁탐사선
도바
▁보증
▁풀리
ft
▁임하
▁핸드
▁꾀하
▁맥주
▁연쇄
▁인문
▁대웅전
▁지평
▁결함
▁동문
▁드로
지붕
▁소원
▁퐁
다지
▁거울
▁피우
▁평의회
▁도마뱀붙이
▁이경
▁릿
▁네스
▁인체
갈색
▁희생자
▁SE
▁진하
▁가마쿠라
▁제니
▁350
▁교정
▁빈곤
▁신약
▁com
▁일방
▁일반인
▁화장실
▁줄리
▁통틀
▁양키스
▁탐색
시타
▁날씨
▁성별
▁이브
▁제대
▁해고
▁121
▁테이프
▁아카데미상
▁후궁
ound
▁고속도
끼리
▁만일
▁빨간색
▁삼성전자
▁CF
▁173
▁맘
▁진급
▁택하
▁펠리
▁필터
승부
▁철회
▁137
▁전자기
▁ㅓ서
▁바오로
무스
ath
▁개교
▁승계
▁요동
▁자아
조부
▁가져가
의장
▁연합국
연합
ond
▁불타
▁비추
▁샘플
▁양측
▁킴
▁놓치
▁방화
▁비르
▁포병
▁필리프
OL
▁문예
▁라이너
▁1894
▁가축
▁결코
▁근로자
▁물려받
▁냄
▁왕복
▁총독부
▁헥
▁궁극
▁바우
▁화해
게이머
▁프로게이머
마루
ory
▁가장자리
▁더니
▁투옥
베니아
▁수용체
▁뒤집
▁서진
▁워터
▁주이
▁진공
▁태권
▁다크
▁세속
▁최강
▁ㅁ
크라
▁문구
▁수색
▁일가
수소
▁지미
▁113
▁클라우드
▁붐
규모
▁공민
▁레온
▁믹스
그레이드
▁슬로베니아
man
▁공방
▁칭찬
▁크리스토퍼
▁쑤
대기
▁핵무기
▁극심
▁미션
▁업그레이드
▁용병
▁도미니
▁멜로디
ov
▁낫
▁뒷면
▁유년
▁IM
▁LC
▁대의원
▁바티칸
▁땃
톨레
▁농림
▁드레
▁서민
▁즉각
▁최대한
그리
단체
▁계정
▁적도
▁게스트
▁브로드
▁알제리
로이
번스
▁대피
▁성도
▁치안
▁그냥
▁둥지
▁로이
▁군정
▁두껍
▁신시
▁하동
▁공백
▁124
▁코스타
▁강서
▁혈관
▁곤란
▁무어
▁프랑크푸르트
▁".
▁타당
퍼런스
iver
▁게이지
셰비
아키
▁먼지
▁미키
▁초월
▁개종
▁김현
▁명하
▁부딪
▁독일인
▁모친
▁제인
▁카카
▁몬스터
▁로우
▁시뮬
▁z
▁넘치
▁캐시
▁On
▁횡단
▁국내외
▁관음
▁판본
아프리카
▁륙
박스
▁탤런트
mer
▁스캔
▁제치
▁구절
▁닫히
블리
▁상표
▁피오
▁자연수
로니
▁내정
▁서초
▁성문
▁욕구
▁항쟁
▁야마토
▁be
▁고고학
▁커뮤니케이션
▁가루
▁배후
▁일생
▁학계
▁오리콘
▁World
▁그대
▁이거
▁SU
▁돌격
린스
▁말씀
▁발리
▁야쿠
▁초록
▁김정일
▁자선
▁자오
▁제압
▁체크
대원군
▁디렉
▁양호
▁원전
▁검찰청
▁남서부
▁베네딕
▁감자
▁유저
▁풍자
▁영산
▁New
▁아랫
ich
▁CR
▁우파
▁침투
▁다가오
▁1890
▁므
▁옵션
▁자비
▁소규모
줄기
▁기질
▁브리지
▁데르
▁러시
▁분명히
▁맑
축구
▁시위대
▁윤치호
▁어미
▁라이온즈
드르
▁예조
▁정세
▁평정
▁오프닝
▁베니
▁선비
▁오라
▁조부
▁114
▁냉전
▁다녀오
▁이준
▁안토니오
▁땃쥐
▁연이
▁EC
▁과반
▁대거
▁떨치
▁은데
▁김규
▁시정
프레스
▁자택
▁기업인
▁깎
▁대명
▁매매
▁구스타
▁사상자
▁알루미
▁미노
▁정주
▁증손
▁블랙홀
▁알아보
▁징계
▁뭐
▁어긋
▁봉건
▁연승
IP
▁관세
▁컷
▁빛나
▁이남
▁118
렉스
ign
▁가드
▁군중
ial
▁구와
▁지침
▁히어로즈
▁태극
타리오
▁방사선
▁일리노
▁파이널
▁드라이버
러드
▁괴물
▁대부
▁이드
▁원로원
▁풀려나
▁경신
▁만료
▁악단
▁도청
▁요정
▁자음
조건
지스
▁뉴턴
▁예시
▁주부
▁플래시
▁일리노이
▁크리스티안
▁세이브
▁1898
▁승부차기
▁Sc
▁재상
▁프로덕
▁갑작스럽
▁답변
▁서자
▁학명
▁경찰관
▁비로소
▁본국
▁중형
▁진사
▁체스
▁파란색
저지
▁용이
▁저널
▁체조
▁115
▁매니저
▁미하일
▁두려
▁비기
▁스칼
hn
▁인명
▁빔
황후
▁공감
▁종착
▁디비시온
▁하르
▁통치자
▁럼
▁SD
▁벵
▁트로이
교도
▁공조
▁지인
▁헬리
벨트
▁변이
▁순조
▁우측
▁극장판
▁우즈베
닐라
▁엇
▁전년
▁컨셉
▁키르
▁반지름
하루
▁한족
아먹
▁남구
▁동정
▁밀집
▁축출
▁희귀
▁계열사
▁봉안
▁모로코
▁무승부
▁기각
▁직면
▁챌린지
히코
▁극작
▁로그
▁카우
▁하프
▁뉴저지
▁레바논
▁`
▁앵글
▁커널
▁시가지
▁웨스턴
▁통보
▁남미
▁무성
▁왕세
▁천하
마이오스
문트
보르
▁가옥
▁선도
▁JT
▁외모
▁필사
▁헬기
▁혜택
▁그레고
▁대변인
▁외야수
기념
바닥
▁소모
▁사위
▁성리학
▁기증
▁정변
▁취업
▁패럴
▁광해군
▁쫓겨나
▁체코슬로
▁체코슬로바키아
▁모나
▁부스
▁케냐
▁GS
▁129
타니
▁말미
▁센티
▁범유행
▁켈리
▁렐
레타
▁코카
▁믹
▁개막전
▁젊은이
부리
▁ㅕㅆ
▁웹툰
▁핑크
▁닦
쟁이
타리
▁GP
▁폭넓
▁맏
▁비주
▁실망
▁의약품
먼스
▁글루
▁학업
▁캔자스
rom
▁러셀
▁맥도
▁연예인
미사
▁미세
▁종속
▁중산
▁천재
▁쾌속
▁뇌물
▁리뷰
▁척추
▁알루미늄
▁숙청
▁승자
▁총사령
▁스타리그
▁옳
개미
▁마력
▁호출
▁마운트
▁종래
▁예하
▁터뜨리
▁바빌
▁첨단
▁케빈
▁기차
▁로비
▁발급
▁재혼
▁쯔
▁퉁
▁감싸
▁서신
▁유라
▁재선
▁퇴임
▁황족
▁회관
▁벨라루스
▁Ne
▁요건
▁사간
▁어른
ph
▁남작
▁넘어서
▁두려워하
▁밝기
▁창출
▁괘
니까
슬러
▁벽돌
▁화력
▁스크립
방송공사
▁끌어들이
TS
▁웬
▁예고
▁카디
▁토미
▁III
▁스트리
▁장례식
▁확실히
▁오오
▁유방
▁각도
▁일컬
▁전속
▁중공
▁파산
▁조지프
우트
천리
▁난징
▁부피
▁양반
▁옹립
▁응시
느러미
▁142
속기
▁무명
▁등기
▁브리튼
▁임원
▁기술자
▁부여받
▁월요일
▁천문대
▁1899
테르부르크
▁생체
▁토양
▁어긋나
▁타임스
화물
▁감행
▁대패
▁미들
▁워크
▁레슬링
▁세이부
▁청주시
▁프란츠
▁콕
urn
▁워너
▁케임
▁뒷받침
▁마르티
▁플라스틱
시즘
▁대치
▁토끼
▁폭포
포로
▁관제
▁저주
▁컴백
▁더글러스
진군
코딩
▁무함
▁배수
▁성폭
▁소생
▁ch
▁리프
▁발병
▁지출
셰비키
롤라이나
▁구경
▁설화
▁얹
▁룩셈
▁학기
▁형조
▁힌두교
▁유진
▁총칭
▁축물
▁하얗
▁프로덕션
▁룩셈부르크
▁거세
▁시범
▁자크
▁정려
▁사쿠라
로우
함수
▁대서양
토르
틱스
▁사본
▁오크
▁지켜
▁청산
▁거래소
▁스즈키
럴드
▁신원
▁안테
▁페널
ction
▁설교
▁지옥
▁화상
▁CJ
▁혼동
▁1902
▁만성
▁화자
▁광주광역시
▁의자
▁지치
파이어
▁온타리오
▁잃어버리
▁가야
▁왼손
▁원천
▁찌르
▁희곡
▁부의장
두리
▁운수
▁중복
▁Man
▁그래미
▁금요일
브르
▁공적
▁동네
▁벨트
ens
▁ID
▁명종
▁프톨레
▁프톨레마이오스
덩이
▁광둥
▁붙잡히
▁플랫폼
▁보위
▁위쪽
lan
▁독서
▁물품
▁병기
▁스턴
▁피신
MA
치기
타주
▁발기
▁피겨
▁니코
▁연산자
▁끊임없이
▁쟈
▁대성당
▁키보드
pp
▁그릇
▁아리아
샤바
▁우체
▁체류
▁도카이
▁지식인
▁수분
▁혐오
▁바깥쪽
▁연꽃
▁정성
▁''
▁감마
▁강변
▁서류
▁채소
▁코시
▁포획
▁표적
▁BS
▁대손
▁시코
▁원종
▁의의
▁뛰어
▁마녀
▁기사단
▁단절
▁시가
▁영등
▁간선
▁게리
▁드림
▁선배
TA
▁국영
▁사슴
▁코끼리
▁로라
▁촉매
▁앗
▁습지
▁외관
▁탄도
▁하단
▁개소
▁비석
▁응하
▁갈수록
▁아돌프
▁으려고
▁흔들리
lic
▁깃발
▁동행
▁고양시
▁영문
▁참의
글라
▁주조
▁밍
▁함정
▁비행장
▁버드
▁교통국
▁마스크
▁페르디난
▁얽
▁기니
폴리
▁태그
▁제네바
▁춥
▁시리
▁유체
▁정적
▁소나무
크로
▁매카트니
▁대합
▁매수
▁울프
▁헌신
▁부회장
▁강동
▁김창
▁단축
▁생생
▁선행
▁한테
▁이용자
▁몫
▁김지
▁빌라
▁제국주의
그룹
▁서리
▁스위치
▁익스프레스
국사
▁수확
▁입성
TC
▁단의
▁스폰
▁드러머
▁보이스
▁토착종
카가
▁광대
▁광명
▁동학
▁아산
▁정동
▁해밀턴
히토
▁가환
▁압둘
ary
▁간토
▁부가
▁폭격기
out
▁초신
▁경성부
▁포켓몬스터
▁면제
▁역량
▁직결
▁화강
▁서유럽
▁호르몬
▁러시아어
구르
▁고아
▁색채
▁어류
▁이단
▁코믹스
▁1901
▁브뤼
▁세비
▁입국
▁아이오
짓점
▁공리
▁생략
▁약자
▁부작용
▁사이토
▁나노
▁민감
▁열도
▁축조
▁꼭짓점
ach
ert
▁경과
▁논하
▁복용
▁본문
▁퀘벡
테인
▁조립
피어
▁성지
▁여운
▁일산
▁소시
▁전방
타임
▁No
▁임관
▁체르
모스
▁쓰촨
▁염증
▁크롬
▁알렉산드르
▁울산광역시
▁갱신
▁권총
▁날카
▁보트
▁특권
▁하치
▁그다지
▁연기자
▁트리플
▁다항식
▁삿포로
▁영국인
미트
▁주되
ys
▁기숙
▁버티
▁수축
▁커스
▁코코
▁표방
▁지켜보
디나
▁입각
▁체중
▁염색체
▁렘
나우
자르
▁갈릴
▁불꽃
▁자작
▁정문
▁점성술
▁무궁
▁손꼽
▁실버
▁현은
일으키
▁바이킹
▁불러일으키
▁쿄
▁MB
▁카미
▁간단히
▁아시카가
▁검열
▁김제
▁동조
▁서문
▁정립
LS
▁누적
▁엔딩
루아
▁보복
▁차르
▁치아
▁사회당
▁옥스퍼드
IG
LE
링턴
▁원료
▁이현
▁두께
▁페니
▁고산
▁토기
▁학대
▁134
▁개인전
▁선동
▁조수
▁호모
▁광저우
▁케임브리지
▁공고
▁박지
▁보헤
▁슈팅
▁카프
▁장기간
▁크레이
▁}
▁례
▁썰
내리
▁원본
레슬링
▁쓰레기
▁요르단
▁무함마드
▁아라비아
▁어뢰
▁KIA
▁푸에르
사리
▁분수
베트남
▁모서리
▁파이터
▁마우
▁상금
▁스님
▁토요
노미야
▁대구광역시
ug
펜하
▁불신
▁삼촌
▁연봉
▁하비
▁갈리아
▁대두
▁독성
▁All
▁THE
기스
▁좌측
▁노태우
▁1903
대장
▁가역
▁레즈
▁섹스
▁사업가
▁전염병
▁공명
▁공예
▁직경
▁캐서
▁아리스토
ase
▁남매
▁미륵
▁산출
클레스
▁트로피
카미
▁개화
▁어찌
▁훔치
▁페널티
▁극대
▁루타
▁One
▁패밀리
▁1884
▁프로레슬링
▁노보
▁오쿠
▁회상
▁미시시피
▁Gr
▁타케
▁피고인
▁홈구장
▁패널
테르담
▁신도비
아웃
정리
▁교대
▁당연히
▁만주국
▁이성계
카타
▁군산
▁다마
▁아브
▁날카롭
▁쓰시마
처스
퀘어
▁강간
▁구형
▁소말
▁이병
▁언어학
▁아인슈타인
▁알렉산드리아
▁라그
▁메커
▁어둠
▁정선
올로
▁EX
▁중령
▁퇴역
▁관광지
▁지도부
▁하리
▁이관
▁쥐과
ke
▁AN
▁로저
▁스텔
▁터보
▁뮤지션
▁표기법
그라
▁에콰
▁드레스
▁프레드
▁에콰도르
▁질소
라이어
▁도널드
▁니콜라이
▁군함
▁강대
▁퇴적
▁아폴로
▁클라이
▁야마구치
▁검출
▁깨지
▁이태
▁조형
도스
▁Cl
▁비타
▁제로
▁헌정
▁히타
▁충청도
▁1800
고스
텍처
▁구스
▁우치
▁파병
▁아키텍처
▁LA
▁대문
▁함선
▁조반니
▁공황
▁기분
▁실재
▁원더
▁꼭대기
▁프란체
▁도요토미
▁발렌시아
▁묶이
▁물가
▁더욱이
▁슬라브
▁뒤쪽
▁실무
▁우회
▁전위
▁복합체
▁농부
▁마르틴
▁히로시
라이언트
푸르
▁김홍
▁내걸
▁반공
리코
▁경작
▁도선
▁비뉴
▁의결
테이션
▁마르코
▁방글라
▁방글라데시
그레
▁인질
▁정유
▁클라이언트
방울
▁건륭
▁단면
▁달걀
▁마키
▁하차
사이드
▁삼국지
▁곡물
▁카사
사우
▁까닭
▁당수
▁발칸
▁철폐
▁기념관
▁컨트리
▁콤팩트
▁돌기
▁장벽
▁해남
아들
ree
▁토시
▁회피
▁진전
▁득표율
▁소방서
니시
▁간신
▁흥선
▁거짓말
▁기념비
▁총대주교
▁선우
▁리더십
간지
▁가오
▁밀란
▁방사성
▁염소
▁유부
▁분출
▁상가
▁상경
▁상고
▁가브리
▁소행성
▁일렉트로
▁강희
▁에밀
▁전복
▁소수자
개골
▁용서
▁취항
▁코믹
▁에디션
▁카를로
▁북아프리카
가르
▁IN
▁감안
▁경인
▁분량
▁전구
가와현
▁메커니즘
불교
산맥
하키
▁권장
▁기슭
▁우물
▁을까
▁자형
▁창녕
▁남동생
▁모리스
▁팟
▁팰
▁활주
▁중앙아시아
네마
▁CN
▁궁중
▁상응
▁복소수
▁가산
▁냄새
▁시야
▁신축
▁되돌리
▁with
ass
▁무슨
▁상트
▁이북
▁교도소
▁그레이트
▁발령
▁세바
▁민간인
▁스토어
▁깨끗
▁모모
▁소자
▁현감
▁다케다
▁견인
▁러스
▁맞붙
▁수목
▁기관총
▁뉴욕주
▁볼리비아
▁Br
▁관절
▁대출
▁등용
▁막스
▁한층
▁거주지
▁와일드
▁오사카부
구역
act
▁안경
▁정화
▁116
▁220
▁아나키
▁아미노산
▁반군
▁브란
▁세키
▁침체
곡동
▁기저
▁데카
▁준주
▁폭로
▁페이스북
번뇌
사업
▁Ad
▁각색
▁평창
▁일자리
▁전시회
▁1897
파리
▁가계
▁낙동
▁상법
▁추첨
▁후작
▁포스터
11
▁교량
▁농사
▁홍문관
▁가의
▁리만
▁일파
▁장자
▁취미
▁일부분
▁요약
▁스트라이크
▁한국방송공사
쿠버
▁강남구
▁가열
▁반전
▁보성
▁티코
▁마가
▁샌드
▁심화
▁절단
▁캐서린
pt
▁갈래
▁태백
▁효고
ream
▁마카오
▁방송인
▁버클리
▁카스티
역학
▁라오
▁마니
▁안산
▁1860
▁구약
▁델타
▁리조
▁오로
▁홉
▁접수
▁추론
▁교육청
▁데스크
▁꿀
▁앰
▁나루
▁아소
▁음향
▁마블
▁효종
▁쓸
벤처
▁네오
▁델라
▁르노
▁민정
▁북경
▁올드
▁연대기
▁어드벤처
▁;&
▁GO
▁체력
▁ㄴ다며
▁배우자
▁이주하
▁지지율
▁사살
▁장제
▁휴가
▁바르샤바
▁타우
▁Ex
▁격차
▁글래
▁대관
▁수료
▁찰리
▁확진
▁알프레
▁Is
▁고이
▁저렴
기념물
▁공약
▁샌디
▁적군
▁전산
▁카타르
▁후반기
▁랍
▁가신
▁특색
▁안치
▁청색
▁122
▁중공업
▁스크립트
캐롤라이나
나드
▁공손
▁메라
▁쿠니
▁살피
▁중원
▁카즈
▁경제학자
포터
▁돌입
▁청소
▁게릴라
▁사카이
▁안드레아
츠크
▁가가
▁리히
▁이반
▁집결
▁치우
▁합당
▁떡
▁석불
▁수중
스카르
▁미네소
산성
▁세네
▁신정
▁타협
반구
퍼슨
▁전격
▁마라톤
▁모티브
▁솔루션
▁마당
▁이빨
▁쥐속
▁타지
▁버마
▁짐작
▁2022
▁막시
▁브룩
▁소행
▁입주
▁클라크
▁보강
▁석회
▁스퀘어
▁유닉스
▁새로이
▁갑옷
▁고토
▁마애
▁실적
▁종파
▁괴롭히
▁돌아다니
▁눕
거진
푸아
▁동형
▁벽화
▁두개골
▁상트페
▁아마존
▁인테르
▁1880
▁상트페테르부르크
콥터
▁과실
▁루크
▁신동
▁애리
▁창의
▁호응
▁화순
▁감추
▁그레고리오
▁윤보
▁쳐들
▁나란히
▁옥수수
▁유대교
▁모용
▁con
▁설립자
▁BM
▁메릴
▁무술
▁사적
▁정경
ii
▁엮
▁강철
▁빈도
▁종말
▁처지
▁그리스인
▁흥선대원군
▁뻔
▁군청
▁무로
▁종점
▁팔레
▁갤러리
▁유정
▁호쿠
▁NGC
▁공용어
▁극작가
▁파라과이
▁셜
리즘
▁급수
▁복권
▁연동
▁용암
▁출석
▁확고
▁133
▁진행자
▁극도
▁노이
▁선장
▁장원
▁콘테
▁함양
▁손꼽히
▁함부르크
네시
▁어로
▁입양
▁제작사
▁기성
▁열심
▁예명
▁이언
▁제리
▁추리
▁경쟁력
▁붙여지
기구
▁릴리
▁무스
▁소령
▁야시
▁연못
▁일괄
▁제왕
▁이동하
▁키예프
▁그렇지만
나미
iss
▁수녀
▁그림자
▁가네
▁등극
▁번성
▁블리
▁자결
▁진료
▁디트로
▁디트로이트
니지
타케
ake
▁스노
▁오락
▁이장
▁천연기념물
own
▁왕정
▁프렌
▁준결승전
어뜨리
▁유령
▁추종
▁교육부
케이
자치시
▁특별자치시
▁몽고
▁숙주
▁심야
▁즐겁
몰로지
▁Mus
▁명분
▁엘리트
사관학교
▁프랭클린
▁오지
▁CBS
▁사쿠
▁프롤
▁CEO
▁국유
▁앞장
▁이규
▁이데
▁평민
▁사무총장
▁법정동
▁아래쪽
▁일러스트
▁낚
▁스로
▁우상
▁원격
▁위생
▁무궁화
▁싣
▁ES
▁미셸
▁아치
▁코리
▁위나라
▁이득
▁장흥
▁탁월
▁파우
▁포도당
▁애틀랜타
해지
▁도사
▁수년
▁조계
▁펜싱
▁GDP
▁미생물
▁그레고리
세기
▁강풍
▁고추
▁농어
▁반역
▁재난
▁헬륨
▁앨리스
▁듀얼
▁문경
▁자카
▁겉보기
▁개항
▁온갖
▁대사헌
미스
▁자생
▁동성애자
▁스트라이커
▁섀
▁타석
clude
▁스리랑카
▁툰
타마
▁결핍
▁속편
▁132
▁기상청
▁무조건
Hz
UR
그래
멘스
▁빈번
▁정인
▁주지
▁지청
▁지방산
▁니카
▁워치
▁진수
▁대성전
HO
▁감동
▁더비
▁유스
▁칼뱅
림픽
원장
old
▁김민
▁속이
▁정관
▁해치
▁시뮬레이션
에미
▁듀오
▁수심
▁대지진
▁동요
▁상연
▁애칭
▁총무
▁글로브
▁인프라
▁삼국사기
버러
▁꿈꾸
▁아데
▁파이프
위성
헌영
▁결제
▁광양
▁동참
▁리모
▁기병대
스기
▁++
▁베른
미즈
▁막히
▁인디애나
메다
▁불행
▁초원
▁하고
거래
ork
▁NE
▁두렵
▁속주
▁시종
▁슛
▁주화
GA
▁빠져
▁조병
바야시
▁마다가
▁격자
▁현직
▁현행
▁자세히
ix
파크
▁대국
▁맹세
▁발각
▁암흑
▁호족
▁마우스
렉션
▁La
▁극락
▁상기
▁미주리
▁요제프
▁통틀어
▁보헤미아
▁쾰
▁헛
▁브랜
▁재해
ence
▁신상
▁호의
▁농산물
벨라
할시
▁or
▁가타
▁복음서
▁국수
러피
해튼
ick
▁kt
▁패럴림픽
변이
천사
▁파문
위원회
▁pro
▁돌연변이
▁Ro
▁vs
▁단과
▁무르
▁숨지
▁요법
▁해부
lo
▁른
▁대각
▁피로
▁현황
▁호리
▁저널리
()
▁감금
▁김옥
▁볼셰비키
▁평안남도
마리
▁공파
▁공표
▁아빠
▁청자
▁초고
▁투항
▁밀러
▁세손
▁의과
▁우체국
라기
루냐
▁낙하
▁1870
▁합스부르크
▁소울
▁따라가
▁후속작
를테
▁입수
▁저격
를테면
▁매거진
▁활주로
▁이를테면
▁댓
▁김병
▁총기
▁황도
CAF
▁만년
▁생계
▁서장
▁재질
▁포고
▁소피아
▁오로지
▁뾰
▁PR
▁페로
▁표창
브리아
▁양육
▁이븐
▁장대
▁정국
▁Mar
▁모터스
▁관동
▁난이
▁아요
▁틀리
▁창시자
▁숀
삭스
▁루비
▁우아
▁제너
▁휩쓸
▁단행본
▁아스널
▁중앙부
▁타이베이
▁비늘
ance
▁애리조
▁평안북도
플로
홀름
▁To
▁말년
▁머스
▁시국
▁왜구
▁매끄럽
▁1885
▁돌출
▁맞대
▁앞쪽
▁450
▁우즈베키스탄
▁엥
▁리터
▁NAS
▁un
▁국악
▁부조
▁대장군
▁청동기
▁활발히
▁1871
EM
▁DM
▁내면
▁로페
▁복식
▁성령
▁전날
▁프랜시스
▁아이스하키
▁마르크스주의
공산
▁감수
▁배속
▁아쿠
▁중상
▁Ph
테리아
십자
▁벤치
▁신종
▁지로
▁비주얼
▁세븐
▁수염
▁퇴장
▁USS
▁로렌스
▁짱
▁카바
▁원심
▁차리
▁1600
쩌둥
▁리바
▁매직
▁이모
▁다람쥐
▁편집자
▁마오쩌둥
▁알래스카
ection
ear
irl
▁끌려가
▁빅토르
▁맷
▁쿡
티시
▁경질
▁볼프
▁중생
▁케라
러피언
라고
제이
▁반성
▁수교
▁증인
▁참사
타이드
▁흉노
▁앤더슨
▁프레이
▁휴게
▁양성자
▁유러피언
▁자칭
▁지성
▁티켓
lass
▁내무부
▁오클랜드
어오
▁관행
▁시애
▁카터
▁즘
틀리
▁국당
▁내성
▁이양
▁콜레
▁only
돌리
▁수다
▁요지
▁위스
▁유료
▁화랑
▁수원시
▁콘스탄티노폴리스
ild
▁로리
▁청룡
▁테일
▁박헌영
▁센고쿠
▁1200
테쓰
▁스태
▁마닐라
▁반란군
파이
▁루카
▁이완
▁잡아먹
▁파나마
▁바디
▁수인
▁장단
▁제동
▁중서
▁240
▁불태우
▁알렉스
▁GN
▁능선
▁역도
▁조광
▁해저
▁케이프
▁냐는
▁민요
▁봉수
▁지오
▁친분
텔레스
▁다나카
▁프로리그
올라
▁SL
▁당내
▁이방
▁탑신
▁역사가
▁빨갛
▁성실
▁이룩
▁김정은
▁예정자
▁부각
▁부원군
▁시애틀
▁려던
▁카니
▁윤보선
▁마다가스카르
관리
▁재외
▁출가
▁플랜
▁오른손
▁왕세자
▁멍
체고
▁개개
▁교실
▁구니
▁무척
▁분과
▁초빙
▁김규식
▁앤드루
체고비나
▁궁궐
▁몸통
▁상급
▁실험실
▁제조업
▁프라하
▁하노이
맥스
▁섬세
▁조례
▁AD
▁남용
▁정제
▁맨해튼
▁구마모토
▁아리스토텔레스
▁리비
▁통역
▁공민왕
▁해리슨
▁생선
▁시중
▁미군정
▁아무것
메스
ans
▁송도
▁징병
▁한하
▁동물원
▁루돌프
▁파인
OV
면체
▁재활
▁지쿠
▁차용
▁동대문
▁겁
사상
컨대
▁관문
▁서산
▁창문
▁헬리콥터
천면
▁오미
▁총애
▁호크
▁대대로
▁개헌
▁경시
▁경희
▁고쿠
▁실존
▁신문사
▁러시아인
▁괄
▁Sy
▁각성
▁농경
▁칼럼
▁줄거리
코토
▁국보
▁배려
▁허드
▁크라이
▁남산
▁독창
▁뾰족
▁커플
▁퍼스
▁퍼포
▁함자
▁EBS
▁경영자
▁리조트
ivers
무소
▁CM
▁수필
▁성남시
▁얕
▁유권자
▁퍼포먼스
ype
▁구청
▁하반
▁제퍼슨
▁시합
▁에프
▁포착
▁동유럽
어사
▁남해
▁약혼
▁화기
▁위너스
▁퍼스트
▁브레이크
▁나선
▁총통
▁클린턴
▁드미
▁바트
▁클레이
include
▁경호
▁뉴클
▁학설
▁MTV
▁사각형
▁올림피아
▁칙령
▁통용
▁파도
▁브루스
▁서재필
▁솔로몬
ish
▁효자
▁는다면
▁레이크
▁선거법
▁김원
▁시노
▁카지
▁유치원
▁해리스
▁가늘
▁안녕
GM
▁마차
▁모호
▁산호
▁유혹
▁주임
▁하류
▁나우
▁모의
▁스가
▁차갑
▁":
▁Jo
▁씨앗
▁욕망
▁전래
▁데려오
▁스테파
토랑
▁관청
▁들여
▁신발
▁일당
▁하키
▁화엄
▁케플러
▁레스토랑
▁광도
▁일리
▁자제
▁주입
▁허정
▁자치체
▁총사령관
원수
oun
▁보로
▁대합실
에스
▁NT
▁성화
▁시부
▁천왕
OD
▁독도
▁반기
▁보행
▁수양
▁케인
▁테라
▁트릭
▁호스
▁분류군
통일
▁실정
▁진해
▁아키라
▁예수회
▁요시다
▁함경남도
▁@
히트
▁로버
▁절망
▁카테
▁예선전
AF
fe
▁만장
▁메뉴
▁찬사
▁포식
▁ex
▁보라
▁평형
▁전무
▁제물
▁긴테쓰
▁뛰어들
▁비밀리
신문
정원
▁마술
▁무실
▁분파
▁검정
▁극한
▁라서
▁폭파
▁메이커
▁정의당
are
▁나인
▁소음
▁테리
▁내야수
창호
▁고든
▁리보
▁메카
▁박종
▁침묵
▁sc
▁다테
▁이점
▁보수당
▁플라톤
라니
환경
▁가솔
▁블레
▁원통
▁방어선
▁네이션스컵
▁벅
바흐
▁당연
▁라자
▁매리
▁문고
▁시몬
▁다저스
▁비타민
▁아키타
▁스톡홀름
▁ㅓ야
▁어군
▁천국
▁캐롤
▁서대문
▁컴퓨팅
▁뉴클레오
▁도둑
▁본성
▁블로
▁엄밀
▁카피
ical
▁ABC
▁알프스
등식
▁넷째
▁프론
▁드루
▁수복
러브
▁김유
▁마셜
▁색소
▁전담
▁타스
▁개구리
▁바이트
▁유아기
lat
▁강령
▁자치주
▁와이번스
▁도교
▁리베
▁묘비
▁방콕
▁파손
▁나트륨
▁오리온
▁친위대
▁동로
▁소극
▁웨인
▁황소
▁스폰서
▁프린스
TP
암동
▁노론
▁대본
▁북아일랜드
EG
IR
▁대북
▁모어
▁백두
▁소중
▁찬양
▁리프트
▁앞장서
▁멧
▁스텝
메드
▁럭비
▁리사
▁불변
▁마천루
▁샐
▁실권
▁장시
▁채취
▁천거
▁치과
▁홀리
▁ATP
▁대원군
▁로드리
▁투자자
▁피아니스트
매매
▁DD
▁구실
▁추이
▁가브리엘
부르
▁CH
▁마켓
▁포토
▁화약
▁책임지
▁피라미
▁Fr
▁사방
▁상행
▁슬픔
▁야전
▁왕권
▁헬싱
군다
▁AV
▁결별
▁구내
▁국공
▁선천
▁야드
▁톈진
▁퇴직
▁한미
▁마누엘
▁연산군
▁토스카
▁튀르크
▁담보
▁벤처
▁여유
▁영유
▁정거
▁210
덴부르크
▁이의
▁특전
▁동시대
▁용인시
▁연극배우
대표
▁구두
▁따지
▁삼존
▁제노
▁쾰른
▁선구자
▁정부군
말리
▁슬하
▁화강암
▁콘테스트
FL
놀이
▁유격수
▁적외선
티넘
▁Ma
▁로크
▁약사
▁어는
▁가이드
▁아나톨
▁플래티넘
▁헤르체고비나
ey
▁pr
▁감찰
▁방치
▁스칸
▁차출
▁알파벳
▁주차장
▁프레데
대교
▁별세
ica
▁간첩
▁강렬
▁마에
▁위그
▁유선
▁중퇴
▁펌프
▁잇따르
EL
▁왕건
▁목요일
사고
▁뭉치
▁본작
▁부치
▁준수
▁사로잡
▁오바마
▁딥
수스
▁가락
▁경전철
▁그저
▁리본
▁불참
▁삼림
▁he
▁봉화
▁실록
▁임정
▁종식
▁칸국
▁두려움
▁안테나
▁로얄
▁아날
▁유목
▁켈트
▁접어들
▁초신성
▁1889
클레
▁공존
▁밸리
▁엔트리
▁스카우트
60
▁영정
▁요충
▁이송
▁기관지
▁늙
난성
▁반포
▁산성
▁여권
▁예약
▁전전
▁직통
▁하시
공산당
와라노
▁도망가
▁아이폰
▁후지와라노
천동
▁가맹
▁건전
▁김형
▁사역
▁새우
▁송신
▁중합
▁말미암
▁고속버스
소통
▁갈아
▁로트
▁마땅
▁모금
▁모하
▁아끼
▁영예
▁정형
▁집정
▁형질
▁밴쿠버
▁패트릭
▁베트
▁여서
▁플리
부로
충류
▁다윈
▁대영
▁우림
▁투여
테이너
▁능하
▁호대
▁타이어
▁구르
▁불량
▁비엔
▁연말
▁치루
▁간신히
▁열심히
▁타이거스
▁So
▁니혼
▁사설
▁열강
▁의류
▁인가
▁절정
▁판례
▁드디어
▁떨어뜨리
▁의사소통
▁감성
▁똑같이
▁권하
▁매트
▁비야
▁주계
▁캐리
▁피지
▁For
▁메디치
▁스트로
카리
▁발라드
▁챙
▁극우
▁김준
▁악보
▁종자
▁지자
▁쿠퍼
▁튼
위안
▁격리
▁라리
▁낙동강
▁엣
바나
▁감상
▁미수
▁받치
▁사탕
▁수락
▁시크
▁정작
블랜드
▁CONCA
지능
▁사서
▁작물
▁중수
▁로마인
▁생존자
▁인공지능
▁애정
추부사
▁JTBC
▁Live
▁프란체스코
▁CONCACAF
가미
드레
▁무형
▁센티미터
bo
▁금호
▁서임
▁원군
▁의령
▁정읍
▁후배
▁클리블랜드
▁나카무라
▁소말리아
sh
유예
▁메소
▁정종
▁징수
▁미야자키
▁훙
▁도피
▁목회
▁앙골
▁요격
▁하야
휴일
▁고딕
▁모색
▁은거
▁부딪히
▁프랑스인
▁공소
▁잠정
▁제명
캐슬
▁가두
▁기이
▁Sou
에미리트
▁아랍에미리트
▁가도
▁바지
▁백과
▁송출
▁페트
▁시네마
IL
란토
망디
프로
▁금산
▁볼트
▁레이싱
▁가나가와현
풀이
▁비준
▁습윤
마르크
▁여배우
▁장학금
▁카탈루냐
▁자유민주당
▁깜
▁유의
▁치환
▁트렌
도르프
▁피라미드
EE
▁김명
▁당기
▁리옹
▁연정
바이트
하이오
▁오하이오
지기
▁EU
▁모욕
▁서태
▁익숙
▁광복군
▁교통부
▁유희
▁평평
▁Com
▁에이즈
다운
말로
▁벨리
tern
▁미야기
화문
▁격추
▁무네
▁레이더
▁Time
▁성곽
▁순종
▁자서
▁가솔린
▁검은색
▁캅
ood
▁거미
▁김광
▁워커
▁한중
▁항만
▁Col
▁마이어
▁유니버설
간다
대사
▁GB
▁AKB
▁스타트
▁츄
ost
▁"&
▁귀신
▁삼중
▁수로
▁암스
▁탄약
▁int
▁기숙사
▁카카오
▁1848
자루
▁매킨
▁문집
▁양심
▁여고
▁뉴캐슬
▁토리노
현동
▁추억
▁하구
▁라이더
▁레이트
▁Part
▁어시스트
▁프랑스령
찌르
▁무과
▁여사
▁우루스
나마
▁급여
▁사쓰
▁천주
▁티아
▁포털
▁한림
▁브레이
▁여의도
row
▁도래
▁해피
▁프란치
거스
▁사민
▁추력
▁최진
▁바그너
에몽
의사
지부
▁오만
▁해태
span
▁대리인
▁지상파
애미
▁국한
▁댄서
▁재팬
▁하행
▁공휴일
▁명확히
▁부총리
▁마이애미
▁TR
▁워즈
▁조인
▁토트
▁해독
▁onlyinclude
uc
정동
ous
▁가혹
▁남군
▁볼로
▁재일
▁절벽
▁우한
▁종군
프랑크
▁지배자
▁튀니지
▁카스티야
lay
▁ㄹ라
▁공대
▁공성
▁라르
▁모건
▁비정
▁셀레
▁무찌르
▁방대
▁병자
▁업자
▁총격
▁대니얼
▁정치학
▁클라우
orn
▁EM
▁무안
▁비토
▁클러
▁정거장
▁굴절
▁보령
▁안개
▁유식
▁특화
▁일본국
▁Your
▁대승불교
▁보수주의
▁로키
▁부합
파니아
▁고인돌
▁교의
▁비대
▁음절
페스트
▁법원장
▁페트로
▁산둥
▁제위
▁치카
▁국제법
▁대단히
▁대법관
▁마법사
▁리카
▁설문
ows
▁인칭
olog
▁SNS
▁관현악단
관계
메니
으로
ann
▁가쿠
▁경복
▁김인
▁단결
▁몰아
▁신곡
▁그랜트
▁시코쿠
▁아이즈
▁랴오
▁문단
▁부평
▁선명
▁시멘트
브로
▁사수
▁숙부
해살이
▁류큐
▁마테
▁용액
▁Bla
▁저지대
▁하노버
▁헤어지
az
▁고로
▁대마
▁모빌
▁선봉
▁케르
▁제우스
히사
▁BC
▁거란
▁공영
▁연립
▁131
OP
▁동산
▁지법
▁항체
메이카
▁OST
▁카메룬
▁자메이카
▁줄기세포
▁부다
▁오디
▁평지
▁황색
▁API
▁방사능
▁정보원
▁쪼
서스
▁검거
▁꺼내
▁메일
▁베어
▁서귀
▁진로
▁대나무
▁NASA
▁명소
▁초콜
클리드
▁레드삭스
▁도키
▁동진
▁소외
▁안방
▁적료
▁점포
드리아
▁줄리아
▁1883
▁쾨
▁재편
지아
▁at
▁모범
▁사림
▁종양
▁항우
▁형벌
빌라이
▁ref
▁부상자
▁욱
칼리
▁글꼴
▁메스
▁전보
▁지석
▁라파엘
▁영화상
▁제이슨
aw
▁가중
▁국교
▁남방
▁다듬
▁속력
▁최선
▁혼다
▁패러디
▁그라운드
▁GM
▁골격
▁다툼
▁하코
레스트
▁기와
▁전한
▁중엽
른스트
▁녕
시노
▁실증
▁응급
▁편견
▁한신
▁곶
▁가토
▁도박
▁라디
▁봉인
▁수식
▁연희
▁절감
▁평판
▁날아가
▁교향악단
▁기세
▁녹화
▁본뜨
▁탄자
네그로
▁판소리
용차
▁관상
▁무작
▁u
▁촛
합성
▁계주
▁산요
▁은혜
▁코소
▁타락
▁비서관
▁체인지
▁대좌
▁삽화
▁쌍대
▁후진
▁파일럿
▁노르망디
▁경위
▁식스
▁큐브
▁에스페
▁연구회
▁해상도
▁텍사스주
80
▁간략
▁리즈
▁송파
▁야외
▁열전
▁유우
▁피리
▁고분군
▁공무
▁근사
▁라바
▁범하
▁유공
센스
▁tv
▁이터
▁자명
▁조교
제품
▁가우
▁고생
▁라기
▁발상
▁병마
▁카네
▁콘솔
▁하남
▁예컨대
▁프로그래머
▁단군
▁리마
▁무섭
▁세습
▁온난
▁위로
▁이회
▁카마
▁연장전
▁뫼
▁기량
▁유생
▁에이전
▁위구르
▁Ge
▁노면
▁니키
▁받들
▁우산
▁쿠빌라이
지로
▁간사
▁고의
▁도네
▁램프
▁배분
▁상어
▁수위
▁엔드
▁월터
▁토마토
▁단속
▁안나
▁요절
▁지극
▁이용객
▁전반기
치히
▁관례
▁부왕
▁함량
▁만화가
워스
ern
ink
▁권역
▁북군
▁학력
▁다이어
▁해안선
돌이
에고
▁국외
▁단정
▁모세
▁성동
▁요양
▁1882
▁야마가타
▁RP
▁고흥
▁아유
▁왕궁
▁친족
▁Day
▁통신사
▁Wind
▁중소기업
40
▁봇
▁콥
버른
프턴
▁루키
▁멋지
▁사로잡히
▁거성
▁고노
▁내일
▁몰타
▁보루
▁부교
▁스루
▁주선
스트리
▁330
▁슈퍼컵
▁올리브
▁관계없이
토프
포시
▁기전
▁덮개
▁동포
▁사학
▁유서
▁헬레
CC
갈리
▁급증
▁세련
▁위조
▁파벌
▁단체전
▁스칼라
▁원산지
▁가고
▁관악
▁대표자
▁데니스
▁아이언
▁필립스
II
교통
여객
▁RS
▁SA
▁장덕
▁정월
▁조셉
▁공화정
▁아날로그
▁다우
▁붙잡
오르크
▁너무나
▁레오폴
▁결사
▁배달
▁범행
▁씨족
▁어기
▁국정원
▁부르주
▁선진국
▁카스트
▁Girl
▁몹
▁자수
▁플러
▁미토콘
▁영원히
▁미토콘드리아
▁FK
▁시안
▁우시
▁으리
▁정정
▁직속
▁최영
▁타수
▁베풀
▁성원
▁제천
▁Sch
▁강당
▁상록
▁재래
▁주창
▁태후
▁항원
▁후예
▁미스터리
서니
팡이
▁사영
▁아목
▁표정
▁군사력
▁북유럽
▁중공군
▁4000
▁관목
▁선대
▁염려
▁노벨상
▁해운대
▁시즈오카
▁강행
▁남하
▁산시
▁협업
▁형편
▁경주시
▁브루클린
▁넬슨
▁랭크
▁천수
▁무실점
▁테네시
▁호스트
▁괌
▁냥
▁딜런
▁양보
▁외래
▁조슈
▁독수리
게스
도라
▁규탄
▁발동
▁사치
▁서면
▁잠깐
▁정은
▁콜럼
▁신입
▁파푸아
본부
▁보름
▁얽히
▁안티오
▁지붕돌
▁파시즘
▁휴게소
데라
▁소프
▁제단
▁사업소
▁제갈량
▁1868
융합
▁단말
▁밝혀
▁빙하
▁영덕
▁일각
티모어
▁대상자
▁베이커
▁산티아
▁우의정
OT
US
▁노사
▁우월
▁하의
▁회귀
▁new
▁멜버른
▁메릴랜드
▁뇨
▁대인
▁번창
▁종영
▁급속히
▁데려가
▁라인업
▁컨테이너
▁Or
▁과테
▁뒤이
▁라미
▁수열
▁과테말라
▁유클리드
해자
▁OB
▁겨루
▁사안
▁족보
▁할인
스탄불
▁핵융합
▁사이타마
▁이스탄불
oll
▁오아
▁LED
▁스캔들
▁요충지
▁이바지
▁컨트롤러
당기
협회
▁객차
▁고트
▁대도
▁어파
▁피핀
▁앙골라
▁오스틴
▁사회민주당
▁교부
▁군벌
▁동적
▁외형
▁증폭
▁청계
▁출자
▁밝혀내
▁몬테네그로
▁사운드트랙
▁샨
▁찢
지리
▁농지
▁영월
▁저조
▁전수
▁렛
▁충렬
▁프랜차
▁장병
▁절제
▁리믹스
▁망치
▁법관
▁성산
▁기념일
▁폐기물
▁너머
▁노후
▁사천
▁우왕
▁켄트
▁트이
▁항로
펜하겐
▁좌의정
▁코펜하겐
히드
▁복종
▁위력
▁잔인
▁초안
▁주계열
▁베르나르
▁야마모토
▁교직
▁라카
▁러일
▁버터
▁안무
▁위촉
▁증오
웨이트
▁커리어
▁거처
▁게끔
▁금전
▁밀레
▁배리
▁은신
▁차선
▁청도
▁아케이드
▁요하네스
▁부파
▁사비
▁스콜
▁양수
▁영암
▁320
▁히브리
▁프란시스코
바오
▁출동
▁타리
▁프랜차이즈
▁colspan
어넣
▁식용
▁외과
▁주심
▁카세
▁피드
▁신주쿠
▁암스테르담
리안
▁동향
▁성악
▁이메
▁헌장
▁고온
▁내분
▁네티
▁치유
▁김옥균
▁사이먼
▁슌
공주
호란
▁끊기
▁대청
▁도상
▁우연
▁종신
▁추서
▁수요일
▁DF
▁대덕
▁분단
▁습관
▁이항
▁준장
▁end
▁동맹국
▁자서전
▁게오르크
▁니콜라스
▁능동
▁상국
▁소아
▁슈테
▁시비
▁치하
▁카툰
▁피치
아다니
▁효고현
▁여성주의
▁놈
우에
익스
▁공안
▁분사
▁순차
▁전세
▁컨설
▁그만큼
디나비아
▁스칸디나비아
▁국철
▁바울
▁양대
▁자재
▁정령
▁첼로
▁축산
토리코
▁오일러
▁산티아고
▁정몽
▁조영
▁직행
▁타일
▁서해안
걸이
꼬리
▁by
▁김윤
▁모차
▁샤프
▁압록
▁톰슨
▁호아
amp
gin
▁긴밀
▁문종
▁데이브
▁헤이안
▁에른스트
▁쿠웨이트
니파
려들
▁거지
▁노아
▁서주
▁전락
▁결과물
▁브뤼셀
▁김선
▁점거
▁차츰
▁타로
▁함흥
▁280
▁로마자
▁서사시
▁시트콤
▁루이지애나
▁늪
단지
독립
웍스
▁정반
▁칭송
▁퍼즐
▁한번
▁발전기
▁위안부
▁철저히
▁텔레콤
▁코스타리카
셀러
▁브릿
▁아흐
▁주성
▁어웨이
▁윗부분
▁장로교
▁육군사관학교
▁푸에르토리코
LA
▁IR
▁내무
▁문무
▁원활
▁전학
▁짐승
▁천천
▁가라앉
▁천안시
▁리코
▁흡사
▁법조인
▁펠릭스
▁함경북도
▁촐
계승
▁결핵
▁고집
▁정재
▁IOC
▁유학자
▁포르노
▁1893
▁각료
▁김승
▁데드
▁박성
▁백악
▁소대
▁수량
▁유족
▁척도
▁편향
▁후유
▁203
▁부르고
▁화장품
▁갯
▁격려
▁리튬
▁앤디
▁온화
▁천마
▁축전
▁폐렴
▁피크
▁트리오
▁복음주의
OW
▁맬
게임
▁Fe
▁박상
▁배드
▁생리
▁코네
▁천천히
북구
▁레프
▁이아
▁이우
▁집착
▁충무
▁측량
▁학장
▁민병대
퍼레이션
업자
▁과시
▁대종
▁데일리
▁가고시마
gr
세유
▁영천
▁교육자
▁이탈리아어
ung
▁기쁨
▁막판
▁서스
▁선인
▁이황
▁해왕
라이드
▁탄자니아
▁Mo
▁배양
▁자진
▁조니
▁조제
▁탈취
▁도자기
▁로베르
▁마이크로
상시
les
▁NP
▁le
▁심포
▁접종
▁하타
▁동맹군
▁해안가
▁갚
▁톡
▁김치
▁도우
▁서초구
▁Rock
티에
화학
▁간직
▁여도
▁우두
▁헤로
로이드
▁관우
▁애인
▁하급
▁노미야
▁김천
▁도이
▁사귀
▁톱니
▁헌터
▁아라곤
▁초콜릿
▁후쿠오카현
들러
몬트
비크
eth
▁관성
▁금동
▁미성
▁불경
▁심상
▁유영
▁한문
▁한큐
▁아우르
▁유적지
익스피어
▁Comp
▁핏
▁공양
▁림프
▁플랑크
▁셰익스피어
레드
▁구금
▁도출
▁심부
▁주세
▁칼슘
▁비스타
▁격하
▁굳히
▁마타
▁전미
루이스
▁녹색당
▁컬렉션
▁레인저스
▁덥
▁끓이
▁아츠
▁점검
▁조롱
▁고려대
▁케이크
▁픽처스
▁견고
▁버섯
▁흥분
▁강화도
▁글래스
▁스포르
▁미나모토
▁부르고뉴
▁Univers
▁귀속
▁바비
▁오하
▁장녀
▁현판
▁도야마
▁구독
▁라흐
▁명인
▁버러
▁소사
▁아메
▁TBS
▁사상가
▁우울증
oth
▁AB
▁Am
▁대주
▁배역
▁시속
▁에마
▁페더
▁Rec
▁불계승
▁상관없이
▁까마
▁노랑
▁비지
▁에로
▁휴양
▁게오르
▁다면서
▁로스쿨
▁밀려나
▁발사체
▁휘말리
▁러시아군
▁구치
▁라즈
▁무단
▁물결
▁서바이
▁순양함
▁도카이도
▁인공위성
트르
▁대차
▁마트
▁배기
▁월트
▁낚시
▁미츠
▁발목
▁상정
▁심문
▁청량
▁특사
▁황산
▁230
▁참모총장
나기
▁반동
▁재차
▁지난
▁카레
▁후하
그마
태평
폭탄
▁노프
▁물려주
▁베르타
▁프리스
▁from
▁플로리다주
▁핼
▁끼우
▁대접
▁연회
▁온대
▁침례
▁파편
▁GNU
▁스탠리
▁가르시아
▁가와사키
▁에스페란토
▁Do
▁Sup
▁국제선
▁마르세유
국적
바리
▁강진
▁꾸리
▁나뭇
▁당뇨
▁미아
▁슈타
▁용품
▁향기
▁프로모
ublic
▁뮐
헤드
▁라가
▁스투
▁이범
▁평안도
▁가부
▁대진
▁동종
▁운임
▁유포
민스터
▁기업가
▁로빈슨
▁수차례
▁지바현
▁펠리페
▁중앙은행
▁Su
▁리차
▁산수
▁소용
▁재발
▁철강
▁피사
▁수나라
▁박테리아
▁IV
▁매달
▁스킴
▁애초
▁에바
▁웃음
▁제창
▁페오
▁으려는
▁조선왕
▁율리우스
유사
▁울릉
▁카야
▁하이퍼
▁1888
▁1892
▁네모
▁성기
▁청송
▁다이빙
▁로이드
▁이바라
▁쫓아내
▁노스캐롤라이나
▁깁
▁닉슨
▁명부
▁제철
▁경계선
▁사간원
▁세네갈
▁쇠고기
둘기
▁CG
▁시우
▁장래
▁재앙
▁Car
▁케이트
AI
▁Sw
▁공법
▁데미
▁메틸
▁소동
▁유무
▁세비야
▁자라나
연수
▁납부
▁백자
▁사커
▁아와
▁허드슨
▁활동가
▁우에스기
▁푹
▁군데
▁붕어
▁사변
▁사키
▁살라
▁원유
▁주먹
▁애덤스
▁절도사
AE
티노
홍색
▁ar
▁모던
▁순례
▁시문
▁옥타
▁입헌
▁관현악
▁굶
▁강성
▁고스
▁공시
▁새뮤
▁어의
▁펠트
로니아
▁소학교
▁스탠드
▁과잉
▁낙양
▁라드
▁불사
▁위계
▁레이디
▁뱃
▁맥아
▁으시
▁이봉
미디어
▁공방전
▁대명사
▁대전차
▁산스크
▁차세대
▁산스크리트
▁면모
▁반주
▁자립
▁코사
▁고려사
▁논리학
▁다카라
▁대공국
▁스테판
▁알렉산드로스
▁씻
네트
다보
암리
철수
▁농축
▁미미
▁미식
▁자코
▁직계
▁하임
▁해병
▁더블린
▁아브라
▁지리학
▁펩
사태
자동
▁계량
▁과연
▁산청
▁세레
▁필하
▁문자열
▁사절단
▁후원자
▁프린스턴
▁니켈
▁도르트
▁볼로냐
▁1876
▁데스크톱
▁펫
다오
클라
▁중고
▁북조선
▁올리버
▁전주시
▁나름
▁당황
▁대금
▁생모
▁선양
▁아다
▁USB
▁사단장
▁성매매
RT
ah
▁겟
보리
▁wh
▁댓글
▁두각
▁이산
▁앤서니
▁프레임워크
▁거룩
▁노랗
▁로브
▁손녀
▁수력
▁죄수
▁풍습
▁브래드
▁아무리
▁1866
▁페르난도
▁간혹
▁단조
▁부양
▁수하
▁완도
▁정진
▁조개
▁채색
▁축성
▁토이
▁통폐
리카락
▁카운트
▁1886
▁머리카락
▁가면라이더
▁베이시스트
▁덱
로쿠
▁물류
▁발의
▁복싱
▁알폰
▁포탄
▁송환
▁에반
▁전권
▁펴내
▁260
▁Gre
▁보좌관
▁서기관
▁집행유예
▁프란치스코
광성
너드
▁군관
▁비우
▁아디
▁이호
▁조현
▁게시판
▁장제스
▁베네딕토
네임
뮬러
코르
▁너스
▁앨리
▁일진
▁조소
▁파파
르타뉴
▁교구장
▁조나라
▁브르타뉴
▁인플레이션
▁꽂
▁도성
▁번갈
▁부류
▁유능
▁저우
EST
▁약점
▁이니
▁합천
러뜨리
▁270
▁생리학
▁스테인
▁구스타프
분열
▁co
▁깃털
▁바시
▁박수
▁본체
▁아쉽
▁아지
▁얼룩
▁엘런
▁표하
▁바이어
▁코소보
▁웨스트민스터
라호
▁신진
▁잘리
▁펀드
▁덩어리
▁독립군
▁베이비
▁이즈미
▁드미트리
▁마린
▁무수
▁서예
▁원상
▁유다
▁민영화
▁페미니
▁Tour
꿈치
레시
▁긴키
▁배척
▁초전
▁파커
▁강서구
▁새뮤얼
▁해결책
큐어
▁도약
▁악곡
▁에리
▁임계
▁행방
▁역사학
▁용의자
▁통폐합
▁마르쿠스
▁카르타고
ron
▁도하
▁라니
▁제르
▁현과
▁간사이
▁서포터
▁주니치
▁1887
▁모차르트
우회
직경
▁마나
▁망하
▁빅뱅
▁산물
▁중개
▁퇴위
▁경영학
▁삼각주
▁쏟아지
▁KB
▁경무
▁위패
▁타구
▁프루
▁금나라
▁시직경
▁이어주
▁장난감
▁1861
▁프리미엄
▁펭
쓰기
지오
짜기
▁ML
▁모라
▁박자
▁아자
▁여타
▁음운
▁포츠
land
▁바람직
▁보살상
▁사쓰마
▁불러들이
▁브리티시
슈타
▁급히
▁동창
▁축구팀
ave
▁습득
▁출혈
▁근거지
▁유전학
▁화요일
▁Dream
19
왕후
ble
▁광선
▁슬램
▁페스
▁집정관
하임
▁Up
▁고창
▁도제
▁유머
▁지아
▁편안
▁Wii
른베르크
▁클레멘스
▁싹
제비
▁가닥
▁마구
▁무자
▁위시
▁자궁
▁펠로
▁장애물
▁도미니카
▁볼티모어
▁재단법인
▁오산
▁코호
▁홈경기
동자
비안
▁SV
▁레트
▁몰두
▁세분
▁1864
▁Life
▁it
▁버크
▁올레
▁정예
▁직사
▁특기
▁형용
▁환관
▁단거리
▁부분군
코타
▁라시
▁여건
▁유타
▁천지
▁돗
ult
▁슬프
▁외환
▁익명
▁촛불
▁꺼리
▁오대
▁황해도
▁다행
▁레버
▁만점
▁불분
▁파직
▁신세계
▁코스트
▁후세인
DA
▁모국
▁모닝
▁사내
▁양현
▁완결
▁자릿
▁뛰어넘
▁내포
▁수이
▁포화
▁바로크
▁1850
▁석가모니
열차
▁기밀
▁사하
▁에두
▁왕관
▁장전
솔리니
▁당선자
▁데이빗
린트
▁교지
▁발톱
▁세무
▁오메
▁착하
▁공연장
▁네티즌
▁음악원
▁프랑코
▁스트리밍
▁SH
▁경건
▁뒤늦
▁개정안
▁좌표계
▁카이로
▁휘두르
즐리
콘신
▁RT
▁구문
▁리트
▁스모
▁승단
▁재결
▁증세
▁지면
▁혼혈
▁백악기
▁보안법
▁위스콘신
디슨
▁복위
▁잔디
▁토목
▁가해자
▁모나코
예술
▁TC
▁건네
▁실각
▁예의
▁다카라즈카
▁홀딩
▁홍성
ition
▁남베트남
니오
▁근래
▁눈치
▁어우
▁이력
▁평탄
▁히토
▁노동력
orm
▁고모
▁라라
▁부풀
▁승하
▁암모
▁접합
▁주나라
▁토트넘
▁마을버스
ational
▁렙
플린
▁객원
▁쓰루
▁오일
▁하얀
▁허블
▁홈즈
라호마
▁보너스
▁재판부
▁컨텐츠
▁Music
▁오클라호마
▁관내
▁군세
▁추존
▁사들이
▁생성물
▁재판관
▁1881
EP
▁AG
▁공판
▁승지
▁헌납
바도르
▁사나이
▁아카이
▁헤라클레스
ton
▁계보
▁구례
▁더하
▁도산
▁마요
▁왕성
▁워킹
▁쿼크
▁푸아
▁참의원
▁행정동
▁1830
▁루스벨트
브웨
▁리에
▁이별
▁유니버스
▁강세
▁고하
▁방공
▁백업
▁삼척
▁잠실
▁조심
▁짐바
▁침대
▁황자
▁미네소타
▁크리에이
▁en
▁if
▁말단
▁매진
▁민물
▁발하
▁알맞
▁요괴
▁대표단
▁압록강
▁요금소
▁나마
▁남송
▁재벌
▁차수
▁카와
▁편하
▁필연
▁대교구
▁구획
▁선율
▁아타
▁엿보
▁전리
▁정황
▁패권
▁관련자
▁무작위
▁여학생
▁DR
▁괘불
▁기통
▁배트
▁챙기
▁판관
▁남조
▁목욕
▁복직
▁산기
▁자판
▁돋보이
▁로맨틱
▁합창단
▁컴파일러
렌스
▁경도
▁러닝
▁마티
▁세간
▁전교
▁찍히
▁야구단
▁외무부
▁화성시
▁낭만주의
▁도라에몽
뛰기
화경
▁경매
▁관용
▁닛산
▁다비
▁동차
▁벌레
▁뷰티
▁소라
▁오우
▁현미
▁해석학
▁1872
▁대한항공
▁오스트리
▁Ed
▁발자
▁스몰
▁신봉
▁아편
▁조경
▁종업
ject
▁까마귀
▁반대파
라이어티
아메리카
▁버라이어티
타입
▁XP
▁딸리
▁익산
▁코난
▁흑백
▁iOS
▁마르셀
▁부르주아
▁트레이닝
▁꿰
▁대강
▁발포
▁별장
▁스기
▁스윙
▁이누
▁콘티
평리
▁등등
▁로니
▁미상
▁삭스
▁쿠로
▁투하
▁파주
▁감리교
▁불분명
▁기고
▁시원
▁다비드
▁이메일
▁세르게이
▁이시카와
께끼
ION
▁레비
▁부전
▁양면
▁용사
▁의례
▁파열
▁750
▁피닉스
▁수수께끼
덕왕
▁교제
▁금고
▁루나
▁체하
▁팔작
▁다시금
▁선제골
▁무솔리니
림사
비오
▁an
▁김희
▁당진
▁야망
▁여호
▁인제
▁종묘
▁중랑
▁트란
슬라프
▁라치오
▁롬바르
▁범죄자
▁Open
▁엡
▁꼬마
▁두어
▁배아
▁애슬
▁지경
▁파기
브리드
▁난이도
▁도르트문트
나파
루크
▁교동
▁매스
▁베일
▁애완
▁이례
▁이은
▁진흙
▁친밀
▁켄터
▁햇빛
▁농어촌
▁라이스
▁화학자
▁대중교통
▁유라시아
달마
쿠니
▁BL
▁레아
▁메우
▁몸돌
▁생도
▁승상
▁양조
▁원동
▁주고
▁모멘트
어드
클럽
▁배향
▁복역
▁캐피
▁기획사
▁아이콘
번에
▁te
▁그란
▁당과
▁반죽
▁변종
▁샤이
태평양
▁센다이
▁하얀색
▁부다페스트
▁경량
▁단국
▁도봉
▁음주
▁의용
▁페라
▁Don
▁개체군
▁앞세우
▁청년회
▁초록색
데자
▁Ab
▁조시
▁호크스
데자네이
▁1865
▁하이브리드
▁쵸
더지
ics
▁Sm
▁닌자
▁모란
▁발산
▁브렌
▁순항
▁청문
▁탄산
▁허목
▁격투기
▁유전체
ru
▁넥센
▁취향
▁통지
▁휩싸
리아스
올로기
▁파충류
▁1863
▁이데올로기
▁살짝
▁열렬
▁장쑤
▁계승자
▁세군다
▁승용차
▁폼페이
매김
바인
ier
▁가든
▁슈고
▁오트
▁인위
▁작년
▁탐험가
워즈
▁가독
▁거꾸
▁기쁘
▁보정
▁옹주
▁티모
▁밀가루
▁박영효
▁시간대
▁작품상
▁과다
▁납작
▁잠기
▁토로
▁한창
▁그나마
▁타임즈
▁항아리
▁1873
▁"-
▁내재
▁대의
▁입시
▁처방
▁피카
▁경복궁
▁안산시
▁챌린저
▁AL
▁반항
▁봉황
▁부실
▁왓슨
▁조공
▁편제
▁피셔
변속기
▁고성군
단위
리쿠
▁덴쇼
▁코마
▁승정원
▁1891
▁HTML
▁교통사고
▁오카야마
데자네이루
▁Night
▁리우데자네이루
리야
▁리브
▁벌리
▁조장
▁충당
▁클릭
▁탐정
▁포대
▁발기인
▁우간다
▁제프리
▁Good
▁공군기지
▁자리매김
친왕
▁고난
▁대목
▁볼넷
▁직관
▁킹스
▁유니언
라르
ool
▁곡면
▁메츠
▁태아
▁경지
▁계좌
▁곱셈
▁부추
▁어촌
▁요즘
▁정명
▁착취
▁공식전
▁앤드류
▁샵
스레
▁경마
▁구슬
▁굴복
▁두텁
▁란스
▁루즈
▁병단
▁야심
▁재고
▁페인
▁아이디얼
▁쩔
쿠르
훈장
▁가비
▁모함
▁박진
▁법전
▁입술
▁철종
▁조선소
▁켄터키
▁베스트셀러
▁괜
미쓰
▁걸작
▁머니
▁미인
▁신대
▁픽셀
▁ret
▁공통점
▁국민회
▁발가락
▁여진족
▁구강
▁급하
▁시진
▁완비
▁촉발
▁와이드
TE
UC
거나
타스
ise
▁--
▁고마
▁과격
▁여대
▁자켓
▁카슈
▁해킹
이스케
▁수시로
▁세계유산
▁짐바브웨
린더
바지
che
▁쇼크
▁적발
▁필두
▁후미
QL
▁반점
▁상파
▁다국적
▁받침돌
▁자유형
▁제너럴
▁테무르
참찬
▁단자
▁마모
▁튼튼
▁합금
▁매달리
▁포항시
ai
▁NS
▁극찬
▁도도
▁리자
▁매립
▁분경
▁불로
▁비키
▁위법
▁유태
▁코뮌
▁혈압
▁몰도바
▁시티즌
▁PM
▁국호
▁매도
▁외상
▁용감
stem
▁노르드
▁릴레이
▁백악관
▁온타리오주
NG
동맹
▁계엄
▁등단
▁라크
▁리키
▁아뢰
▁이야
▁최장
▁IMF
▁종업원
▁댈
레반
무제
▁당당
▁세단
▁소작
▁주저
플렉스
레타리아
▁프롤레타리아
ode
▁MA
▁신의
▁오즈
▁해시
▁헤어
▁Can
▁캐스트
▁Black
▁켜
성경
▁나탈
▁무고
▁에치
▁하스
▁흔들
▁거꾸로
▁다마스
▁하반기
▁야쿠르트
▁팔작지붕
▁간판
▁교서
▁구시
▁병과
▁연행
▁현무
부아르
합중국
▁슬로건
상어
세다
킨슨
▁네임
▁산책
▁서지
▁양궁
▁양양
▁연화
▁조준
▁체내
▁650
▁트로트
70
▁믈
▁샴
▁콧
▁서위
▁파랑
▁김성수
▁서두르
▁연주회
▁크루즈
▁을사
▁증강
▁채굴
▁키즈
ower
▁반정부
▁지자체
▁무로마치
▁삼국유사
▁스테이트
▁이바라키
▁페르디난트
▁삐
▁버펄
▁황폐
▁피츠버그
▁강호
▁광배
▁앵커
▁우마
▁이강
▁헌병
선거구
▁550
▁조선왕조
▁section
조리
▁qu
▁농성
▁부에
▁진원
▁토유
▁용산구
▁1867
▁국부
▁문정
▁터빈
타나베
▁705
▁Let
▁미카엘
▁취리히
▁아비달마
▁심정
▁아델
▁엘라
▁연달
▁전멸
▁진언
▁타도
▁피어
▁해지
▁스코어
▁1862
티야
ank
▁무도
▁송진
▁캐논
▁앨버트
▁자외선
▁빠져나가
▁q
고르
대전
진구
펠러
▁El
▁군자
▁대담
▁맞춤
▁사교
▁산신
▁열쇠
스코트
▁스테이
▁AI
▁MM
▁경은
▁독주
▁모반
▁온건
▁조어
▁증발
▁현도
▁활자
▁광업
▁국력
▁씌우
▁예종
드라마
▁아오모리
▁이노우에
▁코호몰로지
▁광자
▁접전
▁투신
▁경희대
▁노르만
▁언론사
▁엑스포
해살이풀
▁미합중국
▁라이프치히
방군
정사
▁루피
▁북벌
▁스킬
▁위헌
▁잔존
▁조서
ings
▁손잡이
▁알폰소
곡면
포타
▁수퍼
▁처장
▁흡연
▁다이노스
렐라
리언
활약
▁AU
▁저축
▁치이
▁MSL
▁증조부
▁프로모션
▁Ac
▁걸프
▁서한
▁유구
▁지탱
▁처치
세우스
▁변광성
▁타이탄
중추부사
▁국민학교
▁노브
▁사드
▁양군
▁완수
▁코모
▁표절
▁맹활약
포타미아
▁6000
▁사이타마현
▁메소포타미아
▁간결
▁상선
▁증식
▁지그
▁연출가
▁페드로
DS
▁썩
투르
▁LS
▁변증
▁오보
▁옥시
▁유망
절도사
▁건륭제
▁낡
▁캣
▁UC
▁기묘
▁변모
▁보직
▁성수
▁레인저
▁사무국
▁사보이
비언
인구
▁도발
▁번개
▁장신
▁캐치
▁신한은행
센터
lar
▁신해
▁쿠라
▁티저
▁횡령
▁곁들이
▁-&
▁꽃잎
▁무너
▁온두
▁유림
▁조석
▁키릴
▁무너뜨리
▁온두라스
북면
▁가물
▁고찰
▁나사
▁자행
▁충칭
▁푸드
▁대리석
▁신기록
▁일본식
▁출입문
▁편집장
▁궐
디언
사화
위치
▁감염증
▁기원후
▁무사히
▁1878
▁미나모토노
ky
▁동자
▁세토
▁엘레
▁참패
▁협동조합
tr
젤로
▁그거
▁버진
▁작중
▁차림
▁표출
▁하중
▁회유
rist
▁라면서
▁웨이브
▁치료제
▁타타르
▁비스마르크
▁팍
퉁이
할린
▁동탁
▁스톰
▁절약
▁직교
▁경쟁자
▁제조사
▁고등학생
▁뵈
구나
▁당파
▁완만
▁지린
▁Ser
▁갈아타
▁마그네
▁부여군
▁자릿수
▁컴파일
▁프로테
▁되돌아가
ta
▁밋
▁Qu
▁시역
▁충신
▁필명
▁행군
▁주고받
▁백과사전
ee
▁가극
▁급성
▁내란
▁옥천
▁자부
▁적정
▁중용
▁히노
hem
▁국인
▁보류
▁시르
▁으러
▁후드
▁HMS
▁사대부
▁입법부
▁프리츠
▁해부학
빌리
일치
▁Ag
▁바쿠
▁손님
▁이끼
▁점진
▁정박
▁청각
플로러
▁홀딩스
▁익스플로러
▁널
시게
▁괄호
▁다량
▁라다
▁서거
▁영사
▁지체
시아드
▁And
▁이성질
▁인지도
▁플러그
▁개기
▁고국
▁길드
▁잉크
▁직물
▁불가피
▁유엔군
▁스케이트
▁유니버시아드
▁ㅣ
▁킷
내티
산부
▁부군
▁스에
▁일선
▁일설
▁저해
▁참수
▁현악
▁802
▁뉴기니
▁액세스
▁외교부
▁1869
▁신시내티
▁프라이즈
▁일리노이주
▁팻
▁맛보
▁매슈
▁서점
▁수레
▁용해
▁지문
뉴기니
▁수비대
▁이브스
▁특별법
사우루스
▁글로브상
▁요리토모
▁밧
니티
다발
루엔
▁과자
▁수당
▁유화
▁피처
▁제작진
▁플루토
▁핵분열
벤션
▁SO
▁부두
▁북대
▁상의
▁수급
▁애기
▁잔해
▁골짜기
▁베르나
▁봉우리
▁업로드
▁후지와라
▁썬
마디
▁tr
▁근방
▁기조
▁대타
▁몸체
▁벵골
▁소피
▁육식
▁폴라
▁행보
▁마포구
▁와타나베
▁코퍼레이션
정보
▁가방
▁객실
▁박원
▁이목
▁방위군
▁와세다
▁쿠르드
누마
▁강우
▁용수
▁추후
▁며느리
▁포뮬러
▁스파이더
▁프랑스와
▁쫓기
▁헤더
▁사생활
▁아이젠
▁페르미
셔주
▁솔라
▁자정
▁수도회
▁원자핵
▁아우구스
ae
▁로시
▁면직
▁민심
가르트
▁1840
▁낯
▁냐고
▁다목
▁모티
▁토키
▁포천
▁포탑
▁형주
▁기동전
▁1592
▁Song
▁키르기스
▁무비
▁무색
▁반입
▁변질
▁자처
▁텍스
▁패킷
스타인
▁강력히
▁글렌
▁목동
▁성품
▁시시
▁오자
▁콜드
▁연예계
▁오스카
▁장로회
▁명성황후
▁친선경기
▁탬
세르
▁고을
▁귀인
▁부관
▁축일
▁치사
▁항생
▁안동시
▁영유권
▁팔꿈치
▁프라임
▁PL
▁단서
▁벤츠
▁소박
▁숙소
▁절친
▁토라
▁떠올리
▁생화학
노르
암사
▁AA
▁금색
▁단역
▁빈민
▁사소
▁위도
ount
▁516
▁바닷물
▁운동량
▁인코딩
▁매킨토시
▁사이언스
▁벳
▁가곡
▁더러
▁사부
▁컴필
▁헤겔
▁금강산
▁목적지
▁파시스트
▁컴필레이션
자원
티컷
▁거사
▁그물
▁논산
▁린다
▁출국
▁포자
▁로타르
▁리차드
▁부등식
▁여객기
▁운전자
▁유년기
▁코네티컷
▁크리스티나
수염
찬성
▁RC
▁괜찮
▁넘버
▁분별
▁위즈
▁최하
▁지하역
▁데카르트
pr
네르
▁국세
▁렉스
▁바쁘
▁상식
▁자취
▁추축
▁쿼터
▁풍기
▁하수
▁Mon
▁맥아더
구스
작전
ade
per
▁공상
▁빅터
▁수만
▁자루
▁패망
▁채권자
▁로드리게스
▁랙
▁성가
▁영미
▁그래도
▁네이트
▁예언자
▁패스트
▁레지스터
▁마스코트
ata
▁끌리
▁병풍
▁악명
▁영수
▁튜브
▁휘발
▁힐베르트
▁아나톨리아
▁닉스
▁다쓰
▁베라
▁아어
▁암수
▁어사
▁천상
▁캐슬
▁과반수
▁시니어
▁엇갈리
▁파주시
▁휩싸이
▁Heart
▁여우원숭이
블릿
▁거창
▁양파
▁유자
▁하라
▁구단주
크라테스
▁심리학자
부시
▁me
▁고제
▁디나
▁마레
▁블러
▁자질
▁헤일
▁댈러스
▁뒤따르
▁에이전트
▁볶
날드
효소
▁유이
▁인승
▁저그
▁출세
▁글러브
▁창립자
▁return
▁KN
▁강인
▁규율
▁란트
▁루도
▁박히
▁백조
▁삭감
▁심소
▁염화
▁스트림
▁필사본
90
히메
▁DB
▁Pe
▁ab
▁계룡
▁국화
▁능가
▁발착
▁성대
▁유골
▁입출
▁전단
▁청취
▁관심사
▁세미나
▁적십자
▁종착역
▁테크놀
▁히타치
▁8000
▁지장보살
선언
어하
테랑
▁반론
▁에트
▁오도
▁워스
▁중견
▁초음
▁탁구
이치로
▁나치오
▁농가
▁문중
▁미학
▁사주
▁시찰
▁실상
▁쌍성
▁의주
▁이카
▁지요
▁흥원
▁안타깝
▁Windows
▁펜실베이니아주
수단
ium
▁Gl
▁겸직
▁다름
▁뒤지
▁변혁
▁스택
▁이심
▁임종
▁직렬
▁페레
▁비둘기
▁지질학
▁되돌아오
▁와카야마
▁아나키스트
▁권익
▁김연
▁들르
▁바보
▁상과
▁온실
▁담당자
▁보유자
▁크메르
▁남아시아
▁영등포구
전선
히데
▁라프
▁여포
▁오시
▁퀴즈
▁어도비
▁그린란드
▁세인트루이스
IX
어가
▁기행
▁바인
▁베오
▁사와
▁설리
▁어선
▁연중
▁왜군
▁질투
▁안창호
▁1875
▁고등교육
IF
던트
▁뉴런
▁니케
▁윤휴
▁침식
▁피살
▁호그
▁치료법
▁알프레드
넌트
조사
▁As
▁걸음
▁몹시
▁볼록
▁숙련
▁외면
▁은밀
▁의복
▁정오
▁토요타
놀드
링겐
뻐하
욕장
테이
▁Aw
▁신지
▁외척
▁잠입
▁조비
▁호른
▁기뻐하
▁시미즈
▁예비역
▁진주시
▁헤르만
구니
▁동호
▁막강
▁위크
▁Out
▁집단군
계사
▁강습
▁귀엽
▁사각
▁상동
▁착각
▁컵스
▁키드
▁키리
▁파랗
▁해트
▁교파
▁수증
▁유카
▁준동
▁친화
▁KTX
▁고문서
▁나리타
▁모자이크
▁교훈
▁노현
▁디바
▁면담
▁미지
▁열세
▁오마
▁웍스
▁출품
▁Gen
▁강대국
▁보리스
▁이와테
▁뉘른베르크
▁랠
기즈
▁기린
▁독살
▁어부
▁콜린
▁타나
▁혼잡
세데스
▁이랜드
▁학술지
▁근본번뇌
기아
날레
탄두
▁도적
▁예프
▁표제
▁종사자
▁표트르
▁회고록
▁메르세데스
보당
▁방울
▁슈투
▁일명
▁징집
▁철자
▁일부러
▁피의자
사유
이에
son
▁VS
▁노원
▁문체
▁선상
▁여럿
▁원단
▁이선
▁인먼
▁최남
▁취직
▁폐허
레이트
▁사이즈
▁클리어
▁쳐들어오
▁페널티킥
itt
▁로사
▁목장
▁불복
▁생원
▁셔틀
▁야수
▁한민
▁게임기
▁리스본
▁친환경
▁남양주시
▁김두
▁순식
▁용지
▁절충
▁첩보
▁터너
▁컨벤션
▁안드로메다
BI
세서
▁sh
▁다자
▁닥치
▁서약
▁월화
▁텐서
에이고
▁380
▁AMD
▁데이트
▁돌고래
▁매디슨
▁함경도
▁끌어올리
▁샌디에이고
▁리크
▁에레
▁의정
▁이희
▁즐거
▁집전
▁송파구
▁눌
▁땀
▁니까
▁달콤
▁실명
▁아노
▁율법
▁의성
▁태안
록대부
▁성폭행
▁스케치
▁스피커
▁칭기즈
▁테오도
▁통도사
▁몽고메리
▁병자호란
▁브란덴부르크
▁기운
▁로큰
▁특공
▁강희제
▁아세틸
▁통신망
▁파라오
PA
방향
▁ㄴ단
▁디디
▁문관
▁버트
▁왕래
▁북극점
▁이사벨
▁장갑차
▁중앙선
▁채무자
▁클레어
▁항공대
더링
어류
ale
▁TS
▁금정
▁기판
▁단양
▁비료
▁선체
▁안중
▁예식
▁타쿠
▁활기
able
▁레스터
▁쇼핑몰
▁행해지
▁포르투갈어
은사
▁바늘
▁배반
▁성행
▁베르트
▁부적절
▁싫어하
▁크라운
▁싯
알라
엽수
▁생쥐
▁일차
▁체로
▁환율
▁획기
▁가환환
▁광둥성
▁다이쇼
▁로큰롤
▁마주치
▁상반기
▁슈타인
▁감기
▁구루
▁슬리
▁영락
▁원효
▁정언
해방군
▁꽃차례
▁신석기
▁연속극
▁프론트
▁쇼트트랙
▁바빌로니아
▁인민해방군
부대
세키
▁KO
▁결전
▁극소
▁레몬
▁명상
▁서당
▁세일
▁술라
▁칸트
▁포인
▁로버츠
▁야마다
▁파스칼
ng
윽고
크리
▁교관
▁동거
▁야권
▁양지
▁"()
▁아리랑
▁이윽고
▁저널리스트
UN
두사
르카
▁교화
▁모질
▁장정
▁바나나
▁코트디
▁코트디부아르
▁가세
▁구세
▁기공
▁기마
▁라울
▁방호
▁스펜
▁실은
▁안식
▁애착
▁중일
▁되풀이
▁비단털
▁최성기
▁오프라인
몽골
촌리
▁거머
▁구타
▁로바
▁모피
▁박재
▁안톤
▁엔젤
▁이질
▁출격
루엔자
▁Par
스코리아
▁비단털쥐
▁보컬리스트
▁벙
시대
▁가모
▁모체
▁보우
▁수마
▁수은
▁염두
▁차명
▁헤센
▁건너오
▁반감기
박사
우주
▁가명
▁래리
▁샤르
▁자장
▁대항전
▁보호법
▁순식간
▁정치국
▁WC
▁경의
▁기미
▁문수
▁보그
▁위트
▁잉카
▁정에
▁205
▁맥스웰
▁선거인
데기
▁구아
▁금하
▁금환
▁모사
▁열악
▁708
▁개그맨
▁데뷔작
▁사학자
▁관음보살
▁University
▁텅
연구
행파
▁서클
▁이홍
▁향신
▁후루
very
▁합성어
▁형용사
▁탭
▁경순
▁동군
▁무능
▁실사
▁에코
▁NBC
▁Vol
▁라이베리아
건설
▁대류
▁야코
▁정칙
▁ATC
▁보조금
▁스케줄
▁아우구스투스
▁At
▁경종
▁규약
▁배당
▁월남
▁사할린
▁콘라트
▁통계청
▁cc
▁라벨
▁미첼
▁안팎
▁외손
▁집사
▁케리
▁한겨
▁슈미트
쿠사
▁데일
▁복부
▁불쾌
▁시의
▁안심
▁외할
▁조봉
▁타시
▁캐스터
▁테두리
▁엑스박스
▁인플루엔자
▁GR
▁거시
▁군복
▁등산
▁띄우
▁뮐러
▁베티
▁양서
▁재화
▁김해시
▁조선공산당
▁JC
▁박용
▁상계
▁서안
▁아연
▁양극
▁치마
▁235
▁가이아
▁name
벌리
양이
anc
▁남단
▁웨어
▁자위
▁정글
▁족장
▁초계
▁칼륨
▁토피
▁후이
▁시마즈
▁로베르토
▁맴
루즈
모음
▁가뭄
▁나기
▁내림
▁비옥
▁수역
▁외삼
▁우기
▁재보
▁후한
▁DOS
▁스케일
▁호흡기
화당
ody
▁골절
▁에노
▁자키
▁줄곧
▁축복
▁포니
▁풀백
▁호로
폴리탄
▁다가가
▁안양시
▁메트로폴리탄
사와
IVE
▁균일
▁노카
▁세스
▁손목
▁솜씨
▁신병
▁이달
▁젠더
▁키트
▁하산
▁tvN
▁반대편
▁오르간
▁자격증
▁그레이엄
▁뤄
▁퀄
나들
보라
황색
▁기스
▁라지
▁마흐
▁사미
▁석기
▁창구
▁셴
net
▁경화
▁고층
▁나한
▁리나
▁실효
▁유충
▁코바
▁통솔
▁화승
▁간호사
▁남극점
▁사무관
▁열역학
▁조각상
▁This
▁지하철역
열대
▁바니
▁버니
▁병렬
▁일간
▁일삼
▁잔혹
▁카로
▁패치
▁교육감
▁서스펜
▁한겨레
▁1874
▁우두머리
▁브로드웨이
▁잼
에쓰
▁가온
▁노라
▁베크
▁시제
▁정승
▁확충
▁로페스
▁신호장
▁안드레
▁카디널
18
so
그램
르산
큐슈
▁종가
▁키타
▁거주자
▁당뇨병
▁동아리
▁일렉트릭
악산
주크
ATO
▁결말
▁무가
▁부엌
▁소론
▁소양
▁요직
▁잔여
▁침범
▁코로
▁향수
▁조각가
▁천도교
▁미스코리아
▁알렉산데르
란다
▁뉴멕
▁발판
▁양평
▁일주
▁협곡
▁화원
▁시그마
▁뉴멕시코
▁중앙아메리카
▁파푸아뉴기니
▁낭비
▁동백
▁리시
▁마늘
▁몰수
▁석권
▁숙박
▁악당
▁은폐
▁잉여
▁칠성
▁공주시
▁라스트
▁무지개
▁재미있
▁오아시스
텐셜
▁리타
▁무예
▁볼드
▁빌드
▁산조
▁중남
▁한복
▁홍익
스크림
진보당
▁가요제
▁바그다드
▁슈퍼스타
▁스틸러스
▁유가행파
▁컨퍼런스
▁콘퍼런스
시험
신저
▁다쿠
▁발작
▁산문
▁이색
▁성폭력
▁저스틴
ala
▁강국
▁맞물
▁싱크
▁재회
▁점하
▁품목
▁아놀드
▁트레일
▁항공편
프랑
▁sp
▁기닿
▁메모
▁코크
▁판명
▁204
▁동남쪽
▁퍼텐셜
▁기울어지
▁호소카와
징어
▁넷플
▁라플
▁레나
▁읍성
▁인스
▁자네
▁조동
▁쿠마
▁클로드
▁넷플릭스
▁강좌
▁델리
▁묘호
▁미겔
▁인성
▁주군
▁학당
▁흐리
▁대수학
▁에스컬
▁휴대폰
▁1877
▁에스컬레이터
me
▁벚
▁격전
▁나일
▁벗기
▁사중
▁송이
▁앨라
▁옥사
▁캠벨
▁행선
야누스
어나오
▁게임즈
▁앞바다
▁지리산
▁핸드볼
▁후쿠이
▁바이마르
▁콜럼버스
운수
▁SR
▁YG
▁감축
▁공문
▁깔리
▁너희
▁모치
▁우니
▁이문
▁하지
▁Bab
▁뉴올리
ax
co
소문
▁AE
▁단발
▁법규
▁상한
▁선단
▁에페
▁클랜
▁참전하
▁프레슬리
▁트라야누스
더릭
▁그르
▁도형
▁되살
▁민원
▁복속
▁앞뒤
▁애드
▁예금
▁출사
▁퇴진
▁화염
▁화음
▁루이즈
▁여운형
▁청문회
▁포식자
▁7000
▁돌려보내
au
yn
비에
▁북측
▁교육학
▁사하라
▁중거리
▁서아프리카
▁쿰
민당
▁그립
▁엄지
▁예멘
▁차오
▁처마
▁Her
▁수백만
▁원주시
▁한국군
▁허베이
범죄
▁AF
▁곤살
▁아킬
▁양천
▁전조
▁지령
▁총영
▁탄수
▁셀주크
▁멀티미디어
▁끔
높이
를레
ash
oid
▁건지
▁본존
▁블랑
▁승낙
▁의제
▁지크
▁CIA
▁공학자
▁스타드
▁컨설팅
▁콘티넨
▁Best
▁갈릴레오
GB
▁툼
계약
▁고승
▁두뇌
▁무주
▁소인
▁요가
▁APG
▁비잔틴
▁오릭스
▁레닌주의
바드
혈구
▁결장
▁경내
▁김우
▁바야
▁밸브
▁산체
▁순찰
▁시발
▁에볼
▁우표
▁제지
▁토바
▁518
▁브리스
▁클러스터
ps
▁얄
양구
ose
▁로망
▁상환
▁추계
▁외계인
▁1859
변수
일기
ict
▁et
▁노하
▁도읍
▁소주
▁인계
▁카일
▁거머쥐
▁콜린스
▁1700
▁만장일치
22
▁나투
▁방학
▁사연
▁소르
▁숙명
▁승률
▁억울
▁유창
▁코린
▁하층
▁강화군
▁달려가
▁부르봉
▁Hell
▁다카하시
▁사무라이
▁플루토늄
HC
장사
피크
▁곡식
▁라임
▁문물
▁오구
▁통찰
▁쓰러뜨리
▁캄파니아
14
▁도안
▁맹렬
▁스펙
▁완장
▁원사
▁재물
▁경부선
▁곧이어
▁엘비스
제철
▁가선
▁관아
▁대입
▁뒤덮
▁문맥
▁자성
▁대사간
▁현미경
▁메모리얼
▁켐
의식
▁과세
▁레크
▁변론
▁보어
▁사병
▁산재
▁상감
▁오니
▁이씨
▁난쟁이
▁돌려주
▁루카스
▁연방군
▁이주민
▁클레오
▁스테파노
▁랏
남면
무장
토크
▁결여
▁만지
▁미켈
▁율리
▁제비
▁퇴치
▁게이밍
▁앙드레
▁전시관
배마
▁KS
▁se
▁경합
▁구가
▁니즈
▁뚜껑
▁서품
▁스플
▁중건
▁허물
▁후회
▁라이센스
▁앨라배마
▁챠
▁us
▁도부
▁미트
▁서체
▁선과
▁여정
▁요도
▁원문
▁타선
▁625
▁개화파
▁오리엔
▁혼합물
▁프리큐어
형제
▁블룸
▁쓰리
▁펭귄
▁플랑
▁불러오
▁사다리
▁아파치
▁울트라
▁이케다
▁멱
▁짚
EEE
▁리안
▁명왕
▁일어
▁태화
▁투사
▁셰퍼드
▁순천시
▁아키텐
▁이론가
▁인류학
13
15
▁구전
▁네브
▁만류
▁모교
▁부식
▁결의안
▁길거리
▁억제제
▁긋
데일
버터
▁공병
▁적법
▁미트라
▁안철수
▁우에노
▁뮈
나시
로트
▁백운
▁북인
▁왕당
▁자갈
▁함장
▁후견
▁미야기현
▁소아시아
▁자이언트
▁자카르타
▁테크놀로지
▁샷
▁웜
고사
과학
동원
마을
매기
완다
▁ㄴ대
▁원점
▁전범
▁츠카
▁푸젠
▁제니퍼
▁출장소
▁핵탄두
▁튀어나오
▁뉴클레오타이드
VA
주석
투리
▁관위
▁롤러
▁바젤
▁바투
▁베다
▁알로
▁원만
▁전서
▁화소
▁가치관
▁서태지
▁카리스
▁트레인
▁크리스틴
어놓
재판
uck
▁군기
▁근간
▁발터
▁어지
▁일면
reak
▁빈센트
▁빌바오
▁아드리아
▁^
▁무공
▁박찬
▁백지
▁타파
▁후면
▁미성년
▁직사각
▁거병
▁다윗
▁레티
▁미러
▁속국
▁아누
▁이창
▁장경
▁헬스
▁페스트
▁환승역
▁아이스크림
de
장조
▁덮치
▁문건
▁산남
▁왕명
▁이만
▁테헤
▁희미
▁목표물
▁선제후
▁탈레반
▁IEEE
티지
▁관군
▁진심
▁피자
▁로저스
▁바스크
▁순교자
▁실린더
▁서바이벌
HL
소니
▁공석
▁김학
▁도끼
▁로보
▁사산
▁산술
▁오인
▁용맹
▁은지
▁자백
▁정청
▁총감
▁호투
▁홀수
▁기념장
▁쓰촨성
▁예문관
▁출판물
▁케이드
▁카디널스
르바
조류
▁경원
▁논증
▁로코
▁발광
▁수주
▁주포
▁퇴출
▁하후
▁호화
▁회차
▁340
▁아이치
▁이치현
▁정착지
▁통계학
▁아미타불
나주
주사
▁뉴잉
▁로디
▁리언
▁코이
▁튜링
▁고바야시
oo
스톤
ail
▁FF
▁달력
▁상층
▁안주
▁오와
▁조회
▁특명
▁화풍
떨어지
하마드
▁마코토
▁아스카
스퍼
패드
▁발진
▁섹션
▁청정
▁교황령
▁대혁명
▁로스트
▁볼프강
▁향신료
▁Star
▁as
▁개경
▁담양
▁보국
▁보디
▁상설
▁수프
▁진천
▁타밀
▁통감
게이트
▁대제학
▁디에고
▁레이건
▁오토바이
▁펙
▁금관
▁도매
▁세제
▁유틸
▁의인
▁전봉
▁호적
▁310
▁아니면
▁지석묘
▁해인사
▁국가원수
▁유틸리티
▁사생
▁사탄
▁수문
▁양동
▁정역
▁폐차
▁Sun
▁개척자
▁국내선
▁오슬로
▁원정대
▁이광수
▁어우러지
▁매사추세츠주
팩스
▁구라
▁젤리
▁중앙일보
▁뽀
▁DO
▁거문
▁교인
▁나바
▁떠돌
▁베가
▁부락
▁손수
▁연해
▁입찰
▁짝수
▁추장
▁커브
▁터스
▁가우스
▁개막식
▁대관식
▁대대장
▁브레멘
▁Super
플레
▁my
▁김도
▁김주
▁동급
▁뚫리
▁멜라
▁센타
▁어학
▁호이
▁you
▁슈투트
▁여러분
▁슈투트가르트
댓값
▁교감
▁근세
▁모션
▁아칸
▁템플
▁209
▁무사시
▁에이브
▁울주군
▁1812
▁콘스탄티누스
구미
바퀴
vel
▁과달
▁수구
▁시력
▁평방
▁폐하
▁무신론
▁바빌론
▁셀레우
▁자본가
▁조르주
▁뉴잉글랜드
학파
▁강유
▁메드
▁선별
▁소서
▁지검
▁추밀
▁충동
▁그래픽스
▁늦추
▁명륜
▁빨강
▁산정
▁속초
▁윤치영
▁모니터링
▁유니코드
▁안토니우스
▁후쿠시마현
TF
초프
▁ad
▁로컬
▁루드
▁무위
▁배타
▁장지
▁정실
▁카파
▁토프
▁항문
▁해커
▁리바이
▁자오선
▁자치현
▁클라리
▁Soul
▁아이파크
iel
▁Kn
▁걸스
▁근위
▁김덕
▁나시
▁닷컴
▁박경
▁산인
▁성조
▁손쉽
▁황위
▁르완다
▁송진우
▁에세이
▁에이지
▁선거관리
▁무형문화재
▁선거관리위원회
티어
▁Tw
▁맞배
▁세밀
▁수질
▁조던
▁지카
▁쪼개
▁탄두
▁피그
▁하강
▁호국
하우스
▁206
▁삼거리
▁주거지
▁서비스업
▁알렉세이
▁Christ
▁당상
▁루손
▁스쿼
▁안면
▁의논
▁장강
▁점토
▁단말기
▁여수시
▁음식점
▁접미사
▁조광조
▁한자어
▁ICBM
▁름
▁과감
▁로런
▁이건
▁주유
▁풀이
▁John
▁북대서양
59
샤오
▁고후
▁규합
▁그늘
▁끔찍
▁논평
▁산동
▁아호
▁천자
▁카보
▁코우
▁콘스
▁연대장
▁주제가
▁막시밀리
네오
디드
▁ON
▁교재
▁금천
▁니치
▁도자
▁동맥
▁로지
▁매듭
▁무진
▁법상
▁위축
▁투니
공화당
시아키
▁록히드
▁1879
▁민주공화당
▁쑹
버라
ute
▁Mi
▁귀순
▁샤오
▁영도
▁장이
▁철기
▁춘계
▁개개인
▁베르사유
TR
gh
도감
탄올
▁IF
▁Mr
▁솔리
▁집적
▁747
▁기생충
▁레코딩
▁로널드
▁보이즈
▁안데스
▁건국훈장
▁아브라함
▁썸
면적
▁가창
▁개표
▁구비
▁버밍
▁수라
▁스완
▁포상
▁해주
▁휴일
▁슈트라
▁의병장
▁테헤란
▁파르마
EA
무지
▁방탄
▁범람
▁변성
▁원한
▁유세
▁전열
▁차역
▁청일
▁초식
▁카토
▁콜론
▁사우디
▁에다가
▁리바운드
방스
▁농담
▁동대
▁소량
▁슬러
▁양원
▁카펠
▁타라
라이스
▁고지대
▁백두산
▁조봉암
▁파르티아
▁슈트라우스
▁일렉트로닉
태자
▁낯설
▁단수
▁딱딱
▁부기
▁상이
▁아람
▁양념
▁양정
▁울루
▁자각
▁정맥
▁그러면
▁독재자
▁바닷가
▁석회암
▁카지노
▁피어스
▁HP
▁공경
▁관개
▁도파
▁예보
▁풍요
▁제이크
분투
슐리
▁대방
▁리퍼
▁모태
▁불문
▁소포
▁유계
▁유보
▁유상
▁임실
▁자석
▁des
▁게이오
▁태블릿
▁군마
▁그릴
▁노역
▁듀스
▁보아
▁실베
▁용역
▁이코
▁일보
▁초회
▁쿠시
▁420
▁뉴올리언스
OK
▁쑨
네프
화산
▁감당
▁게놈
▁당장
▁대등
▁대여
▁비오
▁빛깔
▁수족
로세서
를레앙
▁CoA
▁라그랑
반정
블릭
▁기권
▁능숙
▁두부
▁불능
▁스킨
▁영종
▁차차
▁촐라
▁App
▁리그컵
▁변호인
▁사가미
▁여행자
▁영사관
▁트리스
▁뜯
신보
정변
▁국문
▁노마
▁부화
▁사체
▁사파
▁온전
▁조우
▁최용
▁클럭
▁Str
▁아이작
▁암스트
▁ㄹ지라도
▁불법행위
▁끊이
▁반달
▁열람
▁유민
▁전곡
▁제고
레틱스
▁국방군
▁즐거움
리아누스
▁애슬레틱스
▁Record
▁강가
▁반납
▁스텐
▁애호
▁인삼
▁중등
▁컬링
▁현수
▁호시
▁으리라
▁들어올리
연맹
자드
VID
▁광시
▁남경
▁두스
▁잇달
▁카다
▁글리제
▁본거지
▁최진실
▁테크노
▁원종공신
▁꽝
ull
▁Gu
▁권투
▁김시
▁노엘
▁도나
▁동하
▁머큐
▁앉히
▁인척
▁처칠
▁후추
▁440
▁니가타
▁수영장
▁알칼리
▁여주인
▁인산화
산업
▁수아
▁자존
▁접목
▁투기
▁흐트
▁군주제
▁부추기
▁엘리엇
▁오메가
▁유기체
▁조용히
▁주머니쥐
▁쿵
▁퀼
링크
수지
▁ㄹ로
▁소진
▁왕좌
▁유관
▁증축
▁체리
▁커리
▁항전
▁페르시
▁아우구스트
선교
장군
▁성자
▁시타
▁역동
▁제방
▁공성전
▁엘리스
▁잠비아
▁엔지니어링
박이
티보
▁"|
▁PA
▁부트
▁상회
▁압수
▁할구
▁Per
▁광합성
▁야구부
▁항생제
▁2500
▁print
▁다마스쿠스
▁금기
▁라쿠
▁양구
▁왕릉
▁용문
▁이석
▁폴로
▁환산
로그램
▁바실리
▁을수록
▁지극히
▁합병증
▁타지키스탄
▁public
길준
니에
덕궁
의금
▁CA
▁궁주
▁리지
▁무패
▁미타
▁신익
▁아로
▁앙상
▁열거
▁왕녀
▁요셉
▁쿠루
▁트림
▁256
▁매니아
▁스위트
▁실리콘
▁이회창
▁춘천시
▁플래닛
대비
▁po
▁리노
▁매복
▁종실
▁탈피
▁투병
▁부서지
▁불거지
▁양산시
▁엔리케
▁영화관
▁오토모
▁제시카
▁페이퍼
▁호기심
▁대법원장
▁헬레니즘
▁균등
▁기시
▁동두
▁콜리
▁파고
▁Hot
▁바레인
▁살아오
▁허버트
바이러스
레미
발트
황제
▁nm
▁나토
▁명동
▁문어
▁성현
▁은평
▁이한
▁퀸스
▁헐리
▁화이
▁맞물리
▁산투스
▁습니까
▁카스텔
일체
자나
▁ER
▁광동
▁내시
▁더라
▁마거
▁바바
▁북마
▁사나
▁시영
▁아루
▁이설
▁행운
▁버스터
▁부러지
16
25
▁앳
데오
빨리
▁고독
▁교학
▁담수
▁사목
▁식이
▁작자
▁향로
▁환초
▁기본법
▁오우치
▁왕당파
▁접근성
▁초고층
쿠치
▁고요
▁사스
▁셔츠
▁실책
▁워낙
▁정직
▁중신
▁코니
▁호찌
▁Win
▁고다이
▁깨어나
▁비행사
▁시에라
▁캅카스
▁판매고
▁천문단위
▁크리스탈
ty
▁가결
▁군도
▁담임
▁득실
▁성형
▁접시
▁코인
▁패자
다임
ual
▁레저
▁바타
▁반향
▁석재
▁성교
▁카츠
▁킬러
고로드
▁랴오닝
▁사이클론
포리
▁깊숙
▁동률
▁아역
▁오차
▁우타
▁피질
ogle
▁재결합
자락
▁Ke
▁농협
▁동체
▁미녀
▁유미
▁칠곡
▁렌더링
▁토론회
▁프리드
▁후유증
스틱
울루
▁HS
▁mu
▁강자
▁교명
▁기한
▁내기
▁노골
▁느슨
▁멘델
▁반정
▁브이
▁즉흥
▁체질
▁침수
▁할로
▁힐스
▁911
▁남북조
▁브루노
▁생산자
▁예비군
▁예수교
▁요나라
▁웨슬리
▁이세이
▁주둔지
▁리치먼드
▁패러다임
커우
▁금리
▁녹이
▁라사
▁쌍용
▁사무엘
▁스텔스
▁알베르
▁잠재력
▁조연상
▁1789
▁1801
▁Back
▁캥
는점
불명
▁겨냥
▁기피
▁대용
▁도화
▁사조
▁스팀
▁예쁘
▁응력
▁이보
▁준하
▁지브
▁코일
그래피
▁208
▁베이직
▁제주시
▁후반전
▁플랑드르
▁둠
무트
스텐
▁NM
▁봉분
▁부안
▁아구
▁악어
▁여관
▁유독
▁진성
▁초석
던지기
▁오이타
▁기타큐슈
▁아미타여래
▁강타
▁곱하
▁정중
▁탄력
▁트램
▁다행히
▁유도탄
▁조제프
▁Kore
▁쐐
▁군림
▁누마
▁소노
▁솔직
▁시온
▁전과
▁치밀
▁치킨
▁히코
프리드
▁광주시
▁길버트
▁들여오
▁유길준
▁1400
▁포틀랜드
RNA
▁Fl
▁구애
▁군량
▁로만
▁원곡
▁조율
▁머큐리
▁방법론
▁암스트롱
▁폼페이우스
평면
▁KD
▁신천
▁쐐기
▁총생
▁폐교
리오스
▁아르테
▁흘러가
ll
다스
득점
로움
▁MD
▁성부
▁세타
▁에픽
▁우디
▁네바다
▁디아스
▁브릿지
▁영장류
▁NATO
▁독립선언
인산
▁교란
▁구부
▁궁수
▁기일
▁악의
▁안시
▁영성
▁파피
▁Get
▁MIT
▁마운틴
▁브루크
▁사망률
▁사천왕
▁앙상블
▁영문학
▁유물론
▁지배하
▁드래곤즈
▁뿜
제사
차리
▁NL
▁애프
▁윤곽
▁이가
▁이크
▁책정
▁첫날
▁동일시
▁로런스
▁선수상
▁인문학
▁남한산성
▁비로자나
ox
▁NA
▁가전
▁갑신
▁거품
▁관저
▁국산
▁균열
▁오웬
▁중학
▁채집
▁청중
▁총국
lect
▁370
▁급속도
▁마거릿
▁킵
라과
이상
▁고는
▁구명
▁발열
▁변천
▁약품
▁열기
▁내몽골
▁만주족
▁붉은색
▁스태프
▁양평군
▁작아지
▁추축국
▁트럼펫
▁가령
▁격화
▁다채
▁출정
▁트론
ames
▁225
▁이유로
▁Baby
▁미식축구
▁생물학자
▁프린세스
▁렬
▁극회
▁나날
▁만물
▁미디
▁장차
▁최순
▁코디
▁호전
▁클라인
▁항공우주
▁Intern
모닉
ove
▁관원
▁먼로
▁미로
▁민선
▁승선
▁신궁
▁안락
▁예편
▁유재
▁장승
▁청군
▁커넥
▁코딩
▁탄성
▁흑색
▁Mag
▁디렉터
▁요시카
ology
▁탄수화물
▁셀레우코스
GO
레븐
▁Cr
▁격침
▁고관
▁박태
▁수표
▁안건
▁오랑
▁유감
▁제헌
▁카인
▁현관
▁남아공
▁메신저
▁오리건
▁와이어
▁리하르트
▁이리하여
▁이마가와
▁해수욕장
YP
▁둑
남동
파니
▁공훈
▁군위
▁노름
▁다라
▁도식
▁명장
▁무소
▁생포
▁소마
▁승마
▁야만
▁얼리
▁유익
▁지회
▁타키
▁하세
▁황하
▁후난
▁거듭나
▁방문객
▁부사장
▁부천시
ature
▁레오나르
▁트로츠키
피카
▁가변
▁강구
▁진위
▁호지
▁기네스
▁나카노
▁베테랑
▁니카라과
▁서귀포시
백색
let
▁공평
▁배지
▁제타
▁조엘
▁출항
▁캔터
▁캡틴
▁케로
▁통킹
▁타일러
그라운드
▁로베르트
▁소크라테스
▁안티오키아
▁갸
능력
훈련
▁결렬
▁결투
▁교내
▁무쓰
▁초판
▁친히
▁탄광
▁흉내
피에르
▁고스트
▁미요시
▁블러드
▁시나노
▁콜라보
▁돼지고기
▁에두아르
▁베오그라드
17
심원
▁BO
▁그간
▁누에
▁니트
▁대소
▁듀엣
▁무루
▁비방
▁사일
▁수화
▁약수
▁양위
▁죄인
▁효성
스트림
inal
▁리카르
▁태양광
경찰
메랄
무실
▁개축
▁던전
▁알마
▁직각
▁카노
▁피시
▁Way
▁신안군
▁주세페
▁프레더릭
TN
▁씬
락부
enn
▁공지
▁굳이
▁명중
▁사옥
▁생장
▁외가
▁주스
▁합장
코비치
▁다카시
▁범어사
▁사법부
▁스트라
▁페라리
가키
금속
처럼
▁BB
▁경산
▁고취
▁김장
▁도보
▁라테
▁베아
▁불길
▁서곡
▁인노
▁천태
▁총수
▁출병
▁카불
▁파출
▁한꺼
▁두더지
▁아열대
▁어드밴
▁이치로
▁태극기
▁함부로
▁해수면
▁혈액형
▁게오르기
▁한꺼번에
UM
가요
ors
▁개리
▁레반
▁매튜
▁증류
▁춘향
▁하츠
▁효모
▁207
▁GPS
▁강릉시
▁김종직
▁알레산
▁압둘라
▁알아차리
▁MR
▁결단
▁깁슨
▁레르
▁미끄
▁연어
▁윈드
▁잔치
▁재심
▁철근
▁틈타
▁흡입
말라야
▁Res
▁스펜서
▁시아파
▁내역
▁봉헌
▁운석
▁조너
▁동북부
▁무정부
▁일제히
▁항소심
▁1820
갱이
▁DA
▁굴욕
▁미추
▁베컴
▁사계
▁살레
▁시편
▁이구
▁폭주
▁365
▁사이다
▁이지스
▁조합원
▁직할시
▁체육회
▁1815
▁서대문구
▁선거인단
▁이오니아
덱스
즈미
app
▁결실
▁기형
▁도량
▁맞닿
▁습도
▁에인
▁키치
▁페레스
노스아이
▁Amer
노스아이레스
▁부에노스아이레스
광사
나비
든가
시카
월드
▁OK
▁담그
▁박동
▁북송
▁비이
▁세도
▁천적
▁풋살
▁핼리
스티안
▁국무부
▁Cent
▁리얼리티
▁카롤루스
▁아르바이트
▁"'
▁공보
▁산마
▁설과
▁술집
▁신안
▁에든
▁토의
▁퇴계
▁화교
어들이
이즈미
▁유명세
▁지방도
▁프린터
▁라이온스
▁에든버러
▁히말라야
24
▁Dr
▁변조
▁토하
▁필로
▁허구
레이즈
▁감마선
▁노무라
▁일진회
▁유럽연합
▁낸
▁욘
ret
▁결집
▁김은
▁담장
▁로제
▁모잠
▁서역
▁시성
▁양분
▁좌랑
▁해내
▁해머
ange
▁리그전
▁야행성
▁오징어
▁전동기
▁모잠비크
로프로세서
▁레닌그라드
▁막시밀리안
▁마이크로프로세서
▁훅
오드
현실
ina
▁만수
▁스틱
▁으뜸
▁전극
▁조나
▁천리
▁충고
▁쿠사
▁표어
▁학도
▁한라
▁호박
ater
▁농민군
▁도나우
▁정몽주
▁제품군
의금부사
FS
▁김석
▁마취
▁분담
▁영위
▁트롤
▁피쳐
▁모터쇼
▁후베이
▁System
마니
▁격상
▁리서
▁본진
▁시차
▁어인
▁월경
▁테살
▁디나모
▁조병옥
▁지포스
▁혁명가
▁고고학자
▁마쓰모토
▁알베르트
▁알렉산드라
비츠
▁갑오
▁데니
▁본능
▁부이
▁성내
▁세실
▁위태
▁융기
▁지반
▁펜스
▁넘어지
▁아드리
▁연금술
▁지팡이
▁1858
베인
▁SW
▁기욤
▁노총
▁달마
▁당사
▁디펜
▁마초
▁슐레
▁이삭
▁허들
▁모델링
▁선데이
▁연습생
▁유공자
▁중심핵
▁모노이드
▁프로방스
za
거루
▁경구
▁광서
▁성찬
▁소정
▁소켓
▁실태
▁자막
▁장서
▁직류
▁출루
▁코넬
▁탈리
▁퍼플
▁전망대
▁총생산
▁오스트로
▁써
▁챈
쓰네
ons
▁만연
▁미완
▁벅스
▁사보
▁아토
▁장론
▁종단
▁특혜
▁형광
지먼트
▁Int
▁Mac
▁가디언
▁민의원
▁적절히
▁마그네슘
▁매니지먼트
니츠
입자
ley
▁급사
▁기주
▁달래
▁도난
▁매질
▁발라
▁엠마
▁옵티
▁지뢰
▁특위
▁합산
▁라이드
▁모조리
▁스와프
▁신익희
▁조너선
▁크레타
▁파블로
▁이성질체
▁필하모닉
러기
토바
퍼트
▁'-
▁갈비
▁관대
▁기민
▁녹말
▁새해
▁선서
▁위배
▁육박
▁음양
▁하카
▁날아오
▁도치기
▁제노바
▁알베르토
▁class
▁폴리네시아
ux
동리
▁견지
▁납품
▁더빙
▁사악
▁에뮬
▁전액
▁정현
▁좌천
▁창씨
▁태상
▁테드
ions
▁Tra
▁군산시
▁대학살
▁필리스
▁맞배지붕
▁천연가스
▁기교
▁기근
▁니라
▁상해
▁수강
▁애쓰
▁완산
▁이철
▁장택
▁재주
▁정공
▁콘셉
▁포섭
▁프록
▁USA
▁ㅂ니까
▁관찰자
▁광화문
▁마에다
▁밀어내
▁봉수대
▁분홍색
▁시게루
▁High
정제
▁낙태
▁남궁
▁농작
▁니체
▁덕수
▁소탕
▁수선
▁의왕
▁토드
▁펠레
▁핑계
▁그리드
▁넘어오
▁노트북
▁마피아
▁안티고
▁포인터
▁무궁화호
던스
라나
사랑
실험
코인
att
▁귀하
▁대정
▁마도
▁모여
▁정과
▁진구
▁푸틴
▁Not
▁목포시
▁유성구
▁전철역
▁진정하
▁평상시
▁서프랑크
▁엎
싸움
컨드
▁고택
▁궁내
▁독실
▁동티
▁말소
▁총살
지스터
▁막아내
▁평의원
▁1300
▁1814
▁조선왕조실록
테일
▁SG
▁기악
▁마틸
▁미자
▁벨벳
▁아말
▁안재
▁예일
▁음역
▁증원
▁콤비
▁패퇴
▁헤지
▁비올라
▁트랜싯
▁티무르
▁피드백
▁동아프리카
▁귤
촌동
토쿠
▁공해
▁로타
▁마고
▁민가
▁성제
▁알렌
▁유승
▁헬렌
▁MHz
▁쌍방울
▁What
▁type
▁클라이맥스
당류
랭크
재단
▁군비
▁문성
▁소치
▁이덕
▁제보
▁주상
▁휴먼
▁건너편
▁맞대결
▁성명서
▁수도사
▁플래그
▁보호구역
▁트랜지스터
기둥
널목
자유
ART
▁Of
▁고갈
▁보육
▁비욘
▁스팅
▁아약
▁우도
▁우이
▁전집
▁키아
▁흥덕
▁IEC
▁건널목
▁겨울철
▁깨달음
▁세컨드
▁그래미상
거성
데냐
▁RA
▁목화
▁비호
▁완주
▁증직
▁쿠리
▁튀기
▁홍천
▁290
▁미우라
▁오나라
▁우승컵
▁충주시
▁평택시
▁사르데냐
▁산업단지
▁토스카나
▁Google
BN
림동
▁구석
▁급기
▁보카
▁수의
▁스쿠
▁신관
▁우대
▁전란
▁총액
▁War
▁베일리
▁액티브
▁연구실
▁재빨리
▁커티스
▁한정판
▁혁명군
▁암모니아
▁크리스천
마일
▁kW
▁간지
▁로어
▁면은
▁미에
▁바사
▁버거
▁부탄
▁석등
▁애매
▁윗면
▁이다
▁퀘이
▁포진
정보부
▁라쿠텐
▁성북구
▁패트리
▁1795
민정
▁견훤
▁바하
▁북상
▁아픔
▁열망
▁캐럴
▁할양
▁헤임
씨식물
▁WHO
▁니스트
▁프렌즈
▁석가여래
ger
▁FS
▁군집
▁규장
▁레미
▁려다
▁리온
▁선회
▁실크
▁앨버
▁열풍
▁정일
▁지층
▁직권
▁초당
▁페데
▁헨드
▁훈족
▁LCK
▁MLB
▁고조선
▁미시간
▁아약스
▁주교좌
▁포스코
▁프리킥
살바도르
▁부위원장
구멍
전차
▁구자
▁도표
▁루지
▁멘토
▁아난
▁켈빈
▁사이공
▁통신부
▁트루먼
▁플라자
▁다리우스
▁샌드위치
▁플레이스
▁그리스도인
▁윔
식스
회원
▁군락
▁발췌
▁스톨
▁암초
▁에린
▁원생
▁잊히
▁포교
▁국문학
▁리포트
▁원정군
▁익산시
▁프로이트
ye
▁밈
alk
▁NX
▁PH
▁괴뢰
▁도정
▁리츠
▁매춘
▁본초
▁아랑
▁에런
▁옥상
▁인대
▁춤추
▁패드
▁혼돈
▁850
▁대항해
▁홉킨스
▁With
▁렝
▁모식
▁몬태
▁비어
▁세베
▁약학
▁우사
▁TBC
▁블루어
▁정확도
▁창업자
▁디렉터리
yle
▁로동
▁미숙
▁부녀
▁브람
▁쇠약
▁얼터
▁장조
▁풍수
▁480
▁Dis
▁남조선
▁선언문
▁창덕궁
▁하모니
▁뱌
▁쥘
부미
enc
▁보훈
▁코지
▁토비
▁함의
▁남해군
▁로렌초
▁스레드
▁스타즈
▁타블로
▁합천군
▁수마트라
NT
▁켓
니코
▁광택
▁보궐
▁아핀
▁웅진
▁유원
▁종친
디우스
주니어
▁Art
▁보행자
▁안드레이
▁카테고리
건적
고나
팽이
▁당명
▁미코
▁반야
▁웰스
▁장준
▁천정
▁첨부
▁학급
▁헬로
▁등록금
▁에히메
▁헬싱키
▁사탕수수
▁아틀레틱
▁COVID
▁그리스도교
스테
카라
▁Di
▁굶주
▁니나
▁승전
▁효용
▁238
▁개최지
▁공직자
▁북반구
▁충렬왕
▁Blue
▁드레이크
▁간디
▁경이
▁국지
▁김세
▁더럽
▁숭실
▁씨름
▁연유
▁영재
▁윈터
▁팀장
▁평신
▁돌아서
▁지방관
▁페테르
IO
블린
▁각광
▁교묘
▁논설
▁덩굴
▁데쓰
▁맛있
▁머피
▁소도
▁엄정
▁차분
플레잉
ough
▁남반구
▁바로잡
▁빅토리
▁학생회
▁가나자와
▁롤플레잉
▁요시아키
▁꼼
▁먀
레프
▁감탄
▁랜덤
▁박승
▁버시
▁불평
▁설사
▁율령
가하라
▁넥스트
▁보호관
▁산체스
▁스타인
▁1793
▁이베리아
뉴스
렁이
천국
▁골수
▁구토
▁남포
▁리저
▁민권
▁세탁
▁수렵
▁와해
▁정여
네소스
▁공기업
▁손바닥
▁안데르
▁이완용
▁자연주의
▁자유민주
▁중앙정보부
UI
에리
ING
▁교주
▁노화
▁당분
▁데메
▁묘법
▁신구
▁역모
▁이트
▁장항
▁쿠릴
▁하디
독립당
▁수번뇌
▁에밀리
▁여객선
▁취약점
▁페인트
▁한국독립당
▁키르기스스탄
que
▁ED
▁Vf
▁갤러
▁과부
▁국과
▁내구
▁만기
▁멜론
▁몸집
▁보츠
▁서강
▁올랭
▁용접
▁정병
▁존엄
▁직함
▁페터
▁하순
다람쥐
연화경
▁Rev
▁문하시
▁보라색
▁크라스
스트리트
▁1846
▁MPEG
▁물리학상
▁에드먼드
26
메트
적분
전쟁
OVE
▁괴멸
▁구룡
▁대뇌
▁무당
▁미묘
▁민생
▁유시
▁윤원
▁이국
▁천구
웨스트
▁노르트
▁아산시
▁아칸소
▁유격대
▁1839
▁브루나이
르모
ump
▁삼키
▁서보
▁오호
▁이효
▁참배
비우스
▁농작물
▁엉덩이
▁이브라
▁중서부
▁어드밴스
▁하시모토
운전
▁'.
▁느라
▁니콘
▁월북
▁인출
▁퇴단
▁펀치
시우스
▁가입자
▁메이트
▁버나드
▁변속기
▁시어터
▁지난해
▁추밀원
▁1854
▁time
▁기념사업
▁넉
▁뚱
나물
래시
바람
파스
▁경멸
▁귀양
▁낙타
▁산불
▁억류
▁총체
▁추위
▁표결
슬라브
▁LCD
▁배수량
▁베드로
▁아테나
▁체스터
▁최하위
▁테트라
▁여주인공
▁히로부미
▁시즈오카현
▁아오모리현
대성
질량
der
▁걸맞
▁공덕
▁구인
▁도색
▁망루
▁사흘
▁솔트
▁순정
▁잠들
▁해자
▁국무원
▁상속인
▁외무성
▁아나키즘
▁초등학생
▁갑각
▁게일
▁깜짝
▁독소
▁박기
▁심플
▁존상
▁클루
▁학창
▁휘트
▁아쿠아
▁전기장
▁황태후
▁후임자
▁기독교인
▁촘
모자
재란
후이
▁군국
▁마는
▁본당
▁부윤
▁심근
▁윤석
▁이견
▁이형
▁정강
▁톨킨
▁현충
니다드
티우스
학생회
▁214
▁737
▁대머리
▁수증기
▁알레르
▁하카타
▁정유재란
▁자동변속기
▁트리니다드
▁중앙아프리카
든지
▁개전
▁방조
▁분양
▁아민
▁여과
▁유폐
▁인신
▁치중
▁환기
코스트
▁가시마
▁기부금
▁분류학
▁상대론
▁시공간
▁윤리학
▁키워드
▁파트리
▁팩토리
▁평화상
▁언어학자
▁이해관계
▁총학생회
고트
우어
패스
▁가니
▁구나
▁루머
▁미모
▁바일
▁범용
▁야로
▁칼레
▁특례
▁파드
▁필기
▁후시
▁낙하산
▁산둥성
총리대신
▁마음대로
▁세키가하라
▁내각총리대신
BT
▁내수
▁라몬
▁매번
▁매월
▁박준
▁브론
▁비참
▁상작
▁손책
▁오딘
▁웅장
▁육아
▁종주
▁찬탈
▁코레
▁COM
▁Min
▁경비대
▁돗토리
▁보나파
▁절대로
▁조계종
▁증명서
▁미성년자
▁비지니스
▁보나파르트
▁돛
▁BR
▁등대
▁마한
▁상투
▁새턴
▁석상
▁수류
▁이부
▁페드
캐스트
쿠스틱
프랑스
▁안중근
▁에리크
▁1849
▁Beat
▁어쿠스틱
▁플로이드
▁뺏
▁퓌
▁ME
▁광경
▁교포
▁분장
▁소홀
▁어이
▁오닐
▁장령
▁제식
▁팬아
▁가파르
▁교토부
▁북극해
▁비행대
▁갈릴레이
▁공화주의
▁비트코인
▁견습
▁고압
▁디온
▁바덴
▁베버
▁비크
▁실로
▁유품
▁태세
▁페가
▁갖가지
▁데포르
▁초대칭
▁파출소
▁하이든
▁1856
▁오브젝트
▁페더레이션
28
담회
사회
탐정
▁간염
▁계투
▁북해
▁사죄
▁시경
▁인피
▁적재
▁해일
▁화북
직할시
▁건국대
▁구청장
▁나가노
▁델라웨어
HD
▁깡
▁럴
▁줌
▁낙랑
▁남로
▁단성
▁담론
▁모기
▁본디
▁분쇄
▁소란
▁수배
▁시주
▁신작
▁엠블
▁철원
▁현령
▁찬드라
▁포위전
▁노동자당
▁소용돌이
▁네덜란드어
누아
오린
정권
호르
호프
▁대세
▁봉작
▁역습
▁연임
▁예속
▁오기
▁우동
▁웨일
▁이안
▁제학
▁파격
타니아
▁430
▁교직원
▁식물원
▁어리석
▁해럴드
베이거스
▁캐나다인
▁크레이그
▁하이웨이
23
섬유
케스
▁반열
▁배설
▁변방
▁악역
▁요아
▁추궁
▁헤엄
▁화전
▁효능
atch
▁장택상
▁1851
▁스탠퍼드
▁캔자스시티
▁라스베이거스
OU
▁녜
개혁
체어
▁드니
▁마자
▁만국
▁메사
▁밀스
▁반려
▁유장
▁적성
▁조승
▁촌은
▁한서
▁419
▁감염자
▁다이나
▁참모장
▁상파울루
▁차량기지
▁PP
▁간장
▁낙엽
▁단호
▁볼륨
▁셔먼
▁원성
▁윤영
▁후백
트로피
▁FBI
▁디스코
▁레인보
▁벤피카
▁보르도
▁입출력
▁테이크
▁투데이
▁사보이아
▁크리에이티브
처리
하스
▁계란
▁김문
▁단사
▁도독
▁라티
▁상체
▁알비
▁외동
▁치수
▁친절
▁Top
▁아가씨
▁오비탈
▁진보당
▁집어넣
▁하동군
츠부르크
▁블레이드
▁스티븐스
▁오하이오주
86
ery
▁결탁
▁경색
▁서천
▁쇼팽
▁수서
▁언약
▁주경
▁착안
▁히다
▁기념식
▁노스케
▁캥거루
▁핵폭탄
▁1855
▁1857
▁서스펜션
▁정사각형
▁폴란드인
▁프란시스
▁힉
전기
투안
하늘
▁TG
▁국면
▁대광
▁대열
▁보문
▁분개
▁생가
▁여생
▁욕설
▁정시
▁카잔
▁페티
▁공사관
▁대주주
▁배트맨
▁상세히
▁수산물
▁시부야
▁애벌레
▁작사가
▁휠체어
▁다이스케
깨비
버거
봉사
산읍
일라
천년
카테
▁거액
▁랜디
▁명주
▁발송
▁벽면
▁빌미
▁조력
cess
▁Med
▁베르디
▁서북쪽
▁수수료
▁올라서
▁일간지
▁갑신정변
▁민족주의자
하르
▁YM
▁권세
▁무왕
▁서상
▁성채
▁수훈
▁아모
▁캔디
▁핵산
▁현명
icro
▁211
▁구미시
▁글리코
▁봉사자
▁시흥시
▁행정관
▁반공주의
▁여러해살이풀
▁좡
▁심슨
▁정년
▁택지
▁한참
고양이
콥스키
▁301
▁모자라
▁제이스
▁지평선
▁포천시
▁데포르티보
댄스
테른
▁롤리
▁압송
▁쟁점
▁주치
▁체첸
▁친목
▁템포
▁포구
▁해금
▁Pop
▁시우바
▁웨이트
▁저작물
▁펠로폰
▁포브스
▁Will
▁이와테현
▁병마절도사
▁펠로폰네소스
레토
버드
서구
재기
증권
지대
▁까다
▁버퍼
▁셀룰
▁신영
▁인테
▁폰트
루리아
▁223
▁동의어
▁변증법
메니스탄
▁서아시아
▁투르크메니스탄
소득
왕국
흐트
▁변장
▁선하
▁소망
▁실습
▁임베
▁크세
▁탄원
▁팔자
▁려다가
▁스나이
▁은하단
▁카운터
▁컨디션
▁헤이스
▁임베디드
쇼프
연대
▁CL
▁간파
▁노회
▁대적
▁만리
▁수스
▁액수
▁외벽
▁지소
▁찬스
▁히나
▁NAD
▁그로스
▁나주시
▁비엔나
▁1776
▁Free
▁엔트로피
니엄
니크
바꿈
▁돌핀
▁박격
▁벚꽃
▁성간
▁슈바
▁이학
▁늘어지
▁오카다
▁클라리넷
로아
ont
▁FR
▁IA
▁고증
▁급습
▁노다
▁신명
▁알론
▁열반
▁원제
▁율곡
▁음경
▁읽히
▁장구
▁지병
▁카렐
▁한도
시오날
▁대각선
▁뽑아내
▁핵실험
타고라스
▁나시오날
▁플루오린
day
▁김한
▁미안
▁이공
▁퇴사
▁현청
▁회부
▁다면체
▁모여들
▁보니파
▁수송기
▁하이델
▁가까스로
▁무라카미
▁미주리주
27
스탕
▁골목
▁버즈
▁요네
▁조식
▁총알
▁코민
▁항모
▁현생
▁독립국
▁루터교
▁마그마
▁바이스
▁타고나
▁형무소
▁사카모토
▁태평천국
광선
▁UR
▁과업
▁뇌졸
▁대흥
▁문교
▁방한
▁센스
▁윤선
▁잠복
▁타오
노벨라
리어스
중국해
▁거제시
▁레너드
▁이범석
▁올랭피크
▁원내대표
▁그레고리력
▁텔레노벨라
▁통합진보당
▁금광
▁부총
▁사극
▁와트
▁중첩
▁병원체
▁아세트
볼트
aut
▁MW
▁개요
▁누각
▁라데
▁상시
▁서던
▁양손
▁언젠
▁재원
▁조참
▁호가
레시브
▁XML
▁가속기
▁달라이
▁동북쪽
▁새천년
▁청교도
▁출생지
▁클라라
▁캄파니아주
▁프로그레시브
모습
활성
▁땅콩
▁몬트
▁성추
▁심신
▁영아
▁원가
▁장타
▁질리
▁케니
궐선거
▁다시피
▁비정규
▁어지럽
▁언젠가
▁국민회의
▁재보궐선거
29
ma
를린
쿠젠
평가
▁Po
▁명지
▁산탄
▁살림
▁준위
▁천명
▁타현
▁퇴화
▁급기야
▁김종필
▁마인드
▁심포니
▁영산회
▁청구인
▁피에트로
▁10000
▁레오나르도
마타
▁ne
▁간소
▁계파
▁괴팅
▁교복
▁기물
▁누락
▁로로
▁미망
▁미움
▁발주
▁방수
▁시왕
▁역행
▁지단
▁진안
▁파사
▁표상
▁하쿠
▁합체
▁혹독
▁가로막
▁굳어지
▁베르그
▁묘법연화경
연료
▁각별
▁로젠
▁본기
▁사성
▁셰이
▁수잔
▁연좌
▁음란
▁이로
▁이연
▁화신
들랜드
▁Bro
▁End
▁del
▁단기간
▁메이플
▁모티프
▁베리아
▁빠뜨리
▁사모아
▁살아나
▁영등포
▁황도대
▁조기어류
저민
페리
its
▁CV
▁가메
▁감명
▁국고
▁국채
▁세브
▁습성
▁어필
▁입안
▁직제
▁최경
▁홀드
메네스
메데스
▁215
▁벤저민
▁샘플링
▁서기장
▁에인절
▁치우치
▁팰리스
▁포위망
개발
▁로미
▁만다
▁반일
▁비비
▁콘월
▁포에
irst
▁Big
▁DFB
▁네브래스카
니발
슐린
▁나나
▁대양
▁배영
▁세가
▁에나
▁체임
▁퓨전
▁황보
▁까다롭
▁논산시
▁리서치
▁크리켓
▁캔터베리
BL
가야
계리
급시
미치
▁공녀
▁노미
▁로자
▁생사
▁우문
▁청화
▁포즈
▁포탈
▁픽업
▁게이츠
▁서남쪽
▁특공대
▁미시간주
▁스포르팅
▁코미디언
▁포레스트
빼미
▁DL
▁개간
▁노먼
▁독감
▁린드
▁마마
▁밑면
▁열광
▁요세
▁장보
▁정철
▁주둥
▁문화사
▁begin
▁WH
▁경치
▁니즘
▁라비
▁레베
▁몰입
▁미팅
▁시로
▁원화
▁위드
▁브레인
▁엑스선
▁프리랜
▁해설자
br
연의
지않
코바
▁가인
▁매드
▁메콩
▁브롱
▁살상
▁서드
▁서킷
▁실드
▁위아
▁유즈
▁정약
▁징후
▁추석
▁틈새
▁한방
더니즘
▁239
▁경기력
▁구석기
▁부활절
▁서로마
▁월리스
▁전년도
▁후반부
▁언더그라운드
▁다의
▁루소
▁우메
▁질레
▁코다
▁쿠키
▁패주
▁기장군
▁레이어
▁수메르
▁특이점
▁HK
▁경수
▁낭독
▁내쫓
▁비슈
▁연천
▁전갈
▁접착
▁정파
▁창안
▁픽션
▁510
▁계약금
▁계약서
▁권력자
▁미카사
▁사중주
▁유니온
▁1792
HS
▁젬
보스
aff
oss
▁KC
▁그려
▁녀석
▁래스
▁루아
▁시동
▁시암
▁아그
▁우랄
▁종택
▁청탁
▁촌락
▁칸타
▁평년
▁향리
▁호치
파트라
▁BMW
▁목걸이
▁보호자
▁부제학
▁사생아
▁소선거구
▁프라이스
▁클레오파트라
▁까치
▁덤불
▁도기
▁듀크
▁명절
▁부원
▁세관
▁위니
▁유실
▁Rain
▁동대문구
▁아틀라스
▁프로토타입
▁감히
▁귀납
▁덧셈
▁시료
▁안상
▁영연
▁이족
▁제향
▁Des
▁set
▁게이머
▁다다르
▁미술가
▁브람스
▁외삼촌
▁재정난
▁퍼펙트
▁void
▁금화
▁비츠
▁예천
▁정량
▁제반
▁함안
▁과선교
▁따돌리
▁목격자
▁파이브
▁1853
▁LIVE
▁Mnet
▁알레르기
▁슈퍼주니어
루이
막염
삼문
▁RE
▁do
▁난간
▁독신
▁버락
▁불황
▁산토
▁성년
▁시판
▁약정
▁욕심
▁잠그
▁카쿠
▁티르
▁호엔
너티브
제르맹
▁성추행
▁시설물
▁퍼뜨리
▁표준어
▁Show
▁권위주의
▁얼터너티브
버섯
타라
▁대검
▁도고
▁동복
▁라벤
▁박중
▁상피
▁섬멸
▁시구
▁아속
▁양력
▁오쓰
▁절멸
▁최북
▁쿠페
▁홍백
덜랜드
메이트
▁레일리
▁명백히
▁정말로
▁지도력
▁1791
▁1852
▁인테리어
▁플레이트
▁엘살바도르
▁퓰
그림
▁JP
▁SI
▁가평
▁바크
▁숙성
▁아쓰
▁입적
▁자락
▁최치
▁커트
▁케스
▁튀르
▁TOP
▁요리사
▁프레디
▁모하메드
▁테러리스트
얼빈
이인
행사
IDS
▁구급
▁만찬
▁모후
▁밥상
▁상권
▁수온
▁수첩
▁스커
▁영세
▁이면
▁일람
▁착오
▁캄포
▁탄환
▁검사장
▁꽃받침
▁무안군
▁무인역
▁버밍엄
▁아르카
▁양서류
▁프로파
▁호위함
▁벌어들이
▁사다하루
▁생제르맹
▁속씨식물
▁크래프트
▁콘스탄티노플
▁잣
노동
티드
▁CT
▁FN
▁갑판
▁강물
▁구면
▁메트
▁방과
▁사구
▁성하
▁수전
▁실화
▁제각
핵생물
▁에르난
▁중생대
▁경향신문
▁도네츠크
be
▁옅
경궁
바타
방식
이다
하워
vis
▁교우
▁매너
▁부름
▁부응
▁북제
▁비고
▁선방
▁에타
▁연작
▁월급
▁으라
▁친숙
▁회중
▁후신
▁그려지
▁끊어지
▁레프트
▁성동구
▁조나단
▁중학생
▁지원자
▁한마디
ement
▁퍼레이드
▁아이젠하워
▁빽
oup
▁관서
▁구보
▁근연
▁노던
▁도금
▁셰프
▁수뇌
▁슬럼
▁식료
▁신재
▁실황
▁음색
▁출소
▁희박
즐랜드
▁212
▁동인도
▁브리트
▁점성가
▁찻
귀비
팔렌
하트
▁EN
▁FX
▁박인
▁예견
▁완투
▁우쓰
▁원망
▁장영
▁제법
▁플뢰
▁히브
▁233
▁게이초
▁관악구
▁부끄럽
▁재판장
▁좀처럼
▁퀸즐랜드
▁귀향
▁능통
▁벨레
▁불펜
▁색인
▁서하
▁아만
▁여태
▁오에
▁은둔
▁필살
▁해동
▁호감
▁경영진
▁분화구
▁상류층
▁앵글로
▁유목민
▁잎자루
▁1847
▁Like
▁다운타운
▁천주교회
▁히로시마현
▁뚝
▁즌
노헤
▁고작
▁국물
▁김호
▁남짓
▁독려
▁따내
▁보두
▁요트
▁윤상
▁장터
▁Bar
▁음악회
▁이스턴
▁최적화
▁퀘스트
▁현저히
▁황갈색
▁LOVE
▁도쿠시마
▁루키우스
▁뱀파이어
▁필리포스
▁롬바르디아
에어
▁EF
▁고질
▁고타
▁나니
▁망상
▁수난
▁수찬
▁쑨원
▁점심
▁차가
▁청진
▁팔각
▁품계
하이머
▁개찰기
▁세례명
▁에버턴
▁옹진군
▁플랜트
▁현악기
▁옥타비아
▁콘티넨털
개명
▁기치
▁대파
▁마조
▁미일
▁박주
▁신숙
▁이계
▁릴리스
▁베이컨
▁올빼미
▁시트르산
▁프리랜서
▁Sound
▁똥
비어
way
▁OC
▁강압
▁경감
▁과천
▁버블
▁안젤
▁연일
▁최재
▁쾌락
▁학점
▁황성
▁강아지
▁김포시
▁다각형
▁이베이
▁저술가
▁핵연료
▁레인보우
▁은행나무
▁Light
▁안티고노스
오세
▁NK
▁es
▁mg
▁가봉
▁공물
▁기노
▁나팔
▁냉동
▁마로
▁미신
▁밀턴
▁슬롯
▁야채
▁약국
▁영해
▁오목
▁유위
▁조만
▁주술
▁지드
▁초중
▁포리
▁회군
▁더구나
▁브룩스
▁생태학
▁유학생
▁인슐린
▁하얼빈
▁Over
▁옵티머스
▁버지니아주
WS
▁읊
▁젓
랄라
▁UK
▁골자
▁관사
▁궁금
▁낙인
▁마누
▁발화
▁수작
▁연사
▁왈라
▁음소
▁파니
리오카
▁221
▁뇌졸중
▁Sing
▁뿌
▁계명
▁궤멸
▁베레
▁서간
▁송금
▁신예
▁외화
▁우성
▁진과
▁차드
▁클론
▁푸시
▁호러
▁후각
자위대
ouse
▁Red
▁가오슝
▁레슬리
▁미망인
▁세일러
▁수류탄
▁중대장
▁편의점
▁해적단
루트
야구
임수
타바
▁강수
▁동족
▁라피
▁삼가
▁스벤
▁슬퍼
▁쓰가
▁자력
▁주어
▁커크
▁혈청
▁회기
▁Sec
▁탈수소
브레히트
▁가이우스
▁계몽주의
▁시라카와
▁카리브해
색슨
워키
▁계략
▁고부
▁명품
▁보현
▁비약
▁색조
▁신빙
▁추월
▁콕스
▁한류
▁나뭇잎
▁리히텐
▁배상금
▁세포막
▁정보국
▁1100
▁브래들리
▁창씨개명
▁앵글로색슨
거슨
시간
옹주
▁고해
▁굴리
▁나츠
▁선지
▁아워
▁앙주
▁유주
▁혹평
대주의
ason
▁231
▁Eng
▁여름철
▁유가족
▁참가국
▁카이저
▁피스톤
▁1844
▁동명이인
▁네덜란드인
▁즙
▁JS
▁ac
▁그랜
▁다키
▁동천
▁마왕
▁안구
▁업소
▁울음
▁크릭
▁판별
▁하체
하이드
▁산화물
▁곤살레스
▁사회단체
▁요코스카
▁갑상
▁과수
▁미약
▁비니
▁식년
▁오경
▁이등
▁장현
▁적시
▁정구
▁청풍
▁타코
▁티나
▁정착민
▁조교수
▁랜드마크
▁알레산드로
aj
프슨
iet
▁RO
▁간편
▁레딧
▁미오
▁아론
▁이도
▁재야
▁쟁취
▁정연
▁취락
▁토토
▁해류
▁갑각류
▁박격포
▁정찰기
▁평창군
▁하루카
▁1837
▁오를레앙
▁민속문화재
▁꽁
코로
▁TA
▁균류
▁맨틀
▁봉산
▁부결
▁북진
▁삼부
▁숙고
▁실바
▁어음
▁요안
▁원판
▁유루
▁정태
▁390
▁Net
▁반대쪽
▁발자국
▁콘셉트
▁프로필
▁현급시
▁후견인
▁개인주의
▁포리스트
▁삼국지연의
쿠로
red
▁교착
▁그람
▁북단
▁비명
▁폐간
▁독립성
▁부사관
▁예배당
▁자신감
보레
▁광종
▁면접
▁벙커
▁아저
▁운문
▁체온
▁카오
▁토사
▁판도
베를린
▁슬퍼하
▁화순군
▁북베트남
▁아시리아
▁오렌지색
▁뜰
교동
니언
승람
오밍
헤치
▁RD
▁디어
▁무방
▁바예
▁선승
▁수유
▁열등
▁오데
▁윤회
▁이서
▁전륜
▁주청
▁코노
▁탄화
▁테츠
▁합방
슈타트
▁Har
▁가야금
▁비스트
▁아저씨
▁환경부
고도
소시
▁Pa
▁걸즈
▁고군
▁담화
▁만경
▁반증
▁여순
▁우미
▁유예
▁유흥
▁청렴
▁친형
▁호라
▁흡혈
▁히치
정대부
▁228
▁목판본
▁미스트
▁밀워키
▁서산시
▁연장선
▁프런트
▁트레이너
슈티
실론
ana
ric
▁경학
▁김응
▁다방
▁도핑
▁성직
▁송병
▁알현
▁예우
▁자니
▁장엄
▁치타
▁패미
▁도지사
▁제작소
▁글래스고
▁강판
▁개년
▁노년
▁노시
▁반민
▁반원
▁생김
▁악하
▁익주
▁일직
▁총지
▁프롬
▁한옥
자동차
echn
▁950
▁fun
▁앞당기
▁케네스
▁테레사
▁헤아리
개석
호크
▁ro
▁거장
▁나방
▁린치
▁말러
▁상석
▁성녀
▁성왕
▁영흥
▁의금
▁정순
▁주앙
▁중흥
▁증서
▁지터
▁초보
노세키
▁군단장
▁노원구
▁모국어
▁무척추
▁이준용
▁최남단
▁최치원
▁취임식
▁1836
▁스테레오
▁요시노부
▁마르티네스
▁팁
부스
▁고즈
▁냉정
▁로랑
▁반구
▁빈약
▁슈가
▁습하
▁아레
▁약제
▁외젠
▁익사
▁제례
▁칼초
▁혼용
▁홍대
▁로스터
▁멤피스
▁명륜당
▁발명가
▁발행인
▁브리즈
▁비대칭
▁알론소
▁예카테
▁처해지
▁항저우
▁구스타브
▁저널리즘
99
ech
▁MX
▁각인
▁건안
▁군현
▁길목
▁도노
▁소변
▁여가
▁영하
▁일신
▁주살
▁트랩
▁홍명
▁226
▁버틀러
▁Hello
▁GD
▁냉방
▁노숙
▁라코
▁만능
▁문부
▁방전
▁본적
▁소토
▁연마
▁이천
▁이프
▁전황
▁좁히
▁척탄
▁출근
▁카멜
▁키노
▁007
▁도깨비
▁성범죄
▁스턴트
▁에리트
▁요시노
▁유리수
▁CCTV
▁Road
▁고속철도
▁레오폴트
▁프라이드
IE
ven
▁HE
▁거물
▁기만
▁김나
▁난사
▁독단
▁마태
▁물의
▁북면
▁서동
▁스털
▁썬더
▁엘프
▁예리
▁전광
▁전폭
▁짝짓
▁출진
▁Sum
▁동식물
▁스타스
▁울릉도
▁윈스턴
데하이드
▁콘스탄티노스
상도
제곱
조작
치카
▁가자
▁디시
▁망막
▁선덕
▁오거
▁졸리
▁척수
▁포사
▁폭우
▁풍토
▁간행물
▁경작지
▁공로자
▁군사령
▁마리나
▁원통형
▁자연사
▁증손자
▁헤이룽
▁1794
▁모모야마
▁블리자드
▁페미니즘
▁알브레히트
▁피타고라스
회로
▁메로
▁병영
▁빼내
▁섭씨
▁소단
▁속죄
▁아명
▁옴니
▁워런
니우스
▁520
▁LTE
▁관동군
▁밀양시
▁베르너
▁비디아
▁비서실
▁에스테
▁연천군
▁정규군
▁코르테스
07
시설
bum
ner
▁Af
▁EV
▁OF
▁XX
▁고드
▁고야
▁셀러
▁야르
▁우부
▁일류
▁증산
▁집약
▁케어
▁타국
소시엄
컨트리
vent
▁315
▁757
▁관리국
▁알렉시
▁호찌민
코프스키
▁밀리미터
▁블레이크
▁컨소시엄
▁비로자나불
▁쉘
영향
타야
▁GL
▁굽히
▁난자
▁낸시
▁녹스
▁랭커
▁벨로
▁상도
▁성희
▁셀프
▁숙의
▁용매
▁이매
▁자급
▁조위
▁코라
▁투영
▁헌제
미사일
▁640
▁720
▁게임스
▁다이너
▁아타리
▁Stud
▁카리스마
▁크로스컨트리
yl
기술
젤란
▁el
▁관공
▁마포
▁매표
▁선더
▁설법
▁성충
▁쇼니
▁잔당
▁재귀
▁접경
▁주시
▁편모
▁217
▁농경지
▁드래건
▁본회의
▁슐레스
▁오미야
▁산마리노
▁콘스탄틴
여왕
전력
ism
▁명맥
▁방랑
▁사표
▁살롱
▁샬럿
▁심층
▁우화
▁함평
▁화사
바이크
사이클
ital
▁Boy
▁Sci
▁부딪치
▁콩쿠르
서기
피오
▁PK
▁고어
▁내사
▁덴버
▁러더
▁모레
▁보사
▁불순
▁여장
▁은사
▁이각
▁이근
▁지에
▁티노
국민당
▁거문고
▁오보에
▁허난성
ution
▁1806
▁승부조작
▁우리나라
▁에트루리아
루프
성이
자재
▁OP
▁각오
▁낙농
▁라운
▁레고
▁리부
▁슈뢰
▁액정
▁외전
▁우트
▁조모
▁히바
ator
▁SQL
▁고창군
▁끊임없
▁드나들
▁배포판
▁불명예
▁위클리
▁제작비
▁지린성
▁퍼블릭
▁팬아메리칸
▁리히텐슈타인
링거
셔스
이나
장자
테롤
▁결속
▁김부
▁낙향
▁리턴
▁산간
▁욕계
▁임업
▁체격
▁규장각
▁끌어내
▁문화원
▁스코트
▁시크릿
▁신인왕
▁야구팀
▁예산군
▁후쿠다
▁매트릭스
▁IB
▁김만
▁단판
▁데시
▁돈녕
▁박제
▁선무
▁송정
▁스퍼
▁승천
▁아쉬
▁아의
▁여전
▁절연
▁타계
▁표범
▁허영
▁후학
▁RPG
▁니케아
▁연주가
▁옆구리
▁이교도
▁파헤치
▁플라스마
▁ㄱ
우병
처분
▁공회
▁단련
▁박세
▁스즈
▁시술
▁암벽
▁오정
▁위선
▁인회
▁주방
▁칼빈
▁테베
▁토우
▁폐단
▁합전
민정음
▁경제력
▁수호자
▁조선조
▁집합론
▁Play
▁세르비아인
▁딤
▁얌
도체
사병
생명
시계
▁급부
▁김보
▁낙원
▁대축
▁도큐
▁동결
▁만두
▁비닐
▁이교
▁이발
▁인솔
▁자의
▁중사
▁치역
▁키시
▁회랑
스타파
oney
▁610
▁기후현
▁설리번
▁헤이그
▁근본주의
▁애기박쥐
▁프레데리크
08
▁쁘
▁웁
곡선
무덤
외과
젠더
하나
ony
▁궁지
▁내밀
▁노량
▁돌풍
▁릭스
▁만석
▁부마
▁상향
▁서광
▁정설
▁제스
▁주니
▁주필
▁철제
▁카밀
▁탈선
▁희소
클랜드
▁상나라
▁생산력
▁에볼라
▁온전히
▁징병제
▁1796
▁1842
▁교섭단체
uk
▁칵
돈나
바스
전리
▁군용
▁깔끔
▁니컬
▁동태
▁방황
▁보비
▁숙이
▁순창
▁오성
▁이대
▁주안
▁추봉
▁토고
▁파벨
▁한진
▁해구
▁wid
▁완주군
▁족제비
▁코코넛
▁1798
더기
▁개회
▁관방
▁구식
▁민자
▁서라
▁이륙
▁집현
▁편수
▁현안
▁엄격히
▁윈난성
▁포워드
▁흰개미
▁2030
▁라플라스
▁매일신보
▁프레드릭
▁훈민정음
MP
요리
IST
▁간청
▁노획
▁마현
▁밀교
▁번복
▁사세
▁사시
▁수생
▁쓸모
▁양부
▁윤봉
▁자폐
▁저압
▁절터
▁책판
▁캡슐
▁켈러
사와라
▁...
▁815
▁닭고기
▁마티아
▁술탄국
▁아이유
▁연구관
▁웰링턴
▁테슬라
▁1832
▁에드워즈
▁이스마일
▁코민테른
시프
▁김혜
▁미용
▁번번
▁복고
▁성급
▁세나
▁쇼난
▁인장
▁종과
▁증여
▁차후
▁채팅
▁후생
▁EMI
▁도승지
▁되살리
▁라이터
▁스털링
▁아즈치
▁에탄올
▁영화사
▁인구수
▁임팩트
▁철원군
▁충실히
▁That
▁맥도널드
▁페르난데스
HT
고시
야르
화가
▁대면
▁문묘
▁비핵
▁소각
▁애도
▁열중
▁위문
▁의화
▁장부
▁치소
▁투고
▁후왕
▁Bad
▁ROM
▁고분자
▁문학사
▁앞부분
▁이주한
▁쿠르트
▁스위프트
▁슐레스비히
UT
▁뺨
▁옙
날두
▁금상
▁네프
▁동면
▁밀착
▁백국
▁승소
▁인현
▁전경
▁조그
▁탐욕
▁표류
▁푸른
▁하향
▁헌종
port
▁남양주
▁자치령
▁최북단
▁후백제
▁오가사와라
동면
▁구국
▁구레
▁기함
▁누설
▁도감
▁도합
▁동과
▁라구
▁밤중
▁부록
▁불멸
▁신간
▁실물
▁염료
▁유혈
▁전해
▁정산
▁정희
▁진양
▁철권
▁편차
▁호송
▁Rem
▁공모전
▁비핵화
▁사사키
▁전사자
▁좌찬성
▁호날두
▁애틀랜틱
군가
들레
밍고
ush
▁대일
▁딸기
▁반유
▁습기
▁알토
▁최충
▁펄스
▁학제
▁감독상
▁단체장
▁보두앵
▁스톤스
▁아랍인
▁앙코르
▁에르빈
▁연해주
▁전투력
▁주황색
여지승람
▁레즈비언
▁젯
공원
눌프
플리
ady
lex
▁KR
▁국명
▁누비
▁럭키
▁병인
▁선풍
▁소경
▁수능
▁애너
▁일구
▁전소
▁조미
▁치앙
▁토레
▁한산
▁660
▁NHL
▁나가토
▁실종자
▁엄밀히
▁오와리
▁주간지
▁학부모
▁한니발
▁헥타르
▁King
▁그레이스
▁마우리아
▁아르눌프
▁브라이언트
▁소선거구제
▁외할아버지
▁경부고속도로
▁박현
▁방계
▁양재
▁외출
▁유추
▁의종
▁인턴
▁찬가
▁학비
▁다섯째
▁대문자
▁문학가
▁안성시
▁인터랙
▁재정부
▁하코다
▁해산물
▁헤이룽장
▁Colle
뿔소
▁MT
▁두만
▁라나
▁래드
▁묵시
▁벤자
▁상온
▁수륙
▁신현
▁어쨌
▁왜적
▁정토
▁질산
▁철교
form
▁222
▁누군가
▁다름없
▁미즈노
▁지원금
▁브리트니
▁이오시프
▁지느러미
를로
상가
▁누벨
▁로메
▁명은
▁물병
▁암술
▁의리
▁의외
▁임사
▁참봉
▁처단
▁침전
▁태사
orce
▁Met
▁메이어
▁생김새
▁플루트
▁상륙작전
급수
농사
테아
▁간간
▁관철
▁기흥
▁명회
▁반장
▁변제
▁소감
▁잡음
▁출제
▁피노
▁화친
이스터
▁각운동
▁귀족원
▁도리어
▁돌아보
▁미완성
▁원동력
▁이시다
▁잉글리
▁조직원
▁코러스
▁트래픽
▁마이니치
▁아이패드
공간
▁당부
▁사향
▁종일
▁파샤
스토크
▁232
▁min
▁구독자
▁김유신
▁명탐정
▁박지원
▁사림파
▁오리올
▁완도군
▁유망주
▁카네기
▁코페르
▁1790
▁모노레일
▁멩
병원
연장
체인
▁고금
▁교두
▁구어
▁방비
▁수계
▁아코
▁연성
▁유유
▁참호
▁철로
▁쿼드
▁필적
▁글리세
▁비행단
▁오시마
▁참정권
▁창세기
▁1810
▁1831
▁이끌어내
▁트랜스젠더
04
YS
iew
▁레퍼
▁몰살
▁소드
▁수개
▁알카
▁야후
▁오두
▁일례
▁지루
▁티오
▁페퍼
▁폐막
유철도
▁가부장
▁독립당
▁소시지
▁앙투안
▁의성군
▁해남군
▁일본국유철도
국수
에즈
영화
평동
▁기틀
▁김소
▁노릇
▁다나
▁도립
▁어판
▁지토
▁차질
▁피르
raph
▁216
▁264
▁not
▁글라스
▁수감자
▁진동수
▁척탄병
▁브루크너
▁시스템즈
▁어니스트
▁총영사관
▁프로테스탄
대왕
등기
차크
케인
▁no
▁공생
▁괴산
▁꾸짖
▁노포
▁당도
▁마수
▁명창
▁빌레
▁선왕
▁신년
▁아강
▁유약
▁절도
▁총합
▁클락
▁핸들
껍데기
연수원
▁Run
▁선발전
▁아즈마
▁콜레스
▁라그랑주
▁사법연수원
pm
sc
누르
트론
elf
▁간통
▁박차
▁보손
▁분실
▁삼남
▁승탑
▁시메
▁양당
▁윤지
▁제군
▁존호
▁주공
▁초본
▁촉한
▁투과
▁파가
▁황궁
▁후버
▁흐루
레이스
수산부
▁괴팅겐
▁자위대
▁정반대
▁제이미
▁타이밍
▁테크니
▁퍼거슨
▁포터블
▁피난민
▁스트라스
▁우쓰노미야
▁노스캐롤라이나주
af
▁엷
바노
오버
▁국자
▁노토
▁다롄
▁덕흥
▁불도
▁신변
▁평사
▁현내
사우스
▁눈부시
▁달팽이
▁도요타
▁미시마
▁울타리
▁휴양지
▁that
▁각운동량
▁다다요시
▁인사이드
▁width
▁알렉산드로
라프
레도
루브
슬란
치니
▁pH
▁극좌
▁레흐
▁루브
▁빽빽
▁성호
▁속현
▁송강
▁엣지
▁자객
▁장진
▁전량
▁짜이
▁틀림
▁항거
그래프
스트로
▁Are
▁RCA
▁생산지
▁정나라
컬럼비아
▁다카마쓰
▁Great
▁align
▁무척추동물
▁브리티시컬럼비아
▁횃
권력
키타
▁나자
▁루르
▁봉승
▁승패
▁영일
▁윤종
▁조산
▁초조
▁최규
▁침착
▁피플
▁한지
▁410
▁460
▁레인지
▁아소카
▁애슐리
▁이와키
▁주둥이
▁호프만
▁레퍼토리
▁밀레니엄
▁사회주의자
가슴
마켓
ane
▁군무
▁김봉
▁배럴
▁살균
▁양시
▁에니
▁중문
▁코흐
▁호골
▁노동부
▁다케시
▁달성군
▁부스터
▁예비치
▁은평구
▁클리프
▁합법화
▁Every
▁콜레스테롤
▁깅
▁핍
려주
추리
테리
폭스
▁남문
▁발단
▁방형
▁서훈
▁설가
▁성층
▁수월
▁수제
▁어가
▁엥겔
▁지파
▁청두
▁하일
▁오로라
▁일레븐
▁제사장
▁요시히로
▁워싱턴주
WA
▁쉼
넬리
누이
묘지
장어
ama
▁we
▁근해
▁난방
▁로펌
▁마더
▁머무
▁북로
▁쌍방
▁어셈
▁전군
▁중주
▁차우
▁키요
▁파노
르트르
▁로런츠
▁의금부
▁인더스
▁지휘봉
▁호몰로지
▁노브고로드
▁꿇
▁숄
리가
우마
틸렌
▁EL
▁광석
▁라부
▁린네
▁분대
▁오수
▁파월
▁가극단
▁고르바
▁법학자
▁테크닉
▁비정규직
▁나가사키현
09
렉트
▁누명
▁몽케
▁비사
▁생후
▁신디
▁여류
▁옐친
▁윈저
▁유색
▁정장
▁판권
▁후스
▁Cor
▁가속도
▁김천시
▁복잡도
▁슈바르
▁안후이
▁1841
▁요시타카
▁모터사이클
▁가위
▁갈레
▁극성
▁남측
▁색슨
▁석학
▁석호
▁연골
▁원예
▁일지
▁임차
▁티니
▁프시
▁허무
▁회합
▁군주국
▁귀퉁이
▁리오스
▁애프터
▁통영시
▁멕시코시티
KA
▁찔
물질
복음
▁Je
▁견주
▁계책
▁고비
▁군왕
▁멜리
▁시퀀
▁위엄
▁장력
▁친필
▁파탄
tain
▁몰아넣
▁보성군
▁보이콧
▁야나기
▁엡실론
▁음식물
▁총동원
▁케이지
▁터키어
▁토착민
▁this
▁스토리지
▁스파이크
▁베른하르트
▁Project
▁캇
넬라
무드
살라
상부
테크
▁UI
▁결부
▁다원
▁린턴
▁본드
▁실격
▁안트
▁업종
▁열린
▁유모
▁이여
▁정대
▁조예
▁커비
▁튜버
▁버펄로
▁보이저
▁위아래
▁인도인
▁진흥왕
▁칭다오
▁탈바꿈
스티누스
▁Inst
▁호쿠리쿠
▁고르바초프
▁귄
미드
서면
카레
ene
▁FL
▁곤도
▁만과
▁만력
▁맬컴
▁북조
▁색계
▁선법
▁성찰
▁심볼
▁안달
▁야인
▁울림
▁정랑
▁청조
▁타사
거래소
라이즈
▁UAE
▁공예품
▁구로다
▁반다이
▁서양식
▁프로페
▁고이즈미
▁미끄러지
lement
▁School
숭아
티니
ney
ott
uth
▁ha
▁각계
▁개폐
▁교위
▁난입
▁레게
▁수완
▁애버
▁양전
▁양제
▁엘튼
▁외세
▁이따
▁입교
▁전처
▁전횡
▁처남
▁휘그
웨일스
▁YTN
▁벤자민
▁제이콥
▁차이나
▁1843
단조
퇴근
퓨터
ins
ize
▁노블
▁밀어
▁사멸
▁셰리
▁신창
▁신촌
▁연선
▁처우
▁체이
▁총력
▁타다
▁판각
▁234
▁뱅크스
▁소방관
▁애스턴
▁전쟁터
▁집현전
▁가선대부
▁뉴사우스
▁아나스타
▁코페르니
▁뉴사우스웨일스
▁웸
북동
▁궁예
▁궤간
▁니르
▁도지
▁뒤편
▁레니
▁매료
▁매핑
▁미혼
▁반가
▁불허
▁아일
▁연체
▁원균
▁진관
▁코팅
▁키미
▁판문
ript
▁강진군
▁에이미
▁원더러스
뉴얼
rag
▁감로
▁김효
▁보답
▁사족
▁산군
▁신데
▁신파
▁아포
▁어간
▁은상
▁임지
▁자상
▁통사
▁험하
▁홍준
▁Rad
▁거주민
▁로망스
▁바이든
▁밤하늘
▁양주군
▁케로로
▁맥도날드
▁와이파이
▁안드레아스
길동
룬궁
티엄
▁겸손
▁권선
▁동음
▁마의
▁사네
▁수혈
▁에렌
▁찬반
▁체의
▁퍼드
▁페론
▁213
▁구로구
▁그리핀
▁남원시
▁막바지
▁만화책
▁명명법
▁미나토
▁미야코
▁설계자
▁설득력
▁파룬궁
▁펜티엄
▁고다이고
▁남태평양
가쿠
장식
▁꼭두
▁데인
▁리빙
▁보은
▁연필
▁이랑
▁장직
▁주오
▁탈옥
▁허니
▁key
▁생물체
▁알아채
▁호르헤
▁1804
▁1809
▁오카자키
▁옥타비아누스
▁샛
경제
로리
웨시
조치
▁가노
▁고우
▁국판
▁권영
▁근심
▁넥슨
▁도민
▁도조
▁비안
▁야자
▁예제
▁옐로
▁울진
▁재량
▁파멸
▁하룻
라리온
▁219
▁255
▁GPU
▁Web
▁강동구
▁광명시
▁김제시
▁라이히
▁마돈나
▁마애불
▁서보장
▁송광사
▁유태인
▁주택지
▁파올로
▁1623
▁더글라스
▁술라웨시
▁신데렐라
▁score
▁스파이더맨
▁욜
키르
푸라
▁Im
▁up
▁간헐
▁구파
▁금품
▁드롭
▁머릿
▁보태
▁산학
▁신드
▁온양
▁텐트
▁함포
▁홍주
▁기술력
▁리스크
▁버몬트
▁출퇴근
▁프렌치
▁1783
▁트랜스포
▁20120
▁농어촌버스
▁시에라리온
노신
마뉴
사촌
암면
eng
▁급유
▁무적
▁배송
▁법당
▁선주
▁수기
▁스메
▁실라
▁야노
▁우의
▁총상
▁특파
▁회생
▁Mod
▁부대원
▁비트겐
▁샐러드
▁안기부
▁양주시
▁편집기
▁홋스퍼
▁샤를마뉴
▁카슈미르
▁하비에르
▁비트겐슈타인
SI
더드
에타
▁DE
▁UF
▁금주
▁꺾이
▁남명
▁박철
▁본점
▁분립
▁석물
▁외롭
▁유람
▁이변
▁임박
▁지세
▁총관
▁탁발
▁탄탄
▁포체
▁환생
▁EOS
▁val
▁공포증
▁담양군
▁시어도
▁우참찬
▁하룻밤
▁하야시
라이언스
▁1805
▁1819
▁가시광선
▁궁수자리
룩스
민턴
중미
▁DP
▁결점
▁길쭉
▁농노
▁단념
▁마네
▁메기
▁발데
▁유복
▁쟁탈
▁전법
▁지국
▁취역
▁카도
▁커맨
▁혈연
▁호우
▁과도기
▁북중미
▁신숙주
▁진도군
▁초능력
▁1813
▁1835
▁시어도어
▁허베이성
▁오키나와현
▁헤르베르트
▁퀵
사지
생기
시다
청정
▁VR
▁nt
▁간척
▁고주
▁농악
▁다기
▁라야
▁문답
▁배재
▁부역
▁재기
▁정열
▁정운
atic
▁Rob
▁감염병
▁사토시
▁줄리엣
▁형이상
▁이야말로
05
▁큼
난히
rop
▁라빈
▁라타
▁레노
▁불의
▁비탈
▁와라
▁장본
▁조희
▁집시
▁포지
▁Sub
▁관광업
▁메이크
▁방문자
▁불안감
▁스포트
▁키루스
▁1799
▁1803
▁1821
▁매개변수
▁클라우스
럭스
▁광원
▁교신
▁네온
▁돌방
▁돌진
▁레터
▁마역
▁민병
▁박희
▁생부
▁섹시
▁수미
▁순치
▁조안
▁증설
▁최승
▁타니
▁혼재
▁미소녀
▁장시간
▁태그팀
▁나카지마
▁디바이스
▁배드민턴
▁애리조나주
▁뎀
▁쎄
런드
롤터
▁겸비
▁대간
▁도당
▁바드
▁배합
▁보주
▁성시
▁셀라
▁송영
▁수험
▁심혈
▁암반
▁원대
▁유랑
▁유례
▁저마
▁하랄
그레브
레우스
▁275
▁Off
▁She
▁구조대
▁비무장
▁지구대
▁카세트
▁파스타
▁법무법인
▁슬라이드
▁아사쿠라
▁자그레브
▁지브롤터
▁프로펠러
▁크리스토프
▁쉴
광석
야카
엄경
춘기
코어
▁다승
▁루빈
▁망가
▁명기
▁무학
▁밀로
▁사노
▁선산
▁순국
▁순사
▁쓰키
▁연례
▁오존
▁유쾌
▁인맥
▁주루
▁지망
▁창사
▁친교
▁캐스
▁티미
▁Ind
▁밑부분
▁상주시
▁시스터
▁영동군
▁이끌리
▁플뢰레
▁훈련소
▁1845
▁YMCA
▁다이렉트
▁소프라노
▁슈바르츠
▁신약성경
▁에인절스
▁인기가요
na
블러
아노
입상
조약
ams
▁Mc
▁UP
▁am
▁계면
▁기류
▁레디
▁리포
▁무마
▁병리
▁보천
▁서영
▁속박
▁수차
▁스무
▁엘렌
▁음극
▁체사
▁축약
▁충절
▁파머
▁혼슈
▁히포
드랑이
적으로
▁멧돼지
▁번역본
▁저수지
▁제후국
▁주사위
▁전자기파
ations
▁인터랙티브
로메
함대
▁Em
▁마유
▁부계
▁소부
▁임성
▁정육
▁진봉
▁크래
즈버그
▁ARM
▁Bel
▁기울기
▁두드리
▁브란트
▁블레어
▁소시에
▁아이비
▁칼리파
▁와이오밍
AX
바야
▁VV
▁각서
▁격돌
▁공제
▁다호
▁데릭
▁라모
▁리호
▁만호
▁버디
▁서군
▁성상
▁애비
▁여흥
▁조밀
▁중류
▁구락부
▁레이드
▁아프간
▁얼스터
▁이영호
▁함양군
▁마스터스
▁전체주의
▁구마모토현
UL
we
노지
스프
시효
erm
oph
▁매화
▁비장
▁세세
▁시군
▁신겐
▁아령
▁유린
▁조운
▁주정
▁참새
▁총신
복지부
▁FTA
▁OEC
▁로열스
▁번역가
▁생산물
▁에드윈
▁완성도
▁지원군
▁출연진
▁혁명당
▁휘트니
▁영지주의
▁핵미사일
▁넵
두스
봉산
▁RF
▁격분
▁근친
▁나크
▁나포
▁민진
▁분투
▁성유
▁왕전
▁우등
▁원뿔
▁재가
▁종용
▁중창
▁클립
▁탈라
▁퍼부
▁교회법
▁근거리
▁모리슨
▁바울로
▁발레리
▁양방향
▁오마르
▁웸블리
▁창녕군
▁호스팅
▁루즈벨트
▁코르도바
▁킬로그램
▁플러그인
▁20100
미츠
▁MY
▁WK
▁경직
▁군소
▁데루
▁무오
▁양공
▁와시
▁유병
▁전각
▁중년
▁질의
▁청천
▁흑자
▁끝마치
▁자존심
▁출발점
▁퇴적물
▁흑사병
▁Down
▁엑스트라
▁해양수산부
▁코페르니쿠스
NS
▁댁
▁쏠
▁펨
칼라
▁강탈
▁김익
▁눈앞
▁랄프
▁로잔
▁리티
▁목도
▁비법
▁산도
▁완충
▁육류
▁응고
▁일광
▁지산
▁파면
▁피력
▁활력
▁횃불
티나무
프리트
▁금산군
▁베니스
▁사회부
▁색소폰
▁어쨌든
▁연나라
▁요시오
▁음성군
▁파르티
▁피루브
▁HTTP
▁카스트로
▁증권거래소
▁페미니스트
▁평양직할시
▁광무
▁밀수
▁밀정
▁반탁
▁산양
▁인방
▁저당
▁탱화
▁헌트
▁기쿠치
▁디지몬
▁레이터
▁마우리
▁브리핑
▁비욘세
▁산사태
▁전반전
▁홍준표
▁화물선
▁Just
xy
▁헴
러니
레알
렌츠
비노
신기
콘티
▁거르
▁괴테
▁구지
▁남진
▁만네
▁밀크
▁상보
▁세그
▁스물
▁압승
▁앵무
▁예거
▁왕망
▁원지
▁주동
▁진폭
▁청양
▁친근
▁타트
▁프티
▁행법
atur
▁Ste
▁모기업
▁영암군
▁오쿠보
▁의석수
▁트렌드
▁현무암
▁에마누엘
▁엠파이어
▁트리니티
▁미네소타주
▁아케메네스
▁에리트레아
별초
보전
혈병
▁가꾸
▁견과
▁결번
▁금오
▁김순
▁노팅
▁마두
▁무녀
▁미케
▁미쿠
▁변의
▁앤젤
▁양사
▁오드
▁은총
▁이비
▁전령
▁지와
▁타치
▁포프
▁하녀
▁결론지
▁노나라
▁라이즈
▁사춘기
▁점령지
▁크레인
▁파이낸
▁파이썬
▁어린아이
▁주계열성
▁금메달리스트
03
▁윅
네세
바겐
▁Sk
▁동관
▁바레
▁본가
▁섹터
▁아문
▁야오
▁역법
▁오귀
▁오코
▁옥중
▁절개
▁진남
▁키라
▁회가
가르드
▁OVA
▁간담회
▁느냐고
▁담아내
▁동반자
▁사마의
▁사바나
▁이즈모
▁작용소
▁정읍시
▁지원병
▁칼데라
▁토레스
보스토크
▁스트로스
▁가고시마현
▁야마구치현
▁얼라이언스
▁이탈리아인
▁블라디보스토크
06
▁웡
곡사
릅쓰
마트
ues
▁GE
▁기로
▁루가
▁모계
▁목축
▁순절
▁요나
▁원추
▁윙스
▁입선
▁자가
▁카렌
▁황조
▁도에이
▁득점자
▁수니파
▁수행원
▁스텔라
▁오사무
▁친동생
▁헤비급
▁호나우
▁1802
▁마츠모토
▁비스콘티
▁아랫부분
▁International
기군
air
▁공구
▁궁녀
▁도체
▁미화
▁분청
▁시보
▁주미
▁투라
▁투아
▁팔로
▁한수
▁Act
▁are
▁경순왕
▁고구마
▁고생물
▁다이라
▁로도스
▁몰려들
▁무릅쓰
▁빌리지
▁수공업
▁아르마
▁아무르
▁크롬웰
▁1775
▁OECD
▁마사히로
▁스포르차
▁팥
닥치
예보
타기
▁계림
▁산현
▁석축
▁아방
▁엄호
▁오언
▁용자
▁은색
▁이분
▁전태
▁정미
▁주법
▁지온
▁한눈
▁한일
어머니
▁거창군
▁동작구
▁메이드
▁문교부
▁박원순
▁불어넣
▁사이키
▁식료품
▁영연방
▁음악상
▁전임자
▁전환점
▁학년도
▁Korea
벌린
▁게코
▁랭스
▁메노
▁시랑
▁우먼
▁유현
▁푸트
▁햇볕
▁행태
세이돈
▁218
▁227
▁POS
▁서커스
▁아르타
▁징역형
▁푸른색
▁1824
▁느티나무
▁중합효소
▁포세이돈
▁피루브산
▁흘러내리
▁소시에다드
▁줍
만금
요크
클로
튠즈
튿날
▁다각
▁단테
▁마드
▁미티
▁백금
▁병장
▁오피
▁자모
▁자일
▁장충
▁직구
▁추도
▁BSD
▁Che
▁ver
▁새만금
aster
▁개혁주의
▁세그먼트
▁아이튠즈
▁Award
▁Micro
EX
레마
쿼이
파업
▁급식
▁드론
▁들판
▁문공
▁미역
▁민첩
▁선분
▁소이
▁신당
▁에베
▁옥고
▁이쿠
▁중군
▁차내
▁측도
▁크누
▁Ang
▁세이버
▁위안스
▁중국식
▁폭발물
▁피에로
티아누스
▁1808
▁켄터키주
▁페가수스
▁Power
게니
러햄
슈빌
에다
지우
▁Mk
▁OR
▁강민
▁기즈
▁라브
▁어퍼
▁에그
▁완패
▁의향
▁취입
▁특진
리스토
▁325
▁CNN
▁Inc
▁Who
▁ㅂ시오
▁노키아
▁매출액
▁메이슨
▁바르트
▁에이커
▁중앙당
▁차일드
▁총파업
▁Fire
▁comp
궤도
란도
마당
▁감속
▁굴곡
▁금당
▁넓적
▁발부
▁빗대
▁완행
▁원순
▁장방
▁처참
▁추앙
▁판독
▁패소
샤오핑
▁224
▁How
▁남대문
▁마사카
▁몽골족
▁무용가
▁애호가
▁에리히
▁에반스
▁에스터
▁올라프
▁이튿날
▁전산망
▁중견수
▁태권도
ittle
▁9000
▁AIDS
▁덩샤오핑
▁수양대군
▁야마시타
▁야마자키
▁오스트로네시아
MC
▁콴
놀룰
아비
정지
riv
▁고보
▁나베
▁눈길
▁데어
▁러너
▁리야
▁상아
▁상학
▁소하
▁시련
▁어종
▁원당
▁접대
▁찬송
▁해면
▁화의
▁환호
놀룰루
ates
▁253
▁316
▁512
▁공격력
▁껍데기
▁매크로
▁문인석
▁보령시
▁쌍계사
▁여호와
▁청년단
▁피어슨
▁함안군
▁합중국
▁1807
▁1834
▁에스파뇰
▁호놀룰루
▁홀로코스트
▁뭄
oud
▁Bu
▁기예
▁명곡
▁문란
▁미처
▁복건
▁섀도
▁시연
▁약체
▁여종
▁이륜
▁주박
▁책상
▁해법
오피스
▁305
▁관람객
▁노선도
▁눈치채
▁안보리
▁에이드
▁확고히
▁동프랑크
▁마리우스
▁요시쓰네
▁이사벨라
▁에이브러햄
▁아르메니아인
리시
분별
사쿠
▁DX
▁TF
▁계모
▁누드
▁도저
▁막말
▁말갈
▁소급
▁수려
▁스이
▁야산
▁오레
▁유파
▁이과
▁입회
▁작화
▁투척
▁티어
▁501
▁미하엘
▁밀리언
▁보상금
▁유타카
▁짝사랑
▁체이스
▁팬클럽
▁휘발유
irect
▁스피어스
▁행방불명
▁위안스카이
▁씹
▁기약
▁김택
▁대보
▁돌궐
▁문항
▁보가
▁생년
▁쉬르
▁신보
▁양치
▁정석
▁제원
▁해롭
▁행차
▁헤딩
▁고흥군
▁교통량
▁기업체
▁노이즈
▁발사대
▁2023
▁아오야마
▁췌
▁텃
기름
마침
와르
인자
케라
ava
▁나혜
▁남만
▁다짐
▁덩치
▁빌럼
▁삼위
▁성결
▁송준
▁오위
▁장화
▁정다
▁파란
▁평온
▁호에
샘프턴
▁괴산군
▁마쓰이
▁무제한
▁보내오
▁빼어나
▁쉐보레
▁웨이크
▁으라고
▁청계천
▁평양성
▁홍성군
▁시리우스
랜도
촌면
▁구기
▁냉장
▁노우
▁뒷날
▁반월
▁영창
▁우여
▁응축
▁카고
▁커밍
▁특산
▁후천
▁940
▁감사원
▁니제르
▁덕양구
▁마산시
▁발상지
▁스피릿
▁스피어
▁하르트
▁Game
▁비상사태
▁삼위일체
▁콤플렉스
▁반유대주의
MI
▁간쑤
▁강박
▁귀박
▁뒤셀
▁랜스
▁세차
▁손오
▁아수
▁알프
▁태클
▁합세
▁행주
트리스
▁303
▁경사면
▁미코토
▁완벽히
▁스키타이
▁카롤링거
▁Dance
▁뒤셀도르프
TO
도어
메라
정책
▁반칙
▁시급
▁쓰쿠
▁영제
▁웨딩
▁위세
▁장유
▁당분간
▁보수파
▁세포질
▁외래어
▁말레이어
▁사고방식
du
문왕
바사
ape
▁가압
▁경쾌
▁고레
▁김좌
▁박명
▁백마
▁백석
▁불발
▁세드
▁진왕
▁터리
▁후두
간지주
다나오
리스타
ster
▁Tim
▁all
▁유키오
▁테레비
▁당간지주
▁레버쿠젠
▁아라카와
▁페니키아
▁라이프니츠
▁스트라스부르
▁힝
가라
래곤
베그
▁가석
▁구드
▁봉선
▁부령
▁상쇄
▁소공
▁수모
▁역간
▁이숙
▁이요
▁체구
▁폐암
▁포티
▁황룡
룸푸르
▁777
▁AEK
▁Ass
▁par
▁강우량
▁교차점
▁마쓰다
▁마인츠
▁보병대
▁수녀원
▁아오이
▁신비주의
▁트랜스포머
멘토
시장
진법
▁고단
▁드와
▁로카
▁민방
▁백범
▁산세
▁석굴
▁소조
▁심취
▁쓰시
▁원호
▁윔블
▁유황
▁제석
▁조망
▁충정
▁코비
▁키보
▁탑비
▁테너
▁티그
▁티비
▁편평
▁Dav
▁Hol
▁국경선
▁그레그
▁대장경
▁미카와
▁바나흐
▁상거래
▁수족관
▁신생아
▁케이시
▁타악기
▁힐러리
▁리카르도
▁우르바노
▁인조반정
▁콜로라도
▁시모노세키
▁잘츠부르크
bs
▁쭉
냅스
룬디
햄프
▁RX
▁TP
▁가내
▁고라
▁내통
▁단락
▁명실
▁병들
▁속기
▁음각
▁전치
▁코토
▁토구
▁퇴학
▁판교
헌대부
▁Pre
▁net
▁경사지
▁동구권
▁부산물
▁비키니
▁상상력
▁시냅스
▁아폴론
▁옥타브
▁원거리
▁조사단
▁철도선
▁홍천군
▁회의소
▁Mark
▁스테로이드
▁항공우주국
▁프로테스탄트
CO
DR
비시
슈나
카쓰
톱스
▁감영
▁감형
▁공위
▁남코
▁달인
▁대시
▁미구
▁소현
▁육조
▁인어
▁컴포
▁헬멧
게임넷
오스트
▁눈동자
▁뉴햄프
▁모니카
▁밸런스
▁앨리슨
▁올랜도
▁윔블던
▁이동식
▁집대성
▁플레어
▁행진곡
케라톱스
▁온게임넷
▁포츠머스
▁하코다테
45
zy
호텔
▁각하
▁대연
▁데크
▁동주
▁명망
▁반투
▁방목
▁용법
▁책자
▁특보
▁하토
ield
▁Now
▁나바라
▁두만강
▁스턴스
▁아비뇽
▁악영향
▁찢어지
▁초음파
▁하남시
▁1392
▁러더퍼드
▁스포츠카
▁폭스바겐
구동
미분
와트
저기
정기
하리
▁납북
▁다로
▁단풍
▁벌써
▁병참
▁볼가
▁승화
▁예장
▁음수
▁지기
▁최국
▁치부
▁칸토
▁코덱
▁해충
노스케
ited
▁Air
▁KAI
▁모음곡
▁안재홍
▁케이티
▁다이라노
▁Again
▁보건복지부
오스트레일리아
▁긁
고백
공격
바트
정신
페라
학사
ARD
▁김남
▁노섬
▁면화
▁방직
▁와다
▁원초
▁전영
▁카누
▁카베
▁쿠프
▁토후
▁해탈
▁홍진
그러지
▁Pol
▁때마침
▁마틸다
▁사브르
▁속임수
▁에테르
▁추진력
▁허정숙
▁신앙고백
▁등지느러미
▁보니파시오
▁Records
곡절
터우
▁IL
▁가만
▁굴뚝
▁성역
▁속곡
▁아퀴
▁완강
▁입방
▁잡종
▁접견
▁진법
▁포경
▁피파
▁학식
▁헬라
▁힉스
아가라
▁530
▁560
▁999
▁긴꼬리
▁리소스
▁미워하
▁복숭아
▁스파크
▁윤선도
▁일어서
▁조그맣
▁1597
▁구약성경
▁나이아가라
춘추
코더
타일
▁관부
▁근현
▁나침
▁내과
▁다트
▁당산
▁도맡
▁두아
▁마정
▁무아
▁문리
▁응집
▁집게
▁초인
▁퀴어
▁포이
▁401
▁계엄령
▁교두보
▁극소수
▁깨뜨리
▁나혜석
▁마사키
▁바바라
▁아라이
▁에드거
▁의용군
▁지배층
▁카오스
▁표준시
▁1833
▁그리피스
▁바티스타
▁아이오딘
발라
자브
준호
▁di
▁고차
▁더그
▁만인
▁봉천
▁사샤
▁세아
▁아머
▁어제
▁저온
▁지프
▁천성
▁최성
▁판무
▁횡포
로니카
소년단
▁237
▁Und
▁계획안
▁느냐는
▁리저브
▁코나미
▁우여곡절
▁크리스털
▁젝
너리
비르
원사
ari
▁MK
▁레우
▁록맨
▁마름
▁말엽
▁명작
▁묶음
▁뮤즈
▁벤투
▁분신
▁소국
▁우가
▁제논
▁초급
▁평단
ning
ring
▁Cal
▁Mer
▁Tri
▁에릭슨
▁엘리사
▁자부심
▁접두사
▁툴루즈
▁블루투스
▁차이콥스키
▁툭
통감
▁고귀
▁군역
▁꾸란
▁맞먹
▁베넷
▁봉토
▁순응
▁식읍
▁입석
▁조중
▁조짐
▁진평
▁트립
▁호분
ther
▁Ver
▁공양왕
▁글쓰기
▁부산시
▁아우디
▁중랑장
▁파이트
▁1787
▁1816
▁Real
▁거듭제곱
▁여기저기
▁꽉
▁텀
관총
저리
토끼
mas
▁LD
▁고환
▁김철
▁낙관
▁데라
▁망설
▁볼링
▁시세
▁우암
▁육사
▁정혜
▁중경
▁코칭
▁항법
▁540
▁가나안
▁가평군
▁니코스
▁데이먼
▁뒤덮이
▁말라위
▁산기슭
▁성행위
▁소유주
▁아라키
▁좌참찬
▁차라리
▁청도군
▁카톨릭
▁1818
▁대통령령
▁아세트산
▁트라우마
▁파이어폭스
가이
니히
수사
이츠
징금
▁근소
▁기라
▁난해
▁리허
▁미그
▁사선
▁삼매
▁수탈
▁시한
▁재실
▁전업
▁좌완
▁최윤
▁캐머
▁팀원
▁풀럼
▁회동
레슈티
▁244
▁321
▁Fre
▁RFC
▁개정판
▁로미오
▁세바스
▁유미르
▁지하수
▁펀자브
▁중앙유럽
▁파이터스
▁파트너십
▁하이델베르크
네일
네즈
무로
부패
질기
카시
▁달라
▁도총
▁동리
▁문의
▁반년
▁법대
▁브렛
▁생육
▁심복
▁양명
▁재림
▁정우
▁총명
▁풍미
▁환각
ated
▁가석방
▁가와치
▁건드리
▁공학부
▁대동강
▁루도비
▁명목상
▁미에현
▁빚어지
▁인디아
▁프레시
▁프리덤
other
▁다이오드
▁gr
▁고영
▁길가
▁레브
▁루벤
▁묵살
▁변태
▁산후
▁선화
▁성심
▁성안
▁앤트
▁인내
▁칸나
▁포용
▁풍선
▁한상
▁265
▁SUV
▁걸어가
▁남북한
▁레이테
▁마라도
▁박중양
▁정선군
▁직선제
▁청량리
▁캐롤라
▁콜레라
▁킵차크
▁프로스
▁후시미
보르기니
▁부정부패
▁형이상학
GE
ME
▁봅
계선
권법
시니
포도
▁간극
▁난부
▁데프
▁만행
▁본대
▁스탄
▁스탬
▁양털
▁외피
▁저상
▁진중
▁코메
▁킬리
▁파급
▁풍력
▁풍산
▁행각
▁강경파
▁마일스
▁방어력
▁베로나
▁알파인
▁에이트
▁에치젠
▁히데키
▁Never
▁람보르기니
▁셉
레네
미나
주제
플라
▁;"
▁가출
▁게양
▁눈금
▁문호
▁반시
▁발문
▁소제
▁시녀
▁실링
▁엄중
▁잡스
▁전초
▁칼날
▁풍화
▁효행
▁남해안
▁바르톨
▁유배지
▁의사당
▁정약용
▁칠곡군
▁Home
▁교통수단
▁사쿠라이
▁오스카르
▁제네시스
샤르
▁OG
▁Si
▁겐지
▁고명
▁고상
▁기복
▁대례
▁더미
▁돌이
▁람다
▁버금
▁사철
▁선적
▁수박
▁수세
▁찔리
▁천억
▁타개
▁팬텀
▁필즈
▁헌팅
▁호두
▁혼수
▁회남
루시아
▁262
▁311
▁680
▁기록물
▁끈질기
▁달서구
▁대국민
▁리처즈
▁부안군
▁수산화
▁시행령
▁홍백가
▁레이아웃
▁뻘
양동
전동
카즈
ATA
vil
▁개천
▁교배
▁명승
▁박은
▁샤먼
▁순화
▁식단
▁악용
▁유괴
▁유토
▁후량
▁imp
▁김원봉
▁나침반
▁단양군
▁대마도
▁머레이
▁불명확
▁옹정제
▁원작자
▁의령군
▁줄어드
▁체로키
▁국민정부
▁마사유키
▁카를로만
▁히타이트
▁찜
any
▁OH
▁간택
▁객사
▁공론
▁금발
▁독학
▁마샬
▁모면
▁백련
▁병부
▁사돈
▁양각
▁요사
▁우레
▁원류
▁유표
▁일축
▁정광
▁치솟
▁태위
▁토막
▁풀밭
티스트
ling
▁245
▁대사성
▁모닝구
▁상록수
▁성장률
▁신뢰도
▁이따금
▁이주해
▁초나라
▁페라라
▁화학식
▁휘어지
▁프레이저
▁20200
▁프로페셔널
ek
▁ㅇ
▁눔
디트
쓰키
inc
ook
▁농심
▁바루
▁박문
▁변명
▁소신
▁외양
▁외직
▁이충
▁장도
▁철새
▁캐넌
▁판화
▁학관
평대군
▁263
▁DMB
▁골프장
▁관공서
▁레슬러
▁안도라
▁우메다
▁재방송
▁존스턴
▁Jour
▁그라나다
▁브롱크스
▁스탠다드
▁파르티잔
▁플리머스
보쿠
▁Ig
▁그분
▁눈썹
▁동선
▁레위
▁메탄
▁속명
▁신수
▁악몽
▁이두
▁저희
▁지라
▁진무
▁통학
컴퓨터
▁드레이
▁비행선
▁수신기
▁여학교
▁정신병
▁조선족
▁카다피
▁학술원
▁2600
▁마르코스
▁아카이브
▁인도주의
gy
▁솅
OCA
▁KF
▁고루
▁기뢰
▁다인
▁달빛
▁대홍
▁도트
▁물량
▁산초
▁아보
▁양태
▁영공
▁인왕
▁일요
▁자파
▁채식
▁최단
▁피코
ival
▁org
▁마땅히
▁스노우
▁시바타
▁아브루
▁잠자리
▁평화통일
▁메달리스트
▁Wr
▁군의
▁궁핍
▁기제
▁다정
▁모씨
▁번가
▁분구
▁비각
▁사담
▁압류
▁온몸
▁참관
▁티탄
▁편대
▁퓨처
▁휴고
▁UTC
▁마운드
▁엠블럼
▁여고생
▁연기력
▁유기물
▁적혈구
▁항구역
▁후지타
Force
▁라치오주
셀라
콜라
터슨
▁군내
▁김미
▁노자
▁대첩
▁방파
▁소가
▁소명
▁수조
▁신춘
▁역적
▁우방
▁월등
▁위급
▁잉어
▁조아
▁진통
▁크론
▁팬덤
▁폐업
▁포커
트리아
▁out
▁로이스
▁문무왕
▁수성구
▁슬럼프
▁야전군
▁이동한
▁자주포
▁1763
▁레이더스
▁버펄로스
▁스탠더드
▁시라쿠사
▁뽕
델라
도전
리처
변사
저트
카쿠
히라
▁PV
▁강기
▁경국
▁속출
▁스매
▁습작
▁식생
▁신격
▁월계
▁임영
▁제청
▁현자
▁386
▁구례군
▁대륙군
▁문학부
▁산청군
▁수뇌부
▁수페르
▁야마노
▁역무원
▁이제동
▁참으로
▁합격자
▁1778
▁Moon
다우
발디
전설
추얼
▁딱정
▁리쿠
▁볼레
▁스맥
▁식수
▁양왕
▁역인
▁연혁
▁제복
▁징발
▁총탄
▁캡콤
▁폴드
▁헤스
▁호부
▁Ber
▁Soc
▁동남아
▁리버스
▁미란다
▁바하마
▁보일러
▁브라만
▁사이고
▁손오공
▁시간표
▁아우렐
▁억지로
▁조소앙
▁진보신
ouble
▁1780
▁앨프리드
▁연꽃무늬
▁트라키아
▁파피루스
▁해발고도
▁방탄소년단
▁페널티킥을
▁Summer
lt
이동
자카
츠만
ely
raw
▁갈대
▁관립
▁교각
▁김화
▁닛코
▁도원
▁맹자
▁박병
▁비버
▁심도
▁오퍼
▁원광
▁이극
▁전근
▁진자
▁허나
▁황기
▁휴지
노비치
▁Fri
▁경덕왕
▁고메스
▁기관사
▁내슈빌
▁무자비
▁보살피
▁아르키
▁진안군
▁진행하
▁1453
▁Type
▁left
▁머리장식
르템
빠르
애자
이시
전서
▁국권
▁명료
▁배차
▁사피
▁셜록
▁시치
▁양질
▁에지
▁에토
▁오행
▁이권
▁장주
▁재킷
▁즉석
▁훈구
▁MLS
▁Pet
▁Sil
▁더욱더
▁반혁명
▁시작점
▁아바스
▁적갈색
▁조슈아
▁플레밍
르템베르크
▁아르키메데스
지드
▁HR
▁나요
▁랜더
▁매시
▁반짝
▁부쿠
▁성군
▁성혼
▁수재
▁신식
▁심경
▁엽록
▁옮겨
▁외야
▁음계
▁장동
▁코요
▁티타
▁푸앵
▁흥국
플러스
▁Die
▁Swe
▁mod
▁도저히
▁동역학
▁레이첼
▁이자겸
▁City
▁랭커스터
▁한국은행
▁한국전력
▁부쿠레슈티
극장
케로
▁BJ
▁Hz
▁UD
▁레자
▁빙상
▁사누
▁수체
▁수혜
▁시디
▁우뚝
▁유량
▁유르
▁진산
▁통수
▁한학
커버리
▁Vis
▁겉모습
▁부룬디
▁사라이
▁쇼펜하
▁애니콜
▁연수구
▁최우선
▁카트린
▁퓨처스
▁1825
▁모리오카
▁사라예보
▁카를루스
▁쇼펜하우어
레즈
슬론
하타
▁Sn
▁과대
▁미달
▁범종
▁빙판
▁쇄신
▁승무
▁승문
▁신토
▁약어
▁엘람
▁육안
▁장막
▁철갑
애슬론
클라베
▁def
▁강연회
▁광산구
▁매장량
▁세르비
▁영천시
▁재계약
▁적시타
▁코르넬
▁탈리아
▁헤엄치
▁헬레나
▁훈련장
▁1817
▁딱정벌레
▁사실주의
▁콘클라베
yr
간드
뚜기
신론
중앙
코이
포화
▁-.
▁가용
▁누아
▁단추
▁동그
▁망라
▁병세
▁비구
▁셰르
▁외우
▁응모
▁제패
▁지네
▁참되
▁학무
▁호메
차일드
apan
▁313
▁980
▁Fun
▁노이만
▁도봉구
▁레이철
▁무안타
▁비활성
▁수집가
▁옥개석
▁잡아내
▁컨셉트
▁특산물
▁플레인
▁나카가와
▁말라리아
▁무라야마
▁스맥다운
▁카트리지
▁Album
▁렴
베쓰
찰사
페어
err
lin
▁관입
▁기득
▁노령
▁대월
▁무굴
▁성신
▁열혈
▁오고
▁장공
▁질주
▁호종
▁고려인
▁광양시
▁동인지
▁바이런
▁원피스
▁웨일즈
▁충성심
▁클레르
▁필살기
▁스웨덴어
▁헤르메스
강도
펠트
ino
▁AW
▁NO
▁Sa
▁강정
▁관인
▁기오
▁김신
▁꺼지
▁남도
▁납세
▁닐스
▁다산
▁던스
▁리니
▁미호
▁빈혈
▁서유
▁석실
▁영가
▁용모
▁울라
▁중진
▁클랩
곰자리
본주의
▁관측자
▁구사론
▁아스타
▁영광군
▁이방인
▁자연히
▁집합체
▁채플린
▁Enter
▁Techn
▁크로스오버
▁우크라이나인
각시
덕리
ope
▁KM
▁검역
▁난폭
▁대림
▁미흡
▁사문
▁산개
▁스냅
▁야나
▁양기
▁우로
▁원구
▁잉태
▁잔재
▁정액
▁팰컨
▁폐비
▁핀치
▁항변
연구소
ican
▁.."
▁금정구
▁레지옹
▁로버스
▁사진가
▁신조어
▁외조부
▁요크셔
▁조그마
▁초이스
▁쿠알라
▁황금기
▁Team
▁열린집합
▁하드코어
▁호메로스
▁쿠알라룸푸르
▁뮬
나잇
슈트
스름
충사
치산
ves
▁곡사
▁광릉
▁니더
▁당면
▁도내
▁리디
▁마장
▁망토
▁백합
▁비바
▁상전
▁셔터
▁손잡
▁워렌
▁워프
▁의전
▁재키
▁종반
▁준용
▁케토
▁코즈
▁한영
▁한탄
▁힘차
reet
work
▁금지법
▁노르딕
▁리누스
▁모듈러
▁미술사
▁백혈병
▁셰필드
▁순환선
▁코발트
축구협회
▁문하시중
▁분리주의
▁비토리오
▁코린토스
▁테네시주
▁포항제철
▁흐루쇼프
▁대한축구협회
▁사우스캐롤라이나
yp
게르
그너
무진
티콘
포동
▁개역
▁격노
▁근절
▁남강
▁마제
▁만루
▁먹히
▁민스
▁신랑
▁악행
▁양광
▁예민
▁전등
▁출몰
▁충선
▁회자
itch
▁고쿠라
▁광무제
▁김홍집
▁마사코
▁소장품
▁스티커
▁시나이
▁신해철
▁아리마
▁아이누
▁에디터
▁워터스
▁의화단
▁장덕수
▁장본인
▁포르쉐
▁마사무네
▁이브라힘
▁홑
바위
팔로
▁네버
▁누출
▁동궁
▁반송
▁범퍼
▁소우
▁속옷
▁아밀
▁염전
▁원경
▁원어
▁이그
▁초구
▁콥트
▁푸코
▁힐튼
▁Cre
▁관측소
▁도로시
▁뒷부분
▁런타임
▁레트로
▁부총재
▁사업비
▁수사관
▁아리안
▁코베인
▁1788
▁초전도체
▁판타스틱
▁앨라배마주
▁판의금부사
▁아우구스티누스
▁쩌
던지
일점
▁fe
▁간절
▁고착
▁고품
▁공범
▁굳건
▁디랙
▁무정
▁약초
▁임재
▁조원
▁주현
▁침실
▁태정
▁편도
▁흑연
▁나루토
▁네모나
▁따라오
▁레오니
▁보호령
▁사냥개
▁시마네
▁시퀀스
▁전봉준
▁조선어
▁카이두
▁퍼킨스
▁해왕성
▁1593
▁구부러지
▁무스타파
▁브리즈번
▁First
▁Little
▁쉰
록색
출마
화사
▁MI
▁갯벌
▁경왕
▁금방
▁녹훈
▁보크
▁살포
▁신승
▁아달
▁안도
▁어귀
▁역병
▁오현
▁용담
▁원각
▁칩셋
▁품류
도토스
메이슨
무스메
바니아
▁기동성
▁나이토
▁서천군
▁슬라이
▁실비아
▁에디슨
▁1828
▁무한도전
▁민다나오
▁한국일보
▁헐리우드
▁모닝구무스메
럽트
임새
장성
첼로
환국
ird
ler
▁VL
▁노기
▁단언
▁더듬
▁도일
▁뒤섞
▁라메
▁로슈
▁미우
▁바카
▁방진
▁브록
▁비신
▁시일
▁신나
▁엄하
▁역관
▁황주
▁후주
리아노
▁860
▁내려놓
▁록펠러
▁매표소
▁미켈란
▁저소득
▁진사시
▁포병대
▁퓰리처
▁모더니즘
▁세종실록
▁이집트인
▁히로유키
▁자유주의자
메인
키리
패닉
ars
▁갈망
▁강태
▁계비
▁교상
▁동강
▁법치
▁불운
▁뼈대
▁알콜
▁앙헬
▁열녀
▁오동
▁위화
▁장마
▁전편
▁지안
▁질타
▁천진
▁카가
▁타바
▁테루
▁표고
▁혜왕
▁960
▁Dig
▁가처분
▁극락전
▁꽃가루
▁나오키
▁마젤란
▁무분별
▁미도리
▁빙그레
▁사이코
▁삼별초
▁안세이
▁장신구
▁크랭크
▁클로즈
▁파티마
▁피오나
▁Happ
▁SEED
▁다이애나
▁로트링겐
▁모하마드
▁물병자리
▁펩타이드
▁히스패닉
▁수페르리가
▁안드로메다자리
ts
ike
▁OL
▁경당
▁경리
▁기꺼
▁리뉴
▁비웃
▁송수
▁시럽
▁안국
▁울창
▁인목
▁정준
▁종위
▁주걱
▁진달
▁333
▁고용주
▁법상종
▁성희롱
▁신경망
▁에미상
▁역전승
▁이규완
▁이스터
▁제미니
▁주제곡
▁휘그당
▁국제기구
▁모리셔스
▁새천년민주당
▁주간고속도로
코니
▁Nt
▁굴드
▁다뉴
▁도프
▁불연
▁빈스
▁산발
▁신광
▁에비
▁역경
▁우와
▁원세
▁자영
▁저승
▁통가
▁퇴거
▁티티
▁하대
▁하목
▁혈전
스티스
ress
▁몽골어
▁베이시
▁수호신
▁일라이
▁정상부
▁차베스
▁헤이케
▁1797
▁스타트업
▁에너지원
▁인터럽트
▁Stage
▁히스파니아
ha
개토
다라
롤라
베다
지상
켄지
하치
▁기침
▁낙점
▁능률
▁레몽
▁명랑
▁볼라
▁수고
▁에라
▁영내
▁예기
▁인트
▁조강
▁코먼
▁큼직
▁구매자
▁대표부
▁말버러
▁산리쿠
▁송준길
▁수호이
▁스크롤
▁양성소
▁지표면
▁탐험대
▁패미컴
▁프랑켄
▁1838
▁나카모리
▁인디애나주
지움
oom
▁If
▁고맙
▁구소
▁남대
▁대박
▁로더
▁루니
▁루앙
▁마미
▁사별
▁알란
▁연경
▁연접
▁의열
▁제회
▁좡족
▁찬미
▁콜트
머니즘
카이치
▁229
▁관박쥐
▁남동구
▁동두천
▁메소드
▁선인장
▁섬네일
▁수에즈
▁영양분
▁카르타
▁캐머런
▁특파원
▁1636
▁집적회로
PN
▁된
관광
리프
소프
자료
털루
▁검교
▁교민
▁규소
▁다드
▁도면
▁면도
▁복도
▁소학
▁아슈
▁열병
▁올가
▁은닉
▁주종
▁찰나
▁최인
▁탐라
▁파시
▁판다
자유당
파고스
▁POP
▁Tom
▁공문서
▁광개토
▁기꺼이
▁베니토
▁수십만
▁청취자
▁표지판
▁피그미
▁항등식
▁황무지
▁Hist
▁보호관찰
▁이로쿼이
▁헝가리인
▁민주자유당
▁예카테리나
ze
폭력
umb
▁EA
▁ed
▁검단
▁구주
▁기내
▁단부
▁말뚝
▁반미
▁변주
▁비앙
▁왕상
▁용두
▁편광
군주제
스탕스
▁TNA
▁갑상선
▁경호원
▁도파민
▁리베라
▁마사토
▁사투리
▁초거성
▁페드루
▁poem
▁차가타이
▁크로노스
▁트레이시
▁레지스탕스
디니
시드
워싸
▁굴착
▁무령
▁물들
▁물음
▁박순
▁부츠
▁슈만
▁일약
▁일일
▁증보
▁직역
▁초각
▁한우
▁호구
▁황화
▁MBN
▁Pla
▁리허설
▁브라이
▁사육신
▁서귀포
▁에워싸
▁진천군
▁나뭇가지
▁로테이션
▁트레일러
▁솔트레이크
▁프리스타일
PG
가치
무사
현리
▁금과
▁내연
▁동질
▁락스
▁베인
▁보소
▁볼턴
▁신증
▁어근
▁용납
▁용호
▁유임
▁유종
▁종별
▁최동
▁편년
▁피델
▁한기
▁허적
▁화단
삼각형
▁가쓰라
▁경산시
▁공작원
▁관중석
▁나아지
▁노비타
▁마술사
▁미추홀
▁캐피탈
▁털어놓
▁텅스텐
수염박쥐
▁2024
▁Conc
▁김나지움
▁대학원생
▁드레스덴
▁야마나시
▁플랑크톤
▁하나하나
▁미시시피주
▁미켈란젤로
▁페르세우스
▁MG
▁MO
▁고졸
▁곡성
▁니노
▁듀이
▁모성
▁바벨
▁북주
▁양해
▁어진
▁연제
▁처자
▁초명
▁커튼
▁페달
▁평시
▁관리법
▁김정희
▁남수단
▁들려주
▁메디아
▁민스크
▁소작농
▁스코프
▁유스티
▁하인츠
슈바이크
▁1777
▁Plan
▁레이먼드
▁브라이트
▁right
▁노스웨스트
yc
▁쑥
▁씽
덕사
착륙
ris
▁ph
▁남면
▁본받
▁사공
▁석장
▁순열
▁애용
▁약재
▁외장
▁학상
▁황토
▁249
▁323
▁AES
▁PSP
▁SAR
▁경사각
▁발트해
▁편집국
▁화엄경
▁다치바나
▁스케이프
▁브라운슈바이크
렁크
의어
천후
텍스
▁TE
▁공비
▁광교
▁구균
▁난바
▁무량
▁방역
▁선량
▁소품
▁암사
▁인동
▁죄목
▁질감
▁창법
▁태실
▁풍성
▁항등
▁화나
line
▁266
▁der
▁갈라타
▁도플러
▁법무관
▁보급품
▁영주시
▁웹스터
▁은하수
▁정여립
▁총감독
▁코스닥
▁크루스
▁회색빛
▁히메지
▁네이티브
▁마티아스
▁브리타니아
걸스
림리
마에
get
▁DT
▁구한
▁내해
▁니어
▁멀린
▁붓다
▁성나
▁심재
▁연명
▁은화
▁잔기
▁캘빈
▁콘도
▁파로
▁파타
▁허셜
uman
▁May
▁군자금
▁금지령
▁라이징
▁서울역
▁선교회
▁예천군
▁오베르
▁외손자
▁유력자
▁윤원형
▁토후국
▁호남선
▁테마파크
▁아일랜드어
빌라
태영
포츠
els
uro
▁고뇌
▁과소
▁급감
▁도킹
▁메토
▁법사
▁분분
▁비누
▁서른
▁엉뚱
▁유두
▁의탁
▁인두
▁임오
▁장명
▁쟁이
▁추수
▁칙서
▁쾌적
▁협연
▁회선
▁효시
에이터
ross
▁810
▁공격자
▁근연종
▁기무라
▁다뉴브
▁라벤나
▁불어나
▁신간회
▁연합체
▁온건파
▁위스키
▁의정서
▁이니셜
▁일대기
▁조언자
ative
▁More
▁나가오카
▁문화재청
▁디스커버리
▁콜라보레이션
RA
▁왁
덕면
사장
소녀
키치
ECT
▁Ap
▁Km
▁난소
▁류성
▁만슈
▁모유
▁빗물
▁선군
▁세터
▁순방
▁안수
▁애쉬
▁원안
▁읍내
▁이혜
▁카구
▁코보
▁태즈
▁파치
▁하한
바라기
베르데
혁명당
▁353
▁Sky
▁너구리
▁대구경
▁미노루
▁미술품
▁세기말
▁셰이크
▁워털루
▁재통일
▁조건부
▁지멘스
▁통일부
▁허스트
▁Gold
▁선덜랜드
▁크리슈나
르담
링스
켤레
티르
▁뉴펀
▁대불
▁도가
▁로직
▁루미
▁막론
▁삼보
▁스틴
▁아고
▁어마
▁원외
▁월성
▁징용
▁프릴
엽수림
▁257
▁570
▁관리인
▁긴장감
▁다거나
▁런던탑
▁레반트
▁수자원
▁우분투
▁이승훈
▁자본금
▁전람회
▁1826
▁가와카미
▁노트르담
▁모리타니
▁삼성그룹
▁아브루초
▁아유타야
▁Gener
▁뉴펀들랜드
▁윗수염박쥐
▁function
▁ㅅ
라티
랜즈
르노
케르
쿠마
ero
▁Pi
▁Vo
▁고봉
▁국학
▁극하
▁니우
▁더더
▁도인
▁두목
▁등식
▁마노
▁말레
▁방아
▁배서
▁법의
▁사복
▁서화
▁에덴
▁여리
▁왼발
▁저런
▁진시
▁천인
▁하네
▁회령
ific
▁306
▁But
▁GHz
▁RAM
▁var
▁갈매기
▁부평구
▁스토크
▁저압부
▁진주성
▁춘추관
▁펌웨어
▁평신도
▁Char
▁LGBT
▁main
▁카나리아
▁팔레르모
실히
후미
ACK
▁군공
▁금석
▁기절
▁당구
▁랄리
▁분가
▁비소
▁삼도
▁상비
▁섭동
▁에센
▁최정
▁페소
▁헥사
▁회송
▁훌린
디비시
스카야
orth
▁광주군
▁대역폭
▁로베스
▁리디아
▁발원문
▁부조리
▁시집가
▁신대륙
▁아가미
▁아르민
▁운전사
▁은밀히
▁자아내
▁주원장
▁테이트
▁홍건적
▁1784
▁TOUR
▁드래건스
▁매리너스
▁블록체인
▁옥스포드
▁에레디비시
▁로베스피에르
WC
▁럽
언군
첼리
AND
▁so
▁건반
▁대산
▁드가
▁말투
▁백남
▁북문
▁수납
▁슈마
▁야유
▁어벤
▁이춘
▁장석
▁치매
▁파비
▁평영
▁God
▁TCP
▁감독관
▁마커스
▁몰려오
▁미크로
▁수출입
▁애국심
▁양양군
▁워크스
▁인도양
▁재조합
▁조이스
▁주자학
▁트렁크
▁페르마
▁프리즘
▁하이데
▁ISIL
▁니가타현
▁찾아다니
▁패러데이
▁Class
▁아일랜드인
▁위스콘신주
▁하이라이트
부치
찰청
▁간언
▁군악
▁날로
▁대권
▁레그
▁상산
▁성토
▁수르
▁신령
▁액자
▁이응
▁지간
▁질책
▁토치
▁함축
▁화구
▁환공
▁273
▁404
▁630
▁군포시
▁마테오
▁미적분
▁사령탑
▁생방송
▁실력자
▁이시이
▁충선왕
▁휩쓸리
▁대검찰청
▁스티븐슨
▁카탈로그
▁갠
야식
에나
ful
▁그야
▁늘이
▁링고
▁변위
▁봉신
▁성탄
▁스탭
▁재조
▁접히
▁초순
▁토종
▁파블
▁퍼트
▁향유
▁화평
▁620
▁STX
▁Vir
▁app
▁과학부
▁관습법
▁대마초
▁배심원
▁부지사
▁불신임
▁슈바벤
▁시프트
▁에일리
▁저항성
▁1680
▁에노모토
▁영산회상
▁이복동생
▁메릴랜드주
디크
밍턴
엔드
연사
왕도
티늄
ius
▁경공
▁라키
▁보타
▁불우
▁비관
▁사색
▁석좌
▁야역
▁염원
▁오족
▁오펜
▁인화
▁절이
▁천공
▁천호
▁측실
세서리
▁880
▁겨울잠
▁노후화
▁드레드
▁마오리
▁맘루크
▁문하생
▁장흥군
▁정치범
▁참석자
itude
▁part
▁고전주의
▁하마마쓰
▁흘러나오
▁갈라파고스
▁솥
놀즈
성장
장이
타자
▁Da
▁Rh
▁갑과
▁구심
▁룬드
▁번사
▁부아
▁수안
▁아계
▁얽매
▁이찬
▁코아
▁한결
▁화정
▁환수
▁힘러
메이커
▁구릉지
▁군부인
▁릴리즈
▁몽구스
▁세르히
▁스피너
▁야코프
▁은언군
▁음악인
▁정복자
▁제트기
▁하리마
▁Dark
▁마라도나
▁전용도로
▁해바라기
▁Beaut
olution
가드
강원
녜스
사항
ren
▁BP
▁가람
▁건기
▁고함
▁곡률
▁교목
▁데비
▁뒤쫓
▁로쿠
▁병설
▁봉투
▁비티
▁설날
▁세인
▁양모
▁여중
▁옥산
▁요요
▁웨버
▁정릉
▁정호
▁좌초
▁타슈
▁튀김
▁특검
▁파평
▁패닉
▁폰티
▁풍조
▁호드
▁NGO
▁경영난
▁그로브
▁내버리
▁리포터
▁미국식
▁벨리즈
▁아메리
▁양천구
▁연면적
▁요아힘
▁중남부
▁중앙동
▁포츠담
▁현대식
umber
▁Long
▁나미비아
▁에히메현
▁적십자사
▁페데리코
▁Japan
▁카운트다운
▁미크로네시아
▁댕
▁밉
포항
▁Sl
▁nd
▁경장
▁광천
▁교점
▁납득
▁내년
▁랠리
▁로건
▁리토
▁산국
▁완봉
▁인포
▁작별
▁장연
▁저빌
▁정평
▁한시
▁호도
▁후륜
▁Fla
▁구덩이
▁국세청
▁뒷다리
▁마니아
▁볼거리
▁봉화군
▁셀틱스
▁소득세
▁수필가
▁으려면
▁제럴드
▁천태종
▁키케로
▁페트라
▁혼마루
▁희극인
▁다카사키
▁언더우드
▁민코프스키
▁찹
무역
새우
▁ㅏ야
▁경서
▁구정
▁궁도
▁귀부
▁날조
▁노정
▁레코
▁미제
▁상군
▁성황
▁시무
▁안료
▁우당
▁이음
▁재거
▁적국
▁진부
▁췌장
▁팩터
▁후크
▁SNK
▁bes
▁계산기
▁곰팡이
▁남학생
▁닉네임
▁버금가
▁의왕시
▁이코마
▁일일이
▁재래식
▁재빠르
▁지치부
▁카이퍼
▁활화산
▁소방본부
▁아키타현
▁잉글리시
GS
데나
득이
임자
테로
▁LL
▁px
▁가례
▁곧장
▁노고
▁대작
▁똑똑
▁맥라
▁방산
▁봉급
▁샤크
▁안현
▁야고
▁우현
▁인부
▁재적
▁체급
▁탈영
▁하청
▁하퍼
▁한두
네이터
less
▁236
▁고속철
▁광진구
▁기차역
▁대방광
▁메네스
▁벨라스
▁부풀리
▁상징물
▁아루바
▁아메바
▁영남대
▁인덱스
▁주동자
▁토바고
▁파울리
▁풀타임
▁헨리크
투아네트
▁8859
▁Year
▁국민은행
▁진핵생물
▁다이어그램
to
나크
음악
종합
즈다
지방
판윤
▁KP
▁__
▁대식
▁독보
▁배교
▁순진
▁언양
▁오치
▁우고
▁입궁
▁전가
▁정창
▁주례
▁지마
▁최익
▁퀴리
▁터전
▁페놀
▁피보
▁허벅
▁헬름
▁화천
프레임
▁304
▁도전자
▁르베그
▁마가렛
▁무한히
▁스트링
▁은신처
▁이와타
▁제레미
▁제천시
▁파이퍼
▁현충원
니아누스
프레이즈
▁Fall
▁남중국해
▁전통문화
▁체임벌린
▁크리스트
▁테크니컬
▁페르미온
▁Stand
▁한성부판윤
▁ㄷ
발리
산역
소네
쓰카
era
led
▁KL
▁광기
▁네빌
▁도니
▁들뜨
▁레토
▁백상
▁사타
▁수론
▁심해
▁악사
▁약관
▁연변
▁위인
▁절지
▁청백
▁최창
▁켤레
▁폭설
▁폴더
▁해마
크루스
▁Aut
▁MGM
▁데미지
▁마이트
▁아카시
▁앙카라
▁의료진
▁정류소
▁충무공
▁콜로니
▁1822
▁그야말로
▁로테르담
▁석불입상
▁시마네현
▁아킬레스
▁Girls
▁Group
AV
깨우
르겐
험자
▁검진
▁게스
▁기년
▁김안
▁번안
▁병약
▁본위
▁분묘
▁사경
▁융성
▁절기
▁접영
▁정촌
▁직할
▁항암
▁행상
ople
▁247
▁415
▁470
▁Bus
▁res
▁고릴라
▁공로상
▁공손찬
▁다득점
▁리아스
▁명부전
▁문화상
▁반대자
▁비슈누
▁안무가
▁카니발
▁1620
▁날아다니
▁레이놀즈
▁Sweet
▁OM
▁고케
▁농수
▁도의
▁마담
▁머드
▁멸치
▁밧줄
▁북청
▁쇄도
▁시복
▁아탈
▁양안
▁용골
▁웅변
▁음파
▁출하
▁태고
▁폭락
▁확증
달레나
▁OFC
▁기동대
▁로고스
▁로리타
▁루시아
▁승문원
▁신의주
▁영월군
▁인천시
▁일반직
▁주성분
▁중심가
▁태안군
▁튀링겐
▁파열음
▁하행선
▁홍길동
▁후원회
iness
▁1660
▁1811
▁비엔날레
▁포메이션
▁표현주의
▁White
▁앙투아네트
▁크리스티아
▁놉
댑터
딩턴
사토
소수
시안
와프
운사
체계
통신
팬지
ald
asy
▁강선
▁교조
▁남이
▁뇌터
▁묵인
▁아센
▁아톰
▁에머
▁육신
▁의기
▁자드
▁제과
▁조프
▁죄책
▁청대
▁체액
▁티토
▁GUI
▁UFC
▁마르키
▁방어전
▁변경백
▁분석가
▁불포화
▁삼척시
▁성주군
▁신중도
▁어댑터
▁지리지
▁파이리
▁플라잉
lease
▁요시미쓰
▁푸앵카레
메데
배상
▁Na
▁감귤
▁기모
▁남초
▁말살
▁벌목
▁본과
▁부석
▁소다
▁스스
▁시들
▁알자
▁약소
▁연개
▁일절
▁잡이
▁치바
▁카포
▁토큰
▁파수
▁후카
슬레이
▁Bra
▁군부대
▁누리꾼
▁서라벌
▁수세기
▁외로움
▁이데아
▁자작곡
▁출입국
▁침팬지
▁캐리어
▁플렉스
▁하루히
▁1610
▁Roll
▁로버트슨
▁포클랜드
▁헨드릭스
▁Christmas
CE
무이
차오
▁가트
▁강론
▁노크
▁면세
▁북키
▁산대
▁상술
▁와우
▁용융
▁은유
▁이괄
▁적립
▁채드
▁츠나
▁쿼리
▁토가
▁플롯
텐디크
▁345
▁Ret
▁SHO
▁고케닌
▁광우병
▁달려오
▁데이비
▁메디컬
▁목적물
▁세미놀
▁시발점
▁실업자
▁알레포
▁우주국
▁임진강
▁저마다
▁조로아
▁칼리프
▁피아트
▁보르네오
▁스탠포드
▁그로텐디크
▁Direct
fr
거북
비지
소송
토닌
▁각막
▁내력
▁몬티
▁백양
▁사재
▁선착
▁스컬
▁언행
▁입건
▁전생
▁초간
▁태원
▁피임
▁형평
▁후송
디스트
순양함
▁710
▁거북이
▁다비트
▁망설이
▁매개체
▁사나다
▁유의미
▁패터슨
▁헬무트
▁Miss
▁마요르카
▁스테파니
▁스프린트
▁오카모토
▁지그문트
▁캔자스주
▁프리메이슨
대상
랴쿠
렌트
민관
▁공진
▁내선
▁단총
▁루주
▁룰라
▁목초
▁무모
▁박창
▁백스
▁비드
▁소성
▁스치
▁스톱
▁스필
▁양준
▁진종
레인지
예비치
▁발표회
▁법주사
▁부코바
▁블랙번
▁세이프
▁수행자
▁스트롱
▁신고식
▁암살자
▁오세아
▁우거지
▁이사금
▁일깨우
▁정무직
▁체세포
▁1770
▁꼭두각시
▁볼리바르
▁슬라이더
▁헤로도토스
디브
문제
erv
▁Fi
▁검소
▁공교
▁기입
▁능히
▁무반
▁문맹
▁문선
▁미마
▁민트
▁방광
▁불선
▁성금
▁소독
▁아롱
▁어택
▁에콜
▁였었
▁오션
▁완승
▁육영
▁자화
▁조진
▁초승
▁코피
▁통설
▁페미
▁화분
▁효령
▁히우
메랄드
▁Cry
▁갈루아
▁개혁가
▁나이츠
▁능력자
▁데이지
▁부적합
▁비변사
▁산호초
▁스트립
▁식물학
▁유스케
▁지하실
▁청송군
▁침례교
▁가니메데
▁루도비코
▁사다리꼴
▁에메랄드
▁해운대구
▁하드리아누스
▁유스티니아누스
gg
떡잎
산염
엑스
좌상
▁근신
▁기력
▁다임
▁만회
▁배스
▁비노
▁비파
▁씨방
▁원담
▁의관
▁자퇴
▁조업
▁창극
▁충만
▁회개
테우스
▁243
▁괘불탱
▁넥서스
▁마린스
▁울진군
▁위그노
▁이동해
▁카디프
▁클랜시
▁char
▁오리건주
▁지주회사
▁컴포넌트
▁Elect
▁에르난데스
가나
더미
뎅이
타다
▁거든
▁라싱
▁링스
▁물산
▁배추
▁부로
▁북두
▁분말
▁선국
▁수보
▁엑소
▁일인
▁작은
▁첨탑
▁한나
토니오
oman
▁김종서
▁나이키
▁더더욱
▁바우어
▁수송선
▁시흥군
▁쑤저우
▁얽매이
▁에어컨
▁오다큐
▁이스타
▁임실군
▁재건축
▁재경기
▁주둔군
▁참나무
▁크로마
▁포커스
▁프로메
▁하우젠
▁험프리
▁헤럴드
▁확장팩
▁히라이
▁1604
▁미쓰나리
▁아뢰야식
▁탄화수소
▁해군기지
88
사의
예트
nal
▁Ca
▁공역
▁귀도
▁난시
▁다네
▁로아
▁매혹
▁무디
▁벌집
▁별시
▁순무
▁신채
▁액면
▁역수
▁웨스
▁유향
▁주당
▁중임
▁차인
▁카게
▁통째
▁판시
▁팬터
▁피레
▁흥업
▁굶주리
▁끓는점
▁대구시
▁동해안
▁불가침
▁시그널
▁오랜만
▁유원지
▁자연법
▁전시실
▁제이컵
▁최고봉
▁카시오
▁코카인
▁클랩튼
▁페루자
▁마쓰야마
▁소행성대
▁크리에이터
mb
sy
▁폄
청사
태후
텔라
▁AH
▁고배
▁덴분
▁명신
▁봄바
▁상봉
▁어순
▁토번
▁피격
▁화법
▁930
▁Mat
▁pop
▁물방울
▁수사학
▁이방원
▁인스트
▁전리품
▁졸업식
▁중남미
▁최신형
▁특별상
▁3500
▁맞아들이
▁이바라키현
▁GeForce
노미
렐리
세나
잭션
fin
▁HM
▁Tu
▁거동
▁교세
▁메티
▁봉행
▁사오
▁사포
▁양복
▁양화
▁엘베
▁왕사
▁이징
▁조간
▁질식
▁크롤
▁키츠
▁페름
▁하양
레흐트
▁NCA
▁간사장
▁동음이
▁로비치
▁메콩강
▁모회사
▁몰디브
▁무용수
▁비스듬
▁빈번히
▁우익수
▁초음속
▁출루율
▁카메오
▁통감부
▁판문점
▁한림원
▁홀랜드
▁1519
▁Comm
▁나카소네
▁에이로쿠
▁요시노리
▁타카하시
▁트랜잭션
KO
▁캬
닝스
다주
뮤다
워프
키오
▁CI
▁Us
▁계양
▁고신
▁공허
▁기선
▁나그
▁낙후
▁네리
▁다도
▁답습
▁등각
▁디리
▁뜻밖
▁몸소
▁방망
▁스펠
▁아커
▁오모
▁외지
▁초의
▁카제
▁탄창
▁특무
▁플린
▁호성
▁UFO
▁경시청
▁공백기
▁동호회
▁드래그
▁로지스
▁마자르
▁버뮤다
▁영양소
▁전교조
▁중립국
▁중시조
▁카펠라
▁파비아
▁드래곤볼
▁봅슬레이
▁석불좌상
▁오피스텔
▁중심주의
▁호나우두
▁캐치프레이즈
bc
ka
▁깍
군트
조프
진흥
트만
▁LM
▁QS
▁가늠
▁군체
▁그렉
▁녹지
▁스팟
▁우량
▁장호
▁점막
▁정각
▁중정
▁증조
▁체신
▁초토
▁탱고
▁테디
▁표수
▁허준
▁혈당
▁후아
ents
ible
▁Mem
▁mac
▁공급원
▁마르텔
▁반역자
▁배급사
▁사마르
▁시리얼
▁아그리
▁아쉬움
▁앞다리
▁쥐라기
▁타이타
▁통찰력
▁IDOL
▁고생물학
▁부르군트
▁아드리안
▁아흐마드
▁통정대부
▁핀란드어
▁플루오린화
ml
▁숯
규어
글러
디시
록스
밴드
BSD
▁귀의
▁내뿜
▁대함
▁두건
▁방벽
▁방재
▁샤론
▁서얼
▁서프
▁신혼
▁옷감
▁와의
▁요일
▁자회
▁정윤
▁종성
▁팔달
▁푸이
▁하숙
▁협찬
즈베리
▁ㅂ시다
▁길들이
▁노히트
▁달리기
▁브라흐
▁설계도
▁유난히
▁인디펜
▁인텔리
▁중합체
▁통행료
▁헤이시
▁호시노
▁횡성군
▁달마티아
▁조지아주
▁이슬람교도
▁파이프라인
▁럿
이행
▁고다
▁괴담
▁낙성
▁대잠
▁램지
▁배격
▁사저
▁석성
▁소추
▁손견
▁아헨
▁알랭
▁영안
▁완구
▁음표
▁저속
▁청혼
▁티크
▁파베
롭스크
바르드
부쿠로
aven
illa
▁246
▁286
▁근위대
▁도호부
▁랜더스
▁분당선
▁스쿼드
▁영락제
▁이홍장
▁장성군
▁존재감
▁티라노
▁플리트
▁후보자
▁1827
▁1829
▁갑오개혁
▁고스란히
▁기요모리
▁미야모토
▁약사여래
▁익스트림
▁파우스트
▁Story
▁Young
▁세바스티안
▁Season
▁프라이부르크
▁젼
고원
아과
아스
에라
▁골대
▁군장
▁데바
▁도살
▁목련
▁베츠
▁불기
▁성비
▁손톱
▁유코
▁정민
▁집요
▁징시
▁채찍
▁충적
▁표식
▁홍영
▁307
▁DDR
▁김성근
▁다이요
▁디오니
▁라이플
▁레드불
▁링네임
▁맥라렌
▁문화부
▁미즈키
▁백혈구
▁법률가
▁보험료
▁생활비
▁아스트
▁지상군
▁커맨드
▁콜롬비
▁히카리
▁Kiss
▁chem
▁네바다주
▁니코니코
▁동부승지
▁롯데월드
▁스나이퍼
▁Staff
▁Under
▁안티오코스
▁위트레흐트
▁일러스트레이터
스컵
und
▁UH
▁검문
▁격납
▁도드
▁바브
▁백군
▁신심
▁역원
▁완치
▁원회
▁저리
▁정묘
▁칭화
▁태인
▁특질
마리아
▁Sur
▁교육법
▁권위자
▁드리블
▁레시피
▁레이지
▁마르타
▁수리남
▁엄정화
▁에리카
▁엘레나
▁초승달
▁클로버
떡잎식물
▁BEST
▁STER
▁디아블로
▁챔피언스컵
li
▁넌
라크
막이
쓰구
콜리
하드
▁Er
▁검술
▁교로
▁도바
▁동중
▁론도
▁목과
▁상량
▁세심
▁잡식
▁전패
▁청담
▁파지
▁피쉬
▁핑거
▁휴스
▁251
▁302
▁LNG
▁목욕탕
▁부주석
▁분류법
▁시끄럽
▁아미르
▁연수원
▁우에다
▁커플링
▁흥덕구
예술종합
▁1823
▁리처드슨
▁상무위원
▁알카에다
▁어셈블리
▁올림푸스
▁자연환경
▁주니어스
예술종합학교
▁American
▁한국예술종합학교
▁싼
경사
모트
십리
처치
▁거류
▁낭트
▁레빈
▁매클
▁배위
▁소호
▁실외
▁양봉
▁왜관
▁제강
▁천둥
▁친위
▁쾌거
▁피폐
▁후국
▁히든
다이스
사무소
▁285
▁288
▁TTC
▁공격기
▁발루아
▁베르토
▁색다르
▁수개월
▁옥천군
▁장애인
▁전도사
▁청양군
▁키르케
▁흘러드
르크세스
▁1598
▁Spec
▁아데노신
▁칼뱅주의
▁Child
▁카트라이더
▁크세르크세스
겨지
구로
코지
▁기거
▁난류
▁백기
▁병상
▁부토
▁불어
▁석고
▁석주
▁아깝
▁암묵
▁양키
▁유허
▁임직
▁전우
▁제호
▁조도
▁흑해
프로스
▁EXO
▁map
▁고기압
▁더라면
▁버팔로
▁사타케
▁서태후
▁세라믹
▁아르투
▁여행기
▁유사시
▁이기붕
▁진달래
▁한국사
▁후이족
▁1018
▁실증주의
▁안드레스
▁자동차도
▁황소자리
▁스테인리스
VF
▁숍
▁츨
드기
사위
헤르
▁JO
▁NR
▁개점
▁뉴딜
▁단가
▁로토
▁매점
▁목공
▁벤트
▁실기
▁아덴
▁염분
▁오군
▁우발
▁자구
▁접점
▁주범
▁지롱
▁진척
▁출원
▁킹덤
▁폐포
▁홍가
▁화형
▁휴즈
▁242
▁Lee
▁PCI
▁뉴타운
▁당진시
▁메이스
▁상층부
▁소비량
▁아세안
▁유리창
▁이고르
▁이나바
▁자연석
▁장수군
▁주택가
▁틀림없
축구연맹
▁1689
▁Last
▁간선도로
▁대하드라마
by
▁젱
더넷
델리
도치
롭스
mun
▁국조
▁기우
▁레진
▁말초
▁반부
▁반승
▁사대
▁서무
▁스캐
▁시화
▁아웅
▁암행
▁연전
▁영인
▁원죄
▁일찌
▁작풍
▁재촉
▁평점
▁해답
▁615
▁겐로쿠
▁메이든
▁반자동
▁베르겐
▁복사본
▁소유스
▁이더넷
▁장방형
▁카시니
▁판무관
▁1750
▁뉴저지주
▁요한네스
▁핼리팩스
▁Inter
▁뤽
bit
▁jp
▁갤리
▁공언
▁광의
▁금수
▁나눗
▁단형
▁대미
▁랠프
▁록과
▁베텔
▁빈부
▁사루
▁상형
▁수각
▁숙적
▁식욕
▁신월
▁예지
▁위서
▁차고
▁최현
▁통달
▁협공
▁히젠
레이저
스턴트
▁580
▁GSL
▁Val
▁동래구
▁따라잡
▁로이터
▁성악가
▁신천지
▁제곱근
▁최고점
▁평가전
▁협력자
▁확장자
▁mark
▁분청사기
▁스타워즈
▁요시모토
▁에뮬레이터
31
▁궈
루치
자매
▁고심
▁농상
▁대운
▁막심
▁반디
▁삼색
▁쇼어
▁수크
▁시추
▁쌍극
▁악성
▁앙겔
▁옹기
▁요로
▁이쪽
▁잎겨
▁적위
▁주리
▁주영
▁참지
▁충효
▁카산
▁태초
▁팽팽
▁피복
▁희종
나이더
▁Cap
▁URL
▁곡성군
▁나눗셈
▁대축일
▁분당구
▁불국사
▁성전환
▁오스본
▁요시마
▁처인구
▁총인구
▁Want
▁구이저우
▁오리온스
▁하세가와
▁하토야마
▁헤이세이
▁호그와트
▁Party
▁잎겨드랑이
▁넛
장치
▁건재
▁결산
▁고흐
▁나돌
▁두들
▁들키
▁루블
▁리전
▁반출
▁부차
▁생강
▁샤흐
▁수운
▁식초
▁예니
▁용강
▁의창
▁자강
▁조양
▁치프
▁컬럼
▁크렘
▁후금
절제사
soft
▁dis
▁고이치
▁니시노
▁디제이
▁사업장
▁소대장
▁알렉상
▁오세훈
▁쥐아과
▁투성이
▁1774
▁Boys
▁도치기현
▁마르코프
▁무하마드
▁아칸소주
▁해방전선
▁style
▁조로아스터
▁테오도시우스
▁National
96
츠카
lus
oon
▁CW
▁GA
▁Oh
▁강직
▁군축
▁당근
▁도굴
▁막사
▁메흐
▁면책
▁박노
▁생동
▁샤토
▁순결
▁슈리
▁연의
▁이왕
▁조스
▁촘촘
▁하도
▁한가
▁해미
베스트
빌리시
의사당
ends
▁JYP
▁로터리
▁법체계
▁볼프스
▁상당구
▁수없이
▁역사관
▁윌리암
▁전화기
▁정의역
▁집행부
▁퀘벡주
▁1624
▁마르티노
▁바르바로
▁아이러니
▁전륜구동
▁트빌리시
UB
ms
▁륭
쿠프
▁-"
▁값싸
▁강주
▁경련
▁교습
▁굽타
▁기화
▁남우
▁남침
▁노장
▁데빌
▁도다
▁레테
▁롬멜
▁부팅
▁비축
▁빅스
▁산골
▁슬립
▁시프
▁야사
▁차녀
▁참회
▁택배
▁토와
▁펜타
▁편이
▁현세
▁후부
gram
▁403
▁공고히
▁대유행
▁로그인
▁미라이
▁버추얼
▁세자빈
▁신속히
▁신정부
▁에라스
▁윤봉길
▁적당히
▁종교인
▁킹스턴
▁테일즈
▁피터슨
▁1617
▁Take
▁올리비아
▁남해고속도로
▁룹
▁잿
나디
몬테
분리
소나
틸라
펄스
▁각류
▁과당
▁김무
▁남사
▁놀리
▁닫힌
▁리의
▁물망
▁시해
▁악수
▁암각
▁우바
▁이티
▁임수
▁정안
▁종인
▁중턱
▁천동
▁캘러
▁캘리
▁할레
▁후불
망원경
ould
▁252
▁274
▁295
▁910
▁Son
▁per
▁그라드
▁남다르
▁빨치산
▁수영복
▁아사노
▁알자스
▁제자리
▁지급시
▁커스텀
▁플라워
▁1603
▁Come
▁뒤떨어지
▁바이너리
▁스테이크
▁이와쿠라
▁인스턴트
▁중성자별
▁크라쿠프
바니
사람
흥사
▁CB
▁가운
▁각칙
▁고슴
▁내심
▁넬리
▁러쉬
▁멸하
▁민수
▁밀폐
▁벤조
▁삼지
▁소의
▁실학
▁실형
▁양립
▁연원
▁영변
▁오무
▁원환
▁육로
▁행의
▁혜종
▁호군
벌랜드
arth
▁670
▁Som
▁가만히
▁강북구
▁갤러거
▁고조부
▁구치소
▁도함수
▁리에주
▁물러가
▁미라클
▁발사기
▁야마나
▁이용해
▁지부장
▁헤르츠
ATION
▁바이올리
▁베트남어
▁절지동물
▁큰곰자리
▁There
▁color
▁북키프로스
▁바이올리니스트
UE
yo
▁뽐
박해
아치
▁HC
▁감바
▁경미
▁도농
▁도수
▁리세
▁밤낮
▁보닌
▁보부
▁석관
▁솅겐
▁어획
▁여산
▁왜건
▁장판
▁철조
▁통풍
▁트렉
▁펀딩
▁행장
▁호퍼
▁PHP
▁add
▁고품질
▁리간드
▁부유층
▁세이지
▁신이치
▁알타이
▁에나쓰
▁이름나
▁트러스
▁Core
▁고슴도치
▁베네딕트
▁아이치현
▁액세서리
▁외무대신
▁케이블카
▁독립선언서
▁이케부쿠로
▁페르디난도
48
ki
▁헵
긴스
로빈
셔츠
신경
총사
▁RB
▁결절
▁꿀벌
▁남정
▁네발
▁답사
▁대모
▁루체
▁비나
▁산전
▁상좌
▁예스
▁완고
▁윤정
▁천일
▁포물
▁품위
▁화차
▁Que
▁USD
▁고아원
▁관리원
▁발원지
▁베르가
▁살인범
▁슈테판
▁에가와
▁응원가
▁재규어
▁최강전
▁컨버터
▁트란실
▁프리마
▁허벅지
▁long
▁나카야마
▁국회의사당
▁트란실바니아
멜로
삼국
임관
토키
ISC
▁광구
▁권상
▁나경
▁남연
▁뇌전
▁대당
▁대호
▁딱히
▁박규
▁변함
▁소백
▁수달
▁스나
▁스베
▁예부
▁오송
▁외측
▁유경
▁유마
▁청서
▁케미
▁풍년
▁풍물
▁하진
iful
rown
▁ITV
▁기술원
▁루치아
▁리어스
▁맞춤법
▁문경시
▁소문자
▁솔리드
▁수용액
▁알버트
▁어쩌면
▁에미넴
▁오른팔
▁유위법
▁으니까
▁표시기
안토니오
▁1650
▁1758
▁Club
▁아시아나
▁오리엔트
▁주체사상
▁코스모스
▁팟캐스트
▁코네티컷주
▁볼프스부르크
DC
숨에
예스
혀가
▁IG
▁건대
▁기강
▁김책
▁대추
▁레슨
▁류지
▁리암
▁멸시
▁바움
▁분동
▁비결
▁샬롯
▁성무
▁자포
▁장문
▁전립
▁차륜
▁파마
사회당
▁248
▁경전선
▁구부리
▁남북국
▁단숨에
▁당상관
▁동급생
▁매뉴얼
▁매카시
▁무한대
▁새마을
▁스콜라
▁신청서
▁에번스
▁엿보이
▁오두막
▁죄책감
▁지대공
▁축구장
▁코뿔소
▁클레멘
▁한양대
▁스페인인
▁전기철도
▁중선거구
▁크레이지
▁와카야마현
▁아시아나항공
▁퀀
문예
ada
▁감도
▁교행
▁글라
▁남중
▁대격
▁디미
▁또래
▁레시
▁린스
▁미이
▁변절
▁비가
▁사암
▁설파
▁속속
▁스팸
▁심청
▁자임
▁진경
▁최명
▁친부
▁코브
▁트릴
▁황진
리스크
▁und
▁ㅓㅆ었
▁가창력
▁고령군
▁기흥구
▁다방면
▁무색계
▁문학관
▁받침대
▁상대편
▁스테드
▁오야마
▁후쿠치
erson
▁Park
▁Radio
미도
lad
▁*/
▁간과
▁게티
▁관보
▁국을
▁금연
▁꼬이
▁라만
▁라싸
▁사행
▁상냥
▁샐리
▁수형
▁실러
▁예절
▁요란
▁유탄
▁이피
▁잠자
▁장손
▁청해
▁체전
▁치욕
▁쿠즈
▁탈북
스코샤
iano
▁308
▁312
▁달라붙
▁돌핀스
▁몬태나
▁보건부
▁비너스
▁스키장
▁승강기
▁완전열
▁월간지
▁잡혀가
▁헌병대
오세티야
▁1080
▁니시무라
▁마이너스
▁신춘문예
▁처녀자리
▁가이드라인
▁우주망원경
▁숱
노바
대리
덕동
레트
성사
요스
웰스
의지
▁가재
▁금은
▁분전
▁사납
▁안지
▁정방
▁정위
▁증득
▁체형
▁치키
▁탐진
▁폐선
로니키
obal
ters
▁346
▁경전차
▁그라스
▁대공포
▁도시락
▁리버티
▁목적어
▁미네랄
▁산토스
▁상행선
▁서부터
▁스플릿
▁오라클
▁이세민
▁인버터
▁장보고
▁전용선
▁직제학
▁클로스
▁회사법
▁브레스트
▁오디세이
▁David
▁노바스코샤
▁박스오피스
▁보수주의자
▁테살로니키
ex
반응
벨리
슨스
시기
oul
▁강착
▁건원
▁권속
▁나로
▁당인
▁도브
▁물색
▁미남
▁바주
▁신야
▁신오
▁썸머
▁아길
▁야훼
▁예브
▁예테
▁왜소
▁요는
▁익룡
▁일소
▁작정
▁전능
▁조군
▁천민
▁청국
▁초라
▁최연
▁컬트
▁토속
▁피폭
▁혈장
▁협소
▁훌라
드리치
클레어
iter
▁241
▁970
▁PSV
▁고려조
▁고위직
▁과천시
▁녹는점
▁로페즈
▁망가지
▁사용법
▁순서수
▁알바로
▁체르노
▁총연장
▁축전기
▁코브라
▁화천군
▁회의실
▁휴식기
▁2025
▁슈퍼마켓
▁예테보리
▁요시마사
▁남오세티야
▁스프링필드
46
물관
울림
참모
SQL
con
fer
▁결방
▁괴인
▁듀란
▁미정
▁비엘
▁산로
▁산모
▁선례
▁성관
▁순경
▁시지
▁시파
▁외성
▁재치
▁제제
▁종시
▁청어
▁퇴원
▁팬더
▁호앙
야구장
▁269
▁276
▁490
▁MiG
▁구속력
▁도로망
▁드리스
▁라이어
▁모퉁이
▁부총장
▁서고트
▁소화기
▁시에나
▁신고전
▁아와지
▁오타쿠
▁제러미
▁지휘부
▁채권법
▁최충헌
▁피난처
▁화산재
▁훈련기
▁1506
▁1786
▁알렉상드르
▁카보베르데
▁동지중추부사
대륙
돋움
을리
rib
ube
▁GC
▁UM
▁gl
▁개구
▁관등
▁권신
▁김이
▁넉넉
▁대남
▁동고
▁뒷산
▁맞은
▁방편
▁병무
▁붐비
▁선망
▁성터
▁스푸
▁신태
▁십육
▁알선
▁애들
▁역내
▁조음
▁휘장
수수색
▁318
▁가드너
▁구리시
▁김연아
▁법화경
▁불출마
▁샌더스
▁서강대
▁아래층
▁아바타
▁오로치
▁와이즈
▁이치카
▁지배력
▁철광석
▁체사레
▁톰프슨
▁형태학
▁1413
▁1781
▁1785
▁NCAA
▁PROD
▁리얼리즘
▁압수수색
▁우즈베크
▁차례차례
▁라디에이터
▁오카야마현
▁레트로바이러스
LD
▁뜸
교구
라다
이익
▁경동
▁고경
▁김중
▁레기
▁문희
▁미개
▁봉지
▁불공
▁어법
▁여제
▁예매
▁우다
▁정영
▁캄차
▁하바
▁회도
▁가로채
▁건축학
▁구한말
▁나무과
▁둘러보
▁뒤섞이
▁리라는
▁문제삼
▁부산항
▁아오키
▁옮겨가
▁조에쓰
▁추징금
▁함평군
▁헨더슨
ember
▁temp
▁will
▁드와이트
▁미네르바
▁청소년기
▁입헌군주제
아라
▁BA
▁관작
▁교유
▁군법
▁군포
▁노모
▁녹차
▁동단
▁목수
▁몸값
▁배선
▁변칙
▁병용
▁서도
▁서수
▁스도
▁실세
▁에브
▁일전
▁임씨
▁좌안
▁킬링
▁파테
▁팔츠
▁호자
▁299
▁OBS
▁Sal
▁TNT
▁감비아
▁고위급
▁나세르
▁바이크
▁부득이
▁사야카
▁사유지
▁아토스
▁알레한
▁타오르
▁탈북자
▁파도바
▁1618
▁Band
▁필라멘트
▁안달루시아
▁하우스도르프
35
킹엄
100
▁==
▁공납
▁귀결
▁노런
▁다빈
▁단맛
▁망고
▁문왕
▁문익
▁사외
▁서성
▁석영
▁석패
▁성소
▁셜리
▁슐츠
▁앗딘
▁위정
▁유조
▁탁자
▁태산
▁토륨
▁포카
▁폭정
▁해달
▁허수
▁헤밍
▁히가
평장사
▁258
▁279
▁581
▁발돋움
▁볼츠만
▁생명력
▁수출품
▁운전석
▁이상재
▁제니스
▁총면적
▁충실하
▁치타스
earch
▁1614
▁Mach
▁요구사항
▁유한회사
▁트리오스
▁히로히토
▁루이지애나주
렉틱
윳값
▁강산
▁강신
▁개창
▁군신
▁대내
▁랍비
▁무례
▁백선
▁백호
▁베시
▁아귀
▁외주
▁입소
▁잠식
▁전연
▁조속
▁조커
▁타츠
▁퐁텐
▁행실
▁혈중
▁형량
▁홀트
▁희석
리아나
▁525
▁고윳값
▁나오미
▁득표자
▁마그나
▁밑바닥
▁보은군
▁사라왁
▁요시키
▁지요다
▁파슨스
▁퍼블리
▁편집인
▁하지메
▁한자음
▁흥천사
▁히다카
▁1590
▁도미니크
▁마쓰마에
▁슈베르트
▁심플렉틱
▁프레스코
▁에마누엘레
▁와일드카드
▁트리케라톱스
▁솝
게티
공연
버시
조각
▁Hy
▁JK
▁Kh
▁TW
▁금욕
▁내막
▁매키
▁법명
▁비견
▁섬진
▁셰어
▁소질
▁양곤
▁양말
▁얼티
▁예르
▁오너
▁위층
▁이롭
▁접두
▁제소
▁첨사
▁초속
▁촉탁
▁학산
▁혼례
▁홀름
▁화질
▁회이
▁회절
안데르
▁254
▁324
▁730
▁GTX
▁경비원
▁돌출부
▁바스티
▁사부로
▁스쿼시
▁여행객
▁자유시
▁주고쿠
▁한라산
▁해파리
▁독립신문
▁서베를린
▁순회공연
▁플로렌스
▁형제자매
▁오세아니아
▁자유민주연합
VB
다코
레르
열왕
체육
▁강병
▁관복
▁구진
▁난항
▁당해
▁대야
▁딜러
▁망각
▁맞히
▁면밀
▁번트
▁부검
▁불쌍
▁선의
▁섭외
▁셀틱
▁소상
▁시전
▁신일
▁앰프
▁오븐
▁용성
▁위례
▁전상
▁조재
▁찬란
▁협시
▁혹시
가사키
izza
▁게시물
▁노이드
▁동북아
▁맞은편
▁메구미
▁사누키
▁삽입곡
▁선전관
▁시구르
▁신채호
▁아이다
▁오마이
▁유프라
▁저고리
▁필리포
▁News
▁왼손잡이
▁파이낸셜
▁유프라테스
LO
레로
사드
청년
호쿠
ift
▁가칭
▁무연
▁무치
▁미비
▁반스
▁보필
▁본연
▁비숍
▁사에
▁산산
▁손발
▁송사
▁아전
▁어려
▁엑셀
▁유후
▁참파
▁행세
▁혈증
▁후나
▁히에
폴리오
▁272
▁Ext
▁JAP
▁KNN
▁갈고리
▁경찰대
▁나탈리
▁누에바
▁다무라
▁막대기
▁변주곡
▁병리학
▁생산품
▁승하차
▁컴팩트
▁햄버거
▁라인란트
▁막내아들
▁새마을호
▁시구르드
▁야마우치
▁인류학자
▁폴란드어
▁동음이의어
▁튕
벡스
시리
에프
포이
sch
▁FP
▁가다
▁각급
▁격변
▁국책
▁니야
▁니티
▁단바
▁동초
▁로베
▁브룬
▁비화
▁영묘
▁오소
▁와타
▁장계
▁정법
▁정씨
▁조피
▁첨지
▁카푸
▁폴스
▁한식
레이라
베르투
프스키
ache
ving
▁293
▁870
▁Del
▁Kid
▁VfL
▁cle
▁김장생
▁다라니
▁동화사
▁방화벽
▁상공업
▁엥겔스
▁영상물
▁위르겐
▁이그나
▁장학생
▁최익현
▁출신자
▁코시모
▁크누트
▁투수진
▁파이팅
press
▁cent
▁text
▁베이루트
▁스키피오
▁트러스트
▁Songs
▁Trans
▁PRODUC
▁셍
감치
소닉
호테
irc
▁LE
▁간이
▁감격
▁경조
▁기염
▁만민
▁몸담
▁버들
▁봉양
▁쇠락
▁신랄
▁연남
▁음대
▁젊음
▁정가
▁죄악
▁징조
▁최병
▁출옥
▁코만
▁코언
▁피침
▁해골
▁행크
▁화족
쿠츠크
ious
▁335
▁351
▁TBN
▁경유지
▁경의선
▁물리량
▁성삼문
▁순례자
▁아카드
▁작업장
▁지배인
▁칭하이
▁테라스
▁행렬식
▁0000
▁1609
▁NADP
▁다이어트
▁로체스터
▁사르트르
▁슈나이더
▁코카서스
▁이르쿠츠크
▁크라이슬러
▁포트폴리오
딩거
소총
양성
여름
ERT
INE
▁개울
▁경정
▁노니
▁다낭
▁대천
▁미연
▁상왕
▁올슨
▁외인
▁유류
▁유속
▁유어
▁정간
▁정이
▁필러
▁허균
▁호안
▁황국
ider
▁421
▁990
▁CSS
▁HBO
▁Say
▁maj
▁내용물
▁네우스
▁디나르
▁리아노
▁부녀자
▁사마소
▁삼총사
▁아담스
▁옹호자
▁일개미
▁자가용
▁저격수
▁좌익수
▁Mind
▁over
▁암행어사
▁하치노헤
▁페르디난드
▁프라이버시
pl
서관
실린
ets
uss
▁;-
▁OO
▁강계
▁구포
▁극진
▁김근
▁마호
▁몽테
▁무속
▁무임
▁믈라
▁베릴
▁비보
▁소래
▁수일
▁수피
▁신교
▁알스
▁에딘
▁우생
▁일회
▁쟁의
▁주보
▁중증
▁징벌
▁헤매
▁히키
스토이
ruct
▁Fly
▁GPL
▁Lin
▁가마터
▁간쑤성
▁괴로움
▁봉은사
▁수출국
▁실내악
▁유제품
▁조리법
▁주모자
▁탐지기
▁흡혈귀
▁히로키
▁1718
▁Work
▁공동묘지
▁군사령관
▁기독교도
▁부분집합
▁소프트볼
▁오이라트
▁인문주의
▁지명타자
▁Count
HA
SS
▁옻
▁푀
▁헹
네사
숙왕
팔트
프먼
▁계측
▁공증
▁남안
▁단파
▁드골
▁랩퍼
▁바가
▁변인
▁산천
▁소바
▁아체
▁알류
▁야즈
▁양민
▁외르
▁위수
▁유순
▁일문
▁장내
▁장형
▁적개
▁중핵
▁처소
▁타결
▁팍스
▁향사
▁홍조
▁BGM
▁Cat
▁Mad
▁대륙성
▁미유키
▁사계절
▁살라딘
▁세계사
▁아즈텍
▁제라드
▁주유소
▁줄리안
▁충숙왕
▁히데오
다코타주
▁Hard
▁경국대전
▁두루마리
▁마사요시
▁애너하임
▁프레데릭
▁IDOLM
▁수동변속기
78
보트
사슬
센테
제도
▁골반
▁논어
▁다미
▁라세
▁료마
▁루디
▁매상
▁명과
▁미공
▁방주
▁부곡
▁어구
▁연약
▁운트
▁장어
▁장재
▁적설
▁제전
▁지의
▁직간
▁채광
▁체가
▁탈린
▁통곡
▁플립
▁핍박
▁학예
▁후렴
대표제
드로스
사이저
▁405
▁공화제
▁노하우
▁데이즈
▁레베카
▁성장기
▁실학자
▁오티스
▁재처리
▁제닝스
▁제철소
▁조만식
▁콘트라
▁크로우
▁크리크
▁태양풍
▁폭발력
▁풀어내
▁허가서
▁헤일리
안데르탈
▁따라다니
▁수아레스
▁슬라브족
▁중등학교
▁쳐들어가
▁통근열차
▁티베트족
▁네안데르탈
▁넋
▁묀
내기
동국
110
mus
▁HN
▁공청
▁국원
▁굴지
▁기문
▁깃들
▁데브
▁두근
▁런닝
▁마코
▁무종
▁박선
▁본원
▁뻗치
▁뽐내
▁삭과
▁샌타
▁석비
▁성진
▁소꿉
▁수해
▁심성
▁야영
▁영릉
▁오더
▁인덕
▁임천
▁자경
▁존자
▁창가
▁쿠엔
▁크립
▁타가
▁타령
▁타히
▁판자
▁펄프
▁푸리
▁환대
▁환멸
▁황우
▁히카
▁Dec
▁고유종
▁공대공
▁김좌진
▁딜레마
▁로스엔
▁메시아
▁번식기
▁부수찬
▁사리탑
▁사무처
▁세자르
▁순창군
▁유방암
▁작용기
▁챈들러
▁캔버라
▁파이크
▁피오르
▁형태소
▁1050
▁Feel
▁시나가와
▁저스티스
▁코르시카
▁로스엔젤레스
ga
ti
▁딛
▁롄
그란
어마
▁TT
▁고니
▁군영
▁남평
▁노퍽
▁된장
▁로터
▁문동
▁백서
▁볶음
▁아네
▁양승
▁연비
▁영생
▁오야
▁이본
▁임자
▁자꾸
▁전야
▁최유
▁측선
▁코타
▁항속
▁홍종
소수점
아비브
▁Mot
▁급성장
▁대장균
▁도이치
▁마르스
▁부교수
▁신호기
▁애국자
▁오랑캐
▁이산해
▁지휘권
▁포유류
▁회의장
지느러미
cript
▁백조자리
▁선덕여왕
▁신시사이저
▁티베리우스
▁클라우디우스
▁챕
를리
뭉치
뱅이
용수
충제
▁XL
▁건수
▁권제
▁극본
▁김관
▁노로
▁닐슨
▁린지
▁만만
▁반목
▁부성
▁삼청
▁상복
▁숭상
▁원부
▁일월
▁최루
▁쿠타
▁탈주
▁터프
▁필치
▁혈류
▁형세
다코타
박물관
▁Max
▁다카오
▁뒤집히
▁사마시
▁수산업
▁식별자
▁신분증
▁아스투
▁우편물
▁유행어
▁이사국
▁쟁탈전
▁끌어당기
▁밀어붙이
▁불가사의
▁코먼웰스
▁텔아비브
▁하이패스
▁아스투리아스
▁듬
▁슝
애플
조림
121
▁강림
▁구개
▁낙마
▁니조
▁랑고
▁명정
▁모독
▁문전
▁발성
▁번진
▁서포
▁아악
▁안영
▁어거
▁여느
▁영당
▁운남
▁원론
▁위너
▁음정
▁응징
▁자우
▁쥬얼
▁천궁
▁출고
▁키티
▁투리
▁판과
▁프랫
▁하로
▁항고
▁험준
▁황인
▁힐데
베이라
▁기계식
▁노래방
▁덕수궁
▁드웨이
▁만토바
▁말린스
▁매도인
▁브렌트
▁아라시
▁오모리
▁조직법
▁진출권
▁페넌트
▁프로비
▁행선지
▁훈련원
▁비행대대
▁페르소나
▁JAPAN
▁랑고바르드
▁아방가르드
▁올림피아드
▁파라다이스
▁팬터그래프
사건
III
ury
▁BE
▁가택
▁고음
▁공여
▁군제
▁남위
▁다그
▁루마
▁모지
▁물어
▁사동
▁성좌
▁소연
▁송곳
▁악셀
▁안사
▁어색
▁어차
▁엔도
▁우계
▁울버
▁위암
▁일로
▁자자
▁주서
▁직급
▁직영
▁진저
▁집산
▁참혹
▁촌의
▁풀러
▁혜공
르트헤
플라이
▁금천구
▁깊숙이
▁대성공
▁무령왕
▁보관소
▁북극성
▁산화제
▁아람어
▁엔리코
▁영덕군
▁이시영
▁임산부
▁지방선
▁퀘이사
▁활기차
젠테이션
bject
▁1644
▁cont
▁머라이어
▁손해배상
▁자격정지
▁자유로이
▁퓰리처상
▁바르톨로메
▁지중추부사
▁꿩
▁땡
내면
전지
카인
ola
▁골문
▁르비
▁마쿠
▁매국
▁맹주
▁변국
▁서핑
▁스지
▁시책
▁신통
▁오파
▁임치
▁장가
▁종중
▁철인
▁최면
▁칠리
▁포시
▁해식
시아스
지원군
프레드
ular
▁Mil
▁rem
▁고니시
▁기계어
▁다빈치
▁다카다
▁모리타
▁애국가
▁에비스
▁에어백
▁웨이드
▁음모론
▁캄차카
▁태양신
▁호치민
▁1648
▁Only
▁글리세롤
▁아스팔트
▁일찌감치
▁자유자재
▁제곱미터
▁체르노빌
▁현대그룹
▁월스트리트
▁인민지원군
▁쌈
교사
순환
참배
▁갑사
▁거버
▁공저
▁난동
▁너클
▁돌림
▁매그
▁베링
▁보나
▁분견
▁분홍
▁불빛
▁심기
▁영접
▁장량
▁전계
▁천보
▁천식
▁초유
▁퇴폐
▁흉년
상가상
아지에
ense
▁268
▁780
▁CGV
▁MBA
▁경마장
▁경쟁사
▁공급자
▁구세주
▁다이시
▁덮개돌
▁동해선
▁스크리
▁심상정
▁윌리스
▁응답자
▁이바르
▁작곡자
▁설상가상
▁신사참배
▁테오도르
▁후쿠야마
▁Break
▁베스트팔렌
▁숏
▁탠
같이
공단
ENT
ray
▁go
▁고법
▁광운
▁뉴먼
▁디모
▁래피
▁몽키
▁미도
▁백수
▁섬인
▁셋쓰
▁송치
▁심벌
▁에러
▁에크
▁의안
▁인양
▁초프
▁충원
▁카슨
▁칼데
▁튕기
▁팬택
▁현손
▁환도
▁NFL
▁WOR
▁나치스
▁노량진
▁다이스
▁대용량
▁디저트
▁못지않
▁부교리
▁사업단
▁앨릭스
▁영업소
▁왈라비
▁창업주
▁타카시
▁판매자
렌부르크
타르코스
▁When
▁메인보드
▁안토니우
▁에스메랄
▁윈체스터
▁인피니티
▁라부아지에
▁Microsoft
가족
귀족
러시
은하
▁ll
▁가경
▁거침
▁곤잘
▁나물
▁반찬
▁비음
▁사투
▁앤티
▁여공
▁염오
▁예문
▁우구
▁웬디
▁을과
▁장한
▁재검
▁조쉬
▁초소
▁추돌
▁타타
▁포그
▁한발
▁현주
▁호황
▁휴학
스티니
▁Reg
▁Two
▁jpg
▁다카기
▁단단히
▁돌이키
▁루브르
▁만하임
▁미니애
▁미쓰이
▁베릴륨
▁보르자
▁샤프트
▁서정시
▁세계인
▁틀어지
▁피카르
지상주의
▁1605
▁1637
▁Perf
▁글로리아
▁봄바디어
▁라디오헤드
▁바르바로사
▁부동소수점
▁샌안토니오
▁키르케고르
▁Street
▁미니애폴리스
GL
리얼
무리
ily
put
uch
▁곤경
▁낭인
▁문산
▁반다
▁불그
▁사만
▁서호
▁성리
▁소천
▁아멘
▁영통
▁일격
▁장윤
▁조난
▁쿠도
▁템스
▁파조
▁합주
▁혜화
▁화포
아오르
▁log
▁각본상
▁경공업
▁노팅엄
▁묘지명
▁부시장
▁사용량
▁사우드
▁상속자
▁전문점
▁집무실
▁하시바
▁햄스터
▁현대인
▁가져다주
▁아퀴나스
▁초등학교
▁테레지아
▁major
▁뉴멕시코주
▁애들레이드
▁클라우디오
▁패트리어트
나귀
달라
불화
IME
▁Hi
▁딕슨
▁무이
▁밴더
▁사량
▁시몽
▁시현
▁신평
▁실례
▁여분
▁재연
▁전분
▁제롬
▁조디
▁최태
▁쿨라
▁타역
▁호저
▁황혼
▁회심
네이도
▁261
▁Bet
▁Hel
▁one
▁간간히
▁마도카
▁살인죄
▁선댄스
▁쇼헤이
▁스토아
▁이마트
▁제물포
▁중원소
▁창경궁
▁카라스
▁파킨슨
▁폭풍우
▁하이트
▁함재기
▁Here
▁동물학자
▁브레이커
▁셀룰로스
▁아우크스
▁에밀리아
▁에픽하이
▁연합뉴스
▁토네이도
▁톱니바퀴
알데하이드
▁덕흥대원군
▁Instit
▁오클라호마주
▁아우크스부르크
▁Beautiful
▁늄
비트
웨인
지도
▁각주
▁걸림
▁검지
▁계유
▁권기
▁다당
▁떠들
▁랑선
▁리도
▁면회
▁밀직
▁배쪽
▁버릇
▁복리
▁심양
▁알트
▁원폭
▁윤기
▁이신
▁정답
▁종손
▁초성
▁태반
▁트롬
▁홍차
모비치
▁707
▁Key
▁무인기
▁순전히
▁시황제
▁의열단
▁인제군
▁적어지
▁후원금
onder
▁FIBA
▁신증동국
▁신해혁명
▁예브게니
▁오르내리
▁카타리나
▁워크래프트
▁서울특별시장
▁신증동국여지승람
▁져
궐기
벤토
어붙
▁Cy
▁MF
▁노련
▁디노
▁무심
▁박형
▁분고
▁생합
▁석판
▁압구
▁야곱
▁어와
▁어용
▁어질
▁역부
▁열흘
▁오웰
▁육수
▁적기
▁적진
▁정력
▁정한
▁지스
▁창호
▁친자
▁켄지
▁토호
▁틸라
▁홈스
메이터
edia
▁EFL
▁Got
▁TOK
▁노리오
▁니시오
▁도리아
▁돌려받
▁사과문
▁사이비
▁소리치
▁슈퍼맨
▁스폰지
▁엘레오
▁여단장
▁총궐기
▁카자크
▁칵테일
▁피터스
숭록대부
▁1760
▁대프랑스
▁마법소녀
▁베네벤토
oy
▁흄
잔디
턴트
후보
ula
une
▁KA
▁감실
▁그제
▁단막
▁덩이
▁라멘
▁목관
▁바츠
▁스켈
▁점근
▁처사
▁추크
▁카티
▁콜먼
▁하북
▁헤즈
▁협성
▁호노
▁흑룡
▁흑점
군다나
글로빈
뮤지스
주머니
▁259
▁284
▁475
▁과수원
▁교수진
▁그림책
▁김덕령
▁네이선
▁마키노
▁명문가
▁뭄바이
▁바운드
▁원자재
▁이심률
▁증기선
▁카르텔
▁표준궤
▁히카루
자치단체
▁Some
▁베르베르
▁사라고사
▁세르히오
▁슈뢰딩거
▁조선귀족
르트헤이트
▁나인뮤지스
▁통일민주당
▁아파르트헤이트
OX
▁꼰
날리
뮤직
바루
배기
oot
▁경악
▁계위
▁꼭지
▁네로
▁단죄
▁더디
▁동광
▁르망
▁리놀
▁본교
▁산역
▁샤워
▁선녀
▁수액
▁스오
▁쏠리
▁왕도
▁자칫
▁장산
▁재계
▁지노
▁청학
▁초저
▁치치
▁침탈
▁튜더
▁파키
▁폭도
▁힐드
▁힘겹
부인과
▁317
▁AAA
▁Thr
▁was
▁냉장고
▁마찰음
▁맡아보
▁바누아
▁쌍극자
▁아키코
▁애플렉
▁양산박
▁울리히
▁유인원
▁쫓아가
▁키치너
▁태백시
▁행정학
▁현대사
▁1492
▁Face
▁고해상도
▁더군다나
▁돗토리현
▁만리장성
▁메가데스
SA
go
▁좇
러우
치현
하탄
ICA
PER
▁Bi
▁감면
▁게으
▁고현
▁나흘
▁농약
▁눈여
▁동도
▁동역
▁리엄
▁메클
▁보른
▁붕당
▁상궁
▁서현
▁소거
▁속리
▁야크
▁외딴
▁위관
▁위저
▁윤두
▁임피
▁입점
▁전의
▁총열
▁트윗
▁포춘
▁화보
▁황새
alth
▁KOF
▁WWF
▁걸림돌
▁군위군
▁궁내부
▁나카쓰
▁다케오
▁다코타
▁불기소
▁사파리
▁쇼토쿠
▁스카웃
▁최고령
▁프리즈
프라데시
anger
▁수소폭탄
▁아시아인
▁컨설턴트
▁메클렌부르크
▁Concert
▁PRODUCE
my
▁랫
남북
제트
집행
▁BN
▁FE
▁Ju
▁ㄹ려
▁거위
▁고액
▁꽃피
▁낙서
▁단신
▁덕성
▁동제
▁미덕
▁반자
▁번스
▁불륜
▁상중
▁선악
▁숱하
▁식인
▁신서
▁악취
▁연두
▁외조
▁우키
▁전출
▁종수
▁패튼
▁277
▁840
▁OEM
▁건축사
▁기념탑
▁나한상
▁니콜로
▁라운지
▁리오넬
▁마리안
▁불순물
▁사라센
▁얼어붙
▁에드먼
▁인증서
▁중력장
▁철자법
▁카르멘
▁1759
▁사단법인
▁시어머니
▁하타모토
▁while
▁자유민주주의
▁티라노사우루스
43
국영
기성
방위
여대
의동
테론
▁권능
▁귀비
▁노반
▁눌리
▁뒤바
▁디언
▁디프
▁라베
▁명군
▁미끼
▁벌거
▁별거
▁보덕
▁불시
▁산부
▁술부
▁시효
▁신제
▁실과
▁양인
▁윤동
▁윤성
▁잡아
▁재수
▁점액
▁집터
▁챔프
▁첨정
▁초지
▁펠라
▁행랑
▁혼성
▁326
▁331
▁375
▁485
▁라일리
▁리보솜
▁면역계
▁무수히
▁브로스
▁블라인
▁사자상
▁상승세
▁새크라
▁서포트
▁엎드리
▁역전사
▁장준하
▁컬리지
▁훈구파
ather
▁1779
▁군국주의
▁나무껍질
▁다이나믹
▁장로교회
▁프로스트
▁새크라멘토
▁애니메이터
▁념
무니
중심
크롬
▁고미
▁구술
▁귀가
▁금세
▁내비
▁도처
▁뒷발
▁로커
▁부강
▁비올
▁서대
▁소고
▁아두
▁어빙
▁여명
▁위독
▁육계
▁중편
▁천시
▁평강
▁폐번
▁향약
▁황교
▁황희
코스터
▁740
▁SSG
▁fis
▁개혁파
▁건조물
▁고장나
▁기관포
▁대화재
▁더블유
▁번호판
▁산책로
▁수목원
▁스타니
▁십진법
▁연구가
▁연방제
▁외동딸
▁이창호
▁티투스
▁편미분
▁흑기군
비르스크
▁1526
▁다카히로
▁들이닥치
▁마흐무드
▁임상시험
▁폐번치현
▁푸에르토
▁롤러코스터
ba
▁볏
▁햐
다비
메탈
배추
양요
치슨
표범
als
▁IQ
▁격식
▁교편
▁김사
▁다부
▁도너
▁레츠
▁반음
▁발차
▁보시
▁산면
▁선관
▁성욕
▁소보
▁수꽃
▁수포
▁어두
▁유호
▁윤용
▁인준
▁재밌
▁재지
▁점자
▁좌도
▁쿠파
▁폐사
▁폐색
▁핸콕
▁휴직
▁830
▁기억력
▁니코틴
▁다르마
▁망주석
▁묵시록
▁바버라
▁빙하기
▁상장군
▁생식기
▁생활상
▁예산안
▁운전대
▁전보국
▁정규직
▁페아노
▁ㄴ다거나
▁마리아나
▁발렌타인
▁어마어마
▁올림포스
▁콜론타이
▁수군절도사
▁사우스캐롤라이나주
▁룻
▁몯
▁쭈
바바
밸리
사다
웅렬
켄트
ita
ste
ume
▁cl
▁나하
▁밋밋
▁밍크
▁서운
▁선문
▁송대
▁수병
▁식도
▁양감
▁오줌
▁오테
▁온돌
▁용군
▁육전
▁장생
▁정략
▁조윤
▁종회
▁창제
▁치경
▁콩트
▁페닐
▁홉스
▁히고
▁328
▁760
▁가등기
▁계양구
▁관절염
▁그라프
▁김택용
▁매립지
▁생원시
▁스티스
▁암트랙
▁외아들
▁음악제
▁인형극
▁충격파
▁치료사
▁페렌츠
▁페메니
▁하타케
▁1782
▁Mart
▁라파예트
▁비야레알
▁아흐메드
▁캐롤라인
▁House
▁브리티시컬럼비아주
시키
헨글
ini
▁KV
▁PT
▁견도
▁경운
▁괴한
▁나체
▁달구
▁두꺼
▁둔화
▁딜리
▁로웰
▁매지
▁무언
▁민란
▁송가
▁쇄국
▁스핑
▁연단
▁요람
▁원역
▁융자
▁일용
▁입항
▁주희
▁친서
▁칠드
▁학내
▁한랭
▁현물
▁호서
▁홍경
나파소
디푸스
▁NET
▁SIG
▁경수로
▁라우터
▁리버럴
▁마음먹
▁묀헨글
▁베티스
▁보안관
▁부르키
▁브레스
▁빼돌리
▁세레스
▁수문장
▁안식일
▁우스터
▁원세훈
▁이코스
▁장타율
▁재무부
▁전국구
▁찬송가
▁코스모
▁트레블
▁플로우
▁피날레
▁하늘색
▁현상금
▁히파르
라트바흐
브리아기
▁1772
▁Fore
▁From
▁양아버지
▁오이디푸스
▁올리베이라
▁히파르코스
▁부르키나파소
▁묀헨글라트바흐
런즈
전위
120
ERS
ael
box
▁강지
▁다와
▁동갑
▁목종
▁무니
▁법리
▁북스
▁사액
▁수림
▁술어
▁예과
▁용구
▁우노
▁일국
▁접선
▁카펜
▁튀코
▁황동
▁나오토
▁당나귀
▁들어맞
▁베이더
▁소인수
▁스타킹
▁애버딘
▁예술인
▁우치다
▁이동성
▁진공관
▁킴벌리
▁흥국사
▁Mich
▁동두천시
▁비토리아
▁요르요스
▁피에몬테
▁Happy
▁힌덴부르크
85
▁큘
결핵
음기
장구
uff
▁bl
▁mi
▁가급
▁가덕
▁계율
▁국전
▁근년
▁내국
▁문민
▁바부
▁박민
▁봉고
▁분관
▁분하
▁상리
▁샤우
▁식구
▁쑤이
▁악재
▁알츠
▁연역
▁우금
▁우베
▁우어
▁우장
▁이무
▁장창
▁폐수
▁폐역
▁피조
▁한명
▁항이
▁흥사
대장경
▁ICT
▁고속화
▁고양군
▁대덕구
▁대동맥
▁도코로
▁루아르
▁발명품
▁스마일
▁얼티밋
▁우선시
▁전문지
▁지부티
▁청원군
▁출산율
▁1580
▁1627
▁SLBM
▁love
▁디오니소스
▁알츠하이머
FF
St
dy
결사
제동
칠성
커녕
콜로
토무
ASS
ICE
▁-,
▁BD
▁BY
▁Ev
▁감미
▁계발
▁교미
▁국령
▁그럼
▁김자
▁노랫
▁노심
▁당쟁
▁대곡
▁도회
▁디즈
▁럭스
▁백설
▁베나
▁별동
▁봉래
▁부국
▁블럭
▁선반
▁수트
▁양이
▁연군
▁일경
▁장고
▁재사
▁짓밟
▁플란
▁황정
데우스
손가락
lish
▁357
▁555
▁뉴포트
▁라우팅
▁류성룡
▁박물학
▁베르니
▁벼농사
▁사형수
▁아다치
▁이착륙
▁접두어
▁접착제
▁천연두
▁티셔츠
▁폐막식
▁Java
▁비밀결사
▁스미토모
▁에일리언
▁프레스턴
▁하이드로
▁브래드퍼드
▁오브라이언
모프
무시
미어
세움
소자
재지
충분
허가
혜진
ule
▁간경
▁감무
▁강현
▁건주
▁결석
▁김완
▁다층
▁동탄
▁본상
▁사발
▁상생
▁소파
▁아멜
▁오역
▁울주
▁유노
▁음서
▁주형
▁지모
▁퀄컴
▁토포
▁후설
노이드
돌리드
라노스
재판소
트리히
▁267
▁게리온
▁계절풍
▁레이나
▁마이티
▁매수인
▁메르켈
▁뮌스터
▁불변량
▁시모쓰
▁원자량
▁으라는
▁이사야
▁인쇄물
▁정명훈
▁크리티
▁플레잉
▁플로피
▁1607
▁STAR
▁고군분투
▁니컬러스
▁도야마현
▁마이스터
▁Apple
▁바야돌리드
▁키보디스트
▁Entertain
나트
라시
심판
토록
틀린
해협
혈증
▁"/
▁Wi
▁격문
▁넥스
▁노상
▁니이
▁닛타
▁단청
▁두문
▁등반
▁라보
▁롤프
▁마기
▁명복
▁배관
▁보례
▁삼계
▁안병
▁연가
▁오순
▁윤증
▁은진
▁죽산
▁증시
▁청라
▁첼리
▁쿠미
▁푸가
cept
ware
▁395
▁767
▁관념론
▁동해시
▁드레퓌
▁레이프
▁마수드
▁아래턱
▁아레스
▁양구군
▁옷자락
▁워크숍
▁음운론
▁이마이
▁전광판
불화엄경
▁1649
▁VVVF
▁데스티니
▁서바이버
▁오리엔탈
▁을사조약
▁자치통감
▁Human
▁객관적으로
▁미야자키현
▁네브래스카주
▁Digital
디치
화기
▁ve
▁가래
▁간식
▁과열
▁노즐
▁당직
▁도롱
▁등분
▁로케
▁롤라
▁리피
▁마군
▁맥길
▁명대
▁밀약
▁분모
▁시학
▁연표
▁영진
▁오영
▁육단
▁응오
▁장모
▁적과
▁제련
▁짱구
▁참찬
▁코친
▁티치
▁편마
▁포피
▁한센
▁할례
▁화공
로디테
비사우
ines
▁319
▁338
▁820
▁Div
▁Spe
▁고트족
▁도리스
▁라시드
▁렉싱턴
▁본존불
▁신앙심
▁윤종신
▁이대로
▁이재민
▁청백리
▁칼로리
▁크리올
▁1757
▁1762
▁Fant
▁Fest
▁Head
▁발칸반도
▁베르누이
▁macOS
▁기니비사우
▁아프로디테
▁텡
모델
절로
▁"[
▁TD
▁광안
▁군가
▁금곡
▁난형
▁내동
▁네츠
▁대계
▁대자
▁동편
▁디우
▁명산
▁모종
▁문도
▁미량
▁반수
▁벤더
▁북북
▁분주
▁서녀
▁소종
▁속어
▁수공
▁엄숙
▁윤년
▁인품
▁정남
▁조폐
▁좌부
▁치리
▁치요
▁피선
▁한경
▁해학
▁환국
가리오
이어티
ones
▁292
▁309
▁NXT
▁Set
▁std
▁멋대로
▁
▃
이
하
다
.
에
의
는
ㄴ
로
,
을
지
가
1
고
서
아
은
기
리
0
어
사
으
시
대
스
되
2
를
도
었
년
나
자
수
있
일
았
라
부
그
전
정
국
9
과
주
인
제
들
성
장
구
상
적
동
르
여
3
위
보
오
원
와
공
게
선
트
마
우
드
만
5
조
치
며
중
한
4
화
8
월
미
경
비
학
소
유
교
세
6
신
ㄹ
문
7
개
계
명
역
회
것
연
후
관
면
터
였
등
모
영
프
용
니
발
군
무
산
타
당
"
크
작
데
내
민
방
레
단
재
러
거
음
카
e
해
통
바
반
안
분
생
a
포
차
체
행
키
진
간
호
식
노
o
파
현
남
t
물
히
요
'
양
본
출
r
두
종
루
때
m
속
야
실
토
임
l
던
결
형
강
설
코
표
i
-
각
법
초
디
운
승
배
n
업
태
독
직
버
함
건
록
래
입
피
력
까
S
합
점
불
A
매
최
예
또
않
번
받
티
C
베
같
천
권
메
약
브
말
추
알
왕
더
목
격
심
립
감
u
판
투
청
s
금
처
네
북
항
없
활
달
평
저
따
열
외
란
집
특
언
즈
석
편
복
테
향
T
려
류
병
F
광
변
른
령
B
M
족
페
I
랑
근
람
황
급
름
축
총
존
쓰
송
많
능
c
김
박
술
론
질
참
철
쪽
별
g
f
살
D
울
환
준
증
악
및
올
창
P
품
E
절
쿠
;
곡
육
애
료
백
d
h
플
새
망
돌
글
순
께
&
필
머
확
량
ᄆ
림
패
규
팀
색
N
극
케
너
탈
범
쟁
견
클
)
련
삼
k
O
랜
L
탄
째
R
충
K
린
막
손
봉
책
접
럽
p
날
퍼
_
완
G
츠
못
뒤
협
션
(
든
담
밀
V
런
누
채
길
블
습
/
골
녀
측
혼
온
취
벌
험
즌
귀
암
곳
슈
H
찰
할
허
슬
워
웨
씨
앙
[
]
U
친
y
첫
뉴
칭
높
침
커
효
:
죽
획
널
롭
뜻
응
락
난
착
희
엔
례
센
폭
검
징
잡
~
논
득
b
캐
농
헌
픽
갈
틀
엘
섬
홍
움
풍
느
퇴
택
폴
%
좌
W
럼
층
폐
싱
끝
헤
압
념
덕
앞
맞
즉
혁
윤
걸
맡
턴
율
늘
슨
릭
익
얼
링
갖
텔
염
찬
램
v
묘
팔
컵
잘
벨
엄
콘
궁
빌
맹
렌
줄
균
몇
억
밝
흥
훈
휘
앨
객
옥
푸
먼
칼
써
칸
델
얻
빈
콜
맥
흐
쇼
숙
J
괴
넘
좋
샤
끼
므
뷔
몰
싸
핵
찾
붙
끌
빠
w
볼
놓
템
X
쥐
률
굴
컴
액
탑
떠
룹
뿐
욕
혹
꾸
갑
잠
덴
롯
죄
십
칙
몬
떨
렇
둘
힘
촌
벽
척
풀
먹
몸
략
졸
잉
렉
맨
핀
벤
휴
틴
몽
잔
녹
!
뛰
눈
홈
털
뮤
멀
컬
밖
폰
륙
렵
밴
탁
겨
곤
답
탕
멸
둥
혜
솔
톤
Y
홀
혈
x
윈
팅
넷
셀
돈
컨
겸
롤
낮
냐
칠
딸
쿄
님
탐
텐
톨
ㅏ
퓨
욱
헨
촉
겠
낙
떤
콩
넓
꽃
앤
릴
펜
왜
랙
섭
뇌
렬
읍
붕
옹
킹
=
덜
튜
깨
융
흔
놀
넣
춘
셔
윌
슷
옮
닝
젤
듬
빛
헬
짓
흑
챔
쉽
땅
멘
곧
딩
쌍
켓
즘
팬
뜨
큐
멤
쇄
룡
듀
밤
릉
값
뢰
닉
깝
웅
튼
ㅓ
옛
랭
흡
쉬
납
짜
잇
닌
젠
씩
롱
맺
랫
닥
꼬
젝
겐
뉘
숭
뀌
ㅆ
궤
z
펠
숨
멜
ㅂ
섯
듯
빙
깊
잃
웃
+
끄
핑
셰
웹
캠
|
즐
킨
틱
밍
믿
빅
뷰
텍
찍
큼
긴
덤
엽
돕
랍
잎
펼
틸
멕
띠
쇠
럭
곱
롬
ㅕ
짧
폼
삭
릿
켈
첨
혐
?
Z
켄
빨
듣
져
삶
겪
딘
낭
혀
촬
럴
찌
컷
힐
캘
Q
둔
엇
빼
옆
콤
벗
랄
밑
싶
낳
첩
곽
젊
쌓
꿈
셜
짐
냥
킬
룩
옷
헝
냉
닛
톱
맛
읽
엑
겁
믹
왼
퀴
븐
얀
벡
숲
튀
잭
봄
묵
쿨
뱅
셋
뒷
샌
앗
닐
캄
괄
넬
떻
엠
붉
슴
좀
끊
둑
뿌
웰
첼
덮
씬
늄
밥
녕
쳐
묻
톰
앵
팽
탱
팩
쁘
뤼
픈
숫
뱀
흘
짝
늬
렐
j
댄
렴
캔
셈
쾌
훨
춤
꼽
팝
옌
깔
쫓
륨
겔
닫
횡
뽑
늦
샘
뼈
렘
앉
갤
룸
덩
랗
꼭
흉
펴
벼
좁
륜
멍
햄
룬
봇
끔
펙
뚜
깃
굽
딕
윗
탠
퀸
랩
륭
띄
딜
빗
힌
겹
퀘
궐
덧
첸
쿼
윙
슐
뮌
듭
꺾
삽
쏘
긍
q
셉
묶
껍
홋
렛
펄
펑
흰
꼴
쌀
훌
훗
섞
렀
붓
녁
툰
*
넥
꺼
돔
펀
곰
\
밭
깥
섹
낌
셸
닷
빵
랴
툴
엉
콧
똑
톡
딱
뿔
갱
쩌
훼
팡
닭
컫
늑
풋
틈
킷
{
콕
콰
핸
맷
굳
힙
콥
흙
룽
룰
뇨
떼
빚
핫
뮬
넌
킥
둡
킴
옵
꾼
벳
멈
큰
밸
닿
돼
굿
겉
턱
걷
럿
쑤
샹
퉁
왈
뻗
캡
홉
탓
볍
끈
렷
죠
쓸
닮
눅
샬
쯤
쉐
엣
뚫
릇
굉
릎
쥬
듈
켜
칩
싫
웬
앱
놈
긋
퐁
툼
갓
낱
슘
젖
씌
흠
푼
챌
삿
톈
쿤
펌
딴
맵
얄
걱
넨
쯔
솟
#
팜
옐
륵
잊
솜
댐
캉
렁
덟
짙
곁
멋
돋
헐
쏟
탤
휩
흩
떡
$
얇
밟
얘
굵
핍
덱
꾀
뚝
뭉
텀
둠
훔
끓
댓
맘
옴
밋
햇
빔
괘
꽤
촨
왓
펫
픔
잦
앓
횟
붐
벅
샨
슭
엿
싯
벵
낫
휠
멧
눌
}
꿀
짱
팟
갇
씀
냄
헥
딪
츄
ㅁ
랏
깎
튬
땃
맑
얹
곶
`
몫
얗
뭇
뭐
닦
텝
눕
썰
걀
팍
맏
옳
얽
쟈
윅
캅
끗
슛
춥
엥
쭉
뻔
앰
핏
뱃
욘
뚱
팰
깐
듐
낚
믈
갛
촐
챙
캣
헛
엮
훙
귤
넛
쾰
섀
싣
숀
귄
뫼
썬
쿡
찮
렝
@
뭄
싹
뾰
탬
녜
갯
푹
셴
뮈
삐
얕
돗
딥
덥
샐
깜
줌
웍
렙
늙
펩
낸
딧
샵
슌
탭
꽂
쾨
겟
볶
쪼
뇽
깁
갚
껏
촛
꽝
펭
몹
뻐
썩
퀼
짚
냅
늪
짖
췌
괌
츰
큘
즙
찢
숍
엡
쿰
훤
룻
넉
롄
맬
퓌
빽
텁
뵈
쁨
뮐
뜸
뿜
핼
씻
굶
잼
젯
젓
릅
쵸
퀄
샴
잣
똥
쩔
벚
촘
슝
뤄
꿰
샷
욤
팻
뜯
벙
퓰
밧
엎
껑
윽
멩
땀
괜
댕
켐
궈
댈
ㅣ
튠
텅
낡
뽀
낯
츨
꼼
킵
깅
뇰
밈
캇
멱
뎀
퀀
랠
좡
^
맴
쑹
뮴
챠
팎
뜰
헴
웜
썸
엌
딤
뱌
쿵
팥
칫
캥
왁
꽁
솥
훅
앳
갸
댁
쑨
욜
윔
먀
챈
옙
뎅
쉘
쐐
젬
퍽
얌
넴
쉰
칵
맣
깡
뽕
돛
콴
툭
쑥
줍
쥘
쩍
놉
힉
눔
뺏
찻
쎄
찜
늠
룀
팁
캬
웁
찔
옅
읊
맙
ㄱ
볕
쭈
뺨
잖
딛
샛
썹
넵
쉴
팸
퀵
쨌
븀
숄
쏠
핌
엷
쉼
텡
횃
꿇
젼
쌈
웸
펨
웡
텃
힝
씹
땡
튿
춧
텟
ㅇ
싼
된
씽
뻘
긁
댑
휼
봅
깍
꽉
눗
솝
솅
ㅅ
꺽
뱉
얏
냇
갠
폄
홑
뤽
밉
뎃
뎬
윳
쥔
ㅡ
귈
ㄷ
켤
꼰
젱
됭
숯
뢴
쭤
찹
뜩
륀
꿩
쩡
숏
탸
륄
잿
짤
푀
쌔
헵
숱
뽐
컹
꿉
셍
볜
헹
튕
ㅎ
굼
빡
볏
옻
묄
흄
넋
랸
묀
땜
챕
낵
녘
좇
첵
꿋
껌
놋
햐
밌
몯
뷸
냑
ㅔ
줏
쩐
뻣
핥
헷
갬
짠
짬
챗
셤
탯
썽
쳇
쥰
툇
짊
됨
쟝
똘
탉
덫
눙
넝
욧
갭
겜
닙
넙
쿱
췬
괭
쇤
젭
쭝
훠
뷜
쨩
쓴
귓
콸
솽
껴
튤
닳
꾹
긱
윕
앎
궂
뜬
둬
폿
헉
섣
뚤
벰
쏙
몐
팹
햅
셩
놔
늉
쬐
찐
깟
돤
ㅈ
펍
ㅋ
쳅
톳
뷴
댜
숟
괵
긔
껄
뗏
숑
믐
왑
잰
푈
끽
냘
솁
닻
뵐
쁠
쥴
쳄
겅
듄
왐
꿍
힛
톄
갉
욥
꼿
샥
옇
묽
챤
껀
넹
샅
뻑
쩨
칡
쳉
믄
뺄
뺑
웩
셧
뵤
왠
켁
뭍
퓸
죤
휨
륌
꽈
떳
껫
윰
쭐
뎁
섐
쫄
됴
뻬
팃
낼
줘
빳
ㅗ
틋
휫
뜀
쾡
땔
뵙
빻
윷
쾅
퍄
츤
녓
섕
잽
틔
홰
뢸
씁
웻
켕
솀
퉈
ㅊ
찧
멎
쫑
냠
좨
퓔
ㅍ
렸
퀜
훑
쉔
갔
웽
녠
띵
켠
꽌
깻
뵘
빤
둣
냔
햘
꿔
뼛
쉥
쟌
튈
빕
ㅌ
졍
쯩
뷧
쿈
깽
쏭
ㅜ
쇳
얍
홧
겊
뎨
땋
졔
짭
뱁
찡
꽹
먄
롼
섶
쿳
혓
젋
봐
멥
삯
옘
줴
틍
겼
듸
헙
똔
뻥
켑
궬
뒬
쭌
쌩
ㅐ
뒹
삵
쫒
낟
묠
읏
푄
뎐
붑
뿍
찟
쳔
룅
룔
씰
큅
낏
뷘
큔
씸
쏴
깬
띤
묜
녤
떫
굄
뚬
쑈
엾
뇬
뽁
숩
쏨
읫
폽
젹
쇽
컥
큄
툐
툠
갗
겡
닢
벋
쉿
ㄲ
뉼
섄
숴
츈
듦
쮸
툽
똠
횔
붇
얉
ㅠ
뿡
낄
쐬
졈
퇼
귬
룝
퇘
믜
뱐
퓐
ㅑ
빰
쌤
툉
푯
띔
쏜
졀
짢
펏
뒨
뽈
솎
옝
쯕
촙
밂
쇨
좆
ㅃ
륑
벱
웠
큉
ㅛ
갹
겋
뮨
슥
싀
쾃
틂
ㅉ
궉
멓
셱
숌
낑
튄
ㄸ
낀
죵
넒
릏
캑
짇
덞
떵
쓱
짦
큇
녯
돠
욀
츳
캴
텨
뭔
뱡
쨍
훵
ㅢ
뗀
뼉
삥
얭
ㅒ
뵬
쌕
옭
ㅖ
덛
뿅
썻
왔
춰
긷
꾐
샾
쌉
앴
쨋
쩜
쫀
퀠
틉
ㅟ
묑
뺌
죈
죌
퇀
푁
햏
휙
걔
끙
뚠
횬
껩
꿎
뎡
딨
맟
몌
ㅚ
귿
됸
땝
묏
벧
볘
븓
븡
잌
젔
쳥
캰
쿌
큥
곪
븨
샙
웟
푤
흭
랖
솃
쉑
쪄
곗
랼
뼘
솨
앏
윾
굠
땁
떰
쏸
왬
챵
ㅘ
놘
돝
똣
랐
롸
싁
졉
졌
텬
꺅
뤠
슙
읒
잴
쳬
쳰
걍
겍
꾜
륍
뭣
슉
큭
킁
퇸
퍌
ㅄ
귐
꽥
밞
쉭
죗
쩧
킈
곬
굣
궃
덖
릐
섈
쌋
좐
짹
춉
췐
탼
귁
끎
녈
닑
닯
엳
읗
쟉
챨
췰
쿽
풰
ㅙ
ㅝ
겯
괸
냣
뉸
댠
뎌
됙
뜷
롹
몆
밎
뱟
뽄
삑
옯
츌
했
햔
뀨
뉵
믯
붸
쀼
쌰
읕
읖
쟤
찿
켸
튐
햑
흗
ㅞ
궨
긑
녬
늡
듕
똬
솬
슯
읻
죡
쵤
춍
핬
혠
훕
휀
늴
댱
돐
먁
셕
셥
왝
윁
읔
쥣
즁
쫌
쫙
찝
틑
퍈
괼
굘
뇩
뒴
떱
룟
왱
좃
즛
쨈
쨔
쾍
튱
ㄺ
ㄼ
껭
꿘
뀍
녑
됀
묫
믕
섧
섰
쎌
엊
읓
졘
쳡
햣
겻
곯
궜
낢
밪
볓
뺀
뺐
삘
슾
옉
짯
쩬
쮠
챡
캪
텽
ㄳ
ㄻ
ㅀ
걲
뙈
뚧
륏
륩
맻
벛
섥
앝
엹
읃
잍
잛
죔
쭘
쯧
촤
퀑
큠
튁
푠
횐

ㄿ
꺄
꼍
녔
뇸
뉙
뙤
뜽
랬
뢱
밷
뻰
삔
솓
썅
쎅
쏱
쒸
욺
윱
짼
첬
촹
츔
퀌
턔
풂
햠
휜
ㄽ
겇
꼳
눞
늣
딫
땐
맽
뱔
섁
슁
엤
왹
욍
읜
읺
짫
츼
픙
ㄵ
ㄾ
귑
껸
꽛
눼
닏
뎜
될
듧
묭
묾
뵨
븜
빋
빱
뺘
쁜
삳
얐
얶
옜
왯
욷
읠
졋
쨘
쭙
쮜
켯
콀
쾬
쿙
푕
휭
ㄶ
갣
겿
꿕
낻
뉻
닸
덪
돟
둗
듁
땟
뚯
띡
띨
렫
롐
룐
멉
벴
쌘
쏫
얆
얾
욋
웤
잏
잗
쟛
쫏
챰
쳑
컁
켬
콱
큽
탘
퍙
픠
햤
횻
곂
곈
곷
괏
깯
깸
꽅
꾿
넗
뉨
늗
닜
닺
됩
땨
땸
떄
뙡
랟
럇
룁
몃
뭏
볻
봔
븍
뺴
뻴
섿
슽
쌴
씼
엶
옫
옸
쟐
좔
짔
쩝
쬼
쯘
챱
촥
쵹
쵼
춋
쾀
톺
톼
퐝
혤
훽
걈
겆
곙
굥
깆
깩
꽆
꾄
꾕
넀
넢
넫
녇
닽
댛
덨
뎰
됫
둏
뒸
뗑
럄
뢨
먈
멂
몔
뫃
뮹
믓
믾
뷁
빝
샇
쇵
싻
쎙
쑜
욈
읆
쟂
쟙
젇
쩽
찓
쳘
쳣
춈
츅
츙
콛
콬
퀍
탙
텦
툿
튽
폘
햗
헿
홤
홥
횰
횽
휑
흝
흫
힁
ᄀ
갂
갘
걑
걺
곌
괂
깉
꺠
껶
꽦
꿏
뀀
났
냬
넖
녣
놰
뇻
늇
덝
뎍
뎦
돴
됄
됏
됮
둄
뒈
듫
떽
뗴
띱
럅
렢
롈
뤀
뤗
륻
몄
뫄
뭘
밣
붘
뷕
븥
빎
뽓
뿟
삠
삡
삮
샏
섓
셖
솦
솻
쇘
숰
숳
쉉
쉡
쎔
쓔
앟
앧
얖
얺
엜
엵
욌
욯
윶
읭
읳
읹
쟘
졜
졷
좽
줫
쥠
쩄
쩰
쫜
쬔
쬬
찣
챦
쵝
츕
츩
콮
퀭
툥
튝
푱
풉
퓬
핟
핮
핶
핻
홛
홱
횄
횩
훍
훓
훝
흿
갃
걋
겂
겄
겣
곅
곘
굑
굔
궅
귝
깂
깢
깹
껙
껼
꼇
꼐
꽐
끕
냡
넎
넡
넶
녝
뇔
뉫
늚
늰
댤
덣
뎠
돎
돚
돵
돽
둰
둴
둿
뒁
뒥
뒫
듥
딷
뗌
뗘
똫
뙨
뛔
뜌
띳
랒
럐
럔
렜
렡
롑
롓
뤌
맄
맆
맜
먗
먿
몀
몴
뫙
뭅
뭰
뮝
믏
믠
밒
밨
밫
밯
뱆
뱜
벉
봍
봘
뵉
뵷
붏
붖
붛
붜
붴
뷋
뺩
뺵
뼁
뼤
삣
삻
샂
샊
섦
셑
쇗
숡
숸
슼
싈
싰
싲
싾
쎕
쎴
쏩
쏳
쐇
쑴
쒜
쓿
씃
씉
앃
앋
얅
엩
옄
옰
옲
옺
왰
윘
윟
읅
읶
읿
잋
잩
젣
젿
죰
줓
쥭
즤
짗
쨉
쩸
쫃
쫍
춴
췅
칲
칳
캌
캭
컈
켙
콙
퀏
킼
턀
텉
텥
톹
퇌
퇻
퉤
틧
팈
팯
퍅
퍠
폅
폔
폳
퐈
푣
풜
핔
핳
햊
햋
혔
혿
홅
홯
횓
횢
휄
휏
힜
갅
갆
갊
갋
갌
갍
갎
갏
갞
갟
갡
갢
갥
갦
갧
갨
갩
갪
갫
갮
갰
갲
갳
갴
갵
갶
갷
갺
갻
갽
갾
갿
걁
걂
걃
걄
걅
걆
걇
걉
걊
걌
걎
걏
걐
걒
걓
걕
걖
걗
걙
걚
걛
걝
걞
걟
걠
걡
걢
걣
걤
걥
걦
걧
걨
걩
걪
걫
걬
걭
걮
걯
걳
걵
걶
걹
걻
걼
걽
걾
걿
겈
겎
겏
겑
겒
겓
겕
겖
겘
겙
겚
겛
겞
겢
겤
겥
겦
겧
겫
겭
겮
겱
겲
겳
겴
겵
겶
겷
겺
겾
곀
곃
곆
곇
곉
곊
곋
곍
곎
곏
곐
곑
곒
곓
곔
곕
곖
곚
곛
곜
곝
곲
곹
곺
괁
괍
괕
괗
괠
굇
굦
굻
궇
궎
궘
궝
궡
궷
귯
긆
긜
긧
긪
긾
깄
깋
깓
깖
꺌
껠
껬
꼈
꼮
꾈
꿧
뀜
끟
낛
낣
낲
냤
넁
넏
넑
넚
넞
녋
녙
놃
놧
놩
뇍
뇓
뇜
눋
눝
뉩
늅
늏
늕
늩
늿
닁
닞
닟
닠
댇
댔
댚
댝
댸
덙
덯
뎗
뎝
돇
돍
돓
돰
됍
됢
됰
됼
둉
둙
둚
둟
둧
뒵
듲
듳
듹
듼
딀
딈
딭
딯
딲
땍
땽
떘
떙
떢
떥
떦
떪
떯
뗄
뗼
뚷
뚸
뚼
뜁
띁
띅
랃
랓
랕
랛
랢
랰
랲
럈
럘
럲
럻
렃
렆
렗
렠
렣
롣
롲
뢀
뢉
룍
룧
룯
뤈
뤘
뤨
뤰
뤳
뤵
륐
륫
륱
륽
릌
릍
릘
릫
릳
맀
맃
맊
맍
맔
맕
맗
맠
맢
먓
먕
먘
먾
멏
멪
멵
몊
몪
뫂
뫈
뫔
묺
뭌
뭴
믁
밚
밠
밬
뱍
뱓
벏
벐
벓
벹
볃
볈
볿
봋
봌
봣
봥
뵛
뵝
붊
붔
붠
붵
뷀
뷃
뷤
븃
븕
븝
븟
빍
빧
빩
뺙
뺬
뺸
뺼
뻇
뻠
뻡
뻤
뻩
뻼
뽝
뿗
뿝
쀍
쁭
삜
샆
샞
섊
섡
섨
섵
섷
셒
셨
솏
솑
쇡
쇰
숔
숖
숮
쉅
쉠
슢
슦
슳
싄
싡
싦
싪
싵
싿
쌁
썊
썪
쎗
쎼
쎾
쐉
쐑
쐼
쑷
쓘
씜
앀
앆
앖
앚
앛
앹
앾
얂
얃
얊
얜
얨
얫
엗
엪
옂
옏
옽
옾
왇
왘
왙
왤
왿
욨
욽
욿
웆
웇
웑
웝
윋
윥
읂
읇
읋
읐
읙
읟
읷
잂
잆
잙
잚
잧
잨
쟃
쟇
쟬
젃
젆
젏
젗
젙
젲
젵
졩
졶
좍
좧
죕
죳
줃
줜
줼
쥉
쥤
쥥
쥼
쥿
즑
즞
짎
짛
짥
쨜
쨤
쩟
쩩
쩹
쩻
쪗
쪤
쫗
쫘
쭁
찯
챂
첟
첯
첲
쳠
쳤
촏
촣
쵀
쵣
춛
춝
춟
춭
췍
췡
췩
췽
츹
칯
칱
캎
캿
컅
컺
켰
켱
켼
콭
쾁
쾩
쾻
쾽
쿸
쿹
퀩
퀫
큎
큣
큹
킄
킌
킽
탇
탣
탶
턚
텛
텤
텰
텸
텻
텼
툅
툘
툱
퉜
튭
튻
틜
틩
팉
팑
팠
팤
팦
퍁
펲
폏
폶
퐃
퐅
퐌
퐷
푓
푝
픅
픝
픞
핃
핓
핝
핞
핢
핦
핧
핱
핲
햝
햡
