{"version":"1.0","truncation":null,"padding":null,"added_tokens":[{"id":0,"special":true,"content":"[UNK]","single_word":false,"lstrip":false,"rstrip":false,"normalized":false},{"id":1,"special":true,"content":"[CLS]","single_word":false,"lstrip":false,"rstrip":false,"normalized":false},{"id":2,"special":true,"content":"[SEP]","single_word":false,"lstrip":false,"rstrip":false,"normalized":false},{"id":3,"special":true,"content":"[PAD]","single_word":false,"lstrip":false,"rstrip":false,"normalized":false},{"id":4,"special":true,"content":"[MASK]","single_word":false,"lstrip":false,"rstrip":false,"normalized":false}],"normalizer":{"type":"Sequence","normalizers":[{"type":"StripAccents"}]},"pre_tokenizer":{"type":"WhitespaceSplit"},"post_processor":{"type":"TemplateProcessing","single":[{"SpecialToken":{"id":"[CLS]","type_id":0}},{"Sequence":{"id":"A","type_id":0}},{"SpecialToken":{"id":"[SEP]","type_id":0}}],"pair":[{"SpecialToken":{"id":"[CLS]","type_id":0}},{"Sequence":{"id":"A","type_id":0}},{"SpecialToken":{"id":"[SEP]","type_id":0}},{"Sequence":{"id":"B","type_id":1}},{"SpecialToken":{"id":"[SEP]","type_id":1}}],"special_tokens":{"[CLS]":{"id":"[CLS]","ids":[1],"tokens":["[CLS]"]},"[SEP]":{"id":"[SEP]","ids":[2],"tokens":["[SEP]"]}}},"decoder":null,"model":{"type":"WordPiece","unk_token":"[UNK]","continuing_subword_prefix":"##","max_input_chars_per_word":100,"vocab":{"[UNK]":0,"[CLS]":1,"[SEP]":2,"[PAD]":3,"[MASK]":4,"!":5,"\"":6,"#":7,"$":8,"%":9,"&":10,"'":11,"(":12,")":13,"*":14,"+":15,",":16,"-":17,".":18,"/":19,"0":20,"1":21,"2":22,"3":23,"4":24,"5":25,"6":26,"7":27,"8":28,"9":29,":":30,";":31,"<":32,"=":33,">":34,"?":35,"@":36,"A":37,"B":38,"C":39,"D":40,"E":41,"F":42,"G":43,"H":44,"I":45,"J":46,"K":47,"L":48,"M":49,"N":50,"O":51,"P":52,"Q":53,"R":54,"S":55,"T":56,"U":57,"V":58,"W":59,"X":60,"Y":61,"Z":62,"[":63,"\\":64,"]":65,"^":66,"_":67,"`":68,"a":69,"b":70,"c":71,"d":72,"e":73,"f":74,"g":75,"h":76,"i":77,"j":78,"k":79,"l":80,"m":81,"n":82,"o":83,"p":84,"q":85,"r":86,"s":87,"t":88,"u":89,"v":90,"w":91,"x":92,"y":93,"z":94,"{":95,"|":96,"}":97,"~":98,"":99,"ᄀ":100,"ᄁ":101,"ᄂ":102,"ᄃ":103,"ᄄ":104,"ᄅ":105,"ᄆ":106,"ᄇ":107,"ᄈ":108,"ᄉ":109,"ᄊ":110,"ᄋ":111,"ᄌ":112,"ᄍ":113,"ᄎ":114,"ᄏ":115,"ᄐ":116,"ᄑ":117,"ᄒ":118,"ᅡ":119,"ᅢ":120,"ᅣ":121,"ᅤ":122,"ᅥ":123,"ᅦ":124,"ᅧ":125,"ᅨ":126,"ᅩ":127,"ᅪ":128,"ᅫ":129,"ᅬ":130,"ᅭ":131,"ᅮ":132,"ᅯ":133,"ᅰ":134,"ᅱ":135,"ᅲ":136,"ᅳ":137,"ᅴ":138,"ᅵ":139,"ᆨ":140,"ᆩ":141,"ᆪ":142,"ᆫ":143,"ᆬ":144,"ᆭ":145,"ᆮ":146,"ᆯ":147,"ᆰ":148,"ᆱ":149,"ᆲ":150,"ᆳ":151,"ᆴ":152,"ᆵ":153,"ᆶ":154,"ᆷ":155,"ᆸ":156,"ᆹ":157,"ᆺ":158,"ᆻ":159,"ᆼ":160,"ᆽ":161,"ᆾ":162,"ᆿ":163,"ᇀ":164,"ᇁ":165,"ᇂ":166,"ㄱ":167,"ㄲ":168,"ㄳ":169,"ㄴ":170,"ㄵ":171,"ㄶ":172,"ㄷ":173,"ㄸ":174,"ㄹ":175,"ㄺ":176,"ㄻ":177,"ㄼ":178,"ㄽ":179,"ㄾ":180,"ㄿ":181,"ㅀ":182,"ㅁ":183,"ㅂ":184,"ㅃ":185,"ㅄ":186,"ㅅ":187,"ㅆ":188,"ㅇ":189,"ㅈ":190,"ㅉ":191,"ㅊ":192,"ㅋ":193,"ㅌ":194,"ㅍ":195,"ㅎ":196,"ㅏ":197,"ㅐ":198,"ㅑ":199,"ㅒ":200,"ㅓ":201,"ㅔ":202,"ㅕ":203,"ㅖ":204,"ㅗ":205,"ㅘ":206,"ㅙ":207,"ㅚ":208,"ㅛ":209,"ㅜ":210,"ㅝ":211,"ㅞ":212,"ㅟ":213,"ㅠ":214,"ㅡ":215,"ㅢ":216,"ㅣ":217,"##ᅭ":218,"##ᄌ":219,"##ᅡ":220,"##ᅮ":221,"##ᆼ":222,"##.":223,"##ᄀ":224,"##ᅩ":225,"##ᄃ":226,"##ᅳ":227,"##ᄒ":228,"##ᆨ":229,"##R":230,"##I":231,"##Z":232,"##M":233,"##ᄋ":234,"##ᅵ":235,"##ᅲ":236,"##ᅦ":237,"##ᄉ":238,"##ᄇ":239,"##ᆺ":240,"##ᄑ":241,"##ᆫ":242,"##ᄆ":243,"##ᅪ":244,"##ᅧ":245,"##'":246,"##ᅥ":247,"##ᆻ":248,"##ᄂ":249,"##ᅱ":250,"##ᆷ":251,"##ᄏ":252,"##ᅨ":253,"##ᄎ":254,"##-":255,"##1":256,"##6":257,"##A":258,"##ᅢ":259,"##ᆸ":260,"##ᅯ":261,"##ᄅ":262,"##ᆯ":263,"##ᄐ":264,"##V":265,"##E":266,"##X":267,"##5":268,"##0":269,"##/":270,"##ᅴ":271,"##ᄁ":272,"##ᅣ":273,"##C":274,"##U":275,"##j":276,"##x":277,"##t":278,"##g":279,"##k":280,"##d":281,"##s":282,"##h":283,"##T":284,"##4":285,"##i":286,"##r":287,"##o":288,"##,":289,"##ᇂ":290,"##!":291,"##ㅞ":292,"##ㅄ":293,"##9":294,"##ᇁ":295,"##p":296,"##D":297,"##ᇀ":298,"##e":299,"##a":300,"##l":301,"##:":302,"##y":303,"##u":304,"##c":305,"##m":306,"##%":307,"##3":308,"##ᄄ":309,"##\"":310,"##(":311,"##)":312,"##;":313,"##~":314,"##ᅬ":315,"##ᆹ":316,"##ᆽ":317,"##+":318,"##2":319,"##8":320,"##ᅫ":321,"##ᅰ":322,"##B":323,"##7":324,"##n":325,"##P":326,"##_":327,"##S":328,"##L":329,"##ᄍ":330,"##ᄊ":331,"##?":332,"##H":333,"##b":334,"##ᆮ":335,"##G":336,"##ᄈ":337,"##w":338,"##&":339,"##W":340,"##=":341,"##N":342,"##@":343,"##f":344,"##F":345,"##K":346,"##[":347,"##]":348,"##J":349,"##ᆰ":350,"##v":351,"##O":352,"##ᆭ":353,"##q":354,"##>":355,"###":356,"##ᆾ":357,"##ᅤ":358,"##ㅣ":359,"##ᆩ":360,"##<":361,"##Y":362,"##ᆶ":363,"##ᆲ":364,"##*":365,"##ᆿ":366,"##z":367,"##{":368,"##^":369,"##}":370,"##ㅙ":371,"##ㄽ":372,"##Q":373,"##`":374,"##ㅡ":375,"##ㅊ":376,"##ᆱ":377,"##ㅋ":378,"##ㅢ":379,"##ㅆ":380,"##ᆬ":381,"##ㅅ":382,"##ㅇ":383,"##ㅈ":384,"##ㅓ":385,"##ㅗ":386,"##|":387,"##\\":388,"##ㅏ":389,"##ㅠ":390,"##ㄵ":391,"##ㅒ":392,"##ㅎ":393,"##ᆵ":394,"##ᆴ":395,"##ㄴ":396,"##ㅘ":397,"##$":398,"##ㄲ":399,"##ᆪ":400,"##ㄹ":401,"##ㄱ":402,"##ㅍ":403,"##ㅁ":404,"##ㅚ":405,"##ㄻ":406,"##ㄾ":407,"##ㅔ":408,"##ㄷ":409,"##ㅛ":410,"##ㄼ":411,"##ㄶ":412,"##ㅜ":413,"##ㄿ":414,"##ᆳ":415,"##ㅃ":416,"##ㅝ":417,"##ㅉ":418,"##ㅌ":419,"##ㅕ":420,"##ㅂ":421,"##ㅖ":422,"##ㄺ":423,"##ㅑ":424,"##ㄳ":425,"##ㅐ":426,"##ㅟ":427,"##ㅀ":428,"##ㄸ":429,"##":430,"##이":431,"##ᅳᆫ":432,"##ᅳᆯ":433,"##ᅡᆫ":434,"##다":435,"##는":436,"##에":437,"이":438,"##다.":439,"##로":440,"##ᅡᆼ":441,"##ᅥᆫ":442,"##의":443,"##하":444,"##지":445,"##을":446,"##ᅧᆫ":447,"##서":448,"##가":449,"##고":450,"##어":451,"##도":452,"##리":453,"##ᅮᆫ":454,"##시":455,"##ᅧᆼ":456,"##으":457,"##ᅡᆯ":458,"##를":459,"##기":460,"##은":461,"##라":462,"##스":463,"##한":464,"##해":465,"##저":466,"##ᆻ다.":467,"##ᅩᆼ":468,"##ᅮᆯ":469,"아":470,"시":471,"##인":472,"##ᅧᆨ":473,"##나":474,"##ᅩᆨ":475,"그":476,"##자":477,"가":478,"##게":479,"##으로":480,"##에서":481,"##아":482,"##ᅩᆫ":483,"하":484,"사":485,"##과":486,"저":487,"##ᅳᆼ":488,"##ᅮᆨ":489,"##들":490,"거":491,"지":492,"##면":493,"##만":494,"어":495,"##워":496,"마":497,"##ᅮᆼ":498,"##되":499,"##니":500,"있":501,"수":502,"자":503,"##대":504,"##사":505,"##드":506,"##와":507,"기":508,"##여":509,"대":510,"나":511,"##트":512,"##러":513,"##화":514,"##장":515,"##요":516,"##ᅢᆼ":517,"모":518,"다":519,"##년":520,"보":521,"##ᅦ이":522,"##치":523,"##우":524,"한":525,"서":526,"전":527,"##부":528,"##미":529,"바":530,"##수":531,"##며":532,"##전":533,"##야":534,"##르":535,"##적":536,"##정":537,"##일":538,"##그":539,"것":540,"##상":541,"##마":542,"##ᅧᆯ":543,"##ᅩᆯ":544,"##버":545,"##터":546,"##성":547,"##데":548,"되":549,"##주":550,"##려":551,"##하는":552,"미":553,"20":554,"정":555,"##거":556,"유":557,"일":558,"##국":559,"##ᅢᆨ":560,"##용":561,"##제":562,"##지만":563,"##이다.":564,"해":565,"조":566,"스":567,"상":568,"##히":569,"##신":570,"때":571,"##력":572,"공":573,"##구":574,"##보":575,"부":576,"있다.":577,"비":578,"##타":579,"##키":580,"제":581,"주":582,"##문":583,"##었":584,"경":585,"##원":586,"##래":587,"##동":588,"중":589,"오":590,"인":591,"화":592,"##었다.":593,"##ᅣᆼ":594,"##오":595,"##간":596,"##진":597,"없":598,"##비":599,"위":600,"##월":601,"##명":602,"##격":603,"##ᅯᆫ":604,"##ᆷ을":605,"무":606,"##ᅥᆯ":607,"않":608,"과":609,"등":610,"차":611,"##에게":612,"##위":613,"소":614,"고":615,"여":616,"##던":617,"##하고":618,"##ᅳᆨ":619,"##차":620,"##할":621,"##유":622,"##ᆷ이":623,"##선":624,"##까":625,"##크":626,"##티":627,"##회":628,"##바":629,"##세":630,"##소":631,"##하여":632,"##된":633,"201":634,"노":635,"##했":636,"##계":637,"##체":638,"##당":639,"##무":640,"##레":641,"##00":642,"##작":643,"내":644,"만":645,"##한다.":646,"##카":647,"있는":648,"세":649,"피":650,"도":651,"##학":652,"##처":653,"##내":654,"##공":655,"동":656,"방":657,"구":658,"영":659,"성":660,"후":661,"선":662,"연":663,"더":664,"##고,":665,"발":666,"타":667,"##단":668,"##식":669,"##재":670,"##루":671,"##다는":672,"##후":673,"##조":674,"##운":675,"말":676,"##이라":677,"##다고":678,"##교":679,"##했다.":680,"##즈":681,"신":682,"에":683,"안":684,"장":685,"##프":686,"##분":687,"##실":688,"생":689,"##피":690,"개":691,"의":692,"##디":693,"우":694,"버":695,"##역":696,"##중":697,"##른":698,"19":699,"##행":700,"##개":701,"##모":702,"때문":703,"##..":704,"##물":705,"처":706,"##까지":707,"##에는":708,"##음":709,"최":710,"카":711,"##속":712,"##하게":713,"##토":714,"##능":715,"##군":716,"##져":717,"드":718,"적":719,"아니":720,"와":721,"##들이":722,"##면서":723,"##반":724,"치":725,"불":726,"##호":727,"##린":728,"요":729,"##노":730,"##생":731,"##는데":732,"리":733,"##연":734,"파":735,"##며,":736,"강":737,"##산":738,"진":739,"당":740,"실":741,"##테":742,"문":743,"많":744,"결":745,"##ᅢᆫ":746,"같":747,"##경":748,"원":749,"##류":750,"##더":751,"##관":752,"포":753,"알":754,"관":755,"##본":756,"##안":757,"특":758,"한다.":759,"##에서는":760,"##방":761,"##코":762,"반":763,"##각":764,"##적으로":765,"##ᅳ로":766,"##레이":767,"##록":768,"##번":769,"작":770,"##급":771,"##준":772,"야":773,"들":774,"경우":775,"매":776,"##영":777,"너":778,"때문에":779,"히":780,"##민":781,"된":782,"##건":783,"배":784,"역":785,"따":786,"단":787,"##습":788,"사용":789,"라":790,"추":791,"받":792,"사라":793,"##베":794,"##파":795,"##태":796,"남":797,"##적인":798,"##두":799,"##든":800,"출":801,"##부터":802,"##발":803,"##런":804,"##점":805,"##ᆯ리":806,"현":807,"그러":808,"##형":809,"이후":810,"##포":811,"데":812,"##법":813,"##하기":814,"그리":815,"##종":816,"자신":817,"또":818,"못":819,"국":820,"##승":821,"물":822,"##업":823,"##해서":824,"공격":825,"코":826,"##난":827,"본":828,"##통":829,"##브":830,"##란":831,"예":832,"##판":833,"초":834,"10":835,"통":836,"메":837,"레":838,"계":839,"##ᆨ을":840,"##라는":841,"##스트":842,"##라고":843,"좋":844,"##ᆷ은":845,"두":846,"##온":847,"##머":848,"##양":849,"재":850,"호":851,"##론":852,"감":853,"##대로":854,"달":855,"##술":856,"로":857,"##투":858,"함":859,"입":860,"회":861,"건":862,"##네":863,"분":864,"##ᆷ의":865,"##녀":866,"캐":867,"##다가":868,"애":869,"##입":870,"##들은":871,"##료":872,"##ᆻ으":873,"##되었다.":874,"다른":875,"교":876,"명":877,"##너":878,"머":879,"##하면":880,"##션":881,"패":882,"##표":883,"##직":884,"##지만,":885,"##ᆯ이":886,"김":887,"참":888,"##초":889,"##권":890,"정도":891,"##랑":892,"##들을":893,"##합":894,"외":895,"##ᅳᆷ":896,"##매":897,"##족":898,"평":899,"올":900,"크":901,"편":902,"대한":903,"##량":904,"##금":905,"설":906,"##에도":907,"##지는":908,"##기도":909,"게이":910,"##들의":911,"##ᆷ으로":912,"티":913,"것이":914,"쓰":915,"할":916,"죽":917,"200":918,"##기에":919,"뒤":920,"##혀":921,"등장":922,"플":923,"##기를":924,"##하다.":925,"##ᆯ을":926,"돌":927,"##출":928,"##츠":929,"##푸":930,"##았":931,"##배":932,"##되어":933,"그리고":934,"디":935,"속":936,"##하지":937,"##현":938,"##울":939,"된다.":940,"잘":941,"##이나":942,"##령":943,"##등":944,"확":945,"종":946,"##메":947,"##청":948,"같은":949,"직":950,"가능":951,"##병":952,"##황":953,"아이":954,"##석":955,"##복":956,"##er":957,"변":958,"##천":959,"들어":960,"##언":961,"하나":962,"맞":963,"##것":964,"이르":965,"##편":966,"하는":967,"##리는":968,"##릭":969,"##께":970,"키":971,"##겨":972,"살":973,"게":974,"##련":975,"사실":976,"12":977,"하지만":978,"##외":979,"##향":980,"승":981,"##망":982,"프":983,"학":984,"##커":985,"심":986,"끄":987,"##때":988,"##하였다.":989,"걸":990,"토":991,"있으":992,"운":993,"체":994,"시작":995,"##환":996,"높":997,"##설":998,"##허":999,"##는데,":1000,"활":1001,"일본":1002,"베":1003,"##ᆷ에":1004,"행":1005,"##약":1006,"필":1007,"번":1008,"##거나":1009,"##질":1010,"목":1011,"함께":1012,"##강":1013,"##쿠":1014,"##케":1015,"약":1016,"##스터":1017,"모습":1018,"##보다":1019,"점":1020,"박":1021,"채":1022,"##절":1023,"각":1024,"##럼":1025,"양":1026,"##페":1027,"##는다.":1028,"언":1029,"트":1030,"한국":1031,"커":1032,"사이":1033,"간":1034,"##리를":1035,"위해":1036,"##살":1037,"##았다.":1038,"##목":1039,"존":1040,"##in":1041,"##씨":1042,"##송":1043,"##였":1044,"11":1045,"있었":1046,"##된다.":1047,"##...":1048,"##말":1049,"##기가":1050,"##독":1051,"표":1052,"날":1053,"##있":1054,"것을":1055,"군":1056,"독":1057,"이상":1058,"##되는":1059,"##임":1060,"테":1061,"만들":1062,"##다면":1063,"나오":1064,"프로":1065,"생각":1066,"##쳐":1067,"##쪽":1068,"##즌":1069,"사람":1070,"##어서":1071,"증":1072,"또한":1073,"열":1074,"##결":1075,"투":1076,"##되었":1077,"새":1078,"##하며":1079,"따라":1080,"했":1081,"##탄":1082,"문제":1083,"순":1084,"워":1085,"##학교":1086,"##퍼":1087,"##라이":1088,"집":1089,"##시키":1090,"총":1091,"가장":1092,"##색":1093,"##이라고":1094,"완":1095,"손":1096,"끝":1097,"##니다.":1098,"##이라는":1099,"형":1100,"##심":1101,"태":1102,"##였다.":1103,"##집":1104,"##력을":1105,"##째":1106,"##막":1107,"및":1108,"다시":1109,"##립":1110,"##패":1111,"클":1112,"음":1113,"잡":1114,"##예":1115,"##에서도":1116,"당시":1117,"##근":1118,"효":1119,"##왕":1120,"근":1121,"##함":1122,"##on":1123,"##리가":1124,"##0년":1125,"판":1126,"##릭터":1127,"되었다.":1128,"##지를":1129,"##글":1130,"왕":1131,"##처럼":1132,"없는":1133,"##긴":1134,"##ᇂ게":1135,"모두":1136,"##항":1137,"##력이":1138,"캐릭터":1139,"##락":1140,"##데,":1141,"싸":1142,"##ᅥᆯ어":1143,"상대":1144,"용":1145,"15":1146,"##or":1147,"##악":1148,"항":1149,"막":1150,"플레이":1151,"##곡":1152,"볼":1153,"폭":1154,"##기는":1155,"##8년":1156,"##an":1157,"##날":1158,"능":1159,"##별":1160,"난":1161,"모든":1162,"없다.":1163,"루":1164,"상황":1165,"복":1166,"##규":1167,"별":1168,"스키":1169,"빠":1170,"##ᆯ로":1171,"##지고":1172,"것으로":1173,"것이다.":1174,"##스의":1175,"##ᆺ이":1176,"추가":1177,"결국":1178,"시간":1179,"했다.":1180,"네":1181,"##쟁":1182,"##9년":1183,"느":1184,"친":1185,"현재":1186,"광":1187,"앞":1188,"##달":1189,"충":1190,"보여":1191,"##남":1192,"##ᆸ게":1193,"##자가":1194,"##느":1195,"그래":1196,"상태":1197,"자신의":1198,"게임":1199,"##7년":1200,"합":1201,"##이었":1202,"##플":1203,"##받":1204,"것은":1205,"##켜":1206,"많이":1207,"임":1208,"미국":1209,"삼":1210,"##하면서":1211,"그러나":1212,"##어나":1213,"##존":1214,"존재":1215,"##끼":1216,"다음":1217,"18":1218,"##택":1219,"허":1220,"블":1221,"##접":1222,"다만":1223,"##리즈":1224,"##냥":1225,"시즌":1226,"##6년":1227,"##스를":1228,"천":1229,"브":1230,"큰":1231,"##냐":1232,"산":1233,"첫":1234,"##탈":1235,"그런":1236,"##벨":1237,"전투":1238,"##스가":1239,"넘":1240,"##겠":1241,"##리아":1242,"병":1243,"##이는":1244,"보면":1245,"##없":1246,"눈":1247,"누":1248,"##견":1249,"페":1250,"준":1251,"199":1252,"선수":1253,"##ar":1254,"많은":1255,"얼":1256,"##성이":1257,"세계":1258,"매우":1259,"##블":1260,"##5년":1261,"금":1262,"##.1":1263,"헤":1264,"악":1265,"##랜":1266,"카드":1267,"취":1268,"##엔":1269,"##틀":1270,"##턴":1271,"##추":1272,"##나,":1273,"효과":1274,"먹":1275,"##험":1276,"##박":1277,"##he":1278,"##들에게":1279,"듯":1280,"얻":1281,"줄":1282,"지역":1283,"##득":1284,"##므로":1285,"##at":1286,"##000":1287,"##지가":1288,"##ᆺ을":1289,"라이":1290,"이러":1291,"백":1292,"##인이":1293,"경기":1294,"나온":1295,"상당":1296,"##.0":1297,"민":1298,"슈":1299,"##품":1300,"찾":1301,"식":1302,"##광":1303,"있었다.":1304,"이유":1305,"##ᆯ러":1306,"여러":1307,"기록":1308,"##4년":1309,"##널":1310,"아니라":1311,"바ᄁ":1312,"이용":1313,"##순":1314,"않는":1315,"##창":1316,"북":1317,"##친":1318,"16":1319,"물론":1320,"##감":1321,"황":1322,"##가는":1323,"##림":1324,"##으면":1325,"##사를":1326,"니":1327,"처음":1328,"쉬":1329,"어ᄄ":1330,"하고":1331,"##변":1332,"아닌":1333,"##짜":1334,"엄":1335,"##으며":1336,"극":1337,"돌아":1338,"괴":1339,"실제":1340,"겨":1341,"##백":1342,"갈":1343,"일반":1344,"##인다.":1345,"##-1":1346,"필요":1347,"떠":1348,"자체":1349,"##가지":1350,"온":1351,"##들과":1352,"이런":1353,"##불":1354,"##열":1355,"##부분":1356,"은":1357,"업":1358,"창":1359,"13":1360,"시리즈":1361,"##ᆫ트":1362,"이미":1363,"##슬":1364,"절":1365,"##졌다.":1366,"바로":1367,"##범":1368,"##하자":1369,"청":1370,"##en":1371,"##철":1372,"해당":1373,"##름":1374,"##시아":1375,"##애":1376,"거의":1377,"터":1378,"영화":1379,"##사가":1380,"##착":1381,"##주의":1382,"역시":1383,"##2년":1384,"##상을":1385,"##칭":1386,"되어":1387,"##3년":1388,"팬":1389,"특히":1390,"피해":1391,"기술":1392,"##라도":1393,"14":1394,"##인지":1395,"##ᆯ드":1396,"30":1397,"레이":1398,"모습을":1399,"##찬":1400,"##도가":1401,"##이고":1402,"통해":1403,"철":1404,"##리고":1405,"##ou":1406,"##괴":1407,"탈":1408,"주인":1409,"##스는":1410,"즉":1411,"##진다.":1412,"기본":1413,"##례":1414,"관련":1415,"뜨":1416,"##혼":1417,"진행":1418,"팀":1419,"##찰":1420,"##장을":1421,"마법":1422,"혼":1423,"17":1424,"나와":1425,"엔":1426,"골":1427,"##기로":1428,"##ᆫ다.":1429,"##국의":1430,"붙":1431,"이야":1432,"##맨":1433,"수도":1434,"같이":1435,"##어가":1436,"마지":1437,"떨어":1438,"아무":1439,"올라":1440,"제작":1441,"며":1442,"곡":1443,"둘":1444,"귀":1445,"##으며,":1446,"##릴":1447,"##올":1448,"##1년":1449,"##성을":1450,"##했던":1451,"위치":1452,"##희":1453,"##극":1454,"유니":1455,"권":1456,"힘":1457,"##육":1458,"밝":1459,"쿠":1460,"##ᆸ을":1461,"##증":1462,"스킬":1463,"##al":1464,"환":1465,"##몬":1466,"##평":1467,"대부분":1468,"##st":1469,"##클":1470,"##졌":1471,"방송":1472,"좋은":1473,"##거리":1474,"몰":1475,"부분":1476,"##해야":1477,"좀":1478,"##징":1479,"되었":1480,"사건":1481,"##로는":1482,"스타":1483,"##주는":1484,"어려":1485,"##에선":1486,"일부":1487,"범":1488,"계속":1489,"마지막":1490,"##슨":1491,"잠":1492,"탄":1493,"##축":1494,"증가":1495,"비스":1496,"##아서":1497,"찌":1498,"##ᆨ스":1499,"##리에":1500,"##응":1501,"##ᆺ한":1502,"##활":1503,"##같":1504,"##20":1505,"##린다.":1506,"접":1507,"몇":1508,"참고":1509,"않고":1510,"축":1511,"인간":1512,"##귀":1513,"##북":1514,"달리":1515,"맡":1516,"방어":1517,"##걸":1518,"활동":1519,"국가":1520,"##리스":1521,"검":1522,"밀":1523,"있어":1524,"싶":1525,"만들어":1526,"##하고,":1527,"##전히":1528,"되는":1529,"보고":1530,"##돌":1531,"서울":1532,"않은":1533,"내용":1534,"##시에":1535,"가지고":1536,"있을":1537,"주인공":1538,"그의":1539,"뿐":1540,"##럽":1541,"이전":1542,"꼬":1543,"##로,":1544,"##르는":1545,"능력":1546,"##ᆷ버":1547,"인해":1548,"##큼":1549,"##담":1550,"##시간":1551,"##장이":1552,"##쉬":1553,"보이":1554,"어느":1555,"##정을":1556,"그냥":1557,"까":1558,"##링":1559,"혀":1560,"풀":1561,"##책":1562,"100":1563,"##층":1564,"곳":1565,"##re":1566,"##드는":1567,"성공":1568,"법":1569,"##놓":1570,"러":1571,"대해":1572,"##인의":1573,"이를":1574,"담":1575,"대신":1576,"새로":1577,"##자를":1578,"##랴":1579,"##.2":1580,"##갈":1581,"정도로":1582,"낮":1583,"수준":1584,"##리어":1585,"타이":1586,"##도록":1587,"198":1588,"퍼":1589,"25":1590,"##dd":1591,"##으나":1592,"암":1593,"##자의":1594,"##메이":1595,"##le":1596,"뛰":1597,"##이었다.":1598,"##트를":1599,"##봉":1600,"규":1601,"그녀":1602,"대표":1603,"받아":1604,"##볼":1605,"##총":1606,"##굴":1607,"격":1608,"##수가":1609,"##위를":1610,"기준":1611,"상당히":1612,"않는다.":1613,"논":1614,"써":1615,"높은":1616,"최대":1617,"##it":1618,"##ᆻ으나":1619,"##이가":1620,"##스로":1621,"이동":1622,"보인다.":1623,"##렸":1624,"##ᆨ이":1625,"##되고":1626,"##슈":1627,"##렸다.":1628,"감독":1629,"않았":1630,"##누":1631,"대한민":1632,"##시켜":1633,"##드를":1634,"##마다":1635,"여기":1636,"##10":1637,"나타":1638,"웨":1639,"이는":1640,"될":1641,"제외":1642,"홍":1643,"##와의":1644,"##람":1645,"몬":1646,"팔":1647,"##앙":1648,"좋아":1649,"중국":1650,"결과":1651,"것도":1652,"##있는":1653,"것.":1654,"면":1655,"글":1656,"##하였":1657,"너무":1658,"인물":1659,"그대로":1660,"의미":1661,"이어":1662,"##사의":1663,"##도를":1664,"덕":1665,"의해":1666,"흐":1667,"스ᄐ":1668,"희":1669,"##ᆩ에":1670,"##ff":1671,"등의":1672,"##팅":1673,"##트로":1674,"##들도":1675,"##기의":1676,"직접":1677,"##스테":1678,"없이":1679,"##려고":1680,"전체":1681,"동안":1682,"##수를":1683,"알려":1684,"##측":1685,"##르게":1686,"벌":1687,"원래":1688,"언급":1689,"##길":1690,"##일에":1691,"##ᆸ이":1692,"##도로":1693,"그는":1694,"##딩":1695,"##지도":1696,"꾸":1697,"##ing":1698,"##정이":1699,"짜":1700,"스토":1701,"##이트":1702,"울":1703,"##리의":1704,"##ic":1705,"발매":1706,"케":1707,"##먹":1708,"##전을":1709,"갖":1710,"##곤":1711,"##폭":1712,"싸우":1713,"이름":1714,"-2":1715,"##자는":1716,"##닝":1717,"##드의":1718,"애니":1719,"보내":1720,"관계":1721,"육":1722,"하다.":1723,"##치는":1724,"##.5":1725,"##늘":1726,"##율":1727,"##대의":1728,"포함":1729,"소속":1730,"##번째":1731,"있던":1732,"##벌":1733,"경우가":1734,"전쟁":1735,"자신이":1736,"##웨":1737,"레벨":1738,"데미":1739,"##ᆻ으며,":1740,"향":1741,"지원":1742,"##다!":1743,"##로서":1744,"질":1745,"##욱":1746,"뉴":1747,"이것":1748,"과거":1749,"##대를":1750,"가까":1751,"2018년":1752,"슬":1753,"멤버":1754,"푸":1755,"##하지만":1756,"##확":1757,"나오는":1758,"길":1759,"이에":1760,"선택":1761,"문서":1762,"묘":1763,"##될":1764,"던":1765,"##ᆻ을":1766,"##습니다.":1767,"##렌":1768,"##자.":1769,"위한":1770,"##인데":1771,"유저":1772,"##이며":1773,"##억":1774,"쓸":1775,"##스타":1776,"##웅":1777,"넣":1778,"늘":1779,"##략":1780,"연구":1781,"사람이":1782,"##중에":1783,"##ᅦ이지":1784,"망":1785,"##하던":1786,"최고":1787,"##나가":1788,"많다.":1789,"느끼":1790,"그렇":1791,"출연":1792,"##씩":1793,"자기":1794,"##점을":1795,"##손":1796,"##등학교":1797,"개발":1798,"##캐":1799,"설명":1800,"##점이":1801,"성우":1802,"##돼":1803,"샤":1804,"봐":1805,"방법":1806,"21":1807,"50":1808,"평가":1809,"##화를":1810,"##나는":1811,"휴":1812,"##없이":1813,"엄청":1814,"몬스터":1815,"##써":1816,"크게":1817,"발생":1818,"##컬":1819,"깨":1820,"##ᆻ던":1821,"있으며,":1822,"아버":1823,"##이자":1824,"##드가":1825,"사망":1826,"##풍":1827,"리그":1828,"영향":1829,"12월":1830,"바뀌":1831,"먼":1832,"컨":1833,"##am":1834,"불가":1835,"유명":1836,"시절":1837,"##채":1838,"찾아":1839,"홈":1840,"2019년":1841,"##줄":1842,"협":1843,"7월":1844,"칼":1845,"##인을":1846,"##치를":1847,"왜":1848,"##치가":1849,"##잡":1850,"만든":1851,"2017년":1852,"##되지":1853,"##먼":1854,"##과는":1855,"이루":1856,"혹":1857,"##상이":1858,"밝혀":1859,"8월":1860,"4월":1861,"프랑":1862,"##어로":1863,"##찌":1864,"장면":1865,"##훈":1866,"3월":1867,"압":1868,"빼":1869,"##팀":1870,"책":1871,"##,000":1872,"또는":1873,"9월":1874,"급":1875,"##하기도":1876,"10월":1877,"5월":1878,"##원이":1879,"##그래":1880,"실제로":1881,"들어가":1882,"##어난":1883,"꽤":1884,"드라":1885,"##샤":1886,"있다는":1887,"##리지":1888,"우승":1889,"6월":1890,"##벽":1891,"도시":1892,"배우":1893,"##센":1894,"초반":1895,"쪽":1896,"봉":1897,"이때":1898,"##명이":1899,"##효":1900,"##새":1901,"주로":1902,"말을":1903,"##es":1904,"##률":1905,"22":1906,"##랙":1907,"##밀":1908,"공식":1909,"##la":1910,"출신":1911,"##머니":1912,"운영":1913,"2016년":1914,"##줘":1915,"##ᆻ다고":1916,"돈":1917,"중요":1918,"갑":1919,"24":1920,"##전에서":1921,"##일,":1922,"##전에":1923,"##과의":1924,"인터":1925,"##이며,":1926,"바라":1927,"농":1928,"그것":1929,"##덕":1930,"##준다.":1931,"1월":1932,"##이어":1933,"##ᅦ이스":1934,"##식을":1935,"##하며,":1936,"전부":1937,"만나":1938,"무기":1939,"사랑":1940,"##으로,":1941,"측":1942,"##운드":1943,"제대로":1944,"아이테":1945,"##트가":1946,"최초":1947,"##el":1948,"##벤트":1949,"the":1950,"자주":1951,"보여주":1952,"##명을":1953,"하지":1954,"##리그":1955,"놀":1956,"없었":1957,"##객":1958,"소환":1959,"##충":1960,"##음을":1961,"정보":1962,"##으로는":1963,"최종":1964,"##om":1965,"##켓":1966,"역할":1967,"아직":1968,"##ᅦ일":1969,"##ᆯ레":1970,"##에서의":1971,"노래":1972,"서로":1973,"놓":1974,"11월":1975,"어떠":1976,"##휘":1977,"공격력":1978,"학생":1979,"##스와":1980,"##퇴":1981,"##획":1982,"친구":1983,"##있다.":1984,"학교":1985,"듣":1986,"여성":1987,"사회":1988,"독일":1989,"않아":1990,"아래":1991,"공개":1992,"비해":1993,"가진":1994,"##자로":1995,"참고로":1996,"적이":1997,"##했을":1998,"기존":1999,"23":2000,"##리카":2001,"파괴":2002,"##is":2003,"강력":2004,"##명의":2005,"있어서":2006,"나온다.":2007,"##적이":2008,"궁":2009,"##옥":2010,"##개의":2011,"비교":2012,"##격을":2013,"##-0":2014,"등을":2015,"##였던":2016,"##니아":2017,"마찬":2018,"이벤트":2019,"어떤":2020,"결정":2021,"##지의":2022,"형태":2023,"송":2024,"##50":2025,"##사는":2026,"침":2027,"##ᆼ크":2028,"##인은":2029,"변경":2030,"마찬가지":2031,"지나":2032,"##뜨":2033,"정말":2034,"프리":2035,"강화":2036,"##했고,":2037,"##와는":2038,"유지":2039,"끌":2040,"##드로":2041,"##듯":2042,"빨":2043,"197":2044,"마이":2045,"해도":2046,"쇼":2047,"##필":2048,"##나라":2049,"당연":2050,"발견":2051,"스페":2052,"보통":2053,"##대에":2054,"##ᆻ으며":2055,"뽀":2056,"##하려":2057,"휘":2058,"##니까":2059,"2015년":2060,"##룡":2061,"##ᅯᆯ":2062,"##ᆺ에":2063,"##히려":2064,"##스러":2065,"##군의":2066,"탑":2067,"때문이다.":2068,"##수의":2069,"살아":2070,"설정":2071,"##르면":2072,"폐":2073,"구성":2074,"##서는":2075,"2월":2076,"조금":2077,"##골":2078,"##동안":2079,"그런데":2080,"##픽":2081,"이러한":2082,"##숙":2083,"착":2084,"오히려":2085,"##오는":2086,"##침":2087,"정신":2088,"아니다.":2089,"##지어":2090,"후반":2091,"잔":2092,"##킹":2093,"월드":2094,"##et":2095,"##대가":2096,"##하거나":2097,"##요.":2098,"뜻":2099,"등이":2100,"##프트":2101,"회복":2102,"##물을":2103,"조선":2104,"지금":2105,"##회의":2106,"새로운":2107,"않았다.":2108,"##어도":2109,"슈퍼":2110,"찍":2111,"주장":2112,"##ol":2113,"있으며":2114,"##자인":2115,"##ion":2116,"##랜드":2117,"##원을":2118,"##어를":2119,"알고":2120,"있다고":2121,"나가":2122,"##nd":2123,"유일":2124,"행동":2125,"게다가":2126,"##분에":2127,"앨":2128,"돼":2129,"##는지":2130,"이번":2131,"드래":2132,"##폰":2133,"##하다":2134,"40":2135,"##디오":2136,"자유":2137,"##했다고":2138,"##나마":2139,"영상":2140,"##염":2141,"##-2":2142,"있는데,":2143,"여자":2144,"##이를":2145,"모양":2146,"정부":2147,"같다.":2148,"사실상":2149,"##지로":2150,"멀":2151,"데이":2152,"그래서":2153,"노선":2154,"##텐":2155,"##ᅩᆯ로":2156,"##튼":2157,"특수":2158,"##경기":2159,"유닛":2160,"아예":2161,"하면":2162,"##30":2163,"부족":2164,"일단":2165,"##11":2166,"승리":2167,"##도의":2168,"대한민국":2169,"차지":2170,"좌":2171,"이렇게":2172,"드러":2173,"모데":2174,"이제":2175,"##같은":2176,"##화가":2177,"##균":2178,"작품":2179,"##갑":2180,"정치":2181,"동시에":2182,"흔":2183,"##ᆯ라":2184,"주변":2185,"성능":2186,"##화에서":2187,"##이기":2188,"##ᅩᆾ":2189,"##셔":2190,"윤":2191,"비슷한":2192,"##협":2193,"먼저":2194,"##통령":2195,"##스,":2196,"##스티":2197,"심지어":2198,"##헤":2199,"완전히":2200,"버전":2201,"확인":2202,"영국":2203,"생산":2204,"##라면":2205,"##ᅢᆼ크":2206,"##ow":2207,"일이":2208,"##검":2209,"##특":2210,"가능하다.":2211,"없어":2212,"##ᆼ글":2213,"##뢰":2214,"콘":2215,"씨":2216,"##상으로":2217,"그렇게":2218,"적용":2219,"방식":2220,"수록":2221,"##뷔":2222,"내려":2223,"흑":2224,"발동":2225,"26":2226,"시스테":2227,"##ig":2228,"##밖에":2229,"힘들":2230,"##다며":2231,"바이":2232,"##ᆷ.":2233,"##il":2234,"녹":2235,"메이":2236,"그래도":2237,"##스크":2238,"##멸":2239,"음악":2240,"##다\"":2241,"28":2242,"##ed":2243,"획":2244,"가지":2245,"난이":2246,"##빠":2247,"잃":2248,"2014년":2249,"##리오":2250,"##도는":2251,"##메이션":2252,"움":2253,"##빈":2254,"##구를":2255,"도우":2256,"##ᆷ피":2257,"좋다.":2258,"27":2259,"영웅":2260,"보스":2261,"다이":2262,"이야기":2263,"혹은":2264,"전에":2265,"대회":2266,"##죄":2267,"##보면":2268,"실패":2269,"있는데":2270,"참여":2271,"##데이":2272,"##하는데":2273,"성격":2274,"##쓰":2275,"##르고":2276,"##ac":2277,"##간에":2278,"한번":2279,"기사":2280,"어떻게":2281,"어디":2282,"있게":2283,"있지만":2284,"대통령":2285,"##만큼":2286,"31":2287,"##원의":2288,"##념":2289,"전혀":2290,"차량":2291,"자세":2292,"작푸":2293,"다양":2294,"센":2295,"##컵":2296,"응":2297,"꺼":2298,"못한":2299,"데뷔":2300,"대학":2301,"196":2302,"스트":2303,"패배":2304,"##얼":2305,"감소":2306,"##as":2307,"##궁":2308,"우리":2309,"색":2310,"국내":2311,"##지에":2312,"##대한":2313,"딸":2314,"##아내":2315,"원작":2316,"동일":2317,"사진":2318,"마을":2319,"##ve":2320,"위해서":2321,"빛":2322,"##트의":2323,"1,":2324,"장비":2325,"있고":2326,"##BS":2327,"##더라도":2328,"##렉":2329,"지속":2330,"석":2331,"##!!":2332,"엘":2333,"표현":2334,"하이":2335,"얼굴":2336,"출시":2337,"굉":2338,"때는":2339,"불가능":2340,"에피":2341,"얼마":2342,"이루어":2343,"획득":2344,"##아가":2345,"##이지만":2346,"발표":2347,"of":2348,"##했고":2349,"##밍":2350,"번째":2351,"가져":2352,"오브":2353,"##혁":2354,"##.3":2355,"마음":2356,"설치":2357,"##자,":2358,"##압":2359,"##른다.":2360,"반응":2361,"뽑":2362,"체력":2363,"##ᆸ다.":2364,"##간다.":2365,"##인데,":2366,"다니":2367,"##씬":2368,"##탕":2369,"플레이어":2370,"풍":2371,"애니메이션":2372,"##으나,":2373,"##칸":2374,"##봐":2375,"긴":2376,"##완":2377,"##장의":2378,"##대학교":2379,"힘을":2380,"굉장":2381,"하루":2382,"##보다는":2383,"역사":2384,"##ᆻ고,":2385,"##뷰":2386,"##체를":2387,"##알":2388,"##님":2389,"액":2390,"기능":2391,"##맹":2392,"졸":2393,"인정":2394,"드라마":2395,"특성":2396,"축구":2397,"##힌":2398,"자동":2399,"견":2400,"프로그래":2401,"움직":2402,"##ᆻ다는":2403,"##룹":2404,"등장하는":2405,"뭐":2406,"따라서":2407,"정확":2408,"오래":2409,"##ᆭ은":2410,"##다'":2411,"##제가":2412,"제1":2413,"숨":2414,"##뉴":2415,"바다":2416,"명칭":2417,"해서":2418,"이름을":2419,"##참":2420,"진출":2421,"##0년대":2422,"담당":2423,"판매":2424,"훈":2425,"##취":2426,"##콘":2427,"대체":2428,"##버스":2429,"##해도":2430,"##끔":2431,"문제가":2432,"##약을":2433,"있고,":2434,"##싸":2435,"##큐":2436,"##우스":2437,"사용하는":2438,"몸":2439,"그나마":2440,"##상의":2441,"쓰는":2442,"특징":2443,"드래곤":2444,"남자":2445,"##수는":2446,"자신을":2447,"받은":2448,"남아":2449,"퇴":2450,"##지,":2451,"월":2452,"##웃":2453,"상승":2454,"요구":2455,"아마":2456,"##문을":2457,"경우도":2458,"참가":2459,"따르면":2460,"쓴":2461,"빈":2462,"덕분에":2463,"##ᆨ시":2464,"수비":2465,"##혹":2466,"##ot":2467,"##었던":2468,"일어나":2469,"경찰":2470,"중앙":2471,"있기":2472,"작중":2473,"##삼":2474,"##탁":2475,"##액":2476,"##장에서":2477,"선발":2478,"##조차":2479,"조건":2480,"개인":2481,"하였다.":2482,"##어버":2483,"202":2484,"공격을":2485,"맥":2486,"나이":2487,"##제를":2488,"고려":2489,"다르":2490,"하여":2491,"##라가":2492,"##라의":2493,"##사로":2494,"불러":2495,"##권을":2496,"##부의":2497,"받고":2498,"상위":2499,"##수로":2500,"러시아":2501,"##했다는":2502,"폴":2503,"##했지만":2504,"##척":2505,"##끄":2506,"컴":2507,"2017":2508,"물리":2509,"가능한":2510,"파이":2511,"크로":2512,"2013년":2513,"##한다는":2514,"##ad":2515,"##군이":2516,"선거":2517,"##못":2518,"29":2519,"##전이":2520,"##장은":2521,"만큼":2522,"땅":2523,"각각":2524,"##다니":2525,"에피소":2526,"후보":2527,"Lv":2528,"어머니":2529,"건물":2530,"더욱":2531,"아주":2532,"핵":2533,"듯.":2534,"2차":2535,"##.4":2536,"우주":2537,"##이드":2538,"득":2539,"##최":2540,"말이":2541,"헌":2542,"강력한":2543,"##ᆻ으나,":2544,"믿":2545,"자체가":2546,"주요":2547,"항목":2548,"순간":2549,"구조":2550,"대해서":2551,"##한테":2552,"##ᆷ피언":2553,"##계를":2554,"##장으로":2555,"뮤":2556,"제공":2557,"##혜":2558,"##답":2559,"주의":2560,"##지지":2561,"현대":2562,"끝나":2563,"##넷":2564,"##적을":2565,"비판":2566,"##촌":2567,"##가가":2568,"맨":2569,"##문에":2570,"##톤":2571,"사람들이":2572,"펼":2573,"##스키":2574,"##춰":2575,"##카이":2576,"결혼":2577,"상대로":2578,"끼":2579,"가족":2580,"##ᆫ의":2581,"##이기도":2582,"딱":2583,"시간이":2584,"-1":2585,"##튜":2586,"확실":2587,"빌":2588,"##장에":2589,"##부에":2590,"후에":2591,"굉장히":2592,"##ᆸ니다.":2593,"##혈":2594,"아르":2595,"어린":2596,"가격":2597,"편이다.":2598,"비슷":2599,"케이":2600,"##되면서":2601,"##이었던":2602,"##부를":2603,"불구":2604,"챔피언":2605,"##위원":2606,"2012년":2607,"##id":2608,"단순":2609,"##춘":2610,"194":2611,"쳐":2612,"활약":2613,"과정":2614,"##십":2615,"##ch":2616,"##선을":2617,"##치고":2618,"##대는":2619,"사용할":2620,"낙":2621,"피해를":2622,"습":2623,"##mm":2624,"2000":2625,"마찬가지로":2626,"##량이":2627,"프랑스":2628,"일으":2629,"참조":2630,"여기서":2631,"준비":2632,"시점":2633,"나머":2634,"The":2635,"무시":2636,"폭발":2637,"초기":2638,"지구":2639,"##체가":2640,"세이":2641,"##흐":2642,"숙":2643,"있었던":2644,"##트는":2645,"진짜":2646,"##면,":2647,"쏘":2648,"##뮤":2649,"##엘":2650,"##들에":2651,"생겨":2652,"대미":2653,"여다":2654,"##낸":2655,"##ᅢᆫ드":2656,"##타를":2657,"가능성이":2658,"##치로":2659,"묻":2660,"제한":2661,"활용":2662,"작은":2663,"##레이드":2664,"되고":2665,"쉽게":2666,"약간":2667,"##까지는":2668,"##음이":2669,"않다.":2670,"속성":2671,"옆":2672,"훨":2673,"제2":2674,"엄청난":2675,"##리,":2676,"##ay":2677,"가는":2678,"유럽":2679,"방영":2680,"여전히":2681,"대전":2682,"##정한":2683,"벌어":2684,"##내는":2685,"##ᆻ지만":2686,"수가":2687,"for":2688,"##리로":2689,"탐":2690,"히로":2691,"##.6":2692,"받는":2693,"비로":2694,"영향을":2695,"##시키는":2696,"섬":2697,"##리와":2698,"가면":2699,"##업을":2700,"한편":2701,"St":2702,"스피":2703,"시청":2704,"제국":2705,"##임을":2706,"국제":2707,"##시즌":2708,"혼자":2709,"##ER":2710,"동료":2711,"지하":2712,"60":2713,"마스터":2714,"부산":2715,"발사":2716,"논란":2717,"다음과":2718,"##.7":2719,"##욕":2720,"사고":2721,"훨씬":2722,"##뿐":2723,"##ᆻ고":2724,"1일":2725,"클리어":2726,"술":2727,"그가":2728,"##곳":2729,"##력은":2730,"##칠":2731,"##ᆫ이":2732,"래":2733,"패턴":2734,"##익":2735,"##식이":2736,"기간":2737,"못하고":2738,"괘":2739,"##.\"":2740,"분위":2741,"현실":2742,"##us":2743,"당연히":2744,"##인물":2745,"쓰러":2746,"퀘":2747,"인구":2748,"흡":2749,"나무":2750,"콜":2751,"##려서":2752,"방향":2753,"##심을":2754,"보호":2755,"##닉":2756,"웃":2757,"이해":2758,"강한":2759,"연결":2760,"##위로":2761,"주는":2762,"그를":2763,"특별":2764,"2010년":2765,"##개를":2766,"이탈":2767,"##제로":2768,"하며":2769,"##둥":2770,"듀":2771,"츠":2772,"기준으로":2773,"맵":2774,"다양한":2775,"##행을":2776,"##만이":2777,"읽":2778,"역할을":2779,"##하다는":2780,"FC":2781,"##키는":2782,"##으니":2783,"##히는":2784,"##움":2785,"##정도":2786,"싫":2787,"##릿":2788,"해결":2789,"나타나":2790,"##40":2791,"브라":2792,"최근":2793,"##나이":2794,"##사와":2795,"적을":2796,"얘":2797,"조합":2798,"##만한":2799,"죄":2800,"##없는":2801,"똑":2802,"##ro":2803,"한정":2804,"##해주":2805,"확류":2806,"##기,":2807,"짧":2808,"##헌":2809,"##놓고":2810,"국민":2811,"##감을":2812,"파워":2813,"지니":2814,"##듀":2815,"취급":2816,"삼성":2817,"지방":2818,"중요한":2819,"지그":2820,"##.8":2821,"블랙":2822,"괜":2823,"영어":2824,"곧":2825,"##흥":2826,"195":2827,"도망":2828,"크리스":2829,"##수록":2830,"##프를":2831,"류":2832,"##케이":2833,"##레벨":2834,"##암":2835,"받았다.":2836,"##합니다.":2837,"##짝":2838,"의견":2839,"2011년":2840,"본인":2841,"굴":2842,"추정":2843,"즐":2844,"교육":2845,"##만에":2846,"소모":2847,"##위에":2848,"##로부터":2849,"스토리":2850,"##킨":2851,"보는":2852,"##좌":2853,"##위가":2854,"##시의":2855,"##자기":2856,"않을":2857,"##라운드":2858,"자연":2859,"쿨":2860,"TV":2861,"흥":2862,"처리":2863,"##학년":2864,"##ir":2865,"##다,":2866,"##라인":2867,"엘리":2868,"##BC":2869,"운동":2870,"문제는":2871,"에이":2872,"때문.":2873,"어두":2874,"##꾸":2875,"문화":2876,"경제":2877,"##폐":2878,"출전":2879,"기타":2880,"##쇼":2881,"##도,":2882,"것에":2883,"익":2884,"없었다.":2885,"##가를":2886,"버스":2887,"##가의":2888,"##쩌":2889,"##사에":2890,"##!\"":2891,"##랄":2892,"전용":2893,"중시":2894,"##꺼":2895,"충분":2896,"##자와":2897,"##인트":2898,"벗":2899,"##신이":2900,"##라서":2901,"라인":2902,"정도.":2903,"##지션":2904,"##붙":2905,"운행":2906,"##틴":2907,"##크로":2908,"##학생":2909,"불구하고":2910,"##비아":2911,"트위":2912,"방면":2913,"##렬":2914,"##둔":2915,"##륙":2916,"스스로":2917,"이유는":2918,"오른":2919,"##죠":2920,"##기와":2921,"##난다.":2922,"무려":2923,"끊":2924,"##단의":2925,"2018":2926,"##만을":2927,"##대학":2928,"##소를":2929,"대부분의":2930,"아버지":2931,"##회를":2932,"##으면서":2933,"보이는":2934,"##로를":2935,"##신을":2936,"##성은":2937,"##ht":2938,"장착":2939,"낮은":2940,"##성의":2941,"##듯이":2942,"##세기":2943,"나서":2944,"##한다고":2945,"##12":2946,"전문":2947,"언제":2948,"아들":2949,"##명은":2950,"넘어":2951,"##벤":2952,"독립":2953,"아군":2954,"튀":2955,"타입":2956,"등장한다.":2957,"이름이":2958,"벽":2959,"에너":2960,"연속":2961,"이유로":2962,"##죽":2963,"들고":2964,"##자들이":2965,"##원으로":2966,"중에":2967,"염":2968,"##팔":2969,"내가":2970,"##th":2971,"퀘스트":2972,"##이지":2973,"알아":2974,"수상":2975,"찬":2976,"이ᄁ":2977,"##쇄":2978,"##un":2979,"나ᄂ":2980,"##싱":2981,"미션":2982,"##im":2983,"##'라는":2984,"##보니":2985,"##ᆨ트":2986,"##져서":2987,"베이":2988,"넓":2989,"##하다고":2990,"구간":2991,"종료":2992,"##ᆰ은":2993,"모드":2994,"##원은":2995,"싱글":2996,"##리기":2997,"HP":2998,"떠나":2999,"나는":3000,"나ᄈ":3001,"이상의":3002,"달성":3003,"편.":3004,"절대":3005,"굳":3006,"##엄":3007,"입장":3008,"경우는":3009,"##우는":3010,"말한다.":3011,"##ur":3012,"##ᆯ립":3013,"더불":3014,"부르":3015,"예정":3016,"##하다가":3017,"##이의":3018,"일본의":3019,"##.9":3020,"##터를":3021,"##km":3022,"되면":3023,"되지":3024,"번역":3025,"아프":3026,"##od":3027,"타고":3028,"##초에":3029,"##력으로":3030,"##당한":3031,"솔":3032,"제목":3033,"##지게":3034,"##전의":3035,"조직":3036,"항공":3037,"##스에":3038,"##t;":3039,"관리":3040,"##세대":3041,"포켓":3042,"##dddd":3043,"##르크":3044,"반대":3045,"메인":3046,"졸업":3047,"##네이":3048,"네이":3049,"##라를":3050,"종류":3051,"엔딩":3052,"받았":3053,"##유의":3054,"생존":3055,"근접":3056,"자리":3057,"##마의":3058,"##사,":3059,"##기고":3060,"##묘":3061,"야구":3062,"##이고,":3063,"##로가":3064,"칭":3065,"칸":3066,"##에게는":3067,"목소":3068,"배경":3069,"##말로":3070,"시도":3071,"무어":3072,"일을":3073,"나머지":3074,"민주":3075,"현재는":3076,"##15":3077,"##32":3078,"대한민국의":3079,"만약":3080,"##시를":3081,"더불어":3082,"목표":3083,"최소":3084,"##ᆨ제":3085,"##봇":3086,"##부가":3087,"##ut":3088,"##함을":3089,"##왔다.":3090,"위에":3091,"검은":3092,"##세이":3093,"엔진":3094,"업데이":3095,"지휘":3096,"여담으로":3097,"##상에":3098,"##했으며,":3099,"##관이":3100,"했지만":3101,"##점으로":3102,"##따":3103,"SK":3104,"하기":3105,"##빙":3106,"##ST":3107,"밖에":3108,"대사":3109,"플래":3110,"##비가":3111,"##공격":3112,"##맞":3113,"하면서":3114,"일정":3115,"에피소드":3116,"##티브":3117,"##신의":3118,"##조건":3119,"공연":3120,"##쿄":3121,"배틀":3122,"제외한":3123,"만화":3124,"속도":3125,"##운데":3126,"##ver":3127,"신경":3128,"##세를":3129,"##ag":3130,"##ᆻ는데":3131,"항상":3132,"##마저":3133,"##려는":3134,"앨범":3135,"##시가":3136,"##야마":3137,"성장":3138,"##19":3139,"모델":3140,"두고":3141,"##단을":3142,"##종의":3143,"##ec":3144,"##ᆨ터":3145,"유리":3146,"틀":3147,"수정":3148,"##거나,":3149,"잘못":3150,"##시마":3151,"얻을":3152,"2019":3153,"##라며":3154,"분노":3155,"능력을":3156,"##짓":3157,"소재":3158,"##윤":3159,"##ᆻ다":3160,"##카와":3161,"유명한":3162,"부활":3163,"위험":3164,"이끌":3165,"계획":3166,"##으로서":3167,"정식":3168,"뒷":3169,"직업":3170,"##60":3171,"랜":3172,"정도의":3173,"##군은":3174,"생긴":3175,"##홍":3176,"##시로":3177,"전국":3178,"사람은":3179,"아이템":3180,"##물이":3181,"돌아가":3182,"##37":3183,"##?\"":3184,"비행":3185,"##맥":3186,"##어들":3187,"북한":3188,"##선이":3189,"오늘":3190,"##칙":3191,"##ᆷ보":3192,"##콜":3193,"미국의":3194,"전작":3195,"##지기":3196,"##ent":3197,"아키":3198,"##같이":3199,"스파":3200,"##여서":3201,"##나의":3202,"##계의":3203,"포켓몬":3204,"##나게":3205,"기억":3206,"좋지":3207,"##븐":3208,"##었다고":3209,"##호를":3210,"뚜":3211,"##의를":3212,"사실을":3213,"##되기":3214,"해야":3215,"2016":3216,"인터뷰":3217,"나왔다.":3218,"페이":3219,"##냐고":3220,"이탈리아":3221,"##주를":3222,"대상":3223,"##했으나":3224,"##비를":3225,"##일을":3226,"자랑":3227,"가끔":3228,"you":3229,"미사":3230,"35":3231,"그림":3232,"높다.":3233,"##스토":3234,"##ᅪᆯ":3235,"부여":3236,"것과":3237,"뿌":3238,"각종":3239,"다르게":3240,"##선의":3241,"잡아":3242,"##버린":3243,"##서를":3244,"제이":3245,"##어야":3246,"등으로":3247,"하지만,":3248,"미래":3249,"##ᆫ드":3250,"크리":3251,"과학":3252,"빠른":3253,"##낙":3254,"상황에서":3255,"##방송":3256,"위치한":3257,"##무를":3258,"괜차":3259,"이외":3260,"지켜":3261,"수는":3262,"바람에":3263,"만드는":3264,"##비스":3265,"냉":3266,"##빌":3267,"전반":3268,"거기":3269,"##ᆺ은":3270,"##칼":3271,"##ak":3272,"흘":3273,"##하지만,":3274,"결승":3275,"##음에도":3276,"##ᆼ이":3277,"연출":3278,"옥":3279,"##디어":3280,"누구":3281,"##호가":3282,"적은":3283,"갤러":3284,"특정":3285,"쌓":3286,"작곡":3287,"##시는":3288,"##해진":3289,"참조.":3290,"##수한":3291,"모습이":3292,"32":3293,"2009년":3294,"##시킨":3295,"헬":3296,"있지만,":3297,"##픈":3298,"##림픽":3299,"##프로":3300,"때,":3301,"##다운":3302,"스태":3303,"기관":3304,"재미":3305,"정작":3306,"달라":3307,"클래":3308,"왼":3309,"훈련":3310,"##cm":3311,"있다":3312,"묘사":3313,"쌍":3314,"80":3315,"시전":3316,"##으로도":3317,"1회":3318,"로마":3319,"193":3320,"아카":3321,"아쉬":3322,"라고":3323,"##게임":3324,"##타로":3325,"빅":3326,"스위":3327,"소녀":3328,"##단이":3329,"##동을":3330,"않게":3331,"##모토":3332,"깊":3333,"평균":3334,"##버리":3335,"분류":3336,"##....":3337,"##ᆷ과":3338,"못하는":3339,"전차":3340,"##외로":3341,"##장,":3342,"행정":3343,"따로":3344,"##심이":3345,"##부터는":3346,"건설":3347,"자세한":3348,"##고를":3349,"1년":3350,"##지와":3351,"##()":3352,"하게":3353,"근처":3354,"예상":3355,"##하라":3356,"때문에,":3357,"있다면":3358,"70":3359,"달려":3360,"##퓨":3361,"제일":3362,"##어의":3363,"2008년":3364,"기반":3365,"시작했다.":3366,"##이라면":3367,"별로":3368,"##팩":3369,"아이돌":3370,"타카":3371,"상황이":3372,"경험":3373,"##80":3374,"##고는":3375,"연기":3376,"갑자기":3377,"##대표":3378,"##구가":3379,"보유":3380,"##로운":3381,"포지션":3382,"##쪽으로":3383,"##더니":3384,"소개":3385,"필요한":3386,"경우에는":3387,"명령":3388,"맹":3389,"지도":3390,"##풀":3391,"1차":3392,"설립":3393,"뒤에":3394,"답":3395,"to":3396,"없을":3397,"예를":3398,"것이라고":3399,"이름은":3400,"안에":3401,"꽃":3402,"하늘":3403,"옵":3404,"##일이":3405,"옮":3406,"##스러운":3407,"종족":3408,"깔":3409,"지난":3410,"##ᆫ스":3411,"##mu":3412,"##룬":3413,"옛":3414,"##ᆷ프":3415,"소설":3416,"1위":3417,"##몽":3418,"##가와":3419,"불리":3420,"그룹":3421,"효과를":3422,"일행":3423,"##율이":3424,"##제의":3425,"게임을":3426,"##탑":3427,"확정":3428,"벨":3429,"최고의":3430,"인천":3431,"띄":3432,"##겠다고":3433,"교체":3434,"스포":3435,"안정":3436,"##군을":3437,"발전":3438,"집중":3439,"수행":3440,"##즈의":3441,"공중":3442,"멸":3443,"처음으로":3444,"##ub":3445,"나중에":3446,"지정":3447,"##바이":3448,"압도":3449,"롤":3450,"##덤":3451,"납":3452,"##소가":3453,"홀":3454,"##롭":3455,"##었고,":3456,"사냥":3457,"##ffff":3458,"##부로":3459,"지지":3460,"연합":3461,"덱":3462,"##계가":3463,"경쟁":3464,"##인으로":3465,"없고":3466,"본인이":3467,"##ᅪᆯ영":3468,"사이에":3469,"링크":3470,"파티":3471,"부모":3472,"걸리":3473,"##논":3474,"##'의":3475,"표기":3476,"##도에":3477,"가까운":3478,"등장인물":3479,"혈":3480,"in":3481,"##란드":3482,"##부는":3483,"못했다.":3484,"즉,":3485,"기어":3486,"특이":3487,"잠시":3488,"##폴":3489,"##'를":3490,"##고등학교":3491,"생명":3492,"배치":3493,"본래":3494,"계약":3495,"계열":3496,"애초에":3497,"각성":3498,"일러":3499,"겪":3500,"이게":3501,"##원에":3502,"식으로":3503,"소련":3504,"외국":3505,"##',":3506,"##스코":3507,"없다는":3508,"경우,":3509,"탈출":3510,"##껴":3511,"##야말로":3512,"나올":3513,"이용해":3514,"스테이지":3515,"어째":3516,"전설":3517,"머리":3518,"존재한다.":3519,"##미가":3520,"보니":3521,"##지면":3522,"죽은":3523,"##하나":3524,"사례":3525,"갖고":3526,"2000년":3527,"기다":3528,"징":3529,"없다고":3530,"##mula":3531,"코미":3532,"최강":3533,"빠르게":3534,"스테":3535,"차이가":3536,"물건":3537,"##퀴":3538,"##치기":3539,"치명":3540,"이적":3541,"##mula_":3542,"트리":3543,"##셜":3544,"위의":3545,"##-3":3546,"##았던":3547,"도입":3548,"제거":3549,"##이란":3550,"##역을":3551,"##테이":3552,"빠져":3553,"##어내":3554,"스코":3555,"##ight":3556,"이야기를":3557,"##량을":3558,"지내":3559,"블루":3560,"바꾸":3561,"밑":3562,"##상은":3563,"##마가":3564,"모르":3565,"##됐다.":3566,"##세가":3567,"고양":3568,"##솔":3569,"##꾼":3570,"##em":3571,"##빛":3572,"중에서":3573,"기대":3574,"##겠지만":3575,"##잔":3576,"사용자가":3577,"##만의":3578,"군사":3579,"다크":3580,"부정":3581,"나라":3582,"목록":3583,"##되었고,":3584,"지배":3585,"등장한":3586,"많아":3587,"무슨":3588,"대기":3589,"앤":3590,"라는":3591,"##드시":3592,"##'을":3593,"여기에":3594,"기본적으로":3595,"기동":3596,"그녀의":3597,"유사":3598,"있으면":3599,"지키":3600,"카운":3601,"##스케":3602,"도쿄":3603,"좋아하는":3604,"##ᆱ은":3605,"##간의":3606,"월드컵":3607,"formula_":3608,"완전":3609,"##사이":3610,"이후로":3611,"##화의":3612,"롯":3613,"접근":3614,"말에":3615,"아니면":3616,"##ON":3617,"가운데":3618,"vs":3619,"관한":3620,"2007년":3621,"나름":3622,"##트라":3623,"##꽃":3624,"##치의":3625,"##보는":3626,"이쪽":3627,"밀리":3628,"가스":3629,"저지":3630,"복귀":3631,"##입니다.":3632,"##ce":3633,"##하였고,":3634,"뭔":3635,"카이":3636,"##:0":3637,"과정에서":3638,"남성":3639,"##16":3640,"직후":3641,"짓":3642,"##언을":3643,"##ᆯ링":3644,"등급":3645,"보아":3646,"##ᆯ의":3647,"##ᆷ,":3648,"##문이":3649,"##벼":3650,"올라가":3651,"대구":3652,"차이":3653,"도착":3654,"##AR":3655,"태어나":3656,"유일한":3657,"턴":3658,"##마자":3659,"2,":3660,"남은":3661,"촬영":3662,"##,#":3663,"##25":3664,"##크를":3665,"음반":3666,"##학과":3667,"뇌":3668,"##체의":3669,"가르":3670,"##냐는":3671,"##했으며":3672,"밖":3673,"##진이":3674,"동생":3675,"있으니":3676,"##'라고":3677,"포기":3678,"타격":3679,"변신":3680,"사람을":3681,"연습":3682,"##os":3683,"##ri":3684,"살해":3685,"##:00":3686,"##ᆭ아":3687,"500":3688,"정규":3689,"##um":3690,"##로의":3691,"겸":3692,"##몇":3693,"맞추":3694,"45":3695,"##차가":3696,"##ap":3697,"쫓":3698,"##덴":3699,"공동":3700,"알게":3701,"##버렸다.":3702,"역대":3703,"##터가":3704,"##많은":3705,"##주고":3706,"경기에서":3707,"##아의":3708,"반면":3709,"사용한다.":3710,"##AN":3711,"알려져":3712,"완성":3713,"꼭":3714,"라이브":3715,"했던":3716,"치료":3717,"##드리":3718,"끝에":3719,"##'s":3720,"##레스":3721,"하는데":3722,"##지.":3723,"분명":3724,"회피":3725,"##ᆸ은":3726,"##ᆻ다가":3727,"중간":3728,"##우가":3729,"듣고":3730,"##48":3731,"상태에서":3732,"업그":3733,"##광역":3734,"상당한":3735,"인도":3736,"추천":3737,"##주가":3738,"미니":3739,"범위":3740,"192":3741,"유튜":3742,"해외":3743,"때마다":3744,"심각":3745,"이로":3746,"동물":3747,"타이틀":3748,"통합":3749,"조종":3750,"반드시":3751,"##관을":3752,"##화국":3753,"이하":3754,"환경":3755,"받을":3756,"##몰":3757,"##점은":3758,"준다.":3759,"##\"라고":3760,"일러스트":3761,"고정":3762,"점이":3763,"올려":3764,"LG":3765,"##18":3766,"##and":3767,"싫어":3768,"저항":3769,"이건":3770,"하자":3771,"##력과":3772,"##콩":3773,"기업":3774,"##했는데":3775,"##럭":3776,"##타가":3777,"다루":3778,"##한다":3779,"효과가":3780,"비용":3781,"소리":3782,"웹":3783,"뛰어난":3784,"##자들은":3785,"주민":3786,"욕":3787,"2개":3788,"완벽":3789,"올림픽":3790,"합류":3791,"##진을":3792,"##어는":3793,"몽":3794,"##들로":3795,"지상":3796,"추측":3797,"공간":3798,"경기를":3799,"##했는데,":3800,"데미지":3801,"투수":3802,"##지면서":3803,"몇몇":3804,"마무":3805,"한다는":3806,"높아":3807,"90":3808,"##지라":3809,"##민주":3810,"앞에":3811,"오버":3812,"상관":3813,"점을":3814,"##아이":3815,"후,":3816,"정상":3817,"##문의":3818,"유일하게":3819,"##감이":3820,"##플레이":3821,"회사":3822,"##파트":3823,"끝내":3824,"가서":3825,"자리를":3826,"자체는":3827,"종종":3828,"정의":3829,"개최":3830,"##체는":3831,"규모":3832,"판단":3833,"##가,":3834,"늦":3835,"반대로":3836,"품":3837,"##형을":3838,"가수":3839,"넘어가":3840,"##크래":3841,"요시":3842,"##술을":3843,"곤":3844,"런":3845,"구매":3846,"열린":3847,"##어진":3848,"연재":3849,"우선":3850,"도와":3851,"삭제":3852,"리더":3853,"##분이":3854,"##화된":3855,"##으므로":3856,"점점":3857,"##스카":3858,"##받은":3859,"시간을":3860,"팀의":3861,"롯데":3862,"##뤄":3863,"수많은":3864,"1개":3865,"-3":3866,"탈락":3867,"##버린다.":3868,"##구의":3869,"충격":3870,"##주로":3871,"##두고":3872,"##인,":3873,"날아":3874,"무장":3875,"전통":3876,"다소":3877,"킹":3878,"##펜":3879,"카메":3880,"종교":3881,"밤":3882,"이름으로":3883,"조사":3884,"##시킬":3885,"도중":3886,"##금을":3887,"생활":3888,"##정에":3889,"보기":3890,"##탄을":3891,"##세계":3892,"##ᆻ는데,":3893,"록":3894,"2006년":3895,"##석이":3896,"소유":3897,"##앗":3898,"##꼬":3899,"##이면":3900,"##일러":3901,"봐도":3902,"벤":3903,"널":3904,"##깨":3905,"##지에서":3906,"##용으로":3907,"생성":3908,"프로제":3909,"시대":3910,"기계":3911,"##프가":3912,"스티":3913,"없어서":3914,"##에만":3915,"##나와":3916,"길이":3917,"개봉":3918,"##로우":3919,"##르트":3920,"딜":3921,"##찍":3922,"난이도":3923,"##컨":3924,"밴":3925,"퀴":3926,"장소":3927,"쓰고":3928,"##섯":3929,"##것도":3930,"No":3931,"EX":3932,"##FA":3933,"##멘":3934,"##었고":3935,"힘이":3936,"##회가":3937,"##일부터":3938,"##들어":3939,"생각해":3940,"카드를":3941,"##단계":3942,"시리즈의":3943,"전기":3944,"##하는데,":3945,"Ch":3946,"보여준다.":3947,"아내":3948,"공포":3949,"##무라":3950,"상태로":3951,"인한":3952,"암살":3953,"##인과":3954,"디자인":3955,"죽음":3956,"##되면":3957,"##하자.":3958,"녀":3959,"요청":3960,"제외하면":3961,"##타이":3962,"그린":3963,"2년":3964,"맞춰":3965,"컴퓨":3966,"##받는":3967,"큐":3968,"##차를":3969,"걱":3970,"거쳐":3971,"정리":3972,"맺":3973,"않으면":3974,"의외로":3975,"300":3976,"##셉":3977,"and":3978,"순위":3979,"##14":3980,"아라":3981,"게임이":3982,"##하도록":3983,"##김":3984,"##IN":3985,"히어로":3986,"##돈":3987,"##특별":3988,"야마":3989,"아니고":3990,"화면":3991,"3개":3992,"KBS":3993,"##베이":3994,"##되며":3995,"린":3996,"##톨":3997,"그야말로":3998,"평범":3999,"33":4000,"대중":4001,"변화":4002,"##력의":4003,"##적은":4004,"무조건":4005,"세워":4006,"사업":4007,"전사":4008,"억":4009,"최초의":4010,"##원,":4011,"##식으로":4012,"##판을":4013,"작가":4014,"팀이":4015,"##함이":4016,"워낙":4017,"전개":4018,"트레이":4019,"##이라도":4020,"2020년":4021,"##원에서":4022,"듯하다.":4023,"##어,":4024,"레드":4025,"무엇":4026,"##함으로":4027,"##적으로는":4028,"마사":4029,"##르의":4030,"어려운":4031,"최초로":4032,"홈런":4033,"외에도":4034,"본격":4035,"느껴":4036,"##호선":4037,"것처럼":4038,"하고,":4039,"사무":4040,"##정은":4041,"다행":4042,"##이다":4043,"##질을":4044,"단,":4045,"##스에서":4046,"##TV":4047,"##쪽에":4048,"이와":4049,"##%,":4050,"늘어나":4051,"도전":4052,"빨리":4053,"##트리":4054,"2015":4055,"##op":4056,"##ul":4057,"##성에":4058,"##었을":4059,"##/2":4060,"##운동":4061,"##녕":4062,"##홀":4063,"상징":4064,"##1,":4065,"##방을":4066,"확장":4067,"##속도":4068,"보다":4069,"아무리":4070,"##니티":4071,"##시,":4072,"부하":4073,"##세의":4074,"##안을":4075,"한글":4076,"평소":4077,"비중":4078,"개그":4079,"##한다면":4080,"진화":4081,"##ck":4082,"비롯한":4083,"##넣":4084,"이걸":4085,"경기도":4086,"##롱":4087,"##ter":4088,"투입":4089,"최후":4090,"##했기":4091,"사람들은":4092,"굳이":4093,"충분히":4094,"적의":4095,"##에게서":4096,"##ᆺ의":4097,"##승을":4098,"##ation":4099,"안전":4100,"의하면":4101,"오프":4102,"데미지를":4103,"때까지":4104,"##션을":4105,"범죄":4106,"중반":4107,"대응":4108,"##섭":4109,"##키의":4110,"##적이다.":4111,"없음":4112,"악마":4113,"영혼":4114,"능력이":4115,"##털":4116,"작업":4117,"##법을":4118,"##리게":4119,"##휴":4120,"##험을":4121,"##설이":4122,"##팬":4123,"##군에":4124,"어렵":4125,"##키가":4126,"십":4127,"탓에":4128,"##미를":4129,"언론":4130,"무한":4131,"##ra":4132,"##정의":4133,"##13":4134,"붕":4135,"##트에서":4136,"표시":4137,"##17":4138,"관련된":4139,"등에":4140,"##나를":4141,"##수도":4142,"36":4143,"##'로":4144,"##온다.":4145,"##드에":4146,"쉽":4147,"##드와":4148,"돈을":4149,"##드라":4150,"##왕의":4151,"##조의":4152,"##보고":4153,"거기에":4154,"##보다도":4155,"통과":4156,"##지역":4157,"##동생":4158,"마르":4159,"##둘":4160,"밝혔다.":4161,"##성과":4162,"2005년":4163,"km":4164,"##시오":4165,"##이닝":4166,"대형":4167,"##호는":4168,"버그":4169,"앞서":4170,"##2,":4171,"##구에":4172,"##부에서":4173,"붉은":4174,"##대전":4175,"기존의":4176,"하야":4177,"##뇌":4178,"희생":4179,"##트에":4180,"조작":4181,"컬":4182,"대화":4183,"##다른":4184,"##인가":4185,"손을":4186,"##ᆯ런":4187,"##라우":4188,"운용":4189,"비밀":4190,"성향":4191,"성우는":4192,"##요일":4193,"##덜":4194,"생각하면":4195,"##하려고":4196,"맛":4197,"점령":4198,"##회에서":4199,"특유의":4200,"시민":4201,"듯한":4202,"하며,":4203,"떡":4204,"##ᆻ으니":4205,"##라이더":4206,"오리지":4207,"보조":4208,"##크가":4209,"간단":4210,"구분":4211,"##브로":4212,"말하는":4213,"숫":4214,"거부":4215,"패러":4216,"##너스":4217,"##버리는":4218,"##경을":4219,"th":4220,"##기사":4221,"##IC":4222,"척":4223,"무리":4224,"##젠":4225,"둔":4226,"제3":4227,"바꿔":4228,"##자에":4229,"##도우":4230,"대결":4231,"중심으로":4232,"잭":4233,"##'이라는":4234,"##트와":4235,"기념":4236,"얼마나":4237,"##미의":4238,"##미널":4239,"태양":4240,"본인의":4241,"MA":4242,"하드":4243,"사기":4244,"오랜":4245,"정책":4246,"쥬":4247,"##크의":4248,"패치":4249,"잊":4250,"##자들의":4251,"프로듀":4252,"극장":4253,"명중":4254,"##즈가":4255,"주고":4256,"내에서":4257,"##석을":4258,"맞는":4259,"##ᆯ은":4260,"투표":4261,"선생":4262,"##제는":4263,"잇":4264,"빙":4265,"팩":4266,"장면이":4267,"##깐":4268,"##라,":4269,"칠":4270,"##첩":4271,"확률로":4272,"뚫":4273,"##듬":4274,"선정":4275,"##려면":4276,"반복":4277,"불과":4278,"멋":4279,"사격":4280,"##남도":4281,"마리":4282,"##수,":4283,"인식":4284,"##페이":4285,"다운":4286,"년":4287,"있지":4288,"시기":4289,"##품을":4290,"3일":4291,"마치":4292,"##명으로":4293,"건담":4294,"##했지만,":4295,"체력이":4296,"섞":4297,"##겼다.":4298,"사는":4299,"##단에":4300,"##인들이":4301,"MBC":4302,"##시킨다.":4303,"나오지":4304,"고대":4305,"은퇴":4306,"재료":4307,"시나":4308,"오르":4309,"디지":4310,"프로그램":4311,"이들은":4312,"##레인":4313,"부탁":4314,"대학교":4315,"철도":4316,"지금은":4317,"##으로부터":4318,"되면서":4319,"거두":4320,"내용은":4321,"인터넷":4322,"##ᆯ리티":4323,"맞아":4324,"날려":4325,"##70":4326,"##스탄":4327,"켄":4328,"앞에서":4329,"##론을":4330,"##페이지":4331,"힘든":4332,"##핑":4333,"흉":4334,"2004년":4335,"혁":4336,"선언":4337,"##힐":4338,"신체":4339,"##시대":4340,"영입":4341,"##션이":4342,"적에게":4343,"##쳤다.":4344,"유튜브":4345,"서술":4346,"##치게":4347,"데려":4348,"디자":4349,"진입":4350,"38":4351,"소년":4352,"후속":4353,"올리":4354,"서버":4355,"숲":4356,"몸을":4357,"34":4358,"2회":4359,"##되었으며,":4360,"대표적인":4361,"개조":4362,"##해를":4363,"하는데,":4364,"##때문에":4365,"시스템":4366,"털":4367,"붙어":4368,"##실을":4369,"##광역시":4370,"##전은":4371,"##다시":4372,"목수":4373,"100%":4374,"콤보":4375,"##드,":4376,"##사카":4377,"뻔":4378,"적극":4379,"입고":4380,"SP":4381,"##90":4382,"##설을":4383,"##형이":4384,"앙":4385,"##소년":4386,"득점":4387,"##정으로":4388,"스ᄏ":4389,"소비":4390,"사태":4391,"외모":4392,"중심":4393,"인기":4394,"사쿠":4395,"모르는":4396,"##만으로":4397,"##넘":4398,"닌":4399,"그저":4400,"받는다.":4401,"##규모":4402,"테이":4403,"그걸":4404,"##kg":4405,"##시티":4406,"쥐":4407,"##이니":4408,"##기관":4409,"근데":4410,"You":4411,"##하니":4412,"그려":4413,"오오":4414,"##장과":4415,"방문":4416,"앉":4417,"##전쟁":4418,"클럽":4419,"##보를":4420,"##쯤":4421,"##다이":4422,"때도":4423,"을":4424,"이기":4425,"말았다.":4426,"하나의":4427,"자료":4428,"##쥐":4429,"##전으로":4430,"점프":4431,"불안":4432,"초대":4433,"##마를":4434,"포함한":4435,"##RA":4436,"보상":4437,"##art":4438,"다만,":4439,"설계":4440,"##흑":4441,"든":4442,"국회의":4443,"문제를":4444,"이후에":4445,"2일":4446,"노동":4447,"스카":4448,"도로":4449,"##라.":4450,"광주":4451,"##었다는":4452,"적절":4453,"##젤":4454,"좀비":4455,"##ie":4456,"##트,":4457,"사람의":4458,"무너":4459,"그럼":4460,"장난":4461,"주문":4462,"191":4463,"대해서는":4464,"방어력":4465,"형성":4466,"으":4467,"의한":4468,"오토":4469,"활동을":4470,"아는":4471,"대단":4472,"그때":4473,"##방에":4474,"촉":4475,"무사":4476,"##교육":4477,"##ia":4478,"미드":4479,"##르가":4480,"##해졌다.":4481,"##ᆷ이나":4482,"부분이":4483,"채널":4484,"트로":4485,"놀라":4486,"분리":4487,"단순히":4488,"단계":4489,"살인":4490,"##로도":4491,"전환":4492,"##텐츠":4493,"꽤나":4494,"##핀":4495,"요소":4496,"요리":4497,"##회에":4498,"##활을":4499,"##하려는":4500,"##분을":4501,"VS":4502,"거대한":4503,"오리지널":4504,"펜":4505,"텐":4506,"##하였고":4507,"##고가":4508,"##었지만":4509,"##률이":4510,"##질이":4511,"마침":4512,"정당":4513,"일반적인":4514,"교통":4515,"1000":4516,"##제에":4517,"##복을":4518,"다르다.":4519,"##이지만,":4520,"꾸준":4521,"마음을":4522,"##위는":4523,"##호의":4524,"란":4525,"##구는":4526,"보였다.":4527,"앨버":4528,"받지":4529,"##시브":4530,"##이,":4531,"셰":4532,"##선수":4533,"선보":4534,"나누":4535,"상황을":4536,"##되었고":4537,"비고":4538,"버티":4539,"주연":4540,"착용":4541,"##45":4542,"한국의":4543,"##'가":4544,"##나다":4545,"비난":4546,"##코의":4547,"아프리카":4548,"##:2":4549,"노력":4550,"하나로":4551,"U+":4552,"##ill":4553,"##산을":4554,"##역으로":4555,"떨어진":4556,"##선거":4557,"쿼":4558,"##ab":4559,"##99":4560,"##하므로":4561,"##였고,":4562,"손에":4563,"부대":4564,"특성상":4565,"##릉":4566,"37":4567,"모습으로":4568,"부르는":4569,"관통":4570,"나이트":4571,"대다":4572,"인사":4573,"마무리":4574,"저격":4575,"승강":4576,"##카가":4577,"##스럽게":4578,"##아버":4579,"##센터":4580,"##게이":4581,"##패를":4582,"빼앗":4583,"택":4584,"경상":4585,"##해진다.":4586,"##쇠":4587,"되고,":4588,"멈":4589,"##이상":4590,"대비":4591,"##틱":4592,"##화에":4593,"돌려":4594,"페르":4595,"끌어":4596,"도움을":4597,"##텔":4598,"분야":4599,"챙":4600,"##읍":4601,"훌":4602,"##IA":4603,"보컬":4604,"탑재":4605,"솔로":4606,"##이므로":4607,"여겨":4608,"##니다":4609,"##방의":4610,"더블":4611,"유래":4612,"왕국":4613,"##~2":4614,"임명":4615,"점은":4616,"캠":4617,"코스":4618,"승리를":4619,"캡":4620,"아름":4621,"##어.":4622,"##시켰다.":4623,"원거리":4624,"앞으로":4625,"겹":4626,"눈에":4627,"이것은":4628,"꿈":4629,"나쁘":4630,"바람":4631,"확보":4632,"##지아":4633,"등록":4634,"##ik":4635,"낫":4636,"엑":4637,"연주":4638,"##ᆯ리아":4639,"##즈를":4640,"비교적":4641,"먹고":4642,"죽을":4643,"누군":4644,"점에서":4645,"지적":4646,"완료":4647,"조각":4648,"고등학교":4649,"##러스":4650,"했으나":4651,"스타일":4652,"마나":4653,"##로드":4654,"차례":4655,"브레이":4656,"허용":4657,"짐":4658,"레베":4659,"##딜":4660,"In":4661,"2번":4662,"##진의":4663,"##소녀":4664,"##ᆻ기":4665,"##/0":4666,"스포츠":4667,"보병":4668,"뜬":4669,"미리":4670,"##타는":4671,"##연히":4672,"금지":4673,"2014":4674,"정보를":4675,"##골을":4676,"바탕":4677,"AP":4678,"자신은":4679,"명의":4680,"감안":4681,"브로":4682,"확률":4683,"남편":4684,"컴퓨터":4685,"등장.":4686,"인기가":4687,"아시아":4688,"일어난":4689,"서브":4690,"##수에":4691,"##자에게":4692,"##다보니":4693,"##과를":4694,"한다고":4695,"##밥":4696,"확실히":4697,"연장":4698,"##그룹":4699,"센터":4700,"고속":4701,"필살":4702,"엠":4703,"그리스":4704,"일은":4705,"##야.":4706,"##답게":4707,"##시키고":4708,"##35":4709,"##에서만":4710,"10일":4711,"PC":4712,"만들어진":4713,"15일":4714,"##신은":4715,"실시":4716,"##요?":4717,"탱":4718,"##촉":4719,"그레이":4720,"##힌다.":4721,"##놓은":4722,"구축":4723,"전략":4724,"##고속":4725,"거주":4726,"150":4727,"##금이":4728,"##all":4729,"##식의":4730,"덴":4731,"개녀":4732,"작성":4733,"##가로":4734,"##선에":4735,"##초등학교":4736,"##판이":4737,"트랙":4738,"75":4739,"논란이":4740,"##역이":4741,"##서,":4742,"묶":4743,"##타임":4744,"##리에서":4745,"인류":4746,"장갑":4747,"딱히":4748,"지닌":4749,"##ne":4750,"먹는":4751,"##멀":4752,"주목":4753,"원정":4754,"추가로":4755,"그에":4756,"죠":4757,"##쌍":4758,"##바로":4759,"세트":4760,"상처":4761,"##력에":4762,"고통":4763,"국가대표":4764,"포인트":4765,"가게":4766,"1번":4767,"병사":4768,"곳에":4769,"##\"라는":4770,"줘":4771,"이사":4772,"##AT":4773,"##악의":4774,"##루가":4775,"##마트":4776,"발언":4777,"##성도":4778,"포르":4779,"측면":4780,"가리":4781,"기술을":4782,"얻어":4783,"##당의":4784,"상대가":4785,"말했다.":4786,"##ea":4787,"##킬":4788,"멘":4789,"편집":4790,"##문화":4791,"##개로":4792,"때의":4793,"##나무":4794,"임무":4795,"수밖에":4796,"II":4797,"그만":4798,"일반적으로":4799,"##받아":4800,"나뉘":4801,"##에게도":4802,"해석":4803,"##ue":4804,"##자들":4805,"##까지도":4806,"이전에":4807,"계회":4808,"##EN":4809,"캐릭터가":4810,"짧은":4811,"거짓":4812,"제외하고":4813,"190":4814,"2002년":4815,"윈":4816,"떨어져":4817,"사용한":4818,"픽":4819,"##사에서":4820,"걱정":4821,"아메":4822,"##미는":4823,"##:5":4824,"멸망":4825,"##북도":4826,"##리며":4827,"\"이":4828,"수호":4829,"##우고":4830,"그녀는":4831,"##피아":4832,"희망":4833,"30일":4834,"아나":4835,"따른":4836,"이유가":4837,"곳이":4838,"필요가":4839,"스킬을":4840,"##님이":4841,"##FF":4842,"끝난":4843,"##워서":4844,"있습니다.":4845,"이용한":4846,"5일":4847,"있도록":4848,"##움을":4849,"3년":4850,"##코가":4851,"##랭크":4852,"모아":4853,"생기":4854,"개의":4855,"본인은":4856,"뿐만":4857,"만한":4858,"시작한다.":4859,"라디오":4860,"##PS":4861,"불리는":4862,"##위의":4863,"##붕":4864,"##동,":4865,"동맹":4866,"##빵":4867,"##래도":4868,"알려진":4869,"##권이":4870,"##도시":4871,"웬":4872,"##공을":4873,"플라":4874,"장기":4875,"##롭게":4876,"방해":4877,"##ll":4878,"20일":4879,"커뮤":4880,"##ct":4881,"가벼":4882,"로봇":4883,"여행":4884,"##레이션":4885,"어찌":4886,"##상에서":4887,"를":4888,"부른다.":4889,"유우":4890,"48":4891,"##AL":4892,"##발을":4893,"##겠다는":4894,"젊은":4895,"잠깐":4896,"##닥":4897,"초반에":4898,"##포를":4899,"제압":4900,"제조":4901,"##동이":4902,"##ss":4903,"##량의":4904,"제시":4905,"##셰":4906,"유도":4907,"삶":4908,"##화에서는":4909,"2003년":4910,"##기.":4911,"25일":4912,"##디아":4913,"메가":4914,"카즈":4915,"프레":4916,"##되었던":4917,"에너지":4918,"사이에서":4919,"겨우":4920,"중단":4921,"##하여,":4922,"넥":4923,"##리면":4924,"없기":4925,"멀티":4926,"##상태":4927,"##:1":4928,"##하의":4929,"사령":4930,"뮤직":4931,"##되며,":4932,"##엽":4933,"평범한":4934,"##서가":4935,"녀석":4936,"가정":4937,"##뒤":4938,"기체":4939,"위협":4940,"##빨":4941,"##회는":4942,"55":4943,"내부":4944,"##티어":4945,"##크래프트":4946,"엄청나게":4947,"해군":4948,"골드":4949,"업데이트":4950,"##토가":4951,"형태로":4952,"삼국":4953,"##-4":4954,"오리":4955,"##헨":4956,"생물":4957,"##단은":4958,"##ate":4959,"평가를":4960,"##스트로":4961,"흡수":4962,"##륭":4963,"속도가":4964,"던전":4965,"덜":4966,"레어":4967,"있으나":4968,"원래는":4969,"##관은":4970,"예전":4971,"업그레이드":4972,"출생":4973,"약속":4974,"##카의":4975,"파트":4976,"필수":4977,"##툰":4978,"당선":4979,"보여줘":4980,"육군":4981,"##기술":4982,"시험":4983,"혜":4984,"멀리":4985,"##조가":4986,"##직을":4987,"어느정도":4988,"##gt;":4989,"st":4990,"##차로":4991,"3,":4992,"42":4993,"##락을":4994,"##대에서":4995,"##해지":4996,"화염":4997,"자신에게":4998,"##OR":4999,"버프":5000,"그들의":5001,"##웨이":5002,"오후":5003,"지역의":5004,"산업":5005,"##해져":5006,"최대한":5007,"+1":5008,"카오":5009,"무서":5010,"4일":5011,"##도와":5012,"공략":5013,"##루스":5014,"내용을":5015,"대공":5016,"되기":5017,"달러":5018,"만다.":5019,"안타":5020,"##량은":5021,"드라이":5022,"보급":5023,"대놓고":5024,"황금":5025,"서비스":5026,"종합":5027,"나카":5028,"##dddddd":5029,"##하기로":5030,"개선":5031,"##세트":5032,"##,#dddddd":5033,"28일":5034,"##'이":5035,"궁극":5036,"##모를":5037,"##되기도":5038,"7일":5039,"궤":5040,"없지만":5041,"이것이":5042,"##사키":5043,"무게":5044,"##농":5045,"뉴욕":5046,"##계에":5047,"눈을":5048,"어ᄍ":5049,"이후에는":5050,"제안":5051,"##델":5052,"게임의":5053,"물어":5054,"직전":5055,"봉인":5056,"처음에는":5057,"실험":5058,"팀을":5059,"##,000,000":5060,"코너":5061,"증거":5062,"##까지의":5063,"##딘":5064,"드러나":5065,"미나":5066,"해금":5067,"##리트":5068,"50%":5069,"이거":5070,"엉":5071,"중화":5072,"##주시":5073,"##륜":5074,"받아들":5075,"##성,":5076,"##했다":5077,"##.10":5078,"##사건":5079,"##든지":5080,"##'는":5081,"맞고":5082,"##미야":5083,"유용":5084,"이야기가":5085,"광역":5086,"어울":5087,"##ove":5088,"Re":5089,"##물로":5090,"끝까지":5091,"귀족":5092,"테러":5093,"MP":5094,"##&gt;":5095,"##라스":5096,"##ᆸ터":5097,"게시":5098,"중이다.":5099,"##권의":5100,"이론":5101,"길을":5102,"이곳":5103,"##성으로":5104,"##하이":5105,"##ᆻ으면":5106,"##lt;":5107,"자이":5108,"도움이":5109,"유키":5110,"##수와":5111,"사상":5112,"##ard":5113,"오스트":5114,"##대,":5115,"##oo":5116,"잡고":5117,"단체":5118,"##카드":5119,"홈페이지":5120,"능력치":5121,"시나리오":5122,"랭크":5123,"##니스":5124,"##값":5125,"떼":5126,"현재의":5127,"시내":5128,"##ell":5129,"수준의":5130,"흔히":5131,"인기를":5132,"밸런":5133,"용병":5134,"콩":5135,"##ᆼ가":5136,"드러내":5137,"거절":5138,"##ang":5139,"미친":5140,"##받고":5141,"컨트로":5142,"27일":5143,"걸어":5144,"##3,":5145,"죽이":5146,"##ers":5147,"1.":5148,"집에":5149,"##프의":5150,"##능력":5151,"서포":5152,"##라와":5153,"아스":5154,"##구나":5155,"Sh":5156,"##비의":5157,"소리를":5158,"무기를":5159,"##식은":5160,"##험이":5161,"##우의":5162,"보여주는":5163,"홍콩":5164,"SBS":5165,"뛰어":5166,"##ant":5167,"쿄":5168,"전술":5169,"소울":5170,"애매":5171,"미야":5172,"스페인":5173,"뭔가":5174,"##이라서":5175,"뒤로":5176,"##쥬":5177,"민족":5178,"##기만":5179,"##모로":5180,"렌":5181,"걸로":5182,"10%":5183,"##ine":5184,"##었는데":5185,"##토의":5186,"##OS":5187,"전자":5188,"##옹":5189,"##서의":5190,"또한,":5191,"##자들을":5192,"해주":5193,"왼쪽":5194,"때부터":5195,"##제이":5196,"개편":5197,"14일":5198,"##랭":5199,"습격":5200,"##타의":5201,"폰":5202,"##크는":5203,"##PC":5204,"보이지":5205,"위에서":5206,"히트":5207,"싶어":5208,"##다면,":5209,"##마스":5210,"##연구":5211,"##달라고":5212,"본편":5213,"##오의":5214,"발휘":5215,"찰":5216,"레이저":5217,"[[":5218,"카페":5219,"##하자면":5220,"##융":5221,"참고.":5222,"##관의":5223,"39":5224,"없게":5225,"속에서":5226,"##등을":5227,"반란":5228,"바뀌었다.":5229,"타임":5230,"폭탄":5231,"재생":5232,"##셀":5233,"갱":5234,"상대적으로":5235,"##라리":5236,"밀려":5237,"자살":5238,"##품이":5239,"추가된":5240,"공통":5241,"계산":5242,"거대":5243,"처치":5244,"서울특별":5245,"##형의":5246,"기록했다.":5247,"시작한":5248,"말고":5249,"##둑":5250,"##ᆻ지만,":5251,"##어져":5252,"##물의":5253,"슬로":5254,"21일":5255,"당장":5256,"모자":5257,"##대와":5258,"##다가,":5259,"##였고":5260,"부상":5261,"겨울":5262,"지옥":5263,"진영":5264,"강제":5265,"문제로":5266,"타이밍":5267,"##키를":5268,"##ᆺ으로":5269,"사건이":5270,"비록":5271,"한다":5272,"##팡":5273,"어렵다.":5274,"건너":5275,"지명":5276,"단독":5277,"##중학교":5278,"근거":5279,"##개월":5280,"26일":5281,"원하는":5282,"##마을":5283,"기원":5284,"바르":5285,"##향이":5286,"상대의":5287,"##전사":5288,"##해보":5289,"쉬운":5290,"상황에":5291,"텔레":5292,"##조를":5293,"낳":5294,"퓨":5295,"동일한":5296,"##주차":5297,"수치":5298,"구입":5299,"벗어나":5300,"레전":5301,"##적이고":5302,"줄어들":5303,"##토를":5304,"##ᆷ이다.":5305,"2.":5306,"맡았다.":5307,"못한다.":5308,"온라인":5309,"하나를":5310,"##다고.":5311,"깎":5312,"##AS":5313,"에어":5314,"크다.":5315,"##학을":5316,"##당이":5317,"알렉":5318,"12일":5319,"아무래도":5320,"들어서":5321,"시설":5322,"##심히":5323,"8일":5324,"중에서도":5325,"17일":5326,"##쳐서":5327,"르":5328,"누가":5329,"##교통":5330,"##면서도":5331,"Sp":5332,"헤이":5333,"출발":5334,"스크":5335,"##만크":5336,"##AM":5337,"11일":5338,"##모리":5339,"##갖":5340,"##느냐":5341,"##비는":5342,"미사일":5343,"##ᆺ글":5344,"향해":5345,"##와서":5346,"##/3":5347,"꼽":5348,"##에,":5349,"상태가":5350,"반영":5351,"숨겨":5352,"뛰어나":5353,"황제":5354,"다름":5355,"고유":5356,"##ED":5357,"꾸준히":5358,"##.12":5359,"상대를":5360,"붕괴":5361,"하나가":5362,"18일":5363,"##ive":5364,"##격이":5365,"흰":5366,"22일":5367,"##찾":5368,"꼴":5369,"그녀를":5370,"광고":5371,"자기가":5372,"##즈는":5373,"##렛":5374,"##율을":5375,"조준":5376,"##하였으며,":5377,"행복":5378,"이미지":5379,"16일":5380,"만족":5381,"13일":5382,"밴드":5383,"##구로":5384,"FI":5385,"떨어지는":5386,"우려":5387,"2013":5388,"##사항":5389,"표준":5390,"시티":5391,"프레이":5392,"##윈":5393,"존재하는":5394,"24일":5395,"##원과":5396,"사항":5397,"6일":5398,"##파이":5399,"액션":5400,"##먼트":5401,"##기인":5402,"떨":5403,"탑승":5404,"못해":5405,"##오가":5406,"관광":5407,"##철도":5408,"##치지":5409,"싶은":5410,"장르":5411,"##VE":5412,"실질":5413,"##되고,":5414,"##하러":5415,"사실은":5416,"23일":5417,"강조":5418,"##돌이":5419,"루이":5420,"##묵":5421,"판타":5422,"혼란":5423,"##점에서":5424,"이래":5425,"아우":5426,"채용":5427,"되었고,":5428,"##500":5429,"핀":5430,"캔":5431,"머리를":5432,"어그":5433,"##하게도":5434,"방식으로":5435,"Th":5436,"##있던":5437,"데이터":5438,"##ᆷ스":5439,"라이트":5440,"싸워":5441,"약한":5442,"##사인":5443,"##ee":5444,"##니가":5445,"2001년":5446,"스테이":5447,"커버":5448,"두산":5449,"##였지만":5450,"##먹는":5451,"그것을":5452,"뿐이다.":5453,"파악":5454,"테마":5455,"꺼내":5456,"##-10":5457,"9일":5458,"공산":5459,"##친다.":5460,"##것이":5461,"흘러":5462,"필드":5463,"거리":5464,"내용이":5465,"쏟":5466,"##ᆺ포":5467,"##/32":5468,"인생":5469,"것이라":5470,"##ack":5471,"사람들":5472,"위로":5473,"우승을":5474,"##선은":5475,"##ast":5476,"얘기":5477,"료":5478,"오는":5479,"##권에서":5480,"19일":5481,"만들었다.":5482,"주도":5483,"##스에게":5484,"닥터":5485,"있으므로":5486,"문서:":5487,"바닥":5488,"둘러":5489,"##과학":5490,"##이던":5491,"온갖":5492,"그게":5493,"##자마자":5494,"지하철":5495,"하위":5496,"돌파":5497,"##ᆷ에서":5498,"##안타":5499,"덩":5500,"인간의":5501,"가로":5502,"##주년":5503,"SS":5504,"아오":5505,"탄생":5506,"##히고":5507,"당시에는":5508,"처음부터":5509,"이상한":5510,"##론이":5511,"해제":5512,"활약을":5513,"훌륭":5514,"힘들다.":5515,"29일":5516,"프로젝트":5517,"##만은":5518,"모험":5519,"##곳에":5520,"구단":5521,"##화로":5522,"##끼리":5523,"##오카":5524,"120":5525,"BG":5526,"공격력이":5527,"스파이":5528,"극장판":5529,"##정부":5530,"##임에도":5531,"수원":5532,"삽":5533,"##세는":5534,"##마리":5535,"안습":5536,"없고,":5537,"두번째":5538,"##베르":5539,"주어":5540,"##시와":5541,"이들":5542,"패러디":5543,"3회":5544,"##어주":5545,"##모가":5546,"살짝":5547,"##닌":5548,"작전":5549,"##밀리":5550,"##할때":5551,"##자리":5552,"이스":5553,"##잖아":5554,"##차피":5555,"##로그":5556,"공항":5557,"##373":5558,"융":5559,"나오고":5560,"배신":5561,"고민":5562,"어쩔":5563,"##루를":5564,"##선에서":5565,"데스":5566,"사람들을":5567,"그렇다고":5568,"##왕이":5569,"##'에":5570,"지급":5571,"둘이":5572,"아야":5573,"1위를":5574,"사과":5575,"##4,":5576,"##스트를":5577,"##국이":5578,"플레이어가":5579,"는":5580,"##다지":5581,"기여":5582,"분석":5583,"##기에는":5584,"가입":5585,"기ᄈ":5586,"##가능":5587,"않기":5588,"##전에서는":5589,"##은행":5590,"만에":5591,"##바람":5592,"건축":5593,"단일":5594,"마지막으로":5595,"화살":5596,"속에":5597,"##ong":5598,"보여준":5599,"들어오":5600,"아니지만":5601,"##았을":5602,"있었고,":5603,"##개가":5604,"않지만":5605,"클로":5606,"확률이":5607,"언어":5608,"갖추":5609,"옮겨":5610,"실행":5611,"##uby":5612,"ST":5613,"중간에":5614,"통일":5615,"##데미":5616,"납치":5617,"##AC":5618,"##점에":5619,"뻐":5620,"##로서의":5621,"##if":5622,"후쿠":5623,"마련":5624,"얻은":5625,"덮":5626,"##루의":5627,"추정된다.":5628,"즉시":5629,"스프":5630,"당황":5631,"스킬이":5632,"기획":5633,"횟":5634,"시점에서":5635,"뒤집":5636,"##오프":5637,"나쁜":5638,"##화는":5639,"말해":5640,"47":5641,"외에":5642,"신뢰":5643,"be":5644,"에서":5645,"디스":5646,"일종의":5647,"입은":5648,"##ort":5649,"의심":5650,"들어간":5651,"이름의":5652,"##진은":5653,"명예":5654,"방패":5655,"은근":5656,"셈.":5657,"일으켜":5658,"10년":5659,"와중에":5660,"##ind":5661,"오프닝":5662,"##동에":5663,"말도":5664,"##속성":5665,"아사":5666,"오른쪽":5667,"##거리가":5668,"##ith":5669,"바탕으로":5670,"##버렸":5671,"##판에":5672,"##3c":5673,"수입":5674,"##ᆯ린":5675,"3번":5676,"##파이어":5677,"##위원회":5678,"##방이":5679,"##담을":5680,"사실이":5681,"##ld":5682,"2012":5683,"있었지만":5684,"한때":5685,"한국어":5686,"내에":5687,"물러":5688,"시행":5689,"몰아":5690,"##ly":5691,"##놀":5692,"##증을":5693,"괜찮":5694,"보수":5695,"##즈키":5696,"패시브":5697,"밟":5698,"400":5699,"##정보":5700,"때려":5701,"##르기":5702,"기절":5703,"열심히":5704,"##토리":5705,"것이라는":5706,"것이었다.":5707,"##5%":5708,"##하긴":5709,"받게":5710,"하기도":5711,"이슬":5712,"##EC":5713,"##LC":5714,"몰라":5715,"##ruby":5716,"데미지가":5717,"버튼":5718,"감독의":5719,"교환":5720,"스튜":5721,"동아":5722,"입학":5723,"불명":5724,"내내":5725,"성적":5726,"대답":5727,"##지마":5728,"설득":5729,"음식":5730,"옆에":5731,"커뮤니티":5732,"아웃":5733,"기독":5734,"제주":5735,"##군과":5736,"인지":5737,"하던":5738,"절반":5739,"PS":5740,"##역에서":5741,"역전":5742,"여름":5743,"주력":5744,"##니어":5745,"들어가는":5746,"##a3c":5747,"##373a3c":5748,"만난":5749,"가까이":5750,"##ist":5751,"##터의":5752,"않아서":5753,"뒤,":5754,"##치에":5755,"##시리즈":5756,"##다\"고":5757,"서울특별시":5758,"##럴":5759,"옵션":5760,"##지며":5761,"##장.":5762,"링":5763,"##렴":5764,"##ruby]":5765,"어차피":5766,"##선으로":5767,"대미지":5768,"##단으로":5769,"사정":5770,"제국의":5771,"실력":5772,"공유":5773,"##지방":5774,"등등":5775,"##티컬":5776,"##하기에":5777,"##켄":5778,"시키":5779,"없애":5780,"이승":5781,"아티":5782,"##ain":5783,"##마법":5784,"스페셜":5785,"피아":5786,"20%":5787,"제로":5788,"46":5789,"##룩":5790,"아시":5791,"조정":5792,"경유":5793,"##쿨":5794,"2위":5795,"외교":5796,"##니,":5797,"댓글":5798,"랭":5799,"##'으로":5800,"계승":5801,"44":5802,"습득":5803,"메이저":5804,"집안":5805,"수리":5806,"##마이":5807,"아이템을":5808,"오픈":5809,"##역,":5810,"##ffffff":5811,"행동을":5812,"##명,":5813,"##0000":5814,"공주":5815,"무력":5816,"브라질":5817,"##VP":5818,"제기":5819,"##지컬":5820,"공을":5821,"초월":5822,"눈치":5823,"##까?":5824,"##기에서":5825,"건강":5826,"값":5827,"##원들이":5828,"##인지라":5829,"놓고":5830,"베르":5831,"##우를":5832,"발음":5833,"##이와":5834,"장애":5835,"가면라이더":5836,"두려":5837,"걸려":5838,"김성":5839,"##바라":5840,"##급의":5841,"펼쳐":5842,"공격이":5843,"2루":5844,"작품이":5845,"##둬":5846,"##탐":5847,"위하여":5848,"부분은":5849,"못하게":5850,"로드":5851,"위키":5852,"박살":5853,"##~3":5854,"시켜":5855,"돌격":5856,"##소의":5857,"##말을":5858,"엑스":5859,"안드로":5860,"##지자":5861,"울트라":5862,"##족의":5863,"##-5":5864,"재능":5865,"카드가":5866,"##ps":5867,"##per":5868,"경계":5869,"##되었으며":5870,"형제":5871,"가득":5872,"했는데":5873,"##각을":5874,"팀은":5875,"##공항":5876,"##프는":5877,"##권에":5878,"롱":5879,"##화,":5880,"##면을":5881,"##했다가":5882,"노래를":5883,"계속해서":5884,"##연합":5885,"사이트":5886,"정말로":5887,"노르":5888,"근무":5889,"##//":5890,"##병을":5891,"사거리":5892,"##했으나,":5893,"정글":5894,"##치와":5895,"##싼":5896,"1999년":5897,"##하지는":5898,"이뤄":5899,"붙여":5900,"비롯":5901,"캐나다":5902,"기독교":5903,"##]]":5904,"레인":5905,"마주":5906,"##가에":5907,"살고":5908,"카르":5909,"말한":5910,"사이의":5911,"##.11":5912,"##즘":5913,"추진":5914,"쇠":5915,"위해서는":5916,"당시의":5917,"##est":5918,"선배":5919,"곳에서":5920,"마츠":5921,"내구":5922,"##홈":5923,"딜러":5924,"예술":5925,"그다지":5926,"격파":5927,"맡은":5928,"가문":5929,"공작":5930,"##해지는":5931,"갑오":5932,"자동차":5933,"나의":5934,"밥":5935,"클리":5936,"그녀가":5937,"##ᆷ입":5938,"제품":5939,"붙잡":5940,"##낼":5941,"북미":5942,"사람도":5943,"###x":5944,"룰":5945,"얼음":5946,"고급":5947,"글로":5948,"안되는":5949,"##요!":5950,"메탈":5951,"덕에":5952,"##판의":5953,"정도는":5954,"통한":5955,"민간":5956,"격투":5957,"적도":5958,"##였다고":5959,"##장인":5960,"마녀":5961,"증명":5962,"책임":5963,"남겨":5964,"수용":5965,"##츄":5966,"점수":5967,"3차":5968,"의미가":5969,"##부와":5970,"##니의":5971,"보인":5972,"심각한":5973,"그럴":5974,"쓰지":5975,"##해주는":5976,"마법사":5977,"정령":5978,"쓰러뜨":5979,"오로":5980,"거래":5981,"후에는":5982,"의도":5983,"베트":5984,"효율":5985,"##시스":5986,"그동안":5987,"하다가":5988,"##눈":5989,"01":5990,"##프레":5991,"울산":5992,"사용하면":5993,"##류가":5994,"해체":5995,"죽는":5996,"뒤를":5997,"없었던":5998,"\"그":5999,"##납":6000,"##구,":6001,"일부러":6002,"1998년":6003,"07":6004,"연예":6005,"전달":6006,"프로토":6007,"입단":6008,"그것도":6009,"크레":6010,"이들이":6011,"NC":6012,"다행히":6013,"##긴다.":6014,"##HE":6015,"##면에":6016,"##기간":6017,"관심을":6018,"홍보":6019,"셋":6020,"지역에":6021,"네이버":6022,"데리고":6023,"전투에서":6024,"##껏":6025,"##FC":6026,"##33":6027,"&lt;":6028,"##ry":6029,"하수":6030,"##악한":6031,"정체":6032,"생각하는":6033,"도달":6034,"때문인지":6035,"와서":6036,"세력":6037,"국회의원":6038,"##lo":6039,"##OL":6040,"신인":6041,"암흑":6042,"모양.":6043,"역으로":6044,"하나인":6045,"네덜":6046,"아무도":6047,"전체적으로":6048,"##디언":6049,"복잡":6050,"##관으로":6051,"##았다고":6052,"했을":6053,"체포":6054,"스트라이":6055,"귀여":6056,"취소":6057,"순식":6058,"떠올":6059,"옹":6060,"##워드":6061,"사건을":6062,"늑":6063,"비하면":6064,"걷":6065,"##판은":6066,"##해,":6067,"자리에":6068,"##IT":6069,"쓰레":6070,"##기까지":6071,"힐":6072,"##사용":6073,"느낌이":6074,"회전":6075,"##64":6076,"실제로는":6077,"##판에서는":6078,"##별로":6079,"파견":6080,"잉글":6081,"화려":6082,"서비":6083,"관계를":6084,"컨셉":6085,"##색이":6086,"투자":6087,"##해졌":6088,"아무런":6089,"쓰이는":6090,"##땅":6091,"포인":6092,"패치로":6093,"얼굴을":6094,"감염":6095,"무난":6096,"##스포":6097,"목적으로":6098,"했다고":6099,"발매된":6100,"보여주었다.":6101,"'이":6102,"##등급":6103,"##적의":6104,"8강":6105,"추가되었다.":6106,"작용":6107,"낚":6108,"돌아와":6109,"개통":6110,"소프트":6111,"선호":6112,"##리안":6113,"연계":6114,"한계":6115,"##들이다.":6116,"드랍":6117,"돌아오":6118,"##실이":6119,"시야":6120,"소멸":6121,"##스팅":6122,"꺾":6123,"못할":6124,"##시간이":6125,"않고,":6126,"주인공이":6127,"##마는":6128,"지금까지":6129,"자원":6130,"핵심":6131,"여동생":6132,"관객":6133,"에이스":6134,"통해서":6135,"##373a3c,#dddddd":6136,"선수가":6137,"##-12":6138,"08":6139,"##코는":6140,"텍":6141,"대륙":6142,"##큰":6143,"싸우는":6144,"균":6145,"##었는데,":6146,"입수":6147,"02":6148,"살아남":6149,"CD":6150,"##거운":6151,"부터":6152,"##치,":6153,"순식간에":6154,"깃":6155,"##자들에게":6156,"##'이라고":6157,"##오를":6158,"겐":6159,"경영":6160,"방향으로":6161,"이겨":6162,"부족한":6163,"이들의":6164,"신의":6165,"채로":6166,"때에는":6167,"많았다.":6168,"수요":6169,"맞이":6170,"출판":6171,"한화":6172,"로켓":6173,"넘겨":6174,"얻는":6175,"첫번째":6176,"어려워":6177,"43":6178,"##인.":6179,"노트":6180,"열차":6181,"자치":6182,"##담이":6183,"##유키":6184,"넓은":6185,"족":6186,"노출":6187,"쓰인다.":6188,"난이도가":6189,"on":6190,"카운터":6191,"고전":6192,"##관에":6193,"##호,":6194,"##티아":6195,"##달리":6196,"대규모":6197,"방송을":6198,"##컷":6199,"##류를":6200,"가이":6201,"대장":6202,"있긴":6203,"##로로":6204,"닿":6205,"##가락":6206,"##인에게":6207,"or":6208,"1997년":6209,"그만큼":6210,"함정":6211,"교황":6212,"당한":6213,"##하시":6214,"강원":6215,"방법을":6216,"폐지":6217,"##PU":6218,"리버":6219,"충청":6220,"빨간":6221,"##보단":6222,"정확히":6223,"##우리":6224,"##중한":6225,"셔":6226,"문을":6227,"나루":6228,"윌리":6229,"의사":6230,"최악의":6231,"수학":6232,"흔들":6233,"##대회":6234,"기회를":6235,"me":6236,"##BO":6237,"몰래":6238,"요새":6239,"다녀":6240,"모티브":6241,"체육":6242,"듀얼":6243,"출현":6244,"돌진":6245,"##임이":6246,"파이널":6247,"해방":6248,"##깔":6249,"캐릭터의":6250,"인근":6251,"넘는":6252,"걸쳐":6253,"의식":6254,"##당을":6255,"공화국":6256,"몸이":6257,"##형은":6258,"3.":6259,"##100":6260,"##해가":6261,"스킨":6262,"괴물":6263,"##주,":6264,"크리티컬":6265,"##었으나":6266,"##체로":6267,"구현":6268,"##만원":6269,"##종이":6270,"테크":6271,"변호":6272,"교수":6273,"##역에":6274,"본격적으로":6275,"드디어":6276,"러브":6277,"쓴다.":6278,"##쓸":6279,"##ᆻ어":6280,"06":6281,"뉴스":6282,"##인들은":6283,"등에서":6284,"프리미":6285,"##널티":6286,"아닐":6287,"##부,":6288,"폭풍":6289,"부진":6290,"##냈다.":6291,"있었으나":6292,"협력":6293,"일으키":6294,"##ust":6295,"감독이":6296,"중인":6297,"낭":6298,"불꽃":6299,"닮":6300,"하자.":6301,"계급":6302,"편이":6303,"후지":6304,"조용":6305,"깊은":6306,"기초":6307,"어쨌":6308,"99":6309,"해당하는":6310,"단지":6311,"까다":6312,"##인민":6313,"##카를":6314,"##시장":6315,"등판":6316,"##관계":6317,"##목을":6318,"##아웃":6319,"64":6320,"##즐":6321,"1인":6322,"Su":6323,"추락":6324,"AT":6325,"52":6326,"##낸다.":6327,"됐다.":6328,"다니는":6329,"편성":6330,"이용하여":6331,"##일은":6332,"##거리는":6333,"고양이":6334,"연방":6335,"드립":6336,"##라노":6337,"눈이":6338,"신청":6339,"모리":6340,"기록을":6341,"##끄러":6342,"묵":6343,"섭":6344,"보도":6345,"it":6346,"대로":6347,"방법이":6348,"신규":6349,"##인이다.":6350,"목숨을":6351,"09":6352,"의견이":6353,"아무것도":6354,"03":6355,"NPC":6356,"아니라,":6357,"유전":6358,"##숭":6359,"셀":6360,"충전":6361,"응원":6362,"기능을":6363,"긍":6364,"그에게":6365,"대상으로":6366,"유명하다.":6367,"해적":6368,"##5,":6369,"영원":6370,"간의":6371,"##앤":6372,"49":6373,"##크라":6374,"되찾":6375,"##실에":6376,"그들은":6377,"옷":6378,"이쪽은":6379,"##se":6380,"최상":6381,"했지만,":6382,"쓰면":6383,"##믹":6384,"##팀이":6385,"여러가지":6386,"크루":6387,"아일":6388,"31일":6389,"180":6390,"통신":6391,"튜":6392,"##뜩":6393,"##시한":6394,"##브를":6395,"잡혀":6396,"##ore":6397,"집단":6398,"대립":6399,"##어와":6400,"##으려":6401,"##리스트":6402,"중.":6403,"견제":6404,"...":6405,"##것을":6406,"스마트":6407,"가능.":6408,"##소에":6409,"##한국":6410,"수집":6411,"##아파트":6412,"카나":6413,"쪽으로":6414,"##고의":6415,"is":6416,"무지":6417,"##경이":6418,"행사":6419,"##효과":6420,"성능이":6421,"##스턴":6422,"부분을":6423,"##머리":6424,"##까지만":6425,"죽여":6426,"##멍":6427,"전라":6428,"있었는데,":6429,"##형으로":6430,"필요하다.":6431,"##터리":6432,"되는데":6433,"치고":6434,"없다":6435,"##파의":6436,"##로스":6437,"##향을":6438,"##톨릭":6439,"이후로는":6440,"비슷하게":6441,"운전":6442,"아직도":6443,"말이다.":6444,"동원":6445,"매일":6446,"이후의":6447,"말할":6448,"##one":6449,"갓":6450,"##비전":6451,"거야":6452,"##공의":6453,"##색을":6454,"모른":6455,"우리가":6456,"옛날":6457,"있어야":6458,"모습은":6459,"화이트":6460,"모바":6461,"어깨":6462,"US":6463,"공부":6464,"마지막에":6465,"조지":6466,"##박을":6467,"모른다.":6468,"##듯.":6469,"##주인":6470,"평화":6471,"반응을":6472,"##자키":6473,"무료":6474,"##컴":6475,"영상을":6476,"경기가":6477,"뜻은":6478,"덤":6479,"생각을":6480,"##악을":6481,"불편":6482,"해설":6483,"만들고":6484,"트위터":6485,"##장한":6486,"먹을":6487,"##아,":6488,"효과는":6489,"여러모로":6490,"글을":6491,"훔":6492,"공급":6493,"##야의":6494,"##6,":6495,"##스트라":6496,"무대":6497,"보너스":6498,"##잘":6499,"다수":6500,"괜찮은":6501,"파이어":6502,"##되자":6503,"런던":6504,"필리":6505,"##섬":6506,"고생":6507,"파이터":6508,"컨텐츠":6509,"##저히":6510,"##함에":6511,"고용":6512,"맡고":6513,"1.5":6514,"쪽이":6515,"전투를":6516,"무르":6517,"스탠":6518,"둥":6519,"캐릭터를":6520,"수준으로":6521,"##쾌":6522,"##RE":6523,"##달을":6524,"##카는":6525,"비디오":6526,"덧":6527,"위원":6528,"언제나":6529,"토모":6530,"성인":6531,"본선":6532,"MS":6533,"연애":6534,"1996년":6535,"등과":6536,"순서":6537,"마리아":6538,"##미,":6539,"이시":6540,"하나는":6541,"대폭":6542,"##영화":6543,"##ᇀ은":6544,"혼자서":6545,"##:4":6546,"An":6547,"##사.":6548,"학살":6549,"노예":6550,"##24":6551,"만든다.":6552,"##책을":6553,"##\",":6554,"충돌":6555,"##부르크":6556,"대체로":6557,"콘서":6558,"##격으로":6559,"##콤":6560,"득표":6561,"##자고":6562,"끔":6563,"##:3":6564,"복수":6565,"##동의":6566,"몸에":6567,"##리온":6568,"##가?":6569,"달아":6570,"사람들의":6571,"스웨":6572,"30%":6573,"마음에":6574,"##함으로써":6575,"이중":6576,"뱀":6577,"창작":6578,"뼈":6579,"에스":6580,"##다의":6581,"그런지":6582,"타워":6583,"##역의":6584,"##페이스":6585,"돌아온":6586,"중학교":6587,"##상,":6588,"KT":6589,"00":6590,"특별한":6591,"그와":6592,"작동":6593,"화장":6594,"##용이":6595,"시기에":6596,"춘":6597,"자신과":6598,"양산":6599,"목적":6600,"동영":6601,"빠진":6602,"푸른":6603,"계획을":6604,"##민이":6605,"걸린":6606,"4년":6607,"알파":6608,"번호":6609,"드물":6610,"자체를":6611,"위기에":6612,"##이로":6613,"이후에도":6614,"제4":6615,"유저들이":6616,"준우":6617,"유희":6618,"널리":6619,"##라이언":6620,"명이":6621,"사진을":6622,"자이언":6623,"참전":6624,"적어도":6625,"##ᆻ는지":6626,"무효":6627,"기반으로":6628,"하나.":6629,"점차":6630,"국립":6631,"##하에":6632,"##보스":6633,"##짱":6634,"##맛":6635,"있었는데":6636,"안에서":6637,"1995년":6638,"상황.":6639,"이것을":6640,"넣어":6641,"마시":6642,"##전투":6643,"##ip":6644,"##공화국":6645,"위치를":6646,"##주에":6647,"임시":6648,"##업이":6649,"3위":6650,"##지원":6651,"전원":6652,"기습":6653,"##연이":6654,"대략":6655,"다섯":6656,"마이클":6657,"##렙":6658,"사람들에게":6659,"도서":6660,"정류":6661,"##이라며":6662,"이날":6663,"##앞":6664,"##피스":6665,"##테인":6666,"제법":6667,"오빠":6668,"추적":6669,"케이스":6670,"유로":6671,"##PG":6672,"성능을":6673,"있었고":6674,"어디까지":6675,"템":6676,"호평":6677,"##드러":6678,"##라에":6679,"녹음":6680,"코드":6681,"2배":6682,"##쩡":6683,"4개":6684,"변경되었다.":6685,"전직":6686,"4,":6687,"##리나":6688,"인상":6689,"##버려":6690,"그것이":6691,"##관,":6692,"예선":6693,"##세에":6694,"##조는":6695,"던져":6696,"65":6697,"곡을":6698,"보낸":6699,"본인도":6700,"네가":6701,"##end":6702,"##.25":6703,"##운다.":6704,"차별":6705,"##미니":6706,"사이가":6707,"#373a3c,#dddddd":6708,"형태의":6709,"즈":6710,"##화되어":6711,"FIFA":6712,"말은":6713,"겉":6714,"##ere":6715,"의원":6716,"##당에":6717,"구출":6718,"##인인":6719,"스폰":6720,"##학자":6721,"##체에":6722,"##타입":6723,"주지":6724,"04":6725,"4강":6726,"##국을":6727,"거기다":6728,"##안이":6729,"멕시":6730,"조금씩":6731,"##사랑":6732,"들은":6733,"똑같이":6734,"영문":6735,"##받았다.":6736,"거라고":6737,"된다는":6738,"어쩌":6739,"동작":6740,"##아야":6741,"돌아다니":6742,"##ity":6743,"##동차":6744,"헤드":6745,"그럼에도":6746,"##겠지만,":6747,"댄스":6748,"##리얼":6749,"A4":6750,"05":6751,"가드":6752,"하다":6753,"##먹을":6754,"레오":6755,"조심":6756,"##프리":6757,"짤":6758,"진정한":6759,"##조리":6760,"##었기":6761,"##기지":6762,"있으나,":6763,"관계가":6764,"그렇지":6765,"Te":6766,"##마저도":6767,"##어날":6768,"##법이":6769,"##파를":6770,"사용하여":6771,"##인에":6772,"##았고,":6773,"##-20":6774,"##녁":6775,"##75":6776,"플로":6777,"##재를":6778,"##슬러":6779,"파일러":6780,"세월":6781,"##()은":6782,"태어난":6783,"내는":6784,"프린":6785,"똑같은":6786,"시각":6787,"행성":6788,"De":6789,"##디션":6790,"Ne":6791,"사토":6792,"파란":6793,"높이":6794,"##실에서":6795,"인공":6796,"연사":6797,"##고로":6798,"이노":6799,"##ath":6800,"회의":6801,"##ᆸ고":6802,"##:30":6803,"그로":6804,"와이":6805,"##병이":6806,"젠":6807,"##닫":6808,"블러":6809,"익숙":6810,"변형":6811,"##마디":6812,"##유가":6813,"했고,":6814,"##리자":6815,"##츠키":6816,"##점.":6817,"노멀":6818,"입장에서는":6819,"이재":6820,"##해의":6821,"체력을":6822,"탁":6823,"세계의":6824,"보이고":6825,"되는데,":6826,"##ᆸ의":6827,"되자":6828,"189":6829,"생겼다.":6830,"신성":6831,"거리가":6832,"##리면서":6833,"정확한":6834,"마리오":6835,"데이비":6836,"##인들의":6837,"조성":6838,"Ar":6839,"##소는":6840,"근처에":6841,"##데스":6842,"##부대":6843,"잡는":6844,"등은":6845,"이내":6846,"수영":6847,"##되었을":6848,"캐릭터.":6849,"장식":6850,"##짜리":6851,"##민의":6852,"스카이":6853,"심한":6854,"시장":6855,"파라":6856,"살려":6857,"도중에":6858,"의혹":6859,"샌":6860,"##한의":6861,"어드":6862,"비중이":6863,"##료를":6864,"찾아가":6865,"쉐":6866,"디지털":6867,"##??":6868,"##ᅮᆯ러":6869,"낸":6870,"##리우":6871,"코스트":6872,"어지":6873,"다가":6874,"##이치":6875,"구속":6876,"##아를":6877,"전형":6878,"선물":6879,"##필드":6880,"##력도":6881,"최후의":6882,"예측":6883,"합쳐":6884,"##할수":6885,"16강":6886,"수송":6887,"##무원":6888,"##님의":6889,"##사라":6890,"영국의":6891,"막을":6892,"##쟁이":6893,"##내고":6894,"##기엔":6895,"##히로":6896,"1대":6897,"때가":6898,"##색으로":6899,"전까지":6900,"##좋":6901,"합격":6902,"권총":6903,"##평가":6904,"##명이다.":6905,"##-11":6906,"낮아":6907,"##200":6908,"##ome":6909,"고향":6910,"더빙":6911,"몰려":6912,"블록":6913,"지속적으로":6914,"##항공":6915,"불린다.":6916,"##표를":6917,"펼치기":6918,"관할":6919,"달린":6920,"##당은":6921,"##스킬":6922,"타케":6923,"대부분이":6924,"취임":6925,"##들,":6926,"##.01":6927,"생활을":6928,"정도가":6929,"간다.":6930,"5회":6931,"공격에":6932,"빠르":6933,"이성":6934,"아버지가":6935,"##미와":6936,"갈아":6937,"레전드":6938,"BGM":6939,"SN":6940,"4회":6941,"있었다고":6942,"모바일":6943,"AI":6944,"##였으나":6945,"메카":6946,"##65":6947,"유령":6948,"##교의":6949,"##당하는":6950,"매니":6951,"등장했다.":6952,"아머":6953,"##과,":6954,"##슈타":6955,"정착":6956,"지니고":6957,"##보가":6958,"붙은":6959,"아침":6960,"MAX":6961,"불법":6962,"5년":6963,"곧바로":6964,"1994년":6965,"크로스":6966,"집어":6967,"되었고":6968,"박근":6969,"수사":6970,"오랫":6971,"역임":6972,"중국의":6973,"단순한":6974,"크고":6975,"##뿐만":6976,"가톨릭":6977,"##하였으나":6978,"마도":6979,"##냐며":6980,"##%의":6981,"여왕":6982,"##데레":6983,"##쪽의":6984,"##MA":6985,"승격":6986,"출처":6987,"##산이":6988,"##주면":6989,"업무":6990,"김영":6991,"전쟁을":6992,"소리가":6993,"이후,":6994,"홀로":6995,"주변에":6996,"마크":6997,"언니":6998,"모으":6999,"##양이":7000,"2010":7001,"예외":7002,"##자면":7003,"적극적으로":7004,"팬들이":7005,"하더라도":7006,"##이나,":7007,"검색":7008,"파트너":7009,"##씨가":7010,"접기":7011,"내의":7012,"##함과":7013,"58":7014,"평가가":7015,"나를":7016,"##우,":7017,"모두가":7018,"무언":7019,"##구와":7020,"##티드":7021,"##권은":7022,"쿠로":7023,"편의":7024,"공개된":7025,"##버리고":7026,"웨이":7027,"헤어":7028,"##곡을":7029,"자신들의":7030,"활성":7031,"오늘날":7032,"서서":7033,"대미지를":7034,"차단":7035,"##등이":7036,"내려가":7037,"9회":7038,"##마루":7039,"생일":7040,"극단":7041,"팬들은":7042,"동네":7043,"##중인":7044,"설정이":7045,"이들을":7046,"않았던":7047,"##절을":7048,"##홈런":7049,"-원":7050,"잠수":7051,"라이벌":7052,"너무나":7053,"엮":7054,"존재하지":7055,"빵":7056,"버려":7057,"리메이":7058,"##역은":7059,"##사업":7060,"초창":7061,"##age":7062,"##ect":7063,"계약을":7064,"중에는":7065,"연상":7066,"쿨타임":7067,"어둠의":7068,"가져가":7069,"##IS":7070,"막기":7071,"FA":7072,"식민":7073,"관심이":7074,"대항":7075,"추격":7076,"##이었으나":7077,"무엇보다":7078,"##버트":7079,"팝":7080,"자가":7081,"기억을":7082,"##7,":7083,"##'에서":7084,"규정":7085,"쏟아":7086,"AC":7087,"인수":7088,"##경찰":7089,"일본어":7090,"괴롭":7091,"놈":7092,"브리":7093,"어떻게든":7094,"반격":7095,"##ᆺ,":7096,"##탱":7097,"##둥이":7098,"플레이를":7099,"줄어":7100,"에드":7101,"잦":7102,"이루어진":7103,"##데다":7104,"##제한":7105,"고백":7106,"목격":7107,"##영이":7108,"##전차":7109,"빗":7110,"다이아":7111,"3D":7112,"소화":7113,"-명":7114,"지나치게":7115,"절망":7116,"구해":7117,"위험한":7118,"MC":7119,"##22":7120,"주전":7121,"개념":7122,"마술":7123,"밀어":7124,"기원전":7125,"져":7126,"커맨":7127,"2011":7128,"MVP":7129,"객":7130,"동방":7131,"요괴":7132,"##호로":7133,"##관리":7134,"##챠":7135,"전면":7136,"등,":7137,"##\"는":7138,"1990년":7139,"##소에서":7140,"##실한":7141,"##트워":7142,"의존":7143,"##무기":7144,"힘으로":7145,"압도적인":7146,"밖으로":7147,"##II":7148,"국방":7149,"라이더":7150,"##야구":7151,"진지":7152,"부상을":7153,"##.02":7154,"판정":7155,"저장":7156,"##개발":7157,"일시":7158,"타이거":7159,"대상이":7160,"마음이":7161,"들어와":7162,"##놔":7163,"않아도":7164,"반발":7165,"##육을":7166,"종점":7167,"보물":7168,"박정":7169,"외부":7170,"##니다!":7171,"긍정":7172,"하나이다.":7173,"닉":7174,"##ire":7175,"예비":7176,"##막을":7177,"브랜드":7178,"단어":7179,"미츠":7180,"##름을":7181,"##동으로":7182,"없으면":7183,"왠":7184,"##분의":7185,"##당히":7186,"##었으며,":7187,"##도르":7188,"이전의":7189,"신설":7190,"유행":7191,"갤럭시":7192,"##했었다.":7193,"##터테인":7194,"저그":7195,"3대":7196,"일도":7197,"잉":7198,"작중에서":7199,"##핵":7200,"##츠의":7201,"##스럽":7202,"##인간":7203,"##나라의":7204,"나타난":7205,"##편의":7206,"##국가":7207,"불가능하다.":7208,"능력은":7209,"특이한":7210,"후속작":7211,"지역에서":7212,"쏴":7213,"##하라고":7214,"##환이":7215,"탱커":7216,"방출":7217,"본작":7218,"페이스":7219,"클래스":7220,"모여":7221,"##드립":7222,"용의":7223,"##절이":7224,"##석은":7225,"##였다는":7226,"스튜디오":7227,"지역을":7228,"사운드":7229,"곁":7230,"장수":7231,"##BA":7232,"기능이":7233,"외계":7234,"##ᆺ날":7235,"##생활":7236,"잡을":7237,"##하면서도":7238,"##전,":7239,"마법을":7240,"베이스":7241,"결성":7242,"포르투":7243,"히데":7244,"스케":7245,"##당했다.":7246,"##amp":7247,"펀":7248,"##현이":7249,"##았지만":7250,"현지":7251,"통상":7252,"가깝다.":7253,"유형":7254,"##었다":7255,"##ᆸ에":7256,"의뢰":7257,"##겐":7258,"오랫동안":7259,"쾌":7260,"##토는":7261,"성격이":7262,"전후":7263,"한동안":7264,"##러가":7265,"작품의":7266,"되어서":7267,"##og":7268,"중계":7269,"헨":7270,"압박":7271,"창조":7272,"전력":7273,"서양":7274,"곳으로":7275,"판타지":7276,"##교를":7277,"보여주고":7278,"##-8":7279,"다룬":7280,"##떠":7281,"##코,":7282,"입력":7283,"이리":7284,"##되었다고":7285,"베스트":7286,"출신의":7287,"##66":7288,"##tt":7289,"다리":7290,"##ᆻ다면":7291,"차라리":7292,"##유를":7293,"##://":7294,"침공":7295,"심리":7296,"##류의":7297,"마침내":7298,"기점":7299,"대처":7300,"##린이":7301,"아바":7302,"써서":7303,"##~4":7304,"성적을":7305,"##연의":7306,"2부":7307,"THE":7308,"아름다운":7309,"오사카":7310,"정치적":7311,"##보이":7312,"결합":7313,"예능":7314,"지금의":7315,"##네가":7316,"길드":7317,"오스트리아":7318,"##웨어":7319,"##.03":7320,"41":7321,"주의.":7322,"##하기는":7323,"구성되어":7324,"##학적":7325,"##연을":7326,"통제":7327,"상향":7328,"DLC":7329,"자매":7330,"##세요.":7331,"##세로":7332,"앵":7333,"단점이":7334,"##ide":7335,"날개":7336,"신고":7337,"최다":7338,"##린의":7339,"나눠":7340,"##독을":7341,"보장":7342,"강철":7343,"폭주":7344,"청년":7345,"콜로":7346,"##에겐":7347,"##번에":7348,"##방어":7349,"##사령":7350,"8회":7351,"근육":7352,"##당하고":7353,"상호":7354,"중에서는":7355,"닫":7356,"##ure":7357,"빌드":7358,"##했는지":7359,"##군으로":7360,"저녁":7361,"##노가":7362,"##론의":7363,"Le":7364,"##ime":7365,"최강의":7366,"착각":7367,"루트":7368,"대만":7369,"##그라":7370,"##ID":7371,"##해서는":7372,"생각이":7373,"Me":7374,"이집":7375,"##령을":7376,"아리":7377,"##회사":7378,"다루는":7379,"바뀐":7380,"##삭":7381,"##군,":7382,"치명타":7383,"##심으로":7384,"승부":7385,"일본에서":7386,"##()는":7387,"기술이":7388,"튀어나":7389,"부른":7390,"받아들이":7391,"나와서":7392,"##구치":7393,"가속":7394,"감시":7395,"맞지":7396,"##스톤":7397,"신기":7398,"##편에서":7399,"소수":7400,"##들과는":7401,"##ᆷ비":7402,"##기업":7403,"##역이다.":7404,"쪼":7405,"실력을":7406,"##룰":7407,"##진,":7408,"제2차":7409,"말하면":7410,"순수":7411,"끌려":7412,"있기에":7413,"현상":7414,"##/4":7415,"##으려고":7416,"브루":7417,"감옥":7418,"외에는":7419,"##졌고,":7420,"##배를":7421,"많아서":7422,"죽인":7423,"##OT":7424,"이어지는":7425,"합성":7426,"고등":7427,"간혹":7428,"막아내":7429,"무적":7430,"##시절":7431,"##ake":7432,"찾는":7433,"어쨌든":7434,"유대":7435,"안내":7436,"대사를":7437,"학원":7438,"대화를":7439,"제5":7440,"골든":7441,"정복":7442,"56":7443,"주기":7444,"구체":7445,"경기는":7446,"Se":7447,"끝나고":7448,"##때는":7449,"총을":7450,"부디":7451,"알렉산":7452,"##디가":7453,"탱크":7454,"##번호":7455,"54":7456,"외국인":7457,"콜라":7458,"잃은":7459,"##통을":7460,"선출":7461,"않는다는":7462,"커플":7463,"##소리":7464,"보일":7465,"이끌고":7466,"##ark":7467,"어디까지나":7468,"싸울":7469,"이주":7470,"##'.":7471,"엄마":7472,"인간이":7473,"발달":7474,"##타와":7475,"의료":7476,"보라":7477,"채워":7478,"갇":7479,"이루어져":7480,"##즈,":7481,"파일":7482,"프라이":7483,"세계를":7484,"아니냐는":7485,"생각하고":7486,"다수의":7487,"##즈와":7488,"강제로":7489,"베트남":7490,"##신으로":7491,"사용되는":7492,"낼":7493,"##어리":7494,"접촉":7495,"쉽다.":7496,"##물에":7497,"##실,":7498,"##어버린":7499,"주말":7500,"한국에서":7501,"했다는":7502,"##28":7503,"박근혜":7504,"##과도":7505,"##니와":7506,"마구":7507,"마인":7508,"둘째":7509,"##소한":7510,"이지":7511,"나나":7512,"59":7513,"##하는게":7514,"향상":7515,"자는":7516,"전화":7517,"초등학교":7518,"##튀":7519,"'아":7520,"작사":7521,"한자":7522,"니시":7523,"델":7524,"비슷하다.":7525,"우리는":7526,"했는데,":7527,"##넌":7528,"독자":7529,"##OM":7530,"##안에":7531,"한편,":7532,"##계에서":7533,"이끄":7534,"##다'는":7535,"역사상":7536,"맞은":7537,"1992년":7538,"죽음을":7539,"##명한":7540,"이슬람":7541,"##77":7542,"##하고자":7543,"##하거나,":7544,"살아나":7545,"좌우":7546,"AK":7547,"##당해":7548,"##식에":7549,"##세요":7550,"성립":7551,"올린":7552,"##판에서":7553,"이란":7554,"##량으로":7555,"##의가":7556,"인하여":7557,"##레이터":7558,"김태":7559,"##르지":7560,"스미":7561,"##라!":7562,"멜":7563,"결과를":7564,"밝혀졌다.":7565,"가고":7566,"독특":7567,"##드에서":7568,"##ᆺ가":7569,"##ᆷ새":7570,"빚":7571,"마이너":7572,"미국에서":7573,"##자치":7574,"##노의":7575,"은하":7576,"3루":7577,"플랫포":7578,"방법은":7579,"아가":7580,"실버":7581,"디버":7582,"##ES":7583,"무작":7584,"##코와":7585,"지원을":7586,"##법은":7587,"##던가":7588,"누적":7589,"지나가":7590,"나름대로":7591,"600":7592,"##ite":7593,"깜":7594,"지어":7595,"자신도":7596,"감정":7597,"안티":7598,"훌륭한":7599,"##더스":7600,"로스":7601,"##한을":7602,"편입":7603,"정지":7604,"##찮":7605,"예ᄈ":7606,"소형":7607,"##미터":7608,"경향이":7609,"맞서":7610,"끌고":7611,"##iv":7612,"동시":7613,"생각보다":7614,"##니는":7615,"##코를":7616,"1993년":7617,"##실로":7618,"##재가":7619,"6회":7620,"He":7621,"노부":7622,"WW":7623,"이르러":7624,"그라":7625,"사용해":7626,"##톱":7627,"포스트":7628,"똑같":7629,"영업":7630,"##점,":7631,"##환을":7632,"##ound":7633,"레벨이":7634,"##38":7635,"메시":7636,"이치":7637,"깨닫":7638,"##르를":7639,"##인지는":7640,"사용된다.":7641,"희귀":7642,"지금도":7643,"##OP":7644,"어릴":7645,"릴리":7646,"했고":7647,"##팀의":7648,"앨리":7649,"사용하지":7650,"##민주당":7651,"화력":7652,"주었다.":7653,"의미한다.":7654,"강하게":7655,"전시":7656,"속하는":7657,"수록곡":7658,"상업":7659,"인형":7660,"##\"를":7661,"##도에서":7662,"##이었고,":7663,"내놓":7664,"청소년":7665,"핫":7666,"네덜란드":7667,"##oy":7668,"정확히는":7669,"##현의":7670,"##크와":7671,"##ge":7672,"정면":7673,"알레":7674,"##펴":7675,"2기":7676,"##일드":7677,"##유니":7678,"빡":7679,"무기로":7680,"자라":7681,"애플":7682,"일제":7683,"위치해":7684,"##지고,":7685,"##'t":7686,"##ᆨ은":7687,"웹툰":7688,"##파가":7689,"드리":7690,"##하려면":7691,"Be":7692,"##센트":7693,"DJ":7694,"수십":7695,"KIA":7696,"융합":7697,"##산업":7698,"독일의":7699,"##된다는":7700,"5개":7701,"##크,":7702,"##소로":7703,"베어":7704,"##았다는":7705,"은근히":7706,"프로듀서":7707,"##들에게는":7708,"##들.":7709,"수련":7710,"앞두고":7711,"##아는":7712,"##묘한":7713,"더더":7714,"알리":7715,"갈라":7716,"##iz":7717,"##또":7718,"타게":7719,"헌터":7720,"##메달":7721,"##치며":7722,"사용하고":7723,"그곳":7724,"층":7725,"Lv.":7726,"없던":7727,"##주지":7728,"##재로":7729,"태그":7730,"##ᆺ과":7731,"예고":7732,"##UN":7733,"##에이":7734,"이끄는":7735,"좋게":7736,"옷을":7737,"같아":7738,"할아버":7739,"##안의":7740,"##명에":7741,"출장":7742,"캐릭터로":7743,"##산의":7744,"##구려":7745,"세상을":7746,"##당한다.":7747,"극복":7748,"날아가":7749,"횡":7750,"것만":7751,"##졸":7752,"7회":7753,"팬들의":7754,"그것은":7755,"##렘":7756,"#ffffff":7757,"기본적인":7758,"그래픽":7759,"kt":7760,"흥행":7761,"##듭":7762,"##야가":7763,"2세":7764,"CC":7765,"말로":7766,"막장":7767,"반응이":7768,"88":7769,"카를":7770,"들어간다.":7771,"적응":7772,"##ess":7773,"##.05":7774,"대원":7775,"경비":7776,"스트리":7777,"맞게":7778,"훗날":7779,"지능":7780,"다들":7781,"##되었는데,":7782,"중의":7783,"폴란드":7784,"소총":7785,"##등의":7786,"##졌을":7787,"마왕":7788,"멈추":7789,"미술":7790,"##AD":7791,"전에는":7792,"##피를":7793,"아빠":7794,"김정":7795,"등장인물.":7796,"코믹스":7797,"##시키기":7798,"##멘트":7799,"##전과":7800,"피격":7801,"제어":7802,"조절":7803,"섀":7804,"태어났다.":7805,"##ᆷ으로써":7806,"이상으로":7807,"혐의":7808,"소닉":7809,"몬스터를":7810,"있었기":7811,"챔피언스":7812,"넉":7813,"##사회":7814,"환승":7815,"##잡이":7816,"##친구":7817,"더더욱":7818,"##석의":7819,"이길":7820,"##화와":7821,"탄약":7822,"피를":7823,"##종을":7824,"락":7825,"당신":7826,"##용을":7827,"my":7828,"5,":7829,"##단과":7830,"##였는데":7831,"2017-0":7832,"57":7833,"개입":7834,"##마에":7835,"멀쩡":7836,"##경에":7837,"접속":7838,"##국은":7839,"##조차도":7840,"##았고":7841,"검사":7842,"은행":7843,"카타":7844,"##브리":7845,"##투를":7846,"랜덤":7847,"역을":7848,"스피드":7849,"물고":7850,"##였기":7851,"##OW":7852,"##색의":7853,"대개":7854,"발매되었다.":7855,"대하여":7856,"원본":7857,"각본":7858,"유사한":7859,"눌러":7860,"게임에":7861,"##ᆻ는":7862,"##물은":7863,"##열이":7864,"사랑을":7865,"AR":7866,"테란":7867,"##초간":7868,"불가능한":7869,"인물.":7870,"감사":7871,"GT":7872,"뜻이":7873,"첨":7874,"66":7875,"적대":7876,"특기":7877,"##라기":7878,"게임에서":7879,"탓":7880,"##.08":7881,"##심한":7882,"블로그":7883,"키워":7884,"##영의":7885,"트래":7886,"레코":7887,"퀸":7888,"하얀":7889,"코어":7890,"##랜드의":7891,"##망을":7892,"새벽":7893,"들어갈":7894,"킬":7895,"물을":7896,"##롤":7897,"어른":7898,"별다른":7899,"##ᆸ게도":7900,"태평":7901,"의무":7902,"내세":7903,"##관에서":7904,"장면을":7905,"이즈":7906,"활발":7907,"##잠":7908,"밝히":7909,"넌":7910,"##~20":7911,"오스":7912,"##문은":7913,"연관":7914,"##학의":7915,"과정을":7916,"##보드":7917,"저주":7918,"전성":7919,"한마디":7920,"전형적인":7921,"틈":7922,"관계로":7923,"박사":7924,"달고":7925,"토론":7926,"치러":7927,"##정,":7928,"188":7929,"테스트":7930,"비싸":7931,"경험치":7932,"1991년":7933,"인터뷰에서":7934,"사라진":7935,"상황이다.":7936,"방사":7937,"##sh":7938,"My":7939,"랭킹":7940,"다음날":7941,"제작된":7942,"Wh":7943,"보게":7944,"그들이":7945,"##9,":7946,"##름이":7947,"쓰기":7948,"까지":7949,"+2":7950,"해병":7951,"버리고":7952,"무릎":7953,"당해":7954,"성공했다.":7955,"리메이크":7956,"##포가":7957,"어떠한":7958,"이민":7959,"비트":7960,"##기나":7961,"장교":7962,"공군":7963,"##만큼은":7964,"카미":7965,"##라이트":7966,"안드로이드":7967,"댄":7968,"끈":7969,"##펀":7970,"##률을":7971,"윌리엄":7972,"참석":7973,"이외에도":7974,"맡아":7975,"##학,":7976,"금속":7977,"다를":7978,"결코":7979,"죄다":7980,"이정":7981,"대충":7982,"되돌":7983,"##ud":7984,"고마":7985,"SC":7986,"서부":7987,"카라":7988,"문재":7989,"2대":7990,"일상":7991,"경기에":7992,"공격하는":7993,"##ame":7994,"컵":7995,"##경의":7996,"절대로":7997,"##OC":7998,"##화한":7999,"##비에":8000,"2층":8001,"개방":8002,"##번의":8003,"요코":8004,"이외의":8005,"##전대":8006,"준우승":8007,"있다가":8008,"오전":8009,"##감독":8010,"##이에":8011,"갖춘":8012,"명령을":8013,"##국에":8014,"실력이":8015,"전철":8016,"방에":8017,"내리":8018,"갈수록":8019,"트랜":8020,"사건의":8021,"##ord":8022,"적혀":8023,"##비트":8024,"경우에":8025,"죽음의":8026,"##다란":8027,"정도다.":8028,"혐":8029,"##그리":8030,"##하였으며":8031,"썬":8032,"연도":8033,"Tr":8034,"##oc":8035,"들을":8036,"UE":8037,"##렁":8038,"분위기를":8039,"오해":8040,"아니라고":8041,"과거의":8042,"##일의":8043,"\"아":8044,"SD":8045,"##줘야":8046,"##보기":8047,"##-7":8048,"가야":8049,"검찰":8050,"룬":8051,"헌법":8052,"땐":8053,"싸움을":8054,"##등장":8055,"3인":8056,"적절한":8057,"매년":8058,"##공이":8059,"짝":8060,"##이었지만":8061,"##선,":8062,"뜯":8063,"교회":8064,"2의":8065,"##령이":8066,"##츠가":8067,"개혁":8068,"##돌리":8069,"##our":8070,"with":8071,"##LL":8072,"보며":8073,"채택":8074,"디아":8075,"아들이":8076,"들어온":8077,"법률":8078,"##실의":8079,"메타":8080,"##로워":8081,"HD":8082,"바보":8083,"칭찬":8084,"막차":8085,"스코어":8086,"것인지":8087,"도발":8088,"##36":8089,"약간의":8090,"세종":8091,"캠페":8092,"나가는":8093,"꽂":8094,"뺏":8095,"직원":8096,"250":8097,"뭉":8098,"캐스팅":8099,"우연히":8100,"자동으로":8101,"죽일":8102,"##자도":8103,"##나카":8104,"안타까":8105,"나아":8106,"삐":8107,"##.09":8108,"##다시피":8109,"수준.":8110,"##메가":8111,"##론은":8112,"##브라":8113,"아니었다.":8114,"##혔다.":8115,"프라":8116,"##다를":8117,"전방":8118,"##였을":8119,"김민":8120,"##받을":8121,"베네":8122,"##였는데,":8123,"가문의":8124,"##뿌":8125,"##맨의":8126,"이글":8127,"퀄리티":8128,"##지인":8129,"##유럽":8130,"평이":8131,"Al":8132,"##.07":8133,"85":8134,"##ᆷ도":8135,"싫어하는":8136,"꿈을":8137,"1기":8138,"따르면,":8139,"분위기가":8140,"미카":8141,"##\"이라고":8142,"##여자":8143,"키리":8144,"이라":8145,"##가시":8146,"공식적으로":8147,"##대장":8148,"없으니":8149,"점이다.":8150,"비례":8151,"불을":8152,"형식":8153,"짓을":8154,"유닛이":8155,"##px":8156,"덧붙":8157,"신이":8158,"부서":8159,"##중앙":8160,"작가가":8161,"##34":8162,"##당할":8163,"##야,":8164,"체계":8165,"아니라는":8166,"샘":8167,"##버스터":8168,"제임스":8169,"##이게":8170,"상태.":8171,"슈팅":8172,"결과적으로":8173,"카드의":8174,"몹":8175,"남부":8176,"우수":8177,"##스틱":8178,"이영":8179,"그들을":8180,"기자":8181,"멍":8182,"만나게":8183,"SM":8184,"2번째":8185,"대표적으로":8186,"72":8187,"##아와":8188,"개막":8189,"보너":8190,"##으러":8191,"그건":8192,"##'은":8193,"##com":8194,"어지간":8195,"IS":8196,"##왜":8197,"아끼":8198,"##느라":8199,"치는":8200,"김종":8201,"아버지의":8202,"##집을":8203,"구사":8204,"##없다.":8205,"##상한":8206,"##ance":8207,"##ix":8208,"보관":8209,"빨라":8210,"첫차":8211,"##.04":8212,"##토와":8213,"과연":8214,"편곡":8215,"버프를":8216,"이상을":8217,"자랑한다.":8218,"##익을":8219,"곽":8220,"##일본":8221,"##덱":8222,"유저가":8223,"많고":8224,"오직":8225,"노란":8226,"덤.":8227,"반면,":8228,"보유하고":8229,"빔":8230,"##\"의":8231,"이른":8232,"이제는":8233,"입을":8234,"벌어진":8235,"왕의":8236,"##양을":8237,"나쁘지":8238,"사후":8239,"보안":8240,"방법으로":8241,"##ice":8242,"##렬한":8243,"하니":8244,"컬러":8245,"선수들이":8246,"##ok":8247,"의미로":8248,"##ᆯ,":8249,"날짜":8250,"되었다고":8251,"빛의":8252,"##났다.":8253,"##키와":8254,"보지":8255,"사람들도":8256,"68":8257,"내장":8258,"켜":8259,"##질러":8260,"어마":8261,"열쇠":8262,"스마트폰":8263,"##%를":8264,"시즌을":8265,"기병":8266,"후계":8267,"챙겨":8268,"위주로":8269,"출마":8270,"##하라는":8271,"1학년":8272,"매직":8273,"동부":8274,"남북":8275,"모양이다.":8276,"##ick":8277,"##'와":8278,"있었을":8279,"##탄이":8280,"자식":8281,"##명과":8282,"챕터":8283,"과거에":8284,"남아있":8285,"시절의":8286,"유나이":8287,"언더":8288,"돕":8289,"회수":8290,"##욕을":8291,"미치":8292,"정찰":8293,"##깥":8294,"##-9":8295,"아파트":8296,"##마스터":8297,"##했습니다.":8298,"추가바람":8299,"##ax":8300,"##스트의":8301,"병력":8302,"가능성도":8303,"세계에서":8304,"뒤에서":8305,"##배우":8306,"##번,":8307,"집에서":8308,"있어도":8309,"피니":8310,"모조리":8311,"자리에서":8312,"임무를":8313,"##시설":8314,"김동":8315,"-위":8316,"메뉴":8317,"프리큐":8318,"##었지만,":8319,"##소,":8320,"##구역":8321,"플레이오프":8322,"심하게":8323,"공화":8324,"##증이":8325,"1세":8326,"네오":8327,"와타":8328,"재사용":8329,"휘두":8330,"봐야":8331,"##하가":8332,"크라":8333,"##략을":8334,"대사가":8335,"행위":8336,"위치에":8337,"챌린":8338,"##루는":8339,"사장":8340,"UEFA":8341,"##상과":8342,"카와":8343,"믿고":8344,"드는":8345,"루시":8346,"##되었으나":8347,"아쉬운":8348,"##다나":8349,"수수":8350,"연극":8351,"시즈":8352,"군단":8353,"##이긴":8354,"##되어서":8355,"목소리가":8356,"부담":8357,"좋을":8358,"##약한":8359,"##pe":8360,"가을":8361,"110":8362,"30분":8363,"학생들이":8364,"뜻을":8365,"빛을":8366,"##수.":8367,"Go":8368,"##그러":8369,"발생한":8370,"##스트가":8371,"##%로":8372,"손으로":8373,"환영":8374,"완벽한":8375,"##하자,":8376,"##ww":8377,"주인공의":8378,"3학년":8379,"정신을":8380,"##서에":8381,"##밴":8382,"##마와":8383,"##레어":8384,"작품을":8385,"현역":8386,"##레나":8387,"PD":8388,"크기":8389,"전체를":8390,"##에다":8391,"폭격":8392,"뭘":8393,"##티나":8394,"바깥":8395,"동굴":8396,"잠재":8397,"Love":8398,"de":8399,"##카,":8400,"거듭":8401,"멜로":8402,"소식을":8403,"스프링":8404,"명확":8405,"##.06":8406,"##쩍":8407,"왔다.":8408,"##오리":8409,"잃고":8410,"JR":8411,"출입":8412,"##드레":8413,"51":8414,"##뇨":8415,"한타":8416,"##쿼":8417,"스타크래프트":8418,"##걸로":8419,"웅":8420,"##걸이":8421,"박스":8422,"피해량":8423,"하락":8424,"셈이다.":8425,"신앙":8426,"##졌다고":8427,"나타난다.":8428,"##ᆫ가":8429,"##흡":8430,"시스템을":8431,"부수":8432,"##것은":8433,"기분":8434,"가라":8435,"이라는":8436,"현재까지":8437,"##하기가":8438,"허나":8439,"재판":8440,"##급으로":8441,"##되었다는":8442,"##{{":8443,"협박":8444,"##커가":8445,"개시":8446,"어린이":8447,"모래":8448,"잡은":8449,"##니를":8450,"##39":8451,"재현":8452,"##이즈":8453,"##킥":8454,"막아":8455,"전진":8456,"모션":8457,"##음악":8458,"이전에는":8459,"알바":8460,"나아가":8461,"하거나":8462,"나이가":8463,"확인할":8464,"보이며":8465,"##단지":8466,"자세히":8467,"되며":8468,"감안하면":8469,"SKT":8470,"##사무":8471,"이렇":8472,"##사우":8473,"여신":8474,"유니포":8475,"머물":8476,"1988년":8477,"풀어":8478,"##체이":8479,"노리":8480,"전쟁이":8481,"시스템이":8482,"##주와":8483,"##츠를":8484,"올리는":8485,"곳은":8486,"관중":8487,"들이":8488,"일방":8489,"로보":8490,"전멸":8491,"##건을":8492,"저작":8493,"거리를":8494,"SR":8495,"##뛰":8496,"##짐":8497,"정체를":8498,"하트":8499,"이나":8500,"핑":8501,"##na":8502,"연락":8503,"##호와":8504,"##맨이":8505,"##했다면":8506,"증가한다.":8507,"미디어":8508,"헛":8509,"##품으로":8510,"##언이":8511,"##봐야":8512,"로그":8513,"일치":8514,"기울":8515,"병력을":8516,"EP":8517,"##자이다.":8518,"##오고":8519,"시그":8520,"##쿠라":8521,"##험에":8522,"1989년":8523,"캐릭터는":8524,"##갤":8525,"##ber":8526,"밸런스":8527,"둘은":8528,"맞다.":8529,"가짜":8530,"네트워":8531,"##own":8532,"무방":8533,"공공":8534,"모모":8535,"##비로":8536,"전공":8537,"강요":8538,"않도록":8539,"##선과":8540,"이명":8541,"##리아의":8542,"제갈":8543,"가격이":8544,"터뜨":8545,"##노스":8546,"##EM":8547,"지형":8548,"아즈":8549,"가까워":8550,"##파로":8551,"올랐다.":8552,"이닝":8553,"스승":8554,"내보":8555,"별명":8556,"##렸던":8557,"추구":8558,"##종은":8559,"장악":8560,"세르":8561,"영구":8562,"라이온":8563,"방치":8564,"##ᆸ어":8565,"정부의":8566,"핸드":8567,"##계로":8568,"좁":8569,"##셋":8570,"##번이":8571,"얼굴이":8572,"몽골":8573,"##PM":8574,"##로서는":8575,"0.5":8576,"##우와":8577,"목소리":8578,"4.":8579,"해상":8580,"언급한":8581,"명을":8582,"강남":8583,"프랑스의":8584,"대회에서":8585,"##질로":8586,"전의":8587,"GS":8588,"메르":8589,"배트":8590,"조별":8591,"회원":8592,"##속도가":8593,"3연":8594,"##주민":8595,"충격을":8596,"흠":8597,"처형":8598,"2000년대":8599,"피아노":8600,"##qu":8601,"##인들을":8602,"수여":8603,"오래된":8604,"내지":8605,"2학년":8606,"##비와":8607,"있었지만,":8608,"뮈":8609,"95":8610,"##캠":8611,"작가의":8612,"세포":8613,"남긴":8614,"신문":8615,"스톤":8616,"전부터":8617,"##lay":8618,"적합":8619,"##것으로":8620,"통산":8621,"유닛을":8622,"##시고":8623,"##위,":8624,"##씨는":8625,"##늬":8626,"잡아내":8627,"메리":8628,"외의":8629,"잡지":8630,"말아":8631,"물론,":8632,"목표로":8633,"##해준다.":8634,"것일":8635,"##버그":8636,"북쪽":8637,"상급":8638,"단편":8639,"할머니":8640,"##에서,":8641,"##교회":8642,"넣고":8643,"##68":8644,"##잉":8645,"##가.":8646,"##av":8647,"장군":8648,"##생을":8649,"##ᇁ은":8650,"차가":8651,"승객":8652,"윌":8653,"오카":8654,"색깔":8655,"의지":8656,"쓰레기":8657,"잉글랜드":8658,"##텀":8659,"##동은":8660,"몰라도":8661,"##인도":8662,"OST":8663,"때에":8664,"집을":8665,"기록한":8666,"##정과":8667,"##국제":8668,"800":8669,"간신":8670,"야스":8671,"2008":8672,"남쪽":8673,"98":8674,"##old":8675,"감독은":8676,"숭":8677,"들려":8678,"가사":8679,"되며,":8680,"비주":8681,"##작을":8682,"띠":8683,"##한이":8684,"싸움":8685,"눈물을":8686,"##방향":8687,"##퍼스":8688,"구글":8689,"카드.":8690,"아마도":8691,"파리":8692,"##졌고":8693,"있었다는":8694,"1층":8695,"단단":8696,"버린":8697,"##바의":8698,"장점이":8699,"돈이":8700,"유치":8701,"##위키":8702,"지식":8703,"##이었고":8704,"##트릭":8705,"간부":8706,"##NA":8707,"##석에":8708,"이용해서":8709,"욕을":8710,"깔끔":8711,"비싼":8712,"클래식":8713,"##케이드":8714,"탈퇴":8715,"##텍":8716,"##orld":8717,"보존":8718,"계기로":8719,"2009":8720,"프로젝":8721,"어둠":8722,"올라와":8723,"##셔널":8724,"유효":8725,"문학":8726,"배우는":8727,"관측":8728,"등장하지":8729,"공개되었다.":8730,"##겁":8731,"##세한":8732,"혁명":8733,"##ᆷ이지만":8734,"헤비":8735,"##오와":8736,"인원":8737,"윙":8738,"##s,":8739,"##US":8740,"넥센":8741,"62":8742,"##지?":8743,"그러한":8744,"##진으로":8745,"카메라":8746,"{{{":8747,"된다고":8748,"주먹":8749,"분위기":8750,"CPU":8751,"포항":8752,"##뱅":8753,"랩":8754,"홈런을":8755,"화를":8756,"##ng":8757,"인물이":8758,"관찰":8759,"사망한":8760,"사마":8761,"##검을":8762,"##있게":8763,"##득을":8764,"만들기":8765,"한정으로":8766,"부문":8767,"##로봇":8768,"차원":8769,"77":8770,"찾기":8771,"당하는":8772,"##율은":8773,"##.18":8774,"서식":8775,"53":8776,"사우":8777,"어택":8778,"험":8779,"나오기":8780,"돋":8781,"##인들":8782,"아이를":8783,"군대":8784,"##버릴":8785,"##생의":8786,"1군":8787,"Ro":8788,"##단체":8789,"신분":8790,"리가":8791,"포함되어":8792,"빌리":8793,"머리가":8794,"##타운":8795,"아일랜드":8796,"##커의":8797,"공격할":8798,"당시에":8799,"##서로":8800,"찢":8801,"페이지":8802,"발언을":8803,"농구":8804,"동의":8805,"주간":8806,"##각이":8807,"한참":8808,"이번에는":8809,"아이스":8810,"딴":8811,"한다면":8812,"레알":8813,"기용":8814,"##조로":8815,"종목":8816,"코치":8817,"샷":8818,"삼국지":8819,"이식":8820,"힘들어":8821,"밝혀진":8822,"천재":8823,"트라이":8824,"##뚜":8825,"죽어":8826,"##받는다.":8827,"떨어진다.":8828,"##다니는":8829,"터치":8830,"아크":8831,"확대":8832,"쿠키":8833,"몰락":8834,"사양":8835,"특집":8836,"비공":8837,"구원":8838,"##족이":8839,"없으며,":8840,"개정":8841,"##되게":8842,"김재":8843,"뜬금":8844,"##열을":8845,"##ont":8846,"##/h":8847,"##랑이":8848,"패션":8849,"##가미":8850,"마드리":8851,"##놈":8852,"고위":8853,"[ruby]":8854,"쏠":8855,"않았을":8856,"##금은":8857,"최신":8858,"즉위":8859,"영화이다.":8860,"조건을":8861,"이은":8862,"이상이":8863,"효과로":8864,"수준이다.":8865,"숨겨진":8866,"##후의":8867,"##ies":8868,"##았는데":8869,"##통신":8870,"군주":8871,"##슬링":8872,"미스":8873,"넷":8874,"##지않":8875,"무시하고":8876,"후손":8877,"물려":8878,"##있어":8879,"나중":8880,"##적,":8881,"##.15":8882,"##여객":8883,"##직한":8884,"##로와":8885,"76":8886,"##ᆻ습니다.":8887,"상상":8888,"뜻하는":8889,"하나도":8890,"그러자":8891,"아파":8892,"##뚱":8893,"엘프":8894,"않으며":8895,"컨트롤":8896,"스턴":8897,"휴대":8898,"아메리카":8899,"급격":8900,"##모드":8901,"##일보":8902,"##EX":8903,"플레이어의":8904,"이것도":8905,"##타,":8906,"있는지":8907,"포르투갈":8908,"의미를":8909,"강하다.":8910,"아르헨":8911,"##110":8912,"하차":8913,"초반에는":8914,"일명":8915,"어째서":8916,"넣는":8917,"합체":8918,"업그레이":8919,"##띠":8920,"늑대":8921,"##~5":8922,"##시피":8923,"살펴":8924,"##들인":8925,"맞으면":8926,"아쿠":8927,"튕":8928,"160":8929,"해안":8930,"##먹고":8931,"간주":8932,"##네의":8933,"왕이":8934,"##었으며":8935,"##pt":8936,"수출":8937,"##\"을":8938,"##하겠다고":8939,"선전":8940,"후술":8941,"##투스":8942,"레어도":8943,"자체의":8944,"##이었다고":8945,"시대의":8946,"##나서":8947,"바꾼":8948,"트럼":8949,"K리그":8950,"미군":8951,"식물":8952,"Ex":8953,"이용하는":8954,"##방에서":8955,"성능은":8956,"사용이":8957,"국왕":8958,"썩":8959,"사막":8960,"느린":8961,"##덩":8962,"존재가":8963,"모르고":8964,"것으로,":8965,"KO":8966,"통치":8967,"도구":8968,"##요시":8969,"떨어뜨":8970,"##퀘":8971,"한쪽":8972,"##터미널":8973,"앉아":8974,"고작":8975,"##됩니다.":8976,"##챈":8977,"##제와":8978,"##템":8979,"130":8980,"경고":8981,"##차는":8982,"##망이":8983,"##커를":8984,"피해가":8985,"##팽":8986,"올라온":8987,"한명":8988,"책을":8989,"미스터":8990,"제작한":8991,"다카":8992,"##번을":8993,"블레이":8994,"진보":8995,"##-6":8996,"중독":8997,"들여":8998,"##체육":8999,"##27":9000,"멕시코":9001,"타락":9002,"독특한":9003,"##제국":9004,"블라":9005,"##터는":9006,"퀘스트를":9007,"있음을":9008,"##라엘":9009,"그루":9010,"##희가":9011,"##나가는":9012,"시너":9013,"팬들":9014,"달리,":9015,"자폭":9016,"게임은":9017,"##결을":9018,"주변의":9019,"##력,":9020,"동쪽":9021,"##비,":9022,"챔피언십":9023,"##법에":9024,"##구에서":9025,"##저의":9026,"죽고":9027,"만날":9028,"찍은":9029,"김대":9030,"결과는":9031,"##가스":9032,"위장":9033,"덤으로":9034,"거기서":9035,"##21":9036,"##중이다.":9037,"아시안":9038,"가르쳐":9039,"식의":9040,"적당히":9041,"##으로써":9042,"KBO":9043,"##헬":9044,"##하를":9045,"##관과":9046,"##달러":9047,"##기에,":9048,"부상으로":9049,"비판을":9050,"이미지가":9051,"라운드":9052,"세이버":9053,"이어서":9054,"남녀":9055,"근본":9056,"상술":9057,"캐논":9058,"아테":9059,"##년에":9060,"##괄":9061,"Un":9062,"##어마":9063,"포탑":9064,"겁":9065,"##두는":9066,"78":9067,"찾을":9068,"탄창":9069,"느낄":9070,"버렸다.":9071,"합의":9072,"1부":9073,"##현,":9074,"##곱":9075,"직전에":9076,"고구려":9077,"##테이션":9078,"브레":9079,"다음에":9080,"사카":9081,"세운":9082,"##헤이":9083,"드림":9084,"육성":9085,"##되는데,":9086,"선수로":9087,"또다시":9088,"잡기":9089,"에너지를":9090,"저렴":9091,"별개로":9092,"연료":9093,"##OD":9094,"양쪽":9095,"무관":9096,"매치":9097,"것,":9098,"그러다가":9099,"##치면":9100,"1980년":9101,"커다란":9102,"뻗":9103,"인증":9104,"휩":9105,"수도권":9106,"촌":9107,"초기에는":9108,"제정":9109,"점수를":9110,"수업":9111,"##io":9112,"##98":9113,"되기도":9114,"봄":9115,"카트":9116,"74":9117,"움직이는":9118,"##통이":9119,"트레":9120,"물질":9121,"그러니까":9122,"되었을":9123,"발행":9124,"##실은":9125,"##군.":9126,"건조":9127,"아틀":9128,"사전":9129,"##펙":9130,"새끼":9131,"##들과의":9132,"아이콘":9133,"터키":9134,"초보":9135,"범위가":9136,"잘못된":9137,"이듬":9138,"스웨덴":9139,"중립":9140,"나폴":9141,"알아내":9142,"미안":9143,"기뻐":9144,"'그":9145,"##니까.":9146,"##요,":9147,"재정":9148,"구성된":9149,"싱크":9150,"##씨의":9151,"생략":9152,"처음에":9153,"##졌던":9154,"시절에":9155,"##끈":9156,"환상":9157,"##하더라도":9158,"배워":9159,"화려한":9160,"보여주며":9161,"##세스":9162,"맛이":9163,"시작으로":9164,"부딪":9165,"##미나":9166,"판정이":9167,"무척":9168,"신경쓰":9169,"##보로":9170,"메모":9171,"자리잡":9172,"저런":9173,"DF":9174,"간신히":9175,"아닌가":9176,"##주기":9177,"##넨":9178,"지시":9179,"##술사":9180,"##약이":9181,"##자나":9182,"글로벌":9183,"민주당":9184,"레이더":9185,"##들만":9186,"우리나라":9187,"곳을":9188,"했으나,":9189,"고문":9190,"북부":9191,"기록이":9192,"없으며":9193,"##저가":9194,"모티":9195,"wh":9196,"마다":9197,"정부는":9198,"##사거리":9199,"폐쇄":9200,"주제에":9201,"시작된":9202,"1987년":9203,"##다면서":9204,"장전":9205,"##-15":9206,"##천시":9207,"##ET":9208,"##훈련":9209,"깡":9210,"존재를":9211,"예정이다.":9212,"가시":9213,"카드는":9214,"버린다.":9215,"비상":9216,"특성을":9217,"##끝":9218,"##딱":9219,"LI":9220,"너의":9221,"기록하며":9222,"##백을":9223,"수류":9224,"##패로":9225,"손가락":9226,"그렇지만":9227,"2020":9228,"마력":9229,"팽":9230,"용도로":9231,"호위":9232,"후반에":9233,"화가":9234,"개량":9235,"가볍게":9236,"전함":9237,"시간에":9238,"##+1":9239,"##이야":9240,"##해지고":9241,"공격력을":9242,"위반":9243,"##함은":9244,"않았고,":9245,"MF":9246,"드레":9247,"벼":9248,"제도":9249,"멤버들이":9250,"받아들여":9251,"##였지만,":9252,"떠오":9253,"##거를":9254,"##만,":9255,"##/10":9256,"##죠.":9257,"해주는":9258,"##네.":9259,"가치가":9260,"도끼":9261,"패턴이":9262,"마그":9263,"총알":9264,"위대한":9265,"곡명":9266,"정차":9267,"주둔":9268,"자극":9269,"인구는":9270,"공성":9271,"##고에":9272,"당연한":9273,"제출":9274,"##MP":9275,"##차례":9276,"발생하는":9277,"꿀":9278,"넘어서":9279,"##고속도로":9280,"##움이":9281,"##하마":9282,"##되었지만":9283,"##샷":9284,"아니고,":9285,"곤란":9286,"의견을":9287,"##cm,":9288,"##므로,":9289,"시에":9290,"##제,":9291,"리드":9292,"##경은":9293,"고교":9294,"2인":9295,"140":9296,"서쪽":9297,"Pro":9298,"집행":9299,"두려워":9300,"##발이":9301,"커리어":9302,"##되던":9303,"가끔씩":9304,"CF":9305,"##VD":9306,"##온의":9307,"##스러워":9308,"We":9309,"##진과":9310,"검을":9311,"##린을":9312,"##과에":9313,"그랜드":9314,"##조에":9315,"지역은":9316,"속도를":9317,"않으며,":9318,"곰":9319,"출연한":9320,"##린은":9321,"##슬로":9322,"종류의":9323,"어마어마":9324,"##테르":9325,"코코":9326,"사냥꾼":9327,"공룡":9328,"문자":9329,"토끼":9330,"사쿠라":9331,"도주":9332,"아카데미":9333,"관련이":9334,"자전":9335,"꽈":9336,"##\"로":9337,"##디의":9338,"이미지를":9339,"단점":9340,"클랜":9341,"헐":9342,"mm":9343,"실망":9344,"죽이고":9345,"WWE":9346,"윗":9347,"컷":9348,"무렵":9349,"##즈에":9350,"##생이":9351,"않았지만":9352,"아미":9353,"관심":9354,"##다리":9355,"국가의":9356,"효율이":9357,"부분에":9358,"망가":9359,"보석":9360,"##\"이라는":9361,"##계열":9362,"곡이":9363,"킨":9364,"사귀":9365,"##공사":9366,"시드":9367,"sh":9368,"그림자":9369,"67":9370,"성별":9371,"떨어지":9372,"대부분은":9373,"새롭게":9374,"##95":9375,"숙련":9376,"##구리":9377,"포스":9378,"수준이":9379,"어비":9380,"##셀로":9381,"##판으로":9382,"##/1":9383,"자본":9384,"음악을":9385,"지불":9386,"격추":9387,"골을":9388,"없지만,":9389,"원인이":9390,"대거":9391,"##탄의":9392,"집으로":9393,"체결":9394,"의문":9395,"##ᆻ음을":9396,"차지했다.":9397,"##수사":9398,"호텔":9399,"바이오":9400,"##세.":9401,"이혼":9402,"포위":9403,"그레":9404,"가만":9405,"##속에":9406,"다음으로":9407,"##해질":9408,"정부가":9409,"다스":9410,"후배":9411,"오버워":9412,"일찍":9413,"부를":9414,"##라고도":9415,"후에도":9416,"완벽하게":9417,"동성":9418,"##봤":9419,"##디를":9420,"생년":9421,"주사":9422,"아티스트":9423,"치유":9424,"##벌이":9425,"##Hz":9426,"간접":9427,"라이프":9428,"흡혈":9429,"##IP":9430,"안나":9431,"처럼":9432,"##않":9433,"사람에게":9434,"춤":9435,"##들보다":9436,"이듬해":9437,"부각":9438,"1라운드":9439,"##산으로":9440,"##타카":9441,"##윙":9442,"4대":9443,"귀환":9444,"your":9445,"모르게":9446,"화학":9447,"##후반":9448,"감정을":9449,"취급을":9450,"##rom":9451,"으로":9452,"영토":9453,"페널티":9454,"죽이는":9455,"##모의":9456,"난다.":9457,"캡틴":9458,"CV":9459,"털어":9460,"발라":9461,"합병":9462,"걸고":9463,"불교":9464,"확실한":9465,"크리스탈":9466,"닭":9467,"##문학":9468,"없는데":9469,"일이다.":9470,"슬라이":9471,"있었으나,":9472,"나오면":9473,"##포인트":9474,"##내가":9475,"넣은":9476,"늘어난":9477,"액티브":9478,"##900":9479,"프란":9480,"구하기":9481,"I'":9482,"한국에서는":9483,"##병원":9484,"초중":9485,"진짜로":9486,"면에서":9487,"빅토":9488,"##비디오":9489,"U+11":9490,"쓰여":9491,"##프와":9492,"##얄":9493,"무기가":9494,"##가고":9495,"It":9496,"##실점":9497,"##펙트":9498,"무기는":9499,"편이라":9500,"기회":9501,"티어":9502,"오지":9503,"##해와":9504,"방지":9505,"##프리카":9506,"##하자마자":9507,"##인한":9508,"사용하기":9509,"익스":9510,"###x11":9511,"흩":9512,"아이언":9513,"뿔":9514,"정도였다.":9515,"방송에서":9516,"명칭은":9517,"##out":9518,"시노":9519,"소위":9520,"멘탈":9521,"6,":9522,"소드":9523,"##능력을":9524,"강의":9525,"이다.":9526,"입히":9527,"기숙":9528,"비해서":9529,"녹색":9530,"##단에서":9531,"##현은":9532,"카오스":9533,"4번":9534,"문재인":9535,"소지":9536,"장점":9537,"클라":9538,"얻게":9539,"관람":9540,"성공한":9541,"아래에":9542,"우수한":9543,"한번에":9544,"금융":9545,"##습을":9546,"##시에는":9547,"문서를":9548,"히카":9549,"윈도우":9550,"대우":9551,"전투에":9552,"니코":9553,"187":9554,"##%가":9555,"브랜":9556,"전문가":9557,"CJ":9558,"대통령이":9559,"양성":9560,"닥":9561,"전반적으로":9562,"##까진":9563,"##기록":9564,"유통":9565,"##ave":9566,"##편에":9567,"모를":9568,"유저들은":9569,"전주":9570,"##성능":9571,"금방":9572,"##경제":9573,"속한다.":9574,"성공한다.":9575,"##국에서":9576,"사회적":9577,"더러":9578,"해피":9579,"무라":9580,"하나씩":9581,"유발":9582,"클레":9583,"정수":9584,"2.0":9585,"##된다고":9586,"불렀다.":9587,"##거리를":9588,"보면,":9589,"##함.":9590,"SH":9591,"주포":9592,"늦게":9593,"떠난":9594,"타자":9595,"입장을":9596,"후보로":9597,"않았고":9598,"성남":9599,"##조사":9600,"##되는데":9601,"전체적인":9602,"연속으로":9603,"##26":9604,"마이크로":9605,"좁은":9606,"사라져":9607,"##공원":9608,"뮤지컬":9609,"스플":9610,"나면":9611,"##영은":9612,"##으로서의":9613,"당일":9614,"추종":9615,"##ream":9616,"마키":9617,"올렸다.":9618,"##축구":9619,"냄새":9620,"친구가":9621,"자연스럽게":9622,"##ond":9623,"영상이":9624,"##사이트":9625,"함선":9626,"놔":9627,"휘말":9628,"##무장":9629,"거울":9630,"##야는":9631,"나타나는":9632,"총기":9633,"데에":9634,"4위":9635,"수술":9636,"최소한":9637,"##ile":9638,"##크리":9639,"열어":9640,"시작하는":9641,"##범위":9642,"이스라엘":9643,"생기는":9644,"사랑하는":9645,"##46":9646,"발생한다.":9647,"##편이":9648,"장비를":9649,"거짓말":9650,"유력":9651,"부임":9652,"양의":9653,"1986년":9654,"전투가":9655,"듣는":9656,"크리스마스":9657,"잇는":9658,"해리":9659,"##첨":9660,"작업을":9661,"##냐?":9662,"##타자":9663,"1루":9664,"측정":9665,"잔뜩":9666,"승강장":9667,"##팅을":9668,"답변":9669,"쉽지":9670,"목을":9671,"패스":9672,"갤러리":9673,"1만":9674,"올스타":9675,"##개,":9676,"디지몬":9677,"##ian":9678,"나오는데":9679,"기관총":9680,"톤":9681,"##노우":9682,"##작이":9683,"##ION":9684,"##렸고,":9685,"보완":9686,"니콜":9687,"중,":9688,"구멍":9689,"반사":9690,"횟수":9691,"둘의":9692,"##부장":9693,"##동과":9694,"##야만":9695,"Gr":9696,"##발의":9697,"that":9698,"##슨은":9699,"언급이":9700,"숨어":9701,"##디는":9702,"대미지가":9703,"상영":9704,"일어나는":9705,"##싱턴":9706,"임대":9707,"다이아몬":9708,"##에서부터":9709,"##장전":9710,"지뢰":9711,"난입":9712,"##세)":9713,"##브의":9714,"사건으로":9715,"가지는":9716,"플레이어는":9717,"상관없이":9718,"분명히":9719,"1:1":9720,"선두":9721,"아까":9722,"부러":9723,"따온":9724,"즐거":9725,"똥":9726,"인디":9727,"##플러":9728,"자격":9729,"##아리":9730,"보다는":9731,"호칭":9732,"##슨이":9733,"고스트":9734,"##즈마":9735,"정황":9736,"생년월":9737,"##필더":9738,"##LE":9739,"##프,":9740,"이유를":9741,"김현":9742,"##29":9743,"초록":9744,"##받지":9745,"하나,":9746,"##브가":9747,"##감한":9748,"##iss":9749,"들면":9750,"곡은":9751,"끝날":9752,"받으며":9753,"##체인":9754,"데드":9755,"무서운":9756,"음성":9757,"톱":9758,"토너":9759,"한글판":9760,"##톡":9761,"유독":9762,"자녀":9763,"##슨의":9764,"틀어":9765,"별도의":9766,"가려":9767,"옳":9768,"보여줬다.":9769,"물건을":9770,"멋진":9771,"알아서":9772,"마법소녀":9773,"차를":9774,"생각해보면":9775,"##앉":9776,"마케":9777,"수를":9778,"##졌다는":9779,"동양":9780,"대성":9781,"##칙을":9782,"설정을":9783,"##예술":9784,"시상":9785,"삽입":9786,"시대에":9787,"찍어":9788,"심지어는":9789,"##rd":9790,"코우":9791,"플레이어를":9792,"그러다":9793,"알겠지만":9794,"##아시아":9795,"공격으로":9796,"##뚝":9797,"186":9798,"##우기":9799,"AM":9800,"##운이":9801,"뜻이다.":9802,"운영하는":9803,"발렌":9804,"증언":9805,"##사관":9806,"최근에는":9807,"먹은":9808,"혹시":9809,"나선":9810,"수백":9811,"1장":9812,"##발로":9813,"##사람":9814,"사살":9815,"신라":9816,"스탯":9817,"대대":9818,"##면이":9819,"체인":9820,"##운을":9821,"##밭":9822,"주인공은":9823,"##.00":9824,"##급이":9825,"영화를":9826,"뱅":9827,"##르와":9828,"##나간":9829,"군대를":9830,"쭉":9831,"등.":9832,"결과가":9833,"피할":9834,"##츠는":9835,"라틴":9836,"##함의":9837,"##ost":9838,"101":9839,"발표했다.":9840,"##SP":9841,"돌입":9842,"정식으로":9843,"노려":9844,"베를":9845,"훼":9846,"##블로":9847,"##-19":9848,"투어":9849,"##더라":9850,"+10":9851,"활성화":9852,"일종":9853,"말하며":9854,"1승":9855,"예로":9856,"닌자":9857,"죽는다.":9858,"오마":9859,"눈물":9860,"##\"고":9861,"나도":9862,"호주":9863,"미쿠":9864,"미드필더":9865,"없다면":9866,"##고한":9867,"가치":9868,"해당한다.":9869,"콜라보":9870,"저택":9871,"가슴":9872,"##면에서":9873,"데몬":9874,"3번째":9875,"##.20":9876,"네임":9877,"묘사가":9878,"가지게":9879,"2연":9880,"느낌을":9881,"형사":9882,"##운의":9883,"요소가":9884,"아래의":9885,"##카오":9886,"##루,":9887,"##급을":9888,"##펠":9889,"위력":9890,"걸맞":9891,"경상북도":9892,"스페이스":9893,"마코":9894,"리듬":9895,"정도이다.":9896,"심판":9897,"경험이":9898,"##지구":9899,"핸":9900,"말하고":9901,"단축":9902,"트레이드":9903,"##전자":9904,"##행이":9905,"원자":9906,"나간":9907,"##지기도":9908,"메디":9909,"##300":9910,"지팡":9911,"96":9912,"##신교":9913,"점도":9914,"대단한":9915,"죽지":9916,"AD":9917,"장면은":9918,"##겠어":9919,"##더러":9920,"이수":9921,"##보병":9922,"제6":9923,"타는":9924,"공격은":9925,"들어가면":9926,"오류":9927,"비유":9928,"2.5":9929,"배포":9930,"바퀴":9931,"평타":9932,"##누리":9933,"항복":9934,"##계는":9935,"동일하다.":9936,"프리큐어":9937,"##55":9938,"대리":9939,"아이템이":9940,"최우":9941,"4차":9942,"리뷰":9943,"애매한":9944,"스킬은":9945,"내야":9946,"##하나,":9947,"각각의":9948,"##키퍼":9949,"##르,":9950,"원칙":9951,"일으킨":9952,"##하면,":9953,"죽기":9954,"않는다고":9955,"칼날":9956,"##44":9957,"배차":9958,"아나운":9959,"삶을":9960,"주장하는":9961,"어뢰":9962,"싱":9963,"##역과":9964,"인물이다.":9965,"얻었다.":9966,"##단,":9967,"##ace":9968,"의해서":9969,"##네스":9970,"요정":9971,"팀에":9972,"##s.":9973,"상태를":9974,"투구":9975,"매력":9976,"시절에는":9977,"##다\"는":9978,"이긴":9979,"곡이다.":9980,"다리를":9981,"전신":9982,"데다가":9983,"Com":9984,"##ov":9985,"##대상":9986,"주식":9987,"##이면서":9988,"##바나":9989,"##길이":9990,"현장":9991,"##ory":9992,"뽑아":9993,"왕국의":9994,"세인트":9995,"##온이":9996,"처벌":9997,"##벌을":9998,"속도로":9999,"##-K":10000,"개설":10001,"입장에서":10002,"여객":10003,"##종합":10004,"떡바":10005,"같지만":10006,"##man":10007,"영광":10008,"##ph":10009,"1명":10010,"##달아":10011,"##속으로":10012,"2007":10013,"##주었다.":10014,"##진에":10015,"얻기":10016,"방식을":10017,"소재로":10018,"아버지는":10019,"유저들의":10020,"텔레비전":10021,"심장":10022,"우크라":10023,"국가대표팀":10024,"답이":10025,"갑작":10026,"##기기":10027,"##치면서":10028,"##공간":10029,"스케이":10030,"귀여운":10031,"##;&":10032,"피에":10033,"포트":10034,"적어":10035,"##민은":10036,"시절부터":10037,"##률은":10038,"엿":10039,"캐리":10040,"##벌레":10041,"철저":10042,"제가":10043,"##'과":10044,"준수한":10045,"##사이드":10046,"코믹":10047,"##,8":10048,"##마,":10049,"창설":10050,"공격한다.":10051,"공허":10052,"##바가":10053,"##마크":10054,"##ear":10055,"고수":10056,"생명력":10057,"##곽":10058,"1분":10059,"평을":10060,"칼을":10061,"팬들에게":10062,"##ᆻ었다.":10063,"##복이":10064,"##음.":10065,"세대":10066,"1985년":10067,"상처를":10068,"이하의":10069,"전체의":10070,"5%":10071,"면이":10072,"##네시아":10073,"머리에":10074,"사이버":10075,"태평양":10076,"##비한":10077,"실종":10078,"부근":10079,"##왕을":10080,"나은":10081,"##곡이":10082,"##인민공화국":10083,"##석,":10084,"화성":10085,"2006":10086,"어두운":10087,"드라이버":10088,"##나이트":10089,"되지만":10090,"워싱턴":10091,"일일":10092,"당신의":10093,"##ᆨ저":10094,"##족을":10095,"플라이":10096,"##......":10097,"끔찍":10098,"현상이":10099,"속으로":10100,"새겨":10101,"타쿠":10102,"##:10":10103,"커스터":10104,"비미":10105,"가리키":10106,"##무가":10107,"신화":10108,"##국으로":10109,"파르":10110,"곳이다.":10111,"내고":10112,"체크":10113,"또다른":10114,"##합이":10115,"##희의":10116,"강등":10117,"##주교":10118,"전체가":10119,"본다.":10120,"말하자면":10121,"확실하게":10122,"아케이드":10123,"##속이":10124,"천안":10125,"##oth":10126,"##너가":10127,"##례를":10128,"##노는":10129,"##짤":10130,"첼":10131,"기사가":10132,"당했다.":10133,"##렸다고":10134,"이슈":10135,"미라":10136,"출연했다.":10137,"##:20":10138,"##경기에서":10139,"##신과":10140,"높게":10141,"업데이트로":10142,"합니다.":10143,"질문":10144,"##IG":10145,"##점의":10146,"전설의":10147,"작품은":10148,"연금":10149,"쪽은":10150,"지나지":10151,"출시된":10152,"기술.":10153,"나치":10154,"##DD":10155,"유나이티드":10156,"그럭저":10157,"##러니":10158,"정통":10159,"제7":10160,"##시스트":10161,"불이":10162,"인민":10163,"선고":10164,"인간을":10165,"펄":10166,"그랑":10167,"무더":10168,"않지만,":10169,"##전한":10170,"생긴다.":10171,"AS":10172,"단행":10173,"먹어":10174,"눈치채":10175,"##추어":10176,"##-16":10177,"정확하게":10178,"완전한":10179,"##건이":10180,"우리의":10181,"동남":10182,"왠지":10183,"##클럽":10184,"LC":10185,"당하고":10186,"##란의":10187,"성을":10188,"쉬워":10189,"##습니다":10190,"##해보면":10191,"토벌":10192,"##드래":10193,"##국민":10194,"발을":10195,"세븐":10196,"스킬로":10197,"##바르":10198,"##리고,":10199,"##였으며,":10200,"re":10201,"##.16":10202,"##하진":10203,"##다\"라고":10204,"모델이":10205,"지휘관":10206,"화물":10207,"##조직":10208,"LV":10209,"##데다가":10210,"실수로":10211,"특징.":10212,"이종":10213,"아저":10214,"##주일":10215,"##커스":10216,"프리미어":10217,"##환의":10218,"빼고":10219,"속의":10220,"상품":10221,"파생":10222,"요구하는":10223,"##소와":10224,"이젠":10225,"보내는":10226,"갖추고":10227,"시라":10228,"시간은":10229,"97":10230,"##ys":10231,"고기":10232,"샌드":10233,"사용했다.":10234,"차트":10235,"##하하":10236,"##-S":10237,"중세":10238,"1984년":10239,"조연":10240,"63":10241,"어머니가":10242,"##품의":10243,"##있고":10244,"오랜만에":10245,"닌텐":10246,"지은":10247,"생년월일":10248,"개발한":10249,"빌려":10250,"엔터테인":10251,"맘":10252,"##산에":10253,"제외하고는":10254,"간단한":10255,"##장갑":10256,"##테일":10257,"국민의":10258,"나츠":10259,"##2의":10260,"##;&#x11":10261,"##병의":10262,"콘서트":10263,"##더의":10264,"##체와":10265,"올라오":10266,"##버전":10267,"영향으로":10268,"61":10269,"의견도":10270,"밝힌":10271,"##리에이":10272,"서번":10273,"뮤직비디오":10274,"##미로":10275,"공기":10276,"부분.":10277,"술을":10278,"차기":10279,"요즘":10280,"제자":10281,"전북":10282,"##ᆯ로그":10283,"3000":10284,"로버트":10285,"##ᆷ블":10286,"##달라는":10287,"주차":10288,"창원":10289,"##상황":10290,"##후에":10291,"사용된":10292,"##렇게":10293,"그럭저럭":10294,"##전문":10295,"과도":10296,"상기":10297,"후퇴":10298,"마비":10299,"상자":10300,"##되지만":10301,"날카":10302,"형식으로":10303,"한반":10304,"삼각":10305,"비정":10306,"##pp":10307,"발굴":10308,"베이징":10309,"이용할":10310,"바닥에":10311,"1~2":10312,"시카":10313,"##파는":10314,"키가":10315,"부인":10316,"세상":10317,"##포의":10318,"하나만":10319,"막는":10320,"by":10321,"경우엔":10322,"밑에":10323,"타마":10324,"의하여":10325,"##ᆻ을때":10326,"##머가":10327,"##시타":10328,"부가":10329,"두들":10330,"대지":10331,"상대는":10332,"스트레":10333,"특징이다.":10334,"승점":10335,"2~3":10336,"낮다.":10337,"에르":10338,"##sp":10339,"지칭":10340,"##인데도":10341,"쟈":10342,"잘라":10343,"간단히":10344,"생각할":10345,"##용의":10346,"69":10347,"들어올":10348,"사례가":10349,"##틸":10350,"##음에":10351,"상의":10352,"##난이":10353,"문명":10354,"##산은":10355,"보이지만":10356,"톰":10357,"커녕":10358,"##23":10359,"무시무":10360,"##든가":10361,"땅을":10362,"배출":10363,"철거":10364,"##ale":10365,"##머스":10366,"읽는":10367,"##가며":10368,"1500":10369,"갔다.":10370,"상대에게":10371,"##TE":10372,"사이드":10373,"2021년":10374,"모양의":10375,"##위해":10376,"터미널":10377,"우크라이나":10378,"자막":10379,"코르":10380,"부분에서":10381,"##로나":10382,"아니라면":10383,"시작되었다.":10384,"스톰":10385,"##딸":10386,"타격을":10387,"비교하면":10388,"복잡한":10389,"##숙한":10390,"변환":10391,"선제":10392,"미네":10393,"많지":10394,"##전설":10395,"적중":10396,"웨스트":10397,"여담이지만":10398,"왕자":10399,"폭력":10400,"오키":10401,"이라고":10402,"크기가":10403,"오라":10404,"아트":10405,"##영을":10406,"##TS":10407,"패키":10408,"회장":10409,"구별":10410,"##집이":10411,"##aw":10412,"퍼포":10413,"드래프트":10414,"개별":10415,"##령의":10416,"##로만":10417,"##거야":10418,"기지":10419,"세계관":10420,"진압":10421,"태도를":10422,"형태를":10423,"##렸을":10424,"위기를":10425,"브레이크":10426,"##ike":10427,"##IM":10428,"약점":10429,"##이었기":10430,"일부를":10431,"##으로만":10432,"사유":10433,"시즌에":10434,"꼼":10435,"##루와":10436,"헝가":10437,"##관광":10438,"가격은":10439,"##ᆷ이라는":10440,"사라진다.":10441,"디젤":10442,"세부":10443,"##합을":10444,"한국인":10445,"##되었는데":10446,"블레이드":10447,"노선이":10448,"막내":10449,"캘리":10450,"##고도":10451,"최하":10452,"히나":10453,"유격":10454,"##야를":10455,"누르면":10456,"##영,":10457,"##OU":10458,"##ᆽ게":10459,"##안은":10460,"한나라":10461,"구할":10462,"신호":10463,"도둑":10464,"##면의":10465,"음식을":10466,"마법의":10467,"무사히":10468,"##살을":10469,"전까지는":10470,"허리":10471,"골키퍼":10472,"2:":10473,"유희왕":10474,"신도":10475,"##군에게":10476,"완결":10477,"경상남도":10478,"더군":10479,"3개의":10480,"##기능":10481,"연맹":10482,"##로써":10483,"회차":10484,"##우지":10485,"부스터":10486,"##,000,000,000,000":10487,"낫다.":10488,"마약":10489,"약탈":10490,"##형,":10491,"##링을":10492,"일행이":10493,"이벤트를":10494,"##슬라":10495,"인종":10496,"창단":10497,"특별히":10498,"##박스":10499,"##정도로":10500,"2군":10501,"##툴":10502,"이벤트가":10503,"##히지":10504,"##.17":10505,"유리한":10506,"책임을":10507,"넣을":10508,"침묵":10509,"##씨를":10510,"와일드":10511,"인구가":10512,"전작의":10513,"##하다면":10514,"커피":10515,"말자.":10516,"##XX":10517,"##미에":10518,"있듯이":10519,"##irl":10520,"필살기":10521,"##위권":10522,"일로":10523,"있었으며,":10524,"간간":10525,"에그":10526,"한데":10527,"지녀":10528,"##orm":10529,"된다":10530,"##월드":10531,"괜히":10532,"1990년대":10533,"오타":10534,"##반의":10535,"배경으로":10536,"ED":10537,"당신이":10538,"##아키":10539,"코리아":10540,"가동":10541,"쟁":10542,"요약":10543,"건국":10544,"##매를":10545,"대인":10546,"사도":10547,"피가":10548,"15%":10549,"##.19":10550,"침입":10551,"역사를":10552,"뽑아내":10553,"공연을":10554,"무역":10555,"적지":10556,"##필이":10557,"버그가":10558,"##/5":10559,"##메달을":10560,"피터":10561,"시리즈에":10562,"만드":10563,"##녹":10564,"모니":10565,"##건의":10566,"왜냐":10567,"감지":10568,"개념이":10569,"서서히":10570,"향한":10571,"##VA":10572,"닮은":10573,"배를":10574,"허락":10575,"파일럿":10576,"기아":10577,"예언":10578,"그러던":10579,"하이퍼":10580,"기회가":10581,"반박":10582,"##이기에":10583,"뿜":10584,"트리플":10585,"용인":10586,"2라운드":10587,"병원":10588,"사건에":10589,"실수":10590,"사라졌다.":10591,"##산시":10592,"와중":10593,"교전":10594,"##곡으로":10595,"조조":10596,"700":10597,"##뤼":10598,"##나?":10599,"장치":10600,"##었으나,":10601,"악역":10602,"결말":10603,"얻고":10604,"높고":10605,"보충":10606,"##맵":10607,"진심으로":10608,"##배가":10609,"##번은":10610,"일부는":10611,"SNS":10612,"##캐릭터":10613,"##협회":10614,"##되거나":10615,"##마치":10616,"앱":10617,"트러":10618,"종이":10619,"##ook":10620,"나오는데,":10621,"걸리는":10622,"풀려":10623,"위력을":10624,"무산":10625,"심심":10626,"규칙":10627,"곡의":10628,"론":10629,"##아아":10630,"소속의":10631,"아기":10632,"소요":10633,"전해":10634,"##로에":10635,"팀원":10636,"백작":10637,"고객":10638,"1.2":10639,"##더가":10640,"일원":10641,"모습도":10642,"25%":10643,"##내기":10644,"##스레":10645,"##흔":10646,"##자베":10647,"##~6":10648,"엑스트라":10649,"법정":10650,"여유":10651,"##방으로":10652,"영화의":10653,"Br":10654,"##인치":10655,"서구":10656,"시위":10657,"5.":10658,"나라의":10659,"##프레이":10660,"##경우":10661,"185":10662,"##ial":10663,"대상을":10664,"페이스북":10665,"##우라":10666,"##레인저":10667,"##ink":10668,"##ows":10669,"특수한":10670,"목소리를":10671,"##오,":10672,"##연한":10673,"시작하였다.":10674,"##8,":10675,"파는":10676,"줄어든":10677,"의상":10678,"##바야":10679,"##반이":10680,"실드":10681,"박물":10682,"너프":10683,"##뮬":10684,"매번":10685,"침략":10686,"모스크":10687,"벌레":10688,"블러드":10689,"올릴":10690,"힐러":10691,"동계":10692,"##우주":10693,"쌍둥이":10694,"용서":10695,"하필":10696,"갈등":10697,"뷰":10698,"후기":10699,"교사":10700,"끊임":10701,"주장했다.":10702,"주장을":10703,"플레이가":10704,"##줬다.":10705,"진실을":10706,"##넬":10707,"##손으로":10708,"언급된":10709,"천사":10710,"얘기를":10711,"##타수":10712,"평양":10713,"야생":10714,"프로필":10715,"3세":10716,"무인":10717,"##ᆼ을":10718,"##질의":10719,"##ish":10720,"##은,":10721,"게스트":10722,"끝으로":10723,"영원히":10724,"시원":10725,"한국에":10726,"성격을":10727,"엘리트":10728,"공사":10729,"기재":10730,"씌":10731,"##블린":10732,"##정치":10733,"히로인":10734,"금액":10735,"마블":10736,"어빌리티":10737,"항의":10738,"##보자.":10739,"나고":10740,"버스터":10741,"지키는":10742,"관여":10743,"말라고":10744,"땅에":10745,"ch":10746,"임팩":10747,"불만을":10748,"물론이고":10749,"go":10750,"##금의":10751,"레지":10752,"근거리":10753,"##tle":10754,"상륙":10755,"선생님":10756,"2개의":10757,"노리는":10758,"]세)":10759,"##포니아":10760,"뒤집어":10761,"미쳐":10762,"리미":10763,"##준이":10764,"로이":10765,"##극을":10766,"집착":10767,"치명적인":10768,"굿":10769,"빼면":10770,"토마":10771,"기가":10772,"##있을":10773,"대선":10774,"했으며,":10775,"##서야":10776,"##포르":10777,"되었으며,":10778,"호소":10779,"번개":10780,"민첩":10781,"BL":10782,"스토리가":10783,"몬스터가":10784,"선수를":10785,"##터로":10786,"##-17":10787,"선거에서":10788,"힙":10789,"조약":10790,"20년":10791,"세계에":10792,"엘레":10793,"##저스":10794,"재개":10795,"긴급":10796,"그날":10797,"차이는":10798,"##십시오":10799,"바가":10800,"참여한":10801,"프로그램을":10802,"대치":10803,"##UM":10804,"부착":10805,"더군다나":10806,"변화가":10807,"없으므로":10808,"업로드":10809,"웬만한":10810,"무의":10811,"유의":10812,"일에":10813,"##ob":10814,"##47":10815,"노리고":10816,"압도적으로":10817,"##기게":10818,"##절한":10819,"언데":10820,"CG":10821,"꿰":10822,"당사":10823,"##떨어":10824,"퍼포먼":10825,"자랑하는":10826,"##했기에":10827,"별의":10828,"플래그":10829,"스즈":10830,"컨세":10831,"자신들이":10832,"상대방":10833,"무력화":10834,"##옵":10835,"htt":10836,"##ower":10837,"펴":10838,"##란이":10839,"이룬":10840,"##라면서":10841,"##오로":10842,"옹호":10843,"##틀러":10844,"과목":10845,"정예":10846,"##.com":10847,"건물을":10848,"잘모":10849,"사태가":10850,"뱀파이어":10851,"##공업":10852,"스토리를":10853,"조건이":10854,"##너의":10855,"놓은":10856,"##토,":10857,"RPG":10858,"##ft":10859,"즉사":10860,"풍부":10861,"사람으로":10862,"루카":10863,"##병으로":10864,"여론":10865,"더이상":10866,"스위스":10867,"딜링":10868,"안양":10869,"##ach":10870,"유인":10871,"적다.":10872,"직접적으로":10873,"##키아":10874,"##품은":10875,"원인":10876,"장면에서":10877,"받기":10878,"엑시":10879,"##토니":10880,"사고를":10881,"무승":10882,"##플레":10883,"이어가":10884,"##이라고도":10885,"취득":10886,"나머지는":10887,"##보이는":10888,"##:40":10889,"##림을":10890,"포격":10891,"2002":10892,"구조를":10893,"##먹은":10894,"##체스터":10895,"언덕":10896,"7,":10897,"배정":10898,"라인업":10899,"측에서":10900,"튼":10901,"작곡가":10902,"즐겨":10903,"음원":10904,"시계":10905,"##히트":10906,"동기":10907,"##란다.":10908,"거친":10909,"둘러싸":10910,"가만히":10911,"계통":10912,"##자라는":10913,"소방":10914,"기존에":10915,"##티스":10916,"명백":10917,"Team":10918,"##즈니":10919,"##GE":10920,"서비스를":10921,"세력이":10922,"코미디":10923,"어리":10924,"##차별":10925,"둘을":10926,"여지가":10927,"Sc":10928,"##르며":10929,"##주며":10930,"##희는":10931,"##공학":10932,"돌연":10933,"버튼을":10934,"히어로즈":10935,"아치":10936,"비하":10937,"##스틴":10938,"들어오는":10939,"사형":10940,"##소총":10941,"##당과":10942,"1982년":10943,"미즈":10944,"몰리":10945,"유카":10946,"##팀은":10947,"정기":10948,"##민,":10949,"##궤":10950,"버리는":10951,"김경":10952,"기점으로":10953,"##갔다.":10954,"한두":10955,"과거에는":10956,"##듈":10957,"질문에":10958,"##나고":10959,"##했어":10960,"##ble":10961,"남겼다.":10962,"깨달":10963,"천연":10964,"##편을":10965,"##와도":10966,"라이플":10967,"##름의":10968,"해킹":10969,"기상":10970,"삼아":10971,"##영웅":10972,"영어판":10973,"억제":10974,"매니저":10975,"##루에":10976,"사용자":10977,"대조":10978,"##디움":10979,"나이에":10980,"써야":10981,"##산,":10982,"##졌지만":10983,"##밤":10984,"작전을":10985,"쏜":10986,"신입":10987,"##낭":10988,"열리는":10989,"장거리":10990,"Cl":10991,"##스ᄐ":10992,"스카우":10993,"악몽":10994,"##택을":10995,"##푼":10996,"시체":10997,"세력을":10998,"훈련을":10999,"헤르":11000,"모노":11001,"##코어":11002,"억지로":11003,"##쯔":11004,"엄격":11005,"쏘는":11006,"수능":11007,"1시간":11008,"툴":11009,"##색,":11010,"정비":11011,"##차량":11012,"넘게":11013,"장탄":11014,"않았다고":11015,"에디":11016,"중요하다.":11017,"##우스의":11018,"취향":11019,"Sk":11020,"사령관":11021,"남아있는":11022,"안된다.":11023,"썼다.":11024,"나무위키":11025,"출력":11026,"170":11027,"쫓아":11028,"제네":11029,"알라":11030,"##사나":11031,"&#x":11032,"전승":11033,"##바닥":11034,"호평을":11035,"아이러니":11036,"친한":11037,"결정적인":11038,"경기장":11039,"길어":11040,"통하여":11041,"권장":11042,"Bl":11043,"최종보스":11044,"##능력이":11045,"##주의를":11046,"다투":11047,"시리즈를":11048,"뜻한다.":11049,"5000":11050,"##스런":11051,"에릭":11052,"이로써":11053,"저질러":11054,"연구를":11055,"은신":11056,"럭":11057,"1983년":11058,"백성":11059,"##모데":11060,"디스크":11061,"사립":11062,"##감도":11063,"복구":11064,"초반부터":11065,"출격":11066,"전세계":11067,"##님을":11068,"차이를":11069,"돌아가는":11070,"군인":11071,"나오기도":11072,"채팅":11073,"지속시간":11074,"학교에":11075,"팔을":11076,"통틀":11077,"구간이":11078,"달라고":11079,"듯이":11080,"카츠":11081,"대단히":11082,"패널":11083,"##과정":11084,"자유롭게":11085,"강원도":11086,"소송":11087,"로빈":11088,"것보다":11089,"주인공을":11090,"##차에":11091,"느려":11092,"84":11093,"키타":11094,"했었다.":11095,"나빠":11096,"줄여":11097,"##했듯이":11098,"##겠다며":11099,"제한이":11100,"연기를":11101,"##네는":11102,"가해":11103,"##도서":11104,"##심은":11105,"실점":11106,"가죽":11107,"인용":11108,"Man":11109,"##이었으나,":11110,"부정적인":11111,"감독을":11112,"##계약":11113,"스펙":11114,"수치가":11115,"김상":11116,"##상으로는":11117,"##속의":11118,"##경,":11119,"맷":11120,"SE":11121,"청와":11122,"아버지를":11123,"교과":11124,"보면서":11125,"##니까?":11126,"##더를":11127,"##타이어":11128,"##하고는":11129,"아츠":11130,"공립":11131,"##순위":11132,"##길을":11133,"점.":11134,"##AP":11135,"##하기를":11136,"부품":11137,"##스도":11138,"임의":11139,"평생":11140,"슬프":11141,"##ex":11142,"몫":11143,"하향":11144,"몬스터의":11145,"##름에":11146,"궁금":11147,"카자":11148,"##타니":11149,"센트":11150,"사제":11151,"처참":11152,"또,":11153,"담긴":11154,"하에":11155,"썰":11156,"##중에서":11157,"OP":11158,"##키스탄":11159,"출간":11160,"비웃":11161,"남자가":11162,"주인공인":11163,"별명이":11164,"바뀐다.":11165,"스크린":11166,"##살이":11167,"##늦게":11168,"DVD":11169,"##The":11170,"프렌":11171,"처음엔":11172,"바르셀로":11173,"바꿀":11174,"싶다면":11175,"방어력이":11176,"##대원":11177,"위력이":11178,"코멘트":11179,"아래로":11180,"임신":11181,"출시되었다.":11182,"여학생":11183,"##자동차":11184,"면역":11185,"지냈다.":11186,"##사도":11187,"에리":11188,"점,":11189,"일격":11190,"전역":11191,"10분":11192,"나지":11193,"##MS":11194,"유이":11195,"숫자":11196,"그러나,":11197,"드롭":11198,"킥":11199,"##다'고":11200,"터져":11201,"Pr":11202,"모로":11203,"첩":11204,"진학":11205,"각자":11206,"##판과":11207,"인피":11208,"적들을":11209,"여기는":11210,"선행":11211,"코토":11212,"##31":11213,"하계":11214,"새누리":11215,"Dr":11216,"신장":11217,"스킬의":11218,"##왕은":11219,"호환":11220,"수립":11221,"일행을":11222,"나왔던":11223,"남기고":11224,"##룸":11225,"받아서":11226,"##나로":11227,"이토":11228,"##꼽":11229,"후원":11230,"인물로":11231,"##치아":11232,"중형":11233,"##권,":11234,"충성":11235,"나갈":11236,"##이동":11237,"1턴":11238,"캐스터":11239,"어드벤":11240,"어이":11241,"##너는":11242,"포켓몬스터":11243,"사거리가":11244,"같다고":11245,"버전은":11246,"##등한":11247,"##인데다":11248,"경우에도":11249,"##되었기":11250,"잠입":11251,"##심의":11252,"스팀":11253,"##해준":11254,"공용":11255,"귀국":11256,"##타임이":11257,"사법":11258,"거둔":11259,"파울":11260,"##사한":11261,"버전이":11262,"##:50":11263,"86":11264,"맡게":11265,"노선을":11266,"특히나":11267,"##티를":11268,"구슬":11269,"##되어있다.":11270,"조금이":11271,"##공격을":11272,"응용":11273,"추정되는":11274,"82":11275,"복무":11276,"##았는데,":11277,"##ms":11278,"he":11279,"개체":11280,"싸움이":11281,"선수이다.":11282,"끝난다.":11283,"기록은":11284,"##라이브":11285,"79":11286,"국회":11287,"모토":11288,"내린":11289,"##째로":11290,"##것이다.":11291,"##nt":11292,"번에":11293,"키스":11294,"기후":11295,"김진":11296,"##투표":11297,"수록된":11298,"##소설":11299,"##ree":11300,"아서":11301,"인스타":11302,"느낀":11303,"텍스트":11304,"라그":11305,"공지":11306,"아니었":11307,"소식이":11308,"##[ruby]":11309,"##화.":11310,"세우":11311,"좋아서":11312,"지워":11313,"##카이도":11314,"트라우":11315,"##법으로":11316,"콘텐츠":11317,"이득을":11318,"명중률":11319,"중복":11320,"일본에":11321,"그림을":11322,"Wind":11323,"시내버스":11324,"##ass":11325,"당할":11326,"편에":11327,"트윈":11328,"크래":11329,"너는":11330,"된다면":11331,"머리카":11332,"악의":11333,"준비를":11334,"1,2":11335,"유지하고":11336,"올라가는":11337,"밝은":11338,"##리다":11339,"##-18":11340,"87":11341,"김기":11342,"한일":11343,"##재판":11344,"록맨":11345,"##GB":11346,"구경":11347,"많기":11348,"선수는":11349,"방식이":11350,"가졌다.":11351,"전무":11352,"##!!!":11353,"지키기":11354,"저지른":11355,"나오면서":11356,"연대":11357,"1집":11358,"##기어":11359,"않았다는":11360,"탐험":11361,"##곳을":11362,"UN":11363,"인접":11364,"건지":11365,"조롱":11366,"제공하는":11367,"아베":11368,"계획이":11369,"##혀서":11370,"##~8":11371,"##훈이":11372,"좋다고":11373,"##.5%":11374,"##범죄":11375,"##-B":11376,"##문으로":11377,"좋고":11378,"##오버":11379,"때문이라고":11380,"길게":11381,"기동전사":11382,"##now":11383,"##포로":11384,"한마디로":11385,"##열한":11386,"동화":11387,"사망했다.":11388,"패턴을":11389,"도저히":11390,"에반":11391,"분쟁":11392,"##우에":11393,"##.14":11394,"동영상":11395,"따뜨":11396,"시청자":11397,"##리한":11398,"105":11399,"주최":11400,"리버풀":11401,"##팀을":11402,"##하였으나,":11403,"능력으로":11404,"불펜":11405,"##다'라는":11406,"##중간":11407,"칼리":11408,"아군의":11409,"엘리자베":11410,"무소":11411,"노벨":11412,"변화를":11413,"생각한":11414,"깜짝":11415,"##천만":11416,"배우이다.":11417,"##란을":11418,"##are":11419,"오로지":11420,"이득":11421,"##터스":11422,"논의":11423,"파크":11424,"##...\"":11425,"일람":11426,"동인":11427,"##~19":11428,"전화를":11429,"어필":11430,"철수":11431,"##동물":11432,"상태에":11433,"맞을":11434,"And":11435,"로얄":11436,"For":11437,"후반부":11438,"떡밥":11439,"직접적인":11440,"속한":11441,"사용되었다.":11442,"이야기는":11443,"초창기":11444,"##전기":11445,"##프라":11446,"메이플":11447,"아지":11448,"카구":11449,"##얀":11450,"##3.":11451,"바위":11452,"##정책":11453,"딜을":11454,"뮌":11455,"##천의":11456,"##범이":11457,"마스크":11458,"##덩이":11459,"##이었다는":11460,"복합":11461,"##ᆺ하게":11462,"자의":11463,"테라":11464,"가능성은":11465,"가깝":11466,"##이었는데":11467,"##어버리는":11468,"도움으로":11469,"대량":11470,"선택할":11471,"오페":11472,"##매치":11473,"이상은":11474,"나타내는":11475,"권력":11476,"경주":11477,"최대의":11478,"##서도":11479,"빛나는":11480,"죽게":11481,"운이":11482,"조용히":11483,"##변이":11484,"##회,":11485,"원작의":11486,"상실":11487,"##좀":11488,"존경":11489,"ID":11490,"1945년":11491,"##피가":11492,"1억":11493,"##인가?":11494,"혐오":11495,"##400":11496,"세상에":11497,"##듯한":11498,"거는":11499,"기둥":11500,"그러면":11501,"시리아":11502,"##다거나":11503,"중순":11504,"##세서":11505,"쓰인":11506,"난이도는":11507,"마감":11508,"손오":11509,"개신교":11510,"이어진":11511,"##atch":11512,"LA":11513,"소속팀":11514,"아이가":11515,"엔트":11516,"뒤에는":11517,"##동시":11518,"조금만":11519,"불명.":11520,"혈액":11521,"##강의":11522,"1970년":11523,"미래를":11524,"계기가":11525,"##ool":11526,"##란히":11527,"##-A":11528,"번째로":11529,"##속을":11530,"테일":11531,"취약":11532,"수직":11533,"축하":11534,"##ment":11535,"스티븐":11536,"얻는다.":11537,"아동":11538,"##역사":11539,"##ug":11540,"##실점으로":11541,"##yle":11542,"함대":11543,"##폭탄":11544,"교도":11545,"사야":11546,"##키,":11547,"요한":11548,"서머":11549,"골라":11550,"아랍":11551,"시리즈에서":11552,"재장전":11553,"수월":11554,"##권과":11555,"##페르":11556,"용이":11557,"BS":11558,"##가서":11559,"뛰어넘":11560,"데이비드":11561,"##렸고":11562,"안녕":11563,"시로":11564,"가능성을":11565,"농업":11566,"분포":11567,"토요":11568,"##현을":11569,"증폭":11570,"##봤자":11571,"느끼고":11572,"사회주의":11573,"##중의":11574,"##소프트":11575,"수면":11576,"타츠":11577,"기사를":11578,"##당에서":11579,"되었다는":11580,"정보가":11581,"들었다.":11582,"것이고,":11583,"##권으로":11584,"해골":11585,"경남":11586,"##하겠다는":11587,"세이브":11588,"퍼부":11589,"귀신":11590,"히토":11591,"캘리포니아":11592,"유출":11593,"##였으나,":11594,"위치하고":11595,"Bla":11596,"후의":11597,"건드":11598,"요원":11599,"태풍":11600,"만나는":11601,"##싶":11602,"예전에":11603,"가상":11604,"All":11605,"여행을":11606,"\"어":11607,"##창을":11608,"행위를":11609,"그래서인지":11610,"얻어맞":11611,"##지나":11612,"영역":11613,"설치되어":11614,"##비치":11615,"##ING":11616,"용사":11617,"War":11618,"##민족":11619,"##해서,":11620,"스트리트":11621,"입는":11622,"모델로":11623,"##작으로":11624,"위기":11625,"치면":11626,"보통은":11627,"배우,":11628,"만일":11629,"아닌,":11630,"##하였는데,":11631,"가디언":11632,"말라":11633,"보정":11634,"수의":11635,"##노를":11636,"되살":11637,"함락":11638,"##둘러":11639,"자꾸":11640,"##었다가":11641,"필리핀":11642,"블래":11643,"아인":11644,"##밋":11645,"십자":11646,"추방":11647,"너를":11648,"##ᆻ으므로":11649,"지목":11650,"어렸을":11651,"##마일":11652,"주장이":11653,"사로":11654,"##포트":11655,"##-C":11656,"##바를":11657,"야쿠":11658,"##시키면":11659,"카드로":11660,"유닛의":11661,"##츠로":11662,"회상":11663,"##층의":11664,"비틀":11665,"본명은":11666,"교육을":11667,"##\"가":11668,"##ase":11669,"재활":11670,"근대":11671,"No.":11672,"포기하고":11673,"##ae":11674,"뒤늦게":11675,"제독":11676,"늘려":11677,"##eat":11678,"##지능":11679,"##양의":11680,"정체는":11681,"모티브로":11682,"외전":11683,"날리는":11684,"이자":11685,"성우가":11686,"1편":11687,"크림":11688,"스파이더":11689,"안타를":11690,"극히":11691,"##딧":11692,"쓸데":11693,"##8년에":11694,"캠페인":11695,"##림이":11696,"거미":11697,"갑옷":11698,"가난":11699,"바에":11700,"해준다.":11701,"##on't":11702,"하츠":11703,"2004":11704,"찾아와":11705,"너희":11706,"##외의":11707,"쌀":11708,"말투":11709,"시간의":11710,"##파크":11711,"화력이":11712,"##하면서,":11713,"대신에":11714,"엄밀":11715,"##사단":11716,"연타":11717,"싹":11718,"##엔딩":11719,"##시에서":11720,"전파":11721,"시달리":11722,"넘버":11723,"an":11724,"##벽을":11725,"없었고,":11726,"1981년":11727,"어디서":11728,"##들처럼":11729,"연고":11730,"##ᆷ으로,":11731,"시의":11732,"베를린":11733,"20대":11734,"##법의":11735,"동반":11736,"활동하고":11737,"러시아의":11738,"##STER":11739,"내게":11740,"1979년":11741,"분해":11742,"##부터가":11743,"고쳐":11744,"차고":11745,"막상":11746,"담당하는":11747,"##쟈":11748,"지진":11749,"##레베":11750,"##어에":11751,"4개의":11752,"코난":11753,"##ous":11754,"##ᆻ다며":11755,"만들어서":11756,"##학원":11757,"축제":11758,"##노동":11759,"터널":11760,"안좋":11761,"##구간":11762,"##백이":11763,"왕조":11764,"합계":11765,"슬래":11766,"##사고":11767,"화제가":11768,"세뇌":11769,"가질":11770,"며칠":11771,"##장애":11772,"유물":11773,"89":11774,"분기":11775,"당신은":11776,"선수권":11777,"Star":11778,"가리키는":11779,"##1.":11780,"##소나":11781,"##반을":11782,"마냥":11783,"레이드":11784,"알려졌다.":11785,"2경기":11786,"보유한":11787,"중화민":11788,"가리지":11789,"데다":11790,"##내에":11791,"##식과":11792,"여성의":11793,"늘어":11794,"번도":11795,"들어가서":11796,"분열":11797,"명목":11798,"암시":11799,"끝이":11800,"물이":11801,"##탁을":11802,"불의":11803,"실시간":11804,"이니":11805,"결승전":11806,"##리도":11807,"공장":11808,"마디":11809,"##마츠":11810,"편지를":11811,"10개":11812,"우월":11813,"실질적인":11814,"7년":11815,"2022년":11816,"대통령의":11817,"상반":11818,"알았":11819,"포지션은":11820,"빠져나":11821,"##렸다는":11822,"에픽":11823,"역시나":11824,"상하이":11825,"##km/h":11826,"부적":11827,"캔슬":11828,"데이터를":11829,"##모는":11830,"지는":11831,"타율":11832,"못하면":11833,"흔한":11834,"발견된":11835,"##조선":11836,"???":11837,"##추는":11838,"##이자,":11839,"##박이":11840,"1980년대":11841,"상태였다.":11842,"##타마":11843,"차지하는":11844,"벙":11845,"집어넣":11846,"사건은":11847,"we":11848,"스와":11849,"##오스":11850,"전투기":11851,"퍼져":11852,"제작에":11853,"랜더":11854,"서포터":11855,"입주":11856,"말레이":11857,"이세":11858,"##거든":11859,"사자":11860,"외야":11861,"##ᆻ기에":11862,"낙선":11863,"부드러":11864,"##서울":11865,"##었는지":11866,"엔진을":11867,"유기":11868,"##용은":11869,"안으로":11870,"방향을":11871,"리치":11872,"결론":11873,"증가,":11874,"##부지":11875,"벽을":11876,"발동할":11877,"볼넷":11878,"SF":11879,"이걸로":11880,"원소":11881,"킬러":11882,"끓":11883,"##way":11884,"##리에게":11885,"##포스":11886,"원더":11887,"식량":11888,"물에":11889,"결심":11890,"##민을":11891,"되도록":11892,"가챠":11893,"##그램":11894,"오브제":11895,"##조합":11896,"만크":11897,"##텨":11898,"##85":11899,"##미사":11900,"작품이다.":11901,"클라우":11902,"2005":11903,"투명":11904,"제트":11905,"만화가":11906,"##련의":11907,"##초의":11908,"##일로":11909,"자체도":11910,"쿠데":11911,"우에":11912,"##준의":11913,"우라":11914,"##니아의":11915,"##ᆮ는":11916,"스트라이크":11917,"홋":11918,"교토":11919,"전라남도":11920,"##,000원":11921,"##사기":11922,"출범":11923,"##였으며":11924,"않다는":11925,"##법원":11926,"헬리":11927,"사가":11928,"와카":11929,"화력을":11930,"##되었으나,":11931,"AKB":11932,"##화되었다.":11933,"밤에":11934,"콤":11935,"##호환":11936,"##갑을":11937,"유망":11938,"보호막":11939,"두들겨":11940,"트루":11941,"##쉽":11942,"작년":11943,"드럼":11944,"##az":11945,"##수이다.":11946,"##코스트":11947,"125":11948,"일부가":11949,"이르는":11950,"지나면":11951,"오버워치":11952,"가기":11953,"마린":11954,"##님은":11955,"일렉":11956,"불사":11957,"클릭":11958,"핑크":11959,"##신,":11960,"수익":11961,"프리미엄":11962,"73":11963,"박지":11964,"샤를":11965,"##적.":11966,"##-14":11967,"##67":11968,"바이러":11969,"##대사":11970,"##티즌":11971,"보냈다.":11972,"New":11973,"자이언츠":11974,"능력치가":11975,"토큰":11976,"정상적인":11977,"학력":11978,"##곡은":11979,"기종":11980,"배급":11981,"아들을":11982,"보건":11983,"솔직":11984,"##/20":11985,"실은":11986,"##권에서는":11987,"브라운":11988,"진격":11989,"단위":11990,"##이었는데,":11991,"##골드":11992,"악당":11993,"3.5":11994,"##신도":11995,"구역":11996,"출루":11997,"연습생":11998,"구미":11999,"##서와":12000,"##ason":12001,"식민지":12002,"유재":12003,"One":12004,"LP":12005,"상황은":12006,"얽":12007,"마이크":12008,"기술로":12009,"사이코":12010,"스코틀":12011,"주제":12012,"대표팀":12013,"10대":12014,"##ary":12015,"빛이":12016,"##분,":12017,"여기서는":12018,"복수를":12019,"딜레이":12020,"정발":12021,"up":12022,"어벤":12023,"##식,":12024,"쫓겨":12025,"##브레":12026,"문제에":12027,"생길":12028,"찍는":12029,"##메리카":12030,"##즈로":12031,"World":12032,"갖춰":12033,"오니":12034,"배려":12035,"##석에서":12036,"한방에":12037,"71":12038,"가진다.":12039,"기기":12040,"육상":12041,"쪽에":12042,"'오":12043,"본격적인":12044,"오크":12045,"실질적으로":12046,"닉네이":12047,"안정적인":12048,"##er.":12049,"일본은":12050,"여성이":12051,"충분한":12052,"일어날":12053,"##운드를":12054,"쌓아":12055,"##과대학":12056,"DC":12057,"날이":12058,"대표하는":12059,"위치가":12060,"##바는":12061,"계열의":12062,"##a,":12063,"##내며":12064,"들어갔다.":12065,"거론":12066,"솜":12067,"리스":12068,"확장팩":12069,"On":12070,"##하지도":12071,"진행하는":12072,"##목이":12073,"제1차":12074,"도착한":12075,"발매일":12076,"팔아":12077,"##시험":12078,"##저런":12079,"폐기":12080,"주된":12081,"##론가":12082,"5위":12083,"지향":12084,"##저를":12085,"함부로":12086,"오스만":12087,"연령":12088,"소문이":12089,"##카르":12090,"전쟁의":12091,"끌어올":12092,"뚫고":12093,"엎":12094,"부작":12095,"지경":12096,"전원이":12097,"거두었다.":12098,"##표가":12099,"이어져":12100,"이집트":12101,"여섯":12102,"되어있":12103,"거둬":12104,"간호":12105,"##번과":12106,"매출":12107,"복제":12108,"##AY":12109,"성적이":12110,"3명":12111,"나노":12112,"동경":12113,"하려고":12114,"증가합니다.":12115,"담은":12116,"야간":12117,"기도":12118,"심사":12119,"중후반":12120,"싶다고":12121,"##act":12122,"1호":12123,"##iki":12124,"##4년에":12125,"주의해야":12126,"해산":12127,"감싸":12128,"40%":12129,"히가시":12130,"뜬금없이":12131,"스캔":12132,"##1의":12133,"못해서":12134,"##후가":12135,"사고가":12136,"##강을":12137,"개인의":12138,"호불":12139,"전력을":12140,"##터널":12141,"##밖":12142,"건네":12143,"##연맹":12144,"집합":12145,"따지면":12146,"사실이다.":12147,"페스티":12148,"조리":12149,"##어스":12150,"국정":12151,"독재":12152,"폭탄을":12153,"주택":12154,"서로의":12155,"##궐":12156,"##mer":12157,"사용시":12158,"교장":12159,"아들인":12160,"초콜":12161,"경북":12162,"네트워크":12163,"Gam":12164,"저는":12165,"유래는":12166,"싱가":12167,"주관":12168,"##6년에":12169,"비주얼":12170,"슈퍼로봇":12171,"시크":12172,"학습":12173,"##관련":12174,"차지하고":12175,"2명":12176,"##-J":12177,"##달이":12178,"선임":12179,"마루":12180,"##ai":12181,"##티가":12182,"3부":12183,"버텨":12184,"##카운":12185,"일방적으로":12186,"안의":12187,"##ᆻ다!":12188,"상태이다.":12189,"반해":12190,"앞의":12191,"##?\"라고":12192,"대해서도":12193,"아니기":12194,"폭파":12195,"모티브는":12196,"젖":12197,"별도로":12198,"겹쳐":12199,"인도네시아":12200,"175":12201,"대동":12202,"쉴드":12203,"CS":12204,"최근에":12205,"가벼운":12206,"느끼는":12207,"##무의":12208,"##경기에":12209,"감독으로":12210,"바이올":12211,"Part":12212,"진정":12213,"묻자":12214,"부동":12215,"+3":12216,"짱":12217,"내각":12218,"D.":12219,"##600":12220,"일본에서는":12221,"##노트":12222,"철학":12223,"누군가":12224,"오다":12225,"##ife":12226,"무시무시한":12227,"추억":12228,"나중에는":12229,"그녀에게":12230,"것이며,":12231,"ne":12232,"##양함":12233,"모습에":12234,"정도를":12235,"문제.":12236,"상점":12237,"낸다.":12238,"여기저":12239,"너무나도":12240,"81":12241,"전날":12242,"매주":12243,"여의":12244,"##태를":12245,"디자인이":12246,"##교가":12247,"##번으로":12248,"##차의":12249,"##즈에서":12250,"제8":12251,"네티즌":12252,"##떼":12253,"먹으면":12254,"막대한":12255,"반응은":12256,"소중한":12257,"우호":12258,"##퉁":12259,"남는":12260,"도망가":12261,"3점":12262,"##부인":12263,"메모리":12264,"투척":12265,"국경":12266,"넘어가는":12267,"NE":12268,"운동을":12269,"##누스":12270,"##건설":12271,"인터뷰를":12272,"토르":12273,"막강":12274,"##마냥":12275,"해양":12276,"##것.":12277,"낚시":12278,"인연":12279,"풋":12280,"##베리":12281,"있기도":12282,"##류는":12283,"유입":12284,"넘치는":12285,"##늄":12286,"##회복":12287,"CH":12288,"##영상":12289,"심의":12290,"##하길":12291,"##로마":12292,"포스터":12293,"##자라고":12294,"배가":12295,"이른바":12296,"남을":12297,"서로를":12298,"##보의":12299,"거다.":12300,"##자이":12301,"##바다":12302,"10만":12303,"1사":12304,"규모가":12305,"베테":12306,"상태의":12307,"JT":12308,"천황":12309,"없었고":12310,"##ade":12311,"##히게":12312,"오락":12313,"말로는":12314,"갖게":12315,"리처":12316,"미루":12317,"모집":12318,"움직임을":12319,"##에른":12320,"소장":12321,"##ven":12322,"##-09":12323,"실현":12324,"퍼즐":12325,"##커는":12326,"슬롯":12327,"바른":12328,"선수들의":12329,"멀어":12330,"IN":12331,"##시스테":12332,"사이클":12333,"못했던":12334,"##처리":12335,"PR":12336,"충청남도":12337,"##았기":12338,"나누어":12339,"##7년에":12340,"우익":12341,"##스테이지":12342,"##석으로":12343,"기대를":12344,"##시대의":12345,"##ᆯ스":12346,"##베르크":12347,"상세":12348,"올드":12349,"머무":12350,"##시켜서":12351,"그르":12352,"사진이":12353,"재회":12354,"##행정":12355,"방탄":12356,"##숴":12357,"##통합":12358,"설정상":12359,"온천":12360,"왜곡":12361,"공방":12362,"##적으로도":12363,"좋아한다.":12364,"사퇴":12365,"드라이브":12366,"##앨":12367,"##br":12368,"의식을":12369,"도와주":12370,"시즌2":12371,"오디":12372,"데미지는":12373,"어쩌면":12374,"##터,":12375,"플레":12376,"0.3":12377,"##층이":12378,"##CG":12379,"##들에서":12380,"충실":12381,"케이블":12382,"##UP":12383,"나오게":12384,"##미노":12385,"##감과":12386,"옆에서":12387,"FW":12388,"정화":12389,"유적":12390,"사업을":12391,"##49":12392,"##봐도":12393,"위혀":12394,"황제의":12395,"고속도로":12396,"리얼":12397,"8,":12398,"진주":12399,"양자":12400,"서바이":12401,"세번째":12402,"작화":12403,"친일":12404,"쓸만한":12405,"서클":12406,"오스트레이":12407,"##놓는":12408,"논리":12409,"##소리를":12410,"##사에게":12411,"학생회":12412,"연봉":12413,"가요":12414,"##온은":12415,"달하는":12416,"끝나는":12417,"일시적으로":12418,"부유":12419,"스나이":12420,"벽에":12421,"플러":12422,"도적":12423,"입장에선":12424,"다이어":12425,"이웃":12426,"독점":12427,"자금":12428,"닛":12429,"주연으로":12430,"올라간다.":12431,"'어":12432,"##벅":12433,"##스피":12434,"##ank":12435,"##i-":12436,"##gin":12437,"버서":12438,"호수":12439,"##해줄":12440,"##링이":12441,"전락":12442,"비가":12443,"통칭":12444,"##타점":12445,"동해":12446,"##팀에":12447,"달리는":12448,"##배치":12449,"##되어,":12450,"집권":12451,"##자료":12452,"선택한":12453,"끊어":12454,"벨기에":12455,"방영된":12456,"할수":12457,"베타":12458,"##본을":12459,"개를":12460,"부르고":12461,"##고리":12462,"##쉐":12463,"설명을":12464,"유혹":12465,"UP":12466,"##lect":12467,"##줘서":12468,"DE":12469,"장관":12470,"##겠지":12471,"경력":12472,"4인":12473,"주니어":12474,"훔쳐":12475,"무리가":12476,"춤을":12477,"판결":12478,"지리":12479,"##당,":12480,"##능한":12481,"작품에":12482,"##시청":12483,"둘다":12484,"우측":12485,"재직":12486,"게이지":12487,"##사스":12488,"##티는":12489,"##3년에":12490,"##ork":12491,"튕겨":12492,"##면서,":12493,"누구도":12494,"그곳에서":12495,"하늘을":12496,"##관계를":12497,"6개":12498,"이마":12499,"스킬.":12500,"느리":12501,"동일하게":12502,"학교에서":12503,"재건":12504,"필요는":12505,"긴장":12506,"AFC":12507,"만들어낸":12508,"적용된다.":12509,"규모의":12510,"정책을":12511,"배달":12512,"아이디":12513,"자유한국":12514,"역사가":12515,"##켓을":12516,"##aby":12517,"##보호":12518,"##뱃":12519,"이곳에":12520,"기분이":12521,"##책으로":12522,"이오":12523,"튼튼":12524,"노가":12525,"갖는":12526,"##리칸":12527,"간에":12528,"싶을":12529,"조기":12530,"3의":12531,"아군이":12532,"##되므로":12533,"도박":12534,"차량이":12535,"평가는":12536,"호의":12537,"##p://":12538,"##음으로":12539,"사단":12540,"노무":12541,"##조,":12542,"받으면":12543,"조우":12544,"##~10":12545,"질투":12546,"헨리":12547,"##딜이":12548,"기술은":12549,"표정을":12550,"순수한":12551,"가능하게":12552,"시,":12553,"BR":12554,"##그레":12555,"92":12556,"아케":12557,"올해의":12558,"##평을":12559,"##색은":12560,"기생":12561,"젤":12562,"##국,":12563,"다음은":12564,"##처를":12565,"지도자":12566,"마라":12567,"성향이":12568,"얀":12569,"평일":12570,"키우":12571,"상대방의":12572,"제노":12573,"그대":12574,"조언":12575,"되어있다.":12576,"##티의":12577,"확산":12578,"##oll":12579,"팬덤":12580,"등장할":12581,"##흉":12582,"##는지는":12583,"싶지":12584,"포스트시즌":12585,"##해져서":12586,"했다":12587,"단종":12588,"##볼을":12589,"범용":12590,"##민주주의":12591,"##야!":12592,"##공으로":12593,"##라미":12594,"한창":12595,"귀찮":12596,"##w.":12597,"스쿨":12598,"##곡의":12599,"에미":12600,"##득점":12601,"##룡의":12602,"도시를":12603,"콘스탄":12604,"##CC":12605,"어머니는":12606,"6개월":12607,"##본부":12608,"PP":12609,"미노":12610,"날뛰":12611,"##'이다.":12612,"주목을":12613,"만만":12614,"##선생":12615,"청주":12616,"바꾸는":12617,"마신":12618,"그중":12619,"천천":12620,"초기에":12621,"##남이":12622,"영혼을":12623,"일대":12624,"##박한":12625,"오디션":12626,"Mar":12627,"한방":12628,"흑인":12629,"체중":12630,"##oon":12631,"##버스터미널":12632,"##루이":12633,"북한의":12634,"##킷":12635,"비율이":12636,"무기의":12637,"##5년에":12638,"팬더":12639,"##몬의":12640,"번의":12641,"율":12642,"GB":12643,"사신":12644,"##ps://":12645,"드문":12646,"사정거리":12647,"##온을":12648,"##수인":12649,"주역":12650,"산탄":12651,"부산광역시":12652,"##겠다":12653,"이누":12654,"맞춘":12655,"패밀리":12656,"내용의":12657,"끊임없이":12658,"이순":12659,"시작할":12660,"모두를":12661,"부르며":12662,"기다려":12663,"##질은":12664,"기다리고":12665,"막고":12666,"품고":12667,"##hen":12668,"1일에":12669,"살아있는":12670,"상대할":12671,"##도리":12672,"##저항":12673,"##께서":12674,"전장":12675,"##내에서":12676,"의미하는":12677,"##국과":12678,"##클래":12679,"싶으면":12680,"써먹":12681,"##카미":12682,"참여하였다.":12683,"내성":12684,"##데렐라":12685,"##-08":12686,"발표한":12687,"##구청":12688,"합동":12689,"소프트웨어":12690,"하시":12691,"보이기도":12692,"이동속도":12693,"설이":12694,"배트맨":12695,"복원":12696,"무술":12697,"통계":12698,"크레이":12699,"트럭":12700,"AN":12701,"수습":12702,"차량을":12703,"배차간":12704,"지역이":12705,"좌절":12706,"시가":12707,"##레옹":12708,"여자가":12709,"주의할":12710,"트레일러":12711,"모드를":12712,"간간히":12713,"맞붙":12714,"지연":12715,"##AA":12716,"손쉬":12717,"경우를":12718,"지지를":12719,"##CE":12720,"설명은":12721,"기억이":12722,"짜증":12723,"걸린다.":12724,"전쟁에서":12725,"연쇄":12726,"배드":12727,"청소":12728,"뉘":12729,"##몹":12730,"##미한":12731,"있어,":12732,"소니":12733,"##감에":12734,"##음은":12735,"세웠다.":12736,"##해주고":12737,"NH":12738,"상한":12739,"이유도":12740,"선사":12741,"##파와":12742,"##초로":12743,"##비행":12744,"크라이":12745,"더불어민주당":12746,"##대문":12747,"최적":12748,"퇴각":12749,"##본다.":12750,"오염":12751,"시작된다.":12752,"볼트":12753,"지정되었다.":12754,"코인":12755,"짐작":12756,"##-07":12757,"마치고":12758,"승리로":12759,"##렐":12760,"불태":12761,"5분":12762,"인격":12763,"쓰게":12764,"##프라이":12765,"첫째":12766,"권력을":12767,"시게":12768,"##AK":12769,"사랑의":12770,"사천":12771,"김준":12772,"논쟁":12773,"찾아온":12774,"배제":12775,"##나에게":12776,"출신으로":12777,"틈을":12778,"도시의":12779,"바이에른":12780,"왈":12781,"중첩":12782,"커맨드":12783,"분당":12784,"패배를":12785,"완공":12786,"도망치":12787,"##만으로도":12788,"되므로":12789,"회사의":12790,"##자유":12791,"언젠가":12792,"##집에":12793,"소속으로":12794,"만주":12795,"영주":12796,"##트랙":12797,"전송":12798,"지키고":12799,"##생활을":12800,"머신":12801,"김해":12802,"형태가":12803,"신경을":12804,"되어버렸다.":12805,"##나에":12806,"90년대":12807,"권유":12808,"##:0으로":12809,"##께끼":12810,"지원하는":12811,"일어났다.":12812,"대변":12813,"##게이머":12814,"스리":12815,"살아남은":12816,"불량":12817,"##나베":12818,"딸을":12819,"믿을":12820,"1경기":12821,"are":12822,"뿐.":12823,"가담":12824,"수류탄":12825,"읽어":12826,"##퍼가":12827,"##거래":12828,"6년":12829,"상태이상":12830,"##션의":12831,"유용한":12832,"장신":12833,"##꿈":12834,"##초를":12835,"이런저런":12836,"찾아볼":12837,"입대":12838,"손꼽":12839,"##인들에게":12840,"깨어나":12841,"피의":12842,"강경":12843,"##와이":12844,"##ox":12845,"차이로":12846,"반란을":12847,"등도":12848,"두꺼":12849,"스타리그":12850,"다큐":12851,"게이머":12852,"후보가":12853,"##하여야":12854,"모은":12855,"##88":12856,"구간은":12857,"##들어가":12858,"유성":12859,"##화하는":12860,"##터와":12861,"##란드의":12862,"##과가":12863,"보스턴":12864,"것과는":12865,"결투":12866,"##침을":12867,"##ᆯ리는":12868,"##계획":12869,"사망한다.":12870,"##첸":12871,"히든":12872,"브래":12873,"지고":12874,"아니지만,":12875,"경험을":12876,"##았다":12877,"폭행":12878,"1:":12879,"삭":12880,"성과를":12881,"개성":12882,"##워즈":12883,"발로":12884,"최저":12885,"따르는":12886,"커서":12887,"포획":12888,"던지는":12889,"도움":12890,"용어":12891,"바둑":12892,"캠프":12893,"초등":12894,"##형과":12895,"분산":12896,"정해진":12897,"##올림픽":12898,"투사":12899,"Fe":12900,"모습.":12901,"2편":12902,"명문":12903,"설령":12904,"흙":12905,"모델은":12906,"##면으로":12907,"싱크로":12908,"손이":12909,"기록하였다.":12910,"kg":12911,"##경기를":12912,"공격해":12913,"턱":12914,"모자라":12915,"##매가":12916,"'마":12917,"얼티":12918,"가능하며,":12919,"사고로":12920,"LIVE":12921,"도쿠":12922,"체제":12923,"거라":12924,"해명":12925,"불행":12926,"원시":12927,"뿌리":12928,"관계는":12929,"##스포츠":12930,"수석":12931,"목적을":12932,"##법인":12933,"낙하":12934,"축소":12935,"포함된":12936,"1장을":12937,"나라를":12938,"시리즈가":12939,"##ᆯ레스":12940,"뜻으로":12941,"퇴장":12942,"워크래프트":12943,"상징하는":12944,"조회":12945,"83":12946,"##버를":12947,"##했으니":12948,"하이라":12949,"당한다.":12950,"교차":12951,"매장":12952,"갇혀":12953,"나폴레옹":12954,"마을을":12955,"다닌다.":12956,"전남":12957,"하반":12958,"##핏":12959,"다이아몬드":12960,"입증":12961,"부르기도":12962,"##나기":12963,"되었는데,":12964,"##버튼":12965,"##.24":12966,"창립":12967,"등극":12968,"매달":12969,"##2년에":12970,"콰":12971,"##댄":12972,"이번엔":12973,"순으로":12974,"##이었지만,":12975,"한가":12976,"##뼈":12977,"##0년에":12978,"힙합":12979,"정신이":12980,"자전거":12981,"##혹한":12982,"전쟁에":12983,"##복지":12984,"것이기":12985,"정류장":12986,"##령으로":12987,"듣는다.":12988,"얇":12989,"내리는":12990,"+5":12991,"##문제":12992,"않았기":12993,"속해":12994,"츠바":12995,"OS":12996,"설명이":12997,"5번":12998,"슬레이":12999,"갚":13000,"94":13001,"피부":13002,"##파에":13003,"단행본":13004,"싸운":13005,"즐기는":13006,"##메라":13007,"안심":13008,"진행된":13009,"그렇고":13010,"##미네이":13011,"올리고":13012,"벌인":13013,"이곳에서":13014,"잡아먹":13015,"천천히":13016,"시키는":13017,"약점을":13018,"##결승":13019,"경직":13020,"위성":13021,"꽉":13022,"우위를":13023,"시마":13024,"##넷을":13025,"시종":13026,"##환으로":13027,"봤을":13028,"반지":13029,"발레":13030,"##행위":13031,"지구의":13032,"공헌":13033,"체험":13034,"##00년":13035,"##야와":13036,"##분으로":13037,"##9년에":13038,"##킹을":13039,"램":13040,"우울":13041,"의미는":13042,"뿐,":13043,"##ᆻ음에도":13044,"플래시":13045,"클린":13046,"##네를":13047,"##앵":13048,"##당하게":13049,"브라이언":13050,"##블리":13051,"이전부터":13052,"##작의":13053,"말하자":13054,"아버지와":13055,"대전차":13056,"##포는":13057,"##=\"":13058,"##스:":13059,"##보지":13060,"짐승":13061,"약화":13062,"북아":13063,"국제공항":13064,"취미":13065,"랑":13066,"##으려는":13067,"제작진":13068,"신속":13069,"1화":13070,"생방송":13071,"배터리":13072,"대접":13073,"##마로":13074,"20세기":13075,"키라":13076,"##재의":13077,"엘리베이":13078,"##갱":13079,"패널티":13080,"코스튜":13081,"무서워":13082,"프레임":13083,"##기준":13084,"개척":13085,"많을":13086,"전망":13087,"충족":13088,"##iver":13089,"있기는":13090,"실전":13091,"그러니":13092,"케빈":13093,"##생명":13094,"그외":13095,"포수":13096,"##목록":13097,"로맨":13098,"##들이나":13099,"증오":13100,"##되어야":13101,"파고":13102,"트라":13103,"엔지":13104,"##er,":13105,"때문이었다.":13106,"리타이어":13107,"어렵지":13108,"콘솔":13109,"사로잡":13110,"1의":13111,"주류":13112,"일관":13113,"상황이었다.":13114,"##클리":13115,"길고":13116,"편에서":13117,"##있었다.":13118,"거북":13119,"실수를":13120,"어나":13121,"##실과":13122,"특성이":13123,"긍정적인":13124,"어드벤처":13125,"중장":13126,"사이에서는":13127,"##동맹":13128,"##반에":13129,"##딜을":13130,"##~7":13131,"토오":13132,"따라가":13133,"닌텐도":13134,"수요가":13135,"##너를":13136,"Up":13137,"거지":13138,"휴식":13139,"##칭은":13140,"위주의":13141,"10.":13142,"신데렐라":13143,"연인":13144,"요즈":13145,"감정이":13146,"##골이":13147,"믿는":13148,"Mk":13149,"소규모":13150,"역의":13151,"##지며,":13152,"이병":13153,"##ah":13154,"##금으로":13155,"대사는":13156,"바니":13157,"끼고":13158,"##-P":13159,"##뽀":13160,"일자":13161,"수수께끼":13162,"하라":13163,"##막지":13164,"##.S":13165,"동행":13166,"로즈":13167,"토우":13168,"가공":13169,"##ᆷ으로서":13170,"쓸만":13171,"##이었을":13172,"이루어졌다.":13173,"일기":13174,"켈":13175,"##바퀴":13176,"보좌":13177,"##바시":13178,"##청을":13179,"넘기":13180,"지역으로":13181,"아레나":13182,"##태가":13183,"남기":13184,"##\"에":13185,"어색":13186,"쿨타임이":13187,"##들로부터":13188,"부숴":13189,"그러므로":13190,"Ad":13191,"##동에서":13192,"##-02":13193,"어머니의":13194,"##방울":13195,"##게이트":13196,"##링크":13197,"가져다":13198,"이대":13199,"##리라":13200,"시체를":13201,"나오며":13202,"신선":13203,"도루":13204,"lv":13205,"184":13206,"어울리는":13207,"도마":13208,"##자책":13209,"마찬가지.":13210,"대마":13211,"하마":13212,"이외에":13213,"유엔":13214,"이번에도":13215,"##올라":13216,"아래와":13217,"곱":13218,"##시아의":13219,"초에":13220,"##탐정":13221,"기술의":13222,"백인":13223,"점유":13224,"강릉":13225,"화산":13226,"포함해":13227,"최종적으로":13228,"##히코":13229,"스틸":13230,"난이도를":13231,"허무":13232,"타이틀을":13233,"I'm":13234,"기갑":13235,"##A의":13236,"페미니":13237,"신용":13238,"김일":13239,"##uck":13240,"10,":13241,"##여행":13242,"유료":13243,"##분은":13244,"김용":13245,"선수의":13246,"##igh":13247,"건물이":13248,"##ᆷ이라고":13249,"웃는":13250,"사촌":13251,"##ᆺ빛":13252,"##밀한":13253,"무거운":13254,"오기":13255,"##백과":13256,"싸움에서":13257,"하쿠":13258,"##담의":13259,"##시키며":13260,"리그에서":13261,"나뉜다.":13262,"3:":13263,"마음의":13264,"주위":13265,"##호에":13266,"##cc":13267,"수색":13268,"붙인":13269,"아니더라도":13270,"10초":13271,"기본으로":13272,"측은":13273,"##ᆺ지":13274,"무대를":13275,"끝나면":13276,"일행은":13277,"싼":13278,"##작은":13279,"스탈":13280,"히메":13281,"can":13282,"쇼핑":13283,"깔아":13284,"캐릭터들이":13285,"디자이":13286,"##오지":13287,"##공화":13288,"게이트":13289,"신형":13290,"##때마다":13291,"볼수":13292,"6.":13293,"섬의":13294,"주면":13295,"##디스":13296,"글이":13297,"##마귀":13298,"특징을":13299,"'사":13300,"##인지,":13301,"표현을":13302,"산맥":13303,"봉쇄":13304,"제안을":13305,"있겠다.":13306,"침투":13307,"위안":13308,"승진":13309,"때와":13310,"공업":13311,"항목을":13312,"움직이":13313,"가리킨다.":13314,"올림":13315,"BB":13316,"치킨":13317,"놓여":13318,"##땐":13319,"정체가":13320,"##클레":13321,"##위대":13322,"여타":13323,"##천년":13324,"입문":13325,"##쿤":13326,"##ung":13327,"어마어마한":13328,"칩":13329,"##입구":13330,"이모":13331,"하나다.":13332,"신사":13333,"3층":13334,"악마의":13335,"실패한":13336,"Fate":13337,"회색":13338,"고지":13339,"후반부에":13340,"학교를":13341,"##되었다가":13342,"##ᆺ불":13343,"테니":13344,"교류":13345,"##세,":13346,"그리고,":13347,"얼굴에":13348,"도시철도":13349,"공수":13350,"않으므로":13351,"고통을":13352,"체감":13353,"자국":13354,"장례":13355,"학부":13356,"앤드":13357,"무지막지":13358,"임진":13359,"##노와":13360,"있다!":13361,"거기다가":13362,"##숲":13363,"적당한":13364,"바뀌는":13365,"버리":13366,"##ical":13367,"##병은":13368,"철권":13369,"##해온":13370,"2주":13371,"##세기에":13372,"##저리":13373,"있었으며":13374,"Day":13375,"##orn":13376,"##.0%":13377,"운송":13378,"##}}":13379,"##te":13380,"모에":13381,"포인트를":13382,"특정한":13383,"##버리면":13384,"누군가가":13385,"생각한다.":13386,"했으며":13387,"##69":13388,"차량은":13389,"내렸다.":13390,"부자":13391,"왕복":13392,"베테랑":13393,"일본이":13394,"제공한다.":13395,"할로":13396,"지붕":13397,"고무":13398,"부분이다.":13399,"맡겨":13400,"##딴":13401,"##들끼리":13402,"후회":13403,"사서":13404,"인게임":13405,"##저는":13406,"많은데,":13407,"셀레":13408,"전투의":13409,"시상식":13410,"발견한":13411,"수동":13412,"경악":13413,"파밍":13414,"성격은":13415,"어지간한":13416,"주축":13417,"미국은":13418,"900":13419,"수단":13420,"매드":13421,"##성한":13422,"##IV":13423,"##시간에":13424,"##히메":13425,"부부":13426,"멈춰":13427,"##가드":13428,"##츠와":13429,"##정하고":13430,"소용":13431,"긁":13432,"공무원":13433,"19세기":13434,"챔피언스리그":13435,"루나":13436,"##지는데":13437,"호시":13438,"빠르고":13439,"열고":13440,"##체에서":13441,"호남":13442,"##로이":13443,"정반":13444,"잉여":13445,"전체에":13446,"##두면":13447,"영어로":13448,"피해자":13449,"##딕":13450,"##/s":13451,"획득할":13452,"요리를":13453,"all":13454,"냈다.":13455,"호불호가":13456,"##돈의":13457,"너머":13458,"##건지":13459,"단백":13460,"##되었지만,":13461,"##멜":13462,"혐의로":13463,"발키":13464,"감수":13465,"없다며":13466,"##리.":13467,"do":13468,"플레이어에게":13469,"자존":13470,"##-06":13471,"맨체스터":13472,"이해할":13473,"##삐":13474,"정권":13475,"궤도":13476,"뚜려":13477,"움직일":13478,"일곱":13479,"메달":13480,"마음대로":13481,"'미":13482,"젊":13483,"대가":13484,"쵸":13485,"##으니까":13486,"압축":13487,"구독":13488,"게임이다.":13489,"최연":13490,"디즈니":13491,"So":13492,"적게":13493,"##콤보":13494,"##남의":13495,"아저씨":13496,"##나.":13497,"결정적으로":13498,"al":13499,"##ich":13500,"관료":13501,"먹는다.":13502,"9,":13503,"히비":13504,"DD":13505,"오우":13506,"단어를":13507,"ML":13508,"비극":13509,"183":13510,"강간":13511,"##형에":13512,"##ype":13513,"상주":13514,"##드래곤":13515,"메구":13516,"특징이":13517,"다운로드":13518,"##ᆫ은":13519,"##러브":13520,"후방":13521,"##돌을":13522,"파멸":13523,"드로우":13524,"##나미":13525,"티켓":13526,"운영하고":13527,"왜냐하면":13528,"##훈의":13529,"##릴라":13530,"것들이":13531,"등번호":13532,"##줄이":13533,"조별리그":13534,"##조와":13535,"영향력을":13536,"##1년에":13537,"우루":13538,"요소를":13539,"##녀가":13540,"디자인을":13541,"아스카":13542,"##철이":13543,"##뻐":13544,"규격":13545,"노린":13546,"정도면":13547,"배운":13548,"##애를":13549,"스즈키":13550,"영화는":13551,"경호":13552,"스티브":13553,"축복":13554,"철저히":13555,"극대":13556,"폼":13557,"양손":13558,"말.":13559,"##.O":13560,"마을의":13561,"전향":13562,"성적은":13563,"사람과":13564,"##플렉":13565,"##시스코":13566,"본명":13567,"##풍을":13568,"##/12":13569,"비용이":13570,"물러나":13571,"##희,":13572,"##y,":13573,"레벨을":13574,"잦은":13575,"질러":13576,"만들어졌다.":13577,"적시":13578,"프로리그":13579,"후일":13580,"알려지지":13581,"미국이":13582,"펠리":13583,"죄를":13584,"명명":13585,"DPS":13586,"En":13587,"일하는":13588,"상하":13589,"##ARD":13590,"성우:":13591,"뽑는":13592,"1호선":13593,"놀라운":13594,"우르":13595,"초당":13596,"##궈":13597,"지켜보":13598,"##했듯":13599,"##때도":13600,"##anc":13601,"의문을":13602,"막혀":13603,"끝났다.":13604,"공산주의":13605,"오이":13606,"드물게":13607,"오면":13608,"우회":13609,"무덤":13610,"##했음에도":13611,"보편":13612,"제목은":13613,"미나미":13614,"돼지":13615,"썬더":13616,"미묘":13617,"국도":13618,"예산":13619,"싶다.":13620,"페스티벌":13621,"손해":13622,"활동하는":13623,"하려":13624,"##ero":13625,"GO":13626,"프랜":13627,"##ᆫ을":13628,"부천":13629,"동급":13630,"2003":13631,"싸우게":13632,"원주민":13633,"개봉한":13634,"영양":13635,"결혼을":13636,"##병에":13637,"115":13638,"##IR":13639,"인식이":13640,"##힘":13641,"설치된":13642,"쓰러트":13643,"##이었으며,":13644,"##urn":13645,"인가":13646,"흰색":13647,"단위로":13648,"##당으로":13649,"삼진":13650,"미국과":13651,"세팅":13652,"가량":13653,"나이는":13654,"생각은":13655,"대가로":13656,"초상":13657,"세계대전":13658,"1,000":13659,"##하르":13660,"아비":13661,"극도로":13662,"빌런":13663,"와이번":13664,"해머":13665,"도덕":13666,"##일지도":13667,"##젼":13668,"##한데":13669,"##-01":13670,"하급":13671,"서울대학교":13672,"탕":13673,"##차게":13674,"실패했다.":13675,"시뮬":13676,"명칭이":13677,"##니코":13678,"태클":13679,"##피해":13680,"듣게":13681,"올라갈":13682,"지낸":13683,"##타리":13684,"2010년대":13685,"올라왔다.":13686,"공간을":13687,"360":13688,"프로게이머":13689,"->":13690,"뮌헨":13691,"드러난다.":13692,"반짝":13693,"##int":13694,"손쉽게":13695,"소문":13696,"##교사":13697,"죽으면":13698,"돌아왔다.":13699,"그렇다.":13700,"##very":13701,"쓰던":13702,"에어로":13703,"##ence":13704,"##쿼터":13705,"##라에게":13706,"프로듀스":13707,"노선은":13708,"잊지":13709,"시즌이":13710,"##도도":13711,"닦":13712,"받기도":13713,"##히면":13714,"##초,":13715,"분노를":13716,"김유":13717,"쯤":13718,"##다\"며":13719,"체인지":13720,"이때는":13721,"주행":13722,"##루미":13723,"시모":13724,"##보우":13725,"멤버가":13726,"사라지고":13727,"노스":13728,"문제의":13729,"Windows":13730,"토리":13731,"분할":13732,"##우며":13733,"오렌":13734,"할인":13735,"진행되었다.":13736,"멤버로":13737,"순환":13738,"덱에서":13739,"한계가":13740,"죽었다.":13741,"산하":13742,"고블린":13743,"##파워":13744,"##ᆺ테":13745,"1.3":13746,"##/6":13747,"걸그룹":13748,"껍":13749,"##'이라":13750,"##미르":13751,"히틀러":13752,"것입니다.":13753,"꼬리":13754,"##중국":13755,"깨끄":13756,"담배":13757,"##케이션":13758,"벌어지는":13759,"조치":13760,"상무":13761,"멤버들의":13762,"##하르트":13763,"마오":13764,"살던":13765,"##폰을":13766,"묻는":13767,"블리자":13768,"1패":13769,"위상":13770,"법무":13771,"##음의":13772,"돌고":13773,"모순":13774,"내부의":13775,"##초가":13776,"100만":13777,"유학":13778,"룩":13779,"약점이":13780,"##내지":13781,"리틀":13782,"2위를":13783,"더해":13784,"##퍼를":13785,"한번도":13786,"숫자가":13787,"특이하게도":13788,"2사":13789,"엄연히":13790,"올바":13791,"##있지":13792,"프로레":13793,"여부":13794,"JTBC":13795,"##웰":13796,"큐브":13797,"93":13798,"##카라":13799,"대다수":13800,"'가":13801,"##재는":13802,"##네마":13803,"1st":13804,"##ise":13805,"합리":13806,"가능하며":13807,"쳐들어":13808,"스포일러":13809,"엔드":13810,"진행된다.":13811,"밀어내":13812,"##.28":13813,"##하였다고":13814,"##줄을":13815,"##뱅크":13816,"기사단":13817,"Station":13818,"##거라고":13819,"온다.":13820,"##왔던":13821,"일으키는":13822,"발음이":13823,"진에":13824,"기묘한":13825,"이가":13826,"던진":13827,"인지도가":13828,"##자로서":13829,"점에":13830,"##파,":13831,"피로":13832,"유럽의":13833,"당초":13834,"찔러":13835,"연산":13836,"도깨":13837,"잠실":13838,"물어보":13839,"상식":13840,"##병,":13841,"##-KR":13842,"김포":13843,"이탈리아의":13844,"밑에서":13845,"##쉬를":13846,"##스.":13847,"방식의":13848,"부모님":13849,"경기에서는":13850,"이틀":13851,"출혈":13852,"2nd":13853,"승부를":13854,"##자들과":13855,"오가":13856,"##달라":13857,"##속에서":13858,"##뻔":13859,"##m,":13860,"##카페":13861,"특급":13862,"라스":13863,"##브레이":13864,"DS":13865,"##병과":13866,"영향이":13867,"{{{#":13868,"보구":13869,"신부":13870,"##OO":13871,"##포인":13872,"반도":13873,"프리즈":13874,"##투수":13875,"##족은":13876,"마드리드":13877,"BE":13878,"##ock":13879,"답답":13880,"##였기에":13881,"불쌍":13882,"비서":13883,"##.26":13884,"##-05":13885,"레이블":13886,"평행":13887,"전,":13888,"##노스케":13889,"##생으로":13890,"데려가":13891,"것이고":13892,"시사":13893,"비롯해":13894,"보상으로":13895,"NBA":13896,"유니크":13897,"박성":13898,"사우스":13899,"내부에":13900,"마을에":13901,"'나":13902,"노래가":13903,"되려":13904,"좌측":13905,"국무":13906,"##십시오.":13907,"주거":13908,"절친":13909,"'자":13910,"##wiki":13911,"역이다.":13912,"앓":13913,"지속적인":13914,"잡으면":13915,"방어력을":13916,"##~!":13917,"미키":13918,"토트":13919,"대부분을":13920,"끔살":13921,"토니":13922,"진행되는":13923,"이대로":13924,"많은데":13925,"찍고":13926,"##까봐":13927,"적으로":13928,"말과":13929,"편하게":13930,"##ep":13931,"징역":13932,"비난을":13933,"기부":13934,"셔틀":13935,"##들에게도":13936,"무난하게":13937,"##장이다.":13938,"DP":13939,"##MC":13940,"때에도":13941,"##플로":13942,"인권":13943,"양이":13944,"잠수함":13945,"##ᆷ임":13946,"확정되었다.":13947,"뜨거운":13948,"##우면":13949,"김승":13950,"클러":13951,"Oh":13952,"##젤리":13953,"##바야시":13954,"##기보다는":13955,"##훼":13956,"그거":13957,"어그로를":13958,"디시":13959,"##시키지":13960,"##락이":13961,"그레이트":13962,"##\"이":13963,"중거리":13964,"고의":13965,"Ph":13966,"##ii":13967,"##장비":13968,"##신에":13969,"랜드":13970,"2승":13971,"아이들을":13972,"##아나":13973,"##쵸":13974,"총리":13975,"아니라서":13976,"항공모":13977,"##700":13978,"##맨을":13979,"OVA":13980,"##었다면":13981,"목적은":13982,"##?!":13983,"##대체":13984,"국가가":13985,"전적":13986,"2집":13987,"정교":13988,"차원에서":13989,"##년이":13990,"##변을":13991,"##계와":13992,"BPM":13993,"이현":13994,"거라는":13995,"군의":13996,"Sw":13997,"일요일":13998,"내에서는":13999,"##환은":14000,"##강화":14001,"##열의":14002,"이어진다.":14003,"다가가":14004,"IT":14005,"##42":14006,"뉴질":14007,"옵션이":14008,"1등":14009,"##노미야":14010,"##스트는":14011,"CP":14012,"시점에서는":14013,"##지만.":14014,"원작에서는":14015,"##량과":14016,"시작해":14017,"연간":14018,"##더는":14019,"필요로":14020,"##amp;":14021,"연결되어":14022,"##타에":14023,"치즈":14024,"국적":14025,"##+0":14026,"스스로를":14027,"최상위":14028,"진급":14029,"##박물":14030,"이해가":14031,"굴러":14032,"##성에서":14033,"에피소드에서":14034,"##있다는":14035,"하단":14036,"되게":14037,"바나":14038,"미션을":14039,"3~4":14040,"##되지는":14041,"발탁":14042,"##작전":14043,"마친":14044,"누구나":14045,"선보였다.":14046,"음모":14047,"야마토":14048,"모스크바":14049,"롤드":14050,"##.A":14051,"드러났다.":14052,"슈퍼로봇대전":14053,"##78":14054,"##0년대에":14055,"사사":14056,"##ens":14057,"과거를":14058,"업무를":14059,"부패":14060,"소련의":14061,"섀도우":14062,"##ᆨ의":14063,"오죽":14064,"자료를":14065,"여전":14066,"보내고":14067,"조건으로":14068,"##쭉":14069,"##으라고":14070,"종결":14071,"영웅이":14072,"##추가":14073,"셈이":14074,"자원을":14075,"from":14076,"사용해서":14077,"인테":14078,"중력":14079,"황제가":14080,"존중":14081,"KOF":14082,"곳곳에":14083,"그해":14084,"##건은":14085,"손님":14086,"적군":14087,"조차":14088,"비율":14089,"되었으며":14090,"##베트":14091,"108":14092,"표면":14093,"전통적인":14094,"질문을":14095,"세라":14096,"데빌":14097,"일커":14098,"아르헨티나":14099,"##고와":14100,"평상":14101,"두드러":14102,"정상적으로":14103,"비비":14104,"작품으로":14105,"찾고":14106,"납득":14107,"##량에":14108,"##SS":14109,"##시기":14110,"열매":14111,"거인":14112,"극단적인":14113,"패배한":14114,"##ign":14115,"서포트":14116,"루이스":14117,"128":14118,"##시간을":14119,"##\"으로":14120,"멍청":14121,"잊혀":14122,"실내":14123,"즐길":14124,"인공지능":14125,"묻혀":14126,"굉장한":14127,"##는데도":14128,"Do":14129,"love":14130,"##쑤":14131,"안경":14132,"뽑을":14133,"스쿼":14134,"##활동을":14135,"야수":14136,"지나가는":14137,"##영과":14138,"잃어버":14139,"방식은":14140,"##스파":14141,"##.1%":14142,"학생들은":14143,"무엇이":14144,"모습과":14145,"멋대로":14146,"##ㅋㅋ":14147,"방어구":14148,"역습":14149,"##조각":14150,"조합을":14151,"모습이다.":14152,"대통령은":14153,"구축함":14154,"곡으로":14155,"가치를":14156,"##-JP":14157,"바ᄈ":14158,"원조":14159,"##질적인":14160,"본토":14161,"##장도":14162,"병력이":14163,"##이후":14164,"A.":14165,"이름도":14166,"생체":14167,"하우스":14168,"이럴":14169,"고소":14170,"##공은":14171,"김수":14172,"그러면서":14173,"팔레":14174,"슬라":14175,"토너먼트":14176,"가져온":14177,"끔찍한":14178,"##니시":14179,"스트리머":14180,"추측이":14181,"수상한":14182,"테이블":14183,"1973년":14184,"시청률":14185,"토요일":14186,"추측된다.":14187,"의지를":14188,"이경":14189,"평점":14190,"벌이는":14191,"잃어버린":14192,"아직까지":14193,"##하,":14194,"##민과":14195,"두개":14196,"명시":14197,"있었기에":14198,"전격":14199,"신발":14200,"아쉬워":14201,"##타인":14202,"김지":14203,"않는다면":14204,"참모":14205,"##ru":14206,"성공적으로":14207,"편하다.":14208,"백업":14209,"고르":14210,"재미있는":14211,"그후":14212,"조사를":14213,"밀리는":14214,"##플라":14215,"##사리":14216,"이케":14217,"놈이":14218,"사항은":14219,"에로":14220,"명칭을":14221,"##이한":14222,"Con":14223,"발발":14224,"죄책":14225,"##근이":14226,"이상하게":14227,"##래의":14228,"목표를":14229,"사다":14230,"조카":14231,"##프란":14232,"주문을":14233,"##차고":14234,"##퍼의":14235,"강도":14236,"원숭":14237,"면모를":14238,"##ose":14239,"하이라이트":14240,"##토스":14241,"바뀌어":14242,"끼워":14243,"##펄":14244,"남지":14245,"스타디움":14246,"나뉘어":14247,"달의":14248,"자칭":14249,"일단은":14250,"피하기":14251,"##해야만":14252,
[...]
