[UNK]
[CLS]
[SEP]
[PAD]
[MASK]
!
"
#
$
%
&
'
(
)
*
+
,
-
.
/
0
1
2
3
4
5
6
7
8
9
:
;
<
=
>
?
@
A
B
C
D
E
F
G
H
I
J
K
L
M
N
O
P
Q
R
S
T
U
V
W
X
Y
Z
[
\
]
^
_
`
a
b
c
d
e
f
g
h
i
j
k
l
m
n
o
p
q
r
s
t
u
v
w
x
y
z
{
|
}
~

ᄀ
ᄁ
ᄂ
ᄃ
ᄄ
ᄅ
ᄆ
ᄇ
ᄈ
ᄉ
ᄊ
ᄋ
ᄌ
ᄍ
ᄎ
ᄏ
ᄐ
ᄑ
ᄒ
ᅡ
ᅢ
ᅣ
ᅤ
ᅥ
ᅦ
ᅧ
ᅨ
ᅩ
ᅪ
ᅫ
ᅬ
ᅭ
ᅮ
ᅯ
ᅰ
ᅱ
ᅲ
ᅳ
ᅴ
ᅵ
ᆨ
ᆩ
ᆪ
ᆫ
ᆬ
ᆭ
ᆮ
ᆯ
ᆰ
ᆱ
ᆲ
ᆳ
ᆴ
ᆵ
ᆶ
ᆷ
ᆸ
ᆹ
ᆺ
ᆻ
ᆼ
ᆽ
ᆾ
ᆿ
ᇀ
ᇁ
ᇂ
ㄱ
ㄲ
ㄳ
ㄴ
ㄵ
ㄶ
ㄷ
ㄸ
ㄹ
ㄺ
ㄻ
ㄼ
ㄽ
ㄾ
ㄿ
ㅀ
ㅁ
ㅂ
ㅃ
ㅄ
ㅅ
ㅆ
ㅇ
ㅈ
ㅉ
ㅊ
ㅋ
ㅌ
ㅍ
ㅎ
ㅏ
ㅐ
ㅑ
ㅒ
ㅓ
ㅔ
ㅕ
ㅖ
ㅗ
ㅘ
ㅙ
ㅚ
ㅛ
ㅜ
ㅝ
ㅞ
ㅟ
ㅠ
ㅡ
ㅢ
ㅣ
##ᅭ
##ᄌ
##ᅡ
##ᅮ
##ᆼ
##.
##ᄀ
##ᅩ
##ᄃ
##ᅳ
##ᄒ
##ᆨ
##R
##I
##Z
##M
##ᄋ
##ᅵ
##ᅲ
##ᅦ
##ᄉ
##ᄇ
##ᆺ
##ᄑ
##ᆫ
##ᄆ
##ᅪ
##ᅧ
##'
##ᅥ
##ᆻ
##ᄂ
##ᅱ
##ᆷ
##ᄏ
##ᅨ
##ᄎ
##-
##1
##6
##A
##ᅢ
##ᆸ
##ᅯ
##ᄅ
##ᆯ
##ᄐ
##V
##E
##X
##5
##0
##/
##ᅴ
##ᄁ
##ᅣ
##C
##U
##j
##x
##t
##g
##k
##d
##s
##h
##T
##4
##i
##r
##o
##,
##ᇂ
##!
##ㅞ
##ㅄ
##9
##ᇁ
##p
##D
##ᇀ
##e
##a
##l
##:
##y
##u
##c
##m
##%
##3
##ᄄ
##"
##(
##)
##;
##~
##ᅬ
##ᆹ
##ᆽ
##+
##2
##8
##ᅫ
##ᅰ
##B
##7
##n
##P
##_
##S
##L
##ᄍ
##ᄊ
##?
##H
##b
##ᆮ
##G
##ᄈ
##w
##&
##W
##=
##N
##@
##f
##F
##K
##[
##]
##J
##ᆰ
##v
##O
##ᆭ
##q
##>
###
##ᆾ
##ᅤ
##ㅣ
##ᆩ
##<
##Y
##ᆶ
##ᆲ
##*
##ᆿ
##z
##{
##^
##}
##ㅙ
##ㄽ
##Q
##`
##ㅡ
##ㅊ
##ᆱ
##ㅋ
##ㅢ
##ㅆ
##ᆬ
##ㅅ
##ㅇ
##ㅈ
##ㅓ
##ㅗ
##|
##\
##ㅏ
##ㅠ
##ㄵ
##ㅒ
##ㅎ
##ᆵ
##ᆴ
##ㄴ
##ㅘ
##$
##ㄲ
##ᆪ
##ㄹ
##ㄱ
##ㅍ
##ㅁ
##ㅚ
##ㄻ
##ㄾ
##ㅔ
##ㄷ
##ㅛ
##ㄼ
##ㄶ
##ㅜ
##ㄿ
##ᆳ
##ㅃ
##ㅝ
##ㅉ
##ㅌ
##ㅕ
##ㅂ
##ㅖ
##ㄺ
##ㅑ
##ㄳ
##ㅐ
##ㅟ
##ㅀ
##ㄸ
##
##이
##ᅳᆫ
##ᅳᆯ
##ᅡᆫ
##다
##는
##에
이
##다.
##로
##ᅡᆼ
##ᅥᆫ
##의
##하
##지
##을
##ᅧᆫ
##서
##가
##고
##어
##도
##리
##ᅮᆫ
##시
##ᅧᆼ
##으
##ᅡᆯ
##를
##기
##은
##라
##스
##한
##해
##저
##ᆻ다.
##ᅩᆼ
##ᅮᆯ
아
시
##인
##ᅧᆨ
##나
##ᅩᆨ
그
##자
가
##게
##으로
##에서
##아
##ᅩᆫ
하
사
##과
저
##ᅳᆼ
##ᅮᆨ
##들
거
지
##면
##만
어
##워
마
##ᅮᆼ
##되
##니
있
수
자
##대
##사
##드
##와
기
##여
대
나
##트
##러
##화
##장
##요
##ᅢᆼ
모
다
##년
보
##ᅦ이
##치
##우
한
서
전
##부
##미
바
##수
##며
##전
##야
##르
##적
##정
##일
##그
것
##상
##마
##ᅧᆯ
##ᅩᆯ
##버
##터
##성
##데
되
##주
##려
##하는
미
20
정
##거
유
일
##국
##ᅢᆨ
##용
##제
##지만
##이다.
해
조
스
상
##히
##신
때
##력
공
##구
##보
부
있다.
비
##타
##키
제
주
##문
##었
경
##원
##래
##동
중
오
인
화
##었다.
##ᅣᆼ
##오
##간
##진
없
##비
위
##월
##명
##격
##ᅯᆫ
##ᆷ을
무
##ᅥᆯ
않
과
등
차
##에게
##위
소
고
여
##던
##하고
##ᅳᆨ
##차
##할
##유
##ᆷ이
##선
##까
##크
##티
##회
##바
##세
##소
##하여
##된
201
노
##했
##계
##체
##당
##무
##레
##00
##작
내
만
##한다.
##카
있는
세
피
도
##학
##처
##내
##공
동
방
구
영
성
후
선
연
더
##고,
발
타
##단
##식
##재
##루
##다는
##후
##조
##운
말
##이라
##다고
##교
##했다.
##즈
신
에
안
장
##프
##분
##실
생
##피
개
의
##디
우
버
##역
##중
##른
19
##행
##개
##모
때문
##..
##물
처
##까지
##에는
##음
최
카
##속
##하게
##토
##능
##군
##져
드
적
아니
와
##들이
##면서
##반
치
불
##호
##린
요
##노
##생
##는데
리
##연
파
##며,
강
##산
진
당
실
##테
문
많
결
##ᅢᆫ
같
##경
원
##류
##더
##관
포
알
관
##본
##안
특
한다.
##에서는
##방
##코
반
##각
##적으로
##ᅳ로
##레이
##록
##번
작
##급
##준
야
들
경우
매
##영
너
때문에
히
##민
된
##건
배
역
따
단
##습
사용
라
추
받
사라
##베
##파
##태
남
##적인
##두
##든
출
##부터
##발
##런
##점
##ᆯ리
현
그러
##형
이후
##포
데
##법
##하기
그리
##종
자신
또
못
국
##승
물
##업
##해서
공격
코
##난
본
##통
##브
##란
예
##판
초
10
통
메
레
계
##ᆨ을
##라는
##스트
##라고
좋
##ᆷ은
두
##온
##머
##양
재
호
##론
감
##대로
달
##술
로
##투
함
입
회
건
##네
분
##ᆷ의
##녀
캐
##다가
애
##입
##들은
##료
##ᆻ으
##되었다.
다른
교
명
##너
머
##하면
##션
패
##표
##직
##지만,
##ᆯ이
김
참
##초
##권
정도
##랑
##들을
##합
외
##ᅳᆷ
##매
##족
평
올
크
편
대한
##량
##금
설
##에도
##지는
##기도
게이
##들의
##ᆷ으로
티
것이
쓰
할
죽
200
##기에
뒤
##혀
등장
플
##기를
##하다.
##ᆯ을
돌
##출
##츠
##푸
##았
##배
##되어
그리고
디
속
##하지
##현
##울
된다.
잘
##이나
##령
##등
확
종
##메
##청
같은
직
가능
##병
##황
아이
##석
##복
##er
변
##천
들어
##언
하나
맞
##것
이르
##편
하는
##리는
##릭
##께
키
##겨
살
게
##련
사실
12
하지만
##외
##향
승
##망
프
학
##커
심
끄
##때
##하였다.
걸
토
있으
운
체
시작
##환
높
##설
##허
##는데,
활
일본
베
##ᆷ에
행
##약
필
번
##거나
##질
목
함께
##강
##쿠
##케
약
##스터
모습
##보다
점
박
채
##절
각
##럼
양
##페
##는다.
언
트
한국
커
사이
간
##리를
위해
##살
##았다.
##목
존
##in
##씨
##송
##였
11
있었
##된다.
##...
##말
##기가
##독
표
날
##있
것을
군
독
이상
##되는
##임
테
만들
##다면
나오
프로
생각
##쳐
##쪽
##즌
사람
##어서
증
또한
열
##결
투
##되었
새
##하며
따라
했
##탄
문제
순
워
##학교
##퍼
##라이
집
##시키
총
가장
##색
##이라고
완
손
끝
##니다.
##이라는
형
##심
태
##였다.
##집
##력을
##째
##막
및
다시
##립
##패
클
음
잡
##예
##에서도
당시
##근
효
##왕
근
##함
##on
##리가
##0년
판
##릭터
되었다.
##지를
##글
왕
##처럼
없는
##긴
##ᇂ게
모두
##항
##력이
캐릭터
##락
##데,
싸
##ᅥᆯ어
상대
용
15
##or
##악
항
막
플레이
##곡
볼
폭
##기는
##8년
##an
##날
능
##별
난
모든
없다.
루
상황
복
##규
별
스키
빠
##ᆯ로
##지고
것으로
것이다.
##스의
##ᆺ이
추가
결국
시간
했다.
네
##쟁
##9년
느
친
현재
광
앞
##달
충
보여
##남
##ᆸ게
##자가
##느
그래
상태
자신의
게임
##7년
합
##이었
##플
##받
것은
##켜
많이
임
미국
삼
##하면서
그러나
##어나
##존
존재
##끼
다음
18
##택
허
블
##접
다만
##리즈
##냥
시즌
##6년
##스를
천
브
큰
##냐
산
첫
##탈
그런
##벨
전투
##스가
넘
##겠
##리아
병
##이는
보면
##없
눈
누
##견
페
준
199
선수
##ar
많은
얼
##성이
세계
매우
##블
##5년
금
##.1
헤
악
##랜
카드
취
##엔
##틀
##턴
##추
##나,
효과
먹
##험
##박
##he
##들에게
듯
얻
줄
지역
##득
##므로
##at
##000
##지가
##ᆺ을
라이
이러
백
##인이
경기
나온
상당
##.0
민
슈
##품
찾
식
##광
있었다.
이유
##ᆯ러
여러
기록
##4년
##널
아니라
바ᄁ
이용
##순
않는
##창
북
##친
16
물론
##감
황
##가는
##림
##으면
##사를
니
처음
쉬
어ᄄ
하고
##변
아닌
##짜
엄
##으며
극
돌아
괴
실제
겨
##백
갈
일반
##인다.
##-1
필요
떠
자체
##가지
온
##들과
이런
##불
##열
##부분
은
업
창
13
시리즈
##ᆫ트
이미
##슬
절
##졌다.
바로
##범
##하자
청
##en
##철
해당
##름
##시아
##애
거의
터
영화
##사가
##착
##주의
역시
##2년
##상을
##칭
되어
##3년
팬
특히
피해
기술
##라도
14
##인지
##ᆯ드
30
레이
모습을
##찬
##도가
##이고
통해
철
##리고
##ou
##괴
탈
주인
##스는
즉
##진다.
기본
##례
관련
뜨
##혼
진행
팀
##찰
##장을
마법
혼
17
나와
엔
골
##기로
##ᆫ다.
##국의
붙
이야
##맨
수도
같이
##어가
마지
떨어
아무
올라
제작
며
곡
둘
귀
##으며,
##릴
##올
##1년
##성을
##했던
위치
##희
##극
유니
권
힘
##육
밝
쿠
##ᆸ을
##증
스킬
##al
환
##몬
##평
대부분
##st
##클
##졌
방송
좋은
##거리
몰
부분
##해야
좀
##징
되었
사건
##로는
스타
##주는
어려
##에선
일부
범
계속
마지막
##슨
잠
탄
##축
증가
비스
##아서
찌
##ᆨ스
##리에
##응
##ᆺ한
##활
##같
##20
##린다.
접
몇
참고
않고
축
인간
##귀
##북
달리
맡
방어
##걸
활동
국가
##리스
검
밀
있어
싶
만들어
##하고,
##전히
되는
보고
##돌
서울
않은
내용
##시에
가지고
있을
주인공
그의
뿐
##럽
이전
꼬
##로,
##르는
능력
##ᆷ버
인해
##큼
##담
##시간
##장이
##쉬
보이
어느
##정을
그냥
까
##링
혀
풀
##책
100
##층
곳
##re
##드는
성공
법
##놓
러
대해
##인의
이를
담
대신
새로
##자를
##랴
##.2
##갈
정도로
낮
수준
##리어
타이
##도록
198
퍼
25
##dd
##으나
암
##자의
##메이
##le
뛰
##이었다.
##트를
##봉
규
그녀
대표
받아
##볼
##총
##굴
격
##수가
##위를
기준
상당히
않는다.
논
써
높은
최대
##it
##ᆻ으나
##이가
##스로
이동
보인다.
##렸
##ᆨ이
##되고
##슈
##렸다.
감독
않았
##누
대한민
##시켜
##드를
##마다
여기
##10
나타
웨
이는
될
제외
홍
##와의
##람
몬
팔
##앙
좋아
중국
결과
것도
##있는
것.
면
글
##하였
너무
인물
그대로
의미
이어
##사의
##도를
덕
의해
흐
스ᄐ
희
##ᆩ에
##ff
등의
##팅
##트로
##들도
##기의
직접
##스테
없이
##려고
전체
동안
##수를
알려
##측
##르게
벌
원래
언급
##길
##일에
##ᆸ이
##도로
그는
##딩
##지도
꾸
##ing
##정이
짜
스토
##이트
울
##리의
##ic
발매
케
##먹
##전을
갖
##곤
##폭
싸우
이름
-2
##자는
##닝
##드의
애니
보내
관계
육
하다.
##치는
##.5
##늘
##율
##대의
포함
소속
##번째
있던
##벌
경우가
전쟁
자신이
##웨
레벨
데미
##ᆻ으며,
향
지원
##다!
##로서
질
##욱
뉴
이것
과거
##대를
가까
2018년
슬
멤버
푸
##하지만
##확
나오는
길
이에
선택
문서
묘
##될
던
##ᆻ을
##습니다.
##렌
##자.
위한
##인데
유저
##이며
##억
쓸
##스타
##웅
넣
늘
##략
연구
사람이
##중에
##ᅦ이지
망
##하던
최고
##나가
많다.
느끼
그렇
출연
##씩
자기
##점을
##손
##등학교
개발
##캐
설명
##점이
성우
##돼
샤
봐
방법
21
50
평가
##화를
##나는
휴
##없이
엄청
몬스터
##써
크게
발생
##컬
깨
##ᆻ던
있으며,
아버
##이자
##드가
사망
##풍
리그
영향
12월
바뀌
먼
컨
##am
불가
유명
시절
##채
찾아
홈
2019년
##줄
협
7월
칼
##인을
##치를
왜
##치가
##잡
만든
2017년
##되지
##먼
##과는
이루
혹
##상이
밝혀
8월
4월
프랑
##어로
##찌
장면
##훈
3월
압
빼
##팀
책
##,000
또는
9월
급
##하기도
10월
5월
##원이
##그래
실제로
들어가
##어난
꽤
드라
##샤
있다는
##리지
우승
6월
##벽
도시
배우
##센
초반
쪽
봉
이때
##명이
##효
##새
주로
말을
##es
##률
22
##랙
##밀
공식
##la
출신
##머니
운영
2016년
##줘
##ᆻ다고
돈
중요
갑
24
##전에서
##일,
##전에
##과의
인터
##이며,
바라
농
그것
##덕
##준다.
1월
##이어
##ᅦ이스
##식을
##하며,
전부
만나
무기
사랑
##으로,
측
##운드
제대로
아이테
##트가
최초
##el
##벤트
the
자주
보여주
##명을
하지
##리그
놀
없었
##객
소환
##충
##음을
정보
##으로는
최종
##om
##켓
역할
아직
##ᅦ일
##ᆯ레
##에서의
노래
서로
놓
11월
어떠
##휘
공격력
학생
##스와
##퇴
##획
친구
##있다.
학교
듣
여성
사회
독일
않아
아래
공개
비해
가진
##자로
참고로
적이
##했을
기존
23
##리카
파괴
##is
강력
##명의
있어서
나온다.
##적이
궁
##옥
##개의
비교
##격을
##-0
등을
##였던
##니아
마찬
이벤트
어떤
결정
##지의
형태
송
##50
##사는
침
##ᆼ크
##인은
변경
마찬가지
지나
##뜨
정말
프리
강화
##했고,
##와는
유지
끌
##드로
##듯
빨
197
마이
해도
쇼
##필
##나라
당연
발견
스페
보통
##대에
##ᆻ으며
뽀
##하려
휘
##니까
2015년
##룡
##ᅯᆯ
##ᆺ에
##히려
##스러
##군의
탑
때문이다.
##수의
살아
설정
##르면
폐
구성
##서는
2월
조금
##골
##동안
그런데
##픽
이러한
##숙
착
오히려
##오는
##침
정신
아니다.
##지어
후반
잔
##킹
월드
##et
##대가
##하거나
##요.
뜻
등이
##프트
회복
##물을
조선
지금
##회의
새로운
않았다.
##어도
슈퍼
찍
주장
##ol
있으며
##자인
##ion
##랜드
##원을
##어를
알고
있다고
나가
##nd
유일
행동
게다가
##분에
앨
돼
##는지
이번
드래
##폰
##하다
40
##디오
자유
##했다고
##나마
영상
##염
##-2
있는데,
여자
##이를
모양
정부
같다.
사실상
##지로
멀
데이
그래서
노선
##텐
##ᅩᆯ로
##튼
특수
##경기
유닛
아예
하면
##30
부족
일단
##11
승리
##도의
대한민국
차지
좌
이렇게
드러
모데
이제
##같은
##화가
##균
작품
##갑
정치
동시에
흔
##ᆯ라
주변
성능
##화에서
##이기
##ᅩᆾ
##셔
윤
비슷한
##협
먼저
##통령
##스,
##스티
심지어
##헤
완전히
버전
확인
영국
생산
##라면
##ᅢᆼ크
##ow
일이
##검
##특
가능하다.
없어
##ᆼ글
##뢰
콘
씨
##상으로
그렇게
적용
방식
수록
##뷔
내려
흑
발동
26
시스테
##ig
##밖에
힘들
##다며
바이
##ᆷ.
##il
녹
메이
그래도
##스크
##멸
음악
##다"
28
##ed
획
가지
난이
##빠
잃
2014년
##리오
##도는
##메이션
움
##빈
##구를
도우
##ᆷ피
좋다.
27
영웅
보스
다이
이야기
혹은
전에
대회
##죄
##보면
실패
있는데
참여
##데이
##하는데
성격
##쓰
##르고
##ac
##간에
한번
기사
어떻게
어디
있게
있지만
대통령
##만큼
31
##원의
##념
전혀
차량
자세
작푸
다양
센
##컵
응
꺼
못한
데뷔
대학
196
스트
패배
##얼
감소
##as
##궁
우리
색
국내
##지에
##대한
딸
##아내
원작
동일
사진
마을
##ve
위해서
빛
##트의
1,
장비
있고
##BS
##더라도
##렉
지속
석
##!!
엘
표현
하이
얼굴
출시
굉
때는
불가능
에피
얼마
이루어
획득
##아가
##이지만
발표
of
##했고
##밍
번째
가져
오브
##혁
##.3
마음
설치
##자,
##압
##른다.
반응
뽑
체력
##ᆸ다.
##간다.
##인데,
다니
##씬
##탕
플레이어
풍
애니메이션
##으나,
##칸
##봐
긴
##완
##장의
##대학교
힘을
굉장
하루
##보다는
역사
##ᆻ고,
##뷰
##체를
##알
##님
액
기능
##맹
졸
인정
드라마
특성
축구
##힌
자동
견
프로그래
움직
##ᆻ다는
##룹
등장하는
뭐
따라서
정확
오래
##ᆭ은
##다'
##제가
제1
숨
##뉴
바다
명칭
해서
이름을
##참
진출
##0년대
담당
판매
훈
##취
##콘
대체
##버스
##해도
##끔
문제가
##약을
있고,
##싸
##큐
##우스
사용하는
몸
그나마
##상의
쓰는
특징
드래곤
남자
##수는
자신을
받은
남아
퇴
##지,
월
##웃
상승
요구
아마
##문을
경우도
참가
따르면
쓴
빈
덕분에
##ᆨ시
수비
##혹
##ot
##었던
일어나
경찰
중앙
있기
작중
##삼
##탁
##액
##장에서
선발
##조차
조건
개인
하였다.
##어버
202
공격을
맥
나이
##제를
고려
다르
하여
##라가
##라의
##사로
불러
##권을
##부의
받고
상위
##수로
러시아
##했다는
폴
##했지만
##척
##끄
컴
2017
물리
가능한
파이
크로
2013년
##한다는
##ad
##군이
선거
##못
29
##전이
##장은
만큼
땅
각각
##다니
에피소
후보
Lv
어머니
건물
더욱
아주
핵
듯.
2차
##.4
우주
##이드
득
##최
말이
헌
강력한
##ᆻ으나,
믿
자체가
주요
항목
순간
구조
대해서
##한테
##ᆷ피언
##계를
##장으로
뮤
제공
##혜
##답
주의
##지지
현대
끝나
##넷
##적을
비판
##촌
##가가
맨
##문에
##톤
사람들이
펼
##스키
##춰
##카이
결혼
상대로
끼
가족
##ᆫ의
##이기도
딱
시간이
-1
##튜
확실
빌
##장에
##부에
후에
굉장히
##ᆸ니다.
##혈
아르
어린
가격
편이다.
비슷
케이
##되면서
##이었던
##부를
불구
챔피언
##위원
2012년
##id
단순
##춘
194
쳐
활약
과정
##십
##ch
##선을
##치고
##대는
사용할
낙
피해를
습
##mm
2000
마찬가지로
##량이
프랑스
일으
참조
여기서
준비
시점
나머
The
무시
폭발
초기
지구
##체가
세이
##흐
숙
있었던
##트는
진짜
##면,
쏘
##뮤
##엘
##들에
생겨
대미
여다
##낸
##ᅢᆫ드
##타를
가능성이
##치로
묻
제한
활용
작은
##레이드
되고
쉽게
약간
##까지는
##음이
않다.
속성
옆
훨
제2
엄청난
##리,
##ay
가는
유럽
방영
여전히
대전
##정한
벌어
##내는
##ᆻ지만
수가
for
##리로
탐
히로
##.6
받는
비로
영향을
##시키는
섬
##리와
가면
##업을
한편
St
스피
시청
제국
##임을
국제
##시즌
혼자
##ER
동료
지하
60
마스터
부산
발사
논란
다음과
##.7
##욕
사고
훨씬
##뿐
##ᆻ고
1일
클리어
술
그가
##곳
##력은
##칠
##ᆫ이
래
패턴
##익
##식이
기간
못하고
괘
##."
분위
현실
##us
당연히
##인물
쓰러
퀘
인구
흡
나무
콜
##려서
방향
##심을
보호
##닉
웃
이해
강한
연결
##위로
주는
그를
특별
2010년
##개를
이탈
##제로
하며
##둥
듀
츠
기준으로
맵
다양한
##행을
##만이
읽
역할을
##하다는
FC
##키는
##으니
##히는
##움
##정도
싫
##릿
해결
나타나
##40
브라
최근
##나이
##사와
적을
얘
조합
##만한
죄
##없는
똑
##ro
한정
##해주
확류
##기,
짧
##헌
##놓고
국민
##감을
파워
지니
##듀
취급
삼성
지방
중요한
지그
##.8
블랙
괜
영어
곧
##흥
195
도망
크리스
##수록
##프를
류
##케이
##레벨
##암
받았다.
##합니다.
##짝
의견
2011년
본인
굴
추정
즐
교육
##만에
소모
##위에
##로부터
스토리
##킨
보는
##좌
##위가
##시의
##자기
않을
##라운드
자연
쿨
TV
흥
처리
##학년
##ir
##다,
##라인
엘리
##BC
운동
문제는
에이
때문.
어두
##꾸
문화
경제
##폐
출전
기타
##쇼
##도,
것에
익
없었다.
##가를
버스
##가의
##쩌
##사에
##!"
##랄
전용
중시
##꺼
충분
##자와
##인트
벗
##신이
##라서
라인
정도.
##지션
##붙
운행
##틴
##크로
##학생
불구하고
##비아
트위
방면
##렬
##둔
##륙
스스로
이유는
오른
##죠
##기와
##난다.
무려
끊
##단의
2018
##만을
##대학
##소를
대부분의
아버지
##회를
##으면서
보이는
##로를
##신을
##성은
##ht
장착
낮은
##성의
##듯이
##세기
나서
##한다고
##12
전문
언제
아들
##명은
넘어
##벤
독립
아군
튀
타입
등장한다.
이름이
벽
에너
연속
이유로
##죽
들고
##자들이
##원으로
중에
염
##팔
내가
##th
퀘스트
##이지
알아
수상
찬
이ᄁ
##쇄
##un
나ᄂ
##싱
미션
##im
##'라는
##보니
##ᆨ트
##져서
베이
넓
##하다고
구간
종료
##ᆰ은
모드
##원은
싱글
##리기
HP
떠나
나는
나ᄈ
이상의
달성
편.
절대
굳
##엄
입장
경우는
##우는
말한다.
##ur
##ᆯ립
더불
부르
예정
##하다가
##이의
일본의
##.9
##터를
##km
되면
되지
번역
아프
##od
타고
##초에
##력으로
##당한
솔
제목
##지게
##전의
조직
항공
##스에
##t;
관리
##세대
포켓
##dddd
##르크
반대
메인
졸업
##네이
네이
##라를
종류
엔딩
받았
##유의
생존
근접
자리
##마의
##사,
##기고
##묘
야구
##이고,
##로가
칭
칸
##에게는
목소
배경
##말로
시도
무어
일을
나머지
민주
현재는
##15
##32
대한민국의
만약
##시를
더불어
목표
최소
##ᆨ제
##봇
##부가
##ut
##함을
##왔다.
위에
검은
##세이
엔진
업데이
지휘
여담으로
##상에
##했으며,
##관이
했지만
##점으로
##따
SK
하기
##빙
##ST
밖에
대사
플래
##비가
##공격
##맞
하면서
일정
에피소드
##티브
##신의
##조건
공연
##쿄
배틀
제외한
만화
속도
##운데
##ver
신경
##세를
##ag
##ᆻ는데
항상
##마저
##려는
앨범
##시가
##야마
성장
##19
모델
두고
##단을
##종의
##ec
##ᆨ터
유리
틀
수정
##거나,
잘못
##시마
얻을
2019
##라며
분노
능력을
##짓
소재
##윤
##ᆻ다
##카와
유명한
부활
위험
이끌
계획
##으로서
정식
뒷
직업
##60
랜
정도의
##군은
생긴
##홍
##시로
전국
사람은
아이템
##물이
돌아가
##37
##?"
비행
##맥
##어들
북한
##선이
오늘
##칙
##ᆷ보
##콜
미국의
전작
##지기
##ent
아키
##같이
스파
##여서
##나의
##계의
포켓몬
##나게
기억
좋지
##븐
##었다고
##호를
뚜
##의를
사실을
##되기
해야
2016
인터뷰
나왔다.
페이
##냐고
이탈리아
##주를
대상
##했으나
##비를
##일을
자랑
가끔
you
미사
35
그림
높다.
##스토
##ᅪᆯ
부여
것과
뿌
각종
다르게
##선의
잡아
##버린
##서를
제이
##어야
등으로
하지만,
미래
##ᆫ드
크리
과학
빠른
##낙
상황에서
##방송
위치한
##무를
괜차
이외
지켜
수는
바람에
만드는
##비스
냉
##빌
전반
거기
##ᆺ은
##칼
##ak
흘
##하지만,
결승
##음에도
##ᆼ이
연출
옥
##디어
누구
##호가
적은
갤러
특정
쌓
작곡
##시는
##해진
참조.
##수한
모습이
32
2009년
##시킨
헬
있지만,
##픈
##림픽
##프로
때,
##다운
스태
기관
재미
정작
달라
클래
왼
훈련
##cm
있다
묘사
쌍
80
시전
##으로도
1회
로마
193
아카
아쉬
라고
##게임
##타로
빅
스위
소녀
##단이
##동을
않게
##모토
깊
평균
##버리
분류
##....
##ᆷ과
못하는
전차
##외로
##장,
행정
따로
##심이
##부터는
건설
자세한
##고를
1년
##지와
##()
하게
근처
예상
##하라
때문에,
있다면
70
달려
##퓨
제일
##어의
2008년
기반
시작했다.
##이라면
별로
##팩
아이돌
타카
상황이
경험
##80
##고는
연기
갑자기
##대표
##구가
보유
##로운
포지션
##쪽으로
##더니
소개
필요한
경우에는
명령
맹
지도
##풀
1차
설립
뒤에
답
to
없을
예를
것이라고
이름은
안에
꽃
하늘
옵
##일이
옮
##스러운
종족
깔
지난
##ᆫ스
##mu
##룬
옛
##ᆷ프
소설
1위
##몽
##가와
불리
그룹
효과를
일행
##율이
##제의
게임을
##탑
확정
벨
최고의
인천
띄
##겠다고
교체
스포
안정
##군을
발전
집중
수행
##즈의
공중
멸
처음으로
##ub
나중에
지정
##바이
압도
롤
##덤
납
##소가
홀
##롭
##었고,
사냥
##ffff
##부로
지지
연합
덱
##계가
경쟁
##인으로
없고
본인이
##ᅪᆯ영
사이에
링크
파티
부모
걸리
##논
##'의
표기
##도에
가까운
등장인물
혈
in
##란드
##부는
못했다.
즉,
기어
특이
잠시
##폴
##'를
##고등학교
생명
배치
본래
계약
계열
애초에
각성
일러
겪
이게
##원에
식으로
소련
외국
##',
##스코
없다는
경우,
탈출
##껴
##야말로
나올
이용해
스테이지
어째
전설
머리
존재한다.
##미가
보니
##지면
죽은
##하나
사례
갖고
2000년
기다
징
없다고
##mula
코미
최강
빠르게
스테
차이가
물건
##퀴
##치기
치명
이적
##mula_
트리
##셜
위의
##-3
##았던
도입
제거
##이란
##역을
##테이
빠져
##어내
스코
##ight
이야기를
##량을
지내
블루
바꾸
밑
##상은
##마가
모르
##됐다.
##세가
고양
##솔
##꾼
##em
##빛
중에서
기대
##겠지만
##잔
사용자가
##만의
군사
다크
부정
나라
목록
##되었고,
지배
등장한
많아
무슨
대기
앤
라는
##드시
##'을
여기에
기본적으로
기동
그녀의
유사
있으면
지키
카운
##스케
도쿄
좋아하는
##ᆱ은
##간의
월드컵
formula_
완전
##사이
이후로
##화의
롯
접근
말에
아니면
##ON
가운데
vs
관한
2007년
나름
##트라
##꽃
##치의
##보는
이쪽
밀리
가스
저지
복귀
##입니다.
##ce
##하였고,
뭔
카이
##:0
과정에서
남성
##16
직후
짓
##언을
##ᆯ링
등급
보아
##ᆯ의
##ᆷ,
##문이
##벼
올라가
대구
차이
도착
##AR
태어나
유일한
턴
##마자
2,
남은
촬영
##,#
##25
##크를
음반
##학과
뇌
##체의
가르
##냐는
##했으며
밖
##진이
동생
있으니
##'라고
포기
타격
변신
사람을
연습
##os
##ri
살해
##:00
##ᆭ아
500
정규
##um
##로의
겸
##몇
맞추
45
##차가
##ap
쫓
##덴
공동
알게
##버렸다.
역대
##터가
##많은
##주고
경기에서
##아의
반면
사용한다.
##AN
알려져
완성
꼭
라이브
했던
치료
##드리
끝에
##'s
##레스
하는데
##지.
분명
회피
##ᆸ은
##ᆻ다가
중간
##우가
듣고
##48
상태에서
업그
##광역
상당한
인도
추천
##주가
미니
범위
192
유튜
해외
때마다
심각
이로
동물
타이틀
통합
조종
반드시
##관을
##화국
이하
환경
받을
##몰
##점은
준다.
##"라고
일러스트
고정
점이
올려
LG
##18
##and
싫어
저항
이건
하자
##력과
##콩
기업
##했는데
##럭
##타가
다루
##한다
효과가
비용
소리
웹
뛰어난
##자들은
주민
욕
2개
완벽
올림픽
합류
##진을
##어는
몽
##들로
지상
추측
공간
경기를
##했는데,
데미지
투수
##지면서
몇몇
마무
한다는
높아
90
##지라
##민주
앞에
오버
상관
점을
##아이
후,
정상
##문의
유일하게
##감이
##플레이
회사
##파트
끝내
가서
자리를
자체는
종종
정의
개최
##체는
규모
판단
##가,
늦
반대로
품
##형을
가수
넘어가
##크래
요시
##술을
곤
런
구매
열린
##어진
연재
우선
도와
삭제
리더
##분이
##화된
##으므로
점점
##스카
##받은
시간을
팀의
롯데
##뤄
수많은
1개
-3
탈락
##버린다.
##구의
충격
##주로
##두고
##인,
날아
무장
전통
다소
킹
##펜
카메
종교
밤
이름으로
조사
##시킬
도중
##금을
생활
##정에
보기
##탄을
##세계
##ᆻ는데,
록
2006년
##석이
소유
##앗
##꼬
##이면
##일러
봐도
벤
널
##깨
##지에서
##용으로
생성
프로제
시대
기계
##프가
스티
없어서
##에만
##나와
길이
개봉
##로우
##르트
딜
##찍
난이도
##컨
밴
퀴
장소
쓰고
##섯
##것도
No
EX
##FA
##멘
##었고
힘이
##회가
##일부터
##들어
생각해
카드를
##단계
시리즈의
전기
##하는데,
Ch
보여준다.
아내
공포
##무라
상태로
인한
암살
##인과
디자인
죽음
##되면
##하자.
녀
요청
제외하면
##타이
그린
2년
맞춰
컴퓨
##받는
큐
##차를
걱
거쳐
정리
맺
않으면
의외로
300
##셉
and
순위
##14
아라
게임이
##하도록
##김
##IN
히어로
##돈
##특별
야마
아니고
화면
3개
KBS
##베이
##되며
린
##톨
그야말로
평범
33
대중
변화
##력의
##적은
무조건
세워
사업
전사
억
최초의
##원,
##식으로
##판을
작가
팀이
##함이
워낙
전개
트레이
##이라도
2020년
##원에서
듯하다.
##어,
레드
무엇
##함으로
##적으로는
마사
##르의
어려운
최초로
홈런
외에도
본격
느껴
##호선
것처럼
하고,
사무
##정은
다행
##이다
##질을
단,
##스에서
##TV
##쪽에
이와
##%,
늘어나
도전
빨리
##트리
2015
##op
##ul
##성에
##었을
##/2
##운동
##녕
##홀
상징
##1,
##방을
확장
##속도
보다
아무리
##니티
##시,
부하
##세의
##안을
한글
평소
비중
개그
##한다면
진화
##ck
비롯한
##넣
이걸
경기도
##롱
##ter
투입
최후
##했기
사람들은
굳이
충분히
적의
##에게서
##ᆺ의
##승을
##ation
안전
의하면
오프
데미지를
때까지
##션을
범죄
중반
대응
##섭
##키의
##적이다.
없음
악마
영혼
능력이
##털
작업
##법을
##리게
##휴
##험을
##설이
##팬
##군에
어렵
##키가
십
탓에
##미를
언론
무한
##ra
##정의
##13
붕
##트에서
표시
##17
관련된
등에
##나를
##수도
36
##'로
##온다.
##드에
쉽
##드와
돈을
##드라
##왕의
##조의
##보고
거기에
##보다도
통과
##지역
##동생
마르
##둘
밝혔다.
##성과
2005년
km
##시오
##이닝
대형
##호는
버그
앞서
##2,
##구에
##부에서
붉은
##대전
기존의
하야
##뇌
희생
##트에
조작
컬
대화
##다른
##인가
손을
##ᆯ런
##라우
운용
비밀
성향
성우는
##요일
##덜
생각하면
##하려고
맛
점령
##회에서
특유의
시민
듯한
하며,
떡
##ᆻ으니
##라이더
오리지
보조
##크가
간단
구분
##브로
말하는
숫
거부
패러
##너스
##버리는
##경을
th
##기사
##IC
척
무리
##젠
둔
제3
바꿔
##자에
##도우
대결
중심으로
잭
##'이라는
##트와
기념
얼마나
##미의
##미널
태양
본인의
MA
하드
사기
오랜
정책
쥬
##크의
패치
잊
##자들의
프로듀
극장
명중
##즈가
주고
내에서
##석을
맞는
##ᆯ은
투표
선생
##제는
잇
빙
팩
장면이
##깐
##라,
칠
##첩
확률로
뚫
##듬
선정
##려면
반복
불과
멋
사격
##남도
마리
##수,
인식
##페이
다운
년
있지
시기
##품을
3일
마치
##명으로
건담
##했지만,
체력이
섞
##겼다.
사는
##단에
##인들이
MBC
##시킨다.
나오지
고대
은퇴
재료
시나
오르
디지
프로그램
이들은
##레인
부탁
대학교
철도
지금은
##으로부터
되면서
거두
내용은
인터넷
##ᆯ리티
맞아
날려
##70
##스탄
켄
앞에서
##론을
##페이지
힘든
##핑
흉
2004년
혁
선언
##힐
신체
##시대
영입
##션이
적에게
##쳤다.
유튜브
서술
##치게
데려
디자
진입
38
소년
후속
올리
서버
숲
몸을
34
2회
##되었으며,
대표적인
개조
##해를
하는데,
##때문에
시스템
털
붙어
##실을
##광역시
##전은
##다시
목수
100%
콤보
##드,
##사카
뻔
적극
입고
SP
##90
##설을
##형이
앙
##소년
득점
##정으로
스ᄏ
소비
사태
외모
중심
인기
사쿠
모르는
##만으로
##넘
닌
그저
받는다.
##규모
테이
그걸
##kg
##시티
쥐
##이니
##기관
근데
You
##하니
그려
오오
##장과
방문
앉
##전쟁
클럽
##보를
##쯤
##다이
때도
을
이기
말았다.
하나의
자료
##쥐
##전으로
점프
불안
초대
##마를
포함한
##RA
보상
##art
다만,
설계
##흑
든
국회의
문제를
이후에
2일
노동
스카
도로
##라.
광주
##었다는
적절
##젤
좀비
##ie
##트,
사람의
무너
그럼
장난
주문
191
대해서는
방어력
형성
으
의한
오토
활동을
아는
대단
그때
##방에
촉
무사
##교육
##ia
미드
##르가
##해졌다.
##ᆷ이나
부분이
채널
트로
놀라
분리
단순히
단계
살인
##로도
전환
##텐츠
꽤나
##핀
요소
요리
##회에
##활을
##하려는
##분을
VS
거대한
오리지널
펜
텐
##하였고
##고가
##었지만
##률이
##질이
마침
정당
일반적인
교통
1000
##제에
##복을
다르다.
##이지만,
꾸준
마음을
##위는
##호의
란
##구는
보였다.
앨버
받지
##시브
##이,
셰
##선수
선보
나누
상황을
##되었고
비고
버티
주연
착용
##45
한국의
##'가
##나다
비난
##코의
아프리카
##:2
노력
하나로
U+
##ill
##산을
##역으로
떨어진
##선거
쿼
##ab
##99
##하므로
##였고,
손에
부대
특성상
##릉
37
모습으로
부르는
관통
나이트
대다
인사
마무리
저격
승강
##카가
##스럽게
##아버
##센터
##게이
##패를
빼앗
택
경상
##해진다.
##쇠
되고,
멈
##이상
대비
##틱
##화에
돌려
페르
끌어
도움을
##텔
분야
챙
##읍
훌
##IA
보컬
탑재
솔로
##이므로
여겨
##니다
##방의
더블
유래
왕국
##~2
임명
점은
캠
코스
승리를
캡
아름
##어.
##시켰다.
원거리
앞으로
겹
눈에
이것은
꿈
나쁘
바람
확보
##지아
등록
##ik
낫
엑
연주
##ᆯ리아
##즈를
비교적
먹고
죽을
누군
점에서
지적
완료
조각
고등학교
##러스
했으나
스타일
마나
##로드
차례
브레이
허용
짐
레베
##딜
In
2번
##진의
##소녀
##ᆻ기
##/0
스포츠
보병
뜬
미리
##타는
##연히
금지
2014
정보를
##골을
바탕
AP
자신은
명의
감안
브로
확률
남편
컴퓨터
등장.
인기가
아시아
일어난
서브
##수에
##자에게
##다보니
##과를
한다고
##밥
확실히
연장
##그룹
센터
고속
필살
엠
그리스
일은
##야.
##답게
##시키고
##35
##에서만
10일
PC
만들어진
15일
##신은
실시
##요?
탱
##촉
그레이
##힌다.
##놓은
구축
전략
##고속
거주
150
##금이
##all
##식의
덴
개녀
작성
##가로
##선에
##초등학교
##판이
트랙
75
논란이
##역이
##서,
묶
##타임
##리에서
인류
장갑
딱히
지닌
##ne
먹는
##멀
주목
원정
추가로
그에
죠
##쌍
##바로
세트
상처
##력에
고통
국가대표
포인트
가게
1번
병사
곳에
##"라는
줘
이사
##AT
##악의
##루가
##마트
발언
##성도
포르
측면
가리
기술을
얻어
##당의
상대가
말했다.
##ea
##킬
멘
편집
##문화
##개로
때의
##나무
임무
수밖에
II
그만
일반적으로
##받아
나뉘
##에게도
해석
##ue
##자들
##까지도
이전에
계회
##EN
캐릭터가
짧은
거짓
제외하고
190
2002년
윈
떨어져
사용한
픽
##사에서
걱정
아메
##미는
##:5
멸망
##북도
##리며
"이
수호
##우고
그녀는
##피아
희망
30일
아나
따른
이유가
곳이
필요가
스킬을
##님이
##FF
끝난
##워서
있습니다.
이용한
5일
있도록
##움을
3년
##코가
##랭크
모아
생기
개의
본인은
뿐만
만한
시작한다.
라디오
##PS
불리는
##위의
##붕
##동,
동맹
##빵
##래도
알려진
##권이
##도시
웬
##공을
플라
장기
##롭게
방해
##ll
20일
커뮤
##ct
가벼
로봇
여행
##레이션
어찌
##상에서
를
부른다.
유우
48
##AL
##발을
##겠다는
젊은
잠깐
##닥
초반에
##포를
제압
제조
##동이
##ss
##량의
제시
##셰
유도
삶
##화에서는
2003년
##기.
25일
##디아
메가
카즈
프레
##되었던
에너지
사이에서
겨우
중단
##하여,
넥
##리면
없기
멀티
##상태
##:1
##하의
사령
뮤직
##되며,
##엽
평범한
##서가
녀석
가정
##뒤
기체
위협
##빨
##회는
55
내부
##티어
##크래프트
엄청나게
해군
골드
업데이트
##토가
형태로
삼국
##-4
오리
##헨
생물
##단은
##ate
평가를
##스트로
흡수
##륭
속도가
던전
덜
레어
있으나
원래는
##관은
예전
업그레이드
출생
약속
##카의
파트
필수
##툰
당선
보여줘
육군
##기술
시험
혜
멀리
##조가
##직을
어느정도
##gt;
st
##차로
3,
42
##락을
##대에서
##해지
화염
자신에게
##OR
버프
그들의
##웨이
오후
지역의
산업
##해져
최대한
+1
카오
무서
4일
##도와
공략
##루스
내용을
대공
되기
달러
만다.
안타
##량은
드라이
보급
대놓고
황금
서비스
종합
나카
##dddddd
##하기로
개선
##세트
##,#dddddd
28일
##'이
궁극
##모를
##되기도
7일
궤
없지만
이것이
##사키
무게
##농
뉴욕
##계에
눈을
어ᄍ
이후에는
제안
##델
게임의
물어
직전
봉인
처음에는
실험
팀을
##,000,000
코너
증거
##까지의
##딘
드러나
미나
해금
##리트
50%
이거
엉
중화
##주시
##륜
받아들
##성,
##했다
##.10
##사건
##든지
##'는
맞고
##미야
유용
이야기가
광역
어울
##ove
Re
##물로
끝까지
귀족
테러
MP
##&gt;
##라스
##ᆸ터
게시
중이다.
##권의
이론
길을
이곳
##성으로
##하이
##ᆻ으면
##lt;
자이
도움이
유키
##수와
사상
##ard
오스트
##대,
##oo
잡고
단체
##카드
홈페이지
능력치
시나리오
랭크
##니스
##값
떼
현재의
시내
##ell
수준의
흔히
인기를
밸런
용병
콩
##ᆼ가
드러내
거절
##ang
미친
##받고
컨트로
27일
걸어
##3,
죽이
##ers
1.
집에
##프의
##능력
서포
##라와
아스
##구나
Sh
##비의
소리를
무기를
##식은
##험이
##우의
보여주는
홍콩
SBS
뛰어
##ant
쿄
전술
소울
애매
미야
스페인
뭔가
##이라서
뒤로
##쥬
민족
##기만
##모로
렌
걸로
10%
##ine
##었는데
##토의
##OS
전자
##옹
##서의
또한,
##자들을
해주
왼쪽
때부터
##제이
개편
14일
##랭
습격
##타의
폰
##크는
##PC
보이지
위에서
히트
싶어
##다면,
##마스
##연구
##달라고
본편
##오의
발휘
찰
레이저
[[
카페
##하자면
##융
참고.
##관의
39
없게
속에서
##등을
반란
바뀌었다.
타임
폭탄
재생
##셀
갱
상대적으로
##라리
밀려
자살
##품이
추가된
공통
계산
거대
처치
서울특별
##형의
기록했다.
시작한
말고
##둑
##ᆻ지만,
##어져
##물의
슬로
21일
당장
모자
##대와
##다가,
##였고
부상
겨울
지옥
진영
강제
문제로
타이밍
##키를
##ᆺ으로
사건이
비록
한다
##팡
어렵다.
건너
지명
단독
##중학교
근거
##개월
26일
원하는
##마을
기원
바르
##향이
상대의
##전사
##해보
쉬운
상황에
텔레
##조를
낳
퓨
동일한
##주차
수치
구입
벗어나
레전
##적이고
줄어들
##토를
##ᆷ이다.
2.
맡았다.
못한다.
온라인
하나를
##다고.
깎
##AS
에어
크다.
##학을
##당이
알렉
12일
아무래도
들어서
시설
##심히
8일
중에서도
17일
##쳐서
르
누가
##교통
##면서도
Sp
헤이
출발
스크
##만크
##AM
11일
##모리
##갖
##느냐
##비는
미사일
##ᆺ글
향해
##와서
##/3
꼽
##에,
상태가
반영
숨겨
뛰어나
황제
다름
고유
##ED
꾸준히
##.12
상대를
붕괴
하나가
18일
##ive
##격이
흰
22일
##찾
꼴
그녀를
광고
자기가
##즈는
##렛
##율을
조준
##하였으며,
행복
이미지
16일
만족
13일
밴드
##구로
FI
떨어지는
우려
2013
##사항
표준
시티
프레이
##윈
존재하는
24일
##원과
사항
6일
##파이
액션
##먼트
##기인
떨
탑승
못해
##오가
관광
##철도
##치지
싶은
장르
##VE
실질
##되고,
##하러
사실은
23일
강조
##돌이
루이
##묵
판타
혼란
##점에서
이래
아우
채용
되었고,
##500
핀
캔
머리를
어그
##하게도
방식으로
Th
##있던
데이터
##ᆷ스
라이트
싸워
약한
##사인
##ee
##니가
2001년
스테이
커버
두산
##였지만
##먹는
그것을
뿐이다.
파악
테마
꺼내
##-10
9일
공산
##친다.
##것이
흘러
필드
거리
내용이
쏟
##ᆺ포
##/32
인생
것이라
##ack
사람들
위로
우승을
##선은
##ast
얘기
료
오는
##권에서
19일
만들었다.
주도
##스에게
닥터
있으므로
문서:
바닥
둘러
##과학
##이던
온갖
그게
##자마자
지하철
하위
돌파
##ᆷ에서
##안타
덩
인간의
가로
##주년
SS
아오
탄생
##히고
당시에는
처음부터
이상한
##론이
해제
활약을
훌륭
힘들다.
29일
프로젝트
##만은
모험
##곳에
구단
##화로
##끼리
##오카
120
BG
공격력이
스파이
극장판
##정부
##임에도
수원
삽
##세는
##마리
안습
없고,
두번째
##베르
주어
##시와
이들
패러디
3회
##어주
##모가
살짝
##닌
작전
##밀리
##할때
##자리
이스
##잖아
##차피
##로그
공항
##373
융
나오고
배신
고민
어쩔
##루를
##선에서
데스
사람들을
그렇다고
##왕이
##'에
지급
둘이
아야
1위를
사과
##4,
##스트를
##국이
플레이어가
는
##다지
기여
분석
##기에는
가입
기ᄈ
##가능
않기
##전에서는
##은행
만에
##바람
건축
단일
마지막으로
화살
속에
##ong
보여준
들어오
아니지만
##았을
있었고,
##개가
않지만
클로
확률이
언어
갖추
옮겨
실행
##uby
ST
중간에
통일
##데미
납치
##AC
##점에
뻐
##로서의
##if
후쿠
마련
얻은
덮
##루의
추정된다.
즉시
스프
당황
스킬이
기획
횟
시점에서
뒤집
##오프
나쁜
##화는
말해
47
외에
신뢰
be
에서
디스
일종의
입은
##ort
의심
들어간
이름의
##진은
명예
방패
은근
셈.
일으켜
10년
와중에
##ind
오프닝
##동에
말도
##속성
아사
오른쪽
##거리가
##ith
바탕으로
##버렸
##판에
##3c
수입
##ᆯ린
3번
##파이어
##위원회
##방이
##담을
사실이
##ld
2012
있었지만
한때
한국어
내에
물러
시행
몰아
##ly
##놀
##증을
괜찮
보수
##즈키
패시브
밟
400
##정보
때려
##르기
기절
열심히
##토리
것이라는
것이었다.
##5%
##하긴
받게
하기도
이슬
##EC
##LC
몰라
##ruby
데미지가
버튼
감독의
교환
스튜
동아
입학
불명
내내
성적
대답
##지마
설득
음식
옆에
커뮤니티
아웃
기독
제주
##군과
인지
하던
절반
PS
##역에서
역전
여름
주력
##니어
들어가는
##a3c
##373a3c
만난
가까이
##ist
##터의
않아서
뒤,
##치에
##시리즈
##다"고
서울특별시
##럴
옵션
##지며
##장.
링
##렴
##ruby]
어차피
##선으로
대미지
##단으로
사정
제국의
실력
공유
##지방
등등
##티컬
##하기에
##켄
시키
없애
이승
아티
##ain
##마법
스페셜
피아
20%
제로
46
##룩
아시
조정
경유
##쿨
2위
외교
##니,
댓글
랭
##'으로
계승
44
습득
메이저
집안
수리
##마이
아이템을
오픈
##역,
##ffffff
행동을
##명,
##0000
공주
무력
브라질
##VP
제기
##지컬
공을
초월
눈치
##까?
##기에서
건강
값
##원들이
##인지라
놓고
베르
##우를
발음
##이와
장애
가면라이더
두려
걸려
김성
##바라
##급의
펼쳐
공격이
2루
작품이
##둬
##탐
위하여
부분은
못하게
로드
위키
박살
##~3
시켜
돌격
##소의
##말을
엑스
안드로
##지자
울트라
##족의
##-5
재능
카드가
##ps
##per
경계
##되었으며
형제
가득
했는데
##각을
팀은
##공항
##프는
##권에
롱
##화,
##면을
##했다가
노래를
계속해서
##연합
사이트
정말로
노르
근무
##//
##병을
사거리
##했으나,
정글
##치와
##싼
1999년
##하지는
이뤄
붙여
비롯
캐나다
기독교
##]]
레인
마주
##가에
살고
카르
말한
사이의
##.11
##즘
추진
쇠
위해서는
당시의
##est
선배
곳에서
마츠
내구
##홈
딜러
예술
그다지
격파
맡은
가문
공작
##해지는
갑오
자동차
나의
밥
클리
그녀가
##ᆷ입
제품
붙잡
##낼
북미
사람도
###x
룰
얼음
고급
글로
안되는
##요!
메탈
덕에
##판의
정도는
통한
민간
격투
적도
##였다고
##장인
마녀
증명
책임
남겨
수용
##츄
점수
3차
의미가
##부와
##니의
보인
심각한
그럴
쓰지
##해주는
마법사
정령
쓰러뜨
오로
거래
후에는
의도
베트
효율
##시스
그동안
하다가
##눈
01
##프레
울산
사용하면
##류가
해체
죽는
뒤를
없었던
"그
##납
##구,
일부러
1998년
07
연예
전달
프로토
입단
그것도
크레
이들이
NC
다행히
##긴다.
##HE
##면에
##기간
관심을
홍보
셋
지역에
네이버
데리고
전투에서
##껏
##FC
##33
&lt;
##ry
하수
##악한
정체
생각하는
도달
때문인지
와서
세력
국회의원
##lo
##OL
신인
암흑
모양.
역으로
하나인
네덜
아무도
전체적으로
##디언
복잡
##관으로
##았다고
했을
체포
스트라이
귀여
취소
순식
떠올
옹
##워드
사건을
늑
비하면
걷
##판은
##해,
자리에
##IT
쓰레
##기까지
힐
##사용
느낌이
회전
##64
실제로는
##판에서는
##별로
파견
잉글
화려
서비
관계를
컨셉
##색이
투자
##해졌
아무런
쓰이는
##땅
포인
패치로
얼굴을
감염
무난
##스포
목적으로
했다고
발매된
보여주었다.
'이
##등급
##적의
8강
추가되었다.
작용
낚
돌아와
개통
소프트
선호
##리안
연계
한계
##들이다.
드랍
돌아오
##실이
시야
소멸
##스팅
꺾
못할
##시간이
않고,
주인공이
##마는
지금까지
자원
핵심
여동생
관객
에이스
통해서
##373a3c,#dddddd
선수가
##-12
08
##코는
텍
대륙
##큰
싸우는
균
##었는데,
입수
02
살아남
CD
##거운
부터
##치,
순식간에
깃
##자들에게
##'이라고
##오를
겐
경영
방향으로
이겨
부족한
이들의
신의
채로
때에는
많았다.
수요
맞이
출판
한화
로켓
넘겨
얻는
첫번째
어려워
43
##인.
노트
열차
자치
##담이
##유키
넓은
족
노출
쓰인다.
난이도가
on
카운터
고전
##관에
##호,
##티아
##달리
대규모
방송을
##컷
##류를
가이
대장
있긴
##로로
닿
##가락
##인에게
or
1997년
그만큼
함정
교황
당한
##하시
강원
방법을
폐지
##PU
리버
충청
빨간
##보단
정확히
##우리
##중한
셔
문을
나루
윌리
의사
최악의
수학
흔들
##대회
기회를
me
##BO
몰래
요새
다녀
모티브
체육
듀얼
출현
돌진
##임이
파이널
해방
##깔
캐릭터의
인근
넘는
걸쳐
의식
##당을
공화국
몸이
##형은
3.
##100
##해가
스킨
괴물
##주,
크리티컬
##었으나
##체로
구현
##만원
##종이
테크
변호
교수
##역에
본격적으로
드디어
러브
쓴다.
##쓸
##ᆻ어
06
뉴스
##인들은
등에서
프리미
##널티
아닐
##부,
폭풍
부진
##냈다.
있었으나
협력
일으키
##ust
감독이
중인
낭
불꽃
닮
하자.
계급
편이
후지
조용
깊은
기초
어쨌
99
해당하는
단지
까다
##인민
##카를
##시장
등판
##관계
##목을
##아웃
64
##즐
1인
Su
추락
AT
52
##낸다.
됐다.
다니는
편성
이용하여
##일은
##거리는
고양이
연방
드립
##라노
눈이
신청
모리
기록을
##끄러
묵
섭
보도
it
대로
방법이
신규
##인이다.
목숨을
09
의견이
아무것도
03
NPC
아니라,
유전
##숭
셀
충전
응원
기능을
긍
그에게
대상으로
유명하다.
해적
##5,
영원
간의
##앤
49
##크라
되찾
##실에
그들은
옷
이쪽은
##se
최상
했지만,
쓰면
##믹
##팀이
여러가지
크루
아일
31일
180
통신
튜
##뜩
##시한
##브를
잡혀
##ore
집단
대립
##어와
##으려
##리스트
중.
견제
...
##것을
스마트
가능.
##소에
##한국
수집
##아파트
카나
쪽으로
##고의
is
무지
##경이
행사
##효과
성능이
##스턴
부분을
##머리
##까지만
죽여
##멍
전라
있었는데,
##형으로
필요하다.
##터리
되는데
치고
없다
##파의
##로스
##향을
##톨릭
이후로는
비슷하게
운전
아직도
말이다.
동원
매일
이후의
말할
##one
갓
##비전
거야
##공의
##색을
모른
우리가
옛날
있어야
모습은
화이트
모바
어깨
US
공부
마지막에
조지
##박을
모른다.
##듯.
##주인
평화
반응을
##자키
무료
##컴
영상을
경기가
뜻은
덤
생각을
##악을
불편
해설
만들고
트위터
##장한
먹을
##아,
효과는
여러모로
글을
훔
공급
##야의
##6,
##스트라
무대
보너스
##잘
다수
괜찮은
파이어
##되자
런던
필리
##섬
고생
파이터
컨텐츠
##저히
##함에
고용
맡고
1.5
쪽이
전투를
무르
스탠
둥
캐릭터를
수준으로
##쾌
##RE
##달을
##카는
비디오
덧
위원
언제나
토모
성인
본선
MS
연애
1996년
등과
순서
마리아
##미,
이시
하나는
대폭
##영화
##ᇀ은
혼자서
##:4
An
##사.
학살
노예
##24
만든다.
##책을
##",
충돌
##부르크
대체로
콘서
##격으로
##콤
득표
##자고
끔
##:3
복수
##동의
몸에
##리온
##가?
달아
사람들의
스웨
30%
마음에
##함으로써
이중
뱀
창작
뼈
에스
##다의
그런지
타워
##역의
##페이스
돌아온
중학교
##상,
KT
00
특별한
그와
작동
화장
##용이
시기에
춘
자신과
양산
목적
동영
빠진
푸른
계획을
##민이
걸린
4년
알파
번호
드물
자체를
위기에
##이로
이후에도
제4
유저들이
준우
유희
널리
##라이언
명이
사진을
자이언
참전
적어도
##ᆻ는지
무효
기반으로
하나.
점차
국립
##하에
##보스
##짱
##맛
있었는데
안에서
1995년
상황.
이것을
넣어
마시
##전투
##ip
##공화국
위치를
##주에
임시
##업이
3위
##지원
전원
기습
##연이
대략
다섯
마이클
##렙
사람들에게
도서
정류
##이라며
이날
##앞
##피스
##테인
제법
오빠
추적
케이스
유로
##PG
성능을
있었고
어디까지
템
호평
##드러
##라에
녹음
코드
2배
##쩡
4개
변경되었다.
전직
4,
##리나
인상
##버려
그것이
##관,
예선
##세에
##조는
던져
65
곡을
보낸
본인도
네가
##end
##.25
##운다.
차별
##미니
사이가
#373a3c,#dddddd
형태의
즈
##화되어
FIFA
말은
겉
##ere
의원
##당에
구출
##인인
스폰
##학자
##체에
##타입
주지
04
4강
##국을
거기다
##안이
멕시
조금씩
##사랑
들은
똑같이
영문
##받았다.
거라고
된다는
어쩌
동작
##아야
돌아다니
##ity
##동차
헤드
그럼에도
##겠지만,
댄스
##리얼
A4
05
가드
하다
##먹을
레오
조심
##프리
짤
진정한
##조리
##었기
##기지
있으나,
관계가
그렇지
Te
##마저도
##어날
##법이
##파를
사용하여
##인에
##았고,
##-20
##녁
##75
플로
##재를
##슬러
파일러
세월
##()은
태어난
내는
프린
똑같은
시각
행성
De
##디션
Ne
사토
파란
높이
##실에서
인공
연사
##고로
이노
##ath
회의
##ᆸ고
##:30
그로
와이
##병이
젠
##닫
블러
익숙
변형
##마디
##유가
했고,
##리자
##츠키
##점.
노멀
입장에서는
이재
##해의
체력을
탁
세계의
보이고
되는데,
##ᆸ의
되자
189
생겼다.
신성
거리가
##리면서
정확한
마리오
데이비
##인들의
조성
Ar
##소는
근처에
##데스
##부대
잡는
등은
이내
수영
##되었을
캐릭터.
장식
##짜리
##민의
스카이
심한
시장
파라
살려
도중에
의혹
샌
##한의
어드
비중이
##료를
찾아가
쉐
디지털
##??
##ᅮᆯ러
낸
##리우
코스트
어지
다가
##이치
구속
##아를
전형
선물
##필드
##력도
최후의
예측
합쳐
##할수
16강
수송
##무원
##님의
##사라
영국의
막을
##쟁이
##내고
##기엔
##히로
1대
때가
##색으로
전까지
##좋
합격
권총
##평가
##명이다.
##-11
낮아
##200
##ome
고향
더빙
몰려
블록
지속적으로
##항공
불린다.
##표를
펼치기
관할
달린
##당은
##스킬
타케
대부분이
취임
##들,
##.01
생활을
정도가
간다.
5회
공격에
빠르
이성
아버지가
##미와
갈아
레전드
BGM
SN
4회
있었다고
모바일
AI
##였으나
메카
##65
유령
##교의
##당하는
매니
등장했다.
아머
##과,
##슈타
정착
지니고
##보가
붙은
아침
MAX
불법
5년
곧바로
1994년
크로스
집어
되었고
박근
수사
오랫
역임
중국의
단순한
크고
##뿐만
가톨릭
##하였으나
마도
##냐며
##%의
여왕
##데레
##쪽의
##MA
승격
출처
##산이
##주면
업무
김영
전쟁을
소리가
이후,
홀로
주변에
마크
언니
모으
##양이
2010
예외
##자면
적극적으로
팬들이
하더라도
##이나,
검색
파트너
##씨가
접기
내의
##함과
58
평가가
나를
##우,
모두가
무언
##구와
##티드
##권은
쿠로
편의
공개된
##버리고
웨이
헤어
##곡을
자신들의
활성
오늘날
서서
대미지를
차단
##등이
내려가
9회
##마루
생일
극단
팬들은
동네
##중인
설정이
이들을
않았던
##절을
##홈런
-원
잠수
라이벌
너무나
엮
존재하지
빵
버려
리메이
##역은
##사업
초창
##age
##ect
계약을
중에는
연상
쿨타임
어둠의
가져가
##IS
막기
FA
식민
관심이
대항
추격
##이었으나
무엇보다
##버트
팝
자가
기억을
##7,
##'에서
규정
쏟아
AC
인수
##경찰
일본어
괴롭
놈
브리
어떻게든
반격
##ᆺ,
##탱
##둥이
플레이를
줄어
에드
잦
이루어진
##데다
##제한
고백
목격
##영이
##전차
빗
다이아
3D
소화
-명
지나치게
절망
구해
위험한
MC
##22
주전
개념
마술
밀어
기원전
져
커맨
2011
MVP
객
동방
요괴
##호로
##관리
##챠
전면
등,
##"는
1990년
##소에서
##실한
##트워
의존
##무기
힘으로
압도적인
밖으로
##II
국방
라이더
##야구
진지
부상을
##.02
판정
저장
##개발
일시
타이거
대상이
마음이
들어와
##놔
않아도
반발
##육을
종점
보물
박정
외부
##니다!
긍정
하나이다.
닉
##ire
예비
##막을
브랜드
단어
미츠
##름을
##동으로
없으면
왠
##분의
##당히
##었으며,
##도르
이전의
신설
유행
갤럭시
##했었다.
##터테인
저그
3대
일도
잉
작중에서
##핵
##츠의
##스럽
##인간
##나라의
나타난
##편의
##국가
불가능하다.
능력은
특이한
후속작
지역에서
쏴
##하라고
##환이
탱커
방출
본작
페이스
클래스
모여
##드립
용의
##절이
##석은
##였다는
스튜디오
지역을
사운드
곁
장수
##BA
기능이
외계
##ᆺ날
##생활
잡을
##하면서도
##전,
마법을
베이스
결성
포르투
히데
스케
##당했다.
##amp
펀
##현이
##았지만
현지
통상
가깝다.
유형
##었다
##ᆸ에
의뢰
##겐
오랫동안
쾌
##토는
성격이
전후
한동안
##러가
작품의
되어서
##og
중계
헨
압박
창조
전력
서양
곳으로
판타지
##교를
보여주고
##-8
다룬
##떠
##코,
입력
이리
##되었다고
베스트
출신의
##66
##tt
다리
##ᆻ다면
차라리
##유를
##://
침공
심리
##류의
마침내
기점
대처
##린이
아바
써서
##~4
성적을
##연의
2부
THE
아름다운
오사카
정치적
##보이
결합
예능
지금의
##네가
길드
오스트리아
##웨어
##.03
41
주의.
##하기는
구성되어
##학적
##연을
통제
상향
DLC
자매
##세요.
##세로
앵
단점이
##ide
날개
신고
최다
##린의
나눠
##독을
보장
강철
폭주
청년
콜로
##에겐
##번에
##방어
##사령
8회
근육
##당하고
상호
중에서는
닫
##ure
빌드
##했는지
##군으로
저녁
##노가
##론의
Le
##ime
최강의
착각
루트
대만
##그라
##ID
##해서는
생각이
Me
이집
##령을
아리
##회사
다루는
바뀐
##삭
##군,
치명타
##심으로
승부
일본에서
##()는
기술이
튀어나
부른
받아들이
나와서
##구치
가속
감시
맞지
##스톤
신기
##편에서
소수
##들과는
##ᆷ비
##기업
##역이다.
쪼
실력을
##룰
##진,
제2차
말하면
순수
끌려
있기에
현상
##/4
##으려고
브루
감옥
외에는
##졌고,
##배를
많아서
죽인
##OT
이어지는
합성
고등
간혹
막아내
무적
##시절
##ake
찾는
어쨌든
유대
안내
대사를
학원
대화를
제5
골든
정복
56
주기
구체
경기는
Se
끝나고
##때는
총을
부디
알렉산
##디가
탱크
##번호
54
외국인
콜라
잃은
##통을
선출
않는다는
커플
##소리
보일
이끌고
##ark
어디까지나
싸울
이주
##'.
엄마
인간이
발달
##타와
의료
보라
채워
갇
이루어져
##즈,
파일
프라이
세계를
아니냐는
생각하고
다수의
##즈와
강제로
베트남
##신으로
사용되는
낼
##어리
접촉
쉽다.
##물에
##실,
##어버린
주말
한국에서
했다는
##28
박근혜
##과도
##니와
마구
마인
둘째
##소한
이지
나나
59
##하는게
향상
자는
전화
초등학교
##튀
'아
작사
한자
니시
델
비슷하다.
우리는
했는데,
##넌
독자
##OM
##안에
한편,
##계에서
이끄
##다'는
역사상
맞은
1992년
죽음을
##명한
이슬람
##77
##하고자
##하거나,
살아나
좌우
AK
##당해
##식에
##세요
성립
올린
##판에서
이란
##량으로
##의가
인하여
##레이터
김태
##르지
스미
##라!
멜
결과를
밝혀졌다.
가고
독특
##드에서
##ᆺ가
##ᆷ새
빚
마이너
미국에서
##자치
##노의
은하
3루
플랫포
방법은
아가
실버
디버
##ES
무작
##코와
지원을
##법은
##던가
누적
지나가
나름대로
600
##ite
깜
지어
자신도
감정
안티
훌륭한
##더스
로스
##한을
편입
정지
##찮
예ᄈ
소형
##미터
경향이
맞서
끌고
##iv
동시
생각보다
##니는
##코를
1993년
##실로
##재가
6회
He
노부
WW
이르러
그라
사용해
##톱
포스트
똑같
영업
##점,
##환을
##ound
레벨이
##38
메시
이치
깨닫
##르를
##인지는
사용된다.
희귀
지금도
##OP
어릴
릴리
했고
##팀의
앨리
사용하지
##민주당
화력
주었다.
의미한다.
강하게
전시
속하는
수록곡
상업
인형
##"를
##도에서
##이었고,
내놓
청소년
핫
네덜란드
##oy
정확히는
##현의
##크와
##ge
정면
알레
##펴
2기
##일드
##유니
빡
무기로
자라
애플
일제
위치해
##지고,
##'t
##ᆨ은
웹툰
##파가
드리
##하려면
Be
##센트
DJ
수십
KIA
융합
##산업
독일의
##된다는
5개
##크,
##소로
베어
##았다는
은근히
프로듀서
##들에게는
##들.
수련
앞두고
##아는
##묘한
더더
알리
갈라
##iz
##또
타게
헌터
##메달
##치며
사용하고
그곳
층
Lv.
없던
##주지
##재로
태그
##ᆺ과
예고
##UN
##에이
이끄는
좋게
옷을
같아
할아버
##안의
##명에
출장
캐릭터로
##산의
##구려
세상을
##당한다.
극복
날아가
횡
것만
##졸
7회
팬들의
그것은
##렘
#ffffff
기본적인
그래픽
kt
흥행
##듭
##야가
2세
CC
말로
막장
반응이
88
카를
들어간다.
적응
##ess
##.05
대원
경비
스트리
맞게
훗날
지능
다들
##되었는데,
중의
폴란드
소총
##등의
##졌을
마왕
멈추
미술
##AD
전에는
##피를
아빠
김정
등장인물.
코믹스
##시키기
##멘트
##전과
피격
제어
조절
섀
태어났다.
##ᆷ으로써
이상으로
혐의
소닉
몬스터를
있었기
챔피언스
넉
##사회
환승
##잡이
##친구
더더욱
##석의
이길
##화와
탄약
피를
##종을
락
당신
##용을
my
5,
##단과
##였는데
2017-0
57
개입
##마에
멀쩡
##경에
접속
##국은
##조차도
##았고
검사
은행
카타
##브리
##투를
랜덤
역을
스피드
물고
##였기
##OW
##색의
대개
발매되었다.
대하여
원본
각본
유사한
눌러
게임에
##ᆻ는
##물은
##열이
사랑을
AR
테란
##초간
불가능한
인물.
감사
GT
뜻이
첨
66
적대
특기
##라기
게임에서
탓
##.08
##심한
블로그
키워
##영의
트래
레코
퀸
하얀
코어
##랜드의
##망을
새벽
들어갈
킬
물을
##롤
어른
별다른
##ᆸ게도
태평
의무
내세
##관에서
장면을
이즈
활발
##잠
밝히
넌
##~20
오스
##문은
연관
##학의
과정을
##보드
저주
전성
한마디
전형적인
틈
관계로
박사
달고
토론
치러
##정,
188
테스트
비싸
경험치
1991년
인터뷰에서
사라진
상황이다.
방사
##sh
My
랭킹
다음날
제작된
Wh
보게
그들이
##9,
##름이
쓰기
까지
+2
해병
버리고
무릎
당해
성공했다.
리메이크
##포가
어떠한
이민
비트
##기나
장교
공군
##만큼은
카미
##라이트
안드로이드
댄
끈
##펀
##률을
윌리엄
참석
이외에도
맡아
##학,
금속
다를
결코
죄다
이정
대충
되돌
##ud
고마
SC
서부
카라
문재
2대
일상
경기에
공격하는
##ame
컵
##경의
절대로
##OC
##화한
##비에
2층
개방
##번의
요코
이외의
##전대
준우승
있다가
오전
##감독
##이에
갖춘
명령을
##국에
실력이
전철
방에
내리
갈수록
트랜
사건의
##ord
적혀
##비트
경우에
죽음의
##다란
정도다.
혐
##그리
##하였으며
썬
연도
Tr
##oc
들을
UE
##렁
분위기를
오해
아니라고
과거의
##일의
"아
SD
##줘야
##보기
##-7
가야
검찰
룬
헌법
땐
싸움을
##등장
3인
적절한
매년
##공이
짝
##이었지만
##선,
뜯
교회
2의
##령이
##츠가
개혁
##돌리
##our
with
##LL
보며
채택
디아
아들이
들어온
법률
##실의
메타
##로워
HD
바보
칭찬
막차
스코어
것인지
도발
##36
약간의
세종
캠페
나가는
꽂
뺏
직원
250
뭉
캐스팅
우연히
자동으로
죽일
##자도
##나카
안타까
나아
삐
##.09
##다시피
수준.
##메가
##론은
##브라
아니었다.
##혔다.
프라
##다를
전방
##였을
김민
##받을
베네
##였는데,
가문의
##뿌
##맨의
이글
퀄리티
##지인
##유럽
평이
Al
##.07
85
##ᆷ도
싫어하는
꿈을
1기
따르면,
분위기가
미카
##"이라고
##여자
키리
이라
##가시
공식적으로
##대장
없으니
점이다.
비례
불을
형식
짓을
유닛이
##px
덧붙
신이
부서
##중앙
작가가
##34
##당할
##야,
체계
아니라는
샘
##버스터
제임스
##이게
상태.
슈팅
결과적으로
카드의
몹
남부
우수
##스틱
이영
그들을
기자
멍
만나게
SM
2번째
대표적으로
72
##아와
개막
보너
##으러
그건
##'은
##com
어지간
IS
##왜
아끼
##느라
치는
김종
아버지의
##집을
구사
##없다.
##상한
##ance
##ix
보관
빨라
첫차
##.04
##토와
과연
편곡
버프를
이상을
자랑한다.
##익을
곽
##일본
##덱
유저가
많고
오직
노란
덤.
반면,
보유하고
빔
##"의
이른
이제는
입을
벌어진
왕의
##양을
나쁘지
사후
보안
방법으로
##ice
##렬한
하니
컬러
선수들이
##ok
의미로
##ᆯ,
날짜
되었다고
빛의
##났다.
##키와
보지
사람들도
68
내장
켜
##질러
어마
열쇠
스마트폰
##%를
시즌을
기병
후계
챙겨
위주로
출마
##하라는
1학년
매직
동부
남북
모양이다.
##ick
##'와
있었을
##탄이
자식
##명과
챕터
과거에
남아있
시절의
유나이
언더
돕
회수
##욕을
미치
정찰
##깥
##-9
아파트
##마스터
##했습니다.
추가바람
##ax
##스트의
병력
가능성도
세계에서
뒤에서
##배우
##번,
집에서
있어도
피니
모조리
자리에서
임무를
##시설
김동
-위
메뉴
프리큐
##었지만,
##소,
##구역
플레이오프
심하게
공화
##증이
1세
네오
와타
재사용
휘두
봐야
##하가
크라
##략을
대사가
행위
위치에
챌린
##루는
사장
UEFA
##상과
카와
믿고
드는
루시
##되었으나
아쉬운
##다나
수수
연극
시즈
군단
##이긴
##되어서
목소리가
부담
좋을
##약한
##pe
가을
110
30분
학생들이
뜻을
빛을
##수.
Go
##그러
발생한
##스트가
##%로
손으로
환영
완벽한
##하자,
##ww
주인공의
3학년
정신을
##서에
##밴
##마와
##레어
작품을
현역
##레나
PD
크기
전체를
##에다
폭격
뭘
##티나
바깥
동굴
잠재
Love
de
##카,
거듭
멜로
소식을
스프링
명확
##.06
##쩍
왔다.
##오리
잃고
JR
출입
##드레
51
##뇨
한타
##쿼
스타크래프트
##걸로
웅
##걸이
박스
피해량
하락
셈이다.
신앙
##졌다고
나타난다.
##ᆫ가
##흡
시스템을
부수
##것은
기분
가라
이라는
현재까지
##하기가
허나
재판
##급으로
##되었다는
##{{
협박
##커가
개시
어린이
모래
잡은
##니를
##39
재현
##이즈
##킥
막아
전진
모션
##음악
이전에는
알바
나아가
하거나
나이가
확인할
보이며
##단지
자세히
되며
감안하면
SKT
##사무
이렇
##사우
여신
유니포
머물
1988년
풀어
##체이
노리
전쟁이
시스템이
##주와
##츠를
올리는
곳은
관중
들이
일방
로보
전멸
##건을
저작
거리를
SR
##뛰
##짐
정체를
하트
이나
핑
##na
연락
##호와
##맨이
##했다면
증가한다.
미디어
헛
##품으로
##언이
##봐야
로그
일치
기울
병력을
EP
##자이다.
##오고
시그
##쿠라
##험에
1989년
캐릭터는
##갤
##ber
밸런스
둘은
맞다.
가짜
네트워
##own
무방
공공
모모
##비로
전공
강요
않도록
##선과
이명
##리아의
제갈
가격이
터뜨
##노스
##EM
지형
아즈
가까워
##파로
올랐다.
이닝
스승
내보
별명
##렸던
추구
##종은
장악
세르
영구
라이온
방치
##ᆸ어
정부의
핸드
##계로
좁
##셋
##번이
얼굴이
몽골
##PM
##로서는
0.5
##우와
목소리
4.
해상
언급한
명을
강남
프랑스의
대회에서
##질로
전의
GS
메르
배트
조별
회원
##속도가
3연
##주민
충격을
흠
처형
2000년대
피아노
##qu
##인들을
수여
오래된
내지
2학년
##비와
있었지만,
뮈
95
##캠
작가의
세포
남긴
신문
스톤
전부터
##lay
적합
##것으로
통산
유닛을
##시고
##위,
##씨는
##늬
잡아내
메리
외의
잡지
말아
물론,
목표로
##해준다.
것일
##버그
북쪽
상급
단편
할머니
##에서,
##교회
넣고
##68
##잉
##가.
##av
장군
##생을
##ᇁ은
차가
승객
윌
오카
색깔
의지
쓰레기
잉글랜드
##텀
##동은
몰라도
##인도
OST
때에
집을
기록한
##정과
##국제
800
간신
야스
2008
남쪽
98
##old
감독은
숭
들려
가사
되며,
비주
##작을
띠
##한이
싸움
눈물을
##방향
##퍼스
구글
카드.
아마도
파리
##졌고
있었다는
1층
단단
버린
##바의
장점이
돈이
유치
##위키
지식
##이었고
##트릭
간부
##NA
##석에
이용해서
욕을
깔끔
비싼
클래식
##케이드
탈퇴
##텍
##orld
보존
계기로
2009
프로젝
어둠
올라와
##셔널
유효
문학
배우는
관측
등장하지
공개되었다.
##겁
##세한
혁명
##ᆷ이지만
헤비
##오와
인원
윙
##s,
##US
넥센
62
##지?
그러한
##진으로
카메라
{{{
된다고
주먹
분위기
CPU
포항
##뱅
랩
홈런을
화를
##ng
인물이
관찰
사망한
사마
##검을
##있게
##득을
만들기
한정으로
부문
##로봇
차원
77
찾기
당하는
##율은
##.18
서식
53
사우
어택
험
나오기
돋
##인들
아이를
군대
##버릴
##생의
1군
Ro
##단체
신분
리가
포함되어
빌리
머리가
##타운
아일랜드
##커의
공격할
당시에
##서로
찢
페이지
발언을
농구
동의
주간
##각이
한참
이번에는
아이스
딴
한다면
레알
기용
##조로
종목
코치
샷
삼국지
이식
힘들어
밝혀진
천재
트라이
##뚜
죽어
##받는다.
떨어진다.
##다니는
터치
아크
확대
쿠키
몰락
사양
특집
비공
구원
##족이
없으며,
개정
##되게
김재
뜬금
##열을
##ont
##/h
##랑이
패션
##가미
마드리
##놈
고위
[ruby]
쏠
않았을
##금은
최신
즉위
영화이다.
조건을
이은
이상이
효과로
수준이다.
숨겨진
##후의
##ies
##았는데
##통신
군주
##슬링
미스
넷
##지않
무시하고
후손
물려
##있어
나중
##적,
##.15
##여객
##직한
##로와
76
##ᆻ습니다.
상상
뜻하는
하나도
그러자
아파
##뚱
엘프
않으며
컨트롤
스턴
휴대
아메리카
급격
##모드
##일보
##EX
플레이어의
이것도
##타,
있는지
포르투갈
의미를
강하다.
아르헨
##110
하차
초반에는
일명
어째서
넣는
합체
업그레이
##띠
늑대
##~5
##시피
살펴
##들인
맞으면
아쿠
튕
160
해안
##먹고
간주
##네의
왕이
##었으며
##pt
수출
##"을
##하겠다고
선전
후술
##투스
레어도
자체의
##이었다고
시대의
##나서
바꾼
트럼
K리그
미군
식물
Ex
이용하는
##방에서
성능은
사용이
국왕
썩
사막
느린
##덩
존재가
모르고
것으로,
KO
통치
도구
##요시
떨어뜨
##퀘
한쪽
##터미널
앉아
고작
##됩니다.
##챈
##제와
##템
130
경고
##차는
##망이
##커를
피해가
##팽
올라온
한명
책을
미스터
제작한
다카
##번을
블레이
진보
##-6
중독
들여
##체육
##27
멕시코
타락
독특한
##제국
블라
##터는
퀘스트를
있음을
##라엘
그루
##희가
##나가는
시너
팬들
달리,
자폭
게임은
##결을
주변의
##력,
동쪽
##비,
챔피언십
##법에
##구에서
##저의
죽고
만날
찍은
김대
결과는
##가스
위장
덤으로
거기서
##21
##중이다.
아시안
가르쳐
식의
적당히
##으로써
KBO
##헬
##하를
##관과
##달러
##기에,
부상으로
비판을
이미지가
라운드
세이버
이어서
남녀
근본
상술
캐논
아테
##년에
##괄
Un
##어마
포탑
겁
##두는
78
찾을
탄창
느낄
버렸다.
합의
1부
##현,
##곱
직전에
고구려
##테이션
브레
다음에
사카
세운
##헤이
드림
육성
##되는데,
선수로
또다시
잡기
에너지를
저렴
별개로
연료
##OD
양쪽
무관
매치
것,
그러다가
##치면
1980년
커다란
뻗
인증
휩
수도권
촌
초기에는
제정
점수를
수업
##io
##98
되기도
봄
카트
74
움직이는
##통이
트레
물질
그러니까
되었을
발행
##실은
##군.
건조
아틀
사전
##펙
새끼
##들과의
아이콘
터키
초보
범위가
잘못된
이듬
스웨덴
중립
나폴
알아내
미안
기뻐
'그
##니까.
##요,
재정
구성된
싱크
##씨의
생략
처음에
##졌던
시절에
##끈
환상
##하더라도
배워
화려한
보여주며
##세스
맛이
시작으로
부딪
##미나
판정이
무척
신경쓰
##보로
메모
자리잡
저런
DF
간신히
아닌가
##주기
##넨
지시
##술사
##약이
##자나
글로벌
민주당
레이더
##들만
우리나라
곳을
했으나,
고문
북부
기록이
없으며
##저가
모티
wh
마다
정부는
##사거리
폐쇄
주제에
시작된
1987년
##다면서
장전
##-15
##천시
##ET
##훈련
깡
존재를
예정이다.
가시
카드는
버린다.
비상
특성을
##끝
##딱
LI
너의
기록하며
##백을
수류
##패로
손가락
그렇지만
2020
마력
팽
용도로
호위
후반에
화가
개량
가볍게
전함
시간에
##+1
##이야
##해지고
공격력을
위반
##함은
않았고,
MF
드레
벼
제도
멤버들이
받아들여
##였지만,
떠오
##거를
##만,
##/10
##죠.
해주는
##네.
가치가
도끼
패턴이
마그
총알
위대한
곡명
정차
주둔
자극
인구는
공성
##고에
당연한
제출
##MP
##차례
발생하는
꿀
넘어서
##고속도로
##움이
##하마
##되었지만
##샷
아니고,
곤란
의견을
##cm,
##므로,
시에
##제,
리드
##경은
고교
2인
140
서쪽
Pro
집행
두려워
##발이
커리어
##되던
가끔씩
CF
##VD
##온의
##스러워
We
##진과
검을
##린을
##과에
그랜드
##조에
지역은
속도를
않으며,
곰
출연한
##린은
##슬로
종류의
어마어마
##테르
코코
사냥꾼
공룡
문자
토끼
사쿠라
도주
아카데미
관련이
자전
꽈
##"로
##디의
이미지를
단점
클랜
헐
mm
실망
죽이고
WWE
윗
컷
무렵
##즈에
##생이
않았지만
아미
관심
##다리
국가의
효율이
부분에
망가
보석
##"이라는
##계열
곡이
킨
사귀
##공사
시드
sh
그림자
67
성별
떨어지
대부분은
새롭게
##95
숙련
##구리
포스
수준이
어비
##셀로
##판으로
##/1
자본
음악을
지불
격추
골을
없지만,
원인이
대거
##탄의
집으로
체결
의문
##ᆻ음을
차지했다.
##수사
호텔
바이오
##세.
이혼
포위
그레
가만
##속에
다음으로
##해질
정부가
다스
후배
오버워
일찍
부를
##라고도
후에도
완벽하게
동성
##봤
##디를
생년
주사
아티스트
치유
##벌이
##Hz
간접
라이프
흡혈
##IP
안나
처럼
##않
사람에게
춤
##들보다
이듬해
부각
1라운드
##산으로
##타카
##윙
4대
귀환
your
모르게
화학
##후반
감정을
취급을
##rom
으로
영토
페널티
죽이는
##모의
난다.
캡틴
CV
털어
발라
합병
걸고
불교
확실한
크리스탈
닭
##문학
없는데
일이다.
슬라이
있었으나,
나오면
##포인트
##내가
넣은
늘어난
액티브
##900
프란
구하기
I'
한국에서는
##병원
초중
진짜로
면에서
빅토
##비디오
U+11
쓰여
##프와
##얄
무기가
##가고
It
##실점
##펙트
무기는
편이라
기회
티어
오지
##해와
방지
##프리카
##하자마자
##인한
사용하기
익스
###x11
흩
아이언
뿔
정도였다.
방송에서
명칭은
##out
시노
소위
멘탈
6,
소드
##능력을
강의
이다.
입히
기숙
비해서
녹색
##단에서
##현은
카오스
4번
문재인
소지
장점
클라
얻게
관람
성공한
아래에
우수한
한번에
금융
##습을
##시에는
문서를
히카
윈도우
대우
전투에
니코
187
##%가
브랜
전문가
CJ
대통령이
양성
닥
전반적으로
##까진
##기록
유통
##ave
##편에
모를
유저들은
전주
##성능
금방
##경제
속한다.
성공한다.
##국에서
사회적
더러
해피
무라
하나씩
유발
클레
정수
2.0
##된다고
불렀다.
##거리를
보면,
##함.
SH
주포
늦게
떠난
타자
입장을
후보로
않았고
성남
##조사
##되는데
전체적인
연속으로
##26
마이크로
좁은
사라져
##공원
뮤지컬
스플
나면
##영은
##으로서의
당일
추종
##ream
마키
올렸다.
##축구
냄새
친구가
자연스럽게
##ond
영상이
##사이트
함선
놔
휘말
##무장
거울
##야는
나타나는
총기
데에
4위
수술
최소한
##ile
##크리
열어
시작하는
##범위
이스라엘
생기는
사랑하는
##46
발생한다.
##편이
장비를
거짓말
유력
부임
양의
1986년
전투가
듣는
크리스마스
잇는
해리
##첨
작업을
##냐?
##타자
1루
측정
잔뜩
승강장
##팅을
답변
쉽지
목을
패스
갤러리
1만
올스타
##개,
디지몬
##ian
나오는데
기관총
톤
##노우
##작이
##ION
##렸고,
보완
니콜
중,
구멍
반사
횟수
둘의
##부장
##동과
##야만
Gr
##발의
that
##슨은
언급이
숨어
##디는
대미지가
상영
일어나는
##싱턴
임대
다이아몬
##에서부터
##장전
지뢰
난입
##세)
##브의
사건으로
가지는
플레이어는
상관없이
분명히
1:1
선두
아까
부러
따온
즐거
똥
인디
##플러
자격
##아리
보다는
호칭
##슨이
고스트
##즈마
정황
생년월
##필더
##LE
##프,
이유를
김현
##29
초록
##받지
하나,
##브가
##감한
##iss
들면
곡은
끝날
받으며
##체인
데드
무서운
음성
톱
토너
한글판
##톡
유독
자녀
##슨의
틀어
별도의
가려
옳
보여줬다.
물건을
멋진
알아서
마법소녀
차를
생각해보면
##앉
마케
수를
##졌다는
동양
대성
##칙을
설정을
##예술
시상
삽입
시대에
찍어
심지어는
##rd
코우
플레이어를
그러다
알겠지만
##아시아
공격으로
##뚝
186
##우기
AM
##운이
뜻이다.
운영하는
발렌
증언
##사관
최근에는
먹은
혹시
나선
수백
1장
##발로
##사람
사살
신라
스탯
대대
##면이
체인
##운을
##밭
주인공은
##.00
##급이
영화를
뱅
##르와
##나간
군대를
쭉
등.
결과가
피할
##츠는
라틴
##함의
##ost
101
발표했다.
##SP
돌입
정식으로
노려
베를
훼
##블로
##-19
투어
##더라
+10
활성화
일종
말하며
1승
예로
닌자
죽는다.
오마
눈물
##"고
나도
호주
미쿠
미드필더
없다면
##고한
가치
해당한다.
콜라보
저택
가슴
##면에서
데몬
3번째
##.20
네임
묘사가
가지게
2연
느낌을
형사
##운의
요소가
아래의
##카오
##루,
##급을
##펠
위력
걸맞
경상북도
스페이스
마코
리듬
정도이다.
심판
경험이
##지구
핸
말하고
단축
트레이드
##전자
##행이
원자
나간
##지기도
메디
##300
지팡
96
##신교
점도
대단한
죽지
AD
장면은
##겠어
##더러
이수
##보병
제6
타는
공격은
들어가면
오류
비유
2.5
배포
바퀴
평타
##누리
항복
##계는
동일하다.
프리큐어
##55
대리
아이템이
최우
4차
리뷰
애매한
스킬은
내야
##하나,
각각의
##키퍼
##르,
원칙
일으킨
##하면,
죽기
않는다고
칼날
##44
배차
아나운
삶을
주장하는
어뢰
싱
##역과
인물이다.
얻었다.
##단,
##ace
의해서
##네스
요정
팀에
##s.
상태를
투구
매력
시절에는
##다"는
이긴
곡이다.
다리를
전신
데다가
Com
##ov
##대상
주식
##이면서
##바나
##길이
현장
##ory
뽑아
왕국의
세인트
##온이
처벌
##벌을
속도로
##-K
개설
입장에서
여객
##종합
떡바
같지만
##man
영광
##ph
1명
##달아
##속으로
2007
##주었다.
##진에
얻기
방식을
소재로
아버지는
유저들의
텔레비전
심장
우크라
국가대표팀
답이
갑작
##기기
##치면서
##공간
스케이
귀여운
##;&
피에
포트
적어
##민은
시절부터
##률은
엿
캐리
##벌레
철저
제가
##'과
준수한
##사이드
코믹
##,8
##마,
창설
공격한다.
공허
##바가
##마크
##ear
고수
생명력
##곽
1분
평을
칼을
팬들에게
##ᆻ었다.
##복이
##음.
세대
1985년
상처를
이하의
전체의
5%
면이
##네시아
머리에
사이버
태평양
##비한
실종
부근
##왕을
나은
##곡이
##인민공화국
##석,
화성
2006
어두운
드라이버
##나이트
되지만
워싱턴
일일
당신의
##ᆨ저
##족을
플라이
##......
끔찍
현상이
속으로
새겨
타쿠
##:10
커스터
비미
가리키
##무가
신화
##국으로
파르
곳이다.
내고
체크
또다른
##합이
##희의
강등
##주교
전체가
본다.
말하자면
확실하게
아케이드
##속이
천안
##oth
##너가
##례를
##노는
##짤
첼
기사가
당했다.
##렸다고
이슈
미라
출연했다.
##:20
##경기에서
##신과
높게
업데이트로
합니다.
질문
##IG
##점의
전설의
작품은
연금
쪽은
지나지
출시된
기술.
나치
##DD
유나이티드
그럭저
##러니
정통
제7
##시스트
불이
인민
선고
인간을
펄
그랑
무더
않지만,
##전한
생긴다.
AS
단행
먹어
눈치채
##추어
##-16
정확하게
완전한
##건이
우리의
동남
왠지
##클럽
LC
당하고
##란의
성을
쉬워
##습니다
##해보면
토벌
##드래
##국민
발을
세븐
스킬로
##바르
##리고,
##였으며,
re
##.16
##하진
##다"라고
모델이
지휘관
화물
##조직
LV
##데다가
실수로
특징.
이종
아저
##주일
##커스
프리미어
##환의
빼고
속의
상품
파생
요구하는
##소와
이젠
보내는
갖추고
시라
시간은
97
##ys
고기
샌드
사용했다.
차트
##하하
##-S
중세
1984년
조연
63
어머니가
##품의
##있고
오랜만에
닌텐
지은
생년월일
개발한
빌려
엔터테인
맘
##산에
제외하고는
간단한
##장갑
##테일
국민의
나츠
##2의
##;&#x11
##병의
콘서트
##더의
##체와
올라오
##버전
영향으로
61
의견도
밝힌
##리에이
서번
뮤직비디오
##미로
공기
부분.
술을
차기
요즘
제자
전북
##ᆯ로그
3000
로버트
##ᆷ블
##달라는
주차
창원
##상황
##후에
사용된
##렇게
그럭저럭
##전문
과도
상기
후퇴
마비
상자
##되지만
날카
형식으로
한반
삼각
비정
##pp
발굴
베이징
이용할
바닥에
1~2
시카
##파는
키가
부인
세상
##포의
하나만
막는
by
경우엔
밑에
타마
의하여
##ᆻ을때
##머가
##시타
부가
두들
대지
상대는
스트레
특징이다.
승점
2~3
낮다.
에르
##sp
지칭
##인데도
쟈
잘라
간단히
생각할
##용의
69
들어올
사례가
##틸
##음에
상의
##난이
문명
##산은
보이지만
톰
커녕
##23
무시무
##든가
땅을
배출
철거
##ale
##머스
읽는
##가며
1500
갔다.
상대에게
##TE
사이드
2021년
모양의
##위해
터미널
우크라이나
자막
코르
부분에서
##로나
아니라면
시작되었다.
스톰
##딸
타격을
비교하면
복잡한
##숙한
변환
선제
미네
많지
##전설
적중
웨스트
여담이지만
왕자
폭력
오키
이라고
크기가
오라
아트
##영을
##TS
패키
회장
구별
##집이
##aw
퍼포
드래프트
개별
##령의
##로만
##거야
기지
세계관
진압
태도를
형태를
##렸을
위기를
브레이크
##ike
##IM
약점
##이었기
일부를
##으로만
사유
시즌에
꼼
##루와
헝가
##관광
가격은
##ᆷ이라는
사라진다.
디젤
세부
##합을
한국인
##되었는데
블레이드
노선이
막내
캘리
##고도
최하
히나
유격
##야를
누르면
##영,
##OU
##ᆽ게
##안은
한나라
구할
신호
도둑
##면의
음식을
마법의
무사히
##살을
전까지는
허리
골키퍼
2:
유희왕
신도
##군에게
완결
경상남도
더군
3개의
##기능
연맹
##로써
회차
##우지
부스터
##,000,000,000,000
낫다.
마약
약탈
##형,
##링을
일행이
이벤트를
##슬라
인종
창단
특별히
##박스
##정도로
2군
##툴
이벤트가
##히지
##.17
유리한
책임을
넣을
침묵
##씨를
와일드
인구가
전작의
##하다면
커피
말자.
##XX
##미에
있듯이
##irl
필살기
##위권
일로
있었으며,
간간
에그
한데
지녀
##orm
된다
##월드
괜히
1990년대
오타
##반의
배경으로
ED
당신이
##아키
코리아
가동
쟁
요약
건국
##매를
대인
사도
피가
15%
##.19
침입
역사를
뽑아내
공연을
무역
적지
##필이
버그가
##/5
##메달을
피터
시리즈에
만드
##녹
모니
##건의
왜냐
감지
개념이
서서히
향한
##VA
닮은
배를
허락
파일럿
기아
예언
그러던
하이퍼
기회가
반박
##이기에
뿜
트리플
용인
2라운드
병원
사건에
실수
사라졌다.
##산시
와중
교전
##곡으로
조조
700
##뤼
##나?
장치
##었으나,
악역
결말
얻고
높고
보충
##맵
진심으로
##배가
##번은
일부는
SNS
##캐릭터
##협회
##되거나
##마치
앱
트러
종이
##ook
나오는데,
걸리는
풀려
위력을
무산
심심
규칙
곡의
론
##아아
소속의
아기
소요
전해
##로에
팀원
백작
고객
1.2
##더가
일원
모습도
25%
##내기
##스레
##흔
##자베
##~6
엑스트라
법정
여유
##방으로
영화의
Br
##인치
서구
시위
5.
나라의
##프레이
##경우
185
##ial
대상을
페이스북
##우라
##레인저
##ink
##ows
특수한
목소리를
##오,
##연한
시작하였다.
##8,
파는
줄어든
의상
##바야
##반이
실드
박물
너프
##뮬
매번
침략
모스크
벌레
블러드
올릴
힐러
동계
##우주
쌍둥이
용서
하필
갈등
뷰
후기
교사
끊임
주장했다.
주장을
플레이가
##줬다.
진실을
##넬
##손으로
언급된
천사
얘기를
##타수
평양
야생
프로필
3세
무인
##ᆼ을
##질의
##ish
##은,
게스트
끝으로
영원히
시원
한국에
성격을
엘리트
공사
기재
씌
##블린
##정치
히로인
금액
마블
어빌리티
항의
##보자.
나고
버스터
지키는
관여
말라고
땅에
ch
임팩
불만을
물론이고
go
##금의
레지
근거리
##tle
상륙
선생님
2개의
노리는
]세)
##포니아
뒤집어
미쳐
리미
##준이
로이
##극을
집착
치명적인
굿
빼면
토마
기가
##있을
대선
했으며,
##서야
##포르
되었으며,
호소
번개
민첩
BL
스토리가
몬스터가
선수를
##터로
##-17
선거에서
힙
조약
20년
세계에
엘레
##저스
재개
긴급
그날
차이는
##십시오
바가
참여한
프로그램을
대치
##UM
부착
더군다나
변화가
없으므로
업로드
웬만한
무의
유의
일에
##ob
##47
노리고
압도적으로
##기게
##절한
언데
CG
꿰
당사
##떨어
퍼포먼
자랑하는
##했기에
별의
플래그
스즈
컨세
자신들이
상대방
무력화
##옵
htt
##ower
펴
##란이
이룬
##라면서
##오로
옹호
##틀러
과목
정예
##.com
건물을
잘모
사태가
뱀파이어
##공업
스토리를
조건이
##너의
놓은
##토,
RPG
##ft
즉사
풍부
사람으로
루카
##병으로
여론
더이상
스위스
딜링
안양
##ach
유인
적다.
직접적으로
##키아
##품은
원인
장면에서
받기
엑시
##토니
사고를
무승
##플레
이어가
##이라고도
취득
나머지는
##보이는
##:40
##림을
포격
2002
구조를
##먹은
##체스터
언덕
7,
배정
라인업
측에서
튼
작곡가
즐겨
음원
시계
##히트
동기
##란다.
거친
둘러싸
가만히
계통
##자라는
소방
기존에
##티스
명백
Team
##즈니
##GE
서비스를
세력이
코미디
어리
##차별
둘을
여지가
Sc
##르며
##주며
##희는
##공학
돌연
버튼을
히어로즈
아치
비하
##스틴
들어오는
사형
##소총
##당과
1982년
미즈
몰리
유카
##팀은
정기
##민,
##궤
버리는
김경
기점으로
##갔다.
한두
과거에는
##듈
질문에
##나고
##했어
##ble
남겼다.
깨달
천연
##편을
##와도
라이플
##름의
해킹
기상
삼아
##영웅
영어판
억제
매니저
##루에
사용자
대조
##디움
나이에
써야
##산,
##졌지만
##밤
작전을
쏜
신입
##낭
열리는
장거리
Cl
##스ᄐ
스카우
악몽
##택을
##푼
시체
세력을
훈련을
헤르
모노
##코어
억지로
##쯔
엄격
쏘는
수능
1시간
툴
##색,
정비
##차량
넘게
장탄
않았다고
에디
중요하다.
##우스의
취향
Sk
사령관
남아있는
안된다.
썼다.
나무위키
출력
170
쫓아
제네
알라
##사나
&#x
전승
##바닥
호평을
아이러니
친한
결정적인
경기장
길어
통하여
권장
Bl
최종보스
##능력이
##주의를
다투
시리즈를
뜻한다.
5000
##스런
에릭
이로써
저질러
연구를
은신
럭
1983년
백성
##모데
디스크
사립
##감도
복구
초반부터
출격
전세계
##님을
차이를
돌아가는
군인
나오기도
채팅
지속시간
학교에
팔을
통틀
구간이
달라고
듯이
카츠
대단히
패널
##과정
자유롭게
강원도
소송
로빈
것보다
주인공을
##차에
느려
84
키타
했었다.
나빠
줄여
##했듯이
##겠다며
제한이
연기를
##네는
가해
##도서
##심은
실점
가죽
인용
Man
##이었으나,
부정적인
감독을
##계약
스펙
수치가
김상
##상으로는
##속의
##경,
맷
SE
청와
아버지를
교과
보면서
##니까?
##더를
##타이어
##하고는
아츠
공립
##순위
##길을
점.
##AP
##하기를
부품
##스도
임의
평생
슬프
##ex
몫
하향
몬스터의
##름에
궁금
카자
##타니
센트
사제
처참
또,
담긴
하에
썰
##중에서
OP
##키스탄
출간
비웃
남자가
주인공인
별명이
바뀐다.
스크린
##살이
##늦게
DVD
##The
프렌
처음엔
바르셀로
바꿀
싶다면
방어력이
##대원
위력이
코멘트
아래로
임신
출시되었다.
여학생
##자동차
면역
지냈다.
##사도
에리
점,
일격
전역
10분
나지
##MS
유이
숫자
그러나,
드롭
킥
##다'고
터져
Pr
모로
첩
진학
각자
##판과
인피
적들을
여기는
선행
코토
##31
하계
새누리
Dr
신장
스킬의
##왕은
호환
수립
일행을
나왔던
남기고
##룸
받아서
##나로
이토
##꼽
후원
인물로
##치아
중형
##권,
충성
나갈
##이동
1턴
캐스터
어드벤
어이
##너는
포켓몬스터
사거리가
같다고
버전은
##등한
##인데다
경우에도
##되었기
잠입
##심의
스팀
##해준
공용
귀국
##타임이
사법
거둔
파울
##사한
버전이
##:50
86
맡게
노선을
특히나
##티를
구슬
##되어있다.
조금이
##공격을
응용
추정되는
82
복무
##았는데,
##ms
he
개체
싸움이
선수이다.
끝난다.
기록은
##라이브
79
국회
모토
내린
##째로
##것이다.
##nt
번에
키스
기후
김진
##투표
수록된
##소설
##ree
아서
인스타
느낀
텍스트
라그
공지
아니었
소식이
##[ruby]
##화.
세우
좋아서
지워
##카이도
트라우
##법으로
콘텐츠
이득을
명중률
중복
일본에
그림을
Wind
시내버스
##ass
당할
편에
트윈
크래
너는
된다면
머리카
악의
준비를
1,2
유지하고
올라가는
밝은
##리다
##-18
87
김기
한일
##재판
록맨
##GB
구경
많기
선수는
방식이
가졌다.
전무
##!!!
지키기
저지른
나오면서
연대
1집
##기어
않았다는
탐험
##곳을
UN
인접
건지
조롱
제공하는
아베
계획이
##혀서
##~8
##훈이
좋다고
##.5%
##범죄
##-B
##문으로
좋고
##오버
때문이라고
길게
기동전사
##now
##포로
한마디로
##열한
동화
사망했다.
패턴을
도저히
에반
분쟁
##우에
##.14
동영상
따뜨
시청자
##리한
105
주최
리버풀
##팀을
##하였으나,
능력으로
불펜
##다'라는
##중간
칼리
아군의
엘리자베
무소
노벨
변화를
생각한
깜짝
##천만
배우이다.
##란을
##are
오로지
이득
##터스
논의
파크
##..."
일람
동인
##~19
전화를
어필
철수
##동물
상태에
맞을
And
로얄
For
후반부
떡밥
직접적인
속한
사용되었다.
이야기는
초창기
##전기
##프라
메이플
아지
카구
##얀
##3.
바위
##정책
딜을
뮌
##천의
##범이
마스크
##덩이
##이었다는
복합
##ᆺ하게
자의
테라
가능성은
가깝
##이었는데
##어버리는
도움으로
대량
선택할
오페
##매치
이상은
나타내는
권력
경주
최대의
##서도
빛나는
죽게
운이
조용히
##변이
##회,
원작의
상실
##좀
존경
ID
1945년
##피가
1억
##인가?
혐오
##400
세상에
##듯한
거는
기둥
그러면
시리아
##다거나
중순
##세서
쓰인
난이도는
마감
손오
개신교
이어진
##atch
LA
소속팀
아이가
엔트
뒤에는
##동시
조금만
불명.
혈액
##강의
1970년
미래를
계기가
##ool
##란히
##-A
번째로
##속을
테일
취약
수직
축하
##ment
스티븐
얻는다.
아동
##역사
##ug
##실점으로
##yle
함대
##폭탄
교도
사야
##키,
요한
서머
골라
아랍
시리즈에서
재장전
수월
##권과
##페르
용이
BS
##가서
뛰어넘
데이비드
##렸고
안녕
시로
가능성을
농업
분포
토요
##현을
증폭
##봤자
느끼고
사회주의
##중의
##소프트
수면
타츠
기사를
##당에서
되었다는
정보가
들었다.
것이고,
##권으로
해골
경남
##하겠다는
세이브
퍼부
귀신
히토
캘리포니아
유출
##였으나,
위치하고
Bla
후의
건드
요원
태풍
만나는
##싶
예전에
가상
All
여행을
"어
##창을
행위를
그래서인지
얻어맞
##지나
영역
설치되어
##비치
##ING
용사
War
##민족
##해서,
스트리트
입는
모델로
##작으로
위기
치면
보통은
배우,
만일
아닌,
##하였는데,
가디언
말라
보정
수의
##노를
되살
함락
##둘러
자꾸
##었다가
필리핀
블래
아인
##밋
십자
추방
너를
##ᆻ으므로
지목
어렸을
##마일
주장이
사로
##포트
##-C
##바를
야쿠
##시키면
카드로
유닛의
##츠로
회상
##층의
비틀
본명은
교육을
##"가
##ase
재활
근대
No.
포기하고
##ae
뒤늦게
제독
늘려
##eat
##지능
##양의
정체는
모티브로
외전
날리는
이자
성우가
1편
크림
스파이더
안타를
극히
##딧
쓸데
##8년에
캠페인
##림이
거미
갑옷
가난
바에
해준다.
##on't
하츠
2004
찾아와
너희
##외의
쌀
말투
시간의
##파크
화력이
##하면서,
대신에
엄밀
##사단
연타
싹
##엔딩
##시에서
전파
시달리
넘버
an
##벽을
없었고,
1981년
어디서
##들처럼
연고
##ᆷ으로,
시의
베를린
20대
##법의
동반
활동하고
러시아의
##STER
내게
1979년
분해
##부터가
고쳐
차고
막상
담당하는
##쟈
지진
##레베
##어에
4개의
코난
##ous
##ᆻ다며
만들어서
##학원
축제
##노동
터널
안좋
##구간
##백이
왕조
합계
슬래
##사고
화제가
세뇌
가질
며칠
##장애
유물
89
분기
당신은
선수권
Star
가리키는
##1.
##소나
##반을
마냥
레이드
알려졌다.
2경기
보유한
중화민
가리지
데다
##내에
##식과
여성의
늘어
번도
들어가서
분열
명목
암시
끝이
물이
##탁을
불의
실시간
이니
결승전
##리도
공장
마디
##마츠
편지를
10개
우월
실질적인
7년
2022년
대통령의
상반
알았
포지션은
빠져나
##렸다는
에픽
역시나
상하이
##km/h
부적
캔슬
데이터를
##모는
지는
타율
못하면
흔한
발견된
##조선
???
##추는
##이자,
##박이
1980년대
상태였다.
##타마
차지하는
벙
집어넣
사건은
we
스와
##오스
전투기
퍼져
제작에
랜더
서포터
입주
말레이
이세
##거든
사자
외야
##ᆻ기에
낙선
부드러
##서울
##었는지
엔진을
유기
##용은
안으로
방향을
리치
결론
증가,
##부지
벽을
발동할
볼넷
SF
이걸로
원소
킬러
끓
##way
##리에게
##포스
원더
식량
물에
결심
##민을
되도록
가챠
##그램
오브제
##조합
만크
##텨
##85
##미사
작품이다.
클라우
2005
투명
제트
만화가
##련의
##초의
##일로
자체도
쿠데
우에
##준의
우라
##니아의
##ᆮ는
스트라이크
홋
교토
전라남도
##,000원
##사기
출범
##였으며
않다는
##법원
헬리
사가
와카
화력을
##되었으나,
AKB
##화되었다.
밤에
콤
##호환
##갑을
유망
보호막
두들겨
트루
##쉽
작년
드럼
##az
##수이다.
##코스트
125
일부가
이르는
지나면
오버워치
가기
마린
##님은
일렉
불사
클릭
핑크
##신,
수익
프리미엄
73
박지
샤를
##적.
##-14
##67
바이러
##대사
##티즌
보냈다.
New
자이언츠
능력치가
토큰
정상적인
학력
##곡은
기종
배급
아들을
보건
솔직
##/20
실은
##권에서는
브라운
진격
단위
##이었는데,
##골드
악당
3.5
##신도
구역
출루
연습생
구미
##서와
##ason
식민지
유재
One
LP
상황은
얽
마이크
기술로
사이코
스코틀
주제
대표팀
10대
##ary
빛이
##분,
여기서는
복수를
딜레이
정발
up
어벤
##식,
쫓겨
##브레
문제에
생길
찍는
##메리카
##즈로
World
갖춰
오니
배려
##석에서
한방에
71
가진다.
기기
육상
쪽에
'오
본격적인
오크
실질적으로
닉네이
안정적인
##er.
일본은
여성이
충분한
일어날
##운드를
쌓아
##과대학
DC
날이
대표하는
위치가
##바는
계열의
##a,
##내며
들어갔다.
거론
솜
리스
확장팩
On
##하지도
진행하는
##목이
제1차
도착한
발매일
팔아
##시험
##저런
폐기
주된
##론가
5위
지향
##저를
함부로
오스만
연령
소문이
##카르
전쟁의
끌어올
뚫고
엎
부작
지경
전원이
거두었다.
##표가
이어져
이집트
여섯
되어있
거둬
간호
##번과
매출
복제
##AY
성적이
3명
나노
동경
하려고
증가합니다.
담은
야간
기도
심사
중후반
싶다고
##act
1호
##iki
##4년에
주의해야
해산
감싸
40%
히가시
뜬금없이
스캔
##1의
못해서
##후가
사고가
##강을
개인의
호불
전력을
##터널
##밖
건네
##연맹
집합
따지면
사실이다.
페스티
조리
##어스
국정
독재
폭탄을
주택
서로의
##궐
##mer
사용시
교장
아들인
초콜
경북
네트워크
Gam
저는
유래는
싱가
주관
##6년에
비주얼
슈퍼로봇
시크
학습
##관련
차지하고
2명
##-J
##달이
선임
마루
##ai
##티가
3부
버텨
##카운
일방적으로
안의
##ᆻ다!
상태이다.
반해
앞의
##?"라고
대해서도
아니기
폭파
모티브는
젖
별도로
겹쳐
인도네시아
175
대동
쉴드
CS
최근에
가벼운
느끼는
##무의
##경기에
감독으로
바이올
Part
진정
묻자
부동
+3
짱
내각
D.
##600
일본에서는
##노트
철학
누군가
오다
##ife
무시무시한
추억
나중에는
그녀에게
것이며,
ne
##양함
모습에
정도를
문제.
상점
낸다.
여기저
너무나도
81
전날
매주
여의
##태를
디자인이
##교가
##번으로
##차의
##즈에서
제8
네티즌
##떼
먹으면
막대한
반응은
소중한
우호
##퉁
남는
도망가
3점
##부인
메모리
투척
국경
넘어가는
NE
운동을
##누스
##건설
인터뷰를
토르
막강
##마냥
해양
##것.
낚시
인연
풋
##베리
있기도
##류는
유입
넘치는
##늄
##회복
CH
##영상
심의
##하길
##로마
포스터
##자라고
배가
이른바
남을
서로를
##보의
거다.
##자이
##바다
10만
1사
규모가
베테
상태의
JT
천황
없었고
##ade
##히게
오락
말로는
갖게
리처
미루
모집
움직임을
##에른
소장
##ven
##-09
실현
퍼즐
##커는
슬롯
바른
선수들의
멀어
IN
##시스테
사이클
못했던
##처리
PR
충청남도
##았기
나누어
##7년에
우익
##스테이지
##석으로
기대를
##시대의
##ᆯ스
##베르크
상세
올드
머무
##시켜서
그르
사진이
재회
##행정
방탄
##숴
##통합
설정상
온천
왜곡
공방
##적으로도
좋아한다.
사퇴
드라이브
##앨
##br
의식을
도와주
시즌2
오디
데미지는
어쩌면
##터,
플레
0.3
##층이
##CG
##들에서
충실
케이블
##UP
나오게
##미노
##감과
옆에서
FW
정화
유적
사업을
##49
##봐도
위혀
황제의
고속도로
리얼
8,
진주
양자
서바이
세번째
작화
친일
쓸만한
서클
오스트레이
##놓는
논리
##소리를
##사에게
학생회
연봉
가요
##온은
달하는
끝나는
일시적으로
부유
스나이
벽에
플러
도적
입장에선
다이어
이웃
독점
자금
닛
주연으로
올라간다.
'어
##벅
##스피
##ank
##i-
##gin
버서
호수
##해줄
##링이
전락
비가
통칭
##타점
동해
##팀에
달리는
##배치
##되어,
집권
##자료
선택한
끊어
벨기에
방영된
할수
베타
##본을
개를
부르고
##고리
##쉐
설명을
유혹
UP
##lect
##줘서
DE
장관
##겠지
경력
4인
주니어
훔쳐
무리가
춤을
판결
지리
##당,
##능한
작품에
##시청
둘다
우측
재직
게이지
##사스
##티는
##3년에
##ork
튕겨
##면서,
누구도
그곳에서
하늘을
##관계를
6개
이마
스킬.
느리
동일하게
학교에서
재건
필요는
긴장
AFC
만들어낸
적용된다.
규모의
정책을
배달
아이디
자유한국
역사가
##켓을
##aby
##보호
##뱃
이곳에
기분이
##책으로
이오
튼튼
노가
갖는
##리칸
간에
싶을
조기
3의
아군이
##되므로
도박
차량이
평가는
호의
##p://
##음으로
사단
노무
##조,
받으면
조우
##~10
질투
헨리
##딜이
기술은
표정을
순수한
가능하게
시,
BR
##그레
92
아케
올해의
##평을
##색은
기생
젤
##국,
다음은
##처를
지도자
마라
성향이
얀
평일
키우
상대방의
제노
그대
조언
되어있다.
##티의
확산
##oll
팬덤
등장할
##흉
##는지는
싶지
포스트시즌
##해져서
했다
단종
##볼을
범용
##민주주의
##야!
##공으로
##라미
한창
귀찮
##w.
스쿨
##곡의
에미
##득점
##룡의
도시를
콘스탄
##CC
어머니는
6개월
##본부
PP
미노
날뛰
##'이다.
주목을
만만
##선생
청주
바꾸는
마신
그중
천천
초기에
##남이
영혼을
일대
##박한
오디션
Mar
한방
흑인
체중
##oon
##버스터미널
##루이
북한의
##킷
비율이
무기의
##5년에
팬더
##몬의
번의
율
GB
사신
##ps://
드문
사정거리
##온을
##수인
주역
산탄
부산광역시
##겠다
이누
맞춘
패밀리
내용의
끊임없이
이순
시작할
모두를
부르며
기다려
##질은
기다리고
막고
품고
##hen
1일에
살아있는
상대할
##도리
##저항
##께서
전장
##내에서
의미하는
##국과
##클래
싶으면
써먹
##카미
참여하였다.
내성
##데렐라
##-08
발표한
##구청
합동
소프트웨어
하시
보이기도
이동속도
설이
배트맨
복원
무술
통계
크레이
트럭
AN
수습
차량을
배차간
지역이
좌절
시가
##레옹
여자가
주의할
트레일러
모드를
간간히
맞붙
지연
##AA
손쉬
경우를
지지를
##CE
설명은
기억이
짜증
걸린다.
전쟁에서
연쇄
배드
청소
뉘
##몹
##미한
있어,
소니
##감에
##음은
세웠다.
##해주고
NH
상한
이유도
선사
##파와
##초로
##비행
크라이
더불어민주당
##대문
최적
퇴각
##본다.
오염
시작된다.
볼트
지정되었다.
코인
짐작
##-07
마치고
승리로
##렐
불태
5분
인격
쓰게
##프라이
첫째
권력을
시게
##AK
사랑의
사천
김준
논쟁
찾아온
배제
##나에게
출신으로
틈을
도시의
바이에른
왈
중첩
커맨드
분당
패배를
완공
도망치
##만으로도
되므로
회사의
##자유
언젠가
##집에
소속으로
만주
영주
##트랙
전송
지키고
##생활을
머신
김해
형태가
신경을
되어버렸다.
##나에
90년대
권유
##:0으로
##께끼
지원하는
일어났다.
대변
##게이머
스리
살아남은
불량
##나베
딸을
믿을
1경기
are
뿐.
가담
수류탄
읽어
##퍼가
##거래
6년
상태이상
##션의
유용한
장신
##꿈
##초를
이런저런
찾아볼
입대
손꼽
##인들에게
깨어나
피의
강경
##와이
##ox
차이로
반란을
등도
두꺼
스타리그
다큐
게이머
후보가
##하여야
모은
##88
구간은
##들어가
유성
##화하는
##터와
##란드의
##과가
보스턴
것과는
결투
##침을
##ᆯ리는
##계획
사망한다.
##첸
히든
브래
지고
아니지만,
경험을
##았다
폭행
1:
삭
성과를
개성
##워즈
발로
최저
따르는
커서
포획
던지는
도움
용어
바둑
캠프
초등
##형과
분산
정해진
##올림픽
투사
Fe
모습.
2편
명문
설령
흙
모델은
##면으로
싱크로
손이
기록하였다.
kg
##경기를
공격해
턱
모자라
##매가
'마
얼티
가능하며,
사고로
LIVE
도쿠
체제
거라
해명
불행
원시
뿌리
관계는
##스포츠
수석
목적을
##법인
낙하
축소
포함된
1장을
나라를
시리즈가
##ᆯ레스
뜻으로
퇴장
워크래프트
상징하는
조회
83
##버를
##했으니
하이라
당한다.
교차
매장
갇혀
나폴레옹
마을을
다닌다.
전남
하반
##핏
다이아몬드
입증
부르기도
##나기
되었는데,
##버튼
##.24
창립
등극
매달
##2년에
콰
##댄
이번엔
순으로
##이었지만,
한가
##뼈
##0년에
힙합
정신이
자전거
##혹한
전쟁에
##복지
것이기
정류장
##령으로
듣는다.
얇
내리는
+5
##문제
않았기
속해
츠바
OS
설명이
5번
슬레이
갚
94
피부
##파에
단행본
싸운
즐기는
##메라
안심
진행된
그렇고
##미네이
올리고
벌인
이곳에서
잡아먹
천천히
시키는
약점을
##결승
경직
위성
꽉
우위를
시마
##넷을
시종
##환으로
봤을
반지
발레
##행위
지구의
공헌
체험
##00년
##야와
##분으로
##9년에
##킹을
램
우울
의미는
뿐,
##ᆻ음에도
플래시
클린
##네를
##앵
##당하게
브라이언
##블리
이전부터
##작의
말하자
아버지와
대전차
##포는
##="
##스:
##보지
짐승
약화
북아
국제공항
취미
랑
##으려는
제작진
신속
1화
생방송
배터리
대접
##마로
20세기
키라
##재의
엘리베이
##갱
패널티
코스튜
무서워
프레임
##기준
개척
많을
전망
충족
##iver
있기는
실전
그러니
케빈
##생명
그외
포수
##목록
로맨
##들이나
증오
##되어야
파고
트라
엔지
##er,
때문이었다.
리타이어
어렵지
콘솔
사로잡
1의
주류
일관
상황이었다.
##클리
길고
편에서
##있었다.
거북
실수를
어나
##실과
특성이
긍정적인
어드벤처
중장
사이에서는
##동맹
##반에
##딜을
##~7
토오
따라가
닌텐도
수요가
##너를
Up
거지
휴식
##칭은
위주의
10.
신데렐라
연인
요즈
감정이
##골이
믿는
Mk
소규모
역의
##지며,
이병
##ah
##금으로
대사는
바니
끼고
##-P
##뽀
일자
수수께끼
하라
##막지
##.S
동행
로즈
토우
가공
##ᆷ으로서
쓸만
##이었을
이루어졌다.
일기
켈
##바퀴
보좌
##바시
##청을
넘기
지역으로
아레나
##태가
남기
##"에
어색
쿨타임이
##들로부터
부숴
그러므로
Ad
##동에서
##-02
어머니의
##방울
##게이트
##링크
가져다
이대
##리라
시체를
나오며
신선
도루
lv
184
어울리는
도마
##자책
마찬가지.
대마
하마
이외에
유엔
이번에도
##올라
아래와
곱
##시아의
초에
##탐정
기술의
백인
점유
강릉
화산
포함해
최종적으로
##히코
스틸
난이도를
허무
타이틀을
I'm
기갑
##A의
페미니
신용
김일
##uck
10,
##여행
유료
##분은
김용
선수의
##igh
건물이
##ᆷ이라고
웃는
사촌
##ᆺ빛
##밀한
무거운
오기
##백과
싸움에서
하쿠
##담의
##시키며
리그에서
나뉜다.
3:
마음의
주위
##호에
##cc
수색
붙인
아니더라도
10초
기본으로
측은
##ᆺ지
무대를
끝나면
일행은
싼
##작은
스탈
히메
can
쇼핑
깔아
캐릭터들이
디자이
##오지
##공화
게이트
신형
##때마다
볼수
6.
섬의
주면
##디스
글이
##마귀
특징을
'사
##인지,
표현을
산맥
봉쇄
제안을
있겠다.
침투
위안
승진
때와
공업
항목을
움직이
가리킨다.
올림
BB
치킨
놓여
##땐
정체가
##클레
##위대
여타
##천년
입문
##쿤
##ung
어마어마한
칩
##입구
이모
하나다.
신사
3층
악마의
실패한
Fate
회색
고지
후반부에
학교를
##되었다가
##ᆺ불
테니
교류
##세,
그리고,
얼굴에
도시철도
공수
않으므로
고통을
체감
자국
장례
학부
앤드
무지막지
임진
##노와
있다!
거기다가
##숲
적당한
바뀌는
버리
##ical
##병은
철권
##해온
2주
##세기에
##저리
있었으며
Day
##orn
##.0%
운송
##}}
##te
모에
포인트를
특정한
##버리면
누군가가
생각한다.
했으며
##69
차량은
내렸다.
부자
왕복
베테랑
일본이
제공한다.
할로
지붕
고무
부분이다.
맡겨
##딴
##들끼리
후회
사서
인게임
##저는
많은데,
셀레
전투의
시상식
발견한
수동
경악
파밍
성격은
어지간한
주축
미국은
900
수단
매드
##성한
##IV
##시간에
##히메
부부
멈춰
##가드
##츠와
##정하고
소용
긁
공무원
19세기
챔피언스리그
루나
##지는데
호시
빠르고
열고
##체에서
호남
##로이
정반
잉여
전체에
##두면
영어로
피해자
##딕
##/s
획득할
요리를
all
냈다.
호불호가
##돈의
너머
##건지
단백
##되었지만,
##멜
혐의로
발키
감수
없다며
##리.
do
플레이어에게
자존
##-06
맨체스터
이해할
##삐
정권
궤도
뚜려
움직일
일곱
메달
마음대로
'미
젊
대가
쵸
##으니까
압축
구독
게임이다.
최연
디즈니
So
적게
##콤보
##남의
아저씨
##나.
결정적으로
al
##ich
관료
먹는다.
9,
히비
DD
오우
단어를
ML
비극
183
강간
##형에
##ype
상주
##드래곤
메구
특징이
다운로드
##ᆫ은
##러브
후방
##돌을
파멸
드로우
##나미
티켓
운영하고
왜냐하면
##훈의
##릴라
것들이
등번호
##줄이
조별리그
##조와
영향력을
##1년에
우루
요소를
##녀가
디자인을
아스카
##철이
##뻐
규격
노린
정도면
배운
##애를
스즈키
영화는
경호
스티브
축복
철저히
극대
폼
양손
말.
##.O
마을의
전향
성적은
사람과
##플렉
##시스코
본명
##풍을
##/12
비용이
물러나
##희,
##y,
레벨을
잦은
질러
만들어졌다.
적시
프로리그
후일
알려지지
미국이
펠리
죄를
명명
DPS
En
일하는
상하
##ARD
성우:
뽑는
1호선
놀라운
우르
초당
##궈
지켜보
##했듯
##때도
##anc
의문을
막혀
끝났다.
공산주의
오이
드물게
오면
우회
무덤
##했음에도
보편
제목은
미나미
돼지
썬더
미묘
국도
예산
싶다.
페스티벌
손해
활동하는
하려
##ero
GO
프랜
##ᆫ을
부천
동급
2003
싸우게
원주민
개봉한
영양
결혼을
##병에
115
##IR
인식이
##힘
설치된
쓰러트
##이었으며,
##urn
인가
흰색
단위로
##당으로
삼진
미국과
세팅
가량
나이는
생각은
대가로
초상
세계대전
1,000
##하르
아비
극도로
빌런
와이번
해머
도덕
##일지도
##젼
##한데
##-01
하급
서울대학교
탕
##차게
실패했다.
시뮬
명칭이
##니코
태클
##피해
듣게
올라갈
지낸
##타리
2010년대
올라왔다.
공간을
360
프로게이머
->
뮌헨
드러난다.
반짝
##int
손쉽게
소문
##교사
죽으면
돌아왔다.
그렇다.
##very
쓰던
에어로
##ence
##쿼터
##라에게
프로듀스
노선은
잊지
시즌이
##도도
닦
받기도
##히면
##초,
분노를
김유
쯤
##다"며
체인지
이때는
주행
##루미
시모
##보우
멤버가
사라지고
노스
문제의
Windows
토리
분할
##우며
오렌
할인
진행되었다.
멤버로
순환
덱에서
한계가
죽었다.
산하
고블린
##파워
##ᆺ테
1.3
##/6
걸그룹
껍
##'이라
##미르
히틀러
것입니다.
꼬리
##중국
깨끄
담배
##케이션
벌어지는
조치
상무
멤버들의
##하르트
마오
살던
##폰을
묻는
블리자
1패
위상
법무
##음의
돌고
모순
내부의
##초가
100만
유학
룩
약점이
##내지
리틀
2위를
더해
##퍼를
한번도
숫자가
특이하게도
2사
엄연히
올바
##있지
프로레
여부
JTBC
##웰
큐브
93
##카라
대다수
'가
##재는
##네마
1st
##ise
합리
가능하며
쳐들어
스포일러
엔드
진행된다.
밀어내
##.28
##하였다고
##줄을
##뱅크
기사단
Station
##거라고
온다.
##왔던
일으키는
발음이
진에
기묘한
이가
던진
인지도가
##자로서
점에
##파,
피로
유럽의
당초
찔러
연산
도깨
잠실
물어보
상식
##병,
##-KR
김포
이탈리아의
밑에서
##쉬를
##스.
방식의
부모님
경기에서는
이틀
출혈
2nd
승부를
##자들과
오가
##달라
##속에서
##뻔
##m,
##카페
특급
라스
##브레이
DS
##병과
영향이
{{{#
보구
신부
##OO
##포인
반도
프리즈
##투수
##족은
마드리드
BE
##ock
답답
##였기에
불쌍
비서
##.26
##-05
레이블
평행
전,
##노스케
##생으로
데려가
것이고
시사
비롯해
보상으로
NBA
유니크
박성
사우스
내부에
마을에
'나
노래가
되려
좌측
국무
##십시오.
주거
절친
'자
##wiki
역이다.
앓
지속적인
잡으면
방어력을
##~!
미키
토트
대부분을
끔살
토니
진행되는
이대로
많은데
찍고
##까봐
적으로
말과
편하게
##ep
징역
비난을
기부
셔틀
##들에게도
무난하게
##장이다.
DP
##MC
때에도
##플로
인권
양이
잠수함
##ᆷ임
확정되었다.
뜨거운
##우면
김승
클러
Oh
##젤리
##바야시
##기보다는
##훼
그거
어그로를
디시
##시키지
##락이
그레이트
##"이
중거리
고의
Ph
##ii
##장비
##신에
랜드
2승
아이들을
##아나
##쵸
총리
아니라서
항공모
##700
##맨을
OVA
##었다면
목적은
##?!
##대체
국가가
전적
2집
정교
차원에서
##년이
##변을
##계와
BPM
이현
거라는
군의
Sw
일요일
내에서는
##환은
##강화
##열의
이어진다.
다가가
IT
##42
뉴질
옵션이
1등
##노미야
##스트는
CP
시점에서는
##지만.
원작에서는
##량과
시작해
연간
##더는
필요로
##amp;
연결되어
##타에
치즈
국적
##+0
스스로를
최상위
진급
##박물
이해가
굴러
##성에서
에피소드에서
##있다는
하단
되게
바나
미션을
3~4
##되지는
발탁
##작전
마친
누구나
선보였다.
음모
야마토
모스크바
롤드
##.A
드러났다.
슈퍼로봇대전
##78
##0년대에
사사
##ens
과거를
업무를
부패
소련의
섀도우
##ᆨ의
오죽
자료를
여전
보내고
조건으로
##쭉
##으라고
종결
영웅이
##추가
셈이
자원을
from
사용해서
인테
중력
황제가
존중
KOF
곳곳에
그해
##건은
손님
적군
조차
비율
되었으며
##베트
108
표면
전통적인
질문을
세라
데빌
일커
아르헨티나
##고와
평상
두드러
정상적으로
비비
작품으로
찾고
납득
##량에
##SS
##시기
열매
거인
극단적인
패배한
##ign
서포트
루이스
128
##시간을
##"으로
멍청
잊혀
실내
즐길
인공지능
묻혀
굉장한
##는데도
Do
love
##쑤
안경
뽑을
스쿼
##활동을
야수
지나가는
##영과
잃어버
방식은
##스파
##.1%
학생들은
무엇이
모습과
멋대로
##ㅋㅋ
방어구
역습
##조각
조합을
모습이다.
대통령은
구축함
곡으로
가치를
##-JP
바ᄈ
원조
##질적인
본토
##장도
병력이
##이후
A.
이름도
생체
하우스
이럴
고소
##공은
김수
그러면서
팔레
슬라
토너먼트
가져온
끔찍한
##니시
스트리머
추측이
수상한
테이블
1973년
시청률
토요일
추측된다.
의지를
이경
평점
벌이는
잃어버린
아직까지
##하,
##민과
두개
명시
있었기에
전격
신발
아쉬워
##타인
김지
않는다면
참모
##ru
성공적으로
편하다.
백업
고르
재미있는
그후
조사를
밀리는
##플라
##사리
이케
놈이
사항은
에로
명칭을
##이한
Con
발발
죄책
##근이
이상하게
##래의
목표를
사다
조카
##프란
주문을
##차고
##퍼의
강도
원숭
면모를
##ose
하이라이트
##토스
바뀌어
끼워
##펄
남지
스타디움
나뉘어
달의
자칭
일단은
피하기
##해야만
##피안타
칼로
탐사
##미.
##들고
판정을
##우스가
대회에
To
##원.
##석과
반전
##'고
떠났다.
소속사
태워
##저우
전동차
적절히
##.com/
주소
시카고
따르
예시
초청
엑시즈
메이지
추천한다.
부끄러
발생했다.
개장
##삼진
권한
이루는
버틸
실제로도
##된다
은폐
변한
##화에선
##들까지
##형태
총선
스핀
중지
##무늬
행동이
침몰
##즈카
##졌는데,
##."라고
해치
##디에
##안전
##대교
내용이다.
트리거
싶다는
##제일
##니에
유비
##멤버
시에는
리오
##다'라고
2에서
유니버
##중이
캐릭
이후로도
##ᆺ수
목적이
다시금
무기.
조언을
변호사
5대
어려울
사실에
열혈
ex
##리기도
##뿔
카리스
부친
이태
선수들을
##빼
노력을
##MB
돌아갈
개교
영화가
것인데,
##리엘
통째로
니가
##모습
했기
나이로
날,
##하늘
인상을
여러번
꼬마
참가한
감상
이기고
소음
사와
##문,
'고
##스와의
공무
##렉션
##두로
한국시리즈
여기에서
at
장성
179
##뮤직
##~1
계정
곤충
##출을
연출이
라며
속성이
수감
쓸모
남동생
sp
as
맞는다.
감각
밖에서
##던지
사이즈
지혜
##문과
##방은
##막이
공중에서
게임으로
기믹
들지
데모
포함하여
쯔
##uk
사이를
문이
올라간
휠
하루에
급격히
##자이자
버전으로
##자였던
동점
##특별자치
##오기
##느니
씹
사람이다.
예쁘
##버드
##전까지
1초
##채로
##!"라고
##물과
주어진
진실
##캔
민주주의
누나
않겠
실용
##제도
3기
##스미
##창이
##.22
위와
향후
##ans
쪽에서
##지는데,
불리한
패턴은
공격력의
하인
이야기.
시작하여
아스날
일어난다.
##mp
##프에
DNA
##는게
측의
주제가
묘하게
##리히
그들
선회
퍼스트
음반이다.
코노
뭐가
TVA
뿌려
기적
##편으로
키요
유튜버
USB
어렵게
격려
편은
없었기
카네
##졌기
오를
모터
시리즈는
##보에
세계로
약속을
##우스는
언급된다.
전라북도
##국인
미래의
##습니다!
색이
역사적
입지
같다는
금메달
얘기가
화재
카테
마산
남동
멘트
##장치
##포,
쫒
시작하면
##ᆮ고
##리던
죽이려
분노한
좀더
식사
조선의
참여했다.
떠난다.
나왔을
비공식
선진
승인
##활동
선발로
고등학생
무효화
##니즈
##군에서
##콰
##테니
##두를
이끌어
인물은
##훈,
일본인
##꼴
펑
##ey
어설
몰살
사무라이
공인
있거나
아이들이
##다"라는
매각
##채널
1978년
방을
##쪽이
포도
섞여
##다르
힘의
대수
나타났다.
턴에
##제이다.
##독한
가능할
this
많지만
##하루
별명을
간단하게
억울
III
4번째
노조
##.29
맞춰서
##유닛
91
178
##아도
발생할
이름에
방법도
##견을
투쟁
##부키
아름다
##글라
신중
벨라
##앤제
고장
세레
표지
남게
플랜
##됨에
총합
특전
대면
한수
법을
아무튼
전반적인
내셔널
##로이드
안겨
유산
편이지만
##훈은
유용하다.
착한
고립
구간을
스매
##oug
0.4
왼손
##버려서
발매한
기록하고
방송에
##대기
##요."
혼합
모양이
예수
마찰
변해
ERA
피카
##ash
##해하는
이라크
묘사된다.
해에
얹
##략이
시대를
스크래
1%
어ᄊ
##상가
##린과
딸이
붙는
경찰이
##우치
##였다
목걸이
검술
키를
좌익
맥스
높을
##레인지
앨범을
듀어
힘입어
350
넘쳐
##/8
버전의
기쁘
##IX
보스가
이브
들어가지
마일
##겸
시골
##에게만
보드
팀으로
타이밍에
##oh
총독
에피소드가
이원
##usic
##htt
이기는
무난한
주술
지방의
##지방선거
소집
##.27
##하듯
##시내
약을
저작권
발각
캐치
Super
##네,
쫄
에메
팀에서
##크스
카지
##념을
##현과
##록을
자체에
게임.
치료를
중고
##혁명
꾀
##책이
##인데다가
생김
젤리
없습니다.
경력이
만능
##공개
미성
날카로운
이빨
짓는
떨어질
##나르
한데,
##문에서
메이드
##어에서
##칭을
구동
실존
승차
##몬이
모드로
활동이
일리
이른다.
애완
도망쳐
트위치
학과
산타
탐색
변태
잘하는
이그
약혼
바라는
이름이다.
##받게
라이언
1.6
##병기
##96
종사
##00만
확인되었다.
높아서
##지대
아니게
광산
지원한다.
10회
##론과
시바
무자
떨어졌다.
##형인
단독으로
블로
##생물
흥미
소라
구리
##거라
##티노
카카오
##철의
않으니
##후보
등재
아닌데
##탄은
국내에서
신나게
흐르는
대피
메이저리그
EN
##풍의
##IL
##기념
프로그램이
자를
엄밀히
라스트
헬메
배경이
무대에
재배
한국은
난사
이전까지
안습한
많고,
대다수의
공이
때만
MG
일찌
보낼
##한,
##마르
점수가
라이온즈
+4
가성
##액션
Dream
오메가
여우
##츠,
암호
심각하게
오케
랄
못했고,
뜬다.
롤드컵
인해서
##레를
현대의
결국은
분홍
히로시마
없으나
##념으로
##상승
반면에
공부를
츄
##년간
##천을
##항을
진지하게
아스트
자제
##오르
##위와
##.30
##열차
##흘
공격력은
통틀어
로스앤제
고개를
렉
##유는
같은데
비전
소중
탄핵
무거
밝혀진다.
거야.
깊이
주니
높여
##전에서도
##체제
스탠드
방사능
주인이
1레벨
아처
마피아
1974년
1972년
디스플레이
존재로
전략을
고증
없어도
상태다.
재학
탈취
##만화
있다며
##터에
##검사
빠르다.
검토
언데드
내에서도
두는
법칙
없었다고
ON
중국에서
레이스
용산
##개혁
네크로
Sch
두번
극중
있어서는
복사
태양의
2만
학교의
해준
##마니아
##다보면
##들여
##년도
##동시지방선거
##령은
마틴
손상
의사를
친애
외곽
##켈
여담으로,
##97
뜯어
이별
피지컬
특화
##골로
지점
엽
3턴
##레가
##오면
세월호
애쉬
터진
의회
이루고
##환,
##았지만,
고고
옴
뜨는
##탑을
정규시즌
기미
##분한
검은색
허가
코스프레
되어야
감탄
AKB48
##.2%
##아우
듣기
에이지
화폐
##피는
짧게
모인
주교
앞선
##린다는
금강
돌아간다.
style
덧붙여
##연,
##족으로
비판이
아닐까
파란색
##강점
중량
##연은
플랫폼
선포
단발
바라보
찬성
보스를
루비
대결을
##당초
피닉스
챌린지
때를
##파괴
멤버들
앨런
##화점
##그를
사용되고
따라서는
잎
에도
속도는
맡는
##다와
드래곤볼
주장한다.
3분
##랄한
인쇄
3경기
머물러
##쨩
##용,
##계,
상관없
2호
몸으로
##소리가
학생이
빙의
전국동시지방선거
네임드
##스태
##츠카
##딩을
##라고.
휩쓸
엔젤
토대로
##있어서
그렇기
##렸지만
마땅
할지
##-D
됩니다.
승자
섭취
##갤러
##쾌한
유언
TR
##보인다.
불타
유지하는
부속
##천사
포탈
HP가
##ode
##www.
RA
공원
미소
노바
정원
음료
형편
불타는
##ild
별개의
##ition
생김새
똑같다.
2장
##아트
현재도
무작위
##스토리
##드라마
청나라
개념을
상을
"오
##ail
##감은
알려주
EXP
한꺼
안정적으로
##정당
취업
않을까
태국
##.13
##-13
##이센
갈색
인사를
팔라
상태이
출신이다.
바이러스
우스
끼어
중화인민공화국
지구를
있겠
##두의
학생들의
받아야
무쌍
생각하지
준결승
곁에
##쓴
Pl
급속
##공에
레인저
##례로
뿐더러
저글
##리언
실려
과정이
구름
IC
단어가
인벤
펫
최우수
"너
##app
능가
##햄
##시까지
##미에게
팬텀
##따라
다루고
중견
아랫
미궁
##불가
1단계
대의
##망의
까는
알지
순서대로
여기저기
라인을
Vol
뒤의
능력도
##제작
압권
게이지가
병기
##린,
조금이라도
##세와
우치
장착한
특징은
##아머
##맨은
##ye
소재지
안되
승률
##말이
1.4
no
아마추어
피어
##히토
가져와
##음과
좌석
프린세스
육체
##'이란
##ᆸ으로
저주를
2001
필드에
##적이지
새누리당
보자.
2단계
12.
빠지는
후쿠오카
##카드를
하여금
##ᆯ이나
시합
1975년
치고는
당대
성향을
찾아내
스코틀랜드
다케
##뚫
남아있다.
받았다고
뻥
한꺼번에
##베리아
IM
중소
찰스
저렇게
##사격
로렌
업체
Or
여럿
ld
부대를
아마존
''
##/7
쓰러진
흡혈귀
Girl
아리아
##대신
##수리
소수의
행운
##거의
근처의
든다.
존재.
스컬
써도
백제
실린
Season
주무
##ᆸ,
적들이
##리타
나간다.
5성
되었던
##고기
수상했다.
##ari
220
전인
멘붕
준수
없어진
꺾고
3개월
##필이면
실력은
페이즈
주인공.
대상의
##싸움
##혼의
이천
일조
누르고
필립
성의
ldms
시작해서
##작인
우두
포로
열대
##훈을
미사일을
##ier
제라
##DP
##했을때
묶어
주인공과
박진
도서관
##급은
원래의
저렴한
공격의
월간
모나
재능을
본작의
##쿠의
모양으로
살인사건
선박
침착
##구장
##뿐이다.
##코스
##콕
##소드
##ᆯ리언
##/등장
방위
조합이
이명박
보상을
덤벼
숨을
의정부
매그
제치고
##MAX
운영을
반동
표현이
아자
해보
벌써
핀란드
Night
##코드
시점이
극한
병과
무엇보다도
##안으로
호러
##지거나
##보내
통솔
성직
달라진다.
초과
'신
나눈
여태
오고
남매
##풍이
개명
기껏
##빨리
##루션
깨닫고
##.8%
인천광역시
##디와
##-M
ldmsys
8개
Qu
재발
성공을
##하고도
섹
위험이
않다고
이처럼
Col
마카
설립된
특히,
동맹을
황태
##아닌
##up
##면은
##테크
##하였던
친척
##액을
광명
전투력
"우
##렇
이진
하필이면
그려져
깐
##전도
##++
5초
##버의
불려
역이
중부
Ed
##스페
##구조
피규
##쿠가
부위
세르비아
최악
시크릿
##커로
북서
지위를
사용을
240
엔딩을
##+2
##돌아
그렇기에
경연
불만이
외형
##매니아
오스트레일리아
##피의
Fl
피난
애용
비행기
모델링
무엇을
까다로운
실사
##택이
1976년
시외
##다녀
확립
신생
가능하다는
일제강점
##.7%
카더라
포착
보라색
##던가,
##이거나
어그로
##좋게
아가씨
##!?
##총을
좋다는
껴
남자의
##열로
덱을
##".
1970년대
오노
빌보드
특화된
직선
위해선
드러난
##해에
저하
##무로
타겟
PV
신동
182
##열에
종류가
깔끔하게
##천군
활용할
쓰기도
바람의
들어,
어딘
##41
##,0
있음에도
오르는
181
현상을
##론,
##시키고,
##:1로
##스퍼
일정한
발명
##종으로
아사히
선을
차지한
뻔한
이동할
크로아
오피
근처에서
거리에
FM
김주
AV
싸우고
CM
메트로
안돼
적고
되니
재앙
통하지
악화
##.E
페르시아
##sc
일행과
##팀으로
BJ
다리가
토시
무료로
##무는
인간과
아유
플루
드루
드워
##빡
리처드
1971년
##배로
포장
놀이
##텐데
괜찮아
어째서인지
증가.
공간이
초인
점과
협회
미러
부담이
감옥에
병행
##론에
##심에
자책
WC
오른손
보험
##층을
##준,
##년의
##녀의
##플라이
슬퍼
충격적인
아포
##벳
##나도
##하기까지
##쿠스
뛰어들
##버가
##하겠
측면에서
페어
마쓰
찍을
배울
어머니를
동성애
과장
##값을
##코에게
##잭
공식적인
이소
폴리
갔다가
##중.
TS
LO
##자동
운행하는
2분
##품에
##량도
피해량이
무언가를
위해,
제목으로
입구
되었는데
다큐멘
##할만한
##넥
반대하는
스노우
##칙이
'S
어나더
EV
자율
솟
좋지만
상대로는
##등으로
직전까지
아울
김광
띄워
##관계가
왔
다닐
##족과
모두에게
봐서
Pre
아버지인
##아라
##분류
탐정
안고
##험은
##층에
##린다
not
7.
서번트
테오
이벤트로
타이밍을
주제로
작품에서
##~9
전당
##닛
폭로
호흐
순간에
##항목
해소
##삼거리
상냥
선수들
거짓말을
굽
되지만,
땅볼
보여줄
Op
땡
아메리칸
##수에게
남한
프랭크
트릭
아니,
##떡
이쯤
고성능
##준은
유니콘
농담
속성을
높이는
원작과
##eth
##-R
##해야한다.
##졌는데
##가니
항공기
##덴의
##보컬
감동
열렸다.
##간을
##셨
이동하는
마운
##사들이
신을
공격속도
원로
##ron
처음이
마유
랜덤으로
불구하고,
커스텀
살게
되돌아
캐시
문제점
활동했다.
영원한
방식이다.
동북
개가
##쪽에서
##치고는
##뉴얼
경제적
##었어
##ject
사투
람
임명되었다.
3가지
제니
##레의
이쪽도
내주
##행성
공격적인
주인공에게
섞어
톨
보여주지
시험을
햄
높지
남양
레이싱
감이
플레이할
##질에
책이
공정
관리를
귀차
##환경
11.
##iel
대기시간
멤버들은
##미디어
##네요.
필라
##리스타
눈앞
##math
선정되었다.
##해볼
제10
차이나
La
무소속
강림
9시
##-03
모종의
아니며,
##뉴스
흡사
본래는
##실점을
가루
클론
들어가게
막강한
되돌리
##교도
유저들
##압을
##배의
##:45
자,
최정
기간이
##채를
##킬을
두루
##일과
벌어졌다.
##가인
##릭스
면허
##오게
않는다
##가게
##EL
토크
게르
겪은
##아니
145
안개
##글을
적힌
중국어
사이로
##건,
그렇다면
여론이
##등록
##견이
녀석이
전력이
주저
##됨.
펀치
열차가
##키스
벗겨
##로서,
조이
리볼
아픈
##그가
NO
##ody
##하자는
신비
Gre
미국에
그렇다
한양
도요
보이며,
아군을
##쓰는
그려진
'대
1세대
인간은
이야기도
부탁을
몸통
본능
상담
하스
표절
1963년
중심이
##FL
미정
중동
사망하였다.
##.9%
작아
발사한다.
굶
꿈꾸
사라지는
##갑이
할로윈
담고
타이탄
꽃이
##시민
격퇴
사용가능
가족을
래퍼
틀린
##우에게
모아서
릴
##림의
불참
것에서
조상
##겔
쏘아
웬만
영상에서
##었기에
줄여서
수급
중대
##더니,
결과,
##브는
경부
달성했다.
화살을
그란
얼어
우린
##잡을
##,#ffffff
##중을
평소에는
안토니
생명의
퀵
인조
여자를
이때부터
에드워드
OG
고대의
괴수
##"에서
미만
그리하여
##대고
이타
##화:
운명
악명
아나운서
이후부터
맵이
크리스티
관광객
팡
않습니다.
실험을
했다가
'무
##텍스
출연하였다.
울트라맨
많다는
강아
피스
##료가
##아르
아수
제9
인류의
##만큼의
##때까지
코로나
타이거즈
##주인공
일본군
##전선
타운
객관
하프
장본
##인드
탓인지
진출에
못지
정도만
믿지
출산
초고
##권도
엔터테인먼트
##포와
불어
경성
창의
즐기
##전부터
##.....
##직에
밀어붙
"S
이펙
아슬
후미
메카닉
섬에
##오피스
##물,
##멍이
##.6%
갖다
비판하는
##앨범
##적에
때문인
버릴
대시
30초
미소녀
피오
신한
몰고
##률로
1977년
유동
오게
##감으로
진행할
##희를
빅토리아
이어졌다.
##밴드
##하신
##-04
정리한
되었지만
하므로
데이트
올해
주입
미국으로
일본판
카게
칠레
같다
그도
치뤄
위어
집필
##드에게
밀고
돌아올
##전에는
절벽
##able
##재,
근로
##학년도
가사를
적용되는
1960년
워리어
모두의
와타나베
선수들은
3단계
착륙
전대
##의회
##be
관계없이
발견하고
##업에
1969년
들키
작품.
남학생
보자
북동
듣지
브라우
회사가
인피니티
파동
소환할
지식을
##소수
시작했고,
훼손
##요한
tv
##오자
등장은
고려하면
민폐
대해선
주변을
30년
창을
##데르
드립을
박아
어드밴
담겨
하나에
하나하나
##그의
##하다며
##AB
##도전
##리거나
불멸
##녀를
넉백
파편
재산
수술을
입힌다.
##vel
성과
마력을
##빅
종점행
사회의
##"은
안산
165
##DX
##eah
무언가
##집에서
슈트
#FF
길에
112
면도
스피릿
##"라며
개수
155
늘어났다.
빙결
마우스
시공
예약
입사
시작부터
1968년
##거가
GSL
##'라
바람.
양반
툭
명으로
##무스
##Lv
설명하는
뺘
##이크
낯
필요할
이끌었다.
##되지만,
Cr
20분
##패스
평소에
카사
감추
등장해
강호
사직
EZ
기숙사
믹스
눈동
상성
초중반
유닛은
보았다.
##우스를
유메
아니다
뤼
리베
Fr
"내가
##:15
원주
걸친
맺고
봇
걸즈
##aster
멸종
받으면서
건립
##==
입원
조치를
혼혈
2017-12
탁월
##는,
향하는
##o,
알렉스
이름만
Is
장미
캐릭터들의
덕분
이름과
모의
##각성
가브
의학
담당하고
의원이
필사
명은
능력치는
소속된
서울시
협상
##저래
말해서
##-T
평택
대부분이다.
##꿉
철저하게
##함,
카운트
##지사
IP
##가에서
기점행
고아
시즌에는
4명
강렬한
망명
가자
받았던
공감
##타워
177
모드가
트럼프
가령
터보
##게는
종로
##선수권
체코
검증
##나가와
챠
PK
마스
홋카이도
리스트
쓰이지
전담
리어
예전에는
독립운동
##뭐
미치는
학술
마케팅
##레오
터지는
검열
이름인
##풀이
과시
##니카
##간이
디자이너
##히기
경향
근거로
##내의
강민
김병
권한을
##두가
"지
신지
##GA
##리코
우즈
##3의
것들을
총선거
5천
즈음
##노,
원인은
청춘
##왕과
Gu
##그로
없기에
이윤
##어버린다.
버섯
우정
광범위
힘은
것이며
##맥스
기소
변한다.
업그레이드를
역은
탐지
장타
##미아
능력과
빌딩
##장에게
쓰이고
상황에서도
##두에
얻지
트레이너
표정
작가는
구형
공포의
웃음
입에
표정이
##inal
##버스가
비교해
CR
80%
유한
소원을
승무원
대상에게
타이틀곡
정신적
심해
급행
몇번
2턴
위치한다.
프랑크
작고
60%
밀리언
##62
##티에
분신
##mar
에디션
군수
먹이
펭
##험의
원래대로
옐로
##편.
트랜스포
##마도
##서스
제약
오류가
갱신
##측의
전작과
희망을
안드레
등장하며
엠블
하였고,
순천
##갸
##ᆻ다고.
##주자
귀엽
냉장
전임
시간대
부실
##모스
##주의적
쳐서
엇
여파로
문제도
영화에
츠키
##체이다.
##만도
나기
##우로
한국과
##ult
항해
선택을
둘이서
무용
각자의
글래
##런트
정도에
사정이
이도
군대가
병원에
당선되었다.
아니며
만나고
달러를
힘에
읽고
대구광역시
독보
의도적으로
개업
방송이
##딜러
레일
1.8
수신
모음
12월에
권리를
버스를
##다!!
블라디
신학
##슨,
우주의
##net
will
##도라
초기화
##투아
##물이다.
##웠다.
##락의
샘플
##련을
후쿠시마
AL
##슴
히라
##세계의
충청북도
문장
문제다.
그보다
벗어난
##oul
컴백
이쿠
발사하는
스파르
1.0
##.3%
따서
##시킵니다.
활약으로
##리츠
##쓰고
일어
잡힌
##원인
##800
##거는
계단
할때
##칭으로
팬이
늪
레슬링
노란색
간지
전성기
##모델
##DS
요금
소꿉
2개를
후보에
##프란시스코
고가
##류,
상대하기
1950년
##들한테
##뱀
##alk
수준은
일어나지
아레
완벽히
119
떡밥이
집계
샤오
비밀을
##미즈
간파
마을에서
궁극기
얄
주머니
##있으며
선의
도는
김윤
135
눈으로
조명
##토에게
##주의의
##엔터테인
민병
##사냥
##법과
##레븐
보강
##000000
3rd
##모와
##청이
##으려면
##해.
이용객
XX
연락을
조선민주주의
"저
선호하는
##C.
##리는데
국내에서는
한계를
상대하는
터트
##시나
출동
삼고
일반인
늘어난다.
##소.
##본이
뚱
##되었다
CE
##있다고
사랑에
있겠지만
전제
원수
텍사스
그리는
시킨
아,
생태
신경쓰지
눈의
단기
##팍
##자리를
##진흥
와중에도
Time
##하와
나들
과격
iOS
결의
Black
1점
##o.
##여야
청구
이행
맛을
생명을
lv.1
나란히
날린다.
벤치
##게,
문제점이
##주에서
Mag
##옷
지을
전두
##ould
대학생
설정은
5차
##연속
토마스
출신인
##목에
법적
모션이
##우드
조립
##ᆯ러스
통화
210
이이
진출을
##ᆺ는
쉴
##몬스터
호응
지루
일원으로
요미
##비시
성격으로
방법이다.
울프
##km2
##례가
##reak
6위
한강
우유
요격
뱃
보여주면서
추가된다.
경우.
##조한
사망.
프로이센
동아리
##마리를
##활약
구울
발표된
물의
##기자
연예인
이광
토미
뾰
##비용
힌
디렉
석유
거꾸
하면,
말레이시아
##ats
이래저래
이리저리
추가바람.
유연
보낸다.
무방하다.
코파
정글러
한나라당
떨어지고
##중심
고로
대회를
이세계
##노선
해당되는
##극장
됐
차체
고집
인챈
##.75
개발된
안전하게
무슬
들어보면
빠져나가
소스
후임
마에
교향
종영
##말에
##티오
목소리로
범위를
친구인
##그래도
경기력을
홍진
원형
폴아웃
츤
릭
다시는
후술할
비정상
##지지만
후인
후유
주인공으로
얌
2호선
##기병
하늘의
마물
포지션을
방에서
쿠르
##오면서
3월에
없었을
기술이다.
##운동장
노래는
구체적인
사람들과
상대방을
시범
##BL
나비
##랑은
'지
동서
것이나
용도
나라가
##나라는
중앙에
##류에
브론
##/L
##패턴
하긴
수천
도대체
유사하다.
사전에
전수
배역
CL
성폭
스타일의
청와대
Let
##모션
되어버린
어긋
보너스를
모델을
그룹의
##ib
NT
##.D
맵을
해군의
아쉽게도
공격력과
천문
임기
결승전에서
프로토스
성장을
남서
like
성격의
스바
관계에
첼시
꿈이
##진화
너도
맞추는
##으신
받았고,
탈환
수업을
상대방이
##처가
실패로
사악한
다비
다니엘
8.
재임
만큼,
않았지만,
있어서,
3.0
일각
게시판
##겠습니다.
남자는
##~200
MB
##이었으며
TOP
두뇌
박스오피스
4성
자체적으로
2%
미하
##ME
채보
보스로
##랩
직행
진행한다.
싶어서
스트로
짝사랑
##검은
철갑
하였으나
'기
공중에
결정을
맡았던
스텝
에레
만나서
샌프란시스코
주황
따위
명나라
비중을
득점을
테츠
10월에
ATK
##타르
##애니
마스코
오세
프라임
##출연
##작에
T1
주자
##43
내지는
##파라
대기업
##,5
알기
쪽을
차량의
판매하는
느끼게
시트
##제에서
제왕
달콤
##스테이션
##종,
앞으로도
이외에는
오퍼
##해방
많았던
MM
챔프
##졌다
##경과
무늬
고사
103
선봉
재단
인생을
##증으로
헝가리
노는
추리
"내
중구
포터
제국이
세계적으로
하느
마르크
##수용
한국판
소득
확신
-10
발견된다.
##주의자
가깝게
띄는
끝.
타치
##이라고.
##술이
펌프
캐릭터인
식당
##미래
플래티
한대
지내는
루머
가면을
##해줘
구로
##군요.
능력에
흉내
입장이
3초
소통
여기까지
케리
포함된다.
##CD
그렇듯
병역
상단
GK
so
선동
자유를
부분의
##코치
##뭉
승려
소환한다.
스트라이커
사용하며
유전자
보이기
대학원
style="
찾아서
시스템의
남의
딜이
논란을
시설이
여유가
통하는
##ull
##산화
진행했다.
섬광
박쥐
##사이어
모른다는
글자
다뤄
연구소
tr
부분도
##텔레
##05
엉뚱
2세트
성사
인정하고
##서버
앞세
타입의
##-G
유아
실패하고
협동
##청의
아르헨티
##바스
##무쌍
행복한
이상,
##파일
하수인
##사우루
##BM
간섭
조종하는
발견되었다.
라이트닝
##uc
##네와
목이
##순환
쫓아내
모빌
1967년
이의
##그마
##무지
EU
보르
방송국
##하였지만
여긴
명성을
휴스턴
하루카
뽑기
스칼
##ᆷ에도
시기가
나고야
먹지
인지도
콤비
승리한
초등학생
가히
1998
결과로
오죽하면
##ood
여부를
##제르
##세포
조직의
##해내
언급을
짠
간접적으로
##활이
제품을
##해버렸다.
단점은
학생들을
공대
소비에
고스
발급
말고도
올라오는
길이가
##전용
보이게
스페인의
추모
않았다면
시오
관리하는
영웅의
능력치를
스톡
나서는
김두
디자인은
클라이
빨간색
노말
##런스
세계가
짧아
1권
짓고
가나
요코하마
##혁이
재미를
디버프
예쁜
##와,
쳐다
배리어
##폴리스
분야에서
저승
거점
##파인
거꾸로
세컨
돌아간
##이든
문헌
##ings
경찰에
신하
화여
무시할
천하
역할은
무제한
##기:
한층
##필살
존재할
몰아넣
정석
차원의
소금
##안,
타카하시
내며
치열한
Your
지나친
동력
##리아가
하나같이
자신들을
입는다.
##도어
스네이
호흡
기지를
투기
쪽의
인정하지
-4
나오지만
키우는
##63
불과하다.
해변
노무현
얼마든지
가이드
서방
##/11
싸운다.
아쿠아
지우
자리가
##적도
오페라
지시를
독자적인
가라앉
밤의
구상
조던
재수
단수
시스템은
##me
클레이
부지
##r.
유고
##드리히
##하우스
기름
##리드
감금
제발
알아차
##in'
##ECT
제작사
행동에
극초
박탈
괴로워
도트
내부에서
SU
시작하면서
##괘
#ffffff,#ffffff
내배
호크
대외
못했고
프로덕
슛
상위권
어벤져
강동
공교
##orts
##식에서
##범을
샷건
그랬
Fate/
추후
상술한
할아버지
리그의
돌리는
정황상
야마모토
##법,
##륨
배터
의혹이
정밀
##.4%
무너뜨
수치를
이용하면
##맨과
버전을
##란은
##있다
##72
수비를
##호쿠
운반
현실의
않던
주파
토키
김선
학사
원작에서
여겨진다.
##!wiki
취재
##ᆯ라의
안보
블랙홀
발목을
##가면서
##돌로
과도한
소속되어
##편에서는
페어리
아이템은
왕조의
영화에서
##레이트
세우고
수록되었다.
몰아내
##/등장인물
나타내
##검이
스펠
찬양
밝혀지지
6시
강서
2017-11
계획은
걸릴
대량으로
움직임이
EXT
have
웰
##해선
##픽을
생각에
덱에
여러분
무죄
##있는데
하츠네
도약
가족이
파츠
로스트
비추
자기를
정성
붉
버프가
묻는다.
쓰러져
과언이
만들어내
굵
전투는
##운동을
담아
뉴질랜드
웨이브
미코
유망주
원딜
맞물
복선
+20
GM
##티콘
vs.
Ser
먹었다.
##하였는데
3라운드
농민
불안한
돌아오는
이룬다.
말하지
##넉
마하
159
##초부터
츠쿠
##원들은
싸이
언급했다.
이방
기를
화해
WH
##니스트
##안과
##to
##오르는
메세
알려준다.
##류로
로우
##ster
워커
도모
'유
동년
기능은
동아시아
##각의
베지
사임
인정하는
약물
##-21
사슬
바쿠
경기의
장치를
쓰리
답게
주의하자.
기호
##야?
뛰고
제너
트로피
국어
토지
작중에서는
셋째
##쫓
들어가기
##바위
##덮
대쉬
학문
##공주
카렌
##불명
위치는
##mmer
전염
카피
유저의
##구나.
동명의
꿰뚫
1/3
2시간
연구가
읽을
##롭게도
##닐
##대결
주위에
운명을
##국어
읍
"나는
평균자책
율리
##모어
루크
구하는
발표되었다.
갸
스카우트
[math
##속도를
##룡이
15년
견디
##상태가
그림이
##했다고.
102
##치오
흐름을
뒤이어
날에
개최된
입히는
##황을
##거지
환생
##소송
일본을
com
사과를
1차전
오비
역할이
휘하
##팩트
중반에
0.8
##머리를
앗
만난다.
아이의
정치인
##슨을
길이는
아내가
마저
불평
목포
합작
출신지
시어
효과도
보러
노인
안전한
##냐,
정보는
##돌프
한반도
빈트
프로야구
##쪽은
얼티밋
날아가는
##ple
죽음에
##슨과
평창
##학은
안동
낳은
노골
만나면
스플래
포텐
스쿠
상승한다.
그만두
친구를
나에게
무지개
아타
초래
해병대
유미
이벤트에서
코이
루키
##첼
적극적인
##호에게
인물들이
움직이지
1200
오렌지
텐데
##어지는
##닷
##교는
무시하는
10시
합법
5인
공격,
바랍니다.
이단
편으로
상황이라
도쿄도
가오
명단
http://
##TA
전해진다.
국토
서기
상시
이익을
친애도
갈등을
곳도
변하지
연구에
시절이
##봉을
포인트가
##가수
1999
1948년
사나
서바이벌
갈리는
바람이
대포
##성군
탄압
번갈
등장하여
엉망
일련의
인원이
##랑을
콤보를
##적이었다.
발표하였다.
민중
3%
##yn
##썬
에서는
##까.
재등장
##슈타인
##해지기
설탕
##신문
배차간격
죽이지
##코프
대체적으로
Gaming
밖의
##공,
##!'
##ict
부대가
증가하는
워프
빈번
##잡고
연습을
대니
금메달을
않자
연결하는
절단
아그
시선을
닮았다.
노부나가
지구에
큐어
경험치를
Min
해줄
일주일
싱가포르
시달
방어를
하사
##곧
차로
말고는
RO
##장군
언급되는
##여,
말려
유지할
골프
운수사
활동한
EC
걸리면
넘어갈
재료를
카리
히사
탭
모험가
6번
##라면,
요즘은
왔다가
끝을
2세대
##꿀
##고에서
팬들을
카이사
수장
##YP
##했으면
가능하지만
올려주는
##하기에는
낭비
플레이하는
흐르
벡터
##-30
공짜
만루
트윈스
##61
라이센
##~15
연동
##ICE
사태를
밥을
버스트
재위
찾으러
레온
슬픈
미지
별명은
레이디
리자
삭제되었다.
##천이
대표로
바이킹
##대수
##사우루스
박종
배수
광고를
예방
9월에
무색
그나마도
Car
문서에
##ions
보루
불렸다.
수비력
바닥을
2차전
##죠?
##룽
세상의
##생.
패자
덴마크
주워
진행을
오바
캡슈
응급
타키
자세를
1962년
##ange
잘생
맡는다.
문서의
플레이버
해운
하도
번이나
웃음을
##가루
인재
퇴치
##카게
대명
##효과를
know
연관이
##가족
시리즈와
##판매
스콜
##파티
왕위
##냉
의미의
##레는
레스토
이르렀다.
##타케
연달아
##빗
호날
Play
다다
로열
못한다는
11월에
캐릭터이다.
앞뒤
##진한
입었다.
야구장
1944년
출석
너와
떨어져서
##치킨
국가를
최전
살펴보면
들어서는
사각
동정
수록되어
어디에
폐허
##술의
4월에
버전.
그들에게
주를
무궁
보이지만,
붙어있는
자작
캄
퍼펙트
우세
패치를
방패를
파일을
##샷을
모욕
##든다.
혈통
운수사명
##요를
편리
##시켜야
사탕
##어택
공손
손해를
##보라
피하는
##퍼는
펑크
##3%
내버려
겪고
##해버린
##스텔
LTE
모드에서
##옌
거느
상자를
바람을
성장한
##들리
저스티
갈등이
있어.
폭스
##뿜
얼라이언
영등
수준을
장난감
비스트
유닛.
가로막
##che
##바와
팬들도
마법으로
풍부한
돌아온다.
쿨다운
광복
클리셰
##패가
마가
##움에
날린
항구
무신
##바,
당신을
바르셀로나
적용되지
지극
##할지
##.T
OF
계절
##요가
탱킹
비참
##료로
##귀를
향한다.
장남
8년
##불명의
영혼이
EZ2
고발
실업
유저들에게
##춤
개발을
연설
Of
전과
##똑
머릿
##금지
##문화재
무기에
행동은
천주교
오른팔
개인적인
유저는
##샵
리부
중이던
450
##정지
소나
##체,
세리에
선조
##더라.
##연대
##란,
미루어
##기획
교복
중화민국
##ann
레이븐
##렸는데
편을
##널드
##.I
테레
불가사의
하치
지킬
사용하게
##살의
돼서
고마워
1960년대
양도
루마니아
뛰는
뽑은
영상.
하나로,
##노이
전개가
##ᆺ갈리
##:2로
뒤에도
제작진이
슬슬
4000
152
섞인
121
쇄
본다면
##취를
추출
호랑이
상당수
168
##자다.
80년대
진출했다.
컴뱃
이글스
##멋
날개를
멀리서
적합한
망설이
가사가
예정이
키보
1964년
몸무
##군주
섬멸
자유한국당
사이토
대법
##위치
시점에
##테의
2017-10
0.00
힌트
체력과
##구니
초콜릿
태도
##토미
플라즈마
깎아
##역까지
##빈이
8시
사치
다룰
##분해
오더
일족
벚
딥
마지막까지
Mi
거주하는
##지던
##마나
##코로
어려움
기다리는
세일러
정해져
일베
성씨
문화를
##ater
따뜻한
리즈
크기의
##었으니
##lass
##ica
기준으로는
로고
##'re
A4D
##대구
##백으로
기관단
적재
애틀
미르
유머
##차원
##버스를
##리아는
다행히도
노르웨이
호감을
앨범이
##6%
몰아붙
##카타
##몸
부사
변이
##씀
##규가
내용으로
진지한
목숨
일으켰다.
어서
자격을
쓰였다.
방송사
##~30
9.
수확
아이들
내용에
불릴
109
찾지
RE
오디오
선물을
4기
##후를
7개
오브젝트
영토를
역할로
차지한다.
구조가
##조정
드릴
섹시
맞았다.
##:05
소프트웨
세로
##공과
초기의
한달
임진왜
별이
3승
마찬가지다.
##국제공항
십자가
비로소
강탈
비용을
3명이
느낌
바다에
##삼아
미국,
##서에서
잘만
역사에
당시엔
숙청
1위로
안된
##장난
만들어져
서울대
성배
크지
드래곤의
성경
모듈
타르
삼촌
##찬을
out
##프랑
추정.
##윽
##포드
##비아의
앨범의
one
프레데
그마저도
장비가
닐
조선시대
제도를
##하다보니
곡.
테일러
스타일을
수시로
함수
건물은
사원
##요의
음력
제11
군단의
씨가
요청을
효율을
도심
문화재
장제
삶의
쿠라
맵의
##점과
##주자.
무선
상인
프로레슬링
빨아
1966년
검정
##없어
엔진이
없지
로마의
헤라
프랜차
##HT
시대가
전장에
바티
패전
##일으
##다드
##형.
면적은
길다.
잔류
변하는
"자
##마에게
중학생
여캐
박명
127
먹여
4.5
##ᆯ리스
사에
##주택
하는게
두었다.
was
로저
##희와
뮤지션
무작정
##조작
##놀이
컸다.
충격과
꼴찌
장로
##기아
##당시
심히
개발이
바꾸고
바론
아래에서
"나
3명의
타기
만났을
아르메
김천
패스를
돌을
늦은
118
ME
##클라
트롤
주민들이
##de
하후
실로
트레이닝
해가
민주화
##검의
흑막
페르소나
브레이브
이들에게
##마력
##BB
드레이
김도
어렵다는
##한지
깨고
8월에
지정된
친절
아쉽
도배
명성
##블을
##됐
'여
윈드
포매
감행
##철은
연결된
##카나
내보내
매체
##배차
소환하는
출신.
##agon
지오
소생
떠나는
시흥
클리어하면
##담은
##폴리
리믹스
자고
의아
7월에
주의를
거칠
스토리는
질주
밑으로
0.6
부대의
1월에
프로그래밍
2가
##클린
BGA
어느날
ALL
최소한의
솔직히
샹
봉사
콘셉
본부
##커녕
메시지를
물고기
오시
107
상대식
##G의
##다라는
##학이
임금
현장에서
붙어서
김성근
주며
HE
차에
박영
미끼
행보를
혼인
등지에서
단점을
쿤
경전
스트리밍
##그리고
어시스트
##칸센
오키나와
시도를
##등에
옆으로
보스의
행방
길로
##든가,
난민
별을
##면과
1946년
성향의
페르난
뺀
##베르트
여기고
마셔
줄어들었다.
워터
##LS
발차
##ACK
##강이
##기면
시네마
안철
##스나
들러
##,000,000,000,000,000,000,000,000
수단이
리버스
##크에
창업
##몬을
브라더
##글로
##gr
보이는데,
박혀
7시
인문
##시안
##다!"
데뷔했다.
축구선수
후타
썸
도쿠가와
바라보는
구매할
우려가
이녀
오쿠
구한
##디,
측에서는
수비수
사육
공격시
나르
주에
##습니
응시
어찌보면
순찰
미묘한
##볼넷
##...?
뛰어나다.
게임에서는
5월에
째
가마
펼쳤다.
스내
않았으나
지원이
야만
확률은
막판
붙었다.
사람에
합친
##nder
둬
CO
이번에
##바이트
##야한다.
꼽힌다.
파키스탄
동료가
넘어간
##자원
것은,
어딘가
##적이며
##오니
속성의
-5
날씨
방심
겟
돌아갔다.
그간
음향
써먹을
달라진
하이브리
##칼리
가격을
##수준
비아
누워
##턱
##였다가
아들로
1로
번씩
딸인
카탈
생각했다.
유탄
지지하는
정준
1995
##.21
화면에
계획에
##류와
##리아를
##모,
일꾼
후루
##곰
아이폰
깨어난
[[htt
씻
나서서
죠죠
결제
##금융
공교롭게도
어려움을
알아채
제품이
남자를
로리
##벽이
자르
123
5개의
전생
##운수
##웹
##-KR0
리바
"여
식사를
##탱크
위협을
##:55
##었습니다.
##못해
장사
##-1로
그곳에
등장하며,
##귤러
뿐이었다.
##작용
부채
영국에서
##또한
등장하고
SA
내기
에너지가
아이스크
pro
필드의
이전에도
판매량
단장
웨일
##대륙
것이,
빠지게
사진은
##음,
맞출
톡
왕을
크리스토
초록색
상속
##산과
##메다
##201
레벨업
끌어내
전선
##플러스
바리
##툭
낮고
##빌딩
멀쩡한
말리
GPU
한국이
1961년
준공
복장
##렸다
##2가
##아슬
터라
##불능
시킬
마족
##달의
##댓
배구
Type
보자면
볼드
드러나는
부재
주력으로
쳤다.
알렉산드
어때
시즌의
##축을
싸움에
경의
##판에선
대신해
##마리가
##노리
##한정
한해
호감도
금요일
입성
1965년
동생인
NEW
Max
##때로
##편은
고종
신흥
공격수
NHK
이카
사키
앞을
##orea
토론토
##신인
있는게
최종보
강하고
##코인
기록하면서
##화도
##차,
##이었기에
전속
미소를
현존
처리하는
만화를
도시에
여자친
문의
알렉산더
이준
목욕
하우
##그라운드
##학기
폼이
##볼트
보여주기도
시설을
##곳이
##아래
셰이
현실을
회사를
+15
##적이라
유격수
사정을
수중
##정도의
##원에게
매니아
모양을
패키지
프리드리히
##업체
호랑
적용된
이하로
feat
친다.
중에선
아니냐
##되었습니다.
레코드
##반은
11시
##그는
현금
la
##eF
111
걸맞게
70%
##eep
원내
특이하게
프로그램이다.
도깨비
진행이
인구의
화면이
각인
144
숨기고
유즈
인물을
등장하는데,
##oot
부장
적에
너클
디바
스텔스
다름아닌
##tern
깔려
갑옷을
##살인
나들목
##란트
그녀와
##79
본진
전지
##광이
선거에
여수
응답
줍니다.
104
TP
시즌1
##ator
비춰
원인을
##놓았다.
추구하는
공학
공산당
괴롭히
##려던
1세트
중재
정부에
3만
##더링
2패
High
출제
발간
잡몹
##-0으로
늘어나는
세력의
미쓰
티저
운행한다.
FA컵
올린다.
올바른
방정
수준에
해독
##궁의
##&lt;
##억을
발전을
가슴에
넣었다.
혼란을
하러
놀랍게도
고추
장인
야마다
차용
활용한
맞추면
의하면,
자원이
일산
에밀리
반쯤
점심
미식
의미에서
맥주
순위가
콜롬
##커와
추가되어
크로아티아
BM
원자력
##있기
덴마
참가했다.
##베이스
소노
서태
표정으로
##:35
중에도
마요
신칸센
##층은
영상은
##하느라
##상이다.
##발전
##란한
걸려서
##CH
고우
##시키면서
존재감이
셜
도감
방언
불리기도
24시간
부드러운
##"와
한신
##~201
Gen
직통
##O의
발현
모양새
장소에
딘
##캐슬
신곡
파손
##랑의
서지
최상급
없어졌다.
교역
병살
##ᅨᆫ
##86
##시엔
J.
##독립
카에
애국
아슬아슬
하려는
인질로
많다고
##ress
명장
휩싸
휘둘러
'모
##백의
체이
위력은
나왔는데
베어스
아담
##신도시
10000
##레티
사용하던
##결정
##엉
활용하는
2019.
불리며
##찮게
오늘은
##생산
필두로
안습.
식품
##사무소
시장에
##AND
퓨처
못하였다.
약하다.
##폴로
스마일
베이비
영혼의
캐릭터에
옵션을
구성이
분쇄
##수아
유벤
##했음을
업데이트가
Light
##리라는
가득한
'정
알을
양대
공존
##격인
##코미
MV
특공
순간이동
LED
둠
정한
내밀
재빨리
##했다!
편지
##사구
행정구역
봐서는
ar
미라이
김연
귀가
권위
교수가
##에너
타다
실상은
일하고
##세요!
우루과
3위를
성이
원곡
면을
재능이
##데스리가
스기
후지와
##군사
Am
극대화
##치도
데스티
난무
칭호를
에메랄
넉넉
맞추기
다름없
##ough
해태
##프트를
자유로운
KBS2
##해버린다.
##창에
몹시
##니혼
1/2
##주쿠
푼
칼라
##팀인
오늘도
맹세
내린다.
히로시
있다면,
대중교통
단단한
마모
달래
##효율
표현한
측이
이온
##자들도
미녀
'부
났다.
드래곤을
'전
볶
##발에
가도
값을
트랜스포머
시청자들이
헬리코
1949년
##려야
##예를
##컵을
활동에
본래의
보이스
315
명칭으로
##작가
162
컴퍼
##쏘
코트
트랜스
고래
##레드
##하려던
##ott
칭호
안경을
6월에
##erf
멤버들과
전차를
롤링
##[ruby][ruby]
원년
휴게
오해를
##오던
##중,
상쇄
열린다.
때리는
##점이다.
##형제
즉각
더구나
말까지
잡았다.
파티를
대미지는
장소를
##높은
쐐
##IK
스크로
##바리
안하고
뜻의
있을지
크기는
다음,
급히
##합니다
##px;
쿵
##든,
##anna
필라델
##나리
말씀
절대적인
##롭다.
주기도
위험에
Heart
전광
결과에
##테스트
마지막에는
나이를
예의
##느냐에
상점에서
음악이
이후엔
군용
조항
3집
어울리지
엘리자베스
시기는
플레이스테이션
##있지만
다이스케
##커,
직장
구해주
##불을
빼앗아
초반의
통행
나타낸다.
AF
시장에서
##일때
적과
문서는
부활한
패스트
##무리
명예의
##빈의
유우키
끝내기
공모
따져
##냐면
##카에게
바그
기록되어
데뷔한
방으로
##후,
##여도
##ring
##멸을
자란
##러의
##/A
##밑
3장
##74
최순
나오며,
풀린
10위
15분
불러일으
##공화국의
158
얼어붙
7번
밤이
무도
예상된다.
##혜를
파괴하는
더러운
##플래
이끈
0%
##less
카메라를
기록하는
자칫
##:25
높기
미치지
수인
차이점이
쇠퇴
##어버리고
저글링
졸업한
##토록
공격과
##송이
역사는
##철,
넣으면
DI
##부문
게스트로
인터네
측근
스스로의
처리할
조각을
막판에
스토리의
강화된
지내고
##A1
##혼을
작품인
Par
바디
1996
##칸의
되었다
나카무라
이쪽이
영문명
마이크로소프트
##수수
##ᆯ리가
##듯하다.
자부
##크루
퇴역
##we
마티
공격형
Blo
현직
이어나
해고
이펙트
알수
##하더니
사용해야
유니버스
포드
사랑이
비롯하여
줄어든다.
Co
신비한
##모니
##판,
##천,
붙이는
당연하지만
스터
##icro
징크
고인
##높
선언했다.
불안정
##플리
산악
까마귀
정신나간
에버
##방,
게이지를
형식의
가능하고
먹기
파격
##교로
##홉
'우
##팝
막지
이례
비치
플러스
더욱이
5명
의문의
##리학
TO
##ᆸ지
잃게
재료로
열쇠를
한국을
설명할
버르
극우
자이언트
변동
관련하여
Lv.1
않으나
뒤인
스윙
극단적으로
중급
생각해서
중도
가난한
MSL
##기동
##배틀
##ics
관해
##후는
다음의
케이스.
##오.
##령에
인연이
신은
냉동
몸의
맹독
en
##심과
머리카락
호출
아키라
뚝
##les
동일.
##욱이
버려진
생애
뿐이지
휴대폰
LE
나열
##발사
단련
이익
##지에게
##스테이
지어진
맞추어
꿇
가던
놓아
##**
해줘
미들
군림
추가적인
미성년
ES
줄을
박살내
모으는
동구
기준이
뜻.
2명이
유닛으로
##참모
앨리스
이때의
##-25
졸업하고
추궁
1997
키미
미미
오의
##-23
##받기
강습
탄탄
##터에서
횟수가
##ᆯ링이
복장을
##요리
여고
##양은
필요도
치바
##결과
##아스
독립을
시뮬레이션
4의
지자
##개는
##지휘
##-22
스위치
##맨,
##건담
IIDX
사소한
부처
분대
밀레
아울러
4연
계곡
취한
참고로,
친구들과
##/S
##웬
에이전
GTA
은퇴를
스카웃
##부턴
##inc
혼다
물건이
##무,
##청년
불편한
이렇다
다름없는
부스트
##산에서
Red
##렌의
이루어지지
돕는
무대에서
베니
원래부터
##웨이트
90%
궁합이
노선이다.
일환으로
대한민국에서
##소모
##i,
##메이트
것인
##토르
질병
수성
##표는
제20
플라스틱
한모
##토시
진행한
급하게
걸어서
따왔다.
##나요?
짙은
##대왕
연세
민간인
택시
##스터를
팔이
안될
관리가
15세
아무렇
득표수
EBS
찌르
##테스
##화학
여성을
전체에게
완화
정해
M4
놀란
##그대로
성실
진술
시리즈에서는
상태에서는
하행
주어지는
후면
고맙
에볼
아이템으로
상행
Ste
IV
##하자고
활약이
32강
##방식
넣는다.
훈훈
'비
관점에서
106
캐릭터와
시기의
##펑
보잉
활발한
본의
국내에
##바ᄁ
구르
##때부터
건의
발이
미국인
AG
피트
바닷
불만
다닌
##+0900
일본으로
##였다면
124
소원
제목이
편이고
이내에
##캡
BO
##림과
프로토타입
##-JP0
##라고는
들어있는
모자를
##눅
탄환
부모가
신전
열려
테크니
##~12
'한
숭배
엔터
##에르
호기
아이템.
끌어들
##ERS
출전한
자비
피고
##돈을
##idth
국가에서
자신만의
등장으로
엔터테인먼
'인
호르
스타일이
'제
바쳐
해결할
##land
승리.
비자
승리했다.
##-L
아카이
##원들의
안성
2015년에
##복은
바뀌면서
수행하는
눈빛
##만으로는
재즈
스탯이
##wh
##듣
성균
##ᆽ은
##크레
열었다.
내려와
소녀의
Wii
함재
##편성
삼는
쓸모가
가면서
##픽이
특허
담당한다.
바리에이
할리우
환자
부동산
##랍
해당된다.
없었다는
'시
##gain
가능하기
모던
##칭이
후반기
주장은
oh
1.1
엄폐
##곳에서
##기구
##쌀
모드의
가설
##m의
조건은
미친듯이
공화국의
##함으로서
경질
스타워즈
체력은
##AF
부흥
심야
첫날
이우
의심을
프랭
##G를
잠을
##주면서
드론
176
일으킬
FPS
집이
##가이
가위
못하고,
재산을
##돼서
소우
리플렉
실책
##님,
무식
학교가
##/초
조합으로
GN
비단
##경으로
본선에
모르겠지만
레인보우
도시가
기반을
##사령관
라우
##창의
적립
영향력이
엔지니어
말의
본관은
프롤로그
강력하다.
##ANI
상위호환
퍼시
떠날
리본
석사
때로는
꿈의
쥐고
##가르
엄마가
750
마시는
주시
느껴지는
다룬다.
하자,
립
수에
##받침
권리
##니버스
##말의
한정.
외계인
흑역
흑마법
프로그램의
돈으로
광경을
다르지만
##등하게
##튠
##러는
따라,
펠
##하곤
##요?"
빠뜨
출전하여
##지니
7위
##쿠로
배치되어
같아서
반성
면에서는
여자친구
##맥을
받았을
대서
개칭
치하
만만치
않으면서
기대가
너에게
몬스터는
무섭
쿠루
학위를
##순이
오프라인
##UT
MK
없었지만
분배
##했다.#
개국
연출을
대책
##보자
신정
122
##샤의
스태프
도전과
묘지로
##ction
쓰일
요구한다.
Live
어스
고기를
본체
##UC
##행으로
5.5
2천
일일이
진출한
뉘앙
5.0
##션으로
스킬이다.
소설을
##린다고
##혐
##흙
1-2
##가면
##리치
##밥을
##있으며,
##까요?
##목적
인근에
것임을
##ᆷ핑
##홈런을
3세트
이름에서
디펜
1.7
자신보다
업적
##지옥
##척을
티아
##ern
시야를
##노래
흥미를
화장실
영등포
##라에몽
##방법
루트를
time
##콜로
정사
많으며,
##록의
##므
##질과
##테가
경찰은
1941년
호감
##하니까
보이는데
친선
##가능한
카우
모친
감독과
##그루
평안
##블루
유니폼
내일
한가지
##바흐
원활
있었다
표를
오자
##운영
원을
센트럴
##제품
에필로그
남아프리카
평론가
동물의
오만
장을
러닝
모른다고
내뿜
부족으로
제국을
##회관
야외
##irst
##76
채취
SSR
개개
김원
1994
살아가는
면접
Tw
양아
+10%
이인
위를
0.2
성전
캣
걸어가
##종과
복지
꾸며
##이랑
##졌지만,
지옥의
##af
명탐정
나가서
키노
##있고,
##엘의
체육관
기관단총
##스트,
##에의
한성
박용
접수
펭귀
바래
##모노
유튜브에
재활용
오른다.
고든
스나이퍼
중성
관장
지대
나인
달인
프로페
전에서
항목에
두근
제프
##해주면
요르
멀티플레이
박정희
재벌
벌였다.
고유의
목표는
수평
1일,
##4%
거리는
138
어머니와
사용하였다.
마법이
2023년
여기서도
##ky
다음을
##타고
순정
이때문에
나을
뛰어넘는
시기를
연루
녹아
차가운
사인
돌이
As
묘사를
대답을
심상
공통적으로
5만
나무를
노트북
##답지
##선지
3배
비꼬
괴물이
##증가
##계에서는
리스크
워너
##oss
추가.
밀집
분야의
##트에게
냅
##2를
롬
##기며
고도
##글이
마테
공백
영감을
패배했다.
정하는
##키로
레시피
뿐이
증발
뽐
바꾸어
##포에
크리에이
희대의
조력
영남
직책
한손
외치는
설정에
##쉬가
등장이
출연하였고
투수가
온모
흔적이
획득한
un
냉각
나오고,
놓는
모르겠
구멍이
홀리
볼을
정권을
##직이
높다는
충남
아군에게
교체되었다.
##파이트
중국은
기체가
##는지,
스크립
도리어
뻘
##-H
메이커
분량
내외
##업으로
떨어지면
받았고
대하는
카디
외면
완성된
장탄수
##클로
##캠프
직후에
부탁한다.
없는데,
컬렉션
사관
##방위
휴먼
끝나지
##유저
##즉
찾은
##ium
않았으며,
"미
0.9
이동속도가
기차
가하는
지도를
불길
청룡
##라라
일삼
굵은
패배하고
돌아서
엘더
사면
친구들이
##AE
유승
걸면
2점
것인데
##방송을
Champ
왓
##주공
폐선
내리고
##하기만
##끄럽
##원이다.
못했다는
참으로
스커
남성이
공격한
##학교를
중심의
포기하지
쿠니
정면으로
입지가
##뽕
##먹이
##청은
7대
보살
입양
조지아
의뢰를
서명
##자라
너프를
등장하였다.
뚜꺼
##BE
박수
골레
남쪽으로
라면
Baby
과제
박상
감염된
셋이
치안
미끄러
달라붙
##8%
정치가
알리는
내릴
내놓은
풀고
놀러
짓이
몬테
기자회
신세
설정으로
윈터
이루어진다.
쳐도
직결
인상적인
구체적으로
##든지,
깨알
지역구
##메르
시작하고
늘어나고
에스파
저서
타이완
자처
군사를
서독
돌연변이
추가적으로
내뱉
켄이
회사에서
##ᆺ토
대학의
메일
사람이라면
##운드가
감소한다.
##원들을
'에
##리조
##남은
지었다.
평화를
상당수가
등장했던
미션에서
편안
면제
없이도
뫼
##주년을
##염이
죽이면
생산하는
모니터
바비
밸
##뎌
용암
특이사항
저술
##반도
##열은
후한
베리
##!!!!
##정류
벚꽃
정형
박재
##뿐인
처한
현장에
평.
여는
소비에트
##적이라고
튜토
구제
##렸는데,
녹화
이복
누르
Fire
수행할
마나를
##바지
1940년
유용하게
##GC
##ONE
국군
##92
발칸
레버
KTX
1일부터
##마침
곳의
##나지
장소로
위험을
압박을
수만
##FM
시비
2초
##크로스
일행에게
HARD
장면도
노선의
이들도
##자리에
##러를
무리하게
##되서
자발
어느새
인디언
뱉
##일수록
넘기는
소환한
졸업식
겪는
산탄총
가의
우천
푹
3에서
##호도
##시키려
##턴의
지속시간이
LOVE
12,
합쳐서
삼성전
버블
망치
시부
진동
참여하는
##긍
종전
일체
투고
자리는
##공연
##ount
##클릭
시간과
올라갔다.
김대중
마계
##하였을
캠퍼스
디아블로
타지
받고,
업데이트를
##것에
##애나
프리미어리그
##ush
Good
##셀러
착지
세계적인
##OID
않더라도
마을버스
화염방
꽁
세상에서
영어를
분이
점검
태극
##퇴근
계약이
캐서
크기를
##라시
때때로
##보,
소재를
##유,
가창
못했
BBC
포인트.
##ins
Rock
북극
##척이
건다.
방울
로컬
순간이
시인
지역에서는
쓸데없이
한편으로는
BEM
분데스리가
##절로
팀과
넘사
##백만
##이다보니
##좀무
CN
그리핀
쌓여
##01
냥
가와
격침
##더라면
10여
##메탈
##사실
김구
들어온다.
https://
자손
점거
춘천
하지메
##야스
연기가
붙는다.
드로
--
전적이
츠카
Lv상한
자유의
쥐어
이렇듯
GP
기괴
##당하기
MO
##초교
끄는
축적
소유하고
앨범에
캠퍼
망원
취급하는
죽이려고
설마
se
알렸다.
왕좌
방공
덱이
##술로
갔다
염색
##현실
시절을
자격이
기력
익숙한
동로마
따라잡
##하겠지만
멧
Korea
일종이다.
전동
##교차로
##분간
거두며
1~3
협조
##버리고,
달려들
키보드
0이
##회와
골로
남편이
갯
호노
1943년
Sm
2016년에
표현하는
일레븐
일본과
마음은
당나라
왕족
##ution
깊게
수호자
지각
##뎀
보복
김명
설상가
##범의
##eng
시조
잘못을
DM
사람.
##attle
##네요
친목
돌아가기
잔인
"당
##사진
전투력이
문단
뮤탈
가다
보고는
이전까지는
주기적으로
Sun
중국과
2.4
후려
아냐
전이
타점
업그레이드가
Dark
본관
게임인
제19
화면을
전자기
박사가
장갑을
반경
뒤로는
악기
영웅을
##7%
무기와
무녀
크로노
꽂아
##도서관
퉁
2월에
##무기를
불리고
##BD
혼돈의
힘과
포탄
##08
##림,
노릴
le
이과
자기도
다짐
##거다.
##박쥐
차는
##능력은
##red
인물의
농촌
때문이
레벨은
'수
사회에
사마의
##군단
업적을
봤
경찰의
성벽
따위는
플래티넘
언어를
광주광역시
쇼크
도라에몽
애니메이션의
2017년에
신세가
나누는
대다수가
2014년에
마코토
대차
만렙
시간도
주어진다.
다큐멘터리
저기
지중
권능
맥락
Can
##물인
##지이다.
대대로
강을
설명한다.
바바
공포를
##양,
##대학원
명중률이
해를
어레인지
부담을
쉽고
로스앤젤레스
퀄
도시로
혁신
now
OK
대량의
논문
것이니
니코니코
프로젝트를
##도.
둘러싼
유난
##명인
카스
##턴이
후보를
트렌
What
박찬
나타나서
##시게
제휴
말그대로
제지
되어,
##-E
뒤통
심하다.
색상
만남
찬스를
그쳤다.
내정
리퍼
##돌파
중국이
친분이
쇼트
##카에
##학에
낮아서
##값이
BEMANI
##하임
##격투
불문
##승으로
##킥을
아리스
##파리
빠진다.
연수
환경에서
살라
아데
넣어서
엄청나
3성
서정
의혹을
##71
3164
조직을
역관광
사격을
파우
건물의
위치로
2018.
카가
목에
따른다.
짧고
##라이어
비어
##가락을
##.23
발매.
주고,
펜타
명백한
일.
세금
##스터의
잡는다.
아오이
아래는
외모가
주도권을
##버는
늙
##'도
말라는
활약한
유럽에서
그쳐
Life
##ert
확인하고
##디스크
1942년
찍었다.
일본어로
공개한
##효과가
역임했다.
11,
치르
'소
##워하는
주가
##명.
##통일
개발에
##빵을
있다.#
##패의
1958년
신입생
##공단
순위를
시간동안
##양으로
안무
꽃을
##ady
##73
이호
이창
무리한
멜로디
##안타를
맵에서
카토
##통에
건물에
##문서
텅
A4D4
##연방
##III
말만
피드
필라델피아
##나면
##답시고
싫어한다.
무너져
답을
비중은
부진한
##ᆷ이라
장동
배우가
무지막지한
강수
##주의에
##/16
있듯
장점을
죽이기
포크
얻어내
##하자면,
##주군
점으로
증가하고
코드를
메테
허무하게
츤데레
##링은
라이너
구성하는
##십자
BC
현재까지도
일러스트레이터
##도니아
세가
##목으로
쉬는
방송된
캐릭터들은
관리자
##계약을
치며
동안,
문서가
PL
섬을
요구를
운명의
전쟁으로
차례로
15일에
제약이
이야기의
정재
가족의
리뉴얼
베이스볼
에인
신조
책임이
##브,
흥분
##형이다.
이적했다.
U+110
This
타우
등장하는데
해결하기
의원은
영향력
델타
##다니며
전설적인
##함대
&#x110
2를
내면
생겨서
증거가
르네
##어요.
0으로
2세의
Kn
이레
극심한
댓글을
##욕이
대역
##똥
진단
##테츠
##곡인
베이스로
##구성
의사가
3개를
내로
애니메이션에서는
4경기
아토
##스트림
유대인
안도
입혀
"마
녀석은
Sy
원피스
##고교
사수
거야?
지극히
필연
STR
##발,
##적이라는
이것저
##ube
상용
##좋은
애정
DR
길거리
4명의
AB
디비전
##어버렸다.
퀄리티가
##D의
##반응
1954년
분노의
함대를
장편
선거를
제국은
feat.
수소
미세
남았다.
##복무
인접한
주먹을
냉정
못했다고
설치한
##하리
테니스
다중
늙은
'다
##셈
마누
뒤틀
1화에서
문제점을
재밌는
이미지는
느낌의
고리
##시켜주는
##머신
##헤드
데미지도
아이템의
##캐로
##해버리는
포식
디에
대학교에서
이곳을
가능성
구하러
밴드의
##담으로
##차와
##톤의
##니클
없다시피
##료는
##규칙
즐거운
연막
추기
북쪽으로
개그맨
5번째
실루에
히드라
적절하게
룸
대신,
암울
알려주는
무비
활동하였다.
생략한다.
"I
전작인
##캠퍼스
##-EN
139
급식
대학에
지점에
##겨서
선수단
레벨에
일렉트로
여름에
모르지만
##이치로
##시간은
##세인
흠좀무
내비
평범하게
##전인
계략
##책임
옵티
출시한
개화
학년
16년
03.
##하로
151
##ART
피카츄
영역을
유로파
##OCAL
#000000
치우
##연과
수익을
203
상성이
기대할
갔을
##필을
야기
##적일
##행에
##비서
부어
샐러
패닉
##집의
홀드
소꿉친구
##이사
소소한
##댄다.
결국에는
얼굴로
##그와
대한항공
뛰쳐
##use
전도
##new
파랑
172
5시
하기에
##려다
하라고
##측은
##덟
##쪽을
형이
공격하면
##우먼
칙
달갸
운항
좀비가
은퇴한
##까지,
리그에
##other
##가이다.
벌이
##검찰
시장이
낀
위협적인
하스스톤
시체가
조커
친하게
##-24
중추
사이타마
진행하고
헥
아침에
인력
장학
버스가
생각하며
총괄
천년
우타
행사를
Music
고산
역에서
##충전
단선
당시에도
말소
문화가
전통적으로
단어는
##율로
왔을
사회에서
##상태로
수치는
해저
116
일컫는
##2동
잡아서
냄새가
##키에게
회계
복용
아껴
부과
1위에
##대도
##층에서
숲의
##목은
아랑
##즈에게
단말
결정했다.
유리하다.
이화
지르
오아
여자는
만들지
동료로
대상은
웹사이트
6개의
색을
기수
##미션
것인가
##진다는
노동자
소식
시작하자마자
잡히
왕은
tvN
넘긴
신호를
밀접
##급,
좋아하고
스미스
##부르
##타임을
##이닝을
왕실
버거
17년
기피
길러
##입니다
##air
핏
3단
활약했다.
때마침
무장을
정체불명의
대령
12시
합류한
##트론
주장도
떠오르는
대왕
성인이
안에는
바다의
##들에겐
이동이
3호
고안
##:59
신상
##서비스
##월의
카카
6.25
넓어
##대학교,
출구
형상
맺어
Bo
것만으로도
토너먼
부리는
똑똑
2면
##91
##셸
마시고
담당했다.
동래
114
##짓을
이르기까지
##근을
나갔다.
벌어진다.
아바타
개연
156
##S의
있는,
배에
병사들이
##진에게
후예
습격을
##트.
##어버릴
소용돌이
##쿠니
광물
격리
박물관
강화를
164
바꿔서
4:
힘들게
##덕이
기간에
##성인
못했을
사이보
홍준
추가되는
지날
##란과
Summer
Blue
짚
태생
아직은
2루타
##림으로
팬터
멤버는
174
##측에서
대각
4~5
살기
2.3
테러리스트
HS
말하면서
겹치는
1개를
##ᆺ.
포병
##충이
보스는
일절
낮게
작곡한
기념으로
못했지만
뷔
능력의
농락
ARM
비례대표
##회장
##혁의
거래를
선구
##속은
##현대
다해
혜택을
죽자
간략
##팅이
지선
##듈럼
##준을
지팡이
2권
결정되었다.
##시도
노이
불쾌
주변에서
최후를
같지만,
##감하게
##학과,
엄격한
##받던
##ors
존재는
UC
##하듯이
쏟아져
강타
##말고
##ittle
맵에
##롭고
용량
//
좁아
##2로
##되니
행적
##리스의
외야수
##확률
하이브리드
##쏠
##배,
성공하면
HP를
세워진
##루살
DJMAX
동호
1939년
렌즈
##프스
##감,
규제
던지
0.7
다이나
과일
반영한
보상이
노비
넘사벽
적어서
넘은
전쟁은
맺은
크레디
공허의
명인
##복의
도와주는
"A
경력을
씹어
1956년
넓게
들으면
우리를
##플렉스
##vol
##왕국
##찬이
고베
것이다
2D
##94
넬
오늘의
필요없
콕
공습
본거
##온과
양보
##거리며
언젠
##무대
이것저것
쌓인
중간중간
빠지고
파괴할
가격에
바닐라
코요
이야기로
것의
##는데다
##트레이
영동
득표율
인간으로
##싸움을
승급
접어들
하였고
나미
적들의
마마
부려
##랜드는
대결에서
입국
2위로
2013년에
2,000
##습니까?
경쟁을
##궁을
돔
많으며
beat
우는
외치
서초
정조
나루토
##기계
직업을
따와
바뀌고
##게도
표창
깽
신축
느리게
전투력을
##다만
염려
제작을
드립이
블럭
But
변경된
##ational
유력한
4세
무리를
획득했다.
확률을
Dance
설립한
유난히
시장을
##->
올라가면
없어.
보기도
북한이
휘말려
짬
사용.
동조
##색과
올라서
지구로
구분이
##방과
##장치를
초능력
이해하기
기하
울음
햇
했으니
않겠다고
##교,
정치인이다.
단체로
##상자
언급한다.
한미
밭
초점을
상황에서는
세키
컨셉을
파티에
카레
사용하기도
Don't
##하셔
사건과
ADV
캐러
##제국의
##한테는
펼치
##ally
병원에서
##횡
프로덕션
원문
나이트메
성기사
승무
좋아한다고
##스타의
NP
대고
이데
##margin
##때문
##패,
유니폼을
명단에
2가지
##학부
스토리에서
사모
##된다면
2억
##익이
##ons
어디로
HK
경계를
의지가
30대
다르지
마르코
인형을
순양
가급
김치
##렸다가
시청자들의
탄생한
내려오는
##인만큼
기사의
죽어서
묶여
구석
친정
꾸미
가솔
거세
연상시키는
줄이
원망
체제를
##반,
편인데,
일본,
##2는
##나온
필름
뜨거
##선도
구마
보기는
전전
##편이다.
전술을
경순
##공산
김형
CON
서해
유스
타인의
##득점을
수단으로
신세계
본사
##폭이
묘한
##/15
내전
산화
##리아,
무실점으로
양호
패치가
해도,
현실은
짙
풋볼
아내를
##시대에
달려가
3.1
쑤
후안
##는데...
편한
##험으로
##탑이
실천
못하며
제목의
개구
버티는
입힙니다.
##스쿨
호테
외래
영상에
UF
비타
##퍼드
낮추
못하다.
보정을
여자의
변속
161
출전했다.
갖는다.
113
우승한
연기한
웃으며
박사의
행성의
중국,
범죄를
##idth=
기체의
씩
최약
##변속
버티고
있을지도
패배.
속도도
연금술
어제
박경
피해는
혼동
현실적으로
2012년에
떡밥을
축구를
야마구치
스튜어
테일즈
##ivers
##행위를
2/3
아들의
##대회에서
한발
##차지
##나오는
수락
홍성
역대급
#2
편찬
워낙에
마음으로
차원이
##몬과
##드립을
없거나
루리
아내와
##ual
포스를
교회의
공통점이
쾨
카시
##결에
투하
갈고
붙잡혀
UI
148
##물에서
##탄과
#!wiki
캐릭터들
케네
아이돌이
쿠바
Just
형태는
##멋대로
RC
##인해
반항
Out
##이에게
앞면
기록에
##나시
불분
입힐
회피율
퓨전
##TC
##[]
##번호를
행렬
부르지
에피소드를
죄송
아쉽게
이기지
헤어스타
종료.
##9%
##회로
##당하지
로제
양키
클립
예전부터
##오오
딱딱
이보다
사장이
##슬을
but
##프스키
시작했고
2에
6성
##UR
순간,
서민
##업은
능숙
#ffffff,#dddddd
VOCAL
##워크
레바
시를
유저들도
가슴을
유소년
내세워
##싹
프랑스어
번식
가능했다.
##아에
유유
장소에서
세상이
##평균
##역시
입체
사이트에서
OB
바란다.
##모에
직속
맥도
모델인
아이러니하게도
Over
듀오
끌려가
날은
##애가
기타리스트
##1로
나섰다.
카무
코디
환경을
맺었다.
##하우
1주일
##퐁
##플을
LCK
##-이
하려면
후반에는
##끌
지역이다.
##나라를
임팩트
##테라
각기
##50%
외모를
##달로
##나갔다.
독일어
스테이지에서
웨폰
덩치가
자유자
증거를
싱어
사기를
의문이
크롬
##ᆸ과
센티
##58
##역()은
아이들의
생명체
공직
럭키
살이
##목의
바다를
강해서
피치
책정
이해하지
##IE
중국에
선보인
##우러
로버
발동하는
[math]
헬레
빌헬
소극
느낌으로
여기에는
타입:
##멘탈
조조가
##라곤
리프
손잡이
가축
역할도
아프가니
오타쿠
정전
##직원
용맹
펜듈럼
하거나,
20개
파도
바로는
콜롬비아
드워프
get
만들면
노선으로
##해보자.
포효
다이너
스테이지를
부평
##/24
"The
2화
조영
##초등학교는
##에요.
만들기도
좋아하지
일행의
그레이드
후이
##개조
##피로
건가
##렌이
1천
심장을
파워를
8위
##거진
##리티
비명
반역
리셋
프로듀싱
때나
군대의
설치되었던
TE
사일
마법사의
카니
급기
제리
언급하는
##격의
개구리
문자를
##난을
내구도
##aj
##더,
담배를
##4의
성대
국가에
영국과
ab
당하며
윤리
인스타그래
후로
프로그램에
혼돈
탈락했다.
사찰
전설이
제목을
사출
세츠
출고
빅뱅
애틀랜
4.0
##이라기
살해한
드물다.
트위터에
"T
공세를
반격을
##미네
컨트롤러
##해는
속이
am
하도록
자기는
2018년에
걷어
##클래스
su
슬리
대도시
부추
##표로
각오
20초
알고리즈
정부를
##riend
거리에서
유영
126
163
원정에서
아프가니스탄
자진
리포
성우인
보스전
검이
신작
정립
처분
용기
##한은
문제와
##리그에서
노블
의외의
양을
1959년
미묘하게
국가는
만들었다고
존재했던
스킬에
153
시즌은
협의
희귀한
그랑프리
상류
품은
꼴이
##밟
회귀
일어나고
속을
고조
##유로
오리온
##히어로
##스터가
이루어지는
한가운데
문서.
##부족
천지
SCP
유신
일례로
김정은
비슷하지만
사내
장점은
결론을
알코
남성의
##atic
포커
드라큐
2에서는
것이므로
결국엔
1947년
기구
감히
들리는
호세
넘어간다.
##다던가
FB
##더스트
##브와
선택이
##기면서
나락
아버지에게
표방
##량,
일러스트가
마타
구도
2세는
대행
일격을
부품을
매운
##ᆯ라가
드라마의
3세대
잘려
미국에서는
철저한
정렬
믿어
##수입
##교육을
영상의
style="margin
Power
모닝
벵
##이라고는
##마리의
인도의
30일에
독일이
퇴출
Af
##/이
##더와
우아
맛있는
##구르
발광
존재하고
주위의
단숨에
2주차
남발
"모
##주고,
루팡
보스.
폐지되었다.
대대적인
범인이
선택하는
제13
피안타
##스크롤
구입할
만회
줄일
Lv.4
도망치는
관통력
서치
소대
이후부터는
함경
##이라,
##왕,
1952년
주민들은
아프리카TV
비교할
##레벨이
##UE
117
FL
도미니
괄
명령에
주재
방호
바뀔
##방향으로
가문이
조르
스펙이
이끌어내
"B
##맞은
4승
거슬러
염두에
브론즈
Dis
손자
##itch
움직임
무장한
주식회사
어쌔
밸런스가
호전
교실
용자
##'란
충북
##미술
허리케
##쿠와
만하다.
정우
소실
때려잡
사스케
벙커
출퇴근
##프터
나왔지만
##rain
'저
마쳤다.
##되도록
물품
하는지
채집
##일지
장소가
제15
전리
포함한다.
조선민주주의인민공화국
##블릿
이동한다.
셈
Sec
대응하는
사정으로
죽었다고
액체
유비트
##규의
안타깝게도
##미츠
드리블
원숭이
##주기도
루피
##rist
##GO
지크
성에
군대는
##보와
##황이
기여했다.
장원
넘어갔다.
전개를
작전에
##ᆺ잎
강대
##한다면,
잉글랜드의
레스토랑
##엎
##시노
블리자드
아니므로
하늘에서
이마저도
김택
집안의
개발자
아르메니아
병을
##ina
끼어들
##쉬의
SL
높았다.
자위
나왔는데,
포함하고
담당한
세컨드
나오자
##뜻
데뷔를
독을
금호
나왔
선택하면
보호를
장의
리우
끝내고
##2%
##게.
유배
제재
남극
Mon
스완
지배하는
기운
##층으로
제18
끈질
##각으로
높다고
광탈
##뜩이나
##비어
빼고는
##이므로,
미국을
##bo
사용하며,
요시다
디버프를
프랜차이즈
Win
런닝
이곳은
##담에
##네이션
한타에서
MX
회장이
번호는
##부분이
신과
##산역
기반의
##가메
텔
포켓몬이
싸우다가
쏟아부
물약
아이는
예루살
처참한
항성
쪼개
##vs
입으로
건재
베토
타서
투수로
##슬리
휴가
##샤가
인종차별
At
##기라는
받던
El
결전
사망하고
상기한
##해머
행적을
밝혀져
소모량
##살로
무기인
##맛이
되었으나
아줌
인정받아
김창
스타트
뱅크
##버리기
20일에
파수
출연하는
아우구
##-F
골렘
롤러
시집
##쿠리
이동을
패왕
갑작스럽게
초반부
츠루
얼굴은
순간적으로
승리에
##슈퍼
##고등
자각
이것으로
다양하게
생각으로
##지므로
##비나
처녀
반지를
가져오
전에도
않거나
빠졌다.
중상을
대표가
쏠쏠
1을
팀명
석방
분리되어
시너지를
사실,
아루
##let
나타나지
통용
시작되는
만나러
굴복
홀딩
##주의가
Rec
군데
발리
##,000명
1955년
##라인을
##ᆯ리의
##넓
이용한다.
무릎을
##볶
특훈
Pv
크립
활동은
정동
선교
쏘면
##쿵
해임
전투로
스토리에
높아졌다.
School
##마.
##벌로
##디아라
day
장군이
와인
강철의
##시즈
성적으로
출근
스탭
UFC
가상의
대통령을
##.31
##귀가
가뜩이나
여왕의
변경.
대한민국에서는
걷는
글리
설도
청동
이만
##됨
프론
읽는다.
성숙
증기
설립되었다.
대사로
반환
돌격소총
떠올라
모듀
필드를
만큼의
서쪽으로
힐링
##놓으면
바실
피처
장르의
확인한
수정되었다.
페이크
그닥
##ᆸ스
##인수
##물.
송출
Res
대타로
허위
퀘스트가
플로리다
욕시
레이저를
부모님이
##투자
상처가
사이에서도
계속되는
TW
사르
도메
21세기
기사에
현실적인
홈에서
Sing
스모
드러내는
군사적
꼽히는
##양과
##택에
일당
##산동
새로이
캐나다의
##마사
운영체제
술에
서비스가
동참
공격.
북구
포함하는
사용했던
##주의와
돌아오지
로그인
무장이
##씨와
법한
##점도
MLB
라파
돌릴
##욱의
씬
근거가
##들이는
##건과
없으나,
애를
##고등학교,
겁니다.
독일은
숫자를
우두머리
##라니
##동네
3편
##tr
보기에는
몸은
##비도
연말
깰
등급이
이스트
승리의
총으로
의식이
##념이
시작하게
터질
훈장
고분
관하여
상태라
전장에서
일가
##어찌
출몰
어워드
타나카
뭐,
준비한
레스
##인이자
황후
만났다.
##칼립
시치
탄을
##커니즈
173
측에
'진
서열
##았는지
CEO
타일
뒤덮
##스럽다.
창시
중상
##란에
존재하며,
제작자
동료를
컨셉으로
지쳐
벌여
거부하고
역사의
밝힌다.
##용과
기성
한명이
망한
삼성전자
구멍을
##폭풍
서울의
일러스트를
그라운드
경고를
편이며,
진상
최초수록
일으킨다.
just
##예선
##레타
밑의
더한
12년
##...!
##경영
##몬은
벌인다.
마리가
슬러
바꾸었다.
균형을
수험
##수원
기준을
기체를
슌
##빈은
장점.
띄게
코치로
앉아서
수려
##넛
한탄
##연구소
루미
돌아다니는
##증에
준비가
##대부
'도
후궁
하지만...
세미
##해지자
##부분에
관련한
달성한
즐겁게
헤매
VOCALOID
##워커
워크
320
따돌리
브라이
포함해서
##인듯.
BD
아에
박준
엉뚱한
최장
입법
##아에게
가슴이
균형
변장
제주도
154
예정이라고
2단
##에서나
키는
월요일
##그린
주유
죽었
캐릭터다.
임페
명목으로
파괴된
소녀가
우월한
##야에게
##지만...
이블
##사태
채찍
데려와
IDOL
우즈베
맏
간판
대적
성균관
벌금
윤석
##기시
공명
세트를
새겨진
##ield
'내
우승에
사례도
자금을
점프를
솔저
대패
정신적으로
앨범은
Ep
나라는
##레일
노래의
8번
플레이어블
변신한
테리
감소,
옮긴
지칭하는
하수인을
심사위원
##티,
동쪽으로
우미
산소
취하고
주민들의
1개,
아이디어
2017.
"우리
방영되었다.
말하기도
포켓몬을
##면허
덕후
줄어드는
굴욕을
146
##-b
상관이
모델이다.
사나이
테스트를
병합
좌파
##olog
토착
만나기
3천
이관
##연하게
어려우
신화의
##ERO
되었기
보통의
2500
나눌
쿼터
많지만,
들켜
킬을
##놓을
뒷받침
마우
치루
모으고
자리잡고
주한
##카즈
표출
##평화
##베르토
C.
내용.
배송
주면서
##소스
세월이
"가
##게임을
해내
김희
무슬림
최성
않았는데
##VER
동안에
문서로
카를로스
단점.
입히고
떠나게
스폰서
##ty
반감
훅
무빙
##펫
157
1953년
이상일
##근의
판결을
잠들
교통사
MR
우편
##학과를
주전으로
은메달
발견할
보우
피라미
진행될
##-X
꼬리를
##융합
마디로
4분
OPS
드러낸
2010년에
포기한
분량이
틀림
쑥
##했다며
줄곧
스펙트
활용해
King
##탄,
선거구
홈페이지에
신뢰를
위기가
알프레
뿐인
고려대학교
생겨난
손꼽히는
밧
슬로우
what
##aid
한국에서도
범인
Leg
뭔가를
##급에
찢어
경희
파인
제공하고
##리다가
##놈의
##령,
애플리
##로에서
화상
방문한
가미
서북
것까지
숨은
웃긴
주장하고
가구
오늘날의
방과
게릴라
인류가
##무에
이누야
모여서
성당
빨강
멀쩡히
늘었다.
회사는
##순으로
미도
벨리
사상을
다저
경기.
##킹이
콤보가
타격이
fe
##A는
에코
놓았다.
후자는
통보
1에서
맨시티
콘스탄티노
다양하다.
재밌
포토
##살에
적색
아니냐고
이노우에
마을로
달빛
스트레스
변질
지역과
상금
반가
크레딧
##A가
왕국을
안그래도
강행
설상가상으로
##1동
유틸
##액의
듀에
세계는
##캐스트
VR
자쿠
무능
##무와
밀라노
6대
화합
무게가
갇힌
끝장
선생님이
키르
##뜬
##키타
왔다고
일품
두가지
떠돌
한몫
##아.
선물로
선택지가
창당
벨트
##역.
배로
몬스터.
##하려다
음반은
신성한
토트넘
적들에게
출연.
배우고
무너진
18년
999
단번에
설명한
##데시
피겨
##느냐는
벌이고
입힌
A3
따지자
##황제
유저들을
치열
아부
보던
중2
##anch
빚을
플레임
##평이
모임
코스타
편이며
찍혀
부대는
문구
##종이다.
사우디아라
Gold
스노
중일
시스템에
##승이
유타
캐로
##멜로
잭슨
피신
포션
들어와서
촬영을
남미
엔딩이
##족,
167
엔진은
##온,
갈리
와이어
식별
##세력
중국인
##죽을
해주고
##ᆻ더니
코에
농담이
##ke
죽었을
독백
##떨
살았다.
판을
음악은
살해당
퓨어
말,
침해
사쿠라이
##고쿠
구간에서
##낮
안좋은
한복
제12
주장하였다.
원천
멘탈이
Lo
했는지
소환된
물리학
테마곡
시신을
던전에서
벗어나지
"난
Mod
국방부
MT
지상파
세균
방영한
마술사
강해
게임과
##려다가
공익
&amp;
제1회
등장하기
열등
알고보니
자유자재로
##시키는데
##.50
S.
##촬
1타
자민
1919년
대목
스킬인
다니며
히데요
메르세
가능해졌다.
직원이
한국전쟁
성공적인
##ᆺ고
인질
팀인
리그를
##A,
존재감을
##ret
##ouse
슈퍼스타
드레스
있겠지만,
크라운
선대
불륜
되돌려
##사전
행위는
애시
PVP
아니니
작별
단검
패한
채굴
퍽
배경은
##부분을
과정에
방면으로
기운을
리모데
171
언제든지
직업이
##어인
작정하고
산성
수명이
Rem
##왕에
##ony
자켓
적자
속박
##스와는
잔혹
파이트
등장하면서
정부에서
드루이드
이성을
교수는
불안정한
나날
트러블
'하
바주
시작.
다이노
##공격이
2011년에
보였던
먹이를
딜레이가
치른
입자
날개가
왕으로
##가지가
개인이
카일
포니
##04
불필
그렇듯이
##버렸고,
Miss
팟
중요시
확정된
'세
불에
페리
여자아이
##ane
##거,
악용
딸의
하드웨어
End
##구단
##row
아드
##경비
공포에
왕위를
책략
미래에
월드컵에서
없이는
입어
컨테이
높으신
"무
일이었다.
##블레이드
출신이
0.1
시리즈,
한정판
에어로시티
무찌
키쿠
##atale
휘두르는
##깽
사사키
'일
일쑤
##코에
##버스는
##-29
라인전
회고
샤워
제임
서울에서
데는
'공
뜰
##자:
만들고,
강력하게
##카스
공격도
##드려
##,7
##요소
##집니다.
##예가
유고슬라
'성
그걸로
##광을
##기로는
분위기는
1티어
운운
기업의
튜닝
카부
나라에서
##elf
엔딩에서
사례는
YOU
일개
동메달
Ab
이윽
도시는
살아가
퍼포먼스
높아진다.
강조하는
편이었다.
책은
##크에게
휴식을
시끄러
##범으로
성은
##환과
##타우
##빌리
삭제된
시위를
인명
최선을
##기스
제도가
등교
위주
놀고
속도와
##에다가
##인듯
Femm
##및
대진
정은
노숙
스파이더맨
4명이
공의
night
윈스
집정
주장한
##행은
리에
촌이다.
베일
것이지
3주
아폴로
##실히
##안에서
시즌3
브뤼
주체
보너스가
젬
인기는
놓치지
고를
##노벨
당시,
활용하여
"M
전교
##쉬는
학생들에게
1시
지미
밤을
코로
'M
##93
##리라고
##보건
##분류:
한지
절규
걱정하는
EMP
함정에
소녀.
##버리면서
무단
여배우
호박
##항에
멤버들을
치렀다.
버림
##하므로,
얇은
미군의
천둥
게재
점멸
스퀘
귀를
내려온
사오
픽시
두께
나타날
##먹는다.
생기고
어찌어찌
"정
Che
##엔진
갈구
사랑은
수라
턴이
궤적
근본적인
.2
하기로
리츠
풀이
체력의
높지만
##움과
서술한
그렇게까지
아름답
최소화
하늘에
TH
##치료
1년에
SV
##총리
퀴즈
뭉쳐
좋고,
전념
기간을
대학에서
if
고토
회사에
1992
리부트
##요~
확연히
옮겼다.
학생들
##pl
##?"라는
##래가
값이
울려
신들의
복싱
진행되고
멜론
차려
비즈
간격으로
##해군
##보도
##급한
일본식
보스인
지정되어
##퀄
살았던
##측이
대학을
+0
달에
받았지만
서남
데에는
결혼식
단백질
불로
라인이
자연스레
국산
얼핏
낳았다.
남는다.
컴퓨터를
man
##파르
##겹
눕
formula_1
클리블
#1
모방
피해자가
링컨
유치원
손실
##덕에
경매
예가
타이밍이
걸맞는
카운티
김전
토로
군대에
##렬하게
##마키
조로
불완
협상을
주제를
나온다
위엄을
이론을
##사이다.
디오
상태에서도
##충을
섭외
시드니
발매했다.
회복한다.
복귀했다.
##강에
##ᆻ는데도
독이
준우승을
승부차
퀄컴
보고,
쌓은
군을
##카쿠
사역
연이어
호리
첨가
최하위
스냅
삼은
sm
거제
와이번스
##나간다.
어떨
##꽈
맹활약
루프
성추
그러고
것이라며
Di
조수
심어
##HD
죽어도
25일에
##하였다는
길은
배치된
FemmeF
줄이는
FemmeFatale
유목
있으면서
결혼한
임진왜란
set
##@STER
깃발
AE
유능한
제멋대로
많다
산다.
##리카와
투표를
방화
영미
우연
##집단
보호하는
시야가
##02
##게리온
기요
Sound
옆의
##으면서도
임의의
##였는지
투자를
제한을
느그
적용되었다.
장난을
저널
타노
##맞는
코다
DX
제17
연합군
기본적으로는
##vil
##라디오
한국어로
놓쳐
수령
인트로
##닉스
하겠다고
징징
마야
안치
적발
도시에서
명확한
필사적으로
알코올
온건
주장에
##남으로
##루트
2009년에
브레이커
얼터
나가고
예외적으로
##소울
태조
##es,
2로
곳.
기량을
경신
##중에는
##애틀
프로모션
##턴은
##지도.
분류된다.
필요하다고
##난이도
변명
오토바이
2세가
자잘
선수.
동료들과
타고난
보았을
회의를
암살자
템플
능가하는
##"며
있었는지
공지사항
이반
##보험
##간다
예선에서
생명력을
연상케
굴욕
착용하고
시초
성명
166
범위에
##카제
구성을
##시다
대도
유죄
힘들다는
팝픈
}}}
##+3
내어
높고,
카드에
사용자의
겪었다.
##망에
##먹기
나름의
오징
초토
호흡을
소모가
맞아도
직격
날을
영화배우
찍힌
##상도
사례를
발동이
멈추지
나온다는
환경에
무한도전
없도록
따지고
제이슨
14년
##'인
정명
##자연
우드
코바야시
식.
##특별자치도
##땡
##탈출
폭이
간행
S레어
##대인
설정되어
선곡
##민에게
공개했다.
환경이
진흙
외엔
걸리지
환호
영국,
2008년에
##br&gt;
##본은
카드와
나이지
이상인
요시노
복귀한
방해하는
죽음이
임관
별명으로
##증은
3권
중얼
패치에서
##백화점
친구의
하지만.
개념은
가지가
치면서
좋겠
##메의
멈춘
##놨다.
깬
##운드의
##ze
그런데,
밝히고
마인드
스트레스를
모드는
인간에게
결별
초코
##편집
설리
리마스터
파산
등장,
덱의
왔던
칭송
스케줄
진성
눈물이
##프트가
애정을
잃었다.
"사
간격
##학교에
씨앗
전작에서
##다',
MASTER
패미
헷갈리
탈옥
섹스
##.60
빠질
전성기를
1이
Air
알제
매력을
1세의
Li
정유
살리기
분야에
2는
박해
"C
##해!
검의
복음
뜨고
갈린다.
똘
인체
##투로
Art
타락한
존재하며
##하다가,
올림픽에서
아홉
씁
28일에
이문
음주
온도
축에
장착된
##적한
##슬래
##ny
내주고
피곤
저주받은
학대
그제
대표되는
괜찮다.
달콤한
안테
문구가
##으론
받았으며,
EM
##분석
좋았다.
있을까
활을
##때의
뛴
웬만하면
넘지
쎄
든든
언론에
더럽
##연장
키즈
질풍
##언의
##ecial
수수께끼의
##프레임
디시인
데스티니
BT
씨의
##수산
외치며
##처의
집결
##''
동봉
##팟
만화의
신경써
뾰족
육체를
대체할
아수라
2타
가르치
시장의
열정
링크를
항공모함
손흥
항목:
스팅
2명의
CCTV
시청자들에게
애매하다.
대우를
공간에
센서
각성한
##엠
휘하의
슬라이드
Cat
성질을
별도
##룡을
##염의
울고
길어서
컨텐
##아버지
'너
##오에게
효과에
##무니
파악하고
##야하는
##히며
직역
슈가
두어
볼넷을
동남아시아
Ord
정진
상당하다.
좀처럼
'조
안전을
##점인
하남
##/30
조나
어퍼
##노에
##판인
생각도
퍼뜨
##정부의
미뤄
관절
두터
##G가
내륙
##누마
씨는
꼴을
무작위로
그룹이
??
지식이
발도
Hy
##다음
##해한다.
붉은색
출루율
##언정
##보통
과정은
다단
마을이
오재
##젤로
단계에서
##!의
##토로
보이면서
지나면서
죄수
애당초
전학
그런거
지휘하는
이윽고
이루어지고
##켓이
3화
불확
##술은
##.A.
##아파
##황의
##RAM
##기이다.
'스
##자였다.
맘에
빌라
심화
1턴에
수염
##본의
##-200
##시즌을
가변
##턴을
신천
##증의
##리아와
##혁은
카자흐
종교적
##팀과
##.99
##잖아.
화약
사냥을
이기면
##/9
##치기를
복수의
라이어
##하였기
빼앗긴
수영복
여덟
처벌을
못하도록
##훈과
방지하기
이었다.
커플링
3시
마리의
조금은
비해서는
##리스크
프로세
되어버린다.
올리면
##ORE
후속작인
##있는데,
제레
작중에
펼치는
기술에
알비
##태의
맡기
헌신
결승에
아포칼립
미시
##반으로
점수는
##시스템
##ars
수단을
##버르
BAS
Hard
빈도가
부하들을
에반게리온
섬식
베네수에
청산
1개의
직업은
##작.
부모의
박격
##데가
주변에는
키운
사건이다.
데뷔전을
비명을
홈페이
Boy
대격
1957년
쇼와
##버스로
총에
수강
중요하게
동생이
헤일로
##P를
라비
가능하다고
신임
발견한다.
다니고
가든
오브젝
##한게
방금
With
##위원장
마에다
포레
인간형
발생하였다.
유형의
2시
##캠퍼
"고
##내려
##나들
##이라면서
본디
##ENT
공사를
오인
임상
9위
볼리
레슨
이유.
영화제
보고서
테크닉
범위는
인텔
##작품
진도
법인
230
모티브가
12개
펼쳐진
사의
##태는
흐름
육박
마자
정답
부합
##할수록
찔
뭐라
##만명
주위를
##ana
어깨를
네메
5,000
##마니
친구로
실패한다.
소매
##것과
있다고.
출전해
본편에서
얄짤
##남을
도르트
브루스
한번씩
싶어하는
뚜렷한
##차트
시스템으로
액세서
중점을
고치
##생은
이상적인
1988
징계
죽어가
짝이
마음껏
1920년
##재료
들어왔다.
개인적으로
마니
##구경
입지를
Ke
도호쿠
경기수
1914년
눈치챈
지정한
섀도
##핑크
찍으면
동계올림픽
App
모형
것들
달리고
라오
열람
기준,
##세이다.
리볼버
가족과
##압이
현행
서로가
##규는
북유럽
It's
RAW
시궁
말하기
142
##길에
02.
##는가?
##염을
##테는
한국으로
정부와
기간동안
한때는
쓰이
##총독
진영의
인터뷰에
싫은
미로
웃고
하세
몇년
대회가
##ren
##라이즈
##아이돌
어처
##셔서
촉구
시너지
##화하여
미도리
무엇인지
##마이트
대화가
냐
이츠
3호선
##ness
10일에
던지고
느껴질
하드코어
##덩이를
##답을
##코르
목동
개념으로
힘겨
##폭력
평가받는
어렵고
CT
옷이
완수
##곡이다.
클리어가
토탈
번은
앞마
##튀기
디트로
##미스
'C
별점
않았으며
생전에
합창
유래한
내서
단역
사극
나한테
열차는
권총을
헬리콥터
효과적으로
20,
우주를
맨유
탑재한
로봇이
버젼
##행동
1936년
##>,
##불이
선거구에
연구하는
류현
늦어
저스티스
##하세요.
##공격력
무공
구급
데뷔하였다.
욱
하나였다.
창고
음악의
##마켓
DB
##릿을
페인
패배한다.
조폭
1990
##됐던
수복
모험을
방이
역설
두지
##퍼센트
묘사되는
##퀸
앤더
프로젝트의
##개에
스타팅
후보는
하위호환
##데미지
##-아
지명을
##님.
하였으며,
로비
지하에
종류는
1-1
렉스
##매매
##arm
경찰청
공동으로
##교에
패를
악성
에피소드는
##/14
산을
장군의
골목
첩보
##요일에
전태
우주선
탁월한
부여하는
입에서
캐슬
암컷
반응도
대전광역시
##요...
몰입
밖에도
역임하였다.
Elect
132
##.70
##였으니
승패
팔찌
가까스로
가방
관악
재조
운행을
붙잡고
##버스의
참가하는
부풀
귀중한
번째는
스캐
재보
존댓
브란
최근의
##rop
익혀
시애틀
제후
##건으로
SO
버전에서
넵
리모델링
##겠다.
##곡,
영국은
T-
오리콘
진군
##판.
15,
1951년
##데의
##집은
왕비
되었지만,
법원
운영이
과학기술
킹덤
인성
구조로
##녀로
##끼리의
##밀리에
동창
당당히
다니던
생겨나
##인민공화국의
이미지로
위치에서
콜드
불과한
가리는
##트레
유포
현대에
용기를
##패치
280
##해왔다.
임요
관련해서
헬기
##고자
끌었다.
왼팔
팩션
Hell
고시
임창
뭔지
깡패
만큼은
캡슐
것들은
##끝에
주사위
초창기에는
6000
Song
가치는
흘려
1938년
드러냈다.
147
펼친
욕설
멜리
좋았던
GR
143
스탯을
##베가
패트릭
존속
##근,
기록된
인정한
숫자는
##안군
공격하여
학창
촉진
있음
덫
살인을
짐을
원흉
확정지
##.S.
##하단
컨트롤이
재무
루머가
병사들을
##기본
##on,
효율적인
동갑
박힌
차세대
세계대
되어있는
기술과
##범은
배후
코카
141
살아남아
리코
백악
이야기다.
[[]]
튼튼한
인과
##출한
땅이
김씨
##reat
##드나
달이
연세대학교
요미우리
마스코트
대법원
놀아
인가대수
라일
차량으로
덮어
대인배
밀러
##이라면,
있었다면
경기였다.
스킬과
##s의
빅터
세탁
황제를
##템을
장비는
2루타를
사료
생기면
사리
거치
프랑스는
##착을
##병들이
시리즈로
성격도
##해달라고
##보수
위탁
들어선
글씨
'최
동안의
사범
화신
##공영
##omb
모빌슈
6%
채우
##거에
초강
줘서
동영상을
다가와
붐
컨텐츠를
발렌타인
##킬로
연이
##행의
##ᆯ리아의
제작되었다.
기억하고
##오닉
영지
식이다.
우리들의
감자
넓고
##ORM
##그레이
소피아
태블릿
거뒀다.
탐구
조종사
알루미
"D
미완
세자
받쳐
##경기가
결정한다.
##1%
형성된
##ward
##통의
팔꿈
의미심
미야자키
구장
형을
전차의
미스터리
재혼
검사를
동생을
도르트문
##피해를
1,0
2007년에
정의의
##rand
##직업
##탄으로
월등
##런을
##질수록
##철을
화소
평가도
견인
기타사항
나가지
바텀
##유지
포로로
코가
5의
타면
감전
교단
섬에서
##~11
##주의는
VIP
눈치를
밝고
최진
앞장
##ALL
##급인
내용과
행정구
플레이에
문과
##왕후
제국에
소재가
구해준
저상
단식
##'라며
##티와
입게
전반에
149
지원하지
에일리언
공세
역사적으로
모델의
사천왕
두꺼운
##84
##선발
표기는
첫사랑
##스타인
대비해
살리
##올로
##회전
원한
아이들은
'B
데서
##여자고등학교
##리어가
지표
##ery
팔고
출연한다.
크로니클
공유하는
청원
엉덩이
미션이
하지는
효율적으로
서류
129
억압
##아로
133
##혁,
자들이
##타에게
누명을
기마
##학에서
##컨대
서둘러
아테네
9번
인증을
관할한다.
경로
본질
규칙을
##거니와
##노르
##놈이
이러면
지구에서
변함
펌
##감의
김혜
맞먹는
밸런스를
B.
##봉이
흘리며
드러낸다.
##AG
만료
따라서,
깔끔한
증후
사회를
상위항목
막시
##길로
서적
지력
##ᆺ도
충실한
##성장
##옷을
성질
좋다
대두
스이
청량
매진
대타
미워
##소환
지배를
줄었다.
이겼다.
대여
##준과
돈은
27일에
GDP
##욱은
##appy
라미
추대
##주의,
시절,
##EE
지면
모범
공휴
산책
잔인한
수식
##전함
이어지고
도망친
지나가던
동요
예전의
게,
전방으로
don't
싶었던
##위원회의
소개하는
##모자
관동
키스를
SG
##해지면
조현
예시로
##순위로
견제를
몸매
##있으면
15:00
하의
과거가
2016.
초회
격렬한
##액이
그릴
이즈미
##계승
마법에
요우
있을까?
뭐라고
##과정을
##사항이
중위
단자
##너와
판다
##남자
대관
사이에는
중국을
송병
##비히
블래스터
구독자
못하면서
대위
##전력
받았다는
꼭두
##카로
맞아서
Run
원격
금발
무명
멤버인
##카드가
물량
나가면
오스카
실정
데려온
Arm
발음은
점령한
##회담
조직이
교내
플레이로
붙여서
브라질의
흩어
'T
야당
국가로
오즈
편인
표시로
열차를
시즌부터
까닭
##물질
사용되지
앞에서는
식스
대회는
SHOW
2.1
##확률로
상에서
##피탈
##토끼
패트
13,
격차가
270
인류를
이슬라
1주
선천
##oid
260
##ning
편에서는
충성을
##먼은
##asy
군산
기술배치
40분
##que
라이징
잃지
조심해야
호프
##열,
차지하였다.
##잔을
일러스트는
수사를
비쇼
캐리어
스폰지
무궁화
콧
표기가
##적이지만
지방자치
가제
##구도
만년
무대로
##지않게
##투가
편도
시간대에
철회
살아있
##확인
##눈에
타치바나
동문
간선
말하지만
맞으며
리아
일각에서는
##돼지
하코
포세이
혼란에
돕기
도입된
7.6
전기를
경량
##움의
차트에서
##실록
삿포
박주
##사령부
핸드폰
달라는
만들어내는
폭발적인
##!!"
일격에
장갑이
##노프
스케일
하와이
떠서
137
##렌은
없음.
world
##bps
답변을
바란
##its
##묻
원인으로
외쳐
설명했다.
피에르
솟아
대표는
문제이
##엘은
횡단
5~6
##ᆸ니다
##렸기
파기
급격하게
도널드
양식
pr
##요원
김인
##몬,
Skill
해밀
##는가
이형
단절
22일에
위원회
수컷
버금
##군인
##실험
굴려
##리니
정벌
인내
애니메이션을
모드.
2005년에
테러를
일찍이
껄
##지니아
투여
썼던
이치고
##탄에
가르치는
Da
제거하는
죽음으로
'불
##정에서
##IST
여주인공
음악에
작업이
김세
온전히
##평가를
조인
강성
##빠진
잡아야
마이애
착수
이해하고
"제
##~40
활약하는
동료들이
방황
숏
##타로의
"전
전자는
##ely
없어져
음반을
긍정적으로
Cy
##재와
박병
1.9
##직으로
카더라.
실력으로
밀리지
Pe
종족의
##만과
미스테
##발매
쫓아가
바쁘
행동으로
많아졌다.
밟고
내용도
포즈
##통제
호는
겸임
##사람이
믹
##링의
##넣는
제시한
9년
되겠
자기의
대표적
미유
낮지만
탈출한
날아다니
##day
18일에
##투아니아
##해주지
##우주연
##트루
발효
##상태에
26일에
픽업
대답한다.
처리가
##규,
Comm
136
여성은
##직은
떨어지기
스릴러
한중
정이
들었
##위원회는
날아오는
폭탄이
##화되는
소서
로테이션
##동원
장착할
줘야
##시.
미라클
##부대를
인식을
양현
간이
고려해
우선적으로
대승
증상이
그리스도
생존자
누군가를
##장이나
도미
##루스의
씁쓸
현실에서
대전이
미즈키
리눅
플랑
언어로
스몰
##보며
##더에
##놓는다.
보태
이어질
##52
##섭을
정문
##준다는
##관인
삼았다.
Str
벗어날
자사
##곡.
목소리는
롤채
위협이
줬다.
다가오는
정치적인
##리지만
선도
광양
마나가
찌질
##욱,
파워업
##었다고.
다녔다.
##주.
부화
어휘
자아내
유년
박세
성공하였다.
가지지
지금이
동물을
당의
빈사
부활을
##세기의
가샤
고령
전적으로
올림픽에
##털이
법학
한글명
4%
애들
차이점은
프랑스,
중시하는
부수고
던질
방향이
표시된다.
##종료
길가메
RS
##P의
15초
라틴어
Not
가능해진다.
성격에
선에서
담당.
카타르
##담당
폭발을
결승에서
인터넷에
4th
##56
낡은
20만
##등은
두번째로
타니
직전의
##FT
신청을
시네마틱
재결
169
2:0
삼진으로
장면.
튀어나와
디트로이트
10번
##랜드를
구성원
대잠
##play
쓸데없는
리턴
형인
농어
us
##턴트
업계
성격.
중년
의거
리카
##M@STER
단원
천상
2개가
발악
팜
##증,
순서로
제의
기타를
스베
##코.
동료들을
소설의
도입한
질이
말장난
리쿠
매개
##내어
코끼리
로딩
1937년
지친
##사자
화석
작사,
##영에게
##oud
스타일로
난해
대박
이닝을
##D를
편이지만,
출처:
제대
도피
손수
비교가
##저와
##횟
##리그의
##ᆰ아
##co
수녀
##옆
당첨
보여주기
발음을
작성한
양산형
종착
득실
조합은
##스부르크
폼을
윤종
##들었다.
성기
##운전
하네
내무
근위
골치
대신하여
다이묘
중심지
의상을
재계약
등장해서
시킨다.
##더로
난폭
잠복
피하고
공속
##타로가
##선택
말대로
뛸
##쯤은
3위로
취하는
##ient
하겠
정당한
##벨리
용어를
이따
일직
##느냐고
판매가
##이스
그리스의
##페어
5:
##솔로
제사
국경을
봐선
##M의
비밀리에
##추를
규정이
4호
이들과
기각
가다가
잃는
##일랜드
짧다.
##팔로
일진
소리는
시도하는
만드는데
Im
##드릭
고생을
##령과
파격적인
2일에
우파
##위원회가
죽었다는
불가리아
##cl
A,
조슈
본인을
영화로
송파
라이브를
졌다.
일제강점기
근원
눈은
압권.
##술에
교수의
성능도
알겠지만,
1군에
##내서
티가
##광의
2006년에
재난
##리스와
스케이팅
##RO
##하세요
열기
스트라
공사가
관련해
느끼지
스피어
##나우
활약할
##기간이
피츠
허구
버닝
장면으로
##저,
##거라는
##생,
승천
##랜드가
결정하는
##ship
##신경
##너,
테르
##스탕
동대문
이상할
##림에
하고.
참가자
레귤러
쓰면서
##클랜드
토네이
황당한
17일에
##TER
11일에
천마
##KO
설명에
남구
제로의
가져왔다.
##검으로
들린다.
출마하여
이펙트가
경이
##-27
앉은
판단을
##org
당분간
2.2
3,000
가지로
##마드
책의
동독
##루에게
##제인
##말은
풀어주
프로그램은
연사력
할당
없었기에
장비의
She
##벡
여신의
##82
오가는
14일에
귀찮은
차오
##았다면
##서.
뻗어
듀얼리
평도
클라이언
##간은
##교와
복면
##박물관
초사이어
눈치채고
##로보
전세
##하였지만,
프랑켄
패러디한
능력.
##그룹의
차후
채울
활동하던
독일군
##삼국
##ien
후진
고백을
##ham
전했다.
베른
뿐만이
삼성의
추종자
##턴에
1칸
대회의
때보다
차분
진을
재팬
베가
EXH
버전에서는
##눌
기계를
교정
밀도는
현존하는
##마르크
공천
새겨져
쩌
저가
모을
부상이
##산맥
##케가
나왔고,
본편의
최연소
제14
쓰러진다.
정교회
##래를
기간은
##미사일
##보안
친구들
미얀
장애인
##되긴
독보적인
##신.
문화의
사정거리가
01.
대부
당하면서
역에
깃털
NX
이계
관해서는
펭귄
"H
##tra
발산
3일에
원전
푸는
아내의
신한은행
##처는
커져
발라드
일화
올리기
보고를
슈퍼아머
한다며
미칠
성형
팰
느껴진다.
시기에는
대륙의
##하든
유리하게
무게를
담임
##구미
총알을
'동
##지오
전작에
1명이
Big
전한다.
상태인
야구를
아세
무의식
##다로
모호
구석에
되어도
싸우다
##vent
어중간
마른
##리터
목록에
"W
발매국가
현실에
자잘한
3종
##소득
제16
유진
##폭격
지금까지의
쉐도우
쇼핑몰
가차
애드
네코
"대
##뚤
##표의
의장
1위는
라그나로
9개
##게시
캉
해와
리나
샴
잔여
알았던
줄기
##감치
U+C
컨셉이
##헐
자신에
사이트에
18세기
지키지
초등학교이다.
Get
감독,
철도역이다.
어지간히
경과
느낀다.
세력은
포함되었다.
안타까운
하라는
수상하였다.
아이들에게
##민주연합
모셔
12일에
부여한다.
바쁜
떄
##드림
공격하기
##집으로
13일에
꾸준한
하부
아틀레티
북쪽에
합류한다.
뷰티
법이
특성:
착용한
##노키
경우의
7일에
구하고
매입
송도
즐거워
##53
##03
차출
봉인된
발렌시아
##보살
배속
몰린
배우로
구조물
충분하다.
목요일
친밀
줄은
힘들고
앞둔
평가하는
몸무게
##~~
크러
##부상
공채
막힌
##해야하는
##빈,
행방불명
폭력을
침대
흔적을
##수나
##업자
쓸만하다.
미인
오딘
라이선
재미가
Des
##가요
중원
박민
재미있게
발키리
##사상
로스터
빠지지
Back
##Fi
##스라는
##분과
##디자인
병에
준비해
자료가
동등한
##경쟁
소속.
깨달은
##졌다가
##죄로
단단히
장신구
사지
나탈
##근은
떨어지게
21일에
1인당
이송
명에
달리기
못한다고
기업이
##ift
##럼비아
##묘하게
미래가
운용하는
##으라는
##해지면서
뭐고
필살기를
순수하게
유라
##구멍
편이고,
건물로
번만
했다면
##ious
##&amp;
##주에게
매복
의사소
Top
소환해
##님과
1930년
생기기
1점을
MD
허브
줄줄이
##시켰고,
##껍
매력적인
##정상
##륙을
허가를
접한
인근의
##스럽고
##경기는
벌어질
만약에
신촌
소유한
시대에는
라이드
고양이를
아끼는
브릿
엔트리
이로서
동전
신라의
커비
차량에
가문은
##다라
해볼
무대가
나서야
배틀을
햇빛
오드
##틀링
머리는
##-26
무난히
대출
공격하고
##ATION
해야한다.
저항을
유러
##ᆷ없이
가운
수준이라
타이베이
6차
##하되
##ERT
깨닫게
떨어지지
닿으면
##컷이
##끈한
Act
기운이
##정도는
해석이
##케의
왕따
##ump
보였으나
##고사
##르노
먼치킨
비롯된
연락이
way
한의
##시키거나
##총장
쌍둥
예상대로
연의
발의
맞춤
커먼
챔피언이
퍼시픽
##캉
##했었던
참여하지
##bl
##erm
##지않은
유나이티
카밀
바빠
와서는
##업,
실패.
노르웨
Battle
##조에서
줄이고
##먹었다.
다르기
보호하기
입단했다.
유선
내면서
타석
처단
제공한
##워진
##머리가
싸우기
5층
##명도
초대형
태그팀
##나갈
개미
안쓰
아이슬
각색
징병
7th
맞다
##89
묘사된
##+10
16일에
자살을
##스킬을
마츠모토
소셜
##창은
붙이고
무기력
##ᇀ이
##카도
진나라
면적
29일에
구간의
지켜야
색깔이
NL
부시
속사
카운터를
없다!
불쌍한
CB
움직여
##인들과
투표율
아스타
신민
유저를
하였으나,
##퀘스트
1이닝
성지
사바
##대며
탄소
승리한다.
M2
저도
맡을
##누가
팔려
달라서
유니온
들어가고
##대비
신디
취급이
표기한다.
원리
유지하기
소중히
에리카
왕과
준비하는
어쌔신
Ang
분자
마포
일부로
정책에
붙어있다.
언급은
Are
con
토비
특수능력
오마쥬
친근
강해진
##점프
초필살
꼽을
받아들인
F/L
가산
문제이다.
특징으로
##the
더비
##생들이
살린
첨단
##되기에
##약의
휘둘
보물을
비요
증가했다.
어린아이
가솔린
스패
파벌
교과서
고스란히
조달
알로
정신력
시타
보답
능동
플레이어들이
요소는
##촬영
도구를
연주를
보나
계정을
비교해보면
비판했다.
##청에
4층
##니트
205
느낌.
협력을
순위는
##방지
늘리는
장타율
도색
코마
##lock
거두고
애니메이
시정
위시한
##각형
건너가
형태.
거예
##르바
진한
승계
마오쩌
유고슬라비아
순양함
##퍼런스
효과:
##or]
예정되어
발휘한다.
받았으나
힌두
민감한
카바
강판
##옥의
해본
진공
고향인
DT
##하드
팔에
##러운
Dragon
##엘이
궁지에
##이나마
심플
잉크
십이
총선에서
##테러
악명이
출연하여
밟아
##림은
대안
작게
필요하다는
씨아
##지역의
쏟아내
##에가
##장소
주석
그리워
##해석
##직에서
##ape
명확히
##하라.
화력은
정신병
That
화려하게
##1명
의자
번호를
악세
먹게
깁
역시도
연결되는
헌법재판
선이
현황
항목의
누군가의
장기간
싱어송
1세는
실무
'영
동작을
F.
##상대
##사라는
합류했다.
유추
소피
##?'
레기
줄어들고
##전공
##윤이
안중
##각은
법적으로
다이노스
비아냥
##타나
무협
##무네
영락
장치가
원이
안토니오
##3명
##순히
안철수
##돈이
##자스
##분야
사이언
##곡동
##이도
뵈
셀프
AA
중전차
못하여
want
만들게
특성은
노골적으로
5경기
사생
양평
나가사키
요소로
꼭두각
##마인
##붕괴
##런의
GL
수렴
##진도
들자면
그러지
집중적으로
비즈니스
Order
헌데
시점으로
니콜라
XXX
##트러
사용될
재등
캘
방영일
바꿨다.
##타노
##ᆻ으니까
맞물려
NS
에우
어깨에
지녔다.
##리우스
관습
좋은데
참가하여
##만큼이나
과거로
천체
색채
말하길
김제
23일에
표현할
##.80
채널을
##무도
Lv+
프리즘
육식
고문을
생각했던
##FFFF
선형
무기,
받아들일
정의를
유학을
##led
모드에서는
결론적으로
만들었
취약한
읽은
외모와
대전에서
뉴캐슬
중산
가능하고,
사랑과
불상
##취소
남아있던
앤디
4가지
등등.
실시간으로
Fre
제각
애니에서는
용아
경감
러쉬
##튼의
##리시
사라지지
형상을
이야기에
종료되었다.
##ANC
1주차
노태
애리조
당하게
임용
CV:
어이없는
##부대가
말아야
재학생
존스
형제가
아직까지도
천문학
제작하는
죽어가는
TCG
돌아와서
소송을
##학습
##라이즌
표현은
##서비
##먼이
1박
650
동유럽
변했다.
세계관의
데이터가
미니언
크루세이
오레
후엔
##프닝
등급의
19년
로키
##펜스
숀
##닭
환원
누구보다
'A
##두근
##ideo
평민
'D
##수송
10,000
왕립
##됐을
태도가
##87
##주도
조세
동국
간편
슬럼
최영
보여서
1950년대
확정.
##anchor]
##신에게
넣지
도로를
신병
##콘서
달아나
로맨스
##게이지
##슈의
설치할
2,3
잘못이
파운드
있으니까
100년
##ute
구스타
한다.#
스스로가
찬스
전차가
탑승한
굶주
3.3
챈
##미지
##카츠
토이
치명상을
Ac
##록이
졸업하였다.
##-N
##름은
적기
얕
초,
행동하는
##종합운동장
우습
옮기
선보이며
##내셔널
3시간
이선
비대
흔들리는
##리스가
##레이가
살릴
##눕
아시안컵
##하트
여인
도검
UR
##xx
##시작
거란
새정치
류의
버서커
하비
20여
매스
헤딩
먹튀
4시
벅
키에
탄막
2TV
sc
##군도
눈부
클로즈
와다
입이
나라에
판매를
남자와
style="margin:
##적이었던
교란
놓인
소유자
장소는
햄버
분홍색
음모를
낮춰
##일관
##재단
따지자면
미터
##위에서
피자
처리를
추월
2004년에
WE
##섞
##중계
선제골을
내걸
때문으로
라시
Tri
않는데
##바키아
##담한
포트리스
상품을
확인된
싱어송라이
##쎄
샤프
사망하는
##-35
급기야
기자가
팍
##술,
타입이
##기관의
Every
엔진의
있으므로,
##카운트
무상
적용되어
심심찮게
##지리
자바
물리적
충실히
every
##ᆺ집
유가
코스튬
Amer
자식을
오너
1993
문서이다.
3선
아날
버터
##앱
Mr.
##/25
##았다가
비난하는
"네
##차도
원동
행성을
RAM
돋보이는
##mania
라이센스
##기라
세례
방어가
포괄
애로우
##예정
선언을
##어서,
##캣
Bar
주성
여부는
명.
백색
##클립
##슛
경유지
HG
##/D
##"과
마천
때처럼
공주의
뒤쳐
경제학
돋보
##과정에서
5일에
영웅은
작화감독
어처구니
자식이
등급을
M1
##/19
지름
마늘
부메
빡빡
있더라도
자체로
##샤를
적시타를
2019년에
지금까지도
둥글
##블러
134
목록이다.
빌헬름
A매치
##틱스
당황한
상임
작다.
##활성
괴롭히는
IDOLM@STER
보였지만
노력하는
댓글이
'안
서울로
##갈이
##태평
계좌
사이는
묘사는
도와준
섬으로
##두자.
공격력도
##ize
##식품
라인하르트
대사.
데려다
되거나
단정
사라질
던진다.
사랑해
다르다는
시련
등에서는
문법
##람쥐
##까,
##배는
결국,
##비언
최재
배척
시작하기
##사관학교
평가했다.
24일에
##꼼
마비노
자격으로
양상
칼데
교향곡
한스
최단
결말을
1,500
SW
단연
##종에
떨어트
구성된다.
리조
여겨지는
아들은
1800
목표가
왔다갔다
못해도
인지도를
검으로
안쪽
매지션
받아들이는
비싸다.
튜토리얼
##시계
청주시
후계자
메달을
슬라임
##yout
보증
취해
more
지게
상상을
남쪽에
골고
발휘할
서스
러시
옥타
합산
##조판
관문
규정을
성수
레슬
##투명
패에
터무니
어드밴스
스콧
전라도
사이좋게
운영에
좌우로
시가지
##크리트
##아!
##토에
재평가
손가락을
절차를
맡기고
##ing,
##다투
수뇌
무장은
##설에
행위가
구자
더미
만들어야
케이지
##zy
##수정
탄도
타당
까이는
인스타그램
기세를
줌
탑을
회복을
특수부대
좋으면
##au
##공장
직관
난징
겪게
마력이
전력으로
우투
##라이너
되자,
##건물
애덤
아닌지
지상에
바지
창간
솔라
공화당
back
유해
미네소
살아서
확실하다.
고민을
10일,
형식을
게임,
넘어가면
DO
Sil
15일,
그토록
과부
집게
##샤는
지방에
변화는
##미트
그리고는
##롯
사이에선
'바
they
듀티
앞으로의
명확하게
일대를
프랑스에서
브라더스
##당해서
동지
후자의
##줘도
감소합니다.
명령으로
지적이
##박사
봉인을
웃으면서
마녀의
수비가
2차대전
8일에
에티오
교양
컨디션
빼아
##냐?"
시너지가
11회
##드리게
블라디미르
거머
제식
##테를
##꼬리
XP
##노코
별개
14,
카트라이더
##1회
만의
난투
##광주
영화.
전통의
위태
##ited
김태균
구단의
##스트와
패배로
오른쪽으로
궁극의
요새를
##선수로
경기로
알아보
비늘
1600
사례로
1세가
width=
##현에
TN
원한을
특화되어
야전
##:3으로
유스케
조조의
##준비
사기적인
명의로
부터는
DEF
가중
애써
##광역시의
괴멸
쏜다.
##되어있는
활약은
8000
기량이
해달라고
위함이
1면
5세
동족
GHz
복종
헤븐
아이돌의
외국어
보니,
보행
입시
가능했던
충격으로
앞세워
방벽
친구.
##해양
진의
디스코
##106
##샘
구성은
됐을
##좌석
##자들에
세션
토머스
Met
쿠마
카가미
벌어지고
19일에
남해
빨려
장애물
##샹
##D가
열을
캔디
##버렸고
재빠
보인다는
##상인
무법
나가노
남편의
있을때
'L
서유럽
줄임
활약하고
건담의
아르바이트
제거하고
2배로
정인
투니버스
쉬우
공격력,
녹여
아산
비키
영역에
사람,
급진
언급에
히노
##다스
더럽게
down
등용
세금을
##S,
뿐이라고
쓰며
##되면서,
보쿠
법조
마찬가지로,
찰리
##부대의
버드
문명의
우주로
구조는
##작이다.
뮤직뱅크
어머니인
##G,
장풍
포지션이
커리어를
밀린다.
생산된
아르테
화염방사
올라가서
500만
##시다.
##겟
##stem
케인
##시즌에
반으로
프로세서
헌납
FN
있나
한,
이장
크리스토퍼
20일,
호구
짓밟
세리
루스
준하는
스태미
마르티
오로치
##DI
당당하게
갈릴
밝히는
##오른
##소재
진해
뎀
문화적
내구도가
##부짖
Hot
##"이다.
나레이션
경사
막대
6번째
재판을
티켓을
##-1,
많았
순조
가한다.
게리
병으로
까였다.
##잖아?
##라인이
기억해
클라우드
##교자
##랑,
스파크
조용한
성도
커트
스킵
PSP
##라인의
전폭
의도가
레나
사라지
날라
뿌리는
"한
550
리사
못하지만
생각된다.
괴상한
그것에
재료가
##히면서
닮아
##06
한결
있었으니
4화
##레와
상대로도
Inf
##C의
재차
사기꾼
붙잡아
나선다.
조국
아니야
##론으로
네모
2개,
##--
서재
바뀌게
현대자동차
분위기의
제다이
##시키려고
묘사한
##:00,
##투성이
규정에
맞추고
스스
타나
채운
##협의
'강
##우스와
소진
라인하르
규모는
품질
##전.
미오
##제어
##번길
연구는
인신
용어는
인생의
##work
##명/
날릴
배고
죽어나
강인
##변의
"P
바늘
경우에만
##발은
##순간
주인을
50년
그러는
허영
피해자의
않았으나,
비교해도
형태이다.
부서진
그로부터
구타
합치면
파이터즈
##인사
말린
이르게
베라
##line
정거
않다면
성공할
사교
##할을
스킬명
##관.
상당수의
정도밖에
체계를
압살
수정을
수요일
변수
존슨
날로
제작이
신설되었다.
직면
괴도
##메이커
##반과
되었습니다.
레벨의
할리우드
##감소
논란의
소련이
이북
거슬
키우고
퍼진
스탈린
##차에서
발톱
카케
예정.
지망
##요는
빼앗겨
##성:
끼친
Open
웜
참고할
불가피
사이트를
자산
표시가
수하
성채
우체
알다시피
아틀란
##해본
성스러운
##하기엔
바나나
때문이라는
이전과
##-28
대지의
##찬의
일방적인
아이디어를
과금
라쿠
죽인다.
다름없다.
사우디아라비아
에바
싸움은
공짜로
##가기
구세
반감을
망했어
깨는
떨쳐
자회
다친
차마
산체
##옥을
지방선거
##지역에
텔레포
세련
주루
##손이
내려갔다.
Game
영웅으로
판단한
UFO
부대에
데스크
함정을
곡에
지나는
윤성
##만.
터미네이
1대1
##받으며
##깡
텔레포트
대검
분위기에
예정이었으나
떼어
2루수
##2에서
병사를
이적하였다.
Bra
##핀의
우츠
19대
목재
빈센트
##돔
베네치아
툰
2-3
위키백과
이메이
Bea
노력이
역사와
불린
학교로
하면서도
올리며
M.
##사노
##씨,
광저우
##이었다가
넘길
활발하게
##첩이
1935년
Int
붙여진
##ᆻ어요.
짐작할
편인데
##에서야
원의
##캐논
부유한
성으로
번거
##ole
제외.
노후
##망은
##무진
신주쿠
양은
##결한
억지
May
시스터
해결하는
대를
비범
극적인
저격총
빠져서
광화
날아간다.
유학생
궁극기를
제천
의존하는
고른
구워
재개발
블로그에
오케스트라
르네상
선원
출연을
##바람.
보였고,
찌르는
장착하고
제거할
해군은
적들은
총학생
산출
금전
낮을
##화하고
##향의
온게임
술탄
칸의
가즈
해수
아쉬움을
받아들이지
성공.
##핑을
+5%
한승
##부.
유비가
##제네
Em
중대한
애니메이션이
Comp
임의로
캐나
모습의
광선
퍼포먼스를
미남
멤버를
독일에서
프론트
##콥
바하
##투쟁
하나라도
인챈트
모이
##법이다.
편견
특출
기량
많으니
벗고
묘지
일어서
북아메리카
총격
330
시작을
마법은
샤이닝
쥰
2.6
불합
배상
##프레스
그만두고
3억
##K의
##는다는
소설이
체제로
스웨덴의
사카모토
진행하였다.
4집
KS
인연을
탤런
돌아가고
보상은
등지
##/100
없음을
무성
200만
CA
막아서
짤막
가사는
쓰거나
용과
궁수
계급은
릴리스
거치면서
##바인
타로
##받아서
언급하며
##맞고
놀라게
BASIC
##거린다.
##자매
학교는
##구동
##소하게
확고
심문
어우러
##법상
순순히
격돌
##메리
분리된
##표,
님
부진을
손목
콜린
실황
존재했다.
##간다는
인기투표
상어
포털
회복이
발언이
숨겨져
교섭
행진
에피소드에서는
간다
컨디
개그를
##ᅪᆫ
지라
해발
말자
##되자,
##당하며
계층
독일,
스테이지의
2개월
우위
따윈
##핸드
부통령
여느
치사
1932년
##83
보정이
과잉
몸에서
건데
50만
목록은
1918년
##청,
##LD
상향을
과학적
인상이
켈리
이해를
Joh
형의
울부짖
##틴의
친구들을
4단계
##세라
##카드로
상태는
사건.
크로스를
하반기
##a의
##럭스
명도
폭사
깔고
Moon
wiz
##깃
시도가
포유
패했다.
냉전
##-1번
Bu
GAM
사라지게
아역
위도우
투구를
##빈을
비행기를
FBI
어쩌다
Rain
##모도
상황도
민정
읊
##체계
##기갑
땅에서
##IGHT
미처
탈탈
멱
##꿔
레즈
어려서
가져갔다.
유지를
인테르
끝판
##툭튀
##속도는
1933년
강하
부두
참여할
까다롭다.
##HC
내심
호투
##."라는
##강,
##사이즈
##기에게
다는
오주
포함되지
엠파이어
A4B
와일
논란에
시도한
잦다.
##조사를
이시카와
카리스마
아이치
하나하
순차
최고로
버전이다.
불러서
닿지
##ᆼ의
13년
배경을
##들중
##딘의
로봇을
##volution
전제로
미적
승강장의
##ude
가격도
##ris
시스
끝에서
##마자키
1무
말부터
백합
운동에
스위트
서버가
4일에
##리바
좋아해서
있냐고
작전이
##거리로
가량의
##간,
##점수
상대팀
1위,
##기둥
일들을
촛불
티라노
조건에
끊겨
##유도
교수로
중반부터
연기했다.
튀어나온
세기
피는
쏘고
엑소
제스
##코쿠
졸업했다.
치트
광학
안드로메다
커뮤니티에서
내야수
Cont
며느
크리스마
비둘
매트릭
재규
참고하자.
카테고
작렬
음양
운동이
따르고
중심에
스크롤
아날로그
방랑
쏴서
양주
볼텍스
##부리
사실로
211
##ric
시점의
##만하다.
제물로
먹이는
탈당
애니메이션에서
##치고,
부족하다.
잊고
##었으면
##함에도
25일,
응징
생성된
+30
WAR
여친
여부에
Yeah
소문을
##메테
##창한
##일기
먹혀
##새를
않나
단간
사용자는
여기선
##ner
오산
##쯤에
행복하게
콜로라도
"L
시시
##소니
Bur
##호:
##스테르
##ᆻ어.
사물
애초부터
독서
131
시나리오를
키울
없어진다.
##ᆸ기
딕
예상치
덩치
향년
플레이어와
DDR
##54
100m
##하려다가
쓰러뜨린
닿는
##고.
##시테
기준은
##먼의
끼치는
##카리
RF
체력도
항목이
남편을
##잡아
가문을
미유키
생선
준다는
2000년에
셸
##대.
수련을
깨진
강사
찾아오
성능의
##다'며
03월
Med
졸지에
혼자만
시발
지분
반이
##승,
역사에서
끝낼
비밀이
국민의당
##구축
백화
##변에
정체성을
물질을
성우를
##알라
이념
있음.
##모양
볼때
홈페이지에서
만나지
접근할
공군의
붓
명백히
수차례
루트로
28일,
75%
수료
기록해
God
세우는
이뤄진
크기로
날의
작업에
FR
HT
모라
반다이
끝없는
##않고
매수
베로
##말라
##블랙
선택지
사항을
조교
에스토
변경되어
모션을
기합
서면
무차별
강의를
##콜라
##i-Fi
슬레이어
2.8
##쁘
타도
##렬히
다수가
바다로
쾌속
6일에
##white
##우타
못하기
쓰이기도
스콜피
수퍼
주립
헬로
##hy
OCG
##유리
네팔
세계관을
몰라서
beatmania
##브에
샬로
이강
##라지
##베를
사이퍼
E.
거행
일화가
들통
풍자
기괴한
일족의
뽑혀
연합의
카운트다운
##-V
피쳐
##왕으로
##럴드
슛을
흉악한
퐁
##ger
이범
정권이
네덜란드의
##~"
실어
35%
계통의
밀쳐
랜서
나왔고
들어오면
타워를
하리
사카이
보석을
팔로
##u.
지탱
병이
평가받는다.
접근하는
서브컬
무모
모으기
취향에
톡톡
4위를
메두
애로
짊
상경
텍스
난이도로
퇴근
이적한
선출되었다.
전략이
##승의
##대책
신분을
##~18
##공학과
기술배치:
밀려나
##설은
빗나가
자판
뭐든지
밴쿠
고질적인
리히
곡인
인물인
입학식
전방에
팁
대통령과
안드
잘린
##창,
3일,
##하에서
도로가
만들었다는
가리고
##되나
대주
비약
라마
사이오닉
'원
신종
왕궁
발생하지
##2명
##섭이
비율은
선수에게
##샨
둔다.
팻
명예를
9일에
##다거나,
##갯
##더블
남캐
함으로써
끝낸
유일하다.
전후로
도구:
지경.
##X의
않음
##측에
바스티
##공동
##고래
그들과
##제프
부실한
지나갈
짓는다.
겉으로는
##차고지
2:0으로
서드
신관
비교해서
방향에
틀어막
비효율
신봉
Alb
마미
##움은
##거와
티셔
박태
충돌이
+6
이스터
지폐
놈들이
NAS
밀란
무의미
가둬
킹스
일찌감치
##2.
북방
##어버리
1931년
불리게
소리.
거주하고
##디난
순간부터
인물들의
트랩
Like
버지니아
캐릭터들을
##씩이나
314
하늘로
##해보이는
##중이던
박사는
화면에서
7일,
가두
현장을
레스터
##몬드
연주하는
장벽
잔혹한
핵을
##톤을
##A를
한겨
##신다.
적정
지켜보고
2일,
##구.
화요일
여지
압둘
1934년
문장을
원한다면
등장했을
광장
위해서라면
트로이
생기게
##시키려는
##ius
있다...
에게
##스코어
##팬들은
목숨이
먹어치
##ᆻ지
저스틴
분명한
.3
위임
탓이
##괴수
기염을
참수
##mm,
나무위
##뮈
지형을
##부여
소탕
프레스
몰랐던
##장일
미군이
비리
##기도.
기준.
사실상의
기동성이
리리
##룡은
스테파
상대방에게
##쑥
거리의
##수호
##라이징
기여를
게르만
부문에
##UK
어렵다고
##어주면
선한
턴을
대학교의
프로그램에서
##배에
하시모토
전까진
타라
치중
황제로
잃을
##용사
공영
발전에
아스트랄
'주
골리아
카이저
Cent
건틀
라이브러
부식
타구를
종족이
오면서
넘기고
파워가
엮이는
스쿼드
보이자
##판정이
왔다는
속성은
마쳐
현상은
##궐선거
농어촌
지킨
돌봐
드라마를
전통을
컨트롤을
##57
##없게
자세로
폭발하는
WCS
"안
우마
FF
our
사죄
브로드
##복합
밴드를
등이다.
낭만
제품은
##하였다
흐른
명대
우승자
##밀하게
예뻐
잠금
이래로
공장에서
장려
##orth
무승부를
피닉
알면서도
##퍼트
##자카
##법도
검출
거머쥐
##비지
##날레
회복하는
연금술사
타선이
##새끼
미호
##진영
##바키
극소
남긴다.
교훈
일본군의
웃어
울산광역시
느리다.
때릴
##레이션을
##벨이
통근
표명
##특수
밀접한
A조
놀라는
딸기
이신
해프닝
포탑을
경기력이
잠들어
설명하고
흑역사
음악가
##경찰서
Now
##퍼,
아르바이
4에서
총대
제작할
노선에
##타라
등장하게
좀비를
##어어
크라우
##현에게
활동할
벌을
에피소드의
투입된
서식하는
6.0
이전보다
런처
조약을
막론
##르르
##별한
진행되면서
콜라보레이션
효과적인
방식.
전략적
시라이
##무역
##결이
##팀에서
다이빙
대대적으로
시선
없다가
##호텔
드래곤이
아벨
개종
느리고
생산이
핸들
RP
baby
등산
상황으로
미디
도망가는
마도카
늑대인간
시몬
##인터
말기
고정되어
[[https://
메소
볼티
장르를
돌아다니며
good
따내
존재하는데,
레슬러
바뀌지
목격한
##oint
##타기
Master
따르지
근래
흔적
정서
정제
해봐
단골
방송은
둥근
연계가
26일,
최형
##님으로
공신
리키
##으므로,
##/17
##원도
##셋을
북한은
##ok.
Eng
FX
독자들이
막부
골고루
##스타가
꼼짝
##ton
##몸으로
##양에
돌로
승용
절도
범인을
과학자
냉기
##중학교,
비올
글렌
알아야
##프라이즈
"왜
안된다는
##관계에
막은
te
덥
이를테
출연해
손바닥
파괴한다.
제르
농장
리스폰
7개의
지못
요구했다.
클리블랜드
##판도
속에서도
던전을
인식하고
##엔터테인먼트
동탁
##출력
음식이
왕위에
##항의
조선총독
썰어
##당하면
향토
Way
##외선
##이었다
##en,
상관없는
1과
막바
개조한
로만
효과의
##-2로
음악적
쓰다
시작하자
슬쩍
부모를
##는지를
오르고
##관이다.
라트
직무
기술인
우승,
해석할
see
전해지는
##보조
도도
성격과
강아지
##어:
그지
##첩을
##양군
##입을
태권도
기능도
지장이
##크리스
비교했을
스텔라
##BOX
##주어
추석
생활에
CIA
##선언
##레아
발자
인간들이
##계회
황제는
30일,
가정용
싸워야
Soul
않았는데,
1달
##2에
차남
원자로
이야기이다.
랩터
##low
전복
들었을
##아웃을
팔라딘
##위안
갑툭튀
젊은이
파비
11일,
##플이
##장기
나타나고
촉수
수원시
우메
백만
이벤트의
왼쪽에
매출액
가급적
던져서
입장에서도
레지스탕
##국적
##당하면서
머리의
스펙터
##숙이
생산을
한타를
까지는
좌완
내려찍
##버리며
징집
코스모
##St
육군의
2019-20
##파이터
기체는
무전
태도로
##하는건
터지면서
송은
필드에서
Sky
다른데,
이에야
살해당한
ONE
NM
보기엔
버나
내성이
심하면
놓는다.
이벤트는
왼쪽으로
거쳐서
##서기
명실
캐릭터도
흑백
특징인
광범위한
##봉의
랩을
꿈도
여유롭게
호무
##변경
숲에서
상표
##렛을
악영
초반엔
성범죄
원작을
4개월
8%
##성이나
정무
경로를
성장이
두른
팬미
##str
기인
##ope
부인이
12회
뭐든
##iew
이룰
##던지,
연안
청취
버전과
KD
서리
채우는
##톤이
태클을
##L의
##칸을
##스킬이
오른쪽에
보아도
김은
교차로
간만에
부분만
진료
아득
##보게
만류
회자
보아,
##수단
##건에
앨범이다.
1928년
5일,
대칭
있는가
차일드
투런
##예프
패턴으로
폭격기
도장
멤버.
되살아
30만
프랑스와
4천
화수
##강은
안아
행복을
섬유
도망칠
##늠
카마
문성
중소기업
디렉터
##지긴
고난
당해서
심해서
늘릴
실력도
소아
병사가
##하다,
##에나
서는
##kr
순항
쟁탈
8일,
성모
상호작용
스파르타
##son
[...]
