[PAD]	0
[UNK]	0
[BOS]	0
[EOS]	0
[CLS]	0
[SEP]	0
[MASK]	0
▁▃	-0
▁ㅇ	-1
▁ㅇㅡ	-2
▁하	-3
ㄷㅏ	-4
▁.	-5
▁ㅇㅔ	-6
▁ㄱ	-7
▁이	-8
▁ㅇㅡㄹ	-9
ㅡㄴ	-10
ㄴㅡㄴ	-11
▁ㄷㅏ	-12
▁ㅇㅢ	-13
▁ㄴㅡㄴ	-14
▁ᆫ	-15
▁ㄹ	-16
▁,	-17
▁ㅇㅓ	-18
▁ㅇㅏ	-19
▁ㅇㅡㄴ	-20
▁1	-21
ㅅㅓ	-22
ㅡㄹ	-23
▁되	-24
▁ㅇㅣ	-25
▁ㄹㅡㄹ	-26
▁ㅇㅓㅆ	-27
▁ㄱㅗ	-28
▁년	-29
▁ㅇㅡㄹㅗ	-30
▁ㅇㅔㅅㅓ	-31
▁2	-32
▁있	-33
▁ㅇㅏㅆ	-34
▁대	-35
▁ㄹㅗ	-36
▁ㄱㅏ	-37
▁사	-38
▁지	-39
▁그	-40
ㅁㅕ	-41
▁일	-42
▁시	-43
▁ㄷ	-44
▁ㅇㅕ	-45
▁ᆫㄷㅏ	-46
▁들	-47
▁ㄱㅘ	-48
▁수	-49
▁가	-50
▁기	-51
▁전	-52
ㅈㅣ	-53
▁적	-54
▁아	-55
▁20	-56
▁ㅇㅘ	-57
▁ㄷㅗ	-58
▁월	-59
▁주	-60
▁제	-61
▁ㅁㅕ	-62
▁19	-63
▁다	-64
▁ᆯ	-65
▁정	-66
▁자	-67
▁중	-68
▁위	-69
▁인	-70
▁ㅇㅕㅆ	-71
▁공	-72
▁보	-73
▁세	-74
▁경	-75
▁것	-76
▁ㅈㅣ	-77
▁개	-78
▁부	-79
▁ㄹㅏ	-80
▁ㄱㅣ	-81
▁오	-82
▁유	-83
▁3	-84
▁"	-85
▁조	-86
▁나	-87
▁등	-88
▁ㄱㅔ	-89
▁스	-90
▁선	-91
▁성	-92
▁미	-93
▁동	-94
▁연	-95
▁마	-96
▁상	-97
▁소	-98
▁모	-99
▁한	-100
▁고	-101
▁V	-102
▁비	-103
▁ㅇㅡㅁㅕ	-104
▁영	-105
▁의	-106
▁구	-107
▁국	-108
▁도	-109
ㄱㅗ	-110
▁발	-111
▁여	-112
▁서	-113
▁201	-114
▁'	-115
ㅁㅏ	-116
ㅓㄴ	-117
▁4	-118
▁후	-119
▁관	-120
▁명	-121
ㅁㅏㄴ	-122
▁신	-123
▁만	-124
▁프	-125
▁5	-126
▁때	-127
▁ㅁㅕㄴ	-128
▁200	-129
▁장	-130
▁-	-131
▁방	-132
▁ㄷㅓㄴ	-133
▁바	-134
▁교	-135
▁리	-136
▁해	-137
▁문	-138
▁역	-139
▁내	-140
▁차	-141
ㅌㅓ	-142
ㅂㅜ	-143
ㅂㅜㅌㅓ	-144
▁당	-145
▁무	-146
▁우	-147
▁원	-148
▁통	-149
▁계	-150
▁현	-151
▁남	-152
▁군	-153
▁노	-154
▁포	-155
▁분	-156
▁어	-157
▁6	-158
▁또	-159
▁화	-160
▁않	-161
▁거	-162
ㄲㅏ	-163
▁학	-164
▁생	-165
▁ㄲㅏ	-166
▁작	-167
▁ㄲㅏㅈㅣ	-168
▁같	-169
▁결	-170
▁강	-171
▁출	-172
ㄱㅔ	-173
▁파	-174
▁ㅇㅔㄱㅔ	-175
▁받	-176
▁대하	-177
▁진	-178
▁크	-179
▁단	-180
▁7	-181
▁번	-182
▁최	-183
▁반	-184
▁10	-185
▁불	-186
▁8	-187
▁알	-188
▁데	-189
▁위하	-190
▁호	-191
▁두	-192
▁회	-193
▁배	-194
▁ㅈㅣㅁㅏㄴ	-195
▁안	-196
▁카	-197
▁실	-198
▁형	-199
▁초	-200
▁말	-201
ㄴㅏ	-202
▁따	-203
▁예	-204
▁에	-205
▁재	-206
▁ㅂㅜㅌㅓ	-207
▁없	-208
▁로	-209
▁타	-210
ㄷㅔ	-211
▁사용	-212
▁9	-213
▁미국	-214
▁종	-215
▁ㄹㅏㄱㅗ	-216
▁라	-217
▁이후	-218
▁ㄹㅏㄴㅡㄴ	-219
▁요	-220
▁함	-221
▁설	-222
▁과	-223
ㅈㅏ	-224
▁특	-225
▁ㅁㅕㄴㅅㅓ	-226
▁일본	-227
▁코	-228
▁ㄴㅡㄴㄷㅔ	-229
▁산	-230
▁운	-231
▁권	-232
▁감	-233
▁독	-234
▁레	-235
▁활	-236
▁추	-237
▁베	-238
▁행	-239
▁ㅈㅏ	-240
▁왕	-241
▁피	-242
민국	-243
▁김	-244
▁지역	-245
▁음	-246
▁더	-247
▁양	-248
▁대한	-249
▁199	-250
▁ㅇㅡㄴㅏ	-251
▁매	-252
▁다음	-253
▁민	-254
▁그리	-255
▁평	-256
▁태	-257
▁많	-258
▁12	-259
▁입	-260
▁따르	-261
▁건	-262
▁대한민국	-263
▁참	-264
▁간	-265
▁18	-266
▁및	-267
▁경기	-268
▁승	-269
▁가지	-270
▁열	-271
▁ㄷㅏㄱㅗ	-272
▁목	-273
▁대학	-274
▁다른	-275
▁;	-276
▁의하	-277
리아	-278
00	-279
▁프로	-280
▁드	-281
▁총	-282
▁속	-283
▁M	-284
▁ㅁㅏㄴ	-285
스트	-286
▁북	-287
or	-288
▁S	-289
▁집	-290
▁법	-291
▁11	-292
▁때문	-293
▁시작	-294
▁트	-295
▁체	-296
▁각	-297
▁물	-298
▁외	-299
▁달	-300
▁변	-301
▁천	-302
▁시키	-303
▁메	-304
▁임	-305
▁직	-306
▁표	-307
▁올	-308
▁처	-309
▁ᄆ	-310
▁토	-311
▁그러	-312
▁본	-313
▁사람	-314
▁&	-315
▁점	-316
▁쓰	-317
▁저	-318
▁함께	-319
▁A	-320
▁또한	-321
어지	-322
▁팀	-323
▁박	-324
어나	-325
▁치	-326
▁투	-327
▁선수	-328
▁청	-329
▁한국	-330
▁항	-331
▁ㅇㅏㅅㅓ	-332
▁브	-333
▁)	-334
▁세계	-335
▁사이	-336
▁영화	-337
▁버	-338
▁광	-339
▁새	-340
▁자신	-341
▁약	-342
la	-343
▁C	-344
▁게	-345
▁경우	-346
▁통하	-347
▁용	-348
▁판	-349
▁ㄴㅏ	-350
▁f	-351
▁디	-352
▁T	-353
▁축	-354
▁현재	-355
▁기록	-356
▁F	-357
▁복	-358
▁I	-359
▁야	-360
▁하나	-361
▁국가	-362
▁아니	-363
시아	-364
▁존	-365
▁네	-366
▁이름	-367
▁198	-368
▁ㄷㅏㄴㅡㄴ	-369
▁편	-370
▁당시	-371
▁가장	-372
▁확	-373
▁삼	-374
▁위치	-375
▁_	-376
▁보이	-377
▁활동	-378
▁조선	-379
▁학교	-380
▁뒤	-381
▁철	-382
▁만들	-383
주의	-384
▁리그	-385
▁그러나	-386
▁필	-387
▁(	-388
▁15	-389
▁ㅇㅣㄴㅏ	-390
▁살	-391
▁ㄴ	-392
▁금	-393
▁for	-394
▁페	-395
▁증	-396
▁합	-397
▁째	-398
▁루	-399
mu	-400
▁플	-401
▁백	-402
▁테	-403
▁심	-404
▁창	-405
mula	-406
▁애	-407
▁언	-408
▁formula	-409
ㄱㅏ	-410
▁식	-411
▁16	-412
▁대표	-413
레이	-414
▁연구	-415
▁병	-416
▁못	-417
▁근	-418
▁또는	-419
▁프랑	-420
▁그리고	-421
▁/	-422
▁황	-423
▁사회	-424
▁돌	-425
▁m	-426
▁규	-427
▁0	-428
▁D	-429
▁충	-430
▁17	-431
▁시즌	-432
▁패	-433
▁ㅇㅓㅅㅓ	-434
▁순	-435
▁첫	-436
▁]	-437
▁[	-438
ㅇㅑ	-439
▁197	-440
▁B	-441
▁완	-442
▁히	-443
랜드	-444
▁이루	-445
▁못하	-446
▁높	-447
▁다시	-448
▁중국	-449
▁알리	-450
▁협	-451
▁길	-452
▁서울	-453
▁클	-454
▁정부	-455
▁프랑스	-456
▁ㅂ	-457
학교	-458
▁영국	-459
▁K	-460
▁채	-461
▁:	-462
▁시대	-463
▁ㄴㅡㄴㄷㅏ	-464
▁키	-465
▁도시	-466
▁k	-467
▁포함	-468
▁여러	-469
▁뜻	-470
▁196	-471
▁은	-472
▁전쟁	-473
▁14	-474
▁아이	-475
▁독일	-476
ㄹㅗ	-477
▁ㄹㅗㅅㅓ	-478
▁면	-479
▁죽	-480
er	-481
▁문화	-482
▁대회	-483
▁~	-484
▁g	-485
▁배우	-486
▁취	-487
▁13	-488
▁축구	-489
▁위원	-490
▁별	-491
▁허	-492
▁가능	-493
▁모두	-494
▁P	-495
▁ㅅㅓ	-496
▁ㄷㅏㄱㅏ	-497
▁동안	-498
▁뉴	-499
in	-500
▁ㅂㅗ	-501
▁모든	-502
▁ㅂㅗㄷㅏ	-503
▁이상	-504
▁친	-505
▁손	-506
▁곡	-507
▁감독	-508
▁정치	-509
▁194	-510
▁환	-511
▁일부	-512
▁방송	-513
▁l	-514
▁석	-515
▁문제	-516
▁대학교	-517
▁처음	-518
▁개발	-519
▁지방	-520
▁L	-521
▁제작	-522
▁%	-523
▁구성	-524
▁검	-525
▁캐	-526
▁인하	-527
▁국제	-528
▁러	-529
▁농	-530
라이	-531
▁터	-532
▁사건	-533
▁골	-534
▁니	-535
▁세기	-536
▁끝	-537
▁시간	-538
▁논	-539
▁이용	-540
▁일반	-541
▁씨	-542
▁부르	-543
▁존재	-544
▁ㄱㅓㄴ	-545
▁향	-546
▁G	-547
▁작품	-548
▁N	-549
▁게임	-550
▁밀	-551
▁날	-552
▁정도	-553
▁운동	-554
▁폭	-555
▁주장	-556
▁급	-557
▁역사	-558
▁gt	-559
▁나오	-560
ㄹㅗㄱ	-561
▁곳	-562
▁관계	-563
▁즉	-564
▁앞	-565
▁ㅅ	-566
▁섬	-567
니아	-568
▁인구	-569
▁티	-570
on	-571
▁효	-572
▁195	-573
▁교육	-574
▁음악	-575
▁km	-576
▁접	-577
▁ㄱㅓㄴㅏ	-578
▁나타	-579
▁중심	-580
▁ㄹㅕ	-581
▁lt	-582
▁육	-583
▁이러	-584
▁맡	-585
리스	-586
▁U	-587
▁극	-588
▁귀	-589
▁30	-590
▁쿠	-591
▁R	-592
▁절	-593
▁맞	-594
▁선거	-595
▁경제	-596
▁블	-597
부분	-598
▁발견	-599
통령	-600
▁전투	-601
▁민주	-602
▁담	-603
▁H	-604
화국	-605
▁봉	-606
▁ㄷㅗㄹㅗㄱ	-607
▁발표	-608
▁글	-609
▁갖	-610
▁홍	-611
▁E	-612
▁측	-613
▁기술	-614
▁누	-615
▁올림	-616
▁막	-617
▁암	-618
▁아들	-619
이스	-620
▁책	-621
▁우승	-622
▁ㄹㅗㅂㅜㅌㅓ	-623
▁2010	-624
▁공격	-625
▁엔	-626
▁대통령	-627
▁들어	-628
▁대부분	-629
▁잘	-630
▁영향	-631
▁올림픽	-632
▁사망	-633
an	-634
▁걸	-635
▁ㅇㅡㅁ	-636
▁케	-637
▁질	-638
▁결과	-639
▁헤	-640
000	-641
▁불리	-642
▁여기	-643
▁밝	-644
▁슈	-645
▁열리	-646
▁송	-647
▁새롭	-648
▁라이	-649
▁지원	-650
▁앨	-651
▁프로그	-652
리카	-653
▁193	-654
▁과정	-655
▁잡	-656
▁발생	-657
▁의미	-658
▁참여	-659
▁관련	-660
▁중앙	-661
▁유럽	-662
▁업	-663
▁진행	-664
▁최초	-665
▁c	-666
▁머	-667
란드	-668
▁얻	-669
▁범	-670
▁준	-671
20	-672
▁25	-673
▁고등	-674
▁부분	-675
ㅆㅓ	-676
▁독립	-677
▁특히	-678
▁자유	-679
ㅓㄹ	-680
▁태어나	-681
지만	-682
▁제국	-683
▁세우	-684
▁구조	-685
▁다양	-686
▁결정	-687
▁설립	-688
▁팔	-689
▁당하	-690
▁설치	-691
▁속하	-692
버지	-693
▁초등	-694
▁형태	-695
나라	-696
▁폐	-697
▁발매	-698
▁상태	-699
▁ᆫㄷㅏㄴㅡㄴ	-700
ㅁㅕㄴ	-701
▁악	-702
▁탄	-703
▁탈	-704
▁W	-705
▁벌	-706
▁소속	-707
▁온	-708
▁좌	-709
▁러시아	-710
▁2008	-711
▁이전	-712
▁사실	-713
▁하지만	-714
▁좋	-715
▁침	-716
▁21	-717
▁그녀	-718
▁일어나	-719
우스	-720
▁센	-721
▁줄	-722
▁스타	-723
▁르	-724
▁커	-725
디오	-726
▁같이	-727
▁로마	-728
▁ㅇㅡㄹㅗㅅㅓ	-729
▁폴	-730
▁이것	-731
▁여성	-732
▁인민	-733
▁주로	-734
▁프로그램	-735
▁나라	-736
▁타이	-737
▁생각	-738
▁ㅇㅏㅇㅑ	-739
▁필요	-740
▁갈	-741
▁2012	-742
▁2011	-743
▁출신	-744
▁혼	-745
▁싱	-746
▁참가	-747
▁이탈	-748
▁관리	-749
▁조직	-750
▁기준	-751
▁100	-752
▁보내	-753
▁운영	-754
▁위원회	-755
en	-756
▁2009	-757
▁오르	-758
▁중요	-759
▁여자	-760
▁윤	-761
▁생산	-762
▁2007	-763
▁계획	-764
▁기관	-765
▁2014	-766
▁t	-767
▁행정	-768
▁등장	-769
▁상대	-770
▁정보	-771
▁이르	-772
▁음반	-773
▁계속	-774
▁성공	-775
▁바이	-776
▁지정	-777
▁데이	-778
▁a	-779
▁매우	-780
▁지나	-781
▁국민	-782
▁콘	-783
▁데뷔	-784
▁넘	-785
▁2013	-786
▁해당	-787
▁O	-788
▁밝히	-789
he	-790
▁레이	-791
▁철도	-792
▁아버지	-793
▁과학	-794
ㄷㅗ	-795
▁칼	-796
스터	-797
▁고려	-798
▁대전	-799
▁이탈리아	-800
리즈	-801
▁발전	-802
▁몇	-803
▁주요	-804
프트	-805
▁자리	-806
▁사업	-807
▁191	-808
▁시스	-809
ㅓㄹㅓ	-810
▁묘	-811
▁ㅊ	-812
▁찾	-813
▁와	-814
▁23	-815
▁24	-816
▁지내	-817
ㅡㄹㅗ	-818
▁000	-819
▁억	-820
ar	-821
▁차지	-822
▁방법	-823
▁2015	-824
ㅓㄹㅓㅁ	-825
▁ㅊㅓㄹㅓㅁ	-826
남도	-827
▁2018	-828
▁헌	-829
라마	-830
▁월드	-831
▁앨범	-832
▁얼	-833
▁2016	-834
▁능	-835
레스	-836
▁최고	-837
▁그룹	-838
▁쇼	-839
▁돌아	-840
▁인도	-841
▁빌	-842
▁결국	-843
▁후보	-844
▁마이	-845
▁아래	-846
▁출연	-847
▁관하	-848
르크	-849
▁시리즈	-850
이션	-851
▁엘	-852
▁J	-853
▁전체	-854
▁생활	-855
es	-856
▁떨	-857
▁고등학교	-858
▁22	-859
▁빠	-860
▁이루어지	-861
▁회사	-862
▁한편	-863
▁2006	-864
▁이유	-865
이트	-866
▁우리	-867
▁내용	-868
▁그리스	-869
FA	-870
▁192	-871
▁ᆫㄷㅏㄱㅗ	-872
▁거치	-873
비아	-874
▁격	-875
▁나가	-876
▁층	-877
▁제공	-878
▁연합	-879
▁스페	-880
▁풍	-881
▁방식	-882
▁힘	-883
▁인간	-884
▁의원	-885
▁2017	-886
▁공식	-887
▁많이	-888
운데	-889
▁인터	-890
▁항공	-891
▁시기	-892
▁컴	-893
▁역할	-894
▁희	-895
▁잠	-896
▁몸	-897
▁가운데	-898
▁드라마	-899
▁군사	-900
▁조사	-901
▁시스템	-902
▁초기	-903
▁워	-904
▁출전	-905
▁유명	-906
▁거의	-907
▁ㄹㅏㄴ	-908
▁제도	-909
▁기업	-910
▁반대	-911
▁민족	-912
▁놓	-913
▁류	-914
▁나타나	-915
▁s	-916
▁ㅇㅡㄹㅗㅆㅓ	-917
▁퍼	-918
▁쓰이	-919
▁지구	-920
▁둘	-921
▁교회	-922
▁푸	-923
▁텔	-924
▁색	-925
▁수상	-926
▁떠	-927
▁대신	-928
▁달리	-929
▁유지	-930
비스	-931
▁평가	-932
▁표현	-933
▁울	-934
▁분류	-935
▁ㅇㅡㄹㅗㅂㅜㅌㅓ	-936
▁26	-937
▁몰	-938
ㄹㅏ	-939
▁올리	-940
ㄴㅣ	-941
▁대상	-942
▁홈	-943
▁!	-944
▁특별	-945
▁동시	-946
▁녹	-947
▁언어	-948
▁기능	-949
▁현대	-950
▁규모	-951
at	-952
▁공개	-953
▁프리	-954
▁응	-955
▁모습	-956
▁마지	-957
▁28	-958
▁ㅇㅑ	-959
▁이미	-960
▁자연	-961
▁노동	-962
▁졸	-963
▁각각	-964
▁연결	-965
▁웨	-966
야기	-967
▁개인	-968
▁승리	-969
▁ㅇㅓㅇㅑ	-970
▁들어가	-971
▁27	-972
▁이론	-973
▁전하	-974
▁2019	-975
▁뛰	-976
▁인정	-977
▁붙	-978
▁단체	-979
▁지도	-980
▁진출	-981
▁ㅅㅣ	-982
▁브라	-983
북도	-984
▁임명	-985
▁핵	-986
▁마지막	-987
▁2005	-988
▁떨어지	-989
▁2000	-990
▁시장	-991
▁목적	-992
머니	-993
▁수도	-994
▁시절	-995
▁아르	-996
▁전문	-997
▁메이	-998
▁상황	-999
▁정의	-1000
▁경상	-1001
▁정책	-1002
▁멀	-1003
▁난	-1004
▁너	-1005
▁눈	-1006
▁기간	-1007
▁목록	-1008
▁족	-1009
▁직접	-1010
▁산업	-1011
ic	-1012
▁이야기	-1013
▁먹	-1014
▁서로	-1015
al	-1016
스크	-1017
▁압	-1018
▁혁	-1019
▁야구	-1020
▁계약	-1021
▁오스트	-1022
▁밴	-1023
▁기원	-1024
▁슬	-1025
▁추가	-1026
▁건설	-1027
BS	-1028
▁공동	-1029
▁ㅁ	-1030
▁모델	-1031
▁2004	-1032
▁ㅇㅡㅁㅕㄴ	-1033
▁콜	-1034
▁개최	-1035
▁샤	-1036
▁FC	-1037
▁건물	-1038
▁플레이	-1039
▁공간	-1040
▁경찰	-1041
▁망	-1042
▁형성	-1043
▁50	-1044
▁활약	-1045
▁결혼	-1046
▁거리	-1047
ㄴㅣㄷㅏ	-1048
▁스페인	-1049
▁자동	-1050
▁부산	-1051
▁그것	-1052
▁31	-1053
▁훈	-1054
▁29	-1055
학자	-1056
▁졸업	-1057
▁변화	-1058
▁노래	-1059
▁사상	-1060
▁교수	-1061
▁칸	-1062
▁변경	-1063
▁b	-1064
으키	-1065
▁ㄴㅣ	-1066
▁국회	-1067
▁TV	-1068
▁뿐	-1069
▁인물	-1070
is	-1071
▁나이	-1072
▁마을	-1073
▁완전	-1074
re	-1075
▁공화국	-1076
it	-1077
▁다르	-1078
▁텔레	-1079
▁궁	-1080
▁벨	-1081
▁비롯	-1082
▁190	-1083
▁사랑	-1084
▁흐	-1085
▁노선	-1086
▁낮	-1087
▁역시	-1088
▁인민공	-1089
▁휴	-1090
▁인민공화국	-1091
비전	-1092
▁2020	-1093
▁느	-1094
▁학생	-1095
▁ㅏ	-1096
▁중학교	-1097
ou	-1098
▁맥	-1099
▁지지	-1100
▁실제	-1101
▁보통	-1102
▁최대	-1103
▁만나	-1104
이드	-1105
▁서비스	-1106
▁요구	-1107
▁볼	-1108
▁따라	-1109
▁지금	-1110
▁견	-1111
▁잉	-1112
▁탑	-1113
대로	-1114
▁보호	-1115
▁전국	-1116
프리카	-1117
▁싸	-1118
▁일으키	-1119
▁소설	-1120
▁의회	-1121
▁ㄱㅔㅆ	-1122
▁우주	-1123
▁중화	-1124
▁딸	-1125
▁겸	-1126
▁실시	-1127
▁없이	-1128
▁지하	-1129
▁기본	-1130
▁X	-1131
▁혹	-1132
▁황제	-1133
▁자기	-1134
역시	-1135
▁판매	-1136
▁다이	-1137
운드	-1138
▁가수	-1139
▁전통	-1140
▁싱글	-1141
▁비판	-1142
르트	-1143
▁밴드	-1144
▁높이	-1145
▁원래	-1146
▁옥	-1147
▁차이	-1148
▁기반	-1149
▁엄	-1150
▁ㅁㅏ	-1151
▁떠나	-1152
▁퇴	-1153
▁론	-1154
▁종교	-1155
너지	-1156
▁2002	-1157
▁어떤	-1158
▁세력	-1159
▁경기도	-1160
▁내리	-1161
▁버리	-1162
▁탐	-1163
로스	-1164
▁40	-1165
▁자료	-1166
▁소련	-1167
스탄	-1168
▁이끌	-1169
▁수행	-1170
▁환경	-1171
▁2003	-1172
▁기타	-1173
▁회의	-1174
▁센터	-1175
▁모양	-1176
▁전기	-1177
▁풀	-1178
▁월드컵	-1179
▁운행	-1180
▁시설	-1181
▁부대	-1182
▁밖	-1183
▁도쿄	-1184
▁전자	-1185
▁나타내	-1186
러스	-1187
▁공연	-1188
나다	-1189
▁그래	-1190
▁걸치	-1191
▁교황	-1192
▁기념	-1193
▁컵	-1194
▁승강	-1195
▁분야	-1196
▁뮤	-1197
▁설명	-1198
▁명칭	-1199
▁예술	-1200
▁이동	-1201
▁기독	-1202
le	-1203
▁통합	-1204
▁특징	-1205
▁텔레비전	-1206
▁작업	-1207
mp	-1208
▁남자	-1209
▁연방	-1210
▁도입	-1211
▁염	-1212
▁동물	-1213
▁득	-1214
▁구역	-1215
▁행동	-1216
▁따라서	-1217
▁선정	-1218
▁숙	-1219
▁전라	-1220
▁애니	-1221
▁바로	-1222
▁군대	-1223
스타	-1224
▁능력	-1225
들이	-1226
▁작용	-1227
▁가족	-1228
▁넓	-1229
▁남쪽	-1230
▁출시	-1231
▁소프트	-1232
▁할	-1233
▁증가	-1234
▁확인	-1235
▁방향	-1236
▁북쪽	-1237
▁기존	-1238
▁지휘	-1239
▁행위	-1240
▁제외	-1241
▁문학	-1242
▁=	-1243
▁교통	-1244
▁차량	-1245
▁이때	-1246
▁기독교	-1247
▁옮	-1248
의원	-1249
▁착	-1250
▁작가	-1251
▁비슷	-1252
▁형식	-1253
▁국내	-1254
▁클럽	-1255
▁사고	-1256
▁가리	-1257
▁십	-1258
▁어머니	-1259
▁ㅁㅡㄹㅗ	-1260
▁윌	-1261
▁혁명	-1262
▁강하	-1263
▁도로	-1264
▁작곡	-1265
▁마르	-1266
▁빈	-1267
▁그렇	-1268
▁지배	-1269
▁효과	-1270
▁낙	-1271
▁역임	-1272
▁태양	-1273
▁승강장	-1274
▁몽	-1275
▁캐나다	-1276
▁왕국	-1277
▁유일	-1278
▁거두	-1279
▁컴퓨	-1280
▁FI	-1281
▁과거	-1282
▁열차	-1283
▁옮기	-1284
▁사무	-1285
▁챔	-1286
▁이적	-1287
▁갑	-1288
BC	-1289
▁협회	-1290
▁혹은	-1291
▁남부	-1292
리오	-1293
▁추정	-1294
▁흥	-1295
▁비교	-1296
▁뉴욕	-1297
▁베이	-1298
▁솔	-1299
▁생기	-1300
▁공산	-1301
▁흔	-1302
▁정당	-1303
자리	-1304
▁갖추	-1305
▁담당	-1306
▁이어지	-1307
▁육군	-1308
▁이사	-1309
▁시민	-1310
▁동일	-1311
▁주변	-1312
▁획	-1313
▁늘	-1314
▁런	-1315
▁1990	-1316
▁2001	-1317
▁홀	-1318
▁즈	-1319
▁적용	-1320
▁동쪽	-1321
▁인기	-1322
▁장관	-1323
▁대사	-1324
▁물리	-1325
▁스포	-1326
▁넣	-1327
▁스트	-1328
▁챔피	-1329
▁세포	-1330
▁윈	-1331
▁쪽	-1332
▁건축	-1333
▁예정	-1334
▁사단	-1335
▁공사	-1336
▁p	-1337
▁데이터	-1338
▁구간	-1339
▁개념	-1340
▁곧	-1341
▁상당	-1342
▁성장	-1343
▁ᆫㄷㅔ	-1344
▁마음	-1345
▁컴퓨터	-1346
▁조지	-1347
▁오늘	-1348
▁징	-1349
▁차례	-1350
▁크기	-1351
드리	-1352
▁품	-1353
▁서쪽	-1354
▁에너지	-1355
▁189	-1356
▁버스	-1357
▁돈	-1358
▁맨	-1359
▁멤	-1360
▁비하	-1361
▁흑	-1362
▁충청	-1363
▁바꾸	-1364
▁바르	-1365
이지	-1366
▁어리	-1367
▁치르	-1368
▁록	-1369
▁액	-1370
▁칭	-1371
▁작전	-1372
▁자체	-1373
▁땅	-1374
▁민주주의	-1375
▁조건	-1376
▁어느	-1377
▁실패	-1378
▁연기	-1379
▁디자	-1380
▁잔	-1381
ㅓㅆ	-1382
▁반응	-1383
▁율	-1384
▁이런	-1385
▁덕	-1386
▁돌아오	-1387
▁선언	-1388
▁FIFA	-1389
▁d	-1390
▁연주	-1391
▁버전	-1392
▁종류	-1393
▁부족	-1394
▁특정	-1395
▁움	-1396
▁쉽	-1397
▁컨	-1398
▁애니메	-1399
▁페르	-1400
▁국립	-1401
가지	-1402
▁연속	-1403
▁ㅁㅏㄷㅏ	-1404
▁익	-1405
▁방영	-1406
카이	-1407
▁쌍	-1408
▁대체	-1409
▁선택	-1410
▁피해	-1411
el	-1412
▁공항	-1413
▁다루	-1414
▁해군	-1415
▁대구	-1416
▁고대	-1417
▁규정	-1418
거리	-1419
et	-1420
라지	-1421
▁내부	-1422
버스	-1423
▁체제	-1424
▁멤버	-1425
▁조약	-1426
▁속도	-1427
▁북부	-1428
▁결승	-1429
▁수록	-1430
루스	-1431
▁기원전	-1432
▁정신	-1433
▁아시아	-1434
▁명령	-1435
▁연대	-1436
▁선출	-1437
▁헌법	-1438
글랜드	-1439
▁애니메이션	-1440
▁ㄴㅡㄴㅈㅣ	-1441
▁쥐	-1442
▁왜	-1443
▁크리스	-1444
▁인천	-1445
▁휘	-1446
▁포르	-1447
▁옛	-1448
▁가치	-1449
▁개혁	-1450
▁단계	-1451
ion	-1452
▁영어	-1453
웨어	-1454
▁최종	-1455
▁물질	-1456
▁친구	-1457
▁자치	-1458
▁달러	-1459
ing	-1460
▁최근	-1461
▁나누	-1462
▁설계	-1463
▁분석	-1464
▁이어	-1465
▁밤	-1466
▁척	-1467
▁가깝	-1468
▁ᆫㅈㅣ	-1469
▁의사	-1470
▁출판	-1471
▁비행	-1472
트남	-1473
▁강화	-1474
▁평균	-1475
시마	-1476
아가	-1477
▁1999	-1478
▁더욱	-1479
▁지명	-1480
▁소비	-1481
▁로스	-1482
▁체계	-1483
▁롭	-1484
널리	-1485
▁술	-1486
ol	-1487
라스	-1488
▁표준	-1489
▁배치	-1490
▁법원	-1491
메리카	-1492
▁1998	-1493
▁집단	-1494
▁잉글랜드	-1495
▁ㄹㅓ	-1496
▁머리	-1497
▁치료	-1498
▁남기	-1499
▁Y	-1500
▁북한	-1501
▁관심	-1502
▁팬	-1503
▁언급	-1504
▁씩	-1505
▁개월	-1506
▁획득	-1507
▁cm	-1508
21	-1509
▁부문	-1510
▁o	-1511
▁파이	-1512
▁하이	-1513
▁겨	-1514
▁헬	-1515
▁분리	-1516
▁현상	-1517
▁함수	-1518
▁먼	-1519
▁하계	-1520
▁지속	-1521
▁ㅇㅣㄹㅏ	-1522
▁1980	-1523
▁엔진	-1524
▁유사	-1525
▁부상	-1526
▁공원	-1527
▁실험	-1528
▁맺	-1529
▁조정	-1530
▁벤	-1531
▁60	-1532
▁스테	-1533
스코	-1534
▁처리	-1535
▁스포츠	-1536
▁확장	-1537
▁선발	-1538
▁지니	-1539
▁베르	-1540
▁대중	-1541
▁제품	-1542
▁입단	-1543
▁관할	-1544
▁35	-1545
▁챔피언	-1546
▁소유	-1547
▁마리	-1548
▁공립	-1549
▁통일	-1550
▁빠르	-1551
▁목표	-1552
▁장군	-1553
리지	-1554
▁어렵	-1555
▁도움	-1556
▁시도	-1557
▁요소	-1558
▁이해	-1559
▁재판	-1560
▁자동차	-1561
▁문자	-1562
▁주도	-1563
▁꽃	-1564
디어	-1565
▁요시	-1566
▁에스	-1567
▁정규	-1568
▁향하	-1569
▁mm	-1570
▁외국	-1571
▁나무	-1572
▁점령	-1573
▁거주	-1574
▁ㄱㅗㅈㅏ	-1575
▁파리	-1576
▁후반	-1577
▁구단	-1578
▁주인	-1579
▁기사	-1580
▁편성	-1581
▁바뀌	-1582
▁시험	-1583
▁미치	-1584
▁원자	-1585
▁네덜	-1586
▁네덜란드	-1587
▁주민	-1588
▁학자	-1589
▁괴	-1590
▁잃	-1591
▁n	-1592
▁가르	-1593
▁행사	-1594
▁ㄹㅕㄱㅗ	-1595
광역시	-1596
▁앤	-1597
▁책임	-1598
▁통신	-1599
▁스럽	-1600
▁사령	-1601
▁결합	-1602
▁동맹	-1603
▁일종	-1604
▁안정	-1605
▁혈	-1606
▁끌	-1607
▁투표	-1608
▁웹	-1609
▁고속	-1610
▁수준	-1611
▁알렉	-1612
▁잇	-1613
▁불교	-1614
▁예선	-1615
▁앙	-1616
om	-1617
▁깊	-1618
▁길이	-1619
▁장치	-1620
▁언론	-1621
▁개봉	-1622
▁끝나	-1623
야마	-1624
▁모르	-1625
나무	-1626
▁아프리카	-1627
젝트	-1628
▁불구	-1629
▁1997	-1630
▁디자인	-1631
▁문서	-1632
▁본선	-1633
▁준비	-1634
▁정하	-1635
▁광주	-1636
▁촉	-1637
▁칠	-1638
일랜드	-1639
▁방문	-1640
▁ᄇ	-1641
▁베트남	-1642
▁사진	-1643
▁캠	-1644
▁신문	-1645
▁빛	-1646
▁가문	-1647
▁ㄱㅜ	-1648
▁다니	-1649
▁유전	-1650
▁정권	-1651
메달	-1652
st	-1653
▁가정	-1654
▁정확	-1655
▁구분	-1656
▁폴란드	-1657
▁1996	-1658
▁경험	-1659
▁The	-1660
▁제조	-1661
▁드러	-1662
▁그림	-1663
▁성적	-1664
▁1995	-1665
▁믿	-1666
▁요리	-1667
▁비디오	-1668
▁평화	-1669
▁핀	-1670
▁용어	-1671
▁amp	-1672
▁오늘날	-1673
▁부인	-1674
▁원인	-1675
▁통과	-1676
▁정리	-1677
▁32	-1678
▁부여	-1679
▁70	-1680
▁일제	-1681
▁값	-1682
▁찬	-1683
▁아직	-1684
▁왕조	-1685
▁프로젝트	-1686
특별	-1687
▁아마	-1688
▁ㄷㅏㅁㅕㄴ	-1689
▁추진	-1690
▁런던	-1691
▁ㄹㅕㄴㅡㄴ	-1692
▁병원	-1693
▁덴	-1694
스로	-1695
▁이곳	-1696
▁방어	-1697
▁깨	-1698
ㅇㅓㅆ	-1699
▁은퇴	-1700
▁종합	-1701
▁올라	-1702
▁널리	-1703
▁신라	-1704
▁멸	-1705
스턴	-1706
▁프레	-1707
▁해석	-1708
인트	-1709
▁슈퍼	-1710
▁ㅇㅡㅁㅡㄹㅗ	-1711
▁500	-1712
▁통치	-1713
▁영역	-1714
▁습	-1715
▁경쟁	-1716
▁폐지	-1717
▁끼	-1718
▁이듬	-1719
▁몬	-1720
▁인터넷	-1721
▁입장	-1722
▁민주당	-1723
▁경영	-1724
▁훈련	-1725
웨이	-1726
▁발달	-1727
▁미사	-1728
▁노력	-1729
▁보도	-1730
▁제주	-1731
▁츠	-1732
아들이	-1733
▁파괴	-1734
▁the	-1735
▁총리	-1736
▁제안	-1737
▁죽이	-1738
▁면적	-1739
레일	-1740
▁주제	-1741
am	-1742
▁주연	-1743
▁기여	-1744
▁부정	-1745
▁80	-1746
▁회장	-1747
▁만화	-1748
▁미술	-1749
▁접하	-1750
▁모으	-1751
▁번호	-1752
▁서부	-1753
▁유래	-1754
▁놀	-1755
▁이듬해	-1756
▁지키	-1757
▁완전히	-1758
▁그런	-1759
▁도서	-1760
▁야마	-1761
▁188	-1762
▁국회의원	-1763
▁경기장	-1764
리트	-1765
▁생물	-1766
▁남성	-1767
▁식민	-1768
▁빅	-1769
▁연맹	-1770
▁UE	-1771
▁요청	-1772
▁자주	-1773
라인	-1774
▁경계	-1775
▁동부	-1776
▁정상	-1777
▁궤	-1778
▁투수	-1779
▁법률	-1780
▁+	-1781
▁폰	-1782
▁ㄹㅜ	-1783
▁벌이	-1784
il	-1785
▁1994	-1786
▁행성	-1787
▁1970	-1788
▁ㅅㅡ	-1789
▁나뉘	-1790
▁무기	-1791
▁UEFA	-1792
▁수용	-1793
▁금지	-1794
▁소재	-1795
▁돕	-1796
▁등록	-1797
▁움직	-1798
▁삼성	-1799
▁인식	-1800
톨릭	-1801
▁연구소	-1802
▁제한	-1803
ac	-1804
▁펼	-1805
▁바탕	-1806
▁링	-1807
▁무대	-1808
▁라디오	-1809
▁지진	-1810
▁ㅅㅡㅂ	-1811
▁철학	-1812
▁영토	-1813
머지	-1814
▁꼬	-1815
▁외교	-1816
▁강원	-1817
▁나머지	-1818
▁발사	-1819
▁아시	-1820
▁박물	-1821
▁노르	-1822
▁접근	-1823
▁지대	-1824
▁ㅓ	-1825
▁반면	-1826
▁ᄇㄴㅣㄷㅏ	-1827
▁빠지	-1828
▁KBS	-1829
▁스스로	-1830
▁조각	-1831
▁업무	-1832
▁거부	-1833
▁더불	-1834
▁린	-1835
▁오래	-1836
▁표기	-1837
▁뉴스	-1838
▁뇌	-1839
▁정식	-1840
▁다리	-1841
▁돌아가	-1842
▁마찬	-1843
▁마찬가지	-1844
▁아일랜드	-1845
▁결성	-1846
▁오스	-1847
▁벽	-1848
▁받아들이	-1849
▁서식	-1850
▁필리	-1851
▁붙이	-1852
▁상호	-1853
▁1992	-1854
▁은행	-1855
▁펜	-1856
▁굴	-1857
▁다수	-1858
▁짧	-1859
요일	-1860
▁기초	-1861
▁45	-1862
▁가톨릭	-1863
▁공작	-1864
▁의식	-1865
▁보수	-1866
▁논란	-1867
▁소리	-1868
▁아카	-1869
▁복귀	-1870
▁박사	-1871
▁주의	-1872
▁ㅕ	-1873
임스	-1874
ro	-1875
▁이렇	-1876
▁득점	-1877
▁이기	-1878
▁바다	-1879
▁스웨	-1880
▁임시	-1881
▁성격	-1882
▁트리	-1883
▁수학	-1884
시코	-1885
▁장애	-1886
▁36	-1887
▁실제로	-1888
▁of	-1889
ed	-1890
모토	-1891
▁윌리	-1892
▁지도자	-1893
▁ㄹㅗㅆㅓ	-1894
▁해결	-1895
▁그대로	-1896
▁장소	-1897
▁브라질	-1898
▁초대	-1899
▁총선	-1900
워드	-1901
▁검사	-1902
▁박물관	-1903
▁에이	-1904
▁마이크	-1905
▁유로	-1906
▁이스	-1907
▁스위	-1908
▁패배	-1909
▁긴	-1910
▁여행	-1911
▁느끼	-1912
트리	-1913
▁강력	-1914
▁카드	-1915
▁표시	-1916
▁여름	-1917
▁차원	-1918
▁식물	-1919
▁집합	-1920
▁묘사	-1921
▁화학	-1922
▁오브	-1923
▁기구	-1924
▁ㅅㅡㅂㄴㅣㄷㅏ	-1925
▁제시	-1926
▁1960	-1927
▁계열	-1928
▁관측	-1929
ig	-1930
▁이외	-1931
▁단순	-1932
▁인사	-1933
▁연극	-1934
▁차트	-1935
▁안전	-1936
▁1991	-1937
▁유니	-1938
토리	-1939
▁뛰어나	-1940
▁스웨덴	-1941
▁활용	-1942
로나	-1943
▁권력	-1944
▁무역	-1945
▁곤	-1946
▁멕	-1947
▁디지	-1948
▁파일	-1949
▁회원	-1950
▁꾸	-1951
▁싸우	-1952
▁오스트리아	-1953
▁가리키	-1954
▁개국	-1955
▁히로	-1956
부르크	-1957
▁기계	-1958
▁자라	-1959
▁1993	-1960
▁형제	-1961
▁근처	-1962
레일리아	-1963
▁33	-1964
▁먼저	-1965
▁캐릭	-1966
▁취하	-1967
▁보다	-1968
▁조성	-1969
▁반란	-1970
▁지적	-1971
▁소프트웨어	-1972
▁중간	-1973
▁붕	-1974
▁분포	-1975
▁ㅇㅏㄷㅗ	-1976
▁위험	-1977
▁중단	-1978
▁흡	-1979
배우	-1980
베이	-1981
▁세대	-1982
▁발행	-1983
▁일정	-1984
▁시행	-1985
▁도착	-1986
▁량	-1987
트로	-1988
▁기자	-1989
▁스코	-1990
▁스튜	-1991
▁협력	-1992
▁띠	-1993
특별시	-1994
▁여객	-1995
od	-1996
버트	-1997
▁서울특별시	-1998
▁사이트	-1999
사카	-2000
▁윈도	-2001
▁다만	-2002
▁단어	-2003
▁캐릭터	-2004
▁하루	-2005
주시	-2006
▁해안	-2007
▁지하철	-2008
▁186	-2009
▁죽음	-2010
▁",	-2011
▁렌	-2012
ve	-2013
니스	-2014
▁파견	-2015
워크	-2016
▁수많	-2017
▁들어오	-2018
▁세상	-2019
▁ᆫㄱㅏ	-2020
▁코드	-2021
▁연장	-2022
▁죄	-2023
as	-2024
▁혜	-2025
▁순위	-2026
▁내려	-2027
▁태평	-2028
▁다카	-2029
▁내각	-2030
▁공장	-2031
▁전시	-2032
▁오스트레일리아	-2033
▁투자	-2034
▁본부	-2035
▁경상남도	-2036
▁삶	-2037
▁겪	-2038
나이	-2039
▁후기	-2040
지션	-2041
▁감소	-2042
▁혐	-2043
▁생성	-2044
▁번역	-2045
▁케이	-2046
▁근거	-2047
▁카이	-2048
소년	-2049
▁뮤직	-2050
▁윌리엄	-2051
▁제기	-2052
▁옹	-2053
▁경상북도	-2054
▁확대	-2055
▁ㅇㅣㄹㅏㄱㅗ	-2056
▁네트	-2057
▁귀족	-2058
▁지상	-2059
▁보유	-2060
▁듣	-2061
▁지식	-2062
▁유형	-2063
▁보존	-2064
▁양식	-2065
▁?	-2066
▁균	-2067
▁관광	-2068
무원	-2069
▁위기	-2070
▁1988	-2071
▁동생	-2072
▁구하	-2073
▁멜	-2074
▁달성	-2075
▁상징	-2076
▁숨	-2077
▁187	-2078
▁촬	-2079
▁유대	-2080
▁전략	-2081
▁멕시코	-2082
▁극장	-2083
▁캘	-2084
▁수사	-2085
▁촌	-2086
▁h	-2087
▁원소	-2088
▁당선	-2089
ㅜㄴ	-2090
▁상업	-2091
▁완성	-2092
▁유리	-2093
▁성립	-2094
▁근무	-2095
▁디지털	-2096
▁영상	-2097
▁학위	-2098
▁대응	-2099
▁짓	-2100
▁단위	-2101
▁34	-2102
▁특수	-2103
▁이렇게	-2104
▁계승	-2105
▁체포	-2106
▁촬영	-2107
▁이슬	-2108
티아	-2109
▁옆	-2110
▁님	-2111
▁흐르	-2112
▁발매되	-2113
▁마치	-2114
▁나중	-2115
▁몇몇	-2116
▁수비	-2117
▁식민지	-2118
▁체결	-2119
아내	-2120
▁38	-2121
▁권리	-2122
▁코치	-2123
id	-2124
▁이집	-2125
▁전달	-2126
▁마사	-2127
회사	-2128
▁이집트	-2129
▁ㅇㅗ	-2130
▁싶	-2131
▁알렉산	-2132
가리	-2133
▁생명	-2134
▁듀	-2135
▁벌어지	-2136
▁90	-2137
▁국왕	-2138
가와	-2139
▁종목	-2140
아시아	-2141
▁걸리	-2142
▁ㄷㅐ	-2143
▁맹	-2144
▁낳	-2145
▁시티	-2146
▁아내	-2147
▁판단	-2148
▁미래	-2149
▁직후	-2150
▁승격	-2151
▁톤	-2152
▁헨	-2153
▁타이틀	-2154
▁1989	-2155
▁이주	-2156
▁크로	-2157
▁관찰	-2158
▁주식	-2159
모리	-2160
▁시청	-2161
▁률	-2162
▁측정	-2163
▁펼치	-2164
▁틀	-2165
▁대륙	-2166
▁도서관	-2167
▁개통	-2168
▁미군	-2169
▁2021	-2170
▁소수	-2171
▁맞추	-2172
▁젊	-2173
▁즐	-2174
▁48	-2175
ec	-2176
▁밑	-2177
▁자본	-2178
▁동계	-2179
▁엘리	-2180
▁전환	-2181
▁채널	-2182
us	-2183
▁세르	-2184
▁홍콩	-2185
▁설정	-2186
▁스키	-2187
▁정치인	-2188
▁문화재	-2189
▁라인	-2190
NA	-2191
▁ㄷㅐㄹㅗ	-2192
▁얼마	-2193
▁쌓	-2194
▁개정	-2195
▁특성	-2196
and	-2197
▁포르투	-2198
▁새로	-2199
▁',	-2200
▁납	-2201
▁시위	-2202
▁의견	-2203
▁텍	-2204
▁미사일	-2205
▁종료	-2206
▁신경	-2207
ㅇㅔ	-2208
▁취임	-2209
▁상하	-2210
▁제정	-2211
▁지위	-2212
▁달하	-2213
▁기획	-2214
▁1950	-2215
▁|	-2216
▁300	-2217
▁주어지	-2218
▁후쿠	-2219
▁은하	-2220
▁본관	-2221
▁결승전	-2222
▁천황	-2223
▁사회주의	-2224
▁교체	-2225
▁전차	-2226
▁청년	-2227
▁헝	-2228
스티	-2229
디아	-2230
▁MBC	-2231
▁답	-2232
▁범죄	-2233
▁주인공	-2234
코드	-2235
▁ㅇㅡㅁㅕㄴㅅㅓ	-2236
▁출생	-2237
▁ㅃ	-2238
▁아키	-2239
▁e	-2240
▁예수	-2241
▁제임스	-2242
ad	-2243
▁주목	-2244
▁충돌	-2245
▁셀	-2246
▁해외	-2247
▁빼	-2248
▁ㅃㅜㄴ	-2249
▁소개	-2250
▁수정	-2251
▁계산	-2252
▁전라남도	-2253
▁녹음	-2254
▁장기	-2255
▁ㅇㅏㅆㅇㅓㅆ	-2256
▁춘	-2257
교회	-2258
▁벗	-2259
▁바이러스	-2260
▁비용	-2261
▁스티	-2262
▁1945	-2263
▁개선	-2264
▁음식	-2265
▁즉위	-2266
▁본래	-2267
▁모이	-2268
▁남북	-2269
전히	-2270
▁비밀	-2271
▁소장	-2272
▁자격	-2273
리학	-2274
▁공부	-2275
▁카운	-2276
▁건강	-2277
▁합류	-2278
▁건너	-2279
ent	-2280
▁계기	-2281
▁공급	-2282
▁이래	-2283
▁부모	-2284
▁펠	-2285
▁네트워크	-2286
▁배경	-2287
스카	-2288
▁체육	-2289
▁궤도	-2290
▁에드	-2291
▁제거	-2292
▁시내	-2293
▁인근	-2294
50	-2295
▁털	-2296
▁셰	-2297
▁원정	-2298
▁누구	-2299
▁컬	-2300
▁홈런	-2301
▁각종	-2302
▁ㅏㅆ	-2303
▁오후	-2304
▁거대	-2305
▁작성	-2306
▁감염	-2307
▁명예	-2308
▁공군	-2309
▁신학	-2310
▁자원	-2311
▁입학	-2312
▁집중	-2313
▁왼	-2314
▁가입	-2315
▁읽	-2316
▁국경	-2317
▁피아	-2318
보이	-2319
▁군인	-2320
▁가격	-2321
▁베네	-2322
▁객	-2323
▁전사	-2324
▁천문	-2325
▁성우	-2326
▁병력	-2327
베르	-2328
▁명단	-2329
▁통제	-2330
▁저항	-2331
▁울산	-2332
▁포지션	-2333
▁이슬람	-2334
티나	-2335
▁강조	-2336
▁줄이	-2337
▁농업	-2338
▁아우	-2339
▁신호	-2340
▁찰	-2341
▁측면	-2342
피아	-2343
리포	-2344
▁소송	-2345
▁기후	-2346
▁인수	-2347
▁질량	-2348
▁만약	-2349
▁학문	-2350
▁실행	-2351
▁St	-2352
▁터미	-2353
▁블랙	-2354
▁세이	-2355
▁플로	-2356
▁병사	-2357
▁던	-2358
▁나서	-2359
▁콩	-2360
▁피하	-2361
▁오른	-2362
ot	-2363
▁터키	-2364
도로	-2365
▁태평양	-2366
▁강원도	-2367
▁기회	-2368
니어	-2369
▁너무	-2370
▁겨울	-2371
▁최소	-2372
▁약간	-2373
▁증명	-2374
▁정착	-2375
▁변호	-2376
▁아무	-2377
▁x	-2378
▁엑	-2379
▁이번	-2380
▁잎	-2381
▁광고	-2382
▁미디어	-2383
▁쉬	-2384
▁무장	-2385
동안	-2386
▁노동자	-2387
▁외부	-2388
▁마리아	-2389
un	-2390
▁환자	-2391
▁해방	-2392
▁몽골	-2393
▁37	-2394
ow	-2395
▁쇠	-2396
▁국방	-2397
▁in	-2398
▁편집	-2399
▁터미널	-2400
▁마쓰	-2401
▁제목	-2402
▁사라지	-2403
철도	-2404
▁바라	-2405
▁냉	-2406
▁무렵	-2407
스키	-2408
▁지점	-2409
▁전반	-2410
▁표면	-2411
▁도중	-2412
▁바람	-2413
▁밀도	-2414
▁ㄹㅣ	-2415
▁금융	-2416
▁라운드	-2417
▁마련	-2418
▁혐의	-2419
▁ᆫㄷㅏㅁㅕㄴ	-2420
▁허용	-2421
▁유도	-2422
▁1987	-2423
오카	-2424
▁가스	-2425
▁충분	-2426
▁카르	-2427
▁빨	-2428
▁그해	-2429
소리	-2430
▁재산	-2431
▁힐	-2432
▁비트	-2433
▁학년	-2434
▁루이	-2435
▁여전히	-2436
▁합병	-2437
▁인디	-2438
▁ㅕㅅㅓ	-2439
▁윈도우	-2440
▁래	-2441
▁충청남도	-2442
▁전력	-2443
▁민간	-2444
▁오사카	-2445
▁고전	-2446
▁꼬리	-2447
▁재직	-2448
▁숲	-2449
▁포르투갈	-2450
▁영화배우	-2451
▁양성	-2452
▁전역	-2453
▁가져	-2454
▁현실	-2455
▁뒷	-2456
▁등급	-2457
▁w	-2458
마크	-2459
▁킹	-2460
▁헝가리	-2461
▁41	-2462
▁선수단	-2463
▁령	-2464
▁오리	-2465
드로	-2466
▁붕괴	-2467
▁후지	-2468
▁재정	-2469
▁라이브	-2470
▁계급	-2471
▁행하	-2472
▁51	-2473
▁1986	-2474
▁공주	-2475
▁동료	-2476
▁공공	-2477
▁강제	-2478
ur	-2479
▁보고	-2480
▁1984	-2481
▁이하	-2482
▁적극	-2483
▁엔터	-2484
▁위원장	-2485
▁캘리포	-2486
▁스튜디오	-2487
▁ㄷㅡ	-2488
▁승인	-2489
▁봄	-2490
▁전선	-2491
▁위협	-2492
▁대대	-2493
▁군주	-2494
▁조치	-2495
▁대수	-2496
▁근대	-2497
▁구축	-2498
▁온도	-2499
▁롤	-2500
▁샌	-2501
▁수입	-2502
▁범위	-2503
▁유엔	-2504
▁업체	-2505
▁둥	-2506
▁임무	-2507
▁이제	-2508
▁꿈	-2509
▁이미지	-2510
▁점차	-2511
▁클라	-2512
▁논문	-2513
▁출발	-2514
▁캘리포니아	-2515
▁위성	-2516
▁경력	-2517
▁교사	-2518
▁양자	-2519
▁대학원	-2520
▁고구	-2521
▁원칙	-2522
▁공산당	-2523
▁다섯	-2524
▁항상	-2525
▁전개	-2526
▁거래	-2527
▁핀란드	-2528
▁확보	-2529
▁채택	-2530
▁성인	-2531
▁토론	-2532
▁수단	-2533
러지	-2534
▁잭	-2535
▁회복	-2536
▁필리핀	-2537
▁올라가	-2538
▁공업	-2539
마스	-2540
▁섭	-2541
▁앞서	-2542
▁수립	-2543
▁증거	-2544
▁강의	-2545
▁ㄷㅡㄴ	-2546
▁잡지	-2547
▁아시안	-2548
테르	-2549
ㅇㅛ	-2550
▁드래	-2551
주교	-2552
ch	-2553
▁남아	-2554
▁첨	-2555
▁39	-2556
▁남편	-2557
▁400	-2558
▁개편	-2559
▁얼굴	-2560
▁합의	-2561
▁매년	-2562
▁스파	-2563
▁그래서	-2564
▁기지	-2565
▁만족	-2566
▁선생	-2567
▁일원	-2568
▁의료	-2569
▁사례	-2570
▁어떻	-2571
고리	-2572
바이	-2573
▁시인	-2574
▁폭발	-2575
▁나카	-2576
▁앞두	-2577
▁부근	-2578
▁스위스	-2579
▁이스라	-2580
▁모스크	-2581
▁간주	-2582
▁1985	-2583
▁붉	-2584
▁장비	-2585
▁64	-2586
▁욕	-2587
▁이승	-2588
▁대형	-2589
로드	-2590
▁종종	-2591
▁끊	-2592
▁튀	-2593
▁ㄹㅏㅁㅕ	-2594
데미	-2595
▁대기	-2596
▁군단	-2597
▁토지	-2598
▁둘러	-2599
▁스리	-2600
▁경주	-2601
▁장면	-2602
▁불가	-2603
다리	-2604
ir	-2605
▁아주	-2606
ay	-2607
▁뜨	-2608
▁규칙	-2609
▁이스라엘	-2610
▁분자	-2611
▁종이	-2612
▁경향	-2613
▁항성	-2614
▁어린	-2615
▁움직이	-2616
▁게이	-2617
▁II	-2618
▁ㅏㅅㅓ	-2619
ut	-2620
▁수원	-2621
▁까	-2622
▁기대	-2623
▁낭	-2624
▁아름	-2625
▁조합	-2626
▁캄	-2627
백질	-2628
▁아랍	-2629
키아	-2630
▁해체	-2631
▁귀국	-2632
▁맛	-2633
▁심하	-2634
▁진화	-2635
▁ㅇㅔㄱㅔㅅㅓ	-2636
고기	-2637
▁탑재	-2638
▁확실	-2639
▁저지	-2640
um	-2641
▁그곳	-2642
▁레코드	-2643
▁강점	-2644
레이드	-2645
우드	-2646
▁대장	-2647
▁기억	-2648
▁43	-2649
▁아카데미	-2650
▁서양	-2651
▁향상	-2652
▁br	-2653
▁짐	-2654
▁장식	-2655
▁신화	-2656
▁평양	-2657
어들	-2658
▁스피	-2659
▁고양	-2660
▁좀	-2661
▁클래	-2662
▁투어	-2663
▁아메리카	-2664
im	-2665
▁변하	-2666
▁청소년	-2667
▁침공	-2668
▁란	-2669
▁보장	-2670
▁의학	-2671
▁융	-2672
▁아름답	-2673
▁박쥐	-2674
▁42	-2675
▁청나라	-2676
▁만큼	-2677
요시	-2678
▁고구려	-2679
▁사후	-2680
▁폼	-2681
▁새기	-2682
▁랭	-2683
오스	-2684
▁불과	-2685
▁카운티	-2686
▁남동	-2687
▁선고	-2688
▁보병	-2689
▁메이저	-2690
▁가로	-2691
▁자금	-2692
▁켄	-2693
▁가사	-2694
▁에피	-2695
▁카메	-2696
보드	-2697
네스	-2698
▁성과	-2699
▁잠시	-2700
ver	-2701
▁소년	-2702
▁신설	-2703
▁아나	-2704
▁스타일	-2705
▁감정	-2706
▁나치	-2707
라비아	-2708
▁독자	-2709
▁1982	-2710
▁고문	-2711
▁단백질	-2712
▁만주	-2713
타인	-2714
▁55	-2715
▁살해	-2716
▁우선	-2717
에르	-2718
▁중화민국	-2719
▁숭	-2720
▁라틴	-2721
▁단지	-2722
▁우수	-2723
▁확정	-2724
무르	-2725
▁편입	-2726
▁합치	-2727
▁스카	-2728
▁ㅂㅏ	-2729
라노	-2730
▁철도역	-2731
틀랜드	-2732
▁함대	-2733
▁신앙	-2734
▁복잡	-2735
네시아	-2736
▁지시	-2737
▁스케	-2738
▁광역시	-2739
▁나폴	-2740
▁비율	-2741
▁차별	-2742
▁의장	-2743
▁삭	-2744
▁예상	-2745
▁덴마크	-2746
▁1983	-2747
▁왕위	-2748
▁44	-2749
▁i	-2750
다이	-2751
▁태풍	-2752
▁세종	-2753
▁재단	-2754
▁마크	-2755
▁구체	-2756
▁창설	-2757
▁온라인	-2758
누스	-2759
일러	-2760
▁법인	-2761
▁LG	-2762
▁고향	-2763
▁전화	-2764
▁검찰	-2765
▁공유	-2766
뜨리	-2767
▁성당	-2768
▁전설	-2769
FC	-2770
▁동의	-2771
▁역대	-2772
▁짜	-2773
▁브리	-2774
▁선거구	-2775
▁참석	-2776
▁대립	-2777
▁반도	-2778
▁보급	-2779
▁솔로	-2780
▁판결	-2781
트라	-2782
▁육상	-2783
▁47	-2784
▁킬	-2785
▁삼국	-2786
▁묻	-2787
▁가하	-2788
ㅓㄹㅏ	-2789
▁브랜드	-2790
▁하늘	-2791
운동	-2792
▁둘러싸	-2793
▁수출	-2794
▁유학	-2795
뿌리	-2796
싱턴	-2797
▁듯	-2798
▁고정	-2799
의회	-2800
▁노예	-2801
▁ㄴㅑ	-2802
이크	-2803
▁저장	-2804
비드	-2805
▁협상	-2806
▁핵심	-2807
▁후손	-2808
▁집행	-2809
▁카를	-2810
▁애플	-2811
▁헤이	-2812
▁본격	-2813
없이	-2814
▁75	-2815
하라	-2816
▁보안	-2817
▁무엇	-2818
▁강점기	-2819
▁180	-2820
▁오픈	-2821
▁산맥	-2822
▁184	-2823
오프	-2824
▁초반	-2825
▁탄생	-2826
▁자세	-2827
▁Z	-2828
▁ㅈ	-2829
▁마드리	-2830
▁회전	-2831
▁대비	-2832
▁중반	-2833
▁대항	-2834
▁사전	-2835
▁암살	-2836
셔널	-2837
반도	-2838
원군	-2839
▁숫	-2840
각형	-2841
▁옷	-2842
▁연고	-2843
▁이성	-2844
▁주교	-2845
문화	-2846
▁로버트	-2847
▁1972	-2848
▁마드리드	-2849
▁아르헨	-2850
▁베이스	-2851
▁법칙	-2852
▁플랫	-2853
▁권한	-2854
▁전혀	-2855
리스트	-2856
▁어린이	-2857
▁켈	-2858
▁프란	-2859
소드	-2860
▁공학	-2861
▁단일	-2862
▁전용	-2863
▁46	-2864
▁이익	-2865
▁사우	-2866
▁순서	-2867
▁의무	-2868
▁1920	-2869
▁공기	-2870
▁말기	-2871
▁이란	-2872
바르	-2873
▁베를	-2874
▁직원	-2875
▁조금	-2876
▁아르헨티나	-2877
▁인상	-2878
레이션	-2879
▁유적	-2880
▁요한	-2881
▁시각	-2882
▁공포	-2883
▁수여	-2884
▁중심지	-2885
▁운전	-2886
CA	-2887
터리	-2888
▁가르치	-2889
▁ㄷㅓㄹㅏ	-2890
▁1979	-2891
▁별도	-2892
▁ㄹㅏㅁㅕㄴ	-2893
▁사항	-2894
▁아스	-2895
▁아미	-2896
▁흔히	-2897
▁비난	-2898
▁모리	-2899
▁보조	-2900
▁덮	-2901
▁스크	-2902
▁잘못	-2903
▁효소	-2904
▁전라북도	-2905
▁원주	-2906
▁상품	-2907
▁워싱턴	-2908
▁밀리	-2909
▁협정	-2910
▁글로	-2911
▁롯	-2912
▁아파	-2913
▁전후	-2914
▁변호사	-2915
▁을	-2916
▁CD	-2917
▁kg	-2918
▁기하	-2919
▁관료	-2920
▁통계	-2921
▁파크	-2922
▁인권	-2923
▁창조	-2924
▁방면	-2925
▁우크	-2926
정부	-2927
퍼드	-2928
▁1930	-2929
▁작곡가	-2930
ra	-2931
▁마시	-2932
▁투입	-2933
▁레드	-2934
▁소식	-2935
▁장착	-2936
▁In	-2937
▁1981	-2938
▁저서	-2939
▁금메달	-2940
▁심각	-2941
▁넘어	-2942
▁셋	-2943
무라	-2944
▁현장	-2945
▁1973	-2946
▁정복	-2947
▁항복	-2948
▁아침	-2949
▁놓이	-2950
▁150	-2951
▁하드	-2952
▁훨	-2953
▁호텔	-2954
▁공무원	-2955
▁벡	-2956
▁엠	-2957
사키	-2958
▁중세	-2959
10	-2960
퍼스	-2961
▁ㄴㄷㅏ	-2962
▁니콜	-2963
▁본인	-2964
▁갈등	-2965
▁ㄷㅡㅅ	-2966
▁헨리	-2967
▁오히	-2968
▁교류	-2969
▁공화	-2970
▁공산주의	-2971
▁건국	-2972
▁물러	-2973
▁오른쪽	-2974
▁교토	-2975
▁노스	-2976
▁훨씬	-2977
▁마이클	-2978
▁어떻게	-2979
os	-2980
▁요새	-2981
▁논의	-2982
▁중부	-2983
▁성경	-2984
▁출마	-2985
▁코미	-2986
▁오랜	-2987
▁v	-2988
▁김정	-2989
리어	-2990
▁무리	-2991
▁산하	-2992
겨나	-2993
▁빙	-2994
▁택	-2995
▁플레이어	-2996
▁뿌리	-2997
▁건조	-2998
▁유전자	-2999
▁한때	-3000
▁세인트	-3001
▁왼쪽	-3002
▁플라	-3003
▁인정받	-3004
▁인류	-3005
▁패하	-3006
▁연합군	-3007
▁형사	-3008
▁추측	-3009
▁ㄹㅏㅇ	-3010
▁오토	-3011
▁창립	-3012
▁서기	-3013
▁방출	-3014
▁금속	-3015
▁로드	-3016
▁1940	-3017
30	-3018
▁베이징	-3019
▁아프	-3020
▁투쟁	-3021
▁성질	-3022
▁원작	-3023
▁예산	-3024
▁주위	-3025
▁드러나	-3026
▁태국	-3027
▁1974	-3028
▁찍	-3029
▁185	-3030
BO	-3031
▁릴	-3032
▁노르웨이	-3033
em	-3034
일보	-3035
▁에피소드	-3036
▁북서	-3037
▁벗어나	-3038
▁에어	-3039
▁복합	-3040
▁제자	-3041
▁탁	-3042
▁군수	-3043
▁사령관	-3044
▁사태	-3045
▁코스	-3046
ter	-3047
▁효율	-3048
▁플레이오프	-3049
▁운용	-3050
▁모스크바	-3051
▁오전	-3052
▁논쟁	-3053
▁멸망	-3054
▁절대	-3055
▁반복	-3056
▁입자	-3057
▁정비	-3058
▁SBS	-3059
▁집안	-3060
▁뽑	-3061
▁구별	-3062
▁전철	-3063
▁제출	-3064
카와	-3065
▁스코틀랜드	-3066
▁노부	-3067
▁해양	-3068
▁가져오	-3069
▁합성	-3070
▁1948	-3071
▁메시	-3072
▁숫자	-3073
▁인종	-3074
▁사법	-3075
▁주기	-3076
▁연산	-3077
▁거절	-3078
▁포위	-3079
▁미니	-3080
▁블루	-3081
▁흡수	-3082
듀서	-3083
▁54	-3084
▁프로듀서	-3085
▁퍼지	-3086
머스	-3087
▁각본	-3088
붙이	-3089
▁중대	-3090
▁오히려	-3091
▁출장	-3092
아오	-3093
▁인조	-3094
▁1968	-3095
▁댄	-3096
▁빌리	-3097
▁연관	-3098
▁원리	-3099
▁델	-3100
▁마침	-3101
▁인공	-3102
▁목사	-3103
▁활발	-3104
▁1976	-3105
▁시점	-3106
▁웨스트	-3107
▁베를린	-3108
▁슬로	-3109
▁수송	-3110
도르	-3111
▁포기	-3112
▁경성	-3113
▁해상	-3114
▁신체	-3115
▁개시	-3116
▁소녀	-3117
▁전공	-3118
▁이민	-3119
▁북동	-3120
▁출입	-3121
▁건립	-3122
▁취급	-3123
▁인터뷰	-3124
▁넘기	-3125
▁주전	-3126
▁ㅂㅏㄲ	-3127
▁ㅂㅏㄲㅇㅔ	-3128
▁보스	-3129
▁1975	-3130
▁즐기	-3131
▁우스	-3132
▁프라	-3133
▁읍	-3134
▁명성	-3135
▁음력	-3136
▁사령부	-3137
▁디스	-3138
▁고용	-3139
▁실리	-3140
▁히데	-3141
데스	-3142
op	-3143
▁국도	-3144
▁던지	-3145
▁축제	-3146
▁동원	-3147
▁취득	-3148
▁트랙	-3149
▁분쟁	-3150
▁활성	-3151
나이티	-3152
▁농민	-3153
▁주택	-3154
▁영화제	-3155
시스	-3156
▁안타	-3157
▁ㄹㅏㄷㅗ	-3158
▁봉하	-3159
▁장악	-3160
▁비록	-3161
▁유나이티	-3162
▁신성	-3163
▁1978	-3164
▁1971	-3165
▁56	-3166
▁구속	-3167
▁갤	-3168
▁국장	-3169
▁미드	-3170
▁총독	-3171
▁ㅇㅓㄷㅗ	-3172
ag	-3173
▁진보	-3174
▁일치	-3175
▁보컬	-3176
▁텐	-3177
▁견해	-3178
▁고유	-3179
▁소스	-3180
▁전부	-3181
▁1963	-3182
서트	-3183
에트	-3184
▁52	-3185
라크	-3186
산시	-3187
▁북아	-3188
▁불법	-3189
▁유물	-3190
▁직전	-3191
▁부활	-3192
▁49	-3193
▁후원	-3194
▁늘어나	-3195
▁관점	-3196
▁보험	-3197
▁파라	-3198
▁하위	-3199
▁한자	-3200
▁자이	-3201
▁대리	-3202
▁코미디	-3203
▁ㄷㅓㄹㅏㄷㅗ	-3204
▁폭력	-3205
▁65	-3206
▁연료	-3207
▁정체	-3208
키스탄	-3209
▁포도	-3210
▁교차	-3211
▁학습	-3212
비치	-3213
▁편지	-3214
▁주관	-3215
▁도달	-3216
▁혼란	-3217
▁여객철도	-3218
▁타이완	-3219
▁닌	-3220
▁약속	-3221
▁수술	-3222
ce	-3223
▁상당히	-3224
메리	-3225
세이	-3226
▁철수	-3227
▁스미	-3228
▁항공기	-3229
▁아테	-3230
▁1969	-3231
▁관직	-3232
▁시리아	-3233
▁천체	-3234
▁179	-3235
▁Q	-3236
▁누리	-3237
▁반영	-3238
▁여부	-3239
▁한국어	-3240
기에	-3241
▁직업	-3242
▁물러나	-3243
릭스	-3244
▁하나님	-3245
젤레스	-3246
▁고종	-3247
▁선교	-3248
자기	-3249
쿠라	-3250
▁본사	-3251
▁수집	-3252
▁그리스도	-3253
▁임금	-3254
▁백제	-3255
▁미나	-3256
▁명명	-3257
▁00	-3258
▁모시	-3259
▁장교	-3260
▁브레	-3261
ㅇㅣ	-3262
리케	-3263
▁상륙	-3264
▁제어	-3265
▁넷	-3266
▁팝	-3267
▁데이비드	-3268
▁의존	-3269
▁논리	-3270
▁ㄷㅏㅁㅕ	-3271
▁테러	-3272
▁성능	-3273
어스	-3274
▁1946	-3275
▁주간	-3276
▁대화	-3277
▁보관	-3278
▁아사	-3279
▁화물	-3280
▁심리	-3281
▁영업	-3282
▁일대	-3283
▁부임	-3284
▁학술	-3285
▁백작	-3286
▁프리미	-3287
▁톰	-3288
▁폴리	-3289
공항	-3290
OS	-3291
▁콘서트	-3292
▁소방	-3293
▁주식회사	-3294
▁도구	-3295
▁불상	-3296
▁해산	-3297
▁좁	-3298
▁십자	-3299
▁교환	-3300
▁정지	-3301
▁53	-3302
▁전파	-3303
▁개체	-3304
▁연재	-3305
▁프로세	-3306
▁허가	-3307
▁나아가	-3308
▁스마	-3309
▁하우스	-3310
▁전문가	-3311
▁자살	-3312
▁제일	-3313
▁코로나	-3314
▁박정	-3315
미터	-3316
▁김영	-3317
oc	-3318
▁반발	-3319
▁1964	-3320
▁정원	-3321
▁대략	-3322
▁핑	-3323
▁방사	-3324
▁그런데	-3325
▁영향력	-3326
▁판서	-3327
▁간단	-3328
▁니시	-3329
▁충청북도	-3330
▁살인	-3331
▁거기	-3332
▁헤르	-3333
▁진입	-3334
▁고리	-3335
▁화성	-3336
▁상승	-3337
▁보건	-3338
▁원하	-3339
▁재료	-3340
▁먹이	-3341
▁공통	-3342
▁베스트	-3343
▁드리	-3344
▁리스	-3345
병대	-3346
▁학부	-3347
▁미터	-3348
▁소비에트	-3349
▁겐	-3350
▁신분	-3351
▁US	-3352
▁벨기에	-3353
▁항구	-3354
▁포트	-3355
이어	-3356
▁피아노	-3357
▁서버	-3358
▁영입	-3359
▁스프	-3360
▁약하	-3361
▁승진	-3362
▁and	-3363
▁국제공항	-3364
▁사장	-3365
ri	-3366
▁가을	-3367
▁학원	-3368
▁지붕	-3369
▁파트	-3370
▁꼭	-3371
▁인도네시아	-3372
▁58	-3373
▁부장	-3374
▁외국인	-3375
▁그레	-3376
▁기도	-3377
▁진압	-3378
▁학회	-3379
▁99	-3380
▁1000	-3381
▁시호	-3382
노스	-3383
▁ㄹㅔ	-3384
▁질병	-3385
▁루이스	-3386
▁랜	-3387
▁사운드	-3388
▁횡	-3389
▁도망	-3390
▁발언	-3391
▁스토	-3392
▁구성원	-3393
▁다스	-3394
하마	-3395
▁브루	-3396
▁아라	-3397
오르	-3398
▁탈출	-3399
▁현역	-3400
▁콤	-3401
▁창단	-3402
▁머무르	-3403
▁누르	-3404
▁공동체	-3405
▁주년	-3406
▁참전	-3407
▁채용	-3408
▁식품	-3409
▁트랜	-3410
▁계통	-3411
▁복무	-3412
▁닥	-3413
▁그치	-3414
▁변환	-3415
▁리더	-3416
▁한반도	-3417
▁탈락	-3418
▁감사	-3419
▁응용	-3420
▁픽	-3421
▁임대	-3422
▁PC	-3423
▁의도	-3424
▁쫓	-3425
▁통상	-3426
저우	-3427
▁1977	-3428
▁합격	-3429
▁요코	-3430
▁모드	-3431
▁벼	-3432
▁장수	-3433
▁작사	-3434
▁임의	-3435
▁민법	-3436
천군	-3437
▁고도	-3438
다가	-3439
아버지	-3440
▁망명	-3441
▁조작	-3442
▁친일	-3443
▁문헌	-3444
▁포로	-3445
▁신청	-3446
▁위반	-3447
▁말레이	-3448
▁SK	-3449
▁페이	-3450
▁롯데	-3451
▁화면	-3452
▁1949	-3453
▁로스앤	-3454
▁로스앤젤레스	-3455
성군	-3456
▁마케	-3457
▁띄	-3458
▁에도	-3459
▁문장	-3460
▁트라	-3461
▁방송국	-3462
▁부부	-3463
▁라이트	-3464
프리	-3465
▁동남	-3466
▁저작	-3467
▁탄소	-3468
▁학과	-3469
igh	-3470
▁이치	-3471
문화재	-3472
▁FA	-3473
▁ㅋ	-3474
▁트로	-3475
▁변형	-3476
▁배출	-3477
▁88	-3478
▁분열	-3479
▁선조	-3480
▁연출	-3481
▁수영	-3482
▁예측	-3483
▁절차	-3484
▁청구	-3485
▁1962	-3486
▁캠퍼스	-3487
▁상원	-3488
정식	-3489
▁수소	-3490
▁엑스	-3491
려움	-3492
▁자녀	-3493
▁요인	-3494
▁..	-3495
▁시카	-3496
▁메모리	-3497
▁주둔	-3498
▁칭하	-3499
▁62	-3500
ation	-3501
▁조절	-3502
▁코파	-3503
▁신인	-3504
▁레오	-3505
▁1967	-3506
▁전동	-3507
▁이중	-3508
드시	-3509
▁레스	-3510
▁큐	-3511
▁기호	-3512
▁선전	-3513
▁정기	-3514
▁막부	-3515
▁흉	-3516
타르	-3517
▁화재	-3518
▁서원	-3519
카이도	-3520
▁국무	-3521
▁처형	-3522
▁로켓	-3523
▁출간	-3524
▁등지	-3525
▁r	-3526
▁수리	-3527
페라	-3528
▁호수	-3529
크스	-3530
▁이승만	-3531
로그	-3532
천시	-3533
▁57	-3534
▁광장	-3535
▁실수	-3536
▁방지	-3537
▁황금	-3538
▁남서	-3539
▁증상	-3540
▁기법	-3541
▁이시	-3542
▁힘들	-3543
▁동작	-3544
▁어떠	-3545
▁취소	-3546
▁오스만	-3547
▁루트	-3548
▁카메라	-3549
▁왕자	-3550
▁지급	-3551
▁흑인	-3552
▁연안	-3553
▁동성	-3554
▁앵	-3555
▁선보이	-3556
▁생존	-3557
▁You	-3558
▁장르	-3559
▁콘스탄	-3560
브리	-3561
▁개조	-3562
▁서구	-3563
라드	-3564
▁예비	-3565
▁ㄴㅡㄴㄱㅏ	-3566
▁현지	-3567
▁Ch	-3568
▁롱	-3569
포르	-3570
▁히트	-3571
▁위상	-3572
▁늦	-3573
▁고지	-3574
▁반드시	-3575
▁농구	-3576
▁좌우	-3577
▁기체	-3578
▁여단	-3579
아나	-3580
▁희망	-3581
▁전주	-3582
▁임진	-3583
▁고치	-3584
▁진주	-3585
▁천연	-3586
▁공정	-3587
▁제대로	-3588
▁크리	-3589
▁일본군	-3590
▁맞서	-3591
▁무덤	-3592
▁181	-3593
▁터널	-3594
▁톱	-3595
▁노리	-3596
▁동아	-3597
▁도전	-3598
▁전면	-3599
▁분명	-3600
▁싸움	-3601
▁코르	-3602
▁맞이	-3603
▁파악	-3604
방송	-3605
▁ㅇㅡㄹㅕ	-3606
▁둘째	-3607
▁스탠	-3608
▁전형	-3609
▁특이	-3610
▁1966	-3611
▁압력	-3612
nd	-3613
▁묵	-3614
▁이온	-3615
▁%,	-3616
▁녹색	-3617
▁흘	-3618
▁66	-3619
▁독특	-3620
라이언	-3621
▁글자	-3622
▁그레이	-3623
▁미국인	-3624
▁독립운동	-3625
▁경로	-3626
▁리처	-3627
▁바둑	-3628
▁매일	-3629
▁법정	-3630
▁노벨	-3631
▁엄청	-3632
이치	-3633
▁드물	-3634
▁꺾	-3635
▁1965	-3636
▁해리	-3637
▁방정식	-3638
▁돌리	-3639
▁에르	-3640
▁KBO	-3641
▁목소리	-3642
▁68	-3643
▁부사	-3644
▁타임	-3645
▁183	-3646
티브	-3647
▁아리	-3648
▁유기	-3649
▁물체	-3650
▁인지	-3651
더스	-3652
▁성향	-3653
▁신뢰	-3654
▁체코	-3655
▁덧	-3656
▁지리	-3657
▁개신	-3658
▁가시	-3659
▁동기	-3660
▁61	-3661
▁클레	-3662
▁어디	-3663
▁알렉산드	-3664
▁일식	-3665
▁우려	-3666
▁분해	-3667
▁묶	-3668
▁처벌	-3669
▁밥	-3670
치아	-3671
ST	-3672
베스	-3673
에이	-3674
▁간행	-3675
▁일찍	-3676
▁퀸	-3677
▁유행	-3678
▁김일	-3679
▁타격	-3680
르타	-3681
▁찰스	-3682
▁분할	-3683
▁홋	-3684
▁방해	-3685
▁실질	-3686
▁화산	-3687
▁완료	-3688
▁추구	-3689
▁풍부	-3690
▁웅	-3691
▁내전	-3692
▁나들	-3693
바라	-3694
▁사립	-3695
▁손자	-3696
▁범주	-3697
▁나들목	-3698
질랜드	-3699
▁찌	-3700
▁평등	-3701
▁뉴질랜드	-3702
▁아파트	-3703
▁순환	-3704
▁아동	-3705
▁삽	-3706
▁1961	-3707
▁복지	-3708
▁대개	-3709
먼트	-3710
▁별명	-3711
▁희생	-3712
▁갈색	-3713
▁마르크	-3714
▁빼앗	-3715
▁플래	-3716
ER	-3717
▁비평	-3718
▁오프	-3719
▁800	-3720
art	-3721
▁부진	-3722
▁흰	-3723
▁곱	-3724
▁최다	-3725
▁마침내	-3726
▁분기	-3727
ice	-3728
▁리가	-3729
▁시조	-3730
▁집권	-3731
▁파르	-3732
▁가상	-3733
▁600	-3734
▁점점	-3735
▁전원	-3736
▁창원	-3737
▁한정	-3738
▁엄청나	-3739
▁사냥	-3740
▁86	-3741
▁첼	-3742
▁기둥	-3743
▁모형	-3744
▁구현	-3745
ON	-3746
▁대법	-3747
▁한계	-3748
▁판사	-3749
▁120	-3750
▁근본	-3751
▁완공	-3752
▁IS	-3753
▁벡터	-3754
유럽	-3755
▁테이	-3756
▁메리	-3757
다르	-3758
텐츠	-3759
▁훗	-3760
▁바치	-3761
▁중기	-3762
▁부하	-3763
▁명확	-3764
▁웨이	-3765
▁ㅇㅡㄴㅣ	-3766
▁프린	-3767
▁스토리	-3768
투스	-3769
▁사임	-3770
▁의지	-3771
▁충격	-3772
▁확산	-3773
▁일본인	-3774
▁교향	-3775
▁날개	-3776
▁분위	-3777
▁들어서	-3778
est	-3779
▁오페라	-3780
틀러	-3781
▁무게	-3782
▁가까	-3783
피스	-3784
▁사원	-3785
은행	-3786
▁출범	-3787
▁사형	-3788
▁1919	-3789
▁대공	-3790
▁물리학	-3791
▁단독	-3792
ia	-3793
▁사마	-3794
▁re	-3795
▁호주	-3796
▁레인	-3797
▁캔	-3798
▁닛	-3799
디션	-3800
▁마법	-3801
▁명나라	-3802
▁뚜	-3803
▁상위	-3804
▁드러내	-3805
▁가나	-3806
▁이자	-3807
▁통산	-3808
▁알파	-3809
▁제이	-3810
▁적절	-3811
ap	-3812
▁렀	-3813
▁훌	-3814
▁의혹	-3815
▁연구원	-3816
▁98	-3817
TV	-3818
▁편찬	-3819
▁악화	-3820
▁서명	-3821
▁1944	-3822
▁모토	-3823
▁영웅	-3824
▁의심	-3825
▁당초	-3826
▁유치	-3827
▁조종	-3828
세우	-3829
▁굽	-3830
사스	-3831
나가	-3832
▁넓이	-3833
▁인접	-3834
▁무시	-3835
▁문명	-3836
▁키우	-3837
▁발굴	-3838
ak	-3839
라이나	-3840
▁도쿠	-3841
▁인증	-3842
▁회담	-3843
▁포인트	-3844
▁샘	-3845
▁연간	-3846
▁추천	-3847
▁모임	-3848
▁함락	-3849
▁곽	-3850
▁저술	-3851
▁사실상	-3852
▁쏘	-3853
▁생겨나	-3854
사자	-3855
▁광복	-3856
▁자극	-3857
▁각지	-3858
▁카라	-3859
▁접촉	-3860
▁개입	-3861
▁징역	-3862
▁동서	-3863
▁고속도로	-3864
▁기리	-3865
▁득표	-3866
▁프리미어	-3867
▁포항	-3868
▁1941	-3869
▁63	-3870
▁홍보	-3871
아보	-3872
▁독일군	-3873
▁사정	-3874
▁진정	-3875
▁순수	-3876
▁순간	-3877
우리	-3878
▁세르비아	-3879
▁그때	-3880
▁골든	-3881
▁드라이	-3882
▁악기	-3883
연히	-3884
▁기온	-3885
AR	-3886
▁멘	-3887
▁95	-3888
▁기기	-3889
▁올해	-3890
▁루스	-3891
▁개막	-3892
▁탐사	-3893
▁뮤지	-3894
▁구원	-3895
▁74	-3896
▁학살	-3897
▁여론	-3898
▁공로	-3899
▁DNA	-3900
▁등판	-3901
▁임기	-3902
민주	-3903
숭이	-3904
▁바위	-3905
▁오랫	-3906
버그	-3907
▁시카고	-3908
▁59	-3909
▁언제	-3910
▁경전	-3911
▁꼽	-3912
▁성분	-3913
▁178	-3914
▁행렬	-3915
학생	-3916
▁한국인	-3917
믹스	-3918
▁이닝	-3919
▁팽	-3920
▁Lo	-3921
▁변수	-3922
▁락	-3923
▁그라	-3924
▁추산	-3925
무부	-3926
▁수석	-3927
▁실현	-3928
▁앤드	-3929
▁태도	-3930
▁백성	-3931
▁예전	-3932
ct	-3933
▁닉	-3934
일리	-3935
▁공헌	-3936
▁입법	-3937
▁보고서	-3938
대부	-3939
▁네이	-3940
▁자전	-3941
▁확률	-3942
▁훗날	-3943
▁오랫동안	-3944
▁양쪽	-3945
▁스마트	-3946
▁아티	-3947
▁혼합	-3948
▁줄어들	-3949
▁감시	-3950
▁페르시아	-3951
▁춤	-3952
▁심사	-3953
▁1958	-3954
▁튜	-3955
▁프로그래	-3956
▁미쓰	-3957
▁방위	-3958
▁매장	-3959
▁IC	-3960
▁균형	-3961
ul	-3962
▁뱅	-3963
▁특별시	-3964
러리	-3965
리히	-3966
▁1947	-3967
▁왕실	-3968
▁에드워드	-3969
▁피터	-3970
▁리처드	-3971
▁출력	-3972
▁160	-3973
▁to	-3974
▁침략	-3975
▁82	-3976
▁영지	-3977
코스	-3978
▁개신교	-3979
▁원형	-3980
▁커뮤	-3981
▁;/	-3982
ㅡㅁ	-3983
▁신부	-3984
▁조별	-3985
▁대량	-3986
▁줄기	-3987
▁다케	-3988
▁76	-3989
▁경남	-3990
▁저녁	-3991
▁분위기	-3992
▁단편	-3993
▁1956	-3994
▁시사	-3995
▁멀리	-3996
▁프라이	-3997
이너	-3998
▁승객	-3999
▁안토	-4000
▁72	-4001
▁여왕	-4002
▁팔리	-4003
▁텍사스	-4004
▁랜드	-4005
▁승부	-4006
▁시드	-4007
▁그래픽	-4008
▁ㅇㅔㅅㅓㅂㅜㅌㅓ	-4009
▁SS	-4010
▁제사	-4011
▁이라크	-4012
▁권위	-4013
▁발발	-4014
▁고르	-4015
▁무사	-4016
▁대선	-4017
▁미야	-4018
▁가와	-4019
▁아이돌	-4020
▁기울	-4021
▁타자	-4022
▁흐름	-4023
▁커뮤니	-4024
▁ㄲ	-4025
▁안동	-4026
ie	-4027
▁재건	-4028
▁작위	-4029
▁동명	-4030
▁프랑크	-4031
▁점수	-4032
▁바깥	-4033
▁확립	-4034
▁교구	-4035
▁복원	-4036
▁데스	-4037
리노	-4038
▁앉	-4039
▁77	-4040
▁참고	-4041
▁석유	-4042
▁일상	-4043
▁입력	-4044
무리	-4045
▁과학자	-4046
▁비치	-4047
▁1939	-4048
▁테스트	-4049
▁섞	-4050
▁원수	-4051
▁긍	-4052
▁잠수	-4053
▁축구단	-4054
▁67	-4055
메리칸	-4056
레나	-4057
▁폭탄	-4058
▁Th	-4059
▁리버	-4060
▁수익	-4061
▁시상	-4062
▁침입	-4063
▁민중	-4064
▁어깨	-4065
▁도요	-4066
▁비상	-4067
▁겹	-4068
▁복수	-4069
▁포켓	-4070
▁타워	-4071
▁당국	-4072
ud	-4073
▁신자	-4074
▁복음	-4075
▁기소	-4076
▁병합	-4077
▁일시	-4078
▁사자	-4079
▁AFC	-4080
▁브라운	-4081
▁자식	-4082
▁한글	-4083
일스	-4084
▁시마	-4085
▁재배	-4086
▁주최	-4087
ly	-4088
▁더블	-4089
레옹	-4090
▁본질	-4091
▁혁신	-4092
og	-4093
▁부지	-4094
▁다운	-4095
▁도모	-4096
▁대왕	-4097
메이	-4098
▁신고	-4099
▁정수	-4100
▁연예	-4101
마르	-4102
▁빅토	-4103
▁가공	-4104
▁계층	-4105
▁보물	-4106
▁심지	-4107
▁나폴레옹	-4108
▁덜	-4109
▁85	-4110
▁대성	-4111
▁동양	-4112
에른	-4113
ist	-4114
▁가량	-4115
▁사제	-4116
▁지형	-4117
▁내셔널	-4118
▁끼치	-4119
▁1954	-4120
th	-4121
▁공중	-4122
▁가담	-4123
▁평안	-4124
▁암호	-4125
▁창작	-4126
이센	-4127
▁힌	-4128
▁파워	-4129
▁훈장	-4130
마니아	-4131
▁ㄴㅔ	-4132
▁빌보드	-4133
레인	-4134
▁국기	-4135
▁거듭	-4136
▁우라	-4137
▁깃	-4138
▁인쇄	-4139
▁구글	-4140
▁폐쇄	-4141
▁후계	-4142
▁쌀	-4143
▁그렇게	-4144
왜란	-4145
▁노출	-4146
▁임진왜란	-4147
▁산화	-4148
아티아	-4149
▁크로아티아	-4150
AS	-4151
▁고기	-4152
▁참모	-4153
▁평론	-4154
▁움직임	-4155
ight	-4156
▁1952	-4157
▁총회	-4158
▁가설	-4159
▁급제	-4160
▁비서	-4161
▁탱	-4162
▁력	-4163
▁세리	-4164
아지	-4165
▁다소	-4166
▁보살	-4167
▁73	-4168
▁가이	-4169
▁실력	-4170
▁아테네	-4171
▁고통	-4172
▁들이	-4173
▁전신	-4174
▁조조	-4175
▁오가	-4176
▁발음	-4177
▁바닥	-4178
▁박정희	-4179
▁대지	-4180
▁채우	-4181
▁후속	-4182
▁스타디	-4183
▁동방	-4184
조합	-4185
▁보상	-4186
▁ㅇㅜ	-4187
▁오카	-4188
▁라스	-4189
▁람	-4190
▁96	-4191
▁상관	-4192
느리	-4193
▁따로	-4194
▁타운	-4195
▁*	-4196
▁탈퇴	-4197
아하	-4198
▁81	-4199
▁뮤지컬	-4200
필더	-4201
▁뷰	-4202
▁절반	-4203
▁수도원	-4204
▁행복	-4205
▁미드필더	-4206
▁무한	-4207
▁그만	-4208
▁셔	-4209
바로	-4210
▁Al	-4211
AT	-4212
▁국정	-4213
▁비례	-4214
▁뤼	-4215
▁장남	-4216
▁인용	-4217
▁78	-4218
▁청주	-4219
▁개설	-4220
▁로봇	-4221
▁김대	-4222
▁피해자	-4223
시오	-4224
▁재학	-4225
▁좋아하	-4226
▁화이트	-4227
▁도덕	-4228
▁센트	-4229
▁가까이	-4230
▁전투기	-4231
▁ᆯㅈㅣ	-4232
▁안드로	-4233
▁이혼	-4234
▁소득	-4235
▁심장	-4236
▁화장	-4237
▁젠	-4238
▁김성	-4239
▁하인	-4240
▁뮌	-4241
▁중력	-4242
▁전남	-4243
▁불만	-4244
▁아트	-4245
너스	-4246
▁전직	-4247
▁손상	-4248
▁여섯	-4249
▁천안	-4250
체스터	-4251
의정	-4252
▁바이에른	-4253
▁보르	-4254
타이	-4255
▁살리	-4256
▁산소	-4257
▁지향	-4258
▁202	-4259
▁처하	-4260
▁NH	-4261
▁지사	-4262
▁1959	-4263
▁국군	-4264
▁생물학	-4265
▁포스트	-4266
하여	-4267
▁177	-4268
▁교리	-4269
▁붓	-4270
▁빌딩	-4271
▁레알	-4272
▁블라	-4273
ess	-4274
▁질환	-4275
▁주력	-4276
▁윗	-4277
▁당나라	-4278
▁사무소	-4279
▁Li	-4280
▁백만	-4281
자치	-4282
BA	-4283
▁작동	-4284
인물	-4285
▁문신	-4286
▁ㄴㅡㄴㄷㅏㄴㅡㄴ	-4287
토스	-4288
▁검토	-4289
▁상역	-4290
▁콘스탄티	-4291
▁녀	-4292
▁인생	-4293
▁71	-4294
▁포스	-4295
▁부담	-4296
▁관여	-4297
▁와이	-4298
▁황후	-4299
직자	-4300
▁91	-4301
▁AT	-4302
▁패션	-4303
▁화합	-4304
▁사우스	-4305
▁피부	-4306
▁기상	-4307
▁마무리	-4308
▁총장	-4309
▁DV	-4310
▁호소	-4311
▁선박	-4312
클리	-4313
▁ㄹㅣㅇ	-4314
▁메시지	-4315
▁일컫	-4316
▁신사	-4317
▁유통	-4318
세포	-4319
▁;,	-4320
▁상실	-4321
▁가마	-4322
▁사유	-4323
▁액션	-4324
▁승려	-4325
▁설득	-4326
▁아웃	-4327
▁1942	-4328
▁하원	-4329
▁골드	-4330
▁의대	-4331
가락	-4332
▁가슴	-4333
쿠스	-4334
스트라	-4335
▁약물	-4336
▁개방	-4337
▁심지어	-4338
▁역학	-4339
▁혼인	-4340
▁오직	-4341
▁프로이센	-4342
▁결의	-4343
▁페이지	-4344
▁수요	-4345
▁처분	-4346
▁내려오	-4347
▁분노	-4348
▁글로벌	-4349
▁ㅇㅕㅇㅑ	-4350
▁햄	-4351
▁동해	-4352
▁조카	-4353
▁모바	-4354
▁모터	-4355
▁좌상	-4356
▁규제	-4357
▁김일성	-4358
▁연습	-4359
▁적합	-4360
▁디스크	-4361
▁가요	-4362
▁매체	-4363
▁위키	-4364
▁넘어가	-4365
▁그린	-4366
▁87	-4367
미야	-4368
▁이명	-4369
IV	-4370
ub	-4371
▁구매	-4372
▁진단	-4373
▁1943	-4374
▁st	-4375
▁왕비	-4376
▁심판	-4377
▁159	-4378
▁ㅎ	-4379
▁선임	-4380
▁통화	-4381
▁위대	-4382
▁부산광역시	-4383
▁개성	-4384
▁1955	-4385
▁홋카이도	-4386
가니	-4387
▁말레이시아	-4388
▁야스	-4389
▁원년	-4390
드리히	-4391
▁서식지	-4392
▁잭슨	-4393
▁발탁	-4394
▁억제	-4395
▁지나가	-4396
▁스타디움	-4397
IA	-4398
▁1953	-4399
▁소멸	-4400
▁쿠데	-4401
▁\	-4402
▁드래프트	-4403
▁퀴	-4404
▁일기	-4405
▁예방	-4406
▁프랭	-4407
▁테크	-4408
▁주석	-4409
▁크루	-4410
▁왕후	-4411
▁1936	-4412
▁긍정	-4413
▁무료	-4414
히로	-4415
▁싱가	-4416
▁싱가포르	-4417
▁음악가	-4418
미르	-4419
▁AP	-4420
▁톨	-4421
▁어려움	-4422
ab	-4423
▁84	-4424
▁사도	-4425
▁프리드리히	-4426
▁700	-4427
▁필드	-4428
▁일체	-4429
▁사격	-4430
▁사무실	-4431
▁일본어	-4432
▁자이언	-4433
▁진영	-4434
▁나쁘	-4435
▁폭격	-4436
▁유형문화재	-4437
▁카스	-4438
▁티베	-4439
▁힙	-4440
▁태조	-4441
▁여우	-4442
▁굳	-4443
▁유고	-4444
▁조지아	-4445
▁즉시	-4446
▁루마니아	-4447
▁궁전	-4448
▁이와	-4449
▁정차	-4450
▁모바일	-4451
▁타인	-4452
▁대책	-4453
▁리드	-4454
▁불안	-4455
▁인원	-4456
▁천주교	-4457
데이	-4458
▁쾌	-4459
▁디아	-4460
▁세자	-4461
▁쿠데타	-4462
▁1910	-4463
▁기동	-4464
주군	-4465
유산	-4466
▁창당	-4467
▁시나	-4468
▁후쿠오카	-4469
▁크로스	-4470
버리	-4471
ine	-4472
▁전동차	-4473
▁김종	-4474
▁깊이	-4475
▁전북	-4476
▁히틀러	-4477
▁스티븐	-4478
▁막대	-4479
▁사라	-4480
▁대체로	-4481
▁Re	-4482
▁연설	-4483
▁ㅈㅏㄴㅡㄴ	-4484
▁닫	-4485
▁에서	-4486
▁몰리	-4487
▁학사	-4488
▁개칭	-4489
▁딜	-4490
▁상속	-4491
▁오이	-4492
▁구입	-4493
▁전당	-4494
올리	-4495
▁97	-4496
란색	-4497
▁남아프리카	-4498
▁1957	-4499
▁챔피언십	-4500
▁아메리칸	-4501
▁강릉	-4502
▁진격	-4503
구리	-4504
▁원주민	-4505
▁딘	-4506
▁알고리	-4507
우치	-4508
ㅜㄹㅗㄱ	-4509
달리	-4510
▁요금	-4511
구치	-4512
▁독재	-4513
▁본명	-4514
베르트	-4515
ew	-4516
▁자국	-4517
▁조상	-4518
▁콘텐츠	-4519
독부	-4520
▁발명	-4521
▁추방	-4522
▁타이거	-4523
▁초점	-4524
▁대우	-4525
▁필수	-4526
▁휴대	-4527
머리	-4528
▁늘리	-4529
▁생태	-4530
▁스미스	-4531
▁광범	-4532
▁부동	-4533
▁검색	-4534
▁1914	-4535
▁수호	-4536
▁흔하	-4537
▁메이지	-4538
원경	-4539
▁69	-4540
▁음성	-4541
▁전송	-4542
▁세트	-4543
▁동북	-4544
▁사과	-4545
▁담기	-4546
▁느낌	-4547
▁이즈	-4548
▁테마	-4549
미니	-4550
▁사기	-4551
▁알고리즘	-4552
▁기다리	-4553
▁92	-4554
▁덩	-4555
▁렀다	-4556
ue	-4557
▁="	-4558
▁급격	-4559
▁천만	-4560
▁이마	-4561
▁주소	-4562
▁인디언	-4563
▁포켓몬	-4564
시스코	-4565
▁신장	-4566
▁도마	-4567
▁수업	-4568
▁토론토	-4569
▁알바	-4570
▁신도	-4571
▁끝내	-4572
다랗	-4573
▁빚	-4574
▁업적	-4575
▁후임	-4576
▁클로	-4577
▁1900	-4578
▁1938	-4579
▁불가리아	-4580
▁최우	-4581
▁림	-4582
▁코리아	-4583
▁핫	-4584
▁세부	-4585
▁랑	-4586
▁연락	-4587
▁완벽	-4588
▁잡히	-4589
▁이내	-4590
▁섹	-4591
▁서술	-4592
래프트	-4593
▁끌어	-4594
▁상인	-4595
▁똑	-4596
▁부위	-4597
▁펑	-4598
▁미술관	-4599
지사	-4600
▁게다가	-4601
▁전술	-4602
▁석사	-4603
EC	-4604
▁스탈	-4605
▁화려	-4606
▁스프링	-4607
자키	-4608
▁고급	-4609
▁유효	-4610
▁주니어	-4611
▁101	-4612
▁다스리	-4613
▁배포	-4614
비히	-4615
▁라이프	-4616
▁고시	-4617
▁ㄹㅕㅁㅕㄴ	-4618
▁ㄲㅔ	-4619
▁노트	-4620
▁바르셀	-4621
▁닥터	-4622
▁바르셀로나	-4623
▁언덕	-4624
▁재즈	-4625
▁늑	-4626
▁해발	-4627
▁HD	-4628
총리	-4629
▁영양	-4630
▁오키	-4631
다니	-4632
▁숨기	-4633
▁01	-4634
▁안드	-4635
▁물건	-4636
▁라틴어	-4637
▁립	-4638
로지	-4639
▁연평	-4640
▁1918	-4641
▁암컷	-4642
리그	-4643
▁선형	-4644
▁각국	-4645
▁윙	-4646
▁소비자	-4647
▁마르크스	-4648
▁소형	-4649
▁마스터	-4650
산화	-4651
▁개량	-4652
▁DVD	-4653
▁션	-4654
▁웰	-4655
▁랩	-4656
▁등장인물	-4657
▁질문	-4658
총독부	-4659
▁조선총독부	-4660
▁ㄷㅡㅅㅇㅣ	-4661
▁풋	-4662
▁실천	-4663
▁유산	-4664
▁1951	-4665
▁내놓	-4666
▁일련	-4667
▁저자	-4668
▁백인	-4669
▁손실	-4670
▁시내버스	-4671
▁상주	-4672
▁1932	-4673
제국	-4674
▁고위	-4675
▁언스	-4676
BM	-4677
▁집회	-4678
▁운항	-4679
▁화석	-4680
▁사퇴	-4681
▁on	-4682
▁반사	-4683
여금	-4684
▁게르	-4685
▁{	-4686
▁계곡	-4687
▁추기	-4688
▁1937	-4689
▁알레	-4690
▁국적	-4691
▁정교회	-4692
▁감각	-4693
▁메달	-4694
▁갑자기	-4695
무늬	-4696
▁경비	-4697
▁블록	-4698
▁영주	-4699
▁미스	-4700
▁ㄴㅡㄴㅑ	-4701
▁미시	-4702
▁번지	-4703
▁주체	-4704
▁개별	-4705
▁프랑스군	-4706
▁짝	-4707
▁말리	-4708
▁만든	-4709
▁설치류	-4710
▁격파	-4711
▁선포	-4712
▁진학	-4713
▁차단	-4714
가시	-4715
▁흰색	-4716
민주당	-4717
▁상수	-4718
▁대만	-4719
▁의문	-4720
▁마틴	-4721
▁용인	-4722
▁첩	-4723
▁고객	-4724
▁부친	-4725
▁방언	-4726
▁결론	-4727
▁둥글	-4728
▁엘리자	-4729
필드	-4730
▁자본주의	-4731
펙트	-4732
▁89	-4733
▁광범위	-4734
▁1935	-4735
▁환승	-4736
▁이웃	-4737
▁올스타	-4738
ect	-4739
▁실업	-4740
▁182	-4741
▁넥	-4742
▁우크라	-4743
▁재개	-4744
▁찬성	-4745
▁후계자	-4746
▁분교	-4747
▁거짓	-4748
▁타율	-4749
▁칭호	-4750
▁화제	-4751
▁ㄱㅗㄴ	-4752
▁이스트	-4753
▁비스	-4754
▁비행기	-4755
▁93	-4756
▁사찰	-4757
▁크라	-4758
▁트레이드	-4759
사전	-4760
▁뮌헨	-4761
바키아	-4762
▁로렌	-4763
▁고양이	-4764
▁중추	-4765
▁당원	-4766
▁경제학	-4767
▁수치	-4768
ㅅㅜㄹㅗㄱ	-4769
▁Be	-4770
▁퀘	-4771
▁구상	-4772
▁베리	-4773
▁항의	-4774
▁추기경	-4775
동생	-4776
▁되돌	-4777
브라	-4778
▁기부	-4779
▁싱어	-4780
▁커버	-4781
▁데리	-4782
▁항공사	-4783
▁탄압	-4784
▁면역	-4785
▁사양	-4786
▁수백	-4787
▁파티	-4788
▁질서	-4789
▁발간	-4790
▁꾸준	-4791
▁체험	-4792
▁촉진	-4793
▁증언	-4794
▁허락	-4795
▁회로	-4796
▁겉	-4797
▁분화	-4798
▁최후	-4799
▁자산	-4800
▁클리	-4801
▁반지	-4802
▁남녀	-4803
▁법학	-4804
▁이념	-4805
▁웃	-4806
▁화폐	-4807
▁목성	-4808
▁푸르	-4809
▁마주	-4810
▁양산	-4811
▁구멍	-4812
▁쿨	-4813
▁곡선	-4814
▁마루	-4815
▁공신	-4816
런스	-4817
▁시트	-4818
▁소문	-4819
센트	-4820
▁OS	-4821
▁영원	-4822
▁아티스트	-4823
▁성남	-4824
다수	-4825
저스	-4826
▁클래식	-4827
ore	-4828
슈타인	-4829
▁덧붙이	-4830
▁ㅇㅓㅇㅛ	-4831
▁시모	-4832
▁습격	-4833
▁대법원	-4834
▁소화	-4835
▁FM	-4836
▁94	-4837
▁1933	-4838
▁가속	-4839
▁극단	-4840
▁소위	-4841
▁물고기	-4842
▁개척	-4843
▁내세우	-4844
▁잠수함	-4845
▁보편	-4846
▁탕	-4847
▁티베트	-4848
▁강남	-4849
리우스	-4850
▁소집	-4851
▁툴	-4852
▁수십	-4853
▁축소	-4854
IN	-4855
our	-4856
▁지수	-4857
▁탄핵	-4858
▁쿼	-4859
리나	-4860
▁1928	-4861
▁선호	-4862
▁아오	-4863
▁운송	-4864
▁유배	-4865
▁펴	-4866
▁CP	-4867
돼지	-4868
▁군부	-4869
도사	-4870
▁원시	-4871
▁동화	-4872
▁경사	-4873
▁영구	-4874
▁동경	-4875
▁프랑스어	-4876
▁팩	-4877
▁태종	-4878
▁혼자	-4879
▁1924	-4880
▁전적	-4881
▁조항	-4882
▁하여금	-4883
▁핸	-4884
ell	-4885
▁료	-4886
▁시신	-4887
▁약화	-4888
▁충분히	-4889
▁어둡	-4890
▁콜로	-4891
▁ㅈㅗ	-4892
▁상대식	-4893
공사	-4894
▁누스	-4895
▁칠레	-4896
▁지불	-4897
▁무너지	-4898
프레	-4899
▁국토	-4900
▁대로	-4901
▁용도	-4902
▁주일	-4903
▁79	-4904
▁개명	-4905
른바	-4906
▁간부	-4907
려가	-4908
▁틈	-4909
ㅊㅏ	-4910
▁당신	-4911
▁ㅈㅗㅊㅏ	-4912
▁익스	-4913
▁정면	-4914
▁멈	-4915
▁뼈	-4916
▁사막	-4917
▁세월	-4918
▁조기	-4919
▁그리하여	-4920
▁걷	-4921
▁댄스	-4922
▁이행	-4923
▁전망	-4924
▁직무	-4925
▁김해	-4926
▁메트로	-4927
▁발레	-4928
▁이른바	-4929
닉스	-4930
▁재능	-4931
들리	-4932
▁09	-4933
벤트	-4934
▁토대	-4935
▁따오	-4936
▁정통	-4937
▁콜롬	-4938
▁회색	-4939
▁펀	-4940
▁110	-4941
▁지나치	-4942
▁개장	-4943
▁프로그래밍	-4944
▁형상	-4945
슬링	-4946
▁입대	-4947
사이	-4948
▁실내	-4949
▁토마스	-4950
▁대칭	-4951
end	-4952
▁ㅎㅏ	-4953
▁러브	-4954
▁종사	-4955
▁열매	-4956
▁액체	-4957
▁의정부	-4958
▁이재	-4959
티스	-4960
▁합동	-4961
▁동굴	-4962
▁존스	-4963
▁브로	-4964
▁구름	-4965
▁파키스탄	-4966
▁04	-4967
▁반하	-4968
▁토착	-4969
▁오버	-4970
▁진실	-4971
코프	-4972
▁가난	-4973
▁지중	-4974
▁쟁	-4975
▁170	-4976
▁법안	-4977
▁손해	-4978
▁매치	-4979
▁단순히	-4980
▁판정	-4981
ill	-4982
▁초상	-4983
▁원자력	-4984
▁무용	-4985
어도	-4986
베리아	-4987
ain	-4988
▁총재	-4989
▁해제	-4990
ID	-4991
▁안토니	-4992
▁플로리	-4993
▁08	-4994
▁수컷	-4995
▁베네치아	-4996
▁뻗	-4997
과이	-4998
▁고교	-4999
▁정류	-5000
▁하와	-5001
▁자르	-5002
▁흔적	-5003
▁퓨	-5004
▁대승	-5005
▁자랑	-5006
▁Co	-5007
▁재생	-5008
▁틴	-5009
테스	-5010
▁ㅓㅆ	-5011
▁무력	-5012
▁개찰	-5013
ㅋㅡㅁ	-5014
▁당대	-5015
▁부리	-5016
▁세로	-5017
▁유아	-5018
ers	-5019
▁멀티	-5020
▁엄격	-5021
▁스카이	-5022
▁안티	-5023
▁늑대	-5024
▁부속	-5025
▁우에	-5026
▁프로토	-5027
▁룸	-5028
▁전제	-5029
▁경북	-5030
▁스톤	-5031
▁사이드	-5032
▁인민군	-5033
▁83	-5034
▁경고	-5035
▁주문	-5036
▁안쪽	-5037
▁오케	-5038
▁부서	-5039
▁서방	-5040
▁불러	-5041
▁로즈	-5042
▁힙합	-5043
▁장로	-5044
▁배열	-5045
▁비잔	-5046
▁오류	-5047
▁지표	-5048
페이스	-5049
▁다큐	-5050
▁일단	-5051
▁벼슬	-5052
▁주재	-5053
데르	-5054
▁강도	-5055
▁함경	-5056
▁혈액	-5057
▁국방부	-5058
▁레닌	-5059
ard	-5060
▁분산	-5061
▁쌓이	-5062
▁메탈	-5063
▁양국	-5064
▁평면	-5065
▁페리	-5066
▁경찰서	-5067
▁스크린	-5068
▁할아버지	-5069
▁맡기	-5070
▁한성	-5071
고속	-5072
▁호흡	-5073
▁아프가니	-5074
▁강요	-5075
어로	-5076
▁대가	-5077
▁마감	-5078
▁성서	-5079
▁중동	-5080
▁선로	-5081
▁1934	-5082
조선	-5083
▁대원	-5084
▁편의	-5085
▁메르	-5086
▁이벤트	-5087
▁동지	-5088
▁추적	-5089
▁ㅁㅏㄴㅋㅡㅁ	-5090
▁MS	-5091
▁거스	-5092
AN	-5093
▁주자	-5094
야스	-5095
▁De	-5096
▁철거	-5097
▁요코하마	-5098
▁빵	-5099
▁중지	-5100
▁대사관	-5101
▁닐	-5102
▁탓	-5103
▁자매	-5104
키퍼	-5105
▁농장	-5106
▁포드	-5107
▁찾아가	-5108
▁입구	-5109
▁골키퍼	-5110
유키	-5111
▁구사	-5112
▁보스턴	-5113
▁놀이	-5114
▁느리	-5115
▁판타	-5116
▁히어로	-5117
세대	-5118
▁북미	-5119
▁장례	-5120
▁근육	-5121
▁투스	-5122
▁스케이	-5123
▁ㄱㅣㅇㅔ	-5124
▁노동당	-5125
▁스탈린	-5126
▁떼	-5127
▁광산	-5128
▁동구	-5129
▁거느리	-5130
레오	-5131
워하	-5132
▁봉기	-5133
사르	-5134
아르	-5135
▁멈추	-5136
▁유키	-5137
▁쿠바	-5138
▁본토	-5139
▁현존	-5140
▁Me	-5141
▁130	-5142
▁대동	-5143
▁정확히	-5144
▁가볍	-5145
▁글리	-5146
▁토머스	-5147
▁동메달	-5148
드라	-5149
즈니	-5150
▁정조	-5151
▁카리	-5152
베르크	-5153
▁나이트	-5154
공업	-5155
▁뱀	-5156
▁거점	-5157
▁은메달	-5158
▁도쿠가와	-5159
▁밸	-5160
제르	-5161
▁코어	-5162
▁140	-5163
▁젤	-5164
▁남극	-5165
▁항해	-5166
▁아프가니스탄	-5167
▁접속	-5168
ne	-5169
▁식량	-5170
▁선물	-5171
▁부처	-5172
▁사카	-5173
▁레지	-5174
▁시계	-5175
▁야당	-5176
▁사망자	-5177
▁철학자	-5178
▁페이스	-5179
▁복사	-5180
▁중계	-5181
▁돔	-5182
하이	-5183
▁Sh	-5184
▁내려가	-5185
▁알렉산더	-5186
▁테르	-5187
▁김구	-5188
▁필립	-5189
▁대다수	-5190
▁초청	-5191
▁발전소	-5192
레아	-5193
▁중성	-5194
▁모자	-5195
▁새끼	-5196
▁칼리지	-5197
▁재판소	-5198
▁맨체스터	-5199
보내	-5200
위대	-5201
성기	-5202
▁곤충	-5203
▁농촌	-5204
▁안내	-5205
▁매주	-5206
▁관계자	-5207
▁독점	-5208
▁특별히	-5209
돌프	-5210
▁건너가	-5211
안군	-5212
▁화합물	-5213
▁증권	-5214
므로	-5215
▁th	-5216
OR	-5217
▁구로	-5218
▁로맨	-5219
▁새벽	-5220
▁교향곡	-5221
▁역전	-5222
크래프트	-5223
▁1931	-5224
▁세금	-5225
▁토너	-5226
▁르네	-5227
▁훼	-5228
▁구리	-5229
▁위안	-5230
▁유력	-5231
▁재임	-5232
▁겸하	-5233
▁풍속	-5234
▁오염	-5235
▁강등	-5236
▁커다랗	-5237
▁생애	-5238
▁휘하	-5239
▁체육관	-5240
▁타카	-5241
▁부호	-5242
▁아비	-5243
▁일곱	-5244
▁파울	-5245
베리	-5246
▁간격	-5247
▁존슨	-5248
▁펄	-5249
▁그러므로	-5250
▁금강	-5251
▁멸종	-5252
▁그리스어	-5253
▁히로시마	-5254
▁종전	-5255
▁이정	-5256
▁계수	-5257
▁석방	-5258
▁목포	-5259
▁물리치	-5260
▁클래스	-5261
▁명시	-5262
▁진동	-5263
▁부품	-5264
▁달라지	-5265
▁cod	-5266
▁기병	-5267
▁모노	-5268
▁ㄷㅜ	-5269
▁기르	-5270
▁대변	-5271
▁비중	-5272
all	-5273
▁뚜렷	-5274
▁코너	-5275
게이	-5276
▁훌륭	-5277
▁자유주의	-5278
▁감옥	-5279
▁관객	-5280
▁미카	-5281
▁무늬	-5282
▁타원	-5283
▁타점	-5284
▁합리	-5285
▁ST	-5286
▁버지	-5287
레이크	-5288
▁찾아오	-5289
▁1921	-5290
▁하사	-5291
▁원조	-5292
▁176	-5293
▁An	-5294
AM	-5295
나르	-5296
▁해협	-5297
▁꾼	-5298
▁킬로	-5299
▁좌파	-5300
밀리	-5301
▁250	-5302
▁부드	-5303
▁숙종	-5304
▁아이스	-5305
▁도망치	-5306
▁심리학	-5307
▁그래프	-5308
▁가구	-5309
▁기생	-5310
▁장점	-5311
느님	-5312
▁마그	-5313
▁지칭	-5314
▁캠프	-5315
▁지휘관	-5316
▁하버	-5317
ang	-5318
▁교도	-5319
▁수비수	-5320
▁하느님	-5321
▁연호	-5322
▁유발	-5323
▁공룡	-5324
▁1929	-5325
▁코트	-5326
널드	-5327
▁박근	-5328
▁후퇴	-5329
▁필라	-5330
▁스트라이	-5331
▁트랜스	-5332
▁토너먼트	-5333
▁윤리	-5334
▁특허	-5335
▁동성애	-5336
▁부드럽	-5337
둥이	-5338
▁닮	-5339
수량	-5340
▁소요	-5341
▁조문	-5342
▁폭풍	-5343
▁유대인	-5344
▁비즈	-5345
▁빗	-5346
▁강전	-5347
▁목숨	-5348
▁아틀	-5349
▁사관	-5350
▁스테이션	-5351
▁무겁	-5352
▁문재	-5353
▁운동가	-5354
▁단장	-5355
▁도메	-5356
▁수반	-5357
▁일환	-5358
▁집필	-5359
▁착용	-5360
▁올라오	-5361
▁성명	-5362
▁공세	-5363
▁대결	-5364
▁캡	-5365
▁05	-5366
▁칙	-5367
▁비틀	-5368
▁덕분	-5369
▁키스	-5370
▁y	-5371
▁첫째	-5372
▁기갑	-5373
시스트	-5374
▁극복	-5375
▁자이언츠	-5376
▁갤럭	-5377
▁다다	-5378
▁약탈	-5379
▁1925	-5380
▁라트	-5381
▁부작	-5382
▁마라	-5383
▁1923	-5384
투아	-5385
▁연상	-5386
▁김대중	-5387
산물	-5388
▁인터페이스	-5389
▁쯤	-5390
▁동반	-5391
▁살아	-5392
▁연평균	-5393
▁평론가	-5394
▁첸	-5395
▁롬	-5396
슬리	-5397
ss	-5398
▁입사	-5399
▁삼각	-5400
▁조화	-5401
미아	-5402
▁건담	-5403
▁공국	-5404
▁지부	-5405
▁잠재	-5406
▁매니	-5407
▁북아메리카	-5408
▁ㄴㅡㄴㄷㅏㄱㅗ	-5409
▁도호	-5410
▁갤럭시	-5411
▁성직자	-5412
▁협약	-5413
▁고고	-5414
▁과일	-5415
▁플로리다	-5416
무게	-5417
▁몸무게	-5418
▁추대	-5419
마이	-5420
▁가끔	-5421
▁압축	-5422
▁AC	-5423
▁요원	-5424
▁원장	-5425
▁틱	-5426
▁섬유	-5427
▁장갑	-5428
타카	-5429
▁의석	-5430
▁샤를	-5431
▁연계	-5432
▁07	-5433
▁딱	-5434
▁관리자	-5435
클린	-5436
▁북서쪽	-5437
▁대한제국	-5438
ity	-5439
▁발렌	-5440
▁며	-5441
▁불화	-5442
▁시게	-5443
▁램	-5444
베이스	-5445
▁웨일스	-5446
▁추락	-5447
▁남아메리카	-5448
▁유성	-5449
▁임신	-5450
▁단선	-5451
▁유비	-5452
▁얀	-5453
카스	-5454
▁영감	-5455
▁이수	-5456
▁우드	-5457
▁ㅇㅛ	-5458
▁캘리포니아주	-5459
▁ㅅㅠ	-5460
▁모험	-5461
▁사당	-5462
▁선교사	-5463
대문	-5464
▁발휘	-5465
▁영혼	-5466
추어	-5467
▁망원경	-5468
▁근로	-5469
▁미분	-5470
▁트레이	-5471
▁중립	-5472
▁카페	-5473
▁타입	-5474
▁페루	-5475
▁살아남	-5476
▁갱	-5477
키스	-5478
▁ㅋㅜ	-5479
▁북극	-5480
▁주사	-5481
▁161	-5482
▁박스	-5483
▁하와이	-5484
▁진흥	-5485
▁고분	-5486
▁필름	-5487
▁리스트	-5488
▁SC	-5489
▁삭제	-5490
▁수직	-5491
▁진술	-5492
▁다이묘	-5493
▁똑같	-5494
▁서인	-5495
▁종로	-5496
▁모로	-5497
▁일자	-5498
▁향토	-5499
▁지역구	-5500
▁민속	-5501
▁기관차	-5502
▁레벨	-5503
▁사거리	-5504
▁동인	-5505
▁채권	-5506
▁꼽히	-5507
▁영광	-5508
▁준우	-5509
▁카자	-5510
ff	-5511
▁그랜드	-5512
▁도마뱀	-5513
▁빅토리아	-5514
▁압도	-5515
▁codice	-5516
▁결심	-5517
▁제약	-5518
ㅅㅣ	-5519
▁1922	-5520
▁복구	-5521
▁EP	-5522
▁모음	-5523
▁돌파	-5524
▁삼각형	-5525
▁청동	-5526
▁프로세서	-5527
즈키	-5528
행성	-5529
▁변신	-5530
▁유가	-5531
▁교과	-5532
▁박근혜	-5533
▁파운드	-5534
▁문인	-5535
▁홀로	-5536
▁175	-5537
▁이조	-5538
▁엽	-5539
▁청하	-5540
▁레이블	-5541
▁성씨	-5542
▁de	-5543
▁칼리	-5544
▁수장	-5545
▁명사	-5546
▁주류	-5547
▁중시	-5548
▁철저	-5549
▁곰	-5550
▁화가	-5551
일본	-5552
▁바오	-5553
▁부탁	-5554
▁윤치	-5555
▁평생	-5556
▁루트비히	-5557
▁버지니아	-5558
▁ㅇㅣㄹㅏㄴ	-5559
▁틸	-5560
▁중구	-5561
▁피트	-5562
애나	-5563
▁때로	-5564
▁규슈	-5565
▁모래	-5566
▁프레임	-5567
오리	-5568
▁서적	-5569
▁My	-5570
▁부유	-5571
▁인천광역시	-5572
▁가톨릭교회	-5573
▁엘리자베스	-5574
▁공격수	-5575
▁각자	-5576
▁없애	-5577
▁투구	-5578
▁고안	-5579
▁부수	-5580
▁유역	-5581
▁1912	-5582
▁둔	-5583
▁여인	-5584
▁이날	-5585
▁토벌	-5586
▁표지	-5587
▁무릎	-5588
▁황태	-5589
▁직선	-5590
▁직위	-5591
▁최상	-5592
▁트럼	-5593
▁리치	-5594
▁교차로	-5595
▁설비	-5596
▁아과	-5597
▁지연	-5598
프란	-5599
▁유용	-5600
태우	-5601
▁자치구	-5602
양군	-5603
▁왕가	-5604
▁음모	-5605
▁파트너	-5606
메니아	-5607
▁164	-5608
▁국민당	-5609
▁수상자	-5610
▁글씨	-5611
니즘	-5612
▁구미	-5613
▁KT	-5614
▁동일본	-5615
눅스	-5616
부사	-5617
▁문법	-5618
▁네이션	-5619
▁Love	-5620
▁사토	-5621
▁포유	-5622
▁아기	-5623
ㅈㅓ	-5624
▁무산	-5625
▁크레	-5626
▁왈	-5627
▁Go	-5628
▁봉사	-5629
▁노무	-5630
▁도어	-5631
▁벨라	-5632
▁블라디	-5633
ong	-5634
▁리눅스	-5635
▁""	-5636
타운	-5637
▁퍼시	-5638
▁소설가	-5639
▁1908	-5640
▁영조	-5641
▁간섭	-5642
멘트	-5643
▁납치	-5644
▁아르메니아	-5645
라이터	-5646
▁목조	-5647
▁지중해	-5648
▁1906	-5649
야수	-5650
▁노비	-5651
▁모니	-5652
▁보통학교	-5653
▁경유	-5654
▁무인	-5655
▁상처	-5656
▁인력	-5657
up	-5658
▁랭킹	-5659
▁돼지	-5660
▁어워드	-5661
▁아마추어	-5662
▁06	-5663
보살	-5664
▁건축물	-5665
▁릭	-5666
▁패턴	-5667
▁사촌	-5668
▁자책	-5669
▁베타	-5670
▁장사	-5671
▁태자	-5672
▁토르	-5673
▁MV	-5674
▁마카	-5675
▁침해	-5676
▁남동쪽	-5677
▁SM	-5678
▁플레	-5679
▁교역	-5680
▁스케이팅	-5681
▁연소	-5682
▁1917	-5683
ip	-5684
▁연령	-5685
▁이종	-5686
멘터리	-5687
▁히가시	-5688
아리	-5689
▁베토	-5690
▁준우승	-5691
▁다양체	-5692
사관	-5693
▁전향	-5694
▁정자	-5695
▁제주도	-5696
▁호조	-5697
▁크림	-5698
슬로	-5699
▁1927	-5700
▁JR	-5701
▁과도	-5702
도니아	-5703
▁배상	-5704
▁에스파	-5705
▁적응	-5706
▁커피	-5707
IS	-5708
ld	-5709
▁삽입	-5710
▁모듈	-5711
마치	-5712
▁이토	-5713
▁앨런	-5714
▁통로	-5715
▁안양	-5716
▁03	-5717
▁명문	-5718
▁북동쪽	-5719
▁매각	-5720
▁적어도	-5721
▁조명	-5722
ant	-5723
▁우익	-5724
▁굿	-5725
▁호르	-5726
▁배급	-5727
▁스와	-5728
▁육성	-5729
▁BBC	-5730
▁시상식	-5731
▁과장	-5732
▁몬테	-5733
▁수지	-5734
▁전승	-5735
▁탐험	-5736
▁1907	-5737
OM	-5738
▁싫	-5739
다드	-5740
▁우크라이나	-5741
▁출현	-5742
▁석조	-5743
▁대행	-5744
▁보좌	-5745
▁창간	-5746
▁1926	-5747
▁럭	-5748
영상	-5749
▁라우	-5750
▁쇠퇴	-5751
▁시아	-5752
▁인자	-5753
▁전작	-5754
▁외계	-5755
▁흙	-5756
스팅	-5757
▁정서	-5758
▁유인	-5759
▁리아	-5760
▁옹호	-5761
▁옵	-5762
▁밀라노	-5763
▁산악	-5764
▁시집	-5765
▁항목	-5766
ED	-5767
▁산타	-5768
▁다큐멘터리	-5769
▁노인	-5770
▁앱	-5771
▁폐기	-5772
▁부동산	-5773
▁SN	-5774
▁색상	-5775
▁별로	-5776
▁체인	-5777
▁상하이	-5778
▁협의회	-5779
▁표본	-5780
몬드	-5781
▁대교	-5782
▁문하	-5783
▁의병	-5784
▁슐	-5785
▁단행	-5786
▁커지	-5787
▁송라이터	-5788
생물	-5789
▁왕립	-5790
av	-5791
▁관중	-5792
▁자문	-5793
이즈	-5794
▁168	-5795
▁탑승	-5796
▁포크	-5797
▁험	-5798
스토	-5799
▁사신	-5800
▁종족	-5801
▁해설	-5802
페이지	-5803
▁자전거	-5804
▁He	-5805
▁지름	-5806
티움	-5807
▁수감	-5808
▁동아시아	-5809
▁무선	-5810
▁묘지	-5811
▁세조	-5812
▁유입	-5813
슬라	-5814
▁비전	-5815
▁호남	-5816
다이라	-5817
▁연고지	-5818
▁패러	-5819
▁렉	-5820
▁PD	-5821
▁머물	-5822
▁상영	-5823
▁ㅁㅏㅈㅓ	-5824
▁꺼	-5825
ind	-5826
▁디즈니	-5827
▁NHK	-5828
▁베토벤	-5829
런트	-5830
▁내장	-5831
▁꾸미	-5832
▁노조	-5833
▁스틸	-5834
▁1905	-5835
▁동사	-5836
로프	-5837
▁실점	-5838
▁아가	-5839
▁아무런	-5840
튜브	-5841
▁사료	-5842
▁166	-5843
텐도	-5844
▁닌텐도	-5845
▁레이다	-5846
se	-5847
▁콩고	-5848
▁하천	-5849
▁162	-5850
▁기종	-5851
▁선제	-5852
▁좌익	-5853
ame	-5854
▁||	-5855
▁시에	-5856
▁에릭	-5857
▁오리지	-5858
▁최우수	-5859
AC	-5860
▁급속	-5861
▁합계	-5862
▁룩	-5863
▁겨우	-5864
▁산지	-5865
▁안보	-5866
▁제후	-5867
▁진지	-5868
▁문화유산	-5869
▁홈페이지	-5870
▁놀라	-5871
▁다가	-5872
▁연금	-5873
▁엄마	-5874
▁유튜브	-5875
▁물려	-5876
▁정사	-5877
▁기름	-5878
▁독일어	-5879
▁민족주의	-5880
세스	-5881
▁Sp	-5882
▁버그	-5883
브스	-5884
▁아울	-5885
▁151	-5886
▁비평가	-5887
▁비단	-5888
▁기하학	-5889
▁꾸준히	-5890
▁헤드	-5891
▁유신	-5892
▁묻히	-5893
▁원로	-5894
페인	-5895
총장	-5896
▁시외	-5897
▁예외	-5898
▁데이터베이스	-5899
▁주말	-5900
▁가쓰	-5901
▁대조	-5902
▁역과	-5903
▁참조	-5904
▁엉	-5905
▁사이클	-5906
ry	-5907
려나	-5908
ES	-5909
▁바이올	-5910
▁ㄴㄷㅏㄱㅗ	-5911
▁스승	-5912
▁우르	-5913
▁158	-5914
▁조선인	-5915
나카	-5916
무네	-5917
▁수명	-5918
▁증기	-5919
▁정류장	-5920
▁요미	-5921
▁트럭	-5922
▁드래곤	-5923
▁색깔	-5924
플레이	-5925
▁스페셜	-5926
▁품질	-5927
▁목격	-5928
▁상소	-5929
▁크리스토	-5930
지마	-5931
ith	-5932
▁지바	-5933
▁아크	-5934
▁원산	-5935
어트	-5936
▁리듬	-5937
▁모집	-5938
▁수천	-5939
▁커뮤니티	-5940
▁점성	-5941
▁나폴리	-5942
▁도리	-5943
▁곧바로	-5944
스케	-5945
ort	-5946
▁광역	-5947
▁선진	-5948
▁바라보	-5949
▁뚫	-5950
▁마일	-5951
▁셋째	-5952
▁주거	-5953
▁칩	-5954
▁문과	-5955
▁유고슬	-5956
▁유고슬라비아	-5957
▁기압	-5958
▁반환	-5959
▁주의자	-5960
▁자바	-5961
▁02	-5962
▁리얼	-5963
▁남서쪽	-5964
▁악장	-5965
▁라마	-5966
▁신비	-5967
▁흥미	-5968
엘라	-5969
▁대안	-5970
▁야생	-5971
▁주파	-5972
스티벌	-5973
▁할리	-5974
▁라이온	-5975
▁가미	-5976
▁옛날	-5977
▁플루	-5978
▁수수	-5979
▁라이벌	-5980
▁레이스	-5981
▁조르	-5982
▁페스티벌	-5983
잡히	-5984
▁향년	-5985
▁무관	-5986
▁빨리	-5987
▁입문	-5988
ok	-5989
▁유닛	-5990
▁협의	-5991
▁브라이언	-5992
▁사리	-5993
▁이오	-5994
▁이리	-5995
▁특급	-5996
▁베이스볼	-5997
▁구마	-5998
▁기점	-5999
▁토니	-6000
▁방안	-6001
▁인텔	-6002
▁도심	-6003
▁운반	-6004
프란시스코	-6005
▁동치	-6006
▁운명	-6007
▁십자군	-6008
▁안드로이드	-6009
▁재무	-6010
▁주한	-6011
▁샌프란시스코	-6012
▁입증	-6013
▁스피드	-6014
▁소니	-6015
▁사직	-6016
▁되찾	-6017
▁일행	-6018
▁기념물	-6019
▁단층	-6020
▁쿠르	-6021
▁디자이너	-6022
▁콜롬비아	-6023
▁오디션	-6024
▁한나라	-6025
▁미네	-6026
프스	-6027
▁적색	-6028
회의	-6029
▁사면	-6030
▁서북	-6031
▁한나라당	-6032
▁동영상	-6033
▁와카	-6034
해군	-6035
▁기용	-6036
▁렌즈	-6037
▁묘소	-6038
▁오리지널	-6039
▁마스	-6040
▁부시	-6041
▁1904	-6042
▁석탑	-6043
▁프랜	-6044
▁미만	-6045
▁저지르	-6046
▁출산	-6047
▁출판사	-6048
▁연주자	-6049
▁직장	-6050
▁마케도니아	-6051
▁케이블	-6052
▁날리	-6053
▁배제	-6054
▁정교	-6055
▁지휘자	-6056
▁알라	-6057
▁인치	-6058
▁분배	-6059
▁개수	-6060
▁신임	-6061
▁평소	-6062
▁복제	-6063
▁서경	-6064
▁왕족	-6065
▁진도	-6066
루살	-6067
쳐지	-6068
▁관장	-6069
▁초래	-6070
▁마쓰다이라	-6071
▁템	-6072
▁165	-6073
▁Un	-6074
▁예술가	-6075
루살렘	-6076
▁교전	-6077
▁급행	-6078
▁상무	-6079
▁파생	-6080
▁아서	-6081
▁의거	-6082
▁센트럴	-6083
▁챌	-6084
프라	-6085
▁사로	-6086
▁부패	-6087
▁154	-6088
▁스테이지	-6089
▁예언	-6090
▁기재	-6091
▁판타지	-6092
리케이션	-6093
▁WW	-6094
▁용기	-6095
▁긴급	-6096
▁계단	-6097
▁내륙	-6098
▁자사	-6099
▁동전	-6100
▁폭스	-6101
▁무신	-6102
▁비즈니스	-6103
▁콘스탄티노	-6104
ob	-6105
▁수면	-6106
ord	-6107
▁단종	-6108
▁오타	-6109
▁파나	-6110
▁당사자	-6111
▁Se	-6112
▁Wh	-6113
▁받침	-6114
▁모순	-6115
▁합작	-6116
qu	-6117
▁신하	-6118
▁좌석	-6119
▁여동생	-6120
터스	-6121
▁가게	-6122
▁사르	-6123
▁입히	-6124
▁권고	-6125
▁트레	-6126
▁156	-6127
▁겹치	-6128
▁163	-6129
▁도메인	-6130
문학	-6131
▁용산	-6132
모니	-6133
▁연애	-6134
▁167	-6135
▁사범	-6136
▁예루살렘	-6137
▁SF	-6138
▁링크	-6139
▁항일	-6140
▁스펙트	-6141
가스	-6142
▁신용	-6143
디스	-6144
우옌	-6145
▁무슬	-6146
▁DJ	-6147
▁압박	-6148
ate	-6149
▁리투아	-6150
▁리투아니아	-6151
▁그랑	-6152
▁스쿨	-6153
▁진상	-6154
▁정계	-6155
▁바이올린	-6156
▁크리스티	-6157
▁상임	-6158
▁여신	-6159
▁호환	-6160
▁타마	-6161
▁스펙트럼	-6162
식물	-6163
PS	-6164
교육	-6165
▁가득	-6166
▁끼리	-6167
▁900	-6168
▁무슬림	-6169
▁회원국	-6170
경기	-6171
▁AM	-6172
▁충남	-6173
▁아인	-6174
▁스마트폰	-6175
카르	-6176
▁밀접	-6177
▁자회사	-6178
▁발효	-6179
▁분지	-6180
▁어항	-6181
려오	-6182
페이	-6183
▁조류	-6184
▁챌린	-6185
▁한양	-6186
▁혜성	-6187
▁깔	-6188
▁니스	-6189
▁이지	-6190
▁우지	-6191
▁전염	-6192
껍질	-6193
▁비로	-6194
▁선사	-6195
지르	-6196
▁장편	-6197
▁서울시	-6198
▁샹	-6199
▁대단	-6200
▁미얀	-6201
▁번식	-6202
▁착륙	-6203
▁시달리	-6204
▁바그	-6205
▁게시	-6206
▁지주	-6207
▁씌	-6208
▁조국	-6209
▁무라	-6210
▁오다	-6211
▁포맷	-6212
▁피렌	-6213
▁훼손	-6214
▁비잔티움	-6215
IC	-6216
▁팅	-6217
길이	-6218
▁교섭	-6219
▁주립	-6220
▁지장	-6221
▁친정	-6222
커스	-6223
킨스	-6224
▁우루	-6225
▁일요일	-6226
▁고립	-6227
▁ㄹㅏㄱ	-6228
▁노무현	-6229
▁끄	-6230
▁애국	-6231
▁얼음	-6232
▁서브	-6233
랑이	-6234
▁UN	-6235
▁피스	-6236
▁진나라	-6237
▁식사	-6238
▁예능	-6239
▁오케스트라	-6240
▁ㅇㅓㅆㅇㅓㅆ	-6241
▁쇼군	-6242
▁농도	-6243
▁ᆯㅅㅜㄹㅗㄱ	-6244
잡이	-6245
▁요크	-6246
럼비아	-6247
▁아베	-6248
▁최신	-6249
▁139	-6250
▁옌	-6251
▁AS	-6252
▁기아	-6253
▁융합	-6254
예프	-6255
▁이명박	-6256
▁낱	-6257
▁구장	-6258
▁행정부	-6259
▁유하	-6260
▁과제	-6261
▁대령	-6262
▁참판	-6263
▁하트	-6264
▁알바니아	-6265
▁바티	-6266
▁아이디	-6267
부인	-6268
ET	-6269
▁와중	-6270
▁성종	-6271
▁시체	-6272
▁하드웨어	-6273
▁브라우	-6274
▁부흥	-6275
▁개발자	-6276
▁월간	-6277
▁차관	-6278
▁쿠스	-6279
▁145	-6280
▁주머니	-6281
▁킬로미터	-6282
▁기타리스트	-6283
▁강연	-6284
▁소나	-6285
▁용량	-6286
▁디비전	-6287
▁마리오	-6288
ast	-6289
▁뜨겁	-6290
▁선두	-6291
▁전이	-6292
로디	-6293
▁공과	-6294
▁발족	-6295
▁번주	-6296
▁지질	-6297
▁ㄱㅗㅅㅓ	-6298
▁투명	-6299
▁부통령	-6300
DP	-6301
▁파동	-6302
▁스트리트	-6303
▁학파	-6304
▁몸길이	-6305
▁피렌체	-6306
▁부자	-6307
▁임상	-6308
▁미나미	-6309
▁해인	-6310
▁보전	-6311
▁위주	-6312
▁관광객	-6313
▁야기	-6314
▁아세	-6315
▁페어	-6316
▁중국어	-6317
▁응우옌	-6318
수아	-6319
데이트	-6320
▁부도	-6321
▁규명	-6322
▁김동	-6323
▁저기	-6324
▁착수	-6325
▁고조	-6326
▁잊	-6327
▁충성	-6328
▁MVP	-6329
▁업데이트	-6330
▁거인	-6331
▁배정	-6332
▁전지	-6333
▁관찰사	-6334
▁마케팅	-6335
▁사사	-6336
▁전임	-6337
▁성공회	-6338
▁아이디어	-6339
▁간접	-6340
▁이에	-6341
레이터	-6342
if	-6343
▁1896	-6344
랑크	-6345
▁디오	-6346
▁마산	-6347
▁정벌	-6348
▁HIV	-6349
▁거스르	-6350
▁피에르	-6351
▁굉	-6352
▁넬	-6353
▁DS	-6354
▁사바	-6355
▁제네	-6356
▁측근	-6357
▁공용	-6358
트니	-6359
▁전류	-6360
▁하노	-6361
ack	-6362
▁형법	-6363
ive	-6364
▁맥스	-6365
▁공전	-6366
▁전두	-6367
▁점유	-6368
▁귀환	-6369
▁로빈	-6370
▁권유	-6371
▁완화	-6372
▁스콧	-6373
ure	-6374
▁여덟	-6375
▁출구	-6376
▁짙	-6377
▁IP	-6378
▁경선	-6379
IT	-6380
▁보드	-6381
▁중도	-6382
▁차체	-6383
트롤	-6384
▁제의	-6385
란트	-6386
▁중독	-6387
▁친선	-6388
▁게이트	-6389
▁수학자	-6390
▁둘러싸이	-6391
▁젖	-6392
▁연수	-6393
▁스타크래프트	-6394
악기	-6395
▁성벽	-6396
▁애플리케이션	-6397
▁요미우리	-6398
▁샬	-6399
▁턴	-6400
▁히라	-6401
▁174	-6402
균관	-6403
▁152	-6404
운서	-6405
▁미하	-6406
▁옐	-6407
▁트윈	-6408
리티	-6409
ock	-6410
▁서열	-6411
▁아나운서	-6412
루미	-6413
▁마운	-6414
▁수산	-6415
▁우즈	-6416
▁살아가	-6417
▁5000	-6418
iv	-6419
▁플라스	-6420
▁관습	-6421
▁소송법	-6422
▁오렌	-6423
▁시드니	-6424
▁테일러	-6425
어내	-6426
▁구동	-6427
▁세례	-6428
▁지각	-6429
주곡	-6430
▁검증	-6431
▁노동조합	-6432
▁메디	-6433
▁존경	-6434
▁서일본	-6435
▁석탄	-6436
▁정찰	-6437
▁조용	-6438
▁피난	-6439
▁뱅크	-6440
▁쇼핑	-6441
결승	-6442
▁157	-6443
▁Ar	-6444
토미	-6445
▁전문학교	-6446
▁으	-6447
▁변동	-6448
▁사명	-6449
▁뷔	-6450
▁장성	-6451
▁련	-6452
▁밀양	-6453
츠키	-6454
▁규격	-6455
▁금성	-6456
▁사인	-6457
▁실용	-6458
ck	-6459
▁전장	-6460
▁행진	-6461
▁꼴	-6462
▁곁	-6463
▁번뇌	-6464
▁전진	-6465
▁한화	-6466
▁프로세스	-6467
▁인과	-6468
▁수신	-6469
▁좌표	-6470
▁청와	-6471
▁한강	-6472
문관	-6473
▁루수	-6474
▁하버드	-6475
▁고개	-6476
▁디젤	-6477
▁준공	-6478
▁얼마나	-6479
▁신칸	-6480
▁빌헬	-6481
▁테오	-6482
▁미스터	-6483
▁책봉	-6484
▁청와대	-6485
가루	-6486
▁백신	-6487
▁카나	-6488
▁기울이	-6489
▁염색	-6490
▁자율	-6491
▁ㅈㅏㅁㅕㄴ	-6492
사기	-6493
▁급진	-6494
폴리스	-6495
▁다이아	-6496
▁복소	-6497
▁이슈	-6498
▁해전	-6499
▁킨	-6500
▁관현	-6501
▁여의	-6502
▁장인	-6503
▁호평	-6504
▁뿔	-6505
▁가즈	-6506
▁구제	-6507
▁신전	-6508
▁퇴각	-6509
원숭이	-6510
▁취약	-6511
외선	-6512
▁회수	-6513
▁상상	-6514
▁힘쓰	-6515
▁j	-6516
포스	-6517
▁국어	-6518
▁카시	-6519
▁MP	-6520
▁메가	-6521
▁적대	-6522
▁해임	-6523
▁자손	-6524
▁할당	-6525
▁성균관	-6526
전자	-6527
▁아울러	-6528
산군	-6529
니스트	-6530
▁연구자	-6531
끄럽	-6532
▁관념	-6533
▁흥행	-6534
▁판매량	-6535
카드	-6536
▁105	-6537
▁쏟	-6538
자와	-6539
▁몰락	-6540
▁무효	-6541
▁비극	-6542
▁연루	-6543
▁제휴	-6544
▁소총	-6545
▁식당	-6546
악단	-6547
▁소금	-6548
▁통행	-6549
하르트	-6550
트랙	-6551
▁상류	-6552
▁125	-6553
▁따위	-6554
▁지분	-6555
▁히스	-6556
▁승차	-6557
▁이순	-6558
▁146	-6559
▁1500	-6560
수수	-6561
혁명	-6562
▁남양	-6563
▁박영	-6564
▁파스	-6565
▁남인	-6566
▁적히	-6567
▁천문학	-6568
▁쥬	-6569
▁서독	-6570
▁여수	-6571
▁김용	-6572
▁루터	-6573
▁악마	-6574
▁응답	-6575
▁달아나	-6576
▁1911	-6577
▁이노	-6578
▁강사	-6579
▁술탄	-6580
12	-6581
▁쳐	-6582
▁휩	-6583
▁흩	-6584
▁나미	-6585
▁윌슨	-6586
▁착공	-6587
▁저기압	-6588
▁3000	-6589
▁에티	-6590
▁창업	-6591
▁패전	-6592
▁동남아시아	-6593
▁들리	-6594
▁마찰	-6595
▁외무	-6596
▁신칸센	-6597
ime	-6598
▁두드	-6599
▁두르	-6600
▁유출	-6601
▁쇄	-6602
▁이복	-6603
▁끈	-6604
▁우정	-6605
▁153	-6606
▁문제점	-6607
▁자책점	-6608
▁민국	-6609
▁성전	-6610
고속도로	-6611
▁나열	-6612
▁원나라	-6613
메르	-6614
▁마오	-6615
▁충족	-6616
▁프로토콜	-6617
라트	-6618
▁노드	-6619
▁믿음	-6620
▁여래	-6621
▁매출	-6622
▁소관	-6623
▁저택	-6624
▁얇	-6625
▁석가	-6626
▁소닉	-6627
▁아니하	-6628
▁항공모	-6629
▁하마	-6630
one	-6631
▁고원	-6632
▁곳곳	-6633
▁사지	-6634
▁순천	-6635
▁갈라지	-6636
▁PS	-6637
▁소재지	-6638
▁Le	-6639
▁디비	-6640
▁과목	-6641
▁청사	-6642
일드	-6643
▁일렉	-6644
▁조언	-6645
▁시외버스	-6646
▁단원	-6647
▁로고	-6648
▁카트	-6649
서양	-6650
제프	-6651
▁매개	-6652
▁희극	-6653
▁배구	-6654
▁서서	-6655
▁예배	-6656
▁이이	-6657
▁강수량	-6658
▁문재인	-6659
▁유언	-6660
▁증후	-6661
▁103	-6662
▁우주선	-6663
▁내내	-6664
▁동위	-6665
▁마천	-6666
팩트	-6667
▁아즈	-6668
▁폴리스	-6669
▁중점	-6670
▁지목	-6671
▁소지	-6672
▁떠오르	-6673
▁빌헬름	-6674
대군	-6675
▁비아	-6676
네이	-6677
▁보잉	-6678
▁환원	-6679
▁지지자	-6680
▁힌두	-6681
▁ISO	-6682
▁이글	-6683
▁Pro	-6684
▁찾아보	-6685
▁카자흐	-6686
토시	-6687
▁고무	-6688
▁환상	-6689
펴보	-6690
▁회견	-6691
▁살펴보	-6692
▁미얀마	-6693
▁고베	-6694
▁천사	-6695
▁클린	-6696
▁MC	-6697
▁주권	-6698
▁특유	-6699
델피아	-6700
▁필라델피아	-6701
▁연인	-6702
▁중장	-6703
▁회계	-6704
▁개업	-6705
▁공자	-6706
▁매사	-6707
▁법령	-6708
▁취재	-6709
▁편곡	-6710
▁눈물	-6711
▁셈	-6712
▁매기	-6713
▁선원	-6714
▁오클	-6715
ML	-6716
▁시립	-6717
▁비틀즈	-6718
AP	-6719
노리	-6720
▁기장	-6721
▁포장	-6722
▁해역	-6723
▁제트	-6724
▁후자	-6725
▁참가자	-6726
기니	-6727
노프	-6728
▁성모	-6729
▁나리	-6730
즈카	-6731
▁출입구	-6732
▁굵	-6733
▁155	-6734
▁겸임	-6735
▁공인	-6736
▁각본가	-6737
어리	-6738
▁친척	-6739
▁삿	-6740
OC	-6741
▁닭	-6742
▁별개	-6743
▁일관	-6744
▁중종	-6745
▁최적	-6746
▁진리	-6747
▁근접	-6748
▁터지	-6749
▁독립운동가	-6750
▁반격	-6751
마사	-6752
▁토크	-6753
▁협동	-6754
▁각기	-6755
▁공략	-6756
▁우편	-6757
▁보충	-6758
받침	-6759
▁카타	-6760
▁버튼	-6761
▁추모	-6762
시온	-6763
▁회화	-6764
▁오렌지	-6765
▁주파수	-6766
▁사가	-6767
▁와인	-6768
▁유해	-6769
▁점프	-6770
▁정치가	-6771
te	-6772
▁밭	-6773
▁앞면	-6774
▁별자리	-6775
▁증후군	-6776
동물	-6777
소스	-6778
▁이원	-6779
▁토리	-6780
▁허브	-6781
리크	-6782
▁게재	-6783
▁상자	-6784
▁격렬	-6785
▁법무	-6786
▁위장	-6787
▁유격	-6788
▁포수	-6789
▁108	-6790
▁이어서	-6791
▁항공모함	-6792
▁패스	-6793
▁빼앗기	-6794
▁동등	-6795
▁리메	-6796
▁민영	-6797
▁성주	-6798
▁생일	-6799
▁오키나	-6800
▁Bo	-6801
▁북동부	-6802
▁두드러지	-6803
▁미소	-6804
▁태우	-6805
▁컨트롤	-6806
▁사물	-6807
▁인형	-6808
▁트라이	-6809
▁실종	-6810
▁영동	-6811
▁이바	-6812
▁가라	-6813
▁아군	-6814
▁평행	-6815
▁두산	-6816
▁Con	-6817
▁개찰구	-6818
▁오디오	-6819
▁토요일	-6820
산면	-6821
▁나고	-6822
▁대답	-6823
▁채무	-6824
▁담배	-6825
▁유교	-6826
▁민사	-6827
▁아바	-6828
▁인격	-6829
▁합법	-6830
▁베르크	-6831
▁ㅇㅏㄹㅏ	-6832
플러	-6833
▁매력	-6834
▁감지	-6835
▁일찍이	-6836
▁사우디아	-6837
▁이인	-6838
▁룰	-6839
때로	-6840
▁레전	-6841
▁지우	-6842
▁테스	-6843
▁준결승	-6844
▁금액	-6845
▁미루	-6846
▁서해	-6847
▁하우	-6848
▁승무원	-6849
▁스파이	-6850
산리	-6851
io	-6852
▁내지	-6853
▁상부	-6854
▁외곽	-6855
▁아리스	-6856
상스	-6857
▁퍼시픽	-6858
▁히데요시	-6859
▁일족	-6860
ber	-6861
▁고체	-6862
▁야간	-6863
▁양상	-6864
▁에디	-6865
▁나고야	-6866
▁건의	-6867
▁교장	-6868
▁에우	-6869
▁자발	-6870
▁하인리히	-6871
▁이영	-6872
▁입상	-6873
▁박탈	-6874
▁스터	-6875
▁아케	-6876
▁화살	-6877
▁이사장	-6878
▁전두환	-6879
▁IT	-6880
베이터	-6881
▁상대방	-6882
▁드라이브	-6883
러미	-6884
▁브래	-6885
▁전례	-6886
▁에이스	-6887
▁해운	-6888
▁때때로	-6889
▁크리스마스	-6890
▁갓	-6891
▁상장	-6892
▁세균	-6893
▁꾀	-6894
▁얘	-6895
▁호세	-6896
▁앙리	-6897
▁생명체	-6898
▁서서히	-6899
▁1909	-6900
▁교단	-6901
▁외국어	-6902
▁섞이	-6903
가타	-6904
항공	-6905
화점	-6906
▁사다	-6907
▁트럼프	-6908
퍼니	-6909
▁대주교	-6910
▁시청자	-6911
▁ㅈㅏㄱㅗ	-6912
▁이슬람교	-6913
▁싸이	-6914
▁추격	-6915
▁김영삼	-6916
▁아우구	-6917
▁만세	-6918
▁149	-6919
▁128	-6920
▁캠페인	-6921
▁궁정	-6922
▁기금	-6923
▁복장	-6924
Pa	-6925
▁톈	-6926
▁부착	-6927
▁102	-6928
▁맵	-6929
▁콜라	-6930
▁향교	-6931
▁보스니아	-6932
모어	-6933
▁홍수	-6934
▁메타	-6935
▁물자	-6936
▁명의	-6937
▁무려	-6938
▁수성	-6939
▁연도	-6940
람회	-6941
▁고발	-6942
▁그만두	-6943
▁사용자	-6944
▁시라	-6945
▁전도	-6946
▁건축가	-6947
라이트	-6948
▁제작자	-6949
▁안장	-6950
칠리아	-6951
▁운동장	-6952
구장	-6953
▁골프	-6954
▁대군	-6955
▁#	-6956
▁치세	-6957
▁가르침	-6958
▁ㅈㅏㅁㅏ	-6959
▁배틀	-6960
▁어드	-6961
▁트위	-6962
▁호칭	-6963
▁후안	-6964
▁고가	-6965
▁짜리	-6966
▁트루	-6967
▁펼쳐지	-6968
▁발원	-6969
▁정밀	-6970
▁최저	-6971
▁르네상스	-6972
▁사우디아라비아	-6973
ge	-6974
age	-6975
▁긴장	-6976
▁대외	-6977
▁주지사	-6978
▁텍스트	-6979
▁에스파냐	-6980
▁집계	-6981
▁차남	-6982
먼드	-6983
▁계절	-6984
▁남한	-6985
▁발현	-6986
트릭	-6987
▁직책	-6988
▁셸	-6989
라미	-6990
▁슬라	-6991
▁전대	-6992
iz	-6993
집합	-6994
▁쉐	-6995
백과	-6996
▁여주	-6997
▁키프	-6998
▁중국인	-6999
▁중재	-7000
▁아미타	-7001
▁ㅈㅏㅁㅏㅈㅏ	-7002
▁$	-7003
▁Bl	-7004
▁섭취	-7005
▁존중	-7006
▁사이버	-7007
▁문양	-7008
▁네이버	-7009
▁자유당	-7010
▁송나라	-7011
▁세미	-7012
▁ㅇㅓㄷㅏ	-7013
▁포도주	-7014
나리	-7015
▁대니	-7016
▁시오	-7017
▁팽창	-7018
▁포괄	-7019
▁ᆯㄲㅏ	-7020
▁원자로	-7021
▁피고	-7022
▁초창	-7023
▁향후	-7024
▁턱	-7025
▁고래	-7026
▁레이저	-7027
▁강경	-7028
▁다중	-7029
▁리오	-7030
AD	-7031
▁며칠	-7032
▁상세	-7033
▁단기	-7034
▁레전드	-7035
▁룽	-7036
▁넓히	-7037
▁조반	-7038
▁팔레스	-7039
언스	-7040
▁청장	-7041
▁충주	-7042
▁최소한	-7043
생활	-7044
차례	-7045
▁조리	-7046
▁뽑히	-7047
▁사절	-7048
▁수평	-7049
▁태생	-7050
▁토마	-7051
▁127	-7052
▁탐지	-7053
▁블루스	-7054
▁로프	-7055
▁보리	-7056
▁CPU	-7057
▁노란색	-7058
▁댐	-7059
▁여진	-7060
▁아미노	-7061
▁고사	-7062
▁스릴	-7063
▁손가락	-7064
▁프랭크	-7065
▁왜성	-7066
▁토스	-7067
▁그랑프리	-7068
▁경부	-7069
▁147	-7070
▁엘리베이터	-7071
▁수군	-7072
▁1915	-7073
▁갑작	-7074
▁굉장	-7075
▁단점	-7076
▁방침	-7077
▁기수	-7078
▁볼리	-7079
▁케네	-7080
▁속성	-7081
▁역명	-7082
▁명목	-7083
▁하이드	-7084
sp	-7085
서리	-7086
울리	-7087
노부	-7088
▁객관	-7089
▁무죄	-7090
수엘라	-7091
▁난민	-7092
▁동독	-7093
▁초연	-7094
▁로맨스	-7095
▁겔	-7096
▁1913	-7097
▁딩	-7098
▁알코	-7099
▁캄보	-7100
행위	-7101
▁촉구	-7102
▁마비	-7103
▁전함	-7104
orld	-7105
▁제곱	-7106
▁추증	-7107
▁황해	-7108
▁숭배	-7109
우라	-7110
▁북구	-7111
▁171	-7112
▁주축	-7113
▁동당	-7114
▁취지	-7115
▁유소년	-7116
▁부천	-7117
▁진군	-7118
▁오키나와	-7119
라리	-7120
▁윌리엄스	-7121
▁라파	-7122
▁낙선	-7123
▁입체	-7124
▁협조	-7125
▁후일	-7126
▁이어받	-7127
▁캐스팅	-7128
▁북방	-7129
▁분광	-7130
▁심의	-7131
▁테니스	-7132
▁위키백과	-7133
ik	-7134
▁음원	-7135
▁천문학자	-7136
두르	-7137
창군	-7138
▁따뜻	-7139
▁신흥	-7140
▁김재	-7141
▁동년	-7142
▁둘레	-7143
▁침몰	-7144
▁문학상	-7145
▁상당수	-7146
▁유니폼	-7147
▁베네수엘라	-7148
▁광년	-7149
▁김수	-7150
▁투르크	-7151
▁동래	-7152
▁부과	-7153
▁창건	-7154
기지	-7155
▁마하	-7156
▁출토	-7157
▁타르	-7158
▁추상	-7159
시티	-7160
▁태수	-7161
▁강과	-7162
▁낮추	-7163
▁대포	-7164
▁옥스	-7165
▁시그	-7166
▁초창기	-7167
▁개미	-7168
▁컬러	-7169
▁닿	-7170
▁팜	-7171
▁서사	-7172
▁재미	-7173
▁창시	-7174
▁센서	-7175
명사전	-7176
자치도	-7177
▁제주특별	-7178
▁제주특별자치도	-7179
▁원고	-7180
▁원반	-7181
▁언제나	-7182
포구	-7183
▁대역	-7184
▁이민자	-7185
▁수령	-7186
▁GT	-7187
▁수렴	-7188
▁이틀	-7189
▁169	-7190
▁CE	-7191
▁병역	-7192
▁카탈	-7193
▁코프	-7194
▁탈환	-7195
▁1895	-7196
▁수동	-7197
크리트	-7198
▁스파르타	-7199
▁어업	-7200
▁디스플레이	-7201
▁나가사키	-7202
▁바흐	-7203
▁al	-7204
▁머신	-7205
▁남원	-7206
▁링컨	-7207
▁무제	-7208
▁리메이크	-7209
▁딴	-7210
평군	-7211
▁SP	-7212
▁프레스	-7213
▁내주	-7214
▁울리	-7215
▁WWE	-7216
여지	-7217
▁기습	-7218
▁아폴	-7219
▁통칭	-7220
▁141	-7221
▁총선거	-7222
▁팔레스타인	-7223
▁모스	-7224
▁ㅇㅔㄷㅏ	-7225
▁광부	-7226
박쥐	-7227
▁쓰러지	-7228
▁인재	-7229
▁아사히	-7230
▁김진	-7231
▁흩어지	-7232
포트	-7233
▁Tr	-7234
▁동력	-7235
▁법제	-7236
▁언론인	-7237
▁대처	-7238
▁유수	-7239
네스코	-7240
▁135	-7241
▁나주	-7242
▁적자	-7243
▁총괄	-7244
MS	-7245
공신	-7246
▁국사	-7247
▁주차	-7248
▁하부	-7249
▁ㄹㅐ	-7250
▁때리	-7251
▁비문	-7252
▁찾아내	-7253
▁다운로드	-7254
벌레	-7255
▁유연	-7256
▁초상화	-7257
▁한동안	-7258
▁엔지	-7259
▁온천	-7260
▁북서부	-7261
무기	-7262
▁탤	-7263
▁섭정	-7264
▁도호쿠	-7265
▁자기장	-7266
보기	-7267
▁걱	-7268
ust	-7269
▁메인	-7270
▁풋볼	-7271
자스	-7272
▁계몽	-7273
▁소실	-7274
▁수용소	-7275
석기	-7276
▁대제	-7277
▁양주	-7278
▁문화방송	-7279
▁시공	-7280
▁ㄷㅡㄴㅈㅣ	-7281
와라	-7282
▁서머	-7283
▁신세	-7284
▁이진	-7285
▁후세	-7286
▁111	-7287
ep	-7288
▁해병대	-7289
▁어스	-7290
그라드	-7291
▁효력	-7292
▁144	-7293
선거	-7294
▁정말	-7295
▁청원	-7296
▁개관	-7297
▁귀중	-7298
▁반박	-7299
▁고백	-7300
▁나르	-7301
▁서울대	-7302
▁끊임	-7303
▁번영	-7304
▁후대	-7305
▁영리	-7306
▁저명	-7307
▁차기	-7308
▁더글	-7309
▁중순	-7310
▁신중	-7311
▁오빠	-7312
▁바실	-7313
▁몰아내	-7314
▁hPa	-7315
▁김태	-7316
▁김포	-7317
▁스핀	-7318
▁스티브	-7319
▁면하	-7320
▁폐위	-7321
▁함유	-7322
▁식별	-7323
▁첨가	-7324
▁풍경	-7325
▁아레나	-7326
▁대위	-7327
▁십자가	-7328
▁큰	-7329
int	-7330
▁종결	-7331
▁장미	-7332
▁연세대	-7333
▁제수	-7334
▁기요	-7335
▁내외	-7336
▁평야	-7337
▁119	-7338
▁스릴러	-7339
▁컬럼비아	-7340
누엘	-7341
▁두루	-7342
▁무상	-7343
▁정전	-7344
▁리버풀	-7345
▁컴퍼니	-7346
▁파업	-7347
▁휴식	-7348
▁TH	-7349
▁공채	-7350
▁날짜	-7351
▁정무	-7352
▁조달	-7353
▁천도	-7354
▁캄보디아	-7355
▁인산	-7356
▁It	-7357
▁불편	-7358
▁신학교	-7359
▁이광	-7360
트리올	-7361
▁다니엘	-7362
▁케네디	-7363
▁몬트리올	-7364
▁도스	-7365
▁언더	-7366
따르	-7367
▁매카	-7368
키지	-7369
▁별칭	-7370
▁삼진	-7371
▁충실	-7372
▁172	-7373
▁교양	-7374
▁드럼	-7375
▁원내	-7376
▁CO	-7377
▁간호	-7378
▁아종	-7379
▁요르	-7380
▁중소	-7381
▁편리	-7382
GC	-7383
푸스	-7384
▁소환	-7385
EN	-7386
▁관통	-7387
▁총사	-7388
▁유니버	-7389
▁루시	-7390
▁병조	-7391
▁걱정	-7392
▁평일	-7393
▁전성기	-7394
▁꽤	-7395
시로	-7396
▁북위	-7397
▁사회학	-7398
▁우연히	-7399
▁친일인	-7400
▁친일인명사전	-7401
ib	-7402
▁룡	-7403
▁이글스	-7404
▁유네스코	-7405
▁껍질	-7406
▁명백	-7407
▁묘역	-7408
▁신기	-7409
▁장안	-7410
▁신학자	-7411
▁교원	-7412
▁선구	-7413
▁애덤	-7414
▁106	-7415
릴라	-7416
▁미주	-7417
▁바퀴	-7418
▁니콜라	-7419
▁아틀레	-7420
▁페르난	-7421
스럽	-7422
ome	-7423
▁총대	-7424
▁테레	-7425
▁평하	-7426
▁카리브	-7427
▁ㄲㅔㅅㅓ	-7428
▁베드	-7429
▁선종	-7430
▁해수	-7431
▁휴전	-7432
▁엔지니어	-7433
ian	-7434
ude	-7435
▁덤	-7436
그로	-7437
▁위임	-7438
▁스페이스	-7439
니치	-7440
▁관람	-7441
▁리어	-7442
▁모방	-7443
▁아벨	-7444
▁당일	-7445
▁중량	-7446
▁공모	-7447
▁의상	-7448
▁고민	-7449
▁김상	-7450
▁제갈	-7451
▁증진	-7452
▁공직	-7453
▁미즈	-7454
▁연패	-7455
케이션	-7456
▁프랑수아	-7457
▁슈트	-7458
▁승점	-7459
▁콰	-7460
▁초과	-7461
▁표명	-7462
▁콘크리트	-7463
▁등재	-7464
▁평범	-7465
▁아이슬	-7466
▁We	-7467
▁보완	-7468
▁서남	-7469
▁좌절	-7470
▁지혜	-7471
▁세계관	-7472
▁에스토	-7473
▁한성부	-7474
▁마츠	-7475
▁낱말	-7476
▁미토	-7477
▁정렬	-7478
▁지폐	-7479
▁소통	-7480
▁쇼트	-7481
▁생전	-7482
▁장려	-7483
내셔널	-7484
▁아이템	-7485
▁인터내셔널	-7486
▁멋	-7487
세츠	-7488
▁마인	-7489
▁열대	-7490
페르	-7491
ere	-7492
▁충북	-7493
▁케이스	-7494
선스	-7495
▁진짜	-7496
▁해변	-7497
▁잦	-7498
▁훔	-7499
▁돌연	-7500
▁방패	-7501
▁책임자	-7502
말라	-7503
▁영남	-7504
▁매사추	-7505
▁우울	-7506
▁전압	-7507
▁고수	-7508
▁배신	-7509
▁일화	-7510
▁합창	-7511
▁외교관	-7512
▁매사추세츠	-7513
▁대웅	-7514
▁상서	-7515
▁아이슬란드	-7516
블로	-7517
▁그루	-7518
▁탱크	-7519
주의자	-7520
▁우라늄	-7521
▁공단	-7522
▁중추원	-7523
치오	-7524
▁단식	-7525
ire	-7526
▁발트	-7527
▁암석	-7528
▁양도	-7529
▁황태자	-7530
루션	-7531
실록	-7532
▁치열	-7533
▁불명	-7534
▁일조	-7535
▁투르	-7536
유행	-7537
▁도라	-7538
▁요하	-7539
▁입지	-7540
▁포격	-7541
라이더	-7542
▁나스	-7543
▁바리	-7544
▁공의회	-7545
▁역설	-7546
▁부채	-7547
▁시흥	-7548
▁퍼센트	-7549
▁스페인어	-7550
▁교외	-7551
▁구이	-7552
▁다치	-7553
▁영장	-7554
ment	-7555
▁소유자	-7556
pe	-7557
ace	-7558
▁레바	-7559
▁호위	-7560
▁도르	-7561
▁도루	-7562
▁호프	-7563
▁시나리오	-7564
▁에스토니아	-7565
▁라이선스	-7566
▁횟	-7567
▁신속	-7568
▁상담	-7569
▁실전	-7570
▁내려지	-7571
▁장난	-7572
▁괴롭	-7573
▁친왕	-7574
야시	-7575
▁로열	-7576
▁업계	-7577
▁조이	-7578
▁서정	-7579
▁통근	-7580
▁닝	-7581
ide	-7582
▁평택	-7583
▁밟	-7584
▁쿤	-7585
▁도주	-7586
▁오사	-7587
▁김기	-7588
▁오세	-7589
마드	-7590
▁에버	-7591
▁인연	-7592
▁중심부	-7593
▁물리학자	-7594
▁고령	-7595
▁사슬	-7596
▁오비	-7597
▁육지	-7598
▁창고	-7599
▁친하	-7600
▁카이사르	-7601
▁대전광역시	-7602
석탑	-7603
▁견디	-7604
▁마약	-7605
▁봉쇄	-7606
▁오노	-7607
▁항소	-7608
오피아	-7609
층석탑	-7610
▁에티오피아	-7611
▁푼	-7612
▁애틀	-7613
▁기어	-7614
▁기인	-7615
▁여지	-7616
▁차종	-7617
▁리비아	-7618
▁치즈	-7619
리케인	-7620
바이잔	-7621
▁148	-7622
▁시선	-7623
▁어쩌	-7624
▁즈음	-7625
▁덮이	-7626
▁현금	-7627
▁할리우드	-7628
▁전라도	-7629
▁슬로바키아	-7630
▁부재	-7631
▁1916	-7632
▁가로지르	-7633
제리	-7634
▁HT	-7635
▁탈당	-7636
▁협주곡	-7637
▁허리케인	-7638
▁신생	-7639
▁지능	-7640
▁136	-7641
▁끓	-7642
▁격투	-7643
▁파장	-7644
▁마이너	-7645
▁닛폰	-7646
▁해소	-7647
▁NBA	-7648
▁아제르	-7649
▁극동	-7650
▁의뢰	-7651
▁실시간	-7652
▁스튜어트	-7653
중국	-7654
▁병행	-7655
▁서재	-7656
▁그로	-7657
▁바닷	-7658
▁순회	-7659
▁얘기	-7660
▁위탁	-7661
지리아	-7662
▁나이지리아	-7663
▁TO	-7664
▁네이션스	-7665
▁아제르바이잔	-7666
위원	-7667
▁낭만	-7668
▁성운	-7669
▁아드	-7670
▁흘리	-7671
▁파이어	-7672
IM	-7673
▁추출	-7674
▁하락	-7675
▁IBM	-7676
아이	-7677
▁동상	-7678
▁입당	-7679
▁조연	-7680
▁갈리	-7681
▁명제	-7682
▁원숭이	-7683
▁이사회	-7684
▁기단	-7685
▁다항	-7686
▁앓	-7687
하면	-7688
▁동이	-7689
▁바스	-7690
▁산림	-7691
▁작센	-7692
▁추세	-7693
▁특집	-7694
▁호기	-7695
▁결혼식	-7696
▁배터리	-7697
▁솜	-7698
시피	-7699
▁막내	-7700
▁알아내	-7701
의자	-7702
▁부적	-7703
▁허리	-7704
▁라이언	-7705
바다	-7706
▁노부나가	-7707
▁시초	-7708
▁워드	-7709
▁의약	-7710
▁급격히	-7711
람쥐	-7712
▁우루과이	-7713
▁쌍둥이	-7714
▁국무총리	-7715
▁패키지	-7716
▁ㄷㅚ	-7717
▁구릉	-7718
▁안성	-7719
▁138	-7720
▁구도	-7721
▁DC	-7722
▁세션	-7723
▁약칭	-7724
▁전념	-7725
▁한스	-7726
▁신탁	-7727
▁실장	-7728
▁평원	-7729
▁브라우저	-7730
▁닷	-7731
▁니아	-7732
▁되게	-7733
▁사헌	-7734
▁유동	-7735
▁면허	-7736
▁반감	-7737
▁지류	-7738
▁데이비스	-7739
cl	-7740
▁솟	-7741
▁가동	-7742
▁격퇴	-7743
▁아마도	-7744
▁구호	-7745
▁중위	-7746
▁현종	-7747
▁페르디	-7748
▁딕	-7749
▁리틀	-7750
▁저하	-7751
▁주행	-7752
▁백화점	-7753
▁리우스	-7754
▁박해	-7755
▁섬기	-7756
▁해밀	-7757
타로	-7758
▁거론	-7759
▁백색	-7760
▁신한	-7761
▁우세	-7762
▁회고	-7763
▁거제	-7764
▁경연	-7765
▁분당	-7766
▁수습	-7767
▁시즈	-7768
▁후쿠시마	-7769
나오	-7770
▁la	-7771
▁객체	-7772
▁돌려	-7773
▁첼시	-7774
▁지선	-7775
▁360	-7776
▁구조물	-7777
파르	-7778
▁레논	-7779
▁신규	-7780
▁안기	-7781
▁이세	-7782
승지	-7783
▁개그	-7784
▁토성	-7785
▁고성	-7786
▁치명	-7787
▁중성자	-7788
▁상공	-7789
▁시칠리아	-7790
▁극히	-7791
▁오바	-7792
▁포터	-7793
▁거행	-7794
▁알아	-7795
▁재위	-7796
▁춘천	-7797
▁바이오	-7798
▁영의정	-7799
▁ㅇㅓㄹㅏ	-7800
토모	-7801
▁최상위	-7802
▁뭉	-7803
타나	-7804
▁복선	-7805
▁라이브러리	-7806
여래	-7807
▁결선	-7808
▁고소	-7809
▁냉각	-7810
▁성숙	-7811
▁탐구	-7812
▁104	-7813
거지	-7814
▁익히	-7815
래스카	-7816
▁사헌부	-7817
▁어울리	-7818
▁도미	-7819
▁생식	-7820
▁라트비아	-7821
▁아부	-7822
곡리	-7823
▁외치	-7824
▁피에	-7825
마쓰	-7826
▁릉	-7827
대신	-7828
▁En	-7829
▁가면	-7830
▁한쪽	-7831
▁횟수	-7832
▁LP	-7833
▁감리	-7834
▁트래	-7835
▁펌	-7836
▁그램	-7837
▁도장	-7838
▁장학	-7839
▁애틀랜	-7840
▁비시	-7841
▁후방	-7842
▁게르만	-7843
양함	-7844
▁송시	-7845
▁어휘	-7846
▁임용	-7847
▁택시	-7848
▁오피스	-7849
▁랄	-7850
▁해적	-7851
▁혈통	-7852
▁테이블	-7853
리에	-7854
브레	-7855
ark	-7856
▁나비	-7857
▁돌보	-7858
▁모니터	-7859
▁혀	-7860
▁주가	-7861
리니	-7862
은색	-7863
▁주름	-7864
▁109	-7865
하시	-7866
▁성체	-7867
▁제독	-7868
▁차장	-7869
▁춘추	-7870
회장	-7871
▁행적	-7872
▁환영	-7873
▁반도체	-7874
▁Pr	-7875
▁개원	-7876
▁고인	-7877
▁그날	-7878
▁목판	-7879
▁스톡	-7880
▁재현	-7881
▁최악	-7882
▁잔류	-7883
어버리	-7884
▁스트레스	-7885
▁교황청	-7886
데시	-7887
▁데모	-7888
▁ㅅㅗ	-7889
▁비리	-7890
▁이케	-7891
▁칼라	-7892
▁방송사	-7893
▁별다르	-7894
▁올바르	-7895
▁123	-7896
베르토	-7897
▁ㄹㅏㄹ	-7898
▁코무네	-7899
타고	-7900
▁가짜	-7901
▁정점	-7902
▁휴스턴	-7903
▁대학생	-7904
▁뢰	-7905
▁옴	-7906
▁우위	-7907
▁반경	-7908
▁공수	-7909
▁동점	-7910
▁축하	-7911
▁대표작	-7912
더슨	-7913
▁아홉	-7914
고쿠	-7915
▁하워드	-7916
▁민회	-7917
▁바나	-7918
▁소매	-7919
▁햇	-7920
▁통증	-7921
푸르트	-7922
▁억압	-7923
▁왜냐	-7924
▁부당	-7925
▁펜실	-7926
▁폭동	-7927
베이니아	-7928
▁공산주의자	-7929
▁펜실베이니아	-7930
▁견제	-7931
▁명령어	-7932
▁매입	-7933
▁현저	-7934
ㄷㅓㄴ	-7935
▁루프	-7936
▁성취	-7937
포드	-7938
헤이	-7939
▁시바	-7940
▁인플	-7941
▁적당	-7942
▁종로구	-7943
▁타이거즈	-7944
▁순교	-7945
▁연하	-7946
▁AK	-7947
▁고장	-7948
▁광물	-7949
▁주주	-7950
▁한인	-7951
▁힘입	-7952
▁헐	-7953
▁아담	-7954
▁143	-7955
▁분기점	-7956
▁연합회	-7957
▁카자흐스탄	-7958
란히	-7959
▁터치	-7960
▁야구장	-7961
▁너비	-7962
▁노바	-7963
▁분비	-7964
차기	-7965
▁NC	-7966
▁벌금	-7967
▁주역	-7968
랜트	-7969
▁열정	-7970
▁AR	-7971
▁경관	-7972
▁여당	-7973
▁처녀	-7974
바시	-7975
▁다발	-7976
▁상점	-7977
▁수련	-7978
▁청춘	-7979
법인	-7980
▁산란	-7981
▁신조	-7982
▁육체	-7983
▁동아일보	-7984
은이	-7985
▁누이	-7986
▁상단	-7987
▁이식	-7988
▁리우	-7989
▁베스	-7990
▁사모	-7991
▁호랑이	-7992
▁이화	-7993
▁축적	-7994
▁부르크	-7995
글리	-7996
▁암시	-7997
▁팡	-7998
▁유한	-7999
▁토모	-8000
▁히메	-8001
AL	-8002
▁CS	-8003
▁염기	-8004
▁존속	-8005
▁피츠	-8006
▁이에야스	-8007
▁돋	-8008
▁성사	-8009
▁신주	-8010
▁제하	-8011
▁출처	-8012
▁마야	-8013
▁col	-8014
▁롤링	-8015
▁비자	-8016
▁응원	-8017
산동	-8018
▁컴파	-8019
▁팔라	-8020
▁자민	-8021
▁제프	-8022
▁박람회	-8023
ile	-8024
▁근교	-8025
▁블라디미르	-8026
▁휠	-8027
▁CC	-8028
▁목재	-8029
▁남동부	-8030
▁펑크	-8031
▁소나타	-8032
▁플라이	-8033
▁통영	-8034
▁왓	-8035
▁에미	-8036
▁오해	-8037
▁폭행	-8038
▁관구	-8039
▁김경	-8040
러스트	-8041
스틴	-8042
▁해명	-8043
▁룬	-8044
▁래퍼	-8045
▁비싸	-8046
▁음료	-8047
▁이윤	-8048
브리지	-8049
▁알코올	-8050
▁아예	-8051
▁유로파	-8052
▁친일파	-8053
▁다이아몬드	-8054
▁기적	-8055
▁부설	-8056
▁상반	-8057
▁차이점	-8058
▁경상도	-8059
▁태양계	-8060
▁계시	-8061
▁광학	-8062
▁블로그	-8063
▁갈라	-8064
▁법조	-8065
▁설탕	-8066
▁보석	-8067
▁상용	-8068
▁Op	-8069
▁나트	-8070
▁적분	-8071
▁티스	-8072
ies	-8073
▁운하	-8074
▁충전	-8075
▁황실	-8076
▁가죽	-8077
▁놀랍	-8078
▁시골	-8079
▁유죄	-8080
▁조선일보	-8081
면체	-8082
살이	-8083
▁다녀	-8084
▁사육	-8085
▁신념	-8086
▁생산량	-8087
▁킥	-8088
비나	-8089
▁규범	-8090
▁지르	-8091
▁그동안	-8092
▁내보내	-8093
라클	-8094
▁다투	-8095
xt	-8096
기업	-8097
▁만남	-8098
▁이타	-8099
▁증대	-8100
▁CON	-8101
▁말라	-8102
▁무지	-8103
▁경찰청	-8104
▁흠	-8105
▁동국	-8106
▁카롤	-8107
▁중의원	-8108
▁라오스	-8109
▁베어스	-8110
▁브라더스	-8111
도리	-8112
▁공익	-8113
▁112	-8114
▁공습	-8115
▁단단	-8116
▁히사	-8117
▁RNA	-8118
▁국소	-8119
▁빨간	-8120
▁합하	-8121
나스	-8122
▁부제	-8123
▁상사	-8124
▁어원	-8125
▁키프로스	-8126
▁거칠	-8127
▁107	-8128
▁공관	-8129
▁미르	-8130
▁시베리아	-8131
▁갇	-8132
ite	-8133
▁시어	-8134
▁우유	-8135
▁사업자	-8136
▁공천	-8137
▁비유	-8138
▁구축함	-8139
▁루이지	-8140
▁트윈스	-8141
▁삼층석탑	-8142
▁후사	-8143
▁깨닫	-8144
▁누나	-8145
▁레일	-8146
▁126	-8147
▁장거리	-8148
▁창원시	-8149
▁가군	-8150
▁아랍어	-8151
▁우승자	-8152
권자	-8153
▁is	-8154
▁신민	-8155
▁조세	-8156
고래	-8157
▁Te	-8158
▁발해	-8159
▁언니	-8160
▁카를로스	-8161
▁당주	-8162
▁성단	-8163
▁수법	-8164
▁옆면	-8165
▁트위터	-8166
▁거북	-8167
도바	-8168
▁확신	-8169
▁이산화	-8170
▁왜냐하면	-8171
레기	-8172
▁협박	-8173
스부르크	-8174
▁사우루스	-8175
▁이순신	-8176
▁줄무늬	-8177
▁신선	-8178
▁품종	-8179
▁탐사선	-8180
랑카	-8181
▁소셜	-8182
▁송시열	-8183
▁범인	-8184
▁헤비	-8185
▁117	-8186
▁교과서	-8187
▁대웅전	-8188
ft	-8189
▁맥락	-8190
▁구출	-8191
▁맥주	-8192
▁굉장히	-8193
▁조종사	-8194
▁플러스	-8195
지붕	-8196
▁대폭	-8197
▁여파	-8198
▁실체	-8199
▁연쇄	-8200
▁제재	-8201
▁동문	-8202
▁천장	-8203
▁할머니	-8204
▁도마뱀붙이	-8205
▁퐁	-8206
수리	-8207
▁왜곡	-8208
▁포럼	-8209
갈색	-8210
▁허위	-8211
▁드로	-8212
▁핸드	-8213
▁법무부	-8214
▁갇히	-8215
▁평의회	-8216
▁근원	-8217
▁네스	-8218
▁풀리	-8219
▁뉘	-8220
▁교정	-8221
▁소원	-8222
▁지평	-8223
▁우호	-8224
리안	-8225
▁SE	-8226
▁경보	-8227
▁꾀하	-8228
▁입원	-8229
▁제니	-8230
▁곡인	-8231
▁이경	-8232
▁피우	-8233
▁빈곤	-8234
▁인체	-8235
▁희생자	-8236
▁가마쿠라	-8237
▁아카데미상	-8238
▁인문	-8239
▁임하	-8240
▁마디	-8241
▁양키스	-8242
다지	-8243
▁다지	-8244
▁고속도	-8245
▁빨간색	-8246
▁날씨	-8247
▁탐색	-8248
▁121	-8249
▁350	-8250
▁화장실	-8251
ath	-8252
▁몰래	-8253
▁진급	-8254
▁진하	-8255
▁com	-8256
▁신약	-8257
▁전자기	-8258
무스	-8259
조부	-8260
▁세라	-8261
▁펠리	-8262
▁137	-8263
▁일반인	-8264
▁통틀	-8265
▁필터	-8266
▁173	-8267
▁바오로	-8268
▁삼성전자	-8269
의장	-8270
▁거울	-8271
▁요동	-8272
▁제대	-8273
ound	-8274
ond	-8275
▁이브	-8276
▁연합국	-8277
▁필리프	-8278
▁CF	-8279
▁비르	-8280
▁일방	-8281
▁테이프	-8282
▁킴	-8283
시타	-8284
▁가축	-8285
OL	-8286
▁방화	-8287
▁후궁	-8288
▁성별	-8289
▁ㄴㅗ	-8290
▁문예	-8291
▁해고	-8292
▁수용체	-8293
▁맘	-8294
연합	-8295
▁결함	-8296
▁불타	-8297
▁샘플	-8298
▁라이너	-8299
▁총독부	-8300
▁1894	-8301
마루	-8302
승부	-8303
ㄷㅡㄴ	-8304
게이머	-8305
▁프로게이머	-8306
ory	-8307
▁승계	-8308
▁자아	-8309
▁주이	-8310
▁냄	-8311
▁양측	-8312
▁왕복	-8313
▁포병	-8314
▁물려받	-8315
▁헥	-8316
▁워터	-8317
▁엿	-8318
수소	-8319
▁믹스	-8320
베니아	-8321
▁113	-8322
▁클라우드	-8323
끼리	-8324
▁다크	-8325
▁태권	-8326
▁개교	-8327
▁지미	-8328
▁진공	-8329
▁택하	-8330
▁가장자리	-8331
▁철회	-8332
▁근로자	-8333
▁크리스토퍼	-8334
대기	-8335
▁만일	-8336
▁아야	-8337
▁핵무기	-8338
그레이드	-8339
▁궁극	-8340
▁레온	-8341
▁투옥	-8342
ov	-8343
▁문구	-8344
▁세속	-8345
▁수색	-8346
▁슬로베니아	-8347
▁땃	-8348
▁놓치	-8349
▁대의원	-8350
▁바티칸	-8351
▁브로드	-8352
▁업그레이드	-8353
▁드레	-8354
▁미션	-8355
▁적도	-8356
▁낫	-8357
▁뒷면	-8358
▁붐	-8359
단체	-8360
▁극심	-8361
▁뒤집	-8362
▁보증	-8363
man	-8364
▁공민	-8365
▁공방	-8366
▁둥지	-8367
▁일가	-8368
▁알제리	-8369
번스	-8370
▁계정	-8371
▁대피	-8372
▁바우	-8373
▁가져가	-8374
▁서민	-8375
▁도미니	-8376
규모	-8377
로이	-8378
▁로이	-8379
▁코스타	-8380
톨레	-8381
▁최강	-8382
▁치안	-8383
그리	-8384
▁비추	-8385
▁혈관	-8386
▁농림	-8387
▁성도	-8388
▁유년	-8389
▁하동	-8390
크라	-8391
▁무어	-8392
▁용병	-8393
아키	-8394
▁먼지	-8395
▁게스트	-8396
▁몬스터	-8397
▁캐시	-8398
▁ㅓㅅㅓ	-8399
▁z	-8400
▁LC	-8401
▁강서	-8402
▁서진	-8403
▁제인	-8404
iver	-8405
▁124	-8406
▁멜로디	-8407
▁최대한	-8408
셰비	-8409
▁On	-8410
▁개종	-8411
▁결코	-8412
퍼런스	-8413
▁IM	-8414
▁신시	-8415
▁칭찬	-8416
▁게이지	-8417
아프리카	-8418
▁관음	-8419
▁군정	-8420
▁시뮬	-8421
▁즉각	-8422
▁판본	-8423
▁독일인	-8424
▁".	-8425
▁공백	-8426
▁횡단	-8427
▁자연수	-8428
▁탤런트	-8429
▁명하	-8430
▁화해	-8431
▁국내외	-8432
박스	-8433
▁be	-8434
▁모친	-8435
▁카카	-8436
▁타당	-8437
▁륙	-8438
▁김현	-8439
▁상표	-8440
▁두껍	-8441
▁스캔	-8442
mer	-8443
▁가루	-8444
▁넘치	-8445
▁성문	-8446
▁야마토	-8447
블리	-8448
▁그냥	-8449
대원군	-8450
▁World	-8451
▁쑤	-8452
로니	-8453
▁그대	-8454
▁피오	-8455
▁남서부	-8456
▁곤란	-8457
▁구절	-8458
▁서초	-8459
▁고고학	-8460
▁커뮤니케이션	-8461
▁제치	-8462
▁체크	-8463
▁학계	-8464
▁김정일	-8465
린스	-8466
▁닫히	-8467
▁초록	-8468
▁프랑크푸르트	-8469
▁내정	-8470
▁미키	-8471
▁욕구	-8472
▁항쟁	-8473
▁SU	-8474
▁일생	-8475
▁베네딕	-8476
▁CR	-8477
▁감자	-8478
▁디렉	-8479
▁야쿠	-8480
▁양호	-8481
▁1890	-8482
▁아랫	-8483
▁원전	-8484
▁풍자	-8485
▁New	-8486
▁영산	-8487
▁데르	-8488
▁우파	-8489
▁초월	-8490
ich	-8491
▁브리지	-8492
드르	-8493
▁러시	-8494
▁자선	-8495
▁오리콘	-8496
▁윤치호	-8497
줄기	-8498
축구	-8499
▁어미	-8500
▁배후	-8501
▁유저	-8502
▁검찰청	-8503
▁114	-8504
▁돌격	-8505
▁땃쥐	-8506
▁자비	-8507
▁조부	-8508
▁시위대	-8509
▁오프닝	-8510
▁이거	-8511
▁제압	-8512
▁라이온즈	-8513
▁맑	-8514
▁부딪	-8515
▁선비	-8516
▁평정	-8517
프레스	-8518
▁기질	-8519
▁정세	-8520
▁침투	-8521
▁기업인	-8522
▁김규	-8523
▁소규모	-8524
▁안토니오	-8525
▁ㄷㅣ	-8526
▁미노	-8527
▁베니	-8528
▁이소	-8529
▁자오	-8530
▁다녀오	-8531
▁EC	-8532
▁대명	-8533
▁정주	-8534
▁므	-8535
▁증손	-8536
▁구스타	-8537
▁이준	-8538
▁분명히	-8539
▁과반	-8540
▁사상자	-8541
▁냉전	-8542
▁떨치	-8543
▁자택	-8544
▁알루미	-8545
▁알아보	-8546
ial	-8547
▁다가오	-8548
▁옵션	-8549
타리오	-8550
렉스	-8551
▁구와	-8552
▁지침	-8553
▁118	-8554
▁깎	-8555
▁관세	-8556
▁어긋	-8557
▁자음	-8558
▁일리노	-8559
▁드라이버	-8560
IP	-8561
▁예조	-8562
▁블랙홀	-8563
▁히어로즈	-8564
▁가드	-8565
▁악단	-8566
▁이남	-8567
▁파이널	-8568
▁ㅇㅡㄹㅈㅣ	-8569
▁시정	-8570
▁이드	-8571
▁플래시	-8572
▁군중	-8573
▁대거	-8574
▁학명	-8575
▁일리노이	-8576
▁만료	-8577
▁프로덕	-8578
▁도청	-8579
▁빛나	-8580
▁징계	-8581
▁대부	-8582
▁서자	-8583
▁예시	-8584
▁주부	-8585
▁미하일	-8586
▁파란색	-8587
▁Sc	-8588
▁말씀	-8589
▁발리	-8590
▁원로원	-8591
▁풀려나	-8592
▁1898	-8593
러드	-8594
ign	-8595
▁봉건	-8596
▁스칼	-8597
▁체스	-8598
▁체조	-8599
▁크리스티안	-8600
▁요정	-8601
▁종착	-8602
▁디비시온	-8603
hn	-8604
황후	-8605
▁재상	-8606
▁저널	-8607
▁하르	-8608
▁115	-8609
▁매니저	-8610
▁경신	-8611
▁괴물	-8612
▁연승	-8613
▁태극	-8614
▁용이	-8615
▁진사	-8616
▁경찰관	-8617
▁극장판	-8618
▁트로이	-8619
▁빔	-8620
▁컷	-8621
▁헬리	-8622
▁갑작스럽	-8623
▁인명	-8624
▁벵	-8625
하루	-8626
▁순조	-8627
▁지인	-8628
닐라	-8629
▁남구	-8630
▁봉안	-8631
▁중형	-8632
▁방사선	-8633
▁비로소	-8634
▁승부차기	-8635
저지	-8636
▁모로코	-8637
▁반지름	-8638
▁통치자	-8639
교도	-8640
▁우측	-8641
▁계열사	-8642
▁우즈베	-8643
▁뭐	-8644
벨트	-8645
히코	-8646
▁로그	-8647
조건	-8648
▁커널	-8649
▁시가지	-8650
고스	-8651
아먹	-8652
▁SD	-8653
▁밀집	-8654
▁세이브	-8655
▁챌린지	-8656
지스	-8657
▁카우	-8658
▁희귀	-8659
▁앵글	-8660
▁헬기	-8661
▁ㅋㅔ	-8662
▁공조	-8663
▁남미	-8664
▁축출	-8665
▁키르	-8666
▁레바논	-8667
▁웨스턴	-8668
▁공감	-8669
▁매매	-8670
▁본국	-8671
▁필사	-8672
▁외야수	-8673
▁무성	-8674
기념	-8675
▁가옥	-8676
▁극작	-8677
▁비기	-8678
▁선도	-8679
▁패럴	-8680
보르	-8681
▁변이	-8682
려워하	-8683
▁GS	-8684
▁동정	-8685
▁전년	-8686
▁무승부	-8687
▁범유행	-8688
▁`	-8689
▁센티	-8690
마이오스	-8691
▁JT	-8692
▁통보	-8693
▁129	-8694
▁뉴저지	-8695
▁성리학	-8696
타니	-8697
▁직면	-8698
▁하프	-8699
▁소모	-8700
▁웹툰	-8701
▁케냐	-8702
▁쫓겨나	-8703
▁렐	-8704
▁GP	-8705
▁답변	-8706
▁모나	-8707
▁부스	-8708
▁사위	-8709
▁정변	-8710
▁컨셉	-8711
▁외모	-8712
▁켈리	-8713
▁혜택	-8714
▁대변인	-8715
▁캉	-8716
부리	-8717
▁기증	-8718
▁왕세	-8719
▁취업	-8720
▁그레고	-8721
▁글루	-8722
▁핑크	-8723
▁기각	-8724
▁뉴턴	-8725
▁천하	-8726
▁맏	-8727
바닥	-8728
▁의약품	-8729
rom	-8730
▁코카	-8731
▁광해군	-8732
▁스타리그	-8733
▁럼	-8734
▁믹	-8735
개미	-8736
▁비주	-8737
▁개막전	-8738
▁캔자스	-8739
▁ㅌ	-8740
미사	-8741
▁젊은이	-8742
▁폭넓	-8743
▁체코슬로	-8744
▁체코슬로바키아	-8745
▁말미	-8746
▁숙청	-8747
▁쯔	-8748
▁러셀	-8749
▁예하	-8750
▁중산	-8751
▁쾌속	-8752
▁한족	-8753
▁닦	-8754
▁ㅕㅆ	-8755
▁미세	-8756
▁재혼	-8757
▁학업	-8758
▁벨라루스	-8759
레타	-8760
문트	-8761
▁맥도	-8762
▁발급	-8763
▁종속	-8764
▁황족	-8765
▁알루미늄	-8766
▁Ne	-8767
▁뇌물	-8768
▁첨단	-8769
▁연예인	-8770
▁ㅇㅡㄴㄷㅔ	-8771
▁호출	-8772
▁회관	-8773
▁마운트	-8774
타리	-8775
▁괘	-8776
▁퉁	-8777
쟁이	-8778
▁리뷰	-8779
▁바빌	-8780
▁승자	-8781
▁퇴임	-8782
▁옳	-8783
▁스크립	-8784
▁총사령	-8785
▁밝기	-8786
▁빌라	-8787
▁흘러	-8788
방송공사	-8789
▁ㄷㅓㄴㅣ	-8790
▁로비	-8791
▁오오	-8792
▁스트리	-8793
▁장례식	-8794
먼스	-8795
느러미	-8796
▁터뜨리	-8797
ph	-8798
▁벽돌	-8799
▁요건	-8800
▁III	-8801
▁중공	-8802
▁창출	-8803
▁천재	-8804
▁조지프	-8805
▁종래	-8806
▁척추	-8807
▁천문대	-8808
▁끌어들이	-8809
▁남작	-8810
▁무명	-8811
▁1899	-8812
수록	-8813
우트	-8814
천리	-8815
▁부피	-8816
▁재선	-8817
▁카디	-8818
▁웬	-8819
▁감싸	-8820
▁어른	-8821
▁142	-8822
▁월요일	-8823
▁난징	-8824
▁실망	-8825
TS	-8826
슬러	-8827
▁각도	-8828
▁기차	-8829
▁서신	-8830
▁유라	-8831
▁케빈	-8832
▁넘어서	-8833
▁레슬링	-8834
▁부여받	-8835
▁생체	-8836
▁양반	-8837
▁응시	-8838
▁임원	-8839
▁케임	-8840
▁화력	-8841
▁브리튼	-8842
▁옹립	-8843
▁워너	-8844
▁토끼	-8845
▁토양	-8846
▁세이부	-8847
▁청주시	-8848
테르부르크	-8849
▁콕	-8850
▁배수	-8851
▁두려워하	-8852
진군	-8853
urn	-8854
▁토미	-8855
▁폭포	-8856
▁기술자	-8857
▁어긋나	-8858
화물	-8859
▁예고	-8860
코딩	-8861
▁룩셈	-8862
▁발병	-8863
▁설화	-8864
▁워크	-8865
▁관제	-8866
▁유방	-8867
▁전속	-8868
롤라이나	-8869
▁프로덕션	-8870
▁룩셈부르크	-8871
포로	-8872
▁대치	-8873
▁대패	-8874
▁소생	-8875
▁총칭	-8876
▁축물	-8877
▁마르티	-8878
▁사쿠라	-8879
▁플라스틱	-8880
▁얹	-8881
함수	-8882
▁구경	-8883
▁리프	-8884
▁마력	-8885
▁무함	-8886
▁저주	-8887
셰비키	-8888
▁더글러스	-8889
▁사간	-8890
▁성폭	-8891
▁하얗	-8892
▁학기	-8893
▁뒷받침	-8894
▁타임스	-8895
▁확실히	-8896
▁미들	-8897
▁사본	-8898
▁자크	-8899
▁정려	-8900
▁파산	-8901
ction	-8902
틱스	-8903
▁유진	-8904
▁대서양	-8905
▁스즈키	-8906
▁힌두교	-8907
▁거래소	-8908
▁프란츠	-8909
시즘	-8910
토르	-8911
▁안테	-8912
▁광주광역시	-8913
도스	-8914
럴드	-8915
▁CJ	-8916
▁온타리오	-8917
▁감행	-8918
▁오크	-8919
파이어	-8920
▁ch	-8921
▁시범	-8922
▁부의장	-8923
▁1902	-8924
▁만성	-8925
▁혼동	-8926
▁금요일	-8927
브르	-8928
▁컴백	-8929
▁ID	-8930
▁가야	-8931
▁왼손	-8932
▁중복	-8933
▁지옥	-8934
▁지출	-8935
덩이	-8936
▁거세	-8937
▁보위	-8938
▁화상	-8939
▁플랫폼	-8940
ens	-8941
▁공적	-8942
▁광둥	-8943
▁연산자	-8944
▁등기	-8945
▁잃어버리	-8946
MA	-8947
타주	-8948
▁동네	-8949
▁명종	-8950
▁발기	-8951
pp	-8952
두리	-8953
▁독서	-8954
▁신원	-8955
▁운수	-8956
▁의자	-8957
▁Man	-8958
▁도카이	-8959
▁우체	-8960
▁찌르	-8961
▁화자	-8962
▁대성당	-8963
▁키보드	-8964
▁프톨레	-8965
▁프톨레마이오스	-8966
▁병기	-8967
▁연꽃	-8968
▁지치	-8969
lan	-8970
▁설교	-8971
▁수분	-8972
▁위쪽	-8973
▁그래미	-8974
▁''	-8975
▁니코	-8976
▁채소	-8977
▁피겨	-8978
▁원천	-8979
▁기사단	-8980
▁붙잡히	-8981
▁시코	-8982
▁청산	-8983
▁코시	-8984
▁형조	-8985
치기	-8986
▁물품	-8987
▁피신	-8988
▁지식인	-8989
▁그릇	-8990
▁대손	-8991
▁영등	-8992
▁바깥쪽	-8993
TA	-8994
▁강변	-8995
▁드림	-8996
▁스턴	-8997
▁아리아	-8998
▁사슴	-8999
▁체류	-9000
▁희곡	-9001
▁마녀	-9002
▁시가	-9003
▁원종	-9004
▁지켜	-9005
▁촉매	-9006
▁탄도	-9007
▁포획	-9008
▁감마	-9009
▁페널	-9010
샤바	-9011
lic	-9012
▁개소	-9013
▁게리	-9014
▁국영	-9015
▁비석	-9016
▁표적	-9017
▁서류	-9018
▁하단	-9019
▁고양시	-9020
▁아돌프	-9021
▁벨트	-9022
▁교통국	-9023
▁비행장	-9024
▁끊임없이	-9025
▁BS	-9026
▁버드	-9027
▁선배	-9028
▁외관	-9029
▁정성	-9030
크로	-9031
폴리	-9032
▁갈수록	-9033
▁깃발	-9034
▁영문	-9035
▁참의	-9036
▁흔들리	-9037
▁단절	-9038
▁대합	-9039
▁간선	-9040
▁기니	-9041
▁정적	-9042
▁소나무	-9043
▁밍	-9044
글라	-9045
▁강동	-9046
▁마스크	-9047
▁춥	-9048
▁동행	-9049
▁생생	-9050
▁유체	-9051
▁페르디난	-9052
국사	-9053
▁의의	-9054
▁익스프레스	-9055
TC	-9056
▁김지	-9057
▁습지	-9058
▁토착종	-9059
▁얽	-9060
▁단축	-9061
▁스폰	-9062
▁주조	-9063
▁드러머	-9064
▁가환	-9065
▁동학	-9066
▁응하	-9067
▁해밀턴	-9068
▁매카트니	-9069
카가	-9070
▁김창	-9071
▁울프	-9072
▁혐오	-9073
▁ㅇㅡㄹㅕㄱㅗ	-9074
▁몫	-9075
ary	-9076
▁광명	-9077
▁단의	-9078
▁아산	-9079
▁입성	-9080
▁경성부	-9081
▁부회장	-9082
▁이용자	-9083
▁코끼리	-9084
▁서리	-9085
▁압둘	-9086
▁함정	-9087
▁스위치	-9088
▁제국주의	-9089
▁포켓몬스터	-9090
ㅌㅔ	-9091
▁제네바	-9092
▁코믹스	-9093
▁호르몬	-9094
▁선행	-9095
▁세비	-9096
▁화강	-9097
▁ㅎㅏㄴ	-9098
▁러시아어	-9099
구르	-9100
그룹	-9101
▁브뤼	-9102
▁수확	-9103
▁헌신	-9104
▁사이토	-9105
히토	-9106
▁공리	-9107
▁직결	-9108
▁폭격기	-9109
▁1901	-9110
ach	-9111
▁광대	-9112
▁본문	-9113
▁어류	-9114
▁정동	-9115
▁초신	-9116
▁보이스	-9117
▁간토	-9118
▁나노	-9119
▁아이오	-9120
▁여운	-9121
▁이단	-9122
속기	-9123
테인	-9124
▁ㅈㅛ	-9125
▁고아	-9126
▁복용	-9127
out	-9128
▁생략	-9129
▁소시	-9130
▁열도	-9131
▁축조	-9132
▁색채	-9133
▁약자	-9134
ert	-9135
▁쓰촨	-9136
▁알렉산드르	-9137
▁No	-9138
▁부가	-9139
▁일산	-9140
▁임관	-9141
▁퀘벡	-9142
▁울산광역시	-9143
▁입국	-9144
▁서유럽	-9145
짓점	-9146
피어	-9147
▁논하	-9148
▁면제	-9149
▁민감	-9150
▁보트	-9151
▁역량	-9152
▁염증	-9153
▁다항식	-9154
▁부작용	-9155
▁ㅎㅏㄴㅌㅔ	-9156
모스	-9157
▁코코	-9158
▁꼭짓점	-9159
미트	-9160
▁조립	-9161
▁하치	-9162
디나	-9163
▁권총	-9164
▁매수	-9165
▁수축	-9166
▁체르	-9167
▁현은	-9168
▁연기자	-9169
▁바이킹	-9170
▁삿포로	-9171
▁렘	-9172
▁갱신	-9173
▁경과	-9174
▁무궁	-9175
▁자작	-9176
▁영국인	-9177
▁점성술	-9178
▁쿄	-9179
▁성지	-9180
▁손꼽	-9181
▁정문	-9182
▁체중	-9183
▁커스	-9184
▁아시카가	-9185
자르	-9186
▁기숙	-9187
▁드라	-9188
▁표방	-9189
루아	-9190
타임	-9191
▁서문	-9192
▁카미	-9193
LE	-9194
▁보복	-9195
▁주되	-9196
▁치아	-9197
▁갈릴	-9198
▁이현	-9199
▁사회당	-9200
IG	-9201
링턴	-9202
▁MB	-9203
▁엔딩	-9204
▁크롬	-9205
▁간단히	-9206
ys	-9207
▁고산	-9208
▁실버	-9209
▁입각	-9210
▁정립	-9211
▁그다지	-9212
LS	-9213
▁전방	-9214
▁페니	-9215
▁검열	-9216
▁동조	-9217
▁특권	-9218
▁134	-9219
▁염색체	-9220
▁케임브리지	-9221
▁누적	-9222
▁토기	-9223
일으키	-9224
▁불러일으키	-9225
▁례	-9226
▁버티	-9227
▁아라비아	-9228
▁}	-9229
▁두께	-9230
▁조수	-9231
레슬링	-9232
▁광저우	-9233
▁푸에르	-9234
▁대구광역시	-9235
로우	-9236
▁호모	-9237
노미야	-9238
▁요르단	-9239
ug	-9240
▁썰	-9241
▁스님	-9242
▁차르	-9243
▁장기간	-9244
▁크레이	-9245
▁옥스퍼드	-9246
그라	-9247
내리	-9248
▁김제	-9249
▁분수	-9250
▁원료	-9251
베트남	-9252
▁파이터	-9253
▁가역	-9254
▁보헤	-9255
▁상금	-9256
▁학대	-9257
▁트리플	-9258
▁무함마드	-9259
▁캐서	-9260
▁태그	-9261
▁KIA	-9262
펜하	-9263
▁독성	-9264
▁사업가	-9265
나우	-9266
▁남매	-9267
▁THE	-9268
▁모서리	-9269
ase	-9270
▁대두	-9271
▁마우	-9272
▁미륵	-9273
▁박지	-9274
▁연봉	-9275
카미	-9276
▁시리	-9277
▁오쿠	-9278
사리	-9279
▁원본	-9280
▁카프	-9281
▁All	-9282
▁갈리아	-9283
▁미시시피	-9284
기스	-9285
▁삼촌	-9286
▁직경	-9287
▁토요	-9288
▁쓰레기	-9289
▁지켜보	-9290
▁1903	-9291
▁프로레슬링	-9292
정리	-9293
▁레즈	-9294
▁불꽃	-9295
▁섹스	-9296
▁1884	-9297
▁Gr	-9298
▁ㅅㅑ	-9299
▁공예	-9300
▁노보	-9301
▁다마	-9302
▁소말	-9303
▁아브	-9304
▁만주국	-9305
▁신도비	-9306
대장	-9307
▁불신	-9308
▁개인전	-9309
▁홈구장	-9310
▁쟈	-9311
퀘어	-9312
▁공고	-9313
▁극대	-9314
▁산출	-9315
▁좌측	-9316
테르담	-9317
▁One	-9318
▁언어학	-9319
▁아인슈타인	-9320
▁이병	-9321
▁퇴역	-9322
▁관광지	-9323
▁이성계	-9324
▁교대	-9325
▁구형	-9326
▁라그	-9327
▁선동	-9328
▁쥐과	-9329
▁패널	-9330
▁하리	-9331
▁훔치	-9332
처스	-9333
▁강간	-9334
▁트로피	-9335
▁표기법	-9336
▁아리스토	-9337
▁EX	-9338
▁중령	-9339
ke	-9340
카타	-9341
▁로저	-9342
▁이관	-9343
▁하비	-9344
▁쓰시마	-9345
▁전염병	-9346
▁알렉산드리아	-9347
아웃	-9348
▁AN	-9349
▁개화	-9350
▁군산	-9351
▁슈팅	-9352
▁질소	-9353
▁니콜라이	-9354
▁루타	-9355
▁에콰	-9356
▁노태우	-9357
▁에콰도르	-9358
▁메커	-9359
▁타케	-9360
▁회상	-9361
▁도널드	-9362
▁날카	-9363
▁어둠	-9364
▁패밀리	-9365
▁야마구치	-9366
▁정선	-9367
ㅡㄹㅏ	-9368
▁날카롭	-9369
▁피고인	-9370
텍처	-9371
▁Cl	-9372
▁공명	-9373
▁퇴적	-9374
▁아키텍처	-9375
▁릿	-9376
▁아폴로	-9377
▁클라이	-9378
▁뛰어	-9379
▁비타	-9380
▁스텔	-9381
▁히타	-9382
▁구스	-9383
▁꼭대기	-9384
▁당연히	-9385
▁도요토미	-9386
▁어뢰	-9387
▁헌정	-9388
▁조반니	-9389
▁프란체	-9390
▁발렌시아	-9391
▁대문	-9392
▁우치	-9393
▁드레스	-9394
▁충청도	-9395
푸르	-9396
▁검출	-9397
▁뮤지션	-9398
▁제로	-9399
▁복합체	-9400
▁깨지	-9401
▁페널티	-9402
▁1800	-9403
▁LA	-9404
▁공황	-9405
▁마키	-9406
▁실재	-9407
올로	-9408
▁비뉴	-9409
▁마르틴	-9410
▁지도부	-9411
방울	-9412
▁군함	-9413
▁어찌	-9414
▁정유	-9415
▁조형	-9416
▁함선	-9417
▁콤팩트	-9418
리코	-9419
▁달걀	-9420
▁실무	-9421
▁철폐	-9422
▁삼국지	-9423
라이언트	-9424
그레	-9425
▁뒤쪽	-9426
▁원더	-9427
라이어	-9428
▁마르코	-9429
▁히로시	-9430
ree	-9431
▁해남	-9432
▁소방서	-9433
▁곡물	-9434
▁기분	-9435
▁농부	-9436
▁당수	-9437
▁의결	-9438
▁이태	-9439
▁장벽	-9440
▁터보	-9441
▁흥선	-9442
테이션	-9443
▁방글라	-9444
▁슬라브	-9445
▁프레드	-9446
▁방글라데시	-9447
▁클라이언트	-9448
▁반공	-9449
▁발칸	-9450
▁전위	-9451
▁기념관	-9452
▁가오	-9453
▁토시	-9454
사이드	-9455
▁강대	-9456
▁까닭	-9457
▁도선	-9458
▁선우	-9459
▁인질	-9460
니시	-9461
▁경작	-9462
▁내걸	-9463
▁염소	-9464
▁유부	-9465
▁소행성	-9466
나미	-9467
▁강희	-9468
▁우회	-9469
▁카사	-9470
▁기념비	-9471
▁더욱이	-9472
▁카를로	-9473
간지	-9474
▁건륭	-9475
▁김홍	-9476
▁단면	-9477
▁묶이	-9478
▁밀란	-9479
▁분출	-9480
▁상가	-9481
▁하차	-9482
가와현	-9483
▁방사성	-9484
▁일렉트로	-9485
▁북아프리카	-9486
▁경인	-9487
가르	-9488
▁자형	-9489
▁코믹	-9490
▁팟	-9491
▁물가	-9492
▁상경	-9493
▁전복	-9494
▁복소수	-9495
불교	-9496
▁로라	-9497
▁분량	-9498
▁에밀	-9499
▁우물	-9500
▁전구	-9501
▁활주	-9502
네마	-9503
아들	-9504
▁IN	-9505
▁남동생	-9506
▁with	-9507
▁팰	-9508
산맥	-9509
▁기슭	-9510
▁진전	-9511
▁리더십	-9512
▁소수자	-9513
▁가브리	-9514
하키	-9515
▁권장	-9516
▁모모	-9517
▁발령	-9518
▁상응	-9519
▁현감	-9520
▁뉴욕주	-9521
▁다케다	-9522
▁스토어	-9523
▁그레이트	-9524
▁총대주교	-9525
개골	-9526
▁가산	-9527
▁파병	-9528
▁기관총	-9529
▁모리스	-9530
▁메커니즘	-9531
▁오사카부	-9532
▁궁중	-9533
▁상트	-9534
▁세바	-9535
▁수목	-9536
▁회피	-9537
▁아미노산	-9538
act	-9539
▁감안	-9540
▁냄새	-9541
▁중앙아시아	-9542
▁러스	-9543
▁브란	-9544
▁취항	-9545
▁220	-9546
구역	-9547
리언	-9548
번뇌	-9549
ass	-9550
▁미라	-9551
▁116	-9552
▁견인	-9553
▁막스	-9554
▁세키	-9555
▁용서	-9556
▁창녕	-9557
▁에디션	-9558
▁Ad	-9559
▁관절	-9560
▁대출	-9561
▁후작	-9562
▁거짓말	-9563
▁교도소	-9564
▁아나키	-9565
11	-9566
▁Br	-9567
▁교량	-9568
▁등용	-9569
▁이북	-9570
▁준주	-9571
▁민간인	-9572
▁전시회	-9573
곡동	-9574
▁소자	-9575
▁안경	-9576
사우	-9577
▁CN	-9578
▁신축	-9579
▁정화	-9580
▁추첨	-9581
▁거주지	-9582
▁각색	-9583
▁기저	-9584
▁맞붙	-9585
▁평창	-9586
▁와일드	-9587
▁포스터	-9588
▁반군	-9589
▁ㅇㅡㄹㄲㅏ	-9590
▁한국방송공사	-9591
사업	-9592
▁돌기	-9593
▁보성	-9594
▁되돌리	-9595
▁캐서린	-9596
▁1897	-9597
▁볼리비아	-9598
▁가계	-9599
▁장자	-9600
▁티코	-9601
▁컨트리	-9602
▁페이스북	-9603
pt	-9604
▁가열	-9605
▁낙동	-9606
▁상법	-9607
▁시야	-9608
▁취미	-9609
▁효고	-9610
▁간신	-9611
▁샌드	-9612
▁요약	-9613
▁마카오	-9614
▁스트라이크	-9615
▁무슨	-9616
▁강남구	-9617
▁방송인	-9618
▁버클리	-9619
▁일자리	-9620
역학	-9621
쿠버	-9622
▁갈래	-9623
▁델타	-9624
▁안산	-9625
▁절단	-9626
▁침체	-9627
▁태백	-9628
▁폭로	-9629
ream	-9630
▁일부분	-9631
▁카스티	-9632
▁일파	-9633
▁한층	-9634
▁교육청	-9635
▁데스크	-9636
▁1860	-9637
▁홉	-9638
▁반전	-9639
▁상고	-9640
▁아소	-9641
▁효종	-9642
벤처	-9643
▁깨끗	-9644
▁델라	-9645
▁올드	-9646
▁어드벤처	-9647
▁꿀	-9648
▁르노	-9649
▁오로	-9650
▁배우자	-9651
▁GO	-9652
▁마블	-9653
▁데카	-9654
▁마니	-9655
▁사살	-9656
▁연대기	-9657
파리	-9658
▁나루	-9659
▁리조	-9660
▁음향	-9661
▁확진	-9662
▁득표율	-9663
▁이주하	-9664
▁장제	-9665
▁휴가	-9666
기념물	-9667
▁가의	-9668
▁수료	-9669
▁알프레	-9670
▁고이	-9671
▁타우	-9672
▁쓸	-9673
▁Is	-9674
▁구약	-9675
▁마가	-9676
▁홍문관	-9677
▁Ex	-9678
▁네오	-9679
▁전산	-9680
▁접수	-9681
▁ㄴㅈㅣ	-9682
▁엇	-9683
▁대관	-9684
▁저렴	-9685
▁추론	-9686
▁스크립트	-9687
▁;&	-9688
▁공손	-9689
▁민정	-9690
▁심화	-9691
▁청색	-9692
▁카즈	-9693
▁카타르	-9694
▁샌디	-9695
▁체력	-9696
▁쿠니	-9697
캐롤라이나	-9698
▁앰	-9699
▁농사	-9700
▁리히	-9701
▁북경	-9702
▁안치	-9703
▁사카이	-9704
▁경제학자	-9705
▁석불	-9706
스카르	-9707
▁122	-9708
츠크	-9709
▁가신	-9710
▁중공업	-9711
▁글래	-9712
▁미네소	-9713
▁바르샤바	-9714
▁이반	-9715
▁쥐속	-9716
▁타지	-9717
▁모티브	-9718
반구	-9719
▁적군	-9720
▁떡	-9721
산성	-9722
▁안드레아	-9723
▁이빨	-9724
▁유닉스	-9725
도비	-9726
퍼슨	-9727
포터	-9728
▁소행	-9729
▁중원	-9730
▁2022	-9731
▁마애	-9732
▁수중	-9733
▁입주	-9734
▁전격	-9735
▁집결	-9736
▁스퀘어	-9737
▁후반기	-9738
▁동형	-9739
▁막시	-9740
▁석회	-9741
▁게릴라	-9742
▁아마존	-9743
▁죠	-9744
▁살피	-9745
▁타협	-9746
▁클라크	-9747
▁버마	-9748
▁종파	-9749
▁화순	-9750
▁갑옷	-9751
▁윤보	-9752
▁짐작	-9753
▁치우	-9754
▁합당	-9755
콥터	-9756
▁고토	-9757
▁브룩	-9758
▁솔루션	-9759
▁인테르	-9760
▁지지율	-9761
푸아	-9762
▁모용	-9763
▁특색	-9764
▁상트페	-9765
▁상트페테르부르크	-9766
ii	-9767
▁돌입	-9768
▁보강	-9769
▁신정	-9770
▁찰리	-9771
▁흥선대원군	-9772
▁무술	-9773
▁사적	-9774
▁창의	-9775
▁con	-9776
▁설립자	-9777
▁군청	-9778
▁메릴	-9779
▁세네	-9780
▁신동	-9781
▁종점	-9782
▁청소	-9783
▁공용어	-9784
▁1880	-9785
거진	-9786
▁애리	-9787
▁호쿠	-9788
▁NGC	-9789
▁급수	-9790
▁리만	-9791
▁갤러리	-9792
▁두개골	-9793
▁그리스인	-9794
▁눕	-9795
▁BM	-9796
▁강철	-9797
▁격차	-9798
▁과실	-9799
▁무로	-9800
▁정경	-9801
▁옥수수	-9802
▁유대교	-9803
▁감추	-9804
▁메라	-9805
▁용암	-9806
▁마라톤	-9807
▁새로이	-9808
네시	-9809
▁빈도	-9810
▁유정	-9811
▁쳐들	-9812
▁호응	-9813
▁손꼽히	-9814
▁진행자	-9815
▁셜	-9816
▁마당	-9817
▁어로	-9818
▁예명	-9819
▁장원	-9820
▁나란히	-9821
▁제작사	-9822
▁엮	-9823
▁공약	-9824
▁벽화	-9825
▁제리	-9826
▁콘테	-9827
▁함양	-9828
▁133	-9829
▁키예프	-9830
▁돌아다니	-9831
▁함부르크	-9832
▁그레고리오	-9833
▁실적	-9834
리즘	-9835
iss	-9836
▁루크	-9837
▁복권	-9838
▁이장	-9839
▁종말	-9840
▁처지	-9841
▁극작가	-9842
▁천연기념물	-9843
▁가네	-9844
▁노이	-9845
▁스노	-9846
▁추리	-9847
▁괴롭히	-9848
▁기성	-9849
▁번성	-9850
▁이언	-9851
▁입양	-9852
▁자결	-9853
▁붙여지	-9854
▁뻔	-9855
니지	-9856
타케	-9857
ake	-9858
▁ㄷㅔ	-9859
▁소령	-9860
▁일괄	-9861
▁프렌	-9862
▁확고	-9863
▁파라과이	-9864
기구	-9865
▁제왕	-9866
▁팔레	-9867
own	-9868
▁등극	-9869
▁선장	-9870
몰로지	-9871
▁디트로	-9872
▁디트로이트	-9873
▁가가	-9874
▁블리	-9875
▁왕정	-9876
▁출석	-9877
자치시	-9878
▁그림자	-9879
▁이동하	-9880
사관학교	-9881
▁특별자치시	-9882
▁연동	-9883
▁연못	-9884
▁그렇지만	-9885
케이	-9886
▁사쿠	-9887
▁준결승전	-9888
▁ᆫㄷㅏㅁㅕ	-9889
▁수녀	-9890
어뜨리	-9891
▁Mus	-9892
▁극도	-9893
▁몽고	-9894
▁심야	-9895
▁이규	-9896
▁교육부	-9897
▁법정동	-9898
▁일러스트	-9899
▁오지	-9900
▁유령	-9901
▁랍	-9902
▁진료	-9903
▁경쟁력	-9904
▁무궁화	-9905
▁오락	-9906
▁즐겁	-9907
▁추종	-9908
▁평민	-9909
▁CBS	-9910
▁포도당	-9911
▁조계	-9912
▁펜싱	-9913
▁랴	-9914
▁농어	-9915
▁장흥	-9916
▁헬륨	-9917
▁미생물	-9918
▁고추	-9919
▁열심	-9920
▁CEO	-9921
▁GDP	-9922
▁아래쪽	-9923
▁그레고리	-9924
▁애틀랜타	-9925
▁파우	-9926
▁위나라	-9927
▁사무총장	-9928
▁국유	-9929
▁명분	-9930
▁무스	-9931
▁자생	-9932
▁자카	-9933
▁엘리트	-9934
▁낚	-9935
▁ES	-9936
▁스로	-9937
▁우상	-9938
▁겉보기	-9939
clude	-9940
▁싣	-9941
▁개항	-9942
▁도사	-9943
▁문경	-9944
▁아치	-9945
▁위생	-9946
▁앨리스	-9947
▁미셸	-9948
▁숙주	-9949
▁탁월	-9950
▁132	-9951
▁지방산	-9952
미스	-9953
▁수년	-9954
▁프랭클린	-9955
그래	-9956
타마	-9957
해지	-9958
▁니카	-9959
▁이득	-9960
▁칼뱅	-9961
▁주지	-9962
▁지청	-9963
▁스리랑카	-9964
▁스트라이커	-9965
HO	-9966
림픽	-9967
원장	-9968
old	-9969
▁결핍	-9970
▁듀얼	-9971
▁수심	-9972
▁진수	-9973
UR	-9974
▁유스	-9975
▁이데	-9976
▁정인	-9977
▁총무	-9978
▁대성전	-9979
멘스	-9980
▁더비	-9981
▁반역	-9982
Hz	-9983
▁툰	-9984
세기	-9985
▁재난	-9986
▁프롤	-9987
▁동성애자	-9988
▁섀	-9989
▁감동	-9990
▁까지	-9991
▁아데	-9992
▁앞장	-9993
▁글로브	-9994
▁인프라	-9995
▁시뮬레이션	-9996
에미	-9997
헌영	-9998
▁듀오	-9999
▁리모	-10000
▁++	-10001
▁광양	-10002
▁동요	-10003
▁애칭	-10004
▁삼국사기	-10005
위성	-10006
▁빈번	-10007
▁상연	-10008
▁정관	-10009
ㄴㅣㄲㅏ	-10010
▁인디애나	-10011
스기	-10012
▁대지진	-10013
▁결제	-10014
▁김민	-10015
미즈	-10016
▁NE	-10017
▁ㄹㅑ	-10018
▁꿈꾸	-10019
▁원격	-10020
▁초원	-10021
▁온갖	-10022
▁워치	-10023
바야시	-10024
▁마다가	-10025
ork	-10026
▁주화	-10027
▁해치	-10028
버러	-10029
▁격자	-10030
▁속편	-10031
▁조병	-10032
▁파이프	-10033
▁극락	-10034
▁베른	-10035
▁속이	-10036
▁무조건	-10037
ix	-10038
▁동참	-10039
▁시종	-10040
▁타석	-10041
▁마우스	-10042
거래	-10043
렉션	-10044
▁브랜	-10045
▁현직	-10046
▁호족	-10047
▁기상청	-10048
▁미주리	-10049
▁쾰	-10050
벨라	-10051
파크	-10052
▁강풍	-10053
▁복음서	-10054
▁요제프	-10055
GA	-10056
메다	-10057
▁or	-10058
▁재해	-10059
ㅇㅗ	-10060
▁현행	-10061
ence	-10062
▁국수	-10063
▁대사헌	-10064
▁패럴림픽	-10065
▁막히	-10066
▁상기	-10067
▁속주	-10068
▁pro	-10069
해튼	-10070
▁대국	-10071
▁현황	-10072
▁농산물	-10073
▁자세히	-10074
▁보헤미아	-10075
()	-10076
lo	-10077
천사	-10078
▁가타	-10079
▁김옥	-10080
▁신상	-10081
▁암흑	-10082
▁호리	-10083
▁저널리	-10084
▁대각	-10085
▁두렵	-10086
▁발각	-10087
▁요법	-10088
위원회	-10089
▁ㅎㅏㄱㅗ	-10090
러피	-10091
▁Ro	-10092
▁단과	-10093
▁청자	-10094
▁우체국	-10095
▁평안남도	-10096
▁kt	-10097
▁맹세	-10098
▁빠져	-10099
▁숨지	-10100
▁통틀어	-10101
루냐	-10102
ick	-10103
▁라오	-10104
▁피로	-10105
▁볼셰비키	-10106
▁무르	-10107
▁불행	-10108
▁투항	-10109
▁파문	-10110
마리	-10111
변이	-10112
▁후속작	-10113
▁돌연변이	-10114
▁합스부르크	-10115
▁슛	-10116
CAF	-10117
▁La	-10118
▁총기	-10119
▁호의	-10120
▁활주로	-10121
를테	-10122
▁PR	-10123
▁낙하	-10124
▁페로	-10125
▁황도	-10126
를테면	-10127
▁1870	-10128
▁이를테면	-10129
▁감금	-10130
▁공파	-10131
▁세손	-10132
▁해부	-10133
▁뾰	-10134
▁재질	-10135
▁초고	-10136
▁헛	-10137
▁공표	-10138
▁밀러	-10139
▁아빠	-10140
▁의과	-10141
▁장대	-10142
브리아	-10143
▁Mar	-10144
▁단행본	-10145
▁매거진	-10146
▁평안북도	-10147
▁숀	-10148
라기	-10149
▁서장	-10150
▁소울	-10151
▁표창	-10152
▁중앙부	-10153
▁창시자	-10154
삭스	-10155
홀름	-10156
▁관동	-10157
▁만년	-10158
▁생계	-10159
▁왜구	-10160
▁저격	-10161
▁모터스	-10162
▁트리니	-10163
▁우아	-10164
▁정국	-10165
▁To	-10166
▁시국	-10167
▁제너	-10168
▁타이베이	-10169
▁댓	-10170
▁DM	-10171
▁말년	-10172
▁매끄럽	-10173
▁소피아	-10174
플로	-10175
할시	-10176
▁루비	-10177
▁머스	-10178
▁양육	-10179
ance	-10180
▁450	-10181
▁NAS	-10182
▁따라가	-10183
공산	-10184
▁김병	-10185
▁복식	-10186
▁아쿠	-10187
▁청동기	-10188
▁1885	-10189
▁프랜시스	-10190
EM	-10191
▁엥	-10192
▁돌출	-10193
▁맞대	-10194
▁비늘	-10195
▁이븐	-10196
▁입수	-10197
▁대장군	-10198
▁애리조	-10199
▁국악	-10200
▁로페	-10201
▁배속	-10202
▁기병대	-10203
▁아스널	-10204
▁오로지	-10205
▁우즈베키스탄	-10206
▁른	-10207
▁Ph	-10208
▁포고	-10209
▁USS	-10210
▁1871	-10211
▁짱	-10212
▁리터	-10213
▁세븐	-10214
▁앞쪽	-10215
▁카바	-10216
▁비주얼	-10217
ection	-10218
▁아이스하키	-10219
십자	-10220
▁성령	-10221
▁수염	-10222
▁틀리	-10223
▁다람쥐	-10224
▁활발히	-10225
▁알래스카	-10226
티시	-10227
ear	-10228
▁un	-10229
▁난이	-10230
▁신종	-10231
타이드	-10232
테리아	-10233
▁로렌스	-10234
▁전날	-10235
▁앤더슨	-10236
▁1600	-10237
▁마르크스주의	-10238
제이	-10239
▁이모	-10240
▁중생	-10241
▁휩쓸	-10242
▁양성자	-10243
▁프레이	-10244
▁쿡	-10245
▁참사	-10246
▁맷	-10247
▁감수	-10248
lass	-10249
▁내면	-10250
▁휴게	-10251
러피언	-10252
▁내무부	-10253
▁편집자	-10254
▁only	-10255
▁오클랜드	-10256
▁벤치	-10257
▁차리	-10258
▁카터	-10259
▁경질	-10260
▁로리	-10261
▁요지	-10262
▁원심	-10263
▁중상	-10264
▁흉노	-10265
▁빅토르	-10266
틀리	-10267
ild	-10268
▁내성	-10269
▁매직	-10270
▁위스	-10271
▁이양	-10272
▁센고쿠	-10273
▁수원시	-10274
▁유러피언	-10275
▁부조	-10276
▁시애	-10277
▁박헌영	-10278
▁1200	-10279
쩌둥	-10280
irl	-10281
▁테일	-10282
▁퇴장	-10283
▁끌려가	-10284
▁파나마	-10285
▁마오쩌둥	-10286
▁능선	-10287
▁오라	-10288
▁유료	-10289
▁자칭	-10290
▁청룡	-10291
테쓰	-10292
▁역도	-10293
▁화랑	-10294
▁마닐라	-10295
▁케이프	-10296
돌리	-10297
▁GN	-10298
▁관행	-10299
▁봉수	-10300
▁중서	-10301
▁지성	-10302
▁콜레	-10303
▁해저	-10304
▁루카	-10305
▁반성	-10306
▁볼프	-10307
▁장단	-10308
▁탑신	-10309
▁예정자	-10310
▁잡아먹	-10311
▁조광	-10312
어오	-10313
▁수인	-10314
▁친분	-10315
▁240	-10316
▁윤보선	-10317
▁마다가스카르	-10318
▁즘	-10319
▁민요	-10320
▁바디	-10321
▁케라	-10322
▁반란군	-10323
체고	-10324
파이	-10325
▁리바	-10326
▁재외	-10327
▁카니	-10328
▁티켓	-10329
▁김정은	-10330
체고비나	-10331
▁SL	-10332
▁구니	-10333
▁출가	-10334
▁김규식	-10335
▁불태우	-10336
▁교실	-10337
▁스태	-10338
▁플랜	-10339
▁다나카	-10340
▁부원군	-10341
▁시애틀	-10342
▁오른손	-10343
▁이방	-10344
▁증인	-10345
▁실험실	-10346
올라	-10347
▁국당	-10348
▁빨갛	-10349
▁성실	-10350
▁구마모토	-10351
관리	-10352
맥스	-10353
▁vs	-10354
▁조례	-10355
▁초빙	-10356
▁앤드루	-10357
▁프로리그	-10358
▁콘스탄티노폴리스	-10359
▁당내	-10360
▁생선	-10361
▁맨해튼	-10362
▁알렉스	-10363
▁역사가	-10364
▁해리슨	-10365
▁ㄹㅕㄷㅓㄴ	-10366
▁수교	-10367
텔레스	-10368
▁프라하	-10369
▁AD	-10370
▁정제	-10371
▁제동	-10372
▁파인	-10373
OV	-10374
▁서산	-10375
▁지쿠	-10376
▁통역	-10377
▁제조업	-10378
메스	-10379
▁관문	-10380
▁리비	-10381
▁이완	-10382
▁징병	-10383
천면	-10384
▁궁궐	-10385
▁무척	-10386
▁상급	-10387
▁송도	-10388
▁재활	-10389
▁동물원	-10390
▁미군정	-10391
▁헬리콥터	-10392
코토	-10393
▁Sy	-10394
▁개헌	-10395
▁경시	-10396
▁섬세	-10397
▁루돌프	-10398
▁왕세자	-10399
ans	-10400
▁경희	-10401
▁몸통	-10402
▁부각	-10403
▁함자	-10404
ivers	-10405
▁ㄴㅑㄴㅡㄴ	-10406
▁괄	-10407
지로	-10408
▁국보	-10409
▁남용	-10410
▁오미	-10411
▁허드	-10412
▁공민왕	-10413
▁고쿠	-10414
▁겁	-10415
ype	-10416
▁CM	-10417
▁남산	-10418
▁뾰족	-10419
▁창문	-10420
▁호크	-10421
▁대대로	-10422
▁동대문	-10423
▁성남시	-10424
▁신문사	-10425
▁하노이	-10426
▁아리스토텔레스	-10427
무소	-10428
▁이룩	-10429
▁커플	-10430
▁EBS	-10431
▁제퍼슨	-10432
사상	-10433
▁구청	-10434
▁분과	-10435
▁차용	-10436
▁한하	-10437
▁아무것	-10438
▁줄거리	-10439
▁개개	-10440
▁총통	-10441
include	-10442
▁얕	-10443
▁남해	-10444
▁뉴클	-10445
▁드미	-10446
▁바트	-10447
▁위너스	-10448
▁클레이	-10449
▁클린턴	-10450
▁경영자	-10451
▁리조트	-10452
▁러시아인	-10453
▁ㅌㅣ	-10454
▁각성	-10455
▁농경	-10456
▁에프	-10457
▁동유럽	-10458
▁사각형	-10459
▁서재필	-10460
어사	-10461
ish	-10462
▁배려	-10463
▁총애	-10464
▁카지	-10465
▁칼럼	-10466
▁화기	-10467
▁레이크	-10468
▁솔로몬	-10469
▁퍼스트	-10470
▁김원	-10471
▁통용	-10472
▁가늘	-10473
▁시합	-10474
▁하반	-10475
▁크라이	-10476
▁안녕	-10477
▁주임	-10478
▁퍼스	-10479
▁MTV	-10480
▁":	-10481
▁산호	-10482
▁시노	-10483
▁학설	-10484
▁선거법	-10485
▁나우	-10486
▁수필	-10487
▁약혼	-10488
▁하키	-10489
▁화엄	-10490
라니	-10491
▁나선	-10492
▁씨앗	-10493
▁포착	-10494
▁효자	-10495
▁자치체	-10496
▁해리스	-10497
GM	-10498
▁지오	-10499
▁대합실	-10500
▁브루스	-10501
▁브레이크	-10502
oun	-10503
▁NT	-10504
▁독창	-10505
▁보로	-10506
▁스가	-10507
▁주입	-10508
▁케플러	-10509
▁관청	-10510
▁광도	-10511
▁모의	-10512
▁실존	-10513
▁천왕	-10514
▁퍼포	-10515
▁허정	-10516
▁올림피아	-10517
에스	-10518
▁시부	-10519
▁하류	-10520
▁함경남도	-10521
▁ㄴㅡㄴㄷㅏㅁㅕㄴ	-10522
▁모호	-10523
▁진해	-10524
▁아키라	-10525
▁퍼포먼스	-10526
▁@	-10527
원수	-10528
▁독도	-10529
▁성화	-10530
▁수양	-10531
▁전래	-10532
▁차갑	-10533
▁칙령	-10534
▁예선전	-10535
RA	-10536
▁유혹	-10537
▁일당	-10538
▁ㄹㅣㄹㅏ	-10539
▁Jo	-10540
▁ex	-10541
▁들여	-10542
▁메뉴	-10543
▁자제	-10544
▁파도	-10545
▁스테파	-10546
▁요시다	-10547
▁유치원	-10548
▁총사령관	-10549
OD	-10550
fe	-10551
토랑	-10552
▁보라	-10553
▁분류군	-10554
▁레스토랑	-10555
▁경호	-10556
▁지로	-10557
▁케인	-10558
▁테라	-10559
▁검정	-10560
▁로버	-10561
▁반기	-10562
▁내야수	-10563
▁데려오	-10564
▁멍	-10565
정원	-10566
▁극한	-10567
▁메카	-10568
▁트릭	-10569
▁평형	-10570
▁긴테쓰	-10571
▁비밀리	-10572
ey	-10573
통일	-10574
▁다테	-10575
▁마차	-10576
▁분파	-10577
▁카테	-10578
▁호스	-10579
▁예수회	-10580
▁유권자	-10581
▁sc	-10582
▁만장	-10583
▁욕망	-10584
▁네이션스컵	-10585
▁문고	-10586
▁보행	-10587
▁신발	-10588
▁전무	-10589
▁제물	-10590
히트	-10591
▁리보	-10592
▁찬사	-10593
▁테리	-10594
▁아키타	-10595
▁어군	-10596
▁메이커	-10597
▁뉴클레오	-10598
▁스톡홀름	-10599
바흐	-10600
신문	-10601
창호	-10602
▁블로	-10603
▁실정	-10604
ical	-10605
▁비타민	-10606
▁알프스	-10607
등식	-10608
▁카피	-10609
▁뛰어들	-10610
▁컴퓨팅	-10611
환경	-10612
▁마술	-10613
▁원통	-10614
▁서대문	-10615
▁시중	-10616
▁캐롤	-10617
▁벅	-10618
lat	-10619
▁포식	-10620
▁김유	-10621
▁소음	-10622
▁타스	-10623
▁보수당	-10624
▁자치주	-10625
▁플라톤	-10626
러브	-10627
▁드루	-10628
▁박종	-10629
▁엄밀	-10630
▁이점	-10631
▁절망	-10632
▁다저스	-10633
▁오리온	-10634
TP	-10635
▁도교	-10636
▁스폰서	-10637
▁친위대	-10638
EG	-10639
▁넷째	-10640
▁도둑	-10641
▁마셜	-10642
▁묘비	-10643
▁방콕	-10644
▁블레	-10645
▁수복	-10646
▁프론	-10647
▁유아기	-10648
▁와이번스	-10649
암동	-10650
▁강령	-10651
▁리베	-10652
▁바이트	-10653
▁방어선	-10654
▁프린스	-10655
▁ㅇㅏㅇㅛ	-10656
▁모어	-10657
▁색소	-10658
▁ABC	-10659
▁마천루	-10660
메드	-10661
▁고든	-10662
▁본성	-10663
▁북아일랜드	-10664
▁천국	-10665
▁치과	-10666
▁파손	-10667
▁홀리	-10668
▁황소	-10669
▁ATP	-10670
▁멧	-10671
▁CH	-10672
▁DD	-10673
▁나인	-10674
▁럭비	-10675
▁불변	-10676
▁웨인	-10677
▁장시	-10678
▁전담	-10679
▁로드리	-10680
▁투자자	-10681
▁천거	-10682
▁헬싱	-10683
▁나트륨	-10684
▁대원군	-10685
▁정의당	-10686
▁AV	-10687
▁구내	-10688
▁구실	-10689
▁노론	-10690
▁동로	-10691
▁추이	-10692
▁톈진	-10693
▁폭파	-10694
▁피라미	-10695
▁피아니스트	-10696
▁샐	-10697
▁마켓	-10698
▁무실	-10699
▁상행	-10700
▁실권	-10701
▁야드	-10702
▁포토	-10703
▁개구리	-10704
덴부르크	-10705
▁벤처	-10706
▁시몬	-10707
▁연산군	-10708
매매	-10709
▁침묵	-10710
▁210	-10711
▁마누엘	-10712
▁연극배우	-10713
▁당연	-10714
▁대본	-10715
▁리사	-10716
▁소극	-10717
▁정거	-10718
▁ㄹㅏㅅㅓ	-10719
▁Fr	-10720
▁삼존	-10721
▁선천	-10722
▁영유	-10723
▁쾰른	-10724
▁정부군	-10725
▁튀르크	-10726
▁콘테스트	-10727
▁국공	-10728
▁슬하	-10729
▁제노	-10730
▁찬양	-10731
▁퇴직	-10732
▁화약	-10733
▁용인시	-10734
▁화강암	-10735
▁헤르체고비나	-10736
군다	-10737
are	-10738
▁스텝	-10739
▁적외선	-10740
▁토스카	-10741
▁가브리엘	-10742
놀이	-10743
대교	-10744
부르	-10745
▁pr	-10746
▁소중	-10747
▁야전	-10748
▁약사	-10749
▁왕권	-10750
▁특전	-10751
▁앞장서	-10752
▁책임지	-10753
▁프레데	-10754
FL	-10755
티넘	-10756
▁로우	-10757
▁릴리	-10758
▁백두	-10759
▁스칸	-10760
▁선구자	-10761
▁알파벳	-10762
▁주차장	-10763
▁플래티넘	-10764
ica	-10765
▁결별	-10766
▁마에	-10767
▁아나톨	-10768
EL	-10769
▁Ma	-10770
▁본작	-10771
▁사방	-10772
▁여유	-10773
▁중퇴	-10774
▁목요일	-10775
▁오바마	-10776
▁가솔	-10777
▁따지	-10778
▁이의	-10779
▁차출	-10780
▁채취	-10781
▁가이드	-10782
▁경전철	-10783
▁유격수	-10784
사고	-10785
수스	-10786
▁동시대	-10787
▁별세	-10788
▁부치	-10789
▁위그	-10790
▁he	-10791
▁리본	-10792
▁유선	-10793
▁준수	-10794
대표	-10795
▁감찰	-10796
▁대북	-10797
▁로크	-10798
▁뭉치	-10799
▁방치	-10800
▁봉화	-10801
▁일리	-10802
▁1889	-10803
▁ㄹㅕㄷㅏ	-10804
▁가락	-10805
▁담보	-10806
▁밸리	-10807
▁삼림	-10808
▁영정	-10809
▁한미	-10810
▁안테나	-10811
말리	-10812
▁반포	-10813
▁아날	-10814
▁요충	-10815
공산당	-10816
▁리프트	-10817
난성	-10818
▁가맹	-10819
▁강렬	-10820
▁송신	-10821
▁슬픔	-10822
▁임정	-10823
▁모하	-10824
▁종식	-10825
▁초신성	-10826
▁고속버스	-10827
▁스카우트	-10828
클레	-10829
▁실록	-10830
▁사로잡	-10831
60	-10832
소통	-10833
천동	-10834
▁불참	-10835
▁여권	-10836
▁유목	-10837
▁켈트	-10838
▁아이폰	-10839
▁잇따르	-10840
▁베트	-10841
▁우림	-10842
▁직통	-10843
▁하시	-10844
▁호대	-10845
▁기관지	-10846
▁패트릭	-10847
▁공존	-10848
▁새우	-10849
▁딥	-10850
충류	-10851
▁비엔	-10852
▁중합	-10853
▁투여	-10854
▁정형	-10855
테이너	-10856
▁늙	-10857
▁So	-10858
▁갈아	-10859
▁대영	-10860
▁아끼	-10861
▁전전	-10862
▁밴쿠버	-10863
▁의사소통	-10864
▁간첩	-10865
▁니혼	-10866
▁산성	-10867
▁영예	-10868
▁왕건	-10869
▁의류	-10870
▁이송	-10871
▁주계	-10872
▁칸국	-10873
▁엔트리	-10874
▁구르	-10875
▁능하	-10876
▁다윈	-10877
▁모금	-10878
▁불량	-10879
▁야시	-10880
▁도망가	-10881
▁말미암	-10882
▁타이거스	-10883
▁구두	-10884
와라노	-10885
▁후지와라노	-10886
카리	-10887
▁건전	-10888
▁김형	-10889
▁연말	-10890
▁집정	-10891
▁메디치	-10892
▁CONCA	-10893
부로	-10894
위안	-10895
▁매트	-10896
▁미수	-10897
▁비야	-10898
▁사설	-10899
▁시크	-10900
▁플리	-10901
▁접어들	-10902
▁떨어뜨리	-10903
바나	-10904
▁감상	-10905
▁중수	-10906
▁치루	-10907
▁판례	-10908
▁펌프	-10909
▁감성	-10910
▁격리	-10911
▁받치	-10912
▁예약	-10913
▁작물	-10914
▁절정	-10915
▁종자	-10916
▁형질	-10917
▁For	-10918
▁두려움	-10919
▁타이어	-10920
▁Live	-10921
▁CONCACAF	-10922
드레	-10923
▁그저	-10924
▁로트	-10925
▁열강	-10926
▁인가	-10927
▁피지	-10928
▁똑같이	-10929
▁센티미터	-10930
AF	-10931
▁김준	-10932
▁사서	-10933
▁지자	-10934
▁프란체스코	-10935
▁권하	-10936
▁금호	-10937
▁라자	-10938
▁서임	-10939
▁수락	-10940
▁정읍	-10941
▁로마인	-10942
▁소말리아	-10943
▁라리	-10944
▁무형	-10945
▁의령	-10946
▁후배	-10947
▁ㅓㅇㅑ	-10948
▁낙동강	-10949
▁발라드	-10950
sh	-10951
▁앙골	-10952
▁JTBC	-10953
▁훙	-10954
▁원군	-10955
▁생존자	-10956
▁미야자키	-10957
▁마땅	-10958
▁사탕	-10959
▁애정	-10960
▁정종	-10961
▁캐리	-10962
▁하야	-10963
▁드디어	-10964
bo	-10965
▁사역	-10966
▁쿠퍼	-10967
▁열심히	-10968
휴일	-10969
▁메소	-10970
▁목회	-10971
▁은거	-10972
블랜드	-10973
▁시네마	-10974
▁챙	-10975
란토	-10976
유예	-10977
▁가도	-10978
▁백과	-10979
▁스트로	-10980
▁가나가와현	-10981
망디	-10982
▁잠정	-10983
▁정작	-10984
▁Sou	-10985
▁레이싱	-10986
▁나카무라	-10987
▁카탈루냐	-10988
가미	-10989
프로	-10990
▁기이	-10991
▁도피	-10992
▁송출	-10993
도르프	-10994
캐슬	-10995
▁고딕	-10996
▁극우	-10997
▁리옹	-10998
▁징수	-10999
▁치환	-11000
에미리트	-11001
▁자유민주당	-11002
▁아랍에미리트	-11003
지기	-11004
▁공소	-11005
▁금산	-11006
▁바지	-11007
▁습윤	-11008
▁요격	-11009
▁제명	-11010
바이트	-11011
▁장학금	-11012
▁피라미드	-11013
▁클리블랜드	-11014
EE	-11015
▁모색	-11016
▁연정	-11017
IL	-11018
▁가두	-11019
tern	-11020
▁간신히	-11021
▁미야기	-11022
▁볼트	-11023
▁유의	-11024
하이오	-11025
▁여배우	-11026
▁오하이오	-11027
▁프랑스인	-11028
▁비준	-11029
▁트렌	-11030
마르크	-11031
▁캅	-11032
▁로얄	-11033
추부사	-11034
▁Com	-11035
지능	-11036
▁GB	-11037
▁거미	-11038
▁유희	-11039
▁평평	-11040
▁AKB	-11041
▁광복군	-11042
▁교통부	-11043
▁유니버설	-11044
▁인공지능	-11045
▁김명	-11046
▁벨리	-11047
▁순종	-11048
▁항만	-11049
▁int	-11050
간다	-11051
대사	-11052
ood	-11053
▁"&	-11054
▁당기	-11055
▁무네	-11056
▁악보	-11057
▁워커	-11058
▁검은색	-11059
▁카카오	-11060
▁츄	-11061
자루	-11062
▁격추	-11063
▁삼중	-11064
▁Col	-11065
▁레이트	-11066
▁마이어	-11067
▁Part	-11068
▁깜	-11069
풀이	-11070
현동	-11071
ost	-11072
▁성곽	-11073
▁여고	-11074
▁자서	-11075
▁에이즈	-11076
▁Time	-11077
▁EU	-11078
▁무과	-11079
▁암스	-11080
▁1848	-11081
▁수로	-11082
▁페트	-11083
찌르	-11084
▁모욕	-11085
▁문집	-11086
▁사쓰	-11087
▁서태	-11088
▁뉴캐슬	-11089
▁토리노	-11090
나마	-11091
▁익숙	-11092
▁추력	-11093
▁탄약	-11094
▁티아	-11095
▁한림	-11096
▁한중	-11097
▁기숙사	-11098
▁레이더	-11099
▁추억	-11100
에몽	-11101
화문	-11102
row	-11103
▁포털	-11104
▁해태	-11105
span	-11106
거스	-11107
지부	-11108
▁부총리	-11109
▁급여	-11110
▁댄서	-11111
▁여의도	-11112
▁onlyinclude	-11113
▁재팬	-11114
▁하행	-11115
▁해피	-11116
uc	-11117
애미	-11118
정동	-11119
▁김광	-11120
▁오만	-11121
프랑크	-11122
▁공휴일	-11123
▁마이애미	-11124
의사	-11125
▁줄리	-11126
▁라이더	-11127
▁부딪히	-11128
▁브레이	-11129
▁튀니지	-11130
▁도래	-11131
▁라르	-11132
▁매킨	-11133
▁볼로	-11134
▁양심	-11135
▁여사	-11136
▁바그너	-11137
▁프랑스령	-11138
lay	-11139
▁남군	-11140
▁셀레	-11141
▁우한	-11142
▁종군	-11143
▁토트	-11144
▁지상파	-11145
▁카스티야	-11146
▁병자	-11147
▁보령	-11148
▁재일	-11149
▁절벽	-11150
▁조인	-11151
▁해독	-11152
▁대니얼	-11153
▁무찌르	-11154
▁스타트	-11155
▁어시스트	-11156
ous	-11157
▁공대	-11158
▁국한	-11159
▁워즈	-11160
▁특화	-11161
▁고인돌	-11162
▁대리인	-11163
▁클라우	-11164
▁프란치	-11165
▁대승불교	-11166
▁사민	-11167
▁유식	-11168
▁음절	-11169
▁우루스	-11170
▁일본국	-11171
▁정거장	-11172
▁페트로	-11173
▁가혹	-11174
▁교의	-11175
▁모건	-11176
▁비토	-11177
▁천주	-11178
페스트	-11179
▁무안	-11180
▁산둥	-11181
▁업자	-11182
▁코리	-11183
▁국제법	-11184
▁법원장	-11185
▁정치학	-11186
▁치카	-11187
ows	-11188
▁EM	-11189
▁방대	-11190
파니아	-11191
olog	-11192
▁지배자	-11193
메니	-11194
orn	-11195
▁굴절	-11196
▁인칭	-11197
▁제위	-11198
▁총격	-11199
▁클러	-11200
▁SNS	-11201
▁시멘트	-11202
▁시코쿠	-11203
▁관현악단	-11204
▁랴오	-11205
▁리카	-11206
▁비대	-11207
▁안개	-11208
해살이	-11209
▁그랜트	-11210
▁마법사	-11211
▁명확히	-11212
▁아이즈	-11213
▁공성	-11214
▁로키	-11215
▁비정	-11216
▁보수주의	-11217
▁가쿠	-11218
▁마테	-11219
▁부평	-11220
▁Bla	-11221
▁단결	-11222
▁숙부	-11223
▁케르	-11224
▁가솔린	-11225
▁하노버	-11226
브로	-11227
히사	-11228
ann	-11229
▁경복	-11230
▁선명	-11231
▁항체	-11232
▁저지대	-11233
▁제우스	-11234
▁카메룬	-11235
OP	-11236
▁거란	-11237
▁문단	-11238
▁최진	-11239
메이카	-11240
▁API	-11241
▁자메이카	-11242
▁줄기세포	-11243
az	-11244
도라	-11245
▁김인	-11246
▁사수	-11247
▁신곡	-11248
▁용액	-11249
▁평지	-11250
▁황색	-11251
▁Your	-11252
▁류큐	-11253
▁명소	-11254
▁연립	-11255
▁오디	-11256
클리드	-11257
▁131	-11258
▁대단히	-11259
▁부다	-11260
드리아	-11261
서스	-11262
▁BC	-11263
▁귀신	-11264
▁대마	-11265
▁부합	-11266
▁안방	-11267
▁대나무	-11268
▁정보원	-11269
▁헤어지	-11270
▁NASA	-11271
▁at	-11272
▁메일	-11273
▁몰아	-11274
▁베어	-11275
▁서귀	-11276
▁설문	-11277
▁점포	-11278
▁지법	-11279
▁대법관	-11280
▁레드삭스	-11281
▁고로	-11282
▁도키	-11283
▁선봉	-11284
▁적료	-11285
▁쪼	-11286
▁쾨	-11287
▁검거	-11288
▁글꼴	-11289
▁동산	-11290
빌라이	-11291
▁ref	-11292
▁욱	-11293
▁모범	-11294
▁모빌	-11295
▁종양	-11296
▁하코	-11297
▁항우	-11298
관계	-11299
칼리	-11300
▁메스	-11301
▁재편	-11302
▁전한	-11303
시노	-11304
▁속력	-11305
▁응급	-11306
른스트	-11307
▁제이슨	-11308
▁1883	-11309
▁녕	-11310
▁공영	-11311
▁기와	-11312
▁사림	-11313
▁지석	-11314
▁패러디	-11315
▁곶	-11316
으로	-11317
▁골격	-11318
▁남방	-11319
▁초콜	-11320
▁혼다	-11321
▁OST	-11322
▁영화상	-11323
▁동진	-11324
▁소외	-11325
▁전보	-11326
네그로	-11327
레스트	-11328
▁라파엘	-11329
▁u	-11330
▁계주	-11331
▁관상	-11332
▁기세	-11333
▁다툼	-11334
▁수식	-11335
▁연희	-11336
▁중엽	-11337
▁한신	-11338
▁방사능	-11339
▁줄리아	-11340
지아	-11341
▁다듬	-11342
▁무작	-11343
▁탄자	-11344
▁날아가	-11345
▁ㄹㅏㄱㅣ	-11346
▁그라운드	-11347
▁녹화	-11348
▁식스	-11349
▁진로	-11350
▁노르망디	-11351
▁텍사스주	-11352
▁본뜨	-11353
▁부상자	-11354
▁판소리	-11355
▁교향악단	-11356
▁대좌	-11357
▁도박	-11358
▁쌍대	-11359
▁코소	-11360
▁큐브	-11361
▁형벌	-11362
▁비서관	-11363
80	-11364
▁GM	-11365
▁경위	-11366
▁실증	-11367
▁피리	-11368
▁연구회	-11369
▁간략	-11370
▁근사	-11371
▁봉인	-11372
▁삽화	-11373
▁유공	-11374
▁이터	-11375
▁평판	-11376
▁tv	-11377
▁가우	-11378
▁가토	-11379
▁병마	-11380
▁산요	-11381
▁자명	-11382
▁에스페	-11383
▁해상도	-11384
▁공무	-11385
▁라바	-11386
▁타락	-11387
▁하남	-11388
▁프로그래머	-11389
▁뫼	-11390
▁야외	-11391
▁유우	-11392
▁절감	-11393
▁카네	-11394
▁카마	-11395
▁편견	-11396
▁꺼내	-11397
▁리마	-11398
▁리즈	-11399
▁온난	-11400
▁은혜	-11401
▁조교	-11402
▁최선	-11403
▁고분군	-11404
센스	-11405
▁가중	-11406
▁우산	-11407
▁에이전	-11408
▁위구르	-11409
▁파일럿	-11410
▁촛	-11411
▁Ge	-11412
▁니키	-11413
▁단군	-11414
▁송파	-11415
▁콘솔	-11416
▁이용객	-11417
▁체인지	-11418
▁토마토	-11419
▁쿠빌라이	-11420
합성	-11421
▁노면	-11422
▁발상	-11423
▁상어	-11424
▁열전	-11425
▁요절	-11426
▁만화가	-11427
▁ㄴㄷㅏㅁㅕㄴ	-11428
용차	-11429
▁고생	-11430
▁월터	-11431
ern	-11432
▁라디	-11433
▁받들	-11434
▁야마가타	-11435
▁RP	-11436
▁부왕	-11437
▁성동	-11438
▁안나	-11439
▁유생	-11440
▁함량	-11441
▁후진	-11442
▁해안선	-11443
▁콥	-11444
제품	-11445
▁고흥	-11446
▁권역	-11447
▁기량	-11448
▁수위	-11449
▁1882	-11450
▁봇	-11451
버른	-11452
▁관례	-11453
▁북군	-11454
▁스루	-11455
▁엔드	-11456
▁학력	-11457
▁Day	-11458
▁Wind	-11459
40	-11460
▁고노	-11461
▁국교	-11462
▁국외	-11463
▁모세	-11464
▁범하	-11465
▁세습	-11466
▁위로	-11467
▁친족	-11468
워스	-11469
프턴	-11470
▁간사	-11471
▁거성	-11472
▁기전	-11473
스트리	-11474
▁슈퍼컵	-11475
▁스칼라	-11476
▁연장전	-11477
▁원산지	-11478
▁중소기업	-11479
II	-11480
포시	-11481
▁고의	-11482
▁덮개	-11483
▁루키	-11484
▁헬레	-11485
▁다이어	-11486
▁올리브	-11487
▁통신사	-11488
에고	-11489
ink	-11490
▁RS	-11491
▁SA	-11492
▁가고	-11493
▁무섭	-11494
▁아이언	-11495
CC	-11496
돌이	-11497
▁몰타	-11498
토프	-11499
▁내일	-11500
▁배분	-11501
▁왕궁	-11502
▁유서	-11503
▁주선	-11504
▁데니스	-11505
치히	-11506
▁정월	-11507
▁조셉	-11508
▁미토콘	-11509
▁전반기	-11510
▁사로잡히	-11511
▁아날로그	-11512
▁미토콘드리아	-11513
교통	-11514
여객	-11515
▁FK	-11516
▁보루	-11517
▁우시	-11518
▁지극	-11519
다운	-11520
▁ㅅㅕ	-11521
▁멋지	-11522
▁수다	-11523
▁요양	-11524
▁이회	-11525
▁파벌	-11526
▁플러	-11527
오르크	-11528
▁330	-11529
▁공화정	-11530
▁카스트	-11531
▁관계없이	-11532
RT	-11533
▁장덕	-11534
▁직속	-11535
▁항원	-11536
▁단체전	-11537
▁대표자	-11538
▁앗	-11539
▁관악	-11540
▁도네	-11541
▁자수	-11542
▁Sch	-11543
▁강당	-11544
▁결사	-11545
▁급증	-11546
▁단속	-11547
▁부교	-11548
▁붙잡	-11549
▁사영	-11550
▁세련	-11551
▁아목	-11552
▁제천	-11553
갈리	-11554
▁관목	-11555
▁램프	-11556
▁상록	-11557
▁정정	-11558
▁선진국	-11559
▁해운대	-11560
▁미스터리	-11561
▁동포	-11562
▁타수	-11563
▁국정원	-11564
▁중공군	-11565
데라	-11566
▁배달	-11567
▁성원	-11568
▁시안	-11569
▁위조	-11570
▁재래	-11571
▁노벨상	-11572
▁ㅇㅡㄹㅣ	-11573
▁브루클린	-11574
▁시즈오카	-11575
▁몹	-11576
서니	-11577
▁딜런	-11578
▁사학	-11579
▁최영	-11580
▁협업	-11581
▁경주시	-11582
▁영원히	-11583
▁테네시	-11584
▁호스트	-11585
▁산시	-11586
▁씨족	-11587
▁외래	-11588
▁조슈	-11589
▁주창	-11590
▁후예	-11591
▁4000	-11592
▁정은	-11593
▁Girl	-11594
게스	-11595
▁랭크	-11596
▁베풀	-11597
▁어기	-11598
▁염려	-11599
▁북유럽	-11600
▁지붕돌	-11601
▁파푸아	-11602
▁필립스	-11603
본부	-11604
팡이	-11605
▁부르주	-11606
▁사업소	-11607
▁제갈량	-11608
▁휴게소	-11609
▁보름	-11610
▁레오폴	-11611
▁안티오	-11612
▁ㅇㅕㅅㅓ	-11613
▁넬슨	-11614
▁빙하	-11615
▁사치	-11616
▁소프	-11617
▁제단	-11618
▁천수	-11619
▁콜럼	-11620
▁new	-11621
▁베이커	-11622
▁괌	-11623
▁단말	-11624
▁영덕	-11625
▁군사력	-11626
▁너무나	-11627
▁대상자	-11628
▁멜버른	-11629
융합	-11630
▁규탄	-11631
▁남하	-11632
▁발동	-11633
▁수열	-11634
▁잠깐	-11635
▁표정	-11636
▁산티아	-11637
▁메릴랜드	-11638
▁유클리드	-11639
▁컨테이너	-11640
US	-11641
▁라미	-11642
▁번창	-11643
▁서면	-11644
▁선대	-11645
스탄불	-11646
▁1868	-11647
▁이스탄불	-11648
OT	-11649
▁Or	-11650
▁범행	-11651
▁일각	-11652
▁형편	-11653
▁회귀	-11654
▁OB	-11655
▁과테	-11656
▁밝혀	-11657
▁양보	-11658
▁어파	-11659
▁얽히	-11660
▁할인	-11661
▁앙골라	-11662
▁요충지	-11663
▁과테말라	-11664
▁컨트롤러	-11665
▁냥	-11666
ㄷㅐ	-11667
▁대인	-11668
▁종영	-11669
▁태후	-11670
▁피핀	-11671
티모어	-11672
▁핵융합	-11673
▁사이타마	-11674
oll	-11675
▁군벌	-11676
▁사안	-11677
▁신입	-11678
▁사회민주당	-11679
▁동적	-11680
▁스캔들	-11681
▁오스틴	-11682
▁몬테네그로	-11683
▁급속히	-11684
▁노사	-11685
▁전수	-11686
▁라인업	-11687
▁우의정	-11688
▁겨루	-11689
▁충렬	-11690
▁파시즘	-11691
해자	-11692
▁농지	-11693
▁이바지	-11694
협회	-11695
▁객차	-11696
▁고트	-11697
▁사천	-11698
▁우월	-11699
펜하겐	-11700
▁밝혀내	-11701
▁주계열	-11702
▁폐기물	-11703
▁코펜하겐	-11704
▁노후	-11705
▁버터	-11706
▁트이	-11707
▁기념일	-11708
▁프랜차	-11709
▁영월	-11710
▁오아	-11711
▁청도	-11712
히드	-11713
▁강행	-11714
▁배리	-11715
▁법관	-11716
▁장병	-11717
▁하의	-11718
웨이트	-11719
지리	-11720
▁부파	-11721
▁성산	-11722
▁영암	-11723
▁초안	-11724
▁항로	-11725
▁아케이드	-11726
▁사운드트랙	-11727
▁colspan	-11728
▁교직	-11729
▁너머	-11730
▁다우	-11731
▁우왕	-11732
▁위촉	-11733
▁저조	-11734
▁데려가	-11735
▁독수리	-11736
▁무실점	-11737
▁커리어	-11738
▁히브리	-11739
당기	-11740
▁러일	-11741
▁식용	-11742
▁카세	-11743
▁320	-11744
▁LED	-11745
▁ㅅㅕㄴ	-11746
▁신주쿠	-11747
▁요하네스	-11748
▁프란시스코	-11749
▁양수	-11750
▁외과	-11751
▁외형	-11752
▁차선	-11753
ㄲㅡㅁ	-11754
▁김옥균	-11755
▁베르나르	-11756
▁ㄱㅔㄲㅡㅁ	-11757
▁찢	-11758
▁대청	-11759
▁사비	-11760
▁이메	-11761
▁절제	-11762
▁청계	-11763
▁사이먼	-11764
▁좌의정	-11765
호란	-11766
▁교부	-11767
▁망치	-11768
▁복종	-11769
▁추서	-11770
▁피드	-11771
▁헌장	-11772
▁수요일	-11773
▁야마모토	-11774
▁암스테르담	-11775
▁프랜차이즈	-11776
▁밀레	-11777
▁아유	-11778
▁족보	-11779
▁종신	-11780
▁준장	-11781
▁증폭	-11782
▁카툰	-11783
▁end	-11784
공주	-11785
우에	-11786
▁대덕	-11787
▁상국	-11788
▁소아	-11789
▁안무	-11790
▁은신	-11791
▁치유	-11792
▁타리	-11793
▁효고현	-11794
바오	-11795
▁거처	-11796
▁끊기	-11797
▁우연	-11798
▁증오	-11799
▁치하	-11800
▁리믹스	-11801
디나비아	-11802
▁스칸디나비아	-11803
▁렛	-11804
▁슌	-11805
▁고온	-11806
▁금전	-11807
▁대도	-11808
▁도상	-11809
▁스콜	-11810
▁위력	-11811
▁이항	-11812
▁정령	-11813
▁컨설	-11814
▁오일러	-11815
▁게오르크	-11816
나드	-11817
▁DF	-11818
▁내분	-11819
▁성악	-11820
▁시비	-11821
▁직행	-11822
▁출동	-11823
토리코	-11824
▁니콜라스	-11825
▁여성주의	-11826
꼬리	-11827
▁네티	-11828
▁매리	-11829
▁샤프	-11830
▁양대	-11831
▁전세	-11832
▁조영	-11833
▁타일	-11834
▁피치	-11835
▁자서전	-11836
▁산티아고	-11837
걸이	-11838
gin	-11839
▁순차	-11840
▁슈테	-11841
▁자재	-11842
▁축산	-11843
▁출자	-11844
▁데이브	-11845
▁서해안	-11846
▁에른스트	-11847
amp	-11848
▁by	-11849
▁공안	-11850
▁국철	-11851
▁노아	-11852
▁동향	-11853
▁분사	-11854
▁습관	-11855
▁타로	-11856
아다니	-11857
▁로마자	-11858
▁브뤼셀	-11859
▁헤이안	-11860
▁쿠웨이트	-11861
▁놈	-11862
익스	-11863
▁TR	-11864
▁압록	-11865
▁코스타리카	-11866
▁능동	-11867
▁문종	-11868
▁정몽	-11869
ㄹㅏㄷㅗ	-11870
▁육군사관학교	-11871
LA	-11872
단지	-11873
▁김윤	-11874
▁아흐	-11875
▁첼로	-11876
▁어웨이	-11877
▁천안시	-11878
니파	-11879
셀러	-11880
▁거지	-11881
▁김선	-11882
▁리코	-11883
▁바울	-11884
▁시트콤	-11885
▁함경북도	-11886
▁푸에르토리코	-11887
계승	-11888
웍스	-11889
▁잔인	-11890
▁정반	-11891
▁호아	-11892
▁결과물	-11893
▁발전기	-11894
▁법조인	-11895
▁각료	-11896
▁모차	-11897
▁브릿	-11898
▁주성	-11899
▁주심	-11900
▁퍼즐	-11901
▁함흥	-11902
▁280	-11903
▁그만큼	-11904
▁윗부분	-11905
▁텔레콤	-11906
aw	-11907
▁갯	-11908
려들	-11909
▁결핵	-11910
▁긴밀	-11911
▁내무	-11912
▁데드	-11913
▁라카	-11914
▁서주	-11915
▁켄트	-11916
▁동맹국	-11917
▁서사시	-11918
▁위안부	-11919
▁유학자	-11920
▁복음주의	-11921
▁맬	-11922
▁온화	-11923
▁천마	-11924
▁칭송	-11925
▁코네	-11926
▁피크	-11927
▁포르노	-11928
▁화장품	-11929
▁루이지애나	-11930
▁늪	-11931
▁수량	-11932
▁이아	-11933
▁전락	-11934
▁점거	-11935
▁짐승	-11936
▁폐렴	-11937
▁펠릭스	-11938
▁박성	-11939
▁백악	-11940
▁이우	-11941
▁전학	-11942
▁측량	-11943
▁편향	-11944
▁흡사	-11945
▁203	-11946
▁IOC	-11947
▁장로교	-11948
▁1893	-11949
북구	-11950
▁Fe	-11951
▁김승	-11952
▁리튬	-11953
▁배드	-11954
▁유족	-11955
▁정재	-11956
▁차츰	-11957
▁톰슨	-11958
▁학장	-11959
▁후유	-11960
▁가고시마	-11961
gr	-11962
▁영천	-11963
▁원활	-11964
▁척도	-11965
▁한번	-11966
퍼레이션	-11967
▁이탈리아어	-11968
게임	-11969
나기	-11970
▁이황	-11971
▁집착	-11972
▁천천	-11973
▁축전	-11974
▁해왕	-11975
OW	-11976
세유	-11977
▁le	-11978
▁문무	-11979
▁배양	-11980
▁생리	-11981
▁심포	-11982
▁하타	-11983
▁가라앉	-11984
▁교육자	-11985
▁민병대	-11986
▁철저히	-11987
▁해안가	-11988
▁탄자니아	-11989
▁고집	-11990
▁선인	-11991
▁소대	-11992
▁조제	-11993
▁부르고	-11994
▁트리오	-11995
▁마이크로	-11996
les	-11997
▁Mo	-11998
▁분단	-11999
▁접종	-12000
로이드	-12001
▁도자기	-12002
▁로베르	-12003
독립	-12004
상시	-12005
ung	-12006
▁관우	-12007
▁레프	-12008
▁우두	-12009
▁충무	-12010
라이드	-12011
▁데일리	-12012
어넣	-12013
화학	-12014
▁김치	-12015
▁천천히	-12016
▁Rock	-12017
몬트	-12018
▁격려	-12019
▁금동	-12020
▁대종	-12021
▁톱니	-12022
▁하급	-12023
▁헤로	-12024
▁노미야	-12025
▁서초구	-12026
▁아라곤	-12027
▁유적지	-12028
▁Comp	-12029
▁톡	-12030
▁간직	-12031
▁단정	-12032
▁림프	-12033
▁박상	-12034
▁조니	-12035
▁한문	-12036
▁후쿠오카현	-12037
▁NP	-12038
▁과시	-12039
▁관성	-12040
▁김천	-12041
▁한큐	-12042
▁비스타	-12043
▁아우르	-12044
▁불경	-12045
▁앤디	-12046
▁자진	-12047
▁주세	-12048
▁탈취	-12049
▁헌터	-12050
▁녹색당	-12051
티에	-12052
eth	-12053
▁마타	-12054
▁미성	-12055
▁칼슘	-12056
▁동맹군	-12057
▁컬렉션	-12058
▁플랑크	-12059
▁덥	-12060
레드	-12061
▁서스	-12062
▁아츠	-12063
▁전미	-12064
▁Univers	-12065
▁핏	-12066
▁버섯	-12067
▁애인	-12068
▁장녀	-12069
▁Car	-12070
업자	-12071
▁끓이	-12072
▁도출	-12073
▁심부	-12074
▁강화도	-12075
▁도야마	-12076
▁스포르	-12077
익스피어	-12078
▁레인저스	-12079
▁갚	-12080
▁버러	-12081
▁아메	-12082
▁에마	-12083
▁불계승	-12084
▁픽처스	-12085
▁미나모토	-12086
▁셰익스피어	-12087
들러	-12088
▁격하	-12089
▁구금	-12090
▁노랑	-12091
▁라흐	-12092
▁사귀	-12093
▁오하	-12094
루이스	-12095
▁TBS	-12096
▁ㄹㅓㄴ	-12097
▁초콜릿	-12098
▁촐	-12099
▁Am	-12100
▁도이	-12101
▁막판	-12102
▁시속	-12103
▁심상	-12104
▁발사체	-12105
▁우울증	-12106
▁케이크	-12107
▁도카이도	-12108
IR	-12109
▁공양	-12110
▁라즈	-12111
▁바비	-12112
▁휴양	-12113
▁명인	-12114
▁소사	-12115
▁Rec	-12116
▁게오르	-12117
▁참모총장	-12118
oth	-12119
▁굳히	-12120
▁까마	-12121
▁미츠	-12122
▁비지	-12123
▁월트	-12124
▁점검	-12125
▁페더	-12126
▁황산	-12127
▁후하	-12128
▁고려대	-12129
▁로스쿨	-12130
태평	-12131
▁AB	-12132
▁기쁨	-12133
▁에로	-12134
▁현판	-12135
▁230	-12136
▁순양함	-12137
▁부르고뉴	-12138
▁인공위성	-12139
▁반동	-12140
▁유영	-12141
▁카레	-12142
▁GNU	-12143
▁베르타	-12144
▁스탠리	-12145
▁from	-12146
▁에스페란토	-12147
▁플로리다주	-12148
트르	-12149
폭탄	-12150
▁구치	-12151
▁대차	-12152
▁Sup	-12153
▁글래스	-12154
▁상관없이	-12155
▁핼	-12156
국적	-12157
▁강진	-12158
▁낚시	-12159
▁노프	-12160
▁당뇨	-12161
▁대주	-12162
▁배역	-12163
▁상정	-12164
▁조롱	-12165
▁특사	-12166
▁물려주	-12167
▁가와사키	-12168
▁견고	-12169
▁귀속	-12170
▁무단	-12171
▁사상가	-12172
▁서바이	-12173
ublic	-12174
▁가르시아	-12175
▁러시아군	-12176
▁구독	-12177
▁마트	-12178
▁심문	-12179
▁용품	-12180
▁운임	-12181
▁향기	-12182
민스터	-12183
▁ㄹㅏㅁ	-12184
▁밀려나	-12185
▁마르세유	-12186
▁중앙은행	-12187
▁슈타	-12188
▁이범	-12189
▁청량	-12190
▁파편	-12191
▁로빈슨	-12192
▁지바현	-12193
▁프리스	-12194
▁Do	-12195
▁미아	-12196
▁발목	-12197
▁스킴	-12198
▁피사	-12199
▁흥분	-12200
▁휘말리	-12201
▁IV	-12202
▁가부	-12203
▁대진	-12204
▁스투	-12205
▁재차	-12206
▁기업가	-12207
▁수나라	-12208
그마	-12209
바리	-12210
▁꾸리	-12211
▁끼우	-12212
▁동종	-12213
▁배기	-12214
▁청송	-12215
▁1888	-12216
유사	-12217
헤드	-12218
▁네모	-12219
▁대접	-12220
▁울릉	-12221
▁유포	-12222
▁쇠고기	-12223
▁펠리페	-12224
▁율리우스	-12225
▁Su	-12226
▁시우	-12227
▁페오	-12228
▁이바라	-12229
▁노스캐롤라이나	-12230
▁닉슨	-12231
▁명부	-12232
▁온대	-12233
▁ㄹㄹㅏ	-12234
▁경계선	-12235
▁세비야	-12236
▁수차례	-12237
▁하이퍼	-12238
▁매달	-12239
▁물결	-12240
▁백자	-12241
▁성기	-12242
▁국제선	-12243
▁로이드	-12244
▁ㄷㅏㅁㅕㄴㅅㅓ	-12245
둘기	-12246
▁리차	-12247
▁사커	-12248
▁아와	-12249
▁카야	-12250
▁애덤스	-12251
▁1892	-12252
▁박테리아	-12253
▁Sw	-12254
▁붕어	-12255
▁사키	-12256
▁산수	-12257
▁웃음	-12258
▁재발	-12259
▁지난	-12260
▁다이빙	-12261
▁케이트	-12262
▁평안도	-12263
▁허드슨	-12264
▁깁	-12265
▁푹	-12266
▁ar	-12267
▁데미	-12268
▁메틸	-12269
▁시문	-12270
▁입헌	-12271
▁제철	-12272
▁쫓아내	-12273
▁우에스기	-12274
▁공법	-12275
▁사변	-12276
▁어의	-12277
▁에바	-12278
▁유무	-12279
▁제창	-12280
▁프로모	-12281
연수	-12282
홍색	-12283
▁이봉	-12284
▁주먹	-12285
▁대전차	-12286
▁산스크	-12287
▁소학교	-12288
▁자라나	-12289
▁절도사	-12290
▁산스크리트	-12291
▁납부	-12292
▁모던	-12293
▁새뮤	-12294
▁연회	-12295
▁원유	-12296
▁코사	-12297
▁펠트	-12298
▁다카라	-12299
▁활동가	-12300
AI	-12301
▁고스	-12302
▁나뭇	-12303
▁낙양	-12304
▁농축	-12305
▁재앙	-12306
▁조선왕	-12307
▁펩	-12308
자동	-12309
▁계량	-12310
▁미식	-12311
▁산청	-12312
미디어	-12313
▁대공국	-12314
▁대명사	-12315
▁문자열	-12316
▁ㅇㅡㄹㅏ	-12317
▁ㅇㅡㄹㅕㄴㅡㄴ	-12318
AE	-12319
비크	-12320
암리	-12321
▁군데	-12322
▁옥타	-12323
▁위계	-12324
▁자립	-12325
▁해병	-12326
▁볼로냐	-12327
▁스탠드	-12328
▁스테판	-12329
▁아브라	-12330
▁차세대	-12331
다오	-12332
티노	-12333
▁강성	-12334
▁공시	-12335
▁니켈	-12336
▁라드	-12337
▁순례	-12338
▁자코	-12339
▁공방전	-12340
▁관현악	-12341
▁데스크톱	-12342
▁소동	-12343
▁필하	-12344
▁하임	-12345
▁더블린	-12346
▁레이디	-12347
▁지리학	-12348
▁1876	-12349
보리	-12350
▁wh	-12351
▁선양	-12352
▁애초	-12353
▁직계	-12354
▁논리학	-12355
▁북조선	-12356
▁사간원	-12357
▁굶	-12358
▁씻	-12359
사태	-12360
▁CG	-12361
▁불사	-12362
▁생모	-12363
▁장래	-12364
▁중고	-12365
▁침례	-12366
로니아	-12367
▁USB	-12368
▁세네갈	-12369
▁앤서니	-12370
▁후원자	-12371
네트	-12372
▁완도	-12373
▁조개	-12374
▁축성	-12375
▁고려사	-12376
▁성매매	-12377
▁페르난도	-12378
▁프레임워크	-12379
ah	-12380
▁맥아	-12381
▁반주	-12382
▁복싱	-12383
▁손녀	-12384
▁이나	-12385
▁토이	-12386
▁통폐	-12387
▁사단장	-12388
▁올리버	-12389
▁1866	-12390
▁가면라이더	-12391
▁뱃	-12392
▁노랗	-12393
▁이산	-12394
▁ㅇㅡㅅㅣ	-12395
▁알렉산드로스	-12396
광성	-12397
▁간혹	-12398
▁로브	-12399
▁세레	-12400
▁소용	-12401
▁알폰	-12402
▁채색	-12403
▁전주시	-12404
▁1886	-12405
▁베네딕토	-12406
▁프린스턴	-12407
너드	-12408
로쿠	-12409
▁대금	-12410
▁미미	-12411
▁발의	-12412
▁수력	-12413
▁전권	-12414
▁정진	-12415
▁포탄	-12416
르타뉴	-12417
▁260	-12418
▁사절단	-12419
▁서기관	-12420
▁헤라클	-12421
▁브르타뉴	-12422
▁펫	-12423
▁군관	-12424
▁두각	-12425
▁송환	-12426
▁Gre	-12427
▁보좌관	-12428
▁덱	-12429
다보	-12430
뮬러	-12431
▁거룩	-12432
▁면모	-12433
▁부양	-12434
▁죄수	-12435
▁파파	-12436
▁펴내	-12437
▁장제스	-12438
네임	-12439
분열	-12440
▁저우	-12441
▁교구장	-12442
▁도르트	-12443
▁구스타프	-12444
▁베이시스트	-12445
▁웨스트민스터	-12446
EST	-12447
▁co	-12448
▁당황	-12449
▁댓글	-12450
▁아디	-12451
▁앨리	-12452
▁조소	-12453
▁풍습	-12454
▁생리학	-12455
▁이즈미	-12456
▁카운트	-12457
▁집행유예	-12458
▁인플레이션	-12459
철수	-12460
▁너스	-12461
▁바시	-12462
▁번갈	-12463
▁비우	-12464
▁살라	-12465
▁원상	-12466
리카락	-12467
▁브래드	-12468
▁조나라	-12469
▁드미트리	-12470
▁머리카락	-12471
▁얼룩	-12472
▁잘리	-12473
▁덩어리	-12474
▁바이어	-12475
▁꽂	-12476
▁뮐	-12477
큐어	-12478
▁과연	-12479
▁마린	-12480
▁부류	-12481
▁유능	-12482
▁임계	-12483
▁초전	-12484
▁파커	-12485
▁펀드	-12486
▁합천	-12487
▁게시판	-12488
▁민영화	-12489
▁코소보	-12490
레시	-12491
코르	-12492
▁서예	-12493
▁신진	-12494
▁약점	-12495
▁에리	-12496
▁270	-12497
▁새뮤얼	-12498
▁스테인	-12499
▁통폐합	-12500
▁페미니	-12501
▁Tour	-12502
직경	-12503
▁긴키	-12504
▁단조	-12505
▁마나	-12506
▁본체	-12507
▁엘런	-12508
▁현과	-12509
▁간사이	-12510
우회	-12511
ron	-12512
▁깃털	-12513
▁위패	-12514
▁이호	-12515
▁조현	-12516
▁퇴위	-12517
▁경영학	-12518
▁독립군	-12519
▁시직경	-12520
▁프란치스코	-12521
▁펭	-12522
▁경무	-12523
▁나름	-12524
▁도성	-12525
▁도약	-12526
▁아자	-12527
▁유다	-12528
▁보살상	-12529
▁삼각주	-12530
▁1887	-12531
▁브리티시	-12532
▁도하	-12533
▁수하	-12534
▁음운	-12535
▁일진	-12536
▁제르	-12537
▁포츠	-12538
▁프루	-12539
꿈치	-12540
▁모라	-12541
▁박수	-12542
▁산물	-12543
▁표하	-12544
▁강서구	-12545
▁금나라	-12546
▁사쓰마	-12547
▁서포터	-12548
▁역사학	-12549
▁주니치	-12550
▁축구팀	-12551
▁마르쿠스	-12552
ble	-12553
러뜨리	-12554
라호	-12555
슈타	-12556
쓰기	-12557
▁동창	-12558
land	-12559
▁Wii	-12560
▁근거지	-12561
▁화요일	-12562
지오	-12563
ave	-12564
▁ML	-12565
▁고창	-12566
▁도제	-12567
▁망하	-12568
▁물류	-12569
▁배척	-12570
▁중개	-12571
▁출혈	-12572
▁편안	-12573
▁행방	-12574
▁도미니카	-12575
왕후	-12576
▁KB	-12577
▁Up	-12578
▁무수	-12579
▁박자	-12580
▁악곡	-12581
▁여타	-12582
▁오산	-12583
▁자궁	-12584
▁코호	-12585
▁타구	-12586
▁펠로	-12587
▁용의자	-12588
▁유전학	-12589
▁1861	-12590
▁모차르트	-12591
▁프리미엄	-12592
▁Dream	-12593
비안	-12594
제비	-12595
클라	-12596
하임	-12597
▁과잉	-12598
▁레트	-12599
▁지아	-12600
19	-12601
▁단거리	-12602
▁베이비	-12603
▁부분군	-12604
▁쏟아지	-12605
▁Life	-12606
▁재단법인	-12607
코타	-12608
▁it	-12609
▁올레	-12610
▁유머	-12611
▁유타	-12612
▁직사	-12613
▁해결책	-12614
▁클레멘스	-12615
▁버크	-12616
▁형용	-12617
짜기	-12618
▁SV	-12619
▁광선	-12620
▁급히	-12621
▁습득	-12622
▁1864	-12623
▁볼티모어	-12624
▁불러들이	-12625
▁세분	-12626
▁신세계	-12627
라르	-12628
▁가닥	-12629
▁슬램	-12630
▁특기	-12631
▁아무리	-12632
▁집정관	-12633
▁모닝	-12634
▁수이	-12635
▁오대	-12636
▁완결	-12637
▁장애물	-12638
▁황해도	-12639
▁석가모니	-12640
▁카르타고	-12641
ult	-12642
▁기밀	-12643
▁불분	-12644
▁왕관	-12645
▁위시	-12646
솔리니	-12647
▁후세인	-12648
DA	-12649
▁몰두	-12650
▁익명	-12651
▁장전	-12652
▁천지	-12653
▁환관	-12654
▁당선자	-12655
▁데이빗	-12656
▁홈경기	-12657
▁SH	-12658
▁교지	-12659
▁모국	-12660
▁사하	-12661
▁세무	-12662
▁아쉽	-12663
▁오메	-12664
▁외환	-12665
▁정예	-12666
▁공연장	-12667
▁바로크	-12668
▁음악원	-12669
▁좌표계	-12670
▁프랑코	-12671
▁스트리밍	-12672
콘신	-12673
▁구문	-12674
▁꺼리	-12675
▁라시	-12676
▁마구	-12677
▁빅뱅	-12678
▁사내	-12679
▁슬프	-12680
▁승단	-12681
▁양현	-12682
▁뛰어넘	-12683
▁백악기	-12684
▁코스트	-12685
▁위스콘신	-12686
즐리	-12687
플린	-12688
▁내포	-12689
▁리트	-12690
▁에두	-12691
▁페스	-12692
▁1850	-12693
▁싹	-12694
▁RT	-12695
▁경건	-12696
▁지면	-12697
▁포화	-12698
▁다카라즈카	-12699
동자	-12700
디슨	-12701
열차	-12702
▁TC	-12703
▁ㄴㅛ	-12704
▁철강	-12705
▁혼혈	-12706
▁홀딩	-12707
▁다행	-12708
▁무자	-12709
▁발톱	-12710
▁촛불	-12711
▁파직	-12712
▁홍성	-12713
▁남베트남	-12714
▁레버	-12715
▁실각	-12716
▁여건	-12717
▁착하	-12718
▁평탄	-12719
▁개정안	-12720
▁모나코	-12721
ational	-12722
orm	-12723
▁만점	-12724
▁복위	-12725
▁암모	-12726
▁허블	-12727
▁네티즌	-12728
▁휘두르	-12729
ition	-12730
▁마을버스	-12731
▁렙	-12732
▁고모	-12733
▁스모	-12734
▁어우	-12735
▁오일	-12736
▁잔디	-12737
▁추존	-12738
▁카이로	-12739
▁컨텐츠	-12740
▁1881	-12741
EP	-12742
▁승하	-12743
▁증세	-12744
▁보너스	-12745
▁건네	-12746
▁공판	-12747
▁에반	-12748
▁접합	-12749
▁쿼크	-12750
▁토목	-12751
▁푸아	-12752
▁하얀	-12753
▁히토	-12754
바도르	-12755
▁바람직	-12756
▁생성물	-12757
▁참의원	-12758
▁토트넘	-12759
▁행정동	-12760
브웨	-12761
▁워킹	-12762
▁자릿	-12763
▁홈즈	-12764
▁가해자	-12765
▁사나이	-12766
▁Music	-12767
니오	-12768
▁구례	-12769
▁리에	-12770
▁백업	-12771
▁예의	-12772
▁재결	-12773
▁짐바	-12774
▁노동력	-12775
▁보안법	-12776
▁사들이	-12777
▁재판관	-12778
▁if	-12779
▁객원	-12780
▁군세	-12781
▁근래	-12782
▁도산	-12783
▁마요	-12784
▁요금소	-12785
ton	-12786
▁en	-12787
▁관내	-12788
▁삼척	-12789
▁쓰루	-12790
▁황자	-12791
▁아카이	-12792
▁재판부	-12793
▁미네소타	-12794
예술	-12795
▁AG	-12796
▁구획	-12797
▁요괴	-12798
▁잠실	-12799
▁차수	-12800
▁카와	-12801
▁대교구	-12802
▁대표단	-12803
▁1830	-12804
▁루스벨트	-12805
▁크리에이	-12806
▁계보	-12807
▁괘불	-12808
▁눈치	-12809
▁방공	-12810
▁침대	-12811
▁무작위	-12812
▁유니버스	-12813
▁돗	-12814
린트	-12815
▁고하	-12816
▁남조	-12817
▁더하	-12818
▁뒤늦	-12819
▁매진	-12820
▁민물	-12821
▁아타	-12822
▁왕성	-12823
▁이력	-12824
▁자판	-12825
라호마	-12826
▁압록강	-12827
▁주나라	-12828
른베르크	-12829
▁오클라호마	-12830
렌스	-12831
▁산기	-12832
▁승지	-12833
▁헌납	-12834
▁로맨틱	-12835
▁합창단	-12836
▁도라에몽	-12837
▁컴파일러	-12838
뛰기	-12839
▁강세	-12840
▁목욕	-12841
▁부풀	-12842
▁뷰티	-12843
▁전리	-12844
▁판관	-12845
▁관련자	-12846
▁외무부	-12847
▁장난감	-12848
▁닛산	-12849
▁동차	-12850
▁말단	-12851
▁오우	-12852
▁패권	-12853
▁편하	-12854
▁화성시	-12855
아메리카	-12856
▁소라	-12857
▁이별	-12858
▁익산	-12859
▁재벌	-12860
▁전교	-12861
▁코난	-12862
ject	-12863
▁iOS	-12864
▁XP	-12865
▁관용	-12866
▁러닝	-12867
▁벌레	-12868
▁세간	-12869
▁스몰	-12870
▁이누	-12871
▁현미	-12872
▁마르셀	-12873
▁야구단	-12874
화경	-12875
▁경도	-12876
▁스기	-12877
▁아편	-12878
▁쿠로	-12879
▁돋보이	-12880
라이어티	-12881
▁버라이어티	-12882
▁헤라클레스	-12883
▁Ed	-12884
▁다비	-12885
▁미상	-12886
▁발포	-12887
▁별장	-12888
▁정황	-12889
▁파주	-12890
▁까마귀	-12891
▁반대파	-12892
▁여학생	-12893
▁1872	-12894
평리	-12895
▁경매	-12896
▁남송	-12897
▁부전	-12898
▁스윙	-12899
▁엿보	-12900
▁감리교	-12901
▁해석학	-12902
▁세르게이	-12903
ION	-12904
▁딸리	-12905
▁시원	-12906
▁알맞	-12907
▁조심	-12908
▁종업	-12909
▁찍히	-12910
▁파열	-12911
▁팔작	-12912
▁ㄴㄷㅔ	-12913
▁불분명	-12914
▁이메일	-12915
▁낭만주의	-12916
▁무솔리니	-12917
▁이시카와	-12918
▁꿰	-12919
▁an	-12920
▁신봉	-12921
▁챙기	-12922
▁라치오	-12923
▁Open	-12924
▁트레이닝	-12925
께끼	-12926
림사	-12927
비오	-12928
타입	-12929
▁금고	-12930
▁기고	-12931
▁김희	-12932
▁당진	-12933
▁등등	-12934
▁레비	-12935
▁발자	-12936
▁배트	-12937
▁삭스	-12938
▁조경	-12939
▁흑백	-12940
슬라프	-12941
▁피닉스	-12942
▁수수께끼	-12943
▁루나	-12944
▁마티	-12945
▁애슬	-12946
▁의례	-12947
▁체하	-12948
▁농어촌	-12949
달마	-12950
▁몸돌	-12951
▁양조	-12952
▁용사	-12953
▁이은	-12954
▁켄터	-12955
▁트란	-12956
▁750	-12957
▁다비드	-12958
▁라이스	-12959
▁모멘트	-12960
▁베일	-12961
▁복직	-12962
▁승상	-12963
▁여호	-12964
▁인제	-12965
▁종묘	-12966
▁중랑	-12967
브리드	-12968
▁유라시아	-12969
▁엡	-12970
나파	-12971
덕왕	-12972
▁BL	-12973
▁te	-12974
▁교동	-12975
▁꼬마	-12976
▁양면	-12977
▁필연	-12978
태평양	-12979
▁롬바르	-12980
▁대중교통	-12981
▁대한항공	-12982
▁교제	-12983
▁기통	-12984
▁두어	-12985
▁야망	-12986
▁원동	-12987
▁의용	-12988
▁주고	-12989
▁콘티	-12990
ㅌㅇㅣ	-12991
▁범죄자	-12992
▁센다이	-12993
▁ㄱㅏㅌㅇㅣ	-12994
▁부다페스트	-12995
▁그란	-12996
▁선율	-12997
▁음주	-12998
▁청년회	-12999
▁부르주아	-13000
더지	-13001
데자	-13002
ics	-13003
▁경량	-13004
▁레아	-13005
▁모란	-13006
▁변종	-13007
▁샤이	-13008
▁진흙	-13009
▁캐피	-13010
▁햇빛	-13011
▁허목	-13012
▁Don	-13013
▁아이콘	-13014
▁초록색	-13015
▁하얀색	-13016
▁화학자	-13017
데자네이	-13018
ru	-13019
쿠니	-13020
▁도봉	-13021
▁발산	-13022
▁복역	-13023
▁브렌	-13024
▁오스트리	-13025
▁튼	-13026
번에	-13027
클럽	-13028
▁메우	-13029
▁발하	-13030
▁생도	-13031
▁지경	-13032
▁친밀	-13033
▁격투기	-13034
▁세군다	-13035
▁호크스	-13036
▁하이브리드	-13037
ier	-13038
▁가든	-13039
▁탄산	-13040
▁ㅇㅡㄹㅣㄹㅏ	-13041
▁Sm	-13042
▁넥센	-13043
▁대강	-13044
▁반죽	-13045
▁순항	-13046
▁오트	-13047
▁이례	-13048
▁장쑤	-13049
▁투하	-13050
▁티모	-13051
▁계승자	-13052
▁다시금	-13053
▁파충류	-13054
▁1863	-13055
▁도르트문트	-13056
바인	-13057
▁Ab	-13058
▁가독	-13059
▁배향	-13060
▁보정	-13061
▁슈고	-13062
▁옹주	-13063
▁작품상	-13064
▁탐험가	-13065
▁1865	-13066
▁"-	-13067
▁납작	-13068
▁당과	-13069
▁매스	-13070
▁파기	-13071
리아스	-13072
▁개체군	-13073
▁밀가루	-13074
▁박영효	-13075
▁항아리	-13076
리야	-13077
매김	-13078
워즈	-13079
▁과다	-13080
▁닌자	-13081
▁단국	-13082
▁봉황	-13083
▁피셔	-13084
▁휩싸	-13085
▁기획사	-13086
▁시간대	-13087
▁타임즈	-13088
▁쵸	-13089
리쿠	-13090
▁덴쇼	-13091
▁작년	-13092
▁편제	-13093
▁피카	-13094
▁난이도	-13095
▁HTML	-13096
▁교통사고	-13097
단위	-13098
루크	-13099
▁왓슨	-13100
▁코마	-13101
▁탐정	-13102
▁페라	-13103
▁앞세우	-13104
▁유전체	-13105
▁챌린저	-13106
▁공군기지	-13107
데자네이루	-13108
▁리우데자네이루	-13109
▁거꾸	-13110
▁청문	-13111
▁클릭	-13112
▁고성군	-13113
▁승정원	-13114
▁1891	-13115
▁오카야마	-13116
▁Night	-13117
친왕	-13118
▁살짝	-13119
▁잠기	-13120
▁조공	-13121
▁조시	-13122
▁발기인	-13123
▁우간다	-13124
ode	-13125
▁곱셈	-13126
▁대의	-13127
▁어촌	-13128
▁경복궁	-13129
▁유니언	-13130
ool	-13131
▁AL	-13132
▁곡면	-13133
▁란스	-13134
▁처방	-13135
▁취향	-13136
▁아이디얼	-13137
▁자리매김	-13138
▁경마	-13139
▁고난	-13140
▁구슬	-13141
▁메츠	-13142
▁애완	-13143
▁태아	-13144
▁안산시	-13145
▁1873	-13146
미쓰	-13147
훈장	-13148
▁대목	-13149
▁미인	-13150
▁법전	-13151
▁철종	-13152
▁포대	-13153
▁한창	-13154
▁ret	-13155
▁선제골	-13156
▁앤드류	-13157
▁여진족	-13158
▁조선소	-13159
▁켄터키	-13160
▁박진	-13161
▁완비	-13162
▁요즘	-13163
▁직관	-13164
올로기	-13165
▁베스트셀러	-13166
▁이데올로기	-13167
TE	-13168
▁쩔	-13169
쿠르	-13170
▁경지	-13171
▁벌리	-13172
▁열렬	-13173
▁조장	-13174
▁카슈	-13175
▁킹스	-13176
▁승용차	-13177
▁세계유산	-13178
▁짐바브웨	-13179
타스	-13180
ise	-13181
▁굴복	-13182
▁내재	-13183
▁두텁	-13184
▁루즈	-13185
▁배아	-13186
▁충당	-13187
▁픽셀	-13188
▁해킹	-13189
▁와이드	-13190
QL	-13191
UC	-13192
▁--	-13193
▁구강	-13194
▁반점	-13195
▁쇼크	-13196
▁입시	-13197
▁재고	-13198
▁정명	-13199
▁후미	-13200
▁다국적	-13201
▁받침돌	-13202
▁수시로	-13203
▁자유형	-13204
▁려	-13205
스레	-13206
▁계좌	-13207
▁고마	-13208
▁상파	-13209
▁시진	-13210
▁어는	-13211
▁여대	-13212
이스케	-13213
▁단자	-13214
▁리브	-13215
▁부실	-13216
▁부추	-13217
▁코뮌	-13218
▁혈압	-13219
▁몰도바	-13220
▁포항시	-13221
ai	-13222
▁PM	-13223
▁걸작	-13224
▁도도	-13225
▁매립	-13226
▁모함	-13227
▁촉발	-13228
▁노르드	-13229
▁릴레이	-13230
▁발가락	-13231
▁ㅇㅕㄷㅗ	-13232
▁온타리오주	-13233
▁샨	-13234
린더	-13235
▁NS	-13236
▁기쁘	-13237
▁마모	-13238
▁공통점	-13239
▁그나마	-13240
▁제너럴	-13241
▁테무르	-13242
동맹	-13243
che	-13244
▁과격	-13245
▁리키	-13246
▁비키	-13247
▁자켓	-13248
▁착취	-13249
▁필두	-13250
stem	-13251
▁국민회	-13252
▁MA	-13253
▁급하	-13254
▁등단	-13255
▁반항	-13256
▁신대	-13257
▁외상	-13258
▁위법	-13259
▁토로	-13260
▁튼튼	-13261
▁헤어	-13262
플렉스	-13263
▁시티즌	-13264
▁샵	-13265
레반	-13266
▁볼넷	-13267
▁입술	-13268
▁합금	-13269
▁백악관	-13270
▁제프리	-13271
▁팔작지붕	-13272
▁Black	-13273
무제	-13274
▁계엄	-13275
▁리자	-13276
▁신의	-13277
▁야심	-13278
▁현무	-13279
부아르	-13280
합중국	-13281
▁매달리	-13282
▁괜	-13283
▁국호	-13284
▁양궁	-13285
▁인위	-13286
▁최장	-13287
▁페인	-13288
▁하스	-13289
▁Can	-13290
▁공식전	-13291
▁슬로건	-13292
▁종업원	-13293
▁야쿠르트	-13294
성경	-13295
▁교서	-13296
▁극찬	-13297
▁라크	-13298
▁분경	-13299
▁불로	-13300
▁유태	-13301
▁통지	-13302
▁해시	-13303
▁김성수	-13304
70	-13305
바지	-13306
세다	-13307
▁당당	-13308
▁라면	-13309
▁에치	-13310
▁연화	-13311
▁적발	-13312
▁조준	-13313
▁체내	-13314
▁키즈	-13315
ower	-13316
▁Good	-13317
NG	-13318
▁믈	-13319
▁켜	-13320
킨슨	-13321
▁간판	-13322
▁병단	-13323
▁서위	-13324
▁아뢰	-13325
▁용감	-13326
▁스테이트	-13327
▁구시	-13328
▁버펄	-13329
▁산책	-13330
▁거꾸로	-13331
▁삼국유사	-13332
▁이바라키	-13333
▁section	-13334
▁콧	-13335
▁광배	-13336
▁네임	-13337
▁병과	-13338
▁소작	-13339
▁양양	-13340
▁을사	-13341
▁이강	-13342
▁토유	-13343
▁헌병	-13344
선거구	-13345
▁550	-13346
▁다마스	-13347
▁트로트	-13348
▁무로마치	-13349
▁머니	-13350
▁문정	-13351
▁부에	-13352
▁우마	-13353
▁파랑	-13354
타나베	-13355
▁하반기	-13356
▁아비달마	-13357
▁피츠버그	-13358
상어	-13359
▁qu	-13360
▁증강	-13361
▁터빈	-13362
▁705	-13363
▁Let	-13364
▁댈	-13365
▁나탈	-13366
▁무고	-13367
▁앵커	-13368
▁연행	-13369
▁주저	-13370
▁캐논	-13371
▁지자체	-13372
▁취리히	-13373
▁1862	-13374
▁페르디난트	-13375
▁q	-13376
티야	-13377
펠러	-13378
▁산신	-13379
▁오즈	-13380
▁흔들	-13381
▁반정부	-13382
▁캐스트	-13383
▁1867	-13384
▁El	-13385
▁MM	-13386
▁국부	-13387
▁무도	-13388
▁아델	-13389
▁진언	-13390
▁진원	-13391
▁채굴	-13392
▁피어	-13393
▁현도	-13394
스코트	-13395
▁650	-13396
▁앨버트	-13397
▁삐	-13398
진구	-13399
ank	-13400
▁독주	-13401
▁모반	-13402
▁서지	-13403
▁황폐	-13404
드라마	-13405
▁크루즈	-13406
▁아오모리	-13407
▁이노우에	-13408
▁코호몰로지	-13409
▁광자	-13410
▁농성	-13411
▁맞춤	-13412
▁타도	-13413
▁미카엘	-13414
▁스테이	-13415
레타리아	-13416
해살이풀	-13417
▁미합중국	-13418
▁프롤레타리아	-13419
대전	-13420
방군	-13421
정사	-13422
▁AI	-13423
▁경은	-13424
▁조어	-13425
▁증발	-13426
▁해지	-13427
▁IMF	-13428
▁연주회	-13429
▁용산구	-13430
▁자외선	-13431
▁투신	-13432
▁활자	-13433
ings	-13434
▁스코어	-13435
▁알폰소	-13436
▁폼페이	-13437
곡면	-13438
▁가비	-13439
▁북벌	-13440
▁세단	-13441
▁송진	-13442
▁수퍼	-13443
▁열쇠	-13444
▁온건	-13445
▁전멸	-13446
▁흡연	-13447
▁경희대	-13448
▁서두르	-13449
▁대담	-13450
▁사교	-13451
▁심정	-13452
세우스	-13453
▁변광성	-13454
▁증조부	-13455
▁스킬	-13456
▁손잡이	-13457
▁언론사	-13458
▁엑스포	-13459
▁조선왕조	-13460
니에	-13461
조리	-13462
포타	-13463
▁AU	-13464
▁광업	-13465
▁잔존	-13466
▁조서	-13467
▁국민학교	-13468
DS	-13469
고르	-13470
▁노브	-13471
▁연달	-13472
▁완수	-13473
▁증식	-13474
절도사	-13475
▁사이타마현	-13476
투르	-13477
활약	-13478
▁Ac	-13479
▁군자	-13480
▁양군	-13481
▁예종	-13482
▁옥시	-13483
▁유구	-13484
▁접전	-13485
▁사보이	-13486
▁연출가	-13487
▁타이탄	-13488
▁캣	-13489
렐라	-13490
참찬	-13491
▁걸프	-13492
▁엘라	-13493
▁MSL	-13494
▁레인저	-13495
포타미아	-13496
▁신한은행	-13497
▁메소포타미아	-13498
센터	-13499
▁LS	-13500
▁UC	-13501
▁보직	-13502
▁장신	-13503
▁저축	-13504
▁쿠라	-13505
▁노르만	-13506
▁맹활약	-13507
▁6000	-13508
▁빠져나가	-13509
▁라이프치히	-13510
▁썩	-13511
▁기묘	-13512
▁성수	-13513
▁씌우	-13514
▁온두	-13515
▁위헌	-13516
▁캐치	-13517
▁코모	-13518
▁키릴	-13519
▁페드로	-13520
▁온두라스	-13521
북면	-13522
lar	-13523
▁처치	-13524
▁치이	-13525
▁푸드	-13526
▁횡령	-13527
▁곁들이	-13528
▁대리석	-13529
▁사무국	-13530
비언	-13531
인구	-13532
▁국력	-13533
▁꽃잎	-13534
▁나사	-13535
▁처장	-13536
▁감염증	-13537
▁일본식	-13538
▁출입문	-13539
▁편집장	-13540
▁궐	-13541
▁-&	-13542
▁간결	-13543
▁상선	-13544
▁서한	-13545
▁충칭	-13546
▁기원후	-13547
▁다이노스	-13548
▁낡	-13549
디언	-13550
▁변증	-13551
▁엘레	-13552
▁오보	-13553
▁조석	-13554
▁협동조합	-13555
tr	-13556
ㄹㅜ	-13557
▁강호	-13558
▁동탁	-13559
▁버진	-13560
▁세토	-13561
▁신해	-13562
▁1878	-13563
▁미나모토노	-13564
ky	-13565
할린	-13566
▁루피	-13567
▁유림	-13568
▁유망	-13569
▁차림	-13570
▁마그네	-13571
▁부여군	-13572
▁신기록	-13573
▁치료제	-13574
▁컴파일	-13575
▁타타르	-13576
중추부사	-13577
▁프로모션	-13578
▁밋	-13579
사화	-13580
▁Qu	-13581
▁동자	-13582
▁변모	-13583
▁스톰	-13584
▁시역	-13585
▁작중	-13586
rist	-13587
▁갈아타	-13588
▁건륭제	-13589
▁웨이브	-13590
▁백과사전	-13591
▁샴	-13592
위치	-13593
젤로	-13594
▁ㅁㅗ	-13595
▁당파	-13596
▁도발	-13597
▁매도	-13598
▁번개	-13599
▁자행	-13600
▁지그	-13601
▁지탱	-13602
▁직교	-13603
▁필명	-13604
▁Ser	-13605
▁제조사	-13606
ta	-13607
퉁이	-13608
hem	-13609
▁가극	-13610
▁고찰	-13611
▁무너	-13612
▁사드	-13613
▁옥천	-13614
▁절약	-13615
▁참패	-13616
▁사대부	-13617
▁프리츠	-13618
▁되돌아가	-13619
▁무너뜨리	-13620
▁뵈	-13621
▁완만	-13622
▁이끼	-13623
▁표출	-13624
플로러	-13625
▁주고받	-13626
▁홀딩스	-13627
▁익스플로러	-13628
▁팍	-13629
시게	-13630
▁괄호	-13631
▁중용	-13632
▁충신	-13633
▁하중	-13634
▁HMS	-13635
▁이성질	-13636
▁고등학생	-13637
▁비스마르크	-13638
빌리	-13639
▁개기	-13640
▁국인	-13641
▁급성	-13642
▁자부	-13643
▁회유	-13644
▁후드	-13645
▁입법부	-13646
▁프로테	-13647
▁DR	-13648
▁바쿠	-13649
▁지린	-13650
▁히노	-13651
▁802	-13652
▁And	-13653
▁경쟁자	-13654
▁뉴기니	-13655
▁무사히	-13656
▁플러그	-13657
ee	-13658
▁ㅣ	-13659
▁킷	-13660
▁팻	-13661
산부	-13662
▁가물	-13663
▁다량	-13664
▁라다	-13665
▁부군	-13666
▁시르	-13667
▁영사	-13668
▁일설	-13669
▁적정	-13670
▁청각	-13671
▁행군	-13672
▁글로브상	-13673
▁스케이트	-13674
▁요리토모	-13675
▁프라이즈	-13676
▁일리노이주	-13677
루엔	-13678
일치	-13679
▁길드	-13680
▁보류	-13681
▁참수	-13682
뉴기니	-13683
▁액세스	-13684
▁플루토	-13685
▁핵분열	-13686
다발	-13687
벤션	-13688
▁매슈	-13689
▁손님	-13690
▁스에	-13691
▁정박	-13692
▁널	-13693
▁밧	-13694
▁부두	-13695
▁애기	-13696
▁용해	-13697
▁육식	-13698
▁일선	-13699
▁직물	-13700
변속기	-13701
시아드	-13702
▁해부학	-13703
▁와타나베	-13704
다스	-13705
▁tr	-13706
▁과자	-13707
▁서점	-13708
▁소피	-13709
▁잉크	-13710
▁저해	-13711
▁점진	-13712
▁와세다	-13713
▁이브스	-13714
▁1869	-13715
▁유니버시아드	-13716
▁ㄹㅏㅁㅕㄴㅅㅓ	-13717
▁Ag	-13718
▁수레	-13719
▁피처	-13720
▁마포구	-13721
▁불가피	-13722
▁업로드	-13723
▁자릿수	-13724
▁특별법	-13725
▁포뮬러	-13726
누마	-13727
▁고국	-13728
▁현악	-13729
▁페르미	-13730
▁코퍼레이션	-13731
내티	-13732
셔주	-13733
▁객실	-13734
▁몸체	-13735
▁북대	-13736
▁수급	-13737
▁방위군	-13738
▁봉우리	-13739
▁수비대	-13740
▁외교부	-13741
▁쿠르드	-13742
▁ㅇㅡㄹㅓ	-13743
▁신시내티	-13744
▁근방	-13745
▁면직	-13746
▁벵골	-13747
▁솔라	-13748
▁잔해	-13749
▁아이젠	-13750
▁원자핵	-13751
▁그거	-13752
▁기조	-13753
▁다목	-13754
▁맛보	-13755
▁지체	-13756
▁추후	-13757
▁표절	-13758
▁형주	-13759
ㅓㄴㅏ	-13760
▁베르나	-13761
▁인지도	-13762
▁제작진	-13763
▁키르기스	-13764
▁후지와라	-13765
ae	-13766
정보	-13767
▁SO	-13768
▁무비	-13769
▁서거	-13770
▁패킷	-13771
▁포천	-13772
▁포탑	-13773
▁행보	-13774
▁썬	-13775
▁대타	-13776
▁로시	-13777
▁용수	-13778
▁텍스	-13779
▁기동전	-13780
▁1592	-13781
▁명성황후	-13782
▁강우	-13783
▁모티	-13784
▁목동	-13785
▁박원	-13786
▁항생	-13787
▁사생활	-13788
▁안동시	-13789
▁장로회	-13790
▁고을	-13791
▁성품	-13792
▁오자	-13793
▁유화	-13794
▁축일	-13795
▁골짜기	-13796
▁수도회	-13797
▁영유권	-13798
▁스파이더	-13799
▁친선경기	-13800
▁AA	-13801
▁반입	-13802
▁부관	-13803
▁이목	-13804
스타인	-13805
ount	-13806
▁운동량	-13807
▁인코딩	-13808
▁프라임	-13809
▁탬	-13810
노르	-13811
▁무색	-13812
▁수당	-13813
▁시시	-13814
▁위도	-13815
▁자처	-13816
▁토라	-13817
▁생화학	-13818
▁오스카	-13819
마디	-13820
암사	-13821
티컷	-13822
▁글렌	-13823
▁금색	-13824
▁논산	-13825
▁빈민	-13826
▁사부	-13827
▁쫓기	-13828
▁치사	-13829
▁콜드	-13830
▁포자	-13831
▁헤더	-13832
▁부등식	-13833
▁유엔군	-13834
▁코네티컷	-13835
세르	-13836
▁그물	-13837
▁민심	-13838
▁상의	-13839
▁컴필	-13840
▁로타르	-13841
▁며느리	-13842
▁목적지	-13843
▁연예계	-13844
▁지하역	-13845
▁Song	-13846
▁컴필레이션	-13847
▁크리스티나	-13848
수염	-13849
▁국세	-13850
▁내란	-13851
▁사소	-13852
▁소박	-13853
▁자정	-13854
▁토키	-13855
가르트	-13856
▁금강산	-13857
▁여객기	-13858
▁팔꿈치	-13859
▁1840	-13860
자원	-13861
▁PL	-13862
▁위즈	-13863
▁절친	-13864
▁바닷물	-13865
▁파시스트	-13866
▁프랑스와	-13867
BI	-13868
▁낯	-13869
네르	-13870
작전	-13871
▁단역	-13872
▁린다	-13873
▁빅터	-13874
▁숙소	-13875
▁폴라	-13876
▁516	-13877
▁Mon	-13878
▁리차드	-13879
▁ㄴㅑㄱㅗ	-13880
ata	-13881
▁RC	-13882
▁가방	-13883
▁지문	-13884
▁출국	-13885
▁헤겔	-13886
▁강력히	-13887
▁네이트	-13888
▁유년기	-13889
▁마스코트	-13890
▁힐베르트	-13891
▁로드리게스	-13892
구스	-13893
▁가곡	-13894
▁귀인	-13895
▁분별	-13896
▁아어	-13897
▁캐슬	-13898
▁쿼터	-13899
▁아우구스	-13900
▁여우원숭이	-13901
pr	-13902
per	-13903
▁닉스	-13904
▁물론	-13905
▁변질	-13906
▁암수	-13907
▁추축	-13908
▁티저	-13909
▁풍기	-13910
▁하수	-13911
▁레지스터	-13912
▁랙	-13913
블릿	-13914
ade	-13915
▁me	-13916
▁고제	-13917
▁디나	-13918
▁벤츠	-13919
▁병풍	-13920
▁자취	-13921
▁튜브	-13922
▁하라	-13923
▁헤일	-13924
▁에이전트	-13925
▁볶	-13926
효소	-13927
▁공상	-13928
▁넘버	-13929
▁다쓰	-13930
▁단서	-13931
▁상식	-13932
▁자루	-13933
▁휘발	-13934
▁과반수	-13935
▁시니어	-13936
▁창립자	-13937
▁사이언스	-13938
▁심리학자	-13939
▁Heart	-13940
▁아나톨리아	-13941
▁return	-13942
▁KN	-13943
▁바쁘	-13944
▁블러	-13945
▁심소	-13946
▁영수	-13947
▁유이	-13948
▁최하	-13949
▁패망	-13950
▁패스트	-13951
▁필사본	-13952
▁벳	-13953
부시	-13954
히메	-13955
▁거창	-13956
▁국화	-13957
▁백조	-13958
▁영미	-13959
▁유자	-13960
▁입출	-13961
ㅇㅡㄴ	-13962
▁그래도	-13963
▁글러브	-13964
▁떠올리	-13965
▁종착역	-13966
▁히타치	-13967
▁매킨토시	-13968
▁지장보살	-13969
▁Pe	-13970
▁ab	-13971
▁계룡	-13972
▁성가	-13973
▁수만	-13974
▁자질	-13975
▁천상	-13976
▁출세	-13977
▁탁구	-13978
이치로	-13979
▁맥아더	-13980
▁휩싸이	-13981
90	-13982
찬성	-13983
▁란트	-13984
▁발착	-13985
▁성대	-13986
▁워스	-13987
▁유골	-13988
▁전단	-13989
▁구단주	-13990
▁테크놀	-13991
▁파주시	-13992
사우루스	-13993
▁펜실베이니아주	-13994
테랑	-13995
▁괜찮	-13996
▁렉스	-13997
▁염화	-13998
▁나치오	-13999
▁스트림	-14000
▁예언자	-14001
▁와카야마	-14002
▁Windows	-14003
날드	-14004
ium	-14005
▁농가	-14006
▁쌍성	-14007
▁이카	-14008
▁뒤따르	-14009
▁8000	-14010
히데	-14011
▁거사	-14012
▁겸직	-14013
▁라라	-14014
▁미학	-14015
▁악명	-14016
▁여포	-14017
▁보유자	-14018
▁세미나	-14019
▁어도비	-14020
▁적십자	-14021
▁그린란드	-14022
IX	-14023
▁강인	-14024
▁권익	-14025
▁끌리	-14026
▁능가	-14027
▁상과	-14028
▁스택	-14029
▁온실	-14030
▁청취	-14031
▁퀴즈	-14032
▁비둘기	-14033
▁엇갈리	-14034
▁지질학	-14035
▁ㄴㅣㄲㅏ	-14036
▁ㄹㅏㅇㅜ	-14037
▁영등포구	-14038
어하	-14039
전선	-14040
▁Gl	-14041
▁라프	-14042
▁베오	-14043
▁실상	-14044
▁오시	-14045
▁윤휴	-14046
▁페레	-14047
▁흥원	-14048
▁관심사	-14049
▁남아시아	-14050
넌트	-14051
선언	-14052
▁바보	-14053
▁바인	-14054
▁에트	-14055
▁의주	-14056
▁중견	-14057
▁초음	-14058
▁하구	-14059
크라테스	-14060
▁알프레드	-14061
▁아나키스트	-14062
▁세인트루이스	-14063
IF	-14064
욕장	-14065
▁규율	-14066
▁기행	-14067
▁문중	-14068
▁반론	-14069
▁의복	-14070
▁조비	-14071
▁댈러스	-14072
▁1875	-14073
던트	-14074
▁As	-14075
▁뉴런	-14076
▁박히	-14077
▁시찰	-14078
▁연중	-14079
▁피살	-14080
▁시미즈	-14081
▁운전자	-14082
▁데카르트	-14083
계사	-14084
테이	-14085
▁동호	-14086
▁왜군	-14087
▁임종	-14088
▁저그	-14089
▁Out	-14090
▁채권자	-14091
▁헤르만	-14092
▁되돌아오	-14093
링겐	-14094
수단	-14095
▁상동	-14096
▁숙련	-14097
▁준동	-14098
▁침식	-14099
▁고문서	-14100
▁안창호	-14101
▁진주시	-14102
▁집단군	-14103
▁Aw	-14104
▁노현	-14105
▁삭감	-14106
▁유카	-14107
▁이심	-14108
▁나리타	-14109
▁이와테	-14110
▁모자이크	-14111
▁강습	-14112
▁니케	-14113
▁다름	-14114
▁들르	-14115
▁볼록	-14116
▁사각	-14117
▁신지	-14118
▁외척	-14119
▁담당자	-14120
▁보리스	-14121
▁근본번뇌	-14122
기즈	-14123
탄두	-14124
▁도적	-14125
▁독살	-14126
▁마레	-14127
▁양파	-14128
▁은밀	-14129
▁직렬	-14130
▁친화	-14131
▁콜린	-14132
▁안타깝	-14133
구니	-14134
기아	-14135
▁디바	-14136
▁웍스	-14137
▁질투	-14138
▁징집	-14139
▁키리	-14140
▁표제	-14141
▁토요타	-14142
▁회고록	-14143
▁귀엽	-14144
▁기린	-14145
▁도우	-14146
▁뒤지	-14147
▁몹시	-14148
▁미지	-14149
▁수증	-14150
▁호른	-14151
▁Gen	-14152
▁예비역	-14153
▁치료법	-14154
▁고등교육	-14155
이에	-14156
itt	-14157
▁VS	-14158
▁김연	-14159
▁설리	-14160
▁아다	-14161
▁예프	-14162
▁원단	-14163
▁철자	-14164
▁최남	-14165
▁타나	-14166
▁호그	-14167
▁게임기	-14168
▁사이즈	-14169
▁표트르	-14170
▁남양주시	-14171
보당	-14172
사유	-14173
▁걸음	-14174
▁교파	-14175
▁노원	-14176
▁선상	-14177
▁여럿	-14178
▁용지	-14179
▁위크	-14180
▁이선	-14181
▁잠입	-14182
▁정오	-14183
▁파랗	-14184
▁한민	-14185
▁혼잡	-14186
레이트	-14187
▁KTX	-14188
▁친환경	-14189
▁컨벤션	-14190
뻐하	-14191
어가	-14192
son	-14193
▁김두	-14194
▁로사	-14195
▁문체	-14196
▁어사	-14197
▁월화	-14198
▁일명	-14199
▁텐서	-14200
▁해트	-14201
▁AMD	-14202
▁기뻐하	-14203
▁리스본	-14204
▁매디슨	-14205
▁일부러	-14206
▁학술지	-14207
▁DB	-14208
▁sh	-14209
▁교훈	-14210
▁면담	-14211
▁방울	-14212
▁셔틀	-14213
▁이희	-14214
▁인승	-14215
▁컵스	-14216
▁키드	-14217
▁돌고래	-14218
날레	-14219
▁다자	-14220
▁변혁	-14221
▁의정	-14222
▁절충	-14223
▁착각	-14224
▁출품	-14225
▁통도사	-14226
▁피의자	-14227
▁뉘른베르크	-14228
▁브란덴부르크	-14229
▁막강	-14230
▁목장	-14231
▁생원	-14232
▁열세	-14233
▁첩보	-14234
세데스	-14235
▁아세틸	-14236
▁칭기즈	-14237
▁파라오	-14238
▁함경도	-14239
▁병자호란	-14240
▁쳐들어오	-14241
▁땀	-14242
놀드	-14243
세서	-14244
▁닥치	-14245
▁달콤	-14246
▁서약	-14247
▁아노	-14248
▁에레	-14249
▁외면	-14250
▁취직	-14251
▁터너	-14252
▁강희제	-14253
▁북극점	-14254
▁장갑차	-14255
▁몽고메리	-14256
▁메르세데스	-14257
▁눌	-14258
더링	-14259
어류	-14260
조사	-14261
▁기운	-14262
▁단양	-14263
▁리크	-14264
▁문관	-14265
▁순식	-14266
▁어부	-14267
▁집전	-14268
▁타쿠	-14269
에이고	-14270
▁강대국	-14271
▁테오도	-14272
▁샌디에이고	-14273
▁포르투갈어	-14274
PA	-14275
방향	-14276
은사	-14277
▁금정	-14278
▁비료	-14279
▁선체	-14280
▁슈투	-14281
▁안중	-14282
▁야수	-14283
▁레스터	-14284
▁이사벨	-14285
▁크메르	-14286
알라	-14287
엽수	-14288
▁TS	-14289
▁로큰	-14290
▁바늘	-14291
▁배반	-14292
▁아지	-14293
▁의성	-14294
▁태안	-14295
able	-14296
▁380	-14297
▁가환환	-14298
▁광둥성	-14299
▁다이쇼	-14300
▁성폭행	-14301
▁통신망	-14302
▁항공대	-14303
▁구루	-14304
▁생쥐	-14305
▁실명	-14306
▁체로	-14307
▁특공	-14308
해방군	-14309
▁꽃차례	-14310
▁데이트	-14311
▁슈타인	-14312
▁스케치	-14313
▁연속극	-14314
▁클리어	-14315
▁인민해방군	-14316
▁디디	-14317
▁버트	-14318
▁서당	-14319
▁원효	-14320
록대부	-14321
▁야마다	-14322
▁중앙선	-14323
▁안드로메다	-14324
▁교관	-14325
▁양지	-14326
▁포인	-14327
▁"()	-14328
▁송파구	-14329
▁신석기	-14330
▁이랜드	-14331
▁저널리스트	-14332
두사	-14333
부대	-14334
ale	-14335
▁기판	-14336
▁레몬	-14337
▁율법	-14338
▁폐허	-14339
▁로큰롤	-14340
▁바나나	-14341
▁베르트	-14342
▁부적절	-14343
▁쇼핑몰	-14344
▁스피커	-14345
▁종사자	-14346
▁코트디	-14347
▁클레어	-14348
▁행해지	-14349
▁페널티킥	-14350
▁코트디부아르	-14351
ng	-14352
세키	-14353
▁모질	-14354
▁방호	-14355
▁세일	-14356
▁예식	-14357
▁인먼	-14358
▁로버츠	-14359
▁비단털	-14360
▁싫어하	-14361
▁크라운	-14362
몽골	-14363
촌리	-14364
▁KO	-14365
▁감기	-14366
▁동거	-14367
▁라울	-14368
▁로바	-14369
▁성행	-14370
▁애착	-14371
▁영락	-14372
▁왕래	-14373
▁칸트	-14374
루엔자	-14375
▁Par	-14376
▁아리랑	-14377
스코리아	-14378
▁비단털쥐	-14379
▁오프라인	-14380
▁기공	-14381
▁명상	-14382
▁슬리	-14383
▁일차	-14384
▁반감기	-14385
▁상반기	-14386
▁파스칼	-14387
르카	-14388
▁교화	-14389
▁래리	-14390
▁수마	-14391
▁술라	-14392
▁스펜	-14393
▁안식	-14394
▁자장	-14395
▁마주치	-14396
▁프론트	-14397
▁끌어올리	-14398
▁바빌로니아	-14399
우주	-14400
크리	-14401
▁가모	-14402
▁기마	-14403
▁모피	-14404
▁수은	-14405
▁실은	-14406
▁헤센	-14407
▁환율	-14408
▁활기	-14409
▁ㄹㅗㄹ	-14410
▁맥스웰	-14411
▁정치국	-14412
▁WC	-14413
▁결전	-14414
▁구아	-14415
▁금환	-14416
▁보그	-14417
▁보우	-14418
▁야권	-14419
▁장정	-14420
▁정에	-14421
▁중일	-14422
▁708	-14423
▁선거인	-14424
▁University	-14425
UN	-14426
박사	-14427
시대	-14428
행파	-14429
▁극소	-14430
▁모사	-14431
▁사주	-14432
▁서클	-14433
▁엔젤	-14434
▁이홍	-14435
▁잉카	-14436
▁향신	-14437
▁대항전	-14438
▁형용사	-14439
▁관음보살	-14440
▁보컬리스트	-14441
▁가세	-14442
▁모체	-14443
▁문수	-14444
▁위트	-14445
▁출격	-14446
▁205	-14447
▁Vol	-14448
▁건너오	-14449
▁라이베리아	-14450
▁탭	-14451
▁가명	-14452
▁거머	-14453
▁구세	-14454
▁동군	-14455
▁정언	-14456
▁정칙	-14457
▁후루	-14458
▁ATC	-14459
▁데뷔작	-14460
▁보호법	-14461
▁합성어	-14462
건설	-14463
▁At	-14464
▁규약	-14465
▁야코	-14466
▁열악	-14467
▁순식간	-14468
▁콘라트	-14469
▁벙	-14470
데기	-14471
▁경순	-14472
▁경의	-14473
▁라벨	-14474
▁샤르	-14475
▁실사	-14476
▁이질	-14477
▁즐거	-14478
▁획기	-14479
▁되풀이	-14480
▁보조금	-14481
▁사할린	-14482
▁싯	-14483
연구	-14484
▁데일	-14485
▁로니	-14486
▁복부	-14487
▁조봉	-14488
very	-14489
▁ᄇㅅㅣ	-14490
▁통계청	-14491
▁쇼트트랙	-14492
▁엑스박스	-14493
▁인플루엔자	-14494
쿠사	-14495
▁미첼	-14496
▁집사	-14497
▁ㄷㅏㄴ	-14498
▁사학자	-14499
▁슈미트	-14500
▁캐스터	-14501
▁조선공산당	-14502
▁텅	-14503
윽고	-14504
▁JC	-14505
▁경종	-14506
▁구타	-14507
▁기미	-14508
▁박용	-14509
▁박재	-14510
▁외손	-14511
▁월남	-14512
▁치마	-14513
▁NBC	-14514
▁김해시	-14515
▁이윽고	-14516
▁IR	-14517
▁금하	-14518
▁배당	-14519
▁베티	-14520
▁불쾌	-14521
▁상계	-14522
▁시의	-14523
▁아연	-14524
▁안톤	-14525
▁에코	-14526
▁염두	-14527
▁외할	-14528
▁토피	-14529
▁235	-14530
▁개그맨	-14531
▁스케줄	-14532
▁시마즈	-14533
▁name	-14534
▁로베르토	-14535
루즈	-14536
모음	-14537
벌리	-14538
양이	-14539
▁군복	-14540
▁등산	-14541
▁자위	-14542
▁초계	-14543
▁후한	-14544
▁DOS	-14545
▁가이아	-14546
▁호흡기	-14547
▁엣	-14548
▁서안	-14549
▁수역	-14550
▁양극	-14551
▁양서	-14552
▁에노	-14553
▁자키	-14554
▁재화	-14555
▁칼륨	-14556
▁호로	-14557
폴리탄	-14558
▁메트로폴리탄	-14559
사와	-14560
▁남단	-14561
▁내림	-14562
▁노카	-14563
▁비옥	-14564
▁정글	-14565
▁풀백	-14566
co	-14567
▁뤄	-14568
▁골절	-14569
▁나기	-14570
▁마흐	-14571
▁사미	-14572
▁안팎	-14573
▁외삼	-14574
▁우기	-14575
▁하산	-14576
▁후이	-14577
▁스케일	-14578
▁최성기	-14579
▁그레이엄	-14580
▁셴	-14581
화당	-14582
▁리나	-14583
▁불복	-14584
▁석기	-14585
▁솜씨	-14586
▁신병	-14587
▁유충	-14588
▁족장	-14589
▁타시	-14590
▁tvN	-14591
▁남극점	-14592
▁자격증	-14593
▁테두리	-14594
▁지하철역	-14595
▁랠	-14596
▁cc	-14597
▁경화	-14598
▁대류	-14599
▁무능	-14600
▁병렬	-14601
▁안심	-14602
▁웨어	-14603
▁케리	-14604
▁코바	-14605
▁포니	-14606
▁화승	-14607
▁브로드웨이	-14608
에쓰	-14609
황색	-14610
▁라가	-14611
▁실효	-14612
▁재보	-14613
▁카로	-14614
▁한겨	-14615
▁사무관	-14616
▁열역학	-14617
▁조각상	-14618
▁채무자	-14619
▁우두머리	-14620
so	-14621
그램	-14622
보라	-14623
큐슈	-14624
▁띄우	-14625
▁버니	-14626
▁종가	-14627
▁통솔	-14628
▁간호사	-14629
▁당뇨병	-14630
▁로페스	-14631
▁안드레	-14632
18	-14633
르산	-14634
▁가뭄	-14635
▁균일	-14636
▁나한	-14637
▁세스	-14638
▁소론	-14639
▁오마	-14640
▁축복	-14641
▁패치	-14642
▁반대편	-14643
▁안양시	-14644
▁천도교	-14645
▁This	-14646
▁미스코리아	-14647
▁아우구스투스	-14648
▁맴	-14649
IVE	-14650
▁고층	-14651
▁뉴멕	-14652
▁부엌	-14653
▁요직	-14654
▁이달	-14655
▁일간	-14656
▁창구	-14657
▁키타	-14658
▁키트	-14659
▁협곡	-14660
▁화원	-14661
▁동아리	-14662
▁시그마	-14663
▁신호장	-14664
▁뉴멕시코	-14665
▁중앙아메리카	-14666
yn	-14667
▁잼	-14668
▁동백	-14669
▁리시	-14670
▁무가	-14671
▁시제	-14672
▁양평	-14673
▁정승	-14674
▁줄곧	-14675
▁공주시	-14676
▁파푸아뉴기니	-14677
나들	-14678
열대	-14679
텐셜	-14680
ATO	-14681
▁마늘	-14682
▁무예	-14683
▁산조	-14684
▁악당	-14685
▁은폐	-14686
▁일주	-14687
▁칠성	-14688
▁침범	-14689
스크림	-14690
▁거주자	-14691
▁조각가	-14692
▁카디널	-14693
▁유가행파	-14694
▁일삼	-14695
▁잔혹	-14696
▁확충	-14697
▁다가가	-14698
▁라스트	-14699
▁스틸러스	-14700
신저	-14701
악산	-14702
주크	-14703
ala	-14704
▁기스	-14705
▁숙박	-14706
▁중남	-14707
▁한복	-14708
▁홍익	-14709
▁교육감	-14710
▁무지개	-14711
▁트레일	-14712
▁1874	-14713
▁일렉트릭	-14714
▁sp	-14715
▁ㅅㅏ	-14716
▁기닿	-14717
▁다쿠	-14718
▁몰수	-14719
▁이색	-14720
진보당	-14721
▁재미있	-14722
▁퍼텐셜	-14723
▁컨퍼런스	-14724
시험	-14725
▁넷플	-14726
▁레나	-14727
▁발작	-14728
▁베크	-14729
▁잔여	-14730
▁성폭력	-14731
▁저스틴	-14732
▁넷플릭스	-14733
▁콘퍼런스	-14734
징어	-14735
net	-14736
▁메모	-14737
▁묘호	-14738
▁빌드	-14739
▁판명	-14740
▁향수	-14741
▁가요제	-14742
▁동남쪽	-14743
▁에스컬	-14744
▁클로드	-14745
▁한겨레	-14746
▁항공편	-14747
▁휴대폰	-14748
▁바그다드	-14749
▁호소카와	-14750
▁알렉산데르	-14751
▁에스컬레이터	-14752
프랑	-14753
▁가온	-14754
▁라플	-14755
▁송이	-14756
▁읍성	-14757
▁인스	-14758
▁젠더	-14759
▁조동	-14760
▁캠벨	-14761
▁학당	-14762
▁204	-14763
▁대수학	-14764
▁서스펜	-14765
▁앞바다	-14766
▁후쿠이	-14767
▁벚	-14768
운수	-14769
▁낭비	-14770
▁미겔	-14771
▁발판	-14772
▁소양	-14773
▁손목	-14774
▁싱크	-14775
▁이문	-14776
▁잉여	-14777
▁쿠마	-14778
▁게임즈	-14779
▁지리산	-14780
▁1877	-14781
▁ᆫㄷㅏㄴ	-14782
▁바이마르	-14783
▁퀄	-14784
소문	-14785
ody	-14786
▁결말	-14787
▁리타	-14788
▁맞물	-14789
▁옥사	-14790
▁품목	-14791
야누스	-14792
▁뉴올리	-14793
▁오르간	-14794
▁프레슬리	-14795
ax	-14796
me	-14797
▁흐리	-14798
▁여운형	-14799
▁기울어지	-14800
▁슈퍼스타	-14801
▁콜럼버스	-14802
anc	-14803
▁단발	-14804
▁애드	-14805
▁점하	-14806
▁코크	-14807
▁루이즈	-14808
▁사하라	-14809
▁참전하	-14810
▁7000	-14811
▁오아시스	-14812
▁트라야누스	-14813
더릭	-14814
▁SR	-14815
▁강좌	-14816
▁사중	-14817
▁상한	-14818
▁예멘	-14819
▁주군	-14820
▁코로	-14821
▁하지	-14822
▁허베이	-14823
▁서아프리카	-14824
▁격전	-14825
▁복속	-14826
▁산문	-14827
▁선단	-14828
▁에페	-14829
▁재회	-14830
▁차오	-14831
▁클랜	-14832
▁탄수	-14833
▁원주시	-14834
▁멀티미디어	-14835
민당	-14836
ash	-14837
oid	-14838
▁도형	-14839
▁아킬	-14840
▁행선	-14841
어나오	-14842
▁Bab	-14843
▁공학자	-14844
▁돌려보내	-14845
▁쿰	-14846
▁AF	-14847
▁GR	-14848
▁강국	-14849
▁그립	-14850
▁델리	-14851
▁민원	-14852
▁본존	-14853
▁앞뒤	-14854
▁양천	-14855
▁APG	-14856
▁중거리	-14857
▁핸드볼	-14858
GB	-14859
au	-14860
혈구	-14861
▁그르	-14862
▁두뇌	-14863
▁모치	-14864
▁무주	-14865
▁바니	-14866
▁석권	-14867
▁순찰	-14868
▁엄지	-14869
▁출사	-14870
▁토바	-14871
▁화염	-14872
▁컨설팅	-14873
▁Best	-14874
높이	-14875
바드	-14876
양구	-14877
ose	-14878
▁경내	-14879
▁고승	-14880
▁곤살	-14881
▁너희	-14882
▁바야	-14883
▁전조	-14884
▁지령	-14885
▁지크	-14886
▁처마	-14887
▁총영	-14888
▁추계	-14889
▁518	-14890
▁교육학	-14891
▁브리스	-14892
▁수백만	-14893
▁클러스터	-14894
ps	-14895
▁툼	-14896
변수	-14897
▁et	-14898
▁깔리	-14899
▁우표	-14900
▁인성	-14901
▁카일	-14902
▁퇴진	-14903
▁Her	-14904
▁비잔틴	-14905
▁셀주크	-14906
▁스타드	-14907
▁아놀드	-14908
▁콜린스	-14909
일기	-14910
▁나일	-14911
▁로망	-14912
▁산체	-14913
▁요가	-14914
▁차명	-14915
▁부르봉	-14916
▁플루토늄	-14917
22	-14918
계약	-14919
를레	-14920
비에	-14921
▁노하	-14922
▁밸브	-14923
▁시발	-14924
▁에볼	-14925
▁오구	-14926
▁오릭스	-14927
▁청문회	-14928
▁한국군	-14929
▁갈릴레오	-14930
▁다카하시	-14931
14	-14932
피크	-14933
ict	-14934
▁건지	-14935
▁결장	-14936
▁공문	-14937
▁뮐러	-14938
▁블랑	-14939
▁숙명	-14940
▁예금	-14941
▁코린	-14942
▁만장일치	-14943
▁캄파니아	-14944
범죄	-14945
▁AE	-14946
▁가선	-14947
▁감축	-14948
▁거시	-14949
▁도안	-14950
▁라임	-14951
▁소르	-14952
▁소인	-14953
▁소주	-14954
▁유창	-14955
▁인계	-14956
▁자성	-14957
▁제지	-14958
▁강화군	-14959
▁경부선	-14960
▁엘비스	-14961
▁포식자	-14962
▁1859	-14963
▁ㅁㅓ	-14964
▁관아	-14965
▁나투	-14966
▁문맥	-14967
▁방학	-14968
▁벗기	-14969
▁상감	-14970
▁승률	-14971
▁완장	-14972
▁1700	-14973
▁Hell	-14974
▁메모리얼	-14975
남면	-14976
토크	-14977
▁YG	-14978
▁도읍	-14979
▁레크	-14980
▁사연	-14981
▁원사	-14982
▁앙드레	-14983
▁레닌주의	-14984
▁스테파노	-14985
▁KS	-14986
▁곡식	-14987
▁대입	-14988
▁뚜껑	-14989
▁중건	-14990
▁CIA	-14991
▁거머쥐	-14992
▁곧이어	-14993
▁전시관	-14994
▁콘티넨	-14995
▁현미경	-14996
▁사무라이	-14997
▁us	-14998
▁니즈	-14999
▁문물	-15000
▁볼드	-15001
▁북측	-15002
▁사병	-15003
▁산재	-15004
▁선과	-15005
▁스펙	-15006
▁요도	-15007
▁원문	-15008
▁율리	-15009
▁재물	-15010
▁루카스	-15011
▁외계인	-15012
▁프리큐어	-15013
장사	-15014
제철	-15015
형제	-15016
▁되살	-15017
▁미켈	-15018
▁미트	-15019
▁서체	-15020
▁스플	-15021
▁의제	-15022
▁퇴치	-15023
▁펭귄	-15024
▁아파치	-15025
▁연방군	-15026
▁클레오	-15027
▁혼합물	-15028
▁도부	-15029
▁뒤덮	-15030
▁명왕	-15031
▁법규	-15032
▁이씨	-15033
▁태화	-15034
▁플랑	-15035
▁게이밍	-15036
▁사다리	-15037
▁아키텐	-15038
▁오리엔	-15039
▁인류학	-15040
13	-15041
15	-15042
▁켐	-15043
EEE	-15044
▁네브	-15045
▁서품	-15046
▁억울	-15047
▁통찰	-15048
▁화음	-15049
▁개화파	-15050
▁돌려주	-15051
▁울트라	-15052
▁라이센스	-15053
▁쓰러뜨리	-15054
란다	-15055
▁과세	-15056
▁리안	-15057
▁쓰리	-15058
▁제비	-15059
▁허물	-15060
▁625	-15061
▁셰퍼드	-15062
▁우에노	-15063
나시	-15064
데일	-15065
로트	-15066
무장	-15067
▁공병	-15068
▁구가	-15069
▁맹렬	-15070
▁모교	-15071
▁부식	-15072
▁블룸	-15073
▁투사	-15074
▁순천시	-15075
▁이론가	-15076
▁이케다	-15077
▁미야기현	-15078
▁자이언트	-15079
▁자카르타	-15080
고사	-15081
마을	-15082
매기	-15083
완다	-15084
▁전범	-15085
▁푸젠	-15086
▁함장	-15087
▁달려가	-15088
▁억제제	-15089
▁핵탄두	-15090
▁테크놀로지	-15091
▁뉴클레오타이드	-15092
VA	-15093
▁멱	-15094
주석	-15095
▁se	-15096
▁롤러	-15097
▁바투	-15098
▁앨라	-15099
▁화소	-15100
▁대사간	-15101
▁제니퍼	-15102
투리	-15103
▁경합	-15104
▁구전	-15105
▁만지	-15106
▁바젤	-15107
▁백운	-15108
▁왕당	-15109
▁전서	-15110
▁후회	-15111
▁서태지	-15112
▁^	-15113
▁웜	-15114
▁챠	-15115
uck	-15116
▁김우	-15117
▁만류	-15118
▁베다	-15119
▁원점	-15120
▁츠카	-15121
▁하층	-15122
▁가치관	-15123
▁빌바오	-15124
▁이주민	-15125
▁출장소	-15126
▁뮈	-15127
동원	-15128
버터	-15129
▁박찬	-15130
▁발터	-15131
▁상환	-15132
▁원만	-15133
▁일어	-15134
▁직사각	-15135
▁환승역	-15136
▁아이스크림	-15137
de	-15138
▁거병	-15139
▁관위	-15140
▁레티	-15141
▁산남	-15142
▁아누	-15143
▁후견	-15144
▁난쟁이	-15145
▁불러오	-15146
▁소아시아	-15147
▁아드리아	-15148
▁크리스틴	-15149
과학	-15150
재판	-15151
▁결여	-15152
▁무공	-15153
▁속국	-15154
▁자갈	-15155
▁적법	-15156
▁결의안	-15157
▁길거리	-15158
▁목표물	-15159
▁미성년	-15160
▁바스크	-15161
▁선제후	-15162
▁카리스	-15163
▁IEEE	-15164
HC	-15165
HL	-15166
▁샷	-15167
나주	-15168
▁군기	-15169
▁사와	-15170
▁여정	-15171
▁총감	-15172
▁피자	-15173
reak	-15174
▁기념장	-15175
▁쓰촨성	-15176
▁출판물	-15177
▁탈레반	-15178
▁트레인	-15179
▁튀어나오	-15180
▁긋	-15181
▁끔	-15182
장조	-15183
▁근간	-15184
▁다윗	-15185
▁로코	-15186
▁백지	-15187
▁변론	-15188
▁왕명	-15189
▁이창	-15190
▁정청	-15191
▁주포	-15192
▁테헤	-15193
▁후면	-15194
▁순교자	-15195
▁아이치	-15196
▁이치현	-15197
조류	-15198
주사	-15199
▁덮치	-15200
▁로보	-15201
▁리언	-15202
▁발광	-15203
▁보어	-15204
▁북인	-15205
▁사산	-15206
▁산술	-15207
▁코이	-15208
▁하후	-15209
▁회차	-15210
▁희미	-15211
▁340	-15212
▁통계학	-15213
▁고바야시	-15214
oo	-15215
▁짚	-15216
스톤	-15217
티지	-15218
ail	-15219
▁FF	-15220
▁경원	-15221
▁수주	-15222
▁오와	-15223
▁자백	-15224
▁조회	-15225
▁튜링	-15226
▁특명	-15227
▁로저스	-15228
▁마코토	-15229
▁미트라	-15230
▁케이드	-15231
▁서바이벌	-15232
▁아미타불	-15233
르바	-15234
패드	-15235
▁김학	-15236
▁뉴잉	-15237
▁도끼	-15238
▁알로	-15239
▁용맹	-15240
▁자네	-15241
▁빈센트	-15242
▁실린더	-15243
▁향신료	-15244
▁as	-15245
▁개경	-15246
▁관군	-15247
▁논증	-15248
▁달력	-15249
▁담양	-15250
▁로디	-15251
▁승낙	-15252
▁이만	-15253
▁일면	-15254
▁장경	-15255
▁대혁명	-15256
▁볼프강	-15257
▁Star	-15258
▁카디널스	-15259
ㄱㅜ	-15260
의식	-15261
▁섹션	-15262
▁안주	-15263
▁전봉	-15264
▁진천	-15265
▁청정	-15266
▁헬스	-15267
▁화풍	-15268
게이트	-15269
▁레이건	-15270
▁지석묘	-15271
▁펙	-15272
ㅇㅏ	-15273
스퍼	-15274
▁발진	-15275
▁보국	-15276
▁양동	-15277
▁오인	-15278
▁유틸	-15279
▁이니	-15280
▁정역	-15281
▁퇴출	-15282
▁폐차	-15283
▁헤라	-15284
▁Sun	-15285
▁로스트	-15286
▁안철수	-15287
▁이광수	-15288
▁정착지	-15289
▁해인사	-15290
▁국가원수	-15291
▁유틸리티	-15292
▁매사추세츠주	-15293
▁공석	-15294
▁도매	-15295
▁문건	-15296
▁미러	-15297
▁보디	-15298
▁상설	-15299
▁어선	-15300
▁홀수	-15301
하마드	-15302
▁교황령	-15303
▁오슬로	-15304
▁거문	-15305
▁금관	-15306
▁나바	-15307
▁베가	-15308
▁사생	-15309
▁상층	-15310
▁수프	-15311
▁입찰	-15312
▁젤리	-15313
▁진심	-15314
▁310	-15315
▁가우스	-15316
▁개척자	-15317
ㄱㅓㄴㅏ	-15318
▁오토바이	-15319
▁Super	-15320
팩스	-15321
플레	-15322
▁구라	-15323
▁부락	-15324
▁세제	-15325
▁손수	-15326
▁추장	-15327
▁타파	-15328
▁통감	-15329
▁개막식	-15330
▁예문관	-15331
▁페스트	-15332
▁어우러지	-15333
댓값	-15334
소니	-15335
▁my	-15336
▁떠돌	-15337
▁아칸	-15338
▁호화	-15339
떨어지	-15340
▁울주군	-15341
▁원정대	-15342
▁얄	-15343
배마	-15344
▁교감	-15345
▁사탄	-15346
▁연해	-15347
▁짝수	-15348
▁커브	-15349
▁타밀	-15350
▁평방	-15351
▁폐하	-15352
▁209	-15353
▁국내선	-15354
▁디에고	-15355
▁아니면	-15356
▁아스카	-15357
▁앨라배마	-15358
구미	-15359
바퀴	-15360
vel	-15361
▁교인	-15362
▁멜라	-15363
▁모션	-15364
▁어학	-15365
▁템플	-15366
▁you	-15367
▁무신론	-15368
▁바빌론	-15369
▁브레멘	-15370
학파	-15371
▁과달	-15372
▁김도	-15373
▁김주	-15374
▁수문	-15375
▁시력	-15376
▁대관식	-15377
▁셀레우	-15378
▁윤치영	-15379
▁그래픽스	-15380
▁유니코드	-15381
▁뉴잉글랜드	-15382
▁후쿠시마현	-15383
▁콘스탄티누스	-15384
▁ad	-15385
▁근세	-15386
▁늦추	-15387
▁뚫리	-15388
▁명륜	-15389
▁산정	-15390
▁추밀	-15391
▁토프	-15392
▁대대장	-15393
▁대제학	-15394
▁에이브	-15395
▁자오선	-15396
▁자치현	-15397
▁1812	-15398
▁뽀	-15399
iel	-15400
▁닷컴	-15401
▁산인	-15402
▁속초	-15403
▁정실	-15404
▁타선	-15405
▁항문	-15406
▁르완다	-15407
▁송진우	-15408
▁Soul	-15409
▁중앙일보	-15410
TF	-15411
▁DO	-15412
▁강유	-15413
▁동급	-15414
▁로컬	-15415
▁맞배	-15416
▁박경	-15417
▁선별	-15418
▁성조	-15419
▁수라	-15420
▁의인	-15421
▁지카	-15422
▁충동	-15423
▁탄두	-15424
▁피그	-15425
▁삼거리	-15426
▁에이지	-15427
구나	-15428
초프	-15429
티어	-15430
▁Kn	-15431
▁김덕	-15432
▁루드	-15433
▁메드	-15434
▁장강	-15435
▁지검	-15436
▁터스	-15437
▁호국	-15438
▁206	-15439
▁한자어	-15440
▁ICBM	-15441
▁모니터링	-15442
▁알렉세이	-15443
▁무형문화재	-15444
▁근위	-15445
▁나시	-15446
▁로런	-15447
▁센타	-15448
▁수구	-15449
▁안면	-15450
▁장지	-15451
▁호이	-15452
▁단말기	-15453
▁에세이	-15454
▁음식점	-15455
▁자본가	-15456
▁접미사	-15457
▁조광조	-15458
▁주거지	-15459
▁선거관리	-15460
▁아이파크	-15461
▁선거관리위원회	-15462
59	-15463
▁름	-15464
▁루손	-15465
▁산동	-15466
▁아호	-15467
▁풀이	-15468
▁슈투트	-15469
▁여수시	-15470
▁John	-15471
▁Christ	-15472
▁슈투트가르트	-15473
샤오	-15474
▁동맥	-15475
▁마다	-15476
▁무위	-15477
▁무진	-15478
▁빨강	-15479
▁손쉽	-15480
▁수질	-15481
▁이건	-15482
▁점토	-15483
▁주유	-15484
▁코우	-15485
▁투니	-15486
하우스	-15487
▁서비스업	-15488
▁쑹	-15489
디드	-15490
▁Mi	-15491
▁Tw	-15492
▁금천	-15493
▁도자	-15494
▁법상	-15495
▁비어	-15496
▁샤오	-15497
▁의논	-15498
▁장이	-15499
▁조던	-15500
▁쪼개	-15501
▁황위	-15502
시아키	-15503
▁조르주	-15504
▁주제가	-15505
▁안토니우스	-15506
네오	-15507
도감	-15508
ute	-15509
▁IF	-15510
▁ON	-15511
▁걸스	-15512
▁배타	-15513
▁세밀	-15514
▁스쿼	-15515
▁연대장	-15516
▁북대서양	-15517
면적	-15518
탄올	-15519
▁교재	-15520
▁집적	-15521
▁천자	-15522
▁춘계	-15523
▁카보	-15524
공화당	-15525
▁747	-15526
▁기생충	-15527
▁록히드	-15528
▁안데스	-15529
▁1879	-15530
▁건국훈장	-15531
▁막시밀리	-15532
▁베르사유	-15533
▁민주공화당	-15534
EA	-15535
gh	-15536
버라	-15537
어놓	-15538
▁귀순	-15539
▁그늘	-15540
▁당상	-15541
▁변성	-15542
▁솔리	-15543
▁차역	-15544
▁철기	-15545
▁초식	-15546
▁콘스	-15547
▁콜론	-15548
▁포상	-15549
▁해주	-15550
▁로널드	-15551
▁ㄴㅏㅁㅏ	-15552
▁아브라함	-15553
▁규합	-15554
▁로지	-15555
▁버밍	-15556
▁범람	-15557
▁양원	-15558
▁어지	-15559
▁하강	-15560
▁보이즈	-15561
▁조봉암	-15562
▁파르마	-15563
태자	-15564
▁과감	-15565
▁구비	-15566
▁스완	-15567
▁정맥	-15568
▁카토	-15569
라이스	-15570
▁고지대	-15571
▁레코딩	-15572
▁석회암	-15573
▁의병장	-15574
▁카지노	-15575
▁테헤란	-15576
▁피어스	-15577
무지	-15578
방스	-15579
▁HP	-15580
▁슬러	-15581
▁아람	-15582
▁영도	-15583
▁청일	-15584
▁카펠	-15585
▁바닷가	-15586
▁제이크	-15587
▁일렉트로닉	-15588
슐리	-15589
▁Mr	-15590
▁고후	-15591
▁공경	-15592
▁논평	-15593
▁니치	-15594
▁대방	-15595
▁도파	-15596
▁딱딱	-15597
▁양념	-15598
▁울루	-15599
▁위축	-15600
▁백두산	-15601
▁사우디	-15602
▁여러분	-15603
▁끔찍	-15604
▁동대	-15605
▁유계	-15606
▁임실	-15607
▁자석	-15608
▁초회	-15609
▁해커	-15610
▁호투	-15611
▁휴일	-15612
▁개개인	-15613
▁게이오	-15614
▁독재자	-15615
▁태블릿	-15616
▁ㅇㅔㄷㅏㄱㅏ	-15617
OK	-15618
▁관개	-15619
▁농담	-15620
▁듀스	-15621
▁리퍼	-15622
▁부기	-15623
▁CoA	-15624
▁des	-15625
▁뉴올리언스	-15626
RI	-15627
네프	-15628
분투	-15629
화산	-15630
▁대여	-15631
▁모태	-15632
▁유세	-15633
▁이코	-15634
▁풍요	-15635
▁App	-15636
▁라그랑	-15637
▁리그컵	-15638
▁여행자	-15639
블릭	-15640
▁국문	-15641
▁노역	-15642
▁소량	-15643
▁소포	-15644
▁수족	-15645
▁원한	-15646
▁유보	-15647
▁일보	-15648
▁카파	-15649
▁쿠시	-15650
▁호적	-15651
로세서	-15652
▁420	-15653
▁무사시	-15654
▁아이작	-15655
▁가창	-15656
▁군마	-15657
▁노마	-15658
▁단수	-15659
▁두부	-15660
▁방탄	-15661
▁부화	-15662
▁불문	-15663
▁사파	-15664
▁양정	-15665
▁영종	-15666
▁예보	-15667
▁클럭	-15668
▁리바이	-15669
▁사가미	-15670
리아누스	-15671
신보	-15672
정변	-15673
▁능숙	-15674
▁비오	-15675
▁상이	-15676
▁스킨	-15677
▁스텐	-15678
▁전열	-15679
▁컬링	-15680
▁호시	-15681
레틱스	-15682
▁그러면	-15683
▁암스트	-15684
▁애슬레틱스	-15685
연맹	-15686
▁기권	-15687
▁낯설	-15688
▁두스	-15689
▁반납	-15690
▁보아	-15691
▁불능	-15692
▁빛깔	-15693
▁용역	-15694
▁조우	-15695
▁카다	-15696
▁글리제	-15697
▁썸	-15698
▁개표	-15699
▁권투	-15700
▁끊이	-15701
▁머큐	-15702
▁반달	-15703
▁열람	-15704
▁유상	-15705
▁차차	-15706
▁최용	-15707
▁현수	-15708
를레앙	-15709
▁Str	-15710
▁국방군	-15711
▁니가타	-15712
▁변호인	-15713
▁영사관	-15714
▁인산화	-15715
▁트리스	-15716
▁원종공신	-15717
▁파르티아	-15718
▁꽝	-15719
▁Gu	-15720
▁강가	-15721
▁인삼	-15722
▁중등	-15723
▁오메가	-15724
▁테크노	-15725
▁주머니쥐	-15726
▁Record	-15727
링크	-15728
반정	-15729
ull	-15730
▁김시	-15731
▁인척	-15732
▁자각	-15733
▁처칠	-15734
▁체리	-15735
▁알칼리	-15736
▁들어올리	-15737
▁쿵	-15738
산업	-15739
VID	-15740
▁감당	-15741
▁애호	-15742
▁후추	-15743
▁440	-15744
▁클라리	-15745
▁아우구스트	-15746
▁퀼	-15747
박이	-15748
자드	-15749
장군	-15750
▁"|	-15751
▁PA	-15752
▁광시	-15753
▁대등	-15754
▁부트	-15755
▁수아	-15756
▁시타	-15757
▁잇달	-15758
▁제고	-15759
▁타라	-15760
▁할구	-15761
▁수영장	-15762
▁잠비아	-15763
▁항생제	-15764
▁print	-15765
▁ᆯㅈㅣㄹㅏㄷㅗ	-15766
티보	-15767
▁게놈	-15768
▁남경	-15769
▁도나	-15770
▁동하	-15771
▁용문	-15772
▁유민	-15773
▁군주제	-15774
▁본거지	-15775
▁엘리엇	-15776
▁유기체	-15777
▁타지키스탄	-15778
▁public	-15779
▁뜯	-15780
선교	-15781
▁당장	-15782
▁성자	-15783
▁신익	-15784
▁실베	-15785
▁압수	-15786
▁왕녀	-15787
▁커리	-15788
▁폴로	-15789
▁항전	-15790
▁Per	-15791
▁바실리	-15792
▁스위트	-15793
▁야구부	-15794
▁여주인	-15795
▁조용히	-15796
▁즐거움	-15797
▁불법행위	-15798
▁쑨	-15799
길준	-15800
덕궁	-15801
수지	-15802
▁po	-15803
▁궁주	-15804
▁금기	-15805
▁미타	-15806
▁소진	-15807
▁아로	-15808
▁전곡	-15809
▁접목	-15810
▁투병	-15811
▁실리콘	-15812
▁엘리스	-15813
▁오토모	-15814
▁합병증	-15815
대비	-15816
▁노엘	-15817
▁리노	-15818
▁사체	-15819
▁상회	-15820
▁앉히	-15821
▁앙상	-15822
▁역동	-15823
▁이석	-15824
▁자존	-15825
▁제방	-15826
▁종실	-15827
▁쿠루	-15828
▁투기	-15829
▁환산	-15830
▁페이퍼	-15831
▁허버트	-15832
▁리바운드	-15833
▁엔지니어링	-15834
▁ㅇㅡㄹㅅㅜㄹㅗㄱ	-15835
▁CA	-15836
▁nm	-15837
▁나토	-15838
▁동두	-15839
▁라쿠	-15840
▁성현	-15841
▁열거	-15842
▁유관	-15843
▁은평	-15844
▁이한	-15845
▁증축	-15846
▁화이	-15847
▁흐트	-15848
▁Hot	-15849
▁ㄹㄹㅗ	-15850
▁공성전	-15851
▁산투스	-15852
▁슈트라	-15853
▁양산시	-15854
▁엔리케	-15855
▁영화관	-15856
바이러스	-15857
▁헬레니즘	-15858
레미	-15859
자나	-15860
▁균등	-15861
▁명동	-15862
▁무패	-15863
▁문어	-15864
▁사나	-15865
▁퀸스	-15866
로그램	-15867
▁바레인	-15868
▁부추기	-15869
▁제시카	-15870
▁카스텔	-15871
▁2500	-15872
25	-15873
데오	-15874
황제	-15875
▁교학	-15876
▁그릴	-15877
▁기시	-15878
▁담수	-15879
▁리지	-15880
▁마거	-15881
▁북마	-15882
▁시영	-15883
▁식이	-15884
▁온전	-15885
▁왕좌	-15886
▁요셉	-15887
▁콜리	-15888
▁환초	-15889
▁256	-15890
▁살아오	-15891
▁오우치	-15892
▁대법원장	-15893
▁다마스쿠스	-15894
▁슈트라우스	-15895
쿠치	-15896
▁매복	-15897
▁바바	-15898
▁이설	-15899
▁코니	-15900
ㄹㄹㅗ	-15901
▁고다이	-15902
▁기본법	-15903
▁부서지	-15904
▁시에라	-15905
▁캅카스	-15906
▁플래닛	-15907
▁천문단위	-15908
ㅁㅏㄹㄹㅗ	-15909
ty	-15910
발트	-15911
▁내시	-15912
▁사목	-15913
▁접시	-15914
▁중신	-15915
▁코인	-15916
▁Win	-15917
▁맞물리	-15918
▁비행사	-15919
▁초고층	-15920
16	-15921
일체	-15922
ual	-15923
▁군도	-15924
▁사스	-15925
▁정직	-15926
▁헐리	-15927
고로드	-15928
▁ㅁㅓㄴ	-15929
▁버스터	-15930
▁왕당파	-15931
포리	-15932
▁광동	-15933
▁성교	-15934
▁성형	-15935
▁우타	-15936
▁향로	-15937
ogle	-15938
▁광합성	-15939
▁랴오닝	-15940
▁부러지	-15941
▁접근성	-15942
▁페르시	-15943
▁사이클론	-15944
▁크리스탈	-15945
▁동체	-15946
▁셔츠	-15947
▁아역	-15948
▁왕릉	-15949
▁유미	-15950
▁카츠	-15951
▁피질	-15952
▁호찌	-15953
▁렌더링	-15954
▁지극히	-15955
▁최진실	-15956
빨리	-15957
스틱	-15958
▁고독	-15959
▁반정	-15960
▁반향	-15961
▁오차	-15962
▁탈피	-15963
▁패자	-15964
▁힐스	-15965
▁예수교	-15966
▁이세이	-15967
▁프리드	-15968
울루	-15969
자락	-15970
▁가결	-15971
▁교명	-15972
▁농협	-15973
▁라사	-15974
▁석재	-15975
▁실책	-15976
▁양구	-15977
▁행운	-15978
▁깨어나	-15979
▁남북조	-15980
▁매니아	-15981
▁브루노	-15982
▁요나라	-15983
▁리치먼드	-15984
▁캥	-15985
다임	-15986
커우	-15987
▁Ke	-15988
▁금리	-15989
▁깊숙	-15990
▁담임	-15991
▁바타	-15992
▁응력	-15993
그래피	-15994
▁예비군	-15995
▁제주시	-15996
▁조연상	-15997
▁주둔지	-15998
▁1789	-15999
▁HS	-16000
▁아구	-16001
▁체질	-16002
▁코일	-16003
▁킬러	-16004
던지기	-16005
▁208	-16006
▁베이직	-16007
▁춘천시	-16008
▁기타큐슈	-16009
▁플랑드르	-16010
▁아미타여래	-16011
무트	-16012
▁NM	-16013
▁녹이	-16014
▁득실	-16015
▁미녀	-16016
▁봉분	-16017
▁부안	-16018
▁예쁘	-16019
▁워낙	-16020
▁이보	-16021
▁칠곡	-16022
▁트램	-16023
▁생산자	-16024
▁오이타	-16025
▁유도탄	-16026
▁토론회	-16027
▁호기심	-16028
▁후유증	-16029
▁1801	-16030
▁Back	-16031
는점	-16032
▁mu	-16033
▁노골	-16034
▁느슨	-16035
▁스팀	-16036
▁시온	-16037
▁여관	-16038
▁즉흥	-16039
▁지브	-16040
▁촐라	-16041
▁할로	-16042
프리드	-16043
▁911	-16044
▁사무엘	-16045
▁스텔스	-16046
▁웨슬리	-16047
▁조제프	-16048
▁패러다임	-16049
불명	-16050
RNA	-16051
▁강타	-16052
▁곱하	-16053
▁기피	-16054
▁유독	-16055
▁히코	-16056
▁머큐리	-16057
▁유길준	-16058
▁잠재력	-16059
▁재결합	-16060
▁1400	-16061
▁Kore	-16062
▁포틀랜드	-16063
▁ㅅㅡㅂㄴㅣㄲㅏ	-16064
▁둠	-16065
평면	-16066
▁강자	-16067
▁사조	-16068
▁소노	-16069
▁총생	-16070
▁폐교	-16071
▁다행히	-16072
▁아르테	-16073
ll	-16074
▁기한	-16075
▁내기	-16076
▁누마	-16077
▁멘델	-16078
▁신천	-16079
▁쌍용	-16080
▁악어	-16081
▁전과	-16082
▁정중	-16083
▁준하	-16084
▁진성	-16085
▁초석	-16086
▁침수	-16087
리오스	-16088
▁네바다	-16089
▁들여오	-16090
▁불거지	-16091
▁이회창	-16092
▁판매고	-16093
▁암스트롱	-16094
인산	-16095
▁Fl	-16096
▁MD	-16097
▁동률	-16098
▁안시	-16099
▁영성	-16100
▁원곡	-16101
▁작자	-16102
▁치밀	-16103
▁Get	-16104
▁MIT	-16105
▁길버트	-16106
▁사천왕	-16107
▁영문학	-16108
▁ㄹㅏㄴㅣ	-16109
제사	-16110
▁KD	-16111
▁구애	-16112
▁대용	-16113
▁에픽	-16114
▁이크	-16115
▁치킨	-16116
▁파피	-16117
▁광주시	-16118
▁디아스	-16119
▁로런스	-16120
▁사망률	-16121
▁지배하	-16122
▁남한산성	-16123
▁비로자나	-16124
로움	-16125
스텐	-16126
▁겨냥	-16127
▁교란	-16128
▁국산	-16129
▁군량	-16130
▁애프	-16131
▁윤곽	-16132
▁조율	-16133
▁중학	-16134
▁탄력	-16135
▁브릿지	-16136
▁앙상블	-16137
▁NATO	-16138
ox	-16139
▁NL	-16140
▁오웬	-16141
▁청중	-16142
▁370	-16143
▁ㅇㅗㅂ	-16144
▁내몽골	-16145
▁마거릿	-16146
▁방법론	-16147
▁브루크	-16148
▁양평군	-16149
▁영장류	-16150
▁유물론	-16151
▁쐐	-16152
▁킵	-16153
라과	-16154
▁NA	-16155
▁가전	-16156
▁갑신	-16157
▁거품	-16158
▁구부	-16159
▁군림	-16160
▁기일	-16161
▁발열	-16162
▁약품	-16163
▁채집	-16164
▁첫날	-16165
ames	-16166
▁생물학자	-16167
▁프린세스	-16168
▁궁수	-16169
▁균열	-16170
▁변천	-16171
▁총국	-16172
▁225	-16173
▁마운틴	-16174
▁붉은색	-16175
▁드래곤즈	-16176
▁미식축구	-16177
▁Intern	-16178
▁렬	-16179
이상	-16180
▁관저	-16181
▁도화	-16182
▁레저	-16183
▁미로	-16184
▁신궁	-16185
▁쐐기	-16186
▁악의	-16187
lect	-16188
▁Mag	-16189
▁급속도	-16190
▁동일시	-16191
▁선수상	-16192
▁독립선언	-16193
▁탄수화물	-16194
▁항공우주	-16195
모닉	-16196
▁구명	-16197
▁극회	-16198
▁먼로	-16199
▁미디	-16200
▁민선	-16201
▁승선	-16202
▁예편	-16203
▁우디	-16204
▁출정	-16205
▁카인	-16206
▁흘러가	-16207
ology	-16208
▁이마가와	-16209
▁해수욕장	-16210
GO	-16211
▁관원	-16212
▁성부	-16213
▁세타	-16214
▁승마	-16215
▁안건	-16216
▁얼리	-16217
▁장승	-16218
▁제헌	-16219
▁커넥	-16220
▁코딩	-16221
▁타키	-16222
▁탄성	-16223
▁트론	-16224
▁하세	-16225
▁현관	-16226
▁후난	-16227
▁남아공	-16228
▁디렉터	-16229
▁메신저	-16230
▁알베르	-16231
▁오리건	-16232
▁추축국	-16233
▁후반전	-16234
▁리하르트	-16235
▁셀레우코스	-16236
YP	-16237
▁가변	-16238
▁노름	-16239
▁로만	-16240
▁무소	-16241
▁솔직	-16242
▁유재	-16243
▁책정	-16244
▁코디	-16245
▁호지	-16246
▁방문객	-16247
▁요시카	-16248
▁ㄱㅗㄴㅡㄴ	-16249
의금	-16250
피카	-16251
let	-16252
▁군위	-16253
▁다채	-16254
▁만물	-16255
▁열기	-16256
▁제타	-16257
▁나카노	-16258
▁부천시	-16259
▁와이어	-16260
▁작아지	-16261
▁클라인	-16262
그라운드	-16263
ature	-16264
▁Baby	-16265
▁니카라과	-16266
▁트로츠키	-16267
▁나날	-16268
▁무쓰	-16269
▁생포	-16270
▁오랑	-16271
▁유익	-16272
▁장차	-16273
▁지회	-16274
▁캡틴	-16275
▁케로	-16276
▁호전	-16277
피에르	-16278
▁미요시	-16279
▁베테랑	-16280
▁부사장	-16281
▁레오나르	-16282
▁서귀포시	-16283
▁안티오키아	-16284
17	-16285
▁갸	-16286
▁뿜	-16287
레븐	-16288
백색	-16289
파니	-16290
ove	-16291
▁누에	-16292
▁니트	-16293
▁무루	-16294
▁진위	-16295
▁최순	-16296
▁캔터	-16297
▁효성	-16298
▁시나노	-16299
▁콜라보	-16300
▁태양광	-16301
▁돼지고기	-16302
▁에두아르	-16303
▁베오그라드	-16304
남동	-16305
능력	-16306
득점	-16307
▁격화	-16308
▁사일	-16309
▁안락	-16310
▁황하	-16311
▁흉내	-16312
▁거듭나	-16313
▁블러드	-16314
▁신안군	-16315
▁이유로	-16316
경찰	-16317
락부	-16318
무실	-16319
enn	-16320
▁가령	-16321
▁고관	-16322
▁공훈	-16323
▁리라	-16324
▁생장	-16325
▁소마	-16326
▁주스	-16327
▁초판	-16328
▁친히	-16329
▁탄광	-16330
코비치	-16331
▁기네스	-16332
▁범어사	-16333
▁스태프	-16334
▁주세페	-16335
심원	-16336
차리	-16337
▁BB	-16338
▁BO	-16339
▁Cr	-16340
▁강구	-16341
▁박태	-16342
▁베아	-16343
▁불길	-16344
▁서곡	-16345
▁외가	-16346
▁조엘	-16347
▁카노	-16348
▁카불	-16349
▁파출	-16350
▁피시	-16351
▁합장	-16352
inal	-16353
▁고스트	-16354
▁다카시	-16355
▁두더지	-16356
▁리카르	-16357
▁페라리	-16358
▁게오르기	-16359
▁프레더릭	-16360
UM	-16361
▁씬	-16362
ors	-16363
▁개축	-16364
▁경산	-16365
▁고취	-16366
▁김장	-16367
▁대소	-16368
▁도보	-16369
▁레반	-16370
▁매튜	-16371
▁비방	-16372
▁사옥	-16373
▁수화	-16374
▁출항	-16375
스트림	-16376
▁GPS	-16377
▁강릉시	-16378
▁만주족	-16379
▁타일러	-16380
▁로베르트	-16381
▁개리	-16382
▁공지	-16383
▁도식	-16384
▁명장	-16385
▁연어	-16386
▁유감	-16387
▁천태	-16388
▁철근	-16389
▁출병	-16390
▁포메	-16391
▁효모	-16392
말라야	-16393
▁Res	-16394
▁김종직	-16395
▁압둘라	-16396
▁이치로	-16397
▁인문학	-16398
▁혈액형	-16399
TN	-16400
▁결투	-16401
▁깁슨	-16402
▁듀엣	-16403
▁라테	-16404
▁브이	-16405
▁야만	-16406
▁약수	-16407
▁틈타	-16408
▁하츠	-16409
▁흡입	-16410
▁Way	-16411
▁스트라	-16412
▁해수면	-16413
▁이리하여	-16414
금속	-16415
메랄	-16416
훈련	-16417
▁DA	-16418
▁공평	-16419
▁레르	-16420
▁봉헌	-16421
▁잔치	-16422
▁조너	-16423
▁폭주	-16424
▁한꺼	-16425
▁207	-16426
▁365	-16427
▁알레산	-16428
▁체육회	-16429
▁태극기	-16430
▁서대문구	-16431
▁선거인단	-16432
▁한꺼번에	-16433
갱이	-16434
덱스	-16435
▁교내	-16436
▁굳이	-16437
▁기형	-16438
▁미끄	-16439
▁베라	-16440
▁베컴	-16441
▁알마	-16442
▁운석	-16443
▁직각	-16444
▁춘향	-16445
▁키치	-16446
▁동북부	-16447
▁스펜서	-16448
▁아열대	-16449
▁이지스	-16450
▁Amer	-16451
광사	-16452
즈미	-16453
▁명중	-16454
▁미추	-16455
▁살레	-16456
▁양위	-16457
▁증류	-16458
▁천적	-16459
▁통킹	-16460
▁풋살	-16461
▁흑색	-16462
▁일제히	-16463
노스아이	-16464
▁1815	-16465
▁1820	-16466
▁아르바이트	-16467
노스아이레스	-16468
▁부에노스아이레스	-16469
▁둑	-16470
마니	-16471
시카	-16472
app	-16473
▁OK	-16474
▁결렬	-16475
▁도량	-16476
▁맞닿	-16477
▁박동	-16478
▁설과	-16479
▁신안	-16480
▁핼리	-16481
▁화교	-16482
스티안	-16483
이즈미	-16484
▁무정부	-16485
▁어드밴	-16486
▁지방도	-16487
▁페레스	-16488
▁프린터	-16489
▁히말라야	-16490
▁소크라테스	-16491
24	-16492
▁공보	-16493
▁그간	-16494
▁북송	-16495
▁사계	-16496
▁세도	-16497
▁습도	-16498
▁에든	-16499
▁청군	-16500
▁감마선	-16501
▁노무라	-16502
▁조합원	-16503
▁Cent	-16504
▁에든버러	-16505
FS	-16506
처럼	-16507
▁격침	-16508
▁내역	-16509
▁매듭	-16510
▁비이	-16511
▁시성	-16512
▁인노	-16513
▁총수	-16514
▁퇴계	-16515
▁야행성	-16516
▁라이온스	-16517
▁리얼리티	-16518
▁레닌그라드	-16519
▁낸	-16520
가요	-16521
나비	-16522
오드	-16523
월드	-16524
ina	-16525
▁결단	-16526
▁담장	-16527
▁모잠	-16528
▁변조	-16529
▁시편	-16530
▁전극	-16531
▁죄인	-16532
▁한라	-16533
▁호박	-16534
ange	-16535
▁국무부	-16536
▁농민군	-16537
▁사법부	-16538
▁오징어	-16539
▁전동기	-16540
▁함부로	-16541
▁모잠비크	-16542
현실	-16543
▁던전	-16544
▁만수	-16545
▁서역	-16546
▁술집	-16547
▁표어	-16548
▁해머	-16549
ater	-16550
▁ㄱㅜㄴ	-16551
▁시아파	-16552
▁제품군	-16553
▁후베이	-16554
로프로세서	-16555
▁System	-16556
▁마이크로프로세서	-16557
▁Dr	-16558
▁격상	-16559
▁김석	-16560
▁스틱	-16561
▁양분	-16562
▁월경	-16563
▁천리	-16564
▁필로	-16565
▁도나우	-16566
▁디나모	-16567
▁리그전	-16568
▁유명세	-16569
▁정몽주	-16570
▁지포스	-16571
▁트럼펫	-16572
▁마쓰모토	-16573
▁결실	-16574
▁굴욕	-16575
▁김은	-16576
▁담그	-16577
▁데니	-16578
▁로제	-16579
▁부이	-16580
▁에다	-16581
▁윈드	-16582
▁토하	-16583
▁트롤	-16584
레이즈	-16585
어들이	-16586
▁조병옥	-16587
▁알베르트	-16588
▁유럽연합	-16589
▁카롤루스	-16590
▁막시밀리안	-16591
니츠	-16592
▁SW	-16593
▁마취	-16594
▁세실	-16595
▁에인	-16596
▁재심	-16597
▁지반	-16598
▁트림	-16599
▁피쳐	-16600
▁허들	-16601
▁넘어지	-16602
▁아드리	-16603
▁모노이드	-16604
▁이오니아	-16605
▁알렉산드라	-16606
za	-16607
▁앳	-16608
거루	-16609
▁결집	-16610
▁노총	-16611
▁당사	-16612
▁리서	-16613
▁마초	-16614
▁소켓	-16615
▁어인	-16616
▁위태	-16617
▁으뜸	-16618
▁조나	-16619
▁직류	-16620
▁쿠사	-16621
▁학도	-16622
▁유공자	-16623
▁전망대	-16624
▁총생산	-16625
▁1858	-16626
▁알아차리	-16627
▁오스트로	-16628
쓰네	-16629
▁"'	-16630
▁미완	-16631
▁본진	-16632
▁산마	-16633
▁성내	-16634
▁아토	-16635
▁융기	-16636
▁장론	-16637
▁장서	-16638
▁좌랑	-16639
▁코넬	-16640
▁모델링	-16641
▁혁명가	-16642
▁마그네슘	-16643
▁프로방스	-16644
ret	-16645
▁갑오	-16646
▁기주	-16647
▁달마	-16648
▁벅스	-16649
▁성찬	-16650
▁슐레	-16651
▁영위	-16652
▁옵티	-16653
▁이구	-16654
▁충고	-16655
▁탈리	-16656
▁특위	-16657
▁펜스	-16658
▁Mac	-16659
▁신익희	-16660
▁연습생	-16661
▁일진회	-16662
▁파블로	-16663
▁고고학자	-16664
▁이성질체	-16665
▁챈	-16666
비츠	-16667
입자	-16668
▁'-	-16669
▁갈비	-16670
▁경구	-16671
▁녹말	-16672
▁배지	-16673
▁분담	-16674
▁하카	-16675
▁해내	-16676
▁가디언	-16677
▁민의원	-16678
▁조너선	-16679
▁ㄴㅡㄹㅏ	-16680
▁필하모닉	-16681
▁class	-16682
▁폴리네시아	-16683
▁폼페이우스	-16684
동리	-16685
러기	-16686
토바	-16687
ons	-16688
▁기욤	-16689
▁납품	-16690
▁본능	-16691
▁소정	-16692
▁에뮬	-16693
▁엠마	-16694
▁자막	-16695
▁창씨	-16696
▁테살	-16697
▁특혜	-16698
▁형광	-16699
▁날아오	-16700
▁도치기	-16701
▁제노바	-16702
▁중심핵	-16703
▁맞배지붕	-16704
가라	-16705
▁더빙	-16706
▁디펜	-16707
▁만연	-16708
▁사보	-16709
▁완산	-16710
▁우니	-16711
▁장택	-16712
▁좌천	-16713
▁지뢰	-16714
▁합산	-16715
지먼트	-16716
ions	-16717
▁라이드	-16718
▁마에다	-16719
▁봉수대	-16720
▁지팡이	-16721
▁크레타	-16722
▁필리스	-16723
▁천연가스	-16724
▁매니지먼트	-16725
달음	-16726
ley	-16727
▁의왕	-16728
▁이삭	-16729
▁이철	-16730
▁태상	-16731
▁토의	-16732
▁군산시	-16733
▁그리드	-16734
▁선데이	-16735
▁포인터	-16736
▁무궁화호	-16737
▁써	-16738
코인	-16739
▁낙태	-16740
▁농작	-16741
▁달래	-16742
▁상해	-16743
▁선서	-16744
▁소탕	-16745
▁육박	-16746
▁재주	-16747
▁종단	-16748
▁출루	-16749
▁Tra	-16750
▁노트북	-16751
▁목포시	-16752
▁분홍색	-16753
▁스와프	-16754
▁시게루	-16755
▁유성구	-16756
▁적절히	-16757
▁전철역	-16758
▁항소심	-16759
▁서프랑크	-16760
att	-16761
▁고택	-16762
▁광서	-16763
▁기민	-16764
▁동티	-16765
▁새해	-16766
▁수강	-16767
▁아루	-16768
▁정공	-16769
▁진구	-16770
▁콘셉	-16771
▁토드	-16772
▁펠레	-16773
▁포섭	-16774
▁푸틴	-16775
▁Int	-16776
▁USA	-16777
▁넘어오	-16778
▁대학살	-16779
▁모터쇼	-16780
▁평의원	-16781
▁1814	-16782
라나	-16783
▁SG	-16784
▁급사	-16785
▁대정	-16786
▁도난	-16787
▁매질	-16788
▁사악	-16789
▁수선	-16790
▁실태	-16791
▁아말	-16792
▁Not	-16793
▁ㄱㅔㅅ	-16794
▁안티고	-16795
▁트랜싯	-16796
▁동아프리카	-16797
ux	-16798
사랑	-16799
정제	-16800
▁견지	-16801
▁기교	-16802
▁남궁	-16803
▁니체	-16804
▁로타	-16805
▁마도	-16806
▁성제	-16807
▁안재	-16808
▁정현	-16809
▁테드	-16810
▁헬렌	-16811
▁쌍방울	-16812
▁평상시	-16813
▁type	-16814
▁귤	-16815
당류	-16816
촌동	-16817
컨드	-16818
테일	-16819
▁궁내	-16820
▁말소	-16821
▁문성	-16822
▁미자	-16823
▁벨벳	-16824
▁위배	-16825
▁정과	-16826
▁총살	-16827
▁비올라	-16828
▁직할시	-16829
▁1300	-16830
널목	-16831
실험	-16832
자유	-16833
토쿠	-16834
ART	-16835
▁귀하	-16836
▁덕수	-16837
▁독실	-16838
▁민가	-16839
▁음양	-16840
▁음역	-16841
▁핑계	-16842
▁헤지	-16843
▁흥덕	-16844
▁IEC	-16845
▁MHz	-16846
▁건너편	-16847
▁건널목	-16848
▁피드백	-16849
▁High	-16850
NT	-16851
거성	-16852
싸움	-16853
재단	-16854
▁Of	-16855
▁아약	-16856
▁이덕	-16857
▁전집	-16858
▁증직	-16859
▁키아	-16860
▁튀기	-16861
▁휴먼	-16862
▁겨울철	-16863
▁모조리	-16864
▁수도사	-16865
▁충주시	-16866
▁보호구역	-16867
▁산업단지	-16868
▁알베르토	-16869
▁클라이맥스	-16870
▁Google	-16871
BN	-16872
▁엎	-16873
기둥	-16874
림동	-16875
▁기근	-16876
▁마틸	-16877
▁소치	-16878
▁우도	-16879
▁콤비	-16880
▁퍼플	-16881
▁War	-16882
▁깨달음	-16883
▁마피아	-16884
▁미우라	-16885
▁밀어내	-16886
▁연구실	-16887
▁오나라	-16888
▁티무르	-16889
▁평택시	-16890
니코	-16891
랭크	-16892
마일	-16893
▁kW	-16894
▁바사	-16895
▁버거	-16896
▁부탄	-16897
▁석등	-16898
▁시차	-16899
▁신관	-16900
▁전액	-16901
▁퀘이	-16902
▁광화문	-16903
▁맞대결	-16904
▁성북구	-16905
▁세컨드	-16906
▁액티브	-16907
▁플래그	-16908
▁What	-16909
▁암모니아	-16910
데냐	-16911
민정	-16912
▁견훤	-16913
▁고갈	-16914
▁미에	-16915
▁비호	-16916
▁윗면	-16917
▁유승	-16918
▁전란	-16919
▁제보	-16920
▁주상	-16921
▁캐럴	-16922
▁헤임	-16923
▁홍천	-16924
씨식물	-16925
▁WHO	-16926
▁니스트	-16927
▁막아내	-16928
▁패트리	-16929
▁프렌즈	-16930
▁그래미상	-16931
▁사르데냐	-16932
▁석가여래	-16933
ㄷㅡㄴㄱㅏ	-16934
▁간지	-16935
▁고요	-16936
▁공해	-16937
▁군비	-16938
▁군집	-16939
▁라지	-16940
▁레미	-16941
▁목화	-16942
▁스팅	-16943
▁애쓰	-16944
▁증원	-16945
▁진정하	-16946
▁한정판	-16947
살바도르	-16948
▁1795	-16949
▁부위원장	-16950
▁ᄇㄴㅣㄲㅏ	-16951
▁조선왕조실록	-16952
▁규장	-16953
▁바하	-16954
▁보카	-16955
▁열망	-16956
▁예일	-16957
▁완주	-16958
▁패퇴	-16959
▁페데	-16960
▁헨드	-16961
▁미시간	-16962
▁아약스	-16963
▁혁명군	-16964
▁플레이스	-16965
퍼트	-16966
회원	-16967
ger	-16968
▁FS	-16969
▁군락	-16970
▁도표	-16971
▁수의	-16972
▁스쿠	-16973
▁우대	-16974
▁지층	-16975
▁포진	-16976
정보부	-16977
▁290	-16978
▁LCK	-16979
▁국문학	-16980
▁라쿠텐	-16981
▁성명서	-16982
▁연금술	-16983
▁우승컵	-16984
▁익산시	-16985
▁통신부	-16986
▁플라자	-16987
▁다리우스	-16988
▁토스카나	-16989
▁밈	-16990
▁윔	-16991
베인	-16992
식스	-16993
전차	-16994
▁루지	-16995
▁리츠	-16996
▁발췌	-16997
▁보육	-16998
▁본초	-16999
▁애매	-17000
▁원생	-17001
▁초당	-17002
▁재빨리	-17003
구멍	-17004
alk	-17005
▁PH	-17006
▁멘토	-17007
▁스톨	-17008
▁암초	-17009
▁약학	-17010
▁에런	-17011
▁우사	-17012
▁춤추	-17013
▁패드	-17014
▁TBC	-17015
▁블루어	-17016
▁주교좌	-17017
▁커티스	-17018
▁With	-17019
▁디렉터리	-17020
▁샌드위치	-17021
▁크리스천	-17022
▁구석	-17023
▁도정	-17024
▁로동	-17025
▁로어	-17026
▁브람	-17027
▁아난	-17028
▁앨버	-17029
▁인대	-17030
▁잊히	-17031
▁켈빈	-17032
▁프록	-17033
▁할양	-17034
▁허구	-17035
▁혼돈	-17036
지스터	-17037
▁MLB	-17038
▁관찰자	-17039
▁홉킨스	-17040
ye	-17041
부미	-17042
▁RA	-17043
▁북상	-17044
▁얼터	-17045
▁총액	-17046
▁코지	-17047
▁쿠리	-17048
▁Dis	-17049
▁로렌초	-17050
▁스레드	-17051
▁원정군	-17052
▁창덕궁	-17053
▁하모니	-17054
▁켓	-17055
고나	-17056
yle	-17057
▁모식	-17058
▁몬태	-17059
▁보훈	-17060
▁비욘	-17061
▁실크	-17062
▁아랑	-17063
▁아핀	-17064
▁열풍	-17065
▁포교	-17066
디우스	-17067
▁480	-17068
▁ㅇㅓㅇ	-17069
▁남조선	-17070
▁리포트	-17071
▁선언문	-17072
▁수마트라	-17073
▁ㅁㅕㄴㅇㅡㄴ	-17074
▁렝	-17075
▁쥘	-17076
건적	-17077
라도	-17078
카라	-17079
▁부녀	-17080
▁아픔	-17081
▁알렌	-17082
▁에린	-17083
▁장준	-17084
▁함의	-17085
▁헬로	-17086
▁850	-17087
▁Art	-17088
▁남해군	-17089
▁대항해	-17090
▁스타즈	-17091
▁에히메	-17092
▁창업자	-17093
▁트루먼	-17094
▁헬싱키	-17095
의금부사	-17096
▁안드레이	-17097
▁프로이트	-17098
▁트랜지스터	-17099
▁괴뢰	-17100
▁당명	-17101
▁매춘	-17102
▁보궐	-17103
▁선회	-17104
▁세베	-17105
▁우이	-17106
▁웰스	-17107
▁정일	-17108
▁종친	-17109
▁풍수	-17110
▁238	-17111
▁북반구	-17112
▁정확도	-17113
▁합천군	-17114
▁아틀레틱	-17115
▁그리스도인	-17116
스테	-17117
팽이	-17118
enc	-17119
▁급기	-17120
▁김세	-17121
▁니나	-17122
▁미숙	-17123
▁반야	-17124
▁숭실	-17125
▁천정	-17126
주니어	-17127
▁고조선	-17128
▁보행자	-17129
▁드레이크	-17130
▁관대	-17131
▁광택	-17132
▁데쓰	-17133
▁승전	-17134
▁영재	-17135
▁옥상	-17136
▁유원	-17137
▁장조	-17138
▁토비	-17139
▁평신	-17140
▁훈족	-17141
플레잉	-17142
▁ㄷㅔㄴ	-17143
▁개최지	-17144
▁충렬왕	-17145
▁페테르	-17146
▁프리킥	-17147
▁가나자와	-17148
▁롤플레잉	-17149
레프	-17150
▁논설	-17151
▁덩굴	-17152
▁랜덤	-17153
▁버시	-17154
▁연유	-17155
▁첨부	-17156
가하라	-17157
ough	-17158
▁빅토리	-17159
▁요시아키	-17160
▁COVID	-17161
▁Di	-17162
▁각광	-17163
▁구토	-17164
▁기악	-17165
▁머피	-17166
▁팀장	-17167
▁남반구	-17168
▁보호관	-17169
▁안데르	-17170
▁지방관	-17171
▁Blue	-17172
UI	-17173
렁이	-17174
▁경이	-17175
▁교주	-17176
▁노화	-17177
▁더럽	-17178
▁민권	-17179
▁박승	-17180
▁웅진	-17181
▁윈터	-17182
▁장항	-17183
▁정여	-17184
▁직권	-17185
네소스	-17186
▁공직자	-17187
▁수번뇌	-17188
▁타블로	-17189
▁포스코	-17190
▁1793	-17191
▁ㄷㅡㄹㅏ	-17192
▁카테고리	-17193
▁그리스도교	-17194
▁키르기스스탄	-17195
던스	-17196
천국	-17197
▁골수	-17198
▁국지	-17199
▁굶주	-17200
▁보츠	-17201
▁불평	-17202
▁서강	-17203
▁소도	-17204
▁효용	-17205
다람쥐	-17206
▁Rev	-17207
▁바로잡	-17208
▁사이공	-17209
▁산체스	-17210
▁스타인	-17211
▁이완용	-17212
▁취약점	-17213
▁크라스	-17214
▁1846	-17215
▁MPEG	-17216
▁사탕수수	-17217
▁이베리아	-17218
메트	-17219
블린	-17220
적분	-17221
que	-17222
▁ㄲㅗ	-17223
▁구룡	-17224
▁데메	-17225
▁리저	-17226
▁묘법	-17227
▁쇠약	-17228
▁수렵	-17229
▁신구	-17230
▁올랭	-17231
▁율령	-17232
▁이트	-17233
▁정병	-17234
▁차분	-17235
▁천구	-17236
▁공기업	-17237
▁노르트	-17238
▁문하시	-17239
▁보라색	-17240
▁아산시	-17241
▁아칸소	-17242
▁페인트	-17243
▁물리학상	-17244
▁브루나이	-17245
26	-17246
▁뱌	-17247
ING	-17248
OVE	-17249
▁ED	-17250
▁괴멸	-17251
▁구자	-17252
▁대뇌	-17253
▁멜론	-17254
▁미코	-17255
▁서보	-17256
▁설사	-17257
▁용접	-17258
▁쿠릴	-17259
▁하순	-17260
연화경	-17261
웨스트	-17262
▁돌아서	-17263
▁등록금	-17264
▁유격대	-17265
▁학생회	-17266
▁1839	-17267
▁에드먼드	-17268
▁자유민주	-17269
▁중앙정보부	-17270
ump	-17271
▁갤러	-17272
▁국과	-17273
▁남포	-17274
▁니콘	-17275
▁당분	-17276
▁맛있	-17277
▁역모	-17278
▁오호	-17279
▁와해	-17280
▁월북	-17281
▁직함	-17282
▁페터	-17283
▁학급	-17284
▁농작물	-17285
▁손바닥	-17286
▁엉덩이	-17287
▁time	-17288
▁하시모토	-17289
뉴스	-17290
르모	-17291
전쟁	-17292
파스	-17293
▁'.	-17294
▁간디	-17295
▁과부	-17296
▁만기	-17297
▁무당	-17298
▁이효	-17299
▁퇴단	-17300
비우스	-17301
슬라브	-17302
시우스	-17303
▁배수량	-17304
▁시어터	-17305
▁여객선	-17306
▁중서부	-17307
▁1854	-17308
▁히로부미	-17309
▁시즈오카현	-17310
▁아오모리현	-17311
나물	-17312
바람	-17313
▁NX	-17314
▁ㄱㅓ	-17315
▁공덕	-17316
▁교묘	-17317
▁산불	-17318
▁삼키	-17319
▁순정	-17320
▁이국	-17321
▁국무원	-17322
▁아테나	-17323
▁에밀리	-17324
▁추밀원	-17325
▁테트라	-17326
▁아나키즘	-17327
IO	-17328
▁꼼	-17329
▁훅	-17330
고트	-17331
운전	-17332
질량	-17333
▁MT	-17334
▁감탄	-17335
▁낙타	-17336
▁독소	-17337
▁몸집	-17338
▁유시	-17339
▁존상	-17340
▁펀치	-17341
▁표결	-17342
▁해자	-17343
▁휘트	-17344
▁베드로	-17345
▁아쿠아	-17346
▁전기장	-17347
▁촘	-17348
래시	-17349
der	-17350
▁Vf	-17351
▁걸맞	-17352
▁게일	-17353
▁군국	-17354
▁도색	-17355
▁망루	-17356
▁미묘	-17357
▁본당	-17358
▁부윤	-17359
▁심플	-17360
▁엄정	-17361
▁정강	-17362
▁총체	-17363
▁추위	-17364
▁학창	-17365
▁737	-17366
▁대머리	-17367
▁외무성	-17368
▁체스터	-17369
▁트리니다드	-17370
▁중앙아프리카	-17371
모자	-17372
▁경멸	-17373
▁심근	-17374
▁윤원	-17375
▁클루	-17376
▁현충	-17377
티우스	-17378
▁214	-17379
▁가시마	-17380
▁가입자	-17381
▁버나드	-17382
▁상대론	-17383
▁수증기	-17384
▁알레르	-17385
▁기념사업	-17386
▁언어학자	-17387
▁초등학생	-17388
대성	-17389
재란	-17390
후이	-17391
▁바일	-17392
▁범용	-17393
▁분양	-17394
▁세탁	-17395
▁아민	-17396
▁억류	-17397
▁베일리	-17398
▁분류학	-17399
▁산둥성	-17400
▁이브라	-17401
▁파트리	-17402
▁팩토리	-17403
총리대신	-17404
▁기독교인	-17405
▁어드밴스	-17406
▁자연주의	-17407
▁정유재란	-17408
▁세키가하라	-17409
▁내각총리대신	-17410
▁뚱	-17411
패스	-17412
▁구인	-17413
▁방조	-17414
▁손책	-17415
▁솔트	-17416
▁여과	-17417
▁인신	-17418
▁필기	-17419
▁환기	-17420
▁COM	-17421
▁기부금	-17422
▁윤리학	-17423
▁조계종	-17424
▁최하위	-17425
▁평화상	-17426
▁하카타	-17427
▁후임자	-17428
스트리트	-17429
▁비지니스	-17430
▁여주인공	-17431
▁갑각	-17432
▁등대	-17433
▁마한	-17434
▁야로	-17435
▁이형	-17436
▁인출	-17437
▁잠들	-17438
▁칼레	-17439
▁Min	-17440
▁메이트	-17441
▁안중근	-17442
▁키워드	-17443
▁황태후	-17444
▁개전	-17445
▁내구	-17446
▁박준	-17447
▁브론	-17448
▁상작	-17449
▁이부	-17450
▁제식	-17451
▁참배	-17452
▁코레	-17453
▁페드	-17454
학생회	-17455
▁LCD	-17456
▁교토부	-17457
▁낙하산	-17458
▁비행대	-17459
▁갈릴레이	-17460
▁비트코인	-17461
우어	-17462
▁ME	-17463
▁ㅇㅠ	-17464
▁고압	-17465
▁디온	-17466
▁라몬	-17467
▁루머	-17468
▁매번	-17469
▁박기	-17470
▁비크	-17471
▁상투	-17472
▁석상	-17473
▁오닐	-17474
▁오딘	-17475
▁유폐	-17476
▁찬탈	-17477
▁치중	-17478
▁특례	-17479
▁팬아	-17480
▁페가	-17481
▁후시	-17482
독립당	-17483
▁ㄴㄱㅏ	-17484
▁경비대	-17485
▁돗토리	-17486
▁보나파	-17487
▁북극해	-17488
▁증명서	-17489
▁초대칭	-17490
▁파출소	-17491
▁1849	-17492
▁공화주의	-17493
▁미성년자	-17494
▁오브젝트	-17495
▁총학생회	-17496
▁ㅁㅏㄴㅡㄴ	-17497
▁보나파르트	-17498
▁한국독립당	-17499
28	-17500
▁돛	-17501
▁퓌	-17502
탐정	-17503
▁간염	-17504
▁베버	-17505
▁북해	-17506
▁새턴	-17507
▁수표	-17508
▁이견	-17509
▁종주	-17510
▁파드	-17511
▁하디	-17512
캐스트	-17513
프랑스	-17514
▁넥스트	-17515
▁데포르	-17516
▁델라웨어	-17517
▁플로이드	-17518
▁넉	-17519
▁견습	-17520
▁교포	-17521
▁낙랑	-17522
▁내수	-17523
▁매월	-17524
▁바덴	-17525
▁시경	-17526
▁시주	-17527
▁웅장	-17528
▁존엄	-17529
▁화북	-17530
▁가파르	-17531
▁구청장	-17532
▁나가노	-17533
▁시공간	-17534
▁지난해	-17535
▁1856	-17536
▁Beat	-17537
▁네덜란드어	-17538
HD	-17539
사회	-17540
정권	-17541
호프	-17542
▁계투	-17543
▁광경	-17544
▁귀양	-17545
▁깜짝	-17546
▁남로	-17547
▁미모	-17548
▁분장	-17549
▁수류	-17550
▁신작	-17551
▁어이	-17552
▁오기	-17553
▁우동	-17554
▁웨일	-17555
▁육아	-17556
▁인피	-17557
▁장령	-17558
▁철원	-17559
▁태세	-17560
직할시	-17561
코스트	-17562
쿠스틱	-17563
▁변속기	-17564
▁식물원	-17565
▁에리크	-17566
베이거스	-17567
▁어쿠스틱	-17568
누아	-17569
▁분쇄	-17570
▁소란	-17571
▁이안	-17572
▁적재	-17573
atch	-17574
▁장택상	-17575
▁절대로	-17576
▁포위전	-17577
▁하이든	-17578
▁1851	-17579
▁크레이그	-17580
▁하이웨이	-17581
▁라스베이거스	-17582
23	-17583
▁깡	-17584
▁줌	-17585
담회	-17586
오린	-17587
케스	-17588
호르	-17589
▁만국	-17590
▁밀스	-17591
▁변방	-17592
▁본디	-17593
▁사죄	-17594
▁사흘	-17595
▁소홀	-17596
▁씨름	-17597
▁요아	-17598
▁해일	-17599
▁헤엄	-17600
타니아	-17601
▁430	-17602
▁감염자	-17603
▁스탠퍼드	-17604
▁페더레이션	-17605
OU	-17606
체어	-17607
▁낙엽	-17608
▁모기	-17609
▁민생	-17610
▁비참	-17611
▁실로	-17612
▁연임	-17613
▁예속	-17614
▁유장	-17615
▁윤영	-17616
▁촌은	-17617
▁419	-17618
▁갖가지	-17619
▁건국대	-17620
▁교직원	-17621
▁디스코	-17622
▁레인보	-17623
▁입출력	-17624
▁해럴드	-17625
▁마음대로	-17626
▁사보이아	-17627
▁상파울루	-17628
▁이해관계	-17629
▁차량기지	-17630
▁PP	-17631
▁도독	-17632
▁배설	-17633
▁셔먼	-17634
▁수배	-17635
▁효능	-17636
▁후백	-17637
▁레이어	-17638
▁벤피카	-17639
▁보르도	-17640
▁참모장	-17641
▁스티븐스	-17642
▁캐나다인	-17643
▁캔자스시티	-17644
86	-17645
▁럴	-17646
처리	-17647
▁김문	-17648
▁단사	-17649
▁라티	-17650
▁볼륨	-17651
▁상체	-17652
▁서천	-17653
▁수서	-17654
▁원성	-17655
▁주경	-17656
▁추궁	-17657
▁FBI	-17658
▁Top	-17659
▁다이나	-17660
▁어리석	-17661
▁진보당	-17662
▁찬드라	-17663
▁캥거루	-17664
▁하동군	-17665
▁1855	-17666
▁1857	-17667
▁블레이드	-17668
▁소용돌이	-17669
▁오하이오주	-17670
개혁	-17671
하늘	-17672
▁계란	-17673
▁대세	-17674
▁메사	-17675
▁보문	-17676
▁쇼팽	-17677
▁톨킨	-17678
▁현령	-17679
▁상속인	-17680
▁시부야	-17681
▁애벌레	-17682
▁핵폭탄	-17683
▁크리에이티브	-17684
산읍	-17685
섬유	-17686
▁간장	-17687
▁알비	-17688
▁적성	-17689
▁한서	-17690
▁서북쪽	-17691
▁수산물	-17692
▁휠체어	-17693
▁노동자당	-17694
봉사	-17695
하르	-17696
▁결탁	-17697
▁경색	-17698
▁단성	-17699
▁담론	-17700
▁반려	-17701
▁벽면	-17702
▁서상	-17703
▁수훈	-17704
▁정시	-17705
▁착안	-17706
▁카잔	-17707
트로피	-17708
cess	-17709
icro	-17710
▁공사관	-17711
▁글리코	-17712
▁기념식	-17713
▁시흥시	-17714
▁아가씨	-17715
▁오비탈	-17716
▁작사가	-17717
▁폴란드인	-17718
▁여러해살이풀	-17719
▁뺏	-17720
▁좡	-17721
▁힉	-17722
버거	-17723
ery	-17724
▁봉작	-17725
▁아모	-17726
▁엠블	-17727
▁여생	-17728
▁외동	-17729
▁캔디	-17730
고양이	-17731
콥스키	-17732
▁301	-17733
▁Med	-17734
▁구미시	-17735
▁노스케	-17736
▁테이크	-17737
▁포천시	-17738
▁갑신정변	-17739
▁다이스케	-17740
▁정사각형	-17741
▁프란시스	-17742
BT	-17743
깨비	-17744
댄스	-17745
카테	-17746
▁단호	-17747
▁분개	-17748
▁압송	-17749
▁제학	-17750
▁체첸	-17751
▁치수	-17752
▁페티	-17753
▁베르디	-17754
▁봉사자	-17755
▁시우바	-17756
▁지평선	-17757
▁투데이	-17758
▁포브스	-17759
츠부르크	-17760
▁이와테현	-17761
▁데포르티보	-17762
▁민족주의자	-17763
▁병마절도사	-17764
서구	-17765
일라	-17766
재기	-17767
천년	-17768
▁YM	-17769
▁대광	-17770
▁신영	-17771
▁심슨	-17772
▁정년	-17773
▁주치	-17774
▁핵산	-17775
▁211	-17776
▁223	-17777
▁대주주	-17778
▁상세히	-17779
▁수수료	-17780
▁올라서	-17781
▁일간지	-17782
▁펠로폰	-17783
메니스탄	-17784
▁반공주의	-17785
▁펠로폰네소스	-17786
▁투르크메니스탄	-17787
전기	-17788
▁TG	-17789
▁국면	-17790
▁롤리	-17791
▁명주	-17792
▁버퍼	-17793
▁셀룰	-17794
▁악역	-17795
▁유품	-17796
▁임베	-17797
▁팔자	-17798
▁해금	-17799
▁동의어	-17800
▁은하단	-17801
▁저작물	-17802
▁임베디드	-17803
레토	-17804
테른	-17805
▁CL	-17806
▁거액	-17807
▁랜디	-17808
▁조력	-17809
▁지소	-17810
▁크세	-17811
▁탄원	-17812
▁택지	-17813
▁포구	-17814
▁NAD	-17815
▁Pop	-17816
▁나주시	-17817
▁비엔나	-17818
▁집어넣	-17819
▁헤이스	-17820
니엄	-17821
증권	-17822
흐트	-17823
▁반열	-17824
▁성간	-17825
▁성채	-17826
▁소망	-17827
▁수스	-17828
▁실습	-17829
▁역습	-17830
▁외벽	-17831
▁욕설	-17832
▁이학	-17833
▁쟁점	-17834
▁친절	-17835
▁폰트	-17836
▁현명	-17837
▁화전	-17838
▁히나	-17839
▁그로스	-17840
▁카운터	-17841
▁Free	-17842
▁Will	-17843
쇼프	-17844
ont	-17845
▁IA	-17846
▁권세	-17847
▁노회	-17848
▁만리	-17849
▁무왕	-17850
▁박격	-17851
▁벚꽃	-17852
▁슈바	-17853
▁원제	-17854
▁음경	-17855
▁인테	-17856
▁지병	-17857
▁카렐	-17858
▁대각선	-17859
▁모자라	-17860
▁1776	-17861
▁서아시아	-17862
▁ㄹㅕㄷㅏㄱㅏ	-17863
로아	-17864
day	-17865
▁돌핀	-17866
▁변장	-17867
▁빌미	-17868
▁열반	-17869
▁현청	-17870
▁늘어지	-17871
▁보니파	-17872
▁컨디션	-17873
▁행정관	-17874
▁서스펜션	-17875
니크	-17876
여들	-17877
▁고증	-17878
▁대적	-17879
▁요네	-17880
▁율곡	-17881
▁읽히	-17882
▁조식	-17883
▁친목	-17884
▁템포	-17885
▁파격	-17886
▁루터교	-17887
▁마그마	-17888
▁배트맨	-17889
▁수송기	-17890
▁제이스	-17891
타고라스	-17892
▁무라카미	-17893
▁사카모토	-17894
▁플루오린	-17895
광선	-17896
소득	-17897
스탕	-17898
왕국	-17899
지대	-17900
▁CT	-17901
▁대흥	-17902
▁코민	-17903
▁퇴사	-17904
▁한참	-17905
노벨라	-17906
루리아	-17907
시오날	-17908
▁레너드	-17909
▁바이스	-17910
▁변증법	-17911
▁하이델	-17912
▁형무소	-17913
▁나시오날	-17914
▁미주리주	-17915
▁엔트로피	-17916
▁그레고리력	-17917
▁텔레노벨라	-17918
27	-17919
바꿈	-17920
▁간파	-17921
▁급습	-17922
▁방한	-17923
▁선하	-17924
▁윤선	-17925
▁장구	-17926
▁타오	-17927
▁다면체	-17928
▁모여들	-17929
▁병원체	-17930
▁아세트	-17931
▁오카다	-17932
▁웨이트	-17933
▁이범석	-17934
▁핵실험	-17935
▁올랭피크	-17936
▁태평천국	-17937
볼트	-17938
투안	-17939
하스	-17940
▁골목	-17941
▁금광	-17942
▁뇌졸	-17943
▁문교	-17944
▁미안	-17945
▁부총	-17946
▁서던	-17947
▁알론	-17948
▁언약	-17949
▁중첩	-17950
▁회부	-17951
▁XML	-17952
▁가속기	-17953
▁달라이	-17954
▁클라라	-17955
▁캄파니아주	-17956
가야	-17957
연대	-17958
▁개요	-17959
▁발송	-17960
▁센스	-17961
▁오도	-17962
▁항모	-17963
▁현생	-17964
리어스	-17965
▁독립국	-17966
▁뽑아내	-17967
▁스나이	-17968
▁통합진보당	-17969
ma	-17970
모습	-17971
▁MW	-17972
▁누각	-17973
▁땅콩	-17974
▁살림	-17975
▁상시	-17976
▁성추	-17977
▁액수	-17978
▁잠복	-17979
▁타현	-17980
▁한도	-17981
레시브	-17982
▁거제시	-17983
▁동북쪽	-17984
▁심포니	-17985
▁영산회	-17986
▁청구인	-17987
▁출생지	-17988
ㅇㅣㄷㅏ	-17989
▁가까스로	-17990
▁국민회의	-17991
▁10000	-17992
▁프로그레시브	-17993
29	-17994
를린	-17995
마타	-17996
▁Po	-17997
▁ne	-17998
▁괴팅	-17999
▁김한	-18000
▁버즈	-18001
▁양손	-18002
▁윤석	-18003
▁진안	-18004
▁찬스	-18005
▁퇴화	-18006
▁하쿠	-18007
▁호가	-18008
중국해	-18009
▁베르그	-18010
▁청교도	-18011
▁타고나	-18012
버드	-18013
▁간소	-18014
▁누락	-18015
▁로젠	-18016
▁마고	-18017
▁산탄	-18018
▁셰이	-18019
▁시왕	-18020
▁연좌	-18021
▁이로	-18022
▁히다	-18023
▁del	-18024
▁김종필	-18025
▁마인드	-18026
▁새천년	-18027
▁영등포	-18028
▁황도대	-18029
▁조기어류	-18030
▁피에트로	-18031
▁레오나르도	-18032
연료	-18033
▁가메	-18034
▁교복	-18035
▁국채	-18036
▁듯이	-18037
▁로로	-18038
▁명지	-18039
▁미망	-18040
▁미움	-18041
▁사극	-18042
▁심신	-18043
▁역행	-18044
▁와트	-18045
▁장타	-18046
▁최경	-18047
▁합체	-18048
들랜드	-18049
▁Bro	-18050
▁사모아	-18051
▁서기장	-18052
▁어지럽	-18053
▁묘법연화경	-18054
고도	-18055
저민	-18056
활성	-18057
its	-18058
▁각별	-18059
▁과업	-18060
▁기물	-18061
▁대열	-18062
▁몬트	-18063
▁사성	-18064
▁수잔	-18065
▁입안	-18066
▁질리	-18067
▁총알	-18068
▁혹독	-18069
▁홀드	-18070
irst	-18071
▁굳어지	-18072
▁메이플	-18073
▁벤저민	-18074
▁샘플링	-18075
▁네브래스카	-18076
슐린	-18077
쿠젠	-18078
페리	-18079
평가	-18080
aut	-18081
▁로미	-18082
▁본기	-18083
▁습성	-18084
▁에나	-18085
▁이연	-18086
▁직제	-18087
▁케니	-18088
▁화신	-18089
궐선거	-18090
▁가로막	-18091
▁논산시	-18092
▁모티프	-18093
▁크리켓	-18094
▁원내대표	-18095
▁재보궐선거	-18096
급시	-18097
미치	-18098
▁BR	-18099
▁CV	-18100
▁감명	-18101
▁공녀	-18102
▁발주	-18103
▁비비	-18104
▁음란	-18105
▁재원	-18106
▁청화	-18107
▁콘월	-18108
▁파사	-18109
▁포에	-18110
▁Big	-18111
▁End	-18112
▁단기간	-18113
▁베리아	-18114
▁서남쪽	-18115
▁팰리스	-18116
ㅔㄴ	-18117
개발	-18118
▁ER	-18119
▁나나	-18120
▁노미	-18121
▁독감	-18122
▁마마	-18123
▁밑면	-18124
▁반일	-18125
▁배영	-18126
▁신명	-18127
▁요세	-18128
▁우문	-18129
▁정철	-18130
▁주둥	-18131
▁포탈	-18132
▁퓨전	-18133
▁215	-18134
▁ㄴㅗㄹㅏ	-18135
▁ㅇㅣㅇㅑ	-18136
▁미시간주	-18137
▁스포르팅	-18138
▁캔터베리	-18139
▁코미디언	-18140
▁begin	-18141
▁DL	-18142
▁경치	-18143
▁대양	-18144
▁로자	-18145
▁린드	-18146
▁세브	-18147
▁시로	-18148
▁언젠	-18149
▁원가	-18150
▁이공	-18151
▁장보	-18152
▁지단	-18153
▁천명	-18154
메데스	-18155
▁리서치	-18156
▁치우치	-18157
빼미	-18158
연의	-18159
▁노먼	-18160
▁레베	-18161
▁브롱	-18162
▁위드	-18163
▁유즈	-18164
▁준위	-18165
메네스	-18166
▁DFB	-18167
▁빠뜨리	-18168
▁언젠가	-18169
▁엑스선	-18170
▁프리랜	-18171
▁해설자	-18172
▁포레스트	-18173
▁언더그라운드	-18174
BL	-18175
니발	-18176
▁개간	-18177
▁다의	-18178
▁라비	-18179
▁생사	-18180
▁우메	-18181
▁원화	-18182
더니즘	-18183
▁239	-18184
▁문화사	-18185
▁비정규	-18186
▁특공대	-18187
▁포위망	-18188
ㅍㅣ	-18189
▁미팅	-18190
▁방수	-18191
▁서킷	-18192
▁어필	-18193
▁연천	-18194
▁징후	-18195
▁체임	-18196
▁쿠키	-18197
▁틈새	-18198
▁픽업	-18199
▁510	-18200
▁기장군	-18201
▁유니온	-18202
ㅅㅣㅍㅣ	-18203
▁ㄷㅏㅅㅣㅍㅣ	-18204
HS	-18205
▁젬	-18206
가키	-18207
계리	-18208
코바	-18209
aff	-18210
▁HK	-18211
▁KC	-18212
▁SI	-18213
▁WH	-18214
▁낭독	-18215
▁루아	-18216
▁열광	-18217
▁전갈	-18218
▁종택	-18219
▁질레	-18220
▁창안	-18221
▁코다	-18222
▁평년	-18223
▁픽션	-18224
▁구석기	-18225
▁에인절	-18226
▁특이점	-18227
▁1792	-18228
▁프라이스	-18229
다롭	-18230
보스	-18231
▁가인	-18232
▁국고	-18233
▁니즘	-18234
▁듀크	-18235
▁서드	-18236
▁실드	-18237
▁아그	-18238
▁위니	-18239
▁위아	-18240
▁조참	-18241
▁칸타	-18242
▁한방	-18243
▁황보	-18244
파트라	-18245
▁BMW	-18246
▁권력자	-18247
▁급기야	-18248
▁목걸이	-18249
▁살아나	-18250
▁월리스	-18251
▁전년도	-18252
▁소선거구	-18253
▁아틀라스	-18254
▁자동변속기	-18255
▁클레오파트라	-18256
br	-18257
▁까치	-18258
▁녀석	-18259
▁덧셈	-18260
▁도기	-18261
▁몰입	-18262
▁부원	-18263
▁살상	-18264
▁시료	-18265
▁시암	-18266
▁안상	-18267
▁영아	-18268
▁접착	-18269
▁정파	-18270
▁촌락	-18271
▁포즈	-18272
▁set	-18273
▁계약서	-18274
▁까다롭	-18275
▁부활절	-18276
▁브람스	-18277
▁사생아	-18278
▁void	-18279
▁ㅇㅣㄹㅜ	-18280
oss	-18281
▁내쫓	-18282
▁덤불	-18283
▁루소	-18284
▁메콩	-18285
▁명절	-18286
▁비슈	-18287
▁우랄	-18288
▁정약	-18289
▁패주	-18290
▁표상	-18291
▁함안	-18292
▁Des	-18293
▁게이츠	-18294
▁과선교	-18295
▁서로마	-18296
▁Rain	-18297
▁프로토타입	-18298
▁랏	-18299
루이	-18300
삼문	-18301
지않	-18302
▁RE	-18303
▁경수	-18304
▁매드	-18305
▁바크	-18306
▁버락	-18307
▁세관	-18308
▁예천	-18309
▁유실	-18310
▁향리	-18311
▁호엔	-18312
▁계약금	-18313
▁목격자	-18314
▁사중주	-18315
▁성추행	-18316
▁수메르	-18317
▁표준어	-18318
▁1853	-18319
▁알레르기	-18320
ㄷㅡㄴㅈㅣ	-18321
버섯	-18322
▁ㄴㅜ	-18323
▁감히	-18324
▁난간	-18325
▁동복	-18326
▁마자	-18327
▁상피	-18328
▁시구	-18329
▁시동	-18330
▁양력	-18331
▁영연	-18332
▁오쓰	-18333
▁제향	-18334
▁최북	-18335
너티브	-18336
덜랜드	-18337
▁ㅇㅜㅁ	-18338
▁다다르	-18339
▁미술가	-18340
▁부제학	-18341
▁외삼촌	-18342
▁파이브	-18343
▁동대문구	-18344
▁클라리넷	-18345
▁얼터너티브	-18346
▁엘살바도르	-18347
▁JP	-18348
▁do	-18349
▁가평	-18350
▁금화	-18351
▁다라	-18352
▁도고	-18353
▁박중	-18354
▁산토	-18355
▁성년	-18356
▁아속	-18357
▁티르	-18358
▁ㅇㅏㄴ	-18359
▁게이머	-18360
▁경기력	-18361
▁레일리	-18362
▁브레인	-18363
▁시설물	-18364
▁퍼뜨리	-18365
▁Show	-18366
▁모하메드	-18367
▁슈퍼주니어	-18368
막염	-18369
이인	-18370
행사	-18371
▁구급	-18372
▁모후	-18373
▁스커	-18374
▁으로	-18375
▁입적	-18376
▁자락	-18377
▁정량	-18378
▁청탁	-18379
▁추석	-18380
▁탄환	-18381
▁튀르	-18382
▁홍백	-18383
▁꽃받침	-18384
▁무안군	-18385
▁무인역	-18386
▁미카사	-18387
▁퍼펙트	-18388
▁프레디	-18389
▁프로파	-18390
▁후반부	-18391
▁1791	-18392
▁1852	-18393
▁ㅅㅗㅅㅓ	-18394
▁권위주의	-18395
▁사다하루	-18396
▁속씨식물	-18397
▁크래프트	-18398
▁퓰	-18399
그림	-18400
려지	-18401
서면	-18402
▁독신	-18403
▁밥상	-18404
▁방과	-18405
▁비츠	-18406
▁상권	-18407
▁시판	-18408
▁실화	-18409
▁아쓰	-18410
▁일람	-18411
▁절멸	-18412
▁조승	-18413
▁최치	-18414
핵생물	-18415
▁TOP	-18416
▁버밍엄	-18417
▁보호자	-18418
▁아르카	-18419
▁요리사	-18420
▁중생대	-18421
▁도네츠크	-18422
경궁	-18423
노동	-18424
바타	-18425
vis	-18426
▁교우	-18427
▁수전	-18428
▁오에	-18429
▁잠그	-18430
▁카쿠	-18431
▁캄포	-18432
▁커트	-18433
▁따돌리	-18434
▁성동구	-18435
▁지도력	-18436
▁호위함	-18437
▁LIVE	-18438
▁인테리어	-18439
▁옅	-18440
얼빈	-18441
타라	-18442
IDS	-18443
oup	-18444
▁갑판	-18445
▁노던	-18446
▁도금	-18447
▁메트	-18448
▁부름	-18449
▁북제	-18450
▁비고	-18451
▁사구	-18452
▁셰프	-18453
▁숙성	-18454
▁약정	-18455
▁욕심	-18456
▁제반	-18457
▁회중	-18458
▁후신	-18459
제르맹	-18460
▁끊어지	-18461
▁레프트	-18462
▁점성가	-18463
ement	-18464
▁Mnet	-18465
▁플레이트	-18466
be	-18467
하워	-18468
▁FN	-18469
▁관서	-18470
▁귀납	-18471
▁근연	-18472
▁래스	-18473
▁박인	-18474
▁수첩	-18475
▁식료	-18476
▁실황	-18477
▁에타	-18478
▁연작	-18479
▁장영	-18480
▁제법	-18481
▁착오	-18482
▁플뢰	-18483
▁212	-18484
▁233	-18485
▁그려지	-18486
▁양서류	-18487
▁재정난	-18488
▁벌어들이	-18489
▁퍼레이드	-18490
▁아이젠하워	-18491
▁테러리스트	-18492
▁잣	-18493
팔렌	-18494
▁구보	-18495
▁능통	-18496
▁만다	-18497
▁불황	-18498
▁색인	-18499
▁성하	-18500
▁신재	-18501
▁우쓰	-18502
▁케스	-18503
▁해동	-18504
즐랜드	-18505
▁동인도	-18506
▁분화구	-18507
▁에르난	-18508
▁잎자루	-18509
▁다운타운	-18510
▁빽	-18511
▁찻	-18512
노헤	-18513
티드	-18514
▁EN	-18515
▁FX	-18516
▁국물	-18517
▁대검	-18518
▁영세	-18519
▁장터	-18520
▁히브	-18521
▁ㄴㄷㅐ	-18522
▁검사장	-18523
▁유목민	-18524
▁음악회	-18525
▁정말로	-18526
▁황갈색	-18527
▁1847	-18528
▁Like	-18529
▁도쿠시마	-18530
▁생제르맹	-18531
▁퀸즐랜드	-18532
▁필리포스	-18533
▁히로시마현	-18534
▁뚝	-18535
▁강물	-18536
▁벨레	-18537
▁서하	-18538
▁수온	-18539
▁여태	-18540
▁원망	-18541
▁친숙	-18542
▁팔각	-18543
▁호치	-18544
▁희박	-18545
▁개찰기	-18546
▁게이초	-18547
▁세례명	-18548
▁앵글로	-18549
▁조나단	-18550
▁지원자	-18551
▁LOVE	-18552
▁루키우스	-18553
▁뱀파이어	-18554
개명	-18555
에어	-18556
하트	-18557
▁EF	-18558
▁고타	-18559
▁귀향	-18560
▁독려	-18561
▁라벤	-18562
▁매너	-18563
▁수찬	-18564
▁슬럼	-18565
▁신숙	-18566
▁쑨원	-18567
▁예견	-18568
▁완투	-18569
▁요트	-18570
▁월급	-18571
▁윤상	-18572
▁은둔	-18573
▁이족	-18574
▁청진	-18575
▁상류층	-18576
▁이스턴	-18577
▁재판장	-18578
▁중학생	-18579
▁현악기	-18580
▁경향신문	-18581
▁천주교회	-18582
▁콘스탄티노플	-18583
▁고작	-18584
▁김호	-18585
▁망상	-18586
▁보두	-18587
▁수뇌	-18588
▁출소	-18589
▁김포시	-18590
▁릴리스	-18591
▁옹진군	-18592
▁이베이	-18593
▁저술가	-18594
▁최적화	-18595
▁퀘스트	-18596
▁레인보우	-18597
▁시트르산	-18598
▁옥타비아	-18599
▁프리랜서	-18600
▁롬바르디아	-18601
▁OC	-18602
▁mg	-18603
▁가봉	-18604
▁경감	-18605
▁계파	-18606
▁과천	-18607
▁기노	-18608
▁마로	-18609
▁밀턴	-18610
▁버블	-18611
▁섬멸	-18612
▁세가	-18613
▁안젤	-18614
▁야채	-18615
▁여야	-18616
▁영해	-18617
▁음색	-18618
▁이계	-18619
▁제각	-18620
▁쿠페	-18621
▁포리	-18622
▁호감	-18623
하이머	-18624
▁관악구	-18625
▁다각형	-18626
▁올빼미	-18627
▁인슐린	-18628
▁핵연료	-18629
▁옵티머스	-18630
▁은행나무	-18631
▁버지니아주	-18632
▁즌	-18633
방식	-18634
오세	-18635
▁NK	-18636
▁UK	-18637
▁고질	-18638
▁공물	-18639
▁관사	-18640
▁기치	-18641
▁마누	-18642
▁만찬	-18643
▁약국	-18644
▁유위	-18645
▁음소	-18646
▁점심	-18647
▁초중	-18648
▁황성	-18649
리오카	-18650
▁강아지	-18651
▁명백히	-18652
▁부끄럽	-18653
▁생태학	-18654
▁유학생	-18655
▁똥	-18656
▁젓	-18657
랄라	-18658
비어	-18659
way	-18660
▁구면	-18661
▁남짓	-18662
▁마조	-18663
▁불펜	-18664
▁수난	-18665
▁연사	-18666
▁조만	-18667
▁주술	-18668
▁최재	-18669
▁품계	-18670
▁호러	-18671
▁회군	-18672
자위대	-18673
▁221	-18674
▁Bar	-18675
▁Red	-18676
▁가오슝	-18677
▁레슬리	-18678
▁레오니	-18679
▁브룩스	-18680
▁세일러	-18681
▁중대장	-18682
▁편의점	-18683
▁한마디	-18684
▁현저히	-18685
▁Sound	-18686
▁안티고노스	-18687
▁뿌	-18688
귀비	-18689
야구	-18690
▁es	-18691
▁계명	-18692
▁나팔	-18693
▁냉동	-18694
▁미신	-18695
▁미일	-18696
▁발화	-18697
▁서간	-18698
▁송금	-18699
▁쓰가	-18700
▁차드	-18701
▁회기	-18702
ouse	-18703
▁Sec	-18704
▁뇌졸중	-18705
▁좀처럼	-18706
▁탈수소	-18707
▁하얼빈	-18708
▁Over	-18709
▁Light	-18710
WS	-18711
▁읊	-18712
▁골자	-18713
▁궁금	-18714
▁대파	-18715
▁라피	-18716
▁명품	-18717
▁발라	-18718
▁보현	-18719
▁선방	-18720
▁스벤	-18721
▁연일	-18722
▁왈라	-18723
▁우성	-18724
▁주어	-18725
▁진과	-18726
▁콕스	-18727
▁푸시	-18728
▁혈청	-18729
▁리히텐	-18730
▁미망인	-18731
브레히트	-18732
▁1100	-18733
▁Sing	-18734
▁가이우스	-18735
▁브래들리	-18736
▁창씨개명	-18737
▁카리브해	-18738
▁콘티넨털	-18739
워키	-18740
▁나츠	-18741
▁따내	-18742
▁부응	-18743
▁슬롯	-18744
▁클론	-18745
▁231	-18746
▁세포막	-18747
▁정보국	-18748
▁1844	-18749
▁동명이인	-18750
색슨	-18751
▁ac	-18752
▁낙인	-18753
▁동족	-18754
▁삼가	-18755
▁수작	-18756
▁슬퍼	-18757
▁신빙	-18758
▁오목	-18759
▁외화	-18760
▁커크	-18761
▁크릭	-18762
대주의	-18763
하이드	-18764
ason	-18765
▁Eng	-18766
▁배상금	-18767
▁여름철	-18768
▁피스톤	-18769
▁요코스카	-18770
▁앵글로색슨	-18771
▁즙	-18772
옹주	-18773
▁갑상	-18774
▁굴리	-18775
▁베레	-18776
▁식년	-18777
▁신예	-18778
▁안구	-18779
▁앙주	-18780
▁유주	-18781
▁이등	-18782
▁자력	-18783
▁정구	-18784
▁쾌락	-18785
▁파니	-18786
▁한류	-18787
▁후각	-18788
▁산화물	-18789
▁수류탄	-18790
▁계몽주의	-18791
▁곤살레스	-18792
▁랜드마크	-18793
aj	-18794
거슨	-18795
프슨	-18796
▁JS	-18797
▁간편	-18798
▁고부	-18799
▁과수	-18800
▁다키	-18801
▁색조	-18802
▁아워	-18803
▁오경	-18804
▁이면	-18805
▁재야	-18806
▁지드	-18807
▁하체	-18808
▁학점	-18809
▁갑각류	-18810
▁경영진	-18811
▁사이다	-18812
▁참가국	-18813
▁카이저	-18814
▁플랜트	-18815
▁하루카	-18816
▁사회단체	-18817
▁민속문화재	-18818
니언	-18819
루트	-18820
타바	-18821
▁RO	-18822
▁TA	-18823
▁강수	-18824
▁균류	-18825
▁마왕	-18826
▁미오	-18827
▁박주	-18828
▁아론	-18829
▁요안	-18830
▁유루	-18831
▁취락	-18832
▁토토	-18833
▁필살	-18834
▁Net	-18835
▁박격포	-18836
▁현급시	-18837
▁1837	-18838
[...]
