[UNK]
[CLS]
[SEP]
[PAD]
[MASK]
!
"
#
$
%
&
'
(
)
*
+
,
-
.
/
0
1
2
3
4
5
6
7
8
9
:
;
<
=
>
?
@
A
B
C
D
E
F
G
H
I
J
K
L
M
N
O
P
Q
R
S
T
U
V
W
X
Y
Z
[
\
]
^
_
`
a
b
c
d
e
f
g
h
i
j
k
l
m
n
o
p
q
r
s
t
u
v
w
x
y
z
{
|
}
~

ᄀ
ᄁ
ᄂ
ᄃ
ᄄ
ᄅ
ᄆ
ᄇ
ᄈ
ᄉ
ᄊ
ᄋ
ᄌ
ᄍ
ᄎ
ᄏ
ᄐ
ᄑ
ᄒ
ᅡ
ᅢ
ᅣ
ᅤ
ᅥ
ᅦ
ᅧ
ᅨ
ᅩ
ᅪ
ᅫ
ᅬ
ᅭ
ᅮ
ᅯ
ᅰ
ᅱ
ᅲ
ᅳ
ᅴ
ᅵ
ᆨ
ᆩ
ᆪ
ᆫ
ᆬ
ᆭ
ᆮ
ᆯ
ᆰ
ᆱ
ᆲ
ᆳ
ᆴ
ᆵ
ᆶ
ᆷ
ᆸ
ᆹ
ᆺ
ᆻ
ᆼ
ᆽ
ᆾ
ᆿ
ᇀ
ᇁ
ᇂ
ㄱ
ㄲ
ㄳ
ㄴ
ㄵ
ㄶ
ㄷ
ㄸ
ㄹ
ㄺ
ㄻ
ㄼ
ㄽ
ㄾ
ㄿ
ㅀ
ㅁ
ㅂ
ㅃ
ㅄ
ㅅ
ㅆ
ㅇ
ㅈ
ㅉ
ㅊ
ㅋ
ㅌ
ㅍ
ㅎ
ㅏ
ㅐ
ㅑ
ㅒ
ㅓ
ㅔ
ㅕ
ㅖ
ㅗ
ㅘ
ㅙ
ㅚ
ㅛ
ㅜ
ㅝ
ㅞ
ㅟ
ㅠ
ㅡ
ㅢ
ㅣ
##ᅳ
##ᄅ
##ᅦ
##ᄋ
##ᅵ
##ᄃ
##ᄒ
##ᅢ
##ᄀ
##ᅡ
##ᆻ
##o
##l
##f
##!
##ᅧ
##ᆯ
##ᄇ
##ᅩ
##,
##ᄉ
##ᅥ
##ᆫ
##ᄌ
##ᆼ
##ᄆ
##ᅴ
##n
##t
##r
##z
##ᅣ
##.
##ᅭ
##ᄂ
##1
##0
##ᅮ
##ᆨ
##ᅲ
##ᄑ
##ᆺ
##ᄏ
##ᅪ
##ᅬ
##$
##ᄐ
##ᄎ
##ᆷ
##ᆸ
##"
##ᆩ
##g
##i
##c
##u
##m
##ᅱ
##O
##N
##T
##R
##L
##8
##'
##ᆭ
##?
##ᆹ
##K
##B
##S
##ᅫ
##ᅯ
##D
##7
##;
##3
##ᆮ
##s
##a
##k
##ᅨ
##/
##ᄁ
##2
##6
##9
##5
##ᄈ
##ᇀ
##ᄍ
##4
##%
##e
##W
##-
##{
##M
##:
##~
##p
##y
##>
##h
##*
##&
##)
##ㅐ
##ㄻ
##ᅰ
##d
##ᆽ
##w
##=
##ᇁ
##ᄊ
##v
##@
##b
##I
##ᆱ
##P
##[
##E
##A
##Y
##\
##]
##x
##V
##ㅅ
##+
##ᇂ
##C
##J
##U
##G
##H
##F
##ᄄ
##ᆰ
##^
##ᆾ
##j
###
##`
##_
##ㅞ
##ㅂ
##(
##q
##Z
##ᆬ
##ᆶ
##ㅇ
##ᆴ
##X
##ᅤ
##ㅡ
##ㅆ
##Q
##|
##}
##ㄹ
##ㄴ
##<
##ᆲ
##ㅋ
##ㅎ
##ᆿ
##ᆪ
##ㄷ
##ㅊ
##ㅜ
##ㅈ
##ㅕ
##ㅑ
##ㄿ
##ㅍ
##ㄱ
##
##ㅙ
##ㅖ
##ㅒ
##ㅠ
##ㅌ
##ㅁ
##ㅚ
##ㄺ
##ㅏ
##ㅣ
##ㅓ
##ㅟ
##ㅝ
##ㅄ
##ᆳ
##ᆵ
##ㅢ
##ㄼ
##ㅔ
##ㄲ
##ㅛ
##ㄽ
##ㅃ
##ㄵ
##ㄾ
##ㅗ
##ㅀ
##ㄶ
##ㅉ
##ㄳ
##ㄸ
##ㅘ
##이
##ᅳᆫ
##ᅳᆯ
##ᅡᆫ
##다
##는
##에
이
##다.
##로
##ᅡᆼ
##ᅥᆫ
##의
##하
##지
##을
##ᅧᆫ
##가
##서
##고
##어
##도
##리
##ᅮᆫ
##시
##ᅧᆼ
##으
##ᅡᆯ
##기
##를
##은
##라
##스
##한
##해
##저
##ᅩᆼ
##ᆻ다.
##ᅮᆯ
아
시
##인
##ᅧᆨ
##나
##ᅩᆨ
그
##자
##게
가
##으로
##에서
##아
하
##ᅩᆫ
사
##과
저
##ᅳᆼ
##들
##ᅮᆨ
거
##면
지
##만
어
마
##워
##ᅮᆼ
##니
##되
있
수
자
##대
##사
##드
##와
기
나
##여
대
##트
##러
##장
##화
##요
모
##ᅢᆼ
다
보
##ᅦ이
##년
##치
##우
한
서
전
##미
바
##부
##수
##야
##전
##며
##르
##그
##정
##적
것
##일
##상
##마
##버
##ᅧᆯ
##ᅩᆯ
##터
##데
##성
되
##려
##주
##하는
미
정
20
##거
일
유
해
##국
##용
##지만
##제
조
##ᅢᆨ
##이다.
스
상
##히
##신
때
##력
공
##보
##구
부
비
##키
있다.
##타
##문
주
제
경
##었
##원
##래
##동
중
오
화
인
##었다.
##오
##ᅣᆼ
##간
##진
없
##비
##격
위
무
##ᆷ을
##ᅯᆫ
##ᅥᆯ
##명
##월
않
등
##에게
차
과
소
##위
##던
여
고
##하고
##ᅳᆨ
##차
##할
##ᆷ이
##유
##선
##까
##크
##티
##바
##회
##세
##소
201
노
##된
##하여
##했
##체
##계
##당
##무
##레
내
만
##작
##00
##한다.
##카
있는
세
피
##처
##내
도
##공
방
##학
동
성
구
더
영
후
타
##고,
선
연
##단
##다는
##재
##식
##루
발
##후
##조
##운
말
##이라
##다고
##즈
##교
신
에
안
장
##실
##분
##했다.
생
##피
##프
버
개
##디
우
##중
의
##..
##모
##른
##행
때문
##개
##역
##물
처
##까지
카
최
##속
##하게
19
##에는
##음
##능
##토
드
적
아니
##군
##져
##들이
##면서
와
치
불
##호
##린
##는데
##반
요
##노
##생
리
##연
파
강
진
당
실
##며,
문
많
##산
##테
##ᅢᆫ
결
같
##더
원
##경
##류
##관
알
포
##본
한다.
특
##에서는
##안
관
##방
반
##각
##코
##ᅳ로
##적으로
##레이
##록
##번
##급
경우
들
##준
작
너
매
때문에
된
야
히
##영
##건
역
배
##습
따
단
##민
추
라
사라
##태
받
사용
##든
##베
##파
##두
남
##적인
##런
##점
##발
출
##부터
그러
##ᆯ리
이후
##법
##형
현
그리
데
##종
자신
##하기
##포
못
공격
##해서
물
##승
또
본
##난
코
국
##업
##통
##판
##브
##란
예
초
10
메
레
##ᆨ을
##라는
좋
계
##라고
통
##온
##스트
##ᆷ은
##머
두
호
재
##대로
##양
##론
달
감
##술
##투
입
로
함
건
회
##네
##ᆷ의
##다가
##녀
분
캐
애
##입
##ᆻ으
##하면
##료
머
패
##들은
##너
명
##션
다른
교
##지만,
김
##ᆯ이
##직
정도
##초
참
##표
##권
##되었다.
##들을
##랑
외
##합
크
편
평
올
##족
##금
##량
##ᅳᆷ
##매
##기도
##지는
##에도
게이
설
쓰
할
죽
##들의
대한
것이
티
##ᆷ으로
##기에
등장
##혀
뒤
##하다.
돌
##기를
플
200
##ᆯ을
##았
그리고
##배
##츠
##출
##푸
디
속
된다.
잘
##하지
##울
##되어
##이나
##현
##등
확
가능
##청
##령
##황
직
아이
종
##병
같은
##메
##복
##석
들어
맞
##er
##천
##것
하나
##언
변
##릭
하는
이르
##리는
##편
게
사실
키
살
##겨
##께
하지만
##외
##련
12
##때
승
끄
##향
심
##망
걸
##커
학
프
있으
토
체
운
높
##환
시작
##하였다.
##는데,
##허
##설
##ᆷ에
##거나
필
모습
일본
행
##약
##스터
활
목
번
함께
##케
##보다
##질
##쿠
점
베
박
약
채
##강
##럼
##절
각
##는다.
언
한국
양
커
트
##페
##리를
##살
##...
간
##씨
##목
##였
사이
존
있었
##말
##송
##in
##기가
11
##있
위해
##았다.
날
##된다.
표
##다면
나오
것을
##독
이상
생각
만들
##라이
##어서
테
##되는
군
##쳐
독
사람
##즌
했
프로
증
문제
투
순
##하며
또한
새
##쪽
##결
##탄
워
열
##니다.
##퍼
##시키
##임
집
따라
##학교
##색
##이라고
손
총
끝
완
가장
##되었
##이라는
##심
##력을
##집
태
다시
형
##막
##패
##였다.
잡
클
##에서도
##째
효
##왕
##예
당시
##립
##리가
##릭터
근
##근
##on
판
##지를
##함
및
되었다.
##처럼
##긴
없는
음
##글
##ᇂ게
##력이
왕
캐릭터
모두
##데,
싸
##항
##락
##0년
##ᅥᆯ어
상대
플레이
용
막
볼
15
폭
능
##기는
항
난
##악
없다.
상황
##곡
##날
스키
##an
별
모든
빠
##or
##ᆺ이
루
##별
결국
복
추가
##지고
것이다.
##8년
##ᆯ로
시간
##규
했다.
느
것으로
네
##스의
친
##쟁
보여
##ᆸ게
충
앞
광
##남
##느
##자가
현재
##달
그래
##9년
상태
자신의
게임
많이
##이었
것은
##받
##켜
##플
합
삼
##끼
##하면서
##어나
그러나
다만
##냥
존재
##존
임
##7년
블
허
##택
##접
##리즈
##냐
그런
##벨
##스를
##겠
보면
시즌
천
큰
넘
##없
전투
18
미국
눈
##스가
브
##이는
병
첫
누
##탈
다음
준
산
##6년
얼
##견
페
매우
##ar
##성이
##리아
카드
많은
##블
##.1
선수
악
199
세계
금
헤
##엔
먹
효과
듯
##나,
취
##턴
##틀
##추
##박
##랜
##험
##들에게
얻
줄
##므로
##5년
##he
##ᆺ을
##지가
나온
##득
상당
라이
##.0
##at
백
##인이
경기
이러
찾
이유
슈
민
##품
바ᄁ
##광
물론
아니라
##ᆯ러
않는
이용
##창
식
##순
지역
##친
##널
##감
여러
있었다.
##가는
황
16
##으면
기록
쉬
##짜
북
하고
엄
##림
##4년
아닌
어ᄄ
##사를
괴
처음
돌아
극
니
실제
##가지
##인다.
이런
##변
자체
갈
겨
떠
##-1
필요
##불
##백
##으며
##들과
업
온
##000
##열
일반
은
시리즈
##부분
창
이미
##ᆫ트
바로
13
절
##하자
##범
##슬
터
##철
청
##름
거의
역시
##졌다.
##en
##애
##사가
팬
되어
해당
##착
피해
##상을
##칭
##라도
##인지
특히
모습을
기술
레이
##시아
##리고
영화
30
주인
##ᆯ드
##도가
##찬
##이고
14
##괴
##주의
기본
탈
##ou
##진다.
즉
마법
팀
나와
철
##혼
통해
붙
관련
진행
혼
##례
##맨
아무
이야
##기로
##찰
골
##장을
엔
##3년
##ᆫ다.
떨어
##어가
같이
17
마지
##스는
수도
##2년
뜨
##릴
올라
둘
유니
힘
귀
며
##희
곡
##올
스킬
##했던
##극
##성을
권
밝
##ᆸ을
##국의
##몬
좋은
##거리
좀
쿠
##육
위치
몰
제작
방송
##졌
##으며,
##al
##st
##클
##평
##해야
대부분
되었
환
##증
##에선
부분
사건
##주는
##징
어려
##로는
스타
##아서
범
잠
찌
계속
##같
마지막
탄
비스
##1년
##ᆺ한
증가
##20
참고
##린다.
##ᆨ스
##슨
##활
##리에
##축
##응
일부
않고
몇
##걸
방어
달리
인간
##귀
싶
접
##북
되는
있어
만들어
맡
검
주인공
##리스
##돌
보고
내용
##전히
서울
밀
있을
##하고,
않은
뿐
꼬
활동
능력
가지고
##큼
축
##ᆷ버
까
##르는
그냥
##시간
##쉬
##담
이전
##시에
보이
##로,
국가
어느
풀
##장이
##놓
##럽
인해
100
##정을
곳
##링
##책
성공
그의
정도로
##re
대신
##드는
이를
##.2
담
수준
##리어
##dd
##인의
타이
##랴
낮
대해
법
##자를
##갈
혀
##층
퍼
러
뛰
##ᆨ이
25
##으나
##트를
새로
##메이
##도록
상당히
##볼
##굴
격
##수가
##le
##봉
##자의
##총
암
받아
그녀
않는다.
써
대표
##ᆻ으나
보인다.
##렸
높은
규
최대
##이가
##10
##위를
198
논
이동
##스로
기준
##마다
않았
##it
##드를
여기
##렸다.
것.
##시켜
##있는
몬
##이었다.
될
제외
좋아
것도
##되고
너무
##누
##람
팔
웨
그대로
홍
인물
##와의
덕
##슈
나타
면
감독
이는
##지도
##ff
##ᆩ에
글
##앙
##사의
결과
중국
##들도
의미
흐
희
대한민
이어
##려고
##팅
없이
직접
등의
스ᄐ
##트로
##하였
##기의
##수를
벌
##길
##ᆸ이
##르게
원래
전체
언급
꾸
##딩
##도를
##측
스토
##도로
##먹
##정이
-2
짜
##스테
울
싸우
##곤
##ing
##이트
알려
##폭
이름
##리의
##닝
##전을
케
##ic
갖
하다.
애니
동안
레벨
경우가
보내
##.5
데미
자신이
##치는
##늘
##자는
육
##율
관계
##드의
의해
있던
##벌
소속
##다!
##번째
##대의
##습니다.
##일에
##욱
나오는
전쟁
가까
##하지만
멤버
향
과거
유저
##자.
던
슬
##인데
##ᆻ을
##웨
지원
이것
길
##대를
문서
쓸
선택
##로서
2018년
##확
##웅
질
이에
##ᆻ으며,
묘
푸
늘
넣
뉴
많다.
##ᅦ이지
##이며
사람이
발매
그렇
##억
느끼
포함
##스타
##씩
망
그는
##중에
##하던
##나가
##략
##될
##렌
자기
성우
봐
최고
##캐
##점이
몬스터
엄청
##없이
위한
##등학교
##손
50
##점을
설명
##ᆻ던
평가
##나는
깨
샤
방법
21
크게
휴
##컬
##화를
바뀌
출연
##드가
##써
찾아
먼
불가
컨
##돼
아버
##줄
##풍
홈
개발
유명
연구
왜
##채
시절
##과는
##상이
##치가
##찌
있으며,
##잡
##am
장면
만든
##치를
혹
##인을
빼
2019년
칼
##원이
리그
밝혀
##훈
영향
12월
2017년
사망
꽤
##어로
실제로
이루
압
##되지
##하기도
들어가
발생
##먼
7월
급
책
4월
있다는
협
##팀
초반
##이자
##어난
##리지
8월
쪽
##벽
이때
##샤
말을
드라
배우
##그래
봉
##줘
3월
5월
프랑
우승
##새
##센
9월
10월
##ᆻ다고
22
##률
돈
##효
갑
주로
##밀
6월
##머니
바라
##랙
도시
##준다.
전부
2016년
##es
##전에서
공식
출신
##명이
아이테
24
무기
##전에
제대로
운영
##벤트
만나
사랑
##이어
##덕
인터
##ᅦ이스
##el
소환
하지
놀
보여주
자주
##과의
##운드
##이며,
##트가
중요
##식을
그것
##하며,
없었
##켓
또는
최종
아직
##음을
농
공격력
1월
##리그
##충
##ᅦ일
##으로,
##객
the
정보
놓
최초
##명을
측
어떠
##om
##있다.
듣
서로
##와는
친구
##으로는
참고로
##에서의
역할
##휘
학생
적이
비해
노래
않아
나온다.
학교
##일,
있어서
강력
파괴
##-0
기존
##퇴
이벤트
##했을
##ᆯ레
가진
공개
##la
##적이
궁
11월
여성
23
##옥
비교
##격을
아래
정말
마찬
##50
##획
##자로
##였던
어떤
##ᆼ크
##is
마찬가지
##뜨
##듯
강화
송
지나
해도
빨
사회
끌
등을
##리카
##지의
당연
독일
뽀
##니까
변경
침
형태
결정
##히려
프리
##사는
보통
##드로
##명의
##ᆺ에
##인은
유지
##하려
##스와
설정
##스러
##나라
##룡
살아
탑
휘
조금
##필
##ᅯᆯ
그런데
마이
##동안
때문이다.
쇼
##서는
오히려
##개의
2015년
스페
##니아
##수의
##ᆻ으며
착
아니다.
##지어
##숙
##요.
##했고,
정신
##대에
##오는
후반
##킹
##군의
##침
잔
회복
##르면
지금
찍
##어도
##대가
##하거나
발견
##골
폐
2월
##et
슈퍼
##물을
월드
##픽
게다가
알고
##프트
##분에
197
##는지
조선
드래
##하다
##나마
이번
이러한
나가
않았다.
돼
유일
구성
영상
##ol
##원을
행동
있다고
##자인
40
있으며
있는데,
##어를
##ion
##폰
사실상
그래서
##,000
유닛
앨
##nd
멀
아예
모양
주장
##했다고
새로운
하면
##회의
##이를
일단
자유
##30
##랜드
여자
##11
특수
##지로
##-2
##같은
##튼
##염
이렇게
##경기
이제
승리
뜻
부족
##갑
드러
##ᅩᆯ로
성능
좌
노선
##화가
##텐
작품
##화에서
등이
##디오
동시에
데이
##ᅩᆾ
##이기
흔
모데
주변
먼저
비슷한
심지어
##라면
정부
##ᆷ.
차지
##도의
대한민국
일이
윤
##셔
##ᅢᆼ크
##ᆯ라
없어
가능하다.
##협
버전
그렇게
##균
발동
씨
완전히
같다.
확인
수록
흑
힘들
정치
##ow
##스티
##뢰
##밖에
그래도
내려
##다며
##상으로
##스,
##통령
난이
적용
##검
방식
##헤
##빠
메이
##멸
생산
##ig
26
콘
잃
##특
좋다.
영웅
##ed
보스
바이
##il
28
##ᆼ글
##리오
움
##보면
##뷔
##메이션
##ᆨ시
이야기
도우
있는데
녹
영국
##스크
##ᆷ피
##다"
시스테
2014년
##구를
획
성격
혹은
##빈
한번
다이
27
실패
##하는데
어디
##데이
전에
기사
어떻게
##만큼
음악
전혀
##간에
있지만
자세
있게
##도는
##르고
##죄
못한
패배
원작
꺼
##아내
우리
##ac
##얼
31
가지
##!!
##궁
##더라도
국내
차량
##원의
빛
굉
장비
작푸
위해서
감소
응
##as
사진
스트
##념
센
색
##대한
딸
얼굴
동일
때는
불가능
##쓰
있고
에피
##지에
##이지만
엘
얼마
##ve
##BS
대통령
##아가
##트의
지속
가져
데뷔
하이
대학
체력
오브
뽑
표현
대회
참여
1,
##밍
##컵
##인데,
##ᆸ다.
마을
마음
##봐
플레이어
굉장
이루어
출시
##간다.
##른다.
힘을
##.3
석
다니
##씬
of
##보다는
획득
##으나,
##님
##완
##탕
하루
##혁
##자,
다양
애니메이션
반응
풍
##했고
뭐
##장의
특성
등장하는
##뷰
긴
##칸
##힌
##ᆻ다는
##압
액
196
##대학교
졸
발표
##체를
##다'
##알
움직
해서
숨
##ᆻ고,
인정
견
정확
##참
##ᆭ은
기능
자동
##해도
##버스
명칭
##끔
오래
##제가
바다
그나마
담당
쓰는
문제가
따라서
드래곤
##맹
##싸
역사
드라마
있고,
##렉
자신을
프로그래
진출
##뉴
훈
몸
상승
경우도
덕분에
##콘
##취
이름을
판매
##큐
번째
작중
##웃
##룹
남자
사용하는
대체
##지,
쓴
##약을
##상의
##조차
##혹
월
##어버
받은
##수는
아마
있기
##었던
##문을
요구
특징
수비
##삼
설치
공격을
퇴
경찰
선발
##탁
남아
제1
일어나
##0년대
##ot
##라가
조건
##우스
빈
##장에서
상위
2017
다르
하여
불러
하였다.
받고
##액
##라의
고려
##했다는
개인
##제를
나이
중앙
##사로
Lv
만큼
##못
맥
참가
##척
##끄
따르면
듯.
축구
##다니
파이
에피소
##한다는
##수로
##했지만
가능한
아주
말이
땅
##전이
##권을
자체가
물리
##군이
크로
컴
##ad
항목
##ᆸ니다.
##한테
29
강력한
더욱
순간
2013년
##부의
##ᆻ으나,
어머니
주의
2차
각각
믿
##.4
대해서
상대로
건물
##장은
끝나
##혜
폴
우주
##춰
득
-1
펼
##ᆷ피언
딱
##가가
##지지
맨
##이드
##넷
##최
후보
끼
헌
확실
굉장히
사람들이
##적을
비판
##계를
시간이
편이다.
뮤
##문에
##장으로
##카이
##톤
##이기도
##스키
##튜
##답
비슷
러시아
가격
결혼
현대
쳐
가족
##장에
##ᆫ의
후에
구조
##이었던
어린
케이
피해를
##혈
##치고
챔피언
불구
단순
참조
##춘
빌
##부를
습
시점
##되면서
##id
무시
낙
아르
주요
##mm
마찬가지로
##량이
여기서
진짜
사용할
폭발
##선을
대미
여다
##부에
##십
선거
활약
쏘
준비
##ch
2012년
##대는
세이
##위원
있었던
가면
생겨
과정
일으
속성
섬
##타를
숙
제공
##낸
나머
##체가
묻
되고
##레이드
엄청난
스토리
##뮤
지구
쉽게
옆
가능성이
##치로
약간
##까지는
The
활용
않다.
##음이
##ᆻ지만
수가
가는
벌어
훨
방영
##ay
초기
히로
혼자
##내는
받는
제한
2000
##트는
##들에
##ER
##면,
클리어
시청
##엘
마스터
대전
##정한
여전히
##ᅢᆫ드
논란
스피
발사
194
프랑스
동료
탐
##시키는
##.6
##임을
괘
##시즌
부산
60
당연히
작은
##."
비로
패턴
술
쓰러
분위
##인물
한편
##력은
못하고
##려서
훨씬
##뿐
St
사고
##ᆫ이
##칠
웃
현실
퀘
지하
주는
##.7
##식이
제국
##업을
##ᆻ고
##리,
나무
1일
맵
##흐
강한
흡
##곳
##닉
그가
##욕
##익
래
##리로
듀
이해
하며
##으니
츠
제2
영향을
##정도
##개를
##us
싫
방향
##하다는
얘
콜
적을
##40
그를
읽
##제로
##히는
보호
##없는
##만한
특별
똑
기간
##만이
##위로
확류
##심을
##해주
##둥
##릿
유럽
##행을
##놓고
한정
죄
조합
##키는
FC
##움
##합니다.
괜
파워
해결
최근
취급
##리와
나타나
지니
##나이
##사와
##레벨
삼성
지그
2010년
짧
도망
##ro
##기,
역할을
##수록
##감을
##짝
기준으로
영어
본인
블랙
소모
##프를
곧
연결
##흥
의견
류
브라
국민
##.8
##듀
쿨
##헌
보는
즐
굴
때문.
##만에
크리스
국제
##자기
않을
for
##라운드
문제는
흥
##학년
어두
##케이
##다,
##위가
처리
##꾸
##좌
이탈
지방
##!"
다양한
##쩌
##킨
##촌
중요한
익
엘리
TV
정도.
##ir
전용
추정
##BC
##라인
버스
자연
2011년
##꺼
에이
##도,
것에
##라서
##신이
##가를
충분
교육
##폐
없었다.
##위에
핵
벗
##인트
##랄
##학생
##붙
##암
##가의
방면
이유는
트위
##죠
라인
##쇼
2018
##시의
스스로
문화
##사에
끊
중시
무려
불구하고
##둔
오른
다음과
운동
##로부터
##자와
받았다.
##으면서
##지션
##듯이
##난다.
아군
##렬
##12
보이는
타입
언제
##로를
##만을
장착
##신을
195
출전
##구가
등장한다.
들고
기타
나서
넘어
##기와
퀘스트
##ht
##죽
내가
아버지
##단의
낮은
운행
##륙
##틴
##한다고
미션
알아
이름이
벽
##소를
##보니
##이지
##크로
##회를
##져서
이유로
##성은
경제
##대학
편.
HP
##th
모드
중에
연속
나ᄈ
##명은
##팔
대부분의
##자들이
굳
##성의
경우는
입장
##벤
나는
##'라는
찬
절대
##하다고
##ᆰ은
에너
나ᄂ
##리기
전문
##비아
##un
아들
되면
종료
염
##우는
더불
이ᄁ
구간
넓
##im
##하다가
##ᆨ트
되지
##초에
##원으로
튀
타고
수상
말한다.
##dddd
##쇄
독립
부르
##당한
떠나
번역
달성
베이
예정
##싱
##력으로
##터를
포켓
##지게
메인
##엄
솔
##ur
엔딩
##.9
##원은
##전의
제목
근접
##이의
##od
이상의
##세대
##말로
##유의
##네이
##세기
##기고
싱글
목소
##라를
네이
일본의
자리
##에게는
##15
아프
여담으로
##묘
종류
만약
항공
무어
관리
배경
##마의
##32
일을
##이고,
졸업
업데이
현재는
생존
받았
더불어
##로가
##스에
검은
했지만
SK
##km
##함을
##사,
조직
시도
칭
##공격
##시를
위에
##봇
에피소드
##맞
야구
반대
민주
##따
하면서
##ᆨ제
밖에
##조건
##점으로
##ST
나머지
최소
배틀
하기
##비가
##마저
일정
##부가
##빙
##ut
##상에
엔진
속도
##신의
##ᆻ는데
##세이
##왔다.
만화
제외한
목표
칸
##ᆯ립
##려는
##관이
지휘
2019
##티브
항상
202
##라며
##세를
##ag
##ᆻ다
얻을
##거나,
틀
분노
잘못
유리
대사
능력을
##ver
부활
수정
플래
##종의
아이템
##시가
앨범
##운데
두고
생긴
##60
성장
##짓
직업
정도의
공연
신경
랜
##?"
##윤
##쿄
##단을
빅
정식
위험
유명한
전작
##ec
뒷
소재
##19
##37
모델
##같이
##홍
##나게
##ᆷ보
돌아가
##시로
##여서
##야마
##어들
2016
좋지
포켓몬
##지기
스파
##물이
##시마
기억
해야
사람은
##냐고
비행
##르크
나왔다.
##었다고
이끌
북한
you
##선이
뚜
자랑
가끔
##으로서
##카와
아키
사실을
인터뷰
##했으며,
##븐
##나의
페이
##비를
##계의
높다.
미사
##버린
##ent
##콜
각종
##호를
오늘
다르게
대상
##칙
잡아
##의를
##어야
##낙
괜차
그림
뿌
##일을
##주를
35
하지만,
상황에서
바람에
##되기
##했으나
크리
거기
빠른
##ᅪᆯ
지켜
대한민국의
것과
##방송
##군은
부여
흘
등으로
참조.
냉
미래
이외
연출
만드는
전반
##ak
모습이
누구
##ᆫ드
##하지만,
##ᆼ이
정작
##음에도
##서를
계획
재미
적은
##해진
제이
쌓
스태
##무를
갤러
##다운
##ᆺ은
##호가
미국의
시전
있다
##수한
##선의
##t;
##시킨
라고
##스토
전국
헬
32
결승
아쉬
있지만,
달라
##칼
옥
1회
##픈
##....
##게임
##비스
##디어
클래
##타로
왼
##버리
##으로도
못하는
수는
##외로
##맥
않게
소녀
자세한
80
따로
##빌
##cm
##프로
때,
##시는
쌍
훈련
전차
작곡
하게
있다면
과학
별로
##이라면
특정
달려
제일
위치한
아카
##동을
묘사
아이돌
상황이
##부터는
##단이
##ᆷ과
갑자기
##고를
##팩
##더니
##80
기관
예상
##ᆨ터
##모토
타카
70
2009년
##고는
##장,
깊
때문에,
없을
종족
연기
인구
깔
##하라
답
이탈리아
경우에는
##마가
꽃
경험
1년
맹
하늘
##지와
뒤에
소개
##로운
일행
##풀
옵
##일이
##스러운
옛
근처
분류
안에
1위
평균
##어의
보유
필요한
효과를
to
##겠다고
##퓨
게임을
##율이
명령
확정
1차
##ᆫ스
불리
##탑
##림픽
이름은
포지션
띄
##몽
옮
##ffff
##ub
지난
압도
소설
인천
행정
최고의
공중
덱
##덤
교체
본인이
안정
##롭
없고
##룬
##도에
예를
것이라고
사냥
##즈의
집중
등장인물
링크
##제의
##세가
납
롤
파티
##군을
걸리
2008년
멸
애초에
이게
각성
기어
일러
193
이쪽
식으로
##ᆷ프
잠시
##야말로
벨
홀
지정
표기
특이
나올
건설
생명
어째
##계가
##소가
##'의
본래
스테이지
##부로
스포
나중에
계열
##ᅪᆯ영
##논
##마자
가까운
시작했다.
##바이
##었고,
##지면
부모
없다는
이용해
##인으로
##'를
보니
##껴
##미가
##고등학교
##심이
즉,
기반
경쟁
발전
머리
탈출
최강
##하나
전설
##',
기다
경우,
죽은
##치기
in
물건
못했다.
갖고
겪
치명
처음으로
계약
배치
없다고
차이가
연합
라는
그룹
존재한다.
빠져
외국
사례
##이란
스테
수행
##퀴
##았던
##원에
지지
트리
위의
빠르게
##겠지만
##어내
설립
##-3
징
지도
##셜
이야기를
##꾼
모르
밑
##빛
사용자가
다크
##대표
바꾸
##스코
무슨
기대
##폴
등장한
이적
##ight
사이에
많아
중에서
혈
코미
있으면
##부는
기본적으로
제거
스코
블루
여기에
##량을
##입니다.
좋아하는
##em
##드시
지키
카운
기동
스위
vs
대기
##솔
나름
##테이
소련
아니면
지내
나라
롯
##스케
##역을
##:0
##쪽으로
##란드
##상은
##'을
뭔
도입
##꽃
부정
말에
이후로
##ON
##만의
밀리
##잔
고양
##ᆱ은
앤
발언
##보는
저지
보아
##화의
완전
목록
짓
##,#
턴
그녀의
등급
##간의
##16
##벼
##사이
올라가
지배
카이
##냐는
##타가
있으니
직후
##치의
##AR
##ᆯ링
가스
복귀
남은
##ce
##25
변신
##문이
도쿄
##ᆭ아
2000년
과정에서
차이
타격
가운데
##:00
##ᆯ의
군사
로마
##크를
##트라
연습
##'라고
포기
접근
대구
##ᆷ,
촬영
동생
##버렸다.
밖
유사
도착
##진이
##됐다.
##주고
유일한
사람을
가르
월드컵
쫓
##우가
500
맞추
##터가
2,
관한
##지.
##하였고,
알게
하는데
살해
뇌
회피
했던
##학과
##um
45
##AN
꼭
남성
##몇
2007년
##ap
##되었고,
업그
##ᆻ다가
듣고
역대
##ri
상태에서
겸
##os
분명
추천
완성
라이브
정규
##48
##로의
일러스트
반면
때마다
##차가
이건
범위
준다.
##많은
##'s
반드시
싫어
미니
점이
끝에
##셉
올려
조종
하자
LG
상당한
사용한다.
##체의
##주가
받을
타이틀
유튜
##아의
소리
##광역
이하
##레스
##한다
데미지
##18
해외
##점은
##몰
##럭
중간
효과가
심각
고정
상관
완벽
태어나
##()
##ula
##지라
##력과
저항
뛰어난
##드리
이로
투수
##했는데
지상
앞에
##감이
유일하게
##진을
##and
욕
경기에서
추측
##지면서
다루
마무
끝내
자체는
높아
반대로
점을
한다는
2개
##"라고
##아이
##했으며
##파트
##크래
비용
동물
90
##덴
몇몇
오버
가서
##들로
넘어가
자리를
경기를
웹
늦
삭제
주민
##이면
-3
##버린다.
##으므로
##관을
도와
판단
알려져
공동
리더
연재
정상
치료
롯데
날아
우선
##콩
합류
충격
구매
##받은
점점
통합
##술을
환경
##문의
##플레이
시간을
탈락
회사
##했는데,
작가
보기
다소
무장
1개
곤
##민주
밤
도중
봐도
##어진
##형을
##탄을
품
킹
##뤄
인도
##주로
##앗
몽
##꼬
##시킬
팀의
없어서
난이도
##분이
요시
##세계
form
수많은
공간
##ᆻ는데,
##체는
종종
##일러
딜
개최
##것도
##화국
EX
가수
##스카
##자들은
##어는
##깨
이름으로
쓰고
##화된
카메
##석이
192
##찍
생활
##로우
##에만
생각해
런
##ula_
카드를
##프가
힘이
No
##들어
##인,
후,
규모
기업
녀
##하자.
정의
기계
##금을
##나와
의외로
제외하면
##컨
##단계
##하는데,
걱
##펜
시리즈의
장소
개봉
널
록
formula_
암살
종교
상태로
맞춰
##지에서
스티
히어로
##용으로
벤
퀴
##받는
전통
아니고
않으면
보여준다.
그야말로
게임이
##되면
##14
순위
큐
조사
##가,
##었고
##무라
죽음
##섭
공포
##섯
올림픽
##정에
소유
평범
##IN
무조건
화면
300
##김
워낙
듯하다.
##이라도
Ch
아내
##회가
디자인
프로제
2006년
그린
KBS
##타이
##두고
인한
##멘
길이
린
무엇
33
억
##함이
트레이
전사
##돈
다행
##차를
요청
##인과
전개
정리
팀이
단,
밴
어려운
홈런
3개
##판을
야마
##이다
and
레드
시대
맺
##구의
컴퓨
본격
느껴
전기
##/2
2015
하고,
생성
##식으로
거쳐
##력의
빨리
##적으로는
아라
도전
아무리
##르트
늘어나
2년
마사
##속도
##가와
개그
이걸
##원,
##었을
##녕
평소
비중
굳이
한글
##ul
##적은
##1,
##넣
맛
것처럼
부하
최초로
##TV
##한다면
##베이
##되며
##방을
데미지를
사무
##일부터
##FA
##어,
##원에서
적의
외에도
최후
세워
##질을
없음
사업
##호선
##하도록
##니티
악마
##함으로
충분히
##키의
변화
##에게서
투입
##르의
영혼
##리게
대중
##정은
상징
능력이
##op
##톨
탓에
##롱
오프
무한
어렵
##팬
##운동
이와
진화
열린
##ck
보다
##승을
비롯한
의하면
##키가
##홀
##했기
##수도
경기도
##13
##17
##쪽에
##온다.
쉽
##션을
##미를
십
##안을
##ter
##%,
##특별
##트리
거기에
중반
사람들은
##나를
##적이다.
##휴
안전
##시,
선언
##보고
##보다도
##ation
##설이
##성에
돈을
##스에서
버그
대응
최초의
##'로
36
##왕의
##법을
##ra
##ᆸ은
붕
##이닝
표시
##험을
##정의
성우는
범죄
##동생
등에
생각하면
하야
##드라
확장
##둘
##인가
손을
대화
붉은
언론
##ᆯ런
떡
##세의
때까지
듯한
대형
특유의
##2,
조작
##대전
비밀
앞서
성향
##다른
희생
##지역
##드와
##ᆻ으니
##조의
기존의
##라이더
##요일
운용
관련된
##버리는
##트에서
##뇌
말하는
##ᆺ의
##기사
##털
##너스
무리
th
##호는
간단
대결
오리지
##하려고
패러
##크가
바꿔
##미널
하며,
작업
##IC
##구에
년
밝혔다.
패치
숫
##성과
얼마나
본인의
##부에서
명중
MA
km
쥬
사기
보조
##브로
잊
확률로
장면이
##트에
맞는
##시오
통과
컬
##깐
선생
##'이라는
하드
주고
극장
멋
##미의
구분
팩
2020년
##즈가
##려면
뚫
##경을
##회에서
점령
잭
사격
거부
오랜
##라우
##첩
체력이
##덜
마르
칠
시민
##트와
태양
건담
##도우
둔
척
중심으로
##라,
##자들의
##자에
나오지
마치
##석을
다운
기념
불과
##힐
빙
섞
날려
잇
##크의
부탁
마리
반복
프로듀
##때문에
내용은
시나
사는
##수,
##페이
내에서
힘든
제3
적에게
2005년
맞아
##페이지
있지
MBC
지금은
##70
##ᆯ리티
투표
##남도
3일
##레인
재료
앞에서
켄
되면서
##시킨다.
##품을
##젠
서술
##치게
인식
##정으로
##션이
인터넷
콤보
데려
영입
서버
##듬
정책
하는데,
붙어
뻔
몸을
100%
흉
##다시
##시대
시기
##겼다.
신체
목수
##젤
유튜브
##드에
입고
털
오르
2회
개조
##단에
38
소년
##90
올리
대표적인
외모
모르는
숲
##인들이
진입
그걸
##핑
그저
SP
##이니
후속
##명으로
34
근데
사쿠
선정
##만으로
##제는
##실을
사태
##광역시
디자
##했지만,
이들은
프로그램
적극
##하니
고대
##해를
##넘
디지
##론을
득점
은퇴
받는다.
거두
때도
##드,
##사카
앉
##형이
그려
점프
오오
##전은
스ᄏ
말았다.
##kg
##쯤
이기
다만,
좀비
보상
##RA
##쥐
##라.
##쳤다.
방어력
든
##딜
혁
앙
시스템
##전으로
##전쟁
##설을
##마를
쥐
##었다는
##흑
테이
인기
대단
장난
##보를
꽤나
주문
닌
##시티
##기관
불안
아는
그때
##장과
무너
을
VS
무사
##방에
##텔
2004년
소비
스카
##로도
광주
놀라
2일
초대
##art
그럼
##이지만,
##소년
으
##ᆷ이나
적절
자료
##다이
사람의
단순히
You
비고
하나의
대해서는
이후에
살인
##규모
##텐츠
버티
오토
음반
##었지만
텐
##시브
마음을
##률이
##:2
철도
U+
##ie
오리지널
##선수
##복을
꾸준
##ab
방문
문제를
클럽
##교육
부분이
##으로부터
##해졌다.
##르가
##트,
1000
##고가
마침
거대한
트로
채널
보였다.
상황을
특성상
##'가
##분을
##활을
선보
다르다.
착용
##45
대학교
받지
저격
미드
##하려는
요리
활동을
펜
모습으로
##질이
##니스
란
##호의
손에
쿼
관통
##핀
한국의
부르는
##제에
##게이
##하므로
앨버
나이트
나누
비난
##99
대다
##군에
##이상
부대
챙
빼앗
국회의
##이,
##스럽게
##코의
단계
##/0
인사
중심
택
요소
되고,
##위는
돌려
##패를
마무리
노력
##어.
##니다
원거리
##해진다.
전환
##릉
멈
##되었으며,
의한
설계
코스
##였고,
점은
##쇠
37
끌어
##아버
##ill
나쁘
##이므로
떨어진
분리
##IA
##카가
훌
일반적인
촉
낫
앞으로
캡
꿈
마나
하나로
겹
##지아
더블
대비
먹고
바람
죽을
##ia
정당
아름
##센터
탑재
누군
2014
포함한
레베
##읍
도로
뜬
셰
##소녀
교통
##역으로
##회에
##방의
했으나
눈에
보컬
엑
##ik
도움을
##즈를
솔로
##화에
##야.
##다보니
##~2
등장.
브레이
##연히
미리
감안
##산을
자신은
##ᆻ기
점에서
보병
##밥
경상
아프리카
노동
비교적
2번
승리를
짐
AP
필살
확보
##로드
확실히
##답게
인기가
왕국
##요?
서브
##틱
확률
191
탱
스타일
일은
페르
##에게도
고등학교
완료
##놓은
##타는
캠
지적
등록
##러스
승강
조각
##고속
##되었고
엠
##나다
##35
딱히
남편
##진의
##힌다.
PC
##구는
사과
바탕
정보를
유래
논란이
만들어진
##금이
##에서만
장갑
차례
계회
##시키고
고속
##그룹
##시켰다.
##킬
##ᆯ리아
##타임
In
금지
묶
한다고
세트
허용
줘
죠
먹는
포인트
##초등학교
##멀
##워서
150
지닌
##수에
상처
##신은
일어난
10일
브로
그레이
##쌍
75
15일
여겨
##성도
구축
상대가
1번
##판이
가게
연주
##악의
연장
인류
##all
추가로
컴퓨터
##바로
그에
있습니다.
##루가
고통
병사
수밖에
실시
얻어
캐릭터가
명의
원정
스포츠
##촉
때의
형성
##:5
임명
##골을
그만
곳에
##력에
이것은
##식의
멘
##AT
##까지도
##가로
작성
걱정
전략
##개로
스킬을
##EN
##ea
센터
아시아
분야
를
거짓
덴
##리며
이유가
임무
주목
##문화
그리스
기술을
##선에
멸망
##하였고
##ne
개녀
수호
##받아
##리에서
##FF
제외하고
본인은
##님이
##나무
##우고
##역이
##래도
나뉘
##자에게
곳이
생기
떨어져
트랙
사용한
희망
필요가
##자들
II
웬
##빵
##서,
이용한
모아
##코가
##ue
##델
어찌
픽
"이
아나
##동,
편집
##랭크
끝난
##PS
유우
만한
짧은
시작한다.
##미는
잠깐
##붕
##마트
##기.
이사
##당의
##리면
제압
##사에서
##겠다는
30일
##화에서는
초반에
##선거
##움을
##AL
##도시
가벼
해석
##롭게
5일
측면
##공을
카즈
##:1
##피아
겨우
##북도
##"라는
##발을
녀석
방해
##권이
넥
##상태
##뒤
뿐만
윈
따른
평범한
메가
주연
##동이
이전에
아메
거주
##티어
엄청나게
로봇
##닥
커뮤
48
##크래프트
없기
부른다.
기체
20일
멀티
##ll
장기
라디오
삼국
업데이트
젊은
불리는
##포를
레어
##위의
여행
던전
예전
보여줘
##ct
속도가
업그레이드
##라스
25일
어느정도
동맹
##서가
2002년
골드
##토가
포르
##레이션
##ss
원래는
##상에서
##량의
##빨
3년
귀여
55
버프
##륭
있으나
화염
##조가
+1
사령
##-4
오리
##하의
가리
무서
대놓고
자신에게
카오
그녀는
에너지
공략
##dddddd
190
위협
st
최대한
안타
만다.
삶
##,#dddddd
평가를
##OR
흡수
멀리
말했다.
유도
있도록
##해지
해군
제시
1.
필수
되기
##ate
덜
##툰
프레
약속
시험
사이에서
##카의
##락을
##스트로
##해져
##기술
물어
대공
어ᄍ
형태로
내용을
42
봉인
내부
##디아
뮤직
없지만
##세트
당선
보급
황금
파트
궁극
##하여,
드라이
해금
이거
##'이
##물로
눈을
출생
##차로
##모를
코너
가정
##되며,
3,
4일
##.10
맞고
혜
##셰
드러나
직전
무게
중단
50%
##든지
##대에서
육군
끝까지
종합
팀을
어울
##물의
게임의
2003년
이야기가
오후
##키를
##ᆻ으면
28일
MP
##도와
능력치
랭크
이것이
이후에는
7일
엉
##헨
국가대표
##웨이
##ᆸ터
##사건
##륜
##했다
##되기도
##량은
홈페이지
광역
##직을
해주
시나리오
알려진
유용
밸런
처음에는
##관은
잡고
게시
용병
##'는
##카드
길을
개의
궤
제조
떼
테러
개선
자이
##셀
서포
##농
##능력
걸어
2.
죽이
##계에
받아들
##구나
애매
서비스
뭔가
##이라서
##까지의
##하기로
나카
##단은
드러내
쿄
컨트로
##ove
##값
걸로
##권의
소울
미친
##미야
무기를
미나
이곳
뛰어
소리를
##기만
##3,
중이다.
도움이
집에
실험
##oo
##리트
수준의
##수와
인기를
흔히
뒤로
##받고
보여주는
귀족
##쥬
##성으로
##모로
중화
##딘
##었는데
##ard
거절
##대,
Re
##비의
##주시
10%
참고.
증거
본편
##ang
##우의
##위원회
SBS
##PC
##하자면
시내
플라
##달라고
달러
습격
전술
싶어
##ell
보이지
아스
유키
27일
##성,
발휘
##사키
##라와
##다면,
처치
때부터
추가된
당장
사상
Sh
##등을
말고
폭탄
위에서
없게
##험이
타이밍
레이저
일반적으로
히트
뉴욕
##마을
단체
한다
왼쪽
바뀌었다.
콩
##ant
지옥
카페
##ers
##하이
##루스
##서의
##타의
##오의
밀려
개편
진영
##언을
렌
그들의
##라리
##ine
##랭
상대의
##해보
서울특별
거대
##자들을
속에서
갱
##관의
자살
##토의
##다가,
재생
모자
##ᆺ으로
##주차
어렵다.
또한,
14일
39
##프의
##품이
##마스
##팡
##다고.
##식은
레전
상대적으로
쉬운
공통
##전사
##였고
##론이
아무래도
미야
##둑
문제로
깎
상황에
##어져
시작한
원하는
##OS
타임
##제이
사건이
지역의
강제
제안
못한다.
##ᆻ지만,
수치
##심히
21일
부상
산업
##쳐서
##효과
퓨
구입
중에서도
##옹
하나를
단독
크다.
줄어들
전자
누가
##만크
슬로
##갖
겨울
##ᆷ이다.
비록
##느냐
##면서도
지명
##ᆺ글
26일
홍콩
벗어나
##ᆼ가
##중학교
##대와
반란
##연구
다름
찰
들어서
상대를
폰
##향이
##.12
계산
##조를
꼴
숨겨
자기가
##토를
##AS
##융
스페인
##/3
건너
미사일
##와서
2013
뛰어나
조준
근거
상태가
에어
##크는
##스탄
##AM
꾸준히
떨어지는
꼽
행복
스크
##ED
17일
12일
Sp
민족
##개월
##사항
##찾
##격이
향해
##모리
낳
8일
그녀를
출발
온라인
##것이
떨
##당이
##형의
하나가
이미지
##교통
못해
##VE
##기인
싶은
##렛
##하러
사실은
탑승
헤이
##오가
11일
고유
어그
동일한
##윈
##하게도
##비는
##원과
시설
만족
##파이
##묵
##있던
광고
18일
##적이고
바르
채용
반영
오스트
22일
##치지
##먹는
머리를
13일
16일
우려
텔레
##구로
##/32
##철도
장르
##돌이
꺼내
두산
실질
##-10
존재하는
##즈는
뿐이다.
문서:
24일
얘기
약한
프레이
에서
흰
싸워
##학을
테마
6일
판타
시티
사항
##할때
##였지만
르
쏟
필드
##스에게
붕괴
##ive
##친다.
그게
내용이
황제
혼란
온갖
23일
액션
##권에서
##먼트
스테이
파악
##되고,
흘러
캔
##자마자
인생
맡았다.
힘들다.
라이트
##에,
##500
##니가
료
오는
것이라
공격력이
##gt;
이상한
##안타
##ee
이래
기록했다.
BG
처음부터
안습
되었고,
있으므로
##점에서
사람들
위로
##히고
강조
##끼리
##ack
활약을
극장판
훌륭
관광
##잖아
덩
##이던
거리
그것을
##사인
바닥
생물
살짝
패러디
9일
SS
없고,
##임에도
##차피
해제
19일
##율을
##ast
##373
아오
스파이
커버
3회
##어주
당시에는
나오고
그렇다고
어쩔
핀
모험
탄생
기원
배신
루이
120
수원
두번째
##마리
컨셉
둘이
##주년
Th
고민
인간의
##바람
##곳에
데스
방식으로
부터
는
##모가
##다지
하위
##전에서는
공산
##루를
29일
아야
##화로
##하였으며,
삽
아우
플레이어가
FI
지하철
주도
[[
##uby
##ᆷ스
보여준
돌파
아니지만
들어오
##가능
지급
밴드
둘러
확률이
##왕이
##4,
화살
기ᄈ
##과학
##터의
##로그
스킬이
않기
중간에
##ᆷ에서
만들었다.
##'에
주어
않지만
ST
당황
##스트를
프로젝트
##&gt;
##았을
속에
##만은
사람들을
2012
##밀리
##선은
셈.
은근
##시와
##기에는
횟
##정부
##속성
나쁜
##3c
말해
뒤집
납치
##거리가
말도
2001년
가로
##버렸
##lt;
와중에
##은행
1위를
방패
시점에서
##되었던
클로
##선에서
이들
표준
뻐
마지막으로
오프닝
##ᆺ포
##루의
들어간
##ong
패시브
##자리
입은
괜찮
우승을
갖추
융
가입
##ᆯ은
##오카
기절
때려
스프
일종의
47
##AC
be
즉시
몰아
얻은
##국이
작전
닥터
##개가
##하긴
##방이
의심
열심히
한국어
##ort
옮겨
외에
신뢰
##파이어
##ruby
구단
이름의
데미지가
##로서의
##닌
통일
디스
3번
밟
##판에
실행
마련
##담을
있었지만
하기도
##즈키
##if
사실이
만에
오른쪽
##LC
몰라
기획
있었고,
한때
추정된다.
##ind
##데미
##오프
아사
불명
받게
버튼
##ᆯ린
##5%
##ith
##a3c
물러
##373a3c
##점에
공항
400
##EC
단일
##세는
##동에
한화
덮
일으켜
##토리
명예
역전
PS
않아서
##ruby]
##ld
옆에
하던
어차피
대미지
바탕으로
##마법
##정보
##장.
대답
##티컬
현재의
아웃
내에
것이라는
만난
주력
내내
들어가는
등등
실력
이론
##베르
서울특별시
##시리즈
사정
##ly
설득
10년
옵션
가까이
후쿠
이스
제주
##놀
##진은
시키
수입
댓글
##ffffff
아이템을
커뮤니티
교환
습득
##르기
뒤,
없애
동아
보수
눈치
분석
##지마
언어
##지며
##인지라
20%
제로
입학
이승
##하기에
성적
##증을
스페셜
##까?
절반
가면라이더
초월
경유
링
공주
박살
공격이
2위
무력
음식
기여
2루
발음
데이터
##렴
##ist
걸려
김성
것이었다.
카드가
집안
##쿨
놓고
##선으로
여름
돌격
시켜
##우를
##니,
##둬
46
##급의
울트라
알렉
##럴
44
건축
시행
메이저
##치에
사거리
수리
##단으로
못하게
##회는
##말을
정말로
##'으로
##VP
했는데
##원들이
##ain
행동을
##지컬
공을
##//
랭
##군과
정글
펼쳐
##지자
재능
이슬
두려
가득
계승
작품이
위키
사이트
##이와
##룩
##.11
아티
##역,
##ps
##~3
딜러
##했다가
내구
##니어
말한
##탐
그다지
선배
부분은
오픈
##기에서
레인
###x
로드
롱
##-5
갑오
##요!
##켄
격파
위하여
##per
마주
사람도
제국의
안되는
붙여
##마이
##홈
노래를
안드로
##했으나,
##각을
엑스
덕에
룰
##하지는
##싼
##권에
공유
01
##공항
나의
##해지는
조정
붙잡
밥
계속해서
격투
정도는
제기
##즘
##면을
얼음
그럴
값
마법사
마녀
마츠
형제
살고
기독
##해주는
정령
팀은
쓰러뜨
점수
##병을
##ᆷ입
##낼
##족의
맡은
위해서는
클리
##가에
적도
쓰지
##연합
그녀가
브라질
##치와
고급
죽는
일부러
당시의
07
의미가
##츄
오로
##판의
하다가
그것도
여러가지
##다"고
곳에서
그동안
보인
다행히
이뤄
북미
피아
##였다고
경계
근무
##ᆸ고
가문
때문인지
##역에서
하수
건강
없었던
메탈
NC
사용하면
##est
모양.
##껏
비롯
##바라
카르
남겨
네이버
외교
##눈
데리고
노르
##HE
아시
##긴다.
##장인
울산
연예
쇠
추진
베르
생각하는
와서
##기간
##OL
순식
##:3
아무도
했을
책임
비하면
##악한
이들이
셋
의도
공작
프라이
##화,
증명
##류가
통한
제품
전체적으로
##소의
##엽
##판에서는
떠올
느낌이
패치로
쓰레
프로토
효율
세력
"그
무난
##았다고
심각한
거래
장애
암흑
##사용
걷
역으로
##화는
후에는
스트라이
드랍
##0000
43
##니의
얼굴을
3.
늑
포인
아무런
##ry
글로
낚
신인
##땅
실제로는
홍보
화려
쓰이는
했다고
자리에
크레
해체
주인공이
##IT
##373a3c,#dddddd
'이
##디언
##시간이
정체
##색이
##프레
02
08
시야
못할
전투에서
##등급
연계
##별로
##해졌
##lo
자동차
입수
3차
민간
돌아오
##판은
취소
에이스
한계
하나인
##64
##부와
순식간에
##들이다.
기독교
##리안
추가되었다.
싸우는
1999년
##-12
스튜
사건을
베트
관객
##면에
해적
8강
여동생
##스팅
힐
뒤를
##원도
지금까지
관심을
살아남
##큰
##실이
보여주었다.
옹
##명,
##기까지
이겨
않고,
목적으로
캐나다
돌아와
난이도가
##'이라고
##오를
카운터
부족한
족
복잡
신의
있긴
##FC
##인.
채로
깃
##마는
로켓
많았다.
##었는데,
통해서
그만큼
##관으로
##담이
때에는
노트
선수가
예술
##유키
얻는
함정
##프는
넘겨
전달
소멸
선호
꺾
회전
첫번째
or
나루
##보단
파견
##워드
방송을
도달
당한
##거운
투자
돌진
me
모티브
##스포
##PU
1998년
최악의
어려워
이들의
##자들에게
몰래
##되었으며
##스턴
듀얼
##호,
캐릭터의
##달리
닿
on
크리티컬
##하시
##중한
스킨
체포
수요
##가락
##인에게
감염
핵심
##치,
##해,
##컷
방향으로
06
괴물
텍
##ᆻ어
드디어
정확히
대륙
맞이
CD
몸이
빨간
대장
03
##코는
출현
셔
경영
쓴다.
파이널
##깔
##지방
아닐
##100
##시장
겐
관계를
##쓸
##우리
흔들
편이
리버
네덜
어쨌
##었으나
##류를
불꽃
가이
##널티
수용
##BO
체육
닮
테크
본격적으로
소프트
해방
기회를
넓은
러브
##만원
노출
지역에
##대회
하자.
까다
입단
국회의원
##관에
문을
##해가
있었으나
자원
##임이
목적
균
드립
개통
##로로
조용
다녀
교황
폭풍
부진
고전
의식
NPC
09
it
방법을
##아웃
##것을
추락
요새
잉글
충청
단지
##거리는
구현
##목을
넘는
쓰인다.
이쪽은
##아,
##사.
##ust
아무것도
다니는
##당을
묵
감독이
##카를
쓰면
등판
##냈다.
##관계
변호
눈이
후지
낭
##뜩
일으키
목숨을
의견이
99
대규모
대로
계급
64
##]]
##종이
52
중.
방법이
##즐
##5,
가능.
등에서
옷
##구,
영원
##아파트
아니라,
했지만,
잡혀
##시한
견제
##형은
신규
응원
편성
##끄러
프리미
AT
충전
최상
작용
##실에
##으려
되찾
##체로
...
신청
1인
##숭
사이의
해당하는
없다
성능이
##브를
됐다.
수학
셀
이용하여
##일은
무지
죽여
is
카나
중인
뉴스
Su
쪽으로
치고
크루
##한국
##팀이
인근
##까지만
49
##믹
되는데
아직도
상향
이후로는
깊은
열차
감독의
거야
유명하다.
튜
1997년
그에게
교수
##머리
##듯.
보도
모습은
폐지
대립
##부,
마지막에
모른
옛날
##se
비슷하게
협력
모른다.
말할
여러모로
덤
기록을
자치
갓
있었는데,
의사
기초
##주인
고양이
##낸다.
31일
긍
괜찮은
윌리
통신
180
먹을
대상으로
모리
동원
걸쳐
경기가
이시
영상을
보너스
##박을
트위터
불편
해설
우리가
있어야
##ore
##고의
컨텐츠
##역에
##주,
생각을
스마트
훔
쪽이
##라노
##경이
기능을
효과는
##장한
##공의
##멍
##형으로
서비
어깨
##저히
출판
부분을
##터리
파이터
수집
캐릭터를
##컴
필요하다.
##:4
집단
이후의
##6,
##인들은
파이어
혼자서
언제나
##어와
##잘
##색을
##스트라
만들고
##RE
##로스
매일
##앤
수준으로
모바
고향
##자키
토모
섭
##납
연애
무료
##야의
US
전투를
화이트
##쾌
말이다.
##인민
1.5
##용이
##one
글을
무대
운전
##자고
그런지
끔
대폭
MS
전라
다수
반응을
몸에
##소에
##가?
##미,
달아
00
##파의
행사
##되자
아일
##악을
유저들이
30%
덧
마음에
순서
맡고
스탠
##리온
##24
인지
##맛
복수
##리스트
창작
유희
공부
하나.
공화국
빠진
무르
고생
푸른
본선
둥
뱀
KT
걸린
##ᇀ은
학살
##영상
타워
상황.
자체를
자신과
대체로
&lt;
##ᆻ는지
##함에
##짱
돌아온
자이언
##콤
##책을
위기에
##인이다.
마리아
##보스
##전투
만든다.
평화
번호
##인인
무효
##민이
제법
화장
##카는
##격으로
간의
기습
##톨릭
사람들의
노예
##렙
사진을
있었는데
콘서
##쩡
이후에도
##페이스
##이로
조지
어디까지
드물
등과
마시
중학교
##앞
##이라며
그와
이날
이것을
##버려
케이스
#373a3c,#dddddd
안에서
본인도
##연이
##동의
2배
오빠
충돌
네가
참전
성능을
##아를
전원
에스
넣어
##라이언
An
던져
춘
##다의
인상
거기다
사이가
적어도
스폰
특별한
##피스
04
##PG
##운다.
추적
뼈
템
위치를
##비전
말은
명이
작동
호평
##ip
거라고
이중
계획을
필리
정류
##겠지만,
양산
A4
##조리
조금씩
05
어쩌
구출
영문
##먹을
유전
짤
겉
3위
하나는
똑같이
돌아다니
점차
들은
코드
된다는
사람들에게
##기엔
##타입
조심
##마저도
하다
가드
4강
##:30
대략
##하에
##라에
##아야
##리나
알파
##.25
##업이
##사랑
곡을
##",
65
댄스
그것이
##시스
똑같은
##리얼
보낸
주지
##미니
##end
연사
4년
파일러
마이클
##할수
세월
##표를
##ere
있으나,
차별
##기지
헤드
##점.
즈
그렇지
다섯
체력을
변경되었다.
노멀
진정한
##었기
4개
입장에서는
스웨
1996년
##드러
준우
내는
있었고
4,
##지원
##안이
##함으로써
공급
동작
익숙
연방
Te
블러
##관,
전직
되는데,
보이고
##33
도서
그들은
##당에
캐릭터.
##마디
##적의
이노
잡는
##리자
##세에
사토
##조는
##75
런던
##어날
행성
##역의
미츠
##??
생겼다.
##닫
파란
관계가
레오
성인
와이
##리면서
##동차
##디션
임시
##주에
##국을
비중이
##녁
거리가
그럼에도
##프리
살려
어지
되자
프린
##병이
널리
##ity
##실에서
코스트
##파를
불법
##ᅮᆯ러
##력도
형태의
많았
의혹
##유가
찾아가
##재를
스카이
예선
심한
위원
시기에
했고,
선물
도중에
##ath
기반으로
##짜리
최후의
##-11
##화되어
##상,
때가
##사라
펼치기
##좋
1대
마리오
##스킬
이재
탁
쉐
낸
높이
젠
##내고
그로
더빙
##부대
세계의
##-20
1995년
BGM
이내
몰려
##.01
멕시
권총
어드
##님의
##한의
##공화국
##고로
조성
국립
##이치
16강
##인에
막을
갈아
레전드
빠르
제4
플로
수영
시각
##ᆸ의
##히로
합쳐
낮아
아머
메카
MAX
인공
간다.
Ar
정도가
변형
다가
근처에
유로
달린
타케
##슬러
등은
##민의
##체에
전형
고용
공격에
신성
##테인
Ne
장식
합격
박근
##당하는
##티아
집어
2010
##색으로
##데스
유령
##냐며
붙은
##쟁이
지니고
다리
비디오
##200
##미와
마도
아버지가
정확한
SN
##였으나
##주면
##인들의
구속
De
##항공
##받았다.
##료를
##과를
##필드
##데레
곧바로
5회
파라
##하였으나
대부분이
접기
태어난
##ome
##자면
소리가
수송
4회
전까지
있었다고
팬들이
등장했다.
언니
##영화
샌
##들,
지속적으로
##65
하더라도
여왕
##부르크
대미지를
##되었을
평가가
FIFA
##버리고
모으
매니
AI
##해의
모바일
나를
이성
##과,
크로스
-원
아침
##MA
블록
쿠로
##우,
팬들은
주변에
출처
##이나,
불린다.
설정이
무언
단순한
김영
너무나
예측
모두가
9회
생일
오랫
##등이
회의
##달을
크고
생활을
쿨타임
마크
동네
엮
시장
라이벌
되었고
##중인
##마루
헤어
##섬
적극적으로
##무원
득표
예외
어둠의
##법이
##홈런
##씨가
내려가
수사
홀로
무엇보다
서서
리메이
편의
않았던
##보가
##교의
검색
##함과
초창
놈
##양이
58
극단
버려
가져가
녹음
어떻게든
플레이를
기억을
연상
의원
추격
빵
##데다
-명
쏟아
2011
##산이
전쟁을
공개된
자신들의
반격
일본어
##당은
웨이
져
잠수
##티드
취임
이들을
절망
커맨
줄어
구해
괴롭
막기
잦
업무
##야구
AC
##7,
##age
마술
##영이
##.02
##권은
요괴
고백
알레
존재하지
##IS
내의
##제한
밀어
##ᆺ,
##챠
지나치게
##이었으나
##탱
5년
MVP
파트너
##사업
관심이
차단
위험한
##놔
##절을
##경찰
##뿐만
판정
라이더
보물
승격
##전차
##평가
힘으로
##니다!
##둥이
중에는
않아도
압도적인
MC
종점
빗
등,
진지
189
다이아
##'에서
왠
대상이
3D
##무기
##곡을
##실한
##학자
##크라
디지털
들어와
저그
타이거
작중에서
중국의
밖으로
대항
목격
##당히
##22
##소는
동방
영국의
가톨릭
없으면
데이비
탱커
팝
이후,
일도
이루어진
자가
##드립
주전
박정
마음이
쏴
##호로
소화
FA
불가능하다.
##II
##관리
##쪽의
반발
능력은
##츠키
관할
##인간
마법을
본작
특이한
용의
클래스
개념
전면
잡을
##막을
나타난
3대
##스럽
##었다
규정
장수
닉
##였다는
##ect
일시
##동으로
##편의
잉
부상을
1994년
##하라고
##름을
후속작
##슈타
활성
가깝다.
유행
##환이
페이스
##개발
##했었다.
##://
브리
성격이
##국가
모여
##하면서도
##ᆻ다면
##현이
기점
##%의
외계
##ire
##구역
객
보여주고
쾌
중계
##떠
차라리
단어
주의.
##나라의
##절이
곁
##소에서
인수
브랜드
저장
이리
써서
##생활
DLC
##.03
사용하여
의뢰
기능이
예비
##세요.
입력
통상
##러가
THE
갤럭시
압박
##전,
되어서
##BA
펀
##ᆺ날
단점이
식민
히데
곳으로
##츠의
정착
스케
한동안
##친구
##방어
##하기는
에드
폭주
지금의
##tt
##에겐
##었으며,
아름다운
계약을
작품의
길드
이전의
대처
최강의
판타지
##버트
##석은
오랫동안
##66
전력
##연의
나눠
빌드
외부
##코,
긍정
베이스
창조
##네가
##명이다.
치명타
착각
##ᆸ에
2부
아바
##~4
예능
나와서
중에서는
##당하고
국방
##했는지
강철
##분의
##-8
##린이
##연을
##당했다.
##번에
생각이
바뀐
사운드
날개
역임
앵
의존
튀어나
##유를
현지
##편에서
서양
전후
다룬
부른
실력을
8회
쪼
성적을
마침내
##보이
있기에
맞지
41
많아서
아리
##교를
##해서는
유형
무적
루트
##들과는
말하면
자매
##때는
##르를
신기
##노가
기원전
죽인
어쨌든
막아내
##으려고
##시절
베스트
기술이
##핵
청년
끌려
##세로
##og
##토는
결성
승부
외에는
감시
간혹
출신의
##삭
오사카
##OT
Le
##류의
저녁
다루는
##스톤
최다
대사를
받아들이
대화를
신고
##ide
##/4
헨
신설
하나이다.
방출
오늘날
##군으로
##되었다고
총을
어디까지나
##ID
감옥
끝나고
##'.
##디가
##령을
싸울
##구치
##터테인
커플
##ure
##린의
부디
순수
가속
##트워
아니냐는
##라!
##소리
보장
찾는
탱크
콜로
잃은
닫
##진,
1990년
##배를
##번호
##육을
##ake
##ᆷ비
##룰
##"는
##하는게
##리우
박근혜
##사령
현상
마구
엄마
콜라
심리
생각하고
보일
쉽다.
골든
안내
56
했다는
낼
##ime
소수
까지
##어버린
##그라
나나
갇
##론의
않는다는
강제로
##기업
##세요
세계를
인간이
##어리
지역을
##28
채워
침공
이지
##소한
54
보라
##웨어
경기는
주기
마인
맞은
비슷하다.
##타와
##통을
Me
##당해
##졌고,
##신으로
했는데,
주말
Se
##다'는
##과도
##던가
AK
디버
한자
좌우
나름대로
##독을
이어지는
근육
'아
자는
외국인
살아나
##실,
파일
3루
김태
올린
##찮
통제
죽음을
59
##튀
##등의
##즈,
##즈와
둘째
마이너
일본에서
##ᆺ가
##amp
실버
생각보다
합성
##ark
##니와
##판에서
##하거나,
이끌고
WW
구체
전화
##OM
자신도
##회사
이집
똑같
깜
레벨이
가고
정치적
한국에서
지나가
브루
무작
##레이터
##ᆷ새
예ᄈ
##77
대만
다수의
##았고,
##량으로
끌고
독자
빚
훌륭한
이루어져
##ES
화력
아가
정확히는
정복
지금도
##인지는
포르투
인형
빡
##의가
##코와
##코를
작사
어릴
우리는
구성되어
2기
##넌
발매된
은근히
안티
##유니
사용해
접촉
600
멜
수록곡
무기로
##노의
정면
##물에
인하여
##안에
KIA
더더
##ite
희귀
향상
깨닫
Lv.
학원
##르지
##일드
동시
소형
##들.
성립
은하
##38
6회
##톱
내놓
##겐
했고
수련
방법은
웹툰
영업
##OP
##재가
감정
##계에서
초등학교
밝혀졌다.
타게
##묘한
##주지
##들에게는
알렉산
베트남
좋게
##펴
노부
##점,
헌터
오스트리아
같아
##지고,
#ffffff
##또
DJ
앨리
맞서
캐릭터로
##하고자
정지
##실로
릴리
##당한다.
날아가
한편,
없던
##더스
드리
막장
태그
팬들의
##식에
강하게
사용하지
##심으로
독특
델
kt
것만
지역에서
##환을
일제
다들
출장
##UN
이끄
누적
등장인물.
마왕
썩
상호
베어
흥행
##ound
##.05
제5
옷을
예고
##치며
피격
##하려면
몬스터를
경향이
##한을
융합
이치
##iv
##구려
##oy
코믹스
##라기
##'t
##된다는
##ᆺ과
넉
더더욱
이란
##야가
2017-0
니시
##산업
할아버
##덱
my
반응이
CC
포스트
기본적인
아빠
이길
메시
극복
멀쩡
의료
스미
말로
맞게
##iz
##파가
당신
##크와
##현의
##드에서
들어간다.
세상을
7회
피를
편입
멈추
이르러
탄약
##명한
역사상
랜덤
경비
##조차도
핫
전에는
소닉
He
##법은
고등
테란
락
##센트
결과를
##였는데
##잡이
##민주당
##초간
섀
##졌을
88
5개
소총
수십
갈라
김정
##이었고,
인물.
##ᆻ는
눌러
지능
특기
대원
사용하고
그래픽
지어
Be
##재로
##.08
##소로
##명에
##구와
##피를
##렘
이상으로
지원을
알리
##듭
제2차
##투를
주었다.
##OW
스튜디오
스피드
훗날
##아는
이슬람
##크,
횡
##안의
##ᆸ게도
그라
넌
불가능한
로스
하얀
뜻은
대개
한마디
블로그
경험치
##마에
##군,
##AD
##멘트
원본
AR
##ge
코어
사랑을
##전과
탓
키워
별다른
역을
프로듀서
##팀의
감사
##ᆷ으로써
##ess
적대
##였기
게임에
어른
달고
+2
이주
57
슬라이
장면을
적응
접속
상황이다.
비싸
들어갈
##졸
##심한
청소년
발달
저주
문재
게임에서
관계로
스트리
속하는
##에이
있었기
전시
내세
##쩍
밝히
층
2세
##렁
킬
##만큼은
죄다
대충
문학
새벽
##잠
사라진
##종을
보게
##열이
GT
66
##색의
이끄는
전성
##시키기
##도르
##영의
중의
틈
리메이크
당해
##되었는데,
버리고
1992년
절대로
5,
쓰기
환승
##단과
자라
실력이
##화와
고마
##용을
이즈
다를
##9,
퀸
##니는
전형적인
##전대
물고
공격하는
방에
랭킹
이정
네덜란드
정도다.
개입
각본
카타
챔피언스
연도
##망을
있다가
##~20
카미
1993년
물을
##줘야
플랫포
2대
결코
적혀
유대
갈수록
죽음의
되돌
활발
##기나
##미터
##OC
이외에도
들을
미술
애플
##등장
사용되는
다음날
그곳
해병
땐
무릎
##펀
내리
오해
2층
비트
분위기를
##름이
상업
검사
대하여
썬
제어
##sh
룬
끈
결합
##관에서
##라이트
막차
싸움을
##사회
##다란
##롤
##감독
뜯
##향을
##산의
어떠한
보며
바보
스코어
첨
혐
댄
Wh
조절
인터뷰에서
##메달
SD
아니라고
독일의
뺏
##도에서
##브리
가야
성공했다.
##그리
도발
##석의
꽂
SC
트래
##LL
수준.
3인
##보기
은행
##공이
2의
이외의
죽일
들어온
과거의
##.09
명령을
##다시피
안타까
일상
##역은
사건의
안드로이드
##경에
##비트
##률을
위치해
나가는
##ᆷ도
짝
뭉
테스트
혐의
의미한다.
My
##이었지만
삐
##았다는
##화한
요코
태평
공군
##버스터
퀄리티
##.07
##했습니다.
갖춘
캐스팅
우연히
##자도
것인지
##츠가
평이
나아
의무
오스
카를
##포가
장교
##com
이라는
##px
경우에
##36
##-7
싫어하는
with
전철
##맨의
##아와
##메가
유닛이
##ame
없으니
칭찬
##돌리
개방
컵
짓을
카라
##ord
검찰
##일의
1기
선출
자동으로
분위기가
##로워
뜻이
Tr
250
키리
박사
상태.
김민
전방
꿈을
약간의
##()는
"아
##뿌
카드의
방사
##이에
##ud
##령이
아니었다.
##받을
##랜드의
##국은
##다를
어지간
##스틱
디아
서부
그건
세종
이글
##물은
유사한
##실의
토론
점이다.
몹
작가가
그들이
##당할
##였는데,
멍
금속
캠페
신이
보너
연관
불을
아니라는
##없다.
##문은
첫차
버프를
미카
##야,
##비에
##.04
##느라
##으러
##선,
적절한
이영
참석
아끼
만나게
치는
##였을
아들이
과연
덤.
유저가
자랑한다.
85
슈팅
대표적으로
빔
##상한
준우승
##이게
나쁘지
빨라
##여자
메타
##대장
##하였으며
가문의
과정을
오전
##중앙
트랜
이제는
김종
##키와
##34
폴란드
덧붙
##갤
##수.
##국에
##탄이
하니
##경의
많고
##나카
어마
곽
HD
##our
##정,
이민
##보드
SM
##왜
챙겨
구사
입을
편곡
켜
##았지만
모양이다.
사람들도
법률
##에서,
##집을
추가바람
열쇠
##혔다.
부서
챕터
맡아
##"를
72
위주로
##지인
##킥
기자
##'은
선수들이
결과적으로
그들을
매직
##론은
모조리
-위
보지
2번째
##ax
오직
1학년
있어도
##ance
되었다고
개막
의미로
시절의
매년
자식
가능성도
##oc
왕의
빛의
##ix
##ok
벌어진
##계로
윌리엄
68
아버지의
내장
##욕을
노란
##토와
프리큐
정찰
##배우
기병
봐야
우수
날짜
1991년
뒤에서
##렬한
있었을
##일본
챌린
휘두
메뉴
##이긴
컬러
과거에
##번,
형식
대사가
피니
아쉬운
재사용
병력
김동
남아있
경기에
방법으로
이상을
##'와
언더
심하게
이라
##ice
샘
직원
##마스터
Al
IS
UE
미치
##다나
사양
좋을
##질러
##되어서
회수
##ww
목소리가
188
와타
네오
보관
##ick
이른
##브라
루시
채택
태어났다.
##유럽
주인공의
믿고
뭘
자리에서
카와
##하라는
사장
스마트폰
##났다.
사용된다.
부담
한타
교회
베네
4.
아파트
##.06
##가시
##그러
스타크래프트
피해량
완벽한
보유하고
집에서
##었지만,
##걸로
##것은
정신을
3학년
수수
##레어
##익을
##략을
##{{
사후
##-9
별명
##하가
셈이다.
보안
드는
##스트의
허나
헌법
출마
##약한
손으로
##밴
유나이
##에다
110
군단
비례
빛을
환영
학생들이
돕
그것은
SKT
기분
공식적으로
##번의
JR
##걸이
임무를
잃고
##ᆫ가
##역이다.
##쿼
감안하면
##오리
PD
##급으로
##하기가
##자치
##pe
##마와
협박
박스
부수
막아
##루는
##증이
모션
##깥
##단지
후계
##()은
동굴
##시설
반면,
위치에
##레나
시즈
##것으로
뜻을
행위
30분
##카,
잡은
전멸
남부
남북
이렇
##학적
플레이오프
##커가
풀어
가을
동부
하락
##스트가
연극
올리는
되며
##하자,
하거나
보이며
전체를
들이
유니포
##봐야
전진
거듭
정체를
##소,
소식을
1세
##맨이
웅
##했다면
밸런스
스프링
##졌다고
##"이라고
제임스
자세히
재현
일방
맞다.
치러
무방
폭격
나이가
헛
SR
가라
여신
Go
##39
크기
캐릭터는
##니를
개혁
##되었으나
모래
##츠를
확인할
모모
51
제갈
##짐
이명
곳은
관중
로보
따르면,
##뛰
이닝
증가한다.
현재까지
노리
##오고
##언이
핑
하트
##되었다는
얼굴이
시그
##음악
de
로그
시즌을
가짜
이전에는
##EM
##건을
##PM
##na
##속도가
##%로
병력을
나아가
둘은
라이온
신앙
목소리
바깥
가격이
시스템이
배트
##사무
내보
알바
##렸던
연락
스승
작품을
흠
앞두고
##이즈
##티나
##서에
거리를
유닛을
공화
##드레
##번이
##시고
강남
지형
좁
##학,
GS
##비로
잡아내
##ᆯ,
3연
말아
Love
##작을
세계에서
어린이
재판
출입
##ᆸ어
##로서는
##해준다.
##셋
방치
0.5
이나
않도록
##호와
미국에서
잠재
##우와
##가.
개시
가까워
물론,
명확
2학년
충격을
몰라도
##품으로
작가의
전의
강요
터뜨
##텍
언급한
##노스
남긴
브레
쓰레기
전공
상급
전부터
2008
##캠
카드.
OST
내지
것일
아즈
핸드
외의
95
체계
할머니
나타난다.
간신
명을
전쟁이
##흡
##ᇁ은
2009
싸움
시스템을
##위키
##비와
눈물을
멜로
##험에
욕을
넣고
##질로
들려
메르
의지
##own
이용해서
기울
버린
##"의
되며,
해상
돈이
머물
깔끔
군주
색깔
##텀
##ᆷ이지만
장점이
UEFA
##씨는
##qu
##ber
장악
넥센
어둠
1층
추구
혁명
##지?
##파로
올라와
비싼
저작
간부
EP
{{{
##68
영구
등장하지
2000년대
가사
감독은
처형
배우는
때에
메리
##한이
대거
##늬
##생을
800
있었다는
스톤
차가
##겁
비주
##인들을
##쿠라
주먹
##있게
98
##지않
일치
집을
한정으로
##석에
분위기
CPU
화를
왔다.
##주민
##잉
있었지만,
어택
장군
터키
잡지
1988년
##.18
나오기
##버릴
당하는
##선과
##old
된다고
포항
발생한
##리아의
단단
야스
돋
##상과
통산
조별
##케이드
##US
##득을
##학의
##방향
한참
오카
홈런을
신문
삼국지
##동은
미디어
##%를
머리가
클래식
##로봇
한다면
힘들어
적합
험
##av
인물이
발언을
##종은
샷
공격할
헤비
탈퇴
떨어진다.
##ᆻ습니다.
##인도
뜬금
밝혀진
##ng
죽어
찢
단편
윙
[ruby]
##다니는
##버그
##오와
아이를
천재
62
찾기
쿠키
지식
이번에는
띠
##110
##세한
##졌고
##뚜
77
한명
##이었고
정부의
유효
크라
계기로
##있어
카메라
쏠
53
##됩니다.
효과로
터치
수준이다.
기용
##체이
특집
##뱅
##들만
##여객
##위,
신분
숭
목표로
페이지
공공
숨겨진
딴
하나도
##들인
수여
윌
엘프
##orld
무시하고
##.15
않았을
##모드
##뚱
##커의
몰락
현역
아크
이것도
##lay
랩
스턴
사마
##뇨
##받는다.
군대
어째서
##바의
없으며,
##놈
기록한
아마도
맞으면
뮈
##교회
코치
만들기
##각이
1989년
업그레이
##단체
##자이다.
플레이어의
##트릭
##생의
튕
강하다.
##EX
##정과
김재
넣는
레어도
컨트롤
##양을
초반에는
##가미
일명
합체
그러자
이식
1군
##랑이
차원
미스
##/h
##았고
구원
후술
나중
주간
공개되었다.
유치
##퍼스
##직한
##되게
##터미널
성능은
이은
농구
하차
아쿠
늑대
##진으로
당시에
리가
##s,
KO
최신
파리
상상
##조로
##후의
##서로
##먹고
세르
##체육
오래된
피아노
모르고
##시피
빌리
고작
##나서
프랑스의
레알
76
##챈
##통신
패션
퀘스트를
비공
##타운
바꾼
##ont
물려
살펴
올라온
자체의
자폭
구글
않으며
조건을
Ro
마력
시너
승객
있는지
##일보
떨어뜨
존재가
덤으로
##금은
##띠
타락
왕이
넷
아이스
##퀘
##중이다.
앉아
##~5
느린
##나가는
##이었다고
##족이
블레이
##희가
식의
휴대
##커를
네트워
적당히
그러한
##열을
인원
##로와
사막
한쪽
##타,
##27
만날
##국제
이용하는
트럼
상술
캐논
사우
##ies
##주와
##어마
##망이
##네의
##템
찍은
##터는
뜻하는
고위
잉글랜드
##방에서
##번을
사망한
거기서
회원
들여
사용이
포탑
죽고
탄창
##pt
몽골
이미지가
겁
Ex
이상이
올랐다.
가르쳐
##하겠다고
##저의
의미를
급격
선전
세이버
160
팬들
##슬링
피해가
##율은
달리,
잡기
##포의
개정
도구
##21
마드리
##펙
매치
느낄
##치면
버렸다.
##군.
##-6
진보
것으로,
##탄의
또다시
그러니까
별개로
즉위
중독
##비,
그러다가
확대
130
육성
아파
프로젝
아일랜드
라운드
다음에
위장
##셔널
김대
##었으며
이어서
##실은
남녀
커다란
후손
책을
트라이
##니까.
##OD
##가스
직전에
아테
되기도
미안
부상으로
##두는
고구려
##29
미군
초보
##기에,
미스터
KBO
판정이
##제국
아이콘
신경쓰
경고
##덩
휩
저런
점수를
드림
무관
'그
범위가
78
##으로써
##되는데,
아메리카
기뻐
K리그
종목
싱크
보여주며
동의
처럼
아닌가
되었을
##술사
비판을
새끼
주변의
아르헨
맛이
##끈
##현,
세운
저렴
수도권
##요시
보존
##하더라도
근본
수업
##졌던
##달러
알아내
간신히
##제와
카트
찾을
국왕
제작한
마다
장전
##다면서
봄
독특한
##통이
사카
결과는
##차는
초기에는
##요,
##사거리
##투스
곡명
DF
깡
무척
1부
블라
북쪽
움직이는
했으나,
화려한
##팽
카드는
우리나라
환상
으로
에너지를
것,
##하를
공격력을
부딪
생략
wh
버린다.
너의
74
##이야
게임은
##저가
##관과
##+1
##죠.
인증
##/10
수류
전함
##들과의
양쪽
가볍게
MF
뻗
그렇지만
자리잡
곳을
##네.
잘못된
모티
연료
##끝
##주기
##결을
해주는
메모
##헤이
남쪽
멕시코
##인들
##법에
도끼
호위
당연한
##딱
LI
Un
##패로
패턴이
트레
총알
##약이
없으며
사전
##않
관측
멤버들이
민주당
그루
주제에
아니고,
##보로
떠오
포함되어
##샷
##년에
##io
손가락
##NA
챔피언십
용도로
##미나
##자나
드레
있음을
##백을
공성
##고속도로
##헬
##-15
##구에서
대회에서
가시
예정이다.
곤란
중립
꿀
식물
가끔씩
##명과
배워
##천시
시절에
검을
##적,
어마어마
존재를
##함은
개량
WWE
시작으로
해안
##검을
서식
##해지고
##훈련
##곱
고교
##움이
CF
레이더
##세스
부문
##였지만,
##발이
벼
##ET
단점
기록이
##므로,
가치가
넘어서
시간에
##씨의
##력,
꽈
##괄
##만,
시대의
2020
2인
지시
효율이
수출
사냥꾼
##스러워
클랜
사쿠라
##MP
제정
건조
토끼
비상
어비
컷
화가
처음에
않았고,
출연한
고문
사귀
sh
##차례
떨어지
곰
그림자
두려워
의견을
실망
죽이고
아틀
##되던
도주
합의
후반에
##생이
##거를
##세.
##테이션
오버워
망가
보석
나폴
헐
숙련
가만
마그
##봤
기록하며
##계열
관찰
아시안
격추
생년
특성을
your
mm
##VD
140
받아들여
않으며,
코코
##구리
윗
흡혈
후배
수준이
글로벌
공룡
##cm,
곡이
속도를
않았지만
부각
털어
호텔
의문
모르게
Pro
없지만,
##/1
취급을
팽
완벽하게
위반
시에
시작된
주둔
커리어
##린을
##즈에
위대한
포스
##판으로
##해질
##후반
##디의
나오면
없는데
주사
##진과
걸고
CV
캡틴
##온의
그랜드
##98
##슬로
U+11
킨
진짜로
67
##디를
액티브
치유
이미지를
부분에
죽이는
난다.
1라운드
춤
##벌이
크리스탈
##공사
포르투갈
편이라
###x11
바이오
늘어난
##들보다
자극
제도
##수사
##속에
초중
귀환
집으로
일이다.
확실한
##내가
안나
일찍
구하기
##900
자전
무기가
##얄
감정을
##"을
##함.
무기는
카오스
멘탈
##포인트
##ᆻ음을
문재인
페널티
스웨덴
##제,
관심
##윙
소드
입히
부를
4대
한국에서는
티어
##Hz
##하자마자
방송에서
We
##펙트
재정
##가고
간접
##능력을
##비디오
사람에게
##하마
비해서
##조에
##실점
있었으나,
넣은
한번에
I'
오지
발행
정도였다.
다스
장점
아이언
문자
알았
닭
유저들은
##까진
집행
북부
후에도
기숙
모를
강의
리드
원인이
금방
폐쇄
##고에
시노
기회
##다리
성공한다.
소지
뿔
히카
제작된
이혼
통치
동쪽
##라엘
##타카
더러
관람
흩
4번
면에서
무렵
포위
골을
보면,
CJ
얻게
하나씩
문서를
##되었지만
##모의
##인한
제출
라이프
새롭게
##린은
해피
우수한
종류의
##out
아티스트
나면
대우
니코
전반적으로
다음으로
타자
##사우
성공한
SH
1987년
닥
놔
소위
레코
##되는데
성별
사라져
##성능
1980년
전투에
시드
##라고도
##경은
함선
사용하기
음악을
##과에
##기록
발라
지불
명칭은
영상이
쓰여
##넨
늦게
##셀로
##ave
##습을
물질
익스
##rom
자본
##편에
##냐?
이듬
6,
##된다고
잔뜩
##IP
##시에는
정수
##테르
전주
##26
정차
##단에서
그레
##장전
2.0
연속으로
휘말
##거리를
스플
추종
아카데미
냄새
##병원
나오는데
총기
친구가
갤러리
성남
자연스럽게
4위
당일
대미지가
##타자
횟수
디지몬
1루
마키
쉽지
거짓말
듣는
발생하는
It
전체적인
빅토
##세)
불교
생기는
동성
구성된
유통
패스
열어
사랑하는
둘의
아까
난입
기관총
이다.
녹색
대통령이
1:1
무라
최소한
##팅을
다카
입장을
답변
간주
장비를
목을
##프와
않았고
지뢰
##ION
좁은
똥
##해와
생년월
스펙
한글판
##으로서의
유력
아래에
that
김현
떠난
숨어
##야만
상영
정황
##46
##55
시작하는
##즈마
올스타
전투가
생각해보면
국가의
알아서
보다는
무서운
상관없이
마법소녀
##조사
보여줬다.
부러
클레
정부가
브랜
유독
##ream
대부분은
하나,
##발의
알겠지만
중,
고스트
크리스마스
##작이
초록
##산으로
따온
##LE
프란
거울
##문학
##노우
멋진
찍어
틀어
방지
옳
1만
플레이어를
##첨
##동과
들면
##공원
##축구
지역은
##편이
불렀다.
호칭
보완
설정을
##부장
혹시
##개,
심지어는
##크리
톤
뮤지컬
스탯
##ile
물건을
먹은
전문가
그러다
즐거
후보로
1장
사건으로
##ond
올렸다.
분명히
##야는
플레이어는
정부는
데드
##rd
관련이
선두
이유를
##브가
반사
차를
구멍
나타나는
##"이라는
가려
##졌다는
데에
등.
다이아몬
##경제
받으며
언급이
쭉
##앉
##나간
##.00
##더라
##브의
해리
주인공은
+10
##아리
##렸고,
노려
##영은
##사람
##받지
##감한
##급이
자격
공격으로
##운이
##우기
##플러
일어나는
사살
코우
##에서부터
미쿠
죽는다.
나도
닌자
체인
##운을
돌입
가지는
##사이트
동양
영토
끝날
아미
데몬
속한다.
발매되었다.
##발로
##SP
네임
서쪽
##.20
양성
없다면
##뚝
눈물
최근에는
강원도
위력
1승
뱅
##함의
##밭
금융
음성
묘사가
##톡
부임
##ian
##디는
피할
신라
##iss
말하며
##무장
##국에서
뜻이다.
걸맞
##겠어
예로
증언
대대
##슨이
나간
나선
양의
지팡
대성
평타
죽지
콜라보
##프,
Gr
토너
AM
101
대단한
점도
오마
니콜
스킬은
아이템이
마코
가지게
수를
삽입
장면은
들어가면
잇는
5%
정식으로
애매한
##면이
이듬해
수술
##체인
타는
##더러
정도이다.
인디
##누리
훼
느낌을
클라
##급을
##DD
영화를
##블로
스페이스
2연
프리큐어
체결
##운의
아나운
##-19
발렌
어뢰
결과가
##하나,
##지기도
공격은
##예술
승강장
데다가
배차
칼날
말하고
##고한
떡바
핸
리듬
##칙을
심판
뽑아
##"로
##-K
죽기
트레이드
유저들의
요소가
내야
단축
동일하다.
투구
##300
같지만
바퀴
##ost
##전자
##복이
##싱턴
곡이다.
경험이
##루,
아래의
수백
답이
2007
##;&
오류
##행이
##s.
96
##사관
##택을
별도의
곡은
입장에서
요정
매력
유발
윈도우
생명력
귀여운
카카
작업을
메디
2.5
##프리카
공허
##면에서
##이면서
임대
3번째
##:10
가치
시절에는
영광
##지구
공격한다.
선수로
##하면,
인물이다.
경상북도
준수한
마케
팀에
##44
##곽
활성화
적어
##"고
2006
엿
형사
않는다고
가슴
##......
##달아
팬들에게
발생한다.
캐리
4차
면이
##ᆨ저
##종합
##르와
##음.
1분
철저
소재로
일종
##현은
##슨의
일으킨
##바나
다리를
평을
사회적
칼을
##속으로
##보병
스케이
투어
##벌레
되지만
제가
##치면서
현장
##기기
##츠는
타쿠
화학
##orm
LC
상처를
1명
당신의
##ᆻ었다.
의해서
합니다.
1986년
말하자면
코믹
호주
##비한
주장하는
##짤
머리에
커스터
##다"는
끔찍
##온이
톱
시절부터
처벌
##벌을
##:20
삶을
업데이트로
갑작
전신
##ace
##진에
고수
운영하는
기술.
속으로
배포
내고
그럭저
##'과
##무가
##주었다.
군대를
##마,
확실하게
얻기
드라이버
##나이트
각각의
##속이
마이크로
이수
##ory
쪽은
속도로
##러니
비미
##,8
##95
##바가
전북
##위해
인구는
##대상
이하의
기사가
전설의
##신교
눈치채
미라
왠지
체크
먹어
일일
스킬로
최우
높게
##해보면
##더의
##단,
대리
항복
##왕을
개설
##습니다
천안
##ov
##데다가
왕국의
신화
##렸다고
전체의
특징.
187
LV
당하고
##너가
생긴다.
세대
이슈
리뷰
플라이
##IG
##버전
##슨은
##길이
이젠
##.16
실종
##곡이
##드래
현상이
인간을
빼고
##하진
불이
전체가
연금
어두운
나은
새겨
상태를
##키퍼
##범위
##ᆻ을때
이긴
##ph
##하하
##합이
##희의
질문
##ear
아저
##석,
시대에
곳이다.
또다른
##민은
##족을
##아시아
원자
세븐
첼
생년월일
당했다.
화성
##네스
차지했다.
##경기에서
실수로
오랜만에
여객
##;&#x11
조연
##사이드
##리고,
##르,
아케이드
쉬워
토벌
Com
##있고
발을
##계는
##관광
부분.
지휘관
서번
##장갑
올라오
맘
비유
자녀
라틴
의견도
원칙
나츠
않지만,
##클럽
##건이
성을
포트
사이버
방식을
요즘
##-16
그럭저럭
정통
심장
##oth
##신과
세인트
이스라엘
커녕
주포
단행
이종
##렇게
지나지
##ᆯ로그
속의
창원
펄
빌려
##공간
아버지는
AD
유나이티드
AS
##주일
출시된
##man
##점의
주식
어머니가
무더
우리의
밝힌
##란의
##달라는
##전한
##례를
뮤직비디오
정확하게
보내는
##커스
##마크
186
경우엔
3000
##테일
##ys
두들
상자
##상황
고기
상대는
강등
샌드
##-S
##인데도
요구하는
97
본다.
상기
시간은
싱
마비
피에
스톰
쟈
창설
하나만
얻었다.
##추어
re
밑에
##든가
지은
무시무
제외하고는
합병
출연했다.
승점
1~2
##국으로
상대에게
##난이
시라
세상
모델이
술을
태평양
미드필
##시스트
대지
바닥에
아니라면
자막
##머가
63
파르
여담이지만
##전설
##펠
막는
보이지만
2~3
잘라
##가며
간단한
##주교
적중
갖추고
61
##국민
##환의
##후에
키가
생각할
그랑
##노는
워싱턴
15%
by
간단히
문명
비교하면
콘서트
##리에이
읽는
차기
##거야
나치
낮다.
제6
##더가
제자
##오,
약점
날카
선고
##ᆷ블
세계관
##조직
##TE
시상
많지
이라고
작품은
25%
들어올
디젤
부가
##sp
영향으로
##미로
상품
누르면
후퇴
꼼
상의
##딸
유희왕
타격을
2:
측정
히나
더군
사라진다.
##렸을
낫다.
왕자
형식으로
사례가
##음에
부스터
스트레
부분에서
##으로만
##정도로
##집이
사이드
블레이드
제7
##ᆷ이라는
##23
회차
일행이
69
##용의
##병의
마법의
##ᆽ게
1500
무사히
필살기
완결
된다
말자.
##되지만
태도를
##인민공화국
악역
위기를
이벤트가
브레이크
##aw
전작의
##pp
##시타
##.17
##ale
넣을
괜히
##영을
##2의
전까지는
##네시아
터미널
시체
퍼포
##숙한
파생
드래프트
한국인
신도
일로
##하다면
이벤트를
화물
##TS
##기능
공기
##산에
완전한
텔레비전
##고도
오라
선제
국민의
도둑
구할
차트
땅을
기지
##전문
##이기에
##ike
가격은
##OU
한데
##영,
지칭
##야를
##루와
##히지
버그가
##령의
##이었기
이용할
침묵
유격
##위권
간간
##살을
1985년
부인
명중률
##XX
뽑아내
에그
##우지
프리미어
미네
와일드
##소와
##로만
비정
##로써
한반
당신이
갔다.
##.19
ED
##필이
최하
한나라
##나?
뿜
##/5
사유
유리한
막내
##링을
오키
있듯이
조조
사용된
##다"라고
대인
인민
발굴
주차
패키
##캐릭터
만드
동남
피가
부근
나오는데,
삼각
##스레
##IM
5.
진심으로
과도
심심
##맵
지녀
위력을
와중
크기가
파일럿
##아아
##군에게
##VA
특징이다.
가동
##월드
회장
닮은
하이퍼
결말
##품의
허리
##되었는데
적지
음식을
폭력
##씨를
마약
트리플
코리아
##경우
모습도
##머스
개발한
특별히
##툴
아트
반박
2군
##매를
2라운드
##합을
세부
걸리는
##형,
시리즈에
요약
철거
기회가
높고
##었으나,
그러던
얻고
SNS
복잡한
계획이
쟁
왜냐
예언
##irl
너프
톰
여유
타마
엑스트라
배를
##역과
서서히
교전
사라졌다.
##아키
실수
개념이
책임을
배출
형태를
##산시
하필
풀려
에르
##번은
모양의
경상남도
##레인저
의상
진압
##배가
배경으로
플레이가
기아
히로인
약탈
얘기를
아기
매번
실드
##곡으로
침입
용인
올릴
##줬다.
블러드
파는
어빌리티
팀원
허락
힐러
##파는
700
줄어든
벌레
용서
##안은
페이스북
진실을
##보자.
##방으로
베이징
커피
전해
시카
]세)
##흔
에반
소속의
##8,
##였으며,
버스터
사용했다.
1.2
물론이고
##손으로
목소리를
변환
##녹
건국
##내기
특수한
시원
##프레이
프로필
##면의
빼면
오타
무산
##ook
씌
근거리
곡의
노리는
##박스
사도
중세
있었으며,
노선이
천사
go
몬스터가
##ows
모니
##타수
임팩
##있을
뒤집어
의하여
대상을
선생님
말라고
##협회
##블린
골키퍼
##은,
##저스
기가
게스트
향한
영원히
스토리가
번개
창단
개별
##ink
##~6
종이
서포터
##미에
##서야
##준이
##건의
##ᆼ을
지키는
나라의
언급된
ch
더군다나
공연을
집착
사건에
트러
웬만한
보충
##연한
민첩
법정
영화의
역사를
끊임
##바르
쌍둥이
소요
##십시오
한국에
마블
언데
로버트
##마치
##오로
노리고
엘리트
##UM
htt
##오스
서구
발표했다.
##라면서
자랑하는
인구가
일부를
압도적으로
가리키
닌텐
없으므로
성격을
무인
##바야
1984년
2002
코르
대치
##떨어
금액
웨스트
리미
##인치
상대방
##옵
땅에
감지
##자베
신호
치명적인
꿰
침략
앱
엔터테인
기재
##기게
미쳐
딜링
교사
플래그
불만을
즉사
무력화
나고
##tle
##더를
##:40
정예
스토리를
잘모
인종
차이는
##로에
대선
선수를
##ial
더이상
과목
장치
##뮬
##했기에
놓은
뷰
##와도
BL
CG
업로드
구별
사태가
##먹은
##극을
레지
##금의
일에
무의
평양
별의
유의
되었으며,
바가
##ish
##절한
##.com
장면에서
공사
끝으로
자신들이
론
##정치
굿
항의
RPG
##우주
엑시
가만히
3세
##넬
토마
퍼포먼
##되거나
Br
시즌에
Team
했으며,
##보이는
스즈
포격
그날
세포
갈등
뱀파이어
세계에
규칙
피터
##플레
##47
측에서
##했어
라이플
3개의
엘레
##주며
버튼을
펴
한두
둘을
히어로즈
동영상
사고를
유카
어리
헝가
너희
조건이
##란이
안양
1990년대
##GE
당사
영어판
튼
##나고
##ower
버리는
로이
##우라
##란다.
적다.
시작하였다.
유인
##소총
주장을
써야
킥
시위
김경
비하
라인업
여론
장탄
기존에
해킹
##히트
##너의
##ob
억지로
변화가
##자라는
악몽
##영웅
즐겨
야생
긴급
##스ᄐ
수능
직접적으로
건물을
최종보스
&#x
무승
힙
쏜
고객
쏘는
호소
받기
나무위키
20년
##림을
기점으로
사형
취향
시작되었다.
백작
##르며
사람으로
아이러니
이룬
##-17
신입
##능력이
과거에는
##토,
몰리
##코어
##민,
참여한
쫓아
들어오는
병원
배정
안된다.
나머지는
##팀은
이어가
부착
삼아
##ft
동기
##우스의
옹호
친한
지속시간
여지가
##병으로
##듈
나오기도
##틀러
세력이
채팅
미즈
##ach
##감도
듯이
음원
##공업
명백
##졌지만
길어
##체스터
7,
초반부터
1시간
은신
##편을
깨달
대단히
##밤
소방
루카
주인공을
출격
남아있는
후기
국가대표팀
##사나
##공학
거친
캘리
매니저
##쯔
넘게
##루에
##산은
##차량
##차별
##름의
시계
저질러
##겠다며
원인
실점
점.
팔을
느려
Sk
출력
돌아가는
##했듯이
몬스터의
전승
질문에
보면서
##스도
5000
다투
아치
궁금
##바닥
Cl
##님을
연기를
##니까?
나빠
않았다고
카츠
청와
정비
##하고는
했었다.
##틸
영화이다.
##체와
사령관
처참
호평을
모노
달라고
##갔다.
관여
##품은
스카우
프로그램을
##이라고도
결정적인
저택
세력을
##타이어
제한이
비웃
##것이다.
싶다면
럭
시리즈를
코멘트
방어력이
위력이
에디
사용자
수치가
170
##로나
상륙
열리는
##순위
##푼
줄여
남겼다.
##질의
나이에
##과정
백성
하향
일격
처음엔
OP
##중에서
언덕
바뀐다.
코토
##상으로는
##원.
주인공인
별명이
맷
스킬의
여학생
썰
아츠
##늦게
동계
무역
통틀
툴
##즈니
아버지를
##계약
터져
작전을
슬프
##스런
유이
185
새누리
##스틴
가죽
SE
적들을
이로써
미드필더
##반의
드롭
부품
남자가
##사도
##길을
나왔던
구간이
1턴
재개
인피
계통
##이었으나,
차이를
Sc
##색,
바꿀
일행을
##포르
군인
작곡가
##디움
사거리가
패널
어이
가해
김상
##인데다
몫
10분
받아서
자유롭게
나지
훈련을
경기장
사립
일부는
84
에릭
##당과
여기는
##:50
모스크
##ex
##타임이
캐스터
박물
경남
##반이
담긴
##속의
천연
##다'고
교과
점,
장거리
로빈
통하여
각자
프렌
알라
##31
연맹
나갈
중형
돌연
##해준
사제
중요하다.
엄격
권장
조금이
##이동
풍부
##공격을
남기고
2개의
##슬라
것보다
잠입
뜻한다.
같다고
DVD
##[ruby]
전세계
에리
스크린
특히나
취득
평생
복구
스팀
구슬
디스크
숫자
Bl
싸움이
선행
##살이
##차에
##산,
좋아서
대조
Dr
##뤼
##AP
번에
Man
둘러싸
구경
구조를
포켓몬스터
##째로
##판과
지워
##사한
아래로
##꼽
##나로
공지
##ble
##티를
##화.
말하기
##MS
또,
아니었
너는
##궤
충성
전역
##낭
조약
록맨
경우에도
정기
라그
첩
당할
신장
된다면
##티스
##왕은
##률은
이득을
##되어있다.
##!!!
##네는
부정적인
소송
##타니
나오면서
he
호환
시내버스
기상
##주의를
건지
##라이브
많기
##키아
공용
진학
Pr
소식이
##기어
##ms
인물로
느낀
##포니아
악의
트라우
일람
버전이
어드벤
##.5%
머리카
공립
##자동차
##혀서
김진
맡게
한마디로
학교에
센트
좋다고
내린
임의
중복
한일
도저히
이토
##경,
지키기
편에
끝난다.
좋고
크래
인스타
키스
시청자
전무
##권,
저지른
아군의
##소설
선수는
출간
Wind
79
86
##등한
##훈이
##름에
1집
김기
불펜
##중간
떡밥
베를
##..."
수록된
##.14
조롱
않았다는
어필
맞을
##오버
국회
깜짝
딜을
후반부
임신
카구
아서
##룸
로얄
거둔
an
능력으로
준비를
트윈
올라가는
주장했다.
세우
방식이
이득
82
##곳을
동인
##토니
인용
##어버리는
##ree
기동전사
##카이도
그림을
##-B
87
##심의
##되었기
##3.
##대원
썼다.
##다거나
생각한
##너는
##now
1,2
오로지
텍스트
길게
때문이라고
메이플
바르셀로
치열
##서도
전화를
##투표
패턴을
리버풀
거는
귀국
난이도는
##다'라는
초창기
##~8
운이
##듯한
모로
헤르
##이었는데
##리한
불명.
##포로
밝은
죽게
##ass
##이었다는
##키,
원작의
##인가?
##좀
파울
조용히
조금만
유지하고
##GB
빛나는
버전은
연구를
1982년
105
가능성은
모토
##-18
아지
자의
마스크
##범이
손오
소속팀
가깝
재장전
기록은
바위
##법으로
##ᆺ하게
무소
사야
이상은
##후가
##란을
제네
하에
일본에
탐험
UN
##도서
수월
##덩이
그러나,
서비스를
##문으로
세상에
추정되는
##봤자
##치아
감독을
동화
골라
##atch
LA
테일
##전기
ID
##리다
##yle
따뜨
사법
그러면
함대
도움으로
아이가
아베
노선을
##팀을
##The
억제
개체
##싶
##피가
선택할
가졌다.
미래를
##천의
안녕
##가서
세이브
##실점으로
응용
해골
뛰어넘
퍼부
쓰인
그래서인지
존경
이야기는
##하였으나,
뒤에는
귀신
##400
건드
얻어맞
And
느끼고
##세서
노벨
##폭탄
테라
##범죄
##정책
##우에
예전에
계기가
되었다는
타츠
치면
복무
카자
얻는다.
##-A
용사
##속을
BS
##are
중순
##란히
엘리자베
혐오
면역
선거에서
시리즈에서
##역사
상실
##ug
유닛의
##변이
너를
싹
자꾸
서머
상태에
최대의
주최
1983년
배우,
##터스
증폭
경주
##었다가
카드로
시로
권력
후원
파크
##ING
정체는
것이고,
성우가
콘텐츠
되살
입는
2004
##시키면
날리는
보통은
##중의
쓸데
축하
화력이
##였으나,
No.
##재판
아닌,
##둘러
##~19
연타
갑옷
##매치
##ᆻ으므로
칼리
용이
말투
##eat
##엔딩
보정
철수
수면
##하겠다는
뒤늦게
1편
##현을
늘려
##밋
##해서,
토요
엔트
안타를
대량
모티브로
##ool
취약
##부터가
##지나
히토
거미
##STER
막상
가디언
하츠
##천만
##창을
이어진
기사를
해준다.
만나는
"어
정보가
스파이더
기둥
안좋
넘버
찾아와
##쟈
외전
직접적인
내게
강원
##작으로
For
##권으로
40%
##권과
교도
코난
포기하고
##레베
마감
만들어서
지냈다.
제독
##포트
본명은
배우이다.
##딧
지목
세뇌
블래
어렸을
##츠로
만일
20대
캠페인
고쳐
##회,
마냥
##ᆻ다며
시달리
극히
##렸고
##노를
##구간
1억
##당에서
연대
바에
차고
레이드
수립
어디서
War
유출
당신은
##백이
들어가서
##ae
회상
역시나
2경기
##ment
오페
엄밀
행위를
캔슬
##외의
화제가
Bla
???
늘어
촌
출시되었다.
##적.
불의
십자
위기
##얀
##들처럼
변화를
코미디
##았는데
가리지
##ase
##바를
##탁을
번도
후의
사로
야쿠
##민족
수직
뮌
여행을
시간의
##거든
##희는
주장이
벙
시리아
마디
발동할
##1.
##사고
영역
이자
시의
축제
스트리트
이걸로
집어넣
못하면
들었다.
##렸다는
##동물
대신에
없었고,
개신교
##었는지
2005
재활
경북
##ᆷ으로,
we
가상
##on't
가능성을
빠져나
가챠
모델로
인접
랜더
지는
##마일
##소나
데다
##ᆻ기에
##리도
##벽을
우월
볼넷
##내에
오브제
합계
##텨
##페르
Star
##터로
이니
##마츠
만크
자체도
함락
##림이
동영
분열
##대사
비틀
유물
스트라이크
화력을
보유한
보호막
증가,
##부지
입주
두들겨
상반
원더
오버워치
슬래
분쟁
AKB
불사
##호환
사자
속한
나타내는
벽을
89
상태였다.
논의
##,000원
말라
담당하는
##모데
작년
아랍
실시간
박지
##km/h
선수이다.
##파크
이세
##지능
아동
끝이
실질적인
능력치가
##학원
위치하고
##갑을
10개
##사단
##리에게
##양의
##쉽
##권에서는
되도록
요한
안으로
편지를
며칠
##nt
##박이
##ous
외야
명목
학력
up
##티즌
전투기
All
##골드
클릭
스티븐
킬러
##하였는데,
가기
가난
##사기
유재
토큰
마린
정발
##메달을
솔직
인지도
지나면
딜레이
낙선
기종
우크라
##85
##ᆮ는
한방에
만화가
연고
크림
실은
##코스트
쌀
키타
유망
투명
사이코
##/20
자이언츠
에픽
##-C
원소
추방
##추는
않다는
##어에
가질
수의
프리미엄
타율
##식과
가리키는
출루
##포스
찍는
어벤
제공하는
악당
물이
스와
##그램
##서울
##신도
여기서는
결승전
##er.
발매일
닉네이
와카
결심
끓
퍼져
제트
공장
밤에
엔진을
##법의
드럼
연습생
LP
##민을
복수를
##조선
확장팩
##님은
복합
배려
##하면서,
차지하는
분기
핑크
##초의
##반을
구미
기술로
중화민
대통령의
##저런
##준의
동반
크라이
##이었는데,
필리핀
쪽에
함부로
지경
식량
팔아
오니
되어있
증가합니다.
부드러
생길
##미사
리치
빛이
날이
##석에서
트루
##way
우에
암시
쌓아
##즈로
##ason
갖춰
7년
##67
뜬금없이
##하지도
5위
'오
헬리
활동하고
##용은
##모는
125
3.5
우라
전파
상황은
부적
##-14
방향을
##내며
호불
##iki
못해서
##분,
엎
위치가
기기
오크
##시에서
실질적으로
사용시
73
성적이
홋
정상적인
사건은
솜
##ᆻ다!
##az
설치되어
하려고
태풍
전원이
주의해야
근대
##신,
중후반
끌어올
슈퍼로봇
본격적인
물에
##AY
얽
따지면
##일로
뚫고
진행하는
계열의
안정적인
매출
아들을
사가
결론
마카
사실이다.
소문이
쫓겨
##-J
##관련
교장
왕조
##시험
거론
상하이
아인
전라남도
##강의
##노동
여성의
##되었으나,
##"가
감싸
버텨
건네
싶다고
Gam
3명
모티브는
데이터를
##카운
분해
거둬
1945년
마이크
폭탄을
국정
나노
71
쉴드
##식,
##서와
##저를
##밖
서로의
사회주의
##목이
흔한
유래는
##소프트
+3
아니기
데이비드
전력을
바이러
무시무시한
반해
시크
##장애
##?"라고
진격
일방적으로
리스
도착한
작품이다.
수익
알려졌다.
DC
1호
10대
초콜
폭파
겹쳐
묻자
너무나도
SF
문제.
여기저
##노트
추억
동경
##어스
야간
##양함
짱
##ary
##조합
##마냥
일본은
일어날
이어져
##번과
비주얼
모습에
독재
##것.
##act
##운드를
사고가
2명
앞의
##비치
안의
먹으면
누군가
들어갔다.
가진다.
##%가
충분한
네티즌
도망가
쿠데
주제
소중한
##-09
보건
투척
상태이다.
One
거다.
##키스탄
##프라이
마루
클라우
ne
넘어가는
##무의
##층의
New
담은
기도
상점
저는
3점
이르는
출범
##표가
심사
막강
남는
프라
말로는
콤
대다수
##달이
4개의
##티가
낚시
여의
##회복
##곡은
CS
Part
진정
시,
교육을
3부
느끼는
주된
간호
조리
1981년
지향
##브레
넘치는
인연
혈액
브라운
전날
인터뷰를
대해서도
정도를
복제
번째로
슬롯
81
말레이
교토
##스테이지
있기도
그녀에게
World
사용되었다.
스캔
##터널
폐기
디자인이
남을
별도로
구역
나중에는
가벼운
부작
캘리포니아
##ai
##과대학
오다
대표하는
1사
사단
설정상
##태를
##숴
데미지는
미루
##건설
On
전쟁의
최근에
바른
시즌2
##이자,
일본에서는
토르
##600
1970년
##히게
##시켜서
FW
페스티
못했던
샤를
우호
메모리
여섯
NE
##법원
JT
배가
##시대의
##봐도
서로를
정화
기대를
어쩌면
##자라고
도와주
좋아한다.
선수들의
오락
##번으로
식민지
##였으며
##론가
차지하고
심의
막대한
육상
입장에선
쓸만한
##떼
할수
선임
부동
오스만
##놓는
##즈에서
학생회
옆에서
PR
작화
퍼즐
멀어
##처리
약화
나오게
175
아들인
1980년대
낸다.
플레
개인의
상세
공방
##CG
##앨
##소리를
발견된
단위
##바다
번의
리얼
일부가
10만
반응은
재회
것이며,
포스터
##적으로도
움직임을
스나이
없었고
IN
##교가
##차의
사진이
D.
서클
##궐
도적
##통합
##줘서
충실
##겠지
이집트
그르
방탄
베테
1979년
사망했다.
##ife
주관
##해줄
##UP
버서
##1의
##ᆯ스
##버스터미널
세번째
##ade
스킬.
##니아의
##시청
##mer
'어
왜곡
##벅
일렉
##타점
문제에
##부인
튕겨
UP
친일
대동
매주
스코틀
##퉁
우크라이나
요원
온천
상태의
벽에
전락
배급
가요
둘다
무리가
올드
서바이
##링이
바이올
자유한국
전남
달리는
모집
##배치
##자이
##a,
노가
의식을
규모가
훔쳐
##p://
아군이
느리
끊어
싶을
드라이브
오디
DE
이른바
##사에게
##터,
젖
##감과
머무
유혹
우익
##ven
기분이
끝나는
여성이
만들어낸
되어있다.
연봉
일원
##.24
누구도
충청남도
통칭
사퇴
0.3
##뱃
표정을
갖게
하늘을
##자료
유기
##딜이
##석으로
##베리
4인
필요는
##능한
##i-
##련의
진주
보냈다.
했다
조우
러시아의
개를
3의
평가는
##바는
호의
성향이
춤을
귀찮
##야!
받으면
##w.
##카르
튼튼
선택한
##시스테
풋
##ank
BR
해산
질투
등장할
##aby
배달
나누어
팬덤
##되므로
##켓을
상대방의
8,
##~10
동일하게
CH
##타마
##책으로
연령
범용
다이어
대표팀
날뛰
##해져서
게이지
만만
도박
한방
유입
##볼을
논리
##관계를
싱가
일시적으로
그대
##보의
위혀
##쉐
우측
플러
##늄
설명을
##-08
히가시
##ps://
##프라
##커는
비가
실현
사정거리
##득점
키우
운동을
##행정
학습
싶지
##류는
##8년에
작품에
##면서,
마신
##선생
##평을
##음으로
이곳에
##스피
##메리카
순수한
##88
긴장
한창
영혼을
##겠다
무기의
노무
팬더
동해
싶으면
써먹
아케
##공으로
상대할
네트워크
달하는
이동속도
##는지는
이오
적용된다.
##lect
학교에서
PP
황제의
##에른
##룡의
##색은
닛
분당
소장
기다려
GB
사신
##연맹
사이클
감독으로
배차간
##-07
기억이
##흉
경력
##보호
##데렐라
주의할
기다리고
##gin
보이기도
##온은
##몬의
산탄
##라미
배트맨
주역
독점
조기
단종
##몹
거두었다.
바꾸는
간간히
##고리
짜증
부산광역시
포스트시즌
이누
92
막고
##'이다.
##박한
손쉬
##들에서
섬의
유적
##저항
조언
이유도
제1차
여자가
차량이
##CC
자금
##해주고
드루
##께서
품고
올라간다.
트레일러
부르며
내성
체중
부르고
내용의
고속도로
기술은
천천
철학
끊임없이
마라
전장
이순
##클래
코인
인도네시아
수습
모드를
걸린다.
간에
단행본
부유
스쿨
##처를
포수
##킷
오디션
##본부
##강을
##내에서
집권
기생
미노
모두를
청주
##남이
상한
##:0으로
쓰게
짐작
케이블
평일
베타
사업을
커맨드
##oon
제노
##경기에
볼트
가능하게
##본다.
분포
##초로
찾아온
김준
되어버렸다.
##도리
되므로
AN
##ork
방영된
##만으로도
##되어,
5분
살아있는
도망치
이웃
집합
##대문
##온을
틈을
설명은
맞춘
경우를
##국,
에미
맞붙
뿐.
드문
언젠가
##나에게
비율이
시작할
뉘
상태이상
얀
중첩
농업
하계
주목을
하시
일대
##AK
퇴각
##oll
##감에
Mar
율
##팀에
##조,
90년대
신경을
인격
지키고
are
더불어민주당
청소
불태
##사스
##터와
이런저런
스타리그
왈
수류탄
주니어
무술
판결
##렐
사랑의
6개
읽어
김해
##hen
사천
1경기
패밀리
##게이머
아이디
##께끼
리처
트럭
북한의
설이
내각
배드
주택
##층이
확산
깨어나
94
패배를
##티의
6개월
##미노
좌절
##티는
불량
게이머
믿을
젤
##미한
##당,
히든
모습.
##br
도시를
올해의
장신
##집에
##AA
장관
##CE
##생활을
##구청
터널
머신
1:
합동
설령
모자라
싱크로
##퍼가
흑인
결투
##들어가
거라
연쇄
1장을
해양
사망한다.
삭
##음은
던지는
도움
워크래프트
##올림픽
권유
해당한다.
차량을
해명
지정되었다.
2편
살아남은
'자
헨리
커서
##스:
##비행
LIVE
마치고
##했으니
아니지만,
얼티
모은
열매
투사
찾아볼
공격해
개성
##리칸
손이
것과는
시가
등극
kg
##초를
최적
강경
당한다.
지고
딸을
정책을
선사
첫째
크레이
손꼽
##버튼
가능하며,
국경
이번엔
+5
##나베
승리로
##핏
유용한
초기에
지리
형태가
다닌다.
'마
그렇고
정해진
유성
퇴장
##꿈
발표한
벨기에
오염
##과가
배제
##그레
하이라
##워즈
듣는다.
폭행
##버를
정신이
역사가
불행
기후
##하여야
명문
지도자
차이로
##누스
등도
##로마
시리즈가
소니
##국과
한가
체험
츠바
##민주주의
시작된다.
낙하
안심
따르는
순으로
##나에
가담
규모의
되었는데,
갇혀
포획
나라를
턱
어머니는
조회
경직
시키는
있어,
출신으로
##나기
약점을
싸운
##곡의
##댄
즐기는
흙
##파와
상징하는
꽉
##4년에
##카미
하반
것이기
입대
##6년에
##레옹
봤을
발로
##미네이
NH
시종
잡아먹
갖는
코스튜
전쟁에서
뿐,
5번
갚
뿌리
재직
최저
##면으로
지연
두꺼
제작진
##침을
대변
##계획
피의
설명이
패널티
지역이
영주
1화
##보지
##당하게
내리는
##혹한
시게
그러니
##킹을
부르기도
그중
우위를
말하자
##ᆷ이라고
슬레이
##거래
대전차
짐승
바둑
취미
##문제
지지를
벌인
가량
##메라
##질은
만주
Fe
매달
리타이어
무서워
있기는
다이아몬드
의미하는
##인들에게
##ᆻ음에도
##본을
구간은
그외
사고로
많을
##ox
##넷을
초등
체제
어렵지
##형과
##와이
##션의
바이에른
83
의미는
##목록
##딜을
호수
지원하는
정류장
플래시
##마로
재건
분산
볼수
일어났다.
포지션은
기록하였다.
어나
이전부터
보스턴
회사의
##들이나
대접
다큐
##네를
##96
목적을
##갱
##기준
전송
증오
##으려는
10.
콘스탄
올리고
권력을
반지
토오
##막지
900
완공
##행위
천천히
요즈
상황이었다.
##스포츠
쓸만
생방송
실전
##-02
##생명
사이에서는
원시
##이었지만,
편에서
캠프
실수를
##야와
##있었다.
위주의
Mk
신데렐라
감정이
성과를
램
##ᆯ리는
쿨타임이
AFC
##경기를
끼고
##작의
##7년에
이곳에서
통계
따라가
##분으로
##령으로
거지
자전거
lv
부숴
클린
토우
##법인
모델은
키라
마찬가지.
중장
파고
그곳에서
1,000
##리라
휴식
##ᆷ으로서
##er,
어색
나오며
세웠다.
반란을
축소
경험을
##="
마을을
수수께끼
난이도를
도루
##너를
대마
특성이
##블리
아버지와
연인
##복지
콰
넘기
이번에도
##뽀
시체를
이병
케빈
어울리는
##트랙
허무
바니
브래
거북
##파에
##때마다
않았기
진행된
대사는
##여행
##재의
힙합
##.S
일기
##방울
##링크
수요가
전망
##탐정
웃는
오스트레이
배터리
6.
남기
싸움에서
매장
##바퀴
10초
얇
가져다
기갑
깔아
사로잡
믿는
1의
##ᆫ을
아니더라도
소프트웨어
우울
관계는
6년
부자
주면
##게이트
##지니
캐릭터들이
can
있겠다.
##히코
##오지
페미니
아레나
위성
##땐
##골이
##태가
시마
브라이언
신선
김일
개척
로맨
##very
나폴레옹
어드벤처
용어
이대
복원
싼
기본으로
어마어마한
##이었을
##ᆺ빛
글이
전쟁에
I'm
도시의
일행은
주위
끝나면
하쿠
##심은
후반부에
하라
여타
Fate
정체가
##올라
김용
##~7
어머니의
무지막지
공헌
Up
##자책
##마귀
후보가
지구의
히메
프레임
거기다가
항목을
스틸
##uck
있다!
##인지,
논쟁
이외에
역의
길고
지진
악마의
##딕
##실과
체감
유료
10,
##시키며
##ᆫ은
오기
그러므로
제8
3:
##백과
##담의
타이틀을
강릉
입증
속해
철권
선수의
BB
그리고,
##}}
때와
##버리면
##청을
##지며,
위안
##금으로
'사
때문이었다.
##ᆺ불
##ah
피부
##ᆯ레스
얼굴에
마음의
테니
게이트
##-P
신속
##ᆺ지
버리
치킨
인게임
##-06
측은
주류
##칭은
로즈
수석
바뀌는
콘솔
##저리
포인트를
파밍
켈
붙인
##았다
##입구
어지간한
모에
않으므로
3층
##바시
엘리베이
점유
많은데,
도시철도
놓여
곱
##들끼리
경악
무대를
수색
포함된
적당한
기술의
하나다.
베테랑
##나.
보좌
산맥
do
누군가가
사촌
##반에
##앵
##igh
##두면
##리.
##건지
Ad
##해온
호불호가
##가드
신형
##위대
이모
트라
##cc
##A의
봉쇄
발키
성격은
##작은
##포는
##분은
##으니까
##시간에
##지는데
신사
OS
백인
플레이어에게
후회
##/6
공수
왕복
잉여
국제공항
##숲
충족
긁
1일에
##콤보
일자
실패한
전투의
칩
최종적으로
표현을
포함해
##정하고
정반
##화하는
일관
가공
all
##시아의
고통을
없다며
동행
획득할
##/12
무거운
신용
쇼핑
##투수
##환으로
맡겨
드로우
히비
소용
##97
마음대로
도쿠
##동맹
##천년
멈춰
입문
했으며
부분이다.
##동에서
움직이
아저씨
공업
##딴
결정적으로
파멸
##ung
##쿤
정도면
쵸
교차
자국
쓰러트
##드래곤
회색
##호에
말.
##클리
학부
아래와
쯤
호남
빠르고
##돈의
할로
피해자
루나
##.0%
열고
노린
창립
2주
DD
메구
올림
양손
##결승
사서
부부
컨세
일본이
움직일
매드
'미
요리를
생각한다.
DPS
승진
##밀한
1973년
##때도
임진
##철이
##ical
스탈
##삐
젊
천황
제안을
성우:
##러브
학교를
##줄이
아스카
##뻐
프로리그
레벨을
호시
하마
뽑는
자존
2003
##ype
##라에게
##도도
등번호
##노와
##되었다가
##했듯
이해할
침투
질러
본명
철저히
나뉜다.
고무
축복
디자이
##디스
##-01
오우
주축
적게
##훈의
##ARD
##성한
교류
셀레
있었으며
al
티켓
##녀가
##병은
##되어야
싶다.
##희,
오면
배운
특징을
와이번
긍정적인
##란드의
##돌을
지켜보
##.O
대가
잦은
미묘
경호
Day
##5년에
막혀
ML
적시
##orn
싸우게
단어를
전체에
세팅
##te
##한데
1호선
하려
삼진
##일지도
것들이
규격
차량은
9,
지붕
너머
영어로
비극
성적은
->
장례
동급
메달
썬더
고지
구독
죄를
So
지역으로
맨체스터
빌런
쓰던
후일
후방
##차게
초당
감수
다음은
화산
손해
##풍을
왜냐하면
소규모
극대
##젼
상하
##쿼터
인식이
태클
특정한
발견한
죽으면
듣게
인가
##궈
##저는
먹는다.
프로듀스
손쉽게
강간
올라왔다.
남매
##남의
정권
리그에서
냈다.
랑
스즈키
##피해
덱에서
물러나
특징이
것입니다.
나이는
잊지
##히면
최연
프로게이머
생각은
놀라운
##들로부터
184
그렇다.
##ᆺ테
다운로드
고블린
발레
수단
사람과
체인지
수동
소문
드러난다.
##로이
##멜
일곱
디즈니
해머
하급
1초
리플
북아
이때는
##IR
##2년에
폼
##세,
사라지고
건물이
의문을
상주
블리자
##형에
##화되었다.
약점이
##애를
올라갈
부천
뜻으로
반짝
##했음에도
##ero
미국은
극도로
##츠와
##우며
엄연히
특이하게도
물어보
업체
돼지
##파워
##스.
##조와
##클레
드물게
도마
진에
총선
##거라고
전향
김유
반도
##y,
할인
디자인을
##있지
분노를
##공화
멤버들의
닌텐도
Windows
1패
한번도
활동하는
압축
한계가
스포일러
이대로
여부
##-KR
받기도
115
멤버가
##-05
##보우
묻는
비용이
##anc
일하는
##릴라
초상
결혼을
내렸다.
1st
잠실
기묘한
##.26
소속으로
우루
기사단
뚜려
무덤
프로레
{{{#
에어로
인지도가
상식
##폰을
끝났다.
##뻔
2사
도깨
2nd
보구
궤도
360
양자
##.28
##쉬를
20세기
쳐들어
닦
##퍼를
Station
걸그룹
##다"며
숫자가
돌고
대가로
발음이
던진
##히메
##수인
이루어졌다.
스티브
가능하며
조별리그
공무원
벌어지는
관료
찔러
큐브
베를린
국도
JTBC
엔드
답답
##~!
우회
앤드
##당으로
밀어내
승부를
불쌍
미국이
##내지
##카페
유니크
더해
##줄을
초에
##wiki
영향력을
깨끄
제목은
방어력을
끔살
'가
죽었다.
오이
단위로
되려
온다.
잡으면
##iver
##미.
명칭이
##'이라
보상으로
특급
상무
부모님
우르
##ich
문제의
프리즈
예산
##십시오.
##/s
많은데
'나
##타리
무난하게
1.3
En
##니코
##까봐
페스티벌
오렌
2010년대
시즌이
##달라
##지만.
어그로를
시뮬
편하게
##?!
찍고
적으로
##속에서
##OO
BE
그거
##하르
요소를
##였기에
##포인
아니라서
알려지지
##교사
서울대학교
디시
살던
중거리
##우면
##었다면
박성
마오
담배
운영하고
리틀
점에
##병에
DP
##네마
##int
##1년에
절친
데려가
경기에서는
마을의
Oh
##음의
모순
토트
##년이
OVA
BPM
멤버로
##브레이
93
거라는
챔피언스리그
##들에게도
원작에서는
##젤리
흰색
펠리
##뱅크
이마
##장비
운송
유학
1960년
GO
항공모
##시스코
전적
##+0
##맨을
출혈
2집
룩
지낸
##노스케
것이고
올바
꼬리
내부의
조치
공산주의
##루미
시점에서는
##urn
김승
##강화
신부
프랜
##기보다는
당초
##왔던
선수권
##수이다.
히틀러
영화는
김포
탕
슈퍼로봇대전
사사
2승
##는데도
롤드
영향이
굴러
법무
다가가
##병,
오죽
돌아왔다.
미션을
##시기
100만
##있다는
방식의
되게
껍
세계대전
역이다.
비난을
미키
##파,
밑에서
##이었으며,
##대체
노래가
##ock
때에도
셈이
KOF
##9년에
진행된다.
셔틀
DS
도덕
##락이
에피소드에서
혐의로
영웅이
여전
말과
##중국
이해가
사용해서
잠수함
산하
섀도우
이가
##우스가
고의
뮌헨
##ence
하단
좌측
전,
일요일
실패했다.
과거를
안경
옵션이
내부에
NBA
확정되었다.
데빌
비서
##으라고
피로
##시키지
보편
1등
납득
적군
##IV
##아나
미국과
##ise
##바야시
##MC
내에서는
일으키는
##베르크
3~4
굉장한
공간을
##병과
마드리드
아비
서포트
개봉한
비롯해
CP
국적
아이들을
거인
멍청
##ㅋㅋ
뽑을
누구나
##m,
이현
love
라스
방어구
스리
진행되는
##생으로
평상
곳곳에
드러났다.
멋대로
##-JP
이틀
##재는
최상위
앓
##추가
뜨거운
비비
매체
원주민
군의
##략이
랜드
##700
##초,
이럴
진급
##ep
##42
조차
##환은
##쵸
만들어졌다.
##시간을
오가
차원에서
모습과
역습
정상적으로
잃어버
야수
모습이다.
2위를
##ᆷ임
##하기를
바나
##았는데,
야마토
잊혀
##.A
구축함
스트리머
국무
손님
##변을
마을에
치즈
그러면서
편하다.
토니
##쭉
묻혀
조합을
스쿼
##조각
##이후
영양
평행
평점
위상
지나가는
노스
아쉬워
합리
놈이
##신에
##자로서
밀리는
##자들과
##카라
게임이다.
보내고
무엇이
183
연산
##쑤
극단적인
전격
질문을
양이
음모
선보였다.
바ᄈ
이름도
추측이
그레이트
재미있는
끔찍한
##식에서
##작전
##웰
아직까지
이상하게
##타에
일단은
##영과
즐길
종결
시청률
##첸
클러
##중이
##미르
##훼
Ph
목적은
자원을
않는다면
Sw
벌이는
##사리
##장도
시작해
##되었지만,
##열의
##하였다고
##차고
엑시즈
찾고
패배한
##.com/
##ii
##플로
징역
추측된다.
의지를
있었기에
면모를
이경
하이라이트
일커
원조
병력이
스스로를
끼워
김지
추천한다.
사우스
그후
곡으로
조건으로
##'고
김수
##스와의
##화에선
주행
되었으며
##들고
##되지는
##렉션
토리
백업
##동시
바뀌어
고소
세라
토요일
##질적인
##공은
##량과
##SS
버틸
남지
실제로도
##이한
##."라고
잃어버린
##더는
주문을
변한
##피안타
캐릭
무기.
##케이션
##뼈
신발
죄책
##활동을
##삼진
부끄러
IT
황제가
##49
##모습
적절히
##ᆨ의
##계와
소속사
##00년
##ᆺ수
##들까지
태워
##힘
열혈
##박물
트리거
자료를
기부
판정을
사항은
필요로
설치된
##"에
##타인
##빼
##uk
생체
##량에
##멤버
비율
토너먼트
라며
은폐
##자유
##하,
##리기도
강도
통째로
가져온
해치
##스트는
##건은
나뉘어
테이블
달의
연출이
##초가
To
수상한
##된다
##미에게
##민과
2에서
자칭
##고와
카리스
##형태
시에는
원숭
공무
108
이후로도
부패
에로
##해야만
싶다는
칼로
##성에서
속성이
맞는다.
from
##는게
##대교
##던지
시모
128
##하르트
여러번
쓸모
업무를
정교
것인데,
공중에서
##ens
지속적인
##다'라고
주소
목적이
꼬마
인공지능
조언을
사이즈
행동이
##제일
##퍼의
19세기
다시금
유비
인권
반전
따르
학생들은
예쁘
공격력의
sp
아스날
ex
소음
##ign
한국시리즈
작품으로
묘하게
국가가
돌아갈
기믹
어려울
감상
##!"라고
'고
이야기.
TVA
시사
존중
뭐가
##래의
씹
올라간
두드러
##석과
3기
##.22
##느니
레이블
##하늘
방식은
분할
침몰
계정
사와
본토
##니시
편은
사실에
##습니다!
마친
##족은
했기
선수들을
문이
쫒
멘트
##채로
주거
이기고
실내
영화가
얘기가
##토스
A.
피하기
##ose
제작에
##졌는데,
이케
않겠
누나
쯔
##캔
Do
쪽에서
##두로
유엔
불리한
##장이다.
##안전
중지
가치를
들지
좀더
선회
패턴은
아르헨티나
같다는
마산
시작하면
뿌려
참모
##.1%
##지는데,
나왔을
죽이려
대부분을
as
장성
턴에
##MB
내용이다.
이어진다.
##노미야
Con
##전까지
5대
하우스
진행되었다.
어설
버전으로
조사를
##ᆮ고
기적
##테니
날,
무효화
##방은
이태
위와
몰살
##스파
사람이다.
탐사
남동생
색이
세계로
전동차
예시
데모
##쪽이
##ru
인상을
고르
키요
게임으로
동점
##펄
##유닛
여기에서
##"이
##창이
리오
개교
많지만
입지
##근이
측의
##아도
가리킨다.
격려
분노한
##리던
노선은
유럽의
가능할
초청
##리엘
맞춰서
조카
편이지만
오를
##막이
아무튼
코노
##디에
##편으로
간단하게
인물은
명칭을
##문,
##버려서
고등학생
연결되어
사무라이
어렵게
섞여
##오기
특전
##무늬
사다
USB
##장치
방을
##제도
하루에
순환
##훈,
##나미
##.27
this
##뮤직
억울
권한
퍼스트
총합
개장
한수
##채널
진실
##졌기
##버가
방법도
##베트
약속을
변호사
목표를
떠난다.
루이스
ERA
##~1
이끌어
##출을
##세기에
지혜
##요."
변해
힘의
언급된다.
어ᄊ
##저우
보스가
엔젤
듀어
안겨
이루는
##독한
스타디움
검술
노력을
펑
착한
대통령은
식사
##후보
밖에서
타이밍에
##htt
성공적으로
고장
##부키
##하루
방송에
##활동
스매
##탄은
선진
무난한
급격히
##mp
##문과
대면
주제가
부친
유용하다.
##버드
발탁
게임.
붙는
세레
쫄
##상가
별명을
왼손
##레인지
아이들이
이름에
발발
##였다
##프란
노조
일본인
넘쳐
##자였던
##인데다가
중력
들어가지
목걸이
미나미
at
없습니다.
스크래
신중
인테
얹
이기는
만능
##IX
주술
한데,
##두를
있거나
키를
민주주의
##포,
##해하는
실용
수감
없었기
카네
남게
##78
##하듯
##국인
곤충
선발로
생김
아름다
약을
모양이
변태
일어난다.
공인
높을
잘하는
##겸
메이드
1%
91
트위치
캐치
명시
##시내
화재
젤리
##/8
향후
##oug
##우스는
높아서
딸이
##몬이
시리즈는
에피소드가
##꼴
떨어질
스핀
##로이드
모드로
참가한
##견을
휠
##거라
경력이
이브
아니게
##ans
않으니
신나게
##프에
소련의
에메
힘입어
카테
모스크바
0.4
아닌데
구간을
+4
피카
자체에
##다"라는
승차
총리
기록하고
##책이
안습한
기쁘
유니버
III
조선의
발각
##에게만
팀으로
바라는
##네,
중고
##.29
사이를
표면
좌익
미래의
학과
##공개
시카고
350
##병기
경찰이
뜬다.
가성
##훈은
묘사된다.
##ey
롤드컵
마찰
저작권
애완
비공식
도망쳐
맥스
짓는
Super
그들
결국은
난사
##액션
10회
공격력은
##았기
##니에
보드
##대기
##받게
미성
라이온즈
4번째
배경이
떠났다.
엄밀히
두개
##현과
같은데
1레벨
오메가
거야.
전반적인
뉴질
시대를
아스트
이탈리아의
꾀
실존
전라북도
##칭을
##ash
##만화
##터에
플랜
점수가
렉
그해
##상승
고증
##.30
언데드
극중
헬메
##록을
카지
밝혀진다.
##모델
많고,
여담으로,
3턴
##다르
##다보면
이그
연간
날카로운
없으나
표지
감각
두번
##풍의
메이저리그
빠르다.
친애
마피아
문제이
##플라
공이
##파괴
##했을때
단독으로
##뿔
인해서
##우치
유산
때만
없어도
##념을
약혼
상태다.
소중
진지하게
터진
주어진
##오면
앨범을
세월호
대다수의
EN
##철의
한국은
##형인
특화
뜯어
라스트
자를
자제
보낼
##군에서
높여
##IL
츄
육체
코스프레
탐색
해준
무자
##념으로
마일
##크스
##물과
뜨는
style
MG
보스를
분홍
국내에서
##당초
메이지
피지컬
심각하게
ON
발매한
아처
주인이
AKB48
방사능
아닐까
됩니다.
##쨩
여우
애쉬
정규시즌
네임드
핵시
소라
매각
내에서도
대결을
챌린지
탈취
##라고.
2001
상관없
법을
포탈
듣기
##레를
라이언
멤버들
##됨에
무거
흥미
있다며
네크로
버전의
##usic
##있어서
단발
블로
떨어졌다.
스탠드
빙의
1950년
에이지
##랄한
HP가
##www.
##린다는
##기념
##전에서도
##자이자
##보인다.
##린과
감탄
##oh
시골
공부를
똑같다.
되어야
레이스
1.6
이전까지
전통적인
승자
드래곤볼
##갤러
존재로
##3년에
EXP
바라보
이른다.
무대에
중량
##소리가
없었다고
시바
이별
##분한
상태이
팔레
불타
3경기
##지대
탄핵
랄
고립
그렇기
태양의
일찌
따라서는
##스태
##천사
있어서는
3분
일리
형편
짧게
2장
비판이
않을까
##콰
하인
때를
못했고,
활동이
투쟁
돌아간다.
생김새
지방의
알려주
비전
##한,
앞선
저글
불타는
무쌍
피닉스
2호
##탑을
광산
기미
한꺼
예수
까는
몸으로
시작하여
178
끼어
##화점
금강
뿐더러
마땅
압권
인벤
##들여
##그를
있겠
이원
Dream
##레가
반면에
옴
두는
##아머
명명
##혁명
행정구역
여기저기
루비
##천을
현재도
##쓴
전략을
게이지가
덧붙여
"오
용산
안되
##검사
조금이라도
##.13
미궁
산타
곁에
''
유언
##불가
할지
팬텀
통틀어
##년도
##스토리
##버의
12.
능력도
맡는
경연
필드에
##렸지만
##년간
##쾌한
휩쓸
##체제
##열차
안정적으로
중견
구리
TR
고개를
##족으로
금메달
프로그램이
팀에서
##보에
새누리당
모인
생각하지
학교의
##니즈
##딩을
저주를
프린세스
##츠카
인사를
##례로
"너
##흘
보자.
제공한다.
레인저
학생들의
치고는
뻥
2만
외곽
승률
##환,
파란색
의사를
토대로
##아우
##나르
##말이
펫
##론과
빠지는
ld
재학
no
구동
대피
##츠,
히로시마
##항을
저렇게
소집
##ari
##뚫
노바
취업
검은색
##정당
지원한다.
무작위
이라크
##ode
흡혈귀
시합
##문에서
미소
대수
장착한
써도
순서대로
주니
##공에
뒤의
이루고
병기
1단계
적들이
##-D
흐르는
우스
RA
존재.
##-13
##용,
스컬
행운
쓰러진
한꺼번에
단어가
멘붕
##/7
##사격
찾아내
능가
##ᆸ으로
##어에서
카스
좌석
이름이다.
5성
발생했다.
##필이면
##다와
##ᆯ이나
##맨은
되었던
받아야
확인되었다.
주인공.
##ition
지구를
섬에
현대의
ldms
##연,
##골로
아랫
##싸움
##app
##감은
하스
복사
실력은
실려
모터
##카드를
성의
우치
##작인
속도는
페이즈
라인을
Sch
든다.
##령은
주인공과
치료를
주무
갈색
##/등장
##'이란
##아트
성향을
부속
알지
없어진
##혼의
여럿
부위
구름
##MAX
2단계
나간다.
##오르
니가
##글라
화폐
##계,
덤벼
##피는
##CD
별개의
벌써
엽
가져와
##따라
마스
##두의
법칙
##ye
이빨
매그
##급은
조합이
여태
깊이
시작해서
백제
ldmsys
##"으로
##드라마
마유
다루고
본작의
##소드
총독
해보
카카오
##망의
미사일을
##구장
등재
허가
찬성
시점이
침착
스위스
##수리
1.4
해에
제라
우두
##뿐이다.
Pl
하필이면
기껏
병과
팔라
나이로
전투력
9시
통솔
Season
##햄
##00만
공격의
살인사건
묶어
##떡
##제작
대회에
대상의
IM
5초
##훈을
##ild
##티노
##보내
##개혁
남아있다.
##렇
반동
무엇보다도
##음과
지점
Vol
##아닌
종사
##ail
이천
호러
220
엔딩을
특징은
최악
##고기
중국에서
##하고도
실린
하여금
##빨리
카더라
숨을
##.2%
급속
애용
##매니아
이명박
깐
내셔널
피어
어그로
과정이
##던가,
재능을
아리아
청나라
외형
박진
아자
보상을
부대를
##좋게
역이
##+2
##!?
깨닫고
덱을
참여했다.
피규
껴
##리타
##:1로
정원
받았다고
까다로운
##풍이
그렇기에
시크릿
##++
##ᆯ리언
음료
아가씨
시외
아마추어
검토
##지거나
디스플레이
##ᆸ,
##다녀
좋다는
가능하다는
##쿠의
표현이
##히토
마틴
역사적
'신
##리언
발생할
##대신
깔끔하게
위해선
##돌아
##마르
준수
중소
##나도
Girl
극한
##켈
보라색
PV
의정부
##쿠가
소재지
후쿠오카
저렴한
유지하는
바이러스
광명
##앤제
##배로
되니
타겟
당대
대의
안돼
불만이
잎
선포
##총을
어째서인지
증가.
어딘
뻔한
##린,
앨런
##텐데
일행과
암호
그려져
태국
남자의
Or
나눈
실사
통하지
##세와
모양으로
BJ
제치고
##-M
240
드러난
나타났다.
전인
##코드
괜찮아
포도
이처럼
사용되고
##거의
공원
이진
특화된
##코스
##즈카
3개월
아마존
싸우고
1978년
달라진다.
##중.
##amp;
##연은
오케
바람의
##".
드워
피해량이
##ier
초인
않다고
쓰기도
Qu
황태
불려
비행기
부담이
찍을
머물러
슬퍼
##커로
클론
##디와
DNA
충격적인
소수의
신동
##택이
리베
김주
점과
##.E
오고
활용할
있음에도
월간
##하겠
무엇을
선을
상대로는
좋지만
종류가
어나더
179
주교
봐서
상을
##적이지
##마니아
CM
##코에게
##41
##,0
누르고
##칙이
7.
모나
##넥
서번트
원래의
##이거나
타이밍을
##안으로
아포
오른손
##녀의
##액을
되었는데
적고
##량도
띄워
이벤트로
Ed
운영을
토시
특히,
##조한
오르는
##무로
##피의
##빡
##준,
감옥에
##하였던
배울
재앙
탐정
아유
LO
갔다가
방위
혼합
##up
스노우
##항목
##열로
최우수
##무는
뛰어들
중화인민공화국
꺾고
이쯤
##린다
##전도
아니,
##이센
##69
왔
땅볼
모델링
플랫폼
TS
놀이
2분
승인
AV
##테크
공격속도
상냥
not
자책
직전까지
남동
원작과
랜덤으로
Fl
8개
미러
땡
직선
유니콘
어머니를
##열에
##등으로
인천광역시
괴수
고고
로렌
트릭
##플라이
##시키고,
##구조
##-03
저하
##able
##면은
##치고는
Night
무언가를
##루션
농담
##자동
오피
개념을
이쪽도
##해야한다.
주인공에게
##값을
다리가
김광
커스텀
손상
'S
##었어
11.
##CS
##잭
거짓말을
무료로
과장
도서관
##:45
개명
보여줄
성직
감이
문제점
순간에
##미디어
안고
포착
솟
인간과
되지만,
높지
병행
대기시간
입구
##셨
아사히
##네요.
피난
##찮은
##.8%
다케
##보컬
감동
섭취
이동할
사투
동맹을
속성을
모두에게
보여주지
##math
선수들
##빅
다닐
인쇄
내주
유저들
##닛
##년의
포장
##해볼
신을
눈앞
플레이할
##삼거리
강림
모종의
##졌는데
초과
신생
##킬을
오노
로스앤제
FM
자,
폭로
스코틀랜드
##콕
##뉴얼
되돌아
##할만한
##~9
위험이
않는다
1974년
차지한
아버지인
퀵
해소
흡사
출신이다.
작품에서
섹
재배
EV
이소
일정한
##됨.
섞어
전당
Col
막강한
영원한
##아라
그렇다
캐시
릭
##오게
##관계가
녀석이
본래는
##글을
아군을
살게
들어가게
준결승
햄
단백
최정
1972년
##.7%
설립된
미정
페어
고성능
여론이
안개
부탁을
##sc
##드에게
거리에
전력이
필립
처음이
사용가능
##가게
##사들이
제니
친척
발사한다.
남한
그렇다면
현상을
근처의
이야기도
"우
웬만
##갑이
보험
##iel
가루
펀치
리볼
포로
방식이다.
에도
벗겨
학생이
OG
##위와
악화
##ject
적힌
호흐
되돌리
틀린
##,#ffffff
개가
않습니다.
##천군
차이나
##론,
##우에게
제목으로
##간을
우린
할로윈
자율
아픈
##루이
모아서
주저
멤버들은
##뉴스
##더니,
##준은
영상에서
참여하였다.
강아
아니며,
맵이
본능
수급
표절
공간이
시험을
##그가
사라지는
공격적인
##쓰는
타이탄
꿈꾸
##ron
쏘아
근처에서
##종으로
했다가
평소에는
##-R
선박
핀란드
무소속
##EL
##스페
올해
##유는
##건,
##견이
##었기에
##때까지
##-04
두루
##배의
아나운서
##대고
##품에
꽃이
신비
사이로
##실점을
벨라
주제로
##잡을
##.....
그려진
울트라맨
면허
아울
화살을
여자를
3가지
마운
장본
##아니
##매가
작아
메트로
겪은
이펙
못지
남양
NO
##eth
##키스
얼어
기간이
사용을
Pre
##쪽에서
운행하는
##수에게
##만큼의
##우스를
중국어
높이는
굶
이동하는
포함하여
메카닉
몸통
갖다
재발
정도만
##등록
운명
##생물
측면에서
중부
##하자는
##레의
위해,
많다는
그리하여
인간은
##텍스
다큐멘
##시민
##오피스
##주인공
보이며,
책이
벌어졌다.
아수
'무
타이거즈
경부
악명
30초
밀어붙
##화:
##팀으로
버릴
불참
미소녀
##일과
때문인
La
카게
'대
이때부터
이타
일본판
##채를
레이싱
줄여서
아슬
##리스타
오게
##ody
고대의
관리를
발명
공식적인
생명의
람
즐기
30년
##시까지
##족과
작품.
그란
한양
1세대
믿지
##도전
그도
조이
##베리아
##하신
##릭스
상담
소환할
##앨범
동북
대시
##희를
##심에
들키
되었지만
##전부터
몰고
인조
드립을
인피니티
전대
민폐
##층에
남학생
데이트
토크
위어
톨
##환경
밀고
하므로
보자
확립
##층을
박아
굽
불어
넉백
##림의
##행성
중대
비판하는
반대하는
종점행
##률로
입힌다.
항공기
인류의
일본군
신한
하나하나
의회
#FF
격퇴
치뤄
초고
##험은
Op
심해
가족을
##하기까지
빙결
마력을
##밴드
##인드
성공을
대해선
##교도
고려하면
프랭크
창을
##:15
##중을
1975년
GSL
페르시아
##전에는
바람.
무언가
워리어
182
돌아올
이후부터
것에서
중심이
와타나베
아메리칸
진행할
탓인지
##감으로
##오자
3단계
##학년도
##eah
불멸
##멍이
팡
피스
후미
##Lv
모두의
##하다며
원로
등장은
테오
145
##==
주장한다.
EZ
공정
절벽
##료가
상성
스피릿
##덴의
시작부터
##질에
중동
##론에
툭
플루
2017-12
##DP
듣지
유닛은
초중반
미국에
평소에
##DX
항해
찰스
선수들은
아니다
창의
유튜버
##리거나
걸즈
뺘
실험을
##"라며
유메
##적에
캐릭터들의
어드밴
##저래
능력치는
기숙사
##로서,
기점행
##편.
181
눈동
주변을
##압을
등장해
발견하고
주입
##전선
##패스
이름만
##AB
봇
말해서
같다
tv
의원이
##각성
적용되는
##reat
객관
크리스티
슈트
면도
철저하게
##뭐
담고
##요한
미만
대부분이다.
마우스
##포와
감추
덕분
양반
##꿉
가사를
##니카
하나에
피오
터지는
##.9%
카운트
예전에는
"내가
지위를
##'라
낯
##가인
##집에서
IC
##FL
강호
20분
할때
##어버린다.
대기업
##녀를
개수
모의
필라
검열
##재,
동성애
##be
112
모드가
PK
마쓰
##는,
챠
사직
하프
없기에
업그레이드를
##vel
쓰이지
종로
표정이
2턴
대상에게
늘어났다.
몇번
타운
혼혈
착륙
관계없이
받으면서
안산
강렬한
표정
##거가
담겨
##aster
탁월
트럼프
##풀이
##히기
조상
##선수권
밀리언
##ᆻ다고.
웃음
가령
과시
상황에서도
받았던
서울시
열렸다.
장미
필사
게르
관광객
신지
분신
트레이너
4명
버섯
##그의
##타워
파편
쓰이고
필요할
제10
비교해
알렉스
세르비아
마물
훼손
시공
##브는
길에
##벳
장타
강민
공포의
원주
힘은
1970년대
변한다.
담당하고
지식을
불구하고,
##서스
결과,
우정
전작과
##mar
공감
소원을
원래대로
고아
릴
이윤
1976년
##내의
파동
순천
입에
수술을
##소수
##왕과
유동
##버스가
##지사
##다!!
빅토리아
트랜스포
##.6%
등장하며
##이크
나기
예약
이름과
둘이서
##쿠스
초기화
평택
브라우
부실
##두가
쳐서
터트
사정이
엔터테인먼트
##inal
엠블
즈음
명은
리처드
##마도
독보
문제도
전담
##시킵니다.
1971년
60%
##딜러
것들을
문제다.
수상했다.
##장에게
##무스
##간이
작가는
##주자
김병
청춘
냉장
이도
미국으로
##o,
펭
##ult
만나고
80%
오류가
입사
소속된
홋카이도
리스트
회사가
희망을
힘에
CR
##만도
옐로
##-T
일어
폴리
##GA
상대하기
타이틀곡
출산
한국과
will
##맥스
이름인
155
진출에
떡밥이
가자
재산
궁극기
간지
터보
열대
Cr
시간대
팬이
발사하는
시작했고,
5천
소꿉
##모스
경성
##함,
경향
블리
검증
##팍
선의
집필
구형
##측의
##있으며
입원
각자의
##게는
##련을
완벽히
##가에서
방송이
전성기
##락의
##스퍼
성과
정도에
에디션
에드워드
##도라
원딜
##000000
간파
것이며
3rd
##들한테
얻지
선택을
##62
카사
능력과
##쓰고
하였고,
##소.
걸친
잡힌
##net
##해.
무용
##세계의
급행
상대하는
##두에
오스트레일리아
얄
총선거
아,
##토에게
아니며
가브
있겠지만
읽고
##노,
빌딩
늘어난다.
##리는데
Gu
군수
##권도
##런트
병원에
##사냥
버스를
##물,
활약으로
신경쓰지
비밀을
탐지
일반인
##레오
건립
lv.1
칠레
수준은
래퍼
믹스
근거로
레일
경제적
뚱
스파르
##의회
눈으로
그보다
모션이
츠키
날린다.
##슴
시킨
##몬스터
1963년
와중에도
이쿠
엇
리어
XX
1.0
##되지만,
##레븐
독립운동
"지
##있다고
1.8
계단
##3의
원인은
컴백
영화에
국내에서는
##아르
이용객
AL
##갸
제9
##DS
전임
Fr
##웠다.
망명
##800
##험의
도는
사회의
출동
문제점이
설정은
165
##으려면
이래저래
과격
추가바람.
"저
일어나지
요금
벗어난
의도적으로
##o.
2개를
무방하다.
정신적
##기자
늪
맺고
6위
인챈
동아리
연예인
##진흥
1점
경우.
구울
##0년에
##옷
샤오
##게,
들어보면
조치를
승무원
사망.
됐
##겔
##그래도
임명되었다.
##노선
정글러
이리저리
고로
문장
사망하였다.
도요
김윤
홍진
177
떨어지고
그리는
프로토스
츤
##칭으로
##oul
디자이너
##마리를
경기력을
갱신
크로아
폴아웃
시즌에는
IP
추가된다.
"S
작고
성격으로
주머니
##직에
후술할
글래
##우로
연락을
지루
벤치
맛을
##와,
개업
119
뱃
하긴
쉴
지을
##연속
사랑에
##ᆺ는
하면,
삼고
210
##여야
향하는
고집
호응
나들
요격
목소리로
대구광역시
도대체
노란색
한계를
원수
협상
##패턴
##ould
빠져나가
전제
맵을
눈의
##운동장
선정되었다.
상대방을
보강
공격력과
##오면서
대학생
얌
##미즈
배역
종영
집계
민병
되어버린
##엔터테인
거꾸
차체
보여주면서
##원인
아쉽게도
##뱀
보너스를
안토니
##.75
##티에
##ᆷ에도
##슨,
후유
##비용
것이나
선호하는
like
8.
5차
이세계
생명을
빌보드
한강
##.D
첼시
히라
##데르
안드레
꿈이
##겠습니다.
없었을
채보
##으신
너도
##활약
설명하는
포지션을
해당되는
##자리를
게시판
2호선
다시는
##alk
청와대
##그로
##목에
박스오피스
##"은
보스로
방에서
나라가
##ᆯ러스
달성했다.
노부나가
한나라당
##지지만
용도
4성
열차가
울프
##이든
##말에
여파로
권한을
명으로
상대방이
철갑
'기
ATK
싶어서
만큼,
전수
의학
하늘의
##되었다
만나서
이이
##례가
뾰
공중에
나란히
##진화
이광
일조
##모와
토미
135
주인공으로
##C.
##reak
보낸다.
마케팅
사악한
따위
##청이
##하와
전두
조명
짝사랑
성격의
진출을
군대가
보았다.
나비
Mag
우유
챔프
##극장
이끌었다.
기술이다.
스바
CL
앞으로도
2%
##.3%
안전하게
브론
충청북도
##BL
##기병
북서
있어서,
NT
맞추는
끝.
##이라고.
어긋
수신
테츠
찾아서
친구인
들어,
##/L
제약
한국판
##출연
##졌다
모음
프랑크
제왕
-10
비중을
내지는
MM
##미아
하수인
일각
##거는
쪽을
'지
여기까지
3초
##기:
##군요.
노는
한대
##해줘
디렉
소환한다.
마을에서
이외에는
##중심
학술
그렇듯
스텝
시범
##본이
T1
달콤
캐릭터인
요미
##랑은
##모션
3.0
알기
방법이다.
TOP
많았던
청구
하느
##시나
주자
##작에
딜이
루머
케리
GK
##검은
타치
가면을
흉내
당선되었다.
##법과
사전에
두뇌
느끼게
style="
하였으나
2세트
달러를
성폭
Black
물의
##ats
##프란시스코
직행
마에
선봉
단기
Is
1998
인생을
유한
유연
so
섬광
이행
샘플
중구
오퍼
추리
고가
주황
##나라는
조립
입장이
엉뚱
##애니
##뭉
체코
MB
맡았던
##05
모른다는
출신인
오죽하면
지내는
식당
실패로
남의
여유가
부분도
통하는
마스코
수업을
먹이
범위를
##무지
1977년
타입의
##ME
박쥐
가히
iOS
##미래
##43
##서버
신학
##코치
탈환
"내
간섭
조종하는
Let
하루카
##~200
상단
이어졌다.
행복한
##,5
사람들과
실패하고
잔류
모빌
동서
##랩
진행한다.
다비
보이기
남자는
중앙에
아레
블라디
논란을
디버프
해군의
자체적으로
능력치를
가깝게
올라오는
말고도
##무쌍
1969년
여긴
단점은
노말
선동
무늬
포터
##파라
후보에
콤비
목이
1권
정석
우주의
영웅의
##해버렸다.
사나
##/11
고사
않았다면
##필살
짠
##해내
tr
활동했다.
라이트닝
앞세
배리어
##그마
##혁이
공대
토마스
언급을
뽑기
쳐다
글자
##주의적
기소
재미를
##리코
화여
스트라이커
스트로
12월에
판매하는
하나같이
에레
무제한
##처가
임기
103
통화
##ull
쫓아내
나오지만
나서는
후임
-4
역은
CE
미치는
다뤄
얼마든지
Time
고스
##있다
먹지
##전용
김두
1200
유사하다.
스타일의
##사이어
이상,
비정상
뛰고
몰아넣
디바
방송국
짧아
##주의의
##파일
능력에
텍사스
스네이
입는다.
천하
성사
지나친
제발
개발된
인정하고
간접적으로
시기가
후쿠시마
이의
#ffffff,#ffffff
돌아간
초등학생
저승
뤼
##이었으며
키우는
펌프
##활이
주연으로
세계가
타카하시
도트
보이게
나고야
거점
위치한다.
샷건
##-G
상위권
어벤져
자리가
싸운다.
구체적인
않았지만,
발표된
아쿠아
나열
재수
무시할
확신
협회
Fate/
클라이
노래는
내며
거꾸로
슛
결의
사용하며
투기
예쁜
오세
세컨
재단
##ECT
##우드
정황상
##적도
그랬
하츠네
##!wiki
지우
1968년
##종,
공교
레슬링
##오니
부분의
상술한
한층
권리를
##해방
밤의
유아
원작에서
구로
##/등장인물
일산
띄는
짓고
성장을
신하
아이템은
##술이
극초
2017-11
페어리
협동
조던
교향
소통
돌리는
스펠
차원의
강동
EXT
##편에서는
덱에
차량의
노무현
##제에서
원형
버프가
파츠
##순환
##해선
쪽의
발목을
##업에
이용하면
조선민주주의
##수용
##맨과
##orts
자신들을
##있는데
다니엘
내배
병역
유망주
않던
소스
##리아가
##네와
##가면서
의혹이
##증으로
##하였지만
+20
프로이센
기지를
호크
휴스턴
결승전에서
현실의
##검이
과언이
추후
쿠르
##ib
##주의자
감금
##63
학생들을
자기를
수비를
득점을
수천
우즈
제국이
제작사
여러분
have
##r.
가라앉
##"에서
묻는다.
클레이
치열한
진행했다.
단수
vs.
요코하마
샌프란시스코
정리한
##uc
화해
붉
비추
츠쿠
##괘
주의하자.
존재할
괴로워
자유를
답게
승려
지시를
##초부터
먹었다.
시트
생태
빨간색
##도어
대회를
발급
##넉
스톡
시작하면서
웨이브
대쉬
추모
역할은
작중에서는
##야?
로스트
토키
연구소
##범을
대량으로
여부를
굵
재임
##텔레
##경과
만들어내
무너뜨
##구나.
결정을
유저의
경찰에
쓰러져
불과하다.
찬양
##물이다.
EU
[math
##72
밝혀지지
인정하지
내부에서
취재
동력
##했다고.
##청의
알아차
기름
정성
불안한
스칼
##파인
말레이시아
프로야구
모델을
수치를
##안,
관계에
미하
플래티
쓰리
꿰뚫
##오르는
맞물
알려준다.
기를
생각에
##업체
3라운드
말하지
소득
##롭게도
할아버지
SU
##속도를
승리한
수록되었다.
도약
영화에서
조직의
시설이
못했고
따서
##불명
돌아오는
야마모토
미코
##상태가
무슬
담아
움직임이
##,000,000
출신지
걸릴
WH
입히는
독자적인
카렌
명성을
메세
부지
받았고,
디자인은
##BM
##ings
베지
멸종
갸
##ood
해변
세우고
대학원
이방
대외
##바위
##생.
관리하는
들어가기
'유
가이드
##류,
##레이트
사과를
3월에
날아가는
근로
##룡이
강서
##머리를
법적
바랍니다.
마저
경기의
##돌로
효과도
만나면
http://
김선
##쫓
##덮
상승한다.
##in'
상황이라
보러
얼티밋
##런스
친애도
텐데
바쿠
포텐
무지개
트로피
이벤트에서
GM
빈트
##공주
운명을
복선
##mmer
견디
석유
##대결
##픽을
콤보를
모험가
##me
배터
행동에
읍
보르
소금
주위에
1999
갈리는
소속되어
배차간격
구상
##ᆯ라의
포인트가
엉망
6시
휘하
싸이
스플래
Gaming
국어
몰아내
아르헨티
그림이
박탈
루크
안동
##호에게
카피
편으로
구하는
재등장
앗
##각의
워커
인물들이
무시하는
1/3
##냐,
1차전
나에게
정밀
에서는
무죄
후인
가족이
경험치를
버전을
##!'
친구를
인정하는
운수사
##까.
걸리면
역할이
제품을
읽을
2021년
com
코로나
##ster
2시간
Ser
죽이지
제너
##국어
오페라
##안과
##티콘
올려주는
##거지
말고는
곳도
노골
대포
로우
##꿀
해줄
##잡고
요즘은
날에
닮았다.
##체이다.
인원이
등장하여
##황을
공짜
왔다가
공격,
국토
발견된다.
##했으면
전투는
워프
평균자책
아타
0.8
말려
움직이지
넘어갈
Your
##어지는
##죠?
하도
##.4%
##닷
웰
시절이
가능하지만
3%
노인
수비력
코파
버스트
아이의
##운동을
목포
코이
##법,
그나마도
연습을
리자
##란은
팬들을
##하였는데
##폴리스
그만두
만난다.
상시
명단
가오
플레이버
야구장
##해지기
##모어
##쪽은
기호
스카우트
언급되는
오비
명나라
않자
만루
##류로
도모
시선을
평창
플레이하는
변하지
##-30
102
바람이
뒤이어
##썬
패자
별명은
과도한
유미
아내가
시어
슬픈
찾으러
주워
웃음을
보루
트윈스
환생
know
그룹의
##군주
천문
흐름을
헝가리
삭제되었다.
셋째
밥을
위치는
서방
낭비
잘생
##ICE
##공,
대체적으로
##호쿠
##대수
##to
여자친구
큐어
##소송
정보는
길이가
버전.
##하우스
##ple
운수사명
프로덕
##라면,
RO
이단
##여,
10월에
바닥을
떨어져서
붙어있는
죽음에
오렌지
패치를
##효과를
Min
줄고
##슨을
너와
학사
적극적인
차로
안보
힌
퇴치
서바이벌
합작
라이센
이룬다.
##해버린
일본을
번이나
캡슈
바이킹
##장군
15년
민중
##샷을
"나는
##카게
퍼펙트
무궁
6번
##~15
##랑을
방어를
인재
유닛.
##해에
사태를
주파
기능은
쿨다운
해병대
탭
장치를
있어.
팬들도
못한다는
LTE
낳은
캐릭터이다.
##비시
왕조의
진행을
재료를
로고
결과로
저스티
##치킨
159
수장
클리셰
10시
마법으로
아그
상자를
방패를
##원들은
문서의
##신문
앞뒤
##들에겐
##뿜
블랙홀
##YP
호날
계획은
부대가
동년
날린
2차전
비스트
탱킹
세상의
번갈
레이디
모드에서
미지
해운
시리즈와
##TA
마르크
타키
손해를
유전자
시달
##든다.
맡는다.
EZ2
일원으로
광고를
안전한
박종
얼라이언
스쿠
##더라.
살펴보면
##투아
들어서는
나타내
연달아
보이지만,
일주일
당신을
주를
##어택
영등
문서에
##시켜야
자세를
##가족
##3%
내버려
어디에
연관이
지구에
밖의
전해진다.
##하길
끝을
유저는
##61
레온
돌아온다.
##:2로
무기에
중반에
스콜
연동
히사
영혼이
북동
영상.
피하는
머릿
2세대
##진한
한반도
가나
돼서
##리드
최전
OF
불평
##yn
교복
공손
동명의
레이븐
##천이
##타르
슬슬
갈등을
폐허
빈번
세계적으로
##불명의
오른팔
##팩트
##보라
##들리
##패가
바람을
고마워
Of
지극
##ᆺ갈리
동정
##탕을
편리
##봉을
뛰는
광복
탄압
전개가
##똑
성장한
2017-10
지킬
##나가와
하치
비참
출석
뽑은
##요가
미루어
시오
카이사
대니
자유한국당
##슨과
응급
일베
##냉
##춤
제작진이
0.00
##요를
본다면
개최된
자작
율리
무색
모욕
골프
의미의
플라즈마
이글스
리부
학문
소비에
농민
망설이
흐르
##한지
체력과
##ange
불가사의
사각
정치인
적용되지
5인
##:05
하사
컴뱃
깎아
##판매
상당수
시스템의
##렸는데
동아시아
##정지
파일을
##샵
멀리서
A4D
힌트
섬멸
오바
오더
##귀를
마하
재위
장난감
유지할
##가루
80년대
##었으니
대명
배수
우세
##ict
섞인
거느
##ions
4000
사슬
Play
기관단
뒤에도
날개를
##스테이션
전염
##멋
전과
##았지만,
연구가
사용하게
다행히도
겪고
마지막까지
사치
방송사
수록되어
##.I
편을
세일러
벚
호감을
폭스
9.
##자다.
##금지
##문화재
몰아붙
450
어서
##.T
태도
왕위
증가하는
##움에
##스텔
호랑이
가사가
목숨
다룰
향한다.
갈등이
##성군
잘만
예정이
##술의
##-21
1967년
기다리는
호흡
오브젝트
스페인의
##기획
추정.
정해져
##분류
가로막
##구니
##되었습니다.
다다
##티오
섹시
카리
마찬가지다.
곡.
성씨
드래곤의
Car
일족
##하다보니
##바스
당시엔
##주자.
##할지
##'re
그마저도
불릴
##버스를
##대구
고발
강탈
##장난
성배
언급했다.
안된
##국제공항
쓰였다.
##지던
##란,
맵의
초콜릿
씨가
##6%
합법
##빈이
몸무
##몸
선조
운반
테레
out
##규가
없지
하는게
여캐
##하기에는
##재료
루키
한달
벡터
진지한
one
##씀
##형.
##ann
##없어
##륨
어려움
##삼아
##룽
빨아
##니스트
선물을
무작정
활동한
이르렀다.
로열
내용으로
RE
##빗
##위치
효율을
##첼
수준을
4기
심히
수시로
적재
앨범이
아이들
3승
바론
##마나
크지
전장에
##마에게
충격과
이익을
흑막
박명
시점에
별이
먹여
사임
행동은
펑크
바르셀로나
절단
개인적인
##ᆸ지
##조작
하나로,
##당시
맞았다.
분야에서
꼴찌
프로레슬링
하후
##교는
##파티
클리어하면
##백으로
내용에
##테의
##배차
##취를
##적이었다.
느낌
소환하는
##돌프
BGA
도배
쿠라
장비가
중학생
리즈
중이던
혈통
마가
미르
##공과
Mi
질주
의아
십자가
시상식
타기
##검의
트롤
솔직히
##윽
##희와
조선시대
찾지
##코로
따뜻한
검정
##~30
유고
사에
##레는
패스를
##놀이
역할로
명성
##됐
싱가포르
서울대
ALL
유머
##연대
군단의
만났을
비로소
##살의
시스템은
숙청
리그의
붙어서
출연하였다.
김성근
앨범의
길이는
'여
109
약물
브레이브
자고
떠나는
##가수
실로
121
친절
3명이
보스의
김천
대표로
##lass
변하는
##블을
"나
깨고
페르소나
내보내
트레이닝
ME
##든가,
소생
스토리는
##슈타인
##CH
김도
##옌
##퍼는
##타케
##찬을
##그리고
미끼
길다.
바다에
##특별자치
##카나
음력
광범위
천주교
##렸다
바꾸고
패전
드릴
어느날
어렵다는
컸다.
임진왜
##후를
##코프
8시
##요의
문헌
밑으로
항구
4.5
도쿄도
발차
딥
축구선수
8년
행보를
늦은
장남
문화재
공격시
##기면
##다!"
어찌보면
국가를
단점을
주며
행방
발표하였다.
민주화
프레데
해가
##agon
##...?
키보
중화민국
덴마크
양도
##었습니다.
##HT
초래
리버스
##주에서
뺀
168
시대가
무신
들러
was
여기고
돌을
장제
째
옆으로
HE
부사
뛰어나다.
쇄
박혀
써먹을
방심
##ica
##드리히
##:55
감행
어시스트
차에
##차원
##조정
게임에서는
속성의
##다드
보이는데,
요청을
문화를
엔진이
##che
남서
뮤지션
##ACK
드레이
##야한다.
##79
헤라
레스토
사이토
윈드
##볼넷
1948년
리믹스
구한
##몬을
일꾼
##토미
시흥
어딘가
[[htt
대법
만들어져
길로
상인
발표되었다.
##LS
동료가
거칠
유탄
달라진
뉴질랜드
바티
넘어간
2가
##마력
미묘한
##-KR0
수확
역사에
둬
안철
그간
개발을
4월에
##점과
##등에
박영
118
이번에
삼촌
##칸센
부대의
리바
0.6
##철은
##빌딩
모듈
포매
겟
##리아는
-5
별을
썸
지오
마셔
수단이
기준으로는
바라보는
1위로
##리히
##수준
계절
3명의
야만
측에서는
공교롭게도
##담은
이녀
정준
그들에게
상대식
나르
최소한의
##기아
응시
연설
콘셉
마족
##판에선
장로
##널드
주의를
불렸다.
죠죠
1995
##.21
알아채
화면에
시네마
##귤러
것이,
필드의
##erf
##였다가
레벨업
발견되었다.
##커녕
변이
깨어난
주민들이
프랜차
멀쩡한
번씩
호감도
개발이
성향의
세로
##운수
확률은
보자면
않았으나
등장하며,
##못해
##댓
오시
초기의
주력으로
##웹
##바이트
##류에
등지에서
##다라는
전생
스타일을
어때
##카타
##G의
있는게
나서서
##아슬
##0년대에
본부
9월에
입었다.
등장하고
소나
타르
맞출
"자
##원에게
초록색
최종보
주에
크기의
물고기
##심과
누워
막판
+15
시킬
현장에서
싸움에
보여주기도
진출했다.
##탱크
것은,
7개
추출
우려가
##제르
스내
##습니
본체
##ᆸ다는
##정도의
미소를
##스나
캄
줄어들었다.
적합한
##곰
11월에
##포드
제도를
남자를
결제
구매할
씻
단장
빠지게
봉사
##한정
터라
후타
매니아
합친
##또한
시도를
폼이
##디,
사람에
꼽힌다.
##서에서
내기
##eF
성경
알수
Type
이전에도
판매량
한해
경전
feat
##마리가
드러나는
노르웨이
볼드
앞을
줍니다.
오디오
아니냐
친다.
아래에서
지정된
순찰
테일러
##화도
중에선
붙었다.
한국이
##학은
##면과
##코인
풍부한
##프랑
##적이라
152
##플러스
##메다
날씨
유격수
아이스크
브라더
다름아닌
닐
지원이
특이하게
걸맞게
##툭
##노리
끌어내
도깨비
##모,
GPU
시즌1
구조가
뿐이었다.
잡몹
로리
1세트
장사
너클
각인
##이었기에
경의
등장하는데,
인문
1944년
사정을
##:35
##de
##학기
NEW
진행이
연결하는
서기
##음,
화면이
##금융
로저
식사를
쳤다.
스텔스
여겨진다.
출제
Max
##학이
복장
##불능
바리
이카
7시
예방
1962년
제품이
##노이
후루
##클린
##gr
유즈
오키나와
##시안
왕을
임금
깔려
비춰
만화를
비용을
일으켰다.
메시지를
##치오
고종
##201
맞추면
강하고
문의
SA
##고에서
워터
pro
가격을
##크에
##리아를
숨기고
놀랍게도
갑옷을
톡
##ᆯ리스
사키
출신.
무선
삶의
적에
처리하는
"여
본진
표정으로
루마니아
미국,
##일으
127
##있기
펼쳤다.
낮고
제11
현실을
사원
도감
금요일
걸려서
여수
##려던
이하로
페르난
##BB
TP
##억을
올린다.
존재감이
가슴에
##볼트
반쯤
티저
영토를
늘어나는
1로
음향
하러
전선
la
자원이
혼인
##벽이
적용된
##하느라
준공
돌아갔다.
##일때
##orea
##곳이
난민
##닐
병살
신흥
사진은
창업
모양새
##바와
최상급
명장
##광이
나들목
안습.
위력은
70%
##지니어
오쿠
딸인
중에도
입성
영상은
장인
##찮게
##2가
나왔는데
대신해
2패
아슬아슬
타이완
부장
베어스
##아래
목욕
쿤
##더링
패키지
##바,
##살인
휘둘러
추가되어
##놓았다.
111
2019.
동생인
고우
##세요!
수중
카에
미식
##했다!
##턱
비아
많다고
##란한
순위가
없어졌다.
오늘은
실업
소프트웨
위협을
107
##달의
##eep
전속
에너지가
괴롭히
트랜스
10000
봐서는
말리
시즌의
순간이동
미라이
##신도시
애틀
약하다.
##해버린다.
원내
업데이트가
자르
샹
하려는
##포에
스트리밍
전지
##그라운드
현금
인질로
NHK
세력의
##대륙
고추
11시
호랑
##요리
실상은
난무
서태
104
직통
계획에
데스티
캐릭터에
KBS2
##니혼
소노
신칸센
에밀리
둠
해독
원곡
##커와
오늘도
가득한
내밀
123
##oot
필두로
점심
##시키면서
##치도
토지
영혼의
다름없
휩싸
셜
##폴리
배구
양대
##차,
##합니다
수준에
연결된
##려야
##글로
##[ruby][ruby]
##격인
##역까지
강점
넉넉
김연
체이
신곡
드래곤을
##칼리
불리기도
거주하는
이준
##AND
스마일
재빨리
에메랄
##사구
부채
그녀와
트랜스포머
대미지는
'모
##코미
'정
##백의
##86
##px;
##시엔
시청자들이
재능이
안하고
하이브리
더구나
사용하던
##궁의
구성이
활용한
추구하는
혼란을
충남
프로그래밍
1/2
미녀
High
때리는
##IO
안경을
1월에
올바른
특공
315
##캐슬
자격을
서지
퓨처
CO
인물을
맞추기
##신인
베이비
지지하는
##주택
활용하는
프라임
##발전
##있지만
MV
달래
극대화
##창에
144
해태
성이
크리스토
##사무소
이후엔
아들로
구해주
원인을
##높은
현존
##냐면
연구에
몹시
##롭다.
스크로
공격수
면을
마모
##축을
상점에서
애국
3만
마지막에는
##~201
##적이며
##오던
##랑의
##:25
멤버들과
오해를
히로시
한신
차용
귀가
어울리지
##느냐에
파티를
장소에
##IK
##무리
3집
8월에
다이스케
있다면,
'부
분쇄
##하려던
##여도
보이스
스기
공존
파손
도시에
옵션을
##편은
##nder
##비아의
자칫
야마다
적과
쿵
##라시
따져
##발에
유우키
1964년
##프트를
24시간
##tern
정한
본래의
셰이
##자들도
맥주
부활한
주기도
'전
나오며,
차지한다.
내린다.
생각했다.
빼앗아
저글링
함수
시설을
##어버리고
전광
##강점
##형제
있을지
최순
##듯하다.
이쪽이
상쇄
두었다.
나이를
초반의
표현한
##상이다.
영문명
사육
공산당
측이
불리며
##트.
건물은
절대적인
##ough
##쏘
풀린
넣으면
급히
맹세
1960년대
났다.
0%
그곳에
딘
푼
일하고
말씀
예의
3장
##ress
##효율
수비수
당연하지만
칭호
##강이
##하더니
더러운
휴게
Gen
일련의
1996
이펙트
##오.
##중,
정신나간
방으로
아담
되었다
##나리
##카에게
못하였다.
##anna
7월에
회사를
편지
스토리의
5월에
얼어붙
LED
##류와
##결정
##폴로
카탈
밤이
##혜를
쐐
이들에게
##자원
Am
BM
하우
상속
의미에서
Lv.1
끝내기
##불을
자유로운
게이지를
선거에
스스로의
ar
징크
##베르트
부드러운
MSL
##후,
막판에
##레드
열린다.
케이스.
부재
무도
넣었다.
모양을
전차를
발간
어려움을
가도
##송이
##든,
EC
##km2
동일.
##A1
##철,
게스트로
생각해서
알을
맹독
사랑이
차이점이
알렉산더
##했다.#
뿐이지
줄어든다.
높기
패스트
열쇠를
볶
##멸을
1997
공격과
중재
##테스트
강화된
가능하고
박살내
해줘
신비한
뜻.
중급
##혼을
AF
##**
파격
##배틀
##ott
고인
15분
먹기
파괴하는
7번
Light
수인
오의
##토록
##그는
장소를
의하면,
극단적으로
의문의
교수가
1966년
자부
10위
##트에게
'에
원자력
공학
아이폰
##욱이
붙이는
유닛으로
##커,
까마귀
음악이
##ring
단련
콜롬
지내고
##리라는
IIDX
##지에게
유니버스
##소모
교역
분대
버르
작품인
도쿠가와
5개의
##건담
##주쿠
단단한
##나요?
미쓰
다음,
필요도
조각을
뚝
##부턴
##ᆯ링이
1946년
GTA
막지
##높
인터네
궁합이
##74
덴마
발전을
##ᅨᆫ
잃게
카메라를
플러스
##엉
놓아
'우
않으나
##-25
부스트
다름없는
FA컵
꿇
머리카락
인연이
물건이
##러의
모으는
아키라
원래부터
바디
스카웃
나카무라
##지방선거
부동산
4연
추궁
##ᆯ리가
아무렇
웨일
처리할
득표수
여고
마요
전체에게
고래
##작가
치바
직장
안될
강습
##그대로
이때의
한모
##분해
##칸의
레코드
복장을
군림
줄을
##픽이
공격형
헬리코
신은
걸어서
찌르
측근
##방,
키미
군용
##크루
횟수가
마티
급하게
LE
##반은
사용해야
오클
##맨,
자란
팔이
아이템으로
한국을
포함된다.
응답
뜻의
알렉산드
##스테이
##부문
##팝
훈훈
가던
##idth
4의
바바
미성년
발현
불편한
값을
##+0900
탄탄
##/A
권위
우루과
##we
통행
냉동
위험에
버려진
미치지
스윙
명칭으로
활약이
##결과
##-JP0
이례
재료로
##받기
5명
즉각
##빈의
이렇다
편이고
앨리스
놀란
##icro
TO
##발사
##였다면
하행
상태에서는
아이템.
상행
##베이스
##less
스터
휴대폰
##했음을
예상된다.
세리에
잡았다.
자이언트
M4
##군사
현직
타다
기준이
en
##판,
탄환
포드
승리.
##기동
시장에
본의
##라고는
극우
캐릭터와
##터에서
맞추어
시리즈에서는
것인
##방식
사소한
스탯이
기록하는
32강
##사우루스
함재
밀레
관리가
면적은
친구들과
로마의
조항
에볼
취한
##청년
도심
성실
들어있는
##하자고
참고로,
노선이다.
다닌
더욱이
칭호를
필라델
넣는다.
국내에
바리에이
##ERS
택시
호출
Par
##ᆸ다고
눈빛
크기는
##플래
형식의
미친듯이
oh
중도
명예의
쓸모가
##천,
변동
3위를
수성
##바ᄁ
##무,
동구
데뷔한
##수아
정해
##때부터
체력은
가마
가능하기
주어지는
Heart
이어나
짙은
이끈
엘리자베스
Blo
##웬
##대왕
모자를
##교로
관해
엄폐
##예를
비롯하여
##미션
기록하면서
##캡
등장으로
FPS
##스터를
90%
발이
퇴역
연세
##참모
##듣
모르겠지만
##컵을
Co
##/초
바뀌면서
##G를
##모니
상위호환
'비
##돼서
테크니
비치
##i,
후지와
##이랑
##지휘
##생산
스타워즈
##ANI
##데스리가
강력하다.
유벤
##주면서
무식
##체,
가면서
적립
##-1로
##작용
뒤인
불안정
EBS
실책
162
한정.
흑역
롤링
프롤로그
##홉
BO
모드의
바그
'한
해고
없었다는
##/S
##~12
##ᆽ은
Red
공모
진행한
##돈을
2명이
##레티
결과에
가위
미미
소녀의
##라라
흑마법
스타일이
꿈의
몬스터는
삼는
유저들에게
운행한다.
드론
'제
##수수
##팀인
##만으로는
##wh
'인
말까지
혼다
158
몸의
광경을
후반기
레인보우
불만
'시
스킬이다.
##원들의
원년
돕는
7위
느껴지는
같아서
묘지로
J.
ES
졸업한
만만치
너에게
##ics
무섭
소우
구르
제목이
도전과
외계인
에버
안성
##복은
자비
##님,
바닷
플라스틱
못하고,
##펑
활동에
컴퍼
##까요?
내려와
3세트
조합으로
보잉
##가면
첫날
잠을
##보자
이루어지지
##ater
에이전
뉘앙
시장에서
돈으로
정부에
의심을
면에서는
심야
토론토
끌어들
시뮬레이션
##니버스
방언
하자,
자신만의
15세
엄마가
IV
일일이
반성
해당된다.
아르메
##라에몽
##하니까
후면
##독립
쥐고
##밑
##곳에서
모던
프로토타입
가난한
##요?"
##린다고
##지옥
불러일으
활발한
1994
호감
##령에
##림과
##밥을
106
보이는데
설명할
무대에서
리본
Ste
+10%
따왔다.
아울러
##쌀
민간인
한가지
##함으로서
졸업하고
##말의
부모가
MK
##홈런을
##ᆷ이라
호기
쿠루
연출을
##하곤
시야를
바쳐
기대가
있었다
신전
역사는
에필로그
은퇴를
time
##후는
##양은
##les
루트를
##표는
##노래
쓰일
자신보다
##혐
##렌의
유니폼
미들
비단
##창의
다르지만
스위치
기관단총
내뿜
주시
양아
빠뜨
1965년
##해주면
스태프
##회관
어스
##-L
일본으로
##토시
조건은
1.1
##방법
##칭이
아카이
1961년
해결할
##동시지방선거
1-2
베니
여성을
##UT
경질
말의
대책
없었지만
지옥의
일제강점
##순이
스나이퍼
많으며,
달인
화장실
##튠
5.0
명탐정
750
오른다.
이때문에
##gain
##4%
##inc
마법이
나가서
않으면서
금메달을
마시는
업적
##사령관
내일
##ᆷ핑
오프라인
두근
##쿠로
엔터
개개
대중교통
체육관
##2를
학교가
##있고,
여기서도
##테가
괴물이
모른다고
추가.
나을
디펜
항목에
담당한다.
쇠퇴
받았을
섬을
##산에서
##샤의
##크레
바래
박용
##뽕
건의
승리했다.
##배,
키노
5.5
대답을
##테스
비꼬
걸어가
집이
##답지
냅
순정
기록되어
영향력이
6월에
피고
한손
##글이
식품
##있으며,
##등하게
희대의
##선지
퍼시
요구한다.
흥미를
치하
나오고,
녹아
##척을
등장이
##블루
전에서
립
열려
##정류
##쉬가
면접
영등포
아군에게
장탄수
##먹이
뻘
이익
묘사를
볼을
##운영
리스크
뽐
뛰어넘는
##가이
뿐이
이동속도가
오만
코트
Wii
##자라
##록의
##엘의
유튜브에
##가능한
이내에
##웨이트
##기며
설정에
산악
##증가
모르겠
##유저
놓는
멀티플레이
##토르
개국
온모
조력
파키스탄
레시피
러닝
걸면
문서는
외치는
전국동시지방선거
원을
김원
프랭
표를
부흥
##키로
비자
고기를
분량
2점
살아가는
##76
없는데,
##파이트
재벌
배치되어
##UC
부처
캣
꾸며
2천
떨어지면
떠날
엘더
##주공
원활
##흙
부탁한다.
펭귀
##술로
노트북
##므
신정
##편성
124
도리어
SSR
너프를
대하는
1.7
위를
참으로
이온
심상
공통적으로
기체가
시기는
정하는
##는지,
성균
티아
##공화국의
##모노
찾은
프리드리히
대한민국에서
이우
메이커
놀러
불길
나인
골레
도시가
외면
깨알
##land
##AF
제20
재산을
장을
##콜로
쳐도
Champ
##ky
##8%
짓이
스커
##란트
것임을
주장은
마계
끝나지
추가적인
홀리
돌이
오자
##ator
##러는
재활용
모친
접수
폐선
입지가
고유의
덱이
생애
채취
스크립
시기의
##그루
정치가
패배하고
정면으로
포기하지
##에너
굵은
높다는
AG
돌아서
##af
죽이면
친구들이
##ction
한성
정사
일삼
##든지,
지어진
신세
122
설정으로
다음의
가하는
라면
못했다는
나무를
내뱉
##즉
##기구
셋이
1949년
인근에
공격한
사람이라면
켄이
##-0으로
달라붙
복지
미션에서
특이사항
사인
내놓은
풀고
관장
##irst
평.
##당하기
Tw
##-H
GN
##에의
이인
유승
공백
의뢰를
박상
마나를
##ᆺ토
뚜꺼
증발
##캠프
수에
감독과
##!!!!
##끄럽
un
직결
진출한
어머니와
출전한
0.2
윈터
것인데
소원
바꾸어
본선에
차가운
리플렉
이름에서
내리고
튜토
구멍이
##산화
소설을
등장했던
할리우
HARD
이화
##테오
##사우루
##되서
고든
##"와
##타고
##경으로
투수가
##랍
일행에게
숭배
##때로
내외
##것에
패배했다.
소환한
흔적이
영남
##척이
직책
펠
지대
##OID
##졌지만,
지속시간이
독립을
늘어나고
##BE
장면도
2초
거리는
176
야외
완화
직후에
프로그램이다.
사관
##스트,
없이도
무리하게
벚꽃
##눅
본관은
박수
##뿐인
##클릭
어느새
##일수록
휴먼
유용하게
자처
5만
사면
우천
##산과
상당수가
부족으로
##직이
##ONE
뱉
등장하였다.
포인트.
박정희
망치
졸업식
이들도
베리
용암
밀집
산탄총
7대
성전
칼라
디아블로
BEM
##마침
##업으로
As
Baby
제국을
과제
쓸데없이
가의
마을버스
##좀무
##종과
넘사
일으킬
##oss
일환으로
강을
메일
##행으로
넘기는
건다.
착지
경찰은
##호도
분이
##이다보니
권리
https://
##러를
시작하고
꽁
평안
기자회
내릴
##ern
##제품
KTX
프로페
화염방
##01
관련하여
3에서
녹화
Lv상한
정형
박재
프로그램의
시기를
##원들을
그리핀
##AE
격침
추가적으로
쥐어
0.9
##목적
LOVE
합쳐서
##맥을
##플리
순간이
##초교
##더라면
기력
설마
##뎌
##긍
여는
전적이
김구
후한
세상에서
완성된
##하겠지만
하지메
##가르
못했
2015년에
참가했다.
보살
##받침
츠카
친목
않더라도
냥
인상적인
알리는
올라갔다.
업데이트를
달려들
크리에이
점거
투고
제프
##-22
감소한다.
##버리고,
압박을
엄청나
기괴
##크로스
##92
죽이려고
발칸
교체되었다.
가다
버블
##탄과
##시키려
회사에서
갔다
##층은
뮤탈
수만
치안
##질과
청룡
##방송을
##ᆨ은
##야스
타점
삼성전
연기가
들어온다.
미국인
이렇듯
##운드가
수호자
냉각
시비
후려
왓
쌓여
사람.
따라잡
피트
##계에서는
12,
다룬다.
지도를
##사실
##학에
##는데...
영웅을
수행하는
업그레이드가
아냐
자리는
전투력이
돌연변이
호르
##리조
방울
##네요
설상가
가창
레버
곳의
꽂아
##메탈
태극
##ium
취급하는
동물의
##렸는데,
밸
익숙한
잘못을
푹
일체
##원이다.
##뎀
고도
받고,
##거다.
면제
카우
혼돈의
사마의
따위는
현장에
##박쥐
봤
붙는다.
##남은
노릴
않았으며,
무녀
처한
쿠니
##분간
중심의
10여
시부
##나지
자기도
국가에서
1~3
겪는
편안
컬렉션
--
##바지
레벨은
MO
도라에몽
벌였다.
만렙
연루
대서
돌아가기
명중률이
개칭
##능력은
감염된
##08
한편으로는
신세가
질병
석사
로컬
소재를
점검
보고는
##하기만
본관
##아스
정권을
분배
끄는
문단
관점에서
일레븐
호노
시간도
쇼크
영어를
장갑을
재즈
가설
말그대로
뒤로는
크로노
인디언
now
구제
선언했다.
이전까지는
미끄러
BEMANI
누르
중국은
다짐
골로
깊게
장소로
팀과
롬
##attle
게임인
낮아서
어레인지
진술
권능
협조
##학교를
센트럴
자유의
##ush
군사를
왕족
##돌파
김명
앨범에
마코토
갯
역관광
3164
se
##클로
심하다.
플레이스테이션
구체적으로
출전하여
불리고
때로는
아래는
퀄
##사진
유난
니코니코
나타나서
3성
방공
왕좌
평화를
화면을
박사가
잔인
것이니
0이
무기와
찬스를
이과
때문이
입양
일.
시간동안
Fire
넣어서
##미스
멧
따라,
공포를
이창
키보드
카디
2018.
국군
대차
있다.#
뫼
##7%
요르
##BD
##/16
##무기를
시간과
목표는
##교차로
획득한
만남
맵에서
외모가
'수
##유,
남편이
##빵을
불문
##절로
138
시인
##보,
엔지니어
"당
드로
이복
발매.
##효과가
소꿉친구
A4D4
광주광역시
Korea
말만
카가
##.23
인물의
힘과
DM
뒤통
잡는다.
##적이라고
##답시고
##범의
남성이
무지막지한
시절을
친분이
영국에서
내정
에스파
대다수가
쉽고
아오이
주기적으로
##워하는
주어진다.
##나면
제지
차는
le
수평
계약이
싫어한다.
거두며
허무하게
바비
역에서
늙
##셀러
##ins
무리한
사격을
##'도
츤데레
캐서
##격투
##공단
빠진다.
일본어로
##-23
퉁
##욕이
말라는
##명.
크기를
##현실
##값이
박찬
캐릭터들은
애니메이션의
북극
##하였을
OK
주고,
Good
모니터
의혹을
시조
U+110
대량의
##패의
##ount
##디스크
##하자면,
##FM
&#x110
있듯
쉬는
나누는
##에르
##도.
다음을
##연과
주도권을
Sm
꽃을
##red
표현하는
##eng
평론가
김대중
참여하는
신입생
등장하는데
이루어진다.
##자리에
부담을
비중은
지었다.
원피스
죽이기
##키에게
안무
라우
생산하는
##-E
답을
장동
대대로
보복
##가락을
##방위
##ution
생겨서
녀석은
STR
이호
치며
2.4
텅
##림,
이것저
무너져
##어요.
거야?
열었다.
업적을
##테츠
배우가
##군단
##턴의
##안타를
종전
Dark
퀄리티가
자격이
##킥을
주가
제약이
장점을
진동
##메르
애니메이션에서는
확인하고
댓글을
연수
얻어내
##메이트
feat.
중국이
리뉴얼
지역구
##주년을
점으로
##다니며
받았고
##션으로
운명의
위치로
일러스트레이터
관리자
카토
춘천
##턴이
데미지도
1화에서
해를
세계적인
환자
재밌는
##열은
당나라
아이템의
##시켜주는
일본과
마음은
##어버렸다.
내면
주먹을
##청은
"미
11,
냉정
##해버리는
##71
##함대
GP
Sun
그쳤다.
경찰의
이레
##문서
목에
What
문서가
펜타
##애나
중국과
Live
##승으로
멜로디
##탄,
없다시피
##-EN
공개한
서정
베이스로
구하러
##III
흠좀무
에인
##머신
부진한
4경기
성벽
애정
느낌의
1941년
정재
##73
자발
##차와
중성
지극히
특허
##파리
#000000
##명인
악기
평범하게
03.
##우먼
상성이
모르지만
분야의
Rock
의원은
##곡인
레벨에
##양으로
현재까지도
마이크로소프트
자손
##염이
문제점을
분노의
히드라
암울
늙은
후보를
사용하였다.
실루에
알렸다.
알려주는
##ady
##좋은
##2동
3배
##목으로
##ube
일종이다.
##댄다.
'소
소소한
##통에
##OCAL
살라
##IE
##똥
연막
치르
##겨서
##근을
Kn
##발,
좀비가
뒤틀
공격하면
홀드
명백한
여자친
##캠퍼스
급식
개그맨
##세포
##점이다.
##라이어
옵티
기대할
생략한다.
하스스톤
PL
입혀
흥분
DR
2를
##담으로
##바리
친선
전작인
함대를
##94
##&lt;
##시게
캠퍼스
시체가
사수
친하게
3개를
##91
##시간은
내로
뛰쳐
그쳐
공화국의
##려다
아토
##니클
CN
전동
트렌
색상
건물에
수행할
하기에
얼굴로
전설적인
벌이
##ART
못했다고
##ert
##스터의
##상태로
길거리
짧고
'다
저서
패닉
하라고
지각
아껴
결국에는
천년
피드
잡아서
타우
신조
파랑
전자기
시작하자마자
생각하며
LCK
##고교
조지아
방정
필연
코드를
대한항공
승급
학년
이야기의
##충전
사회에
아랑
##물인
##덕이
##하임
유리하다.
베이스볼
##회와
##리그에서
##:59
##이치로
낀
위협적인
전이
치우
잡히
활약한
갔을
룸
##D의
리퍼
동료로
플래티넘
아리스
이곳을
##즈에게
##스트림
다큐멘터리
넘긴
##복무
도시로
##ᆺ.
좋아하고
추기
정체불명의
의사가
왔을
##진다는
##어버릴
조커
##공연
형이
극심한
이미지는
Can
버거
따른다.
##대도
##타임을
##개는
##십자
분데스리가
피카츄
2루타
보스는
안도
개연
샐러
##적이라는
개화
냄새가
3단
AB
##하리
##그와
비어
내비
##백만
여자는
되어,
델타
##계약을
농촌
즐거운
때마침
##캐로
제휴
사이보
##책임
적절하게
무장을
언어를
워너
"마
##짓을
타지
##입니다
순위를
단선
상용
대신,
2016년에
##양,
신상
벌어진다.
것만으로도
떠오르는
조직을
추가되는
아직은
농락
##듈럼
##필을
축적
설치한
##브,
힘들게
##m의
##전인
부어
안에는
##집의
팬터
바꿔서
0으로
만들지
당시에도
##인해
##버는
##진에게
말소
##방과
##링은
마시고
가능성
위험을
##통일
##트론
건물의
##세인
디비전
지팡이
1940년
1일부터
필라델피아
##도니아
저기
대왕
DJMAX
습격을
충북
맵에
숲의
This
보상이
부리는
홍준
##되니
가족의
3호
못했을
라이너
똑똑
##말고
대상은
HP를
2권
것인가
##월의
책임이
대역
넘사벽
지르
다해
##비서
12시
##헤드
세금
행적
공허의
소유하고
테니스
이동이
성공하면
2017년에
##쏠
헥
##이닝을
기념으로
일절
찍었다.
아침에
##받던
몬테
전쟁으로
넓어
최후를
무비
##는데다
대학의
증가하고
##대학교,
캠퍼
지날
같지만,
바다의
주장도
##new
둘러싼
파우
##확률
쏟아져
ARM
적어서
##측에서
##use
아바타
기피
남았다.
116
멤버는
이것저것
서독
제19
##other
요구를
반경
짚
씹어
남아프리카
##대학원
16년
2월에
일컫는
##테라
들으면
진행하고
겹치는
4~5
##하듯이
대령
필요없
##쪽을
2면
능력의
짬
기반을
##도서관
형상
##때문
소용돌이
tvN
배에
단말
나루토
세가
핏
중간중간
코요
HS
지선
운항
##락으로
##하로
동호
Life
버스가
적들의
##팅이
부려
##거리며
색을
차례로
수치는
강화를
##측은
Summer
##감하게
대결에서
기수
드립이
던지
##혁의
##찬이
언젠
오아
넘은
도와주는
병사들이
##->
##GO
인력
있는,
오늘의
##싸움을
##주군
빠지고
##준을
활동하였다.
인간으로
소비에트
##게도
없어.
##검찰
포크
114
살기
맺어
beat
일렉트로
깽
2014년에
바닐라
##서비스
길러
##-24
5번째
말하면서
##습니까?
대각
후예
외치
용량
전투력을
##색과
서초
장편
##행에
##air
했으니
낮게
파괴할
##톤의
합류한
외야수
소식
격리
개발에
사용.
달갸
##9%
##한테는
혁신
시장이
유난히
불쾌
나타낸다.
해결하기
나이트메
로스앤젤레스
##margin
남쪽으로
못했지만
##충이
데뷔했다.
프로젝트를
엔터테인먼
##타우
영동
바뀌고
마누
동래
승무
Bo
203
##급,
좁아
ADV
Sy
마마
##규칙
반영한
간략
나갔다.
##목은
##다만
성기사
##반응
노선의
17년
2세의
4명의
##인만큼
많으며
죽자
1943년
##상자
본거
##주의에
거래를
컨셉을
계략
문화가
초능력
태생
환경에서
##왕국
스토리에서
묶여
저술
행사를
2D
블럭
쌓인
휘말려
##시도
우리를
##덟
BC
좋아한다고
출시한
지역에서는
##카에
강타
죽어서
파티에
##쿠니
가급
##/15
원문
편인데,
대학에
우는
##형이다.
재구
올라가면
But
순양
##ors
장학
염려
햇
논문
패치가
울음
6성
##하셔
선수단
쇼트
펼치
##현대
입힙니다.
2.3
다이나
보기는
##적일
디에
시청자들의
"I
따와
편한
##복의
경순
##학부
윤리
Dance
상황에서는
##나온
하였고
김치
것이다
양보
복용
##이사
#2
##된다면
제국은
원망
계곡
172
5시
30대
보기도
##속은
##란과
##스타의
루리
가격에
맺은
서명
포병
서민
인형을
의지가
포탄
어디로
패배.
보정을
신세계
회계
묘한
현실은
떡밥을
짙
버티는
혜택을
4:
씩
대고
##장치를
##렸다가
않겠다고
##학과,
##idth=
1일,
왕은
해도,
워낙에
확률을
//
##회장
##드립을
못하다.
이야기로
스미스
0.7
영상에
달려가
HK
한발
정조
과일
##차지
웃으며
속도도
역대급
망원
증거가
단체로
#!wiki
여름에
##셈
구분이
포스를
양호
꾸미
크레디
수익을
광물
테러리스트
내려오는
지구로
존재는
있을지도
##vol
회피율
유력한
기사의
##플렉스
VOCAL
무리를
못하며
다르지
영역을
##ittle
넓게
캐릭터들
오리온
테일즈
쑤
구성하는
##림으로
어제
해저
글리
사회에서
Music
##GC
##롭고
연금술
설명한다.
주변에서
##기계
151
종료.
#ffffff,#dddddd
##역시
156
표창
올라서
유저들도
죄송
무실점으로
##궁을
연상시키는
##나오는
기체의
접어들
현실적으로
##익이
##성인
아이돌이
##폭이
1942년
##2로
##미네
거세
신축
갈고
아쉽게
공통점이
타인의
헤어스타
느리게
Blue
입힐
다중
1개를
생명체
am
1위에
차원이
카레
영향력
예전부터
BBC
한미
북한이
연기한
경쟁을
##ally
##득점을
탄생한
##멋대로
변경된
르네
중추
##오오
최약
##50%
이해하기
##싹
돔
여자의
뜨거
렌즈
유니폼을
##이에게
##리스의
유유
##지이다.
아이러니하게도
웨폰
고베
174
버티고
포식
##감,
##/24
가슴을
카무
##제국의
넬
[math]
##선도
것의
##탑이
직업을
홍성
부르지
앞면
발동하는
##ERO
칙
but
설탕
##료로
2,000
NP
리그에
단어는
캐러
박사의
순간,
사장이
세상이
덩치가
출구
줄이
마음으로
펜듈럼
전술을
밭
세키
강해서
##당하지
콕
##시대에
조조가
본사
이기지
##에요.
##몬과
하려면
구석
이적했다.
3.1
담당했다.
사용하기도
느낌으로
토너먼
전도
스테이지에서
##횡
동조
세워진
퓨전
##트레이
결정되었다.
외모를
##편이다.
자유자
전전
##해보자.
##UR
미세
바란다.
##결에
바로는
타입:
야기
왕실
끌려가
리셋
명인
코디
##애가
포효
건가
드워프
2위로
그레이드
일행의
스테이지를
2화
투하
언급한다.
내구도
만들면
2가지
회귀
비명
4세
##1로
아들의
##무대
아내를
피해는
파워를
사스케
##행위를
##율로
지중
##연방
반항
마법사의
CON
공습
사건과
득표율
##스쿨
사이트에서
8위
성인이
OB
오타쿠
없거나
개구
능숙
럭키
노비
박경
스탭
붙잡혀
임팩트
get
때나
보스전
딱딱
심장을
하이브리드
김형
세츠
자기는
##개조
외래
행성의
1주일
##번호를
##슬을
스킬에
의문이
클립
이보다
##우러
##이라기
작곡한
2에
검이
유로파
내세워
사출
##셸
UI
살이
에피소드를
##모에
각오
이해하지
양키
문서.
센티
영감을
성우인
후반에는
꼴이
20초
고산
총괄
의외의
급기
다이너
하거나,
직속
##나라를
##클래스
유럽에서
미묘하게
사기를
출고
로제
개구리
2/3
낮추
##다던가
성대
##달로
##초등학교는
체제를
모델인
SCP
루피
##변속
##패,
좋아하지
유스
6개의
일러스트가
리프
##험으로
결국엔
##접한
##끌
TE
걷어
Just
방송된
##reen
스펙이
엄격한
UF
##ual
후로
##반,
당하며
입국
손잡이
친정
담배를
style="margin
신호를
변속
노동자
2에서는
113
일격을
혼돈
맛있는
1958년
가능했다.
소극
용맹
아이들의
바다를
넘어간다.
감히
선보인
날은
일례로
##라곤
Lv.4
범죄를
피안타
관통력
보스.
##밟
Don't
트위터에
박물관
사일
병원에서
책정
신작
15일에
소모량
##레벨이
##랜드는
천지
품은
파도
매운
패왕
##대회에서
##ons
빅뱅
전설이
##이라고는
2주차
##S의
학위를
시를
자진
서해
서치
나미
##바흐
만들기도
아내와
인접한
##58
용자
##워크
고리
내전
반격을
수단으로
루팡
##/이
듀오
su
남발
단숨에
##이라,
잘려
구도
때려잡
범인이
사모
언급하는
밸런스가
ab
들리는
장점은
도망치는
##렌이
지점에
제리
##나갔다.
드라큐
염색
어쌔
속을
##리아,
##주고,
역할도
##히어로
소대
##목의
전쟁은
##ational
유비트
한가운데
##스크롤
속이
원정에서
드물다.
정전
유영
##계승
아프리카TV
##기면서
혼동
벙커
장소에서
##ᆺ잎
제작을
용기
영상의
브론즈
공세를
처분
선구
반역
아데
시장을
##맞은
부추
##반도
6.25
슬리
만회
##가이다.
##난을
##'란
##부족
##아에
헬레
방호
일본,
인스타그래
##물에서
조영
드라마의
블리자드
후안
나왔지만
##riend
안타깝게도
##볶
포커
##리티
##게.
##회로
만하다.
강수
만들었다고
아버지에게
기간에
김택
##뜩이나
광탈
디버프를
부과
##직원
맥도
20개
살해한
한타에서
4.0
전통적으로
지크
부평
##주기도
##스터가
##더,
중국,
빼고는
김정은
사정으로
수락
나왔
바뀔
끼어들
물약
것이므로
피치
비슷하지만
1954년
이마저도
가솔
'저
카시
이후부터는
로버
죽었다고
마르코
프로덕션
나왔는데,
선택이
실천
호전
프랑스어
야마구치
희귀한
##퐁
아니므로
##온과
선택하면
나섰다.
구입할
##엎
##UE
철저한
148
부품을
사이타마
런닝
사탕
나오자
수소
##일지
전개를
주위의
카니
##격의
건재
골렘
은퇴한
드리블
Over
노블
쏟아부
상기한
##atic
4승
고안
성에
164
##수입
처참한
##화학
##버리기
괄
초반부
제목을
포켓몬이
싸우다가
퇴출
정립
채집
각기
리포
##황이
번호는
독을
##뜻
아줌
발광
##해머
사내
모닝
명단에
무기인
사찰
1천
일어나고
믿어
##방향으로
전리
결전
노선으로
문자를
##미츠
##산역
##vs
대도시
##교,
##ᆯ라가
역()은
컨트롤러
자각
하는지
기운
존재하고
무장한
쏠쏠
##ivers
팀명
3세대
##한은
##쿠와
##기라는
입으로
행적을
선택하는
시너지를
진단
츠루
동로마
이것으로
이루어지는
하늘에서
##[]
때때로
특훈
##4의
타서
쏘면
##지므로
표방
##퇴근
세컨드
장소가
##업은
##맛이
순간적으로
하도록
##더스트
##쉬의
유신
끝내고
가뜩이나
파수
변경.
얼굴은
대대적인
마타
셈
불분
Pv
##aj
##마.
##쿠리
되었으나
담당한
##까지,
염두에
끈질
대행
##평균
2013년에
스튜어
##비어
우승한
##가메
##피로
161
##리그의
##rain
거리에서
##더와
쪼개
day
##마리의
스완
스토리에
##샤가
형태는
퀘스트가
신과
##놓으면
돌격소총
전에도
##유로
##루살
페이크
자위
금호
그랑프리
##2%
생각으로
원숭이
규제
중국에
##부르
##물.
반지를
##.31
##지만...
필드를
##네이션
##한다면,
필름
##부분이
##슈퍼
집안의
##라인을
지역이다.
롤러
강철의
콜롬비아
축구를
만나러
가와
무장이
군데
##쿵
그닥
겁니다.
풋볼
##프스키
대타로
크롬
FB
##각으로
가져오
FL
아루
만큼의
Out
공격.
126
##어찌
"A
이끌어내
깰
##층에서
##동네
높다고
기록에
북쪽으로
터질
휴가
TW
##인수
장원
출연하는
##담에
힐링
문제와
갑작스럽게
받던
##itch
뭐,
노이
물품
##귀가
법한
2012년에
##프터
편찬
시작했고
상태라
상처가
쿠바
꼽히는
걷는
##블릿
뷔
##2는
##됨
애를
설립한
3편
Power
병을
부모님이
움직임
명령에
교회의
제재
돌릴
아이는
##규의
이만
우아
함경
욕시
117
최초수록
시즌은
레이저를
동안,
허리케
통용
이르기까지
탄을
##브와
##-b
##가니스
보기에는
VOCALOID
중상을
장점.
##표로
크립
비교할
##나시
환경을
로그인
MX
김창
갖는다.
우두머리
Sec
하지만...
망한
##거진
강대
사실,
Af
한명이
탈락했다.
컨셉으로
이데
사이에서도
Win
동료를
대응하는
2억
출몰
##예선
빠졌다.
드러내는
확인한
##인듯.
편이며,
높았다.
양을
총으로
일러스트를
UFC
굴복
가문이
밝혀져
교실
##이므로,
작전에
인종차별
MLB
##택에
개발자
전투로
넘어갔다.
##고등학교,
대사로
##보와
떠올라
SL
처녀
일당
경계를
여왕의
수정되었다.
타나카
##...!
##칼립
정우
장군이
높아졌다.
무릎을
Dis
시작되는
북구
##비도
번식
준비한
읽는다.
밑의
just
없으나,
데뷔를
돌아다니는
##에서나
스피리
현실적인
##멘탈
##스럽다.
전장에서
줄일
이동한다.
술에
증거를
출근
캐릭터다.
139
##리다가
투수로
어시
엉뚱한
##벌로
벌인다.
지쳐
등급이
가슴이
헤매
다양하게
##치료
##들이는
##욱의
슬러
IDOL
UC
동참
훈장
앉아서
'진
씬
홀딩
기차
승리의
웹사이트
1을
입체
뒤덮
돌아오지
기체를
비타
슌
기사에
삼성전자
##념이
프랜차이즈
플레이어블
하수인을
Mon
153
공직
##왕,
케네
운영체제
가축
미국을
지배하는
크로아티아
##건과
스타트
'공
"모
회장이
덕후
솔저
제목의
결론을
변신한
요시다
쾨
##워커
점프를
##ᆸ과
##야에게
않거나
남성의
새로이
즐겁게
중상
독일이
죽었
수험
##리학
일가
고조
리우
진상
협의
남극
우월한
따돌리
벌여
2017.
시작하게
액체
홈에서
이블
킬을
도미니
2단
내용.
School
##-F
상관이
단점.
이용한다.
시집
박준
##TC
밝힌다.
이동을
그라운드
몸은
##미술
간판
기성
대표가
BD
##산동
레바
변장
숫자를
우미
월요일
서울의
채찍
마리가
##마사
더한
연말
프로그램에
숨은
'내
국가에
조르
대적
의식이
승리에
##그린
들켜
굴욕을
한탄
##프스
##시즈
군대의
포함해서
'도
##아에게
##부분에
##놓을
송출
소녀가
명목으로
Res
주민들은
2500
1956년
포켓몬을
At
El
상류
CEO
##1동
##게임을
마디로
입히고
##let
뱅크
해내
주유
정신적으로
320
말하기도
손자
분리되어
무빙
163
##구도
예정이라고
소실
뭔가를
사나이
##용과
##몬은
1939년
사례도
많지만,
##ina
문서로
측에
줄어드는
##bo
쑥
##연하게
what
##시노
호세
존재하며,
이누야
분량이
임페
##퍼드
데려와
줄곧
경고를
스모
콤보가
세월이
##구르
웃긴
##살로
근거가
타일
경기.
잠들
스폰서
멀쩡히
이상일
##투자
허위
서열
제작자
##-이
유배
뿐인
않았는데
치루
##란에
모으고
OPS
키는
사용했던
Lo
경력을
최장
설도
띄게
Ep
피처
##레타
##경영
인정받아
맏
##레일
맨시티
재밌
후이
안그래도
거부하고
유틸
기반의
"우리
주면서
드러낸
타격이
##해지자
대패
아니냐고
##넓
##량,
포기한
상금
##했다며
성적으로
보통의
옮긴
쿼터
##카즈
국가는
프론
제13
##기시
만나기
Sing
장르의
달빛
찢어
끝장
제임
존재했던
표출
##VER
##되도록
일품
한국에서도
"T
감소,
##점도
영국과
보호를
제주도
##놈의
아에
몬스터.
모여서
##양과
##씨와
Di
정동
범인
유저들을
따지자
fe
##고등
##넛
홈페이지에
구멍을
설상가상으로
8번
보우
라파
미국에서는
선택지가
##아.
것까지
적들에게
빨강
한몫
중2
##역.
루미
##rist
경희
포션
계속되는
##ield
##플을
나타나지
달성한
선생님이
자리잡고
정렬
역사의
##주의가
##킹이
수려
반가
21세기
가상의
보던
엔딩이
나라는
벨리
놓았다.
##tr
늘었다.
주민들의
교통사
인텔
2018년에
미도
제18
틀림
해주고
반감
안좋은
##-X
방과
단번에
취하고
신뢰를
4분
##04
##에다가
편이며
테리
출연.
던전에서
대통령을
독백
훅
##느냐는
떠돌
어려우
정부를
아프가니스
멘탈이
##aid
김희
##anch
모듀
신화의
떠나게
강행
제15
손꼽히는
새겨진
##ᆻ더니
##떨
후궁
브라이
사망하고
##구.
피라미
좌파
일으킨다.
세트를
##하려다
지칭하는
##어인
화상
농담이
##뜬
사용하며,
파괴된
대한민국에서는
다저
레스
크레딧
알고보니
Leg
999
스킬인
되었기
꼬리를
##리지만
성숙
소환된
테마곡
##순으로
들어와서
두가지
황후
1타
독일은
찍혀
##려다가
입힌
했는지
##면허
유대인
선교
1에서
한복
무능
위기가
항성
발견할
##촬
장의
생겨난
"난
와인
토트넘
플레임
인류가
갇힌
Rec
##집니다.
##무와
행렬
워크
고려대학교
벌이고
바꾸었다.
마술사
성당
있겠지만,
##비나
##세력
작정하고
레스토랑
PVP
아니니
반환
텔
자유자재로
활동은
이곳은
##해는
왔다고
2세는
벌금
이노우에
MR
대목
세미
세계는
173
활용해
시작.
딜레이가
드루이드
'하
죽었을
자켓
퍽
준비가
앨범은
##ᆺ고
##무에
성균관
이성을
##대부
##공격이
코에
판을
직업이
관하여
##태의
진행될
빌헬
밴드의
사쿠라이
선물로
벨트
##황제
초점을
##평이
알고리즈
##낮
그렇듯이
듀에
퓨어
3천
##죽을
무너진
배송
테스트를
##버렸고,
자쿠
레슬
대학교에서
균형을
강해
열등
##ret
바실
##라니
##atale
촬영을
무게가
밧
통보
높으신
라인전
존재감을
살해당
벗어나지
##캐스트
인구의
##깽
등장하면서
##소스
##.50
주장하고
##코에
심사위원
154
창시
기준을
마쳤다.
빚을
##구단
파이트
속박
12년
트러블
그걸로
기운을
1티어
공명
##멜로
베토
##펫
관련한
섬에서
여자아이
불륜
배우고
##ty
운운
휘두르는
에어로시티
##A가
##자:
##티,
카부
공격도
##시키는데
##증에
##급에
맺었다.
일쑤
우타
등장하기
언제든지
엔딩에서
균형
날개가
노래의
잉글랜드의
발리
##인듯
##층으로
보였던
포니
##블레이드
다이노
King
다니며
##온,
애시
피겨
플로리다
주식회사
Femm
구간에서
18년
예루살
##디아라
악용
시치
##연구소
카를로스
조선민주주의인민공화국
시즌3
되돌려
샤워
삭제된
Gold
인도의
##액의
구마
보너스가
VR
슈퍼스타
##학과를
사상을
##ᆯ리의
##살에
##인이자
night
작별
##령,
뜰
유소년
책략
"B
변질
스트레스
공포에
'세
리모데
시리즈,
##융합
나날
편이었다.
146
##평화
프로듀싱
##및
게릴라
잔혹
##요~
일개
슬로우
출신이
활약했다.
분위기는
어찌어찌
애틀랜
배로
절규
독일어
확정된
크라운
A3
##가지가
바주
싱어
##버리면서
적자
살아가
방문한
EMP
인질
위주
키르
MT
체력의
한정판
튜닝
Mod
중요시
지상파
설명한
놀고
배경은
턴이
##리스크
##olog
점멸
영화배우
딸의
기타리스트
기하
등교
##-29
##사전
가능해졌다.
##부분을
YOU
카일
결정했다.
스파이더맨
캐로
것이지
그렇게까지
1개,
팟
주전으로
포토
메르세
고를
##빈은
걱정하는
피신
토착
소녀.
갈구
석방
'성
##드려
놓치지
##실히
보스인
유타
##먹는다.
##ᆸ스
##태는
증기
슬라
한지
man
##폭풍
Miss
입어
'일
천둥
병합
방영되었다.
퀴즈
+0
##노벨
30일에
##A,
시끄러
1959년
##수원
창당
최선을
##리라고
함정에
없이는
sm
해임
1992
나눌
멤버들을
얼핏
나온다
김전
##엔진
만났다.
##ke
시신을
게임과
인체
히데요
산화
군사적
불에
##기로는
서술한
##하우
버림
6대
확연히
높지만
##ᆻ는데도
##02
생기고
좋고,
타이밍이
모임
#1
##,7
불안정한
멜론
공익
리츠
왕국을
와이번스
수라
중일
남미
윈스
행위는
자연스레
높아진다.
회복한다.
아름답
군대는
학생들
많다
뭉쳐
1952년
무찌
컨테이
걸맞는
위엄을
베일
키쿠
상태에서도
리부트
FemmeF
##요소
국산
FemmeFatale
##승이
호박
하늘에
수명이
사오
데는
0.1
동안에
##덕에
스노
##/9
이윽
일이었다.
전교
1947년
드레스
와이어
눕
내려온
C.
아드
##버스는
정은
퀄컴
차려
무단
남는다.
##@STER
에코
만들고,
어떨
울려
벵
산소
TH
##거,
인기는
죽어도
불필
직원이
궤적
주체
후자는
##경비
한국전쟁
5,000
##하므로,
##로에서
##나간다.
마우
밤을
##베르토
부대는
##편집
##광을
##주의와
징징
섭외
신성한
##퀄
풀이
인명
##예가
독이
##ouse
퍼포먼스
'M
사르
##범으로
산성
휴식을
대진
##급한
##지도.
강력하게
장난을
코치로
귀를
##맞는
##으면서도
##난이도
##교육을
자잘
##키타
선수.
기본적으로는
시야가
set
불로
원천
브레이커
하기로
일본식
if
곳.
사랑은
공지사항
알프레
##elf
1시
}}}
힘들다는
마을로
제멋대로
##소울
무한도전
##대인
필사적으로
거제
예가
느그
팝픈
타노
167
"가
157
생명력을
##였는지
##게리온
##?"라는
제도가
##카스
##렬하게
쌓은
옆의
청동
##먹기
잭슨
발동이
맞아도
연상케
##래가
학생들에게
채굴
컴퓨터를
미군의
성추
침해
속도와
신들의
식.
캐나다의
S레어
라인이
토로
우승에
이스트
하겠다고
젬
심어
4명이
중국인
소모가
씨의
것이라며
DX
따지고
팀인
##한게
픽시
그러고
복싱
아폴로
암살자
##꽈
##+3
변명
나름의
노숙
있으면서
인트로
연이어
리에
강조하는
피해자가
놓쳐
음악은
##중에는
카드에
패치에서
사역
외엔
##ony
나온다는
도메
성은
직격
##보도
모델이다.
고분
코로
하지만.
있었는지
##측이
서비스가
"고
##으론
우연
정부에서
결혼식
경매
##쉬는
데에는
나가고
한국어로
비례대표
3권
End
선곡
교수는
뒷받침
"무
덱의
미래에
3주
##"며
##땡
MASTER
착용하고
##row
기량을
헷갈리
##놨다.
보고,
유능한
치면서
왕으로
엔진은
오토바이
삼은
##왕에
##충을
전작에서
등장,
##환과
중얼
눈물이
하드웨어
SV
##안에서
코바야시
서울에서
##오에게
20일에
##탄에
찍힌
출전했다.
깬
능가하는
적발
1년에
AE
치른
환호
##해군
왕위를
좋겠
입법
여기에는
스냅
여배우
초토
171
영미
길은
##민에게
카드와
호리
높고,
똘
##''
##움과
클리블
검의
##백화점
"The
코스타
최하위
콘스탄티노
산다.
동료들과
괜찮다.
링컨
웬만하면
갈린다.
뜨고
질풍
사례는
##해!
##탈출
멈추지
##고쿠
은메달
깃발
##카제
##.60
진성
당시,
예외적으로
마야
기간동안
##'인
보았을
씁
##때의
걸리지
저주받은
그런데,
리그를
데스티니
##루트
내주고
굴욕
타고난
디시인
임진왜란
탈옥
주장한
Rem
초코
##료는
살리기
애정을
Che
자금을
빠질
활용하여
무슬림
그제
서북
2타
아부
어워드
##다',
설정되어
항목:
나라에서
##pl
좋았다.
애매하다.
역임했다.
시초
피곤
##종이다.
??
조수
축에
##리카와
신경써
##다음
파인
아우구
호흡을
조로
코다
있을까
멈춘
Ab
내어
육체를
##/30
##닉스
대도
온건
왔던
진행되고
울고
제12
1955년
맹활약
아수라
꼴을
템플
타락한
사우디아라
'스
##야하는
각성한
쎄
이문
"정
군을
컨텐
서쪽으로
별명으로
배치된
마인드
길어서
든든
포함하고
##행은
선거구
##잖아.
'너
죽음이
그런거
##슬래
범위에
##언정
##총리
시청자들에게
손흥
외치며
볼넷을
얼터
S.
모드는
##치기를
달에
수수께끼의
지자
수령
애당초
값이
올리면
사사키
동봉
성명
판결을
다양하다.
친구의
항공모함
태조
상당하다.
힘겨
받았지만
공의
1턴에
달콤한
##마키
스팅
직역
페리
연합군
##프레임
정명
없도록
방화
회사에
##신.
좀처럼
씨앗
신천
시위를
스퀘
스케줄
##자연
날을
뛴
오재
생각도
인간에게
폭이
방면으로
투표를
맘에
##연장
키즈
프로모션
##수산
##ane
2010년에
최소화
안치
2로
BT
더럽
##룡을
##라디오
지미
매력을
##해한다.
##집단
되어버린다.
윤석
만화의
환경이
방해하는
3화
오징
스트레스를
슈가
수염
##무니
적색
시스템에
국방부
비해서는
우편
##A는
##히며
단검
이기면
오늘날의
제이슨
미뤄
##카쿠
문구가
##메의
##항에
대학을
파악하고
1이
##기스
활을
적용되었다.
##적한
아이디어
##작.
동쪽으로
작중에
이상인
라이어
Ord
필요하다고
##.99
서남
##ORE
Sound
링크를
슬라이드
사용자의
##판인
##시다
칭송
전성기를
'조
조금은
##것과
##하다가,
넘지
##아파
말,
수영복
##보험
결혼한
카운티
개인이
불완
진흙
다단
복귀한
대우를
##투로
발도
CCTV
출루율
무작위로
##님.
전학
대표되는
##RAM
##족,
얇은
아포칼립
##vil
최성
##있는데,
##ze
씨는
커플링
오브젝
루프
##es,
##상도
밝히고
보이면서
근본적인
비명을
##크에게
키운
박해
유목
이유.
##ecial
사례를
뭐라
##서.
붉은색
Cat
어퍼
협상을
있다고.
얄짤
회고
##켓이
펼치는
제공하고
##훈과
제한을
##버르
직업은
애플리
하남
후속작인
방금
임관
에반게리온
인간형
본편에서
##ny
경기수
1988
정유
##이라면서
##애틀
보호하는
9위
##G가
Li
레슨
부하들을
입자
한번씩
BAS
정답
##차트
두터
손실
줄이는
구성을
찍으면
패미
모티브가
본디
학대
14년
주장에
죄수
선대
투자를
RAW
결별
방영한
섀도
동생이
시궁
수강
전념
##프트가
맡기
빼앗긴
Air
네메
##죄로
테크닉
##하였다는
##HD
##!의
마음껏
##팟
눈치챈
점수는
1990
짝이
친구로
실패한다.
02.
##보건
가능하다고
##턴을
이반
죽어가
##간다
##코올
어처
기업의
예선에서
클리어가
웃고
열정
사냥을
##ENT
패한
홈페이
기간을
지정되어
동계올림픽
이윽고
집결
싫은
RC
육박
맥락
지식이
음주
별점
서로가
사의
번은
지역과
나한테
##버스로
두어
느껴질
싶어하는
리볼버
버젼
다니고
##>,
##핑크
찔
퍼뜨
##혁은
제레
##/14
자민
화약
별도
주변에는
##공격력
시너지
가지가
##아이돌
내서
지나면서
주장하였다.
명확한
대격
옷이
박격
저스티스
쓰이
류현
마에다
하위호환
##는가?
도르트
복수의
언론에
##데미지
어깨를
##망에
빈도가
진영의
##하세요.
"사
단역
인터뷰에
주사위
##엠
아홉
펼쳐진
오인
출퇴근
##커니즈
##-200
맨유
Art
아르메니아
안전을
휘하의
심화
간격으로
총에
##위원장
모방
전태
##코르
집정
패배한다.
뾰족
##93
##데가
##내려
달리고
회의를
토탈
앞마
효과에
못하도록
간격
##아버지
2세가
존재하며
평가받는
##나들
던지고
##마이트
게재
한때는
대화가
섹스
성질을
##황의
##구경
##처의
나타날
Hard
무공
정진
##토로
몇년
2011년에
라비
##탄으로
##운드의
패를
##덩이를
##할수록
조폭
한국으로
이츠
##요...
리마스터
두께
옮겼다.
징계
하드코어
열람
##.A.
처벌을
헤일로
사리
존댓
도시에서
##였으니
##ars
##셔서
##빌리
##작품
승부차
골목
책은
살았던
지정한
##됐던
청산
헬기
로봇이
과정에
230
사극
##남으로
거슬러
미도리
안테
스타팅
어렵고
##튀기
##판.
제17
목동
장착된
조나
파산
들어왔다.
이루어지고
기요
알비
임요
166
반응도
1953년
당당히
승패
고토
##답을
##패치
동메달
##언의
팔찌
뭔지
팩션
##데시
액세서
3시
20,
되어있는
##겠다.
가든
것들
입지를
##.70
스탯을
권총을
붙잡고
묘사되는
##팀과
중요하게
늦어
가방
인성
##파르
군대에
만큼은
임창
Hy
설리
방이
원흉
2명의
입에서
##라이즈
미로
##분석
가르치
[[]]
##남을
수단을
왼팔
##정부의
##근의
##길에
냐
대체할
컨트롤이
깡패
마자
주위를
##반으로
결승에
욕설
인가대수
복음
##P를
마리의
있음
부합
##템을
포레
발견한다.
욱
가까스로
대인배
3호선
스킬과
좋았던
놀아
가구
김씨
먹이를
Ke
경찰청
월드컵에서
잃었다.
흘려
루머가
스펙트
대전광역시
It's
모빌슈
##퀸
동갑
버전에서
북유럽
##개에
##끝에
With
##ness
가리는
우드
킹덤
기술에
탑재한
첨가
캡슐
초창기에는
생전에
무엇인지
다니던
"M
몰입
성격도
익혀
##ana
부모의
##ORM
##노에
2시
##RO
덫
##캠퍼
##하단
렉스
헌신
공간에
탁월한
##공영
선거구에
기타사항
가변
모험을
주제를
짐을
페인
2루타를
바텀
여덟
이야기다.
1919년
생기면
컨텐츠를
1-1
주한
##불이
의미심
지하에
리모델링
타면
박힌
##폭력
SO
##보통
로비
이미지로
캐슬
팔고
##생은
재조
관련해서
수복
디오
덮어
준우승을
.2
있었다면
15,
완수
##끼리의
창고
성공적인
공개했다.
지휘하는
기억하고
##피해를
에피소드는
환경에
불과한
##베가
호테
식이다.
사건이다.
겪었다.
두지
살아남아
용기를
##턴은
복귀했다.
##벡
##병들이
살았다.
학창
줘서
##규는
현행
##젤로
이상적인
감전
개인적으로
##ren
산을
##리아와
동생을
##시스템
Boy
튼튼한
##해달라고
초강
오리콘
받쳐
종류는
평가도
구해준
유치원
이관
##급인
##드나
장군의
##경기가
##하였기
배후
월등
채우
임의의
플레이에
섬식
미션이
발렌타인
동창
구급
##이라면,
##았는지
넵
브루스
다가와
부풀
##건으로
눈치를
운영이
##압이
제후
들어선
우리들의
밖에도
병사들을
살인을
마스코트
'C
나가지
##행동
관악
글씨
사천왕
6%
요시노
우주선
##버스의
화소
세탁
에일리언
범위는
##'라며
##곡이다.
이러면
귀중한
상위항목
##오닉
장비는
밀라노
좋다
'최
밸런스를
도르트문
##리어가
인정한
개념으로
VIP
스캐
##본의
지력
##모자
입게
##arm
우주를
분류된다.
Elect
시장의
기구
20만
##거니와
유포
##rand
대학에서
펼친
6000
연이
##사이다.
##그레이
맞먹는
##요일에
도호쿠
##ALL
##타에게
##마켓
##직업
##철을
대회가
##.S.
##1%
달이
흐름
##소환
##전함
전차의
##놈이
##왕후
원한
받았으며,
하였으며,
생겨나
##있으면
것들은
갈리
CT
##ᆺ도
변함
방지하기
저상
디트로
왕비
부여하는
깔끔한
자들이
##거에
위탁
경기였다.
App
##화하여
##녀로
##질수록
알제
##런을
정의의
공사를
##KO
누명을
1세의
가치는
##교에
##집은
280
리코
##출한
게,
##on,
대타
##공산
5의
하지는
밝고
영국,
시스템으로
마을이
1개의
##~11
최진
##rop
15:00
##omb
송병
크로니클
흘리며
헬리콥터
시리즈로
드러냈다.
전방으로
첩보
초회
김혜
되었지만,
과거가
don't
몸매
숫자는
##지않게
##데의
법인
##혁,
뭐라고
2016.
미완
교단
브뤼
청원
코가
소재가
2009년에
내용과
데뷔하였다.
지나가던
동영상을
거뒀다.
문과
##준과
지원하지
쇼와
##기본
##옷을
첫사랑
마법에
비즈
있을까?
확정지
아테네
##84
예전의
연세대학교
코카
합창
물량
현대에
맞아서
##곡,
역설
##봉이
##여자고등학교
'B
요우
진군
싶었던
차량으로
기여했다.
베네수에
##선발
황제를
##확률로
견제를
##염의
형을
142
땅이
사범
##착을
단자
##학교에
금발
기술배치
가족과
붐
분야에
9번
##범은
미워
##테는
충실한
나가면
구장
회사는
악성
2는
볼리
신임
블래스터
대비해
라오
플레이로
지명을
서둘러
##총독
고치
##길로
##밀리에
키스를
꼭두
##해지면
12개
##사항이
편에서는
팔꿈
##컨대
지면
앞에서는
조심해야
##마니
라미
공격하여
돈은
도망친
모형
공세
소피아
청량
줄었다.
붙여서
시애틀
편인
##!!"
SHOW
##고자
드러낸다.
패트
실정
멜리
##남자
끌었다.
교내
태블릿
엉덩이
낳았다.
매진
발음은
T-
##림에
##카드가
표기는
##ᆸ니다
라일
잔인한
스폰지
온도
일격에
무궁화
서류
스이
일러스트는
없음.
##appy
경신
##퍼센트
살아있
단계에서
모범
앞장
식스
##회전
맞으며
판다
##기이다.
마니
장갑이
못하면서
않았으며
데려온
생존자
과학기술
##ello
미야자키
핸드폰
그룹이
차세대
##토끼
무명
데서
라이징
##돼지
구독자
Skill
세계대
출연한다.
조종사
##bps
상에서
말하지만
시드니
타치바나
떠서
모드.
소개하는
펌
##IST
보고서
도시는
이치고
##아로
위치에서
넓고
동요
군산
뚜렷한
##묻
폐지되었다.
##AG
##행의
박주
고시
단식
##강에
암컷
3,000
##회담
25일에
껄
##욱은
요미우리
하의
패트릭
##통의
2008년에
DB
예시로
캐리어
외쳐
인류를
##순위로
굴려
카더라.
재혼
표시로
포함한다.
'T
조현
센서
1주
world
##안군
영지
표기가
거치
##빠진
비쇼
##매매
받았다는
콜드
잡아야
##03
관절
음악의
중위
132
##투가
EM
성질
밀리지
흩어
격차가
Arm
빌라
##유지
##티와
아이들은
##ery
썼던
두꺼운
##ward
미스테
관동
##넣는
일각에서는
##술은
기마
##눈에
##전력
되겠
이어지고
멤버인
5~6
효과적으로
잃지
대두
##평가를
종족의
바란
존속
구조로
날아다니
GR
이겼다.
##감의
버금
포세이
##해주지
인과
박병
만들어내는
연구하는
##잔을
##시.
없어져
내륙
버렸
##본은
##성장
미유
13,
##몬,
개념은
Run
##는가
미즈키
대답한다.
미스터리
진도
실력으로
기술과
날아오는
줘야
답변을
##피탈
그릴
공휴
##타로의
쫓아가
바쁘
여주인공
달라는
많아졌다.
미라클
낮지만
정치인이다.
밟고
마나가
서적
재보
##곡.
##었다고.
롤채
소서
빈사
##액이
폭발적인
폭탄이
혼란에
이즈미
김세
양현
##사람이
마테
143
수식
오즈
만년
방황
지금이
까닭
##해왔다.
대박
활약하는
앤더
7.6
포로로
찌질
효율적인
2.1
SG
리아
콧
불확
테러를
삿포
인내
파워업
한글명
스케이팅
씁쓸
##주.
경량
정부와
번째는
스케일
가샤
해와
억압
효율적으로
대위
제1회
##자매
지구에서
##누마
유래한
'불
로테이션
내용도
##s의
시간대에
2:0
하코
숏
가미
미시
##준다는
떨어지기
##asy
##욱,
누군가를
##과정을
대여
처리가
충성을
프리미어리그
WE
강성
##oid
리카
알루미
들었
##너와
##발매
대표는
40분
간선
장면.
프로젝트의
애니메이션을
담당.
줬다.
공유하는
농어
동료들이
삼진으로
##놓는다.
현실에서
지방자치
장착할
밀러
4th
참가하는
발악
추대
간행
최근의
1914년
조인
산책
긍정적으로
15초
온전히
자기의
대법원
소매
편도
##엘은
한중
##종료
역임하였다.
##열,
시절,
사회를
##ning
##~40
##보며
성격.
가능해진다.
##ient
##M@STER
던질
선에서
##틀링
##증의
260
자아내
##코.
270
목소리는
보태
포즈
죽음으로
픽업
졌다.
물리학
탈출한
##상태에
유고슬라
##장이나
격렬한
##횟
시네마틱
pr
브란
우선적으로
쓸데없는
솟아
김인
폭발을
중시하는
대부
이해하고
대표적
공속
로딩
공동으로
4%
파기
등장해서
견인
전반에
종교적
촉구
부수고
급격하게
결정한다.
편이지만,
##규,
간이
득실
벗어날
##옆
Cy
10,000
영국은
고려해
이닝을
Da
이론을
봐선
제국에
말장난
당첨
비교가
Song
직전의
##적이지만
##쯤은
##움의
동안의
튀어나와
말대로
수사를
부화
박세
##염을
전기를
us
거슬
대잠
부활을
중국을
정이
오스카
147
재무
동료들을
난해
정문
##재와
##담당
중년
법원
압권.
##ᆰ아
##확인
행동으로
고생을
알겠지만,
길가메
손수
133
##증은
윤종
시킨다.
운행을
141
"제
감자
부터는
##등은
가르치는
##56
##que
##br&gt;
난폭
규칙을
참가자
인터넷에
##털이
일진
##더로
폼을
성격에
##세이다.
가지지
과정은
성능도
양산형
추종자
##play
낡은
##거라는
지친
중점을
##노르
티가
리턴
하고.
##ely
하겠
리쿠
##영에게
##표의
149
대관
호는
이상할
프랑스는
무대로
##실록
1.9
두번째로
##내어
광양
"C
골치
따라서,
가다가
조직이
이펙트가
질이
동문
애들
1920년
만료
##내서
##더에
##군인
10번
스피어
라이브를
##섭을
스몰
발음을
##ᆯ리아의
##인민공화국의
연사력
모델의
버닝
##느냐고
황당한
결승에서
##타로가
잃는
##52
레귤러
129
검사를
본인을
복면
남구
이형
정벌
방향이
송파
##하세요
일직
##실험
승천
조합은
듀얼리
피하고
천마
파격적인
소리는
다가오는
5:
이었다.
제로의
귀찮은
##기간이
##리니
##운전
##사령부
능력.
사료
화신
들린다.
시즌부터
포함하는
장면으로
열기
천상
가제
스베
EXH
1칸
하네
죽었다는
2개가
##사자
교정
성공하였다.
뛸
##-27
01.
성기
##루에게
평도
업계
앉은
##솔로
활약할
##이스
눈치채고
전자는
그리스도
만드는데
4호
##day
신청을
##동원
짧다.
잠복
의상을
원격
토네이
차이점은
##우주연
##TER
이따
느끼지
B.
코끼리
##근,
본편의
##검으로
28일에
Comm
formula_1
사정거리가
##ship
동대문
뿐만이
슈퍼아머
당분간
##페어
차지하였다.
위협이
##위원회의
쓰러진다.
타니
출처:
쩌
저널
##들었다.
고백을
##저와
모을
풀어주
소설의
제대
##직으로
마이애
##제이다.
패러디한
MD
쓰면서
A,
수컷
이슬라
원인으로
##령과
##통제
재계약
##삼국
&amp;
없었기에
삼성의
일찍이
이들과
대승
발매국가
어중간
지배를
자잘한
NX
제의
##되긴
선천
느껴진다.
나이지
여신의
철회
정당한
차후
관련해
유년
보여주기
U+C
자사
채울
전작에
컨셉이
독보적인
RS
경로
규정이
어지간히
총알을
인식을
##술에
되어도
점령한
##지않은
돕기
제시한
쉐도우
어휘
한다며
팰
##지니아
네코
싸우다
"D
설명에
버전에서는
시도하는
소유자
Im
##만명
##드릭
##오른
당의
양식
수녀
구석에
진을
하나였다.
기록된
특성:
출마하여
떄
순서로
안타까운
프로세
허구
##렌은
정치적인
##뚤
라그나로
3종
조슈
##보수
차분
판단을
푸는
독일군
137
장비의
##~~
가차
##트레
##생,
##랜드를
"전
전세
##물질
##추를
##화되는
##요원
신한은행
친구들
동남아시아
베가
이계
##하든
프랑켄
쓸만하다.
1군에
당하면서
나왔고,
식별
판매가
제사
취하는
1위는
의거
초사이어
##올로
하와이
발키리
백악
1957년
도입된
동물을
교수의
##광의
##스탕
부상이
올리기
##감치
##해야하는
재미가
알았던
호프
착수
하라는
도널드
선도
##케가
철도역이다.
##선택
야당
힘들고
탐구
필살기를
##-26
##관인
디트로이트
##드림
야구를
##랜드가
뭐고
유리하게
##저,
단원
형인
##co
작사,
편이고,
##말은
지금까지의
제거하는
했다면
소환해
##미사일
때보다
대회는
펭귄
##게시
일화
봉인된
깃털
담임
오딘
##비히
후진
겸임
준비해
Not
사용되지
눈은
##리스와
법학
즐거워
행방불명
경이
사이트에
줄은
몰린
발매했다.
지키지
구하고
매스
믹
136
영화로
재미있게
수준이라
현실에
아끼는
해볼
##업자
줄줄이
스타일로
'동
1951년
##가요
빠지지
1936년
표시된다.
##로보
공천
##erm
##묘하게
1938년
##82
비밀리에
상태인
무난히
##tra
##ᆺ집
저가
크러
막힌
해야한다.
배틀을
작성한
라이드
2007년에
##으라는
화합
연의
열차를
태그팀
##정도는
##ham
신촌
리나
원전
##cl
운용하는
##래를
국가로
음악에
미래가
##끈한
기계를
문구
살리
왕따
떨어지게
1,0
벌어질
실패.
커먼
생기기
1점을
##카로
단절
자신에
##직은
닿으면
##oud
보고를
설립되었다.
착용한
횡단
전적으로
미인
배고
침대
못한다고
바쁜
way
##스킬을
예상대로
##민주연합
##그룹의
순수하게
##P의
##턴에
##주의는
2.2
##+10
마른
##부대를
팜
본질
우파
심플
##먹었다.
##ᆷ없이
##경기는
충분하다.
7th
안쓰
##졌다가
초등학교이다.
무의식
대전이
보였으나
아이들에게
Str
엔트리
와서는
커비
She
세균
169
도피
##경쟁
알코올
애드
카운터를
없다!
##명도
##너,
클라이언
몸무게
느낀다.
먼치킨
##님과
##ump
새겨져
저도
유저를
재난
챔피언이
3위로
5층
달리기
재결
목요일
NL
##제인
10일에
친밀
불쌍한
##대며
번만
제작되었다.
##다로
##its
무게를
가지로
##주의,
깨달은
##박물관
##나갈
공격하기
특수능력
##죄를
##위원회가
꾸준한
브라질의
바빠
나서야
처단
막시
떨어지지
##D를
기타를
증상이
##org
대륙의
깨닫게
공격하고
오마쥬
쇼핑몰
단단히
##사태
초필살
커져
아내의
오드
이어질
타석
역에
샴
붙어있다.
피에르
##벨리
어쌔신
F/L
##M의
##FT
근위
##폭격
만약에
##트루
마츠모토
연락이
활동하던
유진
정신력
##ift
Pe
사지
잔여
##수나
내면서
강해진
승리한다.
달라서
발산
개미
진나라
##머리가
흔적을
모셔
##르노
도입한
##았다면
##ERT
무대가
부여한다.
작업이
그리워
느낌.
해밀
평가하는
6차
9년
##해지면서
성형
##디자인
머리는
색깔이
토비
사이에는
플레이어들이
기각
카밀
임상
붙이고
무기력
비교해보면
지켜야
소중히
효과:
로스터
##or]
##vent
취급이
리리
휘둘
투표율
뷰티
##주에게
관해서는
꼽을
치렀다.
Big
Battle
##보안
##노키
송도
##빈,
하였으나,
##눌
세력은
형태.
발라드
##지오
앞둔
한의
초대형
거예
보물을
##팔로
경과
고스란히
해본
그리스의
살린
##퀘스트
##89
##53
마포
유니온
대신하여
움직여
기운이
어린아이
성지
Top
화력은
경우의
기간은
##되기에
공채
매복
매력적인
##정상
자료가
속사
다르기
##?'
신라의
싸우기
합류한다.
##하되
들어가고
오가는
법이
##시즌을
##고사
내무
브릿
##점프
1이닝
4층
에리카
##이나마
##ATION
열차는
비아냥
위시한
쏟아내
CB
보답
발휘한다.
##대비
맞다
순양함
##ious
##시키거나
친근
##하였지만,
도색
자살을
##ᇀ이
스트라
##부상
햇빛
접한
동전
병에
##Fi
##만과
##생들이
폭력을
헌데
이로서
섬으로
리눅
신디
##누가
##위원회는
Ang
##닭
##장소
양평
있을때
저항을
##스럽고
악명이
나탈
중원
방영일
##껍
인증을
줄기
##순히
##링의
해석이
중전차
##륙을
밟아
현존하는
##the
받아들인
아스타
Lv+
##엘이
##일랜드
팔려
데뷔전을
구조물
시타
들자면
먹게
##분과
재등
총선에서
##FFFF
장타율
##다라
##곡동
팔에
항목의
궁지에
##스라는
고령
좋은데
DT
캉
##ᆻ으니까
화려하게
다이노스
건물로
말하길
##-아
##lock
언어로
떨어트
M2
##헐
##ien
원이
애니에서는
꼭두각
want
만들게
등등.
어이없는
프리즘
다이묘
누군가의
CV:
스패
준비하는
노골적으로
강판
가져왔다.
##붕괴
유추
그러지
악세
책의
모드에서는
고양이를
1주차
##니트
##마인
##.80
쌍둥
미니언
Order
1박
GDP
##러운
##간은
TCG
진한
Dragon
##촬영
여인
시점으로
전했다.
계정을
묘사된
##ANC
Des
거두고
표기한다.
유선
가능하고,
과거로
'영
##워진
기준,
선이
##루스의
##교와
작게
##컷이
##anchor]
##카도
외모와
##전공
##취소
9개
신민
언급은
205
##무도
불상
한다.#
맡을
확정.
퍼시픽
있으니까
용아
소속.
아직까지도
맞물려
##케의
순위는
문제이다.
##bl
명에
보여서
씨아
##돈이
교과서
제각
무협
세계관의
애니메이
늘리는
##에가
재팬
어깨에
카타르
XXX
##정에서
경감
##윤이
당하게
##두근
후엔
우습
##테러
삼았다.
##만큼이나
5경기
현황
무기,
크루세이
##이도
출전해
##프닝
사라지지
탄막
정신병
수상하였다.
##시작
대회의
비요
먹튀
지녔다.
더비
차량에
##하라.
##ᆸ기
가산
참여하지
결론적으로
Get
every
##하드
만들었
1993
##스타인
역사적으로
2005년에
죽어가는
style="margin:
가운
##지역의
잘못이
프랑스,
줄어들고
##세기의
왕과
차출
원리
##펜스
찬스
비롯된
버서커
Back
##/25
##게이지
헤딩
con
류의
##ideo
"대
감독,
말아야
넣지
치명상을
##종합운동장
따지자면
##되어있는
종착
AA
사생
##방지
줄이고
안철수
##마드
허브
구성원
재학생
박민
잉크
##처는
심심찮게
UFO
십이
소피
##소득
매입
생각했던
##총장
27일에
입이
##캉
타입이
선보이며
위원회
##일관
전한다.
발의
태도가
다녔다.
최연소
슬럼
셀프
##사라는
일원이
##약의
##시켰고,
포트리스
##조에서
김제
번호를
코스튬
##킬로
알로
살릴
##무네
맞춤
햄버
주재
돌아와서
남아있던
'D
##콘서
발렌시아
지표
##미지
##당해서
##창은
##옥의
GL
않는데
명.
변했다.
러쉬
색채
제공한
인근의
작화감독
스스로가
보나
공사가
승계
필요하다는
누구보다
2006년에
중심지
##주도
러시
등급의
클로즈
연주를
발효
증후
제14
##카운트
읽은
집중적으로
경유지
##두자.
형상을
실시간으로
깁
##마르크
받았으나
##벌의
공격력도
어처구니
애로우
##진도
역시도
출연하여
사랑과
댓글이
받아들일
##타노
벅
가문은
미칠
팍
테르
##ape
새정치
지금까지도
바꿨다.
IDOLM@STER
대사.
##가기
##신에게
결정하는
흔들리는
##3명
적기
코마
낮춰
마비노
첨단
라틴어
##mania
피자
피츠
안중
간편
##예정
영웅은
3시간
부메
민감한
뉴캐슬
도와준
##분야
얕
##됐을
배우로
급기야
신병
탑승한
세리
##레이가
달아나
돋보이는
유학을
##보살
##카츠
매지션
돋보
충실히
왔다갔다
있더라도
##트러
의장
##슛
사랑해
동작을
##1명
오너
눈부
검으로
##까,
방어가
토이
##라이즌
##클립
##yout
도미
##록이
당황한
##학습
허가를
##겹
이야기에
##87
기자가
평민
1명이
고문을
최영
못해도
뒤쳐
적시타를
라이센스
튜토리얼
주석
동등한
19년
전차가
뻗어
굶주
"W
##상인
패에
행동하는
괴롭히는
Act
##섞
때문으로
##아!
때처럼
앤디
##xx
부시
사이좋게
HG
까이는
챈
##서비
##중계
주성
결말을
단연
특성은
옮기
비싸다.
##체에서
##어서,
던진다.
의사소
대전에서
유라
추월
형제가
1인당
##타나
노력하는
"네
more
못하여
라인하르트
시련
취약한
##꼼
분홍색
back
구간의
##부대가
##각은
##캣
징병
거란
무장은
UR
이선
##림은
##청에
키에
##집으로
불가리아
남자와
'안
650
NS
자식이
##앱
골고
감소합니다.
마력이
상상을
좋으면
선제골을
비난하는
'A
##재단
##줘도
설치할
##리우스
모호
배속
사이언
용어를
##먼은
넘어가면
영락
제작하는
법적으로
도구를
아닌지
26일에
보였지만
되거나
그리고는
나라에
데려다
시너지가
오레
##라이너
카자흐
사라질
능동
사망하는
##/19
##건물
단정
##퍼런스
음모를
##냐?"
##led
듀티
사이에선
##블러
웃으면서
발휘할
장신구
Fre
sc
자식을
##군도
1800
##담한
표현할
##/D
##쎄
##선수로
캘
##람쥐
살아서
##과정에서
width=
탑을
##노프
터무니
봉인을
다르다는
명확히
Are
보증
수비가
기세를
좌우로
도검
애리조
예정되어
사기적인
최단
있으므로,
장애인
김태균
##롯
전력으로
전략이
졸업하였다.
1937년
공주의
사이는
데이터가
##성:
와다
2차대전
##시다.
각색
영화.
앞으로의
지름
수뇌
20여
의자
처리를
장소는
어드밴스
묘사는
고민을
마녀의
조조의
제식
확실하다.
##:3으로
빡빡
마오쩌
그토록
더미
3.3
##-N
줌
교란
난투
100년
궁극의
지게
##사상
##적이었던
관문
##광주
장기간
DEF
행성을
취해
##106
놓인
맡기고
Mr.
##기라
1600
##눕
##샤를
오로치
바지
##ing,
로맨스
"H
대출
제16
쏜다.
무상
##았다가
노태
문화의
인지도를
RAM
실무
로키
보니,
채널을
유나이티
임용
That
지적이
집게
##슈의
공격력,
노르웨
##ize
지상에
버터
##해석
R&
##위에서
재평가
##설에
설명했다.
they
##수정
정교회
유스케
내걸
재빠
컨디션
아틀레티
고향인
후계자
##다투
보호하기
Ac
케이지
구자
최재
##투명
더럽게
이송
에우
활약은
##버렸고
3선
GHz
만들어야
아이돌의
##06
원동
배척
계좌
건담의
언급에
SW
기량이
##차도
원한을
존스
친구.
적용되어
바나나
##자스
사바
애써
##시즌에
요소는
요소로
시가지
등에서는
타이베이
됐을
소유한
시대에는
정책에
'바
특화되어
결국,
괴멸
Bar
M1
아이슬
밀린다.
아르바이트
남해
해달라고
카가미
칼데
솔라
##하트
세례
손가락을
빼아
프로그램은
##배는
포지션이
둥글
##갈이
##먼이
22일에
빨려
관할한다.
보쿠
중산
협력을
##좌석
##-35
##식품
비판했다.
2,3
##잖아?
가능했던
표현은
알아보
2배로
장풍
특수부대
선언을
내구도가
18일에
가솔린
Tri
정의를
동국
진의
라시
양상
스태미
##구멍
##하기엔
헤븐
숀
겪게
##꼬리
니콜라
청주시
받아들이는
쉬우
##테를
입시
뮤직뱅크
투여
까였다.
1면
올라가서
충격으로
##라인이
무법
장치가
당당하게
탄도
녹여
엔진의
목표가
방벽
우투
투니버스
줄임
나레이션
합산
유가
작다.
인스타그램
4가지
과부
등급을
##EE
##시계
##샤는
##튼의
명령으로
##기관의
카바
하비
만의
진해
앞세워
화염방사
##겟
레기
쓰며
11회
마늘
날라
상대로도
소송을
##르바
동독
사라지
네모
14,
패배로
기억해
뵈
있나
별개
괴상한
경제학
제다이
오른쪽으로
가한다.
아니야
##-1,
서울로
##틱스
복종
장애물
상품을
##공장
직관
라인하르
##런의
벌어지고
##부짖
'L
있었으니
11일에
전통의
죽어나
##순간
화석
스킬명
종료되었다.
짓밟
보인다는
안토니오
거머
교양
날릴
경기로
##리터
동족
되었습니다.
4화
##인들과
압살
##:00,
스킵
##라인의
마천
##히면서
위태
못하지만
##술,
확인된
수렴
스파크
옥타
한결
위함이
반으로
분위기의
자체로
운영에
예정.
미얀
PSP
하부
진공
뎀
사례로
비키
비늘
##투성이
판매를
4시
알다시피
헌납
스스
회복을
##교자
##-28
명의로
되자,
행위가
우주로
조승
비교해도
붙잡아
파이터즈
2일에
down
준하는
##사관학교
전라도
티켓을
공짜로
##수송
일대를
조달
##관.
백색
8000
##대.
##전.
여부는
망했어
성수
시작하기
등용
정도밖에
뿐이라고
목록에
DO
아들은
근원
FN
##D가
##소재
구스타
그러는
북쪽에
정인
##할을
타나
##랑,
게임,
##ited
부서진
공화당
##번길
재료가
다름없다.
##G,
문명의
교섭
합치면
참고할
##드리게
연결되는
Every
레벨의
여성은
닮아
1대1
허영
XP
간다
괴도
카케
지방에
텔레포
레나
텔레포트
##않고
야전
바뀌게
##zy
##깡
서재
과금
##스트와
수요일
카트라이더
##지리
전폭
주인을
##ute
사기꾼
##조판
커트
1930년
나선다.
이장
자격으로
않다면
##토에
프로세서
F.
동유럽
선거를
##시키려고
##부대의
터미네이
##준비
유해
13일에
##해본
반감을
2TV
##만.
도로를
다친
대지의
차마
면적
싸움은
주루
유지하기
편인데
열을
밝히는
윤성
##법상
타당
함정을
##에서야
성스러운
케인
TN
제외.
뿌리는
##리시
14일에
궁극기를
온게임
저격총
##인사
한,
19대
채운
시기에는
미오
발톱
깨는
일방적인
키우고
##캐논
##바람.
대안
소진
디스코
성공할
법조
빼앗겨
550
할당
빠져서
라이선
갈릴
떨쳐
##해양
아르테
히노
플랑
하면서도
##ᆻ어요.
+5%
Sil
##우스와
넘길
떼어
아틀란
지망
성으로
상당수의
형성된
버드
유비가
##이었다가
날아간다.
남편의
캔디
인생의
요새를
짐작할
때문이라는
사람,
##다스
재차
순조
어머니인
2루수
적들은
분위기에
판단한
인챈트
의도가
영웅으로
조국
비범
제거하고
블로그에
##line
##박사
성공.
조용한
아산
표시가
샤프
동지
하나라도
500만
억지
'강
##름은
##제어
##노코
찌르는
서스
차오
리사
특출
##감소
아쉬움을
많으니
##대책
3일에
성채
베라
17일에
난징
외국어
Em
날로
마법은
촉진
말린
##점인
규정을
Bra
##비언
구세
한스
번거
##찬의
기량
구타
죽인다.
##맞고
쥰
바늘
일어서
끝판
교향곡
미남
제천
134
##부.
##첩이
##락에
1,500
샤이닝
##메이커
한승
18세기
러셀
##나우
않았으나,
"한
고른
4집
5세
##받으며
구성은
장착하고
인기투표
수하
보상은
##미트
##업,
사이트를
##는다는
곡에
이르게
모습의
피해자의
12일에
벗고
##스부르크
순순히
막아서
##옥을
여겨지는
##거린다.
말자
강인
총학생
##받아서
지방선거
상향을
짤막
시스터
##되면서,
내려갔다.
##구미
소셜
따윈
##IVE
건데
이전과
불가피
끼친
수정을
개그를
퍼포먼스를
보정이
멤버를
후보는
맞추고
부대에
##크리트
초,
쓰거나
용과
폭사
##u.
##돔
그것에
Hot
##샹
어우러
에바
낮을
##툭튀
우체
성도
스테이지의
발언이
Amer
Met
##work
##무진
매개
깔고
BASIC
wiz
##핸드
##소하게
##결한
퍼진
Game
정거
##당하며
실황
올림픽에서
##핑을
인상이
세련
##종에
궁수
회복이
##,000명
A4B
GAM
##LD
아날
보였고,
##레와
에피소드에서는
인신
##-1번
격돌
라쿠
위키백과
파운드
가중
##지역에
까다롭다.
##각형
메달을
탈탈
유형의
임의로
##간다는
병사를
##IGHT
잦다.
##들중
내심
병으로
크로스를
KS
유러
치사
웜
상황도
애니메이션이
미네소
울부짖
브라더스
6번째
비대
산체
육식
돌아가고
상임
불합
211
유학생
컨디
2-3
##2에서
사교
자바
국경을
하나하
논란에
헌법재판
관습
대를
부진을
신주쿠
백합
불러서
스콧
7일에
위도우
올리며
##간,
##작이다.
##카드로
막대
광선
참고하자.
스탈린
##발은
사건.
규정에
발생하였다.
하반기
다는
루스
##변의
21일에
구워
50년
##/100
##사노
좋아해서
학교로
광저우
##."라는
Inf
숨겨져
쏴서
##꿔
##만하다.
투구를
출연을
가격도
##사이즈
명확하게
읊
강하
##메리
형식을
+30
가량의
여느
경우에만
평가했다.
어쩌다
##기에게
멱
미처
4단계
세금을
단백질
##손이
쏘고
서버가
##점수
금전
여기선
놀라게
우즈베
WAR
소설이
아역
우위
##~"
호구
볼텍스
제작이
붙여진
않나
명도
상대팀
Int
건너가
사카모토
##83
##내셔널
##모도
##속도는
재개발
가져갔다.
May
노후
단간
애니메이션에서
있냐고
조세
##차에서
영역에
##호:
최고로
그로부터
먹혀
몸에서
29일에
엠파이어
카리스마
##ᆻ어.
이북
도가
후자의
언급하며
활발하게
##었으면
치트
재판을
애초부터
천체
님
##K의
작렬
친구들을
생산된
촛불
체력도
오주
여친
호투
##고.
형의
닿지
##리바
지라
계급은
스크롤
서유럽
##stem
DDR
우츠
##유도
##론으로
CA
타로
잊고
크리스토퍼
KD
인연을
피는
없어진다.
응징
원의
쓰러뜨린
##제네
사라지게
##씨,
Yeah
일들을
##활성
활약하고
혼자만
품질
덩치
330
##ole
##마자키
안드로메다
릴리스
##직에서
절차를
##거리로
##협의
졸지에
플레이어와
찰리
바하
##바인
16일에
묘지
샬로
##하려다가
수련을
##핀의
음양
비행기를
##S,
지나는
논란의
탤런
극적인
시점의
1무
1세는
##찮아
키울
성능의
##.M
찾아오
커뮤니티에서
심문
그만두고
기합
방랑
포털
거치면서
모션을
환원
##잡아
미유키
끊겨
OCG
##럭스
문법
##광역시의
내야수
##깃
스위트
리조
beatmania
마찬가지로,
##다'며
국민의당
##치고,
날의
준다는
03월
노력이
##현에
루트로
먹이는
##white
##HC
불린
체제로
몰라서
튀어나온
받아들이지
##라지
제물로
확고
2개,
손목
만나지
나가사키
과학자
##쯤에
선택지
로봇을
민정
성우를
볼때
랜서
제거할
흉악한
보행
비둘
##청,
깨진
행복하게
상어
광화
역사와
비밀이
톡톡
싱어송
자산
##증,
있음.
편견
며느
밀쳐
##메일
끝낼
예정이었으나
기술배치:
1세가
난이도로
사이퍼
##블랙
##I의
아세
가사는
버전이다.
##O의
독서
##샘
2.6
소문을
들통
2004년에
전제로
##바키아
사실로
존슨
땅에서
항목이
기괴한
반이
##투쟁
##1회
시도한
카테고
어려서
승강장의
홈페이지에서
##2명
##틴의
##시테
사이오닉
##태평
끝없는
##함에도
없음을
##반과
슛을
뭐든지
시나리오를
쾌속
비즈니스
200만
탈당
들어오면
##volution
애로
타워를
도구:
총격
##빈을
묘사한
1위,
2:0으로
못하기
지경.
Bea
WCS
##진영
퇴근
서브컬
##차고지
##ᆼ의
전방에
유지를
남캐
75%
슬레이어
##모양
양주
뽑혀
해결하는
빗나가
취향에
카운트다운
힌두
이범
입학식
+6
##다거나,
게리
토머스
시시
티라노
시스
시발
##조사를
추세
재규
할리우드
Rain
일족의
따르고
##리스가
가즈
놈들이
##기둥
##요는
##일기
중대한
백화
소리.
짊
변수
이강
선원
##중이던
비약
나왔고
사물
일화가
무모
고질적인
부족하다.
##호텔
형태이다.
아쉽
목록이다.
가리고
제스
##갯
애덤
쓰이기도
남편을
##해보이는
틀어막
##어버리
35%
예상치
명백히
2개월
신관
시작을
진행하였다.
엑소
Bu
FR
가문을
##새를
##렬히
보석을
##ᅪᆫ
##체계
메두
##씩이나
배경을
##팬들은
스콜피
사용될
행진
비교해서
켈리
끼치는
의존하는
##ᆻ지
부실한
탓이
Bur
등지
타도
##기도.
##망은
만들었다는
##괴수
이적하였다.
3억
데스크
캐릭터들을
크리스마
해군은
뮤턴
짓는다.
겉으로는
이스터
천문학
현대자동차
##--
모으기
세자
##BOX
##쑥
주,
매수
턴을
몰랐던
사우디아라비아
가둬
학교는
23일에
지켜보고
일찌감치
Moon
수차례
##유리
##승,
##라이징
##신다.
등장했을
##스코어
기동성이
##딘의
먹어치
부두
있다...
작전이
세계관을
##어주면
엮이는
원한다면
50만
아스트랄
##쁘
자판
전까진
오산
팁
Open
FX
마미
남쪽에
##판정이
314
나무위
##54
세기
##구동
건틀
.3
순간부터
밀려나
않음
우승자
위해서라면
목숨이
빌헬름
##코쿠
화면에서
생선
잘린
순차
##되자,
##향의
텍스
무의미
양은
연기했다.
하늘로
생기게
##콜라
상대방에게
모이
포괄
##법이다.
농어촌
##ris
파워가
##i-Fi
##짝이
티셔
유일하다.
##했었던
한겨
바스티
냉전
종족이
닿는
화요일
프론트
골리아
기준.
지나갈
##/17
배상
10일,
잔혹한
딸기
존재했다.
##분류:
세우는
폭발하는
과잉
끝에서
바다로
지킨
끝낸
컨트롤을
타선이
급진
스릴러
피쳐
치중
오면서
타구를
신분을
돌봐
기준은
소련이
스쿼드
##릿을
서면
강사
경기력이
까지는
안쪽
##없게
오케스트라
박태
빈센트
아시안컵
13년
흑역사
유고슬라비아
##섭이
##되나
핵을
때릴
좀비를
인물인
인물들의
싱어송라이
##부여
병이
속성은
##하는건
조교
알면서도
##승의
지분
상태는
##새끼
놀라는
변경되어
이해를
##ner
무차별
생각된다.
넘기고
실어
명예를
##투아니아
포함되었다.
베로
잠들어
'원
##프레스
예뻐
계통의
[[https://
baby
##어어
포탑을
미적
보이자
중반부터
커리어를
연금술사
our
##르르
헬로
웃어
기염을
2.8
Cont
목록은
술탄
A매치
시도가
다수가
##카리
##창한
2019년에
트랩
RF
수퍼
없다가
##콥
##표,
##츠에
전후로
해프닝
여지
왕궁
선수에게
아르바이
런처
good
##더블
##ok.
블라디미르
경사
##공학과
목재
##창,
자세로
##-V
##hy
하리
적정
##현에게
방식.
1950년대
##위한
드래곤이
이적한
냉기
##UK
늑대인간
클라우드
God
가두
어렵다고
##ger
##~18
상경
무성
##변에
느리다.
지못
##소니
연계가
정권이
흐른
평가받는다.
규모는
##몸으로
도망가는
자회
비효율
왔다는
명대
벌을
마도카
미터
FF
##당하면
##측에
리스폰
해봐
신종
##톤을
수료
신봉
##설은
드라마를
중심에
킹스
지탱
##브에
크기로
슬쩍
매트릭
교훈
등장하게
상관없는
4에서
Joh
퐁
##어:
레슬러
창간
던전을
특징으로
체계를
잃을
참여할
##C의
이념
서드
해수
반다이
골고루
시라이
대주
비리
안된다는
북방
'주
마수
차트에서
최형
딕
막론
RP
남긴다.
100m
포함되지
"왜
대검
현장을
갑툭튀
모라
접근하는
셸
지형을
##치에게
부통령
강의를
팻
단골
방향에
'상
참수
##퍼트
##mm,
여부에
동탁
문장을
풍자
그지
레즈
분명한
팔라딘
한타를
따내
추석
##버리며
꼼짝
##수호
##타기
탄소
올림픽에
독자들이
##57
내려찍
진행되면서
던져서
##으므로,
변화는
"안
이신
레스터
##별한
바뀌지
피닉
##이었다
구조는
미군이
투입된
개조한
핸들
##A를
##배에
##몬드
파괴한다.
##룡은
조건에
호무
15일,
범인을
이를테
입장에서도
돌아다니며
매출액
강아지
지장이
##판도
기술인
향년
초반엔
콜로라도
see
시선
##자카
##계회
곡인
##님으로
보기엔
와일
인간들이
##ude
##거와
##스킬이
꿈도
##셋을
그들과
##비지
##출력
##왕으로
여유롭게
선한
쓰다
24일에
랩터
가급적
6.0
썰어
공영
심하면
막바
느리고
존재하는데,
##스타가
회복하는
촉수
학자
싸워야
간만에
울산광역시
거머쥐
Master
##던지,
근래
##"과
##au
무전
##법도
캐릭터도
스텔라
툰
##화하고
붓
투런
터지면서
제작할
잠금
이벤트의
뭐든
20일,
박사는
##시키려는
저스틴
일본군의
네팔
방송은
##특수
HT
다른데,
상황으로
##경찰서
##말라
대대적으로
##장기
오르고
르네상
극소
절도
알아야
ONE
공군의
부식
##벨이
활동할
정체성을
멤버.
스웨덴의
목격한
이전보다
Med
제르
##퍼,
막은
발생하지
미호
패했다.
1달
속에서도
원작을
태클을
차일드
심해서
당해서
##산맥
송은
'구
##당하면서
필드에서
##성이나
강함을
시작하자
산출
보아도
##파이터
레지스탕
131
거행
Comp
##군데
##덕후
흔적
실력도
##09
기체는
직무
날리고
사실상의
아득
지폐
이벤트는
##지긴
##장일
틀:
거리의
살해당한
사카이
들었을
손바닥
에티오
게임상
##정도.
콜라보레이션
##렛을
태도로
놓는다.
기능도
밴쿠
5일에
##ric
##우타
함으로써
부모를
프로그램에서
되살아
##고래
구단의
역사에서
도망칠
고정되어
무승부를
화수
우메
##용사
두른
탄환을
코스모
이쯤되면
어태
##크리스
8%
##ius
##하였다
궁을
성격과
##kr
사용자는
스테파
합류했다.
##중학교,
하시모토
등산
안아
충돌이
쓸쓸
스펙터
te
말부터
명실
팔로
그런데도
여태까지
아슬아슬하게
않았는데,
##밀하게
뽑아서
크라우
어새
향토
대통령과
연사력이
##아웃을
과자
있는가
인테르
##있다가
악마가
불리게
NM
##늠
만류
교무
##기갑
##결이
효과의
백두
카이저
숲에서
우마
돌로
해석할
패러디.
##입을
부분만
A조
도도
독일,
쓸어
얀데레
스맥
공신
쪽도
시전하는
기여를
뱅가드
쟁탈
TEC
출연해
##하다,
Alb
##는지를
시종일관
1과
8일에
NAS
##에나
##보게
Match
##oint
도장
채우는
마쳐
##관계에
##변경
보아,
##첩을
후반으로
에피소드의
##ᆺ타
서는
##이라니
문성
빛나
훈훈한
아날로그
##2.
내성이
연합의
아이디어를
4초
##tv
주술사
프레스
##알라
나뭇잎
##전에선
세션
기록해
##수단
##버섯
캐나
음식이
##냐면서
왼쪽으로
##low
했어도
이야기이다.
나타나고
이뤄진
타라
여동생이
##엔터테인먼트
사이보그
##공동
머리의
떨어진다는
CIA
게임도
##ita
U+B
정윤
좌완
문화적
연주하는
"P
서리
전해지는
에게
##벨의
팬미
메카니
Like
##빔
##서기
##인터
##부리
##정리
##주어
부인이
##orth
수원시
##선언
행복을
베기
말했
##복합
계층
##칸을
내다
##먼의
##팀에서
운동이
앵커
언젠가는
A급
여포
분자
12회
병사가
일부로
경기에서도
##숙이
라이브러
##'에서는
현상은
잡게
항속
##전에서의
패턴으로
##.90
빵빵
부유한
공약
따르지
분리된
3패
승용
악영
마법사가
앨범이다.
흘리는
위저
방학
성범죄
마르티
마더
순항
영상으로
##톤이
소환을
오리진
이룰
시로가
왕위에
인식하고
이나즈마
오마주
스파르타
클리블랜드
버지니아
볼티
버전과
랩을
북한은
거쳐서
##L의
잠이
##움은
승리가
광학
왼쪽에
장르를
비올
배우.
트로이
있는지라
안드
돌리
행방을
플레이는
동안은
획득했다.
나쁘게
폭격기
선형
바라보고
놀란다.
##탁이
공격력:
##항의
타카시
항모
늘릴
다이빙
##떨어진
인페르
체격
##체육관
리키
글자를
2:1
##었음에도
밀린
##218
3루수
##지않고
4위를
호드
휘두르
나이트메어
청취
여의도
반자동
최고급
운동에
say
도로가
최후반
땅볼로
##GM
제품은
파비
기적의
##신한
사람인
팀도
골짜
BRV
얼리
'천
##.G
##레이션을
끝내는
풀네이
##태,
##리어스
몽땅
3DS
Cent
##어머니
올려서
##럼비아
총대
노원
1991
Sky
필연적으로
아아
급상승
##기술을
성장이
오른쪽에
##선다.
버나
라마
시청자들은
##/13
발자
카마
리히
##근은
게르만
Soul
##X의
대북
인맥
설명하고
튀는
높을수록
기지로
전통을
밀란
제외하곤
4천
조율
나가노
디시인사이드
4권
기사는
19일에
##str
수류탄을
3레벨
되던
불능
작업에
##디난
포유
스킬도
낭만
파멸의
시몬
공장에서
중견수
성유
성모
접전
부족해서
젊은이
이코
##오며
영화제
없었으나
흑백
있으니,
추천.
공백을
##동강
일반적으로는
##님께
조선일보
돌리고
30만
전반기
고난
##],
##하에서
예상을
로고가
기어이
##iew
스맥다운
등이다.
##냐에
조선총독
##슬롯
##보조
백만
붙을
맡기도
디렉터
불허
외출
225
##맛을
##스테르
프렌즈
거라며
[...]
