{"version":"1.0","truncation":null,"padding":null,"added_tokens":[{"id":0,"special":true,"content":"[UNK]","single_word":false,"lstrip":false,"rstrip":false,"normalized":false},{"id":1,"special":true,"content":"[CLS]","single_word":false,"lstrip":false,"rstrip":false,"normalized":false},{"id":2,"special":true,"content":"[SEP]","single_word":false,"lstrip":false,"rstrip":false,"normalized":false},{"id":3,"special":true,"content":"[PAD]","single_word":false,"lstrip":false,"rstrip":false,"normalized":false},{"id":4,"special":true,"content":"[MASK]","single_word":false,"lstrip":false,"rstrip":false,"normalized":false}],"normalizer":{"type":"Sequence","normalizers":[{"type":"StripAccents"}]},"pre_tokenizer":{"type":"WhitespaceSplit"},"post_processor":{"type":"TemplateProcessing","single":[{"SpecialToken":{"id":"[CLS]","type_id":0}},{"Sequence":{"id":"A","type_id":0}},{"SpecialToken":{"id":"[SEP]","type_id":0}}],"pair":[{"SpecialToken":{"id":"[CLS]","type_id":0}},{"Sequence":{"id":"A","type_id":0}},{"SpecialToken":{"id":"[SEP]","type_id":0}},{"Sequence":{"id":"B","type_id":1}},{"SpecialToken":{"id":"[SEP]","type_id":1}}],"special_tokens":{"[CLS]":{"id":"[CLS]","ids":[1],"tokens":["[CLS]"]},"[SEP]":{"id":"[SEP]","ids":[2],"tokens":["[SEP]"]}}},"decoder":null,"model":{"type":"WordPiece","unk_token":"[UNK]","continuing_subword_prefix":"##","max_input_chars_per_word":100,"vocab":{"[UNK]":0,"[CLS]":1,"[SEP]":2,"[PAD]":3,"[MASK]":4,"!":5,"\"":6,"#":7,"$":8,"%":9,"&":10,"'":11,"(":12,")":13,"*":14,"+":15,",":16,"-":17,".":18,"/":19,"0":20,"1":21,"2":22,"3":23,"4":24,"5":25,"6":26,"7":27,"8":28,"9":29,":":30,";":31,"<":32,"=":33,">":34,"?":35,"@":36,"A":37,"B":38,"C":39,"D":40,"E":41,"F":42,"G":43,"H":44,"I":45,"J":46,"K":47,"L":48,"M":49,"N":50,"O":51,"P":52,"Q":53,"R":54,"S":55,"T":56,"U":57,"V":58,"W":59,"X":60,"Y":61,"Z":62,"[":63,"\\":64,"]":65,"^":66,"_":67,"`":68,"a":69,"b":70,"c":71,"d":72,"e":73,"f":74,"g":75,"h":76,"i":77,"j":78,"k":79,"l":80,"m":81,"n":82,"o":83,"p":84,"q":85,"r":86,"s":87,"t":88,"u":89,"v":90,"w":91,"x":92,"y":93,"z":94,"{":95,"|":96,"}":97,"~":98,"":99,"ᄀ":100,"ᄆ":101,"ᄇ":102,"ᆫ":103,"ᆯ":104,"ㄱ":105,"ㄲ":106,"ㄳ":107,"ㄴ":108,"ㄵ":109,"ㄶ":110,"ㄷ":111,"ㄸ":112,"ㄹ":113,"ㄺ":114,"ㄻ":115,"ㄼ":116,"ㄽ":117,"ㄾ":118,"ㄿ":119,"ㅀ":120,"ㅁ":121,"ㅂ":122,"ㅃ":123,"ㅄ":124,"ㅅ":125,"ㅆ":126,"ㅇ":127,"ㅈ":128,"ㅉ":129,"ㅊ":130,"ㅋ":131,"ㅌ":132,"ㅍ":133,"ㅎ":134,"ㅏ":135,"ㅐ":136,"ㅑ":137,"ㅒ":138,"ㅓ":139,"ㅔ":140,"ㅕ":141,"ㅖ":142,"ㅗ":143,"ㅘ":144,"ㅙ":145,"ㅚ":146,"ㅛ":147,"ㅜ":148,"ㅝ":149,"ㅞ":150,"ㅟ":151,"ㅠ":152,"ㅡ":153,"ㅢ":154,"ㅣ":155,"가":156,"각":157,"갂":158,"갃":159,"간":160,"갅":161,"갆":162,"갇":163,"갈":164,"갉":165,"갊":166,"갋":167,"갌":168,"갍":169,"갎":170,"갏":171,"감":172,"갑":173,"값":174,"갓":175,"갔":176,"강":177,"갖":178,"갗":179,"갘":180,"같":181,"갚":182,"갛":183,"개":184,"객":185,"갞":186,"갟":187,"갠":188,"갡":189,"갢":190,"갣":191,"갤":192,"갥":193,"갦":194,"갧":195,"갨":196,"갩":197,"갪":198,"갫":199,"갬":200,"갭":201,"갮":202,"갯":203,"갰":204,"갱":205,"갲":206,"갳":207,"갴":208,"갵":209,"갶":210,"갷":211,"갸":212,"갹":213,"갺":214,"갻":215,"갽":216,"갾":217,"갿":218,"걀":219,"걁":220,"걂":221,"걃":222,"걄":223,"걅":224,"걆":225,"걇":226,"걈":227,"걉":228,"걊":229,"걋":230,"걌":231,"걍":232,"걎":233,"걏":234,"걐":235,"걑":236,"걒":237,"걓":238,"걔":239,"걕":240,"걖":241,"걗":242,"걙":243,"걚":244,"걛":245,"걝":246,"걞":247,"걟":248,"걠":249,"걡":250,"걢":251,"걣":252,"걤":253,"걥":254,"걦":255,"걧":256,"걨":257,"걩":258,"걪":259,"걫":260,"걬":261,"걭":262,"걮":263,"걯":264,"거":265,"걱":266,"걲":267,"걳":268,"건":269,"걵":270,"걶":271,"걷":272,"걸":273,"걹":274,"걺":275,"걻":276,"걼":277,"걽":278,"걾":279,"걿":280,"검":281,"겁":282,"겂":283,"것":284,"겄":285,"겅":286,"겆":287,"겇":288,"겈":289,"겉":290,"겊":291,"겋":292,"게":293,"겍":294,"겎":295,"겏":296,"겐":297,"겑":298,"겒":299,"겓":300,"겔":301,"겕":302,"겖":303,"겗":304,"겘":305,"겙":306,"겚":307,"겛":308,"겜":309,"겞":310,"겟":311,"겠":312,"겡":313,"겢":314,"겣":315,"겤":316,"겥":317,"겦":318,"겧":319,"겨":320,"격":321,"겪":322,"겫":323,"견":324,"겭":325,"겮":326,"겯":327,"결":328,"겱":329,"겲":330,"겳":331,"겴":332,"겵":333,"겶":334,"겷":335,"겸":336,"겹":337,"겺":338,"겻":339,"겼":340,"경":341,"겾":342,"겿":343,"곀":344,"곁":345,"곂":346,"곃":347,"계":348,"곅":349,"곆":350,"곇":351,"곈":352,"곉":353,"곊":354,"곋":355,"곌":356,"곍":357,"곎":358,"곏":359,"곐":360,"곑":361,"곒":362,"곓":363,"곔":364,"곕":365,"곖":366,"곗":367,"곘":368,"곙":369,"곚":370,"곛":371,"곜":372,"곝":373,"곞":374,"곟":375,"고":376,"곡":377,"곢":378,"곣":379,"곤":380,"곥":381,"곦":382,"곧":383,"골":384,"곩":385,"곪":386,"곫":387,"곬":388,"곭":389,"곮":390,"곯":391,"곰":392,"곱":393,"곲":394,"곳":395,"곴":396,"공":397,"곶":398,"곷":399,"곸":400,"곹":401,"곺":402,"곻":403,"과":404,"곽":405,"곾":406,"곿":407,"관":408,"괁":409,"괂":410,"괃":411,"괄":412,"괅":413,"괆":414,"괇":415,"괈":416,"괉":417,"괊":418,"괋":419,"괌":420,"괍":421,"괎":422,"괏":423,"괐":424,"광":425,"괒":426,"괓":427,"괔":428,"괕":429,"괖":430,"괗":431,"괘":432,"괙":433,"괚":434,"괛":435,"괜":436,"괝":437,"괞":438,"괟":439,"괠":440,"괡":441,"괢":442,"괣":443,"괤":444,"괥":445,"괦":446,"괧":447,"괨":448,"괩":449,"괪":450,"괫":451,"괬":452,"괭":453,"괮":454,"괯":455,"괰":456,"괱":457,"괲":458,"괳":459,"괴":460,"괵":461,"괶":462,"괷":463,"괸":464,"괹":465,"괺":466,"괻":467,"괼":468,"괽":469,"괾":470,"괿":471,"굀":472,"굁":473,"굂":474,"굃":475,"굄":476,"굅":477,"굆":478,"굇":479,"굈":480,"굉":481,"굊":482,"굋":483,"굌":484,"굍":485,"굎":486,"굏":487,"교":488,"굑":489,"굒":490,"굓":491,"굔":492,"굕":493,"굖":494,"굗":495,"굘":496,"굙":497,"굚":498,"굛":499,"굜":500,"굝":501,"굞":502,"굟":503,"굠":504,"굡":505,"굢":506,"굣":507,"굤":508,"굥":509,"굦":510,"굧":511,"굨":512,"굩":513,"굪":514,"굫":515,"구":516,"국":517,"굮":518,"굯":519,"군":520,"굱":521,"굲":522,"굳":523,"굴":524,"굵":525,"굶":526,"굷":527,"굸":528,"굹":529,"굺":530,"굻":531,"굼":532,"굽":533,"굾":534,"굿":535,"궀":536,"궁":537,"궂":538,"궃":539,"궄":540,"궅":541,"궆":542,"궇":543,"궈":544,"궉":545,"궊":546,"궋":547,"권":548,"궍":549,"궎":550,"궏":551,"궐":552,"궑":553,"궒":554,"궓":555,"궔":556,"궕":557,"궖":558,"궗":559,"궘":560,"궙":561,"궚":562,"궛":563,"궜":564,"궝":565,"궞":566,"궟":567,"궠":568,"궡":569,"궢":570,"궣":571,"궤":572,"궥":573,"궦":574,"궧":575,"궨":576,"궩":577,"궪":578,"궫":579,"궬":580,"궭":581,"궮":582,"궯":583,"궰":584,"궱":585,"궲":586,"궳":587,"궴":588,"궵":589,"궶":590,"궷":591,"궸":592,"궹":593,"궺":594,"궻":595,"궼":596,"궽":597,"궾":598,"궿":599,"귀":600,"귁":601,"귂":602,"귃":603,"귄":604,"귅":605,"귆":606,"귇":607,"귈":608,"귉":609,"귊":610,"귋":611,"귌":612,"귍":613,"귎":614,"귏":615,"귐":616,"귑":617,"귒":618,"귓":619,"귔":620,"귕":621,"귖":622,"귗":623,"귘":624,"귙":625,"귚":626,"귛":627,"규":628,"귝":629,"귞":630,"귟":631,"균":632,"귡":633,"귢":634,"귣":635,"귤":636,"귥":637,"귦":638,"귧":639,"귨":640,"귩":641,"귪":642,"귫":643,"귬":644,"귭":645,"귮":646,"귯":647,"귰":648,"귱":649,"귲":650,"귳":651,"귴":652,"귵":653,"귶":654,"귷":655,"그":656,"극":657,"귺":658,"귻":659,"근":660,"귽":661,"귾":662,"귿":663,"글":664,"긁":665,"긂":666,"긃":667,"긄":668,"긅":669,"긆":670,"긇":671,"금":672,"급":673,"긊":674,"긋":675,"긌":676,"긍":677,"긎":678,"긏":679,"긐":680,"긑":681,"긒":682,"긓":683,"긔":684,"긕":685,"긖":686,"긗":687,"긘":688,"긙":689,"긚":690,"긛":691,"긜":692,"긝":693,"긞":694,"긟":695,"긠":696,"긡":697,"긢":698,"긣":699,"긤":700,"긥":701,"긦":702,"긧":703,"긨":704,"긩":705,"긪":706,"긫":707,"긬":708,"긭":709,"긮":710,"긯":711,"기":712,"긱":713,"긲":714,"긳":715,"긴":716,"긵":717,"긶":718,"긷":719,"길":720,"긹":721,"긺":722,"긻":723,"긼":724,"긽":725,"긾":726,"긿":727,"김":728,"깁":729,"깂":730,"깃":731,"깄":732,"깅":733,"깆":734,"깇":735,"깈":736,"깉":737,"깊":738,"깋":739,"까":740,"깍":741,"깎":742,"깏":743,"깐":744,"깑":745,"깒":746,"깓":747,"깔":748,"깕":749,"깖":750,"깗":751,"깘":752,"깙":753,"깚":754,"깛":755,"깜":756,"깝":757,"깞":758,"깟":759,"깡":760,"깢":761,"깣":762,"깤":763,"깥":764,"깦":765,"깧":766,"깨":767,"깩":768,"깪":769,"깫":770,"깬":771,"깭":772,"깮":773,"깯":774,"깱":775,"깲":776,"깳":777,"깴":778,"깵":779,"깶":780,"깷":781,"깸":782,"깹":783,"깺":784,"깻":785,"깽":786,"깾":787,"깿":788,"꺀":789,"꺁":790,"꺂":791,"꺃":792,"꺄":793,"꺅":794,"꺆":795,"꺇":796,"꺈":797,"꺉":798,"꺊":799,"꺋":800,"꺌":801,"꺍":802,"꺎":803,"꺏":804,"꺐":805,"꺑":806,"꺒":807,"꺓":808,"꺔":809,"꺕":810,"꺖":811,"꺗":812,"꺘":813,"꺙":814,"꺚":815,"꺛":816,"꺜":817,"꺝":818,"꺞":819,"꺟":820,"꺠":821,"꺡":822,"꺢":823,"꺣":824,"꺤":825,"꺥":826,"꺦":827,"꺧":828,"꺨":829,"꺩":830,"꺪":831,"꺫":832,"꺬":833,"꺭":834,"꺮":835,"꺯":836,"꺰":837,"꺱":838,"꺲":839,"꺳":840,"꺴":841,"꺵":842,"꺶":843,"꺷":844,"꺸":845,"꺹":846,"꺺":847,"꺻":848,"꺼":849,"꺽":850,"꺾":851,"꺿":852,"껀":853,"껁":854,"껂":855,"껃":856,"껄":857,"껅":858,"껆":859,"껇":860,"껈":861,"껉":862,"껊":863,"껋":864,"껌":865,"껍":866,"껎":867,"껏":868,"껑":869,"껒":870,"껓":871,"껔":872,"껕":873,"껖":874,"껗":875,"께":876,"껙":877,"껚":878,"껛":879,"껝":880,"껞":881,"껟":882,"껠":883,"껡":884,"껢":885,"껣":886,"껤":887,"껥":888,"껦":889,"껧":890,"껨":891,"껩":892,"껪":893,"껫":894,"껬":895,"껭":896,"껮":897,"껯":898,"껰":899,"껱":900,"껲":901,"껳":902,"껴":903,"껵":904,"껶":905,"껷":906,"껸":907,"껹":908,"껺":909,"껻":910,"껼":911,"껽":912,"껾":913,"껿":914,"꼀":915,"꼁":916,"꼂":917,"꼃":918,"꼄":919,"꼅":920,"꼆":921,"꼇":922,"꼈":923,"꼉":924,"꼊":925,"꼋":926,"꼌":927,"꼍":928,"꼎":929,"꼏":930,"꼐":931,"꼑":932,"꼒":933,"꼓":934,"꼔":935,"꼕":936,"꼖":937,"꼗":938,"꼘":939,"꼙":940,"꼚":941,"꼛":942,"꼜":943,"꼝":944,"꼞":945,"꼟":946,"꼠":947,"꼡":948,"꼢":949,"꼣":950,"꼤":951,"꼥":952,"꼦":953,"꼧":954,"꼨":955,"꼩":956,"꼪":957,"꼫":958,"꼬":959,"꼭":960,"꼮":961,"꼯":962,"꼰":963,"꼱":964,"꼲":965,"꼳":966,"꼴":967,"꼵":968,"꼶":969,"꼷":970,"꼸":971,"꼹":972,"꼺":973,"꼻":974,"꼼":975,"꼽":976,"꼾":977,"꼿":978,"꽀":979,"꽁":980,"꽂":981,"꽃":982,"꽄":983,"꽅":984,"꽆":985,"꽇":986,"꽈":987,"꽉":988,"꽊":989,"꽋":990,"꽌":991,"꽍":992,"꽎":993,"꽏":994,"꽐":995,"꽑":996,"꽒":997,"꽓":998,"꽔":999,"꽕":1000,"꽖":1001,"꽗":1002,"꽘":1003,"꽙":1004,"꽚":1005,"꽛":1006,"꽜":1007,"꽝":1008,"꽞":1009,"꽟":1010,"꽠":1011,"꽡":1012,"꽢":1013,"꽣":1014,"꽤":1015,"꽥":1016,"꽦":1017,"꽧":1018,"꽨":1019,"꽩":1020,"꽪":1021,"꽫":1022,"꽬":1023,"꽭":1024,"꽮":1025,"꽯":1026,"꽰":1027,"꽱":1028,"꽲":1029,"꽳":1030,"꽴":1031,"꽵":1032,"꽶":1033,"꽷":1034,"꽸":1035,"꽹":1036,"꽺":1037,"꽻":1038,"꽼":1039,"꽽":1040,"꽾":1041,"꽿":1042,"꾀":1043,"꾁":1044,"꾂":1045,"꾃":1046,"꾄":1047,"꾅":1048,"꾆":1049,"꾇":1050,"꾈":1051,"꾉":1052,"꾊":1053,"꾋":1054,"꾌":1055,"꾍":1056,"꾎":1057,"꾏":1058,"꾐":1059,"꾑":1060,"꾒":1061,"꾓":1062,"꾔":1063,"꾕":1064,"꾖":1065,"꾗":1066,"꾘":1067,"꾙":1068,"꾚":1069,"꾛":1070,"꾜":1071,"꾝":1072,"꾞":1073,"꾟":1074,"꾠":1075,"꾡":1076,"꾢":1077,"꾣":1078,"꾤":1079,"꾥":1080,"꾦":1081,"꾧":1082,"꾨":1083,"꾩":1084,"꾪":1085,"꾫":1086,"꾬":1087,"꾭":1088,"꾮":1089,"꾯":1090,"꾰":1091,"꾱":1092,"꾲":1093,"꾳":1094,"꾴":1095,"꾵":1096,"꾶":1097,"꾷":1098,"꾸":1099,"꾹":1100,"꾺":1101,"꾻":1102,"꾼":1103,"꾽":1104,"꾾":1105,"꾿":1106,"꿀":1107,"꿁":1108,"꿂":1109,"꿃":1110,"꿄":1111,"꿅":1112,"꿆":1113,"꿇":1114,"꿈":1115,"꿉":1116,"꿊":1117,"꿋":1118,"꿌":1119,"꿍":1120,"꿎":1121,"꿏":1122,"꿐":1123,"꿑":1124,"꿒":1125,"꿓":1126,"꿔":1127,"꿕":1128,"꿖":1129,"꿗":1130,"꿘":1131,"꿙":1132,"꿚":1133,"꿛":1134,"꿜":1135,"꿝":1136,"꿞":1137,"꿟":1138,"꿠":1139,"꿡":1140,"꿢":1141,"꿣":1142,"꿤":1143,"꿥":1144,"꿦":1145,"꿧":1146,"꿨":1147,"꿩":1148,"꿪":1149,"꿫":1150,"꿬":1151,"꿭":1152,"꿮":1153,"꿯":1154,"꿰":1155,"꿱":1156,"꿲":1157,"꿳":1158,"꿵":1159,"꿶":1160,"꿷":1161,"꿹":1162,"꿺":1163,"꿻":1164,"꿼":1165,"꿽":1166,"꿾":1167,"꿿":1168,"뀀":1169,"뀁":1170,"뀂":1171,"뀃":1172,"뀅":1173,"뀆":1174,"뀇":1175,"뀈":1176,"뀉":1177,"뀊":1178,"뀋":1179,"뀌":1180,"뀍":1181,"뀎":1182,"뀏":1183,"뀐":1184,"뀑":1185,"뀒":1186,"뀓":1187,"뀕":1188,"뀖":1189,"뀗":1190,"뀘":1191,"뀙":1192,"뀚":1193,"뀛":1194,"뀜":1195,"뀝":1196,"뀞":1197,"뀟":1198,"뀠":1199,"뀡":1200,"뀢":1201,"뀣":1202,"뀤":1203,"뀥":1204,"뀦":1205,"뀧":1206,"뀨":1207,"뀩":1208,"뀪":1209,"뀫":1210,"뀬":1211,"뀭":1212,"뀮":1213,"뀯":1214,"뀰":1215,"뀱":1216,"뀲":1217,"뀳":1218,"뀴":1219,"뀵":1220,"뀶":1221,"뀷":1222,"뀸":1223,"뀹":1224,"뀺":1225,"뀻":1226,"뀼":1227,"뀽":1228,"뀾":1229,"뀿":1230,"끀":1231,"끁":1232,"끂":1233,"끃":1234,"끄":1235,"끅":1236,"끆":1237,"끇":1238,"끈":1239,"끉":1240,"끊":1241,"끋":1242,"끌":1243,"끍":1244,"끎":1245,"끏":1246,"끐":1247,"끑":1248,"끒":1249,"끓":1250,"끔":1251,"끕":1252,"끖":1253,"끗":1254,"끘":1255,"끙":1256,"끚":1257,"끛":1258,"끜":1259,"끝":1260,"끞":1261,"끟":1262,"끠":1263,"끡":1264,"끢":1265,"끣":1266,"끤":1267,"끥":1268,"끦":1269,"끧":1270,"끨":1271,"끩":1272,"끪":1273,"끫":1274,"끬":1275,"끭":1276,"끮":1277,"끯":1278,"끰":1279,"끱":1280,"끲":1281,"끳":1282,"끴":1283,"끵":1284,"끶":1285,"끷":1286,"끸":1287,"끹":1288,"끺":1289,"끻":1290,"끼":1291,"끽":1292,"끾":1293,"끿":1294,"낀":1295,"낁":1296,"낂":1297,"낃":1298,"낄":1299,"낅":1300,"낆":1301,"낇":1302,"낈":1303,"낉":1304,"낊":1305,"낋":1306,"낌":1307,"낍":1308,"낎":1309,"낏":1310,"낐":1311,"낑":1312,"낒":1313,"낓":1314,"낔":1315,"낕":1316,"낖":1317,"낗":1318,"나":1319,"낙":1320,"낚":1321,"낛":1322,"난":1323,"낝":1324,"낞":1325,"낟":1326,"날":1327,"낡":1328,"낢":1329,"낣":1330,"낤":1331,"낥":1332,"낦":1333,"낧":1334,"남":1335,"납":1336,"낪":1337,"낫":1338,"났":1339,"낭":1340,"낮":1341,"낯":1342,"낰":1343,"낱":1344,"낲":1345,"낳":1346,"내":1347,"낵":1348,"낶":1349,"낷":1350,"낸":1351,"낹":1352,"낺":1353,"낻":1354,"낼":1355,"낽":1356,"낾":1357,"낿":1358,"냀":1359,"냁":1360,"냂":1361,"냃":1362,"냄":1363,"냅":1364,"냆":1365,"냇":1366,"냈":1367,"냉":1368,"냊":1369,"냋":1370,"냌":1371,"냍":1372,"냎":1373,"냏":1374,"냐":1375,"냑":1376,"냒":1377,"냓":1378,"냔":1379,"냕":1380,"냖":1381,"냗":1382,"냘":1383,"냙":1384,"냚":1385,"냛":1386,"냜":1387,"냝":1388,"냞":1389,"냟":1390,"냠":1391,"냡":1392,"냢":1393,"냣":1394,"냤":1395,"냥":1396,"냦":1397,"냧":1398,"냨":1399,"냩":1400,"냪":1401,"냫":1402,"냬":1403,"냭":1404,"냮":1405,"냯":1406,"냰":1407,"냱":1408,"냲":1409,"냳":1410,"냴":1411,"냵":1412,"냶":1413,"냷":1414,"냸":1415,"냹":1416,"냺":1417,"냻":1418,"냼":1419,"냽":1420,"냾":1421,"냿":1422,"넀":1423,"넁":1424,"넂":1425,"넃":1426,"넄":1427,"넅":1428,"넆":1429,"넇":1430,"너":1431,"넉":1432,"넊":1433,"넋":1434,"넌":1435,"넍":1436,"넎":1437,"넏":1438,"널":1439,"넑":1440,"넒":1441,"넓":1442,"넔":1443,"넕":1444,"넖":1445,"넗":1446,"넘":1447,"넙":1448,"넚":1449,"넛":1450,"넜":1451,"넝":1452,"넞":1453,"넟":1454,"넠":1455,"넡":1456,"넢":1457,"넣":1458,"네":1459,"넥":1460,"넦":1461,"넧":1462,"넨":1463,"넩":1464,"넪":1465,"넫":1466,"넬":1467,"넭":1468,"넮":1469,"넯":1470,"넰":1471,"넱":1472,"넲":1473,"넳":1474,"넴":1475,"넵":1476,"넶":1477,"넷":1478,"넸":1479,"넹":1480,"넺":1481,"넻":1482,"넼":1483,"넽":1484,"넾":1485,"넿":1486,"녀":1487,"녁":1488,"녂":1489,"녃":1490,"년":1491,"녅":1492,"녆":1493,"녇":1494,"녈":1495,"녉":1496,"녊":1497,"녋":1498,"녌":1499,"녍":1500,"녎":1501,"녏":1502,"념":1503,"녑":1504,"녒":1505,"녓":1506,"녔":1507,"녕":1508,"녖":1509,"녗":1510,"녘":1511,"녙":1512,"녚":1513,"녛":1514,"녜":1515,"녝":1516,"녞":1517,"녟":1518,"녠":1519,"녡":1520,"녢":1521,"녣":1522,"녤":1523,"녥":1524,"녦":1525,"녧":1526,"녨":1527,"녩":1528,"녪":1529,"녫":1530,"녬":1531,"녭":1532,"녮":1533,"녯":1534,"녰":1535,"녱":1536,"녲":1537,"녳":1538,"녴":1539,"녵":1540,"녶":1541,"녷":1542,"노":1543,"녹":1544,"녺":1545,"녻":1546,"논":1547,"녽":1548,"녾":1549,"녿":1550,"놀":1551,"놁":1552,"놂":1553,"놃":1554,"놄":1555,"놅":1556,"놆":1557,"놇":1558,"놈":1559,"놉":1560,"놊":1561,"놋":1562,"놌":1563,"농":1564,"놎":1565,"놏":1566,"놐":1567,"놑":1568,"높":1569,"놓":1570,"놔":1571,"놕":1572,"놖":1573,"놗":1574,"놘":1575,"놙":1576,"놚":1577,"놛":1578,"놜":1579,"놝":1580,"놞":1581,"놟":1582,"놠":1583,"놡":1584,"놢":1585,"놣":1586,"놤":1587,"놥":1588,"놦":1589,"놧":1590,"놨":1591,"놩":1592,"놪":1593,"놫":1594,"놬":1595,"놭":1596,"놮":1597,"놯":1598,"놰":1599,"놱":1600,"놲":1601,"놳":1602,"놴":1603,"놵":1604,"놶":1605,"놷":1606,"놸":1607,"놹":1608,"놺":1609,"놻":1610,"놼":1611,"놽":1612,"놾":1613,"놿":1614,"뇀":1615,"뇁":1616,"뇂":1617,"뇃":1618,"뇄":1619,"뇅":1620,"뇆":1621,"뇇":1622,"뇈":1623,"뇉":1624,"뇊":1625,"뇋":1626,"뇌":1627,"뇍":1628,"뇎":1629,"뇏":1630,"뇐":1631,"뇑":1632,"뇒":1633,"뇓":1634,"뇔":1635,"뇕":1636,"뇖":1637,"뇗":1638,"뇘":1639,"뇙":1640,"뇚":1641,"뇛":1642,"뇜":1643,"뇝":1644,"뇞":1645,"뇟":1646,"뇠":1647,"뇡":1648,"뇢":1649,"뇣":1650,"뇤":1651,"뇥":1652,"뇦":1653,"뇧":1654,"뇨":1655,"뇩":1656,"뇪":1657,"뇫":1658,"뇬":1659,"뇭":1660,"뇮":1661,"뇯":1662,"뇰":1663,"뇱":1664,"뇲":1665,"뇳":1666,"뇴":1667,"뇵":1668,"뇶":1669,"뇷":1670,"뇸":1671,"뇹":1672,"뇺":1673,"뇻":1674,"뇼":1675,"뇽":1676,"뇾":1677,"뇿":1678,"눀":1679,"눁":1680,"눂":1681,"눃":1682,"누":1683,"눅":1684,"눆":1685,"눇":1686,"눈":1687,"눉":1688,"눊":1689,"눋":1690,"눌":1691,"눍":1692,"눎":1693,"눏":1694,"눐":1695,"눑":1696,"눒":1697,"눓":1698,"눔":1699,"눕":1700,"눖":1701,"눗":1702,"눘":1703,"눙":1704,"눚":1705,"눛":1706,"눜":1707,"눝":1708,"눞":1709,"눟":1710,"눡":1711,"눢":1712,"눣":1713,"눤":1714,"눥":1715,"눦":1716,"눧":1717,"눨":1718,"눩":1719,"눪":1720,"눫":1721,"눬":1722,"눭":1723,"눮":1724,"눯":1725,"눰":1726,"눱":1727,"눲":1728,"눳":1729,"눵":1730,"눶":1731,"눷":1732,"눸":1733,"눹":1734,"눺":1735,"눻":1736,"눼":1737,"눽":1738,"눾":1739,"눿":1740,"뉀":1741,"뉁":1742,"뉂":1743,"뉃":1744,"뉄":1745,"뉅":1746,"뉆":1747,"뉇":1748,"뉈":1749,"뉉":1750,"뉊":1751,"뉋":1752,"뉌":1753,"뉍":1754,"뉎":1755,"뉏":1756,"뉐":1757,"뉑":1758,"뉒":1759,"뉓":1760,"뉔":1761,"뉕":1762,"뉖":1763,"뉗":1764,"뉘":1765,"뉙":1766,"뉚":1767,"뉛":1768,"뉜":1769,"뉝":1770,"뉞":1771,"뉟":1772,"뉡":1773,"뉢":1774,"뉣":1775,"뉤":1776,"뉥":1777,"뉦":1778,"뉧":1779,"뉨":1780,"뉩":1781,"뉪":1782,"뉫":1783,"뉬":1784,"뉭":1785,"뉮":1786,"뉯":1787,"뉰":1788,"뉱":1789,"뉲":1790,"뉳":1791,"뉴":1792,"뉵":1793,"뉶":1794,"뉷":1795,"뉸":1796,"뉹":1797,"뉺":1798,"뉻":1799,"뉼":1800,"뉽":1801,"뉾":1802,"뉿":1803,"늀":1804,"늁":1805,"늂":1806,"늃":1807,"늄":1808,"늅":1809,"늆":1810,"늇":1811,"늈":1812,"늉":1813,"늊":1814,"늋":1815,"늌":1816,"늍":1817,"늎":1818,"늏":1819,"느":1820,"늑":1821,"늒":1822,"늓":1823,"는":1824,"늕":1825,"늖":1826,"늗":1827,"늘":1828,"늙":1829,"늚":1830,"늛":1831,"늜":1832,"늝":1833,"늞":1834,"늟":1835,"늠":1836,"늡":1837,"늢":1838,"늣":1839,"늤":1840,"능":1841,"늦":1842,"늧":1843,"늨":1844,"늩":1845,"늪":1846,"늫":1847,"늬":1848,"늭":1849,"늮":1850,"늯":1851,"늰":1852,"늱":1853,"늲":1854,"늳":1855,"늴":1856,"늵":1857,"늶":1858,"늷":1859,"늸":1860,"늹":1861,"늺":1862,"늻":1863,"늼":1864,"늽":1865,"늾":1866,"늿":1867,"닀":1868,"닁":1869,"닂":1870,"닃":1871,"닄":1872,"닅":1873,"닆":1874,"닇":1875,"니":1876,"닉":1877,"닊":1878,"닋":1879,"닌":1880,"닍":1881,"닎":1882,"닏":1883,"닐":1884,"닑":1885,"닒":1886,"닓":1887,"닔":1888,"닕":1889,"닖":1890,"닗":1891,"님":1892,"닙":1893,"닚":1894,"닛":1895,"닜":1896,"닝":1897,"닞":1898,"닟":1899,"닠":1900,"닡":1901,"닢":1902,"닣":1903,"다":1904,"닥":1905,"닦":1906,"닧":1907,"단":1908,"닩":1909,"닪":1910,"닫":1911,"달":1912,"닭":1913,"닮":1914,"닯":1915,"닰":1916,"닱":1917,"닲":1918,"닳":1919,"담":1920,"답":1921,"닶":1922,"닷":1923,"닸":1924,"당":1925,"닺":1926,"닻":1927,"닼":1928,"닽":1929,"닾":1930,"닿":1931,"대":1932,"댁":1933,"댂":1934,"댃":1935,"댄":1936,"댅":1937,"댆":1938,"댇":1939,"댈":1940,"댉":1941,"댊":1942,"댋":1943,"댌":1944,"댍":1945,"댎":1946,"댏":1947,"댐":1948,"댑":1949,"댒":1950,"댓":1951,"댔":1952,"댕":1953,"댖":1954,"댗":1955,"댘":1956,"댙":1957,"댚":1958,"댛":1959,"댜":1960,"댝":1961,"댞":1962,"댟":1963,"댠":1964,"댡":1965,"댢":1966,"댣":1967,"댤":1968,"댥":1969,"댦":1970,"댧":1971,"댨":1972,"댩":1973,"댪":1974,"댫":1975,"댬":1976,"댭":1977,"댮":1978,"댯":1979,"댰":1980,"댱":1981,"댲":1982,"댳":1983,"댴":1984,"댵":1985,"댶":1986,"댷":1987,"댸":1988,"댹":1989,"댺":1990,"댻":1991,"댼":1992,"댽":1993,"댾":1994,"댿":1995,"덀":1996,"덁":1997,"덂":1998,"덃":1999,"덄":2000,"덅":2001,"덆":2002,"덇":2003,"덈":2004,"덉":2005,"덊":2006,"덋":2007,"덌":2008,"덍":2009,"덎":2010,"덏":2011,"덐":2012,"덑":2013,"덒":2014,"덓":2015,"더":2016,"덕":2017,"덖":2018,"덗":2019,"던":2020,"덙":2021,"덚":2022,"덛":2023,"덜":2024,"덝":2025,"덞":2026,"덟":2027,"덠":2028,"덡":2029,"덢":2030,"덣":2031,"덤":2032,"덥":2033,"덦":2034,"덧":2035,"덨":2036,"덩":2037,"덪":2038,"덫":2039,"덬":2040,"덭":2041,"덮":2042,"덯":2043,"데":2044,"덱":2045,"덲":2046,"덳":2047,"덴":2048,"덵":2049,"덶":2050,"덷":2051,"델":2052,"덹":2053,"덺":2054,"덻":2055,"덼":2056,"덽":2057,"덾":2058,"덿":2059,"뎀":2060,"뎁":2061,"뎂":2062,"뎃":2063,"뎄":2064,"뎅":2065,"뎆":2066,"뎇":2067,"뎈":2068,"뎉":2069,"뎊":2070,"뎋":2071,"뎌":2072,"뎍":2073,"뎎":2074,"뎏":2075,"뎐":2076,"뎑":2077,"뎒":2078,"뎓":2079,"뎔":2080,"뎕":2081,"뎖":2082,"뎗":2083,"뎘":2084,"뎙":2085,"뎚":2086,"뎛":2087,"뎜":2088,"뎝":2089,"뎞":2090,"뎟":2091,"뎠":2092,"뎡":2093,"뎢":2094,"뎣":2095,"뎤":2096,"뎥":2097,"뎦":2098,"뎧":2099,"뎨":2100,"뎩":2101,"뎪":2102,"뎫":2103,"뎬":2104,"뎭":2105,"뎮":2106,"뎯":2107,"뎰":2108,"뎱":2109,"뎲":2110,"뎳":2111,"뎴":2112,"뎵":2113,"뎶":2114,"뎷":2115,"뎸":2116,"뎹":2117,"뎺":2118,"뎻":2119,"뎼":2120,"뎽":2121,"뎾":2122,"뎿":2123,"돀":2124,"돁":2125,"돂":2126,"돃":2127,"도":2128,"독":2129,"돆":2130,"돇":2131,"돈":2132,"돉":2133,"돊":2134,"돋":2135,"돌":2136,"돍":2137,"돎":2138,"돏":2139,"돐":2140,"돑":2141,"돒":2142,"돓":2143,"돔":2144,"돕":2145,"돖":2146,"돗":2147,"돘":2148,"동":2149,"돚":2150,"돛":2151,"돜":2152,"돝":2153,"돞":2154,"돟":2155,"돠":2156,"돡":2157,"돢":2158,"돣":2159,"돤":2160,"돥":2161,"돦":2162,"돧":2163,"돨":2164,"돩":2165,"돪":2166,"돫":2167,"돬":2168,"돭":2169,"돮":2170,"돯":2171,"돰":2172,"돱":2173,"돲":2174,"돳":2175,"돴":2176,"돵":2177,"돶":2178,"돷":2179,"돸":2180,"돹":2181,"돺":2182,"돻":2183,"돼":2184,"돽":2185,"돾":2186,"돿":2187,"됀":2188,"됁":2189,"됂":2190,"됃":2191,"됄":2192,"됅":2193,"됆":2194,"됇":2195,"됈":2196,"됉":2197,"됊":2198,"됋":2199,"됌":2200,"됍":2201,"됎":2202,"됏":2203,"됐":2204,"됑":2205,"됒":2206,"됓":2207,"됔":2208,"됕":2209,"됖":2210,"됗":2211,"되":2212,"됙":2213,"됚":2214,"됛":2215,"된":2216,"됝":2217,"됞":2218,"됟":2219,"될":2220,"됡":2221,"됢":2222,"됣":2223,"됤":2224,"됥":2225,"됦":2226,"됧":2227,"됨":2228,"됩":2229,"됪":2230,"됫":2231,"됬":2232,"됭":2233,"됮":2234,"됯":2235,"됰":2236,"됱":2237,"됲":2238,"됳":2239,"됴":2240,"됵":2241,"됶":2242,"됷":2243,"됸":2244,"됹":2245,"됺":2246,"됻":2247,"됼":2248,"됽":2249,"됾":2250,"됿":2251,"둀":2252,"둁":2253,"둂":2254,"둃":2255,"둄":2256,"둅":2257,"둆":2258,"둇":2259,"둈":2260,"둉":2261,"둊":2262,"둋":2263,"둌":2264,"둍":2265,"둎":2266,"둏":2267,"두":2268,"둑":2269,"둒":2270,"둓":2271,"둔":2272,"둕":2273,"둖":2274,"둗":2275,"둘":2276,"둙":2277,"둚":2278,"둛":2279,"둜":2280,"둝":2281,"둞":2282,"둟":2283,"둠":2284,"둡":2285,"둢":2286,"둣":2287,"둤":2288,"둥":2289,"둦":2290,"둧":2291,"둨":2292,"둩":2293,"둪":2294,"둫":2295,"둬":2296,"둭":2297,"둮":2298,"둯":2299,"둰":2300,"둱":2301,"둲":2302,"둳":2303,"둴":2304,"둵":2305,"둶":2306,"둷":2307,"둸":2308,"둹":2309,"둺":2310,"둻":2311,"둼":2312,"둽":2313,"둾":2314,"둿":2315,"뒁":2316,"뒂":2317,"뒃":2318,"뒄":2319,"뒅":2320,"뒆":2321,"뒇":2322,"뒈":2323,"뒉":2324,"뒊":2325,"뒋":2326,"뒌":2327,"뒍":2328,"뒎":2329,"뒏":2330,"뒐":2331,"뒑":2332,"뒒":2333,"뒓":2334,"뒔":2335,"뒕":2336,"뒖":2337,"뒗":2338,"뒘":2339,"뒙":2340,"뒚":2341,"뒛":2342,"뒜":2343,"뒝":2344,"뒞":2345,"뒟":2346,"뒠":2347,"뒡":2348,"뒢":2349,"뒣":2350,"뒤":2351,"뒥":2352,"뒦":2353,"뒧":2354,"뒨":2355,"뒩":2356,"뒪":2357,"뒫":2358,"뒬":2359,"뒭":2360,"뒮":2361,"뒯":2362,"뒰":2363,"뒱":2364,"뒲":2365,"뒳":2366,"뒴":2367,"뒵":2368,"뒶":2369,"뒷":2370,"뒸":2371,"뒹":2372,"뒺":2373,"뒻":2374,"뒼":2375,"뒽":2376,"뒾":2377,"뒿":2378,"듀":2379,"듁":2380,"듂":2381,"듃":2382,"듄":2383,"듅":2384,"듆":2385,"듇":2386,"듈":2387,"듉":2388,"듊":2389,"듋":2390,"듌":2391,"듍":2392,"듎":2393,"듏":2394,"듐":2395,"듑":2396,"듒":2397,"듓":2398,"듔":2399,"듕":2400,"듖":2401,"듗":2402,"듘":2403,"듙":2404,"듚":2405,"듛":2406,"드":2407,"득":2408,"듞":2409,"듟":2410,"든":2411,"듡":2412,"듢":2413,"듣":2414,"들":2415,"듥":2416,"듦":2417,"듧":2418,"듨":2419,"듩":2420,"듪":2421,"듫":2422,"듬":2423,"듭":2424,"듮":2425,"듯":2426,"듰":2427,"등":2428,"듲":2429,"듳":2430,"듴":2431,"듵":2432,"듶":2433,"듷":2434,"듸":2435,"듹":2436,"듺":2437,"듻":2438,"듼":2439,"듽":2440,"듾":2441,"듿":2442,"딀":2443,"딁":2444,"딂":2445,"딃":2446,"딄":2447,"딅":2448,"딆":2449,"딇":2450,"딈":2451,"딉":2452,"딊":2453,"딋":2454,"딌":2455,"딍":2456,"딎":2457,"딏":2458,"딐":2459,"딑":2460,"딒":2461,"딓":2462,"디":2463,"딕":2464,"딖":2465,"딗":2466,"딘":2467,"딙":2468,"딚":2469,"딛":2470,"딜":2471,"딝":2472,"딞":2473,"딟":2474,"딠":2475,"딡":2476,"딢":2477,"딣":2478,"딤":2479,"딥":2480,"딦":2481,"딧":2482,"딨":2483,"딩":2484,"딪":2485,"딫":2486,"딬":2487,"딭":2488,"딮":2489,"딯":2490,"따":2491,"딱":2492,"딲":2493,"딳":2494,"딴":2495,"딵":2496,"딶":2497,"딷":2498,"딸":2499,"딹":2500,"딺":2501,"딻":2502,"딼":2503,"딽":2504,"딾":2505,"딿":2506,"땀":2507,"땁":2508,"땂":2509,"땃":2510,"땅":2511,"땆":2512,"땇":2513,"땈":2514,"땉":2515,"땊":2516,"땋":2517,"때":2518,"땍":2519,"땎":2520,"땏":2521,"땐":2522,"땑":2523,"땒":2524,"땓":2525,"땔":2526,"땕":2527,"땖":2528,"땗":2529,"땘":2530,"땙":2531,"땚":2532,"땛":2533,"땜":2534,"땝":2535,"땞":2536,"땟":2537,"땠":2538,"땡":2539,"땢":2540,"땣":2541,"땤":2542,"땥":2543,"땦":2544,"땧":2545,"땨":2546,"땩":2547,"땪":2548,"땫":2549,"땬":2550,"땭":2551,"땮":2552,"땯":2553,"땰":2554,"땱":2555,"땲":2556,"땳":2557,"땴":2558,"땵":2559,"땶":2560,"땷":2561,"땸":2562,"땹":2563,"땺":2564,"땻":2565,"땼":2566,"땽":2567,"땾":2568,"땿":2569,"떀":2570,"떁":2571,"떂":2572,"떃":2573,"떄":2574,"떅":2575,"떆":2576,"떇":2577,"떈":2578,"떉":2579,"떊":2580,"떋":2581,"떌":2582,"떍":2583,"떎":2584,"떏":2585,"떐":2586,"떑":2587,"떒":2588,"떓":2589,"떔":2590,"떕":2591,"떖":2592,"떗":2593,"떘":2594,"떙":2595,"떚":2596,"떛":2597,"떜":2598,"떝":2599,"떞":2600,"떟":2601,"떠":2602,"떡":2603,"떢":2604,"떣":2605,"떤":2606,"떥":2607,"떦":2608,"떧":2609,"떨":2610,"떩":2611,"떪":2612,"떫":2613,"떬":2614,"떭":2615,"떮":2616,"떯":2617,"떰":2618,"떱":2619,"떲":2620,"떳":2621,"떵":2622,"떶":2623,"떷":2624,"떸":2625,"떹":2626,"떺":2627,"떻":2628,"떼":2629,"떽":2630,"떾":2631,"떿":2632,"뗀":2633,"뗁":2634,"뗂":2635,"뗃":2636,"뗄":2637,"뗅":2638,"뗆":2639,"뗇":2640,"뗈":2641,"뗉":2642,"뗊":2643,"뗋":2644,"뗌":2645,"뗍":2646,"뗎":2647,"뗏":2648,"뗑":2649,"뗒":2650,"뗓":2651,"뗔":2652,"뗕":2653,"뗖":2654,"뗗":2655,"뗘":2656,"뗙":2657,"뗚":2658,"뗛":2659,"뗜":2660,"뗝":2661,"뗞":2662,"뗟":2663,"뗠":2664,"뗡":2665,"뗢":2666,"뗣":2667,"뗤":2668,"뗥":2669,"뗦":2670,"뗧":2671,"뗨":2672,"뗩":2673,"뗪":2674,"뗫":2675,"뗭":2676,"뗮":2677,"뗯":2678,"뗰":2679,"뗱":2680,"뗲":2681,"뗳":2682,"뗴":2683,"뗵":2684,"뗶":2685,"뗷":2686,"뗸":2687,"뗹":2688,"뗺":2689,"뗻":2690,"뗼":2691,"뗽":2692,"뗾":2693,"뗿":2694,"똀":2695,"똁":2696,"똂":2697,"똃":2698,"똄":2699,"똅":2700,"똆":2701,"똇":2702,"똈":2703,"똉":2704,"똊":2705,"똋":2706,"똌":2707,"똍":2708,"똎":2709,"똏":2710,"또":2711,"똑":2712,"똒":2713,"똓":2714,"똔":2715,"똕":2716,"똖":2717,"똗":2718,"똘":2719,"똙":2720,"똚":2721,"똛":2722,"똜":2723,"똝":2724,"똞":2725,"똟":2726,"똠":2727,"똡":2728,"똢":2729,"똣":2730,"똤":2731,"똥":2732,"똦":2733,"똧":2734,"똨":2735,"똩":2736,"똪":2737,"똫":2738,"똬":2739,"똭":2740,"똮":2741,"똯":2742,"똰":2743,"똱":2744,"똲":2745,"똳":2746,"똴":2747,"똵":2748,"똶":2749,"똷":2750,"똸":2751,"똹":2752,"똺":2753,"똻":2754,"똼":2755,"똽":2756,"똾":2757,"똿":2758,"뙀":2759,"뙁":2760,"뙂":2761,"뙃":2762,"뙄":2763,"뙅":2764,"뙆":2765,"뙇":2766,"뙈":2767,"뙉":2768,"뙊":2769,"뙋":2770,"뙌":2771,"뙍":2772,"뙎":2773,"뙏":2774,"뙐":2775,"뙑":2776,"뙒":2777,"뙓":2778,"뙔":2779,"뙕":2780,"뙖":2781,"뙗":2782,"뙘":2783,"뙙":2784,"뙚":2785,"뙛":2786,"뙜":2787,"뙝":2788,"뙞":2789,"뙟":2790,"뙠":2791,"뙡":2792,"뙢":2793,"뙣":2794,"뙤":2795,"뙥":2796,"뙦":2797,"뙧":2798,"뙨":2799,"뙩":2800,"뙪":2801,"뙫":2802,"뙬":2803,"뙭":2804,"뙮":2805,"뙯":2806,"뙰":2807,"뙱":2808,"뙲":2809,"뙳":2810,"뙴":2811,"뙵":2812,"뙶":2813,"뙷":2814,"뙸":2815,"뙹":2816,"뙺":2817,"뙻":2818,"뙼":2819,"뙽":2820,"뙾":2821,"뙿":2822,"뚀":2823,"뚁":2824,"뚂":2825,"뚃":2826,"뚄":2827,"뚅":2828,"뚆":2829,"뚇":2830,"뚈":2831,"뚉":2832,"뚊":2833,"뚋":2834,"뚌":2835,"뚍":2836,"뚎":2837,"뚏":2838,"뚐":2839,"뚑":2840,"뚒":2841,"뚓":2842,"뚔":2843,"뚕":2844,"뚖":2845,"뚗":2846,"뚘":2847,"뚙":2848,"뚚":2849,"뚛":2850,"뚜":2851,"뚝":2852,"뚞":2853,"뚟":2854,"뚠":2855,"뚡":2856,"뚢":2857,"뚣":2858,"뚤":2859,"뚥":2860,"뚦":2861,"뚧":2862,"뚨":2863,"뚩":2864,"뚪":2865,"뚫":2866,"뚬":2867,"뚭":2868,"뚮":2869,"뚯":2870,"뚰":2871,"뚱":2872,"뚲":2873,"뚳":2874,"뚴":2875,"뚵":2876,"뚶":2877,"뚷":2878,"뚸":2879,"뚹":2880,"뚺":2881,"뚻":2882,"뚼":2883,"뚽":2884,"뚾":2885,"뚿":2886,"뛀":2887,"뛁":2888,"뛂":2889,"뛃":2890,"뛄":2891,"뛅":2892,"뛆":2893,"뛇":2894,"뛈":2895,"뛉":2896,"뛊":2897,"뛋":2898,"뛌":2899,"뛍":2900,"뛎":2901,"뛏":2902,"뛐":2903,"뛑":2904,"뛒":2905,"뛓":2906,"뛔":2907,"뛕":2908,"뛖":2909,"뛗":2910,"뛘":2911,"뛙":2912,"뛚":2913,"뛛":2914,"뛜":2915,"뛝":2916,"뛞":2917,"뛟":2918,"뛠":2919,"뛡":2920,"뛢":2921,"뛣":2922,"뛤":2923,"뛥":2924,"뛦":2925,"뛧":2926,"뛨":2927,"뛩":2928,"뛪":2929,"뛫":2930,"뛬":2931,"뛭":2932,"뛮":2933,"뛯":2934,"뛰":2935,"뛱":2936,"뛲":2937,"뛳":2938,"뛵":2939,"뛶":2940,"뛷":2941,"뛸":2942,"뛹":2943,"뛺":2944,"뛻":2945,"뛼":2946,"뛽":2947,"뛾":2948,"뛿":2949,"뜀":2950,"뜁":2951,"뜂":2952,"뜃":2953,"뜄":2954,"뜅":2955,"뜆":2956,"뜇":2957,"뜈":2958,"뜉":2959,"뜊":2960,"뜋":2961,"뜌":2962,"뜍":2963,"뜎":2964,"뜏":2965,"뜐":2966,"뜑":2967,"뜒":2968,"뜓":2969,"뜔":2970,"뜕":2971,"뜖":2972,"뜗":2973,"뜘":2974,"뜙":2975,"뜚":2976,"뜛":2977,"뜜":2978,"뜝":2979,"뜞":2980,"뜟":2981,"뜠":2982,"뜡":2983,"뜢":2984,"뜣":2985,"뜤":2986,"뜥":2987,"뜦":2988,"뜧":2989,"뜨":2990,"뜩":2991,"뜪":2992,"뜫":2993,"뜬":2994,"뜭":2995,"뜮":2996,"뜯":2997,"뜰":2998,"뜱":2999,"뜲":3000,"뜳":3001,"뜴":3002,"뜵":3003,"뜶":3004,"뜷":3005,"뜸":3006,"뜹":3007,"뜺":3008,"뜻":3009,"뜼":3010,"뜽":3011,"뜾":3012,"뜿":3013,"띀":3014,"띁":3015,"띂":3016,"띃":3017,"띄":3018,"띅":3019,"띆":3020,"띇":3021,"띉":3022,"띊":3023,"띋":3024,"띍":3025,"띎":3026,"띏":3027,"띐":3028,"띑":3029,"띒":3030,"띓":3031,"띔":3032,"띕":3033,"띖":3034,"띗":3035,"띘":3036,"띙":3037,"띚":3038,"띛":3039,"띜":3040,"띝":3041,"띞":3042,"띟":3043,"띠":3044,"띡":3045,"띢":3046,"띣":3047,"띤":3048,"띥":3049,"띦":3050,"띧":3051,"띨":3052,"띩":3053,"띪":3054,"띫":3055,"띬":3056,"띭":3057,"띮":3058,"띯":3059,"띰":3060,"띱":3061,"띲":3062,"띳":3063,"띴":3064,"띵":3065,"띶":3066,"띷":3067,"띸":3068,"띹":3069,"띺":3070,"띻":3071,"라":3072,"락":3073,"띾":3074,"띿":3075,"란":3076,"랁":3077,"랂":3078,"랃":3079,"랄":3080,"랅":3081,"랆":3082,"랇":3083,"랈":3084,"랉":3085,"랊":3086,"랋":3087,"람":3088,"랍":3089,"랎":3090,"랏":3091,"랐":3092,"랑":3093,"랒":3094,"랓":3095,"랔":3096,"랕":3097,"랖":3098,"랗":3099,"래":3100,"랙":3101,"랚":3102,"랛":3103,"랜":3104,"랝":3105,"랞":3106,"랟":3107,"랠":3108,"랡":3109,"랢":3110,"랣":3111,"랤":3112,"랥":3113,"랦":3114,"랧":3115,"램":3116,"랩":3117,"랪":3118,"랫":3119,"랬":3120,"랭":3121,"랮":3122,"랯":3123,"랰":3124,"랱":3125,"랲":3126,"랳":3127,"랴":3128,"략":3129,"랶":3130,"랷":3131,"랸":3132,"랹":3133,"랺":3134,"랻":3135,"랼":3136,"랽":3137,"랾":3138,"랿":3139,"럀":3140,"럁":3141,"럂":3142,"럃":3143,"럄":3144,"럅":3145,"럆":3146,"럇":3147,"럈":3148,"량":3149,"럊":3150,"럋":3151,"럌":3152,"럍":3153,"럎":3154,"럏":3155,"럐":3156,"럑":3157,"럒":3158,"럓":3159,"럔":3160,"럕":3161,"럖":3162,"럗":3163,"럘":3164,"럙":3165,"럚":3166,"럛":3167,"럜":3168,"럝":3169,"럞":3170,"럟":3171,"럠":3172,"럡":3173,"럢":3174,"럣":3175,"럤":3176,"럥":3177,"럦":3178,"럧":3179,"럨":3180,"럩":3181,"럪":3182,"럫":3183,"러":3184,"럭":3185,"럮":3186,"럯":3187,"런":3188,"럱":3189,"럲":3190,"럳":3191,"럴":3192,"럵":3193,"럶":3194,"럷":3195,"럸":3196,"럹":3197,"럺":3198,"럻":3199,"럼":3200,"럽":3201,"럾":3202,"럿":3203,"렀":3204,"렁":3205,"렂":3206,"렃":3207,"렄":3208,"렅":3209,"렆":3210,"렇":3211,"레":3212,"렉":3213,"렊":3214,"렋":3215,"렌":3216,"렍":3217,"렎":3218,"렏":3219,"렐":3220,"렑":3221,"렒":3222,"렓":3223,"렔":3224,"렕":3225,"렖":3226,"렗":3227,"렘":3228,"렙":3229,"렚":3230,"렛":3231,"렜":3232,"렝":3233,"렞":3234,"렟":3235,"렠":3236,"렡":3237,"렢":3238,"렣":3239,"려":3240,"력":3241,"렦":3242,"렧":3243,"련":3244,"렩":3245,"렪":3246,"렫":3247,"렬":3248,"렭":3249,"렮":3250,"렯":3251,"렰":3252,"렱":3253,"렲":3254,"렳":3255,"렴":3256,"렵":3257,"렶":3258,"렷":3259,"렸":3260,"령":3261,"렺":3262,"렻":3263,"렼":3264,"렽":3265,"렾":3266,"렿":3267,"례":3268,"롁":3269,"롂":3270,"롃":3271,"롄":3272,"롅":3273,"롆":3274,"롇":3275,"롈":3276,"롉":3277,"롊":3278,"롋":3279,"롌":3280,"롍":3281,"롎":3282,"롏":3283,"롐":3284,"롑":3285,"롒":3286,"롓":3287,"롔":3288,"롕":3289,"롖":3290,"롗":3291,"롘":3292,"롙":3293,"롚":3294,"롛":3295,"로":3296,"록":3297,"롞":3298,"롟":3299,"론":3300,"롡":3301,"롢":3302,"롣":3303,"롤":3304,"롥":3305,"롦":3306,"롧":3307,"롨":3308,"롩":3309,"롪":3310,"롫":3311,"롬":3312,"롭":3313,"롮":3314,"롯":3315,"롰":3316,"롱":3317,"롲":3318,"롳":3319,"롴":3320,"롵":3321,"롶":3322,"롷":3323,"롸":3324,"롹":3325,"롺":3326,"롻":3327,"롼":3328,"롽":3329,"롾":3330,"롿":3331,"뢀":3332,"뢁":3333,"뢂":3334,"뢃":3335,"뢄":3336,"뢅":3337,"뢆":3338,"뢇":3339,"뢈":3340,"뢉":3341,"뢊":3342,"뢋":3343,"뢌":3344,"뢍":3345,"뢎":3346,"뢏":3347,"뢐":3348,"뢑":3349,"뢒":3350,"뢓":3351,"뢔":3352,"뢕":3353,"뢖":3354,"뢗":3355,"뢘":3356,"뢙":3357,"뢚":3358,"뢛":3359,"뢜":3360,"뢝":3361,"뢞":3362,"뢟":3363,"뢠":3364,"뢡":3365,"뢢":3366,"뢣":3367,"뢤":3368,"뢥":3369,"뢦":3370,"뢧":3371,"뢨":3372,"뢩":3373,"뢪":3374,"뢫":3375,"뢬":3376,"뢭":3377,"뢮":3378,"뢯":3379,"뢰":3380,"뢱":3381,"뢲":3382,"뢳":3383,"뢴":3384,"뢵":3385,"뢶":3386,"뢷":3387,"뢸":3388,"뢹":3389,"뢺":3390,"뢻":3391,"뢼":3392,"뢽":3393,"뢾":3394,"뢿":3395,"룀":3396,"룁":3397,"룂":3398,"룃":3399,"룄":3400,"룅":3401,"룆":3402,"룇":3403,"룈":3404,"룉":3405,"룊":3406,"룋":3407,"료":3408,"룍":3409,"룎":3410,"룏":3411,"룐":3412,"룑":3413,"룒":3414,"룓":3415,"룔":3416,"룕":3417,"룖":3418,"룗":3419,"룘":3420,"룙":3421,"룚":3422,"룛":3423,"룜":3424,"룝":3425,"룞":3426,"룟":3427,"룠":3428,"룡":3429,"룢":3430,"룣":3431,"룤":3432,"룥":3433,"룦":3434,"룧":3435,"루":3436,"룩":3437,"룪":3438,"룫":3439,"룬":3440,"룭":3441,"룮":3442,"룯":3443,"룰":3444,"룱":3445,"룲":3446,"룳":3447,"룴":3448,"룵":3449,"룶":3450,"룷":3451,"룸":3452,"룹":3453,"룺":3454,"룻":3455,"룼":3456,"룽":3457,"룾":3458,"룿":3459,"뤀":3460,"뤁":3461,"뤂":3462,"뤃":3463,"뤄":3464,"뤅":3465,"뤆":3466,"뤇":3467,"뤈":3468,"뤉":3469,"뤊":3470,"뤋":3471,"뤌":3472,"뤍":3473,"뤎":3474,"뤏":3475,"뤐":3476,"뤑":3477,"뤒":3478,"뤓":3479,"뤔":3480,"뤕":3481,"뤖":3482,"뤗":3483,"뤘":3484,"뤙":3485,"뤚":3486,"뤛":3487,"뤜":3488,"뤝":3489,"뤞":3490,"뤟":3491,"뤠":3492,"뤡":3493,"뤢":3494,"뤣":3495,"뤤":3496,"뤥":3497,"뤦":3498,"뤧":3499,"뤨":3500,"뤩":3501,"뤪":3502,"뤫":3503,"뤬":3504,"뤭":3505,"뤮":3506,"뤯":3507,"뤰":3508,"뤱":3509,"뤲":3510,"뤳":3511,"뤴":3512,"뤵":3513,"뤶":3514,"뤷":3515,"뤸":3516,"뤹":3517,"뤺":3518,"뤻":3519,"뤼":3520,"뤽":3521,"뤾":3522,"뤿":3523,"륀":3524,"륁":3525,"륂":3526,"륃":3527,"륄":3528,"륅":3529,"륆":3530,"륇":3531,"륈":3532,"륉":3533,"륊":3534,"륋":3535,"륌":3536,"륍":3537,"륎":3538,"륏":3539,"륐":3540,"륑":3541,"륒":3542,"륓":3543,"륔":3544,"륕":3545,"륖":3546,"륗":3547,"류":3548,"륙":3549,"륚":3550,"륛":3551,"륜":3552,"륝":3553,"륞":3554,"륟":3555,"률":3556,"륡":3557,"륢":3558,"륣":3559,"륤":3560,"륥":3561,"륦":3562,"륧":3563,"륨":3564,"륩":3565,"륪":3566,"륫":3567,"륬":3568,"륭":3569,"륮":3570,"륯":3571,"륰":3572,"륱":3573,"륲":3574,"륳":3575,"르":3576,"륵":3577,"륶":3578,"륷":3579,"른":3580,"륹":3581,"륺":3582,"륻":3583,"를":3584,"륽":3585,"륾":3586,"륿":3587,"릀":3588,"릁":3589,"릂":3590,"릃":3591,"름":3592,"릅":3593,"릆":3594,"릇":3595,"릈":3596,"릉":3597,"릊":3598,"릋":3599,"릌":3600,"릍":3601,"릎":3602,"릏":3603,"릐":3604,"릑":3605,"릒":3606,"릓":3607,"릔":3608,"릕":3609,"릖":3610,"릗":3611,"릘":3612,"릙":3613,"릚":3614,"릛":3615,"릜":3616,"릝":3617,"릞":3618,"릟":3619,"릠":3620,"릡":3621,"릢":3622,"릣":3623,"릤":3624,"릥":3625,"릦":3626,"릧":3627,"릨":3628,"릩":3629,"릪":3630,"릫":3631,"리":3632,"릭":3633,"릮":3634,"릯":3635,"린":3636,"릱":3637,"릲":3638,"릳":3639,"릴":3640,"릵":3641,"릶":3642,"릷":3643,"릸":3644,"릹":3645,"릺":3646,"릻":3647,"림":3648,"립":3649,"릾":3650,"릿":3651,"맀":3652,"링":3653,"맂":3654,"맃":3655,"맄":3656,"맅":3657,"맆":3658,"맇":3659,"마":3660,"막":3661,"맊":3662,"맋":3663,"만":3664,"맍":3665,"많":3666,"맏":3667,"말":3668,"맑":3669,"맒":3670,"맓":3671,"맔":3672,"맕":3673,"맖":3674,"맗":3675,"맘":3676,"맙":3677,"맚":3678,"맛":3679,"맜":3680,"망":3681,"맞":3682,"맟":3683,"맠":3684,"맡":3685,"맢":3686,"맣":3687,"매":3688,"맥":3689,"맦":3690,"맧":3691,"맨":3692,"맩":3693,"맪":3694,"맫":3695,"맬":3696,"맭":3697,"맮":3698,"맯":3699,"맰":3700,"맱":3701,"맲":3702,"맳":3703,"맴":3704,"맵":3705,"맶":3706,"맷":3707,"맹":3708,"맺":3709,"맻":3710,"맼":3711,"맽":3712,"맾":3713,"맿":3714,"먀":3715,"먁":3716,"먂":3717,"먃":3718,"먄":3719,"먅":3720,"먆":3721,"먇":3722,"먈":3723,"먉":3724,"먊":3725,"먋":3726,"먌":3727,"먍":3728,"먎":3729,"먏":3730,"먐":3731,"먑":3732,"먒":3733,"먓":3734,"먔":3735,"먕":3736,"먖":3737,"먗":3738,"먘":3739,"먙":3740,"먚":3741,"먛":3742,"먜":3743,"먝":3744,"먞":3745,"먟":3746,"먠":3747,"먡":3748,"먢":3749,"먣":3750,"먤":3751,"먥":3752,"먦":3753,"먧":3754,"먨":3755,"먩":3756,"먪":3757,"먫":3758,"먬":3759,"먭":3760,"먮":3761,"먯":3762,"먰":3763,"먱":3764,"먲":3765,"먳":3766,"먴":3767,"먵":3768,"먶":3769,"먷":3770,"머":3771,"먹":3772,"먺":3773,"먻":3774,"먼":3775,"먽":3776,"먾":3777,"먿":3778,"멀":3779,"멁":3780,"멂":3781,"멃":3782,"멄":3783,"멅":3784,"멆":3785,"멇":3786,"멈":3787,"멉":3788,"멊":3789,"멋":3790,"멌":3791,"멍":3792,"멎":3793,"멏":3794,"멐":3795,"멑":3796,"멒":3797,"멓":3798,"메":3799,"멕":3800,"멖":3801,"멗":3802,"멘":3803,"멙":3804,"멚":3805,"멛":3806,"멜":3807,"멝":3808,"멞":3809,"멟":3810,"멠":3811,"멡":3812,"멢":3813,"멣":3814,"멤":3815,"멥":3816,"멦":3817,"멧":3818,"멨":3819,"멩":3820,"멪":3821,"멫":3822,"멬":3823,"멭":3824,"멮":3825,"멯":3826,"며":3827,"멱":3828,"멲":3829,"멳":3830,"면":3831,"멵":3832,"멶":3833,"멷":3834,"멸":3835,"멹":3836,"멺":3837,"멻":3838,"멼":3839,"멽":3840,"멾":3841,"멿":3842,"몀":3843,"몁":3844,"몂":3845,"몃":3846,"몄":3847,"명":3848,"몆":3849,"몇":3850,"몈":3851,"몉":3852,"몊":3853,"몋":3854,"몌":3855,"몍":3856,"몎":3857,"몏":3858,"몐":3859,"몑":3860,"몒":3861,"몓":3862,"몔":3863,"몕":3864,"몖":3865,"몗":3866,"몘":3867,"몙":3868,"몚":3869,"몛":3870,"몜":3871,"몝":3872,"몞":3873,"몟":3874,"몠":3875,"몡":3876,"몢":3877,"몣":3878,"몤":3879,"몥":3880,"몦":3881,"몧":3882,"모":3883,"목":3884,"몪":3885,"몫":3886,"몬":3887,"몭":3888,"몮":3889,"몯":3890,"몰":3891,"몱":3892,"몲":3893,"몳":3894,"몴":3895,"몵":3896,"몶":3897,"몷":3898,"몸":3899,"몹":3900,"몺":3901,"못":3902,"몼":3903,"몽":3904,"몾":3905,"몿":3906,"뫀":3907,"뫁":3908,"뫂":3909,"뫃":3910,"뫄":3911,"뫅":3912,"뫆":3913,"뫇":3914,"뫈":3915,"뫉":3916,"뫊":3917,"뫋":3918,"뫌":3919,"뫍":3920,"뫎":3921,"뫏":3922,"뫐":3923,"뫑":3924,"뫒":3925,"뫓":3926,"뫔":3927,"뫕":3928,"뫖":3929,"뫗":3930,"뫘":3931,"뫙":3932,"뫚":3933,"뫛":3934,"뫜":3935,"뫝":3936,"뫞":3937,"뫟":3938,"뫠":3939,"뫡":3940,"뫢":3941,"뫣":3942,"뫤":3943,"뫥":3944,"뫦":3945,"뫧":3946,"뫨":3947,"뫩":3948,"뫪":3949,"뫫":3950,"뫬":3951,"뫭":3952,"뫮":3953,"뫯":3954,"뫰":3955,"뫱":3956,"뫲":3957,"뫳":3958,"뫴":3959,"뫵":3960,"뫶":3961,"뫷":3962,"뫸":3963,"뫹":3964,"뫺":3965,"뫻":3966,"뫼":3967,"뫽":3968,"뫾":3969,"뫿":3970,"묀":3971,"묁":3972,"묂":3973,"묃":3974,"묄":3975,"묅":3976,"묆":3977,"묇":3978,"묈":3979,"묉":3980,"묊":3981,"묋":3982,"묌":3983,"묍":3984,"묎":3985,"묏":3986,"묐":3987,"묑":3988,"묒":3989,"묓":3990,"묔":3991,"묕":3992,"묖":3993,"묗":3994,"묘":3995,"묙":3996,"묚":3997,"묛":3998,"묜":3999,"묝":4000,"묞":4001,"묟":4002,"묠":4003,"묡":4004,"묢":4005,"묣":4006,"묤":4007,"묥":4008,"묦":4009,"묧":4010,"묨":4011,"묩":4012,"묪":4013,"묫":4014,"묬":4015,"묭":4016,"묮":4017,"묯":4018,"묰":4019,"묱":4020,"묲":4021,"묳":4022,"무":4023,"묵":4024,"묶":4025,"묷":4026,"문":4027,"묹":4028,"묺":4029,"묻":4030,"물":4031,"묽":4032,"묾":4033,"묿":4034,"뭀":4035,"뭁":4036,"뭂":4037,"뭃":4038,"뭄":4039,"뭅":4040,"뭆":4041,"뭇":4042,"뭈":4043,"뭉":4044,"뭊":4045,"뭋":4046,"뭌":4047,"뭍":4048,"뭎":4049,"뭏":4050,"뭐":4051,"뭑":4052,"뭒":4053,"뭓":4054,"뭔":4055,"뭕":4056,"뭖":4057,"뭗":4058,"뭘":4059,"뭙":4060,"뭚":4061,"뭛":4062,"뭜":4063,"뭝":4064,"뭞":4065,"뭟":4066,"뭠":4067,"뭡":4068,"뭢":4069,"뭣":4070,"뭤":4071,"뭥":4072,"뭦":4073,"뭧":4074,"뭨":4075,"뭩":4076,"뭪":4077,"뭫":4078,"뭬":4079,"뭭":4080,"뭮":4081,"뭯":4082,"뭰":4083,"뭱":4084,"뭲":4085,"뭳":4086,"뭴":4087,"뭵":4088,"뭶":4089,"뭷":4090,"뭸":4091,"뭹":4092,"뭺":4093,"뭻":4094,"뭼":4095,"뭽":4096,"뭾":4097,"뭿":4098,"뮀":4099,"뮁":4100,"뮂":4101,"뮃":4102,"뮄":4103,"뮅":4104,"뮆":4105,"뮇":4106,"뮈":4107,"뮉":4108,"뮊":4109,"뮋":4110,"뮌":4111,"뮍":4112,"뮎":4113,"뮏":4114,"뮐":4115,"뮑":4116,"뮒":4117,"뮓":4118,"뮔":4119,"뮕":4120,"뮖":4121,"뮗":4122,"뮘":4123,"뮙":4124,"뮚":4125,"뮛":4126,"뮜":4127,"뮝":4128,"뮞":4129,"뮟":4130,"뮠":4131,"뮡":4132,"뮢":4133,"뮣":4134,"뮤":4135,"뮥":4136,"뮦":4137,"뮧":4138,"뮨":4139,"뮩":4140,"뮪":4141,"뮫":4142,"뮬":4143,"뮭":4144,"뮮":4145,"뮯":4146,"뮰":4147,"뮱":4148,"뮲":4149,"뮳":4150,"뮴":4151,"뮵":4152,"뮶":4153,"뮷":4154,"뮸":4155,"뮹":4156,"뮺":4157,"뮻":4158,"뮼":4159,"뮽":4160,"뮾":4161,"뮿":4162,"므":4163,"믁":4164,"믂":4165,"믃":4166,"믄":4167,"믅":4168,"믆":4169,"믇":4170,"믈":4171,"믉":4172,"믊":4173,"믋":4174,"믌":4175,"믍":4176,"믎":4177,"믏":4178,"믐":4179,"믑":4180,"믒":4181,"믓":4182,"믔":4183,"믕":4184,"믖":4185,"믗":4186,"믘":4187,"믙":4188,"믚":4189,"믛":4190,"믜":4191,"믝":4192,"믞":4193,"믟":4194,"믠":4195,"믡":4196,"믢":4197,"믣":4198,"믤":4199,"믥":4200,"믦":4201,"믧":4202,"믨":4203,"믩":4204,"믪":4205,"믫":4206,"믬":4207,"믭":4208,"믮":4209,"믯":4210,"믰":4211,"믱":4212,"믲":4213,"믳":4214,"믴":4215,"믵":4216,"믶":4217,"믷":4218,"미":4219,"믹":4220,"믺":4221,"믻":4222,"민":4223,"믽":4224,"믾":4225,"믿":4226,"밀":4227,"밁":4228,"밂":4229,"밃":4230,"밄":4231,"밅":4232,"밆":4233,"밇":4234,"밈":4235,"밉":4236,"밊":4237,"밋":4238,"밌":4239,"밍":4240,"밎":4241,"및":4242,"밐":4243,"밑":4244,"밒":4245,"밓":4246,"바":4247,"박":4248,"밖":4249,"밗":4250,"반":4251,"밙":4252,"밚":4253,"받":4254,"발":4255,"밝":4256,"밞":4257,"밟":4258,"밠":4259,"밡":4260,"밢":4261,"밣":4262,"밤":4263,"밥":4264,"밦":4265,"밧":4266,"밨":4267,"방":4268,"밪":4269,"밫":4270,"밬":4271,"밭":4272,"밮":4273,"밯":4274,"배":4275,"백":4276,"밲":4277,"밳":4278,"밴":4279,"밵":4280,"밶":4281,"밷":4282,"밸":4283,"밹":4284,"밺":4285,"밻":4286,"밼":4287,"밽":4288,"밾":4289,"밿":4290,"뱀":4291,"뱁":4292,"뱂":4293,"뱃":4294,"뱅":4295,"뱆":4296,"뱇":4297,"뱈":4298,"뱉":4299,"뱊":4300,"뱋":4301,"뱌":4302,"뱍":4303,"뱎":4304,"뱏":4305,"뱐":4306,"뱑":4307,"뱒":4308,"뱓":4309,"뱔":4310,"뱕":4311,"뱖":4312,"뱗":4313,"뱘":4314,"뱙":4315,"뱚":4316,"뱛":4317,"뱜":4318,"뱝":4319,"뱞":4320,"뱟":4321,"뱠":4322,"뱡":4323,"뱢":4324,"뱣":4325,"뱤":4326,"뱥":4327,"뱦":4328,"뱧":4329,"뱨":4330,"뱩":4331,"뱪":4332,"뱫":4333,"뱬":4334,"뱭":4335,"뱮":4336,"뱯":4337,"뱰":4338,"뱱":4339,"뱲":4340,"뱳":4341,"뱴":4342,"뱵":4343,"뱶":4344,"뱷":4345,"뱸":4346,"뱹":4347,"뱺":4348,"뱻":4349,"뱼":4350,"뱽":4351,"뱾":4352,"뱿":4353,"벀":4354,"벁":4355,"벂":4356,"벃":4357,"버":4358,"벅":4359,"벆":4360,"벇":4361,"번":4362,"벉":4363,"벊":4364,"벋":4365,"벌":4366,"벍":4367,"벎":4368,"벏":4369,"벐":4370,"벑":4371,"벒":4372,"벓":4373,"범":4374,"법":4375,"벖":4376,"벗":4377,"벘":4378,"벙":4379,"벚":4380,"벛":4381,"벜":4382,"벝":4383,"벞":4384,"벟":4385,"베":4386,"벡":4387,"벢":4388,"벣":4389,"벤":4390,"벥":4391,"벦":4392,"벧":4393,"벨":4394,"벩":4395,"벪":4396,"벫":4397,"벬":4398,"벭":4399,"벮":4400,"벯":4401,"벰":4402,"벱":4403,"벲":4404,"벳":4405,"벴":4406,"벵":4407,"벶":4408,"벷":4409,"벸":4410,"벹":4411,"벺":4412,"벻":4413,"벼":4414,"벽":4415,"벾":4416,"벿":4417,"변":4418,"볁":4419,"볂":4420,"볃":4421,"별":4422,"볅":4423,"볆":4424,"볇":4425,"볈":4426,"볉":4427,"볊":4428,"볋":4429,"볌":4430,"볍":4431,"볎":4432,"볏":4433,"볐":4434,"병":4435,"볒":4436,"볓":4437,"볔":4438,"볕":4439,"볖":4440,"볗":4441,"볘":4442,"볙":4443,"볚":4444,"볛":4445,"볜":4446,"볝":4447,"볞":4448,"볟":4449,"볠":4450,"볡":4451,"볢":4452,"볣":4453,"볤":4454,"볥":4455,"볦":4456,"볧":4457,"볨":4458,"볩":4459,"볪":4460,"볫":4461,"볬":4462,"볭":4463,"볮":4464,"볯":4465,"볰":4466,"볱":4467,"볲":4468,"볳":4469,"보":4470,"복":4471,"볶":4472,"볷":4473,"본":4474,"볹":4475,"볺":4476,"볻":4477,"볼":4478,"볽":4479,"볾":4480,"볿":4481,"봀":4482,"봁":4483,"봂":4484,"봃":4485,"봄":4486,"봅":4487,"봆":4488,"봇":4489,"봈":4490,"봉":4491,"봊":4492,"봋":4493,"봌":4494,"봍":4495,"봎":4496,"봏":4497,"봐":4498,"봑":4499,"봒":4500,"봓":4501,"봔":4502,"봕":4503,"봖":4504,"봗":4505,"봘":4506,"봙":4507,"봚":4508,"봛":4509,"봜":4510,"봝":4511,"봞":4512,"봟":4513,"봠":4514,"봡":4515,"봢":4516,"봣":4517,"봤":4518,"봥":4519,"봦":4520,"봧":4521,"봨":4522,"봩":4523,"봪":4524,"봫":4525,"봬":4526,"봭":4527,"봮":4528,"봯":4529,"봰":4530,"봱":4531,"봲":4532,"봳":4533,"봴":4534,"봵":4535,"봶":4536,"봷":4537,"봸":4538,"봹":4539,"봺":4540,"봻":4541,"봼":4542,"봽":4543,"봾":4544,"봿":4545,"뵁":4546,"뵂":4547,"뵃":4548,"뵄":4549,"뵅":4550,"뵆":4551,"뵇":4552,"뵈":4553,"뵉":4554,"뵊":4555,"뵋":4556,"뵍":4557,"뵎":4558,"뵏":4559,"뵐":4560,"뵑":4561,"뵒":4562,"뵓":4563,"뵔":4564,"뵕":4565,"뵖":4566,"뵗":4567,"뵘":4568,"뵙":4569,"뵚":4570,"뵛":4571,"뵝":4572,"뵞":4573,"뵟":4574,"뵠":4575,"뵡":4576,"뵢":4577,"뵣":4578,"뵤":4579,"뵥":4580,"뵦":4581,"뵧":4582,"뵨":4583,"뵩":4584,"뵪":4585,"뵫":4586,"뵬":4587,"뵭":4588,"뵮":4589,"뵯":4590,"뵰":4591,"뵱":4592,"뵲":4593,"뵳":4594,"뵴":4595,"뵵":4596,"뵶":4597,"뵷":4598,"뵸":4599,"뵹":4600,"뵺":4601,"뵻":4602,"뵼":4603,"뵽":4604,"뵾":4605,"뵿":4606,"부":4607,"북":4608,"붂":4609,"붃":4610,"분":4611,"붅":4612,"붆":4613,"붇":4614,"불":4615,"붉":4616,"붊":4617,"붋":4618,"붌":4619,"붍":4620,"붎":4621,"붏":4622,"붐":4623,"붑":4624,"붒":4625,"붓":4626,"붔":4627,"붕":4628,"붖":4629,"붗":4630,"붘":4631,"붙":4632,"붚":4633,"붛":4634,"붜":4635,"붝":4636,"붞":4637,"붟":4638,"붠":4639,"붡":4640,"붢":4641,"붣":4642,"붤":4643,"붥":4644,"붦":4645,"붧":4646,"붨":4647,"붩":4648,"붪":4649,"붫":4650,"붬":4651,"붭":4652,"붮":4653,"붯":4654,"붰":4655,"붱":4656,"붲":4657,"붳":4658,"붴":4659,"붵":4660,"붶":4661,"붷":4662,"붸":4663,"붹":4664,"붺":4665,"붻":4666,"붼":4667,"붽":4668,"붾":4669,"붿":4670,"뷀":4671,"뷁":4672,"뷂":4673,"뷃":4674,"뷄":4675,"뷅":4676,"뷆":4677,"뷇":4678,"뷈":4679,"뷉":4680,"뷊":4681,"뷋":4682,"뷌":4683,"뷍":4684,"뷎":4685,"뷏":4686,"뷐":4687,"뷑":4688,"뷒":4689,"뷓":4690,"뷔":4691,"뷕":4692,"뷖":4693,"뷗":4694,"뷘":4695,"뷙":4696,"뷚":4697,"뷛":4698,"뷜":4699,"뷝":4700,"뷞":4701,"뷟":4702,"뷠":4703,"뷡":4704,"뷢":4705,"뷣":4706,"뷤":4707,"뷥":4708,"뷦":4709,"뷧":4710,"뷨":4711,"뷩":4712,"뷪":4713,"뷫":4714,"뷬":4715,"뷭":4716,"뷮":4717,"뷯":4718,"뷰":4719,"뷱":4720,"뷲":4721,"뷳":4722,"뷴":4723,"뷵":4724,"뷶":4725,"뷷":4726,"뷸":4727,"뷹":4728,"뷺":4729,"뷻":4730,"뷼":4731,"뷽":4732,"뷾":4733,"뷿":4734,"븀":4735,"븁":4736,"븂":4737,"븃":4738,"븄":4739,"븅":4740,"븆":4741,"븇":4742,"븈":4743,"븉":4744,"븊":4745,"븋":4746,"브":4747,"븍":4748,"븎":4749,"븏":4750,"븐":4751,"븑":4752,"븒":4753,"븓":4754,"블":4755,"븕":4756,"븖":4757,"븗":4758,"븘":4759,"븙":4760,"븚":4761,"븛":4762,"븜":4763,"븝":4764,"븞":4765,"븟":4766,"븠":4767,"븡":4768,"븢":4769,"븣":4770,"븤":4771,"븥":4772,"븦":4773,"븧":4774,"븨":4775,"븩":4776,"븪":4777,"븫":4778,"븬":4779,"븭":4780,"븮":4781,"븯":4782,"븰":4783,"븱":4784,"븲":4785,"븳":4786,"븴":4787,"븵":4788,"븶":4789,"븷":4790,"븸":4791,"븹":4792,"븺":4793,"븻":4794,"븼":4795,"븽":4796,"븾":4797,"븿":4798,"빀":4799,"빁":4800,"빂":4801,"빃":4802,"비":4803,"빅":4804,"빆":4805,"빇":4806,"빈":4807,"빉":4808,"빊":4809,"빋":4810,"빌":4811,"빍":4812,"빎":4813,"빏":4814,"빐":4815,"빑":4816,"빒":4817,"빓":4818,"빔":4819,"빕":4820,"빖":4821,"빗":4822,"빘":4823,"빙":4824,"빚":4825,"빛":4826,"빜":4827,"빝":4828,"빞":4829,"빟":4830,"빠":4831,"빡":4832,"빢":4833,"빣":4834,"빤":4835,"빥":4836,"빦":4837,"빧":4838,"빨":4839,"빩":4840,"빪":4841,"빫":4842,"빬":4843,"빭":4844,"빮":4845,"빯":4846,"빰":4847,"빱":4848,"빲":4849,"빳":4850,"빴":4851,"빵":4852,"빶":4853,"빷":4854,"빸":4855,"빹":4856,"빺":4857,"빻":4858,"빼":4859,"빽":4860,"빾":4861,"빿":4862,"뺀":4863,"뺁":4864,"뺂":4865,"뺃":4866,"뺄":4867,"뺅":4868,"뺆":4869,"뺇":4870,"뺈":4871,"뺉":4872,"뺊":4873,"뺋":4874,"뺌":4875,"뺍":4876,"뺎":4877,"뺏":4878,"뺐":4879,"뺑":4880,"뺒":4881,"뺓":4882,"뺔":4883,"뺕":4884,"뺖":4885,"뺗":4886,"뺘":4887,"뺙":4888,"뺚":4889,"뺛":4890,"뺜":4891,"뺝":4892,"뺞":4893,"뺟":4894,"뺠":4895,"뺡":4896,"뺢":4897,"뺣":4898,"뺤":4899,"뺥":4900,"뺦":4901,"뺧":4902,"뺨":4903,"뺩":4904,"뺪":4905,"뺫":4906,"뺬":4907,"뺭":4908,"뺮":4909,"뺯":4910,"뺰":4911,"뺱":4912,"뺲":4913,"뺳":4914,"뺴":4915,"뺵":4916,"뺶":4917,"뺷":4918,"뺸":4919,"뺹":4920,"뺺":4921,"뺻":4922,"뺼":4923,"뺽":4924,"뺾":4925,"뺿":4926,"뻀":4927,"뻁":4928,"뻂":4929,"뻃":4930,"뻄":4931,"뻅":4932,"뻆":4933,"뻇":4934,"뻈":4935,"뻉":4936,"뻊":4937,"뻋":4938,"뻌":4939,"뻍":4940,"뻎":4941,"뻏":4942,"뻐":4943,"뻑":4944,"뻒":4945,"뻓":4946,"뻔":4947,"뻕":4948,"뻖":4949,"뻗":4950,"뻘":4951,"뻙":4952,"뻚":4953,"뻛":4954,"뻜":4955,"뻝":4956,"뻞":4957,"뻟":4958,"뻠":4959,"뻡":4960,"뻢":4961,"뻣":4962,"뻤":4963,"뻥":4964,"뻦":4965,"뻧":4966,"뻨":4967,"뻩":4968,"뻪":4969,"뻫":4970,"뻬":4971,"뻭":4972,"뻮":4973,"뻯":4974,"뻰":4975,"뻱":4976,"뻲":4977,"뻳":4978,"뻴":4979,"뻵":4980,"뻶":4981,"뻷":4982,"뻸":4983,"뻹":4984,"뻺":4985,"뻻":4986,"뻼":4987,"뻽":4988,"뻾":4989,"뻿":4990,"뼀":4991,"뼁":4992,"뼂":4993,"뼃":4994,"뼄":4995,"뼅":4996,"뼆":4997,"뼇":4998,"뼈":4999,"뼉":5000,"뼊":5001,"뼋":5002,"뼌":5003,"뼍":5004,"뼎":5005,"뼏":5006,"뼐":5007,"뼑":5008,"뼒":5009,"뼓":5010,"뼔":5011,"뼕":5012,"뼖":5013,"뼗":5014,"뼘":5015,"뼙":5016,"뼚":5017,"뼛":5018,"뼜":5019,"뼝":5020,"뼞":5021,"뼟":5022,"뼠":5023,"뼡":5024,"뼢":5025,"뼣":5026,"뼤":5027,"뼥":5028,"뼦":5029,"뼧":5030,"뼨":5031,"뼩":5032,"뼪":5033,"뼫":5034,"뼬":5035,"뼭":5036,"뼮":5037,"뼯":5038,"뼰":5039,"뼱":5040,"뼲":5041,"뼳":5042,"뼴":5043,"뼵":5044,"뼶":5045,"뼷":5046,"뼸":5047,"뼹":5048,"뼺":5049,"뼻":5050,"뼼":5051,"뼽":5052,"뼾":5053,"뼿":5054,"뽀":5055,"뽁":5056,"뽂":5057,"뽃":5058,"뽄":5059,"뽅":5060,"뽆":5061,"뽇":5062,"뽈":5063,"뽉":5064,"뽊":5065,"뽋":5066,"뽌":5067,"뽍":5068,"뽎":5069,"뽏":5070,"뽐":5071,"뽑":5072,"뽒":5073,"뽓":5074,"뽔":5075,"뽕":5076,"뽖":5077,"뽗":5078,"뽘":5079,"뽙":5080,"뽚":5081,"뽛":5082,"뽜":5083,"뽝":5084,"뽞":5085,"뽟":5086,"뽠":5087,"뽡":5088,"뽢":5089,"뽣":5090,"뽤":5091,"뽥":5092,"뽦":5093,"뽧":5094,"뽨":5095,"뽩":5096,"뽪":5097,"뽫":5098,"뽬":5099,"뽭":5100,"뽮":5101,"뽯":5102,"뽰":5103,"뽱":5104,"뽲":5105,"뽳":5106,"뽴":5107,"뽵":5108,"뽶":5109,"뽷":5110,"뽸":5111,"뽹":5112,"뽺":5113,"뽻":5114,"뽼":5115,"뽽":5116,"뽾":5117,"뽿":5118,"뾀":5119,"뾁":5120,"뾂":5121,"뾃":5122,"뾄":5123,"뾅":5124,"뾆":5125,"뾇":5126,"뾈":5127,"뾉":5128,"뾊":5129,"뾋":5130,"뾌":5131,"뾍":5132,"뾎":5133,"뾏":5134,"뾐":5135,"뾑":5136,"뾒":5137,"뾓":5138,"뾔":5139,"뾕":5140,"뾖":5141,"뾗":5142,"뾘":5143,"뾙":5144,"뾚":5145,"뾛":5146,"뾜":5147,"뾝":5148,"뾞":5149,"뾟":5150,"뾠":5151,"뾡":5152,"뾢":5153,"뾣":5154,"뾤":5155,"뾥":5156,"뾦":5157,"뾧":5158,"뾨":5159,"뾩":5160,"뾪":5161,"뾫":5162,"뾬":5163,"뾭":5164,"뾮":5165,"뾯":5166,"뾰":5167,"뾱":5168,"뾲":5169,"뾳":5170,"뾴":5171,"뾵":5172,"뾶":5173,"뾷":5174,"뾸":5175,"뾹":5176,"뾺":5177,"뾻":5178,"뾼":5179,"뾽":5180,"뾾":5181,"뾿":5182,"뿀":5183,"뿁":5184,"뿂":5185,"뿃":5186,"뿄":5187,"뿅":5188,"뿆":5189,"뿇":5190,"뿈":5191,"뿉":5192,"뿊":5193,"뿋":5194,"뿌":5195,"뿍":5196,"뿎":5197,"뿏":5198,"뿐":5199,"뿑":5200,"뿒":5201,"뿓":5202,"뿔":5203,"뿕":5204,"뿖":5205,"뿗":5206,"뿘":5207,"뿙":5208,"뿚":5209,"뿛":5210,"뿜":5211,"뿝":5212,"뿞":5213,"뿟":5214,"뿡":5215,"뿢":5216,"뿣":5217,"뿤":5218,"뿥":5219,"뿦":5220,"뿧":5221,"뿨":5222,"뿩":5223,"뿪":5224,"뿫":5225,"뿬":5226,"뿭":5227,"뿮":5228,"뿯":5229,"뿰":5230,"뿱":5231,"뿲":5232,"뿳":5233,"뿴":5234,"뿵":5235,"뿶":5236,"뿷":5237,"뿸":5238,"뿹":5239,"뿺":5240,"뿻":5241,"뿼":5242,"뿽":5243,"뿾":5244,"뿿":5245,"쀀":5246,"쀁":5247,"쀂":5248,"쀃":5249,"쀄":5250,"쀅":5251,"쀆":5252,"쀇":5253,"쀈":5254,"쀉":5255,"쀊":5256,"쀋":5257,"쀌":5258,"쀍":5259,"쀎":5260,"쀏":5261,"쀐":5262,"쀑":5263,"쀒":5264,"쀓":5265,"쀔":5266,"쀕":5267,"쀖":5268,"쀗":5269,"쀘":5270,"쀙":5271,"쀚":5272,"쀛":5273,"쀜":5274,"쀝":5275,"쀞":5276,"쀟":5277,"쀠":5278,"쀡":5279,"쀢":5280,"쀣":5281,"쀤":5282,"쀥":5283,"쀦":5284,"쀧":5285,"쀨":5286,"쀩":5287,"쀪":5288,"쀫":5289,"쀬":5290,"쀭":5291,"쀮":5292,"쀯":5293,"쀰":5294,"쀱":5295,"쀲":5296,"쀳":5297,"쀴":5298,"쀵":5299,"쀶":5300,"쀷":5301,"쀸":5302,"쀹":5303,"쀺":5304,"쀻":5305,"쀼":5306,"쀽":5307,"쀾":5308,"쀿":5309,"쁀":5310,"쁁":5311,"쁂":5312,"쁃":5313,"쁄":5314,"쁅":5315,"쁆":5316,"쁇":5317,"쁈":5318,"쁉":5319,"쁊":5320,"쁋":5321,"쁌":5322,"쁍":5323,"쁎":5324,"쁏":5325,"쁐":5326,"쁑":5327,"쁒":5328,"쁓":5329,"쁔":5330,"쁕":5331,"쁖":5332,"쁗":5333,"쁘":5334,"쁙":5335,"쁚":5336,"쁛":5337,"쁜":5338,"쁝":5339,"쁞":5340,"쁟":5341,"쁠":5342,"쁡":5343,"쁢":5344,"쁣":5345,"쁤":5346,"쁥":5347,"쁦":5348,"쁧":5349,"쁨":5350,"쁩":5351,"쁪":5352,"쁫":5353,"쁬":5354,"쁭":5355,"쁮":5356,"쁯":5357,"쁰":5358,"쁱":5359,"쁲":5360,"쁳":5361,"쁴":5362,"쁵":5363,"쁶":5364,"쁷":5365,"쁸":5366,"쁹":5367,"쁺":5368,"쁻":5369,"쁼":5370,"쁽":5371,"쁾":5372,"쁿":5373,"삀":5374,"삁":5375,"삂":5376,"삃":5377,"삄":5378,"삅":5379,"삆":5380,"삇":5381,"삈":5382,"삉":5383,"삊":5384,"삋":5385,"삌":5386,"삍":5387,"삎":5388,"삏":5389,"삐":5390,"삑":5391,"삒":5392,"삓":5393,"삔":5394,"삕":5395,"삖":5396,"삗":5397,"삘":5398,"삙":5399,"삚":5400,"삛":5401,"삜":5402,"삝":5403,"삞":5404,"삟":5405,"삠":5406,"삡":5407,"삢":5408,"삣":5409,"삤":5410,"삥":5411,"삦":5412,"삧":5413,"삨":5414,"삩":5415,"삪":5416,"삫":5417,"사":5418,"삭":5419,"삮":5420,"삯":5421,"산":5422,"삱":5423,"삲":5424,"삳":5425,"살":5426,"삵":5427,"삶":5428,"삷":5429,"삸":5430,"삹":5431,"삺":5432,"삻":5433,"삼":5434,"삽":5435,"삾":5436,"삿":5437,"상":5438,"샂":5439,"샃":5440,"샄":5441,"샅":5442,"샆":5443,"샇":5444,"새":5445,"색":5446,"샊":5447,"샋":5448,"샌":5449,"샍":5450,"샎":5451,"샏":5452,"샐":5453,"샑":5454,"샒":5455,"샓":5456,"샔":5457,"샕":5458,"샖":5459,"샗":5460,"샘":5461,"샙":5462,"샚":5463,"샛":5464,"생":5465,"샞":5466,"샟":5467,"샠":5468,"샡":5469,"샢":5470,"샣":5471,"샤":5472,"샥":5473,"샦":5474,"샧":5475,"샨":5476,"샩":5477,"샪":5478,"샫":5479,"샬":5480,"샭":5481,"샮":5482,"샯":5483,"샰":5484,"샱":5485,"샲":5486,"샳":5487,"샴":5488,"샵":5489,"샶":5490,"샷":5491,"샸":5492,"샹":5493,"샺":5494,"샻":5495,"샼":5496,"샽":5497,"샾":5498,"샿":5499,"섀":5500,"섁":5501,"섂":5502,"섃":5503,"섄":5504,"섅":5505,"섆":5506,"섇":5507,"섈":5508,"섉":5509,"섊":5510,"섋":5511,"섌":5512,"섍":5513,"섎":5514,"섏":5515,"섐":5516,"섑":5517,"섒":5518,"섓":5519,"섔":5520,"섕":5521,"섖":5522,"섗":5523,"섘":5524,"섙":5525,"섚":5526,"섛":5527,"서":5528,"석":5529,"섞":5530,"섟":5531,"선":5532,"섡":5533,"섢":5534,"섣":5535,"설":5536,"섥":5537,"섦":5538,"섧":5539,"섨":5540,"섩":5541,"섪":5542,"섫":5543,"섬":5544,"섭":5545,"섮":5546,"섯":5547,"섰":5548,"성":5549,"섲":5550,"섳":5551,"섴":5552,"섵":5553,"섶":5554,"섷":5555,"세":5556,"섹":5557,"섺":5558,"섻":5559,"센":5560,"섽":5561,"섿":5562,"셀":5563,"셁":5564,"셂":5565,"셃":5566,"셄":5567,"셅":5568,"셆":5569,"셇":5570,"셈":5571,"셉":5572,"셊":5573,"셋":5574,"셍":5575,"셎":5576,"셏":5577,"셐":5578,"셑":5579,"셒":5580,"셓":5581,"셔":5582,"셕":5583,"셖":5584,"셗":5585,"션":5586,"셙":5587,"셚":5588,"셛":5589,"셜":5590,"셝":5591,"셞":5592,"셟":5593,"셠":5594,"셡":5595,"셢":5596,"셣":5597,"셤":5598,"셥":5599,"셦":5600,"셧":5601,"셨":5602,"셩":5603,"셪":5604,"셫":5605,"셬":5606,"셭":5607,"셮":5608,"셯":5609,"셰":5610,"셱":5611,"셲":5612,"셳":5613,"셴":5614,"셵":5615,"셶":5616,"셷":5617,"셸":5618,"셹":5619,"셺":5620,"셻":5621,"셼":5622,"셽":5623,"셾":5624,"셿":5625,"솀":5626,"솁":5627,"솂":5628,"솃":5629,"솄":5630,"솅":5631,"솆":5632,"솇":5633,"솈":5634,"솉":5635,"솊":5636,"솋":5637,"소":5638,"속":5639,"솎":5640,"솏":5641,"손":5642,"솑":5643,"솒":5644,"솓":5645,"솔":5646,"솕":5647,"솖":5648,"솗":5649,"솘":5650,"솙":5651,"솚":5652,"솛":5653,"솜":5654,"솝":5655,"솞":5656,"솟":5657,"솠":5658,"송":5659,"솢":5660,"솣":5661,"솤":5662,"솥":5663,"솦":5664,"솧":5665,"솨":5666,"솩":5667,"솪":5668,"솫":5669,"솬":5670,"솭":5671,"솮":5672,"솯":5673,"솰":5674,"솱":5675,"솲":5676,"솳":5677,"솴":5678,"솵":5679,"솶":5680,"솷":5681,"솸":5682,"솹":5683,"솺":5684,"솻":5685,"솼":5686,"솽":5687,"솾":5688,"솿":5689,"쇀":5690,"쇁":5691,"쇂":5692,"쇃":5693,"쇄":5694,"쇅":5695,"쇆":5696,"쇇":5697,"쇈":5698,"쇉":5699,"쇊":5700,"쇋":5701,"쇌":5702,"쇍":5703,"쇎":5704,"쇏":5705,"쇐":5706,"쇑":5707,"쇒":5708,"쇓":5709,"쇔":5710,"쇕":5711,"쇖":5712,"쇗":5713,"쇘":5714,"쇙":5715,"쇚":5716,"쇛":5717,"쇜":5718,"쇝":5719,"쇞":5720,"쇟":5721,"쇠":5722,"쇡":5723,"쇢":5724,"쇣":5725,"쇤":5726,"쇥":5727,"쇦":5728,"쇧":5729,"쇨":5730,"쇩":5731,"쇪":5732,"쇫":5733,"쇬":5734,"쇭":5735,"쇮":5736,"쇯":5737,"쇰":5738,"쇱":5739,"쇲":5740,"쇳":5741,"쇴":5742,"쇵":5743,"쇶":5744,"쇷":5745,"쇸":5746,"쇹":5747,"쇺":5748,"쇻":5749,"쇼":5750,"쇽":5751,"쇾":5752,"쇿":5753,"숀":5754,"숁":5755,"숂":5756,"숃":5757,"숄":5758,"숅":5759,"숆":5760,"숇":5761,"숈":5762,"숉":5763,"숊":5764,"숋":5765,"숌":5766,"숍":5767,"숎":5768,"숏":5769,"숐":5770,"숑":5771,"숒":5772,"숓":5773,"숔":5774,"숕":5775,"숖":5776,"숗":5777,"수":5778,"숙":5779,"숚":5780,"숛":5781,"순":5782,"숝":5783,"숞":5784,"숟":5785,"술":5786,"숡":5787,"숢":5788,"숣":5789,"숤":5790,"숥":5791,"숦":5792,"숧":5793,"숨":5794,"숩":5795,"숪":5796,"숫":5797,"숬":5798,"숭":5799,"숮":5800,"숯":5801,"숰":5802,"숱":5803,"숲":5804,"숳":5805,"숴":5806,"숵":5807,"숶":5808,"숷":5809,"숸":5810,"숹":5811,"숺":5812,"숻":5813,"숼":5814,"숽":5815,"숾":5816,"숿":5817,"쉀":5818,"쉁":5819,"쉂":5820,"쉃":5821,"쉄":5822,"쉅":5823,"쉆":5824,"쉇":5825,"쉈":5826,"쉉":5827,"쉊":5828,"쉋":5829,"쉌":5830,"쉍":5831,"쉎":5832,"쉏":5833,"쉐":5834,"쉑":5835,"쉒":5836,"쉓":5837,"쉔":5838,"쉕":5839,"쉖":5840,"쉗":5841,"쉘":5842,"쉙":5843,"쉚":5844,"쉛":5845,"쉜":5846,"쉝":5847,"쉞":5848,"쉟":5849,"쉠":5850,"쉡":5851,"쉢":5852,"쉣":5853,"쉤":5854,"쉥":5855,"쉦":5856,"쉧":5857,"쉨":5858,"쉩":5859,"쉪":5860,"쉫":5861,"쉬":5862,"쉭":5863,"쉮":5864,"쉯":5865,"쉰":5866,"쉱":5867,"쉲":5868,"쉳":5869,"쉴":5870,"쉵":5871,"쉶":5872,"쉷":5873,"쉸":5874,"쉹":5875,"쉺":5876,"쉻":5877,"쉼":5878,"쉽":5879,"쉾":5880,"쉿":5881,"슀":5882,"슁":5883,"슂":5884,"슃":5885,"슄":5886,"슅":5887,"슆":5888,"슇":5889,"슈":5890,"슉":5891,"슊":5892,"슋":5893,"슌":5894,"슍":5895,"슎":5896,"슏":5897,"슐":5898,"슑":5899,"슒":5900,"슓":5901,"슔":5902,"슕":5903,"슖":5904,"슗":5905,"슘":5906,"슙":5907,"슚":5908,"슛":5909,"슜":5910,"슝":5911,"슞":5912,"슟":5913,"슠":5914,"슡":5915,"슢":5916,"슣":5917,"스":5918,"슥":5919,"슦":5920,"슧":5921,"슨":5922,"슩":5923,"슪":5924,"슫":5925,"슬":5926,"슭":5927,"슮":5928,"슯":5929,"슰":5930,"슱":5931,"슲":5932,"슳":5933,"슴":5934,"습":5935,"슶":5936,"슷":5937,"슸":5938,"승":5939,"슺":5940,"슻":5941,"슼":5942,"슽":5943,"슾":5944,"슿":5945,"싀":5946,"싁":5947,"싂":5948,"싃":5949,"싄":5950,"싅":5951,"싆":5952,"싇":5953,"싈":5954,"싉":5955,"싊":5956,"싋":5957,"싌":5958,"싍":5959,"싎":5960,"싏":5961,"싐":5962,"싑":5963,"싒":5964,"싓":5965,"싔":5966,"싕":5967,"싖":5968,"싗":5969,"싘":5970,"싙":5971,"싚":5972,"싛":5973,"시":5974,"식":5975,"싞":5976,"싟":5977,"신":5978,"싡":5979,"싢":5980,"싣":5981,"실":5982,"싥":5983,"싦":5984,"싧":5985,"싨":5986,"싩":5987,"싪":5988,"싫":5989,"심":5990,"십":5991,"싮":5992,"싯":5993,"싰":5994,"싱":5995,"싲":5996,"싳":5997,"싴":5998,"싵":5999,"싶":6000,"싷":6001,"싸":6002,"싹":6003,"싺":6004,"싻":6005,"싼":6006,"싽":6007,"싾":6008,"싿":6009,"쌀":6010,"쌁":6011,"쌂":6012,"쌃":6013,"쌄":6014,"쌅":6015,"쌆":6016,"쌇":6017,"쌈":6018,"쌉":6019,"쌊":6020,"쌋":6021,"쌍":6022,"쌎":6023,"쌏":6024,"쌐":6025,"쌑":6026,"쌒":6027,"쌓":6028,"쌔":6029,"쌕":6030,"쌖":6031,"쌗":6032,"쌘":6033,"쌙":6034,"쌚":6035,"쌛":6036,"쌜":6037,"쌝":6038,"쌞":6039,"쌟":6040,"쌠":6041,"쌡":6042,"쌢":6043,"쌣":6044,"쌤":6045,"쌥":6046,"쌦":6047,"쌧":6048,"쌩":6049,"쌪":6050,"쌫":6051,"쌬":6052,"쌭":6053,"쌮":6054,"쌯":6055,"쌰":6056,"쌱":6057,"쌲":6058,"쌳":6059,"쌴":6060,"쌵":6061,"쌶":6062,"쌷":6063,"쌸":6064,"쌹":6065,"쌺":6066,"쌻":6067,"쌼":6068,"쌽":6069,"쌾":6070,"쌿":6071,"썀":6072,"썁":6073,"썂":6074,"썃":6075,"썄":6076,"썅":6077,"썆":6078,"썇":6079,"썈":6080,"썉":6081,"썊":6082,"썋":6083,"썌":6084,"썍":6085,"썎":6086,"썏":6087,"썐":6088,"썑":6089,"썒":6090,"썓":6091,"썔":6092,"썕":6093,"썖":6094,"썗":6095,"썘":6096,"썙":6097,"썚":6098,"썛":6099,"썜":6100,"썝":6101,"썞":6102,"썟":6103,"썠":6104,"썡":6105,"썢":6106,"썣":6107,"썤":6108,"썥":6109,"썦":6110,"썧":6111,"써":6112,"썩":6113,"썪":6114,"썫":6115,"썬":6116,"썭":6117,"썮":6118,"썯":6119,"썰":6120,"썱":6121,"썲":6122,"썳":6123,"썴":6124,"썵":6125,"썶":6126,"썷":6127,"썸":6128,"썹":6129,"썺":6130,"썻":6131,"썼":6132,"썽":6133,"썾":6134,"썿":6135,"쎀":6136,"쎁":6137,"쎂":6138,"쎃":6139,"쎄":6140,"쎅":6141,"쎆":6142,"쎇":6143,"쎈":6144,"쎉":6145,"쎊":6146,"쎋":6147,"쎌":6148,"쎍":6149,"쎎":6150,"쎏":6151,"쎐":6152,"쎑":6153,"쎒":6154,"쎓":6155,"쎔":6156,"쎕":6157,"쎖":6158,"쎗":6159,"쎙":6160,"쎚":6161,"쎛":6162,"쎜":6163,"쎝":6164,"쎞":6165,"쎟":6166,"쎠":6167,"쎡":6168,"쎢":6169,"쎣":6170,"쎤":6171,"쎥":6172,"쎦":6173,"쎧":6174,"쎨":6175,"쎩":6176,"쎪":6177,"쎫":6178,"쎬":6179,"쎭":6180,"쎮":6181,"쎯":6182,"쎰":6183,"쎱":6184,"쎲":6185,"쎳":6186,"쎴":6187,"쎵":6188,"쎶":6189,"쎷":6190,"쎸":6191,"쎹":6192,"쎺":6193,"쎻":6194,"쎼":6195,"쎽":6196,"쎾":6197,"쎿":6198,"쏀":6199,"쏁":6200,"쏂":6201,"쏃":6202,"쏄":6203,"쏅":6204,"쏆":6205,"쏇":6206,"쏈":6207,"쏉":6208,"쏊":6209,"쏋":6210,"쏌":6211,"쏍":6212,"쏎":6213,"쏏":6214,"쏐":6215,"쏑":6216,"쏒":6217,"쏓":6218,"쏔":6219,"쏕":6220,"쏖":6221,"쏗":6222,"쏘":6223,"쏙":6224,"쏚":6225,"쏛":6226,"쏜":6227,"쏝":6228,"쏞":6229,"쏟":6230,"쏠":6231,"쏡":6232,"쏢":6233,"쏣":6234,"쏤":6235,"쏥":6236,"쏦":6237,"쏧":6238,"쏨":6239,"쏩":6240,"쏪":6241,"쏫":6242,"쏬":6243,"쏭":6244,"쏮":6245,"쏯":6246,"쏰":6247,"쏱":6248,"쏲":6249,"쏳":6250,"쏴":6251,"쏵":6252,"쏶":6253,"쏷":6254,"쏸":6255,"쏹":6256,"쏺":6257,"쏻":6258,"쏼":6259,"쏽":6260,"쏾":6261,"쏿":6262,"쐀":6263,"쐁":6264,"쐂":6265,"쐃":6266,"쐄":6267,"쐅":6268,"쐆":6269,"쐇":6270,"쐉":6271,"쐊":6272,"쐋":6273,"쐌":6274,"쐍":6275,"쐎":6276,"쐏":6277,"쐐":6278,"쐑":6279,"쐒":6280,"쐓":6281,"쐔":6282,"쐕":6283,"쐖":6284,"쐗":6285,"쐘":6286,"쐙":6287,"쐚":6288,"쐛":6289,"쐜":6290,"쐝":6291,"쐞":6292,"쐟":6293,"쐠":6294,"쐡":6295,"쐢":6296,"쐣":6297,"쐤":6298,"쐥":6299,"쐦":6300,"쐧":6301,"쐨":6302,"쐩":6303,"쐪":6304,"쐫":6305,"쐬":6306,"쐭":6307,"쐮":6308,"쐯":6309,"쐱":6310,"쐲":6311,"쐳":6312,"쐵":6313,"쐶":6314,"쐷":6315,"쐸":6316,"쐹":6317,"쐺":6318,"쐻":6319,"쐼":6320,"쐽":6321,"쐾":6322,"쐿":6323,"쑀":6324,"쑁":6325,"쑂":6326,"쑃":6327,"쑄":6328,"쑅":6329,"쑆":6330,"쑇":6331,"쑈":6332,"쑉":6333,"쑊":6334,"쑋":6335,"쑌":6336,"쑍":6337,"쑎":6338,"쑏":6339,"쑐":6340,"쑑":6341,"쑒":6342,"쑓":6343,"쑔":6344,"쑕":6345,"쑖":6346,"쑗":6347,"쑘":6348,"쑙":6349,"쑚":6350,"쑛":6351,"쑜":6352,"쑝":6353,"쑞":6354,"쑟":6355,"쑠":6356,"쑡":6357,"쑢":6358,"쑣":6359,"쑤":6360,"쑥":6361,"쑦":6362,"쑧":6363,"쑨":6364,"쑩":6365,"쑪":6366,"쑫":6367,"쑭":6368,"쑮":6369,"쑯":6370,"쑰":6371,"쑱":6372,"쑲":6373,"쑳":6374,"쑴":6375,"쑵":6376,"쑶":6377,"쑷":6378,"쑸":6379,"쑹":6380,"쑺":6381,"쑻":6382,"쑼":6383,"쑽":6384,"쑾":6385,"쑿":6386,"쒀":6387,"쒁":6388,"쒂":6389,"쒃":6390,"쒄":6391,"쒅":6392,"쒆":6393,"쒇":6394,"쒈":6395,"쒉":6396,"쒊":6397,"쒋":6398,"쒌":6399,"쒍":6400,"쒎":6401,"쒏":6402,"쒐":6403,"쒑":6404,"쒒":6405,"쒓":6406,"쒕":6407,"쒖":6408,"쒗":6409,"쒘":6410,"쒙":6411,"쒚":6412,"쒛":6413,"쒜":6414,"쒝":6415,"쒞":6416,"쒟":6417,"쒠":6418,"쒡":6419,"쒢":6420,"쒣":6421,"쒤":6422,"쒥":6423,"쒦":6424,"쒧":6425,"쒨":6426,"쒩":6427,"쒪":6428,"쒫":6429,"쒬":6430,"쒭":6431,"쒮":6432,"쒯":6433,"쒰":6434,"쒱":6435,"쒲":6436,"쒳":6437,"쒴":6438,"쒵":6439,"쒶":6440,"쒷":6441,"쒸":6442,"쒹":6443,"쒺":6444,"쒻":6445,"쒽":6446,"쒾":6447,"쒿":6448,"쓀":6449,"쓁":6450,"쓂":6451,"쓃":6452,"쓄":6453,"쓅":6454,"쓆":6455,"쓇":6456,"쓈":6457,"쓉":6458,"쓊":6459,"쓋":6460,"쓌":6461,"쓍":6462,"쓎":6463,"쓏":6464,"쓐":6465,"쓑":6466,"쓒":6467,"쓓":6468,"쓔":6469,"쓕":6470,"쓖":6471,"쓗":6472,"쓘":6473,"쓙":6474,"쓚":6475,"쓛":6476,"쓜":6477,"쓝":6478,"쓞":6479,"쓟":6480,"쓠":6481,"쓡":6482,"쓢":6483,"쓣":6484,"쓤":6485,"쓥":6486,"쓦":6487,"쓧":6488,"쓨":6489,"쓩":6490,"쓪":6491,"쓫":6492,"쓬":6493,"쓭":6494,"쓮":6495,"쓯":6496,"쓰":6497,"쓱":6498,"쓲":6499,"쓳":6500,"쓴":6501,"쓵":6502,"쓶":6503,"쓷":6504,"쓸":6505,"쓹":6506,"쓺":6507,"쓻":6508,"쓼":6509,"쓽":6510,"쓾":6511,"쓿":6512,"씀":6513,"씁":6514,"씂":6515,"씃":6516,"씄":6517,"씅":6518,"씆":6519,"씇":6520,"씈":6521,"씉":6522,"씊":6523,"씋":6524,"씌":6525,"씍":6526,"씎":6527,"씏":6528,"씑":6529,"씒":6530,"씓":6531,"씔":6532,"씕":6533,"씖":6534,"씗":6535,"씘":6536,"씙":6537,"씚":6538,"씛":6539,"씜":6540,"씝":6541,"씞":6542,"씟":6543,"씠":6544,"씡":6545,"씢":6546,"씣":6547,"씤":6548,"씥":6549,"씦":6550,"씧":6551,"씨":6552,"씩":6553,"씪":6554,"씫":6555,"씬":6556,"씭":6557,"씮":6558,"씯":6559,"씰":6560,"씱":6561,"씲":6562,"씳":6563,"씴":6564,"씵":6565,"씶":6566,"씷":6567,"씸":6568,"씹":6569,"씺":6570,"씻":6571,"씼":6572,"씽":6573,"씾":6574,"씿":6575,"앀":6576,"앁":6577,"앂":6578,"앃":6579,"아":6580,"악":6581,"앆":6582,"앇":6583,"안":6584,"앉":6585,"않":6586,"앋":6587,"알":6588,"앍":6589,"앎":6590,"앏":6591,"앐":6592,"앑":6593,"앒":6594,"앓":6595,"암":6596,"압":6597,"앖":6598,"앗":6599,"았":6600,"앙":6601,"앚":6602,"앛":6603,"앜":6604,"앝":6605,"앞":6606,"앟":6607,"애":6608,"액":6609,"앢":6610,"앣":6611,"앤":6612,"앥":6613,"앦":6614,"앧":6615,"앨":6616,"앩":6617,"앪":6618,"앫":6619,"앬":6620,"앭":6621,"앮":6622,"앯":6623,"앰":6624,"앱":6625,"앲":6626,"앳":6627,"앴":6628,"앵":6629,"앶":6630,"앷":6631,"앸":6632,"앹":6633,"앺":6634,"앻":6635,"야":6636,"약":6637,"앾":6638,"앿":6639,"얀":6640,"얁":6641,"얂":6642,"얃":6643,"얄":6644,"얅":6645,"얆":6646,"얇":6647,"얈":6648,"얉":6649,"얊":6650,"얋":6651,"얌":6652,"얍":6653,"얎":6654,"얏":6655,"얐":6656,"양":6657,"얒":6658,"얓":6659,"얔":6660,"얕":6661,"얖":6662,"얗":6663,"얘":6664,"얙":6665,"얚":6666,"얛":6667,"얜":6668,"얝":6669,"얞":6670,"얟":6671,"얡":6672,"얢":6673,"얣":6674,"얤":6675,"얥":6676,"얦":6677,"얧":6678,"얨":6679,"얩":6680,"얪":6681,"얫":6682,"얬":6683,"얭":6684,"얮":6685,"얯":6686,"얰":6687,"얱":6688,"얲":6689,"얳":6690,"어":6691,"억":6692,"얶":6693,"얷":6694,"언":6695,"얹":6696,"얺":6697,"얻":6698,"얼":6699,"얽":6700,"얾":6701,"얿":6702,"엀":6703,"엁":6704,"엂":6705,"엃":6706,"엄":6707,"업":6708,"없":6709,"엇":6710,"었":6711,"엉":6712,"엊":6713,"엋":6714,"엌":6715,"엍":6716,"엎":6717,"엏":6718,"에":6719,"엑":6720,"엒":6721,"엓":6722,"엔":6723,"엕":6724,"엖":6725,"엗":6726,"엘":6727,"엙":6728,"엚":6729,"엛":6730,"엜":6731,"엝":6732,"엞":6733,"엟":6734,"엠":6735,"엡":6736,"엢":6737,"엣":6738,"엤":6739,"엥":6740,"엦":6741,"엧":6742,"엨":6743,"엩":6744,"엪":6745,"엫":6746,"여":6747,"역":6748,"엮":6749,"엯":6750,"연":6751,"엱":6752,"엲":6753,"엳":6754,"열":6755,"엵":6756,"엶":6757,"엷":6758,"엸":6759,"엹":6760,"엺":6761,"엻":6762,"염":6763,"엽":6764,"엾":6765,"엿":6766,"였":6767,"영":6768,"옂":6769,"옃":6770,"옄":6771,"옅":6772,"옆":6773,"옇":6774,"예":6775,"옉":6776,"옊":6777,"옋":6778,"옌":6779,"옍":6780,"옎":6781,"옏":6782,"옐":6783,"옑":6784,"옒":6785,"옓":6786,"옔":6787,"옕":6788,"옖":6789,"옗":6790,"옘":6791,"옙":6792,"옚":6793,"옛":6794,"옜":6795,"옝":6796,"옞":6797,"옟":6798,"옠":6799,"옡":6800,"옢":6801,"옣":6802,"오":6803,"옥":6804,"옦":6805,"옧":6806,"온":6807,"옩":6808,"옪":6809,"옫":6810,"올":6811,"옭":6812,"옮":6813,"옯":6814,"옰":6815,"옱":6816,"옲":6817,"옳":6818,"옴":6819,"옵":6820,"옶":6821,"옷":6822,"옸":6823,"옹":6824,"옺":6825,"옻":6826,"옼":6827,"옽":6828,"옾":6829,"옿":6830,"와":6831,"왁":6832,"왂":6833,"왃":6834,"완":6835,"왅":6836,"왆":6837,"왇":6838,"왈":6839,"왉":6840,"왊":6841,"왋":6842,"왌":6843,"왍":6844,"왎":6845,"왏":6846,"왐":6847,"왑":6848,"왒":6849,"왓":6850,"왔":6851,"왕":6852,"왖":6853,"왗":6854,"왘":6855,"왙":6856,"왚":6857,"왛":6858,"왜":6859,"왝":6860,"왞":6861,"왟":6862,"왠":6863,"왡":6864,"왢":6865,"왣":6866,"왤":6867,"왥":6868,"왦":6869,"왧":6870,"왨":6871,"왩":6872,"왪":6873,"왫":6874,"왬":6875,"왭":6876,"왮":6877,"왯":6878,"왰":6879,"왱":6880,"왲":6881,"왳":6882,"왴":6883,"왵":6884,"왶":6885,"왷":6886,"외":6887,"왹":6888,"왺":6889,"왻":6890,"왼":6891,"왽":6892,"왾":6893,"왿":6894,"욀":6895,"욁":6896,"욂":6897,"욃":6898,"욄":6899,"욅":6900,"욆":6901,"욇":6902,"욈":6903,"욉":6904,"욊":6905,"욋":6906,"욌":6907,"욍":6908,"욎":6909,"욏":6910,"욐":6911,"욑":6912,"욒":6913,"욓":6914,"요":6915,"욕":6916,"욖":6917,"욗":6918,"욘":6919,"욙":6920,"욚":6921,"욛":6922,"욜":6923,"욝":6924,"욞":6925,"욟":6926,"욠":6927,"욡":6928,"욢":6929,"욣":6930,"욤":6931,"욥":6932,"욦":6933,"욧":6934,"욨":6935,"용":6936,"욪":6937,"욫":6938,"욬":6939,"욭":6940,"욮":6941,"욯":6942,"우":6943,"욱":6944,"욲":6945,"욳":6946,"운":6947,"욵":6948,"욶":6949,"욷":6950,"울":6951,"욹":6952,"욺":6953,"욻":6954,"욼":6955,"욽":6956,"욾":6957,"욿":6958,"움":6959,"웁":6960,"웂":6961,"웃":6962,"웄":6963,"웅":6964,"웆":6965,"웇":6966,"웈":6967,"웉":6968,"웊":6969,"웋":6970,"워":6971,"웍":6972,"웎":6973,"웏":6974,"원":6975,"웑":6976,"웒":6977,"웓":6978,"월":6979,"웕":6980,"웖":6981,"웗":6982,"웘":6983,"웙":6984,"웚":6985,"웛":6986,"웜":6987,"웝":6988,"웞":6989,"웟":6990,"웠":6991,"웡":6992,"웢":6993,"웣":6994,"웤":6995,"웥":6996,"웦":6997,"웧":6998,"웨":6999,"웩":7000,"웪":7001,"웫":7002,"웬":7003,"웭":7004,"웮":7005,"웯":7006,"웰":7007,"웱":7008,"웲":7009,"웳":7010,"웴":7011,"웵":7012,"웶":7013,"웷":7014,"웸":7015,"웹":7016,"웺":7017,"웻":7018,"웼":7019,"웽":7020,"웾":7021,"웿":7022,"윀":7023,"윁":7024,"윂":7025,"윃":7026,"위":7027,"윅":7028,"윆":7029,"윇":7030,"윈":7031,"윉":7032,"윊":7033,"윋":7034,"윌":7035,"윍":7036,"윎":7037,"윏":7038,"윐":7039,"윑":7040,"윒":7041,"윓":7042,"윔":7043,"윕":7044,"윖":7045,"윗":7046,"윘":7047,"윙":7048,"윚":7049,"윛":7050,"윜":7051,"윝":7052,"윞":7053,"윟":7054,"유":7055,"육":7056,"윢":7057,"윣":7058,"윤":7059,"윥":7060,"윦":7061,"윧":7062,"율":7063,"윩":7064,"윪":7065,"윫":7066,"윬":7067,"윭":7068,"윮":7069,"윯":7070,"윰":7071,"윱":7072,"윲":7073,"윳":7074,"윴":7075,"융":7076,"윶":7077,"윷":7078,"윸":7079,"윹":7080,"윺":7081,"윻":7082,"으":7083,"윽":7084,"윾":7085,"윿":7086,"은":7087,"읁":7088,"읂":7089,"읃":7090,"을":7091,"읅":7092,"읆":7093,"읇":7094,"읈":7095,"읉":7096,"읊":7097,"읋":7098,"음":7099,"읍":7100,"읎":7101,"읏":7102,"읐":7103,"응":7104,"읒":7105,"읓":7106,"읔":7107,"읕":7108,"읖":7109,"읗":7110,"의":7111,"읙":7112,"읚":7113,"읛":7114,"읜":7115,"읝":7116,"읞":7117,"읟":7118,"읠":7119,"읡":7120,"읢":7121,"읣":7122,"읤":7123,"읥":7124,"읦":7125,"읧":7126,"읨":7127,"읩":7128,"읪":7129,"읫":7130,"읬":7131,"읭":7132,"읮":7133,"읯":7134,"읰":7135,"읱":7136,"읲":7137,"읳":7138,"이":7139,"익":7140,"읶":7141,"읷":7142,"인":7143,"읹":7144,"읺":7145,"읻":7146,"일":7147,"읽":7148,"읾":7149,"읿":7150,"잀":7151,"잁":7152,"잂":7153,"잃":7154,"임":7155,"입":7156,"잆":7157,"잇":7158,"있":7159,"잉":7160,"잊":7161,"잋":7162,"잌":7163,"잍":7164,"잎":7165,"잏":7166,"자":7167,"작":7168,"잒":7169,"잓":7170,"잔":7171,"잕":7172,"잖":7173,"잗":7174,"잘":7175,"잙":7176,"잚":7177,"잛":7178,"잜":7179,"잝":7180,"잞":7181,"잟":7182,"잠":7183,"잡":7184,"잢":7185,"잣":7186,"장":7187,"잦":7188,"잧":7189,"잨":7190,"잩":7191,"잪":7192,"잫":7193,"재":7194,"잭":7195,"잮":7196,"잯":7197,"잰":7198,"잱":7199,"잲":7200,"잳":7201,"잴":7202,"잵":7203,"잶":7204,"잷":7205,"잸":7206,"잹":7207,"잺":7208,"잻":7209,"잼":7210,"잽":7211,"잾":7212,"잿":7213,"쟁":7214,"쟂":7215,"쟃":7216,"쟄":7217,"쟅":7218,"쟆":7219,"쟇":7220,"쟈":7221,"쟉":7222,"쟊":7223,"쟋":7224,"쟌":7225,"쟍":7226,"쟎":7227,"쟏":7228,"쟐":7229,"쟑":7230,"쟒":7231,"쟓":7232,"쟔":7233,"쟕":7234,"쟖":7235,"쟗":7236,"쟘":7237,"쟙":7238,"쟚":7239,"쟛":7240,"쟜":7241,"쟝":7242,"쟞":7243,"쟟":7244,"쟠":7245,"쟡":7246,"쟢":7247,"쟣":7248,"쟤":7249,"쟥":7250,"쟦":7251,"쟧":7252,"쟩":7253,"쟪":7254,"쟫":7255,"쟬":7256,"쟭":7257,"쟮":7258,"쟯":7259,"쟰":7260,"쟱":7261,"쟲":7262,"쟳":7263,"쟴":7264,"쟵":7265,"쟶":7266,"쟷":7267,"쟸":7268,"쟹":7269,"쟺":7270,"쟻":7271,"쟼":7272,"쟽":7273,"쟾":7274,"쟿":7275,"저":7276,"적":7277,"젂":7278,"젃":7279,"전":7280,"젅":7281,"젆":7282,"젇":7283,"절":7284,"젉":7285,"젊":7286,"젋":7287,"젌":7288,"젍":7289,"젎":7290,"젏":7291,"점":7292,"접":7293,"젒":7294,"젓":7295,"젔":7296,"정":7297,"젖":7298,"젗":7299,"젘":7300,"젙":7301,"젚":7302,"젛":7303,"제":7304,"젝":7305,"젞":7306,"젟":7307,"젠":7308,"젡":7309,"젢":7310,"젣":7311,"젤":7312,"젥":7313,"젦":7314,"젧":7315,"젨":7316,"젩":7317,"젪":7318,"젫":7319,"젬":7320,"젭":7321,"젮":7322,"젯":7323,"젰":7324,"젱":7325,"젲":7326,"젳":7327,"젴":7328,"젵":7329,"젶":7330,"젷":7331,"져":7332,"젹":7333,"젺":7334,"젻":7335,"젼":7336,"젽":7337,"젾":7338,"젿":7339,"졀":7340,"졁":7341,"졂":7342,"졃":7343,"졄":7344,"졅":7345,"졆":7346,"졇":7347,"졈":7348,"졉":7349,"졊":7350,"졋":7351,"졌":7352,"졍":7353,"졎":7354,"졏":7355,"졐":7356,"졑":7357,"졒":7358,"졓":7359,"졔":7360,"졕":7361,"졖":7362,"졗":7363,"졘":7364,"졙":7365,"졚":7366,"졛":7367,"졜":7368,"졝":7369,"졞":7370,"졟":7371,"졠":7372,"졡":7373,"졢":7374,"졣":7375,"졤":7376,"졥":7377,"졦":7378,"졧":7379,"졨":7380,"졩":7381,"졪":7382,"졫":7383,"졬":7384,"졭":7385,"졮":7386,"졯":7387,"조":7388,"족":7389,"졲":7390,"졳":7391,"존":7392,"졵":7393,"졶":7394,"졷":7395,"졸":7396,"졹":7397,"졺":7398,"졻":7399,"졼":7400,"졽":7401,"졾":7402,"졿":7403,"좀":7404,"좁":7405,"좂":7406,"좃":7407,"좄":7408,"종":7409,"좆":7410,"좇":7411,"좈":7412,"좉":7413,"좊":7414,"좋":7415,"좌":7416,"좍":7417,"좎":7418,"좏":7419,"좐":7420,"좑":7421,"좒":7422,"좓":7423,"좔":7424,"좕":7425,"좖":7426,"좗":7427,"좘":7428,"좙":7429,"좚":7430,"좛":7431,"좜":7432,"좝":7433,"좞":7434,"좟":7435,"좠":7436,"좡":7437,"좢":7438,"좣":7439,"좤":7440,"좥":7441,"좦":7442,"좧":7443,"좨":7444,"좩":7445,"좪":7446,"좫":7447,"좬":7448,"좭":7449,"좮":7450,"좯":7451,"좰":7452,"좱":7453,"좲":7454,"좳":7455,"좴":7456,"좵":7457,"좶":7458,"좷":7459,"좸":7460,"좹":7461,"좺":7462,"좻":7463,"좼":7464,"좽":7465,"좾":7466,"좿":7467,"죀":7468,"죁":7469,"죂":7470,"죃":7471,"죄":7472,"죅":7473,"죆":7474,"죇":7475,"죈":7476,"죉":7477,"죊":7478,"죋":7479,"죌":7480,"죍":7481,"죎":7482,"죏":7483,"죐":7484,"죑":7485,"죒":7486,"죓":7487,"죔":7488,"죕":7489,"죖":7490,"죗":7491,"죙":7492,"죚":7493,"죛":7494,"죜":7495,"죝":7496,"죞":7497,"죟":7498,"죠":7499,"죡":7500,"죢":7501,"죣":7502,"죤":7503,"죥":7504,"죦":7505,"죧":7506,"죨":7507,"죩":7508,"죪":7509,"죫":7510,"죬":7511,"죭":7512,"죮":7513,"죯":7514,"죰":7515,"죱":7516,"죲":7517,"죳":7518,"죴":7519,"죵":7520,"죶":7521,"죷":7522,"죸":7523,"죹":7524,"죺":7525,"죻":7526,"주":7527,"죽":7528,"죾":7529,"죿":7530,"준":7531,"줁":7532,"줂":7533,"줃":7534,"줄":7535,"줅":7536,"줆":7537,"줇":7538,"줈":7539,"줉":7540,"줊":7541,"줋":7542,"줌":7543,"줍":7544,"줎":7545,"줏":7546,"줐":7547,"중":7548,"줒":7549,"줓":7550,"줔":7551,"줕":7552,"줖":7553,"줗":7554,"줘":7555,"줙":7556,"줚":7557,"줛":7558,"줜":7559,"줝":7560,"줞":7561,"줟":7562,"줠":7563,"줡":7564,"줢":7565,"줣":7566,"줤":7567,"줥":7568,"줦":7569,"줧":7570,"줨":7571,"줩":7572,"줪":7573,"줫":7574,"줬":7575,"줭":7576,"줮":7577,"줯":7578,"줰":7579,"줱":7580,"줲":7581,"줳":7582,"줴":7583,"줵":7584,"줶":7585,"줷":7586,"줸":7587,"줹":7588,"줺":7589,"줻":7590,"줼":7591,"줽":7592,"줾":7593,"줿":7594,"쥀":7595,"쥁":7596,"쥂":7597,"쥃":7598,"쥄":7599,"쥅":7600,"쥆":7601,"쥇":7602,"쥈":7603,"쥉":7604,"쥊":7605,"쥋":7606,"쥌":7607,"쥍":7608,"쥎":7609,"쥏":7610,"쥐":7611,"쥑":7612,"쥒":7613,"쥓":7614,"쥔":7615,"쥕":7616,"쥖":7617,"쥗":7618,"쥘":7619,"쥙":7620,"쥚":7621,"쥛":7622,"쥜":7623,"쥝":7624,"쥞":7625,"쥟":7626,"쥠":7627,"쥡":7628,"쥢":7629,"쥣":7630,"쥤":7631,"쥥":7632,"쥦":7633,"쥧":7634,"쥨":7635,"쥩":7636,"쥪":7637,"쥫":7638,"쥬":7639,"쥭":7640,"쥮":7641,"쥯":7642,"쥰":7643,"쥱":7644,"쥲":7645,"쥳":7646,"쥴":7647,"쥵":7648,"쥶":7649,"쥷":7650,"쥸":7651,"쥹":7652,"쥺":7653,"쥻":7654,"쥼":7655,"쥽":7656,"쥾":7657,"쥿":7658,"즀":7659,"즁":7660,"즂":7661,"즃":7662,"즄":7663,"즅":7664,"즆":7665,"즇":7666,"즈":7667,"즉":7668,"즊":7669,"즋":7670,"즌":7671,"즍":7672,"즎":7673,"즏":7674,"즐":7675,"즑":7676,"즒":7677,"즓":7678,"즔":7679,"즕":7680,"즖":7681,"즗":7682,"즘":7683,"즙":7684,"즚":7685,"즛":7686,"즜":7687,"증":7688,"즞":7689,"즟":7690,"즠":7691,"즡":7692,"즢":7693,"즣":7694,"즤":7695,"즥":7696,"즦":7697,"즧":7698,"즨":7699,"즩":7700,"즪":7701,"즫":7702,"즬":7703,"즭":7704,"즮":7705,"즯":7706,"즰":7707,"즱":7708,"즲":7709,"즳":7710,"즴":7711,"즵":7712,"즶":7713,"즷":7714,"즸":7715,"즹":7716,"즺":7717,"즻":7718,"즼":7719,"즽":7720,"즾":7721,"즿":7722,"지":7723,"직":7724,"짂":7725,"짃":7726,"진":7727,"짅":7728,"짆":7729,"짇":7730,"질":7731,"짉":7732,"짊":7733,"짋":7734,"짌":7735,"짍":7736,"짎":7737,"짏":7738,"짐":7739,"집":7740,"짒":7741,"짓":7742,"짔":7743,"징":7744,"짖":7745,"짗":7746,"짘":7747,"짙":7748,"짚":7749,"짛":7750,"짜":7751,"짝":7752,"짞":7753,"짟":7754,"짠":7755,"짡":7756,"짢":7757,"짣":7758,"짤":7759,"짥":7760,"짦":7761,"짧":7762,"짨":7763,"짩":7764,"짪":7765,"짫":7766,"짬":7767,"짭":7768,"짮":7769,"짯":7770,"짱":7771,"짲":7772,"짳":7773,"짴":7774,"짵":7775,"짶":7776,"짷":7777,"째":7778,"짹":7779,"짺":7780,"짻":7781,"짼":7782,"짽":7783,"짾":7784,"짿":7785,"쨀":7786,"쨁":7787,"쨂":7788,"쨃":7789,"쨄":7790,"쨅":7791,"쨆":7792,"쨇":7793,"쨈":7794,"쨉":7795,"쨊":7796,"쨋":7797,"쨌":7798,"쨍":7799,"쨎":7800,"쨏":7801,"쨐":7802,"쨑":7803,"쨒":7804,"쨓":7805,"쨔":7806,"쨕":7807,"쨖":7808,"쨗":7809,"쨘":7810,"쨙":7811,"쨚":7812,"쨛":7813,"쨜":7814,"쨝":7815,"쨞":7816,"쨟":7817,"쨠":7818,"쨡":7819,"쨢":7820,"쨣":7821,"쨤":7822,"쨥":7823,"쨦":7824,"쨧":7825,"쨨":7826,"쨩":7827,"쨪":7828,"쨫":7829,"쨬":7830,"쨭":7831,"쨮":7832,"쨯":7833,"쨰":7834,"쨱":7835,"쨲":7836,"쨳":7837,"쨴":7838,"쨵":7839,"쨶":7840,"쨷":7841,"쨸":7842,"쨹":7843,"쨺":7844,"쨻":7845,"쨼":7846,"쨽":7847,"쨾":7848,"쨿":7849,"쩀":7850,"쩁":7851,"쩂":7852,"쩃":7853,"쩄":7854,"쩅":7855,"쩆":7856,"쩇":7857,"쩈":7858,"쩉":7859,"쩊":7860,"쩋":7861,"쩌":7862,"쩍":7863,"쩎":7864,"쩏":7865,"쩐":7866,"쩑":7867,"쩒":7868,"쩓":7869,"쩔":7870,"쩕":7871,"쩖":7872,"쩗":7873,"쩘":7874,"쩙":7875,"쩚":7876,"쩛":7877,"쩜":7878,"쩝":7879,"쩞":7880,"쩟":7881,"쩠":7882,"쩡":7883,"쩢":7884,"쩣":7885,"쩤":7886,"쩥":7887,"쩦":7888,"쩧":7889,"쩨":7890,"쩩":7891,"쩪":7892,"쩫":7893,"쩬":7894,"쩭":7895,"쩮":7896,"쩯":7897,"쩰":7898,"쩱":7899,"쩲":7900,"쩳":7901,"쩴":7902,"쩵":7903,"쩶":7904,"쩷":7905,"쩸":7906,"쩹":7907,"쩺":7908,"쩻":7909,"쩼":7910,"쩽":7911,"쩾":7912,"쩿":7913,"쪀":7914,"쪁":7915,"쪂":7916,"쪃":7917,"쪄":7918,"쪅":7919,"쪆":7920,"쪇":7921,"쪈":7922,"쪉":7923,"쪊":7924,"쪋":7925,"쪌":7926,"쪍":7927,"쪎":7928,"쪏":7929,"쪐":7930,"쪑":7931,"쪒":7932,"쪓":7933,"쪔":7934,"쪕":7935,"쪖":7936,"쪗":7937,"쪘":7938,"쪙":7939,"쪚":7940,"쪛":7941,"쪜":7942,"쪝":7943,"쪞":7944,"쪟":7945,"쪠":7946,"쪡":7947,"쪢":7948,"쪣":7949,"쪤":7950,"쪥":7951,"쪦":7952,"쪧":7953,"쪨":7954,"쪩":7955,"쪪":7956,"쪫":7957,"쪬":7958,"쪭":7959,"쪮":7960,"쪯":7961,"쪰":7962,"쪱":7963,"쪲":7964,"쪳":7965,"쪴":7966,"쪵":7967,"쪶":7968,"쪷":7969,"쪸":7970,"쪹":7971,"쪺":7972,"쪻":7973,"쪼":7974,"쪽":7975,"쪾":7976,"쪿":7977,"쫀":7978,"쫁":7979,"쫂":7980,"쫃":7981,"쫄":7982,"쫅":7983,"쫆":7984,"쫇":7985,"쫈":7986,"쫉":7987,"쫊":7988,"쫋":7989,"쫌":7990,"쫍":7991,"쫎":7992,"쫏":7993,"쫐":7994,"쫑":7995,"쫒":7996,"쫓":7997,"쫔":7998,"쫕":7999,"쫖":8000,"쫗":8001,"쫘":8002,"쫙":8003,"쫚":8004,"쫛":8005,"쫜":8006,"쫝":8007,"쫞":8008,"쫟":8009,"쫠":8010,"쫡":8011,"쫢":8012,"쫣":8013,"쫤":8014,"쫥":8015,"쫦":8016,"쫧":8017,"쫨":8018,"쫩":8019,"쫪":8020,"쫫":8021,"쫭":8022,"쫮":8023,"쫯":8024,"쫰":8025,"쫱":8026,"쫲":8027,"쫳":8028,"쫴":8029,"쫵":8030,"쫶":8031,"쫷":8032,"쫸":8033,"쫹":8034,"쫺":8035,"쫻":8036,"쫼":8037,"쫽":8038,"쫾":8039,"쫿":8040,"쬀":8041,"쬁":8042,"쬂":8043,"쬃":8044,"쬄":8045,"쬅":8046,"쬆":8047,"쬇":8048,"쬈":8049,"쬉":8050,"쬊":8051,"쬋":8052,"쬌":8053,"쬍":8054,"쬎":8055,"쬏":8056,"쬐":8057,"쬑":8058,"쬒":8059,"쬓":8060,"쬔":8061,"쬕":8062,"쬖":8063,"쬗":8064,"쬙":8065,"쬚":8066,"쬛":8067,"쬜":8068,"쬝":8069,"쬞":8070,"쬟":8071,"쬡":8072,"쬢":8073,"쬣":8074,"쬤":8075,"쬥":8076,"쬦":8077,"쬧":8078,"쬨":8079,"쬩":8080,"쬪":8081,"쬫":8082,"쬬":8083,"쬭":8084,"쬮":8085,"쬯":8086,"쬰":8087,"쬱":8088,"쬲":8089,"쬳":8090,"쬴":8091,"쬵":8092,"쬶":8093,"쬷":8094,"쬸":8095,"쬹":8096,"쬺":8097,"쬻":8098,"쬼":8099,"쬽":8100,"쬾":8101,"쬿":8102,"쭀":8103,"쭁":8104,"쭂":8105,"쭃":8106,"쭄":8107,"쭅":8108,"쭆":8109,"쭇":8110,"쭈":8111,"쭉":8112,"쭊":8113,"쭋":8114,"쭌":8115,"쭍":8116,"쭎":8117,"쭏":8118,"쭐":8119,"쭑":8120,"쭒":8121,"쭓":8122,"쭔":8123,"쭕":8124,"쭖":8125,"쭗":8126,"쭘":8127,"쭙":8128,"쭚":8129,"쭛":8130,"쭜":8131,"쭝":8132,"쭞":8133,"쭟":8134,"쭠":8135,"쭡":8136,"쭢":8137,"쭣":8138,"쭤":8139,"쭥":8140,"쭦":8141,"쭧":8142,"쭨":8143,"쭩":8144,"쭪":8145,"쭫":8146,"쭬":8147,"쭭":8148,"쭮":8149,"쭯":8150,"쭰":8151,"쭱":8152,"쭲":8153,"쭳":8154,"쭴":8155,"쭵":8156,"쭶":8157,"쭷":8158,"쭸":8159,"쭹":8160,"쭺":8161,"쭻":8162,"쭼":8163,"쭽":8164,"쭾":8165,"쭿":8166,"쮀":8167,"쮁":8168,"쮂":8169,"쮃":8170,"쮄":8171,"쮅":8172,"쮆":8173,"쮇":8174,"쮈":8175,"쮉":8176,"쮊":8177,"쮋":8178,"쮌":8179,"쮍":8180,"쮎":8181,"쮏":8182,"쮐":8183,"쮑":8184,"쮒":8185,"쮓":8186,"쮔":8187,"쮕":8188,"쮖":8189,"쮗":8190,"쮘":8191,"쮙":8192,"쮚":8193,"쮛":8194,"쮜":8195,"쮝":8196,"쮞":8197,"쮟":8198,"쮠":8199,"쮡":8200,"쮢":8201,"쮣":8202,"쮤":8203,"쮥":8204,"쮦":8205,"쮧":8206,"쮨":8207,"쮩":8208,"쮪":8209,"쮫":8210,"쮬":8211,"쮭":8212,"쮮":8213,"쮯":8214,"쮰":8215,"쮱":8216,"쮲":8217,"쮳":8218,"쮴":8219,"쮵":8220,"쮶":8221,"쮷":8222,"쮸":8223,"쮹":8224,"쮺":8225,"쮻":8226,"쮼":8227,"쮽":8228,"쮾":8229,"쮿":8230,"쯀":8231,"쯁":8232,"쯂":8233,"쯃":8234,"쯄":8235,"쯅":8236,"쯆":8237,"쯇":8238,"쯈":8239,"쯉":8240,"쯊":8241,"쯋":8242,"쯌":8243,"쯍":8244,"쯎":8245,"쯏":8246,"쯐":8247,"쯑":8248,"쯒":8249,"쯓":8250,"쯔":8251,"쯕":8252,"쯖":8253,"쯗":8254,"쯘":8255,"쯙":8256,"쯚":8257,"쯛":8258,"쯜":8259,"쯝":8260,"쯞":8261,"쯟":8262,"쯠":8263,"쯡":8264,"쯢":8265,"쯣":8266,"쯤":8267,"쯥":8268,"쯦":8269,"쯧":8270,"쯨":8271,"쯩":8272,"쯪":8273,"쯫":8274,"쯬":8275,"쯭":8276,"쯮":8277,"쯯":8278,"쯰":8279,"쯱":8280,"쯲":8281,"쯳":8282,"쯴":8283,"쯵":8284,"쯶":8285,"쯷":8286,"쯸":8287,"쯹":8288,"쯺":8289,"쯻":8290,"쯼":8291,"쯽":8292,"쯾":8293,"쯿":8294,"찀":8295,"찁":8296,"찂":8297,"찃":8298,"찄":8299,"찅":8300,"찆":8301,"찇":8302,"찈":8303,"찉":8304,"찊":8305,"찋":8306,"찌":8307,"찍":8308,"찎":8309,"찏":8310,"찐":8311,"찑":8312,"찒":8313,"찓":8314,"찔":8315,"찕":8316,"찖":8317,"찗":8318,"찘":8319,"찙":8320,"찚":8321,"찛":8322,"찜":8323,"찝":8324,"찞":8325,"찟":8326,"찠":8327,"찡":8328,"찢":8329,"찣":8330,"찤":8331,"찥":8332,"찦":8333,"찧":8334,"차":8335,"착":8336,"찪":8337,"찫":8338,"찬":8339,"찭":8340,"찮":8341,"찯":8342,"찰":8343,"찱":8344,"찲":8345,"찳":8346,"찴":8347,"찵":8348,"찶":8349,"찷":8350,"참":8351,"찹":8352,"찺":8353,"찻":8354,"창":8355,"찾":8356,"찿":8357,"챀":8358,"챁":8359,"챂":8360,"챃":8361,"채":8362,"책":8363,"챆":8364,"챇":8365,"챈":8366,"챉":8367,"챊":8368,"챋":8369,"챌":8370,"챍":8371,"챎":8372,"챏":8373,"챐":8374,"챑":8375,"챒":8376,"챓":8377,"챔":8378,"챕":8379,"챖":8380,"챗":8381,"챘":8382,"챙":8383,"챚":8384,"챛":8385,"챜":8386,"챝":8387,"챞":8388,"챟":8389,"챠":8390,"챡":8391,"챢":8392,"챣":8393,"챤":8394,"챥":8395,"챦":8396,"챧":8397,"챨":8398,"챩":8399,"챪":8400,"챫":8401,"챬":8402,"챭":8403,"챮":8404,"챯":8405,"챰":8406,"챱":8407,"챲":8408,"챳":8409,"챴":8410,"챵":8411,"챶":8412,"챷":8413,"챸":8414,"챹":8415,"챺":8416,"챻":8417,"챼":8418,"챽":8419,"챾":8420,"챿":8421,"첀":8422,"첁":8423,"첂":8424,"첃":8425,"첄":8426,"첅":8427,"첆":8428,"첇":8429,"첈":8430,"첉":8431,"첊":8432,"첋":8433,"첌":8434,"첍":8435,"첎":8436,"첏":8437,"첐":8438,"첑":8439,"첒":8440,"첓":8441,"첔":8442,"첕":8443,"첖":8444,"첗":8445,"처":8446,"척":8447,"첚":8448,"첛":8449,"천":8450,"첝":8451,"첞":8452,"첟":8453,"철":8454,"첡":8455,"첢":8456,"첣":8457,"첤":8458,"첥":8459,"첦":8460,"첧":8461,"첨":8462,"첩":8463,"첪":8464,"첫":8465,"첬":8466,"청":8467,"첮":8468,"첯":8469,"첰":8470,"첱":8471,"첲":8472,"첳":8473,"체":8474,"첵":8475,"첶":8476,"첷":8477,"첸":8478,"첹":8479,"첺":8480,"첻":8481,"첼":8482,"첽":8483,"첾":8484,"첿":8485,"쳀":8486,"쳁":8487,"쳂":8488,"쳃":8489,"쳄":8490,"쳅":8491,"쳆":8492,"쳇":8493,"쳈":8494,"쳉":8495,"쳊":8496,"쳋":8497,"쳌":8498,"쳍":8499,"쳎":8500,"쳏":8501,"쳐":8502,"쳑":8503,"쳒":8504,"쳓":8505,"쳔":8506,"쳕":8507,"쳖":8508,"쳗":8509,"쳘":8510,"쳙":8511,"쳚":8512,"쳛":8513,"쳜":8514,"쳝":8515,"쳞":8516,"쳟":8517,"쳠":8518,"쳡":8519,"쳢":8520,"쳣":8521,"쳤":8522,"쳥":8523,"쳦":8524,"쳧":8525,"쳨":8526,"쳩":8527,"쳪":8528,"쳫":8529,"쳬":8530,"쳭":8531,"쳮":8532,"쳯":8533,"쳰":8534,"쳱":8535,"쳲":8536,"쳳":8537,"쳴":8538,"쳵":8539,"쳶":8540,"쳷":8541,"쳸":8542,"쳹":8543,"쳺":8544,"쳻":8545,"쳼":8546,"쳽":8547,"쳾":8548,"쳿":8549,"촀":8550,"촁":8551,"촂":8552,"촃":8553,"촄":8554,"촅":8555,"촆":8556,"촇":8557,"초":8558,"촉":8559,"촊":8560,"촋":8561,"촌":8562,"촍":8563,"촎":8564,"촏":8565,"촐":8566,"촑":8567,"촒":8568,"촓":8569,"촔":8570,"촕":8571,"촖":8572,"촗":8573,"촘":8574,"촙":8575,"촚":8576,"촛":8577,"촜":8578,"총":8579,"촞":8580,"촟":8581,"촠":8582,"촡":8583,"촢":8584,"촣":8585,"촤":8586,"촥":8587,"촦":8588,"촧":8589,"촨":8590,"촩":8591,"촪":8592,"촫":8593,"촬":8594,"촭":8595,"촮":8596,"촯":8597,"촰":8598,"촱":8599,"촲":8600,"촳":8601,"촴":8602,"촵":8603,"촶":8604,"촷":8605,"촸":8606,"촹":8607,"촺":8608,"촻":8609,"촼":8610,"촽":8611,"촾":8612,"촿":8613,"쵀":8614,"쵁":8615,"쵂":8616,"쵃":8617,"쵄":8618,"쵅":8619,"쵆":8620,"쵇":8621,"쵈":8622,"쵉":8623,"쵊":8624,"쵋":8625,"쵌":8626,"쵍":8627,"쵎":8628,"쵏":8629,"쵐":8630,"쵑":8631,"쵒":8632,"쵓":8633,"쵔":8634,"쵕":8635,"쵖":8636,"쵗":8637,"쵘":8638,"쵙":8639,"쵚":8640,"쵛":8641,"최":8642,"쵝":8643,"쵞":8644,"쵟":8645,"쵠":8646,"쵡":8647,"쵢":8648,"쵣":8649,"쵤":8650,"쵥":8651,"쵦":8652,"쵧":8653,"쵨":8654,"쵩":8655,"쵪":8656,"쵫":8657,"쵬":8658,"쵭":8659,"쵮":8660,"쵯":8661,"쵰":8662,"쵱":8663,"쵲":8664,"쵳":8665,"쵴":8666,"쵵":8667,"쵶":8668,"쵷":8669,"쵸":8670,"쵹":8671,"쵺":8672,"쵻":8673,"쵼":8674,"쵽":8675,"쵾":8676,"쵿":8677,"춀":8678,"춁":8679,"춂":8680,"춃":8681,"춄":8682,"춅":8683,"춆":8684,"춇":8685,"춈":8686,"춉":8687,"춊":8688,"춋":8689,"춌":8690,"춍":8691,"춎":8692,"춏":8693,"춐":8694,"춑":8695,"춒":8696,"춓":8697,"추":8698,"축":8699,"춖":8700,"춗":8701,"춘":8702,"춙":8703,"춚":8704,"춛":8705,"출":8706,"춝":8707,"춞":8708,"춟":8709,"춠":8710,"춡":8711,"춢":8712,"춣":8713,"춤":8714,"춥":8715,"춦":8716,"춧":8717,"춨":8718,"충":8719,"춪":8720,"춫":8721,"춬":8722,"춭":8723,"춮":8724,"춯":8725,"춰":8726,"춱":8727,"춲":8728,"춳":8729,"춴":8730,"춵":8731,"춶":8732,"춷":8733,"춸":8734,"춹":8735,"춺":8736,"춻":8737,"춼":8738,"춽":8739,"춾":8740,"춿":8741,"췀":8742,"췁":8743,"췂":8744,"췃":8745,"췄":8746,"췅":8747,"췆":8748,"췇":8749,"췈":8750,"췉":8751,"췊":8752,"췋":8753,"췌":8754,"췍":8755,"췎":8756,"췏":8757,"췐":8758,"췑":8759,"췒":8760,"췓":8761,"췔":8762,"췕":8763,"췖":8764,"췗":8765,"췘":8766,"췙":8767,"췚":8768,"췛":8769,"췜":8770,"췝":8771,"췞":8772,"췟":8773,"췠":8774,"췡":8775,"췢":8776,"췣":8777,"췤":8778,"췥":8779,"췦":8780,"췧":8781,"취":8782,"췩":8783,"췪":8784,"췫":8785,"췬":8786,"췭":8787,"췮":8788,"췯":8789,"췰":8790,"췱":8791,"췲":8792,"췳":8793,"췴":8794,"췵":8795,"췶":8796,"췷":8797,"췸":8798,"췹":8799,"췺":8800,"췻":8801,"췼":8802,"췽":8803,"췾":8804,"췿":8805,"츀":8806,"츁":8807,"츂":8808,"츃":8809,"츄":8810,"츅":8811,"츆":8812,"츇":8813,"츈":8814,"츉":8815,"츊":8816,"츋":8817,"츌":8818,"츍":8819,"츎":8820,"츏":8821,"츐":8822,"츑":8823,"츒":8824,"츓":8825,"츔":8826,"츕":8827,"츖":8828,"츗":8829,"츘":8830,"츙":8831,"츚":8832,"츛":8833,"츜":8834,"츝":8835,"츞":8836,"츟":8837,"츠":8838,"측":8839,"츢":8840,"츣":8841,"츤":8842,"츥":8843,"츦":8844,"츧":8845,"츨":8846,"츩":8847,"츪":8848,"츫":8849,"츬":8850,"츭":8851,"츮":8852,"츯":8853,"츰":8854,"츱":8855,"츲":8856,"츳":8857,"츴":8858,"층":8859,"츶":8860,"츷":8861,"츸":8862,"츹":8863,"츺":8864,"츻":8865,"츼":8866,"츽":8867,"츾":8868,"츿":8869,"칀":8870,"칁":8871,"칂":8872,"칃":8873,"칄":8874,"칅":8875,"칆":8876,"칇":8877,"칈":8878,"칉":8879,"칊":8880,"칋":8881,"칌":8882,"칍":8883,"칎":8884,"칏":8885,"칐":8886,"칑":8887,"칒":8888,"칓":8889,"칔":8890,"칕":8891,"칖":8892,"칗":8893,"치":8894,"칙":8895,"칚":8896,"칛":8897,"친":8898,"칝":8899,"칞":8900,"칟":8901,"칠":8902,"칡":8903,"칢":8904,"칣":8905,"칤":8906,"칥":8907,"칦":8908,"칧":8909,"침":8910,"칩":8911,"칪":8912,"칫":8913,"칬":8914,"칭":8915,"칮":8916,"칯":8917,"칰":8918,"칱":8919,"칲":8920,"칳":8921,"카":8922,"칵":8923,"칶":8924,"칷":8925,"칸":8926,"칹":8927,"칺":8928,"칻":8929,"칼":8930,"칽":8931,"칾":8932,"칿":8933,"캀":8934,"캁":8935,"캂":8936,"캃":8937,"캄":8938,"캅":8939,"캆":8940,"캇":8941,"캈":8942,"캉":8943,"캊":8944,"캋":8945,"캌":8946,"캍":8947,"캎":8948,"캏":8949,"캐":8950,"캑":8951,"캒":8952,"캓":8953,"캔":8954,"캕":8955,"캖":8956,"캗":8957,"캘":8958,"캙":8959,"캚":8960,"캛":8961,"캜":8962,"캝":8963,"캞":8964,"캟":8965,"캠":8966,"캡":8967,"캢":8968,"캣":8969,"캤":8970,"캥":8971,"캦":8972,"캧":8973,"캨":8974,"캩":8975,"캪":8976,"캫":8977,"캬":8978,"캭":8979,"캮":8980,"캯":8981,"캰":8982,"캱":8983,"캲":8984,"캳":8985,"캴":8986,"캵":8987,"캶":8988,"캷":8989,"캸":8990,"캹":8991,"캺":8992,"캻":8993,"캼":8994,"캽":8995,"캾":8996,"캿":8997,"컀":8998,"컁":8999,"컂":9000,"컃":9001,"컄":9002,"컅":9003,"컆":9004,"컇":9005,"컈":9006,"컉":9007,"컊":9008,"컋":9009,"컌":9010,"컍":9011,"컎":9012,"컏":9013,"컐":9014,"컑":9015,"컒":9016,"컓":9017,"컔":9018,"컕":9019,"컖":9020,"컗":9021,"컘":9022,"컙":9023,"컚":9024,"컛":9025,"컜":9026,"컝":9027,"컞":9028,"컟":9029,"컠":9030,"컡":9031,"컢":9032,"컣":9033,"커":9034,"컥":9035,"컦":9036,"컧":9037,"컨":9038,"컩":9039,"컪":9040,"컫":9041,"컬":9042,"컭":9043,"컮":9044,"컯":9045,"컰":9046,"컱":9047,"컲":9048,"컳":9049,"컴":9050,"컵":9051,"컶":9052,"컷":9053,"컹":9054,"컺":9055,"컻":9056,"컼":9057,"컽":9058,"컾":9059,"컿":9060,"케":9061,"켁":9062,"켂":9063,"켃":9064,"켄":9065,"켅":9066,"켆":9067,"켇":9068,"켈":9069,"켉":9070,"켊":9071,"켋":9072,"켌":9073,"켍":9074,"켎":9075,"켏":9076,"켐":9077,"켑":9078,"켒":9079,"켓":9080,"켔":9081,"켕":9082,"켖":9083,"켗":9084,"켘":9085,"켙":9086,"켚":9087,"켛":9088,"켜":9089,"켝":9090,"켞":9091,"켟":9092,"켠":9093,"켡":9094,"켢":9095,"켣":9096,"켤":9097,"켥":9098,"켦":9099,"켧":9100,"켨":9101,"켩":9102,"켪":9103,"켫":9104,"켬":9105,"켭":9106,"켮":9107,"켯":9108,"켰":9109,"켱":9110,"켲":9111,"켳":9112,"켴":9113,"켵":9114,"켶":9115,"켷":9116,"켸":9117,"켹":9118,"켺":9119,"켻":9120,"켼":9121,"켽":9122,"켾":9123,"켿":9124,"콀":9125,"콁":9126,"콂":9127,"콃":9128,"콄":9129,"콅":9130,"콆":9131,"콇":9132,"콈":9133,"콉":9134,"콊":9135,"콋":9136,"콌":9137,"콍":9138,"콎":9139,"콏":9140,"콐":9141,"콑":9142,"콒":9143,"콓":9144,"코":9145,"콕":9146,"콖":9147,"콗":9148,"콘":9149,"콙":9150,"콚":9151,"콛":9152,"콜":9153,"콝":9154,"콞":9155,"콟":9156,"콠":9157,"콡":9158,"콢":9159,"콣":9160,"콤":9161,"콥":9162,"콦":9163,"콧":9164,"콨":9165,"콩":9166,"콪":9167,"콫":9168,"콬":9169,"콭":9170,"콮":9171,"콯":9172,"콰":9173,"콱":9174,"콲":9175,"콳":9176,"콴":9177,"콵":9178,"콶":9179,"콷":9180,"콸":9181,"콹":9182,"콺":9183,"콻":9184,"콼":9185,"콽":9186,"콾":9187,"콿":9188,"쾀":9189,"쾁":9190,"쾂":9191,"쾃":9192,"쾄":9193,"쾅":9194,"쾆":9195,"쾇":9196,"쾈":9197,"쾉":9198,"쾊":9199,"쾋":9200,"쾌":9201,"쾍":9202,"쾎":9203,"쾏":9204,"쾐":9205,"쾑":9206,"쾒":9207,"쾓":9208,"쾔":9209,"쾕":9210,"쾖":9211,"쾗":9212,"쾘":9213,"쾙":9214,"쾚":9215,"쾛":9216,"쾜":9217,"쾝":9218,"쾞":9219,"쾟":9220,"쾠":9221,"쾡":9222,"쾢":9223,"쾣":9224,"쾤":9225,"쾥":9226,"쾦":9227,"쾧":9228,"쾨":9229,"쾩":9230,"쾪":9231,"쾫":9232,"쾬":9233,"쾭":9234,"쾮":9235,"쾯":9236,"쾰":9237,"쾱":9238,"쾲":9239,"쾳":9240,"쾴":9241,"쾵":9242,"쾶":9243,"쾷":9244,"쾸":9245,"쾹":9246,"쾺":9247,"쾻":9248,"쾼":9249,"쾽":9250,"쾾":9251,"쾿":9252,"쿀":9253,"쿁":9254,"쿂":9255,"쿃":9256,"쿄":9257,"쿅":9258,"쿆":9259,"쿇":9260,"쿈":9261,"쿉":9262,"쿊":9263,"쿋":9264,"쿌":9265,"쿍":9266,"쿎":9267,"쿏":9268,"쿐":9269,"쿑":9270,"쿒":9271,"쿓":9272,"쿔":9273,"쿕":9274,"쿖":9275,"쿗":9276,"쿘":9277,"쿙":9278,"쿚":9279,"쿛":9280,"쿜":9281,"쿝":9282,"쿞":9283,"쿟":9284,"쿠":9285,"쿡":9286,"쿢":9287,"쿣":9288,"쿤":9289,"쿥":9290,"쿦":9291,"쿧":9292,"쿨":9293,"쿩":9294,"쿪":9295,"쿫":9296,"쿬":9297,"쿭":9298,"쿮":9299,"쿯":9300,"쿰":9301,"쿱":9302,"쿲":9303,"쿳":9304,"쿴":9305,"쿵":9306,"쿶":9307,"쿷":9308,"쿸":9309,"쿹":9310,"쿺":9311,"쿻":9312,"쿼":9313,"쿽":9314,"쿾":9315,"쿿":9316,"퀀":9317,"퀁":9318,"퀂":9319,"퀃":9320,"퀄":9321,"퀅":9322,"퀆":9323,"퀇":9324,"퀈":9325,"퀉":9326,"퀊":9327,"퀋":9328,"퀌":9329,"퀍":9330,"퀎":9331,"퀏":9332,"퀐":9333,"퀑":9334,"퀒":9335,"퀓":9336,"퀔":9337,"퀕":9338,"퀖":9339,"퀗":9340,"퀘":9341,"퀙":9342,"퀚":9343,"퀛":9344,"퀜":9345,"퀝":9346,"퀞":9347,"퀟":9348,"퀠":9349,"퀡":9350,"퀢":9351,"퀣":9352,"퀤":9353,"퀥":9354,"퀦":9355,"퀧":9356,"퀨":9357,"퀩":9358,"퀪":9359,"퀫":9360,"퀬":9361,"퀭":9362,"퀮":9363,"퀯":9364,"퀰":9365,"퀱":9366,"퀲":9367,"퀳":9368,"퀴":9369,"퀵":9370,"퀶":9371,"퀷":9372,"퀸":9373,"퀹":9374,"퀺":9375,"퀻":9376,"퀼":9377,"퀽":9378,"퀾":9379,"퀿":9380,"큀":9381,"큁":9382,"큂":9383,"큃":9384,"큄":9385,"큅":9386,"큆":9387,"큇":9388,"큈":9389,"큉":9390,"큊":9391,"큋":9392,"큌":9393,"큍":9394,"큎":9395,"큏":9396,"큐":9397,"큑":9398,"큒":9399,"큓":9400,"큔":9401,"큕":9402,"큖":9403,"큗":9404,"큘":9405,"큙":9406,"큚":9407,"큛":9408,"큜":9409,"큝":9410,"큞":9411,"큟":9412,"큠":9413,"큡":9414,"큢":9415,"큣":9416,"큤":9417,"큥":9418,"큦":9419,"큧":9420,"큨":9421,"큩":9422,"큪":9423,"큫":9424,"크":9425,"큭":9426,"큮":9427,"큯":9428,"큰":9429,"큱":9430,"큲":9431,"큳":9432,"클":9433,"큵":9434,"큶":9435,"큷":9436,"큸":9437,"큹":9438,"큺":9439,"큻":9440,"큼":9441,"큽":9442,"큾":9443,"큿":9444,"킀":9445,"킁":9446,"킂":9447,"킃":9448,"킄":9449,"킅":9450,"킆":9451,"킇":9452,"킈":9453,"킉":9454,"킊":9455,"킋":9456,"킌":9457,"킍":9458,"킎":9459,"킏":9460,"킐":9461,"킑":9462,"킒":9463,"킓":9464,"킔":9465,"킕":9466,"킖":9467,"킗":9468,"킘":9469,"킙":9470,"킚":9471,"킛":9472,"킜":9473,"킝":9474,"킞":9475,"킟":9476,"킠":9477,"킡":9478,"킢":9479,"킣":9480,"키":9481,"킥":9482,"킦":9483,"킧":9484,"킨":9485,"킩":9486,"킪":9487,"킫":9488,"킬":9489,"킭":9490,"킮":9491,"킯":9492,"킰":9493,"킱":9494,"킲":9495,"킳":9496,"킴":9497,"킵":9498,"킶":9499,"킷":9500,"킸":9501,"킹":9502,"킺":9503,"킻":9504,"킼":9505,"킽":9506,"킾":9507,"킿":9508,"타":9509,"탁":9510,"탂":9511,"탃":9512,"탄":9513,"탅":9514,"탆":9515,"탇":9516,"탈":9517,"탉":9518,"탊":9519,"탋":9520,"탌":9521,"탍":9522,"탎":9523,"탏":9524,"탐":9525,"탑":9526,"탒":9527,"탓":9528,"탔":9529,"탕":9530,"탖":9531,"탗":9532,"탘":9533,"탙":9534,"탚":9535,"탛":9536,"태":9537,"택":9538,"탞":9539,"탟":9540,"탠":9541,"탡":9542,"탢":9543,"탣":9544,"탤":9545,"탥":9546,"탦":9547,"탧":9548,"탨":9549,"탩":9550,"탪":9551,"탫":9552,"탬":9553,"탭":9554,"탮":9555,"탯":9556,"탰":9557,"탱":9558,"탲":9559,"탳":9560,"탴":9561,"탵":9562,"탶":9563,"탷":9564,"탸":9565,"탹":9566,"탺":9567,"탻":9568,"탼":9569,"탽":9570,"탾":9571,"탿":9572,"턀":9573,"턁":9574,"턂":9575,"턃":9576,"턄":9577,"턅":9578,"턆":9579,"턇":9580,"턈":9581,"턉":9582,"턊":9583,"턋":9584,"턌":9585,"턍":9586,"턎":9587,"턏":9588,"턐":9589,"턑":9590,"턒":9591,"턓":9592,"턔":9593,"턕":9594,"턖":9595,"턗":9596,"턘":9597,"턙":9598,"턚":9599,"턛":9600,"턜":9601,"턝":9602,"턞":9603,"턟":9604,"턠":9605,"턡":9606,"턢":9607,"턣":9608,"턤":9609,"턥":9610,"턦":9611,"턧":9612,"턨":9613,"턩":9614,"턪":9615,"턫":9616,"턬":9617,"턭":9618,"턮":9619,"턯":9620,"터":9621,"턱":9622,"턲":9623,"턳":9624,"턴":9625,"턵":9626,"턶":9627,"턷":9628,"털":9629,"턹":9630,"턺":9631,"턻":9632,"턼":9633,"턽":9634,"턾":9635,"턿":9636,"텀":9637,"텁":9638,"텂":9639,"텃":9640,"텅":9641,"텆":9642,"텇":9643,"텈":9644,"텉":9645,"텊":9646,"텋":9647,"테":9648,"텍":9649,"텎":9650,"텏":9651,"텐":9652,"텑":9653,"텒":9654,"텓":9655,"텔":9656,"텕":9657,"텖":9658,"텗":9659,"텘":9660,"텙":9661,"텚":9662,"텛":9663,"템":9664,"텝":9665,"텞":9666,"텟":9667,"텠":9668,"텡":9669,"텢":9670,"텣":9671,"텤":9672,"텥":9673,"텦":9674,"텧":9675,"텨":9676,"텩":9677,"텪":9678,"텫":9679,"텬":9680,"텭":9681,"텮":9682,"텯":9683,"텰":9684,"텱":9685,"텲":9686,"텳":9687,"텴":9688,"텵":9689,"텶":9690,"텷":9691,"텸":9692,"텹":9693,"텺":9694,"텻":9695,"텼":9696,"텽":9697,"텾":9698,"텿":9699,"톀":9700,"톁":9701,"톂":9702,"톃":9703,"톄":9704,"톅":9705,"톆":9706,"톇":9707,"톈":9708,"톉":9709,"톊":9710,"톋":9711,"톌":9712,"톍":9713,"톎":9714,"톏":9715,"톐":9716,"톑":9717,"톒":9718,"톓":9719,"톔":9720,"톕":9721,"톖":9722,"톗":9723,"톘":9724,"톙":9725,"톚":9726,"톛":9727,"톜":9728,"톝":9729,"톞":9730,"톟":9731,"토":9732,"톡":9733,"톢":9734,"톣":9735,"톤":9736,"톥":9737,"톦":9738,"톧":9739,"톨":9740,"톩":9741,"톪":9742,"톫":9743,"톬":9744,"톭":9745,"톮":9746,"톯":9747,"톰":9748,"톱":9749,"톲":9750,"톳":9751,"톴":9752,"통":9753,"톶":9754,"톷":9755,"톸":9756,"톹":9757,"톺":9758,"톻":9759,"톼":9760,"톽":9761,"톾":9762,"톿":9763,"퇀":9764,"퇁":9765,"퇂":9766,"퇃":9767,"퇄":9768,"퇅":9769,"퇆":9770,"퇇":9771,"퇈":9772,"퇉":9773,"퇊":9774,"퇋":9775,"퇌":9776,"퇍":9777,"퇎":9778,"퇏":9779,"퇐":9780,"퇑":9781,"퇒":9782,"퇓":9783,"퇔":9784,"퇕":9785,"퇖":9786,"퇗":9787,"퇘":9788,"퇙":9789,"퇚":9790,"퇛":9791,"퇜":9792,"퇝":9793,"퇞":9794,"퇟":9795,"퇠":9796,"퇡":9797,"퇢":9798,"퇣":9799,"퇤":9800,"퇥":9801,"퇦":9802,"퇧":9803,"퇨":9804,"퇩":9805,"퇪":9806,"퇫":9807,"퇬":9808,"퇭":9809,"퇮":9810,"퇯":9811,"퇰":9812,"퇱":9813,"퇲":9814,"퇳":9815,"퇴":9816,"퇵":9817,"퇶":9818,"퇷":9819,"퇸":9820,"퇹":9821,"퇺":9822,"퇻":9823,"퇼":9824,"퇽":9825,"퇾":9826,"퇿":9827,"툀":9828,"툁":9829,"툂":9830,"툃":9831,"툄":9832,"툅":9833,"툆":9834,"툇":9835,"툈":9836,"툉":9837,"툊":9838,"툋":9839,"툌":9840,"툍":9841,"툎":9842,"툏":9843,"툐":9844,"툑":9845,"툒":9846,"툓":9847,"툔":9848,"툕":9849,"툖":9850,"툗":9851,"툘":9852,"툙":9853,"툚":9854,"툛":9855,"툜":9856,"툝":9857,"툞":9858,"툟":9859,"툠":9860,"툡":9861,"툢":9862,"툣":9863,"툤":9864,"툥":9865,"툦":9866,"툧":9867,"툨":9868,"툩":9869,"툪":9870,"툫":9871,"투":9872,"툭":9873,"툮":9874,"툯":9875,"툰":9876,"툱":9877,"툲":9878,"툳":9879,"툴":9880,"툵":9881,"툶":9882,"툷":9883,"툸":9884,"툹":9885,"툺":9886,"툻":9887,"툼":9888,"툽":9889,"툾":9890,"툿":9891,"퉀":9892,"퉁":9893,"퉂":9894,"퉃":9895,"퉄":9896,"퉅":9897,"퉆":9898,"퉇":9899,"퉈":9900,"퉉":9901,"퉊":9902,"퉋":9903,"퉌":9904,"퉍":9905,"퉎":9906,"퉏":9907,"퉐":9908,"퉑":9909,"퉒":9910,"퉓":9911,"퉔":9912,"퉕":9913,"퉖":9914,"퉗":9915,"퉘":9916,"퉙":9917,"퉚":9918,"퉛":9919,"퉜":9920,"퉝":9921,"퉞":9922,"퉟":9923,"퉠":9924,"퉡":9925,"퉢":9926,"퉣":9927,"퉤":9928,"퉥":9929,"퉦":9930,"퉧":9931,"퉨":9932,"퉩":9933,"퉪":9934,"퉫":9935,"퉬":9936,"퉭":9937,"퉮":9938,"퉯":9939,"퉰":9940,"퉱":9941,"퉲":9942,"퉳":9943,"퉴":9944,"퉵":9945,"퉶":9946,"퉷":9947,"퉸":9948,"퉹":9949,"퉺":9950,"퉻":9951,"퉼":9952,"퉽":9953,"퉾":9954,"퉿":9955,"튀":9956,"튁":9957,"튂":9958,"튃":9959,"튄":9960,"튅":9961,"튆":9962,"튇":9963,"튈":9964,"튉":9965,"튊":9966,"튋":9967,"튌":9968,"튍":9969,"튎":9970,"튏":9971,"튐":9972,"튑":9973,"튒":9974,"튓":9975,"튔":9976,"튕":9977,"튖":9978,"튗":9979,"튘":9980,"튙":9981,"튚":9982,"튛":9983,"튜":9984,"튝":9985,"튞":9986,"튟":9987,"튠":9988,"튡":9989,"튢":9990,"튣":9991,"튤":9992,"튥":9993,"튦":9994,"튧":9995,"튨":9996,"튩":9997,"튪":9998,"튫":9999,"튬":10000,"튭":10001,"튮":10002,"튯":10003,"튰":10004,"튱":10005,"튲":10006,"튳":10007,"튴":10008,"튵":10009,"튶":10010,"튷":10011,"트":10012,"특":10013,"튺":10014,"튻":10015,"튼":10016,"튽":10017,"튾":10018,"튿":10019,"틀":10020,"틁":10021,"틂":10022,"틃":10023,"틄":10024,"틅":10025,"틆":10026,"틇":10027,"틈":10028,"틉":10029,"틊":10030,"틋":10031,"틌":10032,"틍":10033,"틎":10034,"틏":10035,"틐":10036,"틑":10037,"틒":10038,"틓":10039,"틔":10040,"틕":10041,"틖":10042,"틗":10043,"틘":10044,"틙":10045,"틚":10046,"틛":10047,"틜":10048,"틝":10049,"틞":10050,"틟":10051,"틠":10052,"틡":10053,"틢":10054,"틣":10055,"틤":10056,"틥":10057,"틦":10058,"틧":10059,"틨":10060,"틩":10061,"틪":10062,"틫":10063,"틬":10064,"틭":10065,"틮":10066,"틯":10067,"티":10068,"틱":10069,"틲":10070,"틳":10071,"틴":10072,"틵":10073,"틶":10074,"틷":10075,"틸":10076,"틹":10077,"틺":10078,"틻":10079,"틼":10080,"틽":10081,"틾":10082,"틿":10083,"팀":10084,"팁":10085,"팂":10086,"팃":10087,"팄":10088,"팅":10089,"팆":10090,"팇":10091,"팈":10092,"팉":10093,"팊":10094,"팋":10095,"파":10096,"팍":10097,"팎":10098,"팏":10099,"판":10100,"팑":10101,"팒":10102,"팓":10103,"팔":10104,"팕":10105,"팖":10106,"팗":10107,"팘":10108,"팙":10109,"팚":10110,"팛":10111,"팜":10112,"팝":10113,"팞":10114,"팟":10115,"팠":10116,"팡":10117,"팢":10118,"팣":10119,"팤":10120,"팥":10121,"팦":10122,"팧":10123,"패":10124,"팩":10125,"팪":10126,"팫":10127,"팬":10128,"팭":10129,"팮":10130,"팯":10131,"팰":10132,"팱":10133,"팲":10134,"팳":10135,"팴":10136,"팵":10137,"팶":10138,"팷":10139,"팸":10140,"팹":10141,"팺":10142,"팻":10143,"팽":10144,"팾":10145,"팿":10146,"퍀":10147,"퍁":10148,"퍂":10149,"퍃":10150,"퍄":10151,"퍅":10152,"퍆":10153,"퍇":10154,"퍈":10155,"퍉":10156,"퍊":10157,"퍋":10158,"퍌":10159,"퍍":10160,"퍎":10161,"퍏":10162,"퍐":10163,"퍑":10164,"퍒":10165,"퍓":10166,"퍔":10167,"퍕":10168,"퍖":10169,"퍗":10170,"퍘":10171,"퍙":10172,"퍚":10173,"퍛":10174,"퍜":10175,"퍝":10176,"퍞":10177,"퍟":10178,"퍠":10179,"퍡":10180,"퍢":10181,"퍣":10182,"퍤":10183,"퍥":10184,"퍦":10185,"퍧":10186,"퍨":10187,"퍩":10188,"퍪":10189,"퍫":10190,"퍬":10191,"퍭":10192,"퍮":10193,"퍯":10194,"퍰":10195,"퍱":10196,"퍲":10197,"퍳":10198,"퍴":10199,"퍵":10200,"퍶":10201,"퍷":10202,"퍸":10203,"퍹":10204,"퍺":10205,"퍻":10206,"퍼":10207,"퍽":10208,"퍾":10209,"퍿":10210,"펀":10211,"펁":10212,"펂":10213,"펃":10214,"펄":10215,"펅":10216,"펆":10217,"펇":10218,"펈":10219,"펉":10220,"펊":10221,"펋":10222,"펌":10223,"펍":10224,"펎":10225,"펏":10226,"펐":10227,"펑":10228,"펒":10229,"펓":10230,"펔":10231,"펕":10232,"펖":10233,"펗":10234,"페":10235,"펙":10236,"펚":10237,"펛":10238,"펜":10239,"펝":10240,"펞":10241,"펟":10242,"펠":10243,"펡":10244,"펢":10245,"펣":10246,"펤":10247,"펥":10248,"펦":10249,"펧":10250,"펨":10251,"펩":10252,"펪":10253,"펫":10254,"펬":10255,"펭":10256,"펮":10257,"펯":10258,"펰":10259,"펱":10260,"펲":10261,"펳":10262,"펴":10263,"펵":10264,"펶":10265,"펷":10266,"편":10267,"펹":10268,"펺":10269,"펻":10270,"펼":10271,"펽":10272,"펾":10273,"펿":10274,"폀":10275,"폁":10276,"폂":10277,"폃":10278,"폄":10279,"폅":10280,"폆":10281,"폇":10282,"평":10283,"폊":10284,"폋":10285,"폌":10286,"폍":10287,"폎":10288,"폏":10289,"폐":10290,"폑":10291,"폒":10292,"폓":10293,"폔":10294,"폕":10295,"폖":10296,"폗":10297,"폘":10298,"폙":10299,"폚":10300,"폛":10301,"폜":10302,"폝":10303,"폞":10304,"폟":10305,"폠":10306,"폡":10307,"폢":10308,"폣":10309,"폤":10310,"폥":10311,"폦":10312,"폧":10313,"폨":10314,"폩":10315,"폪":10316,"폫":10317,"포":10318,"폭":10319,"폮":10320,"폯":10321,"폰":10322,"폱":10323,"폲":10324,"폳":10325,"폴":10326,"폵":10327,"폶":10328,"폷":10329,"폸":10330,"폹":10331,"폺":10332,"폻":10333,"폼":10334,"폽":10335,"폾":10336,"폿":10337,"퐀":10338,"퐁":10339,"퐂":10340,"퐃":10341,"퐄":10342,"퐅":10343,"퐆":10344,"퐇":10345,"퐈":10346,"퐉":10347,"퐊":10348,"퐋":10349,"퐌":10350,"퐍":10351,"퐎":10352,"퐏":10353,"퐐":10354,"퐑":10355,"퐒":10356,"퐓":10357,"퐔":10358,"퐕":10359,"퐖":10360,"퐗":10361,"퐘":10362,"퐙":10363,"퐚":10364,"퐛":10365,"퐜":10366,"퐝":10367,"퐞":10368,"퐟":10369,"퐠":10370,"퐡":10371,"퐢":10372,"퐣":10373,"퐤":10374,"퐥":10375,"퐦":10376,"퐧":10377,"퐨":10378,"퐩":10379,"퐪":10380,"퐫":10381,"퐬":10382,"퐭":10383,"퐮":10384,"퐯":10385,"퐰":10386,"퐱":10387,"퐲":10388,"퐳":10389,"퐴":10390,"퐵":10391,"퐶":10392,"퐷":10393,"퐸":10394,"퐹":10395,"퐺":10396,"퐻":10397,"퐼":10398,"퐽":10399,"퐾":10400,"퐿":10401,"푀":10402,"푁":10403,"푂":10404,"푃":10405,"푄":10406,"푅":10407,"푆":10408,"푇":10409,"푈":10410,"푉":10411,"푊":10412,"푋":10413,"푌":10414,"푍":10415,"푎":10416,"푏":10417,"푐":10418,"푑":10419,"푒":10420,"푓":10421,"푔":10422,"푕":10423,"푖":10424,"푗":10425,"푘":10426,"푙":10427,"푚":10428,"푛":10429,"표":10430,"푝":10431,"푞":10432,"푟":10433,"푠":10434,"푡":10435,"푢":10436,"푣":10437,"푤":10438,"푥":10439,"푦":10440,"푧":10441,"푨":10442,"푩":10443,"푪":10444,"푫":10445,"푬":10446,"푭":10447,"푮":10448,"푯":10449,"푰":10450,"푱":10451,"푲":10452,"푳":10453,"푴":10454,"푵":10455,"푶":10456,"푷":10457,"푸":10458,"푹":10459,"푺":10460,"푻":10461,"푼":10462,"푽":10463,"푾":10464,"푿":10465,"풀":10466,"풁":10467,"풂":10468,"풃":10469,"풄":10470,"풅":10471,"풆":10472,"풇":10473,"품":10474,"풉":10475,"풊":10476,"풋":10477,"풌":10478,"풍":10479,"풎":10480,"풏":10481,"풐":10482,"풑":10483,"풒":10484,"풓":10485,"풔":10486,"풕":10487,"풖":10488,"풗":10489,"풘":10490,"풙":10491,"풚":10492,"풛":10493,"풜":10494,"풝":10495,"풞":10496,"풟":10497,"풠":10498,"풡":10499,"풢":10500,"풣":10501,"풤":10502,"풥":10503,"풦":10504,"풧":10505,"풨":10506,"풩":10507,"풪":10508,"풫":10509,"풬":10510,"풭":10511,"풮":10512,"풯":10513,"풰":10514,"풱":10515,"풲":10516,"풳":10517,"풴":10518,"풵":10519,"풶":10520,"풷":10521,"풸":10522,"풹":10523,"풺":10524,"풻":10525,"풼":10526,"풽":10527,"풾":10528,"풿":10529,"퓀":10530,"퓁":10531,"퓂":10532,"퓃":10533,"퓄":10534,"퓅":10535,"퓆":10536,"퓇":10537,"퓈":10538,"퓉":10539,"퓊":10540,"퓋":10541,"퓌":10542,"퓍":10543,"퓎":10544,"퓏":10545,"퓐":10546,"퓑":10547,"퓒":10548,"퓓":10549,"퓔":10550,"퓕":10551,"퓖":10552,"퓗":10553,"퓘":10554,"퓙":10555,"퓚":10556,"퓛":10557,"퓜":10558,"퓝":10559,"퓞":10560,"퓟":10561,"퓠":10562,"퓡":10563,"퓢":10564,"퓣":10565,"퓤":10566,"퓥":10567,"퓦":10568,"퓧":10569,"퓨":10570,"퓩":10571,"퓪":10572,"퓫":10573,"퓬":10574,"퓭":10575,"퓮":10576,"퓯":10577,"퓰":10578,"퓱":10579,"퓲":10580,"퓳":10581,"퓴":10582,"퓵":10583,"퓶":10584,"퓷":10585,"퓸":10586,"퓹":10587,"퓺":10588,"퓻":10589,"퓼":10590,"퓽":10591,"퓾":10592,"퓿":10593,"픀":10594,"픁":10595,"픂":10596,"픃":10597,"프":10598,"픅":10599,"픆":10600,"픇":10601,"픈":10602,"픉":10603,"픊":10604,"픋":10605,"플":10606,"픍":10607,"픎":10608,"픏":10609,"픐":10610,"픑":10611,"픒":10612,"픓":10613,"픔":10614,"픕":10615,"픖":10616,"픗":10617,"픘":10618,"픙":10619,"픚":10620,"픛":10621,"픜":10622,"픝":10623,"픞":10624,"픟":10625,"픠":10626,"픡":10627,"픢":10628,"픣":10629,"픤":10630,"픥":10631,"픦":10632,"픧":10633,"픨":10634,"픩":10635,"픪":10636,"픫":10637,"픬":10638,"픭":10639,"픮":10640,"픯":10641,"픰":10642,"픱":10643,"픲":10644,"픳":10645,"픴":10646,"픵":10647,"픶":10648,"픷":10649,"픸":10650,"픹":10651,"픺":10652,"픻":10653,"피":10654,"픽":10655,"픾":10656,"픿":10657,"핀":10658,"핁":10659,"핂":10660,"핃":10661,"필":10662,"핅":10663,"핆":10664,"핇":10665,"핈":10666,"핉":10667,"핊":10668,"핋":10669,"핌":10670,"핍":10671,"핎":10672,"핏":10673,"핐":10674,"핑":10675,"핒":10676,"핓":10677,"핔":10678,"핕":10679,"핖":10680,"핗":10681,"하":10682,"학":10683,"핚":10684,"핛":10685,"한":10686,"핝":10687,"핞":10688,"핟":10689,"할":10690,"핡":10691,"핢":10692,"핣":10693,"핤":10694,"핥":10695,"핦":10696,"핧":10697,"함":10698,"합":10699,"핪":10700,"핫":10701,"핬":10702,"항":10703,"핮":10704,"핯":10705,"핰":10706,"핱":10707,"핲":10708,"핳":10709,"해":10710,"핵":10711,"핶":10712,"핷":10713,"핸":10714,"핹":10715,"핺":10716,"핻":10717,"핼":10718,"핽":10719,"핾":10720,"핿":10721,"햀":10722,"햁":10723,"햂":10724,"햃":10725,"햄":10726,"햅":10727,"햆":10728,"햇":10729,"했":10730,"행":10731,"햊":10732,"햋":10733,"햌":10734,"햍":10735,"햎":10736,"햏":10737,"햐":10738,"햑":10739,"햒":10740,"햓":10741,"햔":10742,"햕":10743,"햖":10744,"햗":10745,"햘":10746,"햙":10747,"햚":10748,"햛":10749,"햜":10750,"햝":10751,"햞":10752,"햟":10753,"햠":10754,"햡":10755,"햢":10756,"햣":10757,"햤":10758,"향":10759,"햦":10760,"햧":10761,"햨":10762,"햩":10763,"햪":10764,"햫":10765,"햬":10766,"햭":10767,"햮":10768,"햯":10769,"햰":10770,"햱":10771,"햲":10772,"햳":10773,"햴":10774,"햵":10775,"햶":10776,"햷":10777,"햸":10778,"햹":10779,"햺":10780,"햻":10781,"햼":10782,"햽":10783,"햾":10784,"햿":10785,"헁":10786,"헂":10787,"헃":10788,"헄":10789,"헅":10790,"헆":10791,"헇":10792,"허":10793,"헉":10794,"헊":10795,"헋":10796,"헌":10797,"헍":10798,"헎":10799,"헏":10800,"헐":10801,"헑":10802,"헒":10803,"헓":10804,"헔":10805,"헕":10806,"헖":10807,"헗":10808,"험":10809,"헙":10810,"헚":10811,"헛":10812,"헝":10813,"헞":10814,"헟":10815,"헠":10816,"헡":10817,"헢":10818,"헣":10819,"헤":10820,"헥":10821,"헦":10822,"헧":10823,"헨":10824,"헩":10825,"헪":10826,"헫":10827,"헬":10828,"헭":10829,"헮":10830,"헯":10831,"헰":10832,"헱":10833,"헲":10834,"헳":10835,"헴":10836,"헵":10837,"헶":10838,"헷":10839,"헹":10840,"헺":10841,"헻":10842,"헼":10843,"헽":10844,"헾":10845,"헿":10846,"혀":10847,"혁":10848,"혂":10849,"혃":10850,"현":10851,"혅":10852,"혆":10853,"혇":10854,"혈":10855,"혉":10856,"혊":10857,"혋":10858,"혌":10859,"혍":10860,"혎":10861,"혏":10862,"혐":10863,"협":10864,"혒":10865,"혓":10866,"혔":10867,"형":10868,"혖":10869,"혗":10870,"혘":10871,"혙":10872,"혚":10873,"혛":10874,"혜":10875,"혝":10876,"혞":10877,"혟":10878,"혠":10879,"혡":10880,"혢":10881,"혣":10882,"혤":10883,"혥":10884,"혦":10885,"혧":10886,"혨":10887,"혩":10888,"혪":10889,"혫":10890,"혬":10891,"혭":10892,"혮":10893,"혯":10894,"혰":10895,"혱":10896,"혲":10897,"혳":10898,"혴":10899,"혵":10900,"혶":10901,"혷":10902,"호":10903,"혹":10904,"혺":10905,"혻":10906,"혼":10907,"혽":10908,"혾":10909,"혿":10910,"홀":10911,"홁":10912,"홂":10913,"홃":10914,"홄":10915,"홅":10916,"홆":10917,"홇":10918,"홈":10919,"홉":10920,"홊":10921,"홋":10922,"홌":10923,"홍":10924,"홎":10925,"홏":10926,"홐":10927,"홑":10928,"홒":10929,"홓":10930,"화":10931,"확":10932,"홖":10933,"홗":10934,"환":10935,"홙":10936,"홚":10937,"홛":10938,"활":10939,"홝":10940,"홞":10941,"홟":10942,"홠":10943,"홡":10944,"홢":10945,"홣":10946,"홤":10947,"홥":10948,"홦":10949,"홧":10950,"홨":10951,"황":10952,"홪":10953,"홫":10954,"홬":10955,"홭":10956,"홮":10957,"홯":10958,"홰":10959,"홱":10960,"홲":10961,"홳":10962,"홴":10963,"홵":10964,"홶":10965,"홷":10966,"홸":10967,"홹":10968,"홺":10969,"홻":10970,"홼":10971,"홽":10972,"홾":10973,"홿":10974,"횀":10975,"횁":10976,"횂":10977,"횃":10978,"횄":10979,"횅":10980,"횆":10981,"횇":10982,"횈":10983,"횉":10984,"횊":10985,"횋":10986,"회":10987,"획":10988,"횎":10989,"횏":10990,"횐":10991,"횑":10992,"횒":10993,"횓":10994,"횔":10995,"횕":10996,"횖":10997,"횗":10998,"횘":10999,"횙":11000,"횚":11001,"횛":11002,"횜":11003,"횝":11004,"횞":11005,"횟":11006,"횠":11007,"횡":11008,"횢":11009,"횣":11010,"횤":11011,"횥":11012,"횦":11013,"횧":11014,"효":11015,"횩":11016,"횪":11017,"횫":11018,"횬":11019,"횭":11020,"횮":11021,"횯":11022,"횰":11023,"횱":11024,"횲":11025,"횳":11026,"횴":11027,"횵":11028,"횶":11029,"횷":11030,"횸":11031,"횹":11032,"횺":11033,"횻":11034,"횼":11035,"횽":11036,"횾":11037,"횿":11038,"훀":11039,"훁":11040,"훂":11041,"훃":11042,"후":11043,"훅":11044,"훆":11045,"훇":11046,"훈":11047,"훉":11048,"훊":11049,"훋":11050,"훌":11051,"훍":11052,"훎":11053,"훏":11054,"훐":11055,"훑":11056,"훒":11057,"훓":11058,"훔":11059,"훕":11060,"훖":11061,"훗":11062,"훘":11063,"훙":11064,"훚":11065,"훛":11066,"훜":11067,"훝":11068,"훞":11069,"훟":11070,"훠":11071,"훡":11072,"훢":11073,"훣":11074,"훤":11075,"훥":11076,"훦":11077,"훧":11078,"훨":11079,"훩":11080,"훪":11081,"훫":11082,"훬":11083,"훭":11084,"훮":11085,"훯":11086,"훰":11087,"훱":11088,"훲":11089,"훳":11090,"훴":11091,"훵":11092,"훶":11093,"훷":11094,"훸":11095,"훹":11096,"훺":11097,"훻":11098,"훼":11099,"훽":11100,"훾":11101,"훿":11102,"휀":11103,"휁":11104,"휂":11105,"휃":11106,"휄":11107,"휅":11108,"휆":11109,"휇":11110,"휈":11111,"휉":11112,"휊":11113,"휋":11114,"휌":11115,"휍":11116,"휎":11117,"휏":11118,"휐":11119,"휑":11120,"휒":11121,"휓":11122,"휔":11123,"휕":11124,"휖":11125,"휗":11126,"휘":11127,"휙":11128,"휚":11129,"휛":11130,"휜":11131,"휝":11132,"휞":11133,"휟":11134,"휠":11135,"휡":11136,"휢":11137,"휣":11138,"휤":11139,"휥":11140,"휦":11141,"휧":11142,"휨":11143,"휩":11144,"휪":11145,"휫":11146,"휬":11147,"휭":11148,"휮":11149,"휯":11150,"휰":11151,"휱":11152,"휲":11153,"휳":11154,"휴":11155,"휵":11156,"휶":11157,"휷":11158,"휸":11159,"휹":11160,"휺":11161,"휻":11162,"휼":11163,"휽":11164,"휾":11165,"휿":11166,"흀":11167,"흁":11168,"흂":11169,"흃":11170,"흄":11171,"흅":11172,"흆":11173,"흇":11174,"흈":11175,"흉":11176,"흊":11177,"흋":11178,"흌":11179,"흍":11180,"흎":11181,"흏":11182,"흐":11183,"흑":11184,"흒":11185,"흓":11186,"흔":11187,"흕":11188,"흖":11189,"흗":11190,"흘":11191,"흙":11192,"흚":11193,"흛":11194,"흜":11195,"흝":11196,"흞":11197,"흟":11198,"흠":11199,"흡":11200,"흢":11201,"흣":11202,"흤":11203,"흥":11204,"흦":11205,"흧":11206,"흨":11207,"흩":11208,"흪":11209,"흫":11210,"희":11211,"흭":11212,"흮":11213,"흯":11214,"흰":11215,"흱":11216,"흲":11217,"흳":11218,"흵":11219,"흶":11220,"흷":11221,"흸":11222,"흹":11223,"흺":11224,"흻":11225,"흼":11226,"흽":11227,"흾":11228,"흿":11229,"힀":11230,"힁":11231,"힂":11232,"힃":11233,"힄":11234,"힅":11235,"힆":11236,"힇":11237,"히":11238,"힉":11239,"힊":11240,"힋":11241,"힌":11242,"힍":11243,"힎":11244,"힏":11245,"힐":11246,"힑":11247,"힒":11248,"힓":11249,"힔":11250,"힕":11251,"힖":11252,"힗":11253,"힘":11254,"힙":11255,"힚":11256,"힛":11257,"힜":11258,"힝":11259,"힞":11260,"힟":11261,"힠":11262,"힡":11263,"힢":11264,"힣":11265,"##구":11266,"##스":11267,"##카":11268,"##0":11269,"##7":11270,"##2":11271,"##4":11272,"##d":11273,"##a":11274,"##p":11275,"##t":11276,"##i":11277,"##v":11278,"##e":11279,"##6":11280,"##1":11281,"##3":11282,"##x":11283,"##o":11284,"##m":11285,"##n":11286,"##창":11287,"##5":11288,"##z":11289,"##b":11290,"##c":11291,"##j":11292,"##r":11293,"##근":11294,"##s":11295,"##l":11296,"##f":11297,"##u":11298,"##W":11299,"##O":11300,"##M":11301,"##I":11302,"##X":11303,"##E":11304,"##R":11305,"##A":11306,"##C":11307,"##H":11308,"##L":11309,"##k":11310,"##P":11311,"##S":11312,"##g":11313,"##D":11314,"##교":11315,"##y":11316,"##h":11317,"##지":11318,"##N":11319,"##계":11320,"##데":11321,"##테":11322,"##쿠":11323,"##레":11324,"##타":11325,"##9":11326,"##8":11327,"##라":11328,"##임":11329,"##진":11330,"##T":11331,"##리":11332,"##만":11333,"##빌":11334,"##천":11335,"##항":11336,"##면":11337,"##읍":11338,"##두":11339,"##주":11340,"##K":11341,"##게":11342,"##체":11343,"##이":11344,"##F":11345,"##V":11346,"##촬":11347,"##에":11348,"##서":11349,"##도":11350,"##ㅌ":11351,"##ㄱ":11352,"##와":11353,"##G":11354,"##U":11355,"##렝":11356,"##훈":11357,"##희":11358,"##인":11359,"##자":11360,"##동":11361,"##코":11362,"##는":11363,"##w":11364,"##현":11365,"##킹":11366,"##심":11367,"##추":11368,"##아":11369,"##족":11370,"##석":11371,"##마":11372,"##양":11373,"##저":11374,"##염":11375,"##역":11376,"##병":11377,"##치":11378,"##료":11379,"##방":11380,"##정":11381,"##업":11382,"##니":11383,"##노":11384,"##B":11385,"##로":11386,"##갈":11387,"##파":11388,"##릿":11389,"##뱃":11390,"##피":11391,"##쉬":11392,"##실":11393,"##순":11394,"##태":11395,"##폴":11396,"##웰":11397,"##>":11398,"##.":11399,"##브":11400,"##럴":11401,"##)":11402,"##/":11403,"##토":11404,"##가":11405,"##네":11406,"##성":11407,"##군":11408,"##신":11409,"##탈":11410,"##윤":11411,"##재":11412,"##비":11413,"##념":11414,"##사":11415,"##좀":11416,"##봉":11417,"##섭":11418,"##중":11419,"##전":11420,"##쭤":11421,"##린":11422,"##홍":11423,"##모":11424,"##공":11425,"##영":11426,"##감":11427,"##차":11428,"##크":11429,"##황":11430,"##나":11431,"##무":11432,"##Q":11433,"##드":11434,"##빗":11435,"##탱":11436,"##경":11437,"##질":11438,"##쟁":11439,"##맨":11440,"##슨":11441,"##q":11442,"##Y":11443,"##혈":11444,"##렌":11445,"##슈":11446,"##베":11447,"##턴":11448,"##고":11449,"##얼":11450,"##미":11451,"##를":11452,"##강":11453,"##Z":11454,"##부":11455,"##루":11456,"##기":11457,"##용":11458,"##안":11459,"##센":11460,"##터":11461,"##김":11462,"##수":11463,"##폰":11464,"##누":11465,"##엘":11466,"##어":11467,"##길":11468,"##ㅇ":11469,"##외":11470,"##축":11471,"##식":11472,"##롱":11473,"##되":11474,"##티":11475,"##유":11476,"##~":11477,"##$":11478,"##%":11479,"##@":11480,"##\"":11481,"##'":11482,"##ㅍ":11483,"##ㅅ":11484,"##ㅂ":11485,"##녕":11486,"##찰":11487,"##국":11488,"##딱":11489,"##후":11490,"##프":11491,"##샌":11492,"##더":11493,"##청":11494,"##달":11495,"##버":11496,"##트":11497,"##펜":11498,"##꼬":11499,"##문":11500,"##각":11501,"##ㅉ":11502,"##하":11503,"##년":11504,"##제":11505,"##점":11506,"##르":11507,"##바":11508,"##흐":11509,"##립":11510,"##오":11511,"##널":11512,"##입":11513,"##=":11514,"##술":11515,"##릉":11516,"##암":11517,"##ㅈ":11518,"##ㄷ":11519,"##다":11520,"##장":11521,"##세":11522,"##상":11523,"##우":11524,"##북":11525,"##슴":11526,"##푸":11527,"##백":11528,"##풍":11529,"##령":11530,"##존":11531,"##틸":11532,"##호":11533,"##록":11534,"##숭":11535,"##발":11536,"##씨":11537,"##걸":11538,"##승":11539,"##낙":11540,"##언":11541,"##대":11542,"##소":11543,"##화":11544,"##산":11545,"##초":11546,"##내":11547,"##칼":11548,"##당":11549,"##분":11550,"##탕":11551,"##개":11552,"##플":11553,"##행":11554,"##검":11555,"##철":11556,"##단":11557,"##요":11558,"##웅":11559,"##처":11560,"##랭":11561,"##큰":11562,"##ㅋ":11563,"##효":11564,"##종":11565,"##시":11566,"##욱":11567,"##함":11568,"##통":11569,"##원":11570,"##생":11571,"##증":11572,"##명":11573,"##탐":11574,"##판":11575,"##금":11576,"##패":11577,"##으":11578,"##총":11579,"##랫":11580,"##춘":11581,"##남":11582,"##보":11583,"##너":11584,"##왕":11585,"##?":11586,"##반":11587,"##야":11588,"##밀":11589,"##샤":11590,"##몽":11591,"##선":11592,"##울":11593,"##해":11594,"##민":11595,"##킨":11596,"##은":11597,"##완":11598,"##징":11599,"##람":11600,"##격":11601,"##의":11602,"##그":11603,"##디":11604,"##탄":11605,"##갑":11606,"##조":11607,"##관":11608,"##블":11609,"##넨":11610,"##불":11611,"##법":11612,"##붉":11613,"##일":11614,"##매":11615,"##과":11616,"##거":11617,"##ㅁ":11618,"##늘":11619,"##츠":11620,"##넥":11621,"##혁":11622,"##간":11623,"##험":11624,"##히":11625,"##속":11626,"##여":11627,"##젠":11628,"##촌":11629,"##톱":11630,"##눈":11631,"##뢰":11632,"##한":11633,"##움":11634,"##꾼":11635,"##십":11636,"##:":11637,"##숙":11638,"##배":11639,"##필":11640,"##환":11641,"##객":11642,"##위":11643,"##벙":11644,"##빈":11645,"##러":11646,"##즈":11647,"##켓":11648,"##릭":11649,"##키":11650,"##퍼":11651,"##랑":11652,"##콘":11653,"##븟":11654,"##즐":11655,"##둥":11656,"##림":11657,"##덕":11658,"##혜":11659,"##밭":11660,"##깍":11661,"##딸":11662,"##음":11663,"##꼴":11664,"##송":11665,"##끼":11666,"##륜":11667,"##란":11668,"##페":11669,"##돌":11670,"##옹":11671,"##담":11672,"##회":11673,"##워":11674,"##넌":11675,"##운":11676,"##+":11677,"##\\":11678,"##-":11679,"##갤":11680,"##들":11681,"##때":11682,"##튀":11683,"##J":11684,"##춧":11685,"##취":11686,"##겐":11687,"##휼":11688,"##권":11689,"##욕":11690,"##핑":11691,"##뷰":11692,"##뵤":11693,"##른":11694,"##벌":11695,"##곡":11696,"##련":11697,"##류":11698,"##허":11699,"##척":11700,"##알":11701,"##캘":11702,"##런":11703,"##준":11704,"##콰":11705,"##납":11706,"##ㅐ":11707,"##ㅊ":11708,"##적":11709,"##량":11710,"##늄":11711,"##틴":11712,"##까":11713,"##떠":11714,"##름":11715,"##팀":11716,"##퉁":11717,"##투":11718,"##잭":11719,"##쩌":11720,"##즘":11721,"##,":11722,"##^":11723,"##집":11724,"##휘":11725,"##본":11726,"##옥":11727,"##벜":11728,"##랜":11729,"##듯":11730,"##온":11731,"##연":11732,"##템":11733,"##꿘":11734,"##포":11735,"##텔":11736,"##을":11737,"##둘":11738,"##콜":11739,"##앉":11740,"##막":11741,"##절":11742,"##활":11743,"##돈":11744,"##앤":11745,"##첩":11746,"##!":11747,"##악":11748,"##택":11749,"##협":11750,"##뵈":11751,"##춤":11752,"##등":11753,"##올":11754,"##랴":11755,"##밤":11756,"##독":11757,"##렉":11758,"##결":11759,"##굴":11760,"##메":11761,"##열":11762,"##쇠":11763,"##클":11764,"##뚜":11765,"##셔":11766,"##약":11767,"##급":11768,"##큐":11769,"##&":11770,"##뿐":11771,"##긴":11772,"##쭈":11773,"##덤":11774,"##ㅡ":11775,"##늬":11776,"##균":11777,"##셋":11778,"##멈":11779,"##쿨":11780,"##셰":11781,"##능":11782,"##케":11783,"##헨":11784,"##ㅙ":11785,"##춰":11786,"##헌":11787,"##홀":11788,"##벨":11789,"##쭉":11790,"##궁":11791,"##럼":11792,"##땅":11793,"##솔":11794,"##털":11795,"##륙":11796,"##형":11797,"##딘":11798,"##놓":11799,"##렐":11800,"##귀":11801,"##흔":11802,"##쾌":11803,"##규":11804,"##뭉":11805,"##삼":11806,"##컹":11807,"##론":11808,"##녀":11809,"##셉":11810,"##웃":11811,"##복":11812,"##싱":11813,"##억":11814,"##좌":11815,"##쾰":11816,"##빅":11817,"##평":11818,"##예":11819,"##<":11820,"##찬":11821,"##웨":11822,"##룡":11823,"##빙":11824,"##편":11825,"##(":11826,"##합":11827,"##학":11828,"##광":11829,"##탑":11830,"##뇨":11831,"##몬":11832,"##돔":11833,"##익":11834,"##논":11835,"##충":11836,"##었":11837,"##냥":11838,"##샨":11839,"##망":11840,"##작":11841,"##묭":11842,"##묘":11843,"##욤":11844,"##]":11845,"##듬":11846,"##답":11847,"##참":11848,"##머":11849,"##봇":11850,"##월":11851,"##맹":11852,"##룸":11853,"##ㅜ":11854,"##ㄴ":11855,"##글":11856,"##난":11857,"##링":11858,"##ㅛ":11859,"##븐":11860,"##슬":11861,"##애":11862,"##침":11863,"##략":11864,"##괴":11865,"##ㅗ":11866,"##룽":11867,"##직":11868,"##뜨":11869,"##렫":11870,"##낭":11871,"##츤":11872,"##물":11873,"##멜":11874,"##압":11875,"##둔":11876,"##톤":11877,"##액":11878,"##럭":11879,"##섬":11880,"##력":11881,"##목":11882,"##앵":11883,"##펀":11884,"##녁":11885,"##칭":11886,"##싸":11887,"##래":11888,"##뜩":11889,"##ㅢ":11890,"##랏":11891,"##살":11892,"##헉":11893,"##ㅄ":11894,"##같":11895,"##댁":11896,"##씬":11897,"##엉":11898,"##락":11899,"##젤":11900,"##츰":11901,"##{":11902,"##팅":11903,"##츨":11904,"##칸":11905,"##깨":11906,"##손":11907,"##끈":11908,"##응":11909,"##톡":11910,"##롭":11911,"##깃":11912,"##뱀":11913,"##딧":11914,"##설":11915,"##뱅":11916,"##건":11917,"##커":11918,"##툼":11919,"##셜":11920,"##럽":11921,"##탁":11922,"##향":11923,"##착":11924,"##할":11925,"##혼":11926,"##떼":11927,"##섹":11928,"##몸":11929,"##극":11930,"##쥐":11931,"##였":11932,"##겔":11933,"##례":11934,"##밑":11935,"##겸":11936,"##첸":11937,"##핸":11938,"##닝":11939,"##째":11940,"##곶":11941,"##멸":11942,"##죄":11943,"##것":11944,"##ㅘ":11945,"##_":11946,"##;":11947,"##된":11948,"##빠":11949,"##벤":11950,"##퀴":11951,"##랙":11952,"##먼":11953,"##땜":11954,"##률":11955,"##딩":11956,"##텐":11957,"##ㅚ":11958,"##ㄳ":11959,"##폭":11960,"##즙":11961,"##며":11962,"##닌":11963,"##또":11964,"##출":11965,"##흥":11966,"##ㅒ":11967,"##ㄻ":11968,"##꾸":11969,"##밈":11970,"##붕":11971,"##번":11972,"##랍":11973,"##표":11974,"##새":11975,"##율":11976,"##없":11977,"##삭":11978,"##틀":11979,"##흙":11980,"##층":11981,"##쌍":11982,"##견":11983,"##던":11984,"##팬":11985,"##ㅓ":11986,"##휴":11987,"##횡":11988,"##혔":11989,"##ㅔ":11990,"##볼":11991,"##렛":11992,"##뉴":11993,"##앗":11994,"##죽":11995,"##|":11996,"###":11997,"##륨":11998,"##범":11999,"##놀":12000,"##얘":12001,"##빨":12002,"##득":12003,"##렬":12004,"##췄":12005,"##[":12006,"##앙":12007,"##므":12008,"##긋":12009,"##밍":12010,"##딜":12011,"##먁":12012,"##최":12013,"##즉":12014,"##삘":12015,"##텅":12016,"##맛":12017,"##믜":12018,"##헤":12019,"##캄":12020,"##쇄":12021,"##골":12022,"##엽":12023,"##뤼":12024,"##깐":12025,"##멘":12026,"##델":12027,"##믹":12028,"##품":12029,"##별":12030,"##쟉":12031,"##*":12032,"##쥬":12033,"##궤":12034,"##ㅀ":12035,"##넵":12036,"##넓":12037,"##느":12038,"##룀":12039,"##박":12040,"##채":12041,"##빔":12042,"##밴":12043,"##칵":12044,"##첬":12045,"##튼":12046,"##측":12047,"##맥":12048,"##잇":12049,"##ㄶ":12050,"##겋":12051,"##롬":12052,"##꽃":12053,"##낀":12054,"##ㅖ":12055,"##닿":12056,"##ㄿ":12057,"##ㅞ":12058,"##엠":12059,"##ㅣ":12060,"##ㅑ":12061,"##멕":12062,"##닐":12063,"##쁜":12064,"##려":12065,"##똥":12066,"##엎":12067,"##팔":12068,"##변":12069,"##촉":12070,"##퀸":12071,"##뽕":12072,"##색":12073,"##줄":12074,"##엔":12075,"##릴":12076,"##얀":12077,"##ㅆ":12078,"##빛":12079,"##챙":12080,"##따":12081,"##뚤":12082,"##띠":12083,"##땡":12084,"##융":12085,"##뻐":12086,"##책":12087,"##닉":12088,"##램":12089,"##힘":12090,"##롤":12091,"##샘":12092,"##ㄹ":12093,"##헬":12094,"##쓰":12095,"##ㄲ":12096,"##있":12097,"##짓":12098,"##첼":12099,"##룬":12100,"##밸":12101,"##븅":12102,"##셀":12103,"##날":12104,"##룩":12105,"##줏":12106,"##덩":12107,"##친":12108,"##죠":12109,"##잡":12110,"##랄":12111,"##푼":12112,"##쇼":12113,"##짝":12114,"##냐":12115,"##닥":12116,"##힐":12117,"##ㄺ":12118,"##샹":12119,"##든":12120,"##핀":12121,"##겨":12122,"##졌":12123,"##콧":12124,"##렁":12125,"##혐":12126,"##뿍":12127,"##윳":12128,"##셈":12129,"##쪽":12130,"##걀":12131,"##믈":12132,"##줘":12133,"##풀":12134,"##꺅":12135,"##ㅏ":12136,"##푹":12137,"##ㄽ":12138,"##혀":12139,"##켸":12140,"##켄":12141,"##쿰":12142,"##괘":12143,"##쳇":12144,"##즌":12145,"##녹":12146,"##칠":12147,"##짱":12148,"##뾸":12149,"##퇴":12150,"##ㄵ":12151,"##벼":12152,"##엥":12153,"##잠":12154,"##육":12155,"##젧":12156,"##헥":12157,"##콤":12158,"##ㄾ":12159,"##듈":12160,"##겁":12161,"##쳐":12162,"##룻":12163,"##꺼":12164,"##왓":12165,"##션":12166,"##푝":12167,"##쏘":12168,"##획":12169,"##흡":12170,"##삐":12171,"##빵":12172,"##숍":12173,"##펙":12174,"##접":12175,"##팥":12176,"##졸":12177,"##둴":12178,"##넷":12179,"##뭇":12180,"##멧":12181,"##습":12182,"##옷":12183,"##잖":12184,"##늑":12185,"##딥":12186,"##덴":12187,"##먀":12188,"##캠":12189,"##듐":12190,"##짜":12191,"##왱":12192,"##떨":12193,"##께":12194,"##엫":12195,"##펄":12196,"##듭":12197,"##뎀":12198,"##켈":12199,"##뇰":12200,"##꽈":12201,"##쩐":12202,"##밥":12203,"##딕":12204,"##잎":12205,"##벽":12206,"##짐":12207,"##큼":12208,"##낼":12209,"##찌":12210,"##ㅎ":12211,"##말":12212,"##뇌":12213,"##빰":12214,"##맞":12215,"##윌":12216,"##엄":12217,"##섯":12218,"##멤":12219,"##궐":12220,"##킬":12221,"##렇":12222,"##쟈":12223,"##셸":12224,"##뿅":12225,"##짚":12226,"##쥔":12227,"##꺽":12228,"##엑":12229,"##찻":12230,"##켁":12231,"##넹":12232,"##잘":12233,"##뺨":12234,"##잔":12235,"##햄":12236,"##껑":12237,"##떡":12238,"##빼":12239,"##꿏":12240,"##펠":12241,"##늦":12242,"##쿄":12243,"##샛":12244,"##특":12245,"##봐":12246,"##}":12247,"##뺑":12248,"##윈":12249,"##쯔":12250,"##곤":12251,"##뮈":12252,"##찐":12253,"##뚱":12254,"##져":12255,"##숨":12256,"##컬":12257,"##퍄":12258,"##뇽":12259,"##앜":12260,"##콥":12261,"##똔":12262,"##슌":12263,"##팩":12264,"##쀏":12265,"##얌":12266,"##농":12267,"##듀":12268,"##싀":12269,"##튽":12270,"##님":12271,"##궈":12272,"##틱":12273,"##릅":12274,"##쾅":12275,"##덥":12276,"##껍":12277,"##폐":12278,"##쉘":12279,"##써":12280,"##펑":12281,"##탠":12282,"##ㅕ":12283,"##ㄼ":12284,"##뮤":12285,"##ㅝ":12286,"##힌":12287,"##높":12288,"##싣":12289,"##룹":12290,"##눔":12291,"##킥":12292,"##맑":12293,"##뤄":12294,"##팜":12295,"##믄":12296,"##튬":12297,"##콸":12298,"##몰":12299,"##콻":12300,"##왈":12301,"##뫄":12302,"##댕":12303,"##쟝":12304,"##긔":12305,"##값":12306,"##솽":12307,"##샷":12308,"##둣":12309,"##ㅠ":12310,"##캣":12311,"##벡":12312,"##탓":12313,"##켜":12314,"##옌":12315,"##봄":12316,"##먐":12317,"##솰":12318,"##륵":12319,"##닫":12320,"##굽":12321,"##쌈":12322,"##텀":12323,"##돗":12324,"##볶":12325,"##넘":12326,"##웬":12327,"##잉":12328,"##톨":12329,"##덱":12330,"##죡":12331,"##뷘":12332,"##땀":12333,"##꺄":12334,"##첨":12335,"##쌀":12336,"##콕":12337,"##넬":12338,"##핵":12339,"##슷":12340,"##썰":12341,"##뚝":12342,"##뻬":12343,"##삵":12344,"##헠":12345,"##틋":12346,"##넛":12347,"##튜":12348,"##꿎":12349,"##콩":12350,"##렙":12351,"##먹":12352,"##밖":12353,"##캐":12354,"##렴":12355,"##놈":12356,"##훙":12357,"##셒":12358,"##슾":12359,"##홈":12360,"##받":12361,"##븀":12362,"##쨩":12363,"##텍":12364,"##슐":12365,"##츄":12366,"##썽":12367,"##믕":12368,"##킷":12369,"##캇":12370,"##롄":12371,"##뼈":12372,"##섶":12373,"##잼":12374,"##엣":12375,"##뽀":12376,"##밋":12377,"##슥":12378,"##뿔":12379,"##쉥":12380,"##땁":12381,"##왜":12382,"##셨":12383,"##샬":12384,"##닛":12385,"##쩍":12386,"##뎬":12387,"##앞":12388,"##윅":12389,"##쿤":12390,"##젓":12391,"##잣":12392,"##촐":12393,"##꼭":12394,"##칫":12395,"##뜸":12396,"##`":12397,"##떵":12398,"##겼":12399,"##뽁":12400,"##핫":12401,"##롯":12402,"##웍":12403,"##ㅟ":12404,"##귤":12405,"##붙":12406,"##긤":12407,"##땐":12408,"##흠":12409,"##싯":12410,"##둠":12411,"##ㄸ":12412,"##곳":12413,"##냅":12414,"##켕":12415,"##흉":12416,"##벅":12417,"##짬":12418,"##흣":12419,"##헷":12420,"##갸":12421,"##뜰":12422,"##깔":12423,"##굿":12424,"##돛":12425,"##댜":12426,"##숩":12427,"##쥩":12428,"##냑":12429,"##녘":12430,"##뿀":12431,"##쑴":12432,"##엇":12433,"##싹":12434,"##촨":12435,"##곽":12436,"##퀘":12437,"##핰":12438,"##얄":12439,"##꿔":12440,"##졬":12441,"##삯":12442,"##왔":12443,"##뺵":12444,"##툐":12445,"##쭘":12446,"##뻡":12447,"##윽":12448,"##랩":12449,"##깥":12450,"##힝":12451,"##묵":12452,"##혹":12453,"##윰":12454,"##끔":12455,"##닷":12456,"##딤":12457,"##걱":12458,"##멓":12459,"##뜬":12460,"##앨":12461,"##맇":12462,"##뚸":12463,"##쌩":12464,"##꿈":12465,"##겡":12466,"##끌":12467,"##뺏":12468,"##뷔":12469,"##았":12470,"##깜":12471,"##윙":12472,"##럿":12473,"##랃":12474,"##뿌":12475,"##쪘":12476,"##쳅":12477,"##툴":12478,"##짹":12479,"##퉤":12480,"##끄":12481,"##볜":12482,"##솥":12483,"##옵":12484,"##및":12485,"##쏴":12486,"##쪄":12487,"##찔":12488,"##웹":12489,"##뉘":12490,"##뼛":12491,"##쯋":12492,"##늡":12493,"##확":12494,"##찢":12495,"##솜":12496,"##챱":12497,"##렵":12498,"##읽":12499,"##쉼":12500,"##둑":12501,"##냄":12502,"##컷":12503,"##픔":12504,"##슘":12505,"##긍":12506,"##놋":12507,"##캉":12508,"##팝":12509,"##훤":12510,"##훌":12511,"##쵸":12512,"##늅":12513,"##톈":12514,"##ㅃ":12515,"##뼥":12516,"##핏":12517,"##갯":12518,"##짤":12519,"##픈":12520,"##꿀":12521,"##큘":12522,"##헝":12523,"##흘":12524,"##멍":12525,"##쬬":12526,"##했":12527,"##캔":12528,"##푴":12529,"##웠":12530,"##셴":12531,"##덟":12532,"##괭":12533,"##녔":12534,"##맵":12535,"##엿":12536,"##딪":12537,"##앓":12538,"##깽":12539,"##렸":12540,"##쎄":12541,"##옇":12542,"##쌕":12543,"##쌔":12544,"##윔":12545,"##뻥":12546,"##욜":12547,"##찎":12548,"##잿":12549,"##봅":12550,"##못":12551,"##퓌":12552,"##컨":12553,"##짘":12554,"##틍":12555,"##삿":12556,"##났":12557,"##껏":12558,"##옙":12559,"##쨍":12560,"##깅":12561,"##렘":12562,"##웽":12563,"##쑤":12564,"##굳":12565,"##턱":12566,"##딯":12567,"##챈":12568,"##컴":12569,"##셩":12570,"##쩜":12571,"##믐":12572,"##햅":12573,"##퀵":12574,"##첵":12575,"##퐄":12576,"##훼":12577,"##씽":12578,"##옛":12579,"##젖":12580,"##쏭":12581,"##툰":12582,"##뒷":12583,"##낰":12584,"##찜":12585,"##엡":12586,"##땃":12587,"##볏":12588,"##픖":12589,"##릾":12590,"##캆":12591,"##뾱":12592,"##귬":12593,"##냠":12594,"##썩":12595,"##촷":12596,"##흑":12597,"##곰":12598,"##겟":12599,"##듧":12600,"##돼":12601,"##맘":12602,"##쳤":12603,"##홉":12604,"##쾡":12605,"##칙":12606,"##맷":12607,"##큉":12608,"##쮸":12609,"##숀":12610,"##쑹":12611,"##씹":12612,"##됭":12613,"##쿵":12614,"##띤":12615,"##튠":12616,"##텡":12617,"##깻":12618,"##뜽":12619,"##뎡":12620,"##넣":12621,"##빡":12622,"##럇":12623,"##욧":12624,"##솩":12625,"##웩":12626,"##팽":12627,"##췽":12628,"##눌":12629,"##쩨":12630,"##댈":12631,"##돨":12632,"##촤":12633,"##쑥":12634,"##틈":12635,"##몐":12636,"##삡":12637,"##눙":12638,"##닭":12639,"##낯":12640,"##닙":12641,"##쉐":12642,"##낮":12643,"##챳":12644,"##흰":12645,"##삽":12646,"##촵":12647,"##팡":12648,"##탬":12649,"##츩":12650,"##벵":12651,"##껀":12652,"##앍":12653,"##쀼":12654,"##뀨":12655,"##앳":12656,"##댄":12657,"##힛":12658,"##퐁":12659,"##톳":12660,"##썬":12661,"##갱":12662,"##씀":12663,"##녠":12664,"##뒤":12665,"##뎃":12666,"##얏":12667,"##뎨":12668,"##텨":12669,"##튕":12670,"##릇":12671,"##윗":12672,"##끗":12673,"##쁘":12674,"##숑":12675,"##힉":12676,"##숯":12677,"##겠":12678,"##풋":12679,"##밟":12680,"##홋":12681,"##꿩":12682,"##쳄":12683,"##낸":12684,"##될":12685,"##톰":12686,"##갓":12687,"##긶":12688,"##깎":12689,"##슭":12690,"##웡":12691,"##젝":12692,"##슛":12693,"##읓":12694,"##셍":12695,"##얭":12696,"##쩡":12697,"##빤":12698,"##슙":12699,"##룰":12700,"##퍅":12701,"##쓸":12702,"##샻":12703,"##픽":12704,"##랸":12705,"##떻":12706,"##탯":12707,"##껚":12708,"##떽":12709,"##깟":12710,"##붐":12711,"##샅":12712,"##뻣":12713,"##웁":12714,"##삾":12715,"##퍽":12716,"##뽄":12717,"##끽":12718,"##찮":12719,"##헐":12720,"##멀":12721,"##꼼":12722,"##훽":12723,"##젬":12724,"##쥰":12725,"##핳":12726,"##낚":12727,"##껫":12728,"##챠":12729,"##갔":12730,"##쨔":12731,"##엪":12732,"##삥":12733,"##뮌":12734,"##곱":12735,"##웜":12736,"##릎":12737,"##놉":12738,"##킴":12739,"##멋":12740,"##폿":12741,"##믿":12742,"##덫":12743,"##펌":12744,"##듣":12745,"##뉵":12746,"##끓":12747,"##쌰":12748,"##앱":12749,"##쫓":12750,"##헿":12751,"##쌱":12752,"##붓":12753,"##돕":12754,"##훔":12755,"##둈":12756,"##랔":12757,"##뾘":12758,"##벞":12759,"##낫":12760,"##햘":12761,"##볕":12762,"##탤":12763,"##쉴":12764,"##맴":12765,"##뀐":12766,"##뵥":12767,"##꾜":12768,"##벫":12769,"##썄":12770,"##쯱":12771,"##췁":12772,"##륀":12773,"##놰":12774,"##뒈":12775,"##뻘":12776,"##덜":12777,"##겅":12778,"##챗":12779,"##쯕":12780,"##괳":12781,"##퇀":12782,"##탸":12783,"##옴":12784,"##롸":12785,"##뷸":12786,"##맣":12787,"##륭":12788,"##틷":12789,"##뜜":12790,"##찡":12791,"##뵹":12792,"##펫":12793,"##뮬":12794,"##갠":12795,"##뭄":12796,"##롹":12797,"##촹":12798,"##빱":12799,"##멩":12800,"##랠":12801,"##뚠":12802,"##랗":12803,"##팟":12804,"##쪼":12805,"##깡":12806,"##챔":12807,"##팍":12808,"##줛":12809,"##놗":12810,"##괏":12811,"##솫":12812,"##뗛":12813,"##몼":12814,"##돇":12815,"##돣":12816,"##뢐":12817,"##홳":12818,"##잓":12819,"##웫":12820,"##룫":12821,"##뺃":12822,"##뗣":12823,"##싕":12824,"##찍":12825,"##굼":12826,"##칩":12827,"##쎔":12828,"##냘":12829,"##밧":12830,"##흧":12831,"##띄":12832,"##댐":12833,"##묻":12834,"##뮨":12835,"##뗑":12836,"##녜":12837,"##헣":12838,"##눕":12839,"##벱":12840,"##펨":12841,"##췩":12842,"##뢔":12843,"##눅":12844,"##츙":12845,"##튄":12846,"##갹":12847,"##겕":12848,"##숲":12849,"##끝":12850,"##횟":12851,"##챰":12852,"##뛰":12853,"##샵":12854,"##콴":12855,"##쭐":12856,"##흄":12857,"##럐":12858,"##쨰":12859,"##륶":12860,"##둬":12861,"##좊":12862,"##폄":12863,"##썸":12864,"##힁":12865,"##흫":12866,"##멱":12867,"##벐":12868,"##톄":12869,"##쉽":12870,"##땨":12871,"##짧":12872,"##몹":12873,"##쌓":12874,"##즤":12875,"##땽":12876,"##삑":12877,"##텁":12878,"##읭":12879,"##벳":12880,"##쾨":12881,"##긧":12882,"##왐":12883,"##붸":12884,"##늠":12885,"##꽁":12886,"##얍":12887,"##꿍":12888,"##맬":12889,"##싄":12890,"##귄":12891,"##홐":12892,"##혻":12893,"##윱":12894,"##핥":12895,"##껄":12896,"##긑":12897,"##꺾":12898,"##띵":12899,"##땗":12900,"##뱉":12901,"##냉":12902,"##텝":12903,"##펭":12904,"##뫼":12905,"##냔":12906,"##셤":12907,"##욹":12908,"##쬐":12909,"##겉":12910,"##끆":12911,"##빽":12912,"##씻":12913,"##겹":12914,"##툭":12915,"##컵":12916,"##슼":12917,"##잍":12918,"##끅":12919,"##킦":12920,"##낄":12921,"##끾":12922,"##쓴":12923,"##쬭":12924,"##뾰":12925,"##헵":12926,"##챤":12927,"##슶":12928,"##틊":12929,"##꽂":12930,"##텟":12931,"##꺠":12932,"##햇":12933,"##꼽":12934,"##솝":12935,"##츈":12936,"##곖":12937,"##쵮":12938,"##곲":12939,"##읪":12940,"##욺":12941,"##쒹":12942,"##놔":12943,"##똘":12944,"##궂":12945,"##쵼":12946,"##팸":12947,"##냌":12948,"##껴":12949,"##왁":12950,"##퀼":12951,"##룔":12952,"##숫":12953,"##룝":12954,"##뽑":12955,"##찟":12956,"##떤":12957,"##킁":12958,"##곗":12959,"##켠":12960,"##챃":12961,"##찹":12962,"##젯":12963,"##뎅":12964,"##팰":12965,"##퓰":12966,"##륄":12967,"##퓔":12968,"##벰":12969,"##싼":12970,"##잌":12971,"##튝":12972,"##돤":12973,"##쨕":12974,"##쯧":12975,"##쭛":12976,"##삗":12977,"##딴":12978,"##쌘":12979,"##혠":12980,"##뀌":12981,"##밐":12982,"##휏":12983,"##셷":12984,"##썹":12985,"##젼":12986,"##벗":12987,"##땛":12988,"##밻":12989,"##샒":12990,"##홧":12991,"##줌":12992,"##볘":12993,"##띡":12994,"##헼":12995,"##풉":12996,"##굉":12997,"##늿":12998,"##픅":12999,"##쁐":13000,"##뮴":13001,"##늪":13002,"##꼰":13003,"##삮":13004,"##낱":13005,"##솟":13006,"##믓":13007,"##쯤":13008,"##싫":13009,"##뉼":13010,"##씌":13011,"##퇸":13012,"##엌":13013,"##넴":13014,"##읏":13015,"##졀":13016,"##퓨":13017,"##폼":13018,"##쫀":13019,"##휠":13020,"##덮":13021,"##샴":13022,"##캬":13023,"##늏":13024,"##뭐":13025,"##떈":13026,"##뷜":13027,"##헴":13028,"##핡":13029,"##쌤":13030,"##귪":13031,"##궸":13032,"##궭":13033,"##궼":13034,"##닦":13035,"##좡":13036,"##쒸":13037,"##낪":13038,"##밊":13039,"##앰":13040,"##웻":13041,"##훅":13042,"##훨":13043,"##뜻":13044,"##촘":13045,"##퓩":13046,"##촛":13047,"##찾":13048,"##숴":13049,"##끵":13050,"##쩔":13051,"##틔":13052,"##뀽":13053,"##왑":13054,"##쑝":13055,"##앟":13056,"##떄":13057,"##둇":13058,"##옳":13059,"##랖":13060,"##렷":13061,"##삠":13062,"##꼐":13063,"##냇":13064,"##켤":13065,"##밝":13066,"##핍":13067,"##겜":13068,"##뜯":13069,"##펔":13070,"##롫":13071,"##뻗":13072,"##쑈":13073,"##쎼":13074,"##곻":13075,"##쉰":13076,"##젱":13077,"##뚬":13078,"##퀑":13079,"##붑":13080,"##쳑":13081,"##돋":13082,"##쟌":13083,"##듄":13084,"##뤯":13085,"##룱":13086,"##쫑":13087,"##꽝":13088,"##끕":13089,"##셣":13090,"##핌":13091,"##낑":13092,"##쯉":13093,"##갬":13094,"##췻":13095,"##눗":13096,"##툿":13097,"##뮹":13098,"##퉅":13099,"##툠":13100,"##캌":13101,"##쌥":13102,"##쑨":13103,"##붚":13104,"##듹":13105,"##퉷":13106,"##욘":13107,"##웉":13108,"##꽦":13109,"##햏":13110,"##뤂":13111,"##텃":13112,"##큣":13113,"##훍":13114,"##췌":13115,"##끙":13116,"##훟":13117,"##팻":13118,"##븨":13119,"##굛":13120,"##댦":13121,"##뷁":13122,"##컥":13123,"##냈":13124,"##봤":13125,"##휭":13126,"##칟":13127,"##륑":13128,"##댓":13129,"##킈":13130,"##딈":13131,"##퐳":13132,"##춉":13133,"##뗻":13134,"##빧":13135,"##띧":13136,"##횩":13137,"##좁":13138,"##깝":13139,"##쾃":13140,"##쓱":13141,"##괄":13142,"##걔":13143,"##먏":13144,"##넙":13145,"##쏜":13146,"##귿":13147,"##쿼":13148,"##낏":13149,"##횸":13150,"##쫒":13151,"##팁":13152,"##쏚":13153,"##굇":13154,"##폕":13155,"##않":13156,"##쥽":13157,"##똑":13158,"##훠":13159,"##섴":13160,"##쟣":13161,"##녈":13162,"##씩":13163,"##쐐":13164,"##닻":13165,"##눼":13166,"##많":13167,"##퓻":13168,"##뽈":13169,"##댬":13170,"##훗":13171,"##뻑":13172,"##롼":13173,"##쪙":13174,"##숏":13175,"##쁨":13176,"##듕":13177,"##랕":13178,"##츼":13179,"##욣":13180,"##퉈":13181,"##쥣":13182,"##걕":13183,"##헹":13184,"##롁":13185,"##졍":13186,"##겧":13187,"##묄":13188,"##몇":13189,"##몃":13190,"##씤":13191,"##쨘":13192,"##슁":13193,"##퓍":13194,"##맙":13195,"##귁":13196,"##팎":13197,"##낌":13198,"##뻔":13199,"##캅":13200,"##핱":13201,"##좋":13202,"##긱":13203,"##듥":13204,"##쌜":13205,"##릐":13206,"##꾀":13207,"##젹":13208,"##휵":13209,"##켚":13210,"##뀪":13211,"##릏":13212,"##뜝":13213,"##쵹":13214,"##갛":13215,"##딛":13216,"##칞":13217,"##갖":13218,"##볫":13219,"##먕":13220,"##빳":13221,"##벚":13222,"##볍":13223,"##갚":13224,"##앸":13225,"##듁":13226,"##꽥":13227,"##뱡":13228,"##옐":13229,"##삣":13230,"##뜫":13231,"##뗏":13232,"##곈":13233,"##뎁":13234,"##뇬":13235,"##걲":13236,"##랬":13237,"##맡":13238,"##쁑":13239,"##쉔":13240,"##롮":13241,"##엙":13242,"##댔":13243,"##롇":13244,"##묜":13245,"##옆":13246,"##끜":13247,"##렀":13248,"##홓":13249,"##뀫":13250,"##좆":13251,"##꿋":13252,"##뙤":13253,"##횻":13254,"##쁅":13255,"##뺡":13256,"##뗡":13257,"##뢴":13258,"##꼿":13259,"##뿟":13260,"##쩧":13261,"##꼈":13262,"##뎜":13263,"##윷":13264,"##싴":13265,"##셱":13266,"##샐":13267,"##걋":13268,"##슽":13269,"##휗":13270,"##핲":13271,"##쏠":13272,"##샙":13273,"##돡":13274,"##칣":13275,"##뮐":13276,"##뜳":13277,"##쨉":13278,"##댑":13279,"##뱌":13280,"##슝":13281,"##횦":13282,"##컄":13283,"##젊":13284,"##칽":13285,"##쭝":13286,"##떰":13287,"##퀜":13288,"##쭀":13289,"##짖":13290,"##읶":13291,"##쫄":13292,"##븍":13293,"##슉":13294,"##걷":13295,"##줍":13296,"##칯":13297,"##됴":13298,"##얗":13299,"##깁":13300,"##픗":13301,"##썅":13302,"##떅":13303,"##깊":13304,"##궬":13305,"##돠":13306,"##얔":13307,"##쯪":13308,"##깄":13309,"##펩":13310,"##뀰":13311,"##뗠":13312,"##쥭":13313,"##쉏":13314,"##쥘":13315,"##왘":13316,"##뎻":13317,"##봑":13318,"##켬":13319,"##쁴":13320,"##얅":13321,"##쨈":13322,"##쫩":13323,"##쇳":13324,"##몔":13325,"##갰":13326,"##땝":13327,"##긁":13328,"##몌":13329,"##졉":13330,"##캡":13331,"##숎":13332,"##몆":13333,"##쏙":13334,"##짢":13335,"##벩":13336,"##펡":13337,"##쿳":13338,"##쮜":13339,"##뼤":13340,"##푀":13341,"##뱐":13342,"##펴":13343,"##졷":13344,"##캥":13345,"##꿉":13346,"##짠":13347,"##곁":13348,"##튮":13349,"##벖":13350,"##꺌":13351,"##퀀":13352,"##켐":13353,"##쳣":13354,"##왼":13355,"##젭":13356,"##헙":13357,"##쎌":13358,"##뒑":13359,"##뒓":13360,"##맺":13361,"##떙":13362,"##낵":13363,"##쫭":13364,"##얽":13365,"##볈":13366,"##킵":13367,"##줬":13368,"##귖":13369,"##궺":13370,"##긲":13371,"##깒":13372,"##깛":13373,"##긛":13374,"##씰":13375,"##빚":13376,"##뒬":13377,"##홝":13378,"##핟":13379,"##흓":13380,"##뻉":13381,"##뚫":13382,"##훑":13383,"##놨":13384,"##챵":13385,"##즹":13386,"##늙":13387,"##쓔":13388,"##쒀":13389,"##쒜":13390,"##촥":13391,"##챌":13392,"##봬":13393,"##킼":13394,"##싶":13395,"##곀":13396,"##넝":13397,"##쑊":13398,"##쁟":13399,"##죳":13400,"##뎐":13401,"##큅":13402,"##뜐":13403,"##큽":13404,"##넉":13405,"##줴":13406,"##쿡":13407,"##홰":13408,"##볐":13409,"##큿":13410,"##탭":13411,"##썷":13412,"##밉":13413,"##캰":13414,"##둡":13415,"##횞":13416,"##엾":13417,"##튱":13418,"##웆":13419,"##뤠":13420,"##뫃":13421,"##뚷":13422,"##뭏":13423,"##붖":13424,"##혓":13425,"##툵":13426,"##뒿":13427,"##텤":13428,"##얫":13429,"##멬":13430,"##뾲":13431,"##뉸":13432,"##쏼":13433,"##옘":13434,"##헑":13435,"##섀":13436,"##꾹":13437,"##쟤":13438,"##쳉":13439,"##횬":13440,"##썀":13441,"##닯":13442,"##꺆":13443,"##튿":13444,"##뛟":13445,"##샥":13446,"##갗":13447,"##뎂":13448,"##닶":13449,"##뀩":13450,"##헱":13451,"##롻":13452,"##쿙":13453,"##뜀":13454,"##뽝":13455,"##씅":13456,"##솁":13457,"##셥":13458,"##밬":13459,"##푷":13460,"##큄":13461,"##쭌":13462,"##뇸":13463,"##귓":13464,"##쮹":13465,"##캑":13466,"##쉑":13467,"##릣":13468,"##봊":13469,"##죵":13470,"##큾":13471,"##텂":13472,"##샇":13473,"##짇":13474,"##섣":13475,"##잆":13476,"##늉":13477,"##꽊":13478,"##뺀":13479,"##쿸":13480,"##꺘":13481,"##뽓":13482,"##뱨":13483,"##궶":13484,"##궫":13485,"##궻":13486,"##랤":13487,"##궢":13488,"##뺴":13489,"##춋":13490,"##틉":13491,"##힡":13492,"##꾱":13493,"##녓":13494,"##뙈":13495,"##쨌":13496,"##쿱":13497,"##뺄":13498,"##욋":13499,"##냙":13500,"##퀠":13501,"##댠":13502,"##띙":13503,"##폯":13504,"##젴":13505,"##핼":13506,"##츌":13507,"##퇼":13508,"##횽":13509,"##졋":13510,"##곬":13511,"##쏩":13512,"##윻":13513,"##괼":13514,"##쥴":13515,"##닏":13516,"##꿝":13517,"##쁠":13518,"##콬":13519,"##톹":13520,"##퐆":13521,"##끨":13522,"##횢":13523,"##챦":13524,"##묑":13525,"##턻":13526,"##큥":13527,"##굵":13528,"##딍":13529,"##뼝":13530,"##솨":13531,"##퀄":13532,"##옾":13533,"##뢱":13534,"##픠":13535,"##맏":13536,"##롷":13537,"##퍝":13538,"##닮":13539,"##듟":13540,"##젋":13541,"##쑼":13542,"##몫":13543,"##쭵":13544,"##뫙":13545,"##뚮":13546,"##쐙":13547,"##뽟":13548,"##쫜":13549,"##컭":13550,"##엒":13551,"##쉭":13552,"##덧":13553,"##끠":13554,"##엷":13555,"##퐝":13556,"##뵙":13557,"##쬲":13558,"##똟":13559,"##눝":13560,"##읗":13561,"##뛸":13562,"##뜷":13563,"##뙗":13564,"##퀙":13565,"##듸":13566,"##읋":13567,"##눞":13568,"##쓩":13569,"##큪":13570,"##핔":13571,"##댱":13572,"##뷫":13573,"##푯":13574,"##둗":13575,"##쌉":13576,"##붹":13577,"##맆":13578,"##솹":13579,"##긇":13580,"##껠":13581,"##팂":13582,"##쉟":13583,"##렣":13584,"##꼇":13585,"##뺙":13586,"##왂":13587,"##봙":13588,"##얻":13589,"##뵐":13590,"##븝":13591,"##엃":13592,"##헗":13593,"##컼":13594,"##멦":13595,"##빕":13596,"##헛":13597,"##퐐":13598,"##쪨":13599,"##볓":13600,"##얇":13601,"##얖":13602,"##걍":13603,"##툽":13604,"##쭙":13605,"##씃":13606,"##챡":13607,"##뿡":13608,"##훓":13609,"##쥠":13610,"##뱔":13611,"##땩":13612,"##냬":13613,"##흨":13614,"##펼":13615,"##엨":13616,"##웈":13617,"##윾":13618,"##뢍":13619,"##괵":13620,"##룟":13621,"##릘":13622,"##쁙":13623,"##캭":13624,"##힙":13625,"##낛":13626,"##읷":13627,"##덗":13628,"##붏":13629,"##붇":13630,"##겆":13631,"##쳬":13632,"##꿇":13633,"##탵":13634,"##싟":13635,"##탉":13636,"##튺":13637,"##셧":13638,"##팃":13639,"##뤽":13640,"##햐":13641,"##왧":13642,"##뷃":13643,"##쩝":13644,"##놏":13645,"##콫":13646,"##땠":13647,"##궃":13648,"##섕":13649,"##읅":13650,"##뎌":13651,"##쳡":13652,"##잨":13653,"##풹":13654,"##붱":13655,"##숄":13656,"##듳":13657,"##컁":13658,"##밣":13659,"##삷":13660,"##샢":13661,"##쉠":13662,"##똏":13663,"##쌋":13664,"##씁":13665,"##홁":13666,"##뫀":13667,"##폔":13668,"##잰":13669,"##엏":13670,"##찧":13671,"##즑":13672,"##돓":13673,"##죌":13674,"##껌":13675,"##겊":13676,"##뢸":13677,"##낻":13678,"##뚧":13679,"##딨":13680,"##뤀":13681,"##꺢":13682,"##좍":13683,"##죨":13684,"##뎊":13685,"##솀":13686,"##뀍":13687,"##녯":13688,"##늰":13689,"##뒁":13690,"##츹":13691,"##뫌":13692,"##챸":13693,"##탘":13694,"##얹":13695,"##훳":13696,"##왠":13697,"##좇":13698,"##웳":13699,"##췛":13700,"##뿛":13701,"##낳":13702,"##돿":13703,"##촡":13704,"##멨":13705,"##쳌":13706,"##띾":13707,"##귈":13708,"##좔":13709,"##뭭":13710,"##뫟":13711,"##쥥":13712,"##윿":13713,"##엓":13714,"##섞":13715,"##촙":13716,"##짞":13717,"##띰":13718,"##숟":13719,"##넽":13720,"##쭁":13721,"##삶":13722,"##켰":13723,"##갭":13724,"##뒨":13725,"##땍":13726,"##헔":13727,"##굠":13728,"##됨":13729,"##둩":13730,"##훁":13731,"##뙇":13732,"##맠":13733,"##랣":13734,"##팈":13735,"##뒝":13736,"##먗":13737,"##꼍":13738,"##죰":13739,"##굄":13740,"##햣":13741,"##뺘":13742,"##쇽":13743,"##떳":13744,"##춈":13745,"##숕":13746,"##풱":13747,"##껒":13748,"##읔":13749,"##뿝":13750,"##겻":13751,"##뷓":13752,"##꼮":13753,"##폘":13754,"##뭔":13755,"##곧":13756,"##닢":13757,"##펍":13758,"##쮝":13759,"##칡":13760,"##돩":13761,"##뉻":13762,"##쫙":13763,"##쏫":13764,"##끊":13765,"##슢":13766,"##껸":13767,"##삒":13768,"##큭":13769,"##썝":13770,"##뿉":13771,"##쁶":13772,"##뇓":13773,"##캢":13774,"##욦":13775,"##빋":13776,"##컫":13777,"##뀻":13778,"##챞":13779,"##쨥":13780,"##뒹":13781,"##쟘":13782,"##탼":13783,"##밗":13784,"##캎":13785,"##깬":13786,"##쯸":13787,"##씸":13788,"##룅":13789,"##뽜":13790,"##힠":13791,"##퐈":13792,"##맓":13793,"##싧":13794,"##댋":13795,"##핿":13796,"##줊":13797,"##셟":13798,"##섧":13799,"##갊":13800,"##핣":13801,"##닚":13802,"##닧":13803,"##좟":13804,"##뺭":13805,"##퇵":13806,"##졧":13807,"##촾":13808,"##뿜":13809,"##뜵":13810,"##닳":13811,"##잽":13812,"##졔":13813,"##얐":13814,"##뷴":13815,"##긕":13816,"##봡":13817,"##뷉":13818,"##됬":13819,"##싮":13820,"##쭨":13821,"##싁":13822,"##훕":13823,"##핤":13824,"##킳":13825,"##":13826,"##굥":13827,"##솬":13828,"##웤":13829,"##륍":13830,"##찓":13831,"##쳰":13832,"##녤":13833,"##둙":13834,"##삜":13835,"##쎠":13836,"##뿎":13837,"##똬":13838,"##펐":13839,"##꾿":13840,"##앆":13841,"##풑":13842,"##먄":13843,"##탹":13844,"##쨋":13845,"##뗔":13846,"##옅":13847,"##귡":13848,"##긮":13849,"##깑":13850,"##뛩":13851,"##셕":13852,"##롈":13853,"##띱":13854,"##킅":13855,"##빖":13856,"##퓸":13857,"##쯩":13858,"##챝":13859,"##앚":13860,"##옺":13861,"##꿰":13862,"##넠":13863,"##퍙":13864,"##힗":13865,"##츺":13866,"##젏":13867,"##폵":13868,"##숧":13869,"##듦":13870,"##믌":13871,"##흩":13872,"##닑":13873,"##쫣":13874,"##똵":13875,"##뽧":13876,"##꽑":13877,"##뽭":13878,"##엊":13879,"##풔":13880,"##풮":13881,"##뷇":13882,"##괸":13883,"##눟":13884,"##줆":13885,"##볽":13886,"##닾":13887,"##엤":13888,"##랆":13889,"##넡":13890,"##츳":13891,"##숱":13892,"##녑":13893,"##귐":13894,"##삧":13895,"##믁":13896,"##랼":13897,"##뫞":13898,"##뿷":13899,"##땞":13900,"##밪":13901,"##뒗":13902,"##렜":13903,"##됵":13904,"##롊":13905,"##꺵":13906,"##괜":13907,"##탇":13908,"##왉":13909,"##뵷":13910,"##픋":13911,"##붘":13912,"##춸":13913,"##껰":13914,"##뗘":13915,"##쬰":13916,"##쥿":13917,"##댧":13918,"##댯":13919,"##좐":13920,"##깤":13921,"##돫":13922,"##쯰":13923,"##몄":13924,"##쿜":13925,"##쇅":13926,"##룺":13927,"##싈":13928,"##띨":13929,"##맢":13930,"##텽":13931,"##흇":13932,"##쥉":13933,"##뤙":13934,"##짼":13935,"##돚":13936,"##잋":13937,"##쏨":13938,"##삔":13939,"##둅":13940,"##휙":13941,"##랒":13942,"##햟":13943,"##컿":13944,"##첫":13945,"##휫":13946,"##쑁":13947,"##튐":13948,"##맄":13949,"##왇":13950,"##곯":13951,"##픓":13952,"##옻":13953,"##쪠":13954,"##덦":13955,"##훜":13956,"##횔":13957,"##낟":13958,"##뤵":13959,"##쎈":13960,"##늕":13961,"##씉":13962,"##퍗":13963,"##쀳":13964,"##췰":13965,"##큮":13966,"##캤":13967,"##룐":13968,"##꽤":13969,"##빎":13970,"##츀":13971,"##흿":13972,"##츔":13973,"##푠":13974,"##벓":13975,"##꽹":13976,"##륽":13977,"##혯":13978,"##웟":13979,"##밌":13980,"##쎅":13981,"##뒫":13982,"##췍":13983,"##뭍":13984,"##돘":13985,"##젮":13986,"##왒":13987,"##뿨":13988,"##똠":13989,"##쭊":13990,"##짙":13991,"##갉":13992,"##뒥":13993,"##뎋":13994,"##뼜":13995,"##꽇":13996,"##뉨":13997,"##끎":13998,"##뺩":13999,"##뤨":14000,"##롓":14001,"##탒":14002,"##듮":14003,"##엮":14004,"##뛣":14005,"##홣":14006,"##꾫":14007,"##죔":14008,"##돵":14009,"##웝":14010,"##벲":14011,"##얃":14012,"##큔":14013,"##귝":14014,"##젔":14015,"##뺼":14016,"##덿":14017,"##벍":14018,"##뚞":14019,"##냫":14020,"##뙳":14021,"##홂":14022,"##킄":14023,"##쩠":14024,"##뗀":14025,"##썻":14026,"##뿓":14027,"##뻤":14028,"##읖":14029,"##켑":14030,"##즁":14031,"##뮺":14032,"##썼":14033,"##끤":14034,"##텬":14035,"##좂":14036,"##깩":14037,"##콣":14038,"##햑":14039,"##푱":14040,"##띔":14041,"##꺐":14042,"##욷":14043,"##냣":14044,"##긿":14045,"##벋":14046,"##몀":14047,"##뚯":14048,"##굣":14049,"##핻":14050,"##룳":14051,"##싰":14052,"##잫":14053,"##쟙":14054,"##뚀":14055,"##픳":14056,"##툉":14057,"##읕":14058,"##뿁":14059,"##묺":14060,"##홥":14061,"##붛":14062,"##푈":14063,"##믱":14064,"##몯":14065,"##롑":14066,"##욀":14067,"##빩":14068,"##쎃":14069,"##뿮":14070,"##뱦":14071,"##왷":14072,"##읃":14073,"##뇻":14074,"##뇾":14075,"##놘":14076,"##벧":14077,"##뽱":14078,"##닊":14079,"##옮":14080,"##얶":14081,"##꽉":14082,"##꽐":14083,"##혬":14084,"##겿":14085,"##풒":14086,"##샠":14087,"##괆":14088,"##곺":14089,"##궖":14090,"##궋":14091,"##흗":14092,"##떱":14093,"##묶":14094,"##퀌":14095,"##둉":14096,"##챘":14097,"##븓":14098,"##큠":14099,"##빻":14100,"##렡":14101,"##됐":14102,"##겴":14103,"##닼":14104,"##릯":14105,"##숌":14106,"##륷":14107,"##뿗":14108,"##꺕":14109,"##뤩":14110,"##덞":14111,"##씍":14112,"##뼉":14113,"##듶":14114,"##딫":14115,"##쌐":14116,"##맫":14117,"##뤕":14118,"##뭬":14119,"##죗":14120,"##앝":14121,"##좸":14122,"##퇗":14123,"##쭓":14124,"##섈":14125,"##윕":14126,"##웗":14127,"##뛃":14128,"##꽯":14129,"##싐":14130,"##홱":14131,"##헯":14132,"##꺙":14133,"##딺":14134,"##핚":14135,"##솅":14136,"##솎":14137,"##탙":14138,"##뉜":14139,"##챕":14140,"##콱":14141,"##쀠":14142,"##귯":14143,"##쑜":14144,"##쉿":14145,"##곂":14146,"##뷀":14147,"##퉱":14148,"##끍":14149,"##휽":14150,"##렞":14151,"##읫":14152,"##뀜":14153,"##랰":14154,"##읒":14155,"##릵":14156,"##얺":14157,"##줜":14158,"##윹":14159,"##롣":14160,"##쏟":14161,"##졈":14162,"##톼":14163,"##쬴":14164,"##됼":14165,"##굑":14166,"##툑":14167,"##쒕":14168,"##췅":14169,"##듫":14170,"##찝":14171,"##냏":14172,"##뫅":14173,"##뇩":14174,"##짒":14175,"##봫":14176,"##붝":14177,"##뎍":14178,"##꿨":14179,"##귱":14180,"##냟":14181,"##팉":14182,"##꾁":14183,"##쁌":14184,"##븞":14185,"##둍":14186,"##꿱":14187,"##핧":14188,"##뤌":14189,"##퇘":14190,"##줭":14191,"##줓":14192,"##짭":14193,"##쵤":14194,"##챨":14195,"##덯":14196,"##휩":14197,"##귶":14198,"##뙓":14199,"##픤":14200,"##븃":14201,"##꽌":14202,"##뺚":14203,"##뭘":14204,"##돜":14205,"##괂":14206,"##읳":14207,"##댸":14208,"##튭":14209,"##줵":14210,"##겍":14211,"##큇":14212,"##닜":14213,"##낲":14214,"##췃":14215,"##쩅":14216,"##섰":14217,"##슆":14218,"##뗄":14219,"##윘":14220,"##눤":14221,"##쉡":14222,"##꼳":14223,"##휀":14224,"##칰":14225,"##찷":14226,"##잏":14227,"##픨":14228,"##뺌":14229,"##쩬":14230,"##툇":14231,"##췬":14232,"##뼬":14233,"##갷":14234,"##흟":14235,"##좹":14236,"##껨":14237,"##껙":14238,"##쟛":14239,"##뼸":14240,"##굘":14241,"##뚥":14242,"##샄":14243,"##옠":14244,"##쬽":14245,"##쵠":14246,"##멉":14247,"##톻":14248,"##튤":14249,"##쳔":14250,"##횅":14251,"##뺅":14252,"##팠":14253,"##즛":14254,"##갇":14255,"##쿶":14256,"##뭅":14257,"##옿":14258,"##긞":14259,"##긏":14260,"##귺":14261,"##홑":14262,"##툥":14263,"##돖":14264,"##뗶":14265,"##뗵":14266,"##랋":14267,"##웸":14268,"##깏":14269,"##좨":14270,"##밦":14271,"##얒":14272,"##랐":14273,"##먳":14274,"##맻":14275,"##뮻":14276,"##뭋":14277,"##춱":14278,"##엗":14279,"##몊":14280,"##괧":14281,"##퉹":14282,"##죤":14283,"##쏀":14284,"##깈":14285,"##뱁":14286,"##셭":14287,"##놑":14288,"##룍":14289,"##뻴":14290,"##쵁":14291,"##탔":14292,"##쬷":14293,"##홅":14294,"##욿":14295,"##쌻":14296,"##풇":14297,"##릊":14298,"##콦":14299,"##됸":14300,"에서":14301,"으로":14302,"ᆫ다":14303,"20":14304,"지만":14305,"에게":14306,"201":14307,"는데":14308,"때문":14309,"19":14310,"까지":14311,"아서":14312,"##00":14313,"아니":14314,"라고":14315,"라는":14316,"나오":14317,"다고":14318,"으며":14319,"면서":14320,"보이":14321,"경우":14322,"10":14323,"어서":14324,"사용":14325,"다는":14326,"공격":14327,"이후":14328,"자신":14329,"그리":14330,"##레이":14331,"사람":14332,"위하":14333,"정도":14334,"대하":14335,"부터":14336,"##스트":14337,"가능":14338,"시키":14339,"다른":14340,"보다":14341,"이나":14342,"12":14343,"으나":14344,"가지":14345,"200":14346,"등장":14347,"는다":14348,"아이":14349,"11":14350,"그러":14351,"그리고":14352,"버리":14353,"##어지":14354,"게임":14355,"하나":14356,"경기":14357,"..":14358,"다가":14359,"만들":14360,"못하":14361,"##er":14362,"사실":14363,"시간":14364,"사이":14365,"시작":14366,"일본":14367,"이상":14368,"모습":14369,"이름":14370,"##니다":14371,"함께":14372,"따르":14373,"##지만":14374,"상대":14375,"한국":14376,"##어나":14377,"문제":14378,"15":14379,"다시":14380,"거나":14381,"##in":14382,"으면":14383,"하지만":14384,"프로":14385,"##스터":14386,"생각":14387,"아야":14388,"또한":14389,"가장":14390,"들어":14391,"캐릭":14392,"당시":14393,"##대로":14394,"시즌":14395,"ᆫ데":14396,"처럼":14397,"캐릭터":14398,"당하":14399,"플레이":14400,"18":14401,"##on":14402,"능력":14403,"##이트":14404,"ᆫ지":14405,"모두":14406,"상황":14407,"상태":14408,"아도":14409,"그렇":14410,"모든":14411,"추가":14412,"결국":14413,"세계":14414,"선수":14415,"##an":14416,"16":14417,"##or":14418,"스킬":14419,"카드":14420,"##미지":14421,"현재":14422,"다만":14423,"많이":14424,"ᆫ다는":14425,"통하":14426,"전투":14427,"효과":14428,"다음":14429,"30":14430,"그러나":14431,"존재":14432,"지역":14433,"13":14434,"미국":14435,"여기":14436,"시리":14437,"14":14438,"199":14439,"##라이":14440,"매우":14441,"##ar":14442,"라이":14443,"17":14444,"달리":14445,"대학":14446,"그런":14447,"상당":14448,"ᄇ니다":14449,"레벨":14450,"기록":14451,"##he":14452,"시리즈":14453,"##at":14454,"스타":14455,"인하":14456,"기술":14457,"레이":14458,"다면":14459,"물론":14460,"무기":14461,"이용":14462,"##리아":14463,"의하":14464,"처음":14465,"이유":14466,"자체":14467,"부르":14468,"방송":14469,"100":14470,"이것":14471,"이런":14472,"같이":14473,"필요":14474,"영화":14475,"실제":14476,"여러":14477,"해당":14478,"25":14479,"들어가":14480,"마법":14481,"모르":14482,"주인":14483,"일반":14484,"ᆫ다고":14485,"어야":14486,"돌아":14487,"거의":14488,"역시":14489,"##거리":14490,"바로":14491,"리그":14492,"##리스":14493,"학교":14494,"나가":14495,"사건":14496,"##이스":14497,"##en":14498,"다르":14499,"이야":14500,"특히":14501,"관련":14502,"기본":14503,"2017":14504,"부분":14505,"그래":14506,"##이지":14507,"위치":14508,"피해":14509,"진행":14510,"##ou":14511,"아무":14512,"방어":14513,"2018":14514,"이야기":14515,"##부분":14516,"대표":14517,"국가":14518,"는지":14519,"없이":14520,"##지막":14521,"제작":14522,"활동":14523,"인간":14524,"동안":14525,"작품":14526,"증가":14527,"대부분":14528,"알리":14529,"##al":14530,"마지막":14531,"본인":14532,"자기":14533,"2019":14534,"지나":14535,"일부":14536,"계속":14537,"ᆫ가":14538,"##시아":14539,"떨어지":14540,"21":14541,"서울":14542,"라면":14543,"내용":14544,"만큼":14545,"##es":14546,"우리":14547,"올리":14548,"주인공":14549,"2016":14550,"감독":14551,"참고":14552,"속도":14553,"관계":14554,"50":14555,"어도":14556,"##전히":14557,"생기":14558,"중국":14559,"대신":14560,"수준":14561,"이전":14562,"그냥":14563,"비슷":14564,"어느":14565,"으니":14566,"전쟁":14567,"타이":14568,"비하":14569,"지금":14570,"강하":14571,"만나":14572,"성공":14573,"22":14574,"기준":14575,"도시":14576,"밝히":14577,"인물":14578,"이루":14579,"습니다":14580,"도록":14581,"198":14582,"상당히":14583,"공격력":14584,"그녀":14585,"대한":14586,"24":14587,"배우":14588,"최대":14589,"기사":14590,"올라":14591,"마다":14592,"##민국":14593,"결과":14594,"지원":14595,"그대로":14596,"평가":14597,"시절":14598,"너무":14599,"빠르":14600,"자리":14601,"보스":14602,"제외":14603,"##it":14604,"므로":14605,"죽이":14606,"##토리":14607,"연구":14608,"##버지":14609,"의미":14610,"나타":14611,"실제로":14612,"로서":14613,"소속":14614,"##라지":14615,"이미":14616,"승리":14617,"직접":14618,"전체":14619,"2015":14620,"영상":14621,"대한민국":14622,"보내":14623,"메이":14624,"23":14625,"어렵":14626,"원래":14627,"유닛":14628,"체력":14629,"여자":14630,"##부터":14631,"언급":14632,"그것":14633,"대로":14634,"개발":14635,"데미지":14636,"멤버":14637,"##ing":14638,"유저":14639,"##st":14640,"##le":14641,"##학교":14642,"##ic":14643,"이동":14644,"마음":14645,"설정":14646,"40":14647,"싸우":14648,"정보":14649,"ᆫ다면":14650,"문서":14651,"방법":14652,"선택":14653,"애니":14654,"##가지":14655,"##re":14656,"##다가":14657,"과거":14658,"차이":14659,"##운드":14660,"머리":14661,"몬스터":14662,"출연":14663,"성우":14664,"친구":14665,"포함":14666,"##랜드":14667,"##dd":14668,"##이션":14669,"불리":14670,"거리":14671,"대상":14672,"설명":14673,"엄청":14674,"사회":14675,"소리":14676,"바람":14677,"플레이어":14678,"장면":14679,"힘들":14680,"우승":14681,"최고":14682,"여성":14683,"버전":14684,"사랑":14685,"다니":14686,"이러":14687,"바뀌":14688,"아버지":14689,"프리":14690,"동시":14691,"공식":14692,"유명":14693,"스럽":14694,"시대":14695,"2014":14696,"발생":14697,"영향":14698,"사망":14699,"이렇":14700,"주로":14701,"대회":14702,"려고":14703,"프랑":14704,"##주의":14705,"남자":14706,"결정":14707,"조금":14708,"파이":14709,"발매":14710,"26":14711,"주장":14712,"출신":14713,"아이템":14714,"##ff":14715,"초반":14716,"000":14717,"나라":14718,"인터":14719,"일어나":14720,"학생":14721,"전부":14722,"버스":14723,"마이":14724,"공개":14725,"역사":14726,"28":14727,"운영":14728,"오르":14729,"서로":14730,"유지":14731,"빠지":14732,"스토리":14733,"걸리":14734,"모드":14735,"##el":14736,"27":14737,"구성":14738,"대사":14739,"파괴":14740,"제대로":14741,"##am":14742,"정부":14743,"방식":14744,"음악":14745,"강화":14746,"31":14747,"자주":14748,"중요":14749,"아직":14750,"후반":14751,"이때":14752,"나타나":14753,"또는":14754,"월드":14755,"the":14756,"과정":14757,"##이드":14758,"나이":14759,"형태":14760,"최종":14761,"정치":14762,"새롭":14763,"독일":14764,"시스":14765,"역할":14766,"##라도":14767,"최초":14768,"노래":14769,"##벤트":14770,"대전":14771,"쓰이":14772,"이벤트":14773,"누구":14774,"##om":14775,"강력":14776,"마리":14777,"스테":14778,"정말":14779,"변경":14780,"회복":14781,"##머니":14782,"##이도":14783,"기존":14784,"##우스":14785,"그런데":14786,"드라":14787,"영국":14788,"라도":14789,"보통":14790,"드래":14791,"비교":14792,"소환":14793,"느끼":14794,"정신":14795,"##아가":14796,"마찬":14797,"마찬가지":14798,"##la":14799,"어떤":14800,"이기":14801,"조선":14802,"당연":14803,"특성":14804,"인기":14805,"##is":14806,"엄청나":14807,"성능":14808,"##프트":14809,"확률":14810,"속성":14811,"마을":14812,"행동":14813,"바꾸":14814,"2013":14815,"슈퍼":14816,"오히":14817,"노선":14818,"모양":14819,"오히려":14820,"##리어":14821,"어떻":14822,"아래":14823,"이제":14824,"가깝":14825,"자유":14826,"아들":14827,"교육":14828,"197":14829,"발견":14830,"차량":14831,"바이":14832,"라인":14833,"29":14834,"사라지":14835,"수록":14836,"##너지":14837,"게다가":14838,"32":14839,"부족":14840,"특수":14841,"프랑스":14842,"##et":14843,"이번":14844,"00":14845,"대학교":14846,"확인":14847,"성격":14848,"끝나":14849,"문화":14850,"유일":14851,"활약":14852,"차지":14853,"##ol":14854,"2012":14855,"관리":14856,"장비":14857,"##ion":14858,"영웅":14859,"모델":14860,"일단":14861,"입장":14862,"아예":14863,"구하":14864,"내리":14865,"생산":14866,"맞추":14867,"스트":14868,"따라":14869,"시스템":14870,"이렇게":14871,"제국":14872,"고등":14873,"다이":14874,"심지":14875,"어리":14876,"돌아오":14877,"심지어":14878,"먼저":14879,"경찰":14880,"반대":14881,"계획":14882,"주변":14883,"거기":14884,"##레이드":14885,"운동":14886,"2010":14887,"앨범":14888,"##디오":14889,"자동":14890,"어요":14891,"완전히":14892,"조건":14893,"드러":14894,"우주":14895,"기간":14896,"사진":14897,"##레스":14898,"난이도":14899,"들어오":14900,"부대":14901,"적용":14902,"발동":14903,"개인":14904,"기능":14905,"##ow":14906,"지구":14907,"건물":14908,"60":14909,"감소":14910,"위원":14911,"##nd":14912,"km":14913,"##20":14914,"축구":14915,"##통령":14916,"자세":14917,"##il":14918,"떠나":14919,"##ig":14920,"##므로":14921,"중심":14922,"으로서":14923,"##인트":14924,"##ed":14925,"실패":14926,"애니메":14927,"그래서":14928,"하이":14929,"세트":14930,"혹은":14931,"중앙":14932,"선거":14933,"지키":14934,"던지":14935,"어디":14936,"라며":14937,"현대":14938,"35":14939,"회사":14940,"덕분":14941,"데이":14942,"돌아가":14943,"초기":14944,"전혀":14945,"얼굴":14946,"작가":14947,"시기":14948,"표현":14949,"국내":14950,"원작":14951,"민주":14952,"대통령":14953,"패배":14954,"물리":14955,"처리":14956,"오브":14957,"순간":14958,"TV":14959,"동일":14960,"##버스":14961,"모으":14962,"지속":14963,"프로그":14964,"드라마":14965,"반응":14966,"지방":14967,"무엇":14968,"얼마":14969,"날리":14970,"열리":14971,"도움":14972,"더라도":14973,"인정":14974,"참여":14975,"기관":14976,"애니메이션":14977,"출시":14978,"##니아":14979,"명칭":14980,"##ac":14981,"판매":14982,"담당":14983,"데뷔":14984,"##as":14985,"##없이":14986,"##BS":14987,"정확":14988,"요구":14989,"획득":14990,"196":14991,"##나마":14992,"##리카":14993,"굉장":14994,"스페":14995,"하루":14996,"생활":14997,"그렇게":14998,"of":14999,"시점":15000,"2011":15001,"설치":15002,"밖에":15003,"작중":15004,"넘어":15005,"다양":15006,"발표":15007,"후보":15008,"그룹":15009,"상승":15010,"진출":15011,"선발":15012,"아군":15013,"구조":15014,"기억":15015,"항목":15016,"##아내":15017,"Lv":15018,"영어":15019,"만화":15020,"가격":15021,"움직":15022,"단계":15023,"##소드":15024,"그림":15025,"특별":15026,"##들이":15027,"올라가":15028,"마스터":15029,"실력":15030,"##ve":15031,"그나마":15032,"으므로":15033,"드래곤":15034,"아마":15035,"다며":15036,"에피":15037,"세우":15038,"이거":15039,"01":15040,"조차":15041,"야구":15042,"았었":15043,"시장":15044,"The":15045,"가족":15046,"사고":15047,"범위":15048,"특징":15049,"경제":15050,"려는":15051,"##소리":15052,"시청":15053,"방향":15054,"연기":15055,"대체":15056,"패치":15057,"경험":15058,"##뜨리":15059,"계약":15060,"미치":15061,"고려":15062,"수비":15063,"##ot":15064,"한테":15065,"지니":15066,"아르":15067,"확실":15068,"참가":15069,"국제":15070,"디자":15071,"에피소드":15072,"500":15073,"세대":15074,"발사":15075,"폭발":15076,"##로스":15077,"남기":15078,"묘사":15079,"브라":15080,"로부터":15081,"##스크":15082,"밀리":15083,"주의":15084,"프로그램":15085,"고등학교":15086,"80":15087,"##비스":15088,"활용":15089,"2000":15090,"어떻게":15091,"피하":15092,"라서":15093,"어머니":15094,"상위":15095,"결혼":15096,"무시":15097,"##으키":15098,"비판":15099,"목적":15100,"더욱":15101,"준비":15102,"중간":15103,"심하":15104,"각각":15105,"##ad":15106,"37":15107,"보호":15108,"오리":15109,"러시아":15110,"45":15111,"아주":15112,"버프":15113,"챔피":15114,"라운드":15115,"굉장히":15116,"이미지":15117,"패턴":15118,"국민":15119,"히로":15120,"이어지":15121,"위험":15122,"진짜":15123,"참조":15124,"세이":15125,"내려":15126,"대미지":15127,"생명":15128,"조직":15129,"조사":15130,"단순":15131,"듯이":15132,"싸움":15133,"과학":15134,"여담":15135,"크리스":15136,"약하":15137,"이루어지":15138,"전하":15139,"나쁘":15140,"타입":15141,"다루":15142,"세력":15143,"현실":15144,"ᆯ지":15145,"파워":15146,"St":15147,"안타":15148,"시도":15149,"소모":15150,"제공":15151,"주요":15152,"구간":15153,"194":15154,"유리":15155,"불구":15156,"전문":15157,"가리":15158,"지하":15159,"유럽":15160,"일으키":15161,"연속":15162,"부산":15163,"세기":15164,"##머지":15165,"나머지":15166,"혼자":15167,"순위":15168,"논란":15169,"조합":15170,"한정":15171,"포인트":15172,"사실상":15173,"약간":15174,"아프":15175,"동료":15176,"##아오":15177,"노리":15178,"##id":15179,"70":15180,"뛰어나":15181,"나무":15182,"분위":15183,"성장":15184,"09":15185,"##ay":15186,"무장":15187,"여전히":15188,"바라":15189,"디자인":15190,"분위기":15191,"당연히":15192,"취급":15193,"항공":15194,"출전":15195,"90":15196,"이해":15197,"으면서":15198,"트리":15199,"학년":15200,"##스로":15201,"일정":15202,"규모":15203,"등급":15204,"훨씬":15205,"FC":15206,"##ER":15207,"지도":15208,"투수":15209,"소설":15210,"한편":15211,"예정":15212,"운행":15213,"블랙":15214,"성적":15215,"인구":15216,"##나라":15217,"##러지":15218,"부상":15219,"자연":15220,"엔딩":15221,"기타":15222,"그래도":15223,"마치":15224,"삼성":15225,"기대":15226,"계열":15227,"mm":15228,"02":15229,"해결":15230,"2009":15231,"03":15232,"사업":15233,"가져":15234,"##ch":15235,"스테이지":15236,"향하":15237,"센터":15238,"기에":15239,"방면":15240,"연결":15241,"미션":15242,"300":15243,"##이크":15244,"방영":15245,"최근":15246,"의견":15247,"연합":15248,"수정":15249,"##us":15250,"48":15251,"변화":15252,"도망":15253,"종류":15254,"자면":15255,"##ir":15256,"ᆯ까":15257,"그거":15258,"이탈":15259,"표기":15260,"잘못":15261,"전용":15262,"이르":15263,"태어나":15264,"05":15265,"퀘스트":15266,"배치":15267,"195":15268,"추정":15269,"33":15270,"for":15271,"2008":15272,"이라":15273,"발전":15274,"터지":15275,"##다리":15276,"소녀":15277,"36":15278,"08":15279,"대화":15280,"변하":15281,"거대":15282,"정상":15283,"직업":15284,"안정":15285,"07":15286,"움직이":15287,"##ur":15288,"도중":15289,"죽음":15290,"엔진":15291,"충분":15292,"올라오":15293,"스스로":15294,"종료":15295,"##스타":15296,"작전":15297,"넘어가":15298,"##티브":15299,"수상":15300,"챔피언":15301,"펼치":15302,"세상":15303,"오래":15304,"나중":15305,"붙이":15306,"독립":15307,"일행":15308,"비행":15309,"요소":15310,"느낌":15311,"속하":15312,"마저":15313,"거치":15314,"당신":15315,"나누":15316,"HP":15317,"벌어지":15318,"벌이":15319,"보상":15320,"에너지":15321,"지내":15322,"방어력":15323,"달성":15324,"비롯":15325,"전설":15326,"수도":15327,"##..":15328,"공연":15329,"##od":15330,"무리":15331,"미사":15332,"06":15333,"만드":15334,"동물":15335,"배틀":15336,"##러스":15337,"##BC":15338,"부활":15339,"특정":15340,"관하":15341,"장착":15342,"훈련":15343,"스피":15344,"절대":15345,"th":15346,"스카":15347,"졸업":15348,"철도":15349,"유니":15350,"지지":15351,"##im":15352,"##자기":15353,"기업":15354,"전기":15355,"다리":15356,"포켓":15357,"위기":15358,"지휘":15359,"행정":15360,"싱글":15361,"번역":15362,"번호":15363,"근접":15364,"##란드":15365,"더불":15366,"아이돌":15367,"제목":15368,"점수":15369,"건설":15370,"04":15371,"관심":15372,"만약":15373,"미래":15374,"##어들":15375,"황제":15376,"내부":15377,"남성":15378,"요리":15379,"반면":15380,"따라서":15381,"득점":15382,"##un":15383,"충격":15384,"##ut":15385,"신경":15386,"SK":15387,"시험":15388,"전차":15389,"군사":15390,"가르":15391,"목소리":15392,"목표":15393,"거두":15394,"홈런":15395,"소재":15396,"이끌":15397,"전사":15398,"2007":15399,"##데이트":15400,"업데이트":15401,"바르":15402,"정체":15403,"you":15404,"공간":15405,"##지션":15406,"똑같":15407,"가끔":15408,"저지":15409,"돌리":15410,"무대":15411,"스파":15412,"어찌":15413,"시설":15414,"사이트":15415,"올림":15416,"타격":15417,"로마":15418,"오늘":15419,"34":15420,"##인물":15421,"배경":15422,"링크":15423,"지정":15424,"장소":15425,"##리오":15426,"각성":15427,"전작":15428,"서비스":15429,"마르":15430,"공중":15431,"항상":15432,"##다니":15433,"##ro":15434,"최소":15435,"교체":15436,"그만":15437,"전국":15438,"파티":15439,"분노":15440,"##너스":15441,"##트리":15442,"생존":15443,"작곡":15444,"북한":15445,"넘기":15446,"등장인물":15447,"정식":15448,"으려":15449,"얘기":15450,"예상":15451,"##수록":15452,"자랑":15453,"의원":15454,"부여":15455,"으로써":15456,"클래":15457,"작업":15458,"높이":15459,"도로":15460,"포켓몬":15461,"사냥":15462,"##디어":15463,"아라":15464,"분류":15465,"종족":15466,"늘어나":15467,"스포":15468,"인사":15469,"인도":15470,"악마":15471,"##ag":15472,"##igh":15473,"소개":15474,"야마":15475,"38":15476,"스타일":15477,"비밀":15478,"##ver":15479,"엘리":15480,"단체":15481,"애초":15482,"제한":15483,"인터뷰":15484,"괜찮":15485,"ᆯ로":15486,"가수":15487,"필드":15488,"##ec":15489,"결승":15490,"##동안":15491,"cm":15492,"판정":15493,"크리":15494,"기계":15495,"이어":15496,"베이":15497,"클리어":15498,"75":15499,"목록":15500,"연출":15501,"각종":15502,"외국":15503,"카이":15504,"하늘":15505,"이외":15506,"타카":15507,"명령":15508,"정하":15509,"##ent":15510,"제일":15511,"2006":15512,"초등":15513,"##운데":15514,"기체":15515,"병력":15516,"지상":15517,"카운":15518,"로봇":15519,"개념":15520,"55":15521,"##보이":15522,"전반":15523,"확정":15524,"기동":15525,"in":15526,"교통":15527,"정작":15528,"193":15529,"건담":15530,"레어":15531,"비용":15532,"별로":15533,"##드리":15534,"파일":15535,"##ak":15536,"화력":15537,"장갑":15538,"올림픽":15539,"케이":15540,"수행":15541,"니까":15542,"군대":15543,"드러나":15544,"사항":15545,"갖추":15546,"표시":15547,"크기":15548,"가운데":15549,"프레":15550,"따로":15551,"인식":15552,"시티":15553,"행위":15554,"사격":15555,"수치":15556,"경쟁":15557,"라이브":15558,"2020":15559,"##라인":15560,"사거리":15561,"to":15562,"##um":15563,"아카":15564,"기반":15565,"변신":15566,"갑자기":15567,"저항":15568,"감정":15569,"',":15570,"나름":15571,"포지션":15572,"##젝트":15573,"언제":15574,"누르":15575,"진화":15576,"이탈리아":15577,"완전":15578,"평균":15579,"왕국":15580,"아키":15581,"단점":15582,"집중":15583,"인천":15584,"보유":15585,"교수":15586,"근처":15587,"통합":15588,"기회":15589,"병원":15590,"살리":15591,"vs":15592,"직전":15593,"던전":15594,"노력":15595,"특이":15596,"냐고":15597,"임무":15598,"##아들이":15599,"의식":15600,"코스":15601,"드리":15602,"자원":15603,"전자":15604,"국회":15605,"설립":15606,"탈출":15607,"레인":15608,"##화국":15609,"정의":15610,"오버":15611,"압도":15612,"##ST":15613,"오른":15614,"이닝":15615,"월드컵":15616,"부모":15617,"단어":15618,"다크":15619,"때리":15620,"부정":15621,"환경":15622,"##em":15623,"고양":15624,"현상":15625,"##ub":15626,"정리":15627,"마시":15628,"사례":15629,"잠시":15630,"사정":15631,"##비아":15632,"판단":15633,"효율":15634,"시전":15635,"제품":15636,"이쪽":15637,"어쩌":15638,"더니":15639,"아파":15640,"극장":15641,"치명":15642,"본래":15643,"##르트":15644,"느리":15645,"나서":15646,"##라스":15647,"##말로":15648,"주제":15649,"무슨":15650,"촬영":15651,"아스":15652,"##000":15653,"삭제":15654,"상관":15655,"의외":15656,"주문":15657,"위원회":15658,"전력":15659,"가문":15660,"ㅏㅆ":15661,"동생":15662,"고속":15663,"원인":15664,"주민":15665,"대구":15666,"여행":15667,"물건":15668,"옮기":15669,"제거":15670,"지배":15671,"강제":15672,"발언":15673,"키우":15674,"소련":15675,"연습":15676,"치료":15677,"병사":15678,"##어로":15679,"포기":15680,"스코":15681,"골드":15682,"위력":15683,"파트":15684,"요시":15685,"도전":15686,"##무리":15687,"전개":15688,"2005":15689,"기다리":15690,"이하":15691,"노트":15692,"역대":15693,"책임":15694,"해군":15695,"중학교":15696,"기념":15697,"##요일":15698,"사무":15699,"도입":15700,"정책":15701,"점프":15702,"나이트":15703,"완성":15704,"복귀":15705,"앞서":15706,"실험":15707,"##ight":15708,"화면":15709,"새로":15710,"42":15711,"려면":15712,"루트":15713,"고정":15714,"공주":15715,"도쿄":15716,"살인":15717,"유사":15718,"바다":15719,"의사":15720,"음식":15721,"41":15722,"##학생":15723,"레드":15724,"페이":15725,"모이":15726,"##야마":15727,"별명":15728,"차원":15729,"직후":15730,"선생":15731,"끝내":15732,"이적":15733,"히어로":15734,"불가":15735,"다수":15736,"버티":15737,"사기":15738,"중반":15739,"39":15740,"받아들이":15741,"잡히":15742,"티어":15743,"전략":15744,"히트":15745,"어둠":15746,"밴드":15747,"에게서":15748,"분명":15749,"마나":15750,"공동":15751,"숨기":15752,"도착":15753,"2004":15754,"무려":15755,"미니":15756,"##모토":15757,"접근":15758,"언어":15759,"녀석":15760,"가치":15761,"제도":15762,"일러":15763,"EX":15764,"LG":15765,"은데":15766,"정당":15767,"으로부터":15768,"오프":15769,"회피":15770,"ㅓㅆ":15771,"추천":15772,"타임":15773,"조종":15774,"고자":15775,"정규":15776,"사상":15777,"시민":15778,"대기":15779,"빌리":15780,"로드":15781,"예전":15782,"##ce":15783,"살아":15784,"확장":15785,"아파트":15786,"신체":15787,"빨리":15788,"##루스":15789,"##그레이드":15790,"업그레이드":15791,"마사":15792,"구매":15793,"##AR":15794,"##드시":15795,"줄이":15796,"연장":15797,"롯데":15798,"리더":15799,"자료":15800,"랭크":15801,"이곳":15802,"반드시":15803,"폭탄":15804,"##os":15805,"투표":15806,"탈락":15807,"타이틀":15808,"인터넷":15809,"부탁":15810,"장치":15811,"학원":15812,"단지":15813,"완벽":15814,"크로":15815,"라이트":15816,"미사일":15817,"종교":15818,"44":15819,"우선":15820,"##ri":15821,"일러스트":15822,"소유":15823,"형식":15824,"해외":15825,"고대":15826,"##시마":15827,"##AN":15828,"구역":15829,"장점":15830,"사령":15831,"최강":15832,"데스":15833,"심각":15834,"산업":15835,"아내":15836,"##ula":15837,"Ch":15838,"금지":15839,"하드":15840,"##ON":15841,"##역시":15842,"추측":15843,"버그":15844,"##이치":15845,"실시":15846,"No":15847,"자마":15848,"위키":15849,"마무리":15850,"##ap":15851,"43":15852,"99":15853,"이라고":15854,"대장":15855,"클럽":15856,"몇몇":15857,"공포":15858,"가사":15859,"노동":15860,"##and":15861,"2002":15862,"연재":15863,"가드":15864,"구분":15865,"취하":15866,"st":15867,"검사":15868,"범죄":15869,"합류":15870,"점점":15871,"달러":15872,"즐기":15873,"서버":15874,"로스":15875,"조정":15876,"##아하":15877,"요청":15878,"이사":15879,"행사":15880,"차례":15881,"##트라":15882,"form":15883,"옵션":15884,"재료":15885,"보병":15886,"그야":15887,"##러리":15888,"##이어":15889,"조작":15890,"선정":15891,"선언":15892,"수많":15893,"마법사":15894,"다소":15895,"전통":15896,"교회":15897,"타자":15898,"걱정":15899,"프로젝트":15900,"kg":15901,"그리스":15902,"종종":15903,"개그":15904,"47":15905,"스포츠":15906,"46":15907,"데이터":15908,"51":15909,"191":15910,"좋아하":15911,"컴퓨":15912,"개월":15913,"암살":15914,"부하":15915,"광고":15916,"입히":15917,"형제":15918,"열차":15919,"##르크":15920,"formula":15921,"에이":15922,"채우":15923,"성향":15924,"뉴스":15925,"대중":15926,"개최":15927,"평범":15928,"##나이":15929,"자마자":15930,"KBS":15931,"포스":15932,"아쉽":15933,"##조건":15934,"그야말로":15935,"실점":15936,"한계":15937,"스페인":15938,"구단":15939,"고르":15940,"재미":15941,"채널":15942,"대결":15943,"설계":15944,"코드":15945,"##ter":15946,"거부":15947,"통신":15948,"언론":15949,"아무리":15950,"워낙":15951,"생물":15952,"다행":15953,"비중":15954,"보조":15955,"복수":15956,"종합":15957,"전화":15958,"행성":15959,"기지":15960,"컴퓨터":15961,"민족":15962,"디스":15963,"and":15964,"한글":15965,"무한":15966,"투입":15967,"개봉":15968,"해석":15969,"알아":15970,"무조건":15971,"##아지":15972,"본격":15973,"영혼":15974,"정확히":15975,"연주":15976,"냐는":15977,"모자":15978,"운용":15979,"굳이":15980,"##ul":15981,"MA":15982,"평소":15983,"실수":15984,"회장":15985,"원정":15986,"광주":15987,"##IN":15988,"지적":15989,"소년":15990,"##타임":15991,"지명":15992,"와중":15993,"##무라":15994,"인상":15995,"1000":15996,"위협":15997,"미드":15998,"박사":15999,"##버리":16000,"2003":16001,"줄어들":16002,"회의":16003,"상징":16004,"충분히":16005,"##op":16006,"등록":16007,"는가":16008,"사태":16009,"집단":16010,"대형":16011,"가정":16012,"대응":16013,"카메":16014,"대비":16015,"보너스":16016,"터미":16017,"아웃":16018,"자동차":16019,"소비":16020,"##ck":16021,"전원":16022,"보컬":16023,"체제":16024,"공사":16025,"페르":16026,"시청자":16027,"%,":16028,"다운":16029,"##로드":16030,"태양":16031,"특유":16032,"희생":16033,"150":16034,"조각":16035,"플래":16036,"가면":16037,"개조":16038,"65":16039,"##FA":16040,"군단":16041,"##자리":16042,"##ation":16043,"무사":16044,"편성":16045,"뿌리":16046,"을지":16047,"도망치":16048,"봉인":16049,"##리트":16050,"여름":16051,"MBC":16052,"마력":16053,"##니스":16054,"SP":16055,"일종":16056,"기자":16057,"##로그":16058,"##ra":16059,"##려가":16060,"192":16061,"육군":16062,"발음":16063,"네이":16064,"장군":16065,"공항":16066,"스크":16067,"생성":16068,"통과":16069,"벗어나":16070,"얼마나":16071,"##의원":16072,"시나":16073,"분리":16074,"로써":16075,"방문":16076,"64":16077,"오리지":16078,"II":16079,"가하":16080,"드러내":16081,"장르":16082,"동맹":16083,"빼앗":16084,"장기":16085,"간단":16086,"함정":16087,"고양이":16088,"반복":16089,"ㅏ서":16090,"서술":16091,"##튜브":16092,"오랜":16093,"##일러":16094,"소식":16095,"의도":16096,"##려오":16097,"##오르":16098,"사쿠":16099,"분야":16100,"디지":16101,"전환":16102,"근데":16103,"52":16104,"불과":16105,"합치":16106,"유튜브":16107,"바닥":16108,"영입":16109,"먹이":16110,"안전":16111,"경기도":16112,"그때":16113,"치르":16114,"브레이":16115,"괴물":16116,"저격":16117,"마크":16118,"##텐츠":16119,"제안":16120,"흡수":16121,"점령":16122,"You":16123,"의지":16124,"##시스":16125,"는다는":16126,"예선":16127,"초대":16128,"필살":16129,"미리":16130,"최후":16131,"##니티":16132,"따지":16133,"400":16134,"개선":16135,"공략":16136,"유도":16137,"##남도":16138,"화염":16139,"숫자":16140,"놀라":16141,"독자":16142,"전술":16143,"##art":16144,"코치":16145,"그저":16146,"방해":16147,"주력":16148,"원하":16149,"액션":16150,"확보":16151,"외모":16152,"인원":16153,"가져오":16154,"매일":16155,"평화":16156,"비트":16157,"진입":16158,"터미널":16159,"이론":16160,"##런스":16161,"규정":16162,"관통":16163,"VS":16164,"클래스":16165,"라디오":16166,"에스":16167,"오토":16168,"찾아오":16169,"장난":16170,"수사":16171,"##오스":16172,"49":16173,"들리":16174,"##나가":16175,"이치":16176,"투자":16177,"승부":16178,"컨셉":16179,"##니까":16180,"눈물":16181,"체육":16182,"목숨":16183,"형성":16184,"지나가":16185,"적극":16186,"느냐":16187,"방패":16188,"AP":16189,"56":16190,"가스":16191,"패러":16192,"상자":16193,"음반":16194,"모험":16195,"사과":16196,"아름":16197,"서브":16198,"리어":16199,"왼쪽":16200,"적절":16201,"부수":16202,"흐르":16203,"인류":16204,"한국어":16205,"계기":16206,"보도":16207,"2001":16208,"##올리":16209,"함대":16210,"구축":16211,"##동생":16212,"거짓":16213,"저지르":16214,"살아남":16215,"의심":16216,"ᆫ지라":16217,"약점":16218,"예술":16219,"공화국":16220,"들이":16221,"역전":16222,"##스케":16223,"인형":16224,"기원":16225,"53":16226,"오리지널":16227,"54":16228,"비디오":16229,"##페이지":16230,"작성":16231,"완료":16232,"더블":16233,"##모리":16234,"...":16235,"자라":16236,"공부":16237,"은퇴":16238,"수리":16239,"코어":16240,"솔로":16241,"회전":16242,"스위":16243,"##라이더":16244,"쓰러지":16245,"풀리":16246,"단순히":16247,"대단":16248,"질문":16249,"In":16250,"걸치":16251,"PC":16252,"편집":16253,"황금":16254,"끌어":16255,"민주당":16256,"마침":16257,"뮤직":16258,"##래프트":16259,"알렉":16260,"시내":16261,"##로우":16262,"안드":16263,"##시브":16264,"홈페이지":16265,"착용":16266,"필수":16267,"트랙":16268,"상대방":16269,"꾸준":16270,"85":16271,"보수":16272,"해제":16273,"미스":16274,"엄마":16275,"카페":16276,"아프리카":16277,"드라이":16278,"경상":16279,"##ia":16280,"사단":16281,"습격":16282,"장관":16283,"편하":16284,"1990":16285,"현장":16286,"날개":16287,"사장":16288,"코스트":16289,"비난":16290,"포르":16291,"희망":16292,"원거리":16293,"##ill":16294,"데리":16295,"오스":16296,"수원":16297,"##ie":16298,"재판":16299,"선보이":16300,"분석":16301,"하위":16302,"##레이션":16303,"명중":16304,"아시아":16305,"진정":16306,"무력":16307,"코믹":16308,"선물":16309,"##RA":16310,"인지":16311,"성인":16312,"수호":16313,"ST":16314,"어라":16315,"모티브":16316,"##IA":16317,"비고":16318,"에이스":16319,"청소":16320,"확실히":16321,"블루":16322,"아름답":16323,"행복":16324,"경계":16325,"부리":16326,"저주":16327,"감안":16328,"카즈":16329,"중단":16330,"태도":16331,"가슴":16332,"190":16333,"##ik":16334,"임명":16335,"남편":16336,"공원":16337,"기획":16338,"지식":16339,"관광":16340,"##나다":16341,"표정":16342,"허용":16343,"승강":16344,"스마":16345,"쿨타임":16346,"장애":16347,"무섭":16348,"수단":16349,"지나치":16350,"오른쪽":16351,"탑재":16352,"바탕":16353,"본선":16354,"멈추":16355,"딱히":16356,"인민":16357,"제시":16358,"친하":16359,"소프트":16360,"상처":16361,"주도":16362,"##무원":16363,"당장":16364,"59":16365,"망하":16366,"##연히":16367,"가까":16368,"##북도":16369,"의문":16370,"영역":16371,"유래":16372,"기점":16373,"유우":16374,"테마":16375,"소울":16376,"테크":16377,"고통":16378,"리스":16379,"보급":16380,"##ab":16381,"직원":16382,"불명":16383,"날아가":16384,"비싸":16385,"아요":16386,"돌파":16387,"기어":16388,"베이스":16389,"위주":16390,"멀티":16391,"작용":16392,"주목":16393,"제압":16394,"대답":16395,"챙기":16396,"120":16397,"58":16398,"나카":16399,"잠깐":16400,"##마스":16401,"##워드":16402,"그라":16403,"주연":16404,"을까":16405,"카운터":16406,"여부":16407,"##울리":16408,"고유":16409,"순서":16410,"제기":16411,"측면":16412,"꺼내":16413,"베르":16414,"체계":16415,"도서":16416,"##est":16417,"게이":16418,"57":16419,"업무":16420,"박스":16421,"진영":16422,"부인":16423,"우수":16424,"##th":16425,"MP":16426,"멀리":16427,"문명":16428,"이스":16429,"카메라":16430,"패스":16431,"횟수":16432,"드립":16433,"후속":16434,"멸망":16435,"통일":16436,"온라인":16437,"##all":16438,"버튼":16439,"공장":16440,"##트롤":16441,"텔레":16442,"시나리오":16443,"지점":16444,"거주":16445,"케이스":16446,"귀족":16447,"나뉘":16448,"##ea":16449,"66":16450,"95":16451,"코너":16452,"문자":16453,"당선":16454,"내려가":16455,"에어":16456,"겨우":16457,"고서":16458,"협력":16459,"차별":16460,"특기":16461,"계산":16462,"소수":16463,"지옥":16464,"후지":16465,"약속":16466,"듀얼":16467,"삼국":16468,"최악":16469,"눈치":16470,"마츠":16471,"크로스":16472,"건너":16473,"뉴욕":16474,"달라지":16475,"Sh":16476,"연계":16477,"ᆯ수록":16478,"딜러":16479,"시체":16480,"은행":16481,"##붙이":16482,"##머리":16483,"Lo":16484,"##ct":16485,"스펙":16486,"늘리":16487,"살해":16488,"가볍":16489,"ddd":16490,"on":16491,"나타내":16492,"개편":16493,"상하":16494,"오후":16495,"유키":16496,"가져가":16497,"1999":16498,"퍼지":16499,"##다르":16500,"스케":16501,"Re":16502,"붕괴":16503,"처치":16504,"배신":16505,"게시":16506,"대놓":16507,"자격":16508,"혁명":16509,"매치":16510,"군주":16511,"부담":16512,"110":16513,"##라리":16514,"##ddd":16515,"ㅓ서":16516,"dddddd":16517,"Sp":16518,"컨트롤":16519,"게이지":16520,"1998":16521,"##스티":16522,"##AL":16523,"해금":16524,"그레이":16525,"겨울":16526,"국회의원":16527,"어울리":16528,"견제":16529,"증거":16530,"레이저":16531,"스탠":16532,"외부":16533,"최대한":16534,"군인":16535,"장전":16536,"교사":16537,"필살기":16538,"##AT":16539,"62":16540,"출발":16541,"진실":16542,"자살":16543,"제조":16544,"핵심":16545,"##바이":16546,"##PS":16547,"정권":16548,"##워하":16549,"어린":16550,"##피아":16551,"대원":16552,"여왕":16553,"전장":16554,"드물":16555,"궁극":16556,"미군":16557,"##OR":16558,"중화":16559,"연방":16560,"용병":16561,"마왕":16562,"##니어":16563,"스프":16564,"로켓":16565,"귀엽":16566,"아침":16567,"댄스":16568,"##VE":16569,"##레인":16570,"거절":16571,"제로":16572,"충전":16573,"##아리":16574,"한화":16575,"타이밍":16576,"출생":16577,"쓰러":16578,"자이":16579,"유용":16580,"가르치":16581,"공산":16582,"체인":16583,"SS":16584,"일본어":16585,"기분":16586,"SBS":16587,"이성":16588,"##터리":16589,"커뮤":16590,"조준":16591,"만족":16592,"충돌":16593,"고급":16594,"브랜드":16595,"도구":16596,"단위":16597,"취소":16598,"애매":16599,"교환":16600,"는다고":16601,"스피드":16602,"부진":16603,"##달리":16604,"거래":16605,"##ate":16606,"스킨":16607,"##로이드":16608,"미나":16609,"##사카":16610,"수학":16611,"가로":16612,"흔히":16613,"##ess":16614,"피해자":16615,"극장판":16616,"토스":16617,"Th":16618,"카르":16619,"##ell":16620,"61":16621,"반란":16622,"제주":16623,"##광역시":16624,"발휘":16625,"세계관":16626,"얼음":16627,"##ard":16628,"무게":16629,"76":16630,"##래도":16631,"오스트":16632,"끼리":16633,"장수":16634,"파악":16635,"후반부":16636,"자고":16637,"하트":16638,"##ang":16639,"단독":16640,"아무래도":16641,"겹치":16642,"인생":16643,"모션":16644,"레전":16645,"홍콩":16646,"패시브":16647,"공통":16648,"##IC":16649,"갈리":16650,"근무":16651,"판타":16652,"자르":16653,"미야":16654,"##ue":16655,"신화":16656,"비록":16657,"격투":16658,"아머":16659,"막히":16660,"한자":16661,"헤드":16662,"우려":16663,"##ant":16664,"##ack":16665,"순수":16666,"##ers":16667,"따위":16668,"피아":16669,"몰리":16670,"Al":16671,"NP":16672,"웨이":16673,"77":16674,"구입":16675,"##두르":16676,"정령":16677,"파이터":16678,"브리":16679,"##ine":16680,"88":16681,"공군":16682,"1997":16683,"##다수":16684,"운전":16685,"72":16686,"등등":16687,"혼란":16688,"계급":16689,"자식":16690,"가입":16691,"수입":16692,"##하라":16693,"아메":16694,"스코어":16695,"닥터":16696,"##심히":16697,"내주":16698,"트레이":16699,"회수":16700,"권력":16701,"경력":16702,"##어내":16703,"본부":16704,"채용":16705,"지시":16706,"공작":16707,"근거":16708,"마이크":16709,"커버":16710,"##피스":16711,"탄생":16712,"생일":16713,"밸런스":16714,"해방":16715,"조지":16716,"비율":16717,"누리":16718,"외치":16719,"기절":16720,"건강":16721,"지하철":16722,"언니":16723,"용도":16724,"테러":16725,"남부":16726,"꾸준히":16727,"##가락":16728,"병기":16729,"엑스":16730,"표준":16731,"갤러리":16732,"BG":16733,"ㅕ서":16734,"타워":16735,"실질":16736,"돌격":16737,"지대":16738,"##ok":16739,"##OS":16740,"납치":16741,"증명":16742,"협회":16743,"반영":16744,"홍보":16745,"모리":16746,"지급":16747,"아사":16748,"무너지":16749,"프라":16750,"대공":16751,"강조":16752,"입학":16753,"be":16754,"플라":16755,"오오":16756,"업체":16757,"트위":16758,"불안":16759,"랜덤":16760,"373":16761,"FI":16762,"유형":16763,"외교":16764,"요원":16765,"##디션":16766,"경영":16767,"왕자":16768,"##아나":16769,"or":16770,"##유키":16771,"아나":16772,"감염":16773,"대륙":16774,"경향":16775,"##세이":16776,"98":16777,"fff":16778,"온갖":16779,"훌륭":16780,"광역":16781,"감사":16782,"CD":16783,"gt":16784,"연대":16785,"마녀":16786,"실행":16787,"맡기":16788,"장식":16789,"문학":16790,"##ive":16791,"패러디":16792,"##웨이":16793,"기독":16794,"트라":16795,"페이스":16796,"메탈":16797,"찌르":16798,"물질":16799,"600":16800,"주어지":16801,"##오리":16802,"없애":16803,"ㅓ야":16804,"내놓":16805,"입단":16806,"재생":16807,"가까이":16808,"##크래프트":16809,"울트라":16810,"스페셜":16811,"화살":16812,"추진":16813,"주년":16814,"어차":16815,"찾아가":16816,"집안":16817,"고민":16818,"내내":16819,"설득":16820,"대다수":16821,"계승":16822,"1996":16823,"서포":16824,"선배":16825,"승강장":16826,"살짝":16827,"사카":16828,"##트로":16829,"어차피":16830,"부문":16831,"폐지":16832,"##ast":16833,"이슬":16834,"캐나다":16835,"##고기":16836,"PS":16837,"##AS":16838,"영원":16839,"정지":16840,"대놓고":16841,"##들리":16842,"신문":16843,"베트":16844,"1995":16845,"보물":16846,"적당":16847,"지우":16848,"##메달":16849,"신뢰":16850,"사전":16851,"##바로":16852,"브라질":16853,"##어리":16854,"파라":16855,"연예":16856,"작사":16857,"즉시":16858,"아리":16859,"기기":16860,"##uby":16861,"\",":16862,"전선":16863,"당황":16864,"##ED":16865,"미소":16866,"내려오":16867,"함선":16868,"흘리":16869,"괴롭":16870,"##tt":16871,"##즈키":16872,"##이터":16873,"68":16874,"뒤집":16875,"페이지":16876,"##ee":16877,"폭풍":16878,"등판":16879,"은근":16880,"lt":16881,"오픈":16882,"800":16883,"소문":16884,"탑승":16885,"명예":16886,"열심히":16887,"스파이":16888,"상품":16889,"화장":16890,"입수":16891,"레전드":16892,"오프닝":16893,"갑옷":16894,"별도":16895,"경유":16896,"러브":16897,"심리":16898,"시행":16899,"경기장":16900,"단일":16901,"파리":16902,"##거나":16903,"63":16904,"라스":16905,"말리":16906,"의회":16907,"1980":16908,"변호":16909,"##시오":16910,"통제":16911,"마련":16912,"##카와":16913,"댓글":16914,"반격":16915,"##ong":16916,"##AM":16917,"ruby":16918,"스티":16919,"운명":16920,"가면라이더":16921,"오류":16922,"정류":16923,"응원":16924,"푸르":16925,"트레":16926,"##세우":16927,"레오":16928,"후쿠":16929,"한때":16930,"커뮤니티":16931,"신청":16932,"쓰레":16933,"트위터":16934,"격파":16935,"라이벌":16936,"사령관":16937,"##ort":16938,"김성":16939,"주전":16940,"고전":16941,"기독교":16942,"출판":16943,"습득":16944,"이승":16945,"##웨어":16946,"중계":16947,"공기":16948,"편의":16949,"##ith":16950,"수업":16951,"하수":16952,"심장":16953,"처하":16954,"##리티":16955,"오해":16956,"불만":16957,"신고":16958,"마인":16959,"마주":16960,"두산":16961,"울산":16962,"##아먹":16963,"71":16964,"##if":16965,"74":16966,"관객":16967,"##다지":16968,"외국인":16969,"카나":16970,"정말로":16971,"랜드":16972,"보정":16973,"주위":16974,"##ly":16975,"크루":16976,"##fff":16977,"건축":16978,"##아버지":16979,"출장":16980,"....":16981,"스트라이":16982,"용어":16983,"MV":16984,"##나무":16985,"##ld":16986,"고기":16987,"공유":16988,"그곳":16989,"전달":16990,"73":16991,"여론":16992,"67":16993,"아트":16994,"메이저":16995,"ffffff":16996,"민간":16997,"사운드":16998,"짜리":16999,"절반":17000,"가리키":17001,"조치":17002,"##티컬":17003,"고치":17004,"지형":17005,"갈등":17006,"여신":17007,"##도우":17008,"붙잡":17009,"임시":17010,"무적":17011,"자치":17012,"##학자":17013,"재능":17014,"가득":17015,"아오":17016,"전함":17017,"전공":17018,"요새":17019,"압박":17020,"NC":17021,"##ain":17022,"리버":17023,"별개":17024,"엔터":17025,"초월":17026,"##ist":17027,"96":17028,"카라":17029,"##겨나":17030,"쌓이":17031,"종점":17032,"연구소":17033,"오로":17034,"네이버":17035,"스튜":17036,"1994":17037,"##ind":17038,"북쪽":17039,"전형":17040,"추적":17041,"메가":17042,"TH":17043,"그다지":17044,"메타":17045,"시각":17046,"아시":17047,"##타인":17048,"180":17049,"컨텐츠":17050,"남쪽":17051,"제하":17052,"늑대":17053,"보장":17054,"발매되":17055,"이란":17056,"지켜":17057,"테이":17058,"AC":17059,"돌진":17060,"소멸":17061,"##서트":17062,"판타지":17063,"시야":17064,"81":17065,"AT":17066,"결승전":17067,"전시":17068,"널리":17069,"클라":17070,"타점":17071,"든지":17072,"다행히":17073,"파이어":17074,"일부러":17075,"##per":17076,"불꽃":17077,"그만큼":17078,"동네":17079,"화이트":17080,"환자":17081,"##듀서":17082,"프로듀서":17083,"##ps":17084,"강원":17085,"동기":17086,"가이":17087,"##지컬":17088,"##EN":17089,"서부":17090,"여동생":17091,"문제점":17092,"흔하":17093,"적히":17094,"화려":17095,"##츠키":17096,"쓰러뜨리":17097,"그림자":17098,"선호":17099,"왕조":17100,"동원":17101,"폭력":17102,"상향":17103,"우스":17104,"지켜보":17105,"파이널":17106,"회원":17107,"대만":17108,"뛰어":17109,"본명":17110,"치명타":17111,"유로":17112,"북부":17113,"유비":17114,"신세":17115,"아가":17116,"맞서":17117,"물러":17118,"##EC":17119,"소드":17120,"자는":17121,"따오":17122,"신라":17123,"78":17124,"##가와":17125,"##식간":17126,"91":17127,"##OL":17128,"##스탄":17129,"수요":17130,"순식간":17131,"연상":17132,"무난":17133,"##ew":17134,"도서관":17135,"테스트":17136,"향상":17137,"메시":17138,"전역":17139,"매력":17140,"클로":17141,"학과":17142,"##돌리":17143,"차트":17144,"전적":17145,"##더스":17146,"변형":17147,"스토":17148,"최상":17149,"전방":17150,"시드":17151,"부품":17152,"찾아":17153,"지르":17154,"84":17155,"CP":17156,"체포":17157,"영토":17158,"아일":17159,"일상":17160,"수집":17161,"크리티컬":17162,"암흑":17163,"전투력":17164,"게이트":17165,"##사키":17166,"코믹스":17167,"아우":17168,"키스":17169,"영업":17170,"##LC":17171,"마술":17172,"me":17173,"인수":17174,"토모":17175,"##ry":17176,"수용":17177,"이마":17178,"저런":17179,"조절":17180,"파견":17181,"드디어":17182,"폭격":17183,"복잡":17184,"학살":17185,"복장":17186,"유전":17187,"##려움":17188,"오빠":17189,"##어스":17190,"82":17191,"대우":17192,"바라보":17193,"떡밥":17194,"##lo":17195,"입력":17196,"그래픽":17197,"구현":17198,"편지":17199,"개통":17200,"생명력":17201,"호환":17202,"##드라":17203,"현지":17204,"97":17205,"니시":17206,"추락":17207,"신인":17208,"사자":17209,"천사":17210,"도달":17211,"아무런":17212,"고향":17213,"동부":17214,"닌자":17215,"사토":17216,"##덜란드":17217,"네덜란드":17218,"청년":17219,"86":17220,"창작":17221,"디아":17222,"경비":17223,"점차":17224,"반지":17225,"작동":17226,"맞이":17227,"콜라":17228,"콘서트":17229,"연관":17230,"프레임":17231,"교황":17232,"제이":17233,"엘프":17234,"종이":17235,"한국인":17236,"쓰레기":17237,"수송":17238,"출현":17239,"노예":17240,"스톤":17241,"기초":17242,"그치":17243,"##레나":17244,"모바":17245,"추격":17246,"해설":17247,"it":17248,"해체":17249,"69":17250,"##퍼스":17251,"다시피":17252,"몰래":17253,"달하":17254,"##어버리":17255,"구도":17256,"조용":17257,"충청":17258,"의상":17259,"##노스":17260,"심판":17261,"##크스":17262,"간격":17263,"공급":17264,"녹음":17265,"아티":17266,"is":17267,"주먹":17268,"아무것":17269,"##히로":17270,"식물":17271,"토리":17272,"막장":17273,"시위":17274,"조성":17275,"NPC":17276,"프리미":17277,"전투기":17278,"사쿠라":17279,"##오프":17280,"##IT":17281,"제자":17282,"조조":17283,"잉글":17284,"연사":17285,"둘러":17286,"##둥이":17287,"돌아다니":17288,"수술":17289,"무효":17290,"스마트":17291,"연애":17292,"검색":17293,"슬롯":17294,"실드":17295,"만든":17296,"##시코":17297,"마스":17298,"감시":17299,"##타로":17300,"레스":17301,"스카이":17302,"US":17303,"일제":17304,"블록":17305,"꼬리":17306,"헤이":17307,"법원":17308,"##스트라":17309,"동쪽":17310,"##특별":17311,"마리오":17312,"나루":17313,"경험치":17314,"구체":17315,"MS":17316,"고교":17317,"옛날":17318,"놓치":17319,"##오카":17320,"##보내":17321,"An":17322,"통상":17323,"총기":17324,"김정":17325,"##티나":17326,"범인":17327,"탱크":17328,"구속":17329,"베트남":17330,"라이더":17331,"진지":17332,"##모로":17333,"##버트":17334,"##ust":17335,"신분":17336,"대립":17337,"신규":17338,"장교":17339,"성과":17340,"은하":17341,"연락":17342,"국립":17343,"예외":17344,"쿠키":17345,"250":17346,"어깨":17347,"##주시":17348,"KT":17349,"강의":17350,"인근":17351,"##어도":17352,"입구":17353,"지도자":17354,"신성":17355,"다섯":17356,"차단":17357,"규칙":17358,"글자":17359,"##50":17360,"되찾":17361,"불편":17362,"대대":17363,"메카":17364,"이랑":17365,"마도":17366,"평타":17367,"프린":17368,"요정":17369,"언제나":17370,"바보":17371,"창조":17372,"박살":17373,"코인":17374,"마리아":17375,"안습":17376,"총선":17377,"유희":17378,"모바일":17379,"동작":17380,"토론":17381,"##도로":17382,"후기":17383,"전라":17384,"##비전":17385,"##일리":17386,"여러모로":17387,"환상":17388,"아크":17389,"에드":17390,"189":17391,"거짓말":17392,"##디아":17393,"노출":17394,"기여":17395,"의료":17396,"##파이어":17397,"##브리":17398,"권총":17399,"세월":17400,"소총":17401,"접하":17402,"이래":17403,"이리":17404,"이득":17405,"농구":17406,"어택":17407,"##자키":17408,"일원":17409,"자이언":17410,"무료":17411,"신호":17412,"가시":17413,"블레이드":17414,"202":17415,"서쪽":17416,"##영상":17417,"이날":17418,"1992":17419,"부위":17420,"출처":17421,"음성":17422,"정복":17423,"개혁":17424,"미술":17425,"폭주":17426,"극단":17427,"잠수":17428,"##스턴":17429,"고생":17430,"띄우":17431,"92":17432,"헌터":17433,"##BO":17434,"##ore":17435,"##저히":17436,"간부":17437,"##톨릭":17438,"Ar":17439,"참전":17440,"반발":17441,"전직":17442,"교전":17443,"고용":17444,"투어":17445,"대체로":17446,"양산":17447,"일자":17448,"보석":17449,"고문":17450,"폴란드":17451,"대량":17452,"키리":17453,"연도":17454,"상점":17455,"83":17456,"하고":17457,"글로":17458,"라이프":17459,"제법":17460,"호평":17461,"상상":17462,"제어":17463,"사마":17464,"길이":17465,"동영상":17466,"수영":17467,"정류장":17468,"승격":17469,"전대":17470,"Te":17471,"##보드":17472,"출력":17473,"사양":17474,"합격":17475,"89":17476,"기습":17477,"잖아":17478,"휘두르":17479,"터치":17480,"##FF":17481,"101":17482,"93":17483,"1993":17484,"공학":17485,"잉글랜드":17486,"반하":17487,"지휘관":17488,"북미":17489,"De":17490,"MAX":17491,"제작진":17492,"태우":17493,"기병":17494,"득표":17495,"윌리":17496,"중대":17497,"94":17498,"요괴":17499,"마루":17500,"합성":17501,"미디어":17502,"다이아":17503,"머신":17504,"환승":17505,"인증":17506,"법률":17507,"com":17508,"79":17509,"끼치":17510,"메인":17511,"적어도":17512,"##일드":17513,"탄약":17514,"조심":17515,"가량":17516,"박근":17517,"런던":17518,"회차":17519,"구출":17520,"요즘":17521,"탱커":17522,"##FC":17523,"파일럿":17524,"의혹":17525,"원소":17526,"re":17527,"매니":17528,"리얼":17529,"활성":17530,"사이드":17531,"동방":17532,"유령":17533,"포탑":17534,"하수인":17535,"알파":17536,"노멀":17537,"삼진":17538,"히데":17539,"침공":17540,"다면서":17541,"87":17542,"마이클":17543,"디지털":17544,"분기":17545,"이재":17546,"##란색":17547,"개정":17548,"서양":17549,"멋지":17550,"가톨릭":17551,"묘지":17552,"인공":17553,"의무":17554,"##우드":17555,"볼넷":17556,"훔치":17557,"이슬람":17558,"똑같이":17559,"네임":17560,"가속":17561,"결성":17562,"##one":17563,"예비":17564,"축제":17565,"대략":17566,"On":17567,"가게":17568,"블러":17569,"학자":17570,"패널":17571,"경고":17572,"레인저":17573,"계정":17574,"보고":17575,"##se":17576,"타케":17577,"이자":17578,"리아":17579,"##ip":17580,"헌법":17581,"소화":17582,"전면":17583,"이내":17584,"아일랜드":17585,"##AC":17586,"AI":17587,"부부":17588,"스키":17589,"DJ":17590,"특화":17591,"##RE":17592,"익숙":17593,"용사":17594,"상호":17595,"어지":17596,"##미야":17597,"나아가":17598,"미츠":17599,"었었":17600,"갤럭":17601,"##ere":17602,"캐스":17603,"##먼트":17604,"이시":17605,"스웨":17606,"##임스":17607,"문장":17608,"바이러스":17609,"메모리":17610,"슈트":17611,"도망가":17612,"워치":17613,"실리":17614,"근육":17615,"대항":17616,"커맨":17617,"불법":17618,"넘치":17619,"##PG":17620,"리메":17621,"BGM":17622,"MC":17623,"플레이오프":17624,"핸드":17625,"베스트":17626,"어둡":17627,"오가":17628,"플로":17629,"SN":17630,"자매":17631,"유행":17632,"묻히":17633,"한방":17634,"개체":17635,"##ity":17636,"도발":17637,"냐며":17638,"들어서":17639,"##ath":17640,"김영":17641,"##창기":17642,"보안":17643,"쿠로":17644,"육성":17645,"##조리":17646,"예측":17647,"빛나":17648,"어린이":17649,"예고":17650,"트로":17651,"소닉":17652,"이즈":17653,"자금":17654,"갤럭시":17655,"##라이언":17656,"신기":17657,"총리":17658,"으니까":17659,"루시":17660,"노르":17661,"검찰":17662,"취임":17663,"멕시코":17664,"형사":17665,"FIFA":17666,"터키":17667,"마냥":17668,"정면":17669,"결론":17670,"사제":17671,"길드":17672,"##end":17673,"국방":17674,"웬만":17675,"차리":17676,"리스트":17677,"스톰":17678,"고백":17679,"1991":17680,"##끄럽":17681,"루타":17682,"파크":17683,"구멍":17684,"캐리":17685,"식사":17686,"움직임":17687,"불러":17688,"마구":17689,"일시":17690,"레이스":17691,"리치":17692,"세이브":17693,"호텔":17694,"곧바로":17695,"상업":17696,"앞두":17697,"감옥":17698,"이명":17699,"!!":17700,"##펙트":17701,"저장":17702,"여유":17703,"절망":17704,"제임스":17705,"찾아보":17706,"개방":17707,"부서":17708,"진심":17709,"##워크":17710,"투구":17711,"사이즈":17712,"구원":17713,"틀리":17714,"유대":17715,"볼트":17716,"초창기":17717,"플랫":17718,"세르":17719,"THE":17720,"700":17721,"타마":17722,"플레":17723,"대가":17724,"FA":17725,"피부":17726,"너무나":17727,"와이":17728,"배차":17729,"##요시":17730,"박정":17731,"##고리":17732,"청소년":17733,"오랫":17734,"팀원":17735,"흥행":17736,"ㅕㅆ":17737,"강철":17738,"번개":17739,"바치":17740,"카타":17741,"착각":17742,"좌우":17743,"##특별시":17744,"전철":17745,"커플":17746,"##릭스":17747,"여지":17748,"1988":17749,"##구리":17750,"바위":17751,"파트너":17752,"발달":17753,"어떠":17754,"##레이터":17755,"세포":17756,"리메이크":17757,"MVP":17758,"소형":17759,"##로나":17760,"아끼":17761,"처벌":17762,"그동안":17763,"스미":17764,"서울특별시":17765,"떠오르":17766,"다스":17767,"현역":17768,"레이드":17769,"아기":17770,"신설":17771,"긍정":17772,"아빠":17773,"주식":17774,"융합":17775,"##데스":17776,"##네스":17777,"주간":17778,"원자":17779,"망치":17780,"외계":17781,"분량":17782,"차라리":17783,"프라이":17784,"정착":17785,"Ro":17786,"위장":17787,"물러나":17788,"미카":17789,"##OT":17790,"인정받":17791,"돼지":17792,"반사":17793,"챕터":17794,"카스":17795,"합의":17796,"##디언":17797,"식민":17798,"랭킹":17799,"내성":17800,"##성기":17801,"목격":17802,"인연":17803,"누적":17804,"커지":17805,"협박":17806,"전문가":17807,"내장":17808,"장악":17809,"단장":17810,"게스트":17811,"의뢰":17812,"화학":17813,"빌드":17814,"에다":17815,"CC":17816,"방지":17817,"에서부터":17818,"포스트":17819,"클리":17820,"야스":17821,"브레이크":17822,"잡지":17823,"박근혜":17824,"Wh":17825,"해병":17826,"영향력":17827,"공지":17828,"논리":17829,"대리":17830,"방출":17831,"안드로이드":17832,"동의":17833,"태그":17834,"국왕":17835,"사우":17836,"방사":17837,"는다면":17838,"AK":17839,"시즈":17840,"깨지":17841,"대지":17842,"타이거":17843,"먹히":17844,"조약":17845,"고지":17846,"포트":17847,"각자":17848,"그대":17849,"몰아":17850,"떠올리":17851,"요코":17852,"배트":17853,"한번":17854,"괴롭히":17855,"관할":17856,"저녁":17857,"지능":17858,"##ect":17859,"DLC":17860,"골든":17861,"국군":17862,"하필":17863,"칭하":17864,"htt":17865,"라면서":17866,"대폭":17867,"Se":17868,"1970":17869,"의존":17870,"##스키":17871,"최소한":17872,"양쪽":17873,"으려고":17874,"손가락":17875,"호주":17876,"토르":17877,"Le":17878,"악역":17879,"마침내":17880,"루이":17881,"스턴":17882,"##지마":17883,"동화":17884,"홀로":17885,"연맹":17886,"과목":17887,"변호사":17888,"실버":17889,"공무원":17890,"유치":17891,"'.":17892,"후속작":17893,"막차":17894,"기구":17895,"수련":17896,"본작":17897,"그럼":17898,"무역":17899,"섞이":17900,"수수":17901,"He":17902,"면역":17903,"소지":17904,"보관":17905,"소원":17906,"오랫동안":17907,"무덤":17908,"PD":17909,"##age":17910,"오사카":17911,"웹툰":17912,"주말":17913,"역임":17914,"##IS":17915,"귀신":17916,"오카":17917,"육체":17918,"연인":17919,"##밀리":17920,"크라":17921,"기원전":17922,"al":17923,"혐의":17924,"스튜디오":17925,"해리":17926,"내구":17927,"명중률":17928,"확대":17929,"재산":17930,"카오스":17931,"접촉":17932,"호감":17933,"어쨌":17934,"불교":17935,"다가오":17936,"적대":17937,"##구치":17938,"네트":17939,"kt":17940,"##잡이":17941,"노부":17942,"대처":17943,"명성":17944,"써먹":17945,"강남":17946,"스틸":17947,"태평":17948,"계단":17949,"올해":17950,"전후":17951,"비행기":17952,"Go":17953,"연료":17954,"예능":17955,"정비":17956,"Me":17957,"출마":17958,"통치":17959,"테일":17960,"간혹":17961,"슈팅":17962,"##페인":17963,"팔리":17964,"오늘날":17965,"합체":17966,"트레이드":17967,"피스":17968,"로즈":17969,"모모":17970,"예쁘":17971,"정치인":17972,"부장":17973,"컬러":17974,"마키":17975,"정원":17976,"퀄리티":17977,"흐름":17978,"개성":17979,"ᆫ다며":17980,"소장":17981,"블리":17982,"리드":17983,"시마":17984,"안내":17985,"놀랍":17986,"그로":17987,"학부":17988,"이지":17989,"오전":17990,"게시판":17991,"소스":17992,"GT":17993,"놓이":17994,"##다이":17995,"준수":17996,"휴대":17997,"접속":17998,"저그":17999,"수익":18000,"더라":18001,"권리":18002,"##베르":18003,"1989":18004,"떨어":18005,"##라드":18006,"KIA":18007,"권한":18008,"원수":18009,"특집":18010,"패하":18011,"연극":18012,"하우스":18013,"##og":18014,"외형":18015,"금융":18016,"##ake":18017,"##ide":18018,"필리":18019,"##어나오":18020,"박물":18021,"코미":18022,"선전":18023,"화제":18024,"김태":18025,"새벽":18026,"허리":18027,"윌리엄":18028,"상당수":18029,"##OM":18030,"Be":18031,"피격":18032,"이집":18033,"My":18034,"초간":18035,"이집트":18036,"주기":18037,"WW":18038,"무렵":18039,"따라가":18040,"공공":18041,"누나":18042,"담기":18043,"환영":18044,"편곡":18045,"페이즈":18046,"일기":18047,"130":18048,"최다":18049,"금속":18050,"포르투":18051,"갇히":18052,"꼽히":18053,"알아보":18054,"##려주":18055,"나치":18056,"AR":18057,"둘째":18058,"메르":18059,"고구":18060,"원칙":18061,"##ss":18062,"카미":18063,"결합":18064,"SC":18065,"##ark":18066,"##바라":18067,"##티아":18068,"##ime":18069,"깨닫":18070,"연타":18071,"##ire":18072,"알렉산":18073,"할아버지":18074,"치우":18075,"SM":18076,"편입":18077,"식당":18078,"시계":18079,"굴리":18080,"유물":18081,"개입":18082,"문재":18083,"캠퍼스":18084,"한동안":18085,"기도":18086,"인조":18087,"매직":18088,"어른":18089,"##세스":18090,"지진":18091,"거인":18092,"188":18093,"전신":18094,"으러":18095,"소중":18096,"아니면":18097,"극복":18098,"wh":18099,"116":18100,"블로그":18101,"전진":18102,"시선":18103,"까다":18104,"성립":18105,"영문":18106,"주사":18107,"my":18108,"Su":18109,"##ES":18110,"정찰":18111,"은근히":18112,"정글":18113,"헤비":18114,"회상":18115,"아바":18116,"기사단":18117,"##프레":18118,"사도":18119,"SD":18120,"협상":18121,"ㅓ도":18122,"캐스팅":18123,"메뉴":18124,"궤도":18125,"스웨덴":18126,"##ID":18127,"시내버스":18128,"팬덤":18129,"Tr":18130,"음원":18131,"는지라":18132,"대개":18133,"##닉스":18134,"작곡가":18135,"손해":18136,"##ite":18137,"##던가":18138,"익히":18139,"대충":18140,"구나":18141,"튀어나오":18142,"독특":18143,"재단":18144,"수십":18145,"동굴":18146,"##다랗":18147,"우위":18148,"더더":18149,"별다르":18150,"복무":18151,"무겁":18152,"##아시아":18153,"고수":18154,"안티":18155,"민주주의":18156,"용기":18157,"우라":18158,"식량":18159,"##부르크":18160,"털리":18161,"트럭":18162,"160":18163,"교차":18164,"종목":18165,"이익":18166,"해안":18167,"##회사":18168,"처형":18169,"##ound":18170,"조언":18171,"일찍":18172,"멀쩡":18173,"트랜":18174,"SR":18175,"아이스":18176,"클래식":18177,"과제":18178,"리듬":18179,"이끄":18180,"세이버":18181,"위상":18182,"##iv":18183,"원본":18184,"더더욱":18185,"HD":18186,"''":18187,"펀치":18188,"커맨드":18189,"신비":18190,"커스":18191,"##리그":18192,"김민":18193,"빼앗기":18194,"타인":18195,"박물관":18196,"까다롭":18197,"트윈":18198,"##가미":18199,"애플":18200,"##iz":18201,"##OP":18202,"삼국지":18203,"##쳐지":18204,"훗날":18205,"##ge":18206,"증언":18207,"해적":18208,"멘탈":18209,"천재":18210,"날짜":18211,"허나":18212,"절대로":18213,"적군":18214,"IC":18215,"자국":18216,"일격":18217,"살아가":18218,"마비":18219,"신앙":18220,"위원장":18221,"구사":18222,"##가리":18223,"신부":18224,"##큐어":18225,"##OW":18226,"갈수록":18227,"노인":18228,"재미있":18229,"각본":18230,"무릎":18231,"코우":18232,"중독":18233,"하얗":18234,"느라":18235,"##가시":18236,"기적":18237,"재정":18238,"죄다":18239,"바리":18240,"세종":18241,"주포":18242,"집행":18243,"양성":18244,"##무르":18245,"스승":18246,"철학":18247,"하락":18248,"참석":18249,"놀이":18250,"지위":18251,"##바르":18252,"마이너":18253,"캠페인":18254,"과연":18255,"비례":18256,"데모":18257,"유이":18258,"정수":18259,"개시":18260,"예산":18261,"결코":18262,"모자라":18263,"국적":18264,"적응":18265,"패션":18266,"교류":18267,"관중":18268,"호위":18269,"작화":18270,"크리스마스":18271,"한참":18272,"탄창":18273,"매체":18274,"이브":18275,"이중":18276,"##덩이":18277,"##LL":18278,"열쇠":18279,"안경":18280,"히메":18281,"##ome":18282,"하야":18283,"활발":18284,"시아":18285,"경기력":18286,"Gr":18287,"내세우":18288,"원주":18289,"어다":18290,"선출":18291,"투명":18292,"십자":18293,"##테르":18294,"해상":18295,"with":18296,"바퀴":18297,"우연히":18298,"김종":18299,"루수":18300,"체크":18301,"##BA":18302,"희귀":18303,"명단":18304,"비추":18305,"녹색":18306,"충성":18307,"##UN":18308,"화성":18309,"클레":18310,"##마디":18311,"진보":18312,"미안":18313,"스타크래프트":18314,"드레":18315,"데려오":18316,"이영":18317,"칭찬":18318,"개수":18319,"사막":18320,"개막":18321,"첫차":18322,"주일":18323,"로그":18324,"결말":18325,"##아웃":18326,"IS":18327,"위대":18328,"행적":18329,"##미니":18330,"전성기":18331,"##몬드":18332,"제정":18333,"으라":18334,"당일":18335,"의대":18336,"모래":18337,"기르":18338,"인지도":18339,"흔적":18340,"칼리":18341,"1987":18342,"상급":18343,"기종":18344,"챌린":18345,"흔들리":18346,"후방":18347,"업적":18348,"오스트리아":18349,"de":18350,"미터":18351,"강점":18352,"BE":18353,"px":18354,"임대":18355,"상성":18356,"140":18357,"농담":18358,"어지간":18359,"김동":18360,"웃음":18361,"포로":18362,"호수":18363,"계통":18364,"사유":18365,"도우":18366,"보라":18367,"##MA":18368,"Pr":18369,"버스터":18370,"재현":18371,"대학원":18372,"취미":18373,"면적":18374,"무작":18375,"새기":18376,"매년":18377,"##ord":18378,"스프링":18379,"어쨌든":18380,"Love":18381,"비상":18382,"오직":18383,"토끼":18384,"구리":18385,"어려움":18386,"체육관":18387,"클릭":18388,"##려나":18389,"심사":18390,"##ud":18391,"일반인":18392,"포항":18393,"고스트":18394,"개량":18395,"##가스":18396,"사후":18397,"신장":18398,"거점":18399,"프리큐어":18400,"생존자":18401,"유적":18402,"이정":18403,"남북":18404,"어마":18405,"강도":18406,"기아":18407,"자책":18408,"과장":18409,"니코":18410,"새끼":18411,"ch":18412,"본체":18413,"으시":18414,"모조리":18415,"##양함":18416,"자본":18417,"대수":18418,"괴수":18419,"자극":18420,"예수":18421,"이주":18422,"가을":18423,"##mp":18424,"부지":18425,"파츠":18426,"##사자":18427,"화물":18428,"##데미":18429,"울리":18430,"사라":18431,"##10":18432,"로우":18433,"부작":18434,"맥스":18435,"저작":18436,"전멸":18437,"##ame":18438,"기용":18439,"소위":18440,"UE":18441,"선고":18442,"##ance":18443,"아메리카":18444,"캡틴":18445,"연금":18446,"추구":18447,"기울":18448,"아티스트":18449,"SKT":18450,"##ax":18451,"##카드":18452,"미라":18453,"인격":18454,"자세히":18455,"에리":18456,"an":18457,"##치기":18458,"가짜":18459,"출입":18460,"행하":18461,"판매량":18462,"JR":18463,"공세":18464,"##ure":18465,"아카데미":18466,"유나이":18467,"유니폼":18468,"불타":18469,"##ix":18470,"어스":18471,"흥미":18472,"900":18473,"일치":18474,"차기":18475,"GS":18476,"승점":18477,"채택":18478,"시달리":18479,"포격":18480,"##코드":18481,"공룡":18482,"일방":18483,"단편":18484,"유나이티":18485,"취향":18486,"무지":18487,"##ick":18488,"소송":18489,"##mer":18490,"스마트폰":18491,"도주":18492,"덧붙이":18493,"포드":18494,"탈퇴":18495,"메리":18496,"카트":18497,"##이즈":18498,"코코":18499,"일본인":18500,"##ice":18501,"막대":18502,"사형":18503,"연패":18504,"기량":18505,"색깔":18506,"억지":18507,"타율":18508,"피아노":18509,"스트리":18510,"바깥":18511,"로고":18512,"몽골":18513,"귀찮":18514,"##our":18515,"제작자":18516,"잘리":18517,"한마디":18518,"Bo":18519,"유통":18520,"건조":18521,"노벨":18522,"코리아":18523,"상실":18524,"아즈":18525,"타선":18526,"화장실":18527,"할머니":18528,"드라이브":18529,"구경":18530,"후계":18531,"생겨나":18532,"영구":18533,"치유":18534,"집어":18535,"마린":18536,"라이온":18537,"측정":18538,"EP":18539,"식민지":18540,"비주":18541,"내지":18542,"미루":18543,"요금":18544,"##시로":18545,"아미":18546,"자전":18547,"보존":18548,"1986":18549,"거듭":18550,"날아오":18551,"다름":18552,"##공화국":18553,"선택지":18554,"쌍둥이":18555,"어드":18556,"무라":18557,"잠재":18558,"1960":18559,"아이콘":18560,"가요":18561,"##이너":18562,"OST":18563,"상인":18564,"무방":18565,"커피":18566,"##비드":18567,"빨갛":18568,"사신":18569,"강요":18570,"레이더":18571,"##랭크":18572,"메시지":18573,"##코토":18574,"인민공화국":18575,"KO":18576,"##{{":18577,"Un":18578,"간신":18579,"언스":18580,"이민":18581,"##고속":18582,"이슈":18583,"통산":18584,"동력":18585,"가상":18586,"고도":18587,"박히":18588,"##랑이":18589,"Ex":18590,"포수":18591,"신사":18592,"넥센":18593,"도끼":18594,"조연":18595,"색상":18596,"피터":18597,"다치":18598,"데드":18599,"캐논":18600,"##AD":18601,"명확":18602,"오타":18603,"몰락":18604,"연승":18605,"##qu":18606,"주택":18607,"화재":18608,"사원":18609,"여객":18610,"##멘트":18611,"루카":18612,"교장":18613,"네트워크":18614,"주소":18615,"타락":18616,"곡명":18617,"귀환":18618,"##oc":18619,"가루":18620,"냄새":18621,"브루":18622,"안타깝":18623,"{{{":18624,"외전":18625,"즐겁":18626,"초보":18627,"콜라보":18628,"##반도":18629,"유희왕":18630,"터뜨리":18631,"제갈":18632,"실망":18633,"판결":18634,"##80":18635,"구르":18636,"##시스트":18637,"소라":18638,"칭호":18639,"모토":18640,"등지":18641,"GB":18642,"##카리":18643,"대선":18644,"찾아내":18645,"경로":18646,"레알":18647,"수장":18648,"UEFA":18649,"항공기":18650,"이터":18651,"스페이스":18652,"광역시":18653,"남녀":18654,"위반":18655,"깔끔":18656,"매니저":18657,"거미":18658,"비치":18659,"포르투갈":18660,"DS":18661,"고구려":18662,"타수":18663,"연합군":18664,"186":18665,"##own":18666,"sh":18667,"##ys":18668,"아케":18669,"반동":18670,"아마도":18671,"라인업":18672,"순환":18673,"CPU":18674,"오라":18675,"##노우":18676,"혐오":18677,"##나카":18678,"교실":18679,"영주":18680,"##럼프":18681,"그만두":18682,"베네":18683,"법인":18684,"항복":18685,"백성":18686,"##라이트":18687,"##든가":18688,"너희":18689,"관찰":18690,"복지":18691,"타운":18692,"##라노":18693,"잠수함":18694,"미스터":18695,"##ber":18696,"단단":18697,"비서":18698,"주역":18699,"주자":18700,"적합":18701,"캠프":18702,"스터":18703,"배터리":18704,"매장":18705,"수류":18706,"We":18707,"관람":18708,"익스":18709,"AM":18710,"커다랗":18711,"예시":18712,"유효":18713,"강원도":18714,"커리어":18715,"드래프트":18716,"싱크":18717,"흘러":18718,"##저스":18719,"히어로즈":18720,"끊기":18721,"105":18722,"공성":18723,"카츠":18724,"공업":18725,"##av":18726,"아쿠":18727,"둘러싸":18728,"##OC":18729,"흑인":18730,"인치":18731,"하단":18732,"유학":18733,"벌레":18734,"트라이":18735,"이스라":18736,"승객":18737,"##old":18738,"예언":18739,"용량":18740,"김재":18741,"##정부":18742,"동성":18743,"..\"":18744,"고작":18745,"본사":18746,"##로디":18747,"##시타":18748,"상단":18749,"승률":18750,"##일보":18751,"국경":18752,"추억":18753,"소프트웨어":18754,"CF":18755,"면모":18756,"천만":18757,"마약":18758,"포위":18759,"휴식":18760,"서구":18761,"티켓":18762,"관측":18763,"LI":18764,"철수":18765,"수출":18766,"일대":18767,"그러니까":18768,"##orld":18769,"도적":18770,"곤란":18771,"중립":18772,"자폭":18773,"카운트":18774,"생략":18775,"스텔":18776,"구글":18777,"개국":18778,"표지":18779,"적당히":18780,"수류탄":18781,"인디":18782,"터널":18783,"상술":18784,"변환":18785,"음모":18786,"조별":18787,"클랜":18788,"마드리":18789,"기생":18790,"좌석":18791,"허가":18792,"합병":18793,"다름없":18794,"추종":18795,"형상":18796,"##위대":18797,"고맙":18798,"소대":18799,"대인":18800,"시그":18801,"사이버":18802,"실전":18803,"오크":18804,"히나":18805,"치루":18806,"정기":18807,"후술":18808,"아랍":18809,"김대":18810,"문구":18811,"내전":18812,"마드리드":18813,"통계":18814,"1984":18815,"디스크":18816,"더럽":18817,"보험":18818,"인종":18819,"차이점":18820,"메달":18821,"마디":18822,"##ont":18823,"1985":18824,"글로벌":18825,"연예인":18826,"최신":18827,"근본":18828,"복구":18829,"##려들":18830,"지경":18831,"언더":18832,"액티브":18833,"입지":18834,"사명":18835,"187":18836,"서포터":18837,"증오":18838,"SH":18839,"지뢰":18840,"후손":18841,"이스라엘":18842,"스트라이크":18843,"후배":18844,"아시안":18845,"용서":18846,"##데이":18847,"에르":18848,"구석":18849,"담배":18850,"성남":18851,"3000":18852,"사정거리":18853,"위성":18854,"일족":18855,"시너지":18856,"타로":18857,"크리스탈":18858,"오마":18859,"떨어뜨리":18860,"AD":18861,"##ies":18862,"허락":18863,"LC":18864,"기숙":18865,"고위":18866,"더러":18867,"DF":18868,"급격":18869,"그랜드":18870,"자막":18871,"즉위":18872,"리타":18873,"숙련":18874,"##머스":18875,"함수":18876,"논의":18877,"부각":18878,"전주":18879,"하차":18880,"고개":18881,"텔레비전":18882,"구슬":18883,"공방":18884,"lo":18885,"꾸미":18886,"KBO":18887,"행보":18888,"어뢰":18889,"미묘":18890,"경주":18891,"##팩트":18892,"토벌":18893,"시노":18894,"쓸모":18895,"감각":18896,"모니":18897,"발행":18898,"해피":18899,"데려가":18900,"아츠":18901,"모노":18902,"네요":18903,"들키":18904,"언덕":18905,"서식":18906,"It":18907,"왕위":18908,"마그":18909,"##lay":18910,"연령":18911,"특전":18912,"튕기":18913,"XX":18914,"준우":18915,"중첩":18916,"태평양":18917,"부딪":18918,"취약":18919,"가만":18920,"뜬금":18921,"후원":18922,"오랜만":18923,"제약":18924,"쿼터":18925,"블러드":18926,"루나":18927,"베리":18928,"노동자":18929,"무척":18930,"침략":18931,"저렴":18932,"정화":18933,"간신히":18934,"##자드":18935,"총알":18936,"기관총":18937,"##OD":18938,"침입":18939,"##하면":18940,"눈치채":18941,"세븐":18942,"노스":18943,"MF":18944,"드롭":18945,"간접":18946,"일본군":18947,"생년":18948,"##US":18949,"아르헨":18950,"방어구":18951,"##블린":18952,"제트":18953,"워커":18954,"흡혈":18955,"분쟁":18956,"법정":18957,"입대":18958,"##어마":18959,"알아내":18960,"헬기":18961,"파르":18962,"학습":18963,"혹시":18964,"균형":18965,"드럼":18966,"맛있":18967,"가동":18968,"찍히":18969,"아테":18970,"전이":18971,"CV":18972,"사귀":18973,"진압":18974,"강자":18975,"##프리":18976,"카카":18977,"산하":18978,"WWE":18979,".....":18980,"##PM":18981,"아르헨티나":18982,"##ann":18983,"잡아먹":18984,"곳곳":18985,"레슬":18986,"찬스":18987,"공용":18988,"텍스트":18989,"소방":18990,"평생":18991,"머무르":18992,"여우":18993,"조이":18994,"분열":18995,"스리":18996,"NE":18997,"아이언":18998,"SE":18999,"어마어마":19000,"주차":19001,"모시":19002,"비스":19003,"자이언츠":19004,"관점":19005,"##40":19006,"중세":19007,"네오":19008,"신전":19009,"동인":19010,"약화":19011,"악당":19012,"금방":19013,"정차":19014,"나리":19015,"125":19016,"##pe":19017,"깨어나":19018,"플라이":19019,"이토":19020,"잡아내":19021,"거울":19022,"##30":19023,"우르":19024,"트랜스":19025,"애정":19026,"부적":19027,"페널":19028,"결심":19029,"지리":19030,"이수":19031,"경상북도":19032,"딜링":19033,"반전":19034,"##말리":19035,"제작사":19036,"나폴":19037,"격추":19038,"내보내":19039,"제출":19040,"상기":19041,"##네임":19042,"성당":19043,"앨리스":19044,"##sh":19045,"라기":19046,"연고":19047,"보호막":19048,"your":19049,"니콜":19050,"이혼":19051,"되돌리":19052,"통화":19053,"양자":19054,"크림":19055,"스팀":19056,"토너":19057,"표면":19058,"호흡":19059,"##NA":19060,"폐쇄":19061,"##배우":19062,"사령부":19063,"금액":19064,"아저":19065,"##마크":19066,"결전":19067,"큐브":19068,"구축함":19069,"엘리트":19070,"미즈":19071,"아저씨":19072,"간주":19073,"코르":19074,"히토":19075,"악화":19076,"저택":19077,"보완":19078,"뮤지컬":19079,"창원":19080,"구름":19081,"이식":19082,"리온":19083,"세인트":19084,"얻어":19085,"인권":19086,"뽑히":19087,"충실":19088,"##VD":19089,"채팅":19090,"스크린":19091,"헤어지":19092,"CJ":19093,"김현":19094,"불사":19095,"선거구":19096,"착하":19097,"AS":19098,"용인":19099,"상관없":19100,"더군":19101,"참모":19102,"전파":19103,"초록":19104,"열매":19105,"가라":19106,"부자":19107,"주둔":19108,"지불":19109,"DE":19110,"발리":19111,"인용":19112,"하루카":19113,"유력":19114,"##은행":19115,"암시":19116,"대왕":19117,"천안":19118,"##ng":19119,"##키아":19120,"##io":19121,"낚시":19122,"긴장":19123,"정예":19124,"교과":19125,"지라":19126,"분해":19127,"물리치":19128,"묘하":19129,"##천시":19130,"해치":19131,"##베이":19132,"빠져":19133,"토니":19134,"프란":19135,"동양":19136,"유발":19137,"문재인":19138,"서서":19139,"보건":19140,"존재감":19141,"성별":19142,"공정":19143,"경남":19144,"체결":19145,"우에":19146,"남아":19147,"시인":19148,"배포":19149,"학력":19150,"상세":19151,"소유자":19152,"낮추":19153,"엮이":19154,"수석":19155,"##거지":19156,"후계자":19157,";&":19158,"악기":19159,"언젠":19160,"언젠가":19161,"답변":19162,"드라이버":19163,"마주치":19164,"걸어":19165,"짜증":19166,"##리나":19167,"상영":19168,"##oo":19169,"토너먼트":19170,"에요":19171,"원리":19172,"수호자":19173,"재밌":19174,"도둑":19175,"전승":19176,"엑스트라":19177,"바이오":19178,"악명":19179,"안기":19180,"행운":19181,"로버트":19182,"개설":19183,"##라기":19184,"호기":19185,"170":19186,"이듬":19187,"도박":19188,"Pro":19189,"구미":19190,"본관":19191,"뜨겁":19192,"천하":19193,"업로드":19194,"잔뜩":19195,"미쿠":19196,"기인":19197,"선두":19198,"은신":19199,"견디":19200,"기숙사":19201,"##싱턴":19202,"##월일":19203,"##ave":19204,"뱀파이어":19205,"양식":19206,"실종":19207,"쏟아지":19208,"교도":19209,"중량":19210,"에다가":19211,"지팡":19212,"루비":19213,"##포트":19214,"릴리":19215,"요인":19216,"백인":19217,"##걸이":19218,"로리":19219,"탐험":19220,"정황":19221,"##LE":19222,"부임":19223,"임신":19224,"난입":19225,"중력":19226,"아동":19227,"처분":19228,"대책":19229,"임금":19230,"동점":19231,"비아":19232,"LV":19233,"관리자":19234,"캐스터":19235,"디지몬":19236,"미키":19237,"심심":19238,"##번트":19239,"건드리":19240,"만남":19241,"방송국":19242,"that":19243,"논문":19244,"야생":19245,"칼날":19246,"UP":19247,"항의":19248,"테라":19249,"관계자":19250,"헨리":19251,"미네":19252,"생년월일":19253,"해명":19254,"백작":19255,"##나미":19256,"시카":19257,"유독":19258,"탄환":19259,"##센트":19260,"분명히":19261,"베타":19262,"호칭":19263,"##우마":19264,"복합":19265,"도루":19266,"서번트":19267,"카와":19268,"##스럽":19269,"금메달":19270,"말투":19271,"윈도우":19272,"##ION":19273,"동명":19274,"생명체":19275,"진주":19276,"문단":19277,"발렌":19278,"자녀":19279,"##ream":19280,"와일드":19281,"할인":19282,"법칙":19283,"수백":19284,"가방":19285,"다이아몬드":19286,"려던":19287,"콜로":19288,"ED":19289,"1500":19290,"여야":19291,"단축":19292,"절차":19293,"정통":19294,"루이스":19295,"잃어버리":19296,"EN":19297,"해골":19298,"분신":19299,"외계인":19300,"무관":19301,"영광":19302,"기상":19303,"보드":19304,"운동장":19305,"하향":19306,"이드":19307,"온도":19308,"지치":19309,"시합":19310,"조리":19311,"라틴":19312,"이듬해":19313,"브레":19314,"주술":19315,"분대":19316,"프로필":19317,"인력":19318,"리뷰":19319,"##리스트":19320,"##ond":19321,"창고":19322,"1982":19323,"치즈":19324,"->":19325,"딜레이":19326,"부스터":19327,"##펴보":19328,"살펴보":19329,"이온":19330,"니스":19331,"그르":19332,"리오":19333,"끔찍":19334,"광장":19335,"##어하":19336,"로얄":19337,"기름":19338,"플래시":19339,"##게임":19340,"##iss":19341,"Com":19342,"5000":19343,"왠지":19344,"사살":19345,"의학":19346,"기둥":19347,"크레":19348,"창설":19349,"그린":19350,"뛰어넘":19351,"전동":19352,"건국":19353,"성질":19354,"울프":19355,"전북":19356,"도라":19357,"마블":19358,"한쪽":19359,"유인":19360,"막내":19361,"공허":19362,"엔젤":19363,"체험":19364,"레딧":19365,"장인":19366,"부드":19367,"##에르":19368,"퇴장":19369,"그렇지만":19370,"물고기":19371,"부사":19372,"유격":19373,"존경":19374,"민첩":19375,"집착":19376,"커녕":19377,"##태우":19378,"우정":19379,"##운서":19380,"삽입":19381,"디젤":19382,"아나운서":19383,"걸맞":19384,"웨스트":19385,"상식":19386,"참가자":19387,"아키라":19388,"승자":19389,"1950":19390,"공산당":19391,"##플레이":19392,"##IP":19393,"##11":19394,"깔리":19395,"창단":19396,"요약":19397,"휘말리":19398,"##카이":19399,"시상":19400,"감지":19401,"시원":19402,"작년":19403,"진학":19404,"모터":19405,"시공":19406,"그램":19407,"증상":19408,"전제":19409,"독재":19410,"수면":19411,"감추":19412,"##다나":19413,"1983":19414,"하츠":19415,"의장":19416,"불펜":19417,"##60":19418,"학기":19419,"샌드":19420,"출구":19421,"복제":19422,"##ian":19423,"??":19424,"by":19425,"##비치":19426,"##소녀":19427,"아틀":19428,"블라":19429,"부드럽":19430,"오디션":19431,"he":19432,"두르":19433,"싫어하":19434,"나츠":19435,"유산":19436,"##커스":19437,"께서":19438,"비전":19439,"철저":19440,"선제":19441,"덩치":19442,"발굴":19443,"가공":19444,"시라":19445,"BL":19446,"하이퍼":19447,"헤어":19448,"단원":19449,"스위스":19450,"투스":19451,"유전자":19452,"스폰":19453,"##도르":19454,"&#":19455,"반박":19456,"##유럽":19457,"go":19458,"##갈리":19459,"그럭":19460,"레지":19461,"트럼프":19462,"여주":19463,"항구":19464,"타석":19465,"리스크":19466,"코트":19467,"미만":19468,"##세대":19469,"돌입":19470,"##저럭":19471,"웃기":19472,"안녕":19473,"갑작":19474,"중형":19475,"스쿨":19476,"사인":19477,"콘텐츠":19478,"스위치":19479,"펼쳐지":19480,"##티스":19481,"다카":19482,"비주얼":19483,"그럭저럭":19484,"사법":19485,"그레":19486,"주니어":19487,"##쟁이":19488,"노바":19489,"기운":19490,"##Hz":19491,"통로":19492,"준우승":19493,"배정":19494,"##TV":19495,"수명":19496,"백제":19497,"마스크":19498,"##던지":19499,"사용자":19500,"대거":19501,"어필":19502,"출격":19503,"휘하":19504,"기재":19505,"상륙":19506,"라이플":19507,"논쟁":19508,"웨이브":19509,"나마":19510,"정교":19511,"이펙트":19512,"본진":19513,"단행":19514,"자전거":19515,"##투스":19516,"가죽":19517,"배트맨":19518,"보충":19519,"토마":19520,"##베스":19521,"##ory":19522,"신도":19523,"깨달":19524,"트리플":19525,"훈장":19526,"##필드":19527,"호소":19528,"##TE":19529,"시리아":19530,"##우리":19531,"식품":19532,"회담":19533,"스트레스":19534,"격차":19535,"라니":19536,"국장":19537,"축복":19538,"속이":19539,"인질":19540,"##ace":19541,"##rom":19542,"코미디":19543,"시트":19544,"##크라":19545,"Co":19546,"##세서":19547,"실책":19548,"##틀러":19549,"스펠":19550,"근대":19551,"완결":19552,"위안":19553,"Bl":19554,"옹호":19555,"학문":19556,"파편":19557,"##카이도":19558,"태국":19559,"케인":19560,"평양":19561,"##누스":19562,"공화":19563,"카를":19564,"지사":19565,"처지":19566,"싸이":19567,"유기":19568,"마우스":19569,";&#":19570,"경전":19571,"공립":19572,"갈아":19573,"루스":19574,"워싱턴":19575,"팬텀":19576,"이글":19577,"부근":19578,"마케":19579,"적중":19580,"DVD":19581,"##필더":19582,"승인":19583,"미드필더":19584,"Br":19585,"원문":19586,"오키":19587,"토지":19588,"침묵":19589,"소음":19590,"피우":19591,
[...]
