[PAD]
[UNK]
[BOS]
[EOS]
[CLS]
[SEP]
[MASK]
▁이
▁있
에서
으로
▁그
▁1
▁사
▁2
▁아
▁하
▁수
▁대
▁가
▁시
▁한
▁보
▁전
▁다
▁것
▁기
▁자
▁나
지만
하는
▁일
▁정
▁있다
▁마
▁지
▁모
▁때
▁상
이다
▁스
▁유
▁20
었다
▁공
▁경
▁제
▁없
▁주
▁인
▁중
▁-
▁3
▁부
▁않
▁오
▁등
▁무
▁소
▁어
에게
▁비
했다
▁되
▁위
하고
한다
▁여
▁미
▁해
이라
▁만
▁바
▁고
▁있는
▁성
▁조
▁'
▁201
▁때문
▁말
▁4
▁방
▁동
▁거
▁내
▁신
▁도
▁안
▁연
▁영
▁개
▁발
▁후
▁생
▁장
▁카
▁구
까지
들이
▁한다
▁세
▁선
▁게
▁5
▁최
는데
▁적
하게
▁많
▁의
레이
에는
▁불
된다
면서
▁타
▁실
에서는
▁당
▁더
▁경우
▁강
▁원
▁파
▁특
▁서
▁문
▁때문에
▁우
▁같
▁진
▁결
하다
▁노
▁알
00
▁작
▁관
▁포
▁반
적으로
▁아니
▁역
▁들
▁단
리고
으며
▁프
▁리
▁"
적인
▁라
▁S
▁19
▁남
해서
▁받
▁6
▁사용
▁못
▁물
▁차
▁이후
▁사람
▁:
▁자신
▁배
▁본
기도
..
▁현
▁출
▁에
▁추
부터
▁데
다는
▁따
▁좋
대로
라는
▁초
▁매
▁공격
▁버
▁드
▁피
▁코
▁정도
▁7
스트
라고
▁레
하면
▁달
▁또
▁계
이나
▁등장
▁건
▁크
다고
하여
▁참
▁8
▁국
▁재
▁통
▁예
▁감
▁입
▁M
▁된다
▁두
▁요
▁설
▁다른
▁함
▁명
▁분
들은
▁편
▁패
▁저
▁쓰
▁10
▁A
▁하지만
▁캐
였다
하기
▁죽
에도
▁점
들을
지는
▁할
▁로
▁9
▁메
▁그리고
▁사실
▁평
▁화
▁외
▁200
▁잘
으나
▁김
▁0
▁걸
리는
▁교
들의
▁것이
▁플
▁가능
▁게임
▁애
기에
기를
...
▁돌
▁C
▁올
▁T
다가
▁아이
▁하는
▁들어
▁맞
▁심
하지
되었다
▁호
▁같은
▁직
▁처
▁살
▁과
▁속
는다
▁하나
▁종
▁변
▁B
거나
되어
▁확
보다
스터
▁필
▁치
▁일본
하며
▁회
er
▁D
▁뒤
▁모습
▁이름
▁높
▁나오
▁대한
▁학
▁없다
▁한국
▁그러
▁운
▁약
▁트
이트
▁체
▁토
▁히
이라는
기가
어서
▁존
▁행
▁언
릭터
▁목
▁생각
▁간
▁문제
이라고
▁승
▁했
았다
리를
에서도
▁번
▁힘
▁캐릭터
▁만들
▁함께
▁활
▁각
▁이상
▁디
in
▁날
▁시작
▁했다
▁표
▁P
능력
▁박
▁양
되는
▁위해
▁것을
▁12
▁L
▁군
▁야
▁당시
▁완
▁키
▁손
처럼
▁독
▁F
▁가장
▁없는
▁있었
▁베
▁사이
리가
라이
▁순
▁투
▁끝
▁잡
▁또한
▁볼
리즈
▁근
▁막
▁되었다
▁집
on
으면
▁상대
▁따라
▁프로
지고
▁판
이지
▁항
▁G
▁열
▁보면
▁형
▁다시
an
기는
▁다만
▁클
▁별
▁것이다
▁용
▁결국
니다
▁효
▁E
▁많이
▁폭
▁그런
▁상황
▁난
▁총
▁듯
▁테
▁증
이고
▁팀
▁/
▁11
▁모두
지를
▁것은
▁음
▁플레이
이었
▁능력
▁블
▁새
▁먹
▁존재
▁왕
▁루
▁복
▁친
▁물론
▁넘
▁태
▁H
▁상태
▁시리즈
이며
스의
▁나온
▁빠
▁브
이는
▁모든
▁추가
▁있었다
▁너
▁시간
▁커
▁충
▁그래
or
▁상당
▁삼
▁얼
▁K
▁N
▁네
▁악
▁전투
▁자신의
▁앞
력이
▁보여
▁눈
▁싸
▁것으로
▁광
▁하고
▁R
▁매우
▁천
스가
▁현재
력을
▁이런
스를
학교
▁실제
▁병
▁그러나
▁큰
▁자체
▁카드
▁및
▁아니라
하면서
▁I
▁검
므로
성이
▁15
▁채
리아
▁페
▁+
ar
▁줄
▁누
인데
▁된
▁시즌
▁엄
가는
▁많은
▁취
▁아닌
▁임
▁이유
▁느
되었
▁합
▁금
▁그렇
▁준
th
▁세계
▁극
들에게
▁스킬
▁이용
인다
▁거의
가지
▁식
인지
▁기술
▁효과
인이
▁이미
자가
리스
▁백
▁찾
▁슈
▁팬
▁얻
▁바로
▁역시
부분
▁절
에선
이었다
▁미국
▁일반
▁떨
▁O
▁참고
▁처음
▁갈
이지만
▁길
▁관련
▁와
▁첫
▁엔
▁머
▁주인
▁않는
▁라이
▁돌아
▁산
하였다
▁선수
진다
지가
▁벌
▁되어
▁온
▁특히
▁여러
들과
▁허
▁마법
▁W
▁작품
▁아무
▁기본
▁붙
en
사가
▁밀
졌다
▁황
하자
린다
▁이야
at
▁은
▁업
▁필요
라도
시키
▁있는데
사를
▁몰
▁해당
▁199
▁다음
어나
도가
▁않고
▁좀
▁모습을
▁곳
▁창
▁레이
이스
▁있으며
▁수도
거리
로는
▁그냥
▁쿠
▁즉
▁민
▁북
아서
.0
▁잠
▁둘
▁떨어
▁대부분
지막
▁혼
▁철
하지만
기로
.1
▁같이
▁인간
▁스타
000
▁탈
▁부분
▁비슷
▁주인공
했던
이가
▁좋은
st
▁16
▁않는다
상을
▁되는
▁하다
▁기록
▁지역
▁환
▁정도로
▁달리
▁터
▁몇
해야
시아
▁곡
주는
▁영화
▁귀
▁18
▁수준
▁마지막
으니
▁케
▁뿐
al
▁상당히
▁골
전히
▁30
▁13
▁청
▁제작
▁인물
▁몸
▁사건
▁V
르는
▁탄
▁어느
▁내용
▁경기
▁만들어
▁레벨
▁월
▁가지고
▁않은
성을
장을
▁몬
▁권
▁일부
▁엘
▁워
▁있을
▁애니
▁진행
▁것도
어가
▁싶
▁맡
▁계속
▁덕
▁경우가
▁밝
▁성우
▁헤
▁범
▁담
20
▁이전
▁보고
들도
▁대신
▁설정
▁풀
ou
▁떠
▁많다
▁14
▁않았
▁그대로
▁격
▁통해
▁있고
주의
▁피해
▁지금
▁올라
이션
렸다
드는
▁암
▁인해
지도
있는
▁보인다
▁U
-1
▁낮
▁접
드를
▁제외
▁원래
년에
▁팔
▁방송
▁여기
되고
▁있어
▁방어
밖에
했고
▁나오는
수가
시간
▁너무
▁좋아
인의
▁2015
re
▁있지만
▁될
▁시절
리에
▁몬스터
마다
려고
▁언급
장이
▁이를
▁의미
▁높은
le
▁서울
▁#
▁직접
▁위치
▁뛰
▁성공
▁없이
▁면
▁17
트를
▁쓸
자를
▁그녀
도로
▁타이
▁100
▁중국
▁국가
▁이는
스로
▁괴
과는
."
▁기준
사의
시에
▁실제로
▁참고로
와의
▁엄청
스는
자의
▁문서
이드
▁과거
▁묘
▁던
▁꽤
▁감독
▁데미
▁울
▁활동
▁대표
대의
▁질
기의
▁이것
.2
▁유명
▁이동
▁다르
▁대해
▁육
▁증가
▁나온다
▁장면
도록
멤버
▁등의
치는
▁유저
▁관계
중에
리의
▁되었
▁축
정을
▁글
어로
▁아니다
없이
왔다
▁자기
▁개요
▁자신이
수를
▁니
하는데
▁논
리지
▁X
▁2016
▁스토
도를
▁받아
▁늘
▁설명
▁망
▁2014
▁홍
▁그의
▁25
▁슬
▁러
▁전체
▁~
it
▁나타
▁쪽
리어
▁이어
드의
드가
▁멤버
이기
▁법
▁쉽
ic
▁있던
▁마음
▁넣
하기도
하던
위를
▁발매
▁갖
▁출연
▁만든
이자
▁전쟁
▁티
▁혹
▁당연
▁최대
하였
로운
전을
▁퍼
있다
▁제대로
▁아버
▁그런데
▁최고
▁홈
▁선택
▁평가
▁불가
▁m
준다
치가
▁돈
▁유닛
스타
▁조금
▁알려
▁자주
▁소속
▁크게
▁무기
▁전부
▁J
와는
자는
▁198
10
만큼
.5
▁지나
로서
에서의
▁먼
대를
이어
▁방법
▁찾아
▁깨
트가
▁초반
▁해도
▁개발
▁게다가
▁이때
▁사라
▁아이템
▁있다는
▁비해
▁칼
같은
▁말을
▁이렇
국의
▁지원
나는
▁th
▁최종
▁보통
치를
화를
▁적이
▁컨
▁급
▁때문이다
▁슈퍼
▁2017
▁정말
ing
▁마찬
▁주로
▁영향
▁정보
했을
지어
▁마찬가지
히려
▁그것
이를
▁결과
▁비교
▁사람이
▁압
he
▁희
▁아예
▁있어서
▁<
▁50
▁드래
▁인터
▁의해
▁성격
▁2013
번째
습니다
▁사망
어난
인을
▁소환
년대
▁오히려
▁2018
머니
▁놀
이크
▁뉴
is
▁출신
▁이에
정이
으로는
▁그래서
▁갑
▁공식
되지
▁뜻
▁찍
▁일단
▁하지
▁노선
▁듣
▁가능하다
▁기타
▁봉
상이
▁동안
이터
▁아직
▁파괴
▁침
▁친구
▁바람
▁-2
▁배우
▁규
▁[
▁프리
▁작중
▁강력
나마
▁정신
▁향
전에
이기도
랜드
▁빼
▁하면
▁심지어
▁책
점을
▁놓
▁서로
▁역할
▁가진
▁발생
과의
▁위한
▁살아
분에
▁포함
였던
▁비슷한
▁이러
메이션
라마
▁까
어도
▁멀
▁사랑
▁운영
▁원작
om
▁어떤
전에서
▁봐
▁기존
▁빨
는지
프트
▁여성
▁사실상
▁써
보면
▁않았다
▁중요
▁학교
▁끌
▁그래도
▁알고
am
▁우승
명이
▁공격력
▁착
원이
했지만
▁성능
▁2012
나가
▁항목
es
식을
자로
▁보여주
인물
하거나
▁왜
자인
▁탑
▁노래
이도
▁앨
▁이루
▁형태
▁농
▁유일
▁이렇게
▁최초
▁학생
▁특수
하려
▁빌
▁잔
▁좋다
▁모양
명을
▁궁
▁자세
50
▁가까
스템
버스
▁후반
▁도시
▁힘들
▁협
오는
서는
화가
점이
▁애니메이션
el
dd
트로
▁되고
▁버전
▁수록
동안
▁경우도
▁s
다면
지의
▁변경
리그
▁하며
▁바뀌
지로
▁측
▁이벤
했다고
ion
일에
▁21
라의
▁본인
▁리그
▁연구
▁완전히
격을
르면
as
.3
▁여담
운드
▁없었
▁흔
▁유지
▁여자
▁국내
화에서
▁들어가
▁o
어를
사는
▁드래곤
수의
▁참조
▁독일
리카
른다
▁폐
▁전혀
대가
시켜
ac
▁어려
▁발동
▁행동
▁2019
▁때는
▁흑
▁있다고
▁프랑
▁송
군의
음을
▁굉
!!
▁에피
▁그렇게
▁24
등학교
드로
▁같다
보다는
▁부족
▁보스
▁주변
▁아래
▁일이
▁이야기
▁그나마
더라도
리오
▁강화
▁22
▁등을
▁특징
▁혹은
▁불가능
▁회복
르고
▁쓰는
▁대한민
물을
▁결정
▁명칭
▁샤
▁시스템
스와
▁한번
▁숨
▁오브
▁덕분에
간다
▁없어
▁굉장
▁t
▁모델
▁등장하는
▁활약
▁먼저
▁드러
▁,
내는
▁뽑
▁에피소
▁방식
▁자체가
니아
▁영상
▁어떻
ol
▁센
▁역사
▁2010
▁40
▁쇼
▁the
디오
▁스테
▁잃
▁얼굴
▁차량
명의
▁확률
어버
▁음악
라가
▁스트
▁좌
▁기사
▁이러한
▁사회
▁w
▁동시에
간에
▁만큼
▁얼마
▁섬
▁휴
▁사진
적이
조차
겠지만
▁움
▁위해서
스크
▁남자
▁장비
▁내려
▁어떻게
니까
▁월드
▁정확
▁힘을
▁액
▁23
임을
▁나가
▁쓴
해도
▁b
상으로
▁전에
▁문제가
▁동일
▁2011
원을
라면
▁하루
▁아마
▁특성
▁만나
▁표현
시킨
!"
▁솔
▁싸우
▁히로
이었던
했는데
한다는
▁딸
▁있기
▁드라마
▁해서
▁하는데
▁딱
▁뭐
▁없었다
대에
▁가격
ch
▁싱
▁실패
ig
▁확인
▁차지
▁빈
km
▁당연히
구를
▁담당
▁딜
▁플레이어
▁사용하는
▁우주
▁했지만
▁적용
정도
▁영웅
il
그램
▁공개
▁녹
ed
으므로
지에
▁않아
▁주장
▁풍
▁편이다
ow
▁작가
▁콘
▁가면
트의
▁자유
대한
체를
BS
▁색
제가
▁새로운
▁않다
▁없고
▁구성
▁견
▁휘
▁사람들이
▁하이
▁콜
▁빛
▁1,
▁익
▁굉장히
우스
▁기억
▁움직
▁윤
▁우리
▁등이
▁생산
▁체력
▁그리
▁자신을
▁쉬
▁스페
이라면
▁발견
▁응
▁승리
et
▁입장
▁훈
▁반응
▁마을
▁진짜
▁시점
▁넘어
▁패배
▁영어
▁대체
▁판매
했다는
르게
▁그림
움을
한테
▁긴
▁인정
▁스토리
▁f
이의
치고
▁of
▁엄청난
▁바이
▁이름을
▁가지
▁받고
▁아주
▁확실
▁이제
▁따라서
▁가능한
▁출시
장의
ht
▁단순
▁마찬가지로
스러
▁또는
▁훨
까지는
했으며
▁엑
놓고
▁영국
30
▁맥
개의
부의
▁자동
▁소개
▁계획
▁현대
▁취급
▁등장인물
▁나와
▁어렵
▁현실
려서
▁맨
▁방면
▁어디
▁무시
▁밝혀
레벨
▁컴
▁강력한
▁정치
▁기능
▁지속
▁훨씬
▁약간
레이드
▁파워
▁링
▁이번
갔다
▁앨범
상의
▁d
▁대학
▁197
▁헬
▁지구
아가
났다
▁있게
었고
▁공격을
▁맵
▁결혼
▁상위
ad
▁받은
지지
▁Y
▁챔
▁못하고
▁어린
▁겨
▁말이
▁츠
▁퇴
만한
▁어머니
▁더욱
어진
▁순간
▁마이
▁한정
군이
들에
전이
▁마스터
▁패턴
▁위험
▁나왔
▁메이
▁폴
구하고
▁다이
경기
▁초기
▁엔딩
문에
히는
▁경우는
▁여기서
▁만화
▁남아
없는
▁방영
-2
▁등장한다
▁습
▁주의
리티
▁동료
으로서
▁싫
▁가는
▁믿
나라
ER
ro
ve
▁짓
▁수비
▁속성
사로
▁똑
체가
▁분위
도의
▁읽
원의
치로
▁쉽게
▁가능성이
▁폭발
▁26
▁시간이
.4
▁따르면
▁사고
제를
▁졸
▁땅
▁흡
▁문제는
▁술
▁못한
▁쓰러
▁포켓
▁상승
▁28
▁듀
▁여전히
▁대해서
▁개인
수로
▁가족
라인
▁있었던
▁가져
▁블랙
▁사용할
▁경험
▁TV
▁크로
▁후에
▁답
수록
,000
▁중심
게임
했으나
▁수가
나게
감을
▁보는
듯이
▁조선
▁나머
되면서
▁다양
▁푸
▁알아
and
ay
▁27
▁보내
▁강한
티브
▁아르
져서
리기
으면서
▁퀘
▁웃
계를
▁이유는
▁혼자
수는
▁c
▁나이
▁잘못
▁얘
▁헌
문을
▁-1
▁대전
▁불구하고
▁옆
▁경찰
적을
ff
말로
시키는
▁건물
▁맛
부에
었던
식이
초에
▁운행
▁일으
▁조건
▁감소
▁괜
리로
▁St
▁지하
권을
id
▁뮤
▁2000
▁대한민국
▁탓
▁&
량이
▁죄
▁에피소드
▁발사
대학교
회의
키는
▁고려
부를
이란
대는
▁느낌
이면
보니
▁활용
▁주는
▁끼
▁건담
라서
▁러시아
▁이벤트
un
겠다
▁주요
▁핵
▁각각
▁번역
▁적을
▁진출
▁Z
력은
▁하자
▁꾸
▁타입
▁요구
▁묻
▁받는
제로
60
▁숙
▁전용
▁낙
▁석
▁포켓몬
▁굴
▁부산
▁다니
▁그를
▁The
▁되면
▁류
▁구조
▁벨
▁도망
난다
▁여담으로
▁제한
피언
▁상대로
▁웨
▁제국
▁소설
▁꿈
▁유니
만이
▁대미
리와
▁굳
▁짧
▁참여
▁데뷔
▁p
▁부활
▁비판
도는
선을
mm
▁절대
한다고
▁욕
장에
▁벗
으로도
▁프로그램
us
▁배경
▁과정
정한
▁들고
▁아니고
통령
▁그가
▁보이는
▁설치
▁방향
▁대회
▁아버지
로가
▁가끔
야마
▁선발
▁해결
▁즐
▁홀
▁획
해주
▁60
▁오래
▁꼬
▁타카
사와
▁이유로
▁잡아
▁이해
인트
장으로
이즈
▁구간
심을
▁퀘스트
▁스스로
▁하기
▁영향을
▁소모
▁흥
▁나왔다
▁않을
▁끊
신이
하나
▁유명한
▁세이
장에서
▁펼
▁논란
장은
기고
▁챔피언
로를
▁쳐
40
▁충분
하다는
▁자세한
▁밤
▁스피
자기
▁일행
외로
▁종족
부가
▁타고
▁정도의
▁받았
유의
레스
▁최근
▁표기
▁의견
학생
▁셈
라를
▁중앙
▁역할을
▁준비
▁미사
▁갤
▁자랑
▁계열
다니
▁삼성
▁쿨
시즌
▁난이도
지션
신을
업을
▁전작
▁미션
위가
▁2009
▁그는
▁되지
세대
▁대부분의
▁브라
같이
개를
가를
시마
▁이쪽
▁것에
▁발표
▁탐
▁기준으로
▁높다
▁특별
▁물리
▁아이돌
만에
일을
▁클리어
▁정작
시로
▁목소
겠다고
▁묘사
▁중에
▁바람에
▁덤
▁대통령
▁프랑스
마저
▁전차
▁장착
전의
▁생긴
카이
ag
▁크리스
만을
▁반면
▁29
프를
▁나름
?"
▁제목
▁야구
▁v
▁생활
▁배틀
▁피해를
.7
에게는
▁낮은
▁근접
▁라인
▁거기
카와
▁시청
▁별로
우는
▁염
▁케이
ir
됐다
12
▁틀
▁사람은
위로
▁아키
▁애초에
리면
조건
여서
크로
▁연출
ST
▁유럽
구가
지게
당한
▁현재는
타를
어들
하다가
기와
야말로
▁콤
▁나무
자와
▁이걸
일이
되며
▁획득
▁모드
▁교육
.8
▁비롯
▁오른
▁능력을
되었고
▁처리
▁검은
▁최강
▁추정
▁밖에
.6
▁비행
▁메인
▁제공
▁항공
가가
▁작은
명은
▁따로
▁뒷
▁중요한
▁버스
▁이게
이로
▁곧
▁각종
학년
15
BC
인은
▁조합
단의
려는
▁덱
▁라고
▁이루어
▁일을
▁하면서
▁밴
▁정식
▁신경
공격
이라도
▁이름이
▁빅
▁스파
시의
▁항상
▁식으로
자들이
▁나머지
시가
지기
▁분노
미가
▁80
▁시전
▁만약
함을
겼다
트는
▁전문
▁기간
▁이상의
▁칭
였고
▁벽
▁엔진
비가
랭크
ub
▁냉
▁만드는
▁좋지
▁대사
▁일본의
▁계약
▁연기
▁참가
▁에너
▁위에
▁연결
하라
▁부르
하다고
종의
▁축구
▁자연
im
▁소재
▁물건
▁무엇
ot
▁일어나
▁전설
▁아군
성은
▁기동
▁예정
력으로
▁북한
▁제외한
▁한편
리게
버린
▁이외
▁다크
▁벌어
▁더불
▁칸
▁보호
▁다르게
▁적은
▁해야
▁사례
▁2008
스럽
▁유리
들로
타로
시를
모토
▁일러
▁스테이지
▁넓
신의
▁켄
데이트
디어
▁인터뷰
▁나는
▁성장
스러운
▁혈
소를
이니
▁랜
계의
▁옵
▁직업
상에
▁것과
▁악마
▁훈련
버렸다
었다고
스케
▁l
스에
▁최소
▁번째
▁자리
▁않게
▁모습이
▁나중에
cm
지면
▁괜찮
▁경우에는
▁a
▁없을
▁제일
▁못하는
▁생존
비아
▁공중
▁속도
▁n
부터는
37
월에
▁싸움
되기
▁수상
▁일정
▁사실을
19
어야
▁종류
▁보니
▁두고
▁흐
▁깔
▁나올
▁있으니
▁삭
▁하여
▁90
▁조직
나이
▁앤
▁업데이트
프로
▁개념
▁시도
의를
음에도
▁다양한
▁더불어
▁라는
점으로
▁꺼
▁연속
▁지휘
고는
od
▁특이
▁31
관이
▁등으로
',
▁예를
▁차이가
▁불러
해진
더니
위에
▁존재한다
▁빠른
▁아카
라운드
입니다
낸다
트라
▁엘리
▁하였다
▁있다면
▁끝나
리며
합니다
▁가까운
▁이건
대학
동을
▁머리
성의
▁종료
.9
▁소녀
▁흘
▁나서
▁야마
라며
비를
▁아니면
▁기체
▁누구
▁성우는
냈다
수한
▁상황에서
▁보이
▁득
▁이탈
▁찬
주고
▁기본적으로
▁있으나
▁위의
▁일러스트
▁쌍
세를
부로
▁달려
▁70
▁반대
▁모르
선이
▁본인이
물이
▁등장한
ur
▁뭔
▁관리
▁죽은
▁조종
▁미래
페이지
▁후보
▁받았다
▁얻을
▁쌓
주를
호가
▁그야말로
스티
▁본래
▁납
▁맹
▁의외로
녀석
▁압도
지라
▁씨
ent
11
▁비밀
▁변신
▁내가
어의
▁시리즈의
▁뒤에
▁상황이
▁보유
▁봐도
▁좋아하는
▁이후로
▁징
▁지방
▁최고의
나의
▁없다는
▁왼
▁롯
▁SK
▁옛
▁달성
▁문화
사에
시켰
▁있으면
▁공연
단을
▁갑자기
▁부모
▁게임을
계가
다운
▁개그
▁짜
행을
▁자체는
▁이용해
호를
원으로
▁옷
▁멸
▁싱글
▁워낙
버린다
▁연재
시는
▁Lv
▁이름은
▁클래
▁여기에
았던
▁목표
▁경제
▁털
▁쏘
80
었는데
▁사이트
▁하늘
▁특정
▁억
▁스포
▁듯하다
비스
내고
▁싫어
▁상당한
대전
▁사용한다
▁링크
AR
▁품
ver
운데
▁날아
▁기관
율이
▁수는
▁수정
▁언제
▁2007
▁디자인
▁도움
▁중에서
▁못했다
▁포지션
▁무슨
▁쓰고
▁아들
▁겪
▁파이
크래
ak
로의
▁완전
▁무장
▁말한다
....
▁나라
▁외국
▁하게
고를
즈의
▁닥
▁대상
▁보기
▁린
▁사냥
▁각성
▁달라
▁소련
ec
▁효과를
▁h
▁탈출
▁.
장판
▁역대
▁롤
ut
단이
우가
▁y
▁저지
▁독립
▁전국
▁제품
▁안에
무라
▁HP
▁빠져
보는
▁띄
▁옥
▁갖고
▁없어서
▁충격
▁없다고
인으로
▁나타나
▁무려
▁명령
방송
▁없지만
▁뜨
키가
▁깊
▁분류
▁이끌
▁칠
냐고
▁새로
AN
지와
▁상관
드시
▁상태에서
무를
▁돼
감이
▁해외
미를
▁타격
▁밑
▁유일하게
▁떡
스테
호선
▁포기
세가
▁생각해
▁지켜
년부터
역을
마가
▁어둠
세기
▁했으나
▁파티
▁196
▁반대로
치기
소가
마자
▁사람을
▁작곡
▁탱
▁전반
▁비중
터를
▁32
▁국민
▁도입
▁히어로
▁k
프가
용으로
,#
었지만
회를
▁근처
▁말에
-0
▁최후
키의
▁바꾸
▁국제
▁했던
em
▁과학
▁잠시
서를
치의
화의
▁남성
▁이야기를
▁EX
▁살해
▁듣고
심이
▁g
▁도쿄
▁중간
▁제외하면
▁고양
▁보여준다
▁인천
▁35
▁유일한
▁록
군은
▁카이
부는
▁오리지
▁기대
▁일어
▁했는데
▁생각하면
▁돌아가
였으나
▁아무리
▁소리
▁킹
▁꼭
▁평균
▁요시
▁옮
▁롯데
▁평범
▁2006
-3
▁필요한
라이더
▁마사
년에는
▁보아
▁준다
촬영
원은
▁굳이
▁종종
로그
들어
▁있었고
혔다
▁인터넷
▁부정
가의
▁녀석
▁느끼
▁쫓
▁몇몇
▁안정
▁트리
▁집중
▁동생
▁있었는데
▁교체
▁오프
타가
스토
▁예상
▁부하
▁분명
▁한글
▁많아
언을
에만
▁무한
▁삭제
▁죠
▁근데
▁기다
많은
▁졸업
.#
로우
▁고정
▁운동
▁가문
▁오오
냐는
▁알게
▁선거
▁시험
▁점을
▁확정
▁패러
차가
▁회사
▁블루
▁심각
▁그녀의
▁출전
▁마나
군을
▁경쟁
만의
▁가르
마의
▁완벽
▁반드시
으로써
레인
▁무조건
▁결승
▁뇌
제의
세이
크를
▁되는데
터가
▁정상
▁다루
래도
▁꽃
▁남은
▁발전
ON
▁힐
▁탓에
술을
▁그걸
▁점점
▁완성
▁대기
▁유사
▁붉
▁튀
임이
▁뛰어난
▁때마다
▁?
량을
▁그룹
▁효과가
지면서
▁죽음
모가
▁직후
▁건설
▁웹
선의
라스
▁한다는
하자면
▁제거
받은
것도
▁십
▁로봇
▁것이라고
▁겸
세계
▁전사
▁데미지
um
▁다소
▁암살
▁곤
▁가깝
기사
탄을
nd
되면
▁파일
속도
보다도
적으로는
▁본격
수도
▁연합
▁지도
점은
▁장면이
▁에이
레이션
▁않으면
▁받을
▁과정에서
받는
▁능
▁란
▁다행
▁접근
▁업그
일러
믹스
▁특유의
14
였지만
드와
▁턴
▁군사
위는
16
▁추측
온다
▁이하
ight
▁외에도
▁지상
▁사기
▁뿌
▁장갑
▁없음
이므로
버리는
▁거기에
▁왔
▁수많은
▁플래
▁벤
▁다르다
▁프레
▁기반
진이
르크
하였고
▁500
든지
했기
한다면
▁늦
▁FC
▁종교
▁홈페이지
▁나이트
▁상태로
리온
▁큐
▁높아
▁카운
▁밸
롭게
ri
▁짐
었을
▁촬영
▁민주
▁공포
러스
▁놈
▁밖
▁사람들은
▁척
니티
▁닌
적이다
▁맞추
▁필살
▁목록
▁부탁
▁운용
▁있었지만
▁전개
▁LG
48
▁생명
▁데미지를
▁도중
▁시작했다
▁멘
▁기계
파트
▁캠
려면
▁미니
▁앞에
▁오리지널
원에
▁지배
학과
주로
▁아내
▁타이틀
향이
▁치명
ra
▁것처럼
▁대중
▁중반
25
카가
보를
▁레드
▁후속
단한
▁올려
분이
▁동물
▁카드를
▁빠르게
ation
력과
▁때도
▁듯한
간의
주가
식으로
▁이름으로
▁상징
시킬
▁돈을
▁젊
동생
▁시나
인가
▁월드컵
▁인기
▁대구
스코
▁라이브
▁않지만
고등학교
상은
▁평소
▁멋
▁발음
▁복귀
13
▁자리를
▁2005
▁되었고
▁그린
▁삼국
역으로
▁사이에
▁사쿠
IC
▁수행
▁끝에
▁꽤나
▁화면
▁입고
os
▁어려운
미의
IN
ce
▁아니지만
▁가서
화된
▁베이
지에서
▁처음으로
▁안습
▁전략
▁옵션
▁우선
▁몽
▁말하는
▁충분히
크래프트
▁아스
모로
▁나오지
▁이곳
질을
▁디지
겠다는
▁주민
너스
되었으며
▁지금은
보고
▁투입
▁대결
부에서
▁버그
▁대표적인
▁다운
▁투수
▁힘든
▁잉
▁실험
▁구매
▁가수
▁배치
▁사격
▁전기
문이
▁능력이
▁영혼
때문에
▁얼마나
▁추천
▁도와
전쟁
시티
▁인한
▁to
▁보다
▁빙
▁불리
▁마무
▁점이
▁Q
▁개조
로도
▁텐
드에
▁걱
▁조작
▁희생
▁치료
고속
▁등급
▁의하면
판을
이라서
▁빨리
▁지키
형을
▁낫
▁시간을
▁2004
▁MA
▁부여
▁아프
위원
▁유우
▁적의
차를
▁환경
▁km
▁오늘
▁신체
▁이탈리아
모를
▁시기
▁도착
▁맞춰
▁내용은
▁이로
▁패치
▁모르는
▁뻔
▁스타일
두고
▁하드
▁점프
▁45
▁바다
▁대형
▁소유
▁네이
▁숫
▁2,
▁던전
▁웬
도에
금을
왕의
진을
▁찌
▁탈락
▁팩
▁e
이와
▁특성상
▁주고
▁셀
▁in
▁그저
역시
18
트리
▁레어
▁KBS
치게
▁맞는
하려고
▁소년
▁통합
▁갔
▁컴퓨
▁단순히
▁범죄
▁빼앗
에게서
▁아는
▁살아남
▁잊
▁떠나
▁붙어
▁흉
시대
▁극장판
▁비롯한
단계
아버
▁카오
카드
▁변화
개로
다른
▁끌어
▁무리
▁캡
▁부르는
▁난이
17
▁you
▁사는
▁쿄
90
미널
▁붕
▁코스
▁섞
▁마리
로드
▁붉은
크가
▁목숨
▁킬
▁회피
ul
▁전통
▁잭
전사
▁카즈
▁손을
▁기존의
▁뚫
▁윈
답게
▁뛰어
▁저항
바람
▁불과
▁하나로
력의
▁본인의
▁사정
▁더블
▁해석
▁있었으나
인과
▁캐릭터가
이었고
▁썼
▁부대
▁닮
▁합류
▁받는다
▁본편
만으로
kg
▁행정
▁2002
▁딱히
▁서술
▁오버
▁스코
▁인기가
▁인식
▁PC
▁공략
사카
▁지난
인들이
▁먹고
▁부분이
▁한국의
▁194
▁브레이
▁했고
▁미국의
▁장난
▁Ch
▁리더
하니
▁런
▁되면서
기관
▁몸을
▁날려
▁시대
방을
보자
▁거부
워서
나와
▁펜
▁화염
플레이
▁가운데
▁맺
▁내에서
▁인구
▁엄청나게
▁판단
▁vs
▁프로젝
▁해군
해진다
▁300
▁적절
▁장르
AL
▁위협
▁감안
▁얻어
▁컨셉
▁인도
▁장소
트와
▁MBC
▁멜
▁범위
▁차이
▁도전
▁컬
쪽으로
▁정체
▁이적
까지도
▁모티브
코의
▁택
▁스크
시키고
▁철도
▁카메
▁쥬
쳤다
아이
▁죽을
▁꾸준
역이
▁어찌
▁대응
놓은
▁앞에서
지자
세요
▁사람의
▁살인
한데
법을
ter
▁정규
▁점은
▁대놓고
▁잇
▁있지
트에
▁이와
▁보병
라우
▁관련된
▁둔
▁일반적인
시킨다
▁든
었다는
▁최초로
RA
시브
▁올라가
▁그려
지며
림픽
▁안전
소녀
연히
▁함정
▁윌
▁듀얼
▁33
▁상대가
▁오토
▁선생
▁모습으로
▁사태
리자
러가
▁지닌
▁트위
▁보조
▁상세
ia
▁구분
▁요리
▁정리
PC
코가
▁확실히
▁인류
▁맞아
EN
어는
▁오랜
70
이었으나
마를
▁겹
도시
▁*
▁진화
▁반복
이치
all
▁공간
▁기념
▁유키
ap
▁라이트
에게도
▁확장
요일
크의
아의
경을
▁마치
원에서
▁교통
▁봉인
▁그럼
관을
▁이유가
▁명중
▁시설
▁기업
해졌다
▁어느정도
AT
▁셋
▁나쁘
였는데
스럽게
▁오르
▁뜬
1,
▁데이터
▁일은
▁은퇴
▁앙
미야
▁좀비
▁널
하므로
▁주문
▁착용
▁꼽
▁덜
▁데려
uby
▁패러디
도우
▁연습
▁때의
티어
▁표시
▁BG
▁원래는
성에
▁1000
▁수밖에
시피
~2
카의
적은
방에
우고
즈가
▁손에
하도록
바이
▁등에
▁무사
▁훌
▁고속
▁이후에
▁앉
쳐서
▁거대한
단히
졌고
▁메가
▁비교적
▁예전
▁100%
▁위치한
을때
▁서브
▁2003
ack
▁기술을
▁이야기가
▁말았다
▁평범한
▁사무
▁먹는
▁본인은
▁재미
▁체력이
▁바닥
▁렌
시오
니스
형이
그룹
▁엠
복을
▁부른다
▁밥
▁스카
ruby
제에
▁포인트
사이
▁없기
리안
란드
힌다
▁원거리
에서만
▁불명
개월
▁사업
▁앞서
자들은
년이
마트
토가
▁때까지
▁알려져
루가
▁봤
▁팀의
모리
▁밸런
회가
자에
악의
▁나오고
▁저격
이닝
▁스탠
▁적극
▁그레이
성도
▁II
▁병사
▁아무래도
률이
▁마음을
▁이용한
화에
고가
▁그때
op
oc
▁상처
▁홈런
▁흔히
▁관한
▁점에서
키를
▁36
▁경기를
▁공동
▁상황을
명으로
▁돌려
▁걸로
터의
정의
로부터
▁요청
▁요소
TV
▁대해서는
▁뭔가
▁최초의
▁게임의
▁만한
▁조사
▁-3
▁받지
약을
▁댄
▁콤보
▁확률로
▁만다
▁힘들다
하려는
▁195
▁크다
았고
▁고대
방의
▁지지
▁이기
▁시나리오
▁마침
▁히트
▁데스
타임
가와
▁막아
하게도
▁단계
선수
리트
성과
▁갤러
▁작업
실을
토리
인지라
▁못한다
▁어렵다
▁능력치
▁잠깐
▁픽
구의
▁로마
프레
▁미리
자들의
▁눈에
▁관통
임에도
▁그에
2,
▁무게
쪽에
르기
정은
.'
▁유래
▁금지
▁바라
▁재료
르트
이야
▁승강
▁라디오
▁겨우
▁PS
▁료
나를
트롤
▁진입
▁다름
▁바뀌었다
▁통과
▁등등
▁VS
질이
ie
▁정부
▁묶
스에서
▁대화
▁만들어진
▁꼴
▁뿐이다
전으로
▁오프닝
▁가면라이더
▁맞고
▁되기
이상
▁넥
승을
▁이들은
▁가슴
▁일본어
판에서는
상태
▁and
▁몰아
▁미친
▁정의
:00
▁엉
▁멸망
▁지니
▁사실은
▁서버
▁분리
▁무너
▁바꿔
개가
▁판타
▁지옥
▁No
▁스포츠
교육
▁대비
▁누군
▁인기를
▁방해
35
▁중에서도
▁수준의
▁노력
체의
PS
▁드라이
권에서
▁모험
▁탑재
판이
//
▁수호
▁액션
▁그만
지역
▁언론
▁데이
▁자신은
▁거짓
▁타임
던가
분을
공을
▁느껴
▁말고
시한
▁1:
▁젊은
OR
▁보급
▁은근
▁거리
▁초반에
▁육군
▁보였다
대표
▁가게
용이
▁고통
▁바뀐
▁영입
▁사용한
▁선보
기인
▁필요가
▁덩
▁아쉬
▁생기
ate
타는
▁개봉
▁필수
라와
▁제압
조의
▁보컬
▁전환
▁지정
루스
▁가정
IA
▁적에게
▁스위
▁흡수
사키
이었지만
OS
미는
▁미사일
▁어울
▁비난
▁쥐
▁당장
▁아름
▁모른다
▁대답
르의
▁설립
▁끝까지
▁촉
▁메탈
구나
▁상대를
▁초대
▁남편
▁도움을
▁34
▁위에서
▁불안
▁이미지
▁디자
철도
▁애매
▁숲
▁+1
라리
373
▁넘어가
차로
나다
권이
▁SP
▁격투
▁용병
▁좁
▁온갖
▁사람도
art
▁파트
아웃
게도
이에
▁뱀
▁유튜
▁생겨
▁상대적으로
▁성향
▁실력
▁레이저
구에
ill
▁소울
▁죽이
▁그렇다고
로스
프의
화에서는
▁MP
먹는
▁이것이
▁울트라
▁걱정
▁탑승
▁중심으로
세의
자리
▁형태로
▁됐
▁연장
▁멈
▁자기가
▁문제로
호의
생활
▁챙
dddd
dddddd
센터
▁하나의
▁모자
함이
▁일종의
토의
ik
▁구입
단에
줬다
▁삽
즈를
▁마무리
/2
▁방패
▁빔
제는
▁유용
▁위키
어요
친다
▁시민
▁테마
▁상대의
교통
가로
▁그다
▁이후에는
▁구축
론을
▁다음과
▁앞으로
▁아오
▁무기를
▁자료
▁멀티
광역시
사항
▁아야
▁라이벌
▁아나
▁생성
▁38
▁공화
▁커뮤
리면서
▁주연
받고
신은
▁In
▁소리를
▁온라인
▁경기에서
▁뿐만
▁힘이
와서
▁보여주는
▁코너
차피
동이
▁얘기
▁직전
▁이전에
일부터
▁도로
년도
장과
▁대공
ED
▁여름
안을
-4
▁당시에는
▁태양
▁에어
▁페르
▁쓴다
기술
▁궁극
▁되며
진의
▁걸어
▁황금
▁잡고
▁처음부터
물로
발을
▁게시
▁전술
▁시내
지마
▁2001
▁희망
▁깎
▁배신
▁보이지
락을
히고
▁궤
▁제외하고
▁짧은
▁에이스
▁발휘
▁발언
▁안타
▁떨어지는
▁공통
AS
디아
▁를
끼리
상에서
규모
▁서비스
▁광고
▁때부터
▁대다
▁연주
▁]
▁광주
하긴
▁파이터
tp
▁점령
▁어째
격이
▁불리는
▁클럽
▁아사
▁최대한
▁미나
▁방어력
▁늘어나
르가
포를
▁1990
▁스펙
%,
리스트
▁소비
사에서
가능
▁스킬을
▁그리스
하의
▁거대
▁유도
특별
▁박살
▁필드
▁줄어들
해를
▁나카
ast
▁정보를
▁밀어
▁시작한다
▁한다고
자들
이던
▁끝난
▁떨어져
▁150
▁스케
▁그럴
조가
▁처음에는
▁제로
▁자살
▁속도가
▁추가로
▁하기도
▁문제를
▁장기
▁비고
음이
전은
▁실질
목을
▁덴
즈키
되기도
정으로
것이
http
▁떨어진
▁쉬운
▁그녀를
▁컨트롤
▁모아
▁설계
▁외모
▁그다지
▁을
▁로드
할때
오의
://
서가
▁사이에서
▁일어난
▁음식
▁뒤로
▁테러
▁마츠
▁x
까지의
▁논란이
▁때문인지
▁업그레이드
▁한국어
▁멀리
품을
권의
▁랭크
바로
▁조준
▁포함한
▁적도
느냐
산을
소년
▁아시아
▁말도
▁게임이
▁평가를
▁꾸준히
었으나
▁선언
▁케이스
파이어
론이
▁떡밥
▁없게
사건
▁하나가
▁중이다
▁곳에
다이
▁이쪽은
위의
▁개최
▁눈을
▁캔
▁무서
▁그것도
▁물어
▁부담
▁살짝
호는
적이고
▁고등학교
▁존재하는
▁어쩔
▁추가된
▁세계관
▁혁
▁게이
▁그게
▁어차피
▁혐
족의
▁임무
▁사람들
▁37
▁방문
▁측면
였다고
▁바탕
▁나오는데
▁나누
▁Re
자키
▁있긴
스킬
▁습격
▁머리를
회에서
▁크리
▁골드
▁마르
▁재생
석이
▁핸
▁주력
▁사과
▁플라
잖아
▁경유
▁폭탄
▁로켓
▁비하면
있던
기만
▁솔로
▁확보
▁끝내
▁이것은
▁에너지
대에서
▁집에
LC
▁없으며
시리즈
▁둘이
▁개편
먼트
▁상황에
▁75
▁여러가지
유키
▁강제
세트
석을
▁낳
▁이상한
마을
악한
/0
▁훌륭
▁i
▁진영
▁못해
ab
어져
▁않기
▁틈
량의
▁마법사
하러
▁내부
▁중간에
▁납치
▁모션
▁숨겨
마법
▁내용이
▁들어가는
▁정말로
▁레전
토를
▁받아들
▁사건이
▁않아서
▁도움이
▁컴퓨터
▁세트
▁누가
렸고
구는
▁여행
▁약한
▁시점에서
심히
▁투표
렀다
달라고
▁효율
▁일부러
드라
▁타이밍
▁팀이
▁자신에게
타의
▁반영
판의
▁인생
▁삶
▁지적
ue
▁=
▁데미지가
운동
▁트레이
으로부터
시스
▁했다고
▁때려
▁나쁜
▁등록
▁아라
▁갓
▁채널
▁프로듀
▁이름의
정에
▁명의
▁트랙
오가
판은
이긴
▁습득
▁어쨌
▁정도는
▁폰
▁따른
▁있으므로
▁안되는
년간
▁퓨
각을
▁탄생
▁않으며
▁스트라이
▁편집
주면
피아
AM
구로
▁왕국
▁유희
▁2020
▁길을
▁SBS
▁아케
체로
▁많았다
▁쓰지
▁이스
▁공격력이
되었는데
▁상태가
년의
일의
▁오는
▁만들었다
은행
▁밝혔다
EC
급의
계에
도와
되는데
▁한때
거리가
회에
▁선정
▁의한
▁Sh
▁생물
▁쏟
스트로
▁분야
리나
▁약속
▁실제로는
우의
▁거두
▁99
▁ST
▁단점
든가
▁외에
▁레인
▁닥터
▁덕에
▁관광
▁알렉
▁시작한
▁창작
▁설득
화로
▁거절
비의
웠다
▁55
▁나루
▁프로토
만은
로서의
▁연예
식의
▁비록
▁허용
시와
▁본선
었으며
▁간다
▁광역
면서도
마스
▁원하는
▁내용을
▁알려진
▁그것을
▁지하철
성으로
▁아웃
텐츠
▁2:
▁노멀
ard
▁올림픽
긴다
▁단독
▁그만큼
▁뒤집
▁정책
▁콩
▁떼
▁그런지
▁중단
▁놓고
▁늘어
▁원정
▁동맹
루의
▁개선
보스
▁들어서
하기에
▁유튜브
드리
았지만
up
~3
▁생각하는
▁부상
▁초월
▁자이
▁열린
기에는
▁대한민국의
자에게
▁완료
랐다
오카
▁베이스
▁보자
▁카페
▁파일럿
▁커버
판에
▁룰
▁후쿠
▁하나를
시켰다
▁입은
▁셰
스팅
▁북미
▁거주
▁계산
▁48
ea
▁연계
▁활동을
▁황제
▁맡은
▁미드
보단
방이
▁내구
▁낚
았는데
였으며
년까지
▁작성
▁사람들을
았다고
AC
▁카드가
▁들어간
▁인간의
▁대장
▁선배
스포
수와
▁수리
▁세력
▁미야
▁말해
▁싸우는
치지
▁CD
▁들어오
▁스페인
▁의미가
▁#373
▁왼쪽
▁갱
▁테크
▁차례
만원
▁포르
▁버튼
▁의심
▁스탯
▁경기도
▁융
24
수에
▁메이저
▁3,
▁당시의
들이다
▁집안
▁많고
▁쓰러뜨
-5
라기
ine
▁계급
▁하다가
▁암흑
군에
▁수요
▁쓰이는
▁디스
▁샌
디션
▁방식으로
▁가이
▁우려
▁제조
▁눈치
▁확률이
▁주인공이
▁보상
▁부분은
▁사령
▁와중에
▁막장
▁혼란
▁마지막으로
▁2.
▁더빙
ind
▁종합
무기
등장
▁거쳐
▁속에서
했다가
▁Sp
▁여동생
OL
ant
마리
시장
▁히로인
았을
받아
니가
▁사상
▁이사
▁이후로는
▁있습니다
▁토모
▁쓰면
▁타케
▁인사
▁없었던
PG
▁구단
▁싶은
▁붕괴
▁무력
▁건너
▁붙잡
▁열심히
효과
▁괴물
타입
▁루트
▁You
▁혜
부대
▁동방
ers
▁드립
▁수준으로
▁커뮤니티
▁or
▁NPC
▁캐릭터의
▁다니는
▁겁
님이
▁만들고
▁기획
▁핑
이었는데
▁찰
량은
▁않았고
스카
▁화살
ct
▁거기다
▁커맨
▁패시브
▁둘러
로봇
▁뛰어나
▁공주
▁사항
▁득점
▁해적
▁여러모로
▁클로
▁기절
▁장점
전에서는
▁Bl
▁전자
말을
▁돌격
▁반란
자들을
▁충돌
▁서포
▁대륙
▁스페셜
▁랜덤
▁강조
▁BGM
▁동일한
▁책임
색이
▁해설
▁버프
▁파이어
▁래
▁그렇지
▁고민
▁1999
▁다행히
▁1.
▁제법
▁것이라
▁아이템을
▁출발
일은
▁수원
▁마녀
▁신뢰
하지는
▁팀을
▁갑옷
▁핀
▁와서
▁역으로
▁42
▁이들이
▁밟
▁작전
▁뮤직
▁오리
▁재능
▁어디까지
▁쪽이
▁유명하다
▁끔
▁MS
▁뽑아
one
▁후지
▁고급
▁여겨
들에게는
▁아닐
▁격파
▁겨울
전대
▁춤
▁달러
해주는
▁정령
버리고
리다
ip
▁성적
▁얻은
▁하던
해져
IT
해지는
기에서
▁CP
▁실행
▁카나
▁플레이어가
우를
▁39
▁증거
조를
히로
▁가드
▁절반
▁아머
▁하위
▁행복
▁두번째
▁버티
▁이슬
왕이
사인
과학
리언
루를
선으로
▁지명
▁귀족
▁의도
▁짤
없다
▁말한
▁부터
▁그래픽
▁후속작
▁릴
▁흰
나무
▁러브
▁붙여
▁형제
▁사실이
▁코스트
▁활약을
▁내내
▁당황
▁옛날
▁해주
▁옆에
▁정확히
▁걸려
▁그녀가
▁미츠
▁고생
ang
HE
체는
▁밀려
속성
▁되자
▁쿠로
▁얼굴을
등을
▁한계
▁개통
주년
▁퀄
증을
▁사용하면
▁필요하다
▁쓰레
▁마도
▁싶어
▁근거
▁돌파
▁비용
▁http
▁행동을
▁이래
▁연애
▁죽는
역에서
▁승리를
웨이
▁바르
치에
▁순식
▁대미지
국이
▁맡았다
▁하나인
스에게
▁마지막에
▁위로
▁오로
▁1998
운다
▁응원
▁안드로
▁아무도
까지만
▁만난
▁네이버
▁아침
리티컬
▁얼음
점에서
▁공격이
▁추정된다
▁캐릭터를
▁폭풍
▁자체를
▁했을
화는
텔레
▁두산
▁못할
▁핵심
▁것이라는
▁전체적으로
▁생겼다
▁난이도가
▁역전
일로
▁아메
▁갖추
류가
렸을
▁드물
FA
형의
▁판타지
▁사이가
▁벗어나
▁출처
사람
패를
▁살고
카를
주인
ell
▁크로스
▁카운터
▁비슷하게
▁50%
▁치고
▁아무런
▁데리고
▁받게
▁동네
▁고유
▁목숨을
▁성능이
보기
▁겐
▁신의
▁한데
▁파악
▁언어
▁가로
▁페이
▁동영
▁있도록
ist
▁화려
▁선호
▁해금
▁일반적으로
▁순식간에
▁추가되었다
▁비중이
관계
비는
▁아프리카
▁파이널
가락
▁코드
거리는
▁만족
▁템
▁몹
동차
▁AT
정보
하기로
▁120
▁가입
▁가깝다
▁모습은
전투
▁민간
▁정당
'.
▁해제
▁후에는
▁순위
▁묵
시고
되자
버리
▁게이지
▁요즘
대와
▁이후의
▁추락
▁채용
▁밴드
▁덧
▁지급
▁들이
if
▁집단
원들이
▁명예
▁동아
▁단어
▁짝
▁최악의
▁불꽃
▁댓
▁수입
가에
▁아직도
▁오른쪽
▁정류
▁채로
▁불편
▁학원
▁혼자서
100
3,
▁등장했다
시간이
▁괜찮은
▁형성
▁크리티컬
▁속에
스트라
▁보여준
▁본격적으로
▁늑
▁엑스
MA
▁향해
더라
권에
▁홍보
되었던
▁견제
▁쏟아
▁소멸
45
▁넣어
▁쓰인다
▁회전
별로
디로
▁되돌
▁죽여
ort
▁드디어
▁마이크
병을
것을
지컬
▁상향
▁대체로
▁의식
▁몰래
▁작중에서
oo
력에
저히
▁말이다
전차
▁마련
▁가까이
▁주먹
99
▁노동
▁양산
▁덮
▁복잡
면을
▁바탕으로
▁패치로
ive
▁저그
▁왠
▁심각한
▁시티
메이크
▁봄
▁떠올
▁김성
▁말할
▁노출
ld
▁st
▁크레
▁한마
민주
▁당한
▁AP
▁코믹스
▁에스
▁내에
▁노트
▁이들
▁어지
터리
ee
▁년
▁클리
▁이승
▁국회의
오프
▁연사
▁하야
▁대로
▁아티
VE
▁르
▁설정이
▁최후의
▁화이트
▁방법이
공항
▁시야
▁겉
▁초창
▁즉시
▁공을
▁그들의
▁10%
술사
▁구현
▁캐릭터로
▁걷
편에서
▁규모
▁눈이
▁수치
▁돌아오
.10
▁1997
▁스파이
력도
▁현재의
▁롱
머리
▁사토
마저도
▁곳에서
▁본인도
▁공항
문의
▁진정한
▁먹을
▁제시
▁표준
▁단지
서의
▁전직
▁노래를
21
▁계승
▁그동안
ss
짜리
구역
▁Al
▁동원
▁Th
선에
▁어드
▁출현
군과
▁못하게
▁똑같은
당하고
▁최강의
▁검색
▁출생
▁44
ove
▁부족한
▁사거리
▁쪽으로
▁커플
▁성인
문화
▁예외
▁위해서는
▁목적
▁나름대로
▁복수
형으로
▁정도가
점에
시절
▁트위터
▁최상
▁입장에서는
▁몸에
▁말했다
인간
▁생겼
▁하니
▁리메이크
▁편이
즈는
▁됐다
▁붙은
▁등에서
으려
▁가득
드립
▁어디까지나
▁건강
▁영원
▁자리에
항공
▁참전
▁오해
▁학살
데미
RE
est
▁스프
기간
야구
▁소닉
▁드랍
코는
▁말은
▁똑같이
디언
▁에서
▁한자
아파트
▁랭
▁엮
▁팬들은
오를
▁조용
▁주어
▁서울특별
▁닿
▁이거
당하는
com
워드
▁몸이
▁어쩌
eat
▁베르
▁부분을
▁익숙
▁지금까지
▁근육
▁프로젝트
차전
▁없애
▁언제나
▁경계
▁횟
▁이것을
하시
▁은근히
▁집어
▁대폭
크는
▁1980
▁블러
▁고전
▁곳이
▁적어도
사관
▁기어
▁뉴욕
.11
▁국가대표
▁만든다
▁간혹
▁공유
골을
츠키
▁폭주
▁되찾
물의
기지
▁유저들이
▁센터
▁통일
▁안된다
하였으며
▁불가능하다
번호
▁된다는
▁한화
로로
▁작품의
줘야
▁성격이
▁것이었다
▁비슷하다
▁통해서
▁해병
▁갤럭
▁샘
▁권총
▁별명
우리
▁두려
▁마주
방어
라이언
▁삼국지
할수
▁정글
브를
피스
장인
▁400
ong
▁무적
▁있었다고
▁열차
▁프리큐
▁계속해서
▁팝
▁무난
▁스마트
▁사건을
▁외계
▁크루
▁조금씩
▁돌진
▁트레
▁구출
▁어쨌든
▁다수
▁절망
▁올리
▁보이고
▁브랜드
▁맞다
▁압박
▁랩
▁쇠
▁때가
ith
▁의견이
▁셔
▁정확히는
▁위기에
▁첫번째
▁해체
ne
▁KO
23
▁시키
▁43
▁이후에도
▁변형
500
▁놀라
▁마음에
▁생각을
▁넘는
▁모리
▁무엇보다
▁제안
▁취소
▁어둠의
▁47
▁알파
▁오빠
▁일도
조리
▁팬들이
당이
▁요괴
▁가리
▁훔
▁진지
▁NC
라이트
치와
▁하더라도
▁근무
▁DLC
편의
▁보너스
▁효과는
▁SS
▁갈아
류를
사랑
▁있어야
▁방향으로
▁심한
ain
야의
PM
▁자원
무원
▁조각
▁자동차
/3
니어
▁프린
▁감독이
▁운전
▁빨간
으론
다니는
다보니
▁히데
▁전함
▁처치
▁실시
▁값
니의
▁깃
▁말하면
▁많아서
▁해당하는
▁나나
▁푸른
마루
▁되지만
▁조정
▁00
거운
▁전투에서
▁레오
▁연상
end
▁아무것도
안타
▁관계가
▁메카
스트를
▁프리미
▁선수가
▁샷
▁시행
▁극단
▁텍
미와
▁때에는
▁전투를
▁하거나
▁살려
▁1996
▁기술이
번에
▁인지
▁어깨
▁자이언
▁락
에다
▁얻는
이라며
▁3.
되었으나
▁피아
▁키리
학을
▁64
▁나와서
▁대략
▁크고
▁카르
해졌
톨릭
▁거래
▁이시
보가
지원
▁신인
▁지나치게
▁3:
했었다
▁오픈
▁의사
러운
▁하필
▁거리가
리아의
▁정도다
▁DJ
▁요새
▁달아
▁브라질
▁전형
▁내는
중한
▁성능을
▁인상
작을
▁사람들의
▁통신
▁보여주었다
▁유령
▁환승
▁그것이
▁능력은
▁많은데
▁이들의
▁스타크래프트
▁맞이
▁테이
▁이르
진은
▁기습
▁대립
업이
22
부와
FC
비트
▁귀여
지는데
▁대학교
▁해방
▁공산
▁46
BO
연합
▁통한
▁관심을
▁대부분이
▁빠진
선은
▁1.5
장한
▁착각
▁라이더
당히
▁맡고
▁중에서는
▁독자
▁족
se
▁관계로
▁멀쩡
▁다리
▁댓글
▁지금도
독교
▁리버
구치
쟁이
▁추적
병이
▁넓은
▁투자
▁풀어
▁장교
▁주도
▁플레
▁점수
▁자신과
▁막기
▁빵
서관
▁장애
▁단순한
▁체육
▁아니었다
사용
▁감염
▁그에게
선에서
▁느낌이
▁차라리
▁테란
실에
▁지니고
▁작동
▁군단
메이
▁MAX
▁죄다
▁방법을
▁없으니
▁An
대장
▁무료
▁아버지가
▁프라
▁KT
▁보이며
▁주목
▁도중에
▁대사를
▁낭
▁흘러
▁증명
▁왔다
▁헤어
트남
널티
지않
▁강철
▁같지만
▁제국의
화되어
▁그럼에도
▁변경되었다
공의
경이
▁구해
하기는
▁잠수
시설
.12
▁달린
▁그랬
▁쾌
브리
▁델
였다는
▁호평
▁던져
IS
▁문을
▁괴롭
카는
링을
내기
▁곡을
▁튜
▁너무나
▁세계의
▁아바
판에서
▁알겠지만
스턴
마는
▁1995
▁꺾
▁나의
▁그곳
▁서양
중인
프는
▁모바
▁되어서
라에
슬러
▁마법을
제한
시안
▁사진을
▁단체
▁헤드
ly
▁마구
었기
해보
▁전원
▁마인
▁개의
▁공군
▁추가바람
▁소리가
▁반응을
연이
타이
▁고양이
▁싸울
▁아우
▁걸린
▁한동안
▁줄어
작의
▁눌
▁뒤를
시코
▁폼
▁없는데
▁관계를
실이
▁고향
▁제이
▁공부
▁행적
▁고백
▁중화
▁이슬람
묘한
▁대충
▁그녀는
▁없으면
▁비해서
면에
등급
▁65
▁거야
환이
▁옮겨
▁않았지만
▁우승을
고의
▁스킬이
▁긍
▁낮아
▁퀸
▁곰
▁기억을
단으로
형은
▁노예
▁그와
▁행사
▁빡
▁차별
▁당선
▁AK
격으로
▁유행
▁헌터
▁이식
▁폐지
▁만에
▁포인
▁똑같
▁카미
▁어떻게든
▁않아도
▁쉽다
▁소프트
주시
▁예능
▁교수
▁JR
▁상품
▁글로
▁아리
▁AC
▁편의
들과는
▁중인
았으나
▁튀어나
▁단일
▁쓰기
▁물러
▁번호
▁않았던
과도
▁보이지만
▁섹
당의
▁특이한
인들은
▁하나는
▁펀
▁수송
.25
▁주지
▁화장
▁06
▁스튜
▁신규
하면서도
▁모으
이게
▁깊은
▁몰려
▁흠
ore
▁스카이
▁중에는
전자
▁써서
▁보수
▁07
▁흔들
조차도
▁마크
▁강하다
법이
▁US
▁니시
▁우리가
▁블로그
유가
▁전철
당한다
▁사람들도
주지
▁사운드
▁글을
▁05
▁충전
▁빠르
인에게
▁잡는
▁안에서
▁목적으로
▁이뤄
▁193
▁입학
▁레전드
▁여왕
▁옹
▁매직
스키
▁세월
▁버리고
▁조심
라노
▁썩
▁자랑한다
베르
▁생각하고
▁산업
▁없었고
레이터
▁들은
▁흥행
▁경향이
▁이용하여
▁서울특별시
ry
▁판정
▁몬스터를
▁이성
▁합체
▁타이거
▁추진
▁섭
▁디지몬
▁분위기
아를
인지는
▁위험한
▁영문
▁01
▁작가가
▁외에는
트맨
▁꺼내
▁넘겨
▁써먹
▁비싸
▁전달
▁협력
og
▁달고
파를
▁모양이다
미네
▁경영
어리
▁행성
종이
의가
VP
▁관객
26
▁최소한
메달
만큼은
▁THE
▁거라고
당해
▁다룬
▁음반
했는지
▁언니
▁홍콩
▁필살기
▁분석
되었지만
▁명이
▁수련
남도
▁나뉘
▁닉
▁대표적으로
▁더더
색으로
고로
▁파란
▁위치를
이었다고
▁생일
그래
▁가볍
28
▁네오
▁20%
▁편성
실한
▁는
론의
▁인근
선거
였기
▁저주
츠의
친구
역의
▁다가
▁인간이
▁입력
인인
▁오랫
▁돌아온
▁낸
▁현지
식은
▁부진
▁있기에
▁1994
▁대개
▁베어
▁가톨릭
▁어지간
▁훗
소의
▁이득
▁컷
영화
가고
▁스폰
하는게
27
정부
▁파트너
▁조절
▁순서
▁서서
▁03
당했다
발이
▁존재하지
▁한국에서
▁날개
▁출판
으려고
▁닌자
▁더더욱
▁전성
▁디아
▁시각
▁그렇다
작이
▁SN
▁잦
국을
▁신성
▁길이
▁스톰
▁순수
하였으나
▁불린다
▁합쳐
▁것이고
▁캐스팅
▁신청
?'
가시
▁오후
▁프로필
▁마왕
▁수학
▁파견
▁막을
즈마
스탄
▁피를
▁평가가
▁무효
▁힘으로
▁제기
▁시기에
▁적극적으로
▁무언
▁정확한
▁시켜
▁가사
있고
▁아쉽
코와
▁스피드
▁공격에
▁페이지
▁들어간다
▁기능을
▁허나
되지만
▁한참
번이
버려
▁전까지
-7
▁민족
데스
노가
▁내놓
▁뜯
▁04
▁고용
▁보일
▁카와
▁08
▁대상으로
▁서비
단은
▁SD
▁점차
번의
▁말로
국가
▁오스
▁여담이지만
▁웹툰
▁총을
▁대원
색을
버트
▁압도적인
▁HD
▁교환
OT
▁인공
데다
파이
▁경상
▁기독교
▁등판
▁싫어하는
연구
▁비트
▁전쟁을
▁주변에
▁어른
▁짓을
▁스킨
▁실력을
▁탁
▁계획을
▁쏴
하이
▁데다가
▁멕
▁02
▁아닌가
▁기능이
되어서
님의
▁보낸
끄는
홈런
마스터
▁버려
▁바보
▁의미로
▁강제로
▁퀄리티
등이
리도
▁섀
age
▁것만
▁형태의
▁소화
▁노부
둥이
▁이들을
▁뉴스
▁절대로
뿐만
▁있다가
▁그라
▁어릴
역에
▁대항
▁대규모
파의
▁배우는
▁다루는
씨가
▁돕
심으로
▁끌고
▁트윈
▁수영
▁끝나고
ity
▁않는다는
▁안티
신으로
▁죽인
!'
▁작사
▁콘서
▁게임에서
▁융합
▁이중
슈타
▁도달
▁기반으로
~4
▁울산
▁했으며
▁외교
책을
▁일본에서
대회
▁예비
▁수십
▁세계를
▁젠
▁이전의
▁다들
▁미카
▁09
▁시절의
▁있었으며
▁아가
어버린
배를
▁가고
료를
체에
▁현상
▁곳으로
▁창조
▁자신도
▁49
▁소총
▁특별한
▁is
담을
-8
양이
▁카드의
▁마리오
권은
▁지능
▁모두가
▁텔레
▁목격
관의
았다는
메가
▁맞지
▁이리
▁태그
▁둥
▁지금의
▁기록을
전설
▁근처에
▁요코
▁역을
함에
▁AI
▁장수
하려면
▁협박
▁잡을
▁생각보다
▁등은
▁용의
▁뼈
▁제주
▁수록곡
▁이치
민이
▁인수
▁무기로
번을
▁코어
▁까다
▁그로
▁레벨이
▁소드
▁없던
자마자
▁체력을
▁팬들의
▁균
▁빗
기까지
▁체포
▁통상
사령
▁작용
인들의
되었을
▁미스
▁끌려
금이
▁매일
율을
네가
▁이지
▁뺏
▁낼
▁MC
▁오랫동안
▁쫓아
▁훌륭한
▁재현
▁즈
▁기초
▁프리큐어
▁갈수록
▁사용하고
모드
소에
▁땐
린이
프리
200
▁대사가
▁펠
내며
실에서
▁젤
노우
동의
▁은하
▁관심이
디가
▁했다는
▁for
▁강남
▁홀로
연의
▁4,
▁밸런스
직을
▁훗날
▁예술
량으로
회사
▁무대
▁자신들의
▁난다
▁특기
▁나가는
▁공급
▁조지
▁세워
▁내의
리얼
▁외부
▁다를
오리
▁깨닫
▁적대
▁비디오
계에서
▁입수
▁맞은
▁동시
▁장면을
▁수집
▁불법
오고
▁지역의
▁캐릭터는
▁쿨타임
▁드러나
▁re
▁반격
▁결코
일까지
▁대만
▁들을
▁한정으로
▁춘
▁GS
▁주말
동에
니와
▁전후
산이
▁베스트
마이
▁죽음을
다의
레나
소한
▁생각이
▁전면
▁이론
▁팀은
AD
▁Se
▁어그
▁선물
▁180
▁부상을
코를
▁다섯
▁매니
▁셈이다
▁클래스
OM
▁전형적인
▁보여주고
노의
▁말자
▁기본적인
린의
공이
▁비싼
▁봐야
이트를
▁이것도
▁슈퍼로봇
▁자가
▁안내
▁자식
토는
▁준우
ID
▁가격이
▁김영
인에
▁작가의
▁심하게
▁기회를
▁되었다고
▁말하자면
▁Ar
▁있었기
모델
▁의뢰
▁사용하지
표를
▁이상으로
재를
▁추격
▁가속
▁아일
▁모조리
▁까지
▁와타
▁대미지를
▁몰라도
▁갇
▁임명
▁전에는
▁아니냐는
ass
UN
▁아름다운
▁덤으로
치며
하에
유를
▁나타난
▁국방
ire
▁옷을
기나
▁FI
▁플레이를
ust
▁이외에도
▁버렸다
▁타워
▁페이스
▁한다면
▁있어도
▁탄약
▁자매
▁캐논
리우
▁잃은
65
▁널리
▁죽일
▁카오스
▁말아
구려
▁포탑
레인저
▁과거의
통을
▁험
▁시즈
▁전멸
▁신기
▁받아들이
버렸
닌다
▁파라
▁별다른
평가
함과
▁실버
▁이즈
▁구멍
▁태어난
▁곧바로
▁기록했다
",
마와
계열
중학교
▁원본
▁모바일
▁치는
▁씹
▁간부
▁실력이
▁트랜
▁귀찮
▁와이
ffff
▁대화를
키와
▁컨텐츠
▁일상
년을
야가
▁그렇지만
세로
▁보인
느라
▁불가능한
▁미디어
동으로
4,
▁소형
스톤
츠가
여객
▁Ne
▁할아버
▁주인공의
▁스코어
▁나이가
▁남겨
CG
▁밖으로
▁부품
▁천재
▁베트남
▁연도
▁공격하는
▁발매된
▁사마
75
▁이라는
▁처벌
▁승부
등의
타와
세에
▁!
름을
▁이길
▁어떠
▁감안하면
▁드라
▁대상이
~20
▁전화
▁사용해
BA
▁수준이다
▁190
▁싸움을
▁지속적으로
티아
▁죽는다
이기에
▁코우
▁영상을
▁코믹
▁댄스
▁정면
▁평이
▁챕
▁감옥
VA
안이
▁잡혀
되었다고
▁구사
▁일으키
▁나눠
졌을
▁부른
ffffff
▁사장
▁하트
▁네덜
▁포스
▁팬덤
▁간의
ide
▁전력
▁하얀
▁중학교
▁신이
▁방법은
적의
▁다이아
당할
해가
▁빚
▁사이의
커가
▁헨
▁사쿠라
▁지어
▁들어갈
▁평화
▁어택
림을
▁이글
▁킥
연을
의로
▁녹음
▁오사카
토와
▁신장
감독
▁...
것은
▁아니라는
▁여신
▁이외의
▁마리아
▁트로
▁캐나다
하기가
▁업무
▁좌우
▁세이버
과를
▁등장하지
▁꽂
▁유니폼
▁떨어진다
▁성별
▁나중
더스
▁합격
▁코미
▁모른
▁있었을
▁카타
▁콜라
급으로
▁곁
▁경비
졌지만
▁뭉
▁박정
▁맞게
색의
ark
▁잃고
▁제임
겠지
▁사람들에게
▁수도권
▁심리
▁어마
▁유희왕
▁핫
▁시장
▁경기가
▁가능하며
때는
▁앵
▁적혀
▁분위기가
마에
▁저런
기업
계로
▁갤럭시
▁죽어
▁이어지는
▁신고
▁싶다
▁모르고
▁당해
▁맘
▁주소
도르
▁고교
▁헛
▁쉴
소리
▁이영
단지
▁멍
▁이미지가
봐야
▁잡기
▁갤러리
▁편입
ax
플렉
가서
▁영업
▁56
원과
▁돈이
▁주기
방향
▁유로
심한
투를
세는
▁긍정
▁FA
▁66
▁OST
냐며
▁나아
▁휘두
▁환영
▁횡
▁사라진
▁우연히
▁스티
탄이
바라
▁방에
▁뜬금
하라고
▁군대
▁만났
▁보도
▁점이다
▁버린다
▁덧붙
▁변호
▁유저가
▁마침내
물에
▁가능성도
EM
▁아크
▁AR
였을
▁건축
▁방송을
▁이내
▁김태
고속도로
▁한명
▁회수
▁강하게
나카
ere
▁외국인
▁앱
▁무방
▁마이클
▁쓰레기
▁깜
▁아케이드
▁의존
▁안드로이드
▁드는
해의
▁제갈
▁자세히
▁블레이
▁적절한
▁생활을
▁가라
▁내장
▁수용
▁죽고
▁감독의
▁욕을
▁디지털
쿠라
주민
▁95
▁뱅
▁인형
▁이제는
베이
군으로
▁썬
ood
▁상급
▁이용해서
▁마음이
▁들면
ES
▁WW
▁De
북도
▁극복
▁독특
▁시달
▁헤비
▁보장
ge
소에서
▁관심
▁예측
-6
다시
▁대처
▁펼쳐
졌다고
US
▁예선
▁방사
르지
자면
▁태어
▁스페이스
▁식의
▁약간의
▁좋게
▁넷
▁내세
▁아빠
파가
▁반응이
▁무릎
▁일시
▁찔
▁뚜
▁연방
▁이날
회는
러를
▁가야
▁것일
-10
▁무덤
▁예로
ect
▁종점
▁스마트폰
버전
▁스태
곡을
경찰
▁접속
▁어두
▁리듬
설을
당을
▁분위기를
▁{
자도
▁에드
▁화력
▁성적을
▁지역에
▁일으킨
▁상황이다
▁한글판
▁CPU
▁당하는
받을
▁생략
에겐
환을
테인
▁국회의원
▁저렴
테이
▁헤이
포가
냄새
▁과거에
▁구속
29
▁보라
▁과연
▁높이
▁특집
시키기
츠를
▁되었는데
▁기점
▁85
▁나오기
▁보게
장갑
러의
▁마시
▁록맨
▁통제
▁의무
▁감정
▁언급한
▁.3
▁좋을
▁위주로
유럽
▁정체를
▁사카
▁킨
사업
▁당연한
▁성능은
..."
▁밝혀졌다
▁되었으며
그리
▁침공
▁모여
▁세상을
국어
주기
관은
▁작품이
▁경우에
▁이나
▁KIA
월부터
먹고
▁것인지
욕을
▁김정
▁보며
▁명령을
▁얼굴이
ure
▁오스트
▁룬
크와
▁찍어
▁충격을
▁인터뷰에서
등학생
▁블록
▁예고
화한
▁취급을
그라
▁30%
▁윌리
론은
▁한국에서는
▁머리가
웨어
av
▁캠페
▁네임
ome
▁수익
다나
▁이끌고
쪽의
▁믿고
▁77
▁혈액
터미널
▁윙
▁일명
▁네가
▁데몬
▁PD
▁어째서
▁차단
▁찾는
으러
▁둘째
▁정복
▁숨겨진
!!!
▁이용하는
▁장식
▁자체의
▁발달
▁원인
▁아즈
시하는
받았다
원도
▁대우
트에서
▁경험치
버스터
▁들어온
▁이루어진
퍼스
out
증이
▁팬들
▁600
▁나쁘지
▁물론이고
▁피격
▁희귀
됩니다
▁58
영이
▁뭘
▁수수
▁맞으면
are
즈와
▁접촉
▁캡틴
ob
▁프라이
.05
▁아버지의
▁GT
▁스미
▁합성
▁높고
▁물을
상한
▁남아있
▁사양
▁컸
▁Le
발로
▁1992
▁야스
로서는
▁인물이
▁목소리가
▁보지
▁빛의
관리
▁아마도
관으로
▁해상
▁불을
해지고
검을
▁의지
▁으
▁별개로
링이
▁군인
▁곽
▁골든
보드
▁조성
▁완결
음악
▁브루
▁플랫
▁정도였다
교를
▁정지
받는다
러니
▁on
▁일이다
▁고작
▁그건
▁등과
▁왠지
으로만
▁전의
▁농구
▁시그
▁싸워
▁자폭
티드
▁심지어는
36
▁SC
▁외의
▁중국의
▁모모
크라
VD
▁몰락
▁적응
▁컵
▁전체를
▁생각해보면
▁가짜
▁클래식
했다면
▁저장
▁테스트
▁웨이
▁최신
pe
으로서의
▁무척
▁역사상
지기도
▁주제에
▁딴
▁진짜로
민의
▁그러니까
▁되기도
▁스승
▁승격
▁첨
▁임시
가미
▁타락
분의
▁올리는
맨의
망을
▁좋고
▁57
▁미군
▁있었다는
▁유형
▁후계
▁이라
나라의
▁만나게
▁저작
our
▁엘프
▁지내
▁마이너
▁당신
▁뒤에서
류의
▁않았을
비로
▁향상
약한
▁게임에
령이
▁객
로와
▁1993
ance
일에는
브라
ess
▁격추
▁결과적으로
당에
령을
▁낫다
트릭
▁손으로
질로
▁이펙
▁메뉴
렬한
이었기
▁부각
▁사건의
▁일람
주차
▁유대
▁정찰
▁Me
지인
▁IS
▁눌러
▁날아가
▁끈
▁최다
▁사랑을
조는
▁자동으로
들만
▁아니라고
▁잉글
치면
▁죽이고
iv
ock
▁이집
▁오카
▁크기
▁입을
나서
▁41
▁후배
▁똥
▁크라
▁후술
렸던
▁중계
▁닫
▁곳은
▁레이더
▁신경쓰
▁출장
▁엄마
일드
▁간단
▁작품을
.01
▁가문의
▁이정
▁다수의
▁단편
▁상업
언이
▁당시에
줘서
타카
▁의료
용을
주자
한을
▁일찍
▁간신
▁규칙
▁연관
피를
▁적당히
티나
▁r
ord
▁자리에서
▁농담
▁죽음의
▁소수
▁있는지
▁부서
ime
▁아쿠
iz
▁it
현이
커의
▁하차
▁묘사가
훈련
▁공화국
▁라이온
▁넉
▁위장
▁걸쳐
방으로
OP
▁왕자
▁CC
재로
▁SM
▁늑대
어와
▁무시하고
졌는데
화와
▁느낄
▁힘들어
나이트
▁튕
필드
▁눈물을
▁98
▁서부
ound
신교
차량
▁트라이
▁상상
위키
것으로
▁상술
▁블레이드
막을
데이
▁흡혈
▁밝혀진
▁각본
▁기동전사
.03
▁신설
▁1988
▁휴대
▁컬러
지구
▁효과로
▁깡
▁88
▁총알
▁형식
▁Tr
팀이
▁승강장
어마
나가는
▁악역
▁깔끔
▁아이언
▁어려워
요시
▁니코
▁완벽한
▁하나도
▁나츠
▁시절에
하가
속도가
▁찢
▁왕의
▁며
▁설정을
▁정착
▁방법으로
▁멈추
▁초반에는
▁무기는
/4
▁승객
ix
▁은행
▁데드
▁이전에는
▁전진
종을
향을
LL
해준다
▁리가
▁브리
▁바이오
▁집에서
95
방에서
자들에게
▁기믹
▁보물
▁올린
▁일방
▁아이를
시즈
번은
▁랭킹
▁열쇠
다란
▁미스터
▁활발
재가
▁장군
▁망가
▁개량
르를
▁그들을
법은
▁위하여
▁자는
▁지나가
버릴
개발
히지
▁남긴
▁출신의
게이
▁단점이
▁쏠
▁터키
▁선수들이
지지만
▁어린이
▁태어나
▁갈라
▁He
▁전부터
▁된다고
커를
▁결말
▁그러다가
자고
▁드림
▁고스트
▁포스트
▁교황
▁칭찬
▁렉
▁기병
▁보유하고
▁유통
▁주전
▁54
▁패션
▁메시
▁거다
제국
▁갔다
▁행위
▁바꾼
▁나오면
구리
▁정신을
▁아티스트
▁톤
▁me
초등학교
▁아들이
▁하락
랑이
▁한쪽
▁구하기
▁액티브
▁할머니
▁신분
▁나면
▁의혹
▁플래그
▁53
▁블러드
Hz
▁버린
시에는
▁잡은
▁호텔
▁대단한
▁초기에는
▁찍은
▁물려
▁시스템을
▁식민
▁250
▁판정이
▁도구
▁결성
▁맞서
▁약점
▁지형
98
][
▁무기가
▁제어
▁폭격
▁자리잡
되었다는
보이
데레
▁찾기
▁내지
▁주었다
▁나오며
▁준우승
▁활성
▁어마어마
유닛
▁프로듀서
▁바깥
▁Wh
▁둘은
▁규정
▁저녁
▁마력
파로
▁들어갔
▁be
졌으며
▁동인
▁나를
▁52
돌이
▁마코
▁헐
▁넥센
드래
▁색깔
▁타쿠
리지만
▁최종보스
사이드
~5
저럭
페이
▁카라
▁드레
▁선생님
이었으며
▁사후
▁플로
하라는
▁무렵
▁우리나라
▁개입
탄의
▁방출
라엘
▁내보
▁가끔씩
▁국적
▁계약을
ite
럭저럭
▁커리어
▁잠재
▁5,
▁벌어진
포로
들보다
▁맛이
▁총기
▁이미지를
미터
▁걸고
▁공개된
와도
▁다음에
▁화를
능력을
▁Te
▁배트맨
▁게임은
▁거듭
▁편이라
uc
명한
EX
▁가볍게
▁이상을
▁히카
▁위치에
▁죽이는
▁슈팅
▁임무를
▁검사
▁안나
▁지원을
▁기분
▁직전에
▁카드는
▁사용이
▁보너
▁영국의
▁이다
▁슈퍼로봇대전
▁수준이
▁왈
▁아파트
▁천사
▁호칭
▁출연한
▁1970
▁그럭저럭
▁탄창
▁퀘스트를
루는
OW
.02
▁''
▁챕터
▁노란
▁시절에는
▁만들기
▁마술
▁금속
▁슬롯
병원
▁호위
공화
까진
.08
▁썰
▁MVP
▁알아서
▁초중
▁곤란
▁아쉬운
▁저질
▁꿈을
▁부수
▁면이
미니
▁강요
소로
▁공격할
▁핸드
사기
▁사우
▁접기
▁보관
시험
▁병력
▁장면은
▁사용되는
집을
▁시노
▁뜻하는
▁물고
▁영어판
▁카더라
▁가상
▁체인
▁처럼
▁스웨
▁메르
▁박사
버그
▁현역
된다는
일본
▁거기서
한국
식에
중이다
실로
후반
학자
▁검을
▁따온
▁자극
리는데
▁성공했다
OD
▁쉐
저씨
▁무서운
▁어떠한
▁틀어
이든
▁전설의
▁오늘날
▁유사한
▁대인
있어
▁느린
▁마키
▁이민
▁ㅣ
▁해피
▁Pro
▁학생들이
▁눈물
▁용도로
산업
내가
▁국립
▁공성
▁잡지
았으며
▁가스
역사
ath
▁체중
경에
II
▁구체
하더라도
▁감시
인데다
▁그들이
▁손가락
▁채워
년만에
이면서
률을
▁요정
▁모를
▁사야
▁성립
▁들여
보로
▁경우엔
▁패턴이
직한
▁빨라
▁소위
▁언급이
▁톰
던지
건을
▁넣고
관에
MP
▁육성
▁새벽
란다
▁1991
▁웅
▁떨어뜨
▁스틸
렇게
▁리얼
▁플레이어의
해서는
▁많지만
박을
▁76
▁데다
▁보다는
해보면
사고
▁애플
▁해주는
▁모래
차는
성능
터테인
▁정치적
▁웬만한
단과
한이
▁CV
▁층
▁확인할
실의
▁빛을
ake
▁루시
▁윌리엄
▁간신히
워크
▁디젤
듯한
명에
▁공식적으로
▁우리는
▁공작
▁부를
▁오직
▁자전
▁이재
로워
▁드리
함으로써
▁차원
역은
▁코멘
▁지팡
▁범위가
보병
▁카츠
▁장전
▁환상
▁일제
망이
▁휘말
석은
석에
▁심심
우기
▁스톤
▁되었을
니를
▁마그
판으로
▁카메라
▁답이
▁켈
▁소재로
▁우수
세스
▁정발
.07
▁Cl
▁패스
▁면에서
▁앉아
▁스튜디오
▁의문
졌다는
▁김동
▁단행
캐릭터
▁구글
▁유저들은
qu
.04
▁곡이
▁팬텀
▁기여
▁타는
▁율
▁거리를
▁시리즈에
▁로그
▁편곡
오와
▁체크
▁4.
있게
▁포켓몬스터
▁유닛을
▁이란
▁수류
▁쪽은
노스
인데도
나간
▁것이며
▁무관
▁|
경의
▁처형
▁그렇고
▁전공
▁중독
▁엿
▁인물로
▁청소년
▁브레이크
▁인증
▁클레
비와
▁사용하여
▁BPM
▁오마
드레
드에서
비에
▁동굴
안에
▁기종
▁메타
▁점도
▁돋
▁My
85
sh
ION
▁마법소녀
▁런던
배우
▁숙련
▁만날
▁잘못된
끄러
▁완벽하게
▁메리
▁무시무
▁비주
▁설정상
▁늘어난
▁유독
:30
▁발언을
▁등장하며
▁닭
는가
선과
▁0.5
▁라이플
생을
▁영구
▁챙겨
나기
▁적다
▁도주
▁??
바의
하고자
▁티어
나미
IG
벌레
▁체계
▁도끼
▁세계에서
▁미치
배가
▁공격력을
▁원칙
.09
▁난입
▁부러
▁램
▁레어도
졌던
▁근본
▁스턴
국제
전과
▁움직이는
▁존재를
▁언더
▁유치
▁쭉
팀의
▁않도록
▁업그레이
아는
▁내리
▁고구려
교의
▁멜로
▁생기는
▁무지
▁직원
▁존재가
▁뛰어넘
현의
▁통산
▁기원
▁스즈
▁정차
▁1989
다를
▁이른
+1
per
▁둘의
▁mm
ph
인들
▁냄새
▁멘탈
▁비교하면
▁귀환
▁남녀
▁노리
▁800
▁동작
렸다고
▁양쪽
블로
통이
47
▁1:1
▁괜히
▁개방
▁딜러
▁옳
▁가벼
KR
호와
▁사이버
▁목소리
▁사람에게
우와
▁전시
▁후반에
사거리
▁금방
▁왕이
▁간접
▁꿀
▁스텔
로만
▁명확
▁슛
기어
▁비공
▁경력
▁결과를
-20
▁넣는
▁사라졌다
▁죽기
▁집착
가며
▁고위
▁적어
▁화려한
▁익스
▁동일하다
oy
발의
▁들려
▁민첩
OC
ud
▁사례가
▁주포
▁마비
▁연금
▁기숙
네의
▁터뜨
▁당하고
▁세대
ame
▁쿼
▁동부
▁쉽지
▁한마디로
▁잔뜩
사이트
ows
▁아랍
▁소식을
바닥
▁더군
▁나타난다
▁것인데
고도
들과의
▁임팩
편에
부르크
▁물건을
사우
▁보여주며
위원회
▁아니며
저의
▁쿠키
▁정도이다
▁명을
▁몽골
하를
장전
▁전쟁이
▁외전
▁걸맞
▁첼
▁코난
▁비상
▁부분에
▁그림자
▁추구
되게
▁문서를
▁시스템이
▁기아
▁떠오
▁알바
▁연료
거야
양함
▁탈퇴
터는
▁고수
▁플랫폼
ET
▁메모리
▁친구가
▁칼날
▁타츠
인한
족이
간이
되던
▁호주
안의
▁뜻이다
▁없다면
▁치명타
타운
▁태평
▁가만
▁드럼
▁두들
▁96
▁추억
▁느낀
공원
디를
▁59
영의
나고
▁주인공인
▁하나씩
하자마자
구와
▁입단
▁받으며
▁인물이다
양을
국에
▁사망한
년생
▁반발
▁파생
스트가
석의
.06
▁재사용
▁성남
▁급격
우며
▁먹어
orld
편이
▁이끄는
급이
▁클라
▁아니라면
▁with
▁갖춘
▁기술로
▁감사
맨이
▁소지
네임
▁이겨
▁110
▁AD
▁포항
▁세종
▁파는
▁매년
▁게이트
▁삐
▁초창기
▁살펴
▁성우가
거를
▁감정을
▁보안
▁클랜
▁개막
FF
▁계기로
▁신화
▁전체적인
▁공룡
▁지역을
▁다음날
▁51
▁때에
스트의
▁RPG
▁부딪
가면
▁한번에
▁아이러니
▁휩
▁더군다나
스도
▁배차
각이
▁대대
▁언젠
▁주변의
▁집을
46
▁몰랐
▁채택
▁멤버들이
▁기자
한의
▁상관없이
▁윗
▁제작한
▁목을
인듯
▁인간을
모의
▁이라고
▁생긴다
▁조연
▁자연스럽게
▁KOF
▁엑스트라
▁죽지
▁무작
▁병력을
▁숭
▁침략
▁상기
▁몬스터가
▁그들은
▁SH
▁간단히
▁뿔
중앙
ace
▁무인
▁평타
▁언데
▁아이콘
anch
주었다
▁하이퍼
▁에너지를
▁후에도
▁책을
▁키워
▁확실한
▁대단히
▁나오기도
에서부터
IM
저가
▁기록이
우지
▁97
▁노르
▁전투에
▁펼치기
▁AM
▁늦게
▁이상이
▁SR
38
▁들어가면
▁빼면
▁개업
포인트
▁넣은
린을
▁시절부터
산의
▁낮다
▁철저
▁적합
슬링
투스
브가
▁커녕
▁있듯이
▁제임스
▁Pl
▁도발
▁효율이
......
▁입장에서
▁관중
▁연락
▁남부
▁메달
▁톱
▁반해
▁신문
브의
물은
설이
거리를
▁많지
5,
:0
▁Ex
▁김종
▁구원
▁새끼
▁반사
도에서
▁원인이
▁시라
aw
더러
▁미술
▁감독은
▁포르투
▁유이
▁이스라엘
▁느낌을
▁연극
▁모습도
▁유닛이
▁자막
▁단축
▁어딘
▁오지
▁요소가
▁오타
▁말하며
들인
프와
▁바퀴
년대에
시타
▁사용하기
▁켜
▁현재까지
후의
▁기관총
▁전작의
▁중의
▁스플
▁듣는
했기에
▁먹은
▁빼고
▁청년
▁군주
▁선전
39
▁커다란
로나
-9
▁성공한다
약이
해질
▁손오
▁미즈
▁처음에
▁재밌
▁신앙
대상
▁출입
▁성공한
엔딩
▁끔찍
▁우수한
▁그러다
리케
▁내고
조로
▁최근에는
▁장악
▁2~3
인치
▁이은
▁1~2
▁했었다
주며
▁조건을
▁수술
통신
▁일어났
▁아이스
▁오래된
▁버스터
▁전반적으로
▁130
▁지뢰
▁머리에
▁의미를
실점
ice
는지는
이동
지나
▁상처를
▁유저들의
▁공기
▁후손
공사
▁나아가
▁마법의
코어
▁68
▁실드
▁그것은
▁뻗
하진
▁분명히
바나
▁트롤
▁멕시코
버를
▁OVA
▁곳을
▁매력
▁악당
▁한국인
터널
▁결과는
서에
▁뿜
▁사막
▁지식
▁칼을
▁돌입
▁노선이
두는
▁명칭은
▁건지
사무
▁동양
마치
▁미라
▁편이지만
▁2.0
▁프레임
▁삽입
▁동영상
움이
▁시작으로
▁에반
▁가르쳐
기기
내지
▁문자
대사
▁고문
▁실망
▁그랜드
여자
▁이혼
▁다음으로
▁장면에서
▁공격한다
▁올라온
▁평을
▁펄
▁지역에서
SP
급을
▁정통
▁가지게
ies
▁싶다면
받지
타이어
▁버리는
ile
판과
▁건드
▁실존
▁찾을
▁이번에는
▁파리
▁특성을
▁꼼
▁확실하게
▁아틀
▁트레이드
▁당했다
▁메이플
▁알리
▁기울
▁김민
다리
▁시내버스
▁테일
▁아메리카
▁과정을
아키
▁같아
▁알렉산
▁곳곳
▁토끼
▁보여줬다
번과
데다가
▁의견도
▁유효
▁매체
소는
▁상대에게
▁사살
▁올스타
▁인하여
▁관할
▁적지
▁Be
▁히어로즈
▁노리고
▁쟈
▁타자
▁WWE
▁회의
▁독특한
정도로
아리
▁회원
▁크리스탈
▁플레이오프
야만
▁않는다고
가스
째로
▁캘
차례
▁캔슬
▁사도
▁Un
▁+2
어버리는
▁취향
더의
몬드
▁전투가
위해
own
▁자치
▁유카
▁다스
▁j
무장
▁터치
▁EP
▁그래서인지
▁무라
고에
▁버프를
▁뱀파이어
ave
온의
▁일행이
하마
▁수백
▁가동
▁철권
▁키가
▁이명
▁자랑하는
디의
머가
▁조조
▁부분에서
▁주인공은
▁가격은
왔던
▁개신교
▁장비를
이었다는
▁타겟
▁만화가
▁유전
▁속도를
생의
▁가을
▁차가
▁수업
▁지불
▁멋진
▁얻게
▁전신
것이다
빌리티
되어있다
▁사라진다
리거나
▁발생한다
▁넌
▁블라
▁발라
번으로
생이
▁수출
▁위력
▁두려워
▁사이드
▁문학
man
▁그러한
▁일으켜
▁코치
▁DVD
하겠다고
▁1987
▁세븐
▁과거에는
▁뜻을
경우
마츠
▁이자
닉스
▁이종
▁하나만
영웅
▁나은
▁워크래프트
▁어드벤
▁언급된
▁의미한다
▁War
▁피할
▁애매한
▁대거
▁목표로
▁폐쇄
▁열어
▁카를
▁스토리가
니는
▁상대는
▁위력을
▁위력이
▁극중
▁쏘는
old
▁전까지는
anchor
▁본다
▁받아들여
▁피가
▁시작하는
▁많기
▁부모님
되거나
▁사건으로
▁있겠지만
▁심장
▁엔젤
▁턱
▁BL
운을
법에
패로
문은
▁마다
▁숨어
▁주둔
▁필리
▁스팀
이거나
▁어머니가
▁뒤집어
▁술을
그러
▁Wind
▁대미지가
▁나고
웠던
제와
▁시드
학원
▁콜로
▁매달
복이
▁경기는
▁CG
있는데
▁귀여운
▁점수를
▁대단
▁TVA
▁시간에
▁미안
자동차
▁차이는
▁전해
행이
▁KBO
▁싹
▁아나운
▁마라
▁제독
▁코코
▁쓸데
▁넘어서
▁함선
▁사이코
▁가려
▁위대한
▁동성
▁아기
ber
▁오라
▁사용했다
▁자격
아와
33
▁억지로
▁차를
▁대부분은
GE
사단
▁치면
든다
▁전라
▁일원
▁정확하게
▁불렀
▁BS
▁사형
ok
▁팽
월드
▁박스
부터가
,8
바가
지방
▁사용된다
▁일어나는
▁곡명
▁진심으로
▁스파이더
-15
▁.2
▁가시
▁타격을
초간
▁얻고
▁영화를
▁전투기
▁빌려
▁혁명
▁실수로
▁부스터
▁화가
▁거짓말
션을
▁오류
▁충청
감한
역과
수인
서로
▁시합
▁닮은
▁스트리트
▁취미
▁해리
▁혹시
▁말하고
▁몬스터의
정과
▁커피
▁팬들에게
▁아르헨
▁72
▁사자
▁기사가
▁마블
▁생각할
▁정식으로
봤자
▁높게
▁기뻐
건이
▁사랑하는
▁연기를
▁펌
▁전체가
면이
▁아저씨
▁스트라이크
IP
▁중립
▁사냥꾼
▁등장하는데
▁브랜
▁부상으로
▁wh
했듯이
희가
▁관련이
▁걸리는
▁다리를
▁160
▁드롭
ick
▁좁은
▁엄밀
▁140
혀서
권에서는
▁사전
곡으로
상황
▁플레이어를
▁길드
노를
▁구할
▁비율
▁수사
▁아끼
▁따지면
▁아일랜드
고지
▁아테
▁네덜란드
바야
▁커맨드
▁거울
▁사귀
▁Love
▁시리즈를
▁펑
▁프리미엄
공학
▁디버
▁밑에
▁써야
▁지칭
▁압도적으로
ory
백을
▁비례
▁Com
▁음악을
▁과목
▁간단한
▁원작의
▁제외하고는
곡이
▁아파
▁후반부
▁로스
▁실은
▁LV
운의
▁또다시
편에서는
▁키스
▁건조
▁벌레
▁깨달
▁수능
미나
▁그외
▁맷
▁아래의
▁한두
▁세운
겠다며
▁영향으로
TE
루와
▁명중률
▁문명
▁공격으로
▁지휘관
▁없으므로
기능
▁일로
비한
▁들어올
▁마약
▁잠입
림이
▁첩
클럽
▁네트
▁하향
리라
▁1986
▁토너
주에
ng
▁67
▁스킬은
▁교회
▁번개
비디오
55
시다
▁시체
▁비판을
▁미국에서
▁카카
▁머물
▁뮤지컬
사도
▁폭력
▁발생하는
▁찾아가
ond
▁배경으로
▁방지
▁불렀다
▁사이즈
란의
▁아트
▁한국에
▁버그가
▁독일의
▁아래에
라고도
족을
포의
▁싱크로
▁이젠
추어
드러
슨이
▁속도로
운이
ov
왕을
치면서
▁이유를
▁흩
▁마린
▁전문가
▁얻기
▁ID
▁제도
▁챔피언스
걸로
무가
▁김대
▁막차
▁위치해
▁보통은
▁기가
▁ED
상과
▁매번
▁예언
팅을
▁나타나는
▁펫
는데도
▁he
소설
커스
인들을
히코
속에
저런
▁초등학교
품이
UM
34
▁경고
▁에그
▁좋아서
천시
▁가지는
▁키타
ream
▁사태가
▁스웨덴
▁보내는
▁가치가
▁이벤트가
▁나치
▁그레
▁차기
너가
▁미네
▁시즌을
단체
▁없으나
▁별명이
▁페널티
관광
소나
전기
▁방송에서
서야
월에는
강에
속이
아야
리기도
▁도저히
TS
▁용서
▁78
▁인원
▁시리즈에서
▁브로
▁FIFA
▁개정
▁못했고
집이
▁칩
▁노리는
하길
▁왜냐
▁단행본
▁닌텐
▁이주
LE
▁이벤트를
▁모에
진으로
이라고도
▁빠져나
▁자체도
▁나간
인이다
▁SE
▁끝날
▁우월
▁속한다
신과
치도
▁공격은
▁받아서
▁배를
▁회장
▁시너
▁된다면
사회
▁승점
르며
▁어빌리티
▁누적
▁돌아다니
▁도둑
▁일격
▁놓은
▁히가시
습을
진과
챌린
▁사고를
능력이
▁연속으로
▁나왔던
▁대다수
▁떠난
▁읽어
▁사라져
▁취임
로써
▁일치
▁타마
▁증가한다
▁굵
▁이어서
▁현상이
▁무사히
▁인지도
▁너프
▁실종
▁특히나
병의
더가
▁바뀐다
▁친한
▁오락
▁재활
▁다녔
▁신도
▁내야
/1
▁위기
▁홈런을
▁머리카
▁CJ
GB
▁보완
▁특수한
▁노려
▁발생한
▁탱커
라면서
위대
▁부가
▁주장하는
일과
▁천안
▁처음엔
▁답변
▁당할
▁별도의
▁통틀
저스
먹은
▁이하의
▁곳이다
▁녹색
▁스토리를
▁으로
▁게스트
▁세르
▁꿰
온이
▁와중
▁인피
▁요약
자라는
▁크기가
▁주사
▁my
▁주인공을
▁나선
▁날리는
▁테라
▁밝히
▁지나지
함은
▁용어
먹을
▁방식을
▁밝힌
▁바닥에
▁길어
▁카자
DS
▁히나
▁무의
▁로얄
▁발을
▁무술
으니까
▁능력치가
▁결과가
▁여기는
▁하나이다
▁기용
▁대지
▁콜라보
▁사실이다
▁비웃
세한
크스
▁팔을
▁시원
▁목소리를
▁카트
▁카구
▁경우에도
▁토우
▁장탄
▁구경
▁토오
▁집어넣
▁크리스마스
▁장점이
루타
}}
ther
▁인디
▁들었다
▁연타
고한
▁날짜
▁회차
스테이지
▁김재
▁의견을
tle
▁준수한
▁보충
▁엘리트
io
▁안좋
▁저택
▁상대방
▁국가의
▁그러자
▁제한이
에이
▁개시
▁모토
▁경험이
▁누르면
▁진실을
병으로
▁직접적으로
▁언덕
국에서
96
32
▁햄
▁결합
▁노벨
연한
▁속으로
▁올라오
▁집으로
▁만들어서
▁발매되었다
매를
소총
▁부르며
면에서
▁비정
▁쓰여
▁이끌어
▁퀴
▁악의
▁진보
▁또다른
▁기점으로
▁그랑
▁쏜
▁치유
▁라이프
코드
▁법률
ont
▁넘게
▁정황
▁세뇌
▁모니
▁영원히
▁발렌
▁식물
▁폴란드
▁동화
▁전역
▁출연했다
▁유격
▁근거리
▁어두운
▁플레이가
단에서
▁무력화
보이는
▁수를
na
▁버전이
▁아버지를
▁동기
▁불이
▁이상은
가드
▁와일드
▁시에
▁종류의
▁이누
▁5%
▁드래곤볼
▁끔살
▁유발
▁여기서는
▁미쿠
▁공공
▁소요
▁막는
▁오키
실은
교회
▁지경
▁운영하는
병기
▁확장팩
동은
▁이루어져
▁화학
▁돌아가는
야는
▁일본에서는
▁엑시즈
달러
▁de
▁설명은
▁않았다고
▁참석
▁방어력이
▁아츠
▁포르투갈
음에
▁모노
▁아미
▁굿
▁넣을
▁어필
워즈
▁모로
▁음성
~6
▁다닌다
니시
▁오디션
슨의
▁만남
▁구간이
pt
달라는
비드
▁AKB
▁일행을
▁출시된
▁질문
▁나머지는
▁능력으로
▁유력
▁쌍둥이
▁페이즈
▁서구
▁세상
▁탱크
▁특별히
스런
▁용사
하고는
▁배포
리에게
▁좋다고
▁곡은
겠습니다
▁데에
폭탄
▁태도를
침을
▁형식으로
▁교사
▁레지
▁블래
▁있겠다
▁되어버렸다
/10
▁씌
함으로
▁도서관
▁함대
▁챌린
▁여유
▁들어오는
▁초록
▁레알
렐라
▁커스
▁곡의
▁터미널
름이
▁교전
▁치명적인
▁과도
▁갑작
▁트럭
▁막상
▁올릴
▁새롭게
권으로
▁난이도는
▁대성
▁동의
▁럭
배로
▁역시나
▁있음을
▁2.5
▁시로
▁3000
▁신데
▁포트
▁시계
▁이슈
▁두들겨
티스
▁이용할
▁증언
▁공허
▁성격을
▁놔
감에
▁종목
럽게
▁배달
▁코토
▁남아있는
▁피해가
▁시리즈가
▁김경
▁존경
▁남북
ps
대기
▁충성
▁강의
▁되었지만
▁전무
▁보이는데
이랑
▁지키는
▁오크
▁시크
살을
▁박근
▁시간의
▁시대의
▁오랜만에
▁인종
▁라틴
▁스프링
▁카드로
▁거지
▁튼
건담
더를
▁첫차
▁한방에
▁교과
▁트리플
머스
▁데빌
▁얻어맞
▁중요하다
▁어이
▁갖추고
▁극히
▁어렸을
▁상호
▁느끼고
▁혐오
국은
▁앞두고
▁주역
▁짱
▁제정
속으로
▁세인트
▁둘을
▁듯이
▁업체
▁스크린
▁나폴
▁장거리
▁뜯어
▁경기에
▁말투
▁나중에는
작으로
탐정
▁뜬금없이
▁kt
▁항복
주일
▁데미지는
마크
▁중형
▁맞을
▁서서히
▁스타리그
반이
▁되었다는
▁글로벌
▁1985
▁대조
아시아
▁의원
▁여지가
▁음식을
▁슬라이
▁머신
▁프란
▁야쿠
▁이토
있었다
▁XX
▁득표
▁본작
▁포기하고
▁상의
▁바가
▁한타
▁측에서
▁관람
손으로
▁완전한
▁계통
▁화성
▁전세계
▁도시철도
STER
보의
▁것보다
▁항목을
터로
만화
진에
▁선행
▁위엄
▁기지
▁기록한
례를
전한
▁리뷰
▁나라의
인도
▁못해서
후에
▁토벌
▁땅에
노트
▁예전에
▁넘버
▁밀리
▁이런저런
▁때문이라고
▁볼트
지거나
▁보냈
되었기
▁700
네요
▁무시무시한
▁업데이트로
▁이유도
▁불교
31
▁SNS
▁1984
겠어
는게
▁작화
▁호환
▁사정거리
▁DC
▁처참
▁최하
▁후기
▁구성되어
▁올라가는
박스
▁포함되어
건의
▁성을
▁이야기는
▁속의
▁요구하는
우라
▁풀려
▁저지른
▁예정이다
rd
▁막내
ade
결을
▁AS
ian
브로
▁삶을
▁금액
났고
구에서
▁당신의
해주고
▁전주
▁끊어
??
▁즉사
76
릭스
▁선수를
▁영토
차별
▁메모
용의
▁Dr
▁병원
az
▁올드
▁죽게
▁침입
▁역사를
▁더이상
▁잘라
▁좋아한다
▁느려
야를
▁sh
▁에이지
▁해준다
절한
▁김현
하였는데
▁임신
▁북부
▁작품은
▁조금만
▁5.
▁GP
▁에로
300
▁가만히
▁람
▁1500
▁유재
▁미묘
▁부문
타니
▁별의
▁있기도
▁쯤
았기
▁무산
▁Station
~19
기록
▁보면서
▁보여줬
▁이수
▁EZ
▁많으며
열을
▁노가
환의
▁고기
림의
포스
▁가능성은
편을
▁For
▁되므로
리한
▁평생
▁정체는
▁남자가
계획
문학
▁정비
▁1960
▁상태였다
▁스펠
우주
▁여기저
▁증오
령의
▁귀엽
▁시작된
▁영광
부장
명과
▁여학생
▁죽었다
▁소속팀
▁요원
▁DD
▁썼다
우면
▁나이에
라딘
▁진압
▁캠페인
▁함부로
공격을
조직
▁구슬
▁편에
▁받기
▁피에
스러워
▁확대
▁흡사
▁6,
▁중복
▁소식이
있을
▁지키기
▁중국어
늦게
▁복잡한
▁루이
▁디스크
▁대치
네스
▁맡게
▁사가
▁넘어가는
▁창원
잡이
런트
▁재정
▁포위
세서
바시
▁되살
▁타율
몬의
▁정상적인
간을
▁이걸로
▁나오지만
▁쪼
▁오로지
▁트라우
셔널
하곤
었는지
노는
▁당신이
▁모티브로
▁문제점
▁이긴
▁출력
▁세계에
일지도
리아가
란이
▁쓸만한
▁훈련을
등한
▁추종
▁마케
▁대신에
▁마스크
▁지역은
▁주식
▁물질
▁끊임
▁에어로
마냥
르와
▁땅을
▁아서
▁잉여
▁버튼을
▁숫자
▁최우
▁변화가
▁날카
레인지
▁집행
반의
시키면
▁중후반
센트
회말
▁중세
ason
▁줄여
ww
카이도
▁간간
▁먹으면
▁노선을
▁말로는
있으며
싸움
열이
▁자본
▁기회가
▁아닌데
▁들어가서
▁리타이어
5%
mer
▁백성
디는
7,
▁마냥
러브
이었을
키아
▁플래시
들이나
▁얻었다
서울
▁이닝
▁나오면서
ost
▁나갈
렸는데
종은
봐도
▁토론
▁보정
국으로
▁호평을
rom
▁동남
▁영화의
▁가리지
▁기존에
▁나왔는데
테일
▁수치가
▁아니기
▁아이가
▁회상
▁재장전
미사
▁팀에
▁아이템이
▁비주얼
▁늙
▁제자
▁형사
▁69
▁Su
▁스킬로
▁유래는
▁디즈
숙한
▁기기
▁둠
▁콘솔
▁않았다는
▁가기
▁불의
▁천연
렸다는
해져서
▁변태
▁일에
포트
▁방식이
▁매치
▁해안
▁비극
▁생년
▁드래프트
▁벼
▁금융
▁자신들이
저를
동과
▁양성
▁스나이
킨다
▁재판
▁호흡
▁뮤직비디오
▁잇는
▁메이드
▁울트라맨
▁지은
▁화물
▁투구
6,
▁군대를
44
▁냈
ach
시켜서
▁철거
▁몫
▁아카데미
스피
▁조건이
▁되어있다
▁후퇴
▁윈도우
▁실질적인
▁남기고
▁바꿀
▁투어
▁수록된
하지도
▁개설
▁여럿
▁어디서
▁분당
▁루카
▁사신
▁거는
▁불만을
▁수요가
합이
▁맞는다
▁라운드
▁아버지는
▁1.2
▁보석
▁개념이
▁미노
▁인구가
▁신라
라이브
▁호불
▁유지하고
▁용인
건지
▁일본판
너의
▁엄격
희의
▁불사
▁브레
▁크래
우스의
스레
화점
▁끝난다
들처럼
켰다
▁가죽
▁딜레이
▁티켓
▁불펜
피가
베이터
적으로도
▁잉글랜드
▁전방
▁재개
필살
▁쉬워
AP
▁입는
▁달라고
▁부작
이라기
▁츠바
▁$
▁계기가
나로
▁라그
▁결정적인
▁무쌍
▁유리한
▁조별
▁감지
▁당일
▁건물을
▁사용된
▁콘서트
▁읽는
▁막강
▁Windows
▁힌
▁해킹
▁세이브
축구
▁온다
▁등장할
▁부인
▁크림
MS
법으로
동물
▁즉위
▁대전차
영을
www
▁퍼포
▁Fate
계는
▁명목
지니
▁자녀
▁나무위키
▁차이를
▁시상
▁소속의
경제
▁커서
▁개발한
▁말라고
ash
▁특징이다
▁빌드
매치
▁만일
▁거친
▁발동할
▁시간은
항목
과정
▁Star
▁25%
▁유인
▁투척
▁포격
▁기상
▁볼넷
인데다가
▁입장에선
▁허락
▁니콜
/5
▁흔한
▁베네
▁슬레이
▁도박
미에
주와
▁작업을
▁화력이
▁신호
▁히토
AK
sp
▁보이기도
▁헝
되므로
버가
▁쓰인
▁당한다
▁갈등
▁트루
▁있기는
▁이웃
▁아시안
씨는
▁한반
▁오전
▁간주
▁플레이어는
▁유의
▁자이언츠
층에
▁쪽에
▁할수
▁명백
▁후의
▁공지
▁신입
▁모티브는
▁마루
▁끝으로
▁최상위
상으로는
▁비틀
▁일렉
▁대상을
▁비유
iss
▁그러면
▁못하면
느니
▁전락
▁중첩
차원
▁자라
▁학교에
▁나지
ower
▁엘리자
▁싶으면
▁무지막
▁줬
노스케
▁각각의
러는
▁샌드
▁하쿠
▁서클
투표
▁기술은
CD
▁상점
▁시청률
▁일일
▁악몽
▁원자
▁거기다가
▁작곡가
▁충실
▁얽
종합
▁사립
경은
▁생길
기게
▁올랐다
게이트
배치
▁돌아와
▁성향이
▁어벤
▁종이
▁파멸
익을
▁일어판
▁4:
드래곤
▁삼아
▁쓰러트
준이
▁얘기를
▁학생회
▁사라지고
▁같다고
뉴얼
▁거미
▁파르
▁스포일러
▁기록하며
섰다
▁식당
▁디자인이
카미
▁짜증
▁대사는
마일
▁사유
▁팔아
▁토마
하르
▁맡아
▁발굴
▁무리가
▁수염
▁걸린다
▁잠수함
▁복수를
▁재회
▁번에
▁뒤에는
▁청소
▁변환
포르
▁우에
▁무지막지
▁법정
▁상륙
리우스
▁한방
▁너무나도
▁토요
▁결론
▁심판
▁생년월
무쌍
▁다녀
OU
▁지시
▁제작진
형태
▁히틀
▁단종
▁불량
란을
▁분기
▁어지간한
님을
▁직접적인
ish
▁재등장
▁나도
중간
니혼
▁귀신
▁클릭
했습니다
리코
▁배드
▁사고가
▁사용하며
▁아니라서
▁보존
▁우라
▁화력을
프라
▁로이
▁이순
▁헷
▁가디언
키지
▁간간히
▁시대에
▁세력이
▁의해서
키퍼
▁CF
▁62
▁올렸다
▁제트
열차
▁강등
▁하나다
▁번도
▁통칭
▁뒤늦게
매니아
▁본명은
▁무섭
▁드라이브
ky
▁실수
▁0.3
▁프로리그
▁독재
▁곡이다
▁It
▁운이
▁연령
▁간호
▁궁금
티를
▁상태를
▁어쩌면
▁최대의
수사
▁주간
▁패턴을
▁각자
▁대하여
들에겐
▁그림을
▁작전을
▁느끼는
▁아니더라도
▁수월
렸지만
▁소문이
군에게
아아
▁영역
번이나
ial
▁캐릭터들이
▁빅토
▁외야
된다고
▁Sc
▁며칠
▁본명
▁아인
페이스
▁We
▁나오게
▁좋지만
▁질투
9,
▁결정적으로
▁전장
강에서
▁툴
▁전승
▁출간
▁가치
▁조롱
▁계열의
▁병기
▁위기를
▁방치
CS
▁한창
▁되도록
▁기재
아니
▁만만
▁손꼽
블린
▁배려
자나
디에
서도
▁실전
▁하려고
ft
했으니
▁사거리가
씨를
▁리치
란히
▁휠
ble
▁안습한
▁오염
▁않다는
▁혈액형
ARD
▁똑같다
▁스텝
▁선수는
▁패밀
▁대량
▁초보
NA
▁마드리
▁BR
▁대리
▁적들을
▁기묘한
▁나노
▁부정적인
▁둘다
▁영상이
▁정부의
wik
▁대접
▁SF
▁국왕
▁용이
▁혼돈
▁대표팀
▁권장
ex
▁유니크
▁Fl
조에
▁성격은
▁터져
▁대차
▁지녔
▁UN
▁고객
▁퍼포먼
▁만들어낸
▁원더
씨의
▁피터
▁개체
관에서
▁전북
▁포수
시스트
파크
▁동급
▁시카
▁돼지
▁양의
▁신형
▁상대방의
ook
▁김상
▁왜곡
▁정도를
어지는
▁누나
▁신경을
▁활성화
▁OP
▁자유롭게
▁앨리스
▁조용히
있지
▁뚫고
▁미래를
▁선택할
▁스카우
▁제네
▁버전은
▁오다
ll
▁금메달
▁Wi
▁혜택
▁너희
▁설령
범위
히트
▁깜짝
룡의
▁로즈
▁초반부터
어스
▁경악
▁배출
ug
▁지속시간
▁이용객
▁마신
만으로도
관련
▁가난
▁길게
▁정부가
▁커스텀
▁프라임
▁위원
▁편이고
▁엎
영상
게이머
▁부착
▁에피소드에서
▁기갑
▁썬더
▁스킬의
▁연봉
▁일본에
▁세력을
▁폴아웃
act
▁어뢰
▁해골
▁미나미
▁권력
▁사망한다
▁스캔
▁가벼운
▁여행을
▁합니다
▁만나는
▁창설
▁와카
소드
오로
irl
▁실질적으로
▁세상에
대원
▁기회
길을
로소
▁테츠
▁쓰게
▁질문에
▁5000
민주당
▁정도면
▁형태를
▁인식이
경기에서
▁약탈
가리
▁편에서
▁긁
▁투명
장비
▁자국
일보
▁아래로
훈이
▁달리는
▁도움으로
▁막고
▁섀도우
▁힙
▁부드
▁키라
싱턴
▁이동속도
▁후반부에
▁횟수
▁엔진을
▁로빈
▁사나
▁솔직
▁화제가
▁차지하는
레가
▁미키
▁진학
달아
▁프렌
루수
▁반박
▁열혈
구청
▁남을
▁끄
▁탐험
▁일부를
전문
▁63
▁경직
바를
▁가해
▁에르
▁야마토
▁쟁
▁공사
▁구별
▁15%
블리
속을
능한
▁그러던
테랑
.18
품으로
▁튕겨
▁전원이
▁앞의
무의
▁눈치채
교가
▁7,
▁있거나
▁은신
▁백인
▁사이에서는
▁연인
▁같은데
▁찾아볼
▁츤
▁한일
지다
히게
▁폭탄을
67
▁모양의
▁지는
▁하츠
▁담당하는
▁빠르고
▁복구
▁your
▁폭파
▁살아남은
▁위치가
링크
▁법칙
가게
▁요금
▁좌절
▁치즈
▁성적이
▁PR
▁곱
▁쓸만
▁찍는
▁싼
▁안경
▁가까워
▁가능하지만
▁추정되는
orm
▁늘려
▁지나면
▁개별
▁미도
▁끝나는
▁일방적으로
▁상대할
▁그녀에게
▁드문
▁1982
시청
▁조우
▁that
군에서
▁옹호
▁수면
▁정수
감은
체인
▁묻자
▁태클
/20
▁이노
타자
▁출격
▁쫓겨
로이드
▁상실
▁현장
▁묘하게
범죄
▁주제
스토리
▁프레이
▁상반
▁셔틀
▁에픽
저리
97
▁주차
▁책임을
▁설명이
▁사제
▁불쌍
속의
자치
▁포획
▁정류장
▁주의해야
▁히비
▁Gr
▁장치
▁상황은
▁3.5
▁정보가
▁것과는
로에
▁여타
▁뷰
▁코르
회복
▁생각한
▁쳐들어
히면
▁공연을
▁엄연히
The
▁것이기
일리
였기에
▁일본은
크리
▁후일
회전
▁싶을
▁짐작
▁정신이
▁볼수
▁105
들에게도
.15
▁얼티
▁그날
▁하라
▁이때는
▁프로그램을
▁그중
▁토르
pl
▁원조
버튼
▁넘치는
▁얻는다
인칭
천사
▁유망
▁미루
리에이션
▁원작에서는
▁배가
▁삼각
▁쿨타
▁바에
▁신용
▁올랐
▁페이스북
질의
살이
▁자전거
▁골을
오스
▁74
▁주의할
▁이니
▁여의
▁Mk
▁주제가
정치
▁구축함
▁라인업
▁결투
▁폐기
▁DS
▁반응은
▁벙
▁의상
갔고
소리를
▁상영
▁당신은
▁공개되었다
▁음원
▁개혁
▁에릭
▁유혹
▁호소
▁시키는
▁옆에서
▁개업일
▁사회적
▁경남
▁부르고
▁오죽
▁헷갈
▁상자
▁무기의
▁모델은
▁들어갔다
놓는
▁그러니
▁61
▁아들을
▁사용시
▁공방
▁히메
▁속하는
분으로
▁체인지
▁즐겨
▁제노
▁할인
▁서로의
▁일어날
▁본격적인
▁즐기는
▁담긴
▁응용
▁기사단
▁비하
▁범용
▁체험
▁인지도가
층의
집에
▁털어
▁여자가
▁피해량
▁인격
▁모르게
▁적중
월의
▁지워
회차
▁모델이
츠는
파는
▁발행
▁경우를
▁사건에
▁챔피언십
▁행위를
▁흑인
네는
양의
미로
▁품고
▁론
해준
▁설이
▁불행
▁아스트
▁사천
▁메구
들로부터
예술
▁주장을
▁케이블
▁사무라이
왔고
▁보유한
▁필요는
▁쌀
▁트럼
▁던지는
▁에디
▁규모가
터테인먼트
▁평가는
권과
장애
린은
▁엘리자베
▁너의
▁전력을
▁하루카
▁하급
▁구성된
▁휘둘
▁벗어
▁별도로
▁났
▁세부
▁사령관
▁입장을
▁1983
민은
▁거론
거지
정하고
▁유나이
내에
▁중순
들끼리
▁의미는
▁참여한
으면서도
▁갚
▁입대
천만
랜드의
▁길고
토스
MAX
▁피아노
▁프랑스의
본부
▁비율이
▁상식
▁예시
라에게
처리
목록
▁그레이트
▁AN
▁실제로도
▁서로를
터와
▁우리의
플러
▁내린
▁상황이었다
▁아동
비용
연장
▁실사
렉션
▁교도
▁날이
▁대회에서
▁유산
▁소방
▁캐스터
▁해머
▁기생
▁계획이
백이
작은
▁훼
▁PP
▁모습에
▁오스트리아
내서
바야시
▁게이머
하기를
▁대통령이
뮤직
▁물에
하겠다는
▁여객
ype
▁퍼져
▁명문
층이
▁거라
▁철수
▁유닛의
▁86
했듯
▁간에
▁캐릭
호환
▁선제
▁편이며
▁야간
▁시작했고
▁어드벤처
▁이오
즈에
▁시종
▁적으로
▁{{
▁창단
▁통치
자라고
▁이집트
▁Go
▁수직
▁170
▁복제
▁받으면
▁사와
천의
▁ch
▁사용가능
거라
▁육체
▁일부는
▁영혼을
▁못했던
▁막대한
▁바꾸는
해선
박이
▁가질
▁선두
▁전체의
▁당사
▁카리스
▁생년월일
리던
창을
▁초중반
▁어색
▁LA
DX
▁남겼다
▁하반
비전
▁바위
▁연출이
▁싶다고
▁상태에
42
대문
어에
신도
▁가요
▁어리
▁드릴
주인공
▁일단은
▁쌓아
▁호시
▁주된
나베
▁배정
▁캐리
감과
음으로
▁{{{
▁살아있는
▁엄밀히
당은
▁가능하고
▁ML
▁UE
▁흡혈귀
▁얀
텐데
▁시마
▁구간은
▁축제
▁차량이
호로
▁상징하는
▁복무
▁자의
▁모자라
▁낸다
▁부임
▁싸움이
▁김기
▁DE
▁조리
▁체감
▁나이는
레일
▁정반
산역
▁단위
▁팀원
▁등번호
▁차지했다
▁슬라
▁적고
▁트릭
▁기술의
JP
▁튼튼
마로
▁합의
리드
▁1.3
▁수류탄
하루
▁크라이
▁부르기도
ous
▁새겨
▁반지
▁서바이
과가
▁출루
너는
▁측정
▁아닐까
▁순수한
▁인터뷰를
▁밝은
▁아지
▁프론
현은
▁신데렐라
추는
▁NE
▁극장
▁마음대로
거다
▁물이
▁안녕
?!
몬이
▁로버트
▁배차간
클래
▁+10
▁CH
▁취약
니코
▁공장
케이
▁생김
▁인용
▁풍부
▁검술
▁선사
▁치열
▁기사를
▁CS
amp
▁뻥
▁정기
▁세라
▁나빠
도도
▁출신으로
▁전화를
▁형태가
▁애칭
▁하늘을
▁난이도를
▁한가
▁있었기에
학의
▁몰라
리스의
▁SKT
▁코스튬
▁부적
▁우르
▁음모
▁여전
있지만
프리카
▁토미
▁항의
▁사진이
액션
내에서
▁상태의
후가
▁십자
산시
▁개를
▁아군이
매가
▁구미
▁쓰던
구간
▁특이하게도
▁든다
▁호불호가
부키
▁까는
▁좌석
▁싸움에서
▁중고
▁어울리는
비행
▁레인저
▁정체가
▁마유
▁감정이
▁봤을
▁사사
▁관찰
▁긴급
영은
▁마카
▁사단
▁사서
▁플러
강의
▁대마
▁전쟁의
▁시게
▁히든
족으로
▁관여
▁디시
▁싸우게
▁어설
▁모빌
▁편하다
례로
▁말라
▁벽을
▁작품에
▁오브젝
▁않나
▁하프
▁GSL
▁차고
▁레이드
▁소중한
/6
▁지목
ING
▁오우
▁끝났
▁어렵지
▁들어와
▁클라우
▁에피소드가
▁매그
▁드라이버
▁짙
▁kg
▁듣기
▁편으로
▁특전
▁등극
▁서포터
▁잡아먹
체육
▁아무튼
냐면
▁악마의
▁이름도
▁일기
▁평일
테르
▁빠르다
어버린다
▁메이저리그
▁매드
▁많을
▁승차
보우
▁진급
▁깔아
▁주면
▁약화
내어
야와
▁초콜
▁찍고
레어
▁결심
IX
두면
▁굉장한
소와
▁멘붕
▁아군의
▁프로레
▁우울
▁누군가
▁편인데
▁데이터를
▁작품이다
▁재미있는
0000
▁끓
▁단어를
혹한
▁자꾸
했어요
▁교토
목이
▁프로게이머
▁전파
▁낚시
▁안타까
▁맞춘
▁숫자가
졌으나
부인
▁이전부터
▁리스
선생
▁시점에서는
▁먹는다
▁사로
석에서
▁묘사된다
▁시공
▁싸운
▁정예
▁코리아
▁간지
▁공격해
▁수의
곡은
▁사고로
▁올라간다
▁역습
▁차지하고
▁약점을
▁증폭
누리
▁기록은
▁미드필
ary
책으로
▁토너먼트
▁뉘
▁박근혜
88
대교
▁겹쳐
▁일반인
고리
산에
▁주류
▁어마어마한
▁깎아
▁합병
▁움직임을
▁편지를
▁태평양
▁킬러
협회
▁초인
▁왜냐하면
▁언데드
▁머리카락
▁끼고
▁누구도
▁안양
프에
▁붙인
▁느꼈
공업
파워
외의
▁배터리
▁왕국의
▁정화
▁사람으로
▁거북
반을
▁무승
▁양손
▁열리는
계약
▁않았기
▁위주의
▁전동차
▁엔드
▁되려
▁원딜
네시아
줄이
▁신사
▁젖
기준
점의
▁발음이
▁이세
▁골키퍼
▁면역
▁스키
▁시외
본다
▁시체를
▁북쪽
▁축하
▁크레딧
ink
▁낙하
▁학력
▁지키고
▁차량을
▁테니
▁침묵
장도
oll
▁시바
디움
ear
▁표현을
▁항공모
▁서비스를
풍을
▁고증
▁등도
▁소문
▁1,2
▁설명을
강을
▁요리를
▁통째로
▁카네
▁평상
▁블리자
▁스피릿
▁하마
▁야생
▁벌어지는
왕은
사에게
▁의식을
라미
▁일종
▁역사가
산으로
▁거둔
ree
▁꽉
▁겟
▁가공
차에
▁바뀌는
▁주장이
DD
▁Pr
▁손이
▁신나게
▁드러난다
▁스트레
▁스핀
▁무효화
보지
▁클론
풍의
티가
▁다카
▁포스터
▁남는
▁수색
▁소음
▁뜻한다
박한
▁쿠데
▁스탠드
▁최근에
▁일시적으로
▁다큐
삼진
▁쓸모
▁모델로
도전
▁카게
▁끌어올
민을
심의
▁메카닉
▁이쯤
시스템
들고
▁벽에
▁불태
▁동반
▁한국시리즈
당초
레를
▁피규
▁부분이다
실점으로
ai
여행
▁이로써
작인
▁절친
▁없었지만
▁산탄
▁나라를
▁스즈키
▁감싸
▁진행하는
▁중장
▁파고
바르
▁스네
▁고쳐
벽을
▁동경
▁피부
▁학교에서
리버
~10
▁올리고
▁북한의
페르
▁자금
▁아버지와
▁기억이
▁공중에서
▁내리는
▁얼굴에
▁이외에
▁기본으로
92
▁선택한
▁영어로
▁듣는다
▁유출
▁엇
디스
▁얘기가
▁정해진
▁캐치
▁디바
▁유니콘
▁유용한
▁베테랑
학적
어버리고
께끼
릴라
▁아들인
루션
타마
▁차량은
▁제목은
▁치킨
400
▁따뜻
▁빛나는
▁World
▁적게
▁이득을
▁역의
으려는
▁스컬
▁오면
▁벌인
▁맥스
백과
▁오기
철이
▁Sup
▁1,000
▁상태이다
▁기대를
▁생애
▁엘레
▁국내에서
지능
버려서
▁안정적인
▁준비를
▁한나라
▁허무
장난
히메
▁바르셀
te
▁보내고
-16
▁소송
▁87
▁나왔을
▁따라서는
대화
▁40%
퍼가
당하게
개씩
▁Br
▁거인
▁아니게
ero
있다는
시키며
▁잊혀
▁더해
.00
▁하단
▁향한
▁역임
오지
리츠
▁도적
▁뜬다
▁하에
불가
▁베타
▁민주당
▁유료
▁가져다
.16
▁맞붙
▁만드
▁단위로
▁상한
리아를
▁끊임없이
▁공무원
▁웨스트
기면
쉬를
▁세번째
▁일대
▁배운
문제
▁자존
▁안으로
▁평행
▁건국
▁진격
▁이놈
▁하필이면
▁퇴장
▁퍼즐
가면서
려야
메라
▁극도로
▁언젠가
▁특성이
▁유비
면의
▁존재로
주의를
스미
▁슬로
▁다이스
입구
▁고속도로
▁이럴
▁OG
▁한계가
▁돌아왔다
▁트랜스포
▁발로
▁바뀌어
▁제가
▁닌텐도
▁사이클
▁따르는
▁부부
▁TR
▁괴수
▁방탄
▁지향
▁안의
▁남쪽
▁변해
▁철저히
▁랜드
▁뜻으로
루미
하겠지만
▁이케
▁지도자
▁시작해서
▁딸을
까봐
▁펀치
▁이해가
▁황제의
▁코스프레
▁바이러
▁한번도
▁글이
▁풋
사나
▁방사능
막이
▁않았으나
▁안타깝
▁도망치
▁동일하게
색은
▁적용된다
중의
▁움직임
▁이상하게
▁진실
▁사용해서
▁믿을
▁충분한
치아
기며
▁우호
▁버전으로
▁멋대로
▁촌
▁부유
▁극단적인
▁왕조
▁기분이
베리
위와
▁모드를
▁크레이
▁추방
무는
저래
▁분열
▁방향을
생활을
▁사랑의
▁유성
▁GB
▁취득
▁매니저
줄을
평을
▁심사
있어서
▁벌이는
▁슌
▁압권
▁스티븐
▁감수
▁가능성을
▁않는다면
ank
▁결승전
▁닛
▁사용자
너를
표가
▁표절
▁미소녀
▁위반
▁바이올
▁않으므로
86
▁할때
바퀴
▁루나
▁고마
▁닮았다
▁김진
▁시리즈는
▁피해자
관과
▁MF
▁워싱턴
▁공격력은
px
▁국가대표팀
!!"
▁여성의
보인다
관계를
▁데이트
▁Season
▁오메가
▁장성
▁생김새
병은
▁LP
▁싶지
▁뜻이
ah
졌기
▁곡으로
스티벌
온을
▁71
▁체제
작전
▁담배
▁쵸
▁이른바
▁저작권
▁대표하는
▁제출
▁패턴은
▁프린세스
▁le
▁인물은
▁쪽에서
▁PV
▁조언
▁도와주
교사
자이
▁이야기도
준의
▁고무
▁자칭
▁유입
이다보니
▁얇
킹을
▁신선
▁기다리고
아도
▁이후로도
▁94
▁능가
▁평양
길이
레옹
▁받았고
▁84
▁마감
께서
▁가졌다
▁에리
▁끼워
▁이룬
▁시청자
▁언급된다
▁잠실
▁헤르
▁끝나면
뿐이다
▁채팅
조사
▁몰살
IVE
네를
▁대해서도
▁작품에서
▁안심
타점
▁편은
으라고
재인
▁도루
▁결국은
▁공수
▁지리
▁능력치는
▁네임드
▁원주민
▁해당한다
노와
재판
▁다이아몬드
▁lv
▁않을까
▁탓인지
▁가량
들까지
라이즈
면으로
쉽게
▁리틀
미한
▁이어진
MB
ple
▁손님
▁때와
▁수수께끼
.20
십시오
▁기도
▁반면에
▁베를
레븐
▁지고
▁고로
▁프리미어
▁소용
롭다
▁표정을
▁내에서는
노선
▁성격으로
카운
▁BGA
해줄
▁관측
레의
치킨
▁회사의
▁73
투수
▁유적
77
▁후임
버스가
▁???
주교
▁대동
▁틈을
▁말해서
▁외형
▁비스
▁선수들의
▁멍청
▁호의
가에서
▁노선은
리타
문으로
▁박지
했을때
▁애용
ven
▁아베
▁어나
터스
▁레일
▁저렇게
▁프로토스
▁관계는
▁옐
▁선회
노미야
▁브라운
▁간단하게
▁GO
▁지나가는
버리면
▁빛이
▁순으로
▁옵션이
▁끝이
▁독점
-12
▁학부
▁모습과
▁홍진
▁단어가
스틱
▁어머니의
▁감상
▁애완
▁일본이
▁내성
린다는
▁여성이
oon
▁것들이
▁분쟁
▁훔쳐
▁모은
▁아수
▁서포트
▁업로드
▁이쪽도
▁디자이
▁납득
서와
▁분해
▁컴뱃
▁1950
▁검찰
▁by
▁수습
▁시크릿
▁버섯
▁성적은
▁이래저래
▁표지
▁개인의
ey
▁초기에
▁너는
시간에
▁받기도
▁이름에
▁후방
▁발매일
▁82
▁조기
주의자
▁갖게
▁찾아온
▁김해
▁감독을
▁사람과
▁스트라이커
▁강해
▁토시
▁생각한다
▁어째서인지
▁DP
▁거라는
▁DF
아머
▁죄책
~8
▁https
토니
▁칼로
AY
브레이
▁목적을
▁그러므로
ife
▁생명력
▁맞춰서
▁사항은
▁야수
▁과장
▁함락
▁쓰기도
었다가
▁피카
▁실현
용은
▁소속사
▁솜
und
하다면
▁영향이
ool
▁배경이
율은
▁바람의
▁특징이
편은
검사
순위
▁내용의
▁했기
▁라이온즈
▁중량
▁날뛰
▁누군가가
▁승률
▁좀더
▁때문이었다
▁현재도
▁트레일러
▁수단
▁OS
▁싸우고
▁아니었
▁동쪽
▁움직일
▁출시되었다
▁선고
▁호남
▁죽으면
▁여기저기
▁UEFA
▁시즌에
▁데모
녀가
▁능력도
▁디자인을
▁시작된다
▁이어진다
▁라며
▁New
▁때에도
▁일부가
▁부근
▁오페
▁왼손
쿠가
▁우익
▁이렇다
94
▁연구를
▁밤에
▁깨닫고
▁싱가
▁덧붙여
▁무거운
▁우스
▁민폐
▁나폴레옹
▁회색
나도
▁비교해
▁자체에
▁내용이다
▁제공하는
료가
8,
▁경부
▁나갔
▁모두를
▁상성
테츠
▁골렘
▁전격
▁뿐더러
▁개성
▁만능
▁떨어지고
▁무서워
포는
방식
▁뿌리
▁실시간
이후
".
▁기둥
▁가능하게
▁변화를
네마
세와
▁배울
▁헌법
▁플레이어에게
▁디펜
▁전성기
▁왕복
▁내에서도
▁세계대전
▁않으나
▁Mar
▁밀리는
▁선수로
랄한
▁원소
▁지구의
이한
▁일족
IR
▁의미하는
▁진주
▁써도
▁1981
퍼를
▁실력은
▁잡으면
방울
▁최적
초의
▁원작과
▁기껏
▁학과
▁한국판
▁릭
▁신지
▁주택
▁높아서
▁차트
▁시골
▁혀
맨을
▁편하게
▁이번엔
▁진지하게
3%
▁속성이
급은
▁없었기
진화
버드
▁사건은
돼서
▁김유
▁변한
사격
▁달하는
일자
▁방법도
▁불타는
▁다이어
▁통솔
▁지구를
▁연쇄
해온
▁고등학생
▁저렴한
▁세계로
모습
태를
▁브라이언
▁되니
▁복합
▁연대
으신
▁봐서
▁즐길
▁하므로
▁IN
▁미코
▁결혼을
▁En
▁죽이려
▁키요
▁아키라
▁출신지
공화국
▁해치
▁합동
질은
▁쇼핑
▁하시
등장인물
파괴
▁지원하는
우치
▁무소
▁않았으며
▁긴장
▁난사
▁원숭
▁고지
▁사투
▁1979
장치
▁죠죠
▁Vol
▁가진다
▁지역이
▁정상적으로
▁강원도
▁후회
▁올해의
ase
▁문장
▁서쪽
▁And
▁디즈니
▁생각은
▁에일
▁All
군요
▁EN
▁아르바
▁우치
니카
▁파울
▁고통을
▁설정은
풍이
▁출범
▁구간을
▁미국이
트론
▁친척
▁101
▁선수의
▁시작할
▁정치인
▁나뉜
▁리처
▁축소
▁대면
▁분산
▁.4
▁최저
▁전적
▁타치
▁깐
-11
병과
안은
미에게
스테이션
▁8,
▁수비력
▁것이나
▁81
▁3~4
▁승부를
음은
▁점과
▁앰
▁돌아간다
로마
▁이모
▁인민
고기
▁본토
슬라
▁버틸
▁게임으로
▁장신
▁네크로
▁하우스
▁드물게
▁굴러
▁씬
▁피의
▁대다수의
▁꼬리
오버
질적인
▁알려지지
▁식량
▁진정
▁반짝
▁짐승
▁구동
조합
▁잊지
ox
체와
스포츠
▁멤버들
▁형편
▁패널티
▁깨끗
년은
▁패널
▁타이틀을
▁무엇보다도
▁샐
함의
▁실패한
▁적절히
▁죄를
▁집권
▁연예인
▁일어났다
▁IM
현을
▁김포
▁리버풀
▁논리
득점
▁케빈
▁사로잡
▁인해서
▁일으키는
▁붙는
▁면모를
감도
▁부숴
석으로
▁제작된
▁하려
폰을
▁강경
▁섬의
▁등장은
▁우위를
▁반전
▁팰
▁규격
▁일본인
▁보자면
▁이어져
▁복원
▁도착한
▁천천
▁나간다
▁광명
▁레벨을
▁전투력
곡의
테니
▁웬만
▁흐름
▁과거를
▁치고는
▁고려하면
▁다운로드
▁동행
▁로보
▁오렌
슨은
▁섞여
▁하나하나
▁김준
▁시모
▁가능할
분은
▁면허
▁줘
▁SU
▁존재하며
▁이그
▁없었다고
▁닦
대고
타리
▁검열
▁쳤
▁알레
▁춤을
▁속한
▁시뮬
ment
▁박물
▁엔딩을
66
▁배제
▁오노
▁손쉽게
래시
▁주축
▁92
▁그렇기
▁스쿨
이치로
▁블로
▁권유
▁핑크
▁초능력
▁이해할
크라이나
▁마운
▁조차
초가
▁이브
▁창작물
테이션
▁an
▁공인
▁뽑는
▁이름만
▁모르지만
처를
▁가령
▁착한
▁모습이다
형인
▁추세
▁들어보면
▁아직까지
SS
▁표현이
모스
감으로
▁덱에서
초로
▁IIDX
▁방식의
▁최악
▁교육을
▁뽑을
패스
▁역이다
▁등장하고
절을
▁유물
류는
▁무자
▁틀린
▁아가씨
VER
▁로고
▁마을을
▁방어력을
▁엉덩
▁참모
츠카
▁주행
▁코미디
좀무
▁전남
▁대부분이다
▁On
▁충격과
▁중동
복지
▁큐어
변이
▁스탈
▁임대
▁위와
▁제왕
상가
▁판다
▁내부에
▁대결을
▁추측이
▁나누어
마귀
히기
▁사촌
▁놀라운
▁누구나
▁79
▁에밀
▁오스만
운수
▁믿는
▁승무원
▁클린
▁딜링
▁전쟁에서
▁활동하고
▁식민지
병에
▁카지
쪽이
▁올라갈
▁Ad
uk
▁돌고
▁명칭이
▁트랜스포머
▁둘러싸
▁감이
▁보험
▁드립을
▁주인공과
▁엘리베이터
▁차원에서
▁게시판
▁일하는
▁믹스
▁약을
▁원수
▁직통
▁입문
▁모드로
▁출마
대체
▁듣게
▁플라스
▁포인트를
▁뜨는
▁싸웠
▁헬멧
▁분노한
▁분노를
▁적당한
시간을
금으로
▁요소를
▁현대의
▁밝혀진다
들에서
▁먹었다
▁여섯
▁앓
▁이쿠
▁기름
▁올바
▁샀
초를
티의
▁살던
독한
▁가자
▁뭐가
▁필리핀
▁신부
▁힘입
▁않으니
▁차이로
▁프랜
구장
▁소꿉
▁노래가
담이
▁아스날
▁하긴
▁네트워크
▁비전
▁드로우
메이트
▁실점
▁끔찍한
만도
▁요한
치고는
펙트
▁침투
아나
사리
▁색이
▁내부의
▁구름
▁놀랍
▁소유자
▁시작하면
▁잃어버린
오기
▁로우
▁미드필더
▁마징
▁이곳에
▁로맨
▁이겼
▁해병대
티즌
▁유용하다
편으로
▁특화
▁없어도
▁올라왔다
▁경기장
자동
▁쫒
▁시가
▁끝났다
▁레이스
▁부동
▁브래
▁기술이다
▁360
▁걸그룹
.19
▁리드
▁육상
▁룩
▁주목을
▁골라
▁별명을
▁맡는
▁들어가지
▁압축
했음에도
▁사람이다
거든
앨범
채로
리즘
▁츄
▁조언을
▁않았는데
▁인가
▁강간
.....
▁약혼
▁강도
내면서
▁뿌려
▁후미
▁빠지는
엘의
▁못지
▁인스타
▁BE
▁건네
▁바나
애니
▁빌런
▁시작되었다
▁예쁘
▁인상을
출을
▁때만
▁터널
▁Day
▁이전까지
▁권력을
▁문제의
▁봉쇄
▁미국은
론가
▁여기에서
▁침몰
▁한꺼
▁초콜릿
▁웰
▁넘쳐
▁어드밴
▁아이들을
▁논쟁
▁병과
▁여론
▁흰색
▁영주
▁정부는
▁꼬마
▁이기고
▁됨
▁실수를
▁힘의
▁상태다
▁수장
▁얄
아라
중에서
▁전날
▁만렙
▁파츠
▁이라크
▁부산광역시
▁슬픔
▁신세
▁웃는
▁영화가
파와
▁라스트
▁다르지만
▁와이번
▁대가로
퍼의
호에
▁급행
▁무역
▁살인사건
▁심의
▁활동하는
DP
▁힙합
개는
버스터미널
▁캐릭터들의
▁리오
▁밑에서
64
▁투사
lect
▁후쿠시마
▁국내에서는
▁Man
모는
▁울프
▁스트리
▁매장
▁상하
:5
▁전대
▁폭행
▁답답
▁유비트
서스
자책
훈의
금은
▁노바
▁랄
아닌
▁비행기
▁이병
드라마
▁상태이상
▁그거
환으로
되지는
▁기적
연속
커는
▁라스
▁비가
▁경주
▁우크라이나
▁않는데
▁선진
토에게
▁뿐이지
▁퍼스트
▁가리키는
▁백업
▁아포
시기
▁높을
▁어려울
오면
▁양이
▁혼혈
▁남아있다
거가
▁파크
하고도
▁경험을
▁가성
▁탐정
▁피로
▁면도
▁당대
거의
▁하였으나
▁마치고
시내
▁구형
▁종결
▁떨어졌다
▁추천한다
▁한꺼번에
르도
▁89
▁리플렉
▁악명
▁시대를
▁퍽
이나마
yle
▁그도
▁황제가
▁여우
속에서
▁NBA
▁스카웃
▁양반
▁쿨타임이
▁조금이라도
▁문제다
▁입지
▁우측
공으로
▁마음의
이었기에
▁아르헨티나
련의
▁문제에
▁흥미
▁담은
기자
▁토요일
플로
▁이대
▁페어리
▁나타내는
▁탈취
▁없다며
▁들지
▁츠키
과대학
▁통틀어
▁텐데
▁가히
▁세팅
▁보이스
▁뒤의
▁띠
법의
▁식사
▁천천히
본을
▁분신
▁유미
▁목걸
ME
▁전향
▁코멘트
▁간섭
▁아유
▁할지
we
턴에
배의
▁싸운다
▁장착한
타인
▁멤버가
▁열매
접한
▁마스코
션이
▁주위
▁흠좀무
▁고난
ike
▁자제
거라고
▁대선
bl
▁선임
되었다가
▁등장해
-17
▁타이거즈
▁몸으로
▁돌연
▁심각하게
▁페르소나
내려
▁통하지
▁나기
▁미쳐
▁어그로를
▁드워
▁싶다는
▁덕분
▁아자
▁파란색
▁모순
▁짬
카게
ich
▁빙의
▁오죽하면
▁수동
atch
▁보스로
▁뽀
수리
▁용자
코에게
▁하였고
▁엽
▁전쟁에
▁평소에는
▁학교를
▁별개의
▁신속
우스가
▁125
▁갇혀
▁열고
▁주인공으로
▁6.
▁초상
▁도시를
▁주며
▁센트
▁바리에이션
▁던진
판에선
조선
▁지연
▁900
누스
▁라이트닝
▁천하
▁저주를
▁시에는
▁미사일을
▁땡
버렸고
▁행동이
▁떴
▁김일
▁추측된다
▁아이들이
▁페스티벌
리칸
ence
▁중거리
그가
▁레이븐
▁마을의
▁대가
▁딜을
체스터
▁워리어
▁요즘은
▁Part
way
▁경력이
▁그란
▁역이
▁이곳에서
보며
▁모음
▁장례
▁정도만
▁칼리
▁많다는
▁불참
▁NH
하기까지
▁경전
▁존중
▁캐시
지사
위인
now
▁다시금
▁잘하는
▁사키
▁보건
▁없기에
▁리볼
▁제라
▁판정을
▁갖다
▁호러
트랙
▁ON
▁여자를
▁랑
▁서식
▁있겠
화에선
주면서
해야만
▁속성을
▁첫째
▁갔다가
:20
▁팝픈
지수
▁남동생
▁씻
탄은
▁AV
▁소중
다보면
들한테
센스
▁같다는
▁보스가
에요
▁구울
▁사실에
▁것입니다
▁멤버들의
대신
▁노스
민족
▁말과
▁일어난다
▁마찰
▁스스로를
▁목적은
▁이벤트로
~1
▁강원
▁뱃
▁퇴각
왔다고
▁NT
▁일행과
▁카테
▁영양
변을
▁큐브
식과
▁위성
습니까
▁후보로
▁햇
▁껍
▁소라
▁쫄
▁다닐
▁달라진다
카드를
왔을
키스탄
▁좋다는
▁네티즌
▁일관
▁사용되었다
▁헨리
▁본래는
▁츤데레
▁재건
▁직전까지
▁이기는
▁대쉬
▁아까
▁로리
▁서번
▁억울
▁트래
▁기숙사
국민
하듯
▁채보
▁의지를
쾌한
▁작중에서는
▁굽
▁김용
▁플랜
▁곳곳에
개나
▁포스트시즌
▁핏
.5%
▁약하다
▁작품으로
▁보편
▁코노
다시피
▁반란을
▁클리셰
달라
▁스탭
타수
▁인간과
▁어머니는
쿠의
▁손해
▁건물이
마도
▁아시
▁여러번
받게
▁캄
▁체결
▁본다면
▁바꿨
▁키우
▁0.2
▁방식은
▁사망했다
인방
▁말고도
▁저글
▁캡슐
▁심해
▁여캐
▁떡밥이
▁개척
시아의
▁남게
▁허리
▁떨어질
▁고소
▁오른손
▁샷건
▁위해선
▁전체에
▁실용
▁원시
▁되어야
▁두드러
런스
▁Cr
▁한국은
▁발표했다
▁보드
성한
▁냈다
리포
▁소장
▁남매
▁뻔한
▁중지
▁노릇
▁성향을
▁까다로운
▁몰고
▁유나이티드
▁선출
시키지
.17
▁국가가
▁시리아
▁옴
▁we
▁비롯해
▁이가
니아의
▁가능하다는
▁노린
밀한
▁없어진
▁장남
▁턴에
▁상당수
▁미래의
▁얹
▁포탈
▁뮌
▁루이스
상승
ode
▁일컫
~7
ans
▁일본군
망의
▁돌아다
▁목적이
▁있을까
▁탔
해버렸다
때도
▁묶어
▁포함해
▁장본
▁항공기
▁III
버스를
▁시간대
▁감독으로
▁상냥
▁에메
등으로
적이며
년식
▁구역
▁의문을
▁그렇기에
▁재수
▁충격적인
▁모스크
▁최종적으로
▁할아버지
▁와타나베
▁조건으로
지대
▁발사하는
▁데이비드
▁주최
▁대해선
포인
프레임
▁모종의
무지
▁방영된
▁흙
▁태워
▁리버스
▁비스트
▁받았다고
청을
▁우정
▁시작해
▁유기
▁아이디
▁하루에
▁사정이
▁매주
▁도덕
▁운명
▁감동
출연
근이
볼을
채널
▁이카
로이
▁해산
▁EXT
▁1945
.14
▁작가는
▁노부나가
▁모집
▁통계
에게만
▁전작과
▁FM
▁그나마도
ork
▁임진
▁사업을
▁세일러
600
ens
ition
▁붐
▁주무
▁외계인
▁샤를
그를
▁아버지인
▁되돌아
▁비공식
▁올라간
▁툭
▁웃음
▁불리며
▁본작의
▁긍정적인
▁러시아의
▁베지
▁단독으로
▁반동
▁강하고
▁만나고
▁정권
▁버전의
크로스
84
▁화산
▁인피니티
나요
즈카
사들이
차의
▁업적
▁행정구역
iver
▁발키
▁즈음
리스타
▁걸즈
▁경호
▁신발
▁USB
▁것인가
▁오니
▁떠난다
▁비난을
글을
▁토리
플러스
▁후원
▁캐릭터인
동맹
이크를
▁부자
▁되었던
▁예산
▁유학
스와의
▁했다가
▁예전에는
▁소환할
해하는
▁패배한
그레
번째로
패턴
두로
▁80%
▁벡
▁단발
▁패배를
▁피하기
터에
▁at
▁노인
▁막강한
▁확정되었다
▁벨기에
엘이
관계가
▁돌아갈
:10
▁복선
▁원피스
▁너머
▁학습
▁행방
▁떠돌
▁시즌이
+2
▁공포의
거래
▁전담
▁성과를
▁취업
▁공격속도
▁있어서는
▁83
▁휴식
▁불리한
차전에서
무로
▁때를
▁원작에서
▁후유
▁찾고
▁인챈
▁확산
▁노력을
▁그리는
▁트러
▁소규모
▁교류
▁불멸
니버스
▁찍을
▁Mi
▁특징은
▁Ed
▁카피
▁다루고
▁마우스
▁약속을
▁그후
▁적들이
▁모르겠지만
▁격려
▁마틴
집에서
▁무방하다
▁상대방을
▁얼라이언
총을
▁살게
▁단검
지므로
▁실린
▁문제도
화되었다
05
▁생각하지
▁주문을
저는
▁다국어
어버렸다
량도
시에서
▁미션을
가요
비치
히토
▁DJMAX
사냥
견이
▁생체
▁규모의
▁철저하게
▁감탄
▁One
▁공용
▁원래대로
▁깨어나
▁0.4
▁화재
▁대기업
▁딸이
▁팬이
값을
▁짧게
▁아나운서
▁없습니다
▁캣
카페
▁고성능
두를
▁가루
▁갖춰
▁마땅
들어가
▁모아서
▁일행은
▁영향력을
▁유저들
철의
▁억제
inal
▁세레
▁입증
▁바라는
애를
▁방위
▁해양
시대의
▁전송
IL
량에
▁당연하지만
▁내지는
공주
▁설치되어
▁곳도
▁마산
▁키를
▁우루
▁부분도
▁히로시마
사라
▁착륙
▁새누리
▁여부
▁학교의
▁AA
▁이르는
쿠로
도라
▁교차
▁리스트
▁힘입어
하였지만
▁톨
▁10.
▁급격히
▁포함된
희는
니즘
립스
-14
▁남한
▁스티브
▁없었을
▁쓰이고
▁힐러
▁인류의
소모
오자
▁변한다
▁영웅이
테크
▁버서
소리가
▁이리저리
으려면
usic
▁줄거리
▁질문을
▁장타
▁포터
▁게이지가
▁보좌
무스
▁높지
▁밝혔
▁고블린
▁있음에도
▁주니어
▁하도
▁발레
▁매니아
▁가챠
▁타카하시
▁신경쓰지
▁돔
▁것이지
aster
▁박성
▁완공
적이지
조와
▁부천
▁미국과
▁홋
▁실패하고
창이
위권
하하
▁케리
▁포장
▁선수들을
!?
▁이마
▁플라이
▁사이로
▁마을에
▁인공지능
▁알지
MC
▁멤버로
▁보스를
사다
▁시상식
▁플라즈마
▁마물
▁줄여서
책이
▁실려
▁일요일
▁시리즈에서는
:40
▁남자의
배차
▁계략
링은
ail
▁프로야구
▁1978
팀을
어택
▁고등
orn
▁총합
91
▁인연
▁선보였다
동에서
▁테이블
그의
층을
▁아쉽게도
▁이번에도
불명
에다가
▁인간은
▁별명은
▁마찬가지다
가기
있다고
▁알려졌다
▁박명
▁찔러
딜이
▁과언이
▁지역으로
▁주인공에게
▁타이밍에
▁상관없
▁에디션
▁오고
▁군단의
▁발견한
▁쓰이지
▁눈의
▁리뉴얼
▁병력이
▁대령
▁버릴
▁세우
▁안겨
▁밖에서
▁종류가
▁플레이할
▁녹아
▁굶
▁조종하는
▁모듈
▁발각
▁가져온
더는
▁특징을
▁최연
▁해명
▁능력치를
▁엠블
▁DPS
▁Up
▁점유
igh
▁마스
기다
▁미남
때마다
래의
▁국경
계와
아트
형과
▁가담
나에게
▁두는
▁궤적
▁친다
권도
▁장관
▁팁
▁아사히
▁그릇
▁주자
▁토니
▁프로그래
▁마족
▁탄압
▁검은색
국과
딩을
▁만주
▁쏘아
행정
▁전반적인
꾸로
.30
▁팡
하르트
▁때려잡
▁점수가
▁어머니를
▁제안을
▁믹
▁경북
▁불과하다
▁제목으로
▁합리
▁공부를
▁테크닉
각의
▁김승
▁인벤
제작
월까지
▁쓰러진
▁콘텐츠
▁보낼
▁섞어
▁운행하는
EL
▁뚱
분한
▁주관
▁잦은
초부터
보라
▁청주
▁터트
▁휩쓸
가루
▁Ph
▁세컨
▁즐거
버의
▁사다
▁낮고
▁1.4
▁루비
▁받아야
▁늘어났다
▁사라지는
▁마모
제도
플라
▁93
▁특수능력
▁근대
▁특급
▁나뉜다
▁공헌
▁인게임
▁무난하게
IK
▁잘만
볼루션
량과
▁벗겨
▁철학
ib
▁얼마든지
▁버스를
▁뚜렷
▁자를
▁츠쿠
렸으며
▁충족
▁표정
▁불어
▁흑막
▁당시엔
갤러
▁다리가
▁어찌보면
▁전망
▁호수
온은
▁용도
▁않았다면
▁입에
▁쳐도
▁보라색
▁신을
▁철도역
법인
▁추리
할만한
▁몰아넣
▁한국과
자이다
▁미만
FL
▁이경
▁군의
▁나라가
▁그렇듯
생명
▁현실의
심에
wiki
올림픽
▁하나같이
신에
▁마오
▁곤충
▁맛을
▁지점
▁무난한
▁문서로
▁스텔스
▁Super
공에
▁실패했다
▁달의
▁김두
▁철갑
▁뜨거운
▁시리즈와
형에
▁터라
츠와
▁Mag
▁선호하는
▁우회
▁모션이
▁히로시
활동
▁돼서
▁매각
▁야마모토
▁달인
▁독보
자리를
▁학생들은
▁중력
리스는
▁간파
▁파동
▁과격
▁길다
장군
▁강림
▁위안
▁매출
▁중대
▁직선
▁불만이
ep
▁짓는
두의
anc
▁공업
도서관
▁너클
▁이윤
▁축복
▁스코틀
▁영원한
▁유지하는
▁오케
▁이듬
차이즈
르타
리아는
▁속해
▁여태
▁콤보를
중이
행성
리스가
▁공대
41
▁친애
▁옵티
▁프롤
만큼의
▁구조를
▁레이블
▁정신적
▁등장하여
▁뺨
▁버텨
▁나왔고
▁날린다
사우루스
▁인조
▁아래와
▁만들어졌다
▁내게
▁Or
그래도
▁재능을
즈에서
ung
▁상대로는
▁->
▁출산
▁1.0
▁순서대로
▁정도에
▁RA
▁주인이
다며
▁따위
▁방을
▁지혜
▁없지
절이
▁속도는
▁슬퍼
▁운송
▁원로
▁짝사랑
쓰고
▁노말
▁깔끔하게
▁반쯤
▁심히
▁평소에
▁초필살
-19
▁레이싱
노리
린과
학년도
장면
혼의
▁부실
▁하수
▁되어버린
CE
uck
▁바이러스
▁인도네시아
▁포로
▁이대로
▁게임이다
PER
▁저는
▁두꺼
▁시의
▁뮌헨
▁1.6
▁차이나
▁겪은
▁문이
인민
▁노조
▁점에
▁생략한다
▁LO
▁al
▁조상
87
▁소우
▁ne
▁스기
▁박아
▁작고
▁화폐
▁문재인
▁터지는
바위
ise
▁궤도
▁반도
GA
▁이때부터
▁모양이
경기를
▁상대방이
▁소련의
▁않다고
▁읽고
▁사악한
귤러
▁대시
▁일곱
▁성격의
▁순간에
▁아마추어
스틴
▁유언
▁토큰
▁입는다
▁라면
▁번의
▁조카
차기
▁10,
▁밀어붙
보호
골드
▁수상한
▁드러났다
▁루머
▁아랫
▁알았
▁메이지
▁유우키
에른
▁도서
▁중견
못미
▁크롬
▁장미
▁생명의
국인
들여
▁Con
▁유니버스
파에
피의
▁섬광
▁강호
▁헬리
▁적군
▁은폐
▁토키
▁방식이다
▁미소
▁늘어난다
89
레오
▁부위
▁언급되는
조각
▁고사
▁마코토
말이
▁사에
▁엘더
고교
훈을
▁특화된
▁최정
구조
▁운동을
쓰는
추가
▁측의
▁인물들이
▁ex
▁방송에
▁거꾸로
▁생방송
/12
▁회사가
해야한다
▁하늘의
의의
▁번째로
▁모양으로
▁엉뚱
좋게
파일
▁묻는
▁미성
▁마지
▁좌측
▁스태프
전용
▁있음
▁비용이
▁종영
리에서
▁맡았던
▁are
▁들어가게
하로
▁동해
▁올라와
▁텍스트
▁이처럼
▁중소
▁팬들도
vel
▁공간을
심은
▁줍
▁오를
▁1973
태가
▁꾀
덕션
루트
▁따르
▁필요로
워하는
▁김수
▁놓여
▁미궁
녀의
처가
oun
▁미러
건은
회초
▁노는
▁알기
▁출혈
▁토크
▁눈앞
▁강렬한
▁시험을
타에
▁우유
개조
▁쳐서
▁수준은
CH
파티
▁순환
▁신한
▁복사
▁과정이
▁초에
▁귀국
▁손상
오게
▁다이스케
맨은
▁So
▁읍
▁이현
확률
▁부대를
▁펭
민과
▁이빨
▁Ap
▁분홍
주기도
82
▁NO
▁주술
▁특정한
▁날아가는
▁고장
▁이듬해
▁명칭을
바는
▁+5
▁몸통
▁쪽을
▁하스
▁어려움
▁최종보
▁개장
▁전수
사이즈
▁원래의
▁진행되는
▁+3
math
▁보냈다
헤이
액을
900
체제
▁부담이
건설
▁들어서는
▁감옥에
▁약점이
이다가
▁Dream
드에게
신도시
▁하인
▁위력은
▁쉽고
▁만화를
▁발매한
▁제치고
▁발사한다
▁지지를
▁얌
▁노무
▁이도
▁스테이
▁엉망
▁지우
▁가깝게
.13
▁불타
▁초등학생
▁IT
▁연결되어
스나
▁터보
▁나루토
▁마피아
념을
▁녀석이
▁최초수록
있기
▁9,
▁뛰어들
▁젬
▁많았던
▁자료를
▁이외에는
▁상황에서도
▁멀쩡한
▁남의
▁선수들
▁키미
▁무료로
▁타이밍을
카라
▁고르
▁흉내
▁아니야
▁산다
영과
제품
▁상담
▁승리로
▁오이
▁기부
▁iOS
▁나고야
▁담아
▁묻혀
▁모의
▁시작하고
▁이용하면
▁작아
▁그보다
43
▁하치
▁상대하기
▁게임에서는
더링
행위
▁탐색
▁신동
▁너를
▁레벨업
▁힘에
▁소원을
▁제작사
▁모른다는
었기에
▁둘이서
사이어
▁개가
▁비참
▁신생
▁한대
빨리
여야
코치
화도
작에
▁삼고
▁무언가
▁민주주의
▁일레븐
▁오르는
▁죽이지
▁피닉스
▁지속적인
화하는
▁JT
▁다른데
나리
able
▁것에서
▁대학생
▁실로
▁씨앗
▁일산
▁가이드
▁스콜
▁이소
메다
▁냉장
▁덤벼
▁요격
▁자원을
겁게
▁날카로운
▁없어졌다
▁넘사
▁비중을
▁항해
항을
어에서
일차
▁보이기
▁정원
세계의
▁이름과
▁다큐멘
▁심하다
▁개명
밴드
록을
▁마력을
▁화해
당과
열의
▁난무
는다면
롭게도
▁주의하자
49
▁쓰리
▁진행된다
▁치바
▁소수의
▁믿지
▁선동
▁부패
범이
▁바둑
▁소프트웨어
수준
▁솟
▁전인
▁모인
▁발견하고
카나
▁안타를
▁시기가
환은
▁에서는
ron
▁연산
▁때문인
▁라이언
중국
.26
하늘
▁눈동
▁서머
▁에미
▁내렸다
▁화살을
노동
가이
▁모드가
몬을
▁TP
▁보상으로
▁탭
▁CM
▁순천
▁트라
오면서
▁도쿠
▁상대하는
▁주저
/7
▁적힌
▁야마다
▁답게
▁많다고
▁리즈
▁조커
▁아이들
▁해군의
▁드러내
▁이루어졌다
▁거짓말을
만명
▁정석
▁와중에도
▁소니
▁입주
텍스
▁안개
▁남학생
▁전력이
공간
▁나왔지만
▁인정하고
▁대부분을
▁목소리로
재의
▁up
▁공이
▁싸이
▁부탁을
▁이후부터
▁안정적으로
▁펴
스크롤
▁타이탄
▁위험이
룡이
ale
▁해당되는
포와
▁스칼
▁스매
▁쪽의
▁도시의
▁메트로
▁전개가
▁바이에른
▁발급
▁안고
▁통하는
공은
▁메디
미디어
▁의도적으로
ject
▁밀리언
▁하느
▁DI
에의
합을
▁진지한
▁진행된
▁0:
▁판결
▁보스턴
▁논의
▁복장
▁먹지
▁출동
▁배수
슈타인
자유
▁수천
▁측은
마나
▁저스티
▁발생했다
▁아이템은
▁봇
맥스
▁결제
▁제너
▁기체가
▁맞았다
▁어레인지
▁어렵게
▁페이크
▁활용할
int
▁표정이
▁아쿠아
팀은
▁음료
▁그려진
▁강릉
▁마계
▁나뉘어
▁이쪽이
▁정책을
▁지못미
▁활동이
ier
▁나락
▁전략을
고생
▁이름인
▁설정으로
▁이르러
ose
지옥
▁도깨
▁암시
▁신중
▁애쉬
하더니
▁능력에
▁아담
▁갈리는
urn
년동안
▁국어
▁트윗
▁힘은
▁어나더
▁기후
▁샬
하세요
▁떨어져서
▁쓸데없이
셨다
▁넘사벽
▁방어구
▁이루는
▁1974
ild
▁드러난
▁만나서
▁사람이라면
▁할로
▁영화에서
ult
▁침착
▁시카고
▁후술할
연맹
디와
▁어렵고
▁관계없이
▁김병
▁닐
▁유동
▁챠
▁앤드
우스를
▁갈색
▁운영하고
▁아폴
▁나서는
▁짠
리니
▁성씨
▁집필
▁Team
▁유틸
▁조약
▁초당
▁무언가를
▁그들
군주
▁스타워즈
올라
▁봐서는
하와
▁조던
▁최전
▁베이징
▁사이를
▁맡는다
▁그러면서
▁공중에
리시
보에
▁묘지로
대대
왔는데
▁눈으로
▁말고는
▁무시할
▁발견된
▁오른팔
▁올라오는
▁백제
▁필드에
▁브레이브
▁이동하는
AB
▁교장
▁스카우트
▁띄워
▁근원
▁도우
▁아비
▁108
냈고
▁1%
▁호크
▁MG
▁고립
▁상주
가타
키스
▁그곳에서
▁남지
▁망설
▁미묘한
▁직행
▁찬양
게리온
미즈
카타
▁창을
▁ERA
▁있는게
▁담당하고
그마
▁양자
▁전당
하신
▁목이
▁김성근
▁이원
▁섭취
▁앨런
▁효과도
▁고집
불능
▁CR
▁병역
▁용산
~200
▁유럽의
▁지나친
▁보여주기도
▁조치
워치
피는
히며
▁밀고
▁이방
음의
작품
▁경의
운동장
구니
▁Ver
가족
해요
▁감추
▁완벽히
~"
▁말레이
▁도감
▁아픈
운드를
▁준수
▁걸리면
▁붙어있는
▁잘생
▁1.8
▁유닛은
▁고아
▁시범
▁드래곤의
▁AL
▁수석
▁주입
렸으나
▁어스
실험
▁이단
▁환생
쪽에서
▁판매하는
▁앨범을
▁실내
▁치료를
▁못했지만
머신
코스
:50
님은
되어야
▁로스트
▁능력과
-18
▁카사
령으로
▁맞추는
▁제작진이
▁하후
▁벌어졌다
국제공항
▁위상
▁들어가기
▁친구인
머리를
▁장난감
▁간접적으로
▁떼어
▁앞선
업체
▁91
▁잡몹
▁연고
oh
분간
▁숙청
▁채찍
▁학생들의
자다
▁킹덤
년과
▁일조
▁지구에
▁도망가
▁이타
▁읽을
▁되었으나
▁병행
▁짧아
▁대체적으로
▁중부
▁지루
▁패치를
적으론
▁기간이
모션
▁해소
▁말하자
대구
▁약칭
▁이름이다
▁오게
▁움직이지
▁재미를
격인
례가
▁급속
디지
▁해준
▁발생할
▁피어
▁시위
▁생명을
▁지내는
두에
▁악화
▁세계가
▁키우는
하자는
▁신비
▁예수
▁MSL
기병
▁덱을
▁성배
▁개수
▁호감을
▁인생을
▁힘들고
역까지
▁보낸다
▁삭제되었다
▁중화민
▁타입의
▁다행히도
▁희대의
견을
▁고우
▁모던
▁수술을
되서
▁돌리는
▁순정
▁피난
▁시오
▁쥰
네이
▁상태이
▁안젤
▁인텔
▁태어났
very
▁라인을
▁자체적으로
▁350
▁외곽
▁CL
▁본능
티콘
▁훈훈
▁쓰였다
▁터진
▁붙었다
▁대량으로
벌을
▁얼티밋
▁스쿼
▁무엇을
▁느끼게
찮게
▁박진
▁서태
▁대변
▁니코니코
▁애니메이션에서는
질에
▁지극
▁리본
▁다가가
▁향후
지던
▁재앙
▁테일즈
▁스타일의
▁실상은
▁pl
▁tv
▁원인은
▁피오
▁중에선
▁비정상
▁호랑이
▁노선으로
▁막혀
성에서
▁더러운
▁숨을
▁피스
▁빨아
▁영화에
▁피니
▁128
▁베를린
진한
▁명은
▁미식
▁유메
▁입구
▁일어나지
▁국내에
▁뛰어나다
▁읽는다
▁공짜
▁삼진
▁1975
▁적용되는
▁에어로시티
레이트
▁무식
▁변호사
▁고대의
▁듣지
▁안하고
▁통하여
우로
▁공교
리스크
▁노란색
▁게르
▁계단
르면서
▁벗어난
▁필요할
▁동력
▁맞물
▁금강
▁명탐정
▁플레임
▁공간이
▁리그에서
▁것들을
▁목표를
▁존재하는데
▁탕
▁해태
▁두루
▁70%
▁못하다
▁꿰뚫
▁바닷
순환
▁고고
▁만나면
▁마법으로
▁동계
▁유머
▁기를
▁놈이
▁곁에
▁필사
▁중국에서
▁에반게리온
형제
▁연맹
▁유탄
▁흐르는
▁워프
▁용암
▁정교
▁캐릭터에
sc
▁상술한
▁오류가
▁바꾸고
해버린다
왕과
리프
▁말씀
▁버스트
▁가족을
▁beat
▁사법
▁돌아올
▁그렇다면
▁0.8
▁일례로
▁학생이
▁분대
▁차체
~30
▁극초
자이자
▁다시는
전공
▁무궁
라에몽
메탈
▁폴리
▁Night
▁온천
▁멤버들은
▁디자이너
▁플라스틱
결승
▁대수
▁두번
▁캐릭터들
▁디아블로
▁노골
▁먹여
▁성공적으로
▁수록되었다
▁OF
▁극한
사령관
였으니
술이
▁빌리
▁지켜보
▁내뱉
▁한계를
▁관리를
됨에
▁대피
때까지
▁양대
▁역할은
▁강탈
▁이동할
▁성의
▁슈트
▁예약
▁껴
▁트랩
▁써먹을
▁하나에
01
▁높여
▁마케팅
률은
▁대명
▁글자
▁60%
▁유즈
▁더구나
▁시작하면서
▁비판이
▁가오
▁두뇌
▁리카
▁토대로
▁무시하는
oug
▁병원에
▁카가
▁FPS
가수
칸센
▁고스
▁90%
▁재발
활약
▁정형
▁누르고
▁스바
▁단점은
▁브라더
▁붙어서
▁경험치를
▁정신나간
▁불릴
▁MM
석과
▁전제
▁115
▁동아리
▁세월호
전에서도
열에
▁갖는
▁미녀
▁청춘
▁바뀌고
스럽다
▁의미의
전도
▁마지막에는
.22
피안타
▁산맥
▁이틀
▁개발된
당시
▁To
▁가치를
.1%
▁받았던
▁우주의
▁대표적
▁이른다
▁퀵
▁Fr
반에
▁강동
▁싶어서
▁피지컬
▁농업
▁두개
▁1.7
▁LTE
해볼
▁sp
▁산하
▁히라
▁줄어든
▁스마일
▁미칠
▁MB
▁스윙
▁소환한다
▁배역
▁Col
▁작품인
▁도대체
▁프랑스어
▁항목에
▁획득할
▁보여주지
모어
▁명시
활동을
▁동료가
바다
▁TS
▁않자
▁이별
▁물건이
▁0.7
▁법을
▁돌아온다
산은
▁AB
▁신하
▁아내가
▁쥐어
파인
▁무작정
▁유사하다
▁수감
▁무기에
83
▁오딘
▁롬
▁다투
▁벤치
▁오렌지
▁추가된다
▁등재
▁코인
▁부스트
▁것이지만
▁잡힌
▁여기고
시민
▁아군을
▁can
가인
기면서
▁3.0
대륙
삼아
iel
▁자기를
▁당초
글라
▁이때의
▁가사를
▁개념을
샷을
▁것이니
▁차이점
▁김전
▁도트
디스크
불명의
자로서
▁걸려서
▁하는게
▁독일어
▁그랜
▁날린
▁여기까지
▁드루
라든가
했으면
▁1200
▁무도
▁여파로
년부터는
▁유닛으로
▁all
▁스나이퍼
▁과시
▁벌써
▁군수
▁이태
▁카카오
▁갯
▁소생
▁메이커
▁랜덤으로
OO
▁국회
▁남양
▁하행
▁사진은
▁주제로
▁나이를
▁스토리는
요리
▁놀러
▁차원의
▁모두에게
상태가
▁인원이
▁줌
▁야구장
사구
▁김광
▁소속으로
▁나눈
▁샤오
▁입사
기동
▁샘플
▁시킨
▁총리
안으로
▁기원전
▁활약으로
현과
▁자책
▁플러스
ign
▁공식적인
▁리믹스
▁1976
▁탁월
곡인
▁7.
▁선수들은
▁싫어한다
▁트레이너
련을
미츠
▁경찰이
▁연관이
▁기록하고
금의
리치
▁%
▁시대가
▁조선의
▁나타났다
이라고는
▁비슷하지만
▁백작
딜을
보그
고와
▁스크롤
▁살펴보면
▁1977
문과
▁늘어나고
▁깨알
▁리부
필로그
▁역할로
▁놀랍게도
▁시작부터
▁허가
염을
▁영등
▁덕후
▁뜻은
▁보이게
▁언급을
▁Type
▁신칸센
해라
▁치러
▁넬
▁물의
▁전두
▁기준으로는
▁프랭크
▁Girl
▁공감
▁동성애
▁부분의
▁역할이
▁헥
▁밀레
▁블럭
▁식품
▁{{{#
▁플레이하는
▁디자인은
▁no
▁걸릴
그리고
▁적립
▁일품
실과
▁GM
▁아슬
참모
이는데
▁수립
토시
▁깊이
▁공격력의
▁포지션을
▁들자면
▁Black
▁방송국
▁배리어
▁경상북도
자였던
훈은
▁리셋
▁실험을
▁태어났다
호쿠
▁영혼이
▁있다며
▁경향
▁중시
▁초청
타워
▁모두의
▁어긋
▁비판하는
▁뮤지션
▁나레이션
니클
짓을
▁높지만
▁폐선
버스의
검의
▁조합이
co
▁맥주
▁소속된
그런
없어
▁비밀을
▁입힌다
▁그마저도
700
▁초과
▁캐릭터이다
조작
▁따져
▁상행
놨다
측의
▁퍼펙트
문에서
▁KTX
▁장면도
▁전차를
▁마하
▁퇴치
우드
▁친절
▁낳은
▁얼어
▁종사
▁넘어갈
▁별칭
▁몇번
차지
▁다케
▁혈통
▁중학생
▁트러블
▁경기에서는
▁공격력과
▁사회주의
ye
▁여유가
▁프랜차이즈
▁텍사
▁유저의
▁주변을
▁공교롭게도
무게
▁아니냐
▁175
▁트릴
한지
▁선거에서
차대전
배틀
▁암컷
▁업그레이드를
맨과
▁일러스트레이터
▁메딕
▁모빌슈
▁설정에
▁Op
▁교복
▁주니
▁퇴역
▁꿈꾸
▁지식을
▁아냐
▁측면에서
미아
net
▁올려주는
▁걸맞게
▁몬스터는
교도
▁찾아서
▁팀으로
▁버블
▁수신
▁약물
▁유저는
▁밝혀지지
즈로
▁Gam
▁부대가
▁웨이브
▁팀에서
정책
포드
▁대상의
▁선발로
▁부속
▁히사
▁사람에
▁주기도
▁캘리포
▁거두었다
▁지팡이
거는
▁부활한
광역
800
▁본의
▁손잡
▁따라잡
▁인천광역시
▁확인되었다
론과
렉터
할지
▁보러
▁에필로그
▁미루어
▁비비
▁크지
년으로
▁기관단
▁냉동
▁표면
해버린
▁PSP
▁나란히
▁무제한
▁알아차
▁내용으로
▁보여줄
볼트
▁도라에몽
▁갸
ANI
▁RE
▁만났을
▁역관광
▁우두
▁설치된
UR
▁상무
▁시사
전까지
▁못한다는
▁스텟
▁알수
▁괴로워
▁플레이스테이션
플라이
▁여기서도
▁내며
▁단기
▁한양
▁운명을
▁맹독
▁친목
▁팬들을
생물
▁슬슬
▁업무를
하임
▁가격을
▁관광객
▁버전을
자료
▁그대
▁무용
음과
▁레이디
▁변하는
댄다
마력
회로
▁안경을
▁강민
▁입원
▁고개를
▁여러분
▁치하
▁하사
분기
▁자아
▁대통령의
채를
전에는
▁가라앉
▁강력하다
▁띄는
▁제품을
▁프로덕션
집의
▁태도
▁인정하지
▁사우스
▁어벤져
▁상인
포에
▁에일리언
▁우즈
▁룸
▁객관
▁마지막까지
▁전과
▁돌아오는
▁싱가포르
▁생각해서
대수
파이트
▁이전에도
▁인정하는
aby
▁Pre
▁가면을
▁달러를
▁묘사를
▁자리가
▁고인
개에
들리
스트림
▁출신이다
▁드라큘
중을
▁공원
▁인스타그램
▁내부에서
LS
발에
황을
리그에서
/+
▁노블
▁붙이는
▁중반에
▁예쁜
▁부친
▁북아
▁펌프
▁빨간색
▁솔직히
▁광산
ical
▁이글스
▁1972
▁아레나
▁현실은
▁사치
▁유망주
▁최상급
이라든가
4%
검은
ull
▁빈틈
▁찌질
카에게
▁연구소
▁조립
▁스타디움
미르
▁격퇴
▁도는
▁장비가
.21
▁레온
▁하이라
▁사람들과
▁동정
▁영화는
▁각자의
▁발표한
▁내버려
▁팝픈뮤직
따라
▁오자
▁조사를
파이터
▁미국에
▁희망을
▁미친듯이
▁조명
▁팔레
▁필요도
▁섞인
▁흑역사
격투
▁무한도전
▁원래부터
▁저승
그대로
미네이터
▁상당수가
▁피하는
▁부대의
▁한정판
▁절대적인
▁주력으로
▁바쿠
▁지원한다
연대
▁EV
▁빈번
▁무대를
▁뉘앙
▁발명
▁바뀌면서
▁밥을
▁정준
▁조회
▁앞으로도
▁란스
▁광고를
▁동아시아
▁마드리드
▁수인
▁지진
▁방공
▁키보드
▁섬에
▁카스
▁의사를
▁SA
▁남자는
▁성장한
네와
▁do
▁이후엔
▁사용을
me
▁상단
▁적에
▁다름없는
▁망했어요
노벨
▁장동
리라는
▁아랑
되니
▁Qu
▁다름아닌
테의
편성
▁검정
▁캐릭터와
▁택시
▁수준을
▁스위스
▁강아
▁로렌
▁성우인
▁워커
▁상황이라
커녕
▁자이언트
쪽은
풀이
▁카이사
년에도
▁자신들을
▁안될
▁제약
▁후루
하기에는
▁재벌
정당
▁모터
콤보
▁포착
▁포인트가
gin
▁공격의
▁외치는
▁인사를
어버릴
미션
▁수컷
강화
해보자
값이
한게
oul
▁마술사
▁증가합니다
야스
▁여긴
▁컸다
▁존재감이
▁사퇴
살인
주쿠
▁쇼크
▁호응
▁인질로
▁일본을
녀를
▁그루
였다면
▁나카무라
▁쿠루
▁현금
인드
▁지을
▁여론이
기보다는
▁루리
▁게스트로
.29
증으로
▁몰아붙
▁존재할
환경
▁모델을
▁번이나
▁루크
▁포탄
었으니
▁길에
▁마일
68
불을
▁빌딩
시스코
공영
▁해운
▁컨디션
▁뻘
▁드러나는
플레
▁Time
▁소꿉친구
▁사관
▁정해
▁바닥을
▁모험가
▁극단적으로
몬스터
▁변이
시까지
▁프레데
▁안동
▁절단
에서나
선지
▁편을
▁0.9
▁뒤에도
.28
▁국제공항
▁마친
▁마시는
▁딘
.27
부턴
▁에메랄
▁성과
▁월간
▁Wii
▁다룰
나가와
▁루트를
▁세츠
▁연간
57
▁>
▁냅
기념
자들과
▁일각
우에게
▁동료로
▁아이템으로
층은
▁콤비
▁경상남도
93
수에게
▁오타쿠
▁동점
코로
org
▁주황
▁그려져
▁출신인
▁낯
▁바르셀로나
▁구로
▁깔려
▁투쟁
적도
▁깽
▁평택
▁황태
우스는
▁축구선수
▁슬픈
▁시네마
▁워낙에
▁몹시
▁성직
▁아타
▁종로
하느라
캠퍼스
▁근처에서
▁모양새
▁민간인
▁등장이
▁안산
놓았다
▁아메리칸
▁에레
주세요
▁아오이
쿠리
▁맵을
▁선택을
▁외모가
에가
▁동맹을
삼국
▁타키
리다가
▁무색
▁BEM
▁구하는
나면
▁친구를
▁독자적인
▁리처드
▁태양의
▁미묘하게
▁세우고
▁서방
▁변하지
▁중에도
술의
▁IP
어지고
▁칭호
▁카렌
▁웜
~15
▁국도
▁편리
제일
▁맞추면
▁님
▁좋아하고
▁뺀
▁궁극기
▁as
▁나들
▁근처의
못해
함으로서
일때
▁맺고
▁산타
된다면
강이
▁하이드
▁감금
▁김주
▁정황상
군단
▁날개를
▁일으켰
▁겪고
▁고가
▁빙결
▁아마존
▁방법이다
▁카토
답시고
턴간
▁메세
▁콘스탄
▁후보가
요원
▁동서
▁지선
▁징역
▁홋카이도
ae
ERO
▁차용
idth
▁AFC
높은
도어
▁셜
브레
▁됩니다
▁멀리서
▁초반의
▁늘어나는
▁타다
▁역사적
▁이광
▁수치를
XX
쳤고
▁친일
▁갑옷을
▁Do
AND
▁고의
백화점
▁응급
쿠스
▁feat
▁멈춰
▁마을에서
▁전통적인
▁프롤로그
▁영상에서
듯하다
▁시뮬레이션
▁주워
등록
▁짓고
▁지옥의
▁절벽
삼거리
▁입히는
▁받았지만
▁태국
▁보너스를
▁특이하게
▁멀티플레이
재료
▁먹기
▁군용
▁맡겨
▁승진
▁면에서는
내의
▁아울
▁꼽힌다
▁명으로
▁때리는
▁프로토타입
▁한달
린다고
▁에드워드
▁특공
▁따위는
▁의미에서
▁얻지
▁들어있는
▁존재하고
모와
▁소서
하니까
함대
▁스톡
▁폐허
▁사이토
▁시작하여
▁뽑기
차게
마에게
▁열차가
▁언급했다
▁수여
어머니
층에서
▁오해를
▁흑역
▁현상을
▁면제
▁비아
▁립
▁저상
▁관리하는
▁후쿠오카
▁승자
▁추가되어
답지
▁이루고
▁조직의
▁클라이
▁끝을
▁로컬
드컵
▁교향
▁낭비
▁공격적인
▁테러리스트
ty
리아와
속도를
▁내놓은
▁from
cc
▁tr
▁자켓
▁죽음에
▁참으로
정지
▁감각
▁본체
▁선봉
▁개발이
▁적재
▁연출을
류로
송이
▁선박
▁중구
▁극대화
▁기체의
▁세웠다
▁팔이
▁운영기관
패가
▁내뿜
▁목욕
▁가사가
▁과도한
▁스노우
▁주머니
▁La
▁배터
슬롯
▁한신
▁않거나
▁움직임이
▁나비
▁무대에
▁사용하게
▁어렵다는
▁쿠니
▁JTBC
▁분할
▁연동
▁시작하였다
▁면을
▁넣으면
▁돌아가기
▁캐릭터들은
유저
▁보스의
▁수준에
유는
▁떠났다
브는
▁오시
▁한층
▁나서서
이서
▁우투
효과를
▁모드에서
▁BEMANI
▁220
▁비중은
▁무슬
▁넘어간
▁수시로
▁없거나
▁가나
▁인재
▁아바타
▁줄어들었다
▁갱신
▁방에서
▁숨기고
▁아무렇
▁자세를
놀이
프란
▁휴먼
▁나타났
▁문제점이
▁레슬링
▁1971
▁맑
▁이들도
app
▁패닉
▁남자를
▁DR
▁쳤다
▁무지막지한
▁동명의
▁등지에서
토미
▁마저
▁심야
▁극소
▁미끼
▁발발
▁강해서
▁상승한다
▁성전
생으로
라라
▁스토리의
▁EC
▁가위
▁비추
▁역사에
▁뛰는
▁GN
▁중급
▁최우수
클레
▁관료
▁대인배
학기
▁폭로
▁체력과
▁파밍
▁아이러니하게도
▁나르
더라면
▁차지한
▁격침
▁명성
하우스
시나
▁찾아와
▁애니메이션의
▁않던
▁좌익
▁다름없
마리를
▁Gre
▁발목을
▁마이크로
▁났다
▁맞출
▁복장을
▁1969
내면
저것
▁한가지
희를
▁바람을
▁트랜스
▁미션에서
▁파격
▁사태를
▁2:0
▁일일이
먹는다
▁오페라
▁일본어로
▁무신
▁블래스터
▁자부
느냐에
▁하여금
▁자율
▁정보는
▁쿠르
▁퓨처
▁앞뒤
▁어울리지
후보
▁로열
▁제목이
▁무공
▁240
탕을
명이다
▁등장으로
▁않습니다
▁말려
eel
▁제발
▁사전에
▁좋은데
72
인조
▁휘하
▁헬리콥
▁상쇄
▁유아
▁패배하고
편과
▁근거로
통합
▁코요
▁오비
▁기지를
▁대격
▁정밀
▁맞추기
▁진행할
BL
▁군림
▁대법
오르는
▁유연
▁인권
agon
▁상대식
▁특이사항
▁마을버스
▁0.6
▁먼치킨
▁십자가
▁정사
▁선을
▁단점을
▁HARD
▁자고
▁사랑에
▁내려가
▁만만치
▁있듯
▁지킬
▁내기
▁야만
▁폭스
▁생겨서
월호
▁--
▁NEW
▁트리거
▁화염방
▁확률은
▁그리하여
▁찾으러
▁엔딩에서
귀를
글이
▁빼앗아
▁불가사의
▁소환하는
▁줄어든다
시도
▁일리
▁차에
적이라
계에서는
▁시즌에는
▁썸
▁가로막
▁인연이
▁사용하던
▁도배
▁수중
▁여자친구
▁시킬
▁요코하마
TC
▁콧
▁파일을
연방
▁BJ
▁진행이
규가
▁웨폰
▁생기고
ution
▁자비
▁이미지는
to
▁쓰러져
▁)
우타
▁걸어서
▁패키지
▁위치하고
하트
▁행보를
▁액셀
▁범위를
몬과
▁높기
▁소스
▁일꾼
전부터
▁높으신
▁일베
메리카
스크림
보컬
▁원흉
▁부사관
▁BM
▁점멸
▁임팩트
▁할로윈
▁쿵
▁계정
▁UFC
▁가족이
와이
▁않겠
▁인쇄
▁볼드
▁세상의
▁모욕
일수록
▁수업을
▁재능이
▁가창
▁포텐
▁공산주의
고에서
▁거칠
천을
▁내린다
그린
명칭
▁오만
▁저하
▁레스
▁뛰어넘는
▁벌어진다
학부
▁배워
▁미국으로
팩트
▁세키
▁155
▁서바이벌
▁거리에
69
까요
호에게
▁올린다
▁걷어
▁검증
▁생각에
▁하이브리
▁뽑은
▁게임인
물과
▁캘리포니아
▁구한
어졌다
▁포스를
한정
▁지원이
▁서울시
라니
▁꼴찌
▁뿐이었다
▁창립
arm
▁무너뜨
▁상위권
▁그녀와
▁초기화
▁고맙
▁체육관
▁휴게
대결
▁시점에
▁발탁
▁성사
▁Gl
▁권한
TA
금지
▁최소한의
,0
소프트
였다가
다와
듈럼
▁데미지도
▁박혀
▁오퍼
▁일삼
▁전염
▁아수라
▁오른다
▁8.
▁부모가
▁친애도
▁설명하는
▁후타
▁밑으로
▁돈으로
▁기능은
다드
▁스스로의
받기
▁쳐다
▁행운
코스트
▁대하는
▁골프
▁not
▁참가한
▁페르시아
▁사정을
▁레인보우
▁취급하는
쉬가
▁예의
▁지붕
▁돌아간
▁디스플레이
슨을
베르크
▁그만두
▁전투의
▁머릿
▁장인
▁국민의
▁최후를
▁페어
리라고
▁재활용
▁부끄러
▁신세가
▁무녀
▁뒤통
▁탈환
▁쓸모가
▁부재
▁베어스
▁장탄수
▁피카츄
▁국정
▁버릇
▁블랙홀
▁늪
왔다는
▁루키
▁어쌔
블레이드
reak
▁서울대
▁정해져
▁음향
▁트리비아
야한다
▁로저
층으로
▁막판에
▁문서의
▁받으면서
야샤
▁아이의
▁이때문에
▁주어진
하였다고
술로
▁못하며
▁것이므로
▁안전하게
▁Gu
▁Ro
▁붙는다
적이었다
▁거점
▁발칸
▁세가
ings
▁달라붙
▁딸인
icro
▁찍었다
▁스타일을
무늬
▁엔터테인먼트
/8
▁나을
▁이것저것
▁넉넉
▁타우
▁아스카
▁연기가
▁시스템의
▁파괴하는
혁명
▁공존
▁비서
▁외래
왔지만
▁뒤로는
전함
▁암울
▁퀄리티가
미트
▁아처
▁해당된다
여도
노우에
▁베이스로
▁시궁
▁시흥
라운드에서
당에서
▁마디로
▁시도를
▁가브리
▁조합을
▁\
▁왓
▁인문
▁자유의
효율
.24
▁TCG
▁강서
▁소득
▁합친
▁호감
▁말그대로
킬을
▁단련
▁배우가
▁잡았다
▁가능했다
▁없다시피
▁측에서는
▁Sk
▁도심
▁짧고
▁대구광역시
금융
▁창의
▁불문
드립을
▁강철의
스파
▁국산
▁꺾고
극을
버스로
▁주장했다
복무
▁청룡
▁동생인
▁방패를
▁대외
▁미하
▁홀리
▁휴대폰
달이
▁소금
▁진행을
임은
▁MO
▁번씩
▁유난
▁히가시니혼
안전
▁바이킹
▁윈드
▁유지할
▁인명
▁실패로
▁Sch
▁패자
▁사소한
6%
▁낙선
령은
▁노트북
▁필드의
▁대한항공
▁성장을
▁순간이동
▁딥
피해
▁부지
테스
▁데스티
▁불편한
▁주파
▁괜찮다
▁괜찮아
▁적용되지
▁z
▁동호
▁느껴지는
▁갈등이
▁동북
▁의정부
▁드래곤을
위치
▁크로노
▁벚
▁첼시
▁직장
▁상태에서는
괴한
▁외야수
▁this
▁이벤트에서
▁타르
▁베이비
▁한국에서도
▁가능하기
퇴근
▁탐사
때부터
부에서는
봉을
▁성이
▁4000
▁IC
▁가져가
▁기준이
▁바른
▁자칫
▁출구
▁들으면
▁2%
▁한해
▁죽이려고
▁트렌
요한
▁무소속
▁양아
▁출고
해머
▁델타
▁엔딩이
▁제국이
▁웃음을
▁않더라도
ict
▁부장
ions
▁트윈스
▁하려는
▁탄환
▁프랑켄
▁파손
게이지
▁강화된
▁행동에
▁스타일이
군사
수용
▁학생들을
프터
▁펭귄
볼넷
▁내밀
▁합쳐서
▁나이트메
▁알려준다
▁BB
▁쉴드
한데다
▁만난다
족은
▁일정한
▁킷
지니어
▁롤드컵
▁본래의
광이
▁공손
▁Ser
▁드물다
바스
▁모르겠
루에
방법
▁했으니
▁당시에도
▁자신보다
▁연락을
▁있는가
▁수호자
▁반대하는
려나
▁담겨
▁이익
▁뱉
프스
▁위함
▁기체를
St
▁테마곡
▁후속작인
▁전에서
▁맨체스터
▁텔
▁직결
▁바다에
be
개와
타케
▁구조가
해버리는
thing
▁단장
▁드리블
▁행복한
▁재단
순양함
▁영혼의
대왕
▁문서에
▁때나
▁민병
▁정성
▁오세
▁구성원
▁보상을
부작
웠고
▁UC
▁go
▁사례도
▁나열
▁물품
▁번갈
▁찬성
▁테오
기계
락이
▁밤의
▁타운
베리아
attle
▁하이라이트
조한
▁한손
▁잡는다
▁김지
▁오쿠
▁워터
▁카무
▁코마
백으로
▁마법이
▁소재를
▁기다리는
▁마스코트
▁개교
▁걸면
았는지
▁ATK
▁바란다
▁헤어스타
▁맞지만
▁어느날
▁}}
▁멸종
▁뭐야
▁영등포
▁바로는
▁아리아
▁붓
▁EBS
▁현실을
요소
▁본진
▁통화
▁도리어
사실
▁명성을
▁정답
▁지력
▁출제
▁공허의
▁어디에
▁좋았다
▁공정
▁씹어
▁성경
류에
▁오디오
▁뚝
▁사원
▁패미
▁탐지
▁11.
▁이전까지는
때문
자드
년도에
▁주민들이
▁자작
▁비로소
시엔
▁벨트
▁하러
▁들어온다
▁천지
ster
▁박사가
▁싸움에
화부터
▁화면이
▁깃털
▁합작
▁공포를
▁빠지게
▁아름다
▁멤버들과
▁맵이
▁어그로
▁PK
▁단단
▁말하지
▁수단이
▁스크래
▁전지
▁개구리
▁떠나는
▁떡밥을
▁운영을
▁클리어하면
▁판매량
멘탈
ECT
마니아
▁향하는
▁대다수가
▁나인
▁스코틀랜드
▁무비
▁유유
▁푼
▁가도
▁펜듈럼
.23
▁성실
▁앞을
▁모으는
▁필두로
록의
▁상하이
▁군대가
▁화장실
론에
▁섬멸
ann
▁확신
려도
▁아그
->
▁185
▁하기에
▁없었다는
마르
▁나가서
▁마비노
▁쿨다운
▁한국이
▁윈터
지부
▁무늬
▁바꿔서
-13
▁요미
▁소재지
▁삿
▁DM
▁잔인
▁안전한
▁기관단총
▁Heart
▁사일
▁음악이
하다보니
▁게이지를
방위
▁빠진다
▁시선을
▁노선이다
▁리바
▁이호
▁지극히
해주면
▁갈등을
▁의하여
▁보였으나
▁At
▁남았다
덕후
연은
▁고든
▁온몸
나지
바리
나라는
▁내용에
▁추구하는
▁회사에서
▁가슴에
▁닉네임
▁운행한다
▁개인적인
돌파
▁사쿠라이
▁아니므로
▁소원
▁LED
▁도약
선다
▁지냈
▁해줄
▁다니며
62
▁손톱
▁키보
스트는
▁적어서
란은
▁구리
▁발이
▁등장했던
▁되게
▁합계
▁달라진
▁미치는
서버
ics
▁전장에
▁올라갔다
▁코이
키에게
ress
▁Dark
대인
▁배급
▁더욱이
▁소노
란트
▁바디
▁명중률이
▁옆으로
61
강점
두가
▁합법
▁따왔다
▁센트럴
▁아이폰
▁증발
▁재료를
▁임페
▁GTA
▁달성했다
▁극우
당하기
▁말하길
▁콤보가
하겠
▁치우
▁ADV
▁빠지고
▁자위
백의
▁전해진다
▁불평
▁앗
명도
▁퍼부
▁노래는
▁챌린지
롭고
▁원곡
▁포맷
▁컬렉션
돌프
아슬
▁경제적
▁지시를
▁필립
이에게
▁12.
▁도전과
▁떨어지면
카스
▁2:1
▁무장을
▁전광
▁다니엘
▁대의
가락을
▁차량의
▁길이가
▁바람이
▁화면에
빵을
▁주를
▁적극적인
78
▁10000
▁시트
▁넣었다
ham
▁연습을
▁유저들에게
바와
▁검토
▁마나를
▁건가
▁레코
▁본사
▁센티
▁삼는
▁글래
▁이진
▁녀석은
▁없었으나
▁연기한
▁총선거
▁드워프
링의
▁떠났
▁당신을
▁방송이
▁죽이면
▁1968
▁대기시간
▁인간으로
라시
작가
▁재배
다니며
▁내구도
▁사용해야
모에
학이
vol
▁끼어
▁상을
▁아님
▁따지자
▁알렉스
▁지방의
▁효율을
▁빠뜨
▁헤라
▁넣어서
▁활약이
▁초록색
▁패밀리
▁차는
▁깨어난
궁의
▁망치
63
▁손해를
▁프로그램이
▁보호막
▁있을지
결과
랑은
▁보직
▁기력
▁상성이
HT
▁보잉
▁템플
니에
먹기
지휘
취를
▁레스토
▁가면서
▁파워업
▁will
▁비꼬
▁패스트
▁5:
▁상기한
▁스킬이다
▁심어
자들도
▁에이전
대도
▁데려가
청이
▁죽이기
.9%
▁재산
▁이누야샤
▁속성의
▁날에
▁츠카
▁겹치는
▁행동은
무리
▁주의를
▁지오
▁이어가
▁깨고
시켜야
▁드레이
▁도요
박물
▁세컨드
역이다
▁그림이
▁마가
▁신은
▁실루
림으로
하려던
▁사스케
▁위치는
▁사용하는데
▁성향의
▁아줌
▁높다는
▁이하로
▁찰스
▁새누리당
▁확립
▁익숙한
▁프로레슬링
▁사직
▁주위에
▁분노의
▁사회의
▁Is
▁김윤
▁미국인
골로
또한
▁문의
▁초고
▁방송사
▁무지개
▁영웅의
하겠다
▁따지고
▁개그맨
▁낮아서
순이
▁다짐
▁해보
▁왕을
▁스쿠
▁이의
▁구분이
▁이즈미
겨서
▁무협
▁가능해
▁항공모함
▁DX
웠다고
▁못지않
벌이
▁이렇듯
▁걸친
▁쥐고
▁투기
▁옵션을
▁보여주면서
▁1~3
▁것만으로도
천군
▁뉴질
▁땀
▁선조
▁공무
▁일하고
▁전적이
블루
▁혼합
무기를
▁관장
▁길로
▁전생
▁GPU
▁광경을
▁토네
랍니다
루토
차고
▁장로
▁본편에서
지긴
▁너도
▁임요
실점을
cl
▁담고
▁이들에게
▁직책
▁캐릭터다
란한
방은
▁머무
리카와
▁국토
▁우세
OK
어찌
줘도
▁추모
▁기쁨
▁쓰일
▁오바
▁체코
▁뜻의
▁악기
▁싸우다가
명인
▁신흥
레드
▁단말
▁국가를
▁여부를
▁활용하는
▁우타
▁제니
▁혼란을
평균
▁묘한
▁장사
▁끌어들
▁미성년
호도
▁학사
▁마시고
교로
▁내리고
▁선포
▁포도
▁바라보는
락의
▁Of
▁사극
▁보기는
번대
▁구상
▁가격에
▁고기를
▁사실이지만
려던
ica
▁사용되고
▁입었다
▁평균자책
▁풀린
▁입지가
▁신비한
mania
회장
▁적과
▁늦은
▁일행에게
▁근로
▁사슬
▁포병
▁메테
▁제약이
▁정규시즌
▁자유자
▁힘과
▁본부
▁마법사의
루기
일으
ody
▁내면
▁도검
▁설마
▁만하다
▁아슬아슬
▁안타깝게도
▁상위항목
▁남기
이드의
▁이펙트
▁작중에
성인
▁유난히
▁궁합이
이사
▁돌을
▁주장도
▁그간
▁내셔널
▁원자력
▁포켓몬이
▁흐름을
▁안토니
▁캠퍼스
▁빠져나가
헤드
▁친하게
▁애정
인사이드
▁NM
▁[[
▁나이로
만으로는
파라
▁리나
▁가변
▁대포
▁얄짤
맥을
정류
▁아래에서
▁방심
▁Am
▁형상
▁엣
ors
▁만화의
▁일주일
업자
▁앞세
▁자란
▁혼다
▁지구로
▁오키나와
렌의
▁원문
▁명예의
▁김치
▁후반기
되나
▁굴욕
▁길거리
티는
▁캡콤
▁계획은
▁연달아
▁무기인
▁전투력이
8%
▁아깝
▁com
이건
카제
▁방어를
리스를
▁시스템은
▁처리하는
테스트
▁세력의
▁기록하였다
▁치안
▁평범하게
저항
▁럭키
▁건담의
▁모니터
오르
▁조력
▁다닌
▁스네이크
▁보강
▁잡아서
.,
▁분이
▁주거
▁우월한
▁추후
▁낀
▁장갑을
커로
▁장치를
▁진출을
려다
ins
▁올바른
▁불리기도
ACK
▁불만
▁탄탄
▁풀고
▁보정을
▁세포
▁대대로
슨과
▁감행
▁못했다고
▁한강
혁이
▁거뒀
▁신세계
▁느낌으로
▁사출
▁보았다
▁분량
mmer
▁과제
▁방언
▁말이야
▁유용하게
카즈
▁CE
▁담당한다
▁쿤
▁비단
▁멀쩡히
▁나타나서
랑을
오던
요가
.0%
▁FW
▁HS
▁앞면
종으로
그는
▁Co
▁성공을
▁외모를
▁현장에서
혼을
▁수확
▁제로의
▁소속되어
▁브라우
▁전투력을
밥을
▁BT
▁논란을
언정
▁김연
▁모자를
▁파워를
심과
▁미오
▁찾지
▁한반도
우먼
▁냉정
▁6.25
▁서울대학교
▁우린
▁목포
▁설상가
▁엔터
▁단원
▁해가
▁Car
것에
▁사격을
천이
▁호랑
렸다가
▁덩치가
년전
▁역은
▁생각하며
▁톡
▁갔을
▁몸무게
▁대검
회와
▁고래
멋대로
▁만들기도
▁엘리자베스
▁pro
네이션
▁DNA
▁나뭇
▁재빨리
▁못하지만
▁타치바나
아르
▁박종
▁인물의
▁혐의로
DJ
▁총독
▁에로게
▁소나
▁이인
클래스
▁have
▁여주인공
▁위험에
▁그들에게
▁느낌의
▁한몫
▁수록되어
몬은
ru
▁레시피
▁한국을
▁밸런스가
예요
▁HE
▁그레이드
▁일제강점
▁많았고
▁영어를
▁토마스
▁질풍
살의
▁농락
▁맵의
정도의
▁직후에
▁재밌는
시키면서
적이지만
점도
▁후예
▁오프라인
▁일본식
▁느껴진다
GM
▁아카이
▁보였지만
▁발악
▁Mr
▁키노
▁현재까지도
창에
등하게
▁일러스트가
FO
▁몸의
▁재학
▁전속
▁클레이
▁전설적인
▁Sy
▁포니
▁누워
▁4.5
▁연구가
▁따서
▁암호
었습니다
▁치열한
▁못했다는
▁유격수
▁귀가
▁런처
▁집계
빌딩
▁뚜껑
▁경찰에
▁해에
▁신조
▁어퍼
▁체력은
▁1967
▁대목
▁파이트
▁들어가고
▁가의
▁결국엔
▁구성이
mp
맛이
▁애니판
▁이치고
▁인기는
▁남발
▁석유
▁정면으로
▁없이도
▁휘말려
IV
▁안보
▁뿐이고
▁져
비도
▁흥분
▁부리는
자리에서
현실
▁위엄을
해에
▁임금
▁대중교통
,5
III
▁BD
▁클러
경기에
글로
말의
▁자기도
▁트레이닝
부문
업에
▁조건은
▁영향력이
주택
▁에피소드를
상태로
▁적절하게
▁사오
끄러운
▁LIVE
신인
▁투고
하기만
▁대신해
▁생각했다
▁낡
▁향한다
였는지
▁엔진이
▁상시
▁미치지
▁전라남도
▁MX
었어
좋은
테가
더와
▁인물을
▁보기에는
동네
▁의혹이
▁사과를
▁공통적으로
▁뿜어
▁의학
▁버스가
▁나미
기에서는
황제
▁지낸
▁이야기의
턴트
▁미미
▁크립
▁샹
▁넉백
▁바닐
▁넘어간다
▁살이
▁토트
▁삼촌
▁들린다
▁un
▁자유를
▁하려면
▁SCP
▁비싸다
▁뮤탈
.3%
▁전투는
루로
▁굴욕을
▁모드의
▁유전자
▁학교가
면허
▁훼손
아버지
▁135
▁명명
▁못했을
▁소환한
메의
▁국군
▁김구
▁생태
위까지
▁드립이
▁박수
▁베가
▁취재
괴수
▁마에
▁신곡
▁조조가
주공
▁준결승
▁대학원
▁잃게
▁되어버린다
▁넵
▁현실적으로
연패
▁멀어
▁만들면
▁것들
▁함재
오오
▁반영한
벽이
▁일절
▁손오공
▁차원이
▁패치가
화학
▁불안한
▁스위치
▁영상은
▁꿇
▁끝장
제에서
▁운명의
9%
▁빼고는
▁세월이
▁스폰서
▁가능한데
▁구하러
▁실루엣
▁그렇듯이
▁포지션은
▁박사의
▁아니니
▁수성
▁자처
▁유리하다
법과
▁이념
▁레벨에
▁애당초
▁편이었다
▁쥬얼
진다는
▁OCG
ws
드나
뿐인
▁모임
▁정우
▁스파이크
뱅크
전선
▁죽어서
▁4~5
▁냄새가
▁집이
▁튜닝
▁협상
기라는
장치를
▁부탁한다
타고
▁전선
갔지만
는다는
▁Light
▁말까지
▁제작자
▁간판
▁돌이
▁목동
▁부드러운
ater
▁Bo
▁쿼터
▁에너지가
▁같아서
.2%
▁동년
▁일체
▁터렛
▁병사들이
경과
▁배구
▁꽁
▁입성
족과
▁식사를
▁서치
▁급하게
▁받았을
▁생명체
▁결국에는
▁회사를
▁까였다
▁밈
▁수비를
▁대결에서
▁대도시
ium
▁자유로운
▁조폭
▁등장하면서
▁날씨
▁대왕
▁시부
▁노선의
▁잃어버
▁Your
▁증가하고
▁에도
71
구성
▁무리하게
마침
▁파티를
▁beatmania
그로
본이
▁응답
▁보였고
▁벅
▁외면
▁줄을
인만큼
▁무기와
▁그릴
▁바티
▁이례
▁묘사되는
▁영미
▁후려
▁쉽지만
▁꿈의
▁헌데
▁계획에
▁1963
▁올림
▁투니버스
모노
▁3%
▁개개
▁딱딱
▁포션
▁지위를
▁남겼
▁사인
▁뽐
▁WH
▁미들
▁스모
▁원형
▁테레
▁시간도
▁결전
▁대고
내는데
적에
▁라이징
▁초반부
▁이야기다
▁참여했다
그레이
더스트
▁표정으로
BM
▁돌아다니는
▁숭배
▁정체불명의
▁가던
▁일자
일부로
▁버프가
▁카운트
이런
~12
▁건데
▁성공하면
▁보고는
통에
▁여겼
▁있나
▁칭호를
일도
버스는
▁다르지
▁적시
▁탱킹
▁해변
▁늙은
끄럽
▁해고
▁아이템의
▁나들목
▁오브젝트
나시
▁성폭
▁직역
▁스파이더맨
판매
▁보기도
▁면접
▁의아
버리기
왔으며
▁대사로
절로
▁감자
tr
▁킴
▁말의
▁선물을
▁구체적인
▁모른다고
이라면서
ㅋㅋ
나오는
▁부려
▁불륜
가능한
▁휩싸
▁말장난
▁1/3
▁구입할
▁달려들
▁코바야시
▁동봉
▁결혼식
▁놀이
▁설도
▁쏘면
란드의
▁권한을
▁수급
▁순찰
▁연말
▁자신만의
▁AF
▁망명
▁얼핏
▁예가
산동
▁UP
▁불리고
▁배차간격
▁제공한다
▁높으며
▁시절을
▁내전
▁봉사
▁이름에서
▁박찬
▁파편
놓으면
▁시기를
UT
▁알을
▁이준
▁박정희
▁버젼
▁박탈
▁키쿠
라고는
▁버려진
기아
▁기피
▁신정
▁일당
!!!!
▁혼돈의
놈의
▁권위
▁블라디
▁일러스트를
▁부평
▁출퇴근
세기에
▁진출에
▁신작
▁전임
ould
▁주장한다
▁레슬
하였던
▁사천왕
기획
▁수라
▁원인을
7%
돌아
▁강습
▁꼴이
▁잠을
▁그룹의
▁활용한
▁업데이트가
▁깠
▁친분이
▁정신적으로
신다
▁헬기
▁쓰며
▁프레스
러와
▁사정으로
▁사이에서도
▁팜
황이
▁능력의
IE
▁깊게
▁디오
▁다음은
▁반성
▁혼동
▁되거나
▁말하지만
세력
▁양도
▁호기
▁말하기도
바지
▁타지
레는
▁어서
▁늘었다
▁커플링
▁부족으로
▁표현하는
▁뒤틀
▁사수
▁구매할
▁보스전
ange
▁물고기
뉴스
▁말만
▁서기
▁공학
▁발현
▁적합한
▁횟수가
골이
▁소집
▁일화
▁다니고
▁래퍼
▁살기
▁주유
토록
▁구도
▁휴가
▁어머니와
gr
▁통용
▁노릴
▁막지
▁웃긴
▁한편으로는
79
.4%
▁금발
▁오마쥬
▁끄는
일지
철은
혜를
▁Sw
▁복용
▁구해주
사진
재는
▁박쥐
▁편지
▁이루어지지
▁밑의
▁샐러
해지기
▁주먹을
하듯이
▁능가하는
▁예전부터
▁처한
라이어
구멍
▁건재
▁있었는지
▁현실적인
티노
▁BC
가지가
▁한나라당
▁자유자재로
수원
▁편한
▁Min
▁카탈
▁BAS
▁가슴을
▁이세계
구도
▁루미
▁있을지도
▁해주고
▁직속
tern
▁관계에
▁사랑이
▁급기
▁천년
▁동인지
▁아포칼
▁콕
▁애시
▁조치를
▁살아가는
▁원전
...?
▁마도카
▁맞추어
▁저글링
▁흥미를
▁love
▁진행되었다
▁얼굴로
▁+4
▁자쿠
▁대상에게
▁어찌어찌
▁출연하는
했어
▁IDOL
Lv
▁뛰쳐
▁망한
▁브론
▁낮지만
▁도깨비
▁발동이
돈을
하여야
축을
▁파수
▁증가하는
▁싣
▁450
▁LE
▁착지
▁캠프
▁5.5
▁복싱
한테는
▁인류가
거리며
▁리스크
▁무장이
생산
엔진
▁아름답
2%
▁고도
▁보스는
▁업그레이드가
아래
▁수만
▁가하는
▁말라는
▁언급한다
▁일어나고
af
엘은
▁재위
효과가
▁엔지니어
.8%
▁무선
▁변장
▁공지사항
▁서킷
리스와
che
▁기다려
▁넘기는
증가
▁법한
▁쇄
▁단역
▁지크
▁세계적으로
택에
▁기수
▁금요일
▁일행의
▁건다
ator
▁속도도
▁내릴
▁범인
트에게
▁까마귀
▁리프
▁심상
▁공격수
▁손꼽히는
▁플레이어블
▁랜턴
▁본관
▁불길
▁210
이냐
les
▁소설을
▁소대
▁추궁
▁노가다
▁단체로
복의
▁버림
▁시체가
▁양산형
▁재료로
▁맺어
▁대회에
▁만들지
▁암살자
▁동갑
▁셋째
중심
▁IV
▁OB
▁교수가
▁사용하기도
rain
▁열쇠를
let
▁원숭이
▁푹
▁가난한
▁설명할
▁발동하는
▁카우
▁필름
▁놀란
▁챔프
▁시리즈로
▁김택
▁포드
que
▁만루
▁관리가
토르
▁패왕
주게
▁무리한
▁역할도
▁청와
먹었다
▁시간과
▁표현한
피로
▁민주화
▁벌인다
▁케이지
vs
▁끼어들
▁CN
▁중상을
▁야마구치
81
후를
▁소소한
▁마에다
▁떠오르는
▁포함하여
▁하드코어
▁굵은
▁컴백
▁버티고
출한
▁공격과
▁미소를
▁쓰거나
▁액세서
▁맹세
▁결과로
▁성격도
시켜주는
▁필연
▁행보
▁멜로디
테라
▁사면
업으로
less
orea
▁점검
측에서
▁겔
▁교역
▁상자를
▁아니었고
▁특촬
루스의
▁구멍이
▁어느새
전생
▁오덕
.7%
▁머스
▁쿠라
▁남편이
▁다큐멘터리
▁DT
▁달콤
▁후면
▁일쑤
프레스
▁창세기
▁일본으로
ret
▁엄폐
▁저스티스
▁얕
▁개발을
▁변경된
점과
▁환자
▁기념으로
▁상점에서
▁콘셉
주의의
▁1944
▁깡패
▁타나카
복은
▁의외의
▁꽂아
▁의심을
▁크로니클
▁하이브리드
▁따뜻한
노래
토리얼
▁Red
주의적
▁입장이
▁의뢰를
▁모스크바
▁was
▁장소에
▁전작인
ICE
▁거느
가지로
나라가
이트가
▁단단한
▁일으킬
▁기본적으로는
클로
▁힘들게
등에
애가
▁좋아하지
개혁
카쿠
▁막판
▁인테
▁이것으로
▁만들었다고
유로
▁가급
▁서브컬
준은
▁스트레스
▁씨가
시켰고
▁연상시키는
▁안성
▁카리
림에
세인
▁리퍼
▁유저들도
▁듀티
▁발톱
▁존댓
▁높았다
▁쏟아져
시키는데
▁사각
▁왔을
▁점심
신문
▁간선
▁다다
▁빅뱅
▁그런거
▁담배를
▁리볼버
▁인간형
▁불러일으
캐슬
▁사기를
▁수비수
▁까닭
▁마요
▁징징
▁산탄총
▁활동한
▁모르겠다
▁짚
치다
▁표시로
▁했는지
▁라이센스
▁확인하고
▁한발
▁텍사스
나에
▁급히
▁놓는
▁이후부터는
▁카니
▁의지가
▁중국이
이센
▁출근
구경
eng
land
▁MLB
▁애매하다
▁퉁
▁대답을
▁HG
▁덱에
▁배에
▁고유의
▁아버지에게
▁않은데
SE
▁오즈
▁측이
▁요구한다
▁2.3
▁해결할
▁바꾸어
기구
스퍼
▁구석
▁매운
▁문화가
▁아레
▁저질렀
▁겪는
▁롤링
▁서열
▁상태라
▁광탈
▁테니스
▁각인
▁이노우에
▁bl
▁차로
▁입으로
▁상황에서는
KT
▁뜨고
▁1966
▁대니
이기는
▁ver
▁것까지
▁다이나
▁주어지는
장에게
히어로
▁던전에서
▁진행한다
▁고자
▁에인
▁슈퍼스타
▁동탁
▁문단
▁뒤이어
▁재조
▁미군의
▁연금술
▁공격하면
송을
▁여는
▁공격형
▁넨
▁울음
▁꼽히는
▁받았으며
▁볼륨
▁1.1
▁가득한
▁스칼렛
▁자각
▁보우
▁145
▁잘못을
▁부채
뜩이나
▁디버프
▁받았는데
▁인종차별
HD
▁질주
▁나에게
▁의문의
▁1940
▁이행
▁시기의
▁화면을
▁시장에서
▁포함해서
렉트
▁보스인
▁완성된
▁전개를
왕국
▁따라가
▁코다
▁성인이
▁블리자드
mar
▁사역
▁원활
▁이명박
공단
▁발음은
▁일컫는
▁콰
▁레버
▁솔저
▁제작에
▁하는지
▁죽었다고
▁메이플스토리
▁호노
려다가
류와
호기
▁지내고
▁올라가면
▁리부트
키로
▁나섰
▁무능
▁파티에
▁스테이지에서
▁넘은
▁코트
▁165
▁높이는
▁사망하고
▁이보다
.6%
/11
▁바이크
▁꼴을
▁후로
▁들리는
▁문화를
▁비치
▁올해
▁도망쳐
▁탄생한
▁Rock
▁찌르
▁단어는
▁컨셉을
오는데
106
▁안다
▁담당한
▁엄마가
랑의
▁오더
▁응시
▁이익을
▁전차의
목에
▁TEC
▁전동
▁상당하다
미스
▁세금
▁마징가
인들에게
▁법적
▁어딘가
인해
▁대량의
▁이마저도
비언
▁투수가
림은
▁국무
▁상위호환
▁그렇게까지
당으로
▁쓰는데
▁천주교
▁내려오는
받던
▁슬래
▁오아
▁예정이었으나
▁남는다
▁상관이
▁우려가
▁도와주는
▁뛴
alk
▁낮게
▁절규
▁ARM
▁너프를
충이
회관
타로가
▁선택하면
탄과
▁변속
▁부족하다
▁이해하기
자원
▁내비
▁따지자면
▁이어졌다
▁프로스트
▁눕
▁따돌
▁용량
공연
▁피닉
▁소녀의
▁카에
▁Per
▁비용을
▁웬만하면
경비
지에게
▁기대할
▁장소를
차고지
▁가뜩이나
결합
▁베니
▁신과
▁OK
▁반역
▁노무현
▁좀비가
▁중간중간
▁드라마의
▁이블
▁이미지로
가르
▁9.
▁딜이
▁포기하지
찬을
▁강대
▁리쿠
▁가능해졌다
▁해독
▁중이던
터테인먼
말고
▁마디
▁방호
▁벚꽃
▁앨범의
▁정명
▁끝나지
▁은퇴를
▁EU
▁협동
▁친구로
▁혜택을
년엔
▁수험
▁배우고
▁적용된
▁조별리그
▁벌이고
▁사이퍼
▁능숙
▁김원
▁불쾌
▁졌다
▁되었기
▁등장하기
▁친구들이
보험
크루
▁여자는
▁좋아한다고
▁정립
▁무게가
▁삭제된
▁식이다
▁지칭하는
▁모범
했음을
▁자원이
▁무죄
▁타면
▁팔고
▁퍼붓
▁우루과
▁언급하는
73
▁모친
▁엉뚱한
▁어쌔신
▁간략
▁타점
▁넣는다
▁아내를
▁그닥
1%
교는
▁자리는
▁어드밴스
▁Tw
▁대여
▁공격시
▁빠졌다
▁승강장의
▁친구들과
▁괴물이
▁때마침
▁알려주는
▁네코
▁팟
▁트와
시간은
▁102
▁때문으로
▁라인하르
도리
제네
▁가능성
▁나가고
▁시야를
▁크기의
▁헤일로
▁Fire
▁터미네이터
ART
▁Gen
▁시설을
▁주장은
중에는
▁750
▁세상에서
▁가상의
▁아스트랄
갔을
극장
▁박영
▁축에
▁사이트에서
▁샴
▁최약
▁홍성
판인
▁색상
▁잔류
▁콜롬
▁순양함
▁넘긴
▁쌓여
베이스
▁마나가
▁불안정
▁요시다
▁컨셉으로
▁홈페이지에
내야
▁별이
▁상용
▁세로
▁나무를
▁휘두르는
버릇
슈퍼
▁여성을
▁2500
▁쯔
로지
▁도타
▁열등
▁시기는
▁별을
▁장점을
차와
▁밀집
마사
플을
▁MK
▁바주
▁탄을
▁도시에
▁도쿠가와
빈이
▁Sl
거니와
▁미끄러
▁역사는
▁이동이
적이라는
와라
▁각오
▁교과서
▁103
▁등장해서
▁삼성전자
▁있었다면
▁잎
▁애를
▁Act
▁수명이
▁돌아갔다
03
74
▁똑똑
▁운운
▁나갔다
▁파괴할
▁교체되었다
▁애니에서는
모니
▁대도
▁시궁창
▁앉아서
AA
▁거리는
▁사사키
▁하렘
셔서
▁하하
게임넷
▁미인
▁사육
▁자잘
▁타서
▁제국을
번호를
▁1/2
kr
▁불려
▁사마의
▁도마
▁잔혹
▁학문
▁항목의
▁지속시간이
일라
▁밖의
▁외엔
▁조각을
ert
ony
▁TOP
▁건물에
▁취한
▁흔적이
월이
잡기
▁얼어붙
▁조종사
▁크기를
▁댐
버거
▁바바
▁악용
▁함대를
▁분쇄
▁자손
▁호전
▁나오자
▁전에도
bo
▁다뤄
▁초래
▁브레이커
▁유니폼을
▁등장하였다
▁같고
▁아아
▁발표된
▁죽인다
▁처리할
마켓
종과
▁심장을
안한
▁중앙에
▁1930
▁포켓몬을
▁유고
▁임기
▁이기지
르바
▁사례는
▁High
받침
▁퍼시
▁염두에
▁장점은
▁제멋대로
▁순간적으로
리어스
▁출연작
▁이끈
아이템
▁엑셀
▁재즈
▁줄어들고
샤의
직에
▁여수
▁총으로
▁반항
▁중국은
▁헝가리
페어
▁갈린다
▁히드라
▁조합으로
>,
▁다해
▁카부
▁미유
마법사
▁쑥
▁보통의
▁종족의
▁빼돌
▁화소
스타의
▁Par
▁맞아도
됐고
▁본디
▁승려
▁포크
▁시점이
▁떠날
▁퇴출
▁설상가상으로
▁집합
▁방으로
▁초보자
▁기술배치
아스
▁테리
▁끝내기
▁레벨은
▁코드를
▁작정하고
▁프로그래밍
AG
쉬의
▁승리한
반은
에너
▁녹화
▁일격을
게시
▁애정을
러서
회까지
▁열린다
▁문제점을
▁이해하지
▁결승전에서
▁떠서
▁롤러
▁영남
▁BRV
▁레이첼
▁쇠퇴
▁일격에
적이라고
▁모티브가
▁봐선
▁+20
▁스탯이
▁후반에는
02
▁결정을
▁딜레이가
▁시간동안
▁형이
▁4.0
▁Arm
▁제목을
▁리마스터
▁쏠쏠
홈런을
▁권리를
▁높다고
▁이야기로
▁상태에서도
▁런닝
▁원망
행으로
▁나누는
▁습격을
▁운수사
▁철저한
▁팔라딘
▁스팅
▁Don
놓을
클릭
▁작년
▁거주하는
란과
▁도시가
▁따른다
▁아래는
▁애국
▁전폭
▁대상은
▁죽었을
▁동구
▁바뀔
▁존재는
OID
▁캐롤
▁스피어
▁스콧
장이나
▁오로치
▁인구는
현대
▁라미
▁천마
캐스트
▁둘러보기
▁일렉트로
▁도망치는
▁당첨
▁무겁
▁저가
▁형식의
▁몸매
▁소재가
▁받았으나
UP
우에
▁담임
▁필라
▁목에
▁포기한
▁거냐
▁재임
▁모으고
▁풍부한
▁온게임넷
▁난민
▁러닝
▁섀도
▁요청을
▁style
▁맥락
▁일개
▁부담을
▁비교할
▁주는데
칭을
▁연설
▁창업
▁술에
▁정한
▁오인
▁의사가
▁줬다
▁태극
니스트
마리가
▁멧
나온
요의
▁위협을
▁하츠네
▁범죄를
선도
숨에
장기
▁하네
리우드
이어서
▁남미
▁육체를
▁점으로
시키거나
▁사회에서
▁씁
클리
▁신상
▁패전
▁헤븐
▁돌려보
▁드론
▁공격한
▁동료를
▁본편의
▁시스터
▁하라고
▁1962
▁감히
▁계절
▁아멜
▁일본과
red
치기를
프란시스코
▁부흥
▁대회를
▁변동
▁키사
▁개봉한
▁비해서는
급에
명이나
▁명나라
▁대책
▁마야
▁뿐인
▁국가에서
▁전작에서
요를
▁샤워
넌트
창의
▁Pv
레타
▁쉬는
▁자기는
▁출루율
▁안그래도
▁좁아
킵니다
▁약해
▁탄핵
▁별명으로
폴리스
▁안드레
▁한가운데
쪽을
▁공백
▁조이
air
▁테일러
▁선택하는
물인
▁불렸다
▁표기가
▁학생들
▁이동속도가
건과
▁마타
▁벨라
▁원주
▁입양
▁까이는
▁부동산
▁외치며
▁거부하고
▁통행
▁세르비아
▁상처가
▁2,000
십자
▁안좋은
▁후자는
시온
컨대
▁노숙
▁대우를
▁나온다는
▁SL
▁독을
▁말하면서
▁맥도
▁겁니다
▁얼굴은
▁도색
당하지
▁Champ
▁El
서비스
▁적들의
ml
▁우츠
▁빌보드
▁들어와서
좌석
▁접어들
▁사이보그
▁주변에서
팀으로
▁여자의
▁이겼다
▁사용자가
▁운수사명
▁모형
감하게
▁도쿄도
▁반경
▁군데
▁위를
▁반지를
▁임진왜
br
▁장풍
▁그립
각으로
적한
▁뭐고
시키려
▁노이즈
공개
▁덴마크
▁생각으로
▁놀고
▁명인
▁묶여
▁종전
▁진출한
▁대표되는
▁슬러
▁기사의
▁발음을
▁수정되었다
▁예외적으로
▁씩
연승
▁연결된
▁운반
주는데
▁변신한
▁시장에
▁골로
귀가
▁본거
이었다면
▁디시인사이드
이제
▁공모
▁나름의
▁초창기에는
▁팍
해방
쳤다고
▁2.4
크에
▁아드
▁걸맞는
▁시설이
▁시작하자마자
치오
▁직격
▁무슬림
▁되나
있으면
▁인기투표
초교
▁피트
▁소모량
▁럼
집단
▁박재
▁단숨에
사관학교
▁리베
▁길어서
▁이탈리아의
년작
▁비타
▁아이들의
질과
▁가설
싸움을
▁스토리에
▁슬레이어
▁도미
물이다
양으로
▁공격도
▁맵에서
▁북유럽
▁줄어드는
▁천둥
▁레귤러
▁크리스토
르노
▁당당히
▁출시한
▁취급이
적일
▁접수
▁각성한
▁스미스
▁김선
▁방울
▁벙커
▁주가
▁차가운
소환
▁사정거리가
경험
사한
▁더럽
▁없었는데
▁이용한다
리학
공학과
▁입히고
▁차지한다
▁에피소드는
▁넓게
▁달래
▁모닝
▁패를
사무소
▁붙여서
운전
융합
▁설명한
+1,
▁스타팅
▁확연히
▁마츠모토
▁왕위
운드가
▁퀘스트가
▁행방불명
그와
▁않음
▁루머가
▁1/
▁세탁
능력은
▁만나기
▁EMP
▁방영한
부족
▁내외
▁서독
▁대위
▁쌓인
▁쿠사
장까지
▁-10
▁구제
▁용기
▁타카시
▁완화
▁투수로
▁메탈슬러
네트
▁개연
▁동래
▁루프
▁비자
▁타인의
▁페미니
▁많았지만
▁우는
▁명칭으로
직원
▁//
▁XY
▁사내
▁단번에
▁전투로
~9
것과
▁믿어
▁지정된
점프
▁하우
▁아들의
▁드러내는
▁위주
▁GG
교차로
▁데뷔한
▁1964
널드
▁넵튠
▁다룬다
▁묻는다
▁기타사항
▁담당했다
▁무거
▁이상할
비어
▁티아
▁명백한
▁인물들
▁후인
▁그곳에
▁이나즈마
무와
▁전장에서
▁승인
▁외로
연하게
▁부하들을
▁중국과
▁허무하게
아니아
▁튜토리얼
▁아르바이트
▁항구
▁타격이
▁힘들다는
리터
▁맞먹는
▁심심찮게
▁한때는
▁야외
▁월등
▁모양을
▁표기는
▁넘어갔다
▁캐서
▁현장에
ittle
▁만드는데
▁부모님이
▁강타
▁어처
년대부터
▁진출했다
가메
▁나라는
▁환경에서
▁제지
▁퓨전
▁과일
▁뭐라
▁PL
▁퓨어
▁다르고
▁리턴
▁샌프란시스코
▁쪼개
병들이
부분이
▁STR
▁젝
▁돕는
▁코가
렸기
▁사지
▁포효
스럽고
▁아내와
▁재산을
▁눈빛
▁어떨
공격이
▁마인드
▁이번에
▁메시지를
▁살해한
▁활발한
▁왼팔
▁짙은
▁일환으로
▁임관
▁패키
▁패스를
욱이
지오
▁복지
▁릴리스
클린
▁집정
▁한마디
▁정전
▁한국어로
▁것의
▁파랑
갑을
▁비명
▁사이타마
슬로
▁렌즈
▁러셀
▁물어보
▁기호
▁팩션
▁만큼의
▁붉은색
▁알고보니
맞은
▁두목
▁AE
▁초토
복으로
▁나왔으며
▁지나가던
▁림
목적
▁미정
▁앙쥬
▁멤버는
▁충공
▁티가
느냐는
▁max
▁조준경
▁전술을
▁엘더스크롤
▁내각
▁ALL
결에
▁벌여
▁협조
▁서술한
부분을
터에서
▁고생을
▁so
▁승무
▁신전
이었다가
▁돌격소총
덕에
바인
▁남캐
▁정조
들이는
▁소환수
ENT
▁내로
▁있어요
▁토트넘
▁현실에서
▁지날
▁샤이닝
▁오락실
▁트로피
▁게임상
▁느껴질
▁케이크
방향으로
▁입힐
▁Let
▁숏
▁FB
이라니
패의
▁뛰고
▁극심한
FM
▁개발자
▁날개가
▁텅
▁대역
▁포커
▁피처
다닌다
▁지도를
격의
▁Li
카츠
▁말소
▁배송
▁카레
▁예시로
▁카메라를
~!
▁허리케
▁편에서는
희와
▁출몰
▁시장이
▁개더링
▁대미지는
▁인상적인
▁말레이시아
매체
▁실업
▁헬게이트
▁다툼
▁이데
▁앨범에
▁인터뷰에
▁이만
어진다
▁스트라
▁중전차
프로그램
급인
▁처녀
▁했다면
▁.5
선수권
히면서
▁LOVE
▁예방
걸이
임의
▁시초
▁장을
▁치며
▁바다의
▁쉐도우
▁프로그램의
▁루피
▁소통
▁아직은
▁관점에서
▁냉각
▁알리는
비나
▁놓아
▁애로우
▁죠죠의
▁1965
▁갭
스페
▁데는
점이다
▁에피소드에서는
발사
▁파이터즈
▁피치
▁부품을
▁선택이
▁특수부대
의회
▁삶의
▁서지
▁대격변
▁생기면
▁패러디한
▁업데이트를
되긴
코인
ield
▁평화를
▁명목으로
▁ES
▁밸런스를
오닉
갔다가
하자고
▁걸어가
▁변했다
▁펼쳤다
ott
▁불분
▁GDP
▁던지고
▁함정에
▁연막
▁표를
팀에
▁패배한다
▁Power
++
시부터
하려다
▁피규어
들아
▁MV
▁에코
▁설정되어
▁애니메이션에서
▁더한
▁실정
▁후한
▁업적을
▁공명
▁더러
▁호출
카드가
▁핀란드
철수
▁사용했던
예가
▁인근에
구단
너와
데르
찮은
▁연수
▁총선
▁12,
▁살리기
▁에스파
일생
▁혼인
▁장소로
▁높아진다
▁주면서
▁실책
▁제프
▁와서는
▁구르
▁발차
▁유목
▁육박
▁커먼
▁레이지
▁마음은
▁타고난
▁포함된다
이요
▁자연스레
▁초기의
미래
▁류현
▁FL
▁Sun
▁연상케
워커
틀링
티오
산에서
▁소모가
킹이
▁컴퍼
▁게임과
▁자격을
▁붙어있다
▁버티는
hammer
▁버전에서는
거진
▁고베
▁죽자
▁프리즘
과목
년경
▁산악
ons
▁김도
▁퀴즈
▁공포에
▁줘야
▁티베
▁미즈키
▁트위터에
▁대박
▁짝이
▁공통점이
▁위험하다
use
▁먹튀
▁호구
▁노홍
▁문서가
▁Blue
▁스토리에서
▁류의
▁검열삭
▁생겨난
▁와인
▁수익을
▁종점행
▁독립운동
▁찾은
모자
발매
▁속이
▁오가
▁이녀석
▁영동
▁책정
▁WCS
▁아리스
▁파우
UC
개념
▁비범
▁달라서
▁뭔가를
▁확실하다
▁파워레인저
이팅
▁콜라보레이션
▁현대에
▁어려움을
▁무대에서
▁쩔
▁발간
▁Dis
▁미유키
▁트위치
▁일으킨다
▁필사적으로
퀘어
▁사모
▁학대
▁줄었다
▁카이저
춘다
▁그렌
▁성대
케이션
▁대통령은
▁단간
▁123
▁보이나
▁비교해보면
▁법무
▁전도
▁기점행
▁사장이
▁유저들을
▁착용하고
양은
▁속옷
▁스틱
▁위화
제국의
▁비춰
▁인트로
▁손자
▁더럽게
▁스택
▁여인
▁Ang
▁DDR
▁브루스
▁추가되는
▁아다
▁위키백과
수수
▁이루어진다
군도
oss
▁광복
▁속을
▁112
▁Sec
▁가슴이
▁숫자를
▁페인
▁호리
▁앞에서는
월을
▁스이
▁이천
port
▁불쌍한
▁친구들
▁욱
▁경질
▁얀데레
▁많아졌다
만다
새를
▁관해
▁이르렀다
코프
▁NHK
▁인류를
▁분야에서
▁뒤인
▁맞아서
▁중심이
어인
▁왕족
▁여배우
▁동료들과
▁틀림
▁레코드
▁수치는
란에
▁쾌속
▁스펙이
▁역에서
▁희귀한
▁음주
▁입체
당해서
▁여자친
▁없었기에
▁미국에서는
▁뒤덮
▁호무
▁카드에
▁분위기는
폭이
황의
▁불완
▁중상
▁편인
▁사례로
▁집안의
▁포트리스
▁Dance
니트
▁숲의
▁감독과
▁인형을
오며
IST
▁파인
▁화약
▁비교가
▁냥
젤레스
▁1-2
▁껄
▁가다
▁질병
▁근거가
▁이성을
▁자격이
이니만큼
▁전쟁으로
룡을
▁끈질
예를
▁노비
▁싱크
▁현대자동차
▁답을
▁업계
▁일가
edia
▁계약이
▁남성이
▁파악하고
증에
▁결혼한
▁모여서
▁충실한
▁인질
▁화신
내기도
▁처참한
드릭
▁불로
▁존스
▁김대중
▁공격하고
▁출신이
▁붙이고
other
▁MT
▁인력
▁가문이
▁압박을
▁황당한
▁0%
▁일원으로
▁반감
▁키르
▁무궁화
잡을
▁이곳을
▁직업이
▁부메
▁소식
▁중위
▁선보인
▁유능한
▁Max
▁구장
▁생각도
▁서비스가
▁Ep
방송을
야에게
타로의
▁입에서
▁죽어도
▁히데요
크레
▁빠질
▁삼은
▁서초
▁111
▁벌였다
▁손바닥
▁웃으며
▁전작에
▁개념으로
▁수준이라
▁기타리스트
노키
inc
▁욕설
웨이트
▁어지간히
▁무장한
▁BW
무도
▁se
▁샤프
▁이승엽
▁NL
▁첫날
▁호르
▁아이는
▁제도를
▁시외버스
▁제휴
▁측근
▁묘사는
▁악명이
▁지식이
▁충공깽
▁후지와
리히
패치
데미지
OCAL
▁무장은
▁Play
▁오의
▁성격에
준혁
▁대각
▁성에
▁시구
▁방면으로
▁빅토리아
▁타로
사항이
▁파도
년이나
▁어시스트
▁덥
년차
때로
▁부사
▁스테이지를
이시
청의
▁가솔
▁개발에
bs
루에게
▁지배하는
▁사회에
▁성능도
▁두근
▁인플
▁해저
▁박상
▁농민
▁맺은
▁배로
▁끝내고
▁엔트리
▁쿄스케
▁one
▁되어있는
그림
▁즉각
▁서번트
▁헤드샷
▁제레
스터의
▁그라운드
▁뉴질랜드
}{
툭튀
티넘
▁계곡
▁EXH
▁메탈기어
▁width
▁위험을
▁일으켰다
▁명령에
▁오리온
▁박경
▁레나
▁워크
평이
환승
▁태생
▁펜타
▁바랍니다
▁안드로메다
▁빚을
▁정재
▁충남
▁카리스마
▁해결하기
라인을
부분에
▁패배했다
▁말리
▁얼터
▁노르웨이
기시
ush
▁분포
▁후일담
블러
▁우연
▁BASIC
▁유한
yout
▁대학에
무니
톤의
게임을
▁마르크
▁수단으로
▁피해량이
ny
▁야망
▁내용도
▁장소가
▁크기는
▁일러스트는
▁곳의
▁부추
▁한복
▁의문이
▁데스티니
▁연금술사
▁아킬
▁재직
▁순위가
▁뎀
렌이
블릿
▁개국
볼로
▁투하
에나
▁전전
▁모를까
▁페이트
▁양키
▁팔찌
▁넘기
▁총에
▁점프를
어라
irst
▁세계관의
YP
▁am
▁시온
▁올리면
▁하스스톤
▁밧
설정
검이
타르
▁값을
▁짧다
▁배경은
▁직업은
▁패치에서
책임
▁경기력을
▁중시하는
▁예정이라고
▁쐐
소울
ual
▁버금
▁다니던
▁청나라
▁별자리
▁지어진
▁지지하는
▁차량으로
▁Korea
▁볶
▁cl
▁야구선수
마인
킥을
▁고리
▁띄게
▁대대적인
▁일이었다
▁놓았다
▁동물의
▁프리즈
▁주기적으로
안과
용과
▁권능
ship
volution
eep
▁명대사
▁괄
▁FX
▁대적
▁EM
사령부
▁IDOLM
▁요우
▁칼라
리어가
▁위치로
▁활약한
▁딕
▁코카
▁유희왕의
▁타니
▁신입생
수아
▁수행하는
타우
▁시스
▁빠지지
▁조선시대
식품
▁119
▁신화의
▁높아졌다
원인
▁병맛
▁요시노
▁캐리어
▁리리
▁안도
▁스킬인
구한
론파
▁스커
▁뭔지
▁원이
▁춘천
▁빈도가
▁수에
▁파스
ough
▁의식이
▁피해는
08
▁고를
스터를
ring
▁구멍을
▁레이저를
원에게
▁키스를
▁고발
▁채취
▁예전의
▁해를
▁공휴
▁오리진
▁쓸데없는
일까
집은
▁우미
▁이러면
▁인챈트
엘을
▁비어
▁줘서
...'
▁인가대수
▁베기
▁자르
▁기사에
▁니트로
aj
▁깁
베가
▁돌릴
▁커비
▁맛있는
▁정의의
▁않겠다고
▁염려
▁오너
탄에
▁Rem
▁에리카
▁한번씩
▁걱정하는
▁양호
▁추출
명에게
커니즘
료로
▁릴리
졌다가
▁만나러
소문
주거나
돈이
-01
▁마법에
▁만큼은
▁한국전쟁
▁자잘한
▁찍으면
▁관동
▁기술에
▁우투우타
구슬
▁라파
이드가
▁구하고
▁타락한
▁합류한
▁강조하는
▁기억하고
술에
▁경성
▁꼽을
▁미로
▁조직을
버는
▁어디로
▁쓸만하다
RAM
▁주체
▁스타트
▁벗어나지
▁전성기를
▁컴퓨터를
▁훅
▁되어도
▁시스템으로
▁야전
▁우습
▁우천
▁이온
▁가이아
▁면적
▁UFO
▁마마
▁미국을
▁크로아
▁점거
▁현존
▁과거가
▁돌아오지
발전
소스
하단
▁애틀
▁나이프
▁섬을
▁개그를
▁걸리지
▁스킬에
:1
▁것임을
▁역대급
▁김명
▁번은
▁인체
▁토탈
▁루리웹
▁마크로스
▁아카네
▁역사의
▁고토
▁엄격한
인형
▁꽃을
▁양보
▁한지
▁켄지
▁연합군
녀로
▁SO
▁무리를
▁승리의
▁전자기
▁병원에서
▁Sm
▁소극
▁초코
▁원한
카이저
▁단어로
▁때로는
▁아르헨티
감의
두자
▁레지스
사자
▁미완
▁버거
▁서민
▁진에
▁표방
▁우주를
▁트럼프
▁진행했다
▁넓고
▁울고
놓는다
▁이오리
▁중심의
▁낮추
▁한숨
▁붙잡고
▁언어를
▁마누
▁질이
대며
않고
▁마초
▁다르기
▁환경이
▁째
▁스냅
메트로
▁갑툭튀
기생
▁독이
▁북한이
▁눈물이
▁알아채
▁시인
▁오피
▁품은
▁연사력
▁휴스턴
▁주어진다
ALL
▁찍힌
▁꼬리를
▁타입이
▁댈
▁개화
▁문구
▁버닝
▁서해
▁한탄
▁디스코
상자
ane
▁타게
▁환호
플렉스
▁세계는
▁시네마틱
식에서
▁시즌의
▁배치되어
▁쓰자
▁카시
▁우주선
▁군사를
▁그걸로
▁우주로
▁의미심
▁멤버들을
▁존재감을
▁기합
▁빨강
▁카디
▁편의점
▁싶어하는
▁금호
▁내어
▁키운
▁행적을
▁와이번스
▁과거로
▁눈치채고
▁예상된다
ube
는지라
편이다
▁완구
▁권총을
▁제작을
▁직업을
▁코끼리
▁승리했다
▁웹사이트
▁충분하다
bps
▁검의
▁단백
▁오징
▁노래의
▁전통적으로
▁병을
▁중도
▁Comm
ERS
▁받던
서에서
▁리모델
▁필요없
▁평도
▁아침에
▁주민들의
누마
▁광선
▁왕따
▁젤리
▁싸우다
▁재미가
▁있었으니
▁지대
itch
▁비롯하여
▁스트레스를
▁터질
▁진행한
▁오리지날
용사
▁덮어
▁무빙
▁신병
▁유세
초마다
고쿠
스탯
▁sm
끼리의
행위를
▁살인을
▁하지는
▁충청남도
▁이루어지는
해지면
▁버전에서
▁구해준
▁진영의
▁미르
▁연세
▁전이
▁성우를
▁영토를
▁다름없다
▁바다를
▁반격을
▁크로우
▁요르
▁정도라고
▁즐기
▁학창
▁서울역
▁베이스볼
▁백합
▁어둡
▁유신
▁자진
▁루트로
▁매스
▁진상
▁교통사
▁전차가
▁레바
▁조인
▁대세
▁퍼니
▁드레스
▁자사
년까지는
일기
▁월요일
▁소설의
▁작게
▁광범위
▁나가면
▁잔인한
정역
▁볼을
▁장갑이
▁셸
▁가차
▁장학
▁중년
▁남성의
▁Over
남이
▁독백
▁일화가
▁한명이
▁기차
▁열람
▁이어나
▁거리에서
▁발매국가
▁맵에
▁책략
▁어중간
▁파괴된
▁많았는데
▁유튜브에
UE
저우
▁지온
▁메르세
▁들어왔다
▁Leg
▁사이에선
▁크리스티
▁소유하고
CC
▁교양
분에서
▁데에는
▁인간에게
러로
▁Da
진행
천년
ady
▁가넷
▁돈은
▁제식
▁현황
▁활을
▁기성
▁들키
▁위저
▁전학
▁슈퍼맨
측은
▁느리게
▁부진한
주년을
04
▁내서
주의가
▁선물로
▁왔다고
급한
▁딸의
▁입어
만하다
▁뉴타입
▁공격력도
캐논
▁가족의
▁솔리드
▁없다가
▁직전의
▁시작되는
▁뜰
무진
▁방화
▁안돼
▁청량
담당
파리
▁꾸미
인당
▁-4
▁용맹
▁홀드
▁마리가
▁숀
토로
▁나데
▁주범
▁토지
▁호드
군인
하든
▁적발
▁이르기
▁추가적인
▁옆의
▁조로
받으며
개만
▁민중
▁씁쓸
▁에버
▁동생이
▁다양하게
▁만들었고
▁오버워치
▁VOCAL
충전
일자로
배에
브와
신한
▁엮이는
▁이룬다
▁참고하자
▁중성
▁행위는
▁라그나로
키타
▁장난을
ATION
림과
화되는
▁유일하다
움의
▁Cy
▁학술
▁UI
▁공속
▁드러낸
▁없었으며
▁인터넷에
▁수수께끼의
기엔
▁능력자
▁라틴어
▁창세기전
▁보던
▁성형
▁바나나
▁테러를
▁빡빡
▁상속
▁내려온
▁없이는
때의
래가
▁썼던
▁목표는
riend
▁프로듀스
근을
▁키는
▁레스토랑
▁메탈슬러그
제르
▁카케
번에서
▁확률을
▁출연한다
▁하드웨어
▁아니나
술은
준을
▁뻥튀
▁스토커
▁맴
궁을
쳤을
▁골목
▁tvN
▁지상파
▁구간에서
▁가든
▁가는데
▁사나이
▁이내에
측이
년대의
▁물러나
▁캐슬
▁소녀가
▁장군이
▁싶었지만
▁가격도
▁관통력
▁존재했던
수입
▁발광
▁코디
대학원
▁1800
▁하늘에서
무에
▁장편
▁상상을
▁Battle
기본
남의
▁기체는
▁단자
▁시조
▁신들의
▁궁극의
▁서로가
▁순간이
▁이기면
▁기운
▁독일군
▁루마니아
▁성균
▁첩보
▁펑크
는지를
▁리츠
▁조교
▁줄이고
▁밝고
▁잦다
▁기운을
▁밀린다
▁항목이
▁위협적인
,7
▁난폭
▁마미
▁저기
▁지면
라이징
▁320
장교
카도
▁무릎을
▁시너지
붕괴
▁경쟁을
▁생산하는
▁MR
▁진동
프트를
▁Music
무대
실히
장소
▁경매
▁리듬게임
카에
▁들러
▁건물은
▁결말을
▁TO
▁로스앤
▁설치한
▁동료들을
▁상관없다
▁운용하는
▁TH
한국당
전력
▁알라
▁보여서
▁총알을
▁기록하는
자매
▁얇은
▁벌어질
▁세상이
▁이시다
빠진
▁단선
▁유벤
인원
자연
▁원을
형이다
▁여자아이
리조
빈의
▁미쓰
▁줄줄이
직이
▁가방
▁형님
▁오마주
▁때문인데
▁어벤져스
▁기본기
▁스페인어
▁주변에는
▁공립
▁줄곧
▁시장을
▁다이노
▁관련해서
▁관절
▁End
▁게릴라
▁군대의
▁문제와
▁맨유
▁왕좌
▁더빙판
▁미라이
▁땜
이름
▁옮긴
▁우리를
ational
대역
유리
▁거래를
▁괴상한
▁묘사된
▁유대인
▁동생을
▁ㅡ
▁로딩
▁무너져
▁미도리
▁탑승한
▁긁어
▁최장
▁실패한다
▁장면으로
헌터
▁친구의
▁황제를
▁러쉬
▁박힌
▁이터널
▁슈퍼아머
▁창시
▁경기의
▁소환된
▁작전에
청년
티에
지지는
▁당하며
▁성기사
▁페르난
ORE
▁104
▁행사를
▁니시니혼
▁캐릭터도
▁Oh
▁갇힌
갔다고
▁축구를
▁방황
▁브릿
▁싫은
▁레오나
▁즐거운
맞는
▁개미
▁괴멸
▁섭외
▁판을
▁제품이
▁스테이션
▁있는데다
ita
▁변질
▁Life
▁않으면서
▁당연하게도
단다
돈의
불이
▁캠퍼
▁장착된
▁발표되었다
▁평가도
▁후계자
▁Good
▁김형
▁수령
▁알아듣
▁좋았던
▁하지메
프가니스
▁생각해보자
욕이
라이프
▁깰
▁쌈
거리표
▁오늘의
▁조금은
▁변함
▁귀찮은
▁활약하는
군데
▁에덴
▁주교
▁out
▁리그의
▁시킨다
억원
경으로
▁Summer
▁두께
▁지라
▁죽어나
▁저주받은
▁끝판
▁난해
▁양을
▁죽었다는
폭풍
▁것들은
▁달에
▁열렸다
▁애니메이션을
▁그제
▁깃발
▁수행할
▁카오루
▁프로이센
상도
▁공습
▁안타까운
▁엔딩에서는
▁MASTER
▁와이어
▁하도록
▁한국으로
오니
▁쌍둥
으라는
타에게
▁늑대인간
▁여겨진다
▁덩치
▁라비
▁입맛
▁모델링
▁봉인을
▁슬로우
▁똘
▁원작을
▁5,000
▁고마워
▁무의식
▁동료들이
▁초사이어
대만
▁속도와
▁굴복
▁사이언
▁정신력
▁지금까지도
▁내정
▁쏘고
▁볼텍스
▁스타일로
맞고
지점
하드
탄으로
▁Out
▁심하면
▁정권을
▁이쯤되면
▁진행하고
▁BO
▁무단
▁피자
부대의
ness
▁참고할
▁취하고
▁보살
▁날아오는
건가
충을
해주지
,6
▁고산
▁찢어
▁은메달
▁왔다갔다
시대에
▁신뢰를
▁진행될
▁펼치는
▁발휘한다
▁뾰
베기
통제
▁줄임
라인의
공장
▁Kn
▁고백을
▁유스케
▁다양하다
범의
▁사이좋게
규칙
운영
▁네놈
▁리사
▁패미컴
▁단간론파
▁스와
▁칠레
▁떠나게
▁장타율
▁1961
▁무엇인지
▁폭사
▁뭣
▁열정
분류
았다가
▁영웅을
▁우승자
▁제도가
건물
▁메구미
규의
레스트
▁새로이
▁에바
▁소리다
▁카드와
커먼
▁꿈도
▁날은
▁받쳐
▁시호
▁버리
▁파격적인
라로
플래
▁서정
▁성숙
▁경유지
▁여기선
▁마음으로
지리
▁지하에
▁돌아가고
▁떨어지기
▁돌아서
▁아스타
품은
▁Vo
▁치뤄
▁아들로
▁위시한
표는
▁원리
렬하게
▁대응하는
▁참여하는
▁갑작스럽게
▁왕은
▁106
▁6%
▁셜록
▁보였던
▁나이트메어
▁ME
▁김창
▁수식
▁유치원
▁좋으며
su
▁몸은
▁매지션
움에
▁가축
▁떴다
▁발견할
▁가능했던
▁아군에게
▁결정되었다
범을
계약을
▁슬라임
▁초필살기
달을
▁카논
▁심해서
▁영화로
▁넘어가면
▁순수하게
연과
▁느긋
배는
▁명장
▁문과
▁줄일
▁모드는
▁행성의
▁그랑프리
▁사례를
▁생기기
▁이상일
▁어처구니
색과
▁부터는
▁SG
▁엑소
▁인접
▁Ste
▁달리기
▁뿐만이
▁협회
주의에
시킵니다
▁컨트롤이
시게
▁치명상을
▁가능하다고
▁남동
▁졸지에
▁타이밍이
▁맘에
▁근본적인
▁날아간다
▁힘들지만
마키
성장
▁살아서
▁가다가
▁계급은
▁형태는
▁웃고
▁제원
▁등에서는
▁주민들은
사태
▁NS
▁베리
▁색을
▁센서
▁즐겁게
▁King
▁블로그에
▁없어진다
▁퍼뜨
스터가
▁비명을
▁제이슨
덩이
▁쇼와
▁역명
▁수상했다
▁특징으로
▁모나
▁유력한
▁라쿠
▁송병
상이다
▁CO
▁탈옥
▁느리고
▁이력
▁109
▁화력은
▁사기적인
레아
▁엇갈
▁1920
▁신축
▁국가에
▁탑재한
▁흘리며
0%
▁메소
▁입국
▁작별
▁모델인
▁스위트
▁XP
▁언급은
▁전설이
문서
aid
▁줄리
news
▁이동을
▁카를로스
▁아직까지도
달의
성군
▁명곡
▁신학
▁가정용
▁나타나지
▁언제든지
이닝을
▁사기꾼
▁챔피언스리그
▁입게
▁세계적인
▁정도밖에
팔로
▁마르코
▁문자를
▁이츠
▁불과한
▁스크립
▁재평가
▁훈훈한
봉이
▁반칙
▁안테
▁선택지가
▁시청자들이
▁구급
▁작다
▁잠들
▁되돌려
▁빼앗긴
▁신성한
▁Hard
oot
▁중얼
▁피하고
▁드러낸다
▁만들어내는
▁나날
▁박용
▁숨은
▁오클
▁느리다
우니
▁쿠바
▁폭이
▁OPS
▁분야의
▁아르메
▁동조
▁서적
▁퀄컴
eath
▁중요하게
▁설명하자면
▁추가적으로
▁등장했을
1.
▁것인
▁엔도
▁팔꿈
▁단연
▁문구가
/15
▁아닌지
▁병사들을
▁VOCALOID
반응
▁공익
▁아울러
머리가
▁과학자
▁생전에
▁1943
▁띈
▁유해
▁축적
▁힐링
▁활동에
▁Ag
▁가가
▁시켰
▁초강
▁폼이
▁첫사랑
▁클로즈
▁가능해진다
▁잭슨
▁여자아
▁슬럼
▁하남
▁대화가
▁보너스가
▁쏜다
▁대타로
▁싸우기
▁수강
▁렐
스톰
남자
행에
▁니가
▁이문
▁기억해
▁잃었다
▁텔레포트
▁공산당
▁도입한
▁라이드
▁뭐라고
▁콜드
▁40,000
공과
철을
▁당나라
▁받지만
▁일련의
▁1942
▁상당수의
▁지원하지
탈출
▁놀아
▁사슴
▁총괄
▁평가받는
▁재해
▁맨시티
▁제목의
▁파괴한다
돼지
▁en
거린다
▁사망하는
▁임페리얼
-35
▁자발
▁피곤
▁눈치를
▁미지수
▁필살기를
▁지역에서는
▁특훈
▁팀과
▁허영
▁뱅가드
▁파키스탄
후는
▁값이
▁배트
▁식스
▁이복
▁츠루
▁국가는
▁충격으로
▁불에
▁폭탄이
▁이어지고
▁괴인
▁성지
준다는
▁비아냥
▁스테이터
▁마음껏
▁말하는데
▁이끌었다
▁구체적으로
▁운항
▁되살아
▁정리한
▁신노스케
▁장소에서
▁송도
▁기겁
▁온건
우러
▁LC
▁걷는
▁듀오
▁만년
▁청구
▁범인이
▁장비는
▁발전을
▁감소한다
▁부처
▁탈락했다
▁미스테
▁영상의
▁히비키
곡동
▁갈고
▁달리고
▁애초부터
부대를
페이즈
▁비교해도
IGHT
▁SEED
샤가
▁박격
▁히노
미사일
▁숫자는
▁스튜어
▁장르의
척을
할수록
▁사냥을
▁소리는
▁왕조의
▁레기
▁부활을
▁분량이
▁쓰면서
▁초대형
▁가르치는
▁아니냐고
▁해야한다
▁뒤바
▁상에서
▁종착
되기에
▁느끼지
▁던진다
팅이
▁부풀
▁스스
건으로
▁외모와
▁좋아해서
▁듀얼리스트
▁쑤
-30
▁악세
▁후엔
▁백화점
▁1946
종료
비아의
▁누명을
▁정문
▁대표로
▁반응도
▁치루
팬들은
▁대한민국에서
GO
메르
▁동참
▁보르
▁영역을
iew
▁상사
▁호날
▁우승한
▁이정도
▁회사에
▁여러가지로
▁바그
▁이계
-200
▁캇
▁생존자
▁이해하고
AE
▁슬리
판정이
▁1.9
▁결론을
▁군사적
▁무실점으로
엘라
하냐
▁검이
▁결의
▁네타
▁소실
▁케인
▁팀킬
▁1-1
▁날리고
▁알다시피
▁유럽에서
여단
▁듀엣
▁사임
▁신념
▁밖에도
▁선정되었다
▁거나
▁충북
에서야
▁분리되어
수나
지금
초메
▁시야가
▁애프터
▁Dragon
▁사카모토
▁버터
부대가
▁음모를
▁독보적인
▁죽어가는
▁조항
▁호박
▁
이
다
.
는
에
의
로
가
하
지
을
고
서
기
,
한
도
리
스
를
사
1
어
은
나
인
시
아
라
0
으
대
자
2
있
수
게
그
만
해
전
들
면
정
일
보
상
마
장
부
드
주
과
제
트
되
우
적
성
었
오
니
3
것
와
미
신
데
모
공
여
유
했
소
무
구
문
비
동
중
e
5
위
-
타
경
터
치
때
국
거
년
4
진
레
화
원
선
용
'
9
히
며
카
조
러
당
후
a
세
없
간
작
명
등
된
력
실
버
야
내
연
6
할
개
생
o
바
8
방
려
계
르
단
크
7
격
안
영
i
역
차
발
:
프
물
던
r
체
t
반
않
n
재
요
키
분
관
파
노
더
본
말
S
까
"
래
운
교
점
포
월
음
회
속
학
코
건
행
능
식
토
저
A
임
피
호
s
루
강
군
두
통
즈
결
/
입
각
불
C
초
번
종
매
배
출
l
였
현
디
처
같
판
최
설
메
함
남
형
m
준
른
T
편
M
많
산
티
직
심
린
받
승
태
람
P
외
특
브
난
감
d
급
양
D
달
E
투
알
h
금
았
온
추
예
B
살
패
약
런
테
!
표
언
u
업
습
법
못
든
c
목
민
록
I
플
네
R
병
걸
너
복
권
L
워
O
돌
술
따
합
G
름
독
좋
론
참
란
천
애
막
평
절
올
황
날
변
머
존
집
캐
N
근
또
박
쿠
왕
질
쓰
F
청
항
울
츠
죽
션
베
별
필
g
악
활
환
페
열
확
망
순
블
김
y
향
커
릭
류
K
족
져
담
탄
느
맞
랑
잘
p
V
엔
친
석
~
품
듯
량
%
클
k
곡
케
잡
볼
광
퍼
H
먹
증
?
련
럼
손
료
팀
녀
쪽
총
긴
+
폭
뒤
탈
f
글
백
접
극
범
송
높
창
완
졌
령
색
갈
얼
철
효
께
길
혼
몬
킬
검
벨
새
힘
X
v
렇
벌
충
누
밀
줄
겨
닌
빠
움
락
삼
괴
U
림
겠
채
슈
b
험
W
귀
슬
끝
북
싸
렸
왔
립
w
쳐
즌
넘
골
육
취
엄
혀
냥
견
맨
랜
틀
착
곳
덕
축
눈
희
놓
택
앞
쟁
링
규
엘
큰
칭
템
붙
될
허
팬
득
턴
#
째
므
릴
널
및
냐
찾
봉
책
늘
뿐
징
몰
찬
응
떨
갑
끼
침
먼
곤
둘
몇
측
얻
암
굴
첫
큼
센
팔
률
헤
좀
잠
율
J
짜
풀
풍
혹
억
밖
쉬
벤
킨
써
즉
럽
켜
묘
압
몸
획
씨
협
훈
슷
답
떠
갔
논
찰
휘
궁
례
홍
돈
빌
싶
염
났
퇴
님
맡
Y
넣
뉴
칼
쉽
쓸
벽
밝
익
슨
숙
액
샤
컬
낮
콘
봐
x
웃
뛰
낸
딩
찍
탑
빈
닛
깨
갖
델
렌
앙
]
폐
컨
끌
옥
략
웨
홈
꾸
층
죄
멸
욕
[
멀
킹
좌
롯
꽤
&
쇼
싱
잔
멤
딜
켓
놀
팅
숨
윤
롤
짓
씩
덤
닝
빨
념
웅
콜
솔
뜨
욱
흑
<
낙
혈
뜻
객
됐
칸
척
농
텐
폰
픽
힌
맥
칠
듣
뮤
빛
룡
Z
랙
렉
큐
닥
맹
섬
폴
겼
헌
왜
빼
닉
끔
흥
앨
휴
롭
램
푸
떤
찌
십
흔
튼
냈
죠
듀
넷
컴
럭
탁
멘
톤
뀌
맛
랭
빙
씬
균
콤
렵
딱
텔
홀
굉
믹
갤
딸
땅
z
뽑
=
혁
둔
쓴
쿨
녹
밥
짝
떻
헬
쿄
뭐
털
흡
잃
맵
쌍
팩
봇
뢰
컵
옷
졸
퀘
탐
셀
켄
몽
윈
뷰
꼬
펜
꽃
찮
웠
탕
젤
셔
쳤
릿
즐
엑
춘
젠
혜
힐
챔
흐
놈
삭
튜
핵
돼
뇌
덱
틴
밤
겐
밴
둥
똑
훨
룹
꺼
꿈
밍
덴
줬
짐
깔
납
혔
믿
낌
싫
랄
켰
읽
럴
탓
엇
퓨
옆
셈
얘
뷔
랐
묻
핑
앤
잉
괜
섭
줘
벗
칙
쥬
탱
붕
옵
낼
굳
핀
롱
짧
Q
빅
춰
륙
덜
펼
촌
곧
꾼
봤
룬
끊
둠
냉
멜
>
틱
튀
펙
캠
*
랍
쇄
렀
닐
)
폼
콩
뒷
셋
끄
즘
깝
넓
촉
흘
덩
앗
셉
떡
렬
븐
쯤
딘
젝
첩
쁘
빵
쏘
겁
쇠
겸
늦
깊
뿌
펠
컷
샷
값
잇
뭔
j
쌓
픈
밑
셜
웹
옛
융
촬
왼
쫓
댄
퀴
랫
쥐
흉
슴
텍
꼭
띄
겪
밸
틸
묵
럿
꼽
톨
뻔
캔
깐
멋
앉
캡
렛
웬
랩
셰
붉
잭
옮
멍
뚫
엽
옹
껴
룰
톰
넥
{
겹
헨
걱
}
쾌
낫
엠
쁜
젊
톱
섞
렐
킥
숫
섯
꼴
썼
빔
짤
_
춤
듬
궤
뱀
뜬
잊
녕
텀
얀
펀
닮
윙
엉
윌
맺
뱅
숲
틈
닫
벼
읍
핸
탠
짱
몹
떼
륜
싼
혐
훌
팡
꿔
쩔
잖
갱
끈
멈
깃
롬
툰
갓
숭
챙
묶
렘
뤄
삽
댓
뀐
퀄
깎
좁
됨
룩
첨
츄
빗
륭
곰
꿀
렙
탯
넌
켈
렴
쩌
낭
밟
넬
샌
팝
뉘
덮
릉
횟
빡
릇
낳
봄
삶
눌
쨌
q
룸
랬
곽
낚
샘
땐
쏟
렁
겟
섹
쿼
녔
흰
윗
늑
퀸
팽
셨
닿
첼
둑
딴
쩡
뼈
덧
긍
껏
앵
;
툴
쟈
섰
뭉
뚜
핏
뜯
왠
얄
뜩
흠
뚱
닭
겉
걷
킷
펴
썩
낀
썬
톡
쭉
횡
엮
챠
훔
왈
냄
뱃
넉
슛
멕
곱
맘
엣
훗
웰
꺾
쉐
앱
똥
펫
펄
줌
딕
낄
쏠
삐
썰
섀
뿔
찔
턱
핫
넨
햄
볍
뿜
펑
깡
쩍
쏴
잦
쉴
꽂
벅
긋
씹
돕
칩
뮬
맷
챈
띠
챕
뻐
뺏
뚝
쵸
깜
듭
헐
돋
헛
갇
빚
놔
닷
눠
괄
곁
탭
싹
놨
릎
@
녁
꼼
훼
딧
엿
뎀
뭘
푼
됩
몫
ㅋ
텝
멧
밋
컸
슐
펌
겔
찢
|
잎
튕
밭
엎
ㅣ
킴
깥
돔
붓
\
퉁
둬
옳
뒀
캣
힙
$
씌
팟
쌀
딪
챌
풋
듈
툭
굿
옴
벙
휩
콥
캘
벳
뻗
밌
콧
쿤
팍
캄
툼
벡
껍
픔
냅
늬
뽀
땡
꼈
굵
휠
쪼
뱉
샵
흩
쏜
흙
헝
츤
늄
꿰
깽
귤
쑤
뻥
큘
늙
갚
솜
튬
갯
헷
첸
끓
텟
뭇
솟
칫
굽
얽
끗
붐
콕
줍
췄
귄
젖
륨
꽉
쿵
긁
ㅇ
킵
젼
궐
앰
얹
팁
뤼
슌
샬
셸
햇
쨩
퍽
튠
뻘
웜
짙
팰
캇
꿨
닦
콰
탔
쫄
옐
샐
쯔
눕
쫒
숴
짬
팜
얇
짖
뇨
젬
잣
앓
겜
렷
짚
꿉
뮌
뽕
삿
뉜
댐
랴
쑥
씀
볶
떴
펭
샀
꽁
잼
씻
넛
홋
퀵
댔
얌
ㄷ
랏
ㅡ
썸
컫
갸
홉
맙
짠
젓
굶
뺨
댈
쥰
꾀
왓
맑
뤘
텨
땀
껄
쌔
헥
껑
샹
퐁
텅
(
욘
탬
딥
뜰
낯
윽
푹
쁨
캉
젯
뺀
깁
벚
뜸
늪
궈
밧
꿇
똘
뛴
밈
꽝
덥
숍
쎄
쌈
륵
윕
샨
넵
쉘
옌
훤
ㅅ
닙
룻
샴
낡
웍
룽
뽐
깠
숏
ㅎ
훅
멩
탤
캅
땜
ㄱ
싣
얕
릅
빽
숀
굼
뚤
벵
뀔
쩐
뫼
찜
씁
눅
떄
둡
핍
싯
^
갭
맴
윅
ㄴ
쭈
왑
쐐
ㄹ
찐
`
쌩
댕
뾰
뺑
챘
뎌
썹
ㅠ
걀
깬
뛸
깍
꿍
뭣
깰
덫
퀀
돗
늠
띈
뻑
좆
ㅈ
ㅁ
잽
낱
꿋
폿
꾹
츳
괘
팻
맏
쥴
췌
칵
캬
슘
찝
빴
쥔
윳
껌
팥
찼
짊
뎅
솥
잿
읊
ㅂ
퀑
쉔
즙
켐
랠
뭄
힛
뱌
댁
쳇
촛
셧
뿅
뇽
얏
괭
핌
얗
렝
콴
딛
깅
퀼
썽
쉰
폄
빤
왁
짭
섣
멱
켠
꼰
랗
덟
찻
쏙
쁠
옅
씽
궂
츈
츰
쿡
펩
셴
닳
됬
놉
팸
쿰
딤
뷸
곶
솝
엥
햐
샛
넴
핥
쟝
뎃
갉
씰
뮐
숄
횃
숱
꺽
눔
숟
땄
촘
뎁
걍
춥
컥
찡
맣
쟤
쌌
걔
띤
쾅
뮈
팎
얍
쐈
믈
넋
앳
귓
땠
헉
휙
끽
뺐
띵
듄
맬
봅
촐
슝
놋
쉼
텁
컹
튤
삑
엡
텼
쾨
캥
쎈
줏
텃
톳
돛
헴
ㅊ
뵈
녜
휼
웁
듐
떳
팠
삥
밉
륀
쟌
뒹
쓱
핼
뿍
웡
튄
갠
갬
쫙
ㅌ
찹
듦
뼛
톈
엌
ㅍ
뺄
뇰
숯
볐
꿎
쪄
쾰
뗀
쿈
녘
눴
ㅏ
폈
갛
잰
댑
뻣
퓰
퓌
묠
쑹
윔
잤
쬐
쥘
깼
춧
끙
볕
짰
딨
괌
뗄
낑
힉
슥
쑨
욤
훑
펍
ㅜ
뻤
쌤
홧
뿡
쨋
쇳
욧
첵
꺄
낵
앴
욜
긱
샅
롄
츨
뵙
넝
횬
귈
냠
몄
칰
닢
먀
쭐
삘
늉
땋
큭
겅
슭
빰
뵤
켤
꿩
눗
퓸
챤
챗
텡
꽈
뀜
헹
빕
쫑
죤
벰
랖
ㅉ
닻
셌
굇
샥
튈
땔
씸
팼
껐
즛
쑈
쇤
딫
넙
쏭
쿱
윷
냑
힝
틋
쉈
냇
띌
탉
뗏
냔
깻
웸
엾
궜
훙
ㅔ
뵐
ㅓ
뮴
촨
햏
햅
욥
멥
뭍
헵
혓
ㄲ
펨
쩝
ㅗ
맸
흄
킁
쫀
쌘
쭘
쪘
꼿
빳
뷜
좇
뮨
뜀
떵
몆
깟
ㅆ
뗐
멎
젭
숑
뀨
찧
뺌
돡
볏
큅
묀
챰
옙
웩
큥
캑
ㅐ
뒈
튿
긔
쨍
콸
넸
콱
젔
뻬
쿳
옭
젋
쐬
띨
쮸
봬
짢
껀
뤽
꽥
쌰
훠
멓
죗
휑
믄
쳉
뭥
넒
볜
솩
쩜
옻
짦
휀
넜
샙
썅
둣
붑
큔
띔
잴
썻
믐
셩
뽈
뎠
셍
댜
쩨
냘
맟
쌉
뜷
좡
곪
팃
쭤
룀
틔
롸
펐
됭
섕
잌
꼐
쳄
쉿
탸
촙
쯧
슉
햣
엷
윰
흣
뎐
겋
얜
묽
츔
옇
뎬
읏
곯
솅
왐
묜
휜
빻
뉵
텄
헀
겍
뺴
껸
떫
탰
닯
뽁
쨰
쁩
춋
쾡
퀜
ㄸ
춉
갗
뉠
앍
뱁
뼉
줴
챵
퉜
꽐
쫌
핳
홑
ㅃ
겡
랸
쨔
쭝
슼
닼
륄
솎
짹
큄
푀
퍄
퐈
퉤
앜
돠
붇
ㅑ
좔
퉈
옼
쳅
칡
쌕
챳
꺅
뭡
뢴
쇽
퇘
뷁
꿏
읭
졋
켁
갰
굣
횽
삯
삵
팹
쉑
눙
왱
쒀
밞
똬
벛
겊
훍
갹
ㅕ
겄
떽
븀
땃
곗
밎
읜
촤
묄
켕
뵘
샜
샾
ㅟ
헣
웻
뷘
푈
롈
읆
벱
큿
뀝
컁
궨
왘
꺠
쉭
첬
푯
앎
뎨
똠
뼘
솀
ㅚ
뷴
돚
귐
켑
넹
쀼
췬
괵
ㅄ
돤
늅
븅
헙
됴
섶
츙
꾐
꽹
벞
솁
늡
홱
솬
ㅛ
옉
젱
쟀
ㅢ
숌
볘
찟
촥
맆
쏩
윾
묭
삔
좍
걘
뱐
졔
씐
졍
셤
훵
됸
쎌
쫘
ㅖ
겻
챱
멬
쨉
뫄
룔
궃
낍
흭
쳔
겆
괸
븨
쒸
믕
휄
쏨
웽
쭙
큽
뵌
엊
낢
휨
읇
풉
캤
큠
듸
뒬
쒔
깄
쩄
톄
휭
뗌
뤠
캰
섥
붸
옯
웤
좃
핡
튽
뾱
쥠
핰
뱡
빱
밣
쳬
헸
귯
땁
믓
곬
껫
몐
짯
ㅞ
뉼
먄
쟨
홰
낟
뚠
롹
묫
읺
쨜
춍
퀠
ㅒ
짼
쬬
ㄳ
꿴
폽
퓬
슾
쬔
꼇
녓
앏
쪙
찿
푄
믜
솽
헿
뙤
뚥
렜
튐
릐
옘
땟
뙇
픕
뉨
섐
솨
좨
툐
맻
웟
횔
ㄺ
헠
묏
벧
섄
됫
멂
싴
죌
훓
쵼
퀭
걼
귁
멨
붜
뽄
끅
뗑
밷
숔
엪
꽌
낏
눝
뵹
뻇
찣
촹
흴
긷
삡
섈
줫
귿
슙
흫
륌
ㅘ
쉠
퓽
녈
룅
췐
혠
ㅙ
쎘
왝
켯
큇
랲
몌
풔
햝
횻
휫
뽜
숩
앟
읖
큣
뭅
푱
흝
쉥
웝
젹
눞
밐
븝
쭌
툽
껨
닠
똣
쯩
쿽
펏
훕
ㅝ
곂
뜹
럇
햔
듕
벋
왤
읔
쟘
츌
툇
튱
갼
끕
뢸
봣
싀
쎾
죵
큡
떈
뭬
쏼
쥿
똔
랼
맠
쑴
짫
냣
쟙
퓔
햘
뇬
뗴
뼝
쎼
춈
퓐
뱟
욀
쨘
흽
뎡
떙
띡
읗
쨀
챨
툿
핲
걲
깸
녠
돝
쟛
휸
떰
뚯
셕
쳣
꾜
덷
땍
삣
셱
콯
훝
힣
묾
봑
솓
욬
즤
캪
톩
뺘
짇
핬
섵
솃
쑬
쨈
춫
팤
굥
떱
벴
슁
앝
큉
횐
삷
옜
쯋
쿙
쎔
얆
읎
궉
꾿
뜽
쟉
틉
홓
ㄻ
꺵
퐝
덪
몪
얶
읕
쳰
ㄼ
눼
컽
갞
괞
뀽
늣
뭏
뮻
봙
씼
좝
캎
ㄵ
귬
넼
먕
앚
쳥
ㄶ
뵨
썪
쐰
얠
핧
댱
덬
뷕
뿟
죔
긺
딮
맕
뷧
븟
뺙
엏
쳘
퉷
ㄽ
곘
깹
꿘
솰
읒
죈
츕
캌
틍
틑
끠
볓
빋
뻰
쌨
쓔
엶
쟐
졀
즁
쬘
튭
풂
ㄾ
겝
룝
졈
촵
쵤
핱
믾
뻉
쉣
쓩
엙
ㄿ
ㅀ
괼
뚧
앺
챡
흗
걋
넖
덞
맢
몿
뺭
쁑
솊
싿
윱
쾀
툠
퐄
괍
껭
꿸
덖
몀
썖
쐇
씡
읶
쫗
쭁
캿
꼳
뀩
닺
뚸
띰
뱄
뺸
죙
쥑
햤
혤
굄
껜
꾄
뗘
뙈
띱
륍
븍
븜
뿝
쒜
씅
읻
캭
퓩
껒
꿧
놘
룐
륑
륫
먐
앋
앖
얔
옝
읃
잆
좐
쥼
캢
캴
훽
굷
귑
깉
뉸
돐
뜌
몃
뷀
옾
욺
칲
킄
녤
띁
룟
뱍
뺩
삠
싈
쌥
쏫
욍
졷
줜
츼
켬
킈
꺨
넗
늴
뒨
뜁
롮
롷
룁
벜
뺵
쀍
썡
쎅
쟎
쮜
쯕
챦
췰
캼
툥
걺
궆
끎
뇻
뚬
랔
롼
맜
벫
샄
쎠
쐴
웦
죡
쵱
켔
퀫
텬
픠
햑
됏
뚭
숮
쑝
엨
욹
젧
짋
췍
켸
톺
톼
휏
걜
냨
늗
돨
됄
듁
땨
릍
먈
뼤
솧
엤
왬
읓
읷
죨
쩬
츗
콬
튁
퍅
훚
냡
둟
딲
륏
봘
셒
슶
쌐
얉
쾍
킅
틩
겯
곷
깩
놧
뒴
뚀
럄
롑
쌋
쌜
욌
윶
읅
잍
췃
췩
팖
픗
뇐
뇩
밨
밪
붱
얬
엹
졘
쥣
챂
컾
탶
퇼
푕
곈
긇
덯
롶
뢱
빝
뻴
섴
슽
얺
옿
읠
튑
틊
퍈
끉
낛
낪
돇
뛔
몯
볫
븃
뻡
쑵
엳
옺
졉
좂
쯥
찦
칬
톸
퇸
펲
햡
훰
굔
긑
껠
녯
닜
먁
뱔
볠
뵬
븡
뽝
삳
샼
섁
섧
쏵
앶
얐
잨
죳
줭
쥽
쫍
쫏
콦
킼
꺙
끟
낰
넀
놰
뇸
땝
똏
럐
뢔
맽
먺
뮹
뱝
봔
뽂
샏
쇨
쎆
쏀
왚
웈
잋
쥡
쨤
쯱
챃
쵝
춀
칯
쾬
쿸
팊
푠
곌
곹
긘
꺘
냤
녂
녑
댠
댸
덛
륩
맀
뫃
밊
벹
볻
봥
븥
빧
앆
얊
얖
엃
엵
옄
웱
윜
읋
좄
쥤
쩃
쩠
쳑
헑
횅
귱
깺
꺔
끵
넊
댤
돎
둉
럅
롓
롣
멉
벐
봊
붏
붗
붴
뻩
쀳
삻
샇
셥
솦
싑
얭
옧
욋
욯
윘
잛
줸
짘
쪠
찎
쳌
췻
컶
켙
퀧
턍
퉅
푿
풰
퓻
핓
헼
홇
힜
힠
갘
궝
궬
깆
꺗
냬
놜
눋
늧
덨
돟
떪
똟
똭
랕
릳
맇
몔
뫙
묙
뱊
붊
뺍
쀏
섦
쉅
썌
쒕
앒
앧
얋
쟞
짞
쨕
쩰
쪾
쯰
켱
쾩
퀌
팏
햬
홥
횰
횸
훟
겞
괏
굘
껶
꾈
뀀
뀰
넢
놂
뇔
덭
뎍
됀
듫
떔
렡
밦
밯
벍
벓
뵀
뻠
뾸
뿨
쀠
쁭
샊
섡
솸
쉡
싾
쏱
쏸
쐉
쓿
씜
얙
엫
욷
욿
읉
쳡
쵀
쵹
캍
텦
톲
핟
핣
햛
훡
휵
힁
굻
궷
껩
껼
뀠
됌
떘
떯
뜅
뤈
맫
맼
밬
벎
볽
붘
붯
빪
뼸
뿛
쁌
섊
솹
숸
싢
웷
잫
쟂
쟬
젏
죰
죶
쥭
쵭
컄
켭
쾃
톹
퇀
퉨
폘
퐌
풿
홐
횝
흇
갂
곀
곲
긂
긿
껙
꼍
꿕
뀍
뀵
끨
뉩
늒
늫
덍
뎊
뎔
뛟
랰
럈
럷
릏
먫
멭
뭠
벖
볔
봍
봡
뵷
붤
빍
빩
뻆
뻿
삧
샆
샠
셑
슸
싵
썛
쎗
쑌
쑛
씃
엍
옫
윁
읪
젴
줗
짪
쬽
쵮
컼
켚
쿗
텤
텰
퉹
팦
푝
픖
픙
핻
햌
햙
햠
햩
햫
홤

갊
곖
곸
궅
궛
긜
꺌
꼻
뀬
뉙
닸
댇
덣
뎄
뎦
됵
듵
딈
딍
땗
땽
뗍
뚦
띳
랎
렿
롫
룍
뤂
륽
맄
맍
멌
뫀
뫌
묑
묷
믇
밡
볱
뵥
빂
빎
빞
뺼
뻈
뿓
쀄
쁙
삾
샒
셊
솤
싰
쌞
쌱
쎕
앀
왯
웉
잏
좊
줆
짔
짥
쩟
쩼
쭸
춸
캏
쿔
탙
탼
턀
펔
폯
핮
괃
궭
꺆
꾁
뀡
낲
넠
녬
눨
늇
닁
닽
덿
뎧
듼
뙨
뚊
띕
랃
뤗
뤤
륻
릘
맂
맊
멏
몾
뫈
믁
믘
믙
뱓
뱦
벆
벏
벝
벟
벩
벸
볌
봆
뵜
뷥
빢
뿕
쁐
삒
삱
슟
싄
싦
싷
쌂
쎴
쏝
쏳
쑉
앛
옒
옰
왹
욛
웆
읐
읹
잗
잚
잪
쟃
짆
쭵
쯉
챼
쳴
촷
췡
췤
츱
칟
캆
켘
탹
툉
틂
퍗
퍙
퐐
푤
핝
헜
횞
훜
흨
힗
갅
걑
곺
굑
궘
귪
귺
긌
꼉
꾾
꿑
꿿
뀄
끋
낔
넽
녛
놎
뇟
뉭
닏
닶
닾
댯
댼
덝
돜
됍
됒
둫
뒝
뒥
듰
딯
떢
뗼
똻
뜛
띾
럤
렫
롴
뢈
뢉
뢨
룃
룄
뤌
륷
릌
맒
먜
먿
몋
뭌
뭤
뮷
밂
밗
뱜
볃
붖
븰
빟
뼁
뽤
뾔
뾲
뿎
쀽
삮
숞
숼
슢
슦
쌴
쌵
쌸
쎙
쎽
쐑
쓲
씉
씝
엗
옂
옸
윝
읨
젛
젶
졩
즥
쨥
쩻
쪨
쫩
쬠
쬼
쭀
쭃
쮀
쯍
쯘
챞
첡
쳠
쵇
쵠
쵷
췽
칮
캋
탏
툵
팉
퍌
폮
풐
풾
픤
핔
핕
햋
햟
홅
훱
힏
갴
걩
굡
궻
귚
귝
긏
긩
긲
깢
깤
꺤
꼮
꽆
꽇
꽜
끆
끍
끡
끤
낋
넑
넫
뇹
눟
늚
닧
닰
댛
덗
덢
뎈
뎜
됙
둇
둏
둗
둙
둴
듷
땈
뗵
똙
똡
뚮
뜳
뜵
띙
랓
랟
랣
럔
뢇
뢍
뢐
룱
뤨
륧
릠
맗
먖
먾
멊
뫚
묨
뭎
뭩
뭵
뮛
밢
밫
밮
밲
봃
봌
붒
뷫
븸
빏
빖
빸
뻢
뻭
뼌
뽇
뽘
뽱
뾼
뿠
쀓
쀾
삤
삲
삸
셖
솢
숛
숳
쉨
쉪
슧
슲
슳
슿
싕
싻
썜
썭
쎵
쏉
쐤
쑐
쑦
쑻
쒯
쒹
쓘
쓺
씺
얃
얒
얾
얿
엒
엺
옪
옽
욉
욣
웊
웓
웕
윀
읿
잞
쟠
졤
좢
죹
즹
짛
짮
쩧
쫭
쬲
쭊
쭛
쮹
찯
챷
챸
챺
첅
쳗
촏
촾
춣
춱
췁
췹
췼
츅
츩
칢
칽
컈
켝
켣
쾈
퀍
퀏
퀙
큟
탘
탣
턔
텊
텩
텻
텽
톧
폕
폣
퐅
풑
풩
풸
퓅
퓍
햾
헗
헭
홛
홝
훋
흒
흼
힡
갮
겧
곻
괬
궞
궢
궸
궹
궼
귕
귻
귾
긕
깈
깓
껵
꽊
꿂
꿜
꿯
꿻
뀙
끾
낞
낣
넚
넾
놑
놥
눤
눽
뉏
늨
늰
닊
닑
닲
댘
댥
돞
돩
돶
둚
둪
둰
뒁
뒑
듓
듧
듶
딋
딿
떣
뗬
똇
똫
똰
똴
똵
뙭
뚄
뚕
뚷
뛃
뜃
뜐
랋
랒
렄
롇
롥
룯
뤔
뤕
륶
릋
릾
맃
맓
먑
먗
멑
멛
멞
멫
멮
몊
몭
뫅
묩
묯
뭆
뭷
뮝
믂
뱕
뱨
벑
벾
볎
볾
봋
봎
뵫
뵭
뵳
뵶
붝
붰
붹
붼
뷱
뷹
븠
븩
빹
뺃
뺔
뺚
뺶
뻟
뻨
뼏
뼙
뼜
뼬
뽟
뽠
뽥
뽭
쁏
쁥
삝
샃
섢
섪
섮
섻
셐
쇌
쇘
숖
숝
쉛
슆
슻
싺
싽
쌑
쌙
썎
썐
썫
썲
쎀
쎤
쐙
씔
씤
씪
앐
앑
얫
엜
엯
엱
옦
왉
욮
욾
웗
웛
웧
윹
읙
읫
읰
읾
잩
쟜
젇
젗
젵
졎
좉
좽
죢
줃
쥇
짗
쨟
쨨
쫜
쬈
쬤
쬭
쭂
쮠
찱
첰
쳿
촊
촞
촟
촠
촢
촴
쵯
춭
춴
캜
캽
컭
컿
콀
콙
쾹
쾻
큳
큾
킸
킾
탇
퇄
퉥
퉭
튓
튝
틤
틧
틷
팈
팓
폅
폔
퐙
퐞
풒
풹
퓜
픝
픨
햎
헔
헡
헯
혬
혯
혱
홯
횩
휅
갋
갲
갵
걈
걉
겂
겕
겢
겤
곅
곕
곩
괆
괱
괳
궋
궫
궳
궶
귍
귖
귛
귡
긄
긐
긓
긤
긮
깋
깏
깑
깛
깞
깪
꺕
꺢
꺴
껃
꼯
꽅
꽣
꽦
꽨
꾑
꾫
꾭
꿃
꿱
뀁
뀱
뀻
끑
냙
냟
냫
넡
녇
녋
놐
놞
놯
뇄
뇜
뇡
눜
뉫
늕
늼
닒
닞
닟
닡
닣
닪
댝
댬
덀
덌
덙
덠
덦
뎂
돆
돖
됈
됑
됰
둅
뒓
뒵
뒺
듟
듥
듮
듳
듹
딀
딹
딺
딻
땇
땛
떧
떭
떷
뗃
뗆
뗠
똒
똗
똝
뙁
뙍
뙡
뚁
뚂
뚔
뚞
뚢
뚵
뛉
뛻
띃
띧
랅
랻
럂
럲
럶
럸
럻
렆
렏
렠
렢
렺
렼
롐
롕
롵
룥
뤀
뤡
뤵
릆
릣
릯
릵
맅
맋
맔
맚
먆
먘
먚
먛
먽
멁
멪
멷
몁
몓
몱
몲
몳
몼
묗
묦
뭊
뭑
뭨
뭭
뮉
뮘
뮥
뮽
믉
믠
믱
믻
밁
밇
밠
밻
뱛
뱤
뱩
뱽
벘
벲
볟
볹
봀
봁
봈
봨
봫
봴
뵉
붂
붆
붋
붚
붛
뷮
븉
븓
븽
빘
빥
빮
빷
뺅
뺓
뺛
뺜
뺠
뺣
뺫
뻒
뻙
뻞
뻪
뻽
뼇
뼠
뼥
뽴
뾆
뾻
뿏
뿑
뿘
뿙
뿧
뿩
쀒
쁀
쁋
쁎
쁟
쁢
쁶
삗
삜
샂
샢
샻
섑
섟
섨
섫
섲
섷
섺
섿
셙
솑
솖
솘
솼
쇈
쇱
쇴
쇵
쉏
쉤
쉩
슀
슄
슡
슮
슺
싁
싐
싨
싪
싲
쌇
쌒
썀
썋
썍
썮
썯
쎃
쎥
쎨
쎿
쏄
쏚
쏢
쏶
쏽
쐔
쐽
쑞
쑩
쑼
쒓
쒝
쒰
쒱
쒴
쒼
쓉
쓋
씄
씋
씥
씯
앢
앩
앫
앸
앾
얂
얅
얎
얩
얷
엋
엩
엸
옑
옱
옶
왒
왛
왭
왰
왷
욈
욙
욝
욟
욡
욢
욨
웒
웥
윞
윲
윸
읈
읧
잀
잂
잒
잢
잧
쟗
쟢
젒
젟
젨
젮
젺
졜
졵
좹
좼
죕
죸
줋
줐
줓
줠
줵
쥉
즂
즑
짂
짒
짷
쨧
쨴
쩅
쩖
쩗
쪗
쫴
쬡
쬰
쬴
쬷
쭟
쭨
쭹
쯪
찫
찭
챀
챯
첞
첟
첧
첯
첲
촡
쵁
쵕
쵬
춛
춝
춢
춨
춪
춮
췅
췔
췸
칀
캵
켮
켼
콛
콮
콻
쾔
쿜
쿭
퀨
킇
킐
킫
탖
탵
턑
텂
텉
텋
텥
텹
톋
톽
퉀
퉆
튮
튺
틜
팛
팣
퍘
퍚
펁
폂
폇
퐂
퐃
퐆
퐉
푴
푾
풬
풱
풴
퓟
픅
픋
픞
핛
핤
핶
헒
헚
헲
홣
훛
훞
훸
휗
흖
흟
흿
힑
힚
갃
갣
갥
갨
걁
걂
걏
걓
걥
걳
걹
걽
걿
겇
겈
겓
겥
겦
겳
겾
겿
곃
곟
곴
괐
괗
괙
괠
괧
괩
괺
굅
굈
굗
굠
굸
굾
궄
궇
궔
궖
궮
귔
귘
귥
귵
귽
긃
긎
긒
긞
긡
긢
긣
긧
긶
깂
깇
깖
깣
깧
깳
꺀
꺃
꺍
꺐
꺑
꺓
껖
껗
껬
껰
꼄
꼑
꼔
꼠
꼲
꽛
꽭
꽯
꽸
꾔
꾕
꾴
꾺
꿅
꿆
꿝
뀂
뀟
뀢
끚
끛
끰
낐
낧
낻
냀
냌
냩
넎
넏
넟
녿
놁
놅
놇
놏
놕
놤
놩
놬
놴
놶
뇝
뇠
눁
눶
뉍
뉔
뉽
늩
늭
닚
닱
댊
댋
댖
댗
댦
댶
덳
덾
뎉
뎒
뎗
뎙
뎟
뎢
뎰
뎽
돊
돍
돒
돘
돰
돵
돽
돿
됓
됗
됢
됧
됺
됻
됼
둈
둍
둩
둿
뒉
뒕
뒗
뒫
뒾
뒿
듇
듑
듛
듞
딉
딦
딳
딵
딶
땊
땕
땞
땣
땥
땩
땳
땻
땼
떅
떋
떌
떑
떗
떥
떦
뗉
뗋
뗗
뗜
뗝
뗞
뗡
뗣
뗳
뗶
뗸
뗻
똛
똤
똧
똩
똷
똽
똿
뙜
뙬
뙮
뙱
뙴
뚆
뚣
뚩
뚳
뚶
뚼
뛀
뛇
뛈
뛓
뛗
뛛
뛝
뛣
뛧
뛷
뛹
뛼
뜏
뜔
뜫
뜴
뜼
뜾
띅
띇
띎
띯
띻
띿
랆
랤
랮
랳
럑
럪
렓
렚
렞
렣
렦
렳
렾
롁
롊
롲
롳
롽
뢀
뢓
뢘
뢤
뢥
뢯
룛
룪
룳
룴
룷
룺
뤁
뤃
뤅
뤙
뤯
뤱
뤻
륐
륔
륝
륞
륡
릃
릈
릊
릔
릞
릟
릮
맪
맮
먃
먅
먍
먏
먓
먙
먪
먳
먵
멃
멆
멇
멐
멒
멦
멯
멹
멽
몉
몟
몥
몮
몴
몷
몺
뫁
뫔
뫘
뫞
뫠
뫤
뫵
뫽
묈
묍
묚
묟
묡
묬
묱
묳
묺
뭀
뭁
뭃
뭈
뭋
뭗
뭟
뭧
뭰
뭺
뮔
뮧
뮯
뮳
뮶
뮿
믌
믏
믗
믛
믺
밒
밓
밙
밚
뱏
뱒
뱚
뱞
뱷
뱸
뱺
벇
벉
벊
벒
벻
볅
볙
볳
볿
봂
봏
봒
봗
봠
봢
봵
봽
뵑
뵛
뵧
뵲
뵴
뵸
뵻
붃
붌
붍
붵
붷
뷇
뷉
뷋
뷏
뷐
뷓
뷛
뷟
뷤
뷦
뷩
뷭
뷵
뷷
뷼
븈
븎
븏
븕
븘
븞
븧
븬
빆
빒
빣
빫
빶
빺
빾
뺒
뺝
뺟
뺡
뺥
뺦
뺧
뺮
뺳
뺹
뺿
뻄
뻕
뻖
뻚
뻛
뻦
뻼
뼐
뼞
뼡
뼢
뼦
뼱
뽆
뽊
뽒
뽓
뽔
뽖
뽙
뽚
뽛
뽞
뽧
뽷
뽸
뾂
뾃
뾄
뾅
뾇
뾘
뾥
뾹
뿁
뿃
뿉
뿋
뿒
뿗
뿚
뿞
뿮
뿯
뿷
쀌
쀎
쀐
쀑
쀬
쀲
쀿
쁉
쁍
쁓
쁕
쁖
쁚
쁣
쁴
쁼
삂
삚
삹
샓
샟
샪
샫
샭
섚
섳
셟
셣
셦
셷
솈
솏
솒
솕
솗
솚
솛
솞
솠
솻
쇀
쇇
쇔
쇗
쇙
쇝
쇡
쇰
숁
숓
숕
숚
숢
숤
숥
숦
숪
숬
숰
쉙
쉚
쉜
쉟
쉵
슂
슅
슏
슓
슠
슫
싊
싘
싞
싧
싩
싮
싳
쌆
쌊
쌎
쌖
쌚
쌛
쌟
쌷
쌺
쌻
썁
썃
썗
썱
썳
썴
썷
쎋
쎞
쎟
쎡
쎫
쏌
쏏
쏔
쐅
쐏
쐠
쐣
쐥
쐩
쐼
쑀
쑁
쑍
쑟
쑫
쑱
쑷
쑽
쒂
쒄
쒐
쒠
쒧
쒨
쒺
쓀
쓈
쓕
쓚
쓜
쓤
쓷
앇
앦
앲
앷
앻
얓
얰
엓
엕
엟
엦
엻
옃
옓
옡
옲
왂
왇
왖
욚
욦
욵
웄
웇
웋
웎
웚
웞
웴
윚
윟
윢
윧
윪
윮
윺
읁
읂
읟
읤
읩
잓
잕
잙
잜
잟
쟆
쟏
쟑
쟔
쟟
쟥
쟴
쟸
쟹
젂
젃
젆
젘
젚
젻
젿
졁
졂
졏
졐
졒
졥
졧
졬
졺
졽
졾
졿
좈
좒
좜
좟
좠
좧
좬
좸
죘
죥
죧
죱
죷
죻
줅
줈
줊
줎
줒
줙
줮
쥥
쥮
쥻
즊
즠
즡
즨
즯
짡
짣
짩
짴
쨖
쨢
쨱
쩁
쩎
쩒
쩢
쩱
쩸
쩽
쪈
쪔
쫅
쫋
쫖
쫠
쫫
쫬
쫰
쬥
쭬
쮕
쮬
쯇
쯈
쯜
쯫
쯬
쯸
찃
찖
찗
찛
찥
찲
찳
찴
찺
챁
챣
챲
챴
챶
챹
챻
챽
첄
첐
첚
첛
첢
첣
첥
첦
첪
첮
첳
쳈
쳋
쳕
쳧
쳫
쳭
쳼
촁
촍
촎
촑
촒
촓
촕
촖
촣
촻
쵿
춇
춏
춗
춠
춡
춦
춬
췛
츀
츆
츎
츷
칚
칻
캟
캧
컛
켇
켳
콉
콫
쾁
쾋
쾐
쾽
쿌
쿏
쿧
쿩
쿪
퀡
큫
큱
킆
킦
킭
탂
탃
탆
탊
탍
탒
탗
탚
탺
탿
턁
턉
턋
턌
턐
턒
턓
턕
턚
턩
턹
턺
턻
텆
텈
텓
텗
텞
텠
텣
텪
텳
텸
톁
톃
톗
톙
톮
퇍
퇙
퇜
퇣
툄
툑
툓
툔
툘
툝
툡
툩
툫
툯
툷
툸
툹
툺
퉃
퉇
퉐
퉝
퉠
퉱
튎
튙
튟
튦
튲
튳
튵
튶
틐
틒
틓
틘
틥
팂
팄
팒
팗
팚
팮
퍐
퍠
퍿
펅
펋
펎
펖
펗
펡
펬
펰
펵
펻
폃
폡
폳
퐠
퐤
퐳
푥
푧
푩
푫
푭
푷
풄
풇
풏
풕
풘
풜
퓙
퓝
퓡
퓳
퓴
퓵
퓹
픁
픓
픟
픱
픳
핁
핃
핎
핖
핗
핚
핞
핦
핪
핽
핿
햍
햚
햭
햰
햼
햿
헁
헏
헓
헫
헺
혂
혅
혉
혒
혙
혭
홒
홨
홪
홬
홴
횂
횄
횓
횜
횦
횹
횾
훁
훃
훇
훎
훒
훯
휋
휌
휍
휔
휢
휬
휰
휳
휽
흢
흪
힋
힍
갆
갌
갍
갎
갏
갟
갡
갢
갦
갧
갩
갪
갫
갳
갶
갷
갺
갻
갽
갾
갿
걃
걄
걅
걆
걇
걊
걌
걎
걐
걒
걕
걖
걗
걙
걚
걛
걝
걞
걟
걠
걡
걢
걣
걤
걦
걧
걨
걪
걫
걬
걭
걮
걯
걵
걶
걻
걾
겎
겏
겑
겒
겖
겗
겘
겙
겚
겛
겣
겫
겭
겮
겱
겲
겴
겵
겶
겷
겺
곆
곇
곉
곊
곋
곍
곎
곏
곐
곑
곒
곓
곔
곙
곚
곛
곜
곝
곞
곢
곣
곥
곦
곫
곭
곮
곾
곿
괁
괂
괅
괇
괈
괉
괊
괋
괎
괒
괓
괔
괕
괖
괚
괛
괝
괟
괡
괢
괣
괤
괥
괦
괨
괪
괫
괮
괯
괰
괲
괶
괷
괹
괻
괽
괾
괿
굀
굁
굂
굃
굆
굊
굋
굌
굍
굎
굏
굒
굓
굕
굖
굙
굚
굛
굜
굝
굞
굟
굢
굤
굦
굧
굨
굩
굪
굫
굮
굯
굱
굲
굹
굺
궀
궊
궍
궎
궏
궑
궒
궓
궕
궗
궙
궚
궟
궠
궡
궣
궥
궦
궧
궩
궪
궯
궰
궱
궲
궴
궵
궺
궽
궾
궿
귂
귃
귅
귆
귇
귉
귊
귋
귌
귎
귏
귒
귗
귙
귞
귟
귢
귣
귦
귧
귨
귩
귫
귭
귮
귰
귲
귳
귴
귶
귷
긅
긆
긊
긖
긗
긙
긚
긛
긝
긟
긠
긥
긦
긨
긪
긫
긬
긭
긯
긳
긵
긹
긻
긼
긽
긾
깒
깕
깗
깘
깙
깚
깦
깫
깭
깮
깯
깱
깲
깴
깵
깶
깷
깾
깿
꺁
꺂
꺇
꺈
꺉
꺊
꺋
꺎
꺏
꺒
꺖
꺚
꺛
꺜
꺝
꺞
꺟
꺡
꺣
꺥
꺦
꺧
꺩
꺪
꺫
꺬
꺭
꺮
꺯
꺰
꺱
꺲
꺳
꺶
꺷
꺸
꺹
꺺
꺻
꺿
껁
껂
껅
껆
껇
껈
껉
껊
껋
껎
껓
껔
껕
껚
껛
껝
껞
껟
껡
껢
껣
껤
껥
껦
껧
껪
껮
껯
껱
껲
껳
껷
껹
껺
껻
껽
껾
껿
꼀
꼁
꼂
꼃
꼅
꼆
꼊
꼋
꼌
꼎
꼏
꼒
꼓
꼕
꼖
꼗
꼘
꼙
꼚
꼛
꼜
꼝
꼞
꼟
꼡
꼢
꼣
꼤
꼥
꼦
꼧
꼨
꼩
꼪
꼫
꼱
꼵
꼶
꼷
꼸
꼹
꼺
꼾
꽀
꽄
꽋
꽍
꽎
꽏
꽑
꽒
꽓
꽔
꽕
꽖
꽗
꽘
꽙
꽚
꽞
꽟
꽠
꽡
꽢
꽧
꽩
꽪
꽫
꽬
꽮
꽰
꽱
꽲
꽳
꽴
꽵
꽶
꽷
꽺
꽻
꽼
꽽
꽾
꽿
꾂
꾃
꾅
꾆
꾇
꾉
꾊
꾋
꾌
꾍
꾎
꾏
꾒
꾓
꾖
꾗
꾘
꾙
꾚
꾛
꾝
꾞
꾟
꾠
꾡
꾢
꾣
꾤
꾥
꾦
꾧
꾨
꾩
꾪
꾬
꾮
꾯
꾰
꾱
꾲
꾳
꾵
꾶
꾷
꾻
꾽
꿁
꿄
꿊
꿌
꿐
꿒
꿓
꿖
꿗
꿙
꿚
꿛
꿞
꿟
꿠
꿡
꿢
꿣
꿤
꿥
꿦
꿪
꿫
꿬
꿭
꿮
꿲
꿳
꿵
꿶
꿷
꿹
꿺
꿼
꿽
꿾
뀃
뀅
뀆
뀇
뀈
뀉
뀊
뀋
뀎
뀏
뀑
뀒
뀓
뀕
뀖
뀗
뀘
뀚
뀛
뀞
뀣
뀤
뀥
뀦
뀧
뀪
뀫
뀭
뀮
뀯
뀲
뀳
뀴
뀶
뀷
뀸
뀹
뀺
뀼
뀾
뀿
끀
끁
끂
끃
끇
끏
끐
끒
끖
끘
끜
끞
끢
끣
끥
끦
끧
끩
끪
끫
끬
끭
끮
끯
끱
끲
끳
끴
끶
끷
끸
끹
끺
끻
끿
낁
낂
낃
낅
낆
낇
낈
낉
낊
낎
낒
낓
낕
낖
낗
낝
낤
낥
낦
낶
낷
낹
낺
낽
낾
낿
냁
냂
냃
냆
냊
냋
냍
냎
냏
냒
냓
냕
냖
냗
냚
냛
냜
냝
냞
냢
냦
냧
냪
냭
냮
냯
냰
냱
냲
냳
냴
냵
냶
냷
냸
냹
냺
냻
냼
냽
냾
냿
넁
넂
넃
넄
넅
넆
넇
넍
넔
넕
넞
넦
넧
넩
넪
넭
넮
넯
넰
넱
넲
넳
넶
넺
넻
넿
녃
녅
녆
녉
녊
녌
녍
녎
녏
녒
녖
녗
녙
녚
녝
녞
녟
녡
녢
녣
녥
녦
녧
녨
녩
녪
녫
녭
녮
녰
녱
녲
녳
녴
녵
녶
녷
녺
녻
녽
녾
놃
놄
놆
놊
놌
놖
놗
놙
놚
놛
놝
놟
놠
놡
놢
놣
놦
놪
놫
놭
놮
놱
놲
놳
놵
놷
놸
놹
놺
놻
놼
놽
놾
놿
뇀
뇁
뇂
뇃
뇅
뇆
뇇
뇈
뇉
뇊
뇋
뇍
뇎
뇏
뇑
뇒
뇓
뇕
뇖
뇗
뇘
뇙
뇚
뇛
뇞
뇢
뇣
뇤
뇥
뇦
뇧
뇪
뇫
뇭
뇮
뇯
뇱
뇲
뇳
뇴
뇵
뇶
뇷
뇺
뇼
뇾
뇿
눀
눂
눃
눆
눇
눉
눊
눍
눎
눏
눐
눑
눒
눓
눖
눘
눚
눛
눡
눢
눣
눥
눦
눧
눩
눪
눫
눬
눭
눮
눯
눰
눱
눲
눳
눵
눷
눸
눹
눺
눻
눾
눿
뉀
뉁
뉂
뉃
뉄
뉅
뉆
뉇
뉈
뉉
뉊
뉋
뉌
뉎
뉐
뉑
뉒
뉓
뉕
뉖
뉗
뉚
뉛
뉝
뉞
뉟
뉡
뉢
뉣
뉤
뉥
뉦
뉧
뉪
뉬
뉮
뉯
뉰
뉱
뉲
뉳
뉶
뉷
뉹
뉺
뉻
뉾
뉿
늀
늁
늂
늃
늆
늈
늊
늋
늌
늍
늎
늏
늓
늖
늛
늜
늝
늞
늟
늢
늤
늮
늯
늱
늲
늳
늵
늶
늷
늸
늹
늺
늻
늽
늾
늿
닀
닂
닃
닄
닅
닆
닇
닋
닍
닎
닓
닔
닕
닖
닗
닩
댂
댃
댅
댆
댉
댌
댍
댎
댏
댒
댙
댚
댞
댟
댡
댢
댣
댧
댨
댩
댪
댫
댭
댮
댰
댲
댳
댴
댵
댷
댹
댺
댻
댽
댾
댿
덁
덂
덃
덄
덅
덆
덇
덈
덉
덊
덋
덎
덏
덐
덑
덒
덓
덚
덡
덲
덵
덶
덹
덺
덻
덼
덽
뎆
뎇
뎋
뎎
뎏
뎑
뎓
뎕
뎖
뎘
뎚
뎛
뎝
뎞
뎣
뎤
뎥
뎩
뎪
뎫
뎭
뎮
뎯
뎱
뎲
뎳
뎴
뎵
뎶
뎷
뎸
뎹
뎺
뎻
뎼
뎾
뎿
돀
돁
돂
돃
돉
돏
돑
돓
돢
돣
돥
돦
돧
돪
돫
돬
돭
돮
돯
돱
돲
돳
돴
돷
돸
돹
돺
돻
돾
됁
됂
됃
됅
됆
됇
됉
됊
됋
됎
됔
됕
됖
됚
됛
됝
됞
됟
됡
됣
됤
됥
됦
됪
됮
됯
됱
됲
됳
됶
됷
됹
됽
됾
됿
둀
둁
둂
둃
둄
둆
둊
둋
둌
둎
둒
둓
둕
둖
둛
둜
둝
둞
둢
둤
둦
둧
둨
둭
둮
둯
둱
둲
둳
둵
둶
둷
둸
둹
둺
둻
둼
둽
둾
뒂
뒃
뒄
뒅
뒆
뒇
뒊
뒋
뒌
뒍
뒎
뒏
뒐
뒒
뒔
뒖
뒘
뒙
뒚
뒛
뒜
뒞
뒟
뒠
뒡
뒢
뒣
뒦
뒧
뒩
뒪
뒭
뒮
뒯
뒰
뒱
뒲
뒳
뒶
뒸
뒻
뒼
뒽
듂
듃
듅
듆
듉
듊
듋
듌
듍
듎
듏
듒
듔
듖
듗
듘
듙
듚
듡
듢
듨
듩
듪
듲
듴
듺
듻
듽
듾
듿
딁
딂
딃
딄
딅
딆
딇
딊
딌
딎
딏
딐
딑
딒
딓
딖
딗
딙
딚
딝
딞
딟
딠
딡
딢
딣
딬
딭
딷
딼
딽
딾
땂
땆
땉
땎
땏
땑
땒
땓
땖
땘
땙
땚
땢
땤
땦
땧
땪
땫
땬
땭
땮
땯
땰
땱
땲
땴
땵
땶
땷
땸
땹
땺
땾
땿
떀
떁
떂
떃
떆
떇
떉
떊
떍
떎
떏
떐
떒
떓
떕
떖
떚
떛
떜
떝
떞
떟
떩
떬
떮
떲
떶
떸
떹
떺
떾
떿
뗁
뗂
뗅
뗇
뗈
뗊
뗎
뗒
뗓
뗔
뗕
뗖
뗙
뗚
뗛
뗟
뗢
뗤
뗥
뗦
뗧
뗨
뗩
뗪
뗫
뗭
뗮
뗯
뗰
뗱
뗲
뗷
뗹
뗺
뗽
뗾
뗿
똀
똁
똂
똃
똄
똅
똆
똈
똉
똊
똋
똌
똍
똎
똓
똕
똖
똚
똜
똞
똢
똦
똨
똪
똮
똯
똱
똲
똳
똶
똸
똹
똺
똼
똾
뙀
뙂
뙃
뙄
뙅
뙆
뙉
뙊
뙋
뙌
뙎
뙏
뙐
뙑
뙒
뙓
뙔
뙕
뙖
뙗
뙘
뙙
뙚
뙛
뙝
뙞
뙟
뙠
뙢
뙣
뙥
뙦
뙧
뙩
뙪
뙫
뙯
뙰
뙲
뙳
뙵
뙶
뙷
뙸
뙹
뙺
뙻
뙼
뙽
뙾
뙿
뚃
뚅
뚇
뚈
뚉
뚋
뚌
뚍
뚎
뚏
뚐
뚑
뚒
뚓
뚖
뚗
뚘
뚙
뚚
뚛
뚟
뚡
뚨
뚪
뚰
뚲
뚴
뚹
뚺
뚻
뚽
뚾
뚿
뛁
뛂
뛄
뛅
뛆
뛊
뛋
뛌
뛍
뛎
뛏
뛐
뛑
뛒
뛕
뛖
뛘
뛙
뛚
뛜
뛞
뛠
뛡
뛢
뛤
뛥
뛦
뛨
뛩
뛪
뛫
뛬
뛭
뛮
뛯
뛱
뛲
뛳
뛵
뛶
뛺
뛽
뛾
뛿
뜂
뜄
뜆
뜇
뜈
뜉
뜊
뜋
뜍
뜎
뜑
뜒
뜓
뜕
뜖
뜗
뜘
뜙
뜚
뜜
뜝
뜞
뜟
뜠
뜡
뜢
뜣
뜤
뜥
뜦
뜧
뜪
뜭
뜮
뜱
뜲
뜶
뜺
뜿
띀
띂
띆
띉
띊
띋
띍
띏
띐
띑
띒
띓
띖
띗
띘
띚
띛
띜
띝
띞
띟
띢
띣
띥
띦
띩
띪
띫
띬
띭
띮
띲
띴
띶
띷
띸
띹
띺
랁
랂
랇
랈
랉
랊
랚
랛
랝
랞
랡
랢
랥
랦
랧
랪
랯
랱
랶
랷
랹
랺
랽
랾
랿
럀
럁
럃
럆
럊
럋
럌
럍
럎
럏
럒
럓
럕
럖
럗
럘
럙
럚
럛
럜
럝
럞
럟
럠
럡
럢
럣
럥
럦
럧
럨
럩
럫
럮
럯
럱
럳
럵
럹
럺
럾
렂
렃
렅
렊
렋
렍
렎
렑
렒
렔
렕
렖
렗
렟
렧
렩
렪
렭
렮
렯
렰
렱
렲
렶
렻
렽
롂
롃
롅
롆
롉
롋
롌
롍
롎
롏
롒
롔
롖
롗
롘
롙
롚
롛
롞
롟
롡
롢
롦
롧
롨
롩
롪
롰
롺
롻
롾
롿
뢁
뢂
뢃
뢄
뢅
뢆
뢊
뢋
뢌
뢎
뢏
뢑
뢒
뢕
뢖
뢗
뢙
뢚
뢛
뢜
뢝
뢞
뢟
뢠
뢡
뢢
뢣
뢦
뢧
뢩
뢪
뢫
뢬
뢭
뢮
뢲
뢳
뢵
뢶
뢷
뢹
뢺
뢻
뢼
뢽
뢾
뢿
룂
룆
룇
룈
룉
룊
룋
룎
룏
룑
룒
룓
룕
룖
룗
룘
룙
룚
룜
룞
룠
룢
룣
룤
룦
룧
룫
룭
룮
룲
룵
룶
룼
룾
룿
뤆
뤇
뤉
뤊
뤋
뤍
뤎
뤏
뤐
뤑
뤒
뤓
뤖
뤚
뤛
뤜
뤝
뤞
뤟
뤢
뤣
뤥
뤦
뤧
뤩
뤪
뤫
뤬
뤭
뤮
뤰
뤲
뤳
뤴
뤶
뤷
뤸
뤹
뤺
뤾
뤿
륁
륂
륃
륅
륆
륇
륈
륉
륊
륋
륎
륒
륓
륕
륖
륗
륚
륛
륟
륢
륣
륤
륥
륦
륪
륬
륮
륯
륰
륱
륲
륳
륹
륺
륾
륿
릀
릁
릂
릑
릒
릓
릕
릖
릗
릙
릚
릛
릜
릝
릡
릢
릤
릥
릦
릧
릨
릩
릪
릫
릱
릲
릶
릷
릸
릹
릺
릻
맖
맦
맧
맩
맭
맯
맰
맱
맲
맳
맶
맾
맿
먂
먇
먉
먊
먋
먌
먎
먒
먔
먝
먞
먟
먠
먡
먢
먣
먤
먥
먦
먧
먨
먩
먬
먭
먮
먯
먰
먱
먲
먴
먶
먷
먻
멄
멅
멖
멗
멙
멚
멝
멟
멠
멡
멢
멣
멲
멳
멵
멶
멺
멻
멼
멾
멿
몂
몈
몍
몎
몏
몑
몒
몕
몖
몗
몘
몙
몚
몛
몜
몝
몞
몠
몡
몢
몣
몤
몦
몧
몵
몶
뫂
뫆
뫇
뫉
뫊
뫋
뫍
뫎
뫏
뫐
뫑
뫒
뫓
뫕
뫖
뫗
뫛
뫜
뫝
뫟
뫡
뫢
뫣
뫥
뫦
뫧
뫨
뫩
뫪
뫫
뫬
뫭
뫮
뫯
뫰
뫱
뫲
뫳
뫴
뫶
뫷
뫸
뫹
뫺
뫻
뫾
뫿
묁
묂
묃
묅
묆
묇
묉
묊
묋
묌
묎
묐
묒
묓
묔
묕
묖
묛
묝
묞
묢
묣
묤
묥
묧
묪
묮
묰
묲
묹
묿
뭂
뭒
뭓
뭕
뭖
뭙
뭚
뭛
뭜
뭝
뭞
뭢
뭦
뭪
뭫
뭮
뭯
뭱
뭲
뭳
뭴
뭶
뭸
뭹
뭻
뭼
뭽
뭾
뭿
뮀
뮁
뮂
뮃
뮄
뮅
뮆
뮇
뮊
뮋
뮍
뮎
뮏
뮑
뮒
뮓
뮕
뮖
뮗
뮙
뮚
뮜
뮞
뮟
뮠
뮡
뮢
뮣
뮦
뮩
뮪
뮫
뮭
뮮
뮰
뮱
뮲
뮵
뮸
뮺
뮼
뮾
믃
믅
믆
믊
믋
믍
믎
믑
믒
믔
믖
믚
믝
믞
믟
믡
믢
믣
믤
믥
믦
믧
믨
믩
믪
믫
믬
믭
믮
믯
믰
믲
믳
믴
믵
믶
믷
믽
밃
밄
밅
밆
밳
밵
밶
밹
밺
밼
밽
밾
밿
뱂
뱆
뱇
뱈
뱋
뱎
뱑
뱖
뱗
뱘
뱙
뱠
뱢
뱣
뱥
뱧
뱪
뱫
뱬
뱭
뱮
뱯
뱰
뱱
뱲
뱳
뱴
뱵
뱶
뱹
뱻
뱼
뱾
뱿
벀
벁
벂
벃
벢
벣
벥
벦
벪
벬
벭
벮
벯
벶
벷
벺
벿
볁
볂
볆
볇
볈
볉
볊
볋
볒
볖
볗
볚
볛
볝
볞
볡
볢
볣
볤
볥
볦
볧
볨
볩
볪
볬
볭
볮
볯
볰
볲
볷
볺
봓
봕
봖
봚
봛
봜
봝
봞
봟
봦
봧
봩
봪
봭
봮
봯
봰
봱
봲
봳
봶
봷
봸
봹
봺
봻
봼
봾
봿
뵁
뵂
뵃
뵄
뵅
뵆
뵇
뵊
뵋
뵍
뵎
뵏
뵒
뵓
뵔
뵕
뵖
뵗
뵚
뵝
뵞
뵟
뵠
뵡
뵢
뵣
뵦
뵩
뵪
뵮
뵯
뵰
뵱
뵵
뵺
뵼
뵽
뵾
뵿
붅
붎
붔
붞
붟
붠
붡
붢
붣
붥
붦
붧
붨
붩
붪
붫
붬
붭
붮
붲
붳
붶
붺
붻
붽
붾
붿
뷂
뷃
뷄
뷅
뷆
뷈
뷊
뷌
뷍
뷎
뷑
뷒
뷖
뷗
뷙
뷚
뷝
뷞
뷠
뷡
뷢
뷣
뷨
뷪
뷬
뷯
뷲
뷳
뷶
뷺
뷻
뷽
뷾
뷿
븁
븂
븄
븆
븇
븊
븋
븑
븒
븖
븗
븙
븚
븛
븢
븣
븤
븦
븪
븫
븭
븮
븯
븱
븲
븳
븴
븵
븶
븷
븹
븺
븻
븼
븾
븿
빀
빁
빃
빇
빉
빊
빐
빑
빓
빜
빦
빬
빭
빯
빲
빿
뺁
뺂
뺆
뺇
뺈
뺉
뺊
뺋
뺎
뺕
뺖
뺗
뺞
뺢
뺤
뺪
뺬
뺯
뺰
뺱
뺲
뺷
뺺
뺻
뺽
뺾
뻀
뻁
뻂
뻃
뻅
뻊
뻋
뻌
뻍
뻎
뻏
뻓
뻜
뻝
뻧
뻫
뻮
뻯
뻱
뻲
뻳
뻵
뻶
뻷
뻸
뻹
뻺
뻻
뻾
뼀
뼂
뼃
뼄
뼅
뼆
뼊
뼋
뼍
뼎
뼑
뼒
뼓
뼔
뼕
뼖
뼗
뼚
뼟
뼣
뼧
뼨
뼩
뼪
뼫
뼭
뼮
뼯
뼰
뼲
뼳
뼴
뼵
뼶
뼷
뼹
뼺
뼻
뼼
뼽
뼾
뼿
뽃
뽅
뽉
뽋
뽌
뽍
뽎
뽏
뽗
뽡
뽢
뽣
뽦
뽨
뽩
뽪
뽫
뽬
뽮
뽯
뽰
뽲
뽳
뽵
뽶
뽹
뽺
뽻
뽼
뽽
뽾
뽿
뾀
뾁
뾈
뾉
뾊
뾋
뾌
뾍
뾎
뾏
뾐
뾑
뾒
뾓
뾕
뾖
뾗
뾙
뾚
뾛
뾜
뾝
뾞
뾟
뾠
뾡
뾢
뾣
뾤
뾦
뾧
뾨
뾩
뾪
뾫
뾬
뾭
뾮
뾯
뾳
뾴
뾵
뾶
뾷
뾺
뾽
뾾
뾿
뿀
뿂
뿄
뿆
뿇
뿈
뿊
뿖
뿢
뿣
뿤
뿥
뿦
뿪
뿫
뿬
뿭
뿰
뿱
뿲
뿳
뿴
뿵
뿶
뿸
뿹
뿺
뿻
뿼
뿽
뿾
뿿
쀀
쀁
쀂
쀃
쀅
쀆
쀇
쀈
쀉
쀊
쀋
쀔
쀕
쀖
쀗
쀘
쀙
쀚
쀛
쀜
쀝
쀞
쀟
쀡
쀢
쀣
쀤
쀥
쀦
쀧
쀨
쀩
쀪
쀫
쀭
쀮
쀯
쀰
쀱
쀴
쀵
쀶
쀷
쀸
쀹
쀺
쀻
쁁
쁂
쁃
쁄
쁅
쁆
쁇
쁈
쁊
쁒
쁔
쁗
쁛
쁝
쁞
쁡
쁤
쁦
쁧
쁪
쁫
쁬
쁮
쁯
쁰
쁱
쁲
쁳
쁵
쁷
쁸
쁹
쁺
쁻
쁽
쁾
쁿
삀
삁
삃
삄
삅
삆
삇
삈
삉
삊
삋
삌
삍
삎
삏
삓
삕
삖
삙
삛
삞
삟
삢
삦
삨
삩
삪
삫
삺
샋
샍
샎
샑
샔
샕
샖
샗
샚
샞
샡
샣
샦
샧
샩
샮
샯
샰
샱
샲
샳
샶
샸
샺
샽
샿
섂
섃
섅
섆
섇
섉
섋
섌
섍
섎
섏
섒
섓
섔
섖
섗
섘
섙
섛
섩
섽
섾
셁
셂
셃
셄
셅
셆
셇
셎
셏
셓
셗
셚
셛
셝
셞
셠
셡
셢
셪
셫
셬
셭
셮
셯
셲
셳
셵
셶
셹
셺
셻
셼
셽
셾
셿
솂
솄
솆
솇
솉
솋
솙
솣
솪
솫
솭
솮
솯
솱
솲
솳
솴
솵
솶
솷
솺
솾
솿
쇁
쇂
쇃
쇅
쇆
쇉
쇊
쇋
쇍
쇎
쇏
쇐
쇑
쇒
쇓
쇕
쇖
쇚
쇛
쇜
쇞
쇟
쇢
쇣
쇥
쇦
쇧
쇩
쇪
쇫
쇬
쇭
쇮
쇯
쇲
쇶
쇷
쇸
쇹
쇺
쇻
쇾
쇿
숂
숃
숅
숆
숇
숈
숉
숊
숋
숎
숐
숒
숗
숡
숣
숧
숵
숶
숷
숹
숺
숻
숽
숾
숿
쉀
쉁
쉂
쉃
쉄
쉆
쉇
쉉
쉊
쉋
쉌
쉍
쉎
쉒
쉓
쉕
쉖
쉗
쉝
쉞
쉢
쉦
쉧
쉫
쉮
쉯
쉱
쉲
쉳
쉶
쉷
쉸
쉹
쉺
쉻
쉾
슃
슇
슊
슋
슍
슎
슑
슒
슔
슕
슖
슗
슚
슜
슞
슣
슩
슪
슯
슰
슱
싂
싃
싅
싆
싇
싉
싋
싌
싍
싎
싏
싒
싓
싔
싖
싗
싙
싚
싛
싟
싡
싥
쌁
쌃
쌄
쌅
쌏
쌗
쌝
쌠
쌡
쌢
쌣
쌦
쌧
쌪
쌫
쌬
쌭
쌮
쌯
쌲
쌳
쌶
쌹
쌼
쌽
쌾
쌿
썂
썄
썆
썇
썈
썉
썊
썏
썑
썒
썓
썔
썕
썘
썙
썚
썝
썞
썟
썠
썢
썣
썤
썥
썦
썧
썵
썶
썺
썾
썿
쎁
쎂
쎇
쎉
쎊
쎍
쎎
쎏
쎐
쎑
쎒
쎓
쎖
쎚
쎛
쎜
쎝
쎢
쎣
쎦
쎧
쎩
쎪
쎬
쎭
쎮
쎯
쎰
쎱
쎲
쎳
쎶
쎷
쎸
쎹
쎺
쎻
쏁
쏂
쏃
쏅
쏆
쏇
쏈
쏊
쏋
쏍
쏎
쏐
쏑
쏒
쏓
쏕
쏖
쏗
쏛
쏞
쏡
쏣
쏤
쏥
쏦
쏧
쏪
쏬
쏮
쏯
쏰
쏲
쏷
쏹
쏺
쏻
쏾
쏿
쐀
쐁
쐂
쐃
쐄
쐆
쐊
쐋
쐌
쐍
쐎
쐒
쐓
쐕
쐖
쐗
쐘
쐚
쐛
쐜
쐝
쐞
쐟
쐡
쐢
쐦
쐧
쐨
쐪
쐫
쐭
쐮
쐯
쐱
쐲
쐳
쐵
쐶
쐷
쐸
쐹
쐺
쐻
쐾
쐿
쑂
쑃
쑄
쑅
쑆
쑇
쑊
쑋
쑎
쑏
쑑
쑒
쑓
쑔
쑕
쑖
쑗
쑘
쑙
쑚
쑜
쑠
쑡
쑢
쑣
쑧
쑪
쑭
쑮
쑯
쑰
쑲
쑳
쑶
쑸
쑺
쑾
쑿
쒁
쒃
쒅
쒆
쒇
쒈
쒉
쒊
쒋
쒌
쒍
쒎
쒏
쒑
쒒
쒖
쒗
쒘
쒙
쒚
쒛
쒞
쒟
쒡
쒢
쒣
쒤
쒥
쒦
쒩
쒪
쒫
쒬
쒭
쒮
쒲
쒳
쒵
쒶
쒷
쒻
쒽
쒾
쒿
쓁
쓂
쓃
쓄
쓅
쓆
쓇
쓊
쓌
쓍
쓎
쓏
쓐
쓑
쓒
쓓
쓖
쓗
쓙
쓛
쓝
쓞
쓟
쓠
쓡
쓢
쓣
쓥
쓦
쓧
쓨
쓪
쓫
쓬
쓭
쓮
쓯
쓳
쓵
쓶
쓹
쓻
쓼
쓽
쓾
씂
씆
씇
씈
씊
씍
씎
씏
씑
씒
씓
씕
씖
씗
씘
씙
씚
씛
씞
씟
씠
씢
씣
씦
씧
씫
씭
씮
씱
씲
씳
씴
씵
씶
씷
씾
씿
앁
앂
앃
앣
앥
앪
앬
앭
앮
앯
앹
앿
얁
얈
얚
얛
얝
얞
얟
얡
얢
얣
얤
얥
얦
얧
얨
얪
얮
얯
얱
얲
얳
엀
엁
엂
엖
엚
엛
엝
엞
엢
엧
엲
옊
옋
옍
옎
옏
옔
옕
옖
옗
옚
옞
옟
옠
옢
옣
옩
왃
왅
왆
왊
왋
왌
왍
왎
왏
왗
왙
왞
왟
왡
왢
왣
왥
왦
왧
왨
왩
왪
왫
왮
왲
왳
왴
왵
왶
왺
왻
왽
왾
왿
욁
욂
욃
욄
욅
욆
욇
욊
욎
욏
욐
욑
욒
욓
욖
욗
욞
욠
욪
욫
욭
욲
욳
욶
욻
욼
욽
웂
웏
웑
웖
웘
웙
웢
웣
웪
웫
웭
웮
웯
웲
웳
웵
웶
웺
웼
웾
웿
윂
윃
윆
윇
윉
윊
윋
윍
윎
윏
윐
윑
윒
윓
윖
윛
윣
윥
윦
윩
윫
윬
윭
윯
윴
윻
윿
읚
읛
읝
읞
읡
읢
읣
읥
읦
읬
읮
읯
읱
읲
읳
잁
잝
잮
잯
잱
잲
잳
잵
잶
잷
잸
잹
잺
잻
잾
쟄
쟅
쟇
쟊
쟋
쟍
쟒
쟓
쟕
쟖
쟚
쟡
쟣
쟦
쟧
쟩
쟪
쟫
쟭
쟮
쟯
쟰
쟱
쟲
쟳
쟵
쟶
쟷
쟺
쟻
쟼
쟽
쟾
쟿
젅
젉
젌
젍
젎
젙
젞
젡
젢
젣
젥
젦
젩
젪
젫
젰
젲
젳
젷
젽
젾
졃
졄
졅
졆
졇
졊
졑
졓
졕
졖
졗
졙
졚
졛
졝
졞
졟
졠
졡
졢
졣
졦
졨
졪
졫
졭
졮
졯
졲
졳
졶
졹
졻
졼
좎
좏
좑
좓
좕
좖
좗
좘
좙
좚
좛
좞
좣
좤
좥
좦
좩
좪
좫
좭
좮
좯
좰
좱
좲
좳
좴
좵
좶
좷
좺
좻
좾
좿
죀
죁
죂
죃
죅
죆
죇
죉
죊
죋
죍
죎
죏
죐
죑
죒
죓
죖
죚
죛
죜
죝
죞
죟
죣
죦
죩
죪
죫
죬
죭
죮
죯
죲
죴
죺
죾
죿
줁
줂
줇
줉
줔
줕
줖
줚
줛
줝
줞
줟
줡
줢
줣
줤
줥
줦
줧
줨
줩
줪
줯
줰
줱
줲
줳
줶
줷
줹
줺
줻
줼
줽
줾
줿
쥀
쥁
쥂
쥃
쥄
쥅
쥆
쥈
쥊
쥋
쥌
쥍
쥎
쥏
쥒
쥓
쥕
쥖
쥗
쥙
쥚
쥛
쥜
쥝
쥞
쥟
쥢
쥦
쥧
쥨
쥩
쥪
쥫
쥯
쥱
쥲
쥳
쥵
쥶
쥷
쥸
쥹
쥺
쥾
즀
즃
즄
즅
즆
즇
즋
즍
즎
즏
즒
즓
즔
즕
즖
즗
즚
즜
즞
즟
즢
즣
즦
즧
즩
즪
즫
즬
즭
즮
즰
즱
즲
즳
즴
즵
즶
즷
즸
즺
즻
즼
즽
즾
즿
짃
짅
짉
짌
짍
짎
짏
짟
짨
짲
짳
짵
짶
짺
짻
짽
짾
짿
쨁
쨂
쨃
쨄
쨅
쨆
쨇
쨊
쨎
쨏
쨐
쨑
쨒
쨓
쨗
쨙
쨚
쨛
쨝
쨞
쨠
쨡
쨣
쨦
쨪
쨫
쨬
쨭
쨮
쨯
쨲
쨳
쨵
쨶
쨷
쨸
쨹
쨺
쨻
쨼
쨽
쨾
쨿
쩀
쩂
쩆
쩇
쩈
쩉
쩊
쩋
쩏
쩑
쩓
쩕
쩘
쩙
쩚
쩛
쩞
쩣
쩤
쩥
쩦
쩩
쩪
쩫
쩭
쩮
쩯
쩲
쩳
쩴
쩵
쩶
쩷
쩹
쩺
쩾
쩿
쪀
쪁
쪂
쪃
쪅
쪆
쪇
쪉
쪊
쪋
쪌
쪍
쪎
쪏
쪐
쪑
쪒
쪓
쪕
쪖
쪚
쪛
쪜
쪝
쪞
쪟
쪡
쪢
쪣
쪤
쪥
쪦
쪧
쪩
쪪
쪫
쪬
쪭
쪮
쪯
쪰
쪱
쪲
쪳
쪴
쪵
쪶
쪷
쪸
쪹
쪺
쪻
쪿
쫁
쫂
쫃
쫆
쫇
쫈
쫉
쫊
쫎
쫐
쫔
쫕
쫚
쫛
쫝
쫞
쫟
쫡
쫢
쫣
쫤
쫥
쫦
쫧
쫨
쫪
쫮
쫯
쫱
쫲
쫳
쫵
쫶
쫷
쫸
쫹
쫺
쫻
쫼
쫽
쫾
쫿
쬀
쬁
쬂
쬃
쬄
쬅
쬆
쬇
쬉
쬊
쬋
쬌
쬍
쬎
쬏
쬑
쬒
쬓
쬕
쬖
쬗
쬙
쬚
쬛
쬜
쬝
쬞
쬟
쬢
쬣
쬦
쬧
쬨
쬩
쬪
쬫
쬮
쬯
쬱
쬳
쬵
쬶
쬸
쬹
쬺
쬻
쬾
쬿
쭄
쭅
쭆
쭇
쭋
쭍
쭎
쭏
쭑
쭒
쭓
쭔
쭕
쭖
쭗
쭚
쭜
쭞
쭠
쭡
쭢
쭣
쭥
쭦
쭧
쭩
쭪
쭫
쭭
쭮
쭯
쭰
쭱
쭲
쭳
쭴
쭶
쭷
쭺
쭻
쭼
쭽
쭾
쭿
쮁
쮂
쮃
쮄
쮅
쮆
쮇
쮈
쮉
쮊
쮋
쮌
쮍
쮎
쮏
쮐
쮑
쮒
쮓
쮔
쮖
쮗
쮘
쮙
쮚
쮛
쮝
쮞
쮟
쮡
쮢
쮣
쮤
쮥
쮦
쮧
쮨
쮩
쮪
쮫
쮭
쮮
쮯
쮰
쮱
쮲
쮳
쮴
쮵
쮶
쮷
쮺
쮻
쮼
쮽
쮾
쮿
쯀
쯁
쯂
쯃
쯄
쯅
쯆
쯊
쯌
쯎
쯏
쯐
쯑
쯒
쯓
쯖
쯗
쯙
쯚
쯛
쯝
쯞
쯟
쯠
쯡
쯢
쯣
쯦
쯨
쯭
쯮
쯯
쯲
쯳
쯴
쯵
쯶
쯷
쯹
쯺
쯻
쯼
쯽
쯾
쯿
찀
찁
찂
찄
찅
찆
찇
찈
찉
찊
찋
찏
찑
찒
찓
찕
찘
찙
찚
찞
찠
찤
찪
찵
찶
찷
챆
챇
챉
챊
챋
챍
챎
챏
챐
챑
챒
챓
챖
챚
챛
챜
챝
챟
챢
챥
챧
챩
챪
챫
챬
챭
챮
챾
챿
첀
첁
첂
첃
첆
첇
첈
첉
첊
첋
첌
첍
첎
첏
첑
첒
첓
첔
첕
첖
첗
첝
첤
첱
첶
첷
첹
첺
첻
첽
첾
첿
쳀
쳁
쳂
쳃
쳆
쳊
쳍
쳎
쳏
쳒
쳓
쳖
쳙
쳚
쳛
쳜
쳝
쳞
쳟
쳢
쳦
쳨
쳩
쳪
쳮
쳯
쳱
쳲
쳳
쳵
쳶
쳷
쳸
쳹
쳺
쳻
쳽
쳾
촀
촂
촃
촄
촅
촆
촇
촋
촔
촗
촚
촜
촦
촧
촩
촪
촫
촭
촮
촯
촰
촱
촲
촳
촶
촸
촺
촼
촽
촿
쵂
쵃
쵄
쵅
쵆
쵈
쵉
쵊
쵋
쵌
쵍
쵎
쵏
쵐
쵑
쵒
쵓
쵔
쵖
쵗
쵘
쵙
쵚
쵛
쵞
쵟
쵡
쵢
쵣
쵥
쵦
쵧
쵨
쵩
쵪
쵫
쵰
쵲
쵳
쵴
쵵
쵶
쵺
쵻
쵽
쵾
춁
춂
춃
춄
춅
춆
춊
춌
춎
춐
춑
춒
춓
춖
춙
춚
춞
춟
춯
춲
춳
춵
춶
춷
춹
춺
춻
춼
춽
춾
춿
췀
췂
췆
췇
췈
췉
췊
췋
췎
췏
췑
췒
췓
췕
췖
췗
췘
췙
췚
췜
췝
췞
췟
췠
췢
췣
췥
췦
췧
췪
췫
췭
췮
췯
췱
췲
췳
췴
췵
췶
췷
췺
췾
췿
츁
츂
츃
츇
츉
츊
츋
츍
츏
츐
츑
츒
츓
츖
츘
츚
츛
츜
츝
츞
츟
츢
츣
츥
츦
츧
츪
츫
츬
츭
츮
츯
츲
츴
츶
츸
츹
츺
츻
츽
츾
츿
칁
칂
칃
칄
칅
칆
칇
칈
칉
칊
칋
칌
칍
칎
칏
칐
칑
칒
칓
칔
칕
칖
칗
칛
칝
칞
칣
칤
칥
칦
칧
칪
칱
칳
칶
칷
칹
칺
칾
칿
캀
캁
캂
캃
캈
캊
캒
캓
캕
캖
캗
캙
캚
캛
캝
캞
캦
캨
캩
캫
캮
캯
캱
캲
캳
캶
캷
캸
캹
캺
캻
캾
컀
컂
컃
컅
컆
컇
컉
컊
컋
컌
컍
컎
컏
컐
컑
컒
컓
컔
컕
컖
컗
컘
컙
컚
컜
컝
컞
컟
컠
컡
컢
컣
컦
컧
컩
컪
컮
컯
컰
컱
컲
컳
컺
컻
켂
켃
켅
켆
켉
켊
켋
켌
켍
켎
켏
켒
켖
켗
켛
켞
켟
켡
켢
켥
켦
켧
켨
켩
켪
켫
켲
켴
켵
켶
켷
켹
켺
켻
켽
켾
켿
콁
콂
콃
콄
콅
콆
콇
콈
콊
콋
콌
콍
콎
콏
콐
콑
콒
콓
콖
콗
콚
콝
콞
콟
콠
콡
콢
콣
콨
콪
콭
콲
콳
콵
콶
콷
콹
콺
콼
콽
콾
콿
쾂
쾄
쾆
쾇
쾉
쾊
쾎
쾏
쾑
쾒
쾓
쾕
쾖
쾗
쾘
쾙
쾚
쾛
쾜
쾝
쾞
쾟
쾠
쾢
쾣
쾤
쾥
쾦
쾧
쾪
쾫
쾭
쾮
쾯
쾱
쾲
쾳
쾴
쾵
쾶
쾷
쾸
쾺
쾼
쾾
쾿
쿀
쿁
쿂
쿃
쿅
쿆
쿇
쿉
쿊
쿋
쿍
쿎
쿐
쿑
쿒
쿓
쿕
쿖
쿘
쿚
쿛
쿝
쿞
쿟
쿢
쿣
쿥
쿦
쿫
쿬
쿮
쿯
쿲
쿴
쿶
쿷
쿹
쿺
쿻
쿾
쿿
퀁
퀂
퀃
퀅
퀆
퀇
퀈
퀉
퀊
퀋
퀎
퀐
퀒
퀓
퀔
퀕
퀖
퀗
퀚
퀛
퀝
퀞
퀟
퀢
퀣
퀤
퀥
퀦
퀩
퀪
퀬
퀮
퀯
퀰
퀱
퀲
퀳
퀶
퀷
퀹
퀺
퀻
퀽
퀾
퀿
큀
큁
큂
큃
큆
큈
큊
큋
큌
큍
큎
큏
큑
큒
큓
큕
큖
큗
큙
큚
큛
큜
큝
큞
큢
큤
큦
큧
큨
큩
큪
큮
큯
큲
큵
큶
큷
큸
큹
큺
큻
킀
킂
킃
킉
킊
킋
킌
킍
킎
킏
킑
킒
킓
킔
킕
킖
킗
킘
킙
킚
킛
킜
킝
킞
킟
킠
킡
킢
킣
킧
킩
킪
킮
킯
킰
킱
킲
킳
킶
킺
킻
킽
킿
탅
탋
탌
탎
탛
탞
탟
탡
탢
탥
탦
탧
탨
탩
탪
탫
탮
탲
탳
탴
탷
탻
탽
탾
턂
턃
턄
턅
턆
턇
턈
턊
턎
턏
턖
턗
턘
턙
턛
턜
턝
턞
턟
턠
턡
턢
턣
턤
턥
턦
턧
턨
턪
턫
턬
턭
턮
턯
턲
턳
턵
턶
턷
턼
턽
턾
턿
텇
텎
텏
텑
텒
텕
텖
텘
텙
텚
텛
텢
텧
텫
텭
텮
텯
텱
텲
텴
텵
텶
텷
텺
텾
텿
톀
톂
톅
톆
톇
톉
톊
톌
톍
톎
톏
톐
톑
톒
톓
톔
톕
톖
톘
톚
톛
톜
톝
톞
톟
톢
톣
톥
톦
톪
톫
톬
톭
톯
톴
톶
톷
톻
톾
톿
퇁
퇂
퇃
퇅
퇆
퇇
퇈
퇉
퇊
퇋
퇌
퇎
퇏
퇐
퇑
퇒
퇓
퇔
퇕
퇖
퇗
퇚
퇛
퇝
퇞
퇟
퇠
퇡
퇢
퇤
퇥
퇦
퇧
퇨
퇩
퇪
퇫
퇬
퇭
퇮
퇯
퇰
퇱
퇲
퇳
퇵
퇶
퇷
퇹
퇺
퇻
퇽
퇾
퇿
툀
툁
툂
툃
툅
툆
툈
툊
툋
툌
툍
툎
툏
툒
툕
툖
툗
툙
툚
툛
툜
툞
툟
툢
툣
툤
툦
툧
툨
툪
툮
툱
툲
툳
툶
툻
툾
퉂
퉄
퉉
퉊
퉋
퉌
퉍
퉎
퉏
퉑
퉒
퉓
퉔
퉕
퉖
퉗
퉘
퉙
퉚
퉛
퉞
퉟
퉡
퉢
퉣
퉦
퉧
퉩
퉪
퉫
퉬
퉮
퉯
퉰
퉲
퉳
퉴
퉵
퉶
퉸
퉺
퉻
퉼
퉽
퉾
퉿
튂
튃
튅
튆
튇
튉
튊
튋
튌
튍
튏
튒
튔
튖
튗
튘
튚
튛
튞
튡
튢
튣
튥
튧
튨
튩
튪
튫
튯
튰
튴
튷
튻
튾
틁
틃
틄
틅
틆
틇
틌
틎
틏
틕
틖
틗
틙
틚
틛
틝
틞
틟
틠
틡
틢
틣
틦
틨
틪
틫
틬
틭
틮
틯
틲
틳
틵
틶
틹
틺
틻
틼
틽
틾
틿
팆
팇
팋
팑
팕
팘
팙
팞
팢
팧
팪
팫
팭
팯
팱
팲
팳
팴
팵
팶
팷
팺
팾
팿
퍀
퍁
퍂
퍃
퍆
퍇
퍉
퍊
퍋
퍍
퍎
퍏
퍑
퍒
퍓
퍔
퍕
퍖
퍛
퍜
퍝
퍞
퍟
퍡
퍢
퍣
퍤
퍥
퍦
퍧
퍨
퍩
퍪
퍫
퍬
퍭
퍮
퍯
퍰
퍱
퍲
퍳
퍴
퍵
퍶
퍷
퍸
퍹
퍺
퍻
퍾
펂
펃
펆
펇
펈
펉
펊
펒
펓
펕
펚
펛
펝
펞
펟
펢
펣
펤
펥
펦
펧
펪
펮
펯
펱
펳
펶
펷
펹
펺
펽
펾
펿
폀
폁
폆
폊
폋
폌
폍
폎
폏
폑
폒
폓
폖
폗
폙
폚
폛
폜
폝
폞
폟
폠
폢
폤
폥
폦
폧
폨
폩
폪
폫
폱
폲
폵
폶
폷
폸
폹
폺
폻
폾
퐀
퐇
퐊
퐋
퐍
퐎
퐏
퐑
퐒
퐓
퐔
퐕
퐖
퐗
퐘
퐚
퐛
퐜
퐟
퐡
퐢
퐣
퐥
퐦
퐧
퐨
퐩
퐪
퐫
퐬
퐭
퐮
퐯
퐰
퐱
퐲
퐴
퐵
퐶
퐷
퐸
퐹
퐺
퐻
퐼
퐽
퐾
퐿
푁
푂
푃
푅
푆
푇
푉
푊
푋
푌
푍
푎
푏
푐
푑
푒
푓
푔
푖
푗
푘
푙
푚
푛
푞
푟
푡
푢
푣
푦
푨
푪
푬
푮
푰
푲
푳
푵
푶
푺
푻
푽
풁
풃
풅
풆
풊
풌
풎
풓
풖
풗
풙
풚
풛
풝
풞
풟
풠
풡
풢
풣
풤
풥
풦
풧
풨
풪
풫
풭
풮
풯
풲
풳
풵
풶
풷
풺
풻
풼
풽
퓀
퓁
퓂
퓃
퓄
퓆
퓇
퓈
퓉
퓊
퓋
퓎
퓏
퓑
퓒
퓓
퓕
퓖
퓗
퓘
퓚
퓛
퓞
퓠
퓢
퓣
퓤
퓥
퓦
퓧
퓪
퓫
퓭
퓮
퓯
퓱
퓲
퓶
퓷
퓺
퓼
퓾
퓿
픀
픂
픃
픆
픇
픉
픊
픍
픎
픏
픐
픑
픒
픘
픚
픛
픜
픡
픢
픣
픥
픦
픧
픩
픪
픫
픬
픭
픮
픯
픰
픲
픴
픵
픶
픷
픸
픹
픺
픻
픾
픿
핂
핅
핆
핇
핈
핉
핊
핋
핐
핒
핢
핯
핷
핹
핺
핾
햀
햁
햂
햃
햆
햊
햒
햓
햕
햖
햗
햜
햞
햢
햦
햧
햨
햪
햮
햯
햱
햲
햳
햴
햵
햶
햷
햸
햹
햺
햻
햽
헂
헃
헄
헅
헆
헇
헊
헋
헍
헎
헕
헖
헞
헟
헢
헦
헧
헩
헪
헮
헰
헱
헳
헶
헻
헽
헾
혃
혆
혇
혊
혋
혌
혍
혎
혏
혖
혗
혘
혚
혛
혝
혞
혟
혡
혢
혣
혥
혦
혧
혨
혩
혪
혫
혮
혰
혲
혳
혴
혵
혶
혷
혺
혻
혽
혾
혿
홁
홂
홃
홄
홆
홊
홌
홎
홏
홖
홗
홙
홚
홞
홟
홠
홡
홢
홦
홫
홭
홮
홲
홳
홵
홶
홷
홸
홹
홺
홻
홼
홽
홾
홿
횀
횁
횆
횇
횈
횉
횊
횋
횎
횏
횑
횒
횕
횖
횗
횘
횙
횚
횛
횠
횢
횣
횤
횥
횧
횪
횫
횭
횮
횯
횱
횲
횳
횴
횵
횶
횷
횺
횼
횿
훀
훂
훆
훉
훊
훏
훐
훖
훘
훢
훣
훥
훦
훧
훩
훪
훫
훬
훭
훮
훲
훳
훴
훶
훷
훹
훺
훻
훾
훿
휁
휂
휃
휆
휇
휈
휉
휊
휎
휐
휒
휓
휕
휖
휚
휛
휝
휞
휟
휡
휣
휤
휥
휦
휧
휪
휮
휯
휱
휲
휶
휷
휹
휺
휻
휾
휿
흀
흁
흂
흃
흅
흆
흈
흊
흋
흌
흍
흎
흏
흓
흕
흚
흛
흜
흞
흤
흦
흧
흮
흯
흱
흲
흳
흵
흶
흷
흸
흹
흺
흻
흾
힀
힂
힃
힄
힅
힆
힇
힊
힎
