▁▃ -0
▁ㅇ -1
▁ㅇㅡ -2
▁하 -3
ㄷㅏ -4
▁. -5
▁ㅇㅔ -6
▁ㄱ -7
▁이 -8
ㅡㄴ -9
ㄴㅡㄴ -10
▁ㄷㅏ -11
▁ㅇㅢ -12
▁ㄴㅡㄴ -13
▁ᆫ -14
▁ㄹ -15
▁, -16
▁ㅇㅡㄹ -17
▁ㅇㅓ -18
▁ㅇㅏ -19
▁ㅇㅡㄴ -20
▁1 -21
ㅅㅓ -22
▁되 -23
▁ㅇㅣ -24
ㅡㄹ -25
▁ㄹㅡㄹ -26
▁ㅇㅓㅆ -27
▁ㄱㅗ -28
▁년 -29
ㄹㅗ -30
▁2 -31
▁있 -32
▁ㅇㅏㅆ -33
▁대 -34
▁ㄹㅗ -35
▁ㄱㅏ -36
▁사 -37
▁지 -38
▁그 -39
ㅁㅕ -40
▁일 -41
▁시 -42
▁ㄷ -43
▁ㅇㅕ -44
▁ᆫㄷㅏ -45
▁들 -46
▁ㄱㅘ -47
▁수 -48
▁가 -49
▁기 -50
▁전 -51
ㅈㅣ -52
▁적 -53
▁아 -54
▁20 -55
▁ㅇㅘ -56
▁ㄷㅗ -57
▁월 -58
▁주 -59
▁제 -60
▁ㅁㅕ -61
▁19 -62
▁다 -63
▁ᆯ -64
▁정 -65
▁자 -66
▁중 -67
▁위 -68
▁인 -69
▁ㅇㅕㅆ -70
▁공 -71
▁보 -72
▁세 -73
▁경 -74
▁것 -75
▁ㅈㅣ -76
▁개 -77
▁부 -78
▁ㄹㅏ -79
▁ㄱㅣ -80
▁오 -81
▁유 -82
▁3 -83
▁" -84
▁조 -85
▁나 -86
▁등 -87
▁스 -88
▁ㄱㅔ -89
▁선 -90
▁성 -91
▁미 -92
▁동 -93
▁연 -94
▁마 -95
▁상 -96
▁소 -97
▁모 -98
▁한 -99
▁고 -100
▁비 -101
▁영 -102
▁의 -103
▁구 -104
ㄴㅏ -105
▁국 -106
▁도 -107
▁발 -108
ㄱㅗ -109
▁여 -110
▁201 -111
▁서 -112
▁' -113
ㅁㅏ -114
▁4 -115
▁후 -116
▁관 -117
▁명 -118
ㅁㅏㄴ -119
▁신 -120
▁만 -121
▁프 -122
▁5 -123
▁때 -124
▁ㅁㅕㄴ -125
▁200 -126
▁장 -127
▁- -128
▁ㄷㅓ -129
▁방 -130
▁ㄷㅓㄴ -131
▁바 -132
▁교 -133
▁리 -134
▁해 -135
▁문 -136
▁역 -137
▁내 -138
▁차 -139
ㅌㅓ -140
ㅂㅜ -141
▁당 -142
▁무 -143
▁우 -144
▁원 -145
▁통 -146
▁계 -147
▁현 -148
▁남 -149
▁군 -150
▁노 -151
▁포 -152
▁분 -153
▁어 -154
▁6 -155
▁화 -156
▁또 -157
▁않 -158
ㄲㅏ -159
▁거 -160
▁학 -161
▁생 -162
▁ㄲㅏ -163
▁작 -164
▁같 -165
▁강 -166
▁결 -167
▁출 -168
▁파 -169
ㄱㅔ -170
▁받 -171
▁진 -172
▁대하 -173
▁크 -174
▁단 -175
▁7 -176
▁번 -177
▁최 -178
▁10 -179
▁반 -180
▁불 -181
▁8 -182
▁알 -183
▁데 -184
▁위하 -185
▁호 -186
▁두 -187
▁회 -188
▁배 -189
▁안 -190
▁카 -191
▁실 -192
▁형 -193
▁초 -194
▁말 -195
▁따 -196
▁예 -197
▁에 -198
▁재 -199
▁ㅂㅜ -200
▁없 -201
▁로 -202
▁타 -203
▁사용 -204
ㄷㅔ -205
▁9 -206
▁미국 -207
▁종 -208
▁라 -209
▁이후 -210
▁요 -211
▁함 -212
▁설 -213
▁과 -214
ㅈㅏ -215
▁특 -216
▁ㅁㅕㄴㅅㅓ -217
▁일본 -218
▁코 -219
▁ㄴㅡㄴㄷㅔ -220
▁산 -221
▁운 -222
▁권 -223
▁감 -224
▁독 -225
▁레 -226
▁활 -227
▁추 -228
▁베 -229
▁행 -230
▁ㅈㅏ -231
▁왕 -232
민국 -233
▁피 -234
▁김 -235
▁그리 -236
▁지역 -237
▁음 -238
▁대한 -239
▁양 -240
▁더 -241
▁199 -242
▁다음 -243
▁매 -244
▁민 -245
▁평 -246
▁태 -247
▁많 -248
▁12 -249
▁입 -250
▁따르 -251
▁건 -252
▁대한민국 -253
▁참 -254
▁18 -255
▁간 -256
▁및 -257
▁경기 -258
▁승 -259
▁가지 -260
▁열 -261
▁목 -262
▁대학 -263
▁다른 -264
▁; -265
리아 -266
▁프로 -267
00 -268
▁의하 -269
▁드 -270
▁총 -271
▁속 -272
스트 -273
▁ㅁㅏㄴ -274
▁북 -275
or -276
▁S -277
▁집 -278
▁11 -279
▁법 -280
▁때문 -281
▁트 -282
▁시작 -283
▁체 -284
▁각 -285
▁외 -286
▁물 -287
▁달 -288
▁천 -289
▁변 -290
▁메 -291
▁시키 -292
▁임 -293
▁표 -294
▁직 -295
▁올 -296
▁처 -297
▁ᄆ -298
▁토 -299
▁그러 -300
▁⊸ -301
▁본 -302
▁사람 -303
▁& -304
▁쓰 -305
▁점 -306
▁저 -307
▁함께 -308
▁A -309
▁또한 -310
▁팀 -311
어지 -312
▁박 -313
어나 -314
▁치 -315
▁투 -316
▁선수 -317
▁청 -318
▁한국 -319
▁항 -320
▁브 -321
▁) -322
▁영화 -323
▁세계 -324
▁사이 -325
▁버 -326
▁광 -327
▁새 -328
▁약 -329
la -330
▁자신 -331
▁C -332
▁게 -333
▁M -334
▁경우 -335
▁용 -336
▁통하 -337
▁f -338
▁판 -339
▁ㄴㅏ -340
▁디 -341
▁축 -342
▁T -343
▁현재 -344
▁F -345
▁기록 -346
▁복 -347
▁야 -348
▁하나 -349
▁국가 -350
시아 -351
▁아니 -352
▁존 -353
▁네 -354
▁이름 -355
▁198 -356
▁편 -357
▁당시 -358
▁가장 -359
▁확 -360
▁삼 -361
▁위치 -362
▁_ -363
▁조선 -364
▁학교 -365
▁활동 -366
▁보이 -367
▁뒤 -368
▁철 -369
▁만들 -370
▁리그 -371
주의 -372
▁( -373
▁필 -374
▁그러나 -375
▁15 -376
▁살 -377
▁for -378
▁금 -379
▁페 -380
▁증 -381
▁합 -382
mu -383
▁째 -384
▁루 -385
▁플 -386
▁백 -387
▁테 -388
▁창 -389
▁심 -390
mula -391
▁formula -392
▁애 -393
▁언 -394
ㄱㅏ -395
▁식 -396
▁16 -397
▁대표 -398
레이 -399
▁연구 -400
▁병 -401
▁근 -402
▁못 -403
▁또는 -404
▁프랑 -405
▁/ -406
▁그리고 -407
▁황 -408
▁사회 -409
▁m -410
▁돌 -411
▁규 -412
▁0 -413
▁D -414
▁충 -415
▁17 -416
▁시즌 -417
▁순 -418
▁첫 -419
▁패 -420
▁] -421
▁197 -422
▁[ -423
ㅇㅑ -424
▁B -425
▁완 -426
▁히 -427
랜드 -428
▁이루 -429
▁높 -430
▁못하 -431
▁중국 -432
▁알리 -433
▁협 -434
▁다시 -435
▁길 -436
▁클 -437
▁서울 -438
▁정부 -439
▁프랑스 -440
학교 -441
▁K -442
▁영국 -443
▁I -444
▁ㅂ -445
▁채 -446
▁: -447
▁시대 -448
▁ㄴㅡㄴㄷㅏ -449
▁키 -450
▁도시 -451
▁k -452
▁포함 -453
▁뜻 -454
▁여러 -455
ㅁㅕㄴ -456
▁196 -457
▁은 -458
▁14 -459
▁전쟁 -460
▁아이 -461
▁독일 -462
▁면 -463
▁죽 -464
er -465
▁대회 -466
▁~ -467
▁문화 -468
▁g -469
▁배우 -470
▁13 -471
▁축구 -472
▁취 -473
▁위원 -474
▁별 -475
▁허 -476
▁P -477
▁가능 -478
▁모두 -479
▁ㅅㅓ -480
▁뉴 -481
▁동안 -482
in -483
ㄴㅣ -484
▁ㅂㅗ -485
▁모든 -486
▁⊸⊸ -487
▁이상 -488
▁친 -489
▁손 -490
▁감독 -491
▁곡 -492
▁194 -493
▁정치 -494
▁환 -495
▁일부 -496
▁방송 -497
▁l -498
▁석 -499
▁문제 -500
▁대학교 -501
▁처음 -502
▁개발 -503
▁L -504
▁지방 -505
▁제작 -506
▁구성 -507
▁% -508
▁캐 -509
▁검 -510
▁인하 -511
▁국제 -512
▁러 -513
▁농 -514
▁터 -515
라이 -516
▁사건 -517
▁니 -518
▁골 -519
▁세기 -520
▁끝 -521
▁시간 -522
▁ㄱㅓ -523
▁이용 -524
▁논 -525
▁일반 -526
▁씨 -527
▁부르 -528
▁존재 -529
▁G -530
▁작품 -531
▁향 -532
▁게임 -533
▁밀 -534
▁날 -535
▁정도 -536
▁운동 -537
▁폭 -538
▁급 -539
▁역사 -540
▁주장 -541
▁gt -542
▁나오 -543
▁N -544
▁곳 -545
ㄹㅗㄱ -546
▁관계 -547
▁섬 -548
▁즉 -549
▁인구 -550
▁앞 -551
니아 -552
▁ㅅ -553
▁티 -554
on -555
▁195 -556
▁효 -557
▁km -558
▁교육 -559
▁음악 -560
▁접 -561
▁나타 -562
▁중심 -563
▁lt -564
▁육 -565
▁ㄹㅕ -566
▁맡 -567
리스 -568
▁이러 -569
▁U -570
▁귀 -571
▁극 -572
▁30 -573
▁쿠 -574
▁R -575
▁절 -576
▁맞 -577
▁선거 -578
▁블 -579
▁경제 -580
부분 -581
▁발견 -582
통령 -583
▁전투 -584
▁H -585
▁담 -586
▁민주 -587
화국 -588
▁봉 -589
▁발표 -590
▁글 -591
▁E -592
▁갖 -593
▁홍 -594
▁기술 -595
▁측 -596
▁올림 -597
▁누 -598
▁막 -599
▁암 -600
▁아들 -601
이스 -602
▁책 -603
▁우승 -604
▁2010 -605
▁공격 -606
▁엔 -607
▁대부분 -608
▁대통령 -609
▁들어 -610
▁잘 -611
▁올림픽 -612
▁사망 -613
an -614
▁영향 -615
▁걸 -616
▁케 -617
▁질 -618
▁헤 -619
000 -620
▁결과 -621
▁불리 -622
▁여기 -623
▁슈 -624
▁열리 -625
▁송 -626
▁밝 -627
▁새롭 -628
▁라이 -629
▁지원 -630
▁프로그 -631
▁앨 -632
리카 -633
▁193 -634
▁과정 -635
▁잡 -636
▁의미 -637
▁발생 -638
▁관련 -639
▁참여 -640
▁중앙 -641
▁유럽 -642
▁업 -643
▁진행 -644
▁c -645
▁최초 -646
란드 -647
▁머 -648
20 -649
▁얻 -650
▁범 -651
▁준 -652
▁25 -653
▁고등 -654
▁부분 -655
▁독립 -656
ㅆㅓ -657
▁특히 -658
▁자유 -659
▁태어나 -660
▁결정 -661
▁제국 -662
▁세우 -663
지만 -664
▁다양 -665
▁구조 -666
▁설립 -667
▁팔 -668
▁설치 -669
▁속하 -670
버지 -671
▁초등 -672
▁당하 -673
▁발매 -674
▁폐 -675
▁형태 -676
나라 -677
▁상태 -678
▁탄 -679
▁소속 -680
▁악 -681
▁탈 -682
▁W -683
▁온 -684
▁벌 -685
▁좌 -686
▁2008 -687
▁러시아 -688
▁이전 -689
▁21 -690
▁침 -691
▁좋 -692
▁사실 -693
▁하지만 -694
▁센 -695
우스 -696
▁일어나 -697
▁그녀 -698
▁줄 -699
▁스타 -700
▁르 -701
디오 -702
▁커 -703
ㄹㅏ -704
▁같이 -705
▁폴 -706
▁로마 -707
▁여성 -708
▁이것 -709
▁인민 -710
▁주로 -711
▁프로그램 -712
▁나라 -713
▁타이 -714
▁생각 -715
▁2012 -716
▁2011 -717
▁갈 -718
▁필요 -719
▁출신 -720
▁참가 -721
▁싱 -722
▁혼 -723
▁이탈 -724
▁관리 -725
▁조직 -726
▁기준 -727
▁100 -728
▁운영 -729
en -730
▁위원회 -731
▁보내 -732
▁2009 -733
▁여자 -734
▁오르 -735
▁2007 -736
▁윤 -737
▁중요 -738
▁생산 -739
▁계획 -740
▁2014 -741
▁기관 -742
▁t -743
▁행정 -744
▁등장 -745
▁정보 -746
▁상대 -747
▁음반 -748
▁이르 -749
▁계속 -750
▁지정 -751
▁성공 -752
▁바이 -753
▁데이 -754
▁a -755
▁매우 -756
▁콘 -757
▁지나 -758
▁국민 -759
▁데뷔 -760
▁2013 -761
▁해당 -762
▁O -763
▁넘 -764
he -765
▁밝히 -766
▁레이 -767
ㄹㅓ -768
▁철도 -769
▁과학 -770
▁아버지 -771
▁대전 -772
스터 -773
▁칼 -774
▁고려 -775
ㄷㅗ -776
리즈 -777
▁이탈리아 -778
▁주요 -779
▁몇 -780
▁발전 -781
프트 -782
▁자리 -783
▁191 -784
▁사업 -785
▁묘 -786
▁시스 -787
▁와 -788
▁ㅊ -789
▁23 -790
▁찾 -791
▁24 -792
▁지내 -793
▁000 -794
▁2015 -795
ar -796
남도 -797
▁억 -798
▁차지 -799
▁방법 -800
ㅁㅡ -801
▁ㅊㅓ -802
ㄹㅓㅁ -803
▁2018 -804
라마 -805
▁헌 -806
▁월드 -807
▁2016 -808
▁앨범 -809
▁얼 -810
레스 -811
▁능 -812
▁그룹 -813
▁최고 -814
▁인도 -815
▁쇼 -816
▁돌아 -817
▁빌 -818
▁마이 -819
▁출연 -820
▁아래 -821
▁결국 -822
이션 -823
르크 -824
▁시리즈 -825
▁관하 -826
▁엘 -827
▁J -828
▁후보 -829
es -830
▁전체 -831
▁고등학교 -832
▁생활 -833
▁떨 -834
▁22 -835
▁이루어지 -836
▁빠 -837
▁2006 -838
▁회사 -839
이트 -840
▁그리스 -841
▁이유 -842
▁한편 -843
FA -844
▁내용 -845
▁192 -846
▁우리 -847
▁ㅇㅡㅁ -848
▁거치 -849
비아 -850
▁격 -851
▁층 -852
▁나가 -853
▁제공 -854
▁스페 -855
▁연합 -856
▁풍 -857
▁방식 -858
▁2017 -859
▁의원 -860
▁힘 -861
▁공식 -862
운데 -863
▁인터 -864
▁항공 -865
▁인간 -866
▁많이 -867
▁시기 -868
▁컴 -869
▁역할 -870
▁잠 -871
▁희 -872
▁드라마 -873
▁몸 -874
▁가운데 -875
▁군사 -876
▁시스템 -877
▁초기 -878
▁조사 -879
▁출전 -880
▁워 -881
▁유명 -882
▁거의 -883
▁민족 -884
▁기업 -885
▁제도 -886
▁반대 -887
▁류 -888
▁놓 -889
▁s -890
▁나타나 -891
▁쓰이 -892
▁퍼 -893
▁지구 -894
▁푸 -895
▁둘 -896
▁가리 -897
▁교회 -898
▁텔 -899
▁색 -900
▁수상 -901
▁대신 -902
▁떠 -903
비스 -904
▁달리 -905
▁유지 -906
▁평가 -907
▁울 -908
▁표현 -909
▁분류 -910
▁ㄹㅏㄴ -911
▁26 -912
▁! -913
▁몰 -914
▁올리 -915
▁특별 -916
▁홈 -917
▁언어 -918
▁대상 -919
▁녹 -920
▁동시 -921
▁기능 -922
▁현대 -923
at -924
▁규모 -925
▁응 -926
▁공개 -927
▁프리 -928
▁28 -929
▁모습 -930
▁마지 -931
▁졸 -932
▁자연 -933
▁노동 -934
▁ㅇㅑ -935
▁이미 -936
▁연결 -937
▁각각 -938
야기 -939
▁웨 -940
▁개인 -941
▁27 -942
▁들어가 -943
▁이론 -944
▁2019 -945
▁승리 -946
▁전하 -947
▁뛰 -948
▁붙 -949
▁인정 -950
▁단체 -951
▁진출 -952
▁지도 -953
▁브라 -954
▁ㅅㅣ -955
북도 -956
▁임명 -957
▁2005 -958
▁핵 -959
▁V -960
▁마지막 -961
▁떨어지 -962
▁2000 -963
▁시장 -964
머니 -965
▁목적 -966
▁시절 -967
▁아르 -968
▁수도 -969
▁메이 -970
▁전문 -971
▁경상 -972
▁정의 -973
▁목록 -974
▁정책 -975
▁멀 -976
▁난 -977
▁기간 -978
▁너 -979
▁상황 -980
▁족 -981
▁눈 -982
ic -983
▁산업 -984
▁직접 -985
▁이야기 -986
al -987
▁먹 -988
▁서로 -989
▁야구 -990
스크 -991
▁혁 -992
▁오스트 -993
▁압 -994
▁계약 -995
▁밴 -996
▁기원 -997
▁슬 -998
▁추가 -999
BS -1000
▁건설 -1001
▁공동 -1002
▁2004 -1003
▁모델 -1004
▁개최 -1005
▁콜 -1006
▁샤 -1007
▁FC -1008
▁건물 -1009
▁공간 -1010
▁플레이 -1011
▁경찰 -1012
▁망 -1013
▁50 -1014
▁형성 -1015
▁활약 -1016
▁결혼 -1017
▁거리 -1018
▁스페인 -1019
▁부산 -1020
▁31 -1021
▁자동 -1022
▁훈 -1023
▁29 -1024
학자 -1025
▁졸업 -1026
▁그것 -1027
▁칸 -1028
▁변화 -1029
▁b -1030
▁노래 -1031
▁교수 -1032
▁사상 -1033
▁변경 -1034
으키 -1035
▁TV -1036
▁ㄴㅣ -1037
▁국회 -1038
▁인물 -1039
is -1040
▁뿐 -1041
▁나이 -1042
▁마을 -1043
re -1044
it -1045
▁공화국 -1046
▁텔레 -1047
▁완전 -1048
▁다르 -1049
▁벨 -1050
▁궁 -1051
▁190 -1052
▁비롯 -1053
▁노선 -1054
▁사랑 -1055
▁흐 -1056
▁인민공 -1057
▁낮 -1058
▁인민공화국 -1059
▁휴 -1060
비전 -1061
▁역시 -1062
▁2020 -1063
▁학생 -1064
▁중학교 -1065
▁느 -1066
ou -1067
▁맥 -1068
▁보통 -1069
▁실제 -1070
▁지지 -1071
▁최대 -1072
▁서비스 -1073
이드 -1074
▁만나 -1075
▁볼 -1076
▁요구 -1077
▁잉 -1078
▁지금 -1079
▁탑 -1080
▁따라 -1081
▁견 -1082
▁보호 -1083
▁전국 -1084
프리카 -1085
대로 -1086
▁일으키 -1087
▁소설 -1088
▁의회 -1089
▁싸 -1090
▁중화 -1091
▁우주 -1092
▁딸 -1093
▁겸 -1094
▁ㄱㅔㅆ -1095
▁실시 -1096
▁지하 -1097
▁없이 -1098
▁기본 -1099
▁혹 -1100
역시 -1101
▁황제 -1102
▁가수 -1103
▁다이 -1104
운드 -1105
▁자기 -1106
▁판매 -1107
▁싱글 -1108
▁전통 -1109
르트 -1110
▁밴드 -1111
▁높이 -1112
▁원래 -1113
▁비판 -1114
▁ㅁㅏ -1115
▁차이 -1116
▁옥 -1117
▁기반 -1118
▁엄 -1119
▁떠나 -1120
▁퇴 -1121
▁론 -1122
너지 -1123
▁2002 -1124
▁종교 -1125
▁경기도 -1126
▁세력 -1127
▁어떤 -1128
▁탐 -1129
▁내리 -1130
로스 -1131
▁40 -1132
▁버리 -1133
▁자료 -1134
스탄 -1135
▁소련 -1136
▁수행 -1137
▁이끌 -1138
▁가리키 -1139
▁2003 -1140
▁환경 -1141
▁기타 -1142
▁ㄴ -1143
▁회의 -1144
▁센터 -1145
▁모양 -1146
▁전기 -1147
▁운행 -1148
▁풀 -1149
▁시설 -1150
▁도쿄 -1151
▁월드컵 -1152
▁전자 -1153
▁부대 -1154
▁특징 -1155
▁나타내 -1156
▁밖 -1157
나다 -1158
러스 -1159
▁공연 -1160
▁승강 -1161
▁컵 -1162
▁걸치 -1163
▁기념 -1164
▁그래 -1165
▁교황 -1166
▁명칭 -1167
▁분야 -1168
▁뮤 -1169
▁예술 -1170
le -1171
▁설명 -1172
▁이동 -1173
▁기독 -1174
▁통합 -1175
▁텔레비전 -1176
mp -1177
▁작업 -1178
▁연방 -1179
▁남자 -1180
▁도입 -1181
▁염 -1182
▁구역 -1183
▁동물 -1184
▁득 -1185
▁행동 -1186
▁따라서 -1187
▁선정 -1188
▁전라 -1189
▁애니 -1190
▁숙 -1191
스타 -1192
▁군대 -1193
▁바로 -1194
▁소프트 -1195
▁남쪽 -1196
▁넓 -1197
▁작용 -1198
▁가족 -1199
들이 -1200
▁능력 -1201
▁할 -1202
▁출시 -1203
▁북쪽 -1204
▁방향 -1205
▁확인 -1206
▁증가 -1207
▁기존 -1208
▁지휘 -1209
▁= -1210
▁행위 -1211
▁제외 -1212
▁차량 -1213
▁문학 -1214
▁교통 -1215
의원 -1216
▁기독교 -1217
▁작가 -1218
▁이때 -1219
▁옮 -1220
▁착 -1221
▁비슷 -1222
▁사고 -1223
▁클럽 -1224
▁국내 -1225
▁형식 -1226
▁윌 -1227
▁ㅁㅡ -1228
▁어머니 -1229
▁도로 -1230
▁십 -1231
▁혁명 -1232
▁작곡 -1233
▁강하 -1234
▁마르 -1235
▁역임 -1236
▁빈 -1237
▁효과 -1238
▁승강장 -1239
▁태양 -1240
▁지배 -1241
▁낙 -1242
▁그렇 -1243
▁캐나다 -1244
▁몽 -1245
▁컴퓨 -1246
▁왕국 -1247
▁열차 -1248
▁유일 -1249
▁FI -1250
▁과거 -1251
▁거두 -1252
▁사무 -1253
▁옮기 -1254
▁이적 -1255
▁챔 -1256
BC -1257
▁협회 -1258
▁혹은 -1259
▁남부 -1260
▁갑 -1261
▁추정 -1262
리오 -1263
▁흥 -1264
▁뉴욕 -1265
▁베이 -1266
▁비교 -1267
▁솔 -1268
▁흔 -1269
▁생기 -1270
▁공산 -1271
자리 -1272
▁갖추 -1273
▁담당 -1274
▁육군 -1275
▁정당 -1276
▁이어지 -1277
▁동일 -1278
▁이사 -1279
▁시민 -1280
▁주변 -1281
▁획 -1282
▁2001 -1283
▁1990 -1284
▁런 -1285
▁홀 -1286
▁늘 -1287
▁동쪽 -1288
▁즈 -1289
▁장관 -1290
▁인기 -1291
▁물리 -1292
▁대사 -1293
▁스포 -1294
▁적용 -1295
▁스트 -1296
▁넣 -1297
▁X -1298
▁챔피 -1299
▁윈 -1300
▁세포 -1301
▁건축 -1302
▁예정 -1303
▁공사 -1304
▁p -1305
▁데이터 -1306
▁쪽 -1307
▁구간 -1308
▁사단 -1309
▁개념 -1310
▁컴퓨터 -1311
▁성장 -1312
▁상당 -1313
▁곧 -1314
▁ᆫㄷㅔ -1315
▁조지 -1316
▁마음 -1317
▁크기 -1318
드리 -1319
▁오늘 -1320
▁차례 -1321
▁징 -1322
▁품 -1323
▁서쪽 -1324
▁189 -1325
▁에너지 -1326
▁버스 -1327
▁멤 -1328
▁돈 -1329
▁충청 -1330
▁맨 -1331
▁흑 -1332
▁바르 -1333
▁비하 -1334
▁록 -1335
이지 -1336
▁바꾸 -1337
▁치르 -1338
▁어리 -1339
▁액 -1340
▁칭 -1341
▁작전 -1342
▁땅 -1343
▁조건 -1344
▁민주주의 -1345
▁자체 -1346
▁실패 -1347
▁디자 -1348
▁연기 -1349
▁잔 -1350
▁어느 -1351
▁반응 -1352
▁율 -1353
▁덕 -1354
▁이런 -1355
▁FIFA -1356
▁d -1357
▁선언 -1358
▁돌아오 -1359
▁이어 -1360
▁연주 -1361
▁애니메 -1362
▁특정 -1363
▁버전 -1364
▁종류 -1365
▁부족 -1366
▁컨 -1367
▁움 -1368
▁페르 -1369
▁국립 -1370
▁쉽 -1371
▁방영 -1372
▁연속 -1373
카이 -1374
가지 -1375
▁익 -1376
▁쌍 -1377
▁피해 -1378
▁선택 -1379
el -1380
▁대체 -1381
▁공항 -1382
▁대구 -1383
▁해군 -1384
▁다루 -1385
▁ㄹㅓ -1386
▁규정 -1387
▁고대 -1388
et -1389
거리 -1390
버스 -1391
라지 -1392
▁멤버 -1393
▁체제 -1394
▁조약 -1395
▁내부 -1396
▁북부 -1397
루스 -1398
▁속도 -1399
▁수록 -1400
▁결승 -1401
▁기원전 -1402
▁아시아 -1403
▁선출 -1404
▁연대 -1405
▁애니메이션 -1406
▁명령 -1407
▁정신 -1408
▁헌법 -1409
글랜드 -1410
▁쥐 -1411
▁크리스 -1412
▁인천 -1413
▁포르 -1414
▁ㄴㅡㄴㅈㅣ -1415
▁왜 -1416
▁옛 -1417
▁휘 -1418
ion -1419
▁가치 -1420
웨어 -1421
▁단계 -1422
▁영어 -1423
▁개혁 -1424
▁최종 -1425
▁물질 -1426
▁자치 -1427
ing -1428
▁친구 -1429
▁달러 -1430
▁설계 -1431
▁나누 -1432
▁최근 -1433
▁분석 -1434
▁밤 -1435
▁비행 -1436
▁척 -1437
트남 -1438
▁가깝 -1439
▁출판 -1440
▁평균 -1441
▁의사 -1442
▁강화 -1443
시마 -1444
▁ᆫㅈㅣ -1445
▁1999 -1446
▁지명 -1447
▁로스 -1448
▁체계 -1449
아가 -1450
▁더욱 -1451
널리 -1452
ol -1453
▁롭 -1454
▁표준 -1455
라스 -1456
▁소비 -1457
▁술 -1458
▁배치 -1459
▁잉글랜드 -1460
메리카 -1461
▁법원 -1462
▁1998 -1463
▁머리 -1464
▁집단 -1465
▁cm -1466
▁Y -1467
▁치료 -1468
21 -1469
▁북한 -1470
▁획득 -1471
▁개월 -1472
▁씩 -1473
▁남기 -1474
▁부문 -1475
▁파이 -1476
▁관심 -1477
▁팬 -1478
▁언급 -1479
▁o -1480
▁하이 -1481
▁헬 -1482
▁함수 -1483
▁겨 -1484
▁하계 -1485
▁분리 -1486
▁공원 -1487
▁유사 -1488
▁현상 -1489
▁1980 -1490
▁지속 -1491
▁부상 -1492
▁먼 -1493
▁파리 -1494
▁60 -1495
▁맺 -1496
▁벤 -1497
▁스테 -1498
▁실험 -1499
▁스포츠 -1500
▁조정 -1501
▁처리 -1502
▁확장 -1503
스코 -1504
▁선발 -1505
▁엔진 -1506
▁베르 -1507
리지 -1508
▁관할 -1509
▁입단 -1510
▁지니 -1511
▁제품 -1512
▁35 -1513
▁공립 -1514
▁마치 -1515
▁대중 -1516
▁챔피언 -1517
▁마리 -1518
▁소유 -1519
▁문자 -1520
▁빠르 -1521
▁목표 -1522
▁통일 -1523
▁장군 -1524
▁도움 -1525
▁어렵 -1526
▁꽃 -1527
▁요소 -1528
▁시도 -1529
▁mm -1530
▁주도 -1531
▁재판 -1532
디어 -1533
▁정규 -1534
▁자동차 -1535
▁에스 -1536
⊸⊸ -1537
⊸⊸⊸ -1538
▁나무 -1539
▁이해 -1540
▁요시 -1541
▁외국 -1542
▁거주 -1543
▁향하 -1544
▁점령 -1545
▁구단 -1546
▁후반 -1547
▁원자 -1548
▁시험 -1549
▁주인 -1550
▁편성 -1551
▁기사 -1552
▁네덜 -1553
▁네덜란드 -1554
▁바뀌 -1555
▁미치 -1556
▁n -1557
▁괴 -1558
광역시 -1559
▁주민 -1560
▁학자 -1561
▁앤 -1562
▁행사 -1563
▁가르 -1564
▁잃 -1565
▁통신 -1566
▁일종 -1567
▁결합 -1568
▁사령 -1569
▁웹 -1570
▁혈 -1571
▁안정 -1572
▁투표 -1573
▁동맹 -1574
▁고속 -1575
▁스럽 -1576
▁끌 -1577
▁책임 -1578
▁알렉 -1579
▁예선 -1580
▁불교 -1581
▁잇 -1582
▁수준 -1583
▁길이 -1584
om -1585
▁앙 -1586
▁개봉 -1587
나무 -1588
▁장치 -1589
▁아프리카 -1590
▁깊 -1591
야마 -1592
▁끝나 -1593
▁언론 -1594
젝트 -1595
▁1997 -1596
▁모르 -1597
▁디자인 -1598
▁본선 -1599
▁문서 -1600
▁불구 -1601
▁광주 -1602
▁정하 -1603
▁준비 -1604
▁베트남 -1605
일랜드 -1606
▁촉 -1607
▁사진 -1608
▁캠 -1609
▁칠 -1610
▁방문 -1611
▁신문 -1612
▁ᄇ -1613
▁가문 -1614
▁빛 -1615
메달 -1616
▁유전 -1617
▁ㄱㅜ -1618
st -1619
▁다니 -1620
▁구분 -1621
▁정권 -1622
▁폴란드 -1623
▁가정 -1624
▁1996 -1625
▁정확 -1626
▁The -1627
▁1995 -1628
▁제조 -1629
▁경험 -1630
▁그림 -1631
▁성적 -1632
▁드러 -1633
▁요리 -1634
▁핀 -1635
▁비디오 -1636
▁용어 -1637
▁믿 -1638
▁평화 -1639
▁amp -1640
▁부인 -1641
▁정리 -1642
▁32 -1643
▁오늘날 -1644
▁통과 -1645
▁70 -1646
▁값 -1647
▁부여 -1648
▁일제 -1649
▁원인 -1650
특별 -1651
▁왕조 -1652
▁찬 -1653
ㅇㅓ -1654
▁아마 -1655
▁프로젝트 -1656
▁런던 -1657
▁추진 -1658
▁아직 -1659
▁덴 -1660
▁병원 -1661
▁은퇴 -1662
▁이곳 -1663
스로 -1664
▁널리 -1665
▁방어 -1666
ㅇㅓㅆ -1667
▁깨 -1668
▁올라 -1669
▁종합 -1670
▁프레 -1671
▁멸 -1672
스턴 -1673
▁신라 -1674
인트 -1675
▁슈퍼 -1676
▁500 -1677
▁폐지 -1678
▁인터넷 -1679
▁영역 -1680
▁이듬 -1681
▁해석 -1682
▁몬 -1683
▁끼 -1684
▁습 -1685
▁통치 -1686
▁경쟁 -1687
웨이 -1688
▁입장 -1689
▁미사 -1690
▁훈련 -1691
▁경영 -1692
▁제주 -1693
▁the -1694
▁민주당 -1695
▁면적 -1696
▁노력 -1697
▁발달 -1698
▁총리 -1699
▁보도 -1700
▁츠 -1701
▁주연 -1702
▁파괴 -1703
아들이 -1704
레일 -1705
am -1706
▁제안 -1707
▁기여 -1708
▁80 -1709
▁주제 -1710
▁죽이 -1711
▁ᄇㄴㅣ -1712
▁만화 -1713
▁회장 -1714
▁접하 -1715
▁유래 -1716
▁미술 -1717
▁번호 -1718
▁서부 -1719
▁부정 -1720
▁모으 -1721
▁이듬해 -1722
▁188 -1723
▁경기장 -1724
▁야마 -1725
▁도서 -1726
▁놀 -1727
▁국회의원 -1728
리트 -1729
▁완전히 -1730
▁UE -1731
▁생물 -1732
▁지키 -1733
▁남성 -1734
▁연맹 -1735
▁식민 -1736
▁빅 -1737
▁자주 -1738
라인 -1739
▁동부 -1740
▁궤 -1741
▁투수 -1742
▁경계 -1743
▁요청 -1744
▁그런 -1745
▁+ -1746
ㅂㄴㅣ -1747
il -1748
▁정상 -1749
▁ㄹㅜ -1750
▁1994 -1751
▁폰 -1752
▁법률 -1753
▁행성 -1754
▁UEFA -1755
▁1970 -1756
▁나뉘 -1757
▁벌이 -1758
▁무기 -1759
▁소재 -1760
▁수용 -1761
▁등록 -1762
▁금지 -1763
▁돕 -1764
▁ㅅㅡ -1765
▁움직 -1766
▁삼성 -1767
▁연구소 -1768
톨릭 -1769
ac -1770
▁인식 -1771
▁제한 -1772
▁지진 -1773
▁펼 -1774
▁바탕 -1775
▁라디오 -1776
▁링 -1777
▁꼬 -1778
▁무대 -1779
▁박물 -1780
▁강원 -1781
▁영토 -1782
▁노르 -1783
▁아시 -1784
머지 -1785
▁발사 -1786
▁나머지 -1787
▁지대 -1788
▁외교 -1789
▁철학 -1790
▁KBS -1791
▁접근 -1792
▁조각 -1793
▁표기 -1794
▁반면 -1795
▁린 -1796
▁ㅅㅡㅂㄴㅣ -1797
▁빠지 -1798
▁스스로 -1799
▁오래 -1800
▁뉴스 -1801
▁업무 -1802
▁정식 -1803
▁뇌 -1804
▁거부 -1805
▁다리 -1806
▁더불 -1807
▁아일랜드 -1808
▁결성 -1809
▁마찬 -1810
▁마찬가지 -1811
▁서식 -1812
▁오스 -1813
▁벽 -1814
▁필리 -1815
▁붙이 -1816
▁받아들이 -1817
▁1992 -1818
▁돌아가 -1819
▁상호 -1820
▁펜 -1821
▁은행 -1822
▁굴 -1823
요일 -1824
▁짧 -1825
▁45 -1826
▁다수 -1827
▁공작 -1828
▁아카 -1829
▁기초 -1830
▁가톨릭 -1831
ro -1832
ㅁㅕㄴㅅㅓ -1833
▁소리 -1834
▁박사 -1835
▁복귀 -1836
▁보수 -1837
임스 -1838
▁논란 -1839
▁임시 -1840
▁스웨 -1841
▁바다 -1842
▁의식 -1843
▁주의 -1844
▁이기 -1845
▁수학 -1846
▁트리 -1847
▁득점 -1848
▁성격 -1849
시코 -1850
▁이렇 -1851
▁장애 -1852
▁36 -1853
ed -1854
▁of -1855
▁윌리 -1856
모토 -1857
▁실제로 -1858
▁지도자 -1859
▁박물관 -1860
▁해결 -1861
▁초대 -1862
▁그대로 -1863
▁마이크 -1864
▁이스 -1865
▁장소 -1866
▁유로 -1867
▁브라질 -1868
▁검사 -1869
▁스위 -1870
▁에이 -1871
워드 -1872
▁총선 -1873
▁긴 -1874
▁여행 -1875
트리 -1876
▁카드 -1877
▁집합 -1878
▁여름 -1879
▁화학 -1880
▁표시 -1881
▁느끼 -1882
▁차원 -1883
▁강력 -1884
▁묘사 -1885
▁기구 -1886
▁패배 -1887
▁식물 -1888
▁오브 -1889
▁1960 -1890
▁제시 -1891
▁계열 -1892
▁관측 -1893
ig -1894
▁이외 -1895
▁연극 -1896
▁1991 -1897
▁단순 -1898
▁인사 -1899
▁안전 -1900
▁유니 -1901
토리 -1902
▁스웨덴 -1903
▁차트 -1904
로나 -1905
▁뛰어나 -1906
▁활용 -1907
▁파일 -1908
▁무역 -1909
▁멕 -1910
▁디지 -1911
▁권력 -1912
▁곤 -1913
▁개국 -1914
▁회원 -1915
▁히로 -1916
▁오스트리아 -1917
▁꾸 -1918
▁자라 -1919
부르크 -1920
▁근처 -1921
▁1993 -1922
레일리아 -1923
▁싸우 -1924
▁기계 -1925
▁33 -1926
▁형제 -1927
▁캐릭 -1928
▁보다 -1929
▁조성 -1930
▁소프트웨어 -1931
▁반란 -1932
▁취하 -1933
▁붕 -1934
▁먼저 -1935
▁지적 -1936
배우 -1937
▁분포 -1938
▁중간 -1939
베이 -1940
▁중단 -1941
▁아무 -1942
▁흡 -1943
▁위험 -1944
▁발행 -1945
▁일정 -1946
▁세대 -1947
▁시행 -1948
트로 -1949
▁도착 -1950
▁스튜 -1951
▁스코 -1952
▁여객 -1953
특별시 -1954
▁량 -1955
od -1956
▁띠 -1957
▁기자 -1958
▁협력 -1959
버트 -1960
▁서울특별시 -1961
▁사이트 -1962
사카 -1963
▁윈도 -1964
▁지하철 -1965
주시 -1966
▁단어 -1967
▁186 -1968
▁해안 -1969
▁캐릭터 -1970
▁하루 -1971
니스 -1972
▁다만 -1973
▁", -1974
ve -1975
▁렌 -1976
워크 -1977
▁죽음 -1978
▁코드 -1979
▁파견 -1980
▁혜 -1981
as -1982
▁수많 -1983
▁연장 -1984
▁들어오 -1985
▁세상 -1986
▁내각 -1987
▁ᆫㄱㅏ -1988
▁순위 -1989
▁태평 -1990
▁경상남도 -1991
▁전시 -1992
▁오스트레일리아 -1993
▁내려 -1994
▁죄 -1995
▁다카 -1996
지션 -1997
▁공장 -1998
▁본부 -1999
▁생성 -2000
▁투자 -2001
나이 -2002
▁후기 -2003
▁삶 -2004
▁번역 -2005
▁카이 -2006
▁겪 -2007
▁케이 -2008
소년 -2009
▁윌리엄 -2010
▁감소 -2011
▁근거 -2012
▁혐 -2013
▁경상북도 -2014
▁옹 -2015
▁지상 -2016
▁뮤직 -2017
▁네트 -2018
▁제기 -2019
▁보유 -2020
▁귀족 -2021
▁확대 -2022
▁보존 -2023
▁유형 -2024
▁관광 -2025
▁양식 -2026
▁지식 -2027
▁1988 -2028
▁듣 -2029
무원 -2030
▁? -2031
▁균 -2032
▁동생 -2033
▁위기 -2034
▁멜 -2035
▁상징 -2036
▁달성 -2037
▁구하 -2038
▁유대 -2039
▁187 -2040
▁숨 -2041
▁촬 -2042
▁캘 -2043
▁촌 -2044
▁극장 -2045
▁원소 -2046
▁멕시코 -2047
▁전략 -2048
▁상업 -2049
▁h -2050
▁당선 -2051
▁디지털 -2052
▁근무 -2053
▁유리 -2054
▁영상 -2055
▁학위 -2056
▁수사 -2057
▁성립 -2058
▁완성 -2059
▁대응 -2060
ㅜㄴ -2061
▁단위 -2062
▁34 -2063
▁특수 -2064
▁짓 -2065
▁계승 -2066
▁촬영 -2067
▁옆 -2068
▁발매되 -2069
▁체포 -2070
▁이슬 -2071
▁흐르 -2072
▁님 -2073
▁코치 -2074
▁수비 -2075
티아 -2076
▁나중 -2077
▁몇몇 -2078
▁식민지 -2079
▁38 -2080
▁이렇게 -2081
▁체결 -2082
id -2083
▁전달 -2084
▁ㅇㅗ -2085
아내 -2086
▁마사 -2087
회사 -2088
▁권리 -2089
▁이집 -2090
▁이집트 -2091
▁알렉산 -2092
▁종목 -2093
▁생명 -2094
▁국왕 -2095
가리 -2096
▁90 -2097
가와 -2098
▁싶 -2099
▁듀 -2100
아시아 -2101
▁벌어지 -2102
▁낳 -2103
▁아내 -2104
▁걸리 -2105
▁승격 -2106
▁시티 -2107
▁맹 -2108
▁ㄷㅐ -2109
▁직후 -2110
▁톤 -2111
▁헨 -2112
▁판단 -2113
▁1989 -2114
▁이주 -2115
▁타이틀 -2116
▁시청 -2117
▁2021 -2118
▁관찰 -2119
▁개통 -2120
▁률 -2121
모리 -2122
▁주식 -2123
▁도서관 -2124
▁미래 -2125
▁크로 -2126
▁48 -2127
▁대륙 -2128
▁측정 -2129
ec -2130
▁틀 -2131
▁펼치 -2132
▁동계 -2133
▁소수 -2134
▁젊 -2135
▁맞추 -2136
▁미군 -2137
▁즐 -2138
▁채널 -2139
▁밑 -2140
▁엘리 -2141
▁홍콩 -2142
us -2143
▁문화재 -2144
▁정치인 -2145
▁스키 -2146
▁전환 -2147
▁설정 -2148
▁자본 -2149
▁포르투 -2150
▁라인 -2151
and -2152
▁세르 -2153
▁특성 -2154
▁', -2155
▁쌓 -2156
▁텍 -2157
NA -2158
▁새로 -2159
▁개정 -2160
▁얼마 -2161
▁미사일 -2162
▁납 -2163
▁신경 -2164
▁시위 -2165
▁상하 -2166
▁종료 -2167
▁취임 -2168
▁의견 -2169
▁1950 -2170
▁제정 -2171
▁기획 -2172
▁지위 -2173
▁| -2174
▁달하 -2175
▁주어지 -2176
ㅇㅔ -2177
▁후쿠 -2178
▁본관 -2179
▁은하 -2180
▁300 -2181
▁결승전 -2182
▁전차 -2183
▁청년 -2184
스티 -2185
디아 -2186
▁MBC -2187
▁사회주의 -2188
▁천황 -2189
코드 -2190
▁출생 -2191
▁e -2192
▁아키 -2193
▁헝 -2194
▁주인공 -2195
▁교체 -2196
ad -2197
▁범죄 -2198
▁답 -2199
▁제임스 -2200
▁전라남도 -2201
▁셀 -2202
▁주목 -2203
▁충돌 -2204
▁예수 -2205
▁ㅃ -2206
▁계산 -2207
▁소개 -2208
▁수정 -2209
▁해외 -2210
▁춘 -2211
▁녹음 -2212
▁ㅇㅏㅆㅇㅓㅆ -2213
교회 -2214
▁빼 -2215
▁장기 -2216
▁ㅃㅜㄴ -2217
▁음식 -2218
▁1945 -2219
▁바이러스 -2220
▁벗 -2221
▁즉위 -2222
▁스티 -2223
▁비용 -2224
▁모이 -2225
▁남북 -2226
▁본래 -2227
▁개선 -2228
▁카운 -2229
▁소장 -2230
▁합류 -2231
리학 -2232
ent -2233
▁건강 -2234
▁자격 -2235
▁비밀 -2236
전히 -2237
▁공부 -2238
▁건너 -2239
▁펠 -2240
▁네트워크 -2241
▁계기 -2242
▁공급 -2243
▁궤도 -2244
▁부모 -2245
▁이래 -2246
▁배경 -2247
▁체육 -2248
스카 -2249
▁ㄷㅡ -2250
▁만드 -2251
▁시내 -2252
▁에드 -2253
50 -2254
▁제거 -2255
▁털 -2256
▁인근 -2257
▁원정 -2258
▁셰 -2259
▁컬 -2260
▁누구 -2261
▁각종 -2262
▁작성 -2263
▁오후 -2264
▁공군 -2265
▁명예 -2266
▁거대 -2267
▁감염 -2268
▁자원 -2269
▁물론 -2270
▁홈런 -2271
▁입학 -2272
▁왼 -2273
▁신학 -2274
▁읽 -2275
▁가입 -2276
▁성우 -2277
▁국경 -2278
▁베네 -2279
▁집중 -2280
▁군인 -2281
▁피아 -2282
▁전사 -2283
▁가격 -2284
▁천문 -2285
▁객 -2286
보이 -2287
베르 -2288
▁명단 -2289
▁포지션 -2290
▁병력 -2291
▁울산 -2292
▁저항 -2293
▁줄이 -2294
▁신호 -2295
티나 -2296
▁이슬람 -2297
▁통제 -2298
▁아우 -2299
▁찰 -2300
▁농업 -2301
▁강조 -2302
▁기후 -2303
리포 -2304
▁질량 -2305
피아 -2306
▁측면 -2307
▁소송 -2308
▁인수 -2309
▁만약 -2310
▁St -2311
▁터미 -2312
▁학문 -2313
▁블랙 -2314
▁실행 -2315
▁플로 -2316
▁세이 -2317
▁병사 -2318
▁던 -2319
▁콩 -2320
▁터키 -2321
ot -2322
도로 -2323
▁오른 -2324
▁강원도 -2325
니어 -2326
▁겨울 -2327
▁피하 -2328
▁태평양 -2329
▁나서 -2330
▁x -2331
▁정착 -2332
▁최소 -2333
▁증명 -2334
▁약간 -2335
▁변호 -2336
▁비트 -2337
▁엑 -2338
▁기회 -2339
▁잎 -2340
▁너무 -2341
▁미디어 -2342
▁무장 -2343
un -2344
▁외부 -2345
▁이번 -2346
▁노동자 -2347
▁광고 -2348
▁마리아 -2349
▁쉬 -2350
▁37 -2351
▁해방 -2352
▁환자 -2353
ow -2354
▁몽골 -2355
동안 -2356
▁in -2357
▁편집 -2358
▁국방 -2359
▁터미널 -2360
철도 -2361
▁쇠 -2362
▁마쓰 -2363
▁제목 -2364
스키 -2365
▁사라지 -2366
▁지점 -2367
▁밀도 -2368
▁냉 -2369
▁표면 -2370
▁무렵 -2371
▁바라 -2372
▁라운드 -2373
▁금융 -2374
▁ㄹㅣ -2375
▁도중 -2376
▁전반 -2377
▁바람 -2378
▁마련 -2379
▁유도 -2380
▁혐의 -2381
▁가스 -2382
▁1987 -2383
오카 -2384
▁허용 -2385
▁카르 -2386
▁그해 -2387
▁충분 -2388
▁힐 -2389
소리 -2390
▁학년 -2391
▁윈도우 -2392
▁빨 -2393
▁합병 -2394
▁인디 -2395
▁충청남도 -2396
▁루이 -2397
▁래 -2398
▁꼬리 -2399
▁재산 -2400
▁여전히 -2401
▁민간 -2402
▁재직 -2403
▁영화배우 -2404
▁전력 -2405
▁오사카 -2406
▁포르투갈 -2407
▁숲 -2408
▁고전 -2409
▁w -2410
▁양성 -2411
마크 -2412
▁등급 -2413
▁선수단 -2414
▁전역 -2415
▁41 -2416
▁뒷 -2417
▁령 -2418
▁가져 -2419
▁붕괴 -2420
▁킹 -2421
▁현실 -2422
▁헝가리 -2423
▁오리 -2424
▁후지 -2425
▁라이브 -2426
▁1986 -2427
▁재정 -2428
▁공주 -2429
드로 -2430
▁51 -2431
▁1984 -2432
ur -2433
▁행하 -2434
▁공공 -2435
▁동료 -2436
▁엔터 -2437
▁이하 -2438
▁캘리포 -2439
▁보고 -2440
▁스튜디오 -2441
▁계급 -2442
▁봄 -2443
▁대수 -2444
▁위원장 -2445
▁승인 -2446
▁강제 -2447
▁전선 -2448
▁적극 -2449
▁군주 -2450
▁온도 -2451
▁대대 -2452
▁조치 -2453
▁위협 -2454
▁샌 -2455
▁근대 -2456
▁구축 -2457
▁롤 -2458
▁유엔 -2459
▁수입 -2460
▁범위 -2461
▁업체 -2462
▁둥 -2463
▁클라 -2464
▁캘리포니아 -2465
▁이미지 -2466
▁임무 -2467
▁경력 -2468
▁논문 -2469
▁양자 -2470
▁대학원 -2471
▁위성 -2472
▁출발 -2473
▁꿈 -2474
▁핀란드 -2475
▁이제 -2476
▁고구 -2477
▁다섯 -2478
▁교사 -2479
▁점차 -2480
▁항상 -2481
▁거래 -2482
▁성인 -2483
▁토론 -2484
▁공산당 -2485
▁채택 -2486
▁전개 -2487
▁필리핀 -2488
▁수단 -2489
▁회복 -2490
▁원칙 -2491
▁잭 -2492
마스 -2493
러지 -2494
▁확보 -2495
▁올라가 -2496
▁섭 -2497
▁아시안 -2498
▁강의 -2499
▁잡지 -2500
▁수립 -2501
테르 -2502
▁드래 -2503
▁증거 -2504
▁남아 -2505
▁공업 -2506
ch -2507
▁앞서 -2508
주교 -2509
▁첨 -2510
▁39 -2511
▁남편 -2512
ㅇㅛ -2513
▁400 -2514
▁개편 -2515
▁매년 -2516
▁스파 -2517
▁기지 -2518
▁얼굴 -2519
▁일원 -2520
고리 -2521
▁선생 -2522
▁의료 -2523
▁합의 -2524
▁사례 -2525
▁만족 -2526
바이 -2527
▁시인 -2528
▁앞두 -2529
▁스위스 -2530
▁나카 -2531
▁이스라 -2532
▁폭발 -2533
▁1985 -2534
▁부근 -2535
▁그래서 -2536
▁간주 -2537
▁장비 -2538
▁64 -2539
▁붉 -2540
▁모스크 -2541
▁이승 -2542
로드 -2543
▁어떻 -2544
▁욕 -2545
▁종종 -2546
▁튀 -2547
▁대형 -2548
데미 -2549
▁경주 -2550
▁대기 -2551
▁군단 -2552
▁끊 -2553
▁스리 -2554
ay -2555
▁이스라엘 -2556
▁분자 -2557
▁둘러 -2558
▁아름 -2559
▁규칙 -2560
▁뜨 -2561
ir -2562
▁장면 -2563
▁토지 -2564
▁아주 -2565
▁항성 -2566
▁종이 -2567
▁불가 -2568
다리 -2569
▁II -2570
▁게이 -2571
ut -2572
▁수원 -2573
▁어린 -2574
▁움직이 -2575
▁경향 -2576
▁까 -2577
▁캄 -2578
백질 -2579
▁조합 -2580
▁낭 -2581
▁맛 -2582
▁ㄷㅡㄴ -2583
키아 -2584
▁진화 -2585
▁해체 -2586
▁기대 -2587
um -2588
▁아랍 -2589
▁탑재 -2590
▁귀국 -2591
우드 -2592
▁레코드 -2593
고기 -2594
▁강점 -2595
▁심하 -2596
▁아카데미 -2597
▁43 -2598
▁그곳 -2599
레이드 -2600
▁대장 -2601
▁저지 -2602
▁확실 -2603
▁br -2604
▁기억 -2605
▁서양 -2606
▁짐 -2607
▁신화 -2608
▁평양 -2609
▁향상 -2610
▁장식 -2611
▁클래 -2612
▁고양 -2613
▁투어 -2614
im -2615
▁스피 -2616
▁아나 -2617
어들 -2618
▁아메리카 -2619
▁박쥐 -2620
▁청소년 -2621
▁좀 -2622
▁란 -2623
▁침공 -2624
▁변하 -2625
▁42 -2626
▁의학 -2627
▁보장 -2628
▁융 -2629
▁아름답 -2630
▁청나라 -2631
▁카운티 -2632
▁폼 -2633
오스 -2634
▁남동 -2635
▁새기 -2636
▁랭 -2637
▁고구려 -2638
▁사후 -2639
▁메이저 -2640
▁만큼 -2641
▁켄 -2642
요시 -2643
▁카메 -2644
▁가로 -2645
▁가사 -2646
▁에피 -2647
▁자금 -2648
ver -2649
보드 -2650
▁보병 -2651
▁불과 -2652
네스 -2653
▁선고 -2654
▁잠시 -2655
▁신설 -2656
▁1982 -2657
▁성과 -2658
▁소년 -2659
▁나치 -2660
▁단백질 -2661
라비아 -2662
▁스타일 -2663
▁독자 -2664
▁55 -2665
▁고문 -2666
타인 -2667
▁이끄 -2668
▁중화민국 -2669
에르 -2670
▁만주 -2671
▁숭 -2672
▁감정 -2673
▁라틴 -2674
▁살해 -2675
▁편입 -2676
▁우선 -2677
▁우수 -2678
▁철도역 -2679
▁단지 -2680
▁스카 -2681
무르 -2682
▁확정 -2683
라노 -2684
▁합치 -2685
네시아 -2686
틀랜드 -2687
▁광역시 -2688
▁스케 -2689
▁ㅂㅏ -2690
▁함대 -2691
▁복잡 -2692
▁비율 -2693
▁덴마크 -2694
▁신앙 -2695
▁차별 -2696
▁1983 -2697
▁의장 -2698
▁지시 -2699
▁i -2700
▁세종 -2701
▁삭 -2702
▁나폴 -2703
다이 -2704
▁44 -2705
▁왕위 -2706
▁재단 -2707
▁예상 -2708
▁창설 -2709
▁온라인 -2710
누스 -2711
▁LG -2712
▁태풍 -2713
일러 -2714
▁마크 -2715
▁공유 -2716
▁고향 -2717
FC -2718
▁구체 -2719
▁법인 -2720
▁전설 -2721
▁성당 -2722
▁전화 -2723
▁선거구 -2724
▁검찰 -2725
▁동의 -2726
▁역대 -2727
▁브리 -2728
▁짜 -2729
뜨리 -2730
▁47 -2731
▁킬 -2732
▁육상 -2733
▁참석 -2734
▁반도 -2735
▁솔로 -2736
▁판결 -2737
▁삼국 -2738
▁보급 -2739
▁브랜드 -2740
운동 -2741
트라 -2742
▁묻 -2743
하라 -2744
▁둘러싸 -2745
▁대립 -2746
뿌리 -2747
싱턴 -2748
▁하늘 -2749
의회 -2750
▁유학 -2751
▁노예 -2752
▁저장 -2753
▁고정 -2754
▁수출 -2755
▁후손 -2756
비드 -2757
이크 -2758
▁애플 -2759
▁카를 -2760
▁핵심 -2761
▁듯 -2762
▁집행 -2763
▁75 -2764
▁헤이 -2765
▁오픈 -2766
▁협상 -2767
▁강점기 -2768
▁ㄴㅑ -2769
▁본격 -2770
▁보안 -2771
▁184 -2772
▁가하 -2773
▁산맥 -2774
▁180 -2775
▁Z -2776
없이 -2777
▁마드리 -2778
▁초반 -2779
▁회전 -2780
오프 -2781
셔널 -2782
원군 -2783
▁탄생 -2784
▁자세 -2785
▁대비 -2786
▁암살 -2787
▁중반 -2788
각형 -2789
▁사전 -2790
▁무엇 -2791
문화 -2792
▁연고 -2793
▁대항 -2794
▁숫 -2795
▁로버트 -2796
▁ㅈ -2797
▁마드리드 -2798
▁옷 -2799
▁1972 -2800
▁이성 -2801
▁베이스 -2802
반도 -2803
▁법칙 -2804
▁주교 -2805
▁아르헨 -2806
▁플랫 -2807
▁켈 -2808
리스트 -2809
▁어린이 -2810
▁권한 -2811
▁공학 -2812
▁사우 -2813
▁전용 -2814
▁순서 -2815
▁46 -2816
소드 -2817
▁단일 -2818
▁말기 -2819
▁공기 -2820
▁1920 -2821
▁프란 -2822
▁이란 -2823
바르 -2824
▁전혀 -2825
▁의무 -2826
▁베를 -2827
레이션 -2828
▁유적 -2829
▁직원 -2830
▁아르헨티나 -2831
▁조금 -2832
▁수여 -2833
▁요한 -2834
▁이익 -2835
CA -2836
▁인상 -2837
▁시각 -2838
▁중심지 -2839
터리 -2840
▁1979 -2841
▁운전 -2842
▁공포 -2843
▁별도 -2844
▁아미 -2845
▁가르치 -2846
▁사항 -2847
▁아스 -2848
▁전라북도 -2849
▁스크 -2850
▁흔히 -2851
▁효소 -2852
▁보조 -2853
▁모리 -2854
▁덮 -2855
▁비난 -2856
▁원주 -2857
▁글로 -2858
▁잘못 -2859
▁롯 -2860
▁워싱턴 -2861
▁협정 -2862
▁상품 -2863
▁CD -2864
▁밀리 -2865
▁변호사 -2866
▁전후 -2867
▁kg -2868
▁아파 -2869
▁기하 -2870
▁파크 -2871
▁관료 -2872
▁방면 -2873
▁통계 -2874
▁우크 -2875
ㄴㄷㅏ -2876
▁을 -2877
정부 -2878
ra -2879
▁창조 -2880
▁인권 -2881
▁1930 -2882
퍼드 -2883
▁작곡가 -2884
▁레드 -2885
▁금메달 -2886
▁In -2887
▁1981 -2888
▁마시 -2889
▁저서 -2890
▁투입 -2891
▁현장 -2892
▁1973 -2893
▁장착 -2894
무라 -2895
▁항복 -2896
▁아침 -2897
▁정복 -2898
▁하드 -2899
▁소식 -2900
▁셋 -2901
▁놓이 -2902
▁150 -2903
▁벡 -2904
▁넘어 -2905
▁호텔 -2906
퍼스 -2907
10 -2908
사키 -2909
▁심각 -2910
▁훨 -2911
▁공무원 -2912
▁엠 -2913
▁중세 -2914
▁니콜 -2915
▁헨리 -2916
▁노스 -2917
▁건국 -2918
▁오른쪽 -2919
▁공화 -2920
os -2921
▁교류 -2922
▁교토 -2923
▁중부 -2924
▁본인 -2925
▁갈등 -2926
▁공산주의 -2927
▁v -2928
▁물러 -2929
▁마이클 -2930
▁훨씬 -2931
▁산하 -2932
▁코미 -2933
▁ㄷㅡㅅ -2934
▁빙 -2935
겨나 -2936
▁요새 -2937
▁김정 -2938
▁오랜 -2939
▁세인트 -2940
리어 -2941
▁유전자 -2942
▁택 -2943
▁출마 -2944
▁건조 -2945
▁무리 -2946
▁논의 -2947
▁오히 -2948
▁한때 -2949
▁플레이어 -2950
▁뿌리 -2951
▁인류 -2952
▁왼쪽 -2953
▁플라 -2954
▁인정받 -2955
▁성경 -2956
▁어떻게 -2957
▁서기 -2958
▁오토 -2959
▁창립 -2960
▁패하 -2961
▁형사 -2962
▁방출 -2963
▁추측 -2964
▁로드 -2965
▁연합군 -2966
▁금속 -2967
▁1940 -2968
▁베이징 -2969
▁원작 -2970
30 -2971
▁태국 -2972
▁아프 -2973
▁주위 -2974
▁1974 -2975
BO -2976
▁성질 -2977
▁185 -2978
▁예산 -2979
▁노르웨이 -2980
▁찍 -2981
em -2982
▁릴 -2983
▁드러나 -2984
▁북서 -2985
▁투쟁 -2986
▁제자 -2987
▁복합 -2988
일보 -2989
▁군수 -2990
▁에피소드 -2991
▁탁 -2992
▁코스 -2993
ter -2994
▁에어 -2995
▁사령관 -2996
▁벗어나 -2997
▁운용 -2998
▁사태 -2999
▁모스크바 -3000
▁플레이오프 -3001
▁효율 -3002
▁논쟁 -3003
▁전철 -3004
▁반복 -3005
▁오전 -3006
▁SBS -3007
▁멸망 -3008
▁입자 -3009
▁합성 -3010
▁절대 -3011
▁해양 -3012
카와 -3013
▁뽑 -3014
▁스코틀랜드 -3015
▁정비 -3016
▁구별 -3017
▁집안 -3018
▁1948 -3019
▁제출 -3020
▁메시 -3021
▁주기 -3022
▁노부 -3023
▁인종 -3024
▁숫자 -3025
▁가져오 -3026
▁블루 -3027
▁연산 -3028
듀서 -3029
▁사법 -3030
▁프로듀서 -3031
▁각본 -3032
▁미니 -3033
▁54 -3034
머스 -3035
▁포위 -3036
▁흡수 -3037
▁퍼지 -3038
▁거절 -3039
▁인조 -3040
▁1968 -3041
▁출장 -3042
▁인공 -3043
붙이 -3044
▁댄 -3045
▁델 -3046
▁중대 -3047
▁1976 -3048
▁원리 -3049
아오 -3050
▁연관 -3051
▁웨스트 -3052
▁빌리 -3053
▁슬로 -3054
▁마침 -3055
▁목사 -3056
▁베를린 -3057
도르 -3058
▁활발 -3059
▁경성 -3060
▁시점 -3061
▁수송 -3062
▁오히려 -3063
▁북동 -3064
▁신체 -3065
▁출입 -3066
▁포기 -3067
▁소녀 -3068
▁해상 -3069
▁전공 -3070
▁개시 -3071
▁건립 -3072
▁이민 -3073
▁주전 -3074
▁인터뷰 -3075
▁취급 -3076
ㅇㅣ -3077
▁1975 -3078
▁보스 -3079
▁읍 -3080
▁우스 -3081
▁음력 -3082
▁프라 -3083
▁사령부 -3084
▁즐기 -3085
▁넘기 -3086
▁국도 -3087
▁명성 -3088
▁실리 -3089
op -3090
▁디스 -3091
데스 -3092
▁던지 -3093
▁ㅂㅏㄲ -3094
▁트랙 -3095
▁ㅂㅏㄲㅇㅔ -3096
▁축제 -3097
▁고용 -3098
▁활성 -3099
▁영화제 -3100
▁봉하 -3101
▁파라 -3102
▁히데 -3103
▁취득 -3104
나이티 -3105
▁동원 -3106
▁분쟁 -3107
시스 -3108
▁농민 -3109
▁유나이티 -3110
▁1978 -3111
▁신성 -3112
▁국장 -3113
▁주택 -3114
▁장악 -3115
▁1971 -3116
▁갤 -3117
▁56 -3118
ag -3119
▁미드 -3120
▁비록 -3121
▁소스 -3122
▁텐 -3123
▁보컬 -3124
▁총독 -3125
▁구속 -3126
▁안타 -3127
▁고유 -3128
▁1963 -3129
▁진보 -3130
▁일치 -3131
▁견해 -3132
산시 -3133
▁전부 -3134
서트 -3135
▁52 -3136
▁유물 -3137
▁북아 -3138
▁불법 -3139
▁49 -3140
▁한자 -3141
라크 -3142
▁직전 -3143
▁부활 -3144
▁자이 -3145
▁후원 -3146
▁하위 -3147
▁코미디 -3148
에트 -3149
키스탄 -3150
▁늘어나 -3151
▁65 -3152
▁포도 -3153
▁교차 -3154
▁끝내 -3155
▁관점 -3156
▁보험 -3157
▁학습 -3158
▁여객철도 -3159
▁폭력 -3160
▁대리 -3161
▁정체 -3162
비치 -3163
▁연료 -3164
▁닌 -3165
▁주관 -3166
▁타이완 -3167
▁도달 -3168
▁수술 -3169
▁스미 -3170
메리 -3171
세이 -3172
ce -3173
▁편지 -3174
▁1969 -3175
▁혼란 -3176
▁약속 -3177
▁천체 -3178
▁아테 -3179
▁179 -3180
▁시리아 -3181
▁항공기 -3182
기에 -3183
▁관직 -3184
▁한국어 -3185
▁철수 -3186
▁Q -3187
젤레스 -3188
▁상당히 -3189
▁고종 -3190
▁직업 -3191
▁여부 -3192
▁본사 -3193
▁누리 -3194
릭스 -3195
쿠라 -3196
▁미나 -3197
▁00 -3198
▁선교 -3199
▁명명 -3200
▁물러나 -3201
▁수집 -3202
리케 -3203
▁반영 -3204
▁모시 -3205
▁장교 -3206
▁임금 -3207
▁그리스도 -3208
자기 -3209
▁데이비드 -3210
▁백제 -3211
▁넷 -3212
▁제어 -3213
▁팝 -3214
▁논리 -3215
▁테러 -3216
▁의존 -3217
▁브레 -3218
▁성능 -3219
▁1946 -3220
▁아사 -3221
▁하나님 -3222
▁주간 -3223
▁화물 -3224
▁상륙 -3225
▁부임 -3226
▁보관 -3227
공항 -3228
▁영업 -3229
▁일대 -3230
어스 -3231
▁백작 -3232
▁폴리 -3233
▁학술 -3234
▁프리미 -3235
▁대화 -3236
▁소방 -3237
▁톰 -3238
▁도구 -3239
▁불상 -3240
▁심리 -3241
▁해산 -3242
▁주식회사 -3243
OS -3244
▁53 -3245
▁연재 -3246
▁프로세 -3247
▁좁 -3248
▁정지 -3249
▁콘서트 -3250
▁교환 -3251
▁스마 -3252
▁허가 -3253
▁개체 -3254
▁전파 -3255
▁하우스 -3256
▁코로나 -3257
▁십자 -3258
▁박정 -3259
미터 -3260
▁전문가 -3261
▁제일 -3262
▁1964 -3263
oc -3264
▁정원 -3265
▁방사 -3266
▁대략 -3267
▁자살 -3268
▁충청북도 -3269
▁니시 -3270
▁핑 -3271
▁헤르 -3272
▁나아가 -3273
▁간단 -3274
▁반발 -3275
▁고리 -3276
▁화성 -3277
▁진입 -3278
▁살인 -3279
▁판서 -3280
▁영향력 -3281
▁보건 -3282
▁재료 -3283
▁베스트 -3284
병대 -3285
▁학부 -3286
▁미터 -3287
▁벨기에 -3288
▁김영 -3289
▁공통 -3290
▁리스 -3291
▁거기 -3292
▁드리 -3293
▁상승 -3294
▁겐 -3295
▁US -3296
▁포트 -3297
▁먹이 -3298
▁원하 -3299
ㄹㅕ -3300
▁서버 -3301
▁그런데 -3302
▁신분 -3303
▁항구 -3304
▁스프 -3305
▁국제공항 -3306
이어 -3307
ri -3308
▁영입 -3309
▁지붕 -3310
▁학원 -3311
▁and -3312
▁인도네시아 -3313
▁피아노 -3314
▁승진 -3315
▁소비에트 -3316
▁꼭 -3317
▁58 -3318
▁사장 -3319
▁가을 -3320
▁파트 -3321
▁학회 -3322
▁시호 -3323
▁약하 -3324
▁1000 -3325
노스 -3326
▁부장 -3327
▁그레 -3328
▁99 -3329
▁ㄹㅔ -3330
▁진압 -3331
▁루이스 -3332
▁외국인 -3333
▁랜 -3334
▁스토 -3335
하마 -3336
▁구성원 -3337
▁사운드 -3338
▁횡 -3339
▁아라 -3340
▁브루 -3341
▁식품 -3342
▁창단 -3343
▁질병 -3344
▁채용 -3345
▁콤 -3346
▁도망 -3347
▁변환 -3348
▁참전 -3349
▁주년 -3350
▁현역 -3351
▁기도 -3352
▁누르 -3353
▁복무 -3354
▁임대 -3355
▁계통 -3356
▁픽 -3357
▁응용 -3358
오르 -3359
▁PC -3360
▁통상 -3361
▁머무르 -3362
▁다스 -3363
▁공동체 -3364
▁1977 -3365
저우 -3366
▁리더 -3367
▁요코 -3368
▁감사 -3369
▁탈출 -3370
▁임의 -3371
▁합격 -3372
천군 -3373
▁작사 -3374
▁장수 -3375
▁트랜 -3376
▁그치 -3377
▁민법 -3378
아버지 -3379
▁벼 -3380
▁쫓 -3381
▁망명 -3382
▁의도 -3383
▁탈락 -3384
▁말레이 -3385
▁모드 -3386
▁SK -3387
▁한반도 -3388
▁롯데 -3389
▁문헌 -3390
▁고도 -3391
▁조작 -3392
▁화면 -3393
다가 -3394
▁위반 -3395
▁친일 -3396
▁페이 -3397
▁포로 -3398
▁로스앤 -3399
▁로스앤젤레스 -3400
▁1949 -3401
▁에도 -3402
▁발언 -3403
▁신청 -3404
▁문장 -3405
▁탄소 -3406
▁라이트 -3407
▁부부 -3408
문화재 -3409
▁띄 -3410
성군 -3411
▁트라 -3412
▁마케 -3413
▁학과 -3414
▁방송국 -3415
프리 -3416
▁닥 -3417
igh -3418
▁이치 -3419
▁FA -3420
▁동남 -3421
▁변형 -3422
▁선조 -3423
▁88 -3424
▁캠퍼스 -3425
▁ㅋ -3426
▁배출 -3427
▁수영 -3428
▁저작 -3429
정식 -3430
▁수소 -3431
▁트로 -3432
▁1962 -3433
▁메모리 -3434
▁연출 -3435
▁엑스 -3436
▁상원 -3437
▁예측 -3438
▁절차 -3439
▁칭하 -3440
ation -3441
▁청구 -3442
▁시카 -3443
▁레오 -3444
▁코파 -3445
▁62 -3446
▁자녀 -3447
▁1967 -3448
▁주둔 -3449
려움 -3450
▁분열 -3451
▁조절 -3452
▁전동 -3453
▁.. -3454
▁이중 -3455
▁기호 -3456
▁요인 -3457
카이도 -3458
타르 -3459
▁신인 -3460
▁레스 -3461
드시 -3462
▁큐 -3463
▁국무 -3464
▁서원 -3465
▁정기 -3466
▁화재 -3467
▁처형 -3468
▁흉 -3469
▁출간 -3470
▁r -3471
▁선전 -3472
▁로켓 -3473
▁막부 -3474
크스 -3475
▁호수 -3476
로그 -3477
▁57 -3478
▁광장 -3479
▁실수 -3480
▁이승만 -3481
천시 -3482
▁등지 -3483
▁수리 -3484
▁황금 -3485
▁방지 -3486
▁남서 -3487
▁카메라 -3488
▁증상 -3489
페라 -3490
▁동작 -3491
▁루트 -3492
▁이시 -3493
▁기법 -3494
▁동성 -3495
▁연안 -3496
▁장르 -3497
▁취소 -3498
▁힘들 -3499
▁왕자 -3500
브리 -3501
▁어떠 -3502
▁흑인 -3503
▁개조 -3504
▁오스만 -3505
▁You -3506
▁콘스탄 -3507
▁생존 -3508
▁앵 -3509
라드 -3510
▁지급 -3511
▁Ch -3512
▁롱 -3513
▁서구 -3514
포르 -3515
▁위상 -3516
▁예비 -3517
▁기체 -3518
▁현지 -3519
▁선보이 -3520
▁농구 -3521
▁히트 -3522
▁고지 -3523
▁ㄴㅡㄴㄱㅏ -3524
▁전주 -3525
▁여단 -3526
▁좌우 -3527
▁늦 -3528
▁반드시 -3529
▁천연 -3530
▁임진 -3531
▁고치 -3532
▁진주 -3533
아나 -3534
▁일본군 -3535
▁희망 -3536
▁무덤 -3537
▁공정 -3538
▁181 -3539
▁톱 -3540
▁터널 -3541
▁크리 -3542
▁맞서 -3543
▁노리 -3544
▁동아 -3545
▁제대로 -3546
▁코르 -3547
▁도전 -3548
▁전면 -3549
방송 -3550
▁맞이 -3551
▁스탠 -3552
▁분명 -3553
nd -3554
▁압력 -3555
▁이온 -3556
▁1966 -3557
▁글자 -3558
▁특이 -3559
▁둘째 -3560
▁미국인 -3561
▁녹색 -3562
▁바둑 -3563
▁66 -3564
▁전형 -3565
▁싸움 -3566
▁파악 -3567
▁독립운동 -3568
▁%, -3569
▁그레이 -3570
▁묵 -3571
▁경로 -3572
▁흘 -3573
▁노벨 -3574
▁독특 -3575
이치 -3576
▁방정식 -3577
▁드물 -3578
라이언 -3579
▁1965 -3580
▁리처 -3581
▁KBO -3582
▁법정 -3583
▁매일 -3584
▁68 -3585
▁해리 -3586
▁꺾 -3587
티브 -3588
▁에르 -3589
▁물체 -3590
▁아리 -3591
▁엄청 -3592
▁183 -3593
▁목소리 -3594
▁부사 -3595
▁유기 -3596
▁타임 -3597
더스 -3598
▁ㄹㅏㅇ -3599
▁돌리 -3600
▁체코 -3601
▁지리 -3602
▁가시 -3603
▁신뢰 -3604
▁인지 -3605
▁일식 -3606
▁성향 -3607
▁개신 -3608
▁61 -3609
▁덧 -3610
▁분해 -3611
▁클레 -3612
ST -3613
▁알렉산드 -3614
▁간행 -3615
▁어디 -3616
▁밥 -3617
▁묶 -3618
베스 -3619
에이 -3620
▁동기 -3621
▁우려 -3622
▁퀸 -3623
치아 -3624
▁홋 -3625
▁처벌 -3626
▁찰스 -3627
▁일찍 -3628
르타 -3629
▁타격 -3630
▁유행 -3631
▁화산 -3632
▁완료 -3633
▁분할 -3634
▁사립 -3635
▁나들 -3636
▁웅 -3637
▁김일 -3638
▁내전 -3639
▁손자 -3640
▁나들목 -3641
▁실질 -3642
질랜드 -3643
바라 -3644
▁방해 -3645
▁범주 -3646
▁찌 -3647
▁풍부 -3648
▁뉴질랜드 -3649
▁삽 -3650
▁순환 -3651
▁평등 -3652
▁추구 -3653
▁아동 -3654
▁갈색 -3655
▁1961 -3656
▁대개 -3657
▁별명 -3658
ER -3659
▁복지 -3660
먼트 -3661
▁플래 -3662
▁아파트 -3663
▁800 -3664
art -3665
▁마르크 -3666
▁곱 -3667
▁흰 -3668
▁희생 -3669
ice -3670
▁비평 -3671
▁리가 -3672
▁빼앗 -3673
▁가상 -3674
▁오프 -3675
▁최다 -3676
▁창원 -3677
▁파르 -3678
▁가까 -3679
▁부진 -3680
▁시조 -3681
▁분기 -3682
▁600 -3683
▁마침내 -3684
▁86 -3685
▁시드 -3686
▁전원 -3687
▁집권 -3688
▁모형 -3689
▁사냥 -3690
▁점점 -3691
ON -3692
▁구현 -3693
▁기둥 -3694
▁IS -3695
▁완공 -3696
▁판사 -3697
▁벡터 -3698
▁엄청나 -3699
▁한정 -3700
▁120 -3701
▁첼 -3702
▁메리 -3703
텐츠 -3704
▁중기 -3705
▁프린 -3706
다르 -3707
▁명확 -3708
유럽 -3709
▁대법 -3710
▁테이 -3711
▁훗 -3712
▁근본 -3713
▁웨이 -3714
est -3715
▁사임 -3716
▁한계 -3717
▁스토리 -3718
피스 -3719
은행 -3720
틀러 -3721
▁무게 -3722
▁확산 -3723
▁부하 -3724
▁바치 -3725
▁물리학 -3726
▁일본인 -3727
▁들어서 -3728
▁사마 -3729
▁호주 -3730
▁날개 -3731
▁re -3732
▁대공 -3733
▁출범 -3734
▁충격 -3735
ia -3736
▁캔 -3737
투스 -3738
▁교향 -3739
▁레인 -3740
▁단독 -3741
▁오페라 -3742
▁닛 -3743
▁사형 -3744
▁의지 -3745
▁1919 -3746
▁명나라 -3747
▁알파 -3748
▁뚜 -3749
▁상위 -3750
▁분위 -3751
▁마법 -3752
▁가나 -3753
ap -3754
▁98 -3755
디션 -3756
▁통산 -3757
▁제이 -3758
▁연구원 -3759
▁사원 -3760
TV -3761
▁편찬 -3762
▁넓이 -3763
사스 -3764
▁악화 -3765
▁이자 -3766
▁적절 -3767
▁1944 -3768
▁드러내 -3769
▁의혹 -3770
▁서명 -3771
▁굽 -3772
▁렀 -3773
▁모토 -3774
▁조종 -3775
▁영웅 -3776
▁유치 -3777
▁인접 -3778
▁의심 -3779
나가 -3780
라이나 -3781
ak -3782
▁당초 -3783
▁발굴 -3784
▁문명 -3785
▁인증 -3786
▁훌 -3787
세우 -3788
▁추천 -3789
▁도쿠 -3790
▁연간 -3791
▁모임 -3792
▁저술 -3793
▁키우 -3794
▁샘 -3795
▁무시 -3796
▁포인트 -3797
▁회담 -3798
▁함락 -3799
▁곽 -3800
▁각지 -3801
▁카라 -3802
▁고속도로 -3803
▁광복 -3804
▁동서 -3805
▁생겨나 -3806
▁포항 -3807
▁자극 -3808
▁기리 -3809
▁사실상 -3810
사자 -3811
▁63 -3812
▁1941 -3813
▁프리미어 -3814
▁접촉 -3815
▁쏘 -3816
▁홍보 -3817
▁기온 -3818
▁개입 -3819
▁드라이 -3820
AR -3821
▁골든 -3822
▁징역 -3823
▁독일군 -3824
아보 -3825
우리 -3826
▁순수 -3827
▁기기 -3828
▁멘 -3829
▁95 -3830
▁탐사 -3831
▁올해 -3832
▁사정 -3833
▁뮤지 -3834
▁개막 -3835
▁득표 -3836
▁순간 -3837
연히 -3838
▁그때 -3839
▁공로 -3840
숭이 -3841
▁루스 -3842
▁세르비아 -3843
▁74 -3844
▁학살 -3845
▁경전 -3846
▁등판 -3847
▁진정 -3848
▁성분 -3849
▁행렬 -3850
▁바위 -3851
▁악기 -3852
▁구원 -3853
▁임기 -3854
▁59 -3855
▁변수 -3856
▁시카고 -3857
민주 -3858
▁오랫 -3859
▁DNA -3860
▁꼽 -3861
▁178 -3862
▁추산 -3863
버그 -3864
믹스 -3865
▁그라 -3866
▁앤드 -3867
▁락 -3868
▁Lo -3869
▁언제 -3870
ct -3871
학생 -3872
▁수석 -3873
▁여론 -3874
▁한국인 -3875
▁팽 -3876
▁실현 -3877
대부 -3878
일리 -3879
▁닉 -3880
▁예전 -3881
▁자전 -3882
▁ㄴㅡ -3883
▁네이 -3884
▁공헌 -3885
▁확률 -3886
▁보고서 -3887
무부 -3888
▁백성 -3889
▁스마트 -3890
▁입법 -3891
▁태도 -3892
▁프로그래 -3893
▁혼합 -3894
▁아티 -3895
▁훗날 -3896
▁1958 -3897
▁튜 -3898
▁매장 -3899
▁방위 -3900
▁감시 -3901
▁IC -3902
▁페르시아 -3903
▁양쪽 -3904
▁오랫동안 -3905
▁심사 -3906
▁미쓰 -3907
▁특별시 -3908
▁이닝 -3909
▁줄어들 -3910
러리 -3911
▁피터 -3912
ul -3913
▁1947 -3914
▁왕실 -3915
코스 -3916
▁to -3917
▁춤 -3918
▁82 -3919
▁160 -3920
▁;/ -3921
▁영지 -3922
▁출력 -3923
▁침략 -3924
▁에드워드 -3925
리히 -3926
▁균형 -3927
▁줄기 -3928
▁리처드 -3929
▁커뮤 -3930
▁원형 -3931
▁뱅 -3932
▁개신교 -3933
▁1956 -3934
▁경남 -3935
▁단편 -3936
▁조별 -3937
▁텍사스 -3938
▁다케 -3939
▁대량 -3940
▁저녁 -3941
▁72 -3942
▁76 -3943
▁랜드 -3944
▁안토 -3945
▁승객 -3946
▁그래픽 -3947
이너 -3948
▁SS -3949
▁시사 -3950
▁멀리 -3951
▁신부 -3952
▁팔리 -3953
▁여왕 -3954
▁프라이 -3955
▁승부 -3956
▁제사 -3957
▁아이돌 -3958
▁발발 -3959
▁분위기 -3960
▁무사 -3961
▁고르 -3962
ㅡㅁ -3963
▁가와 -3964
▁미야 -3965
▁권위 -3966
ie -3967
▁대선 -3968
▁안동 -3969
▁흐름 -3970
▁커뮤니 -3971
▁동명 -3972
▁이라크 -3973
▁작위 -3974
▁타자 -3975
▁재건 -3976
▁기울 -3977
▁교구 -3978
▁점수 -3979
▁프랑크 -3980
▁입력 -3981
▁데스 -3982
▁마무 -3983
▁77 -3984
▁ㄲ -3985
▁바깥 -3986
▁참고 -3987
▁비치 -3988
리노 -3989
▁복원 -3990
▁앉 -3991
▁과학자 -3992
▁테스트 -3993
▁1939 -3994
▁잠수 -3995
▁일상 -3996
▁확립 -3997
▁축구단 -3998
▁섞 -3999
▁67 -4000
▁석유 -4001
메리칸 -4002
레나 -4003
▁폭탄 -4004
▁원수 -4005
▁Th -4006
▁시상 -4007
▁침입 -4008
▁리버 -4009
▁도요 -4010
▁타워 -4011
▁포켓 -4012
▁비상 -4013
▁어깨 -4014
▁긍 -4015
▁AFC -4016
▁겹 -4017
ud -4018
▁병합 -4019
▁사자 -4020
▁복음 -4021
▁신자 -4022
▁민중 -4023
▁수익 -4024
▁한글 -4025
▁복수 -4026
ly -4027
▁일시 -4028
▁주최 -4029
▁기소 -4030
▁자식 -4031
▁부지 -4032
일스 -4033
▁시마 -4034
og -4035
▁대왕 -4036
▁재배 -4037
▁정수 -4038
▁다운 -4039
▁더블 -4040
▁브라운 -4041
▁당국 -4042
마르 -4043
▁대성 -4044
▁빅토 -4045
레옹 -4046
▁혁신 -4047
메이 -4048
▁내셔널 -4049
th -4050
▁보물 -4051
▁도모 -4052
▁85 -4053
▁가공 -4054
▁신고 -4055
▁가량 -4056
▁덜 -4057
에른 -4058
▁암호 -4059
▁지형 -4060
▁평안 -4061
ist -4062
▁동양 -4063
▁본질 -4064
▁창작 -4065
▁1954 -4066
▁나폴레옹 -4067
▁계층 -4068
▁공중 -4069
▁연예 -4070
▁끼치 -4071
▁사제 -4072
마니아 -4073
▁ㄴㅔ -4074
▁우라 -4075
▁인쇄 -4076
▁심지 -4077
▁가담 -4078
▁국기 -4079
▁훈장 -4080
▁깃 -4081
이센 -4082
▁쌀 -4083
▁산화 -4084
▁폐쇄 -4085
▁빌보드 -4086
레인 -4087
▁힌 -4088
▁파워 -4089
▁구글 -4090
▁후계 -4091
▁거듭 -4092
▁고기 -4093
▁1952 -4094
왜란 -4095
AS -4096
▁임진왜란 -4097
▁ㅁ -4098
ight -4099
▁급제 -4100
▁노출 -4101
▁참모 -4102
▁가설 -4103
▁들이 -4104
▁움직임 -4105
▁비서 -4106
▁평론 -4107
▁보살 -4108
▁력 -4109
▁탱 -4110
▁세리 -4111
아티아 -4112
▁크로아티아 -4113
▁73 -4114
▁가이 -4115
▁다소 -4116
아지 -4117
▁아테네 -4118
▁발음 -4119
▁조조 -4120
▁그렇게 -4121
▁총회 -4122
▁스타디 -4123
▁전신 -4124
조합 -4125
▁박정희 -4126
▁대지 -4127
▁바닥 -4128
▁고통 -4129
▁라스 -4130
▁오가 -4131
▁타운 -4132
▁동방 -4133
▁96 -4134
▁채우 -4135
▁후속 -4136
▁* -4137
▁람 -4138
▁뷰 -4139
느리 -4140
▁ㅇㅜ -4141
▁탈퇴 -4142
▁오카 -4143
아하 -4144
▁실력 -4145
▁81 -4146
▁뮤지컬 -4147
▁따로 -4148
필더 -4149
▁무한 -4150
▁상관 -4151
▁미드필더 -4152
▁절반 -4153
AT -4154
▁셔 -4155
▁청주 -4156
▁수도원 -4157
▁장남 -4158
▁Al -4159
▁78 -4160
▁행복 -4161
바로 -4162
▁뤼 -4163
▁개설 -4164
▁재학 -4165
▁인용 -4166
▁화이트 -4167
▁국정 -4168
▁그만 -4169
▁비례 -4170
▁전투기 -4171
시오 -4172
▁로봇 -4173
▁좋아하 -4174
▁보상 -4175
▁센트 -4176
▁중력 -4177
▁가까이 -4178
▁전남 -4179
▁젠 -4180
▁심장 -4181
▁아트 -4182
▁도덕 -4183
▁이혼 -4184
너스 -4185
▁천안 -4186
▁뮌 -4187
▁화장 -4188
▁산소 -4189
▁여섯 -4190
▁손상 -4191
▁김성 -4192
▁보르 -4193
▁하인 -4194
▁202 -4195
▁김대 -4196
▁ᆯㅈㅣ -4197
▁안드로 -4198
▁바이에른 -4199
의정 -4200
▁NH -4201
체스터 -4202
▁생물학 -4203
▁1959 -4204
▁피해자 -4205
▁빌딩 -4206
▁지향 -4207
타이 -4208
▁전직 -4209
▁177 -4210
▁레알 -4211
ess -4212
▁살리 -4213
▁지사 -4214
▁포스트 -4215
자치 -4216
▁국군 -4217
▁불만 -4218
▁붓 -4219
▁블라 -4220
▁상역 -4221
▁Li -4222
▁문신 -4223
▁백만 -4224
▁주력 -4225
▁사무소 -4226
▁윗 -4227
▁처하 -4228
▁교리 -4229
인물 -4230
▁71 -4231
▁AT -4232
▁와이 -4233
▁녀 -4234
BA -4235
토스 -4236
▁화합 -4237
▁사우스 -4238
하여 -4239
▁질환 -4240
▁황후 -4241
▁당나라 -4242
▁포스 -4243
▁콘스탄티 -4244
▁91 -4245
▁DV -4246
▁인생 -4247
▁작동 -4248
▁관여 -4249
▁피부 -4250
▁소득 -4251
▁일컫 -4252
▁패션 -4253
▁기상 -4254
세포 -4255
▁검토 -4256
▁부담 -4257
클리 -4258
▁총장 -4259
▁액션 -4260
▁마무리 -4261
▁메시지 -4262
▁승려 -4263
▁가마 -4264
▁선박 -4265
▁하원 -4266
▁호소 -4267
▁결론 -4268
직자 -4269
▁신사 -4270
▁유통 -4271
▁1942 -4272
▁사유 -4273
▁상실 -4274
가락 -4275
▁의대 -4276
▁가슴 -4277
▁약물 -4278
▁;, -4279
▁역학 -4280
스트라 -4281
▁골드 -4282
▁개방 -4283
▁혼인 -4284
▁설득 -4285
▁글로벌 -4286
▁동해 -4287
쿠스 -4288
▁아웃 -4289
▁좌상 -4290
▁오직 -4291
▁디스크 -4292
▁모바 -4293
▁위키 -4294
▁조카 -4295
▁햄 -4296
▁페이지 -4297
▁프로이센 -4298
▁내려오 -4299
▁87 -4300
▁심지어 -4301
▁그린 -4302
▁적합 -4303
▁규제 -4304
터스 -4305
미야 -4306
ub -4307
▁매체 -4308
▁수요 -4309
▁연습 -4310
▁결의 -4311
▁st -4312
▁넘어가 -4313
▁159 -4314
▁1943 -4315
▁가요 -4316
▁분노 -4317
▁진단 -4318
▁부산광역시 -4319
▁처분 -4320
▁통화 -4321
▁홋카이도 -4322
▁구매 -4323
▁김일성 -4324
▁말레이시아 -4325
▁선임 -4326
▁1955 -4327
▁원년 -4328
▁서식지 -4329
가니 -4330
IV -4331
▁이명 -4332
▁야스 -4333
▁왕비 -4334
▁위대 -4335
▁잭슨 -4336
▁심판 -4337
▁\ -4338
▁억제 -4339
▁개성 -4340
▁스타디움 -4341
▁발탁 -4342
▁지나가 -4343
IA -4344
▁쿠데 -4345
▁드래프트 -4346
▁1953 -4347
▁ㅎ -4348
▁테크 -4349
▁퀴 -4350
▁소멸 -4351
▁일기 -4352
▁주석 -4353
드리히 -4354
▁1936 -4355
▁무료 -4356
▁싱가 -4357
▁크루 -4358
▁싱가포르 -4359
▁예방 -4360
히로 -4361
ab -4362
▁왕후 -4363
▁AP -4364
▁필드 -4365
▁84 -4366
▁톨 -4367
미르 -4368
▁700 -4369
▁유형문화재 -4370
▁프랭 -4371
▁일본어 -4372
▁사격 -4373
▁사무실 -4374
▁자이언 -4375
▁티베 -4376
▁어려움 -4377
▁음악가 -4378
▁힙 -4379
▁일체 -4380
▁태조 -4381
▁긍정 -4382
▁여우 -4383
▁진영 -4384
▁프리드리히 -4385
▁이와 -4386
▁정차 -4387
▁루마니아 -4388
▁나쁘 -4389
▁모바일 -4390
▁카스 -4391
▁폭격 -4392
▁궁전 -4393
▁사도 -4394
▁인원 -4395
▁천주교 -4396
▁쿠데타 -4397
▁1910 -4398
▁타인 -4399
▁리드 -4400
데이 -4401
▁즉시 -4402
▁굳 -4403
유산 -4404
▁세자 -4405
주군 -4406
▁창당 -4407
▁대책 -4408
▁후쿠오카 -4409
▁기동 -4410
▁전북 -4411
ine -4412
▁불안 -4413
▁전동차 -4414
▁시나 -4415
▁김종 -4416
▁크로스 -4417
▁Re -4418
▁쾌 -4419
▁사라 -4420
▁디아 -4421
▁히틀러 -4422
▁조지아 -4423
▁유고 -4424
▁스티븐 -4425
버리 -4426
▁깊이 -4427
▁학사 -4428
▁개칭 -4429
▁닫 -4430
▁막대 -4431
▁에서 -4432
▁상속 -4433
▁대체로 -4434
▁딜 -4435
▁전당 -4436
▁몰리 -4437
란색 -4438
▁오이 -4439
▁강릉 -4440
▁남아프리카 -4441
구리 -4442
▁1957 -4443
▁연설 -4444
▁아메리칸 -4445
▁알고리 -4446
▁구입 -4447
▁97 -4448
▁딘 -4449
우치 -4450
▁진격 -4451
▁챔피언십 -4452
구치 -4453
올리 -4454
▁요금 -4455
▁원주민 -4456
▁본명 -4457
ew -4458
달리 -4459
독부 -4460
베르트 -4461
▁조상 -4462
▁발명 -4463
▁검색 -4464
▁휴대 -4465
▁콘텐츠 -4466
머리 -4467
▁스미스 -4468
▁타이거 -4469
▁독재 -4470
▁생태 -4471
▁1914 -4472
▁필수 -4473
▁메이지 -4474
▁흔하 -4475
▁광범 -4476
▁전송 -4477
ㄴㅑ -4478
▁늘리 -4479
▁자국 -4480
▁추방 -4481
▁수호 -4482
▁음성 -4483
▁초점 -4484
▁부동 -4485
▁69 -4486
▁동북 -4487
▁테마 -4488
▁알고리즘 -4489
▁이즈 -4490
▁세트 -4491
▁대우 -4492
미니 -4493
▁사과 -4494
▁주소 -4495
ue -4496
▁포켓몬 -4497
▁=" -4498
▁덩 -4499
시스코 -4500
▁담기 -4501
▁도마 -4502
▁토론토 -4503
▁사기 -4504
▁인디언 -4505
▁이마 -4506
▁천만 -4507
▁느낌 -4508
▁92 -4509
▁렀다 -4510
▁신장 -4511
원경 -4512
▁1900 -4513
▁급격 -4514
▁수업 -4515
▁기다리 -4516
▁알바 -4517
▁신도 -4518
▁최우 -4519
▁미리 -4520
▁코리아 -4521
▁1938 -4522
▁불가리아 -4523
▁세부 -4524
▁후임 -4525
▁업적 -4526
▁랑 -4527
▁림 -4528
▁빚 -4529
▁섹 -4530
▁핫 -4531
▁이내 -4532
▁클로 -4533
래프트 -4534
▁미술관 -4535
▁연락 -4536
다랗 -4537
▁펑 -4538
▁부위 -4539
▁석사 -4540
▁잡히 -4541
▁서술 -4542
▁완벽 -4543
▁끌어 -4544
▁똑 -4545
▁주니어 -4546
EC -4547
▁배포 -4548
지사 -4549
비히 -4550
▁101 -4551
▁상인 -4552
▁스프링 -4553
▁유효 -4554
▁해발 -4555
▁바르셀 -4556
▁바르셀로나 -4557
자키 -4558
총리 -4559
▁전술 -4560
▁언덕 -4561
▁라이프 -4562
▁화려 -4563
▁노트 -4564
▁재즈 -4565
▁HD -4566
▁고시 -4567
▁게다가 -4568
▁다스리 -4569
▁고급 -4570
▁연평 -4571
다니 -4572
▁오키 -4573
▁01 -4574
▁영양 -4575
▁립 -4576
▁선형 -4577
▁안드 -4578
▁스탈 -4579
▁라틴어 -4580
로지 -4581
▁1918 -4582
▁윙 -4583
리그 -4584
산화 -4585
▁암컷 -4586
▁DVD -4587
▁숨기 -4588
▁ㄲㅔ -4589
▁마스터 -4590
총독부 -4591
▁조선총독부 -4592
▁늑 -4593
▁소비자 -4594
▁등장인물 -4595
▁랩 -4596
▁소형 -4597
▁션 -4598
▁웰 -4599
▁각국 -4600
▁풋 -4601
▁개량 -4602
▁물건 -4603
▁1951 -4604
▁시내버스 -4605
▁마르크스 -4606
▁백인 -4607
▁상주 -4608
▁유산 -4609
▁1932 -4610
▁실천 -4611
▁일련 -4612
BM -4613
▁손실 -4614
제국 -4615
▁운항 -4616
▁화석 -4617
▁{ -4618
▁on -4619
▁저자 -4620
▁ㄷㅡㅅㅇㅣ -4621
▁고위 -4622
▁언스 -4623
▁계곡 -4624
▁내놓 -4625
▁질문 -4626
▁국적 -4627
▁메달 -4628
▁1937 -4629
▁추기 -4630
▁게르 -4631
▁사퇴 -4632
▁반사 -4633
▁블록 -4634
무늬 -4635
▁알레 -4636
▁집회 -4637
▁미시 -4638
여금 -4639
▁설치류 -4640
▁정교회 -4641
▁짝 -4642
▁미스 -4643
▁경비 -4644
가시 -4645
▁번지 -4646
▁영주 -4647
▁상수 -4648
▁주체 -4649
▁개별 -4650
▁만든 -4651
▁방언 -4652
▁선포 -4653
▁진학 -4654
▁대만 -4655
▁마틴 -4656
▁흰색 -4657
▁말리 -4658
▁용인 -4659
▁엘리자 -4660
민주당 -4661
▁감각 -4662
▁차단 -4663
▁갑자기 -4664
▁첩 -4665
▁89 -4666
▁의문 -4667
ect -4668
▁고객 -4669
▁부친 -4670
▁환승 -4671
▁광범위 -4672
▁올스타 -4673
▁우크라 -4674
▁1935 -4675
▁격파 -4676
펙트 -4677
▁분교 -4678
필드 -4679
▁둥글 -4680
▁실업 -4681
▁이웃 -4682
▁182 -4683
▁넥 -4684
▁타율 -4685
▁닥터 -4686
▁칭호 -4687
▁후계자 -4688
▁프랑스군 -4689
▁이스트 -4690
▁비행기 -4691
사전 -4692
▁재개 -4693
▁트레이드 -4694
▁크라 -4695
▁ㄱㅗㄴ -4696
▁경제학 -4697
▁사찰 -4698
▁자본주의 -4699
▁화제 -4700
바키아 -4701
▁93 -4702
▁로렌 -4703
▁찬성 -4704
▁거짓 -4705
▁뮌헨 -4706
▁중추 -4707
▁고양이 -4708
▁싱어 -4709
▁비스 -4710
▁항공사 -4711
ㅅㅜ -4712
▁Be -4713
▁베리 -4714
▁커버 -4715
▁추기경 -4716
▁면역 -4717
▁퀘 -4718
동생 -4719
▁구상 -4720
▁수치 -4721
▁당원 -4722
▁탄압 -4723
▁발간 -4724
브라 -4725
▁되돌 -4726
▁항의 -4727
▁체험 -4728
▁기부 -4729
▁겉 -4730
▁수백 -4731
▁질서 -4732
▁데리 -4733
▁파티 -4734
▁꾸준 -4735
▁클리 -4736
▁회로 -4737
▁자산 -4738
▁촉진 -4739
▁허락 -4740
▁사양 -4741
▁남녀 -4742
▁최후 -4743
▁분화 -4744
▁곡선 -4745
▁푸르 -4746
▁OS -4747
▁반지 -4748
▁성남 -4749
▁쿨 -4750
▁양산 -4751
센트 -4752
런스 -4753
▁공신 -4754
▁마루 -4755
▁이념 -4756
▁증언 -4757
▁법학 -4758
▁클래식 -4759
▁마주 -4760
▁시트 -4761
▁웃 -4762
▁FM -4763
저스 -4764
ore -4765
▁1933 -4766
▁목성 -4767
▁화폐 -4768
▁잠수함 -4769
▁소화 -4770
▁아티스트 -4771
▁94 -4772
▁시모 -4773
슈타인 -4774
▁구멍 -4775
▁영원 -4776
▁가속 -4777
▁티베트 -4778
▁개척 -4779
▁대법원 -4780
▁물고기 -4781
▁탕 -4782
▁덧붙이 -4783
▁극단 -4784
▁소위 -4785
▁습격 -4786
▁소문 -4787
IN -4788
▁보편 -4789
리우스 -4790
▁지수 -4791
다수 -4792
▁아오 -4793
▁툴 -4794
▁수십 -4795
our -4796
▁축소 -4797
▁내세우 -4798
▁1928 -4799
▁쿼 -4800
▁강남 -4801
도사 -4802
▁군부 -4803
▁소집 -4804
리나 -4805
돼지 -4806
▁CP -4807
▁펴 -4808
▁동경 -4809
▁유배 -4810
▁탄핵 -4811
▁동화 -4812
▁선호 -4813
▁원시 -4814
▁경사 -4815
▁운송 -4816
▁태종 -4817
▁팩 -4818
▁영구 -4819
▁프랑스어 -4820
ell -4821
▁1924 -4822
▁상대식 -4823
▁조항 -4824
▁콜로 -4825
▁핸 -4826
▁전적 -4827
공사 -4828
▁료 -4829
프레 -4830
▁칠레 -4831
▁누스 -4832
▁어둡 -4833
▁용도 -4834
▁시신 -4835
▁개명 -4836
▁79 -4837
▁충분히 -4838
▁대로 -4839
▁하여금 -4840
▁간부 -4841
▁약화 -4842
▁익스 -4843
▁국토 -4844
▁주일 -4845
▁지불 -4846
▁혼자 -4847
▁메트로 -4848
▁세월 -4849
▁틈 -4850
닉스 -4851
▁ㅈㅗ -4852
▁무너지 -4853
▁따오 -4854
▁정면 -4855
▁사막 -4856
▁전망 -4857
▁09 -4858
▁김해 -4859
▁이행 -4860
▁프로그래밍 -4861
▁댄스 -4862
▁걷 -4863
▁재능 -4864
▁조기 -4865
▁회색 -4866
▁그리하여 -4867
▁뼈 -4868
▁콜롬 -4869
▁멈 -4870
ㅊㅏ -4871
벤트 -4872
▁펀 -4873
른바 -4874
▁개장 -4875
▁발레 -4876
end -4877
▁110 -4878
▁대칭 -4879
들리 -4880
사이 -4881
▁입대 -4882
▁정통 -4883
▁직무 -4884
▁토대 -4885
▁의정부 -4886
▁열매 -4887
려가 -4888
▁실내 -4889
▁토마스 -4890
슬링 -4891
▁지나치 -4892
▁종사 -4893
▁존스 -4894
▁형상 -4895
▁이른바 -4896
▁토착 -4897
▁러브 -4898
▁파키스탄 -4899
티스 -4900
▁04 -4901
▁동굴 -4902
▁당신 -4903
▁액체 -4904
▁브로 -4905
▁합동 -4906
▁구름 -4907
▁쟁 -4908
ill -4909
▁오버 -4910
▁원자력 -4911
코프 -4912
▁법안 -4913
▁지중 -4914
ain -4915
▁가난 -4916
▁반하 -4917
▁ㅎㅏ -4918
▁총재 -4919
▁하와 -4920
어도 -4921
▁08 -4922
▁이재 -4923
▁플로리 -4924
▁170 -4925
▁개찰 -4926
▁진실 -4927
▁매치 -4928
베리아 -4929
▁정류 -4930
▁퓨 -4931
▁Co -4932
▁해제 -4933
▁안토니 -4934
▁수컷 -4935
▁단순히 -4936
▁세로 -4937
▁뻗 -4938
▁틴 -4939
▁고교 -4940
▁대승 -4941
▁초상 -4942
▁손해 -4943
▁재생 -4944
▁흔적 -4945
▁베네치아 -4946
▁무용 -4947
▁스카이 -4948
▁자랑 -4949
▁유아 -4950
▁판정 -4951
ㅋㅡㅁ -4952
▁우에 -4953
▁자르 -4954
▁프로토 -4955
ID -4956
▁당대 -4957
과이 -4958
ers -4959
▁룸 -4960
▁경북 -4961
▁멀티 -4962
▁부리 -4963
▁부속 -4964
▁83 -4965
테스 -4966
▁안티 -4967
▁스톤 -4968
▁다큐 -4969
▁안쪽 -4970
▁오케 -4971
▁힙합 -4972
▁장로 -4973
▁주문 -4974
▁엄격 -4975
페이스 -4976
▁오류 -4977
▁지표 -4978
▁서방 -4979
▁경고 -4980
▁전제 -4981
▁사이드 -4982
▁무력 -4983
▁벼슬 -4984
▁부서 -4985
데르 -4986
▁메탈 -4987
▁강도 -4988
ard -4989
▁경찰서 -4990
▁함경 -4991
▁페리 -4992
▁비잔 -4993
▁국방부 -4994
고속 -4995
▁평면 -4996
▁스크린 -4997
▁늑대 -4998
▁할아버지 -4999
▁주재 -5000
▁아프가니 -5001
▁배열 -5002
▁분산 -5003
▁불러 -5004
어로 -5005
▁혈액 -5006
▁호흡 -5007
▁레닌 -5008
▁선로 -5009
▁쌓이 -5010
▁한성 -5011
조선 -5012
▁인민군 -5013
▁1934 -5014
▁맡기 -5015
▁중동 -5016
▁MS -5017
▁성서 -5018
▁편의 -5019
▁닐 -5020
▁대가 -5021
▁마감 -5022
▁일단 -5023
▁요코하마 -5024
즈니 -5025
▁메르 -5026
▁이벤트 -5027
▁동지 -5028
▁포드 -5029
▁대사관 -5030
▁거스 -5031
▁ㅁㅏㄴㅋㅡㅁ -5032
▁빵 -5033
▁농장 -5034
▁대원 -5035
▁양국 -5036
▁ㄹㅣㅇ -5037
AN -5038
▁철거 -5039
▁De -5040
▁판타 -5041
▁히어로 -5042
▁중지 -5043
▁구사 -5044
▁보스턴 -5045
▁입구 -5046
▁자매 -5047
▁추적 -5048
▁놀이 -5049
▁탓 -5050
▁근육 -5051
▁스케이 -5052
유키 -5053
키퍼 -5054
▁강요 -5055
▁찾아가 -5056
▁골키퍼 -5057
▁장례 -5058
▁주자 -5059
▁광산 -5060
세대 -5061
아르 -5062
야스 -5063
▁북미 -5064
▁동구 -5065
▁느리 -5066
▁노동당 -5067
▁유키 -5068
▁Me -5069
▁거느리 -5070
사르 -5071
▁대동 -5072
▁130 -5073
▁동메달 -5074
▁토머스 -5075
▁본토 -5076
▁뱀 -5077
▁현존 -5078
▁떼 -5079
▁봉기 -5080
▁쿠바 -5081
▁은메달 -5082
제르 -5083
▁투스 -5084
▁카리 -5085
▁거점 -5086
▁글리 -5087
▁가볍 -5088
레오 -5089
▁코어 -5090
▁정확히 -5091
▁밸 -5092
▁남극 -5093
▁멈추 -5094
▁아프가니스탄 -5095
▁젤 -5096
베르크 -5097
▁140 -5098
▁사카 -5099
공업 -5100
▁로즈 -5101
▁접속 -5102
▁나이트 -5103
▁정조 -5104
▁항해 -5105
워하 -5106
▁사망자 -5107
▁도쿠가와 -5108
ne -5109
드라 -5110
하이 -5111
▁레지 -5112
▁복사 -5113
▁부처 -5114
▁테르 -5115
▁스탈린 -5116
▁선물 -5117
▁새끼 -5118
▁중계 -5119
▁알렉산더 -5120
▁철학자 -5121
▁필립 -5122
▁Sh -5123
▁김구 -5124
▁내려가 -5125
▁시계 -5126
▁식량 -5127
▁돔 -5128
▁칼리지 -5129
레아 -5130
▁발전소 -5131
▁매주 -5132
▁초청 -5133
▁야당 -5134
▁재판소 -5135
▁페이스 -5136
돌프 -5137
위대 -5138
안군 -5139
▁중성 -5140
보내 -5141
▁농촌 -5142
▁안내 -5143
▁화합물 -5144
▁맨체스터 -5145
OR -5146
성기 -5147
▁곤충 -5148
▁th -5149
▁건너가 -5150
▁대다수 -5151
▁로맨 -5152
▁특별히 -5153
▁구로 -5154
▁1931 -5155
크래프트 -5156
▁관계자 -5157
▁훼 -5158
▁모자 -5159
▁새벽 -5160
▁구리 -5161
▁위안 -5162
▁독점 -5163
▁부호 -5164
▁아비 -5165
▁토너 -5166
▁체육관 -5167
▁강등 -5168
▁재임 -5169
므로 -5170
▁간격 -5171
▁세금 -5172
▁펄 -5173
▁존슨 -5174
▁교향곡 -5175
▁겸하 -5176
▁생애 -5177
▁유력 -5178
▁타카 -5179
▁증권 -5180
▁금강 -5181
▁오염 -5182
▁멸종 -5183
▁그리스어 -5184
▁휘하 -5185
베리 -5186
▁역전 -5187
▁파울 -5188
▁르네 -5189
▁일곱 -5190
▁이정 -5191
▁cod -5192
▁부드 -5193
▁클래스 -5194
▁히로시마 -5195
▁목포 -5196
▁계수 -5197
▁풍속 -5198
▁모노 -5199
▁진동 -5200
▁ㄷㅜ -5201
▁커다랗 -5202
게이 -5203
all -5204
▁기병 -5205
▁명시 -5206
▁달라지 -5207
▁종전 -5208
▁코너 -5209
▁타원 -5210
▁물리치 -5211
▁그러므로 -5212
▁뚜렷 -5213
▁버지 -5214
▁ST -5215
▁기르 -5216
▁부품 -5217
▁미카 -5218
▁An -5219
▁비중 -5220
▁석방 -5221
▁자유주의 -5222
▁킬로 -5223
▁해협 -5224
AM -5225
ㄹㅏㄴ -5226
▁꾼 -5227
▁하사 -5228
▁아이스 -5229
▁좌파 -5230
▁그래프 -5231
나르 -5232
▁무늬 -5233
레이크 -5234
▁감옥 -5235
▁훌륭 -5236
▁관객 -5237
밀리 -5238
▁하버 -5239
▁원조 -5240
▁타점 -5241
▁공룡 -5242
▁기생 -5243
▁장점 -5244
▁1921 -5245
▁250 -5246
▁교도 -5247
▁지칭 -5248
▁숙종 -5249
▁코트 -5250
▁176 -5251
▁찾아오 -5252
▁대변 -5253
▁연호 -5254
▁심리학 -5255
▁1929 -5256
▁수비수 -5257
널드 -5258
느님 -5259
▁캠프 -5260
▁마그 -5261
ang -5262
▁가구 -5263
▁유발 -5264
▁특허 -5265
▁도망치 -5266
▁하느님 -5267
▁필라 -5268
수량 -5269
▁조문 -5270
▁합리 -5271
▁지휘관 -5272
▁닮 -5273
▁동성애 -5274
둥이 -5275
▁비즈 -5276
▁부드럽 -5277
▁박근 -5278
▁스트라이 -5279
▁유대인 -5280
▁토너먼트 -5281
▁아틀 -5282
▁운동가 -5283
▁윤리 -5284
▁강전 -5285
▁소요 -5286
▁도메 -5287
▁사관 -5288
▁후퇴 -5289
▁y -5290
▁스테이션 -5291
▁빗 -5292
▁단장 -5293
▁성명 -5294
▁집필 -5295
▁05 -5296
▁폭풍 -5297
▁칙 -5298
▁일환 -5299
▁착용 -5300
▁키스 -5301
▁무겁 -5302
▁트랜스 -5303
▁갤럭 -5304
▁수반 -5305
▁올라오 -5306
▁캡 -5307
▁라트 -5308
▁기갑 -5309
▁목숨 -5310
▁비틀 -5311
▁대결 -5312
▁자이언츠 -5313
▁부작 -5314
▁1925 -5315
투아 -5316
▁덕분 -5317
▁문재 -5318
▁연평균 -5319
시스트 -5320
▁1923 -5321
▁인터페이스 -5322
▁다다 -5323
▁공세 -5324
ss -5325
▁동반 -5326
▁연상 -5327
▁첫째 -5328
▁쯤 -5329
▁극복 -5330
▁입사 -5331
슬리 -5332
▁건담 -5333
▁갤럭시 -5334
미아 -5335
▁공국 -5336
▁도호 -5337
▁마라 -5338
▁지부 -5339
▁고고 -5340
▁과일 -5341
▁살아 -5342
산물 -5343
▁삼각 -5344
▁플로리다 -5345
▁첸 -5346
▁추대 -5347
▁평론가 -5348
▁잠재 -5349
▁조화 -5350
▁약탈 -5351
▁롬 -5352
▁북아메리카 -5353
무게 -5354
▁몸무게 -5355
▁압축 -5356
▁협약 -5357
▁AC -5358
▁틱 -5359
▁ㅋㅜ -5360
▁가끔 -5361
▁07 -5362
▁매니 -5363
마이 -5364
타카 -5365
▁샤를 -5366
▁김대중 -5367
▁연계 -5368
▁요원 -5369
▁장갑 -5370
▁발렌 -5371
▁북서쪽 -5372
ity -5373
▁섬유 -5374
베이스 -5375
▁관리자 -5376
▁단선 -5377
▁유비 -5378
▁대한제국 -5379
▁불화 -5380
▁원장 -5381
▁추락 -5382
▁시게 -5383
▁남아메리카 -5384
▁딱 -5385
▁얀 -5386
▁성직자 -5387
▁캘리포니아주 -5388
▁의석 -5389
▁이수 -5390
클린 -5391
▁램 -5392
▁사당 -5393
▁미분 -5394
▁웨일스 -5395
▁며 -5396
카스 -5397
▁우드 -5398
대문 -5399
▁유성 -5400
▁임신 -5401
▁영감 -5402
▁ㅇㅛ -5403
▁트레이 -5404
추어 -5405
▁중립 -5406
▁페루 -5407
▁하와이 -5408
▁ㅅㅠ -5409
키스 -5410
▁선교사 -5411
▁북극 -5412
▁SC -5413
▁갱 -5414
페인 -5415
▁진흥 -5416
▁리스트 -5417
▁박스 -5418
▁살아남 -5419
▁발휘 -5420
▁필름 -5421
▁161 -5422
▁모로 -5423
▁종로 -5424
▁근로 -5425
▁향토 -5426
▁다이묘 -5427
▁모험 -5428
▁주사 -5429
▁고분 -5430
▁서인 -5431
▁사거리 -5432
▁민속 -5433
▁수직 -5434
▁타입 -5435
▁기관차 -5436
▁동인 -5437
▁삭제 -5438
▁꼽히 -5439
▁똑같 -5440
▁영광 -5441
▁도마뱀 -5442
▁영혼 -5443
▁codice -5444
▁일자 -5445
▁준우 -5446
▁진술 -5447
▁그랜드 -5448
▁망원경 -5449
▁카자 -5450
▁빅토리아 -5451
ff -5452
▁프로세서 -5453
▁레벨 -5454
▁모음 -5455
▁삼각형 -5456
행성 -5457
▁복구 -5458
▁EP -5459
즈키 -5460
▁청동 -5461
▁1922 -5462
▁문인 -5463
▁성씨 -5464
▁유가 -5465
▁파운드 -5466
▁엽 -5467
ㅅㅣ -5468
▁곰 -5469
▁명사 -5470
▁칼리 -5471
▁175 -5472
▁홀로 -5473
▁화가 -5474
▁윤치 -5475
▁결심 -5476
▁수장 -5477
▁압도 -5478
▁청하 -5479
▁de -5480
▁제약 -5481
▁돌파 -5482
▁변신 -5483
▁채권 -5484
▁버지니아 -5485
일본 -5486
▁레이블 -5487
▁박근혜 -5488
▁지역구 -5489
▁루트비히 -5490
▁주류 -5491
▁틸 -5492
▁중구 -5493
▁무릎 -5494
▁중시 -5495
▁평생 -5496
애나 -5497
오리 -5498
▁바오 -5499
▁서적 -5500
▁규슈 -5501
▁인천광역시 -5502
▁교과 -5503
▁이조 -5504
▁투구 -5505
▁프레임 -5506
▁엘리자베스 -5507
▁피트 -5508
▁My -5509
▁모래 -5510
▁공격수 -5511
▁1912 -5512
▁가톨릭교회 -5513
▁유역 -5514
▁교차로 -5515
▁고안 -5516
▁부유 -5517
▁아과 -5518
▁표지 -5519
▁때로 -5520
▁부탁 -5521
▁여인 -5522
▁직선 -5523
▁황태 -5524
▁자치구 -5525
▁둔 -5526
프란 -5527
▁리치 -5528
▁최상 -5529
▁설비 -5530
▁없애 -5531
▁트럼 -5532
▁부수 -5533
▁지연 -5534
▁각자 -5535
▁유용 -5536
▁글씨 -5537
▁왕가 -5538
▁수상자 -5539
▁철저 -5540
▁토벌 -5541
▁이날 -5542
▁164 -5543
양군 -5544
눅스 -5545
▁문법 -5546
▁음모 -5547
▁직위 -5548
메니아 -5549
▁KT -5550
▁구미 -5551
▁동일본 -5552
▁포유 -5553
▁사토 -5554
▁파트너 -5555
▁네이션 -5556
▁아기 -5557
▁왈 -5558
▁벨라 -5559
▁국민당 -5560
▁Go -5561
▁리눅스 -5562
▁Love -5563
니즘 -5564
▁무산 -5565
▁블라디 -5566
멘트 -5567
▁소설가 -5568
ong -5569
▁"" -5570
▁1908 -5571
부사 -5572
▁봉사 -5573
▁크레 -5574
▁목조 -5575
라이터 -5576
타운 -5577
▁모니 -5578
▁퍼시 -5579
야수 -5580
▁아르메니아 -5581
▁무인 -5582
▁영조 -5583
▁보통학교 -5584
up -5585
▁1906 -5586
▁랭킹 -5587
보살 -5588
▁06 -5589
▁경유 -5590
▁납치 -5591
▁돼지 -5592
▁건축물 -5593
ㅈㅓ -5594
▁인력 -5595
▁베타 -5596
▁도어 -5597
▁자책 -5598
▁장사 -5599
▁토르 -5600
▁간섭 -5601
▁아마추어 -5602
▁지중해 -5603
▁마카 -5604
▁사촌 -5605
▁어워드 -5606
▁노비 -5607
▁남동쪽 -5608
▁릭 -5609
▁노무 -5610
멘터리 -5611
▁패턴 -5612
▁히가시 -5613
▁MV -5614
▁스케이팅 -5615
▁연령 -5616
▁침해 -5617
▁태자 -5618
▁다양체 -5619
▁연소 -5620
▁1917 -5621
ip -5622
▁플레 -5623
사관 -5624
▁크림 -5625
슬로 -5626
아리 -5627
▁JR -5628
▁상처 -5629
▁준우승 -5630
▁전향 -5631
▁이종 -5632
▁정자 -5633
▁1927 -5634
도니아 -5635
▁SM -5636
▁모듈 -5637
IS -5638
ld -5639
▁삽입 -5640
▁교역 -5641
▁제주도 -5642
▁통로 -5643
▁호조 -5644
▁이토 -5645
▁적응 -5646
▁과도 -5647
▁앨런 -5648
▁커피 -5649
▁03 -5650
태우 -5651
▁안양 -5652
▁북동쪽 -5653
마치 -5654
▁매각 -5655
▁명문 -5656
▁배상 -5657
▁적어도 -5658
▁탐험 -5659
▁배급 -5660
▁우익 -5661
다드 -5662
▁베토 -5663
▁호르 -5664
▁굿 -5665
ant -5666
▁조명 -5667
▁창간 -5668
▁럭 -5669
▁1907 -5670
▁우크라이나 -5671
▁대행 -5672
▁BBC -5673
▁전승 -5674
▁보좌 -5675
▁석조 -5676
▁시상식 -5677
영상 -5678
▁라우 -5679
▁시아 -5680
OM -5681
▁수지 -5682
▁스와 -5683
▁인자 -5684
▁에스파 -5685
▁과장 -5686
▁육성 -5687
▁1926 -5688
▁외계 -5689
▁다큐멘터리 -5690
▁산악 -5691
▁전작 -5692
▁흙 -5693
▁항목 -5694
스팅 -5695
▁몬테 -5696
▁옵 -5697
▁산타 -5698
▁밀라노 -5699
▁싫 -5700
▁앱 -5701
▁리아 -5702
▁유인 -5703
▁정서 -5704
ED -5705
▁옹호 -5706
▁대교 -5707
▁협의회 -5708
▁노인 -5709
▁쇠퇴 -5710
▁시집 -5711
▁폐기 -5712
▁상하이 -5713
▁SN -5714
▁문하 -5715
▁의병 -5716
▁표본 -5717
▁송라이터 -5718
▁출현 -5719
▁체인 -5720
av -5721
생물 -5722
▁슐 -5723
▁왕립 -5724
▁별로 -5725
▁자문 -5726
스토 -5727
▁색상 -5728
▁부동산 -5729
▁자전거 -5730
몬드 -5731
이즈 -5732
▁단행 -5733
▁168 -5734
▁탑승 -5735
▁포크 -5736
▁He -5737
▁세조 -5738
▁지름 -5739
페이지 -5740
▁동아시아 -5741
▁종족 -5742
▁해설 -5743
▁묘지 -5744
▁디즈니 -5745
▁험 -5746
▁비전 -5747
▁사신 -5748
▁무선 -5749
▁커지 -5750
▁호남 -5751
다이라 -5752
▁연고지 -5753
ind -5754
런트 -5755
▁수감 -5756
슬라 -5757
▁PD -5758
▁패러 -5759
▁NHK -5760
▁머물 -5761
▁스틸 -5762
로프 -5763
▁관중 -5764
▁상영 -5765
▁유입 -5766
▁렉 -5767
티움 -5768
▁1905 -5769
se -5770
▁내장 -5771
▁동사 -5772
텐도 -5773
▁닌텐도 -5774
▁꺼 -5775
▁|| -5776
▁기종 -5777
▁시에 -5778
▁아가 -5779
▁콩고 -5780
▁오리지 -5781
▁노조 -5782
▁하천 -5783
▁166 -5784
▁레이다 -5785
▁꾸미 -5786
▁산지 -5787
▁사료 -5788
▁합계 -5789
튜브 -5790
ame -5791
▁162 -5792
▁제후 -5793
▁최우수 -5794
▁문화유산 -5795
▁홈페이지 -5796
AC -5797
세스 -5798
▁정사 -5799
▁독일어 -5800
▁룩 -5801
▁기름 -5802
▁기하학 -5803
▁민족주의 -5804
▁버그 -5805
▁151 -5806
총장 -5807
▁좌익 -5808
▁엄마 -5809
▁베토벤 -5810
▁물려 -5811
▁시외 -5812
▁놀라 -5813
▁진지 -5814
▁유튜브 -5815
▁다가 -5816
▁묻히 -5817
▁에릭 -5818
▁Sp -5819
▁선제 -5820
▁유신 -5821
▁데이터베이스 -5822
▁비평가 -5823
▁아무런 -5824
▁역과 -5825
▁헤드 -5826
브스 -5827
▁꾸준히 -5828
▁참조 -5829
▁가쓰 -5830
▁예외 -5831
ry -5832
▁아울 -5833
무네 -5834
▁연금 -5835
▁원로 -5836
▁카페 -5837
▁급속 -5838
▁조선인 -5839
나카 -5840
▁사이클 -5841
▁정류장 -5842
▁158 -5843
▁비단 -5844
▁주말 -5845
ES -5846
▁수명 -5847
▁스승 -5848
▁겨우 -5849
▁드래곤 -5850
▁지바 -5851
려나 -5852
▁트럭 -5853
▁엉 -5854
▁대조 -5855
▁증기 -5856
▁품질 -5857
▁크리스토 -5858
▁색깔 -5859
플레이 -5860
ith -5861
어트 -5862
▁모집 -5863
▁우르 -5864
지마 -5865
▁아크 -5866
▁목격 -5867
▁안보 -5868
▁칩 -5869
▁광역 -5870
▁상소 -5871
▁스페셜 -5872
▁커뮤니티 -5873
▁원산 -5874
스케 -5875
▁수천 -5876
▁요미 -5877
▁자바 -5878
▁02 -5879
▁도리 -5880
ort -5881
▁문과 -5882
▁주거 -5883
엘라 -5884
▁리얼 -5885
▁주파 -5886
▁선진 -5887
▁남서쪽 -5888
▁마일 -5889
▁리듬 -5890
▁곧바로 -5891
▁셋째 -5892
▁바이올 -5893
▁야생 -5894
▁할리 -5895
스티벌 -5896
▁바라보 -5897
▁플루 -5898
▁라이온 -5899
▁주의자 -5900
▁향년 -5901
▁유고슬 -5902
▁유고슬라비아 -5903
▁뚫 -5904
▁반환 -5905
▁수수 -5906
▁옛날 -5907
▁나폴리 -5908
▁라이벌 -5909
ok -5910
▁흥미 -5911
▁레이스 -5912
▁라마 -5913
▁특급 -5914
▁페스티벌 -5915
▁가미 -5916
▁대안 -5917
▁점성 -5918
▁실점 -5919
▁입문 -5920
▁조르 -5921
▁사리 -5922
▁베이스볼 -5923
▁동치 -5924
▁인텔 -5925
▁유닛 -5926
프란시스코 -5927
▁신비 -5928
▁기점 -5929
▁구마 -5930
▁무관 -5931
▁악장 -5932
▁샌프란시스코 -5933
▁도심 -5934
▁기념물 -5935
▁단층 -5936
▁재무 -5937
▁토니 -5938
▁소니 -5939
▁협의 -5940
잡히 -5941
▁스피드 -5942
▁방안 -5943
▁쿠르 -5944
▁빨리 -5945
▁운명 -5946
▁운반 -5947
▁디자이너 -5948
▁와카 -5949
▁주한 -5950
▁콜롬비아 -5951
▁서북 -5952
▁동영상 -5953
해군 -5954
▁기압 -5955
▁사직 -5956
▁오리지널 -5957
프스 -5958
▁마스 -5959
▁묘소 -5960
▁미네 -5961
▁부시 -5962
▁브라이언 -5963
▁렌즈 -5964
▁이리 -5965
▁적색 -5966
▁1904 -5967
▁안드로이드 -5968
▁석탑 -5969
▁되찾 -5970
▁이오 -5971
▁오디션 -5972
▁기용 -5973
▁입증 -5974
▁모터 -5975
▁미만 -5976
▁프랜 -5977
▁출판사 -5978
▁일행 -5979
▁마케도니아 -5980
▁십자군 -5981
▁케이블 -5982
ㅓㄴ -5983
▁연주자 -5984
▁알라 -5985
▁출산 -5986
▁진도 -5987
▁지휘자 -5988
▁직장 -5989
▁복제 -5990
▁인치 -5991
▁Un -5992
▁한나라 -5993
▁서경 -5994
▁마쓰다이라 -5995
▁개수 -5996
▁관장 -5997
▁저지르 -5998
▁한나라당 -5999
쳐지 -6000
▁왕족 -6001
회의 -6002
▁교전 -6003
▁급행 -6004
▁평소 -6005
▁정교 -6006
▁챌 -6007
▁배제 -6008
▁분배 -6009
▁상무 -6010
▁신임 -6011
▁템 -6012
▁날리 -6013
▁파생 -6014
리케이션 -6015
▁의거 -6016
▁예술가 -6017
▁판타지 -6018
▁165 -6019
▁초래 -6020
▁부패 -6021
▁154 -6022
루살 -6023
▁동전 -6024
▁자사 -6025
▁센트럴 -6026
▁비즈니스 -6027
프라 -6028
ord -6029
▁계단 -6030
▁내륙 -6031
▁무신 -6032
▁아서 -6033
▁용기 -6034
▁긴급 -6035
▁예언 -6036
루살렘 -6037
▁기재 -6038
▁파나 -6039
ob -6040
▁받침 -6041
▁오타 -6042
▁스테이지 -6043
▁사로 -6044
▁수면 -6045
▁폭스 -6046
▁Se -6047
▁합작 -6048
▁Wh -6049
qu -6050
▁좌석 -6051
▁콘스탄티노 -6052
▁도메인 -6053
▁163 -6054
▁트레 -6055
▁당사자 -6056
▁가게 -6057
▁사르 -6058
▁권고 -6059
▁모순 -6060
▁여동생 -6061
문학 -6062
▁156 -6063
▁단종 -6064
▁신하 -6065
모니 -6066
▁스펙트 -6067
▁입히 -6068
우옌 -6069
▁SF -6070
▁사범 -6071
▁신용 -6072
디스 -6073
▁용산 -6074
▁링크 -6075
가스 -6076
▁항일 -6077
▁167 -6078
▁리투아 -6079
▁리투아니아 -6080
ate -6081
▁연애 -6082
▁겹치 -6083
▁무슬 -6084
▁사면 -6085
▁스쿨 -6086
▁그랑 -6087
▁호환 -6088
▁스펙트럼 -6089
▁타마 -6090
▁DJ -6091
▁크리스티 -6092
▁진상 -6093
▁예루살렘 -6094
PS -6095
▁상임 -6096
▁900 -6097
▁여신 -6098
▁무슬림 -6099
교육 -6100
▁충남 -6101
▁스마트폰 -6102
▁회원국 -6103
▁어항 -6104
카르 -6105
▁아인 -6106
▁끼리 -6107
▁압박 -6108
▁정계 -6109
경기 -6110
▁챌린 -6111
▁혜성 -6112
▁분지 -6113
▁조류 -6114
▁한양 -6115
▁자회사 -6116
껍질 -6117
▁가득 -6118
페이 -6119
▁AM -6120
▁니스 -6121
려오 -6122
▁선사 -6123
▁장편 -6124
▁착륙 -6125
▁미얀 -6126
▁발효 -6127
▁샹 -6128
▁밀접 -6129
▁바이올린 -6130
▁번식 -6131
▁무라 -6132
IC -6133
길이 -6134
▁이지 -6135
▁지주 -6136
지르 -6137
▁WW -6138
▁주립 -6139
▁게시 -6140
▁비로 -6141
▁훼손 -6142
▁시달리 -6143
▁바그 -6144
▁일요일 -6145
▁오다 -6146
▁전염 -6147
▁조국 -6148
▁피렌 -6149
▁지장 -6150
▁교섭 -6151
▁깔 -6152
▁애국 -6153
식물 -6154
커스 -6155
▁고립 -6156
▁우지 -6157
▁친정 -6158
▁서울시 -6159
▁씌 -6160
▁서브 -6161
▁얼음 -6162
▁팅 -6163
▁포맷 -6164
킨스 -6165
▁UN -6166
▁농도 -6167
▁비잔티움 -6168
▁대단 -6169
▁피스 -6170
럼비아 -6171
▁139 -6172
▁진나라 -6173
▁식사 -6174
▁예능 -6175
▁요크 -6176
▁오케스트라 -6177
▁옌 -6178
랑이 -6179
잡이 -6180
▁AS -6181
▁낱 -6182
▁우루 -6183
▁대령 -6184
▁유하 -6185
▁최신 -6186
▁하트 -6187
▁노무현 -6188
예프 -6189
▁ᆯㅅㅜ -6190
▁쇼군 -6191
▁ㅇㅓㅆㅇㅓㅆ -6192
▁끄 -6193
▁아베 -6194
▁행정부 -6195
▁브라우 -6196
▁하드웨어 -6197
▁구장 -6198
▁성종 -6199
ET -6200
▁개발자 -6201
▁아이디 -6202
부인 -6203
▁차관 -6204
▁145 -6205
▁킬로미터 -6206
▁용량 -6207
ast -6208
▁융합 -6209
▁과제 -6210
▁기아 -6211
▁시체 -6212
▁월간 -6213
▁지질 -6214
▁알바니아 -6215
▁번주 -6216
▁주머니 -6217
▁기타리스트 -6218
▁뜨겁 -6219
▁바티 -6220
▁발족 -6221
▁쿠스 -6222
▁마리오 -6223
▁강연 -6224
▁참판 -6225
▁이명박 -6226
DP -6227
▁전이 -6228
▁미나미 -6229
▁스트리트 -6230
▁와중 -6231
▁학파 -6232
▁몸길이 -6233
▁파동 -6234
▁부통령 -6235
▁선두 -6236
▁디비전 -6237
▁임상 -6238
▁응우옌 -6239
▁공과 -6240
▁부자 -6241
▁소나 -6242
▁페어 -6243
▁관광객 -6244
▁피렌체 -6245
▁투명 -6246
▁중국어 -6247
로디 -6248
수아 -6249
▁부흥 -6250
▁해인 -6251
▁아세 -6252
데이트 -6253
▁위주 -6254
▁성공회 -6255
▁사사 -6256
▁야기 -6257
▁보전 -6258
▁관찰사 -6259
▁1896 -6260
▁업데이트 -6261
레이터 -6262
if -6263
▁규명 -6264
랑크 -6265
▁부도 -6266
▁전임 -6267
▁전지 -6268
▁MVP -6269
▁잊 -6270
▁DS -6271
▁사바 -6272
▁정벌 -6273
▁김동 -6274
▁배정 -6275
▁피에르 -6276
▁아이디어 -6277
▁충성 -6278
ack -6279
▁착수 -6280
▁거스르 -6281
▁넬 -6282
ive -6283
▁공용 -6284
▁저기 -6285
▁전류 -6286
▁마케팅 -6287
▁마산 -6288
▁스콧 -6289
▁하노 -6290
▁간접 -6291
ure -6292
트니 -6293
▁고조 -6294
▁공전 -6295
▁디오 -6296
▁측근 -6297
▁IP -6298
▁HIV -6299
▁귀환 -6300
▁권유 -6301
▁굉 -6302
▁여덟 -6303
▁제네 -6304
▁보드 -6305
▁이에 -6306
▁중독 -6307
▁완화 -6308
▁중도 -6309
IT -6310
▁로빈 -6311
▁맥스 -6312
▁친선 -6313
▁수학자 -6314
▁스타크래프트 -6315
▁애플리케이션 -6316
▁거인 -6317
▁짙 -6318
▁게이트 -6319
란트 -6320
▁점유 -6321
▁젖 -6322
▁둘러싸이 -6323
▁출구 -6324
▁히라 -6325
균관 -6326
▁샬 -6327
▁성벽 -6328
▁연수 -6329
▁차체 -6330
▁턴 -6331
어내 -6332
▁옐 -6333
트롤 -6334
▁경선 -6335
▁마운 -6336
▁152 -6337
▁우즈 -6338
▁174 -6339
iv -6340
▁형법 -6341
리티 -6342
악기 -6343
운서 -6344
ock -6345
▁관습 -6346
▁수산 -6347
▁오렌 -6348
▁제의 -6349
▁서일본 -6350
▁소송법 -6351
▁시드니 -6352
▁테일러 -6353
▁미하 -6354
▁5000 -6355
▁메디 -6356
▁트윈 -6357
▁노동조합 -6358
▁요미우리 -6359
▁서열 -6360
▁지각 -6361
▁아나운서 -6362
▁쇼핑 -6363
주곡 -6364
토미 -6365
▁세례 -6366
루미 -6367
▁플라스 -6368
▁피난 -6369
▁살아가 -6370
▁정찰 -6371
▁조용 -6372
▁157 -6373
▁밀양 -6374
▁련 -6375
▁규격 -6376
▁금성 -6377
▁존경 -6378
ck -6379
▁으 -6380
결승 -6381
▁구동 -6382
▁사인 -6383
▁석탄 -6384
▁사명 -6385
▁꼴 -6386
▁변동 -6387
▁장성 -6388
▁번뇌 -6389
▁전장 -6390
▁Ar -6391
▁행진 -6392
▁검증 -6393
▁실용 -6394
▁좌표 -6395
▁전문학교 -6396
▁하버드 -6397
▁프로세스 -6398
▁루수 -6399
▁수신 -6400
▁한강 -6401
▁한화 -6402
▁준공 -6403
▁곁 -6404
▁뱅크 -6405
▁뷔 -6406
▁신칸 -6407
▁백신 -6408
▁복소 -6409
▁전진 -6410
▁빌헬 -6411
▁청와 -6412
▁카나 -6413
▁테오 -6414
▁책봉 -6415
원숭이 -6416
▁킨 -6417
가루 -6418
▁염색 -6419
문관 -6420
츠키 -6421
▁고개 -6422
▁관현 -6423
▁미스터 -6424
사기 -6425
▁장인 -6426
폴리스 -6427
▁이슈 -6428
외선 -6429
▁가즈 -6430
▁급진 -6431
▁인과 -6432
▁취약 -6433
▁다이아 -6434
▁얼마나 -6435
▁청와대 -6436
▁신전 -6437
▁기울이 -6438
▁여의 -6439
▁j -6440
▁국어 -6441
▁디젤 -6442
▁호평 -6443
▁힘쓰 -6444
포스 -6445
▁구제 -6446
▁메가 -6447
▁자율 -6448
▁성균관 -6449
전자 -6450
▁자손 -6451
니스트 -6452
산군 -6453
카드 -6454
▁퇴각 -6455
▁할당 -6456
▁카시 -6457
끄럽 -6458
▁MP -6459
자와 -6460
▁상상 -6461
▁연구자 -6462
▁소총 -6463
악단 -6464
하르트 -6465
▁뿔 -6466
▁식당 -6467
▁연루 -6468
▁회수 -6469
▁제휴 -6470
▁통행 -6471
▁105 -6472
▁이순 -6473
▁적대 -6474
▁판매량 -6475
▁박영 -6476
▁파스 -6477
▁해전 -6478
▁146 -6479
▁소금 -6480
▁쥬 -6481
트랙 -6482
▁무효 -6483
▁승차 -6484
▁해임 -6485
▁아울러 -6486
▁몰락 -6487
수수 -6488
▁남양 -6489
▁1911 -6490
▁관념 -6491
▁남인 -6492
▁상류 -6493
▁히스 -6494
▁125 -6495
12 -6496
▁따위 -6497
▁여수 -6498
▁1500 -6499
혁명 -6500
▁흥행 -6501
▁전두 -6502
▁착공 -6503
▁강사 -6504
▁김용 -6505
▁이노 -6506
▁루터 -6507
▁쏟 -6508
ime -6509
▁서독 -6510
▁창업 -6511
▁신칸센 -6512
▁비극 -6513
▁적히 -6514
▁천문학 -6515
▁외무 -6516
▁윌슨 -6517
▁응답 -6518
▁패전 -6519
▁이복 -6520
▁자책점 -6521
▁지분 -6522
고속도로 -6523
▁쳐 -6524
▁마찰 -6525
▁달아나 -6526
▁두르 -6527
▁3000 -6528
▁나열 -6529
▁여래 -6530
▁유출 -6531
▁프로토콜 -6532
▁민국 -6533
▁소관 -6534
▁술탄 -6535
▁에티 -6536
▁동남아시아 -6537
▁흩 -6538
▁153 -6539
▁두드 -6540
▁휩 -6541
▁노드 -6542
▁소닉 -6543
메르 -6544
▁나미 -6545
▁석가 -6546
▁쇄 -6547
▁들리 -6548
▁원나라 -6549
▁하마 -6550
▁저기압 -6551
▁매출 -6552
▁문제점 -6553
▁끈 -6554
▁PS -6555
▁디비 -6556
▁순천 -6557
▁항공모 -6558
▁얇 -6559
▁고원 -6560
▁마오 -6561
▁사지 -6562
▁청사 -6563
▁갈라지 -6564
▁소재지 -6565
▁시외버스 -6566
일드 -6567
one -6568
▁악마 -6569
▁카트 -6570
▁우정 -6571
▁저택 -6572
▁충족 -6573
라트 -6574
▁과목 -6575
제프 -6576
▁곳곳 -6577
▁믿음 -6578
▁강수량 -6579
▁Le -6580
▁로고 -6581
▁단원 -6582
▁마천 -6583
▁이이 -6584
▁일렉 -6585
서양 -6586
▁성전 -6587
▁증후 -6588
팩트 -6589
▁동위 -6590
▁매개 -6591
▁조언 -6592
▁희극 -6593
▁서서 -6594
▁배구 -6595
▁ISO -6596
▁아니하 -6597
▁예배 -6598
대군 -6599
▁유언 -6600
네이 -6601
▁아즈 -6602
▁지목 -6603
▁폴리스 -6604
▁빌헬름 -6605
▁중점 -6606
▁환원 -6607
▁Pro -6608
▁고베 -6609
▁내내 -6610
▁보잉 -6611
▁이글 -6612
▁미얀마 -6613
▁카자흐 -6614
▁소지 -6615
▁문재인 -6616
▁고무 -6617
▁매사 -6618
▁103 -6619
▁찾아보 -6620
▁비아 -6621
▁떠오르 -6622
▁공자 -6623
▁연인 -6624
▁환상 -6625
토시 -6626
▁우주선 -6627
▁오클 -6628
델피아 -6629
▁필라델피아 -6630
▁시립 -6631
ML -6632
▁개업 -6633
▁클린 -6634
▁회계 -6635
▁지지자 -6636
펴보 -6637
▁중장 -6638
▁취재 -6639
▁편곡 -6640
▁살펴보 -6641
▁MC -6642
▁주권 -6643
기니 -6644
▁선원 -6645
▁회견 -6646
▁성모 -6647
▁포장 -6648
AP -6649
▁기장 -6650
▁힌두 -6651
▁출입구 -6652
노프 -6653
▁제트 -6654
노리 -6655
즈카 -6656
▁겸임 -6657
▁특유 -6658
▁해역 -6659
▁매기 -6660
▁법령 -6661
▁각본가 -6662
▁참가자 -6663
▁천사 -6664
▁굵 -6665
▁눈물 -6666
▁나리 -6667
▁155 -6668
▁비틀즈 -6669
▁삿 -6670
▁셈 -6671
▁독립운동가 -6672
▁근접 -6673
▁최적 -6674
어리 -6675
▁후자 -6676
OC -6677
시온 -6678
▁공인 -6679
▁친척 -6680
▁버튼 -6681
▁별개 -6682
▁주파수 -6683
▁오렌지 -6684
▁각기 -6685
▁카타 -6686
▁협동 -6687
▁정치가 -6688
마사 -6689
▁사가 -6690
▁중종 -6691
▁앞면 -6692
▁유해 -6693
▁일관 -6694
▁추모 -6695
▁터지 -6696
▁보충 -6697
te -6698
받침 -6699
▁점프 -6700
▁진리 -6701
▁허브 -6702
▁반격 -6703
▁토리 -6704
▁닭 -6705
▁공략 -6706
▁증후군 -6707
▁밭 -6708
▁토크 -6709
▁포수 -6710
▁별자리 -6711
동물 -6712
▁이원 -6713
리크 -6714
▁회화 -6715
▁북동부 -6716
▁항공모함 -6717
▁와인 -6718
▁법무 -6719
▁게재 -6720
▁Bo -6721
▁유격 -6722
▁리메 -6723
▁위장 -6724
▁우편 -6725
▁108 -6726
▁인형 -6727
▁오키나 -6728
▁개찰구 -6729
▁두드러지 -6730
▁상자 -6731
▁동등 -6732
▁미소 -6733
▁성주 -6734
▁이바 -6735
▁생일 -6736
▁태우 -6737
▁평행 -6738
▁빼앗기 -6739
▁격렬 -6740
▁나고 -6741
▁Con -6742
산면 -6743
소스 -6744
▁실종 -6745
▁이어서 -6746
▁토요일 -6747
▁트라이 -6748
▁민영 -6749
▁오디오 -6750
▁아바 -6751
▁컨트롤 -6752
▁가라 -6753
▁담배 -6754
▁두산 -6755
▁사물 -6756
▁베르크 -6757
▁민사 -6758
▁사우디아 -6759
플러 -6760
▁매력 -6761
▁영동 -6762
▁합법 -6763
▁지우 -6764
▁테스 -6765
▁하우 -6766
▁레전 -6767
▁이인 -6768
▁패스 -6769
▁룰 -6770
▁서해 -6771
▁감지 -6772
산리 -6773
io -6774
▁고체 -6775
▁나고야 -6776
▁일찍이 -6777
때로 -6778
ber -6779
▁유교 -6780
▁인격 -6781
▁입상 -6782
▁승무원 -6783
▁대답 -6784
▁상부 -6785
▁외곽 -6786
▁준결승 -6787
▁스파이 -6788
▁아리스 -6789
▁금액 -6790
▁미루 -6791
▁아군 -6792
▁IT -6793
▁야간 -6794
▁퍼시픽 -6795
▁교장 -6796
▁박탈 -6797
▁아케 -6798
▁이영 -6799
▁자발 -6800
▁드라이브 -6801
▁건의 -6802
▁에우 -6803
베이터 -6804
▁브래 -6805
▁세균 -6806
▁화살 -6807
▁이사장 -6808
▁하인리히 -6809
▁상장 -6810
▁해운 -6811
▁앙리 -6812
▁생명체 -6813
▁스터 -6814
▁양상 -6815
▁1909 -6816
▁크리스마스 -6817
▁갓 -6818
퍼니 -6819
▁전례 -6820
▁채무 -6821
▁외국어 -6822
가타 -6823
▁호세 -6824
▁일족 -6825
▁때때로 -6826
▁상대방 -6827
▁에이스 -6828
러미 -6829
상스 -6830
항공 -6831
▁에디 -6832
▁교단 -6833
▁내지 -6834
▁서서히 -6835
▁시청자 -6836
▁트럼프 -6837
▁섞이 -6838
▁128 -6839
▁대주교 -6840
▁사다 -6841
▁싸이 -6842
▁꾀 -6843
화점 -6844
▁향교 -6845
▁149 -6846
▁이슬람교 -6847
▁톈 -6848
▁히데요시 -6849
▁보스니아 -6850
▁맵 -6851
▁캠페인 -6852
람회 -6853
모어 -6854
▁기금 -6855
▁부착 -6856
▁102 -6857
▁얘 -6858
▁시라 -6859
▁연도 -6860
▁명의 -6861
▁복장 -6862
▁콜라 -6863
▁홍수 -6864
▁궁정 -6865
▁메타 -6866
▁사용자 -6867
▁아우구 -6868
▁추격 -6869
▁수성 -6870
▁전도 -6871
칠리아 -6872
▁제작자 -6873
▁# -6874
라이트 -6875
▁건축가 -6876
▁고가 -6877
▁안장 -6878
▁트루 -6879
age -6880
▁그만두 -6881
▁발원 -6882
▁호칭 -6883
▁후안 -6884
구장 -6885
▁트위 -6886
▁텍스트 -6887
ge -6888
▁배틀 -6889
▁어드 -6890
▁사우디아라비아 -6891
▁펼쳐지 -6892
트릭 -6893
▁무려 -6894
▁발현 -6895
▁치세 -6896
먼드 -6897
▁차남 -6898
▁주지사 -6899
집합 -6900
▁짜리 -6901
▁최저 -6902
▁가르침 -6903
백과 -6904
▁고발 -6905
▁긴장 -6906
▁대군 -6907
▁대외 -6908
▁물자 -6909
▁남한 -6910
▁집계 -6911
▁계절 -6912
▁ㄱㅓㄴ -6913
Pa -6914
▁셸 -6915
▁아미타 -6916
▁여주 -6917
▁정밀 -6918
▁운동장 -6919
iz -6920
라미 -6921
▁직책 -6922
▁자유당 -6923
▁슬라 -6924
▁키프 -6925
▁중국인 -6926
▁전대 -6927
▁$ -6928
▁Bl -6929
▁골프 -6930
▁섭취 -6931
▁네이버 -6932
▁대니 -6933
▁원자로 -6934
▁쉐 -6935
▁시오 -6936
▁포도주 -6937
▁에스파냐 -6938
▁사이버 -6939
▁세미 -6940
▁흘러 -6941
▁포괄 -6942
▁르네상스 -6943
▁다중 -6944
▁만세 -6945
창기 -6946
나리 -6947
▁중재 -6948
▁레이저 -6949
AD -6950
▁룽 -6951
▁고래 -6952
▁충주 -6953
언스 -6954
▁조리 -6955
▁청장 -6956
▁향후 -6957
▁태생 -6958
▁김영삼 -6959
▁팔레스 -6960
▁레전드 -6961
▁강경 -6962
▁문양 -6963
▁존중 -6964
▁CPU -6965
▁송나라 -6966
▁노란색 -6967
▁리오 -6968
▁여진 -6969
▁127 -6970
▁ᆯㄲㅏ -6971
▁로프 -6972
▁보리 -6973
▁왜성 -6974
▁조반 -6975
▁탐지 -6976
차례 -6977
▁넓히 -6978
▁단기 -6979
▁뽑히 -6980
▁블루스 -6981
▁피고 -6982
▁아미노 -6983
▁경부 -6984
▁147 -6985
▁최소한 -6986
▁댐 -6987
생활 -6988
▁수평 -6989
▁토마 -6990
▁토스 -6991
▁스릴 -6992
▁손가락 -6993
▁상세 -6994
▁팽창 -6995
▁프랭크 -6996
▁그랑프리 -6997
▁며칠 -6998
▁엘리베이터 -6999
▁턱 -7000
▁수군 -7001
▁1915 -7002
sp -7003
▁기수 -7004
▁하이드 -7005
수엘라 -7006
▁고사 -7007
▁단점 -7008
▁메인 -7009
▁볼리 -7010
▁알코 -7011
▁케네 -7012
▁사절 -7013
▁로맨스 -7014
노부 -7015
서리 -7016
울리 -7017
▁역명 -7018
▁난민 -7019
▁제곱 -7020
▁초연 -7021
▁황해 -7022
▁1913 -7023
▁추증 -7024
orld -7025
▁갑작 -7026
▁캄보 -7027
행위 -7028
▁마비 -7029
▁명목 -7030
▁속성 -7031
▁유소년 -7032
▁겔 -7033
▁무죄 -7034
▁부천 -7035
▁딩 -7036
▁굉장 -7037
▁동독 -7038
▁방침 -7039
▁북구 -7040
▁라파 -7041
▁분광 -7042
▁동당 -7043
▁숭배 -7044
▁테니스 -7045
▁위키백과 -7046
▁윌리엄스 -7047
라리 -7048
▁171 -7049
▁전함 -7050
▁전두환 -7051
ik -7052
▁주축 -7053
▁후일 -7054
▁오키나와 -7055
▁북방 -7056
▁입체 -7057
창군 -7058
▁캐스팅 -7059
▁베네수엘라 -7060
▁낙선 -7061
우라 -7062
▁동래 -7063
▁광년 -7064
▁심의 -7065
▁문학상 -7066
기지 -7067
▁김수 -7068
▁둘레 -7069
▁창건 -7070
▁추상 -7071
▁협조 -7072
▁유니폼 -7073
▁침몰 -7074
▁천문학자 -7075
시티 -7076
▁객관 -7077
▁태수 -7078
▁마하 -7079
▁타르 -7080
▁강과 -7081
▁출토 -7082
▁동년 -7083
▁부과 -7084
▁취지 -7085
▁개미 -7086
▁따뜻 -7087
▁시그 -7088
▁센서 -7089
▁신흥 -7090
자치도 -7091
▁투르크 -7092
▁제주특별 -7093
▁제주특별자치도 -7094
▁촉구 -7095
명사전 -7096
▁상당수 -7097
▁초창기 -7098
▁진군 -7099
▁팜 -7100
포구 -7101
▁창시 -7102
▁이어받 -7103
두르 -7104
▁낮추 -7105
▁서사 -7106
▁김재 -7107
▁음원 -7108
▁대역 -7109
▁컬러 -7110
▁언제나 -7111
▁옥스 -7112
▁원고 -7113
▁CE -7114
▁대포 -7115
▁스파르타 -7116
▁닿 -7117
▁GT -7118
▁수렴 -7119
▁원반 -7120
▁수령 -7121
▁카탈 -7122
▁이민자 -7123
▁1895 -7124
▁al -7125
▁코프 -7126
평군 -7127
▁디스플레이 -7128
▁SP -7129
▁남원 -7130
▁병역 -7131
▁탈환 -7132
▁통칭 -7133
크리트 -7134
▁169 -7135
▁팔레스타인 -7136
▁재미 -7137
▁무제 -7138
▁총선거 -7139
▁리메이크 -7140
여지 -7141
▁141 -7142
▁프레스 -7143
▁광부 -7144
▁모스 -7145
박쥐 -7146
▁어업 -7147
▁이틀 -7148
▁딴 -7149
▁바흐 -7150
▁울리 -7151
▁나가사키 -7152
▁머신 -7153
▁아폴 -7154
네스코 -7155
▁법제 -7156
▁수동 -7157
▁총괄 -7158
MS -7159
▁아사히 -7160
▁Tr -7161
▁나주 -7162
▁내주 -7163
▁링컨 -7164
▁인재 -7165
▁135 -7166
▁다운로드 -7167
공신 -7168
▁비문 -7169
▁주차 -7170
▁ㄹㅐ -7171
▁언론인 -7172
▁온천 -7173
▁유수 -7174
포트 -7175
▁국사 -7176
▁동력 -7177
▁하부 -7178
▁북서부 -7179
▁기습 -7180
▁적자 -7181
▁자기장 -7182
▁탤 -7183
무기 -7184
보기 -7185
▁유연 -7186
그라드 -7187
▁김진 -7188
▁양주 -7189
▁풋볼 -7190
▁쓰러지 -7191
▁흩어지 -7192
자스 -7193
ust -7194
▁대처 -7195
▁엔지 -7196
▁종결 -7197
▁도호쿠 -7198
▁문화방송 -7199
석기 -7200
▁수용소 -7201
벌레 -7202
▁계몽 -7203
▁찾아내 -7204
▁때리 -7205
▁소실 -7206
▁이진 -7207
▁서머 -7208
▁섭정 -7209
▁개관 -7210
▁어스 -7211
▁후세 -7212
▁144 -7213
▁한동안 -7214
▁해병대 -7215
▁귀중 -7216
ep -7217
▁시공 -7218
▁초상화 -7219
와라 -7220
▁더글 -7221
▁신세 -7222
▁111 -7223
▁청원 -7224
▁효력 -7225
▁나르 -7226
▁스핀 -7227
▁영리 -7228
▁걱 -7229
▁차기 -7230
▁김포 -7231
▁신중 -7232
▁대제 -7233
▁바실 -7234
▁저명 -7235
▁후대 -7236
▁식별 -7237
▁ㄷㅡㄴㅈㅣ -7238
▁폐위 -7239
▁풍경 -7240
선거 -7241
int -7242
▁고백 -7243
▁함유 -7244
▁서울대 -7245
▁번영 -7246
▁첨가 -7247
▁아레나 -7248
▁장미 -7249
▁평야 -7250
▁컴퍼니 -7251
▁정말 -7252
▁중순 -7253
▁몰아내 -7254
▁스티브 -7255
▁컬럼비아 -7256
▁끊임 -7257
▁오빠 -7258
▁정전 -7259
▁공채 -7260
▁면하 -7261
▁조달 -7262
▁119 -7263
▁TH -7264
▁휴식 -7265
▁스릴러 -7266
▁십자가 -7267
▁연세대 -7268
▁반박 -7269
▁천도 -7270
▁다니엘 -7271
▁내외 -7272
▁이광 -7273
▁인산 -7274
▁캄보디아 -7275
▁큰 -7276
누엘 -7277
▁기요 -7278
▁제수 -7279
▁김태 -7280
▁날짜 -7281
▁언더 -7282
▁신학교 -7283
▁대위 -7284
▁정무 -7285
▁파업 -7286
▁리버풀 -7287
▁CO -7288
▁It -7289
▁두루 -7290
▁요르 -7291
GC -7292
▁도스 -7293
▁별칭 -7294
트리올 -7295
▁몬트리올 -7296
▁아종 -7297
▁케네디 -7298
키지 -7299
▁매카 -7300
▁불편 -7301
▁총사 -7302
▁편리 -7303
▁172 -7304
▁룡 -7305
시로 -7306
▁친일인 -7307
▁유네스코 -7308
▁친일인명사전 -7309
EN -7310
▁hPa -7311
▁유니버 -7312
ib -7313
푸스 -7314
▁드럼 -7315
▁평일 -7316
▁껍질 -7317
▁병조 -7318
▁삼진 -7319
▁선구 -7320
▁중소 -7321
▁사회학 -7322
▁간호 -7323
▁묘역 -7324
▁충실 -7325
▁애덤 -7326
▁106 -7327
▁전성기 -7328
▁우연히 -7329
▁이글스 -7330
▁무상 -7331
▁원내 -7332
▁테레 -7333
릴라 -7334
▁관통 -7335
▁교양 -7336
▁신기 -7337
▁니콜라 -7338
▁WWE -7339
따르 -7340
ome -7341
▁루시 -7342
▁바퀴 -7343
▁소환 -7344
▁카리브 -7345
▁페르난 -7346
▁미주 -7347
▁선종 -7348
▁아벨 -7349
▁신학자 -7350
▁아틀레 -7351
▁교원 -7352
▁북위 -7353
ude -7354
▁관람 -7355
▁명백 -7356
▁장안 -7357
▁꽤 -7358
▁해수 -7359
그로 -7360
▁위임 -7361
▁휴전 -7362
▁스페이스 -7363
▁덤 -7364
스럽 -7365
▁공모 -7366
▁제갈 -7367
▁중량 -7368
▁엔지니어 -7369
▁걱정 -7370
▁평하 -7371
▁프랑수아 -7372
▁당일 -7373
니치 -7374
▁미즈 -7375
▁슈트 -7376
▁의상 -7377
▁에스토 -7378
▁콰 -7379
▁등재 -7380
▁베드 -7381
▁총대 -7382
ian -7383
케이션 -7384
▁아이슬 -7385
▁낱말 -7386
▁리어 -7387
▁승점 -7388
▁정렬 -7389
▁증진 -7390
▁지폐 -7391
▁초과 -7392
▁서남 -7393
▁콘크리트 -7394
세츠 -7395
▁We -7396
▁마츠 -7397
▁김상 -7398
▁표명 -7399
내셔널 -7400
▁한성부 -7401
▁인터내셔널 -7402
▁충북 -7403
▁마인 -7404
▁지혜 -7405
ere -7406
▁공직 -7407
▁연패 -7408
▁매사추 -7409
▁쇼트 -7410
▁평범 -7411
▁아이템 -7412
말라 -7413
▁생전 -7414
▁소통 -7415
▁전압 -7416
▁매사추세츠 -7417
▁대웅 -7418
▁방패 -7419
▁보완 -7420
▁케이스 -7421
블로 -7422
선스 -7423
페르 -7424
▁미토 -7425
▁우라늄 -7426
▁해변 -7427
▁고민 -7428
▁외교관 -7429
▁중추원 -7430
▁돌연 -7431
▁모방 -7432
▁장려 -7433
▁좌절 -7434
▁아이슬란드 -7435
▁고수 -7436
▁세계관 -7437
▁책임자 -7438
▁발트 -7439
▁상서 -7440
▁열대 -7441
▁멋 -7442
▁잦 -7443
ire -7444
▁도주 -7445
▁공단 -7446
▁단식 -7447
▁알아 -7448
▁우울 -7449
▁암석 -7450
▁투르 -7451
▁그루 -7452
주의자 -7453
▁황태자 -7454
유행 -7455
치오 -7456
▁나스 -7457
▁도라 -7458
▁훔 -7459
▁영남 -7460
루션 -7461
실록 -7462
▁일화 -7463
▁입지 -7464
라이더 -7465
▁공의회 -7466
▁퍼센트 -7467
▁일조 -7468
▁탱크 -7469
▁레바 -7470
▁치열 -7471
▁배신 -7472
▁불명 -7473
▁역설 -7474
ment -7475
▁스페인어 -7476
pe -7477
▁요하 -7478
▁진짜 -7479
▁에스토니아 -7480
▁다치 -7481
▁바리 -7482
▁부채 -7483
▁시흥 -7484
▁양도 -7485
▁영장 -7486
ace -7487
▁호프 -7488
▁구이 -7489
▁포격 -7490
▁호위 -7491
▁도루 -7492
▁교외 -7493
▁신속 -7494
▁실전 -7495
▁합창 -7496
▁라이선스 -7497
▁통근 -7498
▁평택 -7499
▁기어 -7500
ide -7501
▁로열 -7502
▁소유자 -7503
▁시나리오 -7504
야시 -7505
▁오사 -7506
▁친왕 -7507
▁닝 -7508
▁김기 -7509
▁물리학자 -7510
▁쿤 -7511
▁업계 -7512
▁조이 -7513
마드 -7514
▁괴롭 -7515
▁내려지 -7516
▁중심부 -7517
▁대전광역시 -7518
▁푼 -7519
석탑 -7520
▁고령 -7521
▁오비 -7522
▁에버 -7523
▁장난 -7524
층석탑 -7525
▁횟 -7526
리케인 -7527
▁리비아 -7528
▁서정 -7529
바이잔 -7530
▁도르 -7531
▁창고 -7532
▁148 -7533
▁카이사르 -7534
▁치즈 -7535
▁사슬 -7536
▁마약 -7537
▁애틀 -7538
▁오노 -7539
▁허리케인 -7540
▁HT -7541
▁봉쇄 -7542
▁상담 -7543
▁인연 -7544
▁친하 -7545
▁밟 -7546
▁육지 -7547
▁할리우드 -7548
▁부재 -7549
▁지능 -7550
▁탈당 -7551
▁현금 -7552
▁136 -7553
▁견디 -7554
▁덮이 -7555
오피아 -7556
▁에티오피아 -7557
▁끓 -7558
제리 -7559
▁기인 -7560
▁닛폰 -7561
▁시선 -7562
▁아제르 -7563
▁전라도 -7564
▁1916 -7565
▁슬로바키아 -7566
▁신생 -7567
▁오세 -7568
▁협주곡 -7569
▁마이너 -7570
지리아 -7571
▁네이션스 -7572
▁나이지리아 -7573
▁그로 -7574
▁여지 -7575
▁파장 -7576
▁가로지르 -7577
▁아제르바이잔 -7578
위원 -7579
▁서재 -7580
▁성운 -7581
▁스튜어트 -7582
▁즈음 -7583
▁파이어 -7584
▁격투 -7585
▁IBM -7586
▁실시간 -7587
IM -7588
중국 -7589
▁TO -7590
▁항소 -7591
▁순회 -7592
▁극동 -7593
▁다항 -7594
▁의뢰 -7595
▁동이 -7596
▁명제 -7597
▁어쩌 -7598
▁갈리 -7599
▁조연 -7600
▁NBA -7601
▁이사회 -7602
▁병행 -7603
▁산림 -7604
▁아드 -7605
▁입당 -7606
▁추출 -7607
▁위탁 -7608
▁작센 -7609
아이 -7610
▁동상 -7611
▁원숭이 -7612
▁바닷 -7613
▁바스 -7614
▁해소 -7615
▁배터리 -7616
의자 -7617
▁낭만 -7618
▁막내 -7619
▁워드 -7620
람쥐 -7621
▁추세 -7622
▁특집 -7623
▁흘리 -7624
▁솜 -7625
바다 -7626
▁노부나가 -7627
▁구릉 -7628
▁호기 -7629
▁라이언 -7630
▁국무총리 -7631
시피 -7632
▁기단 -7633
▁앓 -7634
▁안성 -7635
▁의약 -7636
▁차종 -7637
▁하락 -7638
▁DC -7639
▁부적 -7640
▁시초 -7641
▁약칭 -7642
▁쌍둥이 -7643
▁브라우저 -7644
▁한스 -7645
▁138 -7646
▁결혼식 -7647
▁알아내 -7648
▁패키지 -7649
▁구도 -7650
▁니아 -7651
▁얘기 -7652
▁지류 -7653
▁허리 -7654
cl -7655
▁급격히 -7656
▁데이비스 -7657
▁닷 -7658
하면 -7659
▁중위 -7660
▁ㄷㅚ -7661
▁리틀 -7662
▁면허 -7663
▁실장 -7664
▁전념 -7665
▁평원 -7666
▁반감 -7667
▁구호 -7668
▁되게 -7669
▁유동 -7670
▁아마도 -7671
▁페르디 -7672
▁해밀 -7673
타로 -7674
▁격퇴 -7675
▁사헌 -7676
▁가동 -7677
▁리우스 -7678
▁솟 -7679
▁la -7680
▁백색 -7681
▁분당 -7682
▁딕 -7683
▁거제 -7684
▁시즈 -7685
▁후쿠시마 -7686
▁경연 -7687
▁주행 -7688
▁우루과이 -7689
▁객체 -7690
▁거론 -7691
▁지선 -7692
▁이세 -7693
▁백화점 -7694
▁섬기 -7695
▁저하 -7696
나오 -7697
파르 -7698
▁개그 -7699
▁포터 -7700
▁현종 -7701
승지 -7702
▁고성 -7703
▁레논 -7704
▁토성 -7705
▁구조물 -7706
▁시칠리아 -7707
▁상공 -7708
▁첼시 -7709
여래 -7710
▁박해 -7711
▁안기 -7712
▁회고 -7713
▁360 -7714
▁바이오 -7715
▁라이브러리 -7716
▁결선 -7717
▁수습 -7718
▁뭉 -7719
타나 -7720
▁세션 -7721
▁재위 -7722
▁최상위 -7723
▁라트비아 -7724
▁복선 -7725
▁신규 -7726
래스카 -7727
▁영의정 -7728
▁중성자 -7729
▁익히 -7730
▁치명 -7731
곡리 -7732
▁돌려 -7733
▁탐구 -7734
▁104 -7735
▁냉각 -7736
▁도미 -7737
마쓰 -7738
▁아부 -7739
▁오바 -7740
▁어울리 -7741
대신 -7742
▁우세 -7743
거지 -7744
▁En -7745
▁가면 -7746
▁거행 -7747
▁고소 -7748
▁극히 -7749
▁릉 -7750
▁깨달 -7751
▁춘천 -7752
▁사헌부 -7753
▁그램 -7754
▁피에 -7755
▁오피스 -7756
▁신탁 -7757
토모 -7758
▁감리 -7759
▁임용 -7760
▁택시 -7761
▁트래 -7762
▁한쪽 -7763
▁혈통 -7764
▁랄 -7765
ark -7766
▁어휘 -7767
▁모니터 -7768
▁LP -7769
양함 -7770
▁비시 -7771
▁성숙 -7772
▁애틀랜 -7773
브레 -7774
▁도장 -7775
▁춘추 -7776
리에 -7777
▁송시 -7778
▁장학 -7779
하시 -7780
▁목판 -7781
▁주가 -7782
▁109 -7783
▁혀 -7784
▁반도체 -7785
▁테이블 -7786
▁돌보 -7787
▁생식 -7788
▁성체 -7789
▁신한 -7790
▁제독 -7791
▁차장 -7792
▁횟수 -7793
ㅇㅗ -7794
회장 -7795
▁개원 -7796
▁게르만 -7797
은색 -7798
▁Pr -7799
▁나비 -7800
▁펌 -7801
▁고인 -7802
▁스톡 -7803
▁재현 -7804
▁코무네 -7805
데시 -7806
▁주름 -7807
리니 -7808
▁잔류 -7809
▁행적 -7810
▁123 -7811
▁해적 -7812
베르토 -7813
▁ㄹㅏㄹ -7814
▁스트레스 -7815
▁이케 -7816
▁후방 -7817
▁ㅅㅗ -7818
▁외치 -7819
▁최악 -7820
▁환영 -7821
어버리 -7822
▁대학생 -7823
▁그날 -7824
▁칼라 -7825
고쿠 -7826
▁공수 -7827
▁데모 -7828
▁민회 -7829
▁정점 -7830
▁비리 -7831
▁별다르 -7832
▁가짜 -7833
▁소매 -7834
▁교황청 -7835
▁방송사 -7836
▁뢰 -7837
▁옴 -7838
▁바나 -7839
▁명령어 -7840
▁반경 -7841
▁대표작 -7842
▁햇 -7843
타고 -7844
▁아홉 -7845
▁축하 -7846
▁펜실 -7847
▁올바르 -7848
▁휴스턴 -7849
베이니아 -7850
▁펜실베이니아 -7851
더슨 -7852
헤이 -7853
▁하워드 -7854
▁종로구 -7855
▁AK -7856
▁루프 -7857
▁통증 -7858
푸르트 -7859
▁연하 -7860
▁폭동 -7861
포드 -7862
▁매입 -7863
▁우위 -7864
▁인플 -7865
▁부당 -7866
▁143 -7867
▁공산주의자 -7868
▁너비 -7869
▁분기점 -7870
▁타이거즈 -7871
▁적당 -7872
▁연합회 -7873
▁광물 -7874
▁카자흐스탄 -7875
▁견제 -7876
▁성취 -7877
▁억압 -7878
▁터치 -7879
▁헐 -7880
▁AR -7881
란히 -7882
랜트 -7883
▁시바 -7884
▁NC -7885
▁수련 -7886
▁순교 -7887
▁아담 -7888
법인 -7889
▁경관 -7890
▁노바 -7891
▁다발 -7892
▁상점 -7893
▁신조 -7894
▁왜냐 -7895
바시 -7896
▁동점 -7897
▁분비 -7898
▁사모 -7899
▁청춘 -7900
은이 -7901
▁고장 -7902
▁힘입 -7903
▁베스 -7904
▁산란 -7905
▁주역 -7906
▁리우 -7907
▁이화 -7908
AL -7909
글리 -7910
차기 -7911
▁CS -7912
▁열정 -7913
▁히메 -7914
▁부르크 -7915
▁이식 -7916
▁축적 -7917
ㄷㅓㄴ -7918
▁마야 -7919
▁상단 -7920
▁호랑이 -7921
▁신주 -7922
▁여당 -7923
▁출처 -7924
▁피츠 -7925
▁한인 -7926
▁col -7927
▁컴파 -7928
산동 -7929
▁육체 -7930
▁박람회 -7931
▁동아일보 -7932
▁팡 -7933
▁벌금 -7934
▁염기 -7935
▁팔라 -7936
▁야구장 -7937
▁비자 -7938
▁성사 -7939
ile -7940
▁롤링 -7941
▁유한 -7942
▁현저 -7943
▁돋 -7944
▁남동부 -7945
▁자민 -7946
▁제하 -7947
▁토모 -7948
▁통영 -7949
▁CC -7950
▁관구 -7951
▁블라디미르 -7952
▁존속 -7953
▁처녀 -7954
▁누이 -7955
▁펑크 -7956
▁플라이 -7957
▁래퍼 -7958
▁목재 -7959
▁에미 -7960
러스트 -7961
▁알코올 -7962
▁근교 -7963
▁응원 -7964
▁유로파 -7965
▁음료 -7966
브리지 -7967
스틴 -7968
▁암시 -7969
▁태양계 -7970
▁룬 -7971
▁상반 -7972
▁차이점 -7973
▁부설 -7974
▁설탕 -7975
▁블로그 -7976
▁소나타 -7977
▁친일파 -7978
ies -7979
▁적분 -7980
▁제프 -7981
▁경상도 -7982
▁Op -7983
▁광학 -7984
▁기적 -7985
▁상용 -7986
▁운하 -7987
▁왓 -7988
▁김경 -7989
▁오해 -7990
▁이에야스 -7991
▁갈라 -7992
▁시골 -7993
▁티스 -7994
▁법조 -7995
▁충전 -7996
▁다이아몬드 -7997
▁휠 -7998
▁보석 -7999
▁비싸 -8000
면체 -8001
▁주주 -8002
▁조선일보 -8003
비나 -8004
살이 -8005
▁나트 -8006
▁CON -8007
▁생산량 -8008
▁가죽 -8009
xt -8010
라클 -8011
▁사육 -8012
▁이윤 -8013
▁다녀 -8014
▁아예 -8015
▁폭행 -8016
▁해명 -8017
▁라오스 -8018
▁킥 -8019
▁유죄 -8020
▁이타 -8021
▁말라 -8022
▁황실 -8023
▁국소 -8024
▁신념 -8025
▁경찰청 -8026
▁그동안 -8027
▁중의원 -8028
기업 -8029
▁카롤 -8030
▁계시 -8031
▁놀랍 -8032
▁히사 -8033
▁RNA -8034
▁단단 -8035
▁만남 -8036
▁지르 -8037
▁112 -8038
▁베어스 -8039
도리 -8040
▁어원 -8041
▁합하 -8042
▁107 -8043
▁브라더스 -8044
▁키프로스 -8045
ite -8046
▁규범 -8047
▁빨간 -8048
▁내보내 -8049
▁흠 -8050
▁공익 -8051
▁거칠 -8052
▁공관 -8053
▁가군 -8054
▁누나 -8055
▁다투 -8056
▁미르 -8057
▁구축함 -8058
▁사업자 -8059
▁아랍어 -8060
▁삼층석탑 -8061
▁is -8062
▁우유 -8063
▁루이지 -8064
▁장거리 -8065
▁동국 -8066
▁후사 -8067
▁공습 -8068
▁부제 -8069
▁옆면 -8070
▁우승자 -8071
▁창원시 -8072
▁시베리아 -8073
▁레일 -8074
▁성단 -8075
▁Te -8076
▁신민 -8077
▁이산화 -8078
▁비유 -8079
▁상사 -8080
▁시어 -8081
▁언니 -8082
▁126 -8083
▁트윈스 -8084
도바 -8085
▁당주 -8086
▁증대 -8087
▁이순신 -8088
▁사우루스 -8089
랑카 -8090
▁거북 -8091
▁무지 -8092
▁탐사선 -8093
▁트위터 -8094
▁117 -8095
▁대웅전 -8096
▁줄무늬 -8097
ft -8098
▁수법 -8099
▁조종사 -8100
▁맥락 -8101
▁맥주 -8102
▁소셜 -8103
▁갇 -8104
고래 -8105
권자 -8106
지붕 -8107
▁플러스 -8108
▁품종 -8109
▁카를로스 -8110
▁도마뱀붙이 -8111
나스 -8112
▁신선 -8113
수리 -8114
▁연쇄 -8115
▁송시열 -8116
▁동문 -8117
스부르크 -8118
▁조세 -8119
▁헤비 -8120
갈색 -8121
레기 -8122
▁드로 -8123
▁포럼 -8124
▁확신 -8125
▁범인 -8126
▁핸드 -8127
▁평의회 -8128
▁교정 -8129
▁여파 -8130
▁천장 -8131
▁왜냐하면 -8132
▁SE -8133
▁깨닫 -8134
▁할머니 -8135
▁퐁 -8136
▁네스 -8137
▁발해 -8138
▁지평 -8139
▁구출 -8140
▁이경 -8141
▁제재 -8142
▁교과서 -8143
▁풀리 -8144
▁왜곡 -8145
▁허위 -8146
▁대폭 -8147
▁인문 -8148
▁입원 -8149
▁아카데미상 -8150
▁협박 -8151
▁굉장히 -8152
▁희생자 -8153
▁빈곤 -8154
▁실체 -8155
▁인체 -8156
▁고속도 -8157
▁경보 -8158
▁근원 -8159
▁피우 -8160
▁진급 -8161
▁빨간색 -8162
▁화장실 -8163
조부 -8164
▁com -8165
▁양키스 -8166
▁뉘 -8167
▁갇히 -8168
▁곡인 -8169
▁날씨 -8170
▁121 -8171
▁법무부 -8172
▁전자기 -8173
▁가마쿠라 -8174
ath -8175
▁마디 -8176
▁137 -8177
▁350 -8178
▁삼성전자 -8179
의장 -8180
▁몰래 -8181
▁펠리 -8182
▁꾀하 -8183
▁다지 -8184
▁세라 -8185
▁신약 -8186
▁진하 -8187
▁통틀 -8188
ound -8189
▁킴 -8190
▁이브 -8191
▁제니 -8192
▁173 -8193
▁필리프 -8194
OL -8195
▁비르 -8196
▁소원 -8197
▁임하 -8198
▁탐색 -8199
다지 -8200
▁제대 -8201
▁수용체 -8202
▁CF -8203
▁요동 -8204
▁필터 -8205
▁일반인 -8206
▁후궁 -8207
ond -8208
▁주이 -8209
▁바오로 -8210
무스 -8211
▁샘플 -8212
게이머 -8213
▁프로게이머 -8214
▁가축 -8215
▁왕복 -8216
▁줄리 -8217
▁연합국 -8218
시타 -8219
▁1894 -8220
▁ㄴㅗ -8221
▁라이너 -8222
▁클라우드 -8223
끼리 -8224
마루 -8225
연합 -8226
ory -8227
▁방화 -8228
▁우호 -8229
▁워터 -8230
베니아 -8231
▁문예 -8232
▁일방 -8233
▁헥 -8234
▁113 -8235
▁개교 -8236
▁포병 -8237
▁해고 -8238
▁물려받 -8239
▁테이프 -8240
▁믹스 -8241
▁가장자리 -8242
수소 -8243
승부 -8244
▁지미 -8245
▁태권 -8246
▁크리스토퍼 -8247
▁땃 -8248
▁엿 -8249
대기 -8250
▁레온 -8251
▁불타 -8252
▁진공 -8253
▁대의원 -8254
▁슬로베니아 -8255
▁냄 -8256
▁거울 -8257
▁승계 -8258
ov -8259
▁맘 -8260
▁다크 -8261
▁아야 -8262
▁핵무기 -8263
▁자아 -8264
▁투옥 -8265
▁근로자 -8266
▁드레 -8267
▁성별 -8268
▁미션 -8269
▁수색 -8270
▁브로드 -8271
▁총독부 -8272
▁궁극 -8273
▁둥지 -8274
▁문구 -8275
▁택하 -8276
▁양측 -8277
man -8278
▁결함 -8279
▁보증 -8280
단체 -8281
번스 -8282
▁계정 -8283
▁뒷면 -8284
▁알제리 -8285
▁코스타 -8286
그레이드 -8287
▁낫 -8288
▁공민 -8289
▁공천 -8290
▁바우 -8291
▁철회 -8292
▁도미니 -8293
▁농림 -8294
▁일가 -8295
▁업그레이드 -8296
▁붐 -8297
그리 -8298
로이 -8299
▁대피 -8300
▁만일 -8301
▁무어 -8302
▁유년 -8303
▁적도 -8304
▁캐시 -8305
규모 -8306
아키 -8307
ㄷㅡㄴ -8308
▁극심 -8309
▁로이 -8310
▁서민 -8311
▁용병 -8312
iver -8313
▁바티칸 -8314
▁z -8315
톨레 -8316
▁뒤집 -8317
▁하동 -8318
▁124 -8319
▁게스트 -8320
▁LC -8321
▁강서 -8322
▁". -8323
▁On -8324
▁시뮬 -8325
▁제인 -8326
▁치안 -8327
▁화해 -8328
▁몬스터 -8329
▁놓치 -8330
▁칭찬 -8331
아프리카 -8332
▁비추 -8333
▁최강 -8334
퍼런스 -8335
▁게이지 -8336
▁자연수 -8337
▁관음 -8338
▁군정 -8339
셰비 -8340
▁be -8341
▁판본 -8342
▁가져가 -8343
▁독일인 -8344
▁탤런트 -8345
▁세속 -8346
▁신시 -8347
▁즉각 -8348
▁로우 -8349
▁횡단 -8350
▁IM -8351
▁명하 -8352
▁국내외 -8353
▁공백 -8354
▁먼지 -8355
▁상표 -8356
▁서진 -8357
박스 -8358
▁공방 -8359
▁성도 -8360
▁야마토 -8361
▁개종 -8362
대원군 -8363
▁멜로디 -8364
▁륙 -8365
로니 -8366
▁김현 -8367
▁World -8368
블리 -8369
▁가루 -8370
▁모친 -8371
▁서초 -8372
▁체크 -8373
▁초록 -8374
▁카카 -8375
▁남서부 -8376
mer -8377
▁최대한 -8378
▁쑤 -8379
린스 -8380
▁혈관 -8381
▁고고학 -8382
▁성문 -8383
▁피오 -8384
▁김정일 -8385
▁베네딕 -8386
▁구절 -8387
▁스캔 -8388
크라 -8389
▁CR -8390
▁SU -8391
▁그냥 -8392
▁내정 -8393
▁디렉 -8394
▁타당 -8395
▁학계 -8396
▁커뮤니케이션 -8397
▁닫히 -8398
▁두껍 -8399
▁양호 -8400
▁영산 -8401
▁감자 -8402
▁풍자 -8403
ich -8404
▁곤란 -8405
▁넘치 -8406
▁욕구 -8407
▁일생 -8408
▁그대 -8409
▁야쿠 -8410
▁New -8411
▁브리지 -8412
▁윤치호 -8413
▁1890 -8414
▁프랑크푸르트 -8415
드르 -8416
줄기 -8417
축구 -8418
▁러시 -8419
▁우파 -8420
▁항쟁 -8421
▁결코 -8422
▁데르 -8423
▁오리콘 -8424
▁땃쥐 -8425
▁아랫 -8426
▁제치 -8427
▁유저 -8428
▁자선 -8429
▁조부 -8430
▁초월 -8431
프레스 -8432
▁114 -8433
▁기업인 -8434
▁시위대 -8435
▁김규 -8436
▁원전 -8437
▁이거 -8438
▁검찰청 -8439
▁맑 -8440
▁선비 -8441
▁자오 -8442
▁라이온즈 -8443
▁대명 -8444
▁돌격 -8445
▁미노 -8446
▁베니 -8447
▁평정 -8448
▁ㄷㅣ -8449
▁어미 -8450
▁이소 -8451
▁발리 -8452
▁배후 -8453
▁정주 -8454
▁증손 -8455
▁구스타 -8456
▁므 -8457
▁소규모 -8458
▁부딪 -8459
▁자비 -8460
▁다녀오 -8461
▁EC -8462
▁이준 -8463
타리오 -8464
▁안토니오 -8465
▁기질 -8466
▁미키 -8467
▁자음 -8468
▁침투 -8469
▁오프닝 -8470
▁일리노 -8471
▁드라이버 -8472
렉스 -8473
IP -8474
ial -8475
▁과반 -8476
▁제압 -8477
▁118 -8478
▁블랙홀 -8479
▁냉전 -8480
▁악단 -8481
▁옵션 -8482
▁정세 -8483
▁학명 -8484
▁히어로즈 -8485
러드 -8486
▁어긋 -8487
▁이드 -8488
▁자택 -8489
▁일리노이 -8490
▁파이널 -8491
▁떨치 -8492
▁다가오 -8493
▁깎 -8494
▁구와 -8495
▁알아보 -8496
▁Sc -8497
▁도청 -8498
▁서자 -8499
▁지침 -8500
▁크리스티안 -8501
ign -8502
▁관세 -8503
▁만료 -8504
▁스칼 -8505
▁종착 -8506
▁알루미 -8507
▁파란색 -8508
▁프로덕 -8509
▁플래시 -8510
▁디비시온 -8511
▁이남 -8512
hn -8513
▁시정 -8514
▁체스 -8515
▁하르 -8516
▁사상자 -8517
▁가드 -8518
▁주부 -8519
▁체조 -8520
▁1898 -8521
▁예조 -8522
▁요정 -8523
▁극장판 -8524
▁미하일 -8525
황후 -8526
▁예시 -8527
▁115 -8528
▁진사 -8529
▁괴물 -8530
▁대부 -8531
▁경신 -8532
▁대거 -8533
▁용이 -8534
▁태극 -8535
▁분명히 -8536
▁ㅇㅡㄹㅈㅣ -8537
▁빛나 -8538
▁경찰관 -8539
▁풀려나 -8540
닐라 -8541
▁저널 -8542
▁헬리 -8543
▁반지름 -8544
▁벵 -8545
저지 -8546
▁연이 -8547
▁지인 -8548
▁방사선 -8549
▁우즈베 -8550
▁말씀 -8551
▁인명 -8552
▁모로코 -8553
▁원로원 -8554
▁봉안 -8555
▁순조 -8556
▁재상 -8557
▁커널 -8558
▁빔 -8559
히코 -8560
▁봉건 -8561
▁계열사 -8562
▁컷 -8563
벨트 -8564
▁연승 -8565
▁갑작스럽 -8566
고스 -8567
▁남구 -8568
▁로그 -8569
▁매니저 -8570
▁징계 -8571
▁레바논 -8572
▁트로이 -8573
▁헬기 -8574
▁챌린지 -8575
▁통치자 -8576
교도 -8577
지스 -8578
▁SD -8579
▁키르 -8580
▁희귀 -8581
▁승부차기 -8582
▁ㅋㅔ -8583
▁우측 -8584
▁축출 -8585
▁외야수 -8586
▁웨스턴 -8587
ㄹㅣ -8588
기념 -8589
아먹 -8590
조건 -8591
하루 -8592
▁매매 -8593
▁카우 -8594
▁패럴 -8595
▁세이브 -8596
▁시가지 -8597
▁중형 -8598
▁GS -8599
▁범유행 -8600
▁성리학 -8601
▁두려 -8602
▁변이 -8603
▁센티 -8604
▁뉴저지 -8605
▁비로소 -8606
보르 -8607
▁JT -8608
▁웹툰 -8609
▁케냐 -8610
▁남미 -8611
▁동정 -8612
▁GP -8613
▁가옥 -8614
▁극작 -8615
▁필사 -8616
▁무성 -8617
▁본국 -8618
▁선도 -8619
부리 -8620
타니 -8621
▁공조 -8622
▁모나 -8623
▁켈리 -8624
▁129 -8625
▁군중 -8626
▁정변 -8627
▁취업 -8628
▁혜택 -8629
▁무승부 -8630
마이오스 -8631
▁렐 -8632
▁비기 -8633
▁소모 -8634
▁핑크 -8635
▁뉴턴 -8636
▁앵글 -8637
▁왕세 -8638
▁외모 -8639
▁전년 -8640
▁쫓겨나 -8641
▁뭐 -8642
▁기증 -8643
▁사위 -8644
▁통보 -8645
▁맏 -8646
개미 -8647
▁광해군 -8648
타리 -8649
rom -8650
▁글루 -8651
▁컨셉 -8652
▁코카 -8653
▁하프 -8654
▁` -8655
▁ㅌ -8656
▁캔자스 -8657
▁믹 -8658
▁답변 -8659
▁천하 -8660
▁의약품 -8661
▁부스 -8662
▁비주 -8663
▁직면 -8664
▁젊은이 -8665
▁캉 -8666
▁러셀 -8667
▁공감 -8668
▁숙청 -8669
▁재혼 -8670
▁벨라루스 -8671
▁체코슬로 -8672
▁체코슬로바키아 -8673
▁쯔 -8674
▁미세 -8675
▁쾌속 -8676
▁폭넓 -8677
▁개막전 -8678
미사 -8679
▁밀집 -8680
▁마운트 -8681
▁기각 -8682
▁맥도 -8683
▁중산 -8684
▁그레고 -8685
바닥 -8686
▁예하 -8687
▁학업 -8688
▁괘 -8689
▁닦 -8690
▁퉁 -8691
문트 -8692
▁말미 -8693
▁승자 -8694
▁첨단 -8695
▁한족 -8696
▁호출 -8697
▁스타리그 -8698
▁Ne -8699
▁바빌 -8700
▁밝기 -8701
▁황족 -8702
▁스크립 -8703
방송공사 -8704
▁럼 -8705
레타 -8706
▁발급 -8707
▁퇴임 -8708
▁회관 -8709
▁총사령 -8710
▁종속 -8711
▁III -8712
▁스트리 -8713
쟁이 -8714
▁리뷰 -8715
▁빌라 -8716
▁벽돌 -8717
▁천문대 -8718
▁로비 -8719
▁조지프 -8720
ph -8721
▁부피 -8722
▁뇌물 -8723
▁척추 -8724
▁카디 -8725
▁알루미늄 -8726
우트 -8727
▁연예인 -8728
▁월요일 -8729
▁1899 -8730
천리 -8731
▁142 -8732
▁ㅇㅡㄴㄷㅔ -8733
TS -8734
▁무명 -8735
▁오오 -8736
▁장례식 -8737
▁옳 -8738
▁남작 -8739
▁유라 -8740
▁케빈 -8741
▁생체 -8742
▁어른 -8743
▁대변인 -8744
▁터뜨리 -8745
urn -8746
▁난징 -8747
▁응시 -8748
▁토끼 -8749
▁폭포 -8750
▁레슬링 -8751
▁청주시 -8752
▁양반 -8753
▁일컬 -8754
▁케임 -8755
▁화력 -8756
▁끌어들이 -8757
먼스 -8758
화물 -8759
▁요건 -8760
▁임원 -8761
느러미 -8762
▁부여받 -8763
▁웬 -8764
▁기차 -8765
▁재선 -8766
테르부르크 -8767
진군 -8768
▁감싸 -8769
▁옹립 -8770
▁창출 -8771
▁천재 -8772
▁사쿠라 -8773
롤라이나 -8774
슬러 -8775
▁각도 -8776
▁설화 -8777
▁중공 -8778
▁총칭 -8779
▁토미 -8780
▁어긋나 -8781
포로 -8782
▁관제 -8783
▁워너 -8784
▁토양 -8785
▁브리튼 -8786
▁세이부 -8787
▁룩셈 -8788
▁소생 -8789
▁예고 -8790
▁축물 -8791
▁더글러스 -8792
▁프로덕션 -8793
수록 -8794
▁마르티 -8795
▁룩셈부르크 -8796
▁콕 -8797
코딩 -8798
함수 -8799
▁무함 -8800
▁사본 -8801
▁타임스 -8802
ction -8803
▁배수 -8804
▁워크 -8805
▁정려 -8806
▁두려워하 -8807
로우 -8808
▁자크 -8809
▁하얗 -8810
▁학기 -8811
셰비키 -8812
▁스즈키 -8813
시즘 -8814
▁유방 -8815
▁전속 -8816
▁종래 -8817
▁파산 -8818
▁대서양 -8819
▁온타리오 -8820
▁플라스틱 -8821
▁구경 -8822
▁발병 -8823
▁사간 -8824
▁오크 -8825
▁넘어서 -8826
틱스 -8827
▁실망 -8828
▁기술자 -8829
럴드 -8830
▁CJ -8831
▁프란츠 -8832
▁광주광역시 -8833
▁얹 -8834
브르 -8835
▁리프 -8836
▁저주 -8837
▁부의장 -8838
▁1902 -8839
도스 -8840
▁미들 -8841
▁거래소 -8842
▁뒷받침 -8843
토르 -8844
▁ch -8845
▁대치 -8846
▁금요일 -8847
▁혼동 -8848
▁연산자 -8849
ens -8850
▁시범 -8851
▁화상 -8852
MA -8853
▁ID -8854
▁광둥 -8855
▁안테 -8856
▁유진 -8857
▁지옥 -8858
pp -8859
타주 -8860
▁대패 -8861
▁명종 -8862
▁성폭 -8863
▁신원 -8864
▁Man -8865
덩이 -8866
▁거세 -8867
▁독서 -8868
▁만성 -8869
▁서신 -8870
▁왼손 -8871
▁확실히 -8872
▁감행 -8873
▁대성당 -8874
▁도카이 -8875
▁공적 -8876
▁중복 -8877
▁키보드 -8878
▁힌두교 -8879
파이어 -8880
▁플랫폼 -8881
lan -8882
▁가야 -8883
▁니코 -8884
▁발기 -8885
▁보위 -8886
▁연꽃 -8887
▁동네 -8888
▁피겨 -8889
▁화자 -8890
▁기사단 -8891
▁잃어버리 -8892
두리 -8893
▁병기 -8894
▁의자 -8895
▁지치 -8896
▁코시 -8897
▁그래미 -8898
▁지출 -8899
▁프톨레 -8900
▁프톨레마이오스 -8901
▁'' -8902
▁대손 -8903
▁우체 -8904
▁찌르 -8905
▁채소 -8906
▁컴백 -8907
▁수분 -8908
▁시코 -8909
▁아리아 -8910
치기 -8911
▁드림 -8912
▁스턴 -8913
▁위쪽 -8914
▁체류 -8915
▁촉매 -8916
▁감마 -8917
▁운수 -8918
▁원종 -8919
▁탄도 -8920
▁바깥쪽 -8921
▁마력 -8922
▁비석 -8923
▁원천 -8924
샤바 -8925
▁그릇 -8926
▁설교 -8927
▁시가 -8928
▁피신 -8929
▁게리 -8930
▁형조 -8931
lic -8932
▁교통국 -8933
▁붙잡히 -8934
▁마녀 -8935
▁아돌프 -8936
▁개소 -8937
▁국영 -8938
▁희곡 -8939
▁비행장 -8940
▁지식인 -8941
▁강변 -8942
▁지켜 -8943
▁고양시 -8944
폴리 -8945
▁BS -8946
▁간선 -8947
▁대합 -8948
▁영등 -8949
▁포획 -8950
글라 -8951
▁버드 -8952
▁사슴 -8953
▁하단 -8954
▁소나무 -8955
▁밍 -8956
크로 -8957
▁물품 -8958
▁외관 -8959
▁표적 -8960
국사 -8961
▁기니 -8962
▁깃발 -8963
▁생생 -8964
TC -8965
▁춥 -8966
▁강동 -8967
▁벨트 -8968
▁선배 -8969
▁유체 -8970
▁토착종 -8971
▁익스프레스 -8972
TA -8973
▁정성 -8974
▁참의 -8975
▁가환 -8976
▁단축 -8977
▁습지 -8978
▁페널 -8979
▁페르디난 -8980
▁김지 -8981
▁동학 -8982
▁스폰 -8983
▁주조 -8984
▁마스크 -8985
▁단절 -8986
▁뛰어 -8987
▁영문 -8988
▁코끼리 -8989
▁해밀턴 -8990
▁정적 -8991
ary -8992
▁서류 -8993
▁압둘 -8994
▁코믹스 -8995
▁흔들리 -8996
▁포켓몬스터 -8997
▁아산 -8998
▁경성부 -8999
▁스위치 -9000
▁이용자 -9001
▁얽 -9002
▁세비 -9003
▁갈수록 -9004
▁부회장 -9005
▁끊임없이 -9006
▁몫 -9007
▁등기 -9008
▁서리 -9009
▁울프 -9010
▁사이토 -9011
▁호르몬 -9012
▁러시아어 -9013
▁브뤼 -9014
▁직결 -9015
▁매카트니 -9016
▁제국주의 -9017
ach -9018
▁나노 -9019
▁화강 -9020
▁드러머 -9021
구르 -9022
히토 -9023
▁광명 -9024
▁단의 -9025
▁동행 -9026
▁의의 -9027
▁아이오 -9028
▁선행 -9029
▁복용 -9030
▁함정 -9031
▁1901 -9032
테인 -9033
▁응하 -9034
▁축조 -9035
▁헌신 -9036
out -9037
▁생략 -9038
▁소시 -9039
▁어류 -9040
▁열도 -9041
▁입성 -9042
▁광대 -9043
▁초신 -9044
▁보이스 -9045
▁수확 -9046
▁청산 -9047
그룹 -9048
짓점 -9049
▁고아 -9050
▁약자 -9051
▁혐오 -9052
▁다항식 -9053
▁No -9054
▁공리 -9055
▁꼭짓점 -9056
▁제네바 -9057
▁폭격기 -9058
▁울산광역시 -9059
미트 -9060
▁본문 -9061
▁색채 -9062
▁쓰촨 -9063
▁염증 -9064
▁입국 -9065
ert -9066
▁간토 -9067
▁임관 -9068
▁코코 -9069
▁부작용 -9070
카가 -9071
▁보트 -9072
▁부가 -9073
▁체르 -9074
▁알렉산드르 -9075
▁일산 -9076
▁현은 -9077
디나 -9078
▁권총 -9079
▁하치 -9080
▁연기자 -9081
피어 -9082
▁무궁 -9083
▁바이킹 -9084
▁삿포로 -9085
▁렘 -9086
▁논하 -9087
▁수축 -9088
▁여운 -9089
▁정문 -9090
▁이단 -9091
▁자작 -9092
▁퀘벡 -9093
루아 -9094
▁기숙 -9095
▁매수 -9096
▁손꼽 -9097
▁치아 -9098
▁영국인 -9099
모스 -9100
자르 -9101
▁카미 -9102
링턴 -9103
▁갱신 -9104
▁보복 -9105
▁성지 -9106
▁역량 -9107
▁조립 -9108
▁서유럽 -9109
LE -9110
▁MB -9111
▁김창 -9112
▁서문 -9113
▁실버 -9114
▁체중 -9115
▁사회당 -9116
ys -9117
타임 -9118
▁주되 -9119
LS -9120
▁ㅈㅛ -9121
▁민감 -9122
▁커스 -9123
IG -9124
▁경과 -9125
▁고산 -9126
▁드라 -9127
▁이현 -9128
▁정동 -9129
▁표방 -9130
▁간단히 -9131
나우 -9132
▁례 -9133
▁광저우 -9134
▁점성술 -9135
▁대구광역시 -9136
▁케임브리지 -9137
▁쿄 -9138
ㅌㅔ -9139
▁검열 -9140
▁염색체 -9141
▁요르단 -9142
ug -9143
▁면제 -9144
노미야 -9145
▁134 -9146
▁ㅎㅏㄴ -9147
▁푸에르 -9148
▁} -9149
▁갈릴 -9150
▁크롬 -9151
▁페니 -9152
▁호모 -9153
베트남 -9154
▁썰 -9155
그라 -9156
▁가역 -9157
▁날카 -9158
▁두께 -9159
▁스님 -9160
▁토기 -9161
▁상금 -9162
▁입각 -9163
▁정립 -9164
▁조수 -9165
▁김제 -9166
▁분수 -9167
▁차르 -9168
▁캐서 -9169
▁특권 -9170
▁누적 -9171
▁동조 -9172
▁버티 -9173
내리 -9174
속기 -9175
▁미륵 -9176
일으키 -9177
▁그다지 -9178
▁무함마드 -9179
▁아라비아 -9180
▁불러일으키 -9181
▁독성 -9182
▁보헤 -9183
▁엔딩 -9184
▁원료 -9185
▁장기간 -9186
▁파이터 -9187
▁아시카가 -9188
ase -9189
▁시리 -9190
▁오쿠 -9191
▁KIA -9192
▁THE -9193
▁남매 -9194
▁공명 -9195
▁전방 -9196
▁갈리아 -9197
▁모서리 -9198
▁사업가 -9199
▁1903 -9200
정리 -9201
▁레즈 -9202
레슬링 -9203
▁옥스퍼드 -9204
▁ㅎㅏㄴㅌㅔ -9205
▁마우 -9206
▁삼촌 -9207
▁직경 -9208
▁카프 -9209
▁크레이 -9210
▁다마 -9211
▁섹스 -9212
▁아브 -9213
▁개인전 -9214
▁1884 -9215
기스 -9216
대장 -9217
펜하 -9218
▁불꽃 -9219
▁신도비 -9220
▁언어학 -9221
▁트리플 -9222
▁홈구장 -9223
사리 -9224
퀘어 -9225
▁Gr -9226
▁노보 -9227
▁원본 -9228
▁학대 -9229
▁All -9230
▁One -9231
▁불신 -9232
▁연봉 -9233
▁이병 -9234
▁쥐과 -9235
▁미시시피 -9236
▁아인슈타인 -9237
▁쟈 -9238
처스 -9239
▁박지 -9240
▁관광지 -9241
▁만주국 -9242
▁이성계 -9243
▁표기법 -9244
테르담 -9245
ke -9246
▁공예 -9247
▁라그 -9248
▁중령 -9249
▁태그 -9250
▁퇴역 -9251
▁하리 -9252
▁지켜보 -9253
카미 -9254
▁강간 -9255
▁개화 -9256
▁공고 -9257
▁극대 -9258
▁대두 -9259
▁EX -9260
▁에콰 -9261
▁트로피 -9262
▁아리스토 -9263
▁에콰도르 -9264
▁토요 -9265
▁쓰레기 -9266
▁프로레슬링 -9267
카타 -9268
▁AN -9269
▁산출 -9270
▁질소 -9271
텍처 -9272
▁교대 -9273
▁좌측 -9274
▁아키텍처 -9275
▁야마구치 -9276
▁릿 -9277
▁구형 -9278
▁루타 -9279
▁어둠 -9280
▁이관 -9281
▁하비 -9282
▁도널드 -9283
▁로저 -9284
▁알렉산드리아 -9285
▁ㅅㅑ -9286
▁비타 -9287
▁선동 -9288
▁퇴적 -9289
▁히타 -9290
▁쓰시마 -9291
▁전염병 -9292
아웃 -9293
▁소말 -9294
▁슈팅 -9295
▁스텔 -9296
▁도요토미 -9297
▁군산 -9298
▁정선 -9299
▁꼭대기 -9300
▁클라이 -9301
▁니콜라이 -9302
▁발렌시아 -9303
▁메커 -9304
▁훔치 -9305
▁검출 -9306
▁어뢰 -9307
▁제로 -9308
▁패널 -9309
▁복합체 -9310
▁아폴로 -9311
▁패밀리 -9312
푸르 -9313
▁Cl -9314
▁헌정 -9315
▁구스 -9316
▁조반니 -9317
▁프란체 -9318
▁1800 -9319
▁대문 -9320
▁비뉴 -9321
▁날카롭 -9322
▁충청도 -9323
▁콤팩트 -9324
▁깨지 -9325
▁마키 -9326
▁드레스 -9327
그레 -9328
방울 -9329
▁달걀 -9330
▁마르틴 -9331
▁삼국지 -9332
라이언트 -9333
▁LA -9334
▁타케 -9335
▁해남 -9336
▁뮤지션 -9337
▁소방서 -9338
리코 -9339
▁군함 -9340
▁우치 -9341
▁방글라 -9342
▁히로시 -9343
▁방글라데시 -9344
▁클라이언트 -9345
ree -9346
▁공황 -9347
▁흥선 -9348
▁지도부 -9349
▁프레드 -9350
▁피고인 -9351
▁뒤쪽 -9352
▁실재 -9353
▁장벽 -9354
▁철폐 -9355
▁마르코 -9356
올로 -9357
▁선우 -9358
▁실무 -9359
▁정유 -9360
▁함선 -9361
테이션 -9362
▁유부 -9363
▁회상 -9364
▁소행성 -9365
▁반공 -9366
▁전위 -9367
▁당연히 -9368
▁조형 -9369
나미 -9370
가와현 -9371
▁기념관 -9372
▁슬라브 -9373
▁당수 -9374
▁원더 -9375
▁인질 -9376
▁토시 -9377
라이어 -9378
사이드 -9379
▁방사성 -9380
▁페널티 -9381
▁일렉트로 -9382
▁가오 -9383
▁김홍 -9384
▁농부 -9385
▁이태 -9386
간지 -9387
▁경작 -9388
▁내걸 -9389
▁단면 -9390
▁염소 -9391
▁코믹 -9392
▁기념비 -9393
▁복소수 -9394
▁팟 -9395
가르 -9396
불교 -9397
▁경인 -9398
▁곡물 -9399
▁도선 -9400
▁에밀 -9401
▁자형 -9402
니시 -9403
▁로라 -9404
▁묶이 -9405
▁어찌 -9406
▁우회 -9407
▁활주 -9408
▁북아프리카 -9409
▁팰 -9410
네마 -9411
▁IN -9412
▁건륭 -9413
▁분량 -9414
▁분출 -9415
▁카사 -9416
▁기분 -9417
▁기슭 -9418
▁발칸 -9419
▁전구 -9420
▁전복 -9421
▁남동생 -9422
아들 -9423
▁우물 -9424
▁하차 -9425
▁뉴욕주 -9426
▁소수자 -9427
▁스토어 -9428
▁카를로 -9429
▁with -9430
산맥 -9431
▁상가 -9432
▁터보 -9433
▁강대 -9434
▁권장 -9435
▁기관총 -9436
▁오사카부 -9437
하키 -9438
act -9439
▁궁중 -9440
▁물가 -9441
▁발령 -9442
▁상경 -9443
▁세바 -9444
▁리더십 -9445
▁현감 -9446
▁아미노산 -9447
개골 -9448
번뇌 -9449
ass -9450
▁러스 -9451
▁모모 -9452
▁가브리 -9453
▁더욱이 -9454
▁견인 -9455
▁밀란 -9456
▁상트 -9457
▁창녕 -9458
▁파병 -9459
▁그레이트 -9460
구역 -9461
▁가산 -9462
▁막스 -9463
▁상응 -9464
▁수목 -9465
11 -9466
▁준주 -9467
▁후작 -9468
▁116 -9469
▁중앙아시아 -9470
▁교량 -9471
▁까닭 -9472
▁브란 -9473
▁세키 -9474
▁취항 -9475
▁메커니즘 -9476
▁Ad -9477
▁교도소 -9478
▁모리스 -9479
▁전시회 -9480
▁강희 -9481
▁관절 -9482
▁소자 -9483
▁용서 -9484
▁의결 -9485
▁거주지 -9486
곡동 -9487
사우 -9488
▁Br -9489
▁신축 -9490
▁안경 -9491
▁220 -9492
▁민간인 -9493
▁한국방송공사 -9494
▁냄새 -9495
▁등용 -9496
▁추첨 -9497
▁회피 -9498
▁포스터 -9499
▁이북 -9500
▁와일드 -9501
▁캐서린 -9502
pt -9503
▁감안 -9504
▁돌기 -9505
▁보성 -9506
ㄴㅈㅣ -9507
▁다케다 -9508
▁총대주교 -9509
▁가계 -9510
▁각색 -9511
▁효고 -9512
▁에디션 -9513
▁1897 -9514
▁볼리비아 -9515
▁미라 -9516
▁정화 -9517
역학 -9518
▁진전 -9519
▁마카오 -9520
▁카스티 -9521
▁샌드 -9522
▁평창 -9523
▁1860 -9524
▁홉 -9525
사업 -9526
쿠버 -9527
▁가열 -9528
▁델타 -9529
▁맞붙 -9530
▁시야 -9531
▁절단 -9532
▁되돌리 -9533
▁스트라이크 -9534
▁기저 -9535
▁농사 -9536
▁반군 -9537
▁티코 -9538
ream -9539
▁거짓말 -9540
▁데스크 -9541
▁방송인 -9542
▁일부분 -9543
▁컨트리 -9544
▁CN -9545
▁낙동 -9546
▁요약 -9547
▁태백 -9548
▁꿀 -9549
▁갈래 -9550
▁대출 -9551
▁델라 -9552
▁취미 -9553
▁페이스북 -9554
▁르노 -9555
▁마블 -9556
▁사살 -9557
▁교육청 -9558
벤처 -9559
▁깨끗 -9560
▁리조 -9561
▁상법 -9562
▁오로 -9563
▁올드 -9564
▁폭로 -9565
▁어드벤처 -9566
▁GO -9567
▁일파 -9568
▁장자 -9569
▁침체 -9570
▁휴가 -9571
기념물 -9572
▁아나키 -9573
▁일자리 -9574
파리 -9575
▁확진 -9576
▁배우자 -9577
▁알프레 -9578
▁ㅇㅡㄹㄲㅏ -9579
▁상고 -9580
▁수료 -9581
▁강남구 -9582
▁버클리 -9583
▁데카 -9584
▁음향 -9585
▁이주하 -9586
▁반전 -9587
▁가의 -9588
▁고이 -9589
▁마니 -9590
▁안산 -9591
▁타우 -9592
▁한층 -9593
▁네오 -9594
▁접수 -9595
▁노태우 -9596
▁스크립트 -9597
▁Is -9598
▁공손 -9599
▁마가 -9600
▁전산 -9601
▁카타르 -9602
▁무슨 -9603
▁청색 -9604
▁연대기 -9605
캐롤라이나 -9606
▁나루 -9607
▁리히 -9608
▁민정 -9609
▁석불 -9610
▁장제 -9611
▁쿠니 -9612
▁효종 -9613
스카르 -9614
▁경제학자 -9615
▁Ex -9616
▁샌디 -9617
▁아소 -9618
▁카즈 -9619
▁;& -9620
▁대관 -9621
▁122 -9622
▁사카이 -9623
▁쓸 -9624
▁간신 -9625
▁구약 -9626
▁북경 -9627
▁심화 -9628
▁쥐속 -9629
▁중공업 -9630
▁바르샤바 -9631
▁앰 -9632
▁안치 -9633
▁타지 -9634
▁엇 -9635
▁저렴 -9636
▁체력 -9637
▁모티브 -9638
나드 -9639
▁유닉스 -9640
▁떡 -9641
도비 -9642
퍼슨 -9643
▁2022 -9644
산성 -9645
▁마애 -9646
▁이반 -9647
츠크 -9648
▁가신 -9649
▁소행 -9650
▁추론 -9651
▁스퀘어 -9652
반구 -9653
▁막시 -9654
▁미네소 -9655
▁입주 -9656
▁클라크 -9657
▁홍문관 -9658
▁버마 -9659
▁안드레아 -9660
포터 -9661
▁고토 -9662
▁동형 -9663
▁이빨 -9664
▁종파 -9665
▁화순 -9666
▁게릴라 -9667
▁후반기 -9668
▁석회 -9669
▁전격 -9670
▁중원 -9671
▁아마존 -9672
▁모용 -9673
▁윤보 -9674
▁인테르 -9675
▁죠 -9676
콥터 -9677
푸아 -9678
▁글래 -9679
▁브룩 -9680
▁살피 -9681
▁짐작 -9682
▁치우 -9683
▁흥선대원군 -9684
ii -9685
▁군청 -9686
▁수중 -9687
▁적군 -9688
▁집결 -9689
▁1880 -9690
▁합당 -9691
▁NGC -9692
▁con -9693
▁상트페 -9694
▁설립자 -9695
▁상트페테르부르크 -9696
▁애리 -9697
▁솔루션 -9698
▁급수 -9699
▁리만 -9700
▁사적 -9701
▁종점 -9702
▁공용어 -9703
▁BM -9704
▁갑옷 -9705
▁강철 -9706
▁메라 -9707
▁호쿠 -9708
▁마라톤 -9709
거진 -9710
▁타협 -9711
▁갤러리 -9712
▁그리스인 -9713
▁마당 -9714
▁신동 -9715
▁예명 -9716
▁용암 -9717
▁두개골 -9718
▁득표율 -9719
▁유대교 -9720
▁보강 -9721
▁세네 -9722
▁콘테 -9723
▁옥수수 -9724
▁제작사 -9725
▁셜 -9726
▁엮 -9727
▁메릴 -9728
▁빈도 -9729
▁어로 -9730
▁손꼽히 -9731
▁과실 -9732
▁벽화 -9733
▁장원 -9734
▁제리 -9735
▁찰리 -9736
▁함양 -9737
▁133 -9738
▁지지율 -9739
▁진행자 -9740
▁천연기념물 -9741
▁노이 -9742
▁루크 -9743
▁유정 -9744
▁정경 -9745
▁창의 -9746
네시 -9747
▁돌입 -9748
▁무술 -9749
▁실적 -9750
▁쳐들 -9751
▁돌아다니 -9752
▁눕 -9753
iss -9754
▁무로 -9755
▁이장 -9756
▁나란히 -9757
▁새로이 -9758
▁함부르크 -9759
리즘 -9760
▁감추 -9761
▁입양 -9762
▁프렌 -9763
▁키예프 -9764
니지 -9765
▁가네 -9766
▁기성 -9767
▁번성 -9768
▁신정 -9769
▁청소 -9770
몰로지 -9771
▁붙여지 -9772
▁파라과이 -9773
ake -9774
▁일괄 -9775
자치시 -9776
▁특별자치시 -9777
▁블리 -9778
▁소령 -9779
▁이언 -9780
ㄹㄹㅗ -9781
▁극작가 -9782
타케 -9783
▁디트로 -9784
사관학교 -9785
▁디트로이트 -9786
▁ㄷㅔ -9787
▁격차 -9788
▁스노 -9789
▁왕정 -9790
own -9791
▁수녀 -9792
▁연못 -9793
▁처지 -9794
▁특색 -9795
▁호응 -9796
▁괴롭히 -9797
▁법정동 -9798
▁뻔 -9799
기구 -9800
케이 -9801
▁추리 -9802
▁이동하 -9803
▁무궁화 -9804
▁일러스트 -9805
▁랍 -9806
리안 -9807
▁심야 -9808
▁연동 -9809
▁이규 -9810
▁종말 -9811
▁팔레 -9812
▁확고 -9813
▁CBS -9814
▁준결승전 -9815
▁그레고리오 -9816
▁자결 -9817
▁진료 -9818
▁랴 -9819
ㄱㅣ -9820
▁가가 -9821
▁농어 -9822
▁장흥 -9823
▁제왕 -9824
▁조계 -9825
▁펜싱 -9826
▁헬륨 -9827
▁Mus -9828
▁극도 -9829
▁등극 -9830
▁몽고 -9831
▁출석 -9832
▁교육부 -9833
▁그림자 -9834
▁고추 -9835
▁복권 -9836
▁오지 -9837
▁유령 -9838
▁위나라 -9839
▁포도당 -9840
▁그렇지만 -9841
▁그레고리 -9842
▁오락 -9843
▁자생 -9844
어뜨리 -9845
▁CEO -9846
▁미생물 -9847
▁사무총장 -9848
▁경쟁력 -9849
clude -9850
▁사쿠 -9851
▁파우 -9852
▁평민 -9853
▁GDP -9854
▁겉보기 -9855
▁낚 -9856
▁개항 -9857
▁공약 -9858
▁앨리스 -9859
▁지방산 -9860
▁도사 -9861
▁무스 -9862
▁선장 -9863
▁자카 -9864
타마 -9865
▁국유 -9866
▁미셸 -9867
▁열심 -9868
▁탁월 -9869
▁아래쪽 -9870
그래 -9871
미스 -9872
▁ES -9873
▁아치 -9874
▁추종 -9875
▁스리랑카 -9876
▁애틀랜타 -9877
▁니카 -9878
▁문경 -9879
▁스로 -9880
▁위생 -9881
림픽 -9882
▁숙주 -9883
HO -9884
▁지청 -9885
Hz -9886
원장 -9887
old -9888
▁유스 -9889
▁132 -9890
▁대성전 -9891
▁엘리트 -9892
UR -9893
▁더비 -9894
▁수심 -9895
▁아데 -9896
▁우상 -9897
▁재해 -9898
▁주지 -9899
▁싣 -9900
▁수년 -9901
▁즐겁 -9902
▁시뮬레이션 -9903
▁++ -9904
▁광양 -9905
▁스트라이커 -9906
▁툰 -9907
멘스 -9908
▁재난 -9909
▁정인 -9910
▁진수 -9911
▁섀 -9912
위성 -9913
▁결핍 -9914
▁까지 -9915
▁명분 -9916
▁애칭 -9917
▁프롤 -9918
▁글로브 -9919
▁동성애자 -9920
▁인디애나 -9921
▁듀오 -9922
▁칼뱅 -9923
▁반역 -9924
▁이득 -9925
▁마다가 -9926
미즈 -9927
스기 -9928
▁결제 -9929
▁이데 -9930
▁주화 -9931
▁초원 -9932
▁대지진 -9933
버러 -9934
ork -9935
▁NE -9936
▁격자 -9937
▁리모 -9938
▁조병 -9939
바야시 -9940
헌영 -9941
▁극락 -9942
▁김민 -9943
▁온갖 -9944
▁인프라 -9945
ix -9946
▁듀얼 -9947
▁앞장 -9948
▁삼국사기 -9949
세기 -9950
▁ㄹㅑ -9951
▁감동 -9952
▁동요 -9953
▁속편 -9954
▁미주리 -9955
▁프랭클린 -9956
거래 -9957
에미 -9958
GA -9959
벨라 -9960
▁꿈꾸 -9961
▁빈번 -9962
파크 -9963
▁베른 -9964
▁브랜 -9965
▁원격 -9966
▁정관 -9967
▁요제프 -9968
▁파이프 -9969
▁국수 -9970
▁총무 -9971
▁or -9972
▁상연 -9973
▁시종 -9974
▁pro -9975
▁마우스 -9976
▁패럴림픽 -9977
해지 -9978
해튼 -9979
▁타석 -9980
▁무조건 -9981
▁복음서 -9982
렉션 -9983
▁김옥 -9984
▁동참 -9985
▁현직 -9986
() -9987
lo -9988
메다 -9989
위원회 -9990
▁쾰 -9991
▁대각 -9992
▁속이 -9993
▁속주 -9994
▁청자 -9995
▁호족 -9996
▁평안남도 -9997
천사 -9998
▁발각 -9999
▁상기 -10000
▁농산물 -10001
▁보헤미아 -10002
ick -10003
▁암흑 -10004
▁요법 -10005
▁현황 -10006
러피 -10007
루냐 -10008
▁대국 -10009
▁호리 -10010
▁저널리 -10011
▁강풍 -10012
▁숨지 -10013
▁신상 -10014
▁통틀어 -10015
CAF -10016
▁La -10017
▁Ro -10018
▁현행 -10019
ence -10020
▁기상청 -10021
▁우체국 -10022
▁PR -10023
▁무르 -10024
▁해치 -10025
▁자세히 -10026
▁활주로 -10027
를테 -10028
마리 -10029
변이 -10030
▁가타 -10031
▁단과 -10032
▁두렵 -10033
▁피로 -10034
를테면 -10035
▁대사헌 -10036
▁돌연변이 -10037
▁볼셰비키 -10038
▁이를테면 -10039
▁빠져 -10040
▁총기 -10041
▁후속작 -10042
▁kt -10043
▁막히 -10044
▁세손 -10045
▁워치 -10046
▁페로 -10047
▁밀러 -10048
▁파문 -10049
▁뾰 -10050
▁공파 -10051
▁황도 -10052
▁단행본 -10053
▁1870 -10054
▁공표 -10055
▁라오 -10056
▁의과 -10057
▁투항 -10058
브리아 -10059
▁모터스 -10060
▁트리니 -10061
▁합스부르크 -10062
라기 -10063
홀름 -10064
▁관동 -10065
▁불행 -10066
▁초고 -10067
▁해부 -10068
▁매거진 -10069
▁창시자 -10070
▁평안북도 -10071
▁숀 -10072
▁To -10073
▁낙하 -10074
▁만년 -10075
▁소울 -10076
▁제너 -10077
▁호의 -10078
▁DM -10079
▁장대 -10080
▁표창 -10081
▁매끄럽 -10082
▁중앙부 -10083
▁헛 -10084
삭스 -10085
할시 -10086
▁맹세 -10087
▁왜구 -10088
▁재질 -10089
▁저격 -10090
▁말년 -10091
▁생계 -10092
▁아쿠 -10093
▁정국 -10094
▁타이베이 -10095
공산 -10096
▁댓 -10097
플로 -10098
▁감금 -10099
▁머스 -10100
▁서장 -10101
▁우아 -10102
▁이븐 -10103
▁애리조 -10104
▁청동기 -10105
▁우즈베키스탄 -10106
▁배속 -10107
ance -10108
▁450 -10109
▁NAS -10110
▁른 -10111
▁입수 -10112
▁USS -10113
▁따라가 -10114
▁아스널 -10115
▁1885 -10116
▁짱 -10117
▁로페 -10118
▁복식 -10119
▁Mar -10120
▁프랜시스 -10121
ection -10122
▁슛 -10123
▁Ph -10124
▁국악 -10125
▁세븐 -10126
▁시국 -10127
▁포고 -10128
▁기병대 -10129
▁소피아 -10130
EM -10131
▁카바 -10132
▁다람쥐 -10133
▁엥 -10134
▁김병 -10135
▁맞대 -10136
▁로렌스 -10137
▁비주얼 -10138
▁아이스하키 -10139
십자 -10140
▁un -10141
▁돌출 -10142
▁앞쪽 -10143
▁1871 -10144
▁알래스카 -10145
ear -10146
▁수염 -10147
▁아빠 -10148
▁양육 -10149
▁양성자 -10150
▁맷 -10151
▁쿡 -10152
▁비늘 -10153
▁신종 -10154
티시 -10155
▁성령 -10156
▁중생 -10157
▁틀리 -10158
▁휴게 -10159
타이드 -10160
테리아 -10161
▁대장군 -10162
▁only -10163
▁오클랜드 -10164
▁오로지 -10165
▁프레이 -10166
제이 -10167
▁이모 -10168
lass -10169
▁빅토르 -10170
▁1600 -10171
▁내성 -10172
▁카터 -10173
러피언 -10174
▁수원시 -10175
ild -10176
▁로리 -10177
▁루비 -10178
▁요지 -10179
▁위스 -10180
▁참사 -10181
▁센고쿠 -10182
▁마르크스주의 -10183
▁전날 -10184
▁테일 -10185
▁휩쓸 -10186
▁활발히 -10187
▁1200 -10188
▁내면 -10189
▁리터 -10190
▁앤더슨 -10191
▁파나마 -10192
▁유러피언 -10193
▁유료 -10194
▁청룡 -10195
▁케이프 -10196
▁경질 -10197
▁매직 -10198
▁봉수 -10199
▁시애 -10200
▁오라 -10201
▁중상 -10202
▁마닐라 -10203
테쓰 -10204
▁GN -10205
▁릴리 -10206
▁벤치 -10207
▁역도 -10208
▁장단 -10209
▁차리 -10210
▁루카 -10211
▁부조 -10212
▁중서 -10213
▁화랑 -10214
▁흉노 -10215
▁박헌영 -10216
▁예정자 -10217
▁편집자 -10218
돌리 -10219
▁볼프 -10220
▁탑신 -10221
▁윤보선 -10222
▁마다가스카르 -10223
틀리 -10224
▁자칭 -10225
▁케라 -10226
▁해저 -10227
▁내무부 -10228
파이 -10229
▁지성 -10230
▁난이 -10231
▁원심 -10232
▁이양 -10233
▁재외 -10234
쩌둥 -10235
체고 -10236
▁감수 -10237
▁관행 -10238
▁민요 -10239
▁수인 -10240
▁카니 -10241
▁240 -10242
▁김규식 -10243
▁부원군 -10244
▁잡아먹 -10245
체고비나 -10246
▁마오쩌둥 -10247
▁SL -10248
▁능선 -10249
▁퇴장 -10250
▁끌려가 -10251
▁반란군 -10252
어오 -10253
irl -10254
▁구니 -10255
▁출가 -10256
▁친분 -10257
▁구마모토 -10258
▁김정은 -10259
▁맨해튼 -10260
▁시애틀 -10261
▁알렉스 -10262
▁프로리그 -10263
관리 -10264
▁vs -10265
▁리바 -10266
▁반성 -10267
▁콜레 -10268
▁플랜 -10269
▁다나카 -10270
▁앤드루 -10271
▁해리슨 -10272
맥스 -10273
▁교실 -10274
▁생선 -10275
▁조광 -10276
▁즘 -10277
▁빨갛 -10278
▁AD -10279
▁바디 -10280
▁서산 -10281
▁스태 -10282
▁오른손 -10283
▁제동 -10284
▁지쿠 -10285
▁파인 -10286
▁제조업 -10287
OV -10288
▁수교 -10289
▁초빙 -10290
텔레스 -10291
▁프라하 -10292
메스 -10293
올라 -10294
▁이완 -10295
▁티켓 -10296
▁동물원 -10297
천면 -10298
▁궁궐 -10299
▁송도 -10300
▁역사가 -10301
ans -10302
▁리비 -10303
▁상급 -10304
▁이방 -10305
▁함자 -10306
ivers -10307
▁콘스탄티노폴리스 -10308
코토 -10309
▁경희 -10310
▁시중 -10311
▁루돌프 -10312
▁실험실 -10313
▁헬리콥터 -10314
▁개헌 -10315
▁관문 -10316
▁무척 -10317
▁성실 -10318
▁통역 -10319
▁괄 -10320
▁국보 -10321
▁몸통 -10322
▁오미 -10323
▁재활 -10324
▁불태우 -10325
▁성남시 -10326
▁왕세자 -10327
▁부각 -10328
▁정제 -10329
▁조례 -10330
▁증인 -10331
▁징병 -10332
▁호크 -10333
▁대대로 -10334
▁제퍼슨 -10335
▁하노이 -10336
지로 -10337
ype -10338
▁Sy -10339
▁고쿠 -10340
▁남산 -10341
▁뾰족 -10342
▁EBS -10343
▁미군정 -10344
▁허드 -10345
▁공민왕 -10346
▁신문사 -10347
▁경시 -10348
▁구청 -10349
▁분과 -10350
▁창문 -10351
▁동대문 -10352
include -10353
▁아리스토텔레스 -10354
▁줄거리 -10355
▁남용 -10356
▁당내 -10357
▁커플 -10358
▁리조트 -10359
▁위너스 -10360
▁클레이 -10361
▁러시아인 -10362
▁CM -10363
▁드미 -10364
▁바트 -10365
▁섬세 -10366
무소 -10367
어사 -10368
ish -10369
▁ㅌㅣ -10370
▁레이크 -10371
▁남해 -10372
▁뉴클 -10373
▁차용 -10374
▁총통 -10375
▁서재필 -10376
▁얕 -10377
▁이룩 -10378
▁사각형 -10379
▁크라이 -10380
▁클린턴 -10381
▁겁 -10382
▁카지 -10383
▁칼럼 -10384
▁한하 -10385
▁": -10386
▁배려 -10387
▁총애 -10388
▁가늘 -10389
▁각성 -10390
▁시노 -10391
▁퍼스 -10392
▁하키 -10393
▁화기 -10394
▁동유럽 -10395
라니 -10396
▁통용 -10397
▁자치체 -10398
▁퍼스트 -10399
▁김원 -10400
▁지오 -10401
▁화엄 -10402
▁대합실 -10403
▁해리스 -10404
GM -10405
▁NT -10406
▁개개 -10407
▁나우 -10408
▁주임 -10409
▁MTV -10410
▁아무것 -10411
▁광도 -10412
▁씨앗 -10413
▁안녕 -10414
▁약혼 -10415
▁에프 -10416
▁하반 -10417
▁효자 -10418
▁케플러 -10419
oun -10420
▁농경 -10421
▁천왕 -10422
▁올림피아 -10423
▁학설 -10424
▁스가 -10425
▁허정 -10426
▁선거법 -10427
▁솔로몬 -10428
▁@ -10429
에스 -10430
▁독도 -10431
▁모의 -10432
▁산호 -10433
▁시합 -10434
▁ex -10435
▁수양 -10436
▁시부 -10437
▁진해 -10438
사상 -10439
원수 -10440
▁나선 -10441
▁독창 -10442
▁모호 -10443
▁보라 -10444
▁차갑 -10445
▁칙령 -10446
▁분류군 -10447
▁요시다 -10448
▁유치원 -10449
OD -10450
▁테라 -10451
▁포착 -10452
▁브루스 -10453
AF -10454
컨대 -10455
▁메뉴 -10456
▁예선전 -10457
▁총사령관 -10458
ey -10459
▁관청 -10460
▁주입 -10461
▁하류 -10462
▁내야수 -10463
▁스테파 -10464
▁아키라 -10465
▁함경남도 -10466
▁국당 -10467
▁들여 -10468
▁로버 -10469
▁메카 -10470
▁실존 -10471
▁지로 -10472
▁카테 -10473
▁파도 -10474
▁브레이크 -10475
fe -10476
토랑 -10477
▁sc -10478
▁경호 -10479
▁극한 -10480
▁반기 -10481
▁보로 -10482
▁자제 -10483
▁긴테쓰 -10484
▁레스토랑 -10485
▁네이션스컵 -10486
정원 -10487
통일 -10488
▁문고 -10489
▁성화 -10490
▁일당 -10491
▁평형 -10492
▁경영자 -10493
▁멍 -10494
▁Jo -10495
▁검정 -10496
▁다테 -10497
▁마차 -10498
▁전래 -10499
▁호스 -10500
▁아키타 -10501
▁보행 -10502
▁분파 -10503
▁트릭 -10504
▁퍼포 -10505
창호 -10506
▁만장 -10507
▁블로 -10508
▁신발 -10509
▁어군 -10510
▁유혹 -10511
▁찬사 -10512
▁스톡홀름 -10513
등식 -10514
▁수필 -10515
▁케인 -10516
▁데려오 -10517
▁비타민 -10518
▁컴퓨팅 -10519
▁퍼포먼스 -10520
▁욕망 -10521
ical -10522
▁비밀리 -10523
▁서대문 -10524
▁뉴클레오 -10525
바흐 -10526
▁제물 -10527
▁캐롤 -10528
lat -10529
▁카피 -10530
▁타스 -10531
신문 -10532
▁전무 -10533
▁테리 -10534
▁포식 -10535
▁뛰어들 -10536
▁알프스 -10537
▁유권자 -10538
▁자치주 -10539
▁원통 -10540
▁메이커 -10541
EG -10542
TP -10543
히트 -10544
▁드루 -10545
▁마셜 -10546
▁마술 -10547
▁유아기 -10548
▁친위대 -10549
▁벅 -10550
러브 -10551
환경 -10552
▁도교 -10553
▁보수당 -10554
▁스폰서 -10555
▁프린스 -10556
▁박종 -10557
▁방콕 -10558
▁ABC -10559
▁마천루 -10560
▁와이번스 -10561
암동 -10562
▁리보 -10563
▁색소 -10564
▁수복 -10565
▁엄밀 -10566
▁프론 -10567
▁김유 -10568
▁매리 -10569
▁소음 -10570
▁실정 -10571
▁ATP -10572
▁바이트 -10573
▁예수회 -10574
IR -10575
▁CH -10576
▁럭비 -10577
▁다저스 -10578
▁로드리 -10579
▁고든 -10580
▁모어 -10581
▁묘비 -10582
▁헬싱 -10583
▁황소 -10584
메드 -10585
▁AV -10586
▁강령 -10587
▁리베 -10588
▁본성 -10589
▁불변 -10590
▁블레 -10591
▁천국 -10592
▁대원군 -10593
▁구내 -10594
▁치과 -10595
▁플라톤 -10596
▁북아일랜드 -10597
▁멧 -10598
▁DD -10599
▁넷째 -10600
▁상행 -10601
▁야드 -10602
▁웨인 -10603
▁개구리 -10604
▁방어선 -10605
▁피아니스트 -10606
▁마켓 -10607
▁시몬 -10608
▁일리 -10609
▁장시 -10610
▁전담 -10611
▁천거 -10612
▁톈진 -10613
▁파손 -10614
▁마누엘 -10615
▁투자자 -10616
▁피라미 -10617
▁연극배우 -10618
▁나인 -10619
▁도둑 -10620
▁이점 -10621
▁추이 -10622
▁포토 -10623
매매 -10624
▁영유 -10625
▁폭파 -10626
▁정부군 -10627
▁콘테스트 -10628
▁삼존 -10629
▁절망 -10630
▁210 -10631
▁나트륨 -10632
▁용인시 -10633
▁샐 -10634
are -10635
▁대본 -10636
▁리사 -10637
▁실권 -10638
▁오리온 -10639
▁화강암 -10640
덴부르크 -10641
▁헤르체고비나 -10642
▁구실 -10643
▁벤처 -10644
▁약사 -10645
▁특전 -10646
▁튀르크 -10647
▁프레데 -10648
군다 -10649
놀이 -10650
대교 -10651
▁Fr -10652
▁선천 -10653
▁스칸 -10654
▁슬하 -10655
▁퇴직 -10656
▁주차장 -10657
▁pr -10658
▁왕권 -10659
▁선구자 -10660
▁알파벳 -10661
▁동로 -10662
▁야전 -10663
▁침묵 -10664
▁아나톨 -10665
티넘 -10666
▁Ma -10667
▁무실 -10668
▁정거 -10669
▁찬양 -10670
▁홀리 -10671
▁적외선 -10672
▁토스카 -10673
▁플래티넘 -10674
부르 -10675
ica -10676
▁마에 -10677
▁스텝 -10678
▁쾰른 -10679
▁목요일 -10680
▁가브리엘 -10681
EL -10682
FL -10683
▁노론 -10684
▁백두 -10685
▁소극 -10686
▁경전철 -10687
▁결별 -10688
▁국공 -10689
▁위그 -10690
▁중퇴 -10691
▁채취 -10692
▁별세 -10693
▁책임지 -10694
▁1889 -10695
▁he -10696
▁가락 -10697
▁밸리 -10698
▁유선 -10699
▁따지 -10700
▁뭉치 -10701
▁봉화 -10702
▁준수 -10703
▁차출 -10704
▁화약 -10705
공산당 -10706
▁유격수 -10707
사고 -10708
▁리본 -10709
▁사방 -10710
▁앞장서 -10711
수스 -10712
▁대북 -10713
▁부치 -10714
▁소중 -10715
▁아날 -10716
▁영정 -10717
▁이의 -10718
▁동시대 -10719
▁가맹 -10720
▁감찰 -10721
▁본작 -10722
▁송신 -10723
▁슬픔 -10724
▁제노 -10725
▁가이드 -10726
60 -10727
▁방치 -10728
▁아이폰 -10729
▁스카우트 -10730
▁로크 -10731
▁실록 -10732
▁켈트 -10733
▁호대 -10734
▁연산군 -10735
난성 -10736
대표 -10737
천동 -10738
▁요충 -10739
▁오바마 -10740
▁정의당 -10741
▁패트릭 -10742
충류 -10743
▁베트 -10744
▁딥 -10745
▁반포 -10746
▁직통 -10747
▁초신성 -10748
말리 -10749
▁갈아 -10750
▁강렬 -10751
▁여유 -10752
▁정형 -10753
테이너 -10754
소통 -10755
클레 -10756
▁공존 -10757
▁대영 -10758
▁종식 -10759
▁주계 -10760
▁투여 -10761
▁하시 -10762
▁기관지 -10763
▁밴쿠버 -10764
▁사로잡 -10765
▁안테나 -10766
카리 -10767
▁So -10768
▁여권 -10769
▁임정 -10770
▁중합 -10771
▁엔트리 -10772
▁간첩 -10773
▁니혼 -10774
▁다윈 -10775
▁당연 -10776
▁비엔 -10777
▁산성 -10778
▁삼림 -10779
▁전전 -10780
▁모금 -10781
▁새우 -10782
▁야시 -10783
▁의류 -10784
▁칸국 -10785
▁CONCA -10786
▁늙 -10787
위안 -10788
▁이송 -10789
▁한미 -10790
▁미수 -10791
▁불량 -10792
▁비야 -10793
▁메디치 -10794
▁의사소통 -10795
▁타이거스 -10796
▁불참 -10797
▁연말 -10798
▁영예 -10799
▁중수 -10800
▁형질 -10801
▁For -10802
▁리프트 -10803
▁잇따르 -10804
▁CONCACAF -10805
▁구르 -10806
▁김형 -10807
▁플리 -10808
▁고속버스 -10809
드레 -10810
▁능하 -10811
▁도망가 -10812
▁접어들 -10813
▁Live -10814
부로 -10815
▁로트 -10816
▁우림 -10817
▁유목 -10818
▁정읍 -10819
▁말미암 -10820
▁센티미터 -10821
▁건전 -10822
▁구두 -10823
▁김준 -10824
▁라리 -10825
▁사서 -10826
▁시크 -10827
와라노 -10828
▁타이어 -10829
▁후지와라노 -10830
▁감성 -10831
▁라자 -10832
▁모하 -10833
▁받치 -10834
▁사설 -10835
▁집정 -10836
▁치루 -10837
▁감상 -10838
▁격리 -10839
▁금호 -10840
▁무형 -10841
▁아끼 -10842
▁의령 -10843
▁인가 -10844
▁지자 -10845
▁피지 -10846
▁JTBC -10847
▁떨어뜨리 -10848
▁미야자키 -10849
▁예약 -10850
▁정종 -10851
▁종자 -10852
▁판례 -10853
▁프란체스코 -10854
sh -10855
▁권하 -10856
▁앙골 -10857
▁절정 -10858
휴일 -10859
▁매트 -10860
▁수락 -10861
▁왕건 -10862
bo -10863
란토 -10864
▁원군 -10865
▁은거 -10866
▁캐리 -10867
▁쿠퍼 -10868
▁하야 -10869
▁똑같이 -10870
▁스트로 -10871
▁시네마 -10872
▁가나가와현 -10873
바나 -10874
▁사탕 -10875
▁애정 -10876
▁작물 -10877
▁후배 -10878
▁낙동강 -10879
▁로마인 -10880
▁백과 -10881
블랜드 -10882
▁두려움 -10883
▁카탈루냐 -10884
프로 -10885
▁메소 -10886
▁열강 -10887
▁훙 -10888
▁습윤 -10889
▁요격 -10890
▁치환 -10891
▁Sou -10892
▁열심히 -10893
▁나카무라 -10894
▁가도 -10895
▁송출 -10896
▁잠정 -10897
▁자유민주당 -10898
EE -10899
▁그저 -10900
▁금산 -10901
▁기이 -10902
▁펌프 -10903
바이트 -10904
▁레이싱 -10905
▁생존자 -10906
가미 -10907
망디 -10908
캐슬 -10909
▁고딕 -10910
▁극우 -10911
▁바지 -10912
하이오 -10913
tern -10914
▁미야기 -10915
▁발라드 -10916
▁오하이오 -10917
▁피라미드 -10918
▁클리블랜드 -10919
▁도피 -10920
▁리옹 -10921
▁서임 -10922
▁프랑스인 -10923
IL -10924
▁가솔 -10925
▁마땅 -10926
▁연정 -10927
▁징수 -10928
지기 -10929
▁GB -10930
▁비준 -10931
도르프 -10932
마르크 -10933
▁AKB -10934
▁소말리아 -10935
▁캅 -10936
▁공소 -10937
▁담보 -10938
▁트렌 -10939
▁int -10940
▁광복군 -10941
지능 -10942
▁김명 -10943
▁모색 -10944
▁평평 -10945
▁여배우 -10946
▁장학금 -10947
▁인공지능 -10948
ood -10949
▁거미 -10950
▁사역 -10951
▁삼중 -10952
대사 -10953
자루 -10954
▁격추 -10955
▁유희 -10956
▁제명 -10957
▁Col -10958
▁Time -10959
▁유니버설 -10960
▁챙 -10961
ost -10962
▁"& -10963
▁여고 -10964
▁정작 -10965
▁항만 -10966
▁Com -10967
▁드디어 -10968
▁레이트 -10969
에미리트 -10970
▁아랍에미리트 -10971
간다 -10972
유예 -10973
▁무네 -10974
▁벨리 -10975
▁성곽 -10976
▁순종 -10977
▁워커 -10978
▁자서 -10979
▁카카오 -10980
▁Part -10981
▁EU -10982
▁목회 -10983
▁암스 -10984
▁유의 -10985
▁추력 -10986
▁페트 -10987
▁검은색 -10988
▁토리노 -10989
추부사 -10990
에몽 -10991
풀이 -10992
현동 -10993
▁가두 -10994
▁당기 -10995
▁한림 -10996
span -10997
▁교통부 -10998
▁기숙사 -10999
▁1848 -11000
▁츄 -11001
거스 -11002
row -11003
▁볼트 -11004
▁수로 -11005
▁뉴캐슬 -11006
ㄱㅜ -11007
▁모욕 -11008
▁무과 -11009
▁서태 -11010
▁탄약 -11011
▁부총리 -11012
▁onlyinclude -11013
찌르 -11014
▁TR -11015
▁문집 -11016
▁하행 -11017
▁마이어 -11018
▁댄서 -11019
▁티아 -11020
▁포털 -11021
▁공휴일 -11022
▁깜 -11023
지부 -11024
화문 -11025
▁로얄 -11026
▁해태 -11027
▁해피 -11028
▁악보 -11029
▁재팬 -11030
프랑크 -11031
▁간신히 -11032
▁여의도 -11033
▁라르 -11034
▁매킨 -11035
▁사쓰 -11036
▁오만 -11037
▁우한 -11038
▁익숙 -11039
▁추억 -11040
▁튀니지 -11041
▁카스티야 -11042
uc -11043
애미 -11044
정동 -11045
▁급여 -11046
▁김광 -11047
▁절벽 -11048
▁토트 -11049
▁해독 -11050
▁대니얼 -11051
▁라이더 -11052
▁브레이 -11053
▁마이애미 -11054
▁프랑스령 -11055
나마 -11056
의사 -11057
lay -11058
▁보령 -11059
▁셀레 -11060
▁재일 -11061
▁대승불교 -11062
▁볼로 -11063
▁음절 -11064
▁레이더 -11065
▁우루스 -11066
▁일본국 -11067
▁지상파 -11068
ous -11069
▁남군 -11070
▁비토 -11071
▁여사 -11072
▁유식 -11073
▁천주 -11074
▁페트로 -11075
▁고인돌 -11076
▁도래 -11077
▁무안 -11078
▁병자 -11079
▁양심 -11080
▁종군 -11081
페스트 -11082
▁국제법 -11083
▁법원장 -11084
▁정치학 -11085
▁치카 -11086
▁특화 -11087
파니아 -11088
▁무찌르 -11089
▁바그너 -11090
▁부딪히 -11091
▁스타트 -11092
ows -11093
▁사민 -11094
▁인칭 -11095
▁코리 -11096
▁한중 -11097
olog -11098
▁국한 -11099
▁랴오 -11100
▁조인 -11101
▁클라우 -11102
▁관현악단 -11103
메니 -11104
▁공대 -11105
▁교의 -11106
▁굴절 -11107
▁산둥 -11108
▁클러 -11109
▁SNS -11110
▁명확히 -11111
▁시멘트 -11112
▁EM -11113
▁가혹 -11114
▁비정 -11115
▁업자 -11116
▁워즈 -11117
▁Bla -11118
▁시코쿠 -11119
▁정거장 -11120
▁제위 -11121
해살이 -11122
▁그랜트 -11123
▁지배자 -11124
▁경복 -11125
▁공성 -11126
▁로키 -11127
▁리카 -11128
▁부평 -11129
▁보수주의 -11130
▁모건 -11131
▁안개 -11132
▁API -11133
▁카메룬 -11134
▁어시스트 -11135
▁줄기세포 -11136
히사 -11137
▁김인 -11138
▁비대 -11139
▁황색 -11140
▁에이즈 -11141
OP -11142
브로 -11143
▁단결 -11144
▁류큐 -11145
▁방대 -11146
▁선명 -11147
▁항체 -11148
클리드 -11149
▁마법사 -11150
▁저지대 -11151
도라 -11152
▁가쿠 -11153
▁평지 -11154
▁대리인 -11155
▁제우스 -11156
orn -11157
▁명소 -11158
▁부다 -11159
▁연립 -11160
▁아이즈 -11161
▁at -11162
▁거란 -11163
▁문단 -11164
▁숙부 -11165
▁총격 -11166
▁케르 -11167
▁131 -11168
az -11169
ann -11170
▁사수 -11171
▁안방 -11172
▁용액 -11173
▁적료 -11174
▁하노버 -11175
▁쾨 -11176
▁글꼴 -11177
▁마테 -11178
빌라이 -11179
▁대나무 -11180
▁고로 -11181
▁귀신 -11182
▁종양 -11183
▁NASA -11184
▁Your -11185
▁욱 -11186
▁쪼 -11187
서스 -11188
칼리 -11189
▁메일 -11190
▁모빌 -11191
▁서귀 -11192
▁전한 -11193
▁점포 -11194
▁지법 -11195
▁레드삭스 -11196
시노 -11197
▁검거 -11198
▁베어 -11199
▁하코 -11200
메이카 -11201
▁헤어지 -11202
▁자메이카 -11203
▁녕 -11204
▁BC -11205
▁동산 -11206
▁선봉 -11207
▁신곡 -11208
▁지석 -11209
▁곶 -11210
▁공영 -11211
▁기와 -11212
▁남방 -11213
▁재편 -11214
▁영화상 -11215
▁제이슨 -11216
▁1883 -11217
▁대마 -11218
▁설문 -11219
▁항우 -11220
드리아 -11221
▁OST -11222
▁ref -11223
▁정보원 -11224
▁u -11225
른스트 -11226
▁몰아 -11227
▁사림 -11228
▁수식 -11229
▁오디 -11230
▁초콜 -11231
▁탄자 -11232
▁한신 -11233
▁라파엘 -11234
▁계주 -11235
▁도키 -11236
▁부합 -11237
▁방사능 -11238
▁줄리아 -11239
▁텍사스주 -11240
지아 -11241
▁골격 -11242
▁모범 -11243
▁연희 -11244
▁응급 -11245
네그로 -11246
레스트 -11247
▁날아가 -11248
▁부상자 -11249
▁교향악단 -11250
으로 -11251
▁다툼 -11252
▁쌍대 -11253
▁중엽 -11254
▁관상 -11255
▁동진 -11256
▁식스 -11257
▁혼다 -11258
▁그라운드 -11259
80 -11260
관계 -11261
▁근사 -11262
▁기세 -11263
▁다듬 -11264
▁무작 -11265
▁속력 -11266
▁진로 -11267
▁대단히 -11268
▁패러디 -11269
▁간략 -11270
▁대좌 -11271
▁삽화 -11272
▁코소 -11273
▁피리 -11274
▁대법관 -11275
▁비서관 -11276
▁연구회 -11277
▁가우 -11278
▁유공 -11279
▁형벌 -11280
▁에스페 -11281
▁판소리 -11282
▁노르망디 -11283
▁프로그래머 -11284
▁메스 -11285
▁병마 -11286
▁본뜨 -11287
▁전보 -11288
▁편견 -11289
▁하남 -11290
▁프란치 -11291
▁tv -11292
▁가토 -11293
▁산요 -11294
▁온난 -11295
▁유우 -11296
▁자명 -11297
▁고분군 -11298
▁뫼 -11299
▁도박 -11300
▁야외 -11301
▁우산 -11302
▁절감 -11303
▁최진 -11304
▁카네 -11305
▁경위 -11306
▁녹화 -11307
▁니키 -11308
▁실증 -11309
▁쿠빌라이 -11310
▁Ge -11311
▁노면 -11312
▁단군 -11313
▁이터 -11314
▁만화가 -11315
▁라바 -11316
▁리마 -11317
▁콘솔 -11318
▁큐브 -11319
▁에이전 -11320
▁이용객 -11321
▁파일럿 -11322
▁해상도 -11323
센스 -11324
합성 -11325
ern -11326
▁공무 -11327
▁리즈 -11328
▁봉인 -11329
▁소외 -11330
▁열전 -11331
▁월터 -11332
▁위구르 -11333
▁토마토 -11334
▁GM -11335
▁RP -11336
▁유생 -11337
▁해안선 -11338
▁야마가타 -11339
▁콥 -11340
▁안나 -11341
▁평판 -11342
▁함량 -11343
▁성동 -11344
▁요절 -11345
▁은혜 -11346
▁카마 -11347
▁1882 -11348
▁Wind -11349
▁촛 -11350
버른 -11351
▁가중 -11352
▁고흥 -11353
▁북군 -11354
▁타락 -11355
▁체인지 -11356
40 -11357
▁고노 -11358
▁기전 -11359
▁꺼내 -11360
▁부왕 -11361
▁스루 -11362
▁조교 -11363
▁슈퍼컵 -11364
▁봇 -11365
워스 -11366
제품 -11367
프턴 -11368
▁거성 -11369
▁기량 -11370
▁덮개 -11371
▁받들 -11372
▁세습 -11373
▁송파 -11374
▁최선 -11375
스트리 -11376
▁Day -11377
▁다이어 -11378
▁스칼라 -11379
ink -11380
▁간사 -11381
▁권역 -11382
▁모세 -11383
용차 -11384
포시 -11385
▁가고 -11386
▁관례 -11387
▁친족 -11388
▁후진 -11389
▁올리브 -11390
▁원산지 -11391
CC -11392
토프 -11393
▁고생 -11394
▁몰타 -11395
▁발상 -11396
▁엔드 -11397
▁데니스 -11398
▁유서 -11399
▁학력 -11400
▁가솔린 -11401
▁아이언 -11402
▁중소기업 -11403
II -11404
▁FK -11405
▁SA -11406
▁국외 -11407
▁라디 -11408
▁수위 -11409
▁우시 -11410
▁정월 -11411
에고 -11412
▁RS -11413
▁ㅅㅕ -11414
▁내일 -11415
▁루키 -11416
▁배분 -11417
▁범하 -11418
▁상어 -11419
▁아날로그 -11420
교통 -11421
돌이 -11422
▁수다 -11423
▁왕궁 -11424
▁항원 -11425
▁단체전 -11426
▁통신사 -11427
▁단정 -11428
▁조셉 -11429
▁대표자 -11430
치히 -11431
▁무섭 -11432
▁사영 -11433
▁아목 -11434
▁주선 -11435
▁앗 -11436
▁관악 -11437
오르크 -11438
▁Sch -11439
▁연장전 -11440
▁관목 -11441
▁국교 -11442
▁제천 -11443
▁플러 -11444
▁헬레 -11445
▁330 -11446
▁공화정 -11447
▁미스터리 -11448
▁단속 -11449
▁요양 -11450
▁재래 -11451
▁직속 -11452
▁해운대 -11453
▁시즈오카 -11454
서니 -11455
▁강당 -11456
▁급증 -11457
▁딜런 -11458
▁상록 -11459
▁최영 -11460
▁경주시 -11461
▁노벨상 -11462
▁선진국 -11463
▁예컨대 -11464
▁전반기 -11465
▁카스트 -11466
▁관계없이 -11467
▁브루클린 -11468
데라 -11469
▁결사 -11470
▁멋지 -11471
▁시안 -11472
▁정정 -11473
▁지극 -11474
▁미토콘 -11475
▁미토콘드리아 -11476
▁고의 -11477
▁배달 -11478
▁씨족 -11479
▁위로 -11480
▁사로잡히 -11481
게스 -11482
여객 -11483
▁부교 -11484
▁위조 -11485
▁파벌 -11486
▁협업 -11487
▁후예 -11488
▁지붕돌 -11489
▁파푸아 -11490
▁필립스 -11491
▁호스트 -11492
▁도네 -11493
▁산시 -11494
▁성원 -11495
▁자수 -11496
▁장덕 -11497
▁주창 -11498
▁북유럽 -11499
▁휴게소 -11500
갈리 -11501
본부 -11502
▁사학 -11503
▁외래 -11504
▁레오폴 -11505
▁사업소 -11506
▁제갈량 -11507
▁테네시 -11508
▁세련 -11509
▁정은 -11510
▁new -11511
▁단말 -11512
▁붙잡 -11513
▁빙하 -11514
▁소프 -11515
▁어기 -11516
▁콜럼 -11517
▁영원히 -11518
▁4000 -11519
▁수열 -11520
▁멜버른 -11521
▁부르주 -11522
▁유클리드 -11523
융합 -11524
▁동포 -11525
▁라미 -11526
▁램프 -11527
▁영덕 -11528
▁타수 -11529
▁대상자 -11530
▁컨테이너 -11531
OT -11532
▁규탄 -11533
▁번창 -11534
▁보름 -11535
▁염려 -11536
▁베이커 -11537
▁안티오 -11538
팡이 -11539
▁OB -11540
▁넬슨 -11541
▁베풀 -11542
▁사치 -11543
▁어파 -11544
▁회귀 -11545
▁산티아 -11546
▁괌 -11547
▁몹 -11548
ㅇㅏ -11549
▁과테 -11550
▁제단 -11551
▁피핀 -11552
▁할인 -11553
스탄불 -11554
▁1868 -11555
▁과테말라 -11556
▁사이타마 -11557
▁이스탄불 -11558
▁Or -11559
▁남하 -11560
▁랭크 -11561
▁일각 -11562
▁조슈 -11563
▁중공군 -11564
▁핵융합 -11565
▁Girl -11566
▁동적 -11567
▁국정원 -11568
▁앙골라 -11569
US -11570
▁밝혀 -11571
▁보루 -11572
▁선대 -11573
▁얽히 -11574
티모어 -11575
▁군사력 -11576
▁스캔들 -11577
▁메릴랜드 -11578
▁컨트롤러 -11579
▁서면 -11580
▁잠깐 -11581
▁요충지 -11582
▁냥 -11583
▁신입 -11584
▁종영 -11585
▁태후 -11586
oll -11587
▁겨루 -11588
▁발동 -11589
▁파시즘 -11590
▁몬테네그로 -11591
ㄷㅐ -11592
협회 -11593
▁객차 -11594
▁노사 -11595
▁범행 -11596
▁표정 -11597
▁주계열 -11598
▁군벌 -11599
▁충렬 -11600
▁형편 -11601
▁우의정 -11602
▁폐기물 -11603
▁사회민주당 -11604
▁버터 -11605
▁기념일 -11606
히드 -11607
▁대인 -11608
▁사안 -11609
▁청도 -11610
▁이바지 -11611
▁고트 -11612
▁농지 -11613
▁부파 -11614
▁사천 -11615
▁양보 -11616
▁트이 -11617
▁하의 -11618
▁항로 -11619
펜하겐 -11620
▁밝혀내 -11621
▁프랜차 -11622
▁코펜하겐 -11623
▁colspan -11624
▁배리 -11625
▁전수 -11626
▁천수 -11627
▁독수리 -11628
▁너머 -11629
▁노후 -11630
▁영암 -11631
▁영월 -11632
▁오아 -11633
▁저조 -11634
▁ㅅㅕㄴ -11635
▁급속히 -11636
▁신주쿠 -11637
▁히브리 -11638
지리 -11639
▁다우 -11640
▁우왕 -11641
▁우월 -11642
▁320 -11643
▁김옥균 -11644
▁너무나 -11645
▁오스틴 -11646
▁커리어 -11647
▁프란시스코 -11648
▁위촉 -11649
▁차선 -11650
▁카세 -11651
▁요하네스 -11652
▁강행 -11653
▁교직 -11654
▁뒤이 -11655
▁법관 -11656
▁성산 -11657
▁식용 -11658
▁장병 -11659
▁초안 -11660
▁추서 -11661
▁라인업 -11662
▁베르나르 -11663
▁아케이드 -11664
해자 -11665
▁대청 -11666
▁러일 -11667
▁사비 -11668
▁아유 -11669
▁족보 -11670
▁카툰 -11671
▁end -11672
우에 -11673
▁준장 -11674
▁헌장 -11675
▁수요일 -11676
▁효고현 -11677
다운 -11678
당기 -11679
호란 -11680
▁대덕 -11681
▁밀레 -11682
▁양수 -11683
▁이메 -11684
웨이트 -11685
디나비아 -11686
▁야마모토 -11687
▁사운드트랙 -11688
▁암스테르담 -11689
▁프랜차이즈 -11690
▁스칸디나비아 -11691
바오 -11692
▁소아 -11693
▁외과 -11694
▁외형 -11695
▁청계 -11696
▁타리 -11697
▁사이먼 -11698
▁오일러 -11699
▁상국 -11700
▁은신 -11701
▁정령 -11702
▁치하 -11703
ㄲㅡㅁ -11704
▁슌 -11705
▁끊기 -11706
▁이항 -11707
▁종신 -11708
▁증폭 -11709
▁컨설 -11710
▁좌의정 -11711
gin -11712
▁DF -11713
▁거처 -11714
▁대도 -11715
▁복종 -11716
▁샤프 -11717
▁절제 -11718
▁축산 -11719
토리코 -11720
▁LED -11721
▁무실점 -11722
▁자서전 -11723
▁게오르크 -11724
꼬리 -11725
▁by -11726
▁도상 -11727
▁우연 -11728
▁출동 -11729
▁피치 -11730
▁로마자 -11731
▁니콜라스 -11732
공주 -11733
▁자재 -11734
▁직행 -11735
▁타일 -11736
▁피드 -11737
▁산티아고 -11738
▁코스타리카 -11739
▁찢 -11740
▁고온 -11741
▁교부 -11742
▁네티 -11743
▁문종 -11744
▁전세 -11745
▁타로 -11746
아다니 -11747
▁브뤼셀 -11748
걸이 -11749
▁시비 -11750
▁위력 -11751
▁치유 -11752
▁서해안 -11753
▁어웨이 -11754
▁천안시 -11755
▁헤이안 -11756
▁에른스트 -11757
▁렛 -11758
니파 -11759
단지 -11760
셀러 -11761
amp -11762
▁내분 -11763
▁동향 -11764
▁조영 -11765
▁데이브 -11766
▁리믹스 -11767
▁시트콤 -11768
▁육군사관학교 -11769
LA -11770
계승 -11771
웍스 -11772
▁양대 -11773
▁법조인 -11774
▁함경북도 -11775
▁놈 -11776
▁각료 -11777
▁금전 -11778
▁김선 -11779
▁노아 -11780
▁능동 -11781
▁성악 -11782
▁순차 -11783
▁습관 -11784
▁증오 -11785
▁호아 -11786
▁발전기 -11787
▁텔레콤 -11788
▁푸에르토리코 -11789
어넣 -11790
익스 -11791
▁거지 -11792
▁망치 -11793
▁서주 -11794
▁슈테 -11795
▁스콜 -11796
▁정몽 -11797
▁주성 -11798
▁데려가 -11799
▁유학자 -11800
RT -11801
▁갯 -11802
▁결핵 -11803
▁공안 -11804
▁모차 -11805
▁브릿 -11806
▁아흐 -11807
▁정반 -11808
▁복음주의 -11809
▁내무 -11810
▁칭송 -11811
▁포르노 -11812
▁쿠웨이트 -11813
▁맬 -11814
▁김윤 -11815
▁박성 -11816
▁분사 -11817
▁압록 -11818
▁이우 -11819
▁잔인 -11820
▁폐렴 -11821
▁피크 -11822
▁펠릭스 -11823
▁1893 -11824
▁늪 -11825
북구 -11826
▁리튬 -11827
▁안무 -11828
▁측량 -11829
▁켄트 -11830
▁서사시 -11831
▁위안부 -11832
▁윗부분 -11833
▁여성주의 -11834
▁김승 -11835
▁문무 -11836
▁이회 -11837
▁정재 -11838
▁출자 -11839
▁코네 -11840
▁203 -11841
▁280 -11842
▁IOC -11843
▁결과물 -11844
▁장로교 -11845
▁가고시마 -11846
▁루이지애나 -11847
gr -11848
나기 -11849
▁백악 -11850
▁영천 -11851
▁천마 -11852
▁편향 -11853
▁학장 -11854
▁해왕 -11855
▁후유 -11856
퍼레이션 -11857
▁이탈리아어 -11858
게임 -11859
세유 -11860
▁le -11861
▁배드 -11862
▁수량 -11863
▁유족 -11864
▁이황 -11865
▁점거 -11866
▁축전 -11867
▁함흥 -11868
▁탄자니아 -11869
▁Fe -11870
▁리코 -11871
▁척도 -11872
▁첼로 -11873
▁퍼즐 -11874
▁화장품 -11875
OW -11876
려들 -11877
▁생리 -11878
▁심포 -11879
▁온화 -11880
▁전학 -11881
▁접종 -11882
▁조제 -11883
▁하타 -11884
▁한번 -11885
▁흡사 -11886
로이드 -11887
▁교육자 -11888
▁도자기 -11889
▁국철 -11890
▁배양 -11891
▁원활 -11892
▁차츰 -11893
▁천천 -11894
▁충무 -11895
▁민병대 -11896
▁트리오 -11897
▁해안가 -11898
▁마이크로 -11899
상시 -11900
ung -11901
▁관우 -11902
▁긴밀 -11903
▁선인 -11904
▁소대 -11905
▁전락 -11906
▁주심 -11907
▁짐승 -11908
▁집착 -11909
▁톰슨 -11910
▁로베르 -11911
▁부르고 -11912
몬트 -11913
화학 -11914
▁Mo -11915
▁금동 -11916
▁레프 -11917
▁이아 -11918
▁톱니 -11919
ㄹㄹㅏ -11920
▁그만큼 -11921
▁서초구 -11922
▁유적지 -11923
les -11924
▁김치 -11925
▁헤로 -11926
▁톡 -11927
▁고집 -11928
▁라카 -11929
▁박상 -11930
▁우두 -11931
▁한큐 -11932
▁노미야 -11933
▁Comp -11934
▁NP -11935
▁관성 -11936
▁대종 -11937
▁도우 -11938
▁분단 -11939
▁조니 -11940
▁한문 -11941
라이드 -11942
▁가라앉 -11943
▁데일리 -11944
▁비스타 -11945
▁아라곤 -11946
▁천천히 -11947
▁후쿠오카현 -11948
독립 -11949
▁불경 -11950
▁칼슘 -11951
▁헌터 -11952
▁동맹국 -11953
▁아우르 -11954
▁김천 -11955
▁데드 -11956
▁Univers -11957
레드 -11958
티에 -11959
▁마타 -11960
▁미성 -11961
▁버섯 -11962
▁아츠 -11963
▁앤디 -11964
▁플랑크 -11965
▁Rock -11966
▁바울 -11967
▁하급 -11968
▁도야마 -11969
▁스포르 -11970
▁컬렉션 -11971
aw -11972
▁끓이 -11973
▁주세 -11974
▁탈취 -11975
▁강화도 -11976
▁녹색당 -11977
▁불계승 -11978
▁철저히 -11979
▁픽처스 -11980
▁레인저스 -11981
▁덥 -11982
▁핏 -11983
eth -11984
▁간직 -11985
▁노랑 -11986
▁에마 -11987
▁전미 -11988
루이스 -11989
▁Car -11990
▁TBS -11991
▁동맹군 -11992
▁격려 -11993
▁과시 -11994
▁도이 -11995
▁도출 -11996
▁림프 -11997
▁버러 -11998
▁아메 -11999
▁장녀 -12000
▁촐 -12001
▁Am -12002
▁공양 -12003
▁심부 -12004
▁휴양 -12005
▁발사체 -12006
▁초콜릿 -12007
▁도카이도 -12008
▁라흐 -12009
▁우울증 -12010
▁미나모토 -12011
▁참모총장 -12012
oth -12013
▁격하 -12014
▁애인 -12015
▁오하 -12016
▁월트 -12017
▁페더 -12018
익스피어 -12019
들러 -12020
업자 -12021
▁라즈 -12022
▁비지 -12023
▁시속 -12024
▁자진 -12025
▁점검 -12026
▁황산 -12027
▁Rec -12028
▁셰익스피어 -12029
▁갚 -12030
▁AB -12031
▁사귀 -12032
▁소사 -12033
▁심상 -12034
▁현판 -12035
▁후하 -12036
▁GNU -12037
▁베르타 -12038
▁순양함 -12039
▁에스페란토 -12040
▁대차 -12041
▁명인 -12042
▁에로 -12043
▁Sup -12044
▁고려대 -12045
▁인공위성 -12046
▁플로리다주 -12047
폭탄 -12048
▁강진 -12049
▁까마 -12050
▁낚시 -12051
▁노프 -12052
▁당뇨 -12053
▁미츠 -12054
▁230 -12055
▁로스쿨 -12056
▁스탠리 -12057
▁from -12058
▁부르고뉴 -12059
▁핼 -12060
▁막판 -12061
▁무단 -12062
▁사상가 -12063
▁케이크 -12064
ublic -12065
▁유영 -12066
민스터 -12067
▁게오르 -12068
▁마르세유 -12069
▁상관없이 -12070
▁중앙은행 -12071
국적 -12072
▁구독 -12073
▁서스 -12074
▁이범 -12075
▁지바현 -12076
▁가와사키 -12077
▁귀속 -12078
▁기쁨 -12079
▁마트 -12080
▁바비 -12081
▁스킴 -12082
▁카레 -12083
▁파편 -12084
▁서바이 -12085
▁프리스 -12086
▁가르시아 -12087
▁IV -12088
▁굳히 -12089
▁반동 -12090
▁상정 -12091
▁심문 -12092
▁피사 -12093
▁향기 -12094
▁Do -12095
▁대진 -12096
▁스투 -12097
▁기업가 -12098
▁물려주 -12099
태평 -12100
트르 -12101
헤드 -12102
▁가부 -12103
▁구치 -12104
▁네모 -12105
▁미아 -12106
▁배역 -12107
▁울릉 -12108
▁밀려나 -12109
▁1888 -12110
▁율리우스 -12111
유사 -12112
▁견고 -12113
▁구금 -12114
▁발목 -12115
▁청량 -12116
▁청송 -12117
▁특사 -12118
▁페오 -12119
▁로빈슨 -12120
▁쇠고기 -12121
▁시우 -12122
▁운임 -12123
▁경계선 -12124
▁노스캐롤라이나 -12125
그마 -12126
바리 -12127
▁Su -12128
▁닉슨 -12129
▁백자 -12130
▁슈타 -12131
▁용품 -12132
▁유포 -12133
▁흥분 -12134
▁로이드 -12135
▁세비야 -12136
▁이바라 -12137
▁하이퍼 -12138
AI -12139
▁끼우 -12140
▁대접 -12141
▁배기 -12142
▁아와 -12143
▁수나라 -12144
▁펠리페 -12145
▁꾸리 -12146
▁명부 -12147
▁산수 -12148
▁조롱 -12149
▁국제선 -12150
▁평안도 -12151
▁휘말리 -12152
▁Sw -12153
▁대주 -12154
▁메틸 -12155
▁사키 -12156
▁성기 -12157
▁글래스 -12158
▁애덤스 -12159
▁ar -12160
▁붕어 -12161
▁사커 -12162
▁입헌 -12163
▁재차 -12164
▁1892 -12165
▁공법 -12166
▁시문 -12167
▁에바 -12168
▁다이빙 -12169
▁산스크 -12170
▁박테리아 -12171
▁산스크리트 -12172
▁푹 -12173
▁동종 -12174
▁리차 -12175
▁매달 -12176
▁코사 -12177
▁수차례 -12178
▁프로모 -12179
▁허드슨 -12180
▁우에스기 -12181
▁깁 -12182
홍색 -12183
▁유무 -12184
▁제창 -12185
▁제철 -12186
▁펠트 -12187
▁다카라 -12188
▁대전차 -12189
▁소학교 -12190
▁절도사 -12191
▁케이트 -12192
▁러시아군 -12193
둘기 -12194
자동 -12195
▁낙양 -12196
▁농축 -12197
▁새뮤 -12198
▁연회 -12199
▁대명사 -12200
▁문자열 -12201
▁자라나 -12202
▁쫓아내 -12203
비크 -12204
▁모던 -12205
▁물결 -12206
▁미식 -12207
▁사변 -12208
미디어 -12209
▁대공국 -12210
암리 -12211
연수 -12212
티노 -12213
▁계량 -12214
▁니켈 -12215
▁산청 -12216
▁어의 -12217
▁온대 -12218
▁재발 -12219
▁스테판 -12220
▁데스크톱 -12221
▁펩 -12222
▁고스 -12223
▁데미 -12224
▁웃음 -12225
▁자립 -12226
▁공방전 -12227
AE -12228
보리 -12229
▁wh -12230
▁군데 -12231
▁납부 -12232
▁라드 -12233
▁옥타 -12234
▁재앙 -12235
▁주먹 -12236
▁해병 -12237
▁레이디 -12238
다오 -12239
▁공시 -12240
▁나뭇 -12241
▁자코 -12242
▁직계 -12243
▁하임 -12244
▁볼로냐 -12245
▁앤서니 -12246
▁CG -12247
▁IR -12248
▁선양 -12249
▁완도 -12250
▁위계 -12251
▁조개 -12252
▁카야 -12253
▁더블린 -12254
▁북조선 -12255
▁차세대 -12256
▁활동가 -12257
▁프레임워크 -12258
▁강성 -12259
▁불사 -12260
▁생모 -12261
▁중고 -12262
▁관현악 -12263
▁사간원 -12264
▁스탠드 -12265
▁조선왕 -12266
ah -12267
▁복싱 -12268
▁소동 -12269
▁순례 -12270
▁지난 -12271
▁침례 -12272
▁토이 -12273
▁필하 -12274
▁논리학 -12275
▁성매매 -12276
▁아브라 -12277
▁1866 -12278
▁1876 -12279
광성 -12280
▁간혹 -12281
▁손녀 -12282
로니아 -12283
▁지리학 -12284
▁페르난도 -12285
▁가면라이더 -12286
▁알폰 -12287
▁이나 -12288
▁이산 -12289
▁축성 -12290
▁올리버 -12291
▁후원자 -12292
▁베네딕토 -12293
▁프린스턴 -12294
▁펫 -12295
너드 -12296
▁노랗 -12297
▁로브 -12298
▁세레 -12299
▁이봉 -12300
▁장래 -12301
▁전권 -12302
▁고려사 -12303
▁보좌관 -12304
▁서기관 -12305
▁세네갈 -12306
▁1886 -12307
▁굶 -12308
▁뱃 -12309
▁씻 -12310
네트 -12311
뮬러 -12312
사태 -12313
▁군관 -12314
▁원유 -12315
▁파파 -12316
▁Gre -12317
▁USB -12318
▁전주시 -12319
▁알렉산드로스 -12320
네임 -12321
로쿠 -12322
▁도르트 -12323
▁헤라클 -12324
▁웨스트민스터 -12325
EST -12326
▁대금 -12327
▁두각 -12328
▁미미 -12329
▁애초 -12330
▁저우 -12331
▁채색 -12332
▁통폐 -12333
▁펴내 -12334
르타뉴 -12335
▁구스타프 -12336
▁브르타뉴 -12337
▁베이시스트 -12338
분열 -12339
▁co -12340
▁바시 -12341
▁반주 -12342
▁포탄 -12343
▁풍습 -12344
▁교구장 -12345
▁브래드 -12346
▁생리학 -12347
▁이즈미 -12348
철수 -12349
▁소용 -12350
▁송환 -12351
▁아디 -12352
▁정진 -12353
▁죄수 -12354
큐어 -12355
▁거룩 -12356
▁번갈 -12357
▁부양 -12358
▁수력 -12359
▁앨리 -12360
▁임계 -12361
▁초전 -12362
▁파커 -12363
▁펀드 -12364
▁합천 -12365
▁드미트리 -12366
▁덱 -12367
▁댓글 -12368
▁발의 -12369
▁서예 -12370
▁조소 -12371
▁260 -12372
▁바이어 -12373
▁사단장 -12374
▁조나라 -12375
▁인플레이션 -12376
직경 -12377
코르 -12378
▁긴키 -12379
▁마나 -12380
▁신진 -12381
▁얼룩 -12382
▁Tour -12383
▁뮐 -12384
다보 -12385
라르 -12386
레시 -12387
▁깃털 -12388
▁마린 -12389
▁면모 -12390
▁270 -12391
▁게시판 -12392
▁덩어리 -12393
▁새뮤얼 -12394
▁시직경 -12395
▁장제스 -12396
▁코소보 -12397
▁펭 -12398
▁너스 -12399
▁맥아 -12400
▁간사이 -12401
▁경영학 -12402
▁보살상 -12403
▁스테인 -12404
우회 -12405
ron -12406
▁음운 -12407
▁일진 -12408
▁퇴위 -12409
▁현과 -12410
▁독립군 -12411
▁사절단 -12412
▁당황 -12413
▁도하 -12414
▁아자 -12415
▁유다 -12416
▁잘리 -12417
▁제르 -12418
▁금나라 -12419
▁삼각주 -12420
▁1887 -12421
▁꽂 -12422
▁부류 -12423
▁비우 -12424
▁약점 -12425
▁유능 -12426
리카락 -12427
▁축구팀 -12428
▁통폐합 -12429
▁머리카락 -12430
▁집행유예 -12431
꿈치 -12432
▁도약 -12433
▁위패 -12434
▁포츠 -12435
▁강서구 -12436
▁이어주 -12437
▁카운트 -12438
▁페미니 -12439
라호 -12440
▁수하 -12441
▁출혈 -12442
▁프루 -12443
▁Wii -12444
▁화요일 -12445
▁브리티시 -12446
슈타 -12447
왕후 -12448
ave -12449
▁ML -12450
▁경무 -12451
▁도제 -12452
▁박수 -12453
▁산물 -12454
▁원상 -12455
▁코호 -12456
▁펠로 -12457
▁서포터 -12458
▁용의자 -12459
▁유전학 -12460
▁도미니카 -12461
쓰기 -12462
지오 -12463
클라 -12464
ble -12465
▁본체 -12466
▁엘런 -12467
▁오산 -12468
▁조현 -12469
land -12470
▁근거지 -12471
▁역사학 -12472
▁마르쿠스 -12473
19 -12474
▁단조 -12475
▁동창 -12476
▁레트 -12477
▁자궁 -12478
▁표하 -12479
▁부분군 -12480
▁1861 -12481
▁모차르트 -12482
제비 -12483
코타 -12484
▁고창 -12485
▁배척 -12486
▁살라 -12487
▁재단법인 -12488
▁Dream -12489
비안 -12490
▁Up -12491
▁it -12492
▁도성 -12493
▁망하 -12494
▁버크 -12495
▁중개 -12496
▁직사 -12497
▁행방 -12498
▁단거리 -12499
▁KB -12500
▁무수 -12501
▁여타 -12502
▁베이비 -12503
▁사쓰마 -12504
▁주니치 -12505
▁프리미엄 -12506
하임 -12507
▁모라 -12508
▁편안 -12509
▁Life -12510
짜기 -12511
▁SV -12512
▁악곡 -12513
▁유머 -12514
▁유타 -12515
▁타구 -12516
▁물류 -12517
▁완결 -12518
▁형용 -12519
▁해결책 -12520
▁황해도 -12521
▁볼티모어 -12522
▁석가모니 -12523
▁클레멘스 -12524
▁가닥 -12525
▁모닝 -12526
▁세분 -12527
▁에리 -12528
러뜨리 -12529
▁민영화 -12530
▁1864 -12531
▁기밀 -12532
▁불분 -12533
▁수이 -12534
▁왕관 -12535
▁이호 -12536
▁지아 -12537
▁나름 -12538
▁박자 -12539
▁오대 -12540
▁데이빗 -12541
▁쏟아지 -12542
▁장애물 -12543
▁좌표계 -12544
콘신 -12545
ult -12546
▁구문 -12547
▁급히 -12548
▁세무 -12549
▁슬램 -12550
▁승단 -12551
▁오메 -12552
▁장전 -12553
▁백악기 -12554
▁신세계 -12555
▁음악원 -12556
▁불러들이 -12557
▁스트리밍 -12558
▁위스콘신 -12559
DA -12560
즐리 -12561
▁교지 -12562
▁라시 -12563
▁익명 -12564
▁공연장 -12565
▁후세인 -12566
▁SH -12567
▁과연 -12568
▁내포 -12569
▁사하 -12570
▁에두 -12571
▁올레 -12572
▁포화 -12573
▁환관 -12574
▁당선자 -12575
플린 -12576
▁광선 -12577
▁꺼리 -12578
▁모국 -12579
▁홀딩 -12580
▁집정관 -12581
▁프랑코 -12582
▁홈경기 -12583
▁다카라즈카 -12584
열차 -12585
▁RT -12586
▁발톱 -12587
▁습득 -12588
▁지면 -12589
솔리니 -12590
▁ㄹㅓㄴ -12591
▁아무리 -12592
▁코스트 -12593
▁남베트남 -12594
▁ㄴㅛ -12595
▁마구 -12596
▁양현 -12597
▁페스 -12598
▁평탄 -12599
▁홍성 -12600
▁바로크 -12601
▁1850 -12602
▁TC -12603
▁과잉 -12604
▁사내 -12605
▁슬프 -12606
▁위시 -12607
▁천지 -12608
▁특기 -12609
▁모나코 -12610
▁마을버스 -12611
▁카르타고 -12612
ational -12613
▁실각 -12614
▁암모 -12615
▁오일 -12616
▁잔디 -12617
▁정예 -12618
EP -12619
▁렙 -12620
▁철강 -12621
▁추존 -12622
▁허블 -12623
ition -12624
▁1881 -12625
디슨 -12626
orm -12627
▁고모 -12628
▁레버 -12629
▁무자 -12630
▁승하 -12631
▁어우 -12632
▁촛불 -12633
▁쿼크 -12634
▁뛰어넘 -12635
▁생성물 -12636
▁컨텐츠 -12637
▁행정동 -12638
브웨 -12639
▁경건 -12640
▁리트 -12641
▁만점 -12642
▁자릿 -12643
▁증세 -12644
▁착하 -12645
▁파직 -12646
▁하얀 -12647
▁홈즈 -12648
바도르 -12649
▁네티즌 -12650
▁보너스 -12651
▁참의원 -12652
▁토트넘 -12653
▁구례 -12654
▁몰두 -12655
▁복위 -12656
▁워킹 -12657
▁짐바 -12658
▁개정안 -12659
▁사나이 -12660
▁싹 -12661
동자 -12662
▁건네 -12663
▁마요 -12664
▁백업 -12665
▁스모 -12666
▁토목 -12667
▁혼혈 -12668
▁히토 -12669
▁요금소 -12670
▁카이로 -12671
▁if -12672
▁관내 -12673
▁노동력 -12674
▁사들이 -12675
▁객원 -12676
▁다행 -12677
▁리에 -12678
▁삼척 -12679
▁푸아 -12680
▁대교구 -12681
▁휘두르 -12682
▁크리에이 -12683
ton -12684
▁괘불 -12685
▁근래 -12686
▁여건 -12687
▁차수 -12688
▁카와 -12689
▁유니버스 -12690
▁Music -12691
▁프란치스코 -12692
▁돗 -12693
린트 -12694
예술 -12695
▁en -12696
▁군세 -12697
▁도산 -12698
▁외환 -12699
▁잠실 -12700
▁1830 -12701
▁루스벨트 -12702
▁방공 -12703
▁산기 -12704
▁아타 -12705
▁에반 -12706
▁이력 -12707
▁재결 -12708
라호마 -12709
▁도라에몽 -12710
▁컴파일러 -12711
▁오클라호마 -12712
니오 -12713
뛰기 -12714
▁공판 -12715
▁구획 -12716
▁뷰티 -12717
▁자판 -12718
▁무작위 -12719
▁외무부 -12720
렌스 -12721
▁동차 -12722
▁쓰루 -12723
▁예의 -12724
▁요괴 -12725
▁재판관 -12726
아메리카 -12727
▁AG -12728
▁계보 -12729
▁남조 -12730
▁더하 -12731
▁말단 -12732
▁부풀 -12733
▁소라 -12734
▁아쉽 -12735
▁코난 -12736
▁가해자 -12737
▁대표단 -12738
▁로맨틱 -12739
▁아카이 -12740
▁XP -12741
▁매진 -12742
▁민물 -12743
▁스몰 -12744
▁오우 -12745
▁왕성 -12746
▁판관 -12747
▁관련자 -12748
▁재판부 -12749
▁화성시 -12750
▁미네소타 -12751
화경 -12752
▁눈치 -12753
▁뒤늦 -12754
▁러닝 -12755
▁전리 -12756
▁침대 -12757
▁패권 -12758
▁헌납 -12759
ㄴㄷㅔ -12760
▁iOS -12761
른베르크 -12762
▁강세 -12763
▁승지 -12764
▁아편 -12765
▁이별 -12766
▁황자 -12767
ject -12768
▁보안법 -12769
▁장난감 -12770
▁경도 -12771
▁목욕 -12772
▁미상 -12773
▁벌레 -12774
▁스윙 -12775
▁재벌 -12776
▁파주 -12777
▁현미 -12778
▁마르셀 -12779
▁야구단 -12780
▁헤라클레스 -12781
▁고하 -12782
▁남송 -12783
▁다비 -12784
▁편하 -12785
▁반대파 -12786
▁압록강 -12787
▁여학생 -12788
▁세르게이 -12789
평리 -12790
▁익산 -12791
▁팔작 -12792
▁까마귀 -12793
▁불분명 -12794
라이어티 -12795
▁버라이어티 -12796
림사 -12797
ION -12798
▁Ed -12799
▁김희 -12800
▁당진 -12801
▁딸리 -12802
▁세간 -12803
▁스기 -12804
▁엿보 -12805
▁파열 -12806
▁돋보이 -12807
▁1872 -12808
▁Open -12809
타입 -12810
▁경매 -12811
▁마티 -12812
▁발포 -12813
▁별장 -12814
▁애슬 -12815
▁정황 -12816
▁찍히 -12817
슬라프 -12818
▁농어촌 -12819
▁바람직 -12820
▁이메일 -12821
달마 -12822
비오 -12823
▁DR -12824
▁관용 -12825
▁금고 -12826
▁루나 -12827
▁몸돌 -12828
▁빅뱅 -12829
▁알맞 -12830
▁양조 -12831
▁이누 -12832
▁켄터 -12833
▁쿠로 -12834
▁감리교 -12835
▁모멘트 -12836
▁이시카와 -12837
▁an -12838
▁체하 -12839
▁주나라 -12840
께끼 -12841
▁닛산 -12842
▁발자 -12843
▁시원 -12844
▁신봉 -12845
▁용사 -12846
▁이은 -12847
▁조경 -12848
▁흑백 -12849
▁750 -12850
▁합창단 -12851
▁수수께끼 -12852
▁트레이닝 -12853
덕왕 -12854
▁te -12855
▁승상 -12856
▁조심 -12857
▁종묘 -12858
▁종업 -12859
▁트란 -12860
▁라치오 -12861
▁무솔리니 -12862
▁유라시아 -12863
어드 -12864
▁BL -12865
▁교동 -12866
▁베일 -12867
▁음주 -12868
▁인제 -12869
브리드 -12870
▁다비드 -12871
▁라이스 -12872
▁롬바르 -12873
▁피닉스 -12874
▁대중교통 -12875
▁부다페스트 -12876
▁등등 -12877
▁배트 -12878
▁부전 -12879
▁여호 -12880
▁원동 -12881
▁콘티 -12882
▁햇빛 -12883
▁허목 -12884
▁센다이 -12885
▁초록색 -12886
▁낭만주의 -12887
▁기고 -12888
▁양면 -12889
▁전교 -12890
▁접합 -12891
▁주고 -12892
▁하얀색 -12893
▁화학자 -12894
▁대한항공 -12895
▁꿰 -12896
나파 -12897
더지 -12898
데자 -12899
ics -12900
▁경량 -12901
▁꼬마 -12902
▁레비 -12903
▁레아 -12904
▁모란 -12905
▁브렌 -12906
▁샤이 -12907
▁중랑 -12908
▁Don -12909
▁세군다 -12910
▁아이콘 -12911
데자네이 -12912
ru -12913
쿠니 -12914
▁가든 -12915
▁교제 -12916
▁삭스 -12917
▁생도 -12918
▁탄산 -12919
▁범죄자 -12920
▁호크스 -12921
▁부르주아 -12922
▁도봉 -12923
▁두어 -12924
▁반죽 -12925
▁발산 -12926
▁복역 -12927
▁야망 -12928
▁티모 -12929
ㅌㅇㅣ -12930
▁청년회 -12931
▁파충류 -12932
▁ㄱㅏㅌㅇㅣ -12933
▁도르트문트 -12934
▁엡 -12935
바인 -12936
ier -12937
▁대강 -12938
▁배향 -12939
▁순항 -12940
▁옹주 -12941
▁의용 -12942
▁탐험가 -12943
▁하이브리드 -12944
▁튼 -12945
번에 -12946
▁"- -12947
▁Ab -12948
▁Sm -12949
▁가독 -12950
▁그란 -12951
▁보정 -12952
▁복직 -12953
▁오트 -12954
▁장쑤 -12955
▁지경 -12956
▁챙기 -12957
▁개체군 -12958
▁1863 -12959
▁납작 -12960
▁넥센 -12961
▁이례 -12962
▁친밀 -12963
▁필연 -12964
태평양 -12965
▁계승자 -12966
▁박영효 -12967
▁작품상 -12968
▁1865 -12969
▁쵸 -12970
워즈 -12971
클럽 -12972
▁변종 -12973
▁의례 -12974
▁캐피 -12975
▁투하 -12976
▁밀가루 -12977
▁항아리 -12978
▁HTML -12979
단위 -12980
루크 -12981
▁과다 -12982
▁닌자 -12983
▁단국 -12984
▁덴쇼 -12985
▁슈고 -12986
▁격투기 -12987
▁다시금 -12988
▁챌린저 -12989
리쿠 -12990
매김 -12991
▁발하 -12992
▁탐정 -12993
▁페라 -12994
▁편제 -12995
▁피카 -12996
▁유전체 -12997
▁공군기지 -12998
▁기통 -12999
▁당과 -13000
▁피셔 -13001
데자네이루 -13002
▁Night -13003
▁리우데자네이루 -13004
리야 -13005
ode -13006
▁곱셈 -13007
▁선율 -13008
▁조시 -13009
▁경복궁 -13010
▁시간대 -13011
▁유니언 -13012
▁메우 -13013
▁봉황 -13014
▁어촌 -13015
▁작년 -13016
▁처방 -13017
▁코마 -13018
▁승정원 -13019
▁1891 -13020
▁교통사고 -13021
▁아이디얼 -13022
▁거꾸 -13023
▁경마 -13024
▁이니 -13025
▁진흙 -13026
▁클릭 -13027
▁태아 -13028
▁우간다 -13029
▁타임즈 -13030
▁오카야마 -13031
훈장 -13032
ool -13033
▁매스 -13034
▁메츠 -13035
▁조공 -13036
▁철종 -13037
▁ret -13038
▁고성군 -13039
▁기획사 -13040
▁발기인 -13041
▁조선소 -13042
▁켄터키 -13043
▁곡면 -13044
▁살짝 -13045
▁애완 -13046
▁완비 -13047
▁취향 -13048
리아스 -13049
▁앞세우 -13050
▁앤드류 -13051
▁여진족 -13052
▁자리매김 -13053
▁베스트셀러 -13054
TE -13055
▁AL -13056
▁대목 -13057
▁잠기 -13058
▁카슈 -13059
▁포대 -13060
▁세계유산 -13061
▁짐바브웨 -13062
타스 -13063
▁경지 -13064
▁구슬 -13065
▁란스 -13066
▁배아 -13067
▁법전 -13068
▁청문 -13069
▁픽셀 -13070
▁휩싸 -13071
▁안산시 -13072
▁해석학 -13073
▁1873 -13074
QL -13075
UC -13076
친왕 -13077
▁-- -13078
▁대의 -13079
▁미인 -13080
▁요즘 -13081
▁받침돌 -13082
▁자유형 -13083
▁오스트리 -13084
▁려 -13085
ise -13086
▁두텁 -13087
▁루즈 -13088
▁벌리 -13089
▁시진 -13090
▁직관 -13091
▁해킹 -13092
▁후미 -13093
올로기 -13094
▁수시로 -13095
▁이데올로기 -13096
▁쩔 -13097
▁반점 -13098
▁여대 -13099
▁코뮌 -13100
▁혈압 -13101
이스케 -13102
▁몰도바 -13103
▁구강 -13104
▁리브 -13105
▁매립 -13106
▁박진 -13107
▁상파 -13108
▁쇼크 -13109
▁파기 -13110
▁노르드 -13111
▁다국적 -13112
▁릴레이 -13113
▁온타리오주 -13114
ai -13115
▁샨 -13116
ㅇㅜ -13117
쿠르 -13118
▁NS -13119
▁도도 -13120
▁마모 -13121
▁조장 -13122
▁와이드 -13123
▁제너럴 -13124
▁테무르 -13125
▁포항시 -13126
미쓰 -13127
스레 -13128
▁고난 -13129
▁단자 -13130
▁왓슨 -13131
▁입시 -13132
동맹 -13133
che -13134
▁계좌 -13135
▁굴복 -13136
▁등단 -13137
▁부실 -13138
▁비키 -13139
▁재고 -13140
▁충당 -13141
▁킹스 -13142
▁승용차 -13143
레반 -13144
▁고마 -13145
▁내재 -13146
▁신대 -13147
▁열렬 -13148
▁정명 -13149
▁필두 -13150
stem -13151
▁Black -13152
▁MA -13153
▁어는 -13154
▁자켓 -13155
▁착취 -13156
▁한창 -13157
▁현무 -13158
부아르 -13159
▁난이도 -13160
▁발가락 -13161
▁시티즌 -13162
▁팔작지붕 -13163
ㄱㅓ -13164
린더 -13165
▁리키 -13166
▁촉발 -13167
▁합금 -13168
플렉스 -13169
합중국 -13170
▁제프리 -13171
무제 -13172
▁걸작 -13173
▁급하 -13174
▁반항 -13175
▁부추 -13176
▁인위 -13177
▁입술 -13178
▁튼튼 -13179
▁Can -13180
▁공통점 -13181
▁백악관 -13182
▁선제골 -13183
세다 -13184
▁과격 -13185
▁교서 -13186
▁국호 -13187
▁라크 -13188
▁리자 -13189
▁적발 -13190
▁해시 -13191
ower -13192
▁슬로건 -13193
▁믈 -13194
▁분경 -13195
▁외상 -13196
▁페인 -13197
70 -13198
성경 -13199
킨슨 -13200
▁PM -13201
▁계엄 -13202
▁라면 -13203
▁모함 -13204
▁버펄 -13205
▁볼넷 -13206
▁불로 -13207
▁체내 -13208
▁키즈 -13209
▁헤어 -13210
▁공식전 -13211
▁매달리 -13212
▁Good -13213
▁스테이트 -13214
▁야쿠르트 -13215
▁section -13216
NG -13217
▁괜 -13218
▁샵 -13219
▁켜 -13220
바지 -13221
▁광배 -13222
▁서위 -13223
▁아뢰 -13224
▁양양 -13225
▁조준 -13226
▁최장 -13227
▁토유 -13228
▁하스 -13229
▁헌병 -13230
▁그나마 -13231
▁삼국유사 -13232
▁네임 -13233
▁문정 -13234
▁신의 -13235
▁유태 -13236
▁토로 -13237
▁다마스 -13238
▁트로트 -13239
▁아비달마 -13240
▁이바라키 -13241
▁구시 -13242
▁기쁘 -13243
▁당당 -13244
▁병과 -13245
▁산책 -13246
▁양궁 -13247
▁위법 -13248
▁증강 -13249
▁터빈 -13250
▁파랑 -13251
선거구 -13252
▁550 -13253
▁종업원 -13254
▁qu -13255
▁부에 -13256
▁야심 -13257
▁에치 -13258
▁용감 -13259
▁을사 -13260
▁이강 -13261
▁Let -13262
▁거꾸로 -13263
▁간판 -13264
▁머니 -13265
▁오즈 -13266
▁캐논 -13267
▁캐스트 -13268
▁1862 -13269
▁q -13270
펠러 -13271
▁El -13272
▁현도 -13273
스코트 -13274
타나베 -13275
▁650 -13276
▁국민회 -13277
▁하반기 -13278
▁MM -13279
▁국부 -13280
▁산신 -13281
▁소작 -13282
▁연화 -13283
▁우마 -13284
▁채굴 -13285
▁피어 -13286
드라마 -13287
▁아오모리 -13288
▁이노우에 -13289
▁피츠버그 -13290
▁코호몰로지 -13291
ank -13292
▁광자 -13293
▁극찬 -13294
▁아델 -13295
▁진원 -13296
▁반정부 -13297
▁앨버트 -13298
▁지자체 -13299
▁1867 -13300
▁페르디난트 -13301
▁삐 -13302
▁콧 -13303
▁AI -13304
▁조어 -13305
▁진언 -13306
▁705 -13307
▁용산구 -13308
▁무로마치 -13309
▁미합중국 -13310
방군 -13311
▁경은 -13312
▁모반 -13313
▁주저 -13314
ings -13315
▁김성수 -13316
▁알폰소 -13317
▁자외선 -13318
▁댈 -13319
티야 -13320
▁농성 -13321
▁맞춤 -13322
▁무도 -13323
▁앵커 -13324
▁온건 -13325
▁투신 -13326
▁활자 -13327
해살이풀 -13328
ㄹㅜ -13329
▁수퍼 -13330
▁해지 -13331
▁황폐 -13332
▁흔들 -13333
▁경희대 -13334
▁미카엘 -13335
▁변광성 -13336
▁증조부 -13337
▁폼페이 -13338
상어 -13339
정사 -13340
진구 -13341
▁송진 -13342
▁증발 -13343
▁흡연 -13344
리언 -13345
▁무고 -13346
▁연행 -13347
▁스테이 -13348
▁엑스포 -13349
레타리아 -13350
▁국민학교 -13351
▁프롤레타리아 -13352
▁AU -13353
▁통지 -13354
▁손잡이 -13355
▁스코어 -13356
▁사이타마현 -13357
DS -13358
▁사교 -13359
▁세단 -13360
▁스킬 -13361
▁열쇠 -13362
▁조서 -13363
절도사 -13364
고르 -13365
대전 -13366
렐라 -13367
▁Ac -13368
▁병단 -13369
▁엘라 -13370
▁증식 -13371
▁타도 -13372
▁서두르 -13373
포타 -13374
▁옥시 -13375
▁전멸 -13376
▁IMF -13377
▁레인저 -13378
▁사보이 -13379
▁취리히 -13380
▁크루즈 -13381
▁타이탄 -13382
▁신한은행 -13383
투르 -13384
활약 -13385
▁광업 -13386
▁대담 -13387
▁독주 -13388
▁온두 -13389
▁코모 -13390
세우스 -13391
▁MSL -13392
▁노르만 -13393
▁언론사 -13394
▁온두라스 -13395
북면 -13396
센터 -13397
▁노브 -13398
▁성수 -13399
▁심정 -13400
▁양군 -13401
▁예종 -13402
▁완수 -13403
▁쿠라 -13404
▁페드로 -13405
▁캣 -13406
비언 -13407
인구 -13408
▁걸프 -13409
▁꽃잎 -13410
▁나사 -13411
▁보직 -13412
▁위헌 -13413
▁장신 -13414
▁푸드 -13415
▁맹활약 -13416
▁연출가 -13417
포타미아 -13418
▁조선왕조 -13419
▁메소포타미아 -13420
▁LS -13421
▁군자 -13422
▁나탈 -13423
▁북벌 -13424
▁연달 -13425
▁캐치 -13426
▁키릴 -13427
▁감염증 -13428
▁출입문 -13429
▁6000 -13430
▁빠져나가 -13431
▁썩 -13432
조리 -13433
lar -13434
▁UC -13435
▁서한 -13436
▁잔존 -13437
▁처치 -13438
▁충칭 -13439
▁곁들이 -13440
▁사무국 -13441
▁일본식 -13442
▁편집장 -13443
▁라이프치히 -13444
tr -13445
곡면 -13446
▁-& -13447
▁간결 -13448
▁엘레 -13449
▁기원후 -13450
▁궐 -13451
할린 -13452
▁기묘 -13453
▁동탁 -13454
▁버진 -13455
▁세토 -13456
▁신해 -13457
▁유구 -13458
▁조석 -13459
▁연주회 -13460
▁컴파일 -13461
▁타타르 -13462
▁1878 -13463
▁다이노스 -13464
▁협동조합 -13465
ky -13466
▁시역 -13467
▁유망 -13468
▁치이 -13469
▁갈아타 -13470
▁치료제 -13471
참찬 -13472
▁서지 -13473
▁씌우 -13474
▁대리석 -13475
▁웨이브 -13476
▁제조사 -13477
▁프로모션 -13478
▁낡 -13479
사화 -13480
위치 -13481
퉁이 -13482
▁Qu -13483
▁국력 -13484
▁동자 -13485
▁번개 -13486
▁유림 -13487
▁저축 -13488
▁차림 -13489
▁필명 -13490
rist -13491
▁부여군 -13492
▁사대부 -13493
▁백과사전 -13494
▁미나모토노 -13495
ta -13496
▁밋 -13497
디언 -13498
젤로 -13499
▁가극 -13500
▁강호 -13501
▁상선 -13502
▁이끼 -13503
▁마그네 -13504
▁신기록 -13505
▁홀딩스 -13506
hem -13507
▁ㅁㅗ -13508
▁괄호 -13509
▁작중 -13510
▁절약 -13511
▁접전 -13512
▁지그 -13513
▁처장 -13514
▁충신 -13515
▁HMS -13516
▁Ser -13517
▁이성질 -13518
▁개기 -13519
▁당파 -13520
▁스톰 -13521
▁자행 -13522
▁직교 -13523
▁하중 -13524
▁비스마르크 -13525
▁뵈 -13526
▁샴 -13527
▁팍 -13528
빌리 -13529
▁바쿠 -13530
▁사드 -13531
▁히노 -13532
플로러 -13533
▁802 -13534
▁건륭제 -13535
▁뉴기니 -13536
▁주고받 -13537
▁익스플로러 -13538
ee -13539
산부 -13540
▁변모 -13541
▁옥천 -13542
▁완만 -13543
▁자부 -13544
▁중용 -13545
▁횡령 -13546
▁글로브상 -13547
▁일리노이주 -13548
▁킷 -13549
루엔 -13550
▁무너 -13551
▁부군 -13552
▁일설 -13553
▁지린 -13554
▁지탱 -13555
▁참패 -13556
뉴기니 -13557
▁입법부 -13558
▁플루토 -13559
▁핵분열 -13560
▁무너뜨리 -13561
▁팻 -13562
▁가물 -13563
▁국인 -13564
▁시르 -13565
▁후드 -13566
▁And -13567
중추부사 -13568
▁스케이트 -13569
▁널 -13570
벤션 -13571
▁급성 -13572
▁다량 -13573
▁라다 -13574
▁매도 -13575
▁매슈 -13576
▁스에 -13577
▁애기 -13578
▁영사 -13579
▁용해 -13580
▁행군 -13581
▁액세스 -13582
▁플러그 -13583
▁되돌아가 -13584
일치 -13585
▁tr -13586
▁과자 -13587
▁도발 -13588
▁변증 -13589
▁적정 -13590
▁정박 -13591
시아드 -13592
▁와세다 -13593
▁1869 -13594
▁고등학생 -13595
다스 -13596
시게 -13597
▁고찰 -13598
▁길드 -13599
▁보류 -13600
▁서점 -13601
▁잉크 -13602
▁참수 -13603
▁표출 -13604
▁무사히 -13605
▁자릿수 -13606
▁포뮬러 -13607
▁프로테 -13608
▁프라이즈 -13609
▁유니버시아드 -13610
누마 -13611
다발 -13612
▁Ag -13613
▁오보 -13614
▁회유 -13615
▁마포구 -13616
▁업로드 -13617
▁페르미 -13618
셔주 -13619
▁가비 -13620
▁육식 -13621
▁점진 -13622
▁특별법 -13623
▁해부학 -13624
▁와타나베 -13625
▁코퍼레이션 -13626
▁솔라 -13627
▁청각 -13628
▁현악 -13629
▁봉우리 -13630
▁아이젠 -13631
▁쿠르드 -13632
▁프리츠 -13633
내티 -13634
▁객실 -13635
▁다목 -13636
▁소피 -13637
▁저해 -13638
▁형주 -13639
▁ㄹㅏㄱ -13640
▁수비대 -13641
▁원자핵 -13642
▁이브스 -13643
▁신시내티 -13644
▁키르기스 -13645
▁면직 -13646
▁벵골 -13647
▁잔해 -13648
▁방위군 -13649
▁베르나 -13650
▁밧 -13651
▁로시 -13652
▁몸체 -13653
▁북대 -13654
▁직물 -13655
▁추후 -13656
▁포천 -13657
▁경쟁자 -13658
▁1592 -13659
▁명성황후 -13660
▁요리토모 -13661
정보 -13662
▁맛보 -13663
▁부두 -13664
▁서거 -13665
▁텍스 -13666
▁패킷 -13667
▁포탑 -13668
▁표절 -13669
▁안동시 -13670
▁외교부 -13671
ae -13672
▁썬 -13673
▁강우 -13674
▁고국 -13675
▁고을 -13676
▁근방 -13677
▁영유권 -13678
▁인지도 -13679
▁친선경기 -13680
▁AA -13681
▁기조 -13682
▁목동 -13683
▁부관 -13684
▁성품 -13685
▁일선 -13686
▁항생 -13687
▁기동전 -13688
▁운동량 -13689
▁인코딩 -13690
▁장로회 -13691
수염 -13692
▁SO -13693
▁무색 -13694
▁골짜기 -13695
▁생화학 -13696
▁프라임 -13697
▁탬 -13698
암사 -13699
▁글렌 -13700
▁논산 -13701
▁무비 -13702
▁손님 -13703
▁수당 -13704
▁시시 -13705
▁오자 -13706
▁위도 -13707
▁이목 -13708
▁치사 -13709
▁피처 -13710
ount -13711
▁부등식 -13712
▁사생활 -13713
▁수도회 -13714
▁제작진 -13715
세르 -13716
▁대타 -13717
▁루피 -13718
▁사부 -13719
▁축일 -13720
▁콜드 -13721
▁행보 -13722
▁오스카 -13723
▁지하역 -13724
▁크리스티나 -13725
▁금색 -13726
▁빈민 -13727
▁수레 -13728
▁자처 -13729
▁지체 -13730
▁컴필 -13731
▁스파이더 -13732
▁후지와라 -13733
▁컴필레이션 -13734
▁그거 -13735
▁모티 -13736
▁박원 -13737
▁반입 -13738
▁쫓기 -13739
▁토라 -13740
▁헤더 -13741
▁로타르 -13742
▁며느리 -13743
▁팔꿈치 -13744
네르 -13745
티컷 -13746
▁그물 -13747
▁토키 -13748
▁폴라 -13749
▁금강산 -13750
▁여객기 -13751
▁코네티컷 -13752
노르 -13753
ata -13754
▁RC -13755
▁용수 -13756
▁자정 -13757
▁목적지 -13758
▁불가피 -13759
▁Song -13760
▁마스코트 -13761
▁힐베르트 -13762
▁로드리게스 -13763
구스 -13764
▁단역 -13765
▁린다 -13766
▁민심 -13767
▁사소 -13768
▁아어 -13769
▁유화 -13770
▁지문 -13771
가르트 -13772
▁Mon -13773
▁1840 -13774
▁파시스트 -13775
▁여우원숭이 -13776
pr -13777
▁귀인 -13778
▁내란 -13779
▁상의 -13780
▁위즈 -13781
▁캐슬 -13782
▁516 -13783
▁레지스터 -13784
마디 -13785
자원 -13786
▁me -13787
▁고제 -13788
▁병풍 -13789
▁분별 -13790
▁빅터 -13791
▁수급 -13792
▁하라 -13793
▁헤겔 -13794
▁헤일 -13795
스타인 -13796
▁리차드 -13797
▁연예계 -13798
▁유년기 -13799
▁랙 -13800
ade -13801
per -13802
▁닉스 -13803
▁디나 -13804
▁추축 -13805
▁네이트 -13806
▁창립자 -13807
▁프랑스와 -13808
▁아나톨리아 -13809
▁return -13810
▁볶 -13811
블릿 -13812
▁KN -13813
▁가방 -13814
▁다쓰 -13815
▁블러 -13816
▁소박 -13817
▁심소 -13818
▁자취 -13819
▁출국 -13820
▁하수 -13821
▁사이언스 -13822
▁에이전트 -13823
▁Heart -13824
효소 -13825
▁공상 -13826
▁국화 -13827
▁입출 -13828
▁절친 -13829
▁풍기 -13830
▁유엔군 -13831
▁종착역 -13832
▁매킨토시 -13833
▁심리학자 -13834
▁지장보살 -13835
작전 -13836
히메 -13837
▁ab -13838
▁벤츠 -13839
▁유이 -13840
▁쿼터 -13841
▁글러브 -13842
▁히타치 -13843
▁Pe -13844
▁발착 -13845
▁숙소 -13846
▁유골 -13847
▁유자 -13848
▁탁구 -13849
▁튜브 -13850
▁티저 -13851
변속기 -13852
▁바닷물 -13853
▁테크놀 -13854
▁파주시 -13855
▁필사본 -13856
사우루스 -13857
90 -13858
BI -13859
찬성 -13860
▁거창 -13861
▁국세 -13862
▁바쁘 -13863
▁변질 -13864
▁상식 -13865
▁성가 -13866
▁영미 -13867
▁자질 -13868
▁전단 -13869
▁출세 -13870
▁시니어 -13871
▁예언자 -13872
▁패스트 -13873
▁와카야마 -13874
▁Windows -13875
▁펜실베이니아주 -13876
▁낯 -13877
▁계룡 -13878
▁농가 -13879
▁란트 -13880
▁영수 -13881
▁천상 -13882
ㅇㅡㄴ -13883
이치로 -13884
▁과반수 -13885
▁스트림 -13886
테랑 -13887
▁겸직 -13888
▁넘버 -13889
▁라라 -13890
▁암수 -13891
▁여포 -13892
▁이카 -13893
▁강력히 -13894
▁나치오 -13895
▁보유자 -13896
▁어도비 -13897
▁벳 -13898
날드 -13899
ium -13900
▁거사 -13901
▁상과 -13902
▁수만 -13903
▁쌍성 -13904
▁염화 -13905
▁자루 -13906
▁패망 -13907
▁구단주 -13908
▁지질학 -13909
▁영등포구 -13910
▁강인 -13911
▁단서 -13912
▁백조 -13913
▁성대 -13914
▁청취 -13915
▁최하 -13916
▁퀴즈 -13917
▁그래도 -13918
▁8000 -13919
▁그린란드 -13920
▁남아시아 -13921
IX -13922
부시 -13923
▁PL -13924
▁괜찮 -13925
▁라프 -13926
▁바인 -13927
▁스택 -13928
▁온실 -13929
▁적십자 -13930
▁알프레드 -13931
▁세인트루이스 -13932
IF -13933
▁Gl -13934
▁기행 -13935
▁악명 -13936
▁오시 -13937
▁워스 -13938
▁조비 -13939
▁초음 -13940
▁휘발 -13941
▁흥원 -13942
▁아우구스 -13943
던트 -13944
선언 -13945
어하 -13946
▁권익 -13947
▁렉스 -13948
▁미학 -13949
▁연중 -13950
▁윤휴 -13951
▁의주 -13952
▁세미나 -13953
▁휩싸이 -13954
계사 -13955
넌트 -13956
▁베오 -13957
▁실상 -13958
▁페레 -13959
▁떠올리 -13960
욕장 -13961
전선 -13962
히데 -13963
▁As -13964
▁동호 -13965
▁문중 -13966
▁상동 -13967
▁중견 -13968
▁피살 -13969
▁Out -13970
▁뒤따르 -13971
▁시미즈 -13972
▁안창호 -13973
▁헤르만 -13974
▁1875 -13975
링겐 -13976
▁노현 -13977
▁능가 -13978
▁삭감 -13979
▁의복 -13980
▁저그 -13981
▁준동 -13982
▁하구 -13983
▁고문서 -13984
▁비둘기 -13985
▁집단군 -13986
▁데카르트 -13987
▁Aw -13988
▁끌리 -13989
▁바보 -13990
▁외척 -13991
▁이심 -13992
▁엇갈리 -13993
▁이와테 -13994
▁진주시 -13995
▁근본번뇌 -13996
수단 -13997
탄두 -13998
테이 -13999
▁가곡 -14000
▁반론 -14001
▁에트 -14002
▁유카 -14003
▁맥아더 -14004
▁보리스 -14005
▁되돌아오 -14006
기아 -14007
기즈 -14008
▁독살 -14009
▁볼록 -14010
▁숙련 -14011
▁왜군 -14012
▁웍스 -14013
▁임종 -14014
▁댈러스 -14015
▁운전자 -14016
▁기린 -14017
▁박히 -14018
▁콜린 -14019
▁키리 -14020
▁관심사 -14021
▁나리타 -14022
▁예비역 -14023
구니 -14024
어가 -14025
▁VS -14026
▁강습 -14027
▁니케 -14028
▁수증 -14029
▁최남 -14030
▁친화 -14031
▁침식 -14032
▁담당자 -14033
▁사이즈 -14034
▁회고록 -14035
itt -14036
▁들르 -14037
▁디바 -14038
▁미지 -14039
▁설리 -14040
▁아다 -14041
▁철자 -14042
▁파랗 -14043
▁혼잡 -14044
▁Gen -14045
▁KTX -14046
▁고등교육 -14047
이에 -14048
▁다름 -14049
▁사각 -14050
▁선상 -14051
▁신지 -14052
▁용지 -14053
▁월화 -14054
▁은밀 -14055
▁텐서 -14056
▁표제 -14057
▁호그 -14058
레이트 -14059
▁AMD -14060
▁안타깝 -14061
▁컨벤션 -14062
son -14063
▁sh -14064
▁귀엽 -14065
▁규율 -14066
▁노원 -14067
▁뉴런 -14068
▁도적 -14069
▁원단 -14070
▁이선 -14071
▁게임기 -14072
▁리스본 -14073
▁치료법 -14074
▁남양주시 -14075
사유 -14076
▁걸음 -14077
▁김두 -14078
▁다자 -14079
▁예프 -14080
▁위크 -14081
▁이희 -14082
▁일명 -14083
▁징집 -14084
▁컵스 -14085
▁키드 -14086
▁한민 -14087
▁아나키스트 -14088
▁DB -14089
▁생원 -14090
▁어사 -14091
▁인승 -14092
▁질투 -14093
▁타나 -14094
▁아세틸 -14095
▁통도사 -14096
▁파라오 -14097
보당 -14098
▁교파 -14099
▁교훈 -14100
▁뒤지 -14101
▁로사 -14102
▁출품 -14103
▁터너 -14104
▁해트 -14105
▁돌고래 -14106
▁북극점 -14107
▁친환경 -14108
▁칭기즈 -14109
▁함경도 -14110
세서 -14111
▁단양 -14112
▁방울 -14113
▁시찰 -14114
▁여럿 -14115
▁잠입 -14116
▁표트르 -14117
▁모자이크 -14118
▁포르투갈어 -14119
PA -14120
날레 -14121
방향 -14122
어류 -14123
▁금정 -14124
▁셔틀 -14125
▁정오 -14126
▁직렬 -14127
에이고 -14128
▁매디슨 -14129
▁일부러 -14130
▁테오도 -14131
크라테스 -14132
▁병자호란 -14133
▁샌디에이고 -14134
▁TS -14135
▁닥치 -14136
▁리크 -14137
▁목장 -14138
▁몹시 -14139
▁아노 -14140
▁에레 -14141
▁의정 -14142
▁절충 -14143
▁집전 -14144
▁취직 -14145
▁태안 -14146
세데스 -14147
▁가환환 -14148
▁광둥성 -14149
▁다이쇼 -14150
▁레스터 -14151
▁크메르 -14152
▁피의자 -14153
▁학술지 -14154
▁항공대 -14155
▁쳐들어오 -14156
▁브란덴부르크 -14157
▁땀 -14158
알라 -14159
▁구루 -14160
▁기운 -14161
▁로큰 -14162
▁문체 -14163
▁변혁 -14164
▁생쥐 -14165
▁서약 -14166
▁아지 -14167
▁야수 -14168
▁어부 -14169
able -14170
▁꽃차례 -14171
▁스케치 -14172
▁뉘른베르크 -14173
▁메르세데스 -14174
▁눌 -14175
▁김연 -14176
▁문관 -14177
▁실명 -14178
▁안중 -14179
▁양파 -14180
▁원효 -14181
▁의성 -14182
▁첩보 -14183
▁타쿠 -14184
▁호른 -14185
해방군 -14186
▁이사벨 -14187
▁장갑차 -14188
▁중앙선 -14189
▁토요타 -14190
▁통신망 -14191
▁몽고메리 -14192
▁인민해방군 -14193
▁달콤 -14194
▁바늘 -14195
▁서당 -14196
▁슈투 -14197
▁포인 -14198
록대부 -14199
▁성폭행 -14200
▁신석기 -14201
▁연속극 -14202
▁채권자 -14203
▁클리어 -14204
▁디디 -14205
▁막강 -14206
▁면담 -14207
▁버트 -14208
▁선체 -14209
▁착각 -14210
▁체로 -14211
▁"() -14212
▁코트디 -14213
▁코트디부아르 -14214
은사 -14215
ale -14216
▁교관 -14217
▁양지 -14218
▁열세 -14219
▁로큰롤 -14220
▁바나나 -14221
▁비단털 -14222
▁쇼핑몰 -14223
▁야마다 -14224
▁크라운 -14225
▁클레어 -14226
ng -14227
더링 -14228
몽골 -14229
▁로바 -14230
▁방호 -14231
▁배반 -14232
▁비료 -14233
▁영락 -14234
▁외면 -14235
▁인먼 -14236
▁폐허 -14237
루엔자 -14238
▁380 -14239
▁로버츠 -14240
▁슈타인 -14241
▁아리랑 -14242
스코리아 -14243
▁비단털쥐 -14244
▁안드로메다 -14245
▁저널리스트 -14246
촌리 -14247
▁기공 -14248
▁모질 -14249
▁데이트 -14250
▁반감기 -14251
▁베르트 -14252
▁부적절 -14253
▁스피커 -14254
▁파스칼 -14255
놀드 -14256
부대 -14257
뻐하 -14258
▁교화 -14259
▁레몬 -14260
▁스펜 -14261
▁자장 -14262
▁특공 -14263
▁기뻐하 -14264
▁싫어하 -14265
엽수 -14266
우주 -14267
조사 -14268
▁기판 -14269
▁동거 -14270
▁래리 -14271
▁일차 -14272
▁Par -14273
▁강대국 -14274
▁행해지 -14275
▁페널티킥 -14276
▁KO -14277
▁감기 -14278
▁금환 -14279
▁라울 -14280
▁명상 -14281
▁세일 -14282
▁수마 -14283
▁수은 -14284
▁순식 -14285
▁708 -14286
▁상반기 -14287
▁선거인 -14288
▁송파구 -14289
▁정치국 -14290
▁바빌로니아 -14291
▁University -14292
박사 -14293
크리 -14294
행파 -14295
▁구아 -14296
▁마레 -14297
▁서클 -14298
▁성행 -14299
▁왕래 -14300
▁잉카 -14301
▁정에 -14302
▁향신 -14303
▁맥스웰 -14304
▁이랜드 -14305
▁종사자 -14306
▁프론트 -14307
▁오프라인 -14308
UN -14309
두사 -14310
르카 -14311
▁가모 -14312
▁기마 -14313
▁모피 -14314
▁보그 -14315
▁술라 -14316
▁안식 -14317
▁야권 -14318
▁엔젤 -14319
▁예식 -14320
▁장정 -14321
▁환율 -14322
▁ㄹㅗㄹ -14323
▁대항전 -14324
▁라이베리아 -14325
▁탭 -14326
니에 -14327
▁모사 -14328
▁보우 -14329
▁슬리 -14330
▁이홍 -14331
▁정칙 -14332
▁즐거 -14333
▁헤센 -14334
▁후루 -14335
▁ATC -14336
▁Vol -14337
▁합성어 -14338
▁관음보살 -14339
▁끌어올리 -14340
▁보컬리스트 -14341
세키 -14342
▁At -14343
▁문수 -14344
▁사주 -14345
▁칸트 -14346
▁강희제 -14347
▁데뷔작 -14348
▁보호법 -14349
▁형용사 -14350
시대 -14351
▁WC -14352
▁경순 -14353
▁구세 -14354
▁규약 -14355
▁모체 -14356
▁샤르 -14357
▁위트 -14358
▁율법 -14359
▁중일 -14360
▁205 -14361
▁사할린 -14362
▁콘라트 -14363
건설 -14364
▁거머 -14365
▁데일 -14366
▁야코 -14367
▁정언 -14368
▁조봉 -14369
▁활기 -14370
very -14371
▁건너오 -14372
▁마주치 -14373
▁쇼트트랙 -14374
▁인플루엔자 -14375
쿠사 -14376
▁결전 -14377
▁경의 -14378
▁극소 -14379
▁로니 -14380
▁미첼 -14381
▁보조금 -14382
▁슈미트 -14383
▁엑스박스 -14384
▁조선공산당 -14385
▁벙 -14386
▁GR -14387
▁JC -14388
▁가명 -14389
▁실은 -14390
▁획기 -14391
▁되풀이 -14392
▁캐스터 -14393
▁통계청 -14394
▁싯 -14395
▁텅 -14396
연구 -14397
▁라벨 -14398
▁베티 -14399
▁실사 -14400
▁외손 -14401
▁외할 -14402
▁출격 -14403
▁치마 -14404
▁ᄇㅅㅣ -14405
모음 -14406
▁가세 -14407
▁등산 -14408
▁박용 -14409
▁상계 -14410
▁시의 -14411
▁월남 -14412
▁이질 -14413
▁토피 -14414
▁후한 -14415
▁235 -14416
▁DOS -14417
▁NBC -14418
▁개그맨 -14419
▁사학자 -14420
▁호흡기 -14421
▁기미 -14422
▁동군 -14423
▁수역 -14424
▁에노 -14425
▁에코 -14426
▁집사 -14427
▁호로 -14428
▁가이아 -14429
▁시마즈 -14430
▁name -14431
벌리 -14432
사와 -14433
▁군복 -14434
▁남단 -14435
▁양서 -14436
▁염두 -14437
▁자키 -14438
▁정글 -14439
▁스케줄 -14440
▁로베르토 -14441
▁구타 -14442
▁사미 -14443
▁서안 -14444
▁안톤 -14445
▁우기 -14446
▁자위 -14447
폴리탄 -14448
▁메트로폴리탄 -14449
▁엣 -14450
▁내림 -14451
▁불쾌 -14452
▁석기 -14453
▁아연 -14454
▁유충 -14455
▁후이 -14456
▁남극점 -14457
▁스케일 -14458
▁셴 -14459
화당 -14460
▁경종 -14461
▁금하 -14462
▁마흐 -14463
▁병렬 -14464
▁비옥 -14465
▁애착 -14466
▁양극 -14467
▁외삼 -14468
▁웨어 -14469
▁초계 -14470
▁칼륨 -14471
▁케리 -14472
▁코바 -14473
▁화승 -14474
▁지하철역 -14475
데기 -14476
황색 -14477
▁cc -14478
▁경화 -14479
▁나기 -14480
▁노카 -14481
▁라가 -14482
▁리나 -14483
▁열악 -14484
▁재화 -14485
▁타시 -14486
▁풀백 -14487
▁사무관 -14488
▁순식간 -14489
▁열역학 -14490
▁자격증 -14491
▁조각상 -14492
▁버니 -14493
▁종가 -14494
▁카로 -14495
▁포니 -14496
▁tvN -14497
▁당뇨병 -14498
▁브로드웨이 -14499
18 -14500
co -14501
so -14502
▁랠 -14503
루즈 -14504
르산 -14505
양이 -14506
▁골절 -14507
▁나한 -14508
▁복부 -14509
▁불복 -14510
▁실효 -14511
▁안팎 -14512
▁하산 -14513
▁로페스 -14514
▁테두리 -14515
▁미스코리아 -14516
그램 -14517
보라 -14518
에쓰 -14519
윽고 -14520
▁띄우 -14521
▁배당 -14522
▁신병 -14523
▁족장 -14524
▁창구 -14525
▁화원 -14526
▁시그마 -14527
▁신호장 -14528
▁이윽고 -14529
▁천도교 -14530
▁그레이엄 -14531
▁중앙아메리카 -14532
yn -14533
큐슈 -14534
▁균일 -14535
▁무능 -14536
▁세스 -14537
▁솜씨 -14538
▁시제 -14539
▁키트 -14540
▁패치 -14541
▁김해시 -14542
▁안드레 -14543
▁우두머리 -14544
▁파푸아뉴기니 -14545
텐셜 -14546
ATO -14547
▁고층 -14548
▁리시 -14549
▁무예 -14550
▁부엌 -14551
▁안심 -14552
▁양평 -14553
▁요직 -14554
▁칠성 -14555
▁키타 -14556
▁협곡 -14557
▁공주시 -14558
▁동아리 -14559
▁카디널 -14560
▁유가행파 -14561
열대 -14562
▁가뭄 -14563
▁뉴멕 -14564
▁마늘 -14565
▁박재 -14566
▁산조 -14567
▁이달 -14568
▁침범 -14569
▁거주자 -14570
▁라스트 -14571
▁안양시 -14572
▁최성기 -14573
▁뉴멕시코 -14574
IVE -14575
ala -14576
▁결말 -14577
▁동백 -14578
▁오마 -14579
▁은폐 -14580
▁일간 -14581
▁일주 -14582
▁정승 -14583
▁줄곧 -14584
▁축복 -14585
▁홍익 -14586
스크림 -14587
▁간호사 -14588
▁스틸러스 -14589
▁일렉트릭 -14590
신저 -14591
▁중남 -14592
▁무지개 -14593
▁반대편 -14594
▁퍼텐셜 -14595
▁1874 -14596
▁This -14597
▁잼 -14598
시험 -14599
악산 -14600
주크 -14601
▁ㅅㅏ -14602
▁넷플 -14603
▁레나 -14604
▁이색 -14605
▁통솔 -14606
▁포자 -14607
▁넷플릭스 -14608
▁맴 -14609
나들 -14610
▁sp -14611
▁기닿 -14612
▁기스 -14613
▁묘호 -14614
▁악당 -14615
▁일삼 -14616
▁재보 -14617
▁동남쪽 -14618
▁콘퍼런스 -14619
징어 -14620
▁대류 -14621
▁읍성 -14622
▁잔혹 -14623
▁204 -14624
▁대수학 -14625
▁앞바다 -14626
▁에스컬 -14627
▁조각가 -14628
▁항공편 -14629
▁후쿠이 -14630
▁바그다드 -14631
▁에스컬레이터 -14632
▁벚 -14633
▁다쿠 -14634
▁무가 -14635
▁베크 -14636
▁숙박 -14637
▁젠더 -14638
▁조동 -14639
▁학당 -14640
▁저스틴 -14641
▁컨퍼런스 -14642
▁퀄 -14643
운수 -14644
▁라플 -14645
▁소론 -14646
▁이문 -14647
▁잔여 -14648
▁쿠마 -14649
▁판명 -14650
▁향수 -14651
진보당 -14652
▁가요제 -14653
▁게임즈 -14654
▁다가가 -14655
▁지리산 -14656
▁휴대폰 -14657
▁프레슬리 -14658
ax -14659
me -14660
▁뤄 -14661
▁낭비 -14662
▁리타 -14663
▁송이 -14664
▁싱크 -14665
▁인스 -14666
▁캠벨 -14667
▁한복 -14668
▁클로드 -14669
▁콜럼버스 -14670
소문 -14671
ody -14672
▁몰수 -14673
▁발작 -14674
▁잉여 -14675
▁품목 -14676
▁한겨 -14677
야누스 -14678
▁뉴올리 -14679
▁재미있 -14680
▁트레일 -14681
▁1877 -14682
net -14683
▁SR -14684
▁단발 -14685
▁메모 -14686
▁사중 -14687
▁옥사 -14688
▁확충 -14689
▁루이즈 -14690
▁호소카와 -14691
▁서아프리카 -14692
▁알렉산데르 -14693
▁아우구스투스 -14694
더릭 -14695
프랑 -14696
▁상한 -14697
▁소양 -14698
▁애드 -14699
▁차오 -14700
▁클랜 -14701
▁원주시 -14702
▁바이마르 -14703
▁멀티미디어 -14704
▁트라야누스 -14705
민당 -14706
oid -14707
▁도형 -14708
▁손목 -14709
▁에페 -14710
▁코로 -14711
▁탄수 -14712
▁공학자 -14713
▁허베이 -14714
▁슈퍼스타 -14715
▁강좌 -14716
▁예멘 -14717
▁코크 -14718
▁하지 -14719
▁APG -14720
▁Bab -14721
▁교육감 -14722
▁참전하 -14723
▁채무자 -14724
▁오아시스 -14725
GB -14726
▁쿰 -14727
혈구 -14728
anc -14729
▁격전 -14730
▁그르 -14731
▁델리 -14732
▁맞물 -14733
▁민원 -14734
▁본존 -14735
▁순찰 -14736
▁토바 -14737
▁흐리 -14738
▁사하라 -14739
▁7000 -14740
양구 -14741
ash -14742
ose -14743
▁곤살 -14744
▁그립 -14745
▁바니 -14746
▁복속 -14747
▁빌드 -14748
▁산문 -14749
▁주군 -14750
▁행선 -14751
▁브리스 -14752
▁중거리 -14753
▁핸드볼 -14754
▁Best -14755
▁가온 -14756
▁경내 -14757
▁아킬 -14758
▁양천 -14759
▁엄지 -14760
▁처마 -14761
▁총영 -14762
▁컨설팅 -14763
▁콜린스 -14764
au -14765
바드 -14766
변수 -14767
▁고승 -14768
▁모치 -14769
▁무주 -14770
▁출사 -14771
어나오 -14772
▁성폭력 -14773
▁스타드 -14774
▁여운형 -14775
▁클러스터 -14776
▁플루토늄 -14777
22 -14778
를레 -14779
비에 -14780
일기 -14781
▁AF -14782
▁강국 -14783
▁로망 -14784
▁오구 -14785
▁인성 -14786
▁재회 -14787
▁전조 -14788
▁카일 -14789
▁비잔틴 -14790
▁셀주크 -14791
▁기울어지 -14792
14 -14793
ps -14794
높이 -14795
ict -14796
▁et -14797
▁너희 -14798
▁미겔 -14799
▁바야 -14800
▁산체 -14801
▁석권 -14802
▁선단 -14803
▁시발 -14804
▁앞뒤 -14805
▁에볼 -14806
▁요가 -14807
▁점하 -14808
▁Her -14809
▁수백만 -14810
▁한겨레 -14811
▁다카하시 -14812
▁돌려보내 -14813
▁캄파니아 -14814
▁깔리 -14815
▁블랑 -14816
▁추계 -14817
▁코린 -14818
▁강화군 -14819
▁부르봉 -14820
▁서스펜 -14821
▁엘비스 -14822
피크 -14823
▁AE -14824
▁공문 -14825
▁라임 -14826
▁상감 -14827
▁소인 -14828
▁인계 -14829
▁자성 -14830
▁경부선 -14831
▁오릭스 -14832
▁1859 -14833
▁Hell -14834
▁메모리얼 -14835
남면 -14836
▁ㅁㅓ -14837
▁가선 -14838
▁감축 -14839
▁거시 -14840
▁관아 -14841
▁나투 -14842
▁노하 -14843
▁뮐러 -14844
▁방학 -14845
▁사연 -14846
▁소르 -14847
▁유창 -14848
▁앙드레 -14849
▁오르간 -14850
▁포식자 -14851
▁한국군 -14852
▁만장일치 -14853
▁KS -14854
▁도안 -14855
▁문맥 -14856
▁숙명 -14857
▁승률 -14858
▁원사 -14859
▁제지 -14860
▁화염 -14861
▁ㄹㅏㅁ -14862
▁전시관 -14863
▁콘티넨 -14864
▁1700 -14865
▁툼 -14866
▁us -14867
▁건지 -14868
▁결장 -14869
▁도읍 -14870
▁두뇌 -14871
▁레크 -14872
▁밸브 -14873
▁벗기 -14874
▁선과 -14875
▁지령 -14876
▁CIA -14877
▁프리큐어 -14878
범죄 -14879
장사 -14880
제철 -14881
토크 -14882
▁북측 -14883
▁서체 -14884
▁소주 -14885
▁완장 -14886
▁원문 -14887
▁중건 -14888
▁퇴진 -14889
▁펭귄 -14890
▁교육학 -14891
▁아파치 -14892
▁연방군 -14893
▁청문회 -14894
▁클레오 -14895
▁혼합물 -14896
▁스테파노 -14897
형제 -14898
▁곡식 -14899
▁니즈 -14900
▁도부 -14901
▁명왕 -14902
▁미켈 -14903
▁미트 -14904
▁발판 -14905
▁스펙 -14906
▁우표 -14907
▁율리 -14908
▁이씨 -14909
▁태화 -14910
▁거머쥐 -14911
▁게이밍 -14912
▁루카스 -14913
▁현미경 -14914
13 -14915
15 -14916
EEE -14917
▁YG -14918
▁네브 -14919
▁뚜껑 -14920
▁문물 -14921
▁볼드 -14922
▁산재 -14923
▁스플 -14924
▁요도 -14925
▁개화파 -14926
▁아놀드 -14927
▁오리엔 -14928
▁외계인 -14929
▁갈릴레오 -14930
▁사병 -14931
▁제비 -14932
▁퇴치 -14933
▁플랑 -14934
▁허물 -14935
▁518 -14936
▁사다리 -14937
▁우에노 -14938
▁울트라 -14939
계약 -14940
나시 -14941
데일 -14942
란다 -14943
로트 -14944
▁공병 -14945
▁나일 -14946
▁대입 -14947
▁리안 -14948
▁서품 -14949
▁의제 -14950
▁지크 -14951
▁통찰 -14952
▁화음 -14953
▁곧이어 -14954
▁순천시 -14955
▁인류학 -14956
▁미야기현 -14957
▁사무라이 -14958
▁자이언트 -14959
▁자카르타 -14960
▁뒤덮 -14961
▁모교 -14962
▁예금 -14963
▁푸젠 -14964
▁함장 -14965
▁억제제 -14966
▁이론가 -14967
▁핵탄두 -14968
▁테크놀로지 -14969
VA -14970
▁멱 -14971
마을 -14972
완다 -14973
▁se -14974
▁구가 -14975
▁되살 -14976
▁롤러 -14977
▁바투 -14978
▁블룸 -14979
▁앨라 -14980
▁재물 -14981
▁전범 -14982
▁투사 -14983
▁화소 -14984
▁625 -14985
▁아키텐 -14986
▁라이센스 -14987
매기 -14988
무장 -14989
▁부식 -14990
▁쓰리 -14991
▁왕당 -14992
▁차명 -14993
▁이케다 -14994
▁제니퍼 -14995
▁레닌주의 -14996
주석 -14997
uck -14998
▁구전 -14999
▁백운 -15000
▁츠카 -15001
▁빌바오 -15002
▁뉴클레오타이드 -15003
▁^ -15004
▁뮈 -15005
▁챠 -15006
▁켐 -15007
투리 -15008
▁과세 -15009
▁만지 -15010
▁직사각 -15011
de -15012
▁레티 -15013
▁바젤 -15014
▁아누 -15015
▁억울 -15016
▁일어 -15017
▁웜 -15018
고사 -15019
동원 -15020
버터 -15021
▁경합 -15022
▁박찬 -15023
▁발터 -15024
▁산남 -15025
▁후견 -15026
▁바스크 -15027
▁환승역 -15028
▁IEEE -15029
▁아드리아 -15030
▁크리스틴 -15031
▁아이스크림 -15032
HL -15033
▁거병 -15034
▁원점 -15035
▁자갈 -15036
▁피자 -15037
▁후회 -15038
▁기념장 -15039
▁돌려주 -15040
▁목표물 -15041
▁서태지 -15042
▁탈레반 -15043
▁샷 -15044
과학 -15045
나주 -15046
재판 -15047
▁무공 -15048
▁상환 -15049
▁속국 -15050
▁총감 -15051
▁테헤 -15052
reak -15053
▁가치관 -15054
▁난쟁이 -15055
▁미성년 -15056
▁선제후 -15057
▁아이치 -15058
▁이치현 -15059
▁출장소 -15060
▁카리스 -15061
▁트레인 -15062
▁쓰러뜨리 -15063
▁베다 -15064
▁변론 -15065
▁사와 -15066
▁왕명 -15067
▁정청 -15068
▁하후 -15069
▁회차 -15070
▁340 -15071
▁결의안 -15072
▁고바야시 -15073
스톤 -15074
주사 -15075
▁ㄱㅡ -15076
▁경원 -15077
▁덮치 -15078
▁리언 -15079
▁만류 -15080
▁북인 -15081
▁산술 -15082
▁오와 -15083
▁이창 -15084
▁전서 -15085
▁코이 -15086
▁튜링 -15087
▁하층 -15088
▁케이드 -15089
▁서바이벌 -15090
▁아미타불 -15091
패드 -15092
ail -15093
▁FF -15094
▁김학 -15095
▁알로 -15096
▁적법 -15097
▁특명 -15098
▁로저스 -15099
▁마코토 -15100
▁빈센트 -15101
▁셰퍼드 -15102
▁순교자 -15103
▁쓰촨성 -15104
▁이주민 -15105
▁출판물 -15106
▁향신료 -15107
▁소아시아 -15108
▁튀어나오 -15109
HC -15110
oo -15111
▁군기 -15112
▁김우 -15113
▁논증 -15114
▁뉴잉 -15115
▁담양 -15116
▁로디 -15117
▁사산 -15118
▁여정 -15119
▁원만 -15120
▁자네 -15121
▁장경 -15122
▁후면 -15123
▁희미 -15124
▁길거리 -15125
▁달려가 -15126
▁카디널스 -15127
티지 -15128
▁as -15129
▁로보 -15130
▁로코 -15131
▁백지 -15132
▁법규 -15133
▁진천 -15134
▁청정 -15135
▁화풍 -15136
게이트 -15137
▁미트라 -15138
▁지석묘 -15139
▁통계학 -15140
▁긋 -15141
스퍼 -15142
장조 -15143
▁관군 -15144
▁관위 -15145
▁근간 -15146
▁도끼 -15147
▁보어 -15148
▁전봉 -15149
▁조회 -15150
▁로스트 -15151
▁볼프강 -15152
▁이광수 -15153
▁해인사 -15154
▁Star -15155
▁ᆫㄷㅏㄴ -15156
▁매사추세츠주 -15157
▁펙 -15158
▁결여 -15159
▁맹렬 -15160
▁섹션 -15161
▁용맹 -15162
▁유틸 -15163
▁이만 -15164
▁정역 -15165
▁주포 -15166
▁헬스 -15167
▁홀수 -15168
하마드 -15169
▁대혁명 -15170
▁레이건 -15171
▁안철수 -15172
▁오슬로 -15173
▁정착지 -15174
▁유틸리티 -15175
▁짚 -15176
르바 -15177
조류 -15178
▁어선 -15179
▁우니 -15180
▁자백 -15181
▁헤라 -15182
▁가우스 -15183
▁개척자 -15184
▁실린더 -15185
▁Super -15186
▁구라 -15187
▁발광 -15188
▁베가 -15189
▁양동 -15190
▁오인 -15191
▁일면 -15192
▁입찰 -15193
▁젤리 -15194
▁타파 -15195
▁310 -15196
▁Sun -15197
▁대사간 -15198
▁국가원수 -15199
플레 -15200
▁my -15201
▁개경 -15202
▁나바 -15203
▁보국 -15204
▁사생 -15205
▁수주 -15206
▁아칸 -15207
▁퇴출 -15208
▁개막식 -15209
▁불러오 -15210
▁오토바이 -15211
▁얄 -15212
댓값 -15213
배마 -15214
▁거문 -15215
▁달력 -15216
▁발진 -15217
▁손수 -15218
▁수프 -15219
▁짝수 -15220
▁커브 -15221
▁평방 -15222
▁국내선 -15223
▁예문관 -15224
▁울주군 -15225
▁원정대 -15226
▁앨라배마 -15227
▁어우러지 -15228
▁공석 -15229
▁도매 -15230
▁멜라 -15231
▁상설 -15232
▁안주 -15233
▁연해 -15234
▁추장 -15235
▁호화 -15236
떨어지 -15237
▁209 -15238
▁바빌론 -15239
▁끔 -15240
소니 -15241
▁교감 -15242
▁사탄 -15243
▁승낙 -15244
▁폐차 -15245
▁폐하 -15246
▁you -15247
▁윤치영 -15248
▁그래픽스 -15249
▁유니코드 -15250
▁후쿠시마현 -15251
구미 -15252
어놓 -15253
의식 -15254
▁교인 -15255
▁김도 -15256
▁미러 -15257
▁시력 -15258
▁추밀 -15259
▁타밀 -15260
▁템플 -15261
▁토프 -15262
▁통감 -15263
▁브레멘 -15264
▁자치현 -15265
▁뉴잉글랜드 -15266
▁콘스탄티누스 -15267
TF -15268
▁뽀 -15269
학파 -15270
iel -15271
▁ad -15272
▁근세 -15273
▁금관 -15274
▁김주 -15275
▁명륜 -15276
▁부락 -15277
▁산정 -15278
▁수문 -15279
▁디에고 -15280
▁무신론 -15281
▁셀레우 -15282
▁아니면 -15283
▁자오선 -15284
바퀴 -15285
▁DO -15286
▁과달 -15287
▁맞배 -15288
▁박경 -15289
▁상층 -15290
▁성조 -15291
▁의인 -15292
▁탄두 -15293
▁피그 -15294
▁교황령 -15295
▁르완다 -15296
▁삼거리 -15297
▁1812 -15298
▁Soul -15299
초프 -15300
티어 -15301
▁강유 -15302
▁김덕 -15303
▁로컬 -15304
▁속초 -15305
▁정실 -15306
▁충동 -15307
▁터스 -15308
▁대관식 -15309
▁송진우 -15310
▁에이브 -15311
▁모니터링 -15312
▁무형문화재 -15313
vel -15314
▁Kn -15315
▁나시 -15316
▁뚫리 -15317
▁로런 -15318
▁보디 -15319
▁산인 -15320
▁선별 -15321
▁장강 -15322
▁지카 -15323
▁206 -15324
▁단말기 -15325
▁대제학 -15326
▁아스카 -15327
▁에이지 -15328
▁페스트 -15329
▁한자어 -15330
▁ICBM -15331
▁선거관리 -15332
▁알렉세이 -15333
▁선거관리위원회 -15334
59 -15335
▁닷컴 -15336
▁떠돌 -15337
▁루손 -15338
▁모션 -15339
▁문건 -15340
▁아호 -15341
▁어학 -15342
▁장지 -15343
▁지검 -15344
▁항문 -15345
▁호국 -15346
▁호이 -15347
▁에세이 -15348
▁자본가 -15349
▁근위 -15350
▁다윗 -15351
▁무위 -15352
▁무진 -15353
▁센타 -15354
▁수구 -15355
▁안면 -15356
▁어지 -15357
▁주유 -15358
▁투니 -15359
하우스 -15360
▁대대장 -15361
▁음식점 -15362
▁John -15363
▁아이파크 -15364
▁중앙일보 -15365
▁Christ -15366
▁쑹 -15367
디드 -15368
▁늦추 -15369
▁루드 -15370
▁세제 -15371
▁코우 -15372
▁여수시 -15373
▁주거지 -15374
▁서비스업 -15375
도감 -15376
샤오 -15377
ute -15378
▁걸스 -15379
▁금천 -15380
▁동급 -15381
▁메드 -15382
▁법상 -15383
▁빨강 -15384
▁산동 -15385
▁샤오 -15386
▁스쿼 -15387
▁풀이 -15388
▁조르주 -15389
▁안토니우스 -15390
면적 -15391
▁배타 -15392
▁장이 -15393
▁쪼개 -15394
시아키 -15395
▁기생충 -15396
▁록히드 -15397
▁슈투트 -15398
▁조광조 -15399
▁주제가 -15400
▁1879 -15401
▁건국훈장 -15402
▁막시밀리 -15403
▁슈투트가르트 -15404
EA -15405
TR -15406
네오 -15407
탄올 -15408
▁ON -15409
▁Tw -15410
▁그늘 -15411
▁마다 -15412
▁매듭 -15413
▁변성 -15414
▁수라 -15415
▁수질 -15416
▁점토 -15417
▁차역 -15418
▁철기 -15419
▁콜론 -15420
▁해주 -15421
공화당 -15422
▁민주공화당 -15423
구나 -15424
▁Mi -15425
▁교재 -15426
▁도자 -15427
▁범람 -15428
▁솔리 -15429
▁양원 -15430
▁조던 -15431
▁진심 -15432
▁초식 -15433
▁로널드 -15434
▁안데스 -15435
▁접미사 -15436
▁조봉암 -15437
버라 -15438
팩스 -15439
▁로지 -15440
▁버밍 -15441
▁세밀 -15442
▁의논 -15443
▁집적 -15444
▁천자 -15445
▁춘계 -15446
▁카보 -15447
▁747 -15448
▁고지대 -15449
▁보이즈 -15450
▁의병장 -15451
▁테헤란 -15452
▁베르사유 -15453
▁북대서양 -15454
방스 -15455
▁HP -15456
▁당상 -15457
▁슬러 -15458
▁이건 -15459
▁하강 -15460
▁카지노 -15461
▁파르마 -15462
▁일렉트로닉 -15463
gh -15464
무지 -15465
▁규합 -15466
▁대방 -15467
▁손쉽 -15468
▁백두산 -15469
▁연대장 -15470
▁제이크 -15471
▁피어스 -15472
▁Mr -15473
▁도파 -15474
▁울루 -15475
▁유계 -15476
▁초회 -15477
▁카토 -15478
▁게이오 -15479
▁바닷가 -15480
▁석회암 -15481
OK -15482
▁IF -15483
▁양념 -15484
▁위축 -15485
▁콘스 -15486
▁휴일 -15487
▁CoA -15488
▁des -15489
▁독재자 -15490
▁사우디 -15491
▁름 -15492
화산 -15493
▁관개 -15494
▁귀순 -15495
▁대여 -15496
▁동맥 -15497
▁부기 -15498
▁스완 -15499
▁영도 -15500
▁유세 -15501
▁이코 -15502
▁자석 -15503
▁포상 -15504
라이스 -15505
▁App -15506
▁여러분 -15507
▁태블릿 -15508
▁아브라함 -15509
네프 -15510
분투 -15511
▁공경 -15512
▁아람 -15513
▁임실 -15514
▁청일 -15515
▁카펠 -15516
▁420 -15517
▁라그랑 -15518
▁여행자 -15519
▁뉴올리언스 -15520
슐리 -15521
▁고후 -15522
▁구비 -15523
▁농담 -15524
▁딱딱 -15525
▁사파 -15526
▁소량 -15527
▁유보 -15528
▁카파 -15529
▁쿠시 -15530
▁클럭 -15531
▁황위 -15532
로세서 -15533
▁개개인 -15534
▁레코딩 -15535
정변 -15536
▁노역 -15537
▁두부 -15538
▁듀스 -15539
▁방탄 -15540
▁스텐 -15541
▁영종 -15542
▁컬링 -15543
레틱스 -15544
▁리그컵 -15545
▁사가미 -15546
▁아이작 -15547
▁암스트 -15548
리아누스 -15549
▁애슬레틱스 -15550
▁과감 -15551
▁국문 -15552
▁군마 -15553
▁노마 -15554
▁단수 -15555
▁모태 -15556
▁수족 -15557
▁일보 -15558
▁카다 -15559
▁호시 -15560
▁글리제 -15561
▁무사시 -15562
▁썸 -15563
연맹 -15564
▁가창 -15565
▁권투 -15566
▁기권 -15567
▁동대 -15568
▁두스 -15569
▁머큐 -15570
▁반달 -15571
▁불문 -15572
▁스킨 -15573
를레앙 -15574
▁니가타 -15575
▁인산화 -15576
신보 -15577
▁보아 -15578
▁비오 -15579
▁상이 -15580
▁소포 -15581
▁양정 -15582
▁원한 -15583
▁전열 -15584
▁정맥 -15585
▁최용 -15586
▁오메가 -15587
▁트리스 -15588
▁원종공신 -15589
▁주머니쥐 -15590
▁꽝 -15591
블릭 -15592
▁강가 -15593
▁능숙 -15594
▁니치 -15595
▁열람 -15596
▁인삼 -15597
▁처칠 -15598
▁체리 -15599
▁현수 -15600
▁국방군 -15601
▁알칼리 -15602
▁Record -15603
VID -15604
ull -15605
▁Gu -15606
▁김시 -15607
▁반납 -15608
▁인척 -15609
▁풍요 -15610
▁호적 -15611
▁440 -15612
▁영사관 -15613
▁쿵 -15614
자드 -15615
▁"| -15616
▁PA -15617
▁광시 -15618
▁끊이 -15619
▁불능 -15620
▁시타 -15621
▁조우 -15622
▁할구 -15623
▁잠비아 -15624
▁테크노 -15625
▁들어올리 -15626
▁print -15627
▁아우구스트 -15628
▁부화 -15629
▁빛깔 -15630
▁애호 -15631
▁예보 -15632
▁용역 -15633
▁유상 -15634
▁변호인 -15635
▁타지키스탄 -15636
▁public -15637
링크 -15638
박이 -15639
산업 -15640
선교 -15641
장군 -15642
티보 -15643
▁끔찍 -15644
▁대등 -15645
▁리퍼 -15646
▁차차 -15647
▁폴로 -15648
▁항전 -15649
▁후추 -15650
▁Str -15651
▁바실리 -15652
▁수영장 -15653
▁항생제 -15654
▁퀼 -15655
길준 -15656
▁po -15657
▁궁주 -15658
▁도나 -15659
▁부트 -15660
▁수아 -15661
▁신익 -15662
▁왕녀 -15663
▁중등 -15664
▁커리 -15665
▁타라 -15666
▁그러면 -15667
▁스위트 -15668
▁엘리스 -15669
▁오토모 -15670
▁클라리 -15671
▁합병증 -15672
반정 -15673
태자 -15674
▁금기 -15675
▁낯설 -15676
▁동하 -15677
▁미타 -15678
▁아로 -15679
▁용문 -15680
▁잇달 -15681
▁해커 -15682
▁Per -15683
▁본거지 -15684
▁유기체 -15685
▁허버트 -15686
▁쑨 -15687
대비 -15688
수지 -15689
▁nm -15690
▁나토 -15691
▁남경 -15692
▁노엘 -15693
▁성자 -15694
▁성현 -15695
▁유민 -15696
▁은평 -15697
▁자각 -15698
▁제방 -15699
▁종실 -15700
▁타선 -15701
▁환산 -15702
▁산투스 -15703
▁실리콘 -15704
▁엘리엇 -15705
▁여주인 -15706
▁페이퍼 -15707
바이러스 -15708
▁불법행위 -15709
▁파르티아 -15710
덕궁 -15711
레미 -15712
자나 -15713
▁감당 -15714
▁리노 -15715
▁소진 -15716
▁아루 -15717
▁이한 -15718
▁전곡 -15719
▁접목 -15720
▁제고 -15721
▁투병 -15722
▁화이 -15723
▁공성전 -15724
▁군주제 -15725
▁바레인 -15726
▁야구부 -15727
▁양산시 -15728
▁엔리케 -15729
▁영화관 -15730
▁조용히 -15731
▁ㅇㅡㄹㅅㅜ -15732
▁엔지니어링 -15733
▁교학 -15734
▁기시 -15735
▁사나 -15736
▁압수 -15737
▁유관 -15738
▁증축 -15739
▁퀸스 -15740
▁환초 -15741
▁흐트 -15742
▁256 -15743
▁오우치 -15744
▁CA -15745
▁동두 -15746
▁라쿠 -15747
▁문어 -15748
▁북마 -15749
▁앙상 -15750
▁온전 -15751
▁요셉 -15752
▁콜리 -15753
▁기본법 -15754
▁시에라 -15755
▁제시카 -15756
▁카스텔 -15757
▁2500 -15758
▁천문단위 -15759
▁다마스쿠스 -15760
황제 -15761
▁당장 -15762
▁리지 -15763
▁명동 -15764
▁무패 -15765
▁식이 -15766
▁역동 -15767
▁열거 -15768
▁왕좌 -15769
▁이석 -15770
▁이설 -15771
▁코인 -15772
로그램 -15773
▁비행사 -15774
▁살아오 -15775
▁초고층 -15776
▁플래닛 -15777
16 -15778
발트 -15779
쿠치 -15780
▁게놈 -15781
▁군도 -15782
▁담수 -15783
▁마거 -15784
▁사스 -15785
▁자존 -15786
▁코니 -15787
▁투기 -15788
▁파고 -15789
▁Win -15790
▁왕당파 -15791
▁캅카스 -15792
▁리바운드 -15793
25 -15794
포리 -15795
ual -15796
▁논평 -15797
▁바바 -15798
▁성형 -15799
▁앉히 -15800
▁우타 -15801
▁쿠루 -15802
▁ㅁㅓㄴ -15803
▁랴오닝 -15804
▁접근성 -15805
▁즐거움 -15806
▁뜯 -15807
일체 -15808
▁매복 -15809
▁사목 -15810
▁사체 -15811
▁아역 -15812
▁유미 -15813
▁피질 -15814
▁헐리 -15815
ogle -15816
▁Hot -15817
▁광합성 -15818
▁부추기 -15819
▁크리스탈 -15820
▁헬레니즘 -15821
데오 -15822
스틱 -15823
▁균등 -15824
▁성교 -15825
▁시영 -15826
▁실베 -15827
▁오차 -15828
▁카츠 -15829
▁패자 -15830
▁향로 -15831
고로드 -15832
▁고다이 -15833
▁리바이 -15834
▁부서지 -15835
▁이세이 -15836
자락 -15837
▁ER -15838
▁교명 -15839
▁내시 -15840
▁농협 -15841
▁상회 -15842
▁석재 -15843
▁접시 -15844
▁중신 -15845
▁호찌 -15846
▁호투 -15847
▁남북조 -15848
▁브루노 -15849
▁예수교 -15850
▁리치먼드 -15851
ty -15852
커우 -15853
▁라사 -15854
▁셔츠 -15855
▁응력 -15856
그래피 -15857
▁맞물리 -15858
▁버스터 -15859
▁페르시 -15860
▁대법원장 -15861
▁사이클론 -15862
▁캥 -15863
다임 -15864
▁Ke -15865
▁담임 -15866
▁동체 -15867
▁아구 -15868
▁왕릉 -15869
▁코일 -15870
▁힐스 -15871
▁208 -15872
▁예비군 -15873
▁제주시 -15874
▁조연상 -15875
▁주둔지 -15876
▁춘천시 -15877
▁프리드 -15878
ㅁㅏㄹㄹㅗ -15879
▁아미타여래 -15880
무트 -15881
울루 -15882
▁가결 -15883
▁광동 -15884
▁이보 -15885
▁정직 -15886
▁킬러 -15887
▁탈피 -15888
▁베이직 -15889
▁오이타 -15890
▁유도탄 -15891
▁1789 -15892
▁ㅣ -15893
▁미녀 -15894
▁반정 -15895
▁부안 -15896
▁시온 -15897
▁할로 -15898
▁행운 -15899
던지기 -15900
▁스텔스 -15901
▁지극히 -15902
▁Back -15903
▁플랑드르 -15904
는점 -15905
RNA -15906
▁HS -15907
▁mu -15908
▁고독 -15909
▁스팀 -15910
▁촐라 -15911
▁칠곡 -15912
▁히코 -15913
프리드 -15914
▁911 -15915
▁머큐리 -15916
▁부러지 -15917
▁사무엘 -15918
▁유길준 -15919
▁잠재력 -15920
▁조제프 -15921
▁후유증 -15922
▁1801 -15923
▁기타큐슈 -15924
▁패러다임 -15925
평면 -15926
▁곱하 -15927
▁금리 -15928
▁바타 -15929
▁반향 -15930
▁소노 -15931
▁양구 -15932
▁예쁘 -15933
▁트램 -15934
▁렌더링 -15935
▁1400 -15936
▁깊숙 -15937
▁녹이 -15938
▁느슨 -15939
▁득실 -15940
▁실책 -15941
▁악어 -15942
▁지브 -15943
▁진성 -15944
▁초석 -15945
리오스 -15946
▁네바다 -15947
▁아르테 -15948
▁호기심 -15949
▁암스트롱 -15950
▁포틀랜드 -15951
ll -15952
인산 -15953
▁Fl -15954
▁강자 -15955
▁개표 -15956
▁그릴 -15957
▁누마 -15958
▁봉분 -15959
▁안시 -15960
▁원곡 -15961
▁MIT -15962
▁깨어나 -15963
▁들여오 -15964
▁영문학 -15965
▁Kore -15966
▁KD -15967
▁NM -15968
▁기피 -15969
▁여관 -15970
▁유독 -15971
▁이크 -15972
▁침수 -15973
▁파피 -15974
▁Get -15975
▁재결합 -15976
▁남한산성 -15977
▁비로자나 -15978
▁MD -15979
▁강타 -15980
▁기한 -15981
▁신천 -15982
▁영성 -15983
▁윤곽 -15984
▁작자 -15985
▁총생 -15986
▁치킨 -15987
▁로런스 -15988
▁생산자 -15989
▁NATO -15990
ox -15991
불명 -15992
스텐 -15993
▁멘델 -15994
▁애프 -15995
▁오웬 -15996
▁중학 -15997
▁폐교 -15998
▁370 -15999
▁길버트 -16000
▁내몽골 -16001
▁사망률 -16002
▁사천왕 -16003
▁슈트라 -16004
▁양평군 -16005
▁영장류 -16006
▁판매고 -16007
▁킵 -16008
제사 -16009
▁NA -16010
▁갑신 -16011
▁군량 -16012
▁대용 -16013
▁동률 -16014
▁워낙 -16015
▁전과 -16016
▁정중 -16017
▁즉흥 -16018
▁치밀 -16019
▁방법론 -16020
▁브릿지 -16021
▁웨슬리 -16022
▁프린세스 -16023
▁쐐 -16024
라과 -16025
▁NL -16026
▁가전 -16027
▁거품 -16028
▁교란 -16029
▁구부 -16030
▁구애 -16031
▁조율 -16032
▁채집 -16033
ames -16034
▁다행히 -16035
▁슈트라우스 -16036
빨리 -16037
▁겨냥 -16038
▁약품 -16039
▁준하 -16040
▁탄력 -16041
lect -16042
▁마거릿 -16043
▁마운틴 -16044
▁매니아 -16045
▁불거지 -16046
▁선수상 -16047
▁앙상블 -16048
▁요나라 -16049
▁지배하 -16050
▁토론회 -16051
▁미식축구 -16052
▁항공우주 -16053
▁Intern -16054
로움 -16055
▁균열 -16056
▁극회 -16057
▁노골 -16058
▁도화 -16059
▁승선 -16060
▁쐐기 -16061
▁총국 -16062
▁붉은색 -16063
▁드래곤즈 -16064
▁탄수화물 -16065
▁렬 -16066
▁국산 -16067
▁군림 -16068
▁기일 -16069
▁내기 -16070
▁레저 -16071
▁미로 -16072
▁발열 -16073
▁사조 -16074
▁세타 -16075
▁승마 -16076
▁에픽 -16077
▁우디 -16078
▁커넥 -16079
▁코딩 -16080
▁타키 -16081
▁트론 -16082
▁알베르 -16083
ology -16084
▁독립선언 -16085
▁가변 -16086
▁관원 -16087
▁관저 -16088
▁궁수 -16089
▁노름 -16090
▁민선 -16091
▁쌍용 -16092
▁얼리 -16093
▁예편 -16094
▁첫날 -16095
▁청중 -16096
▁출정 -16097
▁코디 -16098
▁현관 -16099
▁호지 -16100
▁후난 -16101
▁메신저 -16102
▁오리건 -16103
▁리하르트 -16104
▁이마가와 -16105
▁해수욕장 -16106
YP -16107
이상 -16108
피카 -16109
let -16110
▁먼로 -16111
▁미디 -16112
▁성부 -16113
▁신궁 -16114
▁악의 -16115
▁제헌 -16116
▁탄성 -16117
▁Mag -16118
▁남아공 -16119
▁동일시 -16120
▁디렉터 -16121
▁부천시 -16122
▁추축국 -16123
▁흘러가 -16124
ature -16125
▁생물학자 -16126
▁셀레우코스 -16127
모닉 -16128
▁변천 -16129
▁안건 -16130
▁열기 -16131
▁제타 -16132
▁체질 -16133
▁카인 -16134
▁케로 -16135
▁디아스 -16136
▁클라인 -16137
그라운드 -16138
▁Baby -16139
▁니카라과 -16140
레븐 -16141
백색 -16142
▁군위 -16143
▁니트 -16144
▁무루 -16145
▁유재 -16146
▁장승 -16147
▁지회 -16148
▁책정 -16149
▁캔터 -16150
▁하세 -16151
▁급속도 -16152
▁미요시 -16153
▁방문객 -16154
▁돼지고기 -16155
▁레오나르 -16156
의금 -16157
ove -16158
▁구명 -16159
▁생포 -16160
▁광주시 -16161
▁베테랑 -16162
▁와이어 -16163
▁유물론 -16164
▁작아지 -16165
▁콜라보 -16166
▁서귀포시 -16167
▁에두아르 -16168
17 -16169
GO -16170
경찰 -16171
득점 -16172
락부 -16173
▁공훈 -16174
▁나날 -16175
▁누에 -16176
▁다채 -16177
▁안락 -16178
▁주스 -16179
▁진위 -16180
▁초판 -16181
▁최순 -16182
▁효성 -16183
▁흉내 -16184
▁225 -16185
▁기네스 -16186
▁범어사 -16187
▁부사장 -16188
▁브루크 -16189
▁블러드 -16190
▁신안군 -16191
▁주세페 -16192
▁태양광 -16193
▁둠 -16194
남동 -16195
enn -16196
▁Cr -16197
▁고관 -16198
▁로만 -16199
▁무소 -16200
▁베아 -16201
▁오랑 -16202
▁카불 -16203
▁캡틴 -16204
▁탄광 -16205
▁호전 -16206
▁황하 -16207
코비치 -16208
피에르 -16209
▁고스트 -16210
▁시나노 -16211
▁요시카 -16212
▁최진실 -16213
▁페라리 -16214
UM -16215
ors -16216
▁BB -16217
▁BO -16218
▁레반 -16219
▁리라 -16220
▁만물 -16221
▁생장 -16222
▁출항 -16223
▁카노 -16224
▁파출 -16225
▁피시 -16226
▁합장 -16227
스트림 -16228
inal -16229
▁GPS -16230
▁나카노 -16231
▁다카시 -16232
▁리카르 -16233
▁프레더릭 -16234
▁베오그라드 -16235
▁안티오키아 -16236
▁씬 -16237
심원 -16238
▁강구 -16239
▁경산 -16240
▁김장 -16241
▁도보 -16242
▁사옥 -16243
▁사일 -16244
▁수화 -16245
▁외가 -16246
▁천태 -16247
▁김종직 -16248
▁두더지 -16249
▁압둘라 -16250
▁이치로 -16251
▁혈액형 -16252
▁게오르기 -16253
▁트로츠키 -16254
▁갸 -16255
▁뿜 -16256
능력 -16257
무실 -16258
파니 -16259
▁가령 -16260
▁매튜 -16261
▁박태 -16262
▁비방 -16263
▁연어 -16264
▁철근 -16265
▁하츠 -16266
말라야 -16267
▁Res -16268
▁강릉시 -16269
▁만주족 -16270
▁이유로 -16271
훈련 -16272
▁DA -16273
▁공지 -16274
▁대소 -16275
▁무쓰 -16276
▁잔치 -16277
▁출병 -16278
▁틈타 -16279
▁365 -16280
▁거듭나 -16281
▁체육회 -16282
▁후반전 -16283
▁서대문구 -16284
▁선거인단 -16285
TN -16286
덱스 -16287
▁고취 -16288
▁불길 -16289
▁솔직 -16290
▁운석 -16291
▁유감 -16292
▁장차 -16293
▁키치 -16294
▁포메 -16295
▁207 -16296
▁스펜서 -16297
▁이지스 -16298
▁인문학 -16299
▁타일러 -16300
▁Amer -16301
▁로베르트 -16302
광사 -16303
금속 -16304
메랄 -16305
▁MR -16306
▁개리 -16307
▁교내 -16308
▁깁슨 -16309
▁도식 -16310
▁라테 -16311
▁명장 -16312
▁살레 -16313
▁알마 -16314
▁유익 -16315
▁조너 -16316
▁효모 -16317
▁흡입 -16318
▁동북부 -16319
▁스트라 -16320
▁아열대 -16321
▁해수면 -16322
즈미 -16323
▁OK -16324
▁개축 -16325
▁결투 -16326
▁공평 -16327
▁도량 -16328
▁레르 -16329
▁맞닿 -16330
▁명중 -16331
▁베라 -16332
▁봉헌 -16333
▁브이 -16334
▁야만 -16335
▁조엘 -16336
▁천적 -16337
▁통킹 -16338
▁풋살 -16339
▁스태프 -16340
▁지방도 -16341
▁프린터 -16342
노스아이 -16343
▁1815 -16344
노스아이레스 -16345
▁부에노스아이레스 -16346
24 -16347
마니 -16348
app -16349
▁듀엣 -16350
▁미끄 -16351
▁사계 -16352
▁세도 -16353
▁에든 -16354
▁직각 -16355
▁청군 -16356
▁한꺼 -16357
▁핼리 -16358
▁흑색 -16359
스티안 -16360
▁감마선 -16361
▁무정부 -16362
▁알레산 -16363
▁에든버러 -16364
▁한꺼번에 -16365
▁히말라야 -16366
▁아르바이트 -16367
FS -16368
▁격화 -16369
▁습도 -16370
▁신안 -16371
▁친히 -16372
▁퇴계 -16373
▁폭주 -16374
이즈미 -16375
▁Way -16376
▁야행성 -16377
▁일제히 -16378
▁페레스 -16379
▁레닌그라드 -16380
시카 -16381
차리 -16382
ina -16383
▁내역 -16384
▁모잠 -16385
▁미추 -16386
▁박동 -16387
▁변조 -16388
▁북송 -16389
▁비이 -16390
▁시성 -16391
▁양위 -16392
▁전극 -16393
▁한라 -16394
▁농민군 -16395
▁어드밴 -16396
▁조합원 -16397
▁태극기 -16398
▁1820 -16399
▁리얼리티 -16400
▁모잠비크 -16401
갱이 -16402
나비 -16403
월드 -16404
현실 -16405
▁격침 -16406
▁공보 -16407
▁기형 -16408
▁담장 -16409
▁증류 -16410
▁표어 -16411
▁오징어 -16412
▁라이온스 -16413
▁낸 -16414
▁Dr -16415
▁굳이 -16416
▁베컴 -16417
▁소마 -16418
▁약수 -16419
▁월경 -16420
▁춘향 -16421
▁해머 -16422
▁호박 -16423
ater -16424
▁국무부 -16425
▁리그전 -16426
▁시아파 -16427
▁지포스 -16428
▁후베이 -16429
▁Cent -16430
▁마쓰모토 -16431
▁이리하여 -16432
로프로세서 -16433
▁System -16434
▁마이크로프로세서 -16435
▁결렬 -16436
▁그간 -16437
▁김석 -16438
▁데니 -16439
▁로제 -16440
▁부이 -16441
▁에다 -16442
▁인노 -16443
▁천리 -16444
▁트롤 -16445
▁ㅇㅗㅂ -16446
▁디나모 -16447
▁유명세 -16448
▁제품군 -16449
▁조병옥 -16450
▁막시밀리안 -16451
▁결단 -16452
▁김은 -16453
▁마취 -16454
▁서곡 -16455
▁설과 -16456
▁에인 -16457
▁지반 -16458
▁총수 -16459
▁필로 -16460
▁허들 -16461
▁ㄱㅜㄴ -16462
▁트럼펫 -16463
▁모노이드 -16464
▁알베르트 -16465
▁둑 -16466
거루 -16467
▁노총 -16468
▁담그 -16469
▁던전 -16470
▁세실 -16471
▁소켓 -16472
▁술집 -16473
▁시편 -16474
▁어인 -16475
▁피쳐 -16476
어들이 -16477
▁넘어지 -16478
▁도나우 -16479
▁사법부 -16480
▁전망대 -16481
▁함부로 -16482
▁1858 -16483
▁오스트로 -16484
▁유럽연합 -16485
▁카롤루스 -16486
▁알렉산드라 -16487
za -16488
▁앳 -16489
가요 -16490
▁리서 -16491
▁미완 -16492
▁산마 -16493
▁성내 -16494
▁스틱 -16495
▁양분 -16496
▁장론 -16497
▁장서 -16498
▁조나 -16499
▁죄인 -16500
▁쿠사 -16501
레이즈 -16502
▁아드리 -16503
▁혁명가 -16504
▁이오니아 -16505
▁프로방스 -16506
쓰네 -16507
▁SW -16508
▁격상 -16509
▁당사 -16510
▁마초 -16511
▁아토 -16512
▁옵티 -16513
▁윈드 -16514
▁학도 -16515
▁Mac -16516
▁연습생 -16517
▁유공자 -16518
▁일진회 -16519
▁전동기 -16520
▁정몽주 -16521
▁파블로 -16522
▁고고학자 -16523
▁이성질체 -16524
입자 -16525
처럼 -16526
▁'- -16527
▁서역 -16528
▁으뜸 -16529
▁이구 -16530
▁재심 -16531
▁코넬 -16532
▁하카 -16533
▁민의원 -16534
▁신익희 -16535
▁총생산 -16536
▁마그네슘 -16537
▁class -16538
▁폴리네시아 -16539
▁폼페이우스 -16540
동리 -16541
비츠 -16542
ons -16543
▁"' -16544
▁갈비 -16545
▁갑오 -16546
▁녹말 -16547
▁만수 -16548
▁성찬 -16549
▁에뮬 -16550
▁융기 -16551
▁좌랑 -16552
▁탈리 -16553
▁테살 -16554
ange -16555
▁모델링 -16556
▁제노바 -16557
▁맞배지붕 -16558
▁챈 -16559
오드 -16560
토바 -16561
▁결실 -16562
▁기주 -16563
▁배지 -16564
▁슐레 -16565
▁장택 -16566
▁창씨 -16567
ions -16568
▁도치기 -16569
▁봉수대 -16570
▁조너선 -16571
▁필리스 -16572
가라 -16573
니츠 -16574
▁결집 -16575
▁더빙 -16576
▁벅스 -16577
▁본진 -16578
▁직류 -16579
▁특위 -16580
▁펜스 -16581
▁형광 -16582
▁화교 -16583
▁마에다 -16584
▁중심핵 -16585
▁크레타 -16586
▁포인터 -16587
▁무궁화호 -16588
코인 -16589
▁굴욕 -16590
▁달마 -16591
▁본능 -16592
▁상해 -16593
▁소정 -16594
▁엠마 -16595
▁출루 -16596
▁태상 -16597
▁합산 -16598
▁Tra -16599
▁군산시 -16600
▁날아오 -16601
▁노트북 -16602
▁목포시 -16603
▁스와프 -16604
▁유성구 -16605
▁필하모닉 -16606
▁써 -16607
러기 -16608
▁고택 -16609
▁동티 -16610
▁만연 -16611
▁수강 -16612
▁완산 -16613
▁이철 -16614
▁자막 -16615
▁좌천 -16616
▁특혜 -16617
▁그리드 -16618
▁노무라 -16619
▁선데이 -16620
▁시게루 -16621
▁서프랑크 -16622
▁천연가스 -16623
att -16624
▁SG -16625
▁기민 -16626
▁기욤 -16627
▁낙태 -16628
▁농작 -16629
▁도난 -16630
▁매질 -16631
▁분담 -16632
▁새해 -16633
▁소탕 -16634
▁의왕 -16635
▁정공 -16636
▁지뢰 -16637
▁진구 -16638
▁충고 -16639
▁해내 -16640
▁가디언 -16641
▁분홍색 -16642
▁안티고 -16643
▁트랜싯 -16644
사랑 -16645
ret -16646
▁광서 -16647
▁남궁 -16648
▁디펜 -16649
▁로타 -16650
▁성제 -16651
▁아말 -16652
▁안재 -16653
▁포섭 -16654
▁푸틴 -16655
▁헬렌 -16656
지먼트 -16657
▁USA -16658
▁대학살 -16659
▁지팡이 -16660
▁type -16661
▁알아차리 -16662
▁동아프리카 -16663
▁매니지먼트 -16664
▁소크라테스 -16665
ux -16666
▁귤 -16667
당류 -16668
라나 -16669
▁달래 -16670
▁대정 -16671
▁영위 -16672
▁육박 -16673
▁이삭 -16674
▁정과 -16675
▁정현 -16676
▁종단 -16677
▁총살 -16678
▁토드 -16679
▁토의 -16680
▁Int -16681
▁쌍방울 -16682
▁직할시 -16683
▁평상시 -16684
널목 -16685
▁급사 -16686
▁기교 -16687
▁미자 -16688
▁사보 -16689
▁수선 -16690
▁위태 -16691
▁재주 -16692
▁콘셉 -16693
▁펠레 -16694
▁헤지 -16695
▁IEC -16696
▁MHz -16697
▁Not -16698
▁ㄱㅔㅅ -16699
▁건널목 -16700
▁넘어오 -16701
▁라이드 -16702
▁적절히 -16703
▁전철역 -16704
▁평의원 -16705
▁1300 -16706
▁1814 -16707
▁High -16708
거성 -16709
실험 -16710
자유 -16711
재단 -16712
촌동 -16713
ART -16714
▁궁내 -16715
▁납품 -16716
▁덕수 -16717
▁문성 -16718
▁벨벳 -16719
▁아약 -16720
▁건너편 -16721
▁겨울철 -16722
▁충주시 -16723
▁보호구역 -16724
▁알베르토 -16725
정제 -16726
컨드 -16727
테일 -16728
ley -16729
▁Of -16730
▁마틸 -16731
▁소치 -16732
▁위배 -16733
▁음역 -16734
▁이덕 -16735
▁전집 -16736
▁테드 -16737
▁토하 -16738
▁튀기 -16739
▁휴먼 -16740
▁흥덕 -16741
▁War -16742
▁깨달음 -16743
▁티무르 -16744
▁평택시 -16745
▁항소심 -16746
▁산업단지 -16747
▁Google -16748
기둥 -16749
▁견지 -16750
▁경구 -16751
▁귀하 -16752
▁독실 -16753
▁바사 -16754
▁부탄 -16755
▁석등 -16756
▁선서 -16757
▁음양 -16758
▁퍼플 -16759
▁핑계 -16760
▁마피아 -16761
▁성북구 -16762
▁연구실 -16763
▁오나라 -16764
마일 -16765
민정 -16766
▁기근 -16767
▁모여 -16768
▁증직 -16769
씨식물 -16770
▁미우라 -16771
▁비올라 -16772
▁플래그 -16773
▁석가여래 -16774
▁암모니아 -16775
▁클라이맥스 -16776
BN -16777
니코 -16778
랭크 -16779
림동 -16780
▁고요 -16781
▁레미 -16782
▁마도 -16783
▁미에 -16784
▁사악 -16785
▁윗면 -16786
▁주상 -16787
▁헤임 -16788
▁홍천 -16789
▁밀어내 -16790
▁패트리 -16791
▁프렌즈 -16792
▁What -16793
▁군집 -16794
▁목화 -16795
▁민가 -16796
▁버거 -16797
▁스팅 -16798
▁유승 -16799
▁캐럴 -16800
▁퀘이 -16801
ㄴㄱㅏ -16802
▁WHO -16803
▁광화문 -16804
▁세컨드 -16805
▁수도사 -16806
▁아약스 -16807
▁액티브 -16808
▁혁명군 -16809
살바도르 -16810
▁1795 -16811
▁그래미상 -16812
▁플레이스 -16813
▁엎 -16814
싸움 -16815
토쿠 -16816
▁FS -16817
▁군락 -16818
▁규장 -16819
▁도표 -16820
▁시차 -16821
▁신관 -16822
▁실태 -16823
▁전란 -16824
▁콤비 -16825
▁헨드 -16826
▁LCK -16827
▁니스트 -16828
▁막아내 -16829
▁미시간 -16830
▁연금술 -16831
▁우승컵 -16832
▁통신부 -16833
▁플라자 -16834
▁다리우스 -16835
▁부위원장 -16836
▁토스카나 -16837
▁윔 -16838
데냐 -16839
식스 -16840
전차 -16841
▁간지 -16842
▁고갈 -16843
▁군비 -16844
▁니체 -16845
▁라지 -16846
▁리츠 -16847
▁바하 -16848
▁보카 -16849
▁수의 -16850
▁완주 -16851
▁지층 -16852
▁페데 -16853
정보부 -16854
▁국문학 -16855
▁맞대결 -16856
▁모터쇼 -16857
▁피드백 -16858
▁사르데냐 -16859
▁조선왕조실록 -16860
회원 -16861
ger -16862
▁PH -16863
▁루지 -16864
▁말소 -16865
▁멘토 -16866
▁발췌 -16867
▁본초 -16868
▁스쿠 -16869
▁예일 -16870
▁우도 -16871
▁초당 -16872
▁패드 -16873
▁TBC -16874
▁블루어 -16875
▁익산시 -16876
▁진정하 -16877
▁디렉터리 -16878
퍼트 -16879
▁아난 -16880
▁암초 -16881
▁애매 -16882
▁앨버 -16883
▁약학 -16884
▁열망 -16885
▁우대 -16886
▁원생 -16887
▁잊히 -16888
▁전액 -16889
▁켈빈 -16890
▁키아 -16891
▁프록 -16892
▁290 -16893
▁관찰자 -16894
▁라쿠텐 -16895
▁모조리 -16896
▁성명서 -16897
▁주교좌 -16898
▁홉킨스 -16899
▁With -16900
▁샌드위치 -16901
▁공해 -16902
▁도정 -16903
▁로어 -16904
▁스톨 -16905
▁얼터 -16906
▁에런 -16907
▁우사 -16908
▁제보 -16909
▁증원 -16910
▁코지 -16911
▁패퇴 -16912
▁포진 -16913
▁Dis -16914
▁MLB -16915
▁로렌초 -16916
▁스레드 -16917
▁원정군 -16918
▁이회창 -16919
▁하모니 -16920
ye -16921
▁켓 -16922
고나 -16923
구멍 -16924
alk -16925
yle -16926
▁구석 -16927
▁모식 -16928
▁몬태 -16929
▁보육 -16930
▁보훈 -16931
▁아핀 -16932
▁애쓰 -16933
▁열풍 -16934
▁인대 -16935
▁트림 -16936
▁허구 -16937
▁480 -16938
▁남조선 -16939
▁한정판 -16940
NT -16941
▁쥘 -16942
부미 -16943
카라 -16944
▁로동 -16945
▁비욘 -16946
▁춤추 -16947
▁쿠리 -16948
▁포교 -16949
▁할양 -16950
▁혼돈 -16951
▁남해군 -16952
▁리포트 -16953
▁에히메 -16954
▁커티스 -16955
▁트루먼 -16956
▁헬싱키 -16957
▁ㅁㅕㄴㅇㅡㄴ -16958
▁렝 -16959
라도 -16960
▁kW -16961
▁비호 -16962
▁세베 -16963
▁아랑 -16964
▁우이 -16965
▁장준 -16966
▁헬로 -16967
▁238 -16968
▁850 -16969
▁선언문 -16970
▁스타즈 -16971
▁창덕궁 -16972
▁창업자 -16973
▁수마트라 -16974
▁아틀레틱 -16975
▁안드레이 -16976
enc -16977
▁견훤 -16978
▁괴뢰 -16979
▁김세 -16980
▁당명 -16981
▁부녀 -16982
▁실크 -16983
▁아픔 -16984
▁정일 -16985
▁종친 -16986
▁함의 -16987
디우스 -16988
▁고조선 -16989
▁대항해 -16990
▁드레이크 -16991
IO -16992
스테 -16993
팽이 -16994
▁니나 -16995
▁반야 -16996
▁영재 -16997
▁웰스 -16998
▁유원 -16999
▁천정 -17000
▁총액 -17001
▁토비 -17002
▁풍수 -17003
▁훈족 -17004
지스터 -17005
▁정확도 -17006
▁합천군 -17007
의금부사 -17008
▁가나자와 -17009
▁그리스도인 -17010
베인 -17011
▁광택 -17012
▁덩굴 -17013
▁버시 -17014
▁보궐 -17015
▁숭실 -17016
▁알렌 -17017
▁장조 -17018
주니어 -17019
플레잉 -17020
▁개최지 -17021
▁보행자 -17022
▁북반구 -17023
▁빅토리 -17024
▁페테르 -17025
▁롤플레잉 -17026
▁크리스천 -17027
▁COVID -17028
▁매춘 -17029
▁머피 -17030
▁미숙 -17031
▁비어 -17032
▁승전 -17033
▁Art -17034
▁안데르 -17035
▁요시아키 -17036
UI -17037
레프 -17038
▁Di -17039
▁관대 -17040
▁노화 -17041
▁랜덤 -17042
▁브람 -17043
▁연유 -17044
▁정여 -17045
▁ㄷㅔㄴ -17046
▁남반구 -17047
▁보호관 -17048
▁수번뇌 -17049
▁지방관 -17050
▁충렬왕 -17051
▁타블로 -17052
▁카테고리 -17053
▁트랜지스터 -17054
▁키르기스스탄 -17055
렁이 -17056
천국 -17057
▁박승 -17058
▁보츠 -17059
▁북상 -17060
▁에린 -17061
▁웅진 -17062
▁장항 -17063
▁평신 -17064
가하라 -17065
네소스 -17066
다람쥐 -17067
▁사이공 -17068
▁취약점 -17069
▁Blue -17070
▁MPEG -17071
▁프로이트 -17072
블린 -17073
▁RA -17074
▁구룡 -17075
▁구토 -17076
▁급기 -17077
▁더럽 -17078
▁묘법 -17079
▁민권 -17080
▁서강 -17081
▁선회 -17082
▁정병 -17083
▁천구 -17084
▁첨부 -17085
▁팀장 -17086
ough -17087
▁Rev -17088
▁공기업 -17089
▁노르트 -17090
▁문하시 -17091
▁보라색 -17092
▁스타인 -17093
▁아산시 -17094
▁아칸소 -17095
▁1846 -17096
▁사탕수수 -17097
적분 -17098
OVE -17099
que -17100
▁ㄲㅗ -17101
▁각광 -17102
▁골수 -17103
▁국지 -17104
▁논설 -17105
▁대뇌 -17106
▁데메 -17107
▁데쓰 -17108
▁리저 -17109
▁미코 -17110
▁옥상 -17111
▁용접 -17112
▁윈터 -17113
▁이트 -17114
▁효용 -17115
연화경 -17116
▁산체스 -17117
▁이완용 -17118
▁크라스 -17119
▁학생회 -17120
▁1793 -17121
▁물리학상 -17122
▁브루나이 -17123
▁에드먼드 -17124
ㄷㅡㄴㄱㅏ -17125
▁그리스도교 -17126
26 -17127
▁경이 -17128
▁기악 -17129
▁수렵 -17130
▁신구 -17131
▁올랭 -17132
▁율령 -17133
▁페터 -17134
웨스트 -17135
▁유격대 -17136
▁재빨리 -17137
▁페인트 -17138
▁time -17139
▁하시모토 -17140
▁중앙정보부 -17141
ING -17142
▁'. -17143
▁갤러 -17144
▁과부 -17145
▁니콘 -17146
▁당분 -17147
▁오호 -17148
▁월북 -17149
▁직함 -17150
▁차분 -17151
▁1839 -17152
▁시즈오카현 -17153
▁아오모리현 -17154
▁뱌 -17155
나물 -17156
던스 -17157
르모 -17158
파스 -17159
▁ED -17160
▁교주 -17161
▁구자 -17162
▁국과 -17163
▁소도 -17164
▁역모 -17165
▁와해 -17166
▁쿠릴 -17167
▁공직자 -17168
▁농작물 -17169
▁등록금 -17170
▁배수량 -17171
▁추밀원 -17172
▁이베리아 -17173
▁자유민주 -17174
▁밈 -17175
건적 -17176
운전 -17177
전쟁 -17178
질량 -17179
ump -17180
▁공덕 -17181
▁굶주 -17182
▁독소 -17183
▁무당 -17184
▁존상 -17185
▁퇴단 -17186
▁하순 -17187
▁휘트 -17188
▁시어터 -17189
▁아쿠아 -17190
▁엉덩이 -17191
▁에밀리 -17192
▁여객선 -17193
▁전기장 -17194
▁중서부 -17195
▁프리킥 -17196
▁히로부미 -17197
▁촘 -17198
▁훅 -17199
바람 -17200
▁간디 -17201
▁괴멸 -17202
▁군국 -17203
▁남포 -17204
▁도색 -17205
▁맛있 -17206
▁멜론 -17207
▁이국 -17208
▁펀치 -17209
비우스 -17210
시우스 -17211
▁737 -17212
▁대머리 -17213
▁돌아서 -17214
▁바로잡 -17215
▁외무성 -17216
▁체스터 -17217
▁테트라 -17218
▁트리니다드 -17219
▁중앙아프리카 -17220
▁꼼 -17221
래시 -17222
메트 -17223
der -17224
▁Vf -17225
▁게일 -17226
▁경멸 -17227
▁몸집 -17228
▁부윤 -17229
▁설사 -17230
▁쇠약 -17231
▁순정 -17232
▁심플 -17233
▁엄정 -17234
▁유시 -17235
▁추위 -17236
▁해자 -17237
▁가시마 -17238
▁상대론 -17239
▁아테나 -17240
▁알레르 -17241
▁포스코 -17242
▁1854 -17243
▁기념사업 -17244
▁언어학자 -17245
▁걸맞 -17246
▁범용 -17247
▁본당 -17248
▁삼키 -17249
▁심근 -17250
▁아민 -17251
▁정강 -17252
▁직권 -17253
▁현충 -17254
슬라브 -17255
▁214 -17256
▁손바닥 -17257
▁수증기 -17258
▁팩토리 -17259
총리대신 -17260
▁내각총리대신 -17261
고트 -17262
뉴스 -17263
재란 -17264
후이 -17265
▁교묘 -17266
▁낙타 -17267
▁불평 -17268
▁세탁 -17269
▁손책 -17270
▁윤원 -17271
▁인신 -17272
▁표결 -17273
▁필기 -17274
▁학창 -17275
티우스 -17276
▁COM -17277
▁국무원 -17278
▁분류학 -17279
▁조계종 -17280
▁하카타 -17281
▁비지니스 -17282
▁아나키즘 -17283
▁정유재란 -17284
패스 -17285
▁등대 -17286
▁망루 -17287
▁미묘 -17288
▁방조 -17289
▁서보 -17290
▁야로 -17291
▁총체 -17292
▁메이트 -17293
▁버나드 -17294
▁윤리학 -17295
▁자연주의 -17296
대성 -17297
▁감탄 -17298
▁마한 -17299
▁브론 -17300
▁상작 -17301
▁솔트 -17302
▁이형 -17303
▁이효 -17304
▁인출 -17305
▁제식 -17306
▁코레 -17307
▁클루 -17308
▁페드 -17309
▁학급 -17310
▁교토부 -17311
▁비행대 -17312
▁산둥성 -17313
▁이브라 -17314
▁키워드 -17315
▁평화상 -17316
스트리트 -17317
▁갈릴레이 -17318
▁비트코인 -17319
▁어드밴스 -17320
▁초등학생 -17321
▁세키가하라 -17322
▁구인 -17323
▁만기 -17324
▁바일 -17325
▁억류 -17326
▁칼레 -17327
▁특례 -17328
▁환기 -17329
▁Min -17330
▁돗토리 -17331
▁안중근 -17332
▁초대칭 -17333
▁기독교인 -17334
▁미성년자 -17335
▁여주인공 -17336
28 -17337
▁돛 -17338
▁퓌 -17339
탐정 -17340
▁BR -17341
▁ME -17342
▁ㅇㅠ -17343
▁박기 -17344
▁북해 -17345
▁상투 -17346
▁새턴 -17347
▁석상 -17348
▁이부 -17349
▁종주 -17350
▁참배 -17351
▁페가 -17352
▁후시 -17353
▁가입자 -17354
▁경비대 -17355
▁데포르 -17356
▁베일리 -17357
▁파출소 -17358
▁후임자 -17359
▁델라웨어 -17360
▁오브젝트 -17361
▁플로이드 -17362
▁간염 -17363
▁갑각 -17364
▁개전 -17365
▁매월 -17366
▁바덴 -17367
▁박준 -17368
▁베버 -17369
▁시주 -17370
▁오딘 -17371
▁유폐 -17372
▁잠들 -17373
▁파드 -17374
▁팬아 -17375
▁하디 -17376
독립당 -17377
캐스트 -17378
학생회 -17379
▁LCD -17380
▁구청장 -17381
▁북극해 -17382
▁최하위 -17383
▁황태후 -17384
▁1849 -17385
▁네덜란드어 -17386
▁한국독립당 -17387
HD -17388
모자 -17389
사회 -17390
호프 -17391
▁매번 -17392
▁분양 -17393
▁분장 -17394
▁산불 -17395
▁찬탈 -17396
직할시 -17397
▁기부금 -17398
▁나가노 -17399
▁에리크 -17400
베이거스 -17401
▁1856 -17402
▁공화주의 -17403
▁총학생회 -17404
정권 -17405
▁견습 -17406
▁계투 -17407
▁고압 -17408
▁교포 -17409
▁남로 -17410
▁디온 -17411
▁라몬 -17412
▁신작 -17413
▁오기 -17414
▁우동 -17415
▁존엄 -17416
▁치중 -17417
▁가파르 -17418
▁장택상 -17419
▁크레이그 -17420
▁라스베이거스 -17421
23 -17422
▁뚱 -17423
누아 -17424
호르 -17425
▁NX -17426
▁귀양 -17427
▁루머 -17428
▁수표 -17429
▁시경 -17430
▁씨름 -17431
▁어이 -17432
▁요아 -17433
▁웅장 -17434
▁웨일 -17435
▁육아 -17436
▁이안 -17437
▁장령 -17438
▁철원 -17439
▁화북 -17440
▁낙하산 -17441
▁넥스트 -17442
▁보나파 -17443
▁증명서 -17444
▁1851 -17445
▁하이웨이 -17446
▁보나파르트 -17447
▁페더레이션 -17448
▁넉 -17449
▁줌 -17450
오린 -17451
우어 -17452
▁만국 -17453
▁미모 -17454
▁밀스 -17455
▁본디 -17456
▁분쇄 -17457
▁윤영 -17458
▁촌은 -17459
코스트 -17460
쿠스틱 -17461
타니아 -17462
atch -17463
▁입출력 -17464
▁절대로 -17465
▁포위전 -17466
▁사보이아 -17467
▁스탠퍼드 -17468
▁어쿠스틱 -17469
▁차량기지 -17470
▁깡 -17471
체어 -17472
▁내수 -17473
▁비크 -17474
▁셔먼 -17475
▁수류 -17476
▁유장 -17477
▁이견 -17478
▁인피 -17479
▁적재 -17480
▁해일 -17481
▁효능 -17482
프랑스 -17483
▁419 -17484
▁건국대 -17485
▁벤피카 -17486
▁해럴드 -17487
▁Beat -17488
▁캔자스시티 -17489
86 -17490
▁럴 -17491
▁도독 -17492
▁상체 -17493
▁수서 -17494
▁예속 -17495
▁주경 -17496
▁헤엄 -17497
▁430 -17498
▁FBI -17499
▁레인보 -17500
▁진보당 -17501
▁참모장 -17502
▁캥거루 -17503
▁파트리 -17504
▁하동군 -17505
▁1855 -17506
▁블레이드 -17507
▁상파울루 -17508
▁오하이오주 -17509
처리 -17510
▁낙엽 -17511
▁라티 -17512
▁메사 -17513
▁배설 -17514
▁변방 -17515
▁볼륨 -17516
▁사흘 -17517
▁생가 -17518
▁서천 -17519
▁쇼팽 -17520
▁오닐 -17521
▁현령 -17522
▁교직원 -17523
▁베드로 -17524
▁변속기 -17525
▁상속인 -17526
▁시공간 -17527
▁핵폭탄 -17528
▁1857 -17529
▁캐나다인 -17530
▁크리에이티브 -17531
OU -17532
산읍 -17533
섬유 -17534
케스 -17535
하늘 -17536
▁광경 -17537
▁깜짝 -17538
▁소란 -17539
▁알비 -17540
▁원성 -17541
▁적성 -17542
▁한서 -17543
▁ㄷㅏㄴ -17544
▁서북쪽 -17545
개혁 -17546
담회 -17547
봉사 -17548
하르 -17549
▁PP -17550
▁간장 -17551
▁경색 -17552
▁계란 -17553
▁김문 -17554
▁단사 -17555
▁반려 -17556
▁소홀 -17557
▁여과 -17558
▁연임 -17559
▁추궁 -17560
▁카잔 -17561
▁후백 -17562
트로피 -17563
icro -17564
▁Top -17565
▁공사관 -17566
▁글리코 -17567
▁디스코 -17568
▁수산물 -17569
▁시부야 -17570
▁애벌레 -17571
▁오비탈 -17572
▁지난해 -17573
▁하이든 -17574
▁휠체어 -17575
▁노동자당 -17576
▁스티븐스 -17577
▁폴란드인 -17578
▁좡 -17579
ery -17580
▁결탁 -17581
▁봉작 -17582
▁외동 -17583
▁정시 -17584
▁착안 -17585
콥스키 -17586
cess -17587
▁Med -17588
▁작사가 -17589
▁테이크 -17590
▁포천시 -17591
▁갑신정변 -17592
▁다이스케 -17593
▁소용돌이 -17594
▁내구 -17595
▁단성 -17596
▁민생 -17597
▁비참 -17598
▁수훈 -17599
▁실로 -17600
▁체첸 -17601
▁캔디 -17602
▁톨킨 -17603
고양이 -17604
▁갖가지 -17605
▁기념식 -17606
▁보르도 -17607
▁시흥시 -17608
▁식물원 -17609
▁지평선 -17610
▁이와테현 -17611
▁정사각형 -17612
▁프란시스 -17613
▁데포르티보 -17614
▁여러해살이풀 -17615
댄스 -17616
버거 -17617
일라 -17618
▁모기 -17619
▁벽면 -17620
▁보문 -17621
▁서상 -17622
▁여생 -17623
▁치수 -17624
ㄴㄷㅐ -17625
▁시우바 -17626
▁찬드라 -17627
▁펠로폰 -17628
▁포브스 -17629
메니스탄 -17630
▁반공주의 -17631
▁병마절도사 -17632
▁펠로폰네소스 -17633
▁투르크메니스탄 -17634
BT -17635
카테 -17636
▁TG -17637
▁대광 -17638
▁대세 -17639
▁버퍼 -17640
▁수배 -17641
▁유품 -17642
▁임베 -17643
▁주치 -17644
▁해금 -17645
▁301 -17646
▁구미시 -17647
▁베르디 -17648
▁봉사자 -17649
▁수수료 -17650
▁은하단 -17651
츠부르크 -17652
▁마음대로 -17653
▁이해관계 -17654
▁임베디드 -17655
▁민족주의자 -17656
▁힉 -17657
레토 -17658
서구 -17659
전기 -17660
▁CL -17661
▁셀룰 -17662
▁아모 -17663
▁택지 -17664
▁팔자 -17665
▁핵산 -17666
▁211 -17667
▁223 -17668
▁일간지 -17669
▁저작물 -17670
▁헤이스 -17671
깨비 -17672
니엄 -17673
천년 -17674
▁YM -17675
▁단호 -17676
▁담론 -17677
▁분개 -17678
▁사죄 -17679
▁수스 -17680
▁압송 -17681
▁외벽 -17682
▁정년 -17683
▁지소 -17684
▁크세 -17685
▁태세 -17686
▁폰트 -17687
▁히나 -17688
▁감염자 -17689
▁노스케 -17690
▁동의어 -17691
▁아가씨 -17692
▁어리석 -17693
쇼프 -17694
ont -17695
▁롤리 -17696
▁박격 -17697
▁벚꽃 -17698
▁성간 -17699
▁원제 -17700
▁음경 -17701
▁이학 -17702
▁NAD -17703
▁상세히 -17704
▁올라서 -17705
▁집어넣 -17706
▁1776 -17707
▁Free -17708
재기 -17709
흐트 -17710
▁권세 -17711
▁변장 -17712
▁성채 -17713
▁신영 -17714
▁엠블 -17715
▁열반 -17716
▁쟁점 -17717
▁카렐 -17718
▁페티 -17719
▁포구 -17720
▁Pop -17721
▁대각선 -17722
▁보니파 -17723
▁투데이 -17724
▁행정관 -17725
테른 -17726
day -17727
▁IA -17728
▁고증 -17729
▁낙랑 -17730
▁랜디 -17731
▁명주 -17732
▁실습 -17733
▁욕설 -17734
▁율곡 -17735
▁제학 -17736
▁조식 -17737
▁친목 -17738
▁현청 -17739
▁그로스 -17740
▁나주시 -17741
▁대주주 -17742
▁수송기 -17743
▁카운터 -17744
▁컨디션 -17745
▁Will -17746
▁사카모토 -17747
▁서아시아 -17748
니크 -17749
로아 -17750
▁FR -17751
▁국면 -17752
▁노회 -17753
▁대흥 -17754
▁돌핀 -17755
▁슈바 -17756
▁심슨 -17757
▁조력 -17758
▁지병 -17759
노벨라 -17760
시오날 -17761
▁루터교 -17762
▁바이스 -17763
▁비엔나 -17764
▁제이스 -17765
▁나시오날 -17766
▁무라카미 -17767
▁미주리주 -17768
▁엔트로피 -17769
▁플루오린 -17770
▁그레고리력 -17771
▁텔레노벨라 -17772
▁뺏 -17773
광선 -17774
왕국 -17775
지대 -17776
▁거액 -17777
▁만리 -17778
▁빌미 -17779
▁소망 -17780
▁윤선 -17781
▁읽히 -17782
▁퇴사 -17783
▁늘어지 -17784
▁다면체 -17785
▁다이나 -17786
▁레너드 -17787
▁오카다 -17788
▁이범석 -17789
▁형무소 -17790
▁태평천국 -17791
▁금광 -17792
▁급습 -17793
▁뇌졸 -17794
▁반열 -17795
▁악역 -17796
▁알론 -17797
▁중첩 -17798
▁현명 -17799
▁XML -17800
▁달라이 -17801
▁핵실험 -17802
타고라스 -17803
▁캄파니아주 -17804
볼트 -17805
스탕 -17806
하스 -17807
▁UR -17808
▁간파 -17809
▁무왕 -17810
▁부총 -17811
▁서던 -17812
▁언약 -17813
▁인테 -17814
▁장구 -17815
▁타오 -17816
▁탄원 -17817
▁한참 -17818
리어스 -17819
▁하이델 -17820
▁올랭피크 -17821
27 -17822
ma -17823
가야 -17824
▁MW -17825
▁골목 -17826
▁누각 -17827
▁대적 -17828
▁땅콩 -17829
▁살림 -17830
▁요네 -17831
▁코민 -17832
▁파격 -17833
▁현생 -17834
레시브 -17835
▁가속기 -17836
▁병원체 -17837
▁영산회 -17838
▁청구인 -17839
▁출생지 -17840
▁프로그레시브 -17841
29 -17842
마타 -17843
연대 -17844
▁Po -17845
▁ne -17846
▁개요 -17847
▁괴팅 -17848
▁까다 -17849
▁방한 -17850
▁상시 -17851
▁센스 -17852
▁역습 -17853
▁오도 -17854
▁진안 -17855
▁친절 -17856
▁타현 -17857
▁항모 -17858
▁회부 -17859
▁동북쪽 -17860
▁타고나 -17861
고도 -17862
소득 -17863
▁김한 -17864
▁로젠 -17865
▁버즈 -17866
▁시왕 -17867
▁양손 -17868
▁이로 -17869
▁잠복 -17870
▁템포 -17871
루리아 -17872
▁del -17873
▁김종필 -17874
▁독립국 -17875
▁마그마 -17876
▁배트맨 -17877
▁심포니 -17878
▁청교도 -17879
▁클라라 -17880
▁조기어류 -17881
▁10000 -17882
를린 -17883
버드 -17884
연료 -17885
▁가메 -17886
▁국채 -17887
▁누락 -17888
▁로로 -17889
▁마고 -17890
▁명지 -17891
▁미안 -17892
▁발송 -17893
▁장타 -17894
▁Bro -17895
▁거제시 -17896
▁마인드 -17897
▁모여들 -17898
▁사모아 -17899
▁가까스로 -17900
▁레오나르도 -17901
▁묘법연화경 -17902
모습 -17903
바꿈 -17904
투안 -17905
▁대열 -17906
▁몬트 -17907
▁미움 -17908
▁사성 -17909
▁산탄 -17910
▁셰이 -17911
▁역행 -17912
▁연좌 -17913
▁와트 -17914
▁입안 -17915
▁호가 -17916
▁메이플 -17917
▁서기장 -17918
▁어지럽 -17919
▁네브래스카 -17920
▁통합진보당 -17921
슐린 -17922
저민 -17923
쿠젠 -17924
페리 -17925
its -17926
▁간소 -17927
▁교복 -17928
▁미망 -17929
▁사극 -17930
▁수잔 -17931
▁윤석 -17932
▁케니 -17933
▁화신 -17934
들랜드 -17935
irst -17936
▁굳어지 -17937
▁모티프 -17938
▁벤저민 -17939
▁변증법 -17940
▁뽑아내 -17941
▁새천년 -17942
▁피에트로 -17943
급시 -17944
평가 -17945
▁각별 -17946
▁공녀 -17947
▁로미 -17948
▁본기 -17949
▁음란 -17950
▁찬스 -17951
▁청화 -17952
▁최경 -17953
▁홀드 -17954
▁모자라 -17955
▁베르그 -17956
▁샘플링 -17957
▁스나이 -17958
▁아세트 -17959
▁팰리스 -17960
▁황도대 -17961
aut -17962
▁CV -17963
▁나나 -17964
▁노미 -17965
▁마마 -17966
▁밑면 -17967
▁발주 -17968
▁비비 -17969
▁습성 -17970
▁신명 -17971
▁심신 -17972
▁이연 -17973
▁정철 -17974
▁직제 -17975
▁콘월 -17976
▁퇴화 -17977
▁파사 -17978
▁하쿠 -17979
중국해 -17980
▁Big -17981
▁논산시 -17982
▁단기간 -17983
▁서남쪽 -17984
▁크리켓 -17985
▁서스펜션 -17986
▁스포르팅 -17987
▁캔터베리 -17988
▁begin -17989
미치 -17990
증권 -17991
▁DL -17992
▁독감 -17993
▁액수 -17994
▁장보 -17995
▁지단 -17996
▁퓨전 -17997
▁End -17998
▁웨이트 -17999
▁미시간주 -18000
▁코미디언 -18001
연의 -18002
활성 -18003
▁듯이 -18004
▁문교 -18005
▁반일 -18006
▁브롱 -18007
▁시로 -18008
▁위드 -18009
▁유즈 -18010
▁이공 -18011
▁준위 -18012
▁질리 -18013
메데스 -18014
▁리서치 -18015
▁엑스선 -18016
ㅔㄴ -18017
빼미 -18018
▁경치 -18019
▁노먼 -18020
▁다의 -18021
▁배영 -18022
▁에나 -18023
▁우메 -18024
▁천명 -18025
▁총알 -18026
▁화전 -18027
더니즘 -18028
메네스 -18029
▁ㅇㅓㅇ -18030
▁레이어 -18031
▁문화사 -18032
▁해설자 -18033
▁원내대표 -18034
▁포레스트 -18035
▁언더그라운드 -18036
▁감명 -18037
▁과업 -18038
▁라비 -18039
▁레베 -18040
▁로자 -18041
▁성추 -18042
▁세브 -18043
▁연천 -18044
▁주둥 -18045
▁틈새 -18046
▁포에 -18047
▁픽업 -18048
▁합체 -18049
▁혹독 -18050
▁히다 -18051
▁215 -18052
▁239 -18053
▁510 -18054
▁DFB -18055
▁가로막 -18056
▁비정규 -18057
▁유니온 -18058
▁치우치 -18059
▁포위망 -18060
BL -18061
개발 -18062
코바 -18063
aff -18064
▁HK -18065
▁WH -18066
▁개간 -18067
▁기물 -18068
▁생사 -18069
▁서킷 -18070
▁언젠 -18071
▁전갈 -18072
▁종택 -18073
▁질레 -18074
▁쿠키 -18075
▁평년 -18076
▁한도 -18077
▁구석기 -18078
▁기장군 -18079
▁베리아 -18080
▁에인절 -18081
▁특이점 -18082
계리 -18083
▁KC -18084
▁대양 -18085
▁듀크 -18086
▁린드 -18087
▁서드 -18088
▁원가 -18089
▁위니 -18090
▁징후 -18091
▁코다 -18092
파트라 -18093
▁BMW -18094
▁언젠가 -18095
▁특공대 -18096
▁1792 -18097
▁아틀라스 -18098
▁클레오파트라 -18099
보스 -18100
▁까치 -18101
▁니즘 -18102
▁루아 -18103
▁선하 -18104
▁재원 -18105
▁촌락 -18106
▁칸타 -18107
▁황보 -18108
▁set -18109
▁빠뜨리 -18110
▁전년도 -18111
▁프리랜 -18112
▁void -18113
HS -18114
br -18115
▁젬 -18116
가키 -18117
▁가인 -18118
▁낭독 -18119
▁메콩 -18120
▁방수 -18121
▁시료 -18122
▁시암 -18123
▁열광 -18124
▁우랄 -18125
▁우문 -18126
▁위아 -18127
▁정약 -18128
▁창안 -18129
▁체임 -18130
▁패주 -18131
▁픽션 -18132
▁한방 -18133
▁함안 -18134
궐선거 -18135
▁Des -18136
▁계약서 -18137
▁과선교 -18138
▁목걸이 -18139
▁서로마 -18140
▁영등포 -18141
▁월리스 -18142
▁소선거구 -18143
▁재보궐선거 -18144
▁랏 -18145
▁덧셈 -18146
▁바크 -18147
▁부원 -18148
▁살상 -18149
▁예천 -18150
▁원화 -18151
▁표상 -18152
▁호엔 -18153
▁권력자 -18154
▁목격자 -18155
▁사생아 -18156
▁사중주 -18157
▁수메르 -18158
▁Rain -18159
▁알레르기 -18160
▁프로토타입 -18161
루이 -18162
버섯 -18163
삼문 -18164
oss -18165
▁난간 -18166
▁내쫓 -18167
▁덤불 -18168
▁도기 -18169
▁매드 -18170
▁명절 -18171
▁상피 -18172
▁세관 -18173
▁아그 -18174
▁양력 -18175
▁오쓰 -18176
▁요세 -18177
▁유실 -18178
▁접착 -18179
▁최북 -18180
▁포탈 -18181
너티브 -18182
▁까다롭 -18183
▁다다르 -18184
▁미술가 -18185
▁얼터너티브 -18186
▁엘살바도르 -18187
▁SI -18188
▁ㄴㅜ -18189
▁경수 -18190
▁국고 -18191
▁도고 -18192
▁동복 -18193
▁루소 -18194
▁박중 -18195
▁비슈 -18196
▁산토 -18197
▁실드 -18198
▁어필 -18199
▁조참 -18200
▁포즈 -18201
▁ㅇㅜㅁ -18202
▁레일리 -18203
▁부활절 -18204
▁브레인 -18205
▁살아나 -18206
▁외삼촌 -18207
▁표준어 -18208
▁1853 -18209
▁동대문구 -18210
이인 -18211
▁JP -18212
▁RE -18213
▁do -18214
▁가평 -18215
▁금화 -18216
▁마자 -18217
▁모후 -18218
▁성년 -18219
▁아속 -18220
▁영연 -18221
▁입적 -18222
▁정파 -18223
▁제향 -18224
▁홍백 -18225
덜랜드 -18226
▁게이머 -18227
▁계약금 -18228
▁급기야 -18229
▁꽃받침 -18230
▁무인역 -18231
▁시설물 -18232
▁프로파 -18233
▁1791 -18234
▁1852 -18235
▁속씨식물 -18236
▁크래프트 -18237
니발 -18238
막염 -18239
서면 -18240
지않 -18241
행사 -18242
▁구급 -18243
▁몰입 -18244
▁시구 -18245
▁실화 -18246
▁아쓰 -18247
▁청탁 -18248
▁탄환 -18249
▁티르 -18250
▁향리 -18251
▁무안군 -18252
▁보호자 -18253
▁중생대 -18254
▁프레디 -18255
ㄷㅡㄴㅈㅣ -18256
▁슈퍼주니어 -18257
▁퓰 -18258
그림 -18259
vis -18260
▁감히 -18261
▁녀석 -18262
▁다라 -18263
▁밥상 -18264
▁방과 -18265
▁버락 -18266
▁시동 -18267
▁으로 -18268
▁절멸 -18269
▁캄포 -18270
▁TOP -18271
▁따돌리 -18272
▁버밍엄 -18273
▁성동구 -18274
▁호위함 -18275
▁LIVE -18276
▁Show -18277
▁도네츠크 -18278
▁클라리넷 -18279
경궁 -18280
바타 -18281
얼빈 -18282
▁그려 -18283
▁노던 -18284
▁메트 -18285
▁비츠 -18286
▁상권 -18287
▁셰프 -18288
▁숙성 -18289
▁스커 -18290
▁튀르 -18291
핵생물 -18292
▁게이츠 -18293
▁경기력 -18294
▁레프트 -18295
▁부제학 -18296
▁아르카 -18297
▁파이브 -18298
ement -18299
▁모하메드 -18300
▁프라이스 -18301
▁플레이트 -18302
be -18303
ㅍㅣ -18304
노동 -18305
하워 -18306
oup -18307
▁CT -18308
▁FN -18309
▁교우 -18310
▁귀납 -18311
▁독신 -18312
▁비고 -18313
▁사구 -18314
▁수전 -18315
▁시판 -18316
▁실황 -18317
▁안상 -18318
▁영아 -18319
▁자락 -18320
▁장영 -18321
▁플뢰 -18322
제르맹 -18323
▁233 -18324
▁브람스 -18325
▁후반부 -18326
▁권위주의 -18327
▁아이젠하워 -18328
▁옅 -18329
팔렌 -18330
▁EN -18331
▁관서 -18332
▁근연 -18333
▁미팅 -18334
▁박인 -18335
▁부름 -18336
▁수첩 -18337
▁식료 -18338
▁욕심 -18339
▁잠그 -18340
▁제반 -18341
▁제법 -18342
▁최치 -18343
▁케스 -18344
▁후신 -18345
즐랜드 -18346
▁분화구 -18347
▁양서류 -18348
▁요리사 -18349
▁잎자루 -18350
▁퍼뜨리 -18351
▁벌어들이 -18352
▁잣 -18353
노헤 -18354
▁FX -18355
▁국물 -18356
▁색인 -18357
▁신재 -18358
▁에타 -18359
▁연작 -18360
▁우쓰 -18361
▁장터 -18362
▁해동 -18363
▁회중 -18364
▁동인도 -18365
▁미카사 -18366
▁음악회 -18367
▁퍼펙트 -18368
▁황갈색 -18369
▁Like -18370
▁도쿠시마 -18371
▁퀸즐랜드 -18372
▁히로시마현 -18373
타라 -18374
티드 -18375
▁능통 -18376
▁도금 -18377
▁일람 -18378
▁차가 -18379
▁카쿠 -18380
▁호치 -18381
▁희박 -18382
▁히브 -18383
▁212 -18384
▁개찰기 -18385
▁게이초 -18386
▁LOVE -18387
▁다운타운 -18388
▁루키우스 -18389
▁생제르맹 -18390
▁빽 -18391
▁구보 -18392
▁벨레 -18393
▁불황 -18394
▁서하 -18395
▁여태 -18396
▁요트 -18397
▁이족 -18398
▁그려지 -18399
▁끊어지 -18400
▁상류층 -18401
▁성추행 -18402
▁세례명 -18403
▁앵글로 -18404
▁에르난 -18405
▁이스턴 -18406
▁재정난 -18407
▁조나단 -18408
▁1847 -18409
▁뱀파이어 -18410
▁사다하루 -18411
▁인테리어 -18412
▁천주교회 -18413
▁필리포스 -18414
▁테러리스트 -18415
개명 -18416
에어 -18417
하트 -18418
▁갑판 -18419
▁고타 -18420
▁대검 -18421
▁래스 -18422
▁만다 -18423
▁매너 -18424
▁보두 -18425
▁약정 -18426
▁영세 -18427
▁월급 -18428
▁친숙 -18429
▁김포시 -18430
▁옹진군 -18431
▁이베이 -18432
▁중학생 -18433
▁최적화 -18434
▁Mnet -18435
▁시트르산 -18436
▁퍼레이드 -18437
▁콘스탄티노플 -18438
▁EF -18439
▁OC -18440
▁mg -18441
▁가봉 -18442
▁강물 -18443
▁기노 -18444
▁북제 -18445
▁성하 -18446
▁세가 -18447
▁신숙 -18448
▁쑨원 -18449
▁영해 -18450
▁오에 -18451
▁윤상 -18452
▁은둔 -18453
▁이계 -18454
▁정량 -18455
▁포리 -18456
▁관악구 -18457
▁다각형 -18458
▁인슐린 -18459
▁재판장 -18460
▁퀘스트 -18461
▁핵연료 -18462
▁옥타비아 -18463
▁옵티머스 -18464
▁은행나무 -18465
▁롬바르디아 -18466
▁뚝 -18467
▁ㅅㅜ -18468
▁과천 -18469
▁라벤 -18470
▁마누 -18471
▁마로 -18472
▁수온 -18473
▁슬럼 -18474
▁안젤 -18475
▁야채 -18476
▁유위 -18477
▁음색 -18478
▁음소 -18479
▁제각 -18480
리오카 -18481
하이머 -18482
▁생태학 -18483
▁올빼미 -18484
▁점성가 -18485
▁지원자 -18486
▁국민회의 -18487
▁레인보우 -18488
▁NK -18489
▁경감 -18490
▁귀향 -18491
▁기치 -18492
▁김호 -18493
▁망상 -18494
▁버블 -18495
▁수뇌 -18496
▁약국 -18497
▁연사 -18498
▁완투 -18499
▁착오 -18500
▁청진 -18501
자위대 -18502
▁Red -18503
▁검사장 -18504
▁레슬리 -18505
▁레오니 -18506
▁브룩스 -18507
▁세일러 -18508
▁저술가 -18509
▁중대장 -18510
▁지도력 -18511
▁편의점 -18512
▁현악기 -18513
▁버지니아주 -18514
▁안티고노스 -18515
▁자동변속기 -18516
▁뿌 -18517
▁젓 -18518
▁찻 -18519
랄라 -18520
야구 -18521
way -18522
▁UK -18523
▁es -18524
▁계파 -18525
▁고질 -18526
▁관사 -18527
▁구면 -18528
▁독려 -18529
▁밀턴 -18530
▁수찬 -18531
▁원망 -18532
▁초중 -18533
▁쿠페 -18534
▁회군 -18535
ouse -18536
▁221 -18537
▁강아지 -18538
▁뇌졸중 -18539
▁정말로 -18540
▁하얼빈 -18541
▁Sound -18542
WS -18543
▁똥 -18544
▁나팔 -18545
▁냉동 -18546
▁마조 -18547
▁미일 -18548
▁보현 -18549
▁스벤 -18550
▁쓰가 -18551
▁연일 -18552
▁예견 -18553
▁왈라 -18554
▁조만 -18555
▁주어 -18556
▁차드 -18557
▁최재 -18558
▁팔각 -18559
▁푸시 -18560
▁품계 -18561
▁황성 -18562
▁Sec -18563
▁릴리스 -18564
▁탈수소 -18565
브레히트 -18566
▁Over -18567
▁Sing -18568
▁경향신문 -18569
▁콘티넨털 -18570
▁프리랜서 -18571
▁즌 -18572
귀비 -18573
▁계명 -18574
▁고작 -18575
▁나츠 -18576
▁남짓 -18577
▁라피 -18578
▁명품 -18579
▁발라 -18580
▁송금 -18581
▁슬롯 -18582
▁여야 -18583
▁우성 -18584
▁진과 -18585
▁출소 -18586
▁클론 -18587
▁231 -18588
▁리히텐 -18589
▁미망인 -18590
▁부끄럽 -18591
▁세포막 -18592
▁정보국 -18593
▁1100 -18594
▁1844 -18595
▁동명이인 -18596
▁창씨개명 -18597
▁카리브해 -18598
▁Light -18599
비어 -18600
▁ac -18601
▁낙인 -18602
▁따내 -18603
▁미신 -18604
▁발화 -18605
▁불펜 -18606
▁서간 -18607
▁오목 -18608
▁조승 -18609
▁커크 -18610
▁혈청 -18611
하이드 -18612
▁가오슝 -18613
▁여름철 -18614
▁가이우스 -18615
▁즙 -18616
방식 -18617
색슨 -18618
오세 -18619
IDS -18620
▁갑상 -18621
▁동족 -18622
▁삼가 -18623
▁섬멸 -18624
▁수난 -18625
▁수작 -18626
▁식년 -18627
▁안구 -18628
▁외화 -18629
▁이등 -18630
▁정구 -18631
▁주술 -18632
▁크릭 -18633
▁파니 -18634
▁호감 -18635
▁회기 -18636
ason -18637
▁배상금 -18638
▁산화물 -18639
▁유목민 -18640
▁피스톤 -18641
▁곤살레스 -18642
▁랜드마크 -18643
▁브래들리 -18644
▁앵글로색슨 -18645
aj -18646
▁읊 -18647
거슨 -18648
옹주 -18649
▁고부 -18650
▁골자 -18651
▁공물 -18652
▁굴리 -18653
▁만찬 -18654
▁베레 -18655
▁유주 -18656
▁하체 -18657
▁Bar -18658
▁Eng -18659
▁명백히 -18660
▁사이다 -18661
▁유학생 -18662
▁참가국 -18663
▁카이저 -18664
▁하루카 -18665
▁계몽주의 -18666
▁민속문화재 -18667
타바 -18668
프슨 -18669
▁TA -18670
▁궁금 -18671
▁다키 -18672
▁대파 -18673
▁마왕 -18674
▁색조 -18675
▁신빙 -18676
▁아워 -18677
▁요안 -18678
▁유루 -18679
▁자력 -18680
▁점심 -18681
▁학점 -18682
▁Net -18683
▁ㅇㅏㄴ -18684
▁박격포 -18685
▁수류탄 -18686
▁플랜트 -18687
▁한마디 -18688
▁현급시 -18689
▁요코스카 -18690
▁포리스트 -18691
▁삼국지연의 -18692
루트 -18693
시간 -18694
▁JS -18695
▁박주 -18696
▁삼부 -18697
▁슬퍼 -18698
▁신예 -18699
▁오경 -18700
▁재야 -18701
▁커트 -18702
▁토토 -18703
대주의 -18704
▁정착민 -18705
▁좀처럼 -18706
▁사회단체 -18707
▁오를레앙 -18708
▁RO -18709
▁간편 -18710
▁강압 -18711
▁동천 -18712
▁미오 -18713
▁북단 -18714
▁운문 -18715
▁이도 -18716
▁정연 -18717
▁체온 -18718
▁추석 -18719
▁취락 -18720
▁호러 -18721
▁갑각류 -18722
▁에버턴 -18723
▁시라카와 -18724
니언 -18725
오밍 -18726
▁과수 -18727
▁균류 -18728
▁디어 -18729
▁부응 -18730
▁선방 -18731
▁테츠 -18732
▁390 -18733
▁정찰기 -18734
▁조교수 -18735
▁프로필 -18736
▁현저히 -18737
▁1837 -18738
▁아시리아 -18739
승람 -18740
쿠로 -18741
red -18742
▁RD -18743
▁그람 -18744
▁레딧 -18745
▁만경 -18746
▁봉산 -18747
▁숙고 -18748
▁콕스 -18749
▁한류 -18750
▁후각 -18751
▁흡혈 -18752
▁목판본 -18753
▁서산시 -18754
▁예배당 -18755
▁네덜란드인 -18756
워키 -18757
ana -18758
iet -18759
▁Pa -18760
▁걸즈 -18761
▁계략 -18762
▁맨틀 -18763
▁미약 -18764
▁부결 -18765
▁실바 -18766
▁아론 -18767
▁업소 -18768
▁오니 -18769
▁우미 -18770
▁원판 -18771
베를린 -18772
슈타트 -18773
클레스 -18774
▁228 -18775
▁Har -18776
▁미스트 -18777
▁비스트 -18778
▁유가족 -18779
▁화순군 -18780
▁후견인 -18781
▁북베트남 -18782
▁오렌지색 -18783
▁알레산드로 -18784
실론 -18785
코로 -18786
▁교착 -18787
▁김응 -18788
▁노시 -18789
▁도핑 -18790
▁면접 -18791
▁선승 -18792
▁수유 -18793
▁앙주 -18794
▁여순 -18795
▁청렴 -18796
▁치타 -18797
▁코노 -18798
▁패미 -18799
자동차 -18800
▁도지사 -18801
▁반대쪽 -18802
▁제작소 -18803
▁프런트 -18804
▁꽁 -18805
▁뜰 -18806
▁ro -18807
▁고해 -18808
▁바예 -18809
▁아저 -18810
▁오데 -18811
▁울음 -18812
▁유흥 -18813
▁주앙 -18814
▁폐간 -18815
▁필살 -18816
▁히치 -18817
정대부 -18818
▁가야금 -18819
▁군단장 -18820
▁발자국 -18821
▁이준용 -18822
▁콘셉트 -18823
▁평창군 -18824
▁개인주의 -18825
호크 -18826
▁담화 -18827
▁벙커 -18828
▁비명 -18829
▁비약 -18830
▁송병 -18831
▁영흥 -18832
▁익주 -18833
▁쟁취 -18834
▁혹평 -18835
echn -18836
▁fun -18837
▁경영진 -18838
▁명륜당 -18839
▁발명가 -18840
▁아저씨 -18841
▁최남단 -18842
소시 -18843
ech -18844
ric -18845
▁MX -18846
▁강수 -18847
▁나방 -18848
▁노년 -18849
▁로랑 -18850
▁상석 -18851
▁성녀 -18852
▁일직 -18853
▁토사 -18854
▁티에 -18855
▁판별 -18856
▁한옥 -18857
▁노원구 -18858
▁멤피스 -18859
▁모국어 -18860
▁슬퍼하 -18861
▁연장선 -18862
▁자신감 -18863
▁케네스 -18864
▁테레사 -18865
▁항저우 -18866
▁스테레오 -18867
▁트레이너 -18868
99 -18869
부스 -18870
▁ㅅㅔ -18871
[...]
